<unk>	0
<s>	0
</s>	0
(	-4.0984
之	-4.10404
/	-4.47137
)	-4.4754
而	-4.78908
以	-4.86906
為	-4.99056
也	-5.01534
書	-5.17459
其	-5.17713
有	-5.18991
字	-5.22002
/)	-5.24769
者	-5.27176
人	-5.33563
於	-5.37119
曰	-5.47122
不	-5.62052
王	-5.71049
碑	-5.76843
一	-5.78112
中	-5.7874
文	-5.79324
唐	-5.82674
▁	-5.83231
則	-5.87193
又	-5.89255
子	-5.8983
作	-5.93295
闕	-5.95958
撰	-5.96441
與	-6.00083
大	-6.00709
公	-6.01478
自	-6.04325
無	-6.05866
在	-6.12339
傳	-6.12712
言	-6.13486
此	-6.14035
元	-6.15473
三	-6.15771
故	-6.19299
經	-6.20696
云	-6.22104
皆	-6.22361
本	-6.2264
明	-6.22923
時	-6.23258
行	-6.23621
至	-6.2366
詩	-6.26477
所	-6.27767
易	-6.29003
亦	-6.29412
集	-6.29474
事	-6.29762
上	-6.30078
二	-6.30974
今	-6.31249
記	-6.31396
矣	-6.3206
正	-6.33768
道	-6.36906
名	-6.37377
非	-6.39767
後	-6.40633
得	-6.41854
是	-6.42898
然	-6.43416
李	-6.43444
乃	-6.43572
張	-6.44224
)(	-6.44607
學	-6.4587
爲	-6.46238
春秋	-6.4734
氏	-6.49491
山	-6.50447
下	-6.50635
如	-6.50982
見	-6.51578
及	-6.52302
義	-6.52685
州	-6.54344
四	-6.5621
石	-6.56502
知	-6.56798
天	-6.57362
漢	-6.57663
君	-6.58472
世	-6.6156
右	-6.61623
古	-6.626
五	-6.62997
周	-6.63475
同	-6.63608
宋	-6.66049
論	-6.66448
家	-6.67971
陳	-6.67975
禮	-6.68371
復	-6.6858
乎	-6.69528
志	-6.69614
立	-6.7
成	-6.70256
日	-6.70514
用	-6.70741
可	-6.71031
多	-6.711
通	-6.71608
録	-6.71653
一卷	-6.72035
焉	-6.74252
官	-6.74704
于	-6.7537
方	-6.75435
謂	-6.75869
相	-6.76173
出	-6.76729
生	-6.76731
史	-6.7697
劉	-6.80398
注	-6.8114
法	-6.81575
九	-6.81743
已	-6.82356
序	-6.82488
六	-6.83026
從	-6.86621
國	-6.89421
宗	-6.89619
南	-6.89672
何	-6.90315
年	-6.90376
安	-6.91216
臣	-6.91983
載	-6.92775
惟	-6.93179
因	-6.93358
諸	-6.94086
圖	-6.94221
始	-6.94289
定	-6.94364
長	-6.94681
陽	-6.94892
説	-6.95097
令	-6.95677
當	-6.96137
平	-6.96414
初	-6.96988
觀	-6.97376
若	-6.98033
數	-6.98214
師	-6.99289
徳	-7.00062
先生	-7.01115
縣	-7.02017
稱	-7.0202
士	-7.02257
孫	-7.02563
折	-7.03277
或	-7.03357
雖	-7.0341
即	-7.03957
前	-7.03994
意	-7.04813
善	-7.04856
取	-7.0594
命	-7.07854
遂	-7.0974
分	-7.09787
心	-7.09876
帖	-7.09877
等	-7.10299
伯	-7.12103
未	-7.12218
類	-7.12239
使	-7.12763
章	-7.13054
卷	-7.13117
考	-7.13255
按	-7.1334
入	-7.13414
余	-7.13933
髙	-7.14155
解	-7.14859
能	-7.1501
著	-7.15338
東	-7.15833
先	-7.166
<	-7.16937
t	-7.16937
="33"/>	-7.16937
楊	-7.17075
神	-7.17557
重	-7.17637
七	-7.18412
以為	-7.18666
合	-7.1868
思	-7.19016
十	-7.19089
夫	-7.19439
少	-7.19443
居	-7.20103
金	-7.20233
耳	-7.20267
八	-7.20932
新	-7.21254
紀	-7.21308
既	-7.21448
晉	-7.21856
民	-7.21864
刻	-7.22091
西	-7.2251
建	-7.23253
鄭	-7.23605
異	-7.23699
黄	-7.2422
凡	-7.243
存	-7.24681
疑	-7.2473
武	-7.25217
林	-7.25398
象	-7.25757
光	-7.26452
理	-7.26522
樂	-7.26841
修	-7.26932
篇	-7.26972
水	-7.27196
門	-7.27376
真	-7.27777
仲	-7.28557
聖	-7.29501
十卷	-7.29546
趙	-7.29822
間	-7.30721
齊	-7.30778
歸	-7.31044
語	-7.31077
興	-7.31452
二卷	-7.31501
次	-7.32134
獨	-7.32216
廣	-7.32479
梁	-7.32975
小	-7.33548
寺	-7.33942
清	-7.33945
銘	-7.3418
嘗	-7.35003
辭	-7.35598
欲	-7.36128
治	-7.36701
信	-7.37124
尚書	-7.37989
實	-7.38293
釋	-7.38327
父	-7.38883
卿	-7.39893
必	-7.40332
朝	-7.40343
深	-7.40553
龍	-7.40743
府	-7.4075
問	-7.41511
直	-7.41729
題	-7.4182
精	-7.41833
萬	-7.42042
守	-7.42182
應	-7.42229
舉	-7.4244
魏	-7.42714
郡	-7.42974
佚	-7.4314
德	-7.43429
尚	-7.43736
去	-7.43853
周易	-7.43871
孔子	-7.44041
常	-7.44558
一部一冊	-7.4476
侯	-7.45117
缺	-7.45543
且	-7.456
祖	-7.45841
仁	-7.46028
城	-7.46106
蓋	-7.47573
吾	-7.48278
秦	-7.48524
盡	-7.48624
政	-7.4905
表	-7.49056
編	-7.49081
甚	-7.4941
玉	-7.49415
雲	-7.49532
予	-7.49589
聞	-7.4983
地	-7.50173
徐	-7.50319
變	-7.50421
原	-7.50527
來	-7.50677
逺	-7.50813
哉	-7.5089
外	-7.51255
魯	-7.51259
筆	-7.5132
舊	-7.51345
首	-7.51674
朱	-7.5195
補	-7.5212
和	-7.52462
將	-7.5248
江	-7.53398
述	-7.53475
風	-7.53983
發	-7.54281
𤣥	-7.54478
辨	-7.55244
三卷	-7.55316
老	-7.55345
卒	-7.5578
各	-7.56009
遺	-7.56018
進	-7.5611
體	-7.5617
餘	-7.56221
授	-7.56506
說	-7.56645
吳	-7.56652
景	-7.56686
起	-7.56866
物	-7.56884
要	-7.56893
節	-7.57028
孝	-7.57215
白	-7.57373
别	-7.57514
猶	-7.57954
堂	-7.58254
卦	-7.58384
左	-7.58568
帝	-7.58632
内	-7.58664
續	-7.58885
錄	-7.59128
兼	-7.59449
求	-7.59672
遷	-7.6002
號	-7.60454
不可	-7.6049
改	-7.61583
簡	-7.62914
難	-7.63015
爾	-7.6308
極	-7.63126
都	-7.63429
封	-7.63479
元年	-7.63682
夏	-7.63734
亡	-7.63881
益	-7.63913
盖	-7.63957
處	-7.6455
月	-7.64879
敬	-7.65274
叔	-7.65491
固	-7.65587
二年	-7.65705
主	-7.6577
華	-7.65961
詳	-7.66819
制	-7.6763
北	-7.67991
近	-7.68123
豈	-7.68739
學者	-7.69225
太	-7.69897
訓	-7.70002
不能	-7.70557
許	-7.71375
㑹	-7.71386
兩	-7.71676
百	-7.72034
終	-7.72128
目	-7.7222
馬	-7.72455
讀	-7.72524
詔	-7.72712
齋	-7.72741
誤	-7.7301
我	-7.73121
胡	-7.73386
畧	-7.73771
賢	-7.74011
司	-7.745
陵	-7.74505
引	-7.74595
雜	-7.74822
忠	-7.74864
絶	-7.7506
過	-7.75205
葢	-7.75357
靈	-7.75491
屬	-7.75684
承	-7.75714
永	-7.76308
天下	-7.7713
所謂	-7.77171
宜	-7.77999
昭	-7.78236
海	-7.78551
而不	-7.78678
全	-7.78723
工	-7.78857
置	-7.79433
列	-7.79456
斯	-7.7952
呉	-7.79682
聖人	-7.79814
畫	-7.80661
顧	-7.80779
開	-7.80803
孔	-7.80806
論語	-7.81316
良	-7.81403
比	-7.81556
崇	-7.81573
音	-7.81987
教	-7.82127
并	-7.82128
附	-7.82254
俱	-7.82272
度	-7.82814
更	-7.82858
寳	-7.82908
高	-7.83131
昌	-7.83412
未見	-7.83615
奉	-7.83673
臨	-7.83752
止	-7.83849
廟	-7.83916
死	-7.84139
力	-7.84227
氣	-7.84881
好	-7.85177
流	-7.85215
進士	-7.85446
春	-7.85591
韓	-7.86213
宣	-7.86256
僧	-7.865
致	-7.86659
加	-7.86722
由	-7.86751
並	-7.86795
陸	-7.86986
失	-7.87594
不知	-7.87623
草	-7.87893
頌	-7.87973
宫	-7.88001
功	-7.8803
儀	-7.88125
孟子	-7.88831
據	-7.89057
議	-7.89324
廢	-7.89384
此書	-7.89554
三年	-7.89591
寧	-7.89794
但	-7.89866
田	-7.89936
微	-7.90071
博	-7.90114
第	-7.90421
季	-7.90562
周禮	-7.9061
末	-7.90618
疏	-7.90667
竒	-7.9158
軍	-7.91586
所以	-7.91729
四卷	-7.92078
尊	-7.92286
共	-7.92688
備	-7.92758
代	-7.92767
受	-7.9286
典	-7.93032
兵	-7.93466
具	-7.93517
手	-7.93528
顯	-7.94052
位	-7.94415
里	-7.94911
造	-7.95627
請	-7.95715
業	-7.95821
尤	-7.95923
部	-7.96282
親	-7.9632
斷	-7.96458
識	-7.96469
者也	-7.96783
耶	-7.97025
登	-7.97109
賜	-7.97608
藏	-7.97623
金石	-7.97653
順	-7.97796
似	-7.98113
歴	-7.98164
孟	-7.9826
乾	-7.98283
望	-7.98436
嚴	-7.98493
朱子	-7.98843
孝經	-7.98874
略	-7.99917
誠	-8.00034
正書	-8.00598
貞	-8.00832
四年	-8.01054
特	-8.01155
河	-8.01236
其書	-8.01314
任	-8.01361
程	-8.01413
隂	-8.01444
端	-8.01948
儒	-8.02007
勝	-8.02306
服	-8.02387
化	-8.02439
皇	-8.02888
聲	-8.0338
嘉	-8.03674
臺	-8.03915
禮記	-8.03981
推	-8.04266
千	-8.04362
縣志	-8.04776
沈	-8.04863
賦	-8.05056
逸	-8.05166
楚	-8.05233
亂	-8.05348
蘇	-8.05662
鄉	-8.05943
身	-8.06186
之書	-8.06322
太守	-8.07538
如此	-8.08481
弟子	-8.08509
拜	-8.08701
總	-8.08716
慶	-8.08867
盛	-8.09513
此碑	-8.09756
之所	-8.09758
蔡	-8.10152
二十卷	-8.10607
而已	-8.11025
郭	-8.11045
於是	-8.11205
奏	-8.11222
州刺史	-8.11315
姓	-8.11389
譜	-8.11828
古文	-8.11904
講	-8.11955
左氏	-8.12351
衆	-8.1301
曹	-8.13074
稿	-8.13201
足	-8.13307
例	-8.13713
六卷	-8.13964
五卷	-8.14125
指	-8.14237
女	-8.14583
獻	-8.14888
之説	-8.15053
濟	-8.15072
貴	-8.15193
嵗	-8.15552
衡	-8.15633
省	-8.15875
之學	-8.16065
吕	-8.16116
京	-8.16195
厯	-8.1621
溪	-8.16268
土	-8.16807
咸	-8.16886
十二卷	-8.16993
除	-8.17196
杜	-8.17263
謝	-8.17682
贈	-8.17871
泉	-8.17933
利	-8.18025
范	-8.18518
路	-8.18519
丘	-8.18532
就	-8.1856
篆	-8.18864
四書	-8.18881
之後	-8.18934
叙	-8.18954
十二	-8.1941
石經	-8.19467
才	-8.19756
祠	-8.2007
印	-8.20242
頗	-8.20251
反	-8.20279
謂之	-8.20646
英	-8.20791
八分書	-8.20793
闕二	-8.20819
邑	-8.21501
可以	-8.2168
康	-8.21694
至於	-8.21728
游	-8.21732
當時	-8.21946
習	-8.22132
五經	-8.22303
衛	-8.227
還	-8.22989
薛	-8.2301
食	-8.23221
五年	-8.23335
閣	-8.2366
汝	-8.24009
福	-8.24043
王氏	-8.2412
達	-8.24305
俗	-8.2443
纂	-8.2443
采	-8.2444
視	-8.24875
大夫	-8.24903
蕭	-8.25019
越	-8.25043
句	-8.25303
莫	-8.25454
木	-8.25653
母	-8.25945
昔	-8.26051
商	-8.26146
悉	-8.26276
克	-8.2631
八卷	-8.26355
出於	-8.26656
素	-8.26823
洪	-8.26921
崔	-8.26997
澤	-8.27156
歲	-8.27164
約	-8.27207
嘉靖	-8.27379
字子	-8.27427
隋	-8.27429
殿	-8.28457
秋	-8.28501
源	-8.28602
科	-8.28678
君子	-8.28732
古今	-8.28733
告	-8.28758
韻	-8.28776
郎	-8.28798
運	-8.2895
美	-8.28966
病	-8.29209
權	-8.29332
虞	-8.29378
殊	-8.29402
容	-8.29734
墨	-8.29751
繼	-8.29785
吉	-8.29814
統	-8.29876
對	-8.3013
萬厯	-8.30296
友	-8.30299
每	-8.30342
一作	-8.3037
甫	-8.3038
參	-8.30646
冊	-8.30674
翼	-8.30733
詞	-8.30803
彦	-8.30985
遊	-8.31471
隨	-8.31494
休	-8.3152
律	-8.31577
錢	-8.31586
器	-8.31754
院	-8.32047
弟	-8.32262
顔	-8.32417
六經	-8.32534
施	-8.32595
占	-8.32877
愚	-8.32973
不同	-8.33022
攷	-8.33317
惠	-8.33672
㫖	-8.33744
雅	-8.34354
質	-8.34373
盧	-8.34467
希	-8.3466
輔	-8.34692
召	-8.34708
延	-8.34851
曲	-8.34964
袁	-8.35089
川	-8.35158
兮	-8.35746
形	-8.35846
寶	-8.35934
隱	-8.36238
性	-8.36401
□	-8.3659
得之	-8.36754
再	-8.36892
六年	-8.36955
秀	-8.37035
升	-8.37109
仙	-8.37143
湖	-8.37266
妙	-8.3728
仕	-8.37622
其所	-8.37672
蜀	-8.37786
維	-8.37866
羅	-8.37942
吏	-8.38003
冠	-8.38089
喜	-8.38186
散	-8.38196
彼	-8.38367
談	-8.38622
一部	-8.39038
校	-8.39139
又有	-8.39446
申	-8.39509
青	-8.39579
祭	-8.39724
開元	-8.39884
集古	-8.39935
恭	-8.3998
諸儒	-8.40075
𨽻	-8.40174
大學	-8.40186
韋	-8.40248
墓	-8.40425
示	-8.40449
不得	-8.40555
向	-8.40787
其後	-8.4104
谷	-8.41179
惡	-8.41232
諱	-8.41243
選	-8.4126
徒	-8.41425
葉	-8.41718
疾	-8.41815
三十卷	-8.41825
野	-8.41861
曾	-8.42039
案	-8.42344
刋	-8.42621
轉	-8.4266
差	-8.42786
虚	-8.43078
苐	-8.43229
星	-8.43572
交	-8.43684
洞	-8.44013
依	-8.4421
幾	-8.44241
適	-8.44342
感	-8.44363
佳	-8.44394
當是	-8.44415
動	-8.44501
執	-8.44727
儀禮	-8.45026
私	-8.45079
坐	-8.45139
其文	-8.45235
羣	-8.45449
蘭亭	-8.45652
二十	-8.4587
御	-8.45889
鼎	-8.45954
司馬	-8.45978
之言	-8.45982
最	-8.45989
嗣	-8.45995
窮	-8.46069
條	-8.46264
爻	-8.46558
紹興	-8.46574
懐	-8.46607
尹	-8.46736
之意	-8.46915
榮	-8.47064
輯	-8.47301
車	-8.47331
莊	-8.47919
計	-8.47945
亭	-8.48317
中庸	-8.48432
移	-8.48472
證	-8.48661
題名	-8.48677
薦	-8.48779
夢	-8.48873
毛詩	-8.49665
祀	-8.49677
資	-8.49706
禹	-8.4975
室	-8.50007
又云	-8.50128
得其	-8.50436
夀	-8.50849
夫子	-8.50953
徴	-8.51308
愛	-8.5134
右軍	-8.51414
穆	-8.51429
肅	-8.51767
率	-8.51801
摹	-8.51805
歌	-8.51848
果	-8.51908
妄	-8.51981
燕	-8.52051
便	-8.52088
憲	-8.52452
降	-8.52624
符	-8.53027
尋	-8.53072
覽	-8.53089
而後	-8.53284
離	-8.53457
贊	-8.53729
翁	-8.53743
又曰	-8.53771
宏	-8.53869
震	-8.53877
篆額	-8.54099
智	-8.5418
久	-8.54191
佛	-8.54305
雨	-8.54311
河南	-8.54533
丁	-8.54797
遇	-8.5484
厚	-8.54939
序曰	-8.5541
二百	-8.55493
自序曰	-8.55623
碑隂	-8.55704
陶	-8.5585
一字	-8.55888
淵	-8.5592
章句	-8.55926
往	-8.56019
邦	-8.56041
試	-8.56434
後世	-8.56473
刑	-8.56554
切	-8.56564
半	-8.56703
偽	-8.56971
董	-8.57007
諸家	-8.57345
謙	-8.57417
隋志	-8.5754
行書	-8.57639
鎮	-8.57661
馮	-8.58024
監	-8.58112
威	-8.58181
情	-8.58863
垂	-8.589
謹	-8.59094
周公	-8.59128
為之	-8.59203
純	-8.59443
綱	-8.59485
式	-8.5965
夷	-8.59651
於此	-8.59766
曽	-8.60186
空	-8.60288
丞	-8.60466
松	-8.606
裴	-8.6066
留	-8.60718
洛	-8.60745
鍾	-8.608
二字	-8.61088
期	-8.61263
廷	-8.61478
是書	-8.61525
恐	-8.61579
連	-8.61591
温	-8.61691
幸	-8.61702
丹	-8.61784
充	-8.6179
飛	-8.62181
泰	-8.62418
房	-8.62444
畢	-8.62475
文字	-8.62524
跋	-8.62697
職	-8.62735
䝉	-8.63274
養	-8.6351
茂	-8.63565
岳	-8.63605
幽	-8.63631
察	-8.63683
敏	-8.63684
仍	-8.6385
見於	-8.64002
色	-8.64163
竹	-8.64211
追	-8.64259
謀	-8.64381
庭	-8.64426
后	-8.6444
覺	-8.64564
殷	-8.6469
脩	-8.6497
樓	-8.64979
竊	-8.65459
下闕	-8.65467
圗	-8.65531
恩	-8.65675
以來	-8.65708
設	-8.6575
允	-8.65856
哀	-8.66103
尉	-8.66175
雄	-8.66354
皇帝	-8.66437
晦	-8.66777
舍	-8.6678
天地	-8.66955
保	-8.67496
一篇	-8.67636
滅	-8.67747
戒	-8.67783
賈	-8.67939
佐	-8.68138
完	-8.68256
墓誌	-8.68416
勤	-8.68488
棄	-8.68506
以爲	-8.68689
所載	-8.68697
註	-8.68713
辟	-8.68854
堯	-8.68906
品	-8.68931
學士	-8.6904
未嘗	-8.69174
石刻	-8.69474
况	-8.69591
像	-8.69709
之道	-8.69774
𢎞	-8.69794
伏	-8.69867
葬	-8.69969
姚	-8.70014
博士	-8.70025
射	-8.70115
史記	-8.70117
術	-8.7026
池	-8.70344
碑唐	-8.70482
刻石	-8.70523
積	-8.70919
先儒	-8.71018
務	-8.71247
隠	-8.71693
未有	-8.7172
邪	-8.71825
十一	-8.71918
專	-8.72238
傅	-8.72246
三百	-8.72332
兹	-8.7241
衣	-8.72556
巖	-8.72613
諸侯	-8.72638
籍	-8.72913
十三	-8.73016
掌	-8.73183
七年	-8.73209
僅	-8.73301
是也	-8.73368
後人	-8.73438
爵	-8.73618
豐	-8.73698
客	-8.73962
門人	-8.74274
將軍	-8.7428
間修	-8.74337
模	-8.74557
獲	-8.74727
不敢	-8.7482
種	-8.74922
機	-8.75096
雍	-8.75147
天子	-8.75562
瑞	-8.75576
然則	-8.75635
集十卷	-8.75649
眞	-8.75736
他	-8.7576
不復	-8.76224
以下	-8.76292
誦	-8.76434
勢	-8.77044
弗	-8.77047
堅	-8.77151
憂	-8.77296
殆	-8.77406
烈	-8.77412
十五卷	-8.77471
三十	-8.7753
亦有	-8.77614
之文	-8.77661
上下	-8.77787
増	-8.77891
井	-8.77899
緯	-8.78111
毛	-8.78158
標	-8.78242
口	-8.78779
會	-8.78857
謬	-8.78874
兄	-8.79135
刪	-8.79334
錫	-8.79473
其説	-8.79511
故吏	-8.79523
湯	-8.79535
貫	-8.79626
祥	-8.79721
文集	-8.79761
一巻	-8.80108
可謂	-8.80301
倫	-8.80391
錯	-8.80404
牧	-8.80507
稍	-8.80538
評	-8.81009
夫人	-8.81024
寫	-8.81086
額	-8.81097
寜	-8.81212
落	-8.81399
一部二冊	-8.81416
發明	-8.815
一人	-8.81523
寛	-8.81558
揚	-8.81642
格	-8.81677
均	-8.81989
邵	-8.82046
戴	-8.82197
徵	-8.82207
九年	-8.82209
經傳	-8.82222
十年	-8.82393
偶	-8.82596
旁	-8.82603
慎	-8.82622
文王	-8.82719
愈	-8.82775
持	-8.82791
晚	-8.82935
其言	-8.83118
不及	-8.83132
規	-8.83207
第一	-8.83343
坤	-8.83393
浮	-8.83393
布	-8.83395
繁	-8.83483
館	-8.83533
敢	-8.83681
費	-8.83692
收	-8.83709
究	-8.83897
懷	-8.839
芳	-8.8395
喪	-8.84058
􁶚	-8.84176
李氏	-8.84324
十五	-8.84473
之說	-8.84604
族	-8.84707
擇	-8.84747
乆	-8.84853
司空	-8.84883
而無	-8.85225
汪	-8.85327
稽	-8.85344
廟碑	-8.85388
南京	-8.85418
衍	-8.85448
弼	-8.85536
願	-8.85588
其事	-8.85779
息	-8.85839
報	-8.85845
丞相	-8.8588
七卷	-8.85915
繫辭	-8.86249
唐志	-8.8628
龜	-8.86313
陳氏	-8.86361
襄	-8.86811
循	-8.86914
勞	-8.86933
管	-8.86997
碑云	-8.87023
紹	-8.87053
隆	-8.8712
尺	-8.87131
甲	-8.87185
忘	-8.87202
無所	-8.87235
十六	-8.87434
朔	-8.87503
患	-8.8755
字畫	-8.87623
教授	-8.87678
有所	-8.87765
審	-8.87813
富	-8.87822
太子	-8.87875
靖	-8.8792
之類	-8.87982
包	-8.88026
火	-8.88055
彭	-8.88069
字伯	-8.88234
横	-8.88266
苟	-8.887
念	-8.88711
魚	-8.88906
亮	-8.88943
十八	-8.89149
避	-8.89169
晋	-8.89171
八分	-8.89253
不足	-8.89267
被	-8.89377
隂陽	-8.8939
範	-8.89561
俾	-8.89582
宋志	-8.89704
恒	-8.89801
演	-8.89913
公羊	-8.90145
苑	-8.90198
玩	-8.90206
皆有	-8.90213
罪	-8.90257
征	-8.90769
紙	-8.90775
之間	-8.9079
舜	-8.90878
繫	-8.91124
面	-8.91177
析	-8.91189
易之	-8.91273
侍	-8.91287
奏議	-8.91345
履	-8.91422
賊	-8.9145
累	-8.91451
之事	-8.9172
須	-8.91889
抄	-8.91965
跡	-8.91978
蘭	-8.92064
此本	-8.92167
增	-8.92326
厥	-8.92327
誤作	-8.92381
鑑	-8.92497
麗	-8.92775
撫	-8.92785
姑	-8.92831
欽	-8.92857
勒	-8.92859
所書	-8.92873
漸	-8.92886
樹	-8.93069
唯	-8.93275
殺	-8.93296
九卷	-8.93306
復齋	-8.93399
元和	-8.93441
户	-8.93572
張氏	-8.93605
州人	-8.93639
鄭氏	-8.93697
伐	-8.93727
橋	-8.93781
遣	-8.93794
鳳	-8.93817
夜	-8.93947
貢	-8.93955
之義	-8.94187
司徒	-8.94221
壽	-8.94267
栁	-8.94303
園	-8.94379
害	-8.94424
其一	-8.94598
碑以	-8.94626
宿	-8.94709
敦	-8.94731
長安	-8.94757
退	-8.94833
米	-8.94857
八年	-8.94904
假	-8.9491
麟	-8.94914
否	-8.94928
毁	-8.94947
忽	-8.94951
一卷又	-8.95103
大觀	-8.95142
太宗	-8.95189
想	-8.95196
歐陽	-8.95581
書法	-8.95604
遠	-8.95865
狀	-8.95968
貞觀	-8.96013
軒	-8.96013
領	-8.96092
姓名	-8.96287
峯	-8.96428
宰	-8.96442
壇	-8.96454
然後	-8.96664
强	-8.96681
聖人之	-8.96804
大中	-8.96864
雪	-8.96939
今在	-8.97042
一日	-8.97082
寺碑	-8.97093
鴻	-8.97134
冬	-8.97167
䟦	-8.9717
十九	-8.97282
板	-8.97403
十七	-8.97524
破	-8.9761
竟	-8.97751
潘	-8.98074
一卷存	-8.98097
字仲	-8.98211
十四卷	-8.98269
太和	-8.98308
其義	-8.98309
君碑	-8.98392
古人	-8.98458
其名	-8.98557
天下之	-8.98796
子夏	-8.9881
苦	-8.98811
爾雅	-8.98873
某	-8.99033
屋	-8.99047
驗	-8.99106
庵	-8.99175
熊	-8.9925
掾	-8.9933
旨	-8.99416
之法	-8.99498
五行	-8.99514
来	-8.99535
抑	-8.99555
也故	-8.99575
奇	-8.99592
集一卷	-8.99683
諡	-8.99684
勅	-8.99829
辰	-8.99841
翰	-9.00061
祝	-9.00088
闕三	-9.00101
闗	-9.00132
者皆	-9.0031
十四	-9.00438
花	-9.00669
賞	-9.00842
慈	-9.01111
振	-9.01123
也其	-9.01157
庶	-9.01288
後漢	-9.0132
周官	-9.01365
右唐	-9.01469
貞元	-9.01503
閒	-9.01518
舟	-9.01584
壁	-9.01637
時人	-9.01719
之士	-9.01738
陰	-9.01738
放	-9.01858
足以	-9.01926
桓	-9.02006
所作	-9.02119
怪	-9.02127
雷	-9.0214
䇿	-9.02388
徙	-9.02602
㣲	-9.02615
輿	-9.02861
五十	-9.03063
劉氏	-9.03084
慮	-9.0312
基	-9.03221
庸	-9.03323
京兆金	-9.03354
不見	-9.03524
八卦	-9.03547
珍	-9.03723
亦不	-9.03763
香	-9.03992
乗	-9.04011
助	-9.04134
日月	-9.04356
擬	-9.0444
録一卷	-9.04685
從事	-9.047
俞	-9.04724
易傳	-9.04901
關	-9.04978
緒	-9.04979
羽	-9.05024
秘	-9.05362
翰林	-9.05553
侍郎	-9.05608
旦	-9.05651
塔	-9.05718
撰并書	-9.05729
伏羲	-9.05769
禮樂	-9.05875
叅	-9.059
是以	-9.05947
碑在	-9.05957
本義	-9.06011
己	-9.06031
寓	-9.06038
唐人	-9.06078
幼	-9.0608
天寳	-9.06166
悟	-9.06319
浩	-9.06565
𫝊	-9.06839
鳴	-9.06894
損	-9.07019
藝	-9.0707
剛	-9.07073
襲	-9.07085
淳	-9.07136
融	-9.0734
玄	-9.07378
此帖	-9.07487
正義	-9.07504
老子	-9.07591
歎	-9.07618
紫	-9.07629
宇	-9.0765
梅	-9.07722
篤	-9.07907
介	-9.07907
十三卷	-9.07928
宅	-9.07947
阿	-9.07968
惜	-9.08021
託	-9.08136
歟	-9.08173
卜	-9.08428
營	-9.08468
勁	-9.08611
潤	-9.08689
集解	-9.08698
策	-9.08741
惑	-9.08918
昇	-9.09112
啟	-9.09132
索	-9.0923
洪範	-9.09324
結	-9.09463
酒	-9.09589
不載	-9.09665
鄒	-9.09714
嗚呼	-9.09736
姜	-9.09859
處士	-9.09999
所得	-9.10054
文公	-9.10058
遵	-9.10142
苐一千	-9.10152
普	-9.10221
其間	-9.1027
覆	-9.10363
寒	-9.10379
兆	-9.10393
調	-9.10407
一百	-9.10503
豫	-9.10583
勿	-9.10608
亨	-9.10674
衞	-9.10677
南陽	-9.10716
懼	-9.10894
誥	-9.11147
一時	-9.1131
太學	-9.11324
啓	-9.11635
聚	-9.11967
所傳	-9.12161
醫	-9.12218
蒙	-9.12357
鳯	-9.12382
後魏	-9.12429
言之	-9.1248
講義	-9.12548
波	-9.12693
六十	-9.12846
農	-9.12866
淺	-9.12899
照	-9.12945
藥	-9.12946
偉	-9.1295
碑録	-9.13106
脱	-9.13161
密	-9.13193
大厯	-9.13212
御史	-9.13297
熙	-9.13417
石錄	-9.13649
孰	-9.1365
係	-9.13736
勸	-9.13758
樞	-9.13806
曉	-9.13915
諫	-9.14094
側	-9.1413
鄧	-9.14163
府君	-9.14217
府志	-9.14246
以其	-9.14321
所見	-9.14333
製	-9.1435
鑒	-9.14384
牛	-9.14392
三月	-9.14434
詩集	-9.14582
擢	-9.14647
衰	-9.14794
借	-9.14915
遭	-9.14925
逢	-9.14935
仰	-9.14965
洛陽	-9.15056
鶴	-9.15153
配	-9.15194
仲尼	-9.15207
誰	-9.15225
十六卷	-9.15327
册	-9.15368
帥	-9.15506
細	-9.15514
賔	-9.15526
材	-9.15531
婦	-9.15726
太極	-9.15761
訂	-9.15792
人也	-9.15856
静	-9.15863
樊	-9.16181
太平	-9.163
字元	-9.16309
恨	-9.16372
侍中	-9.16385
胡氏	-9.1639
浦	-9.16507
搨	-9.16667
賀	-9.16705
讓	-9.16747
一本	-9.16997
黨	-9.17043
左傳	-9.17111
圓	-9.1712
測	-9.17232
迹	-9.17262
禁	-9.17274
雙	-9.17381
異同	-9.17388
所藏	-9.17467
之辭	-9.17504
知其	-9.17584
秉	-9.17607
逹	-9.1762
國子監	-9.17657
閩	-9.17715
烏	-9.17955
待	-9.18107
接	-9.18199
二篇	-9.18243
筆法	-9.18246
訪	-9.18295
舒	-9.18477
禪	-9.18492
懿	-9.18492
賛	-9.18566
版	-9.18594
嘉定	-9.18817
送	-9.18825
觧	-9.18859
超	-9.18872
虎	-9.18884
候	-9.19028
舎	-9.1906
段	-9.19204
孤	-9.1935
負	-9.19414
採	-9.19421
荒	-9.1943
廿	-9.19435
三傳	-9.19643
一部三冊	-9.19861
吴	-9.20071
潛	-9.20076
之下	-9.20301
熈	-9.20358
乞	-9.20625
班	-9.20625
讀書	-9.20724
滿	-9.20959
其為	-9.21011
中有	-9.21131
所著	-9.21132
傷	-9.21213
沒	-9.21254
妻	-9.21308
子孫	-9.21346
郎中	-9.21431
懸	-9.21518
太尉	-9.21643
沙	-9.21737
以後	-9.21772
闕一	-9.21791
括	-9.21861
淳化	-9.21875
祐	-9.21895
者亦	-9.22036
書目	-9.22121
霸	-9.22122
乘	-9.22194
法帖	-9.22194
童	-9.22241
珠	-9.22261
一書	-9.22417
倉	-9.22447
免	-9.22452
荆	-9.22469
眀	-9.22535
其辭	-9.22539
之徒	-9.22578
彌	-9.22628
楷	-9.22682
不合	-9.22746
署	-9.22834
誌	-9.22837
安國	-9.22951
頭	-9.23122
桂	-9.23234
録目	-9.23433
骨	-9.23473
辯	-9.23485
後有	-9.2372
五百	-9.23733
文章	-9.23763
之名	-9.23862
徃	-9.23956
右漢	-9.2397
男	-9.24075
納	-9.24344
集本	-9.2435
味	-9.2436
象數	-9.24473
奥	-9.24507
戰	-9.24574
洪武	-9.24604
罷	-9.24728
何以	-9.24735
操	-9.2476
悲	-9.25028
晏	-9.25245
道士	-9.25317
契	-9.25343
徽	-9.25412
集注	-9.25527
研	-9.25648
革	-9.25683
䕶	-9.25725
孔氏	-9.25895
毅	-9.26056
本末	-9.26199
輕	-9.26246
遜	-9.26341
寅	-9.26357
丈	-9.26396
漢書	-9.26492
互	-9.26496
以此	-9.2654
薄	-9.26667
見其	-9.26669
蔵	-9.26807
往往	-9.27006
效	-9.27021
謨	-9.27274
前後	-9.27552
也然	-9.27602
嵩	-9.27607
蒼	-9.2767
攻	-9.27679
劉向	-9.27687
璧	-9.27718
各有	-9.27793
諸書	-9.27796
聽	-9.27949
縱	-9.27954
字缺	-9.28107
縣令	-9.28216
必有	-9.28304
赤	-9.28563
京師	-9.28633
俊	-9.28692
著書	-9.28752
判	-9.28776
而為	-9.28807
也今	-9.28825
役	-9.28953
程子	-9.29046
漢儒	-9.2909
答	-9.29125
到	-9.29214
釋文	-9.29222
故曰	-9.29227
之外	-9.29232
元祐	-9.29239
箋	-9.2926
黄帝	-9.29451
委	-9.29598
副	-9.29601
決	-9.29611
頃	-9.29617
斗	-9.2965
一卷未見	-9.29716
邊	-9.29764
刺	-9.29855
郊	-9.2997
坊	-9.29973
靜	-9.30026
裕	-9.3003
於易	-9.3007
謁	-9.30177
存者	-9.30247
享	-9.30305
頴	-9.30339
宻	-9.30351
二月	-9.30384
嶽	-9.30543
較	-9.30592
殘	-9.30628
虛	-9.30639
欽定四庫全書	-9.30696
蔡邕	-9.30743
之數	-9.30851
廬	-9.30878
鑿	-9.30989
洽	-9.31006
黎	-9.31038
瞻	-9.31133
一部四冊	-9.31165
澄	-9.31398
圭	-9.31426
以上	-9.31445
訛	-9.31494
鮮	-9.31559
咸通	-9.31559
程氏	-9.31618
趙氏	-9.3178
今文	-9.31884
炎	-9.3194
逸少	-9.32014
貶	-9.3202
讀易	-9.32051
𢎞治	-9.32145
六十四卦	-9.32247
早	-9.32359
本朝	-9.3238
陳振孫曰	-9.32384
屈	-9.32385
哲	-9.32415
鐫	-9.32451
國公	-9.32566
年月	-9.32588
輒	-9.32676
崖	-9.32811
陋	-9.33057
其餘	-9.33101
世之	-9.33251
竇	-9.3351
記一卷	-9.33585
不過	-9.33677
将	-9.3376
蔣	-9.33825
詠	-9.33847
三家	-9.33854
考之	-9.33921
舉人	-9.34088
賓	-9.34107
市	-9.34177
喬	-9.34214
是非	-9.34242
鼓	-9.34374
閲	-9.34451
名曰	-9.34458
秩	-9.34475
露	-9.34492
干	-9.34684
之心	-9.34706
梓	-9.34776
角	-9.34807
二人	-9.3493
四十	-9.35009
姓氏	-9.35038
圖次	-9.35111
付	-9.35151
逆	-9.35184
淮	-9.35279
之子	-9.35293
諸道石	-9.35442
自序	-9.35443
而下	-9.35538
屢	-9.35548
㑹稽	-9.35829
莫不	-9.35858
寸	-9.35863
卜筮	-9.35914
肇	-9.35938
自號	-9.35994
四十卷	-9.361
諸生	-9.36151
之語	-9.36218
偏	-9.36224
由是	-9.36292
始於	-9.36293
髙宗	-9.36398
禄	-9.36486
十一年	-9.36509
先天	-9.36511
歳	-9.36575
慕	-9.36619
芝	-9.36646
獄	-9.36657
臯	-9.36683
珪	-9.36719
集二卷	-9.36786
不著	-9.36828
歴代	-9.36916
楊氏	-9.36923
之中	-9.37165
巻	-9.37218
無不	-9.37239
本傳	-9.37397
單	-9.37416
朝廷	-9.37618
鏡	-9.37764
九經	-9.37772
刺史	-9.37863
大義	-9.37868
禪師	-9.38173
未必	-9.3833
全書	-9.38336
義理	-9.38479
輩	-9.38608
子曰	-9.3876
僕	-9.38766
永嘉	-9.38777
創	-9.38791
勲	-9.38869
東坡	-9.38948
之際	-9.39015
成化	-9.39164
績	-9.39171
防	-9.39255
江西	-9.39307
漫	-9.39465
饒	-9.3952
七月	-9.39612
書者	-9.3975
笑	-9.39767
導	-9.39891
勉	-9.39915
乾坤	-9.39922
懋	-9.39986
成都	-9.40068
系	-9.40077
靡	-9.40145
筮	-9.40217
通志	-9.40244
違	-9.40271
聘	-9.40279
武帝	-9.40293
駕	-9.4034
没	-9.40348
肆	-9.40662
危	-9.40702
繆	-9.40711
巨	-9.40717
戎	-9.40726
十八卷	-9.40745
用之	-9.40774
河東	-9.40944
傳之	-9.40948
求之	-9.40986
含	-9.41093
削	-9.4125
獻之	-9.41346
三代	-9.41397
魯公	-9.41438
支	-9.41447
人之	-9.41463
真蹟	-9.41516
天地之	-9.41583
為之序	-9.41617
宰相	-9.41674
躬	-9.41834
北齊	-9.41839
君之	-9.41846
長史	-9.41872
失其	-9.4197
之功	-9.41995
御製	-9.42039
提	-9.42064
慰	-9.42172
桑	-9.42252
一冊	-9.42433
羲	-9.42496
攝	-9.42601
以示	-9.42718
見之	-9.42763
該	-9.42947
殘缺	-9.42956
曜	-9.42988
幹	-9.42998
集二十卷	-9.43302
根	-9.43382
北海	-9.43549
其中	-9.43556
國史	-9.43672
整	-9.43676
辛	-9.43692
鳥	-9.43714
正月	-9.43866
荀	-9.4397
樵	-9.44
中興	-9.44009
六月	-9.44011
艮	-9.44078
柔	-9.44098
折衷	-9.4416
寄	-9.4418
社	-9.44186
近世	-9.4447
督	-9.44491
藻	-9.44575
十七卷	-9.44804
河圖	-9.44861
縁	-9.44873
宋史	-9.44878
彰	-9.44911
十三年	-9.44926
四方	-9.44937
韶	-9.44999
甲子	-9.45055
山人	-9.45062
大小	-9.4517
諡文	-9.45203
十巻	-9.45224
丗	-9.45299
窺	-9.45307
十月	-9.45329
回	-9.45388
國語	-9.45411
其意	-9.45537
討	-9.45562
者則	-9.4566
父子	-9.45722
闕四	-9.45736
祚	-9.45783
左右	-9.45904
以前	-9.46008
先後	-9.46016
凢	-9.46094
背	-9.461
集四卷	-9.4613
齡	-9.46132
崇禎	-9.46182
彚	-9.46321
至正	-9.46481
急	-9.46521
藴	-9.46853
云云	-9.46856
誅	-9.46862
褒	-9.46965
黃	-9.4698
戰國	-9.47086
彖	-9.47236
爰	-9.47293
譏	-9.47309
暢	-9.47327
裂	-9.4733
罕	-9.47336
臧	-9.47361
分書	-9.47604
之時	-9.47622
柱	-9.4794
至今	-9.47976
不然	-9.47991
挍	-9.48073
淑	-9.48124
植	-9.48178
數十	-9.48248
得失	-9.48329
敗	-9.48381
一卷佚	-9.48461
罔	-9.4853
郷	-9.48538
論一卷	-9.4861
重修	-9.48658
十四年	-9.48686
公之	-9.48774
吕氏	-9.48862
焚	-9.48879
十二月	-9.48889
騎	-9.48892
􁀙	-9.48906
環	-9.48967
之所以	-9.48986
决	-9.49167
奔	-9.49284
吉凶	-9.49328
塞	-9.49329
徐氏	-9.4933
諸子	-9.49349
京兆	-9.49351
粹	-9.49361
黄氏	-9.49458
所記	-9.49475
摘	-9.49718
卑	-9.4973
十一卷	-9.49746
足下	-9.49748
帝王	-9.49795
十二年	-9.49864
郡守	-9.49878
量	-9.49934
則有	-9.49943
岐	-9.5002
専	-9.50126
詣	-9.50145
𨽻書	-9.50179
敷	-9.50199
彛	-9.502
不為	-9.50226
之餘	-9.50367
祕	-9.50436
定武	-9.50455
鬼	-9.50471
集傳	-9.50485
碣	-9.50543
叟	-9.5059
毋	-9.50592
蒲	-9.50615
界	-9.50618
羊	-9.50644
不可以	-9.50773
峻	-9.50856
其學	-9.50877
二十四	-9.50915
誓	-9.50961
儒學	-9.50965
相傳	-9.50998
潭	-9.51026
齋集	-9.51101
其下	-9.51219
一二	-9.51221
琴	-9.51245
喻	-9.51331
年十月	-9.51354
弱	-9.51403
繹	-9.51439
吟	-9.51442
逮	-9.51481
謫	-9.51488
皆以	-9.51592
月令	-9.51615
準	-9.51676
裔	-9.51726
為一	-9.51739
刻之	-9.51782
朗	-9.51859
慧	-9.51885
津	-9.51918
曾子	-9.51951
其子	-9.51952
政和	-9.51981
襍	-9.52082
太史	-9.52214
誕	-9.52296
或作	-9.52334
倪	-9.52343
君臣	-9.5247
也夫	-9.5254
藝文志	-9.52555
趣	-9.52665
村	-9.52774
書也	-9.52907
之㫖	-9.52967
太祖	-9.5302
官至	-9.5305
痛	-9.53092
畏	-9.53101
宣和	-9.53116
十篇	-9.53135
恵	-9.53166
儉	-9.53218
卓	-9.53377
不應	-9.53421
歐陽公	-9.53437
頓	-9.53476
壯	-9.53513
泰山	-9.53545
然而	-9.53645
外傳	-9.53656
未詳	-9.53753
萬物	-9.53755
給	-9.53805
闡	-9.53934
軌	-9.53986
銅	-9.54003
也而	-9.54034
禹貢	-9.54192
傳注	-9.54253
詩一卷	-9.5434
大抵	-9.5447
三禮	-9.54593
太常	-9.54604
扶	-9.54773
探	-9.54791
以明	-9.55018
取其	-9.55078
不相	-9.55155
八百	-9.55263
注云	-9.55293
叢	-9.55313
匡	-9.55323
二十八	-9.55486
墳	-9.55491
節度	-9.55563
之理	-9.55573
煩	-9.55659
育	-9.55731
隸	-9.55757
易者	-9.56045
曰吾	-9.56143
盈	-9.56166
招	-9.56234
故事	-9.56353
未能	-9.56404
龔	-9.56563
湛	-9.56577
馳	-9.56583
知縣	-9.56632
天寶	-9.5672
觀其	-9.56751
殘碑	-9.568
二十七	-9.56862
項	-9.56958
伊川	-9.56987
倣	-9.57027
伊	-9.57051
姪	-9.57127
従	-9.57325
蓍	-9.5738
援	-9.57392
易學	-9.57411
塗	-9.57419
了	-9.57424
頥	-9.5746
邱	-9.57462
成書	-9.57473
邕	-9.57519
蔡氏	-9.57683
毎	-9.57856
墜	-9.57893
趨	-9.579
邢	-9.5792
文義	-9.58043
沛	-9.58172
鹿	-9.5837
投	-9.58383
牒	-9.58408
可見	-9.58437
年二月	-9.58557
行於世	-9.58573
吏部尚書	-9.58628
四字	-9.58692
泥	-9.58799
暨	-9.58803
奚	-9.58806
之故	-9.58982
王弼	-9.59032
所為	-9.59056
五代	-9.59118
之上	-9.59124
鈔	-9.59235
鄙	-9.59253
刻於	-9.59288
舞	-9.5931
門生	-9.59342
篆書	-9.59468
太原	-9.59679
㡬	-9.59683
黙	-9.59733
涇	-9.59749
第二	-9.59918
集三卷	-9.59918
御書	-9.59967
者有	-9.60043
建安	-9.60061
晁	-9.60102
粗	-9.60186
歩	-9.60215
耕	-9.60224
兄弟	-9.60272
明堂	-9.60327
㳺	-9.60342
冬官	-9.60452
寡	-9.60508
無疑	-9.60513
綂	-9.60561
僞	-9.60615
漏	-9.60626
優	-9.60646
磨滅	-9.60679
百家	-9.60741
四月	-9.60769
如是	-9.60781
髙祖	-9.60857
靈帝	-9.60993
昏	-9.61043
文學	-9.61069
確	-9.61072
庶幾	-9.61096
峰	-9.61128
給事中	-9.61183
禮部尚書	-9.61192
三字	-9.61364
之末	-9.6137
義疏	-9.61407
兒	-9.61469
不傳	-9.6147
者以	-9.61495
諭	-9.6151
王應麟曰	-9.61537
巡	-9.61537
奕	-9.61583
九月	-9.61596
之作	-9.6175
漢志	-9.61761
刻録	-9.6178
國朝	-9.61805
古之	-9.61874
當作	-9.61922
開成	-9.61949
其說	-9.62034
者為	-9.6206
祁	-9.62066
之傳	-9.62075
未見黄虞稷曰	-9.62248
人物	-9.62306
拙	-9.62502
十二篇	-9.62513
東萊	-9.62525
學官	-9.62557
鄭康成	-9.62704
唐書	-9.62757
迄	-9.62882
訓詁	-9.62914
乖	-9.62938
大全	-9.62949
葛	-9.62976
旣	-9.62979
漕	-9.63007
内外	-9.63091
議郎	-9.63123
預	-9.63173
二十一	-9.63179
只	-9.63195
陽人	-9.63384
柳	-9.6341
属	-9.63441
局	-9.63448
救	-9.63474
諸經	-9.63487
譔	-9.63523
垣	-9.63524
繇	-9.63745
昧	-9.63875
列傳	-9.63877
庾	-9.63901
褚	-9.63911
盟	-9.63951
易解	-9.63971
州志	-9.64003
經文	-9.64129
唐李	-9.64131
乙	-9.64259
凶	-9.64296
甘	-9.64303
朱氏	-9.64307
者其	-9.64331
輙	-9.64354
併	-9.64394
年六月	-9.64575
家語	-9.64611
又以	-9.64847
飲	-9.64884
名臣	-9.65026
也按	-9.65195
禮部	-9.65271
嘆	-9.65307
責	-9.65321
陞	-9.65351
祈	-9.65364
柏	-9.6538
擊	-9.65436
字叔	-9.65489
也又	-9.65511
通鑑	-9.65565
七十	-9.6564
主簿	-9.65696
經籍	-9.6578
士大夫	-9.65794
二十二	-9.65795
詩書	-9.65825
崇文總目	-9.6584
蕩	-9.65851
巧	-9.65855
之論	-9.65858
函	-9.65861
階	-9.65919
都尉	-9.66147
觀之	-9.66148
唐贈	-9.66159
道之	-9.66174
鐘	-9.66201
屏	-9.66325
恕	-9.66331
學易	-9.66342
宛	-9.66389
東漢	-9.66402
致仕	-9.66467
八月	-9.6653
通考	-9.66584
却	-9.6681
冲	-9.66831
鋒	-9.66867
長沙	-9.66876
文選	-9.6692
茶	-9.66956
五十卷	-9.67004
居士	-9.67056
正徳	-9.6708
三篇	-9.67192
遽	-9.67227
譌	-9.67283
渾	-9.67298
後周	-9.67305
經一卷	-9.67319
昆	-9.67333
一部五冊	-9.67549
其人	-9.67581
況	-9.67716
綴	-9.67754
縣人	-9.67772
塵	-9.67822
之易	-9.67887
文武	-9.67893
所刻	-9.6799
一行	-9.68011
渠	-9.68107
疎	-9.68257
朕	-9.68262
淳熙	-9.68288
大業	-9.68309
者不	-9.68356
書成	-9.68363
或問	-9.68568
間有	-9.686
伏生	-9.68647
踰	-9.68666
財	-9.68761
滋	-9.68774
之則	-9.68807
徑	-9.68809
荘	-9.6882
公碑	-9.68821
鐵	-9.68852
小學	-9.68865
不言	-9.6899
目録	-9.69083
訪碑	-9.6914
題云	-9.69198
險	-9.69299
文言	-9.69306
永樂	-9.69333
汝南	-9.69418
三十六	-9.69464
歸藏	-9.695
庫	-9.69662
不以	-9.69766
億	-9.69778
寵	-9.69829
武王	-9.69867
謚	-9.69872
千載	-9.69948
豫章	-9.69985
傳云	-9.70038
二十四卷	-9.70164
拘	-9.7021
協	-9.70257
飾	-9.70267
阮	-9.70274
巳	-9.70283
江南	-9.70554
上元	-9.70616
厲	-9.70711
闢	-9.70739
淫	-9.70755
旅	-9.70765
新安	-9.70862
建寧	-9.70896
失之	-9.70983
注疏	-9.71043
不類	-9.71064
肥	-9.71132
弊	-9.71136
悦	-9.71222
實録	-9.71224
偹	-9.71277
排	-9.71282
摩	-9.71283
鹽	-9.71296
覩	-9.71296
驚	-9.71298
翰林學士	-9.71326
供	-9.71343
太𤣥	-9.71359
圖一卷	-9.71526
猶有	-9.71559
未知	-9.7158
巴	-9.71624
或曰	-9.71637
臨川	-9.71666
坎	-9.71709
二卷又	-9.71719
夕	-9.71721
亷	-9.71724
裁	-9.71758
延熹	-9.71805
困	-9.71806
席	-9.71808
者矣	-9.71844
而有	-9.72003
孚	-9.7203
絳	-9.72051
▁同上	-9.72076
八十	-9.72111
矣然	-9.7227
滕	-9.72296
駁	-9.72328
集五卷	-9.72335
萬世	-9.72341
寂	-9.72388
即位	-9.72417
咏	-9.72459
字文	-9.72569
之變	-9.72582
無窮	-9.72694
何如	-9.7274
君諱	-9.72924
之用	-9.73056
第三	-9.73116
少卿	-9.73138
治平元年	-9.73187
地理	-9.73188
一帖	-9.73255
之本	-9.73278
藉	-9.73363
其父	-9.73394
鄱陽	-9.73412
凌	-9.73424
世傳	-9.73451
板本	-9.73464
非也	-9.73743
榖	-9.73776
短	-9.73793
然其	-9.73814
年八月	-9.73817
六百	-9.73886
蘓	-9.73979
草書	-9.74063
俟	-9.74303
舊本	-9.74356
榖梁	-9.74385
傑	-9.7441
鈎	-9.74433
境	-9.74451
潜	-9.74469
朱文公	-9.74472
逵	-9.74478
漢人	-9.74483
易也	-9.74524
因之	-9.7455
六十四	-9.74694
也此	-9.7472
雖然	-9.74849
混	-9.74891
之制	-9.74925
沉	-9.74933
帶	-9.74967
㕥	-9.74984
郁	-9.74988
挺	-9.75041
五月	-9.75079
前有	-9.75111
辨疑	-9.75129
天台	-9.75131
禍	-9.7528
綜	-9.75395
好古	-9.75409
有云	-9.75447
亦無	-9.75456
鉉	-9.75463
十餘	-9.75524
閔	-9.75529
之妙	-9.7559
太傅	-9.7561
翻	-9.75634
之禮	-9.75915
一家	-9.7592
三日	-9.75926
奪	-9.75994
閭	-9.76006
十五年	-9.76023
孫氏	-9.76054
彪	-9.76098
聖賢	-9.76113
誣	-9.76184
事實	-9.76203
崩	-9.76489
割	-9.76507
逐	-9.76524
艱	-9.76536
變化	-9.76538
凝	-9.76545
山谷	-9.76557
炳	-9.76561
潔	-9.76564
婁	-9.76627
孔安國	-9.76683
皆不	-9.76699
於後	-9.76729
所撰	-9.76791
一函	-9.7686
拾遺	-9.76873
題曰	-9.76985
賴	-9.77075
藩	-9.77085
溥	-9.77101
磨	-9.77124
之屬	-9.77128
旌	-9.77168
牟	-9.77168
其先	-9.77229
後學	-9.77256
儒者	-9.77297
稱其	-9.77304
皇朝	-9.77433
崑山	-9.77486
萃	-9.77615
域	-9.77632
乾道	-9.77638
翔	-9.77639
衢	-9.77649
傾	-9.77657
顔魯公	-9.77729
僖	-9.77818
二巻	-9.7803
立碑	-9.78095
次第	-9.78098
右皇朝	-9.7813
隅	-9.78168
桐	-9.782
話	-9.78213
晨	-9.7822
濬	-9.78257
喪服	-9.78258
修撰	-9.78397
子思	-9.78489
檢	-9.78492
冀	-9.78566
之前	-9.78673
遲	-9.78696
盤	-9.78761
開元十	-9.78784
藁	-9.78791
不必	-9.7883
隷	-9.78991
沙門	-9.79035
丹陽	-9.79128
經義	-9.79207
以求	-9.79251
攸	-9.79258
竝	-9.7928
距	-9.79336
經世	-9.79352
汲	-9.79432
字體	-9.79514
王羲之	-9.79557
使人	-9.7961
也又曰	-9.79655
熹平	-9.79691
一部六冊	-9.79738
快	-9.79762
銜	-9.79784
相與	-9.79813
怒	-9.79823
鄴	-9.79825
㸃	-9.79875
區	-9.79882
算	-9.799
忌	-9.79914
訣	-9.79926
歐	-9.79944
小字	-9.80031
之象	-9.80053
記唐	-9.80073
其上	-9.80169
嘗為	-9.8017
錄一部一冊	-9.80278
紛	-9.80343
摭	-9.80362
薨	-9.80386
迎	-9.80432
冢	-9.80446
所存	-9.80464
元豐	-9.80485
自是	-9.8056
皇甫	-9.80607
後漢書	-9.80659
或以	-9.80666
書院	-9.80717
人事	-9.80758
小序	-9.80834
州都督	-9.80835
二書	-9.80871
二十五	-9.80878
陸氏	-9.80896
壊	-9.80944
匪	-9.80986
二十年	-9.81083
并書	-9.81094
節度使	-9.81101
逰	-9.81103
開皇	-9.81178
是故	-9.81249
集一部一冊	-9.81347
而成	-9.81399
乏	-9.81476
斥	-9.81487
禎	-9.81495
毫	-9.81536
霞	-9.8162
十一月	-9.81763
吏部	-9.81768
而不知	-9.81792
行之	-9.8181
本於	-9.81945
之詩	-9.81947
旋	-9.81966
下有	-9.82012
亦云	-9.82054
繩	-9.82074
閏	-9.82076
耆	-9.82111
圖書	-9.8212
涉	-9.82147
經史	-9.82155
三人	-9.82185
堯舜	-9.8224
首尾	-9.82265
則知	-9.82463
庚	-9.82485
人心	-9.82539
歴官	-9.82574
蹟	-9.82599
庻	-9.82604
黜	-9.82628
遺稿	-9.8265
班固	-9.82762
副使	-9.82861
而作	-9.82875
時有	-9.82906
帙	-9.8297
未及	-9.82994
尾	-9.83018
從之	-9.83136
簿	-9.83189
不知何	-9.83197
走	-9.83206
禇	-9.83253
雕	-9.8326
儲	-9.83281
劉歆	-9.83297
易經	-9.83336
明年	-9.83345
夏侯	-9.83435
綸	-9.83486
州府志	-9.83646
何氏	-9.83651
平生	-9.83706
三十二	-9.83767
行事	-9.83796
謂其	-9.83799
監察御史	-9.83805
洗	-9.83831
影	-9.83857
同異	-9.8386
紳	-9.8386
羲之	-9.84075
也余	-9.84084
是時	-9.8411
讀之	-9.8416
雜記	-9.84189
字季	-9.84308
稷	-9.84372
争	-9.84388
僅存	-9.84408
洲	-9.84418
騰	-9.8443
不知其	-9.84486
晁公武曰	-9.84535
有一	-9.8463
甞	-9.8469
明皇	-9.84691
不盡	-9.84914
昭陵	-9.84919
同時	-9.84936
發揮	-9.84958
之失	-9.85031
蕃	-9.85047
瓊	-9.85092
重刻	-9.85111
訓導	-9.85162
大令	-9.85379
蔽	-9.85487
孺	-9.85495
谿	-9.8554
誼	-9.85595
𦙍	-9.85598
祭酒	-9.85632
東海	-9.85636
東南	-9.85655
連山	-9.85722
之初	-9.85778
何也	-9.85856
際	-9.85914
之地	-9.86086
四時	-9.86107
南唐	-9.86117
邵子	-9.86121
屯	-9.86122
國家	-9.86124
漢碑	-9.86133
步	-9.86161
貽	-9.86164
倍	-9.86167
午	-9.86178
煥	-9.862
儼	-9.86216
抱	-9.86224
巢	-9.8623
完好	-9.86252
奉勅	-9.86289
臆	-9.86328
嗟	-9.86489
十翼	-9.86504
二千	-9.86543
僭	-9.86683
作者	-9.8671
悔	-9.86719
戚	-9.8673
束	-9.8673
与	-9.86741
偃	-9.86746
䟽	-9.86771
銓	-9.86828
枝	-9.86838
城人	-9.86901
無以	-9.86985
碑文	-9.8702
宣王	-9.8703
年七月	-9.87068
山陽	-9.8707
年九月	-9.87114
問答	-9.87161
有二	-9.87216
常山	-9.87275
爭	-9.87297
貧	-9.8735
菴	-9.87399
碎	-9.87404
赴	-9.87427
二十三	-9.87466
庵集	-9.8757
成王	-9.87699
之誤	-9.8771
附於	-9.87795
詩話	-9.87841
東都	-9.87842
未盡	-9.87859
尼	-9.879
則曰	-9.87992
凖	-9.88018
三千	-9.88031
一百卷	-9.88057
顧作	-9.88076
開元二十	-9.88119
頒	-9.88363
改元	-9.88404
𤣥宗	-9.88431
胥	-9.88487
易説	-9.88489
濳	-9.885
迂	-9.88519
著述	-9.88551
廵	-9.88571
一部十冊	-9.88593
爽	-9.88599
湘	-9.88654
禽	-9.88654
教諭	-9.88655
肉	-9.88685
諸公	-9.88721
十卷佚	-9.88722
或云	-9.88838
槩	-9.88881
福建	-9.88896
有餘	-9.88988
仁義	-9.88988
集八卷	-9.89034
㑹昌	-9.89059
詩傳	-9.89169
絲	-9.89178
踐	-9.89189
學之	-9.89234
山川	-9.89279
顔真卿	-9.89288
劍	-9.89308
九十	-9.89366
韓愈	-9.89376
編次	-9.89398
遼	-9.894
有司	-9.89513
孔作	-9.89657
之盛	-9.89659
滯	-9.8981
鸞	-9.89815
塘	-9.89819
片	-9.89824
考工記	-9.89828
以俟	-9.8983
艾	-9.89852
乙未	-9.89886
以見	-9.89913
鄭𤣥	-9.89928
序云	-9.8997
程朱	-9.8998
者必	-9.90061
聖經	-9.90096
孔子之	-9.901
先生之	-9.90148
安人	-9.9019
法師	-9.90242
譜一卷	-9.90252
小人	-9.90272
五字	-9.90281
文帝	-9.9033
䘮	-9.90395
䖍	-9.90405
築	-9.90433
諤	-9.90433
古者	-9.90538
之大	-9.90544
詩序	-9.90582
中立	-9.90649
廟記	-9.9071
古本	-9.90807
制度	-9.90878
集六卷	-9.90947
舊唐書	-9.90963
上之	-9.90992
甲辰	-9.91003
邈	-9.91012
犯	-9.91019
𥘉	-9.9102
者乎	-9.9105
碧	-9.91127
可也	-9.91144
上有	-9.91263
所云	-9.91318
徐浩	-9.91323
嵗月	-9.91329
武后	-9.91417
渉	-9.91656
伸	-9.91674
播	-9.9169
皇祐	-9.91728
二十九	-9.91812
以是	-9.91913
闕五	-9.92167
其實	-9.92203
咎	-9.92278
醇	-9.92295
生於	-9.92335
經學	-9.92395
提舉	-9.92401
所聞	-9.92492
㑹要	-9.92719
自為	-9.92832
熟	-9.92833
所立	-9.9285
人所	-9.92868
訖	-9.9289
厭	-9.92903
咨	-9.92925
永興	-9.92927
之舊	-9.92954
耀	-9.92967
翰林院	-9.92992
黄虞稷曰	-9.92999
輝	-9.93011
取之	-9.93094
安得	-9.93153
康節	-9.93164
不與	-9.93168
而未	-9.93233
嘉祐	-9.93258
從而	-9.93279
石本	-9.93333
平原	-9.93412
所引	-9.9342
音義	-9.93473
旬	-9.93527
㝠	-9.93534
杜預	-9.93542
勑	-9.93547
壺	-9.93558
堪	-9.93601
噐	-9.93603
奎	-9.93611
宦	-9.93634
祗	-9.93642
此則	-9.93881
東平	-9.9389
乎其	-9.93916
則又	-9.94005
今觀	-9.94065
秦漢	-9.94094
古易	-9.94122
岡	-9.94125
其本	-9.94161
的	-9.94181
暴	-9.94188
敕	-9.9419
春秋傳	-9.94199
又按	-9.94224
冩	-9.94225
天文	-9.94258
類編	-9.94275
漢故	-9.94375
則其	-9.94443
十七年	-9.94458
其他	-9.94478
金華	-9.94487
隆慶	-9.94487
錄目	-9.9463
仕至	-9.94665
止於	-9.94709
豈不	-9.94719
不明	-9.94726
穿鑿	-9.94764
詭	-9.94794
譽	-9.948
脫	-9.948
與此	-9.94804
十六年	-9.94804
亟	-9.94819
潁	-9.94843
剥	-9.94861
淳熈	-9.94871
恪	-9.94872
杖	-9.94892
澹	-9.949
叚	-9.94928
一曰	-9.9497
神道碑	-9.94992
知府	-9.95104
豈非	-9.95125
年號	-9.95183
堂集	-9.95243
蝕	-9.95266
邁	-9.95453
健	-9.95479
坡	-9.95504
於世	-9.95558
沂	-9.95593
年十二月	-9.9574
無傳	-9.95777
山東	-9.95794
疇	-9.95804
慶元	-9.95841
記云	-9.95902
之序	-9.95918
國子	-9.95968
終於	-9.96003
庠	-9.96055
今本	-9.96096
胄	-9.96152
圍	-9.96154
寔	-9.96162
岑	-9.96162
妃	-9.96178
藏之	-9.96231
公孫	-9.96238
博學	-9.96359
大將軍	-9.9639
周氏	-9.96401
或有	-9.96431
遂以	-9.96548
慨	-9.96552
而卒	-9.96566
治平	-9.9657
墓碑	-9.96718
大字	-9.96784
可疑	-9.96823
蔚	-9.96824
冡	-9.96825
雖有	-9.96853
侍講	-9.9688
國之	-9.96936
城縣	-9.96941
此其	-9.96965
中郎	-9.97078
何人	-9.97087
不免	-9.97144
之要	-9.97148
進退	-9.97162
矣而	-9.97172
真人	-9.97217
猷	-9.97237
詩經	-9.97239
若夫	-9.97324
災	-9.97383
晉書	-9.9739
矩	-9.97406
書并篆額	-9.9741
卞	-9.97432
圃	-9.97531
草木	-9.97538
沖	-9.97541
分為	-9.97596
一卷右	-9.97731
卦爻	-9.97746
自然	-9.97775
不一	-9.97817
久矣	-9.97856
呂	-9.97979
麻	-9.98087
奮	-9.98105
坦	-9.98117
㕘	-9.9813
瀆	-9.98146
譙	-9.98146
㠯	-9.98169
汴	-9.98178
家藏	-9.98261
撰人	-9.98326
訣一卷	-9.98424
於經	-9.9849
出入	-9.98498
天之	-9.98577
□(	-9.98577
神道	-9.9864
以成	-9.9877
潮	-9.98771
鈐	-9.98788
施作	-9.98801
年十一月	-9.98849
麓	-9.98852
繪	-9.98867
熈寧	-9.98965
廬陵	-9.9901
八十一	-9.99035
紫陽	-9.99041
當以	-9.99059
其家	-9.99104
有功於	-9.99192
尚有	-9.99201
淮南	-9.99255
年五月	-9.99271
注釋	-9.99275
台	-9.99353
措	-9.99407
嘉興	-9.99415
迨	-9.99417
茅	-9.99419
自謂	-9.99508
湜	-9.99544
題額	-9.99553
佑	-9.99553
祿	-9.99573
立石	-9.99615
之書也	-9.99661
集古録	-9.99707
小篆	-9.9987
小戴	-9.9997
所有	-10.0001
宣帝	-10.0003
故其	-10.0003
者多	-10.0005
隱居	-10.0007
解佚	-10.001
二百四十	-10.001
朋	-10.0012
杭州	-10.0017
筠	-10.0018
譯	-10.0018
聊	-10.0019
中書舍人	-10.002
鮑	-10.002
遐	-10.0021
倚	-10.0021
獸	-10.0025
潁川	-10.0029
不具	-10.003
志一冊	-10.0031
綱目	-10.0034
晁氏	-10.0042
云爾	-10.005
河内	-10.0056
爻辭	-10.006
十冊	-10.0073
字汝	-10.0074
父母	-10.0077
眼	-10.0078
五日	-10.0083
購	-10.0083
上柱國	-10.0084
昨	-10.0084
拱	-10.0089
大學士	-10.009
璽	-10.0091
前人	-10.0093
布衣	-10.0101
紹聖	-10.0105
可考	-10.0107
孔廟	-10.0108
文辭	-10.012
易象	-10.0131
浙江	-10.0135
周公之	-10.0137
揆	-10.0152
沿	-10.0154
纔	-10.0155
長慶	-10.0156
年三月	-10.0157
書傳	-10.0157
録二卷	-10.0159
建武	-10.016
者謂	-10.016
驛	-10.0163
耿	-10.0168
今日	-10.0173
與前	-10.0191
二十六	-10.0197
莫能	-10.0199
漢魏	-10.0204
魏晉	-10.0213
詮	-10.0214
三巻	-10.0218
顛	-10.0219
卧	-10.0228
七十二	-10.0231
瑛	-10.0231
洪武中	-10.0232
得於	-10.0233
産	-10.0235
史官	-10.0238
他書	-10.024
鬼神	-10.0249
檢校	-10.026
不足以	-10.0274
至元	-10.0279
千古	-10.0288
石墨鐫華	-10.0288
好學	-10.0289
噫	-10.0289
呼	-10.029
搜	-10.0292
盜	-10.0294
譚	-10.0297
建炎	-10.0308
孝子	-10.0309
貞元十	-10.032
建中	-10.0321
之孫	-10.0323
因以	-10.0334
門下	-10.0334
山隂	-10.0338
牽	-10.035
無一	-10.0352
迷	-10.0357
戾	-10.0359
府學	-10.0359
濤	-10.036
賤	-10.0361
好事者	-10.0366
涼	-10.0366
精義	-10.0368
編年	-10.0368
説文	-10.0368
經解	-10.0369
傍	-10.0371
錦	-10.0371
自有	-10.0372
九百	-10.0372
乃知	-10.0374
聖教序	-10.0374
受業	-10.0385
者何	-10.0388
吳氏	-10.0401
高宗	-10.0402
累官	-10.0403
者惟	-10.0405
左氏傳	-10.041
禧	-10.0413
西漢	-10.0416
三十年	-10.0416
欣	-10.0419
求其	-10.0421
立在	-10.0426
員	-10.0429
什	-10.0431
不如	-10.0432
詢	-10.0433
徧	-10.0433
住	-10.0434
滄	-10.0434
裒	-10.0435
浚	-10.0436
補遺	-10.0438
琰	-10.044
蓮	-10.0446
金陵	-10.0451
世家	-10.0452
仁宗	-10.0457
先王	-10.0464
曰易	-10.0468
陽令	-10.0472
隋書	-10.0478
尚存	-10.048
多矣	-10.048
知之	-10.0488
誤也	-10.049
進士第	-10.0492
可見者	-10.0494
弑	-10.0496
嬰	-10.0502
竭	-10.0502
讐	-10.0502
寢	-10.0503
抗	-10.0504
勇	-10.0507
諌	-10.0508
鵬	-10.0514
榜	-10.0516
傳一卷	-10.0522
今之	-10.0529
一言	-10.053
諸人	-10.054
若此	-10.0545
千里	-10.0556
舛	-10.0556
古文尚書	-10.0557
林氏	-10.0574
矜	-10.0576
㓜	-10.0578
寕	-10.0579
賁	-10.058
嗜	-10.058
精微	-10.0582
羙	-10.0582
琦	-10.0583
揚雄	-10.0585
韓詩	-10.0589
傳者	-10.059
陸元輔曰	-10.059
曰此	-10.0592
焦	-10.0596
六藝	-10.0601
毛公	-10.0601
都御史	-10.0605
不當	-10.0616
亦非	-10.0623
詹	-10.0632
三公	-10.0634
截	-10.0648
掩	-10.0649
奴	-10.0649
倒	-10.065
閱	-10.065
鉅	-10.065
層	-10.0652
大傳	-10.0657
訥	-10.0657
以自	-10.0659
為主	-10.0668
先聖	-10.0671
所在	-10.0678
然亦	-10.0682
列於	-10.07
釐	-10.0702
河間	-10.0706
正統	-10.071
兖	-10.0715
无	-10.0715
舘	-10.0719
七篇	-10.072
東陽	-10.072
謹案右一帖草書	-10.0723
熹	-10.0723
聴	-10.0725
碩	-10.0725
皮	-10.0726
戲	-10.0727
綏	-10.0727
晦庵	-10.0728
凱	-10.0731
京房	-10.0732
永徽	-10.0743
不書	-10.0748
不失	-10.075
則是	-10.0753
禪師碑	-10.0758
西南	-10.0762
詩云	-10.0763
襄陽	-10.0763
杭	-10.0766
二冊	-10.0776
者又	-10.078
最為	-10.0785
穿	-10.079
淪	-10.0792
陽縣	-10.0793
誨	-10.0797
緝	-10.08
新書	-10.0802
第五	-10.0803
衍義	-10.0805
紀事	-10.0806
唐太宗	-10.0821
是正	-10.0824
字景	-10.0827
判官	-10.0828
議論	-10.083
未可	-10.083
世孫	-10.0835
史傳	-10.0838
許氏	-10.0848
可知	-10.0849
可讀	-10.086
子敬	-10.086
曲禮	-10.0865
明道	-10.0865
暮	-10.0866
别有	-10.0867
渭	-10.0867
壤	-10.0869
閑	-10.0869
年正月	-10.0869
癸丑	-10.087
昉	-10.087
霜	-10.0871
敵	-10.0871
紅	-10.0876
已上	-10.0885
秘閣	-10.0888
是編	-10.0892
不出	-10.0893
二碑	-10.0896
之志	-10.0897
道也	-10.09
七録	-10.0901
第四	-10.0904
二卷存	-10.0909
列國	-10.0911
衷	-10.0931
▁立	-10.0936
公主	-10.0937
掃	-10.0942
看	-10.0942
膺	-10.0943
披	-10.0943
仿	-10.0944
狄	-10.0944
嶺	-10.0945
速	-10.0945
丁丑	-10.0947
徃徃	-10.0947
稚	-10.0948
翠	-10.0948
展	-10.0948
愧	-10.0949
宮	-10.0949
森	-10.0949
祕閣	-10.0949
甲午	-10.095
漁	-10.095
莭	-10.0952
會稽	-10.0954
西山	-10.0955
多有	-10.0957
杜氏	-10.0967
禮經	-10.099
可觀	-10.1008
百篇	-10.1012
通判	-10.1014
帛	-10.1016
鉤	-10.1017
翰林院檢討朱彝尊撰	-10.1017
明矣	-10.1018
郝	-10.1023
軸	-10.1025
州刾史	-10.1026
澗	-10.1029
䑓	-10.1031
易說	-10.1037
智永	-10.1037
永平	-10.1053
不朽	-10.1055
汾	-10.1064
人萬厯	-10.1067
亦可	-10.1074
有功	-10.1078
陳留	-10.1082
血	-10.1091
淡	-10.1091
金石文字記	-10.1091
數百	-10.1092
之首	-10.1093
憤	-10.1094
瓘	-10.1095
樂府	-10.1097
遺書	-10.11
得此	-10.1101
濶	-10.1102
於朝	-10.1103
蠻	-10.1104
玊	-10.1104
無復	-10.1106
先王之	-10.1113
非又	-10.1122
王安石	-10.1123
遺文	-10.1127
其地	-10.1131
終始	-10.1137
一名	-10.1138
亦以	-10.1142
四篇	-10.1147
六篇	-10.1151
於斯	-10.1151
稽古	-10.1157
矢	-10.116
讖	-10.1161
翰林院檢討朱彞尊撰	-10.1165
不在	-10.1165
魂	-10.1169
别集	-10.1169
眞蹟	-10.117
二年立	-10.117
邇	-10.1171
一也	-10.1173
瞿	-10.1175
唱	-10.1176
孔子廟	-10.1177
亞	-10.1178
怨	-10.1178
宴	-10.1181
傳授	-10.1185
事迹	-10.1188
也自	-10.1189
府君碑	-10.1205
於時	-10.1205
作春秋	-10.1209
言也	-10.1212
舉進士	-10.1216
太師	-10.1218
百年	-10.1222
二家	-10.1223
天道	-10.123
大明	-10.1233
人名	-10.1234
歆	-10.1235
猶存	-10.1235
減	-10.1242
十七篇	-10.1242
第十	-10.1242
之世	-10.1246
睦	-10.1247
強	-10.1248
鬱	-10.1249
縉	-10.125
譬	-10.1251
叶	-10.1251
渙	-10.1253
𦵏	-10.1257
莆田人	-10.1265
十九卷	-10.1275
一章	-10.1287
所稱	-10.1289
固有	-10.1291
最後	-10.1293
石室	-10.1298
顔氏	-10.1301
佚按	-10.1303
神明	-10.1304
皆在	-10.1305
大易	-10.1306
中書	-10.1316
集十二卷	-10.132
十有二	-10.1321
姦	-10.1322
萊	-10.1324
曠	-10.1324
底	-10.1324
散騎常侍	-10.1325
千餘	-10.1327
㢲	-10.1327
証	-10.1327
歷	-10.1327
冕	-10.1329
那	-10.1329
柯	-10.133
激	-10.133
葉氏	-10.1332
少林寺	-10.1333
損益	-10.1338
南北	-10.1339
附以	-10.1343
暇	-10.135
書在	-10.1354
斯文	-10.1356
録之	-10.1361
吳興	-10.1361
於前	-10.1364
翟	-10.1365
以来	-10.1365
十里	-10.1371
四十八	-10.1372
一一	-10.1375
之教	-10.1376
魯詩	-10.138
莊子	-10.1381
華陽	-10.1383
所自	-10.139
與夫	-10.1394
不仕	-10.1396
不幸	-10.1398
敎	-10.1399
軰	-10.1403
侵	-10.1403
幕	-10.1404
壞	-10.1406
合於	-10.1407
媚	-10.1407
之精	-10.1409
靖康	-10.1409
滑	-10.1414
諸篇	-10.1416
座	-10.1416
馬融	-10.1418
校尉	-10.142
陰陽	-10.1427
不用	-10.1431
人間	-10.1432
則以	-10.1434
其末	-10.1437
睿	-10.1443
纂要	-10.1449
弓	-10.1449
光武	-10.1456
員外郎	-10.1471
易道	-10.1473
四卷又	-10.1473
子雲	-10.1475
陷	-10.1477
别為	-10.148
淹	-10.1483
欺	-10.1483
叛	-10.1485
鈞	-10.1485
貌	-10.1486
冝	-10.1486
之文也	-10.1486
㫁	-10.1487
燈	-10.1488
練	-10.1488
勛	-10.1489
曺	-10.149
八字	-10.1491
六爻	-10.1494
以正	-10.1505
春秋者	-10.1521
不存	-10.1526
所述	-10.1527
不勝	-10.1529
同而	-10.1529
凡例	-10.1535
洛書	-10.1541
疆	-10.1545
者乃	-10.155
狩	-10.1556
曷	-10.156
頤	-10.1562
豪	-10.1564
溫	-10.1564
綽	-10.1565
瑗	-10.1566
頂	-10.1568
一切	-10.1568
公穀	-10.1568
球	-10.1569
部員外郎	-10.1579
其字	-10.1581
十五日	-10.1591
制作	-10.1595
千文	-10.1596
張公	-10.1599
昔人	-10.1604
益州	-10.1605
圖説	-10.1612
字徳	-10.1614
以傳	-10.1614
皆非	-10.1631
戸	-10.1633
五篇	-10.1642
瘦	-10.1644
粤	-10.1646
乃以	-10.1649
輪	-10.1652
書中	-10.1653
暉	-10.1655
一卷右皇朝	-10.1663
叅軍	-10.1664
大成	-10.1666
然也	-10.1666
萬里	-10.1669
字彦	-10.167
大衍	-10.167
三十九	-10.1688
所不	-10.1691
周之	-10.1698
丙	-10.1699
皆云	-10.1701
金石録	-10.1708
宋人	-10.1709
有三	-10.1713
握	-10.1721
弘	-10.1721
競	-10.1723
札	-10.1724
受命	-10.1724
贅	-10.1725
鑄	-10.1725
漢興	-10.1726
歿	-10.1726
拔	-10.173
王肅	-10.1731
補注	-10.1734
紀年	-10.1737
名字	-10.1739
名家	-10.1745
之日	-10.1746
以備	-10.1748
於天下	-10.1754
四人	-10.1759
詩一部一冊	-10.1771
太史公	-10.1777
讀者	-10.1778
字缺人	-10.1781
序稱	-10.1783
學者稱	-10.1785
唐史	-10.1787
同上	-10.1789
弔	-10.1798
莆田	-10.1799
氏之	-10.18
内史	-10.1804
若是	-10.1805
澂	-10.1805
君名	-10.1806
塲	-10.1806
鞏	-10.1806
銀	-10.1806
豹	-10.1807
周書	-10.181
鄰	-10.1811
諒	-10.1811
琳	-10.1812
牙	-10.1813
成之	-10.1813
不知何人	-10.1814
卷第	-10.182
直學士	-10.1826
三十三	-10.1832
以至	-10.1835
補之	-10.1839
之體	-10.184
者非	-10.1852
季子	-10.186
陣	-10.1866
華嶽	-10.187
流傳	-10.1879
瑩	-10.1882
遒	-10.1884
冦	-10.1884
茫	-10.1889
皓	-10.1892
穀梁	-10.1893
中和	-10.1894
百餘	-10.1895
三百六十	-10.1898
韜	-10.19
累遷	-10.1902
龕	-10.1904
二十二卷	-10.1911
曰春秋	-10.1912
注解	-10.1914
取諸	-10.1918
余嘗	-10.192
甚多	-10.1921
之始	-10.1923
州碑記	-10.1927
考其	-10.1929
原本	-10.1931
聞之	-10.1933
所能	-10.1934
作傳	-10.1938
廣平	-10.1938
圖經	-10.1938
名氏	-10.1948
卒於	-10.1951
𨽻釋	-10.1952
功曹	-10.1952
忍	-10.1953
者如	-10.1954
大師	-10.1956
湖州	-10.1961
字孟	-10.1962
矯	-10.1963
忤	-10.1969
瑾	-10.1969
師道	-10.197
宼	-10.1972
合而	-10.1972
醉	-10.1975
擅	-10.1976
黄門	-10.1977
𨼆	-10.1981
右軍書	-10.1982
諧	-10.1982
易義	-10.1983
警	-10.1983
爲之	-10.1984
所編	-10.1984
丘明	-10.1986
正之	-10.1989
考異	-10.199
而知	-10.1991
所録	-10.2003
聖賢之	-10.2005
莽	-10.2009
開元中	-10.2019
嵩山	-10.202
廣東	-10.2023
於天	-10.2025
禮之	-10.2026
而已矣	-10.2027
志十卷	-10.2029
當世	-10.203
尔	-10.2043
人皆	-10.2048
禾	-10.2048
停	-10.2053
存焉	-10.2057
琅邪	-10.2057
葵	-10.206
唐虞	-10.2061
大儒	-10.2063
隠居	-10.2069
大歴	-10.207
五官	-10.207
水經	-10.2078
始末	-10.2079
劉作	-10.2083
凡十	-10.2088
謁者	-10.2096
事也	-10.2099
歙	-10.2104
▁上	-10.2104
一千	-10.2104
六字	-10.2106
費氏	-10.2108
推之	-10.2114
古經	-10.2117
毛氏	-10.212
十卷右皇朝	-10.2122
無錫人	-10.2122
六日	-10.2127
前代	-10.2129
又得	-10.2131
言其	-10.2131
中興書目	-10.2133
不行	-10.2134
赫	-10.2134
序卦	-10.2138
娶	-10.214
漆	-10.2141
蕪	-10.2141
烟	-10.2141
敘	-10.2141
陛下	-10.2141
捨	-10.2143
序之	-10.2157
一篇存	-10.2165
都督	-10.2167
孟氏	-10.2168
字君	-10.2177
蘇氏	-10.2179
而非	-10.2188
郡太守	-10.2193
撰并	-10.2195
二十五卷	-10.22
乎此	-10.2207
悖	-10.2213
夫子之	-10.2217
不就	-10.2218
廼	-10.222
箴	-10.2223
課	-10.2224
彖象	-10.2225
者蓋	-10.2225
聖人之道	-10.2225
貨	-10.223
二十巻	-10.2233
亭記	-10.2237
王君	-10.2239
及其	-10.2239
諡曰	-10.2245
不甚	-10.2246
萬言	-10.2252
本草	-10.2255
真卿	-10.2257
老人	-10.226
字廷	-10.226
眉	-10.2261
春秋左傳	-10.2267
三十六卷	-10.2268
字公	-10.2269
曹史	-10.2273
七錄	-10.2275
太公	-10.2276
識者	-10.2277
二曰	-10.2278
猶未	-10.2284
浙	-10.2289
錢塘人	-10.2298
文獻	-10.2299
溺	-10.2303
苗	-10.2303
畿	-10.2304
几	-10.2307
徹	-10.2307
太子太保	-10.2309
凉	-10.231
志二冊	-10.2314
堂記	-10.2316
其可	-10.2319
世所	-10.2325
明初	-10.2334
源流	-10.2343
以字行	-10.2344
則為	-10.2347
子厚	-10.2347
缺一	-10.235
無所不	-10.2359
經術	-10.2379
尸	-10.2385
參政	-10.2389
館閣書目	-10.239
泣	-10.239
諷	-10.2391
穴	-10.2392
消息	-10.2393
敞	-10.2393
四行	-10.2393
朱子曰	-10.2395
涯	-10.2396
僚	-10.2396
寘	-10.2397
酌	-10.2397
無異	-10.2398
伍	-10.2401
不完	-10.2406
存之	-10.2409
皆無	-10.2411
書名	-10.2414
所未	-10.2415
歸於	-10.2415
薛氏	-10.2421
三十五	-10.2435
碑陰	-10.2437
拓	-10.2452
深於	-10.2455
慶厯	-10.2459
傳記	-10.2461
▁京兆	-10.2462
陜	-10.2466
㤗	-10.248
寺僧	-10.248
随	-10.2481
欲以	-10.2481
僻	-10.2481
次之	-10.2484
集三十卷	-10.2486
大㫖	-10.2497
扶風	-10.2499
濟南	-10.2501
以補	-10.2503
徐鉉	-10.2505
跋曰	-10.2508
有此	-10.2509
字皆	-10.2513
部郎中	-10.2514
洪武初	-10.2514
三十四	-10.2518
朱子之	-10.2519
不自	-10.2522
遺事	-10.2525
而復	-10.2528
廣漢	-10.2535
至此	-10.2536
編修	-10.2538
政事	-10.2543
揲	-10.2545
行行	-10.2551
四十九	-10.2551
舍人	-10.2552
鼔	-10.2552
百世	-10.2555
而為之	-10.2556
三卷佚	-10.256
之罪	-10.256
兢	-10.2561
華山	-10.2561
詆	-10.2562
後天	-10.2562
洵	-10.2565
呉氏	-10.2566
奄	-10.2568
雞	-10.2572
佩	-10.2573
誡	-10.2573
掖	-10.2575
解義	-10.2577
翊	-10.2577
二三	-10.2579
而止	-10.258
刋石	-10.2583
㕔	-10.2587
待制	-10.2588
宋志一卷佚	-10.2593
此石	-10.2593
用心	-10.2595
吳郡	-10.2603
丁未	-10.262
詩文	-10.2626
異端	-10.2629
之門	-10.2634
則不	-10.2638
也予	-10.2638
廉	-10.2639
米云	-10.2641
無極	-10.2641
郡人	-10.2643
魯相	-10.2645
邃	-10.2648
亦未	-10.2651
悼	-10.2655
昻	-10.2657
㧞	-10.2658
本紀	-10.266
網	-10.2661
迥	-10.2661
之謂	-10.2661
吹	-10.2663
朴	-10.2667
四川	-10.2667
不著書撰人名氏	-10.267
上下經	-10.2676
海内	-10.2679
刋誤	-10.2681
矣故	-10.2681
率更	-10.2686
錢氏	-10.2688
今世	-10.2697
志云	-10.2708
十餘年	-10.271
學校	-10.2713
集説	-10.2715
明白	-10.2717
胡一桂曰	-10.2733
變而	-10.2736
所以為	-10.2737
臨安	-10.274
遁	-10.2741
遍	-10.2743
經一部一冊	-10.2744
揭	-10.2745
樸	-10.2746
本也	-10.2748
淳祐	-10.2749
若干	-10.2749
湮	-10.2749
臻	-10.275
龎	-10.2753
貪	-10.2753
皇極經世	-10.2755
淵源	-10.2756
又謂	-10.2759
經筵	-10.2761
等撰	-10.2762
辛未	-10.2766
嘗以	-10.2769
王道	-10.2771
范氏	-10.2773
安定	-10.2774
三十一	-10.2775
庚子	-10.2777
皆作	-10.2777
立於	-10.2778
王莽	-10.2787
任城	-10.2788
八日	-10.2792
傳於世	-10.2795
四冊	-10.2797
永和	-10.2799
其心	-10.2801
六十卷	-10.2808
年譜	-10.2808
二公	-10.2809
説卦	-10.2817
功徳	-10.2825
晝	-10.2825
董氏	-10.2829
竄	-10.283
不可得	-10.283
狂	-10.2831
新唐書	-10.2831
隔	-10.2832
矦	-10.2835
庚午	-10.2837
古書	-10.2839
次序	-10.2841
雋	-10.2841
陟	-10.2849
楨	-10.2851
錄一卷	-10.2852
中書令	-10.2853
諸國	-10.2862
康成	-10.2867
四十二	-10.2871
年表	-10.2871
八篇	-10.2886
集賢	-10.2893
㑹通	-10.29
治亂	-10.2903
草堂	-10.2908
未備	-10.2911
将軍	-10.2914
未易	-10.2916
先師	-10.2919
觸	-10.292
神仙	-10.2921
彞	-10.2922
技	-10.2924
丙辰	-10.2925
匠	-10.2925
俯	-10.2926
蹈	-10.2927
場	-10.293
説者	-10.2932
氷	-10.2932
棟	-10.2934
廖	-10.2936
識其	-10.2936
惲	-10.2945
顯慶	-10.2947
稿又	-10.2952
明經	-10.2952
之流	-10.2956
錢塘	-10.2956
司馬遷	-10.2958
隋唐	-10.296
百姓	-10.2966
饗	-10.2998
一代	-10.3
戊	-10.3004
添	-10.3006
粲	-10.3006
嫌	-10.3008
天聖	-10.3009
其所以	-10.3011
湖廣	-10.3012
鋟	-10.3012
要義	-10.3012
又何	-10.3013
乂	-10.3015
恥	-10.3016
穎	-10.3023
其時	-10.3023
彬	-10.3024
太僕	-10.3029
歐陽修	-10.303
祕書	-10.303
御史大夫	-10.3033
中山	-10.3035
兵部尚書	-10.3035
荀卿	-10.3035
和尚	-10.3036
公諱	-10.3039
之難	-10.3051
成文	-10.3052
當為	-10.3052
集義	-10.3054
集又	-10.3056
晚年	-10.3063
甚詳	-10.3065
南海	-10.3065
沈氏	-10.3068
軒集	-10.3069
非其	-10.307
而終	-10.3091
僉	-10.3094
己未	-10.3098
荆州	-10.31
捐	-10.3105
禱	-10.3108
駿	-10.3108
筆意	-10.311
愍	-10.3111
壹	-10.3111
邠	-10.3113
東西	-10.3116
丙午	-10.3116
膠	-10.3117
怡	-10.3119
甲申	-10.3121
徳政碑	-10.3121
馬氏	-10.3122
工部尚書	-10.3125
也若	-10.3128
十九年	-10.3128
自稱	-10.3132
師事	-10.3137
凡三	-10.314
經之	-10.3141
而去	-10.3143
禮也	-10.3149
皇極	-10.3156
末有	-10.3158
公子	-10.3161
解一卷	-10.3166
三體	-10.317
口義	-10.3177
殘闕	-10.3177
而言	-10.3186
四明	-10.3187
托	-10.3197
派	-10.3197
疑之	-10.3198
訟	-10.3199
収	-10.3202
匹	-10.3202
溢	-10.3203
姬	-10.3204
羡	-10.3204
太常博士	-10.3204
之迹	-10.3205
綿	-10.3207
傷寒	-10.3207
郢	-10.3208
其次	-10.321
頗多	-10.3214
祥符	-10.3216
二王	-10.3218
九日	-10.3222
名之曰	-10.3225
知者	-10.3227
卦之	-10.3236
之遺	-10.3239
相類	-10.3262
或謂	-10.3263
門外	-10.3265
始終	-10.3269
印記	-10.327
羣臣	-10.3271
穀	-10.3277
先君	-10.3289
泯	-10.329
貳	-10.3291
元帝	-10.3292
脈	-10.3294
曇	-10.3295
襃	-10.3295
復有	-10.3295
恢	-10.3296
鄞縣人	-10.3297
綱領	-10.3298
響	-10.3298
逃	-10.3298
縣圖志二冊	-10.3299
三年立	-10.3299
反覆	-10.33
北史	-10.3301
夔	-10.3305
觀碑	-10.3306
熙寧	-10.3307
長興	-10.3308
義例	-10.3308
出為	-10.3323
鍾繇	-10.3325
待詔	-10.333
其法	-10.3333
山中	-10.3336
茅山	-10.3337
語録	-10.334
將以	-10.3341
長樂	-10.3341
參軍	-10.3355
别本	-10.3365
碑銘	-10.3368
心經	-10.3379
三曰	-10.3379
長洲人	-10.3379
去取	-10.338
雲南	-10.3385
癸酉	-10.3396
弁	-10.3396
一卷右唐	-10.3396
奠	-10.3396
夲	-10.3398
踈	-10.34
酬	-10.34
二十六卷	-10.3401
丕	-10.3402
光和四年	-10.3403
布政使	-10.3404
大象	-10.3407
皇后	-10.3415
無遺	-10.3419
子弟	-10.3421
易有	-10.3423
使君	-10.3431
厯代	-10.3436
帖中	-10.3444
四十五	-10.3444
二帖	-10.3449
史氏	-10.3455
十卷又	-10.3456
乃云	-10.3472
所注	-10.3472
改為	-10.3476
改正	-10.3482
兌	-10.3483
葺	-10.3484
消	-10.3484
殁	-10.3488
咸淳	-10.3491
璣	-10.3492
辛亥	-10.3493
煙	-10.3494
羣書	-10.3497
明帝	-10.3501
劉禹錫	-10.3503
蜀人	-10.3507
本無	-10.3512
附録	-10.3518
真跡	-10.3519
儒林傳	-10.3526
已有	-10.3534
歐公	-10.3534
□□	-10.3535
其詞	-10.3543
撰并正書	-10.3552
道德	-10.3557
華亭	-10.3558
經義考卷	-10.356
説一卷	-10.356
在今	-10.3563
七日	-10.3564
故以	-10.3566
而得	-10.3568
中國	-10.357
甲戌	-10.3576
拾	-10.3578
裝	-10.3579
不同者	-10.3583
哭	-10.3584
劇	-10.3584
光禄大夫	-10.3585
顔師古	-10.3586
數字	-10.3586
辨之	-10.3587
五十六	-10.359
是為	-10.3592
瓚	-10.3592
讃	-10.3594
自得	-10.3596
綬	-10.3598
其於	-10.3598
于此	-10.3598
案文獻通攷	-10.3601
南宫	-10.3604
同知	-10.3606
陜西	-10.3613
於春秋	-10.3618
之至	-10.3618
長子	-10.3626
之亂	-10.3627
桂陽	-10.364
安石	-10.3642
一編	-10.3642
神龍	-10.3643
頗有	-10.3645
有四	-10.3648
二卷未見	-10.365
壬辰	-10.3654
尤為	-10.3656
七字	-10.3659
州郡	-10.3662
方氏	-10.3669
僕射	-10.3671
六卷存	-10.3671
欽定四庫全書經義考卷	-10.3674
樂記	-10.3674
愼	-10.3675
二本	-10.3676
􁁊	-10.3678
上書	-10.3679
經者	-10.3681
駮	-10.3681
齒	-10.3682
囊	-10.3683
戊午	-10.3685
脉	-10.3685
浸	-10.3685
􁬿	-10.3687
犧	-10.3688
黔	-10.3689
奉詔	-10.3689
學於	-10.369
魯史	-10.369
騐	-10.3692
霍	-10.3695
曼	-10.3696
天命	-10.3697
不易	-10.3698
濂	-10.3699
鄭樵	-10.3701
栁公權	-10.3702
亦多	-10.3703
而不可	-10.3704
成於	-10.3705
甚矣	-10.3706
像碑	-10.3709
東晉	-10.371
五十五	-10.3718
不全	-10.3721
表章	-10.3723
修身	-10.3754
管見	-10.3757
畜	-10.376
大都	-10.376
故也	-10.3765
傳而	-10.3768
集古錄	-10.3768
多所	-10.3768
舊史	-10.3772
衝	-10.3773
同州	-10.3774
頓首	-10.3775
刊	-10.3775
墓誌唐	-10.3776
途	-10.3777
中間	-10.3778
鳩	-10.3778
廣陵	-10.3779
牲	-10.378
呈	-10.378
逺矣	-10.3782
蟲	-10.3783
煌	-10.3784
脚	-10.3784
投壺	-10.3786
衮	-10.3786
梧	-10.3786
泛	-10.3786
彥	-10.3788
辱	-10.3788
六官	-10.3792
文云	-10.3792
二十篇	-10.3793
道徳	-10.3801
於是乎	-10.3804
少府	-10.3805
李斯	-10.3806
行草	-10.3807
以道	-10.3808
始得	-10.3809
文王周公	-10.381
標題	-10.3813
三山	-10.3815
風雨	-10.3819
真定	-10.382
修邑	-10.3822
▁月	-10.3827
二年進士	-10.3831
不著名氏	-10.3832
邑人	-10.3833
浮圖	-10.384
苐四百	-10.3847
之術	-10.3855
定為	-10.3859
羲文	-10.3861
溪集	-10.3863
精神	-10.3864
其道	-10.3865
童子	-10.3869
從顧從義釋	-10.3869
東魏	-10.3874
其序	-10.3874
善惡	-10.3875
宣公	-10.3877
摧	-10.388
膚	-10.388
乙酉	-10.3881
郡王	-10.3882
返	-10.3882
翺	-10.3883
禦	-10.3884
辛酉	-10.3887
杞	-10.3887
獵	-10.3888
同志	-10.3889
縉雲	-10.389
汶	-10.3891
著之	-10.3891
至于	-10.3893
宣徳	-10.3894
霄	-10.3895
侍御史	-10.3897
苐一千五百	-10.3901
苐五百	-10.3905
苐九百	-10.3907
舍利	-10.3909
造化	-10.3917
後序	-10.3926
四卷存	-10.3928
得一	-10.3931
卷首	-10.3939
王子	-10.3939
十卷未見	-10.3943
佚閩書	-10.3943
大徳	-10.395
得而	-10.3951
百官	-10.3952
三墳	-10.3956
孫子	-10.3957
揚州	-10.3964
至宋	-10.3975
搆	-10.3981
十三篇	-10.3981
酷	-10.3981
區區	-10.3981
巽	-10.3982
歡	-10.3985
其失	-10.3985
猛	-10.3986
遒勁	-10.3987
劄	-10.3987
輸	-10.3988
九江	-10.3989
己酉	-10.3991
三十七	-10.3992
活	-10.3992
戊辰	-10.3993
竦	-10.3994
雖不	-10.3995
石鼓	-10.3996
考正	-10.3997
遂為	-10.3997
四海	-10.4001
亡其	-10.4001
時為	-10.4004
苐一千四百	-10.4004
其師	-10.4009
校正	-10.401
苐一千七百	-10.4012
為文	-10.4018
大同	-10.402
莫如	-10.4024
丙子	-10.4024
翻刻	-10.4041
稱之	-10.4043
矣今	-10.4045
國初	-10.4048
未幾	-10.4054
集中	-10.4054
異者	-10.4055
苐七百	-10.4059
楚辭	-10.406
作詩	-10.406
卷又	-10.406
書經	-10.4067
何休	-10.4068
者豈	-10.407
裳	-10.4074
覃	-10.4075
十卷右	-10.4076
莫知	-10.408
乾元	-10.4081
白雲	-10.4082
緫	-10.4085
濫	-10.4085
子貢	-10.4085
釋氏	-10.4087
批	-10.4088
覧	-10.4088
御史中丞	-10.409
蓄	-10.4093
刀	-10.4095
閻	-10.4095
牘	-10.4099
景祐	-10.41
二子	-10.4102
武徳	-10.4102
世所傳	-10.4105
十五篇	-10.4105
廷尉	-10.4105
鵠	-10.4106
苐一千六百	-10.4109
科斗	-10.411
其㫖	-10.4111
休寧人	-10.4113
一碑	-10.4124
撰立	-10.4124
以授	-10.4127
戴記	-10.4131
有道	-10.4133
司馬光	-10.4137
二十八卷	-10.4141
公卿	-10.4144
他日	-10.4144
旁通	-10.4149
也乃	-10.415
卦變	-10.4154
與其	-10.4161
其數	-10.4163
一部八冊	-10.4168
李公	-10.4169
陪	-10.419
萌	-10.4192
侃	-10.4193
栢	-10.4193
吐	-10.4195
平章事	-10.4195
棲	-10.4196
涵	-10.4197
彭城	-10.4197
崇文	-10.42
仇	-10.42
棠	-10.4201
璘	-10.4202
著於	-10.4204
賦一卷	-10.4206
知制誥	-10.4206
苐一千三百	-10.4208
宗實録	-10.4208
十字	-10.4211
起於	-10.4212
風俗	-10.4213
自漢	-10.4217
呉興	-10.4217
歲月	-10.4223
靡不	-10.4232
事而	-10.4234
鄞人	-10.4239
十卷存	-10.4242
不可不	-10.4243
一經	-10.4254
志作	-10.4254
縣西	-10.4259
文宗	-10.4269
齋稿	-10.4269
可不	-10.4273
雒陽	-10.4274
九州	-10.4275
作易	-10.4276
翕	-10.4276
謹按	-10.4281
仲子	-10.4283
酉	-10.4289
俄	-10.4291
緩	-10.4292
䖏	-10.4293
鐸	-10.4293
揖	-10.4293
姿	-10.4295
豳	-10.4295
檢討	-10.4295
庚辰	-10.4295
漢唐	-10.4296
暑	-10.4296
屠	-10.4297
善本	-10.4299
校書郎	-10.4299
寮	-10.43
遯	-10.4301
晟	-10.4303
两	-10.4304
而歸	-10.4304
中郎將	-10.4313
名物	-10.4314
歐陽詢	-10.4321
三聖	-10.4321
條例	-10.4323
昔者	-10.4324
君子之	-10.4328
有五	-10.4332
存稿	-10.4334
大暦	-10.4335
者葢	-10.4337
其傳	-10.4344
婺源人	-10.4351
所蔵	-10.4355
疑其	-10.4357
文忠	-10.4365
玉海	-10.4368
其首	-10.4379
大唐	-10.4382
申公	-10.4383
逺近	-10.4388
荅	-10.4389
民之	-10.4391
戊戌	-10.4393
孝宗	-10.4394
值	-10.4394
筆削	-10.4396
所當	-10.4398
嶠	-10.4399
褒貶	-10.4399
婉	-10.44
圻	-10.44
盗	-10.4401
剛柔	-10.4402
冷	-10.4402
國子祭酒	-10.4403
瑜	-10.4403
縱横	-10.4404
四百	-10.4406
禮者	-10.4406
無名	-10.4414
王府	-10.4421
部主事	-10.4421
不待	-10.4421
其前	-10.4423
中丞	-10.4423
者盖	-10.4429
元符	-10.4431
東北	-10.4432
神農	-10.4433
方一卷	-10.4433
光禄	-10.4438
掇	-10.444
通義	-10.4447
論語解	-10.4448
崇寧	-10.445
講學	-10.4451
元年立	-10.4453
南渡	-10.4455
五冊	-10.4459
者或	-10.446
見者	-10.4464
於其	-10.4466
為序	-10.4467
律吕	-10.4469
雜卦	-10.4472
永嘉人	-10.4474
禮義	-10.4474
安平	-10.4479
指歸	-10.4485
不詳	-10.4489
其理	-10.4489
本文	-10.4496
毒	-10.4497
十八年	-10.4498
大略	-10.45
壬戌	-10.4502
幣	-10.4503
逾	-10.4503
無考	-10.4504
斬	-10.4505
淂	-10.4506
粟	-10.4508
瓌	-10.4509
雁	-10.4511
耽	-10.4513
南山	-10.4513
浪	-10.4514
性情	-10.4514
景龍	-10.4515
西北	-10.4521
未成	-10.4522
今人	-10.4525
秦火	-10.4526
世次	-10.4534
諸葛	-10.4534
苐一千一百	-10.4537
既而	-10.4543
山陰	-10.4544
齊人	-10.4544
中平	-10.4546
鄉里	-10.4547
代宗	-10.4549
廬山	-10.455
紹興中	-10.4553
其辭曰	-10.4562
亡矣	-10.4566
春秋左氏傳	-10.4574
經義考卷二百	-10.4579
之目	-10.4581
數千	-10.4585
刋行	-10.4587
九成	-10.4588
長於	-10.4589
濓	-10.4596
帝紀	-10.4603
少師	-10.4604
五帝	-10.4604
倡	-10.4605
福寺	-10.4606
序次	-10.4611
恤	-10.4611
宋槧	-10.4612
覈	-10.4612
甄	-10.4613
趙孟頫	-10.4613
璋	-10.4621
鉅鹿	-10.4622
本㫖	-10.4625
潞	-10.4625
并序	-10.4628
巡撫	-10.4628
集一卷唐	-10.464
而能	-10.4646
詹事	-10.4647
平陽	-10.4648
夏商	-10.4652
所刋	-10.4655
撰正書	-10.466
職方	-10.466
即此	-10.4663
法度	-10.4669
性命	-10.4674
相承	-10.4676
工部	-10.4679
變易	-10.4681
石柱	-10.4682
尤甚	-10.4688
欽定四庫全書經義考卷二百	-10.4689
喪禮	-10.4689
▁洛	-10.4702
十二巻	-10.4705
冰	-10.4708
詩選	-10.4708
僊	-10.4711
可與	-10.4714
秘書	-10.4714
碑隂題名	-10.4714
躍	-10.4715
枚	-10.472
奈何	-10.4721
指南	-10.4721
籕	-10.4722
茲	-10.4722
筌	-10.4723
金剛經	-10.4725
蓬	-10.4727
吏部侍郎	-10.4728
蘇軾	-10.473
䜟	-10.4731
進士官	-10.4736
孔子曰	-10.4742
見聞	-10.4742
宇文	-10.4745
正同	-10.4746
江東	-10.4746
萬年	-10.4751
志四卷	-10.4753
景君	-10.4755
二函	-10.4759
塔銘	-10.4761
之力	-10.4762
八巻	-10.4766
更定	-10.4766
長洲	-10.4768
六冊	-10.4771
三十二卷	-10.4776
院記	-10.4777
卷末	-10.4778
無此	-10.4779
言行	-10.4786
江州	-10.4786
因其	-10.4789
考證	-10.479
蘇州	-10.4791
文志	-10.4795
今此碑	-10.4797
五言	-10.48
然不	-10.4803
碑首	-10.4804
行狀	-10.4805
此卷	-10.4806
長睿	-10.481
志一卷	-10.4813
附㑹	-10.4815
二十卷佚	-10.4815
而易	-10.4821
惟其	-10.4822
無有	-10.4826
賾	-10.4828
贍	-10.4828
詰	-10.4829
閉	-10.4829
賈逵	-10.4829
伊尹	-10.483
巷	-10.483
禆	-10.4832
勾	-10.4833
之氣	-10.4834
所臨	-10.4836
態	-10.4837
袁氏	-10.4839
所言	-10.484
其目	-10.4843
洋	-10.4847
福州	-10.4848
傳義	-10.4848
一旦	-10.4848
尚多	-10.4849
可喜	-10.4849
小異	-10.4855
祭祀	-10.4857
硯	-10.4857
相去	-10.4858
百九十	-10.4861
李邕	-10.4871
往來	-10.4872
乾符	-10.4874
少保	-10.488
元嘉	-10.488
范陽	-10.4882
大戴禮	-10.4882
集四十卷	-10.4884
不可勝	-10.4885
之情	-10.4887
焉而	-10.4887
經義考卷一百	-10.4888
而不能	-10.4891
百八十	-10.4897
成公	-10.4899
六書	-10.4902
篆𨽻	-10.4904
西京	-10.4905
久而	-10.4906
釋之	-10.4906
偽作	-10.4907
郡縣	-10.4908
不肯	-10.4909
於今	-10.4911
此云	-10.4914
江陵	-10.4918
授受	-10.4919
槃	-10.4935
或以為	-10.4935
壬午	-10.4936
隴	-10.4938
挾	-10.4939
驅	-10.494
涕	-10.4942
裘	-10.4943
限	-10.4943
之類是也	-10.4945
棐	-10.4945
是經	-10.4946
阻	-10.4946
一部十	-10.4946
五十二	-10.4946
瑕	-10.4947
彈	-10.4947
馴	-10.4947
不可讀	-10.4947
枕	-10.4948
岱	-10.495
謹案右一帖行草	-10.4952
七百	-10.4956
紙墨	-10.4959
總管	-10.4964
户部	-10.4967
欽定四庫全書經義考卷一百	-10.4979
既成	-10.498
筆勢	-10.4982
但云	-10.4988
一卦	-10.4988
漢世	-10.499
撰序	-10.4991
郭氏	-10.4991
復為	-10.4992
格物	-10.4992
序文	-10.4997
即其	-10.4998
張子	-10.5001
士元	-10.5001
不通	-10.5005
其功	-10.5008
山之	-10.501
各以	-10.5012
藏本	-10.5013
世祖	-10.5016
濮	-10.5016
凡五	-10.5017
年四月	-10.5022
語錄	-10.5028
附于	-10.5029
太極圖	-10.5029
箕	-10.5029
錄之	-10.5031
三卷右	-10.5032
暦	-10.5033
知名	-10.5035
不能盡	-10.5039
二十一年	-10.5047
橅印	-10.5049
有大	-10.5051
聨	-10.5051
闔	-10.5053
幢	-10.5053
郗	-10.5053
廡	-10.5054
敝	-10.5054
通釋	-10.5054
字宗	-10.5055
淨	-10.5055
逝	-10.5055
桃	-10.5055
廓	-10.5055
耳目	-10.5057
摸	-10.5057
嫁	-10.5059
夬	-10.506
阜	-10.506
矣夫	-10.5062
延祐	-10.5063
所集	-10.5064
旻	-10.5064
䕫	-10.5068
四象	-10.5072
槐	-10.5075
石幢	-10.5083
可知也	-10.5087
有意	-10.5088
忠臣	-10.5097
墓前	-10.5098
肅宗	-10.5108
九字	-10.5117
唐宋	-10.5117
己丑	-10.5118
二十餘	-10.5119
三行	-10.512
則云	-10.5125
識語	-10.5129
科舉	-10.5129
文王之	-10.513
山西	-10.5135
庶子	-10.5136
抵	-10.5142
經典	-10.5142
保大	-10.5143
乙丑	-10.5144
宋儒	-10.5147
蒼頡	-10.5158
數年	-10.5159
四家	-10.516
晉人	-10.5161
家有	-10.5162
異於	-10.5164
戈	-10.5164
蠡	-10.5164
迺	-10.5165
鄉人	-10.5166
如何	-10.5166
南康	-10.5167
瘞鶴銘	-10.5167
映	-10.5168
偕	-10.517
覲	-10.517
鎭	-10.5171
彊	-10.5171
太保	-10.5172
忠義	-10.5174
圜	-10.5175
瑶	-10.5176
畔	-10.5177
虞世南	-10.5177
互體	-10.5178
栖	-10.5179
翰墨	-10.5183
周子	-10.5183
去其	-10.5186
又為	-10.5189
太倉	-10.519
也至	-10.5191
皇太子	-10.5192
水經注	-10.5195
元祐中	-10.5197
河中	-10.5199
列子	-10.5204
字多	-10.5206
自言	-10.5209
伯思云	-10.5211
山房	-10.5216
聞見	-10.5217
說文	-10.5221
法言	-10.5236
可信	-10.5238
畫卦	-10.5238
碑額	-10.524
曾孫	-10.5241
校定	-10.5242
禮儀	-10.5247
大畧	-10.5248
此亦	-10.5248
龍門	-10.5249
未之	-10.525
兵部	-10.5256
者即	-10.5257
二卷佚	-10.5258
墓誌銘	-10.5259
撰年	-10.5263
為是	-10.5263
漢初	-10.5263
宙	-10.5265
天下後世	-10.5265
日用	-10.5267
聖人之意	-10.5273
部尚書	-10.5273
存亡	-10.5274
無名氏	-10.5279
茍	-10.528
邸	-10.5281
巫	-10.5282
夾	-10.5283
栗	-10.5283
蛇	-10.5283
灼	-10.5283
癸未	-10.5284
壻	-10.5284
六巻	-10.5284
王元美	-10.5285
後序曰	-10.5286
霖	-10.5286
其字畫	-10.5286
級	-10.5289
禮部侍郎	-10.529
逈	-10.5291
究其	-10.5291
庚申	-10.5292
大學中庸	-10.5294
已亡	-10.5295
冥	-10.5296
嵗在	-10.5296
言者	-10.5299
不能無	-10.53
提要	-10.5301
荀子	-10.5302
五經文字	-10.5304
秀水人	-10.5305
禁中	-10.5305
觀者	-10.5305
重建	-10.5306
相似	-10.5311
周孔	-10.5313
第七	-10.5313
兖州	-10.5313
闕文	-10.5313
大雅	-10.5314
久之	-10.5319
肯	-10.5321
見而	-10.5324
萟	-10.5329
書史	-10.533
惜其	-10.5331
可為	-10.5334
石渠	-10.5344
闕十	-10.535
海鹽	-10.5353
婦人	-10.536
高祖	-10.5362
世子	-10.5364
當在	-10.5365
吾心	-10.5367
九篇	-10.5369
所收	-10.5373
碑刻	-10.5373
元史	-10.5377
無足	-10.5378
得以	-10.538
矣其	-10.5382
隋志一卷佚	-10.5386
三才	-10.5387
籀	-10.5387
神宗	-10.5389
四十六	-10.539
吁	-10.5393
恬	-10.5395
侯相	-10.5395
郵	-10.5398
欵	-10.5399
矧	-10.5399
苻	-10.5399
史云	-10.5399
仆	-10.54
逄	-10.5401
冉	-10.5401
灌	-10.5402
荷	-10.5402
泳	-10.5403
褚遂良	-10.5403
纎	-10.5404
唐初	-10.5405
曄	-10.5406
埋	-10.5406
鎬	-10.5408
國風	-10.5408
學宫	-10.5411
一年	-10.5412
藏書	-10.5413
▁兆	-10.5415
未得	-10.5418
五卷佚	-10.5418
備矣	-10.5423
未敢	-10.5423
銑	-10.5428
河洛	-10.5428
出而	-10.5431
戊子	-10.5433
不可考	-10.5434
博雅	-10.5436
至是	-10.5437
常侍	-10.5439
漳	-10.5439
墓志	-10.5442
謝氏	-10.5443
初名	-10.5451
聖人之言	-10.5451
不稱	-10.5453
不得其	-10.5456
是則	-10.5457
王者	-10.5457
定武本	-10.5466
校官	-10.5468
以歸	-10.5469
宗廟	-10.5469
宗伯	-10.5473
光和	-10.5476
臨江	-10.5486
録三卷	-10.5486
為博士	-10.5492
天官	-10.5501
於心	-10.5504
者多矣	-10.5507
誘	-10.5508
􁮖	-10.5508
腹	-10.5509
龜山	-10.551
恱	-10.5512
轍	-10.5513
紛紛	-10.5513
憾	-10.5514
魏了翁	-10.5516
概	-10.5517
外集	-10.5517
墻	-10.5518
或者	-10.5518
孔頴達	-10.5519
巍	-10.552
嘉興人	-10.552
戯	-10.5521
洎	-10.5521
櫟	-10.5522
梵	-10.5523
得意	-10.5525
之藴	-10.5525
筭	-10.5526
鄂	-10.5526
閩縣人	-10.5527
故不	-10.5528
昂	-10.5529
南軒	-10.5529
冶	-10.553
璞	-10.553
檀弓	-10.5532
山隂人	-10.5533
瓦	-10.5534
王制	-10.5536
漫滅	-10.5538
再拜	-10.554
人姓名	-10.554
山水	-10.5542
識之	-10.5543
華亭人	-10.5547
不忍	-10.5549
庿碑	-10.5555
慨然	-10.5556
八冊	-10.5558
始有	-10.5567
章帝	-10.5569
江夏	-10.5581
音訓	-10.5581
山林	-10.5582
不若	-10.5582
鄭注	-10.5584
道者	-10.5595
入於	-10.5598
無他	-10.5598
外篇	-10.5601
諸儒之	-10.5606
而又	-10.5608
李邕撰	-10.5609
元和十	-10.562
亦然	-10.562
實錄	-10.5621
愽	-10.5624
卒贈	-10.5627
明徳	-10.5629
庖	-10.5629
河圖洛書	-10.5631
先是	-10.5631
三易	-10.5632
此乃	-10.5633
燭	-10.5635
繫之	-10.5635
現	-10.5635
敖	-10.5635
冗	-10.5635
斤	-10.5636
不獲	-10.5637
岸	-10.5642
輦	-10.5643
原父	-10.5645
陁	-10.565
指掌	-10.5651
號曰	-10.5651
所由	-10.5654
史惟則	-10.5655
一無	-10.5657
於石	-10.5657
咸亨	-10.5662
先賢	-10.5667
洪氏	-10.5669
一百六十	-10.5671
七經	-10.5679
建昌	-10.568
羣經	-10.568
文正	-10.5684
論孟	-10.5686
風雅	-10.5689
余家	-10.569
之内	-10.5693
近代	-10.5697
之分	-10.5698
於詩	-10.5704
者哉	-10.5705
春秋左氏	-10.571
推官	-10.5722
具載	-10.5722
邵氏	-10.5722
辛丑	-10.5723
故有	-10.5729
興化	-10.5731
具在	-10.5734
字希	-10.5738
刻本	-10.5738
廟中	-10.5739
潘本	-10.5741
繋	-10.5749
鬻	-10.5751
乙巳	-10.5754
故受之以	-10.5755
苖	-10.5755
亭侯	-10.5757
曩	-10.5757
輅	-10.5759
群	-10.5759
蒐	-10.576
糾	-10.576
舅	-10.5762
大理	-10.5762
東觀	-10.5762
頼	-10.5762
國子司業	-10.5763
宗正	-10.5764
必以	-10.5768
箕子	-10.5769
王元	-10.5769
督郵	-10.577
甲寅	-10.5772
文中子	-10.5777
之美	-10.5781
不疑	-10.5786
至唐	-10.5787
黄初	-10.5795
不可復	-10.5797
注引	-10.5797
雒	-10.5799
前世	-10.5799
置之	-10.5805
傳曰	-10.5806
舉要	-10.5809
出自	-10.5809
未免	-10.5809
西安	-10.5819
戴氏	-10.582
世系	-10.5829
百餘年	-10.5831
讀書志	-10.5833
三卷又	-10.5836
石壁	-10.5838
豈有	-10.5848
無可	-10.5851
撰月	-10.5852
後唐	-10.5854
宋時	-10.5856
考亭	-10.5859
三卷存	-10.5863
中庸大學	-10.5868
桓公	-10.5875
羽翼	-10.5876
志墓曰	-10.5876
踵	-10.5876
豆	-10.5878
懲	-10.5879
司農	-10.5879
椒	-10.588
妾	-10.5882
諫議大夫	-10.5882
磬	-10.5883
珣	-10.5883
而上	-10.5883
旗	-10.5884
王公	-10.5884
圎	-10.5885
謗	-10.5886
滁	-10.5887
桞	-10.5892
贄	-10.5892
綺	-10.5895
著易	-10.59
百一十	-10.5905
文正公	-10.5906
渭南	-10.5907
受禪	-10.591
使者	-10.591
内府	-10.5912
大和	-10.5914
四十四	-10.5916
等書	-10.5922
未之見	-10.5923
法一卷	-10.5924
存乎	-10.5927
崑山人	-10.5931
銘曰	-10.5933
太康	-10.5934
為之注	-10.5934
時代	-10.5935
過之	-10.5936
三朝	-10.5938
其身	-10.5939
以待	-10.5939
也然則	-10.5943
以便	-10.5945
其徒	-10.5949
雅頌	-10.5956
詩説	-10.5961
汪氏	-10.5961
南昌	-10.5965
七八	-10.5983
為正	-10.5984
㢘	-10.5988
遺意	-10.599
四年立	-10.5992
餘皆	-10.5994
亢	-10.5996
鑰	-10.5997
删	-10.5999
拂	-10.6
非是	-10.6003
刹	-10.6004
筆畫	-10.6004
月見本文	-10.6005
泌	-10.6005
魁	-10.6006
醜	-10.6006
苞	-10.6007
壑	-10.6009
悌	-10.6012
之風	-10.6017
清江	-10.602
其非	-10.602
從掾位	-10.6023
蜀郡	-10.6023
畵	-10.6027
太常寺	-10.6029
訓釋	-10.6032
岩	-10.6034
三十八	-10.6036
諸王	-10.6038
憲宗	-10.6039
討論	-10.6045
四日	-10.6048
嵩陽	-10.6049
諸賢	-10.605
之過	-10.605
深衣	-10.6052
正德	-10.606
天祐	-10.606
通典	-10.6061
考訂	-10.6065
然自	-10.6065
山集	-10.6072
次子	-10.6073
官制	-10.6077
十二字	-10.6077
知有	-10.608
舊文	-10.609
學記	-10.609
亦曰	-10.6093
史館	-10.6094
家塾	-10.6099
曽孫	-10.6107
而爲	-10.6107
十一篇	-10.6109
天王	-10.611
汨	-10.6112
字時	-10.6114
軻	-10.6122
爛	-10.6122
核	-10.6122
髪	-10.6126
妖	-10.6127
世宗	-10.6127
換	-10.6128
清河	-10.6128
辛巳	-10.613
中書侍郎	-10.6131
癸	-10.6131
惇	-10.6131
温公	-10.6132
濕	-10.6132
顏	-10.6133
詞一卷	-10.6133
乾隆	-10.6135
進呈	-10.6136
璹	-10.6137
東山	-10.6137
壬	-10.6141
勃海	-10.6142
說卦	-10.6143
極其	-10.6144
不暇	-10.6145
註疏	-10.6152
四巻	-10.6154
口授	-10.6156
莫之	-10.6158
不取	-10.6161
字世	-10.6164
失真	-10.6173
訂正	-10.6174
家傳	-10.6174
聖教	-10.6177
江都	-10.6179
刪定	-10.6186
十二卷存	-10.6192
天順	-10.6194
自古	-10.6198
發微	-10.6198
其用	-10.62
塔碑	-10.6204
賢良	-10.6205
固已	-10.6206
矣此	-10.6208
獻王	-10.6211
萬一	-10.6221
立此碑	-10.6221
所取	-10.6225
内篇	-10.6229
聖人之心	-10.6234
正經	-10.6237
庿	-10.6239
紂	-10.6242
宋元	-10.6247
經緯	-10.6251
拒	-10.6251
檀	-10.6254
檄	-10.6255
黒	-10.6255
遥	-10.6256
陏	-10.6257
泐	-10.6258
横渠	-10.6259
著作郎	-10.6259
醴泉	-10.6259
宣城	-10.626
天人	-10.6261
鳳翔	-10.6261
台州	-10.6261
規模	-10.6261
後為	-10.6269
以及	-10.6271
撰并行書	-10.6271
廣西	-10.6276
誤以	-10.6284
疑是	-10.6286
太常卿	-10.6287
未見陸元輔曰	-10.6297
師説	-10.6303
摹刻	-10.6307
太山	-10.6307
皆同	-10.6308
可愛	-10.6313
十有四	-10.6318
公榖	-10.632
大道	-10.632
有兩	-10.6325
府長史	-10.6331
與今	-10.6332
之言曰	-10.6336
詩稿	-10.6336
凡二十	-10.6343
今以	-10.6345
詔書	-10.6349
夫婦	-10.6349
則非	-10.6353
字惟	-10.6354
唐張	-10.6362
隂陽之	-10.6364
複	-10.6368
壬子	-10.6368
龍興寺	-10.6369
所著有	-10.6371
禊	-10.6372
啖趙	-10.6376
扈	-10.6379
旱	-10.638
廵撫	-10.638
董仲舒	-10.638
丑	-10.6381
楹	-10.6382
朋友	-10.6382
駢	-10.6384
它	-10.6385
趙明誠	-10.6385
來者	-10.6385
恠	-10.6387
縣尉	-10.6388
志六卷	-10.6388
長睿云	-10.6389
恂	-10.639
四十一	-10.639
三皇	-10.639
刑部尚書	-10.6391
文宣王廟	-10.6395
縣丞	-10.6395
菊	-10.6395
王輔嗣	-10.6396
瀛	-10.6399
仲舒	-10.6412
不可曉	-10.6412
吳江	-10.6417
開封	-10.6427
稱為	-10.6428
纂疏	-10.6429
法師碑	-10.6431
成帝	-10.6431
武德	-10.6433
目錄	-10.6438
未嘗不	-10.644
貢士	-10.6441
所定	-10.6443
紀聞	-10.6444
永康	-10.6446
取士	-10.6446
非聖人	-10.6446
幽州	-10.6452
以相	-10.6456
其門人	-10.6458
濟隂	-10.6458
書畫	-10.646
臨川人	-10.6466
春秋三傳	-10.6468
賦詩	-10.6468
四聖	-10.6473
但有	-10.6473
一事	-10.6479
筆力	-10.6481
卿撰	-10.6485
引之	-10.6486
徽宗	-10.6488
常州	-10.6494
不欲	-10.65
莘	-10.6501
答問	-10.6502
世儒	-10.6502
草法	-10.6503
周易注	-10.6505
从	-10.6507
魏公	-10.6507
炫	-10.6508
珉	-10.6508
状	-10.6509
峙	-10.6512
押	-10.6512
陂	-10.6513
何哉	-10.6513
禮器	-10.6517
攀	-10.6517
璉	-10.6519
减	-10.652
支離	-10.652
樗	-10.6522
崧	-10.6522
劉公	-10.6523
諸家之説	-10.6526
沿革	-10.6526
水利	-10.6528
三冊	-10.6529
數也	-10.6537
倦	-10.6546
易林	-10.6547
字士	-10.6551
纂言	-10.6552
楷書	-10.6554
尚未	-10.6559
也蓋	-10.656
兩漢	-10.6561
惟此	-10.6563
記曰	-10.6565
解經	-10.6568
水火	-10.6569
元年十月	-10.6571
旁注	-10.6578
不忘	-10.6584
其論	-10.6584
所居	-10.6585
興國	-10.6587
又作	-10.6588
學生	-10.6595
法書	-10.6603
四十三	-10.6603
論其	-10.6604
疏義	-10.6605
畧一卷	-10.6606
隨筆	-10.6607
其形	-10.6616
不獨	-10.6624
之暇	-10.6627
李陽冰	-10.6628
搨本	-10.6632
魯國	-10.6632
夏時	-10.6634
一首	-10.6634
黑	-10.6635
以疾	-10.6635
不審	-10.6639
昶	-10.664
不可得而	-10.6642
晉江人	-10.6643
擾	-10.6644
天理	-10.6647
兾	-10.6647
巾	-10.6647
芬	-10.6648
屑	-10.6649
篇目	-10.665
劔	-10.665
掘	-10.6652
甥	-10.6653
歐虞	-10.6653
泊	-10.6654
學庸	-10.6656
之弟	-10.6656
觀象	-10.666
定本	-10.6664
二程	-10.6671
正書無書撰人姓名	-10.6671
僉事	-10.6673
撰記	-10.6675
桓帝	-10.6682
廣政	-10.6682
嘗謂	-10.6691
西安府	-10.6696
邵武	-10.6697
睿宗	-10.6702
千五百	-10.6703
太上	-10.6705
卓然	-10.6708
要之	-10.6717
不至	-10.6724
亦自	-10.6726
廣大	-10.6727
性理	-10.673
集古録云	-10.6731
十三日	-10.6732
其要	-10.6732
文昌	-10.6746
五人	-10.6747
豈可	-10.675
聰	-10.6751
大臣	-10.6752
太𤣥經	-10.6753
之實	-10.676
物也	-10.676
予嘗	-10.6761
題字	-10.6762
渡	-10.6763
典禮	-10.6764
繆泳曰	-10.6767
釋經	-10.6769
十卷右唐	-10.677
二十一卷	-10.6771
霧	-10.6771
廙	-10.6773
凡百	-10.6774
墨林快事	-10.6775
主事	-10.6775
程傳	-10.6776
俸	-10.6776
詎	-10.6777
据	-10.6778
烝	-10.6778
稼	-10.6779
璠	-10.678
甲乙	-10.6781
隕	-10.6781
樞宻	-10.6784
括蒼	-10.6785
珂	-10.6785
募	-10.6786
在其中	-10.6786
顒	-10.6789
燔	-10.679
廸	-10.679
不著書人名氏	-10.6794
扵	-10.6796
為最	-10.6804
已見	-10.6807
兵法	-10.6814
易圖	-10.6826
丙戌	-10.683
孝友	-10.6835
一體	-10.6839
之旨	-10.6841
左僕射	-10.6842
初無	-10.6843
以告	-10.6845
殿中	-10.6845
彖傳	-10.6848
江隂	-10.6864
附益	-10.6865
何必	-10.6868
江寧	-10.6869
此記	-10.6876
武成	-10.688
對曰	-10.688
五星	-10.6884
詁	-10.6886
受之	-10.6887
篇首	-10.6889
猶在	-10.6889
孔壁	-10.6891
書一部一冊	-10.6898
孔門	-10.6901
耦	-10.6903
七十五	-10.6903
熱	-10.6904
自述曰	-10.6906
汎	-10.6906
皇象	-10.6907
卿大夫	-10.6908
先生文集	-10.6909
遏	-10.6909
栻	-10.691
心法	-10.6911
䓁	-10.6911
奬	-10.6914
繼之	-10.6914
沐	-10.6915
顥	-10.6916
繁露	-10.6916
買	-10.6916
枯	-10.6918
倩	-10.692
淸	-10.6922
顧氏	-10.6923
萇	-10.6924
韓擇木	-10.6927
鴈	-10.6927
璟	-10.6928
趙岐	-10.6928
文子	-10.6928
天宝	-10.6933
筆記	-10.6933
郡齋	-10.6935
契丹	-10.694
滎陽	-10.6943
侍讀	-10.6946
漢𨽻	-10.6949
載之	-10.6951
十七帖	-10.6953
闕六	-10.6956
凡四	-10.6957
景泰	-10.696
無逸	-10.6962
建隆	-10.6973
名賢	-10.6977
始皇	-10.6977
其志	-10.6979
十二卷佚	-10.698
華嚴	-10.6983
六卷又	-10.6985
十八篇	-10.6989
集註	-10.6998
小傳	-10.6999
刋本	-10.7
為之説	-10.7016
都昌	-10.7019
世人	-10.7023
二尺	-10.7025
理學	-10.7027
者猶	-10.7028
通用	-10.7028
卷一百	-10.7029
江左	-10.703
曰六經	-10.7031
武功	-10.7036
並行	-10.7037
案文獻通	-10.704
曰孔子	-10.7041
平王	-10.7041
國學	-10.7043
突	-10.7044
為此書	-10.7045
説佚	-10.7047
龍圖閣	-10.7047
輟	-10.7048
牢	-10.7049
潢	-10.7049
枉	-10.705
菩薩	-10.7051
合為一	-10.7051
金薤琳琅	-10.7051
桀	-10.7052
亰	-10.7052
斑	-10.7052
天子之	-10.7053
黯	-10.7053
十六篇	-10.7053
文粹	-10.7054
飬	-10.7056
鱗	-10.7058
贛	-10.7058
至矣	-10.7061
唐明皇	-10.7062
下邳	-10.7062
姤	-10.7062
篆文	-10.7063
攷作	-10.7063
拜議郎	-10.7063
寰宇	-10.7063
書佐	-10.7064
延夀	-10.7065
嘯	-10.7065
絳帖	-10.7067
庚戌	-10.7069
言易	-10.7078
一句	-10.708
至大	-10.7084
闕補卷	-10.7088
七十六	-10.7094
/)□(	-10.7099
監本	-10.7102
傳寫	-10.7102
當有	-10.7103
能盡	-10.7104
松江	-10.7107
歌一卷	-10.7108
章草	-10.7117
一册	-10.712
人少	-10.7134
則無	-10.7141
帝王之	-10.7142
閣帖	-10.7143
所著也	-10.7148
五十三	-10.715
用事	-10.715
令人	-10.716
舜典	-10.7164
書籍	-10.7165
泉州	-10.7172
韓氏	-10.7174
見前	-10.7178
爲之序	-10.7179
尚書郎	-10.718
以進	-10.7181
吕祖謙	-10.7181
十有八	-10.7183
勃	-10.7183
夙	-10.7184
召為	-10.7185
蹇	-10.7186
剔	-10.7186
祇	-10.7187
各自	-10.7189
讖緯	-10.7189
狹	-10.7189
六行	-10.7192
頡	-10.7192
得罪	-10.7192
集成	-10.7192
不著撰人名氏	-10.7193
不得不	-10.7194
賈誼	-10.7194
丙申	-10.7195
祉	-10.7195
剝	-10.7195
聖人之經	-10.7195
出于	-10.7196
壬寅	-10.7196
鴻臚	-10.7196
太平興國	-10.7196
杯	-10.7197
釣	-10.7199
碧落	-10.72
隍	-10.7202
曲阜	-10.7203
故民	-10.7208
事類	-10.7208
性之	-10.7209
之禍	-10.7211
粲然	-10.7213
典籍	-10.7215
權衡	-10.7217
之卦	-10.7218
圖說	-10.722
黄庭	-10.7222
元章	-10.7224
微言	-10.7225
相繼	-10.7225
附見	-10.7226
嗟乎	-10.7226
呉郡	-10.7228
四十七	-10.7229
永豐	-10.7231
自唐	-10.7242
御府	-10.7249
作序	-10.7261
用力	-10.7262
不知所	-10.7264
其舊	-10.727
安帝	-10.7271
命工	-10.7274
不同而	-10.7277
似是	-10.7279
不起	-10.7286
篇目同前	-10.7294
洙	-10.7296
千金	-10.7298
一筆	-10.7305
也哉	-10.731
以下原	-10.7314
六典	-10.7315
集本有	-10.732
乙亥	-10.7323
剖	-10.7324
㳟	-10.7324
儻	-10.7326
嚮	-10.7327
六十一	-10.7327
髮	-10.7328
丁亥	-10.7328
讚	-10.7328
寃	-10.7329
宋志十卷佚	-10.7329
罰	-10.7329
柴	-10.7331
州教授	-10.7332
閬	-10.7332
甘露	-10.7332
妹	-10.7332
嘉祐八年	-10.7335
泗	-10.7335
東觀餘論	-10.7335
兵部侍郎	-10.7337
邯鄲	-10.7337
准	-10.7338
蹤	-10.7339
􁭆	-10.734
参	-10.7341
舉其	-10.7342
芻	-10.7342
按此	-10.7347
尊師	-10.735
▁年	-10.7352
二條	-10.7355
不惟	-10.7357
此銘	-10.7361
不容	-10.7365
華州	-10.7365
沈約	-10.7366
之詳	-10.7369
微㫖	-10.7371
衆説	-10.7371
先生碑	-10.7373
之次	-10.7378
廟堂	-10.7378
拓本	-10.7379
碑碣	-10.7382
武夷	-10.7385
亳	-10.7387
流俗	-10.7391
上闕	-10.7392
上帝	-10.7393
二年二月	-10.7395
三載	-10.7396
陳君	-10.7399
通解	-10.7401
治天下	-10.7402
附之	-10.7403
可得而	-10.7403
梁武帝	-10.7404
終身	-10.7407
博陵	-10.7412
何所	-10.7415
内有	-10.7418
追贈	-10.7422
威宗	-10.7424
皆為	-10.7426
十二卷又	-10.7427
者莫	-10.7432
視之	-10.744
未聞	-10.7441
賢者	-10.7442
余氏	-10.7444
音釋	-10.7447
百二十	-10.745
以此知	-10.7453
稿一卷	-10.7453
黍	-10.7459
始以	-10.7461
三年正月	-10.7461
馮氏	-10.7462
姊	-10.7464
灰	-10.7465
彝	-10.7467
諸本	-10.7467
紊	-10.7467
憶	-10.7468
點	-10.7468
疵	-10.7469
錯綜	-10.7471
幅	-10.7472
韓退之	-10.7472
繕	-10.7472
電	-10.7473
攜	-10.7473
侈	-10.7473
杲	-10.7474
孟軻	-10.7474
髓	-10.7475
百餘字	-10.7476
一甲第	-10.7477
戊申	-10.7478
卭	-10.7478
道徳經	-10.748
磨崖	-10.748
璜	-10.7481
隣	-10.7485
朂	-10.7486
琮	-10.7488
禕	-10.7488
嶧山	-10.749
豐城人	-10.7494
録四卷	-10.7501
延之	-10.7504
錯簡	-10.7505
之治	-10.7512
十四篇	-10.7514
八卷又	-10.7515
孔子廟碑	-10.7517
祠堂	-10.7518
登科	-10.7521
獨存	-10.7521
西嶽	-10.7523
分𨽻	-10.7526
也吾	-10.7527
魏志	-10.7529
在焉	-10.753
用筆	-10.7531
孰能	-10.7532
孔氏之	-10.7533
十有七	-10.7536
建陽	-10.7542
攷之	-10.7546
熹平四年	-10.7549
玉堂	-10.7552
韻語	-10.7553
特進	-10.7554
成此書	-10.7555
南豐	-10.7562
孔孟	-10.7562
五十七	-10.7573
風流	-10.7573
劉子	-10.7584
辨其	-10.7587
十有三	-10.7588
墨本	-10.7591
知所	-10.7591
歌詩	-10.7594
所錄	-10.7595
燾	-10.7604
撮	-10.7607
咸平	-10.7608
比干	-10.761
六十九	-10.761
由此	-10.7611
構	-10.7613
第八	-10.7613
沃	-10.7614
税	-10.7616
登進士第	-10.7617
逼	-10.7618
惜乎	-10.7619
仁傑	-10.7619
囘	-10.7619
丁酉	-10.762
恊	-10.762
説經	-10.762
灾	-10.762
文詞	-10.7621
廊	-10.7622
亦猶	-10.7622
離騷	-10.7622
靣	-10.7622
昭明	-10.7622
刓	-10.7623
郭璞	-10.7623
諸臣	-10.7625
繡	-10.7625
蒸	-10.7625
成編	-10.7625
瑣	-10.7626
肅公	-10.7626
渤海	-10.7627
丁巳	-10.7628
冨	-10.7628
和二年	-10.763
軍節度	-10.7631
博古	-10.7633
德政碑	-10.7634
易簡	-10.7634
以謂	-10.7636
峴	-10.7636
彖辭	-10.7637
偽蜀	-10.7637
正叔	-10.7638
收藏	-10.7639
而弗	-10.7639
焉則	-10.7646
開國	-10.7647
一字石經	-10.7647
出錢	-10.7648
使學者	-10.765
惜哉	-10.765
記三卷	-10.765
臨海	-10.7653
蘭陵	-10.7657
之職	-10.7658
呉越	-10.7658
數百年	-10.7659
太后	-10.766
功臣	-10.7661
武陵	-10.7671
公羊傳	-10.7671
始知	-10.7679
不亦	-10.768
鄒氏	-10.7685
教人	-10.7686
吳越	-10.7692
自此	-10.7697
東京	-10.7698
曲江	-10.7698
名山	-10.7699
年八十	-10.7702
縣東	-10.7708
海鹽人	-10.7714
郡國	-10.7715
三百篇	-10.7718
元初	-10.7726
時事	-10.7728
當日	-10.773
以致	-10.7736
有年	-10.7736
旭	-10.7738
所作也	-10.7741
大守	-10.7745
和元年	-10.7746
明府	-10.7748
千百	-10.7748
楊時	-10.7749
志二卷	-10.7749
年七十	-10.775
愛之	-10.775
奭	-10.7751
句解	-10.7752
漢末	-10.7752
曰先生	-10.7753
緜	-10.7756
南安	-10.7757
大戴	-10.7757
東宫	-10.7759
叩	-10.7759
他人	-10.7759
墮	-10.776
諸侯之	-10.776
迪	-10.776
而此碑	-10.7761
饑	-10.7762
宸	-10.7762
陀	-10.7762
暗	-10.7763
主於	-10.7765
其體	-10.7765
左丘明	-10.7766
閎	-10.7766
開府儀同三司	-10.7766
憑	-10.7767
侗	-10.7767
瑟	-10.7767
大德	-10.7767
㑹善寺	-10.7767
穹	-10.7768
獲麟	-10.7768
庚寅	-10.7769
蘄	-10.7769
榻	-10.7769
船	-10.777
亐	-10.7771
芸	-10.7772
顧從義作	-10.7776
舊聞	-10.7776
窟	-10.7778
元結	-10.778
正始	-10.7781
集錄	-10.7782
墨子	-10.7783
災異	-10.7788
其墓	-10.7789
後儒	-10.7789
文淵	-10.779
小楷	-10.7791
衛將軍	-10.7791
廣川	-10.7792
襄公	-10.7794
古人之	-10.7796
六壬	-10.7798
不啻	-10.7802
長卿	-10.7804
所出	-10.7809
者固	-10.7812
元氏	-10.7818
集七卷	-10.7832
之子也	-10.7832
并隂	-10.7834
庶人	-10.7838
勒石	-10.7838
摹本	-10.784
所進	-10.7845
合之	-10.7848
為本	-10.7851
廣韻	-10.7854
象山	-10.7855
仁夀	-10.7857
辨正	-10.786
地里	-10.7862
詳矣	-10.7863
陽冰	-10.7864
受易	-10.7866
鄞	-10.7878
張仲	-10.7881
録十卷	-10.7881
卷一	-10.7882
武平	-10.7884
此語	-10.7889
第六	-10.789
宗室	-10.7897
節要	-10.7899
十有五	-10.7902
互有	-10.7904
扁	-10.7906
逍遥	-10.7908
繕寫	-10.791
以己意	-10.7912
河間獻王	-10.7912
售	-10.7912
鞠	-10.7913
戍	-10.7913
駱	-10.7913
貯	-10.7914
貝	-10.7914
鋭	-10.7915
副都御史	-10.7916
戊寅	-10.7916
王世貞	-10.7916
沔	-10.792
斜	-10.792
文字磨滅	-10.7921
男女	-10.7922
祺	-10.7922
洪邁	-10.7923
郡公	-10.7924
益州太守	-10.7927
廨	-10.7927
詡	-10.7928
三字石經	-10.7929
於後世	-10.7929
字敬	-10.793
城南	-10.7931
隴西	-10.7931
之微	-10.7937
六十五	-10.7944
五代史	-10.7946
饒州	-10.7948
説詩	-10.7951
内侍	-10.7951
常熟人	-10.7959
奉使	-10.796
曽祖	-10.7966
登第	-10.797
亦何	-10.7974
晉宋	-10.7976
曹氏	-10.7976
鮮于	-10.7977
後來	-10.7981
又次	-10.7981
感應	-10.7982
武陽	-10.7985
九疇	-10.7989
仲弓	-10.7991
執政	-10.7999
刑部	-10.8004
一百五十	-10.8005
十有六	-10.8006
卷三	-10.8012
百三十	-10.8016
紀功	-10.8017
疑問	-10.8021
東郡	-10.8023
揚子	-10.8024
延平	-10.803
象占	-10.804
筵	-10.8041
分門	-10.8045
默	-10.8046
儀注	-10.8049
至徳	-10.805
州縣	-10.8056
劣	-10.8058
金華人	-10.8058
鼠	-10.8058
宜興	-10.8059
貞觀中	-10.8059
規矩	-10.8061
故能	-10.8061
刋之	-10.8062
鏤	-10.8062
彖象文言	-10.8062
殫	-10.8063
彩	-10.8064
冬至	-10.8065
社稷	-10.8065
米芾	-10.8065
莒	-10.8067
替	-10.8069
填	-10.8069
亡名氏	-10.8069
弦	-10.8071
絃	-10.8071
劾	-10.8071
假借	-10.8072
驟	-10.8072
性命之	-10.8073
璿	-10.8073
祕書省	-10.8074
五巻	-10.8074
衙	-10.8076
滌	-10.8076
秘書監	-10.8077
唐末	-10.8077
僑	-10.8078
緑	-10.808
奢	-10.808
可見矣	-10.8083
户部尚書	-10.8084
喪祭	-10.8085
堂稿	-10.8091
叔敖	-10.8091
聖門	-10.8093
序言	-10.8096
其半	-10.8101
臆説	-10.8103
雜説	-10.8105
好惡	-10.8107
千秋	-10.8108
獨孤	-10.8109
費直	-10.811
書賈	-10.8112
佚江西通志	-10.8114
齊魯	-10.8115
十數	-10.8116
宣宗	-10.8121
之位	-10.8123
真宗	-10.8124
僅有	-10.8131
藏於	-10.8132
中原	-10.8136
加以	-10.814
可辨	-10.814
龍興	-10.8142
魯人	-10.8144
開寳	-10.815
中孚	-10.8152
潘氏	-10.8157
天啓	-10.8158
温州	-10.8163
州長史	-10.8164
歐陽氏	-10.8164
肖	-10.8167
嵗次	-10.8167
不止	-10.8167
記二卷	-10.8172
相見	-10.8179
新建	-10.8183
修春秋	-10.8184
北方	-10.8185
劉次莊	-10.8186
集十五卷	-10.8188
歲在	-10.8188
舊有	-10.8192
地官	-10.8194
為一書	-10.8197
莫可	-10.8208
狐	-10.8209
無非	-10.8209
憚	-10.8212
城縣志	-10.8213
蘊	-10.8214
蔓	-10.8214
需	-10.8216
師友	-10.8216
紋	-10.8216
縮	-10.8217
琅琊	-10.8218
汗	-10.8219
浄	-10.8219
椿	-10.8219
諮	-10.8219
染	-10.822
牴牾	-10.822
家禮	-10.8222
攘	-10.8223
其偽	-10.8223
鶚	-10.8224
濵	-10.8224
婚	-10.8224
牓	-10.8225
架	-10.8225
馮翊	-10.8226
犬	-10.8227
卦氣	-10.823
㐮	-10.8231
蠶	-10.8231
玠	-10.8231
刻錄	-10.8232
楊公	-10.8237
大理寺	-10.8241
撰十	-10.8241
倡和	-10.8245
較之	-10.825
而反	-10.825
衛尉	-10.8252
孝㢘	-10.8253
今改正	-10.8257
立言	-10.8258
去官	-10.8264
誤矣	-10.8264
九章	-10.8265
專門	-10.8266
刪去	-10.827
用意	-10.8274
曹掾	-10.8276
一節	-10.8277
平江	-10.8278
在位	-10.8279
盛行	-10.8289
而不及	-10.829
寺記	-10.8292
巴郡	-10.8296
春官	-10.8298
秀水	-10.8299
稿二卷	-10.8304
知其為	-10.8309
墓銘	-10.831
證之	-10.8312
一條	-10.8316
二十八年	-10.8321
三十餘	-10.8323
而盡	-10.8324
泰定	-10.8334
長編	-10.8338
太白	-10.834
承天	-10.8347
小子	-10.8347
而刻之	-10.8348
六家	-10.8348
所用	-10.8354
㑹元	-10.8358
襃貶	-10.8362
南城	-10.8362
可乎	-10.8363
不得已	-10.8363
挈	-10.8366
揣	-10.8367
稾	-10.8367
厄	-10.8367
揮	-10.837
佚後漢書	-10.8371
坎離	-10.8372
誠意	-10.8372
歛	-10.8372
可知矣	-10.8373
弇州山人稿	-10.8373
矣又曰	-10.8375
豁	-10.8376
怠	-10.8377
闇	-10.8378
琬	-10.8381
捷	-10.8383
李陽氷	-10.8384
嶽廟	-10.8385
一部二十冊	-10.8387
勵	-10.8387
二年三月	-10.839
𢎞農	-10.8393
張參	-10.8396
小象	-10.8397
甲科	-10.8398
友人	-10.8398
靈芝	-10.8402
之例	-10.8403
精妙	-10.8403
崔氏	-10.8408
騎都尉	-10.8409
雅言	-10.8413
州司馬	-10.8416
文忠公	-10.8417
青田	-10.8418
軍事	-10.8418
于朝	-10.8419
嶺南	-10.8419
人倫	-10.8423
五十一	-10.8423
五十四	-10.8436
非敢	-10.8438
臨海人	-10.8441
纂修	-10.8441
地名	-10.8442
華隂	-10.8458
一百二十	-10.8459
眉山	-10.8467
女子	-10.8473
六十六	-10.8476
贈太師	-10.8476
晁公武	-10.8478
刻于	-10.8479
宜其	-10.8482
退之	-10.8485
羅氏	-10.8486
遣使	-10.8509
唐崔	-10.8509
世俗	-10.8514
每行	-10.8514
古雅	-10.8516
大過	-10.8517
五六	-10.8521
浙東	-10.8524
順帝	-10.8526
滔	-10.8527
緣	-10.8529
禀	-10.8529
㨿	-10.8529
史稱	-10.853
遡	-10.853
姑蘇	-10.853
翳	-10.8531
嫡	-10.8532
湏	-10.8532
鑱	-10.8532
㪚	-10.8534
藪	-10.8534
佞	-10.8534
不特	-10.8535
頻	-10.8536
武侯	-10.8537
太學博士	-10.8539
騷	-10.8539
篇第	-10.8541
耒	-10.8543
覃思	-10.8543
重複	-10.8543
嘉禾	-10.8543
勉齋	-10.8544
碑今在	-10.855
渚	-10.855
禇遂良	-10.8551
猗	-10.8551
撰并八分書	-10.8552
十有一	-10.8552
志八卷	-10.8555
嘉善人	-10.8559
異聞	-10.856
不可見	-10.8561
朝夕	-10.8562
石門	-10.8563
塾	-10.8569
堯典	-10.8569
之弊	-10.857
七十三	-10.8574
句容	-10.8576
已久	-10.8577
歸田	-10.8582
毛鄭	-10.8589
最多	-10.8594
杜詩	-10.8595
六十二	-10.8596
孟春	-10.8598
不備	-10.8611
表上	-10.8611
八十卷	-10.8613
師古	-10.8615
諸帖	-10.862
今亡	-10.8622
朽	-10.8623
穆公	-10.8629
三尺	-10.863
唐開元	-10.8632
五典	-10.8633
未安	-10.8633
必先	-10.8644
是謂	-10.8644
仁和人	-10.8649
豈其	-10.8649
可疑者	-10.8655
未濟	-10.8657
出處	-10.8658
二百故	-10.8658
三代之	-10.8671
天監	-10.8673
七錄一卷佚	-10.8674
初學	-10.8682
軾	-10.8687
董真卿曰	-10.8688
毓	-10.8688
塋	-10.8689
晝夜	-10.8691
琛	-10.8694
飭	-10.8694
雝	-10.8694
濠	-10.8695
笥	-10.8695
癸巳	-10.8696
赦	-10.8696
央	-10.8697
啓䝉	-10.8697
虜	-10.8697
論議	-10.8697
効	-10.8698
五卷又	-10.8699
泰誓	-10.8699
侍御	-10.8699
鳯翔	-10.87
楷法	-10.87
壘	-10.87
籖	-10.8702
冺	-10.8703
靳	-10.8704
寤	-10.8704
術數	-10.8705
紹彭	-10.8706
千頃堂書目卷	-10.8708
事物	-10.8708
令狐	-10.871
除郎中	-10.8711
兩行	-10.8712
山居	-10.8713
自然之	-10.8715
前漢	-10.8716
須知	-10.8721
長短	-10.8723
米老	-10.8725
威儀	-10.8731
齋先生	-10.8732
編輯	-10.8734
三卷右皇朝	-10.8734
止存	-10.8735
佚姓譜	-10.8745
希聲	-10.8755
餘姚人	-10.8756
論著	-10.8758
薦授	-10.876
二傳	-10.876
五里	-10.877
議者	-10.8771
論語孟子	-10.8774
兩儀	-10.8779
舊刻	-10.878
如此則	-10.8786
貫通	-10.8786
王室	-10.8788
相國	-10.8789
魯齋	-10.879
清源	-10.8791
十有九	-10.8793
天尊	-10.8797
一段	-10.8803
謂是	-10.8817
厯官	-10.8822
八十四	-10.8845
銷夏記	-10.8846
鵲	-10.8847
孔傳	-10.8848
篋	-10.8849
絡	-10.8851
亥	-10.8851
隱公	-10.8851
礼	-10.8853
愔	-10.8853
尚書令	-10.8855
瑀	-10.8856
忱	-10.8856
沮	-10.8857
壁中	-10.8857
柄	-10.8858
黄門侍郎	-10.8858
辦	-10.8858
自漢以來	-10.8859
卷帙	-10.886
吉水人	-10.886
籙	-10.8862
訛謬	-10.8862
焦竑	-10.8862
文敏	-10.8863
礪	-10.8864
其額題	-10.8864
者是也	-10.8865
伊洛	-10.8865
甸	-10.8866
㤙	-10.8867
尭	-10.8867
糧	-10.8868
七十卷	-10.8868
其名字	-10.8872
邦國	-10.8872
樂毅論	-10.8873
奐	-10.8874
六十三	-10.8875
慈溪人	-10.8875
朱熹	-10.8878
御史臺	-10.8881
民間	-10.8883
無聞	-10.8884
縣北	-10.8884
甘泉	-10.889
懐素	-10.8891
太宰	-10.8891
右丞	-10.8892
雜事	-10.8893
年五十	-10.8901
懷仁	-10.8901
近古	-10.8913
上虞	-10.8918
幸而	-10.8919
一月	-10.8929
和尚碑	-10.893
難得	-10.893
迄於	-10.8932
前輩	-10.8935
奏疏	-10.8935
曽子	-10.8935
西平	-10.8935
齊梁	-10.8936
釋作	-10.8952
子瞻	-10.8959
趙汝	-10.896
小大	-10.8963
嘉靖中	-10.8963
二年四月	-10.8968
經㫖	-10.8976
空言	-10.8977
丨丨丨	-10.8977
新修	-10.898
謚曰	-10.8984
不逮	-10.8985
卷五	-10.8995
顧從義	-10.8996
孝武	-10.8996
乾鑿度	-10.8998
此刻	-10.8998
亦同	-10.9001
劭	-10.9004
鍼	-10.9008
兩字	-10.9011
斯道	-10.9014
人官至	-10.9015
不絶	-10.9016
資治通鑑	-10.9017
立廟	-10.9017
徂	-10.9018
惶	-10.9018
僣	-10.9019
鳥獸	-10.9019
穉	-10.902
顓	-10.902
孔頴逹	-10.9021
寖	-10.9021
燼	-10.9021
料	-10.9022
琢	-10.9023
斂	-10.9023
揔	-10.9024
校勘	-10.9025
胎	-10.9027
列女傳	-10.9029
布政司	-10.9029
潤色	-10.903
航	-10.903
艸	-10.9031
卷四	-10.9032
集五十卷	-10.9032
希夷	-10.9032
愽士	-10.9036
㾗	-10.9037
愷	-10.9038
廻	-10.9038
重加	-10.904
儒林	-10.9041
三年十月	-10.9041
太乙	-10.9044
而不敢	-10.9047
垂拱	-10.9048
闕補	-10.9049
▁月立	-10.9054
進士累官	-10.9057
鄉射	-10.9058
碑錄	-10.9068
也嗚呼	-10.9075
給事	-10.9075
永泰	-10.9077
大司農	-10.9077
大意	-10.9077
直解	-10.9078
郭君	-10.9082
吟稿	-10.9082
溧陽	-10.9084
碑隂記	-10.909
更名	-10.9093
焦氏	-10.9098
新舊	-10.9098
於其間	-10.9101
其弟	-10.9101
中語	-10.9111
人情	-10.9116
無錫	-10.9118
乃命	-10.9122
五年立	-10.9128
句讀	-10.9136
海陵	-10.9136
黄伯思	-10.914
襄州	-10.9142
其兄	-10.9145
道家	-10.9148
後之人	-10.9152
全集	-10.9155
二百卷	-10.916
校作	-10.9165
二十日	-10.9173
常熟	-10.918
伯宋贈	-10.9186
東方	-10.9187
米元章	-10.9189
纒	-10.9189
邾	-10.919
爻象	-10.919
元和姓纂	-10.9191
隘	-10.9191
斷碑	-10.9191
刃	-10.9192
勘	-10.9192
迭	-10.9194
拯	-10.9195
郡齋讀書志	-10.9195
液	-10.9195
蛟	-10.9195
穢	-10.9198
癸卯	-10.9199
第九	-10.9199
歐陽率更	-10.92
占筮	-10.92
覇	-10.92
岷	-10.92
楫	-10.9202
楊士竒	-10.9202
淺陋	-10.9202
綰	-10.9204
摹搨	-10.9205
舉孝廉	-10.9211
七十七	-10.9212
頴川	-10.9213
退而	-10.9213
俞氏	-10.9215
欵識	-10.9216
昌黎	-10.9217
京兆尹	-10.9218
右僕射	-10.9223
而讀之	-10.9227
敬仲	-10.9233
婺	-10.9234
撰正書無姓名	-10.9235
姓譜	-10.9242
豈無	-10.9243
二十七卷	-10.9243
杜甫	-10.9244
變通	-10.9247
古文孝經	-10.9248
蜀本	-10.9249
五十九	-10.9252
互相	-10.9255
未暇	-10.9257
五十八	-10.9259
白石	-10.9261
頒行	-10.9269
歸一	-10.9271
河北	-10.9276
司業	-10.9281
天啟	-10.9285
可笑	-10.9286
不倫	-10.9289
少室	-10.929
六籍	-10.929
是已	-10.929
汾陽	-10.9292
七巻	-10.93
建康	-10.931
北嶽	-10.9322
至治	-10.9324
文獻通考	-10.9349
然後知	-10.9352
􁅟	-10.9354
魯孔	-10.9354
掛	-10.9356
二十三卷	-10.9358
羊欣	-10.9361
灑	-10.9363
猥	-10.9363
宇宙	-10.9364
濱	-10.9366
安福人	-10.9366
濡	-10.9366
未詳何人	-10.9367
墟	-10.9367
魏氏	-10.9368
促	-10.9368
專以	-10.9368
工部侍郎	-10.9369
障	-10.937
昕	-10.937
棘	-10.9371
掲	-10.9372
邉	-10.9372
宋史藝文志	-10.9374
連山歸藏	-10.9374
驥	-10.9375
侍讀學士	-10.9375
冠昏	-10.9376
甘棠	-10.9376
棺	-10.9376
駐	-10.9376
腕	-10.9378
隋開皇	-10.938
璵	-10.938
指要	-10.9381
延壽	-10.9382
貢生	-10.9384
消長	-10.9386
净	-10.9386
晦翁	-10.9392
府同知	-10.9393
若干卷	-10.9395
碑云君諱	-10.9395
東林寺	-10.9395
顔子	-10.9397
輕重	-10.9398
所據	-10.9399
此編	-10.9402
不可辨	-10.9405
二十卷存	-10.9411
元年五月	-10.9412
大學衍義	-10.9414
太誓	-10.9414
許敬宗撰	-10.9416
老莊	-10.9419
續集	-10.942
畫像	-10.9424
三禮圖	-10.9427
木記	-10.9434
忠孝	-10.9435
北山	-10.9436
大槩	-10.9437
恐是	-10.9438
墓在	-10.9442
後主	-10.9442
七十一	-10.9455
只是	-10.9458
之類皆	-10.9478
烏程	-10.9481
章氏	-10.9496
超然	-10.9499
居正	-10.9501
聖學	-10.9504
遼東	-10.9513
學問	-10.9514
延年	-10.9514
明朝	-10.952
訓解	-10.9525
石林	-10.9528
七十八	-10.953
番	-10.953
易之道	-10.9531
飛白	-10.9532
黼	-10.9535
冊府元龜	-10.9536
陳振孫書録解題	-10.9536
人名氏	-10.9537
若水	-10.9537
慿	-10.9537
舌	-10.9538
繞	-10.9539
國子博士	-10.9539
歎曰	-10.9539
㸔	-10.9539
殿中侍御史	-10.9541
鋪	-10.9541
醮	-10.9541
轡	-10.9542
峭	-10.9542
鏜	-10.9542
駭	-10.9543
官閥	-10.9543
髣髴	-10.9546
己亥	-10.9546
車騎將軍	-10.9546
瀾	-10.9546
晃	-10.9547
安樂	-10.9549
應麟	-10.9549
􁭁	-10.955
增損	-10.9553
墨蹟	-10.9553
觀察使	-10.9554
卷數	-10.9554
訢	-10.9554
舉孝亷	-10.9555
轅	-10.9555
鑾	-10.9555
昱	-10.9555
裨	-10.9559
牽合	-10.9561
安能	-10.958
進士歴官	-10.9582
亦可以	-10.9582
卦畫	-10.9583
卦辭	-10.9585
助教	-10.9587
格言	-10.9588
蔡京	-10.9592
宗即位	-10.9597
氏族	-10.9605
功德	-10.9607
所輯	-10.9608
凡八	-10.9609
府丞	-10.961
楊慎	-10.9613
闕里	-10.9614
新志	-10.9626
條理	-10.9626
大要	-10.9632
不果	-10.9637
事業	-10.9637
遺經	-10.9639
中嶽	-10.9642
年六十	-10.9643
南史	-10.9655
一百四十	-10.9662
一㸃	-10.9667
集說	-10.9667
數十年	-10.9668
一貫	-10.9669
尚書左僕射	-10.9669
仁和	-10.9678
釋義	-10.9678
御題	-10.968
所宜	-10.9684
吏民	-10.9685
附焉	-10.9689
分類	-10.969
六十七	-10.9692
輔嗣	-10.9699
二十一篇	-10.971
浙江通志	-10.971
伋	-10.9714
考功	-10.9717
辛夘	-10.9717
牖	-10.9719
僉都御史	-10.9721
沆	-10.9722
龢	-10.9723
之謂也	-10.9724
吞	-10.9724
􁬬	-10.9725
􁭋	-10.9725
恃	-10.9725
醒	-10.9726
朝散大夫	-10.9726
眷	-10.9727
寗	-10.9727
癸亥	-10.9729
先生諱	-10.9729
纘	-10.9729
剪	-10.9729
黄長睿	-10.973
天地萬物	-10.973
劉炫	-10.9731
事跡	-10.9733
二年十月	-10.9735
麻姑	-10.9738
穰	-10.9739
殷仲容	-10.9739
六朝	-10.9744
薛稷	-10.9747
小兒	-10.9747
纂例	-10.975
二年正月	-10.9752
㸃畫	-10.9761
孔宙	-10.9763
家所藏	-10.9766
結體	-10.9772
蜀中	-10.9778
名儒	-10.9778
四部	-10.9785
遺跡	-10.979
欲求	-10.9791
青州	-10.9793
志三冊	-10.9797
素問	-10.981
百里	-10.9812
海寧	-10.9814
官爵	-10.9836
録五卷	-10.984
歙人	-10.9844
後人所	-10.9846
卒史	-10.9848
祖宗	-10.985
刋定	-10.985
蔵本	-10.9851
三年進士	-10.9865
蘭亭序	-10.9871
司馬公	-10.9874
召見	-10.988
周室	-10.9881
不堪	-10.9886
子路	-10.9888
适	-10.989
蔑	-10.9892
数	-10.9893
尤精	-10.9895
笙	-10.9895
愿	-10.9896
様	-10.9898
擕	-10.9898
軫	-10.9899
張萱曰	-10.9899
太平御覽	-10.9899
忝	-10.99
騫	-10.99
所未發	-10.9902
元年正月	-10.9902
逕	-10.9903
斧	-10.9904
造像記	-10.9904
咸陽	-10.9905
詐	-10.9905
書院山長	-10.9906
即是	-10.9906
寥	-10.9908
志十二卷	-10.9908
禍福	-10.9909
砥	-10.9909
怛	-10.9909
浮屠	-10.9909
附錄	-10.9909
征伐	-10.9909
釗	-10.9909
譲	-10.9911
梯	-10.9911
不可識	-10.9912
不惑	-10.9912
按察使	-10.9913
錡	-10.9914
瑋	-10.9914
𤨏	-10.9915
褚河南	-10.9915
吉甫	-10.9916
觴	-10.992
白虎通	-10.992
千字文	-10.9921
籌	-10.9922
鐡	-10.9924
館閣	-10.9925
髙氏	-10.9925
失名	-10.9925
戒壇	-10.9925
拜郎中	-10.9926
轉運	-10.9931
類要	-10.9931
劉次莊作	-10.9932
誦習	-10.9933
語錄一部一冊	-10.9933
嘗從	-10.9936
吳縣人	-10.9937
律厯	-10.9939
不可知	-10.9947
鐘銘	-10.9953
靈巖	-10.9953
卒于	-10.9954
二年十一月	-10.9956
承㫖	-10.9962
類聚	-10.9962
考定	-10.9962
皇上	-10.9966
精舍	-10.9973
千八百	-10.9976
田氏	-10.9978
理宗	-10.9984
之所由	-10.9993
靈臺	-10.9993
不離	-10.9997
五服	-10.9998
重刋	-11
故謂之	-11.0003
不可解	-11.0003
也是故	-11.0007
烏程人	-11.0017
偽書	-11.0022
續編	-11.0031
生民	-11.0032
京氏	-11.0034
説苑	-11.0037
姚氏	-11.0044
未嘗有	-11.0051
緯書	-11.0054
刋於	-11.0057
職官	-11.0057
歐陽詢書	-11.0059
竊謂	-11.0061
治道	-11.0061
宦者	-11.0063
窮經	-11.0065
二百三十	-11.0069
肩	-11.0072
表裏	-11.0075
元年十二月	-11.0076
講論	-11.0078
揲蓍	-11.008
摶	-11.008
價	-11.0082
褐	-11.0083
賈公彦	-11.0084
三百八十四爻	-11.0084
麤	-11.0084
篆法	-11.0085
邢昺	-11.0086
剥蝕	-11.0086
􁁜	-11.0086
偈	-11.0087
庶乎	-11.0087
尅	-11.0088
寐	-11.0088
戀	-11.0089
罹	-11.009
趾	-11.009
牆	-11.0091
和三年	-11.0091
裏	-11.0091
瞽	-11.0091
藳	-11.0093
皎	-11.0094
駟	-11.0095
不察	-11.0098
把	-11.0098
塟	-11.0098
轉運使	-11.0099
弋	-11.0099
隐	-11.01
晷	-11.0102
盧熊	-11.0103
盡心	-11.0103
諶	-11.0104
撮要	-11.0105
煬帝	-11.0109
何異	-11.0117
衣冠	-11.0117
後之學者	-11.0125
質疑	-11.0125
張旭	-11.013
自得之	-11.0132
過半	-11.0132
所纂	-11.0132
竟不	-11.0134
氣象	-11.0135
北平	-11.0137
性善	-11.0138
為一編	-11.0141
上蔡	-11.0144
太初	-11.0147
焦山	-11.0148
十八章	-11.0149
繇是	-11.0158
讀詩	-11.0171
漫稿	-11.0174
鶴山	-11.018
以求其	-11.0187
歲次	-11.0195
獻帝	-11.0202
左氏春秋	-11.0206
集本云	-11.0207
止此	-11.0214
萬世之	-11.0216
七十四	-11.0216
觀音	-11.0229
太子少保	-11.0233
居仁	-11.0234
廬陵人	-11.0241
前賢	-11.0245
正朔	-11.0245
世稱	-11.0247
㑹稽人	-11.0248
寳應	-11.0249
諡忠	-11.0258
鵞	-11.0261
年譜一卷	-11.0264
晳	-11.0265
歙縣人	-11.0266
儋	-11.0268
山海經	-11.027
戮	-11.027
蟲魚	-11.0273
譎	-11.0274
帷	-11.0275
佃	-11.0275
擁	-11.0276
二帝三王	-11.0276
虹	-11.0276
隋志十卷佚	-11.0276
黄巖人	-11.0277
零	-11.0277
檜	-11.0278
樞密	-11.0278
毗	-11.0278
蚤	-11.0279
壬申	-11.0279
騁	-11.0279
著作佐郎	-11.0279
𥙷	-11.0279
厨	-11.028
軼	-11.028
濁	-11.028
織	-11.0281
光暎	-11.0281
虢	-11.0282
讜	-11.0282
誚	-11.0282
涓	-11.0282
大中祥符	-11.0283
駙馬都尉	-11.0285
不減	-11.0285
豊	-11.0287
倅	-11.0288
晞	-11.0289
虗	-11.029
綦	-11.029
垢	-11.029
鷹	-11.029
而後有	-11.0292
索隱	-11.0295
指揮	-11.0296
贈太尉	-11.0297
荆州刺史	-11.0303
漢藝文志	-11.0304
隷釋	-11.0306
後五日	-11.0306
京口	-11.0307
暇日	-11.0313
參差	-11.0314
神武	-11.0316
數十百	-11.0317
中書門下	-11.0319
之義也	-11.0321
祖謙	-11.0327
博采	-11.0333
帝堯	-11.0334
移置	-11.034
虞氏	-11.0342
禪院	-11.0351
大都督	-11.0352
英宗	-11.036
論一部一冊	-11.0361
二年七月	-11.038
慶歴	-11.0381
所著書	-11.0385
縣主簿	-11.0385
代孫	-11.0393
餘杭	-11.0398
既久	-11.0399
新史	-11.0403
隋唐志	-11.0406
東門	-11.0409
園集	-11.0428
年四十	-11.0436
分别	-11.0439
二百八十	-11.0442
戴聖	-11.0442
禘	-11.0446
下缺	-11.0448
憒	-11.0451
司馬温公	-11.046
曝書亭集	-11.046
乳	-11.0461
一紙	-11.0462
其姓名	-11.0462
鎮江	-11.0462
腐	-11.0464
縫	-11.0465
牋	-11.0466
徽州	-11.0466
低	-11.0466
張雲章曰	-11.0467
㝡	-11.0467
國子助教	-11.0468
疲	-11.0468
銖	-11.0469
毘陵	-11.0469
奸	-11.0469
詵	-11.047
剡	-11.0471
翬	-11.0471
䕃	-11.0471
妣	-11.0472
三十八卷	-11.0472
淙	-11.0473
詔令	-11.0473
相近	-11.0473
緄	-11.0473
啇	-11.0474
夭	-11.0474
豕	-11.0475
棗	-11.0477
煜	-11.0477
鉞	-11.0478
錠紋	-11.0479
傅㑹	-11.0479
錠	-11.0479
師塔銘	-11.048
弇州	-11.048
邯鄲淳	-11.0481
霆	-11.0482
禪師塔銘	-11.0483
小説	-11.0483
鬯	-11.0485
郭忠恕	-11.0485
索隠	-11.0486
文翁	-11.0486
韓勑	-11.0489
郡庠	-11.049
領軍	-11.0494
而求之	-11.0498
西域	-11.0501
聰明	-11.0505
立政	-11.0506
乎哉	-11.0508
讀史	-11.0509
武定	-11.051
建安人	-11.0511
二十二年	-11.0515
厥後	-11.0521
追封	-11.0524
贈太子少保	-11.053
方整	-11.0531
盛衰	-11.0533
吕氏春秋	-11.0535
世昌	-11.0537
閒居	-11.0538
五卷存	-11.0541
可據	-11.0541
禹廟	-11.0542
條目	-11.0544
平陵	-11.0546
留守	-11.0546
公主碑	-11.0548
淳于	-11.0549
大猷	-11.0551
二十五篇	-11.0552
故特	-11.0554
撫州	-11.0556
乆矣	-11.0562
數十字	-11.0564
流行	-11.0576
朔方	-11.0581
二百六十	-11.06
莫知其	-11.0604
要㫖	-11.0606
陸徳明	-11.0611
兩卷	-11.0612
河陽	-11.0619
趙郡	-11.0626
堂帖	-11.0627
稿四卷	-11.0631
介甫	-11.0641
賈氏	-11.0645
名號	-11.0655
胤	-11.0655
未始	-11.0655
續帖	-11.0659
暹	-11.066
唐𤣥度	-11.066
絹	-11.066
聯	-11.0661
劉知幾	-11.0661
俚	-11.0665
舘閣	-11.0665
一部二	-11.0666
擴	-11.0666
愆	-11.0666
贈司空	-11.0667
太中大夫	-11.0667
襟	-11.0667
慘	-11.0667
夾漈	-11.0668
飢	-11.0668
絜	-11.0668
珙	-11.0668
刪詩	-11.0668
癖	-11.0669
正書無姓名	-11.0669
湍	-11.0669
寒暑	-11.067
燧	-11.067
秦檜	-11.067
滛	-11.0672
誇	-11.0672
伽	-11.0672
日講官起居注	-11.0672
詁訓	-11.0673
薊	-11.0673
弱冠	-11.0674
鄉飲酒	-11.0676
瑯琊	-11.0677
平湖人	-11.0677
澧	-11.0677
義烏人	-11.0679
欲使	-11.0679
臨淮	-11.0679
委曲	-11.0679
眇	-11.068
雲麾	-11.0685
飲食	-11.0687
司馬氏	-11.0696
汝州	-11.0697
典謨	-11.07
升降	-11.0702
祀典	-11.0711
李靖	-11.0713
桂林	-11.0715
金石文	-11.0722
啟䝉	-11.0725
四庫	-11.0725
序作於	-11.0725
參議	-11.0728
撰人姓名	-11.0729
隷書	-11.073
正書并篆額	-11.0734
三卷右唐	-11.0734
四十六卷	-11.0737
絳州	-11.074
従事	-11.0751
二十卷右皇朝	-11.0753
釋疑	-11.0754
真偽	-11.0755
凡一百	-11.0759
四卷未見	-11.0759
白虎	-11.0763
天禄	-11.0769
春秋集傳	-11.0773
襄王	-11.0777
小雅	-11.0792
八年立	-11.0794
三十巻	-11.0795
萬歴	-11.0796
上黨	-11.08
謝安	-11.0806
天保	-11.0807
既濟	-11.081
漳州	-11.0814
六十八	-11.082
監修	-11.0827
用功	-11.0828
不可廢	-11.0834
碑側	-11.0835
光化	-11.0839
二十五年	-11.0846
進表	-11.0846
竊取	-11.0849
昊	-11.085
春王正月	-11.0854
燬	-11.0857
百餘人	-11.0858
長公主	-11.0859
謡	-11.086
芒	-11.0861
涪	-11.0862
亾	-11.0862
金石錄卷苐	-11.0862
文獻通攷	-11.0863
万	-11.0864
歐陽永叔	-11.0864
都察院	-11.0864
中書舎人	-11.0865
企	-11.0866
銷	-11.0866
冒	-11.0866
瘞	-11.0867
楮	-11.0867
尺牘	-11.0868
酢	-11.0868
餗	-11.0869
驕	-11.0869
管窺	-11.0869
一部十五冊	-11.0869
虞翻	-11.0869
侮	-11.0869
云君諱	-11.087
李徳裕	-11.087
犂	-11.087
贑	-11.087
鄆	-11.0871
芾	-11.0872
愁	-11.0873
无咎	-11.0873
儆	-11.0873
狼	-11.0874
虬	-11.0874
優劣	-11.0874
掠	-11.0875
屬辭比事	-11.0875
索靖	-11.0876
豆盧	-11.0879
甌	-11.088
喈	-11.088
忩	-11.0882
厓	-11.0884
解詁	-11.0885
庭堅	-11.0886
千萬	-11.0887
帖末	-11.0889
二年八月	-11.089
逢吉	-11.0891
蘭亭叙	-11.0891
䝉求	-11.0891
李林甫	-11.0902
摹印	-11.0902
叅政	-11.0904
會昌	-11.0906
封禪	-11.0907
龍虎	-11.0913
二十九日	-11.0916
已殘缺	-11.0922
到官	-11.0944
劉寛碑	-11.0944
鼎銘	-11.0953
迄今	-11.0962
太學生	-11.0964
劉牧	-11.0971
之本也	-11.0972
體用	-11.0972
乾卦	-11.0976
二百九十	-11.0981
熊氏	-11.0985
類稿	-11.0989
當是時	-11.0994
梁武	-11.0996
忠烈	-11.0996
在西安府學	-11.1015
開府	-11.1032
唐藝文志	-11.1034
睢	-11.104
莫詳	-11.1041
絶句	-11.1043
從顧釋	-11.1044
訾	-11.1057
睹	-11.1058
武昌	-11.1058
魄	-11.1058
簒	-11.1059
股	-11.1061
壙	-11.1063
洙泗	-11.1064
夸	-11.1066
徊	-11.1066
悵	-11.1068
歐陽文忠公	-11.1068
羞	-11.1068
紐	-11.1069
樞密院	-11.1069
䆒	-11.1071
耿耿	-11.1071
勣	-11.1072
翫	-11.1072
集十四卷	-11.1074
戌	-11.1074
枋	-11.1074
西湖	-11.1074
鍊	-11.1074
提學副使	-11.1075
霽	-11.1075
俠	-11.1075
􁑷	-11.1075
後之君子	-11.1076
焕	-11.1077
聶	-11.1077
護	-11.1078
一部七冊	-11.1079
多識	-11.1086
要畧	-11.1086
州知州	-11.1087
援引	-11.1088
屯田	-11.109
濓溪	-11.1092
篇次	-11.1094
墨跡	-11.1096
孝廉	-11.1097
明夷	-11.1097
論一篇存	-11.1102
河南尹	-11.1103
丹徒	-11.1105
裴休	-11.1109
井田	-11.1109
兵火	-11.1111
有得於	-11.1113
與天地	-11.1115
嵩髙	-11.1118
周旋	-11.1118
玉篇	-11.1118
元年四月	-11.1118
唐𤣥宗	-11.1121
諸儒之説	-11.1125
潤州	-11.1127
項氏	-11.1137
丘氏	-11.1143
舜臣	-11.1161
春秋之義	-11.1167
未甞	-11.1171
鄭康成注	-11.1174
百五十	-11.118
七十子	-11.1184
辨證	-11.1187
江西通志	-11.1194
六函	-11.1198
二年九月	-11.12
尤多	-11.1204
博物	-11.1205
亳州	-11.1207
尚書省	-11.1207
經綸	-11.1212
别為一	-11.1214
存疑	-11.1216
胸	-11.1226
田何	-11.1226
永樂中	-11.1229
集十六卷	-11.1237
不赴	-11.1247
歴年	-11.1256
楞嚴	-11.1263
管子	-11.1266
太清	-11.1267
溟	-11.1271
荼	-11.1271
址	-11.1271
賣	-11.1271
囬	-11.1272
顧炎武	-11.1272
囚	-11.1275
彫	-11.1276
棣	-11.1277
吝	-11.1277
鹵	-11.1278
街	-11.1278
䧟	-11.1278
揺	-11.1279
妍	-11.1281
樓鑰	-11.1281
棫	-11.1281
頑	-11.1281
絢	-11.1281
亘	-11.1281
桓譚	-11.1282
捕	-11.1282
膳	-11.1283
灸	-11.1284
洛誥	-11.1284
燮	-11.1285
禹錫	-11.1285
别號	-11.1286
溝	-11.1286
端平	-11.1286
棊	-11.1287
揚子雲	-11.1287
濯	-11.129
袤	-11.1291
禋	-11.1292
應劭	-11.1292
媿	-11.1293
昊天	-11.1295
閩中	-11.1295
鉛	-11.1295
衛大將軍	-11.1297
先君子	-11.1298
李德裕	-11.13
劉顧作	-11.13
比干墓	-11.13
九十六	-11.1306
伯玉	-11.1312
盛徳	-11.1312
富貴	-11.1314
讀詩記	-11.1321
和七年	-11.1322
岐陽	-11.1323
中平二年	-11.1325
裔孫	-11.1326
姓纂	-11.1327
八十二	-11.1328
游夏	-11.1342
釐正	-11.1342
冀州	-11.1358
方圓	-11.1363
未足	-11.1372
九十五	-11.1381
佛像	-11.1385
三年五月	-11.1386
吾夫子	-11.1387
直指	-11.1401
他本	-11.1403
四十九篇	-11.1411
永叔	-11.1413
二十三年	-11.144
非一人	-11.1442
傅氏	-11.1443
八十三	-11.1444
江浙	-11.1457
參考	-11.1458
一百九十	-11.147
百四十	-11.1471
先天圖	-11.1474
驪	-11.1478
悒	-11.1482
他經	-11.1482
模刻	-11.1483
聿	-11.1486
頽	-11.1488
浴	-11.1488
膏	-11.149
公羊榖梁	-11.149
夷狄	-11.1492
惕	-11.1492
鏤板	-11.1493
儷	-11.1493
未知孰是	-11.1494
慙	-11.1494
洪适	-11.1494
菜	-11.1495
剥落	-11.1496
秊	-11.1497
葉夢得	-11.1497
零陵	-11.1498
憬	-11.1498
翥	-11.1498
冐	-11.1498
覯	-11.1498
賓客	-11.1499
筆削之	-11.15
餘姚	-11.15
尚書左丞	-11.1501
培	-11.1502
鰲	-11.1502
称	-11.1502
張九齡	-11.1502
馨	-11.1503
集賢院	-11.1503
詛	-11.1506
憂患	-11.1507
三十五卷	-11.1507
陸績	-11.1511
欄	-11.1514
此下一	-11.1517
鴻漸	-11.1517
七畧	-11.1521
二十九卷	-11.1522
七十九	-11.1524
晦庵先生	-11.1524
死罪	-11.1526
語孟	-11.153
佛寺	-11.1531
鄉試	-11.1533
欣然	-11.1538
二十九篇	-11.1541
講疏	-11.1545
玩辭	-11.1546
音韻	-11.1547
歐趙有	-11.1553
不肖	-11.1559
永夀	-11.1559
軒稿	-11.1561
武帝時	-11.1562
濟源	-11.1563
壬辰進士	-11.1572
光庭	-11.1577
壁間	-11.1578
訪求	-11.158
疏草	-11.1583
成帙	-11.1583
世教	-11.1601
郡邑	-11.1602
不誣	-11.1608
陸德明曰	-11.1609
二十八篇	-11.1612
龍泉	-11.1618
三年七月	-11.1618
誠齋	-11.1621
舊圖	-11.1621
雜著	-11.1635
十五里	-11.1639
禄山	-11.1645
渡江	-11.1646
婺州	-11.1649
陳振孫	-11.1659
律令	-11.1666
進士官至	-11.1674
蘇州府	-11.1676
四年五月	-11.1678
長樂人	-11.1678
鍾繇書	-11.168
陸氏釋文	-11.1683
歐趙	-11.1689
淮陽	-11.169
謹案右一帖行	-11.1695
牡	-11.1698
般	-11.1699
叡	-11.1701
認	-11.1702
虧	-11.1702
駒	-11.1702
盍	-11.1703
筴	-11.1704
暐	-11.1705
悠	-11.1705
校刋	-11.1706
錮	-11.1707
倬	-11.1707
周必大	-11.1708
焯	-11.1709
彷彿	-11.1709
丙寅	-11.171
馬日磾	-11.171
范文正公	-11.171
殉	-11.171
㛐	-11.171
十九篇	-11.1711
翰苑	-11.1711
開卷	-11.1712
漫漶	-11.1712
匿	-11.1712
侔	-11.1713
蠧	-11.1713
盤庚	-11.1713
散騎	-11.1713
犍	-11.1713
汸	-11.1714
兩朝	-11.1714
堂谿典	-11.1714
杰	-11.1715
燒	-11.1715
羌	-11.1715
犀	-11.1717
曙	-11.1718
難讀	-11.1719
闊	-11.1719
季札	-11.1719
放生池	-11.172
正書元和	-11.1722
梁昇卿	-11.1723
慈恩寺	-11.1724
陸淳	-11.1725
打	-11.1725
榆	-11.1725
中候	-11.1725
古器物銘	-11.1727
土地	-11.1728
齊宣王	-11.173
三年二月	-11.1732
遁甲	-11.1733
朱子本義	-11.1733
事蹟	-11.1737
劉敞	-11.1738
畫八卦	-11.1741
忠恕	-11.1741
禊帖	-11.1742
萬五千	-11.1743
者非也	-11.1743
武都	-11.1744
胸中	-11.1753
永淳	-11.1758
以明經	-11.1765
鴻都	-11.1768
大饗	-11.1772
夏禹	-11.1772
二十餘年	-11.1777
殊不知	-11.1777
左丞	-11.1778
案宋史藝文	-11.1782
華岳	-11.1785
石鼓文	-11.1785
墨守	-11.1804
説一篇存	-11.1805
人物志	-11.1807
詳解	-11.1811
内閣	-11.1812
四十年	-11.1813
虞卿	-11.1817
千百年	-11.1817
九十一	-11.1818
二十四年	-11.182
陸徳明曰	-11.1821
而已哉	-11.1826
五寸	-11.1839
汲郡	-11.1854
自序曰易	-11.186
陽翟	-11.1866
聖人所以	-11.187
所未及	-11.1887
兑	-11.1909
八十六	-11.1909
鉤摹	-11.1914
蠱	-11.1916
黄震曰	-11.1918
旂	-11.1922
虐	-11.1923
菁	-11.1924
帑	-11.1924
墖	-11.1925
卽	-11.1925
列於學官	-11.1926
羨	-11.1927
甎	-11.1927
涿	-11.1928
后蒼	-11.1929
惻	-11.1929
濳虛	-11.193
葆	-11.1931
簡文帝	-11.1931
聳	-11.1931
凛	-11.1931
小稿	-11.1931
王㴻	-11.1931
可惜也	-11.1931
茹	-11.1932
諦	-11.1933
蟠	-11.1933
枝葉	-11.1933
樊毅	-11.1934
汀	-11.1934
圯	-11.1934
福清人	-11.1935
遹	-11.1936
祕書監	-11.1936
杌	-11.1936
丁卯	-11.1937
按察司僉事	-11.1938
蘋	-11.1938
椘	-11.1938
恍	-11.1939
太子太傅	-11.1939
雩	-11.1939
孳	-11.194
㓂	-11.1941
挹	-11.1941
程邈	-11.1941
黄庭堅	-11.1942
雀	-11.1943
桓温	-11.1944
紆	-11.1944
偁	-11.1944
莞	-11.1946
奉勑	-11.1947
灝	-11.1948
乾隆四十	-11.195
甘陵	-11.195
蘭溪人	-11.1952
中興頌	-11.1953
草廬	-11.1954
▁年立	-11.1959
姓名殘缺	-11.1962
令狐楚	-11.1966
備遺	-11.1966
樷	-11.1967
戸部	-11.1968
漫録	-11.1969
宋志一卷	-11.1978
有志於	-11.1979
潮州	-11.1985
三年四月	-11.199
凡四十	-11.1996
穆帝	-11.1998
隆興	-11.2003
不失其	-11.2018
孝弟	-11.2021
决非	-11.2025
月十日	-11.2026
中常侍	-11.2028
論語孝經	-11.203
嘉祐中	-11.2032
泰伯	-11.2034
曾祖	-11.2039
光和六年	-11.205
元豐中	-11.2052
千四百	-11.206
鄉侯	-11.2066
無量	-11.2068
惟恐	-11.2068
要訣	-11.2069
無年月	-11.2073
演義	-11.2075
言易者	-11.2081
尊信	-11.2089
彌勒	-11.2089
光和二年	-11.2103
天寳十	-11.2115
昭德	-11.2116
三十四卷	-11.212
州知府	-11.2121
並列	-11.2127
日抄	-11.2132
貸	-11.214
糢糊	-11.2145
橅	-11.2145
仞	-11.2149
炙	-11.215
狥	-11.215
開元寺	-11.2151
孔叢子	-11.2151
堵	-11.2152
閨門	-11.2154
宓	-11.2155
卯	-11.2155
壓	-11.2156
泄	-11.2156
耄	-11.2156
撮其	-11.2156
滂	-11.2156
曆	-11.2156
淄川	-11.2157
淳化閣帖	-11.2157
殖	-11.2157
洺	-11.2158
蚩	-11.2159
夏小正	-11.216
慤	-11.216
翰林待詔	-11.2161
兩浙	-11.2162
王澍	-11.2162
稗	-11.2163
東方朔	-11.2164
乙卯	-11.2164
胙	-11.2164
彤	-11.2165
蔡君謨	-11.2165
盪	-11.2165
袖	-11.2165
造像碑	-11.2166
石刻鋪叙	-11.2166
依託	-11.2166
辯才	-11.2168
百七十	-11.2168
秘書省	-11.2169
錫熊	-11.2169
昺	-11.2169
將仕郎	-11.2169
詩集一卷	-11.217
槀	-11.2171
娥	-11.2172
右漢故	-11.2178
家蔵	-11.218
三十三卷	-11.2183
卒諡文	-11.2184
府知府	-11.2185
松雪	-11.2185
葉適	-11.2195
蘭臺	-11.2198
司郎中	-11.2201
韓文公	-11.2204
稽首	-11.2207
納甲	-11.2207
嘉泰	-11.2211
宋濓	-11.2212
總纂	-11.2215
水經云	-11.2219
孝亷	-11.2221
冠軍	-11.2226
訛舛	-11.2228
髙麗	-11.223
五十八篇	-11.2233
竹林	-11.224
小畜	-11.224
金石錄	-11.2247
百餘篇	-11.2247
嵗久	-11.2249
林甫	-11.2249
原本作	-11.2253
醫學	-11.2261
泰和	-11.2261
叙述	-11.2272
掇拾	-11.2282
百户	-11.23
塔記	-11.2302
可識者	-11.2305
家廟碑	-11.231
四面	-11.2317
僖公	-11.2322
加詳	-11.2331
不倦	-11.2332
謚文	-11.2375
纖	-11.2383
膏肓	-11.2383
貲	-11.2383
考宋史	-11.2384
蘇子瞻	-11.2384
隙	-11.2385
長孫無忌	-11.2385
孫士毅	-11.2386
鎰	-11.2386
陸費墀	-11.2387
墅	-11.2387
燦然	-11.2387
張彦逺	-11.2387
緇	-11.2387
懇	-11.2389
范祖禹	-11.2389
抽	-11.239
改庶吉士	-11.239
瀚	-11.2391
迫	-11.2391
牀	-11.2392
聼	-11.2392
制誥	-11.2393
參同契	-11.2393
圈	-11.2394
苴	-11.2394
授經圖義例	-11.2395
隂符經	-11.2395
無恙	-11.2396
太子太師	-11.2397
翹	-11.2397
磔	-11.2398
携	-11.2398
修禊	-11.2399
己巳	-11.2399
堰	-11.2401
紹熙	-11.2402
三原縣	-11.2404
筋	-11.2406
宋儋	-11.2407
雱	-11.2408
履祥	-11.2409
衛恒	-11.2411
為之傳	-11.2414
辟雍	-11.2415
賜號	-11.2417
詮次	-11.2419
白居易	-11.2419
肩吾	-11.242
黄庭經	-11.2424
鐘鼎	-11.2425
太甲	-11.2427
萬六千	-11.243
王介甫	-11.243
萬物之	-11.2443
秘府	-11.2445
按後漢書	-11.2446
王洙	-11.2447
永樂初	-11.2448
屋壁	-11.2449
泰和人	-11.2451
魏文帝	-11.2453
臨池	-11.2455
和靖	-11.2457
奉祠	-11.246
略例	-11.2461
上虞人	-11.2461
何所據	-11.2466
大師碑	-11.2467
孟喜	-11.2475
要覽	-11.2487
何晏	-11.2492
編修官	-11.2501
金丹	-11.2503
寺丞	-11.2504
山樵	-11.2504
一有此	-11.2514
預修	-11.2518
縣學生	-11.2521
寧海	-11.2526
永寧	-11.2528
釋例	-11.2533
杜門	-11.2542
三年三月	-11.2551
淮南子	-11.2554
南昌人	-11.2556
陽氷	-11.2569
幼學	-11.2575
五十餘	-11.2586
􁓑	-11.2603
吾鄉	-11.261
遞	-11.2613
飯	-11.2618
賚	-11.2619
變占	-11.262
印無考	-11.2621
栁宗元	-11.2621
蕐	-11.2623
隋經籍志	-11.2624
巗	-11.2624
考明史	-11.2624
鼂	-11.2626
緇衣	-11.2627
稜	-11.2627
貴賤	-11.2627
菉竹堂	-11.2628
弧	-11.2628
雉	-11.2629
臨淄	-11.263
畨	-11.2631
汲冢	-11.2631
島	-11.2631
汙	-11.2631
己夘	-11.2631
庭筠	-11.2631
煇	-11.2631
琪	-11.2632
㨗	-11.2633
斐	-11.2635
欽定四庫全書史部十四	-11.2635
牛僧孺	-11.2635
武進人	-11.2636
亦從顧釋	-11.2636
建中靖國	-11.2637
動靜	-11.2637
帳	-11.2637
畋	-11.2638
焞	-11.2638
馭	-11.2638
州諸軍事	-11.2638
在醴泉縣	-11.2639
凰	-11.2639
景迂	-11.264
三國志	-11.2641
志四冊	-11.2643
匣	-11.2648
禹謨	-11.2649
經義考	-11.2649
以已意	-11.2654
應天府	-11.2654
歳月	-11.2656
衛夫人	-11.2662
顔淵	-11.2663
李翕	-11.2676
修國史	-11.2676
訛缺	-11.2679
呂氏	-11.2686
臨摹	-11.269
歐陽公集古録	-11.2696
輿地	-11.2697
于志寧撰	-11.2706
奥義	-11.2727
濮陽	-11.273
伯恭	-11.2734
留題	-11.2744
口訣	-11.2753
沛國	-11.276
保定	-11.2762
御製序	-11.2796
子産	-11.2826
崑	-11.284
帖目當稱	-11.2854
俞汝言曰	-11.2859
牝	-11.286
刋刻	-11.286
元年十一月	-11.2861
字今附録	-11.2863
遑	-11.2863
不知為何人	-11.2865
羔	-11.2866
瀧	-11.2866
眩	-11.2867
脗合	-11.2868
黄魯直	-11.2868
金縢	-11.2869
藹	-11.2869
贏	-11.2869
緱	-11.287
窒	-11.287
紘	-11.287
㦸	-11.2871
鯉	-11.2871
飄	-11.2872
○	-11.2872
藍田	-11.2872
讎	-11.2873
真徳秀	-11.2873
盱	-11.2873
教化	-11.2874
伽藍	-11.2875
祓	-11.2875
墉	-11.2875
等謹案	-11.2876
希弁	-11.2876
董逌	-11.2876
趙文敏	-11.2876
庶㡬	-11.2876
疊	-11.2877
眺	-11.2877
瑄	-11.2877
團	-11.2879
圉	-11.288
遒逸	-11.2881
熾	-11.2881
相表裏	-11.2882
硬	-11.2882
鏊	-11.2883
奉敕	-11.2883
案唐書藝文	-11.2884
蘿	-11.2884
提綱	-11.2884
王知敬	-11.2885
徐嶠之	-11.2888
般若	-11.2888
彖爻	-11.2889
濛	-11.2891
李燾	-11.2895
虎丘	-11.2895
琯	-11.2895
郊祀	-11.2898
御覽	-11.2906
歸安人	-11.2913
不知誰	-11.2913
一部十二冊	-11.2917
衛宏	-11.2919
夏殷	-11.2919
格致	-11.2922
天禧	-11.2926
無疆	-11.2928
議曹掾	-11.293
大将軍	-11.2934
講習	-11.2935
多寡	-11.2936
文定公	-11.2941
散失	-11.2942
朝野	-11.2944
四年四月	-11.2945
聲音	-11.2968
月十八日	-11.2971
一百三十卷	-11.2972
宋版	-11.2973
李北海	-11.2978
南面	-11.2981
辨才	-11.2995
婺源	-11.3022
孔子之言	-11.303
觀覽	-11.3034
窮理	-11.3037
一百七十	-11.3059
考究	-11.306
藏於家	-11.307
一百二十卷	-11.3082
七卷存	-11.3087
京兆府	-11.3097
韓康伯	-11.3099
車騎	-11.3101
四門助教	-11.3111
范寗	-11.3113
煨燼	-11.3116
頓首頓首	-11.3117
遘	-11.3117
嬴	-11.3118
銀青光禄大夫	-11.3118
藍	-11.3118
絀	-11.3119
郯	-11.312
弛	-11.312
收蔵	-11.312
晰	-11.312
麋	-11.3121
仙都	-11.3121
嵇	-11.3121
装	-11.3121
晴	-11.3122
洒	-11.3123
仍其舊	-11.3124
縷	-11.3124
宸翰	-11.3125
隄	-11.3125
謐	-11.3125
奉化人	-11.3125
幻	-11.3125
璇	-11.3126
燿	-11.3126
夙夜	-11.3126
溉	-11.3127
斵	-11.3127
張從申	-11.3127
軒轅	-11.3128
八十一首	-11.3128
葛洪	-11.313
汁	-11.313
庻幾	-11.3131
陰符經	-11.3131
使持節	-11.3132
大理評事	-11.3132
丁夘	-11.3133
商瞿	-11.3133
腴	-11.3133
沈傳師	-11.3133
蕭子雲	-11.3133
淮安	-11.3135
刑獄	-11.3135
増損	-11.3135
干戈	-11.3139
遺愛頌	-11.3139
馮緄	-11.3139
哀帝	-11.314
釋迦	-11.3141
黄山谷	-11.3141
陶隱居	-11.3144
開禧	-11.3147
舉明經	-11.3148
智果	-11.3148
司𨽻校尉	-11.3149
集一百卷	-11.315
郊廟	-11.315
踰年	-11.3152
莆陽	-11.3153
嗟夫	-11.3154
石鼔	-11.3158
聖人之㫖	-11.3159
篇目同前此	-11.316
四函	-11.3162
第九卷	-11.3162
春秋公羊傳	-11.3164
州圖經	-11.3173
三十里	-11.3178
祠堂記	-11.3179
又續集	-11.3187
有益於	-11.319
削去	-11.3195
謬誤	-11.32
今在西安府	-11.3203
不著録	-11.3223
形容	-11.3226
己丑進士	-11.3239
岳廟	-11.3252
禅師	-11.3289
十一冊	-11.3296
未知何	-11.3305
京氏易	-11.3341
愬	-11.3367
弇	-11.3367
施宿作	-11.3369
抉	-11.337
孔穎達	-11.337
薪	-11.337
通鑑綱目	-11.3373
撓	-11.3373
別	-11.3374
皥	-11.3374
悶	-11.3376
畀	-11.3376
跋尾	-11.3377
泮	-11.3377
宵	-11.3377
亂臣賊子	-11.3377
鏘	-11.3377
十六巻	-11.3378
何喬新	-11.3378
王荆公	-11.3378
暁	-11.3379
參知政事	-11.3379
丸	-11.3379
臂	-11.3379
慝	-11.338
淳安人	-11.338
悅	-11.338
鼻	-11.338
躭	-11.338
柩	-11.338
了翁	-11.338
曹學佺	-11.3381
柳公權	-11.3381
俯仰	-11.3381
新昌人	-11.3381
租	-11.3382
陸佃	-11.3382
皮日休	-11.3383
浹	-11.3383
聚訟	-11.3383
蘇轍	-11.3384
滇	-11.3384
堤	-11.3385
躋	-11.3385
公羊穀梁	-11.3385
彧	-11.3385
庾翼	-11.3386
忿	-11.3386
夐	-11.3386
翦	-11.3386
潯	-11.3386
寰	-11.3387
搜訪	-11.3387
版式	-11.3388
隳	-11.3388
刑部主事	-11.3389
黻	-11.3389
王應麟	-11.3389
趙子函	-11.3389
鯨	-11.339
恣	-11.339
磐	-11.339
顓頊	-11.3393
篆籀	-11.3393
針	-11.3395
舫	-11.3396
文字殘缺	-11.3396
梓潼	-11.34
宋景文	-11.3402
中書省	-11.3406
五年四月	-11.3413
初學記	-11.3417
禮部郎中	-11.3418
爵里	-11.3419
五官掾	-11.3426
乙丑進士	-11.3427
詞科	-11.3429
長孺	-11.343
赤城	-11.343
持節	-11.3435
詩一首	-11.344
臆見	-11.3441
書并篆	-11.3445
周禮儀禮	-11.3445
迄于	-11.3449
莫曉	-11.3451
殆盡	-11.3456
纂輯	-11.3456
授徒	-11.346
四十里	-11.346
文集一部	-11.346
耶律	-11.3462
車馬	-11.3463
齊魯韓	-11.3464
徙居	-11.3469
成敗	-11.3473
荆南	-11.3476
錄一部二冊	-11.3476
佚漢書	-11.3505
縣志八卷	-11.3524
丙戌進士	-11.3534
二卷右皇朝	-11.3535
劉向校	-11.3543
齋文集	-11.356
庵稿	-11.3591
諄	-11.3629
當以碑為正	-11.363
嘻	-11.3633
种	-11.3634
苛	-11.3635
蒞	-11.3635
捧	-11.3635
汜	-11.3636
宋志三卷佚	-11.3636
慈谿	-11.3638
鞅	-11.3638
勿勿	-11.3638
臘	-11.3638
宋敏求	-11.3638
芟	-11.3639
壮	-11.3639
賞罰	-11.364
英乂	-11.364
破碎	-11.3641
籥	-11.3641
塜	-11.3642
廪	-11.3643
嶷	-11.3643
䟦尾	-11.3644
己卯	-11.3645
通志一卷佚	-11.3645
祜	-11.3646
模搨	-11.3647
杼	-11.3647
溯	-11.3647
光禄勲	-11.3647
儁	-11.3647
槎	-11.3648
㓕	-11.3649
石經遺字	-11.3649
顗	-11.3649
磻	-11.3649
楊維楨	-11.3649
㢤	-11.365
太常少卿	-11.365
住持	-11.365
樂清人	-11.365
裴度撰	-11.365
摯	-11.3651
禽獸	-11.3652
剏	-11.3654
汾隂	-11.3655
麈	-11.3655
尉遲	-11.3657
郭子章	-11.3659
盆	-11.3661
顔真卿撰并書	-11.3662
俎	-11.3664
一百五十卷	-11.3665
秦焚	-11.3665
有取焉	-11.3675
白鹿	-11.3675
朝聘	-11.3683
未竟	-11.3683
錯亂	-11.3686
千二百	-11.3694
當塗	-11.3696
睢陽	-11.3696
陸機	-11.3703
布政	-11.371
宣示	-11.3714
風俗通	-11.3715
天子之事	-11.3716
不足信	-11.3723
專主	-11.3725
帝即位	-11.3794
郃陽	-11.3807
元和四年	-11.384
八寸	-11.3871
庚戌進士	-11.3878
貍首	-11.3884
今移改	-11.3897
府并屬縣	-11.3899
私諡	-11.3901
慢	-11.3902
晁公武曰皇朝	-11.3902
矛盾	-11.3903
楳	-11.3904
麥	-11.3905
跨	-11.3906
釁	-11.3906
撿	-11.3906
恭校上	-11.3906
鳥獸草木	-11.3907
螭	-11.3908
稀	-11.3909
㓗	-11.3909
綵	-11.3909
巾箱	-11.391
肄	-11.3911
蒋	-11.3911
婆	-11.3911
贋	-11.3912
宥	-11.3912
戢	-11.3912
簽	-11.3912
榛	-11.3912
狗	-11.3912
撥亂	-11.3912
亶	-11.3913
癸夘	-11.3913
楊震碑	-11.3914
絪	-11.3914
司隷校尉	-11.3914
千載之下	-11.3914
藤	-11.3915
咒	-11.3915
毫髪	-11.3915
泠	-11.3915
辜	-11.3915
腰	-11.3915
燥	-11.3916
七録一卷佚	-11.3917
儔	-11.3917
巋然	-11.3918
六年正月	-11.3919
淚	-11.3919
誄	-11.3919
徼	-11.3919
鈍	-11.392
饋	-11.392
九江太守	-11.392
埴	-11.392
閤	-11.3921
毗陵	-11.3921
受學於	-11.3921
廩	-11.3922
灾異	-11.3923
嵊	-11.3925
金匱	-11.3926
祔	-11.3927
稅	-11.3927
潼	-11.3928
範圍	-11.3929
蔡中郎	-11.393
先塋	-11.3931
江淮	-11.3933
大雲寺	-11.3934
邵雍	-11.3935
勸農	-11.3936
康誥	-11.3939
總督	-11.3941
天子諸侯	-11.3942
維揚	-11.3943
武岡	-11.3946
慕容	-11.3947
館陶	-11.3949
㕘政	-11.3952
軍節度使	-11.3952
獻之白	-11.3953
新喻	-11.3955
豈敢	-11.3965
刻梓	-11.3967
墨池	-11.3969
唐書列傳	-11.3975
文選注	-11.3993
大中八年	-11.4012
太宗皇帝	-11.4041
十餘萬言	-11.4047
五卷右皇朝	-11.4066
夫人墓誌	-11.4077
太醫	-11.4113
草𨽻	-11.4121
門下侍郎	-11.4124
建寧元年	-11.4144
囉	-11.4168
春秋榖梁傳	-11.4175
閫	-11.4175
燎	-11.4177
高堂生	-11.4179
九經字様	-11.4179
秪	-11.418
文林郎	-11.418
𤓰	-11.4181
陛	-11.4181
按察副使	-11.4182
蒼潤軒帖䟦	-11.4182
一齋書目有	-11.4182
斛	-11.4182
馬端臨	-11.4184
瞭然	-11.4184
啖助	-11.4185
頲	-11.4186
李鼎祚	-11.4186
堙	-11.4186
顔之推	-11.4187
酸	-11.4187
王僧䖍	-11.4187
華隂縣	-11.4187
詩書禮樂	-11.4188
白居易撰	-11.4188
朱彛尊	-11.4189
謹案右一帖草書三行二十	-11.4189
鳬	-11.419
姻	-11.4191
竈	-11.4191
羲皇	-11.4191
繙	-11.4191
傲	-11.4192
起居郎	-11.4192
刼	-11.4193
州别駕	-11.4193
慟	-11.4193
豪傑	-11.4194
貫穿	-11.4194
澣	-11.4194
乍	-11.4195
朝奉郎	-11.4195
韙	-11.4195
右隷書不著書撰人名氏	-11.4196
朱睦㮮	-11.4196
大司樂	-11.4196
縝	-11.4196
長慶三年	-11.4197
乙夘	-11.4198
頋	-11.4198
痕	-11.4198
刑部侍郎	-11.4198
霅	-11.4199
桐栢	-11.4199
曦	-11.4199
淆	-11.4201
尊卑	-11.4201
關睢	-11.4201
批答	-11.4201
秦漢以來	-11.4202
暘	-11.4202
紱	-11.4203
巫咸	-11.4203
薫	-11.4203
太子賔客	-11.4203
十二冊	-11.4203
祝融	-11.4204
律師碑	-11.4208
馮煥	-11.4209
鏗	-11.4211
尚書右丞	-11.4211
㦸門	-11.4211
八分書并篆額	-11.4213
景雲二年	-11.4215
天竺	-11.4215
柟	-11.422
秦始皇	-11.4223
慈湖	-11.4226
百有餘	-11.4226
羲之頓首	-11.4231
備忘	-11.4232
出一手	-11.4249
存陸元輔曰	-11.426
徃來	-11.4266
定武蘭亭	-11.4297
琴譜	-11.4299
月二日	-11.4344
府通判	-11.4345
李陽冰篆	-11.4347
光禄寺	-11.4447
隊	-11.4455
迅	-11.4459
騶虞	-11.4461
闚	-11.4464
檇李	-11.4465
以廣其傳	-11.4465
讒	-11.4466
鮒	-11.4466
蓼	-11.4468
墀	-11.4468
袁桷	-11.4468
冏	-11.447
堯舜禹湯文武	-11.4471
夏四月	-11.4471
翃	-11.4471
卅	-11.4471
孜	-11.4471
煒	-11.4471
辛卯	-11.4472
荀爽	-11.4472
朞	-11.4473
𣲖	-11.4473
華陽真逸	-11.4473
逋	-11.4474
汚	-11.4474
亹	-11.4474
以類相從	-11.4475
筞	-11.4475
颺	-11.4475
籠	-11.4475
纍	-11.4476
朙	-11.4476
李衛公	-11.4476
仗	-11.4476
闈	-11.4476
毫釐	-11.4476
耻	-11.4477
僎	-11.4477
淇	-11.4477
鐙	-11.4477
炯	-11.4477
儒學提舉	-11.4477
莫大乎	-11.4477
款	-11.4478
樂平人	-11.4478
糓	-11.4478
端明殿學士	-11.4478
茟	-11.448
透	-11.4481
訴	-11.4481
宕渠	-11.4482
巒	-11.4482
宋志二十卷佚	-11.4482
稔	-11.4483
虞永興	-11.4483
􁂗	-11.4483
竹帛	-11.4483
肱	-11.4483
鷄	-11.4486
鹿鳴	-11.4486
門生故吏	-11.4486
柳宗元	-11.4487
萍	-11.4487
偏旁	-11.4488
娑	-11.449
𦂳	-11.449
李心傳	-11.4491
問荅	-11.4493
𨽻續卷	-11.4495
隲	-11.4496
韓嬰	-11.4501
墓側	-11.4502
飛動	-11.4505
條貫	-11.4509
鄉黨	-11.4509
軍碑記	-11.451
昌齡	-11.4513
李吉甫	-11.4541
十四冊	-11.4546
三百五十	-11.4562
秘訣	-11.4587
六年四月	-11.4614
贈司徒	-11.4624
彚編	-11.4653
胡文定	-11.4696
舛謬	-11.4699
佺	-11.4751
逡	-11.4755
孩	-11.4758
甯	-11.4758
囿	-11.4759
光祿大夫	-11.4761
憫	-11.4761
覬	-11.4762
漿	-11.4762
粉	-11.4764
不自揆	-11.4764
𧺫	-11.4764
郴	-11.4766
芮	-11.4766
另	-11.4767
沅	-11.4767
籩	-11.4768
執金吾	-11.4768
三百五篇	-11.4769
永樂大典	-11.4769
馬端臨文獻通考	-11.4769
敇	-11.4769
周益公	-11.4769
謹案右一帖草書二行十	-11.477
油	-11.477
餘印無考	-11.477
魔	-11.477
裦	-11.477
脯	-11.477
􁧸	-11.4771
卋	-11.4771
服䖍	-11.4772
内供奉	-11.4772
孽	-11.4772
鏞	-11.4772
趙希弁曰	-11.4772
從姜釋	-11.4773
其先出自	-11.4773
仝	-11.4774
乙乙	-11.4774
驍	-11.4774
轄	-11.4774
入元不仕	-11.4774
侣	-11.4775
銳	-11.4776
畝	-11.4776
謇	-11.4776
麒	-11.4777
弩	-11.4777
組	-11.4778
程敏政	-11.4778
太子詹事	-11.4779
周穆王	-11.4779
慥	-11.478
查	-11.478
石闕銘	-11.478
孫奭	-11.4781
補痕	-11.4782
依倣	-11.4782
員外	-11.4782
涂	-11.4782
元稹	-11.4783
履謙	-11.4784
秋八月	-11.4784
賔客	-11.4785
杲卿	-11.4785
杜光庭	-11.4786
簋	-11.4786
舛誤	-11.4786
唐志一卷佚	-11.4786
工部郎中	-11.4787
集二十二卷	-11.4788
因魯史	-11.4789
剰	-11.4789
門生東郡	-11.479
登封縣	-11.479
源委	-11.479
延熹八年	-11.4791
撰年八分書	-11.4791
覿	-11.4792
徐鍇	-11.4792
后稷	-11.4793
涪陵	-11.4797
卜商	-11.4799
豫州刺史	-11.4801
行書無姓名	-11.4802
草創	-11.4803
梅花	-11.4807
宏綱	-11.4813
孔子作春秋	-11.484
辛丑進士	-11.4855
開元十一年	-11.4858
開封府	-11.488
十四巻	-11.4887
月七日	-11.4921
修元史	-11.4934
府推官	-11.4938
佚陸徳明曰	-11.4954
淮海	-11.4956
溧	-11.4996
陸德明	-11.5009
夏五月	-11.5027
文集一部二冊	-11.5028
崇文緫目	-11.5052
叅同契	-11.5055
膝	-11.5056
法帖譜系云	-11.5059
潰	-11.5063
吉凶悔吝	-11.5063
壼	-11.5063
郄	-11.5064
庶吉士	-11.5065
太極圖說	-11.5066
暫	-11.5066
欠	-11.5066
起居注	-11.5066
冡宰	-11.5068
臚	-11.5069
東莱	-11.5069
諲	-11.507
殤	-11.507
渝	-11.5072
易之為書	-11.5072
榦	-11.5072
舂	-11.5072
蟄	-11.5072
飽	-11.5072
屨	-11.5072
𤣥奘	-11.5073
臭	-11.5073
悚	-11.5073
緻	-11.5073
裹	-11.5073
蠢	-11.5073
䔍	-11.5075
戰國䇿	-11.5075
隰	-11.5075
秘書郎	-11.5076
喙	-11.5076
拖	-11.5076
朝請大夫	-11.5076
迴	-11.5077
杏	-11.5077
琚	-11.5078
幷	-11.5078
原本脱	-11.5078
書無姓名	-11.5079
佗	-11.5079
文靖公	-11.5079
文貞公	-11.508
皇甫謐	-11.508
蔬	-11.508
司冦	-11.508
服膺	-11.508
蟾	-11.5081
喆	-11.5082
幡	-11.5082
攬	-11.5082
翰林院學士	-11.5082
澈	-11.5083
鼐	-11.5085
謝鐸	-11.5085
李宗閔撰	-11.5085
缶	-11.5086
魏鄭公	-11.5087
法帖釋文	-11.5087
宋志一卷未見	-11.5087
倭	-11.5088
侯官人	-11.509
優游	-11.5092
宋志一卷存	-11.5093
兼侍講	-11.5094
祁門人	-11.5094
桐城人	-11.5094
墓碣	-11.5094
工拙	-11.5095
荔	-11.5095
敎授	-11.5095
黄裳	-11.5095
無書撰人姓名	-11.5097
司隷	-11.5099
龜鑑	-11.5101
阮逸	-11.5101
金石之屬	-11.5102
總裁	-11.5103
左散騎常侍	-11.5104
佚陳氏	-11.5118
聖人作易	-11.513
月二十三日	-11.5148
李陽氷篆	-11.5151
贈太保	-11.5157
禅	-11.5192
宋志二卷佚	-11.5202
一卷不著名氏	-11.5244
曹參軍	-11.525
未見姓譜	-11.525
榖城	-11.5254
七百二十	-11.5307
啻	-11.5313
經典釋文	-11.5346
詧	-11.5356
槧	-11.5372
萬餘言	-11.5373
晁以道	-11.5375
鷟	-11.5375
髀	-11.5375
酸棗	-11.5375
鍵	-11.5376
愴	-11.5377
迪功郎	-11.5377
文淵閣	-11.5378
紬繹	-11.5379
酈道元	-11.538
轂	-11.5382
紛紜	-11.5382
天文地理	-11.5382
窽	-11.5382
窘	-11.5382
倖	-11.5382
畆	-11.5383
彖象繫辭	-11.5383
礙	-11.5383
矛	-11.5384
隧	-11.5384
秘書少監	-11.5385
伎	-11.5385
頫	-11.5385
嶁	-11.5386
氾	-11.5386
勰	-11.5386
元第一百	-11.5386
樣	-11.5386
紕	-11.5388
峩	-11.5388
國子監祭酒	-11.5389
折𠂻	-11.5389
喪服經傳	-11.539
蕙	-11.5391
萬八千	-11.5391
旄	-11.5391
窓	-11.5392
蠲	-11.5392
阯	-11.5392
貺	-11.5392
兎	-11.5393
闋	-11.5393
干禄	-11.5393
撃	-11.5394
杓	-11.5394
尝	-11.5394
筌蹄	-11.5394
憐	-11.5394
礎	-11.5396
洩	-11.5396
集賢院學士	-11.5397
霈	-11.5397
扶溝	-11.5397
鍳	-11.5398
刁	-11.5398
牡丹	-11.5399
奥㫖	-11.54
偏傍	-11.54
字徑一寸	-11.5401
巨川	-11.5402
上海人	-11.5403
洧	-11.5403
萬七千	-11.5404
尚書右僕射	-11.5405
杜佑	-11.5411
桃源	-11.5415
呉江人	-11.5418
涿郡	-11.542
自成一家	-11.5435
有補於	-11.5475
欒城	-11.553
佚陸德明曰	-11.5567
于志寧	-11.5628
旧	-11.5681
杜元凱	-11.5692
關雎	-11.5695
曹溶曰	-11.5695
罄	-11.5696
鋟梓	-11.5696
聽訟	-11.5697
汰	-11.5698
盾	-11.5699
㤀	-11.57
開物成務	-11.57
聱	-11.5701
湫	-11.5701
熄	-11.5701
旁搜	-11.5702
殽	-11.5702
鄉貢進士	-11.5702
韓宣子	-11.5703
楓	-11.5703
挽	-11.5704
撥	-11.5704
卄	-11.5704
楊用修	-11.5704
菩提	-11.5704
翰林院檢討朱彛尊撰	-11.5705
隻	-11.5707
俛	-11.5707
椅	-11.5707
閨	-11.5707
邳	-11.5707
韓魏公	-11.5707
君臣父子	-11.5707
絕	-11.5707
韞	-11.5708
陳傅良	-11.5709
􁭉	-11.5709
奔喪	-11.5709
縦	-11.5709
趙崡	-11.5709
陶𢎞景	-11.571
字皆缺筆作	-11.571
畦	-11.571
爚	-11.571
陌	-11.571
扣	-11.571
五官中郎將	-11.571
元第二百	-11.571
周公禮殿	-11.571
筋骨	-11.571
斟酌	-11.5711
探賾	-11.5711
寥寥	-11.5711
欝	-11.5711
拳拳	-11.5712
勦	-11.5712
卬	-11.5713
聃	-11.5713
太僕寺卿	-11.5713
同中書門下平章事	-11.5714
翌日	-11.5714
采摭	-11.5714
隋書經籍志	-11.5715
婢	-11.5715
杳	-11.5715
勺	-11.5716
啓蒙	-11.5716
鯤	-11.5716
麻姑壇記	-11.5717
關内侯	-11.5717
尋繹	-11.5717
纓	-11.5717
趺	-11.5718
莾	-11.5718
斌	-11.5719
縉紳	-11.5719
陕	-11.5719
潼川	-11.572
劒	-11.5721
摩滅	-11.5721
鄖	-11.5723
晦菴	-11.5724
爪	-11.5725
築室	-11.5725
嗇	-11.5726
伏羲之易	-11.5727
蘇頲撰	-11.5731
𤾉	-11.5738
正書無書	-11.5738
戡	-11.5744
長慶二年	-11.5805
冬十月	-11.5807
乾元二年	-11.5867
魯峻碑	-11.5885
月十六日	-11.5929
月十二日	-11.5963
莆	-11.6021
瓛	-11.6025
丨丨	-11.6028
髦	-11.603
盂	-11.6031
竺	-11.6033
日月星辰	-11.6033
錬	-11.6034
命儒臣	-11.6035
𣙜	-11.6035
羸	-11.6036
櫛	-11.6038
貿	-11.6038
黍離	-11.604
㝎	-11.604
嬪	-11.6041
緡	-11.6041
廸功郎	-11.6041
軀	-11.6042
椽	-11.6043
瑤	-11.6043
秘書省正字	-11.6043
庭誨	-11.6043
遴	-11.6043
倘	-11.6044
未詳其人	-11.6044
㩀	-11.6044
悊	-11.6045
翰林院編修	-11.6045
百石卒史	-11.6045
駸	-11.6046
祛	-11.6046
揖讓	-11.6046
􁡿	-11.6047
麾	-11.6047
弄	-11.6047
殄	-11.6047
埜	-11.6047
閟	-11.6048
庇	-11.6048
休寜人	-11.6048
皋	-11.6048
尺二寸	-11.6049
張懐瓘	-11.6049
冠冕	-11.6049
妨	-11.605
炤	-11.6052
上中下	-11.6053
沾	-11.6053
㙮	-11.6053
泮宫	-11.6053
爼	-11.6054
闥	-11.6054
四千九十六	-11.6055
翰林學士承㫖	-11.6056
隋文帝	-11.6057
汭	-11.6058
太子少師	-11.6058
斿	-11.6058
刑部郎中	-11.6058
梁鵠書	-11.6059
朱龜碑	-11.606
寢疾	-11.606
張説撰	-11.6063
家者流	-11.6064
一部三十冊	-11.6066
延熹七年	-11.6073
開元二十四年	-11.6188
欒	-11.6246
瘦勁	-11.6266
一手偽	-11.6308
十五巻	-11.6332
啖	-11.6342
匱	-11.6355
嬉	-11.6366
奈	-11.6372
窮理盡性	-11.6374
擯	-11.6374
朝散郎	-11.6375
稻	-11.6375
焦贛	-11.6376
朱震曰	-11.6377
韓昌黎	-11.6378
蠡測	-11.6379
梗槩	-11.6379
淆亂	-11.638
鏤版	-11.6381
涖	-11.6382
叱	-11.6382
朐	-11.6382
爐	-11.6384
䘏	-11.6384
賑	-11.6384
苹	-11.6385
跂	-11.6386
昬	-11.6386
楙	-11.6386
壅	-11.6387
扉	-11.6387
竑	-11.6388
芑	-11.6388
武三思	-11.6388
叨	-11.6389
埤雅	-11.6389
太子少傅	-11.6389
旴	-11.6389
廹	-11.6389
蘆	-11.6389
甬	-11.639
蹕	-11.639
易詩書春秋	-11.639
巫蠱	-11.639
眠	-11.639
爕	-11.639
衒	-11.6391
復古編	-11.6391
姜夔	-11.6391
屬國都尉	-11.6391
伉	-11.6391
王元羙	-11.6392
觚	-11.6392
甗	-11.6392
㝢	-11.6393
州司户	-11.6393
苔	-11.6395
挑	-11.6395
扇	-11.6397
峨	-11.6398
鄭餘慶	-11.6399
黄溍	-11.64
玘	-11.6403
行于世	-11.6403
澀	-11.6404
隷額	-11.6406
諺	-11.6406
賈島	-11.6408
瀘	-11.6408
李邕撰并書	-11.6412
聫	-11.6425
□□□□□□	-11.6429
一部一册	-11.6444
十三巻	-11.663
月十一日	-11.6638
開元二十五年	-11.6656
禰	-11.6713
扐	-11.6716
隋志五行家	-11.6723
歉	-11.6724
坤鑿度	-11.6725
鴟	-11.6726
俶	-11.6726
資治通鑑綱目	-11.673
踐阼	-11.673
賄	-11.6732
唐虞三代之	-11.6732
陳與義	-11.6733
苕	-11.6733
盲	-11.6733
洋洋	-11.6733
隋志二卷佚	-11.6733
讞	-11.6734
療	-11.6734
鄩	-11.6734
丐	-11.6735
䋲	-11.6735
崑崙	-11.6736
鋩	-11.6736
二十八宿	-11.6736
稠	-11.6737
娯	-11.6737
躅	-11.6737
鵝	-11.6737
摩㓕	-11.6737
元亨利貞	-11.6738
㦤	-11.6738
奈何奈何	-11.6738
茨	-11.6738
烜	-11.6738
浯溪	-11.6739
澁	-11.6739
竅	-11.6739
攄	-11.6739
中散大夫	-11.674
陸放翁	-11.674
喟	-11.674
塏	-11.674
飲酒	-11.674
忻	-11.6741
滴	-11.6741
煉	-11.6741
謫戍	-11.6742
靄	-11.6742
郾	-11.6743
武英殿	-11.6743
醴	-11.6743
璇璣	-11.6744
厠	-11.6745
湛若水	-11.6745
邴	-11.6745
唐志十卷佚	-11.6745
提督	-11.6745
宋均注	-11.6746
乾坤二卦	-11.6746
宣和書譜	-11.6746
蓬萊	-11.6746
禮部右侍郎	-11.6746
顛倒	-11.6746
司隷從事	-11.6747
崐	-11.6747
虵	-11.6747
㒒	-11.6747
愉	-11.6747
公食大夫	-11.6748
夘	-11.6748
袐	-11.6748
蠟	-11.6748
凋	-11.6749
目錄類二	-11.6749
呪	-11.6749
翩翩	-11.675
張行成	-11.6751
黄石公	-11.6751
混淆	-11.6751
大業初州廢	-11.6752
邜	-11.6752
閼	-11.6752
琅	-11.6752
防禦	-11.6753
彜	-11.6753
掌書記	-11.6753
巔	-11.6753
柘	-11.6754
𣸪	-11.6755
城隍廟	-11.6755
太清樓	-11.6756
北海相景君碑	-11.6758
薇	-11.6758
者甚衆	-11.6758
耘	-11.676
錦衣	-11.676
柬	-11.6762
蒼梧	-11.6763
紺	-11.6763
吕柟	-11.6765
岫	-11.6766
陁羅尼	-11.6768
撰人姓名殘缺	-11.6772
莫大於	-11.6775
序略曰	-11.6789
靚	-11.6794
丨丨丨丨	-11.6802
肥瘦	-11.6888
杜子春	-11.7015
菀	-11.7088
在盩厔縣	-11.7096
褘	-11.7097
從施宿釋	-11.7097
兔	-11.7098
從劉次莊釋	-11.7098
諍	-11.7098
异	-11.7099
簠	-11.71
訶	-11.7102
縂	-11.7103
惋	-11.7104
贖	-11.7104
開元二十六年	-11.7105
筆駛	-11.7107
鑽	-11.7107
謄	-11.7108
跳	-11.7108
訊	-11.7108
砂	-11.7108
范成大	-11.7108
撤	-11.7108
竣	-11.7109
甃	-11.7109
顚	-11.711
炭	-11.711
諌議大夫	-11.711
㳂	-11.711
朝議大夫	-11.711
鄺	-11.711
贗	-11.7111
程大昌	-11.7111
零落	-11.7111
沸	-11.7112
飫	-11.7112
擒	-11.7112
踊	-11.7112
菽	-11.7113
坑	-11.7113
桷	-11.7113
漠	-11.7113
從王澍釋	-11.7113
笈	-11.7114
萱	-11.7114
疋	-11.7115
吐蕃	-11.7116
愕	-11.7116
裴松之	-11.7117
械	-11.7117
筍	-11.7118
縣開國男	-11.7118
遮	-11.7118
拠	-11.7119
欹	-11.712
償	-11.712
渤	-11.712
鑠	-11.7121
玭	-11.7121
暎	-11.7122
箱	-11.7122
紓	-11.7123
􁗩	-11.7123
淄	-11.7123
扆	-11.7123
華陽國志	-11.7123
穆天子傳	-11.7124
犖	-11.7125
紇	-11.7125
君之碑篆額	-11.7125
炅	-11.7125
濟寧州	-11.7126
瓉	-11.7126
琬琰	-11.7127
一甲第一人	-11.7127
寳刻叢編	-11.7129
蓉	-11.7129
金壇人	-11.713
頔	-11.7132
窆	-11.7132
不分卷	-11.7165
碑𨽻額	-11.7298
許敬宗	-11.7433
曰臣聞	-11.7445
昜	-11.7475
郗愔	-11.7478
騶	-11.7481
李淳風	-11.7482
魏伯陽	-11.7483
褧	-11.7485
旃	-11.7485
莪	-11.7486
挂	-11.7486
集賢校理	-11.7486
夥	-11.7486
㲄	-11.7488
郊特牲	-11.7489
逞	-11.7489
殞	-11.7489
屺	-11.749
控	-11.749
吕大臨	-11.749
余家集録	-11.7492
峒	-11.7492
隤	-11.7492
埤	-11.7493
忉	-11.7493
阮孝緒	-11.7493
彀	-11.7493
狡	-11.7494
宣教郎	-11.7494
箭	-11.7494
峽	-11.7494
驤	-11.7495
凍	-11.7495
殯	-11.7495
劫	-11.7496
直齋書録解題卷	-11.7496
遺教經	-11.7496
珮	-11.7496
挍勘	-11.7497
伶	-11.7497
貟	-11.7497
蹲	-11.7497
格物致知	-11.7498
倐	-11.7498
憎	-11.7498
扎	-11.7498
藝文類聚	-11.7498
磨㓕	-11.7499
宰相世系表	-11.7499
黷	-11.7499
諝	-11.7499
伴	-11.7499
埃	-11.7499
瀑	-11.7499
􁓤	-11.75
妥	-11.75
公孫丑	-11.75
拊	-11.7501
熒	-11.7501
纉	-11.7502
𢎞文館	-11.7502
豎	-11.7503
在曲阜縣	-11.7503
治國平天下	-11.7503
魏文侯	-11.7504
線	-11.7504
献	-11.7505
㱕	-11.7505
堆	-11.7505
慷慨	-11.7505
洮	-11.7505
舊列巻	-11.7505
故功曹史	-11.7505
楊循吉	-11.7505
雌	-11.7506
弃	-11.7506
絅	-11.7507
㳅	-11.7507
岀	-11.7509
陶宗儀	-11.7509
蛾	-11.751
簫	-11.751
塼	-11.7511
沁	-11.7511
璩	-11.7511
鎔	-11.7511
鄢	-11.7511
蔡有鄰	-11.7512
澮	-11.7513
馥	-11.7514
踪	-11.7514
元第七百	-11.7514
叠	-11.7518
龍朔三年	-11.7519
臟	-11.7519
酇	-11.7527
桞公權	-11.7531
釡	-11.754
一千一百	-11.7689
逡遁	-11.7851
澍	-11.7872
觕	-11.7874
希弁所藏	-11.7883
苾	-11.7884
夏后氏	-11.7887
旒	-11.7888
閹	-11.7888
餙	-11.7889
蠅	-11.7889
岵	-11.7889
哥	-11.7889
天璽元年	-11.789
粥	-11.789
進書表	-11.7891
葦	-11.7892
斆	-11.7892
綘	-11.7892
汧	-11.7892
含文嘉	-11.7893
咄	-11.7893
叅知政事	-11.7893
賡	-11.7893
酣	-11.7893
澔	-11.7894
揚子法言	-11.7894
聾	-11.7895
凑	-11.7895
憕	-11.7896
姿態	-11.7897
儕	-11.7897
顧起元	-11.7897
施孟梁丘	-11.7897
脅	-11.7898
蟬	-11.7898
橫	-11.7898
畤	-11.7898
徠	-11.7898
㝷	-11.7899
虙	-11.7899
慚	-11.79
椎	-11.7901
尢	-11.7901
府并屬縣志一冊	-11.7901
漂	-11.7901
􁭇	-11.7902
按察司副使	-11.7902
詺	-11.7902
孜孜	-11.7903
逖	-11.7903
价	-11.7903
竪	-11.7903
法帖釋文考異	-11.7904
顔氏家訓	-11.7904
南齊書	-11.7905
濃	-11.7905
䜿	-11.7906
鉢	-11.7906
張紹文	-11.7907
梗	-11.7908
璁	-11.7908
諸葛武侯	-11.7909
茗	-11.7909
晁説之	-11.791
韓秀弼	-11.791
元第三百	-11.7911
牕	-11.7911
㐫	-11.7912
文簡公	-11.7914
㽜	-11.7914
八分書無姓名	-11.7916
抒	-11.7917
簾	-11.7917
珵	-11.7919
文淵閣書目	-11.7921
栖霞	-11.7925
月二十四日	-11.7927
月二十六日	-11.8006
月十九日	-11.801
月二十二日	-11.8116
断	-11.8297
簪	-11.8302
無餘藴	-11.8302
貞觀政要	-11.8303
眭	-11.8304
子子孫孫	-11.8304
天章閣待制	-11.8305
五子之歌	-11.8306
陸徳明音義	-11.8306
裴耀卿	-11.8306
熊朋來	-11.8307
房𤣥齡	-11.8307
昩	-11.8308
殃	-11.8308
沼	-11.8308
孫明復	-11.8308
孔子廟堂碑	-11.8308
鄙俚	-11.8308
𨗳	-11.8308
孝經論語爾雅	-11.8309
皷	-11.8309
涒灘	-11.8309
哽	-11.8309
股肱	-11.831
郡開國公	-11.831
娛	-11.831
蕡	-11.831
大經大法	-11.831
右不題撰人	-11.8311
舊列卷	-11.8311
莱	-11.8311
芭	-11.8312
模勒上石	-11.8312
文淵閣大學士	-11.8312
繚	-11.8312
餞	-11.8312
乙速孤	-11.8313
俘	-11.8314
䨇	-11.8314
締	-11.8314
菑	-11.8314
鄠	-11.8315
琳琅	-11.8315
今在西安府儒學	-11.8315
其與今文不同而兩通者	-11.8315
歇	-11.8315
弓矢	-11.8315
攽	-11.8316
臾	-11.8316
干禄字書	-11.8316
氓	-11.8317
筆陣圖	-11.8318
兵部右侍郎	-11.8318
出新意	-11.8318
儀禮逸經	-11.8318
暠	-11.8318
繭	-11.8319
存於今者	-11.8319
𬒳	-11.8319
狄梁公	-11.832
梁恵王	-11.832
縛	-11.832
蹊	-11.832
蕫	-11.832
白石神君碑	-11.832
烱	-11.8321
二世詔	-11.8321
魴	-11.8321
巘	-11.8322
尊勝陀羅尼	-11.8322
延陵季子	-11.8322
澷	-11.8322
范仲淹	-11.8322
尙	-11.8323
銕	-11.8323
齎	-11.8323
媵	-11.8323
駉	-11.8323
梨	-11.8323
一部九冊	-11.8324
元第九百	-11.8324
都𤣥敬	-11.8325
緬	-11.8325
進賢人	-11.8325
嵬	-11.8325
騏	-11.8325
儀禮經傳通解	-11.8325
張庭珪	-11.8326
槖	-11.8326
門生魏郡	-11.8326
擿	-11.8326
悠悠	-11.8326
晉江黄虞稷撰	-11.8327
氛	-11.8327
莫先於	-11.8328
白樂天	-11.8328
袒	-11.833
寞	-11.8331
匀	-11.8332
㽒	-11.8333
檻	-11.8333
芥	-11.8334
圮	-11.8335
珏	-11.8336
癡	-11.8337
副元帥	-11.8342
蕘	-11.8346
成一家言	-11.8678
月二十五日	-11.8686
㴻	-11.8709
肝	-11.873
稹	-11.8732
昴	-11.8733
右未詳撰人	-11.8733
拆	-11.8733
畸	-11.8734
泝	-11.8737
阡	-11.8739
􁃟	-11.874
兇	-11.8741
臥	-11.8741
蜚	-11.8742
呵	-11.8742
邵堯夫	-11.8742
粒	-11.8743
雎	-11.8743
咽	-11.8743
蘩	-11.8743
暌	-11.8743
八陣圖	-11.8744
因而重之	-11.8744
張舜民	-11.8744
程鉅夫	-11.8745
羿	-11.8746
瀟	-11.8747
擲	-11.8747
澥	-11.8747
薄紹之	-11.8748
笠	-11.8748
旡	-11.8748
噬嗑	-11.8748
渥	-11.8748
义	-11.8748
畊	-11.8749
搢	-11.8749
罵	-11.8749
魏正始中	-11.8749
未之有也	-11.8749
滙	-11.875
關子明	-11.875
衿	-11.875
嗚呼哀哉	-11.8751
賜紫金魚袋	-11.8751
玢	-11.8752
遙	-11.8752
剽	-11.8752
幄	-11.8752
悍	-11.8753
元第四百	-11.8753
豚	-11.8753
阼	-11.8753
李商隠	-11.8754
韓侂胄	-11.8754
饌	-11.8754
浣	-11.8755
艷	-11.8755
珊瑚	-11.8755
斁	-11.8755
州天寳元年曰	-11.8755
李善注	-11.8755
垓	-11.8755
衘	-11.8755
清德頌	-11.8756
㒺	-11.8756
鏐	-11.8756
劉向别録	-11.8757
驂	-11.8757
晤	-11.8757
株	-11.8757
湧	-11.8757
隗	-11.8758
鉦	-11.8758
棋	-11.8758
偓	-11.8759
寶刻叢編	-11.8759
笏	-11.876
張嘉貞	-11.876
歐陽公集古錄云	-11.876
吉日癸巳	-11.876
憙	-11.876
駰	-11.8761
鼇	-11.8761
甕	-11.8761
鞭	-11.8762
譴	-11.8762
芹	-11.8762
輟耕録	-11.8762
績溪人	-11.8763
珩	-11.8763
鶉	-11.8766
摠	-11.8767
李儼撰	-11.8767
莅	-11.8769
無書撰人名氏	-11.8773
嘏	-11.8774
灘	-11.878
聶崇義	-11.878
筑	-11.8782
春秋外傳國語	-11.9168
袪	-11.9181
袵	-11.9185
燦	-11.9191
述聖頌	-11.9193
宕	-11.9195
根柢	-11.9196
殽阬君神祠碑	-11.9197
諛	-11.9197
宣義郎	-11.9197
𠂻	-11.9198
葩	-11.9198
罍	-11.9198
亊	-11.92
渴	-11.92
萬厯癸未進士	-11.92
扄	-11.92
瘧	-11.92
隆慶辛未進士	-11.9201
謟	-11.9201
瑒	-11.9202
今以碑考之	-11.9202
崔子玉	-11.9203
廣川書䟦	-11.9203
擔	-11.9204
殱	-11.9204
餌	-11.9204
跌	-11.9204
棻	-11.9205
蹔	-11.9205
趙秉文	-11.9205
胷	-11.9205
酈	-11.9205
穜	-11.9206
嶸	-11.9206
袠	-11.9206
廕	-11.9206
東都事畧	-11.9207
汪克寛	-11.9207
化度寺	-11.9207
一部十六冊	-11.9208
憫忠寺	-11.9209
塊	-11.9209
怖	-11.9209
䂓	-11.9209
粮	-11.9209
豔	-11.921
聦	-11.921
涌	-11.9211
猿	-11.9211
薤	-11.9212
𤣥秘塔	-11.9212
謩	-11.9213
太僕寺少卿	-11.9213
蠭	-11.9213
番禺	-11.9213
鄘	-11.9214
穡	-11.9214
鉄	-11.9214
翰林院侍講學士	-11.9214
薈	-11.9215
撝	-11.9216
宋洪适撰	-11.9217
堡	-11.9218
醳	-11.9219
㽔	-11.922
朓	-11.922
瑊	-11.9222
塢	-11.9222
䧺	-11.9223
泓	-11.9224
鄜	-11.9225
籬	-11.9225
阿史那	-11.9225
麴	-11.9226
黄岩人	-11.9226
謔	-11.9228
㕔壁記	-11.9228
楠	-11.9229
鄔	-11.9231
釋文序録	-11.9306
隂苐一百	-11.9307
月三十日	-11.9365
宋志三十卷佚	-11.9658
鞞	-11.9663
公孫尼子	-11.9666
仔	-11.9667
表而出之	-11.9669
捍	-11.967
楽	-11.9671
盩	-11.9672
棖	-11.9672
天地定位	-11.9673
氊	-11.9673
舊列卷三第	-11.9673
薛尚功	-11.9673
驩	-11.9674
掊	-11.9674
漓	-11.9675
韋編三絶	-11.9675
糺	-11.9675
王稚子闕	-11.9675
起居舍人	-11.9676
一以貫之	-11.9676
侁	-11.9676
去古未逺	-11.9677
蟻	-11.9677
沽	-11.9678
陳繼儒	-11.9678
畼	-11.9678
􁶜	-11.9678
昭仁寺碑	-11.9678
伷	-11.9678
惰	-11.9679
菅	-11.9679
慱	-11.9679
暈	-11.9679
礫	-11.968
右春坊	-11.968
倕	-11.968
殽阬	-11.9681
清徳頌	-11.9681
妓	-11.9681
藜	-11.9681
焱	-11.9682
烹	-11.9682
硏	-11.9682
盧藏用	-11.9682
董其昌	-11.9683
馮承素	-11.9683
㦯	-11.9683
王次㸃	-11.9683
書録解題	-11.9684
古文篆𨽻三體	-11.9684
溝洫	-11.9685
緘	-11.9685
筦	-11.9685
惓惓	-11.9685
諾	-11.9685
嵌	-11.9685
菲	-11.9686
搃	-11.9686
漼	-11.9686
相王旦	-11.9686
耜	-11.9687
北軍中候	-11.9687
件	-11.9687
繁陽令楊君	-11.9687
吕惠卿	-11.9687
貼	-11.9688
姉	-11.9688
州圖志二冊	-11.9688
建寕元年	-11.9688
庋	-11.9688
濩	-11.9689
扃	-11.9689
璫	-11.969
朝奉大夫	-11.9691
據文獻通攷補入	-11.9691
陬	-11.9692
文苑英華	-11.9692
珦	-11.9692
帯	-11.9693
拈	-11.9693
賈似道	-11.9693
皴	-11.9694
宋陳思撰	-11.9694
乹	-11.9695
開化人	-11.9695
楗	-11.9698
劉軻撰	-11.9698
枳	-11.9698
正議大夫	-11.9701
鍾紹京	-11.9701
闍	-11.9702
蘧	-11.9703
趯	-11.9706
磁	-11.9706
元第八百	-11.9708
丨	-12.0022
祫	-12.0153
嘉靖丁未進士	-12.0158
王之世詩	-12.016
胃	-12.0161
彗	-12.0162
糟粕	-12.0163
拍	-12.0164
以意逆志	-12.0165
莖	-12.0165
承務郎	-12.0166
王元賞碑	-12.0166
淇澳	-12.0167
瘠	-12.0168
匆	-12.0168
謳	-12.0169
孔琳之	-12.0169
毖	-12.0169
兀	-12.017
緗	-12.017
思過半矣	-12.0171
曵	-12.0171
􁊬	-12.0173
廣大悉備	-12.0173
聮	-12.0173
蚪	-12.0173
蕳	-12.0174
軄	-12.0174
餐	-12.0174
惚	-12.0174
蒯	-12.0175
噉	-12.0175
躔	-12.0175
斃	-12.0176
尺四寸	-12.0176
紼	-12.0176
耑	-12.0177
矇	-12.0177
藎	-12.0177
淦	-12.0178
爱	-12.0178
册府元龜	-12.0178
尠	-12.0178
欽定天禄琳琅書目卷	-12.0179
説卦序卦雜卦	-12.0179
劓	-12.018
凟	-12.018
嘉言善行	-12.018
急就章	-12.0181
珽	-12.0181
㫥	-12.0182
両	-12.0182
樽	-12.0182
隷釋卷第十	-12.0183
博陵太守孔彪碑	-12.0183
堇	-12.0183
挍書郎	-12.0183
金紫光禄大夫	-12.0184
引而伸之	-12.0184
笳	-12.0184
謹案右一帖草書五行三十	-12.0185
孛	-12.0185
泰山都尉孔宙碑	-12.0185
萼	-12.0185
為己任	-12.0186
肘	-12.0186
螺	-12.0186
徐盛全曰	-12.0186
陸柬之	-12.0186
淳于長夏承碑	-12.0187
卻	-12.0187
丰	-12.0187
糜	-12.0187
迪知萬姓統譜	-12.0187
賂	-12.0189
顰	-12.0189
璲	-12.019
陳彭年	-12.019
在咸陽縣	-12.019
酈道元注水經	-12.019
上計掾	-12.0191
欽定四庫全書金薤琳琅卷	-12.0191
明都穆撰	-12.0191
驃騎大將軍	-12.0191
簷	-12.0192
砌	-12.0192
諴	-12.0193
淶	-12.0193
膽	-12.0195
耐	-12.0195
勳	-12.0195
倞	-12.0196
􁨾	-12.0196
山南東道	-12.0196
哈	-12.0196
刮	-12.0196
戔	-12.0197
啄	-12.0198
悝	-12.0199
㞢	-12.0199
九域志	-12.0201
匜	-12.0202
頎	-12.0202
謝靈運	-12.0204
巵	-12.0204
灣	-12.0206
􁢉	-12.0212
郃	-12.0387
名臣言行録	-12.0395
瑴	-12.0682
捃	-12.069
戴表元	-12.0691
諗	-12.0694
隆慶戊辰進士	-12.0694
見諸行事	-12.0694
詒	-12.0695
㮮	-12.0696
獬	-12.0697
治平元年閏五月	-12.0698
蓺	-12.0698
囙	-12.0699
礱	-12.0699
鋟諸梓	-12.0699
資政殿學士	-12.0699
酺	-12.0699
夏時冠周月	-12.0699
埽	-12.0699
懈	-12.0699
繳	-12.07
玷	-12.07
羑	-12.07
太尉陳球碑	-12.07
媒	-12.07
鳶	-12.07
儵	-12.0701
鎩	-12.0701
躡	-12.0701
皦	-12.0702
林希逸	-12.0702
眎	-12.0702
按察僉事	-12.0702
康王之誥	-12.0702
磚	-12.0703
法書要録	-12.0703
西嶽華山廟碑	-12.0703
滸	-12.0703
廞	-12.0704
墠	-12.0704
鎧	-12.0705
孕	-12.0705
尖	-12.0705
湼	-12.0705
無極山碑	-12.0706
侯莫陳	-12.0706
棨	-12.0706
偷	-12.0707
挫	-12.0707
楯	-12.0707
悽	-12.0707
蹙	-12.0708
賜緋魚袋	-12.0708
徭	-12.0708
柰何柰何	-12.0708
名物度數	-12.0708
窩	-12.0708
鷺	-12.0708
喧	-12.0708
砭	-12.0709
䠂	-12.0709
楊時喬曰	-12.0709
抃	-12.0709
臼	-12.0709
衛湜曰	-12.0709
窈	-12.071
悞	-12.071
𥙿	-12.071
辤	-12.071
通鑑紀事本末	-12.0711
銍	-12.0711
本二萬五大夫	-12.0712
昇仙太子	-12.0712
鯀	-12.0712
澶	-12.0713
水經有歐趙有	-12.0713
覊	-12.0713
埀	-12.0713
韋應物	-12.0713
篁	-12.0714
劖	-12.0714
楞伽	-12.0714
虔	-12.0714
蘇天爵	-12.0714
吉安府志	-12.0714
俞廷椿	-12.0714
楊凝式	-12.0714
荣	-12.0715
鍇	-12.0715
袍	-12.0715
夣	-12.0715
嗤	-12.0716
陸長源	-12.0716
型	-12.0716
李商隱	-12.0716
通直郎	-12.0717
仙壇記	-12.0717
黟	-12.0718
弭	-12.0718
頊	-12.0718
李先芳	-12.0718
墊	-12.0719
奨	-12.0719
籟	-12.0719
權徳輿撰	-12.0719
説文解字	-12.0719
曖	-12.072
睨	-12.0721
賽	-12.0721
璨	-12.0722
治書侍御史	-12.0722
頺	-12.0723
畱	-12.0723
嫄	-12.0725
煮	-12.0727
顔眞卿	-12.0729
官掾功曹	-12.1206
迦	-12.1236
屛	-12.1242
薩	-12.1242
徽猷閣待制	-12.1244
括地象	-12.1245
怏	-12.1245
掣	-12.1246
鄕	-12.1246
逯	-12.1246
曝	-12.1246
錢金甫曰	-12.1252
王禹偁	-12.1252
縟	-12.1252
曹士冕	-12.1253
葭	-12.1253
匏	-12.1253
抹	-12.1253
床	-12.1253
赧	-12.1255
桼	-12.1256
簿督郵五官掾功曹	-12.1256
腸	-12.1256
安撫使	-12.1257
安撫司	-12.1258
吏部左侍郎	-12.1258
鬭	-12.1258
錢謙益	-12.1258
縹	-12.1259
蜜	-12.1259
脂	-12.1259
袂	-12.1259
宋志六卷佚	-12.126
縈	-12.126
酋	-12.1261
集賢殿學士	-12.1261
易書詩禮	-12.1261
怳	-12.1261
周伯琦	-12.1262
易書詩春秋	-12.1262
蒿	-12.1263
尹更始	-12.1263
嵐	-12.1263
弈	-12.1263
迤	-12.1263
糅	-12.1263
金幼孜	-12.1263
嘔	-12.1264
如指諸掌	-12.1264
剞劂	-12.1264
鶡冠子	-12.1264
咫	-12.1264
蜂	-12.1264
字號第一厨書目	-12.1264
籤	-12.1265
繢	-12.1265
訝	-12.1266
塡	-12.1266
徇	-12.1266
沛相楊君碑	-12.1267
鶯	-12.1267
噩	-12.1267
綯	-12.1268
着	-12.1268
王穉登	-12.1268
朏	-12.1268
六日七分	-12.1268
煎	-12.1269
碭	-12.1269
周南召南	-12.1269
左春坊左	-12.1269
寝	-12.1269
出錢二千主吏仲	-12.127
揜	-12.127
霑	-12.127
滓	-12.127
篡	-12.127
韋處厚	-12.127
訕	-12.1271
竿	-12.1271
褎	-12.1271
右漢隷不著書撰人名氏	-12.1271
􁜭	-12.1271
鄣	-12.1272
名蹟録	-12.1272
拭	-12.1272
柰	-12.1272
厝	-12.1273
秬	-12.1273
兗	-12.1273
蕚	-12.1274
睽	-12.1274
忭	-12.1275
漯	-12.1277
蕉	-12.1277
羊士諤	-12.1278
炬	-12.1278
榘	-12.1278
卲	-12.1278
珫	-12.1278
脞	-12.1279
騤	-12.1279
鬰	-12.128
李德𥙿	-12.128
詘	-12.1282
渇	-12.1283
嶼	-12.1284
橘	-12.1285
舎利塔	-12.1286
遂初堂書目	-12.1289
蔡有隣	-12.1295
隱隱可	-12.1303
滎	-12.1786
溍	-12.1801
聞人通漢	-12.182
征南將軍	-12.1825
竢	-12.1826
豢	-12.183
忒	-12.183
曳	-12.183
嘉靖癸丑進士	-12.1831
遄	-12.1831
囦	-12.1832
承奉郎	-12.1833
潦	-12.1834
未見平湖縣志	-12.1835
一冊女直字	-12.1835
吳中金石新編	-12.1836
脾	-12.1836
舊列卷二第	-12.1836
賜進士出身	-12.1837
聟	-12.1838
釀	-12.1838
㫄	-12.1839
奧	-12.1839
褊	-12.1839
棼	-12.184
餽	-12.184
郎中鄭固碑	-12.184
李延昰曰	-12.184
賵	-12.1841
㒷	-12.1842
黽	-12.1843
禩	-12.1843
吸	-12.1844
尓	-12.1844
塚	-12.1844
凌迪知萬姓統譜載	-12.1844
厔	-12.1844
嫂	-12.1844
謹案右一帖草書五行四十	-12.1846
憇	-12.1846
聆	-12.1846
胛	-12.1846
頠	-12.1846
慼	-12.1847
李百藥撰	-12.1847
霓	-12.1847
法書要錄	-12.1847
䏻	-12.1847
阨	-12.1847
岱嶽觀	-12.1847
刾	-12.1847
諉	-12.1848
闌	-12.1848
􁐇	-12.1848
鎖	-12.1849
囑	-12.1849
從姜䕫釋	-12.185
璆	-12.185
馮椅曰	-12.185
斾	-12.185
邯	-12.185
劑	-12.185
攺	-12.1851
睡	-12.1851
懽	-12.1851
縑	-12.1852
曅	-12.1852
瘁	-12.1852
歐陽大小夏侯	-12.1853
禮樂刑政	-12.1853
单	-12.1853
甓	-12.1853
嵒	-12.1853
嚴彭祖	-12.1854
溶	-12.1854
糞	-12.1854
頓首頓首死罪死罪	-12.1854
懾	-12.1854
翅	-12.1854
琴川毛氏	-12.1854
鄊	-12.1855
尉繚子	-12.1855
揮麈録	-12.1855
騖	-12.1855
􁃰	-12.1855
郤	-12.1855
霤	-12.1855
從姜夔釋	-12.1855
餉	-12.1855
􁫱	-12.1855
釵	-12.1855
琁	-12.1856
寇	-12.1856
峪	-12.1856
羯	-12.1856
緼	-12.1856
元第六百	-12.1856
黌	-12.1857
狎	-12.1857
本三千分子	-12.1857
岑文本撰	-12.1857
朱謀㙔	-12.1858
兵備副使	-12.1858
魏受禪碑	-12.1858
牂	-12.1858
鄧元錫	-12.1858
繻	-12.1858
金石文考畧	-12.1858
駙	-12.1859
髫	-12.1859
仄	-12.1859
窻	-12.186
府圖志二冊	-12.186
柜	-12.1861
絛	-12.1861
䧏	-12.1861
努	-12.1862
峡	-12.1862
盥	-12.1862
演聖通論	-12.1862
閶	-12.1863
蘂	-12.1864
羈	-12.1864
字徑二寸	-12.1864
盎	-12.1864
濰	-12.1865
鄭衆賈逵	-12.1865
鈴	-12.1865
藺	-12.1865
漲	-12.1866
凈	-12.1866
􁉗	-12.1867
夷堅志	-12.1868
噲	-12.1868
芙	-12.1869
螢	-12.187
陲	-12.1871
薛應旂	-12.1871
臮	-12.1872
郭香察書	-12.1873
旺	-12.1875
漱	-12.1875
山南西道	-12.1878
馘	-12.1887
醪	-12.2445
夤	-12.2447
縚	-12.2449
琨	-12.2452
問王知道	-12.2452
腳	-12.2455
薰	-12.2457
蕭思話	-12.2461
嘉靖戊戌進士	-12.2461
畯	-12.2461
崛	-12.2462
不能贊一辭	-12.2462
藐	-12.2463
睂	-12.2463
劬	-12.2464
屹	-12.2464
泰興季氏	-12.2464
苢	-12.2464
賖	-12.2464
宝	-12.2464
燋	-12.2465
眙	-12.2466
佚寧波府志	-12.2466
天發神䜟	-12.2466
見太學題名碑	-12.2466
簣	-12.2466
涸	-12.2466
趙冬曦	-12.2468
窪	-12.2468
鑪	-12.2468
戞	-12.2469
熲	-12.2469
婿	-12.2469
猾	-12.2469
譁	-12.2469
嗚	-12.247
嘉興李光暎撰	-12.247
帚	-12.247
弥	-12.247
娘	-12.2471
工部右侍郎	-12.2471
鍚	-12.2471
佾	-12.2472
剗	-12.2472
錢陸燦曰	-12.2472
􁊓	-12.2473
惪	-12.2473
邅	-12.2473
援神契	-12.2473
稟	-12.2473
郟	-12.2474
恰	-12.2474
鬲	-12.2474
壎	-12.2475
貟外郎	-12.2475
邀	-12.2476
輓	-12.2476
鴈塔題名	-12.2476
曹娥碑	-12.2477
亢倉子	-12.2478
瘡	-12.2478
壌	-12.2478
抱朴子	-12.2478
鬬	-12.2479
骸	-12.2479
𣺌	-12.2479
櫺	-12.2479
貭	-12.248
綠	-12.248
張懷瓘	-12.248
惎	-12.248
桴	-12.2481
麄	-12.2482
九成宫醴泉銘	-12.2482
崕	-12.2482
灋	-12.2482
潄	-12.2482
㬌	-12.2483
蠙	-12.2484
但標名今移	-12.2484
段成式	-12.2484
霣	-12.2484
瑱	-12.2484
姒	-12.2484
金粟道人	-12.2485
􁨿	-12.2485
劵	-12.2485
喉	-12.2485
洊	-12.2486
犁	-12.2487
敔	-12.2488
刑部右侍郎	-12.2488
肜	-12.2489
藏俞松家	-12.2489
湊	-12.2489
妺	-12.2489
鄭漁仲	-12.249
戶	-12.249
畎	-12.2491
繒	-12.2491
天地自然之易	-12.2491
㙒	-12.2494
逌	-12.2495
逭	-12.2495
廋	-12.2497
錐	-12.2499
堦	-12.25
葯	-12.25
嶮	-12.2504
方寸鐵	-12.2516
薺	-12.3103
𬋩	-12.3117
瀏	-12.3118
仲虺之誥	-12.3119
腫	-12.312
貉	-12.3122
氐	-12.3122
童而習之	-12.3123
踦	-12.3123
擷	-12.3123
瀋	-12.3124
帝出乎震	-12.3125
譖	-12.3126
党懐英	-12.3126
垍	-12.3127
伺	-12.3128
搏	-12.3128
躐	-12.3128
蔀	-12.3128
狷	-12.3128
虺	-12.3128
箎	-12.3129
貍	-12.3129
蓂	-12.3129
𩔖	-12.3129
閌	-12.313
應奉翰林文字	-12.313
腎	-12.313
人嘉靖壬戌進士	-12.3131
逶	-12.3131
拳	-12.3131
瓜	-12.3131
凃	-12.3132
洹	-12.3132
港	-12.3132
櫝	-12.3134
成化甲辰進士	-12.3134
蒼潤軒帖跋	-12.3135
温彦博碑	-12.3136
鉗	-12.3136
殳	-12.3136
㳫	-12.3136
州剌史	-12.3137
髠	-12.3137
翌	-12.3137
縞	-12.3138
毛竒齡曰	-12.3138
禮部左侍郎	-12.3138
磋	-12.3138
謹案右一帖楷書	-12.3138
犢	-12.3139
博極羣書	-12.3139
鷃	-12.314
諏	-12.314
串	-12.314
令狐徳棻	-12.3141
秃	-12.3141
鍔	-12.3141
秫	-12.3141
肌	-12.3141
診	-12.3142
嶲	-12.3142
南華真經	-12.3143
嵓	-12.3144
撡	-12.3144
墩	-12.3144
紿	-12.3145
易外别傳	-12.3145
郇	-12.3145
蚓	-12.3145
主客郎中	-12.3145
惘	-12.3145
凜	-12.3146
􁒐	-12.3146
祧	-12.3146
艶	-12.3146
蘅	-12.3147
蟀	-12.3147
琥	-12.3147
杵	-12.3147
燹	-12.3148
熖	-12.3148
㽞	-12.3148
鐶	-12.3148
翮	-12.3148
㕘知政事	-12.3149
踣	-12.3149
縊	-12.3149
衲	-12.3149
刷	-12.3149
軆	-12.3149
耰	-12.315
諜	-12.315
儘	-12.315
鯁	-12.315
卣	-12.315
穏	-12.315
䑕	-12.3151
迸	-12.3151
枯樹賦	-12.3151
隋平陳郡廢	-12.3151
縯	-12.3152
彣	-12.3152
窅	-12.3152
冣	-12.3153
翀	-12.3153
瘳	-12.3153
佖	-12.3153
王𢎞撰曰	-12.3153
韓雲卿撰	-12.3155
傖	-12.3156
凄	-12.3157
龐	-12.3158
沚	-12.3159
匾	-12.316
滉	-12.316
碁	-12.316
馬鞍山	-12.316
蘖	-12.316
万紐于瑾	-12.3162
坣	-12.3162
徤	-12.3162
珤	-12.3164
澠	-12.3164
扞	-12.3164
斫	-12.3165
駝	-12.3165
不題所書人姓氏	-12.3166
鬚	-12.3166
擘	-12.3166
佇	-12.3167
􁐓	-12.3167
濆	-12.317
奩	-12.317
帖閒者軒帖考云	-12.3183
讌	-12.3187
能品六十六人	-12.3188
弡	-12.3195
萬厯甲辰進士	-12.321
朝名臣言行	-12.3606
雛	-12.3815
頖	-12.3825
渢	-12.3834
高佑釲曰	-12.3834
癰	-12.3834
㐲	-12.3835
鎡	-12.3836
偘	-12.3836
當别是一	-12.3836
方州部家	-12.3838
編古命氏	-12.3839
頰	-12.3839
榭	-12.3841
垕	-12.3842
蹄	-12.3842
蒹	-12.3843
絰	-12.3844
萬厯庚辰進士	-12.3844
孔穎逹	-12.3844
硤	-12.3845
䛕	-12.3845
愻	-12.3845
佚徽州府志	-12.3845
喜怒哀樂之	-12.3845
踏	-12.3846
璪	-12.3846
佚括蒼彚紀	-12.3846
瑰	-12.3847
荃	-12.3847
䆳	-12.3848
栩	-12.3848
鹤	-12.3848
乞骸骨	-12.3849
觸類而長	-12.3849
麕	-12.3849
斷爛朝報	-12.385
閽	-12.385
匝	-12.385
仭	-12.385
穫	-12.3851
辝	-12.3852
驎	-12.3852
闓	-12.3852
獒	-12.3852
佶	-12.3852
箧	-12.3852
郕	-12.3853
閠	-12.3853
糴	-12.3854
哂	-12.3854
舶	-12.3854
桑中溱洧	-12.3855
􁶙	-12.3855
崇政殿説書	-12.3855
鍜	-12.3855
琇	-12.3855
橐	-12.3855
懌	-12.3856
賻	-12.3856
弘農太守	-12.3856
蔭	-12.3856
耗	-12.3856
猜	-12.3857
峕	-12.3857
咈	-12.3857
唾	-12.3857
咲	-12.3857
戚伯著碑	-12.3857
靑	-12.3858
淛	-12.3858
褰	-12.3858
弨	-12.3858
齊民要術	-12.3858
卵	-12.3858
拏	-12.3858
晧	-12.3858
弆	-12.3858
槗	-12.3858
燠	-12.3858
蘚	-12.3859
瀹	-12.3859
嶧	-12.386
鴞	-12.3861
槁	-12.3861
達奚珣	-12.3861
軺	-12.3862
宐	-12.3862
嘖	-12.3862
肋	-12.3862
禺	-12.3862
冈	-12.3863
逓	-12.3863
繄	-12.3863
套	-12.3863
悱	-12.3863
懴	-12.3863
昃	-12.3863
睠	-12.3863
狭	-12.3863
􁅧	-12.3863
蟹	-12.3864
瑪	-12.3864
㑓	-12.3864
傚	-12.3864
隋開皇初郡廢	-12.3864
舁	-12.3865
羗	-12.3865
第一千九百	-12.3865
矚	-12.3866
釴	-12.3866
陘	-12.3866
謝肇淛	-12.3867
煦	-12.3868
􁒤	-12.3868
晢	-12.3868
訐	-12.3868
侑	-12.3868
庙	-12.3868
漬	-12.3869
鸛	-12.3869
今在曲阜縣廟中	-12.3869
栽	-12.387
虞世基撰	-12.387
憮	-12.387
傭	-12.387
窠	-12.387
秣	-12.3871
屠本畯	-12.3872
纁	-12.3872
塤	-12.3872
張芸叟	-12.3874
棧	-12.3874
郫	-12.3875
參天兩地	-12.3875
寨	-12.3878
怯	-12.3879
塑	-12.388
郜	-12.3881
兠	-12.3882
衎	-12.3886
麃	-12.389
篚	-12.3896
姨	-12.39
在墨玅亭	-12.3902
巋	-12.458
粱	-12.4591
蒧	-12.4594
攡	-12.4601
瞭	-12.4603
抍	-12.4604
晬	-12.4604
憧	-12.4607
柒	-12.4609
㩦	-12.4609
玕	-12.4609
立象以盡意	-12.4609
簀	-12.4612
琱	-12.4612
肺	-12.4612
變動不居	-12.4613
阪	-12.4614
疣	-12.4614
慾	-12.4614
知汝殊愁	-12.4615
烽	-12.4615
堊	-12.4616
欎	-12.4617
娟	-12.4617
嵎	-12.4617
賸	-12.4617
郛	-12.4618
蝌	-12.4618
焜	-12.4618
餒	-12.4618
齗	-12.4619
蒭	-12.4619
嘲	-12.4619
沌	-12.4619
傒	-12.4619
裵	-12.462
粧	-12.462
餓	-12.462
庀	-12.462
兩浙名賢錄	-12.462
咀	-12.462
馯臂子弓	-12.462
紏	-12.4621
戕	-12.4621
析里橋郙閣頌	-12.4621
疫	-12.4622
鑚	-12.4622
劉芳喆曰	-12.4622
輶	-12.4622
埏	-12.4622
鼈	-12.4622
西伯戡黎	-12.4623
驁	-12.4623
柝	-12.4623
鹹	-12.4624
拄	-12.4624
㪅	-12.4624
酸棗令劉熊碑	-12.4624
岌	-12.4624
剙	-12.4624
埶	-12.4624
邽	-12.4624
晻	-12.4624
暖	-12.4624
軟	-12.4625
纊	-12.4625
祝睦後碑	-12.4625
罅	-12.4626
瑯	-12.4626
𡨕	-12.4626
症	-12.4627
泆	-12.4627
琉	-12.4627
遝	-12.4628
瞰	-12.4628
﨑	-12.4628
禳	-12.4628
􁚔	-12.4628
冽	-12.4628
温柔敦厚	-12.4629
丱	-12.4629
廌	-12.4629
壠	-12.463
欤	-12.463
都知兵馬使	-12.463
古噐物銘苐	-12.463
催	-12.463
費亭侯曹騰碑	-12.463
碾	-12.463
縠	-12.463
瑚	-12.463
机	-12.463
州團練副使	-12.4631
耋	-12.4631
啼	-12.4631
山陽太守祝睦	-12.4632
內	-12.4632
藏真律公	-12.4632
懃	-12.4632
寀	-12.4632
屐	-12.4632
丼	-12.4632
梟	-12.4632
麽	-12.4632
泚	-12.4633
頁	-12.4633
漶	-12.4633
易有聖人之道四焉	-12.4633
穸	-12.4633
銀青光祿大夫	-12.4634
人萬厯癸丑進士	-12.4634
㮣	-12.4634
故吏五官掾博陵	-12.4634
埒	-12.4634
呻	-12.4635
糊	-12.4636
成陽靈臺碑	-12.4636
犨	-12.4636
鄄	-12.4636
熠	-12.4636
㬊	-12.4636
饕	-12.4637
溷	-12.4637
掎	-12.4637
瓢	-12.4637
鷲	-12.4638
宋桑世昌撰	-12.4638
崗	-12.4638
鈇	-12.4638
蜿	-12.4638
騭	-12.4638
讙	-12.4638
申屠致逺	-12.4639
份	-12.4639
將作大匠	-12.4639
愠	-12.4639
漣	-12.464
憔	-12.464
紬	-12.4642
鰥	-12.4643
琟	-12.4644
插	-12.4646
蛻	-12.4646
字號第二厨書目	-12.4647
覀	-12.4647
頵	-12.4648
溱	-12.4648
紈	-12.4658
藂	-12.4667
髯	-12.467
鑊	-12.4732
簭	-12.5431
筏	-12.5432
猝	-12.5434
厪	-12.5434
月中氣日在	-12.5437
躁	-12.5437
嫉	-12.5439
焰	-12.5439
睇	-12.544
蟜	-12.5442
攣	-12.5443
雹	-12.5444
御筆鈐乾隆雙璽	-12.5445
執金吾丞武榮碑	-12.5445
謾	-12.5445
月之節日在	-12.5446
說卦序卦雜卦	-12.5447
􁖯	-12.5447
愜	-12.5447
董眞卿曰	-12.5448
元㑹運世	-12.5448
得坤乾焉	-12.5448
豸	-12.545
莠	-12.545
豬	-12.5451
癘	-12.5451
妬	-12.5451
慇	-12.5451
莩	-12.5451
壂	-12.5451
溜	-12.5451
簏	-12.5452
緋	-12.5452
攙	-12.5453
僥	-12.5453
篠	-12.5453
匙	-12.5453
其先誤而後改者	-12.5453
棹	-12.5454
粦	-12.5454
兕	-12.5454
届	-12.5454
蕆	-12.5455
㳤	-12.5455
燄	-12.5455
瀕	-12.5455
顆	-12.5456
覘	-12.5456
不詳何代人	-12.5456
戣	-12.5456
堂邑令費君碑	-12.5457
燃	-12.5458
屍	-12.5458
磵	-12.5458
蛙	-12.5458
珊	-12.5458
荄	-12.5458
醖	-12.5459
継	-12.5459
縳	-12.5459
􁃽	-12.5459
謠	-12.5459
瘴	-12.546
堕	-12.546
榕	-12.546
洄	-12.5461
跪	-12.5461
廚	-12.5461
爟	-12.5461
奘	-12.5461
嚳	-12.5462
鞫	-12.5462
資政殿大學士	-12.5462
涅	-12.5462
緦	-12.5462
癉	-12.5462
昞	-12.5462
佔	-12.5463
飡	-12.5463
受詩於浮丘伯	-12.5463
醯	-12.5463
㫤	-12.5464
蓘	-12.5464
安平相孫根碑	-12.5464
張猛龍碑	-12.5464
伾	-12.5465
荐	-12.5465
可勝歎哉	-12.5465
臠	-12.5465
熺	-12.5466
韵	-12.5466
䞇	-12.5466
涘	-12.5467
佀	-12.5467
杪	-12.5468
苓	-12.5468
􁬾	-12.5468
􁭃	-12.5468
􁀉	-12.5468
埭	-12.5469
囂	-12.5469
餼	-12.5469
芉	-12.547
眈	-12.547
勗	-12.547
頷	-12.547
佻	-12.5471
獅	-12.5471
晊	-12.5471
臞	-12.5471
暄	-12.5472
武氏石室畫像	-12.5472
吠	-12.5472
詖	-12.5473
篹	-12.5473
圉令趙君碑	-12.5473
于志寕撰	-12.5473
箇	-12.5473
誾	-12.5474
磊	-12.5475
蜕	-12.5476
捫	-12.5476
凷	-12.5477
鴛	-12.5477
瓶	-12.5477
鶻	-12.5477
頸	-12.5478
􁀫	-12.5479
􁄂	-12.5479
臬	-12.5479
冇	-12.5481
描	-12.5481
珞	-12.5481
兊	-12.5484
窗	-12.5485
憸	-12.5485
漪	-12.5485
轟	-12.5489
人嘉靖癸未進士	-12.5495
淯	-12.5498
釜	-12.5513
櫬	-12.6319
洸	-12.6331
寉	-12.6338
螽	-12.6339
噬	-12.6339
平輿令薛君碑	-12.6341
肹	-12.6344
恙	-12.6345
冤	-12.6346
賜同進士出身	-12.6349
搖	-12.635
撻	-12.6353
輊	-12.6354
疽	-12.6354
剋	-12.6356
磯	-12.6356
嚕	-12.6357
睫	-12.6357
娱	-12.6357
斟	-12.6358
興觀羣怨	-12.6358
袞	-12.6358
壷	-12.6359
媧	-12.6359
伯趙岐曰孟子弟子	-12.6359
從父詹事公	-12.636
撏	-12.636
霏	-12.636
未見黃虞稷曰	-12.636
謏	-12.636
未見蒋方馨曰	-12.636
体	-12.6362
益部耆舊傳	-12.6362
邍	-12.6362
桮	-12.6362
幘	-12.6362
疴	-12.6362
衛尉卿衡方碑	-12.6363
綃	-12.6364
玖	-12.6364
戩	-12.6364
沭	-12.6364
濄	-12.6364
痼	-12.6364
懦	-12.6364
瑕丘江公	-12.6365
秕	-12.6365
𥅆	-12.6365
鼒	-12.6365
夹	-12.6365
湟	-12.6365
狸	-12.6366
牾	-12.6366
治平元年六月十日書	-12.6366
笞	-12.6367
尒	-12.6367
闐	-12.6367
悸	-12.6367
膾	-12.6367
昫	-12.6367
箸	-12.6367
揉	-12.6368
栞	-12.6368
瑁	-12.6369
屣	-12.6369
使工鐫刻	-12.6369
褫	-12.637
何彼穠矣	-12.637
戹	-12.637
相府小史夏堪碑	-12.637
崇政殿說書	-12.637
􁇒	-12.637
搶	-12.6371
㕓	-12.6371
鄲	-12.6371
稽古右文之璽	-12.6371
璃	-12.6372
䡖	-12.6372
綫	-12.6372
雯	-12.6373
扺	-12.6373
耨	-12.6373
祲	-12.6373
所見異辭所聞異	-12.6373
荚	-12.6373
􁂮	-12.6374
墁	-12.6374
􁆖	-12.6375
棃	-12.6375
頏	-12.6375
斡	-12.6375
縻	-12.6375
粘	-12.6375
嚞	-12.6375
𤣥齡字喬	-12.6376
顧况道號	-12.6376
嫓	-12.6376
窀	-12.6376
㪺	-12.6376
笄	-12.6376
怙	-12.6377
庾承宣撰	-12.6377
嶂	-12.6378
笛	-12.6378
僵	-12.6379
袓	-12.6379
鈕	-12.6379
黠	-12.638
逍	-12.6381
敶	-12.6381
祏	-12.6383
涑	-12.6383
𫐠	-12.6384
䙝	-12.6385
隼	-12.6385
邰	-12.6385
銛	-12.6386
鶩	-12.6386
宧	-12.6387
是魯孔丘與曰是	-12.6387
媛	-12.6388
佘	-12.6388
䣊	-12.6388
蕋	-12.6389
京兆杜陵人	-12.6389
悴	-12.6389
宏文館學士	-12.6389
煚	-12.639
縵	-12.639
尉氏令鄭君碑	-12.6391
佛頂尊勝陁羅尼	-12.6397
摰	-12.6397
坻	-12.64
甑	-12.6401
綝	-12.6404
瑭	-12.6405
劮	-12.6406
輿地碑記目	-12.6416
匽	-12.6429
煬	-12.7237
春秋穀梁傳注十	-12.7318
㪷	-12.7329
裾	-12.733
孔子成春秋而亂臣賊子懼	-12.7333
佼	-12.7337
鬛	-12.734
逅	-12.734
惆	-12.7341
擠	-12.7342
皤	-12.7343
怵	-12.7345
經禮三百曲禮三千	-12.7346
錞	-12.7347
治平元年六月十四日書	-12.7347
驢	-12.7349
迢	-12.7349
校正宋淳化閣帖初	-12.735
児	-12.735
嬖	-12.735
欽定四庫全書欽定重刻淳化閣帖釋文	-12.7351
鷙	-12.7351
偪	-12.7353
蝗	-12.7353
衽	-12.7353
渺	-12.7353
芽	-12.7353
捌	-12.7355
鉶	-12.7355
踞	-12.7355
􁁏	-12.7356
錚	-12.7356
􁚦	-12.7357
聵	-12.7357
黝	-12.7357
痊	-12.7357
絫	-12.7358
居則觀其象而玩其辭	-12.7359
蜡	-12.7359
縗	-12.7359
鞮	-12.7359
邡	-12.7359
瀉	-12.736
肴	-12.736
人天啟壬戌進士	-12.736
篪	-12.7361
真西山讀書記	-12.7361
彘	-12.7361
謹按鄭樵通志云	-12.7361
沈括筆談	-12.7361
仰觀俯察	-12.7362
洼	-12.7362
薜	-12.7362
僃	-12.7362
鶠	-12.7362
刖	-12.7362
府史胥徒	-12.7363
產	-12.7363
乙速孤行儼碑	-12.7363
眡	-12.7363
壖	-12.7363
壟	-12.7363
洶	-12.7364
李百薬撰	-12.7364
鶺	-12.7365
坰	-12.7365
駈	-12.7365
煟	-12.7365
璀	-12.7365
悙	-12.7365
肈	-12.7365
溧陽長潘乾校官碑	-12.7366
缸	-12.7367
㿃	-12.7367
蔥	-12.7367
叫	-12.7367
醢	-12.7367
俌	-12.7367
匕	-12.7367
摉	-12.7368
匯	-12.7368
穩	-12.7368
戻	-12.7368
瀦	-12.7368
嘘	-12.7368
駘	-12.7369
禮記碑上有諫議大夫馬日磾議郎蔡邕	-12.737
渼	-12.737
纛	-12.737
稯	-12.7371
華葢殿大學士	-12.7371
囈	-12.7371
惺	-12.7371
啜	-12.7371
塩	-12.7371
鎸	-12.7371
四月十一日戊子到官	-12.7371
鐔	-12.7372
怱	-12.7372
畺	-12.7372
鳩摩羅什	-12.7372
摽	-12.7373
岊	-12.7373
飜	-12.7373
眹	-12.7373
趙相劉衡碑	-12.7373
揄	-12.7373
㫺	-12.7374
潺	-12.7374
漙	-12.7374
屡	-12.7374
獠	-12.7375
鉏	-12.7375
盼	-12.7375
湲	-12.7375
嶙	-12.7375
酤	-12.7376
稡	-12.7376
窕	-12.7376
㓝	-12.7376
墾	-12.7376
欽定四庫全書漢藝文志考證卷	-12.7377
䓦	-12.7377
阬	-12.7377
陀羅尼經	-12.7377
膊	-12.7377
窿	-12.7377
枲	-12.7377
罽	-12.7377
史晨饗孔廟後碑	-12.7377
鷗	-12.7377
盭	-12.7378
徯	-12.7378
方輿勝覽	-12.7379
旼	-12.7379
髙陽令楊君碑	-12.7379
睥	-12.7379
甝	-12.738
鄹	-12.738
􁅋	-12.738
虓	-12.738
鑣	-12.738
察孝亷除郎	-12.738
詼	-12.7381
黏	-12.7381
禔	-12.7381
楼	-12.7381
做	-12.7382
帆	-12.7382
􁉋	-12.7383
鋐	-12.7384
諂	-12.7384
幙	-12.7384
臏	-12.7384
遨	-12.7384
豺	-12.7385
鎻	-12.7385
覔	-12.7385
絮	-12.7386
晹	-12.7387
猖	-12.7389
祼	-12.7389
萹	-12.7389
媯	-12.7389
䭾	-12.739
胝	-12.7391
粃	-12.7391
旉	-12.7392
輗	-12.7394
埧	-12.7398
醬	-12.7401
捭	-12.7402
婓	-12.7404
蠒	-12.7409
閘	-12.7422
嚻	-12.7435
人正徳甲戌進士	-12.7447
􁚤	-12.7453
拇	-12.8443
邂	-12.8449
店	-12.8453
掜	-12.8453
溵	-12.8453
煞	-12.8454
萋	-12.8455
迓	-12.8456
賫	-12.8456
哺	-12.8458
蘠	-12.846
梏	-12.846
坼	-12.846
柷	-12.8461
疚	-12.8462
秖	-12.8464
吉凶與民同患	-12.8464
𤼵	-12.8464
斸	-12.8464
圛	-12.8465
殹	-12.8465
煑	-12.8466
掉	-12.8466
饜	-12.8466
特牲饋食	-12.8466
悻	-12.8467
皐	-12.8467
萬有一千五百二十	-12.8467
貊	-12.8468
慊	-12.8468
臨朐長仲君碑	-12.8468
櫜	-12.8469
殂	-12.8469
㞼	-12.8469
俅	-12.847
鎛	-12.847
脊	-12.847
嘿	-12.8471
前後俱無序跋	-12.8471
儗	-12.8471
簧	-12.8472
鄗	-12.8472
咳	-12.8472
憨	-12.8472
崈	-12.8472
堞	-12.8473
鑛	-12.8473
旰	-12.8474
沇	-12.8474
踔	-12.8474
腦	-12.8474
埸	-12.8474
諠	-12.8474
鮪	-12.8474
沱	-12.8475
穠	-12.8475
少牢饋食	-12.8475
瀝	-12.8475
牌	-12.8476
爨	-12.8476
堯祠祈雨	-12.8476
㩁	-12.8476
檣	-12.8476
蠕	-12.8476
杠	-12.8476
埊	-12.8477
厫	-12.8477
笋	-12.8477
郯令景君闕銘	-12.8477
鱣	-12.8477
璐	-12.8477
灊	-12.8478
蹶	-12.8478
御識釋文訂異	-12.8479
笴	-12.8479
􁇷	-12.8479
蓲	-12.8479
捄	-12.8479
詫	-12.8479
㐀	-12.848
忼	-12.848
玹	-12.848
悰	-12.848
譸	-12.848
㑹稽東部都尉路君闕	-12.8481
党	-12.8481
畬	-12.8481
㭊	-12.8482
剟	-12.8482
㟁	-12.8482
惓	-12.8482
揀	-12.8482
詩三百一言以蔽之曰思無邪	-12.8483
饉	-12.8483
玦	-12.8484
跱	-12.8484
太保李良臣碑	-12.8484
蓰	-12.8484
痾	-12.8484
檐	-12.8484
冔	-12.8484
鴒	-12.8484
􁂘	-12.8484
孑	-12.8484
匄	-12.8485
瘵	-12.8485
𣪚	-12.8485
竹邑侯相張壽碑	-12.8485
柞	-12.8486
耉	-12.8486
沓	-12.8486
趍	-12.8487
𠡠	-12.8487
宄	-12.8487
蹴	-12.8488
闞	-12.8488
宋王堯臣等	-12.8488
􁆣	-12.8489
丹陽太守郭旻碑	-12.8489
樾	-12.8489
褢	-12.849
脣	-12.849
罟	-12.849
艦	-12.849
眂	-12.849
刈	-12.849
䧕	-12.849
碍	-12.849
扼	-12.849
㦲	-12.8491
綏民校尉熊君碑	-12.8491
窄	-12.8492
贇	-12.8492
苧	-12.8492
挟	-12.8493
邙	-12.8493
緊	-12.8494
椁	-12.8495
㡌	-12.8495
厖	-12.8495
淞	-12.8498
竇臮述書賦	-12.8498
皂	-12.8499
槨	-12.8499
欷	-12.85
竽	-12.8501
圄	-12.8502
辠	-12.8502
韠	-12.8502
纪	-12.8503
廏	-12.8503
襜	-12.8505
觥	-12.8506
跛	-12.8509
剳	-12.851
敦煌長史武班碑	-12.8511
悺	-12.8512
稧	-12.8515
庄	-12.8516
羖	-12.8518
懶	-12.8519
妙品八分九人	-12.852
嬾	-12.8524
籒	-12.8524
鴉	-12.8526
皖	-12.8554
􁊈	-12.9645
螟	-12.9691
澌	-12.9691
校勘兼看書上石官將仕郎守	-12.9692
阮客舊居詩	-12.9692
圀	-12.9694
峘	-12.9695
頞	-12.9696
莢	-12.9696
欽定四庫全書經義考巻一百	-12.97
暾	-12.9701
輈	-12.9703
熏	-12.9704
鈆	-12.9706
甡	-12.9707
㷀	-12.9707
毌	-12.9707
芷	-12.9708
梁相費汎碑	-12.971
嵲	-12.971
輞	-12.9711
淤	-12.9712
􁋙	-12.9712
狃	-12.9712
軋	-12.9713
蜃	-12.9713
叁	-12.9713
婣	-12.9713
㓙	-12.9713
僮	-12.9713
猶有十八碑餘皆殘毁	-12.9714
鍥	-12.9714
稂	-12.9714
坱	-12.9715
曰王者之迹熄而詩亡詩亡然後春秋作	-12.9715
輻	-12.9715
羮	-12.9716
抜	-12.9716
閥	-12.9717
𥿄	-12.9717
愎	-12.9717
滻	-12.9718
腥	-12.9718
蜺	-12.9718
呌	-12.9718
顕	-12.9719
痰	-12.9719
觽	-12.9719
肚	-12.972
庳	-12.972
􁄴	-12.972
嶄	-12.9721
葑	-12.9721
檟	-12.9721
巴郡太守宗正卿成	-12.9721
渊	-12.9721
榱	-12.9721
哆	-12.9722
毘	-12.9722
禮儀三百威儀三千	-12.9722
𬗋	-12.9722
痢	-12.9722
皃	-12.9722
拉	-12.9722
湍流帶右天五字	-12.9722
鶡	-12.9722
籜	-12.9723
動則觀其變而玩其占	-12.9723
謹案右一帖章草	-12.9723
沴	-12.9723
悛	-12.9723
筐	-12.9723
齔	-12.9723
櫄	-12.9724
澆	-12.9724
耔	-12.9724
王澍虛舟詳定天都秋水藕花居校刋	-12.9725
畚	-12.9725
豈曰小補之哉	-12.9725
􁎓	-12.9725
碓	-12.9725
樊毅復華下民租	-12.9725
使又進京畿渭北鄜坊商華兵馬副元帥	-12.9725
誹	-12.9726
袋	-12.9726
敭	-12.9727
鑴	-12.9727
魅	-12.9727
西行尚書周易公羊傳十	-12.9727
巛	-12.9728
京畿渭北鄜坊	-12.9728
都郷正街彈碑	-12.9728
顙	-12.9728
㭍	-12.9729
粢	-12.9729
矝	-12.9729
咤	-12.9729
瓠	-12.9729
虫	-12.9729
鎚	-12.9729
齧	-12.9729
之類是也亦有他官之文雜在	-12.9729
衾	-12.9729
餝	-12.9729
𡵨	-12.9729
蜴	-12.9729
藟	-12.9729
餅	-12.973
茘	-12.973
哦	-12.973
襁	-12.973
贈隆闡大法師	-12.973
嚼	-12.973
攴	-12.973
饔	-12.973
吉成侯州輔碑	-12.9731
閴	-12.9731
薌	-12.9731
官之文有雜在他官者如	-12.9731
浚儀令衡立碑	-12.9732
壆	-12.9732
䬃	-12.9732
廳	-12.9732
蠆	-12.9732
捺	-12.9732
摺	-12.9732
忞	-12.9733
錙	-12.9733
鶬	-12.9733
觶	-12.9733
諼	-12.9734
挿	-12.9734
胚	-12.9734
􁗁	-12.9734
在濟州任城縣	-12.9734
􁒨	-12.9734
刳	-12.9734
殛	-12.9734
其經卦皆八其别皆六十有四	-12.9734
倂	-12.9735
邕自書丹使工鐫刻	-12.9735
媪	-12.9735
慄	-12.9735
㢕	-12.9736
霰	-12.9736
叄	-12.9736
霜月之靈皇極之日	-12.9736
淝	-12.9736
覓	-12.9737
芊	-12.9737
灤	-12.9737
頓首死罪上尚書臣	-12.9737
祤	-12.9738
舄	-12.9738
瑨	-12.9738
娉	-12.9738
其事則齊桓晉文其文則史	-12.9738
磴	-12.9738
永樂少府賈君闕	-12.9739
鞍	-12.9739
攫	-12.9739
菌	-12.9739
戇	-12.9739
曁	-12.9739
関	-12.9739
啾	-12.9739
夆	-12.9739
魏公卿上尊號奏	-12.9739
閧	-12.974
膞	-12.974
脆	-12.974
箠	-12.9741
泫	-12.9741
晋江黄虞稷撰	-12.9741
濙	-12.9741
玲	-12.9741
塹	-12.9741
蜒	-12.9741
㭿	-12.9741
疉	-12.9741
崟	-12.9741
弢	-12.9742
勩	-12.9742
䜛	-12.9742
爌	-12.9743
楩	-12.9743
㛃	-12.9743
湄	-12.9743
鴿	-12.9743
焭	-12.9743
𬗟	-12.9743
廐	-12.9744
檉	-12.9744
卨	-12.9744
萎	-12.9744
倜	-12.9745
莎	-12.9745
鷂	-12.9745
鼉	-12.9746
籓	-12.9746
恁	-12.9746
杉	-12.9746
戰國屬楚秦屬	-12.9747
卉	-12.9747
猴	-12.9747
縆	-12.9748
柉	-12.9748
綈	-12.9749
攟	-12.9749
勍	-12.975
眘	-12.975
釘	-12.975
溽	-12.975
此謂知本此謂知之至也	-12.9751
鵰	-12.9751
偰	-12.9751
䄂	-12.9751
狠	-12.9751
隃	-12.9752
珥	-12.9752
戅	-12.9753
𢋫	-12.9753
潾	-12.9756
痴	-12.9756
沫	-12.9756
金薤琳瑯	-12.9757
贙	-12.976
鷇	-12.976
呆	-12.9762
琤	-12.9763
蛩	-12.9768
妒	-12.9772
玅	-12.9785
惱	-13.1096
韡	-13.1114
汦	-13.1121
砯	-13.1124
廛	-13.1126
鄱	-13.1128
俁	-13.1129
縶	-13.113
崡	-13.113
汞	-13.113
淋	-13.113
㙔	-13.1131
嗛	-13.1131
歧	-13.1134
膩	-13.1134
㦱	-13.1134
肸	-13.1136
俳	-13.1136
鏕	-13.1136
脇	-13.1137
𦍑	-13.1137
菉	-13.1138
汛	-13.1139
簴	-13.1139
騊	-13.1139
蕕	-13.1139
枽	-13.1139
亀	-13.1139
茀	-13.1139
潤州圖經以為王羲之書	-13.1139
懟	-13.114
摳	-13.114
加我數年五十以學易可以無大過	-13.1142
罸	-13.1142
堀	-13.1143
肓	-13.1143
唐何進滔德政碑	-13.1143
秦望山法華寺碑	-13.1144
伯宋大觀中補贈	-13.1144
禫	-13.1144
柈	-13.1144
楸	-13.1144
瞀	-13.1145
爤	-13.1145
翩	-13.1145
先儒相承謂毛詩序子夏所創毛公及	-13.1145
窣	-13.1146
町	-13.1146
剿	-13.1147
偵	-13.1147
枘	-13.1147
艤	-13.1147
暝	-13.1148
蚊	-13.1148
圅	-13.1148
馹	-13.1148
獪	-13.1149
誑	-13.1149
踴	-13.115
羼	-13.115
霹	-13.115
㠜	-13.115
沄	-13.115
貎	-13.1151
疢	-13.1152
刄	-13.1152
㶚	-13.1153
値	-13.1153
馯	-13.1153
州輔墓石獸膊字	-13.1153
吼	-13.1154
脰	-13.1154
幃	-13.1154
䰟	-13.1154
􁎽	-13.1154
惙	-13.1154
個	-13.1154
禬	-13.1154
剃	-13.1155
緹	-13.1155
犒	-13.1155
垹	-13.1155
犹	-13.1156
榷	-13.1156
噱	-13.1156
廱	-13.1157
跖	-13.1157
脛	-13.1157
騂	-13.1157
䦨	-13.1157
撲	-13.1157
􁀖	-13.1157
峋	-13.1157
艇	-13.1157
桎	-13.1157
鐍	-13.1157
㬇	-13.1157
斝	-13.1157
㛰	-13.1158
􁂞	-13.1158
蜼	-13.1158
磾	-13.1158
定五經書於論堂東西廂之壁	-13.1159
撙	-13.1159
哀公問仲尼燕居孔子閒居	-13.1159
旟	-13.1159
明内府藏本有廣運之寶	-13.1159
隩	-13.116
販	-13.116
唁	-13.116
壵	-13.116
崙	-13.116
漉	-13.116
軍州兼管内勸農事	-13.116
鞉	-13.116
凭	-13.116
盉	-13.116
表亦復常言耳	-13.116
甍	-13.1161
戬	-13.1161
痺	-13.1162
郸	-13.1162
􁀁	-13.1162
噴	-13.1163
以言者尚其辭以動者尚其變以	-13.1163
梁昭明太子蕭統	-13.1163
囏	-13.1163
吅	-13.1163
晶	-13.1163
旐	-13.1163
鍤	-13.1163
啞	-13.1163
􁁆	-13.1163
瀬	-13.1164
學講堂前悉在東側	-13.1164
􁎼	-13.1164
偭	-13.1164
耼	-13.1164
􁏉	-13.1165
玼	-13.1165
刻蔡邕等名魏正始中又立古篆	-13.1165
魏初傳古文出邯鄲淳	-13.1165
姥	-13.1166
鏌	-13.1166
卌	-13.1166
簇	-13.1166
字號第三厨書目	-13.1166
闘	-13.1166
􁐴	-13.1166
訒	-13.1167
鄯	-13.1167
週	-13.1167
甿	-13.1167
犯輕垢罪若佛子	-13.1167
鍠	-13.1167
殪	-13.1168
袽	-13.1168
郍	-13.1168
怒猊抉石渴驥奔泉	-13.1168
司空掌邦土居四民時地利	-13.1169
澡	-13.1169
劘	-13.1169
娠	-13.117
􁕓	-13.117
一隂一陽之謂道	-13.117
㮚	-13.1171
竊意其間必有同時揮毫者	-13.1171
眄	-13.1171
碭孔君神祠碑	-13.1171
袝	-13.1171
礦	-13.1171
藕	-13.1172
侄	-13.1172
睪	-13.1172
姜嫄公劉廟碑	-13.1172
軨	-13.1172
作易者其有憂患乎	-13.1172
怦	-13.1173
洿	-13.1173
閾	-13.1173
􁀤	-13.1174
悮	-13.1174
擣	-13.1174
掄	-13.1175
杍	-13.1175
􁠭	-13.1175
𢾗	-13.1175
槊	-13.1176
雘	-13.1176
有十二種意外巧妙	-13.1176
兟	-13.1176
絙	-13.1177
柤	-13.1177
鄮	-13.1177
輜	-13.1178
戛	-13.1178
魏公卿上尊號表	-13.1178
昪	-13.1178
鹺	-13.1178
誠惶誠恐頓首頓首死罪死罪	-13.1179
撢	-13.1179
䆠	-13.118
捶	-13.118
琭	-13.118
這	-13.118
漈	-13.118
歔	-13.118
摛	-13.1181
貂	-13.1181
悪	-13.1181
佪	-13.1182
闖	-13.1184
蜀郡太守任君神道	-13.1184
鱉	-13.1184
朝聞道夕死可也	-13.1185
鋸	-13.1186
鯖	-13.1186
掬	-13.1188
畹	-13.119
鬢	-13.1191
麀	-13.1193
薳	-13.1194
眚	-13.1195
嫚	-13.1196
䘐	-13.1196
儺	-13.1196
柦	-13.1198
籲	-13.1199
軷	-13.1201
簮	-13.1206
黥	-13.1208
隮	-13.1212
憝	-13.1258
匔	-13.2741
轕	-13.2757
稲	-13.2776
萁	-13.2783
轉劇近明散未覺益	-13.2783
杅	-13.2785
逗	-13.2786
淩	-13.2786
籃	-13.2787
衫	-13.2787
扳	-13.2788
篔	-13.279
菰	-13.2792
龡	-13.2794
巉	-13.2794
朝議郎守國子毛詩博士上柱國	-13.2794
國子祭酒同中書門下平章事太清宫使	-13.2795
陊	-13.2796
觿	-13.2797
惛	-13.2798
枹	-13.2799
􁁄	-13.2799
嬋	-13.28
懣	-13.28
瞑	-13.28
知我者其惟春秋乎罪我者其惟春秋乎	-13.28
觜	-13.28
􁚉	-13.28
繅	-13.2802
敳	-13.2803
訔	-13.2803
樛	-13.2804
體用一原顯微無間	-13.2804
滮	-13.2804
泂	-13.2804
薉	-13.2804
鵷	-13.2805
羆	-13.2805
艘	-13.2805
揷	-13.2805
魯峻碑云君諱峻字仲嚴	-13.2805
滹	-13.2806
毳	-13.2806
􁔷	-13.2806
􁃎	-13.2806
沈文阿蘇寛劉炫	-13.2807
直齋書錄解題卷二十	-13.2807
媺	-13.2808
誶	-13.2808
遂奏置五經博士依漢蔡邕	-13.2808
瞠	-13.2808
碑列於太學創立石壁九經諸儒	-13.2809
謭	-13.2809
鼃	-13.2809
孶	-13.2809
聒	-13.281
晙	-13.281
澇	-13.281
飈	-13.281
岍	-13.281
􁣕	-13.2811
蜉	-13.2811
分經之年與傳之年相附	-13.2811
虡	-13.2812
醨	-13.2812
棿	-13.2812
柢	-13.2812
澳	-13.2813
㴠	-13.2813
汋	-13.2813
怉	-13.2813
紲	-13.2813
噶	-13.2813
後數十年名儒皆不窺之以為蕪累甚矣	-13.2814
敲	-13.2814
而亡其一皇祐四年向傳師	-13.2814
搗	-13.2814
乾隆三十四年歲在己丑春二月奉	-13.2815
䜌	-13.2815
郅	-13.2815
唵	-13.2815
炮	-13.2815
易窮則變變則通通則	-13.2815
蕞	-13.2815
矍	-13.2816
叐	-13.2816
梢	-13.2817
蠖	-13.2817
穗	-13.2817
制器者尚其象以卜筮者尚其占	-13.2818
葱	-13.2818
飴	-13.2818
䇓	-13.2818
今張燾龍圖家有十版	-13.2818
劉憲撰白羲晊	-13.2818
鴨	-13.2818
毉	-13.2818
斨	-13.2818
所書乃八分而三體石經乃魏時所建也	-13.2818
詶	-13.2818
體用一源顯微無間	-13.2819
厂	-13.2819
橢	-13.2819
張氏壻家有五六版王晉玉家有小塊	-13.2819
㟭	-13.2819
寫者車乘日千餘兩塡塞街	-13.2819
嫺	-13.2819
當是孟知祥僭位	-13.282
昵	-13.282
啣	-13.282
㑺	-13.282
孿	-13.2821
蓁	-13.2821
篷	-13.2822
衊	-13.2822
慫	-13.2822
至有行賂改蘭臺漆書經字者	-13.2822
閈	-13.2822
爝	-13.2822
鯈	-13.2823
求正定六經文字靈帝許之邕乃自書	-13.2823
潑	-13.2823
輳	-13.2823
喫	-13.2823
裯	-13.2823
一昨得安西六日書無他無所	-13.2823
􁃋	-13.2823
涒	-13.2824
剩	-13.2824
瞞	-13.2824
磑	-13.2824
胊	-13.2824
㵼	-13.2824
摻	-13.2824
坌	-13.2825
玫	-13.2825
瘥	-13.2825
㕑	-13.2825
飶	-13.2825
魏石經三體一體之不同	-13.2825
憗	-13.2826
嵸	-13.2826
怍	-13.2826
有一字石經七種三字石經三種	-13.2826
悤	-13.2826
禴	-13.2826
後魏所存石諸經之不同	-13.2826
蘷	-13.2826
髻	-13.2826
櫂	-13.2826
慛	-13.2827
楞	-13.2827
後魏孝文弔比干文	-13.2827
崍	-13.2827
詬	-13.2827
以彖象文言雜入卦中者自費氏始	-13.2827
綍	-13.2827
吻	-13.2827
西戍樹谷五樓先生東臺御史王翦將軍	-13.2827
􁑨	-13.2828
徦	-13.2828
煖	-13.2828
爍	-13.2828
岧	-13.2828
􁬭	-13.2829
寋	-13.2829
􁚟	-13.2829
橈	-13.2829
諳	-13.2829
涎	-13.2829
管内觀察處置	-13.2829
懵	-13.2829
嶪	-13.2829
歍	-13.2829
㠕	-13.2829
幟	-13.2829
賨	-13.283
闟	-13.283
羍	-13.283
鋼	-13.283
暕	-13.283
覦	-13.283
鲁	-13.283
徲	-13.283
㐬	-13.283
謖	-13.2831
薙	-13.2831
駞	-13.2831
石經古文轉失淳法樹之	-13.2831
蝟	-13.2831
􁄪	-13.2831
立於太學門外於是後儒晚學咸取正焉	-13.2831
窂	-13.2832
三萬四千六百八十五字	-13.2832
虖	-13.2832
怕	-13.2833
櫃	-13.2833
􁁛	-13.2833
蒔	-13.2833
估	-13.2834
卝	-13.2834
暜	-13.2834
巙	-13.2834
冊御製詩集一部一冊御製詩集一部	-13.2834
嫠	-13.2834
𪠘	-13.2834
單颺等正定諸經	-13.2835
涍	-13.2835
攖	-13.2835
轘	-13.2835
砅	-13.2835
欻	-13.2835
􁁇	-13.2835
搔	-13.2836
襪	-13.2836
春秋屬呉戰國屬越後屬楚秦	-13.2836
㣧	-13.2836
笪	-13.2836
邵資政張子厚本	-13.2836
谿典諫議大夫臣馬日磾臣趙䧕議	-13.2836
鈃	-13.2837
今所存諸經字體各不同雖邕能分善	-13.2837
囷	-13.2837
今在曲陽縣北嶽廟中	-13.2837
壝	-13.2837
蹬	-13.2837
諞	-13.2838
坪	-13.2838
武臣一部一冊御製大誥	-13.2839
桄	-13.284
硎	-13.284
啚	-13.284
獯	-13.284
𦕈	-13.284
曡	-13.284
姸	-13.2841
坂	-13.2841
酆	-13.2842
闻	-13.2842
蜩	-13.2842
稌	-13.2842
逴	-13.2843
㷆	-13.2843
邛	-13.2844
撞	-13.2844
駛	-13.2844
槿	-13.2845
禖	-13.2845
炁	-13.2845
麯	-13.2846
騮	-13.2846
柿	-13.2847
璚	-13.2848
蓀	-13.2848
筯	-13.2848
舷	-13.2848
舖	-13.2848
隟	-13.2848
㬜	-13.2849
撼	-13.2849
漷	-13.285
稳	-13.285
歘	-13.285
穨	-13.2852
垤	-13.2852
秭	-13.2853
幵	-13.2854
贔	-13.2855
㴞	-13.2856
瘢	-13.2856
烷	-13.2857
糗	-13.2858
􁳅	-13.2859
𢃄	-13.2863
勱	-13.2864
棅	-13.2868
湑	-13.2871
肃	-13.2871
鼙	-13.2872
􁉔	-13.2914
饎	-13.4757
愓	-13.4761
慆	-13.4762
栝	-13.4767
栴	-13.4773
􁁢	-13.4774
扯	-13.4776
觝	-13.4776
駼	-13.4778
虣	-13.4785
橦	-13.4788
湎	-13.4789
蒨	-13.4792
憖	-13.4792
磷	-13.4792
靉	-13.4793
萧	-13.4796
蕤	-13.4798
焴	-13.4798
鍭	-13.4799
櫨	-13.48
羭	-13.4801
帋	-13.4801
雊	-13.4801
鞶	-13.4801
穣	-13.4802
笵	-13.4803
悋	-13.4803
琡	-13.4803
喚	-13.4804
噪	-13.4804
毀	-13.4804
崋	-13.4805
疃	-13.4805
蠃	-13.4805
躓	-13.4805
氶	-13.4805
僴	-13.4805
蒱	-13.4806
擉	-13.4806
轢	-13.4806
奡	-13.4806
麁	-13.4806
ꇵ	-13.4807
澘	-13.4807
檝	-13.4807
􁅾	-13.4807
蓴	-13.4808
堈	-13.4808
矱	-13.4808
㢧	-13.4808
濊	-13.4808
繽	-13.4809
霾	-13.4809
嫗	-13.4809
燁	-13.4809
譛	-13.4809
冄	-13.4809
仡	-13.4809
􁆶	-13.4809
鏟	-13.481
乱	-13.481
厦	-13.481
臲	-13.481
薶	-13.481
䕏	-13.4811
瓴	-13.4811
搴	-13.4811
躇	-13.4812
􁚧	-13.4813
􁂧	-13.4813
蹌	-13.4813
􁀥	-13.4814
鸚	-13.4814
瞬	-13.4815
鞬	-13.4815
攅	-13.4815
淀	-13.4815
韐	-13.4816
􁆨	-13.4816
欬	-13.4816
间	-13.4816
僂	-13.4816
竆	-13.4816
侊	-13.4817
輼	-13.4817
盄	-13.4817
袛	-13.4817
偫	-13.4817
債	-13.4817
猱	-13.4817
鵑	-13.4817
臽	-13.4818
蹵	-13.4818
𤯝	-13.4818
㿈	-13.4818
􁃶	-13.4818
􁈯	-13.4819
眸	-13.4819
茆	-13.4819
萑	-13.4819
遶	-13.4819
埈	-13.482
韎	-13.482
埓	-13.482
礭	-13.482
个	-13.4821
􁐾	-13.4821
淅	-13.4821
鐉	-13.4821
祍	-13.4821
颯	-13.4821
网	-13.4821
璡	-13.4822
糠	-13.4822
敡	-13.4822
攢	-13.4822
郿	-13.4822
􁄰	-13.4822
􁫕	-13.4822
縕	-13.4822
耇	-13.4823
徨	-13.4823
鸖	-13.4823
􁁷	-13.4823
㪍	-13.4823
覼	-13.4823
遅	-13.4824
黛	-13.4824
肻	-13.4824
昝	-13.4824
搥	-13.4824
勔	-13.4824
䍧	-13.4824
彂	-13.4824
瑢	-13.4824
蝣	-13.4824
㷱	-13.4825
羇	-13.4825
苫	-13.4825
觹	-13.4825
棬	-13.4825
姃	-13.4825
㢠	-13.4825
漾	-13.4825
箝	-13.4825
蟈	-13.4825
开	-13.4826
沗	-13.4826
剌	-13.4826
薾	-13.4827
瑺	-13.4827
凮	-13.4827
􁃼	-13.4827
揵	-13.4827
慉	-13.4827
葚	-13.4827
莬	-13.4827
丧	-13.4828
㘴	-13.4828
鏄	-13.4828
䚮	-13.4828
恚	-13.4829
咺	-13.4829
􁃔	-13.4829
冫	-13.4829
怫	-13.4829
蔾	-13.4829
􁅼	-13.4829
􁶝	-13.4829
紉	-13.483
塍	-13.483
彳	-13.4831
冋	-13.4831
綾	-13.4831
謌	-13.4831
浞	-13.4831
柙	-13.4831
繤	-13.4831
墦	-13.4831
䥴	-13.4832
頙	-13.4832
澐	-13.4833
屆	-13.4833
朶	-13.4833
涷	-13.4833
蚌	-13.4833
倗	-13.4833
譱	-13.4833
鐃	-13.4833
煢	-13.4833
遟	-13.4834
姫	-13.4834
㬎	-13.4834
櫓	-13.4834
帨	-13.4834
倨	-13.4834
偅	-13.4834
􁑀	-13.4834
甦	-13.4835
蹖	-13.4835
咋	-13.4835
􁜳	-13.4835
薿	-13.4835
炔	-13.4835
鱻	-13.4836
薖	-13.4836
蘗	-13.4836
墼	-13.4836
稊	-13.4836
煴	-13.4836
陑	-13.4837
皁	-13.4837
賅	-13.4837
僇	-13.4837
㴶	-13.4838
􁍆	-13.4838
撇	-13.4838
窖	-13.4838
賺	-13.4838
𢡟	-13.4838
褉	-13.4838
矞	-13.4839
戦	-13.4839
􁶢	-13.4839
燐	-13.484
卺	-13.484
廧	-13.484
舩	-13.484
嚙	-13.4841
辣	-13.4841
㢮	-13.4842
涙	-13.4842
屭	-13.4842
鋌	-13.4842
戱	-13.4842
媾	-13.4842
沍	-13.4842
瞥	-13.4842
纕	-13.4842
券	-13.4843
酃	-13.4843
㘸	-13.4843
崿	-13.4844
柶	-13.4847
􁃝	-13.4847
薬	-13.4848
蜎	-13.4848
襚	-13.4849
籛	-13.4849
㨂	-13.4849
譫	-13.4849
赭	-13.485
媮	-13.4851
枃	-13.4851
􁶫	-13.4851
勌	-13.4852
鞋	-13.4853
􁝏	-13.4854
淘	-13.4855
侠	-13.4856
梭	-13.4857
忮	-13.4858
􁇛	-13.4858
磎	-13.4858
毬	-13.4858
涔	-13.486
炊	-13.4861
汔	-13.4861
鈺	-13.4861
壐	-13.4861
儂	-13.4862
裼	-13.4862
􁌽	-13.4866
綣	-13.4867
瀣	-13.4868
捉	-13.487
宁	-13.487
伻	-13.4871
㳙	-13.4875
隚	-13.4875
軹	-13.4876
浤	-13.4877
颷	-13.4882
潏	-13.4885
屮	-13.4914
腓	-13.7216
䗜	-13.722
恮	-13.7257
亲	-13.726
偯	-13.7265
糶	-13.7267
蹀	-13.7268
訑	-13.7269
戫	-13.7271
􁀅	-13.7272
鷖	-13.7273
瀍	-13.7274
玶	-13.7275
貆	-13.7276
麫	-13.7278
稁	-13.728
憼	-13.728
斲	-13.7284
橓	-13.7284
孱	-13.7286
螙	-13.7287
罝	-13.7288
縡	-13.7289
裊	-13.7291
茇	-13.7291
撜	-13.7292
筒	-13.7294
膜	-13.7295
佉	-13.7295
陴	-13.7296
鈿	-13.7296
礿	-13.7296
鵜	-13.7296
隽	-13.7298
饟	-13.7298
㓪	-13.7299
棓	-13.7299
穽	-13.7299
錟	-13.73
処	-13.73
灃	-13.73
幀	-13.73
彑	-13.73
燂	-13.73
酧	-13.7301
螻	-13.7301
逑	-13.7302
蟊	-13.7302
鮌	-13.7302
􁆪	-13.7302
呐	-13.7302
㑭	-13.7302
肫	-13.7303
搦	-13.7303
跬	-13.7303
麐	-13.7305
蓑	-13.7305
烕	-13.7305
瘖	-13.7306
剉	-13.7306
惔	-13.7306
霦	-13.7306
桱	-13.7307
􁑮	-13.7307
壈	-13.7307
嘅	-13.7307
胗	-13.7307
扑	-13.7307
棚	-13.7307
蝀	-13.7307
跼	-13.7307
屼	-13.7307
飱	-13.7307
语	-13.7309
樌	-13.7309
祸	-13.7309
絺	-13.7309
腑	-13.7309
礧	-13.7309
筥	-13.7309
嗅	-13.7309
嚌	-13.7309
滀	-13.7309
臍	-13.7309
讁	-13.7309
溳	-13.7309
吊	-13.7309
鞔	-13.7309
穻	-13.7309
𠞰	-13.731
媢	-13.731
跽	-13.731
噎	-13.7311
冑	-13.7311
㡛	-13.7311
噍	-13.7311
腊	-13.7311
柅	-13.7312
䍐	-13.7312
茁	-13.7313
鏁	-13.7313
鏹	-13.7313
鵶	-13.7313
讟	-13.7313
梳	-13.7313
􁍑	-13.7313
撐	-13.7313
厎	-13.7313
荏	-13.7313
犮	-13.7313
訽	-13.7313
鄶	-13.7313
肎	-13.7314
帰	-13.7314
敓	-13.7315
猒	-13.7315
褓	-13.7315
韍	-13.7316
畛	-13.7316
槌	-13.7316
翎	-13.7316
辵	-13.7316
咥	-13.7316
鋗	-13.7316
㚘	-13.7316
䓺	-13.7317
眊	-13.7317
圬	-13.7317
浥	-13.7317
腧	-13.7317
皿	-13.7318
蕢	-13.7318
换	-13.7318
倓	-13.7318
謦	-13.7318
葷	-13.7318
茝	-13.7318
鄡	-13.7318
硥	-13.7319
黿	-13.732
􁲔	-13.732
滃	-13.732
窊	-13.732
鶼	-13.732
犠	-13.7321
珒	-13.7321
謪	-13.7321
陥	-13.7321
蜮	-13.7321
囀	-13.7321
軿	-13.7321
朦	-13.7321
ဇ	-13.7322
㳿	-13.7323
甽	-13.7323
籝	-13.7323
恡	-13.7323
迕	-13.7323
蛑	-13.7323
躳	-13.7323
菩	-13.7323
􁳛	-13.7323
魋	-13.7323
纏	-13.7323
瀐	-13.7324
驊	-13.7324
恫	-13.7324
襦	-13.7324
厘	-13.7324
圡	-13.7324
峥	-13.7324
􁈹	-13.7324
菞	-13.7324
􁇂	-13.7324
幔	-13.7325
僰	-13.7325
盁	-13.7325
缿	-13.7325
莚	-13.7325
簉	-13.7325
挐	-13.7325
牎	-13.7325
勹	-13.7326
滍	-13.7326
􁒅	-13.7326
曒	-13.7326
憺	-13.7326
磧	-13.7327
穅	-13.7327
𥜗	-13.7327
劼	-13.7327
湋	-13.7327
襌	-13.7327
猊	-13.7327
缾	-13.7327
肢	-13.7327
薝	-13.7327
軓	-13.7327
悀	-13.7327
傁	-13.7327
鵙	-13.7327
􁣡	-13.7327
賃	-13.7328
瘍	-13.7328
汩	-13.7328
淖	-13.7328
旊	-13.7328
蹷	-13.7328
溘	-13.7328
盌	-13.7328
宬	-13.7328
蕖	-13.7328
禜	-13.7328
遰	-13.7328
􁔇	-13.7328
􁈍	-13.7328
妵	-13.7329
呱	-13.7329
韃	-13.7329
􁶂	-13.7329
瘐	-13.7329
鏑	-13.7329
􁦹	-13.7329
浃	-13.733
嗢	-13.733
弹	-13.733
褙	-13.733
撟	-13.733
舡	-13.733
醊	-13.733
儛	-13.733
䢫	-13.733
鄚	-13.7331
氲	-13.7331
硩	-13.7331
􁱝	-13.7331
璅	-13.7331
滲	-13.7331
㬅	-13.7331
麦	-13.7331
􁊅	-13.7331
闛	-13.7331
􁦰	-13.7332
􁂍	-13.7332
抔	-13.7332
葙	-13.7332
刲	-13.7332
紵	-13.7332
仌	-13.7332
獮	-13.7332
皜	-13.7334
蝦	-13.7334
昳	-13.7334
瀞	-13.7334
譟	-13.7334
胲	-13.7334
愘	-13.7334
蔗	-13.7334
蘉	-13.7334
嚭	-13.7335
裡	-13.7335
􁊸	-13.7335
厰	-13.7335
訃	-13.7335
􁦃	-13.7335
噏	-13.7336
􁇟	-13.7336
柎	-13.7336
腋	-13.7336
詈	-13.7336
膴	-13.7336
憊	-13.7336
罩	-13.7336
瞋	-13.7336
珝	-13.7337
瑝	-13.7337
踉	-13.7337
蕊	-13.7338
简	-13.7338
縋	-13.7338
獎	-13.7338
瞍	-13.7338
澎	-13.7338
朢	-13.7339
阸	-13.7339
絖	-13.7339
􁅩	-13.7339
􁓒	-13.7339
橱	-13.7339
ခ	-13.734
枿	-13.7341
𣏌	-13.7341
窶	-13.7341
矮	-13.7341
灞	-13.7342
泡	-13.7342
睎	-13.7342
䆮	-13.7343
卹	-13.7343
脤	-13.7343
殻	-13.7343
荗	-13.7343
昰	-13.7343
駑	-13.7343
踖	-13.7343
崚	-13.7345
蹂	-13.7345
飇	-13.7345
厮	-13.7345
瀨	-13.7345
厸	-13.7345
琹	-13.7345
唘	-13.7346
瑮	-13.7346
敉	-13.7347
錘	-13.7347
陿	-13.7348
腔	-13.7348
瞳	-13.7348
瘼	-13.7349
宷	-13.7349
贓	-13.7349
鄼	-13.7349
冭	-13.735
麞	-13.7352
阝	-13.7352
嘶	-13.7352
瓮	-13.7353
敂	-13.7353
漚	-13.7354
豋	-13.7354
嶔	-13.7356
菖	-13.7356
佹	-13.7357
碗	-13.7357
桶	-13.7358
佋	-13.7359
鸝	-13.736
恝	-13.736
䢴	-13.7361
画	-13.7361
㬢	-13.7363
顫	-13.7363
瀫	-13.7363
梃	-13.7364
莧	-13.7365
瑑	-13.7365
袚	-13.7366
塨	-13.7366
葳	-13.7367
哨	-13.7367
驌	-13.737
蕑	-13.7371
䡅	-13.7374
谼	-13.7375
􁒙	-13.7377
医	-13.7379
涣	-13.7382
丠	-13.7384
淏	-13.7385
粻	-13.7385
鵃	-13.7388
遳	-13.7406
紜	-14.0512
㗛	-14.0543
䓆	-14.056
䇽	-14.0562
箉	-14.0562
电	-14.0564
朖	-14.0572
緾	-14.0575
蠄	-14.0576
霝	-14.0581
潸	-14.0581
餂	-14.0585
囗	-14.0589
籧	-14.0591
爬	-14.0595
禯	-14.0597
㳒	-14.0599
嬀	-14.06
葴	-14.06
坏	-14.0601
枵	-14.0601
鍰	-14.0601
􁃸	-14.0601
寱	-14.0602
䙫	-14.0602
橰	-14.0604
怗	-14.0604
瀼	-14.0608
㫋	-14.061
慜	-14.061
栘	-14.061
愃	-14.0612
鉌	-14.0612
唎	-14.0612
杙	-14.0614
絓	-14.0614
骭	-14.0614
咻	-14.0616
憀	-14.0616
絻	-14.0616
䘖	-14.0617
喏	-14.0618
殮	-14.0618
錝	-14.0618
墬	-14.0619
梴	-14.0619
岨	-14.062
桯	-14.062
罃	-14.0621
妲	-14.0622
嫩	-14.0624
㝮	-14.0624
鋋	-14.0624
嬈	-14.0624
昒	-14.0624
豝	-14.0624
豵	-14.0624
堣	-14.0625
綌	-14.0625
櫆	-14.0626
糸	-14.0626
矗	-14.0626
㧾	-14.0626
蓆	-14.0628
澒	-14.0628
呢	-14.0628
㜸	-14.0628
柚	-14.0629
烺	-14.063
郈	-14.063
剜	-14.063
礥	-14.063
瞶	-14.063
巠	-14.0631
甔	-14.0631
騑	-14.0631
刧	-14.0631
庥	-14.0631
戟	-14.0631
繂	-14.0631
藿	-14.0631
扛	-14.0631
窳	-14.0633
娣	-14.0633
睟	-14.0633
饘	-14.0633
懆	-14.0634
孥	-14.0635
旪	-14.0635
赳	-14.0635
汳	-14.0635
酲	-14.0635
雇	-14.0635
煤	-14.0635
鸑	-14.0635
囤	-14.0635
圁	-14.0635
袗	-14.0635
珷	-14.0636
靦	-14.0637
旜	-14.0637
唇	-14.0637
椔	-14.0637
樟	-14.0637
?	-14.0637
浯	-14.0639
􁆒	-14.0639
蕰	-14.0639
蓊	-14.0639
韲	-14.0639
􁦍	-14.0639
噭	-14.0639
泪	-14.0639
垠	-14.0639
賙	-14.0639
鵩	-14.0641
罇	-14.0641
𨳩	-14.0641
邏	-14.0641
鮫	-14.0641
桉	-14.0641
痡	-14.0641
紃	-14.0641
鋤	-14.0642
榿	-14.0642
呿	-14.0643
湔	-14.0643
䙡	-14.0643
棰	-14.0643
僾	-14.0644
疒	-14.0644
唫	-14.0645
襞	-14.0645
姮	-14.0645
蛛	-14.0645
𣆀	-14.0645
呰	-14.0645
崒	-14.0645
柵	-14.0645
蝎	-14.0645
傘	-14.0645
牼	-14.0645
訌	-14.0645
傴	-14.0645
沺	-14.0645
纇	-14.0645
輴	-14.0645
眛	-14.0645
􁆸	-14.0645
尫	-14.0645
垔	-14.0646
ဉ	-14.0646
揑	-14.0647
蔪	-14.0647
槍	-14.0647
站	-14.0647
跣	-14.0647
殍	-14.0647
旹	-14.0648
癈	-14.0648
胞	-14.0648
淒	-14.0649
哻	-14.0649
詀	-14.0649
􁌜	-14.0649
䘚	-14.0649
髭	-14.0649
􁆢	-14.0649
စ	-14.0649
暱	-14.0649
ထ	-14.0649
崌	-14.0649
鋹	-14.065
㣆	-14.0651
麌	-14.0651
坫	-14.0651
荑	-14.0651
紗	-14.0651
轔	-14.0651
ဋ	-14.0651
襆	-14.0651
迼	-14.0651
擫	-14.0651
蝶	-14.0651
紡	-14.0651
鍪	-14.0653
痒	-14.0653
瘉	-14.0653
茜	-14.0653
矼	-14.0653
蔦	-14.0654
朼	-14.0654
􁀧	-14.0654
儐	-14.0654
濼	-14.0655
衜	-14.0655
輛	-14.0655
些	-14.0655
廽	-14.0655
訿	-14.0655
迁	-14.0655
藚	-14.0655
佰	-14.0655
柁	-14.0655
䀎	-14.0656
蹋	-14.0656
揗	-14.0656
确	-14.0656
姢	-14.0656
秤	-14.0656
䆿	-14.0656
痿	-14.0656
茤	-14.0656
邨	-14.0657
唃	-14.0657
囧	-14.0657
鄫	-14.0657
㒵	-14.0657
娃	-14.0657
捆	-14.0657
賒	-14.0657
㴱	-14.0657
搭	-14.0657
蓽	-14.0657
醵	-14.0657
䑞	-14.0657
􁉒	-14.0657
擐	-14.0657
裙	-14.0658
猫	-14.0658
痔	-14.0658
窋	-14.0658
淼	-14.0658
吷	-14.0658
拽	-14.0658
塈	-14.0658
阙	-14.0658
声	-14.0658
悃	-14.0658
梱	-14.0658
砧	-14.0658
衂	-14.0658
陗	-14.0658
轝	-14.0659
檏	-14.0659
䨮	-14.0659
昘	-14.0659
薔	-14.0659
􁂬	-14.066
䕬	-14.066
隉	-14.066
郳	-14.066
㨶	-14.066
痻	-14.066
竉	-14.066
擎	-14.066
寑	-14.066
縲	-14.066
联	-14.066
􁆚	-14.066
㱙	-14.0661
􁚛	-14.0661
㒃	-14.0661
偄	-14.0661
纚	-14.0662
玞	-14.0662
煃	-14.0662
蔇	-14.0662
蝸	-14.0662
碈	-14.0662
鬪	-14.0662
螳	-14.0662
㺩	-14.0662
􁏅	-14.0662
剞	-14.0662
姝	-14.0662
詅	-14.0662
􁌛	-14.0662
俵	-14.0663
皛	-14.0663
䄢	-14.0663
撾	-14.0663
蓧	-14.0664
莁	-14.0664
䢨	-14.0664
䟭	-14.0664
湥	-14.0664
㦛	-14.0664
骾	-14.0664
芩	-14.0664
勻	-14.0664
憩	-14.0664
搬	-14.0664
赩	-14.0664
㡭	-14.0664
喘	-14.0664
迡	-14.0664
亏	-14.0664
􁛮	-14.0665
漰	-14.0665
廎	-14.0665
渫	-14.0665
椹	-14.0665
邔	-14.0665
􁭌	-14.0665
酎	-14.0666
嘷	-14.0666
壃	-14.0666
囯	-14.0666
麵	-14.0666
睛	-14.0666
毡	-14.0666
翨	-14.0666
􁇾	-14.0666
槱	-14.0666
㽵	-14.0666
栰	-14.0666
筩	-14.0666
澉	-14.0666
鱮	-14.0666
㢙	-14.0666
丏	-14.0666
悄	-14.0666
犇	-14.0666
㘽	-14.0666
煨	-14.0667
酹	-14.0667
勊	-14.0667
牁	-14.0668
琊	-14.0668
荇	-14.0668
甾	-14.0668
衺	-14.0668
蔿	-14.0668
虯	-14.0668
喁	-14.0668
曬	-14.0668
烓	-14.0668
盅	-14.0668
膓	-14.0668
☰	-14.0668
炷	-14.0668
糲	-14.0668
箐	-14.0668
劳	-14.0668
㤁	-14.0668
帀	-14.0669
沬	-14.0669
籣	-14.0669
灧	-14.067
荁	-14.067
榼	-14.067
■	-14.067
吀	-14.067
惸	-14.067
桒	-14.067
祟	-14.067
汹	-14.067
蛣	-14.0671
垻	-14.0671
宂	-14.0671
􁃛	-14.0671
愒	-14.0672
盻	-14.0672
槈	-14.0672
􁰋	-14.0672
㒡	-14.0672
萸	-14.0672
趋	-14.0672
门	-14.0672
臤	-14.0672
歈	-14.0674
􁀴	-14.0674
鈌	-14.0674
唄	-14.0674
韗	-14.0674
逨	-14.0674
㽙	-14.0674
嘽	-14.0674
湃	-14.0674
匃	-14.0674
玗	-14.0675
㦂	-14.0675
搯	-14.0676
涞	-14.0676
崞	-14.0676
劈	-14.0676
滚	-14.0676
盙	-14.0676
誖	-14.0676
瑫	-14.0676
𧦬	-14.0676
饁	-14.0677
熥	-14.0677
䆃	-14.0677
嚬	-14.0678
驄	-14.0678
楛	-14.0678
忙	-14.0678
鼯	-14.0678
㕠	-14.0678
撒	-14.0678
攵	-14.0678
轗	-14.0678
丽	-14.0678
剷	-14.0678
嬌	-14.0678
麝	-14.068
􁦳	-14.068
羃	-14.068
喇	-14.068
蠁	-14.068
鯊	-14.068
轓	-14.068
馗	-14.0681
巏	-14.0681
絞	-14.0681
鷫	-14.0682
岕	-14.0682
琫	-14.0682
􁋊	-14.0682
唧	-14.0682
磥	-14.0682
褱	-14.0682
闃	-14.0683
懺	-14.0683
簟	-14.0683
㶏	-14.0684
扱	-14.0684
讕	-14.0684
頣	-14.0684
罏	-14.0685
禠	-14.0685
耴	-14.0685
􁆐	-14.0685
綖	-14.0685
暏	-14.0687
鎜	-14.0687
塪	-14.0687
冓	-14.0687
䲭	-14.0687
椀	-14.0687
乩	-14.0687
恧	-14.0687
荊	-14.0687
􁁉	-14.0689
渦	-14.0689
櫪	-14.0689
嵠	-14.0689
误	-14.0689
揩	-14.069
􁆅	-14.0691
艫	-14.0691
嚅	-14.0691
弜	-14.0691
矌	-14.0692
疁	-14.0693
礶	-14.0693
謎	-14.0693
琠	-14.0693
閇	-14.0695
盃	-14.0695
芡	-14.0695
竫	-14.0696
裭	-14.0697
椶	-14.0698
􁀎	-14.0699
嚜	-14.0699
茒	-14.0699
缷	-14.0699
惨	-14.0699
綉	-14.0699
僩	-14.0701
頮	-14.0701
繾	-14.0701
軏	-14.0702
术	-14.0702
蝨	-14.0703
獺	-14.0703
璥	-14.0703
𤦺	-14.0705
菡	-14.0707
􁇋	-14.0707
礲	-14.0707
幌	-14.0707
悆	-14.0708
郪	-14.0708
煽	-14.0709
翏	-14.0709
巃	-14.0709
鎦	-14.0709
娄	-14.071
䓗	-14.0711
唬	-14.0711
􁋇	-14.0712
鮚	-14.0714
莋	-14.0714
騾	-14.0714
䎖	-14.0716
弻	-14.0717
荻	-14.072
楝	-14.072
郞	-14.0728
榔	-14.0728
鍛	-14.0728
鵒	-14.0734
隈	-14.0735
萄	-14.0736
􁒳	-14.0736
葡	-14.0738
懫	-14.0782
􁶖	-14.0797
􁶕	-14.0799
勖	-14.0807
鈛	-14.0824
扸	-14.5501
辿	-14.551
䒫	-14.5532
䓑	-14.5533
䖻	-14.5538
弤	-14.5538
梂	-14.5538
蜹	-14.5538
篨	-14.5542
荎	-14.5542
唲	-14.5545
佌	-14.5545
唅	-14.5545
謷	-14.5545
悳	-14.5551
苡	-14.5554
㵱	-14.5557
翑	-14.5557
訰	-14.5557
僙	-14.556
墫	-14.5564
虆	-14.5564
稘	-14.5567
扌	-14.5571
䢃	-14.5573
觭	-14.5576
袴	-14.5582
嚾	-14.5582
婞	-14.5582
䋠	-14.5586
奰	-14.5588
獳	-14.5589
豑	-14.5589
呶	-14.5589
嗃	-14.5589
緖	-14.5592
䬙	-14.5592
堋	-14.5592
縭	-14.5592
羶	-14.5592
泹	-14.5595
袟	-14.5595
擗	-14.5595
痍	-14.5595
堍	-14.5595
愮	-14.5595
碱	-14.5595
嶻	-14.5598
嗷	-14.5598
甖	-14.5598
盫	-14.5598
偝	-14.5601
惬	-14.5601
凊	-14.5601
挃	-14.5601
氈	-14.5601
蜞	-14.5601
蟛	-14.5601
曕	-14.5604
肪	-14.5604
㮄	-14.5604
沕	-14.5604
愭	-14.5605
襯	-14.5607
崏	-14.5607
糵	-14.5607
脽	-14.5607
貜	-14.5608
劋	-14.5608
䩵	-14.5608
醋	-14.5608
姕	-14.5608
羜	-14.5608
犴	-14.5611
唳	-14.5611
㥶	-14.5611
酖	-14.5611
㶾	-14.5611
厶	-14.5611
吽	-14.5611
嘛	-14.5611
箏	-14.5611
繐	-14.5611
䁆	-14.5612
傜	-14.5613
珨	-14.5614
歕	-14.5614
翐	-14.5614
吭	-14.5617
紩	-14.5617
缽	-14.5617
蜘	-14.5617
歂	-14.5617
瑻	-14.5617
跎	-14.5617
掔	-14.5617
諑	-14.562
磓	-14.562
劃	-14.562
癯	-14.562
豜	-14.562
蛤	-14.5623
喃	-14.5623
媟	-14.5623
拚	-14.5623
瓣	-14.5623
窑	-14.5623
慣	-14.5623
㛂	-14.5623
粳	-14.5623
倔	-14.5626
芘	-14.5626
囱	-14.5626
㺇	-14.5626
赱	-14.5626
腆	-14.5628
䆫	-14.563
慓	-14.563
簞	-14.563
貰	-14.563
簹	-14.563
嵂	-14.563
僦	-14.563
捾	-14.563
朁	-14.563
汃	-14.563
篾	-14.563
賕	-14.563
蔟	-14.563
㡳	-14.5631
縢	-14.5632
諆	-14.5633
罡	-14.5633
喑	-14.5633
莓	-14.5633
檖	-14.5633
ဃ	-14.5633
偟	-14.5633
儦	-14.5633
曀	-14.5633
菹	-14.5633
蜾	-14.5633
刅	-14.5635
洫	-14.5636
熬	-14.5636
跧	-14.5636
蝝	-14.5636
ဈ	-14.5636
杇	-14.5636
溔	-14.5636
禑	-14.5636
褾	-14.5636
礟	-14.5636
牣	-14.5636
乚	-14.5637
拿	-14.5639
亯	-14.5639
嘴	-14.5639
茸	-14.5639
㿖	-14.5639
褻	-14.5639
䘵	-14.5639
彷	-14.5639
㨱	-14.5639
巇	-14.5639
懠	-14.5639
歬	-14.5639
蟇	-14.5639
襮	-14.5639
鉁	-14.5639
晣	-14.564
ဂ	-14.5641
蠓	-14.5641
茭	-14.5641
箒	-14.5642
皞	-14.5642
僲	-14.5642
埿	-14.5642
渌	-14.5642
蠛	-14.5642
䀢	-14.5642
橙	-14.5642
磩	-14.5642
谽	-14.5642
醧	-14.5642
橭	-14.5642
笇	-14.5642
訜	-14.5643
㤅	-14.5645
岠	-14.5645
慍	-14.5645
捩	-14.5645
搘	-14.5645
湶	-14.5645
礉	-14.5645
泖	-14.5645
猨	-14.5645
膰	-14.5645
莛	-14.5645
虀	-14.5645
躄	-14.5645
邶	-14.5645
鄿	-14.5645
麏	-14.5645
姆	-14.5645
竚	-14.5646
輱	-14.5646
粼	-14.5647
坺	-14.5648
袘	-14.5648
槙	-14.5648
苶	-14.5648
捦	-14.5648
欱	-14.5648
玟	-14.5648
㠋	-14.5648
劂	-14.5648
氂	-14.5648
灒	-14.5648
螂	-14.5648
恆	-14.5648
芴	-14.5648
裱	-14.5648
谺	-14.5648
剄	-14.5649
淥	-14.5649
綷	-14.5649
譒	-14.5649
螎	-14.5649
禝	-14.5649
㮵	-14.5649
茬	-14.5649
偡	-14.565
嬺	-14.565
檗	-14.565
洤	-14.565
䈤	-14.5652
跟	-14.5652
嗔	-14.5652
禙	-14.5652
蹢	-14.5652
絆	-14.5652
胏	-14.5652
㕀	-14.5652
畍	-14.5652
佽	-14.5652
吮	-14.5652
崤	-14.5652
恋	-14.5652
楶	-14.5652
烖	-14.5652
簸	-14.5652
諵	-14.5652
谹	-14.5652
柲	-14.5652
偲	-14.5653
茿	-14.5653
迆	-14.5653
你	-14.5653
彎	-14.5654
鉘	-14.5655
絟	-14.5655
㲻	-14.5655
卼	-14.5655
褥	-14.5655
孠	-14.5655
贐	-14.5655
㸑	-14.5655
啁	-14.5655
䑛	-14.5655
䧢	-14.5655
愞	-14.5655
掀	-14.5655
祅	-14.5655
稙	-14.5655
葽	-14.5655
蔔	-14.5655
薗	-14.5655
䦿	-14.5655
磒	-14.5655
䁱	-14.5656
郏	-14.5657
ဏ	-14.5658
蘀	-14.5658
毆	-14.5658
笨	-14.5658
㜰	-14.5658
侓	-14.5658
势	-14.5658
捲	-14.5658
浡	-14.5658
罌	-14.5658
腪	-14.5658
臉	-14.5658
䷀	-14.5658
慳	-14.5658
枸	-14.5658
欗	-14.5658
澱	-14.5658
窃	-14.5658
腯	-14.5658
觱	-14.5658
輨	-14.5658
遬	-14.5658
鈭	-14.5658
䃪	-14.566
慷	-14.5661
砢	-14.5661
瞢	-14.5661
呤	-14.5661
憯	-14.5661
矴	-14.5661
蟫	-14.5661
惝	-14.5661
斈	-14.5661
裠	-14.5661
圊	-14.5661
磽	-14.5661
姱	-14.5661
瑠	-14.5661
酳	-14.5661
㞑	-14.5661
䮯	-14.5661
婐	-14.5661
徕	-14.5661
瀰	-14.5661
玻	-14.5661
苒	-14.5661
蠹	-14.5661
畮	-14.5661
俈	-14.5661
㬥	-14.5662
袥	-14.5662
ါ	-14.5662
㯓	-14.5663
濞	-14.5663
蔍	-14.5663
妭	-14.5663
䢻	-14.5663
邫	-14.5663
澸	-14.5664
苲	-14.5664
徛	-14.5664
烇	-14.5664
曎	-14.5664
淓	-14.5664
秝	-14.5664
㯽	-14.5664
污	-14.5664
猧	-14.5664
纳	-14.5664
囇	-14.5664
痂	-14.5664
秒	-14.5664
笻	-14.5664
蝉	-14.5664
䨱	-14.5664
䳒	-14.5664
嶃	-14.5664
歮	-14.5664
浟	-14.5664
烚	-14.5664
畒	-14.5664
磪	-14.5664
禨	-14.5664
秠	-14.5664
穮	-14.5664
茞	-14.5664
蘤	-14.5664
髴	-14.5664
潚	-14.5664
芃	-14.5664
㛎	-14.5665
㴜	-14.5665
䡄	-14.5665
卮	-14.5665
嵪	-14.5665
硑	-14.5665
芓	-14.5665
徍	-14.5665
菨	-14.5665
諩	-14.5665
朒	-14.5666
邹	-14.5666
ဟ	-14.5666
澭	-14.5667
ယ	-14.5667
裟	-14.5667
邲	-14.5667
酙	-14.5667
葠	-14.5667
姞	-14.5667
嶢	-14.5667
庒	-14.5667
橑	-14.5667
煆	-14.5667
腠	-14.5667
蜣	-14.5667
ဎ	-14.5667
ဠ	-14.5667
嚏	-14.5667
搰	-14.5667
柗	-14.5667
諓	-14.5667
ပ	-14.5668
倶	-14.5668
軔	-14.5669
謜	-14.567
袈	-14.567
趁	-14.567
瑳	-14.567
叵	-14.5671
噞	-14.5671
猲	-14.5671
杶	-14.5671
緃	-14.5671
噓	-14.5671
很	-14.5671
惮	-14.5671
痏	-14.5671
苪	-14.5671
䟏	-14.5671
儑	-14.5671
溼	-14.5671
燫	-14.5671
硺	-14.5671
磗	-14.5671
糖	-14.5671
罋	-14.5671
芈	-14.5671
譻	-14.5671
鈳	-14.5671
嘑	-14.5672
蒃	-14.5672
嶒	-14.5673
曈	-14.5673
雚	-14.5673
愳	-14.5674
栱	-14.5674
瓖	-14.5674
剭	-14.5674
蝱	-14.5674
跕	-14.5674
垝	-14.5674
嶨	-14.5674
曛	-14.5674
蝘	-14.5674
鈜	-14.5674
嚶	-14.5675
萦	-14.5675
舋	-14.5677
侶	-14.5677
琖	-14.5677
戺	-14.5677
澨	-14.5677
牗	-14.5677
猩	-14.5677
硜	-14.5677
趪	-14.5677
嵿	-14.5677
卩	-14.5677
㬭	-14.5678
帽	-14.5678
緢	-14.5679
摴	-14.568
踘	-14.568
熑	-14.568
襴	-14.568
籞	-14.568
辮	-14.568
㓛	-14.568
抪	-14.568
愫	-14.568
樁	-14.568
蛭	-14.568
糟	-14.5683
墐	-14.5683
樑	-14.5683
瑲	-14.5683
璬	-14.5683
壒	-14.5683
䏸	-14.5683
媦	-14.5683
捻	-14.5683
璛	-14.5683
磅	-14.5683
煐	-14.5683
爇	-14.5683
皫	-14.5683
郶	-14.5683
釧	-14.5683
庬	-14.5683
蹉	-14.5686
圩	-14.5686
硌	-14.5686
屩	-14.5686
胠	-14.5686
僠	-14.5686
妷	-14.5686
晩	-14.5686
樅	-14.5686
眯	-14.5686
礴	-14.5686
芋	-14.5686
螣	-14.5686
皼	-14.5689
鎗	-14.5689
圑	-14.5689
尞	-14.5689
厈	-14.5689
气	-14.5689
翽	-14.5689
斚	-14.5689
蹻	-14.5689
垐	-14.5689
慴	-14.569
槲	-14.569
迯	-14.5692
蒂	-14.5693
豨	-14.5693
抝	-14.5696
茵	-14.5696
蛀	-14.5696
醸	-14.5696
姙	-14.5696
躪	-14.5696
㒋	-14.5696
姹	-14.5696
琩	-14.5696
鈗	-14.5698
礬	-14.5699
沲	-14.5699
䕻	-14.5699
鄏	-14.5699
嚩	-14.5699
澲	-14.5699
㓃	-14.5701
䋈	-14.5702
瞂	-14.5702
䪺	-14.5704
珹	-14.5705
弍	-14.5705
䟐	-14.5705
惷	-14.5705
漑	-14.5708
觖	-14.5708
睍	-14.5708
獰	-14.5708
菱	-14.5708
暵	-14.5708
跏	-14.5708
婔	-14.5708
慵	-14.5708
誒	-14.5708
樨	-14.571
忡	-14.5711
詗	-14.5711
僬	-14.5711
烶	-14.5711
褁	-14.5711
䂖	-14.5712
虩	-14.5712
罨	-14.5715
㒞	-14.5715
㔾	-14.5715
跒	-14.5715
蹣	-14.5715
眳	-14.5718
蝮	-14.5718
醻	-14.5718
珎	-14.5718
跁	-14.5718
珖	-14.5718
埰	-14.5721
䣛	-14.5721
澦	-14.5721
惧	-14.5724
㑰	-14.5724
訧	-14.5727
㳻	-14.5727
趩	-14.5727
譣	-14.573
緲	-14.573
帘	-14.5733
侏	-14.5734
喔	-14.5734
訦	-14.5734
薑	-14.5737
讔	-14.5737
淬	-14.5737
洌	-14.574
怊	-14.5743
蒜	-14.5746
竻	-14.5746
諅	-14.5752
罻	-14.5756
炱	-14.5759
箜	-14.5759
篌	-14.5762
邐	-14.5768
媰	-14.578
㰖	-14.5784
䬰	-14.5784
䢙	-14.5799
釆	-15.5272
醲	-15.5273
邟	-15.5274
逷	-15.5275
辶	-15.5276
輮	-15.5277
躑	-15.5278
跗	-15.5279
豶	-15.528
詻	-15.5281
詷	-15.5282
觢	-15.5283
覡	-15.5284
衖	-15.5285
蚯	-15.5286
蚑	-15.5287
蘬	-15.5288
蘜	-15.5289
蓷	-15.529
蓫	-15.5291
蓡	-15.5292
蒽	-15.5293
蒻	-15.5294
菙	-15.5295
腏	-15.5296
綻	-15.5297
紽	-15.5298
簰	-15.5299
箘	-15.53
筲	-15.5301
竾	-15.5302
禚	-15.5303
硂	-15.5304
砑	-15.5305
皈	-15.5306
癩	-15.5307
癢	-15.5308
瘅	-15.5309
甆	-15.531
瓝	-15.5311
瓔	-15.5312
璱	-15.5313
璯	-15.5314
璒	-15.5315
獑	-15.5316
猢	-15.5317
焙	-15.5318
炡	-15.5319
濋	-15.532
潫	-15.5321
潒	-15.5322
淔	-15.5323
涽	-15.5324
浛	-15.5325
洚	-15.5326
残	-15.5327
歠	-15.5328
歑	-15.5329
歊	-15.533
欏	-15.5331
欃	-15.5332
橛	-15.5333
橚	-15.5334
楦	-15.5335
楔	-15.5336
梔	-15.5337
梐	-15.5338
柑	-15.5339
枒	-15.534
杚	-15.5341
杗	-15.5342
朡	-15.5343
曏	-15.5344
暸	-15.5345
晥	-15.5346
晄	-15.5347
昈	-15.5348
斪	-15.5349
撕	-15.535
揶	-15.5351
揠	-15.5352
揟	-15.5353
捥	-15.5354
捖	-15.5355
挶	-15.5356
戠	-15.5357
懱	-15.5358
懔	-15.5359
愗	-15.536
怩	-15.5361
忸	-15.5362
嶫	-15.5363
崢	-15.5364
峗	-15.5365
岝	-15.5366
嬛	-15.5367
嫏	-15.5368
婭	-15.5369
娩	-15.537
姐	-15.5371
堶	-15.5372
埼	-15.5373
垜	-15.5374
囁	-15.5375
嚀	-15.5376
喀	-15.5377
哩	-15.5378
哄	-15.5379
呴	-15.538
叮	-15.5381
卍	-15.5382
剴	-15.5383
剕	-15.5384
刵	-15.5385
凹	-15.5386
僶	-15.5387
僓	-15.5388
傺	-15.5389
倰	-15.539
俻	-15.5391
俒	-15.5392
侫	-15.5393
侘	-15.5394
乕	-15.5395
䴏	-15.5396
䱄	-15.5397
䯢	-15.5398
䢼	-15.5399
䞉	-15.54
䗶	-15.5401
䔄	-15.5402
䄈	-15.5403
䃣	-15.5404
㷡	-15.5405
㳦	-15.5406
㲙	-15.5407
㦷	-15.5408
㡨	-15.5409
㠻	-15.541
㠶	-15.5411
㝈	-15.5412
㜏	-15.5413
㚃	-15.5414
㓷	-15.5415
𣅿	-15.5416
齠	-15.5417
黵	-15.5418
鸕	-15.5419
鷀	-15.542
鵕	-15.5421
鯔	-15.5422
餖	-15.5423
飣	-15.5424
顣	-15.5425
頄	-15.5426
阽	-15.5427
鐏	-15.5428
鍗	-15.5429
鉷	-15.543
釚	-15.5431
轤	-15.5432
轆	-15.5433
豲	-15.5434
譡	-15.5435
觟	-15.5436
蠨	-15.5437
蝃	-15.5438
蛸	-15.5439
蓿	-15.544
蓩	-15.5441
葇	-15.5442
菼	-15.5443
苜	-15.5444
臃	-15.5445
羕	-15.5446
罭	-15.5447
繦	-15.5448
緍	-15.5449
簜	-15.545
篲	-15.5451
窞	-15.5452
瞫	-15.5453
睴	-15.5454
痁	-15.5455
猪	-15.5456
狽	-15.5457
牷	-15.5458
爋	-15.5459
熰	-15.546
熉	-15.5461
溴	-15.5462
浠	-15.5463
泾	-15.5464
氤	-15.5465
櫻	-15.5466
橒	-15.5467
槄	-15.5468
楅	-15.5469
梲	-15.547
梣	-15.5471
梈	-15.5472
梇	-15.5473
栐	-15.5474
斺	-15.5475
敺	-15.5476
拮	-15.5477
憉	-15.5478
慂	-15.5479
幂	-15.548
嶓	-15.5481
嵳	-15.5482
岢	-15.5483
嫻	-15.5484
嫣	-15.5485
娬	-15.5486
妁	-15.5487
啽	-15.5488
厷	-15.5489
匭	-15.549
匐	-15.5491
匍	-15.5492
儓	-15.5493
倧	-15.5494
倆	-15.5495
䌓	-15.5496
䂬	-15.5497
㞴	-15.5498
㕹	-15.5499
㔠	-15.55
鸉	-15.5501
鷢	-15.5502
鵡	-15.5503
鮀	-15.5504
鬳	-15.5505
髤	-15.5506
骳	-15.5507
騝	-15.5508
餮	-15.5509
餬	-15.551
飪	-15.5511
顇	-15.5512
鎋	-15.5513
錧	-15.5514
鄎	-15.5515
轇	-15.5516
躞	-15.5517
躊	-15.5518
譓	-15.5519
訞	-15.552
訏	-15.5521
螘	-15.5522
蝠	-15.5523
蝙	-15.5524
蚡	-15.5525
蘾	-15.5526
薞	-15.5527
蓨	-15.5528
蒺	-15.5529
蒍	-15.553
葫	-15.5531
荈	-15.5532
茡	-15.5533
胼	-15.5534
翢	-15.5535
翡	-15.5536
髣	-15.5536
絏	-15.5537
紞	-15.5538
箔	-15.5539
睊	-15.554
狟	-15.5541
狁	-15.5542
焬	-15.5543
灡	-15.5544
渣	-15.5545
渑	-15.5546
泱	-15.5547
歹	-15.5548
楣	-15.5549
枤	-15.555
曌	-15.5551
旳	-15.5552
扢	-15.5553
懖	-15.5554
憹	-15.5555
愀	-15.5556
徬	-15.5557
徜	-15.5558
徉	-15.5559
崘	-15.556
妢	-15.5561
奝	-15.5562
嚆	-15.5563
嘐	-15.5564
呦	-15.5565
么	-15.5566
䢱	-15.5567
㥩	-15.5568
噂	-15.5568
㟧	-15.5569
㚟	-15.557
魑	-15.5571
餱	-15.5572
跑	-15.5573
誧	-15.5574
詿	-15.5575
茌	-15.5576
甜	-15.5576
艐	-15.5577
膿	-15.5578
窔	-15.5579
碔	-15.558
砆	-15.5581
璙	-15.5582
涬	-15.5583
洳	-15.5584
洨	-15.5585
椷	-15.5586
撅	-15.5587
捂	-15.5588
戵	-15.5589
戝	-15.559
惽	-15.5591
惹	-15.5592
悈	-15.5593
彄	-15.5594
弅	-15.5595
嵋	-15.5596
姍	-15.5597
壡	-15.5598
圠	-15.5599
匋	-15.56
凸	-15.5601
䱷	-15.5602
䥫	-15.5603
㸁	-15.5604
鳧	-15.5605
鱠	-15.5606
骫	-15.5607
鞻	-15.5608
笱	-15.5608
闤	-15.5609
闠	-15.561
醐	-15.5611
醍	-15.5612
譊	-15.5613
蜍	-15.5614
綢	-15.5615
窬	-15.5616
祋	-15.5617
砲	-15.5618
瓏	-15.5619
獫	-15.562
獗	-15.5621
熛	-15.5622
湓	-15.5623
脗	-15.5623
汐	-15.5624
懊	-15.5624
旛	-15.5625
嫵	-15.5626
堽	-15.5627
囹	-15.5628
嚨	-15.5629
哮	-15.563
俑	-15.5631
侖	-15.5632
嗑	-15.5632
弌	-15.5632
洏	-15.5632
佯	-15.5633
㽦	-15.5634
鴦	-15.5635
鮦	-15.5636
蕺	-15.5637
祩	-15.5638
碏	-15.5639
甪	-15.564
琶	-15.5641
琵	-15.5642
渰	-15.5643
愐	-15.5644
崦	-15.5645
䶵	-15.5646
㬰	-15.5647
㒜	-15.5648
粕	-15.5648
鳲	-15.5649
檇	-15.5649
郔	-15.565
疕	-15.5651
珌	-15.5652
洭	-15.5653
檴	-15.5654
懮	-15.5655
嵯	-15.5656
鎪	-15.5656
峿	-15.5657
喋	-15.5658
咠	-15.5659
僝	-15.566
鮓	-15.5661
餳	-15.5662
靂	-15.5663
輾	-15.5664
湢	-15.5665
洓	-15.5666
渘	-15.5666
欿	-15.5667
朅	-15.5668
擺	-15.5669
媸	-15.567
埵	-15.5671
㲈	-15.5672
糢	-15.5672
癃	-15.5672
㬋	-15.5673
蜥	-15.5674
膂	-15.5675
瑙	-15.5676
梪	-15.5677
枇	-15.5678
惴	-15.5679
嶇	-15.568
獷	-15.568
咷	-15.5681
翿	-15.5682
佟	-15.5683
篝	-15.5684
矻	-15.5685
癭	-15.5686
杷	-15.5687
嘵	-15.5688
踳	-15.5689
蟋	-15.569
玥	-15.5691
嵕	-15.5692
齬	-15.5693
齟	-15.5694
綮	-15.5695
晜	-15.5696
鞌	-15.5696
倀	-15.5697
芍	-15.5698
崆	-15.5699
罘	-15.57
碌	-15.5701
滏	-15.5702
彠	-15.5703
垞	-15.5704
弎	-15.5704
笁	-15.5705
湞	-15.5706
痘	-15.5707
芣	-15.5708
翛	-15.5709
堉	-15.571
礜	-15.5711
櫽	-15.5712
媞	-15.5713
岣	-15.5714
疹	-15.5715
釲	-15.5716
瓿	-15.5717
悢	-15.5718
湣	-15.5719
挲	-15.572
裓	-15.5721
廂	-15.5721
燉	-15.5722
郙	-15.5723
侂	-15.5724
匈	-15.5725
檮	-15.5726
陔	-15.5727
閿	-15.5728
徘	-15.5729
昀	-15.573
驃	-15.5731
彿	-15.5732
牴	-15.5733
>	-15.5734
=	-15.5735
3	-15.5736
"	-15.5737
鸇	-15.5737
