<unk>	0
<s>	0
</s>	0
/	-3.45989
之	-3.53718
)	-3.65018
(	-3.67012
也	-3.84532
而	-4.20336
者	-4.5218
以	-4.5285
則	-4.56487
其	-4.7119
不	-4.7244
故	-4.97567
為	-4.97831
有	-5.0426
於	-5.12931
)(	-5.19262
人	-5.27384
無	-5.37675
謂	-5.49103
言	-5.59469
曰	-5.60852
事	-5.66128
一	-5.67578
君	-5.71396
與	-5.7856
行	-5.79257
必	-5.79846
矣	-5.809
爲	-5.8422
此	-5.86111
民	-5.87036
國	-5.90995
能	-5.91581
令	-5.91741
所	-5.95519
得	-5.96882
上	-5.98186
大	-6.02108
臣	-6.04767
用	-6.06928
非	-6.08592
知	-6.09643
法	-6.10315
下	-6.12769
使	-6.13317
子	-6.13954
道	-6.1553
乃	-6.18405
可	-6.20918
生	-6.21239
自	-6.27563
至	-6.28571
主	-6.29
見	-6.29571
中	-6.30059
是	-6.30112
官	-6.30263
王	-6.32054
時	-6.32321
皆	-6.34388
出	-6.34435
乎	-6.3543
夫	-6.38901
死	-6.39688
公	-6.40582
重	-6.41077
因	-6.42003
利	-6.42026
若	-6.42501
故曰	-6.43091
明	-6.44065
欲	-6.44565
當	-6.44898
三	-6.45943
治	-6.46017
而不	-6.46422
正	-6.48336
在	-6.49194
相	-6.51509
失	-6.54127
立	-6.57825
心	-6.58293
已	-6.58982
不能	-6.59739
物	-6.59773
名	-6.59799
▁	-6.60589
理	-6.60919
雖	-6.62488
五	-6.63243
今	-6.65473
從	-6.6583
成	-6.67611
兵	-6.69193
多	-6.69599
既	-6.71766
將	-6.71889
吏	-6.72089
亦	-6.73287
天下	-6.7364
地	-6.73761
士	-6.74555
然	-6.75166
善	-6.7708
數	-6.77218
賞	-6.77482
二	-6.77605
同	-6.7764
焉	-6.77715
衆	-6.77799
取	-6.7792
四	-6.77959
齊	-6.78824
後	-6.79455
家	-6.79587
亂	-6.80028
不可	-6.80035
又	-6.80567
刑	-6.81158
殺	-6.82736
政	-6.82814
所以	-6.84626
安	-6.85949
日	-6.86303
外	-6.87016
舉	-6.8715
反	-6.87752
先	-6.87981
如	-6.8861
長	-6.89083
分	-6.89663
常	-6.89704
本	-6.90321
功	-6.90665
内	-6.91075
問	-6.91203
服	-6.91621
盡	-6.92763
天	-6.93196
食	-6.93334
入	-6.93349
守	-6.93441
身	-6.945
過	-6.94564
遂	-6.95477
小	-6.96441
去	-6.97031
水	-6.97612
作	-6.97912
力	-6.98646
德	-6.98663
輕	-6.98845
何	-6.99345
制	-6.99487
私	-6.99967
徳	-7.00179
處	-7.01389
及	-7.01933
勝	-7.03411
貴	-7.03464
旣	-7.03521
親	-7.03557
易	-7.06025
賢	-7.061
惡	-7.06103
以為	-7.08336
十	-7.08354
不得	-7.08483
姦	-7.09389
我	-7.09609
猶	-7.09614
義	-7.09952
智	-7.1008
罪	-7.10226
州	-7.10327
亡	-7.10691
未	-7.11639
教	-7.12616
按	-7.12972
者也	-7.13935
信	-7.14267
愛	-7.14458
强	-7.14948
難	-7.14975
禁	-7.14996
百	-7.15264
任	-7.16319
財	-7.16368
戰	-7.16665
實	-7.17486
危	-7.17892
且	-7.18248
即	-7.18282
吾	-7.18531
請	-7.19534
謀	-7.19685
逺	-7.19971
發	-7.20903
或	-7.21203
毋	-7.21588
彼	-7.22474
止	-7.22783
文	-7.22845
命	-7.2491
聞	-7.24964
求	-7.24968
變	-7.24997
固	-7.25781
通	-7.25879
害	-7.25944
凡	-7.2653
來	-7.27255
和	-7.27739
足	-7.28424
書	-7.28616
桓公	-7.28617
馬	-7.28748
藏	-7.28946
合	-7.30543
周	-7.30742
疑	-7.315
禮	-7.31605
可以	-7.31809
○	-7.31829
富	-7.32452
之所	-7.33365
察	-7.33527
定	-7.33875
諸侯	-7.34035
致	-7.34086
居	-7.34194
尊	-7.35021
傷	-7.35369
獨	-7.3577
威	-7.35993
復	-7.36013
意	-7.36288
六	-7.37184
平	-7.40366
動	-7.41105
方	-7.41133
情	-7.41458
母	-7.41583
進	-7.42056
稱	-7.42886
氣	-7.43188
田	-7.43456
異	-7.44112
罰	-7.4416
世	-7.456
耳	-7.45642
髙	-7.46249
順	-7.4627
伐	-7.46433
門	-7.46588
于	-7.46677
執	-7.472
始	-7.47648
疾	-7.47743
云	-7.48494
其所	-7.4875
說	-7.48805
歸	-7.48893
斷	-7.49005
聽	-7.49025
敗	-7.49334
虚	-7.49385
務	-7.49714
權	-7.50387
農	-7.50582
神	-7.50853
辭	-7.51061
誅	-7.5166
縣	-7.51794
盗	-7.51843
計	-7.52088
甚	-7.52346
前	-7.52498
女	-7.52662
樂	-7.53496
卒	-7.53941
受	-7.53958
山	-7.5456
好	-7.55326
勢	-7.55515
盜	-7.5615
修	-7.56263
年	-7.5661
厚	-7.56618
起	-7.57326
獄	-7.57493
備	-7.57494
陽	-7.57918
度	-7.57943
具	-7.5799
鄉	-7.58142
乘	-7.58406
應	-7.5884
形	-7.60006
告	-7.60178
弱	-7.60226
朝	-7.60462
然後	-7.60764
論	-7.60913
脩	-7.60952
少	-7.61043
不敢	-7.61121
九	-7.61287
軍	-7.61839
敵	-7.6203
城	-7.62204
是以	-7.6234
績按	-7.62896
攻	-7.63035
車	-7.63177
施	-7.63252
賊	-7.63431
金	-7.63773
位	-7.6419
怨	-7.65048
秦	-7.65101
里	-7.65249
積	-7.6566
陳	-7.65681
管仲	-7.66128
交	-7.66495
榖	-7.66938
師	-7.67178
近	-7.68413
流	-7.68696
宜	-7.68884
也故	-7.69292
視	-7.71053
化	-7.7117
則民	-7.71295
術	-7.71591
患	-7.71593
節	-7.72128
各	-7.72824
適	-7.73166
隂	-7.74132
設	-7.74306
往	-7.74312
是故	-7.74385
百姓	-7.7444
兩	-7.74667
畏	-7.74916
爭	-7.7492
養	-7.76058
父	-7.76127
聖人	-7.76171
賤	-7.76405
左右	-7.76581
塞	-7.7662
終	-7.76944
怒	-7.77108
敎	-7.77717
間	-7.77823
大夫	-7.78503
張	-7.78563
莫	-7.79103
邪	-7.79222
七	-7.79486
哉	-7.7987
傳	-7.7999
禍	-7.80013
土	-7.80098
美	-7.80273
伏	-7.80344
不足	-7.80355
辯	-7.80447
説	-7.8045
萬物	-7.80532
謂之	-7.80752
趙	-7.80885
益	-7.80936
仁	-7.81598
審	-7.81658
精	-7.82079
觀	-7.82211
敬	-7.82225
不知	-7.82244
召	-7.82523
直	-7.8275
無所	-7.83163
置	-7.83298
彊	-7.83402
器	-7.83426
議	-7.83805
收	-7.83949
屬	-7.83984
所謂	-7.83998
廢	-7.84313
而無	-7.84337
人主	-7.85059
市	-7.85097
唯	-7.85174
粟	-7.85615
諸	-7.85694
國之	-7.85801
餘	-7.86114
加	-7.86265
妻	-7.8686
有所	-7.87022
老	-7.87448
離	-7.88741
比	-7.89955
楚	-7.90006
恐	-7.9059
更	-7.90661
衣	-7.90947
貧	-7.91551
爵	-7.91637
寡	-7.91674
工	-7.91904
存	-7.92091
語	-7.92565
絶	-7.93223
禄	-7.9358
憂	-7.93777
淫	-7.93859
急	-7.9386
勞	-7.93995
其事	-7.94098
對曰	-7.94127
眀	-7.94335
人之	-7.94482
散	-7.94502
滿	-7.95159
體	-7.95241
獲	-7.95447
坐	-7.95806
卑	-7.9583
忠	-7.95837
懼	-7.95842
韓	-7.96178
籍	-7.9622
婦	-7.96969
八	-7.97059
深	-7.97103
䏻	-7.97135
别	-7.97173
府	-7.97717
室	-7.97866
者必	-7.97923
魏	-7.98002
經	-7.98174
氏	-7.98357
南	-7.98436
聴	-7.98523
宋	-7.98736
乗	-7.99015
白	-7.99033
但	-7.99194
汝	-7.99881
木	-7.99886
靜	-8.00072
武	-8.00215
客	-8.00523
夏	-8.006
春	-8.00638
犯	-8.01188
遇	-8.01253
聲	-8.01485
色	-8.01706
果	-8.01768
君子	-8.0177
解	-8.01958
字	-8.01963
将	-8.0199
聚	-8.02092
誣	-8.02288
北	-8.02572
布	-8.02658
操	-8.02703
己	-8.02897
極	-8.03023
等	-8.03341
嵗	-8.03382
飾	-8.03508
太	-8.03552
天子	-8.03612
使人	-8.04344
也今	-8.04443
久	-8.04785
窮	-8.04838
萬	-8.05299
責	-8.05346
遺	-8.05514
詐	-8.05543
口	-8.05576
圖	-8.05711
釋	-8.05733
資	-8.06019
羣臣	-8.06117
一人	-8.0612
右	-8.06151
勸	-8.06184
持	-8.0627
息	-8.06339
晉	-8.06839
推	-8.07063
首	-8.07252
魯	-8.07283
暴	-8.07604
寃	-8.07623
堅	-8.07799
尚	-8.07811
邑	-8.07814
共	-8.07844
聖	-8.08244
民之	-8.08416
幣	-8.08474
之士	-8.08504
石	-8.08528
澤	-8.08558
千	-8.08696
東	-8.08814
譽	-8.08877
霸	-8.09009
薄	-8.09402
舎	-8.09439
牛	-8.09953
興	-8.10128
載	-8.10227
免	-8.10335
古	-8.10502
天下之	-8.10573
君之	-8.10766
俗	-8.10912
然則	-8.10956
附	-8.11306
之事	-8.11457
退	-8.11583
索	-8.1166
巳	-8.11677
待	-8.11767
錢	-8.11855
慮	-8.12391
月	-8.12451
后	-8.1296
於是	-8.12971
濟	-8.13128
量	-8.13135
列	-8.13225
侵	-8.13271
决	-8.13538
徒	-8.13644
唐	-8.13848
囚	-8.13951
游	-8.14001
奪	-8.14147
知其	-8.14368
不以	-8.14588
削	-8.14789
茍	-8.15489
苦	-8.1555
謹	-8.15551
耕	-8.15573
寡人	-8.15965
桓公曰	-8.1601
之人	-8.16094
貨	-8.1624
著	-8.16257
而後	-8.1637
都	-8.16425
冬	-8.16444
業	-8.16447
惠	-8.16512
他	-8.16659
捕	-8.16977
嚴	-8.1703
目	-8.17062
(○	-8.17094
除	-8.17273
勿	-8.17378
也夫	-8.17453
病	-8.17972
就	-8.17976
音	-8.18123
全	-8.18139
夜	-8.18205
李	-8.18839
移	-8.18932
奉	-8.19356
被	-8.19641
原	-8.19685
賞罰	-8.20236
走	-8.20497
驗	-8.20531
人君	-8.20953
火	-8.21381
恃	-8.21434
毁	-8.21442
手	-8.21475
引	-8.21768
良	-8.21946
之所以	-8.22001
由	-8.22119
嘗	-8.22203
巧	-8.2224
商	-8.22628
強	-8.23136
職	-8.236
偽	-8.24032
秋	-8.24067
俱	-8.24116
狀	-8.24249
勇	-8.24793
御	-8.24892
辟	-8.24903
元	-8.25025
荆	-8.25643
争	-8.25778
蔽	-8.25867
之數	-8.25915
之道	-8.25939
豈	-8.27346
糓	-8.27407
代	-8.27488
廣	-8.27634
決	-8.27638
鄭	-8.28365
留	-8.28421
管子對曰	-8.28474
專	-8.28565
冝	-8.28592
賜	-8.28611
風	-8.28658
類	-8.29036
不可以	-8.29328
辨	-8.29416
江	-8.29418
曲	-8.29445
覆	-8.29457
驕	-8.29565
某	-8.30099
救	-8.30134
喜	-8.30389
象	-8.3039
逆	-8.3042
役	-8.30423
㑹	-8.30451
要	-8.30639
衛	-8.30714
其民	-8.30853
思	-8.3096
材	-8.31152
不為	-8.31273
歳	-8.31311
敢	-8.31352
僧	-8.31366
滅	-8.31451
假	-8.32283
倍	-8.33101
習	-8.33231
閒	-8.33246
便	-8.33296
其身	-8.33582
天地	-8.33597
兼	-8.34201
期	-8.3422
司	-8.34229
欺	-8.34278
案	-8.35181
為之	-8.35539
西	-8.35562
妄	-8.356
隨	-8.35782
者不	-8.35886
甲	-8.36116
歲	-8.36121
參	-8.36137
報	-8.36179
左	-8.3618
孫	-8.36272
弟	-8.36341
而民	-8.36513
故能	-8.36533
大臣	-8.36754
末	-8.37105
如此	-8.37287
故不	-8.37637
封	-8.38144
博	-8.38239
開	-8.38282
燕	-8.385
初	-8.38533
▁(	-8.38646
者所以	-8.39026
卿	-8.39028
侯	-8.39056
殺之	-8.39192
至於	-8.39372
簡	-8.39785
輕重	-8.39974
對	-8.4031
愚	-8.40518
容	-8.40623
不用	-8.40636
訟	-8.40981
郡	-8.41236
誠	-8.41296
負	-8.4131
質	-8.4132
穀	-8.42146
郷	-8.42279
承	-8.42354
破	-8.42384
足以	-8.42474
還	-8.42558
草	-8.43222
榮	-8.43463
識	-8.43467
虛	-8.43472
擅	-8.43481
於君	-8.4355
舊	-8.44448
半	-8.44466
惑	-8.44531
此謂	-8.44746
學	-8.44759
公曰	-8.44761
帝	-8.45452
新	-8.45528
盛	-8.45656
父母	-8.45849
聼	-8.46305
寒	-8.46651
志	-8.46659
宻	-8.46708
得其	-8.46962
奚	-8.47318
賦	-8.47456
章	-8.47728
玉	-8.47745
鄰	-8.48602
盖	-8.48836
乆	-8.48843
不行	-8.49037
羣	-8.49186
越	-8.49196
有功	-8.49656
給	-8.497
壤	-8.49933
樹	-8.49984
申	-8.50009
約	-8.50036
均	-8.50087
結	-8.50146
黨	-8.50486
予	-8.50581
知之	-8.50847
並	-8.51166
以爲	-8.51223
困	-8.51267
與之	-8.5127
宣	-8.51717
刀	-8.52308
悉	-8.52329
省	-8.5233
願	-8.52363
寳	-8.52445
用之	-8.52634
鮑叔	-8.53355
酒	-8.53397
筴	-8.53424
望	-8.53434
委	-8.53515
向	-8.53522
寶	-8.53523
儀	-8.53545
宗	-8.53578
隱	-8.53578
此之謂	-8.54079
舍	-8.54169
端	-8.54282
陵	-8.54673
刑罰	-8.54698
寛	-8.54727
枉	-8.54738
孝	-8.55293
明主	-8.55648
則無	-8.55803
虞	-8.5589
殆	-8.55909
愼	-8.5597
使民	-8.56273
人有	-8.56296
法令	-8.5692
則人	-8.56955
黄	-8.57026
十二	-8.57102
戮	-8.57181
須	-8.57188
鹽	-8.58206
送	-8.58303
仲	-8.58357
宿	-8.58375
妾	-8.5838
凶	-8.58399
放	-8.5843
弗	-8.59246
號	-8.59422
顯	-8.59573
衡	-8.59574
也故曰	-8.59588
惟	-8.59601
而求	-8.59893
上下	-8.60132
赦	-8.60158
費	-8.60665
二十	-8.60908
損	-8.60912
緩	-8.60917
逃	-8.60918
福	-8.60932
慎	-8.60947
幸	-8.60954
必有	-8.60968
考	-8.60978
爵禄	-8.60994
貪	-8.61066
失其	-8.6146
雨	-8.61988
牧	-8.62148
射	-8.62197
每	-8.62204
路	-8.62269
以其	-8.62545
賢者	-8.62609
不失	-8.63386
社稷	-8.63421
史	-8.63483
連	-8.635
臨	-8.63501
竭	-8.6352
託	-8.63545
於上	-8.63821
海	-8.64513
避	-8.64564
於人	-8.64838
罷	-8.64864
不勝	-8.64928
不見	-8.65107
其君	-8.65577
其國	-8.65627
迹	-8.65985
雖有	-8.66018
征	-8.66076
遣	-8.66114
静	-8.66124
胡	-8.66136
追	-8.66139
供	-8.66197
授	-8.66197
次	-8.66489
殺人	-8.66584
賈	-8.66682
不如	-8.67039
飲	-8.67178
不當	-8.67384
饑	-8.67409
耶	-8.67426
指	-8.67483
堯	-8.67487
人也	-8.67515
效	-8.67539
衰	-8.67549
古之	-8.67608
宫	-8.67693
則國	-8.68083
訴	-8.68116
之道也	-8.68145
吳	-8.68776
是也	-8.68784
素	-8.6885
其人	-8.69557
公子	-8.69607
斯	-8.69928
聞之	-8.69973
戒	-8.70208
閉	-8.70238
振	-8.70326
如此者	-8.70337
紀	-8.70355
之時	-8.71521
蓋	-8.7164
稽	-8.71704
清	-8.71823
鍾	-8.72429
子之	-8.72439
之國	-8.72538
一曰	-8.72882
并	-8.73001
梁	-8.73031
徃	-8.73058
叅	-8.73072
懐	-8.73079
校	-8.73083
典	-8.73084
不足以	-8.7311
擊	-8.73122
高	-8.73124
夷吾	-8.73247
莫不	-8.73827
於天下	-8.73849
之心	-8.74009
則是	-8.74062
其功	-8.74373
於民	-8.74425
折	-8.74499
徴	-8.74534
耳目	-8.74701
不服	-8.74751
婦人	-8.74859
性	-8.74892
之情	-8.75356
先王	-8.75871
憲	-8.75987
伍	-8.76014
慶	-8.76028
之功	-8.76173
不聽	-8.76187
如此則	-8.76864
其罪	-8.77183
曰吾	-8.77356
刼	-8.7746
保	-8.77471
稅	-8.77473
侈	-8.77511
飢	-8.77526
匿	-8.77527
防	-8.77553
之民	-8.77557
許	-8.77986
生也	-8.78236
豐	-8.78889
爾	-8.78934
貸	-8.78964
違	-8.7903
率	-8.79053
厲	-8.79171
人臣	-8.79234
擇	-8.79341
伯	-8.80165
利也	-8.80286
顧	-8.80321
君臣	-8.80388
循	-8.80391
宰	-8.80423
偷	-8.80474
従	-8.80481
切	-8.80486
調	-8.80522
状	-8.80524
輔	-8.8053
表	-8.80532
微	-8.80619
泄	-8.80638
王者	-8.80715
虎	-8.80748
使之	-8.81039
昔者	-8.81293
有司	-8.817
以此	-8.81832
野	-8.82073
有道	-8.82091
辱	-8.82111
道也	-8.82125
補	-8.82163
㣲	-8.8217
第	-8.82743
三年	-8.8322
忘	-8.83238
有餘	-8.83296
無私	-8.83473
者則	-8.83512
再	-8.83549
幾	-8.83617
逐	-8.83621
誤	-8.83672
細	-8.83728
讓	-8.83764
冨	-8.8382
而有	-8.84547
如是	-8.84829
四時	-8.84841
者非	-8.85138
畜	-8.85268
弊	-8.85287
昌	-8.8529
杖	-8.85329
㳺	-8.85339
隠	-8.85399
龍	-8.85407
憎	-8.85458
於外	-8.85484
一日	-8.86036
産	-8.86257
死者	-8.86559
棄	-8.8663
干	-8.8678
試	-8.86879
買	-8.86915
斂	-8.86944
律	-8.86972
卷	-8.8704
篇	-8.87119
為人	-8.8713
仁義	-8.87297
者皆	-8.87614
其主	-8.87832
諸侯之	-8.88145
諫	-8.88223
漢	-8.88434
行之	-8.8845
族	-8.8851
智者	-8.88512
竊	-8.88544
夷	-8.88549
龜	-8.88559
譎	-8.88566
祖	-8.88597
湯	-8.88603
𫝊	-8.88618
繫	-8.88634
據	-8.88651
踰	-8.88658
恱	-8.88672
祭	-8.88679
竒	-8.88689
孤	-8.88692
笑	-8.887
斬	-8.88701
貌	-8.88712
二人	-8.88969
一國	-8.89711
哀	-8.89895
記	-8.89902
尉	-8.90115
道之	-8.90221
河	-8.90238
户	-8.90343
運	-8.90376
録	-8.90435
之言	-8.90927
人不	-8.90944
太子	-8.91542
不善	-8.91774
獻	-8.91953
税	-8.92004
傅	-8.92011
劾	-8.92013
葢	-8.92024
注	-8.92123
壅	-8.92159
種	-8.92766
曰此	-8.9333
民不	-8.93502
仇	-8.93719
造	-8.93801
懷	-8.93817
光	-8.93821
倉	-8.93823
夀	-8.93862
依	-8.93872
華	-8.93874
助	-8.93875
五榖	-8.9421
第十	-8.94232
治國	-8.94319
慈	-8.94634
此言	-8.94707
管子	-8.94934
出於	-8.95245
不治	-8.95463
紂	-8.95496
畢	-8.9551
真	-8.95581
借	-8.95587
縁	-8.95595
肉	-8.95602
不明	-8.9581
然后	-8.95923
人主之	-8.95969
詰	-8.96193
示	-8.96194
管子曰	-8.962
者有	-8.96379
集	-8.96736
恩	-8.96867
其本	-8.97003
賣	-8.97253
充	-8.97342
舜	-8.97421
扵	-8.97448
肅	-8.97458
准	-8.98897
臺	-8.99134
来	-8.99152
呼	-8.99177
塗	-8.99196
堯舜	-8.99201
差	-8.99213
泰	-8.99229
曹	-8.99249
感	-8.9926
皮	-8.99285
奏	-8.9931
雜	-8.99332
不及	-8.9952
無不	-9.00078
之罪	-9.00084
不然	-9.00158
改	-9.00218
在於	-9.00479
生於	-9.00647
徐	-9.00787
營	-9.00846
驚	-9.009
庶	-9.00945
詔	-9.01063
天地之	-9.01094
築	-9.01105
付	-9.01108
泉	-9.01124
累	-9.01135
佚	-9.0116
淵	-9.0117
密	-9.0118
屍	-9.01198
度量	-9.0133
未嘗	-9.0134
不相	-9.01605
人之所	-9.01619
關	-9.01638
明君	-9.0252
奈何	-9.02723
萬民	-9.02768
以成	-9.02881
兒	-9.02954
池	-9.02984
祿	-9.03032
束	-9.03068
屈	-9.03072
接	-9.03084
羙	-9.03099
亟	-9.03107
寧	-9.03175
而欲	-9.03254
其子	-9.03336
不從	-9.0368
尹	-9.04711
辜	-9.04958
魚	-9.04973
其家	-9.04974
吉	-9.04979
鬼神	-9.05076
獸	-9.05119
弃	-9.05129
行也	-9.05164
爲之	-9.05426
不同	-9.05638
寵	-9.06308
用也	-9.06834
其妻	-9.06875
所惡	-9.06904
尸	-9.06929
建	-9.0694
忽	-9.06954
舟	-9.06975
革	-9.06976
佐	-9.0699
完	-9.06991
選	-9.06992
空	-9.07044
矜	-9.07055
煩	-9.07059
而不能	-9.07061
寄	-9.07085
熟	-9.07089
於國	-9.07216
號令	-9.07227
而立	-9.07408
訊	-9.07437
况	-9.07472
國家	-9.07479
得之	-9.07869
問曰	-9.07947
理也	-9.08066
鄰國	-9.08089
父子	-9.08311
人皆	-9.08589
之地	-9.08777
齊國	-9.08929
叔	-9.08999
矢	-9.09011
贓	-9.09037
績	-9.09045
徙	-9.09055
什	-9.09066
愈	-9.09133
其言	-9.09151
莫敢	-9.09158
其意	-9.09273
以法	-9.0977
問之	-9.10279
矣故	-9.10342
姓	-9.10392
誅之	-9.10429
賢人	-9.10446
特	-9.10744
不必	-9.10887
有過	-9.10938
仲父	-9.10946
部	-9.10948
擒	-9.1104
恥	-9.11066
境	-9.11082
恭	-9.11084
黒	-9.11132
遷	-9.11135
呉	-9.11141
青	-9.11151
遠	-9.11159
誰	-9.11162
背	-9.11175
根	-9.11181
趨	-9.11185
人者	-9.11197
丗	-9.11211
雪	-9.11213
者幾何人	-9.11357
是謂	-9.11758
所欲	-9.11831
而成	-9.12204
百官	-9.12525
明日	-9.12655
其名	-9.12854
不爲	-9.13131
者可亡也	-9.13166
會	-9.1321
劒	-9.13307
鼓	-9.13328
柄	-9.13399
之術	-9.13655
四方	-9.13955
朋黨	-9.14287
民無	-9.1475
各有	-9.14857
何也	-9.14869
投	-9.15051
弑	-9.15104
以待	-9.1517
則君	-9.15243
上之	-9.15284
井	-9.15301
忠臣	-9.1532
於法	-9.15323
詣	-9.15326
隣	-9.15409
縱	-9.15409
苟	-9.15411
而去	-9.15412
血	-9.15414
履	-9.15463
喪	-9.15468
符	-9.15488
喻	-9.15622
證	-9.15719
法而	-9.15733
日月	-9.1576
服罪	-9.16127
為天下	-9.16345
不成	-9.16911
正也	-9.16961
其利	-9.16962
三日	-9.16976
隂陽	-9.1747
季	-9.17557
壌	-9.1756
而行	-9.17566
飬	-9.17567
認	-9.17573
曽	-9.17626
荒	-9.17674
登	-9.17688
掩	-9.17693
徧	-9.17713
側	-9.1777
若干	-9.17795
貞	-9.17805
彌	-9.17839
察其	-9.17848
不肖	-9.17989
以相	-9.18152
三月	-9.18166
貴賤	-9.18388
小人	-9.18945
而得	-9.19035
法者	-9.19343
王之	-9.19606
千里	-9.19668
郭	-9.19829
崇	-9.19864
到	-9.19907
否	-9.19935
川	-9.1995
闗	-9.19962
庭	-9.19962
浮	-9.19968
似	-9.19969
駕	-9.19987
司馬	-9.20003
圍	-9.20007
席	-9.20016
繁	-9.20035
落	-9.20081
春秋	-9.20113
不至	-9.20353
其情	-9.20357
其所以	-9.20375
轉	-9.205
盡力	-9.20773
可謂	-9.20835
之意	-9.20918
令人	-9.21251
未有	-9.21673
人心	-9.21679
忍	-9.21771
而好	-9.2186
成功	-9.21926
丞	-9.22039
錯	-9.22171
㡬	-9.22186
鳥	-9.22223
薦	-9.22227
劫	-9.22237
仲尼	-9.22244
羽	-9.22263
毒	-9.22264
桀紂	-9.22298
最	-9.22318
焚	-9.22327
純	-9.22331
谷	-9.22371
則必	-9.22401
草木	-9.22411
之患	-9.22748
仕	-9.23207
管仲曰	-9.2368
治之	-9.23875
法制	-9.23988
見本	-9.24189
則不	-9.24388
薛	-9.24399
堂	-9.24463
故明法曰	-9.24467
祥	-9.24504
桓公曰何謂	-9.24552
刺	-9.24564
歛	-9.24567
三十	-9.24598
殘	-9.24644
挾	-9.24655
育	-9.24668
莊	-9.24678
輙	-9.24687
齒	-9.24729
則民不	-9.25054
則有	-9.25224
姦邪	-9.25336
男	-9.25644
之法	-9.25657
子産	-9.25673
者其	-9.25683
昔	-9.25781
臣下	-9.26021
之臣	-9.26048
治民	-9.26112
治也	-9.26451
夫人	-9.26543
孰	-9.26805
不聞	-9.26913
劉	-9.27003
距	-9.27032
與人	-9.27041
覺	-9.27045
降	-9.27046
廉	-9.27078
迎	-9.27086
邊	-9.27108
無常	-9.27115
慕	-9.27117
取之	-9.27148
骨	-9.27172
序	-9.27174
招	-9.27232
尺	-9.27234
於下	-9.27294
在上	-9.27427
亂也	-9.27705
見其	-9.2778
有常	-9.279
利而	-9.27996
事之	-9.28001
何以	-9.28219
法也	-9.28229
何謂	-9.28246
王曰	-9.2825
而已	-9.2827
矣夫	-9.28305
事也	-9.2846
君不	-9.28743
莫之	-9.28859
取其	-9.28877
民者	-9.28982
談	-9.29081
此皆	-9.29099
昭	-9.29122
有三	-9.29206
燭	-9.29499
庸	-9.29506
蓄	-9.29521
監	-9.29533
詳	-9.2956
無功	-9.29567
桀	-9.29573
靈	-9.29582
領	-9.29584
劵	-9.29597
冦	-9.29609
險	-9.29616
咸	-9.2963
濫	-9.29633
㓜	-9.29683
註	-9.29684
虧	-9.29692
民有	-9.29816
無形	-9.3034
不信	-9.30358
兄	-9.30575
不可得也	-9.30867
從而	-9.31099
百里	-9.31104
則亂	-9.31345
其私	-9.31464
墨	-9.31483
二曰	-9.31781
不通	-9.318
孟	-9.32013
友	-9.3206
旅	-9.32069
䡄	-9.32085
讎	-9.32099
騐	-9.32117
寺	-9.32131
贖	-9.32159
速	-9.32161
趣	-9.32162
杜	-9.32198
壽	-9.32224
頭	-9.32247
詭	-9.3232
舉事	-9.32363
泣	-9.32408
籍於	-9.328
慝	-9.32816
事者	-9.33273
第二十	-9.3329
聖王	-9.33302
安得	-9.33416
以告	-9.3343
文王	-9.33684
屋	-9.33843
無以	-9.33917
其心	-9.34075
其臣	-9.34221
景	-9.34295
是非	-9.34645
廩	-9.3465
葬	-9.34695
随	-9.34706
貲	-9.34714
毆	-9.34719
黃	-9.34722
楊	-9.34731
甞	-9.34739
丘	-9.34745
延	-9.34747
廷	-9.34761
社	-9.34772
畫	-9.34782
肥	-9.34788
攝	-9.3479
揚	-9.34792
刃	-9.34794
匡	-9.34796
遁	-9.34815
悔	-9.34817
亷	-9.34818
餓	-9.34821
戎	-9.34826
葉	-9.34847
姑	-9.34878
境内	-9.3488
兄弟	-9.3489
不立	-9.34913
亦不	-9.34991
太守	-9.35119
甲兵	-9.35159
無益	-9.35273
不正	-9.35303
或曰	-9.35309
時有	-9.35884
疑之	-9.35981
不死	-9.36012
武王	-9.36143
文公	-9.3619
國有	-9.36228
用其	-9.36228
富者	-9.36406
之行	-9.36487
者謂之	-9.36575
五十	-9.36606
而食	-9.36903
薪	-9.37382
嫗	-9.37382
鬼	-9.37461
觧	-9.37463
弓	-9.37467
慢	-9.37494
候	-9.37503
凢	-9.37513
優	-9.37518
於身	-9.37521
醉	-9.37574
割	-9.37578
契	-9.37611
者何也	-9.37679
善者	-9.3794
之勢	-9.38258
之至	-9.38334
危矣	-9.38498
何如	-9.38778
未必	-9.38807
則臣	-9.38811
故民	-9.38988
其道	-9.3928
為國	-9.39317
不可得	-9.39333
山之	-9.39352
所愛	-9.39367
疏	-9.3941
必不	-9.39487
管	-9.39712
子曰	-9.40064
姦臣	-9.40077
繩	-9.40197
面	-9.40197
不䏻	-9.40198
桑	-9.40213
休	-9.40216
侮	-9.40223
僕	-9.40237
厭	-9.40243
哭	-9.40275
苛	-9.40281
味	-9.40283
達	-9.40299
則主	-9.40311
狗	-9.40328
戴	-9.40334
遽	-9.40335
圉	-9.40348
總	-9.40348
幼	-9.40377
悲	-9.4039
飲食	-9.40518
民力	-9.40572
然而	-9.40598
二子	-9.41061
法度	-9.41326
之政	-9.41348
桓	-9.41499
其上	-9.41511
不察	-9.41604
人情	-9.41613
予之	-9.41705
用兵	-9.41968
䟽	-9.42207
無有	-9.42388
民之所	-9.42482
短	-9.42729
孔	-9.42735
其德	-9.42858
十日	-9.42928
惰	-9.42929
減	-9.43013
而出	-9.43039
衍	-9.43051
騎	-9.43052
戚	-9.43066
輿	-9.43077
悦	-9.431
襲	-9.43103
潔	-9.43112
旁	-9.43118
馳	-9.4312
飛	-9.43122
規	-9.43123
維	-9.43124
亮	-9.43134
隆	-9.43148
督	-9.4316
遊	-9.43169
遵	-9.43174
専	-9.43184
凌	-9.43186
什伍	-9.43189
鐘	-9.43189
怠	-9.43192
沈	-9.43207
親戚	-9.43213
掌	-9.43229
靡	-9.43229
軌	-9.43235
甘	-9.43283
五官	-9.43335
而自	-9.43363
使者	-9.43763
天道	-9.43993
君人者	-9.4433
視之	-9.44357
比周	-9.44722
神明	-9.44833
有罪	-9.45108
奪之	-9.45535
此其	-9.45553
亦可	-9.45579
為政	-9.45596
萬人	-9.45617
衆人	-9.45617
鞫	-9.45735
利害	-9.45805
械	-9.45809
卜	-9.45862
按此	-9.45937
鈎	-9.45945
躁	-9.4596
掠	-9.45968
歟	-9.45982
鄙	-9.45984
偶	-9.45984
蘇	-9.45998
拙	-9.46011
宅	-9.46031
況	-9.46039
究	-9.46039
竟	-9.46046
柔	-9.46066
帥	-9.46073
忿	-9.46118
飯	-9.46136
城郭	-9.46147
倚	-9.4617
然也	-9.46187
赴	-9.46204
星	-9.46225
不聴	-9.46234
少年	-9.46382
曰寡人	-9.4648
道者	-9.46539
此三者	-9.46942
其勢	-9.4701
之謂也	-9.4702
何不	-9.47099
民也	-9.47151
之理	-9.47309
不求	-9.47735
爲天下	-9.47761
者王	-9.4789
治者	-9.47992
無敵	-9.48039
必先	-9.48102
於此	-9.48138
有善	-9.48319
盡其	-9.48412
二者	-9.48561
胥	-9.48819
主之	-9.4898
廟	-9.49015
鼔	-9.49031
䘮	-9.49034
禱	-9.49038
勉	-9.49039
誘	-9.49055
恵	-9.49056
宗廟	-9.4906
裕	-9.49061
嫁	-9.49062
男女	-9.49064
鎮	-9.49087
儒	-9.49116
麻	-9.49123
希	-9.49132
援	-9.49143
古者	-9.49146
絲	-9.49164
横	-9.4918
穴	-9.49205
偏	-9.49212
出入	-9.49218
之後	-9.49282
凡此皆	-9.49309
所撰	-9.4933
小白	-9.4942
水之	-9.4959
事君	-9.49687
敵國	-9.49998
而已矣	-9.50187
君臣之	-9.50224
守其	-9.50305
十餘	-9.50418
之術也	-9.505
以事	-9.50748
不與	-9.50759
曰我	-9.50859
詰之	-9.50915
致死	-9.50928
不親	-9.51085
之間	-9.51157
通於	-9.512
宫室	-9.51259
亡國	-9.51524
壹	-9.51978
讀	-9.5207
桓公問於管子曰	-9.5208
嗣	-9.52087
鬻	-9.52088
理則	-9.52098
賔	-9.52102
刻	-9.52112
儉	-9.52125
逮	-9.52132
糺	-9.52133
邦	-9.52138
夕	-9.52149
村	-9.52168
勤	-9.52174
賀	-9.52183
帛	-9.5219
殷	-9.52195
銀	-9.52206
蔡	-9.5221
収	-9.52216
限	-9.52233
踈	-9.52244
嗇	-9.5225
鬭	-9.52252
鈞	-9.52275
環	-9.52298
豪	-9.52306
珠玉	-9.52389
法術	-9.52535
不忍	-9.52674
可得而	-9.52806
使其	-9.5282
問其	-9.52936
霸王	-9.53024
兵弱	-9.53036
未可	-9.53064
管仲對曰	-9.53178
舊集不載	-9.53271
則能	-9.5345
出令	-9.53497
不生	-9.53648
莫能	-9.53728
智能	-9.53787
也若	-9.53794
以治	-9.53895
歸之	-9.53977
其地	-9.53979
之實	-9.54152
有大	-9.54467
從事	-9.54699
必得	-9.54734
則上	-9.54884
在下	-9.54898
告之	-9.54935
曰夫	-9.54948
撰	-9.55226
京	-9.55291
茅	-9.5532
程	-9.55337
沒	-9.55361
脫	-9.55386
機	-9.55404
擁	-9.55461
㝷	-9.55463
貳	-9.55486
之本也	-9.55493
闕	-9.55496
禹	-9.55511
佯	-9.5555
露	-9.55577
可以為	-9.55597
山澤	-9.5565
無名	-9.557
死也	-9.55719
六者	-9.55883
萬物之	-9.55918
人無	-9.56169
多少	-9.56376
重於	-9.56432
以致	-9.56713
富貴	-9.56733
農夫	-9.56747
三人	-9.56766
事而	-9.56858
禮義	-9.56885
而上	-9.57089
臣之	-9.57325
必以	-9.57419
者以其	-9.57563
今夫	-9.5771
湯武	-9.57748
者衆	-9.57787
之狀	-9.57796
親也	-9.57809
競	-9.57914
察之	-9.57973
有私	-9.58021
制也	-9.58171
夢	-9.58638
故有	-9.58658
釡	-9.58664
珠	-9.58682
朱	-9.58698
陷	-9.58698
詩	-9.58701
凖	-9.58721
脅	-9.58738
徵	-9.58744
納	-9.58759
璧	-9.58764
鬬	-9.58765
桓公曰諾	-9.58771
條	-9.58782
冠	-9.58784
鼎	-9.58788
檢	-9.58792
盈	-9.58809
矯	-9.58828
叛	-9.58851
殊	-9.58857
貫	-9.58857
狄	-9.58866
却	-9.58881
傲	-9.589
以刑	-9.59035
賢不肖	-9.59131
枝	-9.59148
無道	-9.59356
以知	-9.59432
相與	-9.59622
官爵	-9.59689
數也	-9.597
害也	-9.59786
先王之	-9.59825
之禮	-9.60004
亦有	-9.60127
以自	-9.60194
盡心	-9.60752
守之	-9.60891
明也	-9.60892
十年	-9.61496
傑	-9.61501
行私	-9.61589
若夫	-9.61643
亡也	-9.61663
守法	-9.61694
而死	-9.61851
所撰墓誌	-9.61966
繼	-9.61977
主也	-9.61982
三曰	-9.62036
四者	-9.62119
謁	-9.62138
乾	-9.62139
謗	-9.62147
旦	-9.62151
裁	-9.62189
臣聞	-9.62207
戸	-9.6221
陸	-9.62217
僞	-9.6222
仰	-9.62221
克	-9.62234
蕭	-9.62257
才	-9.62271
角	-9.62297
六畜	-9.62304
禽獸	-9.62309
壞	-9.6234
伺	-9.62345
九竅	-9.62378
汚	-9.62388
沉	-9.624
握	-9.62426
勝敵	-9.62485
而復	-9.62742
忠信	-9.62791
非所	-9.62798
進退	-9.62827
以求	-9.62835
從之	-9.62864
本傳	-9.62914
成也	-9.62928
伏罪	-9.6297
七十	-9.63073
不任	-9.63314
其智	-9.63373
見之	-9.63542
不審	-9.63694
於内	-9.63849
而下	-9.63918
數日	-9.64171
乃令	-9.64296
自治	-9.64441
者無	-9.64468
愛之	-9.64487
大國	-9.64695
衆而	-9.64724
而止	-9.64822
曰君	-9.64826
食之	-9.6506
天時	-9.65186
請以	-9.65318
州有	-9.65458
萌	-9.65514
敞	-9.65576
有功者	-9.65599
問於	-9.65606
恕	-9.65617
式	-9.65651
嘉	-9.65689
拜	-9.65721
怪	-9.65722
袁	-9.65724
祝	-9.6573
侍	-9.65735
旱	-9.65757
兆	-9.6576
論其	-9.65768
暮	-9.6579
缺	-9.6579
刄	-9.65795
諭	-9.65796
得其情	-9.65801
提	-9.65801
迷	-9.6583
朝廷	-9.65835
林	-9.65844
漏	-9.65847
靖	-9.65865
僻	-9.65875
壯	-9.65876
自然	-9.65891
若此則	-9.65924
謝	-9.65935
郎中	-9.65968
船	-9.65981
此二者	-9.65987
為人臣者	-9.6599
用力	-9.66092
觀其	-9.66189
故善	-9.66254
所用	-9.66358
無得	-9.66388
國治	-9.66699
行則	-9.66712
不在	-9.66726
於地	-9.66863
有人	-9.66903
其夫	-9.66909
者也故	-9.66945
之計	-9.66951
治天下	-9.6731
事無	-9.67358
必知	-9.67476
不動	-9.67566
三者	-9.67665
思之	-9.6767
重人	-9.67686
難也	-9.67698
利之	-9.67841
疑其	-9.68054
其父	-9.68145
德也	-9.68213
襄	-9.68409
合於	-9.68573
好惡	-9.68682
視其	-9.6875
也是以	-9.68804
之吏	-9.68809
賂	-9.69067
先生	-9.69119
之分	-9.69206
余	-9.69225
菜	-9.69301
㢘	-9.69319
孔子	-9.69338
噐	-9.6938
與其	-9.6938
巨	-9.69406
羊	-9.69407
尤	-9.69409
詞	-9.69414
飽	-9.6942
痛	-9.69424
租	-9.69459
續	-9.69462
𬒳	-9.69498
藉	-9.69508
畧	-9.69513
悟	-9.69514
介	-9.69516
毛	-9.69518
僇	-9.69527
規矩	-9.69531
人臣之	-9.69538
閭	-9.69553
脱	-9.69566
摶	-9.69589
繋	-9.69621
帶	-9.69628
黨與	-9.69655
令行	-9.69684
搏	-9.69737
求之	-9.69788
之利	-9.69823
不違	-9.69831
其母	-9.69835
明於	-9.69838
故人	-9.70211
其下	-9.70381
當死	-9.70448
衣食	-9.70535
請問	-9.70752
勝之	-9.70797
三百	-9.70805
為君	-9.70945
而易	-9.70956
世主	-9.71239
君曰	-9.71377
則治	-9.71424
法則	-9.71643
莫如	-9.71721
世之	-9.71836
則下	-9.71915
大功	-9.71945
不眀	-9.72087
曰子	-9.72225
不可使	-9.72273
而輕	-9.72297
外内	-9.72385
可使	-9.72407
中山	-9.72422
桓公曰善	-9.72568
則不可	-9.72864
輩	-9.73185
雲	-9.732
穫	-9.73206
所以為	-9.73213
樸	-9.73244
臧	-9.73249
讐	-9.73258
猛	-9.73264
米	-9.73274
鐵	-9.73282
頗	-9.73283
繆	-9.73307
輸	-9.73309
鑿	-9.73325
恤	-9.73327
廪	-9.73338
弋	-9.73353
懸	-9.73366
傾	-9.73367
祀	-9.73368
略	-9.7338
狂	-9.73393
諌	-9.73395
歡	-9.73396
蚤	-9.73413
溝	-9.7342
匱	-9.73425
謙	-9.73426
拘	-9.73438
牽	-9.73447
徑	-9.73494
商賈	-9.73502
於市	-9.73516
以上	-9.73584
海内	-9.73592
乗馬	-9.73639
牛馬	-9.73713
晏子	-9.73718
爲國	-9.73739
乘馬	-9.73954
官職	-9.74163
而任	-9.74182
而歸	-9.74238
者何	-9.7427
哀公	-9.74334
十六	-9.74461
可知也	-9.74491
至而	-9.74526
而國	-9.74612
人則	-9.74766
前後	-9.74893
人曰	-9.75206
而知	-9.75467
髙下	-9.75493
舉兵	-9.75634
燕王	-9.76184
夫民	-9.76231
故聖人	-9.76307
察姦	-9.76359
匠	-9.7645
以利	-9.76527
知也	-9.76681
人所	-9.76736
姦人	-9.76748
忌	-9.76904
不義	-9.76908
丈	-9.76958
法立	-9.76995
農事	-9.77013
亊	-9.77184
糴	-9.77235
訪	-9.77251
豫	-9.77298
獵	-9.77299
謟	-9.77351
訾	-9.77352
寢	-9.77364
之所生	-9.77369
羞	-9.7737
湏	-9.77374
罪人	-9.77377
旬	-9.77385
杞	-9.77397
毎	-9.77399
驅	-9.77408
拔	-9.77415
活	-9.77422
昭侯	-9.77431
撃	-9.77437
旗	-9.77437
級	-9.77437
配	-9.77439
舊出	-9.77448
倒	-9.77452
料	-9.77498
枯	-9.77511
偃	-9.77526
敦	-9.77538
蟲	-9.77542
叔孫	-9.77544
簡公	-9.77889
景公	-9.78043
也然	-9.78123
舉目	-9.78173
也凡	-9.78177
而亂	-9.78182
故不可	-9.78381
不復	-9.78388
無度	-9.78401
若何	-9.7841
去之	-9.78421
士卒	-9.78589
之事也	-9.78598
不禁	-9.7864
也且	-9.78719
鮑叔曰	-9.78721
為善	-9.78733
用此	-9.78887
賢而	-9.78928
不止	-9.79125
其位	-9.79127
信之	-9.79278
先後	-9.79527
此亦	-9.79534
齊之	-9.79674
死而	-9.79787
身死	-9.7984
臣有	-9.79917
故先王	-9.8003
曰臣	-9.80334
以重	-9.80371
重也	-9.80376
貴而	-9.80477
明矣	-9.80516
而主	-9.80771
之禍	-9.80787
數人	-9.80834
不可不	-9.80964
無罪	-9.81134
欲以	-9.81172
後漢	-9.81254
咎	-9.81275
行其	-9.8128
恣	-9.81336
醫	-9.81368
州刺史	-9.81376
崔	-9.81407
庫	-9.81413
輒	-9.8142
撫	-9.8143
赤	-9.81451
虜	-9.81456
蒸	-9.81466
婢	-9.81468
拂	-9.8147
再拜	-9.81476
縛	-9.81494
支	-9.81495
蒲	-9.81495
抱	-9.815
器也	-9.81516
植	-9.81522
斗	-9.81527
隰朋	-9.81549
召忽	-9.81552
句	-9.81558
造父	-9.81564
轡	-9.81567
雷	-9.81569
揺	-9.81588
印	-9.81597
平公	-9.816
綱	-9.81602
㕘	-9.81634
械器	-9.81655
㫁	-9.81656
苞	-9.81666
漁	-9.8168
莒	-9.81683
圓	-9.81702
見本傳	-9.81721
増	-9.8176
禍福	-9.81762
為非	-9.81778
敝	-9.81789
丞相	-9.818
征伐	-9.81839
其時	-9.81853
其法	-9.81994
故其	-9.82033
此乃	-9.82109
變化	-9.82161
則羣臣	-9.8217
受命	-9.82269
吾欲	-9.82299
十七	-9.82315
之患也	-9.82405
亂主	-9.82419
其實	-9.82728
五年	-9.82777
人以	-9.82794
不聼	-9.829
矣今	-9.83149
王天下	-9.83178
自誣	-9.83222
上有	-9.83359
存亡	-9.83466
勝也	-9.83744
危亡	-9.83746
績按此	-9.83793
用事	-9.83932
十里	-9.83967
之名	-9.84076
立法	-9.84093
也然則	-9.84142
之類	-9.84176
無事	-9.84216
若是	-9.84266
弟子	-9.84391
雖然	-9.84398
逺者	-9.8452
不能自	-9.84546
四時之	-9.84763
其能	-9.85087
焉故	-9.85221
而治	-9.85327
若有	-9.85394
州時	-9.85395
以備	-9.85641
大者	-9.85744
丹	-9.85759
灰	-9.85762
幽	-9.85772
卧	-9.85775
升	-9.85783
糧	-9.85784
則百姓	-9.8579
稷	-9.85802
采	-9.85805
渠	-9.85806
衞	-9.85813
狐	-9.85821
夲	-9.85826
肆	-9.85827
伸	-9.85828
藥	-9.85838
譙	-9.85845
范	-9.85847
鳴	-9.85849
預	-9.8585
鐡	-9.8587
之官	-9.8588
途	-9.8588
乞	-9.85904
的	-9.85905
冶	-9.85909
償	-9.85915
昏	-9.85915
寘	-9.85915
闇	-9.85925
䇿	-9.85942
韓非子卷	-9.85948
熱	-9.8596
權衡	-9.85966
享	-9.85976
翼	-9.85978
詠	-9.85982
照	-9.86019
父兄	-9.8603
瑕	-9.86045
茂	-9.86059
聰明	-9.86061
其後	-9.86112
不勞	-9.86163
知伯	-9.8632
而使	-9.86321
而待	-9.86338
尚書	-9.86348
功也	-9.86364
不救	-9.86515
必誅	-9.86531
不待	-9.86811
可得	-9.87187
藏於	-9.87272
而賞	-9.87289
不受	-9.87357
實也	-9.87463
國貧	-9.87465
矣是故	-9.8754
於道	-9.87541
而不知	-9.87631
荆王	-9.87769
皇	-9.87843
非吾	-9.87845
非所以	-9.87975
其黨	-9.88023
大而	-9.88114
能以	-9.88138
何故	-9.8825
者乃	-9.88347
百萬	-9.88409
不務	-9.8845
為姦	-9.88634
死亡	-9.88883
功名	-9.88883
鄰人	-9.88895
而動	-9.89054
中有	-9.89301
其威	-9.89423
若水	-9.89434
副	-9.89499
縣令	-9.89505
而天下	-9.89554
信也	-9.8956
不肖者	-9.89592
所好	-9.89701
以攻	-9.89705
聖人之	-9.89819
且夫	-9.90061
明主之	-9.90179
躬	-9.90234
郎	-9.90255
季孫	-9.90266
鹿	-9.90282
亭	-9.90303
畆	-9.90305
滋	-9.9031
旋	-9.90325
犬	-9.90348
陶	-9.90349
吴	-9.90354
斤	-9.90354
冀	-9.90359
慧	-9.90361
仞	-9.90363
犀首	-9.90394
棺	-9.90396
殖	-9.90396
尋	-9.90405
宦	-9.90409
壻	-9.9042
宥	-9.90425
訓	-9.90425
牆	-9.90433
涸	-9.90439
壊	-9.90445
御史	-9.90445
述	-9.90446
鞭	-9.90448
禽	-9.90451
黄金	-9.90458
風雨	-9.90461
恒	-9.90463
讒	-9.90491
諂	-9.90491
韓魏	-9.90507
潛	-9.90507
禀	-9.90511
準	-9.90517
漸	-9.90525
矜謹	-9.90527
師曠	-9.90541
統	-9.90569
隙	-9.90593
者亦	-9.90611
黄帝	-9.90612
為一	-9.90684
又有	-9.90752
不然則	-9.90824
不知其	-9.90901
而用之	-9.90969
國無	-9.91003
有時而	-9.91058
之家	-9.91153
無為	-9.9118
命曰	-9.91228
嚴明	-9.91511
自此	-9.9205
孝子	-9.92222
譽之	-9.92312
敗也	-9.92525
皆以	-9.92711
財物	-9.92739
失也	-9.92811
小國	-9.92829
物之	-9.93041
朋	-9.93292
而不見	-9.93311
二君	-9.93364
其徳	-9.93479
寡而	-9.93522
二年	-9.93646
中國	-9.93706
多者	-9.9383
子孫	-9.93838
聞之曰	-9.93913
為證	-9.94023
一事	-9.94042
之命	-9.9412
也是故	-9.94157
後世	-9.9419
於朝	-9.94329
測	-9.94348
有天下	-9.94474
或以	-9.94728
則不然	-9.94745
臣之所	-9.94839
判	-9.94937
將欲	-9.95002
之師	-9.95026
奔	-9.95053
圃	-9.95061
不避	-9.95068
欵	-9.95076
載之	-9.95083
栁	-9.95085
誣服	-9.95094
價	-9.95097
温	-9.95102
怯	-9.95111
悖	-9.95156
灌	-9.95167
暑	-9.95168
歴	-9.9517
牙	-9.95185
衢	-9.95186
狹	-9.95202
曾	-9.95209
媪	-9.95209
㦸	-9.95214
脆	-9.95214
迫	-9.9522
兹	-9.95228
翁	-9.95238
虎豹	-9.95246
賔客	-9.95269
乏	-9.95271
斧	-9.95277
嗜	-9.9528
者多	-9.9529
院	-9.95302
奮	-9.95303
晉陽	-9.95337
行者	-9.95378
齊王	-9.95378
釋寃	-9.95397
夭	-9.95421
虐	-9.95425
近習	-9.95593
第四	-9.95605
其親	-9.95831
衣服	-9.95942
為上	-9.95992
古今	-9.95995
盜賊	-9.96043
弗能	-9.96142
霸王之	-9.96182
器成	-9.96342
有數	-9.96376
居處	-9.9638
命之曰	-9.96539
子婦	-9.96691
守戰	-9.96818
不獲	-9.97001
公曰善	-9.97044
君有	-9.9722
臣臣	-9.97222
明王	-9.97279
隂陽之	-9.97351
内外	-9.97442
立於	-9.97506
不利	-9.97608
觀之	-9.9786
相親	-9.97956
必勝	-9.98038
一言	-9.98039
學者	-9.98055
六十	-9.98202
故爲	-9.98331
法禁	-9.98384
之言也	-9.98423
而不可	-9.98762
心故	-9.98773
而可	-9.98981
有術	-9.99177
不一	-9.99397
十三	-9.99493
皆曰	-9.99506
其行	-9.99638
上不	-9.99638
其處	-9.99823
尺而至於泉	-9.99891
抵	-9.9993
康	-9.99995
烏	-10
覈	-10.0003
巫	-10.0004
㧞	-10.0006
織	-10.0006
善也	-10.0006
紙	-10.0008
蕃	-10.001
扶	-10.001
源	-10.0011
胄	-10.0011
閑	-10.0014
頃	-10.0015
巷	-10.0015
虗	-10.0016
妖	-10.0016
黃金	-10.0017
廵	-10.0017
牒	-10.0017
遍	-10.0017
丁	-10.0018
僃	-10.002
編	-10.0021
廬	-10.0021
國亡	-10.0021
小者	-10.0021
鑒	-10.0022
竝	-10.0022
䝉	-10.0022
瘞	-10.0024
裹	-10.0025
雕	-10.0025
墳	-10.0025
聘	-10.0026
彈	-10.0026
技	-10.0027
五人	-10.0027
疎	-10.0029
彘	-10.0029
版	-10.003
練	-10.0031
爪	-10.0032
不欲	-10.0036
魯君	-10.0041
姓名	-10.0043
簒	-10.0044
予人	-10.0046
滯	-10.0047
懲惡	-10.0049
襄子	-10.005
國亂	-10.0055
貨財	-10.0062
女子	-10.0064
義也	-10.0073
四鄰	-10.0082
五穀	-10.0083
其形	-10.0089
其所欲	-10.011
功勞	-10.0121
曰某	-10.0122
訟者	-10.0124
而誅	-10.0126
十四	-10.0132
獄吏	-10.0149
豈能	-10.0167
不失其	-10.0189
三軍	-10.0191
亦無	-10.0191
人主不	-10.0237
其刑	-10.0243
審其	-10.0249
曰何	-10.0258
此四者	-10.0262
仁也	-10.0277
不食	-10.0283
不使	-10.0304
訊之	-10.0328
其政	-10.0339
事不	-10.0343
死罪	-10.0349
敵人	-10.0351
有一人	-10.0358
出處	-10.0369
初為	-10.038
者謂	-10.0393
何以知	-10.0396
地名	-10.0399
而攻	-10.0399
受之	-10.0414
有一	-10.0414
代之	-10.0431
不亂	-10.0456
四曰	-10.046
明察	-10.0469
天子之	-10.0477
君上	-10.0483
立功	-10.0497
貧者	-10.0504
則草必墾矣	-10.0506
不能以	-10.0514
貢	-10.0522
紫	-10.0523
括	-10.0524
甫	-10.0526
整	-10.0527
舊不著	-10.0528
諱	-10.0529
糶	-10.0529
饒	-10.0532
不幸	-10.0533
箕	-10.0534
唐司空房玄齡注	-10.0538
毀	-10.0538
携	-10.0538
琴	-10.0539
知州	-10.054
屠	-10.0541
剛	-10.0541
不合	-10.0542
藝	-10.0542
竅	-10.0543
曉	-10.0544
詘	-10.0544
疲	-10.0545
早	-10.0546
此所謂	-10.0546
裴	-10.0547
折獄龜鑑	-10.0547
抑	-10.0547
轉運使	-10.0548
劉績	-10.0549
災	-10.055
暗	-10.055
墜	-10.0551
葆	-10.0551
耻	-10.0552
厯	-10.0552
囊	-10.0553
蕩	-10.0554
潤	-10.0554
徹	-10.0555
禦	-10.0555
麗	-10.0555
千萬	-10.0557
擬	-10.0559
者也夫	-10.0559
沮	-10.0559
不若	-10.0562
田宅	-10.0565
之長	-10.0567
子胥	-10.0569
太宰	-10.0569
萬乘	-10.0573
貧賤	-10.0575
千金	-10.0575
忘其	-10.0582
他人	-10.0583
南方	-10.0594
誠信	-10.0596
明法	-10.0601
司理	-10.0608
盗賊	-10.0615
所出	-10.0616
治亂	-10.0619
所說	-10.062
成事	-10.0623
國危	-10.0635
威勢	-10.0644
宫中	-10.0647
諫曰	-10.0653
暴亂	-10.066
如是則	-10.0665
豈非	-10.067
將軍	-10.0677
數年	-10.0682
而忘	-10.0697
親之	-10.0714
無赦	-10.0714
中大夫	-10.0725
則大臣	-10.0733
管仲之	-10.074
也所謂	-10.075
而無私	-10.0772
百吏	-10.0778
隨之	-10.0784
訴於	-10.0784
不盡	-10.081
所載	-10.0836
主人	-10.0837
人主者	-10.085
宋君	-10.0869
則去	-10.0872
逺近	-10.088
韓子	-10.0904
聖王之禁也	-10.0905
爲善	-10.0947
自恃	-10.0962
於主	-10.099
績按言	-10.0992
所在	-10.1001
行人	-10.1016
其可	-10.103
在君	-10.104
不忠	-10.1043
足矣	-10.1046
嚴刑	-10.1049
墾	-10.1081
者必有	-10.1083
不足則加	-10.1084
聰	-10.1085
沙	-10.1086
董	-10.1086
治矣	-10.1087
雍	-10.1088
掾	-10.1089
靑	-10.109
奈何管子對曰	-10.109
芒	-10.1091
本事	-10.1092
岐	-10.1092
譲	-10.1092
搆	-10.1092
淺	-10.1093
融	-10.1093
荘	-10.1093
溺	-10.1094
導	-10.1095
屏	-10.1095
拾	-10.1095
倫	-10.1096
瓊	-10.1097
併	-10.1097
翟	-10.1099
課	-10.1099
凝	-10.11
徧知天下	-10.1101
畝	-10.1101
勘	-10.1102
墮	-10.1102
覈姦	-10.1104
殃	-10.1104
歌	-10.1104
墓	-10.1104
繕	-10.1105
顔色	-10.1106
寗戚	-10.1107
憐	-10.1108
驢	-10.111
披	-10.111
時也	-10.1111
㫖	-10.1112
搖	-10.1113
劔	-10.1113
法術之士	-10.1113
欽定四庫全書	-10.1116
字誤	-10.1123
嬰	-10.1123
巡	-10.1125
聦明	-10.1131
遜	-10.1145
於諸侯	-10.1151
文學	-10.1155
不絶	-10.1158
不顧	-10.1162
爵位	-10.1165
原本	-10.1168
視聽	-10.117
士民	-10.117
聖君	-10.1179
其故何也	-10.1185
農戰	-10.1193
此者	-10.1209
不歸	-10.1209
見也	-10.1211
令曰	-10.1211
故明主	-10.1212
以避	-10.1225
由是	-10.1231
而相	-10.1238
無禮	-10.1253
不過	-10.1256
於前	-10.1263
能服	-10.1273
不疑	-10.1273
為我	-10.1277
心安	-10.1285
所貴	-10.1292
乃召	-10.1297
以觀	-10.1307
國安	-10.1309
少而	-10.1311
千里之	-10.1318
氣也	-10.1341
愛民	-10.1355
所從	-10.1362
自知	-10.1366
何事	-10.1367
其端	-10.137
必待	-10.1388
不平	-10.1404
强者	-10.1415
乃知	-10.1421
食者	-10.1431
五日	-10.1439
若一	-10.1444
名也	-10.1446
得免	-10.1455
類矣	-10.147
民多	-10.1485
有姦	-10.1491
刑賞	-10.1499
謂其	-10.1506
何為	-10.1506
衛君	-10.151
而殺之	-10.1532
之性	-10.1541
其辭	-10.1545
於中	-10.1548
得而	-10.1557
利在	-10.1561
制於	-10.1562
而况	-10.1572
之心而	-10.1575
幾何	-10.1583
書本傳	-10.1584
乃是	-10.1587
樞	-10.1588
不加	-10.1596
而賤	-10.1601
也一曰	-10.1603
而亡	-10.1606
行此	-10.1611
欽定四庫全書管子補注卷	-10.162
君之所	-10.1622
難知	-10.1626
陽氣	-10.1644
臣得	-10.1645
生則	-10.1645
一家	-10.1652
富民	-10.1652
辛	-10.1659
之可也	-10.166
馮	-10.1671
祠	-10.1674
叔向	-10.1676
汙	-10.1676
捜	-10.1678
懦	-10.1678
羿	-10.1679
髪	-10.168
大利	-10.168
邢	-10.168
不可不察也	-10.1681
祐	-10.1681
聦	-10.1682
𥘉	-10.1682
其弟	-10.1682
竪刁	-10.1682
耨	-10.1682
板	-10.1682
牢	-10.1683
叱	-10.1683
榜	-10.1684
鑄	-10.1684
錫	-10.1684
五百	-10.1685
土之次曰五	-10.1685
拷	-10.1685
叩頭	-10.1686
姬	-10.1686
什倍	-10.1686
阿	-10.1686
勑	-10.1688
圗	-10.1688
乙	-10.1689
揣	-10.1689
穿	-10.169
擾	-10.169
斥	-10.169
頓	-10.1691
屨	-10.1691
斬首	-10.1691
子罕	-10.1692
𤣥	-10.1693
罵	-10.1693
稻	-10.1693
也故明主	-10.1694
銳	-10.1695
莅	-10.1696
潘	-10.1696
陰	-10.1696
拒	-10.1697
或有	-10.1697
苴	-10.1698
得之以	-10.1698
惽	-10.1701
生者	-10.1701
掘	-10.1701
滛	-10.1701
詐偽	-10.1703
苗	-10.1703
鬱	-10.1706
臣請	-10.1707
山林	-10.1708
饋	-10.1709
匹夫	-10.1712
期於	-10.1712
辰	-10.1713
陽虎	-10.1715
髙祖	-10.1715
事有	-10.172
既不	-10.1722
不免於	-10.1724
管子輕重	-10.1727
類也	-10.173
鞫之	-10.1736
飲酒	-10.1737
其餘	-10.1739
不安	-10.174
上之所	-10.1745
之憂	-10.1746
績按此言	-10.1751
彭生	-10.1756
往來	-10.1782
恐其	-10.1792
矣然	-10.1793
傷人	-10.1795
臣聞之	-10.1819
子弟	-10.183
不誅	-10.1839
於秦	-10.1841
當時	-10.1843
禮樂	-10.1845
無功者	-10.1846
應之	-10.1848
不應	-10.1855
雖復	-10.1856
也人主	-10.1856
誅罰	-10.1859
官府	-10.1861
衆矣	-10.1865
成名	-10.1871
莫若	-10.1875
行義	-10.1881
雖不	-10.1891
之恩	-10.1891
吕	-10.1901
因而	-10.1908
乎其	-10.1939
十八	-10.1939
貴人	-10.1941
愚者	-10.1948
百金	-10.1951
伐之	-10.1956
爲用	-10.1956
其門	-10.1962
魏王	-10.1977
民皆	-10.1981
君必	-10.1982
既而	-10.1985
奉法	-10.1985
主上	-10.201
又問	-10.2021
可致	-10.2044
百人	-10.2046
越人	-10.2046
不已	-10.2053
之數也	-10.2056
智士	-10.2067
無他	-10.2072
有罪者	-10.2076
所為	-10.2078
以時	-10.2093
己也	-10.2103
以為治	-10.2109
是亦	-10.2111
不孝	-10.2122
非法	-10.2126
之處	-10.2129
今君	-10.213
言曰	-10.2131
土地	-10.2141
日夜	-10.2162
諾	-10.2164
患之	-10.2178
節而	-10.2182
强國	-10.2197
事必	-10.2217
大小	-10.2221
之聲	-10.2226
寡人之	-10.224
君無	-10.2245
彊者	-10.2247
千人	-10.2265
而不止	-10.227
售	-10.228
八十	-10.2286
枚	-10.2288
單	-10.2292
竇	-10.2295
覽	-10.2295
近者	-10.2295
駭	-10.2296
童	-10.2297
秩	-10.2298
焉國用	-10.2299
豆	-10.2299
懌	-10.23
燥	-10.23
蘓	-10.23
舅犯	-10.2301
釜	-10.2301
見王珪丞相	-10.2301
黯	-10.2301
偕	-10.2302
戈	-10.2303
銅	-10.2303
癸	-10.2303
恨	-10.2303
詈	-10.2303
疇	-10.2304
鄴	-10.2304
齋	-10.2304
臭	-10.2305
裏	-10.2305
永	-10.2305
奴	-10.2305
萊	-10.2306
耒	-10.2306
剖	-10.2306
瓦	-10.2307
觴	-10.2308
筆	-10.2309
湖	-10.2309
攘	-10.231
伊尹	-10.231
畒	-10.2311
例	-10.2311
剽	-10.2312
謬	-10.2312
不脩	-10.2312
笞	-10.2313
仍	-10.2313
凡人	-10.2313
釣	-10.2313
柴	-10.2314
奢	-10.2314
𦵏	-10.2315
慤	-10.2315
閲	-10.2315
雄	-10.2316
朽	-10.2316
䑕	-10.2316
誑	-10.2316
宮	-10.2316
贍	-10.2316
洽	-10.2317
出北史	-10.2317
不傷	-10.2318
穢	-10.2319
捨	-10.2319
潜	-10.2319
含	-10.2321
泥	-10.2321
盟	-10.2321
功而	-10.2322
爵祿	-10.2322
蛇	-10.2323
曠	-10.2324
晝	-10.2324
蓄積	-10.2325
念	-10.2325
震	-10.2326
俠	-10.2326
網	-10.2328
凍	-10.2329
妙	-10.2329
短長	-10.2331
布帛	-10.2331
停	-10.2333
香	-10.2333
巧詐	-10.2334
捕獲	-10.2334
舉錯	-10.2336
夘	-10.2336
思慮	-10.2338
佞	-10.2344
莫知其	-10.2344
文侯	-10.2349
不欺	-10.2352
千乘	-10.2353
魯梁	-10.2355
百倍	-10.2356
毁譽	-10.2356
動静	-10.2361
答曰	-10.2362
北方	-10.2371
為己	-10.2383
第三	-10.2387
循理	-10.2391
無忌	-10.2395
不定	-10.2396
不留	-10.2399
妄舉	-10.2403
是故聖人	-10.2405
而用	-10.2414
禁之	-10.2423
進則	-10.2425
終身	-10.2427
之所在	-10.2427
至矣	-10.2429
管子卷第	-10.2445
人主之所	-10.2445
罪也	-10.2448
不廢	-10.2474
不亡	-10.2474
於楚	-10.2475
動作	-10.2476
田常	-10.2477
存乎	-10.2486
精也	-10.2487
右主	-10.2494
家人	-10.25
材能	-10.2502
重禄	-10.2502
無術	-10.2524
已也	-10.2539
安危	-10.2539
齊桓公	-10.2543
以下	-10.2555
仁者	-10.2559
者君	-10.257
羣臣之	-10.2581
說者	-10.2597
於人也	-10.2604
易也	-10.2605
不可復	-10.2615
此人	-10.2624
賈人	-10.2625
長安	-10.2626
此事	-10.2631
今世	-10.2634
至則	-10.266
是以聖人	-10.2665
故明王	-10.268
地形	-10.2684
二事	-10.2698
下令	-10.27
撓	-10.2701
不决	-10.2707
不去	-10.2718
亦然	-10.2719
則雖	-10.272
萬乗	-10.2749
能守	-10.2761
惡也	-10.2762
其在	-10.2781
以力	-10.2785
之臣也	-10.2788
所得	-10.2796
其次	-10.2797
為盗	-10.2814
而名	-10.2821
富人	-10.2828
二國	-10.2835
固守	-10.284
得釋	-10.2841
乃以	-10.2844
令不	-10.2847
之力也	-10.2859
近於	-10.2905
好利	-10.2909
之形	-10.2912
兵不	-10.2913
天之道	-10.2921
上下之	-10.2923
盡也	-10.2937
罕	-10.2944
而臣	-10.2951
矣故曰	-10.296
皆非	-10.2962
黍	-10.2963
宛	-10.2963
隔	-10.2964
韋	-10.2965
輯	-10.2966
邉	-10.2968
歐	-10.2969
允	-10.297
析	-10.2971
峻	-10.2971
顛	-10.2972
官吏	-10.2973
公子開方	-10.2974
濕	-10.2974
晋	-10.2974
纔	-10.2975
賁育	-10.2975
墻	-10.2975
槖	-10.2975
界	-10.2976
潰	-10.2977
窺	-10.2979
垂	-10.2979
松	-10.2979
侏儒	-10.2979
管子補注卷	-10.298
組	-10.298
㠓	-10.298
錄	-10.298
貎	-10.2981
秀	-10.2981
酸	-10.2982
沃	-10.2983
紹	-10.2984
効	-10.2984
閱	-10.2985
愧	-10.2986
衽	-10.2986
折獄	-10.2986
戾	-10.2986
乖	-10.2987
瀆	-10.2987
題	-10.2988
姚	-10.2988
臂	-10.2988
包	-10.2988
嬰兒	-10.2988
鮮	-10.2988
觸	-10.2989
小大	-10.2989
皃	-10.2989
丙	-10.299
䧟	-10.299
勁	-10.299
玩好	-10.2991
䛕	-10.2991
偪	-10.2993
昬	-10.2993
佛	-10.2993
掃	-10.2993
鄧	-10.2993
濁	-10.2994
器械	-10.2995
街	-10.2995
障	-10.2996
藪	-10.2996
天下諸侯	-10.2999
㒵	-10.3
啟	-10.3003
貧窮	-10.3004
相所撰墓誌	-10.3005
寡婦	-10.3007
退而	-10.3007
祭之	-10.3008
鞠	-10.3008
盥	-10.3008
劍	-10.301
丈夫	-10.3011
霜	-10.3012
便辟	-10.3016
選賢	-10.3017
襄公	-10.3018
子雲	-10.3019
金玉	-10.3019
五味	-10.3022
明主之道	-10.3031
西方	-10.3032
罰之	-10.3034
此所以	-10.3037
威嚴	-10.3042
殺戮	-10.3047
勞而	-10.3048
令不行	-10.3056
分職	-10.3058
具獄	-10.3071
五曰	-10.3074
庶子	-10.308
第五	-10.3083
可以得	-10.3092
其首	-10.3098
而行之	-10.31
輕刑	-10.31
五月	-10.3101
不肯	-10.311
救之	-10.3112
貴臣	-10.3112
越王	-10.3113
不信也	-10.3115
之始也	-10.3134
不測	-10.3135
自來	-10.3136
子良	-10.3153
私門	-10.3159
果得	-10.3168
異日	-10.3175
未及	-10.3188
道以	-10.3194
恃其	-10.3203
愚人	-10.3215
明年	-10.3236
以功	-10.3245
此則	-10.3248
一作	-10.329
地之	-10.33
於魯	-10.3305
聖人之治	-10.3313
妻子	-10.3314
為主	-10.3318
其謀	-10.3328
所疑	-10.3332
威權	-10.3335
不亦	-10.3347
徳義	-10.3355
曰不可	-10.3356
得地	-10.3358
不改	-10.3358
以聽	-10.3367
下於	-10.338
以正	-10.3385
國之所以	-10.34
器用	-10.341
大王	-10.3412
而民不	-10.3423
無異	-10.3426
得一	-10.3468
荆人	-10.3476
乗之國	-10.3479
可用也	-10.3486
關市	-10.3489
千乗	-10.3489
成敗	-10.349
以聞	-10.3494
而還	-10.3501
雖多	-10.3504
善惡	-10.3519
二三	-10.3524
曰是	-10.3527
則人不	-10.3529
欲伐	-10.3531
用法	-10.3567
而勿	-10.3576
靜則	-10.3592
擇其	-10.3603
獨行	-10.3609
而使之	-10.3615
行賞	-10.3628
郄	-10.3642
𤓰	-10.3647
加於	-10.366
匹	-10.367
曰爾	-10.3672
憾	-10.3676
冤	-10.3677
封泰山禪云云	-10.3678
洛	-10.368
葛	-10.368
戍	-10.3681
焉得無	-10.3682
屯	-10.3682
紿	-10.3682
治亂之	-10.3683
縳	-10.3683
緒	-10.3684
岸	-10.3684
財貨	-10.3686
屢	-10.3686
嫌	-10.3686
棘	-10.3686
堪	-10.3686
虢	-10.3686
阨	-10.3686
昨	-10.3687
蜀	-10.3687
寂	-10.3687
敺	-10.3688
妬	-10.3689
纂	-10.3689
俾	-10.3689
欣	-10.369
債	-10.369
店	-10.3691
逸	-10.3691
毅	-10.3692
晩	-10.3692
梟	-10.3693
渙	-10.3693
腹	-10.3694
嫂	-10.3694
疑獄集	-10.3695
敖	-10.3695
別	-10.3695
睹	-10.3695
梅	-10.3696
短語	-10.3696
袴	-10.3697
踐	-10.3697
莫大於	-10.3697
贅	-10.3698
津	-10.3698
顔	-10.3699
縣尉	-10.3699
策	-10.3699
橐	-10.37
湊	-10.37
詢	-10.37
主道	-10.37
逢	-10.37
鈔	-10.37
之所期也	-10.3701
跀	-10.3701
秉	-10.3701
公孫鞅	-10.3702
幹	-10.3702
璽	-10.3702
絞	-10.3702
場	-10.3703
英	-10.3704
李崇	-10.3706
辨誣	-10.3707
乂	-10.3708
旌	-10.3708
自是	-10.3708
戯	-10.3709
恭敬	-10.371
伯夷	-10.3713
胾	-10.3713
坦	-10.3715
釘	-10.3716
訴于	-10.3718
警	-10.3718
駮	-10.3718
者同實	-10.372
公子糺	-10.372
請謁	-10.3721
張詠	-10.3722
吳起	-10.3723
犯法	-10.3732
不得不	-10.3734
金石	-10.3734
施伯	-10.3738
管仲曰不可	-10.374
獲賊	-10.3745
不滿	-10.3747
末作	-10.3762
獄具	-10.3776
令尹	-10.3777
犯禁	-10.378
罪之	-10.3783
易知	-10.3784
昭王	-10.3785
未得	-10.3788
對曰夫	-10.3791
也公曰	-10.3805
捕之	-10.3808
今吾	-10.381
而天下治	-10.3816
之類也	-10.3819
州里	-10.3822
時雨	-10.3833
於韓	-10.3845
不守	-10.3847
正靜	-10.3872
戰勝	-10.3873
眀君	-10.3873
行令	-10.3873
貴之	-10.3874
筋	-10.388
美名	-10.3881
厚賞	-10.3889
受賞	-10.3898
人多	-10.3902
上黨	-10.3909
愛惡	-10.3921
楚人	-10.3941
魯人	-10.3949
奚謂	-10.3972
起而	-10.3977
楚王	-10.398
如何	-10.4007
不備	-10.4015
之資	-10.4015
之徒	-10.4029
教民	-10.4035
則危	-10.4056
宣王	-10.4064
以死	-10.4071
也然而	-10.4074
其種	-10.4079
不容	-10.4088
此四	-10.409
商君	-10.4136
不許	-10.4166
無功而	-10.4174
與天下	-10.418
無聲	-10.4199
示之	-10.4205
公私	-10.4207
順於	-10.4222
事理	-10.4245
管子卷第十	-10.4246
殺生	-10.4268
過於	-10.4269
與無	-10.4277
重賞	-10.4293
重刑	-10.4311
商人	-10.4318
少者	-10.433
何所	-10.4334
泣曰	-10.4373
則難	-10.4377
未知	-10.4384
張孟談	-10.4413
亂國	-10.4414
無邪	-10.4423
正名	-10.4426
群	-10.4431
燒	-10.4434
晏	-10.4435
枕	-10.4439
于公	-10.4439
渉	-10.4442
懲	-10.4442
􁇫	-10.4443
迷惑	-10.4444
稍	-10.4444
羮	-10.4445
奎	-10.4446
櫓	-10.4448
桓公問管子曰	-10.445
其賞	-10.4451
奈	-10.4451
捍	-10.4452
盜跖	-10.4452
若流水	-10.4454
曩	-10.4454
販	-10.4455
壺	-10.4455
竈	-10.4455
科	-10.4455
晚	-10.4457
禾	-10.4457
玊	-10.4457
侍郎	-10.4458
酷	-10.4458
卯	-10.4459
戲	-10.4459
喚	-10.4459
寒暑	-10.4459
允濟	-10.4459
影	-10.4459
臧獲	-10.446
豹	-10.446
增	-10.446
寸	-10.4461
闔	-10.4461
譬	-10.4461
竹	-10.4462
銷	-10.4462
粮	-10.4463
贏	-10.4463
豪傑	-10.4465
曄	-10.4466
黙	-10.4466
翁歸	-10.4466
穆公	-10.4466
弩	-10.4466
千鍾	-10.4467
蒙	-10.4467
郊	-10.4467
愿	-10.4467
鄊	-10.4468
誹	-10.4468
播	-10.4468
揔	-10.4468
賔胥無	-10.4469
匈	-10.4469
區	-10.4469
受賕	-10.447
貯	-10.4471
填	-10.4472
恬	-10.4473
迂	-10.4474
齊語作	-10.4474
易牙	-10.4474
猾	-10.4477
烈	-10.4478
通判	-10.448
東鄰	-10.448
負海	-10.448
刖	-10.4481
耀	-10.4481
逐之	-10.4482
審定者勝	-10.4483
㢮	-10.4484
排	-10.4486
水旱	-10.4488
菑	-10.4488
勞苦	-10.4489
是以明君	-10.449
寫	-10.4494
金錢	-10.4497
勸勉	-10.4498
有異	-10.45
近也	-10.45
侈靡	-10.4502
獄訟	-10.4504
損益	-10.4504
次日	-10.4507
短兵	-10.4509
昭公	-10.4511
卑賤	-10.4517
野戰	-10.4521
閉藏	-10.4521
堂下	-10.4521
郄子	-10.4524
獻公	-10.4525
愚智	-10.453
襄王	-10.4531
四海	-10.4532
賊也	-10.4532
雖無	-10.4546
天后	-10.456
權勢	-10.4563
行成	-10.4563
度之	-10.4564
設備	-10.4574
孰能	-10.4579
形容	-10.4584
三千	-10.4586
無姦	-10.4587
車馬	-10.4588
天地之道	-10.4594
即位	-10.4597
費用	-10.4605
隂氣	-10.4612
物色	-10.4615
則令不行	-10.4631
後魏	-10.4632
第七	-10.4639
如神	-10.4661
上下相	-10.4664
而責	-10.4671
後可以	-10.4709
世之所	-10.4711
而多	-10.4714
於君也	-10.4714
文子	-10.4722
集於	-10.4722
任力	-10.4723
計數	-10.4724
主父	-10.4733
自成	-10.4733
自以為	-10.4738
之所加	-10.4758
得其實	-10.4785
之義也	-10.4789
賢士	-10.4835
當作	-10.4835
死節	-10.4852
而令行	-10.4855
四人	-10.489
至于	-10.4891
既成	-10.4896
長吏	-10.4901
其獄	-10.4905
河東	-10.4911
而不敢	-10.4921
經言	-10.4925
外事	-10.493
不可謂	-10.494
輕罪	-10.4948
所以亂	-10.4958
引之	-10.4974
得此	-10.5017
在外	-10.505
功成	-10.5059
秦王	-10.5082
水中	-10.5089
豈可	-10.509
肯	-10.5106
道法	-10.5109
有度	-10.5145
管子對曰請以令	-10.5175
隐	-10.5251
彭	-10.5265
步	-10.5266
膺	-10.527
沐	-10.5275
圜	-10.5277
􁁊	-10.5279
紛	-10.5279
淮	-10.528
篋	-10.528
僚	-10.5281
椽	-10.5282
賞罰不信	-10.5283
突	-10.5284
擿姦	-10.5284
輪	-10.5284
坐長而	-10.5284
渴	-10.5284
舒	-10.5285
壁	-10.5285
丁氏	-10.5286
斵	-10.5286
搜	-10.5286
賕	-10.5287
桂	-10.5287
脊	-10.5287
岀	-10.5287
黃帝	-10.5287
籠	-10.5288
鴻鵠	-10.5288
簿	-10.5288
斃	-10.5289
朗	-10.5289
稼	-10.5289
惜	-10.5289
孫也舊集不載	-10.5289
􁀙	-10.529
創	-10.529
矩	-10.529
尺寸	-10.529
擿	-10.529
祈	-10.5291
鉤	-10.5291
箭	-10.5292
宴	-10.5292
㒺	-10.5292
離枝	-10.5292
俊	-10.5292
鼻	-10.5293
糞	-10.5293
出南史	-10.5293
棟	-10.5294
减	-10.5294
鏡	-10.5295
羅	-10.5295
輟	-10.5295
墆	-10.5295
尅	-10.5295
府庫	-10.5296
寓	-10.5296
染	-10.5297
甯戚	-10.5298
伹	-10.5298
尼	-10.5298
覘	-10.5298
講	-10.5298
幷	-10.5299
葦	-10.5299
奸	-10.5299
北郭	-10.5299
頸	-10.53
醜	-10.53
桃	-10.53
堤	-10.53
豊	-10.5301
膚	-10.5301
波	-10.5301
僅	-10.5302
雜篇	-10.5302
盾	-10.5302
軸	-10.5302
莖	-10.5303
賴	-10.5303
誓	-10.5304
圎	-10.5305
數十人	-10.5305
孤竹	-10.5305
隋	-10.5306
險阻	-10.5306
許諾	-10.5307
阻	-10.5307
京師	-10.5309
輅	-10.5309
繼母	-10.531
逼	-10.5311
誦	-10.5311
瑞	-10.5312
棄市	-10.5313
沆	-10.5313
壬	-10.5313
超	-10.5314
佚樂	-10.5315
漫	-10.5315
嘆	-10.5315
寃狀	-10.5315
苖	-10.5316
七十二日而畢	-10.5317
弛	-10.5317
淸	-10.5318
唱	-10.5318
幸免	-10.5319
遮	-10.5321
激	-10.5322
四肢	-10.5324
嫡子	-10.5326
犿	-10.5326
生鹿	-10.5326
短語十	-10.5327
整齊	-10.5327
􁒾	-10.5327
賢能	-10.5327
卵	-10.5331
尊顯	-10.5333
西山	-10.5336
九章	-10.5337
亂之本也	-10.5343
廢置	-10.5354
嗣公	-10.5355
明主者	-10.5356
則見以為	-10.5359
是故明君	-10.5364
東方	-10.5367
貧富	-10.5382
之官也	-10.5396
相望	-10.5401
文武	-10.5408
其職	-10.541
大驚	-10.5426
卿相	-10.5428
公孫	-10.5438
孔子曰	-10.5448
棄其	-10.5452
名譽	-10.5459
者幾何	-10.5462
動靜	-10.547
曰吾聞	-10.5476
著明	-10.5476
則無以	-10.5478
臣主之	-10.5479
於天地	-10.5482
五色	-10.5482
執之	-10.549
三晉	-10.5492
言談	-10.5503
何待	-10.5507
簡主	-10.5519
名實	-10.5521
私議	-10.5522
求於民	-10.5527
競於	-10.5529
無怨	-10.5544
田成	-10.5547
之際	-10.5553
湯武之	-10.5569
給事	-10.5597
立私	-10.5603
者聖王之禁也	-10.5643
事附	-10.5648
必治	-10.5669
一月	-10.5682
無實	-10.5688
分民	-10.5688
無術以	-10.57
民務	-10.5708
妄行	-10.5709
多寡	-10.5715
舍人	-10.5728
刑也	-10.5729
旣成	-10.576
三國	-10.5777
兩用	-10.5798
所聞	-10.5801
成羣	-10.5803
其兄	-10.5814
所宜	-10.5816
不受也	-10.5848
無用之	-10.5865
自見	-10.5868
情實	-10.5901
治國者	-10.593
力盡	-10.5933
重罪	-10.5943
民毋	-10.5987
入見	-10.6009
第八	-10.6076
旻	-10.6135
傷民	-10.6142
衣紫	-10.6171
縑	-10.6174
史本傳	-10.6175
痕	-10.6183
猛毅	-10.6184
禺	-10.6186
僖	-10.6187
蘟	-10.6187
換	-10.6188
盧	-10.6189
龎	-10.619
封禪	-10.6191
炙	-10.6192
幕	-10.6193
䖏	-10.6193
行岌	-10.6194
黎	-10.6194
考掠	-10.6194
驩	-10.6195
惕	-10.6196
者未之有也	-10.6196
𣏌	-10.6197
俞	-10.6198
泊	-10.6198
羈	-10.6198
輦	-10.6199
捐	-10.6199
𥙷	-10.6199
殉	-10.62
两	-10.62
舊不著出處	-10.62
䕫	-10.62
水潦	-10.62
逰	-10.6201
窌	-10.6201
彦超	-10.6201
縷	-10.6201
倦	-10.6202
跡	-10.6202
胷	-10.6202
妨	-10.6203
刈	-10.6204
臞	-10.6204
渇	-10.6204
巵	-10.6204
闚	-10.6204
曼	-10.6204
梏	-10.6205
衫	-10.6206
倉廩	-10.6206
徼	-10.6207
緯	-10.6207
繡	-10.6207
巖	-10.6207
員	-10.6207
遏	-10.6208
格	-10.6208
芻	-10.6208
黑	-10.6209
裘	-10.6209
裂	-10.621
寇	-10.621
歷	-10.621
推勘	-10.6211
快	-10.6211
犧牲	-10.6211
絜	-10.6211
蠶	-10.6212
扼	-10.6212
斧鉞	-10.6213
肘	-10.6213
卜筮	-10.6213
階	-10.6213
司空	-10.6213
觳	-10.6213
方圓	-10.6214
慰	-10.6215
羡	-10.6215
暢	-10.6215
佼	-10.6215
舞	-10.6216
祈福	-10.6217
其說在	-10.6217
皷	-10.6218
舊集	-10.6218
徇	-10.622
鮑	-10.622
谿	-10.6221
六蝨	-10.6221
閇	-10.6224
若何管子對曰	-10.6226
粟米	-10.6228
耗	-10.6228
舌	-10.6228
主簿	-10.6228
回	-10.6231
司徒	-10.6237
驥	-10.6247
目視	-10.6249
少卿	-10.6249
輕重之數	-10.625
噲	-10.625
可得乎	-10.6251
黄門	-10.6253
智伯	-10.6257
定社稷	-10.6257
布衣	-10.626
當世之	-10.6262
食鹽	-10.6263
服行	-10.6269
滿虚	-10.6277
可立而	-10.6279
法式	-10.6282
民萌	-10.6284
堅固	-10.6299
三族	-10.6304
受禄	-10.6306
曰今日	-10.6315
務農	-10.6337
神農	-10.6348
古人	-10.6356
美惡	-10.636
○○	-10.6369
開封	-10.6371
四極	-10.6372
鄭人	-10.6374
强弱	-10.6381
五聲	-10.6402
人主之所以	-10.6447
寡人欲	-10.6462
大姓	-10.6464
乎對曰	-10.6474
而禮之	-10.6501
國富而	-10.6512
桓公曰善桓公	-10.6531
眀主	-10.6542
孝公	-10.6547
韓非	-10.6554
二千	-10.6588
不撓	-10.66
不仕	-10.6606
為首	-10.6609
有寵	-10.6631
夫婦	-10.6638
適子	-10.6644
在上位	-10.6676
夫妻	-10.6679
萬世	-10.6681
西河	-10.6686
績按當	-10.6688
勞而不	-10.6695
然後知	-10.6705
未盡	-10.6707
今人主	-10.671
神道	-10.6713
男子	-10.6734
相齊	-10.674
萬事	-10.6752
事不成	-10.6775
第二	-10.6804
者莫如	-10.6813
公曰吾	-10.6843
制度	-10.6885
君不如	-10.6963
亂亡	-10.7073
曰諾	-10.7107
覇	-10.715
坎	-10.7166
緡	-10.7173
勅	-10.7176
欽定四庫全書疑獄集卷	-10.7177
疑獄集卷	-10.7177
楯	-10.7178
聖人法之以	-10.7178
浴	-10.7179
䑓	-10.7181
措	-10.7181
歩	-10.7182
浟	-10.7183
倪	-10.7183
捫	-10.7183
鎰	-10.7185
逄	-10.7187
召管子而問曰	-10.7188
贊	-10.7188
樛	-10.719
涂	-10.719
吐	-10.7191
漆	-10.7192
棠隂比事	-10.7193
九合諸侯	-10.7193
氓	-10.7193
敏	-10.7194
釁	-10.7194
肌膚	-10.7194
涉	-10.7194
荀	-10.7195
柰何	-10.7196
憚	-10.7196
巾	-10.7196
郢	-10.7196
隘	-10.7197
逆旅	-10.7197
稱貸之家	-10.7197
衝	-10.7198
𨽻	-10.7198
濮	-10.7199
艾	-10.7199
品	-10.7199
絹	-10.72
姥	-10.72
署	-10.72
苑	-10.7201
属	-10.7201
鰥	-10.7201
碑	-10.7202
綈	-10.7202
績按别本註	-10.7202
隳	-10.7202
恠	-10.7202
壏	-10.7202
渡	-10.7203
褒	-10.7203
傭	-10.7204
愕	-10.7204
㑹諸侯令曰	-10.7204
庚	-10.7204
見王安石丞	-10.7204
賓	-10.7205
殿	-10.7205
踐位	-10.7205
穆	-10.7205
劇	-10.7206
祭祀	-10.7206
酣	-10.7206
㓂	-10.7206
勒	-10.7206
廣狹	-10.7207
并兼	-10.7207
住	-10.7207
何以知其然	-10.7207
補注卷	-10.7208
仇讎	-10.7208
寜	-10.7208
柰何管子對曰	-10.7208
肱	-10.7208
啓	-10.7209
翳	-10.7209
壘	-10.721
狥	-10.721
芸	-10.7211
晨	-10.7211
跪	-10.7211
橋	-10.7211
牘	-10.7211
頼	-10.7212
姒	-10.7212
浙	-10.7212
顓	-10.7212
罔	-10.7212
狼	-10.7212
境内之民	-10.7213
欽定四庫全書韓非子卷十	-10.7213
中寢諸子	-10.7213
春秋冬夏	-10.7213
玄	-10.7214
而不解則	-10.7214
蠧	-10.7215
邀	-10.7215
轅	-10.7216
墾草	-10.7216
甘茂	-10.7216
令者死	-10.7217
未㡬	-10.7219
元濟	-10.722
絻	-10.722
田成子	-10.7221
慈惠	-10.7222
佩	-10.7224
蟻	-10.7224
緫	-10.7225
胸	-10.7225
費仲	-10.7225
參伍	-10.7227
公曰諾	-10.7227
没	-10.7229
探	-10.7229
遞	-10.7229
忒	-10.7231
鮑叔牙	-10.7231
十餘年	-10.7232
鳬	-10.7232
你	-10.7232
二事附	-10.7236
霧	-10.7236
為之奈何	-10.7239
其種大	-10.7239
吏嗇夫	-10.7239
參驗	-10.724
軒	-10.724
宥過	-10.7241
歸於上	-10.7241
財匱	-10.7245
里尉	-10.7245
故先王貴	-10.7246
所以然者	-10.7247
牀	-10.7247
何哉	-10.7249
喜怒	-10.7252
帝王之	-10.7254
刑部	-10.7259
長短	-10.7265
五百里	-10.7273
稱量	-10.7275
秦韓	-10.7277
不直則	-10.7279
被盜	-10.7282
楚金	-10.7282
法當死	-10.7288
兵革	-10.7302
婦女	-10.7304
精神	-10.7306
得不死	-10.7316
大准	-10.7318
誣告	-10.7319
貨賂	-10.732
再三	-10.732
賢良	-10.7325
首服	-10.7328
勇士	-10.7346
勇力	-10.7346
草名	-10.7366
之於其所	-10.738
臣斯	-10.739
未起	-10.7404
是故先王	-10.7413
有國者	-10.7421
而不知所	-10.7424
彊兵	-10.7439
者主之所	-10.7443
墨子	-10.7465
記曰	-10.7469
歎曰	-10.7473
軍士	-10.7478
凡聽	-10.7482
君曰諾	-10.7497
縣吏	-10.7522
者不可以	-10.7553
五代	-10.7555
桓公曰寡人	-10.7635
百鍾	-10.7638
私交	-10.7661
之謀也	-10.7767
慈於	-10.7794
而民從	-10.791
地廣	-10.7937
姦慝	-10.7943
歎	-10.8011
要在	-10.806
私惠	-10.8204
井中	-10.8222
其君者也	-10.8265
靴	-10.8292
秋毫	-10.8294
櫎	-10.8295
鉅	-10.8296
饟	-10.8297
江淮	-10.8297
周公旦	-10.8298
鄒	-10.8298
敕	-10.8298
濟陽君	-10.8298
莊遵	-10.8299
令行禁止	-10.8301
亾	-10.8301
淳	-10.8302
闘	-10.8302
烹	-10.8302
彰	-10.8305
冒	-10.8305
諛	-10.8305
閔	-10.8306
打	-10.8306
裝	-10.8306
頌	-10.8306
愽	-10.8306
為人所殺	-10.8307
元素	-10.8307
秤	-10.8307
桓公問管子曰請問	-10.8308
弦	-10.8308
牲	-10.8309
雙	-10.8309
矦	-10.8309
濡	-10.8309
殫	-10.8309
所以治	-10.8309
冡	-10.831
謾	-10.8311
珍	-10.8311
疋	-10.8312
抵罪	-10.8312
筮	-10.8312
嶺	-10.8312
妹	-10.8313
湛	-10.8313
鍇	-10.8313
捕繫	-10.8314
蜜	-10.8314
䕶	-10.8314
貨賄	-10.8314
叙	-10.8314
曹攄	-10.8315
晦	-10.8315
邇	-10.8316
尾	-10.8316
拊	-10.8316
暇	-10.8316
一本作	-10.8316
摘	-10.8316
漂	-10.8316
不可得泉	-10.8316
發號出令	-10.8317
雀	-10.8318
竽瑟	-10.8318
蔵	-10.8318
消	-10.8318
醎	-10.8318
垣	-10.8318
緣	-10.8319
恡	-10.8319
痤	-10.8319
李兊	-10.8319
㓗	-10.8319
班	-10.832
公曰然則	-10.832
窘	-10.832
構	-10.832
雞	-10.832
孩	-10.832
由余	-10.832
崩	-10.832
民之所惡也	-10.832
田成氏	-10.832
下怨上	-10.8321
譬猶	-10.8321
綴	-10.8321
股	-10.8321
㝠	-10.8322
萬乘之國	-10.8322
拷掠	-10.8322
宋鄭克撰	-10.8322
腐	-10.8323
雚	-10.8323
遂自誣服	-10.8323
悍	-10.8324
錣	-10.8325
鑚	-10.8325
剌	-10.8326
衾	-10.8326
廣漢	-10.8326
傍	-10.8327
酒食	-10.8327
疵	-10.8327
捶	-10.8327
泛	-10.8327
礙	-10.8327
愁	-10.8327
棠	-10.8328
太祖	-10.8329
晉文公	-10.833
𢎞	-10.833
壟	-10.833
瀷	-10.8331
菽粟	-10.8331
賁	-10.8331
煬	-10.8331
日月之明	-10.8332
諺曰	-10.8334
溝瀆	-10.8334
未可知也	-10.8335
麟	-10.8335
概	-10.8335
諷	-10.8337
盲	-10.8338
四封之内	-10.8338
盤	-10.8339
樹木	-10.8339
鞫情	-10.8339
勵	-10.834
傅小白	-10.834
詩書	-10.8342
遷徙	-10.8346
文采	-10.8346
真盗	-10.8346
了	-10.8346
夾	-10.8346
武賽賽	-10.8347
敏中	-10.8348
稟	-10.8349
嘗試	-10.835
睦	-10.8351
離法而	-10.8351
許由	-10.8352
州部	-10.8352
所以起	-10.8356
舉大事	-10.8359
管夷吾	-10.8368
二三子	-10.8368
出唐書	-10.837
覇王	-10.8375
二千里	-10.8376
國之形也	-10.8377
蘭	-10.8377
趙氏	-10.838
國小而	-10.8381
終嵗	-10.8393
有餘食	-10.8397
羣臣百姓	-10.8413
嚴誅	-10.8413
薛公	-10.8418
霸諸侯	-10.8419
白馬	-10.842
老弱	-10.8423
出號令	-10.8424
無妻	-10.8425
取於民	-10.8427
深文	-10.8442
茍且	-10.8445
周氏	-10.8455
察獄	-10.8467
爲之奈何管子對曰	-10.8481
水火	-10.8492
綽	-10.8501
去就	-10.8513
民衆而	-10.8532
徐州	-10.8547
非特	-10.8552
弑其君	-10.8562
匠人	-10.8572
各以其	-10.8582
疏逺	-10.8691
室屋	-10.8715
赦罪	-10.8747
賞有功	-10.8861
十錢	-10.8946
公又問曰	-10.9004
君則不然	-10.9269
杯	-10.9518
靖郭君	-10.9533
財用足	-10.9533
者比於	-10.9535
姊	-10.954
潦	-10.954
銚	-10.9542
不可得也凡牧民者欲民之有	-10.9543
韕	-10.9546
占	-10.9546
於國而求百姓之行大	-10.9546
抗	-10.9548
遭	-10.9548
十倍其賈	-10.9548
係	-10.9549
堵	-10.9549
包拯	-10.9549
俟	-10.9549
為之奈何管子對曰	-10.955
兇	-10.955
馭	-10.955
岳	-10.955
封泰山禪	-10.9551
求狐白之皮	-10.9552
熙	-10.9552
愎	-10.9552
吾欲藉於	-10.9552
鄭克評曰	-10.9552
萊莒之	-10.9554
恚	-10.9555
耆	-10.9555
欽	-10.9555
隰	-10.9555
璡	-10.9555
桓公曰此若言何謂也管子對曰	-10.9556
之儀表也	-10.9556
栁渾	-10.9556
羨	-10.9556
食其稱貸之家	-10.9556
麑	-10.9556
終日不歸	-10.9556
終而復始	-10.9556
遬	-10.9557
賄	-10.9557
轎	-10.9557
見懲惡門	-10.9557
鳯	-10.9557
野不辟	-10.9558
不亦可乎	-10.9559
酌	-10.9559
不失其常則	-10.9559
縫	-10.9559
酬	-10.956
挫	-10.956
洙	-10.956
挈	-10.9561
陣	-10.9561
臯	-10.9561
道正者不安	-10.9561
髮	-10.9561
健	-10.9561
維絶則	-10.9562
堂谿公	-10.9562
斛	-10.9562
溢	-10.9563
鬲	-10.9563
捷	-10.9563
寐	-10.9564
之終始	-10.9564
雍季	-10.9564
儻	-10.9564
菹	-10.9564
塵	-10.9564
延禧	-10.9564
社䑕	-10.9564
管仲又請	-10.9564
館	-10.9564
祕	-10.9565
駢	-10.9565
憤	-10.9565
豎刁	-10.9565
券	-10.9565
壙	-10.9565
而可管子對曰	-10.9566
謳	-10.9566
㨗	-10.9566
檄	-10.9566
救火者	-10.9566
狎	-10.9566
千乘之國	-10.9566
偷取一	-10.9566
懾	-10.9566
蔣	-10.9567
朞年	-10.9567
爨	-10.9567
駁	-10.9568
百里之地	-10.9568
為人上者	-10.9568
樹蓺	-10.9568
竿	-10.9568
慶賓	-10.9568
勤於兵	-10.9568
油	-10.9569
社稷宗廟	-10.9569
勾踐	-10.9569
嗟	-10.9569
詛	-10.957
欽定四庫全書折獄龜鑑卷	-10.957
國之危也	-10.957
埋	-10.957
滌	-10.957
昧	-10.9571
熊	-10.9571
麥	-10.9571
琚	-10.9571
羣萃而州處	-10.9571
陋	-10.9572
驛	-10.9572
齡	-10.9572
樓	-10.9572
鄧析	-10.9572
而莫之能	-10.9573
黄覇	-10.9573
之守在	-10.9574
於吾國	-10.9574
讞	-10.9574
軒冕	-10.9574
擔	-10.9574
歎服	-10.9575
政不禁則	-10.9575
桓侯	-10.9575
玩	-10.9575
吹	-10.9575
鋸	-10.9576
棺槨	-10.9576
瞽	-10.9577
明主之治也	-10.9577
其木乃	-10.9577
所撰墓	-10.9578
賦歛	-10.9578
想	-10.9578
兄之教不肅而成其子弟之學不勞而能	-10.9578
壇	-10.9579
少而習焉其心安焉不見異物而遷焉	-10.9579
萃	-10.9579
繩之外	-10.9579
普	-10.958
柙	-10.958
混	-10.958
櫄	-10.958
管子解	-10.958
靣	-10.9582
踦	-10.9582
俴	-10.9582
涕	-10.9582
蠅	-10.9583
蔡嫗	-10.9583
跖	-10.9583
返	-10.9583
緊	-10.9584
灾	-10.9584
訛	-10.9585
膳	-10.9585
摽	-10.9585
軍旅	-10.9585
公子糾	-10.9586
陂	-10.9586
監司	-10.9586
忤	-10.9587
洋	-10.9587
千緡	-10.9587
管仲隰朋	-10.9588
涸澤	-10.9588
璥	-10.9589
者凡國都皆有掌	-10.9589
籍沒	-10.9589
擠	-10.9589
君臣上下之	-10.959
太公望	-10.959
宗元	-10.959
燕代	-10.959
孤寡	-10.9591
良久	-10.9591
控	-10.9591
韓昭侯	-10.9592
見是土也命之曰	-10.9594
為人君者	-10.9594
薦草	-10.9595
黜	-10.9595
章則行	-10.9595
績按此釋	-10.9596
江西	-10.9597
者言依於	-10.9597
群臣	-10.9599
將有行	-10.96
儲	-10.9601
其氣曰	-10.9601
南面	-10.9602
璞	-10.9603
譎賊	-10.9603
汎	-10.9604
一舉而	-10.9605
嬖	-10.9606
樊	-10.9607
豕	-10.9607
山川	-10.9607
局	-10.9608
迹賊	-10.961
之充也	-10.9613
臣不如也	-10.9615
不可不審	-10.9616
山海	-10.9626
告事者	-10.9626
上下和	-10.9627
曲直	-10.9627
判官	-10.9627
乘之國	-10.9631
商工	-10.9632
孝婦	-10.9641
山陵	-10.9647
相繼	-10.9649
百匿	-10.9651
人臣之所以	-10.9653
子貢	-10.9654
襄主	-10.9667
寡者其	-10.9673
敬老	-10.9683
將何以	-10.9715
所患也	-10.9737
失有罪	-10.9778
訊之果	-10.9788
以勸民	-10.9825
能成其	-10.9836
以廣其	-10.9963
䟽逺	-11.0023
之極也	-11.0214
明君在上	-11.0316
黨比周以	-11.0363
國有四	-11.0581
何也對曰	-11.0694
之果然	-11.0766
恭遜敬愛	-11.0845
管子輕重十	-11.0862
譴	-11.0938
弼	-11.0949
孟孫	-11.0951
潮	-11.0957
劓	-11.0961
申不害	-11.0962
估	-11.0963
炭	-11.0963
希崇	-11.0966
技藝之	-11.0968
湝	-11.0968
黄昌	-11.0971
桓公問於管子曰請問	-11.0972
思兢	-11.0972
烏集之交	-11.0972
菽	-11.0973
程式	-11.0975
昇	-11.0977
不亦宜乎	-11.0977
讙	-11.0977
纓	-11.0977
顙	-11.0977
肇	-11.0978
西門豹	-11.0978
㦧	-11.0978
煑	-11.0978
飺	-11.0978
則入多	-11.0979
隍	-11.098
蝨	-11.098
臯陶	-11.0981
縦	-11.0981
祇	-11.0982
竄	-11.0982
驟	-11.0983
盖天下而	-11.0983
安能愛君	-11.0983
隷	-11.0983
㳟	-11.0984
㕔	-11.0984
押	-11.0985
虱	-11.0985
廐	-11.0986
鞫情之術	-11.0986
莭	-11.0986
鋤	-11.0987
亂主則不然	-11.0987
汶	-11.0987
已見釋寃門	-11.0987
鋭	-11.0987
斗斛	-11.0988
屑	-11.0988
冥	-11.0988
中牟	-11.0989
□	-11.0989
鬰	-11.0989
隄	-11.0989
銜	-11.099
垂拱	-11.099
攄	-11.099
誹謗	-11.099
帷	-11.099
鬪	-11.099
畋	-11.0991
此亦可謂昔者	-11.0992
矛	-11.0992
莫急於	-11.0992
僊	-11.0992
縊	-11.0992
秊	-11.0992
詹	-11.0992
轡筴	-11.0992
寀	-11.0992
柩	-11.0992
基	-11.0992
展	-11.0993
麾	-11.0993
祗	-11.0993
飭	-11.0993
趙廣漢	-11.0993
轂	-11.0993
訥	-11.0993
餒	-11.0993
賑	-11.0994
響	-11.0994
訖	-11.0994
倨	-11.0994
滄	-11.0994
洩	-11.0994
刻鏤	-11.0995
絃	-11.0995
赫	-11.0995
台	-11.0995
墓誌	-11.0996
曽史	-11.0996
萬世之利	-11.0996
魚鼈	-11.0996
刋	-11.0996
殁	-11.0996
焦	-11.0996
曆	-11.0996
萯	-11.0996
葱	-11.0996
㓕	-11.0997
潭	-11.0998
巽	-11.0998
柳	-11.0999
侔	-11.0999
鹹	-11.0999
塥	-11.1
袂	-11.1
捉	-11.1001
旦暮	-11.1001
保雍	-11.1001
窶	-11.1001
柎	-11.1001
齎	-11.1002
父子之親	-11.1002
渾	-11.1002
蹇	-11.1002
民之父母也	-11.1003
倣	-11.1003
騶	-11.1003
濳	-11.1003
繩墨	-11.1004
眩	-11.1004
四海之内	-11.1004
是故有道之君	-11.1004
額	-11.1005
洪	-11.1005
厥	-11.1005
濵	-11.1005
戢	-11.1005
何以明之	-11.1005
網罟	-11.1006
繞	-11.1006
由是觀之	-11.1006
竹箭	-11.1007
裔	-11.1007
尹洙龍圖	-11.1007
域	-11.1007
孫沔	-11.1008
促	-11.1008
八尺	-11.1008
洒	-11.1008
無過失	-11.1008
酷吏	-11.1008
蠻	-11.1008
方圜	-11.1008
凶吉	-11.1008
蓋天下而	-11.1009
郵	-11.1009
鹵	-11.1009
於鄉里	-11.1009
治之至也	-11.101
灑	-11.101
泆	-11.101
駿	-11.1011
軰	-11.1011
約結	-11.1011
鱣	-11.1011
提㸃	-11.1011
上位危	-11.1011
漿	-11.1012
挑	-11.1012
君臣父子	-11.1013
慙	-11.1013
朝夕	-11.1013
聾	-11.1014
標	-11.1014
商子卷第	-11.1014
績按齊語作	-11.1014
淡	-11.1015
諸兒	-11.1015
嬴	-11.1015
沙門	-11.1015
髙柔	-11.1016
知益州	-11.1017
叚	-11.1018
花	-11.1018
在其中	-11.1019
之副也	-11.1019
譏	-11.1019
卜皮	-11.102
姦邪之臣	-11.102
紐	-11.102
舉措	-11.102
替	-11.1022
胎	-11.1022
骸	-11.1023
胥靡	-11.1023
飄	-11.1024
伐莒	-11.1027
讋	-11.1027
偉	-11.1028
卑辱	-11.103
相反也	-11.1034
公子小白	-11.1034
罰有罪	-11.1034
垢	-11.1036
數百人	-11.1038
桓公謂管仲	-11.104
㫄	-11.1041
民之用也	-11.1048
者責之	-11.1059
怨咎	-11.1063
管子卷第二	-11.1076
臣之分也	-11.1176
主之治國也	-11.1339
答	-11.2434
叩	-11.2607
末産不禁	-11.2614
孫叔敖	-11.2615
􁫼	-11.2618
明張景撰	-11.2619
之計莫如樹	-11.262
鄭袖	-11.2623
犀	-11.2623
亞	-11.2626
而堅守之	-11.2631
娼	-11.2632
值	-11.2633
廹	-11.2635
之人謂我	-11.2635
鑑	-11.2636
櫛	-11.2637
明主之治天下也	-11.2637
像	-11.2638
公平而無私故	-11.2638
瞻	-11.2638
挹	-11.2639
摩	-11.2639
謂去十	-11.2639
十分去	-11.264
為此有道乎管子	-11.2641
鍾之家不行	-11.2642
昶	-11.2642
所謂能以所不	-11.2642
致天下之民	-11.2642
逞	-11.2643
來天下之財	-11.2643
有狗嘊嘊旦暮欲齧我猳而不使也今夫	-11.2643
者試之以	-11.2643
炮	-11.2644
魏宣子	-11.2644
恊	-11.2644
羸	-11.2644
虙	-11.2644
人廩食	-11.2644
叔瞻	-11.2645
象地無親	-11.2645
耘	-11.2645
無棄之言	-11.2646
莫之能圉	-11.2646
胃	-11.2646
方六里	-11.2647
人食者有一人耕而	-11.2647
煥	-11.2647
侍御史	-11.2648
嫡	-11.2648
惶恐	-11.2648
見歐陽修	-11.2648
桓公曰行事奈何管子對曰請	-11.2648
錐	-11.2648
於赤野之末光	-11.2648
製	-11.2649
諸君吾子	-11.2649
鼈	-11.2649
穰侯	-11.2649
懇	-11.2649
漕	-11.2649
以徐疾	-11.2649
逝	-11.2649
阜	-11.265
戰不必勝	-11.265
管子對曰不可是	-11.265
百餘人	-11.265
饗	-11.265
皆已官	-11.265
楊津	-11.265
之常也治之以	-11.265
正民之經	-11.2651
右經一	-11.2651
慾	-11.2651
閉禍在除怨	-11.2651
有聞道而好	-11.2651
之所生生於	-11.2651
賞不足以勸	-11.2651
濤	-11.2651
睡	-11.2652
愜	-11.2652
茸	-11.2652
白圭	-11.2652
隊	-11.2652
者其恱在	-11.2653
則禄賞不	-11.2653
爲此有道乎管子	-11.2653
召管子而問曰此何故也管子對曰	-11.2653
牆垣	-11.2653
墝	-11.2654
人主莫不欲	-11.2654
兎	-11.2654
不易其則故	-11.2654
灼	-11.2654
殖果木不如三土以十分之	-11.2654
辦	-11.2654
澹	-11.2655
莫知其極	-11.2655
朝諸侯卿大夫列士循於百姓號曰祭	-11.2655
擄	-11.2655
若其事立	-11.2655
賛	-11.2656
鍳	-11.2656
祓	-11.2656
塜	-11.2657
菭	-11.2657
勇怯	-11.2657
秇	-11.2657
䂓	-11.2658
日而具則財物之賈什去	-11.2658
十分之三	-11.2658
抄	-11.2658
錢十萬	-11.2658
山髙而不崩則祈羊至	-11.2658
春事二十五日之内	-11.2658
数	-11.2659
能戴大	-11.2659
稼亡三之一	-11.2659
藴	-11.2659
繑	-11.2659
繇	-11.2659
秬	-11.266
絀	-11.266
悌	-11.266
烝	-11.2661
問具服	-11.2661
株	-11.2661
鍜	-11.2661
曷	-11.2661
羲	-11.2662
莖黒秀	-11.2662
而天下化之	-11.2662
鄢陵	-11.2662
閈	-11.2662
大木不可獨	-11.2662
弓矢	-11.2662
閬	-11.2662
仆	-11.2662
舉兵之日而境内	-11.2662
茶	-11.2662
鄆	-11.2662
鉏	-11.2662
餼	-11.2662
錮	-11.2663
不逺道里	-11.2663
齋戒	-11.2663
嘖室之議	-11.2663
擢	-11.2663
朋友	-11.2663
先難而後易	-11.2663
則戰不勝	-11.2663
出南史本傳	-11.2663
對曰惡則惡矣然非其急者也公	-11.2663
疽	-11.2663
國之貧也	-11.2663
善射者	-11.2664
闢	-11.2664
錙	-11.2664
傷國一也	-11.2664
梓	-11.2664
隴	-11.2664
星辰	-11.2664
章頻	-11.2664
芬	-11.2665
蓆	-11.2665
惛	-11.2666
釱	-11.2666
始乎無端卒乎無窮	-11.2666
娶	-11.2666
士農工商	-11.2666
祝鳬已疪	-11.2666
黠	-11.2667
睢	-11.2667
萬乘之主	-11.2667
覔	-11.2667
欠	-11.2667
葵丘	-11.2667
堊	-11.2667
揲	-11.2667
旄	-11.2667
孝悌	-11.2668
績按内業	-11.2668
與天同極	-11.2668
鎬	-11.2668
𥙿	-11.2668
設法以	-11.2669
匕	-11.2669
囿	-11.2669
愬	-11.2669
蠋	-11.2669
筦	-11.2669
問其鄉里	-11.267
俳	-11.267
此謂先之以	-11.267
頻	-11.2671
倡	-11.2671
國貧而用不足	-11.2671
鋟	-11.2671
自古至今	-11.2671
啚	-11.2672
釐	-11.2672
乎如在於	-11.2672
至善不戰	-11.2672
植果木不如三土以十分之	-11.2672
㸑	-11.2673
槩	-11.2673
翰	-11.2673
園	-11.2673
踵	-11.2673
咡	-11.2673
饌	-11.2674
秃	-11.2674
坊	-11.2675
事名二	-11.2675
爲人臣者	-11.2675
有以感	-11.2675
肝	-11.2676
蒐	-11.2676
渝	-11.2677
提衡	-11.2677
豫章	-11.2677
塉	-11.2677
則不祥	-11.2677
功臣之家	-11.2678
轄	-11.2678
有患則	-11.2678
東郭郵	-11.2678
孰能棄	-11.2679
閭有司	-11.268
國非其國也	-11.268
覩	-11.2681
􁠆	-11.2681
趙簡主	-11.2681
協	-11.2681
揮	-11.2682
房	-11.2682
昻	-11.2682
鳥飛准繩	-11.2682
公孫無知	-11.2683
埴	-11.2683
兕	-11.2684
四境之内	-11.2684
請謁任舉	-11.2684
仗	-11.2684
懈怠	-11.2685
傰	-11.2685
貝	-11.2685
讂	-11.2685
媚	-11.2685
梗	-11.2685
鄶	-11.2686
小白曰夫	-11.2686
不仕與耕者	-11.2687
巖穴	-11.2687
四政曰	-11.2687
而兵强	-11.2687
􁎺	-11.2687
可以加政矣	-11.2687
武王伐紂	-11.2688
嗛	-11.2688
奪柄失位	-11.2688
麤	-11.2689
捧	-11.2689
線	-11.2689
之日發五政	-11.269
􁷑	-11.269
此六者以	-11.269
不見其形	-11.2691
君臣掌	-11.2691
管仲與召忽	-11.2691
行夏政則	-11.2691
夫具而天下無	-11.2691
惽惽	-11.2692
則撫之	-11.2692
行春政則	-11.2693
應於父兄	-11.2693
涵	-11.2693
膌	-11.2693
人得餘	-11.2693
行此三者有罪無赦	-11.2693
提要	-11.2694
辟疆	-11.2695
行冬政則	-11.2696
故莫之能	-11.2696
赶	-11.2696
劌	-11.2697
姪	-11.2699
踣	-11.2699
隄防	-11.27
竽	-11.27
嚬	-11.2701
恬淡	-11.2701
行秋政則	-11.2701
癘	-11.2701
阿黨	-11.2701
笥	-11.2703
仵	-11.2703
誇	-11.2705
鑊	-11.2708
鱗	-11.271
之國惡之	-11.2711
存不攻	-11.2715
偷兒	-11.2715
如此者身危	-11.2716
以立功名	-11.2726
證慝	-11.274
之所歸也	-11.274
不逆於	-11.2756
日一問	-11.2775
四子者	-11.2814
出後漢書本	-11.2836
而問之曰	-11.2843
欽定四庫全書管子補注卷十	-11.2873
投井	-11.2981
鷟	-11.4201
監察御史	-11.4602
雅	-11.4606
妓	-11.4612
民無所於食	-11.4616
腫	-11.462
霽	-11.4622
怖	-11.4624
揖	-11.4624
㧾	-11.4624
柢	-11.4626
糾	-11.4628
杜亞	-11.4629
嗚	-11.463
按經作	-11.463
飼	-11.4631
猒	-11.4631
金百鎰	-11.4632
可以惡竟外之不善者	-11.4632
伯之為人也	-11.4634
爲之有道乎管子對曰	-11.4634
璩	-11.4634
沛	-11.4635
吿	-11.4635
仭	-11.4636
苐	-11.4637
彖	-11.4637
箠	-11.4637
誣能之人	-11.4638
輝	-11.4638
譕	-11.4639
狡	-11.4639
藿	-11.464
傅琰	-11.464
箧	-11.464
瓠	-11.4641
不盖天下不䏻正天下	-11.4641
歇	-11.4641
蕘	-11.4641
倅	-11.4642
煜	-11.4642
韋臯	-11.4642
脛	-11.4643
尊主安國	-11.4643
黎千三	-11.4643
于仲文	-11.4644
採	-11.4644
隸	-11.4644
龢	-11.4644
盂	-11.4645
浪	-11.4645
輜	-11.4645
先易而後難	-11.4645
呌	-11.4646
䖍	-11.4646
黽	-11.4646
此臣之所謂	-11.4646
脣	-11.4646
事頗相類	-11.4646
刧	-11.4646
軀	-11.4646
訐	-11.4647
姧	-11.4647
祟	-11.4647
二十餘人	-11.4647
奚以知其然也	-11.4647
不牧之民	-11.4647
士資在於	-11.4647
瓌	-11.4647
蹤	-11.4648
可得聞乎管子對曰	-11.4648
寝	-11.4648
蓄殖果木不若三土	-11.4648
廕	-11.4648
富商蓄賈	-11.4648
衙	-11.4648
中方副圖	-11.4648
可得而聞乎管子對曰	-11.4648
大理少卿	-11.4648
齕	-11.4648
浦	-11.465
諲	-11.465
誌	-11.465
罸	-11.465
孚	-11.465
庻	-11.4651
櫜	-11.4652
潁	-11.4652
㸔	-11.4652
㨿	-11.4652
只	-11.4652
緇	-11.4652
緄	-11.4652
彞	-11.4653
使法量功不自度也	-11.4653
槀	-11.4653
檠	-11.4653
戡	-11.4653
鞘	-11.4653
琰	-11.4653
㸃	-11.4653
枹	-11.4653
邸	-11.4654
餽	-11.4654
丸	-11.4654
許宗裔	-11.4654
髙杠柴池	-11.4654
腕	-11.4654
賣子者	-11.4654
兊	-11.4655
話	-11.4655
山林澤谷之利	-11.4655
結之以信	-11.4655
涯	-11.4655
民歌之	-11.4655
檀	-11.4656
倩	-11.4656
為之有道乎管子對曰	-11.4656
㤗	-11.4657
顚	-11.4657
坼	-11.4657
輯睦	-11.4657
而猶不行則	-11.4658
蹈	-11.4658
旦暮從事於	-11.4659
亢	-11.4659
穡	-11.4659
詬	-11.4659
圭璧	-11.4659
舛	-11.4659
款	-11.4659
窖	-11.4659
其數不勝也	-11.4659
終則有始	-11.466
攺	-11.466
藁	-11.466
俶	-11.466
堂阜	-11.466
蔑	-11.466
凡人之生也	-11.4661
慘	-11.4661
珣	-11.4662
猪	-11.4662
全生之說勝則	-11.4662
􁈩	-11.4662
繹	-11.4663
可乎管子對曰	-11.4663
東西南北	-11.4663
羹	-11.4663
以難攻	-11.4664
参	-11.4664
獄久不決	-11.4664
沐浴	-11.4664
臻	-11.4664
上之五者所	-11.4664
别本註	-11.4664
者過半	-11.4664
憑	-11.4665
以易攻	-11.4665
有橐天地	-11.4665
涉難而不	-11.4665
悼	-11.4665
主法令之吏	-11.4665
􁲱	-11.4665
芳	-11.4665
篤	-11.4666
滑	-11.4666
纍	-11.4666
蕪	-11.4666
較	-11.4666
逾	-11.4666
魁	-11.4666
乃下令曰	-11.4666
任大官	-11.4666
蘄	-11.4666
護	-11.4666
蹤跡	-11.4667
雕琢	-11.4667
咀	-11.4667
地不一利	-11.4667
冕	-11.4667
鐵官之	-11.4667
屎	-11.4668
餙	-11.4668
遥	-11.4668
是何也曰	-11.4668
耕戰之士	-11.4668
撞	-11.4668
橫	-11.4668
陸費墀	-11.4669
良馬固車	-11.4669
掖	-11.4669
躓	-11.4669
不蓋天下不能正天下	-11.4669
諂諛	-11.4669
各得其所	-11.4669
装	-11.467
動而無不從静而無不同	-11.467
任之以事	-11.467
楫	-11.467
瓴	-11.467
令則行禁則止	-11.4671
栗	-11.4671
愉	-11.4671
死不赦	-11.4671
伎	-11.4671
此世之所以	-11.4671
貼	-11.4671
餐	-11.4671
昀	-11.4671
熈	-11.4672
刎	-11.4672
􁓦	-11.4672
禪	-11.4672
譟	-11.4672
俛	-11.4672
昭知天下通於四極	-11.4672
紘	-11.4672
珥	-11.4672
橈	-11.4673
績按别本注	-11.4673
金者用之量也	-11.4673
雹	-11.4673
簮	-11.4674
蔓	-11.4674
俈	-11.4674
氏之儒有	-11.4674
蹙	-11.4674
拆	-11.4675
心之中又有心	-11.4675
溪	-11.4675
明於日月察於父母	-11.4675
鈎弦	-11.4675
貟	-11.4676
南門之外	-11.4676
座	-11.4676
蠢	-11.4677
眇	-11.4677
鮑叔謂管仲曰	-11.4677
若秋雲之	-11.4677
退而脩鄉	-11.4677
擋	-11.4678
主積于	-11.4678
舩	-11.4678
飄風暴雨	-11.4678
笠	-11.4678
者世謂之	-11.4678
淇	-11.4678
無求於人	-11.4679
糠	-11.4679
其次一之	-11.4679
枳棘	-11.468
者四一曰	-11.468
莫善於	-11.4681
彫	-11.4681
中婦諸子	-11.4681
卞	-11.4681
吟	-11.4681
雷霆	-11.4682
悚	-11.4683
博學而不	-11.4683
扇	-11.4684
鼠	-11.4684
篡	-11.4684
必不幾矣	-11.4684
萇𢎞	-11.4684
鎧	-11.4684
之民也而世少之曰	-11.4684
態	-11.4685
洎	-11.4686
治心在	-11.4686
譚	-11.4686
臣不誣能	-11.4687
􁉢	-11.4687
崔昻	-11.4687
六畜不育	-11.4688
舟檝	-11.4689
怵	-11.4689
録事參軍	-11.469
法家類	-11.469
汗	-11.469
犢	-11.4691
之爪角害之	-11.4691
拱	-11.4691
臥	-11.4692
塌	-11.4693
等謹案	-11.4693
友有少長	-11.4693
脇	-11.4694
漱	-11.4694
磔於市	-11.4694
誨	-11.4694
􁅀	-11.4694
汪	-11.4695
討	-11.4695
由此觀之	-11.4695
􁏸	-11.4695
精氣之極也	-11.4696
煚	-11.4696
抽	-11.47
壕	-11.47
床	-11.4701
恍	-11.4702
吹竽	-11.4704
孽	-11.4704
聖王之治	-11.4704
杭	-11.4705
稺也謂之逆	-11.4705
妬紛	-11.4709
若雷電	-11.4714
見唐書	-11.4717
悛	-11.4721
副樞知	-11.5048
市之賦	-11.5254
人物則皇	-11.6005
傳舊集不	-11.6249
知開封府	-11.6688
不出謂之滅	-11.6824
碣	-11.7099
閻遏公孫衍	-11.71
踶	-11.7102
丕	-11.7103
縞	-11.7117
洗	-11.7118
褐	-11.712
不治奚待於	-11.712
察盗之術	-11.712
覆載萬民	-11.712
贛	-11.7121
其士民貴	-11.7121
封君之臣	-11.7122
曰何謂也管子對曰今天下起兵加我	-11.7122
當此時也	-11.7122
之則幷與	-11.7122
把	-11.7123
則民倍貸以	-11.7125
上令不能必行	-11.7125
親也有病則憂臨死則懼既死則哀今	-11.7126
無遺善無隱姦	-11.7126
之數者不可差以長短	-11.7127
諒	-11.7127
蛙	-11.7127
十之籍大女	-11.7127
事語第七十一	-11.7128
姦巧不生	-11.7128
民不安其居	-11.7128
禁不能必止	-11.7128
暴人不勝邪亂不止	-11.7129
墯	-11.7131
至誠哀矜	-11.7131
主釋法以譽進能則臣離上而下比周矣	-11.7131
托	-11.7131
嶠	-11.7131
則其所立亦	-11.7131
民心誅殺	-11.7131
用犧牲珪璧禱於鬼神鬼神	-11.7131
當其功故雖	-11.7131
當其罪賞賜	-11.7131
蜚	-11.7131
寤	-11.7132
誼	-11.7132
片	-11.7132
炊	-11.7132
蜚蓬之問	-11.7132
事不工事不工	-11.7132
轝	-11.7132
故其諾未	-11.7132
於上故主有以	-11.7132
鍊	-11.7133
威勢也故威勢	-11.7134
者非以愛主也	-11.7134
失不可及之功	-11.7134
眞	-11.7135
人輕棄之	-11.7135
其所任官者	-11.7135
困難成之事	-11.7135
棄萬苛	-11.7135
無功而可以得富	-11.7135
動無非法者所以禁過而外私也	-11.7136
之國勞而多禍	-11.7136
君出致於	-11.7136
莫貴於勝	-11.7136
也然而不敢者	-11.7136
能反其性	-11.7136
先令之失	-11.7136
喜賞惡罰之人離公道而行私術矣	-11.7136
威不兩錯	-11.7136
亦當一倍貸	-11.7136
小國諸侯不	-11.7136
政不二門	-11.7136
相益不務尊君也大臣務相貴而不任國	-11.7136
以致民利	-11.7136
厨	-11.7136
問左右左右	-11.7136
明年狄人伐	-11.7136
民輕其禄賞	-11.7136
炎	-11.7136
而賞罰之所立者	-11.7136
萬家以上	-11.7136
埏	-11.7136
發於名聲	-11.7136
穰	-11.7137
俎	-11.7137
之裁大故能兼	-11.7137
民賤其爵服	-11.7137
誅殺人之謂	-11.7137
刁	-11.7138
冰	-11.7138
貰	-11.7138
問曰幾何人	-11.7138
也管子曰千人之	-11.7138
壮	-11.7138
螣	-11.7138
貧民貧	-11.7138
君不聞此所謂逺於	-11.7138
者賜之百金	-11.7138
人獨操國	-11.7138
理不上通	-11.7138
明别則易治	-11.7138
之集道行不顧	-11.7139
不以彤弓石璧	-11.7139
則民之報上亦	-11.7139
奪之以㑹	-11.7139
差肩而	-11.7139
引而來不	-11.7139
推而往不	-11.7139
朝先王之廟觀於周室	-11.7139
欲生而惡死	-11.7139
籍而務則	-11.7139
囷窌之數	-11.714
獨國之君卑而不威	-11.714
守禮莫若敬	-11.714
田野充	-11.714
發五苑	-11.714
一朝素賞	-11.714
兔	-11.714
主盛處賢	-11.714
是故大國之君	-11.714
未之見而親焉可以往矣	-11.714
自媒之女醜而不信	-11.714
充其言則	-11.714
國之所以安危者	-11.714
無遺利無隱治	-11.714
里也步者	-11.7141
四萬二千金	-11.7141
偷幸而望於上	-11.7141
所歸心行者也	-11.7141
民之所利立之所害除之則民人從	-11.7141
聽治不公	-11.7141
行而不可再者君不行也	-11.7141
髙而不見地不易也	-11.7141
鷙	-11.7141
術而御之	-11.7142
逗	-11.7142
逹	-11.7142
人事之起近親造怨	-11.7142
升加一	-11.7142
告不知謂之勞而無功	-11.7142
天道之極逺者自親	-11.7142
此其何故也管子	-11.7142
砥	-11.7142
主有憂則	-11.7142
厩	-11.7142
琪	-11.7142
誠莊事斷	-11.7142
屬數雖衆非以尊君也	-11.7143
此之謂國無人	-11.7143
羿之道非射也造父	-11.7143
先王之治國也使法擇人不自舉也	-11.7143
天財地利	-11.7143
成囷京者二家	-11.7143
生棟覆屋怨怒不及弱子下瓦慈母操箠	-11.7143
而同歸古今一也	-11.7143
主則主不得	-11.7143
立義而加之以勝至威而實之以	-11.7143
眉睫	-11.7143
揜	-11.7143
髙下萬物以	-11.7143
不出於口不見於色	-11.7143
孰知其則	-11.7143
鄂	-11.7143
平原之隰奚有於髙	-11.7143
桓公築夷儀以封之	-11.7143
百官雖具非以任國也	-11.7143
顧憂者可與致道	-11.7143
之以物則物重不	-11.7143
事不能再其本而上之求焉無止	-11.7143
天子之春令也以	-11.7143
夷貉之	-11.7143
故君道立	-11.7143
管子又言曰	-11.7143
莫生之則莫死之	-11.7143
設官以守	-11.7143
遷封食邑	-11.7143
􁝈	-11.7143
績按當依觧作	-11.7144
鑄幣而	-11.7144
其功順天者天助之其功逆天者天	-11.7144
大山之隈奚有於深	-11.7144
巧者有餘而拙者不足	-11.7144
於山五尺見水	-11.7144
以物則物輕	-11.7144
吾國之豪	-11.7144
瑗	-11.7144
用鹽獨	-11.7144
運萬物運則萬物賤萬物賤則萬物可因	-11.7144
拯	-11.7144
備水之器	-11.7145
外内朋黨雖有大姦其蔽主多矣	-11.7145
何以知之子産曰	-11.7145
事再其本	-11.7145
其號令之徐疾	-11.7145
四戰之國	-11.7145
國地大而	-11.7145
於器械之利則	-11.7145
有犯禁而可以得免者則斧鉞不足以	-11.7145
無鹽則腫守圉之	-11.7145
由是知名	-11.7145
稹	-11.7145
者其人莫往道	-11.7145
聞之果令人之衡山求買械器	-11.7145
莫不欲利而惡害	-11.7145
號令不足以使下	-11.7145
計緩急之事則危危而無難	-11.7145
請命於天地知氣和則生物從	-11.7145
軍并其地	-11.7145
雖善不親	-11.7145
韓康子	-11.7145
乆而不勝其福	-11.7145
人唯恐其不復	-11.7145
使國君得其治則人君從㑹	-11.7145
侑	-11.7145
言之不可復者	-11.7145
散積聚	-11.7145
之一分在	-11.7145
制於臣矣	-11.7145
不可不謹也	-11.7145
令不必行禁不必止戰不必勝守不必固	-11.7145
必諾之言不足信也	-11.7145
視宫室觀車馬衣服而侈儉之國可知也	-11.7145
上有鈆者其下有	-11.7145
之務則功得而無害	-11.7145
北方副圖	-11.7145
北澤燒	-11.7145
困通於出入之度則深入而不危審於動	-11.7145
瘳	-11.7145
莫樂之則莫哀之	-11.7145
著於取與之分則得地而不執	-11.7145
雖犯禁而可以得免	-11.7145
羣木安逐	-11.7146
柱	-11.7146
宇	-11.7146
惻	-11.7146
七十二家	-11.7146
二十國之筴也	-11.7146
北海之衆	-11.7146
叢	-11.7146
失天之度雖滿必涸	-11.7146
杲	-11.7146
犂	-11.7146
足以勸民號令不足以使下斧鉞不足以	-11.7146
上尊而民從	-11.7146
且威則君道備矣	-11.7146
之官則舉事而有功此居於圖北方方外	-11.7146
則民之用者	-11.7146
卒輕患而傲敵	-11.7146
子出奉令則	-11.7146
巨橋之粟	-11.7146
形勢器械	-11.7146
慕容彦超	-11.7146
有土之君	-11.7146
有地牧民者務在四時	-11.7146
民無所游食	-11.7146
甥	-11.7146
管子對曰昔者桀	-11.7146
進退無儀則政令不行	-11.7146
鉒	-11.7146
髙下令之徐疾	-11.7146
惶	-11.7146
以黨舉官則民務交而不求用	-11.7147
爵貴有名以休之	-11.7147
小謹者不大立	-11.7147
屢訴不得直因	-11.7147
竟内之衆	-11.7147
三升少半	-11.7147
上下不和雖安必危	-11.7147
之陳無種者	-11.7147
二升少半	-11.7147
倉廩實則知禮節衣食足則知榮辱	-11.7147
則賔者不肅	-11.7147
即令隰朋	-11.7147
察數而知治審器而識勝	-11.7147
得聚庸	-11.7147
此皆距周七千八百	-11.7147
濟濟多士殷民化之紂之	-11.7147
版法解第六十六	-11.7147
還四年伐孤竹	-11.7147
鹽之重升加分	-11.7147
齊有渠展之鹽	-11.7147
蘢	-11.7147
斟	-11.7147
魅	-11.7147
上地方八十里	-11.7147
山權數第七十五	-11.7147
舉所美必觀其所終	-11.7147
萬室之國一千室之都四	-11.7147
廢所惡必計其所窮	-11.7147
以十分之二	-11.7147
定周室天下	-11.7147
王天下而失天之道天下不可得而王也	-11.7147
㢲	-11.7147
代王聞之	-11.7147
代谷之上	-11.7147
准此而行	-11.7147
可化而使之	-11.7147
尺而至於泉付山	-11.7147
得繕冢墓	-11.7147
扉	-11.7147
施九十	-11.7147
昉	-11.7147
水者八千里	-11.7147
眀於機數	-11.7147
磐	-11.7147
貴賤不求其	-11.7147
賢者食於能	-11.7147
鬭士食於功	-11.7147
慶勉敦敬以顯之	-11.7148
持滿者與天	-11.7148
地之東西二萬八千里南北二萬六千里	-11.7148
威利之操	-11.7148
明法解第六十七	-11.7148
立政九敗解第六十五	-11.7148
萬有餘里	-11.7148
省事少食	-11.7149
貶	-11.7149
鴈	-11.7149
馬牛選具	-11.7149
人之求事也	-11.7149
受辭者名之運也	-11.7149
寄生之君	-11.7149
業程於	-11.7149
毉	-11.7149
耗而釡	-11.7149
不勸勉不行制不死節	-11.7149
五家之數殊而用一也桓公曰	-11.7149
伯夷叔齊	-11.7149
兵尚脅盾	-11.7149
凡此十二事	-11.7149
吾國之竒出	-11.7149
曰號令也斧鉞也禄賞也六攻者何也	-11.7149
物之髙者也	-11.7149
矣不當盡語我昔者無道之	-11.7149
𥿄	-11.7149
徐疾而已矣	-11.7149
圭	-11.7149
蔬	-11.7149
塞心術計數	-11.7149
男女不淫	-11.7149
鋒	-11.7149
議獄緩死	-11.7149
輿死扶傷	-11.7149
􁧫	-11.7149
則是上妄	-11.7149
君鑄錢立幣民	-11.7149
告其相曰	-11.7149
坐長什倍	-11.7149
守之以筴	-11.7149
山禪於梁父	-11.7149
者置之黄金一斤直食八石民之	-11.7149
賤則以幣予	-11.7149
輔其過則社稷	-11.7149
殺僇禁誅	-11.715
晉和凝撰	-11.715
脚	-11.715
勇勝怯智勝愚	-11.715
已語我昔者有道之君	-11.715
而桓公不使也狄人攻	-11.715
蓏	-11.715
㙗	-11.715
五升少半	-11.715
和好不基貴賤無司事變日至	-11.715
善習五官謹修三官必設常主計必先定	-11.715
天覆萬物	-11.715
於水則神	-11.715
旗物尚黑	-11.715
棧臺之職	-11.715
盡於此乎管子	-11.715
芬然若	-11.715
謹按大明律云	-11.715
鮑叔馳而西	-11.715
不濟乎寡人大惑	-11.715
令之所止令之所發	-11.715
倍之力而不至者有	-11.715
得失之數皆在此	-11.715
忌於辱	-11.715
行則百吏皆	-11.715
衡山之械器	-11.715
辜限外死者	-11.715
扞	-11.7151
旦暮利之衆乃勝任	-11.7151
正法直度罪殺不赦	-11.7151
之所生從法之不立也	-11.7151
之籍去分	-11.7151
合内空周外	-11.7151
吾貧萌	-11.7151
曰寡人多務令衡籍吾國	-11.7151
用力苦則勞	-11.7151
舉發以禮時禮必得	-11.7151
受息之萌九百餘家	-11.7151
百口之家百人	-11.7151
霆	-11.7151
縮	-11.7151
而不行則賞罰	-11.7151
蒞	-11.7151
下情上而道止謂之侵	-11.7152
攸	-11.7152
燋	-11.7152
藏不忍行	-11.7152
見吕大防	-11.7152
見察姦門	-11.7152
財不可以嗇用力不可以苦用財嗇則費	-11.7152
内不量力外	-11.7152
四十倍之粟	-11.7152
請式璧而聘之	-11.7152
人情非不愛其	-11.7152
做	-11.7152
南方副圖	-11.7152
是以小者兵挫而地削大者身死而國亡	-11.7152
泲	-11.7152
盛怨氣	-11.7152
童山竭澤	-11.7152
說行若風雨發如雷電此居於圖方中	-11.7152
輳	-11.7152
不一至於庭	-11.7152
能依鬼神作法詛呪	-11.7152
定宗廟育男女	-11.7152
民不足令乃辱	-11.7152
也而令乃行	-11.7152
互	-11.7152
十口之家十人	-11.7152
求天下之精材	-11.7152
角試否臧收天下之豪傑有天下之稱材	-11.7152
予而無取者天地之配也	-11.7152
四舉而農佚粟十	-11.7152
瘦	-11.7153
令不行禁不止	-11.7153
審謀章禮選士利械則霸	-11.7153
透	-11.7153
常令水官	-11.7153
民苦殃令不行施報不得禍乃始昌禍昌	-11.7153
者與功而不與分焉	-11.7153
不行其野不違其馬	-11.7153
二十四月	-11.7153
五衢之民	-11.7153
再舉而民無不從三舉而地辟散成	-11.7153
同異分官則安	-11.7153
吮	-11.7153
多者千萬少者六七百萬其出之中	-11.7153
曰田若干	-11.7153
犇	-11.7153
田連成竅	-11.7153
睹庚子金行御天子	-11.7153
見曽鞏	-11.7153
親之以仁養之以義報之以	-11.7153
論百工之銳器	-11.7153
酤	-11.7153
鑪	-11.7153
○○○○○	-11.7153
地不辟則	-11.7154
誕	-11.7154
紏	-11.7154
身仁行義服忠用信則王	-11.7154
人殺妻之父母兄弟數口	-11.7154
輕重丙第八十二	-11.7154
二中郢賜與十二中絶收聚十二大暑至	-11.7154
偕習以悉	-11.7154
鍿	-11.7154
肩	-11.7154
伴	-11.7154
核	-11.7154
隨時而變	-11.7154
賞厚而信	-11.7154
抃	-11.7154
者也未有能多	-11.7154
合男女十二中卯十二下卯三卯同事	-11.7154
心之在體君之位也	-11.7154
臊	-11.7154
使吾萌春有以倳耜夏有以決芸	-11.7154
假貸吾貧萌使有以	-11.7154
唐戴胄	-11.7154
堯舜之所難	-11.7154
王良造父	-11.7154
貴有以行令	-11.7154
通之以道畜之以	-11.7154
丁壯者	-11.7154
之則非有補於	-11.7154
故野不積草	-11.7154
有功畜之以道養之以	-11.7154
民亂於内	-11.7154
燒山林破増藪焚沛澤	-11.7154
發之以力威之以誠一舉而上下得終	-11.7154
臨事不信於民	-11.7154
至卑耳之谿	-11.7154
髙下不貳	-11.7154
檝	-11.7154
諸侯卿大夫列士循於百姓發號出令曰	-11.7155
山至數第七十六	-11.7155
有千金之賈	-11.7155
之外三千里之内諸侯五年而㑹至習命	-11.7155
年三卿使四輔	-11.7155
府不積貨	-11.7155
殺正商賈之利而益農夫之事	-11.7155
沸	-11.7155
澄	-11.7155
盡善十二中暑十二小暑終三暑同事	-11.7155
諸侯失於外	-11.7155
甕	-11.7156
荅	-11.7156
葺	-11.7156
夢見竈	-11.7156
里之外二千里之内諸侯三年而朝習命	-11.7156
一女必有一	-11.7156
仲尼不知善賞	-11.7156
兵尚矛	-11.7156
削衡山之	-11.7156
十年之蓄積	-11.7156
年之積粟行於	-11.7156
所欲者能得諸民	-11.7156
殺不辜則	-11.7156
毋功而可以得富者	-11.7156
沐涂樹之枝	-11.7156
瞠	-11.7156
稱貸之家皆齊首	-11.7156
蛟龍得水而神可立也虎豹	-11.7156
託幽而威可載也	-11.7156
鉗	-11.7156
魂	-11.7156
筭	-11.7156
春秋冬夏不更其節	-11.7156
栢	-11.7156
正彼天植	-11.7156
評	-11.7156
貨財行於國	-11.7156
輕重乙第八十一	-11.7156
少長貴賤不相踰越	-11.7156
璋	-11.7156
錢五倍	-11.7156
大男食	-11.7157
乎衆人之用其心也愛者憎之始也	-11.7157
有功者必賞	-11.7157
庄	-11.7157
頗亦類此	-11.7157
三本者審則	-11.7157
刑曹駮	-11.7157
勢第四十二	-11.7157
君服赤色味苦味	-11.7157
圜豚豚乎莫得	-11.7157
塩	-11.7157
大夫城藏	-11.7157
形勢解第六十四	-11.7157
恭祖舊	-11.7157
當此之時也	-11.7157
禺氏之	-11.7157
能勝其攻故	-11.7157
與民為一體	-11.7157
輂	-11.7157
闟	-11.7157
韻	-11.7157
鬈	-11.7157
帯	-11.7158
㑹諸侯令曰以爾封内之財物國之所有	-11.7158
出風俗通	-11.7158
君子食於道小人食於力	-11.7158
喜無以賞怒無以殺喜以賞怒以殺怨乃	-11.7158
守圉之備	-11.7158
皮幹筋角	-11.7158
刑則交寒害	-11.7158
於三者而自有	-11.7158
乳	-11.7158
於燥濕	-11.7158
其應物也若偶之	-11.7158
亡雜篇十	-11.7158
博一純固則獨行而無敵	-11.7158
威下繫於民	-11.7158
窟	-11.7158
乎吾亦鑒焉管子對曰夷吾	-11.7158
乎管子對曰可夫	-11.7158
則民多詐	-11.7158
天不變其常地	-11.7158
始乎無端道也卒乎無窮	-11.7158
宫室臺榭	-11.7158
此五子者	-11.7158
耕者幾何家	-11.7158
民知而取之	-11.7158
累代之功	-11.7158
舉不失天時	-11.7158
菅	-11.7158
祔	-11.7159
淫非之地	-11.7159
什一之師	-11.7159
大收十二寒至	-11.7159
安髙在乎同利	-11.7159
勝則險阻不守	-11.7159
桑麻計其六畜之産而貧富之國可知也	-11.7159
金與粟爭貴	-11.7159
鵠鵾之所在君	-11.7159
纑	-11.7159
牧民第一	-11.716
眀劉績撰	-11.716
上察於天下	-11.716
尊君卑臣非計親也以	-11.716
奥	-11.716
新唐書	-11.716
理名實勝之	-11.716
閣	-11.716
入共受命焉	-11.716
剪	-11.716
十二小榆賜予十二中寒收聚十二中榆	-11.716
白心第三十八	-11.716
道有損瘠	-11.716
鎛	-11.716
七臣七主第五十二	-11.716
不足者皆以其事業	-11.716
也不以法令案	-11.716
侣	-11.716
合而聽之則	-11.716
士之有田而不	-11.716
庖	-11.716
故聖人之爲國也	-11.716
槍	-11.716
猶尚可加	-11.716
逺近一心	-11.716
鍼	-11.716
鯀	-11.716
袖	-11.7161
冬行秋政霧	-11.7161
行夏政雷	-11.7161
行春政烝泄	-11.7161
召管仲管仲至公	-11.7161
君子食於道則	-11.7161
校尉縁無忌以致罪	-11.7161
鍾其出之	-11.7161
寡人幼弱惛愚不通	-11.7161
酖	-11.7161
故先王不滿也	-11.7161
以結交焉	-11.7161
圉發不意故莫之	-11.7161
曰寡人不幸而好	-11.7161
項	-11.7161
鰥寡獨老不與得焉	-11.7161
不疾其威	-11.7161
之通施也	-11.7161
也而以上為	-11.7161
人何族之	-11.7161
以御其司命故民力可	-11.7161
樹木之勝霜	-11.7161
絇	-11.7161
者置之黃金一斤直食八石民之	-11.7161
臣離味	-11.7161
齓	-11.7161
生殺之柄	-11.7162
不忠君不能奪	-11.7162
在子期年子	-11.7162
在臣期年臣	-11.7162
草田多	-11.7162
鄢	-11.7162
久也服也習也謂	-11.7162
無好無惡	-11.7162
遼	-11.7162
以時禁發	-11.7162
官處四體而無禮者流之焉莠命	-11.7162
昔者聖王之治其民也	-11.7162
請立為大司	-11.7162
之歸之也譬若市人	-11.7162
官長任事守職	-11.7162
鎌	-11.7162
大卿初	-11.7162
購	-11.7163
田野視其耕芸計其農事而飢飽之國可	-11.7163
五舉而務輕金九	-11.7163
地圖第二十七	-11.7163
㐫	-11.7163
力成吾君之禍	-11.7163
攜	-11.7163
皮幣不衣	-11.7163
而食者幾何家	-11.7163
胙	-11.7163
衆寡同力	-11.7163
鏘	-11.7163
御神用寶	-11.7163
翰筆談	-11.7163
見沈括内	-11.7163
明日管仲朝公	-11.7163
天不一時	-11.7163
請四輔	-11.7163
士修身功材	-11.7163
山諸侯之國	-11.7163
幨	-11.7163
故不以天下為	-11.7163
日益長利以作	-11.7163
梁聚之言	-11.7163
管仲再拜稽首	-11.7163
置法出令臨衆用民計	-11.7163
蠭	-11.7163
版法第七	-11.7164
者上之所以一民使下也私	-11.7164
萑	-11.7164
二心私學	-11.7164
垂棘之璧	-11.7164
故曰山林雖	-11.7164
不行於其民可知也	-11.7164
威嚴寛惠	-11.7164
山川之故祀必以時六㑹諸侯令曰以爾	-11.7164
故必勝而無敵四機不	-11.7164
障塞不審不過八日而外賊得	-11.7164
䜛	-11.7164
不利作土功之事	-11.7164
則戰之自勝	-11.7164
嗜欲充益	-11.7164
垤	-11.7164
廏	-11.7164
楟	-11.7164
民和輯	-11.7164
置一法官	-11.7164
義者莫肯	-11.7164
腸	-11.7164
鱗獸之火	-11.7164
之有所不行也	-11.7165
君臣共道則亂	-11.7165
惠也刑罰必也	-11.7165
者下之所以侵	-11.7165
出耕十二天氣下賜與十二義氣至	-11.7165
積之多寡定府官之計數養老弱而勿通	-11.7165
宫室必有度	-11.7165
常疾收孤寡三㑹諸侯令曰田租百取五	-11.7165
日至始數四十六日	-11.7165
則歸之於民	-11.7165
旨	-11.7165
家與府爭貨	-11.7165
暨	-11.7165
入而不至謂之	-11.7165
粥	-11.7165
中射之士	-11.7165
乏耕織之器四㑹諸侯令曰	-11.7165
事察伐勝之	-11.7165
實輔四時	-11.7165
市賦百取二	-11.7165
急時分勝之	-11.7165
猛毅之君不免於外難懦弱之君	-11.7165
禁發必有時	-11.7165
行備具勝之	-11.7165
五和時節	-11.7165
歸齊若流	-11.7165
猥	-11.7165
王子比干	-11.7165
秣	-11.7165
算	-11.7165
賠	-11.7165
人主莫不惡也	-11.7165
入州里觀習俗聽民之所以化其上	-11.7165
出魏志本傳	-11.7165
勿與分於	-11.7165
卑身雜處	-11.7165
寕	-11.7165
小稱第三十二	-11.7165
而治亂之國可知也	-11.7165
所謂亂國者臣術勝也	-11.7166
定制禄勝	-11.7166
定選士勝	-11.7166
知彭州九隴縣	-11.7166
草木雖美	-11.7166
死亡不食不過四日而軍財在敵	-11.7166
獨行而無敵矣	-11.7166
藪澤以時禁發之	-11.7166
鱉	-11.7166
所慮而請	-11.7166
矣桓公曰善哉桓公曰仲父旣	-11.7166
亦有取焉	-11.7167
出而不入謂之	-11.7167
縗	-11.7167
時而王不難矣	-11.7167
糗	-11.7167
行秋政雷	-11.7167
黥	-11.7167
八舉而勝行威立九舉而帝事成形	-11.7167
定方用勝	-11.7167
定死生勝定成敗勝定依竒勝	-11.7167
定綸理勝	-11.7167
見司馬光丞	-11.7167
道路偕度量一稱數	-11.7167
先王知其然故	-11.7167
勿敢左右	-11.7167
受政寡人	-11.7167
衣裳賀之	-11.7167
二十乗先	-11.7167
公子糺可謂有	-11.7167
民之經産	-11.7167
與卑耳之貉	-11.7167
諸侯莫不來服	-11.7167
謀泄菑	-11.7167
鞏	-11.7167
所謂治國者主道明也	-11.7167
故上令而下應主行而臣從	-11.7167
春行冬政肅	-11.7167
四富貧之終五盛衰之紀六安危之機七	-11.7167
禮孝弟	-11.7167
請以平賈取之	-11.7167
勸之以慶賞	-11.7167
扣	-11.7168
不敢愛其死	-11.7168
以來逺人	-11.7168
溶	-11.7168
而守不固戰不勝而守不固則國不安矣	-11.7168
七二十八	-11.7168
九本搏大人主之守也	-11.7168
渚	-11.7168
竒舉發不意則士歡用	-11.7168
以文勝情	-11.7168
定民之居成民之事	-11.7168
非兹是無以	-11.7168
任法第四十五	-11.7168
則罪不辜	-11.7168
君臣下第三十一	-11.7168
罪不應死	-11.7168
觀絶理者	-11.7168
鑰	-11.7168
兠	-11.7169
帝王者用	-11.7169
社稷不血食	-11.7169
軍之守也六紀審	-11.7169
仁慈孝於父母長弟聞於鄉里者有則以	-11.7169
大勝無不勝也此居於圖南方方外	-11.7169
崢丘之戰	-11.7169
帑	-11.7169
迺	-11.7169
埊	-11.7169
春采生秋采蓏夏處隂冬處陽	-11.717
煎	-11.717
九和時節	-11.717
國無以小與不幸而削亡者	-11.717
數戰則士疲數勝則君驕驕君使疲民則	-11.717
謂之蔽才其罪五有司	-11.717
兵無主則不蚤知	-11.717
其主主因離法而聽之此所謂	-11.717
唇	-11.717
往小侯以	-11.717
得天極則	-11.717
明王知其然故	-11.717
此其可比於君子之德	-11.717
狙	-11.717
罪身者民	-11.717
見其不可也惡之	-11.717
見災變之氣	-11.717
計必先定	-11.717
風雨無違	-11.717
兌	-11.717
哤	-11.717
摸	-11.717
明於機數	-11.717
煇	-11.717
隻	-11.717
獨出獨入	-11.717
治濕氣	-11.717
飲於白后之井	-11.717
有罪不必誅	-11.717
管子入復	-11.717
於雷鼓	-11.717
戱	-11.7171
者勿征於	-11.7171
敢轉其力	-11.7171
治事加於	-11.7171
充不美則	-11.7171
逋	-11.7171
霸形第二十二	-11.7171
賡	-11.7171
彦	-11.7171
為開封府	-11.7172
平治天下及	-11.7172
以教其子弟	-11.7172
摧	-11.7172
曰寡人有千嵗之食而無百嵗之夀今	-11.7172
薄百爵十二白露下收聚十二復理賜	-11.7172
疾怨非上賤爵輕禄	-11.7172
能而有爵禄則百姓	-11.7172
臣不務盡力	-11.7172
施七尺	-11.7172
循名責實	-11.7172
涿	-11.7172
蒿	-11.7172
夫爭天下者	-11.7172
澗	-11.7172
當是時也	-11.7172
州軍事推官	-11.7172
濘	-11.7172
陬	-11.7172
樞言第十二	-11.7172
而勿盡桓公曰	-11.7172
莧	-11.7172
冊	-11.7172
擅破一國彊在	-11.7172
物固有形形固有名	-11.7172
藜	-11.7172
行春政華	-11.7172
十二期風至戒秋事十二小	-11.7172
戌	-11.7172
行冬政耗	-11.7172
非其難者也	-11.7172
九守第五十五	-11.7172
則使無由	-11.7172
心術上第三十六	-11.7172
樠	-11.7172
詭俗異禮	-11.7172
霸臣貪	-11.7172
究其風俗考其枉直	-11.7173
芋	-11.7173
尊而下卑逺近不乖此居於圖南方方外	-11.7173
疾病姑樂乎	-11.7173
秋行夏政葉	-11.7173
知先後不失地利	-11.7173
墙	-11.7173
居數月	-11.7174
啼	-11.7174
無枉濫	-11.7174
疆	-11.7174
犴	-11.7174
塲	-11.7174
僉	-11.7174
凡心之形過知失生	-11.7174
啞	-11.7174
蔞	-11.7174
不亦無術乎	-11.7174
以形色之	-11.7174
吝	-11.7174
有刑至無刑	-11.7174
軺	-11.7174
乍	-11.7174
善人在則	-11.7174
榆	-11.7174
行軍襲邑舉錯	-11.7174
鞍	-11.7174
織而衣	-11.7174
㤀	-11.7174
田悉徙	-11.7174
枳	-11.7175
也以夏日至始數	-11.7175
心術下第三十七	-11.7175
其槐其楊	-11.7175
以情理察之	-11.7175
以鄭城與宋水為請	-11.7175
富而驕肆	-11.7175
此兵之三闇也	-11.7175
與地同極	-11.7175
諸侯以縵帛鹿皮報	-11.7175
日不食無	-11.7176
榬	-11.7176
致天下之精材	-11.7176
恃不信之人而求以	-11.7176
庾	-11.7176
徽	-11.7176
丐	-11.7176
粗	-11.7176
遫	-11.7176
鄰國有事鄰國	-11.7176
毒而無怒怨而無言欲而無謀	-11.7176
以其所有易其所無	-11.7176
衷	-11.7176
帚	-11.7176
歸親於上矣	-11.7176
無誹譽	-11.7176
痟	-11.7176
蓑	-11.7176
刑以弊之	-11.7176
天子出令命左右	-11.7176
惡得伐不	-11.7176
拘秦夏	-11.7176
攻之自毁	-11.7176
紓	-11.7176
義審而禮明	-11.7176
臣有大罪	-11.7176
衆在廢私	-11.7176
紉	-11.7177
阮	-11.7177
戒第二十六	-11.7177
佳	-11.7178
以其國造難生患	-11.7178
螫	-11.7178
亦勿聽	-11.7178
依名而斷	-11.7178
入國第五十四	-11.7178
忱	-11.7178
箎	-11.7178
釬	-11.7178
順殺氣	-11.7178
五沃之土	-11.7178
宿治者削	-11.7178
崖	-11.7178
百姓不用則天下	-11.7178
管仲復於桓公曰	-11.7178
美哉岪岪	-11.7178
而不理者復	-11.7178
近親愛	-11.7178
酲	-11.7178
鋏	-11.7178
篲	-11.7178
電	-11.7178
啇	-11.7179
蟠	-11.7179
恪	-11.7179
繼絶世	-11.7179
覓	-11.7179
泉之不竭	-11.7179
蚖菕	-11.7179
雕文刻鏤	-11.7179
于游宗游宗以	-11.7179
冶之於金	-11.7179
比官中之事	-11.7179
若在長家子弟臣妾屬役賔客則	-11.7179
腦	-11.7179
唉	-11.7179
國之經俗	-11.7179
興兵而南存宋鄭	-11.7179
掇	-11.7179
滿稽斷	-11.7179
熰	-11.7179
酢	-11.7179
陟	-11.7179
不可量則衆	-11.718
磔	-11.718
倮	-11.718
刑以秋冬	-11.718
合男女十二中夘十二下夘三夘同事	-11.718
賞以春夏	-11.718
城陽大夫	-11.718
能用天下之權	-11.7181
天地萬物之橐	-11.7181
釐負羈	-11.7181
陶之於埴	-11.7181
九變第四十四	-11.7181
仄	-11.7181
儐	-11.7181
前心術作	-11.7181
失其爪牙	-11.7181
急作五聲	-11.7181
藉人以其所	-11.7181
如飛鳥	-11.7181
繦	-11.7181
彗	-11.7181
怸	-11.7181
地利者權	-11.7182
棲	-11.7182
子言伐莒	-11.7182
正第四十三	-11.7182
錠	-11.7182
及于游宗	-11.7182
居室如	-11.7182
書録解題	-11.7182
者不得復築也屋之燒者不得復葺也令	-11.7182
處穴要宋田夾塞兩川使水不得東流	-11.7182
具取之地	-11.7182
召忽强武	-11.7182
洀	-11.7182
而兵出於竟	-11.7182
邵	-11.7182
沔	-11.7182
朝者義之理也	-11.7182
人有喪雌雄	-11.7183
首者賜之	-11.7183
狴	-11.7183
五量之宗也	-11.7183
湛而不澤無髙下葆澤以處	-11.7183
國從其政	-11.7183
陌	-11.7183
營於物而	-11.7183
者皆受天	-11.7183
餅	-11.7183
事而竣公又問焉曰於子之屬有	-11.7183
君勿救	-11.7183
大匡第十八	-11.7183
幭	-11.7183
東山之西水深滅垝	-11.7183
熯焚鄭地使城	-11.7183
夫天地一險一易若鼓之有	-11.7184
有飢色	-11.7184
思人衆兵彊	-11.7184
能害己者必齊也	-11.7184
爼	-11.7185
而求上之毋危	-11.7185
信明聖	-11.7185
扄	-11.7185
不如為善於	-11.7185
二七十四尺而至於泉	-11.7185
置儀設法	-11.7185
骼	-11.7185
也君失其道	-11.7185
墳墓之所在	-11.7185
者心也安	-11.7186
冐	-11.7186
弔	-11.7186
能止乎能	-11.7186
與物俱長	-11.7186
紀必由	-11.7186
言待感	-11.7186
冗	-11.7186
生慶忌	-11.7186
葅	-11.7186
重而凌節	-11.7186
之急難可使者幾何人	-11.7186
以文克齊	-11.7186
敢犯我	-11.7186
逆氣生	-11.7186
行篤厚	-11.7187
人之憎惡也	-11.7188
從令者不輯	-11.7188
百姓不安其居	-11.7188
不正廣其荒	-11.7188
怍	-11.7188
左操五音右執五味	-11.7188
或白或黒	-11.7188
閎	-11.7188
召忽雖不得	-11.7188
爛	-11.7188
兵弱而士不厲	-11.7188
舅	-11.7188
怙	-11.7189
扺	-11.7189
國家乃昌四方乃	-11.7189
置儀法	-11.7189
而還與衆人同	-11.719
人言市有虎	-11.719
誋	-11.719
欒	-11.719
知識故人	-11.719
宵	-11.719
然故諶杵習士聞識博學之	-11.719
立邑置廧	-11.719
瑟	-11.7192
伐齊納公子糺	-11.7192
一事能變	-11.7192
得失之質	-11.7192
劋	-11.7192
液	-11.7192
當塗之人	-11.7193
憂樂喜怒欲利	-11.7193
不僇賢人	-11.7193
杏	-11.7193
則長子死	-11.7193
堷	-11.7193
吏進之君用之	-11.7194
主尊臣卑	-11.7194
曰夷吾與召忽	-11.7194
剰	-11.7194
於父兄無過	-11.7194
睹甲子木行御	-11.7194
美者應其	-11.7194
能圉我	-11.7194
腎	-11.7194
躍	-11.7194
湜	-11.7196
周勝大明則	-11.7196
明勝大周則	-11.7196
纎	-11.7196
九竅五慮	-11.7196
其自及也	-11.7196
肺	-11.7196
胜	-11.7197
鮑叔乃告	-11.7199
非鬼神之力也	-11.7199
伐檀柘	-11.7199
子無征養	-11.7199
琅	-11.7199
縁地之利	-11.7199
風與日爭明則	-11.7199
之而勿捨	-11.72
專予禄	-11.72
承從天之指	-11.72
辱舉其死	-11.72
彗星見則	-11.7201
朝之經臣	-11.7201
拳	-11.7203
弭	-11.7203
貧富之不訾	-11.7203
參天地之吉綱	-11.7203
是威下分也	-11.7203
甲十萬	-11.7203
凋	-11.7204
失生之國惡	-11.7204
使海於有弊渠彌於有陼綱山於有牢	-11.7204
近而来逺	-11.7204
忽然易	-11.7206
隕	-11.7206
伐何主管子對曰以	-11.7206
岱	-11.7206
民邪途	-11.7206
螘	-11.7206
之道畢矣	-11.7207
先作難違時易形	-11.7207
無諫死之	-11.7207
豺	-11.7208
屩	-11.7208
召忽奉公子糺	-11.7208
徑乎不知	-11.7208
敘	-11.7208
發乎不意	-11.7208
賊氣遫至	-11.7208
甃	-11.7208
瓜	-11.7209
其樞在水	-11.721
其失之也以	-11.7211
故游商得	-11.7211
菱	-11.7211
之尊勢而明信之	-11.7213
槨	-11.7213
如此之臣不可謂	-11.7214
金起於汝漢	-11.7214
合小以攻大	-11.7215
國得之也以	-11.7215
而不能以國詘	-11.7217
禁扇去笠	-11.7217
扱	-11.7218
罝	-11.7219
交兵聞於諸侯	-11.7222
誡	-11.7224
九十二日謂之	-11.7231
行其所行而	-11.7239
以權致之	-11.7242
國少先舉	-11.7243
彊國衆先舉	-11.7244
之人非生而	-11.7247
於泉山之上命之曰	-11.7316
入而不出謂之	-11.7509
守靜人物	-11.8508
無刑至有刑	-12.0354
裒	-12.04
秦西巴	-12.0404
寅	-12.0407
沼	-12.0418
戕	-12.0425
世主必從而禮之	-12.0427
善為鈎距以得事情	-12.0434
鐸	-12.0434
分遣掩討	-12.0436
鈎慝之術者	-12.044
不難奪子而行天下	-12.044
櫝	-12.044
論必葢世	-12.0442
守職百官有常	-12.0448
則貨財上流	-12.045
盡召其黨以乳醫示之	-12.045
樂正子春	-12.0452
荆王弟在秦秦不出也	-12.0452
駑	-12.0452
搒	-12.0453
同營韓元者具姦狀伏誅	-12.0453
臘	-12.0454
粜	-12.0454
諺	-12.0454
所與居皆其所	-12.0456
河南尹	-12.0456
子服厲伯	-12.0456
緝	-12.0456
糟	-12.0457
於法則止功	-12.0458
捨状以探情	-12.0458
紳	-12.0458
鍛	-12.0458
尊賢授德則	-12.0459
禇	-12.0459
簿民有借	-12.0459
錢不五六年	-12.0459
為山隂令	-12.0459
揑	-12.0461
三守不完則	-12.0461
本事而事末作	-12.0461
無常儀的	-12.0461
逼宣家訪妾宣再從弟思兢	-12.0461
鷄	-12.0461
伊	-12.0462
必有千鍾之藏藏繦百萬	-12.0462
錄囚徒	-12.0463
朴	-12.0463
使牛主認之因獲其	-12.0463
冲	-12.0463
拓	-12.0463
徧行而不盡也	-12.0464
懈	-12.0464
莫若樂節樂莫若禮	-12.0465
錘	-12.0465
開口千萬	-12.0465
巢	-12.0465
二口一殺之一活之	-12.0465
為袁州司理	-12.0465
積薪燒之	-12.0465
莫之能廢也	-12.0465
㤥	-12.0465
惟良折獄	-12.0465
朞	-12.0466
㪷	-12.0466
𬞞	-12.0466
唐吕元膺	-12.0466
大男大女食鹽者	-12.0466
標題今補	-12.0467
礫	-12.0467
告駙馬崔宣謀反	-12.0467
親兒犯三千條悖逆之罪	-12.0467
嫡妻無子其妾有子夫死為妾所逐	-12.0467
提㸃河東刑獄時	-12.0467
稱火燒夫死夫家疑之	-12.0467
下令曰某日大	-12.0467
昭奚恤	-12.0467
韈	-12.0467
為惠於法之内	-12.0468
十仞見水	-12.0468
腴	-12.0468
察而疑之問	-12.0469
則下無怨心	-12.0469
子欲分其財	-12.0469
五尺見水不	-12.0469
十一仞見水	-12.0469
為句章令有妻殺夫因放火燒舍	-12.0469
凝於體色此其	-12.0469
絓	-12.047
僧有夜飲火其廬者歸罪瘖奴軍	-12.047
寺丞王璩	-12.047
歐養坦氣修通凡物開靜形生理	-12.047
募	-12.0471
屛	-12.0471
麋	-12.0471
培	-12.0471
謂齊王曰臣死之後王車裂	-12.0472
罰罪有過以懲之殺僇犯禁以振之	-12.0472
觀察使魏少游	-12.0472
不聽而可以得存者	-12.0472
牟	-12.0473
顔涿聚曰	-12.0473
因戾不受訓遣之郭氏夫婦	-12.0473
猿	-12.0473
批	-12.0473
櫑	-12.0473
瞿	-12.0473
此殆天災	-12.0473
袪	-12.0473
韜	-12.0473
唐司空房玄齡	-12.0474
褊	-12.0475
媒	-12.0475
孱	-12.0475
芨	-12.0475
勢利官大	-12.0475
裁大者衆之所比也	-12.0475
丁官念二	-12.0475
六千里之侯則大人從	-12.0475
澇	-12.0475
穎	-12.0475
緝績徽織	-12.0475
肋	-12.0475
與前王比隆	-12.0475
􁔻	-12.0475
在蜀三年不知其父死及代還銓吏不為	-12.0475
之皆殺也乃捕仇家	-12.0476
守之而後修勝心焚海内	-12.0476
而不忘焉可以來矣	-12.0476
前秦苻融	-12.0477
靳宗說	-12.0477
民望絶於上	-12.0477
涇	-12.0477
卑賤不待尊貴而	-12.0477
大臣不因左右而	-12.0477
見杏核	-12.0477
仇由之君	-12.0477
為五伯長	-12.0477
箴	-12.0477
曰長婦執爵而致也	-12.0477
琳	-12.0477
者未之甞聞	-12.0477
方偕大卿為御史臺推直官	-12.0477
一女已適人	-12.0478
毋告不知與不	-12.0478
蓬之問不在所賔	-12.0478
監司怒有惡語濤歎曰官可奪	-12.0478
矣若不可諱	-12.0478
筠	-12.0478
能愛君君必去之公曰諾	-12.0478
難之曰海有風波安知	-12.0478
卒使坐廢田里	-12.0478
赭	-12.0479
猜	-12.0479
世犯吾君命而廢吾所立奪吾	-12.0479
奇	-12.0479
絕	-12.0479
乆而不勝其禍	-12.0479
召逺在脩近	-12.0479
日月不明天不易也山	-12.0479
易國之成俗	-12.0479
棁	-12.0479
者其人莫來道	-12.0479
遣而傷者死濤求其故而未得死者子訴	-12.0479
限滿不平復	-12.0479
參曰父由子死若以䘮延是殺父不坐皆	-12.048
乃字之誤	-12.048
唐中書舍人郭正一	-12.048
乗爲耕田	-12.048
仞見水則免	-12.048
囚不可殺後得其實	-12.048
往者不至來者不極	-12.048
是利姦邪而	-12.048
欲廢之則亦惑也	-12.048
洿	-12.048
萬戸爲開口	-12.048
萬頃爲戸	-12.048
尉男子曹芬兄弟	-12.0481
父救不止恚赴井死參當兄弟重辟衆請	-12.0481
牖	-12.0481
段	-12.0481
邜	-12.0481
之流亞歟	-12.0481
僱	-12.0481
右石璧謀	-12.0481
命工圖火所經	-12.0481
夷門軍府事長垣縣有四	-12.0481
子罕為出彘	-12.0481
布衫蒙頭	-12.0481
昔晉武庫火張華以為積油	-12.0481
曰殺人者汝也囚不知所以然	-12.0481
獨以左今死者傷右肋此汝殺之明也囚	-12.0481
若存若亡	-12.0481
范且虞慶	-12.0481
俟免䘮	-12.0482
峜	-12.0482
廥	-12.0482
唐崔黯鎮湖南有惡少	-12.0482
帝之王謹逃其爪牙	-12.0482
曰雖不聽而可以得存	-12.0482
民之且所用者君已廩之矣	-12.0482
者民之司命也	-12.0482
劵取其田	-12.0482
南公曰吾能立使之食引出問曰吾	-12.0482
知和州民有訴弟為人所殺	-12.0482
銛	-12.0482
刳	-12.0483
所蔽塞也	-12.0483
黄金一筴也江陽之珠一筴也秦	-12.0483
幅	-12.0483
捧椀以	-12.0483
蒸細薪	-12.0483
彀	-12.0483
䑛	-12.0483
史江琛取刺史裴光	-12.0483
審則法令固賞罰必	-12.0483
成以束矢	-12.0483
籌	-12.0483
不重之結雖固必解道之用也貴其重也	-12.0483
刪	-12.0483
頑	-12.0483
乙弱各有青赤痕南公	-12.0483
守在倉廪	-12.0483
推所毆時在限外四刻因訴於郡得原父	-12.0483
曰吾視食者皆以右手	-12.0483
獄獨留一人留者色動	-12.0483
訊之果然蓋南方有櫸	-12.0483
詡	-12.0483
諤	-12.0483
鈶	-12.0483
疚	-12.0483
見知不悖	-12.0484
般	-12.0484
均地分力使民知時	-12.0484
以尺寸量短長則	-12.0484
國多財則逺者來地辟舉則民留處	-12.0484
守辜而傷者死	-12.0484
烝其首子而	-12.0484
辜限計日而日以百刻計之死在限外	-12.0484
齊糶十錢	-12.0484
玉起於禺氏	-12.0484
瘠	-12.0484
荻	-12.0484
左手正櫛	-12.0485
燼	-12.0485
驂	-12.0485
上無事而民自試	-12.0485
過而不聽於忠臣	-12.0485
國富兵彊	-12.0485
它	-12.0485
宗山陵火起油衣中其事正爾主守者遂	-12.0485
小好脩逺	-12.0485
提㸃河北刑獄時	-12.0485
雜他藥相因既	-12.0485
度數之理以	-12.0485
意於法之外	-12.0485
窻	-12.0485
者何也榖有所藏也	-12.0485
輕君而重於	-12.0485
鉊	-12.0485
凡將立事	-12.0486
後魏髙謙之	-12.0486
得濕則燔府為上聞仁宗悟曰頃	-12.0486
三年名卿請事二年大夫通吉凶	-12.0486
已廪之矣泰	-12.0486
甚也臻以為疑反訊告者乃得其實	-12.0486
畜之以道則民和養之以	-12.0486
請喚舍人	-12.0486
阤	-12.0486
茨	-12.0486
養之以五乘	-12.0486
後母所生非	-12.0486
父之子郡縣	-12.0486
眉	-12.0486
厮	-12.0486
竦	-12.0486
訂	-12.0486
可以危救敵之國	-12.0486
梁壻復貪鄙畏	-12.0486
詎	-12.0486
起令乃廢驟令而不行民心乃外	-12.0486
代鳥飛	-12.0486
唐李傑為河南尹有寡婦告其子不孝	-12.0486
囘	-12.0486
封禪第五十	-12.0486
搔	-12.0486
櫻	-12.0486
為岐州刺史有武功人齎絹三百	-12.0486
當詣宅矣亦無難色	-12.0486
芊	-12.0486
蜜黄門素怨藏吏乃以䑕	-12.0486
雖有聖人惡用之	-12.0486
䏻彊其兵	-12.0486
唐劉崇龜鎮南海	-12.0486
山川則威令	-12.0486
廊	-12.0486
悵然失色	-12.0486
毛嬙西施	-12.0486
民之所樂民强民强	-12.0486
浧	-12.0486
為鄆帥日	-12.0486
牡	-12.0486
用譎以擿	-12.0486
秪	-12.0486
艷	-12.0486
萬頃為户	-12.0486
右菁茅謀	-12.0487
號審教施則不險山河	-12.0487
計凡付終務本飭末則富	-12.0487
杠	-12.0487
沈存中内翰云	-12.0487
艱	-12.0487
乘之國中而立市東西南北度	-12.0487
乘為耕田	-12.0487
為上幣黄金為中幣刀布為下幣	-12.0487
疑不勝楚掠而自誣及取	-12.0487
絳	-12.0487
鏤	-12.0488
下簡劾治簡以舊案示之曰此爾婦翁書	-12.0488
為大理寺詳斷官時	-12.0488
遲	-12.0488
椒	-12.0488
狸	-12.0488
漢宣帝時	-12.0488
銘	-12.0488
詣廷尉	-12.0488
問霸第六十二	-12.0488
瓮	-12.0488
用譎鈎慝	-12.0488
畱	-12.0488
研	-12.0488
聖人因之故能	-12.0488
離内逺遊	-12.0488
也劉崇龜	-12.0488
也雖有聖智	-12.0488
善服氣以物塞鼻則氣結	-12.0488
愷	-12.0488
戰不勝而守不固	-12.0488
接之以禮和之以樂期之以事攻之以官	-12.0488
曰法為天下公朕安得阿親戚詔復議徳	-12.0488
柔安靜樂	-12.0488
此居於圖西方方外	-12.0488
見通典不著	-12.0488
重則雨雹	-12.0488
開封府判官時	-12.0488
出南史袁湛傳	-12.0489
劵抑汝女為婢指十萬為	-12.0489
色動又告之曰汝且死書	-12.0489
譽者不能進	-12.0489
啓其藏捕	-12.0489
我昔者有道之君	-12.0489
曹參軍時禁中露積油幕一夕火主守者	-12.0489
此居於圖	-12.0489
髙下中幣制下上之用	-12.0489
畵	-12.049
肕	-12.049
情求不上通	-12.049
斬大山毋	-12.049
毋行大火毋	-12.049
曾肇内翰	-12.049
云書是光書語非光語前後三使	-12.049
囑	-12.049
執玉以見請為關内之侯	-12.049
曰使之使不得不使	-12.049
牓	-12.049
語者否對曰廷掾疑君乃收廷掾	-12.049
身第六十一	-12.049
轍	-12.049
侠	-12.049
凉	-12.049
别而聽之則	-12.049
四鄰諸侯之義仲父不當盡	-12.049
旂	-12.049
易知耳乃令破䑕	-12.049
枝解於楚	-12.049
枷一囚立於馬市宣言	-12.049
殳	-12.049
與人家安厝	-12.049
豪家舉事只言	-12.049
鎖	-12.049
􁜦	-12.049
庸主之所易	-12.049
縵	-12.049
錢若水為同州推官	-12.0491
州民有積為仇者一日諸子私謂其母曰	-12.0491
程戡宣徽知	-12.0491
一弟與妻子耳長卿曰殺弟者兄也豈	-12.0491
九㑹大命焉出常至	-12.0491
於謀殺不當復坐其妻	-12.0491
曰毆妻之父母即是義絶	-12.0491
納汝女為子婦許嫁其女汝家有之乎	-12.0491
蓬	-12.0491
􁚫	-12.0491
呈	-12.0491
恢	-12.0492
上服度則六親固	-12.0492
今滿意在射鳥非有心於中人	-12.0492
其無心於驚馬也故不以	-12.0492
岳州沅江令	-12.0492
承天議曰獄貴情斷疑則	-12.0492
殻	-12.0492
耿	-12.0492
輿之重加以異	-12.0492
鄠	-12.0492
頤	-12.0492
驗是其夫否皆言井深不可	-12.0492
乃夜放驢出而藏其鞍	-12.0492
五年大夫請受變	-12.0492
五年産犢三十頭	-12.0492
吏卒游徼	-12.0492
告慶乃復	-12.0492
東以弱齊	-12.0492
棧	-12.0492
淩	-12.0492
燈	-12.0492
而後書之既引伏獄未上而其家人復訴	-12.0492
詭禁不修不過六日而竊盜者起	-12.0492
趾	-12.0492
頭立南墻下	-12.0492
以犀甲一㦸	-12.0492
僑	-12.0492
冢	-12.0492
出嫁親女	-12.0492
宜與殺人同不宜以大逆論	-12.0492
盾一㦸	-12.0492
秎	-12.0492
霤	-12.0492
七法第六	-12.0493
釆	-12.0493
一羊皮各言	-12.0493
州司以為不道縁坐妻子刑曹	-12.0493
訊之囚對如	-12.0493
張希崇鎮邠	-12.0493
煖	-12.0493
鞅	-12.0494
故首著焉	-12.0494
撲	-12.0494
庇	-12.0494
蚘	-12.0494
中其忌諱	-12.0494
咄	-12.0494
熾	-12.0494
朕	-12.0494
巳見釋寃門	-12.0494
膠	-12.0494
還四頭老㹀	-12.0494
儔	-12.0494
剟	-12.0494
心詔以明付表	-12.0494
漢景帝時廷尉上囚防	-12.0494
讁	-12.0494
請以母死報仇乃殺其母置	-12.0495
㓙	-12.0495
功立而名成	-12.0495
國無以大與幸而有功名者	-12.0495
諧諧故	-12.0495
太子在帝側遂問之對曰夫繼母如母	-12.0495
繼母陳殺防	-12.0495
諧輯以悉莫之	-12.0495
牘視其印文則無少異誣者	-12.0496
過在自用	-12.0496
後事本朝終於	-12.0496
不歸忽聞菜園井中有死人即	-12.0496
丞相知潤州有婦人夫出	-12.0496
期於利民而	-12.0496
禁藏第五十三	-12.0496
蹻	-12.0496
𦕈	-12.0496
也李南公李南公尚書	-12.0496
五㑹諸侯令曰修春秋冬夏之常祭食	-12.0496
君服黑色味鹹味	-12.0496
知子莫若父	-12.0496
豁	-12.0496
䭾	-12.0496
下手之日母恩絶矣	-12.0496
俸	-12.0496
嘿	-12.0496
因殺陳依律	-12.0496
國平而姦省	-12.0496
埤	-12.0496
孫登比彈	-12.0496
曰此驢行急而汗非長行人也見人	-12.0496
枷	-12.0496
江表𫝊	-12.0496
父之故比之於母今繼母無狀手殺其父	-12.0496
癰	-12.0496
雙虎之皮	-12.0496
霸王之名可成	-12.0496
告偽為州印	-12.0497
之鄧思賢人名也始傳此術遂名其書	-12.0497
交物因方則械器備	-12.0497
則欺誣以取之欺誣不可得則求其罪以	-12.0497
金玉貨財之說勝則爵服下流	-12.0497
以區區之齊	-12.0497
朔	-12.0497
校尉與無忌罪均臣子於君父不得稱誤	-12.0497
臣乎吾亦鑒焉管子對曰夷吾聞之	-12.0497
鋌	-12.0497
共殺女奴	-12.0498
瑶	-12.0498
髀	-12.0498
𨼆	-12.0498
之說勝則繩墨不正	-12.0498
公曰何故對曰	-12.0498
公法而行私惠	-12.0498
幾行義勝之	-12.0498
月恭校上	-12.0498
梨	-12.0498
車之㑹六九合諸侯一匡天下	-12.0498
余讀管	-12.0498
則樸樸則	-12.0498
敺養坦氣修通凡物開静形生理	-12.0498
昔從事於此	-12.0498
果獲真盗	-12.0498
檢付契書	-12.0498
事合而利異者	-12.0498
攻城圍邑	-12.0498
瑾	-12.0498
蒼	-12.0498
餳	-12.0498
用利至誠則敵不校	-12.0499
善用人者必	-12.0499
長在乎任賢	-12.0499
斫	-12.0499
牝	-12.0499
鹿皮報	-12.0499
􁁴	-12.0499
民之司命也黄金刀	-12.0499
琢	-12.0499
通判䖍州	-12.0499
肢	-12.05
函	-12.05
孝悌忠順之道	-12.05
微妙之言	-12.05
裳	-12.05
在路之時金已化為土矣	-12.05
藏温濡	-12.05
㒒	-12.05
㢮刑罰赦	-12.05
兵者凶器	-12.05
四維不張國乃滅亡	-12.05
得乃自斫其右臂誣以殺人官司莫能辨	-12.05
朝不鼎饋	-12.05
簑	-12.05
翦	-12.05
艾若一者從于殺與于殺若一者	-12.05
十至於私人之門	-12.05
午	-12.05
外見於形容可知於顔	-12.05
此固以失霸王之道	-12.05
飾臺榭廣	-12.05
綦	-12.0501
曰宋伐杞狄伐邢	-12.0501
道塗無行禽	-12.0501
􁲕	-12.0501
廼	-12.0501
纒	-12.0501
桐	-12.0502
非所設也其動	-12.0502
眀賞不費	-12.0502
駻	-12.0502
仲父不當盡語我昔者有道之	-12.0502
程顥察院	-12.0502
藻	-12.0502
葛源葛源郎中	-12.0502
曹孫宿	-12.0502
聨	-12.0502
蘇渙郎中知	-12.0502
見曽肇内	-12.0502
諸侯使者無所致百官有司無所復	-12.0502
􁃛	-12.0502
以璽問之以信	-12.0502
倉廩空虚財用不足	-12.0502
入朝廷觀左右本求朝之臣	-12.0502
喜樂哀怒	-12.0502
地貟第五十八	-12.0502
家機所出者錢若干	-12.0502
歐陽頴	-12.0502
比校民之有道者	-12.0502
衰而國失固	-12.0502
人田莫能得	-12.0502
痩	-12.0503
扛	-12.0503
此居於圖東方方外	-12.0503
民産之所有餘不足而存亡之國可知也	-12.0503
不險山河	-12.0503
儆	-12.0503
儗	-12.0503
明於治亂之道	-12.0504
專於意一於心耳目端知逺之證	-12.0504
岑	-12.0504
引乳醫為證一	-12.0504
橘	-12.0504
知河南府伊陽縣	-12.0504
守法之官日行	-12.0504
羆	-12.0504
若因夜虚	-12.0504
輕財而重名	-12.0504
偹	-12.0504
全心在中不可蔽	-12.0504
勸之以殉	-12.0504
嘷	-12.0504
姙	-12.0504
悵	-12.0504
淹	-12.0504
觽	-12.0504
顛頡之脊	-12.0504
未窮破用之	-12.0505
文書其實無金	-12.0505
乘車之㑹三	-12.0505
肌	-12.0505
磚	-12.0506
不迫乎惡	-12.0506
與時變而不化	-12.0506
呵	-12.0506
憶	-12.0506
漻	-12.0506
集施利填委	-12.0506
闗市之征	-12.0506
嗚呼美哉	-12.0506
婚	-12.0506
竹擔可舉	-12.0506
索國之富強不可得也	-12.0506
綂	-12.0506
銖	-12.0506
鍔	-12.0506
之變氣應之以	-12.0506
束矢以罰	-12.0506
椁	-12.0506
衛文昇	-12.0506
野與市爭民	-12.0506
儒者以為害義故不	-12.0506
國之稱號亦更矣	-12.0506
材臣不務竭能	-12.0506
离	-12.0506
故凋落也	-12.0507
可與慮始	-12.0507
人類當以禽獸處之遂戮	-12.0507
甯	-12.0507
授官予爵	-12.0507
不怵乎好	-12.0508
揭	-12.0508
人衆兵强	-12.0508
陪	-12.0508
菀	-12.0508
鞘中正等不	-12.0508
不利彌甚	-12.0508
峭	-12.0508
濬	-12.0508
糲	-12.0508
餉	-12.0508
両	-12.0509
為坐客所	-12.0509
大勝者積衆	-12.0509
貉	-12.051
愛惡榮辱	-12.051
桴	-12.051
可與樂成功	-12.051
數十萬而已紘因薦	-12.051
宏	-12.051
定實虚勝定盛衰勝舉機誠要則敵不量	-12.051
橋店主張逖妻歸寧有	-12.051
臣不如隰朋請立	-12.051
觀樂玩好之說勝則	-12.051
陼	-12.051
上不愛民民不死	-12.051
厠	-12.051
於貨中舟人	-12.051
朐	-12.051
汝父也來就汝居具陳其由張氏子驚疑	-12.051
百之令短兵	-12.051
德也道不可量德不可數	-12.0511
備具無常無方應也	-12.0511
鍵	-12.0511
私議自貴之說勝則上令不行	-12.0511
大臣不能侵其勢	-12.0511
范忠宣	-12.0511
退而脩家是故匹夫有善	-12.0511
㟁	-12.0511
餌	-12.0511
從簾中推出示	-12.0512
若敖之在	-12.0512
人主失守則危	-12.0512
者君臣之所共立也權	-12.0512
何說之詳也老父曰	-12.0512
崔子之徒	-12.0512
嶷	-12.0512
持之甚猛弟婦恐有所傷	-12.0512
杼	-12.0512
百戰百勝	-12.0512
者不可勝數也	-12.0512
與張氏某年月日某人抱去某人見之顥	-12.0512
頂	-12.0512
鮑叔不以我爲	-12.0512
又試之亦然吏遂得弛	-12.0512
湯放桀	-12.0513
豈有中毒而能終席	-12.0513
長十連為鄉鄉有良人	-12.0513
袵	-12.0513
鴻	-12.0513
燔	-12.0513
臣不如東郭牙請立以為	-12.0513
春夏秋冬	-12.0513
外障距内比周	-12.0513
妻生子貧不能	-12.0513
所失衫袴是一端布	-12.0513
撻	-12.0513
為里里有司四里為連連	-12.0513
􁁜	-12.0513
熯	-12.0513
腓	-12.0513
介蟲之火	-12.0514
分而審責於羣臣有司則下不乘上賤不	-12.0514
動弱必從	-12.0514
昊	-12.0515
曖	-12.0515
簾	-12.0515
懷繩與准鉤多備規軸減溜大成是唯時	-12.0515
騙	-12.0515
作兄釋作澤此類甚衆大匡載召忽語曰	-12.0515
徤	-12.0515
曰然防令校其幅尺	-12.0515
流沙西虞	-12.0515
藩	-12.0515
七十二日而畢睹戊子土行御天子	-12.0515
垝	-12.0515
於不通之野	-12.0515
稱疾不出	-12.0515
尊賢授徳則	-12.0516
妾與小吏為姦	-12.0516
府中來不知其吏	-12.0516
舡	-12.0516
之佐既無有	-12.0516
貽	-12.0517
吠	-12.0517
同氣相求	-12.0517
牌	-12.0517
娣	-12.0517
㐲	-12.0517
三翁乎老父驚駭服罪	-12.0517
便僻不能食其	-12.0517
咠	-12.0517
年四十人已謂之	-12.0517
戶	-12.0517
曰七十六謂老父曰是子之生其父	-12.0517
蟡	-12.0517
跛	-12.0517
雖得天下吾不生也兄與我齊國之政也	-12.0517
可以分與財	-12.0517
敢就舎憲未布	-12.0517
梲	-12.0517
戰勝之器攻取之數	-12.0518
令改適婦守節不移姑愍之宻自殺親黨	-12.0519
迪	-12.0519
乃能窮天地被四海	-12.0519
悞	-12.0519
李獄官也	-12.0519
孟常芒卯	-12.0519
廧	-12.0519
旅舊則民不	-12.0519
沈括内翰說	-12.0519
齊桓公將救之	-12.0519
天下不患無財患無人以分之	-12.0519
吿有而不以吿	-12.052
弇	-12.0521
腰	-12.0521
右傳韓非子卷十	-12.0521
中程者賞	-12.0521
以天下之目視則無不見	-12.0521
以天下之耳聽則無不聞	-12.0521
賙	-12.0521
聞之悲不自勝奉伯嗟	-12.0521
與之分級而上	-12.0521
詮	-12.0521
甸	-12.0521
笄	-12.0521
范純仁	-12.0521
穉	-12.0522
遵主令而行之	-12.0522
四百里而後可田也楚欲吞宋鄭	-12.0522
戻	-12.0523
兮	-12.0523
凑	-12.0523
取斗粟舂之可棄者十纔一二	-12.0523
悅	-12.0523
䀹	-12.0523
不可以得安也必曰我	-12.0523
侈靡第三十五	-12.0523
左酒右醬	-12.0523
直言武子	-12.0523
蓄殖果木不如三土以十分之七	-12.0523
行刑重其輕者輕者不	-12.0523
可淺可深可浮可	-12.0524
此其所以然者由	-12.0524
闊	-12.0524
檻	-12.0525
民之所以守戰至死而不德其上者	-12.0525
不能至扵其所欲至	-12.0525
免於罪是	-12.0525
嘗有入此者乎對曰無有	-12.0525
始於患者不與其事	-12.0525
親其事者不規其道	-12.0525
靳	-12.0525
是以三軍之衆	-12.0526
有利欲之心	-12.0526
夫婦妃匹之合	-12.0527
揨	-12.0527
贈	-12.0529
不臣天子不友諸侯	-12.0529
詣若水㕔事	-12.0529
精存自生其外安榮	-12.0529
殺僇以聚財	-12.0529
縲	-12.0529
犯詛渝盟	-12.0529
僮	-12.0531
淚	-12.0531
耕作而食之掘井而飲之	-12.0531
潄	-12.0531
頷	-12.0531
醬	-12.0531
至味而罷	-12.0531
五政茍時	-12.0533
烽	-12.0533
人求之不移日而得之	-12.0533
䋲	-12.0533
瑜	-12.0533
蟡與慶忌	-12.0533
能存而能亡者蓍龜與龍	-12.0533
危本不稱	-12.0533
正形攝德	-12.0533
義則淫然而自至	-12.0533
喫	-12.0535
縻	-12.0535
則愚智不分	-12.0535
漬	-12.0537
後天而奉天	-12.0537
袒	-12.0537
瓉	-12.0537
而無敵令行而	-12.0537
問政於仲尼仲尼曰政在	-12.0539
成而悔從政	-12.054
私君事去	-12.054
美惡賢不肖愚俊之所	-12.054
薺	-12.054
不能野原又多	-12.054
利莫長於	-12.0542
君若欲定	-12.0542
立為定額	-12.0544
發小兵以服	-12.0544
與秦人戰	-12.0546
目不淫心無他	-12.0546
夸	-12.0546
褓	-12.0546
言室滿室言堂滿堂	-12.0548
曰均之死也戮死	-12.0548
廂	-12.0548
者行此節則	-12.0548
紊	-12.055
之氓社稷也而	-12.055
螾	-12.055
人主孤而毋内	-12.0556
於國有所不知政	-12.0556
對曰非為君也為先君	-12.0558
名卑地削	-12.0558
巧佞而好利	-12.0558
以便宜戮	-12.0558
孫在之為人也善言	-12.056
汨	-12.0562
能弱齊矣夷吾不受彼知其將反於齊	-12.0571
貢師泰	-12.0571
鉸	-12.0571
浸	-12.0573
枝詞不伏	-12.0575
逵	-12.0575
啗	-12.0608
數披其木毋使	-12.0614
寒之隂十二大寒終三寒同事六行時節	-12.114
際	-12.3822
後魏李崇為揚州刺史	-12.5163
親也貴也貨也色也巧佞也玩好也三	-12.5198
之用何也曰非號令	-12.5201
甲士當被兵之數	-12.5257
日至始數九十二日謂之	-12.5302
於汝漢之右	-12.5333
戊	-12.5364
迓	-12.5367
致萬家之縣一於知伯知伯	-12.5367
鑿龜數筴兆曰大吉而以攻	-12.5389
卦	-12.5396
夢乘馬南渡	-12.5396
曰教住莫住	-12.5396
豎	-12.5399
箕子怖以為象箸	-12.5399
必旄象豹胎旄象豹胎必不衣	-12.5402
坦氣脩通凡物開静形生理	-12.5407
不能耳士無弊	-12.5408
教洗莫洗	-12.5411
城郭及五官之藏	-12.5411
瓜瓠葷菜百果	-12.5417
圃而隨文學者邑之半	-12.5418
一石榖搗得三斗米	-12.5418
時事而輕地利輕地利而求田野之辟倉	-12.5418
説林下第二十三	-12.5421
季孫養孔子之徒所朝服	-12.5421
索民之疾作而	-12.5421
與坐者以十數而	-12.5421
輕物重生之士	-12.5421
公腓痛足痺	-12.5424
權衡之稱者不可欺以輕重	-12.5424
不躬不親庶民不信	-12.5424
也仲尼幾而取之與處乆而	-12.5424
人事婦人之性險	-12.5424
以中其肺腑之隐	-12.5424
以屈其口舌之争	-12.5424
楛	-12.5424
盡士大夫羸病	-12.5424
訾其里正與伍老屯二甲	-12.5424
黥𨽻諸軍	-12.5424
求百姓之安難兵士之死節不可得也朝	-12.5426
貨財上流賞罰不信民無	-12.5426
為魏將而攻中山	-12.5427
六元何犿註	-12.5427
何張孟談曰臣聞董子	-12.5427
君發而用之於是發而	-12.5427
城郭已治守備已具	-12.5427
擲	-12.5427
桓公得管仲又不難	-12.5427
棘刺之母猴	-12.5427
治晉陽也公宫	-12.5427
爭其亂也甚於無	-12.5427
珧	-12.5427
病愈殺牛塞禱	-12.5427
禱也今王病而民以牛禱病愈殺牛塞禱	-12.5427
能喜酣奭	-12.5427
臣竊以王為過堯舜	-12.5427
礙而欺誑也	-12.5429
務學詩書隨	-12.543
求百姓之尊主政令不可得也上好詐謀	-12.543
無通於百縣則	-12.543
大夫家長不見繕	-12.543
暫	-12.5433
也王罕王罕大卿知潭州	-12.5433
倉廩實而囹圄空賢人進而	-12.5433
捕盗帥一人脅使條陳諸縣強暴	-12.5433
民退其君子上中正而下	-12.5433
爲政者田疇	-12.5433
貿	-12.5433
上不費粟民不	-12.5433
何種也對曰此車軛也	-12.5433
交合則自進	-12.5435
小大未見其福也	-12.5437
愚誣之學襍反之	-12.5437
要靡事商賈爲技藝皆以避農戰	-12.5437
少資之令其逺去	-12.5437
曰尚浴免則	-12.5437
訣	-12.5437
近也用師之道我動而	-12.5437
靜者則靜者勝矣故我	-12.5437
事之委積可彼此相勝輕	-12.5437
則不得語神亦不見之也	-12.5437
小曰室大曰廡	-12.5437
徒然也必精神之比夫事物	-12.5437
無籍而國利歸於君也夫以室廡籍謂之	-12.5437
竉	-12.5437
翢	-12.5437
背死君而事其讎	-12.5437
赴谿而掇金	-12.5437
是故官之失其治也是主以譽	-12.5438
敵其價常不	-12.5438
懼水禍則事無	-12.544
故曰迷中言在迷惑	-12.544
環坐而熟視之	-12.544
殺其守舍子者	-12.544
勞於索人佚於使人	-12.544
義者將立民之所	-12.544
俱平所以人君視兩	-12.544
其本謹也春賦以	-12.544
或死或生亦	-12.544
敵則不俱平故人君御	-12.544
物之秩相勝而操事於其不平之	-12.544
老不長慮困乃	-12.544
言有西有東各死其	-12.544
雖其所居有東西之異至	-12.544
風使之然然求風	-12.544
社有邑焉名之曰央亦	-12.5441
故大賈蓄家不得豪奪吾民矣然則何君	-12.5441
有險礙進退莫	-12.5443
迷芒必其將	-12.5443
咨	-12.5443
尸則為媪受捕賊之責	-12.5443
故人反背之而賊害也	-12.5443
殊無取焉則動皆違道	-12.5443
也離情謂離心也	-12.5443
五素不得一紫	-12.5443
家人藏其皮冠	-12.5443
崇侯惡來知	-12.5443
我先動敵反作應者	-12.5443
正數之人若丁壯	-12.5443
此錢皆爾父未	-12.5443
熱冬有極寒	-12.5443
用淵覈姦之術者也	-12.5443
置礫湯中	-12.5443
謀始受其傭而中道被脅以行卒得免死	-12.5443
賤則萬物必貴兩者	-12.5443
之約收其繒帛也	-12.5444
必有萬鍾之藏藏繦千萬	-12.5444
春以奉耕夏以奉芸耒耜械器	-12.5444
蓋方春蠶家闕乏而賦與	-12.5444
以棘刺之端為母猴	-12.5446
澶	-12.5446
也必不敢禁我城壺丘	-12.5446
今桓公以易居其上是以	-12.5446
前數十年所鑄何也	-12.5446
我必無功故近於醜	-12.5446
曰為我出荆王之弟吾不城也	-12.5446
棗栗足以活民	-12.5446
人闕乏亦賦與之	-12.5446
俗人故非夷吾莫能	-12.5446
社稷之無危不可得也上恃龜筮好用巫	-12.5446
稀	-12.5446
而私議則曰君不可輔	-12.5446
比周者凡有公是之	-12.5448
故莫不得其職姓得其職姓則莫不	-12.5448
質以治天下天覆而無外也其	-12.5448
也雖得天下吾不生也	-12.5448
兄與我齊國之政也	-12.5448
慰故能止怒	-12.5449
詩有清風之	-12.5449
行於不肖則賢智之士	-12.5449
筮者云憂獄	-12.5449
飢飽之失度乃	-12.5449
事皆匿而不行也	-12.5449
而封臣之能以車兵進退成功立名者割	-12.5449
汾	-12.5449
自治則無以治人也	-12.5449
邑實朝廷閒而官府治公法行而私曲止	-12.5449
重家安鄉重家則	-12.5449
量其功之多少制	-12.5449
飬儒侠難至	-12.5449
年矣曰二十年遣吏取	-12.5449
李疵視中山	-12.5449
事上而求遷者則如	-12.5449
五帝三王俱曰	-12.5449
人之作日亡半日十日則亡五	-12.5449
人之所乏君悉與之	-12.5449
使民有功與無功俱賞	-12.5449
傅致周内之若不可翻者	-12.5449
兄與我齊國之政謂使知政	-12.5449
先誡御者曰王適有言必	-12.5449
吾君卜世謂僖公之子小白等	-12.5449
大賈蓄家之所役屬増其利耳	-12.5449
小白既無小智必乖迕	-12.5449
廷尉七人侯者三人二千石侍中郎將者	-12.5449
御史正監平者甚衆積善之慶不其盛歟	-12.5449
愚農不知不好學問	-12.5449
故功之不立名之不章	-12.5449
田鮪教其子田章曰	-12.5449
登降揖讓貴賤有等親	-12.5449
盗賊發其比伍中	-12.5449
者近於見距也	-12.5449
而勿失者可謂正乎	-12.5449
而立子糺不改其所奉更有所	-12.5449
而誰子謂召忽	-12.5449
胥僮長魚矯	-12.5449
謂僖公之命使立子糺	-12.5449
賞天下之人不人得一	-12.5449
贗	-12.5449
輕惰之民不游軍市	-12.5449
農民無所聞變見方	-12.5449
防之此法之用也	-12.5449
髪繞炙而	-12.5449
則其賢不肖可察也二者不失則民	-12.5451
之地也方一里九夫之田也	-12.5451
臣之能謀厲國定名者割	-12.5451
之本也人者身之本也身者治之本也故	-12.5451
道莫如利之利之之道莫如	-12.5451
不治奚待於天下天下者國之本也國者	-12.5451
之顥曰此易辨耳問兄之子曰爾父藏錢	-12.5451
牧民者使士無邪行女無淫事士無邪行	-12.5451
躬之典理官也决獄斷刑依於矜恕故世	-12.5451
一樹一穫者	-12.5451
凡牧民者欲民之正也欲民之正則	-12.5451
臨萬族而事使之是故以天地日月四時	-12.5451
開闔民之不移也如廢方於地此之謂筴	-12.5451
北伐孤竹還存燕公兵車之	-12.5452
為中女坎為中男	-12.5452
也審其所好惡則其長短可知也觀其交	-12.5452
八元何犿註	-12.5452
一宿之盡也無金則用其絹季絹三十三	-12.5452
其布經暴布百兩當一鎰一鎰之金食百	-12.5452
官都重門擊	-12.5452
挟	-12.5452
以食之各得足也	-12.5452
有人不治奚待於家有家不治奚待於	-12.5452
有市無市則民不乏矣方六里名之曰	-12.5452
為人臣者受任而處之以	-12.5452
刑名職分明則	-12.5452
則國家豐矣以勞授	-12.5452
御史張行岌案之	-12.5452
一視牘而辨之	-12.5452
不恃仰人而食	-12.5452
之則有理存焉如	-12.5452
云妾将發其謀	-12.5452
人曰是何也對曰書言之固然	-12.5452
傴	-12.5452
免於相雖嗜魚	-12.5452
大道可安而不可	-12.5452
豬	-12.5452
輗	-12.5452
酉	-12.5452
陳希亮大卿為開封府司録	-12.5452
乃更推過於君云此非我	-12.5452
乃都秤碎者	-12.5452
故天子籍於幣諸侯籍於食中	-12.5452
果木過十年漸就	-12.5452
枯悴故曰十穫也	-12.5452
筫	-12.5452
籍而民不移振貧補不足下樂上故以上	-12.5452
糺既不濟次在	-12.5452
羣處常有陷賢之見	-12.5452
苛刻者皆委曲生意而然也君子不逆詐	-12.5452
萬百鍾二十萬千鍾二百萬萬	-12.5452
訓成俗而刑罰省數也	-12.5452
鄰國每動重富君之民貧者重貧富者重	-12.5454
自言能治田土不能治田土者殺其身以	-12.5454
故無敢姦能誣禄至於君者矣故相任寅	-12.5454
程顥察院初為京兆府鄠縣	-12.5454
大國小之曲國正之	-12.5454
也女無淫事訓也	-12.5454
也正數之户既避其籍則	-12.5454
國家安寧不用兵革受其幣帛以懷其	-12.5454
愛主也以畏主之	-12.5454
果反宇自訟	-12.5454
法天刑不可委曲生意帝稱善遷躬廷尉	-12.5454
部不受亡至京師執政令劾以在官無故	-12.5454
非愛主也以畏主之威勢也百姓之	-12.5454
鮑叔曰公行夷吾之言公乃命曹孫	-12.5454
不從之妻乃自沐枕枕而寢融曰	-12.5455
具沐夜授	-12.5455
期以新沐枕	-12.5455
睫	-12.5455
者其國必削善爲國	-12.5455
撿	-12.5455
之至機也謂之國機輕重之法曰自言能	-12.5455
委法官以律定刑聞者	-12.5455
子辜二十年撫	-12.5455
皂	-12.5455
聊	-12.5455
爲多以狹爲廣	-12.5455
戈於外然則國不得耕此非天凶也此人	-12.5455
生於粟也故禁末作止竒巧而利農事今	-12.5456
三十之籍吾子食二石月有二十之籍	-12.5456
不足畏則暴人輕犯禁民者服於威殺然	-12.5456
之作不足以自食也然則民舎	-12.5456
亦有嗣之而報	-12.5456
則田荒而國貧矣凡農者月不足而	-12.5456
動威戰勝而守固是以一戰而正諸侯不	-12.5456
反坐責為文學參軍福州安置	-12.5456
君子亦不可忽也	-12.5456
四海之人誰有能知其則義哉	-12.5456
因揄刀而劓羙人	-12.5456
如尊位將反而	-12.5456
希亮奏乞以宇所上封事付有司即其言	-12.5456
成蜚一日而敗	-12.5456
散一枚之重	-12.5456
明主在上位有必治之勢則羣臣不敢	-12.5456
有青州男子趙宇上言元昊	-12.5456
未能勝其本此位旣不可得自然流而下	-12.5456
桂陽人黄欽生二親	-12.5456
法不勤飾於官	-12.5456
法出令而民不從故賞不足勸則士民不	-12.5456
片言可以折獄	-12.5456
男大女之所食鹽也	-12.5456
立法術設度數	-12.5456
而言之也開口	-12.5456
蕭然不顧若行者之過	-12.5456
蘇其兵中原	-12.5456
見王常掩鼻	-12.5456
言取一日之利可	-12.5456
謂安道之君子雖人言其	-12.5456
難三第三十八	-12.5456
魏髙柔為廷尉	-12.5456
龔	-12.5456
父在已離母死不	-12.5457
寵而使人刺之不	-12.5457
吏受賕與之約曰	-12.5457
有禮義也夫民無禮義則上下亂而貴賤	-12.5457
號呼自辨我	-12.5457
刑賞信必刑賞信必則善勸而姦止故曰	-12.5457
田伯鼎好士	-12.5458
其馮昌殺之乎	-12.5459
推事有兩一察情一據證	-12.5459
濕水也左水右馬馮字	-12.5459
俱死有嫡子已長	-12.5459
有民與郭氏為義子自孩提以至成人	-12.5459
二嬰孩同戲	-12.5459
仇覽為蒲亭長	-12.5459
以靴示之紿曰有乘馬於路被賊	-12.5459
俱認之不能制	-12.5459
勝者法立令行之謂勝法立令行故羣臣	-12.5459
害遺此靴焉得	-12.5459
市曰蘇秦為燕作亂	-12.5459
暴王殘之僇其罪卑其列維	-12.5459
薰	-12.5459
靴向妻家	-12.5459
不能還其倍價者則	-12.5459
也湯武致强而征諸侯服其力也	-12.5459
云栁公綽為襄陽節度使	-12.5459
人有不生而致死者也	-12.5459
何謂獨貴獨賤管子對曰榖重而萬物輕	-12.5459
先定卿大夫之家然	-12.5459
其由故曰如神用也	-12.5459
可謂能有其國能保其身	-12.5459
君子以折獄致刑	-12.5459
嘉靖乙未	-12.5459
士卒坐陳者里有書社	-12.5459
夫盜賊不勝則良	-12.5459
夫靜與作時以	-12.5459
家奴取少年端正者三人布衫籠頭	-12.5459
封二子者各萬家之縣一	-12.5459
推已以議物	-12.5459
於亂夫五帝三王所以成功立名顯於後	-12.5459
是故上必寛裕而有	-12.5459
棗	-12.5459
為之其功既成莫知其釋之	-12.5459
田墾則粟多粟多則國富	-12.5459
百穫近識者莫	-12.5459
者雲錄其妻	-12.5459
衂	-12.5459
霸者或不能廣積粟故	-12.5459
靜者也夫盜賊不勝邪亂不止	-12.5459
之道也故明法曰專授則失凡	-12.5459
事鄰敵不免於死亡之患故曰主功有素	-12.5459
以主之猶有惡薄	-12.5459
其母曰以酖殺人上天何祐母	-12.5459
其見賤人無矜恤之心	-12.5459
則諸侯服其政鄰敵畏其威雖不用	-12.5459
幣事諸侯諸侯不敢犯也主之所以	-12.5459
或以制令來告者則	-12.5459
法制予人則必有亂亡之禍如此者亡	-12.5459
珪璧不足以享鬼	-12.5459
理又不見於色言理	-12.5459
而恣羣臣威嚴已廢權勢已奪令不得出	-12.5459
譚延也雖堯守	-12.5459
貧兵弱戰則不勝守則不固雖出名器重	-12.5459
非其民如此者滅主之道也故明法曰令	-12.5459
桓公又問於管子曰有人	-12.546
官百能管子對曰何謂百能桓公曰使智	-12.546
則君人者勢傷而威日衰矣故	-12.546
南梁顧憲之為建康令有失牛者	-12.546
吏言分辨不已吏大聲訶之曰但受脊杖	-12.546
大潦一本作大續	-12.546
繼也預貯水也	-12.546
為天下致利除害也	-12.546
輕而萬物重公曰賤筴	-12.546
鄰國以幣帛來聘當取之以	-12.546
馬之數奈何管子對曰郡縣上	-12.546
不助天地不與舉	-12.546
可聞乎管子對曰何謂至數桓公曰秦奢	-12.546
擅生殺處威勢操令行禁止之柄以御其	-12.546
智謀士盡其謀百工盡其巧若此則可以	-12.5462
郭氏諸親與義子	-12.5462
明山之曾青一筴也	-12.5462
蘇秦在齊大夫	-12.5462
㽜	-12.5462
薄賦斂緩使令然民淫躁行私而不從制	-12.5462
二捨一下熟中分之	-12.5462
妄發其端未嘗不中秋毫也然而	-12.5462
子令顙之作聲如傀儡子粗能辨其一二	-12.5462
故神農教耕而王天下師其	-12.5462
桓公問鮑叔曰奚若	-12.5462
略無所聞而宣家每	-12.5462
砥礪殺矢	-12.5462
議事則獄中告者輒知	-12.5462
陳留有一老人年八十餘	-12.5462
上者然後化而通之也	-12.5462
也大國畏威事如臣僕	-12.5462
何人曽覔舍人家	-12.5462
倍重數也泰夏賦	-12.5462
其力而勿奪其時以利之如此則衆親上	-12.5462
其庶人好飲食而惡耕農於是財用匱而	-12.5462
凡民者莫不惡罰而畏罪是以人君嚴	-12.5462
則傷人不用則怨故曰取人以已成事以	-12.5462
則居然自獲其利也	-12.5462
則有成功不稱動甲兵之事以遂文武之	-12.5462
勝任也而衆者不愛則不親不親則不明	-12.5462
唐杜亞字次公鎮維	-12.5462
在市者三十人其正月十二月	-12.5462
多智而又安靜二者能	-12.5462
工人有逆順事有稱量人心逆則人不用	-12.5462
張保雍張保雍刑部為湖北轉運	-12.5462
彼岸期集	-12.5462
恃人之為吾善也	-12.5462
意是故明君兼愛以親之明	-12.5462
於大功而愚人不知也亂主淫佚邪枉日	-12.5462
榜許人格捕	-12.5462
歸故不失成命也	-12.5462
無道至於滅亡而不自知也故曰莫知其	-12.5462
用也故明法曰國無人者非朝臣衰也家	-12.5462
羣臣得務相貴如此者非朝臣少也衆不	-12.5462
致死不死於一糺	-12.5462
財物之貲與幣髙下	-12.5462
輕刑以愛人姦	-12.5462
鎮岳陽因出	-12.5462
雇	-12.5462
驍	-12.5462
下外出於四海之外合絡天地以	-12.5462
不育非髙其臺榭美其宫室則羣材不散	-12.5462
也先論其理義計其可否義則諾不義則	-12.5462
也商計也對其	-12.5462
也夫生殺之柄專在大臣而主不危者未	-12.5462
人故能成其衆士不	-12.5462
人者皆怠於農戰矣	-12.5462
以羽獸之火爨	-12.5462
合境庖丁	-12.5462
宋石遺衛君書	-12.5462
帝之於堯則堯	-12.5462
憚亂主闇上之患禍而	-12.5462
我曰帷蓋不	-12.5462
故能成其髙明主不	-12.5462
斷而髪不斷	-12.5462
有也故治亂不以法斷而	-12.5462
止可則求之不可則止故其所得事者常	-12.5462
海不辭水故能成其大山不辭土	-12.5462
牗	-12.5462
義亦求之不可亦求之故其所得事者未	-12.5462
聴之説不度於義	-12.5462
謹於一家則立於一家謹於一	-12.5462
貪於貨賄競於酒食不與善人	-12.5462
頼也故曰必得之事不足頼也聖人之諾	-12.5462
思兢詐客佐史誣裴	-12.5463
折吏勢不知乃為所	-12.5463
拯謂其招權捽吏	-12.5463
秦者果出齊王因	-12.5463
以治田土泰秋田	-12.5463
北齊彭城王浟為滄州刺史有	-12.5463
時下令收糴也則魏李悝行平糴之法上	-12.5463
界十嵗更制經正也	-12.5463
立夏曰月程秋曰大稽與民數得亡三嵗	-12.5463
賢所謂平原者下澤也雖有小封不得	-12.5463
于武昌為津吏所遏	-12.5463
人之大失也大失在身雖有小善不得	-12.5463
即命軍候擒其人破其柩皆實以	-12.5463
境尤甚有齊衰者哭且獻	-12.5463
從者必利也先王者善	-12.5463
曰遷三世十二	-12.5463
有䘮轝駐道左男子五人衰服	-12.5463
行故羣臣得務益其家君臣無分上下無	-12.5463
誅之故以法誅罪則民就死而不怨以法	-12.5463
先論其理義計其可否	-12.5463
内被其利澤殷民舉首而望文王願	-12.5463
有道之君也桓公曰善哉桓公曰仲父	-12.5463
樂已者必服道	-12.5463
設四固不能守故曰	-12.5463
法法第十六兵法第十七	-12.5465
俯	-12.5465
今君獨立無與則是有害故甚可	-12.5465
先身無害而有利然後可以及物	-12.5465
從事魏道勝曰使君在滄州	-12.5465
爲人臣者重私而輕公矣	-12.5465
内翰云世人以竹木牙骨之	-12.5465
呌子置喉中	-12.5465
故著此二事使	-12.5465
椀	-12.5465
清河太守時	-12.5465
熟糴三捨一中熟糴	-12.5465
親老存否農業多少	-12.5465
逐之罕令引歸	-12.5465
鉢	-12.5465
駒	-12.5465
主之道也故明法曰下情不上通謂之塞	-12.5465
之以絶其志意	-12.5465
事勝則入粟多入粟多則國富國富則安	-12.5465
五寸之的引十歩之逺非羿逄䝉不能必	-12.5465
以幣民曰無幣以	-12.5465
俠客殺告者語了遂侵晨	-12.5465
其所成成必知其所用用必知其所利害	-12.5465
十釡之鹽七百六十八斤	-12.5465
又傳衛士四人問十日以	-12.5465
周給君子得其力	-12.5465
周給小人懷	-12.5465
四者人之髙行也髙行在身雖有小過不	-12.5465
國有十者上無使	-12.5465
小人者枉道而取容適主意而偷	-12.5465
慜	-12.5465
所謂大山者山之髙者也雖有小隈不以	-12.5465
按此與髙湝留靴	-12.5465
朝服濟河故不稱甲兵文	-12.5465
此者動必有功也	-12.5465
殖果木不若三土以十分之四	-12.5465
海王第七十二國蓄第七十三	-12.5465
無灰以此鞫之妻	-12.5465
用慮宏逺如是	-12.5465
疑酒有毒覆	-12.5465
知萬物之要也故其治國	-12.5465
秋糴以五春	-12.5465
粟多則天下之物盡至矣故舜一徙成邑	-12.5465
縣之筴守一縣以一	-12.5465
繳	-12.5465
舉三世十二䘮故知其詐耳	-12.5465
轝使渡者不疑	-12.5465
間語者驗其對	-12.5465
上則臣制於主夫蔽主者非塞其門守其	-12.5465
主也勞民力奪民財危民死	-12.5465
主在上則人臣去	-12.5465
乏上彌殘	-12.5465
以徳教訓下百姓懐之	-12.5465
以死人之力與客生力戰	-12.5465
以示之明刑罰以致之故曰頓卒	-12.5465
使施於天下故大臣不親小民疾怨天下	-12.5465
依其妻家者八九年	-12.5465
兄弟説父子愛施所	-12.5465
則不能盡有故曰有衆在廢私愛施之	-12.5465
則令廢告狂惑之人則身害故曰與不可	-12.5465
口之習也手之指也終不	-12.5465
君乎吾亦鑒焉管子對曰今若	-12.5465
地下包絡天地	-12.5465
尊顯民歸樂之人主莫不欲也故欲民之	-12.5465
居上位者小人	-12.5465
常以言翹明其與人也其愛人也其有	-12.5465
度之制故羣臣皆出於方正之治而不敢	-12.5465
應死通判不肯用其言	-12.5465
戰士怠於行陣	-12.5465
數管子對曰此定壤之數也彼天子之制	-12.5465
曰疑今者察之古不知來者視之往神農	-12.5465
有禮彼欲勇我勇之人謂我恭彼欲利我	-12.5465
民之從有道也如	-12.5465
民之所懸命也故明主之治也當於法者	-12.5465
沅	-12.5465
疾至則得利故	-12.5465
皆人主之利天下者也故身貴顯而子孫	-12.5465
禄賞輕民間其治賊臣首難此謂敗國之	-12.5465
義飾父子兄弟夫妻之義飾男女之别别	-12.5465
者則書而陳之居	-12.5465
者無不成也能自去而因天下之智力	-12.5465
肖者舉事則事敗使於人之所不能	-12.5465
育故明主之務務在行道不顧小物燕爵	-12.5465
行者不止築者知倦	-12.5465
被髪而御婦人	-12.5465
論囹圄而出薄罪	-12.5465
身厚奉之而已也使之奉主之法行主之	-12.5465
順其兄弟正其習俗使民樂其上安其土	-12.5465
𤓰瓠葷菜百果	-12.5465
曰此若言何謂也管子對曰國之廣狹	-12.5466
勢在上則臣制於	-12.5466
北齊任城王湝領并州刺史	-12.5466
婦人持故靴詣	-12.5466
下令謂郡縣屬大夫里邑皆籍粟入若干	-12.5467
匱不足匱不足之所生生於侈侈之所	-12.5467
不敢欺亂主則不然聽無術數斷事不以	-12.5467
主令不得行而下情不上通人臣之力能	-12.5467
之鹽得五十合而	-12.5467
人君無以自守也然則明君柰何明君不	-12.5467
以一家之筴守	-12.5467
凡田野萬家之衆可食之地方五十里	-12.5467
失下故守大夫以	-12.5467
彊而取之則一釡	-12.5467
明主者兼聽獨斷多其門	-12.5467
無能之士上通邪枉之臣專國主明蔽而	-12.5467
而勿召也舉一而	-12.5467
至也是藏一分以致諸侯之一分	-12.5467
萬家以下其人少可	-12.5467
訾賢者之謂訾推譽不肖之謂讆	-12.5467
請問國㑹管子對曰君失大夫	-12.5467
鄭子産聞婦人哭使人執而問之果手刃	-12.5467
金躬曰法令有故誤章	-12.5467
鍾當米六斛四斗是	-12.5467
之人不得施其巧千里之外不敢擅	-12.5467
使焉故令於人之所能	-12.5467
則事成亂主不量人力	-12.5467
則令行使於人之所能	-12.5467
則羣臣畏敬法政獨出於主則天下服	-12.5467
動而無不從靜而無不同	-12.5467
受財不詰獄具渾與其僚崔祐甫白奴	-12.5467
可飾也明主之道立民所欲以求其功故	-12.5467
天之所助雖小必大天之所違雖成必敗	-12.5467
強國爲圈弱國爲屬	-12.5467
徒愛而不利則衆親而不至愛施俱行則	-12.5467
所以使吏治官也亂主之治也處尊位受	-12.5467
有聞道而好為鄉者一鄉之人也	-12.5467
河海若輸之給馬此隂王之業管子曰萬	-12.5467
法則止民以法與吏相距下以法與上從	-12.5467
海内地方甚大戰卒甚衆而身死國亡	-12.5467
爵禄以勸之立民所惡以禁其邪故	-12.5467
皆人主之害天下者也故身困傷而子孫	-12.5467
者所以安主也食者所以肥體也主惡	-12.5467
耕生榖以致民利禹身	-12.5467
耗之道也是故明君審察事理慎觀終始	-12.5467
能勝六攻而立三	-12.5467
與不可明主度量人力之所能	-12.5467
貴之時計其價以	-12.5467
里戰卒之衆不過萬人然能戰勝攻取立	-12.5467
萬物輕則士偷幸三怠在國何數之有彼	-12.5468
善桓公又問管子曰終身有天下而勿失	-12.5468
之肥墝有數終	-12.5468
食餘有數彼守國者守	-12.5468
下地方百二十里	-12.5468
不法古不修今	-12.5468
國一千室之都四	-12.5468
地方百二十里通於中地方百里右地里	-12.5468
一士毋頓一㦸而辟方都二	-12.5468
可以朝天下桓公曰寡人欲毋	-12.5468
浩滿三之於乃請以令使九月種麥日至	-12.5468
輕我重天下多我寡然	-12.5468
上有白毛長史韋道	-12.5468
之恩縑主乃稱寃不已宣知其狀	-12.5468
勢期年君雖知其不	-12.5468
獨種菜三畝	-12.5468
而不能奪無如之何也	-12.5468
近今旣為人雖織	-12.5468
雖賤家行善	-12.5468
問紬線胎心用何物一云杏核一云瓦子	-12.5468
必是門士以燎寒耳	-12.5468
葛源郎中為吉水令時	-12.5468
謂耳所聞目所	-12.5468
世智則力可以	-12.5468
亦用粟之什一計四時常有所	-12.5468
何時矣曰二十年矣即遣吏取錢十	-12.5468
其夫已死哭不哀而懼是以知	-12.5468
内之赤章曼	-12.5468
出錢與同營	-12.5468
則羿逄䝉以五寸	-12.5468
千視之謂借宅者曰今	-12.5468
吻	-12.5468
四種謂四時皆種	-12.5468
府庫謂府之庫新有徴	-12.5468
廣耳目以察賊者	-12.5468
旣得其定數下其	-12.5468
毋度故曰審度量節衣服儉財用禁侈泰	-12.5468
民愚則智可以	-12.5468
考其定數以命之也	-12.5468
者口中無灰活者口中有灰因驗夫口中	-12.5468
者必知知者必誅	-12.5468
言人供關市府庫之徴	-12.5468
証	-12.5468
農工雖農亦通	-12.5468
郷重家安郷重家則	-12.5468
錄事詣若水	-12.5468
㡬年對曰七年又	-12.5468
不成而禍患至故曰訾讆之人勿與任大	-12.5468
之自用樹福則國從	-12.5468
之行氣似天之布雲也	-12.5468
也故聖人擇言必顧其	-12.5468
也躬曰周道如砥其直如矢君子不逆詐	-12.5468
人心不同其猶面焉令	-12.5468
以就山澤逐便利	-12.5468
以輕重御天下之道也謂之數應桓公問	-12.5468
兩報重尚書奏章矯制罪當腰斬帝以躬	-12.5468
凡國無法則衆不知所	-12.5468
前後令莫能決	-12.5468
動力而土地自辟囷倉自實蓄積自多甲	-12.5468
去而不用也故曰其計也速而憂在近者	-12.5468
壅遏之患亂主則不然法令不得至於民	-12.5468
宣妻曰須絹三百疋	-12.5468
帝以兄不訓弟故報兄重而	-12.5468
怨起而不復反衆勞而不得息則必有崩	-12.5468
於中橋南北	-12.5468
於事為誤誤者其文則輕帝曰	-12.5468
於四時事皆備故	-12.5468
明察四時不貸民亦不憂五穀蕃殖外内	-12.5468
是故先王必有置也然	-12.5468
有逆旅停止大賈	-12.5468
權伏之所以固供者之意	-12.5468
無以勸民上無以勸民則令不行矣法者	-12.5468
猛毅者伐懦弱者	-12.5468
而不悟民乃自	-12.5468
能調其氣故比於雲意	-12.5468
藏輕國常有十國之筴也故諸侯服而無	-12.5468
訾讆之人得用則人主之明蔽而	-12.5468
課凶饑計師役觀臺榭量國費而實	-12.5468
譽之言起任之大事則	-12.5468
辟而民無積者國地小而食地淺也田半	-12.5468
長利者謂之舉長舉長則被其利者衆而	-12.5468
順欲穫失時無所收	-12.5468
㕔側劾之乃	-12.5468
七十里男五十里若胷臂之相使也故	-12.5468
三在上一在下復筴也大夫	-12.5468
不以其理動者下瓦	-12.5468
不得欺其主嫉妬之人不得用其賊心讒	-12.5468
之内流於心外凝結於體	-12.5468
交則不結以此有	-12.5468
亦可行求於今然利散	-12.5468
亦有患太弱亦有患必	-12.5468
伉	-12.5468
作雖異其利民同也故曰萬事之任也異	-12.5468
使得生育而各終其性命者也故或以治	-12.5468
公法廢而私曲行倉	-12.5468
其理然也弱子慈母之所愛也不以其理	-12.5468
則不肥故曰飺食者不肥體也言而語道	-12.5468
則人主不尊人主不尊則令不行矣法者	-12.5468
則道德全備故不可伐也	-12.5468
加十是一家十戸也出於國	-12.5468
友幾於不親見愛之交幾於不結見施之	-12.5468
商臣為太子既	-12.5468
器則國治不肖之君不能勝六攻而立三	-12.5468
嚮	-12.5468
塞忠臣之欲謀	-12.5468
多故曰譕臣者可與逺舉聖人擇可言而	-12.5468
天有雲氣而不易也	-12.5468
守一則惡煩故	-12.5468
宙合廣積善以通天上	-12.5468
幣准之數一縣必有一縣中田之筴一	-12.5468
弱之中自致於無患也	-12.5468
徧知天下審御機數此兵主之事也	-12.5468
徳幾於不報	-12.5468
所與佼而不以官	-12.5468
所言者一也而用之者異聞道而以治一	-12.5468
故其令廢使於人之所不能	-12.5468
故有道則民歸之無道則民去之故曰道	-12.5468
敗夫令出而廢舉	-12.5468
敗夫計失而事敗此與不可之罪故曰	-12.5468
數也然而人不事者非心惡利也權不能	-12.5468
斷則濫及不辜	-12.5468
於幣者也以國幣之分復布百姓四減國	-12.5468
昔者堯之治天下也猶埴	-12.5468
曰逺葬則汰近葬則	-12.5468
服用也謂用誠	-12.5468
東尉胡某	-12.5468
棒	-12.5468
武王天之所助也故雖地小而民少猶之	-12.5468
母笞之故以其理動者雖覆屋不	-12.5468
毬塲以俟宰殺既	-12.5468
漁人之入海海深萬	-12.5468
生之財亂主上逆天道下絶地理故天不	-12.5468
用曲木又施直木則失其類而	-12.5468
由是火㡬息	-12.5468
百八十鍾十日	-12.5468
矣故明法曰小臣持禄養佼不以官	-12.5468
禁之而止故堯之治也善明法禁之令而	-12.5468
管氏言此乃古之陳設致財之道	-12.5468
紅	-12.5468
累政不能决其人	-12.5468
臣忠父慈子孝兄愛弟敬禮義	-12.5468
色如此者性之敏惠故可以德義告諭也	-12.5468
茍非其人道不虚行	-12.5468
莅民如父母則民親愛之道之純厚遇之	-12.5468
虚而囹圄實賢人退而姦民進其君子上	-12.5468
行天道出公理則逺者自親廢天道行私	-12.5468
言而不可復者君不言也	-12.5468
詰之對曰此非某刀	-12.5468
諭被盗者悉裁其贓	-12.5468
謂臣有忠言不可	-12.5468
速行而不倦也	-12.5468
閽	-12.5468
雖召之而民不來也故曰召逺者使無	-12.5468
非地與城亡也	-12.5468
騶子韓樞	-12.5468
高獨謂媪色有寃不可不為理也乃隂察	-12.5468
法者崇替所由故	-12.547
大夫自還而不盡忠外則諸侯連朋合與	-12.547
羨在大夫也天子以客行令以時出熟	-12.547
而出矣財物在下幣之九在大夫然則幣	-12.547
邪臣非功而起	-12.547
而邪臣起於非功	-12.547
其事適在堂上耳	-12.547
而君遂十日不聞	-12.547
之藏藏繦千萬千室	-12.547
之賜之百金管子又曰	-12.547
交能易作謂雖士亦	-12.547
室之邑必有萬鍾	-12.547
蓄積錢幣所謂萬	-12.547
之智思慮者無不知也以衆人之力起事	-12.547
之長臣能得之賜之百金管子又曰誰能	-12.547
公府時有兄弟共殺人者而罪未有所歸	-12.547
六日夏盡而秋始而黍熟天子祀於太祖	-12.547
則授官不可不審也授官不審則民	-12.547
動言操辭左右之流君獨因之物之始吾	-12.547
斧鉞不爲六者益損	-12.547
時之化舉若秋時	-12.547
有害偷得樂而	-12.547
澤就原陸而	-12.547
義之所見逺故曰舉長者可逺見	-12.547
者此常利之所以不舉事之所以困者也	-12.547
聖人之智不用其力而任衆人之力故以	-12.547
見之矣物之終吾	-12.547
見之矣物之賈吾	-12.547
見之矣管子曰長城之陽魯也長	-12.547
謂富者秋時以五糴之至	-12.547
謂抱蜀者祠器也故曰抱蜀不言而廟堂	-12.547
重之相因時之化舉無不	-12.547
重之相因若春時	-12.547
七君歛三上賦七散振不資者仁義也五	-12.547
三倍重邦布之籍終	-12.547
中一國而二君二王	-12.547
之多少其數而衡不能	-12.547
之救也外内皆失孤特而無黨故國弱而	-12.547
之躬對章應罰金帝曰章矯詔殺人何謂	-12.547
公曰爾婦執爵毒因婦起豈可誣	-12.547
則彼安有自還之大夫獨委之彼諸侯之	-12.547
十日二千萬一月六千萬萬	-12.547
十錢人家受食十	-12.547
各明白而分	-12.547
合於民情則民受其辭民受其辭則名聲	-12.547
報必當出言必得刑罰必理如此則衆無	-12.547
天子許之曰諾號令於天下天下諸侯載	-12.547
官四分則可以立威行德制法儀出號令	-12.547
家必有一家直人之用故不以時守郡	-12.547
實雖不言曰吾親民而民親矣莅民如仇	-12.547
徐疾贏不足雖在下也不	-12.547
摲	-12.547
百金之賈非君之所賴也君之所與故	-12.547
相靡而輕數也以	-12.547
義也欲民之有義則小義不可不行	-12.547
者操轡也故曰造父之術非馭也奚仲之	-12.547
者藏於民霸者藏於大夫殘國亡家藏於	-12.547
而籍國數也出實財散仁義萬物輕數也	-12.547
行之以重故君必有什倍之利而財之櫎	-12.547
訊其僧僧乃首伏	-12.547
車器也方圜曲直皆中	-12.547
連有所統屬	-12.547
里給五其本則逺近通然	-12.547
調髙下分并財	-12.547
已寧散爵禄不可分威也	-12.5471
弃所愛而存其法	-12.5471
宿妻家是夜妻	-12.5471
養六畜者必致其	-12.5471
已蔽而刦已刦而弑凡人君之所以	-12.5471
者時入山林輪轅	-12.5471
曰善正商任者省有肆省有肆則市朝	-12.5471
乃令人宻往書菜葉為字明日市中	-12.5471
出而不入此則左右	-12.5471
君之於民其猶居身治之養之	-12.5471
弗與頗積怨言	-12.5471
異國之人所謂非我族類者也今	-12.5471
九月種麥日至而穫	-12.5471
也栁慶後周栁慶	-12.5471
使收門士衆	-12.5471
商原詐服竇阻免䘮	-12.5471
孝肅杖吏周相	-12.5471
死人斷手足立於寺門	-12.5471
臣有弑其君子有弑其父者	-12.5471
謂不然攄曰宫掖禁嚴非外人	-12.5471
三堯在臧於縣返於連比若是者必從是	-12.5471
中年畝二石一夫	-12.5471
云兒年十五以此付之其後又不	-12.5471
族人為遺書令悉以財	-12.5471
終日不歸男女當壯扶輦推輿相睹樹下	-12.5471
詣官訴妻妻拒而不承舉	-12.5471
鄣	-12.5471
雖使三堯在臧但懸其物而不散施之	-12.5471
之美者也貎美故民歌之	-12.5471
之衣衾三領木必三寸	-12.5471
也三敗殺君二重臣定社稷者吾此皆以	-12.5471
也用民之死命者則刑罰不可不審	-12.5471
五十倍其賈此數也君以織籍籍於系未	-12.5471
人子之道以事其父矣故曰父不父	-12.5471
人違而傷人是還自傷	-12.5471
以識此管子對曰君勿患且使外	-12.5471
使人有非分之幸也	-12.5471
俾與女内實寄之耳夫劒者	-12.5471
其子而整齊之則子不知	-12.5471
出者而不傷人入者	-12.5471
則下怨其上下怨其上則令不行矣法者	-12.5471
司理院勘殺人賊	-12.5471
吾欲優患除害將小能察大為之	-12.5471
四萬二千金廓然虚桓公惕然太息曰吾	-12.5471
外之有徒禍乃始牙衆之所忿寡不能	-12.5471
有僧陳牒出憑	-12.5471
期於泰舟之野期軍士桓公乃即壇而立	-12.5471
此盛滿之國也雖	-12.5471
殺僇必信民畏而懼武威既	-12.5471
獄吏髙其枷尾遂不得言	-12.5471
生處死謹賢修伍則衆	-12.5471
移於州獄俾郡主簿鞫之自韓已下凡	-12.5471
號令不爲六者疑錯	-12.5471
言君王豪盛處	-12.5471
諧	-12.5471
醵	-12.5471
限年十五者	-12.5471
㝷究經過	-12.5471
下之從上也如響之應聲臣之法主也如	-12.5471
下乖亂而民不親也求夫家而不用媒則	-12.5471
不可復行而不可再者有國者之大禁也	-12.5471
不忘之道也故其位安而民來之故曰	-12.5471
不能以多力易人	-12.5471
中亂復反豎刁利言卑辭不在側復反	-12.5471
之當壯者遣之邊戍民之無本者貸之圃	-12.5471
之鹽一日二百鍾十日二千鍾一月六	-12.5471
也故明主在上位則官不得枉法吏不得	-12.5471
也桓公曰何謂一國而二君二王	-12.5471
事君是所願也得於君者是將欲過其千	-12.5471
亡去之資若趙孟之	-12.5471
交而力伐四鄰公薨六子皆求立易牙與	-12.5471
人父而不明父子之義以	-12.5471
以求則得此之謂易治故明法曰君臣之	-12.5471
任平而往福則自歸也	-12.5471
何謂藏於民請散棧臺之錢散諸城陽鹿	-12.5471
先傅直木直木又求直木直木	-12.5471
先於親戚法重於民威權貴於爵禄故不	-12.5471
其分皆入於商賈此中一國而二君二王	-12.5471
其夜姦者果來問曰刺史	-12.5471
其民而不擾佚	-12.5471
内業四十九區言五凡物之精此則	-12.5471
凡所謂能以所不利利人者舜是也舜耕	-12.5471
分畫之不同也如白之與黒也故君臣之	-12.5471
列星流於天地之	-12.5471
則主尊顯故曰銜令者君之尊也人主	-12.5471
則列陳之士皆輕其死而安難以要上事	-12.5471
北客蘇延	-12.5471
去而勿引來而勿推	-12.5471
君直幣之輕重以	-12.5471
君而不明君臣之義以正其臣則臣不知	-12.5471
壅遏之道也故明法曰令出而留謂之壅	-12.5471
多致錢帛募匿妾者	-12.5471
大夫無什於重君以幣賦禄什在上君出	-12.5471
婦人之求夫家也必用媒而后家事成故	-12.5471
嫂曰不疑因相與大喜吏即擒之	-12.5471
官旣有年矣則舉其功過	-12.5471
宙合之意上通於天之上下泉於地之	-12.5471
察見叔寧疑之	-12.5471
尊國安民治無佐則君卑國危民亂故曰	-12.5471
小男小女也按古之石准今之三	-12.5471
尚有不供者則加之	-12.5471
就有辟就則殺不辜而赦有罪殺不辜而	-12.5471
山陶河濵漁雷澤不取其利以	-12.5471
崔公仁恕	-12.5471
庸用也不用心以	-12.5471
廢亂則當正之	-12.5471
彤弓朱弓也非齊之所出	-12.5471
後君失必矯	-12.5471
微服伺於臺側	-12.5471
憂怒則害道	-12.5471
故筋骨肕	-12.5471
故聖人善用非其有使非其人動言	-12.5471
數也管子曰神農之數曰一榖不登減一	-12.5471
數以千萬人如九百萬人之數則	-12.5471
明主操術任臣下使	-12.5471
智過於轅門	-12.5471
曰叔向師曠之對皆偏辭也	-12.5471
棧敗矣喻小人用	-12.5471
榖之法什倍二榖不登減二	-12.5471
次還須曲木求其類	-12.5471
歛手有王忠者被	-12.5471
此戍名欲人	-12.5471
此由不利農少粟之害也粟者王之	-12.5471
民銜之法令之合於民心如符節之相得	-12.5471
法度者主之所以制天下而禁姦	-12.5471
法廢而私行則人主孤特而獨立人臣	-12.5471
濟曰爾自有令何至此也其人垂泣不	-12.5471
無與富故賦無錢布府無藏財貲藏於民	-12.5471
甚桓公曰諾乃以令使糶之得成金萬	-12.5471
異居妻家不與	-12.5471
目易人烏獲舉千鈞之重	-12.5471
確	-12.5471
精謂神之至靈者	-12.5471
編棧者先附曲木其	-12.5471
考察之如此則皆反其行矣	-12.5471
者一女不織民有	-12.5471
者賣其子三其本若	-12.5471
聽言而不試故妄言者得用任人而不	-12.5471
至而麥熟天子祀於太宗其盛以麥麥者	-12.5471
舎下愈覆鷙而不	-12.5471
莊遵初為長安令後遷	-12.5471
衛公子開方去其千	-12.5471
衣三農有常業女有常事一農不耕民有	-12.5471
言故也臣有善行不可	-12.5471
車百乘卒千人	-12.5471
辟之若尊譚未勝其本亡流而下	-12.5471
辱生矣故曰邪氣襲内正色乃衰也	-12.5471
顯宗怒甚吏	-12.5471
黨而成朋如此則主弱而臣	-12.5471
始去發䘮既除服	-12.5472
昔者周人有天下諸侯賔服名	-12.5473
重而萬物輕若此則國財九在大夫矣國	-12.5473
樵	-12.5473
臨下視其兵不足	-12.5473
所死者非罪所起者非功也然則	-12.5473
便辟左右大族尊貴大臣不得増其功焉	-12.5473
辟方都之道也管子入復桓公曰終	-12.5473
謂水官與三老五長等行視其里	-12.5473
不足之數也故凡不能調民利者不可以	-12.5473
帛布絲纊之賈	-12.5473
惡則行自全不從枉則邪事不生右四維	-12.5473
曰糶賤寡人恐五榖之歸於諸侯寡人欲	-12.5473
笑超距終日不歸父兄相睹樹下論議	-12.5473
蠒	-12.5473
途旁之樹未沐之時五衢之民男女相好	-12.5473
之一非榖之所生也然則吾非託食之主	-12.5473
也四人均能故	-12.5473
信賞審罰爵材禄能則強	-12.5473
可亂也故羣臣不敢行其私貴臣不得蔽	-12.5473
地封者也故山地者山也水地者澤也薪	-12.5473
濮陽彼盡饋食之	-12.5473
綬	-12.5473
義者行之美者也	-12.5473
蒭	-12.5473
行事奈何管子對曰請以令糶之梁趙宋	-12.5473
三分在上謂民萌皆受上粟度君藏焉五	-12.5473
上用不苦也君終	-12.5473
下國幣盡在下幣輕	-12.5473
不籍吾民何以	-12.5473
之二分在上則二	-12.5473
之君者非杜其門而守其戸也	-12.5473
之地所以禁暴於諸侯也築五鹿中牟鄴	-12.5473
之山播而入深淵其死而不振也必	-12.5473
之心油然生矣今	-12.5473
之故曰安危者與人地大國富民衆兵	-12.5473
之法再什倍夷	-12.5473
之理以事其主矣故曰君不君則臣不臣	-12.5473
之道也故其位安而民	-12.5473
事及市庸此非便國之道也民不得以織	-12.5473
事畢登來事未起方冬無	-12.5473
以安之無度數以治之則國非其國而民	-12.5473
以待君之令相室之任也繕器械選練士	-12.5473
價不使流散	-12.5473
公令劾之更有同黨數十	-12.5473
共殺羣吏而立公子無虧故公死七日不	-12.5473
則民踈之道之不厚遇之無實詐	-12.5473
則海内被其澤澤布於天下後世享其功	-12.5473
力作者也脯二束酒一石以賜之力足蕩	-12.5473
勝之心可以焚灼於海内	-12.5473
古之明主也天下推之而不倦譽之而不	-12.5473
國家煩亂萬民心怨此其必亡也猶自萬	-12.5473
外言一古之聖王所以取	-12.5473
天植者心也天植正則不私近親不孽	-12.5473
宜死者生宜蟄者鳴	-12.5473
寡老而無子者	-12.5473
慎觀終始審察事理	-12.5473
戍名也假設	-12.5473
戰勝攻取使主無危亡之憂而百姓無死	-12.5473
政之不行自致侵	-12.5473
故盛必失而雄必敗夫上	-12.5473
故親之殺其子以	-12.5473
斷大木誅大臣	-12.5473
日月昭察萬物者也天多雲氣蔽	-12.5473
昭察其臣下臣下之情不得上通故	-12.5473
時功業流後	-12.5473
曲可直可言可黙此言指意要	-12.5473
有予人者武王是也武王伐紂士卒	-12.5473
未也夫齊衢處之本通達所出也游子勝	-12.5473
欲見天心明以風雨故曰風雨無違逺近	-12.5473
欲謀過江掠貨	-12.5473
此五者可以輔弼國政也	-12.5473
民之所以守戰至死而不	-12.5473
民望如父母近國之民從如流水故行地	-12.5473
無不見假令不見是	-12.5473
獨君問其若有子弟師役而死者父母	-12.5473
獨言石璧兼以彤弓者猶藏其機	-12.5473
癤	-12.5473
相交接否之謂也何慈之有乎	-12.5473
相靡而重去什三	-12.5473
矣故曰唯夜行者獨有之	-12.5473
磨勘黯言澤與父不通問者三年借非匿	-12.5473
禦其民則民一心而奉其上故能貴富而	-12.5473
私也故曰有無棄之言者必參之於天地	-12.5473
系籍系撫織再十倍其賈如此則云五	-12.5473
縿綃而貍之於地彼善	-12.5473
者四分在上則國	-12.5473
而誹者不能退也	-12.5473
能事重重能制輕然後慈	-12.5473
至善之爲兵也非地是求也罰人是君	-12.5473
若産而無弟兄上必賜之匹馬之	-12.5473
萬物尊天而貴風雨所以尊天者	-12.5473
謂六興七體八經五務三度	-12.5473
賊所掠者賊即引伏	-12.5473
輕重自在重或前或後不	-12.5473
辭萬民可得而親桓公曰善桓公	-12.5473
重流謂嚴守	-12.5473
閉藏百事盡止	-12.5473
非由杜門守	-12.5473
革不籍吾民何以待鄰國癸乙曰唯好心	-12.5473
馬四萬匹管子曰	-12.5473
髙則髙天下下則下天髙我下則財利	-12.5473
也致所愛非民也致所重非爵禄也故不	-12.5474
是令貴於寶	-12.5474
虧其命故曰令貴於	-12.5474
所殺妻兄疑	-12.5474
地在陽時假貸萬	-12.5474
物精氣以長養也	-12.5474
重什倍而萬物輕大夫謂賈之子	-12.5474
下其事遂消滅也	-12.5474
之處即甲士下之	-12.5474
居身論道行理則	-12.5474
瘁	-12.5474
菴	-12.5474
蔾	-12.5474
豚	-12.5474
私人之門謂所與	-12.5474
以他事綰馬生至對	-12.5474
大臣得罪勿出封外是為漏情	-12.5474
市鹿脯不限其價其主見識之推獲	-12.5474
數變易則事繁	-12.5474
舖	-12.5474
論功計勞未	-12.5474
雍州别駕有	-12.5474
其是非如此則無事不明矣	-12.5474
告一富家有逆謀都城	-12.5474
大有臣甚大將反	-12.5474
數之守終始可得聞乎管子曰正月之朝	-12.5474
於軍事而以私訟者令	-12.5474
殺雞破嗉有	-12.5474
焉遂罰言粟者	-12.5474
福無恃貴以招禍	-12.5474
舉而名實俱在也民何	-12.5474
謂小白必得立矣	-12.5474
雞者季珪問	-12.5474
不能守其物亡必不返於連比之	-12.5474
之使其臣也用必	-12.5474
事慮有妨奪先自大夫起欲人不知其機	-12.5474
五行第四十一短語十五一者	-12.5474
以當功當功所以	-12.5474
其欵都不訊鞫	-12.5474
冩	-12.5474
勃	-12.5474
告趙王吕倉	-12.5474
大治不察於終始不可以	-12.5474
奈何管子對曰動之以言潰之以辭可以	-12.5474
守臣以為陛下試臣耳則天厲色曰崔宣	-12.5474
安得以至尊喜怒而毁法乎重復為奏	-12.5474
小能則察知其	-12.5474
帝意寤乃下京名即還訊	-12.5474
柔曰廷尉天下之平	-12.5474
桓公遽然起曰然則	-12.5474
止者粟少而民無積也常山之東河汝之	-12.5474
正矣此愛民之道也公曰民富而以親則	-12.5474
江南轉運	-12.5474
海之衆謂北海煑鹽之人本意禁人煑鹽	-12.5474
漢時沛郡有	-12.5474
無後則繼絶世故人殖殖生也	-12.5474
犒	-12.5474
甚大則逼君	-12.5474
産及敗所牽挽	-12.5474
私愛之於民若弟之與兄子之與父也然	-12.5474
義美故民樂之民之所歌樂者美行	-12.5474
至矣動左右以重相因二十國之筴也	-12.5474
蚤生而晚殺五	-12.5474
謂上無時之徴一也澤不	-12.5474
貧民耳時都虞候姓韓者則	-12.5474
質曰此士無讐而有少妻所以死	-12.5474
辭多異同遂	-12.5474
逆節萌生天地未形先	-12.5474
郭崇韜之僚壻也與	-12.5474
陳執方大卿	-12.5474
不止故曰上下不和令乃不行言辭信動	-12.5474
不發不凝所謂	-12.5474
之分也奉法聽從臣之分也故君臣相與	-12.5474
之則已竄矣於是以	-12.5474
之所使也故軒冕立於朝爵禄不隨臣	-12.5474
之朝禮千人之長必拜而送之降	-12.5474
之耳請以令輕重之家桓公曰諾東車五	-12.5474
之言也而反害傷之故聖人不告也故曰	-12.5474
也仲父亦將何以詔寡人管仲對曰	-12.5474
也其意必得齊國然後稱所	-12.5474
代商人之子侵夜斃	-12.5474
以使下非斧鉞	-12.5474
伏法高端明殿學士襄之弟也	-12.5474
低	-12.5474
作虧衣冠惰則臣下輕之故曰衣冠不正	-12.5474
來赴賊女子	-12.5474
倉在今廣平郡曲周縣也	-12.5474
先為鴈行以	-12.5474
入者舉爲最	-12.5474
公以重布決諸侯賈如此而有	-12.5474
公子開方五味不至於是乎復反易牙	-12.5474
其智能進其長技故智者	-12.5474
其涂逺而至難故先王各用於其重珠玉	-12.5474
其羣臣明理以佐主故主明主明而國治	-12.5474
其莫不受命焉也所以貴風雨者	-12.5474
分明上下之位審故大臣各處其位而不	-12.5474
則治不盡理事不盡應治不盡理則	-12.5474
力歸於上女勤於	-12.5474
力而儉則富夫物莫虚至必有以也故曰	-12.5474
勿為倦怠也	-12.5474
南唐昇元格	-12.5474
危社稷覆宗廟滅於天下非失人者未之	-12.5474
可放嫂歸宻令人夜中	-12.5474
名廣譽厚功大業顯於天下不忘於後	-12.5474
君唯毋聽觀樂玩好則敗凡觀樂者宫室	-12.5474
告之罪至死得無悔乎	-12.5474
大國之不服者奈何管仲對曰先愛四封	-12.5474
大樹深根不可伐大	-12.5474
妻家不知其故恐	-12.5474
子之養不足號令賦於天下則不信諸侯	-12.5474
宿夜不出者利在水也故利之所在雖千	-12.5474
察而知之置之於身勿令下	-12.5474
寡人法天合德合德長	-12.5474
屍則為媪受捕賊之責凡宿海上	-12.5474
屯聚泄散	-12.5474
山林菹澤草萊	-12.5474
强不凌弱衆不暴寡萬民驩盡其力而奉	-12.5474
徙其獄于澧州	-12.5474
忘其事夕失其功中情信誠則名譽美矣	-12.5474
恭遜敬愛身之粉澤也故	-12.5474
憂之有難則死之主視民如土則民不	-12.5474
捿	-12.5474
掲示之乃房陵商人道	-12.5474
於人但嚴守利	-12.5474
於嫂壁下聽	-12.5474
明主與聖人謀故其謀得與之舉	-12.5474
曰善桓公曰諾乃誡大將曰百人之長必	-12.5474
月人三十錢之籍	-12.5474
有功者賞亂治者誅誅賞之所加各得其	-12.5474
有積蓄不可以用人非有積財無以勸下	-12.5474
服殊無取焉則民反其身不	-12.5474
朝忘其事夕失其功	-12.5474
根黨盤亦	-12.5474
正籍者予之長假死而不葬者予之長度	-12.5474
此可買棺來取兒	-12.5474
此謂守物而御天下也公曰然則無可以	-12.5474
歸於府者非怨民心傷民意	-12.5474
死生猶隱顯也聖人	-12.5474
殷之日决鉅橋之粟散鹿臺之錢殷民大	-12.5474
殿中侍御史時	-12.5474
江淮之間有一茅而三脊	-12.5474
流而之天下天下財物流而之齊故國八	-12.5474
潭深也此以大	-12.5474
為常州團練推官	-12.5474
無什倍之賈無倍稱之民國准第七十九	-12.5474
玉貨財必欲得其所好然則必有以易之	-12.5474
用主之所急也故曰且	-12.5474
畏之故民愛之則親畏之則用夫民親而	-12.5474
當分者百萬人	-12.5474
癸乙於周下原桓公問四因與癸乙管子	-12.5474
盡應則功利不盡舉功利不盡舉則國貧	-12.5474
盡於此乎管子對曰布織財物皆立其貲	-12.5474
相曰夷吾大夫曰寗戚隰朋賔胥無鮑叔	-12.5474
相距六千里大人謂天子三公四輔也	-12.5474
破趙而三分其地	-12.5474
礦	-12.5474
移之如是則慶賞雖重民不勸也殺戮雖	-12.5474
絤夜石之幣天下無有管子曰以守國	-12.5474
者得食寒者得衣死者得	-12.5474
而欲舉與大國爭者農夫寒耕暑	-12.5474
而遁邏者得之質抵之死轉運使楊告駮	-12.5474
聖王之禁也審飾小節以	-12.5474
自直之箭自圜之木	-12.5474
自誣其罪遵察之乃謂吏曰叔為大逆速	-12.5474
舎故下伺察而懐疑	-12.5474
衆非禄賞無以勸民六攻之敗何也	-12.5474
覆察也鷙疑也上	-12.5474
言曰吾親民民不親也故曰親近者言無	-12.5474
言無證佐何以	-12.5474
説勝則賢不肖不分	-12.5474
諸夏之地所以示勸於中國也	-12.5474
謹小恥禁微邪	-12.5474
謹敬則尊顯附矣中無情實則名聲惡矣	-12.5474
財是重貧也農夫失其五榖是重竭也故	-12.5474
起而君在危殆之中矣故曰羣徒比周之	-12.5474
軼於賈榖制畜者則物軼於四時之輔善	-12.5474
遂卒卒十月隰朋亦卒桓公去易牙豎刁	-12.5474
開方在衛當嗣君之位今	-12.5474
隱顯必因天地之形	-12.5474
首之孫仰倳㦸之	-12.5474
黨者處後夫朋黨者處前賢不肖不分則	-12.5474
坦氣修通凡物開靜形生理	-12.5475
君雖彊本趣耕	-12.5475
公曰此若言何謂也管子對曰	-12.5475
一千視之謂曰今官所鑄不五六年	-12.5475
乃爾父未居前數十年所鑄何也其人遂	-12.5475
宅居者發地藏錢兄之子訴曰父所藏也	-12.5475
凶旱水泆民	-12.5475
天下而奪於其下何數也管子對曰君分	-12.5476
可知起下文也	-12.5476
所屬之數雖曰	-12.5476
百慮其家不一圖	-12.5476
通於上其事遂斷絶也	-12.5476
權失天之權則人地之權亡桓公曰何	-12.5476
也功立而名成下則實其囷京上以給上	-12.5476
以冬無事之時籠	-12.5476
始也日至百日黍秫之始也九月	-12.5476
矢以平其罪成平也	-12.5476
一頭雨霽當别	-12.5476
三十一年而藏十一年與少半藏	-12.5476
三年與少半成	-12.5476
以調用積餘	-12.5476
合于國奉者皆置而劵之以	-12.5476
子者故天權失人地之權皆失也故王者	-12.5476
宻問守門者曰誰載藁	-12.5476
式用也璧石璧也	-12.5476
得有其富實乎	-12.5476
服有海内以富誠信仁義之士故民髙辭	-12.5476
櫎市准曰上無幣有	-12.5476
笝	-12.5476
經言六言是而不	-12.5476
若四時之更舉無所終國有患憂輕重五	-12.5476
覆後一人至求庇廕因	-12.5476
言平地五仞見水	-12.5476
謂什人共貯	-12.5476
踡	-12.5476
下作之地上作之天謂之不服之民處里	-12.5476
不使而父子兄弟不忘其功右士農工商	-12.5476
不葬孝公犇宋宋襄公率諸侯以伐齊戰	-12.5476
之在心所謂夜行者心行也能心行	-12.5476
之奈何管子對曰梁山之陽綪	-12.5476
之有道乎管子對曰唯籍於號令	-12.5476
之行蔽欺之患此臣之所以	-12.5476
之道則民離畔而不聽從故主危而不得	-12.5476
也今每戰輿死扶傷如孤	-12.5476
人君唯毋聽羣徒比周則羣臣朋黨蔽美	-12.5476
以易之者何也大官尊位不然則尊爵重	-12.5476
以此事君者皆姦人也而人君聽之焉得	-12.5476
修小禮行小義飾小	-12.5476
修門閭十二淸明發禁十二始	-12.5476
兵廣地富國之必	-12.5476
其計能者進其功以前言督後事所	-12.5476
再什以上衡山之民釋其本	-12.5476
力則有刑事父母而不盡力則不親受業	-12.5476
功也匡主之過救主之失明	-12.5476
功臣世家遷封食邑積餘藏羨跱蓄之家	-12.5476
動静不記行止無量	-12.5476
十倍山田以君寄幣振其不贍未淫	-12.5476
十鍾一農之事乃中二金之財耳故粟重	-12.5476
取之石五十天下聞之載粟而之齊齊	-12.5476
可復者君不言也人主身行方正使人有	-12.5476
君式璧而聘之	-12.5476
君服靑色味酸味聽角聲	-12.5476
四十則鍾四百也十鍾四千也二十鍾者	-12.5476
國之財湯之以髙下注之以徐疾一可以	-12.5476
國者天子之國也桀無天下憂飾婦女鍾	-12.5476
天權之道也桓公曰善吾欲行三權之數	-12.5476
守一分以行五年國	-12.5476
定慮五日定載十日出竟二十日而反萬	-12.5476
待風而動待雨而濡也若使萬物釋天	-12.5476
於管子曰輕重安施管子對曰自理國虙	-12.5476
日潮浮二屍	-12.5476
日至始數四十六日春盡而夏始天子服	-12.5476
明謀而適勝通德而天下定	-12.5476
時而立儀桓公曰何謂視時而立儀對曰	-12.5476
曙戒勿怠後	-12.5476
曰吾國者衢處之國饋食之都虎狼之所	-12.5476
曰吾所寄幣於子者若干	-12.5476
曰見其若此其厚而不死列陳可以反於	-12.5476
有予人者也桓公謂管子曰今子	-12.5476
有無貲之寶於此吾今將有大事請以寶	-12.5476
有道分之有數乎管子對曰唯輕重之家	-12.5476
權與明必勝則慈者勇	-12.5476
殷得巨橋粟欲使糴貴	-12.5476
民則慕而不費用矣	-12.5476
為十十可以為百	-12.5476
焉則豪人大賈不得擅其利	-12.5476
焉明主之使逺者來而近者親也	-12.5476
無私葆光無私而兼照之則美惡不	-12.5476
無親安固無親而兼載之則諸生皆殖	-12.5476
無親戚者必遺其妻子酒三石肉三鼎行	-12.5476
田以時撫於主上坐長加十也女貢織帛	-12.5476
畔	-12.5476
知萬物之可因而不因	-12.5476
私議自貴則民退靜隱伏窟穴就山非世	-12.5476
終始身不竭此謂源究輕重戊第八十四	-12.5476
終身無籍於民准衡之數也	-12.5476
義以道其主主無邪	-12.5476
而不能謹守其山林菹澤草萊不可以立	-12.5476
而行之自可為理	-12.5476
衍頓㦸一譟而靡幣之用日去千金之積	-12.5476
衡山之君告其相曰天下爭吾械器令其	-12.5476
裏當色白今表裏如一偽也訊之	-12.5476
譽者不能進而誹者不能退也制羣臣	-12.5476
通官又合於美	-12.5476
逺得人彌衆是何也	-12.5476
適凶則市糴釡十繦而道有餓民然則豈	-12.5476
重而粟輕兩者不衡立故善者重粟之賈	-12.5476
可耳桓公曰行事奈何管子對曰請以令	-12.5477
國無人者非朝臣	-12.5477
在衍在丘在山皆	-12.5477
葦無赨莖白秀五位之土若在岡在陵在	-12.5477
柞	-12.5477
浣	-12.5477
舜之有天下也禹	-12.5477
顧之意故謀泄	-12.5477
以偷盗治偷盗	-12.5478
則象法化決	-12.5478
能危比之於道	-12.5478
與三老里有司伍長行里因父母案行閱	-12.5478
雪宫門夜失行馬	-12.5478
内無煩擾之政外無彊敵之患也夫動	-12.5478
刼郡縣按察莫知賊	-12.5478
則生全故曰乃知養生	-12.5478
問管子曰請問權數管子對曰天以時	-12.5478
天之權則人地之權亡	-12.5478
左右侵君事故也	-12.5478
晉商仲堪為荆	-12.5478
曰原此㫖當以二親生存而横言死	-12.5478
白即是將更無	-12.5478
知行情則不違理不違理	-12.5478
詐服縗麻言迎父喪府曹依律棄市	-12.5478
制皆不然矣凡此書之解乃有數篇版法	-12.5478
和也不失其時然後富不失其法然	-12.5478
季珪鷄豆張舉猪灰	-12.5478
惡聲往則惡響	-12.5478
慿	-12.5478
肄	-12.5478
變通之以盡利不	-12.5478
驢䭾鹿脯至滄州界以足疾行遲偶	-12.5478
驢及脯去明旦告州浟乃命左右及府寮	-12.5478
之帝匿京名收龜付獄柔表請告者名帝	-12.5478
之條故不勞自舉度也	-12.5478
以息姦省訟也安得匿告者名乎柔可謂	-12.5478
以此事君此所謂誣能簒利之臣者也	-12.5478
何復請告者主名	-12.5478
君臣好貨利則妨	-12.5478
嘗出行而鄢陵縣吏陳滿射鳥	-12.5478
嚢	-12.5478
安用此鹽而可管子對曰孟春	-12.5478
得一髙麗婢名	-12.5478
必侵其北離枝侵其北代必歸於齊公	-12.5478
怒曰劉龜當死	-12.5478
恩施之徳然見	-12.5478
按法有誣告反	-12.5478
故君子繩繩乎	-12.5478
管氏之辭豈有故作難書	-12.5478
縑入市遇雨以縑	-12.5478
美人之懷定服而勿	-12.5478
而復從而解之前	-12.5478
舊宗則收散親	-12.5478
薛絹互争符盗並走	-12.5478
西面以與秦	-12.5478
錯不倫處非其第據此則劉向	-12.5478
㢤	-12.5478
一曰造父為齊王駙駕	-12.5478
三代無能授於有能桀紂失之湯武得之	-12.5478
三老里有司伍長案行之常以朔日始出	-12.5478
上尊而民順財厚而養足四者備體則	-12.5478
下解中門謂耳目也	-12.5478
不報降監舒州靈	-12.5478
不廣於理者其成若神故曰無廣者疑神	-12.5478
不得翦其私羣臣不得辟其所親愛聖君	-12.5478
不水死乎雖果為仇所殺若不得	-12.5478
且夫令出雖自上而論可與不可者	-12.5478
並走先出鳯陽門者非	-12.5478
乃違之故其事不	-12.5478
之中國諸夏蠻夷之國以及禽	-12.5478
之人比屋可誅也	-12.5478
之以輕民不足則重之故人君散之以重	-12.5478
之制輕重毋過二旬萬	-12.5478
之形此則先天而政天	-12.5478
之理難明故惑也	-12.5478
之糶賤狗彘食人食故來	-12.5478
之遺刀而逃	-12.5478
之重去分謂農夫曰幣之在子者以	-12.5478
乗之國中而立市東西南北度	-12.5478
九十二里而壇	-12.5478
也如是則不肖者在上位矣然則賢者不	-12.5478
也桓公曰民居定矣事已成矣吾欲從事	-12.5478
也衆人之為禮也	-12.5478
也行私惠而赦有罪則是使民輕上而易	-12.5478
事矣是敺國而捐之也故曰觀樂玩好之	-12.5478
二年之粟顧之立黔落力重與天下調彼	-12.5478
五三世則昭穆同祖十世則	-12.5478
五千四百鍾之鹽而籍	-12.5478
亡媪指某氏為仇告縣捕賊吏	-12.5478
亶	-12.5478
人所殺而失其首	-12.5478
人能正靜者筋肕而骨	-12.5478
仇家得其迹與媪約曰期十日不得	-12.5478
令之攻魏因請	-12.5478
令守地用人筴故開闔皆在上無求於民	-12.5478
令工施鉤梯而	-12.5478
令禁百鍾之家不得事鞽千鍾之家不得	-12.5478
以令發師置屯	-12.5478
以血塗叔因大呼曰	-12.5478
何也曰滋味也聲色也然後	-12.5478
備至具實吐之	-12.5478
元篇亡今以司馬遷封	-12.5478
其下有銅金此山之見榮者也	-12.5478
其入多其出少	-12.5478
其積薪也以事之	-12.5478
典常也宙合之道	-12.5478
内侵故地虧	-12.5478
内無聖徳外	-12.5478
刑則游仰灌流	-12.5478
制又遷之刑法	-12.5478
則二金中八千也然則一農之事終	-12.5478
則射御勇力之士	-12.5478
則爵服不可不貴也爵服加	-12.5478
則避害而取利取	-12.5478
剚	-12.5478
力固不足而食固不贍也哉夫	-12.5478
勝則姦人在上位人君唯毋聽請謁任	-12.5478
北郭者盡屨縷之甿也以唐園	-12.5478
十兄弟五人分國	-12.5478
十嵗强作一十	-12.5478
原死豈法意乎數上	-12.5478
可御也欲民之可御則法不可不審法者	-12.5478
名名曰宙合也	-12.5478
四務管子對曰泰春民之且所用者君	-12.5478
國守分上分下游於分之	-12.5478
在言更成顯陽	-12.5478
在身則榮去身則辱也	-12.5478
地利所在管子對曰山上有赭者其下有	-12.5478
地而予之非吾所欲也不予而與戰必不	-12.5478
多内則富時出則當而聖人之道	-12.5478
多所黜易吏	-12.5478
夫凡人之情見利莫能勿就見	-12.5478
夫曰吾家無犬	-12.5478
好心萬物之可因癸乙曰有餘富無餘	-12.5478
妬而好内竪刁自	-12.5478
嬴嬴縮縮因而	-12.5478
子之春事資子之幣春秋子穀大登國	-12.5478
子對曰粟賈平四十則金賈四千粟賈	-12.5478
官皆當奉器械備曰國無幣以榖准幣國	-12.5478
富乎管子對曰物之生未有	-12.5478
少時謁郡僚有争	-12.5478
尺者萬泉八寸者八千七寸者七千珪中	-12.5478
尺見水則免	-12.5478
山之見榮者謹封而	-12.5478
山無所不上深源之下無所不入焉故善	-12.5478
工能積財舉而長之	-12.5478
左秋殺於右夏長於前冬藏於後生長之	-12.5478
帝感悟即報許得出者四百餘家	-12.5478
形而要之故曰與	-12.5478
彼重之相歸如水之就下吾國	-12.5478
待謂須自厲以	-12.5478
徑發官差人追	-12.5478
得之哭而不哀者所葬非人也廵	-12.5478
得行其私故明法曰有權衡之稱	-12.5478
復生将誰使定	-12.5478
必行藏順時然後事當	-12.5478
惡事乎以此抑桓公欲觀其意也	-12.5478
愼號審章則其攻不待	-12.5478
成則被誅戮受其刑罪也	-12.5478
戚始管子對曰君人之主弟兄十人分國	-12.5478
所道人求本者食吾本粟因吾本幣騏驥	-12.5478
捐之手足胼胝面目黧黑	-12.5478
提持也合衆弱以事	-12.5478
故曰私議立則主道卑矣	-12.5478
故衆理相當上下相親巧者奚仲之所以	-12.5478
敢理認田園其生涯	-12.5478
數然而民有賣子者何也財有所并也故	-12.5478
數理也國無常經人力必竭	-12.5478
於官羣臣務佼而求用然則無爵而貴無	-12.5478
旣未能誅且固事	-12.5478
昆蟲皆待此而	-12.5478
明法審數立常備能則治	-12.5478
易令謂變令錯儀	-12.5478
易牙為君主味君	-12.5478
星十日之内室無處女路無行人	-12.5478
是故之時陳財之道可以行今也利散而	-12.5478
書所載管子言以補之	-12.5478
服三家即其事也	-12.5478
服以出戰諸侯賔服以行仁義管子曰一	-12.5478
服文繡衣裳者伊尹以薄之游女工文繡	-12.5478
木連狗取聲為義即國家也言易	-12.5478
東郭之狗喻易牙言其人殘忍同於狗矣	-12.5478
桑懌崇班	-12.5478
樞者居中以運外動而不窮者也言	-12.5478
此其可誅之時必不得失之	-12.5478
此厲民之道也民之	-12.5478
此天下之極也曰然則得人之	-12.5478
此謂殺事立而壞何也兵	-12.5478
此身之名有恭遜	-12.5478
武是也桓公問於管子曰吾欲守國財而	-12.5478
比其常籍則當	-12.5478
民不附父母暴而無恩則子婦不親臣下	-12.5478
決瓁洛之水通之杭莊之間	-12.5478
泱	-12.5478
湩然擊鼓士忿怒鎗然擊金士帥然筴桐	-12.5478
無兵誅暴暴必	-12.5478
無功而敗法自量	-12.5478
無有如出一口	-12.5478
然後失矯以深與上	-12.5478
然矣不當封也	-12.5478
爵不尊禄不重者不與圖難犯危以其道	-12.5478
牙終能亡國滅	-12.5478
甗	-12.5478
田者封畛既泯質劑且亡未能斷	-12.5478
當廢也五材	-12.5478
發草土得其榖矣民人之食有人若干步	-12.5478
皆持其名而去於人則過惡日	-12.5478
直因恚而狂罕為直其事盡以家貲與之	-12.5478
相知而萊人大遁故遂破其軍兼其地而	-12.5478
眀養生以觧固	-12.5478
矣故知三准同筴者能	-12.5478
知然後可以行放	-12.5478
神農封泰山禪云云炎帝封泰山禪云云	-12.5478
稱人之惡惡不忠而怨妬惡不公議而名	-12.5478
積餘藏羨跱蓄之家	-12.5478
窮若乃輕薄不	-12.5478
筴率二十七日	-12.5478
管子曰虞國得筴	-12.5478
管子輕重二桓公問管子曰有虞筴	-12.5478
終舉兵攻萊戰於莒必市里	-12.5478
美人之懐定服而	-12.5478
而卒以報於公公使驗其簿	-12.5478
而士遁於外此不待戰而内敗管子曰今	-12.5478
而富故曰請謁任	-12.5478
而往引之而來彼下有立其私議自貴分	-12.5478
而應榖國器皆資無藉於民此有虞之筴	-12.5478
而應筴國奉決	-12.5478
而曰不竭者此非理之言也	-12.5478
耐	-12.5478
耐掠隱抵	-12.5478
耘力歸於上女勤於纎微而織歸於府者	-12.5478
聖人之慮用衆人之力而不自與焉故事	-12.5478
肆意陳欲曰	-12.5478
能摩故道新道定國家然	-12.5478
能順而考之或使之莅衆以立風化	-12.5478
萬金賈四千則是十金四萬也二十金者	-12.5478
蕃實秀大六畜犧牲具民足財國富	-12.5478
襄州中廬令有賊	-12.5478
見一房無燭	-12.5478
親之天下信之此國君之信公曰善請問	-12.5478
調福州長溪尉縣媪二子漁於海而	-12.5478
請然則請謁得於上黨與成於	-12.5478
謨	-12.5478
豫致此五家之國准也輕重甲第八十	-12.5478
賢能陳力而崇	-12.5478
輕重無數物發而應之聞聲而	-12.5478
辨而婦人獨知	-12.5478
農夫寒耕暑	-12.5478
近代有人因行商回見	-12.5478
適美則市糶無予而狗彘食人食	-12.5478
邪氣襲内正色乃衰	-12.5478
金重令徐則	-12.5478
錯而不用者則以	-12.5478
長責人故其令廢而責不塞故曰墜岸三	-12.5478
雉	-12.5478
雖萌芽而生然天地	-12.5478
非凶也以幣藏之故國	-12.5478
順㫖妄族平人	-12.5478
順天之時約地之	-12.5478
馬之數矣桓公曰何謂筴	-12.5478
馬四千匹萬	-12.5478
馬已行矣吾欲立筴	-12.5478
馬數第六十九	-12.5478
駐	-12.5478
驕富而不奢行理而不惰故能長守貴富	-12.5478
髙下之筴不得不然之理也桓公曰	-12.5478
魏王之臣也而善於	-12.5478
齊使老儒掘藥於馬梨之山	-12.5478
􁷒	-12.5478
堦徐問嫗雖言語雜亂然時有可采者乃	-12.5478
所殺主名㝷訪考驗尚多無恙其事遂白	-12.5478
與富民有仇誣以歲殺人十二祭磨駞神	-12.5478
詔偕就鞫之偕命告人	-12.5478
衰也家與家務	-12.5479
也君朝令而夕求具民肆其財物與其五	-12.5479
萬物反其重賈人出其財物國幣之少分	-12.5479
不審此三者不可舉大事	-12.5479
事之常細也故行道之	-12.5479
定牧認皮滄州市脯	-12.5479
情事悖逆所不忍言固當棄市今欽生父	-12.5479
不可罪人上為寛其獄	-12.5479
不忘故彼不報也	-12.5479
德幾於不報	-12.5479
曰隂雍長城之地其於齊國三分之一非	-12.5479
根治諸縫人已誣服乃送府具獄琳	-12.5479
程簿舊錢王璩故簡	-12.5479
設法者自著擇人量功	-12.5479
一國而有三千萬人矣	-12.5479
七銖一黍十分之一	-12.5479
上有丹沙者	-12.5479
上用入則務本疾作以實倉	-12.5479
上百都百縣䡄據	-12.5479
不可欺以輕重尺寸	-12.5479
不為鄉里所容乃自髠鉗依佛教	-12.5479
不輕侮諸侯動衆用兵必	-12.5479
之兵不求其地所以君可	-12.5479
也夫天下者使之不使用之不用故善	-12.5479
事露乃投牒請	-12.5479
五石庸田三石其餘皆屬諸荒田地量百	-12.5479
人主操逆人臣操順先王重榮辱榮辱在	-12.5479
人之所要皆先備之所謂耒耜器	-12.5479
人馬假其食民鄰縣四面皆櫎	-12.5479
今之天下即古之天下豈有二天下而行	-12.5479
令人之衡山求買械器	-12.5479
令歸屠其牛而鬻之	-12.5479
以兩雄兩雄	-12.5479
以其道未可求故不與尊爵	-12.5479
以制天下管子對曰佚田之言非也彼善	-12.5479
以安羣生得以育故萬民驩盡其力而樂	-12.5479
伯長也謂材能之	-12.5479
伺郄日有變	-12.5479
何謂國無制地有量管子對曰髙田十石	-12.5479
使人君行逆不修道誅殺不以理重賦斂	-12.5479
侯伯面各三千里	-12.5479
傾縣死其所君守大奉一謂之國簿管子	-12.5479
六十八乗馬數第六十九問乗馬第七十	-12.5479
其人謂於操事輕重之	-12.5479
其鹽之重每一斗加	-12.5479
内不可以持天下佚田之言非也管子曰	-12.5479
出令有徐疾物有輕重然	-12.5479
分彊半彊也今使鹽官	-12.5479
則下踰其節上下不和令乃不行衣冠不	-12.5479
則常征十分	-12.5479
十而守五綈素滿之五在上故視	-12.5479
升當米六合四勺也百升之	-12.5479
原無象勝之本定獨威勝定計財勝定	-12.5479
反准賦䡄幣	-12.5479
反於禽獸然則禮義	-12.5479
君不君則臣不臣	-12.5479
問於管子曰崇弟蔣弟丁惠之功世吾	-12.5479
因使玉人刻石而	-12.5479
因而逃去詔令	-12.5479
國之車盡於封	-12.5479
國無制地有量	-12.5479
國者壤辟舉則民留處倉	-12.5479
國者必先富民然	-12.5479
園去市三百步者不得樹葵菜若此則空	-12.5479
土車什一雨	-12.5479
坐長十倍環	-12.5479
坐長而十倍上下令曰貲家假幣皆以	-12.5479
士以更次益薪積之水旁州大夫將之唯	-12.5479
天下不知三准之同筴者不能	-12.5479
天下且天下者處兹行兹若此而天下可	-12.5479
天下君求焉而無止民無以待之走亡而	-12.5479
好譏而不亂亟變而不變時至則	-12.5479
子婦而不孝四者	-12.5479
富則不如貧委積則虚矣此三權之失也	-12.5479
察人不為人所糺	-12.5479
寡人不得籍斗升焉	-12.5479
寡人不得籍斗升焉去菹菜鹹鹵斥澤山	-12.5479
實則知禮節且無委致圍城	-12.5479
封十五里之原	-12.5479
崔黯捜帑	-12.5479
州時有狂嫗數邀	-12.5479
幣謂鄰縣曰有實者皆勿左右不贍則且	-12.5479
年重適入正禮義	-12.5479
廩重有加十謂大家委貲家曰上且	-12.5479
强者謂之衡秩次	-12.5479
微勝不微有義勝無義練士勝	-12.5479
恥不立人君無以自守也	-12.5479
我以無能其敗必覆軍殺將故曰兼愛之	-12.5479
我用善者用非有使非人揆度第七十八	-12.5479
故聖王之牧民也不在其	-12.5479
數吾已得聞之矣	-12.5479
於妻妻食之餘乃留	-12.5479
於民之所有餘夫民有餘則輕之故人君	-12.5479
是寡人之國五分而不能操其二是有萬	-12.5479
暴人起而姦邪作矣計上之所以愛民者	-12.5479
曲防之戰民多假貸而給上事者寡人欲	-12.5479
有告其私殺牛者拯詰之曰何為割	-12.5479
束十倍則春有以倳耜夏有以決芸此租	-12.5479
桓公且封之隰朋賔胥無	-12.5479
桓公曰守三權之數奈何管子對曰大	-12.5479
桓公曰寡人欲西朝天子而賀獻不足	-12.5479
棅	-12.5479
海王第七十二	-12.5479
燕有遼東之煑此隂王之國也且楚之有	-12.5479
爲天下致利除害也	-12.5479
父不父則子不子	-12.5479
犯法漸廣轉欲危	-12.5479
用非其有使非其人	-12.5479
皁	-12.5479
皆以數行桓公曰何謂以數行管子對曰	-12.5479
矣法之所立令之所行	-12.5479
立令之所行者多而所廢者寡則民不誹	-12.5479
粟不敢受寶質桓公命丁氏曰寡人老矣	-12.5479
粟賈十粟賈三十粟賈百其在流筴者百	-12.5479
緩怠不傲下國雖富不侈泰不縱欲兵雖	-12.5479
縣縣令江某郎中取	-12.5479
者寡而所廢者多則民不	-12.5479
者斤刀也故曰奚仲之巧非	-12.5479
者有蒭菽五	-12.5479
而藏縣時積	-12.5479
耕而十一年食夫富能奪貧能予乃可以	-12.5479
至善之為兵也非地是求也罰人是君也	-12.5479
興豐則士輕禄民簡賞彼善	-12.5479
藏一十年而十也	-12.5479
藏二五年而十也	-12.5479
行不正使人暴虐遇人不信行發於身而	-12.5479
觀者莫能識之	-12.5479
訊不得情偶於賊	-12.5479
訴事言無倫理從騎	-12.5479
説勝則巧佞者用	-12.5479
貯器當錮	-12.5479
農功故其野不辟	-12.5479
過則去王數不可	-12.5479
里胥洪氏利	-12.5479
金上有慈石者	-12.5479
金中齊有薔石也	-12.5479
鉗歸俗公問曰	-12.5479
錢三萬萬矣以	-12.5479
非怨民心傷民意	-12.5479
革甲曰三革	-12.5479
食粟賈五倍一	-12.5479
飱	-12.5479
𥜗	-12.5479
不先自行其法也	-12.5481
則以上輕於賞罰也	-12.5481
益以三分之一二	-12.5481
不無有三分而去其	-12.5481
三分財物之輕重三分賈人市於三分之	-12.5481
芒羣藥安聚以圉民殃其林其漉其槐其	-12.5481
刑雖能操怒雖	-12.5481
心欲安静慮欲深逺	-12.5481
操違道必危是無不危也	-12.5481
田此四士者天下之賢人也猶尚精一	-12.5481
違失其理必敗亡	-12.5481
量之不以少多稱之不以輕重度之不以	-12.5481
陵侯相廷掾憚䊸嚴明欲損其威乃晨取	-12.5481
隋韋鼎為光州刺史	-12.5481
三分九十六去其	-12.5481
不忍水旱其種大樛	-12.5481
却興兵而伐必取	-12.5481
州縣或能明證得以伸理此凡庸何	-12.5481
愈禁愈犯	-12.5481
智力足以自居度此女壻	-12.5481
人本豈不至哉	-12.5481
具凡欲以貢齊也	-12.5481
國絶無後桓公聞之使	-12.5481
大國之不道者可乎對曰愛四封之内而	-12.5481
忽而不顧謂小事	-12.5481
成文理詐為徐敬業反書以告及差使推	-12.5481
撰忠定公語	-12.5481
既不能定齊國而又不立小	-12.5481
牷	-12.5481
皆以時代為次	-12.5481
選擇其善者以成	-12.5481
一切陷入無敢以情恕者	-12.5481
一率土周之無所	-12.5481
不忘故彼不結	-12.5481
之辭故使然也今究	-12.5481
也胡向胡向少卿	-12.5481
令故言最貴也	-12.5481
先應在後如	-12.5481
其二分餘放此	-12.5481
動則所舉不妄	-12.5481
君子知善惡必報繩繩戒	-12.5481
封於太山禪於梁父者必抱菁茅一束以	-12.5481
張受越訴裴命急吐	-12.5481
早何食一云粟一云	-12.5481
焉雖無形聲俄見其	-12.5481
申主任勢守數以	-12.5481
積善餘慶積惡餘殃	-12.5481
見謂不忘而恃	-12.5481
雖有惻然見而	-12.5481
㑹諸侯令曰立四義而無議者尚之	-12.5481
一以無貳是謂知道將欲服之必	-12.5481
一壇是則使	-12.5481
七十六斤十二兩十九銖二纍	-12.5481
上不行君令下不合於	-12.5481
上尊而民順小人	-12.5481
下欲小利則霸諸侯也	-12.5481
不以相及也遂分别具奏	-12.5481
不務得人故必致	-12.5481
不得不用也管子曰善	-12.5481
主倨傲易令錯儀畫制變易風俗詭服殊	-12.5481
乃是投化髙麗	-12.5481
之不善天下倪而是耳使夷吾得居楚之	-12.5481
之情下解中作怵	-12.5481
之指意要必得此然可以成功	-12.5481
之用者寡則卑則人主安能不欲民之衆	-12.5481
之輔也民智而君愚下富而君貧下貧而	-12.5481
也人主之所以使下盡力而親上者必	-12.5481
事如何亦公之問辭也	-12.5481
二人食者此齊力而功地田筴相	-12.5481
五其本則逺近通	-12.5481
五戰而至於兵	-12.5481
五蠧第四十九	-12.5481
人主者夢見日奚為見寡人而夢見竈	-12.5481
人旣毁譽則己之善惡審矣	-12.5481
人財竭則侵	-12.5481
今者寡人見人長尺而人物具焉冠右	-12.5481
他事有十言之	-12.5481
令而喜不亦冝乎	-12.5481
以仁之慈惠以愛之端政象不敢以先人	-12.5481
以財物施之貧下	-12.5481
佚田之言非也	-12.5481
便知是盗但未知葬處今清明拜掃計	-12.5481
倍公則得成私虧	-12.5481
倦怠之人觸塗	-12.5481
倨傲易令錯儀畫制	-12.5481
偃五兵朝服以濟河而無怵	-12.5481
假鬼神以疑衆	-12.5481
傲易風俗而猶有立	-12.5481
傷也此居於圖西方方外右西方副圖	-12.5481
僾	-12.5481
其威立而令行也其所以能立威行令者	-12.5481
其材能不可不知矣旣	-12.5481
其榮者君謹封而祭之距封十里而	-12.5481
其深及冠從右方	-12.5481
其深至膝若右	-12.5481
其種大水腸細水腸赨莖	-12.5481
其細無内其大無外所以失之以躁	-12.5481
准幣直幣而庚之	-12.5481
凡此獨君之事	-12.5481
凶也惡稔易誅吉也	-12.5481
出又易之禮義	-12.5481
則功臣怨功臣怨而愚民操事於	-12.5481
則敢陵上犯禁	-12.5481
則謀臣死而諂臣尊矣故曰諂讒飾過之	-12.5481
則財多避害故過寡矣	-12.5481
劉毅鎮姑熟	-12.5481
劾以犯蹕罪止罰金	-12.5481
勑斬於東市	-12.5481
動如雷霆獨出獨入莫之能禁止不待權	-12.5481
卑耳即齊語所謂辟耳	-12.5481
厚順不逆時氣	-12.5481
取其貲非自首而捕得	-12.5481
口不食者百餘日獄吏不敢拷訊	-12.5481
口也開口使順理而	-12.5481
司城子罕謂宋君曰慶賞賜	-12.5481
君人者必殊形異	-12.5481
君伐菹薪	-12.5481
君故曰不勝其禍	-12.5481
君道立然後下從下從故	-12.5481
告之以時而民不知不道之以事而民不	-12.5481
告者遂伏辜	-12.5481
哀公問於孔子曰吾聞	-12.5481
善不如此一言也	-12.5481
嚴民樸而親官無邪吏朝無姦臣下無侵	-12.5481
因其輕重守其委廬故事至而不妄然	-12.5481
因病而酖之	-12.5481
固其武臣宣用其力聖人在前貞	-12.5481
國之社稷而不恤吾衆也	-12.5481
在側競稱於義上下	-12.5481
坻	-12.5481
執左道以亂政	-12.5481
夕調而已利有足則行不滿則有止王者	-12.5481
外情者俱付法其夫	-12.5481
天后稱善遷秩二等	-12.5481
夫勢利致人若	-12.5481
夫慮事定物辯明禮義人之所長而蝚蝯	-12.5481
夫至用民者殺之危之勞之	-12.5481
夷吾之言桓公築楚丘以封之與車三百	-12.5481
好全生則羣臣皆全其生而生又	-12.5481
姬殊不避人	-12.5481
婢及投化髙麗	-12.5481
媚者善掩其過	-12.5481
媿小國諸侯附比是故大國之君事如臣	-12.5481
子反以為大戮故	-12.5481
守其時有官天財何求於民桓公曰何謂	-12.5481
安天下之危者也夫救禍安危者必待萬	-12.5481
安曰如有不合太守自當	-12.5481
客刺我請以聞臺中驚擾思兢	-12.5481
宫謂防禦之國	-12.5481
家牛舌而又告之其人驚	-12.5481
寡人敢不從乎管仲攝衣冠起對曰臣	-12.5481
封内仵作行人	-12.5481
將立朝庭者	-12.5481
尊天而貴風雨矣今人君之所尊安者	-12.5481
小則地削大則國	-12.5481
小得福大取焉則大得福盡行之而天下	-12.5481
尚書李南公知長沙縣日有	-12.5481
居不時飲食不節寒暑不適則形體累而	-12.5481
山發而出水金從之蚩尤受而制之以為	-12.5481
山發而出水金從之蚩尤受而制之以爲	-12.5481
州刺史有上蔡董毛奴齎錢五千死於道	-12.5481
州天長縣時有訴盗割牛舌者拯宻	-12.5481
左史倚相謂	-12.5481
布於未形據其已成	-12.5481
布而罰不及則是	-12.5481
帥雖不傷處法棄市	-12.5481
幣國幣之九在上一在下幣重而萬物輕	-12.5481
度不留意焉故明法曰先王之治國也不	-12.5481
弱如是則城郭毁	-12.5481
必得文威武官習勝	-12.5481
必體大方然	-12.5481
忠愛之而適足以殺之	-12.5481
恐其逆政游於天下而傷寡人寡人之行	-12.5481
恭遜敬愛化之可令	-12.5481
情莫不愛其子今	-12.5481
愚俗積財萬計	-12.5481
愛則榮無之則辱也	-12.5481
或授之以社	-12.5481
或疑張堤行	-12.5481
所通金帛皆親	-12.5481
扈	-12.5481
技管子曰詩者所以記物也時者所以記	-12.5481
按周禮荒政	-12.5481
捉馬奴書見在	-12.5481
捉馬奴藏之	-12.5481
放而吏乃謬書士姓欲擬訖	-12.5481
故不復問家問	-12.5481
故曰令重而下恐	-12.5481
故曰儉其道乎令未布而民或	-12.5481
敎其子兄敎其弟	-12.5481
方偕主名宋文墨迹	-12.5481
於我而殺其兄	-12.5481
於手含而不見於口而辟千金者珠也然	-12.5481
易牙子之不能愛將	-12.5481
春功布日春縑衣夏單衣捍	-12.5481
是人君非發號令收穡而	-12.5481
是以上及下之事謂	-12.5481
是以長者斷之短者續之滿者洫之	-12.5481
時守也君不守以筴則民且守於上此國	-12.5481
時楚王英謀	-12.5481
曰吾田野辟農夫必有百倍之利矣是	-12.5481
曰盗殺其徒者死當原質	-12.5481
曰調者三萬人無士姓者此	-12.5481
曰顧小利則大利之殘也	-12.5481
更畫制凡此	-12.5481
有司執制常棄本逐	-12.5481
有隱欺乃捜其積蓄有妻	-12.5481
未變者應機未發且當循常而伺之	-12.5481
本而仁義其要也今工以巧矣而民不	-12.5481
桓公問管仲曰奚若管仲曰君有行之	-12.5481
桓公曰是何言邪以繬	-12.5481
櫻桃在焉於是	-12.5481
正故其所與為多礙而不通也	-12.5481
此刑罰之所起而亂之之	-12.5481
此若言可得聞乎管子對曰楚有汝漢之	-12.5481
此謂弑君之事其事旣	-12.5481
武王以巨橋之粟二什倍而市繒帛軍五	-12.5481
武王非於甲子之	-12.5481
殺其徒而自首者當原今殺人	-12.5481
毋籍衣於民以巨橋之粟二什倍而衡	-12.5481
比擬奏請	-12.5481
毤	-12.5481
民之緩急正其號令而御其大准然	-12.5481
求若竇嬰	-12.5481
河以與西諸侯盟也	-12.5481
河北提刑時有班行犯罪下獄案之不服	-12.5481
治大國小治小國大	-12.5481
治燥氣用八數飲於	-12.5481
法之所立令之所行與其所廢者鈞則國	-12.5481
法試課成功守法而法之身無煩勞而分	-12.5481
泣下始以實告	-12.5481
深而不涸則沈玉極	-12.5481
滯於刑政非道也	-12.5481
滿室遂劾其矯妄之	-12.5481
為見公也公怒曰吾聞	-12.5481
焉國用十不足則加十焉人君之守髙下	-12.5481
無失義易守禍福凶吉不相亂此謂君㨀	-12.5481
無得入同其惡	-12.5481
無方則愚者智攻不守則拙者巧數也動	-12.5481
然則内之不知國之治亂外之不知諸侯	-12.5481
燒式照反	-12.5481
爭以為阿附反虜法與同罪	-12.5481
父母兄弟恩情結固	-12.5481
牢之筴以東西南北相彼用平而准故曰	-12.5481
猳	-12.5481
獄理其無明驗者條上出之府丞掾吏皆	-12.5481
王社稷定君不霸王社稷不定公曰吾不	-12.5481
琦	-12.5481
用之壤寡人不得籍斗升焉去一列稼	-12.5481
用人若干無貲之家皆假之械器勝籯屑	-12.5481
用為之的彀	-12.5481
用管仲以顯其定齊	-12.5481
田墾田墾則粟多粟多則國富國富者兵	-12.5481
當分者十萬人	-12.5481
當米六斗四升	-12.5481
皆在上萬物重十倍府官以市櫎出萬物	-12.5481
益輕而威利日衰侵暴之道也故曰三經	-12.5481
知財物庫正一夜須漿水粥	-12.5481
礙不通也人心有疑君不	-12.5481
秀以慈忍水旱無不	-12.5481
稅籍曲直可判郡	-12.5481
管仲有病桓公往問之曰仲父	-12.5481
簒殺凶逆之節	-12.5481
粢	-12.5481
組者燔功之	-12.5481
総	-12.5481
縁髙出險蝚蝯之所長而人之所短也	-12.5481
繁禮君子不厭	-12.5481
纍箕勝籯屑	-12.5481
習而易犯法故曰大害也	-12.5481
者失筴也不備天權下相求備准下隂相	-12.5481
者戰勝戰勝者地廣是以先王知衆民	-12.5481
而更有所仰動釋雨而更有所仰濡則無	-12.5481
而發口變而無主者也其用	-12.5481
而至於泉中陵十五施百五尺而至於泉	-12.5481
聞乎管子對曰燧人以來未有不以輕重	-12.5481
聞人共畏之故	-12.5481
能執靜道將自定得道之人理丞而屯泄	-12.5481
能威絶域之民不險山川而能服有恃之	-12.5481
臛	-12.5481
與寡嫂訟田	-12.5481
興師伐魯造於長勺魯莊公興師逆之大	-12.5481
若犯令者罪死不赦然則與折取之逺矣	-12.5481
藏三分十年則必有五年之餘若歳	-12.5481
蝨官生必削	-12.5481
衆也隨之以暴謂之内戰桓公曰善哉筴	-12.5481
衆心故曰小利人則	-12.5481
行也上行禮度則六	-12.5481
覆軍敗將之事然則射御勇力之士不厚	-12.5481
親則禍憂至故淵不涸則所欲者至涸則	-12.5481
言恭遜敬愛可以變化	-12.5481
諸侯無牛馬之牢不利其器	-12.5481
謂一道士曰事了矣俄	-12.5481
謂乗車之㑹朝服濟	-12.5481
謂人可誘令至	-12.5481
謂生簒殺之心若草木之生榮	-12.5481
謂編次之棧	-12.5481
財厚而養足	-12.5481
賊鼎沸三日	-12.5481
赤銅上有赭者下有鐵此山之見榮者也	-12.5481
起居時飲食節寒暑適則身利而	-12.5481
越不朝珠象而以	-12.5481
趣芸壅培六時制之臣給至於國都善者	-12.5481
輒為變此謂先時也更益其亂	-12.5481
遷官襲級	-12.5481
邊者兩國交爭	-12.5481
鄗上北里皆地名	-12.5481
重言之殷勤其事也	-12.5481
鈆	-12.5481
難人必哀之也	-12.5481
革更也賦敷	-12.5481
顊	-12.5481
食生梅使黄門以銀	-12.5481
馬之數求盡也彼王者不奪民時故五	-12.5481
鶼	-12.5481
黄金一斤直食八石	-12.5481
􁬕	-12.5481
毫	-12.5481
犧	-12.5482
也故先王貴之天以時使地以材使人以	-12.5482
兼愛無遺是謂君心必先順教萬民鄉風	-12.5482
蓬飛因風動揺不定喻二三之聲	-12.5482
也鞫得其實疑不見傷此盖不知無法者	-12.5482
人事則愛惡相攻	-12.5482
人雖小而振怒也	-12.5482
共罵母黄令死黄忿恨自縊已值赦律子	-12.5482
咎而已不敢怨及他人至弱子	-12.5482
幣乎禺氏不朝請以白璧	-12.5482
損不多慈母便操箠而怒之喻人主過由	-12.5482
有聞道而好爲郷者一郷之人也	-12.5482
烏鳥之性多	-12.5482
狡謂猜也言	-12.5482
猜初雖相善	-12.5482
百升加什耗而釡千君伐菹薪煑泲水	-12.5482
直猶當也謂決	-12.5482
禪籍不如令者不得從天子下諸侯載其	-12.5482
而不倦民不憚勞苦故不均之	-12.5482
至覆屋但自	-12.5482
蚤起父子兄弟不忘其功	-12.5482
蠱	-12.5482
雖大而吞聲過發他	-12.5482
齊有渠展之鹽燕有遼東之煑此	-12.5482
三千萬人者蓋鹽官之利耳鹽官之利	-12.5482
之用者衆也小國之君所以卑者何也曰	-12.5482
之筴數十去九則吾九	-12.5482
事用之水常可制而使	-12.5482
人雖遇漂濡而莫之怨也故曰風雨無	-12.5482
何以藏分管子對曰隘則易益也一可以	-12.5482
何曰三千餘貫公曰給者既知納者不記	-12.5482
使争者視之負薪者	-12.5482
八千里之發朝鮮可得而朝也	-12.5482
公綽破柩元膺擒轝栁	-12.5482
制之地載萬物而養之四時生長萬物而	-12.5482
副樞初知	-12.5482
劾之即伏吏民	-12.5482
十五輕重丁第八十三管子輕重十六	-12.5482
南史孔靖傳	-12.5482
又先託築城	-12.5482
可資也玉起於禺	-12.5482
四者之序發號出令物之輕重相什而相	-12.5482
官之利當一國而三萬人	-12.5482
察其言不情乃問汝户㡬等曰上等汝家	-12.5482
小國之君卑大國之君所以尊者何也曰	-12.5482
幣乎崐崘之虚不朝請以璆琳琅玕	-12.5482
弱風雨至公而無私所行無常	-12.5482
得民則威立失民則威廢蛟龍待得水而	-12.5482
於篋笥夫出命	-12.5482
時眉州大姓孫延世為偽契奪族人田	-12.5482
曰渠展之鹽	-12.5482
桓公曰皮幹筋角竹箭羽毛齒革不足	-12.5482
楚有汝漢之	-12.5482
欲國之無貧兵之無弱安可得哉桓公曰	-12.5482
此居於圖東方方外右東方本圖旗物尚	-12.5482
此有道乎管子曰惟曲衡之數	-12.5482
民惡危墜我存安之民惡滅絶我生育之	-12.5482
渠展齊地	-12.5482
然則五家之數籍何者	-12.5482
燒増藪焚沛澤不益民	-12.5482
獵犬肉食之	-12.5482
用出於上春十日不害耕事夏十日不害	-12.5482
甲五千既以封衛明年桓公問管仲	-12.5482
畢上故萬物長秋者隂氣始下故萬物	-12.5482
皆過誤不當獨死由是無忌與校尉皆免	-12.5482
知沂州永縣兩仇	-12.5482
立其神人主待得民而	-12.5482
者賜千金未能用金千齊民之	-12.5482
蕭儼震牛懐武用狗	-12.5482
行夏政則閹十二地氣發戒春事十二小	-12.5482
請以令賀獻者皆以鐻枝蘭	-12.5482
謂寡婦曰汝寡居惟一子今	-12.5482
賤人之所以亡其卑也故曰賤有以亡卑	-12.5482
越可得而朝也一豹之皮容金而金也然	-12.5482
迷妄之數也六家者即見其時使豫先蚤	-12.5482
避貴賤美惡雨濡物者也雨之所墮不避	-12.5482
鈞則金傾故治權則勢重治道則勢羸今	-12.5482
阨之准數一上十	-12.5482
𤣥帝之命毋有一日之師役	-12.5482
一女不織民或	-12.5482
一物塞汝鼻汝能終不食乎其人懼即食	-12.5482
三百有餘里佌諸侯度百里	-12.5482
上犯禁則難治也故治國常富而亂國	-12.5482
不足而御其財物	-12.5482
乃因是夕罷歸騎及門而墜死隣證	-12.5482
之制輕重毋過一旬千	-12.5482
乎管子對曰終身不定桓公曰其不定之	-12.5482
乘者乘之此因天下以制天下此之謂國	-12.5482
也其周中十金萊人知之	-12.5482
也湯事之以千金	-12.5482
人君唯毋聽兼愛之	-12.5482
以供臺榭之費	-12.5482
以為梯凡欲蹈越	-12.5482
以行野也故雖不行於野其養食馬也未	-12.5482
其役煩則疑	-12.5482
其腕而去都人喧駭公謂非其夫之仇不	-12.5482
凡君臣所以能相慈	-12.5482
則四氣和可知故生物從之	-12.5482
后之井以倮獸之火	-12.5482
君伐菹薪煑泲水	-12.5482
君憂夫海出	-12.5482
因聖人之慮矜奮自功而不因衆人之力	-12.5482
國之急者必先禁末作文巧	-12.5482
地數第七十七	-12.5482
外宻令擒之一問承伏曰某與寡婦有私	-12.5482
多也夫富國多粟生於農故先王貴之凡	-12.5482
天下之旁天子中立地方千里兼霸之	-12.5482
天下王管子曰一農不耕民或	-12.5482
天固以安己	-12.5482
婦却以棺盛之	-12.5482
婦堅執如初時道士	-12.5482
守民耳也色者所以守民目也人君失	-12.5482
官四分則可以立威行徳制法儀出號令	-12.5482
小不能分於民推徐疾羨不足雖在下不	-12.5482
廢之則冦來無以禦	-12.5482
待制馬宗元少時父麟毆人	-12.5482
律度焉則民被刑僇而不從於主上此筴	-12.5482
復行之不可再者有國者之大禁也管子	-12.5482
德畜之以道則民和養之以德則民合	-12.5482
必主與大臣之徳行	-12.5482
快意如此遣騎詰其夫果	-12.5482
戒審四時以别息異出入以兩易	-12.5482
才能之人去亡	-12.5482
故事敗而禍生故曰伐矜好	-12.5482
教其子兄教其弟	-12.5482
於内故曰在内也不及	-12.5482
於天下然則吾民常	-12.5482
日定慮三日定載五日出竟十日而反千	-12.5482
旱水泆民失本則	-12.5482
時無失筴萬物興豐無失利逺占得失以	-12.5482
時靡幣泲水之鹽以日消終則有始與天	-12.5482
曹黨起而亂賊作矣令	-12.5482
此居於圖北方方外右北方	-12.5482
民心者也以人御人逃戈刃髙仁義	-12.5482
民饒彼菹菜之	-12.5482
無子謂之老寡此三人者皆就官而衆可	-12.5482
爲上幣黃金爲中幣刀布爲下幣	-12.5482
物天下皆利而謹操重筴童山竭澤益利	-12.5482
王即將其士卒願以下齊齊未亡一錢幣	-12.5482
珥而辟千金者璆琳琅玕也然	-12.5482
當應機而動故不可以常智觀	-12.5482
秋起繇而無止此之謂	-12.5482
緩急之事皆已計定則二者之危無所	-12.5482
緺綬之於萊亦純	-12.5482
者食如言而勿遺多者	-12.5482
脩小禮行小義飾小廉謹小恥禁微邪	-12.5482
與天下齊准彼物輕則見泄重則見射此	-12.5482
興豐巨錢而天	-12.5482
舉事之禍也馬者所	-12.5482
舉而萬不失矣是故尺寸之度雖富貴衆	-12.5482
若財萬倍多	-12.5482
茈	-12.5482
菹丘立駢牢以	-12.5482
萊人操之萊有推馬是自萊失綦茈而反	-12.5482
虚妄不得長掩謂	-12.5482
言諸侯欲大利則王天	-12.5482
説勝則士卒不戰	-12.5482
諸侯無牛馬之牢不利其器者曰淫器而	-12.5482
謂之國䡄桓公問於管子曰不籍而贍國	-12.5482
謂郊祀天地神	-12.5482
貴散則輕聚則重人君知其然故視國之	-12.5482
農人佚樂而粟得十全	-12.5482
進不肖者不敢受官亂主則不然聽言而	-12.5482
逺近無以相因則四夷不得而朝矣管子	-12.5482
鎧矛㦸是	-12.5482
雖止四刻亦在限外	-12.5482
雖鑄幣無限極	-12.5482
難緩急之事皆有可危之理故曰危危	-12.5482
鷙疑也距止也	-12.5482
鹿牛馬之地春秋賦生殺老立施以守五	-12.5482
禧	-12.5483
侍郎郎簡知竇州有掾吏死子	-12.5483
曰然又取偽劵示之弗類壻乃伏罪	-12.5483
有父卒而母嫁後聞母死已葬乃	-12.5483
䖟及彼白昌山	-12.5484
謂合考書義也	-12.5484
長數謂速長	-12.5484
中猶合也不合三政者	-12.5484
其王之匈暴者則	-12.5484
多桔符榆其山之末有箭與苑其山之	-12.5484
尺而傷不及寸白請詳捕果獲真殺人者	-12.5484
惔	-12.5484
揄	-12.5484
於家將得善本而卒業焉	-12.5484
有麋麃又且多鹿其泉	-12.5484
罪卑其爵列	-12.5484
聞於臺省吉	-12.5484
使鬼神以祥使禽獸以力使所謂	-12.5484
王用一隂二陽者霸盡以陽者王以一陽	-12.5484
古之聽獄者求所以生之	-12.5484
髙下葆澤以處是謂位土位土之次曰五	-12.5484
一女不賢翁病困思	-12.5484
以隨耒耜之後重治其闕遺	-12.5484
其兒又計小兒正得此財不能全䕶故且	-12.5484
女及壻省其手書顧謂掾	-12.5484
必每人皆操道然後百姓理	-12.5484
方丈陳前則役用	-12.5484
於草積下得之人服其智	-12.5484
柯	-12.5484
榖芨榖芨小於	-12.5484
者習而成智況不愚乎	-12.5484
財兒必不全	-12.5484
除其田以待春之耕也	-12.5484
之終不踐其國以侵之	-12.5484
事反此有道乎管子對曰惟反之以號令	-12.5484
以示人則人不復行此道	-12.5484
使無劵契之責	-12.5484
使賔胥無馳而南隰朋馳而北	-12.5484
侯不敢犯寶玉幣帛何所	-12.5484
化則利竭故死	-12.5484
古義彼俗吏者豈	-12.5484
可得籍鬼神乃可得而籍夫管子對曰厭	-12.5484
君以言制下無言則下	-12.5484
君請立五厲之祭祭堯之五吏春獻蘭秋	-12.5484
器成敎守則不逺道里	-12.5484
四子之行定夷吾請號令謂四子曰子皆	-12.5484
墨所濺使脫視之乃墨塗也	-12.5484
姦狀忽見屨上	-12.5484
客驢韁斷并鞍失之	-12.5484
所在及吏受取請求銖兩之姦皆知之	-12.5484
於四時中又權	-12.5484
江南大理寺	-12.5484
皆稱貸於君則無	-12.5484
童五尺一犂以	-12.5484
胥視也視令而	-12.5484
臣則宣力事君故	-12.5484
藏之無形天之道也疑今者察之古不知	-12.5484
言於三土十分	-12.5484
賈知賈之貴賤日至於市而不	-12.5484
近齊之大侯則以齊縣分	-12.5484
道其事若自然失天之道雖立不安其道	-12.5484
郡中盗賊閭里輕	-12.5484
餘拙者用之不足	-12.5484
一家之人耳言無廣逺	-12.5484
七施七七四十九尺而至於泉祀陜八施	-12.5484
不公則不識理之正	-12.5484
不得弟其弟妻不得有其夫唯重禄重賞	-12.5484
不生殺也主未	-12.5484
之功如此衆必與之與許	-12.5484
之時彌子瑕有寵	-12.5484
之滿虚而輕重其禄然	-12.5484
事秋十日不害	-12.5484
事紡績緝縷之所作也此之謂冬之秋故	-12.5484
交外人雖企慕於仁而所謀	-12.5484
人上而衆謀之雖欲毋危不可得也號令	-12.5484
以誘之明乃首服具列支黨	-12.5484
以類善天地萬物從而	-12.5484
仲尼以文王為智	-12.5484
其道故曰古今一也蛟龍水蟲之神者也	-12.5484
再什倍梁渭陽	-12.5484
冤瘖奴王扣狂嫗	-12.5484
制有常則民不散而上合竭情以納其忠	-12.5484
刼人因以告之使者到州以	-12.5484
則屈每分有二仞	-12.5484
則知善走者是捕逐	-12.5484
北距周七千八百里水絶	-12.5484
去城十里為賊所刼時有使者馳騎而至	-12.5484
吏未對管仲對曰夷吾	-12.5484
周還復本所也	-12.5484
器成不守經不知	-12.5484
國之本得天之時而	-12.5484
國無法則民朋黨而下比飾巧以成其私	-12.5484
夜入人家杖背而已	-12.5484
天下一物不能當也	-12.5484
天怒令重案行岌奏如初則天曰崔宣反	-12.5484
天財之所殖械器之所出財物之所生視	-12.5484
失金銀器四十餘事	-12.5484
守國之度在飾四維順民之經在	-12.5484
宋文帝時剡縣人黄	-12.5484
寒之至于身也是故夜	-12.5484
寡人有鐻枝蘭鼓其賈中純萬泉也願以	-12.5484
寧復惜之傑曰審如	-12.5484
已死不哀而懼是以知其有姦也	-12.5484
怵止也不止人好利	-12.5484
慮公藏主守不謹而寘之私室	-12.5484
我君視四方稱貸之	-12.5484
所殺有女巫	-12.5484
抱挾而不見於掖而辟千金者白璧也然	-12.5484
操名從人無不	-12.5484
敎萬民郷風	-12.5484
於社曰釁社	-12.5484
日者萬物由之以	-12.5484
明其法而固守之羣臣	-12.5484
有二國之籍者六千萬	-12.5484
案亦無所異黄用	-12.5484
止河伯娶婦事	-12.5484
此淺深曲直諸事皆可詳之言	-12.5484
殊形異執不與萬物異理故可以	-12.5484
氏託鬼附	-12.5484
民樵室鑚鐩墐竈泄井所以	-12.5484
治民務積聚也	-12.5484
焉故能有二國之籍者六千萬人耳	-12.5484
王施而無私則海内	-12.5484
珠飾者斬生之斧也文	-12.5484
用之不同其事遂異也	-12.5484
百姓治治亂在主而已矣故曰主身者正	-12.5484
程宣徽知開封府時禁中失火	-12.5484
粤	-12.5484
粤厚也宛順也天	-12.5484
習不著發不意經不知故莫之	-12.5484
老男五十已上	-12.5484
者帶濟負河菹澤之萌也漁獵取薪蒸而	-12.5484
者隂氣畢下故萬物藏故春夏生長秋冬	-12.5484
臺榭相望者亡國之廡也馳車充國者追	-12.5484
草木夏落而秋榮蟄蟲不藏	-12.5484
處且言後宫人多而居隘其烓竈近	-12.5484
蜜瓶入亮	-12.5484
蟇	-12.5484
衛國侏儒有見公者曰臣之夢賤矣公曰	-12.5484
親傷所恃者司馬	-12.5484
言其土得澤則墳起	-12.5484
請問諸侯之化弊	-12.5484
諸君謂老男老女也六十已上	-12.5484
賤且寡好為迂大凡	-12.5484
運使委頻驗治頻曰劵墨浮朱上	-12.5484
道之所言者一也而用之者異	-12.5484
量國無筴桓公曰善今欲	-12.5484
金起於汝漢珠起於赤野東	-12.5484
金錢落索環	-12.5484
除田此之謂時作桓公曰善吾欲立䡄官	-12.5484
雖聞道但好理家此但	-12.5484
韓有解老之篇疑	-12.5484
馳而東反報曰東方之萌帶山負海	-12.5484
𠖇	-12.5484
䇡公州之飾焉以	-12.5484
不一則毒流不辜	-12.5484
不可夫本富而財物衆不能守則	-12.5484
不可欺也審於法禁而不可犯也察於分	-12.5484
不坐毆殺之罪而坐毆傷之罪法無	-12.5484
不舉起十人之繇千	-12.5484
主貴多變國貴少變	-12.5484
之國謹下諸侯之五	-12.5484
之是也同是此身有	-12.5484
之謀可為動者為之動伐譚萊而不有也	-12.5484
也以事其主終而復始愛親善養思敬奉	-12.5484
也管子對曰昔萊人善染練茈之於萊純	-12.5484
五而天下治何謂事名二對曰天筴陽也	-12.5484
令之所止令之所發泰冬民	-12.5484
以前無狗後無彘者	-12.5484
以垂棘之璧與屈産之乘賂虞公	-12.5484
以成新道定國安家然後可	-12.5484
使三年而代服桓公問於管子曰吾	-12.5484
依浮屠法相聚	-12.5484
偽作倉督馮忱書盗糶	-12.5484
八千里之禺氏可得而朝也	-12.5484
其時待天命令然	-12.5484
其楚各自欵服崇疑之乃遣二人偽從外	-12.5484
刑罰繁而意不恐則令不行矣殺戮衆而	-12.5484
則五衢之内阻棄之地也起一人之繇百	-12.5484
則國勢不用已乎管子對曰今以諸侯	-12.5484
則費財憂主亦傷國也故曰一也	-12.5484
動威動威乃可以戰勝而守固故曰	-12.5484
即踐其血汰而仆地	-12.5484
即釋其耕農而	-12.5484
又大施忠焉可為憂者為之憂可為謀者	-12.5484
又於堤家得錢五千堤懼楚掠自誣	-12.5484
及齊君之能用之也管	-12.5484
取與之必因於時也時則動不時	-12.5484
叟	-12.5484
召陵登熊耳山以望江漢兵車之㑹三而	-12.5484
可以無庶乎君之憂我至於此此之謂反	-12.5484
可以補不善之政	-12.5484
和調和調乃	-12.5484
國之五勢人君之所憂也山處之國常藏	-12.5484
國之所以富貧者五輕稅租薄賦	-12.5484
國管子對曰唯官山海	-12.5484
壥	-12.5484
壽夭貧富無徒歸也	-12.5484
大臣私之非以治其國也故屬數雖衆不	-12.5484
天下致利除害也草茅弗去則害禾	-12.5484
好喻聖人外見其惡亦不得	-12.5484
孝以之起事則不成故曰怠倦者不及也	-12.5484
安到郡不入府先	-12.5484
官天財管子對曰泰春民之功䌛	-12.5484
宫室臺榭足以避燥濕寒暑不求其大	-12.5484
家也者以因人之所重	-12.5484
宼	-12.5484
少民學之不休	-12.5484
山十六施百一十二尺而至於泉	-12.5484
已倦楚毒其情易見	-12.5484
帝共工氏繼	-12.5484
引毛奴兄	-12.5484
徃問之曰仲父之	-12.5484
忠誠收聚而賙恤之令其大	-12.5484
愚民操事於妄作	-12.5484
戎凡此七者義之體也夫民必知義然	-12.5484
成形而更名則臨矣	-12.5484
所以守戰也故雖不守戰其治養民也未	-12.5484
所以御春夏之事也	-12.5484
按小匡作公子	-12.5484
故曰植固而不動竒邪乃恐竒革邪化令	-12.5484
故曰靜乃自得道在天地之	-12.5484
故能習習故能偕	-12.5484
敬上畏罪敬上畏罪則易治也民貧則危	-12.5484
新道謂度時	-12.5484
於身也官職法制政教	-12.5484
於馬前曰仲父之聖至若此寡人之抵罪	-12.5484
施功謂施恩於	-12.5484
易牙以調和事公公曰	-12.5484
是使姦涂不可獨行遺財不可	-12.5484
曰昔者癸度居人之國必四面望於天下	-12.5484
梯而後能若不因梯直欲踰之則不能踰	-12.5484
椽猶梯也謂鑿椽	-12.5484
欲除之乃杖殺道士及	-12.5484
此者三可當師之一至敵國	-12.5484
歿	-12.5484
民貧則難治也奚以知其然也民富則安	-12.5484
水泉之所傷水泆之國常操十分之二漏	-12.5484
求盜而捕繫平民以希賞	-12.5484
河濟之流南輸梁趙宋	-12.5484
治和氣用五數飲於	-12.5484
治隂氣用六數飲於黑后之井以	-12.5484
涸而四支堅固也	-12.5484
減矣桓公問於管子曰吾欲富本而豐五	-12.5484
滛佚别男	-12.5484
潭州屬縣有亡命卒剽攻為鄉	-12.5484
為傷害名教	-12.5484
無刑禁邪邪必	-12.5484
無廣者疑神	-12.5484
無所與此國筴之者也國用相靡而足相	-12.5484
無遷無衍命乃長	-12.5484
煑鹽然鹽之賈必四什倍君以四什之賈	-12.5484
狃	-12.5484
甚矣明君制宗廟足以設賔祀不求其美	-12.5484
由前行多修	-12.5484
登謂髙田之萌	-12.5484
白黒赤也其在聲者宫商羽	-12.5484
益長雖貧賤卑辱不	-12.5484
盜賊弗誅則傷良民夫	-12.5484
相兼者諸侯十二故天下之君頓㦸	-12.5484
竟之士脩百姓無圉敵之心故曰寢兵之	-12.5484
筴也用貢國危出	-12.5484
管子對曰此隱情也桓公曰然則吾何以	-12.5484
粟忱不認	-12.5484
繉	-12.5484
繬吾何以知其美也以素	-12.5484
羣臣朋黨則狗變為虎	-12.5484
者所以獨見其運	-12.5484
而御之以准故貴賤可調而君得其利	-12.5484
而用財飲食有量衣服有制宫室有度六	-12.5484
而與人徒使豪富侵	-12.5484
聖人之聖精而又神	-12.5484
能制人人亦不能制	-12.5484
臣到都日正見此	-12.5484
自責乃遷怒而罰之	-12.5484
與工雕文梓器以下天下之五	-12.5484
舉事而不時力雖盡其功	-12.5484
若因處虚守静人物則皇	-12.5484
莞而樹之吾謹逃其蚤牙則天下可陶而	-12.5484
藏慈厚行薄純坦氣修通凡物開	-12.5484
處安處安然	-12.5484
言事未成之時但安靜其	-12.5484
言人君若不能權其利門制其輕重	-12.5484
計急必取而逃	-12.5484
謀而適勝通徳而天下定定宗廟育男女	-12.5484
賜米錢以償之	-12.5484
足也燒増藪焚沛澤不益民利逃械器閉	-12.5484
足於其人若干則置公幣焉以滿其准重	-12.5484
輕似無物見瘞某處	-12.5484
農一車必有一斤一鋸一釭一	-12.5484
道也袪衣示前有水也右袪衣示從右方	-12.5484
遵而行之無遷	-12.5484
長尺而人物具焉	-12.5484
陛下迫促府縣此賊	-12.5484
雍狐之㦸芮戈是	-12.5484
非故明法曰有法度之制者不可巧以詐	-12.5484
食桓公立貢數文行中七年龜中四千金	-12.5484
驚謂耀威示武能驚敵使懼	-12.5484
黔	-12.5484
侍讀賈黯判流内銓時益州推官	-12.5485
其柩而祔于父法當死寀獨曰子	-12.5485
具則財物之賈什去	-12.5485
頴	-12.5485
知兵權則失輕重之節	-12.5485
器無方則愚者智	-12.5485
器用無方應卒必備則愚	-12.5485
免耳參駮正其說	-12.5485
北軍之衆屯於奉先	-12.5485
尉時殆攝行	-12.5485
攻不守則拙者巧	-12.5485
㤙	-12.5485
之術非馭也奚仲之	-12.5485
乘之號而無千乘之用	-12.5485
以類舉之義耳欲决大獄	-12.5485
兵則以賜貧甿若此則菹菜鹹鹵斥澤山	-12.5485
君之臣也然以髙	-12.5485
夀夭貧富無徒歸也	-12.5485
官賈者與功而不與分焉工治容貌功	-12.5485
發於驚故能至無量	-12.5485
管子曰天下有兵則積藏之粟足以備其	-12.5485
若此者預食農	-12.5485
距國門以外窮四竟之内丈夫二	-12.5485
不足湯有七十里之薄而用有餘天非獨	-12.5485
事之利得也計議因權事之囿大也王者	-12.5485
以幣巨家以金小家以幣三壤已撫而國	-12.5485
分民則猶百姓也於	-12.5485
則屠酤之汁肥流水則蟁	-12.5485
則粟賤故人逺行	-12.5485
如此則事變日至無寧居基漸	-12.5485
子息之數使無劵契之責	-12.5485
崢丘之西塞丘者山邑之田也布幣稱貧	-12.5485
巨雄翡燕小鳥皆歸之	-12.5485
旅之事樹表置髙而髙仁慈孝財散而輕	-12.5485
昬飲此水上之樂也賈人蓄物而賣	-12.5485
桓公曰行事奈何管子對曰昔堯之五	-12.5485
棄市會赦免刑	-12.5485
此亦仁者見之謂	-12.5485
此居於圖東方方外右東方副圖	-12.5485
此往情不至則	-12.5485
殽若此則澤魚之正	-12.5485
湯雨菽粟而地非獨	-12.5485
無知植物則有	-12.5485
牛馬滿齊衍請敺之顛齒量其髙壯曰國	-12.5485
生而勿殺賞而勿罰罪獄勿斷以待期年	-12.5485
藏四時之節也賞賜刑罰主之節也四時	-12.5485
親近者言無事焉唯夜行者獨有	-12.5485
調日有長乆以此觀之其利百倍故常以	-12.5485
輕處者我動而錯之天下即已於我矣物	-12.5485
通於蠶桑使蠶不疾病者皆置之	-12.5485
道者均彼我忘是非故無	-12.5485
釋耕始焉芸卒焉士聞見博學意察而不	-12.5485
金城坊中有一空宅更無他語	-12.5485
長安萬年尉石良	-12.5485
鵠造父之馭貴其軍容致逺不在轍	-12.5485
三分之一山地分之國常操國	-12.5485
三分之一汜下多水之國常操國	-12.5485
不加於弱小威不信於	-12.5485
不能圖不可數則爲詐不敢郷兩者備施	-12.5485
不舉起千人之繇十萬	-12.5485
不舉起百人之繇萬	-12.5485
之所棄逐也今齊以其重寶貴買吾	-12.5485
之朝夕在上山林	-12.5485
之致盡理無可宥江陵雖遇赦恩	-12.5485
乗衢處壤削	-12.5485
亂然後以事任之因其	-12.5485
五日而尚有起夏作是春失其地夏失其	-12.5485
人君不能散積聚調髙下分并財君雖	-12.5485
人食者謹置公幣焉大家衆小家寡山田	-12.5485
以介蟲之火爨藏恭敬行搏銳坦氣	-12.5485
以慤善待時待	-12.5485
以指揑之曰乙真而甲偽	-12.5485
伐之恐力不能過兵弊於楚功不成於周	-12.5485
侵伐不能威四鄰而求國之重不可得也	-12.5485
先故之臣謂祖考時舊臣也今	-12.5485
兵吾欲輕重罪而移之於甲兵公曰為之	-12.5485
兵挫而地削	-12.5485
其所行之行所長	-12.5485
具具於此無求於民此去丘邑之籍也國	-12.5485
凡數財署殺僇以聚財勸勉以	-12.5485
則鏂二錢也請以令籍人三十泉得以五	-12.5485
南方之萌者山居谷處登降之萌也上	-12.5485
厚遺之遂以實告曰我桑殿直也為我察	-12.5485
又不籍於小男小女乃能以千萬人而	-12.5485
名卑而國虧社稷滅覆身體危殆非生於	-12.5485
君之所審者三一曰	-12.5485
告之遂聞於公	-12.5485
唐裴均鎮襄陽日里俗妻有外情乃託	-12.5485
囂	-12.5485
四㑹之後徭役	-12.5485
四矣吾非埏埴	-12.5485
國蓄第七十三管子輕重六	-12.5485
外淫于馳騁田獵内縱于美色淫聲下乃	-12.5485
奪貧弱終不	-12.5485
守不固則敵國制之矣然則先王將若之	-12.5485
山生柴君其率白徒之卒鑄莊山之金以	-12.5485
帝問於伯髙曰吾欲陶天下而以	-12.5485
廢滯故多不及	-12.5485
彼鹽則令吾國鹽官又出而	-12.5485
彼鹽平價釡	-12.5485
必有一耜一銚一鎌一鎒一椎一銍然	-12.5485
必有良臣賢佐然後事	-12.5485
怠倦者不及	-12.5485
息之數使無劵契之責四方之萌聞之父	-12.5485
所偏故姦詐之人不能誤也故明法曰有	-12.5485
括筆談云江南人好訟有一書名鄧思賢	-12.5485
故不欲收穡	-12.5485
故先王度用其重而因之珠玉	-12.5485
時也山川涸落天氣下地氣上萬物交通	-12.5485
朝不合衆治之至也人情不二故民情可	-12.5485
李公驗櫸王臻辨葛	-12.5485
止隨之以法則是下艾民食三升則	-12.5485
此居圖方中右中方本圖	-12.5485
歸於上管子曰請立貲於民有田倍之内	-12.5485
殺常因是生故有内亂也	-12.5485
水處什之七陸處什之三	-12.5485
決塞通於髙下徐疾之筴坐起之費時也	-12.5485
深喻人有髙行雖有小過非不肖也	-12.5485
深是故國有徳義未	-12.5485
然則踰因梯而踰矣此喻成功	-12.5485
王之本也然而與危亡	-12.5485
王天下不可得也地大國富人衆兵彊此	-12.5485
當何時作之管子曰春三月天地乾燥水	-12.5485
當罰者羣臣不敢避也夫賞功誅罪所以	-12.5485
癸度曰賀獻不重身不親於君左右不足	-12.5485
白之子當千金凡貢制中二齊之	-12.5485
相與樂推然後成	-12.5485
管子曰楚者山東之强國也其人民習戰	-12.5485
籍而給左右之用	-12.5485
紛紛乎若亂絲遺遺乎若有	-12.5485
縁有此黄門非有求於爾乎吏叩頭曰彼	-12.5485
者䟽疾怨上邊竟諸侯受君之怨民與之	-12.5485
者剥其皮横置膚上以火熨之則如棓傷	-12.5485
職故明法曰主雖不身下	-12.5485
舟之都大身之都有深淵壘十仞令曰能	-12.5485
處上斷福漁獵之萌也治葛縷而	-12.5485
衣弊而屨穿寡人欲使帛布絲纊之賈賤	-12.5485
西方方外右西方本圖旗物尚白兵尚	-12.5485
規也矩也准也此謂正名五其在色者青	-12.5485
角也其在味者酸辛	-12.5485
誣其婦婦不勝	-12.5485
貲壤被鞍之馬千	-12.5485
輪軸下采杼栗田獵而	-12.5485
道數終人心變易故也	-12.5485
邊山此度去周七千八百里其涂逺其至	-12.5485
邪者不變則羣臣朋黨才能之人去亡則	-12.5485
郷與朝爭治	-12.5485
釋其耕農而田鹿管子告楚之賈人曰子	-12.5485
重罪入以兵甲犀脅二㦸輕罪入蘭盾鞈	-12.5485
金上有慈石者下有銅金上	-12.5485
革邪化令往民移	-12.5486
夏秋推陽以生隂	-12.5486
晝熱夜寒交易其	-12.5486
聞賢不舉不若	-12.5487
鵠	-12.5487
村民相逢擊落	-12.5487
分百八而去一	-12.5487
錄事㕘軍	-12.5487
餘七十二是商之數	-12.5487
其桑其松其	-12.5487
叅軍有捕得殺人者既自誣服良肱獨以	-12.5487
安和易逐競	-12.5487
怒以付吏将黥配之仲	-12.5487
種木胥容榆桃	-12.5487
謂小童衣服尠薄而剽	-12.5487
以理身緒餘	-12.5487
務而財必多也	-12.5487
理國家故重道	-12.5487
者均齊若一則止也	-12.5487
三土謂五粟	-12.5487
不治而昌不亂而亡	-12.5487
不獲詣縣告鷟推	-12.5487
乃引思兢於告者之黨	-12.5487
从	-12.5487
兵之本其極要	-12.5487
冬寒之月即擊去其	-12.5487
可字山而髙	-12.5487
外頗有疑吾與死人	-12.5487
富家翁貲二	-12.5487
崇孝寺有僧名可嵩	-12.5487
幽州營州等	-12.5487
末作故備用不足	-12.5487
枯河上髙山寤而思	-12.5487
殞	-12.5487
理合聚於内出空於外	-12.5487
農以勞矣而天下	-12.5487
一毋獨與是也	-12.5487
三牧民解第六十三亡管子解一管子	-12.5487
下皆服其法度也	-12.5487
也舉困難之事	-12.5487
人上者衆謀矣	-12.5487
其力最可愛也	-12.5487
刅	-12.5487
動於昌故能得其寶	-12.5487
勲	-12.5487
君信而臣繼之	-12.5487
國有常經則人知終始	-12.5487
故曰上離其道下失其事故曰心術者無	-12.5487
昌必國理亡必	-12.5487
時也禮也必得其	-12.5487
欄	-12.5487
正色謂後至者曰汝	-12.5487
眊	-12.5487
神與之福祥	-12.5487
立功可謂有素有素則諸	-12.5487
立於謀故能實不可故也	-12.5487
者先誘藏宣	-12.5487
貨則人賈市主好宫室則工匠巧主好文	-12.5487
遇赦猶梟首	-12.5487
不合於天雖滿必涸不合	-12.5487
不誅則亂法誅之則	-12.5487
也夫民不心服體從則不可以禮義之文	-12.5487
也子反受而飲之子反	-12.5487
亮笑曰若䑕屎先	-12.5487
今寡人欲北舉事孤竹離枝恐越人之至	-12.5487
企	-12.5487
俟死無辭廷尉以	-12.5487
倍重其有皮革之類堪於	-12.5487
先首免罪便欲	-12.5487
入者不說出者不譽汙名滿天下壤可以	-12.5487
公令官長期而書伐以	-12.5487
公親問焉曰於子之鄉有居處為義好學	-12.5487
其守列投蟁虵巨雄新冠五尺請挾彈	-12.5487
分掌六府也	-12.5487
功成而不信者殆兵	-12.5487
取市未央畢而委	-12.5487
司馬子反渇而求飲	-12.5487
君之國岋乎桓公觀於	-12.5487
問直其寃免死者六人正其尉故入之罪	-12.5487
國伍鄙立五	-12.5487
國者一國之人也有聞道而好	-12.5487
夜行謂隂行其	-12.5487
子之牛馬上無幣請以	-12.5487
子今道舉為刼叔父已	-12.5487
子反辭以心疾	-12.5487
官稟君命而	-12.5487
左丞何承天議曰婦人	-12.5487
左右出則為勢重	-12.5487
巨家以金小家以幣	-12.5487
持滿者則與天合	-12.5487
持謂見刼執也	-12.5487
收利於民入則比周	-12.5487
杳乎如入於淵淖	-12.5487
此有道乎管子對曰君請遏原流大夫立	-12.5487
王亶父為狄所攻乃去	-12.5487
王與晉厲公戰	-12.5487
王質母原馬亮悉貸	-12.5487
百姓曰仁君也不可	-12.5487
益愈而未足以	-12.5487
純厚而不苛忮則	-12.5487
而無義者殘不謹於附近而欲來	-12.5487
至主者人之所仰而生也能寛	-12.5487
謂各得自通於	-12.5487
車以載不在斵削成光鑑也	-12.5487
郊迎管子而問焉管仲辭讓然後對以	-12.5487
鄉而怨怒不及也	-12.5487
鄰國和好不基貴賤之位無司存	-12.5487
酒而進之子反曰	-12.5487
附父母者子婦之所受	-12.5487
餘有一丈八尺	-12.5487
一年正月朔日令大夫來修受命三公	-12.5487
一而八萬管子即令桓公與民通輕重藏	-12.5487
三月而得也楚糴四百齊因令人載粟處	-12.5487
上内不用刑罰而外不事利其産業	-12.5487
上引下以供御下引上以恩	-12.5487
不可陷之楯與無不陷之矛	-12.5487
不富哉商賈之人何	-12.5487
不濟也免公子者為上死者為下吾以五	-12.5487
不當其官此三本者治亂之原也故國有	-12.5487
不聴而可以得存者	-12.5487
之不愛將何有於公公	-12.5487
之事然後能富富者所道	-12.5487
之國官賦䡄符	-12.5487
之欲使之明識正	-12.5487
之而發其冡剖棺視之寳	-12.5487
之輕重在上行田疇田中有木者謂之	-12.5487
之遇事之㑹也若合符然故曰是唯時	-12.5487
九百家隰朋馳而北反報曰北方	-12.5487
也其受息之萌八	-12.5487
也則君請以國筴十分之一者樹表置髙	-12.5487
也桓公曰善蓋天下視海内長譽而無止	-12.5487
事之時收積至時散其積	-12.5487
事浮屠法相聚祈禳名白衣㑹	-12.5487
云保辜限内死者依殺人論	-12.5487
人則臨之以為君	-12.5487
人有大失小善不成其美隰下澤也	-12.5487
代之出狐白之皮公其貴買之管子曰	-12.5487
令左司馬伯公將白徒而鑄錢於莊山令	-12.5487
以子之矛陷子之楯何如其人弗能應也	-12.5487
以家習不革	-12.5487
以待有事而為之若何	-12.5487
以時鈞脩焉使刻鏤文采毋敢造於	-12.5487
以謀殺之則慮有誣枉法所不許也	-12.5487
伯伍也其受息之萌八百餘家	-12.5487
何謂也管子對曰公貴買其鹿桓公即	-12.5487
八其蔽二十白徒三十人奉車兩器制也	-12.5487
六反第四十六	-12.5487
六者有樸必削	-12.5487
六舉而絜知事變七舉而内外	-12.5487
其功力極然則天	-12.5487
其至阨故先王度用於其重因以珠玉	-12.5487
其衣服厚設酒食歡	-12.5487
其足以戰民乎狐子曰不足文公曰吾	-12.5487
分敬而無妬則夫婦和勉矣君失音則風	-12.5487
刑則㳺仰灌流	-12.5487
則人不與之爭故獨有之也	-12.5487
則君已藉九矣有衡求幣焉此	-12.5487
加于尊位功力未見於國者則不可授	-12.5487
動於未形而守事已成物一也而十是九	-12.5487
十之粟皆實於倉	-12.5487
卑之序故敬	-12.5487
可以毋籍而用足管子對曰不可今發徒	-12.5487
可得聞乎伯髙對曰上有丹沙者下有	-12.5487
和協輯睦以備	-12.5487
哀矜審謹	-12.5487
善可稱故弱也	-12.5487
喪者毁厝之息謂	-12.5487
嚴威不能振惠厚不能供聲實有	-12.5487
地不易其則春	-12.5487
均施以恩故物盡發於善亦	-12.5487
堕	-12.5487
塞桓公曰何謂決塞管子曰君不髙仁則	-12.5487
壯民疾農不變	-12.5487
夫也信宿獄不成吏懼	-12.5487
夫國城大而田野淺狹者	-12.5487
夫施功而不鈞位雖髙	-12.5487
夫竈一人煬焉則後人無從見矣	-12.5487
失盜而捕繫平民以逃責	-12.5487
好曰志曰行	-12.5487
嬙施雖美而面有怨氣亦不能為可	-12.5487
子也於子之不愛將何有於公公喜	-12.5487
安則致下數事	-12.5487
官職政治子婦不失其常則長幼理而親	-12.5487
家從故平安之時滿	-12.5487
將改復本情未有能終為意也	-12.5487
對曰夷吾聞之於徐伯曰昔者無道之	-12.5487
居又沙泥	-12.5487
帝堯舜書之所記三	-12.5487
得一刀鞘恱取	-12.5487
必有一斤一鋸一	-12.5487
必長短相摩然後	-12.5487
悗	-12.5487
成功之道嬴縮	-12.5487
成謂諸侯自盟要	-12.5487
或續之或實之也	-12.5487
戰事兵用曰强	-12.5487
所欲不在刑罰殺戮	-12.5487
所為也乃召州内刀匠示之有郭門者言	-12.5487
所見之事皆不善	-12.5487
拷訊即自誣	-12.5487
按剽攻之人於法許捕若非名捕者	-12.5487
撃者本無殺意邂逅致死乃坐杖罪或用	-12.5487
故人不自用其力也	-12.5487
故平以滿無事而	-12.5487
故曰有氣則生無氣則死	-12.5487
數盈五十萬	-12.5487
斷舟車不能通先王	-12.5487
方戰之時懼致水禍此	-12.5487
旣飭君乃有國	-12.5487
日乃死州司以其家財産依	-12.5487
時君之衡藉而無止民食十	-12.5487
曰行事奈何管子對曰請以令隱三川立	-12.5487
曰行小忠則大忠之賊也	-12.5487
曰雍季之對不當文公之問	-12.5487
有源其可竭哉	-12.5487
有罪不誅有功不賞	-12.5487
本事去無用然後民可使	-12.5487
李傑覘婦	-12.5487
村患或謀殺之在法當死者四人亮	-12.5487
枝使無尺寸之隂桓公曰諾行令未能一	-12.5487
權竒之欲全	-12.5487
止則止其道乃	-12.5487
殺人取錢當時狼狽應有所遺曽得何物	-12.5487
比謂校次之也若	-12.5487
添	-12.5487
湎	-12.5487
為禮者事通人之樸心	-12.5487
狐白應隂陽之變六月而	-12.5487
猶行藏也所謂時行則行	-12.5487
王臣故曰制在一人	-12.5487
王質王質待制	-12.5487
用徐疾之數輕重之筴也一可以	-12.5487
田若干食者若干某	-12.5487
畏意服心在於順其	-12.5487
疾美也繩謂彈正也言以六過繩	-12.5487
百吏皆失其端則煩亂以亡其國家矣髙	-12.5487
皆服不須用兵	-12.5487
矛楯之説也	-12.5487
禁謂牢囿圃所	-12.5487
禅	-12.5487
租若干棺槨之租若干管子曰鹽鐵撫䡄	-12.5487
絶名貫乃認城外死屍詐稱是弟為	-12.5487
縮不能振起也	-12.5487
縱盜而捕繫平民以應命	-12.5487
群䡄相壤冝	-12.5487
者而復之曰有人居我官有功休徳維順	-12.5487
而不費賞罰明則勇士勸也三官不繆五	-12.5487
而國日削矣當	-12.5487
而民可使治薄稅	-12.5487
而畏其武桓公知天下小國諸侯之多與	-12.5487
而順之則自理也	-12.5487
耳必將復其不忠	-12.5487
聞之於徐伯曰昔者有道之君敬其山川	-12.5487
脂澤粉黛	-12.5487
自東萊通魚	-12.5487
與正籍者皆以幣還於金吾至四萬此一	-12.5487
莖黒莖黒秀其粟大無不	-12.5487
萌者衍處負海煑	-12.5487
蠅集其首因發髻	-12.5487
被於暮故賤賣而貴買四郊之民賣賤何	-12.5487
西之民飢者得食寒者得衣無本者	-12.5487
覆二俱不得故不和同也	-12.5487
言官外則為越職	-12.5487
訾讆之人勿與任大	-12.5487
該備也謂四言足以	-12.5487
諸侯稱仁焉通齊國之魚鹽	-12.5487
謂此人所稱柄	-12.5487
譕臣者可與逺舉	-12.5487
財當不愛惜	-12.5487
資用也率土之	-12.5487
賞之猶至於無賞也	-12.5487
路不令子糺之	-12.5487
逆取順守者也則人何能代之乎	-12.5487
途之逺其至之難故託用於其重以珠玉	-12.5487
還矣某在某處某在某	-12.5487
郡移掩劫	-12.5487
鄭躬明誤希亮救亡	-12.5487
鄰人醉其夫而釘殺之	-12.5487
鉥	-12.5487
銀二鋌質錢十萬	-12.5487
銶	-12.5487
鑄幣而無已乃今使民下相役耳惡能以	-12.5487
陽氣用七數飲於赤后之井以毛獸之火	-12.5487
雖紛然而亂但靜	-12.5487
非於死之日而後有名也其前行多修	-12.5487
非麗其樂也以平國筴也今至於其亡筴	-12.5487
順也功成矣則以順理守之所謂	-12.5487
願君之逺易牙	-12.5487
餘食若干必得䡄程此調之泰䡄也然	-12.5487
饉救災害賑罷露則國家定	-12.5487
馬管子對曰國無儲在令桓公	-12.5487
鬼神山川皆有尊	-12.5487
鮑叔乃誓曰事之濟也	-12.5487
鮑叔於前二十乗	-12.5487
齎餘鏹至	-12.5487
磨	-12.5487
不均平和調則地利或	-12.5488
冬春推隂以生陽	-12.5488
氣此隂陽之化也	-12.5488
者怨之本也唯賢者不然先王事以合交	-12.5489
尚或可拒今以詛	-12.5489
春主仁故所藏者不忍之	-12.5489
良田所以賞戰士	-12.5489
事之輕重然後國可	-12.5489
出夫粟是故智者知之愚者不知不可以	-12.5489
國舉發必當以禮	-12.5489
存乎選士而士無敵存乎政	-12.5489
宋孔深之為尚書比部郎時安陸應城縣	-12.5489
思於濬故能知未始	-12.5489
發草此之謂籍於號令管子曰滕魯之粟	-12.5489
纏	-12.5489
一年正月朔日令大夫来修受命三公	-12.5489
三則去二二則去一	-12.5489
厚往輕報所以服小侯	-12.5489
國尚用周制	-12.5489
在其落烏中	-12.5489
存也昔者紀氏之國	-12.5489
家足其所者不從聖人故奪然後予髙然	-12.5489
尺而見水比之於澤	-12.5489
巧於辭不好立大義而好結小信可	-12.5489
怒天下可舉桓公曰	-12.5489
有蓄積則乆而不匱器械	-12.5489
爲之其功旣成莫知其	-12.5489
百則使吾國之粟	-12.5489
羿之射貴其	-12.5489
而勸民可以信於諸侯矣君許諾乃輕稅	-12.5489
萬金之賈千乗之國	-12.5489
都官歐陽曄知端州有桂陽監民	-12.5489
顔行不偷而	-12.5489
一家其夫婦即時死有一子	-12.5489
不容數日之行臣聞之務	-12.5489
且阨曰某榖不登曰某榖豐	-12.5489
之所通游客蓄商之所道財物之所遵故	-12.5489
之新若此則東西之相被逺近之	-12.5489
乗之號而無千乗之用	-12.5489
乞丐傭作販賣童兒皆有其徒民間偶語	-12.5489
也先王以守財物以御民事而平天下也	-12.5489
予十二始前節	-12.5489
云是流兵背役	-12.5489
亡而不守發民則下疾怨上邊竟有兵則	-12.5489
仁者不入名且惡之况乃人事故殺傷呪	-12.5489
以代公等母存為	-12.5489
使固桓公曰然則何以守時管子對曰夫	-12.5489
入吾國之粟因吾國之幣然	-12.5489
兩者不衡立故	-12.5489
公曰斯乃妻有他姦躓夫於	-12.5489
其分而自足君上不能均調其事則豪	-12.5489
其地國之富也六畜育於家	-12.5489
其餘曰害女功宫室械器非山無所仰然	-12.5489
則也地不易其則故萬物生焉主不易其	-12.5489
則象法化决	-12.5489
功力未見於國	-12.5489
功苦上完利監	-12.5489
取財者比請之得减死	-12.5489
君免臣於死臣之幸也然臣之不死糺也	-12.5489
君大其宫室髙其臺榭良臣不使讒賊是	-12.5489
君立三等之租於山曰握以下者	-12.5489
吾國者衢處之國	-12.5489
和故用常者治	-12.5489
問曰此何故也管子對曰	-12.5489
善而不語我其惡吾豈知善之為善也管	-12.5489
四時之朝夕御之以輕重之准然	-12.5489
國之所以存明主之所以賞有功禽獸者	-12.5489
大矣雖有小隈不成	-12.5489
失常者亂天未	-12.5489
失於小人過於君子其	-12.5489
姊妹不合有分	-12.5489
宋文帝時制刼	-12.5489
官國䡄管子對曰田有䡄人有䡄用有䡄	-12.5489
州有其數若今	-12.5489
師之事也論百工審時事	-12.5489
幣有䡄縣有䡄國有䡄不通於䡄數而欲	-12.5489
平賈萬也金之平賈萬也吾有伏金千斤	-12.5489
弟代公道生並大功親	-12.5489
得塗喻未經	-12.5489
怨淺失於小人其	-12.5489
應聲之正有以給上室屋漏者得居牆垣	-12.5489
應聲之正無以給上室屋漏而不居牆垣	-12.5489
所謂靡不有初鮮克有	-12.5489
救於火草木殖成國之富也溝瀆遂於隘	-12.5489
敢至於此其大也定	-12.5489
斗而決其籍齊東出三釡而決其籍然則	-12.5489
方也親於近者貴於	-12.5489
於上必由中央之人	-12.5489
於以名前所服之	-12.5489
於愛民公曰愛民之道奈何管子對曰公	-12.5489
昔者天子中立地方千里四言者該焉何	-12.5489
春秋冬夏不知時終始作功起衆立宫室	-12.5489
曄出囚飲食之皆還	-12.5489
有四秋而分有四時故曰農事且作請以	-12.5489
有定州流人解思安背役亡歸其兄慶	-12.5489
未見山鐵之利而内敗矣故善者不如與	-12.5489
東出其國四十六里而壇服青而絻青搢	-12.5489
柴楂把以上者	-12.5489
桓公曰卒伍定矣事已	-12.5489
死其家遂誣告之臻問所傷果致命耶吏	-12.5489
死節臣下之則也盡力	-12.5489
民事謂常費也言	-12.5489
民富寡人欲殺商賈之民以益四郊之民	-12.5489
水安其藏國之富也桑麻殖於野五	-12.5489
海王言以負海	-12.5489
漢慕容彦超善捕	-12.5489
無械器以應二敵即奉國而歸齊矣輕重	-12.5489
王蜀時有蕭懐武	-12.5489
生養萬物地之則也治安百姓主之則也	-12.5489
畏國之危也民不懷其産國之危也故大	-12.5489
當十錢者吾又加五錢而	-12.5489
發其積藏出其財物以	-12.5489
盗媪曰彼聞桑殿直	-12.5489
盗母柩納於父墓豈	-12.5489
相聞足以無亂晝戰其目相見足以相識	-12.5489
矣桓公問於管子曰隂山之馬具駕者千	-12.5489
知福州時閩人欲報仇或先食野葛而後	-12.5489
禺氏邊山之玉一筴也此謂以寡	-12.5489
私名十餘軰	-12.5489
秸	-12.5489
管子曰智用無窮	-12.5489
置大夫以為廷安	-12.5489
而位卑者謂之過徳薄而位尊者謂之失	-12.5489
至一宅封鎻甚宻	-12.5489
舉事右首事脩火憲敬山澤林藪積草	-12.5489
舊宗立無後則民殖矣	-12.5489
萬户為開口	-12.5489
藏薄純行篤厚坦氣修通凡物開	-12.5489
處其室囷倉寡而臺榭繁者其藏不足以	-12.5489
親養備具故用則者安不用則者危地未	-12.5489
言平隰之澤雖有小封不成於髙喻	-12.5489
言毋使暴使	-12.5489
諸邊則四邊	-12.5489
財力之貢於上必由中央之人能易	-12.5489
財用足也楚之男子居外女子居涂隰朋	-12.5489
資也桓公問於管子曰萊莒與柴田相并	-12.5489
賢讆譽惡也如此	-12.5489
速之賦正音征	-12.5489
都邑制也邑成而制事四聚	-12.5489
重租小家菲葬其親者服小租巨家美	-12.5489
金一斤直食八石民之知時曰	-12.5489
錢幣無補於	-12.5489
隈山曲也言山	-12.5489
非親屬乎一嫗撫膺哭	-12.5489
頴知子盗孫料兄殺	-12.5489
食之君然則大國内款小國用盡何以及	-12.5489
飲食撙衣服則財用足舉賢良務功勞布	-12.5489
馬女而吝愛於粟米貨財也厚藉	-12.5489
馬有識道之性不違馬而自	-12.5489
幾於息故不可不正也	-12.5489
德中世逐於智	-12.549
堙	-12.549
嘗出錢與焦子文	-12.549
接人事故雖下勞不謀	-12.549
胡童自陳有卒剽刼其衣服於黄堂之側	-12.549
長者也人之自失也以其所長者也故善	-12.549
屬于事無善事而有善治者自古及今未	-12.549
奥於理切於務者抄而	-12.549
於大帥故相之宇下	-12.549
昬將舉火執燭隅坐錯	-12.549
櫛謂燭盡察	-12.549
正其善惡之物處其背理	-12.549
羣藥安生薑與桔梗小辛大	-12.549
者必備之信之者仁也不可欺者智也	-12.549
能成其貴者以其貴而事賤也賢之所以	-12.549
句謂著燭處言居燭於	-12.549
易吏案治其誣乃辨	-12.549
是非者自分矣是非	-12.549
之火故曰羽獸之火	-12.549
事而竣公又問焉曰於子之	-12.549
君恱玩好則民務	-12.549
夫王者有所獨明	-12.549
弊乃有一舉兩獲	-12.549
辟之也猶夏之就凊	-12.549
不爲惠於法之内	-12.549
之以法舉而得其人坐而收其福不可勝	-12.549
之者何也從主之所欲也而	-12.549
令而多行者也故曰上苛則下不	-12.549
使兩國之意相違也	-12.549
其友相切相磋各長其儀周則復始是謂	-12.549
可復錯也何謂四維一曰禮二曰義三曰	-12.549
君身善則智淺	-12.549
埶	-12.549
子之紀言昭第六十亡雜篇十一	-12.549
子帥五鄉國子帥五鄉	-12.549
工靡夫楚王好小腰而美人省食吳王好	-12.549
常謂五常也備	-12.549
更納人於他國	-12.549
桓公親迎之郊管仲詘纓	-12.549
梨博帶以就	-12.549
權者所以知輕重也君人者必知	-12.549
瞰	-12.549
符融曰二人	-12.549
視於新故能見未形	-12.549
言此人立行正與	-12.549
贜	-12.549
輕死死與不食者天下之所共惡也然而	-12.549
道行之人有毁損羸瘠者也	-12.549
門曰我等共刼胡家徒	-12.549
雖自上而論可與不可者在下	-12.549
鷟曰此可知也遂	-12.549
主之髙行也慈者父母之髙行也忠者臣	-12.549
之勿使赴於溝澮之中若此則士	-12.549
事則偽有餘而實不足也	-12.549
以賞則死怯民勇勇民死國	-12.549
凶而民飢也辟之以號令引之以徐疾施	-12.549
千滕魯之粟四流而歸我若下深谷者非	-12.549
厲於墾闢	-12.549
名也胙祭肉也	-12.549
君之舉臣亦猶是也	-12.549
呂	-12.549
大雖復行仁不遇	-12.549
夫任人以事者必擇其可	-12.549
子與之定其劵契之齒釡鏂之數不得	-12.549
宋桂萬榮編次	-12.549
州時耒陽民為	-12.549
帝雖通天地之道不使	-12.549
恒為圃池	-12.549
懷挾姦詐貪利忘義	-12.549
攝而問之即自引伏數日間思安亦為人	-12.549
故令補塞缺坼也	-12.549
故存國家定社稷在卒謀之	-12.549
故百姓隨而聚之供其所須而利之	-12.549
施免罪之牒居二日廣陵王欣家奴面	-12.549
明而善人舉姦偽誅視聽者衆也	-12.549
曉知之然後可以	-12.549
樂聚之力以兼人之	-12.549
死輕重之分使然也桓公曰皮幹筋角之	-12.549
澤以得萬靈之情	-12.549
然則神筮不靈神龜	-12.549
牧貧病視獨老窮而無子者靡得相鬻而	-12.549
犁	-12.549
甚重重籍於民而貴市之皮幹筋角非	-12.549
置羊皮席上以杖擊之見少	-12.549
而順事治國患解大臣之任也不言於	-12.549
能善納則何	-12.549
自告牒下因	-12.549
莊遵為揚州刺史	-12.549
賜太平公主鈿	-12.549
䡄國之筴貨幣	-12.549
䡄守則民且守之民有過移長力不以本	-12.549
一匡天下本仁祖義成其霸業所行權	-12.549
一家事制也事成而制器方六里	-12.549
七十二日而畢睹壬子水行御天子	-12.549
三千里之外諸侯世一至	-12.549
上五者皆生財之術故	-12.549
上土三十物種十二物中土曰五怸五怸	-12.549
上帥其士所為	-12.549
下不非上中不苦官	-12.549
不知姓名若有家人可速收	-12.549
不能勝攻三器自毁	-12.549
不賦於民財用足也魯梁之君聞之則	-12.549
不足以懐其民者殆	-12.549
不難為也如此臣者	-12.549
个	-12.549
之也詳輕重之本	-12.549
之以武是故天下小國諸侯既服桓公莫	-12.549
之則一女之籍得三十鍼	-12.549
之守而實無尺	-12.549
之曰愚忠讒賊	-12.549
之疑里仇家物因	-12.549
之者典食之主也以情理言之則與	-12.549
之趙既流移載為人子何得不	-12.549
之道謂之准道桓公問於管子曰請問	-12.549
之類者官司如要器用若皮革之	-12.549
也民乃知時日之蚤晏日月	-12.549
也物至矣以多少之恩配大	-12.549
予以鎮撫之	-12.549
事團乃軍廵之職也所管百餘人	-12.549
于百姓則萬民懟怨逺其	-12.549
五帝謂伏羲神	-12.549
五榖者民之司命也刀幣者溝瀆也號令	-12.549
五祀謂門行	-12.549
人主所甚親愛也	-12.549
人已衣被之後餘衣若干别	-12.549
人董及祖恱收	-12.549
仁者善用智者善用非其人則	-12.549
今君立扶臺五衢之衆皆作	-12.549
代公道生並是	-12.549
代馬走使盡其力	-12.549
以求養者與之從	-12.549
以相死是故以守則固以戰則勝君有此	-12.549
以禦危害如	-12.549
以繩七臣得六過一是	-12.549
仭人之所大難也而	-12.549
伶	-12.549
使弊其羽翼	-12.549
傾國一戰能	-12.549
價也言應合受公家之所給皆與之幣則	-12.549
八經第四十八	-12.549
六三年魯梁之君請服桓公問管子曰民	-12.549
六曰嵗曰食曰	-12.549
兵器雖成未經課	-12.549
其一在國管仲懼而復之	-12.549
其人性輕率不能持	-12.549
其故貲故國中大給崢丘之謀也此之謂	-12.549
其計也速而憂在近者往而勿召也	-12.549
其誣也故譎以	-12.549
内外蔽塞則理擁	-12.549
冬政落重則雨雹行秋政水十二小郢至	-12.549
分賞而禄是壤地盡於功賞而	-12.549
利門則與奪貧富	-12.549
制分第五十五	-12.549
則何功而不成也	-12.549
則當權而改之	-12.549
則苗從下生上引一尺	-12.549
劉湜焚屍髙防劾病	-12.549
務尚懼而白之乎	-12.549
又譽其矛曰吾矛之利	-12.549
及之此人親近推之令去不須召也	-12.549
取索於倉吏	-12.549
可下矣公曰奈何管子對曰	-12.549
可得泉髙陵土山二十施百四十尺而至	-12.549
可殺趙當何以處載父子祖孫互相殘戮	-12.549
君上權之其幣	-12.549
君皆善官而守之則籍於財物不籍於人	-12.549
君耳無壤之有號有百	-12.549
吾觀小白必不	-12.549
呼之曰狗深坊曲巷馬	-12.549
因令人閉關不與楚通使楚王果自得而	-12.549
國亡而身無所處故可以益愈而不足以	-12.549
圓之周無不備得也	-12.549
垂櫜言其空	-12.549
大常察乎地利故使	-12.549
天后許之無名戒吏卒於東北門伺察有	-12.549
夫國之君不相中舉兵而相攻必以	-12.549
夫如是則始可以施政矣君曰諾乃	-12.549
好自勉以聚	-12.549
委諸從事從事疑	-12.549
媪媪以為真盗乃稍就與語	-12.549
子開方事公十五年不歸視其親齊	-12.549
宗元守辜魏濤證死	-12.549
室奉三圍以上	-12.549
家事父母之則也正	-12.549
寒之用人君所立以均	-12.549
將與楚人戰彼衆我寡為之奈何	-12.549
岸次有髙門	-12.549
巧文以利不好立大義而好立小信䝉孫	-12.549
師行一期能盡	-12.549
幄中聞酒臭而還曰今日之戰	-12.549
度人食其餘若干曰某	-12.549
廳	-12.549
彭生其得免乎禍理屬	-12.549
得而稽之如此者人主之位也	-12.549
得蚩尤而明於天道	-12.549
復白也以賔客之	-12.549
循以邦計貳職權	-12.549
心者萬物由之以慮萬理由之	-12.549
必治也治則姦臣困而法術之士顯是故	-12.549
必與下論而後定如	-12.549
忠孝第五十一	-12.549
悉由號令然可易	-12.549
愕愕者不以天下	-12.549
應聲之正無以給上	-12.549
應聲之正謂急	-12.549
或有聲無實或	-12.549
所得限一月納足	-12.549
扭	-12.549
抵當也不知仲父之聖	-12.549
按此註多非當依後	-12.549
掠遂伏誅後半年强盜始敗于儀真獄成	-12.549
推吏獄典同	-12.549
摧抑富商兼并	-12.549
攻山擊石有兵作戰而敗士死	-12.549
故以此觀之則政不可不	-12.549
故士反於情也	-12.549
數管子對曰民之能明於農	-12.549
文成括書郎簡校劵	-12.549
明教之猶至於無教也	-12.549
易猶交也所刑皆當	-12.549
昨者宿何所曰	-12.549
時魏州冠氏縣華村僧	-12.549
曰某家父母死時其子尚在財産乃子物	-12.549
曰輸財所以納財於民	-12.549
曲物直響不	-12.549
有所待而治其道	-12.549
有能必任之以職	-12.549
朝而後勝也其前政	-12.549
木而塗之䑕	-12.549
本節用適足以使其民榖盡而不能理	-12.549
格蔽圉之用有功利不得鄉	-12.549
桑麻皆安其處由田之事也行	-12.549
桓公曰衡數吾已得聞之矣請問國	-12.549
棄草木根本不美七十二日而畢也管子	-12.549
楚錢五倍其君且自得而	-12.549
次武各驅憲之俱解	-12.549
此至九舉說九合諸侯之所致	-12.549
此蓋君上一切權	-12.549
母既乖大功不讁之制又失婦人三	-12.549
民疾病者置之	-12.549
民蕃息而畜積盛	-12.549
水王后夫人薨不然則羽卵者叚毛胎者	-12.549
決之令通潘音翻	-12.549
決州決故曰就庸一日而決國筴出於	-12.549
治止令具物之名件而去後半年縣獲强	-12.549
洫	-12.549
淫之原不禁文巧也	-12.549
減溜盡發君	-12.549
湖州别駕蘓無名	-12.549
溜	-12.549
無有今鍼之重加一也三十鍼一人之籍	-12.549
獄非錢令不可治問大姓得火所發牀足	-12.549
生心心生規規生矩矩生方方生正正生	-12.549
百一十九尺而至於泉其下	-12.549
百斤什至而金	-12.549
皆鄉之豈獨魯乎今若殺之此鮑叔之友	-12.549
矣淵者衆物之所生也能深而不涸則沈	-12.549
知永興軍時大姓范偉冐武功令祚為祖	-12.549
短虚者人之所好故	-12.549
社䑕也故人臣執柄	-12.549
禮不可不謹也曰民知禮矣而未知務然	-12.549
稱材謂材稱	-12.549
稱舉也小舉其過	-12.549
窑中即斬以應命囚亦久厭	-12.549
管仲曰不然也夫國人憎惡糺之母以及	-12.549
管子對曰有莞蒲之壤有竹	-12.549
粟盡則有生貨散則有聚君人者名之	-12.549
納三釡以賑西之人則東西俱平矣	-12.549
納如要功庸者令就役一日除其簿書耳	-12.549
絰出赴北邙即踵以報果見諸	-12.549
綈十三月而管子令人之魯梁魯梁	-12.549
綧	-12.549
績其功業若干以功業直時而櫎	-12.549
繋解因自結	-12.549
者不靜言動之不可	-12.549
而奔命婦人則備食以	-12.549
聞也曰實壙虚墾田疇修牆屋則國家	-12.549
能為民除害而反坐以死豈法意耶乃	-12.549
能理也四流而歸於天下若是則紀氏其	-12.549
至一新冡設奠哭而不哀既徹奠又	-12.549
至仁則操國得衆見賢	-12.549
臿	-12.549
莫先謂之譕臣有大	-12.549
莫敢窺窬者	-12.549
萊之國也一樹而百乘息其下者以其不	-12.549
薪蒸之所積虞師之事也決水潦通溝瀆	-12.549
藏於民也市不成肆家用足也朝不合衆	-12.549
藏財貨專擅其利是故人常費不給	-12.549
虚能貫穿人	-12.549
衆矣人主好佚欲亡其身失其國者殆其	-12.549
託可好我託可惡我託可惡以來美名	-12.549
託氣濁而不神所行皆可	-12.549
謂初㑹諸侯上下得終其禮自	-12.549
謂欲殺人以致其理然而	-12.549
謂欲與人雖有惠	-12.549
謂路形若轅而又	-12.549
讁乃以叔母為朞親而令二子	-12.549
財無使他外	-12.549
財物通交有無使人之所求各得其	-12.549
賈之彼幣重而萬物輕幣輕而萬物重彼	-12.549
起兵妄征伐無使療之也	-12.549
載行而稱不行豈名	-12.549
農商官三者國之常	-12.549
逺無蔽獄孤寡無	-12.549
過誤致罰出	-12.549
邢遷衛用此術也	-12.549
郭中之民道路揚塵十	-12.549
鄉有不慈孝於父母不長弟於鄉里驕躁	-12.549
酤荘氏之酒	-12.549
醴	-12.549
重其輕者輕其重者輕者不	-12.549
重送葬則費用廣	-12.549
銚羊昭反	-12.549
鍼之重每十分加一分	-12.549
鏤女事無文章國之富也右五事分國以	-12.549
隆議絶漢武明繼	-12.549
障防安水藏使時水雖過度無害	-12.549
雖復千嵗常令自	-12.549
非有蹔廢而天下	-12.549
願以顯其功衆必予之	-12.549
顯之處樹立其表使	-12.549
食美車多醴財	-12.549
養擬供祭祀也	-12.549
饒取類於山也	-12.549
首以結案也然則追責贓證可不審謹乎	-12.549
駔	-12.549
齊西之人納三斗東之人	-12.549
𨳩	-12.549
􁱿	-12.549
度地第五十七	-12.5492
春多風而旱	-12.5492
帝者之臣其實師也故	-12.5492
二族依之以為	-12.5492
故上侈下靡	-12.5492
動作必思之無令人識之卒	-12.5492
其盛以黍黍者	-12.5492
生者安定之死者	-12.5492
天下必待以生故先王重之一日不食比	-12.5492
未出境而無敵者八是以欲正天下財不	-12.5492
國弱諫臣死而諛臣尊私情行而公法毁	-12.5492
獄上請讞皆以不見傷為疑適曰殺人以	-12.5492
萬金之賈千乘之國	-12.5492
丸比之不類遂釋之	-12.5492
件	-12.5492
便習武藝	-12.5492
南齊袁彖為廬陵王	-12.5492
封之其畜以散亡故桓公	-12.5492
工必以巧者欲令愚智之	-12.5492
機者發内而動	-12.5492
立意存之君無	-12.5492
三人於三國所以附大侯	-12.5492
上事子之力也是以式璧而聘子以給鹽	-12.5492
下視肥墝觀地	-12.5492
不務天時則財不生不務地利則倉	-12.5492
不勝天下不義不勝人故賢知之君必立	-12.5492
不遂谿谷報上之水不安於藏内毁室屋	-12.5492
不閉外内交通則男女之别毋自正矣	-12.5492
丹朱慢而不恭故曰敖敖在堯時雖凡下	-12.5492
之債若耒耜種	-12.5492
之所務者五一曰山澤不救於火草木不	-12.5492
之於脅故曰脅盾	-12.5492
之舉大夏帷	-12.5492
也毋邇其求言上之敗常貪於金	-12.5492
五刑而定其罰	-12.5492
亦雖無山而假名有山	-12.5492
代合之一體稱雖創鉅痛深固無讐祖之	-12.5492
以勸民六攻之敗何也	-12.5492
以文錦虎豹皮報諸侯之使垂櫜而入攟	-12.5492
以王者當樂推之運應天人之正	-12.5492
以贖免長安人	-12.5492
侫	-12.5492
信安始而可對曰始於	-12.5492
傷田野殘禾稼故君謹守泉金之謝物且	-12.5492
先者使卒戍縁陵	-12.5492
八分有職卿相之守也十官飾勝備威	-12.5492
六畜以時鈞脩焉勸勉百姓使力作毋偷	-12.5492
兵餘杭人薄道舉為刼	-12.5492
其地國之貧也四曰六畜不育於家	-12.5492
冦賊之禍丈夫則走	-12.5492
制雖委曲順天而	-12.5492
勝地故正天下而莫之敢御也右	-12.5492
十三而税無事於舊稼亡三之一也	-12.5492
十分加六分以	-12.5492
十家而連五連而暴五暴而長命之曰某	-12.5492
十日而服之管子告魯梁之賈人曰子	-12.5492
右伯沐涂樹之枝左右伯受沐涂樹之枝	-12.5492
吕婦斷腕包牛割舌	-12.5492
器春秋角試以	-12.5492
國不可桓公曰行䡄數奈何對曰某	-12.5492
國者天下下我髙天下	-12.5492
在泰山之南故	-12.5492
坐猶或可赦	-12.5492
士云有投化髙麗留書遣付舍人	-12.5492
士謂里尉每里當	-12.5492
天下從之矣故聚天下之精財論百工之	-12.5492
夫遭火燒死遵疑焉因令吏守之有	-12.5492
威衆禄賞不足以勸民若此則民毋	-12.5492
子致胙於桓公而不受天下諸侯稱順焉	-12.5492
孥	-12.5492
孫亮驗蜜杜亞疑酒	-12.5492
安其藏國之貧也三曰桑麻不殖於野五	-12.5492
官各務其職故	-12.5492
官曹簿帳人有負公家	-12.5492
宫墻毁壊門	-12.5492
實共罵棄市亦	-12.5492
小人之計得之雖速禍敗	-12.5492
州言病風狂不語並不	-12.5492
幽其門山之祠馮㑹龍夏牛羊犧牲月賈	-12.5492
待制孫甫為華州推官日州倉粟惡吏當	-12.5492
後獨出獨入莫敢禁圉成功立事必順於	-12.5492
御史失状國淵求牋	-12.5492
徳則民合和合故䏻習習故䏻偕	-12.5492
心心之所好傷民民傷而身不危者未之	-12.5492
恩情生故有親也	-12.5492
息止也左手	-12.5492
成器不課不用不試不	-12.5492
所惡之國而獨害之則令行禁止是以聖	-12.5492
收天下之豪傑有天下之駿	-12.5492
故曰刑省治寡朝不合衆右三本君之所	-12.5492
故曰樂始使此人	-12.5492
於化而欲變俗易	-12.5492
於口令不得行於天下在	-12.5492
於繼孤也是特名羅於	-12.5492
於衛誘動之令歸於齊也	-12.5492
於諸侯其可乎管子對曰未可若	-12.5492
旣逐之而公有煩	-12.5492
時有婦人臨汾水浣衣	-12.5492
時見曰㑹欲求	-12.5492
曰某月某日	-12.5492
曰某縣之人若干田若干幣若干而中用	-12.5492
曰魯梁可下矣公曰奈何管子對曰公	-12.5492
服百則天下畏之矣立少而觀多則天下	-12.5492
本圖旗物尚赤兵尚㦸刑則燒交疆郊必	-12.5492
樂家室重去	-12.5492
檀柘之壤有汜下漸澤之	-12.5492
欲令人貴美而	-12.5492
正方四面受敵謂之衢國以百	-12.5492
毋以使下非斧鉞毋以威衆非禄賞	-12.5492
然先王知其然故見予之	-12.5492
然而人事不及用不足者何也利有所并	-12.5492
物不令外知者也言王者用心常	-12.5492
物曲則影曲聲惡	-12.5492
田若干人事之准若干	-12.5492
登封降禪	-12.5492
發善必審於密執威必明於中	-12.5492
發朝鮮之文皮一筴也汝漢水之右衢	-12.5492
知輕重審用於心無令	-12.5492
碈	-12.5492
礝	-12.5492
禮法竟以改邪	-12.5492
立少謂興亡國雖少天下	-12.5492
管子令人之魯梁魯梁	-12.5492
者不審則邪臣上通而便辟制威如此則	-12.5492
而有四面兵革之憂此	-12.5492
而止之則無時成書	-12.5492
而無四面兵革之憂今君之事言	-12.5492
聊生故輕其産	-12.5492
能蕃育六畜者置之	-12.5492
蔣常覘嫗思彦集兒	-12.5492
藏百鍾富商蓄賈藏五十鍾内可以	-12.5492
衡言易政利民也毋犯其凶言中正以蓄	-12.5492
見凌故朝無定	-12.5492
言六攻能敗三	-12.5492
言無可棄動	-12.5492
詔期前後農夫以時	-12.5492
象時物之閉盾或署	-12.5492
遂於隘鄣水	-12.5492
里外耳然令云凡流徙者同籍近親欲相	-12.5492
重若干而中幣終	-12.5492
重適謂承重	-12.5492
陳議捍取胡争竊食	-12.5492
集於屍首吏乃披髻視之得	-12.5492
雖無海而假名有海則	-12.5492
離法而聽之此所謂富而	-12.5492
響象天地應	-12.5492
馬行人換其靴而去	-12.5492
魯梁之君即令其民去綈脩農	-12.5492
鶴脛非所斷鳬	-12.5492
齧而騎東西連而	-12.5492
彼矜者滿也滿者	-12.5493
滿虚在物在物	-12.5493
瑰	-12.5493
似蛇蠶似蠋人見蛇則驚駭見蠋則毛起	-12.5493
昔者桓公問管仲曰寡人請問度地形而	-12.5493
見下有成則能貴賞其功是	-12.5493
上見功而賤則	-12.5493
慈母之於弱子也	-12.5493
百嵗之後吾君	-12.5493
近乃更以燭	-12.5493
孫沔副樞為趙州司理	-12.5493
将何以覈其姦乎	-12.5493
燒燭者有墮即	-12.5493
發屬縣為捕者所	-12.5493
盼	-12.5493
老人之子無影遂	-12.5493
聽於鈔故能聞	-12.5493
之明羣物之所不違若彼	-12.5493
倍尊者乃取厥櫛遂出是去	-12.5493
公曰奈何對曰公子舉為人	-12.5493
刑譴何榮之可得	-12.5493
唐竇參初為奉	-12.5493
客或欲見於齊桓公請仕上官授	-12.5493
布衫璡驚曰此是外甥	-12.5493
淮隂二農比	-12.5493
矣獻卿揣其有姦	-12.5493
立其功凡此皆為重本也	-12.5493
而能成其王者也公曰何謂管子對曰虙	-12.5493
趾若有常處則不請也	-12.5493
身死蟲流出尸不	-12.5493
輕昔有驚漢文帝乘輿馬者張釋之	-12.5493
不恃外權坦坦之利不以功坦坦之備不	-12.5493
之狀如䑕肝其種青梁黒莖黒秀蓄	-12.5493
之鄉六士農之鄉十五公帥十一鄉	-12.5493
及猶預也矯偽也上預下	-12.5493
可否定於下則	-12.5493
君恱文繡則女	-12.5493
噉	-12.5493
坦坦謂平平非有	-12.5493
大夫受邑以幣人馬受食以幣則一國之	-12.5493
如此兄弟争死江陵令啓刺史博議彖曰	-12.5493
將併有其貲乎	-12.5493
巡行部内忽聞哭聲懼而不哀駐車問之	-12.5493
年成都三年五倍其初言大王雖有衆	-12.5493
旣結四國然後向	-12.5493
民非作力毋以致財天下	-12.5493
狹也梨割也	-12.5493
知善則謀慮深逺	-12.5493
知歙州富家有	-12.5493
能上廣澤遇雨十人之力不可得而恃夫	-12.5493
請論百官公曰諾管仲曰升降揖讓進退	-12.5493
謂一親往死一親來生	-12.5493
賢大夫不恃宗	-12.5493
雨十人之力不	-12.5493
頌容也謂陳	-12.5493
一國陸地之數謂之幣	-12.5493
三君旣失國當	-12.5493
上引猶君恩下流人心上就也	-12.5493
下令於流水之原使民於不爭之官	-12.5493
下重上輕正用左手傷右臂也誣者引	-12.5493
不以無事時有所取	-12.5493
不應扁鵲出桓侯又不悦居十日扁鵲	-12.5493
不為不可成不求不可得不處不可	-12.5493
不獲尉執一人指為	-12.5493
不繁也言於近則	-12.5493
不行不可復錯國於不傾之地者授有	-12.5493
中和愼敬能	-12.5493
中地方百里萬室之	-12.5493
中得其正而止若能常得中則	-12.5493
之任氏嗟惋杜氏自若杜即伏罪	-12.5493
之國謂之抵國前有千	-12.5493
之得其人以獻渙曰弓手見血衣當自取	-12.5493
之所生不若其所聚桓公曰弓弩多匡䡔	-12.5493
之管子之事必濟	-12.5493
之術有正有譎	-12.5493
之貴賤若干凡方六里用幣若干	-12.5493
乏於食者謂豪富之家收藏其	-12.5493
也夫欲定末者必先	-12.5493
也積於不涸之倉者務五	-12.5493
也立朝夕所以正東西	-12.5493
事不怠故能起身之財	-12.5493
二十三地數第七十七揆度第七十八國	-12.5493
五十里一日定慮二日定載三日	-12.5493
亡國之起毁國之族則兵	-12.5493
代之雖盡力弊翼而終竟不	-12.5493
以任苦著者也	-12.5493
以觀其則動則失位靜乃自得道不	-12.5493
任鳥馬之飛走而	-12.5493
伏誅失御史名	-12.5493
併歌舞之樂矣請問所始於國將	-12.5493
使主兵四曰不好本事不務地利而輕賦	-12.5493
假令財與人鈞同人	-12.5493
健者怯惡者	-12.5493
傷不以赦原於理為	-12.5493
儕	-12.5493
先王之在天下也民比之神明之	-12.5493
公又問焉曰於子之鄉有拳勇股肱之力	-12.5493
公子重耳出亡過	-12.5493
共觀之故曰觀多	-12.5493
兵車之㑹六	-12.5493
其德淳越温怒周	-12.5493
其罪故人不交相訟	-12.5493
准必壊舊髙峻	-12.5493
分宥謂從坐者	-12.5493
刑生力力生强强生威威生	-12.5493
利則滅國殺身之本也	-12.5493
制罪死不赦首事	-12.5493
則一女之籍得五刀	-12.5493
則不屈靜則不變不變則無過故曰不伐	-12.5493
則合之若此者則可以立	-12.5493
則當致力而成之若	-12.5493
劾財趙和贖産	-12.5493
勝猶益也禽獸	-12.5493
十一明劉績撰	-12.5493
十倍而不足或五分而有餘者通於輕重	-12.5493
十鈞之弩不	-12.5493
卒二千人小侯車百	-12.5493
卒千人以縁陵封	-12.5493
南致楚越之君	-12.5493
及猶就也就令能用	-12.5493
后書曰無若丹朱敖	-12.5493
君且使使者桓公使八使者式璧而聘之	-12.5493
君之能不預於	-12.5493
君服黃色味甘味聽宫聲	-12.5493
君知己也故臣莫敢不竭力俱操其誠以	-12.5493
呼他人此必為姦訊之而服他日果得真	-12.5493
唱則擊也小則小和大則大和故曰	-12.5493
喜也君自行之殺戮	-12.5493
喜農而樂戰	-12.5493
因人所欲罰而罰	-12.5493
圂	-12.5493
士庶人有賢孝悌聞	-12.5493
外不可以應敵内不可以固守故曰有萬	-12.5493
外敬則合禮内靜則	-12.5493
大王以詔破之	-12.5493
大臣非國老則君親	-12.5493
大誅報小罪	-12.5493
天威不違顔咫尺小白承天子之命而毋	-12.5493
太仁太不忍人	-12.5493
夫是故士之子常為士今夫	-12.5493
如此則均平皆在於恩	-12.5493
始遣吏按鞫	-12.5493
嫁其嫂因誣其子為	-12.5493
子其出乎召忽曰	-12.5493
孜	-12.5493
季得十八故也	-12.5493
官甲輙賂吏使掠服之	-12.5493
客至天津橋	-12.5493
宣歙間有强盜夜殺一行旅棄	-12.5493
家族使相連以事相及以	-12.5493
宿猶停也罰	-12.5493
左陽謂善也右隂謂	-12.5493
平盤者大盤也	-12.5493
廩給也謂開	-12.5493
式璧而聘之菹澤之民聞之越	-12.5493
弓弩無匡䡔者	-12.5493
張詠尚書鎮蜀日	-12.5493
得大封而辯於西方得后土而辯於北方	-12.5493
御製讀韓非子	-12.5493
徧知天下審御機數	-12.5493
必苞苴財貨好遺	-12.5493
恩賞以助之也	-12.5493
悉其聰明致其忠愛	-12.5493
患其用心之不公	-12.5493
愕愕守正者忘	-12.5493
慢則不及事由人	-12.5493
我致綈千匹賜子金三百斤什至而金三	-12.5493
所惡者能除諸民	-12.5493
所許趙雖内愧終身稱亦沉痛	-12.5493
政行德常能謙	-12.5493
故明法曰所死者非罪所起者非功然則	-12.5493
故曰吾語若大	-12.5493
故賢材遂所惡者能除諸民故姦	-12.5493
故雖在山泉而藏人猶	-12.5493
斗斛區釜以	-12.5493
於不竭之府者養桑麻育六畜也下令於	-12.5493
於事而竣於是乎鄉長退而脩徳進賢	-12.5493
於是桓公曰諾因命以車百	-12.5493
於殺法所不許也又當原其情理豈可一	-12.5493
族漸以至三	-12.5493
日而陽凍釋七十日而隂凍釋隂凍釋而	-12.5493
旬月豈不呼索飲食再劾其事	-12.5493
昔之日已往而不	-12.5493
是以官人不官事人不事獨立而	-12.5493
是以我有過為而民	-12.5493
時方收斂而乃攻山	-12.5493
時長孫無忌被召不解佩刀入東上閣	-12.5493
晳	-12.5493
智謀之士能忘	-12.5493
暁	-12.5493
曰自攻之國必削	-12.5493
曰若田百頃户鈔豈特收此乎始為劵時	-12.5493
有不合於令之所謂者雖有功利則謂之	-12.5493
有形而後知之臣非聖也善承	-12.5493
朝以市權利也	-12.5493
校效也君無所	-12.5493
檐	-12.5493
欲得首結案乃嚴督里胥遍行	-12.5493
此彌侈矣而國之不服者	-12.5493
殂却妳子五更初墻頭舁過凶器	-12.5493
殺母以大逆論帝疑之武帝時年十二	-12.5493
民有被盜殺者其妻	-12.5493
沈括顙喉南公塞鼻	-12.5493
治而不亂明而不蔽	-12.5493
沾體塗足暴其	-12.5493
減溜大成	-12.5493
澤下降苗	-12.5493
濆	-12.5493
無患人不知己	-12.5493
無知無知怒公令連稱管至父戍葵丘曰	-12.5493
爲十十可以爲百	-12.5493
牛遂入任氏	-12.5493
狠	-12.5493
當愼收之秋方	-12.5493
相而天地治神明至蚩尤明乎天道故使	-12.5493
眀刑之猶至於無刑也	-12.5493
瞑	-12.5493
短語六管子曰身不善之患毋	-12.5493
石故致兵器之禍	-12.5493
破義凡此八者禮之經也夫人必知禮然	-12.5493
祝祝史鳬	-12.5493
秋行五刑誅大罪所以禁淫邪	-12.5493
科斷盡心君子亦	-12.5493
積於不涸之倉	-12.5493
空耗雖未被敵勝先已自勝	-12.5493
窺井蔡髙宿海	-12.5493
第八十五輕重庚第八十六	-12.5493
管仲對曰夷吾聞之聖人先知無形今	-12.5493
索會一丐者病	-12.5493
縁即捐也駔馬之	-12.5493
罪過而聽重臣之所言故臣有所欲賞主	-12.5493
者撃殺之郡論以死向争之曰法當杖郡	-12.5493
者若此則兵皆逃	-12.5493
而取之則一農之籍得三耜鐵也	-12.5493
而矯悖也為下而勝逆也國家有悖逆反	-12.5493
耜鐵之重每十分加七分以	-12.5493
聖人在上賢人在下位動而履規矩常自	-12.5493
胡質集隣髙柔察色	-12.5493
能中鵾雞鵠䳈彼十鈞之弩不得	-12.5493
能事地又經緯星	-12.5493
能盡以喻君代臣亦然故曰	-12.5493
能走者馬也能	-12.5493
膚盡其四支之力以疾從事於	-12.5493
自事獨立於無過	-12.5493
自官授人之事而不	-12.5493
至崇笞女巫一百遂釋	-12.5493
與蒲以為笠	-12.5493
舉事令必先出曰	-12.5493
舉知人急則衆	-12.5493
若三土以十分之三怸土之次曰五纑	-12.5493
若不受則殺之殺之以	-12.5493
若受之則齊可弱	-12.5493
若此則民勝矣雖然勝民之	-12.5493
苧	-12.5493
苧蔣也編苧	-12.5493
茵	-12.5493
荆魏不能獨立	-12.5493
著某色衣乘某色馬在城東十里被殺	-12.5493
蕘之言賢聖	-12.5493
藏於不竭之府	-12.5493
蘭即所謂蘭錡兵架	-12.5493
衡有數乎管子對曰衡無數也衡者使物	-12.5493
衢處危懾圍阻千	-12.5493
衢處託食之君也夫以百	-12.5493
衢處謂之託食之君千	-12.5493
衣凍寒食	-12.5493
衣幕之奉不給謹守泉布之謝物且	-12.5493
襏襫謂麤堅之衣	-12.5493
覧	-12.5493
觿	-12.5493
言但患身之不善	-12.5493
言毋用佞人也用佞人則私多行毋蓄	-12.5493
計口授田家族多少足以自給而	-12.5493
謂平意虚心也七主據下唯	-12.5493
謂敗狄所得車甲	-12.5493
讓不與物爭濆動亂也	-12.5493
貴在所先所後人主不可以不	-12.5493
費多而益少故	-12.5493
賞之臣欲有所罰主	-12.5493
蹤見一老姥	-12.5493
蹷	-12.5493
輒有成能立聖人之功謂稱其	-12.5493
通於可不利害之理循發	-12.5493
遬宻也謂苗之	-12.5493
遷衆使二分具本	-12.5493
邱	-12.5493
郷而怨怒不及也	-12.5493
鄽	-12.5493
醒	-12.5493
里每時當有㑹	-12.5493
金故狄諸侯十鍾而不得倳㦸程諸侯五	-12.5493
長耳目者所得此則天子之禮然也	-12.5493
閭閈不設出入毋時早晏不禁則攘奪竊	-12.5493
非一令而民服之也不可以	-12.5493
韟	-12.5493
顯學第五十	-12.5493
飛者鳥也今不	-12.5493
馬者布幣於國幣	-12.5493
骨秀出於衆者有則以告有而不以	-12.5493
鴻飛而過之桓公	-12.5493
千乗之國者器之制也五者其理可知也	-12.5494
丞相劉沆知衡州日有大姓尹氏欲買	-12.5494
訟二十年不得直沆至又訴尹氏出積	-12.5494
者其何如而可管仲對曰夷吾之所聞能	-12.5495
有司執事者咸以厥	-12.5495
納正士之言著	-12.5495
市則衆聚喧囂尤多塵埃	-12.5495
匿如此則自然端直欲	-12.5495
引問無以證明	-12.5495
罪也明君者閉其門塞其塗弇其迹使民	-12.5495
三老里有司伍長行里順之令之家起火	-12.5495
已亡三之一又無故積則	-12.5495
故曰臺榭相望者	-12.5495
易也利害也難易也開閉也殺生也謂之	-12.5495
腹而得所失物	-12.5495
茶染紙類	-12.5495
二十七人而奉一	-12.5495
十三明劉績撰	-12.5495
可以誅大國之不道者舉賢良而	-12.5495
在上幣貲在下國	-12.5495
始取夫三大夫之家方六里而一	-12.5495
官爵十年而亡倍人倫而禽獸行十年而	-12.5495
戰不勝弱也地四削入諸侯	-12.5495
有其國者異姓之	-12.5495
猶未消潰	-12.5495
甘露寺主僧訴交	-12.5495
生姦謀故難合	-12.5495
生於勞身是故主上用財毋	-12.5495
生物共𤣥官	-12.5495
簪	-12.5495
謝綜范曄謀立彭城王義康湛之上表告	-12.5495
三分常稼而亡其	-12.5495
不失扞殂者去其都秩與其縣秩大夫不	-12.5495
中匡第十九内言二管仲	-12.5495
之功勞譽衆者則賞之不審其罪過毁衆	-12.5495
之舉大冬任甲兵粮食不給	-12.5495
之重用幣若干故幣	-12.5495
交接於上者也故租籍君之所	-12.5495
人也慧以給不能	-12.5495
人樞宻院召	-12.5495
什二筴也皮革筋角羽毛竹箭器械財物	-12.5495
以夷儀封邢車五百	-12.5495
以怯至則閉柵戒軍吏不得	-12.5495
公既行之又問管仲曰何行管仲曰隰朋	-12.5495
内然後兵出乎境計未定	-12.5495
内言五桓公在位管仲隰朋見立有	-12.5495
利者也必計數其多少	-12.5495
升斗以相遺也	-12.5495
卒五千人以楚丘封衞桓公曰寡人	-12.5495
及貨盡與小侯	-12.5495
同所以結恩好也	-12.5495
君斯作矣人胥	-12.5495
告諸侯曰請救伐諸侯許諾大侯車二百	-12.5495
天使使者臨君之郊請使大夫初飭左右	-12.5495
存問之謙言鹽菜之用	-12.5495
定三君之居處矣今又將何行管子對曰	-12.5495
尊之一與其事必無轉移	-12.5495
崇龜認刀司馬視鞘	-12.5495
弩無匡䡔者此何故也以其家習其所也	-12.5495
後矣故曰課凶飢計師役觀臺榭量國費	-12.5495
從事凾首乖崖察額	-12.5495
懌曰盗畏吾名	-12.5495
所寶惟穀故	-12.5495
損瘠則死期將	-12.5495
擏不能自正故三月解	-12.5495
於象而欲論材審用猶絶長以	-12.5495
既訓學於禮禮者	-12.5495
望君之禄也君有山海之	-12.5495
求也亡君廢其所	-12.5495
沛大澤也一	-12.5495
為治飲食如事	-12.5495
王知其然故見予之所不見奪之理故五	-12.5495
甲而莫之敢有君舉事臣不敢誣其所不	-12.5495
矣故人莫不化上	-12.5495
短續短以	-12.5495
秋甲兵求繕弓弩求弦謹絲麻之謝物且	-12.5495
箓	-12.5495
篋而洩重射輕	-12.5495
者自親行其四惡則近者叛之故知予之	-12.5495
自疑肘腋悉其狗也懐武殺人不可勝數	-12.5495
若財十倍多彼	-12.5495
蘓請祔柩賈廢追服	-12.5495
行事期年而上無闕者前無趨人三月解	-12.5495
行凡國之重也必待兵之勝也而國乃重	-12.5495
賔胥無堅强以良可	-12.5495
輕重丁第八十三輕重戊第八十四輕重	-12.5495
郭崇韜入蜀乃族誅之	-12.5495
金之賞不足謹守五穀	-12.5495
鎮荆州時南郡江陵縣	-12.5495
門一吏書贅直事若其事唐圉牧食之人	-12.5495
食于農非信士不得立于朝是故官虚而	-12.5495
主因離法而聽之	-12.5495
之制輕重毋過五日百	-12.5495
之子其狀類龜假言此龜東海	-12.5495
之無不容載故曰	-12.5495
五種無不冝其	-12.5495
今有狄難故致之	-12.5495
令左右服之民從而服之公因令齊勿敢	-12.5495
但有小謹不	-12.5495
併歌舞之樂	-12.5495
偉冐范祚䖍傚鄧賢	-12.5495
其所由來者漸矣	-12.5495
册	-12.5495
卒千人諸侯皆許諾齊車千	-12.5495
即勝能自有其	-12.5495
吾何能惜之	-12.5495
士四人問十日内	-12.5495
大寳之位神	-12.5495
大理斷令决杖防覆之云某人病風不語	-12.5495
子耳東海之子者海神之子也	-12.5495
密賢人之守也五紀不解庶人之守也	-12.5495
尚書右僕射封徳彛論監門校尉不	-12.5495
希不滅亡進其	-12.5495
弱之應八存亡之數九練之以散群傰署	-12.5495
彦超虗盗道讓詐囚	-12.5495
必能鬻其貴	-12.5495
惡食之人憂嫌致瘠故	-12.5495
慱	-12.5495
數盡於此乎管子對曰未也昔狄諸侯	-12.5495
於官受禄賞不當於功號令逆於民心動	-12.5495
明王雖勝攻於三器亦	-12.5495
是魯梁釋其農事而作綈矣桓公曰諾即	-12.5495
曰何謂國無儲在令管子對曰一農之量	-12.5495
本業故無蓄積	-12.5495
法皆應死至預	-12.5495
無偷順天之道必以善終者也三王失之	-12.5495
猶立朝夕於運均之上	-12.5495
猿猱飲焉故曰伐矜好	-12.5495
猿遇墜岸而	-12.5495
疑動言必得應	-12.5495
盞	-12.5495
竟五日而反百	-12.5495
規避徭役者五十年數犯法至徒流	-12.5495
親貴則威行於鄰敵好本事務地利重賦	-12.5495
誕者耳不足賴信也	-12.5495
諸國君之子若	-12.5495
讞疑火所起召幕工訊之工言製幕	-12.5495
逐易牙而味不至逐	-12.5495
野無田吏則人惰	-12.5495
金程諸侯山諸侯之國也故粟五釡而	-12.5495
鍾之國也故粟十鍾而	-12.5495
險政政險民害害乃怨怨則凶故曰讂充	-12.5495
險易猶否泰	-12.5495
非玉素煑之不可玉素乃毒之良	-12.5495
魏昶有策	-12.5495
黃金一斤直食八石	-12.5495
就地利故城郭不必中規矩道路不必中	-12.5496
伯樂教二人相踶馬	-12.5496
兠子數乘命闗連僧入對	-12.5496
之此人能以正事	-12.5496
事奉職而不忘	-12.5496
儛	-12.5496
言其處深厚岡	-12.5496
無讐而有少妻所以死	-12.5496
句如前燭之法矩法也	-12.5496
以知也其耕之不深芸之不謹地	-12.5496
共彼道與我同則不取而且不王	-12.5496
喻賢者不避亂	-12.5496
家後即其家得	-12.5496
少計其野之廣狹也	-12.5496
山之陽九州之民乃知榖食而天下化之	-12.5496
州將反喜謂沔曰	-12.5496
帝之王童山竭澤有虞之王燒	-12.5496
師十一三年而不解	-12.5496
曰凡一年之中十二月作土功有時則	-12.5496
王之常也非霸王之道也	-12.5496
能應莫之能應故全勝而無害莫之能	-12.5496
若以兵威易彼危亂此固暴	-12.5496
葷	-12.5496
藪斬羣害以	-12.5496
邇其求而逺其憂髙為其居危顛莫之救	-12.5496
飲者十六人適如其數捕	-12.5496
三江鑿五湖道四涇之水以	-12.5496
不以與下則賢去而	-12.5496
之西桓公南面而立管仲北鄉對之大	-12.5496
五頭餘並還恭	-12.5496
亾去旦起視之血汙其衣為吏所執不能	-12.5496
以決塞奪之以輕重行之以仁義故與天	-12.5496
傷大國以承其	-12.5496
兩國相敵必承	-12.5496
共對乃以布衫	-12.5496
其種大荔細荔	-12.5496
各有材能多者食	-12.5496
告有而不以告謂之蔽賢其罪五	-12.5496
告縣曰師出	-12.5496
問死事之寡其餼	-12.5496
國逾貧而用逾不足也	-12.5496
土功發地藏則夏多暴雨秋霖不止春不	-12.5496
外甥㹀牛所生實非	-12.5496
好言可惡之事	-12.5496
子雲叱之曰賊引汝	-12.5496
寡謂其妻餼廪言給其	-12.5496
尉有僧積施財甚厚其徒殺而瘞之	-12.5496
常科當奉而行之此不	-12.5496
廢慢法鄙賤之民是故先王必有置也而	-12.5496
愠	-12.5496
此王者之大轡也桓公問管子曰請問幣	-12.5496
民飢者不可以使戰衆散而不收則國	-12.5496
温其田及宫中皆蓋井	-12.5496
獸草木之生物雖不甚多皆均有焉而未	-12.5496
璡急吐欵云	-12.5496
當以漸也順也靡也謂物順	-12.5496
祏故伏尸滿衍兵決而無止輕重之家復	-12.5496
結交焉公子開方為人巧轉而兊利請使	-12.5496
經言五凡立國都非於	-12.5496
華陽縣黄夢松覆	-12.5496
角亦器量之名	-12.5496
車不結轍士不旋踵	-12.5496
道則生有差謬也	-12.5496
還牛更欲何語璡黙然	-12.5496
部人王恭戍邊留㹀牛六頭於舅李璡	-12.5496
長徳謂恩施廣也	-12.5496
餼生食廪米粟之屬	-12.5496
一親來所以合親	-12.5496
三千里之外諸侯丗一至	-12.5496
下以為天子羞遂下拜登受賞服大路龍	-12.5496
乃是殺一妳子函首葬之以屍易此良家	-12.5496
之寡人無行女安聞之吾聞之先人諸侯	-12.5496
之於吏則可賞也	-12.5496
之要然後度材而用之	-12.5496
之防夾水四道禾稼不傷	-12.5496
也君有山海之金而民不	-12.5496
五機設六行論七數守八應審九器章十	-12.5496
井之制故曰市井	-12.5496
人人與人相保家與家相愛少相居長相	-12.5496
人官者亦擇其可	-12.5496
人所忌故或斷之或虚之	-12.5496
今但見質若徃不獲送官	-12.5496
以給鹽菜之用	-12.5496
先定謙柔之	-12.5496
兵不必勝敵國而	-12.5496
其優賞厚薄	-12.5496
其去人也亦用人吾不仕矣管子	-12.5496
其用據有餘而制不足故民無不累於上	-12.5496
其田必見禽	-12.5496
其身力所不至也	-12.5496
内有徳澤於人民	-12.5496
内縣董行成能察賊有一人從河陽長店	-12.5496
出國司徒令命順民之功力以養五	-12.5496
十四明劉績撰	-12.5496
博則枉直咸盡	-12.5496
博而不失因以備	-12.5496
危難則智謀變而通之	-12.5496
及國事預知國政三年不	-12.5496
可取為證尹不能對遂伏罪	-12.5496
吏多私智者其法亂	-12.5496
周禮之通法今乃	-12.5496
問刑論有常以行不可改也今其事之	-12.5496
器軸者轉規大小悉須	-12.5496
四極而撫安之	-12.5496
國尉分地以	-12.5496
國有十年之蓄而民不足於食	-12.5496
圏	-12.5496
地以積隂成體	-12.5496
墨迹示之乃	-12.5496
壙空也天之所覆空地謂	-12.5496
大明之明非愛人不	-12.5496
大風漂屋	-12.5496
天常無為故曰不動然	-12.5496
太守有任杜兩家各失牛後得一牛兩家	-12.5496
夫日侵而産怨此失君之所愼也凡	-12.5496
姦偽易禄者既當	-12.5496
姦勝則國必削民有餘	-12.5496
字問是汝書	-12.5496
定一至行二要縱三權施四	-12.5496
寒釋則水流	-12.5496
對不伏從者請捶之登不	-12.5496
屑塵之厲厲	-12.5496
已守其謝富商蓄賈不得如故此之謂國	-12.5496
已至禽之側畔也	-12.5496
布耳目察民事而先知	-12.5496
師法也十一而	-12.5496
引汝同謀何路自	-12.5496
弩多匡䡔者其故何也管子對曰鵝鶩之	-12.5496
後數日得真殺人者就辟本州觀察推官	-12.5496
怒如此猶賢於不殺也	-12.5496
恃其多力拉殺魯君	-12.5496
惡不服而天下化之夏人之王外鑿二十	-12.5496
愛惜也非有所隱	-12.5496
我之軍士悉以諧	-12.5496
戰士飢則力	-12.5496
所爲旣不合理	-12.5496
所謂八經者何曰上下有義貴賤有分長	-12.5496
撫人若此可以禦	-12.5496
故上下無義則亂貴賤無分則爭長	-12.5496
故人皆反於朴素今	-12.5496
故地廣千里者禄重而	-12.5496
故實稱其名則治名重其實則亂	-12.5496
故曰上離其道下失其事	-12.5496
故曰禍莫大於不知足	-12.5496
故棄之喻姦人之雄亦亂國當絶	-12.5496
故無所失雖雞	-12.5496
敦厚而和可以	-12.5496
於齊也與同怒尚賢於	-12.5496
施城楚城名	-12.5496
是使察姦慝而反為姦慝者也	-12.5496
曰寡人有汙行不幸而好色而姑	-12.5496
曰弓手見血衣	-12.5496
有天下其所運用則不	-12.5496
有等貧富有度	-12.5496
李應言諫議為	-12.5496
樞言曰愛之利之益之安之	-12.5496
欲有所矜免也	-12.5496
欵服唯曄不首頻詔窮	-12.5496
正准壊險以	-12.5496
此三者尚以為可豈	-12.5496
此八者禮之經也	-12.5496
此地圖之常也人之衆寡士之精	-12.5496
此火王之時故	-12.5496
民利而天下化之周人之王循六	-12.5496
漂流謂滿溢於	-12.5496
潤濕以處其種大稷細稷赨莖	-12.5496
澤所以營作而	-12.5496
為亂故易云也	-12.5496
為賞頻再為之	-12.5496
無怨讎於鄰敵	-12.5496
無所不取皆有所	-12.5496
熈先茍誣引臣文帝令以曄所造及改定	-12.5496
父今彼鴻鵠有時而南有時而北有時而	-12.5496
爾果不妄否	-12.5496
獲其妾宣乃	-12.5496
王曽驗稅司空省書	-12.5496
珣索景徳	-12.5496
用為将時有盗官物者	-12.5496
用規者欲施	-12.5496
皆以其事業交接於	-12.5496
皆以其技能望君之	-12.5496
矣縣乎日月無	-12.5496
知齊之巧臣而	-12.5496
禄然今所有罪	-12.5496
私勇則怯於	-12.5496
第四十六正丗第四十七治國第四十八	-12.5496
管子曰殺生貴賤貧富此六秉也桓公曰	-12.5496
紫若脤然也	-12.5496
羅織事起湖州	-12.5496
羣萃共處	-12.5496
義子與子言孝其事君者言敬長者言愛	-12.5496
者弱以弱去强者	-12.5496
而懷恩此禮義之正	-12.5496
聞善則不賢也故可罰	-12.5496
脤	-12.5496
臣之擇事亦猶是也	-12.5496
臧獲御之則為人笑王良御之	-12.5496
若左若右正中而	-12.5496
裼	-12.5496
言夙興晦夜之時	-12.5496
計不然殺汝必矣	-12.5496
訟者皆當禁圉之也	-12.5496
詐為馮忱書	-12.5496
認云非妻也遂收豪家鞫	-12.5496
請齊徴賦之事	-12.5496
謂一時行其賜人則欣頼以	-12.5496
謂知君之短長及	-12.5496
踊	-12.5496
踐其血亟走避之尋被追捕繫獄半年不	-12.5496
蹶	-12.5496
車百乗卒千人	-12.5496
輯故敵不能傷也	-12.5496
追店人十五以上	-12.5496
送案問悉獲其黨	-12.5496
通乎隂氣所以事地也經緯星	-12.5496
闓	-12.5496
陽氣主仁故行	-12.5496
飛過令左右求之見一人操彈佩丸咸以	-12.5496
鵾雞鵠䳈	-12.5496
黒莖青秀蓄	-12.5496
齊西之土令胥	-12.5496
一朝樂飲而為安	-12.5496
三日並是此人	-12.5496
下魯梁何行而可管子對曰魯梁之民俗	-12.5496
不正名分不原情理	-12.5496
不漏可以盛酒	-12.5496
之以輕重守之以髙下若此則民疾作而	-12.5496
之升陑武王牧野是也	-12.5496
之是也是龜至寶而	-12.5496
之理國恐其太少	-12.5496
也言欲繋屬	-12.5496
也鞈革重革當心著	-12.5496
人以惡氣懼己目見	-12.5496
令之以終其欲明之	-12.5496
以顯其本謀之功何善如	-12.5496
何取證便坐杖刑况禁	-12.5496
假令管仲力死成	-12.5496
僖公卒以諸兒長得為君是	-12.5496
允濟聴葱彭城書菜	-12.5496
其分則國寧矣故名之曰不	-12.5496
其色以自窮詰	-12.5496
典主也言能觀	-12.5496
内外俱濕今内燥者乃枉之耳於是黄門	-12.5496
出之如是者三因問兒出亦有問	-12.5496
刑者姦之所利者	-12.5496
别苗莠列	-12.5496
務五務者何曰君擇臣而任官大夫任官	-12.5496
取故鄙人不虚與故也	-12.5496
君在衆官之上但	-12.5496
國子擿其齒遂入	-12.5496
地之極理善莫大焉	-12.5496
地故人主之卑尊輕重在此三者不可不	-12.5496
多而不理固不得有至於山諸侯之國則	-12.5496
大夫散其邑粟與其財物以市	-12.5496
天地閉藏暑雨止大寒起萬物實熟利以	-12.5496
孫甫舂粟許元焚舟	-12.5496
專聽重臣如此故羣臣皆務其黨重臣而	-12.5496
巧伎勇力不為愛重	-12.5496
希崇並付齊賢兩易	-12.5496
度儀法有疑	-12.5496
役便事而省費	-12.5496
得大常而察於地利得奢龍而辯於東方	-12.5496
必探管仲本敗	-12.5496
忽三則卑以輕	-12.5496
所不晤依賢以問之故其	-12.5496
於人必有所主主於財	-12.5496
時土豪李甲者兄死	-12.5496
曰部五部命之曰聚聚者有市無市則民	-12.5496
有器有用城郭險阻蓄藏	-12.5496
桓公夫人文姜齊女也公將如齊與夫人	-12.5496
法以主於人則國理故祥也	-12.5496
淫辭毋作淫巧若民有淫行邪性樹	-12.5496
濼	-12.5496
無相瀆也謂之有禮公不	-12.5496
無貲也無貲無價也	-12.5496
王鍔匿名至逺憶姓	-12.5496
瓶	-12.5496
男有妻之室	-12.5496
疈	-12.5496
疑則臣下無所取	-12.5496
疾憊裸露者	-12.5496
皟	-12.5496
相視而笑無名喜曰得之矣	-12.5496
程顥詰翁丙吉驗子	-12.5496
義以尊於道者	-12.5496
而感則身不敢造惡	-12.5496
脱其常服以就功	-12.5496
臣之所謂哀非樂也桓公曰善於是伐	-12.5496
臣者之大罪也無功勞于國而貴富者其	-12.5496
自鑒得失可知也	-12.5496
舉事而材自練	-12.5496
藏菜此之謂豫戒桓公曰	-12.5496
蜜中啟言藏吏不謹亮即呼吏	-12.5496
要此二時而有戰	-12.5496
言俱至於衰老故欲	-12.5496
言淵色以自詰也	-12.5496
誅於嚴重而害於䟽逺慶賞不施於卑賤	-12.5496
諸侯畆鍾之國也	-12.5496
諸侯畒鍾之國也	-12.5496
謂四言雖善然以	-12.5496
豪傑不安其位而積勞之人不	-12.5496
豹之皮故山林之人刺	-12.5496
貪人自相殺傷	-12.5496
賢者顯名而居姦人	-12.5496
質雖不慧但大揆	-12.5496
辱忍而生全齊將得之而	-12.5496
逐姦民詰詐	-12.5496
遂以文姜㑹齊侯	-12.5496
部郎中宿州有民剚刃其妻而妻族受賂	-12.5496
鄉與朝爭治	-12.5496
鄙輸貨故貧	-12.5496
隨山澤之人求其禽獸之皮	-12.5496
鬱閉亦謂川	-12.5496
黒牛而以布裹其角	-12.5496
鼔流於博塞	-12.5496
繩右立國無	-12.5497
貴而不過度則臣道也右大數地者政之	-12.5497
少師王珣知昭州日有	-12.5497
且死所以國敗	-12.5498
化出令纔往則民移	-12.5498
敎訓習俗	-12.5498
閉出非之門又塞生過之塗成罪	-12.5498
􁋂	-12.5498
主命員外郎蕭儼覆之儼齋戒禱神佇雪	-12.5498
明不過九日而游兵驚軍	-12.5498
殺僇必信民畏而懼武威旣明令不再行	-12.5498
之所謂哀非樂也臣聞之古者之言樂於	-12.5498
以守其地若是而民衆則國貧民飢以此	-12.5498
名者所以命事也時者名有所當也似	-12.5498
墟	-12.5498
山之下必於廣川之上	-12.5498
必有害也桓公曰昔三王者	-12.5498
必有廢也必有利也而	-12.5498
正天下之分猶之不可故曰治民有器	-12.5498
正天下者未之有也兵必勝敵國矣而不	-12.5498
滛暴不用上令者有則以告有而不以告	-12.5498
而不貴者霸不自以	-12.5498
遇以生君子避之是亦傷人故吏者所以	-12.5498
之國不可以無千金之蓄飾百	-12.5498
事業及其名位	-12.5498
今之天地即古	-12.5498
以結其恩意	-12.5498
其將必明其政必明其士四者備則以治	-12.5498
則倉廩虚肥籍	-12.5498
則羣臣相推以美名相假以功伐務多其	-12.5498
君服白色味辛味聽商聲	-12.5498
器數理分即	-12.5498
四害皆服桓公曰寡人悖不知四害之服	-12.5498
圖不可數則為詐不敢鄉	-12.5498
執務明本則士不偷	-12.5498
家門穢行欲告則	-12.5498
必被之以恥辱也	-12.5498
忍則不可實已所殺胡之	-12.5498
志孫權長子登字髙立	-12.5498
持也蜀祠器也君人者但抱祠器以身率	-12.5498
故無使下當上	-12.5498
曰民知義矣而未知禮然	-12.5498
東國謂自齊東之	-12.5498
此乘天威而動天下之道也故智者役	-12.5498
此非臺省所能决	-12.5498
為官司所檢	-12.5498
然不言廟堂之政	-12.5498
然無懷愧之心	-12.5498
留一日把百日餔民	-12.5498
眀法審數立常備䏻則治	-12.5498
禺氏西北戎	-12.5498
經以示之其人自正矣	-12.5498
繕邊城塗郭術平度量正權衡虚牢獄實	-12.5498
羽者所以抑盛陽	-12.5498
而天下化之殷人之王立帛牢服牛馬以	-12.5498
至故守不固也	-12.5498
至此時必當有賞頻三為之	-12.5498
西京時有僧	-12.5498
詐書也元於是	-12.5498
謂時大聚㑹	-12.5498
豈得不多而殊乎	-12.5498
雨之行者速也飛鳥之舉者輕也雷電之	-12.5498
非也君有山山有金以立幣以幣准	-12.5498
人兄者寛裕以誨	-12.5498
人君者中正而無私	-12.5498
人妻者勸勉以貞夫然則下不倍上臣不	-12.5498
人臣者忠信而不黨	-12.5498
令使者賫石璧而與仍	-12.5498
以與處臨官則治酒食則慈	-12.5498
作金以詐市	-12.5498
兄仕江南為法官嘗有子毁父畫像為	-12.5498
兵士不用民偷處而不事積聚則囷倉空	-12.5498
其境也欲魯梁人速知之	-12.5498
其所行皆有事驗	-12.5498
則羣臣仰利害也如此則姦人	-12.5498
則過慮不得不知不得不知則	-12.5498
劉相隣證韓參乳醫	-12.5498
可以為天下王所以謂	-12.5498
君知則仕不知則	-12.5498
君賤不踰貴少不陵長逺不	-12.5498
夜與數卒服盗服迹盗所	-12.5498
夷吾之所患者諸侯之	-12.5498
妾吏酖宋玉素毒郭	-12.5498
戴争異罰徐詰縁例	-12.5498
敗但經一日敗	-12.5498
散邑粟財物	-12.5498
於徐伯曰昔者無道之臣委質為臣	-12.5498
杜鎬毁像次翁戮男	-12.5498
楊牧笞巫薛向執賈	-12.5498
毁天尊佛像可以比也兄甚竒之	-12.5498
民偷處而不事積聚	-12.5498
民得其饒是謂流膏令下貧守之往往而	-12.5498
決瓁洛之水通之杭莊之閒	-12.5498
濡濕日生土弱難成利耗什分之六土	-12.5498
為國者必當稱本而動也	-12.5498
田發草上得其數矣民人所食人有若干	-12.5498
皆竭能盡力以治其事亂主則不然故	-12.5498
繆過以惛則憂憂則所以伎苛	-12.5498
聖人行權亦猶	-12.5498
臣死於非罪而邪臣起於非功富貴尊顯	-12.5498
良臣皆私其所	-12.5498
苞藏禍心故	-12.5498
行處入民家老小皆走獨一媪	-12.5498
袁滋鑄金孫寳秤散	-12.5498
言受君之辭以出命	-12.5498
詐市馬賊欲刑之宻遣人察市	-12.5498
謀謨動作則事居國則富處軍則克臨難	-12.5498
豪傑不安其位則良臣出積勞之人不	-12.5498
足以治民也桓公曰寡人睹其善也何	-12.5498
道讓為河隂令	-12.5498
霸王夷吾在此桓公曰善王言第二十一	-12.5498
也以秋日至始數	-12.5499
之曰若受富民錢欲出其死	-12.55
皆以為得實若水獨疑之留其獄數日不	-12.55
天變化日新之理故	-12.55
曰居寺者樂於知事	-12.55
此嘖室之事也請以東郭牙	-12.55
積年以來空交分	-12.55
起而削亂秦行商君	-12.55
餘力於心莫負	-12.55
他國來分明勸勉而與	-12.55
使士不兼官故技長使人不同功故莫爭	-12.55
又欲置公子職商臣作	-12.55
善不告而去何也其徒色動因執之得	-12.55
有女幼孤而冒賀氏産	-12.55
也四時生物各	-12.55
猥衆也以人衆之多	-12.55
由守不愼不過七日而内有讒謀	-12.55
異出入以兩易	-12.55
不有上事而又醜惡	-12.55
冬不就温更以寒暑致災終無益	-12.55
刑僇矣何功澤之加哉	-12.55
則夏旱至矣夏有大露原煙噎下百草人	-12.55
因名而財則物	-12.55
土火之子故也而統	-12.55
地之化此非天子	-12.55
忠哉但以無益而徒死也	-12.55
思安被害之苦	-12.55
擁塞也農人貪商賈而動者	-12.55
故曰以能别為食數凡此皆重人本之	-12.55
時非所言必致刑僇	-12.55
每大陵深谿皆有靈焉	-12.55
民變而不能變是	-12.55
法已定矣不以善言	-12.55
白莖青秀以蔓蓄	-12.55
非智算所及	-12.55
順也三老里有司伍長者所以	-12.55
一事與此相似	-12.55
三曰悼耄也	-12.55
不得不使者夫梁聚之言非也桓公曰善	-12.55
不革之類故取喻焉	-12.55
主㝷蹤而至皆如其言	-12.55
乃左官於大夫	-12.55
之於廟三酌而問為政焉曰昔先君襄公	-12.55
之無使人見怨隂	-12.55
也令者所以令人知事也法律政令者	-12.55
也故曰先王之禁山澤之作者博民於生	-12.55
也知道之不可行則沈抑以辟罰	-12.55
人有氣則存故	-12.55
人桀紂以之亡亂之故也湯武以	-12.55
人者之為其臣也皆	-12.55
何如管子對曰梁聚之言非也彼輕賦	-12.55
俗無過厚之恩也	-12.55
元何犿註外儲説右	-12.55
先王之治國也不淫意於法之外	-12.55
其下小其上隨水而行地有不生草者必	-12.55
利耗什分之七土剛不立晝日益短	-12.55
制度官都復自有常	-12.55
制為秦州司理	-12.55
則亡衆不敏不及事公曰善吾子就	-12.55
則國必富位必尊能適衣服去玩好以奉	-12.55
則引驢逺過怯也以此知之收下獄有頃	-12.55
功議曰律謀反者斬身亡即無斬法若情	-12.55
勢者君之輿威者君之策	-12.55
又經緯日月之時候使人用之也	-12.55
吏民少解輙披籍	-12.55
君不能變亦外革而内	-12.55
唐徐有功為司刑丞時有韓	-12.55
問吏所明欲知	-12.55
善明設法而不以私防者也而無道之君	-12.55
器成教守則不逺道里	-12.55
土功之事土乃益剛令甲士作堤大水之	-12.55
土所生木實	-12.55
外之有徒禍乃始牙	-12.55
外革而内不革也	-12.55
天子服文有章而夫人不敢以燕以饗廟	-12.55
天時地利猶有	-12.55
天氣以積陽成德故通陽氣然後能事	-12.55
好學而辭遜請使㳺於魯	-12.55
孔墨孔墨不	-12.55
守柔弱之節而	-12.55
官未知據何條例詔依有功議斷放由是	-12.55
家二子械付獄	-12.55
州行成於街中見	-12.55
店者立承隱欺數千	-12.55
廣大則草木易多也壤地肥饒則桑麻易	-12.55
廷掾耳又問鈐下	-12.55
徒謂黨與也外叛者	-12.55
忒差也若不反守於	-12.55
懿	-12.55
斬豈合相縁既所縁之人亡則所因之罪	-12.55
斷近習不敢賣重	-12.55
於主則威民信其法則親是故明王審法	-12.55
既飭君乃有國	-12.55
旣知其名又須	-12.55
是與不肖論賢也	-12.55
晉曹攄字顔逺為	-12.55
曰五年養牛辛苦	-12.55
曰彼賊住賊	-12.55
曰焉敢厚誣	-12.55
更有不可於此者	-12.55
有急名則少緩之	-12.55
有急難之事與小白	-12.55
李兊之用趙也餓	-12.55
東隣贖契	-12.55
柱也革皮也	-12.55
械送闕下	-12.55
止徒坐頻會赦恩今	-12.55
死如歸臣不如王子城父請立為大司馬	-12.55
死者何也唯無得之堯舜禹湯文武孝己	-12.55
法由是劒南無横死之客	-12.55
漸也順也靡也	-12.55
無保證又無	-12.55
物地生以輯	-12.55
犀車良馬	-12.55
狄已拔邢	-12.55
獄折中不殺不辜不誣無	-12.55
獄者所以止罪邪止罪邪	-12.55
生事法非是因以聞報至杖卒人稱服之	-12.55
生則有軒冕服位	-12.55
生各由用力也	-12.55
生成須立法以治之在於名實相	-12.55
用其六秉如是而民情可得而百姓可御	-12.55
留其事將如之何	-12.55
畜人徒有數舟車陳器有禁	-12.55
疾疫當此時也民	-12.55
瘡	-12.55
符節印璽	-12.55
筵	-12.55
縁散民不敢服雜采百工商賈不	-12.55
罪雖重下無怨氣私之所加賞雖多士不	-12.55
義也名也時也似也類也比也	-12.55
羽北方聲也火王之時不	-12.55
而死君農夫夜寢蚤起力作而無止彼善	-12.55
而退而人以此自得行於世也	-12.55
聼之師曠不得已	-12.55
臣厚財而作福則正禮	-12.55
自行文書身任士職	-12.55
臺廣池湛樂飲酒田獵	-12.55
行人驢一頭	-12.55
表又令止之是	-12.55
謂授諸生之官而任之以	-12.55
謂立法者必有所倣	-12.55
豈須卜筮後知乎	-12.55
貂	-12.55
賈什倍農夫夜寢蚤起不待見使五	-12.55
足以戰民乎狐子對曰	-12.55
遂南伐楚門	-12.55
重賦斂多兊道以	-12.55
長五年始興車踐	-12.55
防故漂流城邑	-12.55
雖有賢身貴體毋其爵不敢服其服雖有	-12.55
非此塗理絶言象縁坐	-12.55
非私草木愛魚鼈也惡廢民於生	-12.55
韓滉在潤州	-12.55
鰥寡而合和之予田宅而家室之三年然	-12.55
鳥獸得之形體肥大羽毛	-12.55
三度故曰天時不祥則有水旱地道不	-12.55
下務藏積則	-12.55
下可平載行也	-12.55
不可識謂其非謀隠伏意在不測或	-12.55
不濟故來在魯可因此事而致政	-12.55
不自曉故下通人情以問所	-12.55
之來從而未有田宅者幾何家國子弟之	-12.55
之分然後能制是故治國有器富國有事	-12.55
之國不可以無萬金之蓄飾千	-12.55
之節夫繩扶撥以	-12.55
事雖有所適可	-12.55
事雖死不悔近君為拂	-12.55
五尺之愚童子	-12.55
人夫者敦懞以固	-12.55
人子者孝悌以肅	-12.55
人者好生惡殺故	-12.55
以勝之則其黨皆	-12.55
以養親戚恭敬忠信以事君上中正比	-12.55
任城示靴楊津獲絹	-12.55
信皆自任胷	-12.55
備故多備方主嚴	-12.55
入朝馬蹄踐霤	-12.55
其凶殺之至必有以待之	-12.55
其民以富其家故明法曰百慮其家不一	-12.55
冬時花葉	-12.55
凋落唯根	-12.55
則上重下輕今	-12.55
則保依而貴重	-12.55
則問之賢若覺	-12.55
則賢良發庶人耕農樹蓺則財用足故曰	-12.55
剛圓主柔和今	-12.55
力不可不務也曰民知務矣而未知權然	-12.55
功名立矣故曰權不可不度也故曰五經	-12.55
勸而不怠故能起本也	-12.55
君擇臣而任官則事不煩亂大夫任官	-12.55
君為輔義以與交	-12.55
周密若結故	-12.55
唐韓思彦使并州有賊殺人主名不立醉	-12.55
善農者能多致市利則自	-12.55
囚者衆慶謂可以詐求之乃作匿名書多	-12.55
四子旣逐而有四	-12.55
堦	-12.55
壽命長而天下自理也	-12.55
大致不以反經小過而	-12.55
姜文姜告齊侯齊侯怒饗公使公子彭生	-12.55
威臨本朝也	-12.55
婿	-12.55
子職第五十九	-12.55
孰以天下而傳之於匹夫乎堯不聴	-12.55
封澤謂澤多草刈積成封可用煑鹽者也	-12.55
小問第五十一	-12.55
屠何東胡	-12.55
州之斷失在不	-12.55
布則民之所欲無不得矣夫民必得其	-12.55
席不與亮曰必為此也	-12.55
幹存焉故以淳質	-12.55
庶人耕農樹蓺	-12.55
廷理斬其輈戮其御	-12.55
徐伯曰昔者有道之臣委質為臣不	-12.55
德越散也冬	-12.55
德雖復隂怒當節	-12.55
忠日損之而患多者惟欲多忠少欲智也	-12.55
思彦疑之晨集童兒	-12.55
恐懼改行自新	-12.55
悉収其家一時殺戮	-12.55
愚臣雖有損於	-12.55
慕和其衆以修天地之從人先生之天地	-12.55
慮管仲曰非婢子之所知也婢子曰公其	-12.55
應故全勝而無害莫之	-12.55
懼寵而矜夸者	-12.55
戰功曰多言於干	-12.55
所謂三度者何曰上度之天祥下度之地	-12.55
扶公升車	-12.55
收亡國聚散民立社稷主置宗廟令	-12.55
故敬能守禮也	-12.55
故於為政少用為則也	-12.55
於慈厚所以示其不忍也	-12.55
於時必失失則廢而不濟失植之正而不	-12.55
既得管仲則知後	-12.55
是心天地又見其	-12.55
曰不長不利作土功之事放農焉利皆耗	-12.55
曰攻敵之國必强	-12.55
曰耽於女樂不顧國政	-12.55
曰麋鹿食薦	-12.55
有理制天下有分君臣上第三十短語四	-12.55
桓公問管子曰梁聚謂寡人曰古者輕賦	-12.55
桓公曰何謂二豫之外管子對曰萬	-12.55
欲成太平之形以知其	-12.55
此五者力之務也夫民必知務然	-12.55
江分表裏章辨朱墨	-12.55
泉踊降雨下山水出海路距雨露屬天地	-12.55
法數則事簡故身不勞	-12.55
涖	-12.55
漑	-12.55
為人致利除害	-12.55
無從而怨怒也	-12.55
無患知下之謂也	-12.55
無緣有此黄門	-12.55
無職事家又無	-12.55
無行女安聞之	-12.55
物有豫則君失筴而民失生矣故善	-12.55
生事故事多也	-12.55
用之不止國雖大必危地之不辟者非吾	-12.55
田可播殖者	-12.55
百金之蓄飾以此與令進退此之謂	-12.55
皆忘主而趨私佼矣故明法曰比周以相	-12.55
目有所不見耳有所不	-12.55
眀不過九日而㳺兵驚軍	-12.55
着	-12.55
知鄧州有富人	-12.55
短語五古者未有君臣上下之别	-12.55
神矣神者至貴也故館不辟除則貴人不	-12.55
程琳烓竈強至油幕	-12.55
篇凡中外書五	-12.55
級欲為官者為	-12.55
義有七體七體者何曰孝悌慈	-12.55
而已矣公曰其行義奈何管子對曰天子	-12.55
若從晦而視	-12.55
荳	-12.55
薉	-12.55
藏時則入於恡嗇故	-12.55
處令一腹心人	-12.55
衣食之於人也不可以一	-12.55
衺	-12.55
袁州司理參軍有	-12.55
西旱蝗有惡賊二	-12.55
西苑食生梅使	-12.55
語我昔者有道之臣	-12.55
諸侯可朝也而謀臣不為引軍而退復與	-12.55
變行致位為	-12.55
變隨化也淵泉而不盡微約而流施是以	-12.55
賞罰信而兵弱者輕用衆使民勞也舟車	-12.55
躁之人妄有所變也	-12.55
逺交四鄰以越羣黨	-12.55
邠	-12.55
錯法而民無邪	-12.55
開引罪黨上聞	-12.55
闕故以管仲為悖	-12.55
陕	-12.55
難二第三十七	-12.55
非其人尚能用之則明無不用如	-12.55
養則衆散亡君臣各	-12.55
饉人道不順則有禍亂此三者之	-12.55
饗國四十有二年桓公踐位十九年㢮	-12.55
髙名為人笑之始也	-12.55
黄門以銀椀并葢就中藏吏取	-12.55
􁄾	-12.55
圈	-12.5501
善猶入芝蘭之室不知	-12.5501
習俗而善不知善之	-12.5501
則材能之臣去亡矣彼智者知吾情	-12.5501
化邪歸於正直	-12.5501
晴	-12.5501
為審刑院詳議官	-12.5501
無差故曰兩易也	-12.5501
以有禮愼此四者所以行之也桓公曰請	-12.5501
凡此必資衆力則妨農	-12.5501
宫室須有度禁發	-12.5501
熟天子祀於太	-12.5501
自天地以及萬物	-12.5501
薄稅斂輕刑罰此	-12.5501
身無患害而孝慈焉桓公曰願聞五害之	-12.5501
長心謂謀慮逺也	-12.5501
下旣不希上賞則	-12.5501
不擇鄉又不擇	-12.5501
不擇鄉而處不擇	-12.5501
久而一行厚賞則人荷	-12.5501
也有如此者皆以法度加之不	-12.5501
也道不可量徳不可數不可量則衆强不	-12.5501
云下故萬物化云	-12.5501
以冬日順三老里有司伍長以冬賞罰使	-12.5501
作之後常案行堤有	-12.5501
作大雨各葆其所可治者趣治以徒	-12.5501
信賞審罰爵材禄䏻則	-12.5501
具民無願者願其畢	-12.5501
周于仲文字次武為趙王屬安固	-12.5501
塞其幸者但得貪食而已無餘利	-12.5501
大夫以朝官吏以命士止于	-12.5501
天下政治也此正天下之道也管子	-12.5501
寡人之國也伐鄰國也子無事焉宋已取	-12.5501
心迹同符古人䧟以深刑實傷為善於是	-12.5501
必勝而守可以必固非以并兼攘奪也以	-12.5501
所止此則臣侵上事也	-12.5501
故天不動四時云下	-12.5501
於是管仲與桓公盟誓為令曰老弱勿刑	-12.5501
涸興雨之祥故羊	-12.5501
無使下人每至時	-12.5501
益州長史韓伯携曰于	-12.5501
眀名章實則士死節	-12.5501
禁止聲色之	-12.5501
筍	-12.5501
給大雨堤防可衣者衣之	-12.5501
置大夫以爲廷安	-12.5501
羊以祭故曰祈	-12.5501
脩舊法擇其善者舉而嚴用之	-12.5501
與禍由是生故	-12.5501
荑	-12.5501
行事善者以重幣賀之從列士以下有善	-12.5501
衝水可据者据之終	-12.5501
說勝則士卒不戰	-12.5501
負猶被也廢法制者	-12.5501
防可治者章而上之都都以春少事作之	-12.5501
上疾下之不供	-12.5501
不可賢也植而無	-12.5501
乃此村少年某甲	-12.5501
乃走出至門公召管仲管仲反公汗出	-12.5501
之吏失其治故明法曰官之失其治	-12.5501
之流潤澤均加于萬物故曰聖人	-12.5501
乘衢處壌削	-12.5501
人忻然曰無復憂矣遂執	-12.5501
人臣者之廣道也	-12.5501
人阻其路塞其遂守而物修故著之簡筴	-12.5501
作樂易先古政	-12.5501
佼以進其譽	-12.5501
倍貧富失而國不亂者未之	-12.5501
其國者必重用其民欲	-12.5501
功名可成也故民必知權然	-12.5501
區區者虚也人而無良焉故曰虚也凡堅	-12.5501
十而當一流水網罟得入焉五	-12.5501
厚矣輕用衆使民勞則民力竭矣賦	-12.5501
可正而視言察美惡審别良	-12.5501
天下者必重用其國欲	-12.5501
娵	-12.5501
常生自列於上	-12.5501
急故能取威也	-12.5501
我將勉力而求霸也	-12.5501
所以興禮義今犯罪者非以乖	-12.5501
承天議射廷尉訊獵	-12.5501
昨日已笞死於市	-12.5501
是故身在草茅之中而無	-12.5501
時也得其時則事可成	-12.5501
時則天祥地	-12.5501
李傑買棺重榮咄箭	-12.5501
歐陽左手惟濟右臂	-12.5501
此八禮以導其民八者各得其義則	-12.5501
此者可謂通靈合契與神	-12.5501
民失士此四者用所以害君義失正也夫	-12.5501
法而趨有勢如此則慤愿之人失其職而	-12.5501
為人臣者重私而輕公矣	-12.5501
略舉之故其詳不盡也	-12.5501
積漸積微使主迷惑而不自知也上則相	-12.5501
老而不致政貪	-12.5501
能自理者則有餘不	-12.5501
臣者不忠而邪以趨爵禄亂俗敗	-12.5501
親所訟者疑其法未能决	-12.5501
身茍有道徳豈名	-12.5501
遂南北之大意不以曲飛小缺	-12.5501
郷四郷命之曰	-12.5501
鈸	-12.5501
非是故姦邪之人用國	-12.5501
非此之外則朝聘之數逺近各有	-12.5501
頴曰勿捕獨召	-12.5501
罟	-12.5502
小女奴逃亡不知所之奴父母訟於州命	-12.5503
人主不周密則正言直行之士	-12.5503
皆應死富民不勝	-12.5503
神之所在故畏敬	-12.5503
天施地化日夜不	-12.5503
知州屢趣之不能得上下皆怪之若水一	-12.5503
禝	-12.5503
而擇地形之肥饒者	-12.5503
邪若水笑謝曰今數人當死豈可不	-12.5503
勿令入其征	-12.5503
可留停故動化其故以就其	-12.5503
蠻夷之人不敢犯賞慶信必則有功者勸	-12.5503
五音雖有不同樂師盡	-12.5503
推官有偽造印者吏	-12.5503
於人必脩己自	-12.5503
禺故曰十禺若	-12.5503
禺猶區也十	-12.5503
其所以買名者用非道	-12.5503
制度無得失於經常	-12.5503
功有大小器有精	-12.5503
各定其先後之差也	-12.5503
尊鬼謂謹其	-12.5503
有功當得禄則佯辭之以	-12.5503
禍避於萬里之外能以此制彼者唯能以	-12.5503
穽	-12.5503
赦後不造法皆不死遂以疑讞之卒免死	-12.5503
里之外彼不能興姦生禍則我	-12.5503
不飛雖羽翼無益不濟雖舟楫徒施	-12.5503
之精麤濁蹇能存而不能亡者生人與玉	-12.5503
人有患勞而上使	-12.5503
以莅民而不言智能	-12.5503
先其君以惡者侵其刑而	-12.5503
其事號令賞賜賦爵受	-12.5503
其半已及三百斤	-12.5503
凡土王之時所生之物但開通	-12.5503
勢焉夫勢必因形而立	-12.5503
危者勢必傾觸類莫不然可以一隅而	-12.5503
即好惡喜怒哀樂	-12.5503
右六親五法	-12.5503
叶	-12.5503
名物處違是非之	-12.5503
國及譯傳言語相	-12.5503
國家加之於百姓而足以飾官化下者明	-12.5503
土位在中央而寄王	-12.5503
天下也小匡第二十内言三	-12.5503
封令始王事	-12.5503
嶮	-12.5503
弑其君今言仁義則必以三王	-12.5503
待其享祭鬼神之	-12.5503
從利焉其入國遇冦	-12.5503
所以循其變也六氣	-12.5503
所使者乃常人若此者敗亡	-12.5503
掲舉也表謂以木為標有所告示也	-12.5503
故曰懦弱之君不免於内亂明君不	-12.5503
敵謀我所以外難	-12.5503
於愚人賢士程	-12.5503
曲斷以五里	-12.5503
桓公蹵然逡遁管仲曰昔先王之理人也	-12.5503
沔疑其枉而留訊之州將怒然終不敢	-12.5503
法任功則民少言任善則民多言行	-12.5503
法者所以興功懼暴也律者所以定分止	-12.5503
濶	-12.5503
王者行事必順三政	-12.5503
理之極則無姦	-12.5503
立於謀故䏻實不可故也	-12.5503
而無害成而不議得而莫之	-12.5503
蔽美揚惡則内亂自是起	-12.5503
諸人事莫不有形	-12.5503
譯	-12.5503
賤之禮故國都立也	-12.5503
道正之士從此亡之敵國	-12.5503
都以臨下視有餘不足之處輒下水	-12.5503
隂陽交感流	-12.5503
雖曰好徳全賞而不與雖曰惡	-12.5503
上注謂注意於上天故	-12.5503
下注謂注意於下地故	-12.5503
乃召捕賊之幹者	-12.5503
也殘一不辜而	-12.5503
人有敦敬則慶	-12.5503
伸之曰若逺年	-12.5503
卑卑不可得以尊	-12.5503
可革而不革則人有	-12.5503
君欲變其令令尊於君不	-12.5503
商人常隨利往來故	-12.5503
喝	-12.5503
困獸猶鬬其所終	-12.5503
國親則舉當矣人故相憎也人之心悍故	-12.5503
堅明以自處也	-12.5503
夜謂暗昧之	-12.5503
奉千金何侯日食一萬	-12.5503
家全活之知其所	-12.5503
市故商人皆移來	-12.5503
心度第五十四	-12.5503
情則物理極極	-12.5503
愽聞而知禮	-12.5503
所惡皆反於法故自傷	-12.5503
承吏謂攝官無	-12.5503
攝衽盥潄	-12.5503
梁陸襄為鄱陽内史	-12.5503
棄人謂有過不	-12.5503
淖齒之用齊也擢	-12.5503
為監察御史頻乃坐不即具獄降	-12.5503
獺祭魚然後入	-12.5503
率之三軍故有中軍之	-12.5503
當得捍捍而死乃以闘論是守者不得主	-12.5503
管子對曰未可民心未	-12.5503
索牛舅曰㹀牛二頭已死	-12.5503
縷帛也言每於朝置	-12.5503
者牧養謂其人不能自	-12.5503
而用必贍身必安矣能移無益之事無	-12.5503
能廣耳目以察	-12.5503
蜂蠆有毒故必計其所窮知	-12.5503
輕君之心故不服也	-12.5503
陳奉古主客通判	-12.5503
雖欲上通中道	-12.5503
順理而不失之謂道道	-12.5503
養之數欲有所復除也	-12.5503
餼而空理事	-12.5503
一日違衣食生理	-12.5503
一曰不識二曰過	-12.5503
三寛宥而後斷罪三宥	-12.5503
上令不行而求敵之勿謀已不可得也欲	-12.5503
下疾上之無窮	-12.5503
下驢即承伏	-12.5503
不以道輔君而代	-12.5503
主乃比之讒賊	-12.5503
主而不得用其法不	-12.5503
之不可直用刑勝也	-12.5503
之人無以成其厚	-12.5503
之以温周密者	-12.5503
之來皆以誠信故曰	-12.5503
之心則徴見於外不可隱匿之也	-12.5503
之聲以成安樂之音	-12.5503
乍退者凡此皆災敗	-12.5503
九竅則各有職司不能以此	-12.5503
人君之言當仁以化	-12.5503
代彼若百官之有其分也	-12.5503
以疑為能相萬乘	-12.5503
以贓罪鞫人	-12.5503
傭直而嫁其女於他人汝将	-12.5503
先古聖王皆不能	-12.5503
其妹故曰失親戚之禮命	-12.5503
其為沮敗也或	-12.5503
内富而外飾於貧窮内逸而	-12.5503
冒者耳非義也	-12.5503
冬物朴素故	-12.5503
出大令故天下諸侯常	-12.5503
分下亦積一分	-12.5503
刑則紹昧斷絶	-12.5503
刑則繼晝之	-12.5503
刑徳而使臣用之	-12.5503
刑戮則於初旦夜盡之交其時尚寒主春	-12.5503
初見秦第一	-12.5503
利之物能惑哉	-12.5503
制五家為軌軌有長	-12.5503
則隱而修德也	-12.5503
北伐山戎制泠支斬孤竹而九夷始	-12.5503
即周禮三宥	-12.5503
去者或發動而有所毁傷者	-12.5503
可一則有以牧之也見其可也喜之有	-12.5503
君明而嚴則羣臣忠	-12.5503
周室有事歸胙於齊齊	-12.5503
咸通故可審合理	-12.5503
善士則遷改	-12.5503
因之修理故能長乆	-12.5503
國無姦民則都無	-12.5503
夏時農事尤盛	-12.5503
外者幾何人貧士之受	-12.5503
多備規軸	-12.5503
多鹽故歸者譬若市人言不設禁也	-12.5503
夣	-12.5503
大揆度儀若覺卧若晦眀	-12.5503
太嶽之後故言隆嶽	-12.5503
失其義正而倚以	-12.5503
守其職而不亂故葆統而好終深而迹言	-12.5503
官旣積財人	-12.5503
富則淫淫則有蝨	-12.5503
已自拔凡此	-12.5503
後數日果得真盗	-12.5503
心之君處常能順	-12.5503
必欲令霸王而不	-12.5503
拉	-12.5503
掌主也因來而賞物	-12.5503
掛絲於柱鞭之有少鐵屑焉乃罰賣糖者	-12.5503
撙	-12.5503
敦猶厚也校察如此則權詐	-12.5503
於勤勞可以致勢而權	-12.5503
於敵矣竭盡也	-12.5503
於是智者詐愚	-12.5503
曰君必惠民而已矣景公	-12.5503
曰火自我出故遺其跡某家者欲自免也	-12.5503
有一老母行哭而	-12.5503
有司巳於事而竣	-12.5503
有法者以法行無法者以類舉	-12.5503
朋黨亦所謂姦人之雄也	-12.5503
李惠仕為雍州刺史有負	-12.5503
桓公問第五十六度地第五十七	-12.5503
樂雖廣其威可	-12.5503
欘	-12.5503
此天地人三者之儀但	-12.5503
死則顯忠義	-12.5503
治治禮道也萬物待治禮而	-12.5503
法以期民之興善也如	-12.5503
法而行私者也為人上者釋法而行私則	-12.5503
湯之國人亦桀之國人武之國人亦紂	-12.5503
為棺可以為車斤斧得入焉	-12.5503
焉寓寄託也	-12.5503
無盡言謂不忠諫襄公通	-12.5503
爨骸攻者	-12.5503
爲棺可以爲車斤斧得入焉	-12.5503
爵必以其力則	-12.5503
爵自二級以上	-12.5503
物理可謂有德也	-12.5503
狀白之津乃下教曰有人	-12.5503
王晦叔丞相知	-12.5503
理其用翻乃	-12.5503
生而在上位雖有十	-12.5503
用彌明故比心於金中	-12.5503
當一林其木可以	-12.5503
目司視視必順見見察謂之	-12.5503
知一時之權又	-12.5503
禽獸聚麀然人殺禽獸無罪則戮之可也	-12.5503
竪刁堂巫公子開方	-12.5503
籍背之物惠	-12.5503
絲即所謂檿	-12.5503
纎嗇省用以備	-12.5503
纎細也嗇恡	-12.5503
罟得入焉五而當一命之曰地均以實數	-12.5503
老幼孤獨不得其所故智者假衆力以禁	-12.5503
者也堪為琴瑟絃	-12.5503
者或遲重滯凝久而不	-12.5503
而廣求閑安	-12.5503
聖化人則敬而來待愛	-12.5503
脆繣然瓦解故若神	-12.5503
臆以理其事人人	-12.5503
臣是以敢出也公遽下堂曰寡人非敢自	-12.5503
若夫黄覇戮三男王尊殺假子	-12.5503
若野獸之處以羣而	-12.5503
苴草謂其草深	-12.5503
茂能有所覆藏	-12.5503
術數則羣臣易欺之國無明法則百姓輕	-12.5503
衣食足耳目榖衣食足則侵	-12.5503
袋天欲曉至	-12.5503
觿解不可解	-12.5503
請觧炮烙之刑	-12.5503
謂農商工也言因	-12.5503
謙退無所舉欲	-12.5503
變者聖王之道也重令第十五外言六凡	-12.5503
財旣入市則公私共積之上雖積	-12.5503
貭	-12.5503
越法行事謂之侵所好	-12.5503
身無職事家無常姓列上下之	-12.5503
軸斤斧得入焉九而當一汎山其木可以	-12.5503
近城郭之大小名邑	-12.5503
選擇政要載之	-12.5503
邪官不及爲私利於民	-12.5503
防慮之如其事	-12.5503
陔	-12.5503
雖勤似后	-12.5503
雖時有適潛黙周	-12.5503
雜故政治不悔定而履言處其位行其路	-12.5503
非上反違法制以結連	-12.5503
飲於黑后之井	-12.5503
老而子幼乃偽為劵及鄰人死即逐其子	-12.5504
一舉兵而國四禍	-12.5504
愛民枉法律不	-12.5504
不貧戰而必勝勝而不死得地而國不敗	-12.5504
贓物即云散鬻於市無從追究赴法之日	-12.5504
四者謂不貧得	-12.5504
而敵不敢校也得地而國不敗者因其民	-12.5504
之害也張耜當弩銚耨當劒㦸	-12.5504
于仇人之門而訴之仇	-12.5504
亦有利於國猶山	-12.5504
君之好惡纔形於心	-12.5504
商人雖不為國用	-12.5504
因䏻利備則求必得	-12.5504
因能利備則求必得	-12.5504
好惡形於心百姓化	-12.5504
得保其首領父母妻子完安於内故民未	-12.5504
故形端者勢必	-12.5504
明戡疑之或謂無足疑戡曰殺人而自置	-12.5504
朝諸侯卿大夫列士	-12.5504
水成數六水氣行君	-12.5504
雨將作五榖以削士民零落不穫之害也	-12.5504
一者氣質未分至一者	-12.5504
先君行善則是侵君	-12.5504
其有田邑之人今移於市	-12.5504
其行法度者但往行而進不却來	-12.5504
壤生物共玄官	-12.5504
定生處死謹賢脩伍則衆	-12.5504
往行不來而民	-12.5504
得於國也諸侯之謀慮得於外也然	-12.5504
所以抑盛隂也	-12.5504
於國也諸侯之謀慮	-12.5504
昌故䏻得其寳	-12.5504
明山之曽青一筴也	-12.5504
曰汝非以彼所分財少乎皆曰然即命各	-12.5504
此亦為費數而得一耳也	-12.5504
此居於圖北方方外必得文威武官習勝	-12.5504
矣其可乎管仲對曰未可君若欲正卒伍	-12.5504
衆忿難犯故必	-12.5504
行仁宋襄惑而	-12.5504
親戚危其社稷社稷戚於親不	-12.5504
諂䛕飾過之	-12.5504
重寳分其威威貴於寳不	-12.5504
驚故䏻至無量	-12.5504
鬱濁謂穢塞不潔清者也困滯謂	-12.5504
以義愛非天屬黄之所恨意不在呉原死	-12.5504
以飭整故君可	-12.5504
博而一行純而固則仰我如	-12.5504
可以有國制儀法出	-12.5504
善下小國則取小國	-12.5504
士之材智上不	-12.5504
多少之差輕重合宜	-12.5504
審器而識勝	-12.5504
弘	-12.5504
往重報輕所謂大國	-12.5504
故萬人一軍五	-12.5504
救彼不臣則構怨矣故曰亂自此始	-12.5504
於楚楚人不許遂退七十里而	-12.5504
是故卒伍政定於里軍旅政定於郊	-12.5504
此雖臣言必君用之	-12.5504
為圏弱國為屬	-12.5504
獮	-12.5504
祭獸然後入山林	-12.5504
者察于事故不官	-12.5504
而正之不必分錢	-12.5504
謂順天道以種	-12.5504
陵陸丘井田疇均則民不惑	-12.5504
風雨髙下也是三	-12.5504
髙下猶多少也謂君	-12.5504
傅令鞭絲李惠撃鹽	-12.5504
列業也臣有用少而家業富禄寡	-12.5504
吏不知印文更時	-12.5504
向相訪賊錢推求奴	-12.5504
問之乃以實對於是宻遣吏訪	-12.5504
宗裔卷紬髙防校布	-12.5504
張鷟搜鞍濟羙鈎篋	-12.5504
彼積勞之人不務盡力則兵士不戰矣豪	-12.5504
忘出如莒時也使管子	-12.5504
戒來故禍不萌通而民無患咎桓公曰請	-12.5504
於其君慮殺其主謂之公過諸公過之家	-12.5504
時與有倦養無窮之君而度量不生於其	-12.5504
暴則傷民毋監于	-12.5504
朱詰賕民孔察代盗	-12.5504
欲成事必先立其凖的事不	-12.5504
法令毁於官請謁得於上則黨與成於下	-12.5504
然而人君不能治故使蓄賈游市	-12.5504
獄如何吏紿	-12.5504
由守不慎不過七日而内有䜛謀	-12.5504
禮不謹則民不脩廉論賢不	-12.5504
罰則賢聖無從竭能行貨財而得爵禄則	-12.5504
而資財多則以枉法取於人故也	-12.5504
自行之所以率先於	-12.5504
食於村店有嫗聞其	-12.5504
鮑叔牙奉杯而起曰使公	-12.5504
鱗獸東方青龍	-12.5504
寗	-12.5505
章原本軼去	-12.5506
令模前後交付	-12.5506
屍水中遂失其屍或為元謀或從而加功	-12.5506
息故能生成不已	-12.5506
凡此上事其勢不	-12.5506
務自成斯應	-12.5506
新然亦循故之四時周	-12.5506
時其業必見簡弃	-12.5506
聯	-12.5506
譖	-12.5506
當明道路之令	-12.5506
考訊引伏奎獨疑之	-12.5506
之土若在陵在山在隫在衍其隂其陽盡	-12.5506
九十二日天子北出九十二里而壇服	-12.5506
南齊王敬則為	-12.5506
天地以及萬物皆有理存	-12.5506
惋	-12.5506
未解尚十二三用上下文義及叅以經史	-12.5506
焉直莫之亂則自理矣	-12.5506
裸	-12.5506
謂所憎者身在	-12.5506
雖各有别君則盡	-12.5506
䈥	-12.5506
上下旣設人則生其貴	-12.5506
不喜不怒可謂和也故能	-12.5506
不聽雖讜言空設故曰其將若君何	-12.5506
今能專破一國常	-12.5506
以盡忠於君君體有之以臨天下故能	-12.5506
伐材用毋於三時羣材乃植而造器定冬	-12.5506
共謀要殺君子之不當	-12.5506
其名籍於國都也	-12.5506
其國百三十八里而壇服白而絻白搢玉	-12.5506
和菭以相及也	-12.5506
害己者其可得哉	-12.5506
[...]
