<unk>	0
<s>	0
</s>	0
。	-1.83858
者	-4.75366
也	-4.86089
之	-4.87757
,	-5.20174
▁	-5.26226
為	-5.2777
故	-5.31014
以	-5.36015
有	-5.38149
而	-5.39829
不	-5.40086
一	-5.4304
佛	-5.55156
(	-5.5573
)	-5.56106
無	-5.58843
即	-5.6271
心	-5.62921
是	-5.64188
如	-5.68617
則	-5.6985
此	-5.72701
於	-5.75524
人	-5.76796
其	-5.76996
中	-5.77247
生	-5.92605
二	-5.94722
若	-5.96742
*	-6.00869
自	-6.01597
非	-6.03089
行	-6.07338
大	-6.09438
見	-6.11691
得	-6.12929
念佛	-6.13701
三	-6.1387
云	-6.15514
言	-6.1956
相	-6.2202
念	-6.22166
法	-6.22441
時	-6.22893
曰	-6.25141
名	-6.26666
又	-6.27172
皆	-6.30452
亦	-6.33734
說	-6.36352
眾生	-6.36652
身	-6.37762
淨土	-6.40441
觀	-6.41259
等	-6.41396
我	-6.41487
明	-6.43947
願	-6.4423
所	-6.44263
在	-6.44653
至	-6.44703
或	-6.45327
謂	-6.46545
事	-6.47071
經	-6.47244
與	-6.50945
下	-6.5263
四	-6.52988
今	-6.53171
上	-6.53884
能	-6.54489
作	-6.54777
因	-6.54891
成	-6.55193
當	-6.56852
入	-6.56911
乃	-6.57093
同	-6.57226
諸	-6.59342
菩薩	-6.61087
矣	-6.62577
】	-6.62996
道	-6.63148
多	-6.63451
空	-6.66135
巳	-6.6757
然	-6.68103
及	-6.68553
修	-6.6867
出	-6.689
可	-6.70796
乎	-6.73562
一切	-6.73899
知	-6.73924
後	-6.74896
欲	-6.76925
信	-6.78349
從	-6.78952
常	-6.79117
五	-6.81346
教	-6.81386
盡	-6.81607
正	-6.82208
難	-6.82379
彼	-6.83072
雖	-6.83735
理	-6.84653
義	-6.86094
處	-6.87536
。【	-6.88337
本	-6.88901
淨	-6.89425
前	-6.8957
真	-6.89827
來	-6.90039
何	-6.90387
聞	-6.91108
未	-6.92577
問	-6.9315
起	-6.93288
但	-6.93509
、	-6.94706
必	-6.94719
門	-6.94803
日	-6.96113
定	-6.96491
善	-6.96852
彌陀	-6.97182
既	-6.97459
通	-6.99708
天	-6.998
分	-7.00834
眾	-7.0133
意	-7.01924
實	-7.02555
文	-7.03589
苦	-7.05612
地	-7.05654
子	-7.05739
師	-7.06015
復	-7.06314
現	-7.06437
證	-7.07959
應	-7.0867
受	-7.08695
疏	-7.08875
深	-7.09057
性	-7.09515
求	-7.09606
果	-7.09844
業	-7.09998
往生	-7.10163
初	-7.10258
西方	-7.1165
光	-7.11769
具	-7.11993
方	-7.1267
如是	-7.12725
用	-7.14005
體	-7.14412
令	-7.14577
去	-7.14655
智	-7.14899
諸佛	-7.15357
論	-7.15584
別	-7.16438
緣	-7.1757
樂	-7.18371
。】「	-7.18499
想	-7.19276
發	-7.19444
阿彌陀佛	-7.19477
十	-7.19529
解	-7.20651
要	-7.20731
勝	-7.20873
隨	-7.21143
王	-7.21226
無量	-7.21634
世	-7.22279
如來	-7.22649
境	-7.22842
釋	-7.23072
先	-7.23655
重	-7.2596
水	-7.25999
妙	-7.27023
唯	-7.27393
顯	-7.2766
覺	-7.28714
功德	-7.29026
稱	-7.29224
不能	-7.29439
。」【	-7.29619
取	-7.29751
力	-7.2985
六	-7.30192
依	-7.30545
歸	-7.31227
便	-7.31422
惡	-7.31478
不可	-7.32809
耶	-7.33508
鈔	-7.34392
開	-7.35731
次	-7.35905
持	-7.35957
須	-7.36302
汝	-7.36955
吾	-7.3732
將	-7.3763
化	-7.38059
色	-7.38428
外	-7.38737
土	-7.39089
離	-7.39488
語	-7.3962
耳	-7.39769
圓	-7.40478
立	-7.40588
且	-7.41543
疑	-7.42179
山	-7.42421
寶	-7.42817
住	-7.42844
過	-7.42857
即是	-7.43177
廣	-7.43212
一念	-7.4351
七	-7.44095
會	-7.44628
悟	-7.44727
聲	-7.44739
生死	-7.4481
他	-7.45134
異	-7.45273
家	-7.45422
由	-7.46015
華	-7.46739
小	-7.47133
戒	-7.4767
斷	-7.48128
宗	-7.48812
死	-7.4902
凡	-7.49933
更	-7.50082
攝	-7.51019
清淨	-7.51202
還	-7.51335
夫	-7.51467
照	-7.52417
示	-7.52925
餘	-7.53178
一心	-7.53185
僧	-7.53285
識	-7.53359
報	-7.53378
學	-7.53803
合	-7.53914
莫	-7.54016
不得	-7.54185
;	-7.54273
聖	-7.54364
哉	-7.54492
居	-7.54599
遠	-7.54712
八	-7.54764
物	-7.55664
指	-7.55708
德	-7.55719
往	-7.55941
長	-7.5617
度	-7.56178
猶	-7.56614
乃至	-7.56831
遂	-7.57757
俱	-7.57814
勸	-7.57828
音	-7.58261
答	-7.58444
▁南無	-7.59171
舉	-7.59203
使	-7.59229
法界	-7.5947
萬	-7.59615
滅	-7.59635
極	-7.59642
了	-7.59713
是故	-7.59979
位	-7.60241
坐	-7.60427
況	-7.60575
高	-7.61595
不知	-7.62079
易	-7.62165
轉	-7.62276
數	-7.62853
破	-7.63222
國	-7.63228
著	-7.63656
少	-7.63663
內	-7.63722
金	-7.63892
向	-7.6413
全	-7.64468
記	-7.64578
海	-7.64678
香	-7.6502
惟	-7.65095
神	-7.65407
豈	-7.65487
病	-7.65588
對	-7.65652
光明	-7.65969
風	-7.66163
引	-7.674
妄	-7.67881
極樂	-7.68072
方便	-7.68679
兩	-7.6905
焉	-7.69363
于	-7.69416
各	-7.69516
千	-7.69617
已	-7.69697
十方	-7.70472
食	-7.70722
到	-7.71004
約	-7.71166
口	-7.7192
流	-7.72042
安	-7.72257
世界	-7.7252
所謂	-7.72527
經云	-7.73326
根	-7.734
終	-7.73714
年	-7.73734
修行	-7.73768
尚	-7.73863
悉	-7.74599
共	-7.75067
斯	-7.75271
」	-7.7564
迷	-7.75665
思	-7.76011
所以	-7.76057
情	-7.76305
利	-7.7653
慧	-7.76662
好	-7.77079
禪	-7.77874
莊嚴	-7.78184
除	-7.78359
滿	-7.78736
直	-7.78885
始	-7.79379
。「	-7.79561
願往生	-7.79634
命	-7.79799
執	-7.80153
月	-7.80229
書	-7.80233
凡夫	-7.8072
感	-7.81087
止	-7.81917
捨	-7.8199
三昧	-7.82035
獨	-7.82123
百	-7.82647
公	-7.83052
界	-7.83124
集	-7.8356
總	-7.83786
西	-7.84012
法身	-7.84358
如此	-7.84581
娑婆	-7.84867
普	-7.85018
自然	-7.85194
福	-7.8525
清	-7.85647
親	-7.85748
益	-7.85936
世間	-7.86304
魔	-7.86777
劫	-7.87152
.	-7.87578
而不	-7.87851
頭	-7.87873
失	-7.87968
請	-7.87983
罪	-7.8809
成就	-7.88119
種	-7.88336
臨終	-7.89028
愛	-7.89524
九	-7.89998
讚	-7.90296
久	-7.90366
樹	-7.9075
傳	-7.90996
禮	-7.91139
動	-7.91754
路	-7.9239
機	-7.92455
字	-7.9289
邪	-7.92987
喻	-7.93941
切	-7.93958
造	-7.94016
見佛	-7.94767
結	-7.95003
略	-7.95115
蓮華	-7.9527
障	-7.9554
專	-7.96149
惑	-7.96293
徧	-7.96701
形	-7.96788
號	-7.9692
主	-7.97066
蓋	-7.9784
菩提	-7.98452
就	-7.98722
屬	-7.99415
種種	-7.99433
名為	-7.99912
法門	-8.00011
甚	-8.00527
間	-8.00649
壽	-8.0115
眼	-8.01548
像	-8.01581
。△	-8.01584
因緣	-8.01682
之人	-8.0192
夢	-8.02422
爾	-8.02445
足	-8.02644
火	-8.02864
大乘	-8.02916
○	-8.03399
乘	-8.03455
不同	-8.03555
地獄	-8.04276
煩惱	-8.05063
絕	-8.05496
故云	-8.0604
目	-8.06272
以為	-8.06703
達	-8.06742
故曰	-8.06842
手	-8.06868
遇	-8.07072
:「	-8.07099
持名	-8.07225
白	-8.07311
藏	-8.07634
卷	-8.07677
輕	-8.07766
超	-8.08388
功	-8.08516
習	-8.08636
宜	-8.08703
衣	-8.08768
假	-8.08984
殺	-8.09011
此經	-8.09171
首	-8.09307
無量樂	-8.09694
供養	-8.09883
忽	-8.10114
」「	-8.10145
施	-8.10415
此云	-8.10635
花	-8.10942
塵	-8.10955
無生	-8.11028
說法	-8.11199
念念	-8.11571
舍利弗	-8.11814
一一	-8.12301
古	-8.12459
釋迦	-8.12569
遍	-8.12717
兼	-8.13202
老	-8.13225
具足	-8.14711
第一	-8.15042
智慧	-8.15273
期	-8.1534
解脫	-8.15901
序	-8.15914
夜	-8.15987
氣	-8.16047
似	-8.16056
致	-8.16476
類	-8.16841
量	-8.16956
之心	-8.17016
發願	-8.17355
近	-8.17552
法師	-8.17565
虗	-8.17644
云何	-8.17673
順	-8.17716
只	-8.17933
究竟	-8.18002
早	-8.18664
反	-8.19068
精進	-8.1914
成佛	-8.19145
最	-8.19269
散	-8.19568
現前	-8.20122
寺	-8.20251
誠	-8.20372
?	-8.20908
母	-8.21884
敬	-8.22179
雲	-8.22381
元	-8.22511
存	-8.2269
和	-8.2286
佛法	-8.22942
靈	-8.22945
淨業	-8.22973
頓	-8.23251
自性	-8.23483
二者	-8.23588
並	-8.23653
計	-8.23725
縱	-8.23772
一切眾生	-8.23965
三界	-8.23995
不退	-8.24525
面	-8.24732
加	-8.24772
聽	-8.2492
墮	-8.25003
誦	-8.25447
偏	-8.25613
落	-8.25673
父母	-8.2581
句	-8.26535
又云	-8.2673
尊	-8.26935
珠	-8.27073
獲	-8.27277
世尊	-8.27842
息	-8.28081
以此	-8.28094
恐	-8.28155
慈	-8.28401
無有	-8.28505
喜	-8.2864
速	-8.28926
雜	-8.29117
譬如	-8.29729
涅槃	-8.30027
看	-8.30507
答曰	-8.30671
告	-8.30976
精	-8.3101
不離	-8.31399
生淨土	-8.31427
述	-8.3161
祖	-8.31626
十念	-8.31774
余	-8.31888
弟子	-8.32114
進	-8.32342
不信	-8.32553
登	-8.32593
一日	-8.32979
永	-8.33385
勿	-8.33663
參	-8.33778
志	-8.34034
周	-8.34156
東	-8.34202
脫	-8.34419
石	-8.34521
皆是	-8.34544
望	-8.34844
一心不亂	-8.3491
微	-8.34963
池	-8.34989
竟	-8.35138
行者	-8.35697
蓮	-8.35715
善根	-8.35761
國土	-8.36064
忘	-8.36426
都	-8.37033
幾	-8.37197
自心	-8.3726
之所	-8.37746
品	-8.3783
出家	-8.37908
固	-8.37983
辨	-8.38023
是也	-8.3816
決定	-8.38212
問曰	-8.38567
誰	-8.38938
趣	-8.39103
變	-8.39673
《	-8.39684
禪師	-8.40002
不生	-8.40098
尋	-8.40263
平	-8.40287
因果	-8.40456
穢	-8.40491
亡	-8.40515
居士	-8.40573
談	-8.40711
諸法	-8.40753
一者	-8.40803
》	-8.40877
消	-8.40918
無邊	-8.4112
觀經	-8.4123
被	-8.41505
三寶	-8.41982
靜	-8.42029
悲	-8.42066
奉	-8.4218
比	-8.4221
疾	-8.42328
彼佛	-8.42424
染	-8.42436
裏	-8.42605
寂	-8.43127
發心	-8.43339
亂	-8.43423
齊	-8.43445
貪	-8.43798
不可思議	-8.43853
表	-8.44
每	-8.44095
第二	-8.44373
一生	-8.4447
:『	-8.44658
無礙	-8.44752
華嚴	-8.44875
特	-8.44954
故知	-8.44963
人天	-8.45504
聲聞	-8.45923
却	-8.46004
懷	-8.46056
俗	-8.4668
不見	-8.46856
退	-8.47089
備	-8.47128
關	-8.47426
無明	-8.47586
葢	-8.47654
救	-8.47773
增	-8.47992
輪	-8.48005
如何	-8.48097
當知	-8.48349
自在	-8.48408
無不	-8.48989
昔	-8.49103
勤	-8.49117
是為	-8.49381
女	-8.49425
愚	-8.49601
助	-8.49853
忍	-8.49944
雙	-8.49968
不思議	-8.50004
列	-8.50194
君	-8.50247
太	-8.50332
漸	-8.50356
積	-8.50751
境界	-8.50777
垂	-8.508
恒	-8.51073
。○	-8.51119
懺	-8.51146
再	-8.51188
據	-8.51326
若不	-8.51429
得生	-8.51949
宿	-8.52085
林	-8.52159
放	-8.52187
九品	-8.52409
窮	-8.52494
收	-8.52519
影	-8.52533
宋	-8.5267
否	-8.52724
濟	-8.52743
七日	-8.52765
於此	-8.52928
無盡	-8.52973
決	-8.52981
予	-8.5326
那	-8.53518
交	-8.53853
容	-8.54076
遊	-8.54422
分別	-8.54545
平等	-8.54925
城	-8.54985
殊	-8.55057
虗空	-8.55084
之法	-8.55184
急	-8.5528
棄	-8.55355
讀	-8.55596
新	-8.5575
三觀	-8.55978
念佛三昧	-8.56156
設	-8.56373
嚴	-8.56424
堂	-8.56611
法性	-8.56665
實相	-8.56729
般若	-8.56916
唯心	-8.56941
懺悔	-8.56958
真如	-8.56997
翻	-8.57073
大師	-8.57155
之中	-8.57214
誓	-8.57332
室	-8.57765
是名	-8.58108
迴向	-8.58204
佛言	-8.58234
待	-8.58383
陰	-8.58436
的	-8.5848
厭	-8.58559
二乘	-8.58723
邊	-8.58885
慈悲	-8.5891
鳥	-8.59222
無所	-8.59392
橫	-8.59524
章	-8.59804
阿難	-8.59833
道場	-8.59893
藥	-8.60094
旨	-8.60245
壞	-8.60258
護	-8.60306
徹	-8.60413
歷	-8.6064
留	-8.60882
承	-8.60884
真實	-8.60903
氏	-8.61152
龍	-8.61375
原	-8.61456
恩	-8.61655
身心	-8.61718
詳	-8.61872
七寶	-8.62077
可以	-8.62177
陳	-8.62261
第三	-8.62445
判	-8.62525
士	-8.62549
剎	-8.63071
。」【【	-8.63427
半	-8.63477
亦無	-8.63747
故名	-8.63767
歡喜	-8.6385
玉	-8.63907
十二	-8.6404
臨	-8.64391
偈	-8.644
一時	-8.64612
朝	-8.64782
願力	-8.64954
唐	-8.65003
世人	-8.65128
痛	-8.65241
末	-8.65272
是以	-8.65322
譯	-8.65403
休	-8.65892
燈	-8.65915
一句彌陀	-8.65949
含	-8.66011
此土	-8.66117
咸	-8.66337
然後	-8.66374
簡	-8.66445
歲	-8.66643
賢	-8.66889
比丘	-8.67058
權	-8.67242
依正	-8.67505
覆	-8.67523
提	-8.677
接	-8.67773
細	-8.67784
亦不	-8.68086
堅	-8.68228
并	-8.68324
幸	-8.68377
徒	-8.68497
發菩提心	-8.6879
錄	-8.68853
天台	-8.68883
寧	-8.68927
興	-8.68948
端	-8.69098
曾	-8.69113
羅	-8.69135
今日	-8.69329
強	-8.69346
淺	-8.69423
載	-8.69474
許	-8.69499
鏡	-8.69821
治	-8.70048
飛	-8.70266
視	-8.70333
熟	-8.70394
密	-8.70427
畢	-8.71166
不取正覺	-8.71354
純	-8.71493
科	-8.71586
推	-8.71614
無上	-8.72731
大眾	-8.72741
害	-8.72753
守	-8.7293
資	-8.72967
鬼	-8.73073
彼國	-8.73542
南	-8.73645
三者	-8.73656
行人	-8.74618
觸	-8.74772
現在	-8.74841
契	-8.74854
印	-8.7504
五濁	-8.75068
茲	-8.75188
沒	-8.75216
融	-8.75254
極樂世界	-8.7528
任	-8.75387
愈	-8.75496
味	-8.75566
妄想	-8.75768
出世	-8.76
圓融	-8.76042
求生	-8.76088
。』	-8.76099
心性	-8.7612
官	-8.7618
觀音	-8.76332
我今	-8.76569
標	-8.76608
相應	-8.76645
良	-8.76713
座	-8.76835
冥	-8.76863
一人	-8.77197
悔	-8.77297
豈不	-8.77299
利益	-8.77353
無常	-8.77365
美	-8.77389
何以故	-8.7756
閒	-8.77602
法華	-8.77766
憂	-8.77939
若人	-8.78103
張	-8.78538
例	-8.78594
阿彌陀	-8.78983
舍	-8.7904
回	-8.79062
隱	-8.79235
大小	-8.79472
器	-8.79694
雨	-8.79846
生滅	-8.79894
逆	-8.79897
無非	-8.79948
血	-8.80023
幽	-8.80062
仁	-8.80342
節	-8.80372
▁|	-8.80632
謂之	-8.81023
寒	-8.81217
仰	-8.81309
諸天	-8.81391
運	-8.81531
貴	-8.81772
聚	-8.81791
經文	-8.82044
春	-8.8221
投	-8.82494
覩	-8.82558
波	-8.82755
三身	-8.82918
歎	-8.83196
省	-8.83559
可謂	-8.83599
參禪	-8.83696
玄	-8.83712
同居	-8.83897
蒙	-8.83897
客	-8.84038
神通	-8.84269
圖	-8.84591
求生淨土	-8.848
之時	-8.84843
臺	-8.84952
免	-8.85324
廣大	-8.85466
越	-8.8563
至於	-8.85729
輪迴	-8.85962
宣	-8.8605
彰	-8.86121
點	-8.86405
刻	-8.86459
底	-8.86621
儒	-8.86812
小乘	-8.87042
馬	-8.87112
正念	-8.87406
名號	-8.87472
父	-8.87579
隔	-8.87928
信心	-8.87955
木	-8.88111
纔	-8.88494
佛土	-8.885
文殊	-8.8868
臨命終時	-8.88747
無量壽佛	-8.88865
仍	-8.89042
辯	-8.89053
猶如	-8.89077
南無	-8.89103
。」	-8.89391
所說	-8.89413
導	-8.89638
遺	-8.90076
此是	-8.90162
途	-8.90179
互	-8.90348
伏	-8.90467
羣	-8.90482
十六	-8.90485
接引	-8.90553
億	-8.90766
次第	-8.90815
部	-8.90932
慮	-8.90951
幻	-8.91168
驗	-8.9119
露	-8.91208
何況	-8.91344
葉	-8.91417
不動	-8.9143
草	-8.91662
命終	-8.91704
網	-8.91778
單	-8.91853
聖人	-8.91876
盛	-8.91972
彼土	-8.92145
究	-8.92173
不如	-8.92491
而巳	-8.92522
回向	-8.92594
之理	-8.92669
講	-8.9268
安養	-8.9289
劣	-8.92896
不必	-8.92948
蓮花	-8.93369
亦有	-8.93416
未來	-8.93517
民	-8.93615
錢	-8.93627
癡	-8.93671
毀	-8.93691
尤	-8.93829
上品	-8.93835
不出	-8.94196
舌	-8.94226
名曰	-8.9446
傷	-8.94497
遣	-8.94505
仙	-8.94554
諸經	-8.9487
生彼	-8.95128
淨穢	-8.95201
智者	-8.9526
無間	-8.95262
名字	-8.95598
授	-8.95674
黃	-8.95882
降	-8.95889
念阿彌陀佛	-8.9591
題	-8.95916
預	-8.95991
豈非	-8.96077
持戒	-8.9638
得往生	-8.96509
合掌	-8.96576
願共諸眾生往生安樂國	-8.96631
江	-8.96692
源	-8.96705
生彼國	-8.96707
。】△	-8.96831
魚	-8.97143
所有	-8.97241
何以	-8.97403
唱	-8.97427
辭	-8.97441
雖有	-8.97499
一切法	-8.97695
帝	-8.97961
外道	-8.98002
背	-8.98018
其心	-8.98035
言之	-8.98152
亦名	-8.9822
濁	-8.98279
代	-8.98322
暗	-8.98331
肉	-8.98385
昏	-8.98493
制	-8.98607
惡業	-8.98655
阿	-8.98946
摩	-8.99021
不為	-8.9911
服	-8.99127
步	-8.99403
頂	-8.99475
分明	-8.9961
養	-8.99639
拜	-8.99723
三乘	-9.00321
何故	-9.004
稱名	-9.00547
善惡	-9.00798
無相	-9.00891
呪	-9.00896
悉皆	-9.00959
象	-9.00974
憶	-9.01024
錯	-9.01225
修淨土	-9.01233
犯	-9.01327
礙	-9.0136
普賢	-9.01529
婆	-9.01549
亦可	-9.01595
遙	-9.01602
逢	-9.01612
謗	-9.01662
笑	-9.01682
友	-9.01686
拔	-9.01891
不淨	-9.01925
詩	-9.01995
之說	-9.02107
務	-9.02223
金剛	-9.02324
至心	-9.02457
亦復如是	-9.0255
大願	-9.02552
佛國	-9.0258
報身	-9.02827
車	-9.02844
置	-9.02852
不二	-9.02913
我心	-9.03026
質	-9.03144
此則	-9.03168
過去	-9.03252
一句	-9.03656
有情	-9.03723
初心	-9.03789
弘	-9.03821
第四	-9.03856
所見	-9.03868
微妙	-9.03913
沙	-9.03958
孝	-9.0399
三業	-9.04041
曉	-9.04067
無量壽	-9.04138
若能	-9.04181
誤	-9.04205
迴	-9.04244
累	-9.04326
違	-9.04368
舟	-9.04407
晝夜	-9.048
適	-9.04943
四土	-9.05026
邪見	-9.052
他方	-9.05252
沈	-9.05316
鐵	-9.05327
苦海	-9.05602
呼	-9.05628
常住	-9.05713
眷屬	-9.0589
牛	-9.05934
暫	-9.06061
彌勒	-9.06063
供	-9.06121
寂光	-9.06128
之事	-9.06228
改	-9.06309
十方諸佛	-9.06644
有一	-9.06776
揚	-9.06879
可知	-9.06931
日月	-9.06993
某	-9.07475
其人	-9.07676
哀	-9.0769
漢	-9.07876
附	-9.07907
終日	-9.08092
財	-9.08249
觀佛	-9.08359
齋	-9.08465
大悲	-9.08523
律	-9.08649
塔	-9.08733
然則	-9.08824
有二	-9.08922
此心	-9.08958
聞法	-9.08994
梵	-9.09212
穢土	-9.09401
刀	-9.09494
之義	-9.09614
福德	-9.09772
事理	-9.09956
夫人	-9.10321
舊	-9.10444
天下	-9.10449
迎	-9.10595
有緣	-9.106
即得往生	-9.10602
相續	-9.10649
際	-9.10655
州	-9.10814
正法	-9.11003
亦是	-9.11018
徑	-9.11133
流通	-9.11134
堪	-9.11324
相好	-9.11394
心中	-9.11481
曲	-9.11533
爾時	-9.11535
受持	-9.12096
於是	-9.12195
伹	-9.122
又如	-9.12569
毛	-9.12863
兒	-9.12922
攝受	-9.13167
打	-9.13192
一聲	-9.13205
毒	-9.13275
二種	-9.13328
念彌陀	-9.13469
此等	-9.1351
託	-9.13638
▁二	-9.13672
患	-9.13885
大本	-9.13932
大士	-9.14029
昧	-9.14039
不成	-9.14195
陽	-9.14212
敢	-9.14227
阿彌	-9.14273
逐	-9.14463
佛身	-9.14467
西方淨土	-9.14682
本無	-9.1481
船	-9.14839
顛倒	-9.14851
該	-9.1494
獄	-9.15059
「	-9.15107
中道	-9.15165
佛說	-9.1529
不斷	-9.15358
修習	-9.15374
不覺	-9.15464
稍	-9.15616
音聲	-9.15708
譬	-9.15792
者也	-9.1604
梵語	-9.16076
憑	-9.16328
壽命	-9.16391
不可得	-9.16404
揀	-9.1642
觀想	-9.16584
沙門	-9.1686
思惟	-9.16972
祇	-9.16984
謝	-9.16994
沉	-9.17006
儀	-9.17076
禮拜	-9.17155
值	-9.17159
繫念	-9.17177
生者	-9.17269
安樂	-9.17323
建	-9.17347
富貴	-9.1735
誓願	-9.1737
北	-9.174
執持名號	-9.17423
尊者	-9.17426
萬法	-9.17523
諦	-9.1762
啟	-9.17781
脩	-9.17928
而為	-9.18148
輩	-9.18351
諸菩薩	-9.18377
百年	-9.18458
化佛	-9.18466
燒	-9.18556
一佛	-9.18679
信願	-9.18737
調	-9.18746
這	-9.18799
廢	-9.1882
宮	-9.18969
根本	-9.18971
三諦	-9.19024
今生	-9.19042
珍	-9.19179
不妨	-9.19265
天人	-9.1931
之言	-9.1948
欣	-9.19836
秋	-9.19871
謹	-9.19883
亦如是	-9.19933
階	-9.20119
往生淨土	-9.20131
勞	-9.20238
工夫	-9.20288
畜生	-9.2032
十八	-9.2037
來迎	-9.20373
更無	-9.20522
此方	-9.20619
法藏	-9.20697
學者	-9.20727
骨	-9.20729
此身	-9.20839
樓	-9.2085
冤	-9.20944
送	-9.20999
本來	-9.212
自巳	-9.21251
遮	-9.21353
狂	-9.21376
若無	-9.21579
青	-9.217
畢竟	-9.21795
繫	-9.21804
六根	-9.2191
甞	-9.22043
無數	-9.22186
玅	-9.22294
西方極樂世界	-9.2237
經中	-9.22635
若有	-9.22762
差別	-9.22818
肯	-9.22845
諸眾生	-9.22846
本性	-9.22892
莫不	-9.23049
讚歎	-9.23109
顧	-9.23231
遭	-9.233
多少	-9.23338
圓滿	-9.23552
怨	-9.2359
把	-9.23597
差	-9.23599
右	-9.23606
之後	-9.23625
倒	-9.23677
此人	-9.2369
不聞	-9.23843
懸	-9.24017
支	-9.24041
皆有	-9.24173
布	-9.2436
無窮	-9.24381
鳴	-9.24393
倍	-9.24449
奇	-9.24642
度生	-9.25036
深信	-9.25153
垢	-9.25224
三塗	-9.25241
豈可	-9.25319
演	-9.25391
牽	-9.25458
未能	-9.25519
三種	-9.25561
遵	-9.25597
胎	-9.25634
光佛	-9.25645
無量壽經	-9.25674
所作	-9.25678
辦	-9.26056
滯	-9.26311
遲	-9.26312
女人	-9.26367
淨土法門	-9.26558
佛剎	-9.26735
佛號	-9.26757
飲	-9.2706
苟	-9.27098
局	-9.27118
做	-9.27122
百千	-9.27125
敘	-9.27148
隨緣	-9.27333
臥	-9.27473
歸依	-9.27475
慕	-9.27526
連	-9.27746
作佛	-9.27928
程	-9.28159
中有	-9.28207
頌	-9.28291
鼓	-9.28302
受用	-9.28312
虛	-9.28497
!	-9.28506
枝	-9.28518
陀	-9.2863
嘗	-9.28689
色身	-9.28721
浮	-9.28801
八萬四千	-9.28941
是佛	-9.28962
佛性	-9.29054
泥	-9.29087
驚	-9.29112
損	-9.29138
和尚	-9.29246
祖師	-9.29251
舍利	-9.29255
之外	-9.29303
教人	-9.29362
河	-9.29387
畫	-9.29451
負	-9.29612
減	-9.29838
註	-9.29954
延	-9.30021
繁	-9.30344
恒沙	-9.30429
彌	-9.3062
▁初	-9.30675
男女	-9.30817
禪定	-9.31101
響	-9.31126
有三	-9.31157
憶念	-9.31273
果報	-9.31531
賊	-9.31909
貫	-9.31956
可見	-9.31979
一心念佛	-9.32318
或有	-9.32397
悅	-9.32704
招	-9.32767
盜	-9.32779
觧	-9.3279
皆悉	-9.32859
本願	-9.33042
受苦	-9.33131
而言	-9.3317
迹	-9.33216
箇	-9.33225
跡	-9.33248
爭	-9.33426
不識	-9.33438
而生	-9.33594
典	-9.33797
經論	-9.33822
古今	-9.33878
觀音勢至	-9.34067
一切諸佛	-9.34075
一法	-9.34215
己	-9.34247
贊	-9.34285
善知識	-9.3447
群	-9.34476
不肯	-9.34526
修道	-9.34573
文字	-9.34604
苦樂	-9.34865
薄	-9.34886
默	-9.35064
博	-9.35104
念佛者	-9.35331
禮佛	-9.35669
夏	-9.3575
無始	-9.35843
二初	-9.35878
之意	-9.35926
性具	-9.35996
慢	-9.3601
何處	-9.36052
不過	-9.36067
孤	-9.36096
故也	-9.3613
恨	-9.36169
麤	-9.36196
如上	-9.36236
便是	-9.36296
虛空	-9.36418
六道	-9.36531
堅固	-9.36628
星	-9.36631
田	-9.36673
謬	-9.36734
乞	-9.36955
寶樹	-9.36974
樂邦	-9.36975
統	-9.37014
篇	-9.37033
乖	-9.37074
圓頓	-9.37101
是則	-9.37114
復有	-9.37122
稱讚	-9.37308
東方	-9.37315
快樂	-9.37374
大海	-9.3765
戀	-9.37665
恭敬	-9.37682
詮	-9.37725
知識	-9.37727
條	-9.37792
筆	-9.37909
塵勞	-9.37941
不應	-9.38313
黑	-9.38316
弗	-9.38327
李	-9.38327
惱	-9.38365
相似	-9.38579
等者	-9.38644
熱	-9.38779
紅	-9.38839
天樂	-9.38887
佛名	-9.38889
而無	-9.38928
十方世界	-9.38953
不然	-9.39093
屋	-9.39159
睡	-9.39223
幢	-9.39343
三德	-9.39362
纏	-9.3964
盖	-9.39676
四十八願	-9.39855
四句	-9.39898
稽首	-9.39901
三十	-9.39935
巧	-9.39994
金色	-9.40012
審	-9.40034
初明	-9.40059
處處	-9.40103
之道	-9.40112
化身	-9.40117
我等	-9.40121
準	-9.40124
此乃	-9.40132
旋	-9.40145
之相	-9.40215
隨意	-9.40235
縛	-9.40512
追	-9.40544
廬山	-9.40608
永明	-9.40634
缺	-9.40711
又曰	-9.40851
婬	-9.41242
十界	-9.41256
不足	-9.41266
繼	-9.41358
較	-9.41377
?」	-9.4138
直指	-9.41478
護念	-9.4154
岸	-9.41626
段	-9.41636
後世	-9.4181
何為	-9.41817
澄	-9.41855
無為	-9.41934
布施	-9.41959
則無	-9.41978
慶	-9.42089
十萬	-9.42091
不住	-9.42334
宏	-9.42356
設我得佛	-9.42364
無漏	-9.42432
鄉	-9.4247
之間	-9.42539
游	-9.42807
喪	-9.42855
禁	-9.42879
不善	-9.43041
何不	-9.43053
各有	-9.43126
必須	-9.43161
徵	-9.43199
顏	-9.43205
走	-9.43254
閑	-9.43265
彼此	-9.43276
蕩	-9.43299
吳	-9.43316
孰	-9.43439
其中	-9.43483
亦然	-9.43552
增長	-9.43582
全體	-9.43616
盲	-9.43795
二十	-9.43941
其所	-9.43943
惜	-9.43975
希	-9.44036
念佛人	-9.44091
帶	-9.44169
富	-9.44232
三世	-9.44296
非是	-9.44345
惡道	-9.44351
不可以	-9.4447
偈云	-9.44521
潔	-9.44542
髮	-9.44656
五陰	-9.44717
不及	-9.44774
飯	-9.44816
移	-9.44819
續	-9.44866
殺生	-9.44934
注	-9.44971
感應	-9.45001
有漏	-9.45075
有何	-9.45082
剎那	-9.45151
同一	-9.45343
淨土之	-9.45536
阿彌陀經	-9.45585
無念	-9.45656
臣	-9.45659
申	-9.45674
貧	-9.45684
即心	-9.45948
見彌陀	-9.45974
避	-9.4609
寄	-9.46109
飲食	-9.46186
勉	-9.46195
一乘	-9.46261
惡趣	-9.46354
空中	-9.46388
依報	-9.46436
未得	-9.46469
鉢	-9.46558
乾	-9.46586
餓鬼	-9.46593
云云	-9.46604
聖眾	-9.46618
領	-9.46628
彌陀經	-9.46921
化生	-9.46982
庶	-9.47068
狀	-9.47074
無量無邊	-9.47209
勢至	-9.47254
毫	-9.47256
願我	-9.47257
六時	-9.47264
圓教	-9.47467
准	-9.47498
活	-9.47499
崇	-9.47529
素	-9.47578
實報	-9.47607
一拜	-9.4761
正報	-9.47652
楞嚴	-9.47713
釋曰	-9.47786
生佛	-9.47793
本具	-9.47889
社	-9.48039
應身	-9.48065
訓	-9.4807
汝等	-9.48071
人間	-9.48077
內外	-9.48152
殿	-9.48153
生西方	-9.48201
為人	-9.48224
十四	-9.48278
隨順	-9.48379
之身	-9.48426
極樂國土	-9.48485
授記	-9.48607
漏	-9.48704
下品	-9.48854
酒	-9.48942
保	-9.48945
念佛法門	-9.48949
平生	-9.4895
自力	-9.48967
脚	-9.48999
而有	-9.4901
盈	-9.4905
遷	-9.49136
受生	-9.49265
最勝	-9.49269
話	-9.49472
論云	-9.49485
五百	-9.49498
寂滅	-9.4951
是知	-9.49557
不起	-9.49853
長者	-9.49858
才	-9.49935
返	-9.49945
修持	-9.49978
無二	-9.49993
晉	-9.49998
四諦	-9.50048
黃金	-9.50066
寶池	-9.50232
寸	-9.50243
彌陀佛	-9.50442
各各	-9.50453
溺	-9.50477
不敢	-9.50557
亦非	-9.50584
佛力	-9.5068
微塵	-9.50712
甘	-9.50862
甚深	-9.50922
必有	-9.50938
自他	-9.51007
生極樂	-9.51155
限	-9.51161
得見	-9.51203
▁一心頂禮	-9.51227
歟	-9.51468
萬行	-9.51573
豈有	-9.51575
里	-9.51614
真心	-9.51686
熏	-9.51768
所居	-9.51857
正覺	-9.51932
蛇	-9.51952
借	-9.51977
抑	-9.52017
一卷	-9.52106
未知	-9.52178
能所	-9.5235
賢聖	-9.52386
故言	-9.52411
醒	-9.52431
認	-9.52448
三途	-9.52643
三藏	-9.5273
洞	-9.52781
佛告	-9.528
前後	-9.52931
皮	-9.52947
勢	-9.53211
迦	-9.53328
第	-9.53331
無別	-9.53401
趨	-9.53422
不受	-9.53438
姓	-9.53577
緣起	-9.53681
時時	-9.53767
十五	-9.53858
之類	-9.53864
忙	-9.53949
可得	-9.53961
所生	-9.53983
包	-9.54002
三千	-9.54014
閻浮	-9.54031
卒	-9.54052
人人	-9.54062
懼	-9.54095
塗	-9.54292
則知	-9.54324
弟	-9.54413
第十	-9.54503
映	-9.54513
按	-9.54537
折	-9.54566
大地	-9.54587
五欲	-9.54597
取捨	-9.5464
佛之	-9.54653
行願	-9.54754
四者	-9.54813
察	-9.5496
瞋	-9.54998
唯有	-9.55021
歌	-9.55061
天地	-9.55078
用心	-9.55159
試	-9.55243
和合	-9.55281
二義	-9.55343
考	-9.55466
開示	-9.55514
枯	-9.5554
詞	-9.55583
之士	-9.55638
度眾生	-9.55639
清涼	-9.55642
所證	-9.55648
四大	-9.55718
其義	-9.55769
而得	-9.55783
若有眾生	-9.55833
萬劫	-9.56005
磨	-9.56013
管	-9.56052
上品上生	-9.56083
信受	-9.56153
古人	-9.56192
二字	-9.56384
聖教	-9.56406
衰	-9.56424
為一	-9.56566
藉	-9.56596
菴	-9.566
皇	-9.56622
是人	-9.56886
心不	-9.56893
不是	-9.56917
華開	-9.56993
願生彼國	-9.57041
逃	-9.57052
雷	-9.57097
未有	-9.57217
仗	-9.57248
惡人	-9.57287
之力	-9.57298
須知	-9.57429
無我	-9.57432
營	-9.57485
涉	-9.57504
私	-9.57628
升	-9.5767
專念	-9.57692
不捨	-9.57707
須彌	-9.57713
十種	-9.579
殊勝	-9.57951
補	-9.58129
編	-9.58197
怒	-9.58232
初地	-9.58245
終身	-9.58358
四教	-9.58484
蓮池	-9.58574
修淨業	-9.58665
充	-9.58671
最為	-9.58672
胡	-9.58735
滅罪	-9.58804
侍	-9.5885
若是	-9.58906
本覺	-9.5895
十一	-9.5899
又復	-9.59004
即此	-9.59047
亦爾	-9.59104
赴	-9.59115
專心	-9.59119
善友	-9.59168
今人	-9.59169
由是	-9.59237
以上	-9.59261
閱	-9.59286
第六	-9.59289
有人	-9.59293
粗	-9.59298
觀之	-9.59319
是心	-9.59416
稱佛	-9.59417
之旨	-9.59515
孔子	-9.5955
擇	-9.59568
四種	-9.59684
院	-9.59783
寫	-9.59791
雪	-9.59809
竊	-9.59842
得道	-9.59882
皆可	-9.60185
勸人	-9.60257
乃是	-9.60326
愧	-9.60387
往來	-9.60401
神力	-9.60501
每日	-9.60564
何得	-9.60613
之有	-9.60701
即生	-9.60705
然而	-9.60758
今經	-9.6077
愁	-9.60776
無上菩提	-9.60798
塵沙	-9.60869
殘	-9.6093
四字	-9.61019
愚癡	-9.61032
未嘗	-9.61101
人之	-9.61142
不須	-9.61238
:	-9.61242
業障	-9.61247
湯	-9.61502
念佛之人	-9.61543
欲界	-9.61577
佛道	-9.6169
菩薩摩訶薩	-9.61708
正因	-9.61782
聞者	-9.61793
人生	-9.618
未盡	-9.61872
怖	-9.61949
猛	-9.62075
以至	-9.62082
所得	-9.62118
身土	-9.62164
聖賢	-9.62325
凡聖	-9.62327
術	-9.62386
而後	-9.62528
左	-9.62539
索	-9.62589
本師	-9.62596
如斯	-9.62642
任運	-9.62666
之功	-9.62667
尼	-9.62713
端坐	-9.62772
正是	-9.62786
樓閣	-9.62829
不用	-9.62936
短	-9.63019
馳	-9.63079
閉	-9.63093
符	-9.63168
心念	-9.63172
威	-9.63187
法王	-9.63219
疏云	-9.6322
往生者	-9.63253
聲聲	-9.63299
淨土樂	-9.63477
當來	-9.63536
泯	-9.63674
從此	-9.63684
如來藏	-9.63689
克	-9.63733
瞻	-9.63742
乳	-9.63742
六度	-9.63883
何者	-9.63933
墜	-9.64021
至心歸命禮西方阿彌陀佛	-9.64176
第五	-9.64215
此法	-9.64285
誦經	-9.64415
之苦	-9.6446
出離	-9.6453
之因	-9.64714
無量光	-9.64728
即得	-9.64824
得生淨土	-9.6485
則有	-9.64855
如人	-9.65097
閣	-9.65128
性體	-9.65159
即佛	-9.65177
又有	-9.65295
萬德	-9.65303
末法	-9.65303
須臾	-9.65395
寬	-9.65412
囑	-9.65441
觀行	-9.65443
付	-9.65453
五逆	-9.65548
難信	-9.65564
今初	-9.65616
排	-9.65955
不忘	-9.66001
淚	-9.66005
倘	-9.66026
泉	-9.66039
不異	-9.6606
虎	-9.66068
快	-9.66121
其身	-9.66142
孫	-9.66272
倫	-9.66345
唯心淨土	-9.66358
四明	-9.66374
楊	-9.66554
透	-9.66594
種子	-9.66734
補處	-9.66769
皆得	-9.66869
嘆	-9.66955
妙法	-9.67114
正法樂	-9.67114
執持	-9.67118
誑	-9.67153
責	-9.6716
冬	-9.67167
朗	-9.67169
臂	-9.67183
噫	-9.67186
現世	-9.67253
撰	-9.67254
不求	-9.67273
無餘	-9.67302
如是等	-9.67493
此理	-9.67494
之處	-9.67523
遠離	-9.67583
人也	-9.67684
外無	-9.67715
下至	-9.67729
嘉	-9.67754
禪宗	-9.67762
洗	-9.67769
酬	-9.67776
無異	-9.68046
梁	-9.68129
不念	-9.68146
應當	-9.68147
佛前	-9.68213
心淨	-9.68289
迦葉	-9.68406
眾苦	-9.68468
而化	-9.68626
)。(	-9.68645
十三	-9.68668
鬼神	-9.68772
今此	-9.68795
不退轉	-9.68831
毋	-9.68956
課	-9.6899
間斷	-9.69028
之行	-9.69072
更有	-9.69127
之境	-9.69177
頃	-9.69286
暮	-9.69299
所成	-9.6933
尺	-9.69465
努力	-9.69477
有大	-9.69678
國王	-9.69685
見阿彌陀佛	-9.69803
畏	-9.69843
阿羅漢	-9.6993
赤	-9.69954
之名	-9.69987
教主	-9.69989
放生	-9.7003
方等	-9.70063
師曰	-9.701
大事	-9.70119
向西	-9.70121
儞	-9.70139
毗	-9.70164
披	-9.70168
所言	-9.70195
若言	-9.70213
奚	-9.70216
翁	-9.70223
亦云	-9.70226
觀察	-9.70261
圓覺	-9.7037
復次	-9.70498
生於	-9.70522
則不	-9.7058
於佛	-9.7059
十六觀	-9.70784
但能	-9.70786
奪	-9.7081
展轉	-9.70832
終不	-9.70908
自有	-9.7106
所修	-9.71137
願生	-9.71216
在家	-9.71231
晚	-9.71265
為宗	-9.7138
頗	-9.71393
或曰	-9.71567
兜率	-9.71582
十聲	-9.71625
散亂	-9.71764
遠公	-9.71821
金臺	-9.71833
不變	-9.71859
了知	-9.71944
率	-9.71976
於中	-9.72078
八萬	-9.72107
心心	-9.72176
現身	-9.72255
實有	-9.72336
三日	-9.72364
逼	-9.72421
觀法	-9.72531
飾	-9.72565
洲	-9.72577
掌	-9.72593
琉璃	-9.72594
扶	-9.72628
丈六	-9.72678
總持	-9.73061
重罪	-9.73101
二明	-9.73132
醫	-9.73152
房	-9.73157
測	-9.73222
壁	-9.73241
疏鈔	-9.73371
法音	-9.73452
能令	-9.73612
不在	-9.73741
而逝	-9.73805
冠	-9.73818
去來	-9.73835
效	-9.73864
真空	-9.73873
假名	-9.73882
不絕	-9.73941
變化	-9.73961
至誠	-9.73988
中之	-9.73997
上下	-9.74045
真諦	-9.74134
十地	-9.7417
融通	-9.74185
欺	-9.74191
不著	-9.74252
成正覺	-9.74298
童子	-9.74397
冷	-9.74421
腹	-9.74447
煩	-9.74473
嗚呼	-9.745
菩提心	-9.74511
斥	-9.7453
夕	-9.74638
此之	-9.74717
千里	-9.74735
觀經云	-9.74885
男	-9.74897
不壞	-9.74921
之語	-9.74935
不定	-9.75023
莊	-9.75074
魂	-9.75108
忠	-9.75109
俾	-9.7512
植	-9.75135
不修	-9.75165
壇	-9.75169
均	-9.75197
之曰	-9.75327
夢中	-9.75329
目前	-9.75348
入道	-9.75365
太子	-9.75456
人中	-9.75473
此事	-9.75484
經言	-9.75604
工	-9.75699
正信	-9.75909
場	-9.75984
有四	-9.76077
不論	-9.76104
不相	-9.76134
十信	-9.76295
不了	-9.76314
宅	-9.76338
仲	-9.76355
促	-9.76366
棲	-9.76367
或云	-9.76465
何須	-9.76546
停	-9.76604
此一	-9.76616
惟心	-9.76664
拘	-9.76727
圓通	-9.76756
喚	-9.76783
如前	-9.76901
昭	-9.76908
渡	-9.76977
豎	-9.77004
嗔	-9.77005
侶	-9.77009
所能	-9.77016
韋提	-9.77051
眾等	-9.77086
無心	-9.77187
行道	-9.77262
多劫	-9.7727
童	-9.77334
故名為	-9.77346
憫	-9.77348
大千	-9.77427
釋迦如來	-9.77439
利根	-9.77477
妄語	-9.77491
不礙	-9.77535
浪	-9.77624
晨	-9.77631
履	-9.77673
覓	-9.77692
召	-9.77699
軌	-9.77725
䟦	-9.77744
宛然	-9.77775
十九	-9.77811
一塵	-9.78036
深心	-9.78053
苦惱	-9.78074
▁三	-9.78163
知其	-9.78199
禍	-9.78298
䇿	-9.78307
園	-9.78326
緩	-9.78356
校	-9.78359
獻	-9.78375
燭	-9.78377
真性	-9.78405
三十二相	-9.78511
皆為	-9.78666
止觀	-9.78712
不亂	-9.78793
歷劫	-9.78833
不復	-9.78834
鈍	-9.78839
一處	-9.78847
學道	-9.78859
偽	-9.78887
教化	-9.78934
鼻	-9.78952
闇	-9.78954
防	-9.78967
擬	-9.79006
委	-9.79025
隨其	-9.79044
善男子	-9.79246
善業	-9.79323
三教	-9.79349
方能	-9.79564
鈍根	-9.79567
兄	-9.79632
欲得	-9.79638
綱	-9.79645
武	-9.79651
諱	-9.79652
韋提希	-9.79652
怕	-9.79669
五十	-9.79794
是真	-9.79905
之際	-9.80041
多生	-9.80197
所願	-9.80299
選	-9.80356
唯識	-9.80386
善人	-9.80396
佛祖	-9.80397
光照	-9.80502
發起	-9.80595
華嚴經	-9.80693
應知	-9.80711
大本云	-9.80766
三年	-9.80809
焚	-9.80839
戶	-9.80863
竪	-9.81008
午	-9.81024
令其	-9.81036
眾生心	-9.8108
初釋	-9.81096
厭離	-9.81105
宮殿	-9.81257
偈曰	-9.81335
何必	-9.81361
釋迦牟尼佛	-9.8143
隨喜	-9.81439
心者	-9.81459
之體	-9.81534
作此	-9.81539
頂禮	-9.81631
觀世音菩薩	-9.81655
僅	-9.81687
羅漢	-9.81689
及諸	-9.81708
無可	-9.81728
心外	-9.8179
此即	-9.8181
親近	-9.81862
善導	-9.81925
中初	-9.81928
知見	-9.82058
自身	-9.82074
莫能	-9.82091
此三	-9.82094
心境	-9.82156
普勸	-9.82162
無作	-9.82228
一經	-9.82301
擊	-9.82304
勇猛	-9.82318
你	-9.82325
危	-9.82333
烏	-9.82348
庵	-9.82355
絲	-9.82356
祈	-9.82362
飢	-9.82375
第八	-9.82476
心無	-9.82501
第一義	-9.82649
非一	-9.82656
大慈悲	-9.82691
死生	-9.82799
為我	-9.82821
見聞	-9.8294
臭	-9.8299
陵	-9.82995
此中	-9.83001
蟲	-9.83005
天竺	-9.8301
屈	-9.83013
片	-9.83017
闡	-9.83021
闕	-9.83039
二菩薩	-9.83052
在此	-9.83059
混	-9.83062
個	-9.83068
弊	-9.8309
熾然	-9.8313
佛心	-9.83137
亦如	-9.83157
憐	-9.83198
十惡	-9.83207
由旬	-9.8323
大聖	-9.83324
不滅	-9.83371
稱性	-9.83464
嗟	-9.83608
第七	-9.83612
大慈	-9.83614
可不	-9.83655
稟	-9.83715
十萬億	-9.83719
魏	-9.83722
誡	-9.83778
有所	-9.8381
願行	-9.83818
無益	-9.84
師子	-9.84096
未必	-9.84105
示現	-9.84138
谷	-9.84253
歇	-9.84337
奏	-9.84349
賴	-9.84356
饒	-9.84359
冰	-9.84399
紙	-9.844
費	-9.84407
以是	-9.84408
蓮社	-9.8444
希有	-9.8451
建立	-9.84575
難成	-9.84586
法中	-9.84621
是心是佛	-9.84625
與佛	-9.84657
見思	-9.84673
以來	-9.84782
之內	-9.84816
議	-9.84915
虗妄	-9.84984
景	-9.8503
龍樹	-9.85084
史	-9.85085
國中	-9.85087
彈指	-9.85119
他力	-9.85123
麗	-9.85124
雲棲	-9.85138
怪	-9.85141
是我	-9.85239
淨心	-9.85242
五者	-9.85282
第九	-9.8529
為之	-9.85326
其有	-9.85401
今以	-9.85446
妄心	-9.85457
峯	-9.8547
直至	-9.85553
峰	-9.85778
慎	-9.8578
伴	-9.85802
康	-9.85815
之極	-9.85849
換	-9.85874
諍	-9.8588
決定往生	-9.85962
豈能	-9.85963
度脫	-9.8601
一體	-9.86051
光陰	-9.86096
為善	-9.86115
何如	-9.86127
不思	-9.86157
奈何	-9.86294
拈	-9.86337
病苦	-9.86383
亦得	-9.86425
詣	-9.86437
心佛	-9.86465
濫	-9.86526
般	-9.86537
割	-9.86539
秦	-9.86547
念佛門	-9.86555
此言	-9.86651
或問	-9.86693
面西	-9.86724
旦	-9.86747
南無至心歸命禮西方阿彌陀佛	-9.86861
傾	-9.86884
理事	-9.87058
九界	-9.87116
偶	-9.87145
消滅	-9.87229
願者	-9.87237
蔽	-9.8724
竹	-9.87256
有二種	-9.87281
瑠璃	-9.87363
二門	-9.87455
圓成	-9.87469
是非	-9.87481
諸佛菩薩	-9.87497
得聞	-9.87644
非但	-9.87655
險	-9.87713
榮	-9.87823
撥	-9.87925
冀	-9.87951
丹	-9.87956
新疏	-9.87993
輒	-9.88018
o	-9.88057
N	-9.88057
實無	-9.88074
老人	-9.88169
若欲	-9.88177
之徒	-9.88206
自利	-9.88213
墮地獄	-9.88296
修福	-9.88313
四眾	-9.88329
二釋	-9.88344
不可說	-9.88433
下明	-9.88467
而去	-9.88477
萬物	-9.8849
未曾	-9.88512
妻	-9.88544
若此	-9.88552
軍	-9.88573
天眼	-9.88643
彩	-9.88648
勇	-9.88669
忻	-9.88676
頻	-9.88684
托	-9.88689
夙	-9.88693
配	-9.88693
振	-9.88708
秪	-9.88738
此二	-9.88776
亦復	-9.88816
法華經	-9.88879
能觀	-9.8892
經說	-9.88932
為此	-9.88955
方得	-9.88957
不言	-9.8909
有此	-9.89176
有佛	-9.8927
蘇	-9.89312
伽	-9.89338
大道	-9.89376
優	-9.89382
塞	-9.89424
資糧	-9.89431
慚愧	-9.89459
感應道交	-9.89474
之大	-9.8958
良以	-9.89602
暇	-9.8967
人民	-9.89686
無所不	-9.89811
敷	-9.8982
即見	-9.89849
義也	-9.89936
佛所	-9.9007
誘	-9.9013
修證	-9.90193
善法	-9.90198
六十	-9.90202
而說	-9.90261
有餘	-9.90317
四十	-9.90344
所現	-9.90452
二邊	-9.90486
薉	-9.90567
六字	-9.90575
見之	-9.90608
相即	-9.90788
雖然	-9.90853
不容	-9.90854
出三界	-9.9088
不失	-9.90892
班	-9.90903
所以者何	-9.90935
自見	-9.90998
之教	-9.91073
平日	-9.91344
疑惑	-9.91361
重重	-9.91411
令人	-9.9144
同歸	-9.91458
本有	-9.91465
隨機	-9.91466
一身	-9.91476
專修	-9.91536
氷	-9.91628
賓	-9.91637
佛告阿難	-9.91652
昇	-9.91657
娑婆世界	-9.91689
井	-9.91691
前世	-9.91701
千萬	-9.91709
地上	-9.91973
至今	-9.91995
罪業	-9.92093
難思	-9.92238
理一心	-9.92338
竭	-9.92365
繇	-9.92378
野	-9.92405
兵	-9.92418
慚	-9.92428
縣	-9.92429
十善	-9.92432
目連	-9.9245
之妙	-9.92458
不達	-9.92473
墮落	-9.92589
是心作佛	-9.92593
厚	-9.92621
一切佛	-9.9264
無畏	-9.92702
一切諸法	-9.92737
以其	-9.92849
造罪	-9.92955
倚	-9.93152
日日	-9.93164
嫌	-9.9317
鄙	-9.93172
淫	-9.93176
成道	-9.9319
火宅	-9.93211
天宮	-9.93218
威神	-9.93335
妙覺	-9.93527
願生淨土	-9.93559
諸惡	-9.93746
先生	-9.93854
爛	-9.9388
角	-9.93889
枉	-9.93894
捷徑	-9.93921
着	-9.93922
思之	-9.93925
殃	-9.93951
刊	-9.93972
有無	-9.93994
色界	-9.94053
佛語	-9.94055
辛	-9.94137
眾寶	-9.94167
不以	-9.94173
王佛	-9.94239
後學	-9.9424
之樂	-9.94249
波羅蜜	-9.94437
之門	-9.94448
其餘	-9.94501
渠	-9.94646
旁	-9.94647
穩	-9.94652
灰	-9.94685
戰	-9.94715
三品	-9.94799
正好念佛	-9.94872
放光	-9.94912
遇善知識	-9.94949
安得	-9.94952
不來	-9.95136
經行	-9.95139
日夜	-9.95173
洪	-9.95226
則是	-9.9527
瑞	-9.95368
渾	-9.95394
正行	-9.95423
震	-9.9543
司	-9.9547
行住坐臥	-9.95478
愆	-9.95479
別教	-9.95486
般舟三昧樂	-9.95492
罰	-9.95493
訣	-9.95498
天上	-9.95579
南無阿彌陀佛	-9.95631
不明	-9.95706
衣食	-9.95764
紫	-9.9579
不盡	-9.95803
又舍利弗	-9.95893
十六觀經	-9.95971
災	-9.96023
正觀	-9.96062
當生	-9.96119
誨	-9.96217
空寂	-9.96224
幼	-9.96241
牀	-9.96253
警	-9.96271
威儀	-9.96283
何謂	-9.9636
下文	-9.96467
佛者	-9.96488
五戒	-9.96688
了義	-9.96782
敵	-9.96988
算	-9.96996
罔	-9.97003
之要	-9.97033
懈怠	-9.97051
淨宗	-9.97097
何等	-9.97174
念力	-9.9718
他人	-9.97263
稱念	-9.97607
散心	-9.97628
川	-9.97635
即空	-9.97735
放下	-9.97737
有異	-9.97783
弱	-9.9779
床	-9.9781
政	-9.97819
高下	-9.97838
辰	-9.97848
一日一夜	-9.97854
何所	-9.97949
定慧	-9.98045
白佛言	-9.9813
性德	-9.98206
三毒	-9.98294
唯願	-9.98386
逝	-9.98409
念者	-9.98424
於彼	-9.98424
未免	-9.98441
讀誦	-9.98455
三輩	-9.98493
最後	-9.9851
何也	-9.98548
侵	-9.98608
哭	-9.9861
俟	-9.98644
軀	-9.98645
訶	-9.98656
十七	-9.98733
彼佛國土	-9.98772
二句	-9.98902
一向	-9.98922
佛教	-9.9893
始覺	-9.98944
無知	-9.98959
聖凡	-9.99014
諦觀	-9.99069
異香	-9.99105
而復	-9.99142
六祖	-9.9923
大勢至	-9.99232
今之	-9.99262
不假	-9.99324
福報	-9.99334
紀	-9.99413
敗	-9.99439
惠	-9.99453
說誠實言	-9.99468
籠	-9.99472
聞名	-9.99492
佛事	-9.99627
別有	-9.99648
思量	-9.99701
遠近	-9.99752
答云	-9.99788
學人	-9.99803
金口	-9.99907
彌陀願力	-9.99959
證明	-10.0008
修觀	-10.0011
宗門	-10.0015
齒	-10.0018
參究	-10.0018
為體	-10.0022
銅	-10.0023
甘露	-10.0026
欲令	-10.0026
係	-10.0026
瓔珞	-10.0027
一切諸佛所護念經	-10.003
微細	-10.0033
一門	-10.0036
由此	-10.0042
當念	-10.0047
性空	-10.0057
如幻	-10.006
九十	-10.0068
一字	-10.0077
觀心	-10.0079
恒河沙	-10.0089
修善	-10.0092
皆由	-10.0094
圍	-10.0101
一千	-10.0101
完	-10.0102
慈心	-10.0107
淺深	-10.0125
妙觀	-10.0126
而成	-10.0136
得不退轉	-10.0139
不免	-10.015
法界眾生	-10.0159
同時	-10.016
其意	-10.0161
攝心	-10.017
凡有	-10.0173
摩尼	-10.0184
泛	-10.0185
禽	-10.019
吐	-10.0193
族	-10.0194
往西方	-10.0196
忽然	-10.0199
妄念	-10.0201
導師	-10.0204
蓮臺	-10.0204
如水	-10.0207
之文	-10.0211
域	-10.0212
發明	-10.0213
胎生	-10.0222
之地	-10.0227
因此	-10.0241
始終	-10.0246
二十五	-10.025
日課	-10.025
蘊	-10.0262
眉	-10.0262
無疑	-10.0265
御	-10.027
盤	-10.0272
競	-10.0275
之日	-10.0278
皆從	-10.0279
左右	-10.0279
道俗	-10.0283
中下	-10.0288
不虗	-10.0294
之本	-10.0298
明了	-10.0312
只要	-10.032
吾心	-10.033
困	-10.0339
賜	-10.0344
商	-10.0347
碧	-10.0348
造惡	-10.0348
道品	-10.0348
暢	-10.0355
五濁惡世	-10.0358
基	-10.036
方知	-10.037
故有	-10.0371
而非	-10.0371
對治	-10.0377
但有	-10.0382
作是	-10.0399
白毫	-10.0402
道者	-10.0402
而修	-10.0404
三明	-10.0405
四十八	-10.0407
如意	-10.0409
非真	-10.0411
所感	-10.0413
只是	-10.0414
總結	-10.0414
其事	-10.0415
西向	-10.0418
無差別	-10.0418
三聖	-10.0429
爐	-10.0436
兮	-10.0438
劉	-10.0438
番	-10.0439
瓶	-10.0439
穿	-10.044
維	-10.044
溪	-10.0442
諸大	-10.0443
吞	-10.0445
抱	-10.0447
無能	-10.0449
果能	-10.0455
本是	-10.0464
念佛往生	-10.0468
而來	-10.047
食肉	-10.0478
佛像	-10.0485
但以	-10.0486
甚多	-10.0489
次釋	-10.0493
干	-10.0505
勤修	-10.0506
功行	-10.051
寶華	-10.052
語言	-10.052
不待	-10.052
生安養	-10.0522
吟	-10.0523
規	-10.0525
埋	-10.0526
八十	-10.0529
祥	-10.053
所攝	-10.053
得見佛	-10.053
邦	-10.0532
鮮	-10.0533
一生補處	-10.0533
諸人	-10.0533
有五	-10.0545
壽命無量	-10.0548
世之	-10.0561
花開	-10.0562
不疑	-10.0567
天王	-10.0569
篤	-10.0572
而自	-10.0574
等覺	-10.0578
互相	-10.0585
畜	-10.0587
身後	-10.0599
恣	-10.0606
甲	-10.0607
雅	-10.0609
呵	-10.0612
若不爾者	-10.0614
解釋	-10.0616
流轉	-10.062
本自	-10.0624
衣服	-10.0624
愍	-10.0627
無障礙	-10.0632
之謂也	-10.0632
淨土者	-10.0648
山居	-10.0656
勝劣	-10.0663
供佛	-10.0665
利他	-10.0666
理性	-10.0667
是謂	-10.0668
至此	-10.0675
若非	-10.0679
決疑	-10.07
鸞	-10.07
繩	-10.0702
如是等恒河沙數諸佛	-10.0703
匪	-10.0704
芳	-10.0704
不許	-10.0717
勸信	-10.0718
隨心	-10.073
二人	-10.0733
頓悟	-10.074
良由	-10.0742
問答	-10.0743
徃生	-10.075
觀世音	-10.0751
修淨業者	-10.0753
求生西方	-10.0765
起信	-10.0768
愚人	-10.0771
要知	-10.0773
狹	-10.0782
稱佛名	-10.0783
荒	-10.0783
夭	-10.0786
怠	-10.0787
潛	-10.0787
茶	-10.0788
尚不	-10.0789
諸上善人	-10.0795
▁【	-10.0799
吹	-10.0808
魔事	-10.0817
心生	-10.0818
自性彌陀	-10.0819
彼則	-10.0821
諸苦	-10.0824
聞之	-10.0826
住處	-10.0828
因中	-10.0829
其實	-10.0849
嚴淨	-10.0856
萬里	-10.0864
我佛	-10.0866
一念彌陀	-10.0872
謀	-10.0874
雞	-10.0878
雄	-10.0878
曇	-10.0878
下品下生	-10.0878
陋	-10.0879
陀羅尼	-10.0879
陷	-10.0881
沈淪	-10.0884
香華	-10.0886
念佛時	-10.0887
不久	-10.089
言訖	-10.0897
而能	-10.0904
齋戒	-10.0907
汝等眾生	-10.0913
二土	-10.0919
佛果	-10.0935
即有	-10.0936
珍寶	-10.0947
佛為	-10.0951
又問	-10.0952
箭	-10.0956
巨	-10.096
羽	-10.0963
傍	-10.0963
圓明	-10.0964
鐘	-10.0965
法藏比丘	-10.0966
汝今	-10.0966
放逸	-10.0967
音樂	-10.0967
覽	-10.0968
勵	-10.0969
能知	-10.0976
考證	-10.0988
何人	-10.0989
五道	-10.0997
輪轉	-10.0999
百千萬億	-10.1
事一心	-10.1018
作禮	-10.1022
初中	-10.1026
我以	-10.1031
到此	-10.1032
恭	-10.1047
逍遙	-10.1051
賤	-10.1055
格	-10.1057
穀	-10.1061
有無量	-10.1065
行樹	-10.1068
不得往生	-10.1075
福慧	-10.1079
未甞	-10.1088
有二義	-10.1093
之佛	-10.1099
在心	-10.1107
猶未	-10.1111
妻子	-10.1112
無定	-10.1117
凝	-10.1124
濁惡	-10.1126
生處	-10.1138
緣生	-10.1142
飽	-10.1144
確	-10.1146
庸	-10.1146
屠	-10.1146
蓮邦	-10.1147
壯	-10.1149
東西	-10.1155
一切世間	-10.1162
七寶池	-10.1179
耳根	-10.118
名利	-10.1181
尊特	-10.1184
造業	-10.1184
假使	-10.119
本空	-10.1194
中間	-10.12
歸命	-10.1215
全是	-10.1216
君子	-10.1224
逾	-10.1236
若我成佛	-10.1236
訪	-10.1239
伊	-10.1239
摩訶	-10.124
饑	-10.124
潤	-10.1243
殷勤	-10.1249
其間	-10.1249
為說	-10.1249
演說	-10.1251
生前	-10.1258
護持	-10.1272
貌	-10.1275
蓮宗	-10.1277
往生之	-10.1292
未悟	-10.1293
諸師	-10.1295
焚香	-10.1295
此義	-10.13
因地	-10.1309
羊	-10.1314
京	-10.1321
姑	-10.1326
水火	-10.1327
杜	-10.1327
梵行	-10.1328
通別	-10.1328
耽	-10.1328
郡	-10.1331
一行三昧	-10.1335
厥	-10.1335
奧	-10.1335
享	-10.1336
所觀	-10.1338
閻浮提	-10.1338
無復	-10.1343
坐禪	-10.1354
出入	-10.1358
同體	-10.136
唯此	-10.1364
無緣	-10.1367
於淨土	-10.1371
戒殺	-10.1376
慈恩	-10.1381
皆以	-10.1383
不立	-10.14
正明	-10.1406
孔	-10.1413
進修	-10.1421
而不能	-10.1421
破戒	-10.1426
橋	-10.1426
研	-10.1427
膝	-10.1427
十年	-10.1428
持齋	-10.1435
中國	-10.1436
明佛	-10.1436
其國	-10.1443
願王	-10.1446
此皆	-10.1447
百歲	-10.1447
佛智	-10.1449
況復	-10.1459
眾善	-10.1475
然此	-10.148
慈父	-10.1483
行業	-10.1488
禮懺	-10.149
風吹	-10.149
身子	-10.149
見佛聞法	-10.1506
若依	-10.1506
如佛	-10.1507
未聞	-10.1509
檀	-10.151
歡	-10.1513
卻	-10.1517
採	-10.1518
優劣	-10.1523
祭	-10.1523
尋常	-10.1524
淨土一門	-10.1525
文中	-10.1526
登不退	-10.1531
為大	-10.1535
無一	-10.1538
中說	-10.1538
一行	-10.154
今世	-10.1543
日用	-10.1543
一心三觀	-10.1547
下二句	-10.1548
諸行	-10.1555
長老	-10.1557
之念	-10.1574
五種	-10.158
是經	-10.158
將來	-10.1582
小劫	-10.1586
生極樂國	-10.1594
前三	-10.1601
昔有	-10.1603
無性	-10.1609
跪	-10.161
浴	-10.1612
析	-10.1613
禱	-10.1617
松	-10.1617
精勤	-10.162
欣厭	-10.1621
湛然	-10.1625
出廣長舌相	-10.1628
寂靜	-10.1633
已來	-10.1635
王子	-10.1638
滅度	-10.1639
此為	-10.1642
雜念	-10.1652
為本	-10.1658
修因	-10.166
了生死	-10.1662
修羅	-10.1669
為眾生	-10.1671
津	-10.1692
庭	-10.1693
佛菩薩	-10.17
龜	-10.1704
席	-10.1709
渴	-10.171
束	-10.1711
兄弟	-10.1712
頃刻	-10.1714
大法	-10.1724
障礙	-10.1742
十法界	-10.1745
力用	-10.175
總是	-10.1753
自是	-10.1758
無生忍	-10.1761
是誰	-10.1766
持誦	-10.1769
大菩薩	-10.1775
古云	-10.1778
他佛	-10.1787
權實	-10.1789
此法門	-10.1793
戲	-10.1793
淵	-10.1797
湖	-10.1802
夷	-10.1805
掃	-10.1805
摧	-10.1807
產	-10.1809
叩	-10.1809
豐	-10.181
板	-10.1813
闢	-10.1817
名之為	-10.182
華臺	-10.1824
釋迦佛	-10.1834
彼岸	-10.1837
妙音	-10.185
生我國	-10.1851
慈雲	-10.1859
我身	-10.186
性量	-10.186
聖道	-10.1873
丈	-10.1874
業力	-10.1876
今時	-10.1878
三惑	-10.1883
二經	-10.1886
方可	-10.1891
破無明	-10.1892
第一義諦	-10.1895
如夢	-10.1897
所明	-10.1898
心地	-10.1898
此意	-10.1902
明矣	-10.1902
刑	-10.1903
銷	-10.1903
其言	-10.1905
故以	-10.1906
不曾	-10.1906
括	-10.1909
正宗	-10.1909
隋	-10.191
妾	-10.191
佛說阿彌陀經	-10.1911
繫心	-10.1916
g	-10.1917
:>	-10.1917
東林	-10.1918
m	-10.1918
i	-10.1918
<	-10.1918
常在	-10.1919
宿命	-10.192
一曰	-10.1936
諸聖	-10.1944
即便	-10.1946
正定	-10.1951
六塵	-10.1951
發願往生	-10.1958
大智	-10.196
虧	-10.1972
無事	-10.1972
搖	-10.1974
不可不	-10.1974
智度論	-10.1975
最上	-10.1986
猶有	-10.1989
大覺	-10.1998
案	-10.1998
漫	-10.2
激	-10.2002
荷	-10.2003
眠	-10.2004
倡	-10.2004
達磨	-10.2008
如今	-10.2012
法也	-10.2012
若論	-10.2019
中品	-10.2026
豈得	-10.2026
不但	-10.2028
壽量	-10.2036
稱為	-10.2037
義者	-10.2038
信解	-10.2042
助道	-10.2046
俗諦	-10.2047
對曰	-10.2048
其理	-10.2049
十疑論	-10.205
佛子	-10.2052
滿足	-10.2053
四生	-10.2066
真佛	-10.2067
永無	-10.2069
性相	-10.2079
不易	-10.2082
為難	-10.2086
盡是	-10.2094
口業	-10.2095
苦行	-10.21
盡未來際	-10.2101
繞	-10.2102
五根	-10.2105
辯才	-10.2106
剖	-10.2109
大藏	-10.2111
分證	-10.2116
長短	-10.212
故鄉	-10.2126
永劫	-10.213
而求	-10.2136
小本	-10.2139
本性彌陀	-10.214
四天下	-10.2145
百億	-10.2156
住世	-10.2157
起行	-10.2172
不具	-10.2174
雖不	-10.2178
西歸	-10.2179
乃至十念	-10.2181
之為	-10.2185
為惡	-10.2186
朱	-10.2186
不遠	-10.2187
八識	-10.2191
銀	-10.2193
麼	-10.22
候	-10.2201
霜	-10.2203
薦	-10.2205
耕	-10.2206
祝	-10.2206
拋	-10.2207
阿僧祇劫	-10.2207
買	-10.2208
黨	-10.2208
不生不滅	-10.2208
藏教	-10.2208
論曰	-10.2209
三千大千世界	-10.221
難思議	-10.2211
五體投地	-10.2213
純熟	-10.2215
大劫	-10.2217
孤山	-10.2222
與眾生	-10.2222
天親	-10.2223
我願	-10.2225
來生	-10.2225
次明	-10.2239
顯現	-10.224
觀也	-10.2256
故得	-10.2257
所造	-10.2263
既無	-10.2264
現生	-10.2264
佛光	-10.2266
不得生	-10.2268
得解脫	-10.2271
即今	-10.2276
通達	-10.2287
明日	-10.2289
生天	-10.229
巖	-10.2302
併	-10.2303
惡緣	-10.2303
丁	-10.2304
昌	-10.2304
逸	-10.2305
謹按	-10.2305
無所有	-10.2306
沉淪	-10.2307
掛	-10.2308
卓	-10.2309
普度	-10.2311
開悟	-10.2312
蓮華化生	-10.2318
。」【△	-10.2321
不隔	-10.2326
龍舒	-10.2336
為佛	-10.2339
大勢至菩薩	-10.2346
不違	-10.2351
須彌山	-10.2352
分身	-10.2355
度人	-10.2358
高聲	-10.2364
長劫	-10.2367
色相	-10.2368
得不退	-10.2374
一如	-10.2388
寡	-10.2389
家人	-10.2393
陸	-10.2393
之果	-10.2403
伯	-10.2405
債	-10.2408
誦彌陀經	-10.2411
誕	-10.2412
我作佛時	-10.2414
果也	-10.2415
一切種智	-10.242
罪人	-10.242
十住	-10.2431
所念	-10.2436
之機	-10.2439
佛界	-10.2439
依此	-10.2441
婦	-10.2441
南方	-10.2444
若以	-10.2449
生身	-10.2449
相違	-10.2453
子孫	-10.2462
不忍	-10.2468
甚難	-10.2473
喻如	-10.2476
諸大菩薩	-10.2479
能生	-10.2482
一劫	-10.2485
舒	-10.2485
涅槃經	-10.2485
此翻	-10.2485
之罪	-10.2488
即為	-10.2489
斷滅	-10.2495
淨國	-10.2496
式	-10.2505
一切智	-10.2508
暴	-10.251
健	-10.2511
欽	-10.2512
起信論	-10.2513
寢	-10.2515
墨	-10.2516
輪王	-10.2516
悠悠	-10.2516
宇	-10.2516
瑩	-10.2518
聞說	-10.252
念念相續	-10.2521
緣覺	-10.2522
妨	-10.2527
主人	-10.2527
上文	-10.253
不與	-10.2534
自覺	-10.2536
則為	-10.2538
之物	-10.2539
六方	-10.2544
所云	-10.2551
言其	-10.2558
而起	-10.2566
住持	-10.2574
在世	-10.2587
入定	-10.2589
謗法	-10.2589
此文	-10.2592
親見	-10.2597
色心	-10.2601
巳上	-10.2609
輔	-10.2609
所詮	-10.261
晝	-10.2611
當處	-10.2612
偷	-10.2614
華藏	-10.2615
窺	-10.2618
初標	-10.2619
捐	-10.2619
阻	-10.2621
當體	-10.2625
當信是稱讚不可思議功德	-10.2625
了了	-10.2633
故能	-10.2648
趺坐	-10.2651
人所	-10.2654
指歸	-10.2658
諸善	-10.266
為因	-10.266
生疑	-10.2661
十劫	-10.2668
是一	-10.267
之業	-10.2674
菩薩聲聞	-10.2676
與人	-10.2683
超生死	-10.2687
千聲	-10.2687
一旦	-10.2688
時節	-10.2692
迷悟	-10.2695
但知	-10.2698
入地獄	-10.2712
舉一	-10.2714
易生	-10.2719
諸根	-10.272
麁	-10.2724
遽	-10.2727
騰	-10.2727
鑒	-10.2728
從今	-10.2729
證入	-10.2735
三心	-10.2743
俄	-10.2748
往往	-10.2752
精神	-10.276
洪名	-10.2762
縱使	-10.2768
極樂國	-10.2769
從心	-10.2778
以前	-10.278
聞佛	-10.278
故須	-10.2781
相者	-10.2784
生信	-10.2785
一句阿彌陀	-10.2787
變易	-10.279
長時	-10.2807
竝	-10.283
寶地	-10.2831
泣	-10.2832
操	-10.2832
此說	-10.2832
鸚鵡	-10.2833
瘡	-10.2834
裹	-10.2835
水鳥樹林	-10.2835
見性	-10.2836
肩	-10.2836
卑	-10.2836
聰明	-10.2839
敬禮	-10.2847
得名	-10.285
此界	-10.2852
讚佛	-10.2854
橫超	-10.2859
信者	-10.2859
報恩	-10.2864
八難	-10.2864
法寶	-10.2866
如大	-10.2877
專心念佛	-10.2883
二曰	-10.2887
人心	-10.2888
有三種	-10.289
二十四	-10.2891
得大	-10.2892
又言	-10.2892
皆得往生	-10.2898
所聞	-10.2902
男子	-10.2908
不取	-10.291
記數	-10.2913
其數	-10.2917
頑	-10.2919
丈夫	-10.292
故經云	-10.2922
能念	-10.2924
分段	-10.2924
歸淨土	-10.2934
掩	-10.2935
始得	-10.2936
飄	-10.2936
煙	-10.2937
拂	-10.2937
層	-10.294
貴賤	-10.2943
炎	-10.2943
環	-10.2943
疎	-10.2946
無論	-10.2952
攝取	-10.2952
名相	-10.2952
分齊	-10.2958
要解	-10.2959
事相	-10.2961
即真	-10.2964
在其中	-10.2978
非謂	-10.298
之報	-10.2983
等事	-10.2987
淨名	-10.2997
何則	-10.3
如鏡	-10.302
也哉	-10.3021
回心	-10.3025
行之	-10.3026
無由	-10.3027
而作	-10.3028
世事	-10.304
指示	-10.3042
濁世	-10.3043
何時	-10.3048
陶	-10.305
或為	-10.305
溫	-10.305
吉	-10.305
既是	-10.3051
跋	-10.3052
忍辱	-10.3052
牢	-10.3053
祗	-10.3055
胞胎	-10.3055
巍巍	-10.3056
曠劫	-10.3057
一真法界	-10.3058
澤	-10.3063
勸修	-10.3063
汝當	-10.3063
何用	-10.3067
心想	-10.3068
所為	-10.3069
門者	-10.307
威德	-10.3081
但當	-10.3091
彼經	-10.3093
天華	-10.3105
之謂	-10.3107
六凡	-10.3107
巳得	-10.3108
耀	-10.3112
帝釋	-10.3119
正見	-10.3121
西方極樂	-10.3134
現前一念	-10.3135
唯佛	-10.3136
能破	-10.3137
此時	-10.3138
句句	-10.3141
輝	-10.3144
萬億	-10.3145
納	-10.3156
始知	-10.3158
心體	-10.3158
成佛道	-10.316
圍繞	-10.3163
劇	-10.3165
芽	-10.3167
側	-10.3171
所知	-10.3174
不從	-10.3177
上根	-10.3181
捨此	-10.3181
法者	-10.3183
修淨土者	-10.3188
五會	-10.3188
五逆十惡	-10.3196
應當發願	-10.3198
之宗	-10.3201
二大士	-10.3204
四方	-10.3215
無人	-10.3219
此語	-10.3221
迴心	-10.3221
羣生	-10.3223
道人	-10.3231
不令	-10.3236
苦空	-10.3236
胸	-10.3236
號曰	-10.3248
蘭	-10.3248
常寂光	-10.3262
無過	-10.3263
何由	-10.3264
諭	-10.3268
顛	-10.327
業識	-10.3272
及以	-10.3275
沙彌	-10.3275
柱	-10.3276
未成	-10.3277
為僧	-10.3278
長生	-10.3278
念佛功德	-10.3279
隨念	-10.328
聲聞緣覺	-10.328
正道	-10.3281
皆空	-10.3283
充滿	-10.3283
聞佛名	-10.3286
人身	-10.3294
嗟乎	-10.3295
今言	-10.3298
萬聲	-10.3306
利鈍	-10.3314
障重	-10.3318
不昧	-10.3319
身相	-10.3331
懈	-10.3333
佛地	-10.3343
十萬億剎	-10.3351
得此	-10.3353
六即	-10.3373
善心	-10.3373
貪欲	-10.3378
人皆	-10.3378
念心	-10.3379
淡	-10.338
光中	-10.3381
斗	-10.3384
晦	-10.3386
曹	-10.3386
喫	-10.3388
鑑	-10.3389
是凡夫	-10.3391
八功德水	-10.3391
使人	-10.3392
初約	-10.3393
七重	-10.3394
直下	-10.3395
。】「【	-10.3396
觀門	-10.3399
後心	-10.3402
涯	-10.341
一云	-10.341
必定	-10.3414
安隱	-10.3418
斷惑	-10.342
但是	-10.3422
通教	-10.3427
若約	-10.3432
引證	-10.3434
一言	-10.3436
三十二	-10.3438
者乎	-10.3448
長安	-10.3462
輕重	-10.3465
化眾生	-10.3469
華嚴經云	-10.347
生死之	-10.3471
能仁	-10.3473
惡世	-10.3479
而論	-10.3482
正受	-10.3488
而不知	-10.3489
所行	-10.3494
季	-10.3498
說經	-10.3499
村	-10.3504
乍	-10.3504
諸天人民	-10.3508
聊	-10.3508
輪回	-10.3513
亦能	-10.3522
淨域	-10.3525
何妨	-10.3529
唯一	-10.3529
稱理	-10.3537
出世間	-10.3538
一箇	-10.3538
臨終十念	-10.3545
尚有	-10.3552
慈尊	-10.3558
阿耨多羅三藐三菩提	-10.3565
勝緣	-10.357
且如	-10.3572
可也	-10.3575
文云	-10.3596
道之	-10.3599
循	-10.3605
蟻	-10.3606
兼修	-10.3608
知之	-10.3609
即法身	-10.3609
悟無生	-10.361
醜	-10.3611
所念之佛	-10.3611
得無生忍	-10.3616
何能	-10.3618
修此	-10.3619
烈	-10.362
躬	-10.362
裂	-10.3621
並是	-10.3622
罷	-10.3622
楚	-10.3622
直捷	-10.3622
□	-10.3623
不可盡	-10.3623
遶	-10.3623
滌	-10.3623
諸菩薩眾	-10.3626
旅	-10.3627
炬	-10.3629
上輩	-10.363
戲論	-10.3631
下釋	-10.3631
絕待	-10.3636
至極	-10.3646
化導	-10.3655
何有	-10.3655
皆然	-10.3657
得入	-10.3658
空有	-10.3662
證無生	-10.3664
亦應	-10.3667
念到	-10.3669
功成	-10.3669
讚嘆	-10.3669
無差	-10.3671
三義	-10.3675
出生	-10.3677
是法	-10.3681
流出	-10.3686
雖是	-10.3691
一片	-10.3692
既不	-10.3693
普照	-10.3701
作福	-10.3703
不勞	-10.3707
截	-10.371
從前	-10.3712
身中	-10.3724
弄	-10.373
忌	-10.3733
醉	-10.3735
鞭	-10.3735
哲	-10.3735
些	-10.3735
屢	-10.3736
𦦨	-10.3737
駕	-10.3738
慳貪	-10.3741
譬如有人	-10.3741
咎	-10.3741
殆	-10.3743
自利利他	-10.3743
清泰	-10.3743
同名	-10.3744
萬緣	-10.3748
十方眾生	-10.3751
戒定慧	-10.3751
欲生我國	-10.3755
觀成	-10.3757
三歸	-10.3757
不墮	-10.3758
不顧	-10.3758
不空	-10.3758
生也	-10.3759
不可思議功德	-10.3762
宗旨	-10.3764
唐譯	-10.3769
但得	-10.3774
久久	-10.3775
既云	-10.3778
及其	-10.378
念頭	-10.3781
等也	-10.3783
二諦	-10.3785
願求	-10.3785
雖復	-10.3798
忍力	-10.3802
難得	-10.3805
自慶	-10.3806
千年	-10.3819
不殺	-10.3825
廣說	-10.3826
悲智	-10.3828
惡口	-10.3828
緣影	-10.384
不入	-10.3845
安住	-10.3845
之前	-10.3845
糞	-10.3853
鹿	-10.3853
踏	-10.3856
甚麼	-10.3857
河沙	-10.3857
以佛	-10.3858
霞	-10.3858
沾	-10.3859
所欲	-10.3862
西域	-10.3863
維摩	-10.3864
令得	-10.3867
禮念	-10.3868
大慈大悲	-10.387
前文	-10.3874
自知	-10.3875
證菩提	-10.3876
觀者	-10.3878
心不顛倒	-10.3882
此書	-10.3882
得生彼國	-10.3886
不一	-10.3887
不巳	-10.3889
三福	-10.3891
經典	-10.3893
依經	-10.3894
罪障	-10.3895
無實	-10.3896
證果	-10.3904
生時	-10.3909
不解	-10.391
則能	-10.391
影現	-10.3917
根器	-10.3918
者哉	-10.3928
末世	-10.3936
非無	-10.3937
同志	-10.3938
見其	-10.3938
八苦	-10.3939
三世諸佛	-10.394
同前	-10.3943
久之	-10.3943
何曾	-10.3952
在於	-10.3962
能於	-10.3965
污	-10.397
死後	-10.3972
稽	-10.3972
一句阿彌陀佛	-10.3972
訛	-10.3973
杖	-10.3974
狗	-10.3975
永離	-10.3976
捷	-10.3976
卿	-10.3977
概	-10.3977
蓮池大師	-10.3978
鍾	-10.3978
法忍	-10.3979
成就如是功德莊嚴	-10.398
各於其國	-10.3981
往生安樂國	-10.3986
恃	-10.3986
寶蓮	-10.3986
有十	-10.399
故稱	-10.3992
即無	-10.3992
公案	-10.3994
執著	-10.3996
其子	-10.4003
南無西方極樂世界	-10.4003
池中	-10.4007
不去	-10.4011
其本	-10.4013
百萬	-10.4015
意也	-10.4022
既有	-10.4022
無他	-10.4028
三十六	-10.4033
樂國	-10.4042
後人	-10.4048
眾生生者	-10.4052
於諸	-10.4057
滴	-10.4058
如實	-10.4059
勝妙	-10.406
今謂	-10.4063
不勝	-10.4067
事也	-10.4068
出生死	-10.4069
靈芝	-10.4079
性體性量	-10.4084
修西方	-10.4085
展	-10.4088
皆名	-10.4091
修德	-10.4091
只為	-10.4095
慰	-10.4095
劍	-10.4096
豪	-10.4097
囊	-10.4097
囚	-10.4098
群生	-10.4099
策	-10.4099
府	-10.4099
本經	-10.41
全身	-10.4102
詎	-10.4103
三法	-10.4103
明月	-10.4105
報應	-10.4111
六種	-10.4112
天如	-10.4119
縱橫	-10.4122
純一	-10.4128
於世	-10.4128
劫濁	-10.413
及與	-10.413
萬善	-10.4133
深重	-10.414
真言	-10.4147
為正	-10.4159
諸法實相	-10.4161
令我	-10.4165
超過	-10.4171
則非	-10.4179
靡	-10.419
著相	-10.4193
無外	-10.4193
亦以	-10.4195
兩土	-10.4195
說者	-10.4197
安能	-10.42
未明	-10.4201
大悲心	-10.4206
法爾	-10.4207
當時	-10.4207
嗣	-10.4215
那由他	-10.4216
只此一念	-10.422
尾	-10.422
岐	-10.4221
坑	-10.4221
逮	-10.4224
紹	-10.4225
萬年	-10.4228
庶幾	-10.4229
今日道場同	-10.423
役	-10.4231
救苦眾生	-10.4232
皈依	-10.4232
力故	-10.4244
消息	-10.4245
生彼土	-10.425
離念	-10.426
寶藏	-10.4261
圓光	-10.4262
思議	-10.4273
不分	-10.4275
報盡	-10.4276
▁淨土	-10.4279
念一佛	-10.4284
來世	-10.4292
最初	-10.4296
福田	-10.4302
憶佛	-10.4304
三際	-10.4304
之性	-10.4306
不作	-10.4307
全無	-10.431
即名	-10.4319
紫金	-10.4323
而行	-10.433
」【	-10.4342
紛	-10.4346
乃能	-10.4347
欠	-10.4348
盧	-10.4349
給	-10.4349
深入	-10.435
稀	-10.435
晝夜六時	-10.435
輯	-10.435
常念	-10.4352
羅網	-10.4354
甯	-10.4355
四果	-10.4359
無著	-10.4363
其說	-10.4368
雖云	-10.4369
八地	-10.4369
歸於	-10.437
勸君	-10.437
以念佛	-10.4373
必得	-10.4374
增進	-10.4374
即以	-10.4374
永斷	-10.4376
成功	-10.4377
廣度眾生	-10.4378
眾聖	-10.4387
上人	-10.4393
何哉	-10.4414
得生彼	-10.4415
自行	-10.4416
教觀	-10.4433
邪正	-10.4435
縱有	-10.444
一點	-10.4441
真常	-10.4442
向上	-10.4442
一事	-10.4444
空假	-10.4452
大心	-10.4455
如法	-10.4457
十方佛	-10.4459
方是	-10.4459
信樂	-10.4466
阿彌陀如來	-10.4469
國中天人	-10.4471
隣	-10.4472
誹謗	-10.4473
拙	-10.4474
隆	-10.4474
十方三世	-10.4475
償	-10.4476
剎中	-10.4476
鄰	-10.4476
龍舒淨土文	-10.4477
生彼國土	-10.4477
欲生	-10.4477
牢獄	-10.4477
阿僧祇	-10.4478
行門	-10.4479
徑路	-10.4487
非不	-10.4491
古德	-10.4506
楞伽	-10.4507
為淨土	-10.4507
毫相	-10.4508
勿念	-10.4516
無病	-10.4516
恩愛	-10.4517
者多	-10.4521
不死	-10.4521
帝王	-10.4525
此道	-10.4532
必先	-10.4532
一境	-10.4546
忉利天	-10.4551
團	-10.4552
初住	-10.4554
日光	-10.4555
他日	-10.4567
回光	-10.457
文義	-10.4571
命終時	-10.4571
佛也	-10.4575
觀此	-10.458
何事	-10.4582
妙宗	-10.4587
藕	-10.4595
一種	-10.4597
焰	-10.4598
命欲終時	-10.46
后	-10.46
罵	-10.46
莖	-10.4601
創	-10.4601
派	-10.4602
得度	-10.4603
製	-10.4604
西方合論	-10.4605
屏	-10.4606
罕	-10.4608
皆具	-10.4609
不息	-10.461
叢林	-10.461
如如	-10.4611
而今	-10.4612
金剛經	-10.4615
奇特	-10.4618
聞巳	-10.4619
三惡道	-10.4624
如彼	-10.4626
往生彼國	-10.4626
加被	-10.4627
三句	-10.4629
三月	-10.4635
凡人	-10.4638
意在	-10.4641
正示	-10.4643
虛妄	-10.4653
長壽	-10.4655
普賢菩薩	-10.4657
奉行	-10.4667
世世	-10.4669
二三	-10.467
不拘	-10.467
不問	-10.4674
▁四	-10.4675
有為	-10.4676
具有	-10.468
善財	-10.4681
何異	-10.4684
不說	-10.4688
可憐	-10.4689
道理	-10.4692
周徧	-10.4698
痛苦	-10.4699
妄言	-10.4709
此三昧	-10.4719
以明	-10.472
若謂	-10.4724
秀	-10.4725
葛	-10.4726
真妄	-10.4726
誣	-10.4727
不染	-10.4729
巡	-10.473
輙	-10.4731
擎	-10.4732
填	-10.4732
皎	-10.4733
韻	-10.4734
彌陀淨土	-10.4734
懇	-10.4734
虞	-10.4735
栽	-10.4735
獸	-10.4736
而至	-10.4736
泊	-10.4737
鄭	-10.4737
寓	-10.4737
悲願	-10.4737
賣	-10.4738
覲	-10.4738
封	-10.4739
猛利	-10.4741
歸命禮	-10.4742
法界身	-10.4745
回頭	-10.4749
見者	-10.4752
皆當	-10.4752
今既	-10.4753
亦必	-10.4754
多矣	-10.4755
一名	-10.4756
樂土	-10.4766
分二	-10.4768
修行人	-10.4771
讀誦大乘	-10.4773
雙照	-10.4774
本體	-10.4776
疑也	-10.4777
或見	-10.4777
多有	-10.4783
諸方	-10.4789
玅觀	-10.4793
巳生	-10.4795
現成	-10.4803
先明	-10.481
又以	-10.4811
是苦	-10.4814
佛乘	-10.4823
老實	-10.4825
即念	-10.4827
塵緣	-10.4829
決無	-10.484
落日	-10.4841
既爾	-10.4842
六者	-10.4845
自家	-10.4847
娑婆苦	-10.485
一真	-10.4853
梅	-10.4855
逈	-10.4859
泥洹	-10.4863
般舟	-10.4866
腸	-10.4867
步步	-10.4869
春秋	-10.4872
以下	-10.4873
清淨心	-10.4874
彼方	-10.4875
▁南無觀世音菩薩	-10.4883
相與	-10.4883
流布	-10.4884
垂手	-10.4886
無染	-10.4899
覺悟	-10.4899
或謂	-10.4903
悟道	-10.4908
我所	-10.491
寶蓮華	-10.4912
之願	-10.4919
邊地	-10.4939
少年	-10.4939
一朝	-10.4947
無情	-10.4949
體用	-10.4953
散善	-10.4954
聖號	-10.4954
生極樂世界	-10.4961
何名	-10.4965
久住	-10.4974
訖	-10.4974
佛在	-10.4975
湛	-10.498
為先	-10.4984
擾	-10.4986
賦	-10.4991
屍	-10.4993
廟	-10.4995
瑪瑙	-10.4996
徐	-10.4996
獵	-10.4997
欄	-10.4999
此世界	-10.5
勅	-10.5002
六度萬行	-10.5002
邑	-10.5005
無佛	-10.5005
何因	-10.5006
棺	-10.5007
增上緣	-10.501
古德云	-10.5011
輔正	-10.5011
流浪	-10.5015
具三	-10.5018
哀哉	-10.5021
寶網	-10.5023
為業	-10.5024
化為	-10.5028
願生西方	-10.5031
一切皆	-10.5034
應化	-10.5035
常得	-10.504
若干	-10.5041
華池	-10.5047
一毫	-10.5048
難識	-10.5051
成熟	-10.5055
非有	-10.5057
相見	-10.5058
雖未	-10.5062
惟心淨土	-10.5071
信之	-10.5071
心要	-10.5086
燒香	-10.5088
退失	-10.5095
徧十方	-10.5095
金沙	-10.5099
楞嚴云	-10.5102
某甲	-10.5105
信力	-10.5106
常見	-10.5107
之談	-10.5108
攝持	-10.5111
文殊師利	-10.5114
抵	-10.5116
四寶	-10.5117
不獨	-10.5121
坦	-10.5124
化度	-10.5126
無有是處	-10.5127
援	-10.5127
鍊	-10.5129
伸	-10.513
捉	-10.5131
膿血	-10.5131
秉	-10.5132
此處	-10.5133
覔	-10.5133
襍	-10.5133
於我	-10.5134
身口	-10.5137
慈心不殺	-10.5137
龕	-10.5138
募	-10.5139
無垢	-10.5139
轉輪王	-10.514
甫	-10.514
深信因果	-10.5144
▁南無大勢至菩薩	-10.5146
大經	-10.5147
梵音	-10.5149
決志	-10.5151
身光	-10.5158
習氣	-10.5159
知此	-10.5161
明鏡	-10.5163
簡易	-10.5166
善女人	-10.5175
不止	-10.5181
助行	-10.519
巳來	-10.5199
十餘	-10.5203
少時	-10.5206
之土	-10.5211
頂上	-10.5215
大明	-10.522
是果	-10.5225
易成	-10.5226
之上	-10.5227
不共	-10.5232
人有	-10.5232
受戒	-10.5237
三曰	-10.5239
不自	-10.5242
淨行	-10.525
及一切	-10.5252
南無阿彌陀佛南無阿彌陀佛	-10.5254
教中	-10.5255
能詮	-10.5256
默念	-10.5257
海中	-10.5257
淨因	-10.5261
旬	-10.5264
添	-10.5264
纂	-10.5265
碎	-10.5265
蜜	-10.5266
剋	-10.5267
直心	-10.5268
探	-10.5268
隅	-10.5268
恚	-10.5269
帆	-10.5269
諷	-10.5269
英	-10.5269
奔	-10.5269
恰	-10.5269
悞	-10.5271
酸	-10.5271
庚	-10.5271
厄	-10.5272
祿	-10.5272
比邱	-10.5274
難信之法	-10.5276
無有眾苦	-10.5278
針	-10.5278
顯示	-10.5284
羅剎	-10.5287
難逃	-10.5296
定中	-10.5298
百寶	-10.5305
之數	-10.5306
眼前	-10.531
數珠	-10.5319
種種莊嚴	-10.5323
豈知	-10.5327
世俗	-10.5327
法法	-10.5327
即能	-10.5333
生生	-10.5341
不專	-10.5341
極苦	-10.5343
求佛	-10.5343
一分	-10.535
忽見	-10.5351
末後	-10.5353
緊	-10.5361
妙心	-10.5367
得失	-10.5375
之緣	-10.5375
而死	-10.5381
未可	-10.5388
佛法僧	-10.539
低	-10.5393
而入	-10.5395
錫	-10.5398
撫	-10.5401
淪	-10.5403
或說	-10.5403
之流	-10.5404
髻	-10.5404
籍	-10.5406
整	-10.5407
未斷	-10.5407
驅	-10.5408
珊	-10.5408
不行	-10.5409
踰	-10.541
畢命為期	-10.541
睡眠	-10.5411
橫截	-10.5413
爰	-10.5413
轉法輪	-10.5413
複	-10.5414
聾	-10.5415
藏經	-10.5416
聞說阿彌陀佛	-10.542
意識	-10.5424
超越	-10.5427
休息	-10.5428
不悟	-10.5428
乃知	-10.5434
歸心	-10.5435
神仙	-10.5435
依正莊嚴	-10.5438
不至	-10.5439
何疑	-10.5441
天真	-10.5446
一下	-10.5451
本國	-10.5455
當人	-10.5455
菩薩行	-10.5457
聞經	-10.5457
失人身	-10.5461
皆同	-10.5468
上上	-10.5474
牒	-10.5475
而出	-10.5476
退墮	-10.5479
方寸	-10.5481
不亦	-10.5483
多聞	-10.5483
人念佛	-10.5484
律師	-10.5486
化主	-10.549
作善	-10.5491
得之	-10.5494
十力	-10.5498
千生	-10.5498
釋之	-10.5507
了達	-10.551
明白	-10.5512
教門	-10.5513
之子	-10.5516
便得	-10.552
天魔	-10.5522
理也	-10.5525
境觀	-10.5526
能說	-10.5527
持呪	-10.5528
三人	-10.5536
五塵	-10.5537
信根	-10.5538
皈	-10.5539
畢竟空	-10.554
革	-10.5541
無極	-10.5542
東坡	-10.5543
踐	-10.5543
汎	-10.5545
介爾	-10.5548
肇	-10.5548
玩	-10.5548
丘	-10.5548
範	-10.5549
滅八十億劫生死重罪	-10.5552
貪瞋	-10.5552
現在說法	-10.5553
無苦	-10.5554
一剎那	-10.5556
疊	-10.5558
所緣	-10.5558
非實	-10.5558
則曰	-10.5558
觀無量壽佛經	-10.5559
▁南無清淨大海眾菩薩	-10.556
化去	-10.556
悲心	-10.5562
白蓮	-10.5564
寶王	-10.557
出世之	-10.5575
觀經疏	-10.5576
四義	-10.5578
常寂光土	-10.5581
定心	-10.5583
精誠	-10.5583
教法	-10.5586
惟願	-10.5588
菩提道	-10.5589
三賢	-10.5594
僧俗	-10.5597
父子	-10.5599
尊重	-10.5601
疾病	-10.5604
若見	-10.5616
亡者	-10.5621
先須	-10.5621
理觀	-10.5623
此約	-10.5626
三十年	-10.5626
在目前	-10.5628
非常	-10.5628
一首	-10.5631
能滅	-10.5639
皆因	-10.5642
而不信	-10.5643
一夕	-10.5645
聞此	-10.5648
普願	-10.5651
維摩經	-10.5659
彌陀世尊	-10.5664
有相	-10.5668
作惡	-10.5673
中輩	-10.5677
炷	-10.5681
同生	-10.5682
米	-10.5684
浩	-10.5686
經題	-10.5686
能念之心	-10.5687
電	-10.5689
更不	-10.5689
枕	-10.5689
柔	-10.5691
砂	-10.5691
一切人	-10.5691
倦	-10.5692
迫	-10.5692
呂	-10.5692
莫著人間樂	-10.5692
津梁	-10.5693
肉髻	-10.5693
譏	-10.5694
肆	-10.5694
拯	-10.5695
狐疑	-10.5695
低聲	-10.5696
寒暑	-10.5697
智者大師	-10.5698
緇素	-10.5698
修慧	-10.5699
主伴	-10.5701
)」「	-10.5703
遍滿	-10.5706
稱阿彌陀佛	-10.5713
守護	-10.5714
當得	-10.572
得其	-10.5721
初學	-10.5723
僧祇	-10.5723
修之	-10.5731
到處	-10.5732
相也	-10.5734
之智	-10.5737
善巧	-10.5737
無分	-10.5744
二十三	-10.5746
難易	-10.5754
殊不知	-10.5754
此亦	-10.5758
於人	-10.5764
觀彼	-10.577
往昔	-10.5772
漏盡	-10.5779
暫時	-10.5781
見一	-10.5784
華嚴云	-10.5789
三土	-10.5796
無女人	-10.5801
無色界	-10.5802
利生	-10.5802
無量法門	-10.5811
同居淨土	-10.5812
諸功德	-10.5812
至道	-10.5814
初句	-10.5814
而終	-10.5817
說偈	-10.5819
義故	-10.5819
十方如來	-10.5823
是何	-10.5823
時有	-10.5824
散華	-10.5826
廬	-10.5829
法喜	-10.583
綠	-10.5831
今則	-10.5833
扣	-10.5834
闍	-10.5836
罪惡	-10.5839
三初	-10.584
料	-10.5841
徧覆三千大千世界	-10.5843
紫金臺	-10.5844
育	-10.5844
儻	-10.5845
必以	-10.5852
歷歷	-10.5853
脫輪迴	-10.5855
寶積	-10.5855
眼見	-10.5855
因循	-10.5856
口中	-10.5858
一相	-10.5859
此間	-10.5863
華座	-10.5867
二十一	-10.5869
六年	-10.5871
大意	-10.5872
念佛一門	-10.5878
凡愚	-10.5879
下生	-10.5881
不可言	-10.5883
想念	-10.589
親屬	-10.5891
能感	-10.5895
二十八	-10.5898
以自	-10.5899
正當	-10.59
四門	-10.5905
菩薩眾	-10.592
▁「	-10.592
染淨	-10.5928
容易	-10.593
別圓	-10.5931
初牒	-10.5933
食時	-10.5935
五色	-10.5945
造作	-10.5946
諦信	-10.5955
至誠心	-10.5955
結示	-10.5963
般若經	-10.5963
法性身	-10.5965
無想	-10.5965
旛	-10.5965
修者	-10.5966
先佛	-10.5968
令眾生	-10.5971
揮	-10.5971
上聲	-10.5974
射	-10.5974
憎	-10.5975
薪	-10.5978
略舉	-10.5981
喧	-10.5982
萌	-10.5983
隨分	-10.5984
尅	-10.5984
淨土文	-10.5984
吏	-10.5985
佳	-10.5986
嗜	-10.5986
至理	-10.5987
牙	-10.5987
祐	-10.5988
貧窮	-10.5989
至心信樂	-10.599
蓮胎	-10.599
毛孔	-10.599
料簡	-10.5991
說此	-10.5992
評	-10.5995
若聞	-10.5996
七者	-10.5997
禪淨	-10.5999
所引	-10.6003
慈氏	-10.6008
惟有	-10.6009
憶佛念佛	-10.601
之與	-10.6011
自度	-10.6015
天子	-10.6021
如虗空	-10.6021
善緣	-10.6027
形像	-10.6031
塵塵	-10.6031
真身	-10.6031
三時	-10.6031
中人	-10.6033
人情	-10.6033
善哉	-10.6038
神足	-10.6044
二別	-10.6044
視之	-10.605
不願	-10.6053
應念	-10.6062
捨離	-10.6064
合成	-10.6067
論其	-10.6075
池水	-10.6076
諸子	-10.6081
如是說	-10.6082
乃以	-10.6086
八者	-10.6095
無比	-10.6097
華中	-10.6097
圓修	-10.6099
不被	-10.6102
普為	-10.6103
能發	-10.6103
死者	-10.6105
行也	-10.6114
法施	-10.6114
楞嚴經	-10.6118
宿業	-10.6128
朽	-10.6128
灑	-10.6128
痴	-10.613
尸	-10.613
入涅槃	-10.6131
三根	-10.6131
循環	-10.6133
滋	-10.6134
軟	-10.6134
本願力	-10.6134
繪	-10.6135
之所以	-10.6136
銘	-10.6136
念佛眾生	-10.6136
廣長舌	-10.6136
惶	-10.6136
碑	-10.6137
卜	-10.6137
馬鳴	-10.614
金銀	-10.6141
攬	-10.6141
頓教	-10.6141
著力	-10.6143
平時	-10.6146
忻厭	-10.6147
話頭	-10.6149
故我	-10.6149
不肖	-10.6153
百千億	-10.6154
坐臥	-10.6154
空觀	-10.6156
諸大乘經	-10.6159
或以	-10.6166
其志	-10.6168
寶所	-10.618
塵劫	-10.6182
眾惡	-10.6183
奉勸	-10.6183
安樂世界	-10.6185
下結	-10.6191
出於	-10.6193
古人云	-10.6193
二約	-10.6197
空過	-10.6205
)。「	-10.6209
三卷	-10.621
應供	-10.6211
終時	-10.6213
無量劫	-10.6217
寂照	-10.622
外有	-10.6225
五年	-10.6225
法相	-10.6229
得人身	-10.6232
得成佛	-10.6238
大臣	-10.6243
令生	-10.6256
世緣	-10.6259
當以	-10.6259
猛火	-10.626
一聲佛	-10.6261
可信	-10.6264
種性	-10.6265
性本	-10.6266
相對	-10.6272
真切	-10.6275
廁	-10.6278
潭	-10.6278
樣	-10.628
茅	-10.628
泥犁	-10.628
俊	-10.6281
舞	-10.6283
涌	-10.6284
接引導師	-10.6284
粟	-10.6285
轍	-10.6285
警䇿	-10.6285
但受諸樂	-10.6286
線	-10.6286
灌	-10.6286
崖	-10.6287
依教	-10.6288
闡提	-10.629
下接高讚云	-10.6293
唯心之	-10.6293
攀緣	-10.6294
智力	-10.6295
草木	-10.6297
貪戀	-10.6298
信願持名	-10.63
甚矣	-10.6305
戒律	-10.6309
。】○	-10.6313
弘誓	-10.6315
剎海	-10.632
了也	-10.6322
不通	-10.6328
不散	-10.6336
今觀	-10.6338
見如來	-10.6339
南無西方阿彌陀佛	-10.6342
北方	-10.6344
世自在王佛	-10.6353
老病	-10.6354
六方諸佛	-10.6355
不現	-10.6356
乃有	-10.6357
直入	-10.6358
釋云	-10.6358
妙理	-10.6358
釋氏	-10.6363
實為	-10.6364
是諸佛	-10.6372
於心	-10.6373
皆能	-10.6387
百餘	-10.6388
勝於	-10.6398
不知其	-10.64
之恩	-10.6403
皆令	-10.6407
則生	-10.6408
至矣	-10.6413
真俗	-10.6416
中陰	-10.6419
廓	-10.642
?』	-10.642
寂然	-10.6422
其為	-10.6423
作業	-10.6426
善道	-10.6427
利人	-10.6431
檢	-10.6432
迥	-10.6434
即非	-10.6436
擔	-10.6436
僊	-10.6437
實非	-10.6437
饒益	-10.6437
諸仁者	-10.6437
須達	-10.6438
優曇	-10.644
劒	-10.644
夫婦	-10.644
濕	-10.644
奮	-10.6442
貪瞋癡	-10.6444
心淨土淨	-10.6445
禪者	-10.6446
雖無	-10.6447
羞	-10.6448
十餘年	-10.6448
四德	-10.6452
凡情	-10.6454
無形	-10.6458
授手	-10.6458
五蘊	-10.6461
良久	-10.6464
問云	-10.6466
殺害	-10.6467
涼	-10.647
依舊	-10.6471
能見	-10.6471
梵網	-10.6473
與我	-10.6479
同居淨	-10.6489
臨終時	-10.6492
下輩	-10.6495
妙宗鈔	-10.6495
所在	-10.6499
可知矣	-10.65
妙行	-10.6503
諸佛如來	-10.6512
一心持名	-10.6512
焉能	-10.6512
結成	-10.6519
明心	-10.6525
門中	-10.6526
善事	-10.6536
」(	-10.654
悉是	-10.6542
力行	-10.6543
求其	-10.6544
今當	-10.6549
出現	-10.655
名聞	-10.6555
彌勒菩薩	-10.6565
號阿彌陀	-10.6574
淨剎	-10.6575
後身	-10.6577
心源	-10.6581
初列	-10.6582
異方便	-10.6584
理具	-10.6588
菩薩曰	-10.6588
推之	-10.6589
項	-10.6591
其後	-10.6591
佛經	-10.6591
揭	-10.6593
靠	-10.6593
即於	-10.6594
報化	-10.6594
肅	-10.6595
此論	-10.6595
攻	-10.6595
赫	-10.6597
湧	-10.6597
腦	-10.6597
其功	-10.6598
大悟	-10.66
乙	-10.66
闡揚	-10.66
綫	-10.6601
震旦	-10.6601
扇	-10.6603
何法	-10.6609
行行	-10.6609
過於	-10.661
名也	-10.6612
為真	-10.6617
華果	-10.6617
心量	-10.6618
不名	-10.6618
業報	-10.662
精舍	-10.662
一期	-10.6626
南無文殊師利菩薩	-10.6629
卷上	-10.6637
永不	-10.6637
先後	-10.6639
難陀	-10.6639
四年	-10.664
可悲	-10.6646
是實	-10.6649
漸漸	-10.665
無記	-10.6653
如須彌山	-10.6655
佛陀	-10.6655
鈔云	-10.6656
奈	-10.6659
體性	-10.6673
極樂之	-10.6673
端正	-10.6674
初生	-10.6687
四色	-10.6694
病人	-10.6695
六通	-10.6697
四禪	-10.6703
惡逆	-10.6706
一心頂禮	-10.6715
安然	-10.6718
由心	-10.6718
往生論	-10.6723
乃得	-10.6724
四月	-10.6729
子曰	-10.6731
爾等	-10.6735
至于	-10.6739
朕	-10.6741
泰	-10.6746
衲	-10.6747
他心	-10.6747
幹	-10.6748
到彼	-10.6749
茂	-10.6749
鶴	-10.6749
得無生法忍	-10.675
汗	-10.6752
拜下想	-10.6752
趁	-10.6753
牆	-10.6753
△	-10.6754
柳	-10.6756
薩	-10.6756
訂	-10.6756
醍醐	-10.6756
國師	-10.6757
孝養父母	-10.6757
如我今者	-10.6758
以後	-10.6759
般若波羅蜜	-10.6759
慈航	-10.6761
纏縛	-10.6762
眉間白毫	-10.6762
之書	-10.6763
又復歸依如是	-10.6763
大千世界	-10.6764
二乘種不生	-10.6765
十月	-10.6771
觀佛三昧	-10.6774
修念佛三昧	-10.6774
歸去	-10.6776
譬喻	-10.6776
世出世間	-10.6777
造逆	-10.6779
累劫	-10.678
長養	-10.6782
宗教	-10.6784
師云	-10.6785
元年	-10.6787
生善	-10.6789
佛以	-10.6789
動靜	-10.6789
如華嚴	-10.679
不實	-10.6798
余曰	-10.6799
所依	-10.6802
楞嚴經云	-10.6803
作是念	-10.6805
胸中	-10.6807
勸令	-10.6814
初後	-10.6814
從何	-10.6821
大德	-10.6828
勝境	-10.6829
宰	-10.6829
口誦	-10.683
大行	-10.6831
聽法	-10.6835
之至	-10.6835
六趣	-10.6837
無量眾生	-10.6839
別明	-10.6843
以成	-10.6845
為第一	-10.6854
稱名號	-10.6854
尚未	-10.6857
禮誦	-10.686
死心	-10.6867
善行	-10.6871
行持	-10.6877
人道	-10.6881
若夫	-10.6881
境緣	-10.6881
入於	-10.6884
若爾	-10.6891
二千	-10.6891
叢	-10.69
父王	-10.6901
若於	-10.6901
與其	-10.6902
安可	-10.6906
亦同	-10.6906
亭	-10.6909
鎖	-10.691
寶林	-10.691
經歷	-10.691
言說	-10.691
勸往生	-10.6911
乾坤	-10.6911
剌	-10.6912
知是	-10.6913
畔	-10.6913
毘	-10.6913
黃金為地	-10.6914
犬	-10.6914
梓	-10.6914
樓臺	-10.6914
耆	-10.6914
漚	-10.6914
遊戲	-10.6915
皆成	-10.6915
沐	-10.6915
蓮宗寶鑑	-10.6916
愚夫愚婦	-10.6916
儼然	-10.6918
三祇	-10.6919
惰	-10.692
燕	-10.6922
上品中生	-10.6923
豁然	-10.6923
歸依世間大慈悲父	-10.6924
遐	-10.6924
供養諸佛	-10.6926
如是我聞	-10.6929
▁南無普賢菩薩	-10.693
不廢	-10.6931
此四	-10.6932
欲求	-10.6932
若不生者	-10.6932
威力	-10.6934
此生	-10.6935
無住	-10.6944
聖果	-10.6946
已上	-10.6949
所變	-10.6954
理即	-10.6957
同居土	-10.6958
宣說	-10.6962
專注	-10.6966
一往	-10.6968
佛聲	-10.6969
修學	-10.697
雜亂	-10.6971
救護	-10.6975
無始以來	-10.6975
百八	-10.6975
從其	-10.6976
之方	-10.698
曰吾	-10.6981
若據	-10.6982
大王	-10.6985
必生	-10.6986
乃為	-10.6987
萬事	-10.6989
變現	-10.6997
此一念	-10.6997
老子	-10.6998
六識	-10.7002
則自性	-10.7005
樹下	-10.7007
所住	-10.7008
念佛求生淨土	-10.701
三智	-10.7011
。』」	-10.7019
食之	-10.7026
不發	-10.7027
滅除	-10.703
骨肉	-10.7033
甚易	-10.7034
當機	-10.7035
侍者	-10.704
無所得	-10.7041
根缺	-10.7045
今欲	-10.7049
巳成	-10.705
經教	-10.7051
決不	-10.7052
即前	-10.7052
我當	-10.7056
行法	-10.706
能入	-10.7063
諸弟子	-10.7065
攀	-10.7067
煎	-10.7067
消除	-10.707
勾	-10.7071
隨類	-10.7071
晦菴	-10.7074
昨	-10.7075
慘	-10.7075
瞋恚	-10.7076
涕	-10.7077
詠	-10.7077
沼	-10.7078
生老病死	-10.7079
貪嗔癡	-10.7079
焦	-10.708
現在其前	-10.708
市	-10.7081
貧賤	-10.7081
有六	-10.7081
經法	-10.7082
皷	-10.7083
若有善男子善女人	-10.7085
觀身	-10.7085
調伏	-10.7086
魔王	-10.7087
逼迫	-10.7087
常為	-10.7088
修多羅	-10.7088
八部	-10.7093
算數	-10.7095
上生	-10.7102
得阿羅漢	-10.7103
念佛求生	-10.7105
兩舌	-10.7106
愛欲	-10.7107
心眼	-10.7108
五百歲	-10.7111
貪愛	-10.7117
未審	-10.7117
願文	-10.7133
念誦	-10.7135
大用	-10.7138
東土	-10.7145
靈山	-10.7146
有十種	-10.7146
我之	-10.7151
殺業	-10.7159
法華經云	-10.7162
二十二	-10.7163
無間斷	-10.7165
足以	-10.7172
無量諸佛	-10.7182
稱揚	-10.7183
華開見佛	-10.7183
病者	-10.7184
極果	-10.7185
求往生	-10.719
生淨土者	-10.7193
而下	-10.7193
未證	-10.7194
塵剎	-10.7195
猶是	-10.72
土淨	-10.7202
不欲	-10.7204
梵網經	-10.7207
常念佛	-10.7207
異類	-10.7208
光者	-10.7208
二年	-10.7211
每一	-10.7212
恒沙諸佛	-10.7212
方名	-10.7214
一代	-10.7217
郎	-10.7218
金地	-10.722
妙華	-10.7221
別無	-10.7226
熾	-10.7227
放光明	-10.7229
孟子	-10.7231
疑者	-10.7232
退轉	-10.7235
卷下	-10.7235
暑	-10.7236
翠	-10.7237
譽	-10.7238
厲	-10.7239
掉	-10.7239
閻羅	-10.7239
舜	-10.7239
吉祥	-10.724
鳳	-10.724
心緣	-10.724
噉	-10.7241
迨	-10.7242
叮嚀	-10.7243
模	-10.7243
炳	-10.7244
與諸聖眾	-10.7246
唯是	-10.7247
無量功德	-10.7248
早晚	-10.7248
而觀	-10.7251
其人臨命終時	-10.7252
苦口	-10.7253
多善根	-10.7254
生平	-10.7254
生我剎	-10.726
又二	-10.7264
報佛恩	-10.7266
儒者	-10.7266
發大心	-10.7267
無量壽經云	-10.727
妙用	-10.7271
雖知	-10.7272
命濁	-10.7275
有七	-10.7276
八十億劫	-10.7276
念處	-10.7277
三結	-10.7281
行善	-10.7287
此下	-10.7288
如其	-10.7288
於斯	-10.7288
亦得往生	-10.7289
萬歲	-10.729
體空	-10.7293
功德莊嚴	-10.7294
念佛一聲	-10.7296
而欲	-10.73
千珠	-10.7302
不落	-10.7303
彌陀佛國	-10.7305
長夜	-10.7313
不生淨土	-10.732
受報	-10.7321
未生	-10.7322
可惜	-10.7322
西方樂	-10.7324
王宮	-10.7325
眾鳥	-10.7325
大力	-10.7327
字字	-10.7327
何足	-10.7328
七月	-10.7335
不休	-10.7338
小果	-10.7338
高僧	-10.7341
業緣	-10.7345
一味	-10.7345
得念佛三昧	-10.7347
其光	-10.7355
誠言	-10.7356
二月	-10.7365
明師	-10.7366
真正	-10.7383
義理	-10.7385
一大	-10.7393
無色	-10.7394
之勝	-10.7395
鏡中	-10.7395
性中	-10.7395
勸進	-10.7397
若得	-10.74
孟	-10.7403
不宜	-10.7403
奴	-10.7404
綺	-10.7404
生彼國者	-10.7405
誓不	-10.7405
賢護	-10.7407
魯	-10.7408
見濁	-10.7409
翼	-10.7409
催	-10.741
慈雲懺主	-10.7411
慾	-10.7412
鼎	-10.7412
裝	-10.7413
挂	-10.7413
油	-10.7414
呼吸	-10.7416
彈	-10.7416
刺	-10.7417
茫茫	-10.7418
効	-10.7419
懇切	-10.742
麻	-10.7421
呌	-10.7422
袈裟	-10.7422
飲酒	-10.7424
古崑	-10.7425
告曰	-10.7427
豈是	-10.7432
亦當	-10.7433
之異	-10.7437
云爾	-10.744
逆順	-10.7442
利養	-10.7443
小兒	-10.7446
之聲	-10.7448
論之	-10.7448
一家	-10.7451
故名極樂	-10.7452
白雲	-10.7456
儒家	-10.7457
諸相	-10.7457
念去	-10.7457
皆說	-10.7457
又願	-10.746
七十	-10.7462
佛是	-10.7463
次名	-10.7465
常行	-10.747
什	-10.7475
深淺	-10.7481
念佛心	-10.7483
清風	-10.7483
之見	-10.7484
遞相	-10.7485
諸如來	-10.7486
斯言	-10.7488
宿世	-10.7489
如雲	-10.7491
十二部經	-10.7496
蓮開	-10.7497
之首	-10.7498
不唯	-10.75
三釋	-10.7501
佛眼	-10.7502
得阿耨多羅三藐三菩提	-10.7504
還來	-10.7504
動念	-10.7505
我輩	-10.7508
周遍	-10.7511
貪著	-10.7512
無諸	-10.7512
得菩提	-10.7518
▁南無寶	-10.7526
一方	-10.7526
為主	-10.7527
斷除	-10.753
是時	-10.7531
一世	-10.7536
而退	-10.7538
於西方	-10.7541
吾人	-10.7545
請佛	-10.7545
曾無	-10.7561
顯然	-10.7563
莊嚴淨土	-10.7564
心觀	-10.7564
知有	-10.7565
常照	-10.7566
往生極樂	-10.7567
悉檀	-10.7567
懺法	-10.7568
流水	-10.7568
又見	-10.757
迷惑	-10.7571
化作	-10.7575
苦趣	-10.7577
佛世尊	-10.7578
其文	-10.7578
豁	-10.7579
燃	-10.758
曠	-10.758
悟入	-10.758
豆	-10.7581
崑	-10.7582
侯	-10.7582
惺惺	-10.7583
挽	-10.7583
解行	-10.7583
出廣長舌	-10.7584
鋒	-10.7584
一念心	-10.7585
要須	-10.7587
臆	-10.7588
即性具	-10.7588
貝	-10.7588
祕	-10.7588
替	-10.7589
硨磲	-10.759
嬰兒	-10.759
薰	-10.7591
窟	-10.7591
彭	-10.7591
鬪	-10.7592
槩	-10.7592
綺語	-10.7593
下二	-10.7594
糧	-10.7594
西來	-10.7594
相與志心	-10.7596
禍福	-10.7599
律儀	-10.76
九者	-10.76
不少	-10.7602
命終之時	-10.7602
無量劫來	-10.7602
微塵數	-10.7604
修諸功德	-10.7605
若知	-10.7613
解說	-10.7614
歸去來	-10.7616
十者	-10.762
以顯	-10.7623
所具	-10.7624
一心正念	-10.7624
罪福	-10.7625
罪滅	-10.7627
剎土	-10.7632
徧照	-10.7632
天堂	-10.7632
便謂	-10.7636
往彼	-10.7636
教以	-10.7641
前生	-10.7641
安樂國	-10.7642
作意	-10.7645
奉佛	-10.7652
了不可得	-10.7655
釋迦牟尼	-10.7664
念佛名	-10.7667
手執	-10.7668
之德	-10.767
智照	-10.7672
淨其心	-10.7674
藏通	-10.7675
隨業	-10.7675
風樹	-10.7676
樹林	-10.7681
分三	-10.7682
一月	-10.7683
應須	-10.7683
離相	-10.7686
修行者	-10.7692
故不退	-10.7693
上來	-10.7697
有量	-10.7706
少分	-10.7709
不能盡	-10.7717
有念	-10.7718
廣度	-10.7719
我見	-10.7721
不合	-10.7734
後生	-10.7735
專意	-10.7736
一切處	-10.7741
聰	-10.7744
一般	-10.7746
其名	-10.775
性海	-10.775
濃	-10.7753
匠	-10.7754
央	-10.7755
療	-10.7757
翳	-10.7757
曷	-10.776
蒼	-10.7761
柔軟	-10.7763
具縛凡夫	-10.7764
詔	-10.7764
毗盧遮那	-10.7765
飡	-10.7765
色像	-10.7765
欄楯	-10.7765
波羅密	-10.7765
重重無盡	-10.7766
吸	-10.7766
太虗	-10.7767
霑	-10.7768
上品下生	-10.7771
歸家	-10.7771
織	-10.7772
化人	-10.7773
如何是	-10.7774
肉眼	-10.7774
結社	-10.7775
澄清	-10.7779
佛世	-10.7781
調達	-10.779
何日	-10.7791
而又	-10.78
無量壽國	-10.78
禮讚	-10.7802
不樂	-10.7808
慧命	-10.781
百千萬	-10.7812
今乃	-10.7813
偏讚	-10.7815
隨力	-10.7823
靡不	-10.7823
應現	-10.7824
臘	-10.7826
尚爾	-10.7836
尤為	-10.7841
功德智慧	-10.7841
身業	-10.7844
念三寶	-10.7844
於後	-10.7845
眾生聞者	-10.7847
即應	-10.7852
信向	-10.7854
未見	-10.7856
故今	-10.7858
久遠	-10.786
中諦	-10.7863
結使	-10.7867
惡友	-10.7874
心王	-10.7878
普攝	-10.7879
為汝	-10.788
無際	-10.7881
有邊	-10.7884
為是	-10.7896
一僧	-10.7896
門人	-10.7898
又何	-10.79
可比	-10.7901
其體	-10.7911
如是則	-10.7912
皆云	-10.7918
異端	-10.792
同修	-10.792
迎接	-10.7923
欲見	-10.7926
一切功德	-10.7926
隨時	-10.7929
何其	-10.793
趺	-10.7932
破惡	-10.7934
叔	-10.7934
信也	-10.7935
寐	-10.7936
指南	-10.7936
成等正覺	-10.7936
淨緣	-10.7938
倉	-10.7938
但言	-10.7938
纖塵	-10.7938
梨	-10.7941
臻	-10.7941
決定得生	-10.7942
怎	-10.7943
農	-10.7943
栴檀	-10.7944
瓦礫	-10.7944
如日	-10.7947
常寂	-10.7947
隨處	-10.7949
三惡	-10.795
妖	-10.795
刀兵	-10.795
昔人	-10.795
教典	-10.795
除滅	-10.7951
以是因緣	-10.7954
數百	-10.7957
意業	-10.7964
乞食	-10.7967
賢首	-10.797
之善	-10.797
同聲	-10.7973
相關	-10.7976
十方三世一切	-10.7978
願願	-10.7978
讀書	-10.7978
說此經	-10.7978
當下	-10.7978
法界也	-10.798
下凡	-10.7981
非他	-10.7985
禪門	-10.7992
觀世音大勢至	-10.7993
根塵	-10.7995
白衣	-10.7995
難行	-10.7999
一切惡	-10.8005
自體	-10.8012
道德	-10.8018
亦何	-10.8021
我慢	-10.8022
此娑婆世界	-10.8027
各自	-10.8035
由來	-10.804
即時	-10.8047
初二句	-10.8055
十門	-10.8055
說妙法	-10.8056
無疾	-10.8062
便成	-10.8062
神識	-10.8064
山中	-10.8066
不求生	-10.8068
誰能	-10.8069
金蓮	-10.8074
誰知	-10.8075
以此功德	-10.8076
相分	-10.8081
別求	-10.8083
論中	-10.8084
志心	-10.8088
初機	-10.8089
雖多	-10.8097
方為	-10.8099
各隨	-10.8101
柰	-10.8103
次觀	-10.8108
丑	-10.8108
緒	-10.8113
形骸	-10.8113
心垢	-10.8114
雀	-10.8115
粒	-10.8117
額	-10.8117
刃	-10.8119
瑜伽	-10.812
誇	-10.812
烟	-10.8121
卯	-10.8122
從心想生	-10.8122
貢高	-10.8122
牧	-10.8122
沸	-10.8123
五力	-10.8123
覧	-10.8123
迂	-10.8123
廉	-10.8124
洋	-10.8124
拾	-10.8124
劉遺民	-10.8124
光色	-10.8125
邁	-10.8125
淳	-10.8127
培	-10.8128
恥	-10.8128
一切菩薩	-10.8129
從來	-10.813
監	-10.813
雕	-10.8132
手執香華常供養	-10.8132
而取	-10.8134
魏居士	-10.8135
俱會一處	-10.8135
魏譯	-10.8136
搜	-10.8138
超生	-10.8146
謂此	-10.8147
受記	-10.8148
將此	-10.8148
書寫	-10.8149
上方	-10.8154
念阿彌陀	-10.8154
煩惱濁	-10.8154
至彼	-10.8154
來迎接	-10.816
有省	-10.8162
八月	-10.8165
自謂	-10.8167
住於	-10.8168
法輪	-10.8172
三事	-10.8175
離苦	-10.8178
所歸	-10.818
要門	-10.8186
實報土	-10.8189
於一切	-10.8191
一滴	-10.8195
教化眾生	-10.8196
如山	-10.8202
隨所	-10.8203
更加	-10.8208
勤苦	-10.8212
未了	-10.8212
來去	-10.8212
身在	-10.8215
眾生濁	-10.8217
無三惡道	-10.8219
俱生	-10.822
常自	-10.822
或現	-10.8226
自己	-10.8232
之期	-10.8232
定力	-10.8234
所發	-10.8235
物命	-10.8237
佛知見	-10.8238
同佛	-10.824
正由	-10.8244
別時	-10.8244
不暇	-10.8244
而言之	-10.8246
下劣	-10.8248
得佛	-10.8256
不移	-10.8256
異見	-10.8261
亦不得	-10.8264
業重	-10.8264
十日	-10.8265
無涯	-10.8273
諸祖	-10.8277
妙明	-10.8277
求淨土	-10.8285
一年	-10.8288
疑城	-10.8288
故此	-10.8288
此明	-10.8289
坐化	-10.8294
其母	-10.8294
琴	-10.8296
叉	-10.8297
我淨樂	-10.8298
故說	-10.8298
無生法忍	-10.8299
煉	-10.8299
汙	-10.8302
啼	-10.8303
鑿	-10.8303
逕	-10.8304
腰	-10.8304
下品中生	-10.8304
不破	-10.8305
漁	-10.8305
謁	-10.8307
是菩薩淨土	-10.8307
粥	-10.8308
永明壽禪師	-10.8308
更相	-10.8309
阿鼻	-10.8309
杳	-10.831
讓	-10.831
疲	-10.831
拒	-10.8311
淨念相繼	-10.8311
滅盡	-10.8312
愛憎	-10.8312
昏沉	-10.8312
慎勿	-10.8313
壓	-10.8313
毒藥	-10.8314
憎愛	-10.8315
在前	-10.8316
直至成佛	-10.8317
徧一切處	-10.8317
修十善業	-10.8318
仗佛力	-10.8319
慈光	-10.8321
作觀	-10.8324
今現在說法	-10.8327
返照	-10.833
滅後	-10.833
辛苦	-10.8331
于此	-10.8332
▁南無善	-10.8333
堪忍	-10.8334
覺體	-10.8334
昏迷	-10.8336
所牽	-10.8337
歲月	-10.8339
教令	-10.8346
八種	-10.8346
光壽	-10.8347
七寶莊嚴	-10.8349
巳而	-10.8349
可畏	-10.835
不妄	-10.8351
稱佛號	-10.8354
不退菩提	-10.8357
無始來	-10.8359
娑婆國土	-10.8362
分段生死	-10.8362
一句佛	-10.8363
未來世	-10.8365
依然	-10.8366
七七日	-10.8368
日觀	-10.837
之情	-10.8371
有三義	-10.8372
心是佛	-10.8375
捨身	-10.8379
見有	-10.8379
三疑	-10.8382
成三昧	-10.8384
無足	-10.8384
莫若	-10.8385
不堪	-10.839
何耶	-10.8395
此門	-10.8397
淨戒	-10.84
之一字	-10.8401
正為	-10.8408
果德	-10.841
為究竟	-10.8414
所致	-10.8415
如海	-10.8417
脫生死	-10.8418
勤念佛	-10.8421
只在	-10.8422
寶幢	-10.8424
所示	-10.8425
得力	-10.8426
利物	-10.8426
慧遠	-10.8427
徒眾	-10.8431
各具	-10.8433
延壽	-10.8433
故令	-10.8437
雖在	-10.8439
離此	-10.8444
初門	-10.8444
本源	-10.8448
七種	-10.8448
無因	-10.845
向西方	-10.8451
彌陀經云	-10.8462
去聲	-10.8463
生死海	-10.8467
不能自	-10.8468
機緣	-10.8476
聽說	-10.8479
但見	-10.8479
了無	-10.8485
為名	-10.8485
鉤	-10.8487
不應食肉	-10.8488
讐	-10.8488
堯	-10.8489
灼	-10.8489
中觀	-10.849
纖	-10.8491
鎻	-10.8491
鎮	-10.8492
陣	-10.8495
潤澤	-10.8495
絃	-10.8495
亥	-10.8496
禪教律	-10.8496
允	-10.8497
佛來	-10.8497
黎	-10.8498
現其人前	-10.8498
發無上道心	-10.8499
僕	-10.85
唇	-10.8501
佑	-10.8501
善導和尚	-10.8502
我亦	-10.8502
西方阿彌陀佛	-10.8502
撮	-10.8503
庫	-10.8503
急急	-10.8503
幡	-10.8503
善男子善女人	-10.8504
業也	-10.8506
師友	-10.8507
怖畏	-10.8511
願共諸眾生	-10.8512
海眾	-10.8513
作佛事	-10.8517
是權	-10.8518
經曰	-10.852
為說法	-10.8523
退緣	-10.8529
了悟	-10.8529
舌根	-10.853
說之	-10.8531
斯乃	-10.8533
維摩經云	-10.8534
識心	-10.8535
專志	-10.8539
無量壽如來	-10.8541
尚不能	-10.8542
幾時	-10.8543
水中	-10.8545
悔過	-10.8545
大集經	-10.8548
生法	-10.8549
大歡喜	-10.8549
日輪	-10.8549
一枝	-10.8563
若云	-10.8569
教相	-10.8569
一念不生	-10.8571
此非	-10.8579
上善	-10.8579
心內	-10.858
淨薉	-10.8581
五臺	-10.8581
▁五	-10.8583
能持	-10.8585
身量	-10.8589
破壞	-10.859
得自在	-10.8595
頌云	-10.8598
同聞	-10.8599
心法	-10.8606
而已	-10.8607
為要	-10.8609
彼淨土	-10.8612
非我	-10.8612
惡念	-10.8616
真金	-10.8618
經中說	-10.862
道力	-10.8622
之位	-10.8627
一聞	-10.863
菩薩戒	-10.8632
即入	-10.8634
佛所說	-10.8636
應時即	-10.8638
界內	-10.8648
答言	-10.8652
聞聲	-10.8652
台	-10.8653
有僧	-10.8655
勸人念佛	-10.8655
佛說法	-10.8656
有限	-10.8656
之水	-10.8663
宛	-10.8667
眾多	-10.8673
心口	-10.8673
謙	-10.8674
在西方	-10.8675
車輪	-10.8678
身命	-10.8678
時也	-10.8679
天耳	-10.868
不雜	-10.8683
霧	-10.8684
蹈	-10.8685
荊	-10.8686
躍	-10.8687
不惜身命	-10.8687
䖍	-10.8687
昂	-10.8688
浙	-10.8688
斜	-10.8688
螺	-10.8688
公曰	-10.8688
同學	-10.8689
衷	-10.869
帛	-10.8691
材	-10.8691
雁	-10.8692
芬	-10.8692
綿	-10.8692
彌陀本願	-10.8692
穴	-10.8693
便生	-10.8693
於念念中	-10.8694
許多	-10.8696
生兜率	-10.8697
遍覆三千大千世界	-10.8697
臭穢	-10.8698
恐怖	-10.8698
文殊普賢	-10.87
住不退轉	-10.8703
大事因緣	-10.8705
吾今	-10.8706
易行	-10.8706
功能	-10.8707
初又二	-10.8707
純是	-10.8709
地前	-10.8715
豈無	-10.8716
柰何	-10.8717
醫王	-10.8717
法照	-10.872
。」【(	-10.8729
諸賢	-10.8732
墮惡道	-10.8734
淨方	-10.8736
佛恩	-10.8737
火燒	-10.8737
面目	-10.8737
方成	-10.8738
忽爾	-10.8741
梵云	-10.8744
不貪	-10.8745
龍華	-10.8745
解第一義	-10.8746
三災	-10.8747
苦逼	-10.8748
護法	-10.8748
百劫	-10.8749
九月	-10.8751
語錄	-10.8752
之輩	-10.8754
邪魔	-10.8759
我聞	-10.8762
臨終見佛	-10.8763
受其	-10.8764
修成	-10.8765
願得	-10.8769
如之何	-10.8772
贊曰	-10.8775
難免	-10.8776
二十年	-10.8784
著述	-10.8785
彼國土	-10.8785
志誠	-10.8787
只如	-10.8788
能得	-10.8795
論文	-10.8806
所問	-10.8808
圓淨	-10.8809
一部	-10.8817
眾罪	-10.882
所求	-10.882
報佛	-10.882
與之	-10.882
法王子	-10.8822
無遺	-10.8822
專念阿彌陀佛	-10.8823
圓人	-10.8823
正等	-10.8825
以心	-10.8828
四益	-10.8829
楞伽經	-10.8832
大慧	-10.8834
諸佛護念	-10.8838
旨趣	-10.8839
雖具	-10.884
諸戒	-10.8841
化他	-10.8843
益也	-10.8846
天衣	-10.8847
吼	-10.885
願門	-10.8852
覺者	-10.8855
蒙佛	-10.8855
不存	-10.8857
名之曰	-10.8857
有女人	-10.8858
有志	-10.8859
不依	-10.8865
正定聚	-10.8868
普觀	-10.8869
賞	-10.8869
超三界	-10.8872
除罪	-10.8873
永嘉	-10.8875
承上	-10.8876
堆	-10.8877
泡	-10.8877
區	-10.8878
百千萬倍	-10.888
天台云	-10.8881
占	-10.8881
錦	-10.8881
十願	-10.8882
娑	-10.8882
竅	-10.8883
兆	-10.8883
悖	-10.8883
裡	-10.8883
第十三	-10.8883
勘	-10.8884
衡	-10.8884
離諸	-10.8884
隨緣不變	-10.8885
彌陀佛彌陀佛	-10.8885
紛紛	-10.8886
阿鞞跋致	-10.8886
怯	-10.8887
憚	-10.8887
地獄餓鬼畜生	-10.8888
捧	-10.8889
職	-10.8889
如意足	-10.889
火坑	-10.8891
俯	-10.8891
微笑	-10.8892
讚言	-10.8893
下品上生	-10.8893
十號	-10.8893
初分科	-10.8897
四念處	-10.8902
三種淨業	-10.8904
發大願	-10.8905
三拜	-10.8906
三障	-10.8908
人言	-10.8912
數十	-10.8914
妙樂	-10.8916
含靈	-10.8916
之源	-10.8916
四十年	-10.8916
令彼	-10.8918
傳燈	-10.8919
二教	-10.892
十卷	-10.8921
上智	-10.8921
門戶	-10.8922
世法	-10.8922
相好光明	-10.8926
四智	-10.8927
念南無阿彌陀佛	-10.8928
奇妙	-10.8928
生其國	-10.893
如觀經	-10.8934
僧寶	-10.8936
以大悲	-10.8941
此名	-10.8944
兩忘	-10.8946
未入	-10.8947
法體	-10.8953
一實	-10.8953
斷絕	-10.8954
若離	-10.8954
五百年	-10.8955
脫離	-10.8955
本分	-10.896
切莫	-10.896
我說	-10.896
忉利	-10.8961
觀於	-10.8965
聲聞眾	-10.8966
此娑婆	-10.8975
天然	-10.8977
則成	-10.8982
師長	-10.8987
之用	-10.8991
無功	-10.8995
疑曰	-10.9003
出輪迴	-10.9004
總攝	-10.9007
雖曰	-10.9013
諸經論	-10.9014
有四種	-10.9016
直須	-10.9019
夜夢	-10.9019
所化	-10.9023
下引	-10.9027
壽終	-10.9029
故無	-10.9033
難可	-10.9033
恩德	-10.9033
寂寂	-10.9034
流入	-10.9036
無惡	-10.9037
內心	-10.9038
迴向發願	-10.9045
未至	-10.9057
我者	-10.906
函	-10.9061
照見	-10.9064
羅什	-10.9065
凶	-10.9069
事事無礙	-10.9072
上生經	-10.9074
法眼	-10.9076
辱	-10.9078
桃	-10.9079
時分	-10.908
斬	-10.908
乏	-10.9081
彌陀之	-10.9081
仇	-10.9082
髓	-10.9082
趙州	-10.9082
無央數	-10.9083
縈	-10.9083
戴	-10.9083
瞞	-10.9083
銀臺	-10.9084
矜	-10.9084
榜	-10.9084
寤	-10.9085
心不亂	-10.9085
玻瓈	-10.9085
如一念頃	-10.9086
撓	-10.9086
若有信者	-10.9086
措	-10.9086
婢	-10.9086
預知時至	-10.9086
聯	-10.9087
放大光明	-10.9087
偏空	-10.9088
鑊湯	-10.9088
萬德洪名	-10.9089
洛	-10.9089
釋經	-10.909
韋	-10.909
1	-10.909
舍衛	-10.9092
二合	-10.9092
熾盛	-10.9093
專持名號	-10.9093
依法	-10.9099
較量	-10.91
爾時世尊	-10.9101
百千劫	-10.9101
而住	-10.9102
淨佛國土	-10.9102
十念成就	-10.9103
綱宗	-10.9103
婦女	-10.9104
一條	-10.9106
無智	-10.9109
形相	-10.911
變作	-10.9116
西天	-10.9117
徹悟	-10.9119
諸比丘	-10.9121
相繼	-10.9122
財寶	-10.9123
之甚	-10.9126
五通	-10.9126
結勸	-10.9128
永絕	-10.9128
三七日	-10.9134
梵天	-10.9136
徧法界	-10.9137
》,	-10.9142
聲聞菩薩	-10.9146
皆須	-10.915
之頃	-10.9152
出聲	-10.9155
不食	-10.9155
謂佛	-10.9159
耶答	-10.9159
玉毫	-10.9169
世諦	-10.9174
遺教	-10.9174
現行	-10.9175
那得	-10.9176
上上品	-10.9179
佛告彌勒	-10.9185
惟佛	-10.9185
託彼	-10.9188
脩行	-10.9189
耳目	-10.9192
開敷	-10.9193
能除	-10.9194
往生西方	-10.9197
傾心	-10.9197
講經	-10.9197
莫非	-10.9201
真珠	-10.9204
諸緣	-10.9206
然燈	-10.9209
發菩提	-10.9213
不孝	-10.9214
亦須	-10.9215
端嚴	-10.9218
讀者	-10.9221
脫苦	-10.9221
施主	-10.9228
其教	-10.9229
標名	-10.9231
得生西方	-10.9233
南北	-10.9234
氏子	-10.9239
約理	-10.9243
作如是	-10.9244
愛樂	-10.9246
為義	-10.9251
苦痛	-10.9252
禪師曰	-10.9253
十二年	-10.9256
不輟	-10.9259
別相	-10.9261
假觀	-10.9262
生疑惑	-10.9262
圓照	-10.9267
有八	-10.9269
常樂	-10.9272
弘誓願	-10.9274
普現	-10.9275
之下	-10.9276
瓜	-10.9279
疑謗	-10.928
法華云	-10.928
所著	-10.9281
握	-10.9282
森	-10.9282
詰	-10.9284
彪	-10.9285
恬	-10.9285
迭	-10.9286
侍郎	-10.9286
逗	-10.9287
所載	-10.9287
哆	-10.9288
棘	-10.9288
帳	-10.9289
秖	-10.929
酥	-10.9291
獅子	-10.9291
無法不	-10.9291
磬	-10.9291
中有二	-10.9291
必然	-10.9291
根性	-10.9291
鹽	-10.9291
安慰	-10.9292
膽	-10.9293
禽獸	-10.9293
嚴飾	-10.9293
皇帝	-10.9294
如此愚人	-10.9294
皆當往生	-10.9295
校量	-10.9296
乎哉	-10.9297
兔	-10.9297
法樂	-10.9297
菜	-10.9298
皆得不退轉於阿耨多羅三藐三菩提	-10.9298
聲色	-10.9301
改悔	-10.9302
光緒	-10.9303
主宰	-10.9303
寂默	-10.9305
六波羅蜜	-10.9305
或作	-10.9309
難量	-10.9309
初正明	-10.931
正直	-10.9312
尊宿	-10.9313
亦乃	-10.9315
反覆	-10.9315
無限	-10.9319
口出	-10.932
後文	-10.932
慈悲心	-10.9321
千佛	-10.9325
【	-10.9325
具足十念	-10.9329
既然	-10.9329
應時	-10.933
曜	-10.9332
事造	-10.9334
珍重	-10.9334
塵垢	-10.9335
慈母	-10.9336
甘心	-10.9344
是故當知	-10.9352
念得	-10.9357
超出	-10.9361
珠網	-10.9364
佛頂	-10.9365
久矣	-10.9366
故非	-10.937
回向發願	-10.9373
徧滿	-10.9374
下下品	-10.9376
諸佛國	-10.9376
深恩	-10.9381
而反	-10.9382
寶珠	-10.9382
彌陀名號	-10.9382
將何	-10.9383
不謬	-10.9402
既成	-10.9402
不改	-10.9407
合論	-10.9412
相資	-10.942
照了	-10.9423
以及	-10.9424
總名	-10.9425
四海	-10.9427
詩云	-10.9429
諸障	-10.9432
道果	-10.9433
無量無數	-10.9442
發意	-10.9443
白玉	-10.9447
地藏	-10.9449
焉得	-10.9459
妙有	-10.9461
無退轉	-10.9462
發願云	-10.9466
念佛之心	-10.9466
水鳥	-10.9469
觀其	-10.9471
初禪	-10.9479
摸	-10.9483
本心	-10.9485
虫	-10.9487
明明	-10.9488
蠅	-10.949
携	-10.949
乾隆	-10.9492
今為	-10.9492
憤	-10.9493
唾	-10.9493
暖	-10.9493
嶽	-10.9493
中品上生	-10.9494
逞	-10.9494
蓬	-10.9495
賺	-10.9496
衛	-10.9496
賈	-10.9497
隙	-10.9498
瓊	-10.9498
沐浴	-10.9499
爽	-10.9499
僻	-10.95
宴	-10.9501
為勝	-10.9501
寅	-10.9502
荊棘	-10.9502
十惡五逆	-10.9503
釆	-10.9503
奉事師長	-10.9503
貪嗔	-10.9503
膚	-10.9504
也如是念	-10.9505
異香滿室	-10.9505
孩	-10.9506
降伏	-10.9506
▁南無當來彌勒佛	-10.9507
宣揚	-10.9507
身口意	-10.9509
洎	-10.9509
心力	-10.951
京師	-10.9511
邪婬	-10.9514
賢愚	-10.9515
不假方便	-10.9515
欲使	-10.9515
星宿	-10.9516
念彌陀佛	-10.9517
神明	-10.9518
內院	-10.9519
圓證	-10.952
州人	-10.9523
顏色	-10.9524
四重	-10.9525
帶業往生	-10.9528
不可不知	-10.9532
天下之	-10.9532
限量	-10.9534
大抵	-10.9535
集眾	-10.9541
佛意	-10.9547
得果	-10.9569
定得往生	-10.957
億劫	-10.957
不得巳	-10.9576
便為	-10.9578
任意	-10.958
業道	-10.9581
日出	-10.9581
分為	-10.9583
一品	-10.9585
無方	-10.9586
熏修	-10.9589
功用	-10.9591
或有眾生	-10.9592
二釋義	-10.9598
種智	-10.9605
惑業	-10.9605
天道	-10.9607
相貌	-10.9607
事畢	-10.9614
解義	-10.9621
光明照	-10.9628
頓超	-10.9632
清淨莊嚴	-10.9633
同治	-10.9637
而何	-10.9642
香氣	-10.9644
僧曰	-10.9644
如一	-10.9646
自能	-10.9649
始於	-10.9654
與汝	-10.9656
寶王論	-10.9659
貞	-10.9659
亦不能	-10.9662
何益	-10.9664
異名	-10.9669
精修	-10.967
如月	-10.967
佛家	-10.967
巳知	-10.9671
品位	-10.9671
生天上	-10.9676
八年	-10.9676
證三昧	-10.9683
初總	-10.9684
隻	-10.9691
出娑婆	-10.9693
一理	-10.9696
『	-10.9697
滅惡	-10.9698
寥	-10.9701
慳	-10.9702
學佛	-10.9702
擲	-10.9703
亟	-10.9703
理持	-10.9704
清淨本然	-10.9705
狼	-10.9705
耳聞	-10.9705
襟	-10.9706
秘	-10.9707
礫	-10.9707
匝	-10.9707
羨	-10.9708
輭	-10.9708
袁	-10.971
帀	-10.971
闊	-10.971
嚮	-10.971
慨	-10.971
酉	-10.9711
今云	-10.9713
不相妨	-10.9713
無所從來	-10.9713
摘	-10.9713
攝化	-10.9713
鈴	-10.9714
天上人間	-10.9714
三摩地	-10.9714
爍	-10.9714
炭	-10.9714
軒	-10.9715
陀羅	-10.9715
姚	-10.9716
祀	-10.9717
龍舒居士	-10.9717
伎樂	-10.9717
往生阿彌陀佛國	-10.9718
熱惱	-10.9718
葬	-10.9719
諫	-10.9719
無緣慈	-10.972
發四十八願	-10.9723
其佛國土	-10.9723
勸念佛	-10.9729
具云	-10.9731
阿含	-10.9735
仁慈	-10.9739
第八識	-10.9743
不足以	-10.9743
相逢	-10.9744
以示	-10.9746
可乎	-10.9746
想成	-10.9747
雖不能	-10.975
親聞	-10.9751
與佛同	-10.9752
傳法	-10.9753
出世間法	-10.9756
智度論云	-10.9759
一步	-10.9759
惑亂	-10.9759
數日	-10.9762
誦持	-10.9763
開導	-10.9764
垂終	-10.9765
一切善	-10.9771
金光	-10.9772
演法	-10.9774
劫數	-10.9776
家鄉	-10.9776
知足	-10.9778
五住	-10.9779
誦云	-10.9782
太平	-10.9783
千由旬	-10.9793
孰能	-10.9795
凡聖同居	-10.9796
而行之	-10.9796
又問曰	-10.9799
離垢	-10.9809
光明無量	-10.981
施戒	-10.9811
見諸佛	-10.9813
次句	-10.9813
摩羅	-10.9817
其相	-10.9819
未足	-10.982
佛現	-10.982
方始	-10.9822
古佛	-10.9823
姓也	-10.9827
一切三寶	-10.9828
餘行	-10.983
盡虗空界一切三寶	-10.983
是書	-10.983
正顯	-10.9834
一偈	-10.9834
彼如來	-10.9842
唯除	-10.9845
圓妙	-10.9846
未忘	-10.9846
立名	-10.9849
勉之	-10.9851
以致	-10.9853
次日	-10.9854
二名	-10.9855
一切法門	-10.9856
六月	-10.9862
徃	-10.9863
二觀	-10.9865
翻成	-10.9867
實法	-10.987
水月	-10.9871
歸來	-10.9885
在我	-10.9888
往生傳	-10.9892
有所得	-10.9892
真淨	-10.9894
不遇	-10.9896
此呪	-10.9896
無量世界	-10.9902
祇是	-10.9906
濟度	-10.9906
深廣	-10.9908
報土	-10.991
專為	-10.9915
艱	-10.9915
伐	-10.9918
豈不是	-10.9918
求生極樂	-10.9919
渺	-10.9919
離過絕非	-10.9921
虔	-10.9921
注想	-10.9921
駭	-10.9923
卵	-10.9924
緯	-10.9924
去則實不去	-10.9924
奢	-10.9924
如入禪定	-10.9925
杭	-10.9926
惡法	-10.9926
枷	-10.9926
阿鼻地獄	-10.9926
極樂依正	-10.9927
鑄	-10.9927
牟尼	-10.9928
白鶴	-10.9928
苑	-10.9928
窗	-10.9931
是諸眾鳥	-10.9931
播	-10.9931
芥子	-10.9931
擬議	-10.9932
絡	-10.9932
亦皆	-10.9932
谿	-10.9933
寶座	-10.9933
酌	-10.9933
蹉	-10.9933
阿逸多	-10.9933
博地凡夫	-10.9934
伽陀	-10.9937
性命	-10.9937
予曰	-10.9937
二釋經二	-10.994
初果	-10.994
香爐	-10.9942
勤精進	-10.9942
念佛三昧者	-10.9943
百丈	-10.9944
四趣	-10.9945
加以	-10.9946
專修淨業	-10.9949
極樂世界阿彌陀佛	-10.9952
增減	-10.9955
疑情	-10.9957
金容	-10.9958
八德	-10.996
乘此	-10.996
主張	-10.9961
淨邦	-10.9962
一日七日	-10.9963
十二因緣	-10.9964
正月	-10.9964
能救	-10.9965
看經	-10.9968
神呪	-10.9969
以喻	-10.997
百味	-10.9971
易行道	-10.9972
序云	-10.9972
即般若	-10.9977
求出離	-10.9986
戒行	-10.999
蓮華臺	-10.9994
不見佛	-10.9994
蓮師	-10.9996
言語	-11
破見思	-11.0004
仁王	-11.0008
城中	-11.0008
初觀	-11.001
舌相	-11.0013
涅槃經云	-11.002
故於	-11.0023
向外	-11.0026
生死苦	-11.0032
或問曰	-11.004
證得	-11.0042
既得	-11.0043
生安樂	-11.0043
於此世界	-11.0046
出沒	-11.0047
感佛	-11.0057
別離	-11.0059
斷見思	-11.0062
見彼	-11.0067
所及	-11.0071
人我	-11.0077
火聚	-11.0082
俱時	-11.0092
更何	-11.0093
女身	-11.0103
三階	-11.0105
梵王	-11.0106
之家	-11.011
邪師	-11.0113
青蓮	-11.0121
二十九	-11.0122
願求生	-11.0123
不信有	-11.0124
苟能	-11.0129
安在	-11.0129
堅持	-11.013
殷	-11.0132
法報	-11.0133
至期	-11.0134
鴈	-11.014
常樂我淨	-11.0142
置之	-11.0143
思惑	-11.0143
鴻	-11.0144
緇	-11.0144
要在	-11.0144
從佛	-11.0144
戮	-11.0144
憐憫	-11.0144
有世界名曰極樂	-11.0146
嶺	-11.0147
叫	-11.0147
生則決定生	-11.0148
帙	-11.015
煖	-11.015
斤	-11.015
敏	-11.015
嫉	-11.015
抽	-11.015
瓏	-11.015
韓	-11.0151
傲	-11.0151
眾生來生其國	-11.0151
非有非無	-11.0152
冊	-11.0154
萎	-11.0154
中品下生	-11.0154
無有出期	-11.0154
二百五十	-11.0155
煑	-11.0155
不可知數	-11.0155
蕅益	-11.0155
虗空界	-11.0156
原無	-11.0156
先德云	-11.0157
孺	-11.0158
頭陀	-11.016
稱佛名號	-11.016
數量	-11.016
歷代	-11.0162
悲華經	-11.0162
百聲	-11.0163
摩頂	-11.0165
回首	-11.0167
幻化	-11.0168
少康	-11.017
救度	-11.017
勢力	-11.0176
冤親	-11.0178
論議	-11.0179
)「	-11.018
一性	-11.0182
全彰	-11.0183
通名	-11.0185
天帝	-11.0186
俱非	-11.0186
冤家	-11.0188
靈明	-11.0191
二首	-11.0191
總別	-11.0192
▁一心敬禮	-11.0195
安養國	-11.0196
輕微	-11.0197
何獨	-11.0198
阿彌陀佛名號	-11.0198
接引眾生	-11.0199
先當	-11.0201
田地	-11.0203
起信論云	-11.0204
龍樹菩薩	-11.0208
要緊	-11.0211
世所	-11.0213
高聲念佛	-11.0214
其聲	-11.0215
每見	-11.0218
華上	-11.0221
鬼畜	-11.0222
少善根	-11.0229
傳記	-11.0238
開合	-11.0238
十戒	-11.024
一書	-11.0242
三百	-11.0242
是故舍利弗	-11.0251
涅槃云	-11.0251
之患	-11.0255
成聖	-11.026
同登	-11.0266
立行	-11.0273
解脫門	-11.0275
諸菩薩摩訶薩	-11.028
遞	-11.028
朔	-11.0281
隨佛	-11.0282
開口	-11.0282
眼目	-11.0282
同在	-11.0287
常聞	-11.0289
約事	-11.0289
聞妙法	-11.0292
隨宜	-11.0293
歡喜地	-11.0293
別名	-11.0293
二子	-11.0295
七佛	-11.0297
志願	-11.0299
無得	-11.0313
感報	-11.0313
必得往生	-11.0314
障道	-11.0316
諸家	-11.0317
觀經言	-11.0318
廣長	-11.0319
即指	-11.0319
真信	-11.0323
大乘經	-11.033
上中下	-11.0332
終不能	-11.0332
釋義	-11.0332
今依	-11.034
盡力	-11.0341
臨終念佛	-11.0346
誠實	-11.0347
受樂	-11.0348
定散	-11.035
縱令	-11.0352
無憂	-11.0355
本末	-11.0357
本非	-11.036
臨時	-11.0362
誠為	-11.0366
正好	-11.0367
狐	-11.0369
不休息	-11.0371
憍慢	-11.0371
惡報	-11.0371
今疏	-11.0372
筋	-11.0374
麥	-11.0375
除八十億劫生死之罪	-11.0375
啄	-11.0375
殞	-11.0376
怙	-11.0376
突	-11.0377
無問自說	-11.0378
即得往生阿彌陀佛極樂國土	-11.0378
□□□□	-11.0378
古來	-11.0379
何苦	-11.038
涵	-11.038
壤	-11.0381
抗	-11.0381
乃可	-11.0381
聞我名字	-11.0381
大如車輪	-11.0381
不外	-11.0382
偷盜	-11.0382
丁寧	-11.0382
纖毫	-11.0383
秘藏	-11.0383
其數甚多	-11.0383
毗盧	-11.0386
一代時教	-11.0386
夾雜	-11.0386
飛行	-11.0387
一朵	-11.0388
牽纏	-11.0389
功夫	-11.039
清冷	-11.0395
地位	-11.0396
其旨	-11.0396
受輪迴	-11.0397
波羅	-11.0397
癡人	-11.0398
一稱南無佛	-11.0399
所觀境	-11.0399
乞士	-11.0399
妙悟	-11.0401
安心	-11.0403
略說	-11.0404
取淨	-11.0404
高明	-11.0406
能現	-11.0407
淨土或問	-11.041
法華三昧	-11.042
位不退	-11.0424
終歸	-11.0428
大丈夫	-11.043
命根	-11.043
將終	-11.0431
念法	-11.0432
舒舌	-11.0433
立誓	-11.0434
使其	-11.0435
高座	-11.0437
後來	-11.0437
覺他	-11.0441
前程	-11.0442
十方一切	-11.0445
之福	-11.0445
便可	-11.0446
十萬遍	-11.045
不輕	-11.0458
千古	-11.0459
藥師	-11.0461
修十善	-11.0463
專持	-11.0463
禪觀	-11.0464
為期	-11.0466
九品往生	-11.0467
其次	-11.0468
不能知	-11.0469
結集	-11.0469
九蓮	-11.0471
證無生忍	-11.0472
和會	-11.0475
世上	-11.0477
華香	-11.048
之志	-11.0482
無邊際	-11.0485
設教	-11.0487
道場樂	-11.0494
橫生	-11.0499
無生滅	-11.0501
淨願	-11.0509
六道眾生	-11.051
當作佛	-11.0523
國土莊嚴	-11.0528
親證	-11.0535
能信	-11.0538
遷流	-11.0539
下約	-11.0541
四時	-11.0541
初祖	-11.0548
念佛之時	-11.0549
生歡喜	-11.0559
障難	-11.056
入聲	-11.0561
此云大	-11.0565
正釋	-11.057
諸魔	-11.0574
什師	-11.0575
禪師云	-11.0576
四十二	-11.0576
頌曰	-11.058
何止	-11.0583
巳靈	-11.0583
福壽	-11.0585
聖境	-11.0586
豈易	-11.059
無殊	-11.0596
介	-11.0597
能攝	-11.06
怡	-11.06
大圓鏡智	-11.0602
趙	-11.0603
𢹂	-11.0603
零	-11.0604
偉	-11.0604
迅速	-11.0604
驟	-11.0605
盧舍那	-11.0605
瑕	-11.0606
無上深妙禪	-11.0606
殺盜婬	-11.0607
我見是利	-11.0608
之辭	-11.0609
彚	-11.061
膏	-11.061
詢	-11.061
於汝意云何	-11.0612
輻	-11.0612
其土眾生	-11.0612
及早	-11.0613
教行理	-11.0613
丙	-11.0614
無二無別	-11.0614
是人終時	-11.0614
藝	-11.0615
天台智者大師	-11.0616
中品中生	-11.0616
直截	-11.0616
具足眾戒	-11.0617
慙愧	-11.0617
貽	-11.0618
高接下讚云	-11.0618
父母妻子	-11.0619
毀謗	-11.0621
脩羅	-11.0622
眉間	-11.0623
勇猛精進	-11.0623
相隨	-11.0624
寶閣	-11.0633
不畏	-11.0635
別時意	-11.0636
無生而生	-11.0636
叵得	-11.0638
正念現前	-11.0639
七寶池中	-11.0639
修菩薩行	-11.064
眾生界	-11.0642
多種	-11.0647
坐脫	-11.0648
千般	-11.065
多年	-11.0651
入道場	-11.0654
趨向	-11.0656
繫緣	-11.0658
國中菩薩	-11.0659
慈愍	-11.0663
善逝	-11.0665
變造	-11.0666
普被	-11.0669
禮敬	-11.0672
毫無	-11.0677
增上	-11.0678
寒山	-11.0678
趣向	-11.0685
六句	-11.0687
諦聽	-11.0687
宋譯	-11.0689
緣深	-11.0692
紫金身	-11.0692
但使	-11.0694
七趣	-11.0697
專想	-11.0697
頭頭	-11.07
於佛前	-11.07
億萬	-11.0701
對待	-11.0702
根機	-11.0704
得忍	-11.071
速證	-11.0714
濁水	-11.0717
捨命	-11.0725
香山	-11.0728
階不退	-11.0729
一珠	-11.0731
篤信	-11.0731
生淨土故	-11.0732
、《	-11.0734
十方盡虗空界一切	-11.0735
明珠	-11.0736
德佛	-11.074
王氏	-11.0743
不歷	-11.0753
眾生心中	-11.0754
二十七	-11.0754
香雲	-11.0762
孔子曰	-11.0766
念彼佛	-11.0768
兒女	-11.0769
下根	-11.077
無自性	-11.0771
永滅	-11.0773
五趣	-11.0775
持五戒	-11.0776
六念	-11.0776
豈以	-11.0779
大智慧	-11.0785
不負	-11.0788
起一念	-11.0798
壇經	-11.08
相傳	-11.0801
必能	-11.0802
造五逆	-11.0804
並無	-11.0818
起念	-11.0822
深思	-11.0824
妙德	-11.0829
安知	-11.0829
拳	-11.0833
道業	-11.0833
信知	-11.0834
蕭	-11.0837
肎	-11.0839
今發願	-11.0839
奄	-11.0841
囉	-11.0842
秘密	-11.0843
癸	-11.0844
迅	-11.0845
字字分明	-11.0845
衢	-11.0845
企	-11.0846
范	-11.0846
討	-11.0846
今復	-11.0847
喚醒	-11.0847
枝葉	-11.0847
恢	-11.0848
儀軌	-11.0848
柏	-11.0849
絲毫	-11.0849
瞽	-11.0849
旋繞	-11.085
躭	-11.085
二俱	-11.085
凌	-11.085
鬬	-11.0851
淨土晨鐘	-11.0851
剃	-11.0852
忿	-11.0852
級	-11.0853
但念阿彌陀佛	-11.0853
廿	-11.0854
蔭	-11.0854
一一皆	-11.0855
裁	-11.0855
爪	-11.0856
幽溪	-11.0857
為首	-11.0858
疏主	-11.0859
徒勞	-11.086
高低	-11.0862
室中	-11.0872
意欲	-11.0873
光景	-11.0873
達摩	-11.0873
進退	-11.0883
有病	-11.0884
死苦	-11.0884
中郎	-11.0888
其國眾生	-11.0891
正說	-11.0892
顯理	-11.0901
以手	-11.0902
親承	-11.0905
間有	-11.0909
有智者	-11.0913
空華	-11.0916
而後巳	-11.0917
斷煩惱	-11.0918
于是	-11.092
一句彌陀佛	-11.092
論語	-11.0923
婬欲	-11.0927
神珠	-11.093
會得	-11.0933
急須	-11.0934
則念念	-11.094
經書	-11.0941
若一日	-11.0946
外緣	-11.0946
事業	-11.0957
數千	-11.0961
隨人	-11.0963
妙境	-11.0965
平地	-11.0971
中峯	-11.0974
還歸	-11.0977
無違	-11.0979
般舟三昧經	-11.0979
自信	-11.0982
有功	-11.0986
一百	-11.0987
如大海	-11.0987
方便土	-11.0989
轉相	-11.0992
其德	-11.0998
亦猶	-11.1004
諸煩惱	-11.1007
盡無餘	-11.1007
劣應	-11.101
一晝夜	-11.1016
白業	-11.1022
今朝	-11.1022
會中	-11.1025
弘願	-11.103
念念彌陀	-11.103
魔業	-11.1033
外求	-11.1039
毫端	-11.1041
亂心	-11.1051
頓入	-11.1056
五苦	-11.1057
靈知	-11.1068
見彼佛	-11.107
界外	-11.1072
可痛	-11.1076
功德不可思議	-11.1077
極樂淨土	-11.1079
酪	-11.1081
剛	-11.1082
誦法華	-11.1084
乃至一念	-11.1085
衣裓	-11.1085
捕	-11.1086
柴	-11.1087
仕	-11.1087
則佛土淨	-11.1087
鴿	-11.1088
第十二	-11.109
貨	-11.109
全性起修	-11.1091
儔	-11.1091
去佛不遠	-11.1091
勳	-11.1092
葷	-11.1092
專稱名字	-11.1093
翅	-11.1093
宗賾	-11.1093
入一切眾生心想中	-11.1093
鑽	-11.1093
彥	-11.1094
凡聖同居土	-11.1095
孕	-11.1095
呈	-11.1095
萬曆	-11.1095
敝	-11.1095
慣	-11.1095
田園	-11.1096
伴侶	-11.1096
詐	-11.1097
宛轉	-11.1098
洞徹	-11.1098
羅睺羅	-11.1099
𦦨肩	-11.1101
杭州	-11.1101
立宗	-11.1101
輪迴六道	-11.1102
靈峯	-11.1103
本師釋迦牟尼佛	-11.1103
活計	-11.1104
良繇	-11.1106
百川	-11.1106
去此不遠	-11.1107
深妙	-11.1107
短命	-11.1109
聞佛所說	-11.1111
方廣	-11.1111
救眾生	-11.1114
堂堂	-11.1114
華言	-11.1116
發現	-11.1118
互融	-11.1119
信願行	-11.1123
發揮	-11.1124
不信因果	-11.1124
惱亂	-11.1126
不涉	-11.1128
根鈍	-11.1131
識得	-11.1132
過去未來	-11.1145
比丘尼	-11.1145
互為	-11.1145
一室	-11.1146
覺分	-11.1148
常隨	-11.1149
金剛般若	-11.1149
巳過	-11.115
由他	-11.1152
念佛不輟	-11.1152
專念佛	-11.1155
攷證	-11.1156
今文	-11.1156
業繫	-11.116
行菩薩道	-11.1162
登彼岸	-11.1164
其有眾生	-11.1167
惑盡	-11.1168
苦果	-11.1174
惟在	-11.1176
能具	-11.1176
體究	-11.1179
漸次	-11.1184
再三	-11.1186
中流	-11.1188
照耀	-11.1189
老僧	-11.119
定業	-11.1194
山林	-11.1195
▁二明	-11.1195
帝網	-11.1199
拔苦	-11.1206
必生淨土	-11.1208
般舟三昧	-11.121
用功	-11.1213
歸元	-11.1216
四悉	-11.1218
而巳矣	-11.1219
迷情	-11.1223
忽有	-11.1223
勸讚	-11.1225
文章	-11.1229
今略	-11.1231
為諸眾生	-11.1232
必當	-11.124
讀之	-11.124
真體	-11.125
難忍	-11.1261
先聖	-11.1261
總觀	-11.1261
阿彌陀佛四字	-11.1266
平常	-11.1266
可思議	-11.1275
通明	-11.1275
傳云	-11.1278
亦不可得	-11.1282
異常	-11.1287
生即無生	-11.129
勤行	-11.1295
坐道場	-11.1297
結歸	-11.131
無分別	-11.1315
佛德	-11.1318
舉念	-11.1325
據此	-11.1325
讖	-11.1331
強名	-11.1332
驀	-11.1333
維摩詰	-11.1333
何以得知	-11.1333
戒香	-11.1333
昆	-11.1334
劑	-11.1336
柯	-11.1336
□□	-11.1336
頻伽	-11.1336
鼠	-11.1337
粉	-11.1338
籌	-11.1339
亘	-11.134
霄	-11.134
練	-11.134
弦	-11.1341
吝	-11.1341
簿	-11.1342
柔輭	-11.1342
夕陽	-11.1342
謨	-11.1342
輸	-11.1342
不謗大乘	-11.1343
無常迅速	-11.1343
聞我名號	-11.1344
具說	-11.1345
好醜	-11.1345
自得心開	-11.1345
機感	-11.1345
大𦦨肩佛	-11.1345
應當發願生彼國土	-11.1346
頂戴	-11.1346
謗佛	-11.1346
外境	-11.1346
幢幡	-11.1348
阿鞞䟦致	-11.1349
暎	-11.1349
胎獄	-11.1349
開發	-11.1349
千百	-11.1349
必定見佛	-11.135
次引	-11.1351
園林	-11.1352
攸	-11.1352
即得往生極樂世界	-11.1352
仔細	-11.1352
變化所作	-11.1353
永無退轉	-11.1353
當願眾生	-11.1353
頻婆	-11.1354
染著	-11.1354
遲速	-11.1354
天台智者	-11.1355
帶業	-11.1355
同生淨土	-11.1358
晚年	-11.136
善念	-11.136
徹底	-11.136
長跪	-11.136
影響	-11.136
神光	-11.136
輕慢	-11.1362
往詣	-11.1362
血肉	-11.1362
池中蓮華	-11.1363
華藏世界	-11.1364
流注	-11.1367
尤甚	-11.1368
大寶積經	-11.1369
他身	-11.1378
雙亡	-11.1379
名極樂	-11.1379
不安	-11.138
只因	-11.1381
十萬億土	-11.1384
徧覆	-11.1387
下三品	-11.1388
真境	-11.1389
魔軍	-11.1389
總為	-11.1391
五月	-11.1391
下手	-11.1406
池上	-11.1408
隨願往生	-11.1409
以淨土為	-11.1409
獲益	-11.1422
無一物	-11.1427
一百八	-11.143
正所謂	-11.1431
勸發	-11.1435
跳	-11.1441
初正釋	-11.1443
姓名	-11.1444
淨土之說	-11.1444
皆屬	-11.1452
哀憐	-11.1453
正教	-11.1462
西去	-11.1467
立化	-11.1469
藥王	-11.1469
十疑論云	-11.1474
彼佛壽命	-11.1475
於一切時	-11.1476
罪報	-11.1487
試問	-11.1487
何幸	-11.1489
雖殊	-11.149
歸極樂	-11.1493
過失	-11.1497
憐愍	-11.1497
婦人	-11.1498
品云	-11.1499
屬於	-11.1502
未到	-11.1503
恭敬供養	-11.1503
全在	-11.1503
福業	-11.1504
七歲	-11.1505
離欲	-11.1518
仙人	-11.152
朝朝	-11.1521
開明	-11.1523
速成	-11.1524
清水	-11.1529
十勝	-11.1534
從今日	-11.1535
同異	-11.155
釋疑	-11.155
障深	-11.1553
證信	-11.1556
見惑	-11.1558
結緣	-11.1559
不懼	-11.1561
持念	-11.1564
無數劫	-11.1564
種善根	-11.1565
權教	-11.1565
喜樂	-11.1566
來接引	-11.1568
提起	-11.1568
生厭離	-11.1569
三字	-11.1574
萬世	-11.1576
巳悟	-11.158
假令	-11.1582
能隨	-11.1587
敲	-11.1588
丸	-11.159
蹉跎	-11.1591
趂	-11.1591
矧	-11.1592
腐	-11.1592
地水火風	-11.1592
豫	-11.1593
演暢	-11.1594
不期	-11.1596
旃	-11.1597
倐	-11.1597
劬勞	-11.1597
躡	-11.1598
辟	-11.1598
不可窮盡	-11.1599
尚在	-11.1599
六字洪名	-11.1599
亮	-11.1599
揖	-11.16
迦陵頻伽	-11.16
色聲	-11.16
脈	-11.1601
壅	-11.1601
阿耨菩提	-11.1601
慈照宗主	-11.1602
唯是一心	-11.1603
蠶	-11.1603
皆是阿鞞䟦致	-11.1604
踊躍	-11.1604
寶樓	-11.1605
調御	-11.1605
情想	-11.161
楚石	-11.1611
虗偽	-11.1611
甘美	-11.1611
第二階	-11.1611
程途	-11.1613
好心	-11.1613
刻刻	-11.1613
命終之後	-11.1615
一切有情	-11.1615
登極樂	-11.1616
執空	-11.1618
愛河	-11.1619
八尺	-11.1621
請僧	-11.1622
此即初	-11.1628
青山	-11.1629
留心	-11.1633
和南	-11.1633
三輩九品	-11.1633
救度眾生	-11.164
定課	-11.1645
一切如來	-11.1647
持齋戒	-11.1648
大哉	-11.1649
十念往生	-11.1649
八戒	-11.1654
示眾	-11.1654
所陳	-11.1655
勝友	-11.1656
直待	-11.1662
聚會	-11.1663
託生	-11.1663
無非法界	-11.1667
清珠	-11.1669
經營	-11.167
大旨	-11.1675
無一法	-11.1677
取舍	-11.1677
往生樂	-11.1679
歲次	-11.1687
七年	-11.169
其父	-11.1701
以念佛為	-11.1703
果然	-11.1705
歸向	-11.1706
救苦	-11.1708
苦報	-11.1709
我弟子	-11.1711
滅諦	-11.1712
必矣	-11.1713
寶像	-11.1714
求救	-11.1715
足下	-11.1715
妙色	-11.172
善因	-11.172
孝子	-11.1721
白日	-11.1722
先覺	-11.1729
一歲	-11.1732
天神	-11.1735
順水	-11.174
五會念佛	-11.1741
誤人	-11.1742
述偈	-11.1743
福智	-11.1744
觀像	-11.1752
未除	-11.176
小彌陀經	-11.1762
苦諦	-11.1771
五句	-11.1773
神變	-11.1775
未識	-11.1779
飯食	-11.178
飛空	-11.178
一類	-11.1781
邊際	-11.1782
三慧	-11.1783
妙旨	-11.1792
切要	-11.1792
深厚	-11.1792
雖異	-11.1794
二十六	-11.1806
讚曰	-11.1809
法味	-11.1811
安得不	-11.1817
承當	-11.1819
嗏	-11.1829
不越	-11.1831
正好念佛若人	-11.1834
黑業	-11.184
枚	-11.1846
』	-11.1847
少善	-11.1847
華葉	-11.1848
揑	-11.1849
首楞嚴	-11.1849
榻	-11.185
魄	-11.1851
懶	-11.1852
自甘	-11.1853
岳	-11.1856
殻	-11.1856
眾所知識	-11.1856
刪	-11.1858
恍	-11.1858
吁	-11.1858
生而無生	-11.1859
我執	-11.1859
南嶽	-11.186
優婆夷	-11.186
鐵圍山	-11.186
儉	-11.186
作禮而去	-11.1861
拱	-11.1861
軸	-11.1861
匹	-11.1862
盆	-11.1862
卦	-11.1862
4	-11.1864
踪	-11.1864
於諸眾生	-11.1864
驢	-11.1865
耑	-11.1865
戊	-11.1865
自誤	-11.1866
飢渴	-11.1866
迄	-11.1866
方便有餘土	-11.1866
衍	-11.1866
禹	-11.1867
嗔恨	-11.1867
不犯威儀	-11.1868
長蘆	-11.1868
塘	-11.1868
愽	-11.1869
鞋	-11.1869
歸安養	-11.1872
孝養	-11.1873
瞻仰	-11.1875
真能念佛	-11.1875
蝦	-11.1875
勉強	-11.1875
安穩	-11.1876
拔濟	-11.1877
等是也	-11.1881
調和	-11.1882
不顛倒	-11.1885
禪悅	-11.1887
妄計	-11.1889
血氣	-11.1896
金色身	-11.1899
寄語	-11.1903
當發願	-11.1903
智論云	-11.1908
於其中	-11.1908
影像	-11.1908
家緣	-11.1911
空谷	-11.1916
聞慧	-11.1916
點示	-11.1918
還源	-11.1918
宗本	-11.1922
其類	-11.1929
一喝	-11.1933
手足	-11.1933
次想	-11.1934
全真	-11.1942
安身	-11.1944
喜曰	-11.1947
隨逐	-11.1947
終成	-11.1947
棄捨	-11.1947
判為	-11.1948
更無別	-11.195
窮極	-11.1951
道家	-11.1953
南山	-11.1955
雙修	-11.1958
數息	-11.1959
得生易	-11.1959
於一切眾生	-11.1961
造論	-11.1964
此之謂也	-11.1966
女子	-11.1969
設使	-11.1972
在茲	-11.1973
種種方便	-11.1973
般涅槃	-11.1974
樂音	-11.1983
讚揚	-11.1985
是之謂	-11.1987
一微塵	-11.1989
他經	-11.1992
先世	-11.1993
正念分明	-11.1994
標心	-11.1998
聖人之	-11.1998
實際	-11.1999
夫子	-11.2002
風流	-11.2006
跳出	-11.2012
學佛者	-11.2015
香光	-11.2022
故我頂禮	-11.2025
攝論	-11.2039
持佛名	-11.2044
浮生	-11.2045
法執	-11.2045
紅蓮	-11.2049
最易	-11.2051
宗風	-11.2051
件	-11.2064
以念佛心	-11.2067
到西方	-11.2068
五品	-11.2078
易往	-11.2081
果位	-11.209
聞此經	-11.2096
此土眾生	-11.2098
瑠璃地	-11.2098
第十一	-11.2099
時刻	-11.2105
極力	-11.2111
態	-11.2121
悴	-11.2123
怛	-11.2124
棒	-11.2125
妄謂	-11.2125
敕	-11.2127
了了分明	-11.2128
炙	-11.2128
阿僧祗劫	-11.2128
楊次公	-11.2128
樵	-11.2129
頴	-11.2129
削	-11.213
現前當來必定見佛	-11.213
母子	-11.2131
如說修行	-11.2133
魁	-11.2133
擯	-11.2133
輾轉	-11.2133
區區	-11.2134
倖	-11.2134
苗	-11.2134
七重行樹	-11.2135
諒	-11.2135
充滿其中	-11.2135
托質	-11.2136
燦	-11.2136
樂邦文類	-11.2137
烹	-11.2137
鳩	-11.2137
皈命	-11.2137
箇箇	-11.2138
奕	-11.2138
祕密	-11.2138
塊	-11.2139
肝	-11.2139
王舍城	-11.214
化成	-11.2143
緊要	-11.2143
清淨海眾	-11.2143
婆羅門	-11.2143
靈峰	-11.2144
到彼岸	-11.2144
幾許	-11.2147
閉目	-11.215
橫竪	-11.215
交徹	-11.2154
哀愍	-11.2154
遇知識	-11.2155
妄認	-11.2156
怖魔	-11.2157
兩經	-11.2157
靈光	-11.2157
神通自在	-11.2158
集諦	-11.216
瑞應	-11.2167
九十日	-11.2168
得三昧	-11.2169
孟子曰	-11.2176
六方佛	-11.2183
昭然	-11.2183
有淺深	-11.2186
害母	-11.2186
違順	-11.2188
切勿	-11.2193
令諸眾生	-11.2197
遍法界	-11.2199
一異	-11.22
土木	-11.2205
妙果	-11.2214
不能害	-11.2214
於一切法	-11.2214
行不退	-11.2221
兩句	-11.2221
▁二釋	-11.2222
出胎	-11.2222
四面	-11.2223
見佛身	-11.2226
得免	-11.2235
回向西方	-11.2235
若七日	-11.2236
圓極	-11.2237
在何處	-11.2239
不相應	-11.2244
得見阿彌陀佛	-11.2246
此段	-11.2252
紫金色	-11.2252
照十方國	-11.2252
玄義	-11.2254
偏小	-11.2255
接引往生	-11.2256
所譯	-11.2256
老死	-11.2259
無妨	-11.2261
不差	-11.2263
應機	-11.2267
失正念	-11.2267
生彼國巳	-11.227
光影	-11.2272
昔日	-11.2279
本來無	-11.2285
單提	-11.2289
金輪	-11.2292
現在前	-11.2292
極惡	-11.231
安坐	-11.2313
不相違	-11.2323
彌陀像	-11.2326
不停	-11.2327
如是等法	-11.233
喝	-11.2337
一切善根	-11.2348
忘失	-11.2352
極矣	-11.2353
巳竟	-11.2359
俄而	-11.2365
頓漸	-11.237
正語	-11.2373
緣慮	-11.2374
矢	-11.239
痛哉	-11.2392
筏	-11.2397
戌	-11.2401
汪	-11.2402
巢	-11.2403
可厭	-11.2405
曩	-11.2406
㵎	-11.2406
菩提涅槃	-11.2406
築	-11.2406
兒孫	-11.2406
滑	-11.2407
善能覺了	-11.2407
衝	-11.2408
几	-11.2408
貶	-11.2408
猪	-11.2408
馬鳴龍樹	-11.2409
山河大地	-11.2409
桐	-11.2409
譯人	-11.2409
愛著	-11.241
樞	-11.241
盥	-11.241
不遑念佛	-11.241
誹謗正法	-11.2412
瓦	-11.2412
朋友	-11.2413
朝夕	-11.2413
何況有實	-11.2413
撥無因果	-11.2413
旱	-11.2413
繡	-11.2414
溢	-11.2414
是心作佛是心是佛	-11.2414
端坐而化	-11.2414
舍衛國	-11.2415
鷄	-11.2416
猶豫	-11.2416
發露懺悔	-11.2417
猛省	-11.2418
佐	-11.2418
受菩薩戒	-11.2418
檻	-11.2418
最上乘	-11.2419
脉	-11.242
圭	-11.2421
女人及根缺	-11.2421
勸進行者	-11.2421
何待	-11.2421
白銀	-11.2422
夜叉	-11.2422
心作佛	-11.2422
迷津	-11.2423
念佛不得了也	-11.2424
坐逝	-11.2425
永不退轉	-11.2427
西方去此	-11.2428
良藥	-11.2429
幽冥	-11.2429
超絕	-11.2431
淨慈	-11.2432
未易	-11.2433
闍王	-11.2434
心外無法	-11.2435
師子覺	-11.2436
墮三惡道	-11.2437
寶瓶	-11.2437
一篇	-11.2437
一心歸命	-11.2437
證小果	-11.2439
觸目	-11.2446
香花	-11.2447
雪山	-11.245
天冠	-11.2455
悟解	-11.2455
道路	-11.2457
真偽	-11.246
長齋	-11.246
尚得往生	-11.2464
字函	-11.2466
覺滿	-11.2468
豈不見	-11.2472
加持	-11.2472
何勞	-11.2489
耶舍	-11.2489
迴向發願心	-11.2489
還復	-11.2492
慈親	-11.2496
口稱	-11.25
千歲	-11.2504
大導師	-11.2519
行願品	-11.252
萬古	-11.2523
邪命	-11.2523
利害	-11.2526
第十六	-11.2529
苟不	-11.253
海水	-11.2535
五百億	-11.2537
花臺	-11.2539
流通分	-11.254
為君子	-11.2545
無如念佛	-11.2546
諸佛國土	-11.2547
寶光	-11.2557
具載	-11.2559
憫念	-11.2562
全體是	-11.2569
可到	-11.2575
分九品	-11.258
伏願	-11.2581
日沒	-11.2584
未幾	-11.2585
數數	-11.2588
痛切	-11.2592
切不可	-11.2594
未曾有	-11.26
數年	-11.2603
所讚	-11.2605
專念彌陀	-11.2612
此句	-11.2624
仗佛	-11.2627
下四句	-11.2628
數聲	-11.2628
一刻	-11.2634
德水	-11.2637
大利	-11.2638
偈頌	-11.264
題目	-11.265
今古	-11.2654
要旨	-11.2665
修三昧	-11.2677
修禪	-11.268
哩	-11.2686
艾	-11.2686
瞬	-11.2687
機宜	-11.2688
兢	-11.2689
甦	-11.2689
莫尚乎	-11.2689
還到本國	-11.269
戚	-11.269
娘	-11.2691
桓	-11.2691
拽	-11.2691
漂	-11.2691
灌頂	-11.2692
窓	-11.2693
佗	-11.2694
熙	-11.2695
心想佛時	-11.2695
蜀	-11.2695
而得往生	-11.2695
諸佛心內眾生	-11.2696
蜂	-11.2696
贖	-11.2696
侈	-11.2697
龐	-11.2697
戾	-11.2697
常精進菩薩	-11.2697
七菩提分	-11.2697
熈	-11.2698
皮袋	-11.2699
儀式	-11.2699
受想行識	-11.2699
甜	-11.2699
是為甚難	-11.27
諄諄	-11.27
冗	-11.27
埽	-11.27
禦	-11.27
倣	-11.2701
群疑論	-11.2702
不一不異	-11.2702
波旬	-11.2702
紛飛	-11.2702
如意珠王	-11.2704
金剛臺	-11.2704
荊溪	-11.2705
年七十	-11.2706
赤珠	-11.2706
所不能及	-11.2706
十歲	-11.2707
閻王	-11.2707
周徧法界	-11.2707
食噉	-11.2708
即是如來	-11.2709
遮那	-11.2709
畫像	-11.2709
超然	-11.271
須臾間	-11.2712
安排	-11.2714
次二句	-11.2718
決定信	-11.2718
冥冥	-11.2718
靈驗	-11.2719
尊貴	-11.2721
竭力	-11.2721
到家	-11.2721
貞觀	-11.2721
所惑	-11.2723
千萬億	-11.2725
例此	-11.2725
坐金蓮	-11.2738
奇哉	-11.2738
馳求	-11.274
萬種	-11.2742
謹識	-11.2744
覆障	-11.2746
身相光明	-11.2752
唯除五逆	-11.2759
四悉檀	-11.276
門外	-11.2762
妙香	-11.2764
到來	-11.2768
契合	-11.2773
往生呪	-11.278
知音	-11.2792
積善	-11.2801
千劫	-11.2802
師資	-11.2811
一稱佛名	-11.2834
常念阿彌陀佛	-11.2837
諸善根	-11.2842
思慧	-11.2844
眾德	-11.2845
總示	-11.2847
不可量	-11.2848
兜率天	-11.2854
依他	-11.2855
近世	-11.2874
幻身	-11.2879
長年	-11.2882
辟支佛	-11.2885
九年	-11.2889
笑曰	-11.2891
道諦	-11.2892
發願求生	-11.2892
便登	-11.2895
貧人	-11.2908
最大	-11.291
安立	-11.2911
豈不聞	-11.2915
及第	-11.2921
頓圓	-11.2927
吾師	-11.2929
閻	-11.2937
形色	-11.2942
苟非	-11.2945
此偈	-11.2951
結前	-11.2958
業海	-11.2968
竺	-11.2969
信施	-11.2973
教誡	-11.2973
峻	-11.2975
可哀	-11.2977
骸	-11.2977
芥	-11.2977
夾	-11.2978
戈	-11.2978
眷	-11.298
階級	-11.2981
贅	-11.2982
藐	-11.2984
躁	-11.2984
餐	-11.2984
不唐捐	-11.2984
楊傑	-11.2985
恕	-11.2985
聞我名	-11.2985
鱗	-11.2986
睛	-11.2986
目犍連	-11.2986
具造	-11.2987
邀	-11.2987
如須彌	-11.2987
睹	-11.2988
結跏趺坐	-11.2988
貧乏	-11.2988
百法明門	-11.2988
無邊光	-11.2988
故說此言	-11.2988
斷疑	-11.2989
襲	-11.2989
辜	-11.2989
滄	-11.2989
然臂香	-11.2989
聞是說者	-11.299
佛告阿難及韋提希	-11.299
蜎	-11.299
肥	-11.299
剌血	-11.299
圍遶	-11.299
寂光土	-11.2991
與諸大眾	-11.2991
慧日	-11.2991
阿修羅	-11.2992
煥	-11.2992
洒	-11.2992
過十萬億佛土	-11.2992
贈	-11.2993
踵	-11.2993
邇	-11.2993
觀佛相好	-11.2994
厲聲	-11.2994
阿彌陀佛南無阿彌陀佛	-11.2994
折伏	-11.2994
碌	-11.2995
願共眾生咸歸命	-11.2995
萬修萬人去	-11.2995
懃	-11.2995
於空中	-11.2995
歡喜信受	-11.2996
繭	-11.2996
慇懃	-11.2996
鋪	-11.2996
心印	-11.2996
羸	-11.2997
及諸佛所說	-11.2997
閻羅王	-11.2998
魔境	-11.2998
橫出三界	-11.2998
貲	-11.2998
畵	-11.2998
各於其國出廣長舌相	-11.2999
幻質	-11.3
服藥	-11.3002
酒肉	-11.3004
浮雲	-11.3008
紅塵	-11.3008
阿難陀	-11.301
喜悅	-11.3015
供奉	-11.3019
雙融	-11.3022
聞正法	-11.303
聖胎	-11.3032
山河	-11.3037
世親	-11.3041
施設	-11.3044
觀經疏云	-11.3044
即心是佛	-11.305
婆心	-11.3053
中初科	-11.3054
憂惱	-11.3055
上二句	-11.3058
一切賢聖	-11.3061
破惑	-11.3062
頑空	-11.3062
增益	-11.3064
雜色	-11.3071
久近	-11.3071
宗體	-11.3078
不虛	-11.3091
難行道	-11.3092
斯文	-11.3097
至七日	-11.31
孰為	-11.31
先賢	-11.3102
無虧	-11.3106
諸佛子	-11.3111
四種淨土	-11.3111
舉足	-11.3118
諦理	-11.3122
略示	-11.3124
我頂禮生彼國	-11.3128
具足戒	-11.3132
天花	-11.3134
共命	-11.314
意根	-11.314
剎剎	-11.3142
臨死	-11.315
雜想	-11.3157
無奈	-11.3158
前賢	-11.3164
定性	-11.317
雨華	-11.3171
台宗	-11.3174
宿因	-11.3189
開眼	-11.3199
通序	-11.3205
情愛	-11.3205
生安樂國	-11.3205
寶界	-11.3238
難逢	-11.3266
一個	-11.3283
頹	-11.3283
瞿	-11.3284
萊	-11.3284
桑	-11.3284
常作天樂	-11.3285
屑	-11.3285
縷	-11.3286
邵	-11.3287
歿	-11.3287
從是西方過十萬億佛土	-11.3287
鬧	-11.3288
淪墜	-11.3288
蹟	-11.3289
提撕	-11.3289
滓	-11.3289
蒲團	-11.329
朋	-11.329
奔波	-11.329
覿	-11.3291
臨終在定之心	-11.3292
潮	-11.3292
出現於世	-11.3292
水晶	-11.3292
受苦無窮	-11.3292
凉	-11.3293
灾	-11.3293
淆	-11.3293
痕	-11.3293
轉輪聖王	-11.3293
惡鬼	-11.3293
豕	-11.3294
不可稱計	-11.3295
嬰	-11.3295
莽	-11.3295
化城	-11.3295
歷歷分明	-11.3295
壽終之後	-11.3296
挑	-11.3296
阿闍世	-11.3297
丞	-11.3297
汩	-11.3298
撿	-11.3298
抄	-11.3299
汝等皆當信受我語	-11.3299
信得及	-11.3299
竹林	-11.3299
一聲佛號	-11.3302
總標	-11.3302
堯舜	-11.3302
為正行	-11.3303
徑路修行	-11.3304
是諸人等	-11.3304
出愛河	-11.3305
一切煩惱	-11.3305
世間之孝	-11.3306
花開見佛	-11.3307
茶毗	-11.331
恁麼	-11.3311
一句佛號	-11.3311
大孝	-11.3312
娑婆教主	-11.3313
闇室	-11.3313
昏散	-11.3314
誑語	-11.3315
愛惜	-11.3315
龍宮	-11.3315
染污	-11.3317
願生其國	-11.332
千差	-11.3322
無能勝	-11.3325
春風	-11.3326
力量	-11.3331
翻譯	-11.3335
即心即佛	-11.3337
焚化	-11.3337
始本	-11.3338
名常寂光	-11.3341
榮華	-11.3343
生死大事	-11.3346
拈出	-11.3349
只消	-11.3354
。」【「	-11.3359
門庭	-11.3359
憶持	-11.336
洞然	-11.3362
生於淨土	-11.3362
俱舍	-11.3363
寶臺	-11.3366
氣絕	-11.3367
面像	-11.3369
起信云	-11.3369
豈容	-11.3373
入無生忍	-11.3374
含識	-11.3379
轉變	-11.3385
肉團	-11.3403
根源	-11.3406
欲生淨土	-11.3406
百由旬	-11.3408
文句	-11.3413
威光	-11.3415
會歸	-11.3416
萬八千	-11.3423
獨覺	-11.3423
默然	-11.3423
識神	-11.3424
佛及菩薩	-11.3425
西方依正	-11.3439
差殊	-11.3439
聞佛法	-11.344
輕安	-11.3447
皆是阿彌陀佛	-11.3453
決定成佛	-11.3454
斷無明	-11.3458
世自在王	-11.3464
剎塵	-11.3466
被機	-11.3468
大論云	-11.3474
解脫德	-11.3475
釋題	-11.3479
志在	-11.3492
稽首禮	-11.3503
見無量壽佛	-11.3524
國家	-11.3527
空談	-11.3527
觀無量壽經	-11.353
俱寂	-11.3532
愚迷	-11.3533
天女	-11.3544
有去來	-11.3547
寶蓋	-11.3549
數語	-11.3551
共讚	-11.3552
焚燒	-11.3563
能消	-11.3565
三輩往生	-11.3568
與君	-11.3569
須菩提	-11.3575
相吞	-11.358
妙藥	-11.3581
聖像	-11.3581
搆	-11.3587
生死根株	-11.3591
賾	-11.3592
壽禪師	-11.3593
飯食經行	-11.3594
囂	-11.3596
菩薩成佛時	-11.3596
曼陀羅	-11.3597
瞥	-11.3598
篋	-11.3599
凋	-11.3599
斧	-11.3599
金山	-11.36
能念所念	-11.36
歧	-11.3601
閙	-11.3602
乩	-11.3602
諧	-11.3602
茹	-11.3603
見聞覺知	-11.3603
八十種好	-11.3603
悟達之士	-11.3604
齡	-11.3604
挈	-11.3604
征	-11.3604
稿	-11.3604
見性悟道	-11.3605
渾濁	-11.3605
瓊樓	-11.3606
鷹	-11.3606
蜎飛蠕動	-11.3606
嬈	-11.3606
伺	-11.3606
住其人前	-11.3607
誅	-11.3607
如彈指頃	-11.3607
駐	-11.3607
傑	-11.3607
十日十夜	-11.3608
嫉妬	-11.3608
人命無常	-11.3608
攝取不捨	-11.3608
聳	-11.3608
乾陀訶提	-11.3609
欺誑	-11.3609
稱讚淨土經	-11.3609
陰府	-11.361
於今十劫	-11.3611
放下身心	-11.3611
馮	-11.3611
令心不散	-11.3611
不測	-11.3612
如意珠	-11.3613
聞是經受持者	-11.3613
依正二報	-11.3614
毒蛇	-11.3614
白骨	-11.3614
六道輪迴	-11.3614
篤志	-11.3614
功課	-11.3615
掃除	-11.3617
西湖	-11.3617
百千由旬	-11.3619
參知識	-11.362
依正色心	-11.3621
生佛不二	-11.3622
光耀	-11.3625
四十里	-11.3626
微風	-11.3627
身口意業	-11.3631
講堂	-11.3631
普熏	-11.3632
本懷	-11.3633
口腹	-11.3636
六十萬億	-11.3638
怨親	-11.3638
不啻	-11.3639
宏誓	-11.364
他鄉	-11.3641
宰相	-11.3643
得無生忍巳	-11.3644
安置	-11.3647
微疾	-11.3649
速疾	-11.365
寶積經	-11.365
親友	-11.3654
無減	-11.3655
自本心	-11.3656
稱南無阿彌陀佛	-11.3662
盛華	-11.3666
聞空中	-11.3672
聖位	-11.3675
難保	-11.3681
一聲阿彌陀佛	-11.3686
一念相應	-11.3688
適意	-11.3688
流俗	-11.369
三十七	-11.3694
中有三	-11.3706
法界一相	-11.3713
皆阿羅漢	-11.3715
起滅	-11.3715
十一年	-11.372
簡要	-11.372
至心發願	-11.3722
兩目	-11.3723
要術	-11.3725
乃至成佛	-11.3728
略解	-11.3731
斯之謂	-11.3737
愛戀	-11.374
大阿彌陀經	-11.3742
自欺	-11.3742
見彌勒	-11.375
中三品	-11.3757
不懈	-11.376
嚴身	-11.3762
十五日	-11.3763
百里	-11.378
進道	-11.3781
修淨業人	-11.3787
信願行三	-11.3796
念他佛	-11.3797
供養阿彌陀佛	-11.3807
歎曰	-11.3812
若有人	-11.3816
契經	-11.382
次公	-11.3828
鼓音王經	-11.3846
何嘗	-11.3857
諸寶樹	-11.386
證涅槃	-11.3871
極樂國中	-11.3874
劫生死之罪	-11.3875
一心敬禮	-11.3876
與大眾	-11.3881
心即佛	-11.3903
年老	-11.3904
何物	-11.3908
第三階	-11.3912
持佛號	-11.3915
𦘕	-11.3916
▁南無師子	-11.3917
蠢	-11.3917
微妙香潔	-11.3919
尖	-11.392
掖	-11.3921
紺	-11.3922
兀	-11.3922
三十七品	-11.3922
蔑	-11.3923
須摩提	-11.3923
汾	-11.3923
咬	-11.3925
淋	-11.3925
其土有佛	-11.3926
副	-11.3926
如母憶時	-11.3926
青色青光	-11.3926
以佛力故	-11.3926
至行者前	-11.3927
咏	-11.3927
盂	-11.3928
自知時至	-11.3928
閉關	-11.3928
悚	-11.3929
舟航	-11.3929
厨	-11.3929
惻	-11.393
擾擾	-11.393
袍	-11.393
銅柱	-11.393
崩	-11.393
殺父	-11.3931
沮	-11.3931
歡喜踊躍	-11.3931
盟	-11.3931
不變隨緣	-11.3931
周匝	-11.3931
元祐	-11.3931
七重欄楯	-11.3932
踴躍	-11.3932
升沉	-11.3932
恒河沙數諸佛	-11.3932
孔雀	-11.3932
匡	-11.3933
砌	-11.3933
凍	-11.3933
晨昏	-11.3934
剝	-11.3934
不自知	-11.3934
無去無來	-11.3935
全修在性	-11.3935
愛別離苦	-11.3935
浩浩	-11.3935
金銀琉璃	-11.3935
切忌	-11.3935
問訊	-11.3936
稱讚不可思議功德一切諸佛所護念經	-11.3936
訟	-11.3937
付囑	-11.3937
湛寂	-11.3937
偕	-11.3938
歸命懺悔	-11.3939
不離當念	-11.3943
東晉	-11.3944
權巧	-11.3944
清旦	-11.3945
經無量劫	-11.3945
黃昏	-11.3946
百千萬劫	-11.3946
現前當來	-11.3947
底沙	-11.3948
慶喜	-11.3955
懸殊	-11.3958
散華樂	-11.3959
教令念佛	-11.3962
懷玉	-11.3963
百二十三人	-11.3966
是則名為	-11.3966
投誠	-11.397
忻樂	-11.3972
全憑	-11.3978
連聲	-11.3979
議論	-11.3982
雲門	-11.3983
親見彌陀	-11.3983
金仙	-11.3984
希求	-11.3988
困苦	-11.3993
靈芝云	-11.3994
淨業弟子	-11.3998
王臣	-11.4001
諸眷屬	-11.4008
融會	-11.4013
他受用	-11.4014
有退轉	-11.4015
何愁	-11.4018
道種智	-11.4019
迴光	-11.402
無量諸天	-11.4023
土可生	-11.4024
降生	-11.4025
勸修淨土	-11.4027
涉入	-11.4029
且據	-11.4034
造像	-11.4036
所說法	-11.4037
平居	-11.4037
塵世	-11.4041
人倫	-11.4048
觀佛身	-11.4049
殺戒	-11.4057
白蓮華	-11.4061
罪垢	-11.4074
流傳	-11.4078
憂苦	-11.4078
人人皆	-11.4079
寶塔	-11.4079
儒書	-11.41
苦域	-11.4102
最要	-11.4107
專精	-11.4109
若人專念	-11.4111
八字	-11.4114
火焚	-11.4128
下至十念	-11.4136
世出世	-11.4138
尊像	-11.4145
蓮宮	-11.4165
首楞嚴經	-11.4166
隨其所	-11.4179
揣	-11.4184
精微	-11.4185
交參	-11.4189
夢覺	-11.4194
無為子	-11.4201
光明相好	-11.4215
厭苦	-11.4217
受用身	-11.422
光普照	-11.4226
航	-11.4242
販	-11.4246
穆	-11.425
矯	-11.425
勒	-11.425
寂而常照	-11.4251
貧富	-11.4252
簾	-11.4253
疫	-11.4253
妻兒	-11.4254
宵	-11.4255
婬慾	-11.4255
觀佛三昧經	-11.4256
薙	-11.4256
需	-11.4256
忙忙	-11.4256
詆	-11.4256
銜	-11.4257
滅八十億劫生死之罪	-11.4257
浸	-11.4257
榜樣	-11.4258
挺	-11.4258
墳	-11.4258
宗趣	-11.4258
猿	-11.4258
弓	-11.4259
知歸子	-11.4259
崛	-11.4259
誌公	-11.4259
耆婆	-11.426
正遍知	-11.426
十二時中	-11.426
摩訶迦葉	-11.426
膠	-11.426
塵埃	-11.4261
撒手	-11.4261
祇樹給孤獨園	-11.4262
屎尿	-11.4262
士大夫	-11.4262
棗	-11.4262
皆巳成佛道	-11.4262
若有善男子	-11.4263
斂	-11.4263
十六妙觀	-11.4263
檢點	-11.4264
掘	-11.4264
而作是言	-11.4265
憍梵波提	-11.4265
暉	-11.4266
天龍八部	-11.4266
無所障礙	-11.4267
商量	-11.4267
娑羅	-11.4267
汩沒	-11.4267
騎	-11.4268
生蓮華中	-11.4268
譚	-11.4269
鶯	-11.4269
念而無念	-11.427
暫停	-11.4271
覷破	-11.4271
島	-11.4272
描	-11.4272
千二百五十人俱	-11.4272
長生不死	-11.4273
獄卒	-11.4275
陰陽	-11.4277
釋迦文佛	-11.4278
計較	-11.428
祇陀	-11.4282
梵志	-11.4282
充足	-11.4282
山川	-11.4282
并敘	-11.4285
萬法唯心	-11.4285
伽藍	-11.4286
宗鏡錄曰	-11.4287
參學	-11.4289
不倦	-11.4289
恒河	-11.4294
狂慧	-11.4295
問津	-11.4297
上品十善	-11.4301
分段身	-11.4302
雙忘	-11.4308
寶相佛	-11.4308
臨終之時	-11.431
賢護經	-11.4311
權乘	-11.4312
初總標	-11.4312
大悲願力	-11.4317
莊嚴佛土	-11.4318
千葉	-11.4319
妙宗云	-11.4323
謬解	-11.4323
佛滅後	-11.4325
萬象	-11.4325
懺罪	-11.4325
龍舒曰	-11.4326
金錢	-11.433
更無餘	-11.4343
悲傷	-11.4349
十方虗空	-11.435
解脫生死	-11.4354
金剛持	-11.4356
寶雲	-11.4363
喚作	-11.4364
入此門	-11.4365
險道	-11.4365
引導	-11.4366
偏執	-11.4367
無法可	-11.4368
路絕	-11.4368
超生淨土	-11.4369
天童	-11.4377
微玅	-11.4383
見十方佛	-11.4384
親切	-11.4385
慈照	-11.439
成片	-11.4399
釋尊	-11.4408
十五年	-11.4417
有限量	-11.4431
淨名經	-11.4432
造化	-11.4446
淨光佛	-11.4455
淨業正因	-11.4461
寺僧	-11.4463
自性清淨	-11.4468
心意識	-11.4479
臨終正念	-11.4513
離四句	-11.4524
文省	-11.4527
綽禪師	-11.4528
信士	-11.453
大眾俱	-11.4534
十里	-11.4535
輟	-11.4564
有多種	-11.4585
闉	-11.4585
跛	-11.459
綸	-11.459
冲	-11.4594
圈	-11.4598
即以食時	-11.4598
稚	-11.4598
爵	-11.4599
求解脫	-11.4601
裔	-11.4602
沖	-11.4602
湊	-11.4602
如母憶子	-11.4602
初科	-11.4602
生蓮華一朵	-11.4603
隨其心淨	-11.4603
示寂	-11.4603
然則一念間斷之心	-11.4603
嫁	-11.4603
溼	-11.4603
傅	-11.4604
羮	-11.4604
念佛念法念僧	-11.4604
淹	-11.4604
薄拘羅	-11.4605
佛滅度後	-11.4605
神遊淨土	-11.4605
董	-11.4605
丹青	-11.4605
惹	-11.4605
鵒	-11.4606
瑤	-11.4606
悽	-11.4606
阿那含	-11.4606
見金蓮華	-11.4606
敦	-11.4606
無有休息	-11.4606
缾	-11.4607
雍	-11.4607
戒殺放生	-11.4607
白鶴孔雀	-11.4607
尚無惡道之名	-11.4607
閃	-11.4607
遏	-11.4607
戀西大師	-11.4609
一向專念無量壽佛	-11.4609
奉勸世人	-11.4609
黃金地上	-11.4609
棹	-11.4609
瓠	-11.4609
直下承當	-11.4609
婚	-11.4609
蛤	-11.461
牛羊	-11.461
弼	-11.461
八聖道分	-11.461
歡喜信樂	-11.4611
特留此經	-11.4611
貯	-11.4611
懸繒	-11.4611
絕待圓融	-11.4611
勑	-11.4611
由此觀之	-11.4611
有禪有淨土	-11.4611
有禪無淨土	-11.4611
不虗棄	-11.4612
一相三昧	-11.4612
譌	-11.4612
街	-11.4613
二六時中	-11.4613
不垢不淨	-11.4613
斬斷	-11.4614
見聞隨喜	-11.4614
在池水上	-11.4615
父母師長	-11.4615
不淨觀	-11.4615
掩關	-11.4616
嗔恚	-11.4617
諸惡莫作	-11.4618
託質	-11.4618
泥沙	-11.4618
彌覆	-11.4622
茫然	-11.4624
決擇	-11.4625
艱難	-11.4626
解脫長者	-11.4627
數十年	-11.4629
年八十	-11.4631
成佛以來	-11.4631
拈香	-11.4632
雙遮	-11.4632
大阿彌陀經云	-11.4633
窮源	-11.4635
莫測	-11.464
念自佛	-11.4642
修諸善	-11.4642
錢塘人	-11.4643
此二種	-11.4644
蓮池會	-11.4645
生其中	-11.4646
視聽	-11.4649
變易生死	-11.4654
上三土	-11.4655
雜染	-11.4656
朱子	-11.4657
恒河沙等	-11.4659
此一門	-11.4664
往生正因	-11.4667
畢命	-11.4668
一生成佛	-11.4669
釋論云	-11.4671
十地菩薩	-11.4673
齋僧	-11.4674
遣使	-11.4676
供養三寶	-11.4677
蘭若	-11.4687
安詳	-11.4689
全收	-11.4694
彌陀聖眾	-11.4699
乘船	-11.4702
罪根	-11.4702
憶想	-11.4704
六齋	-11.4713
欲令眾生	-11.4714
得天眼	-11.4719
患難	-11.4721
香潔	-11.4732
奉持	-11.4745
儒釋	-11.4746
誠哉	-11.4746
改過	-11.4752
博通	-11.4755
心即是佛	-11.4773
受持讀誦	-11.4792
墮三途	-11.4812
一切時中	-11.4815
寶藏佛	-11.4816
網羅	-11.486
值遇	-11.4879
并州	-11.488
梵本	-11.4897
同生安養	-11.4914
故名阿彌陀	-11.4915
宗鏡錄	-11.4941
呻	-11.4948
優婆塞	-11.495
唵	-11.495
娛	-11.495
。」』	-11.4951
韶	-11.4951
牲	-11.4951
姿	-11.4954
溈	-11.4954
栖	-11.4955
窠	-11.4955
設我成佛	-11.4955
盞	-11.4956
生死心切	-11.4956
筌	-11.4956
瑟	-11.4957
脚跟	-11.4957
咄	-11.4958
聆	-11.4958
它	-11.4958
鼻孔	-11.4958
鶖鷺	-11.4958
拖	-11.4958
拭	-11.4958
子若憶母	-11.4959
波斯匿王	-11.4959
匿	-11.4959
疴	-11.4959
骨髓	-11.4959
處當遠	-11.4959
隊	-11.496
善哉善哉	-11.496
頭面禮	-11.496
以是義故	-11.496
裴	-11.496
臨欲命終	-11.496
一息不來	-11.4961
壑	-11.4961
遜	-11.4961
鬚	-11.4961
無益念佛好	-11.4961
鑊	-11.4961
睦	-11.4962
脹	-11.4962
迦留陀夷	-11.4963
螢	-11.4964
鎔	-11.4965
隨意即見	-11.4965
棟	-11.4965
縮	-11.4965
鏤	-11.4965
冥府	-11.4966
七日七夜	-11.4966
言佛便周	-11.4966
珂	-11.4966
菡萏	-11.4966
敗壞	-11.4967
驚怖	-11.4968
晨朝十念	-11.4968
信佛語	-11.4968
儘	-11.4968
五痛五燒	-11.4968
幔	-11.4968
奉持齋戒	-11.4968
何言可信	-11.4968
虎溪	-11.4969
飭	-11.4969
三昧現前	-11.4969
岐路	-11.4969
漆	-11.497
婆沙論	-11.497
端坐而逝	-11.497
君臣	-11.497
恤	-11.497
一日乃至七日	-11.497
和雅	-11.4971
及聞諸佛名者	-11.4972
逗機	-11.4973
轉以化人	-11.4974
不可具說	-11.4975
房宿	-11.4977
使更相勸化	-11.4977
籌量	-11.4977
心外無佛	-11.4977
羯磨	-11.4977
宿王佛	-11.4979
黑暗	-11.4979
菓	-11.498
黃龍	-11.498
錯認	-11.4981
洞達	-11.4981
圓中鈔	-11.4984
如上所說	-11.4984
當自念	-11.4984
養育	-11.4985
密密	-11.4985
早晨	-11.4986
獲福	-11.4996
戀公	-11.5001
恣意	-11.5007
廓然	-11.5008
亦有亦無	-11.5009
牛頭	-11.5014
今阿彌陀佛是	-11.5016
懺悔發願	-11.5018
宿習	-11.502
不覺不知	-11.5022
末世眾生	-11.5023
高僧傳	-11.5024
欣樂	-11.5024
凝然	-11.5034
一件	-11.5038
風雨	-11.504
十方佛土	-11.504
散花	-11.5047
供具	-11.5049
禪那	-11.5051
過患	-11.5052
赤白	-11.5052
若能如是	-11.506
輕愛	-11.5062
在當人	-11.5063
原夫	-11.5067
上品往生	-11.5073
淨土十疑論	-11.5077
示疾	-11.5084
半偈	-11.5115
當坐道場	-11.5132
擇法	-11.5135
武帝	-11.5183
念不一	-11.5209
成辦	-11.5224
辟支	-11.5226
速證無生	-11.5237
畏死	-11.524
攷	-11.5242
傳授	-11.5249
垢淨	-11.527
第十五	-11.5276
化儀	-11.5297
餓	-11.5301
茫	-11.5309
南無阿彌陀	-11.531
彥弼	-11.5319
至等覺	-11.532
葱	-11.5321
撇	-11.5322
無來無去	-11.5322
亨	-11.5324
矛	-11.5325
八十隨形好	-11.5325
粹	-11.5325
抖擻	-11.5326
法智大師	-11.5327
鴉	-11.5327
捺	-11.5329
十萬億佛土	-11.5329
芝	-11.5329
縫	-11.5329
楹	-11.5329
不受後有	-11.533
康熈	-11.533
𢆯	-11.533
喫飯	-11.5331
因陀羅網	-11.5332
空不空	-11.5332
親蒙授記	-11.5332
般舟經	-11.5332
價	-11.5333
胥	-11.5333
斛	-11.5333
巴	-11.5333
萬善同歸集	-11.5334
周利槃陀伽	-11.5334
無生無滅	-11.5334
痊	-11.5334
十即十生	-11.5334
所以然者	-11.5334
大限到來	-11.5335
釜	-11.5335
五十三佛	-11.5335
離婆多	-11.5335
天性相關	-11.5336
蹤	-11.5336
出苦輪	-11.5336
低頭	-11.5336
淨土十要	-11.5337
清凉	-11.5337
怜	-11.5337
及其人民	-11.5337
槃	-11.5338
頓開佛慧	-11.5338
奸	-11.5338
同時俱作	-11.5338
渡河	-11.5338
媚	-11.5338
於一念頃	-11.5339
若不然者	-11.5339
無禪有淨土	-11.5339
濵	-11.5339
終不作佛	-11.5339
法幢佛	-11.5339
蚤	-11.5339
都攝六根	-11.534
臟	-11.534
咸豐	-11.5341
悲泣	-11.5342
牛呞	-11.5342
淨土資糧全集	-11.5342
諸上善人俱會一處	-11.5343
消災	-11.5343
徧計	-11.5343
五百侍女	-11.5345
紹興	-11.5347
不了佛智	-11.5347
恐不得生	-11.5347
晨朝	-11.5348
靈禽	-11.5352
曹溪	-11.5353
侍女	-11.5353
妙吉祥	-11.5355
三昧難成	-11.5356
徧法界諸佛	-11.5357
娑婆之苦	-11.5358
我剎中人	-11.5358
若然者	-11.536
殺賊	-11.5362
全賴	-11.5363
草堂	-11.5363
遺民	-11.5364
堅強	-11.5365
台州	-11.5365
大有功	-11.5368
一串	-11.537
財施	-11.537
第三階人	-11.5372
莫管	-11.5375
饒益眾生	-11.5377
龍女	-11.5377
水陸	-11.5377
冥加	-11.5378
永嘉云	-11.5378
迷昧	-11.5381
安樂集	-11.5384
一向專念	-11.5387
五辛	-11.5388
吾儒	-11.5393
但念彌陀	-11.5394
欲生彼國者	-11.5398
只恐	-11.5401
亦復然	-11.5402
十二類	-11.5406
無不具足	-11.5406
錯過	-11.541
初徵	-11.5413
清淨佛土	-11.5414
盡虗空界	-11.5419
塵沙劫	-11.5425
指陳	-11.5427
除却	-11.543
大本三輩	-11.5433
道綽	-11.5433
動搖	-11.5435
般若德	-11.5435
無疑矣	-11.5441
業所感	-11.5444
香光佛	-11.5446
大乘經典	-11.5451
五衰	-11.5462
二別釋	-11.547
宰殺	-11.5484
得須陀洹	-11.5505
箇字	-11.5524
夫妻	-11.5531
龍舒文	-11.5542
救拔	-11.5543
誦佛名	-11.5571
指歸淨土	-11.562
陰魔	-11.5689
叟	-11.5692
冉	-11.5693
叵	-11.5702
嬌	-11.5704
啖	-11.5706
躋	-11.5707
楞	-11.5707
顆	-11.5708
撲	-11.5708
斃	-11.5708
奘	-11.5708
䭾	-11.571
佛來迎我	-11.571
絕百非	-11.5711
剩	-11.5711
咨	-11.5711
鬱	-11.5711
塚	-11.5712
從是西方	-11.5712
稷	-11.5712
桂	-11.5712
猝	-11.5712
涎	-11.5713
生生世世	-11.5714
膺	-11.5715
郭	-11.5715
爇	-11.5715
轟	-11.5715
翹勤	-11.5716
煞	-11.5717
壬	-11.5717
至簡至易	-11.5717
那羅延	-11.5717
回入娑婆	-11.5717
思之思之	-11.5718
仞	-11.5718
惕	-11.5718
糊	-11.5718
溟	-11.5718
赦	-11.5718
丘陵坑坎	-11.5719
久久純熟	-11.5719
無量諸天大眾俱	-11.5719
來相報	-11.5719
功勳	-11.5719
馥	-11.5719
滋味	-11.572
天衣懷禪師	-11.572
上有樓閣	-11.572
諸佛如來是法界身	-11.572
不緩不急	-11.572
等無有異	-11.572
折攝二門	-11.5721
兜率天宮	-11.5721
經道滅盡	-11.5721
實報莊嚴土	-11.5722
豁達	-11.5722
虔誠	-11.5722
鈎	-11.5722
千經萬論	-11.5723
瀾	-11.5723
西方公據	-11.5723
願佛慈悲	-11.5723
見者聞者	-11.5723
無所畏	-11.5723
彼佛何故號阿彌陀	-11.5724
欲生阿彌陀佛國者	-11.5724
膩	-11.5724
抉	-11.5724
一元曰	-11.5724
遍一切處	-11.5725
持法佛	-11.5725
佛告韋提希	-11.5726
檀越	-11.5726
稱我名號	-11.5726
彼佛有無量無邊聲聞弟子	-11.5727
導歸極樂	-11.5727
須彌光佛	-11.5727
磁石	-11.5727
當發無上菩提之心	-11.5727
猪羊	-11.5728
生死事大	-11.5728
楷	-11.5728
淵源	-11.5728
蔬	-11.5728
因緣所生法	-11.5729
五分法身	-11.5729
碩	-11.573
領納	-11.573
即空假中	-11.5731
大矣哉	-11.5731
泰山	-11.5731
映蔽	-11.5732
禽畜	-11.5732
痛䇿	-11.5732
宛爾	-11.5734
依此法	-11.5734
一者孝養父母	-11.5735
至心歸命阿彌陀佛	-11.5736
夢寐	-11.5736
名句文	-11.5736
正法樂正法樂正法能超出世間	-11.5737
所修善根	-11.5737
蠡	-11.5738
念念不忘	-11.5739
無有間斷	-11.5739
直饒	-11.574
必不能度	-11.5741
隱隱	-11.5742
大悲呪	-11.5744
無明未盡	-11.5745
邪三毒	-11.5748
謙下	-11.5748
首題	-11.575
至心懺悔	-11.575
積累	-11.5751
六欲天	-11.5751
還鄉	-11.5754
近代	-11.5759
殊特	-11.576
緣覺聲聞	-11.5761
入正定聚	-11.5766
彼佛願力	-11.5771
羣機	-11.5772
西齋	-11.5773
樹網	-11.5773
記憶	-11.5774
受眾苦	-11.5775
默持	-11.5776
眾生障重	-11.5778
攝取眾生	-11.5782
聲聞弟子	-11.5783
偶然	-11.5786
連持	-11.5788
諸波羅蜜	-11.5792
佛與菩薩	-11.5794
道場樹	-11.5794
上三品	-11.5796
修萬行	-11.58
多寡	-11.5808
西方有佛	-11.5809
除五逆	-11.5837
花嚴	-11.5862
參差	-11.5881
寶殿	-11.5881
赴機	-11.5882
無數化佛	-11.5912
臘月	-11.5941
阿難白佛	-11.6034
現前一念心性	-11.6059
錢塘	-11.608
一筆勾	-11.6084
〡	-11.6089
錐	-11.6096
喆	-11.6098
帖	-11.6102
離即離非	-11.6102
孽	-11.6105
脅	-11.6105
窒	-11.6106
阬	-11.6106
鴛鴦	-11.6107
弭	-11.6108
發無上菩提之心	-11.6108
肘	-11.6109
咽	-11.611
皓	-11.611
照而常寂	-11.6111
堦	-11.6112
四料簡	-11.6112
發隱曰	-11.6112
滔滔	-11.6113
寔	-11.6113
鼓音聲王	-11.6114
慞惶	-11.6114
清淨大海眾菩薩	-11.6114
右手	-11.6115
耨	-11.6115
阿彌陀佛與諸聖眾現在其前	-11.6115
蛾	-11.6115
一剎那頃	-11.6115
蒸	-11.6115
是故號為阿彌陀	-11.6115
冶	-11.6116
豈復更有	-11.6116
袖	-11.6116
英雄	-11.6117
旌	-11.6117
四正勤	-11.6117
為其勝友	-11.6117
稠	-11.6117
晴	-11.6118
翔	-11.6118
朴	-11.6118
四邊階道	-11.6119
大須彌佛	-11.6119
剛強	-11.6119
擁護	-11.6119
能為甚難希有之事	-11.6119
脇	-11.6119
彼土何故名為極樂	-11.6119
僧伽	-11.612
彼諸佛等	-11.612
毗尼	-11.612
多見世人	-11.612
信行願三	-11.612
須彌燈佛	-11.612
枳	-11.612
放不下	-11.6121
悠	-11.6121
饌	-11.6121
無量精進佛	-11.6121
不得是願	-11.6121
敏仲	-11.6121
不定聚	-11.6121
微風吹動	-11.6121
無量幢佛	-11.6121
滿菩提願	-11.6121
其中多有一生補處	-11.6122
而作沙門	-11.6122
諂	-11.6122
阿鼻獄	-11.6122
乘金剛臺	-11.6123
禳	-11.6124
升沈	-11.6124
騐	-11.6124
瞎	-11.6125
鍼	-11.6125
十二分教	-11.6125
當修三福	-11.6125
若二日	-11.6125
四維上下	-11.6125
這箇	-11.6125
梗	-11.6125
5	-11.6126
種諸善根	-11.6126
四無所畏	-11.6126
香上佛	-11.6126
尉	-11.6127
優游	-11.6127
薩埵	-11.6127
最勝音佛	-11.6127
蟬	-11.6127
旭	-11.6127
預辦	-11.6128
四十八大願	-11.6128
漂流	-11.6128
心觀為宗	-11.6128
圓證三不退	-11.6128
兔角	-11.6129
無量相佛	-11.6129
廷	-11.613
於蓮華中	-11.613
即一而三	-11.613
八正道	-11.6131
清淨無染	-11.6131
良醫	-11.6131
發道心	-11.6132
啞	-11.6133
摩尼珠	-11.6133
一日至七日	-11.6133
南閻浮提	-11.6133
搖動	-11.6135
不雜餘	-11.6136
淺薄	-11.6136
眾善奉行	-11.6136
青黃	-11.6138
出微妙音	-11.6138
凝神	-11.6139
南方世界	-11.614
休歇	-11.6141
疏中分	-11.6141
當知此人	-11.6141
漸頓	-11.6143
孝順	-11.6144
衣食自然	-11.6144
末代	-11.6148
世界悉檀	-11.6148
至於今日	-11.6149
釐	-11.615
無恙	-11.6152
惟心土	-11.6153
究竟成佛	-11.6154
天淵	-11.6155
無量劫前	-11.6156
短長	-11.6157
祖父	-11.6158
少頃	-11.6158
交羅	-11.6159
天竺國	-11.6166
決生淨土	-11.6176
無量行願	-11.6176
師子吼	-11.6179
廣博	-11.6188
十六觀門	-11.6193
七珍	-11.6194
十三年	-11.6198
玅宗	-11.6198
證無生法忍	-11.6199
五十年	-11.6206
童真	-11.6222
發願回向	-11.6303
蓮池禪師	-11.631
悟無生忍	-11.6318
苦辛	-11.632
文殊般若	-11.6342
華梵	-11.6345
墜墮	-11.6349
須陀洹	-11.6355
他受用身	-11.6367
聲聞辟支	-11.6378
天台十疑論	-11.6416
方丈	-11.6426
串	-11.6474
陀羅尼經	-11.6512
濂	-11.6513
皺	-11.6516
决	-11.6517
澹	-11.6519
儼	-11.6521
境觀相吞	-11.6522
挍	-11.6523
摭	-11.6526
琅	-11.6527
瓣	-11.6527
揀擇	-11.6528
盡此報身	-11.6528
魅	-11.6528
正徧知	-11.6528
我來迎汝	-11.6528
轎	-11.6528
懲	-11.6528
墻	-11.6529
閨	-11.6529
挾	-11.6529
綜	-11.653
邱	-11.653
打成一片	-11.653
法界圓融不思議體	-11.653
舉一即三	-11.653
供養他方十萬億佛	-11.6531
以惡業故	-11.6531
白色白光	-11.6531
眾生心內諸佛	-11.6531
涕淚	-11.6532
受諸苦惱	-11.6532
寰	-11.6532
三心圓發	-11.6533
漱	-11.6533
煎熬	-11.6533
現未互在	-11.6533
皆悉念佛念法念僧	-11.6533
讎	-11.6533
羈	-11.6533
菩	-11.6533
摩訶劫賓那	-11.6534
掐	-11.6534
佛說此經巳	-11.6534
須彌相佛	-11.6534
竿	-11.6534
司士	-11.6535
剏	-11.6535
何愁不開悟	-11.6535
即空即假即中	-11.6535
敬然臂香四十八炷	-11.6535
若五日	-11.6536
失其正念	-11.6536
霅川	-11.6536
大智律師	-11.6537
蘆	-11.6537
祛	-11.6537
若四日	-11.6537
下方世界	-11.6537
豁然大悟	-11.6537
侮	-11.6537
自古及今	-11.6537
乘佛願力	-11.6537
諳	-11.6537
燃燈	-11.6538
銕	-11.6538
而常修淨土	-11.6538
佛及聖眾	-11.6538
聞是音者	-11.6538
犁	-11.6538
四大分離	-11.6539
攘	-11.6539
嚼	-11.6539
藕花	-11.6539
2	-11.654
張善和	-11.654
倐忽	-11.654
所觀之境	-11.654
欣慕	-11.654
羣疑論	-11.654
咫尺	-11.654
耆闍崛山	-11.654
作是觀者	-11.654
欲令法音宣流	-11.654
竄	-11.654
墮無間獄	-11.654
贍部	-11.654
名聞光佛	-11.6541
叉手	-11.6541
暨	-11.6541
不常值佛	-11.6541
彫	-11.6542
箸	-11.6542
三覩聖相	-11.6542
生諸佛家	-11.6542
求不得苦	-11.6542
飛錫	-11.6542
熱鐵	-11.6542
蜎飛蝡動	-11.6543
是菩薩淨土菩薩成佛時	-11.6543
舅	-11.6543
驕	-11.6543
火車相現	-11.6543
饑寒	-11.6543
阿彌利哆	-11.6544
8	-11.6544
檀那	-11.6544
十世古今	-11.6544
增上慢	-11.6545
行世仁慈	-11.6545
不可說不可說	-11.6546
功不唐捐	-11.6546
劍樹	-11.6547
第一義悉檀	-11.6548
漿	-11.6548
有在地	-11.6548
相續不斷	-11.655
坊	-11.655
浦	-11.655
雲栖	-11.655
善知識法界眾生	-11.655
於一念中	-11.655
一百二十	-11.6551
蠕動	-11.6552
適悅	-11.6552
橫豎	-11.6553
二隨釋	-11.6554
揚州	-11.6555
像季	-11.6555
方便有餘	-11.6557
恐懼	-11.6557
可憐憫	-11.6557
錢唐	-11.656
至心迴向	-11.6562
臨濟	-11.6562
再拜	-11.6564
寶鑑	-11.6565
蟻子	-11.6566
暫忘	-11.6566
有明文	-11.6566
事事無礙法界	-11.6567
彼佛名號	-11.6569
舍那	-11.657
光來照	-11.6577
虛空界	-11.6585
徹悟禪師	-11.6589
勸勉	-11.6591
大品經	-11.6602
西方七寶池中	-11.661
截斷	-11.6617
墮三塗	-11.6618
自揣	-11.662
十二部	-11.6654
弟子某	-11.6659
以信為	-11.6684
梁武	-11.6727
皆願往	-11.6787
顗	-11.6946
壹	-11.6948
撻	-11.695
憧	-11.6956
岑	-11.6956
拶	-11.6957
沿	-11.6957
蓮胞	-11.6958
野狐	-11.696
玗	-11.696
館	-11.6962
官府	-11.6962
覷	-11.6962
麴	-11.6962
肌	-11.6963
鮑	-11.6964
齎	-11.6964
輿	-11.6964
旃檀	-11.6964
受無量苦	-11.6965
衣服飲食	-11.6965
滾	-11.6965
摩訶迦旃延	-11.6966
快活	-11.6966
尸羅	-11.6966
簪	-11.6966
若人散亂心	-11.6966
伎	-11.6967
根有利鈍	-11.6967
頸	-11.6967
阿㝹樓䭾	-11.6967
見性成佛	-11.6967
檗	-11.6967
屆	-11.6967
嬉	-11.6967
賀	-11.6967
漢吳二譯	-11.6967
粲	-11.6968
四生六道	-11.6968
出過三界	-11.6968
善財童子	-11.6968
葦	-11.6969
捨穢取淨	-11.6969
鷲	-11.6969
誚	-11.6969
晃	-11.6969
遑	-11.697
毘盧遮那	-11.697
闌	-11.6971
妻妾	-11.6971
晚歲	-11.6971
即聞佛乘	-11.6972
彼佛光明無量	-11.6972
何等為三	-11.6972
祭祀	-11.6972
豎窮橫徧	-11.6972
一人專忘	-11.6973
如箭射	-11.6973
塑	-11.6973
淨土生無生論	-11.6973
過現未來	-11.6973
鉅	-11.6974
出和雅音	-11.6974
實報無障礙土	-11.6974
淨飯王	-11.6974
二現相表真	-11.6975
不須疑也	-11.6975
泥洹之道	-11.6975
在母胎	-11.6975
萼	-11.6975
娑羅樹王佛	-11.6975
寄庫	-11.6975
鑪	-11.6976
發大菩提心	-11.6976
人身難得	-11.6976
杲日	-11.6976
生諸佛前	-11.6976
見一切義佛	-11.6976
三發言勸信	-11.6976
池底純以金沙布地	-11.6976
歷事諸佛	-11.6977
厚薄	-11.6977
以名召德	-11.6977
孝順父母	-11.6977
真如佛性	-11.6977
倩	-11.6977
塵點劫	-11.6978
無量無邊阿僧祇劫	-11.6978
繽紛	-11.6978
緩急	-11.6978
娛樂	-11.6978
澍	-11.6978
親戚	-11.6979
徙	-11.6979
劣弱	-11.6979
延慶	-11.6979
厭惡女身	-11.6979
自作教他	-11.6979
非是算數之所能知	-11.6981
週	-11.6981
無邊剎海	-11.6981
在家出家	-11.6982
拔舌	-11.6984
歸去來兮	-11.6984
皆有佛性	-11.6984
無與等	-11.6985
諾	-11.6987
上方世界	-11.6987
昏沈	-11.6988
香煙	-11.6988
消磨	-11.6989
六齋日	-11.6989
睡夢中	-11.6989
目擊	-11.6991
北方世界	-11.6992
十八賢	-11.6993
藥師經	-11.6995
為教體	-11.6998
覺察	-11.6999
無窮無盡	-11.7001
堅密	-11.7002
念念不絕	-11.7003
金陵	-11.7006
鬼趣	-11.7013
畢竟得生	-11.7023
光輝	-11.7042
彼此互	-11.7078
三千界	-11.7117
朝暮	-11.716
丈室	-11.716
江南	-11.7205
文殊般若經	-11.7209
化佛來迎	-11.7224
僧尼	-11.7231
涼風	-11.7276
【【	-11.73
照曜	-11.7331
。】【	-11.7352
晏	-11.7406
寂寞	-11.7408
覰	-11.7408
阿羅訶	-11.7411
浮漚	-11.7412
心佛及眾生	-11.7412
芒	-11.7412
鵬	-11.7412
潑	-11.7413
闐	-11.7414
汁	-11.7414
笙	-11.7415
荷擔	-11.7415
孔孟	-11.7416
耄	-11.7416
菽	-11.7417
無佛無念	-11.7417
釣	-11.7418
蛆	-11.7418
捨身受身	-11.7418
演說苦空無常無我	-11.7418
摩訶衍	-11.7419
姪	-11.7419
行此難事	-11.7419
筭	-11.7419
憐念眾生	-11.742
靈鷲	-11.742
翰林	-11.742
諸佛正徧知海	-11.742
舉足下足	-11.742
譏嫌	-11.742
是心即是三十二相	-11.7421
殄	-11.7421
官員	-11.7421
具諸不善	-11.7421
耐	-11.7421
腥	-11.7422
發三種心	-11.7422
隘	-11.7422
杯	-11.7422
葛藤	-11.7423
曇鸞	-11.7423
缺一不可	-11.7423
受諸快樂	-11.7423
四十九年	-11.7423
尹	-11.7423
靖	-11.7423
心行處滅	-11.7423
法藏願云	-11.7424
順佛語故	-11.7424
淘汰	-11.7424
念佛眾生攝取不捨	-11.7424
廬山蓮宗寶鑑	-11.7424
無惡不造	-11.7424
瀝	-11.7424
滿虗空中	-11.7424
拔一切眾生苦	-11.7425
大聖悲憐	-11.7425
隨從佛後	-11.7425
勝鬘	-11.7425
念茲在茲	-11.7425
沛	-11.7425
恠	-11.7425
壽命永劫	-11.7425
悋	-11.7425
慈悲喜捨	-11.7426
而嚴飾之	-11.7426
閻浮檀金色	-11.7426
充塞	-11.7426
爾時佛告長老舍利弗	-11.7426
妃	-11.7427
拆	-11.7427
斫	-11.7427
蹄	-11.7427
愿	-11.7427
小千世界	-11.7427
訥	-11.7427
蔬食	-11.7428
願我臨欲命終時	-11.7428
西方安樂土	-11.7428
磁	-11.7428
3	-11.7429
惺	-11.7429
五鈍使	-11.7429
琢	-11.7429
0	-11.7429
唯佛與佛	-11.7429
發此願	-11.743
毗迦蘭	-11.743
夜摩天	-11.743
不立文字	-11.743
抵暮昏黑	-11.743
瞑目	-11.743
維那	-11.743
延促	-11.7431
曠野	-11.7431
寒暑不遷	-11.7431
嗔怒	-11.7431
禮念彌陀道場懺法	-11.7431
不可以少善根福德因緣	-11.7431
八萬相好	-11.7431
真歇了禪師	-11.7431
無罣礙	-11.7432
妙觀察智	-11.7432
炎炎	-11.7432
譬如百千種樂	-11.7432
謝靈運	-11.7432
賓頭盧頗羅墮	-11.7432
襄陽	-11.7432
提刑	-11.7433
眾等回心	-11.7433
七重羅網	-11.7434
杵	-11.7434
不離當處	-11.7435
奘師	-11.7435
司南	-11.7436
修行六念	-11.7436
及諸聖眾	-11.7436
三界無安	-11.7436
雨淚	-11.7437
佛說觀無量壽佛經	-11.7437
六塵緣影	-11.7437
二而不二	-11.7437
大光明中	-11.7437
牛馬	-11.7438
澡浴	-11.7438
網明佛	-11.7438
祇園	-11.7439
糓	-11.7439
脫苦輪	-11.7439
塵塵極樂	-11.744
錢財	-11.744
周圍	-11.744
應墮惡道	-11.7441
清規	-11.7442
毫髮	-11.7445
辨才	-11.7446
投胎	-11.7447
謗正法	-11.7448
擾亂	-11.7448
日月燈	-11.7449
千百億	-11.7453
白蓮社	-11.7455
宗匠	-11.7456
世間人民	-11.7456
金繩	-11.7458
蘇州	-11.7478
天親論	-11.7526
去此十萬億	-11.756
月朔	-11.7629
三藏十二部	-11.777
東北	-11.7835
因此把	-11.7867
兩脚直	-11.7877
青草堂	-11.7882
迢	-11.7883
頒	-11.7884
掣	-11.7886
斷疑生信	-11.7887
盾	-11.7887
喬	-11.7887
佛在世時	-11.7889
鎧	-11.7889
攪	-11.789
河沙淨土一切諸佛	-11.789
噬	-11.7891
翛	-11.7892
擁	-11.7892
苞	-11.7892
郁	-11.7893
四天王天	-11.7893
喉	-11.7893
披毛戴角	-11.7894
發十種心	-11.7894
菊	-11.7894
閉關專念	-11.7894
普賢行願	-11.7895
忙裏偷閒	-11.7895
空腹高心	-11.7896
苦哉苦哉	-11.7896
株	-11.7896
摩訶目犍連	-11.7897
唯除五逆誹謗正法	-11.7897
無上正等菩提	-11.7897
酷	-11.7897
驥	-11.7898
一毫之善	-11.7898
繒	-11.7898
嫡	-11.7899
哺	-11.7899
寂照不二	-11.7899
緜	-11.7899
芙	-11.7899
要須常不離佛	-11.79
晃耀	-11.79
彊	-11.79
若逢不逢	-11.79
百即百生	-11.79
蛆蟲	-11.7901
常不離佛	-11.7901
但得見彌陀	-11.7901
五利使	-11.7901
東方亦有阿閦鞞佛	-11.7901
諸佛現前三昧	-11.7901
放下萬緣	-11.7901
閫	-11.7901
引導其前	-11.7901
懊	-11.7901
怱	-11.7901
捨此報身	-11.7902
璣	-11.7902
萬般將不去	-11.7902
歛	-11.7902
獘	-11.7902
婉	-11.7902
􂅡	-11.7902
忝	-11.7903
實是罪報所生	-11.7903
汝勿謂此鳥	-11.7903
面見彼佛阿彌陀	-11.7903
豈不快哉	-11.7903
皆是大阿羅漢	-11.7903
晤	-11.7903
十方世界諸天人民	-11.7903
訴	-11.7904
阜	-11.7904
壬申	-11.7904
」】「	-11.7904
9	-11.7904
哭泣	-11.7904
層層	-11.7904
楫	-11.7905
魘	-11.7905
色心不二	-11.7905
希奇	-11.7905
追薦	-11.7906
不為二邊	-11.7906
囿	-11.7906
有梵音佛	-11.7906
咸宣妙法	-11.7906
皆為一切諸佛之所護念	-11.7906
聞是音巳	-11.7906
階梯	-11.7907
天上天下	-11.7907
奔走	-11.7907
悶	-11.7907
帚	-11.7907
徤	-11.7907
宋元嘉	-11.7907
演說妙法	-11.7907
難沮佛	-11.7908
閒忙	-11.7908
以無漏慧	-11.7909
疲倦	-11.7909
右旋宛轉	-11.7909
蒙佛授記	-11.791
釧	-11.791
孤負	-11.791
得與如是諸上善人	-11.791
憾	-11.791
信受奉行	-11.7911
繫縛	-11.7911
綿綿	-11.7911
橛	-11.7911
渴仰	-11.7911
憨山	-11.7911
強弱	-11.7912
粧	-11.7912
游戲	-11.7914
堅密大師	-11.7914
吉凶	-11.7915
遊戲神通	-11.7915
雲棲大師	-11.7915
炷香	-11.7916
謚	-11.7918
錯謬	-11.7918
浴池	-11.7918
天堂地獄	-11.7921
毀犯	-11.7923
不如有人	-11.7925
一體三寶	-11.7927
有益於	-11.7949
謂人曰	-11.795
賜號	-11.7953
德雲比丘	-11.7959
貞元	-11.7963
光明遍照	-11.7987
實報寂光	-11.8002
弟子某甲	-11.8028
南無佛陀	-11.8061
十念功成	-11.8118
隨願往生經	-11.8175
生阿彌陀佛國	-11.8194
徃生傳	-11.8295
徧照十方	-11.8331
啻	-11.8347
淨心即是西方	-11.8364
甕	-11.8373
阿彌哩打	-11.8375
餌	-11.8376
忒	-11.838
緘	-11.8381
鱉	-11.8383
攢	-11.8384
窄	-11.8384
絆	-11.8384
溷	-11.8386
銖	-11.8387
綴	-11.8388
潰	-11.8388
隨拈一法	-11.8389
遊歷十方	-11.839
蝡	-11.8391
蛻	-11.8391
〔	-11.8392
〕	-11.8392
埃	-11.8393
占察	-11.8393
濤	-11.8393
諸罪消滅	-11.8394
當知我於五濁惡世	-11.8394
六種震動	-11.8394
真如不變隨緣	-11.8394
曼	-11.8395
不可勝數	-11.8395
他受用土	-11.8395
命在呼吸	-11.8395
冕	-11.8395
即心是土	-11.8396
五戒十善	-11.8396
億那由他諸佛國	-11.8396
化現其身	-11.8397
妬	-11.8397
藤	-11.8397
以至蜎飛蝡動之類	-11.8398
初發心時	-11.8398
一彈指頃	-11.8398
蓮華勝會	-11.8398
幾心欲	-11.8398
雖憶何為	-11.8398
作我一念之心	-11.8398
岩	-11.8398
彼國常有種種奇妙雜色之鳥	-11.8399
墓	-11.8399
東西南北	-11.8399
作不善業	-11.8399
液	-11.8399
呵呵	-11.8399
黃色黃光	-11.84
十方無央數世界	-11.84
膳	-11.84
財產	-11.84
稱讚諸佛不可思議功德	-11.84
王日休	-11.84
濁水不得不清	-11.84
不去不來	-11.84
易往無人	-11.8401
淑	-11.8401
說是一切世間難信之法	-11.8401
麟	-11.8401
餘門學道	-11.8401
及釋提桓因等	-11.8401
九十一劫	-11.8401
無量百千陀羅尼門	-11.8401
終無有退	-11.8401
一切時處	-11.8401
三十三天	-11.8401
垣	-11.8402
優鉢羅	-11.8402
宮宇	-11.8402
異香天樂	-11.8402
殮	-11.8402
具諸戒行	-11.8402
心不驚動	-11.8402
動念即是生淨土時	-11.8402
發無上菩提心	-11.8402
從本以來	-11.8402
廬山遠法師	-11.8402
豎窮三際	-11.8402
鐙	-11.8402
庇	-11.8402
三世諸佛淨業正因	-11.8402
背覺合塵	-11.8402
髑髏	-11.8402
眾罪消滅	-11.8402
荳	-11.8402
報四恩	-11.8402
甄	-11.8402
臨壽終時	-11.8403
貳	-11.8403
徒仰嘉名	-11.8403
心常歡喜	-11.8403
不可以少善根福德因緣得生彼國	-11.8403
淨土諸書	-11.8403
端身正向	-11.8403
窻	-11.8404
欄網行樹	-11.8404
有事有理	-11.8404
懷感法師	-11.8404
十人九錯路	-11.8404
大地震動	-11.8404
瓊林	-11.8404
足指按地	-11.8404
婁	-11.8405
乘大願船	-11.8405
眾生無邊誓願度	-11.8405
姚秦	-11.8405
纏綿	-11.8405
飲酒食肉	-11.8406
筵	-11.8406
雜色寶華嚴身佛	-11.8406
如是等諸大弟子	-11.8406
有師子佛	-11.8406
文殊師利法王子	-11.8406
寶華德佛	-11.8406
坐蓮華上	-11.8406
叮	-11.8406
碯	-11.8406
搭	-11.8406
一日二日	-11.8407
康熙	-11.8407
斷除三障	-11.8407
典籍	-11.8407
忤	-11.8407
億那由他百千	-11.8408
翰	-11.8408
四恩三有	-11.8408
百億日月	-11.8408
瞬息	-11.8408
願我命終時	-11.8408
是為發菩提心第	-11.8408
盻	-11.8408
琦	-11.8408
稱讚淨土佛攝受經	-11.8409
交煎	-11.8409
歸元直指	-11.8409
無有窮盡	-11.8409
不相違遠	-11.8409
剃髮	-11.8409
瞥爾	-11.841
提婆達多	-11.841
同名同號	-11.841
徊	-11.841
直指淨土決疑集	-11.841
恒沙性德	-11.841
受用現成	-11.8411
不免輪迴	-11.8411
攝大乘論	-11.8411
普賢行願品	-11.8411
作麼生	-11.8412
道安法師	-11.8412
合掌而逝	-11.8412
超佛越祖	-11.8412
寶筏	-11.8412
我及眾生	-11.8413
堅牢	-11.8414
祠	-11.8414
沉溺	-11.8414
│├─────────┤│	-11.8414
祈禱	-11.8415
宰官	-11.8415
機感相應	-11.8417
混濫	-11.8417
戲笑	-11.8418
妙叶	-11.8419
人天福報	-11.842
不云乎	-11.8421
舍宅	-11.8422
宣妙法	-11.8422
十二由旬	-11.8422
苦無樂	-11.8425
一心奉請	-11.8426
現其前	-11.8432
閻老	-11.8453
問其故	-11.8493
無處不	-11.852
初發心住	-11.8541
如五須彌	-11.8582
八萬四千相好	-11.8653
加趺	-11.8781
藍	-11.8886
俞	-11.8895
架	-11.8897
叶	-11.8901
泆	-11.8901
叨	-11.8907
喘	-11.8907
沽	-11.8908
誌	-11.8908
翹	-11.8909
跟	-11.891
紋	-11.8915
莎	-11.8915
大乘廣智	-11.8916
蓄	-11.8917
籬	-11.8918
脩多羅	-11.8918
生必有死	-11.8919
鎗	-11.8919
迸	-11.8919
庾	-11.8919
不增不減	-11.8919
酖	-11.8919
遘	-11.8919
榮辱	-11.892
騁	-11.892
具無量德	-11.892
騖	-11.892
桌	-11.892
拳拳	-11.892
淋漓	-11.8921
謾	-11.8921
雨天曼陀羅華	-11.8922
功高易進	-11.8922
毘盧	-11.8922
土石諸山	-11.8922
薩婆若	-11.8922
瞑	-11.8922
盛眾妙華	-11.8923
擺	-11.8923
鬆	-11.8923
耗	-11.8923
青黃赤白	-11.8923
韁	-11.8924
爺	-11.8924
服膺	-11.8924
離苦得樂	-11.8924
挍量	-11.8924
發阿耨多羅三藐三菩提心	-11.8924
不取相貌	-11.8924
裘	-11.8924
次依宗釋義二	-11.8925
翥	-11.8925
即得往生安樂剎	-11.8925
鶖子	-11.8925
蚊	-11.8925
咨嗟	-11.8925
袪	-11.8925
壽命長遠	-11.8925
四十一位	-11.8925
另	-11.8925
不可思議功德之利	-11.8926
幽溪大師	-11.8926
忍耐	-11.8926
投於亂心	-11.8926
溯	-11.8926
拄杖	-11.8926
言語道斷	-11.8927
徐徐	-11.8927
愛不重不生娑婆	-11.8927
鎮江	-11.8927
朦朧	-11.8927
四威儀中	-11.8927
巾	-11.8927
常見佛故	-11.8927
擴	-11.8927
有日月燈佛	-11.8927
胃	-11.8928
共命之鳥	-11.8928
疇	-11.8928
泥犂	-11.8928
東海若	-11.8928
全修即性	-11.8929
偃	-11.8929
酧	-11.8929
僧叡	-11.8929
警策	-11.8929
廣度含識	-11.8929
歷代祖師	-11.8929
所作吉利	-11.893
罪障深重	-11.893
》、《	-11.893
擅	-11.893
淨因增長	-11.893
淨土法語	-11.893
楯	-11.8931
獎	-11.8931
遁	-11.8931
名為邪觀	-11.8931
發廣大心	-11.8931
慈誓攝我	-11.8931
是非人我	-11.8931
呆	-11.8931
規矩	-11.8932
解入相應	-11.8932
十方無量不可思議諸佛世界	-11.8932
綵	-11.8932
與修多羅合	-11.8933
技	-11.8933
寮	-11.8933
閭	-11.8933
大本法藏願云	-11.8933
情與無情	-11.8933
強健	-11.8933
如經所說	-11.8933
初列名顯廣	-11.8933
自行化他	-11.8933
狂亂失心	-11.8934
癸酉	-11.8934
白馬寺	-11.8934
衣裳	-11.8935
6	-11.8935
蔣	-11.8935
親為勝友	-11.8935
愆尤	-11.8935
於諸佛前	-11.8936
身無病苦	-11.8936
即三而一	-11.8936
鹿苑	-11.8936
現世為人師	-11.8936
闕公則	-11.8936
肺	-11.8936
姑蘇	-11.8936
揆	-11.8936
敷演	-11.8936
淤泥	-11.8938
撞	-11.8938
龍舒增廣淨土文卷第	-11.8938
鞭䇿	-11.8938
無念而念	-11.8938
其略曰	-11.8938
痛鞭	-11.8938
西竺	-11.8939
刀割	-11.8939
并諸菩薩摩訶薩	-11.894
呵責	-11.894
非是算數所能知之	-11.894
無央數劫	-11.8942
四無量心	-11.8943
莫大於	-11.8945
一句洪名	-11.8948
楊墨	-11.895
幢旛	-11.8991
一門深入	-11.9008
佛有三身	-11.9014
稱我名	-11.9142
願求生極樂國	-11.9148
爭奈	-11.9155
失淨因	-11.9196
以持名為	-11.9204
譯無之	-11.9295
秤	-11.945
珉	-11.9458
霍	-11.9459
嘯	-11.9461
受無量名	-11.9462
香水海	-11.9463
鵠	-11.9464
洽	-11.9466
舉要言之	-11.9468
山海慧菩薩	-11.9468
鬢	-11.9468
瘦	-11.9469
綿綿密密	-11.9469
愉	-11.9471
入聖流	-11.9473
譜	-11.9473
顒	-11.9473
吃	-11.9474
押	-11.9474
翊	-11.9475
阿那律	-11.9475
蓮華乃敷	-11.9475
謂弟子曰	-11.9475
蜣	-11.9475
跨	-11.9475
肢	-11.9475
們	-11.9476
令聲不絕	-11.9476
迪	-11.9476
邪定聚	-11.9476
喃	-11.9476
廈	-11.9476
稼	-11.9476
梢	-11.9477
住不退地	-11.9477
肚	-11.9478
沫	-11.9478
甲寅	-11.9478
玷	-11.9478
若子逃逝	-11.9478
燒香散華	-11.9479
自覺覺他	-11.9479
異口同音	-11.9479
悄	-11.9479
亦無所去	-11.9479
簷	-11.9479
罄	-11.948
疣	-11.948
出頭來	-11.948
佛與聖眾	-11.948
前後際斷	-11.948
應稱無量壽佛	-11.948
晁	-11.948
入於塔廟中	-11.948
一稱嘉號	-11.948
纓	-11.9481
便念無常	-11.9481
兜	-11.9481
栢	-11.9481
飄零	-11.9481
僉	-11.9481
个	-11.9481
欲入一行三昧	-11.9481
諸佛晝夜護念	-11.9482
鋤	-11.9482
如人飲水	-11.9482
生決定心	-11.9482
阿彌唎哆	-11.9483
瀉	-11.9483
皮囊	-11.9483
得入如來大誓海中	-11.9483
西方樂西方樂西方	-11.9483
伏滅煩惱	-11.9483
不守自性	-11.9483
是人終時心不顛倒	-11.9483
萬善同歸	-11.9483
虎狼	-11.9483
但持名號	-11.9483
飯食沙門	-11.9484
更無執對	-11.9484
自救不了	-11.9484
徹底悲心	-11.9484
蔡	-11.9484
不二而二	-11.9484
洛陽	-11.9484
發大誓願	-11.9484
作依作正	-11.9484
罄無不盡	-11.9484
盡此一生	-11.9485
浣	-11.9485
普為四恩三有	-11.9485
從初至	-11.9485
思專想寂	-11.9485
馨	-11.9485
甘露灌頂	-11.9485
心識散亂	-11.9485
汲汲	-11.9485
發無上心	-11.9486
箱	-11.9486
瞿曇	-11.9486
專精為功	-11.9486
掦	-11.9486
同得往生阿彌陀佛國	-11.9486
弁	-11.9486
因該果海	-11.9487
筒	-11.9487
閉目開目	-11.9487
念佛三昧寶王論	-11.9487
願以淨光照我	-11.9487
佛道無上誓願成	-11.9487
常為一切世間人民	-11.9487
還入生死	-11.9487
猷	-11.9487
貼	-11.9487
與如是等諸大菩薩	-11.9487
佛昔本誓	-11.9488
梯	-11.9488
超日月光佛	-11.9488
中千世界	-11.9488
啼哭	-11.9489
悶絕	-11.9489
銳	-11.9489
濶	-11.9489
署	-11.9489
及寶羅網	-11.9489
感佛來迎	-11.9489
敬禮常住三寶	-11.9489
櫓	-11.9489
刀砧	-11.949
慈善根力	-11.949
▁一心頂禮西方安樂土	-11.949
諸小菩薩	-11.949
身滿虗空	-11.949
皇后	-11.949
八苦交煎	-11.9491
蕅益大師	-11.9491
鳴磬	-11.9491
不壞假名	-11.9491
心作心是	-11.9492
餘門修道	-11.9492
徇	-11.9492
旻	-11.9492
決疑行願二門	-11.9493
永離惡道	-11.9493
若有人巳發願	-11.9493
喫緊	-11.9493
兩足尊	-11.9493
徑捷	-11.9494
昏衢	-11.9494
疾疫	-11.9494
憍	-11.9495
鵝	-11.9495
眾生在迷	-11.9495
初引經	-11.9497
彌勒未生	-11.9497
佛為法王	-11.9498
腫	-11.9498
坑坎	-11.9499
南岳	-11.95
於諸佛所	-11.9512
二正宗分	-11.9515
陰界入	-11.9521
以無漏智	-11.9521
信有西方	-11.9634
有八萬四千相	-12.0011
濂溪	-12.0033
欒	-12.0042
查	-12.0047
懽	-12.0049
錦繡	-12.0049
黶	-12.005
窩	-12.0055
剗	-12.0055
死此生彼	-12.0057
隨其心淨則佛土淨	-12.0058
裓	-12.0059
曆	-12.006
巋	-12.0061
錍	-12.0061
受具戒	-12.0061
能有幾時	-12.0061
欝	-12.0061
陛	-12.0062
熊	-12.0062
稜	-12.0063
經三小劫	-12.0064
貸	-12.0065
吠	-12.0065
經歷多劫	-12.0065
畝	-12.0065
擕	-12.0065
觀經義疏	-12.0065
鐸	-12.0065
翮	-12.0065
萬德齊彰	-12.0065
誥	-12.0066
口雖念佛	-12.0066
覊	-12.0066
竇	-12.0066
尠	-12.0066
戎	-12.0066
超情離見	-12.0066
釋提桓因	-12.0066
四十八願度眾生九品咸令登彼岸	-12.0066
刀山劍樹	-12.0066
此愛根	-12.0067
地獄鬼畜生	-12.0067
周帀圍繞	-12.0067
隷	-12.0067
蘇軾	-12.0067
坡	-12.0067
󳯟	-12.0067
涓	-12.0067
郵	-12.0067
批	-12.0068
隱形守護	-12.0068
廊	-12.0068
聞是經典	-12.0068
無價寶	-12.0068
惑亂心神	-12.0068
靄	-12.0068
功名富貴	-12.0068
如子憶母	-12.0068
赤色赤光	-12.0068
不勞彈指	-12.0068
奔馳	-12.0068
平等性智	-12.0069
捨諸亂意	-12.0069
忖	-12.0069
眸	-12.0069
三明六通	-12.0069
除其本願	-12.0069
初又三	-12.0069
全妄即真	-12.0069
陪	-12.007
一心待死	-12.007
澡	-12.007
雖知諸佛國及與眾生空	-12.007
不相捨離	-12.007
迺	-12.0071
罹	-12.0071
可痛惜哉	-12.0071
端身正	-12.0071
毗婆尸佛	-12.0071
甲戌	-12.0072
語默動靜	-12.0072
廼	-12.0072
照行者身	-12.0072
佩	-12.0072
擔荷	-12.0072
祥瑞	-12.0072
壽命短促	-12.0072
豪傑	-12.0072
風聲樂響	-12.0072
盡除一切諸障礙	-12.0073
萬象森羅	-12.0073
猶如戴角虎	-12.0073
即理之事	-12.0073
陞	-12.0073
哀愍覆護我	-12.0073
無始無終	-12.0073
見色聞香	-12.0073
達生體不可得	-12.0073
諸菩薩清淨大海眾	-12.0073
疲勞	-12.0073
聞思修	-12.0073
百千種樂	-12.0073
紛紜	-12.0074
氣力充盛	-12.0074
諂曲	-12.0074
三界六道苦難停	-12.0074
調停得中	-12.0074
眼耳鼻舌	-12.0074
光明滿室	-12.0074
氣極為度	-12.0074
蛤蜊	-12.0074
顏色光澤	-12.0075
一時佛在舍衛國	-12.0075
即是念中	-12.0075
瞥爾隨他去	-12.0075
約心觀佛	-12.0075
業識茫茫	-12.0075
眾相具足	-12.0076
開權顯實	-12.0076
徑中徑	-12.0076
哀憐攝受	-12.0076
劂	-12.0076
給孤獨	-12.0076
時不待人	-12.0076
吉祥而逝	-12.0077
翫	-12.0077
法門無量誓願學	-12.0077
猶如敬佛	-12.0077
歐	-12.0078
受大苦惱	-12.0078
始至終	-12.0078
粉骨碎身	-12.0078
能究盡	-12.0078
三德祕藏	-12.0079
隨業受報	-12.0079
飼	-12.0079
佛成道日	-12.0079
本來面目	-12.0079
拍	-12.0079
麝	-12.008
蠢動含靈	-12.008
如水中月	-12.008
飜	-12.0081
依他起性	-12.0081
蓉	-12.0082
願共眾生咸歸命故我頂禮生彼國	-12.0082
鳴引磬	-12.0082
徧至十方	-12.0083
大不調	-12.0085
剪	-12.0085
潯陽	-12.0085
彌陀願海	-12.0086
絕思絕議	-12.0087
五逆謗法	-12.0099
聞諸佛名	-12.0103
誠如所	-12.0117
明心見性	-12.0143
得自由	-12.0238
補佛位	-12.0431
肖	-12.059
恙	-12.0639
綽	-12.0657
頤	-12.066
扁	-12.0666
械	-12.0668
洵	-12.067
裨	-12.0671
闔	-12.0675
不退轉地菩薩	-12.0675
摶	-12.0678
糠	-12.0678
艶	-12.0679
薛	-12.0681
刮	-12.0682
燄	-12.0684
其土有佛號阿彌陀	-12.0685
苦集滅道	-12.0685
蟒	-12.0685
阿僧祗	-12.0685
賅	-12.0685
四十二章經	-12.0685
得六神通	-12.0686
壘	-12.0686
婆娑論	-12.0686
叱	-12.0687
擒	-12.0687
苾	-12.0687
沃	-12.0687
蒲	-12.0688
庖	-12.0688
臭腐	-12.0688
螫	-12.0688
猜	-12.0688
雷次宗	-12.0688
善友告言	-12.0688
寇	-12.0688
眼光落地	-12.0688
伶	-12.0689
心外無土	-12.0689
䛡	-12.0689
兼福兼慧	-12.0689
受勝妙樂	-12.0689
隨犯隨懺	-12.0689
捨家棄欲	-12.0689
朵朵	-12.0689
豎窮橫遍	-12.0689
瓢	-12.069
新發意菩薩	-12.069
穢惡充滿	-12.069
孃	-12.069
瘥	-12.069
及與淨願	-12.069
鵲	-12.0691
籃	-12.0691
起隨念心	-12.0691
閡	-12.0691
即是淨土受生之心	-12.0691
臍	-12.0691
常以清旦	-12.0691
麵	-12.0691
徑中之徑	-12.0691
燼	-12.0691
腑	-12.0691
若飛心中	-12.0691
湮沒	-12.0691
教外別傳	-12.0691
褒	-12.0692
剎那際內	-12.0692
璧	-12.0692
孕質九蓮	-12.0692
翩	-12.0692
母子歷生	-12.0692
十住婆沙論	-12.0693
絕待而照	-12.0693
佛外無心	-12.0693
純想即飛	-12.0693
一專為憶	-12.0693
石火電光	-12.0693
自失善利	-12.0693
芬陀利	-12.0694
無損害心	-12.0694
玻璃	-12.0694
豈不謬哉	-12.0694
大行和上	-12.0694
煌	-12.0694
穫	-12.0694
白樂天	-12.0694
百千億那由他劫	-12.0694
無逼惱心	-12.0694
亂心不得不佛	-12.0695
瓔	-12.0695
所未聞經	-12.0695
觀雖十六	-12.0695
劵	-12.0695
淨土指歸集	-12.0696
起立塔像	-12.0696
阿閦鞞	-12.0696
拔苦與樂	-12.0696
發十大願	-12.0696
非有非空	-12.0696
無明所覆	-12.0696
即見十方一切諸佛	-12.0697
同圓種智	-12.0697
唯有徑路修行	-12.0697
即悟無生法忍	-12.0697
受無量快樂	-12.0697
峨	-12.0697
心想羸劣	-12.0697
死門事大	-12.0697
樸	-12.0698
無上正等正覺	-12.0698
店	-12.0698
跋陀和	-12.0698
死盡偷心	-12.0698
憍尸迦	-12.0698
如影隨形	-12.0698
餅	-12.0698
孚	-12.0698
自然而然	-12.0698
龜鑑	-12.0698
觀佛三昧海經	-12.0698
樊	-12.0698
粒米	-12.0698
娶	-12.0699
若觀彼佛真如法身	-12.0699
願我臨欲命終時盡除一切諸障礙	-12.0699
無解脫期	-12.0699
廣其傳	-12.0699
弑	-12.0699
資粮	-12.0699
蓮宗必讀	-12.0699
氛	-12.0699
行于世	-12.07
溝	-12.07
怨憎會苦	-12.07
名無諍念	-12.07
膜	-12.07
陰境若現前	-12.07
或見非見	-12.07
淨居天	-12.07
無老苦也	-12.07
即事之理	-12.07
伽伽那	-12.07
釵	-12.0701
汲	-12.0701
掇	-12.0701
隨氣長短	-12.0701
嘉禾	-12.0701
挹	-12.0702
懿	-12.0702
捨此求彼	-12.0702
詭	-12.0702
賢劫千佛	-12.0702
圓照本禪師	-12.0702
莫要於	-12.0702
去聖時遙	-12.0703
與大比丘眾	-12.0703
乘戒俱急	-12.0703
省庵法師	-12.0703
▁和南聖眾	-12.0703
硬	-12.0704
無生苦也	-12.0704
姻	-12.0704
住正定故	-12.0704
不如及早念	-12.0704
妄歸真	-12.0704
發真無漏	-12.0704
疼	-12.0705
裕	-12.0705
心多散亂	-12.0705
如救頭然	-12.0705
奴婢	-12.0705
有量之無量	-12.0705
脂	-12.0705
品位高下	-12.0705
心無怖畏	-12.0706
壺	-12.0706
斯陀含	-12.0707
全性成修	-12.0707
自然皆生念佛念法念僧之心	-12.0707
謂家人曰	-12.0707
四大海水	-12.0708
漠	-12.0711
阿育王	-12.0711
多善多福	-12.0712
非是凡夫心力所及	-12.0712
水陸虛空	-12.0719
南無一心奉請	-12.0751
斷佛種	-12.0756
吾人現前一念	-12.0798
自從無始	-12.1121
稱南無佛	-12.1243
灋	-12.129
妍	-12.1317
師僧父母六親眷屬善知識法界眾生	-12.1332
閔	-12.1334
坐脫立亡	-12.1342
豈可得言	-12.1342
槌	-12.1343
宼	-12.1343
臼	-12.1344
夥	-12.1346
傀	-12.1347
巫	-12.1348
挨	-12.1348
扯	-12.1348
具六神通	-12.1348
哥	-12.1348
淨土樂淨土樂西方淨土甚快樂	-12.1349
理能包事	-12.1349
椎	-12.1349
詵	-12.1351
眩	-12.1351
饍	-12.1351
叡	-12.1351
梭	-12.1351
葉葉相	-12.1351
根力覺道	-12.1351
放金色光	-12.1352
淨土樂淨土樂西方淨土甚快樂淨土樂	-12.1352
嬴	-12.1352
喨	-12.1353
闥	-12.1353
說此難信之法	-12.1353
楔	-12.1353
茆	-12.1353
封疆	-12.1353
以苦為樂	-12.1354
行者見巳	-12.1354
蔔	-12.1355
颺	-12.1355
白居易	-12.1355
蘧	-12.1355
若眾生心憶佛念佛	-12.1355
桶	-12.1355
姊妹	-12.1355
鳧	-12.1355
為一切世間說此難信之法	-12.1355
銓	-12.1355
箕	-12.1356
各以衣裓	-12.1356
以名接物	-12.1356
簫	-12.1356
無常終是到來	-12.1356
罩	-12.1357
慙	-12.1357
成所作智	-12.1357
二憶念深	-12.1357
侍立左右	-12.1358
舂	-12.1358
譔	-12.1358
跢	-12.1358
址	-12.1358
泮	-12.1358
誼	-12.1358
一稱其名	-12.1358
其音演暢五根	-12.1358
長蘆賾禪師	-12.1358
炮	-12.1358
萇	-12.1358
蠟印印泥	-12.1358
即土是心	-12.1358
嬉戲	-12.1358
法華會上	-12.1359
泗	-12.1359
皆於中現	-12.1359
炯	-12.1359
沐浴更衣	-12.1359
釋成此宗	-12.1359
鉄	-12.1359
二人相憶	-12.1359
苻	-12.1359
蓮華中化生	-12.1359
我滅度後	-12.136
不假方便自得心開	-12.136
念不一不生極樂	-12.136
若他觀者	-12.136
粉碎	-12.136
復何疑哉	-12.136
常隨守護	-12.136
旹	-12.136
脊	-12.136
識颺神飛	-12.136
丈六金身	-12.1361
非一非異	-12.1361
境細心	-12.1361
力無畏亦然	-12.1361
踞	-12.1361
狎	-12.1361
我說即是空	-12.1361
作得主	-12.1361
乃是稱意之事	-12.1361
彎	-12.1361
樂守護心	-12.1361
懵	-12.1362
左劵	-12.1362
以心緣歷	-12.1362
萬劫難復	-12.1362
凡來我前	-12.1362
八德池中	-12.1362
嵐	-12.1362
七萬釋種	-12.1363
猫	-12.1363
崇禎	-12.1363
說難信法	-12.1363
常勤修習	-12.1363
不果遂者	-12.1363
果徹因源	-12.1364
碍	-12.1364
瘁	-12.1364
旌教寺	-12.1364
若一日若二日	-12.1364
觀難成就	-12.1364
馴	-12.1364
俸	-12.1364
承佛慈力	-12.1364
嘿	-12.1365
常觀此身	-12.1365
天雨妙華	-12.1365
周續之	-12.1365
硯	-12.1365
謟	-12.1365
心靜慮	-12.1365
倏	-12.1365
天樂盈空	-12.1365
除滅罪法	-12.1366
此見及緣	-12.1366
淮	-12.1366
刳	-12.1366
嬾	-12.1366
牟	-12.1366
不高不低	-12.1366
柔順忍	-12.1367
普為師僧父母	-12.1367
無死苦也	-12.1367
是心即是三十二相八十隨形好	-12.1367
不限佛數	-12.1367
𥨊	-12.1367
徧滿十方界	-12.1367
乙亥	-12.1367
荊王夫人	-12.1368
翰林學士	-12.1368
勻	-12.1368
矍	-12.1368
郤	-12.1368
離言說相	-12.1369
深信切願	-12.1369
不從他得	-12.1369
得初歡喜地	-12.1369
督	-12.1369
願往生禮讚偈	-12.1369
鞞	-12.1369
脣	-12.1369
無有疲厭	-12.137
糾	-12.137
歡娛	-12.137
乃真性中所現之	-12.137
壽經除者	-12.137
凜	-12.137
湘	-12.137
7	-12.137
萬中無一	-12.1371
厥號為龍樹	-12.1371
慇	-12.1371
與大比丘僧	-12.1371
餘如扶新	-12.1371
豺狼	-12.1371
千二百五十人	-12.1371
清淨大海眾菩薩摩訶薩	-12.1371
今正是時	-12.1371
巷	-12.1371
慈受深禪師	-12.1371
廻	-12.1371
放眉間光	-12.1371
紳	-12.1372
修習善本	-12.1372
券	-12.1372
但可以無量無邊阿僧祇	-12.1373
成住壞空	-12.1374
圩	-12.1374
著衣喫飯	-12.1375
必上品生	-12.1375
入菩薩位	-12.1375
各據一	-12.1375
長一丈五尺	-12.1376
從外來	-12.1376
雖念念滅	-12.1376
三賢十聖住果報	-12.1378
其為壽也	-12.1381
姦	-12.1381
協	-12.1383
空中有聲	-12.1386
金光明經	-12.1389
心外無境	-12.1422
諸佛同讚	-12.1471
鼓音王	-12.1539
一生補佛	-12.1786
從初發心	-12.1872
補佛處	-12.1946
〈	-12.2036
〉	-12.2036
乃至非老死	-12.204
泄	-12.2042
尿	-12.2049
杻	-12.2054
撒	-12.2054
衾	-12.2055
頰	-12.2055
勗	-12.2056
是即非即	-12.2057
【△	-12.2057
梏	-12.2058
栗	-12.2058
儡	-12.2059
隨語生解	-12.2059
妓	-12.206
鹹	-12.2062
蘖	-12.2062
信為道元功德母	-12.2062
澁	-12.2062
頭出頭沒	-12.2062
良有以也	-12.2063
溥	-12.2063
渟	-12.2063
硃	-12.2064
拄	-12.2064
刷	-12.2065
犍	-12.2065
登高科	-12.2065
後悔難追	-12.2065
玉池蓮	-12.2065
褐	-12.2066
持八戒齋	-12.2066
淨土聖賢錄	-12.2066
迢迢	-12.2066
嵩	-12.2066
餒	-12.2067
盲聾瘖瘂	-12.2067
紊	-12.2067
仿	-12.2067
誠哉是言也	-12.2067
然臂香三炷	-12.2067
誓不中止	-12.2068
貢	-12.2068
發大勇猛	-12.2068
鎚	-12.2068
如此纔是念佛的人	-12.2069
影沉寒水	-12.2069
好死惡死	-12.2069
假使不能作諸功德	-12.2069
琳	-12.2069
芻	-12.2069
傴	-12.207
曳	-12.207
轆轤	-12.207
𡩋	-12.207
影入眾珠	-12.207
我若欲見	-12.207
心佛眾生三無差別	-12.2071
虗靈不昧	-12.2071
刼	-12.2071
四月八日	-12.2071
華嚴離世間品	-12.2071
奈之何	-12.2071
輞	-12.2071
裳	-12.2071
稔	-12.2072
儱侗	-12.2072
乘急戒緩	-12.2072
渧	-12.2072
搏	-12.2072
臰	-12.2072
釘	-12.2072
無忘失心	-12.2072
百千種香	-12.2072
喊	-12.2073
有行無願	-12.2073
掀	-12.2073
念念證真	-12.2073
孜孜	-12.2073
光中化佛無數億化菩薩眾亦無邊	-12.2073
采	-12.2073
柳子厚	-12.2074
隨佛方所	-12.2074
棒喝	-12.2074
牖	-12.2074
祝願安樂	-12.2074
蒂	-12.2074
隍	-12.2075
無執著心	-12.2075
不可說不可說佛剎極微塵數	-12.2075
無禪無淨土	-12.2075
得換珍服	-12.2075
有願無行	-12.2075
諉	-12.2075
亦稱讚我不可思議功德	-12.2075
滲	-12.2075
皆已成佛道	-12.2075
胷	-12.2075
求醫服藥	-12.2076
鄞	-12.2076
曼殊室利	-12.2076
眇	-12.2076
誰人相代	-12.2076
大圓鏡	-12.2076
攝無不盡	-12.2076
蕚	-12.2077
㝹	-12.2077
嫗	-12.2077
摩訶俱絺羅	-12.2077
文潞公	-12.2077
宦	-12.2077
弛	-12.2077
轉大法輪	-12.2078
寶性論	-12.2078
胡思亂想	-12.2078
唎	-12.2078
手持金臺	-12.2078
懇苦翹誠	-12.2078
說誠實言汝等眾生當信是	-12.2078
非空非有	-12.2079
造立宮室	-12.2079
㳷	-12.2079
還至本國	-12.2079
屈伸臂頃	-12.2079
全事即理	-12.2079
實際理地	-12.2079
塹	-12.2079
自性天真之佛	-12.2079
皆共成佛道	-12.2079
智者熾然求生淨土	-12.208
潘	-12.208
直指人心見性成佛	-12.208
潄	-12.208
旗	-12.208
寶樹參天	-12.208
食其肉	-12.208
如修多羅說	-12.208
煩惱無盡誓願斷	-12.208
不可勝紀	-12.2081
先備雨具	-12.2081
以要言之	-12.2081
斷惡修善	-12.2081
結加趺坐	-12.2081
非自非他	-12.2082
我人眾生壽者	-12.2082
翕	-12.2082
歙	-12.2082
不往而往	-12.2082
閉眼之後	-12.2082
離心緣相	-12.2082
恉	-12.2082
須懺業	-12.2082
伽彌膩	-12.2083
所殺冤命	-12.2083
持沙彌戒	-12.2083
惛	-12.2084
孫十二郎	-12.2084
分不及一	-12.2084
扞	-12.2085
成無上道	-12.2085
阿耨多羅	-12.2085
蛙	-12.2085
慟	-12.2085
蕅	-12.2085
媼	-12.2085
宛轉花臺裹	-12.2085
敬然臂香九炷	-12.2085
迴心向大	-12.2086
去來現在一切	-12.2086
九品觀章	-12.2086
龔	-12.2086
釋迦巳滅	-12.2086
俻	-12.2086
懷淨土詩	-12.2086
妍醜	-12.2086
吾佛道也	-12.2087
樓聳七珍	-12.2087
冐	-12.2087
是故念淨土者	-12.2087
答問第一	-12.2087
鋟	-12.2087
長生不老	-12.2087
積功累德	-12.2088
真修實證	-12.2088
滯情融朗	-12.2089
泠	-12.2089
濡	-12.209
姊	-12.209
理事無礙法界	-12.209
𢌞	-12.2091
㲉	-12.2091
生汝心內	-12.2091
蘄	-12.2092
有始無終	-12.2092
藪	-12.2092
儕	-12.2093
􂎈	-12.2094
掠	-12.2094
禮想儀	-12.2095
寶王三昧念佛直指	-12.2098
聞是經者	-12.2099
則三界無復生	-12.2099
住其頂	-12.2101
蛣𧏙	-12.2108
思益經	-12.2113
千八百	-12.2597
錠	-12.2811
郊	-12.2814
狄	-12.2818
舛	-12.2821
寵	-12.2822
緬	-12.2823
醇	-12.2823
囹圄	-12.2823
有一念之不	-12.2825
祚	-12.2825
拘律陀	-12.2826
哂	-12.2826
依正本融通	-12.2827
撤	-12.2827
生佛非殊致	-12.2827
脛	-12.2828
蠲	-12.2828
剜	-12.2828
戟	-12.2828
褥	-12.2828
蹶	-12.2829
屣	-12.2829
古往今來	-12.283
貿	-12.283
噴	-12.2831
蠱	-12.2832
不雜結使念	-12.2833
蛣	-12.2833
抒	-12.2834
篆	-12.2834
鑊湯爐炭	-12.2834
仆	-12.2834
荼	-12.2834
謫	-12.2834
藩	-12.2834
顓	-12.2835
須臾兩分	-12.2835
洩	-12.2835
入法界品	-12.2835
侔	-12.2835
裊	-12.2835
太極圖	-12.2835
前路茫茫	-12.2836
西資鈔	-12.2836
湎	-12.2836
嗅	-12.2836
蟄	-12.2837
濯	-12.2837
彷彿	-12.2837
蝸	-12.2837
柁	-12.2837
胞	-12.2837
拏	-12.2838
憲	-12.2838
愕	-12.2838
生死關頭	-12.2838
金口所宣	-12.2838
六十萬億那由他恒河沙由旬	-12.2839
摹	-12.2839
曾魯公	-12.2839
眨	-12.2839
虐	-12.2839
分十四支	-12.2839
燧	-12.2839
不得一日暫廢	-12.284
矚	-12.284
鬘	-12.284
如今是因	-12.284
志不決定	-12.2841
風貌清美	-12.2841
除無量劫生死之罪	-12.2841
如染香人身有香氣	-12.2841
柄	-12.2841
今生受者是	-12.2841
稗	-12.2841
出沒自由	-12.2842
蠻	-12.2842
一寶二寶	-12.2842
兩眉中間	-12.2842
而共合成	-12.2842
津送亡僧	-12.2842
烏巾白衣	-12.2842
皆明垂言教	-12.2842
妹	-12.2842
是人中芬陀利華	-12.2842
往生淨土懺願儀	-12.2842
過去現在未來	-12.2842
唐太宗	-12.2843
或行或坐	-12.2843
愚者為生所縛	-12.2843
殺盜淫	-12.2843
若病重將終	-12.2843
𢬵	-12.2843
症	-12.2843
假饒金玉滿堂	-12.2843
聞無生即作無生解	-12.2843
聞生即作生解	-12.2843
阿彌陀佛身金色相好光明無等倫	-12.2843
槖	-12.2843
蕉	-12.2843
帶惑往生	-12.2843
無冤憎會苦	-12.2843
蠏	-12.2844
豚	-12.2844
萬劫與千生	-12.2844
回小向大	-12.2844
能如馬鳴龍樹否	-12.2844
胎卵濕化	-12.2844
萃	-12.2844
悟與未悟	-12.2844
黏	-12.2844
看看行步龍鍾	-12.2844
白毫宛轉五須彌紺目澄清四大海	-12.2844
說是語時	-12.2844
搬	-12.2845
繙	-12.2845
讀誦大乘方等經典	-12.2845
母子歷生不相違遠	-12.2845
水無留影之心	-12.2845
常憶常念	-12.2845
峩	-12.2845
有進無退	-12.2845
員	-12.2846
紹隆三寶	-12.2846
疽	-12.2846
磕	-12.2846
詬	-12.2846
轅	-12.2846
若人願作佛	-12.2846
阿彌陀佛常住其頂	-12.2846
文成印壞	-12.2846
涇	-12.2846
偷僧祇物	-12.2846
盡一氣為一念	-12.2846
元是菩提妙淨明體	-12.2846
箭深毒磣	-12.2846
帥	-12.2847
巗	-12.2847
禾	-12.2847
南無阿彌多婆夜	-12.2847
有愛必離	-12.2847
以黃金繩	-12.2847
生大怖畏	-12.2847
直入如來地	-12.2847
眼耳鼻舌身意	-12.2847
亘古亘今	-12.2847
攝護信心	-12.2847
無諸異念	-12.2848
一生取辦	-12.2848
試自忖量	-12.2848
呰	-12.2848
一切世間天人阿修羅等	-12.2848
同一覺源	-12.2848
行無瘡疣	-12.2848
若晝若夜	-12.2848
十聲念我名號	-12.2849
忱	-12.2849
此想成時	-12.2849
色聲香味觸法	-12.2849
令法種增長此世及後生願佛常攝受	-12.2849
無上正真	-12.2849
涸	-12.2849
白飯王	-12.2849
疆	-12.2849
籤	-12.2849
西方確指	-12.285
諸小行菩薩	-12.285
七十者稀	-12.285
從一相好入	-12.285
蝨	-12.285
不苦不樂受	-12.285
以理奪事	-12.285
面見彼佛阿彌陀即得往生安樂剎	-12.285
教稱十念	-12.285
善解義趣	-12.285
萬無一失	-12.2851
分陀利	-12.2851
西方去此十萬億佛剎	-12.2851
密行第一	-12.2851
妄想馳逐	-12.2851
三業俱惡	-12.2851
三摩提	-12.2851
觀念佛心起	-12.2851
憍陳如	-12.2851
暫信暫不信	-12.2851
戒疏發隱	-12.2852
憩	-12.2852
悼	-12.2853
若三日若四日若五日若六日若七日	-12.2853
食三淨肉	-12.2853
嚕	-12.2854
況戒定熏修	-12.2854
修五念門	-12.2854
巳曾供養	-12.2854
畺	-12.2854
統理大眾	-12.2854
廕	-12.2854
賒	-12.2856
距	-12.2856
大名德比丘	-12.2856
願同念佛人	-12.2857
造諸惡業	-12.2857
八長養諸根	-12.2859
乾闥婆	-12.2859
槁	-12.286
淨除業障	-12.2861
殑伽河	-12.2862
見思二惑	-12.2863
一切時一切處	-12.2865
姚秦三藏法師鳩摩羅什	-12.2867
全由信願	-12.2872
有八萬四千光明	-12.2907
南無本師阿彌陀	-12.3059
自下第	-12.3435
▁一心奉請南無	-12.3555
菴摩羅識	-12.3636
屎	-12.3647
謂一悟之後	-12.3649
罥	-12.365
粃	-12.3653
饕	-12.3655
仙陀婆	-12.3655
身見邊見	-12.3656
性具十界亦然	-12.3657
稅	-12.3657
椽	-12.3658
劄	-12.3659
黍	-12.366
峙	-12.366
餉	-12.3661
梧	-12.3661
誓取金臺	-12.3662
曦	-12.3662
恍惚	-12.3663
湮	-12.3663
齧	-12.3663
瘤	-12.3663
灣	-12.3663
當華敷時	-12.3663
自疾不能救	-12.3664
鑛	-12.3666
君子不器	-12.3666
坎	-12.3666
徼	-12.3667
扉	-12.3667
畟	-12.3668
非縱非橫	-12.3668
擘	-12.3668
了義中了義	-12.3668
內外映徹	-12.3668
眴	-12.3669
業不能繫	-12.3669
孰能加焉	-12.367
開目閉目	-12.367
髮白面皺	-12.367
揩	-12.367
葵	-12.367
印壞文成	-12.367
遼	-12.367
曰象形如	-12.3671
庠	-12.3671
澈	-12.3671
所起之念	-12.3671
如脫敝	-12.3671
抹	-12.3671
八八兒	-12.3672
齅	-12.3672
漸漸雞皮鶴髮	-12.3672
閩	-12.3672
體性堅凝	-12.3672
苔	-12.3672
阿閦佛	-12.3673
認賊為子	-12.3673
捲	-12.3673
韜	-12.3673
衫	-12.3673
無分散意	-12.3673
天地懸隔	-12.3673
智者知心是佛	-12.3674
即是不生不滅法	-12.3674
是故得成此光明	-12.3674
耳裏親聞	-12.3674
代不乏人	-12.3674
髏	-12.3674
蛉	-12.3674
是故彼國名為極樂	-12.3674
即從座起	-12.3674
以念念即佛故	-12.3675
不相乖異	-12.3675
偪	-12.3675
其香普熏	-12.3675
極為大幸	-12.3675
酣	-12.3675
兇	-12.3676
同於形影	-12.3676
伍	-12.3676
瞠	-12.3676
常見之所失也	-12.3676
弔	-12.3676
丐	-12.3676
便蒙鈔	-12.3676
蓮華國裏	-12.3676
化為百寶色鳥	-12.3677
崔	-12.3677
荀	-12.3677
團圓正等	-12.3677
不能度無緣	-12.3677
阿賴耶識	-12.3677
清珠下於濁水	-12.3677
閻浮檀金	-12.3677
蹊	-12.3677
燥	-12.3678
難中之難	-12.3678
膿	-12.3678
識投冥界	-12.3678
名聲超十方	-12.3678
名超日月光	-12.3678
艸	-12.3678
如雞抱卵	-12.3678
如爪上土	-12.3678
名稱普聞	-12.3678
霾	-12.3679
諸根悅豫	-12.3679
八方上下	-12.3679
瓘	-12.3679
我此道場如帝珠	-12.3679
鴈過長空	-12.3679
和鳴哀雅	-12.368
時至復現	-12.368
衰老日侵	-12.368
妣	-12.368
求哀懺悔	-12.368
摩訶拘絺羅	-12.3681
我本因地	-12.3681
球	-12.3681
與佛齊等	-12.3681
萬牛莫挽	-12.3681
橘	-12.3681
其有至心願生彼國	-12.3681
砥	-12.3681
三藐三佛陀	-12.3681
菩薩處胎經	-12.3681
腋	-12.3681
見與見緣	-12.3681
皆演妙法	-12.3682
桴	-12.3682
剔	-12.3682
旺	-12.3682
凑	-12.3683
讚歎阿彌陀佛不可思議功德之利	-12.3683
妒	-12.3683
殊途同歸	-12.3683
恊	-12.3683
搖撼不動	-12.3683
往生安樂剎	-12.3683
盼	-12.3683
修行日淺	-12.3683
隴	-12.3683
躐	-12.3683
渚	-12.3683
縉	-12.3684
手摩我頭	-12.3684
慈恩通讚	-12.3684
霆	-12.3684
不須愁遠	-12.3684
如是至心令聲不絕	-12.3684
衣覆我體	-12.3684
鑰	-12.3684
從空入假	-12.3684
八十八使	-12.3684
腮	-12.3684
宗說皆通	-12.3684
系	-12.3684
十氣連屬	-12.3684
第十八願	-12.3684
烏龍山	-12.3685
鍛	-12.3685
幟	-12.3685
陶淵明	-12.3685
蚊蚋	-12.3685
肩發𦦨	-12.3685
𠃔	-12.3685
無量壽莊嚴經	-12.3686
鞠	-12.3686
嗤	-12.3686
南無觀世音菩薩南無大勢至菩薩南無	-12.3686
佛身高六十萬億那由他恒河沙由旬	-12.3686
為其廣說諸法實相	-12.3686
得無礙辯才	-12.3687
治世語言	-12.3687
常隨佛學	-12.3687
六道無復往	-12.3687
信深願切	-12.3687
歆	-12.3687
破塵沙惑	-12.3687
三十六萬億一十一萬九千五百	-12.3687
有六十億七寶蓮華	-12.3688
瑠	-12.3688
彼蒙解脫	-12.3688
竪窮橫徧	-12.3689
澆漓	-12.3689
周圍五寸	-12.3689
橫具四土	-12.3689
糟	-12.3689
玻	-12.3689
深入經藏	-12.3689
以十大願王	-12.3689
中初句標	-12.3689
驟雨忽至	-12.369
蕪	-12.369
虱	-12.3691
當證知我	-12.3691
菩薩猶昏隔陰	-12.3691
普聞眾聲	-12.3691
𩬊	-12.3691
捨身他世	-12.3691
空生大覺中	-12.3692
張鍾馗	-12.3693
紂	-12.3693
翦	-12.3693
出佛身血	-12.3694
得生與否	-12.3695
更受女身	-12.3695
冢	-12.3697
塟	-12.3697
威音那畔	-12.3697
面奉彌陀	-12.3697
犯輕垢罪	-12.3699
撈	-12.3699
大乘善根界	-12.37
蔗	-12.3702
五重玄義	-12.3703
富樓那	-12.3708
􂌞	-12.3718
涅	-12.4546
蒿	-12.4555
而得度者有	-12.4557
滔	-12.4559
蚌	-12.456
札	-12.456
鄒	-12.4561
陌	-12.4562
潦	-12.4563
桎	-12.4564
𥧌	-12.4564
薑	-12.4565
哿	-12.4566
各於其國出廣長舌相徧覆三千大	-12.4567
幅	-12.4569
脆	-12.4569
椀	-12.4569
憊	-12.4569
裸	-12.457
靈靈不昧	-12.4571
直入水救	-12.4572
勺	-12.4572
鬮	-12.4572
阮	-12.4573
昊	-12.4573
一人情急	-12.4573
為水所溺	-12.4573
心具而造	-12.4574
百尺竿頭	-12.4574
我之盤纏	-12.4574
頇	-12.4574
涂	-12.4574
綻	-12.4575
王仲回	-12.4575
飄然輕舉	-12.4575
待老來方念佛	-12.4576
酢	-12.4576
九十八使	-12.4576
棋	-12.4576
無見頂相	-12.4577
根莖枝葉	-12.4577
埵	-12.4577
罏	-12.4577
方有後心是	-12.4577
三藐三菩	-12.4578
皡	-12.4578
聲色所縛	-12.4578
𩯭	-12.4578
佛以大圓覺	-12.4578
心猿意馬	-12.4578
咫	-12.4579
微風徐動	-12.4579
褻	-12.4579
十住斷結	-12.4579
盍	-12.4579
毅	-12.4579
慝	-12.4579
我以顛倒想	-12.4579
纜	-12.458
稻	-12.458
瀆	-12.458
撥棄世事	-12.458
雜廁間錯	-12.458
袋	-12.4581
既從一念生	-12.4581
萬牛不能挽矣	-12.4581
世宗憲皇帝	-12.4581
聦	-12.4581
常與名利相應故	-12.4581
江公望	-12.4581
金翅鳥	-12.4581
餘剎菩薩聞我名巳	-12.4581
誰之過歟	-12.4581
不鼓自鳴	-12.4582
又示尊像令瞻敬	-12.4582
拚	-12.4582
盃	-12.4582
盡情放下	-12.4582
豔	-12.4582
徽	-12.4582
正法眼藏	-12.4583
賑	-12.4583
鬻	-12.4583
豈欺我哉	-12.4583
難免衰殘老病	-12.4583
南謨阿彌陀佛	-12.4583
故佛又號	-12.4583
淨土自信錄	-12.4583
與佛本願不相應故	-12.4583
又要說幾句	-12.4583
豈得相比	-12.4584
心包太虗	-12.4584
坐禪三昧經	-12.4584
壎	-12.4584
六度齊修	-12.4584
至心想像見佛時	-12.4584
釋迦毗楞伽	-12.4584
蘇子瞻	-12.4584
南無西方極樂世界大慈大悲阿彌陀佛	-12.4584
何嗟及矣	-12.4584
痒	-12.4584
大聖大賢	-12.4584
造種種五陰	-12.4584
無始劫來	-12.4584
一切苦厄	-12.4585
詁	-12.4585
燋	-12.4585
鋸	-12.4585
自障障他	-12.4585
若得明曉淨土之人	-12.4585
十萬億剎之遐方	-12.4585
誐	-12.4585
駒	-12.4585
却又怕死	-12.4585
希心起想	-12.4585
覺即續之	-12.4585
繹	-12.4585
版	-12.4585
濁亂者多	-12.4585
舍利鱗砌	-12.4585
待氣盡了	-12.4585
匣	-12.4586
僖	-12.4586
死却多少	-12.4586
親屬不得垂淚哭泣	-12.4586
悉願斷除三障	-12.4586
無量清淨平等覺經	-12.4586
蔓	-12.4586
駁	-12.4586
汨	-12.4586
知星宿第一	-12.4586
身毛皆竪	-12.4586
哆地夜他	-12.4586
穽	-12.4586
微風吹動諸寶行樹	-12.4586
即淨土受生之心	-12.4586
儲	-12.4586
熬	-12.4586
邈	-12.4587
惡獸魑魅	-12.4587
禧	-12.4587
昏迷致死	-12.4587
心不倒散	-12.4587
莫以一時貢高	-12.4587
方顯初心是	-12.4587
壞彼信心	-12.4587
泊然而化	-12.4588
名秘密藏	-12.4588
鼈	-12.4588
有六十七億不退菩薩	-12.4588
亦不從他生	-12.4588
諸法不自生	-12.4588
波羅奈城	-12.4588
須是不得怕死	-12.4588
池流華樹	-12.4588
燁	-12.4588
常念此身多苦	-12.4588
盡報精修	-12.4588
阿毘跋致	-12.4588
本有佛性力	-12.4588
癃	-12.4588
隨意寄託	-12.4588
娠	-12.4588
來安慰汝	-12.4588
地獄畜生餓鬼	-12.4588
怨賊所追	-12.4588
贍	-12.4588
風火逼迫	-12.4589
不寒不熱	-12.4589
不思議神力傳	-12.4589
實際理地不受一塵	-12.4589
并所想相	-12.4589
莫生戀著	-12.4589
佛告普廣	-12.4589
如或言行不稱	-12.4589
如大山崩	-12.4589
何故名為一切諸佛所護念經	-12.4589
令心堅住	-12.459
能如忠國師否	-12.459
絹	-12.459
轂	-12.459
何善如之	-12.459
契理契機	-12.4591
欵	-12.4591
妝	-12.4591
何用繫念彼佛	-12.4591
隨其心淨即佛土淨	-12.4591
易往而無人	-12.4591
至頓至圓	-12.4591
其心怯弱	-12.4591
應自審察	-12.4591
萍	-12.4591
瓊林玉沼	-12.4592
芟	-12.4592
當知如來有勝方便	-12.4592
不以有心念	-12.4592
洄	-12.4592
紹祖師位	-12.4592
遇斯光者	-12.4592
有冤必會	-12.4592
隄	-12.4592
水火盜賊	-12.4592
往生呪三遍	-12.4592
恭稟佛	-12.4592
經十念頃	-12.4592
善友未必相遇	-12.4593
中初翻名	-12.4593
則有投宿之地	-12.4593
來生作佛祖	-12.4593
戒之戒之	-12.4593
翹勤五體	-12.4593
日月星辰	-12.4593
九品咸令登彼岸	-12.4593
飽食過度	-12.4593
賽	-12.4594
植眾德本	-12.4594
詆訶淨土	-12.4594
手忙脚亂	-12.4594
一日不過數里	-12.4594
是誰之咎	-12.4594
南西北方	-12.4594
鱔	-12.4595
股	-12.4595
𡨥	-12.4595
不落惡趣之謂也	-12.4595
譴	-12.4595
娩	-12.4595
入法正位	-12.4595
多不善聚	-12.4596
希從昔賢	-12.4596
世念未休	-12.4596
佛事門中不捨一法	-12.4596
增一阿含經	-12.4596
憒	-12.4596
躅	-12.4596
集諸經禮懺儀	-12.4597
形直則影端	-12.4597
紺目澄清四大海	-12.4597
插	-12.4597
踈	-12.4597
白牛車	-12.4597
聲和則響順	-12.4597
斷四住惑	-12.4597
見佛三昧增上緣	-12.4597
勛	-12.4598
聲聞尚昧出胎	-12.4598
迷本淨心	-12.4599
能破有無宗	-12.4599
蘿	-12.4599
如淨滿月	-12.4599
感此道身	-12.4599
興慈運悲	-12.4599
或復夢見阿彌陀佛勝妙色	-12.4599
宮殿樓觀	-12.46
至圓至頓	-12.46
斷常二見	-12.46
誠不易到也	-12.46
癩	-12.4601
鈞	-12.4601
全由持名之深淺	-12.4601
獲得常色	-12.4601
此吾金仙氏之長生也	-12.4601
初現相表彰	-12.4602
橐	-12.4602
改頭換面	-12.4603
心淨佛土淨	-12.4603
巔	-12.4603
百界千如	-12.4603
冤憎會	-12.4604
爼	-12.4604
紹隆佛種	-12.4604
因圓果滿	-12.4605
如海一漚發	-12.4605
鴨	-12.4605
金銀瑠璃玻	-12.4606
等無譏嫌名	-12.4608
▁196	-12.4611
│├────┤│	-12.463
南無至心歸命禮西方極樂世界	-12.493
千七百公案	-12.5414
心業畫師	-12.5525
㗚	-12.5535
襖	-12.5554
义	-12.5555
鍋	-12.5558
糲	-12.5561
控	-12.5561
薄伽梵	-12.5563
挪	-12.5564
蹋	-12.5565
爻	-12.5568
吾高郵	-12.5568
湻	-12.5569
行行相值	-12.557
丁蓮侶	-12.5571
雉	-12.5571
莖莖相望	-12.5571
袒	-12.5572
浹	-12.5572
畊	-12.5572
趕	-12.5572
錙	-12.5572
教化諸群生	-12.5572
若合符節	-12.5572
煩惱畢竟不起	-12.5572
餚	-12.5573
含笑而逝	-12.5573
蛟	-12.5573
撐	-12.5574
跌	-12.5574
乾屎橛	-12.5574
糜	-12.5575
蕖	-12.5575
弃	-12.5575
於煩惱大苦海中	-12.5575
馱	-12.5575
無諸惡道及眾苦	-12.5576
嘲	-12.5576
咲	-12.5576
靴	-12.5576
顢	-12.5576
生無欲國土	-12.5576
鯉	-12.5576
瞭	-12.5576
從冥入冥	-12.5577
婬怒癡	-12.5577
物來斯應	-12.5577
聞者常起念佛念法念僧之心	-12.5577
瀛	-12.5577
初無彼此異	-12.5577
犀	-12.5578
萬別千差	-12.5578
咦	-12.5578
與教相違故	-12.5578
癢	-12.5578
如執明鏡自見面像	-12.5579
蒜	-12.5579
襄	-12.5579
仍有良導	-12.5579
是出三界之徑路	-12.5579
一一心塵復互周	-12.5579
今世為惡死生天堂者	-12.5579
籟	-12.5579
世網中人	-12.5579
感而遂通	-12.558
蟹	-12.558
俾於佛所深歸仰	-12.558
窮未來際	-12.558
麈	-12.558
▁117	-12.5581
杲	-12.5581
說二百一十億諸佛剎土	-12.5581
捱	-12.5581
捨煖觸	-12.5581
因緣總戒清	-12.5581
諮	-12.5582
舶	-12.5582
晝必有夜	-12.5582
定脫輪迴否	-12.5582
緋	-12.5582
是祖師西來意	-12.5582
經於六劫	-12.5582
樂近雜緣	-12.5582
可不慎乎	-12.5582
茗	-12.5582
奄然而逝	-12.5582
四大部洲	-12.5582
邸	-12.5582
屹然立化	-12.5582
見有臨終勸念佛	-12.5582
其福勝彼	-12.5582
墜高巖	-12.5583
非緣起新成	-12.5583
襪	-12.5583
邪見障覆心	-12.5583
闈	-12.5583
頻來䇿勵	-12.5583
非是他人障	-12.5583
禎	-12.5583
心無一切貪戀迷惑	-12.5583
唧	-12.5583
顏貌端正	-12.5583
晉慧遠法師	-12.5583
志士仁人	-12.5584
皆是自障心	-12.5584
兆載永劫	-12.5584
多陀阿伽度	-12.5584
照見五蘊皆空	-12.5584
蓮修起信錄卷第	-12.5584
嚥	-12.5584
炤	-12.5584
峭	-12.5584
我憶往昔恒河沙劫	-12.5584
一日一月一年一生	-12.5584
唄	-12.5584
十方三世佛阿彌陀第一	-12.5584
罣	-12.5584
普利一切眾生界	-12.5584
幕	-12.5584
璞	-12.5585
一切威勢悉皆退失	-12.5585
蠟	-12.5585
觴	-12.5585
斑	-12.5585
一切諸根悉皆散壞	-12.5585
自家屋裏	-12.5585
彼佛教我念佛三昧	-12.5585
螟	-12.5586
此身不向今生度	-12.5586
經律異相	-12.5586
誨人不倦	-12.5586
定無滯礙否	-12.5586
萬萬千千	-12.5586
為我廣說無憂惱處	-12.5586
境為妙假觀為空	-12.5586
汶	-12.5586
媿	-12.5586
定無苦惱否	-12.5586
傷壞性命	-12.5586
驪	-12.5586
冒	-12.5586
度過此一種苦厄	-12.5586
應時即發菩提之心	-12.5586
執手爐	-12.5586
螺髻梵王	-12.5587
以音聲求我	-12.5587
千夫不制	-12.5587
是人行邪道	-12.5587
若以色見我	-12.5587
廚	-12.5587
惟有業隨身	-12.5587
弩	-12.5587
若得捨此穢身	-12.5587
破他勝德	-12.5587
便成罣礙	-12.5587
沈空滯寂	-12.5588
不嫉彼供	-12.5588
若一念差錯	-12.5588
臧	-12.5588
舍利弗極樂國土成就如是功德莊嚴	-12.5588
衒	-12.5588
助佛揚化	-12.5588
煒	-12.5588
互奪兩	-12.5588
馭	-12.5588
恐難值其善友	-12.5588
方從定起	-12.5589
又如千年積柴	-12.5589
有數數間斷之意	-12.5589
非內非外	-12.5589
聘	-12.5589
豹	-12.5589
皂	-12.5589
上求下化	-12.5589
痢	-12.5589
隔陰之昏	-12.5589
劣夫從轉輪王	-12.5589
是男是女總堪修	-12.5589
毫芒之善	-12.5589
離土無身	-12.5589
塵境麤強	-12.5589
觀音侍左	-12.559
循業發現	-12.559
刀山劒樹	-12.559
失却人身	-12.559
待臨終方念佛	-12.559
瘳	-12.559
可不慎哉	-12.559
薄淨土而不修	-12.559
淨土不足生也	-12.559
但聞佛名二菩薩名	-12.559
王敏仲侍郎	-12.559
蚕	-12.559
至簡易至直捷	-12.559
其惑五也	-12.559
從因至果	-12.559
惡業厚重	-12.559
吳子才	-12.5591
擡	-12.5591
傷肌破骨	-12.5591
兌	-12.5591
若人專念西方極樂世界阿彌陀佛	-12.5591
髮毛爪齒	-12.5591
諸佛菩薩以大悲為業	-12.5591
運同體悲	-12.5591
▁42	-12.5591
受天供養第一	-12.5591
亦復舉體作生作佛	-12.5591
若在狴牢	-12.5591
躊	-12.5591
奩	-12.5591
恍如一夢	-12.5591
能禮所禮性空寂	-12.5591
鳧鴈鴛鴦	-12.5591
說是語巳	-12.5591
日夜歡樂	-12.5591
捶	-12.5592
痰	-12.5592
金沙布地	-12.5592
停心注想	-12.5592
法苑珠林	-12.5592
是故汝等心想佛時	-12.5592
是稱法行	-12.5592
舉身投地	-12.5592
口離四過	-12.5592
多生病患	-12.5592
彼諸如來不來至此	-12.5592
唯有業隨身	-12.5592
鑾	-12.5592
耎	-12.5592
西齋淨土詩	-12.5592
尤可嗟惜	-12.5592
若行若坐	-12.5592
像法決疑經	-12.5593
藜	-12.5593
狥	-12.5593
吻	-12.5593
南天竺國中	-12.5593
遮照同時	-12.5593
清濁向背	-12.5593
心多濁亂	-12.5594
能如天台智者否	-12.5594
瞋癡從身語意之所生	-12.5594
我昔所造諸惡業皆由無始貪	-12.5594
枵	-12.5594
雌	-12.5594
坤	-12.5594
▁119	-12.5594
狀如懸鼓	-12.5594
冷煖自知	-12.5595
無勸念之理	-12.5595
魔外絕蹤	-12.5595
不縱不橫	-12.5595
媳	-12.5595
東攀西緣	-12.5595
其有淺聞單慧	-12.5595
果佛圓明之體	-12.5595
而不慕清淨海眾	-12.5595
一演圓音	-12.5595
上壽不過百歲	-12.5595
說要報重	-12.5595
▁118	-12.5596
所結冤業	-12.5596
諸佛如來所遊居處	-12.5596
痾	-12.5596
楞伽經有預記之文	-12.5596
風吟寶葉	-12.5596
感應隨時現	-12.5596
二者業苦纏身	-12.5596
不必更見阿彌	-12.5596
我實不往	-12.5596
人法二執	-12.5596
再甦而證妙因	-12.5597
▁120	-12.5597
若乃位居不退	-12.5597
阿伽陀藥	-12.5597
莫速於雄俊	-12.5597
居塵不塵	-12.5597
彝	-12.5597
障深慧淺	-12.5597
在欲無欲	-12.5597
孰與諸聖	-12.5597
紆	-12.5597
悉達太子	-12.5597
劃	-12.5598
佛是所觀勝境	-12.5598
▁197	-12.5598
甄叔迦	-12.5598
十人九蹉路	-12.5598
我法二執	-12.5598
舉正報以收依果	-12.5598
千世界說誠實言汝等眾生當信是	-12.5598
樽	-12.5599
願此香煙雲	-12.5599
猶如帶角虎	-12.5599
睫	-12.5599
號為神鸞	-12.5599
知出家為美	-12.56
後魏曇鸞	-12.56
心不怯弱	-12.56
故有捨家出家	-12.56
焰肩佛	-12.56
國學進士王日休譔	-12.56
䞋	-12.56
無貪無戀	-12.56
缶	-12.5601
慕蘭若之寂靜	-12.5601
執理廢事	-12.5601
椒	-12.5602
更饒你	-12.5603
始終不離於當念	-12.5604
磵	-12.5605
釀	-12.5605
陟	-12.5606
出三界外有淨土	-12.5606
有劫石焉	-12.5607
無不還歸此法界	-12.5607
禿	-12.5607
嘴	-12.561
紫磨金	-12.5611
│	-12.5614
億那由他恒河沙	-12.5687
馗	-12.6648
梟	-12.666
屨	-12.6662
茨	-12.6667
佈	-12.6669
粕	-12.6669
普勸念彌陀修福	-12.6672
因緣會遇時	-12.6674
果報還自受	-12.6674
遇斯等人	-12.6675
忉	-12.6676
哦	-12.6677
羲	-12.6677
碗	-12.6679
夔	-12.6679
心隨境轉	-12.668
耘	-12.668
高山平地總西方	-12.668
勃	-12.668
嫂	-12.6682
挫	-12.6682
核	-12.6682
􂩍	-12.6682
乘之救接	-12.6682
地水火風空見識	-12.6682
釆菽氏	-12.6683
佛佛互讚	-12.6683
輥	-12.6683
襯	-12.6683
敻	-12.6684
未舉頭頃	-12.6684
炊	-12.6685
响	-12.6685
曼殊沙	-12.6685
全障即德	-12.6685
及初發心凡夫	-12.6685
鄧	-12.6686
躶	-12.6686
則全惑即智	-12.6686
雁過長空	-12.6686
苦海之大船	-12.6687
生蓮華中寶座之上	-12.6687
兒孫自有兒孫福	-12.6687
贏	-12.6687
殺雞為業	-12.6687
鋼	-12.6687
是脫生死之良方	-12.6688
鰍	-12.6688
紡	-12.6688
莾	-12.6689
繫念不相續故	-12.6689
雖不誹謗方等經典	-12.6689
臠	-12.669
且待富足	-12.669
掬	-12.669
能為大醫王	-12.669
分定夭折	-12.669
朝服而坐	-12.669
一時頓現非隱顯	-12.669
待淨慈本禪師	-12.669
鴆	-12.6691
有在虛空中	-12.6691
軆	-12.6691
艮	-12.6691
即七覺支	-12.6691
噪	-12.6691
地獄眾火一時俱至	-12.6691
粘去縛	-12.6692
是宿善業強	-12.6692
佛祖統紀	-12.6692
又放光明名見佛	-12.6692
寘	-12.6692
瀰	-12.6692
百中希得一二	-12.6692
身無一切病苦厄難	-12.6692
一切諸佛共所護念	-12.6692
廸	-12.6692
鰥寡孤獨	-12.6692
一一心中一切心	-12.6692
且以目前言之	-12.6692
曠大劫來	-12.6692
擇善而從	-12.6692
淅	-12.6692
若也了了自信得及	-12.6693
莫問會與不會	-12.6693
八稜中空	-12.6693
放下屠刀	-12.6694
劊	-12.6694
徉	-12.6694
褁	-12.6694
醋	-12.6694
心如工畫師	-12.6694
安身立命處	-12.6694
禪三昧為食	-12.6694
為鼷鼠而發機	-12.6694
求那䟦陀羅	-12.6694
無有雜染清淨之心	-12.6694
箎	-12.6694
夫善惡二輪	-12.6695
專修無間之說	-12.6695
捍	-12.6695
教我觀於清淨業處	-12.6695
我以慈悲哀愍	-12.6695
椅	-12.6695
妄言綺語兩舌惡口為口四業	-12.6695
更向何生度此身	-12.6695
對凡夫肉眼生死心量說耳	-12.6695
瑯	-12.6695
無謀而應	-12.6696
碁	-12.6696
他化自在天	-12.6696
髀	-12.6696
牌	-12.6696
調和氣息	-12.6696
誠由心分垢淨	-12.6696
墀	-12.6696
粵	-12.6696
童子揮劒	-12.6696
皆是等倫之果	-12.6696
知緣性離	-12.6696
能感增上之緣	-12.6696
如是乃至從生至生	-12.6696
既聞命矣	-12.6696
與佛本願相應故	-12.6696
墟	-12.6697
剖心瀝血	-12.6697
不訟彼短	-12.6697
三洲感應護法韋䭾尊天	-12.6697
歸元性無二	-12.6697
漉	-12.6697
一一好放八萬四千光明	-12.6697
多諸過咎	-12.6697
此自分二初	-12.6697
猴	-12.6697
購	-12.6697
睟	-12.6697
末法億億人	-12.6697
給孤園	-12.6698
一蹉是百蹉	-12.6698
睨	-12.6698
咸令離染	-12.6698
冷暖自知	-12.6698
直待氣消命盡	-12.6698
以少況多	-12.6698
家中長短之事	-12.6699
方可哀泣	-12.6699
稱揚諸佛功德經	-12.6699
澌	-12.6699
貪生怖死	-12.6699
拔一切業障根本得生淨土陀羅尼	-12.6699
境觀雙忘即是中	-12.6699
則心散漫	-12.6699
純說甚深第一義諦	-12.6699
三細六麤	-12.67
向甚處去	-12.67
唯佛與佛乃能究盡	-12.67
氓	-12.67
陰隲方便	-12.67
大通智勝佛	-12.67
珠投於濁水	-12.67
槐	-12.67
羣魔惱亂	-12.67
然臂香十二炷	-12.67
冤賊刀箭	-12.6701
將復尤誰	-12.6701
不識佛深意	-12.6701
看經無慧眼	-12.6701
就路還家	-12.6701
茯	-12.6701
蹇	-12.6701
當行道禮敬之際	-12.6701
父名月上	-12.6701
飛禽走獸	-12.6702
死心新禪師	-12.6702
託外義成	-12.6702
耻	-12.6702
四恩總報	-12.6702
皆同一成壞	-12.6702
古杭雲棲寺	-12.6702
叛	-12.6702
煜	-12.6702
流入薩婆若海	-12.6703
瘂	-12.6703
非天下之至妙	-12.6703
方能興無緣慈	-12.6703
能見過去未來現在諸佛	-12.6703
三有齊資	-12.6703
直顯於心源	-12.6703
撑	-12.6703
或與少善相應	-12.6703
貧女自不知	-12.6703
宙	-12.6704
橫死枉死	-12.6704
原始要終	-12.6704
法源庵之報恩關	-12.6704
不在下品生矣	-12.6704
卍	-12.6704
藏神常守護	-12.6704
諸天常愛護	-12.6704
洞下一宗	-12.6704
我生來作業極重	-12.6704
蕊	-12.6704
軾	-12.6704
四大洲日月	-12.6705
生後利益中	-12.6705
先覓安下處者	-12.6705
譬如壯士屈伸臂頃	-12.6705
真語實語	-12.6705
瘖	-12.6705
一向出生菩薩經	-12.6705
鏘	-12.6705
或有心願未了	-12.6705
春夏秋冬	-12.6705
腹孕轉輪王	-12.6705
蜈	-12.6706
既欲親近叢林	-12.6706
南無蓮池海會	-12.6706
開示悟入佛之知見	-12.6706
▁116	-12.6706
恪	-12.6706
摩醯首羅天	-12.6706
㳂	-12.6706
述化主以包徒眾	-12.6706
十方如來有廣舌之讚	-12.6706
波動金渠	-12.6706
大命將盡之謂也	-12.6706
霹	-12.6706
奠	-12.6706
其城縱廣十千由旬	-12.6707
將錯就錯	-12.6707
狠	-12.6707
優婆麴多	-12.6707
天親教宗也	-12.6707
落日懸鼓	-12.6707
象馬車乘	-12.6707
却出幹事	-12.6707
便獲阿惟越致	-12.6707
蚓	-12.6707
售	-12.6707
不知樂是苦因	-12.6707
何其自欺哉	-12.6707
優樓頻螺	-12.6707
紅螺山	-12.6708
彼則上善聚會	-12.6708
此則親情愛戀	-12.6708
符到奉行	-12.6708
如殑伽沙	-12.6708
此則時序代謝	-12.6708
血滴滴	-12.6709
駛	-12.6709
家私未明	-12.6709
渣	-12.6709
俗務相關	-12.6709
十喪其九	-12.6709
狽	-12.671
朝朝暮暮	-12.671
而童癡老耄	-12.671
萠	-12.671
陰隲文	-12.671
歸命禮阿彌陀佛及一切三寶	-12.671
問藥求醫	-12.6711
舫	-12.6711
有理有跡	-12.6711
行之不休為度	-12.6711
五者或遭水火	-12.6711
當知皆是慈善根力	-12.6711
妻啼子哭	-12.6712
百種憂煎	-12.6712
只是年紀老大	-12.6712
而最愚亦無少欠	-12.6712
非大徹不能全提	-12.6712
咜	-12.6712
瑩淨明徹	-12.6713
又或世緣未了	-12.6713
猥	-12.6713
蟯	-12.6713
跂	-12.6714
沓	-12.6714
顯映金顏	-12.6715
佉	-12.6715
大同小異	-12.6716
革凡成聖	-12.6717
如龍得水	-12.6717
披瀝一心	-12.6718
瑙	-12.6719
自損損他	-12.6719
無量壽佛身量無邊	-12.6719
搗	-12.6719
塵累每銷	-12.6721
猶如片雲點太清裏	-12.6721
阿惟越致	-12.6722
│├───────────┤│	-12.6726
汝將謂一悟	-12.6728
奉詔譯	-12.6729
至心歸命禮西方極樂世界大勢至菩薩	-12.7321
朵	-12.7896
斟	-12.7899
抖	-12.7904
肓	-12.7905
沂	-12.7907
慄	-12.7912
𢍉	-12.7917
窹	-12.7918
扭	-12.7918
怛答阿羯	-12.7919
搥	-12.7921
擢	-12.7921
焜	-12.7923
檐	-12.7925
秩	-12.7926
犂	-12.7926
於惡世中救苦眾生	-12.7926
甓	-12.7927
嚩	-12.7928
閶	-12.7929
昝	-12.7929
珮	-12.7929
鬲	-12.7929
佚	-12.793
三心土相即門	-12.793
皿	-12.793
篪	-12.7931
緝	-12.7931
以無生為無生者	-12.7931
躲	-12.7932
潞	-12.7932
不辭勞倦	-12.7933
蹙	-12.7933
哮	-12.7933
飫	-12.7933
蝕	-12.7933
濛	-12.7933
故心是應佛	-12.7934
一切圓成無勝劣	-12.7934
瀚	-12.7934
慊	-12.7934
杏	-12.7935
呀	-12.7935
能救諸疾人	-12.7935
昺	-12.7935
如十圍之索	-12.7935
彼國純諸菩薩以為良友	-12.7935
晡	-12.7935
澆	-12.7936
華華相順	-12.7936
拓	-12.7936
恐傳之不廣	-12.7936
因風吹於火	-12.7937
毀佛禁戒	-12.7937
垓	-12.7937
磚	-12.7937
賖	-12.7937
鳶	-12.7937
淨土樂淨土樂淨土不思議淨土樂	-12.7937
不是說了便休	-12.7938
不知達磨之玄機	-12.7938
不究如來之了義	-12.7938
踊	-12.7938
獅	-12.7938
粘	-12.7938
慤	-12.7938
罽	-12.7938
捃	-12.7938
習為狂妄	-12.7938
憮	-12.7938
筍	-12.7939
饈	-12.7939
此日持齋念佛不墮	-12.7939
匍	-12.794
有八萬四千隨形好	-12.794
未捨暖觸	-12.794
故能一一塵中一切剎	-12.794
見一華殊麗	-12.794
不易之定論也	-12.794
大石置船上	-12.794
忘情絕解	-12.794
篙	-12.794
雖悔何及	-12.794
離邊顯中	-12.794
邨	-12.794
䫫	-12.7941
礪	-12.7941
假饒忙似箭	-12.7941
崙	-12.7941
若是痛念無常	-12.7941
矗	-12.7941
陜	-12.7941
清明澄潔	-12.7941
是破地獄之猛將	-12.7941
若指諸掌	-12.7942
歷涉緣務	-12.7942
切近精實	-12.7942
此光覺悟將	-12.7942
亦不須輭語安慰	-12.7943
竣	-12.7943
閤	-12.7943
窈	-12.7943
體析巧拙	-12.7943
姜	-12.7943
自心本妙耳	-12.7943
迷心逐境	-12.7943
種瓜得瓜	-12.7943
以聞如是諸經名故	-12.7943
捄	-12.7944
遡	-12.7944
莘	-12.7944
云何於中有是非是	-12.7944
智者復教合掌叉手	-12.7944
此非淨土之指歸乎	-12.7944
竦	-12.7944
然臂香四十八炷	-12.7944
笠	-12.7944
腔	-12.7944
沒個人依怙	-12.7944
㭊	-12.7945
更無方便接引之義	-12.7945
照彼三諦之一境	-12.7945
歘	-12.7945
磧	-12.7945
如響應聲	-12.7945
盜現前僧物	-12.7945
覃	-12.7945
黃雀飛去	-12.7945
先送心歸極樂	-12.7945
全證眾生本性	-12.7945
母名殊勝妙顏	-12.7945
千中希得三四	-12.7945
卷懷同在於剎那	-12.7945
及諸菩薩聲聞之眾	-12.7945
灘	-12.7946
從朝至暮	-12.7946
至安撫使	-12.7946
徹窮後際	-12.7946
妄言綺語兩舌惡口	-12.7946
豈是虗誑言	-12.7946
訝	-12.7946
而由六根三業	-12.7946
如單方治病	-12.7946
交扇邪聲	-12.7946
捫	-12.7946
生從順習	-12.7946
剉	-12.7946
起嗔惱心	-12.7946
皆悉住於正定	-12.7947
愓	-12.7947
不為他岐所	-12.7947
邪法增熾	-12.7947
分定常忙	-12.7947
即是圓融法界全分	-12.7947
然猶信罪福	-12.7947
以不可思議自在神力	-12.7947
使我宿障自除	-12.7947
悉由心性之所變造	-12.7947
㝵	-12.7947
願東願西	-12.7947
四明石芝沙門宗曉	-12.7947
此千倍大千	-12.7947
禴	-12.7947
朦	-12.7947
頷	-12.7948
反損壽矣	-12.7948
何假鬼神延之耶	-12.7948
如投水海中	-12.7948
死從變流	-12.7948
決定必成無上正覺	-12.7948
燹	-12.7948
如生龜脫	-12.7948
但使眾生淨土業成者	-12.7948
巳是彼國生陰	-12.7948
爝	-12.7948
丕	-12.7948
汝若不能念彼佛者	-12.7948
此則名曰香光莊嚴	-12.7948
縳	-12.7949
無倒亂第一	-12.7949
隕	-12.7949
笈	-12.7949
軻	-12.7949
無一念退惰心	-12.7949
璿	-12.7949
縻	-12.7949
但一時同聲念佛	-12.7949
其書山積	-12.7949
孥	-12.7949
癰	-12.7949
迎賓待客	-12.7949
便謂永出四流	-12.795
將謂多做好事	-12.795
未免鑽故紙之病	-12.795
研究三乘莫如教	-12.795
護善遮惡莫如律	-12.795
屯	-12.795
最初省求悟門	-12.795
末後不待發慧	-12.795
攔	-12.795
為欲救拔一切眾生苦	-12.795
必不自妄語以誑人	-12.795
殫	-12.795
他豈不要長生在世	-12.795
姉	-12.795
晨服飾巳	-12.795
䑛	-12.7951
見西河綽禪師	-12.7951
熄	-12.7951
憬	-12.7951
究竟圓頓莫如禪	-12.7951
高四百萬里	-12.7951
捿	-12.7951
何故不令作觀	-12.7951
剡	-12.7951
壽量之數無窮	-12.7951
沙石之數有限	-12.7951
不妨一切世務	-12.7951
並肩牛馬	-12.7951
聞說阿彌陀佛執持名號若一日若二日	-12.7951
難值難見	-12.7951
掩目空歸	-12.7952
靈峰蕅益大師選定淨土十要卷第	-12.7952
若男若女	-12.7952
出金色微妙光明	-12.7952
如旋火輪	-12.7952
仰之彌高	-12.7952
任汝千般快樂	-12.7952
未免墮頑空之失	-12.7952
縵	-12.7952
魏唐二譯	-12.7952
種解脫分善	-12.7952
能於一佛念念相續	-12.7952
於七寶華中自然化生	-12.7952
歉	-12.7953
意須專想阿彌陀佛	-12.7953
淩	-12.7953
上報四重恩	-12.7953
盪	-12.7953
晷	-12.7953
醎	-12.7953
翌	-12.7953
一切我今皆懺悔	-12.7953
必先覓安下處	-12.7953
隨願得生他方佛土	-12.7953
癈	-12.7954
七除饑渴	-12.7954
羹	-12.7954
如就刑戮	-12.7954
譬如貧家女	-12.7954
宥	-12.7955
譬如跛人步行	-12.7955
皆與實相不相違背	-12.7955
舉眼動步	-12.7955
㷀	-12.7955
又如春月遠行	-12.7955
悉躭婆毗	-12.7955
我輩凡夫不能生也	-12.7955
是法非思量分別之所能	-12.7955
燎	-12.7955
作生意知有	-12.7955
暗裏相催	-12.7955
願以此功德普及於一切我等與眾生	-12.7955
疵	-12.7955
晝夜常得諸天大力神	-12.7955
一切毒蛇毒龍毒藥	-12.7956
彼佛光明無量照十方國無所障礙	-12.7956
慼	-12.7956
一能排睡	-12.7956
五外聲不入	-12.7956
四三塗息苦	-12.7956
世間中顯我無上大乘法	-12.7956
即應物而虗靈	-12.7956
莫使此生空過	-12.7956
􂨘	-12.7956
彼佛壽命及其人民無量無邊阿僧祇劫	-12.7957
倨	-12.7957
臨終有此僥倖	-12.7957
假令不與大眾圍繞	-12.7957
疥	-12.7957
攝受證知懺悔及所願	-12.7957
皆樂棲遲	-12.7957
今以此果覺	-12.7957
賷	-12.7957
眾生念念與之迷背	-12.7957
簸	-12.7957
些子境界現前	-12.7957
未知作何行業	-12.7957
謂以專意念佛因緣	-12.7957
笛	-12.7958
自悞悞人	-12.7958
皆依空所生	-12.7958
無一念變異心	-12.7958
瑛	-12.7958
在水則有清濁動靜	-12.7958
白毫宛轉五須彌	-12.7958
稍或狂心未歇	-12.7958
背塵合覺	-12.7958
是捨目前之美玉	-12.7958
莫甚於張馗	-12.7958
笞	-12.7958
恐佛不來迎接	-12.7958
誰信身為苦本	-12.7959
遨	-12.7959
情多想少	-12.7959
恰似守屍鬼	-12.7959
覻	-12.7959
燸	-12.7959
不免隨業緣去	-12.7959
彼則化體香潔	-12.7959
戕	-12.7959
凄	-12.7959
固不必憂散亂	-12.7959
相好光明無等倫	-12.7959
不必受持讀誦方等經典	-12.796
渭	-12.796
只貴一心受持	-12.796
殺生以資口腹	-12.796
二隨科解釋	-12.796
比丘比丘尼優婆塞優婆夷	-12.796
奄忽而亡	-12.796
則尺璧寸陰	-12.7961
迴小向大	-12.7961
況待臨終時哉	-12.7961
於法不說斷滅相	-12.7962
拊	-12.7962
陂	-12.7962
剎海法界不大	-12.7962
瞖	-12.7962
琉	-12.7962
若欲至心生西方者	-12.7963
邪見之所惑也	-12.7963
飱	-12.7963
佇	-12.7963
迃	-12.7963
揵	-12.7963
瓈	-12.7963
鑠	-12.7963
覺明妙行菩薩	-12.7963
佛道有長生乎	-12.7963
蠕	-12.7963
稍於世相之中	-12.7963
忍疼忍苦	-12.7964
斥妄顯真	-12.7964
如來不思議境界經云	-12.7964
昊天罔極	-12.7964
彼則佛化一統	-12.7964
俗舍之煩喧	-12.7965
不以亦有亦無心念	-12.7966
不可說佛剎微塵數世界	-12.7966
不以非有非無心念	-12.7966
迦旃延	-12.7967
塢	-12.7967
色無盡智慧亦復然一切法常住是故	-12.7968
只有些少病痛在身	-12.7968
見賢思齊	-12.797
應病與藥	-12.797
聲聞辟支佛出生其中	-12.7972
𤨏	-12.7974
尸迦羅越	-12.7974
圜	-12.7976
目為全潮	-12.7977
父母六親眷屬	-12.7983
孟子詎楊墨	-12.7985
至心歸命禮西方極樂世界觀世音菩薩	-12.8144
娥	-12.9312
蝎	-12.9318
普使將來悟此門	-12.9328
巵	-12.933
汞	-12.9331
瞰	-12.9333
乃至非般剌若	-12.9339
鷃	-12.934
眵	-12.934
訐	-12.9341
羯	-12.9342
渙	-12.9344
嘖	-12.9344
以無緣慈攝諸眾生	-12.9346
矦	-12.9346
丟	-12.9347
齩	-12.9348
劬	-12.9349
趍	-12.935
十八不共等功德	-12.9353
槽	-12.9354
凡夫例登補處	-12.9354
漾	-12.9354
勁	-12.9355
如二人各有親眷	-12.9355
穎	-12.9355
嬰兒不得離母	-12.9355
蟣	-12.9356
悷	-12.9356
綢	-12.9356
十重四十八輕	-12.9356
縠	-12.9357
牡	-12.9357
瘧	-12.9358
壍	-12.9358
大方廣佛華嚴經	-12.9358
我今樂生極樂世界阿彌陀佛所	-12.9359
㴼	-12.9359
七三觀法爾門	-12.936
即中之空假名作	-12.936
姆	-12.936
構	-12.936
廣照無央界	-12.936
曙	-12.936
琰	-12.9361
鱍	-12.9361
髦	-12.9361
即空假之中名是	-12.9361
閦	-12.9362
癖	-12.9362
樂欲往生彼佛世界	-12.9362
笻	-12.9362
三種障菩提法	-12.9362
以捨身事急故	-12.9362
波揚無量自然妙聲	-12.9362
噎	-12.9362
涘	-12.9362
讒	-12.9363
一旦命根絕處	-12.9363
戀色貪財	-12.9363
用盡奸心百計	-12.9363
若緇若素	-12.9363
簇	-12.9363
假饒骨肉滿前	-12.9363
四大風刀割時	-12.9363
外則脚手牽抽	-12.9363
帶麝帶香	-12.9363
或有骷髏頭上	-12.9363
有誰替汝	-12.9363
前途不見光明	-12.9363
卸	-12.9363
吒	-12.9363
愴	-12.9363
內則肝腸痛裂	-12.9363
無常鬼寄信相尋	-12.9363
落日如懸鼓	-12.9363
淥	-12.9363
痺	-12.9364
扄	-12.9364
無等無倫最上勝智	-12.9364
眼前圖快活一時	-12.9364
身後受苦辛萬劫	-12.9364
閻羅王接人來到	-12.9364
名畢鉢羅	-12.9364
安令五逆凡夫	-12.9364
拔茅連茹	-12.9364
誹	-12.9364
褓	-12.9365
豬	-12.9365
非特自迷正道	-12.9365
収	-12.9365
長謝百憂	-12.9365
全性以起修	-12.9365
而因以不信淨土	-12.9365
八面應酬	-12.9366
糖	-12.9366
筋纏七尺骨頭	-12.9366
誰人不被他瞞	-12.9366
韮	-12.9366
不容一日放過	-12.9366
瀝而雨空	-12.9366
蜾	-12.9366
項脊相對	-12.9367
厓	-12.9367
故感他佛三身圓應	-12.9367
畢竟不可思議不思議義	-12.9367
須句句出口入耳	-12.9367
鈸	-12.9368
禺	-12.9368
願如我身老病者	-12.9368
謔	-12.9368
閾	-12.9368
璫	-12.9368
或偏風失語	-12.9368
裁縫擣染浣濯	-12.9368
蔚	-12.9368
蠃	-12.9368
羶	-12.9368
殂	-12.9368
如蟻子上於高山	-12.9369
曹官抱案沒人情	-12.9369
為煩惱賊之所害者	-12.9369
五法界為念門	-12.9369
蒭	-12.9369
是開黑暗之明燈	-12.9369
種豆得豆	-12.9369
蠧	-12.9369
可同年而語	-12.9369
痁	-12.9369
蹕	-12.9369
儒家止於世間法	-12.9369
千山松茂	-12.9369
得菩薩神通無生法忍	-12.9369
賭	-12.9369
三界法場之外	-12.937
今眾生以煩惱為家	-12.937
瑜	-12.937
菲	-12.937
鹵	-12.937
忘照何嘗有先後	-12.937
自障障他往生正行故	-12.937
言我今忙迫	-12.9371
逢寶不取寶	-12.9371
是以離自心源	-12.9371
默觀鼻端	-12.9371
東西照用有別	-12.9371
如牽木石	-12.9371
國非界繫勝	-12.9371
世智辯聰	-12.9371
診	-12.9371
璀	-12.9371
即隨化佛往生其國	-12.9371
有今日不知來日事	-12.9371
秋收萬顆子	-12.9371
以諸惡業而自莊嚴	-12.9371
廡	-12.9371
或當六月七月	-12.9372
珪	-12.9372
不能得生千佛國土	-12.9372
不得妄有分毫他念	-12.9372
巳在我觀之內	-12.9372
溜	-12.9372
若人以四事極好之物	-12.9372
蘋	-12.9372
不欺壓小民	-12.9372
訃	-12.9372
捻	-12.9372
牘	-12.9372
絺	-12.9372
棘林之比瓊樹	-12.9372
胎獄之望華池	-12.9372
詛	-12.9372
若其不肯登舟	-12.9372
璨	-12.9372
圓收圓超一切法門	-12.9372
洪音發號	-12.9372
二身土緣起門	-12.9373
懾	-12.9373
蝶	-12.9373
膖	-12.9373
便可上齊諸佛	-12.9373
願我未來不聞惡聲	-12.9373
悕	-12.9373
方始十念鳴鐘	-12.9373
詫	-12.9374
鐫	-12.9374
亦非不求生淨土喚作無生	-12.9374
或隔三朝五朝	-12.9374
繚	-12.9374
今世之善未熟	-12.9374
身屍猶臥棺中	-12.9375
信念佛定得佛護	-12.9375
謄	-12.9375
亦是千鈞之弩	-12.9375
亦是浪用精神	-12.9375
始覺從前錯用心	-12.9375
藻	-12.9375
奭	-12.9375
蕩蕩招殃禍	-12.9375
信念佛定滅諸罪	-12.9375
殖	-12.9375
何不思之甚也	-12.9375
瑾	-12.9375
瑣	-12.9376
不知生即無生無生即生	-12.9376
最初一步要分明	-12.9376
仍須一生歸命	-12.9376
從聞佛清淨真實功德名號	-12.9376
㒵	-12.9376
除却千劫極重惡業	-12.9376
尟	-12.9376
瞳	-12.9376
綾	-12.9376
剖出心肝	-12.9376
殤	-12.9376
必於夢中得見彼佛	-12.9376
昔持不殺戒	-12.9376
舉此體作彌陀	-12.9376
茄	-12.9376
又復覺心微起惡念	-12.9376
胖	-12.9376
肴	-12.9376
未免自纏縛之苦	-12.9376
此人精進勇猛故	-12.9376
為說大乘十二部經首題名字	-12.9376
鼙	-12.9377
不能治命盡之人	-12.9377
大醫王能治一切病	-12.9377
妥	-12.9377
慌	-12.9377
及其瞑目告終	-12.9377
披毛帶角	-12.9377
籠鳥鼎魚	-12.9377
首楞大定之司南也	-12.9377
悉由真如隨緣	-12.9377
一心融絕了無蹤	-12.9377
邂	-12.9378
耿	-12.9378
一月普現一切水	-12.9378
半進半退	-12.9378
我若欲見安樂世界阿彌陀如來	-12.9378
大菩薩眾圍繞住處	-12.9378
無外雜緣得正念故	-12.9378
衙	-12.9378
饗	-12.9378
劫濁見濁煩惱濁眾生濁命濁中	-12.9378
嚧	-12.9378
為五陰區局真性	-12.9378
穹	-12.9378
葺	-12.9378
纔有絲毫戀世間心	-12.9378
若有得聞無量壽如來名者	-12.9378
鍵	-12.9378
閎	-12.9378
秊	-12.9379
以毒攻毒	-12.9379
那一件替得生死	-12.9379
不由禪教律而得戒定慧者	-12.9379
以定破於強敵	-12.9379
則不信諸佛誠言	-12.9379
椿	-12.9379
用聲律於戎軒	-12.9379
實慚懼故	-12.9379
忭	-12.9379
合五家之宗派	-12.9379
不必更涉觀想參究等行	-12.9379
稽首西方安樂國接引眾生大導師	-12.9379
人當得無量之福	-12.9379
欲於今世見無量壽佛	-12.9379
雜緣亂動失正念故	-12.9379
狩	-12.938
堵	-12.938
身後何由有地獄	-12.938
頭目髓腦	-12.938
團上有真人	-12.938
故先明應佛入我想心	-12.938
過去久遠劫中	-12.938
或榮或悴	-12.938
八感應任運門	-12.938
便要依佛所說	-12.9381
僭	-12.9381
猶為法塵分別影事	-12.9381
蒐	-12.9381
非得魚忘筌因指見月者	-12.9381
不知彼有自然之衣食	-12.9381
馬腹驢胎	-12.9381
豈可不以淨土為業乎	-12.9381
盡天下之禪僧	-12.9381
當令我與法界眾生	-12.9381
膓	-12.9381
我今正念稱如來名	-12.9381
盡一口氣為一念	-12.9381
六者遭遇豺狼	-12.9381
又賴飲食以滋補	-12.9381
俛	-12.9381
毛髮聳然	-12.9381
盡是枷上添枷	-12.9381
豈不甚迷哉	-12.9381
㐫	-12.9381
不知彼有河沙之壽數	-12.9381
不知彼有純一之快樂	-12.9381
尫	-12.9381
人能屏除萬慮	-12.9382
此修淨土之極致也	-12.9382
善知識尚不可逢	-12.9382
非敢臆說	-12.9382
扈	-12.9382
夜分乃寢	-12.9382
葫	-12.9382
皆是死物上作活計也	-12.9382
自畏不能常值諸佛	-12.9382
教我思惟教我正受	-12.9382
▁121	-12.9383
生與無生兩冥之至道	-12.9383
筯	-12.9383
幻塵俱滅	-12.9383
現世當獲十種勝利	-12.9383
那一件有實效	-12.9383
明州徐道姑	-12.9383
自歸依佛當願眾生體解大道發無上	-12.9383
洞視徹聞	-12.9383
廣及十方四生六道一切眾生	-12.9383
璚	-12.9384
十方菩薩有同往之心	-12.9384
蓐	-12.9384
自歸依法當願眾生深入經藏智慧如海	-12.9384
自歸依僧當願眾生統理大眾一切無礙	-12.9384
觀此理而大誓普收	-12.9384
傘	-12.9384
捨身速生妙喜世界	-12.9384
窂	-12.9384
舍利弗於汝意云何何故名為	-12.9384
一一樹高八千由旬	-12.9384
橫該八教	-12.9384
生極樂國見佛了生死如佛度一切	-12.9384
支婁迦讖	-12.9385
鞮	-12.9385
對眾為大眾宣揚	-12.9385
又恐病來死至之時	-12.9385
嚗	-12.9385
胤	-12.9385
至第六正心住	-12.9385
數盡復入輪迴	-12.9385
身須專禮阿彌陀佛	-12.9385
譬如人入大城中	-12.9385
紐	-12.9385
稱念阿彌陀真實功德佛名號唯願慈悲	-12.9386
粮	-12.9386
聲香味觸	-12.9386
龍蛇混雜	-12.9386
風調雨順	-12.9386
無量論有求生之偈	-12.9386
無現佛可依	-12.9386
他日於其中託生	-12.9386
餽	-12.9387
福祿可增	-12.9387
切要諦信佛經明旨	-12.9387
二者受持三歸具足眾戒不犯威儀	-12.9387
檝	-12.9387
蝟	-12.9387
此則覺德鴻儒	-12.9387
光中化佛無數億	-12.9387
知一切佛猶如影像	-12.9387
七者夜夢正直	-12.9387
北俱盧洲	-12.9387
可為痛哭流涕長太息者	-12.9387
持至風吹不入	-12.9387
神則隨之而生	-12.9387
薨	-12.9387
堂屋西邊	-12.9387
咸舒藻以為盟	-12.9387
亦在乎熟之而	-12.9388
饒汝得仙人	-12.9388
𧂐	-12.9388
純一大乘清淨良伴	-12.9388
化菩薩眾亦無邊	-12.9389
非壽非不壽	-12.9389
染心易熾	-12.9389
源濁則流昏	-12.9389
甯羨依稀解悟	-12.9389
增至八萬四千歲	-12.9389
離垢妙極法身	-12.939
不貴轉輪聖王人天福樂	-12.939
示開往生一門	-12.939
為下則勤以事上	-12.939
至如龍猛祖師也	-12.939
然彼如來宿願力故	-12.9391
劫石可磨	-12.9391
牕	-12.9391
又舍利弗極樂國土有七寶池	-12.9391
黯	-12.9391
霖	-12.9391
既皆全體而作	-12.9391
縱遇苦樂逆順境界現前	-12.9392
能却老為不死乎	-12.9392
投種於蓮胎	-12.9393
殯	-12.9393
亦有不嚴淨國	-12.9393
闚	-12.9394
鄮	-12.9394
佛階決定可期	-12.9394
佛說觀無量壽佛經疏玅宗鈔會本卷第	-12.9394
此身眾苦所集	-12.9395
漭	-12.9396
舡	-12.9396
妙色身世間無與等無比不思議是故今	-12.9396
純諸法身菩薩所居	-12.9396
飃	-12.9396
又能過萬數	-12.9396
如勸百與千	-12.9396
似虎靠山	-12.9396
簡易於宗門乎	-12.9396
愷	-12.9398
欬	-12.9399
款	-12.94
腿	-12.94
蔴	-12.9401
孰謂無益於生前乎	-12.9401
曝	-12.9402
卉	-12.9403
佞	-12.9404
弟子眾等次當懺悔	-12.9405
鍮	-12.9405
駟	-12.9407
窮盡瀛渤	-12.9407
認一浮漚體	-12.9407
唼	-12.9418
遞次自乘	-12.9424
顯是藉氣束心	-13.0006
是藉氣束心也	-13.0359
撼	-13.0961
泐	-13.0973
䏶	-13.098
滂	-13.0983
隲	-13.0987
虺	-13.0988
求乞冥加發神識	-13.0996
崎	-13.0997
玫	-13.0998
魑	-13.1001
悱	-13.1002
雱	-13.1002
繆	-13.1004
洊	-13.1005
犢	-13.1006
奎	-13.1007
颯	-13.1008
扼	-13.1009
鱓	-13.1011
潤州觀音寺	-13.1012
𠷣	-13.1013
如來藏元明心妙	-13.1014
擄	-13.1014
躔	-13.1015
道術技藝	-13.1015
斵	-13.1016
林泉花卉	-13.1016
薇	-13.1017
廩	-13.1019
見卵而求時夜	-13.102
圊	-13.102
霈	-13.1021
先空次假後中	-13.1021
我等作罪亦復無	-13.1021
舘	-13.1022
魎	-13.1023
穰	-13.1023
熠	-13.1023
詈	-13.1024
鉗	-13.1024
褪	-13.1024
怵	-13.1025
醍醐上味為世所珍	-13.1025
我之前程穩穩當當了也	-13.1025
儆	-13.1025
侫	-13.1025
彼學愚夫愚婦之所為	-13.1026
悉由證此因心所具	-13.1026
復次前雖體真	-13.1027
如利刃之必傷	-13.1027
僣	-13.1027
空谷隨聲發響	-13.1027
如憶少背之慈母	-13.1028
疑結習濃厚	-13.1028
󳯔	-13.1028
媧	-13.1028
有榮寵而悴辱者	-13.1028
遠離我心貪著自身故	-13.1028
掄	-13.1028
以深信願持佛名號	-13.1028
酤	-13.1028
嘔	-13.1028
夫辟散之要	-13.1028
徹證心性無量之體	-13.1028
琛	-13.1028
向上有白毫一條	-13.1028
榆	-13.1028
猶春雷之動百草	-13.1028
嚇	-13.1029
扭揑做作	-13.1029
駝	-13.1029
能造因緣及所造法	-13.103
燔	-13.103
能成我心三身當果	-13.103
駿	-13.103
此謂心淨故佛土淨	-13.103
遠離無安眾生心故	-13.103
金容熒煌以散彩	-13.103
恒以一心求諸功德	-13.1031
有門前古槐樹	-13.1031
遠離恭敬供養自身心故	-13.1031
知百千億那由他諸劫事者	-13.1031
顛倒凡夫認作身	-13.1032
題曰大聖竹林寺	-13.1032
只貴在念佛精切	-13.1032
㡧	-13.1032
到死始知非是我	-13.1032
德雲比丘告善財言	-13.1032
樂天不是蓬萊客	-13.1032
但只執持一句南無阿彌陀佛	-13.1032
要指方立相	-13.1033
旒	-13.1033
蜚	-13.1033
且待閒暇	-13.1033
獃	-13.1033
普於十方不可說不可說世界	-13.1033
又資福曦公	-13.1033
不樂閻浮提濁惡世也	-13.1034
在僧徒不妨參禪	-13.1034
是以此身謂之報身	-13.1034
以道士不肖而輕老子	-13.1034
士人不肖而輕孔子	-13.1034
況可以其徒而輕其教乎	-13.1034
廬陵李彥弼	-13.1034
汝起食白粥	-13.1034
憂曇華大眾用心聽	-13.1034
裒	-13.1034
祁	-13.1034
矩	-13.1034
應修念佛禪三昧	-13.1034
㨗	-13.1034
雖彼此各是一珠	-13.1034
猶如明鏡覩其面像	-13.1034
聞百千億那由他諸佛所說	-13.1034
煮	-13.1035
一人喚云某人	-13.1035
旋收旋散	-13.1035
踟	-13.1035
寧以洋銅灌口	-13.1035
餞	-13.1035
鐃	-13.1035
指以脫歸路程	-13.1035
一者晝夜常得一切諸天大力神將	-13.1035
且萬念紛飛之際	-13.1035
旋散旋收	-13.1035
為其廣說阿彌陀佛國土樂事	-13.1036
無非種地獄深根	-13.1036
葩	-13.1036
亦是宿種今熟	-13.1036
一切親屬悉皆捨離	-13.1036
不凌辱下人	-13.1036
繕	-13.1036
此心便是圓融清淨寶覺	-13.1036
實無眾生得滅度者	-13.1036
宸	-13.1036
邃	-13.1036
漕	-13.1036
琪	-13.1036
但留阿彌陀佛四字名號	-13.1036
慈雲式懺主	-13.1036
擬此大權菩薩	-13.1036
自然感得有餘等三	-13.1036
虹	-13.1036
汝之能覺妄念	-13.1036
為說大乘甚深經典	-13.1036
又有樂器懸處虗空	-13.1036
橫絕邊涯	-13.1036
有百八十億菩薩	-13.1037
真如性中所具佛法界	-13.1037
方得成就所願而入佛位	-13.1037
押入湯塗火塗刀塗	-13.1037
故明此宗而求生樂土者	-13.1037
前街後巷	-13.1037
爆	-13.1037
鸜	-13.1037
劈	-13.1038
咀	-13.1038
騷	-13.1039
彀	-13.1039
覈	-13.1039
巽	-13.1039
欹	-13.1039
嚬	-13.1039
籪	-13.1039
臯	-13.1039
努	-13.104
塾	-13.104
締	-13.104
𨽻	-13.104
闞	-13.1042
蜨	-13.1042
噓	-13.1042
匱	-13.1042
恆	-13.1042
嚚	-13.1042
絏	-13.1042
愜	-13.1043
眎	-13.1043
凟	-13.1043
倪	-13.1043
癘	-13.1043
鞫	-13.1043
蚖	-13.1043
驛	-13.1043
姟	-13.1043
廛	-13.1044
狸	-13.1044
箋	-13.1044
踢	-13.1045
懦	-13.1045
裩	-13.1045
􂎶	-13.1046
慜	-13.1046
𦣱	-13.1046
䬸	-13.1047
澀	-13.1047
泳	-13.1048
閏	-13.1048
䟽	-13.1048
蓍	-13.1048
觜	-13.1048
鴦	-13.1048
擷	-13.1049
猗	-13.1049
脗	-13.1049
淒	-13.1049
籥	-13.1049
牓	-13.1049
攣	-13.105
蕋	-13.105
暈	-13.105
絮	-13.1051
樁	-13.1051
瑗	-13.1051
趼	-13.1052
泪	-13.1052
訊	-13.1053
貂	-13.1053
嶠	-13.1053
灕	-13.1053
屹	-13.1054
煢	-13.1054
膾	-13.1055
哨	-13.1055
諗	-13.1055
𠎝	-13.1055
磐	-13.1055
訾	-13.1055
昞	-13.1056
箴	-13.1056
麓	-13.1056
傚	-13.1056
惧	-13.1056
鵞	-13.1057
駄	-13.1057
騫	-13.1058
赧	-13.106
睽	-13.106
堤	-13.106
桀	-13.106
岡	-13.106
詡	-13.106
巍	-13.106
瞀	-13.1062
諺	-13.1062
詶	-13.1063
菁	-13.1065
觚	-13.1066
醯	-13.1071
鐔	-13.2969
垠	-13.298
袞	-13.2981
鉛	-13.2984
衽	-13.2987
獷	-13.2988
芩	-13.2992
摑	-13.2996
捋	-13.2999
犧	-13.2999
芷	-13.2999
埀	-13.3
霽	-13.3001
拗	-13.3002
跣	-13.3005
殼	-13.3008
聃	-13.3008
套	-13.3008
魍	-13.301
鯹	-13.3012
黻	-13.3013
蹏	-13.3013
洹	-13.3015
凳	-13.3015
娜	-13.3016
虀	-13.3018
塤	-13.3019
磋	-13.3019
輾	-13.3019
隸	-13.302
腕	-13.302
脾	-13.3021
綉	-13.3021
逭	-13.3021
鱷	-13.3021
娼	-13.3022
薤	-13.3022
洙	-13.3023
頺	-13.3023
駢	-13.3023
雛	-13.3024
氈	-13.3025
癅	-13.3025
叚	-13.3025
筈	-13.3025
鈐	-13.3026
丰	-13.3027
茘	-13.3027
遄	-13.3028
䆳	-13.3028
儗	-13.3028
猨	-13.3028
蚩	-13.3028
琇	-13.3029
鶉	-13.3029
悍	-13.3029
悌	-13.3029
沌	-13.3029
嫩	-13.3029
舵	-13.303
帽	-13.3031
亞	-13.3031
癲	-13.3031
󰢍	-13.3031
紜	-13.3031
斐	-13.3031
曬	-13.3031
瀑	-13.3032
礦	-13.3032
轄	-13.3033
砍	-13.3033
楮	-13.3033
㶿	-13.3034
輊	-13.3034
昱	-13.3035
熒	-13.3035
揜	-13.3035
囤	-13.3036
珥	-13.3036
𥥆	-13.3036
杆	-13.3036
櫛	-13.3037
賡	-13.3037
訢	-13.3037
彧	-13.3037
罟	-13.3038
韙	-13.3038
樾	-13.3038
虻	-13.3038
淖	-13.3038
𣹢	-13.3038
纊	-13.3039
訕	-13.3039
狡	-13.3039
晞	-13.3039
羼	-13.3039
褊	-13.3039
廂	-13.304
饞	-13.304
坵	-13.304
彙	-13.304
烙	-13.3041
楶	-13.3041
禰	-13.3041
觔	-13.3041
錘	-13.3041
匯	-13.3042
滉	-13.3042
搢	-13.3042
刧	-13.3043
毆	-13.3043
瘟	-13.3043
漲	-13.3043
蟾	-13.3043
埒	-13.3043
毱	-13.3043
蠒	-13.3043
陬	-13.3043
𠻳	-13.3044
粱	-13.3044
挌	-13.3044
婪	-13.3044
匙	-13.3044
軫	-13.3045
佯	-13.3045
喙	-13.3045
殛	-13.3045
杷	-13.3045
漪	-13.3045
蟠	-13.3045
翱	-13.3046
蕃	-13.3046
擣	-13.3046
岫	-13.3047
錮	-13.3047
嗷	-13.3047
戍	-13.3047
纍	-13.3047
仝	-13.3047
棃	-13.3047
肫	-13.3048
㝡	-13.3048
擠	-13.3048
皐	-13.3048
墉	-13.3048
􂎫	-13.3048
羔	-13.3049
藂	-13.3049
缽	-13.3049
虜	-13.305
黠	-13.305
羝	-13.305
迓	-13.3051
榛	-13.3051
疋	-13.3051
鏁	-13.3051
吽	-13.3052
睿	-13.3052
鰥	-13.3052
汰	-13.3053
鷗	-13.3053
瞌	-13.3054
耔	-13.3054
䏺	-13.3054
贒	-13.3054
嚏	-13.3054
畦	-13.3054
顇	-13.3054
檜	-13.3055
蹬	-13.3055
𤏙	-13.3055
攜	-13.3056
盎	-13.3056
杪	-13.3057
纘	-13.3057
肱	-13.3057
慍	-13.3059
摯	-13.3059
牯	-13.306
謐	-13.306
裟	-13.3061
濬	-13.3061
穅	-13.3062
厘	-13.3063
讟	-13.3063
漣	-13.3063
嘻	-13.3065
薀	-13.3066
雹	-13.3068
瀁	-13.3068
黼	-13.3068
粳	-13.3069
渝	-13.3074
䦨	-13.3075
駈	-13.3075
叅	-13.308
簣	-13.3092
贓	-13.542
嶇	-13.547
靚	-13.5479
种	-13.5479
絞	-13.5481
𡟎	-13.5483
頊	-13.5484
縊	-13.5485
跖	-13.5489
匈	-13.5489
凰	-13.5491
褱	-13.5492
茖	-13.5493
䢼	-13.5495
屙	-13.5495
魋	-13.5496
獍	-13.5496
詹	-13.5498
犒	-13.5499
蔕	-13.5499
爬	-13.55
餮	-13.5502
湔	-13.5502
甸	-13.5503
舁	-13.5507
鄂	-13.5507
撚	-13.5509
惘	-13.5509
頫	-13.5509
嘶	-13.5512
攞	-13.5512
覘	-13.5513
澶	-13.5514
殑	-13.5514
煅	-13.5514
羗	-13.5514
俺	-13.5514
孀	-13.5515
鸝	-13.5516
獐	-13.5516
聒	-13.5516
績	-13.5517
砭	-13.5517
沁	-13.5518
蘚	-13.5518
袂	-13.5519
彷	-13.5519
絰	-13.5519
鴞	-13.5519
潺	-13.552
縶	-13.552
鞵	-13.552
褚	-13.552
譎	-13.5521
湫	-13.5521
鯨	-13.5521
穡	-13.5522
犴	-13.5523
豸	-13.5523
腎	-13.5524
瘠	-13.5524
髭	-13.5525
刁	-13.5525
篡	-13.5525
惋	-13.5527
砆	-13.5527
碔	-13.5527
胄	-13.5527
諡	-13.5527
駑	-13.5527
潁	-13.5528
頡	-13.5528
曄	-13.5528
杌	-13.5529
佔	-13.553
亢	-13.553
碾	-13.553
菡	-13.553
潸	-13.553
藿	-13.5531
懂	-13.5531
賚	-13.5531
娟	-13.5532
柝	-13.5532
㖿	-13.5532
啊	-13.5532
嚶	-13.5532
幘	-13.5533
墖	-13.5534
豺	-13.5534
隳	-13.5534
敂	-13.5534
灸	-13.5534
郢	-13.5534
鶖	-13.5534
睢	-13.5535
刈	-13.5535
鐶	-13.5536
霔	-13.5536
貅	-13.5537
弆	-13.5537
􂷭	-13.5537
槍	-13.5537
紗	-13.5537
竈	-13.5537
跽	-13.5538
軼	-13.5538
飴	-13.5538
􂷴	-13.5538
睠	-13.5538
澨	-13.5538
衮	-13.5538
抃	-13.5538
湍	-13.5539
塋	-13.5539
窖	-13.5539
扮	-13.5539
鞘	-13.5539
幃	-13.5539
孼	-13.554
痿	-13.554
繳	-13.554
昃	-13.5541
榴	-13.5541
煬	-13.5541
眚	-13.5541
裾	-13.5541
媒	-13.5541
驤	-13.5541
諟	-13.5542
楓	-13.5542
閧	-13.5542
咳	-13.5542
貺	-13.5542
雇	-13.5542
蓽	-13.5542
甑	-13.5542
蓆	-13.5542
􂷩	-13.5542
旰	-13.5543
搐	-13.5543
肄	-13.5543
緻	-13.5544
膊	-13.5544
觝	-13.5544
嚙	-13.5544
牋	-13.5545
搽	-13.5545
碓	-13.5545
襠	-13.5545
悒	-13.5546
踴	-13.5546
孱	-13.5546
蝗	-13.5546
籐	-13.5546
賬	-13.5546
匏	-13.5546
輦	-13.5546
彳	-13.5547
蠭	-13.5547
孾	-13.5548
抂	-13.5548
聶	-13.5548
蔀	-13.5548
燐	-13.5548
媱	-13.5548
唫	-13.5548
顰	-13.5548
遯	-13.5549
俚	-13.5549
蚋	-13.5549
彖	-13.555
暝	-13.555
搪	-13.555
姤	-13.555
𠍴	-13.555
梆	-13.5551
唳	-13.5552
濠	-13.5552
輅	-13.5552
嵓	-13.5552
搶	-13.5552
漬	-13.5552
輳	-13.5552
浚	-13.5553
亶	-13.5553
晢	-13.5553
顫	-13.5553
拕	-13.5553
譁	-13.5553
漩	-13.5554
諠	-13.5555
凖	-13.5555
鶩	-13.5555
淄	-13.5556
玎	-13.5556
偹	-13.5556
噍	-13.5556
竢	-13.5556
覬	-13.5556
䂮	-13.5556
蹲	-13.5556
燬	-13.5556
覯	-13.5556
喰	-13.5557
愔	-13.5557
繢	-13.5557
瘵	-13.5557
衿	-13.5557
廳	-13.5558
蕤	-13.5558
晣	-13.5559
弒	-13.5559
暘	-13.5559
戢	-13.556
孑	-13.556
􂶳	-13.556
迤	-13.556
鞍	-13.556
澂	-13.5562
皃	-13.5562
盋	-13.5562
𠗂	-13.5562
坌	-13.5563
桔	-13.5564
篦	-13.5564
氳	-13.5566
瘴	-13.5566
匆	-13.5567
陡	-13.5567
嗚	-13.5567
睇	-13.5568
┘	-13.5568
輓	-13.557
墅	-13.5571
匃	-13.5571
笋	-13.5573
訒	-13.5577
獰	-13.5584
聻	-13.5588
撕	-13.8747
涶	-13.8762
濾	-13.8763
毳	-13.8778
顥	-13.878
亷	-13.8784
剮	-13.8788
𧹞	-13.879
耦	-13.879
髫	-13.8796
珣	-13.8806
瀼	-13.8807
𡧯	-13.8811
啾	-13.8813
櫪	-13.8813
嗇	-13.8819
炒	-13.8823
筮	-13.8824
笟	-13.8824
僮	-13.8825
萑	-13.8828
鴂	-13.883
珞	-13.8831
謳	-13.8834
晒	-13.8836
𤙖	-13.8836
㘑	-13.8836
嚲	-13.8838
袵	-13.8839
寞	-13.884
隰	-13.884
鴟	-13.884
謭	-13.884
敞	-13.8842
虩	-13.8842
轕	-13.8843
轇	-13.8843
鬥	-13.8844
薏	-13.8846
𠶹	-13.8846
暵	-13.8846
噤	-13.8846
慫	-13.8846
窬	-13.8846
弋	-13.8847
觖	-13.8847
諄	-13.8848
熹	-13.8848
𦞦	-13.8848
酆	-13.8848
佃	-13.8848
瓚	-13.8848
从	-13.8849
嶂	-13.885
嗢	-13.885
煗	-13.885
鯤	-13.885
鴛	-13.885
涑	-13.885
晌	-13.8852
钁	-13.8852
辠	-13.8852
汐	-13.8853
窘	-13.8854
鏃	-13.8854
尪	-13.8854
頎	-13.8854
鼇	-13.8854
殽	-13.8856
姬	-13.8856
荻	-13.8856
凭	-13.8858
諛	-13.8858
鸎	-13.8858
鑼	-13.8858
蓞	-13.8859
𨷂	-13.8859
苧	-13.8859
蜊	-13.8859
勦	-13.8859
昉	-13.886
𩟠	-13.886
瘞	-13.886
􂖷	-13.886
媟	-13.8861
髑	-13.8861
翾	-13.8861
簀	-13.8861
𤚲	-13.8861
棊	-13.8861
㝱	-13.8863
迯	-13.8863
鵡	-13.8863
楗	-13.8863
笥	-13.8863
苛	-13.8863
嵒	-13.8864
㸑	-13.8865
祟	-13.8865
氤	-13.8865
宕	-13.8865
崢	-13.8865
矇	-13.8865
緡	-13.8865
羂	-13.8865
刎	-13.8865
慂	-13.8865
鏹	-13.8865
睞	-13.8866
秧	-13.8867
嗽	-13.8867
坏	-13.8867
淘	-13.8867
嶷	-13.8867
徂	-13.8867
挐	-13.8867
离	-13.8867
袌	-13.8867
芿	-13.8868
砧	-13.8868
賸	-13.8868
跕	-13.8868
閽	-13.8868
戱	-13.8869
菔	-13.8869
埿	-13.8869
瘀	-13.8869
蜯	-13.8869
=	-13.8869
隈	-13.8869
煦	-13.8869
紏	-13.8871
䠒	-13.8871
螂	-13.8871
瑪	-13.8871
嫚	-13.8871
樑	-13.8871
餬	-13.8871
𦳊	-13.8871
况	-13.8871
淼	-13.8871
猊	-13.8872
髯	-13.8872
畿	-13.8873
㲲	-13.8873
戞	-13.8873
疹	-13.8873
囈	-13.8875
𥢶	-13.8875
嚫	-13.8875
抝	-13.8875
柬	-13.8875
邏	-13.8876
瞶	-13.8876
癤	-13.8877
弈	-13.8877
型	-13.8877
撩	-13.8877
壻	-13.8877
甥	-13.8877
港	-13.8877
琯	-13.8877
糅	-13.8877
腴	-13.8877
𨓏	-13.8877
峽	-13.8877
狴	-13.8878
嚊	-13.8878
茁	-13.8878
盅	-13.8878
絜	-13.8878
墩	-13.8879
鯁	-13.8879
姙	-13.8879
餧	-13.8879
騾	-13.8879
濱	-13.8879
甃	-13.8879
襃	-13.8879
柢	-13.8879
縟	-13.888
墯	-13.888
粤	-13.888
闖	-13.8881
煨	-13.8881
韈	-13.8881
荄	-13.8881
黐	-13.8881
姒	-13.8881
洴	-13.8881
霪	-13.8881
毓	-13.8881
𤢆	-13.8881
邗	-13.8881
壟	-13.8882
嵌	-13.8882
矰	-13.8882
氐	-13.8883
懍	-13.8883
櫺	-13.8883
婺	-13.8883
拌	-13.8883
濺	-13.8883
蠉	-13.8883
醃	-13.8883
黜	-13.8883
斁	-13.8884
氎	-13.8884
罅	-13.8884
邢	-13.8884
醻	-13.8885
柩	-13.8885
倬	-13.8885
哄	-13.8885
煽	-13.8885
羇	-13.8885
嵬	-13.8885
盌	-13.8885
磲	-13.8885
豼	-13.8885
仵	-13.8885
栴	-13.8885
荏	-13.8886
逵	-13.8886
倔	-13.8886
烽	-13.8886
俏	-13.8886
鑣	-13.8886
蹌	-13.8886
凱	-13.8887
􂋧	-13.8887
綬	-13.8887
藁	-13.8887
鍱	-13.8887
黿	-13.8887
玕	-13.8888
瀋	-13.8888
祉	-13.8888
惲	-13.8888
逋	-13.8889
臚	-13.889
啜	-13.889
睥	-13.889
儋	-13.8891
赶	-13.8892
燿	-13.8892
寖	-13.8892
窶	-13.8892
籲	-13.8892
欻	-13.8892
躃	-13.8892
萏	-13.8893
霛	-13.8893
匵	-13.8894
昴	-13.8894
𧏙	-13.8894
瞢	-13.8894
朞	-13.8894
騃	-13.8894
躳	-13.8896
棉	-13.8896
叠	-13.8896
翟	-13.8896
盰	-13.8896
饋	-13.8898
摠	-13.8898
溉	-13.8898
鉞	-13.8898
斆	-13.8898
謦	-13.8898
憕	-13.89
澣	-13.8901
踉	-13.8901
𤘽	-13.8901
殀	-13.8902
𤏊	-13.8902
㗛	-13.8904
汀	-13.8904
穌	-13.8906
􂏬	-13.8908
螘	-13.8908
曘	-13.8915
𠁼	-13.8919
梳	-13.8925
拷	-13.8931
沗	-13.8941
擻	-14.3728
喀	-14.3732
繽	-14.3792
劭	-14.3795
㜸	-14.3801
戇	-14.3802
婿	-14.3805
崐	-14.3808
惇	-14.3811
嘩	-14.3811
孜	-14.3812
妯	-14.3824
轆	-14.3824
嘈	-14.3827
厈	-14.383
抳	-14.383
摛	-14.383
巉	-14.3833
幬	-14.3839
㘅	-14.3839
倅	-14.3842
慴	-14.3842
揠	-14.3842
㒋	-14.3842
逍	-14.3844
●	-14.3845
慥	-14.3846
檣	-14.3846
沴	-14.3846
晶	-14.3848
勖	-14.3849
鸚	-14.3849
懌	-14.3849
耍	-14.3849
呾	-14.3852
壩	-14.3852
恧	-14.3852
塠	-14.3852
轤	-14.3855
徭	-14.3855
揉	-14.3858
㽱	-14.3858
嚝	-14.3858
喿	-14.3861
臾	-14.3863
咼	-14.3864
傭	-14.3864
巒	-14.3864
凹	-14.3864
嘷	-14.3864
屐	-14.3864
咯	-14.3865
抅	-14.3865
庿	-14.3868
捏	-14.3868
嘐	-14.3868
噹	-14.3868
仔	-14.3869
崚	-14.3871
嬪	-14.3871
囓	-14.3871
醍	-14.3871
唆	-14.3871
慠	-14.3871
僦	-14.3874
佘	-14.3874
兕	-14.3874
壙	-14.3874
剽	-14.3874
怏	-14.3874
悤	-14.3874
懜	-14.3874
戄	-14.3874
璃	-14.3877
囫	-14.3877
圇	-14.3877
坼	-14.3877
估	-14.3877
嶼	-14.3877
廨	-14.3877
簽	-14.3877
漓	-14.3879
忮	-14.3879
磣	-14.3879
嫫	-14.388
䀨	-14.388
㬢	-14.388
亹	-14.388
仃	-14.388
卭	-14.388
娓	-14.388
庙	-14.388
B	-14.3883
䗍	-14.3883
俣	-14.3883
咻	-14.3883
圃	-14.3883
圉	-14.3883
弧	-14.3883
怳	-14.3883
憗	-14.3883
㨾	-14.3885
辣	-14.3885
怔	-14.3886
㘕	-14.3887
㪷	-14.3887
䁥	-14.3887
儁	-14.3887
儂	-14.3887
冦	-14.3887
噵	-14.3887
丶	-14.3887
呢	-14.3888
鮒	-14.389
鷺	-14.389
剁	-14.389
壳	-14.389
挖	-14.389
幀	-14.389
怦	-14.3891
霅	-14.3892
怫	-14.3893
凊	-14.3893
庋	-14.3893
䘖	-14.3893
噑	-14.3893
懆	-14.3893
A	-14.3894
乱	-14.3896
寱	-14.3896
咐	-14.3896
悸	-14.3896
嫻	-14.3899
勣	-14.3899
吩	-14.3899
嘵	-14.3899
帷	-14.3899
慞	-14.3902
渤	-14.3902
崕	-14.3902
呶	-14.3902
廖	-14.3902
垾	-14.3904
潯	-14.3904
扃	-14.3905
圬	-14.3905
妷	-14.3905
弣	-14.3909
彆	-14.3909
刲	-14.3912
墊	-14.3912
埜	-14.3912
憨	-14.3912
䘏	-14.3915
厝	-14.3915
帡	-14.3918
咍	-14.3918
圅	-14.3923
姣	-14.3924
庄	-14.3924
墪	-14.3924
跎	-14.393
卛	-14.3931
忩	-14.3931
懟	-14.394
庥	-14.3943
卬	-14.395
媽	-14.395
哇	-14.3975
㗭	-14.3981
懥	-15.3643
懞	-15.3644
恡	-15.3645
忓	-15.3646
恁	-15.3646
幙	-15.3647
嶸	-15.3648
嶮	-15.3649
嶋	-15.365
嵯	-15.3651
孛	-15.3652
媻	-15.3653
娣	-15.3654
姮	-15.3655
夸	-15.3656
塲	-15.3657
埏	-15.3658
垤	-15.3659
囒	-15.366
囌	-15.3661
囅	-15.3662
噠	-15.3663
啒	-15.3664
啐	-15.3665
勔	-15.3666
儷	-15.3667
僑	-15.3668
侄	-15.3669
伉	-15.367
䕺	-15.3671
䅶	-15.3672
𩊭	-15.3673
𤦲	-15.3674
黽	-15.3675
麒	-15.3676
鴽	-15.3677
鰻	-15.3678
髴	-15.3679
髣	-15.368
驂	-15.3681
騶	-15.3682
騏	-15.3683
駙	-15.3684
頲	-15.3685
閘	-15.3686
鍪	-15.3687
鄔	-15.3688
躘	-15.3689
蹹	-15.369
蹠	-15.3691
蹐	-15.3692
蹂	-15.3693
跼	-15.3694
誾	-15.3695
蝴	-15.3696
蝠	-15.3697
蝙	-15.3698
蜃	-15.3699
蚯	-15.37
虬	-15.3701
蘂	-15.3702
薜	-15.3703
萱	-15.3704
荽	-15.3705
舐	-15.3706
繾	-15.3707
綮	-15.3708
綣	-15.3709
篝	-15.371
租	-15.3711
秈	-15.3712
祩	-15.3713
磊	-15.3714
瞪	-15.3715
眶	-15.3716
痼	-15.3717
璵	-15.3718
琸	-15.3719
獼	-15.372
煆	-15.3721
榭	-15.3722
桁	-15.3723
晰	-15.3724
昕	-15.3725
斮	-15.3726
斡	-15.3727
摝	-15.3728
揬	-15.3729
帑	-15.373
宁	-15.3731
囀	-15.3732
嚨	-15.3733
嚟	-15.3734
嘍	-15.3735
俘	-15.3736
亍	-15.3737
䗫	-15.3738
䂎	-15.3739
㷔	-15.374
𨁝	-15.3741
𤱶	-15.3742
𣯶	-15.3743
黌	-15.3744
鐂	-15.3745
鏑	-15.3746
郝	-15.3747
躄	-15.3748
蹰	-15.3749
褰	-15.375
蘗	-15.3751
葆	-15.3752
莞	-15.3753
耡	-15.3754
翡	-15.3755
縹	-15.3756
緲	-15.3757
簋	-15.3758
礵	-15.3759
癯	-15.376
甡	-15.3761
熢	-15.3762
瀘	-15.3763
徜	-15.3764
廝	-15.3765
娉	-15.3766
姝	-15.3767
哽	-15.3768
剴	-15.3769
└	-15.377
┐	-15.3771
┌	-15.3772
-	-15.3773
靉	-15.3774
靆	-15.3775
蹴	-15.3776
觳	-15.3777
觫	-15.3778
蝣	-15.3779
蜋	-15.378
蜉	-15.3781
菟	-15.3782
縲	-15.3783
筴	-15.3784
牝	-15.3785
溽	-15.3786
涔	-15.3787
愀	-15.3788
嵋	-15.3789
喟	-15.379
倆	-15.3791
鵶	-15.3792
顱	-15.3793
邙	-15.3794
逅	-15.3795
踡	-15.3796
襁	-15.3797
蕞	-15.3798
苕	-15.3799
艣	-15.38
胭	-15.3801
糢	-15.3802
窣	-15.3803
琮	-15.3804
猖	-15.3805
爹	-15.3806
朮	-15.3807
暄	-15.3808
掙	-15.3809
扳	-15.381
忪	-15.3811
垛	-15.3812
咷	-15.3813
侖	-15.3814
媵	-15.3814
銑	-15.3815
趲	-15.3816
臊	-15.3817
胮	-15.3818
岌	-15.3819
圞	-15.382
匐	-15.3821
靂	-15.3822
彿	-15.3822
酡	-15.3823
逡	-15.3824
螄	-15.3825
蚣	-15.3826
蚘	-15.3827
苓	-15.3828
砒	-15.3829
矻	-15.383
栩	-15.3831
杼	-15.3832
懡	-15.3833
懘	-15.3834
惒	-15.3835
惉	-15.3836
彬	-15.3837
嬖	-15.3838
嘮	-15.3839
僚	-15.384
倀	-15.3841
㦬	-15.3842
躇	-15.3843
跬	-15.3844
烱	-15.3845
滇	-15.3846
槨	-15.3847
拉	-15.3848
惓	-15.3849
惆	-15.385
𤥭	-15.3851
颼	-15.3852
薝	-15.3853
芭	-15.3854
畋	-15.3855
攖	-15.3856
璖	-15.3857
鏗	-15.3858
螃	-15.3859
琊	-15.386
悵	-15.3861
淤	-15.3862
㘞	-15.3862
儱	-15.3862
痔	-15.3862
砲	-15.3862
顙	-15.3863
憔	-15.3864
𨤲	-15.3865
霎	-15.3866
竮	-15.3867
竛	-15.3868
俐	-15.3869
莂	-15.387
鼷	-15.387
瀟	-15.3871
槵	-15.3872
駸	-15.3873
棱	-15.3874
—	-15.3875
剞	-15.3876
孳	-15.3877
嘹	-15.3878
惚	-15.3878
侗	-15.3879
颶	-15.3879
匇	-15.3879
螻	-15.388
徘	-15.3881
碼	-15.3882
樝	-15.3883
鴝	-15.3884
饉	-15.3885
骷	-15.3886
圄	-15.3887
袾	-15.3887
琥	-15.3888
珀	-15.3889
僥	-15.389
┤	-15.3891
├	-15.3892
胝	-15.3893
呞	-15.3893
玲	-15.3894
朧	-15.3895
囹	-15.3895
睺	-15.3895
袈	-15.3896
嚀	-15.3897
瑚	-15.3898
醐	-15.3899
跏	-15.39
>	-15.3901
─	-15.3902
|	-15.3903
硨	-15.3903
