<unk>	0
<s>	0
</s>	0
之	-3.83544
也	-3.9294
/	-4.1697
以	-4.41412
者	-4.45915
而	-4.52743
)(	-4.63952
則	-4.66692
為	-4.77766
其	-4.90064
)	-4.91847
(	-4.92255
有	-5.05956
不	-5.10856
於	-5.18937
曰	-5.34548
故	-5.36707
謂	-5.46559
與	-5.58312
一	-5.63992
言	-5.66318
此	-5.68884
人	-5.72349
無	-5.73615
是	-5.7896
皆	-5.79645
于	-5.82936
禮	-5.84077
大	-5.87617
云	-5.92441
亦	-5.93483
在	-5.93925
用	-5.99262
上	-6.01293
至	-6.03273
及	-6.03358
所	-6.05142
三	-6.06713
事	-6.104
如	-6.12245
中	-6.13279
自	-6.1394
行	-6.15526
祭	-6.17489
矣	-6.18004
同	-6.18006
又	-6.18017
王	-6.18375
下	-6.18613
反	-6.18744
子	-6.21713
若	-6.24375
君	-6.24833
時	-6.27665
注	-6.3006
服	-6.33299
乃	-6.3527
二	-6.356
非	-6.39218
正	-6.39938
凡	-6.41268
▁	-6.43104
當	-6.45289
出	-6.46961
大夫	-6.4699
士	-6.472
焉	-6.50399
使	-6.52219
爲	-6.52962
明	-6.53103
後	-6.53391
從	-6.54494
主人	-6.55003
主	-6.55056
相	-6.55181
公	-6.55212
猶	-6.55235
見	-6.57114
必	-6.57838
官	-6.58165
四	-6.58457
乎	-6.58696
入	-6.59382
五	-6.61143
今	-6.61733
日	-6.63348
作	-6.63539
文	-6.64415
立	-6.64524
諸侯	-6.64841
命	-6.65319
樂	-6.66446
既	-6.67287
即	-6.67642
音	-6.68059
先	-6.68275
所以	-6.70624
受	-6.70628
得	-6.73005
成	-6.7307
食	-6.73398
地	-6.74552
然	-6.74869
前	-6.75979
民	-6.76724
尊	-6.76986
道	-6.77426
物	-6.7764
國	-6.78813
尸	-6.78868
已	-6.79001
六	-6.80324
賔	-6.80351
長	-6.80995
賓	-6.81585
天	-6.81757
天子	-6.82324
或	-6.82706
雖	-6.84214
取	-6.84439
重	-6.85636
親	-6.86626
設	-6.87748
○	-6.89511
獻	-6.89692
知	-6.89886
名	-6.90339
内	-6.91382
位	-6.91802
合	-6.92057
本	-6.9298
可	-6.92986
未	-6.9307
始	-6.93109
外	-6.93939
右	-6.94491
齊	-6.9537
生	-6.95436
方	-6.96222
疏	-6.96457
東	-6.96563
義	-6.97007
車	-6.97272
朝	-6.9829
拜	-6.99291
書	-6.99818
夫	-7.01434
周	-7.01916
九	-7.02115
掌	-7.02224
謂之	-7.02386
各	-7.02983
制	-7.03218
門	-7.03261
舉	-7.04121
南	-7.04122
臣	-7.04908
執	-7.04994
以為	-7.05205
,	-7.05403
稱	-7.05683
令	-7.06597
次	-7.06829
將	-7.07367
法	-7.07716
西	-7.07916
數	-7.09609
復	-7.09784
分	-7.0999
諸	-7.1083
小	-7.10946
經	-7.11695
喪	-7.11887
治	-7.12592
宜	-7.13147
衣	-7.13386
居	-7.14342
神	-7.15516
之禮	-7.15872
去	-7.16167
升	-7.16187
降	-7.17271
進	-7.17479
水	-7.1782
所謂	-7.19086
父	-7.19236
加	-7.19447
馬	-7.19654
節	-7.20347
氏	-7.20366
兩	-7.2082
案	-7.20834
耳	-7.20911
欲	-7.21026
爵	-7.22073
射	-7.22646
遂	-7.22829
安	-7.23818
通	-7.23858
冠	-7.24745
惟	-7.25392
師	-7.25689
聲	-7.25793
辭	-7.25852
能	-7.26582
廟	-7.27078
祀	-7.27627
徳	-7.27662
字	-7.27678
多	-7.27833
家	-7.27838
之事	-7.27922
等	-7.27998
而已	-7.28741
而不	-7.28867
告	-7.29093
陳	-7.29436
因	-7.30125
實	-7.30461
宫	-7.30489
七	-7.30686
問	-7.31112
左	-7.31731
宗	-7.3187
死	-7.32629
異	-7.32956
和	-7.34288
祝	-7.34625
敬	-7.34793
不可	-7.34909
是也	-7.35354
坐	-7.35424
八	-7.35765
夏	-7.35998
陽	-7.36826
象	-7.37045
北	-7.37174
祖	-7.37424
傳	-7.37555
心	-7.37606
何	-7.37697
田	-7.38214
縣	-7.38756
蓋	-7.38851
致	-7.39252
度	-7.39866
屬	-7.40132
定	-7.40371
酒	-7.40683
女	-7.41039
易	-7.41268
來	-7.4129
平	-7.41891
但	-7.4202
侯	-7.42429
古	-7.425
學	-7.42779
帝	-7.43524
席	-7.43542
常	-7.4415
由	-7.44198
體	-7.44295
初	-7.44296
奠	-7.4479
教	-7.45528
興	-7.46059
母	-7.46311
請	-7.46589
奉	-7.46858
者也	-7.47228
處	-7.47654
引	-7.47945
器	-7.48063
止	-7.49022
婦	-7.49392
月	-7.49505
别	-7.49619
衆	-7.50113
終	-7.50468
土	-7.50875
授	-7.51499
近	-7.52498
薦	-7.5268
玉	-7.53467
直	-7.53543
室	-7.53681
不得	-7.53707
年	-7.54014
共	-7.54074
司	-7.54156
氣	-7.54596
唯	-7.54678
善	-7.5529
布	-7.55354
政	-7.55392
山	-7.55838
卿	-7.56283
殺	-7.56318
記	-7.57224
故云	-7.57997
章	-7.58126
變	-7.587
職	-7.5872
更	-7.58923
並	-7.59
視	-7.59388
備	-7.59699
就	-7.59839
尚	-7.59849
適	-7.5991
㑹	-7.60018
廣	-7.60193
盡	-7.60231
世	-7.60601
元	-7.60836
且	-7.6108
刑	-7.61752
逺	-7.62012
武	-7.62147
應	-7.62286
身	-7.62383
十	-7.62845
卒	-7.63177
容	-7.63251
説	-7.63483
州	-7.63538
志	-7.63913
鄭	-7.64117
餘	-7.64163
牲	-7.6448
介	-7.6468
哭	-7.64714
據	-7.65064
順	-7.65421
鄉	-7.65783
守	-7.66025
還	-7.6641
辟	-7.66426
載	-7.6669
過	-7.66813
序	-7.67041
歸	-7.67825
為之	-7.68101
功	-7.6898
郊	-7.6935
著	-7.69429
固	-7.69666
葬	-7.70115
俎	-7.70154
木	-7.70234
註曰	-7.70297
儀	-7.70588
御	-7.70662
君子	-7.71134
髙	-7.71602
色	-7.71701
者謂	-7.72475
盛	-7.72485
之時	-7.72604
少	-7.72862
不敢	-7.73034
而後	-7.7348
比	-7.735
三年	-7.7376
孝	-7.74226
論	-7.74299
理	-7.74721
者以	-7.74804
具	-7.74886
然後	-7.75751
不言	-7.75763
軍	-7.76339
意	-7.76382
依	-7.76442
封	-7.7678
以下	-7.76816
周禮	-7.76843
兼	-7.76845
燕	-7.77388
以其	-7.77983
彼	-7.78264
期	-7.7885
葢	-7.78891
賜	-7.78948
畢	-7.79242
飲	-7.79272
養	-7.79415
可以	-7.79473
兄弟	-7.79557
特	-7.79923
哀	-7.80048
貴	-7.80091
足	-7.80164
享	-7.80373
首	-7.8047
天下	-7.80514
爾	-7.80527
幣	-7.81248
百	-7.81275
奏	-7.81433
詩	-7.81748
之所	-7.81896
白	-7.81969
春	-7.8212
北面	-7.82466
角	-7.82527
魯	-7.82617
隂	-7.8271
故曰	-7.82875
仁	-7.83155
德	-7.83158
不能	-7.83272
堂	-7.83374
發	-7.83499
兵	-7.84152
▁(	-7.84173
建	-7.84327
金	-7.84631
鼓	-7.84892
間	-7.84905
除	-7.85695
列	-7.86186
伯	-7.86338
亂	-7.86453
說	-7.86529
夫人	-7.86611
置	-7.86637
漢	-7.86776
己	-7.86887
對	-7.87128
疑	-7.87418
星	-7.87679
難	-7.8772
后	-7.88028
交	-7.8813
衰	-7.88434
舞	-7.88493
詔	-7.88784
聞	-7.8913
惡	-7.89239
也云	-7.89252
退	-7.90228
起	-7.90529
禁	-7.91367
考	-7.91415
俱	-7.91424
我	-7.91922
孫	-7.92565
。	-7.92641
火	-7.93317
工	-7.93628
利	-7.9385
婦人	-7.94016
議	-7.94093
春秋	-7.94191
盖	-7.94491
司馬	-7.95162
哉	-7.95664
半	-7.9578
虞	-7.97048
飾	-7.97205
新	-7.97249
疏曰	-7.97307
任	-7.97712
求	-7.9792
釋	-7.98079
社	-7.98306
一人	-7.98522
之後	-7.98631
老	-7.98878
深	-7.98943
改	-7.99134
秋	-7.99164
之屬	-7.99219
辨	-7.99555
情	-8.00076
豆	-8.0015
有司	-8.00317
徹	-8.00609
晉	-8.00782
太	-8.00854
觀	-8.0101
動	-8.01132
典	-8.01259
鄭氏曰	-8.01286
昭	-8.01329
待	-8.01398
疾	-8.01528
史	-8.01564
弓	-8.01627
至於	-8.0182
孔子	-8.02016
之義	-8.02166
代	-8.0224
獨	-8.03261
再	-8.03264
府	-8.03497
承	-8.03597
酌	-8.03627
厚	-8.03753
戒	-8.04011
吉	-8.0415
之法	-8.04179
殷	-8.04252
力	-8.04341
極	-8.04392
饗	-8.0479
父母	-8.04921
歌	-8.05206
客	-8.05567
廢	-8.05592
切	-8.06009
失	-8.06566
輕	-8.06718
注云	-8.06921
報	-8.07048
卿大夫	-8.07205
賢	-8.07328
贊	-8.07384
牛	-8.07497
嵗	-8.07746
手	-8.07936
故也	-8.07963
某	-8.08189
皇	-8.08374
其所	-8.08589
矢	-8.08795
亦如之	-8.08876
鼎	-8.09057
萬	-8.09098
揖	-8.09443
私	-8.09582
風	-8.09609
魚	-8.099
宿	-8.0992
鄭注	-8.10119
卑	-8.10247
達	-8.10301
信	-8.10741
如此	-8.1103
聘	-8.11033
解	-8.11149
質	-8.11174
妻	-8.11499
皮	-8.11654
卜	-8.11907
示	-8.1192
祭祀	-8.12158
陵	-8.12165
類	-8.12849
形	-8.12854
思	-8.12983
弔	-8.13105
存	-8.13917
散	-8.1395
斂	-8.14006
黄	-8.14042
亡	-8.14117
面	-8.14144
帥	-8.14154
也故	-8.14221
乗	-8.14327
要	-8.14374
好	-8.1444
石	-8.14559
帶	-8.14677
城	-8.14889
甚	-8.15015
羽	-8.15119
臨	-8.15147
族	-8.15224
張	-8.15327
襲	-8.15363
每	-8.15428
不同	-8.15491
總	-8.15505
皇帝	-8.15599
繼	-8.15633
扵	-8.16005
左右	-8.16116
/)	-8.16389
舊	-8.16653
讀	-8.16808
似	-8.17435
殯	-8.17438
律	-8.17845
宋	-8.17862
豈	-8.179
里	-8.18714
都	-8.18736
天地	-8.18922
訖	-8.1924
大功	-8.19453
十二	-8.19544
杖	-8.19579
商	-8.19619
免	-8.19739
是以	-8.19829
徒	-8.1992
皆有	-8.19974
均	-8.20212
嘗	-8.20306
指	-8.20471
流	-8.20559
勞	-8.20576
䘮	-8.20649
絶	-8.2075
肉	-8.20967
誠	-8.21087
修	-8.21146
之意	-8.21211
釋曰	-8.21472
吾	-8.21643
純	-8.21708
藏	-8.21858
語	-8.22076
冬	-8.22305
施	-8.22577
東面	-8.22617
端	-8.22746
註	-8.22963
表	-8.23005
上下	-8.23147
旅	-8.23162
卷	-8.23168
圭	-8.23237
殿	-8.23287
主婦	-8.23485
野	-8.23793
聖	-8.23933
庶子	-8.24
迎	-8.2434
并	-8.24422
詳	-8.24852
畫	-8.25017
差	-8.25058
逆	-8.25079
路	-8.25117
配	-8.25201
禘	-8.25713
可知	-8.25947
財	-8.26257
曲	-8.26371
有所	-8.26551
旣	-8.26602
率	-8.27036
羊	-8.27171
之道	-8.27232
宮	-8.27273
唐	-8.27483
者以其	-8.27498
素	-8.2766
衛	-8.27953
造	-8.2836
舍	-8.28924
人之	-8.29088
積	-8.29715
望	-8.29715
美	-8.29857
篇	-8.2997
按	-8.30028
庶	-8.30063
末	-8.30152
莫	-8.30494
音義	-8.30632
龍	-8.30851
貢	-8.30982
聖人	-8.31423
遷	-8.315
壇	-8.31532
言之	-8.31832
旁	-8.32041
斯	-8.32125
清	-8.326
弗	-8.33142
西面	-8.33431
送	-8.33674
之中	-8.33867
全	-8.34221
許	-8.34346
之制	-8.34458
習	-8.34773
羞	-8.34863
益	-8.34986
而無	-8.35031
約	-8.35041
再拜	-8.3523
恐	-8.35363
毋	-8.35544
洗	-8.35769
宣	-8.35844
麻	-8.36242
澤	-8.36256
號	-8.3643
先王	-8.36786
恩	-8.36877
也此	-8.37067
愛	-8.3721
小功	-8.37659
邦	-8.37684
宗廟	-8.37753
𤣥	-8.37883
之服	-8.37953
河	-8.38012
聽	-8.38146
)○	-8.38719
脩	-8.38858
醴	-8.38913
便	-8.38966
崇	-8.3901
役	-8.39245
饌	-8.39458
向	-8.3948
朝服	-8.39528
使者	-8.39553
階	-8.39637
筮	-8.399
統	-8.399
横	-8.40046
省	-8.40279
棺	-8.40551
叔	-8.40561
三月	-8.40704
龜	-8.40943
目	-8.41018
邑	-8.41138
周公	-8.41206
此言	-8.41399
南面	-8.41521
屨	-8.41653
須	-8.41871
化	-8.41875
者皆	-8.41993
覆	-8.42221
然則	-8.4234
口	-8.42491
而言	-8.4278
往	-8.4301
推	-8.43077
祔	-8.43085
将	-8.433
雜	-8.43496
聚	-8.43572
赤	-8.43605
圖	-8.43641
登	-8.43683
助	-8.44035
柩	-8.44153
之言	-8.44163
如初	-8.44446
正義鄭氏康成曰	-8.44774
市	-8.44809
寢	-8.44838
專	-8.44882
孔	-8.4536
罪	-8.4537
隨	-8.45784
管	-8.46039
大夫士	-8.46094
乘	-8.46131
裳	-8.46207
申	-8.46218
闕	-8.46572
尊者	-8.46967
參	-8.46985
簡	-8.47373
之數	-8.47432
納	-8.47922
以上	-8.47979
甲	-8.47997
不以	-8.48176
古者	-8.48421
賦	-8.48434
嚴	-8.48538
敢	-8.48597
采	-8.48744
於此	-8.4875
伐	-8.49146
折	-8.49281
羣	-8.49572
户	-8.49739
勝	-8.49957
側	-8.50198
禄	-8.50355
宰	-8.50451
妾	-8.50637
開	-8.50678
不知	-8.50714
則有	-8.50958
計	-8.51167
侍	-8.51316
靈	-8.51478
必有	-8.51586
他	-8.51958
息	-8.52018
之喪	-8.52074
景	-8.52301
原	-8.52505
監	-8.52594
也若	-8.52776
良	-8.53109
青	-8.53402
無所	-8.53863
仍	-8.53963
弟	-8.54248
式	-8.54423
禮也	-8.54563
姑	-8.54568
稍	-8.54634
遺	-8.54843
楚	-8.5493
巾	-8.55059
征	-8.55112
紀	-8.5512
之間	-8.55216
亦有	-8.55298
孤	-8.55301
衡	-8.55417
斷	-8.55592
四時	-8.55598
句	-8.55841
賤	-8.55866
之類	-8.55875
儀禮	-8.56212
久	-8.56426
酬	-8.56577
牧	-8.5663
門外	-8.56869
故知	-8.56897
獸	-8.56999
又曰	-8.57168
察	-8.5719
量	-8.57215
則不	-8.57254
袒	-8.57341
草	-8.57496
飯	-8.57699
害	-8.57871
齊衰	-8.58145
略	-8.58378
佐	-8.58544
尊卑	-8.58902
毛	-8.58924
諸侯之	-8.59126
歲	-8.5918
誤	-8.59287
夷	-8.5955
也凡	-8.59657
不及	-8.59715
垂	-8.59779
後世	-8.59862
山川	-8.59873
俗	-8.59955
王之	-8.59971
男子	-8.60027
革	-8.60107
頭	-8.60108
男	-8.60438
光	-8.6055
附	-8.60597
几	-8.60601
灋	-8.6102
傷	-8.611
離	-8.61362
詣	-8.61401
三日	-8.61519
吏	-8.6175
梁	-8.62308
農	-8.62725
華	-8.63153
何以	-8.63399
鼔	-8.63513
不用	-8.63903
朱	-8.63993
趨	-8.64166
其餘	-8.64197
秦	-8.64208
材	-8.64425
祼	-8.64462
牢	-8.64537
業	-8.64615
司徒	-8.64699
練	-8.64809
持	-8.64936
辰	-8.65297
乾	-8.65417
不足	-8.65424
五十	-8.65445
屋	-8.65603
結	-8.65626
領	-8.65662
之子	-8.65687
觶	-8.65773
館	-8.65837
墓	-8.65946
二人	-8.66132
强	-8.66212
豕	-8.66236
二十	-8.66254
米	-8.66358
移	-8.6636
慶	-8.66397
冕	-8.66445
夜	-8.66453
接	-8.66464
之位	-8.66501
保	-8.66533
爼	-8.66628
井	-8.66754
君之	-8.66837
者亦	-8.6722
禮樂	-8.67336
邦國	-8.67341
氏曰	-8.67362
屈	-8.6739
班	-8.67548
仲	-8.67904
百官	-8.6798
也言	-8.67986
充	-8.68346
元年	-8.68352
日月	-8.6839
笄	-8.68425
穆	-8.68528
豐	-8.68718
之地	-8.68752
嘉	-8.68864
其事	-8.68864
丘	-8.68966
種	-8.69083
天子之	-8.69235
三十	-8.69256
肆	-8.69426
祠	-8.69666
微	-8.69685
攝	-8.69897
之外	-8.69953
薄	-8.70029
文王	-8.70228
四方	-8.70487
齒	-8.70785
周官	-8.70924
足以	-8.71188
給	-8.71245
訓	-8.71269
使人	-8.71299
於是	-8.71356
子曰	-8.71383
僕	-8.71612
黨	-8.71658
鬼神	-8.71766
天子諸侯	-8.71777
明堂	-8.71904
斬	-8.71942
即位	-8.72048
感	-8.72261
性	-8.72309
輪	-8.72433
圍	-8.72456
徴	-8.72488
萬物	-8.72531
越	-8.72881
鳥	-8.72948
干	-8.73117
邪	-8.73133
擇	-8.7315
委	-8.73199
雨	-8.7322
膳	-8.73363
顯	-8.73369
謹	-8.73418
禮記	-8.73605
繫	-8.73624
俟	-8.73744
房	-8.73971
昏	-8.74066
盟	-8.74122
東西	-8.74307
稷	-8.74875
之文	-8.74984
江	-8.75046
侑	-8.75054
殤	-8.75357
祥	-8.75392
朔	-8.75488
連	-8.755
犯	-8.75504
防	-8.75616
則以	-8.75665
黍	-8.75753
佐食	-8.75801
二年	-8.75949
條	-8.7599
竟	-8.76011
司射	-8.76093
盥	-8.76175
厭	-8.76191
福	-8.76227
宗子	-8.76525
敎	-8.76704
籩	-8.76771
誓	-8.76809
謀	-8.77064
味	-8.77072
出入	-8.77184
諡	-8.77219
千	-8.77263
嫁	-8.77289
會	-8.77477
負	-8.77501
踊	-8.77855
病	-8.77938
醢	-8.78136
被	-8.78239
精	-8.78283
賔客	-8.78324
永	-8.78331
庶人	-8.78662
眀	-8.78913
答	-8.78945
之名	-8.79086
竹	-8.79106
讓	-8.79244
川	-8.79408
恭	-8.79433
世子	-8.79449
之節	-8.79498
兆	-8.79609
最	-8.79795
故以	-8.79811
衣服	-8.79851
立于	-8.79892
喪服	-8.79927
天下之	-8.80112
慎	-8.80129
夕	-8.80501
違	-8.80575
宰夫	-8.80607
又云	-8.80676
肅	-8.8078
獲	-8.80822
(○	-8.80938
權	-8.80998
嫌	-8.81203
束	-8.81294
各有	-8.81332
社稷	-8.81389
細	-8.81459
刻	-8.81539
鍾	-8.81588
之上	-8.81741
孝子	-8.81817
孔疏	-8.81877
公子	-8.82071
帛	-8.821
高	-8.82418
虚	-8.82704
戎	-8.82719
之人	-8.82811
筵	-8.82911
忠	-8.82987
敦	-8.83147
苟	-8.83197
畧	-8.8329
凶	-8.8341
識	-8.83516
擯者	-8.83517
肺	-8.838
羣臣	-8.83906
惠	-8.84218
以待	-8.84293
憂	-8.84353
耕	-8.84447
者案	-8.8451
下文	-8.84524
尺	-8.84686
不可以	-8.847
使之	-8.84725
召	-8.84727
調	-8.84802
尚書	-8.84842
死者	-8.84867
絲	-8.8489
舅	-8.85312
戰	-8.8539
適子	-8.85558
林	-8.85581
璧	-8.85643
少牢	-8.85665
魏	-8.85776
禽	-8.85806
放	-8.85911
小斂	-8.85984
裘	-8.86357
禮之	-8.86468
賈	-8.86506
勸	-8.86598
追	-8.86813
之心	-8.86957
伏	-8.86995
骨	-8.87022
窮	-8.87064
月令	-8.8717
行之	-8.87206
無服	-8.87393
之物	-8.87437
祈	-8.87723
不過	-8.87792
郡	-8.87825
飲食	-8.87829
丁	-8.87836
頒	-8.88252
博	-8.88326
不必	-8.88381
慮	-8.88435
才	-8.88443
為主	-8.88624
閒	-8.88824
鐘	-8.88979
否	-8.89046
男女	-8.89066
祫	-8.89229
恒	-8.89246
孰	-8.89402
擊	-8.89605
假	-8.89704
威	-8.8976
不見	-8.89794
跪	-8.89961
大射	-8.9008
咸	-8.90377
尤	-8.90377
步	-8.90513
塗	-8.90548
殊	-8.90569
卒哭	-8.90763
輿	-8.90764
例	-8.90843
其位	-8.9088
嗣	-8.90901
来	-8.91084
堂上	-8.91217
酢	-8.91266
國之	-8.9143
耦	-8.91466
轉	-8.91502
三公	-8.91538
而下	-8.91584
武王	-8.9159
黍稷	-8.91645
至于	-8.91798
舜	-8.91867
也案	-8.91986
為一	-8.92071
皮弁	-8.92104
之儀	-8.92152
庭	-8.92239
旦	-8.92403
可也	-8.92471
鄭云	-8.92496
絰	-8.92538
其禮	-8.92547
弦	-8.92564
其義	-8.92593
揚	-8.92606
上文	-8.92681
巳	-8.93049
集	-8.93138
兄	-8.93172
賞	-8.93217
緦	-8.93241
輔	-8.93382
敵	-8.93411
審	-8.93431
未有	-8.9344
擯	-8.93467
上介	-8.9348
漸	-8.9374
災	-8.93883
太祖	-8.93885
旌	-8.93895
克	-8.93992
幽	-8.94097
隂陽	-8.94341
之下	-8.94458
用之	-8.94738
占	-8.94751
遇	-8.94909
宗人	-8.94922
黒	-8.94978
留	-8.95152
副	-8.95166
幅	-8.95202
畜	-8.95279
胡	-8.95287
葛	-8.95597
國君	-8.95682
税	-8.95694
姓	-8.96054
斬衰	-8.96144
贈	-8.96151
算	-8.96272
延	-8.9631
祭之	-8.9635
徐	-8.9691
聘禮	-8.96931
皇后	-8.97095
倍	-8.97123
見於	-8.9737
候	-8.97385
鳴	-8.97418
收	-8.97483
海	-8.97882
服之	-8.97888
特牲	-8.98035
寧	-8.98072
夾	-8.98078
貳	-8.98095
徧	-8.98127
歩	-8.98155
友	-8.98296
亦不	-8.98335
内外	-8.98428
鄭鍔曰	-8.98442
孔氏曰	-8.9846
厲	-8.98507
寒	-8.98543
含	-8.98595
言其	-8.98794
縁	-8.98862
則是	-8.9892
欲其	-8.9898
子孫	-8.99141
棄	-8.99165
倫	-8.99277
蕙田案	-8.99352
君臣	-8.997
之前	-8.99781
民之	-8.99962
賛	-8.99975
賈疏	-9.00019
遣	-9.00052
躬	-9.0006
短	-9.0008
衆賔	-9.00113
飲酒	-9.00159
受之	-9.00327
不與	-9.00357
此經	-9.00369
儒	-9.00419
之處	-9.00471
答拜	-9.00474
諱	-9.00585
子男	-9.00809
知其	-9.00821
取其	-9.00843
劉	-9.00876
徃	-9.00905
之内	-9.01063
樹	-9.01101
壺	-9.01139
皆以	-9.01183
罰	-9.01204
責	-9.01235
鬼	-9.01369
人君	-9.01373
又有	-9.01393
注曰	-9.01413
務	-9.01513
也然	-9.01528
讀為	-9.01705
駕	-9.01744
果	-9.01774
補	-9.02061
救	-9.02152
弟子	-9.02166
夫子	-9.02205
不復	-9.02293
悉	-9.02309
急	-9.02479
昭穆	-9.02908
予	-9.02927
寡	-9.02937
七十	-9.02986
禹	-9.03077
李	-9.03711
穀	-9.03746
術	-9.03777
荒	-9.03848
旗	-9.03913
歟	-9.03928
品	-9.04011
營	-9.04203
湯	-9.04285
胥	-9.04311
妃	-9.04348
髙祖	-9.04428
濟	-9.04478
行禮	-9.04539
磬	-9.04556
減	-9.04565
徑	-9.04684
隆	-9.04899
壻	-9.049
空	-9.04904
而有	-9.04936
不為	-9.0494
笙	-9.05098
六十	-9.05115
復位	-9.05117
苦	-9.05136
藉	-9.05157
鄭氏	-9.05253
燕禮	-9.05294
賓客	-9.05346
君命	-9.05473
况	-9.05482
鄭司農云	-9.05607
不在	-9.05615
錯	-9.05625
證	-9.05635
下大夫	-9.05931
其實	-9.06158
之説	-9.06194
毎	-9.06256
東方	-9.0629
上帝	-9.06411
陰	-9.06437
香	-9.06471
出於	-9.06602
之官	-9.06631
腥	-9.06709
大事	-9.06814
䟽	-9.07167
舅姑	-9.07248
反位	-9.07363
從之	-9.07396
天地之	-9.0749
慈	-9.07668
壹	-9.07791
者此	-9.07858
纓	-9.07891
昆弟	-9.08009
校	-9.08233
昌	-9.08248
者言	-9.08261
雖有	-9.08426
而后	-9.08466
貴賤	-9.08518
危	-9.0873
犬	-9.08739
斗	-9.08826
毁	-9.08856
鄭康成曰	-9.08905
衞	-9.09018
虎	-9.09019
戸	-9.09114
決	-9.09156
成人	-9.09203
事也	-9.09364
勿	-9.09494
部	-9.09701
榖	-9.09723
歳	-9.09812
以此	-9.0987
綏	-9.09982
聴	-9.10003
西方	-9.10115
脯	-9.10116
廬	-9.10129
甸	-9.1052
碑	-9.10535
者不	-9.10623
縮	-9.10651
之辭	-9.10797
振	-9.10974
循	-9.11045
是故	-9.11071
於君	-9.11108
限	-9.1131
前後	-9.11387
柔	-9.11408
資	-9.11573
淫	-9.11573
幸	-9.11658
鉶	-9.11796
熟	-9.11914
歴	-9.11943
當為	-9.12091
漆	-9.12105
泰	-9.12369
與其	-9.12501
三分	-9.12655
於外	-9.12689
維	-9.12748
避	-9.12777
篚	-9.12817
敗	-9.12821
偏	-9.12827
同姓	-9.12972
畏	-9.13045
郷	-9.13145
之日	-9.13206
十五	-9.13235
古人	-9.1325
忘	-9.13689
大宗	-9.13712
休	-9.13719
暴	-9.13808
雉	-9.13857
録	-9.14103
版	-9.14262
昔	-9.14453
逹	-9.14578
堅	-9.14696
奪	-9.14754
禰	-9.1482
刺	-9.14832
錫	-9.14886
縫	-9.14913
導	-9.15096
舎	-9.1525
立於	-9.15307
供	-9.15359
亦然	-9.15594
牀	-9.15623
莊	-9.15637
、	-9.15776
小臣	-9.15852
周人	-9.15965
之樂	-9.16016
選	-9.16105
一日	-9.16107
富	-9.16186
摯	-9.16461
幾	-9.16557
辱	-9.16587
速	-9.16695
古之	-9.16806
雞	-9.16866
王氏曰	-9.17078
𦵏	-9.17133
呼	-9.17146
故不	-9.17201
祧	-9.1725
展	-9.17401
在上	-9.17503
堂下	-9.17669
大宰	-9.17709
朋友	-9.17761
寸	-9.17898
述	-9.18003
弁	-9.18089
九月	-9.18096
之義也	-9.18118
王制	-9.18152
卒爵	-9.182
豫	-9.18243
禫	-9.18395
距	-9.18492
敖氏繼公曰	-9.18834
冬至	-9.1888
桓	-9.18931
萬民	-9.18931
之職	-9.18947
貌	-9.18994
此云	-9.19002
蔽	-9.19007
關	-9.19171
再拜稽首	-9.19201
傳曰	-9.19326
上公	-9.19395
温	-9.19493
儐	-9.19592
所用	-9.19684
腊	-9.19748
侯伯	-9.20001
佩	-9.20011
大斂	-9.20032
講	-9.20041
執事	-9.20094
詩云	-9.20293
圜	-9.2032
患	-9.20439
五帝	-9.2048
蒲	-9.205
𫝊	-9.20532
誅	-9.20574
父子	-9.20738
注釋曰	-9.20841
貨	-9.21186
崩	-9.21362
鹽	-9.21448
吉凶	-9.21476
膚	-9.21987
深衣	-9.22205
稽	-9.22233
撫	-9.22365
徵	-9.2238
京	-9.22493
則無	-9.22539
文武	-9.22596
沈	-9.22625
吳	-9.22692
太子	-9.22724
血	-9.22729
滅	-9.22951
衍	-9.22966
亦以	-9.22994
罷	-9.23013
東南	-9.23023
五年	-9.23061
曲禮	-9.23232
以禮	-9.23251
扶	-9.23316
夫婦	-9.23366
孟子	-9.23383
教之	-9.23422
饋	-9.23441
潔	-9.23452
受命	-9.23501
専	-9.23586
成王	-9.23716
主於	-9.23786
辯	-9.2387
攻	-9.23915
仕	-9.23916
國中	-9.24007
孔子曰	-9.2408
古文	-9.24081
而為	-9.24141
吕	-9.24194
試	-9.24208
世婦	-9.2422
攷	-9.24221
十一	-9.24226
康	-9.24281
絃	-9.243
季	-9.24321
簋	-9.24382
升堂	-9.24417
衽	-9.24491
雲	-9.24506
餕	-9.24759
異於	-9.24916
之氣	-9.25098
之等	-9.25162
五月	-9.25221
朱子	-9.25328
環	-9.25419
編	-9.2546
道也	-9.25463
幼	-9.25531
未嘗	-9.2554
匹	-9.25659
包	-9.25727
故謂之	-9.25767
也今	-9.25768
啓	-9.25784
正月	-9.25896
籍	-9.25946
綴	-9.25968
貫	-9.26014
屏	-9.26039
中央	-9.26096
丈	-9.26144
倉	-9.26146
赴	-9.26236
弊	-9.26287
桑	-9.26346
宅	-9.26532
運	-9.26563
背	-9.26643
憲	-9.26691
格	-9.26724
繩	-9.26773
十有二	-9.26959
拜送	-9.27107
獄	-9.27216
寛	-9.27225
及其	-9.2753
左傳	-9.27542
九十	-9.27713
軍旅	-9.27734
稅	-9.27784
贊者	-9.27898
㫖	-9.2793
親之	-9.28114
有事	-9.28193
入門	-9.28222
匕	-9.28239
啟	-9.2825
十六	-9.28293
先王之	-9.28365
臺	-9.2845
韋	-9.28458
戴	-9.28486
闗	-9.28522
叙	-9.28646
欽定四庫全書	-9.28834
孟	-9.28857
籩豆	-9.28921
命之	-9.29097
卦	-9.29145
已下	-9.29614
邊	-9.29731
鄉射	-9.2978
四人	-9.29822
則知	-9.29856
矣故	-9.29948
也夫	-9.29954
寳	-9.29968
爭	-9.29994
司正	-9.30063
而行	-9.30086
以爲	-9.30127
四年	-9.30183
髽	-9.30358
何也	-9.30379
界	-9.30383
司空	-9.30407
燭	-9.3041
掩	-9.30469
竒	-9.30469
雍	-9.30511
徽	-9.30517
主君	-9.30538
築	-9.30602
莫不	-9.3062
帷	-9.30686
南北	-9.30793
秩	-9.31328
而出	-9.31379
大師	-9.31416
見其	-9.31437
之南	-9.31521
於人	-9.31558
諫	-9.31837
四寸	-9.31925
勤	-9.32186
趙	-9.32189
弱	-9.32218
之道也	-9.32239
鎮	-9.32267
履	-9.3227
周之	-9.32407
堯	-9.32457
百姓	-9.32538
下士	-9.32637
醮	-9.32669
在下	-9.32831
塞	-9.32883
為上	-9.32891
長子	-9.32963
淮	-9.32985
四十	-9.32989
其親	-9.32994
去聲	-9.33049
之祭	-9.33078
旬	-9.33088
十二月	-9.33429
衆賓	-9.33556
繅	-9.33629
幹	-9.33684
學者	-9.33736
明矣	-9.33748
也又	-9.33862
輕重	-9.33878
三耦	-9.33928
傅	-9.33928
西階	-9.3396
析	-9.33972
釁	-9.34032
煩	-9.34096
烝	-9.34446
父之	-9.34572
贄	-9.34624
愚	-9.34672
之西	-9.34714
顧	-9.3472
巫	-9.34752
黄鍾	-9.34811
菹	-9.34913
若有	-9.3493
之說	-9.35015
可知也	-9.35045
冝	-9.35196
厥	-9.35331
鬯	-9.35335
奔	-9.35453
此謂	-9.3552
露	-9.35521
至此	-9.35566
受爵	-9.358
為君	-9.35823
優	-9.3584
束帛	-9.35841
隱	-9.35941
宴	-9.35981
不當	-9.36021
其身	-9.3605
王者	-9.36127
牆	-9.36143
而立	-9.36248
異姓	-9.36396
𤣥端	-9.36469
大宗伯	-9.365
頌	-9.36512
削	-9.36518
溝	-9.36567
一曰	-9.36647
人情	-9.36975
丹	-9.37029
組	-9.37226
粟	-9.37239
藝	-9.37256
纁	-9.37378
互	-9.37451
襄	-9.37623
鹿	-9.37722
祖廟	-9.37743
蠶	-9.37803
所以為	-9.37921
綱	-9.38025
肩	-9.38225
祭服	-9.38258
之臣	-9.38347
榮	-9.38409
旅酬	-9.38586
彌	-9.38689
亦當	-9.38699
慢	-9.38778
朝廷	-9.38807
司士	-9.38827
竊	-9.38971
太廟	-9.38981
抑	-9.39021
怨	-9.39023
▁疏	-9.39036
游	-9.39069
之士	-9.39081
尋	-9.39137
千里	-9.392
記曰	-9.39352
阼階	-9.39397
之使	-9.39428
蜡	-9.39429
之神	-9.39429
裼	-9.39494
肝	-9.39496
單	-9.39559
㣲	-9.39585
規	-9.39693
翟	-9.39756
養老	-9.39799
士喪禮	-9.39863
増	-9.39883
緦麻	-9.40003
賀	-9.40014
索	-9.4003
左氏傳	-9.40165
椁	-9.40191
戚	-9.40217
賢者	-9.40273
滿	-9.40318
之灋	-9.40436
西南	-9.4058
先生	-9.40688
楹	-9.40707
醫	-9.40813
歛	-9.40867
瑞	-9.4087
有三	-9.40912
夀	-9.40965
銘	-9.40984
八十	-9.40999
黼	-9.41019
陸	-9.41052
惑	-9.41063
禮者	-9.41199
柄	-9.4121
割	-9.41358
預	-9.41599
雷	-9.41606
其君	-9.41632
鄭注云	-9.41711
故言	-9.41884
甫	-9.41896
第	-9.41915
貞	-9.41983
於廟	-9.42156
之禮也	-9.42159
后稷	-9.42215
遵	-9.42287
大學	-9.42336
禍	-9.42407
;	-9.42431
二月	-9.42456
閭	-9.42469
泉	-9.42811
不拜	-9.42813
必以	-9.42854
舒	-9.42924
倚	-9.42973
庸	-9.43023
謝	-9.43028
𤼵	-9.43032
於禮	-9.43138
爵弁	-9.43253
或曰	-9.43259
之事也	-9.43519
取之	-9.43532
耶	-9.43556
貧	-9.4369
各以其	-9.43782
者必	-9.43799
有二	-9.43836
〇	-9.43873
不入	-9.43913
有功	-9.43965
非也	-9.43969
祿	-9.4403
又以	-9.44057
大小	-9.44074
早	-9.44177
大喪	-9.44264
侵	-9.44281
朝夕	-9.44393
行事	-9.4443
得其	-9.44433
黑	-9.44473
之理	-9.44482
宗伯	-9.44672
治之	-9.44734
馭	-9.44855
瓦	-9.44893
設于	-9.44971
之實	-9.45131
敖氏曰	-9.45161
始死	-9.45288
兮	-9.45319
韓	-9.45364
以告	-9.45381
之廟	-9.45428
也然則	-9.45434
雅	-9.45471
境	-9.4549
菜	-9.45593
朱子曰	-9.4567
薨	-9.45709
制度	-9.45729
羮	-9.45798
鴈	-9.45862
逸	-9.45881
損	-9.46026
百里	-9.46133
國家	-9.46185
尹	-9.46186
拾	-9.46223
以時	-9.46235
弓矢	-9.46282
糾	-9.46286
先後	-9.46366
譏	-9.46372
西北	-9.46378
娶	-9.46609
錢	-9.46701
七月	-9.47077
勇	-9.47226
皆是	-9.47246
冢宰	-9.47298
相見	-9.47346
禱	-9.47539
偽	-9.47578
有常	-9.47608
訟	-9.47662
剛	-9.47665
夢	-9.47797
次之	-9.47869
午	-9.47869
灌	-9.47885
一也	-9.47914
乏	-9.47953
道路	-9.48038
浴	-9.48101
以授	-9.48171
共其	-9.48203
門内	-9.48227
脱	-9.48228
亨	-9.48305
於天子	-9.48338
鵠	-9.48434
於其	-9.48489
北上	-9.48501
恤	-9.48516
㑹同	-9.48592
饗食	-9.48594
三獻	-9.48731
翼	-9.48913
醬	-9.48945
費	-9.48974
圜丘	-9.48983
東上	-9.48997
真	-9.48998
其數	-9.49013
𨽻	-9.49273
蕃	-9.49282
染	-9.49285
仰	-9.49394
従	-9.49435
不相	-9.49539
在西	-9.49563
以象	-9.49619
敝	-9.49677
羔	-9.49705
未聞	-9.49752
喜	-9.49828
如字	-9.4988
縱	-9.49926
轂	-9.49943
所云	-9.50033
敬也	-9.50105
支	-9.50128
觚	-9.50261
饋食	-9.5028
罍	-9.50354
尊也	-9.50718
只	-9.50753
對曰	-9.50777
不從	-9.50955
鑿	-9.51021
隠	-9.51044
無不	-9.51148
繁	-9.51293
不然	-9.51434
赦	-9.51505
䙝	-9.51506
詩曰	-9.51515
六年	-9.51674
三人	-9.51722
黄帝	-9.51754
勉	-9.51774
則曰	-9.51784
汝	-9.51848
淳	-9.5185
燔	-9.51891
十月	-9.51957
者若	-9.52012
茅	-9.52198
乆	-9.52206
撰	-9.52223
圓	-9.52255
緇	-9.52313
其後	-9.52313
此則	-9.52405
釋曰云	-9.52405
之情	-9.52484
弧	-9.5249
執事者	-9.52546
五祀	-9.52578
牽	-9.52723
絞	-9.52743
不祭	-9.52776
丞	-9.52829
五寸	-9.52896
緯	-9.53006
小宗	-9.53033
璋	-9.53115
植	-9.53122
於上	-9.53162
其中	-9.53187
之妻	-9.53261
以見	-9.53296
雜記	-9.5334
願	-9.53359
協	-9.53412
若然	-9.53487
牙	-9.53597
不足以	-9.53647
東北	-9.53667
隋	-9.53676
稻	-9.53749
勺	-9.53787
之東	-9.53908
徙	-9.53964
懐	-9.5398
明日	-9.54001
之長	-9.54008
多少	-9.54021
遭	-9.54037
十一月	-9.54052
遠	-9.54069
況	-9.54334
檀弓	-9.54344
曹	-9.54399
巡	-9.54431
人所	-9.54472
賵	-9.54487
怒	-9.54652
齋	-9.54718
蔡	-9.54794
幕	-9.54813
其子	-9.54904
不降	-9.5492
盈	-9.54946
無事	-9.55004
尾	-9.55033
必先	-9.55198
蟲	-9.55225
經云	-9.55261
小人	-9.55281
麗	-9.55348
妄	-9.55412
畿	-9.55425
遊	-9.55795
拜受	-9.55923
豚	-9.55998
謙	-9.56056
都鄙	-9.56081
坎	-9.56166
可知矣	-9.5622
冠者	-9.56228
長者	-9.56293
疏云	-9.5643
不親	-9.56475
升自西階	-9.56503
苴	-9.56645
而祭	-9.56691
可謂	-9.5673
旱	-9.56732
人掌	-9.56818
不忍	-9.5687
食之	-9.56961
緩	-9.57038
樂之	-9.57091
其服	-9.57119
有餘	-9.57131
獲者	-9.57251
祭天	-9.57256
小宰	-9.57312
不合	-9.57352
以來	-9.57364
致命	-9.57378
亦是	-9.57432
見之	-9.57517
所掌	-9.5753
在外	-9.5757
非禮	-9.57579
鄉大夫	-9.5762
記云	-9.57638
雩	-9.57864
三等	-9.57877
郎	-9.58121
所生	-9.58212
室中	-9.58269
士之	-9.58286
異也	-9.58294
中庸	-9.58331
祭酒	-9.58373
則其	-9.58375
狀	-9.58388
牖	-9.58434
今文	-9.58457
掌其	-9.58478
符	-9.5854
喪禮	-9.58576
池	-9.58582
畝	-9.58591
寶	-9.58646
旒	-9.58708
鄙	-9.58844
長短	-9.58984
吉祭	-9.59113
杜	-9.59192
姦	-9.5924
為正	-9.59264
淺	-9.59321
者非	-9.59398
南方	-9.59486
大夫之	-9.59497
上士	-9.59546
大國	-9.59602
也孔氏曰	-9.59709
然也	-9.59777
其地	-9.59799
授之	-9.59852
既葬	-9.59881
喻	-9.59917
閉	-9.60127
籥	-9.60248
墨	-9.60323
賈氏曰	-9.60487
䇿	-9.60513
畿内	-9.60553
祭器	-9.60571
皆在	-9.60598
契	-9.606
提	-9.60612
先儒	-9.60626
禮畢	-9.60631
狄	-9.60661
禦	-9.60697
事之	-9.60766
嚴陵方氏曰	-9.60815
為大	-9.60852
二曰	-9.60906
也音義	-9.60906
域	-9.60957
爲之	-9.60962
宫中	-9.60962
皆用	-9.61014
藻	-9.61094
輅	-9.61216
三代	-9.61237
門之外	-9.61272
覲	-9.61293
曰某	-9.61319
愈	-9.6139
踰	-9.61436
飱	-9.61448
眡	-9.61509
遲	-9.61523
威儀	-9.61554
天官	-9.61572
八月	-9.61594
樂正	-9.61596
十三	-9.61618
所言	-9.61619
没	-9.61711
沒	-9.61726
瀆	-9.61744
此亦	-9.61818
袂	-9.61847
皇太子	-9.61911
測	-9.6196
致其	-9.6196
公卿	-9.62012
考之	-9.62048
忌	-9.62069
三年之喪	-9.62096
在室	-9.62107
路寢	-9.62158
國子	-9.62281
敖	-9.62445
媵	-9.62462
栗	-9.62485
僭	-9.62539
樂作	-9.62603
上大夫	-9.62672
厯	-9.62754
書曰	-9.62938
時也	-9.63052
殽	-9.6306
亦如	-9.6313
冊	-9.63164
而成	-9.63189
牲體	-9.63216
彛	-9.63243
以後	-9.63258
瑟	-9.63409
擬	-9.63566
賔主	-9.63604
注疏	-9.6361
辨其	-9.63638
從者	-9.63662
效	-9.63756
个	-9.6383
不出	-9.63901
昬	-9.63915
續	-9.64052
陛下	-9.64056
以示	-9.64077
不勝	-9.64105
坫	-9.64105
范	-9.64183
乙	-9.64203
較	-9.64221
或以	-9.64233
臭	-9.64266
射人	-9.64435
五人	-9.64528
大史	-9.64605
懼	-9.64648
衮	-9.647
天之	-9.64906
在此	-9.64953
三者	-9.6507
注釋曰云	-9.653
為母	-9.65301
大祥	-9.65304
下同	-9.65328
荅拜	-9.65386
儉	-9.65387
不舉	-9.65491
怠	-9.65558
累	-9.65619
併	-9.65663
不云	-9.65681
勢	-9.6569
涖	-9.65701
註云	-9.65732
之親	-9.65769
雖不	-9.65851
襚	-9.65853
以次	-9.65855
集説曰	-9.65941
源	-9.65948
亦曰	-9.65983
之月	-9.65994
辛	-9.66039
南向	-9.66082
王命	-9.66151
法也	-9.66157
者蓋	-9.66164
父在	-9.66168
疆	-9.66221
鮮	-9.66222
在東	-9.66229
於内	-9.66298
破	-9.66413
其文	-9.66522
七年	-9.66543
去其	-9.66588
討	-9.66593
經文	-9.66632
大臣	-9.66644
其名	-9.66666
拘	-9.66712
盤	-9.66759
財用	-9.66805
麥	-9.66833
行也	-9.66878
五采	-9.66888
四尺	-9.6689
女子	-9.67012
一尺	-9.67167
奥	-9.67202
進退	-9.67252
推之	-9.67258
甘	-9.67297
座	-9.6758
其國	-9.67604
旋	-9.67638
曽	-9.67648
因其	-9.67676
讀如	-9.67822
當時	-9.67948
者所以	-9.67963
僖	-9.68104
五行	-9.68122
洛	-9.68165
三曰	-9.68256
昏禮	-9.68291
皆同	-9.68419
三寸	-9.68492
之用	-9.68578
卑者	-9.68583
大饗	-9.68645
王昭禹曰	-9.68653
物也	-9.68669
正義曰	-9.68686
羣吏	-9.68705
詞	-9.68738
各一	-9.68792
智	-9.68812
親親	-9.68813
皆如	-9.68859
同也	-9.68876
五日	-9.6892
王后	-9.69118
鄉遂	-9.69135
烏	-9.69187
而入	-9.692
準	-9.69372
神主	-9.69396
偶	-9.69527
逐	-9.69624
陳之	-9.69781
服也	-9.698
内則	-9.69801
播	-9.69813
士大夫	-9.69913
員	-9.69935
冢	-9.69939
竝	-9.69979
侯氏	-9.69989
不易	-9.70004
以至	-9.70098
伍	-9.70154
裁	-9.70248
卿大夫士	-9.70281
旂	-9.70335
設之	-9.70426
粥	-9.70428
喪紀	-9.70491
吹	-9.7054
冒	-9.70585
子弟	-9.70652
強	-9.70828
五分	-9.71026
瞽	-9.71031
奠于	-9.71142
別	-9.71158
庶羞	-9.71293
之國	-9.71296
奄	-9.71357
竭	-9.71383
名也	-9.71462
或作	-9.71515
亦謂	-9.71525
隅	-9.71611
童子	-9.71655
念	-9.71727
右手	-9.71766
遽	-9.71874
歡	-9.71949
挾	-9.71984
繹	-9.72044
亦無	-9.7207
草木	-9.72089
噐	-9.72108
裏	-9.72142
十四	-9.72143
不失	-9.72144
宫室	-9.72188
之北	-9.72191
縷	-9.72211
六月	-9.7223
或為	-9.72235
道之	-9.7224
奚	-9.72249
楊	-9.72265
忽	-9.72324
成服	-9.72325
此皆	-9.72388
采地	-9.72546
脅	-9.72568
不忘	-9.72583
止於	-9.72594
田獵	-9.72696
今之	-9.72721
在前	-9.72762
方氏曰	-9.7277
夏后氏	-9.72774
助祭	-9.7283
北方	-9.72842
四方之	-9.72864
陶	-9.7288
静	-9.72985
於堂	-9.73018
焚	-9.73039
拂	-9.73079
蒼	-9.73127
族人	-9.73129
至尊	-9.73303
寝	-9.7339
為節	-9.73432
姑姊妹	-9.73449
巧	-9.73449
三百	-9.73494
戮	-9.73589
狹	-9.73606
鄉飲酒	-9.73749
下云	-9.73995
懸	-9.7407
緫	-9.74119
冰	-9.74196
之功	-9.74251
宗本紀	-9.74368
如是	-9.74396
物之	-9.74476
東向	-9.74498
壙	-9.74532
玄	-9.74641
義也	-9.74877
則民	-9.74917
踐	-9.75065
恥	-9.75194
震	-9.75235
而為之	-9.7524
黃	-9.75254
其制	-9.7534
之所以	-9.75409
主人之	-9.75506
作樂	-9.75583
殷人	-9.75597
伸	-9.75631
以樂	-9.75776
脊	-9.75781
小祥	-9.75852
穿	-9.75863
以治	-9.75934
是月也	-9.76016
諸臣	-9.76049
記者	-9.76092
曽子	-9.76095
所當	-9.76103
玉藻	-9.76106
始祖	-9.76145
神之	-9.76154
告于	-9.76209
芻	-9.76268
子之	-9.76378
稼	-9.76379
餼	-9.76399
第二	-9.76452
西上	-9.76491
八人	-9.76499
舌	-9.76669
九年	-9.76672
於下	-9.76692
養之	-9.76774
樂止	-9.76776
蒙	-9.76816
其本	-9.76859
墳	-9.76934
事而	-9.76935
缺	-9.76973
之徳	-9.76976
兹	-9.77006
楅	-9.77085
自然	-9.77174
衾	-9.77177
於王	-9.77319
南上	-9.7733
弛	-9.77343
其上	-9.77357
誦	-9.77383
臂	-9.77414
學士	-9.7748
人心	-9.77606
東序	-9.77663
八年	-9.77698
祊	-9.77726
其聲	-9.77763
陪	-9.77774
阼	-9.77884
之末	-9.77896
幂	-9.77925
貨賄	-9.77932
錦	-9.77946
命婦	-9.77947
官府	-9.78079
是為	-9.78115
朝覲	-9.78134
逺近	-9.78208
大祭祀	-9.78216
不服	-9.78251
諭	-9.78268
大司徒	-9.78341
魚腊	-9.78358
在左	-9.78434
三尺	-9.78477
繡	-9.78477
葉	-9.7858
軌	-9.78611
曉	-9.78676
已上	-9.78694
以前	-9.78751
爾雅	-9.78817
柱	-9.78869
焉故	-9.78943
成也	-9.78949
神明	-9.79005
𤣥謂	-9.79029
諸公	-9.79171
燎	-9.79192
稽首	-9.79288
粱	-9.79288
祗	-9.79298
五服	-9.79305
走	-9.79357
天神	-9.79403
職云	-9.79423
招	-9.79442
荆	-9.79466
照	-9.79511
侍中	-9.79552
緌	-9.79563
庠	-9.79571
郊特牲	-9.79601
而又	-9.79622
斧	-9.79658
膏	-9.79696
埽	-9.79727
東房	-9.79728
翣	-9.79732
大牢	-9.79747
反又	-9.79861
育	-9.79886
竈	-9.79916
髪	-9.80036
之際	-9.80062
此禮	-9.80068
傳云	-9.80128
荅	-9.80194
陽氣	-9.80223
貝	-9.80243
沐	-9.8027
廟門	-9.80291
失其	-9.80324
程	-9.80329
園	-9.80359
當作	-9.80436
賊	-9.80457
左氏	-9.80466
若今	-9.80488
州長	-9.80585
刀	-9.80647
大祝	-9.80711
或有	-9.80771
判	-9.8078
之民	-9.80793
二者	-9.80805
亞獻	-9.80843
朕	-9.81158
釐	-9.8122
寓	-9.81249
蕭	-9.81272
冠禮	-9.81287
之政	-9.81312
卜筮	-9.81327
其人	-9.8139
降一等	-9.81396
刃	-9.81672
根	-9.81707
喪祭	-9.81739
其民	-9.81759
北向	-9.81769
五聲	-9.81783
將命	-9.81957
四月	-9.81992
生者	-9.82032
之大	-9.82099
科	-9.8213
不盡	-9.82138
亦可	-9.82167
獄訟	-9.82233
烈	-9.82243
其心	-9.82274
馮	-9.82287
其意	-9.82377
禾	-9.82381
又案	-9.82513
未必	-9.8255
嘏	-9.82689
孔氏穎達曰	-9.82758
脯醢	-9.82763
矣然	-9.82812
院	-9.82836
如此則	-9.82851
侈	-9.82856
鉤	-9.82866
四海	-9.8295
觧	-9.8297
非禮也	-9.83042
緣	-9.83157
施於	-9.83167
投	-9.83167
御史	-9.83203
國有	-9.8327
拜受爵	-9.83348
允	-9.83406
天道	-9.83447
二十四	-9.83452
繼公謂	-9.83461
后土	-9.83537
岳	-9.83581
俯	-9.83681
祭祀之	-9.83684
魄	-9.83712
藥	-9.8372
不變	-9.83773
灰	-9.83773
操	-9.83796
執之	-9.83978
王宫	-9.83998
抱	-9.84018
衣裳	-9.8402
回	-9.84027
祖禰	-9.84043
世佐案	-9.84071
太宰	-9.84074
是其	-9.84134
𤣥酒	-9.84157
矩	-9.84181
哀公	-9.84199
詳見	-9.84206
一寸	-9.84273
正也	-9.84306
八寸	-9.84319
者是	-9.84334
股	-9.8435
於民	-9.84525
貪	-9.84548
祖宗	-9.84575
酳	-9.84608
于門外	-9.84618
注謂	-9.84732
奠爵	-9.84845
整	-9.849
禹貢	-9.84901
位也	-9.84917
射者	-9.84924
於朝	-9.84929
親迎	-9.8497
蜃	-9.85027
飛	-9.85034
之别	-9.8504
迹	-9.85059
太宗	-9.85273
亥	-9.85295
先祖	-9.85394
庫	-9.85399
貶	-9.85409
援	-9.85427
淵	-9.85427
輈	-9.85537
霤	-9.85549
坊	-9.85673
沃	-9.85701
則此	-9.8575
姊妹	-9.858
春秋傳曰	-9.85829
大夫以上	-9.8583
外朝	-9.85834
其他	-9.8584
冕服	-9.85953
髮	-9.85977
而言之	-9.85983
斿	-9.85985
獵	-9.86019
十八	-9.86157
不如	-9.86167
窆	-9.8618
太史	-9.86196
筋	-9.86325
基	-9.86364
宻	-9.86365
者即	-9.86367
以致	-9.86437
决	-9.86437
脫	-9.86454
禮義	-9.86508
萊	-9.86522
夏官	-9.86588
而云	-9.86614
大司樂	-9.86734
獻尸	-9.86781
陛	-9.86787
痛	-9.86825
靡	-9.86846
以事	-9.86894
一命	-9.86954
此時	-9.86968
閣	-9.87026
之序	-9.87313
中士	-9.87318
戈	-9.87333
通論	-9.87337
其次	-9.87385
閏	-9.87396
懿	-9.87404
掌之	-9.87409
親者	-9.87415
篤	-9.87473
其職	-9.87475
之右	-9.87477
豆籩	-9.87578
集説	-9.87582
爨	-9.87595
曽祖	-9.87618
肥	-9.87714
子游	-9.87751
之政令	-9.87809
十年	-9.8781
四時之	-9.87899
小國	-9.87929
其情	-9.87967
諸矦	-9.87989
呂	-9.88043
秉	-9.8807
暑	-9.88153
禽獸	-9.88159
二寸	-9.88166
名曰	-9.88223
之命	-9.88258
致之	-9.88261
西向	-9.88284
生於	-9.88296
庚	-9.88388
嚮	-9.88517
子思	-9.88555
祭法	-9.88594
羅	-9.88619
却	-9.88625
栁	-9.88642
湆	-9.88652
大行人	-9.88657
浮	-9.88664
不食	-9.88671
四郊	-9.88675
1	-9.88707
困	-9.88708
勅	-9.88728
設於	-9.88731
地官	-9.88743
二十五	-9.88812
若是	-9.88849
土地	-9.88903
棘	-9.88966
謁	-9.8897
賓主	-9.88978
纚	-9.88983
秀	-9.88985
大司馬	-9.88993
長幼	-9.88994
稽顙	-9.89052
其間	-9.8909
禮有	-9.89116
慕	-9.89221
之餘	-9.89258
之正	-9.89274
在内	-9.89295
飾也	-9.89371
凡祭祀	-9.89373
怪	-9.89396
則亦	-9.89439
士冠禮	-9.89486
祀天	-9.89518
變於	-9.89528
也既	-9.89547
人為	-9.89859
𤣥冠	-9.89913
不使	-9.9
是謂	-9.9
珍	-9.90067
蕙田案以上	-9.901
之本	-9.90121
祀之	-9.90168
饔	-9.90179
亦云	-9.90204
靜	-9.90213
釋奠	-9.90222
麤	-9.90267
貴者	-9.90366
公羊	-9.90377
無常	-9.90379
其屬	-9.90398
此篇	-9.9041
鐸	-9.90411
七寸	-9.90414
而不可	-9.90473
埋	-9.90474
不至	-9.90487
十七	-9.90527
祖考	-9.90579
君也	-9.90668
不敢以	-9.90695
康成	-9.90723
中庭	-9.90755
公卿大夫	-9.90838
於天	-9.90842
升降	-9.90875
繒	-9.90884
三命	-9.90887
板	-9.90889
畔	-9.90926
外内	-9.90958
而致	-9.90978
札	-9.91044
九寸	-9.91075
士禮	-9.91101
而民	-9.91196
宇	-9.91211
顔	-9.91212
以成	-9.91298
非常	-9.9132
握	-9.91362
舟	-9.91362
晉侯	-9.91385
項	-9.91438
百物	-9.91449
之次	-9.91534
十九	-9.91556
以下皆	-9.91569
而弗	-9.91572
西階上	-9.91577
祖父母	-9.91597
沙	-9.91618
也天子	-9.91619
覲禮	-9.91655
其辭	-9.91692
君子之	-9.91713
代之	-9.9172
郊祀	-9.91807
此所以	-9.91813
桃	-9.91821
子夏	-9.91888
正祭	-9.91993
乖	-9.92013
他國	-9.92046
冪	-9.92047
不欲	-9.92134
觀之	-9.92198
其妻	-9.92204
春官	-9.92211
六卿	-9.92225
賻	-9.92248
女君	-9.92263
太常	-9.9232
誰	-9.92353
瘞	-9.92451
史二人	-9.92451
其志	-9.92481
之家	-9.9266
其説	-9.92693
劉氏曰	-9.92725
寜	-9.92731
日在	-9.92762
治其	-9.9283
驗	-9.92847
題	-9.92878
四曰	-9.92881
嶽	-9.9289
考工記	-9.92922
祭也	-9.93039
氷	-9.93043
壁	-9.93071
相對	-9.93136
姑洗	-9.93155
皆為	-9.93248
汁	-9.93404
亦用	-9.93428
之䘮	-9.93471
於地	-9.93579
策	-9.93667
有四	-9.93718
之器	-9.93862
長兄弟	-9.94001
吉禮	-9.94003
位於	-9.94015
第三	-9.94218
底	-9.94229
而退	-9.94275
云凡	-9.9433
沐浴	-9.94389
聞之	-9.94399
輻	-9.94408
吾子	-9.94479
陳氏	-9.94501
六寸	-9.94538
産	-9.94612
以正	-9.94613
聖人之	-9.94658
殺之	-9.94685
係	-9.94695
孔氏	-9.94713
素服	-9.94718
紐	-9.94768
櫛	-9.94793
也蓋	-9.94794
亞	-9.94857
筭	-9.94865
下殤	-9.94872
者明	-9.94979
險	-9.95
韠	-9.95074
猶有	-9.95078
少退	-9.95243
檢	-9.95275
不待	-9.95288
失之	-9.95299
而止	-9.95363
文公	-9.95417
敘	-9.9543
不杖	-9.95432
藏之	-9.9552
閑	-9.95533
諸子	-9.9556
郤	-9.95566
知之	-9.95634
不敬	-9.95654
仁義	-9.95675
曾祖	-9.95699
是時	-9.9571
擾	-9.95724
渠	-9.95771
告於	-9.95772
齎	-9.95812
丈夫	-9.95818
逮	-9.95826
為大夫	-9.95857
争	-9.95883
熊	-9.95913
在南	-9.95945
女子子	-9.96027
酉	-9.96028
邦國之	-9.96063
筐	-9.96068
繢	-9.9608
敖氏	-9.96122
二尺	-9.96131
博士	-9.96147
重者	-9.96163
乞	-9.96267
廉	-9.96309
罔	-9.96386
如今	-9.96499
桓公	-9.96547
喪事	-9.96587
故鄭	-9.96678
多寡	-9.96688
奔喪	-9.96731
兄弟之	-9.96735
禮儀	-9.96737
六人	-9.96789
不行	-9.96843
礼	-9.96936
車馬	-9.96954
驅	-9.96965
入于	-9.97039
宗婦	-9.97051
舄	-9.97062
一百	-9.97133
柴	-9.97149
其一	-9.97359
蕩	-9.97488
在後	-9.97491
弁絰	-9.97522
六官	-9.97627
之意也	-9.9763
姪	-9.97648
此文	-9.97689
無文	-9.97704
一分	-9.97741
悖	-9.97751
蚤	-9.97806
一等	-9.97893
武帝	-9.97936
祖父	-9.98105
故有	-9.98121
湇	-9.98126
父兄	-9.98148
之色	-9.98148
不應	-9.98214
用布	-9.9824
壝	-9.98278
𤣥冕	-9.98334
安得	-9.98418
方氏慤曰	-9.98439
日月星辰	-9.9844
仲春	-9.98464
欽	-9.9856
祭於	-9.98598
於天下	-9.98633
為父	-9.9865
寅	-9.98684
於中	-9.98816
膳夫	-9.98826
郭	-9.9894
統於	-9.98954
拊	-9.98964
鳥獸	-9.98978
盧	-9.98979
然而	-9.99031
扱	-9.99034
太祝	-9.99145
寺	-9.992
為人	-9.99231
琴瑟	-9.99245
□	-9.99291
詔王	-9.99311
阼階下	-9.99399
亦得	-9.99424
五色	-9.99433
彝	-9.99444
姜	-9.99472
軒	-9.99553
非特	-9.99562
之聲	-9.99569
言之則	-9.99583
溺	-9.99592
所宜	-9.99628
阿	-9.99632
分寸之	-9.9966
戾	-9.99763
九嬪	-9.99765
馬氏曰	-9.99766
饑	-9.99773
之至也	-9.99782
也疏	-9.99796
虧	-9.99802
皆不	-9.99806
僖公	-9.99828
機	-9.99865
箕	-9.99911
將軍	-9.99918
庭實	-9.99921
不可不	-9.99953
二字	-9.99996
始於	-10.0001
之賦	-10.0002
二十七	-10.0004
廵	-10.0005
牡	-10.0017
恵	-10.0025
事畢	-10.0029
軫	-10.003
共之	-10.0031
錄	-10.0032
2	-10.0035
明器	-10.0038
炙	-10.0038
夫之	-10.0041
門東	-10.0043
事者	-10.0046
慝	-10.0046
君所	-10.0048
門西	-10.0053
不宜	-10.0058
歎	-10.0059
反下同	-10.006
第一	-10.0062
成踊	-10.0069
停	-10.0076
腹	-10.0083
春夏	-10.0084
為禮	-10.0085
到	-10.0094
鸞	-10.0104
落	-10.0114
六鄉	-10.0117
再命	-10.0132
密	-10.0134
晝	-10.0135
政事	-10.0151
矣此	-10.0172
適孫	-10.0174
捧	-10.0177
胙	-10.0179
明其	-10.0179
其時	-10.0181
創	-10.0186
則必	-10.0188
黄道	-10.019
之左	-10.019
鬱	-10.0191
涂	-10.0194
壊	-10.0196
事則	-10.0198
五曰	-10.0208
也君	-10.021
周制	-10.0212
柩車	-10.0214
刑罰	-10.0215
縞	-10.0216
以明	-10.0225
筓	-10.0225
鬱鬯	-10.0231
飬	-10.0237
所在	-10.0243
乗車	-10.0243
而復	-10.0251
名之	-10.0251
論語	-10.0252
山澤	-10.0253
求之	-10.0254
敏	-10.0259
者何	-10.0262
西序	-10.0264
大廟	-10.0277
括髮	-10.028
吉服	-10.0282
遂以	-10.0284
䘮服	-10.0286
故鄭云	-10.0288
亷	-10.0289
自此	-10.0296
賈氏公彦曰	-10.0298
生時	-10.0298
無所不	-10.0301
王氏	-10.0302
王肅	-10.0303
數也	-10.0305
而上	-10.0305
位在	-10.0308
始也	-10.0309
别子	-10.0317
其徳	-10.0323
睦	-10.0325
之田	-10.0329
故書	-10.033
聼	-10.0332
買	-10.0337
訝	-10.0339
降自西階	-10.0341
麋	-10.0348
皆然	-10.0354
謬	-10.0355
饔餼	-10.037
使民	-10.0381
坤	-10.0384
飭	-10.0385
委積	-10.0388
齊侯	-10.0393
茍	-10.0393
地之	-10.04
於國	-10.04
以俟	-10.0402
惰	-10.0406
死則	-10.0408
當以	-10.041
以爵	-10.0415
在於	-10.0422
十二年	-10.0434
其言	-10.0435
方氏	-10.0439
好惡	-10.0442
六遂	-10.0442
秋冬	-10.0445
醉	-10.045
樂也	-10.0458
而生	-10.0459
之差	-10.046
可見	-10.0462
姬	-10.0477
一時	-10.048
四分	-10.0482
儐尸	-10.0486
蠻	-10.0489
萌	-10.0501
歆	-10.0503
之分	-10.0508
行者	-10.0508
小大	-10.0509
之詩	-10.051
也故曰	-10.0518
滌	-10.0521
俊	-10.0532
也大夫	-10.0533
笏	-10.0533
職曰	-10.0533
奠於	-10.0535
衮冕	-10.0544
在廟	-10.0544
甒	-10.055
廟中	-10.0556
英	-10.056
闔	-10.0567
後者	-10.0575
曠	-10.0575
三揖	-10.0579
人之所	-10.0583
漏	-10.0586
樂器	-10.0594
加於	-10.0594
則非	-10.0601
南郊	-10.0602
司服	-10.0603
:「	-10.0605
尺二寸	-10.0606
鑊	-10.0606
小宗伯	-10.0608
轅	-10.0609
以出	-10.0611
死而	-10.0611
受其	-10.0612
内宰	-10.0615
在堂	-10.0632
濫	-10.0657
非謂	-10.0659
失禮	-10.0662
祭禮	-10.0664
上射	-10.0678
狗	-10.0678
簫	-10.0682
内史	-10.0688
拜賔	-10.0689
二日	-10.0691
有六	-10.0691
視之	-10.0701
消	-10.0702
懷	-10.0706
主國	-10.0707
該	-10.0709
之變	-10.0711
嫡	-10.0722
易曰	-10.0722
所出	-10.0726
首絰	-10.0728
蹕	-10.0736
旄	-10.0741
兵車	-10.0743
鄰	-10.0745
五官	-10.0752
洗爵	-10.076
上言	-10.0762
事君	-10.0769
四望	-10.0771
以備	-10.0774
醴酒	-10.0782
文子	-10.0802
練冠	-10.0805
而行之	-10.0806
善也	-10.0813
舉其	-10.0816
六尺	-10.082
不稱	-10.0821
出門	-10.0841
入於	-10.0841
未能	-10.0841
飽	-10.0842
除喪	-10.0844
則用	-10.0852
紹	-10.0856
俾	-10.0858
與大夫	-10.0862
皆得	-10.0863
正義	-10.0864
而已故	-10.0865
卯	-10.0873
其長	-10.0876
者據	-10.0877
夏至	-10.0878
濁	-10.0883
庶母	-10.0885
大僕	-10.0887
與此	-10.0887
醯	-10.089
聨	-10.0896
不成	-10.0907
皇太后	-10.0908
父母之喪	-10.091
蟄	-10.0914
曾	-10.0916
矦	-10.0916
祐	-10.0918
無射	-10.0925
邸	-10.0929
衆主人	-10.0942
執爵	-10.0943
冀	-10.0944
之異	-10.095
而巳	-10.0957
誣	-10.0958
秋官	-10.0964
故君子	-10.0964
一獻	-10.0966
丑	-10.0976
無主	-10.0978
以祭	-10.0981
故事	-10.0982
公羊傳	-10.0982
膳宰	-10.0983
百二十	-10.0985
從母	-10.0987
氣也	-10.0988
滑	-10.0992
完	-10.0993
人道	-10.0996
一體	-10.1
者葢	-10.1001
芳	-10.1001
器也	-10.1004
琮	-10.1006
以義	-10.1012
第十	-10.1014
賛者	-10.1016
小記	-10.1021
者如	-10.1022
之稱	-10.1024
孟春	-10.1026
壯	-10.1045
下有	-10.1046
傾	-10.1051
殺也	-10.1052
賤者	-10.106
喪大記	-10.1062
熙	-10.1063
唯有	-10.108
去之	-10.1081
春秋傳	-10.1083
于王	-10.1085
枕	-10.1094
不通	-10.1105
遂人	-10.1117
迎尸	-10.1118
衆庶	-10.1122
禮官	-10.1134
三王	-10.1137
祭肺	-10.1137
豹	-10.1138
相應	-10.1141
相為	-10.1143
不備	-10.1146
掌邦	-10.1149
童	-10.1151
戒之	-10.1152
僅	-10.1153
貸	-10.1155
反命	-10.1161
左手	-10.1167
莊公	-10.117
欺	-10.1181
寄	-10.1181
之治	-10.1187
未知	-10.1188
為貴	-10.1192
蘇	-10.1197
罋	-10.1199
事故	-10.1201
禮器	-10.1202
也但	-10.1209
忠信	-10.1213
翦	-10.1223
致爵	-10.1235
藪	-10.1242
八尺	-10.1249
本又作	-10.1251
主人主婦	-10.1251
遣使	-10.1255
宗廟之	-10.1257
輦	-10.1272
賄	-10.1275
驚	-10.1275
觀其	-10.1277
胾	-10.1278
隔	-10.1279
付	-10.129
禪	-10.129
和之	-10.1295
慈母	-10.1296
朝踐	-10.1299
得以	-10.1302
于堂	-10.1314
段	-10.1314
湖	-10.1314
九州	-10.1318
亭	-10.1318
罇	-10.1325
者盖	-10.1325
殆	-10.1326
而不言	-10.133
夏殷	-10.1331
主人拜	-10.1332
之尊	-10.1334
以祀	-10.1336
枚	-10.1337
幄	-10.1341
張氏曰	-10.1343
拜之	-10.1344
舉觶	-10.1346
邇	-10.1346
少儀	-10.135
巾車	-10.1352
不受	-10.1355
妨	-10.1358
古今	-10.1361
車之	-10.1364
帥其屬	-10.1388
以共	-10.1405
北靣	-10.1405
脾	-10.141
增	-10.1411
㡬	-10.1414
而能	-10.1414
𢎞	-10.1416
賜之	-10.1417
達於	-10.1423
柶	-10.1425
此之謂	-10.1428
飾之	-10.1438
狐	-10.1454
故用	-10.1458
而用之	-10.146
濯	-10.1461
中國	-10.1469
犧	-10.1486
警	-10.1492
爵者	-10.1495
而反	-10.1497
而不知	-10.15
居喪	-10.15
抗	-10.1509
注同	-10.1513
邱	-10.1514
與人	-10.1514
祭地	-10.1519
司寇	-10.1526
織	-10.1526
反哭	-10.1526
闇	-10.1526
出于	-10.1526
塾	-10.153
祭義	-10.1531
澄曰	-10.1539
盡其	-10.1543
樂者	-10.1543
有罪	-10.1545
普	-10.1547
奉之	-10.1547
太后	-10.155
朝聘	-10.1557
國語	-10.1559
凖	-10.1559
之謂也	-10.1561
中有	-10.1562
房中	-10.1567
十一年	-10.1572
泥	-10.1574
巷	-10.158
不自	-10.1583
自是	-10.1586
在北	-10.1588
琴	-10.1588
者欲	-10.1589
何也曰	-10.1595
在右	-10.1598
奠觶	-10.1601
奠之	-10.1603
北面東上	-10.1606
並同	-10.1612
政令	-10.1613
祭統	-10.162
萬民之	-10.1622
者彼	-10.1625
人以	-10.1627
京師	-10.1629
大門外	-10.1637
西面北上	-10.1641
引之	-10.1641
僣	-10.1642
損益	-10.1647
臯	-10.1651
其父	-10.1652
之始	-10.1652
己之	-10.1653
勲	-10.1654
棗	-10.166
泲	-10.166
輒	-10.1664
唱	-10.1666
鄭註	-10.1666
於大夫	-10.1669
所執	-10.1671
酳尸	-10.1676
禁令	-10.1677
使大夫	-10.1679
其神	-10.1687
不正	-10.1689
反下	-10.169
河南	-10.169
塵	-10.1694
也鄭司農云	-10.1699
太尉	-10.1713
取矢	-10.1717
巡守	-10.1719
絜	-10.1722
互相	-10.1722
通典	-10.1725
而未	-10.1727
雖無	-10.1732
簠	-10.1732
亦謂之	-10.1734
三讓	-10.1736
正服	-10.1738
無子	-10.174
位于	-10.1743
載之	-10.1744
黄氏曰	-10.1749
弔服	-10.175
毒	-10.1752
言語	-10.1753
當在	-10.1756
於公	-10.1757
投壺	-10.176
宥	-10.1768
架	-10.1773
為三	-10.1776
猛	-10.1779
南鄉	-10.1788
由是	-10.1788
之初	-10.1789
繭	-10.1791
讎	-10.1793
忍	-10.1796
偃	-10.1796
在國	-10.1799
區	-10.18
也鄭氏曰	-10.1802
亢	-10.1811
林鍾	-10.1812
鼏	-10.1812
大禮	-10.1813
豈有	-10.1814
晏	-10.1815
也士	-10.1817
而死	-10.182
有徳	-10.1821
不特	-10.1827
卽	-10.1828
禮樂之	-10.1829
禜	-10.1832
於己	-10.1836
王朝	-10.1839
之志	-10.184
廷	-10.1846
言之也	-10.1847
之體	-10.1851
孝經	-10.1853
羊豕	-10.1858
蒐	-10.1865
史記	-10.1869
凢	-10.1871
之書	-10.1877
而知	-10.188
鎛	-10.1891
與夫	-10.1893
自有	-10.1893
易氏曰	-10.1894
士虞禮	-10.1894
非一	-10.1901
鈞	-10.1902
紳	-10.1902
近郊	-10.1904
公曰	-10.1907
㓜	-10.1908
神也	-10.1909
五十里	-10.1911
十日	-10.1912
誥	-10.1921
箋	-10.1925
正之	-10.1926
臣子	-10.1927
廵守	-10.193
亦在	-10.1932
馳	-10.1934
一節	-10.1934
不絶	-10.1934
於是乎	-10.1937
而非	-10.1945
鄭康成	-10.1947
見于	-10.1948
異者	-10.1957
燕射	-10.1957
矜	-10.1966
百工	-10.1966
随	-10.1972
初獻	-10.1979
朝事	-10.1979
矛	-10.1983
上有	-10.1985
酏	-10.2015
谷	-10.2019
日中	-10.202
薦脯醢	-10.2022
鄭氏謂	-10.2034
起居	-10.2037
士介	-10.204
誄	-10.2041
聽之	-10.2044
而哭	-10.2044
祔於	-10.2048
人臣	-10.205
存焉	-10.2053
呉	-10.2065
有事於	-10.2066
仲尼	-10.2066
未可	-10.2067
其下	-10.2069
壤	-10.2069
昭公	-10.2071
釋曰此	-10.2071
笑	-10.2072
悔	-10.2077
服期	-10.2079
絳	-10.2089
若不	-10.209
次第	-10.2092
緇布冠	-10.2096
於門外	-10.2097
執弓	-10.2098
亦非	-10.2104
叔父	-10.2107
其功	-10.211
庾	-10.2118
七日	-10.2121
顓頊	-10.2122
曰吾	-10.2123
人皆	-10.2124
鼻	-10.2125
驕	-10.2126
故其	-10.2126
借	-10.2127
禮部	-10.2133
在位	-10.2134
此三	-10.2135
黎	-10.2135
霸	-10.2139
其形	-10.2141
之教	-10.2144
斥	-10.2145
所為	-10.2149
先君	-10.2154
小事	-10.2154
以行	-10.2157
如何	-10.2159
虛	-10.2159
綦	-10.216
與諸侯	-10.2162
所以致	-10.2163
禮運	-10.2167
漿	-10.2168
明堂位	-10.2168
殯宫	-10.2168
别於	-10.2172
棜	-10.2172
也君子	-10.2172
而不敢	-10.2185
珠	-10.2185
焉則	-10.2192
揖讓	-10.2194
槀	-10.2195
髀	-10.2197
仁者	-10.2197
槃	-10.2197
翔	-10.22
上生	-10.2205
食者	-10.2209
類也	-10.2213
長三尺	-10.2214
犢	-10.2217
夫家	-10.2219
之形	-10.222
狩	-10.222
既殯	-10.222
也周禮	-10.2221
茂	-10.2223
泰山	-10.2224
漢書	-10.223
所載	-10.2238
夾室	-10.2248
紼	-10.2249
非是	-10.2257
藩	-10.2259
禳	-10.2274
余	-10.2283
之而已	-10.2284
湏	-10.2286
脊脅	-10.2286
其臣	-10.2292
黨正	-10.2292
有大	-10.2293
七廟	-10.2295
求諸	-10.2299
人者	-10.2315
所居	-10.2317
為妻	-10.2322
紂	-10.2332
三十六	-10.2332
先入	-10.2333
豳	-10.2339
二分	-10.2343
司㑹	-10.2344
是也云	-10.2346
者或	-10.2349
於室	-10.235
潤	-10.2358
宵	-10.2362
丙	-10.2368
尊故	-10.2378
待之	-10.2381
糗	-10.2385
五等	-10.2391
也葢	-10.2392
小司徒	-10.2393
職事	-10.2398
大祖	-10.2399
暫	-10.2401
轡	-10.2406
主人獻	-10.2408
天府	-10.2408
小學	-10.241
于此	-10.241
七升	-10.2411
澮	-10.2412
二百	-10.2416
葦	-10.2421
禘祫	-10.2423
即此	-10.2423
者先	-10.2427
眂	-10.2428
盎齊	-10.2432
以相	-10.2433
者自	-10.2435
粗	-10.2436
變也	-10.2437
十人	-10.2438
主之	-10.2438
除之	-10.2441
為尸	-10.2443
東面北上	-10.2445
庿	-10.2446
郝氏曰	-10.2446
近於	-10.2448
得之	-10.245
鼗	-10.2452
柳	-10.2457
其家	-10.2461
于是	-10.2465
守之	-10.247
季秋	-10.2474
也又曰	-10.2477
終身	-10.248
終始	-10.2481
騎	-10.2483
中霤	-10.2488
宗室	-10.2488
問之	-10.2491
行人	-10.2491
受幣	-10.2491
先言	-10.2496
有五	-10.2499
邾	-10.2499
案此	-10.2504
毫	-10.2506
此所謂	-10.251
正其	-10.2512
置於	-10.2513
人主	-10.2517
陰陽	-10.2517
為壇	-10.252
木為	-10.2526
為人後者	-10.253
託	-10.253
雙	-10.2534
而歸	-10.2537
襄公	-10.2543
禮志	-10.2548
庫門	-10.2556
子路	-10.2557
家語	-10.2557
山林	-10.2561
苗	-10.2562
神位	-10.2563
天時	-10.2567
晚	-10.2567
遥	-10.2568
四升	-10.2571
方百里	-10.2573
酌獻	-10.2576
六曰	-10.2585
頃	-10.2592
也古者	-10.2596
則當	-10.2597
主人降	-10.2597
粢盛	-10.2601
絰帶	-10.2604
括髪	-10.2606
樂師	-10.2607
所由	-10.2608
紛	-10.2609
此二	-10.2611
期而	-10.2611
之大者	-10.2613
舞者	-10.2615
綬	-10.2616
二等	-10.2617
又言	-10.2617
文王之	-10.2617
謂若	-10.2618
郊社	-10.2623
鴻	-10.2623
故得	-10.2633
實之	-10.2634
就位	-10.2643
鳩	-10.2644
徳之	-10.2649
朝日	-10.265
苞	-10.2651
固有	-10.2654
啐	-10.2661
鄭氏康成曰	-10.2666
三升	-10.2668
便也	-10.2669
節也	-10.2673
繆	-10.2674
几筵	-10.2678
親也	-10.2681
子貢	-10.2684
薪	-10.2687
為本	-10.2687
直云	-10.2693
制禮	-10.2699
覺	-10.271
穴	-10.2711
同居	-10.2722
弑	-10.2723
有異	-10.2726
烖	-10.2727
則謂之	-10.2729
之美	-10.2732
送之	-10.2734
賔客之	-10.2739
遣車	-10.2749
匠人	-10.2751
匡	-10.2753
麾	-10.2761
戌	-10.2765
典瑞	-10.2768
聘享	-10.2771
百畝	-10.2772
為後	-10.2776
附庸	-10.2776
五百里	-10.2781
四面	-10.2783
而已矣	-10.279
至是	-10.2798
明水	-10.2806
孟子曰	-10.2807
其體	-10.2812
隸	-10.2818
之閒	-10.2824
敷	-10.2825
其氣	-10.2827
禮以	-10.2829
妣	-10.283
箭	-10.2834
其色	-10.2836
登歌	-10.2836
事親	-10.2838
郝	-10.284
建國	-10.2841
無算爵	-10.2847
魂	-10.2852
舍人	-10.2853
場	-10.2855
詐	-10.2856
物而	-10.2861
彞	-10.2863
隆殺	-10.287
也諸侯	-10.2872
之學	-10.2875
倒	-10.2879
隂氣	-10.2881
嚌	-10.2882
兩端	-10.2883
倦	-10.2887
放此	-10.2896
入門左	-10.29
不容	-10.2903
王所	-10.2904
故特	-10.2906
父卒	-10.291
女御	-10.2913
髙下	-10.2915
臧	-10.2916
也且	-10.2916
命數	-10.2918
爓	-10.2918
鼙	-10.292
軷	-10.2924
皆作	-10.2929
告之	-10.2933
哭之	-10.2935
若夫	-10.2935
風雨	-10.2942
東階	-10.2944
臑	-10.2948
則否	-10.2952
亦為	-10.2953
則又	-10.2954
墮	-10.2963
之恩	-10.2968
盜	-10.2968
隂陽之	-10.2972
柏	-10.2972
有子	-10.2973
於郊	-10.2974
譬	-10.2975
相去	-10.2977
直言	-10.2979
髦	-10.2987
不信	-10.299
箇	-10.2991
經傳	-10.2997
苑	-10.2999
未成	-10.3001
熬	-10.3002
一年	-10.301
俛伏興	-10.3011
别有	-10.3011
季春	-10.3013
圭璋	-10.3014
辭也	-10.3016
甸人	-10.3022
入學	-10.3025
御者	-10.3032
壞	-10.3035
它	-10.3038
此記	-10.3038
也𤣥謂	-10.3039
入門右	-10.3049
臣之	-10.305
內	-10.305
獻之	-10.3051
圉	-10.3051
其法	-10.306
故先	-10.306
配天	-10.3061
軹	-10.3066
與士	-10.3069
以和	-10.3071
立廟	-10.3073
尉	-10.3074
薛	-10.3074
阜	-10.3078
饗禮	-10.308
解之	-10.3082
卻	-10.3085
后之	-10.3086
搏	-10.3088
此章	-10.3088
所得	-10.3095
祖母	-10.3096
云云	-10.3099
裂	-10.3103
反注同	-10.3103
冡宰	-10.3104
也不言	-10.3106
于公	-10.3112
箱	-10.3112
使其	-10.3113
措	-10.3122
其類	-10.3123
出迎	-10.3123
紘	-10.3126
之饌	-10.3133
之常	-10.3142
悲	-10.3145
各有所	-10.3147
而不能	-10.315
朝夕哭	-10.315
司宫	-10.3153
以道	-10.3154
居處	-10.3156
昬禮	-10.3162
不許	-10.3164
旌旗	-10.3165
臘	-10.317
賣	-10.3171
者也故	-10.3179
也以其	-10.3179
也是故	-10.3181
可以為	-10.3184
小歛	-10.3187
為位	-10.3187
倡	-10.3191
摇	-10.3191
混	-10.3196
處也	-10.3196
政教	-10.3198
舊説	-10.3212
而言也	-10.3213
讀爲	-10.3214
司儀	-10.3217
之世	-10.3219
犧牲	-10.3228
諸儒	-10.3231
觸	-10.3233
應鍾	-10.3237
柯	-10.3238
案周禮	-10.3245
坐取	-10.3246
是矣	-10.3247
熊氏	-10.3247
所能	-10.3251
生而	-10.3252
摩	-10.3256
相近	-10.3263
士師	-10.3264
而用	-10.3267
陳氏祥道曰	-10.3268
不肖	-10.327
小行人	-10.3271
舉之	-10.328
之盛	-10.3281
五禮	-10.3284
有虞氏	-10.3285
由此	-10.3288
其道	-10.3289
覿	-10.329
纂	-10.3292
簠簋	-10.3294
者欲見	-10.3298
督	-10.3302
匪	-10.3303
皮弁服	-10.3316
文王世子	-10.3317
五廟	-10.3317
而俟	-10.3318
㦸	-10.332
練祥	-10.3323
即是	-10.3323
執玉	-10.3328
未至	-10.333
服者	-10.3337
聲音	-10.3346
骼	-10.3346
括	-10.3346
來朝	-10.3347
陳設	-10.3352
拱	-10.3353
賔長	-10.3354
五世	-10.337
席前	-10.337
訛	-10.3372
薦俎	-10.3374
皆謂	-10.3381
四夷	-10.3383
上經	-10.3391
靣	-10.3392
揜	-10.3394
妾子	-10.3394
不善	-10.3394
荼	-10.34
服不	-10.34
迫	-10.3405
孝弟	-10.3414
斛	-10.3415
猶言	-10.3419
也若然	-10.3421
杞	-10.3426
庶民	-10.3431
婢	-10.3439
九職	-10.3442
往來	-10.3446
水火	-10.345
之黨	-10.3452
廂	-10.3455
鄉師	-10.3458
豈可	-10.3465
不改	-10.3465
太平	-10.3471
北郊	-10.3479
玉府	-10.3479
礿	-10.3484
于室	-10.3486
其說	-10.3487
頗	-10.3494
錫衰	-10.3497
司冦	-10.3503
同故	-10.3509
哭踊	-10.3519
輕者	-10.3521
衝	-10.3525
燒	-10.3529
有時	-10.3529
存疑	-10.3531
伊	-10.3533
迭	-10.3537
東楹	-10.3543
正義敖氏繼公曰	-10.3548
繞	-10.355
圃	-10.3551
岐	-10.3551
者謂之	-10.3553
從其	-10.3556
許嫁	-10.3556
釋獲者	-10.3558
者凡	-10.3558
設席	-10.3563
仁也	-10.3567
禮殺	-10.3571
弔者	-10.3575
庻	-10.3576
荀	-10.3577
相接	-10.358
至誠	-10.3584
彊	-10.3587
射則	-10.3591
公侯	-10.3594
褻	-10.3595
儒者	-10.3596
下士二人	-10.3598
文獻通考	-10.3616
囚	-10.3619
可乎	-10.362
軸	-10.3622
茵	-10.3623
階下	-10.3628
鋪	-10.3628
備也	-10.3629
也必	-10.3629
而可	-10.363
其大	-10.3631
衆寡	-10.3639
垣	-10.3645
孤卿	-10.3647
府二人	-10.3647
視朝	-10.3649
于朝	-10.3649
獻官	-10.365
不止	-10.3652
邉	-10.3654
葛帶	-10.3656
膠	-10.3658
鄉人	-10.3659
十有二人	-10.3661
悦	-10.3663
愧	-10.3664
搢	-10.3665
嬪	-10.3667
耆	-10.3668
輴	-10.3668
藏於	-10.3676
3	-10.368
各以	-10.3684
而去	-10.3685
丗	-10.3691
服其	-10.3692
堯舜	-10.3693
曾子	-10.3697
奴	-10.3704
賔賔	-10.3705
相似	-10.3714
十五年	-10.3716
之殤	-10.3719
以布	-10.3719
為二	-10.372
誤也	-10.3725
局	-10.3727
公邑	-10.3729
堂西	-10.3732
奮	-10.3733
無二	-10.3744
三千	-10.3744
教民	-10.3747
也盖	-10.3749
古禮	-10.3751
君親	-10.3753
入室	-10.3755
褖衣	-10.3762
合樂	-10.3764
洽	-10.3767
未詳	-10.3769
希	-10.3769
凝	-10.377
旜	-10.3771
相與	-10.3776
恭敬	-10.3778
雜記云	-10.3778
溢	-10.3783
遜	-10.3785
乃命	-10.3792
囿	-10.3798
韜	-10.38
于西階上	-10.3801
季冬	-10.3802
衆人	-10.3802
山隂陸氏曰	-10.3803
曽孫	-10.3806
扃	-10.3814
使臣	-10.3818
之度	-10.3819
釋文	-10.382
人鬼	-10.3822
乃得	-10.3823
匠	-10.3824
之屬也	-10.3832
黻	-10.3839
曲禮云	-10.384
禮則	-10.3843
所以明	-10.3844
特牲少牢	-10.3846
愚按	-10.385
無過	-10.3857
然後可以	-10.3858
一名	-10.3862
䕶	-10.3863
函	-10.3863
以生	-10.3865
未葬	-10.3866
皇氏	-10.3867
晦	-10.3872
以木	-10.3872
子姓	-10.3875
紫	-10.3876
釋菜	-10.3876
勒	-10.3876
盆	-10.3877
大裘	-10.3877
酒正	-10.3877
不哭	-10.3885
大吕	-10.3885
皆所以	-10.3889
後鄭	-10.3894
吐	-10.39
拜賓	-10.39
闑	-10.3901
祭先	-10.3902
一物	-10.3904
集說	-10.3908
乎其	-10.391
疾病	-10.391
騂	-10.391
下射	-10.3911
坡謂	-10.3919
為義	-10.3919
非正	-10.3927
詢	-10.3928
薦之	-10.393
王畿	-10.3933
衆子	-10.3934
服斬	-10.3938
魯人	-10.394
濡	-10.3943
詰	-10.3947
於庭	-10.3948
哲	-10.3948
年正月	-10.3952
開元	-10.3953
兵器	-10.3955
於諸侯	-10.3961
玉帛	-10.3968
大夫之子	-10.397
報之	-10.397
而祭之	-10.3971
晨	-10.3975
五刑	-10.3981
以東	-10.3984
説文	-10.3986
之失	-10.3987
地示	-10.3989
疫	-10.399
級	-10.3991
多矣	-10.4001
瞻	-10.401
徇	-10.4019
人民	-10.402
劉氏	-10.4021
梅	-10.4022
書之	-10.4031
肆師	-10.4032
竊案	-10.4037
也敖氏曰	-10.4038
貳車	-10.404
斤	-10.404
以教	-10.4041
之吏	-10.4041
小雅	-10.4041
有服	-10.4041
禮曰	-10.4045
糧	-10.4049
孟冬	-10.4054
銅	-10.4055
從祖	-10.4056
拭	-10.4059
開元禮	-10.4063
賓賓	-10.407
駒	-10.407
要絰	-10.4071
太牢	-10.4072
文也	-10.4074
變而	-10.4075
朋	-10.4075
以玉	-10.4076
公孫	-10.4076
繇	-10.4078
尊之	-10.4079
第一星	-10.4085
玊	-10.4088
恕	-10.4089
之節也	-10.4089
祭社	-10.4092
婁	-10.4095
尊於	-10.4096
在朝	-10.4101
知禮	-10.4105
樂記	-10.4105
者三	-10.4108
之象	-10.4109
出母	-10.4117
第四	-10.4124
十里	-10.4134
壽	-10.4134
以降	-10.4139
其祖	-10.4139
時有	-10.4141
兩旁	-10.4148
紒	-10.415
許諾	-10.4151
髙宗	-10.4157
披	-10.4157
誤矣	-10.4158
井田	-10.416
水旱	-10.4161
蔵	-10.4163
並行	-10.4167
列於	-10.4167
本作	-10.4173
入告	-10.4173
不由	-10.4175
齊衰三月	-10.4183
之性	-10.4186
者按	-10.4192
歸於	-10.4193
帝王	-10.4194
嗟	-10.4199
賔尸	-10.4208
矣而	-10.4216
所欲	-10.4219
乎此	-10.4223
詘	-10.4223
禮經	-10.4225
九賦	-10.4225
仇	-10.4228
六典	-10.423
鞠衣	-10.4231
上擯	-10.4232
之篇	-10.4232
妙	-10.4234
曰君	-10.4238
嘉禮	-10.4238
玉路	-10.4244
繋	-10.4244
貍	-10.4246
五百	-10.4248
今此	-10.4254
于廟	-10.4259
啐酒	-10.4259
為賓	-10.4259
之母	-10.4262
鄭伯	-10.4266
矣又	-10.4275
下生	-10.4276
或言	-10.4277
征伐	-10.428
南吕	-10.4282
宰相	-10.4282
陳氏曰	-10.4282
若無	-10.4286
後乃	-10.4286
卒觶	-10.4287
夷則	-10.4289
尊尊	-10.4289
。」	-10.4291
將以	-10.4298
之為言	-10.4302
而加	-10.4303
而見	-10.4305
車駕	-10.4307
昔者	-10.4308
慤	-10.4313
加爵	-10.4317
舂	-10.432
釋之	-10.432
書其	-10.4325
遼	-10.4328
成周	-10.4331
帨	-10.4337
鄭𤣥	-10.4339
杜子春云	-10.434
而往	-10.4346
不廢	-10.4356
中衣	-10.4357
亦與	-10.4365
下文云	-10.4365
雕	-10.4365
桐	-10.4366
故稱	-10.4368
私覿	-10.4372
于房中	-10.4372
今日	-10.4375
緝	-10.4376
射禮	-10.4376
之宜	-10.4382
氣之	-10.4386
乘車	-10.4387
湛	-10.4394
下記云	-10.4394
不明	-10.4394
匱	-10.4395
氏之	-10.4396
十四年	-10.4396
制其	-10.4397
寫	-10.4397
帝本紀	-10.4399
叔孫	-10.44
使卿	-10.4401
他人	-10.4403
之奠	-10.4404
絹	-10.4406
掌客	-10.4409
左傳云	-10.441
盾	-10.4416
示民	-10.4416
使某	-10.4416
又何	-10.4417
知此	-10.442
家禮	-10.4422
閔	-10.4424
易之	-10.4431
摶	-10.4435
六服	-10.4436
太常卿	-10.4437
祝史	-10.4438
公田	-10.4441
未嘗不	-10.4443
詔曰	-10.4446
既練	-10.4446
即席	-10.4449
自天子	-10.4451
之冠	-10.4452
豈非	-10.4453
此一節	-10.4455
制之	-10.4456
譲	-10.4458
不若	-10.446
酬賔	-10.4461
也主人	-10.4463
醴齊	-10.4464
命者	-10.4464
正禮	-10.4469
無後	-10.4469
濮	-10.4471
官之長	-10.4471
刋	-10.4475
吕氏曰	-10.4478
衰裳	-10.4478
星辰	-10.448
租	-10.4481
無非	-10.4482
但言	-10.4485
奢	-10.4487
究	-10.4489
城郭	-10.4489
騶虞	-10.449
次序	-10.449
疏曰此	-10.4495
繼父	-10.4498
豈不	-10.45
汲	-10.4506
廞	-10.4508
路門	-10.4508
少者	-10.451
松	-10.4511
搢笏	-10.4511
僕人	-10.4513
蕡	-10.4514
西階下	-10.4515
夘	-10.4517
臣下	-10.4519
禬	-10.4521
繼母	-10.4522
又設	-10.4528
也疏曰	-10.4535
津	-10.4537
曲禮曰	-10.4537
長樂陳氏曰	-10.4537
喪主	-10.4542
諧	-10.4548
孚	-10.455
暢	-10.4551
之患	-10.4551
亮	-10.4554
綍	-10.4554
高祖	-10.4559
之貌	-10.456
不嫌	-10.4567
仲秋	-10.4567
賢能	-10.4571
凶荒	-10.4571
不須	-10.4578
於太廟	-10.4581
衆也	-10.4585
拜稽顙	-10.4587
橋	-10.4592
如之何	-10.4607
為天子	-10.4607
暇	-10.461
從父昆弟	-10.461
行而	-10.461
以求	-10.461
獻公	-10.4615
厚薄	-10.4619
宣王	-10.462
典禮	-10.462
郊勞	-10.4625
無窮	-10.4626
則止	-10.463
其用	-10.4632
為重	-10.4639
從服	-10.464
用牲	-10.4644
冕而	-10.4645
陽厭	-10.4645
其力	-10.4646
祝辭	-10.4649
其節	-10.4656
存疑鄭氏康成曰	-10.4656
賔出	-10.4662
頓	-10.4662
遣奠	-10.4663
三卿	-10.4664
後人	-10.4664
功衰	-10.4666
者當	-10.4667
從祀	-10.467
奏請	-10.467
金路	-10.4679
大路	-10.4679
檀弓云	-10.4681
成之	-10.4687
萬世	-10.4688
不中	-10.4691
肫	-10.4692
廪	-10.4695
據此	-10.4696
日食	-10.4696
乎曰	-10.4701
渭	-10.4702
觳	-10.4707
澄	-10.4709
其罪	-10.4709
侯中	-10.4711
卜日	-10.4713
鄭知	-10.4714
鬴	-10.4716
袍	-10.4722
天王	-10.4732
為祖	-10.4735
屬於	-10.4737
結之	-10.4739
内侍	-10.4743
浸	-10.4745
槩	-10.4747
寒暑	-10.4753
大抵	-10.4754
之方	-10.4755
而得	-10.4759
者雖	-10.4761
經言	-10.4761
咨	-10.4762
父為	-10.4763
胄	-10.4764
嵗時	-10.4772
方五百里	-10.4776
亦不可	-10.4777
謂此	-10.4779
春正月	-10.4779
太陽	-10.478
敬之	-10.4781
者既	-10.4782
此是	-10.4784
不問	-10.4791
丞相	-10.4793
小子	-10.4794
取於	-10.4798
則可	-10.4808
雪	-10.4814
棟	-10.4823
有此	-10.4825
三辭	-10.4826
其物	-10.4826
不貳	-10.4827
宋史	-10.4832
埋之	-10.4832
行則	-10.4837
可得而	-10.4839
寡人	-10.484
以聽	-10.4843
本紀	-10.4846
郷射	-10.4847
同於	-10.4851
食禮	-10.4853
牝	-10.4858
卧	-10.4859
執圭	-10.486
先鄭	-10.4865
署	-10.4868
今以	-10.4869
所有	-10.4871
别也	-10.4875
時祭	-10.4875
戒令	-10.4876
玉幣	-10.4878
衆介	-10.488
零	-10.4883
五尺	-10.4883
陣	-10.4884
𧃊	-10.4886
泛	-10.4888
文帝	-10.4891
自為	-10.4892
鄉射禮	-10.4894
卵	-10.4896
纊	-10.4901
未得	-10.4905
洪	-10.4905
著之	-10.4906
中門	-10.4909
應門	-10.4911
加以	-10.4913
善惡	-10.4913
際	-10.4913
如其	-10.4917
一條	-10.4919
用玉	-10.4923
袪	-10.4927
州府	-10.4931
為政	-10.4932
食也	-10.4932
娣	-10.4932
次國	-10.4935
蓍	-10.4935
其外	-10.4937
璧琮	-10.4937
芟	-10.4942
盥洗	-10.4945
值	-10.4946
杜註	-10.4952
注言	-10.4953
此又	-10.4956
収	-10.4957
滋	-10.4958
肵俎	-10.4959
其性	-10.4961
士庶子	-10.4961
外宗	-10.4961
疎	-10.4963
合於	-10.4964
如常儀	-10.4965
燕居	-10.4965
后妃	-10.4967
季氏	-10.4968
皆云	-10.4969
降而	-10.4969
不免	-10.497
一家	-10.4978
價	-10.4985
韋弁	-10.4985
齊戒	-10.4985
訃	-10.4987
然後能	-10.4992
夾鍾	-10.4994
以安	-10.5001
檀弓曰	-10.5009
皆從	-10.5012
降階	-10.5014
既有	-10.5015
樓	-10.5016
饗之	-10.5017
億	-10.5018
顔色	-10.5025
卒食	-10.5025
廣狹	-10.5025
士妻	-10.5029
之事故	-10.5031
鬲	-10.5034
其可	-10.5035
羊俎	-10.5035
齍	-10.5038
韍	-10.5039
也鄭	-10.5039
猶未	-10.5042
象天	-10.5043
瑑	-10.5045
行於	-10.5056
者對	-10.5056
隧	-10.506
右記	-10.5062
裹	-10.5063
尊長	-10.507
飪	-10.5071
冬官	-10.5076
自相	-10.5077
騰	-10.5077
子男之	-10.5079
而使	-10.508
禋	-10.5081
脀	-10.5082
䖍	-10.5082
計之	-10.5085
視其	-10.5086
其行	-10.5095
以養	-10.5097
粉	-10.5097
陳於	-10.5098
複	-10.5098
徳行	-10.51
六宫	-10.5101
度量	-10.5102
未及	-10.5102
世室	-10.5103
於賔	-10.5106
所服	-10.5106
咎	-10.5112
當爲	-10.5116
十三年	-10.5118
有疾	-10.5118
公之	-10.512
義理	-10.5121
則自	-10.5123
心也	-10.5125
所行	-10.5126
夏時	-10.5127
八音	-10.5129
賓降	-10.5131
皆可	-10.5133
無異	-10.5134
者乃	-10.5135
祀五帝	-10.5137
必知	-10.5139
者乎	-10.5139
瘠	-10.514
骨肉	-10.5142
牟	-10.5145
忌日	-10.5147
金石	-10.5151
列國	-10.5152
互見	-10.5153
喪服小記	-10.5156
夭	-10.516
瓚	-10.5161
少進	-10.5163
一度	-10.5168
乾學案	-10.5169
六軍	-10.5174
者但	-10.5175
階間	-10.5176
莒	-10.5179
各二	-10.518
則令	-10.518
為下	-10.5182
凶服	-10.5187
之極	-10.519
濕	-10.5192
一丈	-10.5194
自外	-10.5195
師氏	-10.5197
甞	-10.5198
支子	-10.5199
郷飲酒	-10.52
醤	-10.5201
仗	-10.5202
者矣	-10.5207
是已	-10.5209
羹	-10.5211
矯	-10.5212
有九	-10.5222
秒	-10.5229
載師	-10.5231
用事	-10.5231
之類是也	-10.5234
昨	-10.5234
魯之	-10.5236
降服	-10.5237
鄉飲	-10.5239
堪	-10.524
亦同	-10.5251
覆之	-10.5252
其日	-10.5253
属	-10.5257
分為	-10.5258
滛	-10.5261
不知其	-10.5264
禮文	-10.5265
鑄	-10.5265
死於	-10.5273
皇考	-10.5274
凉	-10.5275
鄉飲酒禮	-10.5277
皆當	-10.5277
清廟	-10.5278
了	-10.528
所祭	-10.5284
伯父	-10.5285
鞭	-10.5285
老者	-10.5292
為賔	-10.53
風俗	-10.5302
輸	-10.5312
寵	-10.5313
賔降	-10.5314
無可	-10.5315
六十四	-10.5316
癸	-10.5319
烹	-10.5322
門之内	-10.5324
未盡	-10.5327
悼	-10.5336
冥	-10.5347
子云	-10.535
甥	-10.5354
上佐食	-10.5356
不違	-10.5358
冡	-10.5359
郡國	-10.5362
燕飲	-10.5363
重故	-10.5365
受田	-10.5365
不安	-10.5366
其母	-10.5367
陽也	-10.5368
揆	-10.5371
當從	-10.5377
内朝	-10.5377
布席	-10.538
枋	-10.538
坐祭	-10.5384
瘍	-10.5386
東西面	-10.5387
生也	-10.5388
人子	-10.5391
公事	-10.5393
技	-10.5398
尸侑	-10.54
備矣	-10.5401
出而	-10.5402
灼	-10.5405
鄭以	-10.5407
韎	-10.5407
沮	-10.5412
校人	-10.5414
腸胃	-10.5416
熱	-10.5418
本於	-10.5426
八分	-10.5427
當用	-10.5432
西南面	-10.5432
取諸	-10.5433
此據	-10.5435
三飯	-10.544
之舞	-10.5442
大門	-10.5444
障	-10.5445
于社	-10.5447
為宫	-10.5448
周公之	-10.5448
入廟	-10.5449
附於	-10.545
大帶	-10.5455
五者	-10.5458
十分	-10.5461
置于	-10.547
聖王	-10.5472
煎	-10.5474
黄鍾之	-10.5477
鄰國	-10.5479
採	-10.5479
枝	-10.549
舉奠	-10.5493
為之服	-10.5496
陳氏澔曰	-10.5496
或問	-10.5503
賔射	-10.5505
以知	-10.5508
數之	-10.5508
當有	-10.5511
春分	-10.5513
州縣	-10.5513
屬之	-10.5513
酌酒	-10.5517
察其	-10.5518
席上	-10.552
也詩云	-10.5523
賓出	-10.5524
太師	-10.5525
私人	-10.5526
嫂	-10.5527
緒	-10.5527
十有六人	-10.5529
一事	-10.5529
以供	-10.553
於士	-10.5537
愛之	-10.5537
文章	-10.5537
降席	-10.5539
廛	-10.5541
容貌	-10.5546
相生	-10.5547
百人	-10.5549
監本	-10.5554
敖繼公曰	-10.5556
而藏之	-10.556
耳目	-10.5564
主人拜送	-10.5564
屯	-10.5564
四命	-10.5565
邦國都鄙	-10.5566
不和	-10.5567
而除	-10.5568
冠而	-10.5568
也知	-10.557
炎	-10.5571
諸侯有	-10.5572
法度	-10.5573
以素	-10.5575
而不及	-10.5577
裼衣	-10.5579
賑	-10.558
以節	-10.5583
低	-10.5584
訾	-10.5586
以自	-10.5586
陳于	-10.5587
九分	-10.5587
不立	-10.5588
為飾	-10.5589
愚謂	-10.5594
肆夏	-10.5594
知所	-10.5595
嫁者	-10.5597
爾雅曰	-10.5598
晋	-10.5601
隊	-10.5602
以别	-10.5608
蓄	-10.5609
在今	-10.5612
信也	-10.5613
祭之日	-10.5615
戊	-10.5616
橫	-10.5616
受服	-10.5617
之耳	-10.5617
之利	-10.5618
之具	-10.5619
璜	-10.562
有司徹	-10.562
三采	-10.5623
乃以	-10.5623
膳羞	-10.5625
吉事	-10.5627
愼	-10.5628
粢	-10.5628
二十八	-10.5632
神農	-10.5636
奇	-10.5637
也方氏曰	-10.5638
世之	-10.5639
筴	-10.564
聽命	-10.5648
大傳	-10.5649
荘	-10.5654
兕	-10.5654
融	-10.5656
于上	-10.5658
廩	-10.5662
終於	-10.5664
于天	-10.5666
唐虞	-10.5669
曏	-10.5674
篆	-10.5674
筮日	-10.5675
自稱	-10.5683
君使	-10.5684
曰天子	-10.5685
鷹	-10.5686
之飾	-10.5686
一嵗	-10.5687
有爵者	-10.5692
者鄭	-10.5693
貍首	-10.5694
國事	-10.5695
與君	-10.57
問於	-10.57
奠幣	-10.5701
元士	-10.5703
生人	-10.5704
夲	-10.5706
筥	-10.5708
其儀	-10.5715
則不可	-10.5716
訊	-10.5721
之事則	-10.5728
酢主人	-10.5734
三牲	-10.5735
譽	-10.5736
分别	-10.574
洞	-10.5741
不敢當	-10.5742
燋	-10.5744
吿	-10.5745
常服	-10.5746
諌	-10.5746
逺郊	-10.5746
彭	-10.5749
階上	-10.5752
之女	-10.5753
敵者	-10.5756
飲之	-10.5759
煮	-10.576
也嚴陵方氏曰	-10.5763
不可以不	-10.5763
艾	-10.5774
之容	-10.5775
彤	-10.5779
此乃	-10.5784
逃	-10.5787
嘉靖	-10.5788
尸酢	-10.5789
季孫	-10.579
為父後者	-10.5794
升歌	-10.5794
公族	-10.5795
絇	-10.5799
富貴	-10.581
㸃	-10.5816
有道	-10.582
昆弟之子	-10.582
必用	-10.5822
王使	-10.5822
牢禮	-10.5824
擩	-10.5828
閤	-10.5834
哭盡哀	-10.5836
截	-10.5836
子産	-10.5838
遷主	-10.5838
官之屬	-10.584
巢	-10.5846
遞	-10.5851
法則	-10.5851
遷尸	-10.5854
太學	-10.5858
祖奠	-10.5865
羨	-10.5867
遍	-10.5867
先聖	-10.587
於父	-10.5872
鄉里	-10.5881
君薨	-10.5888
爰	-10.5891
姊	-10.5891
肄	-10.5893
某子	-10.5901
脂	-10.5902
就其	-10.5902
兒	-10.5902
樂章	-10.5904
闊	-10.5905
行道	-10.5906
殷之	-10.5906
拜送爵	-10.5908
或謂	-10.5911
尺五寸	-10.5915
各自	-10.5923
起於	-10.5925
績	-10.5926
俛	-10.5929
賓長	-10.593
釋曰自此盡	-10.5933
斚	-10.5934
陳鼎	-10.5935
無時	-10.5936
殘	-10.594
大侯	-10.5943
溝洫	-10.5952
鶉	-10.5953
母死	-10.5955
侯國	-10.5961
銀	-10.5962
榛	-10.5962
已有	-10.5964
扇	-10.5964
確	-10.5965
正位	-10.5966
晝夜	-10.5966
舊君	-10.5966
尊而	-10.5967
莫敢	-10.5969
則稱	-10.5972
升自阼階	-10.5972
六升	-10.5975
之席	-10.5976
以金	-10.5977
兔	-10.5985
繼之以	-10.5988
而來	-10.5989
誘	-10.5998
則先	-10.5999
若此	-10.6006
亦宜	-10.6007
次於	-10.6009
聽其	-10.6012
潛	-10.6012
凡此皆	-10.6015
公食大夫	-10.6019
祫祭	-10.6023
奏肆夏	-10.6025
般	-10.6027
學之	-10.6028
郊特牲云	-10.6029
何如	-10.603
者惟	-10.6039
辭曰	-10.604
何為	-10.6042
墉	-10.6044
實于	-10.6044
阻	-10.6046
劍	-10.6053
是故君子	-10.6054
以麻	-10.6056
五齊	-10.6056
又作	-10.6061
小功以下	-10.6068
以馭其	-10.6068
莞	-10.6073
輯	-10.6073
或云	-10.6075
以從	-10.6085
欲使	-10.6085
只是	-10.6088
負侯	-10.6088
掘	-10.609
所作	-10.609
漬	-10.6091
皆言	-10.6096
成而	-10.6096
蕙田案此	-10.6097
庶孫	-10.6099
假令	-10.6101
也世佐案	-10.6101
㕓	-10.6103
燔柴	-10.6103
哭者	-10.6104
之罪	-10.6107
盎	-10.6123
緇衣	-10.6124
嗜	-10.6125
額	-10.6128
拾取矢	-10.6129
止也	-10.6129
封疆	-10.6132
司農	-10.6133
犆	-10.6134
主人辭	-10.6139
白虎通	-10.6139
户外	-10.614
與主人	-10.6148
固辭	-10.6153
岀	-10.6154
陷	-10.6159
寡君	-10.6162
靖	-10.6163
殺牲	-10.6163
謂王	-10.6163
熈	-10.6166
九州之	-10.6169
干戚	-10.6173
以詔	-10.6173
長也	-10.6179
珥	-10.6179
左還	-10.6179
褒	-10.6181
通用	-10.6184
舉旅	-10.6185
因以	-10.6188
百年	-10.6189
各掌其	-10.6193
一月	-10.6201
其財	-10.6211
皆無	-10.6216
陟	-10.6221
先升	-10.6221
重也	-10.6224
麻衣	-10.6224
厥明	-10.6228
陸氏	-10.6232
七尺	-10.6233
人倫	-10.6233
一篇	-10.6234
而食	-10.6234
無私	-10.6235
拜辱	-10.6237
虡	-10.6239
昧	-10.6239
軍事	-10.624
之律	-10.6241
方千里	-10.6244
也春秋傳曰	-10.6244
雁	-10.6245
對曰某	-10.6246
東北面	-10.6247
爪	-10.6249
陸氏佃曰	-10.6249
楚子	-10.6251
韭菹	-10.6256
絺	-10.6257
辦	-10.6263
剡	-10.6265
凶事	-10.6267
會同	-10.6267
曾孫	-10.6267
賓客之	-10.6268
降復位	-10.6268
三百六十	-10.6269
亦皆	-10.627
之爵	-10.6271
授受	-10.6272
張子曰	-10.6273
大明	-10.6275
屢	-10.6276
麛	-10.628
將幣	-10.6284
兼有	-10.6285
筵前	-10.6288
尊祖	-10.6289
其始	-10.629
鐵	-10.6298
者因	-10.6305
大功以上	-10.6306
配之	-10.6306
則從	-10.6307
瑱	-10.6307
大夫則	-10.6308
小者	-10.6308
諸父	-10.6309
攷之	-10.6311
宦	-10.6313
宗族	-10.6317
父母之	-10.6321
長殤	-10.6322
尊敬	-10.6326
祭宗廟	-10.633
虞夏	-10.6334
攸	-10.6335
孤子	-10.6336
伯叔	-10.6336
閤門	-10.6337
賈人	-10.6344
孝也	-10.6344
謂諸侯	-10.6348
稼穡	-10.635
於家	-10.635
天理	-10.6352
敕	-10.6352
管仲	-10.6354
三侯	-10.6354
秬鬯	-10.6355
駟	-10.6356
則不得	-10.6357
重言	-10.6364
素裳	-10.6369
敢不	-10.637
韶	-10.6373
先儒謂	-10.6374
之車	-10.6378
於前	-10.638
也者案	-10.6382
其利	-10.6385
車徒	-10.6386
親疏	-10.6388
洪武	-10.6392
笲	-10.6392
世祖	-10.6392
炭	-10.6392
圭璧	-10.6393
孝子之	-10.6394
祭則	-10.6404
八十一	-10.6406
朝廟	-10.6406
二尺二寸	-10.6408
雄	-10.6412
意也	-10.6412
以尊	-10.6414
久矣	-10.6421
毅	-10.6425
卒伍	-10.6426
衣也	-10.6429
可用	-10.643
有喪	-10.6432
七十二	-10.6432
勝者	-10.6437
酬賓	-10.6441
祭日	-10.6443
大都	-10.6443
辭洗	-10.6444
枲	-10.6446
所設	-10.6446
之徒	-10.6447
乃有	-10.6454
隂厭	-10.6459
閲	-10.6464
絞帶	-10.6465
居中	-10.6466
不同者	-10.6469
圗	-10.6471
匏	-10.6472
以享	-10.6477
大府	-10.6488
臣某	-10.6489
實以	-10.649
曽子問	-10.6491
的	-10.6492
則已	-10.6492
旁親	-10.6492
蜀	-10.6493
夷狄	-10.6494
縣鄙	-10.6494
清明	-10.6495
折俎	-10.6496
賁	-10.6499
知者	-10.6503
漢時	-10.6505
皇祖	-10.6507
所受	-10.6518
邦治	-10.6521
貉	-10.6521
五升	-10.6522
狼	-10.6527
二廟	-10.6529
則服	-10.6533
鳳	-10.6535
線	-10.6535
頸	-10.6538
耆老	-10.6539
凡此	-10.6542
義服	-10.6542
明年	-10.6544
玄端	-10.6544
朞	-10.6545
云天子	-10.6548
其常	-10.6549
之精	-10.655
倅	-10.6551
十六年	-10.6554
司常	-10.6555
醯醢	-10.6558
道徳	-10.6558
雖非	-10.656
墠	-10.6561
虞卒哭	-10.6561
胳	-10.6562
弣	-10.6569
至矣	-10.6571
右个	-10.6573
鐘鼓	-10.6574
百世	-10.658
下大夫二人	-10.6582
有節	-10.6583
中書	-10.6585
為民	-10.6586
䟽曰	-10.6587
虞祭	-10.659
沂	-10.659
漢志	-10.6592
上云	-10.6595
階西	-10.6595
太僕	-10.6597
加于	-10.6597
故於	-10.6599
諸侯以	-10.6603
出自	-10.6603
汙	-10.6604
上服	-10.6605
左執	-10.661
某氏	-10.6615
無正文	-10.6615
節文	-10.6616
詔相	-10.6616
無聲	-10.6617
為臣	-10.662
不得已	-10.6622
降洗	-10.6623
殷周	-10.6624
涗	-10.6625
菑	-10.6625
殳	-10.6625
暮	-10.6627
訪	-10.6628
之役	-10.6632
恐其	-10.6633
諸侯則	-10.6633
無數	-10.6635
晏子	-10.6635
亦未	-10.6638
用其	-10.6639
也是以	-10.6641
逢	-10.6643
㳺	-10.6643
其官	-10.6645
宫正	-10.6645
士虞	-10.6647
輕故	-10.6649
者尊	-10.6652
居其	-10.6653
射之	-10.6654
鈎	-10.6655
士則	-10.6658
異于	-10.6663
故此	-10.6666
又音	-10.667
以表	-10.667
為先	-10.6673
鄭司農	-10.6676
弭	-10.6679
正嵗	-10.668
齊人	-10.6686
番	-10.6687
之號	-10.6687
其廟	-10.6693
父在為母	-10.6695
首服	-10.6697
郊天	-10.6697
奏樂	-10.67
三代之	-10.6702
故能	-10.6706
穢	-10.6706
半徑	-10.6707
觴	-10.6708
帳	-10.6711
人有	-10.6712
禰廟	-10.6712
閱	-10.6713
佩玉	-10.6715
扑	-10.6715
是亦	-10.6716
席于	-10.6721
菹醢	-10.6721
不踰	-10.6724
致事	-10.6726
七分	-10.6728
小君	-10.6737
名為	-10.6737
以齒	-10.6737
東郊	-10.6739
慰	-10.6741
於義	-10.6742
治民	-10.6743
妻之	-10.6743
歸之	-10.6744
楬	-10.6745
紅	-10.6746
無有	-10.6751
下經	-10.6761
而服	-10.6769
乗馬	-10.6771
三酒	-10.6773
文不具	-10.6777
在地	-10.6777
其器	-10.6778
質明	-10.678
之位也	-10.6786
也古文	-10.6786
萑	-10.6787
在中	-10.6793
求其	-10.6794
也此言	-10.6797
于篚	-10.6797
亳	-10.6798
為異	-10.68
此三者	-10.6807
易以	-10.6815
之服也	-10.6817
第五	-10.682
耜	-10.6822
而不得	-10.6823
納采	-10.6823
五嶽	-10.6824
虎賁	-10.6825
蠲	-10.6829
下棺	-10.6832
大圭	-10.6833
姜氏	-10.6834
金奏	-10.6835
乃出	-10.6836
峻	-10.6841
弼	-10.6842
漁	-10.6842
推而	-10.6843
道藝	-10.6843
某甫	-10.6844
七曰	-10.6845
先師	-10.6846
甸師	-10.6849
故名	-10.6849
麟	-10.685
牷	-10.6851
頂	-10.6852
大祭	-10.6853
執其	-10.6862
齊衰以下	-10.6862
注正義曰	-10.6864
前一日	-10.6864
昆弟之	-10.6864
崔	-10.6866
泗	-10.6869
此等	-10.6873
蹙	-10.6873
于君	-10.6873
心之	-10.6876
五方	-10.6877
一員	-10.6877
之辭也	-10.6878
進士	-10.6883
季夏	-10.6883
滯	-10.6883
劒	-10.6886
故知此	-10.6887
聯	-10.6887
前期	-10.6889
洫	-10.6892
此即	-10.6893
六分	-10.6896
是非	-10.69
冬夏	-10.6901
赤道	-10.6902
簟	-10.6904
禭	-10.6908
凡言	-10.6909
拒	-10.6909
膾	-10.6911
憑	-10.6912
筮尸	-10.6913
者見	-10.6913
趣	-10.6915
立春	-10.6915
梓人	-10.6918
玩	-10.6921
阼階上	-10.6923
於南郊	-10.6924
西階東	-10.6927
户西	-10.6929
但以	-10.6933
爵禄	-10.6938
尊賢	-10.6938
大戴禮	-10.6938
簿	-10.6942
何得	-10.6942
撻	-10.6943
中間	-10.6945
反徐	-10.6946
董	-10.6946
適婦	-10.6946
何休	-10.6949
諾	-10.6949
禮成	-10.695
省文	-10.695
无	-10.6952
天命	-10.6954
所陳	-10.6956
縣師	-10.6959
楣	-10.6961
盜賊	-10.6961
三重	-10.6962
撥	-10.6964
而設	-10.6967
降於	-10.6967
之期	-10.6967
於周	-10.6968
遷廟	-10.6969
滕	-10.697
愚案	-10.6971
瞽宗	-10.6974
布帛	-10.6977
也或曰	-10.6978
施之	-10.698
鼈	-10.6983
成於	-10.6985
故不言	-10.6987
王父	-10.6988
想	-10.6988
彰	-10.6988
菲	-10.6989
不告	-10.6989
賓介	-10.6989
墻	-10.6991
此不言	-10.6992
東夾	-10.6992
曰此	-10.6992
卓	-10.6993
皆降	-10.6998
器物	-10.6999
不聞	-10.6999
4	-10.7
欲以	-10.7
昆	-10.7001
州里	-10.7007
玉藻云	-10.7012
户内	-10.7015
教國子	-10.7017
哭泣	-10.7019
官府之	-10.702
詩書	-10.702
在官	-10.7021
為首	-10.7021
有德	-10.7024
孤卿大夫	-10.7025
者舉	-10.7026
帯	-10.7033
吉日	-10.7043
是日	-10.7045
在天	-10.7045
除服	-10.7046
迎牲	-10.7046
瑕	-10.7046
進也	-10.7046
5	-10.7047
膺	-10.7049
鏃	-10.705
延平周氏曰	-10.705
鬼神之	-10.7051
㝠	-10.7051
皆非	-10.7051
篋	-10.7054
有竒	-10.7055
儲	-10.7066
本無	-10.7069
佑	-10.7074
存乎	-10.708
惟有	-10.7084
庶幾	-10.7084
皆與	-10.7084
比於	-10.7085
其能	-10.7085
罕	-10.7087
特豚	-10.7088
祭于	-10.7093
水之	-10.7093
江氏永曰	-10.7094
所治	-10.7094
概	-10.7096
儀注	-10.7102
言之者	-10.7102
凡有	-10.7105
仁宗	-10.7109
伯禽	-10.7111
坐奠	-10.7112
職掌	-10.7113
梓	-10.7113
祭天地	-10.712
中殤	-10.7125
執燭	-10.7125
之以為	-10.7126
不動	-10.7127
于下	-10.7127
喪之	-10.7129
瓉	-10.713
緇布	-10.713
哭於	-10.7137
姆	-10.7137
二十九	-10.7145
于房	-10.7148
其祭	-10.7148
㫁	-10.7152
冶	-10.7154
五穀	-10.7162
既夕	-10.7162
設洗	-10.7163
是月	-10.7166
宿衛	-10.7167
狎	-10.7167
置之	-10.7172
蕤	-10.7175
葵	-10.7176
之時也	-10.7177
也繼公謂	-10.7178
司市	-10.7179
相連	-10.7179
腰	-10.718
授尸	-10.7182
相親	-10.7184
盛徳	-10.7185
扈	-10.7191
今時	-10.7192
不齒	-10.7193
於身	-10.7193
幣帛	-10.7194
非有	-10.7195
者唯	-10.7199
先公	-10.72
製	-10.72
而升	-10.7201
合之	-10.7202
之數也	-10.7204
其生	-10.7204
西北面	-10.7205
百五十	-10.7205
自古	-10.7208
醢人	-10.7208
是之謂	-10.7209
恃	-10.7211
巨	-10.7212
擅	-10.7213
閏月	-10.7214
三百里	-10.7215
膴	-10.7223
其德	-10.7226
祇	-10.7227
各得其	-10.7229
服大功	-10.7229
惜	-10.7232
憚	-10.7235
與天地	-10.7237
者證	-10.7242
夙興	-10.7245
都邑	-10.7248
合祭	-10.7257
爻	-10.726
於祖	-10.7261
視學	-10.7262
三軍	-10.7271
廢置	-10.7278
寢廟	-10.728
以立	-10.7281
徒二十人	-10.7282
綃	-10.7286
昊天	-10.7287
繶	-10.7289
甚矣	-10.7292
卒爵拜	-10.7293
今人	-10.7294
喪冠	-10.7297
安也	-10.7297
賜予	-10.7299
嚳	-10.7301
設官	-10.7301
名官	-10.7304
長㓜	-10.7305
其在	-10.7306
成公	-10.7307
周旋	-10.7309
牛羊	-10.7313
大歛	-10.7314
來弔	-10.7319
玄謂	-10.7319
相變	-10.7321
其理	-10.7322
此説	-10.7323
于外	-10.7324
禮書	-10.7333
君母	-10.7333
必使	-10.7333
公食大夫禮	-10.7337
重於	-10.7337
嬰	-10.734
昊天上帝	-10.7342
賞罰	-10.7343
互文	-10.7349
飾以	-10.735
訖乃	-10.7353
祭者	-10.7354
羔裘	-10.7354
后夫人	-10.7354
懲	-10.7356
為陽	-10.7359
賴	-10.736
矣夫	-10.7362
偏東	-10.7363
覽	-10.7365
袖	-10.7365
而自	-10.7367
扉	-10.7367
郊廟	-10.7367
左个	-10.7374
亦名	-10.7374
八曰	-10.7374
羣官	-10.7376
堵	-10.738
于郊	-10.738
其序	-10.7383
婦人之	-10.7385
亟	-10.7386
一廟	-10.7387
於神	-10.7389
侍郎	-10.7393
教以	-10.7394
公主	-10.7398
天子乃	-10.74
君賜	-10.74
鑒	-10.7402
乃云	-10.7404
刑之	-10.7405
治兵	-10.7406
門人	-10.7408
吕氏	-10.7411
悲哀	-10.7411
不諱	-10.7413
小聘	-10.7416
月之	-10.7417
致仕	-10.7419
𤓰	-10.7425
裕	-10.7431
清酒	-10.7432
本也	-10.7433
適人	-10.7442
雲氣	-10.7444
左執爵	-10.7444
縓	-10.7448
承重	-10.7448
終也	-10.745
以觀	-10.745
服緦	-10.7453
之遺	-10.7453
隷	-10.7465
妻子	-10.7467
偏西	-10.7468
潘	-10.7469
以辨	-10.7474
之本也	-10.7476
也敖氏繼公曰	-10.7477
於後	-10.7479
内子	-10.748
民數	-10.7481
即位于	-10.7484
王子	-10.7489
雀	-10.7489
詛	-10.7491
所以别	-10.7491
妹	-10.7492
西東面	-10.7492
來者	-10.7495
合諸侯	-10.7499
太簇	-10.7501
之俎	-10.7502
本亦作	-10.7503
桀	-10.7508
簧	-10.7509
升自	-10.751
澡	-10.7511
不厭	-10.7511
之首	-10.7514
成禮	-10.7515
獻酬	-10.7516
中大夫	-10.7519
五味	-10.7519
於堂上	-10.7522
大胥	-10.7523
如常	-10.7524
告朔	-10.7527
不同也	-10.753
陋	-10.7534
王城	-10.7538
渾	-10.7539
貺	-10.7544
命龜	-10.7547
甿	-10.7549
讀書	-10.7553
大雅	-10.7555
與祭	-10.7558
俠	-10.7559
姪娣	-10.756
獻賔	-10.7561
陳氏禮書	-10.7563
習射	-10.7564
性之	-10.7566
以入	-10.7572
之義故	-10.7573
兩頭	-10.7576
公侯伯子男	-10.7578
聲之誤也	-10.7579
於賓	-10.7582
故引	-10.7587
廣大	-10.7588
正寢	-10.7588
櫜	-10.7591
西鄉	-10.7591
五星	-10.7596
凍	-10.7597
笴	-10.76
焉此	-10.7602
異矣	-10.7609
廢疾	-10.7612
神座	-10.7615
房户	-10.7617
内府	-10.7622
昏姻	-10.7624
靈座	-10.7631
不設	-10.7632
可見矣	-10.7632
冦	-10.7635
畿外	-10.7636
外命婦	-10.764
衆兄弟	-10.7641
非所以	-10.7641
諸王	-10.7643
傍	-10.7644
誅賞	-10.7646
而降	-10.7646
从	-10.7648
則為之	-10.7649
下堂	-10.7649
駁	-10.765
矣故曰	-10.765
為文	-10.7651
唐書	-10.7652
二十一	-10.7653
閾	-10.7653
為諸侯	-10.7657
也今文	-10.7657
無疑	-10.7658
凶禮	-10.7658
上卿	-10.7659
鱗	-10.7659
霜	-10.7663
於鬼神	-10.7664
雉門	-10.7665
肂	-10.767
異故	-10.7671
度數	-10.7679
胖	-10.7679
哀戚	-10.7679
輤	-10.7681
封禪	-10.7682
三加	-10.7683
相因	-10.7684
本末	-10.769
鉦	-10.769
嗣子	-10.7693
之序也	-10.7693
王制云	-10.7694
泣	-10.7696
北堂	-10.7697
也婦人	-10.7698
鞶	-10.7698
於物	-10.7699
與此同	-10.7699
治天下	-10.7699
惡之	-10.7703
疑衰	-10.7704
遺人	-10.7705
衿	-10.7705
曾子問	-10.7705
之以禮	-10.7711
准	-10.7711
旐	-10.7712
昴	-10.7712
血氣	-10.7712
得失	-10.7712
以定	-10.7714
鞠	-10.7718
商祝	-10.7719
以敬	-10.7719
生子	-10.7719
于俎	-10.7723
寇	-10.7723
治國	-10.7723
顧命	-10.7727
大蔟	-10.773
則雖	-10.7732
所共	-10.7743
器用	-10.7745
故使	-10.7747
宏	-10.7749
無節	-10.7751
西階上北面	-10.7753
自酢	-10.7753
攘	-10.7755
物皆	-10.7755
降殺	-10.7756
盞	-10.7764
驂	-10.7764
功徳	-10.7768
十升	-10.7773
是知	-10.7773
涉	-10.7773
棗栗	-10.7774
以給	-10.7776
公食	-10.7777
之可也	-10.7779
其牲	-10.7779
大羮	-10.7781
虞祔	-10.7782
其容	-10.7787
東壁	-10.779
主人受	-10.779
卒哭而	-10.7791
所食	-10.7792
遏	-10.7795
壬	-10.7796
衰絰	-10.7798
國人	-10.7799
淑	-10.78
縵	-10.7801
尋常	-10.7801
賔介	-10.7802
紕	-10.7804
西夾	-10.7805
曽子問曰	-10.7807
王事	-10.7807
中士二人	-10.7808
朝士	-10.7809
蒸	-10.7814
大射正	-10.7816
無廟	-10.7817
不齊	-10.7818
於寢	-10.7823
神位前	-10.7825
釋服	-10.7828
甲子	-10.7828
而葬	-10.7829
王國	-10.7829
姓名	-10.783
燕寢	-10.783
記之	-10.7831
沿	-10.7831
仲夏	-10.7833
不致	-10.7835
治朝	-10.7835
既祭	-10.7838
挈	-10.7843
三十二	-10.7845
九章	-10.7845
子婦	-10.7845
著其	-10.7845
釋弓	-10.7848
其爵	-10.7848
而天下	-10.7849
矣若	-10.7852
之時則	-10.7853
環絰	-10.7854
司馬法	-10.7855
國之君	-10.7856
闢	-10.7862
薌	-10.7863
今從	-10.7864
疏謂	-10.7868
抽	-10.7869
婦人不	-10.787
近臣	-10.7874
所引	-10.7876
臣也	-10.7877
促	-10.7883
筆	-10.7888
臆	-10.7889
二百里	-10.7892
劑	-10.7897
▁同上	-10.7898
樂舞	-10.7902
把	-10.7902
各一人	-10.7906
羙	-10.7907
在家	-10.7909
課	-10.791
亦必	-10.7913
然其	-10.7913
報反	-10.7914
四瀆	-10.7918
五服之	-10.7919
於主人	-10.7925
此意	-10.7925
祈榖	-10.7926
土為	-10.7927
壅	-10.7927
曰寡君	-10.7929
為名	-10.7932
白布	-10.7933
此條	-10.7935
服小功	-10.7936
𫝊曰	-10.7937
賓禮	-10.7938
特言	-10.7938
何所	-10.7939
辠	-10.7941
正體	-10.7942
嘆	-10.7944
為尊	-10.7945
又其外	-10.7946
媵爵	-10.7948
田役	-10.795
此明	-10.795
大夫禮	-10.7951
揖之	-10.7952
祔祭	-10.7954
同時	-10.7955
其事也	-10.7955
玉人	-10.7956
灂	-10.7958
綪	-10.7958
乳	-10.7962
少南	-10.7965
改正	-10.7969
既夕禮	-10.797
射也	-10.7971
量人	-10.7972
掃	-10.7972
鄧	-10.7974
聘問	-10.7977
下言	-10.7988
常禮	-10.7988
衣之	-10.799
朝諸侯	-10.799
紹興	-10.7994
邦之	-10.7994
隙	-10.7995
侮	-10.7995
黜	-10.7996
二千五百	-10.7997
藍田吕氏曰	-10.7997
腎	-10.7998
毳	-10.7998
則天子	-10.7999
典命	-10.8
以仁	-10.8003
東靣	-10.8005
右還	-10.8006
所乗	-10.8007
以致其	-10.8007
薦新	-10.801
乃退	-10.8011
禮賓	-10.8011
狀如	-10.8012
去國	-10.8015
所以養	-10.8017
律吕	-10.802
柷	-10.8022
蹈	-10.8024
藉田	-10.8024
眀堂	-10.8025
鐘磬	-10.8028
北首	-10.803
之祀	-10.8031
皇氏云	-10.8032
有差	-10.8033
糝	-10.8035
九獻	-10.8035
盥手	-10.8036
所自出	-10.8037
迎賔	-10.8038
兼用	-10.804
劣	-10.804
文書	-10.8042
内宗	-10.8043
雖然	-10.8043
先王之制	-10.8043
鄭氏以	-10.8045
衛侯	-10.8047
攝主	-10.8047
無爵	-10.8051
車也	-10.8057
為其母	-10.8061
豚解	-10.8062
聞喪	-10.8062
杠	-10.8065
渉	-10.8065
仲冬	-10.8066
擁	-10.8067
天子之禮	-10.8069
十七年	-10.8073
於心	-10.8074
雜記曰	-10.8074
賓射	-10.808
大次	-10.8081
大戴	-10.8081
胡氏	-10.8082
三者皆	-10.8082
夏之	-10.8082
大樂正	-10.8085
退而	-10.8088
命有司	-10.8089
之明日	-10.809
著於	-10.809
士䘮禮	-10.809
簞	-10.8092
為期	-10.8092
為士	-10.8093
以此為	-10.8096
為己	-10.8097
適人者	-10.8098
六鄉之	-10.8102
談	-10.8107
又無	-10.8111
象路	-10.8114
餌	-10.8115
愆	-10.8115
嚌之	-10.8116
者何也	-10.8118
𤣥纁	-10.8119
之室	-10.8119
事神	-10.8121
尚質	-10.8122
燕則	-10.8124
側室	-10.8124
舊說	-10.8124
臣禮	-10.8124
者嫌	-10.8128
獻祝	-10.813
筍	-10.8131
吴	-10.8132
都家	-10.8133
輙	-10.8135
鳯	-10.8138
膝	-10.814
革路	-10.8142
有序	-10.8144
司命	-10.8147
武舞	-10.8152
族師	-10.8155
鏤	-10.816
看	-10.8161
吉時	-10.8162
稻粱	-10.8164
鄭司農曰	-10.8165
田野	-10.817
北面西上	-10.8171
為敬	-10.8172
繼之	-10.8172
用幣	-10.8172
虐	-10.8174
宗廟之祭	-10.8178
禮事	-10.8179
燧	-10.818
繼禰	-10.8181
特牲禮	-10.8181
琢	-10.8183
獮	-10.8185
宣公	-10.8188
服其服	-10.8189
此二者	-10.8191
公館	-10.8192
之所由	-10.8196
小功緦麻	-10.8197
朽	-10.8202
百神	-10.8204
不顧	-10.8208
影	-10.8209
皇皇	-10.8211
凡祭	-10.8211
六宗	-10.8211
家臣	-10.8215
升數	-10.8216
祝祝	-10.8218
卜人	-10.8221
告事畢	-10.8226
服齊衰	-10.8226
饒	-10.8227
金玉	-10.8229
釋曰案	-10.8231
為兄弟	-10.8231
而居	-10.8232
適堂西	-10.8233
於壇	-10.8246
召公	-10.8247
不取	-10.8249
正脊	-10.825
亦從	-10.8251
同義	-10.8252
竅	-10.8253
職方	-10.8255
也又云	-10.8255
九貢	-10.8257
以應	-10.8261
大武	-10.8266
祁	-10.8269
也注正義曰	-10.8269
六律	-10.827
所建	-10.8272
交錯	-10.8272
刑殺	-10.8273
萃	-10.8273
致館	-10.8275
主祭	-10.8278
王季	-10.8278
侯道	-10.8281
五室	-10.8282
玉藻曰	-10.8284
烝嘗	-10.8284
所取	-10.8286
釋獲	-10.8287
七十里	-10.8287
曽子曰	-10.8291
有過	-10.8297
讀祝	-10.8298
徹之	-10.8302
所司	-10.8303
親廟	-10.8305
等皆	-10.8305
舉鼎	-10.8306
王者之	-10.8307
祔廟	-10.8308
過於	-10.8309
下篇	-10.831
革帶	-10.8315
欒	-10.8315
賤也	-10.8316
糞	-10.8316
又引	-10.8318
世宗	-10.8321
玉爵	-10.8322
綌	-10.8325
其質	-10.8327
兄弟之子	-10.8327
享之	-10.8332
蠱	-10.8335
要之	-10.8335
欲見	-10.8335
其首	-10.8339
九尺	-10.834
如是則	-10.8341
就席	-10.8342
以報	-10.8343
一刻	-10.8346
下管	-10.8347
成均	-10.8353
精神	-10.8356
黄鐘	-10.8359
巻	-10.8369
袒免	-10.8372
辨之	-10.8373
日月之	-10.8378
上聲	-10.8379
圜土	-10.8382
曰子	-10.8383
府史	-10.8386
來聘	-10.8387
之材	-10.8387
君尊	-10.8387
於西階上	-10.8388
干戈	-10.8393
相承	-10.8395
皷	-10.8398
川澤	-10.8402
士服	-10.8405
行列	-10.8406
酌者	-10.8408
冬十月	-10.8409
襦	-10.8413
之朝	-10.8416
兩手	-10.8416
蠃	-10.8417
胃	-10.8418
襢	-10.8418
嗇	-10.8424
賜爵	-10.8425
乾肉	-10.8425
少牢饋食禮	-10.8429
北向立	-10.843
貞觀	-10.8431
於父母	-10.8432
日出	-10.8434
詠	-10.8436
為善	-10.8436
土圭	-10.8438
臣等	-10.8439
祚	-10.8439
輩	-10.8439
病也	-10.8441
丘陵	-10.8442
六藝	-10.8444
此論	-10.8446
不辭	-10.8447
無尸	-10.8447
配以	-10.8449
爵弁服	-10.8454
仲子	-10.8454
歠	-10.8457
小史	-10.8458
墜	-10.846
祀典	-10.8462
六畜	-10.8462
祭祀則	-10.8462
簭	-10.8467
一句	-10.8479
定制	-10.8481
禀	-10.8481
小祝	-10.8481
凌	-10.8482
之衣	-10.8483
加席	-10.8484
刺史	-10.8487
歸于	-10.8489
十有一	-10.849
葬者	-10.849
武子	-10.8491
飧	-10.8491
地祗	-10.8497
形如	-10.85
先王制禮	-10.8502
今按	-10.8506
庖	-10.8508
排	-10.8509
之所生	-10.8509
以下至	-10.8512
踵	-10.8512
既𦵏	-10.8517
略之	-10.8517
神靈	-10.8518
茶	-10.8519
之辨	-10.8519
其末	-10.852
卿士	-10.8522
而起	-10.8526
百四十	-10.8527
賙	-10.8528
涕	-10.853
神宗	-10.8533
引之者證	-10.8533
銖	-10.8534
魯公	-10.8534
者以此	-10.8538
厨	-10.8539
莫能	-10.854
需	-10.854
加冠	-10.854
其右	-10.8541
太公	-10.8549
而弔	-10.8549
羶	-10.855
如前	-10.8551
必待	-10.8551
致齊	-10.8552
熊氏云	-10.8555
軾	-10.8556
所以教	-10.8556
子張	-10.856
宛	-10.8564
母妻	-10.8565
不失其	-10.8568
從上	-10.8571
四百里	-10.8571
諸侯大夫	-10.8572
則得	-10.8572
齊車	-10.8576
兼言	-10.8577
羡	-10.8579
竇	-10.8579
弇	-10.858
牖下	-10.8582
宁	-10.8583
從君	-10.8584
請事	-10.8585
矣今	-10.8585
祭祀賔客	-10.8585
共王	-10.8586
餞	-10.8588
三虞	-10.859
心喪	-10.8593
皆曰	-10.8594
禮云	-10.8595
不離	-10.8597
黄氏	-10.8597
汚	-10.86
莭	-10.8601
鑑	-10.8601
始有	-10.8602
寸半	-10.8604
誕	-10.8605
楹間	-10.8605
葛絰	-10.8606
幦	-10.8607
縞冠	-10.8608
可得	-10.8608
之例	-10.8608
王后之	-10.8611
或爲	-10.8613
奠者	-10.8615
賔升	-10.8619
朔月	-10.862
則君	-10.8625
炮	-10.8626
所立	-10.8627
參之	-10.8627
脤	-10.8627
刪	-10.8629
問曰	-10.863
得用	-10.8632
四者	-10.8634
先帝	-10.8637
亡者	-10.8638
杜氏	-10.8639
王公	-10.8642
不坐	-10.8642
詩言	-10.8645
清濁	-10.865
㠯	-10.8652
者多	-10.8653
纎	-10.8653
夏四月	-10.8655
御座	-10.8656
稾	-10.8658
孔氏穎逹曰	-10.8658
匜	-10.8658
巡狩	-10.8659
致敬	-10.866
内有	-10.8668
今云	-10.8669
穫	-10.8671
不得為	-10.8671
降拜	-10.8673
蒯	-10.8674
不殊	-10.8676
顛	-10.8677
甬	-10.8679
於左	-10.8681
瞽矇	-10.8682
饎	-10.8682
下士四人	-10.8687
成功	-10.8689
改元	-10.8689
戍	-10.8695
之絰	-10.8695
其南	-10.8696
則易	-10.8699
從夫	-10.8701
既得	-10.8702
因之	-10.8705
腴	-10.8707
王制曰	-10.8712
歴代	-10.8713
祭祀共	-10.8716
之所在	-10.8719
踈	-10.8721
不得以	-10.8722
舉哀	-10.8723
僻	-10.8724
承天	-10.8727
形體	-10.8727
妥	-10.8728
禱祠	-10.8729
諸侯之禮	-10.8733
西北隅	-10.8738
饌于	-10.8739
存者	-10.8741
涖卜	-10.8743
無事則	-10.8744
漢儒	-10.8748
既畢	-10.8749
樞	-10.8753
設奠	-10.8753
註疏	-10.8755
卑故	-10.8756
鷩冕	-10.8757
就次	-10.8758
二十六	-10.876
所以然者	-10.8761
善者	-10.8763
也山隂陸氏曰	-10.8764
無足	-10.8765
治也	-10.877
鄕	-10.8772
將出	-10.8775
前驅	-10.8777
也方氏慤曰	-10.8779
一夫	-10.8781
又加	-10.8781
廡	-10.8783
僎	-10.8787
繚	-10.8788
枉	-10.8794
五行之	-10.8794
不升	-10.8798
字從	-10.8802
雍人	-10.8803
能盡	-10.8804
接神	-10.8806
衣冠	-10.8812
二十三	-10.8812
恨	-10.8814
皆坐	-10.8815
於阼階	-10.8815
不杖期	-10.8817
享先王	-10.8818
九式	-10.8823
謙也	-10.8823
壘	-10.8827
不踊	-10.8827
執觶	-10.8827
束錦	-10.8829
生物	-10.8829
主人答拜	-10.884
艱	-10.8842
乃降	-10.8844
陂	-10.8845
偕	-10.8846
潁	-10.8848
升成拜	-10.8855
戈盾	-10.8856
大火	-10.8859
山虞	-10.8864
掌王之	-10.8865
山林川澤	-10.8867
未安	-10.8867
豪	-10.8868
三十里	-10.8869
泄	-10.887
則宜	-10.8872
多故	-10.8874
銜	-10.8874
天子諸侯之	-10.8874
勞者	-10.8875
異居	-10.8876
五兵	-10.8877
醓醢	-10.8879
作主	-10.8883
孟夏	-10.8885
揉	-10.8888
尸飲	-10.8893
偪	-10.8894
於俎	-10.8895
降出	-10.8897
皋	-10.8899
㸑	-10.89
止于	-10.8903
失之矣	-10.8905
太常寺	-10.891
三刻	-10.8912
一拜	-10.8914
未見	-10.8917
不獨	-10.8919
倍之	-10.892
愷	-10.892
師田	-10.8921
濶	-10.8921
說文	-10.8922
二十五月	-10.8925
杜預	-10.8927
退復位	-10.8927
兖	-10.8928
鬛	-10.893
爲主	-10.893
牛羊豕	-10.8932
四十八	-10.8932
貢賦	-10.8935
士卑	-10.8936
盗	-10.894
先君之	-10.8943
耗	-10.8943
所以示	-10.8945
大夫以下	-10.8945
什一	-10.8949
大社	-10.8951
之論	-10.8952
自此至	-10.8952
他日	-10.8953
振旅	-10.8953
崔氏	-10.8953
其尊	-10.8958
珍異	-10.896
曰請	-10.896
手足	-10.896
莫之	-10.8962
䖏	-10.8967
彦	-10.8968
而易	-10.8969
蛇	-10.8969
鬻	-10.897
大寢	-10.8975
斝	-10.8975
為父母	-10.8976
四代	-10.8981
萬夫	-10.8981
字之誤也	-10.8984
當然	-10.8985
實爵	-10.8985
為角	-10.8986
一切	-10.8986
仕者	-10.8991
箴	-10.8995
皆北面	-10.8999
終獻	-10.9
爾雅云	-10.9003
朝位	-10.9005
有天下	-10.9006
外祖父母	-10.9007
書於	-10.901
亦猶	-10.9014
丈八尺	-10.9017
可行	-10.9018
庭中	-10.9019
印	-10.9024
斜	-10.9027
主于	-10.9027
大卜	-10.9027
分之	-10.9028
磬折	-10.9034
無算	-10.9037
所養	-10.904
辜	-10.9043
後漢	-10.9043
塋	-10.9043
室老	-10.9044
煖	-10.9045
主人出	-10.9048
眡其	-10.905
先設	-10.905
也右	-10.9051
皆由	-10.9052
使知	-10.9052
私親	-10.9054
以證	-10.9055
繼祖	-10.9056
及葬	-10.9059
尸俎	-10.906
不得不	-10.9067
範	-10.9069
古制	-10.907
凱	-10.9072
像	-10.9073
西房	-10.9074
而東	-10.9078
之象也	-10.9079
求神	-10.9081
而實	-10.9084
穆公	-10.9088
夫禮	-10.9092
騐	-10.9095
大夫有	-10.9097
暨	-10.9099
塟	-10.9107
脚	-10.9107
孝孫	-10.911
當室	-10.911
丁亥	-10.9111
抵	-10.9114
畆	-10.9118
凡邦之	-10.9118
合葬	-10.9118
䋫	-10.9123
重席	-10.9125
㑹計	-10.9129
宗廟社稷	-10.9129
四豆	-10.9131
無定	-10.9133
於明堂	-10.9136
所以尊	-10.9136
数	-10.9138
迎賓	-10.9139
佚	-10.9141
相合	-10.9144
不聽	-10.9148
躋	-10.915
逺矣	-10.915
不可得而	-10.915
郊特牲曰	-10.9153
不毁	-10.9154
衫	-10.9156
致禮	-10.916
三十年	-10.9162
小樂正	-10.9163
繕	-10.9164
故雖	-10.9164
傳命	-10.9165
馭夫	-10.9167
貴貴	-10.9168
掌次	-10.9169
笥	-10.9171
紟	-10.9173
肇	-10.9174
姒	-10.9176
稱子	-10.9177
其方	-10.9179
後言	-10.918
在庭	-10.9182
逺者	-10.9184
賓升	-10.9189
五度	-10.9189
活	-10.9192
中和	-10.9193
廟見	-10.9193
尺四寸	-10.9194
席末	-10.9195
碩	-10.9197
吕氏大臨曰	-10.9199
故不得	-10.9201
㮚	-10.9201
責之	-10.9203
僞	-10.921
馬融	-10.9212
所知	-10.9213
阼階東	-10.9215
降神	-10.9218
山陵	-10.9219
可疑	-10.9225
親戚	-10.9225
功布	-10.9226
令奏	-10.9227
縢	-10.9227
之式	-10.9227
死生	-10.9229
制服	-10.9234
鬱人	-10.9234
牧人	-10.9234
或用	-10.9237
也按	-10.9241
禮賔	-10.9242
之語	-10.9242
也注釋曰云	-10.9243
戲	-10.9246
嵗終則	-10.9246
醜	-10.9246
之制也	-10.9247
帟	-10.9248
陔	-10.9252
表裏	-10.9257
變服	-10.9258
不至於	-10.926
不著	-10.9261
以至於	-10.9261
得民	-10.9265
受獻	-10.9265
正直	-10.9271
夏正	-10.9274
用樂	-10.9276
將行	-10.9277
任之	-10.9277
虎豹	-10.9278
公侯伯	-10.9281
以承	-10.9283
平生	-10.9283
本國	-10.9288
何必	-10.929
始封	-10.9291
三拜	-10.9296
鯀	-10.9298
私臣	-10.9301
燕食	-10.9302
磔	-10.9302
皆如初	-10.9303
爲君	-10.9307
南靣	-10.9311
司几筵	-10.9311
先拜	-10.9313
而南	-10.9313
定公	-10.9316
主人升	-10.9321
所記	-10.9322
兎	-10.9323
揖入	-10.9323
為主故	-10.9325
孺子	-10.9337
為士者	-10.9337
百八十	-10.934
九升	-10.9343
于豆	-10.9351
奈何	-10.9353
屬焉	-10.9353
肅拜	-10.9363
下室	-10.9363
教者	-10.9367
也王氏曰	-10.9368
叛	-10.9368
前文	-10.9369
臣召南	-10.9375
炊	-10.9377
寢門	-10.9379
䝉	-10.9379
之麻	-10.9379
存異	-10.9381
旨	-10.9384
地氣	-10.9388
圈	-10.939
褘衣	-10.9391
嬪婦	-10.9392
朝覲㑹同	-10.9406
改服	-10.9407
賈公彦	-10.9408
旗物	-10.9408
公有司	-10.9411
蕃國	-10.9413
其夫	-10.9414
星在	-10.9415
羽籥	-10.9419
成文	-10.942
媒	-10.942
立定	-10.9422
殖	-10.9425
汎	-10.9429
燕朝	-10.943
親疎	-10.9431
將有	-10.9431
反又音	-10.9434
掌其政令	-10.9436
非時	-10.9437
諸侯之大夫	-10.9439
棺椁	-10.944
十八年	-10.9441
二祧	-10.9443
二者皆	-10.9447
前代	-10.9449
發於	-10.945
不仁	-10.9453
廬陵胡氏曰	-10.9454
無罪	-10.9454
四百	-10.9458
姑姊妹女子子	-10.9459
前導	-10.946
升就席	-10.9461
者是也	-10.9464
自然之	-10.9464
刑禁	-10.9465
遭喪	-10.947
親盡	-10.947
其北	-10.947
為其父母	-10.9476
農事	-10.9477
各隨	-10.9478
府四人	-10.9479
耒	-10.9479
竁	-10.948
姻	-10.948
豐年	-10.9481
丈二尺	-10.9482
𤣥孫	-10.9484
其書	-10.9486
閽人	-10.9488
鄉黨	-10.9489
能知	-10.9492
祭事	-10.9494
贏	-10.9502
方丘	-10.9502
汪	-10.9504
惟其	-10.9506
異耳	-10.951
有定	-10.9516
聘義	-10.9516
尸柩	-10.9517
一升	-10.9518
犧尊	-10.9518
三品	-10.952
二采	-10.9523
擇日	-10.9531
丈夫婦人	-10.9531
在路	-10.9533
苫	-10.9533
掖	-10.9536
貎	-10.9537
康王	-10.9544
遣官	-10.9552
亮反	-10.9552
終喪	-10.9554
周書	-10.9558
之大小	-10.9558
嗚呼	-10.9561
明此	-10.9561
不能自	-10.9562
牲用	-10.9562
辨正	-10.9562
杼	-10.9562
次引	-10.9563
從王	-10.9563
三終	-10.9565
婚	-10.9565
裨	-10.9566
階前	-10.9573
鄉射記	-10.9574
農夫	-10.9574
五代	-10.9577
士昏禮	-10.9579
二伯	-10.9579
袒決遂	-10.9583
榭	-10.9584
叔向	-10.9584
榆	-10.9585
貯	-10.9585
噫	-10.9586
萬國	-10.9586
一个	-10.9586
天文	-10.9586
之祭也	-10.9586
旣葬	-10.9587
之事云	-10.9588
頍	-10.9588
檐	-10.9588
故聖人	-10.9591
不異	-10.9598
要服	-10.9599
耻	-10.9603
一定	-10.9609
也孔子曰	-10.9611
采蘋	-10.9614
珪	-10.9614
小祭祀	-10.9616
制作	-10.9631
五等諸侯	-10.9634
禮之大	-10.9639
不順	-10.9639
扆	-10.9639
趾	-10.964
南陳	-10.9642
遷之	-10.9643
扄	-10.9643
殷祭	-10.9644
復命	-10.965
習禮	-10.9654
耳若	-10.9657
降等	-10.9657
之長殤	-10.9658
嚌肺	-10.966
袁	-10.966
於墓	-10.966
方澤	-10.9662
五路	-10.9664
日至	-10.9665
之類也	-10.9667
樊	-10.9667
司民	-10.9667
宋公	-10.9668
凡國之	-10.9672
二丈	-10.9672
易服	-10.9672
青陽	-10.9681
無别	-10.9682
也澄曰	-10.9683
長安	-10.9688
司裘	-10.9692
灾	-10.9693
服斬衰	-10.9693
繹祭	-10.9693
議曰	-10.9695
離肺	-10.9695
菽	-10.9697
乃升	-10.9699
必自	-10.9699
之婦	-10.9706
在其中	-10.9707
妖	-10.9712
九卿	-10.9713
豻	-10.9715
涼	-10.9717
士喪	-10.9717
視朔	-10.972
謨	-10.9723
七祀	-10.9724
水出	-10.9726
某官	-10.9726
也若夫	-10.9728
彼注云	-10.9731
其材	-10.9735
連言	-10.9736
為證	-10.9739
君臣之義	-10.9741
中氣	-10.9741
殿上	-10.9742
從事	-10.975
酺	-10.9751
頓首	-10.9759
酌奠	-10.976
於祖廟	-10.9761
一章	-10.9768
孝宗	-10.9773
祭薦	-10.9774
眉	-10.9776
變除	-10.9785
爾雅釋	-10.9791
御僕	-10.9793
苛	-10.9793
七人	-10.9797
不敢與	-10.9797
無飾	-10.9797
若干	-10.9799
蘭	-10.9803
特牲饋食禮	-10.9806
簾	-10.9813
不書	-10.9813
相當	-10.9814
辨其物	-10.9815
旅食	-10.9816
也詩曰	-10.9818
縣北	-10.9819
朝天子	-10.9819
蓼	-10.9822
尚有	-10.9823
柞	-10.9824
拜至	-10.9829
赫	-10.9831
東榮	-10.9831
花	-10.9833
二十二	-10.9833
用力	-10.9835
肉袒	-10.9835
醋	-10.9839
償	-10.9849
不能無	-10.9853
不定	-10.9855
之權	-10.9856
覜	-10.9856
無復	-10.9858
齊衰期	-10.986
其失	-10.986
閭師	-10.9861
改葬	-10.9861
祝文	-10.9862
揄	-10.9864
河東	-10.987
𤣥衣	-10.9872
所好	-10.9875
浩	-10.9877
木路	-10.9878
小寢	-10.9879
何謂	-10.9887
溪	-10.9887
肵	-10.989
所藏	-10.9892
耳非	-10.9893
周知	-10.9893
尸答拜	-10.9894
肩臂臑	-10.9894
蕤賓	-10.9894
二刻	-10.9895
大閲	-10.9903
莫非	-10.9903
墨車	-10.9906
請期	-10.9909
歌者	-10.991
所不能	-10.9914
膊	-10.9915
不拜既爵	-10.9916
正統	-10.9916
無他	-10.9919
夫子曰	-10.9926
酸	-10.993
儀節	-10.9931
牛馬	-10.9932
取爵	-10.9932
南北面	-10.9933
尺六寸	-10.9933
書儀	-10.9934
百有二十	-10.9934
勾	-10.9935
此一經	-10.9935
氐	-10.9936
也長樂陳氏曰	-10.9937
有虞氏之	-10.9937
郊野	-10.9938
替	-10.9939
閭胥	-10.9939
從父	-10.994
脛	-10.9941
大射禮	-10.9941
不息	-10.9942
今乃	-10.9945
説見	-10.9947
陞	-10.995
酒尊	-10.9951
朼	-10.9951
鄭引	-10.9954
升席	-10.996
不答拜	-10.9961
黙	-10.9963
餘夫	-10.9963
邢	-10.9966
歲時	-10.9966
生民	-10.997
此月	-10.9974
注鄭司農云	-10.9975
東堂	-10.9977
祭祀之禮	-10.9977
橈	-10.9984
識之	-10.9984
稱名	-10.9984
敎之	-10.9985
案聘禮	-10.9986
訂	-10.9992
雖同	-10.9992
感動	-10.9993
二王之後	-10.9994
釋幣	-10.9997
配享	-10.9997
敬宗	-10.9999
卒洗	-10.9999
工商	-10.9999
郎中	-11.0001
爵止	-11.0001
也孔氏穎達曰	-11.0007
故須	-11.0009
荆州	-11.0009
弩	-11.001
芒	-11.0017
競	-11.0018
昆蟲	-11.0019
踰月	-11.002
尸入	-11.0021
秋分	-11.0022
中軍	-11.0023
髻	-11.0024
蜡祭	-11.0024
保氏	-11.0024
陳列	-11.0025
司馬正	-11.0025
布帶	-11.0026
寢門外	-11.0029
則民不	-11.003
者衆	-11.0036
春秋書	-11.0043
割牲	-11.0045
刑人	-11.0045
諸家	-11.0047
正齒位	-11.0048
曲直	-11.0049
太常卿奏	-11.005
平聲	-11.0051
害人	-11.0051
乃可	-11.0052
嵩	-11.0052
証	-11.0052
禴	-11.0053
繐衰	-11.0054
繪	-11.0054
房外	-11.0056
郝氏敬曰	-11.0057
帝嚳	-11.0057
先祖之	-11.0058
樂闋	-11.0064
亦不得	-11.0066
受酢	-11.0066
宰臣	-11.0067
呈	-11.0067
挺	-11.0069
國語曰	-11.007
尚饗	-11.0071
而使之	-11.0071
脰	-11.0081
五榖	-11.0083
楊氏	-11.0085
郡縣	-11.0085
三夫人	-11.0086
跪奏	-11.0087
糴	-11.0087
賈氏	-11.0092
殷禮	-11.0093
事天	-11.0094
過失	-11.0096
之始也	-11.0097
喪服傳	-11.0104
四品	-11.0109
朝賀	-11.0113
入就位	-11.0113
徒八人	-11.0116
坐奠爵拜	-11.0117
葦席	-11.0124
釀	-11.0126
牽牲	-11.0127
虢	-11.013
方十里	-11.0131
始生	-11.0132
平行	-11.0137
紗	-11.014
功臣	-11.0144
參分	-11.0144
大夫之喪	-11.0148
豆實	-11.0148
君夫人	-11.0151
本服	-11.0155
逼	-11.0158
瞿	-11.016
衷	-11.0161
諒	-11.0161
計其	-11.0163
主人洗	-11.0163
禮制	-11.0173
為隂	-11.0178
也馬氏曰	-11.018
入廟門	-11.0183
百家	-11.0187
紙	-11.0188
两	-11.0189
經直云	-11.0189
煇	-11.0189
衰麻	-11.0192
俟于	-11.0194
逺日	-11.0194
彈	-11.0195
北面立	-11.0196
三之一	-11.0196
亦異	-11.02
右執	-11.0202
祭社稷	-11.0204
緇帶	-11.0205
素冠	-11.0207
總論	-11.0211
三度	-11.0214
掌教	-11.0215
椑	-11.0217
太蔟	-11.0218
之要	-11.0219
遂行	-11.0224
傳重	-11.0224
長衣	-11.0225
而廢	-11.0226
尚齒	-11.0233
醆	-11.0236
祭畢	-11.0237
亦可以	-11.0238
宗祀	-11.0245
禮之所	-11.0251
居前	-11.0253
始終	-11.0256
親屬	-11.0256
禋祀	-11.0257
不可得	-11.0261
籠	-11.0266
則凡	-11.0269
執笏	-11.027
用之於	-11.0272
西堂	-11.0272
相通	-11.0275
夙夜	-11.0275
上篇	-11.0276
《	-11.0279
》	-11.0279
挼	-11.028
四字	-11.0281
堊室	-11.0285
利害	-11.0286
謁者	-11.0291
各從其	-11.0295
見諸侯	-11.0295
告備	-11.0297
在房	-11.0297
紊	-11.0299
展衣	-11.03
九室	-11.0303
譏之	-11.0304
耒耜	-11.0305
欽定義疏	-11.0309
少師	-11.0311
曰昔	-11.0312
少牢禮	-11.0313
主人以下	-11.0314
忿	-11.0314
自今	-11.0314
抗木	-11.0315
並用	-11.0317
論語云	-11.0318
肘	-11.0326
疏布	-11.0329
奎	-11.033
加一等	-11.0331
頫	-11.0332
財物	-11.0333
相次	-11.0334
縣南	-11.0334
成物	-11.0336
馬氏睎孟曰	-11.0336
不殺	-11.0338
輕於	-11.0341
以火	-11.0346
之勢	-11.0349
兖州	-11.0352
夏后氏之	-11.0353
習之	-11.0354
鬭	-11.0356
参	-11.0357
天下之大	-11.0357
廹	-11.0358
鉅	-11.0363
諸公卿大夫	-11.0364
饗帝	-11.0364
也又案	-11.0365
振祭嚌之	-11.0376
平常	-11.0379
光武	-11.0383
煑	-11.0387
撓	-11.0388
將祭	-11.0389
嫌於	-11.0393
於他	-11.0394
尸食	-11.0395
明神	-11.0395
都督	-11.0396
革車	-11.0398
饋獻	-11.04
亦因	-11.04
不可易	-11.04
每一	-11.0403
以明之	-11.0405
大常	-11.0405
功成	-11.0406
埶	-11.0408
禆	-11.0409
腐	-11.041
左胖	-11.041
醆酒	-11.0411
饗燕	-11.0412
門右	-11.0416
程子	-11.0418
射義	-11.042
迴	-11.042
於篚	-11.0422
中士八人	-11.0423
向外	-11.0426
宗子之家	-11.0431
有事則	-11.0433
調和	-11.0437
網	-11.0438
市朝	-11.0439
弓弩	-11.044
太和	-11.0441
愉	-11.0443
決拾	-11.0443
籩人	-11.0443
父死	-11.0444
嫁於	-11.045
豈得	-11.0451
反服	-11.0453
杖期	-11.0458
卒射	-11.0459
實觶	-11.0461
北極	-11.0461
十有五	-11.0464
此之謂也	-11.0468
故鄭注	-11.0468
讙	-11.0469
磨	-11.0469
已見	-11.047
鳬	-11.047
讐	-11.047
垢	-11.0471
尺有二寸	-11.0472
方伯	-11.0477
冠昏	-11.0478
旟	-11.0478
先農	-11.048
燕樂	-11.048
及執事	-11.0486
貨財	-11.0494
聖賢	-11.0495
鋭	-11.0502
制國用	-11.0505
李氏	-11.0508
文舞	-11.0508
送逆	-11.0509
告神	-11.0511
坐祭立飲	-11.0511
僕射	-11.0512
四拜	-11.0513
汾	-11.0513
拜洗	-11.0514
帶絰	-11.0519
凶年	-11.0519
三鼎	-11.0523
酒醴	-11.0523
西靣	-11.0526
遂師	-11.0526
球	-11.0534
一端	-11.0534
穹	-11.0536
滎	-11.0536
油	-11.0536
此四者	-11.0537
莽	-11.054
隨其	-11.0557
晉人	-11.0558
歐陽	-11.0559
納徴	-11.056
酒食	-11.056
戎車	-11.0561
三老五更	-11.0563
溉	-11.0563
丈四尺	-11.0563
史四人	-11.0565
興受	-11.0566
或謂之	-11.057
異義	-11.0572
庻子	-11.0572
隴	-11.0573
弗能	-11.0574
親王	-11.0578
不敢自	-11.0578
車旗	-11.0582
𥘉	-11.0583
相類	-11.059
純衣	-11.0592
慶源輔氏曰	-11.0592
以佐王	-11.0592
適次	-11.0593
謹案	-11.0594
内賔	-11.0594
楔	-11.0595
無嫌	-11.0597
小都	-11.0598
不俟	-11.0599
僚	-11.0601
日視朝	-11.0602
伯仲	-11.0606
省牲	-11.0606
五品	-11.0608
從容	-11.0609
必須	-11.0609
貢士	-11.061
用兵	-11.0613
三嵗	-11.0616
問名	-11.0621
莫重於	-11.0623
設俎	-11.0625
腸	-11.0627
侑幣	-11.063
苴絰	-11.0634
夷衾	-11.0634
也者此	-11.0635
筮人	-11.0638
有大小	-11.0644
正義曰此一節	-11.0644
鮪	-11.0644
大比	-11.0644
酌醴	-11.0644
古之人	-11.0653
四隅	-11.0654
張氏爾岐曰	-11.0656
人之道	-11.0656
吏部	-11.0656
摡	-11.0656
文飾	-11.0657
授主人	-11.0658
變化	-11.066
答曰	-11.0661
袷	-11.0662
葬後	-11.0667
宮中	-11.0673
引詩	-11.0674
絀	-11.0676
司弓矢	-11.0679
濬	-11.0682
百世不遷	-11.0684
節奏	-11.0684
旌節	-11.0689
天文志	-11.069
荀子	-11.0691
虞庠	-11.0696
豢	-11.0697
若今時	-11.0699
倣此	-11.07
所稱	-11.0702
隐	-11.0704
太隂	-11.071
周語	-11.0711
喪大記曰	-11.0712
半寸	-11.0712
朱緑	-11.0712
榖梁傳	-11.0723
反覆	-11.0725
皆謂之	-11.0728
既成	-11.0729
旅師	-11.0729
以朱	-11.0729
秋七月	-11.0731
渡	-11.0732
以類	-11.0736
邵	-11.0736
予之	-11.0739
申生	-11.074
大聘	-11.074
擊鼓	-11.0741
寄公	-11.075
以上皆	-11.075
馮尸	-11.0751
上古	-11.0752
什	-11.0758
朴	-11.076
東都	-11.076
將有事	-11.0762
長尺	-11.0763
取象	-11.0763
耀	-11.0766
霍	-11.0766
誼	-11.0767
在野	-11.0769
纁裳	-11.0771
不載	-11.0774
雅頌	-11.0774
敖君善曰	-11.0775
二十五年	-11.0775
合食	-11.0776
不可考	-11.0778
掌事者	-11.0778
重耳	-11.0783
飲福	-11.0786
述命	-11.0787
出嫁	-11.0789
立社	-11.079
射位	-11.0791
本訛作	-11.0793
乃復	-11.0797
据	-11.0797
拜賜	-11.0799
鼖	-11.08
神州	-11.0801
國門	-11.0801
車服	-11.0803
門閭	-11.0806
為人後	-11.0812
睿	-11.0814
闑西	-11.0818
突	-11.0818
大享	-11.082
西楹	-11.0821
服問	-11.0821
悠	-11.0822
沽	-11.0823
應氏曰	-11.0824
蛤	-11.0825
撃	-11.0825
幬	-11.0826
鐃	-11.0827
在堂下	-11.0827
厲禁	-11.0838
下地	-11.084
倣	-11.084
中心	-11.084
淺深	-11.0841
牲牢	-11.0844
徒役	-11.0846
祖姑	-11.0846
尊之也	-11.0851
絲枲	-11.0852
送賔	-11.0852
屠	-11.0853
張氏	-11.0853
備禮	-11.0854
左首	-11.0854
稟	-11.0855
聽政	-11.0855
曰諾	-11.0856
冉	-11.0857
纒	-11.0858
不止於	-11.0858
衰服	-11.0859
有事于	-11.0863
二王後	-11.0863
䘮大記	-11.0866
稽其	-11.0869
備物	-11.0869
盟于	-11.0871
敬之至也	-11.0873
踰年	-11.0873
薦羞	-11.0875
坐奠觶	-11.0879
升殿	-11.0881
愛人	-11.0882
石林葉氏曰	-11.0882
燥	-11.0885
孕	-11.0888
蔬	-11.0892
揄狄	-11.0894
止言	-11.0895
中士四人	-11.0896
卒事	-11.0906
擯相	-11.0913
殃	-11.0916
糟	-11.0916
約劑	-11.0918
商賈	-11.0918
舊制	-11.0921
晷	-11.0922
上中下	-11.0923
非直	-11.0923
闋	-11.0926
周家	-11.0926
國學	-11.0931
殺人	-11.0932
名之曰	-11.0937
親喪	-11.0938
呂氏	-11.0938
鼎俎	-11.094
二員	-11.094
虚爵	-11.0941
跡	-11.0944
貴人	-11.0946
彼此	-11.0949
彼云	-11.095
侯伯子男	-11.095
楊氏曰	-11.0951
庖人	-11.0952
五節	-11.0952
孔氏頴達曰	-11.0953
周禮春官	-11.0954
大祫	-11.0954
主人之北	-11.0963
雖異	-11.0972
飢	-11.0972
采邑	-11.0973
齋戒	-11.0975
司宼	-11.0975
屑	-11.0976
芬	-11.0978
送神	-11.0982
其出入	-11.0991
哭諸	-11.0997
無疆	-11.0997
鹹	-11.1007
諸官	-11.1007
所施	-11.1008
成數	-11.1009
之類皆	-11.1009
周禮曰	-11.101
奕	-11.101
設饌	-11.1014
不洗	-11.1026
母之黨	-11.1027
尺八寸	-11.1027
日而殯	-11.1029
朔望	-11.103
子春	-11.1032
所惡	-11.1036
灑	-11.1039
使之相	-11.1044
山東	-11.1046
庶婦	-11.1046
吉冠	-11.1047
爲母	-11.1049
与	-11.1051
三辰	-11.1054
其父母	-11.1054
鼓人	-11.1054
生氣	-11.1054
逹於	-11.1054
狂	-11.1062
一幅	-11.1064
十二律	-11.1067
陸氏曰	-11.107
韎韐	-11.1073
第六	-11.1079
鞠躬拜興拜興平身	-11.1081
參分其	-11.1083
辟君	-11.1083
不同故	-11.1087
受弔	-11.1087
弃	-11.1091
樂歌	-11.1092
孔氏曰此一節論	-11.1101
門左	-11.1102
縿	-11.1102
各異	-11.1105
今既	-11.1105
出户	-11.1106
而頒之	-11.111
刌	-11.1111
母弟	-11.1111
斬衰三年	-11.1114
曷為	-11.1115
六百	-11.1117
分職	-11.1117
民心	-11.1117
二十八年	-11.1122
如之何孔子曰	-11.1124
西階前	-11.1125
寘	-11.1127
惻	-11.1129
紏	-11.113
鑮	-11.1132
貧賤	-11.1134
聰明	-11.1139
所致	-11.1143
曷	-11.1149
舉肺	-11.1151
士庶人	-11.1157
長六尺	-11.1157
徹俎	-11.1158
下車	-11.1158
洪範	-11.1162
癘	-11.1164
致齋	-11.1165
經緯	-11.1167
昭明	-11.1167
答再拜	-11.117
黝	-11.1172
祝融	-11.1175
為耦	-11.1176
賢人	-11.1178
諸臣之	-11.118
十五升	-11.1182
牽牛	-11.1182
丁巳	-11.1182
案特牲	-11.1184
徃來	-11.1186
大功以下	-11.1189
異宫	-11.1189
明徳	-11.1194
朝㑹	-11.1195
祭五祀	-11.1196
諸侯之國	-11.1199
迄	-11.12
事鬼神	-11.12
鄉飲酒之禮	-11.12
液	-11.1202
周天	-11.1203
曾子曰	-11.1203
正饌	-11.1206
牲幣	-11.1216
其勢	-11.1217
明帝	-11.1221
衈	-11.1222
王子弟	-11.1225
綿	-11.1226
皆據	-11.123
柎	-11.1232
長殤中殤	-11.1232
炎帝	-11.1241
前經	-11.1241
于東方	-11.1243
隨時	-11.1245
教化	-11.1247
使副	-11.1247
冀州	-11.1249
化民	-11.1249
長六寸	-11.1251
神座前	-11.1251
視濯	-11.1252
叩	-11.1253
乃能	-11.1254
秘	-11.1256
盟詛	-11.1257
圎	-11.1258
添	-11.126
本文	-11.1264
嫂叔	-11.1264
興起	-11.1266
陽縣	-11.1268
小國之君	-11.1271
送死	-11.1271
大雩	-11.1275
十七篇	-11.1276
祥祭	-11.128
蔡邕	-11.1288
嵗終	-11.129
曾子問曰	-11.1297
蔡氏	-11.1298
加勺	-11.1301
弗敢	-11.1302
在寢	-11.1309
簀	-11.1311
未成服	-11.1313
於西階	-11.1314
囘	-11.1322
食肉	-11.1325
蕤賔	-11.1326
官司	-11.1326
大門内	-11.1328
元豐	-11.133
未明	-11.1331
誘射	-11.1337
素衣	-11.1339
秦漢	-11.1345
光禄	-11.1345
立飲	-11.1349
銳	-11.1349
輇	-11.135
三字	-11.1352
師保	-11.1352
揔	-11.1354
敖氏繼公曰此	-11.1355
囊	-11.1355
溫	-11.1356
状	-11.1356
古者天子	-11.1358
所用之	-11.136
養馬	-11.1361
漳	-11.1364
修身	-11.1369
妻之父母	-11.137
大功小功	-11.1372
仞	-11.1374
絮	-11.1378
廏	-11.1379
司書	-11.1381
幷	-11.1381
十一升	-11.1383
西楹西	-11.1383
悌	-11.1384
韭	-11.1384
頤	-11.1385
三族	-11.1388
跛	-11.1389
比長	-11.139
守祧	-11.1391
蜃車	-11.1392
再拜訖	-11.1392
而不相	-11.1399
正色	-11.1405
當楣	-11.141
林麓	-11.1411
悟	-11.1413
如晉	-11.1414
其禄	-11.1414
覩	-11.1415
跗	-11.1415
摰	-11.1415
侍臣	-11.1416
搖	-11.1416
謚	-11.1416
西塾	-11.1417
言此者	-11.1419
将軍	-11.1419
迎氣	-11.1424
人事	-11.1424
呉氏	-11.1428
得伸	-11.1433
又按	-11.1441
迷	-11.1441
和樂	-11.1441
緦衰	-11.1441
再獻	-11.1442
畤	-11.1442
指揮	-11.1443
彫	-11.1444
羣士	-11.1444
官屬	-11.1447
小射正	-11.1447
超	-11.1447
顈	-11.1448
地域	-11.1454
水土	-11.1454
太傅	-11.1458
百六十	-11.1459
政和	-11.1463
臣妾	-11.1465
有如此者	-11.1468
鴽	-11.1473
府史胥徒	-11.1478
禮辭	-11.148
家事	-11.1482
真宗	-11.1482
貴臣	-11.1489
辟雍	-11.1493
江南	-11.1498
淹	-11.15
委貌	-11.1501
平日	-11.1503
安能	-11.1503
石經	-11.1506
期之喪	-11.1506
稍食	-11.1507
飫	-11.1507
瓜	-11.1508
司盟	-11.1509
恪	-11.151
鼜	-11.151
五禮通考卷	-11.1512
梓宫	-11.1513
可食	-11.1515
不假	-11.1519
重屋	-11.1521
祀昊天上帝	-11.1521
十有二月	-11.1523
萬五千	-11.1525
饋奠	-11.1526
今世	-11.1527
正室	-11.1531
五哭	-11.1536
英宗	-11.1539
弁師	-11.1539
軍禮	-11.1542
不可廢	-11.1547
封國	-11.1552
四角	-11.1556
世本	-11.1562
外府	-11.1563
褘	-11.1564
之小者	-11.1568
核	-11.1569
受賜	-11.1574
内羞	-11.1577
今案	-11.1578
東鄉	-11.1583
祭祀賓客	-11.1584
恐非	-11.1585
考證	-11.1588
致祭	-11.1591
適妻	-11.1592
鄉學	-11.1594
隕	-11.1594
云爾	-11.1595
在洗東	-11.1596
諸州	-11.16
未足	-11.1601
總名	-11.1602
軓	-11.1602
變易	-11.1603
彘	-11.1603
捷	-11.1603
洛陽	-11.1604
十九年	-11.1604
戶	-11.1604
在軍	-11.1606
社稷五祀	-11.1608
束帛加璧	-11.1612
降筵	-11.1613
輝	-11.1614
繼别	-11.1616
緼	-11.1616
宫伯	-11.1621
虞衡	-11.1622
異於生	-11.1623
先鄭云	-11.1623
性命	-11.1624
帷幕	-11.1627
又從而	-11.1628
恱	-11.1629
大射儀	-11.1629
罟	-11.1637
刲	-11.1641
與否	-11.1643
脩身	-11.1643
䕫	-11.1646
作龜	-11.1646
圭瓚	-11.1646
李氏曰	-11.1647
動物	-11.1648
鎮圭	-11.1651
與民同	-11.1653
師役	-11.1655
設几	-11.1655
可通	-11.1656
武公	-11.1658
謁者引	-11.1659
輕服	-11.1659
服𤣥端	-11.166
所以治	-11.166
枯	-11.1662
燔從	-11.1662
酬幣	-11.1663
璽	-11.1665
聽朔	-11.1667
采蘩	-11.1671
禮直官	-11.1672
壷	-11.1672
咸池	-11.1673
趙氏曰	-11.1673
紞	-11.1676
姜嫄	-11.1677
返	-11.1677
内小臣	-11.1679
受命于	-11.1679
襚者	-11.1683
五牢	-11.1684
都家之	-11.1686
内事	-11.1699
柲	-11.1699
反劉	-11.1699
佛	-11.17
東行	-11.1704
逕	-11.1704
闈門	-11.1708
于太廟	-11.1716
宮室	-11.1718
太守	-11.1718
户牖	-11.172
繫於	-11.172
受酬者	-11.1721
不堪	-11.1721
居堊室	-11.1723
杜注	-11.1724
封建	-11.1726
不可復	-11.1726
夏商	-11.1727
於房中	-11.1731
侍衛	-11.1732
伊尹	-11.1733
尼	-11.1733
臣僚	-11.1734
鉞	-11.1734
惇	-11.1734
異同	-11.1735
琰	-11.1736
洒	-11.1737
天地之間	-11.1738
主人西面	-11.1739
便是	-11.174
遐	-11.174
牒	-11.1741
南首	-11.1745
載柩	-11.1746
于序端	-11.1749
天子崩	-11.175
青州	-11.1755
父子君臣	-11.1755
異國	-11.1756
四十九	-11.1761
執爵以興	-11.1761
主人阼階上	-11.1763
閩	-11.1765
冠弁	-11.1766
搢扑	-11.1766
正義曰此	-11.1766
駑馬	-11.1768
養人	-11.1769
街	-11.1775
菆	-11.1775
珽	-11.1775
芼	-11.1775
大䘮	-11.1777
哀樂	-11.1777
舎人	-11.1787
自稱曰	-11.1793
三丈	-11.1793
居廬	-11.1795
鬰	-11.1802
輓	-11.1804
袗	-11.1805
其子孫	-11.1805
昕	-11.1807
㢘	-11.1809
諸公卿	-11.1809
士賤	-11.181
故知是	-11.181
私事	-11.1818
河北	-11.1818
部侍郎	-11.1818
施于	-11.182
右胖	-11.1821
黄金	-11.1822
雲門	-11.1825
齊衰大功	-11.1832
一品	-11.1832
獻功	-11.1833
之為物	-11.1835
肴	-11.1837
剛柔	-11.1837
上下相	-11.1842
其餘皆	-11.1847
於東方	-11.1848
所尚	-11.1848
於大廟	-11.1849
趣馬	-11.1851
為大夫者	-11.1851
民之所	-11.1852
不答	-11.1861
九族	-11.1863
儼	-11.1864
齡	-11.1865
百畆	-11.1865
羲	-11.1865
鈴	-11.1867
片	-11.1868
莫大於	-11.1871
死事	-11.1872
主人揖	-11.1877
繅藉	-11.1882
左手執	-11.1882
執事官	-11.1883
縣都	-11.1885
敺	-11.1891
六世	-11.1893
奸	-11.1897
天子七廟	-11.1897
乗矢	-11.1898
簨	-11.1899
倨	-11.1902
而進之	-11.1902
誨	-11.1904
所以安	-11.1909
舊唐書	-11.1909
叅	-11.1911
二句	-11.1912
禮部尚書	-11.1915
毳冕	-11.1916
濟濟	-11.1917
士冠	-11.1919
取弓矢	-11.1925
夙	-11.1926
安府	-11.193
立司正	-11.1931
貽	-11.1931
繼世	-11.1932
熹	-11.1932
程子曰	-11.1933
孔疏云	-11.1934
繂	-11.1934
禡	-11.1935
禖	-11.1935
沃盥	-11.1935
櫝	-11.1938
僧	-11.1939
既祥	-11.1941
出封	-11.1941
者為其	-11.1941
少府	-11.1943
于中庭	-11.1946
也郝氏曰	-11.1954
父祖	-11.1955
東堂下	-11.1957
平地	-11.1958
廟門之外	-11.196
拔	-11.1962
戰國	-11.1963
食音嗣	-11.1965
四世	-11.1967
閔公	-11.197
職幣	-11.1971
翰	-11.1971
說屨	-11.1973
黼黻	-11.1975
入于房	-11.1976
月朔	-11.1977
初死	-11.1978
弔於	-11.198
穀梁	-11.1986
大功之喪	-11.1986
徒四人	-11.1992
劉執中曰	-11.1994
䘮禮	-11.1995
喬	-11.1997
母喪	-11.1999
岱	-11.2013
千五百	-11.2015
號令	-11.2017
:	-11.2022
敢不敬	-11.2027
可以觀	-11.2032
周頌	-11.2033
在門外	-11.2034
韻	-11.2038
主人送	-11.2039
途	-11.204
西向立	-11.2041
牛牲	-11.2042
厞	-11.2042
内命婦	-11.2045
欲令	-11.2046
德行	-11.2046
所以象	-11.2046
辟積	-11.205
勇力	-11.2053
6	-11.2054
民間	-11.2055
陳器	-11.2062
欠	-11.2062
乘馬	-11.2064
伊耆氏	-11.2064
鍾磬	-11.2066
酇	-11.2072
人道之	-11.2073
未敢	-11.2074
千乗	-11.2074
瓊	-11.2074
互言之	-11.2076
劉歆	-11.2078
衆耦	-11.2079
禮書卷	-11.208
巴	-11.208
致福	-11.2082
哀痛	-11.2082
訝受	-11.2083
裨冕	-11.2086
文武之	-11.2087
追尊	-11.2093
鄉士	-11.2093
張子	-11.2095
樸	-11.2101
坼	-11.2101
籌	-11.2103
九等	-11.2107
儺	-11.2108
琬	-11.2108
君大夫士	-11.2115
路鼓	-11.2116
世叔父	-11.2118
史氏曰	-11.2119
鍵	-11.212
賂	-11.2125
於北郊	-11.2128
緦服	-11.2128
眚	-11.2132
疇	-11.2133
婉	-11.2135
命某	-11.2138
沛	-11.2141
襌	-11.2141
泮	-11.2145
襲衣	-11.2146
孟秋	-11.2147
辟領	-11.2147
式法	-11.2149
擯者出請	-11.2154
女氏	-11.2156
教人	-11.2157
席西	-11.2158
偹	-11.2168
居左	-11.217
欣	-11.2174
千二百	-11.2176
注釋曰知	-11.2176
嫁女	-11.2179
鬄	-11.2179
襲裘	-11.2181
太保	-11.2183
寕	-11.2183
辛巳	-11.2186
二人舉觶	-11.2188
使人弔	-11.2192
世俗	-11.2193
所聚	-11.2193
熊侯	-11.2194
乞言	-11.2197
不倦	-11.2197
庶姓	-11.2202
澣	-11.2202
蟄蟲	-11.2202
淡	-11.2204
浙	-11.2204
模	-11.2205
委曲	-11.2205
躐	-11.2212
天子居	-11.2212
琥璜	-11.2213
集說曰	-11.2217
小戴	-11.222
二十年	-11.2224
兆民	-11.2227
乎哉	-11.2229
面位	-11.2235
卿大夫以下	-11.2235
哭止	-11.2237
伺	-11.2239
不得過	-11.224
襲絰	-11.2243
父族	-11.2249
簪	-11.2252
7	-11.226
媒氏	-11.2261
加減	-11.2263
筵几	-11.2268
非古也	-11.2273
圻	-11.2273
既虞	-11.2275
正月之吉	-11.2275
捍	-11.2279
膟膋	-11.228
文武官	-11.228
素車	-11.2288
素韠	-11.229
勤勞	-11.2291
縮執	-11.2291
棖	-11.2294
陪鼎	-11.2297
容體	-11.2298
東西相向	-11.2298
祝佐食	-11.23
張侯	-11.2302
珠玉	-11.2304
送賓	-11.2304
去杖	-11.2304
匿	-11.2305
時刻	-11.2307
姨	-11.231
祲	-11.231
醍	-11.2311
麋鹿	-11.2312
庶人在官者	-11.2314
縟	-11.2314
蹄	-11.2315
兩壺	-11.2315
于阼階上	-11.2315
受福	-11.2316
禘祭	-11.2317
於堂下	-11.2317
大合樂	-11.2323
三年之䘮	-11.2327
喪大記云	-11.2329
揚州	-11.233
甸服	-11.2332
曰吾聞	-11.2332
勑	-11.2334
豎	-11.2334
怛	-11.2335
于庭	-11.2336
徼	-11.2336
致仕者	-11.2337
塊	-11.2337
追王	-11.2339
酬酢	-11.234
廐	-11.2343
降立于	-11.2343
管子	-11.2344
飾棺	-11.2346
納吉	-11.2348
暗	-11.2349
蠻夷	-11.2351
玩好	-11.2352
辛亥	-11.2355
禫祭	-11.2356
正歲	-11.2361
此類	-11.2361
用少牢	-11.2363
缶	-11.2363
為夫之	-11.2366
致饔餼	-11.2371
納幣	-11.2372
劓	-11.2375
咏	-11.2376
恊	-11.2379
二骨	-11.238
辟廱	-11.2387
㑹稽	-11.239
韇	-11.2392
朔日	-11.2394
城縣	-11.2394
再拜稽首公	-11.2399
小臣師	-11.2401
鞠躬	-11.2404
秬	-11.2406
更爵	-11.2407
先王所以	-11.2409
施行	-11.241
考妣	-11.2411
四十五	-11.2412
捕	-11.2414
臡	-11.2416
水潦	-11.2416
禮儀使	-11.2416
告利成	-11.2419
禓	-11.242
降自阼階	-11.2423
與此不同	-11.2424
純吉	-11.2428
小師	-11.2428
諸侯之臣	-11.2431
麻絰	-11.2433
五十六	-11.2437
志意	-11.244
公答再拜	-11.2449
庇	-11.245
寺人	-11.2452
于四方	-11.2457
雖不同	-11.2459
萬二千	-11.2459
百一十	-11.2462
子男五	-11.2465
虞書	-11.2474
梏	-11.2478
於房	-11.248
六豆	-11.2482
𦙍	-11.2483
夏小正	-11.2485
祓	-11.2486
礙	-11.2487
小卿	-11.2491
眡瞭	-11.2492
頖	-11.2492
禁止	-11.2492
桂	-11.2494
彌尊	-11.2495
父母喪	-11.2496
立秋	-11.2499
體解	-11.2503
職内	-11.2507
酒漿	-11.2507
兩邊	-11.251
傳曰何以	-11.2511
莖	-11.2511
千乘	-11.2512
此句	-11.2513
臝	-11.2514
裴	-11.2517
原隰	-11.252
在廟門外	-11.2522
州亦為	-11.2523
胥二人徒二十人	-11.2525
不粥於市	-11.2527
服齊衰三月	-11.2529
内豎	-11.253
家邑	-11.253
繐	-11.2534
未發	-11.2539
客位	-11.2543
宣帝	-11.2545
郷大夫	-11.2545
太皇太后	-11.2546
又如字	-11.2546
精氣	-11.255
刮	-11.255
重意	-11.255
蒿	-11.2551
大音泰	-11.2554
爽	-11.2555
住	-11.2556
懈	-11.2557
解經	-11.2558
囂	-11.2558
隼	-11.2559
奉安	-11.2559
二十三年	-11.2561
爐	-11.2562
龜筮	-11.2562
服服之	-11.2563
無怨	-11.2566
將葬	-11.257
敖氏曰此	-11.257
親祀	-11.2571
戎事	-11.2577
猛獸	-11.2584
甚明	-11.2585
請射	-11.2589
此經云	-11.2592
馴	-11.2593
譜	-11.2593
巽	-11.2594
荒政	-11.2597
絛	-11.2598
未殯	-11.2599
中大夫二人	-11.26
瓶	-11.26
穆穆	-11.261
俎實	-11.2616
尊號	-11.262
羣神	-11.262
神祗	-11.2621
祝號	-11.2623
涚	-11.2623
上辛	-11.2625
計反	-11.2626
剥	-11.2626
苽	-11.2626
祉	-11.2626
鍾鼓	-11.2627
煙	-11.2628
艮	-11.2628
書契	-11.2629
良馬	-11.263
以成其	-11.263
世世	-11.2631
詔告	-11.2647
毛血	-11.265
嗣君	-11.2653
月數	-11.2655
茀	-11.2658
右手執	-11.266
内饔	-11.266
太室	-11.2662
哭位	-11.2662
叶	-11.2664
朝享	-11.2665
麄	-11.2665
各以其物	-11.2666
南山	-11.2667
不肯	-11.2668
兩楹之間	-11.267
鄭氏鍔曰	-11.2672
祭酒啐酒	-11.2674
尸謖	-11.2677
長八尺	-11.2679
侔	-11.2681
四矢	-11.2688
北面答拜	-11.269
見賢遍反	-11.2691
耄	-11.2692
血祭	-11.2693
躍	-11.2697
丕	-11.2697
柷敔	-11.2699
鮑	-11.2699
命夫命婦	-11.2699
椎	-11.27
項氏曰	-11.2702
甑	-11.2711
條屬	-11.2721
永樂	-11.2724
斃	-11.2725
俘	-11.2732
娶妻	-11.2734
叚	-11.2738
熊虎	-11.274
今文無	-11.2742
論語曰	-11.2746
玄酒	-11.2746
入壙	-11.2748
徐州	-11.2752
嘗禘	-11.2752
東井	-11.2753
九州之外	-11.276
錦衣	-11.2766
歲終則	-11.2768
司㓂	-11.2769
戎路	-11.277
在西方	-11.2771
仲吕	-11.2774
為後者	-11.2777
緑	-11.2778
承擯	-11.2778
如字又	-11.2781
笄纚	-11.2781
主國君	-11.2782
如初儀	-11.2784
廊	-11.2785
欑	-11.2787
正義曰此一節論	-11.2808
私面	-11.2809
相繼	-11.281
鞅	-11.2813
曰朕	-11.2814
先聖先師	-11.2817
布深衣	-11.2817
驪	-11.2818
言之耳	-11.2819
於其上	-11.2822
食粥	-11.2822
隈	-11.2825
兩楹間	-11.2828
權衡	-11.2837
芥	-11.2838
銑	-11.2847
祏	-11.2848
四海之内	-11.2852
東海	-11.2856
酬主人	-11.2859
鬯人	-11.2864
兵革	-11.2866
孔氏曰此	-11.287
舉足	-11.2873
隄	-11.2876
魁	-11.2881
挽	-11.2882
醯醬	-11.2892
庻人	-11.2893
在其南	-11.2895
施舍	-11.2898
財賦	-11.2903
季子	-11.2904
醴婦	-11.2904
所由生	-11.2904
不暇	-11.2905
藴	-11.2912
療	-11.2915
山罍	-11.2918
糜	-11.2919
俞	-11.292
坊記	-11.2923
未成人	-11.2924
匝	-11.2925
燔燎	-11.2926
上士二人	-11.2928
嶺	-11.2929
府庫	-11.2934
丈六尺	-11.2938
閷	-11.294
六尺六寸	-11.294
衺	-11.2945
蕢	-11.2945
嬖	-11.2945
雍州	-11.2946
賔西階上	-11.2946
後漢書	-11.2946
婦人踊	-11.295
寔	-11.2952
帚	-11.2955
袤	-11.2956
朄	-11.2956
鄂	-11.2957
緹	-11.2958
適四方	-11.296
娣姒	-11.2963
盛氏世佐曰	-11.2965
鉶羮	-11.2965
百畮	-11.2965
名山大川	-11.2967
力役	-11.2969
嫁娶	-11.2973
澤虞	-11.2975
主人再拜	-11.2975
女子子在室	-11.2981
詩所謂	-11.2984
戎右	-11.2985
等差	-11.2985
鱐	-11.2987
動作	-11.2987
天子之士	-11.299
僉	-11.299
胥四人徒四十人	-11.2991
堯典	-11.2997
白屨	-11.2997
辭讓	-11.2998
鷩	-11.2999
相為服	-11.3001
宫縣	-11.3001
和之曲	-11.3005
戈㦸	-11.3006
民力	-11.3008
廩人	-11.301
魂氣	-11.301
公之昆弟	-11.3011
所以待	-11.3012
上文云	-11.302
扞	-11.3021
神惠	-11.3024
式灋	-11.3024
十二度	-11.3027
秣	-11.3028
内則曰	-11.303
鶩	-11.3032
免絰	-11.3034
葵菹	-11.3035
壬午	-11.3038
牡麻絰	-11.3039
孺	-11.3041
餘論	-11.3042
和氣	-11.3042
兆域	-11.3044
泉府	-11.3044
自此以下	-11.3046
酌膳	-11.3056
榦	-11.3062
廟門外	-11.3064
笠	-11.3069
榖梁	-11.3069
篇首	-11.307
胎	-11.307
鬼神示	-11.3071
三分去一	-11.3071
褶	-11.3072
奏陔	-11.3079
徒四十人	-11.3079
之主也	-11.308
射宫	-11.3083
黄裳	-11.3092
婦人髽	-11.3097
大呂	-11.3102
紱	-11.3102
譌	-11.3105
伊川	-11.3107
其異者	-11.3112
葱	-11.3114
諏	-11.3119
去扑	-11.3122
組纓	-11.3126
何哉	-11.3129
贊冠者	-11.3134
弋	-11.3135
第七	-11.3136
於阼	-11.3141
拳	-11.3141
妖祥	-11.3146
丈尺	-11.3147
四代之	-11.3153
陜西	-11.317
上耦	-11.3171
武功	-11.3174
捨	-11.3177
孽	-11.3179
鹿鳴	-11.3179
以此坊民	-11.318
豕脀	-11.318
六尺有六寸	-11.318
崑崙	-11.3181
愍	-11.3183
迂	-11.3183
鸞刀	-11.3184
司中司命	-11.3189
聶	-11.3189
典儀	-11.3189
各於其	-11.3191
東西向	-11.3191
路門外	-11.3191
百步	-11.3192
送葬	-11.3193
奠酬	-11.3194
執觶興	-11.3197
栗階	-11.3205
頻	-11.3208
玉几	-11.3211
二十七月	-11.3211
斵	-11.3211
曺	-11.3212
考校	-11.3213
苖	-11.3214
特牲饋食	-11.3214
漱	-11.3215
纍	-11.3218
睿宗	-11.3219
不敢降	-11.3221
殷奠	-11.3223
嬴	-11.3224
詁	-11.3224
輁軸	-11.3228
首飾	-11.3229
國之大事	-11.323
莊子	-11.3232
柢	-11.3232
禮器云	-11.3234
學校	-11.3235
㝛	-11.3238
官吏	-11.3241
跪進	-11.3242
綸	-11.3247
李嘉㑹曰	-11.3255
夕月	-11.3256
枉矢	-11.3257
簴	-11.3257
父没	-11.3258
質劑	-11.3258
霜露	-11.3259
斟酌	-11.326
刑部尚書秦蕙田撰	-11.3265
㕘	-11.3265
徐音	-11.3267
齍盛	-11.3268
明堂位曰	-11.328
裼襲	-11.328
顯考	-11.3283
帥師	-11.3283
取脯	-11.3288
甕	-11.3289
畺	-11.3293
焦	-11.3294
駿	-11.3294
9	-11.3295
選士	-11.3297
諸侯來朝	-11.3299
五百人	-11.3299
叢	-11.3299
涇	-11.33
輟	-11.33
栢	-11.3302
减	-11.3302
坐奠爵	-11.3302
誠信	-11.3305
人之情	-11.3306
參差	-11.3308
洗酌	-11.3308
與君同	-11.3314
誠意	-11.3318
圭田	-11.3318
米禾	-11.3319
攝事	-11.3322
二尺四寸	-11.3324
郵	-11.3331
乂	-11.3332
百官府	-11.3333
紆	-11.3335
葉氏	-11.3338
藁	-11.3338
波	-11.3339
臯陶	-11.3339
配位	-11.3339
鏘	-11.3341
摭	-11.3341
土鼓	-11.3341
戎狄	-11.3343
坐取爵	-11.3343
總章	-11.3348
無明文	-11.3352
公宫	-11.3353
胥徒	-11.3353
柝	-11.3357
詩大雅	-11.3365
徳行道藝	-11.3366
濩	-11.3368
䑕	-11.3372
駭	-11.3374
縣西北	-11.3374
蟬	-11.3375
未忍	-11.3379
異名	-11.3381
狐裘	-11.3382
妻妾	-11.3382
疋	-11.3384
美惡	-11.3384
蓍龜	-11.3387
他邦	-11.3387
齊衰三年	-11.3392
几席	-11.3393
所存	-11.3399
止哭	-11.3401
豻侯	-11.3409
闈	-11.3409
庭燎	-11.3415
邃	-11.3417
麻帶	-11.3418
洗南	-11.3421
俎豆	-11.3423
祝版	-11.3423
蹌	-11.3424
掌共	-11.3429
裧	-11.3434
天性	-11.3435
天地四方	-11.3435
旅上帝	-11.3442
施惠	-11.3443
藍	-11.3447
司勲	-11.3448
衢	-11.3449
早晚	-11.3452
奉幣	-11.3454
系	-11.3454
士相見	-11.3457
轝	-11.3458
中士下士	-11.3463
又次之	-11.3474
」	-11.3475
聮	-11.3482
鄼	-11.3483
涸	-11.3483
與此異	-11.3485
正朔	-11.3487
孟月	-11.3488
標	-11.3492
羣吏之治	-11.3493
犀	-11.3496
羣廟	-11.3504
吴氏	-11.3507
二百四十	-11.3509
犯禁	-11.351
南呂	-11.3511
適寢	-11.3513
八豆	-11.3515
桴	-11.3519
躁	-11.3521
薙	-11.3521
歌舞	-11.3521
不備禮	-11.3523
笛	-11.3523
邁	-11.3527
閨	-11.3529
翁	-11.353
膰	-11.353
章甫	-11.3531
亦當然	-11.3531
緘	-11.3533
入大門	-11.3534
土均	-11.3534
滌濯	-11.3536
緩急	-11.3538
禮器曰	-11.3538
用輴	-11.3538
宿戒	-11.354
鞏	-11.3541
弔臨	-11.3544
十有八	-11.3548
洗觶	-11.3555
羞庶羞	-11.3558
師都	-11.3564
脉	-11.3566
釋算	-11.3568
可任者	-11.3575
筮宅	-11.3594
填	-11.3606
韣	-11.3607
於廟門外	-11.3609
孟獻子	-11.3611
萬里	-11.3612
魚鼈	-11.3612
迎神	-11.3614
羣小祀	-11.3619
㨎	-11.3623
棧車	-11.3628
日景	-11.3629
八簋	-11.3631
陜	-11.3632
愛敬	-11.3633
侯伯七	-11.3633
贊唱	-11.3636
羅氏	-11.3637
掌訝	-11.3641
爛	-11.3644
▁春官	-11.3646
𩔖	-11.3646
鋒	-11.3647
桃茢	-11.365
里宰	-11.3651
鐲	-11.3651
芻薪	-11.3654
畨	-11.3654
圉人	-11.3658
出房	-11.3663
親往	-11.3664
媵觶	-11.3667
賈䟽	-11.3675
不可以無	-11.3675
燕禮大射	-11.3678
士之妻	-11.3678
褥	-11.368
緦小功	-11.3684
穎	-11.3684
為于偽反	-11.3685
鄭意	-11.3689
百僚	-11.3692
轍	-11.3693
籥師	-11.3695
十二辰	-11.3695
司兵	-11.3699
銘旌	-11.3706
太社	-11.3707
歸饔餼	-11.3712
祈穀	-11.3713
堊	-11.3715
幽明	-11.3716
陽府	-11.3718
勘	-11.3719
司烜	-11.3721
探	-11.3725
逰	-11.373
駮	-11.3731
脡	-11.3734
用辛	-11.3736
三月而葬	-11.3737
稻米	-11.3738
於中庭	-11.3738
奔䘮	-11.3748
綺	-11.3759
二十五家	-11.3761
隰	-11.3764
爵韠	-11.3767
交接	-11.3768
詩小雅	-11.3769
器械	-11.377
敔	-11.377
後鄭不從	-11.3771
舞大武	-11.3772
環人	-11.3783
徹帷	-11.3788
受命於	-11.3793
入海	-11.3799
冐	-11.3802
激	-11.3803
服不氏	-11.3806
伋	-11.3808
健	-11.381
職方氏	-11.3811
幠	-11.3813
勃	-11.3814
0	-11.3816
本或作	-11.3816
持節	-11.382
劉音	-11.382
笙磬	-11.3822
屈繅	-11.3829
水漿	-11.3838
飲酒之禮	-11.3841
槐	-11.3846
畛	-11.3846
攝盛	-11.3847
飯含	-11.3848
百七十	-11.3848
禕	-11.3852
邈	-11.3852
規矩	-11.3854
元祐	-11.3869
華蟲	-11.3871
私喪	-11.3876
𣙗	-11.3879
升筵	-11.3886
畀	-11.3888
潄	-11.3888
虹	-11.3888
横渠張氏曰	-11.3888
二十九年	-11.389
筲	-11.3892
隘	-11.3893
凟	-11.3893
蒩	-11.3896
篇名	-11.3919
塤	-11.3924
睹	-11.3925
偷	-11.3927
殉	-11.3929
皁	-11.3929
琥	-11.393
裔	-11.393
殁	-11.3932
天産	-11.3933
二千石	-11.3934
圭瓉	-11.3937
往往	-11.3937
通解	-11.3938
贊禮唱	-11.3938
嫡子	-11.394
上𧃊	-11.3941
赤舄	-11.3949
一人舉觶	-11.3954
升壇	-11.3955
尺寸	-11.3956
君子之所	-11.396
皥	-11.3964
説屨	-11.3965
庶昆弟	-11.3966
使下大夫	-11.3966
鷄	-11.3968
厠	-11.3968
傲	-11.397
山陰陸氏曰	-11.3971
觥	-11.3972
未仕	-11.3972
姚	-11.3976
卜葬	-11.3977
綏祭	-11.3977
闕狄	-11.3988
徹饌	-11.4005
雎	-11.4007
敖説	-11.401
溥	-11.401
鎧	-11.4013
馨	-11.4018
墳墓	-11.4019
公之孤	-11.4022
上士四人	-11.4023
執戈	-11.4026
二十里	-11.4027
黔	-11.4045
傚	-11.4045
袡	-11.4059
蔣	-11.406
衍文	-11.4065
琖	-11.4066
春禘	-11.407
丈夫踊	-11.407
京兆	-11.4073
升階	-11.4078
田里	-11.408
閒田	-11.4086
蚳	-11.409
盍	-11.4092
冲	-11.4095
惕	-11.4099
恭儉	-11.4103
外饔	-11.4103
通達	-11.4105
九穀	-11.4107
罷民	-11.4116
舊圖	-11.4116
變動	-11.4119
帷荒	-11.412
昊	-11.4125
金錫	-11.4133
耡	-11.4133
棲	-11.4134
蔚	-11.4134
蕃王	-11.4136
驟	-11.4137
毓	-11.4139
丸	-11.4141
無筭爵	-11.4144
案禮記	-11.4146
二三子	-11.4147
訝士	-11.4148
射之侯	-11.4149
于南郊	-11.4152
深淺	-11.4158
三尺三寸	-11.4163
收斂	-11.4169
䘮紀	-11.417
祖妣	-11.417
蔑	-11.4171
執爵興	-11.4172
相距	-11.4179
孔安國	-11.418
絺綌	-11.4185
臯門	-11.4185
褚	-11.4186
太常博士	-11.4187
千四百	-11.4187
老幼	-11.4195
女巫	-11.4199
以尊降	-11.42
講武	-11.42
殷勤	-11.4207
啓殯	-11.4209
儥	-11.4212
函鍾	-11.4217
營室	-11.4219
擘	-11.4219
汭	-11.4219
酒脯	-11.4225
酢主人主人	-11.4225
侍坐於	-11.4228
其他皆如	-11.4232
鉶南	-11.4235
豈能	-11.4238
考工	-11.4243
日有食之	-11.4248
大功章	-11.4254
每嵗	-11.4257
恣	-11.4258
相息亮反	-11.4258
送終	-11.4259
所有事	-11.4266
椇	-11.4266
醫師	-11.4274
絇繶純	-11.4276
典儀唱	-11.4278
不腆	-11.4278
拜謝	-11.4287
憤	-11.4296
虣	-11.4296
九江	-11.4297
薦脀	-11.4302
騶	-11.4302
摧	-11.4303
承上文	-11.4307
押	-11.4309
仲月	-11.431
居倚廬	-11.4312
作止爵	-11.4313
恐懼	-11.4313
親耕	-11.4318
箙	-11.4322
等級	-11.4326
君之命	-11.4329
潦	-11.4341
辟音避	-11.4342
盗賊	-11.4344
長樂劉氏曰	-11.4345
憾	-11.4346
禮記注疏卷	-11.4346
抗席	-11.4347
料	-11.4348
徒跣	-11.435
掌建邦之	-11.4352
三昭三穆	-11.4357
冔	-11.436
政和禮	-11.4364
如賔禮	-11.4374
獻繭	-11.4378
淮南子	-11.4386
臾	-11.4386
鞮	-11.4387
誌	-11.4387
卽位	-11.4389
軍旅田役	-11.4391
鄉飲酒鄉射	-11.4392
大司冦	-11.4392
太官令	-11.4401
内司服	-11.4403
歳終	-11.4406
亡國之	-11.4409
伯魚	-11.4411
舊典	-11.4411
太祖之廟	-11.4412
與之同	-11.4413
形容	-11.4419
跪奏請	-11.4424
檀	-11.4429
勁	-11.443
揮	-11.4431
醇	-11.4431
樊纓	-11.4436
長尺二寸	-11.4438
鄭目録云	-11.4439
冊府元龜	-11.444
逡	-11.444
𤣥裳	-11.4442
縣西南	-11.4443
兵部	-11.4443
五十弓	-11.4444
鶉火	-11.4444
龍輴	-11.4448
植物	-11.4452
聰	-11.446
昌本	-11.4464
弄	-11.4469
翿	-11.4473
電	-11.4474
堇	-11.4478
奔走	-11.4482
葷	-11.4487
司農云	-11.4487
執皮帛	-11.449
降奠于篚	-11.449
漿人	-11.4494
于東序	-11.4499
大夫之妾	-11.4512
後至者	-11.4512
佞	-11.4516
沉	-11.4517
元嘉	-11.4518
饁	-11.4518
壓	-11.4522
團	-11.4526
變徴	-11.4527
星黄經	-11.4528
出廟門	-11.4534
妾為君	-11.4535
為父後	-11.4539
功德	-11.454
龍旂	-11.454
貴賤之等	-11.4544
十尺	-11.4544
天下國家	-11.4547
豫州	-11.4549
胥師	-11.4554
廋	-11.4558
祍	-11.4558
壟	-11.456
䱷	-11.4562
佳	-11.4562
疊	-11.4571
簿書	-11.4575
南京	-11.4575
王巡守	-11.4579
三日成服	-11.458
九旗	-11.4585
寒氣	-11.4599
君子之道	-11.4599
嫁母	-11.4605
二十四年	-11.4605
阼俎	-11.4608
荷	-11.4608
首尾	-11.4609
鄫	-11.461
絡	-11.4612
雒	-11.4614
揖讓升	-11.4615
四人胥四人徒四十人	-11.4615
江漢	-11.4615
嗇夫	-11.4621
荀卿	-11.4626
博學	-11.4627
小斂奠	-11.4628
畮	-11.4628
后世子	-11.4643
刉	-11.465
棧	-11.4651
魏晉	-11.4651
執鴈	-11.4657
隮	-11.4657
縣東北	-11.4658
地理志	-11.4659
髲	-11.4662
毁廟之主	-11.4662
宋史禮志	-11.4663
鄉飲酒義	-11.4663
衡山	-11.4668
庶老	-11.4669
外内命婦	-11.467
圭璋特	-11.4672
加隆	-11.4678
口徑	-11.4681
酋	-11.4685
儀仗	-11.4688
鄭註云	-11.4689
琅	-11.4692
溲	-11.4695
縣東南	-11.4695
昵	-11.4696
䘏	-11.4697
瓠	-11.47
幘	-11.4701
正鵠	-11.4701
兩君相見	-11.4702
樽	-11.4703
官府都鄙	-11.4705
以此言之	-11.4709
于廟門外	-11.4718
王莽	-11.4725
中書令	-11.4727
笙師	-11.4735
彪	-11.4738
倨句	-11.4739
食菜果	-11.4739
庪	-11.4743
寮	-11.4745
建大常	-11.4746
下管象	-11.4749
枓	-11.4753
揚觶	-11.476
師古曰	-11.4761
繩屨	-11.4766
閉藏	-11.4768
設折俎	-11.4775
州黨	-11.4777
戸西	-11.478
圍去一	-11.4782
汶	-11.4789
振鐸	-11.4791
徐氏	-11.4791
給事中	-11.4791
雨師	-11.4793
甲乙	-11.4795
侯伯之卿	-11.4795
千一百	-11.4796
帝崩	-11.4797
各如其	-11.48
挹	-11.4802
幽州	-11.4805
郭氏	-11.4806
警戒	-11.4811
四岳	-11.4814
皮帛	-11.482
象胥	-11.4824
擔	-11.4825
演	-11.4828
翬	-11.4832
趙孟	-11.4833
圜鍾	-11.4858
社稷宗廟	-11.487
天地社稷	-11.487
怡	-11.4874
璂	-11.4874
黜陟	-11.4875
逾	-11.4876
諸父昆弟	-11.4881
僖祖	-11.4881
二十六年	-11.4882
孔氏頴逹曰	-11.4882
收族	-11.4884
白黒	-11.4886
思念	-11.4887
祠堂	-11.489
踊如初	-11.4892
要帶	-11.4912
許慎	-11.4913
緜	-11.4917
服衮冕	-11.4917
招魂	-11.4918
舛	-11.4919
司禄	-11.4919
闑東	-11.492
􁆡	-11.4923
揭	-11.4923
王圻續通考	-11.4923
璽節	-11.4926
膱	-11.4927
群	-11.4927
僚友	-11.4929
始封之君	-11.4929
斯禁	-11.4935
浪反	-11.494
三十九	-11.4941
阱	-11.4946
二十一年	-11.4951
朝直遥反	-11.4957
白虎	-11.4958
媚	-11.496
尅	-11.4961
句龍	-11.4961
舞蹈	-11.4963
吁	-11.4963
羸	-11.4963
冇	-11.4964
覃	-11.4965
遙	-11.4965
徂	-11.4968
以日易月	-11.4968
尺有五寸	-11.4969
駹	-11.4971
8	-11.4972
服大裘	-11.4979
反一音	-11.4981
寡君之老	-11.4983
貴妾	-11.4989
集傳	-11.5001
齧	-11.5004
冗	-11.5005
㨗	-11.5009
讀禮通考卷	-11.501
不敢忘	-11.5014
掃除	-11.5025
大夫之庶子	-11.5029
下士一人	-11.5037
既虞卒哭	-11.5043
母之父母	-11.5043
畎	-11.5048
襃	-11.505
羈	-11.5053
㓙	-11.5054
乗輿	-11.5054
露紒	-11.5054
禮記集説卷	-11.5057
祈禱	-11.5063
十有六	-11.5067
内壝	-11.5078
杜子春讀	-11.508
祥禫	-11.5084
中士二人下士四人府二人史	-11.5091
實柴	-11.5093
矧	-11.5098
飲酒食肉	-11.5098
萬億	-11.51
三年大比	-11.5106
肅肅	-11.5106
衣衾	-11.5108
西壁	-11.511
毁廟	-11.5115
如上儀	-11.5116
祭一壇	-11.5117
黄琮	-11.5117
壇墠	-11.5121
卒受者	-11.5122
庠序	-11.5127
狐白	-11.5129
毗	-11.5137
螻	-11.5138
胷	-11.5143
三分益一	-11.5144
金華應氏曰	-11.5147
渳	-11.5148
王姬	-11.5149
以爵授	-11.5154
矢箙	-11.5154
在其中矣	-11.5154
與父同	-11.5156
大夫之適子	-11.516
薦熟	-11.5165
壇壝	-11.5166
士相見禮	-11.5174
搢圭	-11.5175
薦孰	-11.5176
墾	-11.5184
稌	-11.5186
鋝	-11.5186
帷堂	-11.5188
慈愛	-11.519
巖	-11.5191
郭璞	-11.5192
出笏	-11.5193
二十五里	-11.5195
詹	-11.5195
頴	-11.5195
三分寸之二	-11.5197
瑶爵	-11.5197
鹵簿	-11.5199
古之君子	-11.5208
伯夷	-11.5216
十一度	-11.5216
「	-11.5219
辭不得命	-11.522
諸侯相朝	-11.5226
嘉石	-11.5229
地祇	-11.5229
媺	-11.5231
王及后世子	-11.5234
綆	-11.5237
仙	-11.5239
一溢米	-11.524
太祖廟	-11.5241
不從政	-11.5242
祔於祖	-11.5243
芹	-11.5244
瑜	-11.5247
悼公	-11.5247
享太廟	-11.5254
加之以	-11.5269
几杖	-11.5273
耨	-11.5274
乳母	-11.5278
蠧	-11.5278
縳	-11.5279
孔氏曰此明	-11.5279
匶	-11.5286
骨體	-11.5287
縰	-11.529
芡	-11.5291
左旋	-11.5291
都尉	-11.5293
郢	-11.5294
頌磬	-11.5296
甗	-11.5298
挾矢	-11.5303
執鎮圭	-11.5305
潞	-11.5309
甲午	-11.5312
褥位	-11.5319
太原	-11.5321
征役	-11.5327
阮	-11.5328
穉	-11.533
掠	-11.533
舜典	-11.5331
菁	-11.5331
紵	-11.5332
薺	-11.5333
礪	-11.5334
荘公	-11.5334
迨	-11.5334
餈	-11.5336
賈氏公彥曰	-11.5336
膞	-11.5337
婚姻	-11.5337
始立學	-11.5341
鑾	-11.5343
為長子三年	-11.5347
坐祭遂飲	-11.535
勞苦	-11.5361
軍吏	-11.5366
短脅	-11.5367
萍	-11.537
長丁丈反	-11.5373
偝	-11.5373
戴記	-11.5374
卓子	-11.5377
孝子之心	-11.5379
以其冠為受	-11.5379
亾	-11.538
胥八人徒八十人	-11.538
甲胄	-11.5381
敞	-11.5382
司尊彛	-11.5383
酎	-11.5383
亶	-11.5383
㕔	-11.5385
錞	-11.5389
存亡	-11.5389
禍福	-11.5394
下士八人	-11.5395
六品以下	-11.5397
字之誤	-11.5403
精麤	-11.5407
何也蓋	-11.5411
愿	-11.5417
薧	-11.542
腒	-11.542
𤣥鳥	-11.5423
這	-11.5424
蝗	-11.5429
夔	-11.5429
分為三	-11.543
未甞	-11.5431
遲速	-11.5432
用剛日	-11.5433
楊氏復曰	-11.5434
北墉下	-11.5437
幎	-11.5438
為人子者	-11.544
體魄	-11.5443
維持	-11.5443
胾醢	-11.5444
父沒	-11.5447
郊之祭	-11.545
清河	-11.5453
雛	-11.5457
劉向	-11.546
覇	-11.5462
裳帷	-11.5464
以疑之	-11.5465
元年正月	-11.5467
鞞	-11.547
忒	-11.547
袴	-11.5475
秫	-11.5477
四十里	-11.5477
癸酉	-11.5479
軒轅	-11.5479
托	-11.5484
竽	-11.5485
表貉	-11.5485
冬日至	-11.5486
右主人獻	-11.5494
尺一寸	-11.5496
諂	-11.5512
左肩	-11.5514
涿	-11.5515
鬬	-11.5516
象限	-11.5517
胸	-11.5521
冠八升	-11.5524
菅	-11.5524
那	-11.5524
禧	-11.5525
祕	-11.5526
陳澔	-11.5527
岸	-11.5528
禮辭許	-11.5529
少皥	-11.5531
吉笄	-11.5531
册	-11.5533
鬐	-11.5534
賔與大夫	-11.5536
地産	-11.5536
西階之西	-11.5539
糶	-11.5548
從祖昆弟	-11.5556
東膠	-11.5565
隣	-11.5567
臥	-11.5567
懋	-11.5568
朝覲宗遇	-11.5568
寐	-11.557
三恪	-11.5571
穰	-11.5571
滋味	-11.5572
致其敬	-11.5575
瞭	-11.5578
挩	-11.5579
闔門	-11.5579
船	-11.5579
褎	-11.558
曳	-11.5583
世父母叔父母	-11.5584
庚午	-11.5584
根本	-11.5584
粉米	-11.559
以義起	-11.5594
為獻主	-11.5595
絺冕	-11.5597
鴆反	-11.5599
犧象	-11.5604
潰	-11.5612
𫉬	-11.5616
辨其名物	-11.5619
啼	-11.5621
匏竹	-11.5622
湊	-11.5624
聿	-11.5625
旅賁	-11.5625
侇	-11.5629
求福	-11.5636
二十八宿	-11.5638
少牢饋食	-11.5644
十五度	-11.5647
朝事之豆	-11.565
國子監	-11.5656
寤	-11.5656
敖繼公	-11.5661
設楅	-11.5661
粲	-11.5663
譯	-11.5663
愾	-11.5664
刖	-11.5665
怵	-11.5665
慟	-11.5667
石梁王氏曰	-11.5671
祀方明	-11.5672
校尉	-11.5672
卺	-11.5674
卣	-11.5678
阼階上北面	-11.568
酹	-11.5681
造化	-11.5682
千八百	-11.5703
踐阼	-11.5703
武王伐紂	-11.5714
旃	-11.5714
禎	-11.5718
荁	-11.5718
建寅之月	-11.5721
膋	-11.5722
閟	-11.5726
太常卿引皇帝	-11.5726
下殤小功	-11.5727
戊辰	-11.5729
?」	-11.5732
蒼璧	-11.5732
大功之親	-11.5732
瘞埋	-11.5734
王介甫曰	-11.576
荅再拜	-11.5765
簜	-11.5765
王安石	-11.5766
鏗	-11.5767
田畯	-11.5768
件	-11.5768
匕湇	-11.5768
台	-11.5768
譙	-11.5772
陶匏	-11.5773
東西南北	-11.5775
空首	-11.5776
穀梁傳	-11.5778
絢	-11.5778
水經注	-11.5782
角柶	-11.5788
升一等	-11.5794
賦貢	-11.5797
爲于僞反	-11.5797
其實一也	-11.5804
分為二	-11.5805
序西南	-11.5805
醳	-11.5806
第八	-11.5813
精微	-11.5814
新安朱氏曰	-11.5815
纔	-11.5816
縛	-11.5817
牌	-11.5818
先嗇	-11.5818
鏞	-11.5819
撞	-11.5821
命士以上	-11.5822
百歩	-11.5822
俯伏興	-11.5823
央	-11.5826
朱紘	-11.5829
副貳	-11.5834
户部	-11.5842
敬姜	-11.5842
聖人制禮	-11.5846
二十七年	-11.585
承㫖	-11.5854
吝	-11.5855
冩	-11.5863
頥	-11.5865
閎	-11.587
淅	-11.5871
戊寅	-11.5874
盥饋	-11.5876
帗舞	-11.5878
曹伯	-11.5889
麷	-11.589
己巳	-11.5892
肺脊	-11.5894
不相襲	-11.5894
丹墀	-11.5895
實于篚	-11.5903
尚書省	-11.5905
庳	-11.5911
孔悝	-11.5912
吳氏澄曰	-11.5914
耿	-11.5915
夫之昆弟	-11.5916
房中南面	-11.5916
搜	-11.5916
諷誦	-11.5917
嘏辭	-11.5918
鬠	-11.5919
蜼	-11.5919
粤	-11.592
綂	-11.5921
脇	-11.5925
禮直官引	-11.5928
坐取觶	-11.593
髀不升	-11.5931
垂繅	-11.5936
奠于篚	-11.594
臊	-11.5951
配上帝	-11.5952
女子子適人者	-11.596
假借	-11.5967
剪	-11.5969
眷	-11.597
傳曰何以期也	-11.5973
拾踊	-11.5979
擭	-11.5996
鼓吹	-11.6003
車騎	-11.6005
碎	-11.6015
蕪	-11.6015
睢	-11.6015
膷	-11.602
牡麻	-11.6021
厭飫	-11.6024
龡	-11.6027
齋郎	-11.6031
舉肺脊	-11.6035
泛齊	-11.6039
尚左手	-11.605
先王先公	-11.6052
患難	-11.6057
邑宰	-11.6058
執披	-11.606
虗	-11.6063
瑗	-11.6064
勵	-11.6066
韗	-11.6067
治其政令	-11.6067
薛氏曰	-11.6069
主人坐奠爵	-11.607
協律郎	-11.6071
麋臡	-11.6073
芝	-11.6073
膮	-11.6074
與天子同	-11.6083
三年正月	-11.6087
衙	-11.6089
竹箭	-11.6091
匣	-11.6116
升歌清廟	-11.6116
牙璋	-11.6118
皮弁素積	-11.612
禨	-11.6122
皂	-11.6123
奉禮郎	-11.6123
掌其戒令	-11.6123
蝕	-11.6124
乙酉	-11.6125
乙丑	-11.613
蒲筵	-11.6132
康叔	-11.6136
行下孟反	-11.615
司巫	-11.6154
依注音	-11.6156
蓬	-11.6157
耐	-11.6158
酪	-11.616
孳	-11.6162
贍	-11.6164
霆	-11.6165
幄帟	-11.6167
亹	-11.6167
典婦功	-11.6168
四圭有邸	-11.617
皇地祗	-11.6174
伏羲	-11.6174
三品以上	-11.6177
芮	-11.6177
大功之末	-11.618
者以經云	-11.6185
交擯	-11.6189
械	-11.6204
噍	-11.6205
迆	-11.6212
縚	-11.6213
窺	-11.6215
翠	-11.6215
㽔	-11.6215
刈	-11.6218
刄	-11.6221
髙禖	-11.6227
武帝本紀	-11.6235
精粗	-11.6235
關市	-11.6238
殿庭	-11.6239
冊寶	-11.6245
南面西上	-11.6253
劵	-11.6259
句股	-11.626
憎	-11.6262
主婦獻尸	-11.6263
䋲	-11.6268
末擯	-11.6268
太上皇	-11.6269
命去侯	-11.6269
曜	-11.6276
圭璋璧琮	-11.6278
夏日至	-11.6282
戊申	-11.6283
血毛	-11.6287
襃衣	-11.6288
素沙	-11.6297
殄	-11.6314
康誥	-11.6318
銜枚	-11.6319
縓縁	-11.6323
輟朝	-11.6328
綵	-11.6328
鞔	-11.6331
簷	-11.6334
晉文公	-11.634
化育	-11.6341
自由也	-11.6346
竄	-11.6369
納射器	-11.637
麓	-11.637
熾	-11.637
產	-11.637
洩	-11.6371
篠	-11.6372
駔	-11.6372
棣	-11.6373
豬	-11.6379
俶	-11.6379
雝	-11.6381
以少為貴	-11.6382
癸亥	-11.6383
在位者皆再拜	-11.6385
瓦甒	-11.6385
五禮通考卷一百	-11.6386
丁丑	-11.639
叩頭	-11.6391
相沿	-11.6399
梱	-11.6409
矰	-11.641
一節論	-11.6413
庀	-11.642
喜怒哀樂	-11.6421
杜子春	-11.6422
効	-11.6423
魂魄	-11.6424
聫	-11.6425
行春令則	-11.6425
果蓏	-11.6426
陘	-11.6429
鄰里	-11.6431
肱	-11.6432
鷖	-11.6436
殤與無後	-11.6436
八佾	-11.6439
勾龍	-11.644
甲寅	-11.6441
崇牙	-11.6448
蟈	-11.6463
紇	-11.6468
枝葉	-11.647
教坊	-11.6472
沖	-11.6478
皿	-11.6482
村	-11.6484
靈威仰	-11.6484
陸佃	-11.6486
倚廬	-11.649
萬九千	-11.6496
冠六升	-11.6502
緦麻三月	-11.6506
畿外諸侯	-11.6509
歌鹿鳴	-11.6511
鵲	-11.6519
毀	-11.6524
堲	-11.6527
建寅	-11.6528
季武子	-11.6528
諜	-11.6529
梠	-11.6531
擣	-11.6532
千萬	-11.6533
十三度	-11.6542
乾坤	-11.6549
城隍	-11.6551
己丑	-11.6553
諸侯之卿大夫	-11.656
岱宗	-11.6566
虎皮	-11.6572
帑	-11.6576
與音餘	-11.6578
陳用之曰	-11.658
杭	-11.6582
薪蒸	-11.6582
顓	-11.6582
諷	-11.6583
麕	-11.6583
諒闇	-11.6583
鮒	-11.6587
軨	-11.6588
漫	-11.6589
髺	-11.6592
小司冦	-11.6593
䵄	-11.6608
散齋	-11.6621
桯	-11.6626
汜	-11.663
匪頒	-11.6634
兢	-11.6635
狥	-11.6636
先薦寢廟	-11.6636
裸	-11.6639
箸	-11.664
拄	-11.6641
甄	-11.6643
丙午	-11.6647
奭	-11.6649
固以請	-11.6652
墟	-11.6684
柘	-11.6689
孔氏穎達曰此論	-11.6703
星去極	-11.6703
殿中監	-11.6704
占夢	-11.6706
屈伸	-11.6706
掌其禁令	-11.6707
寸二分	-11.6722
孔氏曰自此至	-11.6723
斲	-11.673
慨	-11.6734
樂音洛	-11.6734
贖	-11.6735
悅	-11.6737
鍛	-11.6743
寗	-11.6749
受勞問者	-11.6761
甲戌	-11.6762
納亨	-11.6767
妻為夫	-11.6785
讒	-11.6793
詭	-11.6795
鳶	-11.6797
湘	-11.6798
澤藪	-11.68
得與於祭	-11.6801
瞍	-11.6803
竿	-11.6803
父母之䘮	-11.6806
乙亥	-11.6809
笭	-11.681
煬	-11.6811
李氏如圭曰	-11.6813
簫管	-11.6813
房戸	-11.6825
素錦	-11.6828
跪讀	-11.6829
曽祖父母	-11.6832
猷	-11.6848
驛	-11.6855
大國之孤	-11.6859
庛	-11.686
少昊	-11.6865
儷皮	-11.6865
牘	-11.6867
夷槃	-11.6867
五品以上	-11.6871
屋漏	-11.6874
傑	-11.6894
今從方本	-11.6898
鎭	-11.6898
與王同	-11.6901
槁	-11.6905
耕藉	-11.6907
州刺史	-11.6907
咳	-11.691
鉏	-11.6912
什伍	-11.6912
纛	-11.6915
朱白蒼	-11.6915
五十里之國	-11.6916
貟	-11.6917
釡	-11.6929
江淮	-11.6931
奉慰	-11.6942
加于肵	-11.6944
玄冕	-11.6947
坏	-11.6949
袵	-11.6956
掉	-11.6964
慊	-11.6965
蟻	-11.6965
薑桂	-11.6967
轄	-11.6969
翼翼	-11.6973
杯	-11.6975
翰林	-11.6975
二十而冠	-11.6976
贊引引	-11.6977
寸六分	-11.6985
駐	-11.6986
少頃	-11.6997
裾	-11.7011
沔	-11.7012
五齊三酒	-11.7018
響	-11.7019
三耦卒射	-11.702
翕	-11.7022
正義曰此一經	-11.7022
賈逵	-11.7023
千六百	-11.7023
樵	-11.7025
茆	-11.7025
應氏鏞曰	-11.7025
悞	-11.7027
戊午	-11.7029
臐	-11.7029
罇罍	-11.7036
辛卯	-11.7045
鄒	-11.7071
賢者能者	-11.7074
快	-11.7075
臻	-11.7075
垼	-11.7075
五人為伍	-11.7077
杝	-11.7077
十五里	-11.7079
楯	-11.7081
陳祥道	-11.7082
廵狩	-11.7082
削幅	-11.7082
壬申	-11.7083
帀	-11.7084
季康子	-11.7084
月朔日	-11.7086
饎爨	-11.7089
建丑	-11.712
寛裕	-11.7123
倮	-11.7127
龠	-11.7127
路寝	-11.7128
脈	-11.713
笮	-11.7131
薪芻	-11.7132
馘	-11.7135
巍	-11.7136
句芒	-11.7139
茢	-11.714
今律文	-11.7141
鮮魚鮮腊	-11.7144
納徵	-11.7167
千三百	-11.7176
劫	-11.7177
歷	-11.7178
椹質	-11.7182
㬥	-11.7184
粹	-11.7187
點	-11.7188
秃	-11.7189
蘋	-11.7192
粒	-11.7192
二百一十國	-11.7193
臼	-11.7193
楚茨	-11.7194
芾	-11.7195
凶札	-11.7197
羃	-11.7197
捲	-11.7198
庚戌	-11.7201
挑	-11.7203
辛丑	-11.7203
揖讓如初	-11.7205
希冕	-11.7206
土地之圖	-11.7239
䧟	-11.7239
耕耨	-11.7241
遮	-11.7243
倪	-11.7244
銓	-11.725
卒哭成事	-11.7251
罽	-11.7254
以杖即位	-11.7255
缺項	-11.7258
煌	-11.7259
日躔	-11.7261
四方百物	-11.7265
滅性	-11.7269
鷙	-11.7288
衙門	-11.7298
拍	-11.7301
恆	-11.7301
懇	-11.7303
梗	-11.7303
槨	-11.7303
餒	-11.7303
從父兄弟	-11.7304
翊	-11.7305
餙	-11.7306
跣	-11.7306
儷	-11.7306
甘泉	-11.7307
區區	-11.7307
紛紛	-11.7307
葆	-11.7308
紀綱	-11.7316
十有二旒	-11.7325
霍山	-11.7325
契丹	-11.7326
淸	-11.7351
仆	-11.7354
囷	-11.7355
鍭	-11.7355
鐏	-11.7362
炤	-11.737
交際	-11.7376
箭笄	-11.74
餓	-11.7401
冕弁	-11.7404
羌	-11.7407
劾	-11.7411
挫	-11.7413
散帶垂	-11.7416
斗斛	-11.7416
甸稍縣都	-11.7417
詢衆庶	-11.7419
曲阜	-11.7421
蜩	-11.7421
寡君使某	-11.7422
拚	-11.7422
搔	-11.7424
幔	-11.7424
腰絰	-11.7428
要節而踊	-11.7431
妾祖姑	-11.7431
斟酒	-11.7432
丁卯	-11.7435
繁纓	-11.7436
大夫三廟	-11.7443
中書門下	-11.7446
匕湆	-11.746
貿	-11.7466
劔	-11.7467
佾	-11.7474
旱暵	-11.7476
𤣥枵	-11.7476
㤙	-11.7477
浹	-11.748
觀承案	-11.7481
君臣父子	-11.7483
緅	-11.7483
通事舍人引	-11.7505
綽	-11.7524
㪚	-11.7525
覬	-11.753
黃鍾	-11.7531
惚	-11.7534
筍虡	-11.7535
埴	-11.7535
鰥	-11.7538
臠	-11.7543
魂帛	-11.7546
庚辰	-11.755
淄	-11.7555
十有四	-11.7558
朱裏	-11.7562
十五升布	-11.7579
茨	-11.7592
覈	-11.7592
腶	-11.7593
愠	-11.7593
綜	-11.7595
儳	-11.7595
畱	-11.7595
男女有别	-11.7597
怍	-11.7598
杓	-11.7598
以某妃配某氏	-11.7606
致爵于主人	-11.7612
朐	-11.7612
中書省	-11.7615
彈琴	-11.7617
奠觶于薦	-11.7626
肯	-11.7632
剽	-11.7633
攢	-11.7647
僑	-11.7649
兊	-11.765
王氏詳說曰	-11.7651
頽	-11.7654
員外郎	-11.7654
伶	-11.7654
車一乘	-11.7655
宸	-11.7657
徐氏師曾曰	-11.7658
龕	-11.766
觜	-11.7661
斗柄	-11.7662
第二十	-11.7674
敗績	-11.7701
阨	-11.7711
鍼	-11.7714
苹	-11.7715
緆	-11.7715
郁	-11.7716
𬒮	-11.7716
馨香	-11.7719
帽	-11.7727
声	-11.7746
頑	-11.7762
親而不尊	-11.7767
祜	-11.7767
頎	-11.7768
王氏詳説曰	-11.7768
禒	-11.7771
做	-11.7774
媺惡	-11.7777
赬	-11.7777
畋	-11.7777
樞宻	-11.7778
案今注疏	-11.7779
監察御史	-11.778
紃	-11.7782
執幂者	-11.7785
食貨志	-11.7827
蓐收	-11.7834
昧爽	-11.7834
股肱	-11.7834
弑其君	-11.7835
浚	-11.7835
販	-11.7835
儆	-11.7836
紺	-11.7837
盤庚	-11.7844
辛酉	-11.7847
拜其辱	-11.7853
燅	-11.7855
周禮注疏卷	-11.7885
鉤邊	-11.7887
踣	-11.789
叟	-11.7893
翳	-11.7894
犒	-11.7894
昇	-11.7896
晞	-11.7897
熙寧	-11.7898
腵脩	-11.7899
髤	-11.7901
髺髪	-11.7904
執皮者	-11.7904
賀循	-11.7908
阡	-11.7914
光禄卿	-11.7914
百里之國	-11.7924
中從下	-11.7929
窒	-11.795
莎	-11.7951
與音預	-11.7952
懾	-11.7953
蟹	-11.7955
鐙	-11.7956
喙	-11.7956
筠	-11.7956
素縞麻衣	-11.7959
孔氏曰此一節明	-11.7961
司爟	-11.7965
連衣裳	-11.7968
旅衆也	-11.7972
前期三日	-11.7979
畚	-11.8011
紖	-11.8014
兌	-11.8016
贅	-11.8017
杵	-11.8018
哀子某	-11.802
媯	-11.8021
肆獻祼	-11.8022
髙紫超曰	-11.8022
庚寅	-11.8025
葅	-11.8029
子事父母	-11.8032
小國之卿	-11.8037
縶	-11.807
遑	-11.8073
行秋令則	-11.8074
憐	-11.8075
洋洋	-11.8077
飮	-11.8085
櫟	-11.8087
彗	-11.8091
朱綠	-11.8091
眾	-11.8091
盈縮	-11.8091
辟正主	-11.8092
禮儀使奏請	-11.8095
史佚	-11.8097
奠爵于篚	-11.8099
公家之	-11.811
方相氏	-11.8134
敢問何	-11.8136
行冬令則	-11.8138
盡階不升堂	-11.814
跳	-11.8143
婦為舅姑	-11.8146
秅	-11.8148
翰林院	-11.8148
禮書綱目卷	-11.8152
膉	-11.816
璋瓚	-11.8169
主人之贊者	-11.8177
謗	-11.819
覘	-11.8192
酋矛	-11.8196
上時掌反	-11.8197
九夫為井	-11.8198
年春王正月	-11.8199
稚	-11.8203
黷	-11.8206
另	-11.8206
疏食水飲	-11.8207
秋嘗冬烝	-11.8207
洛誥	-11.8209
茇	-11.8209
』	-11.821
浪	-11.8217
薰	-11.8258
夫音扶	-11.8259
骸	-11.826
銷	-11.8261
髙堂生	-11.8262
顔淵	-11.8263
㐮	-11.8266
鞂	-11.8268
現	-11.8268
。6.	-11.8269
罄	-11.8269
翰林學士	-11.8272
出妻之子	-11.8272
鏄	-11.8273
以多為貴	-11.8274
龜蛇	-11.8275
曰孝孫某	-11.8279
爟	-11.8304
撟	-11.8314
擢	-11.8321
搢笏跪	-11.8321
豉	-11.8323
詐偽	-11.8324
涵	-11.8326
喜怒	-11.8327
行夏令則	-11.8328
師田行役	-11.8329
劭	-11.833
孝慈録	-11.8331
竽笙	-11.8332
璣	-11.8332
欽定禮記義疏卷	-11.8334
氊	-11.8335
層	-11.8335
三年喪畢	-11.8338
纁裏	-11.8339
壬寅	-11.8342
奏外辦	-11.8342
尺三寸	-11.8352
知然者	-11.8375
猗	-11.8386
剝	-11.8387
釜	-11.8389
虜	-11.8391
蚍蜉	-11.8391
庾蔚之	-11.8394
未之有也	-11.8394
髙氏誘曰	-11.8397
莠	-11.8398
孑	-11.8403
正義賈氏公彦曰	-11.8406
慾	-11.8448
麴	-11.8449
刼	-11.8451
飴	-11.8454
眡滌濯	-11.8456
輢	-11.8456
弔服加麻	-11.8458
爇	-11.846
斁	-11.8461
上公九命	-11.8462
腯	-11.8466
晳	-11.8511
臨川王氏曰	-11.8516
螟	-11.8516
寂	-11.8517
蔓	-11.8518
培	-11.8518
寧之曲	-11.852
滓	-11.8523
勾芒	-11.8524
煦	-11.8525
各當其	-11.8525
岷	-11.8528
大喪廞	-11.8528
耤	-11.8528
侈袂	-11.8529
素委貌	-11.853
降殺以兩	-11.8532
三禮圖	-11.8533
踊無算	-11.8533
户牖之間	-11.8535
長幼之序	-11.8555
閽	-11.8559
好呼報反	-11.8573
德行道藝	-11.8576
笫	-11.8586
慘	-11.8586
絅	-11.8587
鹵	-11.8588
孔穎達	-11.859
㐫	-11.8591
欄	-11.8594
鉉	-11.8596
袝	-11.8597
房中之羞	-11.8598
明㑹典	-11.8598
祖之所自出	-11.8611
曰臣聞	-11.8616
椸	-11.8636
淆	-11.8644
桁	-11.8645
箎	-11.8648
疲	-11.8648
砥	-11.8649
􁉛	-11.8653
蝸	-11.8653
兩圭有邸	-11.8653
食肉飲酒	-11.8653
餅	-11.8655
護	-11.8655
縞冠素紕	-11.8656
鑣	-11.8656
禆冕	-11.8657
駙	-11.8659
絞紟衾	-11.866
幞頭	-11.8662
御史臺	-11.8662
檜	-11.8663
丙寅	-11.8664
輲	-11.8668
黨正飲酒	-11.8688
壑	-11.871
其山鎮曰	-11.8712
旊	-11.8715
㤗	-11.8715
佃	-11.8715
撮	-11.8717
明齋王氏曰	-11.8719
樿	-11.872
鍜	-11.8721
注釋曰鄭知	-11.8722
禍烖	-11.8722
斾	-11.8722
菅屨	-11.8722
晉書天文志	-11.8725
蔟	-11.8734
先行燕禮	-11.8753
囯	-11.8753
阼階上西面	-11.8759
冨	-11.8776
舘	-11.8781
頼	-11.8782
建子之月	-11.8785
刷	-11.8785
飱牽	-11.8787
挂	-11.879
以竹為之	-11.8792
鈔	-11.8792
欬	-11.8793
贊者承傳	-11.8793
王與后	-11.8794
乙卯	-11.8797
癸巳	-11.8798
野廬氏	-11.8839
㰱	-11.8842
楷	-11.8843
六畜車輦	-11.8846
鈍	-11.8848
篹	-11.8849
昬姻	-11.885
吞	-11.885
聊	-11.885
燾	-11.8851
宋衛湜撰	-11.8852
賚	-11.8852
菁菹	-11.8853
縠	-11.8855
裝	-11.8856
嶡	-11.8858
梡	-11.886
壬辰	-11.8869
制禮作樂	-11.8874
攫	-11.8902
㲈	-11.8908
汗	-11.8909
廓	-11.891
悽愴	-11.891
恙	-11.8914
朌	-11.8917
舉旅行酬	-11.8921
二昭二穆	-11.8932
坡	-11.8936
䜴	-11.8963
逋	-11.8965
歉	-11.8966
掾	-11.8966
其孰能	-11.8975
鄭剛中曰	-11.8977
鈇鉞	-11.8983
?	-11.8985
旞	-11.8986
宋陳祥道撰	-11.8988
侏儒	-11.8991
答一拜	-11.8992
衎	-11.9042
鹿盧	-11.9048
鞉	-11.905
尊而不親	-11.9051
熒	-11.9053
襟	-11.9054
搢大圭	-11.9055
戀	-11.9055
胉	-11.9057
餘方百里者	-11.9063
澶	-11.9064
幃	-11.9066
洗升酌	-11.9111
瘳	-11.9116
鐡	-11.9116
周禮訂義卷	-11.9117
堩	-11.9119
王先生曰	-11.9121
蹶	-11.9121
通事舍人	-11.9123
貼	-11.9125
踖	-11.9125
黏	-11.9126
炬	-11.9128
分緯北	-11.913
焞	-11.9131
以北為上	-11.9134
脡脊	-11.9135
還罇所	-11.9137
次賔羞	-11.9156
徭役	-11.9182
券	-11.9182
拙	-11.9183
郕	-11.9185
夹	-11.9187
鏡	-11.9189
焫蕭	-11.9193
以肝從	-11.9194
榜	-11.9195
諮	-11.9195
分緯南	-11.9199
蒨	-11.9201
大司成	-11.9209
月而卒哭	-11.924
募	-11.9251
殛	-11.9253
查	-11.9253
疵	-11.9253
阪	-11.9256
插	-11.9256
杜蕢	-11.9257
驅逆之車	-11.9257
芸	-11.9257
陳君舉曰	-11.9258
沱	-11.9259
閻	-11.9261
甯	-11.9266
粻	-11.9266
鎬	-11.9267
丙戌	-11.9268
南北以堂深	-11.9269
即皇帝位	-11.9269
匰	-11.9272
祭于豆間	-11.9275
嵗一見	-11.9281
靑	-11.9323
喧	-11.9323
莅	-11.9324
騑	-11.9327
揷	-11.9328
逞	-11.9331
樞宻院	-11.9334
:『	-11.9336
撤	-11.9336
髢	-11.9341
匙	-11.9342
鴻臚寺	-11.9349
簇	-11.9394
彄	-11.9396
㒒	-11.9396
廻	-11.9396
扣	-11.9398
茲	-11.9398
險阻	-11.9399
閼	-11.9399
誡	-11.94
譁	-11.94
髠	-11.9401
浦	-11.9402
驁	-11.9404
犂	-11.9408
大裘而冕	-11.9412
贊禮者引	-11.9417
斈	-11.9452
騷	-11.9461
禺	-11.9464
觵	-11.9465
韐	-11.9469
儻	-11.947
講義曰	-11.9471
鄴	-11.9476
樞密	-11.9476
度中旦	-11.9482
虎蜼	-11.9485
洮	-11.949
羊肉湇	-11.9515
辝	-11.9516
熏	-11.9519
饋食之豆	-11.9526
下及注同	-11.9532
騁	-11.9533
桎	-11.9535
盲	-11.9538
茹	-11.954
建焉而辰在	-11.954
竒衺	-11.9541
眼	-11.9541
鰭	-11.9546
趙盾	-11.9546
揃	-11.9547
方慤曰	-11.9548
彜	-11.955
風師雨師	-11.955
鄊	-11.955
黝堊	-11.955
鴻臚	-11.9552
壬戌	-11.9553
迓	-11.9553
肝膋	-11.9557
升自東階	-11.9557
坐奠觶遂拜執觶興	-11.9559
攜	-11.9607
䐑	-11.9608
擊柝	-11.961
梧	-11.961
蠯	-11.961
蓐	-11.9611
啜	-11.9614
鹿臡	-11.9615
藝文志	-11.9615
縑	-11.9615
苞筲	-11.9617
狭	-11.962
槃匜	-11.962
挋	-11.9621
癸丑	-11.9622
槱燎	-11.9623
盝	-11.9623
!	-11.9627
捝	-11.9627
遯	-11.9675
比閭族黨	-11.9679
妬	-11.9683
炳	-11.9683
䧏	-11.9684
挍	-11.9684
俸	-11.9684
帖	-11.9685
譴	-11.9687
蔥	-11.9689
眇	-11.9689
壮	-11.969
徒百有二十人	-11.9692
初初刻	-11.9746
出請入告	-11.9754
薤	-11.9755
匍	-11.9755
匐	-11.9755
大王王季	-11.9756
杅	-11.9756
五家為比	-11.9757
褖	-11.9757
愁	-11.9758
剔	-11.9758
渥	-11.9758
節服氏	-11.9762
黄門侍郎	-11.9763
孔頴達	-11.9764
囬	-11.9766
柱楣	-11.9767
中士四人下士八人	-11.9768
隋書禮儀志	-11.977
第四十	-11.9771
腠	-11.9771
飪一牢	-11.9771
俯伏興平身	-11.9773
為祖後者	-11.9774
導駕官同太常卿導引	-11.978
骹	-11.9823
别彼列反	-11.9824
復扶又反	-11.9824
鍔	-11.9825
䰞	-11.9828
搹	-11.9828
鼠	-11.9831
漕	-11.9832
着	-11.9832
蒼梧	-11.9832
懌	-11.9834
紡	-11.9834
簒	-11.9835
不命之士	-11.9838
周南召南	-11.9839
葺	-11.9839
綢	-11.9841
羣廟之主	-11.9842
警蹕	-11.9845
孔氏穎達曰此明	-11.9851
勝國之社	-11.9856
誑	-11.9888
曼	-11.9898
趺	-11.9898
啇	-11.99
輂	-11.99
塲	-11.9903
之氣乗之也	-11.9905
掔	-11.9905
睦婣	-11.9906
喚	-11.9906
闡	-11.9907
十餘年	-11.9908
大祀天地于南郊	-11.9908
仂	-11.991
襯	-11.9911
設官分職	-11.9912
㛰	-11.9912
父母妻長子	-11.9913
中斗建	-11.9914
舁	-11.9914
父之所不降	-11.992
萬七千	-11.9922
納采問名	-11.9923
侃	-11.9974
徬	-11.9975
㧞	-11.9975
稀	-11.9976
掛	-11.9978
事死如事生	-11.9979
均其稍食	-11.9979
胡氏銓曰	-11.9981
無體之禮	-11.9983
逡遁	-11.9985
息老物	-11.9985
眞	-11.9985
瑣	-11.9986
稜	-11.9987
褰	-11.9987
當室之白	-11.999
牀笫	-11.9991
奠于薦南	-11.9992
𤣥衣纁裳	-11.9993
塪	-11.9997
驪姬	-12.0045
􁏐	-12.0047
聦	-12.005
濵	-12.0053
劇	-12.0053
矇	-12.0054
糓	-12.0055
還音旋	-12.0058
司尊彝	-12.0058
繻	-12.0059
娵	-12.0059
五世則遷	-12.0062
西牆下	-12.0064
疈	-12.0064
宋兩朝天文志	-12.0065
篪	-12.0066
壎	-12.0125
捶	-12.0129
構	-12.0132
儗	-12.0133
婺	-12.0134
縈	-12.0137
屛	-12.0137
於五禮屬	-12.0138
甎	-12.0138
詆	-12.0139
。3.	-12.0148
晡	-12.0151
訴	-12.0197
饉	-12.0201
麇	-12.0203
軟	-12.0208
娩	-12.0208
馮相氏	-12.0209
陌	-12.0212
曩	-12.0213
以韋為之	-12.0214
湅	-12.0214
亞終獻	-12.0217
蜎	-12.0217
摘	-12.0218
􁐋	-12.0219
禇	-12.0219
感生帝	-12.022
斉	-12.0261
鱻	-12.0274
慙	-12.0277
比毗志反	-12.0278
讇	-12.0279
瑶	-12.028
㤀	-12.0284
婦見舅姑	-12.0284
報本反始	-12.0284
釘	-12.0285
椽	-12.0286
貔	-12.0286
鎬京	-12.0286
閽寺	-12.0288
獺祭魚	-12.0289
仭	-12.029
擗	-12.029
刳	-12.0292
籑	-12.0293
司尊彞	-12.0294
鶴	-12.0295
沴	-12.0295
大中祥符	-12.0298
飯告飽	-12.03
幡	-12.0302
乱	-12.0344
鞀	-12.0354
泠	-12.0354
四井為邑	-12.0355
煥	-12.0356
謖	-12.0357
皓	-12.0358
臟	-12.0363
遁	-12.0364
葉氏夢得曰	-12.0364
栭	-12.0365
澗	-12.0365
膷臐膮	-12.0367
樛	-12.0368
古亂反	-12.037
綠	-12.037
窬	-12.0423
蟜	-12.0431
􁈘	-12.0433
以當邦賦	-12.0436
帗	-12.0438
涖臨也	-12.0439
莱	-12.0439
寃	-12.044
牂	-12.044
董仲舒	-12.0441
入天子之國	-12.0446
禮神之玉	-12.0447
傋	-12.0452
拜妥尸	-12.0458
羊肉湆	-12.0478
售	-12.0507
輮	-12.0507
緡	-12.0512
豺	-12.0513
搢三挾一个	-12.0513
哨	-12.0514
卝	-12.0514
錮	-12.0516
蚩尤	-12.0517
泯	-12.0518
氾	-12.0519
㝷	-12.052
周氏諝曰	-12.0524
享嘗乃止	-12.0524
斑	-12.0526
太樂令	-12.0527
繰	-12.053
内贊奏	-12.0532
韔	-12.0586
叱	-12.059
蹇	-12.0598
換	-12.0598
朱干玉戚	-12.0602
䄠	-12.0604
顙	-12.0604
朂	-12.0604
褧	-12.0604
春祠夏禴	-12.0606
當前束	-12.0606
兩階之間	-12.0609
明史禮志	-12.0619
上尊號曰	-12.0622
肖	-12.0669
椹	-12.067
忝	-12.0672
登其夫家	-12.0675
抄	-12.0675
跋	-12.0676
譚	-12.0676
仄	-12.0677
鵲巢	-12.0679
逓	-12.068
佗	-12.068
渴	-12.0681
詡	-12.0681
縦	-12.0681
閫	-12.0682
洗在北堂	-12.0682
縪	-12.0683
秸	-12.0685
輔氏廣曰	-12.0685
變三年之葛	-12.0686
瑚	-12.0687
駱	-12.0687
芋	-12.0687
汴	-12.0689
􁆴	-12.0739
醷	-12.0752
紾	-12.0752
賖	-12.0752
詎	-12.0755
鄢	-12.0755
齊側皆反	-12.0757
疚	-12.0759
鄆	-12.076
潜	-12.0761
薊	-12.0762
未知孰是	-12.0762
昃	-12.0764
交龍為旂	-12.0766
參分庭一在南	-12.077
薦血腥	-12.0772
撢	-12.0828
􁈹	-12.0832
宼	-12.0833
桎梏	-12.0834
饘	-12.0835
谿	-12.0835
雹	-12.0837
剏	-12.0838
從才用反	-12.0839
䊷	-12.084
暘	-12.0841
𤯝	-12.0842
淪	-12.0842
開封府	-12.0843
下士二人府一人史一	-12.0844
禂	-12.0845
隻	-12.0845
飲射爵	-12.0845
太常禮院	-12.0845
窻	-12.0847
上士二人中士四人府二人史四人	-12.0849
千七百	-12.0851
曵	-12.0855
蹜	-12.0861
中士四人下士八人府二人史四人	-12.0903
靧	-12.0917
渙	-12.0917
窟	-12.092
逝	-12.0922
洙	-12.0924
䞓	-12.0925
覸	-12.0926
彚	-12.0928
薇	-12.0931
朗	-12.0931
嘉薦普淖	-12.0931
鼛	-12.0934
籔	-12.0936
奉先殿	-12.0945
去起吕反	-12.0996
肌	-12.0997
疥	-12.1001
彖	-12.1002
律厯志	-12.1004
以為民極	-12.1006
朱子語類	-12.1013
鍚	-12.1017
養國老	-12.1018
咡	-12.1081
燮	-12.1083
司馬降釋弓	-12.1085
淖	-12.1086
憃	-12.1086
卞	-12.1086
堤	-12.1086
尨	-12.1087
斟	-12.1087
寖	-12.1087
挟	-12.1088
保章氏	-12.1088
摳	-12.1089
國有常刑	-12.1093
交擯三辭	-12.1093
屨無絇	-12.1094
轛	-12.1096
景靈宫	-12.1106
叄	-12.1138
眩	-12.1162
翮	-12.1164
􁊾	-12.1167
韲	-12.1168
䕃	-12.1168
厝	-12.1169
渝	-12.1169
聃	-12.1171
淨	-12.1172
刑部尚書徐乾學撰	-12.1174
伉	-12.1175
揺	-12.1175
闓	-12.1175
薑	-12.1176
祖廟未毁	-12.1176
二百一十六	-12.1176
耼	-12.1176
國子之倅	-12.1176
袒决遂	-12.1176
縂	-12.1178
闔牖户	-12.1178
日講禮記解義	-12.1179
人胥六人徒六十人	-12.118
旬有一日	-12.1181
復初位	-12.1183
小聘曰問	-12.1184
蟠	-12.1184
黽	-12.1245
彭蠡	-12.1251
澹	-12.1254
盬	-12.1256
唁	-12.1257
澆	-12.1259
梲	-12.126
趙商問	-12.1261
坦	-12.1261
禮記集說卷	-12.1263
滄	-12.1265
厚半寸脣寸	-12.1266
袘	-12.1279
卿六命	-12.129
嶓	-12.1317
溽	-12.1319
躔	-12.1328
罹	-12.1333
靁	-12.1336
侀	-12.1338
而斗建	-12.1338
兑	-12.1338
暉	-12.1339
倖	-12.1341
鑚	-12.1342
詒	-12.1343
螢	-12.1343
蠢	-12.1344
橘	-12.1344
藨	-12.1344
稠	-12.1345
穡	-12.1345
年不順成	-12.1346
府四人史八人胥八人徒八十人	-12.1348
鷺	-12.1348
鑽	-12.1349
匈奴	-12.1351
西墉下	-12.1353
來觀禮	-12.1354
千九百	-12.1361
嶽鎮海瀆	-12.1378
怯	-12.1421
咺	-12.1425
凷	-12.1425
吾從周	-12.1428
散騎常侍	-12.1428
萇	-12.143
朔月月半	-12.143
王日一舉	-12.1431
􁇲	-12.1431
崔靈恩	-12.1432
挈壺氏	-12.1432
共工氏	-12.1432
晁	-12.1433
梐枑	-12.1434
菱	-12.1434
疈辜	-12.1435
三公八命	-12.1435
轢	-12.1439
出門左西面	-12.144
内矩分	-12.1475
知音智	-12.1506
王居明堂禮	-12.1508
恂	-12.1509
渚	-12.1509
邳	-12.1513
芽	-12.1513
嘻	-12.1516
恬	-12.1516
河間獻王	-12.1516
謐	-12.1518
驩	-12.1518
如何不淑	-12.1519
鋌	-12.1519
媧	-12.1522
禘其祖之所自出	-12.1523
祝命佐食	-12.1524
椌	-12.1524
糗餌粉餈	-12.1524
璁	-12.1525
諦	-12.1527
皇祖伯某	-12.1531
祴	-12.1534
骴	-12.1585
儕	-12.1589
皡	-12.1592
焄	-12.1597
茫	-12.16
移風易俗	-12.1601
蘓	-12.1602
廼	-12.1602
杏	-12.1603
祛	-12.1604
鍪	-12.1605
桷	-12.1606
鯉	-12.1607
邕	-12.1607
劬	-12.1608
哭不絶聲	-12.161
大報天而主日	-12.161
嫗	-12.1614
傳曰何以大功也	-12.1617
洗升實觶	-12.1617
奉天殿	-12.1629
捌	-12.1653
捐	-12.1679
􁀎	-12.168
鬽	-12.1681
肸	-12.1681
淇	-12.1687
匄	-12.1687
恢	-12.1688
雊	-12.169
匽	-12.169
之氣乘之也	-12.169
四閭為族	-12.1692
樴	-12.1693
哀未忘	-12.1694
庋	-12.1695
戞	-12.1695
鳯凰	-12.1696
床	-12.1696
駵	-12.1697
霑	-12.1698
各下其君二等	-12.1699
騋	-12.17
剰	-12.1705
年春二月	-12.1721
献	-12.1753
瀦	-12.177
治直吏反	-12.1773
陳及之曰	-12.1777
瘦	-12.1778
翹	-12.1778
臬	-12.178
稔	-12.1782
剖	-12.1783
洎	-12.1783
脆	-12.1783
沭	-12.1783
崧	-12.1784
追享朝享	-12.1787
君行一臣行二	-12.1789
裙	-12.1789
襴	-12.1794
靲	-12.1794
燈	-12.1794
茭	-12.1838
睫	-12.1855
彩	-12.1861
囹圄	-12.1866
媿	-12.1866
莢	-12.1867
阞	-12.187
迅	-12.1871
逵	-12.1871
郯	-12.1871
趙簡子	-12.1872
芐	-12.1872
負東塾	-12.1876
揖如升射	-12.1876
尊祖故敬宗	-12.1877
盂	-12.1878
嚭	-12.1879
直室東隅	-12.1879
汧	-12.1879
俑	-12.1879
欵	-12.188
跨	-12.188
沃尸盥	-12.1881
年秋八月	-12.1883
年河決	-12.1891
嘽	-12.1946
諛	-12.195
鷃	-12.1954
重直龍反	-12.1956
靮	-12.1956
介逆出	-12.1959
碣	-12.1959
貊	-12.196
栽	-12.196
墐	-12.196
悝	-12.1962
天皇大帝	-12.1965
迎長日之至	-12.1966
苐	-12.1969
妾為女君	-12.197
漠	-12.1971
𧖟	-12.1972
。4.	-12.1975
玷	-12.1976
綅	-12.1977
門下侍郎	-12.2022
踦	-12.2032
轐	-12.2036
腦	-12.2045
郵表畷	-12.2049
濟濟漆漆	-12.2049
吟	-12.2051
洋	-12.2052
雋	-12.2054
棠	-12.2054
屬音燭	-12.2055
翻	-12.2061
埒	-12.2063
年夏五月	-12.208
喝	-12.2082
絃散聲	-12.2126
䜛	-12.2134
條狼氏	-12.2138
射鳥氏	-12.2141
聵	-12.2141
不亦宜乎	-12.2143
沾	-12.2143
懽	-12.2143
魏文侯	-12.2144
薛平仲曰	-12.2144
竪	-12.2148
溠	-12.2149
椒	-12.2149
軰	-12.215
評	-12.2151
當事則弁絰	-12.2151
儀禮經傳通解	-12.2151
棼	-12.2152
燠	-12.2153
蒼璧禮天	-12.2153
莘	-12.2154
子亦不敢降	-12.2162
檠	-12.2218
変	-12.2218
侏	-12.2222
輖	-12.2227
戮其犯命者	-12.223
駑	-12.2233
唾	-12.2234
持弓矢審固	-12.2234
羆	-12.2237
瞢	-12.2238
酷	-12.2238
百辟卿士	-12.2239
揲	-12.2239
枳	-12.224
婦事舅姑	-12.224
六代之樂	-12.224
蠙	-12.224
篚在洗西	-12.2242
菴	-12.2242
醙	-12.2245
跂	-12.2245
士二人府一人史二人徒四人	-12.2245
寢苫枕塊	-12.2245
趍	-12.2327
啻	-12.2328
共音恭	-12.2331
冠繩纓	-12.2332
灸	-12.2332
建亥之月	-12.2332
恍	-12.2333
鄉許亮反	-12.2334
世父叔父	-12.2334
喪服四制	-12.2335
瑀	-12.2335
袠	-12.2337
上士四人中士八人下士十有六人	-12.2341
瓢	-12.2342
蔡氏徳晉曰	-12.2343
僬	-12.2357
帤	-12.2395
中丁仲反	-12.2413
嗚	-12.2416
囏阨	-12.2424
獄弊訟	-12.2426
鍰	-12.2427
㦯	-12.2428
稲	-12.2428
孛	-12.243
攀	-12.2431
鄣	-12.2431
纖	-12.2434
慿	-12.2434
椅	-12.2434
甓	-12.2435
朝音潮	-12.2436
鬌	-12.2436
在位官皆再拜	-12.2437
澌	-12.2438
敢昭告于	-12.2439
砌	-12.244
婺源江永撰	-12.2442
迤	-12.2445
百餘里	-12.2488
硩	-12.2508
㓂	-12.2515
氏下士一人徒二人	-12.2519
狠	-12.2519
櫓	-12.2522
認	-12.2523
蓏	-12.2526
㸔	-12.2527
南陔白華華黍	-12.2527
迺	-12.2529
沓	-12.253
鳧	-12.253
張氏虙曰	-12.253
不知神之所在	-12.2531
周公攝政	-12.2531
郡治今	-12.2531
埃	-12.2532
璆	-12.2538
年夏六月	-12.2539
縜	-12.2612
欘	-12.2613
駘	-12.2615
偯	-12.262
蛾	-12.262
金玉錫石	-12.2621
蜂	-12.2623
餐	-12.2624
瘧	-12.2625
窄	-12.2625
毉	-12.2627
慈母如母	-12.2627
袞	-12.263
致爵于主婦	-12.2632
某侯某	-12.2634
楽	-12.2678
轘	-12.2705
磋	-12.2711
劄	-12.2713
拲	-12.2714
諍	-12.2716
掬	-12.2716
滫	-12.2718
催	-12.2719
昻	-12.2719
筩	-12.2722
詣盥洗位	-12.2722
仁之至義之盡	-12.2723
孩	-12.2723
臘先祖五祀	-12.2726
宫室車旗衣服	-12.2727
琚	-12.2728
􁅯	-12.2729
萎	-12.2729
舊唐書禮儀志	-12.273
槷	-12.2732
岡	-12.2737
玖	-12.2753
燂	-12.279
湎	-12.2813
拯	-12.2814
祈福祥	-12.2821
僮	-12.2822
摠	-12.2822
橛	-12.2823
旺	-12.2823
簡不帥教者	-12.2824
霄	-12.2824
迪	-12.2825
何氏楷曰	-12.2825
枇	-12.2825
伎	-12.2827
唯公所賜	-12.2827
啗	-12.2828
玦	-12.2829
慄	-12.283
襵	-12.2832
躡	-12.2835
株	-12.2836
繖	-12.2839
腋	-12.2912
酈	-12.2916
宄	-12.2917
東萊吕氏曰	-12.2918
輶	-12.2918
醓	-12.292
理或然也	-12.2922
襮	-12.2923
昂	-12.2923
王氏昭禹曰	-12.2926
霧	-12.2926
珮	-12.2927
埤	-12.2927
漚	-12.2927
櫕	-12.2928
謫	-12.2929
從祖祔食	-12.2929
觿	-12.2933
俎釋三个	-12.2934
女子子嫁者未嫁者	-12.2936
哈	-12.2942
萬六千	-12.2972
紲	-12.2976
翨	-12.3
腆	-12.3001
貓	-12.3006
養生送死	-12.301
蓺	-12.3014
四邑為丘	-12.3015
璋邸射	-12.3018
六律六同	-12.3018
批	-12.3019
洵	-12.3021
菙	-12.3021
愴	-12.3022
豭	-12.3022
縻	-12.3023
奠于薦東	-12.3023
耉	-12.3024
琳	-12.3025
俄	-12.3025
戛	-12.3026
宫闈令	-12.3026
焌	-12.3028
殷見曰同	-12.3029
錡	-12.3032
秋頒學合聲	-12.3034
易以豉反	-12.311
諠	-12.3114
􁐂	-12.3116
卄	-12.3119
皆記時候也	-12.312
蠡	-12.312
御史中丞	-12.3123
齏	-12.3123
撙	-12.3124
倘	-12.3127
崖	-12.3128
稽顙而後拜	-12.3129
麑	-12.3131
詻	-12.3131
州領縣	-12.3132
徐原一曰	-12.3133
升席自北方	-12.3136
顔師古	-12.3199
笞	-12.3212
邍	-12.3218
沸	-12.3221
䰟	-12.3222
珈	-12.3222
畬	-12.3223
譟	-12.3225
璉	-12.3226
瑤	-12.3227
婦人無外事	-12.3227
遰	-12.3227
延陵季子	-12.3227
溼	-12.3228
按釋文云	-12.3228
夸	-12.3228
枷	-12.3229
太常少卿	-12.3231
臧文仲	-12.3231
釋幣于禰	-12.3231
繘	-12.3233
控	-12.3238
欹	-12.3239
燿	-12.3317
吸	-12.3321
舅姑共饗婦	-12.3322
羇	-12.3324
睇	-12.3327
諄	-12.3328
公執桓圭	-12.3329
廣安游氏曰	-12.3329
擐	-12.333
塘	-12.333
憫	-12.333
汰	-12.3332
十五升抽其半	-12.3332
纋	-12.3332
顏	-12.3336
亘	-12.3336
欎	-12.3338
篴	-12.3339
蘆	-12.3341
晜	-12.3342
一易再易	-12.3342
主人送于門外再拜	-12.3344
噬	-12.3426
泆	-12.3428
餉	-12.3428
嘔	-12.3434
寰	-12.3435
蔆	-12.3437
豋	-12.3437
鄭目錄云	-12.3437
徐氏師曽曰	-12.3438
絻	-12.3439
輜	-12.3439
璪	-12.344
拆	-12.3441
太平興國	-12.3446
拜興拜興平身	-12.345
萁	-12.3452
獻祝及佐食	-12.3453
絫	-12.3453
宣徽使	-12.3459
僨	-12.3528
戢	-12.3536
長尋有四尺	-12.3538
滙	-12.3538
扱上衽	-12.3538
蘧伯玉	-12.3539
猥	-12.354
髙氏愈曰	-12.3541
打	-12.3541
國索鬼神而祭祀	-12.3542
季春出火	-12.3542
辯有脯醢不祭	-12.3544
傴	-12.3545
簎	-12.3545
穧	-12.3546
奉犬牲	-12.3546
黿	-12.3546
庌	-12.3546
僾	-12.3547
潮	-12.3549
薻	-12.355
金革之事無辟	-12.3553
導駕官	-12.356
擎	-12.356
抉	-12.3634
􁇎	-12.3639
奐	-12.3641
研	-12.3643
城郭溝池	-12.3644
洲	-12.3644
罘	-12.3648
琊	-12.3649
縏	-12.3649
如覿幣	-12.3652
醮於客位	-12.3652
𨼆	-12.3652
盥手帨手	-12.3655
酨	-12.3656
朱氏申曰	-12.3656
悴	-12.3657
牴牾	-12.3658
地道尊右	-12.3659
米百筥	-12.3661
諸父諸兄	-12.3662
闥	-12.3662
飲福受胙	-12.3669
繳	-12.3744
氏下士二人徒八人	-12.3748
㓕	-12.3752
氛	-12.3753
蚓	-12.3753
雞初鳴	-12.3753
恚	-12.3754
仲山甫	-12.3754
九貢九賦九功	-12.3757
遶	-12.3757
鑠	-12.3758
水漿不入口	-12.3759
蒍	-12.3759
邶	-12.376
臚	-12.3761
凑	-12.3761
司徒司馬司空	-12.3762
二人史四人胥四人徒四十人	-12.3762
轔	-12.3762
㡛	-12.3762
峰	-12.3764
諸侯五月而葬	-12.3764
邠	-12.3766
㪺	-12.3768
易氏祓曰	-12.377
韽	-12.3773
幨	-12.3843
洟	-12.3856
沼	-12.3858
鋤	-12.3861
㳟	-12.3861
獀	-12.3862
鞮鞻氏	-12.3868
變麻服葛	-12.3869
掃地而祭	-12.3871
溷	-12.3872
輁	-12.3872
䑓	-12.3872
彷	-12.3873
及表乃止	-12.3874
君臨臣喪	-12.3874
軛	-12.3874
脣	-12.3875
窔	-12.3878
同母異父	-12.3879
月節日在	-12.3886
人中士二人下士四人府二人史四人	-12.3908
鼃	-12.3965
阤	-12.3967
庮	-12.397
話	-12.3972
龎	-12.3972
貲	-12.3975
使色吏反	-12.3976
舉觶於其長	-12.3976
虎熊豹	-12.3976
廟中將幣三享	-12.3978
咽	-12.3979
澄酒在下	-12.398
龍見而雩	-12.398
欽定儀禮義疏卷	-12.398
斫	-12.398
咤	-12.398
映	-12.3982
聶崇義	-12.3985
苓	-12.3986
齊則緇之	-12.3987
醫無閭	-12.3987
開元禮政和禮書儀	-12.3988
葭	-12.3995
卭	-12.4077
梢	-12.4077
膽	-12.4078
豝	-12.408
暵	-12.4082
耘	-12.4084
螽	-12.4086
孜	-12.4088
鯁	-12.4088
顚	-12.4089
各依文解之	-12.409
頡	-12.409
歐陽謙之曰	-12.4092
串	-12.4093
韝	-12.4094
僥	-12.4094
呂氏大臨曰	-12.4094
僃	-12.4094
杪	-12.4095
頷	-12.4097
下莞上簟	-12.4098
揫	-12.41
坐而論道	-12.4103
鋸	-12.4195
腫	-12.4195
枌	-12.4199
翭	-12.4202
厄	-12.4202
縊	-12.4203
從輕而重	-12.4205
愀	-12.4205
兆五帝於四郊	-12.4205
梯	-12.4206
冷	-12.4207
稹	-12.4209
縝	-12.4209
义	-12.421
鱉	-12.421
酅	-12.4211
詔祝於室	-12.4211
綖	-12.4212
柔毛剛鬛	-12.4213
九命作伯	-12.4215
箾	-12.4215
榻	-12.4216
寰宇記	-12.4219
叉	-12.422
潼	-12.4233
萬八千	-12.4238
贛	-12.4305
𦂳	-12.4311
隳	-12.4313
雌	-12.4314
濱	-12.4315
搤	-12.4317
掲	-12.4318
挎	-12.4318
徒百有六十人	-12.4319
泊	-12.4319
蛟	-12.432
簮	-12.4322
藿	-12.4322
鄖	-12.4323
蹲	-12.4324
罻	-12.4325
凰	-12.4327
絼	-12.4329
舉觶于其長	-12.4329
魴	-12.4418
蔞	-12.4419
肢	-12.4424
讞	-12.4425
靳	-12.4427
愽	-12.4428
癢	-12.4432
様	-12.4433
袼	-12.4433
穜稑之種	-12.4435
公叔文子	-12.4435
郜	-12.4436
霖	-12.4437
迎精而反	-12.4438
迥	-12.4438
宋書禮志	-12.4438
昀	-12.4439
襓	-12.4439
鬚	-12.4439
孔叢子	-12.4439
鹿鳴四牡皇皇者華	-12.4443
叠	-12.4444
十五升去其半	-12.4448
三分庭一在南	-12.4458
四丘為甸	-12.4491
睆	-12.4533
袧	-12.4543
蘖	-12.4543
鴞	-12.4543
都指揮使	-12.4546
衻	-12.4547
歐	-12.455
箄	-12.4551
跬	-12.4551
以柶祭醴	-12.4552
揣	-12.4552
河南程氏曰	-12.4555
良醖令	-12.4556
礱	-12.4561
堕	-12.4562
近附近之近	-12.4658
謟	-12.466
斐	-12.4662
彥	-12.4663
𬒳	-12.4663
値	-12.4664
前三幅後四幅	-12.4668
渜	-12.4671
上射揖司射退反位	-12.4671
仲孫蔑	-12.4671
男子免而婦人髽	-12.4671
蝦	-12.4673
羗	-12.4675
箈	-12.4676
縉	-12.4677
巵	-12.4677
幓	-12.4678
穜	-12.4681
鐕	-12.4684
湮	-12.4783
一柯有半	-12.4784
磽	-12.4789
擯者執上幣	-12.479
汋	-12.479
踧	-12.4791
藟	-12.4791
紓	-12.4792
餽	-12.4792
聳	-12.4793
陸費墀	-12.4795
浄	-12.4796
狸	-12.4796
掇	-12.4798
牆置翣	-12.4798
冕而總干	-12.4799
黲	-12.4799
顧炎武	-12.48
娑	-12.4802
紫宸殿	-12.4804
黄衣黄冠	-12.4806
詔辭自右	-12.4807
坂	-12.4809
䄙	-12.4825
琦	-12.4903
顥	-12.491
緻	-12.4911
宋王與之撰	-12.4912
駢	-12.4912
蝝	-12.4913
皽	-12.4914
驢	-12.4915
紝	-12.4916
尻	-12.4916
醵	-12.4917
去五分一以為帶	-12.4917
觽	-12.4918
欽定四庫全書經部四	-12.4918
𨗳	-12.492
槍	-12.4922
堯舜禹湯	-12.4924
窋	-12.4925
儀禮䟽卷第	-12.4925
揖當碑揖	-12.4925
苕	-12.4928
卒爵興坐奠爵拜執爵興	-12.493
潭	-12.4931
椉	-12.4947
窖	-12.5023
顗	-12.5027
鵝	-12.5029
碧	-12.5031
耽	-12.5032
遄	-12.5034
緬	-12.5034
莞筵紛純加繅席畫純	-12.5034
發揚蹈厲	-12.5035
戯	-12.5037
麀	-12.5037
襈	-12.5037
泌	-12.5037
艶	-12.5038
慼	-12.5038
合二姓之好	-12.5038
劌	-12.5038
㨿	-12.5039
獻賢能之書	-12.5039
閶	-12.5039
腢	-12.504
匴	-12.5041
籧	-12.5041
轊	-12.5042
豺祭獸	-12.5043
佟	-12.5044
鬼神尚幽闇	-12.5044
釂	-12.5045
鬋	-12.5045
錐	-12.5047
巂	-12.506
瀘	-12.5149
裒	-12.5158
戕	-12.5158
蚯	-12.5159
雜帛為物	-12.5159
葑	-12.5161
瑁	-12.5164
宙	-12.5164
勛	-12.5165
暖	-12.5165
鞍	-12.5167
儀禮集編卷	-12.5169
不封不樹	-12.5169
哀至則哭	-12.5171
鵞	-12.5172
仲輿郝氏曰	-12.5174
櫺星門	-12.5176
哩	-12.5181
上士二人中士四人下士八人府二人史	-12.5187
㳿	-12.5193
嚻	-12.5269
虎侯熊侯豹侯	-12.5278
醫酏糟	-12.5282
摺	-12.5282
憊	-12.5282
悶	-12.5285
廸	-12.5286
殫	-12.5287
正朝儀之位	-12.5288
䳺	-12.5288
歇	-12.5288
再祼而酢	-12.5289
卅	-12.5291
摝	-12.5291
盱	-12.5292
訥	-12.5292
烟	-12.5292
廣與崇方	-12.5292
有王事之勞	-12.5292
偉	-12.5293
虙	-12.5293
招魂復魄	-12.5294
熛	-12.5295
蒲筵緇布純	-12.5299
援神契	-12.5299
聾	-12.53
一馬從二馬	-12.5404
􁁷	-12.5406
㳂	-12.5408
企	-12.5414
亊	-12.5416
欽定四庫全書禮記纂言卷	-12.5417
樂由中出	-12.5417
譎	-12.5417
通帛為旜	-12.5417
陳氏暘曰	-12.5418
顒	-12.5418
涓	-12.5418
贓	-12.5418
萹	-12.5419
垸	-12.5421
炫	-12.5421
跌	-12.5421
諶	-12.5421
窌	-12.5424
三重大夫再重	-12.5425
彬	-12.5425
設洗于阼階東南	-12.5427
稑	-12.5427
如著幓頭	-12.5427
服通天冠絳紗袍	-12.5428
適爾皇祖某甫	-12.5429
釗	-12.5429
洺	-12.5431
譖	-12.5531
恠	-12.5536
齻	-12.5541
燬	-12.5544
覡	-12.5544
饗耆老孤子	-12.5544
幢	-12.5545
元吳澄撰	-12.5547
芰	-12.5549
咫	-12.5551
祺	-12.5552
鬊	-12.5553
五祀之祭不行	-12.5553
軼	-12.5553
霽	-12.5554
故記人明之	-12.5554
幣帛皮圭	-12.5554
口率出泉	-12.5555
某月某日	-12.5555
幠用斂衾	-12.5557
坋	-12.5557
個	-12.5557
翌	-12.5557
越紼而行事	-12.5558
扁	-12.556
抌	-12.556
仕焉而已者	-12.5564
取菹㨎于醢	-12.5565
瓀	-12.5569
甐	-12.5667
皐	-12.5672
獺	-12.5673
悍	-12.5673
鶡	-12.5674
稱尺證反	-12.5675
氈	-12.5678
惟王建國辨方正位體國經野設官分職	-12.5678
以死傷生	-12.5678
懦	-12.5679
燼	-12.5679
郟	-12.568
草木零落	-12.5681
鱄	-12.5681
綼	-12.5681
下大夫五人上士二十七人	-12.5682
拓	-12.5683
昉	-12.5685
萼	-12.5686
氓	-12.5687
嘑	-12.5688
盪	-12.5688
􁇡	-12.5689
䕩	-12.5691
毼	-12.5693
送于外門外	-12.5696
疐	-12.5799
鮨	-12.5803
蜮	-12.5806
飼	-12.5806
畷	-12.5806
呵	-12.5807
針	-12.5807
萬入去籥	-12.5808
黯	-12.581
傭	-12.5811
寥	-12.5811
戟	-12.5812
四鄙入保	-12.5813
耑	-12.5814
慌	-12.5814
虫	-12.5814
謳	-12.5814
糠	-12.5818
濤	-12.5819
六典八法八則	-12.582
薫	-12.5821
肜	-12.5821
訢	-12.5823
周之始郊日以至	-12.5824
奏聖躬萬福	-12.5826
燖	-12.5827
伴	-12.583
幟	-12.5834
鴆	-12.5845
鮐	-12.5939
痺	-12.5942
黥	-12.5943
賒	-12.5944
怙	-12.5944
轚	-12.5944
瑾	-12.5944
湼	-12.5945
瑒	-12.5947
箧	-12.5949
府二人史四人胥二人徒二十人	-12.595
鴨	-12.5952
翅	-12.5953
賽	-12.5953
湑	-12.5953
槖	-12.5953
蹴	-12.5954
翰林院侍講銜方苞撰	-12.5954
郊祀后稷以配天	-12.5954
醖	-12.5955
忖	-12.5958
粘	-12.5958
瘖	-12.5961
瀍	-12.5962
坐左執爵右祭脯醢	-12.5963
埳	-12.5966
柒	-12.6013
擸	-12.6067
䨇	-12.6068
称	-12.6069
怖	-12.6076
公罔之裘	-12.6077
桞	-12.6081
暱	-12.6081
隗	-12.6083
慥	-12.6084
兠	-12.6085
仿	-12.6086
垓	-12.6088
八命作牧	-12.6088
噦	-12.6092
旄牛尾	-12.6092
毁宗躐行	-12.6093
堆	-12.6094
牢肺正脊	-12.61
上圓下方	-12.6103
蓌	-12.6114
疢	-12.6204
徯	-12.6209
襡	-12.6211
滔	-12.6215
譔	-12.6217
踝	-12.6218
絘	-12.6219
鷹化為鳩	-12.6219
惸	-12.622
軋	-12.6221
罝	-12.6222
襍	-12.6223
蟇	-12.6223
糔	-12.6225
筦	-12.6225
祟	-12.6226
誇	-12.6226
蟀	-12.6228
梜	-12.6228
蟋	-12.6228
是日也以虞易奠	-12.6229
廿	-12.6231
荔	-12.6231
憔	-12.6232
綴足用燕几	-12.6233
羊一豕一	-12.6236
璿	-12.6238
錐指傳曰	-12.6239
有適子者無適孫	-12.6241
鼐	-12.6246
嶧	-12.6342
嘂	-12.635
很	-12.6352
湢	-12.6354
捄	-12.6355
蜜	-12.6358
螣	-12.6359
豵	-12.6361
㒺	-12.6362
檻	-12.6363
馬氏端臨曰	-12.6364
毖	-12.6365
恝	-12.6365
朝位賓主之間	-12.6366
司馬辨論官材	-12.6368
絕	-12.6368
移民通財	-12.6368
猩	-12.6368
謡	-12.637
瑩	-12.6371
諸公之臣相為國客	-12.6371
牲幣各放其器之色	-12.6372
塑	-12.6372
膚一離肺一	-12.6374
蓤	-12.6374
棗烝栗擇	-12.6375
縕	-12.6376
蜱	-12.6378
䞇	-12.6378
藹	-12.6378
鞋	-12.6378
葵菹蝸醢	-12.6381
徹几改筵	-12.6382
甸方八里	-12.6431
橭	-12.6487
浣	-12.6498
峙	-12.6499
掎	-12.65
詈	-12.6502
鵒	-12.6504
淤	-12.6507
蜯	-12.6507
入門而縣興	-12.6508
鐓	-12.6508
䜟	-12.6508
埸	-12.6509
搆	-12.6509
兜	-12.6509
峯	-12.651
卿皆見以羔	-12.651
體國經野	-12.6511
稯	-12.6512
皞	-12.6512
永嘉戴氏曰	-12.6513
䂓	-12.6513
蓑	-12.6515
噩	-12.6518
世母叔母	-12.6519
鎰	-12.652
左祖右社	-12.6524
不繼祖與禰	-12.6526
鬵	-12.6545
遫	-12.6547
皫	-12.6637
扺	-12.6649
奬	-12.6651
瀡	-12.6651
掌百官之誓戒	-12.6651
堰	-12.6652
剗	-12.6652
蚌	-12.6652
金華邵氏曰	-12.6654
腍	-12.6654
牉	-12.6656
李氏光地曰	-12.6657
删	-12.6657
圂	-12.6657
虺	-12.6657
峩	-12.6658
鄱	-12.6658
安溪李光坡撰	-12.6659
嘒	-12.6659
鐶	-12.6661
帥執事而卜日	-12.6662
靴	-12.6664
大夫之妾為君之庶子	-12.6665
貅	-12.6665
穛	-12.667
緋	-12.6671
塔	-12.6672
断	-12.677
輊	-12.6781
聒	-12.6787
錘	-12.6789
豸	-12.6793
桑弧蓬矢	-12.6794
稺	-12.6796
蒻	-12.6798
訣	-12.6798
晰	-12.6799
莩	-12.6799
僢	-12.6799
騵	-12.68
杌	-12.6801
嚏	-12.6801
禮樂射御書數	-12.6802
靷	-12.6803
帕	-12.6805
斆	-12.6805
詣爵洗位	-12.6806
忱	-12.6806
豊	-12.6806
王者禘其祖之所自出以其祖配之	-12.6808
賤者獻以散	-12.6811
漉	-12.6932
錙	-12.6932
獄訟成士師受中	-12.6938
蘩	-12.6939
芑	-12.6941
嫉	-12.6944
胔	-12.6944
楛	-12.6945
汨	-12.6948
瑯	-12.6951
羣介行人宰史	-12.6951
昺	-12.6952
臛	-12.6954
㯺	-12.6955
乍	-12.6955
僂	-12.6956
倞	-12.6956
筰	-12.6958
晴	-12.6959
殂	-12.6963
珩	-12.6967
澨	-12.7065
楎	-12.708
擖	-12.709
璺	-12.709
緄	-12.709
䏻	-12.709
塹	-12.7091
騫	-12.7091
周禮詳解卷	-12.7093
恰	-12.7095
佼	-12.7098
屦	-12.7098
璵	-12.7098
凊	-12.7099
此於别録屬	-12.7101
瀝	-12.7102
鄘	-12.7103
𤾉	-12.7104
墼	-12.7104
左執領右執要	-12.7105
凛	-12.7105
宗祀文王於明堂以配上帝	-12.7105
倀	-12.7106
螳	-12.7108
杳	-12.7108
祖文王而宗武王	-12.711
邰	-12.7111
以皮帛繼子男	-12.7111
羝	-12.7113
磚	-12.7114
漾	-12.723
􁎱	-12.7231
豔	-12.724
去起呂反	-12.7243
宓	-12.7244
嵎	-12.7245
猾	-12.7247
觩	-12.7249
矍	-12.7249
耋	-12.725
梳	-12.725
六十者坐五十者立侍	-12.7251
嘯	-12.7251
懣	-12.7251
拖	-12.7252
涑	-12.7252
晟	-12.7254
勞農以休息之	-12.7254
糁	-12.7255
森	-12.7255
敉	-12.7257
至親以期斷	-12.7257
降尊以就卑	-12.7257
􁊌	-12.7257
豆實三而成觳	-12.7258
両	-12.7259
篾	-12.7259
覦	-12.726
齘	-12.7262
褐	-12.7264
韓詩外傳	-12.7266
每門每曲	-12.7269
邯	-12.7272
喇	-12.7273
魚躍拂池	-12.7275
㪯	-12.7382
檿	-12.7393
柤	-12.7395
詬	-12.7398
瘡	-12.74
尖	-12.7404
釋曰在此者案其職云掌	-12.7405
鸜	-12.7405
杙	-12.7406
觭	-12.7409
虵	-12.741
涅	-12.741
瓘	-12.741
蔡氏德晉曰	-12.7411
偏駕不入王門	-12.7411
凋	-12.7413
􁉖	-12.7413
侯執信圭伯執躬圭	-12.7414
朝直遙反	-12.7414
闞	-12.7417
前交於額上	-12.7418
歃	-12.7419
馬氏晞孟曰	-12.7422
明日以其班祔	-12.7423
二衽二束	-12.7424
腸三胃三	-12.7426
薪芻倍禾	-12.7431
萭	-12.7526
耎	-12.755
起敬起孝	-12.755
奈	-12.7553
臅	-12.7557
佯	-12.7559
闉	-12.756
鳲	-12.7562
淶	-12.7564
鵜	-12.7564
鴇	-12.7564
案各本脱	-12.7567
𫝑	-12.7568
弗忍一日離	-12.7569
隤	-12.7569
加軫與轐	-12.757
㧁	-12.7571
邀	-12.7571
于象魏使萬民觀	-12.7571
笙鏞以間	-12.7571
襜	-12.7571
千七百七十三國	-12.7573
猫	-12.7573
罃	-12.7575
猝	-12.7576
捉	-12.7577
楫	-12.7577
綘	-12.7578
蓮	-12.7578
幭	-12.758
壚	-12.758
殈	-12.7584
揱	-12.7585
三年一祫五年一禘	-12.7585
釵	-12.7586
瑉	-12.7593
􁉚	-12.7696
抔	-12.7717
癉	-12.7718
痒	-12.7721
娠	-12.7722
忤	-12.7724
鞻	-12.7726
諺	-12.7726
鳱	-12.7726
濓	-12.7727
婣	-12.7728
石經及敖本	-12.7728
糅	-12.7728
臏	-12.7729
塩	-12.773
張大次小次	-12.773
藜	-12.773
驃	-12.7733
偩	-12.7734
爵盈而不飲	-12.7734
瀛	-12.7735
帥三公九卿諸侯大夫	-12.7735
半圭曰璋	-12.7736
族食世降一等	-12.7736
屍	-12.7737
貕	-12.7738
易彦祥曰	-12.7739
門側之堂謂之塾	-12.7739
鹿幦豹犆	-12.7742
堦	-12.7743
㨒	-12.7746
肆夏繁遏渠	-12.7749
惶	-12.7753
泳	-12.7882
澧	-12.7883
屐	-12.7888
攅	-12.7889
嘘	-12.789
七日授士杖	-12.789
乘繩證反	-12.789
嚼	-12.789
暁	-12.7891
呻	-12.7891
玕	-12.7892
鈇	-12.7892
一在前二在後	-12.7892
遒	-12.7892
蘧	-12.7893
大國三軍次國二軍小國一軍	-12.7893
椿	-12.7893
事亡如事存	-12.7894
唘	-12.7895
朶	-12.7895
劀	-12.7896
菊	-12.7896
唶	-12.7897
喉	-12.7897
莊渠魏氏曰	-12.7898
鼉	-12.7898
騏	-12.7898
析羽為旌	-12.7898
鞌	-12.7899
詮	-12.7899
魋	-12.79
𥜗	-12.79
體其犬豕牛羊	-12.79
升龍降龍	-12.7901
讖	-12.7901
燦	-12.7902
孤某須矣	-12.7904
有司謹具請行事	-12.7904
秉有五籔	-12.7905
滹	-12.7905
撎	-12.7907
稰	-12.791
簽	-12.7911
北面坐卒爵興坐奠爵遂拜執爵興	-12.7913
旤	-12.8046
呐	-12.8046
蛸	-12.805
窶	-12.8051
蕘	-12.8051
痟	-12.8052
猴	-12.8053
塴	-12.8055
攠	-12.8056
貙	-12.8057
煉	-12.8058
以待邦之大用	-12.8059
駣	-12.8059
奉芳勇反	-12.8059
金氏履祥曰	-12.806
祥之日鼓素琴	-12.8061
名山大澤不以封	-12.8061
睨	-12.8061
槌	-12.8062
渤	-12.8062
弓二寸以為侯中	-12.8062
訕	-12.8063
決遂執弓搢三挾一个	-12.8064
爍	-12.8065
􁎌	-12.8065
藳	-12.8065
彿	-12.8067
暌	-12.8067
鴟	-12.8067
盩	-12.8067
虖	-12.8068
莞筵紛純	-12.8069
以訊馘告	-12.8069
祫禘祫嘗祫烝	-12.807
爂	-12.8071
蒞	-12.8072
禮儀三百威儀三千	-12.8072
尒	-12.8073
雚	-12.8074
綾	-12.8075
捎	-12.808
禮記要義卷第	-12.8081
棃	-12.8213
捭	-12.8215
璞	-12.8218
涯	-12.822
埏	-12.822
擥	-12.8221
蹷	-12.8222
㢲	-12.8222
帶以弓韣	-12.8222
黶	-12.8223
扐	-12.8224
悵	-12.8224
椘	-12.8225
坑	-12.8225
秪	-12.8225
犠	-12.8226
㩀	-12.8226
氂	-12.8226
栖	-12.8228
渇	-12.8228
稃	-12.823
橐	-12.8231
卹	-12.8231
博碩肥腯	-12.8231
抗世子法於伯禽	-12.8232
惌	-12.8233
腵	-12.8234
櫬	-12.8234
每門止一相	-12.8234
經禮三百曲禮三千	-12.8235
鰥寡孤獨	-12.8235
曰考廟曰王考廟	-12.8235
憶	-12.8236
鈐	-12.8237
壼	-12.8238
聶氏崇義	-12.8238
尊皆有罍諸臣之所昨也	-12.8238
玟	-12.8243
妾為君之黨服得與女君同	-12.8243
服之襲也充美也	-12.8243
憯	-12.839
觕	-12.8394
餧	-12.8394
纉	-12.84
啖	-12.84
李耜卿曰	-12.8401
跲	-12.8402
曁	-12.8402
簝	-12.8403
楗	-12.8403
畵	-12.8403
飄	-12.8405
郈	-12.8405
罸	-12.8406
妢	-12.8406
有大宗而無小宗	-12.8407
踏	-12.8409
顧氏棟高曰	-12.8409
扛	-12.841
慧	-12.8415
䃂	-12.8417
。15.	-12.8433
烜	-12.8554
郰	-12.8563
獶	-12.8563
有邦事則為之前驅而辟	-12.8564
糵	-12.8567
􁎦	-12.8568
蛙	-12.857
狘	-12.8571
諝	-12.8573
宫商角徴羽	-12.8574
徨	-12.8576
稿	-12.8576
蝓	-12.8578
妊	-12.8579
白與黒謂之黼	-12.8579
袚	-12.858
蕙	-12.8581
卬	-12.8582
以起軍旅以治兵守	-12.8582
古者於旅也語	-12.8583
桶	-12.8583
墨者使守門	-12.8583
闌	-12.8586
殀	-12.8591
主人東楹東北面拜	-12.8609
処	-12.8729
犮	-12.8746
洧	-12.8746
澔	-12.875
翫	-12.875
獝	-12.875
檡	-12.875
嗛	-12.8754
槱	-12.8754
下舌半上舌	-12.8756
比年一小聘三年一大聘	-12.8757
苾	-12.8757
不與國人慮兄弟	-12.8757
合聚萬物而索饗之	-12.8759
枵	-12.8759
廖	-12.8761
娀	-12.8762
麒	-12.8762
猋	-12.8763
悛	-12.8765
唯上介有禽獻	-12.8766
柟	-12.8766
娛	-12.8766
甀	-12.8768
湜	-12.8769
嫓	-12.877
涪	-12.8792
穅	-12.8923
勦	-12.8926
孥	-12.8927
檄	-12.8927
擲	-12.893
罵	-12.893
㬰	-12.893
婆	-12.893
龔	-12.8932
喟	-12.8933
橦	-12.8935
叡	-12.8935
褕	-12.8936
岑	-12.8936
獲者執旌許諾	-12.8936
惷	-12.8937
柰	-12.8937
驍	-12.8937
篡	-12.8937
纘	-12.8939
罅	-12.8939
剸	-12.894
肓	-12.894
剋	-12.894
鄜	-12.8941
澀	-12.8941
冠於阼以著代	-12.8941
殞	-12.8942
扼	-12.8942
禮記述註卷	-12.8942
左手執籥右手秉翟	-12.8944
青與赤謂之文	-12.8944
所不服子亦不敢服	-12.8945
宐	-12.8949
宗其繼髙祖者	-12.8949
忻	-12.895
簚	-12.895
捂	-12.8951
殰	-12.8952
西南隅謂之奥	-12.8957
漯	-12.8964
餰	-12.9099
甽	-12.9106
衘	-12.9106
闘	-12.9109
漂	-12.9109
逄	-12.9113
沍	-12.9113
鵙	-12.9115
堛	-12.9116
佔	-12.9117
淰	-12.9119
擕	-12.912
隩	-12.912
歜	-12.9121
眺	-12.9121
其器閎以奄	-12.9122
祀大神享大鬼祭大示	-12.9123
山林川澤丘陵墳衍原隰	-12.9124
栝	-12.9125
下大夫四人上士八人中士十有六	-12.9125
愜	-12.9127
鶻	-12.9127
湟	-12.9127
璠	-12.9129
初虧復圓	-12.9129
兾	-12.913
齓	-12.9132
賄用束紡	-12.9132
峽	-12.9132
獐	-12.9133
郇	-12.9133
榱	-12.9136
址	-12.9137
觡	-12.9138
棁	-12.9139
䃭	-12.9146
菼	-12.915
万	-12.9289
弢	-12.9303
酤	-12.9305
貂	-12.9306
瀾	-12.9309
緱	-12.931
籬	-12.9311
妺	-12.9312
闐	-12.9313
硬	-12.9313
噎	-12.9314
𣗳	-12.9315
頮	-12.9316
喘	-12.9317
届	-12.9319
刅	-12.9322
廄	-12.9325
藃	-12.9338
慁	-12.9478
鱮	-12.9479
嶲	-12.9486
諼	-12.9487
蠖	-12.9489
笱	-12.949
沫	-12.9492
徭	-12.9493
俴	-12.9497
愕	-12.9497
赧	-12.9497
巹	-12.9507
猪	-12.9507
婿	-12.9507
堳	-12.9508
刎	-12.9508
蠟	-12.9509
稗	-12.9509
疕	-12.951
滁	-12.951
怗	-12.951
椀	-12.9511
頊	-12.9512
筯	-12.9513
𫀆	-12.9515
梨	-12.9515
犨	-12.9517
濰	-12.9519
棫	-12.952
跟	-12.9523
楪	-12.9525
囗	-12.9535
擒	-12.9689
諐	-12.969
繣	-12.9692
洿	-12.9693
竑	-12.9693
坅	-12.9696
揩	-12.97
飌	-12.9701
嶠	-12.9701
殻	-12.9701
𠂻	-12.9702
鑰	-12.9702
惓	-12.9704
軻	-12.9705
緤	-12.9705
懘	-12.9706
頺	-12.9707
錧	-12.971
紋	-12.9714
􁎭	-12.9715
竣	-12.9718
鎗	-12.9718
璟	-12.9723
㪷	-12.9883
摲	-12.9883
瑄	-12.9883
荏	-12.9885
瘉	-12.9886
蛄	-12.9887
躰	-12.989
薳	-12.989
濳	-12.9891
頰	-12.9894
閹	-12.9899
邲	-12.99
胞	-12.9901
砮	-12.9901
購	-12.9901
􁊿	-12.9903
掄	-12.9903
臋	-12.9904
莆	-12.9905
鞫	-12.9905
鈃	-12.9906
溱	-12.9906
羿	-12.9906
刊	-12.9906
竞	-12.9907
潢	-12.9908
覯	-12.9908
尫	-12.9908
緶	-12.991
堡	-12.991
錠	-12.9911
廱	-12.9912
旻	-12.9913
哺	-12.9913
琪	-12.9914
蜋	-12.9914
翡	-12.9915
桌	-12.9929
藙	-13.0076
帙	-13.0084
朏	-13.0084
蘜	-13.0084
狡	-13.0086
躒	-13.0091
鎡	-13.0092
訐	-13.0095
薜	-13.0096
穽	-13.0096
庵	-13.0097
闚	-13.0098
毆	-13.0098
嘬	-13.0098
兗	-13.0101
螭	-13.0103
沬	-13.0103
駴	-13.0104
鼷	-13.0105
濼	-13.0106
淚	-13.0106
殱	-13.0106
䟦	-13.0107
覓	-13.0107
酆	-13.0108
狃	-13.0109
態	-13.011
牓	-13.011
裎	-13.011
𤨏	-13.011
戺	-13.011
嗽	-13.0111
兀	-13.0114
寨	-13.0117
歿	-13.0119
菏	-13.012
噭	-13.0129
傼	-13.0286
懥	-13.0292
逭	-13.0294
衅	-13.0304
撅	-13.0305
遘	-13.0306
橧	-13.0306
桺	-13.0306
敂	-13.031
儔	-13.031
鶬	-13.0311
紩	-13.0311
鬷	-13.0312
派	-13.0313
昜	-13.0313
賾	-13.0315
軿	-13.0315
㓝	-13.0316
㝢	-13.0316
傀	-13.0316
摹	-13.0317
楮	-13.0317
鏁	-13.032
缾	-13.0321
丱	-13.0322
臀	-13.0325
鐫	-13.0326
抒	-13.0335
泐	-13.0514
町	-13.0518
曆	-13.0519
侗	-13.052
躳	-13.0523
朓	-13.0523
廕	-13.0526
􁈭	-13.0527
狁	-13.0527
􁈍	-13.0528
􁏉	-13.0529
韌	-13.0532
睽	-13.0535
禩	-13.0535
餁	-13.0542
拉	-13.0555
䟫	-13.0707
澳	-13.0728
黠	-13.0731
熲	-13.0735
婼	-13.0735
㦲	-13.0736
呴	-13.0736
酣	-13.074
柚	-13.0741
鍳	-13.0741
䓁	-13.0741
楖	-13.0742
些	-13.0744
髓	-13.0744
滲	-13.0745
埓	-13.0745
蜺	-13.0745
冺	-13.0746
熄	-13.0746
竦	-13.0748
焫	-13.0749
懃	-13.075
縗	-13.075
湄	-13.0751
勻	-13.0752
誚	-13.0754
娭	-13.0756
𣲖	-13.0758
媛	-13.0759
蘄	-13.0764
䪐	-13.0901
𥙷	-13.0947
􁃛	-13.0948
貰	-13.095
鯤	-13.0951
袇	-13.0951
齕	-13.0957
碏	-13.0958
袋	-13.0958
磐	-13.0961
嚚	-13.0963
痁	-13.0966
檮	-13.0967
暈	-13.0967
緊	-13.0967
釣	-13.097
潟	-13.0973
壠	-13.0973
琯	-13.0973
莝	-13.0974
斡	-13.0976
䈼	-13.0976
倐	-13.0978
玼	-13.0978
墀	-13.098
謔	-13.0981
苃	-13.0992
爱	-13.1163
檍	-13.1175
𬞞	-13.1177
吻	-13.1178
蓱	-13.1182
綈	-13.1183
倩	-13.1184
僰	-13.1184
蹤	-13.1185
䃉	-13.1186
窕	-13.1187
癰	-13.1188
驥	-13.119
塈	-13.1192
鬈	-13.1192
墊	-13.1193
芭	-13.1194
齔	-13.1195
癃	-13.1196
蛉	-13.1197
腕	-13.1199
透	-13.12
窓	-13.1202
僇	-13.1203
沁	-13.1203
菩	-13.1205
鄲	-13.1208
澠	-13.1211
鷸	-13.1211
􁊇	-13.1213
椵	-13.1216
盃	-13.1218
秠	-13.1389
尽	-13.1397
瘥	-13.1407
灘	-13.1408
菫	-13.1409
佽	-13.1412
蹔	-13.1414
秭	-13.1415
弘	-13.1416
聆	-13.1416
蓁	-13.1417
閡	-13.1418
瘁	-13.1418
捆	-13.1418
愬	-13.1419
輳	-13.1419
儘	-13.142
猜	-13.142
堥	-13.1421
㓗	-13.1422
渫	-13.1423
綰	-13.1423
絙	-13.1425
厰	-13.1425
蜉	-13.1426
溯	-13.1428
襪	-13.1429
軶	-13.143
瓬	-13.1431
琛	-13.1435
鎔	-13.1435
悱	-13.1437
轜	-13.146
媢	-13.1621
篳	-13.1639
撿	-13.1649
𤦺	-13.165
箠	-13.1652
脃	-13.1655
嚃	-13.1655
稊	-13.1655
眹	-13.1656
螫	-13.1656
昶	-13.1657
紉	-13.1658
壌	-13.1658
昳	-13.1659
逖	-13.1659
櫻	-13.166
楨	-13.1662
諟	-13.1662
孶	-13.1662
顆	-13.1663
頳	-13.1663
晢	-13.1664
冏	-13.1668
襁	-13.1669
堙	-13.1672
詵	-13.1672
龢	-13.1672
辤	-13.1672
沅	-13.1674
奨	-13.1676
齵	-13.1677
躃	-13.1678
島	-13.1681
竺	-13.1682
装	-13.1685
韈	-13.1686
喏	-13.1689
輼	-13.1695
澁	-13.1888
鞄	-13.1896
莧	-13.1897
淬	-13.1898
攬	-13.1899
菓	-13.19
屝	-13.1901
戱	-13.1903
䥴	-13.1905
逈	-13.1905
眸	-13.1905
𣙜	-13.1907
嶷	-13.1907
梟	-13.1907
祋	-13.1909
眙	-13.1909
犁	-13.191
彧	-13.191
袀	-13.191
穏	-13.1912
杉	-13.1913
穨	-13.1913
泚	-13.1915
萯	-13.1916
糊	-13.1916
冄	-13.1917
莤	-13.1919
偞	-13.192
薠	-13.1922
旛	-13.1924
駰	-13.1925
嚕	-13.193
湫	-13.1934
􁌽	-13.1935
为	-13.1937
斞	-13.2125
麏	-13.2139
竾	-13.2142
毨	-13.2144
呌	-13.2146
擿	-13.2146
􁇦	-13.2147
􁂄	-13.2149
畦	-13.2153
褊	-13.2155
唇	-13.2156
礦	-13.2156
躓	-13.2156
摻	-13.2157
崑	-13.2157
賫	-13.2157
彎	-13.2158
旭	-13.2158
諤	-13.2158
侂	-13.2158
􁉂	-13.2159
掊	-13.2159
踴	-13.2159
褓	-13.216
讚	-13.2161
嬉	-13.2161
搥	-13.2161
緧	-13.2163
殮	-13.2163
瀹	-13.2164
癈	-13.2164
瑳	-13.2165
敇	-13.2166
鑴	-13.2166
仡	-13.2168
璇	-13.217
昱	-13.2171
闍	-13.2173
騮	-13.2175
幛	-13.2176
鼒	-13.2185
歰	-13.2393
泫	-13.2397
棷	-13.2399
嘶	-13.2402
愊	-13.2403
餚	-13.2405
螔	-13.2409
穗	-13.241
薉	-13.2411
牋	-13.2411
坻	-13.2411
􁋳	-13.2412
椓	-13.2412
謏	-13.2413
􁐄	-13.2414
匭	-13.2415
倂	-13.2415
蟊	-13.2415
窐	-13.2415
嗤	-13.2416
戡	-13.2417
淂	-13.2417
樗	-13.2417
瞶	-13.2417
囟	-13.2418
圯	-13.2418
蹋	-13.2418
璩	-13.2418
悮	-13.242
擴	-13.242
鬣	-13.242
酧	-13.2421
遡	-13.2422
葘	-13.2422
𠯗	-13.2423
俚	-13.2423
皎	-13.2424
貆	-13.2425
辵	-13.244
胤	-13.2652
煞	-13.2658
鉗	-13.2662
慍	-13.2668
濠	-13.267
酖	-13.267
𤱔	-13.2671
菉	-13.2671
窈	-13.2672
佇	-13.2672
蠁	-13.2673
翩	-13.2675
揀	-13.2675
票	-13.2676
溜	-13.2676
耰	-13.2677
茝	-13.2679
爕	-13.268
畒	-13.268
髧	-13.2681
娯	-13.2685
犉	-13.2686
姤	-13.2686
蹟	-13.269
偵	-13.269
褾	-13.2692
䍿	-13.2692
鄄	-13.2694
輬	-13.2708
酗	-13.2926
偦	-13.2935
腑	-13.2937
螵	-13.2937
蹢	-13.2938
􁏿	-13.2939
宂	-13.2939
啄	-13.2941
饜	-13.2942
蚋	-13.2946
畸	-13.2946
鮫	-13.2947
㵼	-13.2949
净	-13.295
遹	-13.295
鎖	-13.2951
鄗	-13.2951
拇	-13.2951
餱	-13.2951
崛	-13.2952
髣	-13.2954
岌	-13.2954
銍	-13.2955
廽	-13.2955
㽅	-13.2955
卉	-13.2955
炷	-13.2955
楘	-13.2956
鸚	-13.2957
閌	-13.2961
珂	-13.2962
峪	-13.2979
瑪	-13.2993
餤	-13.3204
樁	-13.3212
鴿	-13.3213
苻	-13.3214
豁	-13.3216
欝	-13.3216
徤	-13.3217
螾	-13.3217
勣	-13.3219
默	-13.3221
棊	-13.3222
灃	-13.3222
沇	-13.3223
濛	-13.3223
砂	-13.3225
輠	-13.3226
閠	-13.3227
醪	-13.3227
曄	-13.3228
廨	-13.3229
廚	-13.3229
尩	-13.3229
悽	-13.323
帴	-13.323
悚	-13.3231
覊	-13.3231
漑	-13.3232
裓	-13.3232
鵡	-13.3235
慆	-13.3235
鄠	-13.3236
丣	-13.3236
宧	-13.3238
幧	-13.3238
綫	-13.3238
姞	-13.3242
駉	-13.3248
荻	-13.3256
◍	-13.3433
尙	-13.3488
臞	-13.3495
陬	-13.3499
裻	-13.3499
敶	-13.3501
懟	-13.3503
估	-13.3507
梩	-13.3508
諉	-13.3509
旡	-13.3509
伹	-13.351
佹	-13.3511
勗	-13.3511
穩	-13.3513
赭	-13.3513
膜	-13.3513
窳	-13.3513
瞎	-13.3513
膘	-13.3514
异	-13.3514
莪	-13.3516
膟	-13.3516
邗	-13.3516
醻	-13.3517
睠	-13.3517
􁆳	-13.3518
剩	-13.3518
髴	-13.3518
栒	-13.3518
鬢	-13.3518
㗖	-13.3519
撝	-13.3519
帔	-13.3519
謄	-13.352
曦	-13.352
蜾	-13.352
𢷬	-13.3522
鞾	-13.3523
崤	-13.3526
頋	-13.3526
灣	-13.3528
揥	-13.3553
綻	-13.3782
荑	-13.3785
剕	-13.3792
襗	-13.3795
暄	-13.3797
鄔	-13.3797
魌	-13.3797
蹊	-13.3799
獼	-13.38
戔	-13.3801
脄	-13.3801
槪	-13.3803
搭	-13.3803
魅	-13.3803
凜	-13.3804
姫	-13.3805
芃	-13.3805
㮣	-13.3806
瓌	-13.3806
滴	-13.3808
䡖	-13.3808
靾	-13.3809
觝	-13.3809
饕	-13.3813
茷	-13.3814
謾	-13.3814
徘	-13.3816
􁉔	-13.382
昫	-13.382
崐	-13.382
碭	-13.3821
舋	-13.3823
眄	-13.3823
珉	-13.3824
甍	-13.3824
䯤	-13.3829
迸	-13.4074
刜	-13.4084
蠆	-13.4094
溓	-13.4097
䔛	-13.4104
终	-13.4104
晩	-13.4105
郿	-13.4105
款	-13.4105
襂	-13.4105
関	-13.4106
豖	-13.4106
禝	-13.4107
甜	-13.4108
䐈	-13.4109
纏	-13.4109
檟	-13.411
弹	-13.411
挿	-13.4111
椈	-13.4111
滂	-13.4112
涷	-13.4112
僵	-13.4113
罩	-13.4113
斌	-13.4113
膿	-13.4113
穪	-13.4114
厎	-13.4115
詷	-13.4117
徊	-13.4117
洶	-13.4117
漲	-13.4118
􁈞	-13.4119
焯	-13.412
慇	-13.4121
週	-13.4121
匵	-13.4122
􁇄	-13.4123
伾	-13.4125
潯	-13.4132
癠	-13.4136
顅	-13.4397
継	-13.4398
狙	-13.4399
傃	-13.4405
僴	-13.4407
冓	-13.4408
皦	-13.441
趮	-13.441
单	-13.4414
楢	-13.4415
睂	-13.4415
拽	-13.4416
諗	-13.4416
秤	-13.4417
荐	-13.4418
髹	-13.4418
鴾	-13.4419
覧	-13.442
諳	-13.4421
籈	-13.4421
驤	-13.4422
嘷	-13.4422
䵍	-13.4422
誹	-13.4423
樅	-13.4424
甌	-13.4425
僊	-13.4425
吠	-13.4426
冑	-13.4427
逍	-13.4429
螺	-13.443
􁑂	-13.443
咋	-13.443
黹	-13.4431
喈	-13.4432
黈	-13.4432
厦	-13.4434
􁀫	-13.4436
䆒	-13.4437
胊	-13.4449
鹺	-13.4455
茱	-13.4725
懵	-13.473
丐	-13.4732
霅	-13.4732
慚	-13.4733
詖	-13.4735
䦧	-13.4736
刁	-13.4737
穸	-13.4738
妤	-13.4741
倭	-13.4741
匀	-13.4741
簣	-13.4742
湩	-13.4743
紬	-13.4745
蹯	-13.4745
餗	-13.4746
碈	-13.4747
垤	-13.475
􁐑	-13.475
𡨕	-13.4752
篨	-13.4752
鷂	-13.4754
阯	-13.4754
樀	-13.4755
誾	-13.4756
琫	-13.4761
燃	-13.4763
璑	-13.4773
忳	-13.5054
抶	-13.5061
覔	-13.5061
幪	-13.5062
峴	-13.5066
啁	-13.5066
㡇	-13.5068
廁	-13.5068
叫	-13.5069
絆	-13.5069
洳	-13.5069
韅	-13.5069
訶	-13.5069
㢙	-13.5069
栻	-13.5069
窀	-13.5071
喤	-13.5071
愔	-13.5071
蠅	-13.5071
歙	-13.5074
柬	-13.5075
瞑	-13.5076
􁎚	-13.5076
毘	-13.5077
阸	-13.5078
厮	-13.5078
■	-13.5078
粮	-13.5079
𬎼	-13.5079
􁏼	-13.5079
茒	-13.508
咈	-13.5081
飦	-13.5082
擠	-13.5083
竂	-13.5083
袿	-13.5085
龞	-13.5086
犍	-13.5086
䍷	-13.5089
襖	-13.5091
胏	-13.5095
盒	-13.5096
駞	-13.5105
噶	-13.5116
罦	-13.5387
玈	-13.5398
蝀	-13.5404
㲄	-13.5404
姿	-13.5407
悪	-13.5411
惲	-13.5411
兇	-13.5412
蔮	-13.5413
瑋	-13.5413
瓞	-13.5415
蘂	-13.5416
腱	-13.5417
瘴	-13.5418
軀	-13.5418
羑	-13.5419
櫨	-13.5419
韡	-13.542
翺	-13.5421
眊	-13.5421
縹	-13.5423
燁	-13.5423
殪	-13.5425
鼽	-13.5425
騬	-13.5425
肶	-13.5425
簑	-13.5426
疉	-13.5427
齟	-13.5427
齬	-13.5427
憩	-13.5429
吊	-13.5431
湧	-13.5432
韞	-13.5433
悁	-13.5434
榎	-13.5434
琨	-13.5434
坰	-13.5435
巒	-13.5436
圛	-13.5437
䄂	-13.5437
麫	-13.5438
筒	-13.544
蕝	-13.544
傘	-13.5454
嵐	-13.5458
轎	-13.546
愓	-13.5464
冣	-13.5759
醸	-13.5762
菰	-13.5763
䠱	-13.5766
抜	-13.5766
沆	-13.5766
蚩	-13.5767
䪥	-13.5768
癡	-13.5769
噲	-13.577
睡	-13.577
怱	-13.577
踟	-13.5772
忮	-13.5774
掦	-13.5774
憖	-13.5775
囏	-13.5777
霣	-13.5777
藺	-13.5777
妒	-13.5778
欂	-13.5779
悊	-13.578
鍊	-13.5781
澇	-13.5782
豜	-13.5782
憮	-13.5782
鑪	-13.5784
溴	-13.5785
慣	-13.5785
觔	-13.5785
鱓	-13.5785
瀋	-13.5786
娥	-13.5786
霞	-13.5787
輨	-13.5788
氲	-13.5791
滇	-13.5791
腛	-13.5791
悒	-13.5796
齦	-13.5796
郴	-13.5799
􁆞	-13.5807
遅	-13.5811
輹	-13.6132
鬀	-13.6132
墢	-13.6133
硃	-13.6134
衒	-13.6138
弥	-13.6139
蹰	-13.6139
萸	-13.6139
濃	-13.6139
牕	-13.6141
哇	-13.6142
蓆	-13.6142
槫	-13.6143
咮	-13.6143
蒜	-13.6145
侠	-13.6149
竢	-13.615
藐	-13.615
抃	-13.6151
恁	-13.6151
晃	-13.6151
膓	-13.6153
碓	-13.6154
戣	-13.6154
昩	-13.6154
剉	-13.6154
俳	-13.6155
邘	-13.6155
醎	-13.6158
曖	-13.6158
磧	-13.6159
泓	-13.6159
棱	-13.616
鮀	-13.6161
杲	-13.6162
貮	-13.6163
柂	-13.6165
苄	-13.6166
党	-13.6167
玭	-13.6169
撒	-13.6169
邐	-13.6172
邏	-13.6183
圏	-13.6186
蛷	-13.6491
鏜	-13.6498
棋	-13.6509
剭	-13.6514
疽	-13.652
仔	-13.6523
柿	-13.6523
儛	-13.6523
朒	-13.6525
滸	-13.6527
珓	-13.6528
蔭	-13.6528
枹	-13.6529
畯	-13.6529
桼	-13.6531
㐲	-13.6532
裦	-13.6533
讌	-13.6534
倬	-13.6534
嚢	-13.6535
檾	-13.6535
硯	-13.6536
𣺌	-13.6537
遟	-13.6537
𦍑	-13.6537
瓴	-13.6538
鞘	-13.6538
摽	-13.6539
韘	-13.6539
郄	-13.6539
机	-13.654
-	-13.654
㳫	-13.654
麵	-13.654
梐	-13.6541
郫	-13.6541
栱	-13.6541
杶	-13.6542
肈	-13.6542
膂	-13.6542
塡	-13.6543
芘	-13.6545
鍇	-13.6545
鈒	-13.6545
㛮	-13.6545
絪	-13.6546
崘	-13.6548
唅	-13.6548
薩	-13.6549
㧍	-13.6551
襧	-13.6554
湍	-13.6561
哻	-13.6565
䘙	-13.6908
戦	-13.6918
襞	-13.6919
狷	-13.692
抍	-13.692
鱣	-13.6925
型	-13.6925
櫄	-13.6926
罶	-13.6926
鰌	-13.6927
漈	-13.6927
銎	-13.6927
娱	-13.6927
楸	-13.6929
鞵	-13.6929
捃	-13.693
閃	-13.693
适	-13.6931
幻	-13.6931
虯	-13.6931
耇	-13.6931
隹	-13.6932
碍	-13.6933
尔	-13.6934
􁅼	-13.6935
珙	-13.6935
蹉	-13.6935
璘	-13.6935
踶	-13.6936
枸	-13.6937
猨	-13.6937
睎	-13.6938
刦	-13.6938
麯	-13.6938
閍	-13.6939
枑	-13.6939
蘊	-13.6941
峒	-13.6941
㝔	-13.6942
煨	-13.6942
擡	-13.6943
􁀆	-13.6943
餮	-13.6943
珊	-13.6945
蓂	-13.6946
鳦	-13.6946
儋	-13.6947
䆫	-13.695
踞	-13.6956
夬	-13.6956
磁	-13.6957
觱	-13.6958
媾	-13.696
蠹	-13.7304
醨	-13.7317
鐔	-13.7321
鄶	-13.7324
譆	-13.7325
螮	-13.733
凥	-13.7335
殍	-13.7336
􁆍	-13.7337
㦧	-13.7337
肹	-13.7338
惨	-13.734
痬	-13.7341
榷	-13.7342
媪	-13.7342
哥	-13.7344
䐲	-13.7345
􁆷	-13.7345
讃	-13.7346
餳	-13.7348
啞	-13.7349
傎	-13.7349
輭	-13.7349
瀉	-13.735
㷀	-13.735
債	-13.7351
攴	-13.7351
泂	-13.7351
慱	-13.7352
籋	-13.7352
紿	-13.7353
隍	-13.7353
虔	-13.7354
朢	-13.7354
萋	-13.7354
胝	-13.7354
䖝	-13.7354
総	-13.7355
尢	-13.7355
罌	-13.7356
貒	-13.7357
窗	-13.7358
􁀁	-13.7359
璃	-13.7359
􁒃	-13.736
恫	-13.7361
凄	-13.7362
鞹	-13.7363
侖	-13.7363
樟	-13.7365
甃	-13.7369
邽	-13.737
㽦	-13.7371
倳	-13.738
抇	-13.738
𥙿	-13.7744
湔	-13.7765
牚	-13.7767
鼬	-13.777
叨	-13.7771
畊	-13.7773
隓	-13.7773
戻	-13.7773
痤	-13.7774
牼	-13.7775
堉	-13.7776
孼	-13.7778
皃	-13.7778
緷	-13.7778
犇	-13.7778
魍	-13.7779
􁃅	-13.7779
竆	-13.7781
斮	-13.7781
眠	-13.7782
𥚑	-13.7782
礫	-13.7783
艸	-13.7783
莾	-13.7783
􁏅	-13.7783
糯	-13.7784
罏	-13.7785
偫	-13.7786
鞎	-13.7786
㽞	-13.7786
嬀	-13.7787
秖	-13.7787
賃	-13.7789
嘿	-13.7789
礬	-13.7789
勰	-13.779
䜿	-13.7791
糖	-13.7792
臍	-13.7794
瑰	-13.7794
咢	-13.7794
嘵	-13.7796
柣	-13.7796
輀	-13.7796
􁌓	-13.7796
虀	-13.7798
醲	-13.7798
磷	-13.7798
䙆	-13.7799
鎌	-13.7799
牗	-13.78
蒭	-13.7801
丄	-13.7801
贑	-13.7801
炰	-13.7802
氤	-13.7802
妁	-13.7803
灉	-13.7804
隲	-13.7811
􁀥	-13.7814
䗪	-13.8197
榝	-13.8203
㒷	-13.8213
鬪	-13.8217
魑	-13.8222
呦	-13.8223
傰	-13.8225
􁎞	-13.8226
哆	-13.8226
雇	-13.8226
耔	-13.8226
寞	-13.8227
鋹	-13.8228
鞗	-13.8231
饍	-13.8232
柙	-13.8232
蹻	-13.8233
挨	-13.8233
鑕	-13.8233
萆	-13.8234
盻	-13.8235
􁆵	-13.8235
貜	-13.8237
嗑	-13.8238
眦	-13.8238
嶰	-13.8238
惴	-13.824
鞸	-13.824
璲	-13.824
牣	-13.824
撋	-13.824
締	-13.8241
术	-13.8241
店	-13.8242
徠	-13.8242
褌	-13.8243
鈕	-13.8244
墝	-13.8244
賅	-13.8245
鉛	-13.8245
讜	-13.8246
斨	-13.8246
洹	-13.8247
怕	-13.8247
睟	-13.8249
棚	-13.8249
諴	-13.8249
騤	-13.825
閥	-13.8251
扎	-13.8251
蔀	-13.8252
琉	-13.8252
砲	-13.8253
綯	-13.8254
㳄	-13.8256
纑	-13.8258
『	-13.826
閘	-13.8261
圅	-13.8262
陀	-13.8262
䮾	-13.8265
圮	-13.8272
淀	-13.8275
岍	-13.8277
莇	-13.8685
捇	-13.8693
螘	-13.8695
杻	-13.8697
敲	-13.8699
邴	-13.8699
瓷	-13.87
攣	-13.8705
籓	-13.8707
苧	-13.8707
顕	-13.8708
硜	-13.8708
𠻳	-13.8708
禅	-13.8709
艷	-13.8709
旰	-13.871
杕	-13.871
幙	-13.871
芓	-13.871
籚	-13.8711
魎	-13.8712
憒	-13.8713
􁀤	-13.8713
窅	-13.8714
蘿	-13.8716
閬	-13.8716
鋙	-13.8716
菟	-13.8717
􁇕	-13.8717
薈	-13.8718
愎	-13.8718
㝡	-13.8719
墩	-13.872
㢤	-13.8721
郃	-13.8721
韁	-13.8721
矟	-13.8722
菭	-13.8723
攙	-13.8723
哽	-13.8723
䧺	-13.8723
軄	-13.8724
㢮	-13.8724
棐	-13.8726
穣	-13.8726
櫺	-13.8727
悃	-13.8728
䚡	-13.8729
縐	-13.8735
鞃	-13.8735
炒	-13.874
枿	-13.8741
暐	-13.8742
薶	-13.8742
鴂	-13.8744
麈	-13.8746
涐	-13.9156
鏐	-13.9189
􁎪	-13.919
撲	-13.9196
喫	-13.9199
縭	-13.92
鵬	-13.9201
燻	-13.9203
獒	-13.9204
圄	-13.9207
僩	-13.9208
拌	-13.9209
楂	-13.9209
楙	-13.921
􁏽	-13.9211
儁	-13.9211
橰	-13.9212
鄟	-13.9212
颺	-13.9212
蚍	-13.9213
鄀	-13.9214
𠡠	-13.9214
躭	-13.9216
躩	-13.9216
􁂐	-13.9216
瀕	-13.9216
閈	-13.9217
鯨	-13.9218
捖	-13.9218
挶	-13.9218
脽	-13.922
帢	-13.922
淠	-13.922
厖	-13.9221
剴	-13.9221
媍	-13.9221
帬	-13.9222
羯	-13.9222
胱	-13.9222
携	-13.9222
畼	-13.9223
檉	-13.9223
寬	-13.9223
瓛	-13.9223
祢	-13.9223
頲	-13.9223
絍	-13.9224
棨	-13.9224
煽	-13.9224
溟	-13.9225
鬒	-13.9225
庣	-13.9226
軺	-13.9226
矞	-13.9227
憸	-13.9228
淩	-13.9229
朿	-13.9229
遴	-13.9229
窘	-13.923
襘	-13.9231
漷	-13.9231
摛	-13.9232
俅	-13.9237
馥	-13.9246
閿	-13.9263
瀟	-13.9692
垺	-13.9701
􁎯	-13.9713
㱕	-13.9718
殣	-13.9724
尓	-13.9724
麎	-13.9724
縆	-13.9725
􁀔	-13.9726
蜚	-13.9726
軧	-13.9727
惮	-13.9728
扤	-13.9729
濂	-13.9729
禚	-13.9731
裡	-13.9732
筞	-13.9732
爝	-13.9732
掣	-13.9732
廌	-13.9732
橑	-13.9733
鄞	-13.9733
泝	-13.9734
鞬	-13.9734
陕	-13.9734
璀	-13.9736
􁀦	-13.9736
鄹	-13.9738
喆	-13.9739
騃	-13.974
沌	-13.974
繄	-13.974
邙	-13.974
蚣	-13.9741
𨕖	-13.9742
籟	-13.9742
簵	-13.9742
㮮	-13.9742
蒔	-13.9743
縌	-13.9744
睪	-13.9744
緵	-13.9744
頠	-13.9745
糒	-13.9745
垠	-13.9746
艦	-13.9746
樣	-13.9746
鐻	-13.9747
盼	-13.9747
弰	-13.9747
毬	-13.9747
眈	-13.9748
脁	-13.9748
絿	-13.9748
膩	-13.9749
㝱	-13.9749
壩	-13.9749
䈂	-13.9749
漣	-13.975
甖	-13.975
藤	-13.9751
屆	-13.9751
歧	-13.9751
趋	-13.9752
韤	-13.9752
鵀	-13.9753
􁐉	-13.9756
逑	-13.9757
蹠	-13.9758
峨	-13.9759
玫	-13.9761
櫃	-13.9762
垜	-13.9763
旴	-13.9764
駝	-13.9765
鄯	-13.9768
珌	-13.9772
驊	-13.9782
罿	-14.0246
泱	-14.0264
曇	-14.0278
跽	-14.0281
済	-14.0282
确	-14.0282
􁃦	-14.0284
靦	-14.0286
扳	-14.0287
粳	-14.0287
囹	-14.0288
叐	-14.0288
醑	-14.029
圬	-14.029
棻	-14.029
芷	-14.029
螂	-14.0291
璊	-14.0291
罳	-14.0292
譛	-14.0293
屹	-14.0294
棓	-14.0295
懑	-14.0296
銛	-14.0296
菀	-14.0296
箘	-14.0296
鵉	-14.0297
航	-14.0299
抭	-14.03
鶚	-14.03
蕞	-14.03
槿	-14.0301
韮	-14.0301
汸	-14.0303
犅	-14.0303
蒢	-14.0303
肻	-14.0304
邜	-14.0304
渺	-14.0305
茁	-14.0306
婕	-14.0306
涌	-14.0306
䦨	-14.0308
勩	-14.0308
满	-14.0309
霹	-14.0309
㫄	-14.031
儇	-14.0311
橜	-14.0312
侲	-14.0312
頁	-14.0314
茸	-14.0315
濊	-14.0317
逥	-14.0319
茗	-14.0329
胹	-14.0329
槽	-14.0334
鍑	-14.0341
尪	-14.0832
鬝	-14.0846
抮	-14.0853
鑢	-14.0856
粛	-14.0858
𠞰	-14.0863
鲁	-14.0864
亓	-14.0866
殹	-14.0868
哂	-14.087
夤	-14.0872
坯	-14.0873
趯	-14.0875
你	-14.0875
蠭	-14.0875
蝮	-14.0875
躅	-14.0876
迁	-14.0876
捥	-14.0876
籀	-14.0877
虒	-14.0877
剌	-14.0878
蠋	-14.0878
臓	-14.0879
釃	-14.0879
涘	-14.0879
𢃄	-14.0879
鉼	-14.088
釧	-14.088
敜	-14.088
鱴	-14.088
觯	-14.0881
眎	-14.0882
駸	-14.0882
飶	-14.0884
惛	-14.0885
裌	-14.0885
罛	-14.0886
㡳	-14.0886
鐍	-14.0886
犖	-14.0887
杆	-14.0887
腓	-14.0888
蚊	-14.0888
妐	-14.0888
旉	-14.0888
汀	-14.0888
䣼	-14.0889
陿	-14.0889
煢	-14.0889
俁	-14.0889
曝	-14.089
埀	-14.089
娌	-14.0891
憗	-14.0892
奧	-14.0892
港	-14.0892
笆	-14.0892
搃	-14.0892
郛	-14.0894
躇	-14.0895
仝	-14.0896
彍	-14.0897
盌	-14.0897
妯	-14.0897
靂	-14.0897
糦	-14.0897
隃	-14.0898
䗂	-14.0898
淢	-14.0898
猖	-14.0899
敿	-14.09
潑	-14.09
麪	-14.0901
磾	-14.0903
侐	-14.0905
娘	-14.0908
囉	-14.0908
䘚	-14.0914
瀰	-14.0915
澍	-14.092
飇	-14.0925
痹	-14.1441
趆	-14.1453
跀	-14.148
􁈩	-14.1488
蘗	-14.1491
蕈	-14.1494
􁎟	-14.1494
趂	-14.1494
煜	-14.1497
倜	-14.1497
婭	-14.1498
稈	-14.1499
𠫭	-14.15
􁇘	-14.15
佻	-14.15
剙	-14.15
呶	-14.1501
鵩	-14.1502
溶	-14.1505
䄍	-14.1505
珣	-14.1506
桮	-14.1506
夣	-14.1507
偲	-14.1507
糈	-14.1507
婬	-14.1508
崞	-14.1508
騖	-14.1508
韙	-14.1509
㢠	-14.1509
眧	-14.1509
荊	-14.1509
曬	-14.151
鋈	-14.151
刏	-14.151
挲	-14.1511
𫐠	-14.1511
煆	-14.1511
㕑	-14.1511
槄	-14.1511
朦	-14.1511
侣	-14.1512
籖	-14.1512
棰	-14.1512
讟	-14.1513
㩁	-14.1513
耏	-14.1513
笋	-14.1514
棞	-14.1516
瞞	-14.1516
臈	-14.1516
𬗟	-14.1517
臷	-14.1517
椴	-14.1517
膀	-14.1518
裀	-14.1518
蹂	-14.1518
蝣	-14.1518
姙	-14.1519
韥	-14.1519
套	-14.1521
輾	-14.1522
丰	-14.1522
渟	-14.1523
厓	-14.1523
呫	-14.1525
憬	-14.1525
駪	-14.1525
戹	-14.1526
觼	-14.1526
鷁	-14.1527
琇	-14.1527
鍤	-14.1528
槅	-14.1528
巋	-14.1528
灶	-14.153
雈	-14.1533
脺	-14.1533
㸋	-14.1539
灊	-14.1548
錤	-14.215
郗	-14.2153
鸛	-14.2157
譸	-14.2159
戇	-14.2161
捼	-14.2161
拏	-14.2163
憝	-14.2164
檼	-14.2164
磿	-14.2164
璫	-14.2165
菖	-14.2166
䱹	-14.2167
暅	-14.2168
槎	-14.2168
蕰	-14.2168
媟	-14.2168
撼	-14.2168
彀	-14.2169
亰	-14.2169
􁌹	-14.2169
僦	-14.217
嵬	-14.2171
鷇	-14.2171
甾	-14.2173
玠	-14.2173
䚢	-14.2173
𤏡	-14.2174
仐	-14.2174
嫠	-14.2174
齗	-14.2175
癕	-14.2175
狽	-14.2176
黌	-14.2176
紈	-14.2177
涹	-14.2177
勳	-14.2178
努	-14.2178
蝑	-14.2178
鮞	-14.2179
瞀	-14.2179
瞫	-14.2179
漓	-14.218
􁉺	-14.218
萱	-14.218
刧	-14.2181
筊	-14.2181
份	-14.2182
塼	-14.2182
軜	-14.2182
霓	-14.2183
嘩	-14.2183
檩	-14.2184
厔	-14.2184
靄	-14.2184
􁎲	-14.2184
憺	-14.2187
醊	-14.2188
晶	-14.2188
门	-14.2188
秏	-14.2189
怎	-14.219
痾	-14.2191
㺯	-14.2192
駜	-14.2192
阽	-14.2193
鏚	-14.2194
茘	-14.2198
矚	-14.2199
鐎	-14.22
􁂝	-14.2203
飈	-14.2203
悻	-14.2205
崈	-14.2205
妘	-14.2206
忭	-14.2207
槮	-14.2212
騅	-14.2225
宕	-14.2231
駼	-14.2233
鶪	-14.2234
􁎣	-14.2819
熨	-14.2857
𥅆	-14.2863
蕕	-14.2865
娓	-14.2866
蝥	-14.2867
聀	-14.2867
塏	-14.287
麃	-14.2872
䡄	-14.2872
搬	-14.2873
抹	-14.2873
摦	-14.2874
珏	-14.2874
􁊍	-14.2874
邂	-14.2875
体	-14.2875
㭬	-14.2875
迢	-14.2876
鶄	-14.288
侉	-14.288
簥	-14.288
蚕	-14.288
􁎤	-14.288
捽	-14.2882
鞛	-14.2883
撩	-14.2883
擺	-14.2883
蜻	-14.2884
儿	-14.2884
餠	-14.2884
氄	-14.2884
鄏	-14.2885
朾	-14.2886
暤	-14.2886
䙜	-14.2886
彂	-14.2887
揟	-14.2887
緰	-14.2889
䐹	-14.2889
碁	-14.2889
鏑	-14.2889
畇	-14.2889
墍	-14.289
抛	-14.289
鮓	-14.2891
憧	-14.2891
鄐	-14.2891
焕	-14.2891
喋	-14.2891
柹	-14.2892
疴	-14.2892
篦	-14.2892
攒	-14.2893
耊	-14.2893
僔	-14.2893
脹	-14.2893
矠	-14.2893
夐	-14.2894
泡	-14.2894
髳	-14.2894
甈	-14.2894
讄	-14.2894
饈	-14.2895
澈	-14.2895
歘	-14.2895
淘	-14.2895
槥	-14.2896
廇	-14.2898
蕆	-14.2899
䯚	-14.2899
郳	-14.29
犛	-14.29
邅	-14.29
沚	-14.29
褁	-14.29
糕	-14.2901
􁋄	-14.2901
澂	-14.2901
軏	-14.2902
獠	-14.2902
縧	-14.2904
埜	-14.2905
軥	-14.2906
葽	-14.2906
靠	-14.2906
􁐁	-14.2906
檇	-14.2909
攽	-14.2909
麽	-14.2909
鎻	-14.2909
捊	-14.291
墬	-14.2911
攪	-14.2911
壄	-14.2915
宔	-14.2915
餔	-14.2916
􁎿	-14.2918
瑲	-14.2919
滏	-14.292
嚅	-14.2921
薍	-14.2929
帆	-14.2934
渢	-14.3617
腃	-14.3626
䏈	-14.3627
鋩	-14.3629
洚	-14.3629
􁍈	-14.3631
鰫	-14.3632
㣧	-14.3633
磯	-14.3633
𣏌	-14.3634
弨	-14.3637
尌	-14.3638
濞	-14.3639
琵	-14.3642
琶	-14.3642
嗷	-14.3642
媫	-14.3642
杷	-14.3644
蠕	-14.3646
囑	-14.3647
塓	-14.3647
怏	-14.3647
㯿	-14.3649
鵁	-14.3649
迕	-14.3649
䱸	-14.3649
蓽	-14.365
齛	-14.365
稉	-14.3651
䨾	-14.3651
犴	-14.3651
櫫	-14.3652
㧖	-14.3652
秔	-14.3652
霾	-14.3653
憍	-14.3653
匯	-14.3653
窠	-14.3654
煒	-14.3655
諲	-14.3655
熉	-14.3656
珧	-14.3656
芉	-14.3656
瓮	-14.3657
炯	-14.3657
籙	-14.3657
鷔	-14.3657
呪	-14.3657
蓰	-14.3658
竀	-14.3658
蚪	-14.3658
荇	-14.3659
祸	-14.3659
滃	-14.366
鈿	-14.366
砭	-14.366
匆	-14.3661
頣	-14.3661
燄	-14.3661
鋟	-14.3661
殲	-14.3661
靺	-14.3662
𣪚	-14.3662
瑛	-14.3662
惽	-14.3662
秕	-14.3662
誶	-14.3662
紽	-14.3663
爚	-14.3663
摏	-14.3663
磊	-14.3664
躄	-14.3664
陲	-14.3665
圩	-14.3665
杗	-14.3665
牿	-14.3665
聪	-14.3665
緎	-14.3666
萄	-14.3666
笰	-14.3667
迾	-14.3668
邨	-14.3668
窪	-14.3669
霈	-14.3669
郚	-14.3669
曙	-14.3669
洊	-14.367
溧	-14.367
䄖	-14.367
綉	-14.3671
漻	-14.3671
灤	-14.3671
楝	-14.3671
悰	-14.3671
鈸	-14.3671
劈	-14.3672
診	-14.3673
鵃	-14.3673
汩	-14.3674
杈	-14.3674
嬛	-14.3677
逌	-14.368
篩	-14.3682
蔴	-14.3685
珵	-14.369
卲	-14.3695
幑	-14.3749
秝	-14.444
醟	-14.4447
祅	-14.4455
熯	-14.4464
鞈	-14.4468
鄬	-14.4469
胜	-14.447
㓨	-14.4471
暠	-14.4472
遨	-14.4472
极	-14.4474
鑞	-14.4475
嵇	-14.4475
猱	-14.4476
逅	-14.4478
駈	-14.4478
桔	-14.4478
蚘	-14.4478
鷞	-14.4479
鴉	-14.4481
瘼	-14.4481
朘	-14.4483
嘖	-14.4483
号	-14.4483
餬	-14.4483
譱	-14.4484
􁎵	-14.4484
磅	-14.4484
刓	-14.4485
廾	-14.4485
礴	-14.4485
騣	-14.4485
蒧	-14.4485
搚	-14.4486
勍	-14.4487
桉	-14.4488
衖	-14.449
熠	-14.449
踠	-14.449
庤	-14.449
鶘	-14.449
卸	-14.449
綀	-14.4491
忩	-14.4491
䴠	-14.4491
俔	-14.4492
苔	-14.4492
楶	-14.4493
謠	-14.4493
莵	-14.4494
塚	-14.4494
慷	-14.4495
䵑	-14.4495
毊	-14.4495
䇲	-14.4495
抴	-14.4495
麞	-14.4495
珤	-14.4495
䙱	-14.4496
㻛	-14.4496
㡌	-14.4496
焰	-14.4497
輛	-14.4498
菋	-14.4498
雱	-14.4498
􁎬	-14.4498
銚	-14.4498
稳	-14.4499
僱	-14.4499
廧	-14.45
嵌	-14.45
嫚	-14.4501
囦	-14.4501
蚡	-14.4501
妓	-14.4502
糲	-14.4502
儈	-14.4502
换	-14.4502
跖	-14.4503
猿	-14.4503
􁉃	-14.4503
蔕	-14.4503
芊	-14.4504
􁎶	-14.4504
醒	-14.4505
醹	-14.4505
􁀂	-14.4506
滻	-14.4506
鄡	-14.4506
翀	-14.4508
栿	-14.4508
璚	-14.4509
勖	-14.4509
屣	-14.451
褑	-14.451
鼂	-14.4511
壍	-14.4511
瀐	-14.4511
崙	-14.4512
窰	-14.4512
鉆	-14.4513
嘄	-14.4514
匈	-14.4514
􁄄	-14.4515
簍	-14.4515
嫄	-14.4516
嫩	-14.4518
鋗	-14.4521
怫	-14.4526
祾	-14.4527
滱	-14.4533
騊	-14.4544
饅	-14.4561
㶏	-14.4617
􁊃	-14.5324
􁊁	-14.5339
醅	-14.5349
郪	-14.536
􁏕	-14.537
􁅀	-14.5374
􁈤	-14.5374
絣	-14.5375
􁆫	-14.5376
烙	-14.5378
暹	-14.5379
㳙	-14.5381
珀	-14.5382
挐	-14.5382
㮓	-14.5384
郾	-14.5384
薿	-14.5384
􁂋	-14.5384
愒	-14.5384
礜	-14.5385
粃	-14.5385
䵾	-14.5386
霰	-14.5389
巛	-14.539
蛢	-14.539
輞	-14.539
噉	-14.539
烽	-14.539
摸	-14.5391
碌	-14.5392
眤	-14.5392
􁎜	-14.5392
种	-14.5393
鬩	-14.5393
愅	-14.5393
蒋	-14.5393
賡	-14.5394
忙	-14.5394
癖	-14.5395
憋	-14.5395
纆	-14.5396
濺	-14.5397
壖	-14.5399
㯋	-14.5399
攺	-14.5399
塜	-14.5399
媮	-14.5399
籲	-14.5399
􁂎	-14.5399
鄍	-14.54
峭	-14.54
渦	-14.54
轑	-14.5401
柅	-14.5401
欷	-14.5401
殚	-14.5402
羜	-14.5403
洸	-14.5404
鞦	-14.5404
􁁏	-14.5404
糸	-14.5405
簸	-14.5405
飜	-14.5405
儌	-14.5406
牏	-14.5406
刵	-14.5407
畡	-14.5407
袓	-14.5408
􁍑	-14.5409
􁏁	-14.5409
妍	-14.5409
椳	-14.5409
嚙	-14.5409
飰	-14.5409
鎋	-14.541
广	-14.541
伻	-14.541
丌	-14.5411
卾	-14.5411
凂	-14.5411
窿	-14.5412
䛇	-14.5412
繽	-14.5413
瘝	-14.5413
囱	-14.5414
黛	-14.5414
擉	-14.5415
蛬	-14.5416
倥	-14.5416
獬	-14.5416
𣣔	-14.5416
宀	-14.5417
膈	-14.5417
𧰼	-14.5417
堭	-14.5417
睥	-14.5417
蘅	-14.5418
牾	-14.5418
㖃	-14.5419
旍	-14.542
遝	-14.542
􁐔	-14.542
捋	-14.542
􁊹	-14.5421
搴	-14.5421
𦕈	-14.5422
鄩	-14.5422
玆	-14.5423
蟞	-14.5423
摟	-14.5424
紑	-14.5424
揵	-14.5425
栐	-14.5425
蚠	-14.5426
丝	-14.5426
謩	-14.5427
膍	-14.5427
臄	-14.5427
綎	-14.5428
妲	-14.543
礝	-14.5432
嵕	-14.5433
燀	-14.5433
釴	-14.5434
掫	-14.5435
寀	-14.5437
㫪	-14.5438
㡊	-14.5444
輚	-14.5452
濆	-14.5463
㝎	-14.637
埆	-14.6372
恋	-14.6378
亵	-14.6379
㚄	-14.638
啾	-14.6381
偓	-14.6383
仳	-14.6387
凹	-14.639
愡	-14.639
㽟	-14.6392
岩	-14.6392
傒	-14.6392
冤	-14.6394
䍡	-14.6394
丼	-14.6396
䪅	-14.6397
恧	-14.6399
嵒	-14.64
弒	-14.6401
倕	-14.6402
恡	-14.6403
戩	-14.6404
咒	-14.6405
撕	-14.6405
㫋	-14.6406
怳	-14.6407
挏	-14.6407
劃	-14.6407
屡	-14.6408
俵	-14.6409
咀	-14.6409
幰	-14.6409
岫	-14.641
䆳	-14.641
恌	-14.6411
僼	-14.6411
䎡	-14.6411
怭	-14.6413
帉	-14.6414
偁	-14.6414
媲	-14.6416
匊	-14.6416
䓣	-14.6417
䌆	-14.6417
厪	-14.6417
嗌	-14.6417
惬	-14.6418
佋	-14.6419
㗋	-14.6421
䄡	-14.6421
幺	-14.6422
匃	-14.6425
愨	-14.6431
佶	-14.6437
揑	-14.6439
䨨	-14.6444
幞	-14.7553
牴	-15.1889
脗	-17.4723
燉	-17.4724
玁	-17.4725
紜	-17.4726
.	-17.4727
