<unk>	0
<s>	0
</s>	0
之	-3.79527
也	-4.0445
/	-4.18726
而	-4.32652
以	-4.41509
)(	-4.64357
者	-4.67806
為	-4.75898
其	-4.81021
則	-4.82846
(	-4.94736
)	-5.02509
有	-5.0419
曰	-5.13764
不	-5.21589
於	-5.23649
言	-5.25576
故	-5.4368
是	-5.49585
此	-5.54324
自	-5.58737
于	-5.60921
在	-5.64491
無	-5.67549
與	-5.74169
至	-5.75037
一	-5.76482
大	-5.76962
人	-5.79943
矣	-5.80087
皆	-5.8575
謂	-5.89879
乃	-5.91032
惟	-5.95177
非	-5.96358
所	-5.97312
亦	-5.99889
王	-6.03512
用	-6.06144
又	-6.06586
作	-6.08916
天	-6.10525
民	-6.12115
今	-6.14284
如	-6.15163
云	-6.18998
水	-6.20458
然	-6.22923
時	-6.22996
當	-6.23092
事	-6.23093
乎	-6.24533
若	-6.25251
明	-6.29834
我	-6.30637
正	-6.30825
即	-6.30979
爲	-6.32476
中	-6.32994
命	-6.33659
上	-6.35549
徳	-6.37464
行	-6.39485
既	-6.40493
下	-6.42838
▁	-6.43482
得	-6.43567
○	-6.43904
所以	-6.44101
使	-6.44451
出	-6.44617
見	-6.46697
必	-6.47095
三	-6.47429
已	-6.48106
子	-6.4904
同	-6.49454
山	-6.50025
能	-6.5267
知	-6.55932
周公	-6.58373
反	-6.58435
治	-6.58922
相	-6.59835
二	-6.60251
從	-6.60612
道	-6.61317
書	-6.61558
河	-6.63347
日	-6.64047
哉	-6.64241
雖	-6.64809
可	-6.66772
成	-6.6682
汝	-6.66886
及	-6.67268
君	-6.676
心	-6.68325
傳	-6.7117
國	-6.72318
以為	-6.72677
五	-6.73951
州	-6.7409
始	-6.76793
地	-6.77112
四	-6.78503
所謂	-6.78674
分	-6.79313
禹	-6.79558
居	-6.80231
欲	-6.80425
經	-6.80445
安	-6.80515
東	-6.80716
臣	-6.8114
後	-6.81311
服	-6.81586
名	-6.81892
縣	-6.83317
周	-6.83491
公	-6.84425
爾	-6.84457
生	-6.84512
文	-6.84768
本	-6.85543
蓋	-6.85645
入	-6.85764
方	-6.87734
立	-6.87794
德	-6.87806
舜	-6.88351
多	-6.88363
焉	-6.89456
或	-6.89851
法	-6.90764
耳	-6.90914
南	-6.92584
敬	-6.92711
先	-6.93944
訓	-6.93982
未	-6.94771
合	-6.95029
猶	-6.96635
不可	-6.97528
/)	-6.97626
成王	-6.97903
刑	-6.98652
北	-6.98772
復	-6.98988
平	-7.00347
世	-7.01663
官	-7.01821
漢	-7.02502
意	-7.02743
實	-7.02956
長	-7.03239
西	-7.03295
禮	-7.03949
字	-7.03964
義	-7.042
受	-7.05824
天下	-7.06109
稱	-7.06316
通	-7.0646
武王	-7.06718
亂	-7.07115
舉	-7.07292
常	-7.07735
九	-7.08031
謂之	-7.08245
如此	-7.08449
將	-7.08731
去	-7.09073
何	-7.09496
定	-7.09927
諸侯	-7.10053
古	-7.10264
易	-7.10468
因	-7.10735
重	-7.12245
善	-7.12248
終	-7.12344
六	-7.12583
土	-7.12605
而不	-7.13195
告	-7.13618
政	-7.15322
江	-7.154
夫	-7.15582
凡	-7.15622
處	-7.16281
説	-7.16763
功	-7.1763
物	-7.18073
之事	-7.18435
和	-7.19016
帝	-7.19217
盡	-7.19385
殷	-7.19689
之意	-7.21222
湯	-7.2134
夏	-7.21767
師	-7.21907
陽	-7.22343
不能	-7.23042
音	-7.23339
小	-7.23367
來	-7.23912
遂	-7.2432
衆	-7.24781
而已	-7.24836
過	-7.25228
度	-7.25746
惡	-7.27671
數	-7.29084
主	-7.29145
順	-7.29667
氏	-7.29698
信	-7.30206
商	-7.32076
文王	-7.32717
流	-7.3274
外	-7.32812
盖	-7.32866
堯	-7.32897
固	-7.33223
紂	-7.34534
厥	-7.3478
前	-7.35533
逺	-7.35775
屬	-7.36604
樂	-7.37515
極	-7.38228
說	-7.38963
罪	-7.39758
但	-7.40179
近	-7.40554
疑	-7.4169
諸	-7.42557
予	-7.42695
由	-7.43107
初	-7.43129
克	-7.43411
遷	-7.43586
觀	-7.44308
教	-7.44899
豈	-7.44973
都	-7.45021
取	-7.45507
理	-7.45587
異	-7.45712
且	-7.45747
次	-7.4637
制	-7.46567
考	-7.46837
志	-7.46858
歸	-7.46895
位	-7.46939
是也	-7.47381
之所	-7.47717
思	-7.4787
難	-7.48471
者也	-7.49419
内	-7.50067
月	-7.50326
亡	-7.50551
引	-7.51525
各	-7.51586
葢	-7.51836
親	-7.52172
聖人	-7.52259
可以	-7.52282
天子	-7.52697
濟	-7.53965
祭	-7.54482
海	-7.5466
家	-7.54911
致	-7.55172
深	-7.5592
廣	-7.55953
注	-7.56082
,	-7.56677
甚	-7.56927
至于	-7.5709
聖	-7.57498
之心	-7.57608
失	-7.57873
止	-7.57945
宜	-7.58197
修	-7.58209
論	-7.58411
興	-7.58423
元	-7.58437
求	-7.5846
武	-7.5852
序	-7.5863
之道	-7.58875
化	-7.60076
八	-7.60454
封	-7.61284
兩	-7.61355
辭	-7.61375
年	-7.6236
士	-7.62629
陳	-7.62671
天命	-7.63457
齊	-7.63693
戒	-7.6386
朝	-7.63968
至於	-7.64003
澤	-7.64068
聲	-7.64286
祀	-7.64768
田	-7.64814
保	-7.64997
㑹	-7.65444
賢	-7.65631
卜	-7.66296
金	-7.66686
載	-7.672
變	-7.67284
死	-7.67607
而後	-7.67801
風	-7.6781
七	-7.67837
指	-7.68107
不知	-7.68328
令	-7.68613
身	-7.68636
視	-7.68858
動	-7.68961
史	-7.69153
謀	-7.69396
殺	-7.69642
太甲	-7.69651
益	-7.69682
髙	-7.69736
聞	-7.70181
發	-7.70352
正義曰	-7.70469
百	-7.7076
伊尹	-7.70998
貢	-7.71117
故曰	-7.71237
木	-7.71271
篇	-7.71497
先王	-7.71533
獨	-7.72258
少	-7.72398
神	-7.72515
氣	-7.73039
口	-7.73381
按	-7.74506
别	-7.74828
應	-7.7544
之後	-7.75572
尚	-7.75679
其所	-7.76049
進	-7.76102
任	-7.76389
城	-7.76424
體	-7.77211
承	-7.77286
問	-7.77604
畏	-7.77749
建	-7.78127
越	-7.7835
郡	-7.78984
起	-7.79166
語	-7.7918
之言	-7.79235
舊	-7.79497
學	-7.79904
永	-7.79981
邦	-7.8019
等	-7.80331
之時	-7.80471
典	-7.8049
據	-7.80525
廢	-7.80821
直	-7.80974
好	-7.81525
彼	-7.8154
伯	-7.81588
改	-7.81676
▁(	-7.81745
力	-7.81826
己	-7.81919
望	-7.81922
後世	-7.82384
新	-7.82677
宗	-7.82811
絶	-7.83307
詩	-7.83577
象	-7.83596
念	-7.83622
召公	-7.8426
不得	-7.84335
加	-7.84363
尊	-7.8457
府	-7.84674
詳	-7.84922
然後	-7.84924
美	-7.84974
備	-7.85039
誠	-7.85104
輕	-7.85193
之地	-7.85473
食	-7.85945
聽	-7.86392
節	-7.8666
職	-7.86726
率	-7.87287
賦	-7.87398
往	-7.87478
紀	-7.87561
並	-7.87796
太	-7.87927
更	-7.89144
不敢	-7.89205
唐	-7.89397
簡	-7.89406
解	-7.89426
旣	-7.89495
吾	-7.89747
降	-7.89875
祖	-7.8998
代	-7.90261
要	-7.9038
原	-7.90456
仁	-7.90535
石	-7.90936
開	-7.91135
吉	-7.91542
共	-7.92137
疏	-7.92152
洛	-7.92612
於此	-7.9268
𫝊	-7.92688
罰	-7.93061
恭	-7.93065
不同	-7.93201
之人	-7.93506
星	-7.93644
人君	-7.93685
守	-7.93857
伐	-7.94372
孔	-7.94711
特	-7.94847
人之	-7.94941
享	-7.95067
之間	-7.95658
弗	-7.9614
首	-7.96234
勤	-7.96375
喪	-7.96714
禹貢	-7.96827
火	-7.96943
川	-7.97035
威	-7.97129
嵗	-7.97198
夷	-7.97632
父	-7.9764
記	-7.97667
色	-7.98094
憂	-7.98132
門	-7.98522
圖	-7.98586
餘	-7.98872
置	-7.99011
逸	-7.99213
白	-7.99997
言之	-8.001
怨	-8.00344
就	-8.00353
侯	-8.00633
周禮	-8.01114
章	-8.01275
著	-8.01843
宅	-8.01878
又曰	-8.01903
害	-8.01911
鄭	-8.02062
宋	-8.02511
間	-8.02599
容	-8.03123
秦	-8.03222
監	-8.03655
比	-8.03819
臨	-8.04079
利	-8.04222
掌	-8.04414
罔	-8.04582
萬	-8.04673
晉	-8.04837
奉	-8.04946
兼	-8.05023
恐	-8.05066
繼	-8.05582
厯	-8.05599
執	-8.05919
咸	-8.06352
慎	-8.06786
性	-8.06997
顯	-8.07297
存	-8.07299
不言	-8.07515
有所	-8.07891
總	-8.08787
斷	-8.08849
叙	-8.08929
隂	-8.09257
邑	-8.10001
厚	-8.10112
玉	-8.11036
之辭	-8.11071
兵	-8.11095
讀	-8.11287
歴	-8.11813
無所	-8.12079
便	-8.12305
民之	-8.12595
謹	-8.12669
誥	-8.12679
足	-8.12986
釋	-8.13008
最	-8.13138
格	-8.13441
敢	-8.1354
庶	-8.13777
昭	-8.13826
寧	-8.1385
推	-8.13975
光	-8.14012
廟	-8.1422
五行	-8.14369
敎	-8.14387
漢孔氏曰	-8.14561
天下之	-8.14655
四方	-8.14661
臯陶	-8.14724
陵	-8.1509
全	-8.1531
馬	-8.15727
之中	-8.15835
十	-8.16881
逆	-8.17093
愛	-8.17126
導	-8.17347
酒	-8.17426
盤庚	-8.17644
張	-8.17953
布	-8.18079
淮	-8.18427
休	-8.18452
他	-8.18561
文武	-8.19049
疾	-8.19282
誤	-8.19975
之功	-8.19986
盛	-8.20032
虞	-8.20978
邪	-8.21068
違	-8.2118
征	-8.21209
君子	-8.21291
敘	-8.21466
勉	-8.21705
天之	-8.21709
類	-8.22206
春秋	-8.22313
敷	-8.22462
只	-8.226
於是	-8.22633
桀	-8.22697
私	-8.22922
依	-8.23077
對	-8.23262
施	-8.23312
衛	-8.23394
設	-8.23463
滅	-8.23511
福	-8.23969
養	-8.24143
。	-8.24158
此言	-8.2429
統	-8.24368
當時	-8.24603
箕子	-8.24622
入海	-8.24649
也故	-8.24729
者皆	-8.24835
差	-8.24898
勞	-8.2494
梁	-8.25726
肆	-8.25739
后	-8.25792
似	-8.25881
勝	-8.25995
尤	-8.26294
魯	-8.26459
軍	-8.26661
列	-8.26661
天地	-8.2685
棄	-8.26878
須	-8.26893
嘗	-8.27259
以下	-8.27429
上下	-8.27449
徐	-8.27992
誅	-8.28148
無不	-8.28344
苟	-8.2855
之義	-8.28642
放	-8.29223
使之	-8.29427
決	-8.29487
雨	-8.30387
責	-8.30911
之法	-8.30945
表	-8.31057
界	-8.31182
老	-8.31645
而無	-8.31997
遺	-8.32078
莫	-8.3231
揚	-8.32344
誓	-8.32816
精	-8.33027
歌	-8.33426
形	-8.3355
凶	-8.33595
朕	-8.33638
孫	-8.33708
康	-8.33733
源	-8.33752
造	-8.33756
勿	-8.33833
畢	-8.33867
適	-8.33877
三年	-8.33999
嚴	-8.34207
黄	-8.34441
輔	-8.34988
牧	-8.35002
敗	-8.35019
朔	-8.3512
俗	-8.3519
清	-8.35612
器	-8.35614
寛	-8.35632
之説	-8.35771
康叔	-8.35952
律	-8.36059
計	-8.36074
情	-8.36174
冀	-8.36568
微	-8.36595
上帝	-8.36629
良	-8.36706
西南	-8.36753
必有	-8.36933
庸	-8.37024
昔	-8.37164
徒	-8.37576
納	-8.37968
君臣	-8.38024
古文	-8.38033
虐	-8.38295
辟	-8.3834
車	-8.38471
斯	-8.38719
皇	-8.38968
向	-8.39215
申	-8.39308
司	-8.39468
孔子	-8.3952
春	-8.39578
積	-8.39715
目	-8.39892
獻	-8.3992
蔡	-8.39972
路	-8.40032
亳	-8.4015
之徳	-8.40254
切	-8.40276
案	-8.40353
俱	-8.40571
末	-8.40746
果	-8.40789
右	-8.40795
之理	-8.40834
卷	-8.40904
其心	-8.41157
留	-8.4124
則是	-8.41486
左	-8.41618
除	-8.4189
此篇	-8.41944
史記	-8.42021
習	-8.42276
豫	-8.42284
人心	-8.42317
交	-8.42363
宫	-8.42608
危	-8.42646
述	-8.42756
乂	-8.42776
面	-8.42838
其事	-8.43258
尚書	-8.43357
左右	-8.43399
助	-8.43963
略	-8.43989
辰	-8.44137
東北	-8.44428
退	-8.44828
氏曰	-8.44858
足以	-8.45149
豐	-8.45185
龜	-8.45257
一人	-8.45281
感	-8.45637
况	-8.45685
工	-8.45729
孟子	-8.46119
里	-8.46175
以此	-8.46265
省	-8.46655
出於	-8.46875
卒	-8.46973
允	-8.46988
專	-8.47079
嗣	-8.47204
塞	-8.47359
者以	-8.47485
協	-8.47535
附	-8.47626
小人	-8.47948
業	-8.4817
巳	-8.48244
久	-8.48274
叛	-8.48534
達	-8.48764
淫	-8.4918
尹	-8.49225
待	-8.49281
顧	-8.49312
髙宗	-8.4955
大夫	-8.49721
古人	-8.49819
羣臣	-8.4986
何以	-8.49877
勸	-8.50027
孝	-8.50086
并	-8.50787
嘉	-8.50814
具	-8.50852
病	-8.50881
漸	-8.50889
辨	-8.51216
之官	-8.51221
察	-8.51237
被	-8.51241
故以	-8.51478
東南	-8.5154
離	-8.5171
貴	-8.51834
吕氏曰	-8.51897
智	-8.51943
而言	-8.52076
啓	-8.52195
兹	-8.52253
接	-8.52338
還	-8.52381
循	-8.52393
室	-8.52545
百官	-8.52684
真	-8.53069
下文	-8.53204
左傳	-8.5327
審	-8.53359
勢	-8.53445
懐	-8.53519
歟	-8.53531
日月	-8.53565
青	-8.53695
升	-8.5381
不及	-8.542
務	-8.54214
未嘗	-8.54251
忠	-8.5443
言其	-8.55067
註	-8.5509
湖	-8.55125
西北	-8.555
慮	-8.55704
丕	-8.55837
忽	-8.5591
不足	-8.55914
龍	-8.56292
隨	-8.56357
幾	-8.56389
授	-8.56392
之書	-8.56635
荆	-8.56724
集	-8.56727
欲其	-8.5673
唐孔氏曰	-8.56737
荒	-8.57122
九州	-8.57425
崇	-8.5747
迪	-8.5769
號	-8.57762
之名	-8.58021
曲	-8.58202
郊	-8.58309
窮	-8.5841
之類	-8.58548
微子	-8.58738
錫	-8.58766
半	-8.59105
靈	-8.59452
不可以	-8.59475
十二	-8.59668
示	-8.59848
配	-8.59981
運	-8.60319
耶	-8.60327
富	-8.60436
再	-8.60536
期	-8.60554
錯	-8.60654
雍	-8.60774
集傳	-8.61123
欽	-8.61141
獄	-8.6134
縱	-8.61824
移	-8.6184
谷	-8.61986
肅	-8.6202
爵	-8.62099
也此	-8.62652
成湯	-8.6273
孔氏曰	-8.62958
洪範	-8.6314
受命	-8.63214
證	-8.6334
之所以	-8.63723
四岳	-8.6375
患	-8.64255
戎	-8.643
兆	-8.64337
楚	-8.64447
之臣	-8.64542
五事	-8.64695
秋	-8.6525
卿	-8.65314
叔	-8.65583
渠	-8.65703
以爲	-8.65706
人主	-8.65797
𤼵	-8.659
治水	-8.65902
仲	-8.65975
呼	-8.66055
聚	-8.66127
得其	-8.66182
然則	-8.66402
故言	-8.66534
孔氏	-8.66548
也然	-8.66695
而為	-8.66752
鄉	-8.66767
御	-8.66849
可見	-8.66872
其地	-8.6692
至此	-8.66986
景	-8.66996
族	-8.67001
鯀	-8.67092
每	-8.67227
句	-8.67259
一篇	-8.67308
識	-8.67334
渭	-8.67366
虚	-8.67384
不可不	-8.67422
上文	-8.6753
剛	-8.67545
闕	-8.67548
之下	-8.67587
戰	-8.67593
農	-8.67662
莫不	-8.68053
華	-8.68188
之命	-8.68415
太保	-8.68521
會	-8.68552
恒	-8.68746
恤	-8.6889
其徳	-8.68906
𤣥	-8.68931
不復	-8.6896
者亦	-8.69017
賞	-8.69032
包	-8.69058
元年	-8.69172
朱	-8.69177
百姓	-8.69185
昏	-8.69327
役	-8.69383
朱子曰	-8.6947
徙	-8.69619
是以	-8.69655
畫	-8.69657
而下	-8.69774
妄	-8.70055
縣南	-8.7014
刻	-8.70332
儀	-8.7035
武庚	-8.7042
一日	-8.70457
魏	-8.70584
祗	-8.70801
不然	-8.70888
弟	-8.71136
甲	-8.71163
皇極	-8.71168
權	-8.71274
林	-8.71465
覆	-8.71741
社	-8.71782
宣	-8.7201
寒	-8.72124
蒙	-8.7213
子孫	-8.72192
周官	-8.7223
尺	-8.72234
柔	-8.72342
其言	-8.72533
千	-8.72533
垂	-8.7257
之外	-8.72585
如何	-8.7267
羣	-8.72799
黎	-8.72824
水出	-8.72938
崩	-8.73111
林氏曰	-8.73137
嗚呼	-8.73193
急	-8.73213
昌	-8.73272
革	-8.73314
知其	-8.73485
之說	-8.7369
惠	-8.73865
徃	-8.74019
為一	-8.74052
也夫	-8.74078
懼	-8.74229
衡	-8.74261
延	-8.74283
哲	-8.74319
强	-8.74325
周之	-8.74606
播	-8.74701
謨	-8.74728
父母	-8.74889
即位	-8.74969
冀州	-8.75116
端	-8.75149
胡	-8.75174
将	-8.75234
悉	-8.75238
可知	-8.75425
乗	-8.75622
味	-8.75822
皆是	-8.7589
偏	-8.75989
均	-8.76027
二年	-8.76087
高	-8.76189
可謂	-8.76202
今日	-8.76276
之民	-8.76456
康王	-8.76625
不必	-8.76757
皆有	-8.7679
否	-8.76879
茍	-8.77137
洛邑	-8.77238
無有	-8.77262
占	-8.77364
扵	-8.77423
君陳	-8.77429
亦有	-8.77938
射	-8.77962
資	-8.78558
連	-8.78768
條	-8.79049
圭	-8.79217
距	-8.79286
未有	-8.79291
女	-8.79383
入河	-8.79494
貨	-8.79545
采	-8.79625
先王之	-8.79701
友	-8.79709
傷	-8.79729
宿	-8.79758
質	-8.79839
藏	-8.80026
冬	-8.80085
彭蠡	-8.80121
浮	-8.80207
也言	-8.80314
懋	-8.8033
種	-8.80364
卑	-8.80451
九江	-8.80599
以見	-8.80766
三公	-8.8077
犯	-8.80883
殷民	-8.80885
細	-8.80912
皆以	-8.80994
艱	-8.8107
山川	-8.81245
朱子	-8.81275
之故	-8.81304
禹之	-8.81305
才	-8.81535
禍	-8.81569
丘	-8.81798
災	-8.81875
拜	-8.81879
衣	-8.81898
管	-8.81904
參	-8.81944
其君	-8.82082
夀	-8.82095
只是	-8.82496
劉	-8.82563
暴	-8.8265
蔡傳	-8.8271
撫	-8.82881
雜	-8.82912
陸	-8.83511
其意	-8.83513
孟	-8.83535
羽	-8.83666
伏生	-8.8384
草	-8.83843
旅	-8.83866
底	-8.84218
立政	-8.84281
諫	-8.84401
衞	-8.84421
在今	-8.84468
弱	-8.84468
舜典	-8.8451
四海	-8.84629
散	-8.84886
堯典	-8.84952
縣北	-8.84958
泰誓	-8.8498
則有	-8.85208
貌	-8.8529
況	-8.85368
大臣	-8.85382
自然	-8.85468
見其	-8.85482
以其	-8.85622
亦不	-8.85692
之文	-8.85703
驗	-8.85752
用之	-8.8588
愈	-8.85918
不以	-8.85944
讓	-8.85981
中國	-8.86296
堯舜	-8.86353
舍	-8.86367
在位	-8.8639
奏	-8.86444
賜	-8.86525
治之	-8.86797
穆王	-8.86804
則其	-8.86848
於天	-8.87052
愚	-8.87342
議	-8.87356
懷	-8.87372
赦	-8.87389
如是	-8.87389
眀	-8.87519
乘	-8.87577
賔	-8.87608
姓	-8.87631
水經	-8.87661
溢	-8.87736
怒	-8.87746
蔽	-8.87906
録	-8.87937
荆州	-8.88204
之君	-8.88391
䘮	-8.88567
蔡氏	-8.88592
百里	-8.88598
司徒	-8.88628
純	-8.88698
二字	-8.88749
于此	-8.88804
来	-8.89129
之水	-8.89132
兖	-8.89215
殷之	-8.8922
碣石	-8.89232
召	-8.89301
不過	-8.89302
報	-8.89359
坐	-8.8949
竹	-8.89503
漢志	-8.8995
祭祀	-8.90123
徴	-8.9036
聰明	-8.90434
許	-8.90438
手	-8.90821
稽	-8.90861
聴	-8.91049
怠	-8.91082
結	-8.91279
咎	-8.91334
爾雅	-8.91496
攻	-8.915
卿士	-8.91544
遜	-8.91596
穀	-8.9193
苦	-8.91985
潛	-8.92025
麗	-8.92358
轉	-8.92381
關	-8.927
横	-8.92746
息	-8.92764
而又	-8.92995
疇	-8.93001
登	-8.93015
禁	-8.93113
所當	-8.93147
敵	-8.9322
古者	-8.93226
法度	-8.93239
壽	-8.93249
纂註	-8.93374
式	-8.93507
堂	-8.93551
救	-8.93738
之際	-8.93779
歲	-8.94262
殊	-8.94272
忘	-8.94327
三十	-8.94392
某	-8.94513
舜之	-8.94593
却	-8.94721
湯之	-8.94889
雲	-8.94958
持	-8.94959
築	-8.95179
余	-8.95253
其功	-8.95269
王命	-8.95376
小民	-8.95425
擇	-8.95494
鬼神	-8.95508
岳	-8.9554
篤	-8.95571
故云	-8.95682
薄	-8.95727
之職	-8.95871
俾	-8.95969
王者	-8.96019
大抵	-8.96097
夜	-8.96311
幽	-8.96425
弼	-8.96569
恃	-8.96618
舞	-8.96721
抑	-8.96755
其實	-8.9682
各有	-8.96933
王之	-8.96952
惑	-8.96965
山在	-8.97088
于是	-8.97106
下民	-8.97159
魚	-8.9716
六卿	-8.97342
之數	-8.97445
飾	-8.97488
揚州	-8.97531
之使	-8.97559
之謂	-8.97588
未必	-8.97811
井	-8.98
折	-8.98263
孤	-8.98351
故謂之	-8.98358
五刑	-8.98464
無逸	-8.9847
慶	-8.9856
而有	-8.98821
矣故	-8.98838
襄	-8.98884
先儒	-8.98965
鳥	-8.99064
祥	-8.99154
在於	-8.99351
泉	-8.99358
伏	-8.99407
見於	-8.99671
趨	-8.99676
母	-8.99749
徳之	-8.99761
衰	-8.99813
避	-8.99815
喜	-8.99949
季	-9.00077
文王之	-9.0028
音義	-9.00476
經文	-9.00581
之禮	-9.00723
吕	-9.00744
周公之	-9.00812
營	-9.0084
陳氏曰	-9.00934
于天	-9.0102
成功	-9.01211
皮	-9.01221
奄	-9.01225
偽	-9.0159
壤	-9.01638
赤	-9.01675
二十	-9.01837
契	-9.02088
則為	-9.02132
鎮	-9.02395
也蓋	-9.02449
羲和	-9.02491
迎	-9.02588
三江	-9.02695
討	-9.03025
攸	-9.031
卦	-9.03187
廸	-9.03353
天道	-9.03388
博	-9.03569
卜筮	-9.03584
旁	-9.03592
民心	-9.03654
也傳	-9.03667
命之	-9.03719
堯之	-9.03723
五服	-9.03745
者非	-9.03772
古之	-9.03845
王氏	-9.03873
逹	-9.03904
吳	-9.04201
約	-9.04213
注云	-9.04442
例	-9.04497
貫	-9.04516
其後	-9.04536
瀆	-9.04656
矣然	-9.04669
桑	-9.04778
五百里	-9.04819
所言	-9.04907
津	-9.04981
太康	-9.0499
之於	-9.05148
寳	-9.05253
遠	-9.05329
牛	-9.05365
雖有	-9.0538
李	-9.05519
遇	-9.05623
充	-9.0564
縣西	-9.05696
闗	-9.05751
鑿	-9.05837
者則	-9.05885
武王之	-9.059
猷	-9.06002
三月	-9.06127
愼	-9.06148
之政	-9.06246
胥	-9.06438
洪水	-9.06495
也今	-9.06532
之罪	-9.0658
雍州	-9.06704
後人	-9.06743
悔	-9.06843
誰	-9.06866
毛	-9.06879
背	-9.0688
孔傳	-9.06937
舟	-9.06983
知之	-9.07011
烈	-9.0712
於民	-9.07133
鼓	-9.07274
不明	-9.07416
如此則	-9.07445
四時	-9.07505
寅	-9.07527
也惟	-9.07533
賊	-9.07724
先後	-9.0781
其所以	-9.07972
萬邦	-9.08003
艱難	-9.08239
葛	-9.08244
司空	-9.08286
又有	-9.08417
材	-9.0861
寶	-9.08637
燕	-9.08696
蘇	-9.08718
誕	-9.08722
野	-9.08868
呉	-9.08927
汶	-9.09175
學者	-9.09175
請	-9.09401
事也	-9.09538
司馬	-9.0974
甘	-9.09792
者蓋	-9.09812
脩	-9.0984
也若	-9.09882
為善	-9.09917
孰	-9.10023
之初	-9.10059
所以為	-9.10082
千里	-9.10178
沙	-9.10297
又云	-9.1038
㣲	-9.10398
顧命	-9.10406
九河	-9.1078
速	-9.10865
繫	-9.10959
南北	-9.11192
之内	-9.11203
不善	-9.11237
黒	-9.11447
淮夷	-9.11618
辛	-9.11685
其民	-9.11717
沔	-9.11774
介	-9.12023
衍	-9.12039
短	-9.12284
干	-9.12468
寜	-9.12612
假	-9.12642
收	-9.12651
侮	-9.12909
故也	-9.13021
乾	-9.13033
其身	-9.13051
小子	-9.13093
哀	-9.13155
階	-9.13165
俊	-9.13193
黒水	-9.13263
君之	-9.13374
蘇氏曰	-9.13397
王室	-9.13429
泗	-9.13464
國之	-9.13468
昬	-9.1354
五年	-9.13613
答	-9.13664
明徳	-9.138
斯民	-9.14011
旦	-9.14091
安得	-9.14186
墨	-9.14259
不相	-9.14303
榖	-9.1441
茲	-9.14435
負	-9.14574
庶民	-9.14651
歳	-9.14694
祝	-9.14723
行之	-9.14818
此説	-9.14931
畢公	-9.14938
畧	-9.14996
供	-9.1504
多士	-9.15103
百工	-9.15165
追	-9.15202
江漢	-9.15237
震	-9.15283
泰	-9.15297
喻	-9.15367
下流	-9.1546
房	-9.15491
萬物	-9.15567
無窮	-9.15631
不當	-9.15685
積石	-9.15747
仰	-9.15799
其間	-9.15919
不與	-9.16014
考之	-9.16092
漢水	-9.16164
析	-9.16248
維	-9.16251
五十	-9.16283
寡	-9.16322
正月	-9.16346
古今	-9.16395
不用	-9.16592
兄	-9.16628
乆	-9.16632
矣此	-9.16642
不應	-9.16766
者謂	-9.16787
愆	-9.16851
側	-9.16871
謙	-9.16884
攝	-9.16895
太史	-9.16964
其義	-9.16982
所出	-9.17033
穆	-9.17147
失其	-9.17268
史官	-9.17285
秉	-9.17348
聖人之	-9.17355
此心	-9.17415
嶺	-9.17577
濟水	-9.1759
咨	-9.17682
大陸	-9.17695
相與	-9.17715
宗廟	-9.1773
又按	-9.17748
温	-9.17797
安國	-9.1781
之上	-9.17818
决	-9.17824
紂之	-9.17863
墜	-9.18013
禾	-9.1814
有罪	-9.18169
成周	-9.1818
姑	-9.18213
者必	-9.18236
黨	-9.18258
之屬	-9.18717
角	-9.18746
彰	-9.18773
稷	-9.18786
綏	-9.18817
其罪	-9.18827
姦	-9.18932
東西	-9.18994
僕	-9.19002
然而	-9.19063
蔡氏曰	-9.19124
賓	-9.19187
夢	-9.19219
翼	-9.19291
周書	-9.19407
受之	-9.19491
求之	-9.195
豈有	-9.19553
飲	-9.19615
其中	-9.19844
商之	-9.19908
奪	-9.19968
佐	-9.2001
囚	-9.2002
縣東	-9.20155
小大	-9.20184
河南	-9.20208
無垢曰	-9.20255
效	-9.20315
機	-9.20351
了	-9.20369
漢書	-9.20424
之前	-9.20501
險	-9.20625
反覆	-9.21104
幣	-9.21106
觀之	-9.21156
尾	-9.21165
于民	-9.2123
纂疏	-9.2166
矜	-9.21759
之本	-9.21818
詔	-9.21841
其説	-9.21857
頑	-9.21906
戒之	-9.21963
候	-9.21976
貞	-9.22025
趙	-9.22087
不敬	-9.22122
唐虞	-9.22164
之序	-9.22239
九州之	-9.22284
龍門	-9.22301
夫子	-9.22338
豈不	-9.22349
亦惟	-9.22356
量	-9.22366
庶幾	-9.22372
十三	-9.2243
財	-9.22449
仍	-9.22589
張氏曰	-9.22684
有夏	-9.22791
三篇	-9.22832
戮	-9.22902
之國	-9.2301
藝	-9.23099
取其	-9.23253
有此	-9.23324
此章	-9.23389
梁州	-9.23438
政事	-9.2355
之南	-9.23578
之事也	-9.23601
逕	-9.23727
多方	-9.23886
御事	-9.2389
陽縣	-9.23972
桓	-9.24029
啟	-9.24134
之大	-9.24149
不在	-9.24175
之位	-9.24175
迹	-9.24196
武成	-9.24209
天子之	-9.24327
蜀	-9.24597
入于	-9.24744
玩	-9.24889
人事	-9.25045
徵	-9.25075
慢	-9.25134
雅	-9.25148
上天	-9.25162
防	-9.25277
𢎞	-9.25291
羿	-9.25318
席	-9.25352
鄭氏	-9.25427
耕	-9.25444
慕	-9.25478
戾	-9.25484
出于	-9.25634
以來	-9.25866
三代	-9.25989
試	-9.26008
有天下	-9.26097
沈	-9.26157
無非	-9.26255
十二月	-9.26283
有功	-9.26289
或曰	-9.26425
曉	-9.26589
免	-9.26664
覺	-9.26997
高宗	-9.27014
二水	-9.27208
萬世	-9.27265
輕重	-9.27305
領	-9.27306
冠	-9.27489
稍	-9.27532
洛誥	-9.27552
不見	-9.27555
宥	-9.27596
罔不	-9.2771
四年	-9.2788
之意也	-9.28093
帝曰	-9.28129
撰	-9.28199
又東逕	-9.28211
輅	-9.28214
閏	-9.28474
續	-9.28525
迷	-9.28537
欽定四庫全書	-9.28581
庭	-9.286
擊	-9.28838
七年	-9.28891
歎	-9.28934
溝	-9.29115
康誥	-9.29182
得之	-9.29204
甫	-9.29204
有以	-9.29317
大誥	-9.29502
佑	-9.29557
一名	-9.29583
治民	-9.29583
傅	-9.29615
冝	-9.29635
徧	-9.29786
割	-9.29808
補	-9.29973
狂	-9.30145
忍	-9.30282
限	-9.30292
又東	-9.30444
今文	-9.30525
之德	-9.30576
伊	-9.30596
専	-9.30689
陳氏大猷曰	-9.30753
諸侯之	-9.30911
刑罰	-9.30948
竒	-9.31009
支	-9.31148
唯	-9.31186
頭	-9.31219
丁	-9.31247
以告	-9.3126
有司	-9.31272
可畏	-9.31301
教之	-9.31316
陰	-9.31322
之語	-9.31426
耿	-9.31631
恩	-9.31757
冢宰	-9.3177
之實	-9.31962
倫	-9.32063
綱	-9.32148
弱水	-9.32164
明矣	-9.32225
別	-9.32284
嚮	-9.32406
新邑	-9.32598
緩	-9.32648
傳云	-9.32672
國家	-9.32752
虎	-9.32776
之世	-9.32817
兄弟	-9.3286
杜	-9.33017
怪	-9.33029
夾	-9.33104
王曰	-9.33147
遊	-9.33163
者盖	-9.33225
熟	-9.33239
草木	-9.33284
韓	-9.33287
陟	-9.33349
奠	-9.33368
秩	-9.33444
於人	-9.33586
㫖	-9.33658
浸	-9.33685
看	-9.33756
賢者	-9.3383
洪	-9.33856
人臣	-9.33944
岷山	-9.34039
縣西南	-9.34079
暨	-9.34098
縣東北	-9.34133
不足以	-9.34213
獸	-9.34227
不易	-9.34299
滿	-9.34439
為君	-9.34444
偶	-9.3453
朝廷	-9.34534
不為	-9.34675
道也	-9.34721
黜	-9.34772
之情	-9.34795
濬	-9.35008
境	-9.35057
其文	-9.35514
而非	-9.35552
以上	-9.35694
矢	-9.35712
天理	-9.35862
伯夷	-9.35873
竊	-9.35904
不忍	-9.35906
乎此	-9.35927
斂	-9.35957
逐	-9.35958
庻	-9.36015
所載	-9.36038
故其	-9.36173
則曰	-9.36265
地名	-9.36308
音釋經	-9.36342
屈	-9.36382
準	-9.36389
鮮	-9.36403
増	-9.36404
大小	-9.36472
兖州	-9.36563
用刑	-9.3657
寸	-9.36703
倚	-9.3677
空	-9.36846
入江	-9.36986
青州	-9.37241
遽	-9.37248
集說	-9.37269
之責	-9.37284
萬民	-9.3729
荆山	-9.37437
逾	-9.37443
此書	-9.37637
自有	-9.37653
閒	-9.377
當以	-9.37852
五福	-9.37972
亦曰	-9.37998
困	-9.38044
貝	-9.38066
鼎	-9.38083
到	-9.38263
績	-9.38352
則必	-9.38377
三苗	-9.38423
紹	-9.3843
規	-9.38469
警	-9.38489
二月	-9.38514
京師	-9.38633
淵	-9.38633
蘇氏	-9.38676
之西	-9.38694
截	-9.3881
之北	-9.38958
聰	-9.38988
調	-9.39013
者為	-9.39026
不從	-9.39032
蠻	-9.39124
厲	-9.39204
予一人	-9.39277
丗	-9.39293
第	-9.39599
忌	-9.39637
也盖	-9.39673
損	-9.39743
不如	-9.39854
其道	-9.3987
之制	-9.39954
岐	-9.39956
盈	-9.39963
曷	-9.39993
賤	-9.40136
河水	-9.40211
及其	-9.40285
從而	-9.40352
也自	-9.40428
可知矣	-9.40482
豈非	-9.40518
蕩	-9.40523
水之	-9.40607
人情	-9.40609
蹈	-9.4061
贖	-9.40763
其職	-9.4101
而能	-9.41028
知人	-9.41043
淺	-9.41106
為主	-9.41135
冕	-9.41163
磬	-9.41168
所行	-9.4117
在上	-9.41234
之變	-9.41313
亦無	-9.41357
彊	-9.41362
帥	-9.41378
缺	-9.41385
皆在	-9.41402
甸	-9.41445
是為	-9.41563
涇	-9.41583
吏	-9.41588
於上	-9.41596
稼穡	-9.41626
十六	-9.4175
履	-9.41757
商民	-9.41805
王氏曰	-9.41838
孔安國	-9.41872
符	-9.41907
屢	-9.41965
法也	-9.41973
禄	-9.41976
孚	-9.41976
部	-9.42074
遷都	-9.42111
者惟	-9.42196
此則	-9.42216
吉凶	-9.42317
三監	-9.42324
釐	-9.42345
隋	-9.42415
隂陽	-9.42454
愚謂	-9.42488
東流	-9.42513
豫州	-9.42647
三百	-9.42694
正直	-9.42783
冒	-9.42787
基	-9.42801
擾	-9.42802
洛書	-9.42893
賴	-9.42976
遵	-9.43017
則民	-9.43073
於天下	-9.43098
不通	-9.43135
刑之	-9.43177
猶有	-9.4321
辯	-9.43357
傅説	-9.43366
禮記	-9.43451
因其	-9.4348
則知	-9.43489
惟其	-9.43511
一句	-9.43551
史臣	-9.43587
入於	-9.43601
豈可	-9.43634
者言	-9.43715
巧	-9.43793
之道也	-9.4398
則不	-9.44074
絲	-9.44206
渡	-9.44208
不肯	-9.44254
共工	-9.44293
晦	-9.44305
之東	-9.4433
詩曰	-9.44512
較	-9.44579
其餘	-9.44661
子曰	-9.44685
可也	-9.44776
其能	-9.44836
文武之	-9.44894
躬	-9.44922
君牙	-9.44925
盤	-9.44932
費	-9.44958
集説	-9.44965
西土	-9.45031
東方	-9.4505
使人	-9.45057
天地之	-9.45194
索	-9.45195
内外	-9.45198
四國	-9.45198
此說	-9.45416
武帝	-9.45651
九疇	-9.45989
黄帝	-9.46002
者有	-9.46008
平王	-9.46025
緫	-9.46054
安民	-9.46082
鳥獸	-9.46211
五紀	-9.4625
徐州	-9.46308
則又	-9.46329
召誥	-9.46335
在此	-9.46357
縣西北	-9.46375
獲	-9.46387
此所以	-9.46393
自此	-9.464
不忘	-9.46566
漆	-9.46583
甲子	-9.46598
為天子	-9.46618
侵	-9.46642
枝	-9.46664
静	-9.46675
曾	-9.46735
言我	-9.46749
當在	-9.46757
論語	-9.46767
殆	-9.46849
𩔖	-9.46928
殘	-9.47124
善惡	-9.47145
冊	-9.47184
單	-9.47247
遲	-9.47283
託	-9.47286
而不知	-9.47306
其人	-9.47337
其德	-9.47482
這	-9.47536
相去	-9.4764
汴	-9.47644
十三年	-9.4768
管蔡	-9.47743
勇	-9.4792
墳	-9.48166
域	-9.48178
有二	-9.48215
彝	-9.48227
滎	-9.48323
不得不	-9.48378
其可	-9.48468
隆	-9.48529
黑	-9.48545
奔	-9.48563
所在	-9.48608
謬	-9.48775
鄭𤣥	-9.4882
一也	-9.48823
伯禽	-9.48837
之日	-9.4903
鳴	-9.49166
緯	-9.49208
尸	-9.49372
勑	-9.49649
聖賢	-9.49694
一曰	-9.49733
一月	-9.49766
没	-9.49828
貳	-9.49847
斗	-9.49966
嗣王	-9.50011
導之	-9.50034
未知	-9.50084
地志	-9.50201
人所	-9.50213
正義	-9.50367
震澤	-9.50493
逸豫	-9.5051
之極	-9.50516
之辭也	-9.50525
贊	-9.50533
十五	-9.50612
孟津	-9.50684
京	-9.50758
以成	-9.50783
益稷	-9.50829
便是	-9.50879
池	-9.50904
委	-9.50905
不盡	-9.50961
在下	-9.51081
第一	-9.51099
固有	-9.51106
隱	-9.51169
周家	-9.51206
不順	-9.51325
南方	-9.51364
在天	-9.51365
齒	-9.51377
亦以	-9.5144
箋	-9.51477
書序	-9.51534
縁	-9.51598
寵	-9.51621
后稷	-9.51631
毋	-9.51814
測	-9.51847
九年	-9.51908
羞	-9.51977
江水	-9.52049
悦	-9.52059
用人	-9.52132
此又	-9.52135
沂	-9.52151
得以	-9.52173
倍	-9.52235
講	-9.52266
累	-9.52267
痛	-9.52299
終始	-9.52308
二人	-9.52308
靜	-9.52427
何也	-9.52728
一事	-9.52732
妻	-9.52759
一時	-9.52784
禪	-9.52856
昧	-9.52873
踐	-9.52931
也又	-9.52931
燠	-9.52957
傲	-9.5313
之患	-9.5314
而不可	-9.53143
強	-9.53158
男	-9.53167
者乎	-9.53196
丈	-9.53208
厎	-9.53324
烏	-9.53325
薦	-9.53361
沮	-9.53442
皇天	-9.5357
鄭云	-9.53765
仲虺	-9.53795
三百里	-9.53943
二公	-9.53973
箕	-9.54072
事之	-9.54102
亦是	-9.54206
文祖	-9.54297
邦國	-9.54328
鄰	-9.54377
東征	-9.54422
之性	-9.54426
儒	-9.54472
洞庭	-9.54629
王若曰	-9.54695
而不能	-9.547
爭	-9.54718
祠	-9.54887
崑崙	-9.5492
篚	-9.54948
泥	-9.55148
頑民	-9.55209
之謂也	-9.55211
自古	-9.55315
傳曰	-9.5533
為惡	-9.55356
訖	-9.55368
丹	-9.55374
一心	-9.55405
爽	-9.55414
百揆	-9.55415
苗	-9.55417
㒺	-9.5544
仲康	-9.555
幼	-9.55553
徑	-9.55592
臣民	-9.55674
亦非	-9.55684
地理志	-9.55684
不服	-9.5569
堅	-9.55715
桐	-9.55826
不合	-9.55866
合於	-9.55868
詢	-9.55877
東至	-9.55895
陳氏	-9.56095
岸	-9.56255
所云	-9.56507
振	-9.56542
筮	-9.56618
社稷	-9.5662
以至	-9.56675
天意	-9.56687
一身	-9.56699
治天下	-9.56729
禮樂	-9.56745
懲	-9.56778
六年	-9.56832
八政	-9.56883
沃	-9.56989
厭	-9.56995
素	-9.57028
逺近	-9.5704
驕	-9.57045
其國	-9.57069
襲	-9.57251
根	-9.57327
自是	-9.57338
伐紂	-9.57362
其辭	-9.57412
大江	-9.5744
暇	-9.57458
壇	-9.57492
三危	-9.57494
七十	-9.57536
非一	-9.57591
臺	-9.57867
夔	-9.57889
煩	-9.57918
壺口	-9.5797
壊	-9.5797
陶	-9.57991
羌	-9.58134
無一	-9.58189
故道	-9.58205
㑹于	-9.58276
亦可	-9.58304
蔡叔	-9.58342
殺之	-9.58392
之用	-9.58395
之勢	-9.58401
之體	-9.58539
明德	-9.58574
狹	-9.58637
陂	-9.58642
密	-9.58649
知所	-9.58675
是時	-9.58743
亭	-9.58825
道心	-9.58858
大命	-9.58861
肯	-9.58892
諸儒	-9.58969
不待	-9.58969
裕	-9.59192
牲	-9.59303
即今	-9.59402
三徳	-9.59415
甸服	-9.59458
漳	-9.59488
之物	-9.59611
悟	-9.5962
有常	-9.59661
愚按	-9.59676
如字	-9.59712
耳目	-9.59716
編	-9.59859
其性	-9.59937
繹	-9.60055
荅	-9.60058
僭	-9.60066
沱	-9.60099
傳言	-9.60099
父子	-9.60215
有徳	-9.60221
之處	-9.60222
環	-9.60234
之子	-9.60245
步	-9.60301
虞書	-9.60399
弓	-9.60462
㡬	-9.60529
之要	-9.60597
也然則	-9.6061
帝都	-9.60696
有一	-9.60714
三宅	-9.60721
潤	-9.60782
黄河	-9.60833
即此	-9.60961
毎	-9.60989
舉其	-9.60992
之主	-9.6101
縣東南	-9.61054
河北	-9.6118
派	-9.61203
而言之	-9.61218
不容	-9.61282
所經	-9.61394
使民	-9.61402
三王	-9.61409
蒲	-9.61482
宗周	-9.61568
以後	-9.61619
臣下	-9.61687
毒	-9.6176
其為	-9.61804
然也	-9.6182
風俗	-9.61924
王肅	-9.61976
其說	-9.61987
竄	-9.61989
誘	-9.62026
隠	-9.62029
歸于	-9.62094
我民	-9.6214
狄	-9.622
繁	-9.62224
毖	-9.62308
我之	-9.62329
以正	-9.62407
卽	-9.6242
而已矣	-9.62485
瑞	-9.62573
之刑	-9.62595
金縢	-9.62713
照	-9.62729
不至	-9.62751
殖	-9.6297
征伐	-9.63026
者不	-9.63064
流沙	-9.63076
之士	-9.63104
縣界	-9.63164
不暇	-9.63255
憲	-9.63357
榮	-9.63467
市	-9.63468
讎	-9.63471
無以	-9.63551
括	-9.63632
箇	-9.63692
上言	-9.63901
戴	-9.6394
殺人	-9.63992
曠	-9.64004
辜	-9.64007
先言	-9.64025
其本	-9.64044
夏書	-9.64084
君奭	-9.64104
又以	-9.64118
次第	-9.64171
則無	-9.64201
以明	-9.6432
雷	-9.64393
鐵	-9.64393
消	-9.64475
㣲子	-9.64478
告之	-9.64545
之訓	-9.6459
西傾	-9.6463
係	-9.6464
鹽	-9.64671
錄	-9.64672
詞	-9.64676
之難	-9.64712
屏	-9.64712
入于海	-9.65036
之美	-9.65198
隄	-9.65212
舎	-9.65215
天威	-9.6533
彞	-9.65464
敏	-9.65484
壁	-9.65507
帝堯	-9.65592
大河	-9.65615
四月	-9.6568
一徳	-9.65772
之氣	-9.65946
之山	-9.65983
衡山	-9.66098
黑水	-9.6622
有餘	-9.66307
無事	-9.66379
由是	-9.66383
毁	-9.66476
一度	-9.66507
曽	-9.66574
而復	-9.66626
故能	-9.66645
校	-9.6669
做	-9.66756
賛	-9.6678
人皆	-9.66804
大事	-9.66853
與天	-9.66881
頌	-9.66895
人者	-9.66931
流言	-9.66944
無所不	-9.67164
徳者	-9.67188
斥	-9.67225
縣有	-9.67243
既言	-9.67252
卿大夫	-9.6726
韻	-9.67265
邦君	-9.67283
太子	-9.67378
嗟	-9.67484
裳	-9.67491
此州	-9.67643
故稱	-9.67645
落	-9.67694
究	-9.6775
破	-9.67755
教化	-9.67761
僅	-9.67772
的	-9.67794
而天下	-9.67813
止於	-9.67843
比干	-9.67843
不知其	-9.67905
殄	-9.67915
猶言	-9.67985
歩	-9.68009
徽	-9.68025
輸	-9.68057
頗	-9.68281
日新	-9.68352
左氏	-9.68393
葬	-9.6851
蕃	-9.68516
此一節書是	-9.68523
而行	-9.68538
沒	-9.68547
唐孔氏	-9.68581
事而	-9.68626
四十	-9.68668
粟	-9.68801
前人	-9.68884
鄙	-9.68969
二者	-9.69
壞	-9.69053
慰	-9.69071
姦宄	-9.69084
漆沮	-9.691
欽哉	-9.69109
太原	-9.69258
好惡	-9.69259
祇	-9.69272
矣而	-9.69273
提	-9.69319
無常	-9.69339
觀其	-9.69346
不欲	-9.6938
苗民	-9.69483
而不敢	-9.69539
互	-9.69542
黙	-9.69604
者葢	-9.69636
亦當	-9.69811
衆人	-9.69826
傳正義曰	-9.69866
侈	-9.69875
聼	-9.69904
十一	-9.69912
竟	-9.70077
阿	-9.70108
預	-9.7012
必以	-9.7012
夭	-9.70121
成王之	-9.70222
為民	-9.70237
東郊	-9.70279
利害	-9.70311
諧	-9.70501
失之	-9.70594
染	-9.70597
大禹	-9.7062
雉	-9.7062
儉	-9.70637
何所	-9.70699
濁	-9.70714
盡其	-9.70726
無疑	-9.70799
十四	-9.7084
泛	-9.70872
者所以	-9.70883
肇	-9.70892
佞	-9.70939
欺	-9.70943
皐陶	-9.70956
此皆	-9.71018
天人	-9.71121
有大	-9.71148
城縣	-9.71151
題	-9.71153
故知	-9.71159
逃	-9.71187
此意	-9.71242
邇	-9.71333
三十里	-9.71338
而立	-9.71408
範	-9.71443
予小子	-9.71475
四夷	-9.71577
兆民	-9.7161
享國	-9.71644
而成	-9.71651
其名	-9.71684
書傳	-9.71692
嫌	-9.71709
同心	-9.71763
十一年	-9.71806
可不	-9.71878
育	-9.71934
璧	-9.7194
貪	-9.71998
宻	-9.72218
涉	-9.72231
觧	-9.72268
言曰	-9.7227
清河	-9.72272
六十	-9.72276
去聲	-9.72289
新安陳氏曰	-9.72508
其一	-9.7251
庶邦	-9.72542
付	-9.72554
羣后	-9.72566
無敢	-9.72587
扶	-9.72649
或問	-9.72723
疆	-9.72758
化之	-9.72826
王畿	-9.72836
遏	-9.7297
不安	-9.73022
熙	-9.73026
禋	-9.73029
其勢	-9.73113
踰	-9.73273
舒	-9.73342
其上	-9.73345
之長	-9.73388
祖乙	-9.73421
非是	-9.73423
帝王	-9.73454
丹朱	-9.73551
孔子曰	-9.73559
、	-9.73563
廬	-9.73649
想	-9.73688
即是	-9.7379
五十里	-9.73842
併	-9.7386
拜手稽首	-9.7387
出入	-9.73918
盧	-9.73991
選	-9.74013
亮	-9.7411
若是	-9.74112
之失	-9.74186
歸之	-9.74188
水經注	-9.74219
洛水	-9.74367
隔	-9.74381
而歸	-9.74383
漕	-9.74401
拘	-9.74438
西伯	-9.74454
猶未	-9.7446
治也	-9.74605
嶓冢	-9.74607
人也	-9.7462
又言	-9.74668
繩	-9.7467
私意	-9.7475
宗伯	-9.74786
夏之	-9.74836
以示	-9.74917
溺	-9.74979
太公	-9.74998
祖父	-9.75031
推之	-9.75071
汭	-9.75102
以前	-9.7522
山東	-9.75239
此理	-9.75245
願	-9.75274
緒	-9.75278
汝當	-9.75291
同姓	-9.75331
帝舜	-9.75458
吕刑	-9.75494
程	-9.75548
取之	-9.75568
彛	-9.75581
皆可	-9.75608
也周公	-9.75617
徳也	-9.75869
之任	-9.75982
十二年	-9.76043
十九	-9.76078
而行之	-9.76219
其有	-9.76285
洲	-9.76303
曹	-9.7633
倡	-9.76402
其終	-9.76434
幸	-9.7649
婦	-9.76522
非有	-9.76602
使其	-9.76651
不若	-9.76659
珠	-9.76666
樹	-9.76686
五者	-9.76703
諸家	-9.76755
屋	-9.76801
於下	-9.7687
龜筮	-9.76947
迫	-9.76948
十里	-9.76955
訪	-9.76961
此所謂	-9.77036
三分	-9.77114
灌	-9.7717
得人	-9.7718
淪	-9.77202
南流	-9.77203
凖	-9.77229
賢人	-9.77256
祖考	-9.77408
嶽	-9.77437
為天下	-9.77464
澧	-9.7752
該	-9.77539
菏	-9.77592
之效	-9.77651
心之	-9.77769
銅	-9.77888
三事	-9.77944
壬	-9.77965
增	-9.78082
鎬京	-9.78163
者如此	-9.78201
邊	-9.78338
之正	-9.78341
渾	-9.7838
入渭	-9.78507
作書	-9.78573
非特	-9.78625
泰山	-9.78634
而用之	-9.78663
早	-9.78673
管叔	-9.78676
天降	-9.78684
之始	-9.78698
不行	-9.78705
者乃	-9.78755
五典	-9.78806
孟子曰	-9.78839
雲夢	-9.78874
賈	-9.78921
禹治水	-9.78941
我周	-9.78962
之志	-9.79029
書曰	-9.79038
之論	-9.79106
巡	-9.7917
几	-9.79258
天之命	-9.79314
于上	-9.79343
遂以	-9.79392
隅	-9.79436
夏商	-9.79444
一節	-9.79481
弊	-9.79548
在我	-9.79667
創	-9.79788
二百	-9.79861
恐其	-9.79866
惟時	-9.79904
畿	-9.79979
義理	-9.79996
以治	-9.80008
鳥鼠	-9.80061
詩云	-9.80084
十七	-9.80107
其子	-9.80119
此亦	-9.80124
祖宗	-9.80133
悖	-9.8014
殛	-9.80203
塗	-9.80206
酉	-9.80317
也葢	-9.80381
惜	-9.80408
亦猶	-9.80468
酈道元	-9.80659
之謀	-9.80728
職方	-9.80742
惇	-9.80862
齋	-9.80869
水患	-9.80885
未詳	-9.80888
范	-9.80946
輯	-9.80979
山海經	-9.8098
畎	-9.80993
楊	-9.81087
大禹謨	-9.81114
道之	-9.81116
辱	-9.81266
之衆	-9.81283
班固	-9.81301
文字	-9.81322
漯	-9.81334
典禮	-9.8147
天心	-9.8155
跨	-9.81556
鄭康成	-9.81574
致其	-9.81646
而得	-9.81658
稱王	-9.81714
波	-9.81721
未能	-9.81791
堯舜之	-9.81863
奮	-9.81887
鐘	-9.81948
至是	-9.82001
言天	-9.82043
始終	-9.8207
慈	-9.82207
百年	-9.82321
敬徳	-9.82432
戊午	-9.82433
武丁	-9.82457
嵎夷	-9.82503
於王	-9.82503
溪	-9.82623
歸於	-9.82648
與夫	-9.82686
𦙍	-9.82716
弔	-9.8276
操	-9.82799
伊訓	-9.82852
西河	-9.82985
潔	-9.83025
二百里	-9.83152
不成	-9.83167
圗	-9.83325
侍	-9.83326
河東	-9.83366
之次	-9.83378
睦	-9.83387
睿	-9.83404
泗水	-9.83411
愧	-9.83456
罪人	-9.83474
傅說	-9.83523
告汝	-9.83525
以自	-9.83585
茂	-9.83635
勤勞	-9.83642
禦	-9.83678
無罪	-9.83876
伐之	-9.83899
滋	-9.83945
穿	-9.83961
紛	-9.83963
匡	-9.8398
西方	-9.83981
措	-9.84016
或有	-9.84082
為大	-9.84093
其位	-9.84132
丑	-9.84133
神明	-9.84161
殯	-9.84241
遭	-9.84278
蠻夷	-9.84291
則當	-9.84324
導山	-9.84351
䇿	-9.84361
第二	-9.84418
含	-9.84589
為正	-9.84624
安能	-9.84654
術	-9.84698
敷淺原	-9.84757
整	-9.84805
匯	-9.8484
訛	-9.8487
邱	-9.84874
生於	-9.84893
用也	-9.84931
也王	-9.84933
鄭𤣥云	-9.85103
不失	-9.85109
畜	-9.85183
不常	-9.85184
焚	-9.8521
今按	-9.85282
冬至	-9.85306
治亂	-9.85351
太平	-9.85425
不惟	-9.85434
茅	-9.85479
君道	-9.85527
二曰	-9.85567
視聽	-9.85568
博士	-9.85635
而作	-9.85648
之分	-9.85652
嘆	-9.85711
平地	-9.85781
文考	-9.85789
此事	-9.85817
陳氏經曰	-9.8583
而南	-9.85856
也如	-9.85956
故城	-9.85986
靡	-9.86018
新安	-9.86022
漢孔氏	-9.86067
其命	-9.86093
其時	-9.8622
志云	-9.86233
祖甲	-9.86281
徳而	-9.86343
八年	-9.86383
䟽	-9.86398
竝	-9.864
優	-9.86468
不恭	-9.86495
蔡仲	-9.86569
重言	-9.86581
臧	-9.86654
土地	-9.86675
九族	-9.86687
矧	-9.867
淮泗	-9.86712
晝	-9.86717
林氏之竒曰	-9.86726
山也	-9.86791
譽	-9.86794
非常	-9.86823
明年	-9.86832
小臣	-9.86948
郭	-9.86963
亥	-9.86973
未可	-9.87024
道理	-9.87039
三人	-9.87093
班	-9.8711
臣之	-9.87227
由此	-9.87271
裔	-9.87289
逮	-9.87319
孔疏	-9.87512
攝位	-9.87516
今王	-9.87518
若曰	-9.87528
其情	-9.87535
臯	-9.87539
俞	-9.87636
國語	-9.87694
無他	-9.87707
賁	-9.87708
於我	-9.87744
中星	-9.87745
也又曰	-9.87859
上篇	-9.87945
莊	-9.87965
則可以	-9.87991
商家	-9.88016
暴虐	-9.8806
!	-9.88075
國名	-9.88105
江南	-9.88197
祈	-9.88292
命汝	-9.88314
恥	-9.8832
耄	-9.88339
王城	-9.884
林氏	-9.88508
滙	-9.88518
張掖	-9.88545
所作	-9.88684
為二	-9.88702
今我	-9.88762
滎澤	-9.88819
曰我	-9.88847
午	-9.88879
諭	-9.88885
柱	-9.88898
者以其	-9.88925
跡	-9.88925
烝	-9.8894
馨香	-9.88958
徇	-9.88972
也既	-9.88986
天之所	-9.88994
尊卑	-9.89125
當然	-9.89159
改過	-9.89166
不出	-9.89258
竭	-9.89294
豫章	-9.89308
厯數	-9.89396
罔有	-9.89398
二州	-9.89419
者即	-9.89441
五行之	-9.89456
又東北	-9.89619
華山	-9.89635
俟	-9.89826
是非	-9.89836
阻	-9.899
北流	-9.89902
田賦	-9.90002
太戊	-9.90097
亦未	-9.90098
所居	-9.9016
天時	-9.90246
善者	-9.90291
者是	-9.90295
卜之	-9.90414
冢	-9.90527
奚	-9.90531
奔走	-9.90571
四方之	-9.90649
之治	-9.90672
七十里	-9.90682
非謂	-9.90697
岱	-9.9077
必先	-9.90811
安危	-9.90817
𫝑	-9.90839
仇	-9.90839
弁	-9.90844
工夫	-9.90877
歴年	-9.90878
惟恐	-9.9092
禱	-9.90929
大伾	-9.90938
之行	-9.90939
言之則	-9.91064
黃	-9.91108
冇	-9.91137
長短	-9.91244
匹	-9.91269
巡守	-9.91272
前日	-9.91331
巴	-9.91338
霍	-9.91363
書之	-9.91372
一嵗	-9.91422
克艱	-9.9145
征之	-9.91468
鳳	-9.91492
葉	-9.91504
師保	-9.91543
羙	-9.91546
諱	-9.91582
周公以	-9.91609
可見矣	-9.91636
一百	-9.91652
告以	-9.91699
賞罰	-9.9177
蒼	-9.91822
元子	-9.91856
勲	-9.91893
予惟	-9.91902
三日	-9.91928
矣夫	-9.91949
之利	-9.91961
恒山	-9.91975
若此	-9.91976
費誓	-9.91984
也周禮	-9.91988
畝	-9.92177
於外	-9.92254
陵縣	-9.92313
之徒	-9.92323
五帝	-9.92382
説文	-9.92494
三者	-9.92578
棐	-9.92581
畿内	-9.92598
于王	-9.9265
而民	-9.92656
庚	-9.92661
可以為	-9.92738
河圖	-9.92749
入淮	-9.92812
在于	-9.92829
激	-9.92847
臭	-9.92852
濫	-9.92885
中正	-9.92924
以道	-9.92975
首尾	-9.93056
五日	-9.93073
不可以不	-9.93073
游	-9.93137
熊耳	-9.93165
宮	-9.93177
有德	-9.93186
王莽	-9.93371
篇首	-9.93393
廣大	-9.93413
帛	-9.93475
是謂	-9.9351
惟天	-9.93515
闢	-9.93524
釋文	-9.93526
不改	-9.93551
元和志	-9.93616
之業	-9.93727
夏氏曰	-9.93744
合黎	-9.93745
鈞	-9.93784
董	-9.9379
酒誥	-9.93803
乎天	-9.9383
侯服	-9.93832
回	-9.93837
随	-9.93841
乖	-9.93846
蓄	-9.93875
乎其	-9.93937
而東	-9.94027
左傳云	-9.94072
誅之	-9.94148
渉	-9.94154
不已	-9.9417
東南流	-9.94197
當作	-9.94204
湯誓	-9.94231
獒	-9.94245
見于	-9.94328
以致	-9.94328
攷	-9.94329
祖伊	-9.94343
二篇	-9.94356
萌	-9.94547
減	-9.94562
者此	-9.94575
至誠	-9.94602
巫	-9.94787
日月星辰	-9.9486
河之	-9.949
為政	-9.94911
商書	-9.94995
不克	-9.95044
此乃	-9.95094
其生	-9.95178
此其	-9.95203
未盡	-9.95215
誓師	-9.9523
大學	-9.95318
記曰	-9.95336
乙	-9.95495
饗	-9.95502
霸	-9.95516
争	-9.95533
露	-9.95555
亦云	-9.95594
此二	-9.95622
名也	-9.95624
衷	-9.95628
典常	-9.95679
鍾	-9.95708
逸樂	-9.95787
稽疑	-9.95788
常人	-9.95799
德之	-9.95806
桐柏	-9.95816
亦如	-9.9583
台	-9.9586
本於	-9.95928
欲使	-9.95967
十八	-9.96001
不自	-9.96049
𨽻	-9.96091
為治	-9.96158
順之	-9.96189
虎賁	-9.96199
沿	-9.962
人君之	-9.96209
闇	-9.96226
之年	-9.96235
以待	-9.96262
中有	-9.96264
而猶	-9.96266
品	-9.96419
羲	-9.9646
古人之	-9.96469
徂	-9.96511
乃有	-9.96536
太師	-9.96598
帝位	-9.96603
貽	-9.96618
;	-9.96619
之大者	-9.96853
休美	-9.96891
不特	-9.96917
股肱	-9.96935
斧	-9.96944
湯武	-9.96956
六日	-9.97044
河自	-9.97087
亦然	-9.9709
可知也	-9.97099
盛徳	-9.97171
織	-9.97172
十年	-9.97241
朋	-9.97244
束	-9.97263
因以	-9.97272
徳則	-9.97274
功成	-9.97298
皆為	-9.973
有三	-9.97324
藪	-9.97459
輔相	-9.97462
笙	-9.97507
抵	-9.9758
此經	-9.97653
所引	-9.97754
無間	-9.97829
有不	-9.97832
養民	-9.97851
庶人	-9.97892
削	-9.97919
必不	-9.97926
云云	-9.97946
貢賦	-9.97976
虛	-9.97999
地理	-9.9804
河内	-9.9807
大别	-9.98102
不正	-9.98103
皆不	-9.98131
悔過	-9.98145
之常	-9.98155
熊	-9.98161
安定	-9.98189
人之所	-9.98204
靖	-9.98237
豬	-9.98242
垣	-9.98277
洽	-9.98309
確	-9.98316
忱	-9.98321
㓜	-9.98357
顓頊	-9.98377
次序	-9.98411
始於	-9.9844
庶徴	-9.98459
民不	-9.98493
也禹	-9.98635
星辰	-9.98672
善也	-9.98803
梁山	-9.98816
未至	-9.98874
鄭玄云	-9.98916
雄	-9.98978
户	-9.98982
咈	-9.98991
熈	-9.99019
堪	-9.99025
歛	-9.99025
植	-9.99038
驅	-9.99051
是故	-9.99073
二十八	-9.99075
産	-9.99124
飲酒	-9.99163
際	-9.99252
知此	-9.99252
所為	-9.99321
隴	-9.99321
則非	-9.99357
之私	-9.99364
鄭氏曰	-9.99367
者當	-9.99371
宏	-9.99374
誣	-9.99391
者如	-9.99463
能用	-9.99478
老成	-9.99497
互相	-9.99531
賚	-9.99673
壅	-9.99681
朝夕	-9.99757
于下	-9.99771
此時	-9.99849
漢儒	-9.99905
然其	-9.99912
饒	-9.99972
閉	-10.0008
彌	-10.0008
𦙍侯	-10.0019
聦明	-10.0022
彭	-10.0024
已有	-10.0027
之言也	-10.0031
九十	-10.0031
常道	-10.0037
前後	-10.004
障	-10.0041
之末	-10.0044
頒	-10.005
州府	-10.0054
鄭玄	-10.0063
四人	-10.0067
脉	-10.0072
所見	-10.0074
嶓冡	-10.0077
投	-10.008
暘	-10.0082
受其	-10.0083
濮	-10.0086
相應	-10.0089
汾	-10.0095
無道	-10.0097
之禍	-10.0108
絳	-10.0111
故又	-10.0112
梓材	-10.0113
髙下	-10.0115
甘盤	-10.0123
牧誓	-10.013
尋	-10.0133
求其	-10.0141
銀	-10.0144
矣又	-10.0148
北方	-10.0148
之域	-10.0149
恱	-10.015
柄	-10.015
日之	-10.0159
之詩	-10.0159
非天	-10.0161
也吕氏曰	-10.0161
其臣	-10.0162
者又	-10.0172
非也	-10.0178
者矣	-10.0185
我一人	-10.0186
其大	-10.0187
民皆	-10.0192
羊	-10.0193
本末	-10.0194
吁	-10.0198
在外	-10.0208
所以能	-10.0214
雖不	-10.0214
之稱	-10.0216
物之	-10.022
佚	-10.0221
拒	-10.0223
眞	-10.0224
不止	-10.0224
替	-10.0225
匪	-10.0226
以求	-10.0227
徹	-10.0229
者何	-10.0233
十有二	-10.0234
久矣	-10.0245
順天	-10.0252
而為之	-10.0252
雒	-10.0254
縣地	-10.0261
周公既	-10.0262
黼	-10.0263
顛	-10.0264
不能自	-10.0281
夏至	-10.0293
歐陽	-10.0296
其理	-10.0297
檢	-10.0297
之盛	-10.0298
皆然	-10.03
王曰嗚呼	-10.0312
行事	-10.0318
五色	-10.0321
者是也	-10.0325
讒	-10.0328
曰予	-10.0328
百篇	-10.0329
册	-10.0331
攘	-10.0331
東萊	-10.0333
給	-10.0333
斁	-10.0336
旬	-10.0336
孺子	-10.0338
人欲	-10.0362
脈	-10.0363
皆言	-10.0365
一言	-10.0367
又謂	-10.0371
我所	-10.0384
漾	-10.0385
有苗	-10.0386
穆公	-10.0389
分明	-10.0395
所用	-10.0401
麓	-10.0401
下云	-10.0402
制度	-10.0405
裁	-10.041
輯録	-10.0411
日行	-10.0428
豈能	-10.0429
無復	-10.043
刺	-10.0434
巢	-10.0435
于天下	-10.0436
水火	-10.0437
昵	-10.0444
米	-10.0447
中庸	-10.0447
。」	-10.0453
滎陽	-10.0455
一二	-10.0461
覲	-10.0466
在西	-10.0472
誨	-10.0472
及於	-10.0474
巨	-10.0476
焉則	-10.0481
滛	-10.0482
此等	-10.0482
璣	-10.0482
顔	-10.0493
一旦	-10.0494
説者	-10.0504
之異	-10.0507
于洛	-10.0508
所能	-10.0509
受天命	-10.0509
菏澤	-10.0511
䝉	-10.0515
䕫	-10.0515
鹿	-10.0518
恵	-10.0521
贄	-10.0521
行而	-10.0523
籍	-10.0539
稽古	-10.0545
僖	-10.0553
淳	-10.0554
故周公	-10.0558
爰	-10.0558
斬	-10.0558
筆	-10.0561
騐	-10.0566
何如	-10.057
疏云	-10.0575
太行	-10.0581
四凶	-10.0584
圻	-10.0585
欲以	-10.0586
己之	-10.0591
枯	-10.0596
憚	-10.0599
松	-10.0607
名篇	-10.0612
譬	-10.0614
王制	-10.0614
既已	-10.0616
之差	-10.0617
百餘里	-10.0625
修身	-10.0627
蚩尤	-10.0629
乃以	-10.0634
孔氏穎達曰	-10.0634
天命之	-10.0646
其不	-10.065
二十四	-10.0652
畀	-10.0652
萬事	-10.0653
配天	-10.0657
揆	-10.0658
水名	-10.0658
勉之	-10.0659
入于河	-10.0661
精神	-10.0666
有道	-10.0667
說文	-10.0667
孽	-10.0667
馭	-10.0672
諄諄	-10.0676
宰	-10.0676
萬方	-10.068
以安	-10.0687
八卦	-10.0687
賢臣	-10.069
分為	-10.0691
二十里	-10.0693
杜預	-10.0694
合流	-10.0696
所聞	-10.0702
送	-10.0704
路寢	-10.0708
常法	-10.0712
未嘗不	-10.0713
商人	-10.0717
黎民	-10.0718
邦之	-10.0719
其始	-10.0723
與此	-10.0729
六極	-10.0731
天下之大	-10.0732
傾	-10.0736
羅	-10.0739
浮于	-10.0742
渭按	-10.0743
衝	-10.0745
灼	-10.0745
亦皆	-10.0748
在人	-10.0748
堰	-10.0751
之服	-10.0753
馬融	-10.0757
無可	-10.0759
明明	-10.076
而使	-10.076
阜	-10.0761
又何	-10.0762
而終	-10.0763
未見	-10.0766
號令	-10.0769
三千	-10.0775
乃能	-10.0776
告戒	-10.0779
至矣	-10.078
汨	-10.0781
黍	-10.0781
王朝	-10.0781
弦	-10.0781
褒	-10.0782
縮	-10.0782
戈	-10.0782
洞	-10.0787
招	-10.0787
用此	-10.0788
岡	-10.0789
廵守	-10.079
古文尚書	-10.0793
不畏	-10.0805
五月	-10.0806
穴	-10.0806
之餘	-10.0809
所得	-10.0813
十一月	-10.0819
以徳	-10.0821
亞	-10.0821
繡	-10.0825
玄	-10.0831
真氏曰	-10.0831
鰥寡	-10.0835
山西	-10.0835
也凡	-10.0837
五百	-10.0842
五禮	-10.0846
旋	-10.0846
儆	-10.0853
漳水	-10.0857
以敬	-10.086
之教	-10.086
倒	-10.086
之害	-10.0861
成王既	-10.0862
于先王	-10.0865
其下	-10.0867
生民	-10.0868
禍福	-10.0875
故先	-10.0879
之戒	-10.088
不遷	-10.0888
理也	-10.0889
西漢	-10.0894
正人	-10.0895
藉	-10.0898
矯	-10.09
司冦	-10.09
戰國	-10.0901
亦不可	-10.0902
勅	-10.0903
公卿	-10.0903
弛	-10.0904
恊	-10.0904
絺	-10.0905
重意	-10.0907
可疑	-10.0915
司寇	-10.0918
有過	-10.0923
王家	-10.0933
應之	-10.0933
輿	-10.0934
纎	-10.0934
當從	-10.0936
濕	-10.0938
圍	-10.0938
之妙	-10.0939
之境	-10.0939
導水	-10.094
捨	-10.094
晋	-10.0944
渭水	-10.0945
從之	-10.0951
遣	-10.0955
事者	-10.0959
厥德	-10.0962
天所	-10.0965
而不言	-10.0971
生魄	-10.0978
以生	-10.0979
而致	-10.0987
受終	-10.0994
東北流	-10.0996
戒其	-10.0997
下同	-10.1003
月之	-10.1004
詰	-10.1019
倉	-10.1021
惰	-10.1022
思之	-10.1022
孜孜	-10.1026
妙	-10.1027
狎侮	-10.1031
三卿	-10.1032
其志	-10.1032
則天下	-10.1033
禹時	-10.1034
天位	-10.1039
之善	-10.1041
之義也	-10.1041
恭敬	-10.1045
人有	-10.1046
後漢	-10.1051
理之	-10.1059
得罪	-10.106
將以	-10.106
帝乙	-10.1063
凝	-10.1064
松江	-10.1071
湯誥	-10.1078
相似	-10.108
纂	-10.1091
誦	-10.1097
斜	-10.1097
不義	-10.1098
也舜	-10.1101
則亦	-10.1109
世家	-10.1109
正朔	-10.1111
三苖	-10.1114
無過	-10.1127
小人之	-10.1129
可考	-10.113
而未	-10.1135
瞽	-10.1137
音釋	-10.1137
主於	-10.1138
疎	-10.1139
閭	-10.1139
讐	-10.1144
南河	-10.1154
河源	-10.1154
之深	-10.1157
明白	-10.1157
則可	-10.1163
也按	-10.1165
脱	-10.1173
之賢	-10.1175
遼	-10.1175
多矣	-10.1176
稼	-10.1177
敬德	-10.1185
威儀	-10.1197
見之	-10.1204
如是則	-10.1206
為心	-10.1209
之所在	-10.1211
貎	-10.1214
先生	-10.1214
虢	-10.1217
冲	-10.1221
矣今	-10.1235
月令	-10.1253
之子孫	-10.1253
忒	-10.1255
所掌	-10.1257
技	-10.1258
厥徳	-10.1259
名曰	-10.1262
寓	-10.1262
王道	-10.1264
三叔	-10.1266
大法	-10.1278
而北	-10.1278
北至	-10.1285
縣今	-10.1286
之計	-10.1291
順其	-10.1292
乃命	-10.1298
能使	-10.1298
二十七	-10.1298
人以	-10.1299
陳氏櫟曰	-10.13
蔡𫝊	-10.1305
此下	-10.1307
他人	-10.1309
蓋以	-10.1313
基業	-10.1318
訟	-10.1322
陷	-10.1323
脊	-10.1334
畢命	-10.1335
南至	-10.1336
所受	-10.1337
敦	-10.1337
諌	-10.1339
栗	-10.1339
之詞	-10.1347
本紀	-10.135
自取	-10.1357
萬國	-10.1361
民之所	-10.1371
山名	-10.1373
遼東	-10.1374
長安	-10.1378
五子之歌	-10.1378
在東	-10.1384
規模	-10.1385
四十里	-10.1386
扶風	-10.1386
狀	-10.1388
掩	-10.1392
中道	-10.1392
任之	-10.1398
仁人	-10.1403
風雨	-10.1409
我惟	-10.1409
雖欲	-10.1416
道者	-10.1418
劓	-10.1421
干戈	-10.1424
迂	-10.1425
纁	-10.1428
侯甸	-10.1431
呂	-10.1439
渡河	-10.1442
曲直	-10.1443
縣也	-10.1444
山之	-10.1444
州之	-10.1449
善政	-10.1451
之惡	-10.1452
鎬	-10.1453
三曰	-10.1454
敬則	-10.1456
不聞	-10.146
炎	-10.1465
昴	-10.1468
之力	-10.1479
大野	-10.1481
五聲	-10.1488
浦	-10.1491
之師	-10.1491
申言	-10.15
蔡傳曰	-10.1502
墊	-10.1503
故為	-10.1509
要之	-10.1511
未有不	-10.1522
周召	-10.1522
故特	-10.1525
經言	-10.1526
人而	-10.1535
多寡	-10.154
也且	-10.1541
恕	-10.1551
王肅云	-10.1557
所陳	-10.156
即所謂	-10.156
慙	-10.1564
根本	-10.1565
魄	-10.1568
臯陶之	-10.1569
萊	-10.1573
也故曰	-10.1574
薛	-10.1575
卯	-10.1578
能敬	-10.158
礪	-10.1584
乃心	-10.1585
考工記	-10.1586
脫	-10.1588
於周	-10.1589
王業	-10.159
既有	-10.159
藥	-10.1591
有扈	-10.1593
文公	-10.1596
臯陶謨	-10.1601
于周	-10.1601
旱	-10.1602
合為一	-10.1604
牛馬	-10.1606
臣名	-10.1613
馳	-10.1616
公之	-10.1618
潜	-10.1622
苖	-10.1626
圓	-10.1627
聖人之心	-10.1631
忿	-10.1631
說命	-10.1631
過也	-10.1632
畔	-10.1634
懌	-10.1635
九徳	-10.1637
之樂	-10.1642
其書	-10.1644
之學	-10.1645
不肖	-10.1645
亦必	-10.165
走	-10.1656
不幸	-10.1659
殷命	-10.1663
惟王	-10.167
漫	-10.1671
懸	-10.1672
摇	-10.1672
之象	-10.1672
遯	-10.1673
鹹	-10.1675
一書	-10.1685
甚矣	-10.1685
以身	-10.169
漢中	-10.1692
第三	-10.1693
而知	-10.1695
髙祖	-10.1695
合于	-10.1696
坤	-10.1697
用兵	-10.17
祼	-10.1701
不聽	-10.1701
牢	-10.1704
洛汭	-10.1709
而遂	-10.1715
於君	-10.1727
史氏	-10.1734
我先王	-10.1737
以謂	-10.1739
天下之民	-10.1741
牽	-10.1746
婁	-10.1751
能盡	-10.1751
世之	-10.1753
織皮	-10.1753
若夫	-10.1757
當有	-10.1759
泯	-10.1761
𤾉	-10.1761
蠶	-10.1761
堯時	-10.1768
服事	-10.1774
東海	-10.1776
而入	-10.178
之首	-10.178
或以	-10.1781
偃	-10.179
不可得而	-10.1794
也成王	-10.1795
従	-10.1797
匱	-10.1798
馬云	-10.1798
惡之	-10.18
冡宰	-10.1801
澄	-10.1804
惟爾	-10.1804
皆非	-10.1809
有位	-10.1811
史記作	-10.1813
言語	-10.1818
注于	-10.182
然後可以	-10.1826
進退	-10.1836
鉞	-10.1837
耆	-10.1841
詐	-10.1843
以相	-10.1847
無疆	-10.1852
二十五	-10.1857
施功	-10.1859
任人	-10.1861
浮言	-10.1867
異於	-10.1871
行也	-10.1874
者猶	-10.1878
而上	-10.1878
泲	-10.1882
纔	-10.1886
無異	-10.1891
有事	-10.1891
法之	-10.1922
營洛	-10.1922
幹	-10.1924
戕	-10.1926
為九	-10.1926
王氏樵曰	-10.1927
戚	-10.1931
頼	-10.1932
惟有	-10.1932
改元	-10.1933
洛陽	-10.1939
皆得	-10.1943
各得其	-10.1943
逺矣	-10.1949
物也	-10.1955
當是	-10.1957
隷	-10.1964
道則	-10.1966
借	-10.197
六府	-10.1972
禀	-10.1975
墓	-10.1975
故不	-10.1976
典獄	-10.1976
初無	-10.1981
以和	-10.1985
禹貢之	-10.1987
攝政	-10.1988
其善	-10.1992
本無	-10.1999
八百	-10.2
從其	-10.2
又東北逕	-10.2003
庶殷	-10.2003
饑	-10.2004
彤	-10.2007
番	-10.2008
混	-10.2009
盟	-10.2012
段	-10.2014
修徳	-10.2014
綿	-10.2015
怙	-10.2018
釋詁文	-10.2021
不違	-10.2025
人為	-10.2027
相傳	-10.2031
記云	-10.2031
敬畏	-10.2032
其官	-10.2032
奉天	-10.204
東入	-10.2041
區	-10.2045
成湯之	-10.205
軌	-10.2055
貧	-10.2057
三德	-10.2057
此即	-10.2065
命也	-10.2074
岐山	-10.2075
大水	-10.2077
有九	-10.2081
自謂	-10.2087
率循	-10.2092
毫	-10.2092
周人	-10.2095
地志在	-10.2099
南海	-10.2099
伍	-10.2101
純一	-10.2101
嗜	-10.2103
廹	-10.2104
虧	-10.2105
有能	-10.2113
聞之	-10.2127
陪尾	-10.2132
属	-10.214
日食	-10.214
峻	-10.2143
夷狄	-10.215
也古者	-10.2154
之過	-10.2155
其難	-10.2158
第十	-10.2159
易曰	-10.2159
或謂	-10.2162
方且	-10.2178
五人	-10.2186
本漢	-10.2187
援	-10.219
昭明	-10.2198
秦漢	-10.2199
敬也	-10.2207
湘	-10.2211
通典	-10.2212
二句	-10.2214
沂水	-10.2215
陜	-10.2216
之𩔖	-10.2224
要服	-10.2232
帝曰俞	-10.2234
勸勉	-10.2237
所宜	-10.2238
大國	-10.2241
於心	-10.2245
不怠	-10.2246
十五里	-10.2255
心之所	-10.2259
蕭	-10.2279
無辜	-10.2283
甘誓	-10.2288
堯舜禹	-10.229
之心也	-10.2295
罰之	-10.2296
命者	-10.2297
太史公	-10.2301
惟當	-10.2304
四曰	-10.2319
則不可	-10.2321
逆河	-10.2322
所稱	-10.2322
以西	-10.2332
二三	-10.2332
皆當	-10.2334
可得而	-10.2336
所有	-10.2337
禮也	-10.2338
發源	-10.2347
寇	-10.2351
保其	-10.2354
而巳	-10.2358
黄鐘	-10.2358
程氏	-10.2359
所治	-10.2359
後王	-10.2361
之身	-10.2364
韋昭	-10.2365
懿	-10.2365
桀紂	-10.2367
有辭	-10.237
一體	-10.2373
所及	-10.2373
夲	-10.2374
伐商	-10.2377
孔𫝊	-10.2378
何為	-10.2381
萬里	-10.2385
成也	-10.2389
異姓	-10.2398
必當	-10.24
為名	-10.2404
黄道	-10.241
以刑	-10.2411
刋	-10.2413
此是	-10.2419
在内	-10.2425
太宗	-10.2426
:「	-10.2431
隴西	-10.244
十月	-10.2441
一語	-10.2446
此四	-10.2446
王氏炎曰	-10.2459
寄	-10.2462
皆謂	-10.2468
又當	-10.2469
桀之	-10.2471
信之	-10.2472
言之也	-10.2472
秦誓	-10.2477
月行	-10.2481
望之	-10.2482
大功	-10.2486
君徳	-10.2487
極其	-10.2489
先正	-10.2489
居攝	-10.2493
我小子	-10.2494
建極	-10.2494
公曰	-10.2495
普	-10.2498
韋	-10.2498
次之	-10.2499
勵	-10.2503
沱潛	-10.2503
沉	-10.2505
六十里	-10.2508
九疇之	-10.2509
穆穆	-10.251
西戎	-10.2512
謂我	-10.2518
六師	-10.2519
謂此	-10.2525
念之	-10.2534
克商	-10.254
以北	-10.2541
僚	-10.2542
廵	-10.2548
渤海	-10.2549
此蓋	-10.2551
自以為	-10.2552
䕶	-10.2553
相為	-10.2556
也林氏曰	-10.256
明也	-10.2564
忠厚	-10.2565
猶可	-10.2568
曰惟	-10.2574
則能	-10.2574
何其	-10.2582
北江	-10.2584
其山	-10.2587
荒服	-10.2589
不勝	-10.2593
衆士	-10.2595
城北	-10.2597
劉歆	-10.2598
治道	-10.26
殷人	-10.2602
其數	-10.2605
喪亡	-10.2605
庶徵	-10.2609
國君	-10.2613
相通	-10.2614
分别	-10.2617
謂其	-10.262
南江	-10.2624
於前	-10.2625
逺而	-10.2627
帝王之	-10.2632
剛柔	-10.2639
即政	-10.264
話	-10.2641
故城在今	-10.2642
源出	-10.2643
吕氏	-10.2646
視之	-10.2647
在其中	-10.265
民者	-10.2654
太湖	-10.2657
以事	-10.2657
流入	-10.2658
不廢	-10.2661
江淮	-10.2664
澗	-10.2669
感動	-10.2674
相對	-10.2677
斤	-10.2677
綴	-10.2684
為三	-10.2691
程子曰	-10.2691
倦	-10.2695
亶	-10.2697
不獨	-10.2728
鬯	-10.2729
故天	-10.2731
邢	-10.2734
犬	-10.2737
咸有一徳	-10.2738
帝之	-10.2755
也武王	-10.2756
太祖	-10.2757
東平	-10.2759
東漢	-10.2763
書者	-10.2764
為難	-10.2767
事則	-10.2771
詠	-10.2773
鴻	-10.2779
希	-10.2781
僻	-10.2781
文侯	-10.2785
不可得	-10.2792
其法	-10.2795
始也	-10.2796
萬年	-10.2798
哉此	-10.28
甚明	-10.2809
錢	-10.2823
則天	-10.2825
七月	-10.2825
鳯	-10.2827
穫	-10.2832
猛	-10.2832
展	-10.2833
九官	-10.2833
膺	-10.2835
我周家	-10.2835
皆云	-10.2838
伐桀	-10.2839
不信	-10.2839
其他	-10.2841
皇極之	-10.2844
何哉	-10.285
水道	-10.2859
五子	-10.2866
可乎	-10.2874
遷于	-10.2875
之重	-10.2876
簫	-10.2876
黍稷	-10.2876
瑁	-10.2877
策	-10.2879
如此故	-10.2879
衣服	-10.288
朏	-10.2882
民生	-10.2884
於其間	-10.2886
水自	-10.2886
滔天	-10.2889
之權	-10.2896
于酒	-10.2897
諸臣	-10.2907
揖	-10.2908
進戒	-10.2909
戊	-10.291
汝衆	-10.2921
帶	-10.2921
藻	-10.2922
辭也	-10.2924
而告之	-10.2927
胡氏	-10.2927
上流	-10.2928
不免	-10.2929
暗	-10.293
有殷	-10.293
黄鍾	-10.293
代之	-10.2943
下言	-10.2947
與汝	-10.2952
在後	-10.2952
時則有	-10.2953
者多	-10.2956
之别	-10.2957
諸水	-10.2957
亦謂之	-10.2961
鬼	-10.2962
峽	-10.2963
而謂之	-10.297
朔食	-10.2972
吴	-10.2975
之甚	-10.2977
有一毫	-10.2979
上生	-10.2982
所由	-10.2983
使我	-10.2983
此其所以	-10.2987
所欲	-10.2989
以東	-10.2999
山南	-10.3002
六月	-10.3006
一念	-10.301
達于	-10.3019
稱其	-10.302
笑	-10.302
橋	-10.3022
湏	-10.3023
各以其	-10.3024
醉	-10.3027
妖	-10.3028
惟汝	-10.3035
眷	-10.304
政教	-10.3045
不和	-10.3046
所生	-10.3046
若兹	-10.3049
者豈	-10.305
朔方	-10.305
前言	-10.3061
曰吾	-10.3062
乎曰	-10.3064
福極	-10.3065
水土	-10.3065
艾	-10.3069
採	-10.307
困窮	-10.3075
未敢	-10.3077
也或曰	-10.308
各以	-10.3086
皆無	-10.3101
尚有	-10.3101
歸周	-10.3109
于我	-10.3115
僣	-10.3116
曰王	-10.3116
隩	-10.3121
旅獒	-10.3126
潤下	-10.3129
文也	-10.3131
四瀆	-10.3131
伊陟	-10.3137
之本也	-10.3139
繼之	-10.3144
八十	-10.3148
童	-10.3154
見得	-10.3156
不得已	-10.3157
要荒	-10.3161
鉅鹿	-10.3164
君民	-10.3167
宇	-10.3169
暢	-10.3169
用其	-10.317
靣	-10.3172
八音	-10.3173
告于	-10.318
婦人	-10.321
滅亡	-10.3215
那	-10.3215
庶官	-10.3216
拳拳	-10.3218
殷家	-10.3218
之源	-10.3224
説命	-10.3224
曰此	-10.3226
詳見	-10.3226
獨言	-10.3228
合而	-10.3229
生生	-10.3231
所致	-10.3243
長也	-10.3244
剛克	-10.3248
而出	-10.3253
昆	-10.3254
而後可	-10.3257
巴陵	-10.326
敬之	-10.3261
窺	-10.3265
祚	-10.3268
庶㡬	-10.3268
鄭注	-10.3269
第六	-10.327
而言也	-10.3279
睢	-10.3281
變化	-10.3282
其政	-10.3285
必自	-10.329
禹曰	-10.3291
韶	-10.33
諸州	-10.3303
得其人	-10.3307
廷	-10.331
島夷	-10.3312
盜	-10.3314
祿	-10.3314
前代	-10.3314
蜀郡	-10.3315
暫	-10.3317
得天下	-10.3319
於時	-10.3319
綴衣	-10.3322
揔	-10.3324
東陵	-10.3339
亦謂	-10.3341
二女	-10.3344
乃是	-10.3347
鹵	-10.3361
於善	-10.3363
驚	-10.3365
踈	-10.3365
懇	-10.3367
閔	-10.337
五曰	-10.3381
武王既	-10.3385
治事	-10.3386
而止	-10.3401
所好	-10.341
飛	-10.3412
之野	-10.3415
英	-10.342
雖然	-10.3421
賢才	-10.3426
圻内	-10.3428
萬姓	-10.3429
孔氏謂	-10.3429
寧王	-10.3432
刑者	-10.3433
武功	-10.3435
宫室	-10.3436
其力	-10.344
弗克	-10.3448
地勢	-10.3451
磨	-10.3458
光明	-10.3458
姜	-10.3459
鉅野	-10.3459
洗	-10.3461
鄒	-10.3463
夏桀	-10.3465
枉	-10.3465
皆自	-10.3466
罸	-10.3472
髙明	-10.3476
是言	-10.3477
之應	-10.348
如今	-10.3486
地中	-10.3491
居之	-10.3493
腹	-10.3495
為害	-10.3498
也案	-10.3501
絡	-10.3504
安得不	-10.3508
秬鬯	-10.3509
一年	-10.3512
秀	-10.3512
明其	-10.3517
其在	-10.3522
有衆	-10.3522
曰嗚呼	-10.3527
厥篚	-10.3528
今人	-10.3528
之誤	-10.3535
大業	-10.3544
中宗	-10.3546
學之	-10.3552
之目	-10.3554
遷徙	-10.3555
屯	-10.3556
九等	-10.3556
安知	-10.3557
徒駭	-10.3558
嗣位	-10.3561
涯	-10.3561
大徳	-10.3562
守之	-10.3566
文侯之命	-10.3567
必欲	-10.3567
而實	-10.3567
氣象	-10.3567
地理志云	-10.3568
元首	-10.3569
好徳	-10.3569
畋	-10.3571
爾惟	-10.3582
惟一	-10.3582
為諸侯	-10.3584
以輔	-10.3584
不修	-10.359
之所為	-10.3597
脅	-10.36
然亦	-10.3602
戌	-10.3606
故我	-10.3609
冡	-10.3611
其行	-10.3612
亦何	-10.3613
施於	-10.3615
柔克	-10.3616
未及	-10.3617
王屋	-10.3618
毅	-10.3618
寕	-10.362
怠惰	-10.3621
夫人	-10.3623
之一字	-10.363
上古	-10.3633
反又	-10.364
瀍水	-10.364
是之謂	-10.3641
宣王	-10.3642
漢孔氏曰言	-10.3649
命禹	-10.365
淄	-10.3651
待之	-10.3652
不變	-10.3653
德者	-10.3653
禮義	-10.3654
肉	-10.3655
州牧	-10.3656
繒	-10.3664
下篇	-10.3665
不念	-10.3666
商王	-10.3666
平原	-10.3667
天以	-10.3667
寒暑	-10.3669
山林	-10.3669
十五年	-10.3669
惡者	-10.367
者正	-10.367
鑒	-10.3672
𫝊言	-10.3675
觀此	-10.3675
善則	-10.3686
災異	-10.3691
他州	-10.3692
寰宇記	-10.3693
中者	-10.3697
又東過	-10.37
大傳	-10.3703
能知	-10.3705
後言	-10.3707
三州	-10.3709
漢武帝	-10.371
以定	-10.3713
體也	-10.3715
拊	-10.3716
厎柱	-10.3718
于人	-10.3718
赴	-10.3719
之久	-10.3721
氐道	-10.3721
文勢	-10.3722
沮水	-10.373
幽州	-10.3733
一物	-10.3735
前人之	-10.3736
相近	-10.3737
兗	-10.3738
下至	-10.3742
中間	-10.375
天下之事	-10.3754
洮	-10.3758
識其	-10.3758
不率	-10.3758
雪	-10.3759
于海	-10.3762
而西	-10.3763
兮	-10.3766
酌	-10.3767
淤	-10.3769
莫非	-10.377
墟	-10.3771
為北江	-10.3773
方伯	-10.3781
中則	-10.3783
申命	-10.3787
尋陽	-10.3795
炎上	-10.3796
云者	-10.3803
經傳	-10.3804
渭汭	-10.3807
事神	-10.3807
侯伯	-10.3809
沖	-10.381
十六日	-10.3811
之閒	-10.3813
無益	-10.3816
命以	-10.3817
成就	-10.3817
至洛	-10.3818
鑄	-10.3818
誠信	-10.3818
於後	-10.382
中也	-10.3822
康王之誥	-10.3822
以供	-10.3822
墮	-10.3826
刑殺	-10.3827
非我	-10.3828
乃所以	-10.3828
汝之	-10.3829
蔡仲之命	-10.383
放勲	-10.383
吉士	-10.3832
記其	-10.3833
以通	-10.3835
變而	-10.3839
廬江	-10.3849
西域	-10.3854
于殷	-10.3856
之事而	-10.3856
庶士	-10.3869
狎	-10.3871
之不可	-10.3873
滌	-10.3873
船	-10.3873
奴	-10.3873
酗	-10.3875
疵	-10.3876
飬	-10.3879
之耳	-10.3879
祭天	-10.388
飭	-10.3883
爾多方	-10.3886
陜西	-10.3888
岳陽	-10.3891
為先	-10.3891
三載	-10.3899
造化	-10.39
凡人	-10.3902
或以為	-10.3907
千餘里	-10.3913
焉故	-10.3914
東行	-10.3916
無有不	-10.3918
驛	-10.3919
之可	-10.3923
無愧	-10.3924
撻	-10.3924
叢	-10.3925
自稱	-10.3928
官之長	-10.3929
寫	-10.3931
邁	-10.3932
一段	-10.3935
未聞	-10.3936
岷	-10.3938
不齊	-10.394
而求	-10.3945
而使之	-10.3945
明哲	-10.3946
大川	-10.3951
來朝	-10.3953
不可曉	-10.3954
則自	-10.3955
文王武王	-10.3956
之舊	-10.3956
丙	-10.3956
以行	-10.3958
我聞	-10.3962
中篇	-10.3963
豈得	-10.3971
今爾	-10.3971
服行	-10.3972
□	-10.3972
惟是	-10.3972
愛民	-10.3973
定其	-10.3974
歷	-10.3975
内史	-10.3977
自為	-10.3978
官也	-10.398
文義	-10.398
厥辟	-10.3981
瘳	-10.3982
麻	-10.3982
各自	-10.3984
莫如	-10.3994
后土	-10.3995
一字	-10.4
以此為	-10.4001
儀禮	-10.4006
為臣	-10.4013
其父	-10.4018
有五	-10.4018
五千里	-10.4019
臯陶曰	-10.4022
北境	-10.4023
球	-10.4025
先后	-10.4025
不可復	-10.4029
庚戌	-10.403
而來	-10.4031
成徳	-10.4032
爻	-10.4033
察之	-10.4034
往往	-10.4034
經營	-10.4034
為己	-10.4036
沛	-10.4037
恪	-10.4037
鳴條	-10.4038
吾之	-10.4041
貢道	-10.4043
爾乃	-10.4043
何也曰	-10.4044
圯	-10.4044
為重	-10.4051
始有	-10.4056
相距	-10.4057
殊不知	-10.4059
平聲	-10.4062
第九	-10.4065
去之	-10.4066
此非	-10.4069
上有	-10.4074
坎	-10.4075
十有	-10.4082
而無所	-10.4087
既成	-10.4088
和也	-10.4092
晝夜	-10.4092
𦙍征	-10.4095
協于	-10.4098
吕侯	-10.41
太岳	-10.4101
華隂	-10.4106
三百六十	-10.4108
九川	-10.4115
青徐	-10.4118
祭之	-10.412
是亦	-10.4121
一章	-10.4122
準人	-10.4123
故有	-10.4131
濵	-10.4133
其初	-10.4134
之所當	-10.4135
夫婦	-10.4137
弓矢	-10.414
大家	-10.414
山澤	-10.414
大意	-10.4141
諡	-10.4141
完	-10.4144
不失其	-10.4145
作威	-10.4146
樂之	-10.4146
帝嚳	-10.4149
孟豬	-10.415
明王	-10.4153
五等	-10.4154
敬哉	-10.4158
乃謂	-10.4158
曰天	-10.4158
去其	-10.4159
者雖	-10.4163
戒以	-10.4172
今日之	-10.4176
官名	-10.4177
其子孫	-10.418
但言	-10.418
西流	-10.4187
天下之人	-10.4189
融	-10.4189
其所當	-10.419
項	-10.4194
君也	-10.4195
客	-10.4196
拂	-10.4199
有終	-10.4201
九黎	-10.4202
一夫	-10.4206
民以	-10.4208
飲食	-10.4212
遏絶	-10.4215
善而	-10.4215
人主之	-10.4219
而可	-10.4226
聲色	-10.423
和夷	-10.4231
沅	-10.4234
之賦	-10.4238
刀	-10.424
琴瑟	-10.4244
因而	-10.4247
輩	-10.4248
鞠	-10.425
涇水	-10.4252
釋之	-10.4253
哉惟	-10.426
四者	-10.4263
時事	-10.4264
名為	-10.4266
於中	-10.4268
五刑之	-10.427
洚水	-10.427
第五	-10.4274
紀綱	-10.4278
有疾	-10.4286
氏之	-10.4286
城南	-10.4287
此豈	-10.4287
血	-10.4294
而不及	-10.4299
牆	-10.43
埴	-10.4301
皆從	-10.4303
卓	-10.4303
未定	-10.4304
之廟	-10.4304
今文古文皆有	-10.4306
二説	-10.4308
則人	-10.4316
亦名	-10.433
牙	-10.4333
聦	-10.4336
驗之	-10.434
百二十	-10.4341
以義	-10.4344
土之	-10.4345
故舉	-10.4348
之誠	-10.4351
岍	-10.4351
納言	-10.4353
梓	-10.4354
施之	-10.4357
郎	-10.4359
漏	-10.436
觀兵	-10.4361
夙夜	-10.4361
暑	-10.4362
挾	-10.4362
旨	-10.4362
不謹	-10.4363
飢	-10.4363
冏命	-10.4363
恣	-10.4366
而生	-10.4366
重黎	-10.4368
牧野	-10.437
王者之	-10.4373
故瀆	-10.4373
之宜	-10.4376
其可不	-10.4376
法以	-10.4381
陰陽	-10.4385
在乎	-10.4385
以遷	-10.4389
馬鄭	-10.4394
發明	-10.4398
芮	-10.4409
召南	-10.441
蟲	-10.441
之意而	-10.4411
蘭	-10.4412
般	-10.4413
其罰	-10.4416
以及	-10.4417
㑹稽	-10.4417
穢	-10.4417
存之	-10.4418
自任	-10.4418
于帝	-10.4425
烈祖	-10.4428
神人	-10.4429
之篇	-10.4429
九功	-10.4429
起於	-10.4444
先儒謂	-10.4445
無遺	-10.4446
三國	-10.4446
呂氏曰	-10.445
反徐	-10.445
莫大於	-10.4452
南郡	-10.4459
拔	-10.4461
治洛	-10.4462
十九年	-10.4464
俯	-10.4471
或作	-10.4472
明日	-10.4475
故爲	-10.4476
下生	-10.4478
組	-10.448
槩	-10.448
于河	-10.4482
否則	-10.4487
以立	-10.4488
以威	-10.449
文帝	-10.4491
儆戒	-10.4492
要囚	-10.45
既得	-10.4502
可信	-10.4503
綏服	-10.4507
我則	-10.4512
百僚	-10.4515
又案	-10.4516
形容	-10.4517
滄	-10.4517
刃	-10.4518
仕	-10.4521
力行	-10.4521
讀書	-10.4524
膚	-10.4524
闊	-10.4525
燉煌	-10.4525
杞	-10.4526
慝	-10.4528
言已	-10.453
榦	-10.4534
道路	-10.4535
河流	-10.4536
十七年	-10.4537
則謂之	-10.4538
殷王	-10.4539
也聖人	-10.4542
入泗	-10.4545
數十	-10.455
五常	-10.455
殷士	-10.4554
責其	-10.4555
水所出	-10.4557
篇中	-10.456
不可勝	-10.4565
一人之	-10.4568
先祖	-10.4571
皆以為	-10.4572
峙	-10.4577
不一	-10.4578
旌	-10.4584
逰	-10.4585
壯	-10.4586
酈	-10.4588
意也	-10.4597
最為	-10.4606
自作	-10.4609
為人	-10.4611
惟在	-10.4617
大訓	-10.4618
未成	-10.462
流而	-10.4626
所據	-10.4626
又南	-10.4626
張氏	-10.4633
其過	-10.4633
此之謂	-10.4635
戊辰	-10.4636
算	-10.4637
原隰	-10.4637
夕	-10.4638
九德	-10.4643
邦君御事	-10.4644
戲	-10.4645
唐虞之	-10.4651
江州	-10.4655
寛裕	-10.4655
亦自	-10.4658
為戒	-10.4665
知天命	-10.4667
地也	-10.467
東坡	-10.4679
必是	-10.4682
無或	-10.4682
以天下	-10.4689
尊之	-10.4689
湎	-10.4691
六宗	-10.4692
㫁	-10.4694
北面	-10.4695
莫之	-10.4696
晏	-10.4696
臆	-10.4697
也哉	-10.4698
則一	-10.4698
周制	-10.47
余曰	-10.4709
之諸侯	-10.4711
不至於	-10.4715
立事	-10.4719
長沙	-10.472
此三	-10.4721
不可易	-10.4728
漢之	-10.4732
所傳	-10.4734
建官	-10.474
親近	-10.4742
袁	-10.4744
山陽	-10.4745
浪	-10.4746
日在	-10.4749
善之	-10.4751
任用	-10.4751
之機	-10.4753
汲	-10.4756
徳之人	-10.4758
註云	-10.4759
或云	-10.4761
有邦	-10.4762
因之	-10.4763
篇末	-10.4765
其責	-10.4767
政治	-10.4771
湎于酒	-10.4786
繼以	-10.4792
三十六	-10.4798
奭	-10.4799
之至也	-10.4804
柴	-10.4804
科	-10.4808
二十八宿	-10.4808
注之	-10.4808
舌	-10.4808
冦	-10.4809
遥	-10.4809
休咎	-10.4809
相承	-10.4811
奈何	-10.4812
酷	-10.4812
百八十	-10.4813
衆民	-10.4814
亦可以	-10.4816
水合	-10.4816
入洛	-10.4822
之土	-10.4828
十二牧	-10.4829
無一毫	-10.4829
淮水	-10.4829
八月	-10.4833
敬典	-10.4833
南山	-10.4833
衡漳	-10.4833
貴賤	-10.4834
而欲	-10.4839
孔氏以	-10.4845
之形	-10.4854
言紂	-10.4854
者多矣	-10.4858
於殷	-10.486
祐	-10.4863
五千	-10.4864
濰	-10.4865
豳	-10.4871
九徳之	-10.4871
而况	-10.4874
此三者	-10.4875
吾心	-10.4878
武王克商	-10.4879
之助	-10.4882
九月	-10.4886
神宗	-10.4892
相屬	-10.4894
分為二	-10.4899
其流	-10.4899
議論	-10.49
也張氏曰	-10.4901
水出焉	-10.4904
父師	-10.4904
二山	-10.4914
一統志	-10.4916
康成	-10.4919
督	-10.4922
則不能	-10.4922
禹所	-10.4924
也嗚呼	-10.4927
奸	-10.4928
秸	-10.493
仁義	-10.4932
尚書詳解卷	-10.4935
於己	-10.4935
第四	-10.4937
許多	-10.4937
從容	-10.494
河出	-10.4945
以盡	-10.4947
我國家	-10.4951
官之	-10.4952
告之以	-10.4953
與人	-10.4954
日日	-10.4961
致敬	-10.4965
至今	-10.4967
皆能	-10.4967
可為	-10.4979
酸	-10.4979
皆所以	-10.498
亘	-10.498
洋	-10.4984
致治	-10.4985
仲虺之誥	-10.4985
太僕	-10.4986
黜陟	-10.4987
序言	-10.4989
阿衡	-10.4995
禹之治水	-10.4995
哉故	-10.4998
漢世	-10.5
仲丁	-10.5
毛詩	-10.5003
能順	-10.5006
作歌	-10.5008
隨山	-10.5009
武王伐紂	-10.5011
指其	-10.5018
夏王	-10.5019
此正	-10.5026
灉	-10.5027
各有所	-10.5028
辨之	-10.5031
孔以	-10.5033
不但	-10.5034
可用	-10.5035
潞	-10.5037
實有	-10.5037
先儒以	-10.504
繆	-10.5043
膏	-10.5044
東北至	-10.5045
馴	-10.5046
都邑	-10.5048
沃丁	-10.5049
膠	-10.505
棄之	-10.5052
非徒	-10.5053
惟曰	-10.5062
我有周	-10.5063
常行	-10.5063
求賢	-10.5064
也周	-10.5068
第七	-10.5073
謀及	-10.5074
從諫	-10.5075
子弟	-10.5077
當敬	-10.5077
有可	-10.508
十夫	-10.5081
太華	-10.5082
惟民	-10.5091
禽	-10.5095
五里	-10.51
戎狄	-10.5103
養之	-10.5104
冥	-10.5105
葉氏曰	-10.5107
陋	-10.5107
籲	-10.5108
乃大	-10.5109
奇	-10.5109
作誥	-10.511
之先	-10.511
至公	-10.5114
灃	-10.5117
殷先哲王	-10.5122
相接	-10.5124
此文	-10.513
典刑	-10.513
羽山	-10.5136
十四年	-10.5148
經云	-10.5153
渚	-10.5153
則雖	-10.5156
巽	-10.5157
濟隂	-10.516
腆	-10.5161
繪	-10.5162
曁	-10.5162
陳氏雅言曰	-10.5162
箴	-10.5164
頓	-10.5164
孔氏安國曰	-10.5165
冐	-10.5165
菑	-10.5167
之流	-10.517
綱領	-10.5172
愚案	-10.5175
三辰	-10.5183
不息	-10.5192
之法也	-10.5194
故先言	-10.5196
承天	-10.5206
濱	-10.5214
欲遷	-10.5214
元后	-10.5215
栁	-10.5218
大中	-10.5219
崖	-10.522
慎厥	-10.5221
隕	-10.5223
譌	-10.5223
粗	-10.5224
謀之	-10.5225
娶	-10.5226
請命	-10.5228
建立	-10.5233
人力	-10.5235
以是知	-10.5237
江夏	-10.5238
諸侯也	-10.524
金氏曰	-10.524
紂之惡	-10.5247
其源	-10.5249
既以	-10.5249
居中	-10.525
之精	-10.5255
髙宗之	-10.5259
往來	-10.5265
貢篚	-10.5269
不中	-10.5269
何故	-10.5271
以聽	-10.5273
教民	-10.5273
縞	-10.5278
裏	-10.5279
遐	-10.5281
漆水	-10.5283
㸔	-10.5284
不得其	-10.5285
瞽瞍	-10.5287
汶水	-10.5288
伏羲	-10.529
濬川	-10.5293
桐宫	-10.5293
此數	-10.5293
亦不能	-10.5296
定陶	-10.5299
八十里	-10.53
故此	-10.5301
信都	-10.5301
能明	-10.5302
安於	-10.5303
衣食	-10.5306
昊天	-10.5308
數之	-10.5309
六軍	-10.5311
唐叔	-10.5311
天下皆	-10.5311
會于	-10.5315
元祀	-10.5316
相因	-10.5324
不敢自	-10.5324
其序	-10.5325
一時之	-10.5327
故必	-10.5335
一一	-10.5335
百四十	-10.5336
固已	-10.5338
喪服	-10.5339
副	-10.534
銍	-10.5341
和之	-10.5345
絃	-10.5346
皇甫謐	-10.5348
彦	-10.5349
未易	-10.5351
存亡	-10.5351
其體	-10.5354
整齊	-10.5356
注曰	-10.5358
云爾	-10.5367
通用	-10.5377
不知何	-10.5379
西山	-10.538
我不	-10.5382
有六	-10.5386
常也	-10.5387
大義	-10.5387
水所	-10.5389
金城	-10.5389
付之	-10.5396
托	-10.5404
相宅	-10.5405
輪	-10.5406
也孟子曰	-10.5406
朂	-10.5407
驩兜	-10.5407
衮冕	-10.5409
黎陽	-10.5409
土中	-10.5417
播種	-10.5417
中江	-10.5417
聘	-10.5418
巫咸	-10.5422
興起	-10.5423
如此其	-10.5423
堂上	-10.5424
者或	-10.5425
漢地理志	-10.5428
讓于	-10.5429
天討	-10.5433
用心	-10.5433
天惟	-10.5434
既定	-10.5435
作聖	-10.5439
何不	-10.5441
先生曰	-10.5442
▁新安陳氏曰	-10.5444
分北	-10.5446
舜禹	-10.545
大道	-10.5453
言當	-10.5454
三后	-10.5454
乃惟	-10.5456
奉上	-10.5456
戡	-10.546
豆	-10.546
閑	-10.5462
寢	-10.5463
談	-10.5464
亷	-10.5464
為王	-10.5465
左旋	-10.5466
謗	-10.5468
常理	-10.5475
之所謂	-10.5475
今汝	-10.5476
聲教	-10.5483
人功	-10.5491
左𫝊	-10.5491
其南	-10.5492
絶其	-10.5492
而去	-10.5498
自治	-10.5499
于新邑	-10.5502
澤在	-10.5502
同也	-10.5503
故禹	-10.5504
而難	-10.5505
盡矣	-10.5505
太王	-10.5505
十二州	-10.5508
於理	-10.5509
豈無	-10.5514
汝所	-10.5515
過九江	-10.5519
說者	-10.552
焦	-10.5521
牧夫	-10.5526
非獨	-10.5526
瞻	-10.5526
非其人	-10.5526
鳩	-10.5526
鬱	-10.5528
蘇公	-10.5529
祈天永命	-10.5532
王子	-10.5534
之具	-10.5535
南面	-10.5537
威福	-10.5538
稅	-10.554
無能	-10.5541
必無	-10.5544
命羲和	-10.5545
以禮	-10.5546
微子之命	-10.5549
故傳	-10.5551
其舊	-10.5555
其家	-10.5556
導江	-10.5558
而後能	-10.5559
民主	-10.556
禹湯	-10.5566
序云	-10.5568
于外	-10.557
俊民	-10.5574
為上	-10.5577
四分	-10.5577
御覽	-10.5578
四百	-10.558
上章	-10.5583
而至於	-10.5584
畏天	-10.5585
譲	-10.5588
洩	-10.5588
滑	-10.5591
鄱陽	-10.5591
醜	-10.5592
耉	-10.5592
其惡	-10.5593
税	-10.5597
偃師	-10.5604
李氏	-10.5606
不使	-10.5609
其治	-10.5614
逺者	-10.5615
我周王	-10.5615
出而	-10.5616
何必	-10.5616
幽王	-10.5617
下有	-10.5617
汝等	-10.5618
之心而	-10.562
孟子所謂	-10.5624
九州之外	-10.5627
常性	-10.5647
覽	-10.5648
罷	-10.5648
虞夏	-10.5648
徯	-10.5648
孝經	-10.5649
頃	-10.565
今乃	-10.565
僉	-10.5651
稷契	-10.5651
薨	-10.5652
妨	-10.5653
沇水	-10.5654
判	-10.5656
逢	-10.5659
勉力	-10.566
稽首	-10.5665
赤道	-10.5672
之福	-10.5673
述其	-10.5676
其禮	-10.5681
升降	-10.5685
下都	-10.5686
據此	-10.5691
贖刑	-10.5692
江漢之	-10.5692
不吉	-10.5694
皇帝	-10.5696
爲善	-10.5696
德則	-10.5699
治功	-10.5699
親親	-10.5708
燮	-10.571
憑	-10.5711
屑	-10.5713
在朝	-10.5713
朝歌	-10.5715
拜稽首	-10.5716
此盖	-10.5717
不入	-10.5717
渠搜	-10.5719
監視	-10.572
拱	-10.5723
牖	-10.5723
躬行	-10.5725
儒者	-10.5728
用功	-10.5729
畆	-10.573
且如	-10.5734
不是	-10.5737
祭法	-10.574
如之何	-10.574
為句	-10.5744
大同	-10.5747
遷善	-10.5748
必至	-10.5748
此云	-10.5752
下句	-10.576
四字	-10.5766
在豐	-10.5766
非聖人	-10.5766
人之心	-10.5767
苖民	-10.5769
緜	-10.5774
盗	-10.5777
擬	-10.5778
如何曰	-10.5778
而獨	-10.5779
迓	-10.5779
矛	-10.5781
敬忌	-10.5786
敎之	-10.5789
者哉	-10.5792
必須	-10.5798
之所由	-10.5803
三孤	-10.5804
意者	-10.5809
曰汝	-10.5814
之㫖	-10.5817
為可	-10.5817
與我	-10.5818
薛氏曰	-10.5826
也盤庚	-10.5827
多少	-10.5833
狼	-10.5834
戸	-10.5835
旄	-10.5838
潘	-10.5838
天神	-10.5842
乃可	-10.5843
太常	-10.5845
晁氏	-10.5847
與民	-10.5848
二十五篇	-10.5849
德惟	-10.5852
東原	-10.5853
止于	-10.5856
惟能	-10.5857
以奉	-10.5858
理㑹	-10.5867
人心之	-10.5867
敢不	-10.5869
明聽	-10.5872
導河	-10.5873
矣蓋	-10.5873
以德	-10.5874
冕服	-10.5877
車服	-10.5878
六服	-10.5879
附㑹	-10.5888
厯象	-10.5893
竊謂	-10.5893
得失	-10.5894
為商	-10.5896
案曰	-10.5896
滹沱	-10.5899
豈可以	-10.59
迴	-10.5901
責之	-10.5902
曽氏曰	-10.5903
使知	-10.5904
相連	-10.5904
複	-10.5904
隙	-10.5908
公劉	-10.5908
宅洛	-10.5909
䧟	-10.5909
商周	-10.5909
大明	-10.5909
摩	-10.591
股	-10.591
忝	-10.591
七政	-10.5912
當日	-10.5912
可以見	-10.5926
寰宇記云	-10.5928
起而	-10.5931
將欲	-10.5933
荀子	-10.5933
而言之則	-10.5935
康寧	-10.5936
七宿	-10.5939
即古	-10.5941
何嘗	-10.5947
漢陽	-10.5949
錫之	-10.5949
地之	-10.5954
通道	-10.5954
三等	-10.5955
禹河	-10.5959
和氣	-10.596
取諸	-10.596
樵	-10.5967
當如	-10.5967
常任	-10.597
濶	-10.5971
官人	-10.5973
罹	-10.5975
篇名	-10.598
乎故	-10.5982
彝倫	-10.5983
九十里	-10.5985
八尺	-10.5996
死者	-10.5996
今予	-10.5999
盖以	-10.5999
之得失	-10.6003
以理	-10.6003
君心	-10.6008
私心	-10.6012
父兄	-10.6016
功臣	-10.6016
禹迹	-10.6017
丁未	-10.6018
一則	-10.602
法則	-10.6022
谿	-10.6024
鴈	-10.6024
紊	-10.6026
七日	-10.6026
璋	-10.6027
城西	-10.603
翟	-10.603
互見	-10.603
粤	-10.6033
刪	-10.6034
大罪	-10.6034
者因	-10.6035
山下	-10.6036
慎罰	-10.6037
諴	-10.6038
錦	-10.6041
徐戎	-10.6052
之言而	-10.6057
正是	-10.606
舊人	-10.6063
從上	-10.6064
城東	-10.6065
絶之	-10.607
保衡	-10.6073
程子	-10.6074
十有二月	-10.6075
勸之	-10.6081
㑹同	-10.6087
有苖	-10.609
天之所以	-10.6092
者無不	-10.6093
以寛	-10.6096
昌言	-10.6096
肥	-10.6098
沴	-10.61
又能	-10.6102
厯年	-10.6102
富貴	-10.6104
凡有	-10.6106
東南至	-10.6106
下邳	-10.6111
大司徒	-10.6114
祖廟	-10.6119
三宗	-10.6121
恐懼	-10.6121
漾水	-10.6123
之路	-10.6124
邵	-10.6127
自得	-10.6127
同而	-10.6128
庶獄	-10.6131
教以	-10.6133
十人	-10.6136
大辟	-10.6138
未嘗有	-10.6139
陸氏	-10.614
降水	-10.6142
東夷	-10.6147
吳氏曰	-10.6154
始于	-10.6155
前此	-10.616
之微	-10.6162
奥	-10.6162
告爾	-10.6163
悲	-10.6165
其失	-10.6166
濟河	-10.6166
二十九篇	-10.6168
未免	-10.6168
者言其	-10.6168
王季	-10.6169
藴	-10.617
安府	-10.6171
區區	-10.6172
維持	-10.6172
正義曰此	-10.6173
羑	-10.6173
三山	-10.6177
意謂	-10.6179
不逮	-10.618
自用	-10.6181
損益	-10.6181
丁寧	-10.6183
藏之	-10.6187
自今	-10.6191
其害	-10.6191
其氣	-10.6194
典謨	-10.6196
瀍	-10.6196
從革	-10.62
人謀	-10.6203
者謂之	-10.6208
東土	-10.6208
甞	-10.6216
郭璞	-10.6217
濟南	-10.6222
德也	-10.6225
州界	-10.6226
其水	-10.6229
汧	-10.6229
民命	-10.6229
者非是	-10.6231
剕	-10.6233
士大夫	-10.6233
西伯戡黎	-10.6233
裘	-10.6234
備矣	-10.6235
飽	-10.6235
殃	-10.6239
終南	-10.6241
父子兄弟	-10.6241
蠱	-10.6241
本篇	-10.6244
司宼	-10.6247
神祇	-10.625
自言	-10.6251
於酒	-10.6253
本作	-10.6253
顯然	-10.6254
林少頴謂	-10.6257
成文	-10.6257
為周	-10.6258
程氏曰	-10.6261
為首	-10.6263
故名	-10.6277
深矣	-10.6287
不恤	-10.629
鼔	-10.6292
驪	-10.6297
賄	-10.6298
停	-10.6298
可以觀	-10.6299
上文言	-10.63
鼻	-10.6301
朋友	-10.6308
不啻	-10.631
及于	-10.631
用力	-10.6313
不載	-10.6314
眚	-10.6315
南境	-10.6316
然後能	-10.6317
器也	-10.6319
成王即政	-10.632
名之	-10.6321
慮其	-10.6324
曽氏	-10.6327
周禮司	-10.6329
明堂	-10.6337
自周	-10.6337
沈湎	-10.6339
或言	-10.6339
任賢	-10.6344
戒成王	-10.6344
億	-10.6348
必能	-10.6355
條理	-10.6356
古之人	-10.6359
此道	-10.6361
常伯	-10.6361
所貢	-10.6363
潰	-10.6364
天之明	-10.6364
功業	-10.6365
悍	-10.6366
迭	-10.6366
一毫	-10.6367
故次	-10.6368
圮	-10.6368
不可知	-10.6369
悠	-10.637
樞	-10.6371
之才	-10.6371
顚	-10.6374
安居	-10.6379
其才	-10.6382
性命	-10.6385
居東	-10.6387
者固	-10.639
宰相	-10.639
求諸	-10.6396
見矣	-10.6397
不治	-10.6397
于前	-10.6399
劉氏	-10.64
四面	-10.6401
首言	-10.6402
天生	-10.6408
在南	-10.6412
之所能	-10.6413
春分	-10.6414
一切	-10.6414
成王命	-10.6418
不察	-10.642
以養	-10.6422
雖小	-10.6423
地理今釋	-10.6427
蠢	-10.6427
姑洗	-10.6429
橘柚	-10.643
地下	-10.6433
匿	-10.6433
也蘇氏曰	-10.6433
周公之訓	-10.6435
佩	-10.6437
据	-10.6438
皆由	-10.6439
安邑	-10.6445
聽朕	-10.6449
河濟	-10.6449
作洛	-10.6451
縣屬	-10.6455
輔弼	-10.6455
天罰	-10.6455
自外	-10.6457
永保	-10.6457
一國	-10.6462
周室	-10.6463
餘州	-10.6464
三字	-10.6464
北海	-10.6467
天休	-10.6472
以酒	-10.6476
封康叔	-10.6477
父之	-10.6482
禹之功	-10.6486
東都	-10.6488
陶丘	-10.6489
時已	-10.6492
西海	-10.6495
潮	-10.6495
改易	-10.6497
砥	-10.6498
桃	-10.6499
不動	-10.65
觸	-10.65
湮	-10.65
丞	-10.6503
貢之	-10.6504
共為	-10.6504
泄	-10.6504
酣	-10.6506
顧氏	-10.6512
伏流	-10.6512
三王之	-10.6513
告神	-10.6515
天性	-10.6518
殺戮	-10.6523
此類	-10.653
疑之	-10.6531
諸山	-10.6533
于中	-10.6537
於身	-10.6537
雜出	-10.6544
亂也	-10.6552
四時之	-10.6556
胄	-10.6562
姚	-10.6562
折獄	-10.6564
黷	-10.6568
不享	-10.6569
賀	-10.6569
莫能	-10.6569
駕	-10.6569
乏	-10.657
始得	-10.6572
之役	-10.6573
銘	-10.6573
抱	-10.6574
長久	-10.6578
不逺	-10.658
徳惟	-10.6586
又東至	-10.6587
二日	-10.6588
表裏	-10.659
未足	-10.6593
輔翼	-10.6595
梁雍	-10.6597
必在	-10.6609
隨其	-10.6609
其次	-10.6611
朝覲	-10.6611
事君	-10.6612
譬如	-10.6614
所都	-10.6616
達於	-10.6617
克明	-10.662
幷	-10.6625
庶言	-10.6627
吕梁	-10.6632
穡	-10.6636
警戒	-10.6637
峰	-10.6637
謝	-10.6637
呂氏祖謙曰	-10.6638
輒	-10.6638
朋黨	-10.6642
噐	-10.6642
隘	-10.6643
健	-10.6644
少昊	-10.6644
亦作	-10.665
上黨	-10.6651
矣若	-10.6662
湯以	-10.6664
不可信	-10.6666
一説	-10.6667
責難	-10.6671
有定	-10.6684
百穀	-10.6687
而言則	-10.6688
文王受命	-10.6689
居民	-10.6691
又北	-10.6691
重華	-10.6693
逸書	-10.6697
鞏	-10.6701
此處	-10.6704
五十八篇	-10.6705
五星	-10.6705
座	-10.6706
浩	-10.6707
藩	-10.6707
憤	-10.6708
閲	-10.6709
伸	-10.6711
諛	-10.6712
有竒	-10.6719
于四方	-10.6728
歸政	-10.673
職事	-10.6731
之逺	-10.6736
天下之心	-10.6737
是汝	-10.6745
前日之	-10.675
後嗣	-10.6754
我之所	-10.6757
有兩	-10.6759
果何	-10.676
地志云	-10.6761
天下無	-10.6762
河間	-10.6764
壁中	-10.6765
自此以下	-10.677
於洛	-10.6773
輔我	-10.6775
酢	-10.6775
島	-10.6776
使汝	-10.6778
苑	-10.6781
泣	-10.6781
悅	-10.6781
在洛	-10.6783
扞	-10.6785
朝宗	-10.6787
五教	-10.6789
邦伯	-10.6789
矣其	-10.6799
書云	-10.6805
放之	-10.6805
兗州	-10.6816
即上文	-10.6818
善言	-10.6819
之人也	-10.6824
發於	-10.6826
南吕	-10.6827
本原	-10.6827
言汝	-10.6835
休命	-10.6838
詩書	-10.6838
經緯	-10.6839
吐蕃	-10.6839
大槩	-10.6839
鍰	-10.684
之類是也	-10.6841
潁	-10.6841
迤	-10.6846
蔵	-10.6849
塾	-10.685
之夷	-10.6855
滯	-10.6856
錫命	-10.6858
以達	-10.6862
洪範九疇	-10.6866
作樂	-10.6868
變亂	-10.687
雷夏	-10.6871
曰昔	-10.6873
在焉	-10.6874
不得已而	-10.6877
為宫	-10.6877
陳其	-10.6879
變易	-10.6888
此句	-10.6888
用賢	-10.6891
箕子之	-10.6891
為長	-10.6894
此語	-10.6901
民事	-10.6905
父祖	-10.6908
此二者	-10.691
雙	-10.6914
天與	-10.6915
蓍	-10.6915
咤	-10.6915
二臣	-10.6917
浚	-10.6918
匹夫匹婦	-10.6921
郡縣	-10.6922
犧	-10.6923
逞	-10.6926
君師	-10.6931
佑助	-10.6935
師師	-10.6936
徂征	-10.6936
豈敢	-10.694
而卒	-10.6942
虞舜	-10.6944
終於	-10.6946
之職也	-10.695
小水	-10.6954
水旱	-10.6959
憂勤	-10.6959
徳義	-10.6963
憸人	-10.6965
冊書	-10.6969
所知	-10.6971
内方	-10.6975
常山	-10.6979
昔者	-10.698
别有	-10.6982
疆界	-10.6984
所施	-10.6984
冶	-10.6985
梅	-10.6985
安陸	-10.6986
緣	-10.6992
敝	-10.6995
仲壬	-10.6996
無私	-10.6997
沇	-10.7
立君	-10.7002
不勤	-10.7003
身修	-10.7004
無赦	-10.7005
所以致	-10.7007
劉向	-10.7009
告成王	-10.7011
沔水	-10.7012
也王肅云	-10.7016
武都	-10.7016
自滿	-10.7018
之交	-10.7021
不畀	-10.7023
大略	-10.7025
之地也	-10.7026
一寸	-10.7026
人人	-10.7031
用是	-10.7033
𫝊正義曰	-10.7042
近於	-10.7046
五罰	-10.7052
老成人	-10.7053
以善	-10.7054
鞭扑	-10.7057
氷	-10.7059
繞	-10.7061
導漾	-10.7063
粹	-10.7063
能治	-10.7064
喬	-10.7064
蹇叔	-10.7065
䖍	-10.7066
禍亂	-10.7066
日中	-10.7068
三條	-10.7071
平陽	-10.7073
為近	-10.7077
夾室	-10.7077
澗水	-10.7082
進也	-10.7084
積石山	-10.7086
朝鮮	-10.7087
陳列	-10.7088
夏殷	-10.7092
横流	-10.7095
為中	-10.7095
厥賦	-10.7095
生于	-10.7098
一條	-10.7099
在官	-10.7101
杜預云	-10.7102
有文	-10.7103
亦豈	-10.7104
九章	-10.7107
於彼	-10.7108
他日	-10.7109
陳之	-10.7111
營州	-10.7111
聖王	-10.7114
非人	-10.7114
厥土	-10.7115
四寸	-10.7119
入濟	-10.7123
誅紂	-10.7131
滄州	-10.7132
知其為	-10.7134
詁	-10.7136
珍	-10.7137
思慮	-10.7138
骨	-10.7139
芮伯	-10.714
儻	-10.7143
正義云	-10.7143
居延	-10.7143
靑	-10.7144
文王之徳	-10.7145
也但	-10.7148
乙卯	-10.7148
可疑者	-10.7151
百九十	-10.7151
政令	-10.7152
民有	-10.7154
城在	-10.7158
汾水	-10.7166
舉事	-10.7167
有徳者	-10.7175
于兹	-10.7177
一千	-10.7178
方岳	-10.7181
文徳	-10.7182
禹謨	-10.719
二千	-10.7191
北極	-10.7192
榆	-10.7197
不類	-10.7197
凱	-10.7201
爾雅曰	-10.7202
巖	-10.7202
衮	-10.7202
南陽	-10.7203
閩	-10.7203
其形	-10.7203
鎭	-10.7203
反側	-10.7206
底柱	-10.7206
滄浪	-10.7207
霍叔	-10.7208
繇	-10.7212
雖曰	-10.7214
斆	-10.7214
易氏曰	-10.7214
蕩蕩	-10.7215
近而	-10.7216
毫釐	-10.7216
寃	-10.7219
舊説	-10.7227
封建	-10.723
二十五里	-10.7232
以兵	-10.7235
退而	-10.725
故事	-10.7251
不然則	-10.7251
州南	-10.7252
兩端	-10.7255
論之	-10.7258
縣故城	-10.7259
渾天	-10.7264
之實也	-10.7268
周公曰	-10.727
順流	-10.7272
分職	-10.7275
仞	-10.7275
二伯	-10.7276
説見	-10.7277
僞	-10.7279
釗	-10.7281
至治	-10.7281
燭	-10.7281
金氏履祥曰	-10.7281
畎澮	-10.7284
戡黎	-10.7286
兢兢業業	-10.7287
哀矜	-10.7294
三節	-10.7295
不可用	-10.7299
二縣	-10.7301
彼此	-10.7304
已成	-10.7307
雍之	-10.7307
梁州之	-10.7311
二典	-10.7311
前既	-10.7314
六百	-10.7315
上上	-10.732
杜氏	-10.7323
以下皆	-10.7326
數百里	-10.7329
安之	-10.7329
有疑	-10.7331
枚	-10.734
推而	-10.7342
興亡	-10.7343
五過	-10.7343
而必	-10.7346
舜既	-10.7348
不能無	-10.7349
卣	-10.7349
絜	-10.7349
潼	-10.7354
尤為	-10.7354
諒	-10.7355
郷	-10.7357
自奄	-10.7358
糾	-10.7358
枲	-10.736
烝祭	-10.7363
山在今	-10.7364
察其	-10.7369
之言曰	-10.7372
莽	-10.7377
顯明	-10.7378
正道	-10.7386
之迹	-10.739
大矣	-10.739
四方之民	-10.7393
日用	-10.7393
州東	-10.7398
而始	-10.7409
王庭	-10.7409
癸	-10.7415
于汝	-10.7416
交相	-10.7417
鏞	-10.7418
一周	-10.7418
十八年	-10.742
㑹於	-10.7422
牿	-10.7424
記之	-10.7424
櫟	-10.7426
不由	-10.7427
纂䟽	-10.7427
隮	-10.7428
朝諸侯	-10.7428
國家之	-10.7429
語辭	-10.7429
者衆	-10.743
周天	-10.7431
耽樂	-10.7436
百執事	-10.7438
曲折	-10.7445
其要	-10.7446
秋分	-10.7447
忠良	-10.7449
不勉	-10.7452
歎息	-10.7464
而進	-10.7467
元和志云	-10.7473
其利	-10.7476
三皇	-10.7478
扈	-10.7478
者也故	-10.7481
職方氏	-10.7481
固不可	-10.7483
州西	-10.7488
逸欲	-10.7492
斷獄	-10.7494
忠信	-10.7498
先人	-10.7499
十二日	-10.75
兒	-10.7503
芒	-10.7503
廉	-10.7506
鰥	-10.7506
禰	-10.751
十餘	-10.7511
中央	-10.7519
一端	-10.7521
爾衆	-10.7524
亦將	-10.7531
而紂	-10.7532
諸侯皆	-10.7532
存焉	-10.7534
梁岐	-10.7535
分流	-10.7541
八州	-10.7545
有善	-10.7548
必待	-10.7556
之由	-10.7557
歴代	-10.7559
州之境	-10.7565
羣飲	-10.7571
鬲津	-10.7571
也此言	-10.7572
也史記	-10.7574
成康	-10.7574
朞	-10.7575
凉	-10.7576
淇	-10.7576
紫	-10.7578
三禮	-10.7578
不孝	-10.7578
流逕	-10.7579
弑	-10.7582
弗率	-10.7582
後魏	-10.7585
瑕	-10.7585
乃祖	-10.7589
影	-10.7592
其弟	-10.7599
何由	-10.7604
斯言	-10.7612
憸	-10.7612
居亳	-10.7619
宥之	-10.7627
告之曰	-10.7628
攜	-10.7633
諸篇	-10.7634
河南府	-10.7638
蓋謂	-10.7642
馮翊	-10.7651
拙	-10.7652
人倫	-10.7652
如後世	-10.7655
雀	-10.7655
姬	-10.7657
源流	-10.7658
伯冏	-10.7658
百鍰	-10.766
賈逵	-10.766
刑辟	-10.7662
儲	-10.7662
萃	-10.7662
舊章	-10.7663
哭	-10.7664
宵	-10.7664
一箇	-10.7666
伐殷	-10.7666
陶唐	-10.7667
第八	-10.7668
外方	-10.7673
揆度	-10.7674
河決	-10.7674
昭然	-10.7677
金木	-10.7684
以至於	-10.7684
百榖	-10.7685
堂下	-10.7685
平康	-10.7688
知恤	-10.7691
之明日	-10.7692
更端	-10.7693
周公攝政	-10.7693
錫貢	-10.7694
伐夏	-10.7696
故得	-10.7709
瀘	-10.771
歴數	-10.7712
上公	-10.7712
鞭	-10.772
所執	-10.7722
匏	-10.7723
器用	-10.7723
銖	-10.7724
庶子	-10.7724
盡心	-10.7725
降災	-10.7727
既遷	-10.7729
後來	-10.773
宄	-10.7733
惻	-10.7734
肜	-10.7734
與周公	-10.7734
奢	-10.7736
亟	-10.7737
襃	-10.7738
華蟲	-10.7738
肩	-10.7738
隂陽之	-10.7738
川澤	-10.7739
返	-10.7742
其聲	-10.7749
無偏	-10.7752
慶府	-10.7753
羽毛	-10.7754
五玉	-10.7757
不利	-10.7759
二里	-10.776
去極	-10.7761
流行	-10.7762
未甞	-10.7763
黄金	-10.7764
建中	-10.7768
東遷	-10.7779
民情	-10.7796
商郊	-10.7796
四海之	-10.7798
馬頰	-10.7799
禹既	-10.7801
明威	-10.7801
交修	-10.7802
漁	-10.7807
天既	-10.7808
戛	-10.7809
两	-10.7809
傍	-10.781
茫	-10.781
盖謂	-10.7811
祁	-10.7812
克終	-10.7812
覩	-10.7814
凡民	-10.7814
外事	-10.7816
翕	-10.7817
率諸侯	-10.7817
狐	-10.7818
氣質	-10.7818
亢	-10.7819
它	-10.7819
治事之臣	-10.782
相類	-10.7821
桑欽	-10.7822
瘝	-10.7824
逺人	-10.7829
按此	-10.7839
勿用	-10.7846
十六年	-10.7849
叚	-10.785
岷江	-10.7851
小國	-10.7858
遣使	-10.7864
之本心	-10.7864
一支	-10.7874
標	-10.7883
紵	-10.7885
祖己	-10.7887
西縣	-10.7887
𫉬	-10.7893
寔	-10.7894
麟	-10.7894
臨洮	-10.7894
而弗	-10.7896
宣帝	-10.7896
墜厥命	-10.7896
食貨	-10.7901
晷	-10.7904
入南海	-10.7905
恭儉	-10.7911
帝命	-10.7913
一等	-10.7913
辨其	-10.7916
克勤	-10.7916
唐孔氏謂	-10.7921
而遽	-10.7923
四海之内	-10.7924
揚之	-10.7934
安逸	-10.7938
安有	-10.7939
皆曰	-10.794
甚大	-10.7944
度量	-10.7946
」	-10.7947
汳	-10.7959
禹治	-10.7963
汝能	-10.7965
汜	-10.7965
卻	-10.7966
止言	-10.7966
思所以	-10.7966
楯	-10.7968
泛濫	-10.7971
舛	-10.7971
𠂻	-10.7971
簜	-10.7972
又東南逕	-10.7972
燥	-10.7975
憫	-10.7975
迄	-10.7976
㸃	-10.7977
安也	-10.7977
當如此	-10.7978
自絶	-10.7984
使天下	-10.7984
尙書	-10.7985
一家	-10.7985
而反	-10.7989
潛水	-10.7991
不獲	-10.7997
商民之	-10.8001
之為言	-10.8002
十日	-10.8004
遜志	-10.8008
溝洫	-10.8012
有異	-10.8013
大吕	-10.8016
國人	-10.8017
等事	-10.8017
汝身	-10.8023
灃水	-10.8027
異物	-10.8027
郡國	-10.8027
邳	-10.8027
輔之	-10.8029
爲政	-10.8029
牟	-10.8041
歎息言	-10.8043
釋詁云	-10.8049
惕	-10.805
旗	-10.805
媚	-10.8052
知人安民	-10.8054
醫	-10.8056
死生	-10.8057
蔑	-10.8057
華陽	-10.8057
賜姓	-10.806
豪	-10.8061
水注之	-10.8063
以致其	-10.8063
濟漯	-10.8066
近世	-10.8066
直言	-10.8071
商邑	-10.8073
精一	-10.8075
學問	-10.8078
舜曰	-10.8078
君臣上下	-10.8083
從事	-10.8085
什一	-10.8087
高宗之	-10.8094
萊夷	-10.8094
德之人	-10.8095
運行	-10.8097
應在	-10.8097
子男	-10.8099
濳	-10.8101
典樂	-10.8102
淮南	-10.8104
好德	-10.8105
治田	-10.8107
期於	-10.8108
而不得	-10.8111
石山	-10.8117
冬夏	-10.8121
曉然	-10.8123
杜佑	-10.8123
以喻	-10.8123
冰	-10.8123
譜	-10.8124
此序	-10.8124
違卜	-10.8125
小序	-10.8125
龠	-10.8125
今屬	-10.8125
雞	-10.8126
漂	-10.8126
堙	-10.8127
憐	-10.8128
篆	-10.813
蠲	-10.813
柏	-10.813
蘖	-10.8132
戰于	-10.8132
作亂	-10.8137
水勢	-10.8138
姑息	-10.8138
雷首	-10.8138
化民	-10.8142
成周之	-10.8144
乃知	-10.8146
安寧	-10.8149
歎而	-10.8151
矣何	-10.8152
職業	-10.8154
南巢	-10.8154
重於	-10.8154
四裔	-10.8158
繼之以	-10.8161
三正	-10.8165
丕顯	-10.8165
叔父	-10.8166
達河	-10.8173
四鄰	-10.8174
郊祀	-10.8175
不可無	-10.8176
夏侯	-10.8186
我所以	-10.8187
古書	-10.8191
七十二	-10.8192
周公東征	-10.8192
零	-10.8192
門内	-10.8192
所記	-10.8194
七廟	-10.8195
眉	-10.8196
臣子	-10.82
革夏	-10.8203
教人	-10.8204
灘	-10.8206
㝠	-10.8206
突	-10.8208
利口	-10.8209
兢業	-10.821
涸	-10.8211
籥	-10.8211
溉	-10.8211
此葢	-10.8212
軫	-10.8215
襄公	-10.8216
愿	-10.8218
而已故	-10.8225
獨夫	-10.8226
異同	-10.8228
為天所	-10.823
欲令	-10.823
必然	-10.823
事事	-10.8233
新民	-10.8238
耳非	-10.8242
仲春	-10.8243
當謹	-10.8246
成都	-10.8263
反復	-10.8271
須是	-10.8275
百世	-10.8281
鏤	-10.8283
醴	-10.8284
吐	-10.8284
耇	-10.8286
與日	-10.8287
芳	-10.8288
吝	-10.8289
四輔	-10.829
恨	-10.8291
綽	-10.8292
四百里	-10.8293
四方諸侯	-10.8293
嶓冢山	-10.8293
稟	-10.8293
未安	-10.8294
考終命	-10.8294
三家	-10.8296
踐奄	-10.8297
昧爽	-10.8297
扆	-10.8297
大率	-10.8298
幽明	-10.8299
乎且	-10.83
始祖	-10.8302
臬	-10.8302
今河南	-10.8306
積累	-10.8306
左氏傳	-10.8322
失於	-10.8325
萬幾	-10.8328
文章	-10.8332
委任	-10.8335
咨嗟	-10.8335
元龜	-10.8344
器物	-10.8352
河徙	-10.8355
凡此皆	-10.8356
數語	-10.8357
凶徳	-10.8358
注疏	-10.8358
之例	-10.8364
甲戌	-10.8365
二十九日	-10.8371
邠	-10.8372
舟楫	-10.8373
更有	-10.8375
亦通	-10.8377
好生	-10.8381
委曲	-10.8383
恫	-10.8383
囂	-10.8386
中和	-10.8388
誥命	-10.8388
桓水	-10.8389
所取	-10.8389
夏后氏	-10.8389
秩宗	-10.839
千乗	-10.8391
三句	-10.8391
足矣	-10.8391
訓迪	-10.8391
血氣	-10.8392
守成	-10.8396
先君	-10.8408
荆揚	-10.841
心術	-10.8411
士師	-10.8411
說文云	-10.8415
無功	-10.8422
所任	-10.8425
天降威	-10.8426
則無以	-10.8427
聖徳	-10.8427
文教	-10.8429
西序	-10.8434
九服	-10.8434
聖賢之	-10.8438
艮	-10.844
猶今	-10.8444
事理	-10.8445
躔	-10.8445
鴟	-10.8447
始封	-10.8449
漲	-10.845
天之罰	-10.845
此五者	-10.8451
試之	-10.8453
弘	-10.8453
四門	-10.8454
馮	-10.8458
錯亂	-10.8459
刑書	-10.8459
與天地	-10.846
釁	-10.846
黼扆	-10.8465
甲胄	-10.8466
逹于	-10.8474
人才	-10.8478
馬本作	-10.8481
萬物之	-10.8486
保安	-10.8488
采地	-10.849
聲音	-10.8497
擇其	-10.8498
百司	-10.8499
敬順	-10.8499
反下同	-10.8504
漢武	-10.8505
亦為	-10.8506
清明	-10.8509
之基	-10.851
:	-10.8512
晚	-10.8512
相反	-10.8513
洚	-10.8515
尉	-10.852
吹	-10.8527
多誥	-10.8531
元孫	-10.8532
水經注云	-10.8533
陳氏師凱曰	-10.8534
敉	-10.8535
颺	-10.8535
伻	-10.8537
澮	-10.8538
排	-10.8539
穿鑿	-10.8539
翦	-10.8539
農事	-10.854
以治之	-10.854
渙	-10.8541
過誤	-10.8542
競	-10.8543
穗	-10.8545
祧	-10.8546
開元	-10.8547
母弟	-10.8548
之輕重	-10.8549
之術	-10.8555
之辨	-10.8556
得名	-10.8556
諸書	-10.8557
孟春	-10.8559
𤼵源	-10.856
以證	-10.8561
大體	-10.8561
太室	-10.8564
四句	-10.8565
其詳	-10.8568
所係	-10.8569
光華	-10.8572
亦因	-10.858
三百六十五	-10.859
本文	-10.8592
轉而	-10.8592
授受	-10.8593
有才	-10.8595
之端	-10.8597
鳴球	-10.8609
五章	-10.8612
說見	-10.8613
良心	-10.8616
為之説	-10.8616
鄴	-10.8617
壘	-10.8618
歆	-10.8619
岍岐	-10.8622
武王崩	-10.8622
科斗	-10.8623
貶	-10.8624
顛倒	-10.8624
網	-10.8624
道徳	-10.8626
後漢書	-10.8628
快	-10.8629
凢	-10.8631
咨四岳	-10.8632
何獨	-10.8636
不顧	-10.864
永命	-10.8643
欲去	-10.8644
呂刑	-10.8646
間斷	-10.8647
保釐	-10.8648
言桀	-10.8649
上句	-10.8652
賜之	-10.8653
為彭蠡	-10.8654
始皇	-10.8655
未得	-10.8659
能勝	-10.866
湖口	-10.8661
大火	-10.8663
為患	-10.867
無所不至	-10.8675
豈特	-10.8675
周公之言	-10.8689
形勢	-10.8694
侮慢	-10.8697
禘	-10.8698
析城	-10.8698
非周公	-10.8698
邉	-10.8701
阪	-10.8704
穎	-10.8705
廟門	-10.8706
應劭	-10.8707
涵	-10.8708
趣	-10.8708
昭王	-10.8708
蒲姑	-10.871
禽獸	-10.8712
璣衡	-10.8712
蟻	-10.8712
㓕	-10.8713
数	-10.8713
繋	-10.8713
「	-10.8716
三俊	-10.8721
春夏	-10.8723
常情	-10.8725
教誨	-10.8728
朔日	-10.8731
而還	-10.8737
十五日	-10.8737
成帝	-10.8742
知所以	-10.8743
未然	-10.8744
錯簡	-10.8744
同穴	-10.8747
楚語	-10.875
已定	-10.8759
東注	-10.8759
開導	-10.8761
五臣	-10.8765
塞外	-10.8772
能行	-10.8775
侯國	-10.8778
姒	-10.8785
礙	-10.8788
認	-10.8791
藝文志	-10.8792
刈	-10.8794
輔成	-10.8794
五湖	-10.8795
鞏縣	-10.8795
目前	-10.8796
固當	-10.8796
䙝	-10.8797
演	-10.8797
言文武	-10.8798
剖	-10.8801
祗敬	-10.8803
庶獄庶慎	-10.8804
創業	-10.8807
也渭按	-10.8807
所主	-10.8811
軍旅	-10.8813
一里	-10.8815
山縣	-10.8816
何敢	-10.8818
汝心	-10.8818
告歸	-10.8819
臣妾	-10.8822
所封	-10.8822
終身	-10.8825
此一節	-10.8826
舊都	-10.8829
與否	-10.8841
南交	-10.8842
所不及	-10.8842
逺方	-10.8845
降格	-10.8847
室家	-10.8847
下下	-10.8848
本朝	-10.886
中氣	-10.886
六十四	-10.886
大降	-10.8864
為萬世	-10.8865
官刑	-10.8869
核	-10.8875
豬野	-10.8875
銳	-10.8876
何者	-10.8877
杖	-10.8878
見聖人	-10.8879
傑	-10.8879
師氏	-10.888
體統	-10.8881
糧	-10.8881
媯	-10.8881
訂	-10.8881
天工	-10.8882
莫大	-10.8882
逖	-10.8883
果能	-10.8883
吕氏祖謙曰	-10.8883
樸	-10.8883
析支	-10.8884
苛	-10.8884
逋逃	-10.8884
咸有一德	-10.8885
不敢知	-10.8886
殽	-10.8887
尭	-10.8888
厥終	-10.8895
置閏	-10.8896
重其事	-10.891
成臯	-10.8912
漢唐	-10.8914
名山	-10.8915
一朝	-10.8915
詩所謂	-10.8916
其敢	-10.8917
助祭	-10.8918
所以成	-10.892
難保	-10.8923
皆指	-10.8932
妾	-10.8933
六經	-10.8937
之義故	-10.8937
用徳	-10.8938
偽作	-10.8941
精微	-10.8944
琴	-10.8955
必有所	-10.8956
改正	-10.8956
鼠	-10.8959
勃	-10.8959
饋	-10.896
曰若稽古	-10.8963
乙丑	-10.8965
阼階	-10.8966
版	-10.8966
紛紛	-10.8966
豹	-10.8967
沾	-10.8967
犬戎	-10.8969
嵗月日	-10.8972
甚逺	-10.8972
之險	-10.8974
簒	-10.8974
晨	-10.8975
為中江	-10.8975
彩	-10.8976
者言之	-10.8979
怨詈	-10.898
陽城	-10.8986
班師	-10.899
禹功	-10.8991
顔師古	-10.8992
天下後世	-10.8992
也其曰	-10.8992
古文作	-10.8993
世本	-10.8993
安天下	-10.8995
而後可以	-10.8997
此義	-10.8997
馬牛	-10.8998
相合	-10.8998
敷布	-10.9006
河患	-10.902
兾	-10.9022
不識	-10.9032
千古	-10.9038
也惟其	-10.9041
典章	-10.9041
引書	-10.9042
無違	-10.9047
彗	-10.9047
當是時	-10.9048
超	-10.905
卞	-10.905
璆	-10.905
収	-10.9051
黻	-10.9054
毳	-10.9056
汲汲	-10.9057
十餘里	-10.9057
大司馬	-10.9058
隐	-10.9058
泝	-10.906
長子	-10.9064
浙江	-10.9065
列於	-10.9067
也王氏曰	-10.9068
死魄	-10.9069
太宰	-10.9069
立言	-10.907
何疑	-10.9073
上承	-10.9073
又東南	-10.9075
亦難	-10.9078
取法	-10.9081
罔攸	-10.9082
之所言	-10.9084
雷澤	-10.9091
惟在於	-10.9095
迷惑	-10.9098
孰為	-10.91
竊意	-10.9102
大龜	-10.9108
汝往	-10.911
治理	-10.9112
大旱	-10.9113
百五十里	-10.9114
石門	-10.9114
誓衆	-10.9115
千載	-10.9122
東郡	-10.9122
惑於	-10.9126
太蔟	-10.913
三里	-10.9131
穽	-10.9135
徼外	-10.9136
也又按	-10.9136
瓚	-10.9137
豕	-10.9137
䜛	-10.9142
𢎞農	-10.9143
五常之	-10.9145
以此知	-10.9146
京兆	-10.9146
纖	-10.9148
歡	-10.9149
知稼穡之艱難	-10.9149
未必然	-10.9151
答拜	-10.9153
彞倫	-10.9153
爾尚	-10.9153
而言曰	-10.9154
酒泉	-10.916
分野	-10.9161
相視	-10.9166
以是為	-10.9168
不死	-10.9169
考績	-10.917
九寸	-10.9174
賢君	-10.9179
光武	-10.9179
神農	-10.9187
澧水	-10.9188
誤矣	-10.9188
蘇氏謂	-10.9191
難曉	-10.9193
疆土	-10.9194
受顧命	-10.9196
其所以為	-10.9198
浙	-10.9203
少康	-10.9204
周家之	-10.9204
命畢公	-10.9204
十二次	-10.9205
山北	-10.9209
徐音	-10.9211
不得其所	-10.9214
人鬼	-10.9215
王樵曰	-10.9226
之可也	-10.9227
鶉	-10.9227
坊	-10.9228
熱	-10.923
㦲	-10.9233
微而	-10.9233
惻怛	-10.9234
地平天成	-10.9234
時乃功	-10.9235
戊申	-10.9235
三品	-10.9236
三江既入	-10.9236
乃祖乃父	-10.9237
恰	-10.9238
曲阜	-10.9238
莞	-10.924
孔頴達	-10.9242
稱帝	-10.9243
周公之心	-10.9245
戒王	-10.9245
必使	-10.9246
在兹	-10.926
北距	-10.9265
王曰封	-10.9267
君臣之間	-10.9281
省文	-10.9284
不仁	-10.9284
復辟	-10.9285
陳謨	-10.9292
新君	-10.9294
事業	-10.9299
平日	-10.9307
念哉	-10.931
翼日	-10.931
方千里	-10.9313
朕志	-10.9314
粉米	-10.9316
嶓	-10.9317
孔意	-10.9317
具區	-10.9318
𨗳	-10.9318
隸	-10.9319
匠	-10.9321
度數	-10.9322
燎	-10.9322
感應	-10.9324
師尹	-10.9327
攸好徳	-10.9327
濟濟	-10.9328
修治	-10.9332
儀刑	-10.9333
在河東	-10.9333
也雖然	-10.9344
危懼	-10.9344
震動	-10.9348
不祥	-10.9349
協和	-10.935
通稱	-10.9352
眷顧	-10.9354
貢物	-10.9364
東境	-10.9364
言之耳	-10.9367
文意	-10.9368
保惠	-10.9373
省察	-10.9374
夏后	-10.9376
初生	-10.9381
顔師古曰	-10.9384
之本意	-10.9386
日進	-10.9387
東光	-10.939
㦸	-10.9401
潭	-10.9401
酈注	-10.9403
千二百	-10.9405
殿	-10.9405
苞	-10.9406
鑑	-10.9408
告康叔	-10.9408
畨	-10.9409
閱	-10.9409
郫	-10.941
霽	-10.9413
之意謂	-10.9414
朽	-10.9415
弋	-10.9417
稽考	-10.9417
魁	-10.9418
乾坤	-10.9419
總言	-10.9422
妹邦	-10.9426
藁	-10.9426
禹臯陶	-10.9428
未可知	-10.943
郭璞云	-10.9433
啓迪	-10.9434
孝友	-10.9436
勉强	-10.945
主宰	-10.9457
代天	-10.9458
畢門	-10.9459
北條	-10.946
治人	-10.9462
不能敬	-10.9471
用工	-10.9476
豐鎬	-10.9477
塗山	-10.9478
于四海	-10.9479
《	-10.9484
盛德	-10.9486
放齊	-10.9487
宼	-10.949
未可以	-10.9491
徼	-10.9495
湔	-10.9496
夘	-10.9497
有功者	-10.9499
勾	-10.9501
証	-10.9502
朴	-10.9503
敖	-10.9505
江源	-10.9505
于闐	-10.9505
曲禮	-10.9505
嘗謂	-10.9507
很	-10.9507
爲天子	-10.9508
昆弟	-10.9511
太王王季	-10.9513
伏犧	-10.9513
華夏	-10.9515
弗弔	-10.9516
彛倫	-10.9517
級	-10.9518
師法	-10.9518
有極	-10.952
八十一	-10.9523
祀典	-10.9523
宅百揆	-10.9525
深思	-10.9526
其所居	-10.9529
以俟	-10.9534
二十八篇	-10.9534
遷洛	-10.9542
過失	-10.9543
思念	-10.9562
宗人	-10.9568
先哲王	-10.9569
將使	-10.9569
在河南	-10.9571
曰吁	-10.9571
湯崩	-10.9575
某事	-10.9579
妹	-10.9581
稾	-10.9583
常事	-10.9585
堂上之樂	-10.9585
東井	-10.9585
者不過	-10.9589
匹夫	-10.9589
細行	-10.9593
萊蕪	-10.9594
棣	-10.9594
七里	-10.9595
湛	-10.9596
輙	-10.9598
欠	-10.96
不存	-10.9605
相須	-10.9607
作乂	-10.9612
毗	-10.9612
畏懼	-10.9613
鮮食	-10.9614
而不變	-10.9616
澤藪	-10.9617
高明	-10.9626
先民	-10.9627
繼世	-10.9627
縣故城南	-10.9629
我后	-10.9637
二十六	-10.964
往征	-10.9645
三十年	-10.9646
致功	-10.965
荀	-10.9651
君臣相	-10.9652
陳留	-10.9656
漯水	-10.966
不偏	-10.9661
等處	-10.9661
命令	-10.9667
髙后	-10.9671
澨	-10.9673
為不善	-10.9674
秋冬	-10.9674
縣本漢	-10.9675
再三	-10.9677
鬲	-10.9685
宴	-10.9689
澗瀍	-10.9689
地平	-10.969
汙	-10.9693
髙宗肜日	-10.9693
恬	-10.9693
董氏鼎曰	-10.9694
嫡	-10.9694
優游	-10.9694
雕	-10.9694
民間	-10.9695
恢	-10.9696
水性	-10.9698
又南逕	-10.9699
錫之福	-10.9699
孔穎達	-10.9701
爵禄	-10.9702
㳟	-10.9703
五采	-10.9705
不孝不友	-10.9707
此論	-10.971
熊耳山	-10.9711
失道	-10.9712
殄絶	-10.9712
向背	-10.9715
孟門	-10.9723
懋勉	-10.9723
九載	-10.9724
乙未	-10.9725
仲冬	-10.9728
並屬	-10.9732
西漢水	-10.9736
嶧	-10.9737
凶人	-10.9737
孰能	-10.9744
五百餘里	-10.9745
降衷	-10.9747
淮南子	-10.9751
後代	-10.9755
八寸	-10.9755
今觀	-10.9756
聖人所以	-10.9757
私欲	-10.9757
途	-10.9784
仲尼	-10.9784
摯	-10.9785
鴟鴞	-10.9787
今文無古文有	-10.9787
清濁	-10.9788
繼自今	-10.9788
孔壁	-10.9789
磬錯	-10.9789
彭澤	-10.9789
溫	-10.979
𫝊云	-10.9791
金縢之書	-10.9793
六律	-10.9794
劓刵	-10.9794
巨室	-10.9794
楚子	-10.98
可耕	-10.9802
無射	-10.9802
南宫	-10.9805
奉承	-10.9813
迪知	-10.9825
相繼	-10.9825
有時而	-10.9826
之别名	-10.9826
感格	-10.9828
一歲	-10.9831
貴乎	-10.9832
五行傳	-10.9833
不能盡	-10.9839
百餘	-10.984
此説是也	-10.9847
家法	-10.9848
即下文	-10.9852
攷之	-10.9857
往伐	-10.9862
天地之間	-10.9865
大梁	-10.9872
朱圉	-10.9873
五十年	-10.9873
平水土	-10.9874
翁	-10.9874
梧	-10.9875
覃懐	-10.9877
逋	-10.9877
孥	-10.9877
雊雉	-10.9881
銜	-10.9881
概	-10.9882
衣裳	-10.9884
江陵	-10.9885
秘	-10.9885
悛	-10.9885
任土作貢	-10.9886
汚	-10.9886
効	-10.9888
虐政	-10.9889
杶	-10.9892
撫安	-10.9893
妹土	-10.9894
致政	-10.9897
傳記	-10.99
天下國家	-10.9902
郊廟	-10.9903
注引	-10.9904
異名	-10.9904
刑法	-10.9908
上宗	-10.9913
水害	-10.9914
漢屬	-10.9915
益州	-10.9915
語録	-10.9916
伐淮夷	-10.9919
太極	-10.9927
戒懼	-10.9928
有常刑	-10.993
傳授	-10.9933
薛氏	-10.9935
灼見	-10.9936
賢否	-10.9936
西廂	-10.9942
一定之	-10.9943
分為九	-10.9944
自成湯	-10.9949
陳戒	-10.9949
元老	-10.9959
矣於是	-10.9964
鐡	-10.9966
霜	-10.9967
象賢	-10.9968
砮	-10.9969
眇	-10.997
掖	-10.9973
戍	-10.9973
所犯	-10.9974
閣	-10.9975
揭	-10.9976
旺	-10.9977
叅	-10.9977
隣	-10.9978
日月之行	-10.9979
卷二	-10.998
妲己	-10.9981
噫	-10.9981
剥	-10.9981
塗炭	-10.9982
余謂	-10.9982
嘉靖	-10.9984
隨山刋木	-10.9985
林少穎	-10.9985
隄防	-10.9986
集大命	-10.9988
蔡沈	-10.999
十有三年	-10.9991
夷人	-10.9991
馬本	-10.9992
莫大于	-10.9993
反馬云	-10.9995
輔佐	-10.9998
之狀	-11.0001
陷於	-11.0012
故城在	-11.0015
疆理	-11.002
乆矣	-11.0023
六典	-11.0032
甚重	-11.0033
蘓氏	-11.0036
在雍州	-11.0044
妻子	-11.0045
好善	-11.0047
裕民	-11.0048
憲天	-11.0049
順從	-11.0053
二千五百	-11.0061
司牧	-11.0063
隰	-11.0063
瀾	-11.0063
盥	-11.0065
然後可	-11.0065
擭	-11.0065
刑戮	-11.0068
鄂	-11.0068
楛	-11.007
遍	-11.007
巡狩	-11.0073
恁地	-11.0073
庫	-11.0074
孥戮	-11.0075
嬖	-11.0076
▁吕氏曰	-11.0077
赫	-11.0077
交趾	-11.0083
傲上從康	-11.0084
呉氏曰	-11.009
黜殷命	-11.0097
施行	-11.0103
興師	-11.0104
沖子	-11.0111
親見	-11.0122
天下之理	-11.0126
變文	-11.0128
東逕	-11.013
連屬	-11.0132
廣平	-11.0139
氐	-11.0148
此條	-11.0154
唐志	-11.0155
圭瓚	-11.016
涼	-11.0167
癸亥	-11.0169
告君	-11.0169
逼	-11.017
響	-11.0171
必克	-11.0171
茨	-11.0172
日月五星	-11.0172
滱	-11.0173
慾	-11.0174
燄	-11.0176
賂	-11.0176
五篇	-11.0177
流放	-11.0177
誡	-11.0177
狥	-11.0179
邰	-11.0181
於是乎	-11.0182
少頴	-11.0182
敬承	-11.0183
天之威	-11.0188
我二人	-11.0188
不離	-11.0193
足以見	-11.0193
晢	-11.0193
伊川	-11.02
不雜	-11.0216
為君之道	-11.0217
三十日	-11.0219
曾氏曰	-11.022
然後知	-11.0228
河之南	-11.0234
求備	-11.024
廣運	-11.0241
在冀州	-11.0262
崤	-11.0264
低	-11.0265
貊	-11.0266
亳邑	-11.0267
唐書	-11.0268
淫泆	-11.0268
壑	-11.027
捍	-11.0271
西旅	-11.0272
箭	-11.0272
菁茅	-11.0276
不專	-11.0276
遁	-11.0277
秦始皇	-11.0278
休戚	-11.0283
太傅	-11.0284
皆出於	-11.0289
東晉	-11.0293
入於海	-11.0295
星鳥	-11.0298
大畧	-11.0305
以天下為	-11.0305
下大夫	-11.0313
并吉	-11.0315
不可不敬	-11.0317
小罪	-11.032
天子諸侯	-11.0321
咎徴	-11.0327
五等之	-11.0327
過郡	-11.0343
漢孔	-11.0348
下愚	-11.0349
漢書作	-11.0351
不救	-11.0355
菏水	-11.0361
伯父	-11.0362
嵩髙	-11.0362
大綱	-11.0363
嚌	-11.0364
翔	-11.0365
執事	-11.0365
裂	-11.0367
一代之	-11.0368
汎	-11.0369
六府三事	-11.037
威命	-11.037
探	-11.0372
碎	-11.0374
行其所無事	-11.0374
奢侈	-11.0378
這箇	-11.0378
一己之	-11.0379
殄滅	-11.0383
河朔	-11.0385
虢叔	-11.0387
喜怒	-11.0389
伏生書	-11.0392
勞苦	-11.0392
厥躬	-11.04
月日	-11.04
西土之人	-11.0401
爾衆士	-11.0403
其輕重	-11.0408
霍山	-11.0413
名之曰	-11.0415
不可輕	-11.0424
以成其	-11.0425
六寸	-11.0428
象刑	-11.0433
水入焉	-11.0434
秦州	-11.0438
先世	-11.0441
毛公	-11.0442
玉食	-11.0445
嗇夫	-11.0449
皇輿表	-11.0457
鴻溝	-11.0462
板	-11.0463
豈容	-11.0463
駁	-11.0466
圜	-11.0468
筵	-11.0469
胙	-11.047
巴郡	-11.047
遑	-11.0471
弃	-11.0471
絕	-11.0473
唱	-11.0473
嬪	-11.0473
險阻	-11.0475
綬	-11.0476
灉沮	-11.0476
蠢動	-11.0477
濰淄	-11.0478
瀕	-11.048
三澨	-11.0481
爾多士	-11.0481
中興	-11.0488
大中之道	-11.049
臣扈	-11.0491
忿疾	-11.0492
南條	-11.0495
周旋	-11.051
每州	-11.0513
兾州	-11.0514
以名篇	-11.0515
達于河	-11.0515
叛逆	-11.0519
殺武庚	-11.0527
愛君	-11.0528
荆公	-11.0538
十二律	-11.0539
簡編	-11.0544
烝民	-11.055
審矣	-11.0551
扑	-11.0556
祥刑	-11.0558
瀦	-11.0559
渝	-11.0564
堂下之樂	-11.0565
湍	-11.0566
翳	-11.0568
坦	-11.057
状	-11.0571
培	-11.0572
仁義禮智	-11.0574
勗	-11.0576
滎波	-11.0576
壅塞	-11.0577
香	-11.0577
形如	-11.0577
奠爵	-11.0577
地利	-11.0577
百五十	-11.0579
憝	-11.0579
粟米	-11.0585
檿絲	-11.0588
漢文帝	-11.059
其效	-11.0591
小乙	-11.0596
肉刑	-11.0597
怨咨	-11.06
周語	-11.0602
權衡	-11.0613
授時	-11.0618
中大夫	-11.0619
和平	-11.0621
歴試	-11.0622
吾身	-11.0634
泰誓三篇	-11.0635
救民	-11.0639
厚生	-11.0642
陽縣西北	-11.0645
雅州	-11.0653
第二十	-11.0661
格天	-11.0661
冬官	-11.0664
值	-11.0665
留後	-11.0666
吳氏	-11.0667
君天下	-11.0668
春秋傳	-11.0668
敬勞	-11.0668
塘	-11.0669
▁陳氏大猷曰	-11.0671
闡	-11.0673
河之北	-11.0673
杌	-11.0676
九百四十分日之	-11.0677
峯	-11.0677
把	-11.0678
安汝止	-11.0678
林鍾	-11.068
蓍龜	-11.0681
魯侯	-11.0681
皋陶	-11.0681
狠	-11.0682
肈	-11.0684
誑	-11.0686
祖已	-11.069
土圭	-11.0691
岱宗	-11.0695
神祗	-11.0703
歎美	-11.0703
猶且	-11.0705
可推	-11.0706
殷本紀	-11.0707
孫炎曰	-11.0716
學古	-11.0718
上之人	-11.0718
有無窮之	-11.0728
城在今	-11.0731
詳審	-11.0731
奉行	-11.0731
許商	-11.0734
逆命	-11.0757
岳州	-11.076
?	-11.0761
手足	-11.0768
軒	-11.0771
麥	-11.0772
夏氏	-11.0772
懈	-11.0774
㳂	-11.0776
鄧	-11.0776
莒	-11.0777
宛	-11.0777
乞	-11.0778
稚	-11.0779
商俗	-11.0781
廩	-11.0781
作民父母	-11.0785
推本	-11.0785
掘	-11.0785
有虞氏	-11.0786
五福六極	-11.0789
梗	-11.079
彭城	-11.0792
底績	-11.0795
勇智	-11.0796
在河北	-11.0799
尤甚	-11.0802
叔向	-11.0807
庶績	-11.0807
五氣	-11.0808
千七百	-11.0811
惟兹	-11.0818
偽書	-11.082
司馬遷	-11.0823
逆流	-11.0826
倣此	-11.0828
慙徳	-11.0846
天地之中	-11.0847
公卿大夫	-11.0852
大猷	-11.0853
訓誥	-11.0856
和順	-11.0858
諸侯來朝	-11.0859
元良	-11.0862
世變	-11.0866
亦未嘗	-11.0868
尚未	-11.0873
鼗	-11.0876
屠	-11.0876
此二句	-11.088
孳	-11.0886
弟子	-11.0887
癸酉	-11.0887
蘇軾	-11.0888
推廣	-11.0888
瓠	-11.0888
騭	-11.0889
驟	-11.0891
圻父	-11.0897
括地志云	-11.0904
沱水	-11.0911
億萬	-11.0913
盡力	-11.0913
曽子	-11.0924
千萬	-11.0925
舊臣	-11.093
先代	-11.0933
此又言	-11.0934
倣	-11.0942
升聞	-11.0945
徒見	-11.0952
等語	-11.0953
林鐘	-11.0977
本又作	-11.098
絶句	-11.0981
高祖	-11.0981
班氏	-11.0984
日夜	-11.0985
首受	-11.0987
灌溉	-11.0989
拯	-11.0994
衆庶	-11.0995
括地志	-11.0995
頂	-11.0996
水火木金	-11.0996
聨	-11.0998
贅	-11.0998
玉輅	-11.1005
純佑	-11.1005
鼓舞	-11.1008
雲中	-11.101
爾等	-11.101
郊社	-11.1012
湘水	-11.1014
全數	-11.102
本性	-11.1033
尊賢	-11.1034
太丁	-11.1034
縱欲	-11.1048
誠意	-11.1055
雖不同	-11.1064
子産	-11.1067
丹陽	-11.1067
舊說	-11.1073
什	-11.1076
可否	-11.1079
不敢輕	-11.1081
公羊傳	-11.1083
庾	-11.1084
想見	-11.1084
昭公	-11.1089
不堪	-11.109
常存	-11.1092
澶	-11.1094
為證	-11.1094
裹	-11.1095
厎績	-11.1095
飫	-11.1095
嗟歎	-11.11
譏	-11.1101
點	-11.1102
鄠縣	-11.1103
暮	-11.1104
遒	-11.1106
幄帳	-11.1108
巫蠱	-11.1113
愛敬	-11.1113
墠	-11.1113
后羿	-11.1114
石磬	-11.1116
十二辰	-11.1118
有扈氏	-11.112
南向	-11.1123
赤子	-11.1128
道里	-11.1129
曾子	-11.113
圖功	-11.1139
三千里	-11.1139
既畢	-11.1152
折而東	-11.1156
思永	-11.1156
輔君	-11.1157
王制云	-11.1159
咸寧	-11.1169
命于天	-11.117
矣又按	-11.1182
岷嶓	-11.1197
濼	-11.1204
駭	-11.1204
孔氏穎逹曰	-11.1209
拾	-11.1209
擅	-11.121
一周天	-11.121
趣馬	-11.1211
匭	-11.1211
暋	-11.1212
岀	-11.1212
墻	-11.1213
腥	-11.1214
嫉	-11.1215
縫	-11.1215
春秋傳曰	-11.1216
廵狩	-11.1217
河亶甲	-11.1217
金石	-11.1217
幼沖	-11.1218
盧氏	-11.122
沈潛	-11.1222
祖庚	-11.1224
晦朔	-11.123
為南江	-11.1233
祭告	-11.1235
永平	-11.124
居憂	-11.1245
其有不	-11.1256
不可違	-11.1257
平秩	-11.1269
海内	-11.127
千里之外	-11.1273
誠心	-11.1274
源委	-11.1275
與此同	-11.1275
王制曰	-11.1291
此一節書	-11.1293
月朔	-11.1296
數千里	-11.1309
鋒	-11.1311
荘	-11.1312
大司樂	-11.1314
鳥鼠同穴	-11.1316
憾	-11.1318
之類皆	-11.132
上上錯	-11.132
聊	-11.132
弭	-11.1324
促	-11.1326
諸侯之長	-11.1327
經綸	-11.133
顔色	-11.1334
地形	-11.1335
唐孔	-11.1337
建丑	-11.134
七百里	-11.1343
順理	-11.1345
兵刑	-11.1352
上洛縣	-11.1355
旻天	-11.1355
東坡曰	-11.1365
羣神	-11.1367
節氣	-11.1368
易曉	-11.1368
楊氏	-11.1374
與天合	-11.1374
錫禹	-11.138
討罪	-11.138
莫敢	-11.1392
古註	-11.1395
千五百里	-11.1401
昏迷	-11.1401
嵩	-11.1409
厥田	-11.1414
任官	-11.1415
奔告	-11.1416
桂	-11.1419
瓜	-11.1421
馨	-11.1422
蔡邕	-11.1423
稻	-11.1427
淸	-11.1427
曹州	-11.1428
捕	-11.1428
綂	-11.1429
醇	-11.1431
胡蘇	-11.1432
殛鯀	-11.1432
塗泥	-11.1433
陻	-11.1433
園	-11.1434
栝	-11.1435
叶	-11.1436
勿替	-11.1437
湯放桀	-11.1437
懦	-11.1438
溢為滎	-11.1438
淫朋	-11.1438
乍	-11.1438
所共	-11.1439
所繫	-11.144
列反	-11.1441
降威	-11.1442
冬至日	-11.1442
事畢	-11.1443
三危山	-11.1443
又次之	-11.1445
尺二寸	-11.1449
讒説	-11.1456
總結	-11.1459
休徴	-11.1461
金氏	-11.1465
句讀	-11.1474
予奪	-11.1474
少師	-11.1486
𤼵明	-11.1487
眷命	-11.1488
女子	-11.1489
列國	-11.149
公孤	-11.1502
疾病	-11.1511
全體	-11.1516
記載	-11.1518
耀	-11.1519
營洛邑	-11.1522
天吏	-11.1522
導岍	-11.1531
耽	-11.1531
郢	-11.1533
齊侯	-11.1536
参	-11.1538
髪	-11.154
日月所㑹	-11.154
些	-11.1541
鵠	-11.1541
矩	-11.1542
渡孟津	-11.1544
墉	-11.1544
廓	-11.1546
影響	-11.1546
叢脞	-11.1547
閎夭	-11.1548
鳥䑕	-11.1551
下雋	-11.1551
寡兄	-11.1551
餘分	-11.1553
沙州	-11.1555
譴告	-11.1556
僭差	-11.1557
照臨	-11.1559
十餘年	-11.156
都尉	-11.1565
二渠	-11.1573
經籍	-11.1576
有事於	-11.1577
二十八年	-11.1577
孫氏曰	-11.1582
一丈	-11.1583
五品	-11.1589
考翼	-11.1595
馬融云	-11.1602
三年不言	-11.1606
尚存	-11.1612
去就	-11.1628
簡易	-11.1639
蠡	-11.1641
涔	-11.1643
葉榆	-11.1645
有所歸	-11.1648
涿	-11.1648
莠	-11.1648
魚鼈	-11.165
名山大川	-11.1651
百神	-11.1653
䖏	-11.1653
卜吉	-11.1656
嚚	-11.1656
棐忱	-11.1657
董氏	-11.1658
虗	-11.1659
勒	-11.1659
綴衣虎賁	-11.166
愁	-11.1661
禄父	-11.1664
不悛	-11.1666
無過不及	-11.1666
語意	-11.1667
至于帝乙	-11.1667
上中下	-11.167
伯益	-11.1673
横渠	-11.1675
西階	-11.1676
西境	-11.1682
考證	-11.1688
井田	-11.169
味别	-11.1692
江沱	-11.1704
家語	-11.1717
一百二十里	-11.1717
革命	-11.1718
擇人	-11.172
往新邑	-11.172
留召公	-11.1722
二十三	-11.1727
厥邦	-11.174
隋志	-11.175
許氏	-11.1754
郭璞曰	-11.1757
柷敔	-11.1758
雩	-11.176
穎達	-11.1762
潯陽	-11.1763
末年	-11.1763
偕	-11.1765
蕤賔	-11.1765
浚儀	-11.1766
胤	-11.1766
蘇氏軾曰	-11.1767
不悟	-11.1768
泗沂	-11.177
鋭	-11.1772
祕	-11.1774
收斂	-11.1775
伋	-11.1775
兢兢	-11.1775
木鐸	-11.1775
草木鳥獸	-11.178
羣僕	-11.1785
臻	-11.1789
亮隂	-11.1791
琅玕	-11.1791
荒野	-11.1793
綱紀	-11.18
禹平水土	-11.18
春官	-11.1808
繫辭	-11.1817
西京	-11.1828
公羊	-11.1834
土性	-11.1837
宗彝	-11.1838
餉	-11.1859
吉康	-11.1859
忠臣	-11.1865
沔陽	-11.1866
危亡	-11.1866
允信	-11.1877
戛擊	-11.1877
浮磬	-11.1879
耦	-11.188
圭瓉	-11.1881
窒	-11.1882
癸巳	-11.1883
師古曰	-11.1883
夸	-11.1884
林氏之奇曰	-11.1885
麤	-11.1888
成王之命	-11.1889
駿	-11.1889
隳	-11.1889
諄	-11.189
犀	-11.1891
肄	-11.1892
耘	-11.1893
二水名	-11.1896
餞	-11.1897
丁巳	-11.1898
勃海	-11.1904
雍梁	-11.1904
永年	-11.1911
隋唐	-11.1914
淺深	-11.1917
廂	-11.1923
愼罰	-11.1925
主災	-11.1928
周邦	-11.1931
仲夏	-11.1932
腹心	-11.1932
黜殷	-11.1934
試舜	-11.1938
孝恭	-11.1938
陽鳥	-11.1945
終篇	-11.1945
犯法	-11.1946
衛侯	-11.195
灼然	-11.1951
威虐	-11.1963
伊尹之言	-11.1965
罔念	-11.1976
其大者	-11.1979
不可掩	-11.1981
黼黻	-11.199
壹	-11.1998
荼	-11.1998
不敢忽	-11.2
謹罰	-11.2001
支流	-11.2002
恆	-11.2002
霖雨	-11.2003
加之以	-11.2003
𥘉	-11.2004
血流漂杵	-11.2004
抗	-11.2004
罕	-11.2005
綦	-11.2005
麴	-11.2006
渴	-11.2007
深逺	-11.2007
詭	-11.2008
陑	-11.2009
遷殷頑民	-11.201
簡核	-11.2011
瘠	-11.2012
緘	-11.2012
甲寅	-11.2014
服食器用	-11.2015
扶持	-11.2016
化育	-11.2029
財賦	-11.2035
淄水	-11.2038
禪位	-11.204
蝕	-11.2044
何自而	-11.2048
對揚	-11.2074
宗祀	-11.2083
盪	-11.2116
濡	-11.2118
浩浩	-11.2119
齡	-11.2119
髮	-11.2121
芻	-11.2121
猾	-11.2125
㧞	-11.2127
劣	-11.2128
相率而	-11.2129
朝至于洛	-11.213
厯家	-11.2131
州境	-11.2132
縂	-11.2132
十有三載	-11.2134
羲仲	-11.2136
牽牛	-11.2136
曽孫	-11.214
即位之初	-11.2144
叛亂	-11.2145
許慎	-11.2151
理之所	-11.2161
童子	-11.2162
改悔	-11.2173
濁漳	-11.218
命君陳	-11.2181
貫通	-11.2202
呂氏	-11.2202
天禄	-11.2206
正救	-11.2212
日月星	-11.2215
不敢違	-11.2221
敬之哉	-11.223
瑟	-11.2235
狩	-11.2237
鄒季友曰	-11.2238
麻冕	-11.2239
轍	-11.224
陸渾	-11.224
公侯伯子男	-11.2242
討有罪	-11.2243
康誥酒誥梓材	-11.2244
練	-11.2244
郤	-11.2244
耻	-11.2244
填	-11.2245
鄭元	-11.2245
卬	-11.2245
欣	-11.2245
翰	-11.2245
詛	-11.2246
璿	-11.2246
格于皇天	-11.2246
律厯志	-11.2248
一日二日	-11.2249
知小人之依	-11.225
慎徽五典	-11.225
巻	-11.2252
社稷宗廟	-11.2257
紊亂	-11.2259
亳姑	-11.2261
淮夷徐戎	-11.2262
斷絶	-11.2262
宏父	-11.2263
改正朔	-11.2267
怠荒	-11.227
太僕正	-11.2285
通典云	-11.229
養老	-11.2297
此說是也	-11.2298
定四年	-11.2306
大猷曰	-11.2319
尋常	-11.233
武陵	-11.2332
南康	-11.2333
諸侯之國	-11.2346
民而民	-11.235
旅祭	-11.2352
活	-11.2361
迨	-11.2364
丙午	-11.2364
幕	-11.2366
蹈行	-11.2366
伺	-11.2366
撥	-11.2367
戞	-11.2367
慿	-11.2367
類于上帝	-11.2367
以禮制心	-11.2368
肥瘠	-11.2369
鶉火	-11.2369
淮浦	-11.237
詈	-11.237
毫髪	-11.237
前寧人	-11.237
幻	-11.2371
胷	-11.2372
而不自知	-11.2373
君子小人	-11.2374
緩急	-11.2375
明徳慎罰	-11.2376
文武成康	-11.2377
仲吕	-11.238
唐太宗	-11.238
誅戮	-11.2387
卽位	-11.2392
參差	-11.2395
敷奏	-11.2395
宣布	-11.2403
怠忽	-11.2411
千乘	-11.2413
短長	-11.2416
賢俊	-11.2416
嗟嘆	-11.2427
章句	-11.2428
旁求	-11.243
亂治也	-11.2433
説文云	-11.244
惟其人	-11.2448
相背	-11.2461
盡其心	-11.2461
涪	-11.2468
蘆	-11.2473
郊特牲	-11.248
雌	-11.2487
三宅三俊	-11.2487
坑	-11.2487
側陋	-11.2488
楨榦	-11.2489
曆	-11.2489
疊	-11.2489
黥	-11.249
冊命	-11.2491
司徒司馬司空	-11.2492
蒸	-11.2492
酬	-11.2493
奎	-11.2493
弼成五服	-11.2493
添	-11.2494
賡歌	-11.2495
山古文以為	-11.2497
圭璧	-11.2499
隲	-11.2503
逺邇	-11.2521
無自而	-11.2528
歌詠	-11.2537
互文	-11.2555
兵車	-11.2556
昭著	-11.2568
黄氏	-11.2571
賢材	-11.2585
承王命	-11.259
壚	-11.2606
鉅	-11.2609
菴	-11.2609
壺	-11.2609
榭	-11.261
臼	-11.2611
纊	-11.2612
標準	-11.2613
菁	-11.2614
迤邐	-11.2614
罽	-11.2615
荷	-11.2615
漠	-11.2616
狃	-11.2617
玉磬	-11.262
盾	-11.2622
諟	-11.2624
啇	-11.2625
盧氏縣	-11.2633
七十五	-11.2637
何待	-11.2637
區處	-11.2638
幽并	-11.2639
敎化	-11.2641
尤不可	-11.2647
百四十里	-11.2648
自然之理	-11.2649
休祥	-11.2651
行天罰	-11.2651
皇極之道	-11.2675
果斷	-11.2676
視聴	-11.2677
西安府	-11.2679
兩句	-11.2687
仁愛	-11.2698
又北逕	-11.2726
叟	-11.2728
成憲	-11.2729
狀如	-11.273
正月上日	-11.2737
田獵	-11.2737
承上文	-11.274
廡	-11.274
北岸	-11.274
未知孰是	-11.2741
粉	-11.2741
翻	-11.2743
以義制事	-11.2743
垢	-11.2743
碞	-11.2744
黄氏度曰	-11.2744
扇	-11.2745
揉	-11.2746
荅拜	-11.2746
秦穆公	-11.2747
犍為	-11.2747
柘	-11.2748
仆	-11.2749
畱	-11.275
无	-11.2751
沈溺	-11.2752
明堂位	-11.2756
並列	-11.2758
敎誨	-11.276
安其居	-11.2763
其實一也	-11.2766
相揖	-11.2774
縣故城北	-11.2777
南嚮	-11.2788
西夾	-11.2799
晉侯	-11.2829
愼厥	-11.2829
林少頴	-11.2842
雁	-11.2852
沫	-11.2854
鉤	-11.2859
蕪湖	-11.2862
羔	-11.2864
鄖	-11.2865
境内	-11.2869
騰	-11.2869
虎蜼	-11.2869
慘	-11.2871
遹	-11.2873
寐	-11.2873
側階	-11.2874
梅賾	-11.2874
簣	-11.2875
灉水	-11.2875
慚	-11.2876
製	-11.2877
應鍾	-11.2884
典籍	-11.2885
天文志	-11.2888
感召	-11.2895
分為三	-11.2901
貞觀	-11.2905
樂記	-11.2908
艱食	-11.2909
貨利	-11.291
哉生魄	-11.2919
龍門山	-11.2919
文選	-11.2923
申戒	-11.2926
偽泰誓	-11.2933
五瑞	-11.2934
白馬	-11.2945
後嗣王	-11.2948
殷多士	-11.2948
言此者	-11.2958
感神	-11.2959
羌中	-11.2961
示天下	-11.2965
深切	-11.297
謀慮	-11.2971
礫	-11.2983
搏拊	-11.2986
嬴	-11.2992
殂落	-11.2994
舅	-11.2994
脉絡	-11.2994
鬱陶	-11.2995
額	-11.2996
蒐	-11.2997
致辟	-11.2997
帝王世紀	-11.2997
搏	-11.2997
柩	-11.2997
秬	-11.2998
閎	-11.2998
桃林	-11.2999
擊刺	-11.3
賔客	-11.3001
棘	-11.3001
斟酌	-11.3002
護	-11.3002
嚻	-11.3002
愍	-11.3003
凛	-11.3003
卉服	-11.3004
誇	-11.3004
緝	-11.3005
織貝	-11.3008
脱簡	-11.3009
導弱水	-11.3011
蕩析離居	-11.3011
通鑑	-11.3013
韶樂	-11.3014
贖罪	-11.3027
炎帝	-11.304
晚出	-11.304
憂民之	-11.3041
顧氏云	-11.3043
取幣	-11.3046
織文	-11.3055
忠直	-11.3055
河東郡	-11.3065
農父	-11.3065
一叚	-11.3073
渭洛	-11.3087
天子之位	-11.3098
黔	-11.3101
䇿書	-11.311
粒	-11.3111
蠙	-11.3115
瓦	-11.3116
函	-11.3123
淑	-11.3124
灾	-11.3126
倘	-11.3128
孔氏頴達曰	-11.3129
尚書注疏卷	-11.3129
千五百	-11.3129
應門之内	-11.313
碑	-11.313
住	-11.313
泆	-11.3131
餘里	-11.3131
鬱鬯	-11.3132
様	-11.3133
潦	-11.3136
廻	-11.3136
纘	-11.3137
惟有司之牧夫	-11.3138
件	-11.3139
左右前後	-11.3143
歷年	-11.3143
柴望	-11.3144
刑人殺人	-11.3144
毛傳	-11.3151
昧谷	-11.3151
登庸	-11.3163
嶧山	-11.3167
有成命	-11.3167
長乆	-11.3168
獄訟	-11.3192
倫理	-11.3207
玩物	-11.3208
罰殛	-11.3212
輔助	-11.3222
竹簡	-11.3224
四十八	-11.3234
敔	-11.3248
髳	-11.3249
電	-11.325
天地萬物	-11.3251
禹貢錐指	-11.3255
赤刀	-11.3258
芻茭	-11.3259
𣲖	-11.326
浹	-11.326
騂	-11.3261
慨	-11.3262
埋	-11.3263
儼	-11.3263
片	-11.3264
呈	-11.3265
構	-11.3266
祫	-11.3266
員	-11.3268
夏翟	-11.3268
宕渠	-11.3268
器械	-11.3269
殁	-11.327
卿士師尹	-11.327
寖	-11.3271
劫	-11.3271
覃懷	-11.3272
咎徵	-11.3272
慄	-11.3272
隴西郡	-11.3273
治梁及岐	-11.3273
頃刻	-11.3273
青衣	-11.3274
㳺	-11.3275
億兆	-11.3278
自今以往	-11.3286
為口實	-11.3288
蔡蒙	-11.3289
田畝	-11.3289
海濵	-11.329
休徵	-11.3293
正義引	-11.3297
若順也	-11.3314
荆岐	-11.3317
戎夷	-11.3318
武昌	-11.3328
滔	-11.3374
控	-11.3376
鳯凰	-11.3391
蘄	-11.3391
三朡	-11.3393
魂	-11.3396
肅慎氏	-11.3396
减	-11.3396
凶短折	-11.3398
佳	-11.3398
劼毖	-11.3398
錫土姓	-11.3399
禹曰俞	-11.3399
殳	-11.3401
垂拱	-11.3403
囘	-11.3403
尚書全解卷	-11.3404
早晚	-11.3404
諶	-11.3404
東西南北	-11.3407
朝夕納誨	-11.3407
甲乙	-11.3409
貞悔	-11.3409
藉口	-11.3421
宗社	-11.3421
罔覺	-11.3426
親九族	-11.3427
錫福	-11.3433
氣盈	-11.3434
周本紀	-11.3451
清廟	-11.3452
脅從	-11.3453
溝洫志	-11.3457
仲秋	-11.3467
顔子	-11.3482
睢陽	-11.3492
誥毖	-11.3505
各盡其	-11.3511
謨明弼諧	-11.3527
陛	-11.3527
彪	-11.3528
村	-11.3528
羡	-11.353
逾于河	-11.353
湧	-11.3532
挽	-11.3533
樊	-11.3536
默	-11.3537
歲月日	-11.3537
棟	-11.3538
倖	-11.3538
臨淮	-11.3539
沮洳	-11.354
閟	-11.3541
挈	-11.3541
吕氏春秋	-11.3541
光輝	-11.3542
蛇	-11.3542
百夫長	-11.3543
撓	-11.3544
千六百	-11.3547
竟陵	-11.355
外丙	-11.3552
載籍	-11.3553
惇厚	-11.3557
王屋山	-11.3563
都鄙	-11.3564
寳玉	-11.3566
商頌	-11.3571
莊子	-11.3578
三百餘里	-11.3588
致太平	-11.3597
忠誠	-11.3604
舊迹	-11.3614
九州之内	-11.3624
濮州	-11.3625
所以然者	-11.3649
圎	-11.3662
瓉	-11.3665
閼	-11.3668
獵	-11.3669
東為北江入于海	-11.3669
諷	-11.3671
三百六十五度四分度之一	-11.3671
反注同	-11.3672
潁川	-11.3673
刖	-11.3674
掠	-11.3674
篠	-11.3675
髀	-11.3675
館	-11.3676
圉	-11.3676
熊羆	-11.3677
殄戮	-11.3677
訖于四海	-11.3678
九州攸同	-11.3678
傅巖	-11.3678
腥穢	-11.3678
蔓	-11.3678
柳	-11.368
筭	-11.368
股肱耳目	-11.368
浞	-11.3681
眷佑	-11.3681
入于南海	-11.3682
厄	-11.3682
辦	-11.3683
懲創	-11.3683
顛覆	-11.3684
嵗一見	-11.3684
定陶縣	-11.3685
勉勵	-11.3686
幣帛	-11.3688
掌六師	-11.3692
納誨	-11.3693
星宿	-11.3695
郡國志	-11.3716
符節	-11.3716
長幼	-11.3735
夾輔	-11.3741
太行山	-11.378
晁	-11.3796
柷	-11.3798
天之聰明	-11.3798
枝江縣	-11.3802
嚳	-11.3809
港	-11.3811
琳	-11.3812
嫁	-11.3812
九江孔殷	-11.3814
裴	-11.3814
昜	-11.3816
摶	-11.3816
亹	-11.3816
届	-11.3817
悶	-11.3817
侍御僕從	-11.3817
俘	-11.3818
終南惇物	-11.3818
絀	-11.3818
今商王受	-11.3819
閻	-11.3819
爕	-11.3819
頗僻	-11.382
札	-11.3821
眩	-11.3821
剪	-11.3822
優劣	-11.3822
陜州	-11.3822
凌	-11.3822
導洛自熊耳	-11.3822
胎	-11.3823
動用非	-11.3826
諺	-11.3826
縣故城西	-11.383
振旅	-11.3833
海岱	-11.3833
刋木	-11.3834
城郭	-11.3837
湯之伐桀	-11.3838
徃徃	-11.3839
我亦不敢	-11.3839
報誥	-11.3849
清漳	-11.3854
告諭	-11.3857
文武受命	-11.386
爾有衆	-11.3889
又東北過	-11.39
命重黎	-11.3926
相表裏	-11.3934
曾氏	-11.394
莊公	-11.3946
滇池	-11.3946
滇	-11.3948
仲叔	-11.3949
坂	-11.3952
肝	-11.3952
華容縣	-11.3953
齊桓公	-11.3954
陣	-11.3956
腐	-11.3956
胎簪	-11.3957
汗	-11.3958
縛	-11.3959
笥	-11.396
頴達	-11.396
昩	-11.3962
杵	-11.3962
密邇	-11.3962
巷	-11.3963
謚	-11.3963
友邦冢君	-11.3963
𦵏	-11.3963
帖	-11.3964
復子明辟	-11.3964
晁錯	-11.3964
有闕文	-11.3964
年而崩	-11.3965
鬭	-11.3966
踐履	-11.3969
索隱	-11.3971
先後之序	-11.3971
懈怠	-11.3973
男女	-11.3973
懲戒	-11.3974
二十二人	-11.3976
玉帛	-11.3976
能事鬼神	-11.3979
宗彞	-11.398
翼室	-11.3982
周禮職方氏	-11.3984
學校	-11.3986
豈復有	-11.3987
惇物	-11.3993
罔愆	-11.3995
條目	-11.4001
靡常	-11.4003
幾微	-11.4004
田野	-11.4008
諧和	-11.4011
伐奄	-11.4022
堅固	-11.4047
月三日	-11.4061
湎酒	-11.4088
瀛	-11.4093
場	-11.4096
贏	-11.4096
頴	-11.4097
籩	-11.4097
天地鬼神	-11.4098
程大昌	-11.41
象以典刑	-11.41
漢書地理志	-11.4101
慼	-11.4101
沬	-11.4101
橫	-11.4102
閘	-11.4102
皇建其有極	-11.4103
箘簵	-11.4103
旌旗	-11.4103
鹽梅	-11.4103
張皇六師	-11.4103
訾	-11.4103
貨賄	-11.4104
欽明文思	-11.4104
百獸率舞	-11.4104
驩兠	-11.4106
胸	-11.4106
伊水出	-11.4106
應鐘	-11.4107
一篇之綱領	-11.4107
咸秩無文	-11.4107
王應麟曰	-11.4108
森	-11.4109
宻邇	-11.411
父師少師	-11.411
百官族姓	-11.411
刵	-11.4111
史録其	-11.4113
律和聲	-11.4115
陳少南	-11.4116
漸染	-11.4118
好生之徳	-11.412
飲福	-11.412
嘆息	-11.4121
非汝封	-11.4124
覆冒	-11.4124
十有五	-11.4128
粒食	-11.4128
牽合	-11.413
餘波	-11.4136
西傾山	-11.4139
班志	-11.4146
黃帝	-11.4149
國之君	-11.415
百六十	-11.416
穆卜	-11.4162
殷之賢	-11.4194
傅氏	-11.4195
孫炎	-11.4204
邵子	-11.4207
巾	-11.4239
趾	-11.4241
吞	-11.4241
南入于江	-11.4244
黽	-11.4246
百八十里	-11.4247
敬授人時	-11.4247
妣	-11.4247
成厥功	-11.4247
乙夘	-11.4247
湊	-11.4248
吐谷渾	-11.4248
沽	-11.4249
其如台	-11.4249
賓客	-11.4249
檀弓	-11.4249
居東二年	-11.425
摹	-11.425
穎逹	-11.425
遊畋	-11.425
九域志	-11.4251
掃	-11.4251
堲	-11.4252
旁死魄	-11.4255
克終允徳	-11.4255
標凖	-11.4256
宗廟社稷	-11.4256
課	-11.4256
晉文侯	-11.4258
斥鹵	-11.4258
竄三苗	-11.4263
涵養	-11.4263
律吕	-11.4264
頓丘	-11.4268
博昌	-11.4273
俊乂	-11.4276
句龍	-11.4278
巫賢	-11.428
宋儒	-11.428
昊	-11.433
災祥	-11.4357
兌	-11.4381
頮	-11.439
蒙羽	-11.4391
沁	-11.4392
琅	-11.4393
流宥五刑	-11.4394
浴	-11.4395
忸怩	-11.4397
辟疑赦	-11.4397
教胄子	-11.4398
聿	-11.4398
剔	-11.4399
筍	-11.4399
求多聞	-11.4399
偷	-11.44
過三澨	-11.4401
璜	-11.4401
燒	-11.4401
古人有言曰	-11.4402
燔柴	-11.4402
料	-11.4402
金作贖刑	-11.4402
新安胡氏曰	-11.4404
時氏瀾曰	-11.4405
侯甸男衛	-11.4405
各率其	-11.4407
敵讎	-11.4407
膂	-11.4407
汴渠	-11.4408
躋	-11.4408
蒲坂	-11.441
亮采	-11.4417
羲和之罪	-11.4418
羣吏	-11.4423
迪哲	-11.4434
升歌	-11.444
篤厚	-11.4442
古我先王	-11.4443
單辭	-11.4453
矜伐	-11.4461
理之自然	-11.4476
而納之	-11.4523
輝	-11.454
贑	-11.4542
治直吏反	-11.4543
〇	-11.4544
迆	-11.4544
芟	-11.4546
澠池	-11.4549
瞿	-11.4549
王氏安石曰	-11.455
洫	-11.455
聱牙	-11.455
論道經邦	-11.455
匈奴	-11.4551
糞	-11.4552
槐	-11.4552
圃	-11.4552
殫	-11.4552
婚	-11.4552
遘	-11.4553
十有一年	-11.4553
雀弁	-11.4553
漬	-11.4553
輟	-11.4554
肇稱殷禮	-11.4554
樏	-11.4555
諂	-11.4555
三年之喪	-11.4556
之外别有	-11.4557
洋洋	-11.4557
世變風移	-11.4558
嚚訟	-11.4559
天乃錫禹洪範九疇	-11.456
墨劓	-11.4561
冊祝	-11.4563
濟南府	-11.4563
平陽府	-11.4564
越三日	-11.4566
大行人	-11.457
肅愼	-11.4578
十六篇	-11.4593
舊染	-11.4594
海隅	-11.4598
本然之	-11.4635
入于渭	-11.4656
沭	-11.4688
蚌	-11.4692
正義曰地理志云	-11.4693
蔚	-11.4697
鐸	-11.4697
妃	-11.4698
崑	-11.4699
淞	-11.4699
肺	-11.47
聲依永	-11.47
柯	-11.4701
東匯澤為彭蠡	-11.4702
珪	-11.4702
迅	-11.4702
庚寅	-11.4703
㡳	-11.4704
撮	-11.4704
玉五重	-11.4704
旂	-11.4705
濯	-11.4706
鬻	-11.4708
寂	-11.4708
頑嚚	-11.4708
扺	-11.4708
着	-11.4708
文子文孫	-11.4709
龜從筮	-11.4709
粢	-11.471
率西方諸侯	-11.4711
泛溢	-11.4712
有官君子	-11.4712
涇屬渭汭	-11.4713
齊七政	-11.4717
斮	-11.4718
儒林傳	-11.4718
虞廷	-11.4719
稷契臯陶	-11.4722
至于大别	-11.4726
耀州	-11.4731
僚屬	-11.4734
一人之身	-11.4745
一百一十	-11.4753
日蝕	-11.4802
詠歌	-11.481
此二節書是	-11.4831
嗣前人	-11.4835
鄆	-11.4843
騎	-11.485
廿	-11.4851
旒	-11.4854
鹿臺	-11.4856
三郊三遂	-11.4858
䧏	-11.4858
建子之月	-11.4859
糗糧	-11.4859
羮	-11.4859
揮	-11.486
剝	-11.486
异	-11.4861
砂	-11.4861
肢	-11.4861
單環	-11.4861
彊弗友	-11.4862
四十六卷	-11.4862
覈	-11.4862
釋言云	-11.4862
龍門西河	-11.4862
三分天下有其二	-11.4863
奕	-11.4864
隨山濬川	-11.4864
散宜生	-11.4865
允執厥中	-11.4865
耨	-11.4866
像	-11.4866
彜	-11.4866
㬥	-11.4866
闢四門	-11.4867
伏生所傳	-11.4868
疆域	-11.4868
合而為一	-11.4868
天難諶	-11.4868
同惡相濟	-11.487
怡	-11.487
修人紀	-11.487
脛	-11.487
忱恂	-11.4871
師衆也	-11.4871
憎	-11.4871
枚卜	-11.4872
訊	-11.4872
縢	-11.4873
乂王家	-11.4878
帝念哉	-11.4879
二十四氣	-11.488
管仲	-11.4886
漯川	-11.4891
千八百	-11.4891
頑愚	-11.4908
阜城	-11.4934
十八里	-11.4951
營成周	-11.4962
槀	-11.5004
鼖	-11.5005
兊	-11.5011
磧	-11.5012
伊洛瀍澗	-11.5017
朗	-11.5018
爛	-11.5018
大統未集	-11.502
播為九河	-11.502
瑶琨	-11.5021
昃	-11.5022
塈	-11.5022
三百四十八	-11.5023
孔子序書	-11.5023
周公攝政七年	-11.5024
骨肉	-11.5024
粲	-11.5025
殉	-11.5025
臯陶謨益稷	-11.5025
旌别淑慝	-11.5026
賈讓	-11.5027
詆	-11.5027
不敢侮鰥寡	-11.5028
鄆州	-11.5029
所其無逸	-11.5031
東武陽	-11.5037
二十一日	-11.5042
河自積石	-11.5047
踰年	-11.5053
十三里	-11.5091
琅邪	-11.5168
棗	-11.5168
以今輿地言之	-11.5174
福善禍淫	-11.5178
埤	-11.5179
堤	-11.518
濤	-11.5181
六府孔修	-11.5181
弄	-11.5181
賈誼	-11.5181
五十九篇	-11.5183
輴	-11.5184
克明俊徳	-11.5184
幄	-11.5184
雘	-11.5184
顓	-11.5185
淆	-11.5185
魏晉間	-11.5185
懫	-11.5185
兜	-11.5186
鬬	-11.5186
喜怒哀樂	-11.5186
漆沮既從	-11.5186
降丘宅土	-11.5187
百六十里	-11.5187
齬	-11.5187
種藝	-11.5189
綺	-11.5189
釋言文	-11.519
仍几	-11.5191
偹	-11.5192
卿士庶民	-11.5193
不剛不柔	-11.5193
傲慢	-11.5194
酗酒	-11.5195
盍	-11.5196
致仕	-11.5199
敷五教	-11.52
危殆	-11.5204
暘谷	-11.5205
古先哲王	-11.5206
零陵	-11.5218
上曲陽	-11.522
》。	-11.5228
境界	-11.5235
新安陳氏	-11.529
情狀	-11.5297
朐	-11.5334
雎	-11.5334
衙	-11.5338
過九江至于東陵	-11.5339
坰	-11.534
跋	-11.5341
董仲舒	-11.5342
莭	-11.5342
朱虎熊羆	-11.5343
自北而南	-11.5343
靡靡	-11.5343
凡厥庶民	-11.5344
懍	-11.5344
刪丹	-11.5344
陟方乃死	-11.5344
薪	-11.5345
篠簜	-11.5346
肆命徂后	-11.5347
作大邑	-11.5347
申氏時行曰	-11.5347
恭行天之罰	-11.5347
旦夕	-11.5348
彖	-11.5348
煖	-11.5348
燮友	-11.5348
筐	-11.5349
聳動	-11.5349
膠鬲	-11.535
㷀	-11.535
汩	-11.5351
纉	-11.5352
岷山導江	-11.5352
導河積石	-11.5352
岌	-11.5354
唐虞三代	-11.5355
司㓂	-11.5356
絶地天通	-11.5357
汝惟小子	-11.5357
恭黙思道	-11.5362
鑿龍門	-11.5365
首至地	-11.5366
藍	-11.5368
轉移	-11.5369
魚臺	-11.5371
牛羊	-11.5384
自絶于天	-11.5417
北極出地	-11.5498
譁	-11.5503
斛	-11.5504
搜	-11.5507
羈縻	-11.5507
葵	-11.5508
歳月日	-11.5508
雊	-11.5508
導岍及岐	-11.5508
箾	-11.5508
輿地記	-11.5509
擊石拊石	-11.551
㪚	-11.5511
卿士惟月	-11.5512
師尹惟日	-11.5512
溥	-11.5512
慆	-11.5512
戀	-11.5514
花	-11.5514
夾右碣石入于河	-11.5514
勁	-11.5515
糓	-11.5516
金縢之匱	-11.5516
沐	-11.5516
薰	-11.5516
摘	-11.5516
現	-11.5518
班瑞	-11.5519
山龍華蟲	-11.5519
彘	-11.5519
輝光	-11.552
莫先於	-11.552
四海㑹同	-11.552
耐	-11.5522
髙山大川	-11.5525
士毅	-11.5526
咎單	-11.5526
馬融王肅	-11.5529
條支	-11.5529
多士多方	-11.5553
折而北	-11.558
卿大夫士	-11.5608
若之何	-11.5646
祖考來格	-11.5667
𤓰	-11.5671
戈矛	-11.5672
見形甸反	-11.5675
襄陽府	-11.5676
宦	-11.5676
袤	-11.5676
槎	-11.5676
元王天與撰	-11.5676
讙	-11.5677
柔逺能邇	-11.5677
吿	-11.5677
覇	-11.5678
制禮作樂	-11.5678
箘簵楛	-11.5679
欽厥止	-11.568
鏡	-11.568
崐崘	-11.568
三昭三穆	-11.5681
復歸于亳	-11.5681
匣	-11.5682
銷	-11.5683
祝融	-11.5683
恐懼修省	-11.5683
復扶又反	-11.5683
内有百揆四岳	-11.5684
删	-11.5684
譸	-11.5685
涌	-11.5685
惟正之供	-11.5686
今朕必往	-11.5686
模	-11.5686
噬	-11.5687
蚤	-11.5687
逝	-11.5688
庶績咸熙	-11.5688
十有三祀	-11.5689
澆	-11.569
皐陶謨	-11.569
烝烝	-11.5691
雨𤾉燠寒風	-11.5691
乖戾	-11.5692
升遐	-11.5694
牖間	-11.5694
規矩	-11.5696
結繩	-11.5699
㣲子之命	-11.5703
翰林院	-11.5707
沱濳	-11.5761
彈	-11.5842
遡	-11.5847
仙	-11.5847
閱實其罪	-11.5847
湟	-11.5847
尚書纂傳卷	-11.5848
泌	-11.5848
尼	-11.5848
沱潛既道	-11.5849
河渠書	-11.585
戊辰王在新邑	-11.5851
笴	-11.5852
局	-11.5852
與孔異	-11.5852
侔	-11.5852
東流為漢	-11.5853
遞	-11.5853
謐	-11.5854
蠻夷猾夏	-11.5854
斨	-11.5855
沈酗于酒	-11.5855
我生不有命在天	-11.5856
不矜不伐	-11.5856
涕	-11.5857
撲滅	-11.5858
遯于荒野	-11.5859
握	-11.586
懔	-11.586
篡	-11.586
一二三四	-11.586
諞	-11.586
伊陟臣扈	-11.5861
雨暘燠寒風	-11.5862
胥靡	-11.5863
受命于周	-11.5863
誚	-11.5863
你	-11.5865
楣	-11.5866
平秩東作	-11.5867
顔氏曰	-11.587
聞于上帝	-11.5874
蘓	-11.593
。「	-11.5934
兑	-11.6004
瀰漫	-11.6018
蹟	-11.6019
南條荆山	-11.602
禫	-11.602
綴輅	-11.6022
舂	-11.6023
欽定四庫全書尚書纂傳卷	-11.6024
九河既道	-11.6024
庖	-11.6024
雲土夢作乂	-11.6024
淹	-11.6025
嘉陵江	-11.6026
崔	-11.6027
侯甸男衞	-11.6027
葱嶺	-11.6029
三危既宅	-11.603
􁀾	-11.603
𨼆	-11.603
寗	-11.6031
臾	-11.6031
灣	-11.6031
鸞	-11.6031
者未之有也	-11.6032
貸	-11.6032
輯五瑞	-11.6034
顙	-11.6034
陂障	-11.6034
曜	-11.6035
乃命以位	-11.6035
罪人斯得	-11.6035
遲速	-11.6035
誌	-11.6035
九載績用弗成	-11.6036
禹别九州	-11.6036
亂臣十人	-11.6036
隕墜	-11.6037
代武王之死	-11.6037
貞正也	-11.6039
㤗誓	-11.6039
殱	-11.604
詛祝	-11.6041
傲虐	-11.6041
攘竊	-11.6042
公曰嗚呼君	-11.6047
純乎天	-11.6049
不期而	-11.6103
寝	-11.6194
秕	-11.6194
喉	-11.6197
轅	-11.6199
鳥獸蹌蹌	-11.6199
二百三十五	-11.6199
又東為滄浪之水	-11.6201
𤣥枵	-11.6201
尙書大傳	-11.6201
改過不吝	-11.6202
江漢朝宗于海	-11.6202
彫	-11.6204
五虐之刑	-11.6204
刼	-11.6205
楨	-11.6205
揣	-11.6206
蒼頡	-11.6207
冩	-11.6207
三風十愆	-11.6208
鍪	-11.6209
洪水既平	-11.621
律度量衡	-11.621
保乂有殷	-11.621
駮	-11.621
斵	-11.621
𤯝	-11.6211
餙	-11.6211
衡山之陽	-11.6212
莘	-11.6212
百官總已	-11.6213
漢書五行志	-11.6213
丕丕基	-11.6214
創業垂統	-11.6214
烙	-11.6214
洪水未平	-11.6214
遷善逺罪	-11.6216
怙終賊刑	-11.6216
壅遏	-11.6218
亦此意也	-11.6223
盤庚之遷	-11.6245
十一度	-11.6271
功之成	-11.6309
劍	-11.6366
鈔	-11.6376
枕	-11.6378
允迪厥徳	-11.6378
簇	-11.6378
廬阜	-11.6379
簧	-11.638
鄯	-11.6382
庶明勵翼	-11.6385
逭	-11.6386
謁	-11.6386
風雷之變	-11.6388
鞅	-11.6388
中江北江	-11.6389
孛	-11.6389
甸侯綏	-11.6389
煥	-11.639
擯	-11.639
惟三月哉生魄	-11.639
麋	-11.6391
摧	-11.6391
時人斯其惟皇之極	-11.6391
躁	-11.6391
陸費墀	-11.6392
炙	-11.6392
無忌憚	-11.6393
月恭校上	-11.6393
張騫	-11.6393
弱水既西	-11.6393
昀	-11.6393
夾鍾	-11.6393
浮于積石至于龍門西河	-11.6394
庚午	-11.6395
紩	-11.6395
跣	-11.6395
昆侖	-11.6395
誰敢不	-11.6396
炮	-11.6396
敕	-11.6397
檿	-11.6399
者鮮矣	-11.6404
初一曰五行	-11.6408
毗陵	-11.6523
伾	-11.6538
雹	-11.6549
』	-11.6553
內	-11.6559
揲	-11.656
坼	-11.6561
釡	-11.6562
槃	-11.6562
琊	-11.6564
輯錄	-11.6564
脂	-11.6568
燮理隂陽	-11.6569
宕	-11.657
紆	-11.6571
羆	-11.6572
佛	-11.6573
崑崙析支渠搜	-11.6573
叨	-11.6574
瞑眩	-11.6574
欽定四庫全書經部二	-11.6574
灊	-11.6574
南門之外	-11.6574
卭	-11.6575
格于上帝	-11.6576
真定府	-11.6576
陘	-11.6577
壩	-11.6577
惟帝時克	-11.6577
庶常吉士	-11.6578
思日孜孜	-11.6578
需	-11.6578
罔不率俾	-11.6579
租	-11.6579
惓惓	-11.6579
橇	-11.6579
尹躬暨湯	-11.658
刳	-11.658
故繼之曰	-11.6581
方命圯族	-11.6581
寛而栗	-11.6581
態	-11.6582
暖	-11.6582
三帛二生一死	-11.6583
防閑	-11.6583
欲敗度縱敗禮	-11.6584
副貳	-11.6584
航	-11.6584
后王君公	-11.6585
惟日不足	-11.6585
由是觀之	-11.6588
抽	-11.6589
河圖洛書	-11.6597
生則逸	-11.6632
贛	-11.6735
竇	-11.6743
瀟	-11.6746
蠙珠	-11.6748
碣	-11.6748
油	-11.6756
敞	-11.6757
樊綽	-11.6758
肱	-11.6758
薊	-11.6759
陪	-11.6759
七世之廟	-11.676
不邇聲色不殖貨利	-11.676
賣	-11.6761
僃	-11.6761
黎民於變時雍	-11.6761
彭蠡既豬	-11.6761
亨	-11.6762
詩言志	-11.6763
予則孥戮汝	-11.6763
譯	-11.6763
躍	-11.6763
繢	-11.6764
敖倉	-11.6764
汝則有大疑	-11.6764
天明畏	-11.6765
擁	-11.6765
濬畎澮距川	-11.6765
皇極之敷言	-11.6766
仲虺作誥	-11.6766
玆	-11.6767
璿璣	-11.6768
得吉卜	-11.6769
媯汭	-11.6769
只是一箇	-11.677
水火金木土榖	-11.677
竹書紀年	-11.677
九夷八蠻	-11.677
嚴恭寅畏	-11.6772
訴	-11.6772
潤下作鹹	-11.6772
獄之兩辭	-11.6773
鞫	-11.6779
虞夏商周	-11.6781
肖	-11.6887
:『	-11.6933
遶	-11.6943
纎縞	-11.6945
鞏昌府	-11.6946
墳壚	-11.6947
个	-11.6948
陽鳥攸居	-11.6949
鉅橋	-11.6949
張氏九成曰	-11.6949
震澤厎定	-11.695
羣叔流言	-11.695
蒙羽其藝	-11.695
逾于沔	-11.6951
禜	-11.6951
釀	-11.6952
弩	-11.6952
稔	-11.6952
郁	-11.6952
東為中江入于海	-11.6952
羣后四朝	-11.6953
踵	-11.6953
凍	-11.6953
子子孫孫	-11.6953
推亡固存	-11.6954
謟	-11.6955
皥	-11.6955
腎	-11.6956
葭萌	-11.6956
址	-11.6956
褻	-11.6956
寘	-11.6957
克享天心	-11.6957
允釐百工	-11.6957
騷	-11.6957
鬛	-11.6959
干楯	-11.6959
武庚之叛	-11.6959
敿	-11.6959
橘	-11.696
灃水攸同	-11.696
常伯常任準人	-11.696
漸漬	-11.6961
至公無私	-11.6961
設官分職	-11.6961
辛卯	-11.6961
侗	-11.6962
汎濫	-11.6962
錯綜	-11.6963
直而温	-11.6965
奠髙山大川	-11.6965
威用六極	-11.6967
荀卿	-11.6969
旻	-11.7102
峨	-11.7129
嵐	-11.7132
綸	-11.7135
樓	-11.7139
剽	-11.714
从	-11.7145
震澤底定	-11.7146
莅	-11.7147
惟天不畀	-11.7147
孔頴逹	-11.7147
悼	-11.7148
熾	-11.7148
卵	-11.7148
䞇	-11.7149
琬琰	-11.715
揜	-11.715
萬夫之長	-11.715
等謹案	-11.715
㐮	-11.7151
彰厥有常吉哉	-11.7151
炫	-11.7152
竦	-11.7153
糵	-11.7153
肅乂哲謀聖	-11.7154
七百二十九	-11.7154
鎧	-11.7154
菽	-11.7154
蹙	-11.7155
威克厥愛	-11.7155
捐	-11.7155
作十有三載乃同	-11.7155
唐一行	-11.7155
孺子王矣	-11.7155
偉	-11.7155
璿璣玉衡	-11.7155
賡	-11.7156
㕘	-11.7156
部伍	-11.7156
廪	-11.7156
𤣥牡	-11.7156
姦慝	-11.7157
藩屏	-11.7157
冺	-11.7157
渇	-11.7158
言以道接	-11.7159
惟精惟一	-11.7161
系	-11.7161
箴規	-11.7162
擴	-11.7164
陳經撰	-11.7165
命公後	-11.7166
碧	-11.7167
䢴	-11.7168
濟源縣	-11.717
忠厚之至	-11.7183
虹	-11.7329
婢	-11.734
金銀銅	-11.734
州刺史	-11.7342
犢	-11.7343
桐栢	-11.7344
惟皇作極	-11.7345
濩	-11.7345
㝡	-11.7346
北條荆山	-11.7348
惟洛食	-11.7348
猗	-11.7349
四分度之一	-11.735
島夷皮服	-11.735
頟頟	-11.735
旁求俊彦	-11.735
毳冕	-11.735
鉏	-11.7351
朕卜并吉	-11.7351
邈	-11.7351
四隩既宅	-11.7352
祔	-11.7352
灉沮㑹同	-11.7352
墾	-11.7353
剛而塞	-11.7354
腸	-11.7355
罰弗及嗣	-11.7356
觀政于商	-11.7356
矯誣	-11.7356
仗	-11.7356
導渭自鳥鼠同穴	-11.7356
蒻	-11.7356
周公作立政	-11.7356
肆汝小子封	-11.7356
穆王命君牙	-11.7357
負荷	-11.7358
庶頑讒説	-11.7359
善則稱君	-11.7359
皆再拜稽首	-11.7359
埽	-11.736
舊勞于外	-11.7361
世輕世重	-11.7361
萊夷作牧	-11.7362
水土既平	-11.7363
篾席	-11.7364
邗	-11.7365
陳氏大猷	-11.7492
嶲	-11.7521
杓	-11.754
蹌蹌	-11.754
篤馬河	-11.7544
孺	-11.7545
琮	-11.7547
膳	-11.7548
壺口雷首	-11.7548
梟	-11.7549
燔	-11.7549
軸	-11.7549
嬰	-11.755
江南之夢	-11.755
詹	-11.7551
紐	-11.7551
頻	-11.7552
黏	-11.7553
滕	-11.7553
鷩冕	-11.7553
睹	-11.7553
鳯翔	-11.7556
蓬	-11.7556
泳	-11.7556
檢身若不及	-11.7556
貌言視聽思	-11.7557
冨	-11.7557
牡	-11.7557
孝悌	-11.7558
聳	-11.7558
幅	-11.7558
詣	-11.7559
頤	-11.7559
升自陑	-11.7561
印	-11.7561
式化厥訓	-11.7561
𦂳	-11.7561
纓	-11.7561
西山真氏曰	-11.7563
越若來	-11.7563
梮	-11.7564
在璿璣玉衡以齊七政	-11.7564
朂哉夫子	-11.7564
厭斁	-11.7565
洛書本文	-11.7566
掌邦禁	-11.7567
慤	-11.7567
宋黄倫撰	-11.7568
牝雞	-11.7571
之所同然	-11.7642
尙	-11.7704
褒斜	-11.7745
諾	-11.775
聒聒	-11.775
邽	-11.775
㢲	-11.7752
冉	-11.7753
蚩	-11.7754
外丙仲壬	-11.7758
成允成功	-11.776
同為逆河	-11.7761
莱	-11.7761
瑶	-11.7761
昇	-11.7761
縷	-11.7761
官不必備惟其人	-11.7762
眼	-11.7763
鋤	-11.7763
胃	-11.7764
姻	-11.7764
屯氏河	-11.7764
雷夏既澤	-11.7765
浮于淮泗達于河	-11.7767
明明揚側陋	-11.7767
皇極經世	-11.7767
祓	-11.7767
高宗肜日	-11.7767
奉圭兼幣	-11.7767
上下比罪	-11.7767
人心惟危	-11.7768
河亶甲居相	-11.7768
鄜	-11.7769
脗	-11.777
摭	-11.777
無疆之休	-11.7771
三面距河	-11.7771
犂	-11.7771
巧言令色	-11.7772
鄘	-11.7772
毀	-11.7772
宇宙	-11.7773
新陟王	-11.7774
隋開皇	-11.7774
刑故無小	-11.7774
欽定四庫全書尚書精義卷	-11.7775
治天下之大法	-11.7775
臣作朕股肱耳目	-11.7775
緇衣	-11.7776
筍席	-11.778
學于甘盤	-11.7781
無往而不	-11.7782
萬九千	-11.7786
》	-11.7867
通鑑前編	-11.7965
遮	-11.7966
邸	-11.7971
歙	-11.7971
周禮大宗伯	-11.7971
劒	-11.7972
髦	-11.7972
煌	-11.7972
戺	-11.7973
予曷敢不	-11.7973
壓	-11.7973
駟	-11.7974
煮	-11.7974
鏃	-11.7975
揆文教	-11.7975
耗	-11.7976
魯人三郊三遂	-11.7976
出納五言	-11.7976
秬黍	-11.7977
納于百揆	-11.7977
多歴年所	-11.7978
萊蕪縣原山	-11.7978
為人上者	-11.7978
蜼	-11.7979
藐	-11.7979
詛盟	-11.7979
協時月正日	-11.7979
帝告釐沃	-11.7979
紬繹	-11.798
孕	-11.798
五刑之屬三千	-11.798
水火金木土穀	-11.7981
王拜手稽首曰	-11.7981
闔	-11.7981
鯀則殛死禹乃嗣興	-11.7982
天地之化育	-11.7983
徽柔懿恭	-11.7984
掦	-11.7984
鮒	-11.7987
不敢荒寧	-11.7987
以箕子歸	-11.7988
不一而足	-11.7988
聪	-11.7988
牀	-11.7989
館陶	-11.8018
鄭王皆	-11.8138
鷄	-11.8177
觜	-11.818
僰	-11.8181
亦克用勸	-11.8181
鶴	-11.8182
唐陸氏曰	-11.8184
南陽平氏縣	-11.8185
導菏澤被孟豬	-11.8186
琬	-11.8186
鄭司農	-11.8187
黄度曰	-11.8187
熒	-11.8188
琰	-11.8188
朱子語類問	-11.8189
一月戊午師渡孟津	-11.8189
憑玉几	-11.8189
旌旄	-11.819
伎	-11.819
帝其念哉	-11.819
鴆	-11.819
喚	-11.819
右北平	-11.8191
金履祥曰	-11.8191
誼	-11.8191
我之弗辟	-11.8191
荊	-11.8192
皓	-11.8192
王安石	-11.8194
阼	-11.8194
我何敢不	-11.8194
五典克從	-11.8195
煙	-11.8195
一月壬辰	-11.8195
河之經流	-11.8195
殳斨伯與	-11.8195
咏	-11.8195
㐫	-11.8196
克綏厥猷	-11.8196
無反無側	-11.8197
巍巍	-11.8197
捷	-11.8198
欽若昊天	-11.8198
遙	-11.8198
𧰼	-11.8198
周公作無逸	-11.8198
邀	-11.8199
二王之後	-11.8199
貿	-11.8199
賢聖之君六七作	-11.8199
無我怨	-11.8199
阯	-11.82
汝鳩汝方	-11.82
應天順人	-11.82
燦	-11.82
廢時亂日	-11.82
在我後嗣子孫	-11.8201
土爰稼穡	-11.8201
史敘其事作	-11.8202
肌	-11.8203
􁅾	-11.8203
百姓有過在予一人	-11.8203
僝	-11.8204
三有俊	-11.8206
適于山	-11.8211
秒	-11.8211
刑期于無刑	-11.8214
在府東	-11.8232
牂	-11.8372
譴	-11.8391
鄭曉曰	-11.8404
栽	-11.8404
鳬	-11.8405
鈎盤	-11.8406
群	-11.8407
出入起居	-11.8407
顒	-11.8408
庶尹允諧	-11.8409
璞	-11.8409
巂	-11.841
厥土惟塗泥	-11.841
璩	-11.841
頽	-11.8411
奮武衛	-11.8411
忻	-11.8411
酆	-11.8412
塔	-11.8413
訓夏贖刑	-11.8413
各迪有功	-11.8414
㨗	-11.8414
蒲昌海	-11.8414
列爵惟五	-11.8414
逵	-11.8415
氄	-11.8415
敹	-11.8415
籌	-11.8415
牾	-11.8415
一朝一夕	-11.8416
俶	-11.8416
研	-11.8416
東出于陶丘北	-11.8416
仡仡	-11.8417
龎	-11.8417
大名府	-11.8418
能自得師	-11.8418
與天下共	-11.8419
王省惟嵗	-11.8419
多材多藝	-11.8419
宥過無大	-11.842
壷	-11.842
治國平天下	-11.8421
烹	-11.8421
塵	-11.8421
姚方興	-11.8421
載采采	-11.8421
勘	-11.8421
殪戎殷	-11.8421
夙	-11.8421
禆	-11.8421
長我王國	-11.8421
洪大誥治	-11.8421
庶邦冢君	-11.8422
璧與珪	-11.8422
鉛	-11.8428
怍	-11.8429
搖	-11.8429
民非后	-11.8429
窋	-11.8429
傚	-11.8431
非汝封刑人殺人	-11.8432
永樂大典	-11.852
仁山金氏曰	-11.8629
定王五年	-11.8633
北過降水	-11.8634
㤀	-11.8635
易繫辭云	-11.8639
閬	-11.8639
臂	-11.8641
刄	-11.8641
嶓冢導漾東流為漢	-11.8641
格其非心	-11.8641
寰	-11.8642
其于官也為	-11.8642
泊	-11.8642
王其疾敬徳	-11.8642
典謨訓誥誓命	-11.8643
瞍	-11.8643
檮	-11.8643
允執其中	-11.8644
庶土交正	-11.8644
誹	-11.8644
外有州牧侯伯	-11.8644
寸六分	-11.8644
寤	-11.8645
江沱潛漢	-11.8645
軰	-11.8645
禎	-11.8645
幡	-11.8645
惟一月壬辰旁死魄	-11.8645
外薄四海咸建五長	-11.8645
怵惕	-11.8646
六年五服一朝	-11.8646
滎波既豬	-11.8646
治定功成	-11.8647
不格姦	-11.8647
庶績咸熈	-11.8647
蘇忿生	-11.8647
臨川吳氏曰	-11.8648
降時喪	-11.8649
潟	-11.865
稀	-11.865
自河徂亳	-11.865
愉	-11.8652
窟	-11.8653
寺	-11.8653
慎乃在位	-11.8653
竅	-11.8655
拓	-11.8656
草竊姦宄	-11.8657
尺五寸	-11.8661
丸	-11.8864
熹	-11.8866
開封府	-11.8868
醫無閭	-11.8868
狗	-11.8869
夏氏僎曰	-11.8871
陌	-11.8871
毨	-11.8872
絫	-11.8872
十萬曰億	-11.8872
嗚	-11.8873
俎	-11.8873
淮海惟揚州	-11.8873
伻來毖殷	-11.8874
秣	-11.8874
導淮自桐柏	-11.8876
畤	-11.8876
司政典獄	-11.8877
堆	-11.8877
浮于濟漯達于河	-11.8878
羨	-11.8878
苐	-11.8878
海岱惟青州	-11.8879
煢	-11.8879
囬	-11.8879
惟我事不貳適	-11.888
濟河惟兖州	-11.888
惟爾王家我適	-11.888
有邦有土	-11.888
師錫帝曰	-11.888
囧	-11.8881
芥	-11.8882
在武丁時則有若甘盤	-11.8883
瑣	-11.8883
乳	-11.8884
伊尹以冕服奉嗣王	-11.8884
庇	-11.8884
伊尹相湯伐桀	-11.8885
瀹	-11.8886
州十有二師	-11.8886
譸張為幻	-11.8887
亾	-11.8888
眚災肆赦	-11.8888
歉	-11.8888
眾	-11.9086
敜	-11.9095
白虎通	-11.9096
葛伯仇餉	-11.9097
殂	-11.9101
郿	-11.9104
呂祖謙曰	-11.9106
王與卿士師尹	-11.9106
佗	-11.9106
畛	-11.9107
上帝時歆	-11.9107
邾	-11.9107
逓	-11.9109
琨	-11.9109
引泰誓曰	-11.9109
鋝	-11.9109
酹	-11.911
金吉甫	-11.9111
灤	-11.9111
東郊不開	-11.9111
笞	-11.9112
牷	-11.9113
禳	-11.9113
絰	-11.9114
王與大夫盡弁	-11.9114
蕪	-11.9115
蒼梧之野	-11.9115
自西而東	-11.9116
咨汝羲暨和	-11.9116
大告武成	-11.9116
厮	-11.9116
闞駰	-11.9116
偪	-11.9116
豁	-11.9117
羑里之囚	-11.9117
纒	-11.9117
殞	-11.9117
自貽哲命	-11.9118
其弼直	-11.9118
孫氏繼有曰	-11.9118
大戴禮	-11.9119
菟	-11.912
靜言庸違	-11.912
杶榦栝柏	-11.912
降于國人	-11.912
列爵惟五分土惟三	-11.9121
饕餮	-11.9121
悚	-11.9123
舜生三十	-11.9227
瑯	-11.9345
尺有二寸	-11.9349
雺	-11.935
凰	-11.9351
軒轅	-11.9352
兢	-11.9353
灋	-11.9353
相息亮反	-11.9354
闋	-11.9354
祗見厥祖	-11.9355
戣	-11.9355
礪砥砮丹	-11.9356
靈承于旅	-11.9356
澱	-11.9356
垂拱而天下治	-11.9356
梏	-11.9357
盱	-11.9357
綜	-11.9358
西戎即叙	-11.9358
牝牡	-11.9358
無有作好遵王之道無有作惡遵王之路	-11.9359
平章百姓	-11.9359
侯甸男采衛	-11.936
隧	-11.936
層	-11.936
九百四十分	-11.9361
儘	-11.9361
一話一言	-11.9361
終始惟一時乃日新	-11.9362
奉嗣王祗見厥祖	-11.9362
評	-11.9362
戯	-11.9363
慊	-11.9363
坐以待旦	-11.9364
格君心之非	-11.9364
濬哲文明温恭允塞	-11.9364
䜟	-11.9365
惟民之承	-11.9365
椓	-11.9365
𢎞朕恭	-11.9365
摰	-11.9365
無小無大	-11.9366
號泣于旻天	-11.9366
羹	-11.9367
樗	-11.9369
四方無虞	-11.937
敬敷五教在寛	-11.937
隈	-11.9372
降爾命	-11.9377
卉	-11.9586
檀	-11.9593
蒗蕩渠	-11.9597
崈	-11.9597
海岱及淮惟徐州	-11.9599
錐	-11.9599
寬	-11.9601
虜	-11.9601
夫音扶	-11.9602
諍	-11.9602
洵	-11.9603
光天之下	-11.9603
虺	-11.9605
鈗	-11.9605
發號施令	-11.9605
脚	-11.9605
妥	-11.9606
欽哉欽哉惟刑之恤哉	-11.9606
呱呱	-11.9607
磯	-11.9607
戒之用休	-11.9607
包匭菁茅	-11.9607
隉	-11.9608
授宗人同	-11.9608
往哉汝諧	-11.9608
偃武修文	-11.9608
齊聖廣淵	-11.9608
壟	-11.9609
恭天成命	-11.9609
日有食之	-11.9609
亂臣賊子	-11.961
九山刋旅	-11.961
山南曰陽	-11.961
吟	-11.9611
驩	-11.9611
鄕	-11.9611
致意焉	-11.9611
李巡曰	-11.9611
隊	-11.9611
静言庸違	-11.9611
錫汝保極	-11.9613
惟皇上帝降衷于下民	-11.9613
荆岐既旅	-11.9613
摠	-11.9613
殊厥井疆	-11.9613
禹敷土	-11.9614
曷其奈何弗敬	-11.9614
一曰水二曰火三曰木四曰金五曰土	-11.9615
疇咨若時登庸	-11.9616
麾	-11.9616
犧牲粢盛	-11.9616
唐虞稽古建官惟百	-11.9618
董正治官	-11.9618
衆非元后何戴	-11.9624
五宅三居	-11.9839
祲	-11.9849
貍	-11.9854
冬至日在斗	-11.9854
匝	-11.9856
得專征伐	-11.9857
渦	-11.9858
薛氏季宣曰	-11.9862
隻	-11.9863
乃并是吉	-11.9863
三百六十五日四分日之一	-11.9863
鷟	-11.9864
九江納錫大龜	-11.9865
人謀鬼謀	-11.9865
東昌府	-11.9865
蔡蒙旅平	-11.9865
飲食醉飽	-11.9865
公無困哉	-11.9865
罵	-11.9866
豢	-11.9866
舍己從人	-11.9866
無偏無陂遵王之義	-11.9867
柚	-11.9867
水北曰汭	-11.9867
苴	-11.9867
綏爰有衆	-11.9867
不匿厥指	-11.9868
次九曰嚮用五福威用六極	-11.9868
膩	-11.9868
紏	-11.9868
爾其戒哉	-11.9869
惟十有二年六月庚午朏	-11.9869
習與性成	-11.9869
王未克變	-11.9869
䋲	-11.987
受天明命	-11.987
厥貢惟球琳琅玕	-11.987
無偏無陂	-11.987
枿	-11.9871
宋林之竒撰	-11.9871
協于克一	-11.9871
庶獄庶愼	-11.9872
趨事赴功	-11.9873
斲	-11.9873
叩	-11.9874
翠	-11.9885
洱	-12.0111
僑	-12.0114
不罹于咎	-12.0116
麻冕黼裳	-12.0117
淮沂其乂	-12.0118
精意以享	-12.0118
駸	-12.0119
三分益一	-12.0119
大野既豬	-12.012
茶	-12.012
王氏充耘曰	-12.012
阨	-12.0121
禋于六宗	-12.0121
膽	-12.0122
貔	-12.0123
濠	-12.0124
懷山襄陵	-12.0124
林之竒曰	-12.0124
有言逆于汝心	-12.0124
欽崇天道	-12.0125
不腆于酒	-12.0125
癉	-12.0125
僧	-12.0125
唐明皇	-12.0126
蓼	-12.0127
建邦設都	-12.0127
荆及衡陽惟荆州	-12.0127
肆覲東后	-12.0127
彝倫攸敘	-12.0128
吳才老	-12.0128
心勞日拙	-12.0129
以臣伐君	-12.0129
祀于周廟	-12.0129
克敬惟親	-12.013
拜手稽首誨言	-12.013
克配上帝	-12.013
表厥宅里	-12.0131
千夫長	-12.0131
垣曲縣	-12.0131
掌天地四時之官	-12.0131
三泉縣	-12.0132
輕重諸罰有權	-12.0133
惟皇上帝	-12.0133
慧	-12.0133
淶	-12.0134
邶鄘	-12.0134
穆王命伯冏	-12.0134
棫	-12.0134
可不戒哉	-12.0134
芽	-12.0135
誕敷文徳	-12.0136
卜河朔黎水	-12.0136
迺	-12.0136
豈有他哉	-12.0137
協時月正日同律度量衡	-12.0138
鍵	-12.014
后非衆罔與守邦	-12.014
心腹腎腸	-12.0141
天其永我命于	-12.0142
敢知于兹	-12.0142
鈍	-12.0148
百一十二	-12.0281
鄣	-12.0371
珥	-12.0377
岷嶓既藝	-12.0383
籈	-12.0386
眡	-12.0386
騶	-12.0386
抱祭器	-12.0386
不協于極	-12.0386
勦	-12.0387
里伯七十里子男五十里	-12.0387
滹	-12.0389
郭景純	-12.0389
娵	-12.0389
嵎	-12.0391
閠	-12.0391
三百里納秸服	-12.0391
愾	-12.0391
圛	-12.0391
鍛	-12.0392
准	-12.0392
殷獻臣	-12.0392
㠀	-12.0393
歸馬放牛	-12.0393
楩	-12.0394
又其外方五百里曰	-12.0394
蟄	-12.0395
史叙其事作	-12.0395
狡	-12.0396
豐于昵	-12.0397
善無常主	-12.0397
四百里粟五百里米	-12.0397
藹	-12.0397
焯	-12.0398
允恭克讓	-12.0398
奬	-12.0398
荆河惟豫州	-12.0398
蒯	-12.0398
黹	-12.0398
苗頑弗即工	-12.0398
檻	-12.0398
世禄之家	-12.0399
院	-12.0399
臣無有作福作威玉食	-12.04
儆戒無虞	-12.04
帷	-12.04
糗	-12.04
愚夫愚婦	-12.04
簡賢附勢	-12.04
東别為沱	-12.04
賔于四門	-12.04
覃	-12.0401
釣	-12.0401
永不忘在王家	-12.0401
又西南逕	-12.0401
處仁遷義	-12.0401
胥匡以生	-12.0402
行之惟艱	-12.0402
秬鬯二卣	-12.0402
雝	-12.0402
藳	-12.0402
尅	-12.0402
陳師凱曰	-12.0403
罪疑惟輕	-12.0403
融堂書解卷	-12.0403
虎賁三百人	-12.0403
于征伐商	-12.0403
惟和惟一	-12.0403
洙	-12.0403
斆學半	-12.0403
咸則三壤成賦中邦	-12.0404
垂裕後昆	-12.0404
一極備凶一極無凶	-12.0404
僥	-12.0404
威侮五行怠棄三正	-12.0404
曰貞曰悔	-12.0405
杼	-12.0405
事事物物	-12.0405
竒技淫巧	-12.0406
㬰	-12.0406
天視自我民視天聽自我民聽	-12.0407
耜	-12.0407
咸乂四篇	-12.0407
愷	-12.0409
庶頑讒說	-12.0409
宣力四方	-12.0409
惟天地萬物父母惟人萬物之靈	-12.041
喋	-12.041
鯀陻洪水	-12.0412
咸和萬民	-12.0414
犧牷牲	-12.0416
鄱	-12.0596
鍜	-12.066
文獻通考	-12.0662
燾	-12.0662
皷	-12.0665
簸	-12.0665
打	-12.0665
帙	-12.0667
煬	-12.0667
殷始咎周	-12.0669
刷	-12.067
方施象刑惟明	-12.067
九川滌源	-12.067
鈎	-12.067
阮	-12.0671
洎	-12.0671
西傾因桓是來	-12.0672
筮短龜長	-12.0673
軾	-12.0674
四分日之一	-12.0674
十夫予翼	-12.0674
一戎衣天下大定	-12.0675
棼棼	-12.0675
順天應人	-12.0675
郵	-12.0675
蕝	-12.0675
高山大川	-12.0676
無偏無黨王道蕩蕩無黨無偏王道平平	-12.0676
隋煬帝	-12.0677
茹	-12.0677
其承厥志	-12.0677
配享在下	-12.0678
囿	-12.0678
正心誠意	-12.0678
披	-12.0678
越厥命以自覆	-12.0679
閲實其罪	-12.0679
出其不意	-12.0679
紜	-12.068
以旦代某之身	-12.068
爰立作相	-12.068
慄慄危懼	-12.0681
舞干羽于兩階	-12.0681
垂衣拱手	-12.0681
紅	-12.0681
勗哉夫子	-12.0681
筋	-12.0681
黜夏命	-12.0682
羲氏和氏	-12.0682
心逸日休	-12.0682
㑹其有極歸其有極	-12.0682
大降爾四國民命	-12.0682
歴試諸難	-12.0682
無或敢伏小人之攸箴	-12.0684
師尚父	-12.0684
念兹在兹	-12.0684
穯	-12.0685
天一生水	-12.0686
禮樂刑政	-12.0686
推賢讓能	-12.0686
惟十有三祀王訪于箕子	-12.0688
三監及淮夷	-12.0688
坐作進退	-12.0688
黯	-12.0689
無怠無荒	-12.0689
不犯于有司	-12.0691
痡	-12.0692
數紂之罪	-12.0692
與其殺不辜寧失不經	-12.0692
相協厥居	-12.0692
查	-12.0707
丘陵墳衍	-12.0942
箘	-12.0945
糠	-12.0949
刊	-12.0952
蘷	-12.0953
塊	-12.0953
棲	-12.0953
東滙澤為彭蠡	-12.0955
涖	-12.0956
荒度土功	-12.0957
鼵	-12.0957
鬴	-12.0957
頑不即工	-12.0957
厥土青黎	-12.0957
鱗	-12.0958
自作元命	-12.0959
惟時惟幾	-12.0959
覬覦	-12.0959
庸蜀羌髳微盧彭濮	-12.0959
董之用威	-12.0959
郟鄏	-12.0959
線	-12.096
繳	-12.0961
俄	-12.0961
袁黄曰	-12.0961
凟	-12.0962
蠻夷率服	-12.0962
篚厥𤣥黄	-12.0962
栢	-12.0962
惟戊午王次于河朔	-12.0962
正徳利用厚生	-12.0962
功虧一簣	-12.0962
僴	-12.0963
蠧	-12.0963
四海困窮天禄永終	-12.0963
厠	-12.0964
嘏	-12.0964
惟周公誕保文武受命惟七年	-12.0964
簫韶九成	-12.0964
云者則以言夫	-12.0965
惟婦言是用	-12.0965
孔氏頴逹曰	-12.0966
忝厥祖	-12.0966
劼	-12.0966
五者來備	-12.0967
倨	-12.0967
既免喪	-12.0967
邁種徳	-12.0967
帝乃震怒	-12.0967
深切著明	-12.0967
至于再至于三	-12.0968
譙	-12.0968
文王惟克厥宅心	-12.0968
凡民自得罪	-12.0968
躭	-12.0969
自怨自艾	-12.0969
月之行則有冬有夏月之從星則以風雨	-12.0969
予決九川距四海濬畎澮距川	-12.0969
予欲聞六律五聲八音	-12.0969
康濟小民	-12.097
馘	-12.097
三綱五常	-12.097
水曰潤下火曰炎上木曰曲直金曰從革	-12.0973
狄設黼扆綴衣	-12.0974
天佑下民作之君作之師	-12.0974
神龜負	-12.0974
㵎	-12.0975
二百四十三	-12.0996
鮪	-12.124
金沙江	-12.1242
衢	-12.1243
南郡臨沮縣	-12.1244
婉	-12.1245
行下孟反	-12.1246
崧	-12.1246
溷	-12.1247
友邦冡君	-12.1247
氏敘章指見	-12.1247
毘	-12.1247
寅亮天地	-12.1247
伊瀍澗	-12.1248
王氏肯堂曰	-12.1248
下中三錯	-12.1249
勖	-12.1249
載之髙地	-12.1249
巒	-12.125
次于河朔	-12.125
其于政也以	-12.125
秋大熟	-12.125
兠	-12.1251
導河積石至于龍門	-12.1252
惟時厥庶民于汝極錫汝保極	-12.1252
謳	-12.1252
十三度十九分度之七	-12.1253
文王騂牛一武王騂牛一	-12.1253
夙夜祗懼	-12.1253
浮于汶達于濟	-12.1254
臨事而懼	-12.1254
莖	-12.1254
道積于厥躬	-12.1255
繕	-12.1255
庶草蕃廡	-12.1255
凡厥庶民有猷有為有守汝則念之	-12.1256
擿	-12.1256
餘波入于流沙	-12.1256
舄	-12.1257
郯	-12.1257
無若丹朱傲	-12.1257
庶民惟星星有好風星有好雨	-12.1257
慣	-12.1257
兪	-12.1257
聯	-12.1258
旅王若公	-12.1258
鍳	-12.1258
不虐無告不廢困窮	-12.1258
冗	-12.1258
納于大麓	-12.1259
式敬爾由獄	-12.1259
監于先王成憲其永無愆	-12.1259
𧖟	-12.1259
致天之罰于爾躬	-12.1259
不被其澤	-12.126
掇	-12.126
如下文所云也	-12.126
遏密八音	-12.126
恍	-12.126
律歴志	-12.126
宋時瀾撰	-12.126
夾右碣石	-12.126
無若爾考之違王命	-12.126
諳	-12.1261
汝弗能使有好于而家時人斯其辜	-12.1261
與亂同事	-12.1261
渭源縣	-12.1261
炭	-12.1261
汝則從龜從筮從卿士從庶民從	-12.1262
大勲未集	-12.1262
諉	-12.1262
樽	-12.1263
楙	-12.1263
償	-12.1263
顧諟天之明命	-12.1263
作民明辟	-12.1263
烈風雷雨	-12.1264
宅乃事宅乃牧宅乃準	-12.1264
畔官離次	-12.1264
伻嚮即有僚	-12.1264
詰戎兵	-12.1265
孔叢子	-12.1265
馮翊夏陽縣	-12.1265
若保赤子	-12.1266
梯	-12.1266
尚書正義卷第	-12.1267
㤗	-12.1268
亶聰明作元后元后作民父母	-12.1269
元惡大憝	-12.1269
劑	-12.127
面稽天若	-12.127
在今予小子旦	-12.127
郴	-12.154
嗇	-12.1543
禺	-12.1546
頰	-12.1546
瞀	-12.1548
秬鬯一卣	-12.1549
邇可逺在兹	-12.1551
子丑寅	-12.1551
次輅在右塾之前	-12.1551
稜	-12.1552
烈風雷雨弗迷	-12.1552
壺口雷首至于太岳	-12.1553
王亦未敢誚公	-12.1554
詩言志歌永言聲依永律和聲	-12.1554
嘉乃丕績	-12.1554
欽明文思安安	-12.1554
祗承于帝	-12.1554
齧	-12.1554
炳	-12.1554
勺	-12.1555
代天理物	-12.1556
増修東萊書說卷	-12.1556
同寅協恭和衷	-12.1556
天聰明自我民聰明	-12.1556
餒	-12.1556
賈公彦	-12.1556
乃卜三龜一習吉	-12.1557
又北播為九河同為逆河入于海	-12.1557
愜	-12.1557
劇	-12.1558
王介甫	-12.1558
墨劓剕宫大辟	-12.1558
王若曰嗚呼羣后	-12.1559
月正元日	-12.1559
丕乃崇降弗祥	-12.1559
賞延于世	-12.1559
肇十有二州	-12.1559
夙夜罔或不勤	-12.156
萬二千五百人	-12.156
伊洛瀍澗既入于河	-12.156
錮	-12.1561
拆	-12.1561
聲音笑貌	-12.1561
埏	-12.1561
野無遺賢	-12.1561
皇天既付中國民	-12.1561
殪	-12.1561
其于爾躬有戮	-12.1562
光被四表	-12.1562
京相璠	-12.1562
謀及乃心謀及卿士謀及庶人謀及卜筮	-12.1562
臣哉鄰哉	-12.1562
三宅無義民	-12.1562
贊贊襄哉	-12.1562
霍太山	-12.1562
惟帝念功	-12.1563
矧汝剛制于酒	-12.1563
無偏無黨	-12.1563
王氏十朋曰	-12.1563
其爾萬方有罪在予一人	-12.1563
惟三祀十有二月朔	-12.1563
朱子語録云	-12.1563
䘏	-12.1564
務時敏	-12.1564
輓	-12.1565
復齋董氏曰	-12.1565
耒	-12.1565
商曰祀周曰年	-12.1565
姓姬氏	-12.1566
無餘藴矣	-12.1566
治厯明時	-12.1566
妍	-12.1567
河出孟門之上	-12.1568
今爾奔走臣我監五祀	-12.1568
覡	-12.1568
不于我政人得罪	-12.1569
彞倫攸叙	-12.1569
徃哉汝諧	-12.1569
六千五百六十一	-12.157
咎單作明居	-12.1571
韜	-12.1573
繭	-12.1573
簿	-12.1576
萬八千	-12.1821
婺	-12.1848
今陜西西安府	-12.1857
甌	-12.1857
禧	-12.1858
葦	-12.1859
禹拜昌言曰俞	-12.1861
其于物也為	-12.1861
套	-12.1861
卧	-12.1861
蔟	-12.1862
鄭漁仲	-12.1862
龔	-12.1863
譚	-12.1863
苹	-12.1865
十七萬七千一百四十七	-12.1865
庶殷侯甸男邦伯	-12.1866
架	-12.1866
先輅在左塾之前	-12.1867
飼	-12.1867
虖	-12.1867
汝終陟元后	-12.1867
惟狂克念作聖	-12.1868
厥貢羽毛齒革惟金三品	-12.1868
不協于極不罹于咎皇則受之	-12.1868
士農工商	-12.1869
燧	-12.1869
㠯	-12.1869
若有恒性	-12.1869
李廵曰	-12.1869
熄	-12.1869
踐天子位	-12.187
穪	-12.187
萬億年	-12.187
熊羆狐貍織皮	-12.187
脾	-12.187
鬰	-12.187
大公至正	-12.187
示天下弗服	-12.187
甯	-12.187
冤	-12.187
民訖自若是多盤	-12.1871
怵	-12.1871
后克艱厥后	-12.1871
厥土惟白壤	-12.1872
澠	-12.1872
昂	-12.1872
矇	-12.1872
釐降二女	-12.1873
鞭作官刑	-12.1873
不旋踵	-12.1873
澀	-12.1873
誥告庶殷越自乃御事	-12.1874
巧言令色孔壬	-12.1874
寧羌州	-12.1874
饉	-12.1874
欒	-12.1874
三八政一曰食	-12.1874
克終允德	-12.1874
惟乃丕顯考文王	-12.1875
臣之有作福作威玉食其害于而	-12.1875
踞	-12.1875
迓續乃命	-12.1875
懐山襄陵	-12.1875
煞	-12.1875
无垢謂	-12.1876
儔	-12.1876
予一人有罪無以爾萬方	-12.1876
昔朕來自奄	-12.1877
正月朔旦	-12.1877
刑亂國用重典	-12.1878
不敢含怒	-12.1878
如五器卒乃復	-12.1878
劓刵椓黥	-12.1878
瓴	-12.1879
賊虐諫輔	-12.1879
凶人為不善亦惟日不足	-12.1879
罟	-12.1879
臣下不匡	-12.1879
列用中罰	-12.188
司徒司馬司空亞旅	-12.1882
時措之宜	-12.1882
自時厥後	-12.1882
爰暨小人	-12.1882
夬	-12.1883
王乃言曰嗚呼箕子惟天	-12.1884
自暴自棄	-12.1885
弔民伐罪	-12.1886
先王克謹天戒	-12.1886
六七八九	-12.1887
紹復先王之大業	-12.1887
屨	-12.1889
十里水去縣	-12.2019
㓂	-12.2179
琢	-12.2179
六歩七歩	-12.218
釜	-12.2181
長丁丈反	-12.2182
窄	-12.2184
惟二月既望	-12.2184
筦	-12.2184
虐煢獨	-12.2185
扶風武功縣	-12.2186
疲	-12.2186
滴	-12.2187
九共九篇	-12.2188
溼	-12.2188
商耇成人	-12.2188
東漸于海	-12.2188
腴	-12.2189
洶	-12.2189
欲王以小民受天永命	-12.219
媿	-12.219
眊	-12.2191
饔	-12.2191
惟帝降格于夏	-12.2191
秉璋以酢	-12.2191
困學紀聞	-12.2191
月正元日舜格于文祖	-12.2192
俶擾天紀	-12.2192
吉凶軍賔嘉	-12.2192
菹	-12.2192
朞三百有六旬有六日以閏月定四時成	-12.2192
𡊮	-12.2192
王徂桐宫居憂	-12.2193
方鳩僝功	-12.2193
其惟王位在	-12.2193
新服厥命	-12.2194
杭	-12.2194
立民長伯	-12.2194
枹	-12.2194
觴	-12.2194
惟聖罔念作狂	-12.2194
熏	-12.2195
管叔及其羣弟	-12.2195
以寵利居成功	-12.2196
堵	-12.2196
徂兹淮夷徐戎並興	-12.2196
不作無益害有益	-12.2196
惟口起羞	-12.2196
扑作教刑	-12.2196
寥	-12.2196
侯甸男邦采衛	-12.2197
汝萬民乃不生生	-12.2197
愛克厥威	-12.2197
皋	-12.2197
葉夢得	-12.2198
告嗣天子王矣	-12.2198
后非民罔以辟四方	-12.2198
舞干羽	-12.2199
惟爾有神尚克相予以濟兆民無作神羞	-12.2199
三墳五典	-12.2199
卿士從龜從筮從汝則逆庶民逆吉	-12.22
帝曰來禹汝亦昌言	-12.22
悌	-12.22
三過其門而不入	-12.22
諦	-12.2201
庶民從龜從筮從汝則逆卿士逆吉	-12.2201
殺越人于貨	-12.2201
我武惟揚侵于之疆	-12.2201
菲	-12.2202
予乗四載	-12.2202
灼知厥若	-12.2202
舉而措之	-12.2202
修其禮物	-12.2202
敢知曰不其延惟不敬厥徳乃早墜厥命	-12.2202
外四面又各五百里	-12.2202
有星孛于	-12.2203
王若曰孟侯朕其弟小子封	-12.2203
可愛非君可畏非民	-12.2203
上刑適輕下服下刑適重上服	-12.2203
㢘	-12.2203
戢	-12.2204
王置諸其左右	-12.2204
率遏衆力率割夏邑	-12.2204
辟以止辟	-12.2204
司空掌邦土居四民時地利	-12.2206
袒	-12.2208
杜元凱	-12.2209
河出圖洛出書聖人則之	-12.2212
孩	-12.2212
讞	-12.222
五流有宅	-12.249
筠	-12.2505
襟	-12.2505
鄢	-12.2507
鍊	-12.2507
鄠	-12.2508
棧	-12.251
克寛克仁彰信兆民	-12.2511
冑	-12.2512
貟	-12.2518
㽔	-12.2518
惟十有一年武王伐殷	-12.2519
朕承王之休無斁	-12.2519
人惟求舊	-12.2521
民之所欲天必從之	-12.2522
永綏厥位	-12.2522
二典三謨	-12.2523
䜴	-12.2524
凑	-12.2524
于其無好徳汝雖錫之福其作汝用咎	-12.2525
觀逸遊田	-12.2525
予沖子夙夜毖祀	-12.2525
三載考績三考黜陟幽明	-12.2525
尹兹東郊	-12.2525
踊	-12.2526
路史後紀	-12.2526
蹤	-12.2526
覬	-12.2526
袞	-12.2526
朢	-12.2526
予克受非予武惟朕文考無罪	-12.2526
過三澨至于大别南入于江	-12.2527
陬	-12.2527
啓籥見書	-12.2527
郝	-12.2527
瑗	-12.2527
萬世永賴	-12.2527
無皇曰今日耽樂	-12.2527
皇天眷佑誕受厥命	-12.2527
度作刑以詰四方	-12.2528
稽謀自天	-12.2528
周公初基作新大邑于東國洛	-12.2528
矧今卜并吉	-12.2528
受克予非朕文考有罪惟予小子無良	-12.2529
班孟堅	-12.2529
任賢勿貳	-12.2529
武王崩三監及淮夷叛	-12.2529
厥土惟壤下土墳壚	-12.2529
人之有能有為使羞其行而邦其昌	-12.2529
晹	-12.2529
壌	-12.2529
眷求一徳	-12.2529
醒	-12.2529
雨霽蒙驛克	-12.2529
惟辟作福惟辟作威惟辟玉食	-12.253
作周恭先	-12.253
萇	-12.253
二曰疾三曰憂四曰貧五曰惡六曰弱	-12.253
屆	-12.253
縉	-12.2531
王如弗敢及天基命定命	-12.2531
厥田惟上上厥賦中下	-12.2531
夫婦長幼朋友	-12.2531
肆予大化誘我友邦君	-12.2531
汝則從龜從筮從卿士逆庶民逆吉	-12.2531
若濟巨川用汝作舟楫	-12.2531
釃	-12.2531
霖	-12.2531
二曰貨三曰祀四曰司空五曰司徒六曰	-12.2532
汝則從龜從筮逆卿士逆庶民逆作内	-12.2532
驂	-12.2532
作周孚先	-12.2532
嗣守文武大訓	-12.2532
槁	-12.2533
惟明克允	-12.2533
宐	-12.2533
厥四月哉生明王來自商至于豐	-12.2533
歐陽大小夏侯	-12.2534
王遺我大寶龜	-12.2534
皇帝哀矜庶戮之不辜	-12.2535
臘	-12.2535
立八尺之表	-12.2535
績用弗成	-12.2535
緇	-12.2535
敬以直内	-12.2536
肆念我天威	-12.2536
速由兹義率殺	-12.2536
裁成輔相	-12.2536
戰戰兢兢	-12.2536
棺	-12.254
安土重遷	-12.254
惟幾惟康	-12.254
天其以予乂民	-12.254
䛕	-12.2547
樂大典原	-12.2725
冏	-12.2852
蕤	-12.2852
取亂侮亡	-12.2859
甲戌我惟征徐戎	-12.2862
導弱水至于合黎餘波入于流沙	-12.2864
楹	-12.2865
蟠	-12.2865
溧	-12.2865
署	-12.2865
俾必爾反	-12.2866
輻	-12.2867
壮	-12.2867
一視同仁	-12.2867
刑發聞惟腥	-12.2867
百姓如喪考妣	-12.2867
三載汝陟帝位	-12.2868
洸	-12.2868
正色率下	-12.2869
厥田惟下下厥賦下上上錯	-12.2869
王省惟歲	-12.2869
太行恒山至于碣石入于海	-12.2869
魅	-12.2869
肇位四海	-12.287
負罪引慝	-12.287
夔曰於予擊石拊石百獸率舞	-12.287
膊	-12.287
簟	-12.287
人有士君子之行	-12.287
佯	-12.287
顏	-12.2871
玊	-12.2871
俟天休命	-12.2871
王享國百年耄荒	-12.2871
懽	-12.2871
孜	-12.2871
胡氏士行曰	-12.2872
鰥寡孤獨	-12.2872
晰	-12.2872
而泣予弗子惟荒度土功	-12.2872
殷小腆誕敢紀其	-12.2872
駢	-12.2872
狭	-12.2872
㨿	-12.2872
澹	-12.2872
嵗月日時無易	-12.2872
爾小子乃興從爾遷	-12.2873
朽索之馭六馬	-12.2873
敢對揚天子之休命	-12.2873
六極一曰凶短折	-12.2873
授宗人同拜王答拜	-12.2873
立時人作卜筮三人占則從二人之言	-12.2874
鄰哉臣哉	-12.2874
凡厥庶民極之敷言是訓是行以近天	-12.2874
娥	-12.2874
越三日庚戌柴望大告武成	-12.2874
縦	-12.2874
崐	-12.2874
企	-12.2875
疫	-12.2875
啓乃心沃朕心	-12.2875
汝惟不矜天下莫與汝	-12.2875
惟辟作福	-12.2875
戊午師逾孟津癸亥陳于商郊俟天休命	-12.2875
竺	-12.2875
換	-12.2875
朕志先定詢謀僉同鬼神其依龜筮協從	-12.2875
其克詰爾戎兵以陟禹之迹	-12.2876
敷奏以言明試以功車服以庸	-12.2876
蕩蕩平平正直	-12.2876
王先服殷御事比介于我有周御事	-12.2876
騁	-12.2876
節性惟日其邁	-12.2876
故乃明于刑之中	-12.2877
曰予恐來世以台為口實	-12.2877
承保乃文祖受命民越乃光烈考武王	-12.2877
是之謂大同身其康彊子孫其逢吉	-12.2877
斫	-12.2877
予念我先神后之勞爾先	-12.2878
若有恒性克綏厥猷惟后	-12.2878
武夷熊氏曰	-12.2878
昳	-12.2878
撫于五辰	-12.2878
周公拜手稽首曰朕復子明辟	-12.2878
凡七卜五占用二衍忒	-12.2878
柰	-12.2878
植璧秉珪	-12.2879
䟦	-12.2879
煽	-12.288
䂓	-12.288
盡執拘以歸于周予其殺	-12.288
眙	-12.288
綌	-12.288
任大責重	-12.2881
畢則多雨	-12.2881
寛綽厥心	-12.2881
天惟純佑命則商實百姓	-12.2881
球琳琅玕	-12.2881
明四目達四聰	-12.2881
暨益奏庶鮮食	-12.2882
文王罔攸兼于	-12.2882
肆祖甲之享國三十有三年	-12.2883
汨陳其五行	-12.2883
渮	-12.2883
無或私家于獄之兩辭	-12.2883
日講書經解義	-12.2883
𢎞敷五典式和民則	-12.2884
個	-12.2884
自時厥後立王生則逸	-12.2885
嘉績于朕邦	-12.2886
炎上作苦曲直作酸從革作辛稼穡作甘	-12.2887
率德改行	-12.2889
鎖	-12.2891
珊	-12.2897
季秋月朔	-12.2952
節書是紀禹	-12.2956
溠	-12.3193
二從三逆	-12.3206
淦	-12.3209
覧	-12.3219
砱	-12.322
映	-12.322
隔八相生	-12.3221
厥田惟上中厥賦中中	-12.3222
苴以白茅	-12.3222
泠	-12.3223
非天庸釋有殷	-12.3224
分土惟三	-12.3225
敷納以言	-12.3225
鋪	-12.3225
少師少傅少保曰三孤	-12.3225
黿	-12.3226
哈	-12.3227
寨	-12.3227
念終始典于學	-12.3227
縣本漢舊縣屬	-12.3228
無胥戕無胥虐	-12.3228
腑	-12.3228
君罔以辯言亂舊政	-12.3228
輳	-12.3229
罔有敵于我師前徒倒戈攻于後以北	-12.3229
予畏上帝不敢不正	-12.3229
帝曰咨汝二十有二人	-12.3229
殷侯尹民	-12.3229
厥田惟下上厥賦下中三錯	-12.3229
亦惟爾多士攸服奔走臣我多遜	-12.323
汪	-12.323
翊	-12.323
欽哉惟時亮天功	-12.323
永孚于休	-12.323
鎔	-12.323
以功作元祀	-12.3231
擢	-12.3231
東漸于海西被于流沙朔南暨聲教	-12.3231
家凶于而國人用側頗僻民用僭忒	-12.3231
嬀	-12.3231
淯	-12.3232
比屋可封	-12.3232
罄	-12.3232
衽	-12.3232
華夏蠻貊罔不率俾	-12.3232
若崩厥角	-12.3232
罰及爾身弗可悔	-12.3232
菜	-12.3233
弗迓克奔以役西土	-12.3233
厖	-12.3233
苻	-12.3233
汝曷弗念我古后之聞	-12.3234
氾	-12.3234
商罪貫盈天命誅之予弗順天厥罪惟鈞	-12.3234
霄	-12.3234
薫	-12.3234
囊	-12.3234
致君澤民	-12.3234
斟	-12.3235
緹	-12.3235
刑新國用輕典	-12.3235
藻火粉米黼黻絺繡	-12.3235
周公曰未可以戚我先王	-12.3236
顧氏錫疇曰	-12.3236
貯	-12.3236
肆嗣王丕承基緒	-12.3236
不役耳目百度惟貞	-12.3236
明王奉若天道	-12.3236
左洞庭右彭蠡	-12.3236
衋	-12.3236
王命衆悉至于庭	-12.3236
亦惟君惟長	-12.3237
報以庶尤	-12.3237
昔先正保衡作我先王	-12.3237
天不庸釋于文王受命	-12.3237
瘁	-12.3238
俚	-12.3238
王惟庸罔念聞	-12.3238
若跣弗視地厥足用傷	-12.3238
爾乃自時洛邑尚永力畋爾田	-12.3239
玉石俱焚	-12.3239
惟其克相上帝寵綏四方	-12.3239
我不敢知曰有夏服天命惟有	-12.3239
惟厥攸居政事惟醇	-12.324
賾	-12.324
躇	-12.324
冷	-12.3241
汝陳時臬	-12.3241
自契至于成湯八遷	-12.3242
掊	-12.3242
亦惟助王宅天命作新民	-12.3243
伊尹祠于先王	-12.3243
時乃不可殺	-12.3245
厓	-12.3247
常事司牧人	-12.3248
剛克髙明柔克	-12.3249
戴九履一	-12.325
厥貢惟土五色	-12.3253
瑚	-12.3255
涐	-12.3516
蒗	-12.3572
見賢遍反	-12.3581
華州華隂縣	-12.3583
汊	-12.3583
下管鼗鼓合止柷敔笙鏞以	-12.3585
賙	-12.3586
卜掌三兆	-12.3587
􁅟	-12.3588
水自江出為沱	-12.3591
海隅蒼生	-12.3591
碭	-12.3591
周公居東二年則罪人斯得	-12.3592
盩	-12.3592
允恭克讓光被四表格于上下	-12.3593
崇徳報功	-12.3594
八音克諧無相奪倫神人以和	-12.3594
撞	-12.3595
緡	-12.3595
厥田惟中上厥賦錯上中	-12.3595
顧炎武曰	-12.3595
鋸	-12.3595
㕓	-12.3595
崐崘析支渠搜	-12.3595
隤	-12.3596
臟	-12.3597
天既訖我殷命	-12.3597
予視天下愚夫愚婦一能勝予	-12.3597
碩	-12.3597
咫	-12.3597
出入起居罔有不欽	-12.3597
允廸厥徳	-12.3597
知之曰明哲明哲實作則	-12.3597
順考古道	-12.3598
擕	-12.3598
伶	-12.3598
讚	-12.3598
醢	-12.3598
姊	-12.3598
史記索隠	-12.3598
達觀于新邑營	-12.3599
竑	-12.3599
威以彰周公之	-12.3599
瀰	-12.3599
嘉謀嘉猷	-12.3599
若網在綱有條而不紊	-12.3599
爾尚輔予一人致天之罰	-12.3599
是信是使是以為大夫卿士	-12.3599
蘉	-12.3599
髓	-12.36
株	-12.36
怙侈滅義	-12.36
卜不習吉	-12.36
附我大邑周	-12.3601
予不敢宿則禋于文王武王	-12.3601
頥	-12.3601
厥貢漆絲厥篚織文	-12.3601
爾曷不忱裕之于爾多方	-12.3601
罔不配天其澤	-12.3601
無曠庶官天工人其代之	-12.3602
周公拜手稽首曰王命予來	-12.3602
齊侯吕伋	-12.3602
尖	-12.3602
齒革羽毛惟木	-12.3602
慢神虐民	-12.3602
王命周公後作冊逸誥	-12.3602
麽	-12.3603
車轍馬跡	-12.3603
䑓	-12.3603
予不允惟若兹誥	-12.3603
另	-12.3603
夏僎撰	-12.3603
四罪而天下咸服	-12.3603
厥土惟黄壤	-12.3603
憶	-12.3603
王若曰父義和	-12.3604
乃穆考文王	-12.3604
庠	-12.3605
凡爾衆其惟致告	-12.3605
滲	-12.3605
王若曰猷殷王元子	-12.3605
夏暑雨小民惟曰怨咨	-12.3605
哲時燠若曰謀時寒若曰聖時風若	-12.3605
澗水東瀍水西	-12.3605
罍	-12.3606
祖乙圯于耿	-12.3606
無塊曰壤	-12.3606
慮善以動動惟厥時	-12.3606
祗載見瞽瞍	-12.3606
嘉言罔攸伏	-12.3606
曰雨曰霽曰蒙曰驛曰克	-12.3606
王來紹上帝自服于土中	-12.3606
二十有八載	-12.3607
焚炙忠良刳剔孕婦	-12.3607
唘	-12.3607
方伯連帥	-12.3607
惟王受命無疆惟休亦無疆惟恤	-12.3607
乃惟孺子頒朕	-12.3607
彞倫攸敘	-12.3608
慎簡乃僚	-12.3608
念敬我衆	-12.3608
眺	-12.3609
厥草惟繇	-12.3609
暨厥終罔顯	-12.3609
有其善喪厥善矜其能喪厥功	-12.3609
之格則承之庸之否則威之	-12.3609
乃裕民曰我惟有及則予一人以懌	-12.361
伊尹作太甲三篇	-12.361
率百官若帝之初	-12.3611
朕夢協朕卜	-12.3611
惟天生聰明時乂	-12.3611
心油然而生	-12.3611
七稽疑擇建立卜筮人乃命卜筮	-12.3611
簮	-12.3611
不遑暇食	-12.3612
或十年或七八年或五六年或四三年	-12.3612
自絶于天結怨于民	-12.3612
跖	-12.3612
有并兩刑	-12.3612
惟以在周工	-12.3613
天非虐惟民自速辜	-12.3613
肆中宗之享國七十有五年	-12.3613
尚書古文疏證	-12.3614
酋	-12.3624
輦	-12.3628
犍	-12.3887
啻	-12.3916
堡	-12.3962
尚書句解卷	-12.3963
椎	-12.3963
奈	-12.3964
娑	-12.3964
后來其蘇	-12.3965
59.	-12.3967
唇	-12.3969
州山鎮曰	-12.3973
坡	-12.3974
浮于洛達于河	-12.3975
胝	-12.3976
阡	-12.3976
胼	-12.3976
岷山之陽至于衡山過九江至于敷淺原	-12.3977
明試以功	-12.3977
忤	-12.3977
瀉	-12.3978
熊耳外方桐柏至于陪尾	-12.3978
小曰橘大曰柚	-12.3978
稹	-12.3978
凜	-12.3978
爾尚一乃心力其克有勲	-12.3978
羗	-12.3979
䨇	-12.3979
灰	-12.3979
蒿	-12.3979
沲	-12.398
有猷有為有守	-12.398
塗丹雘	-12.398
𢾗	-12.398
涂	-12.3981
天子惟君萬邦百官承式	-12.3981
漿	-12.3981
后克艱厥后臣克艱厥臣政乃乂黎民敏	-12.3981
脊以東之水	-12.3981
二千一百八十七	-12.3981
熊羆狐狸	-12.3982
螫	-12.3982
宜于冢土	-12.3982
炊	-12.3982
繅	-12.3982
其一曰皇祖有訓	-12.3982
辟管叔于商	-12.3982
儕	-12.3982
弼成五服至于五千州十有二師	-12.3983
牝雞之晨惟家之索	-12.3983
其爾衆士懋戒哉	-12.3983
我先后綏乃祖乃父	-12.3983
翕受敷施	-12.3983
故我至于今克受殷之命	-12.3983
七旬有苗格	-12.3983
予創若時娶于塗山辛壬癸甲	-12.3983
為人上者奈何不敬	-12.3983
篾	-12.3984
貼	-12.3984
監我士師工	-12.3984
誕保文武受民	-12.3984
其惟王勿以小民淫用非	-12.3984
桎	-12.3984
紳	-12.3984
懋昭周公之訓	-12.3984
汝不憂朕心之攸困	-12.3984
詎	-12.3984
越五日甲寅位成	-12.3984
勳	-12.3984
不愆于四伐五伐六伐七伐乃止齊焉	-12.3985
具乃貝玉	-12.3985
慄慄危懼若將隕于深淵	-12.3985
考朕昭子刑	-12.3985
霧	-12.3985
予旦以多子越御事篤前人成烈	-12.3985
乃言曰我聞在昔鯀陻洪水汨陳其五行	-12.3986
降之百殃	-12.3986
太保受同祭嚌	-12.3986
伶州鳩	-12.3986
惇宗將禮稱秩元祀咸秩無文	-12.3986
敬授民時	-12.3986
歸格于藝祖	-12.3986
人心惟危道心惟微惟精惟一允執厥中	-12.3986
勱	-12.3986
王敬作所不可不敬徳	-12.3986
罰移爾遐逖比事臣我宗多遜	-12.3987
爍	-12.3987
九山刋旅九川滌源九澤既陂	-12.3987
厥四月哉生明	-12.3987
鼂	-12.3987
九澤既陂	-12.3988
辛壬癸甲	-12.3988
欲敗度縱敗禮以速戾于厥躬	-12.3988
祗台徳先不距朕行	-12.3989
爾有善朕弗敢蔽	-12.3989
我心之憂日月逾邁若弗云來	-12.3989
格人元龜罔敢知吉	-12.3989
疚	-12.3989
害虐烝民為天下逋逃主萃淵藪	-12.399
劓割夏邑	-12.399
佾	-12.399
汝乃是不蘉乃時惟不永哉	-12.399
造攻自鳴條朕哉自亳	-12.399
今予將試以汝遷安定厥邦	-12.399
祸	-12.399
爾尚不忌于凶	-12.399
股肱惟人良臣惟聖	-12.399
若藥弗瞑眩厥疾弗瘳	-12.399
序所以為作者之意	-12.3991
用其義刑義殺勿庸以次汝封	-12.3991
冬祁寒小民亦惟曰怨咨	-12.3991
各守爾典以承天休	-12.3991
此一莭書	-12.3991
欵	-12.3991
嚴惟丕式	-12.3991
褊	-12.3991
順乎天而應乎人	-12.3992
惟克商遂通道于九夷八蠻	-12.3992
兹予大享于先王爾祖其從與享之	-12.3993
移爾遐逖	-12.3993
天子建徳因生	-12.3993
不知稼穡之艱難不聞小人之勞惟耽樂	-12.3993
月之從星則以風雨	-12.3993
煑	-12.3993
子之光曰天子作民父母以為天下王	-12.3994
乃審厥象俾以形旁求于天下	-12.3994
保后胥慼	-12.3994
厥賦惟上上錯厥田惟中中	-12.3995
孺子其朋孺子其朋其	-12.3995
王若曰明大命于妹邦	-12.3996
韌	-12.3997
刑期無刑	-12.3997
惟受罪浮于桀	-12.3997
兹在兹釋兹在兹	-12.3997
爾其孜孜奉予一人恭行天罰	-12.3998
茂州汶山縣	-12.3998
惟天惠民惟辟奉天	-12.3998
予違汝弼汝無面從退有後言	-12.3998
厥木惟條	-12.3998
逄	-12.3999
亮采惠疇	-12.3999
燼	-12.3999
􁆣	-12.4
受有億兆夷人離心離	-12.4
紓	-12.4001
軼	-12.4002
暈	-12.4347
藝文類聚	-12.4359
洺	-12.436
瞭	-12.4368
嫂	-12.4368
扼	-12.437
鎛	-12.4371
鼈	-12.4373
喧	-12.4373
澇	-12.4374
曄	-12.4375
佃	-12.4375
隗	-12.4376
乃惟以爾多方之義民不克永于多享	-12.4377
庳	-12.4377
罔不懼于非辜	-12.4378
好呼報反	-12.4378
西傾朱圉鳥鼠至于太華	-12.4378
茭	-12.4378
越翼日戊午乃社于新邑牛一羊一豕一	-12.4378
鵌	-12.4379
我無以告我先王	-12.4379
王曰公予小子其退即辟于周命公後	-12.4379
頡	-12.438
必求諸道有言遜于汝志必求諸非道	-12.438
邦君有一于身國必亡	-12.438
東受降城	-12.438
両	-12.4381
奪攘矯䖍	-12.4381
建邦啓土	-12.4382
侯甸男采衞	-12.4382
婣	-12.4382
昨	-12.4382
弼亮四世	-12.4382
殺受立武庚	-12.4382
自古商人亦越我周文王立政立事牧夫	-12.4382
芮伯彤伯	-12.4382
于桃林之野示天下弗服	-12.4383
雖爾身在外乃心罔不在王室	-12.4383
撕	-12.4383
乃偃武修文歸馬于華山之陽放牛	-12.4383
文考文王克成厥勲誕膺天命以撫方夏	-12.4383
天秩有禮自我五禮有庸哉	-12.4383
迥	-12.4383
惟四月哉生魄王不懌	-12.4384
鷩	-12.4384
咨十有二牧曰食哉惟時	-12.4384
穉	-12.4385
厥土惟塗泥厥田惟下中厥賦上下	-12.4385
俾予一人輯寧爾邦家	-12.4385
天矜于民民之所欲天必從之	-12.4385
命君陳分正東郊成周	-12.4385
帝曰咨四岳有能典朕三禮僉曰伯夷	-12.4385
怯	-12.4385
以秬鬯二卣曰明禋拜手稽首休享	-12.4385
箱	-12.4385
縻	-12.4386
今商王受無道暴殄天物	-12.4386
猜	-12.4386
闌	-12.4386
獺	-12.4386
予惟率肆矜爾非予罪時惟天命	-12.4387
命汝作納言夙夜出納朕命惟允	-12.4387
用爽厥師	-12.4387
姚氏舜牧曰	-12.4387
悱	-12.4387
先知稼穡之艱難乃逸則知小人之依	-12.4387
王曰多士昔朕來自奄	-12.4387
三旬苗民逆命	-12.4388
王曰封我聞惟曰在昔殷	-12.4388
三百五十四日	-12.4388
王釋冕反喪服	-12.4388
東漸西被	-12.4388
于弟弗念天顯乃弗克恭厥兄	-12.4388
慎厥終惟其始	-12.4388
爾有嘉謀嘉猷則入告爾后于内	-12.4388
刑平國用中典	-12.4388
閤	-12.4389
霆	-12.4389
餓	-12.4389
亦則以穆穆在乃位	-12.4389
天視自我民視	-12.4389
官伯族姓	-12.4389
堯授舜舜授禹	-12.4389
肆予東征綏厥士女惟其士女篚厥	-12.4389
予告汝于難若射之有志	-12.439
六律五聲八音	-12.439
殻	-12.439
天乃錫王勇智	-12.439
趵	-12.439
海物惟錯	-12.4391
曰其自時中乂萬邦咸休惟王有成績	-12.4391
惟治亂在庶官	-12.4391
克諧以孝烝烝乂不格姦	-12.4391
俾萬姓咸曰大哉王言	-12.4391
罔遊于逸罔淫于樂	-12.4392
締	-12.4392
方行天下至于海表罔有不服	-12.4392
惟事事乃其有備有備無患	-12.4392
不役志于享凡民惟曰不享惟事其爽侮	-12.4392
今我即命于元龜	-12.4393
懵	-12.4393
我不可不監于有夏亦不可不監于有殷	-12.4393
汝其敬識百辟享亦識其有不	-12.4393
郃	-12.4393
禹拜曰都帝予何言予思日孜孜	-12.4393
君陳克和厥中	-12.4393
購	-12.4394
馬氏森曰	-12.4394
若曰豫恒燠若曰急恒寒若曰蒙恒風若	-12.4394
公曰君告汝朕允	-12.4394
我聞吉人為善惟日不足	-12.4394
平康正直彊弗友剛克燮友柔克	-12.4394
其刑其罰其審克之	-12.4394
昔之人無聞知	-12.4394
以五采彰施于五色作服汝明	-12.4395
彷	-12.4395
召公為保周公為師相成王為左右	-12.4395
蹇	-12.4395
佑我烈祖格于皇天	-12.4395
亦罔不克敬典乃由裕民惟文王之敬忌	-12.4396
爾無忿疾于頑無求備于一夫	-12.4396
爾身克正罔敢弗正民心罔中惟爾之中	-12.4396
民受天地之中以生	-12.4396
乃用三有宅克即宅曰三有俊克即俊	-12.4396
譊	-12.4396
彚	-12.4397
皇天眷命奄有四海為天下君	-12.4397
惟口出好興戎朕言不再	-12.4398
黒水西河惟雍州	-12.4398
麄	-12.4399
緑	-12.4418
凡我造邦	-12.4747
笛	-12.4781
疻	-12.4782
兼弱攻昧	-12.4785
廼	-12.4786
峒	-12.4786
肆爾多士非我小國敢弋殷命	-12.4788
腰	-12.4788
忞	-12.4788
纊細綿	-12.4788
𬒳	-12.4789
壄	-12.4789
洑	-12.479
詢謀僉同	-12.4791
戛擊鳴球搏拊琴瑟以詠	-12.4794
導岍及岐至于荆山逾于河	-12.4794
盆	-12.4794
公將不利於孺子	-12.4794
王庸作書以誥曰	-12.4795
内卦為貞外卦為悔	-12.4795
既生魄庶邦冢君暨百工受命于周	-12.4795
蓄疑敗謀	-12.4795
矧予之徳言足	-12.4795
跌	-12.4795
萬邦黎獻共惟帝臣惟帝時舉	-12.4796
肆亦見厥君事戕敗人宥	-12.4796
越三日丁巳用牲于郊牛二	-12.4796
岫	-12.4797
越七日甲子周公乃朝用書命	-12.4797
惟九年大統未集予小子其承厥志	-12.4797
恭從明聰睿	-12.4797
乃言厎可績	-12.4798
厥貢璆鐵銀鏤砮磬	-12.4798
挾武庚以叛	-12.4798
予其曰惟爾洪無度我不爾動自乃邑	-12.4798
惟朕小子其新逆	-12.4798
叔卒乃命諸王邦之蔡	-12.4798
舜讓于徳弗嗣	-12.4798
殄戮多罪亦克用勸開釋無辜亦克用勸	-12.4798
苫	-12.4799
王執書以泣曰其勿穆卜	-12.4799
二曰月三曰日四曰星辰五曰厯數	-12.4799
徭	-12.48
乃非民攸訓非天攸若時人丕則有愆	-12.48
服田力穡	-12.48
師氏虎臣百尹御事	-12.48
穰	-12.48
又曰時惟爾初不克敬于和則無我怨	-12.48
撿	-12.48
非天私我有商惟天佑	-12.48
惟三月周公初于新邑洛用告商王士	-12.4801
商今其有災我興受其敗	-12.4801
斃	-12.4801
岷山導江東别為沱又東至于澧	-12.4801
予大降爾四國民命我乃明致天	-12.4801
絹	-12.4801
有鰥在下曰虞舜	-12.4801
帝曰禹官占惟先蔽志昆命于元龜	-12.4802
流放竄殛	-12.4802
筒	-12.4802
爭能汝惟不伐天下莫與汝爭功	-12.4802
駒	-12.4802
延入翼室恤宅宗	-12.4802
篤棐時二人我式克至于今日休	-12.4802
不敢侮鰥寡庸庸祗祗威威顯民	-12.4802
罰之屬三百大辟之罰其屬二百	-12.4802
洪惟圖天之命弗永寅念于祀	-12.4802
欽若先王成烈以休于前政	-12.4802
文王受命惟中身厥享國五十年	-12.4803
赧	-12.4803
殺戮無辜爰始	-12.4803
無違朕不敢有後無我怨	-12.4803
篤敘乃正父	-12.4803
與治同道罔不興與亂同事罔不亡	-12.4803
斷乃罔後艱	-12.4803
導沇水東流為濟入于河溢為滎	-12.4803
五辭簡孚正于五刑	-12.4803
爾無昵于憸人充耳目之官	-12.4804
嗚呼臣人咸若時惟良顯哉	-12.4804
剛克高明柔克	-12.4804
以容將食無災	-12.4804
斷制五刑以亂無辜上帝不蠲	-12.4804
后式典集庶邦丕享	-12.4804
漷	-12.4804
今商王受弗敬上天降災下民	-12.4804
二十有八載帝乃殂落	-12.4804
大戰于甘乃召六卿	-12.4804
稠	-12.4804
𤣥黄昭我周王天休震動用附我大邑周	-12.4805
孺子來相宅其大惇典殷獻民亂	-12.4805
公不敢不敬天之休來相宅其作周匹休	-12.4806
我惟無斁其康事公勿替刑四方其世享	-12.4806
纉禹舊服	-12.4806
以佑乃辟永康兆民萬邦惟無斁	-12.4806
告君乃猷裕我不以後人迷	-12.4806
資富能訓惟以永年	-12.4806
岳曰瞽子父頑母嚚象傲	-12.4806
有不期然而然者	-12.4806
失于政陳于兹	-12.4806
公其惟時成周建無窮之基	-12.4807
立太師太傅太保兹惟三公	-12.4807
排淮泗而注之江	-12.4807
入應門左畢公率東方諸侯入應門右	-12.4807
售	-12.4807
有天命謂敬不足行謂祭無益謂暴無傷	-12.4807
鐫	-12.4807
漓	-12.4807
爾不克敬爾不啻不有爾土予亦	-12.4807
乃言底可績	-12.4808
王曰汝陳時臬事罰蔽殷	-12.4808
有臣億萬惟億萬心予有臣三千惟一心	-12.4808
椁	-12.4808
于父不能字厥子乃疾厥子	-12.4808
五子咸怨述大禹之戒以作歌	-12.4808
侉	-12.4808
氂	-12.4808
厥不聽人乃訓之乃變亂先王之正刑至	-12.4808
乃曰予弗克俾厥后惟堯舜其心	-12.4808
故一人有事于四方若卜筮罔不是孚	-12.4808
放僻邪侈	-12.4808
疑謀勿成	-12.4808
予不敢閉于天降威用	-12.4809
今汝永念則有固命厥亂明我新造邦	-12.4809
今我民用蕩析離居罔有定極	-12.4809
詮	-12.4809
謾	-12.4809
肻	-12.4809
人乃或譸張為幻	-12.4809
父子有親君臣有義	-12.4809
乃元孫不若旦多材多藝不能事鬼神	-12.4809
王歸自克夏至于亳誕告萬方	-12.4809
天降割于我家	-12.4809
爾之許我我其以璧與珪歸俟爾	-12.4809
享享多儀儀不及物惟曰不享	-12.481
速由文王作罰	-12.481
爾曷不夾介乂我周王享天之命	-12.481
湼	-12.481
夷微盧烝三亳阪尹	-12.481
遏佚前人光	-12.481
古我先王亦惟圖任舊人共政	-12.4811
予曰宥爾惟勿宥惟厥中	-12.4811
厥愆曰朕之愆允若時不啻不敢含怒	-12.4811
厥考翼其肯曰予有後弗棄基	-12.4811
若不在時侯以明之撻以記之書用識	-12.4811
若兄考乃有友伐厥子民養其勸弗救	-12.4811
明作有功惇大成裕汝永有辭	-12.4811
迪簡在王庭尚爾事有服在大僚	-12.4812
今王即命曰記功宗以功作元祀	-12.4812
亦越成湯陟丕釐上帝之耿命	-12.4812
以覲文王之耿光以揚武王之大烈	-12.4813
熬	-12.4813
予齊百工伻從王于周予惟曰庶有事	-12.4814
周公曰嗚呼我聞曰昔在殷王中宗	-12.4814
朕夢協朕卜襲于休祥戎商必克	-12.4814
聃	-12.4815
厥罪小乃不可不殺乃有大罪非終乃惟	-12.4815
在太戊時則有若伊陟臣扈格于上帝	-12.4815
倚法以削	-12.4816
詰姦慝刑暴亂	-12.4816
蟬	-12.4817
我聞亦惟曰在今後嗣王酣身	-12.4817
御非其馬之正	-12.4818
進厥良以率其或不良	-12.4818
雖有周親不如仁人	-12.4819
簡厥修亦簡其或不修	-12.4821
牁	-12.516
緱	-12.5203
咽	-12.5214
漣	-12.5221
五萬九千四十九	-12.5223
夏社疑至臣扈	-12.5224
濞	-12.5226
西傾朱圉鳥鼠	-12.5226
㦯	-12.5226
邕	-12.5227
獻臣百宗工	-12.5227
三邦厎貢厥名	-12.5228
􁂵	-12.5228
朝直遥反	-12.5228
兕	-12.5229
南至下邳入泗	-12.5229
頸	-12.5229
蹶	-12.523
無敢不供汝則有無餘刑非殺	-12.523
葭	-12.523
透	-12.523
東南據濟西北距河	-12.5231
乃惟爾商後王逸厥逸	-12.5231
䳜	-12.5231
岯	-12.5231
以同授宗人	-12.5231
楛矢石砮	-12.5231
西被于流沙	-12.5232
禹曰吁咸若時惟帝其難之知人則哲能	-12.5232
侯甸男邦采衞	-12.5232
惟時上帝集厥命于文王	-12.5233
霤	-12.5233
庵	-12.5234
華陽黒水惟梁州	-12.5234
三令五申	-12.5234
天用勦絶其命	-12.5234
腦	-12.5234
泇	-12.5234
乃命爾先祖成湯革夏俊民甸四方	-12.5234
夏王弗克庸徳	-12.5234
左輔右弼	-12.5234
邁迹自身	-12.5234
乃大降罰崇亂有夏因甲于内亂	-12.5234
乃惟四方之多罪逋逃是崇是長	-12.5234
惟爾知惟殷先人有冊有典殷革夏命	-12.5234
醟	-12.5235
自土沮漆	-12.5235
惟夏之恭多士大不克明保享于民	-12.5235
濋	-12.5235
周公曰王若曰猷告爾四國多方	-12.5235
管叔于商囚蔡叔于郭鄰以車七	-12.5235
上下勤恤其曰我受天命丕若有夏	-12.5235
分命和仲宅西曰昧谷	-12.5235
若曰爾殷多士今惟我周王丕靈承帝事	-12.5235
劬	-12.5236
吉凶軍賓嘉	-12.5236
右不攻于右汝不恭命	-12.5236
禹曰枚卜功臣惟吉之從	-12.5236
仭	-12.5236
直而温寛而栗剛而無虐簡而無傲	-12.5236
眞氏德秀曰	-12.5236
罪當朕躬弗敢自赦惟簡在上帝之心	-12.5236
㓗	-12.5236
若農服田力穡乃亦有秋	-12.5237
𠞰	-12.5237
惟五月丁亥王來自奄至于宗周	-12.5237
乃不良于言予罔聞于行	-12.5237
有服在大僚	-12.5237
王曰猷告爾多士予惟時其遷居西爾	-12.5237
于周周公咸勤乃洪大誥治	-12.5237
拳	-12.5237
恐不獲誓言嗣	-12.5237
宅爾邑繼爾居爾厥有幹有年于兹洛	-12.5237
潘氏士遴曰	-12.5237
蕞	-12.5237
肘	-12.5238
天之厯數在爾躬	-12.5238
敷求哲人俾輔于爾後嗣	-12.5238
自靖人自獻于先王我不顧行遯	-12.5238
嗚呼惟我文考若日月之照臨	-12.5238
隂騭下民相協厥居	-12.5238
天道福善禍淫降災于夏以彰厥罪	-12.5238
息齋余氏曰	-12.5238
我西土棐徂邦君御事小子尚克用文王	-12.5238
圖厥政莫或不艱	-12.5238
爾克敬天惟畀矜爾	-12.5238
盡善盡美	-12.5238
葉氏夢得曰	-12.5238
汝克黜乃心	-12.5238
謫	-12.5239
爾其戒哉爾惟風下民惟草	-12.5239
倭	-12.5239
曰告爾殷多士今予惟不爾殺予惟時命	-12.5239
今我曷敢多誥我惟大降爾四國民命	-12.5239
王曰嗚呼肆汝小子封惟命不于常	-12.5239
天畏棐忱民情大可見小人難保	-12.5239
貉	-12.524
嗚呼乃祖成湯克齊聖廣淵	-12.524
帝曰俾予從欲以治四方風動惟乃之休	-12.524
詔王子出迪	-12.524
十龠為合	-12.524
公曰前人敷乃心乃悉命汝作汝民極	-12.524
御非其馬之正汝不恭命	-12.524
昔君文武丕平富不務咎	-12.524
嗚呼王若曰誥告爾多方非天庸釋有夏	-12.524
遺厥先宗廟弗祀	-12.524
嗚呼尚克時忱乃亦有終	-12.524
居寵思危罔不惟畏弗畏入畏	-12.524
帳	-12.5241
無怠無荒四夷來王	-12.5241
人未見聖若不克見既見聖亦不克由聖	-12.5241
用五紀次五曰建用皇極次六曰乂用三	-12.5241
予迓續乃命于天予豈汝威用奉畜汝衆	-12.5241
虞芮質成	-12.5241
克勤于邦克儉于家不自滿假惟汝賢	-12.5241
暴殄天物	-12.5241
列爵分土	-12.5241
今惟殷墜厥命我其可不大監撫于時	-12.5241
天作孽猶可違自作孽不可逭	-12.5242
罪在朕躬	-12.5242
天生民而立之君	-12.5242
噩	-12.5242
乃伻我有夏式商受命奄甸萬姓	-12.5242
惟予小子嗣守文武成康遺緒	-12.5242
王曰嗚呼多士爾不克勸忱我命	-12.5242
搢	-12.5242
作福作威玉食	-12.5242
不睦爾惟和哉爾邑克明爾惟克勤乃事	-12.5242
予惟曰汝劼毖殷獻臣	-12.5242
聮	-12.5242
䏻	-12.5242
乃命三后恤功于民伯夷降典折民惟刑	-12.5242
今予以爾有衆奉將天罰	-12.5242
火炎崑岡	-12.5242
楫	-12.5243
建官惟賢位事惟能重民五教惟食	-12.5243
紬	-12.5243
明王立政不惟其官惟其人	-12.5243
昔君文王武王宣重光	-12.5243
王曰封元惡大憝矧惟不孝不友	-12.5243
曰嗚呼厥亦惟我周太王王季克自抑畏	-12.5243
士有正越庶伯君子其爾典	-12.5244
劾	-12.5244
王曰嗟四方司政典獄非爾惟作天牧	-12.5244
爾乃不大宅天命爾乃屑播天命	-12.5244
厥或誥曰羣飲汝勿佚	-12.5244
愬	-12.5244
水由地中行	-12.5244
王曰若昔朕其逝朕言艱日思	-12.5244
若伊尹格于皇天在太甲時則有若保衡	-12.5244
惟天降命肇我民惟元祀	-12.5244
制治保邦	-12.5244
徠	-12.5245
乃别播敷造民大譽弗念弗庸	-12.5245
嗚呼欽予時命其惟有終	-12.5245
今汝其曰夏罪其如台	-12.5245
不能厥家人越厥小臣外正	-12.5246
言曰在時二人天休滋至惟時二人弗戡	-12.5246
柞	-12.5246
天乃佑命成湯降黜夏命	-12.5246
天惟畀矜爾我有周惟其大介賚爾	-12.5246
取彼凶殘我伐用張于湯有光	-12.5246
饕	-12.5246
帝曰契百姓不親五品不遜	-12.5246
頟	-12.5246
乃有不用我降爾命我乃其大罰殛之	-12.5246
罔敢湎于酒不惟不敢亦不暇	-12.5247
涓	-12.5247
周公曰嗚呼我聞曰古之人猶胥訓告	-12.5247
䀌	-12.5247
邶	-12.5247
殷民在辟予曰辟爾惟勿辟	-12.5248
晳	-12.5248
戻	-12.5248
爾謂朕曷震動萬民以遷	-12.5249
古人有言曰撫我則后虐我則	-12.525
有罪無罪予曷敢有越厥志	-12.5251
嗣爾股肱純其藝黍稷奔走事厥考厥長	-12.5251
宥過無大刑故無小罪疑惟輕功疑惟重	-12.5252
垻	-12.5252
爽惟天其罰殛我我其不怨	-12.5254
恠	-12.5254
旁招俊乂	-12.5255
畮	-12.5262
韈	-12.5263
檜	-12.5263
雋	-12.5622
陞	-12.5634
莆	-12.5671
鮑	-12.5673
克寛克仁	-12.5675
街	-12.5677
文王九十七而終	-12.5679
降霍叔于庶人	-12.5679
擇建立卜筮人	-12.568
􁆦	-12.568
其浸波溠	-12.5681
厥貢惟金三品	-12.5682
甑	-12.5682
卿士邦君麻冕蟻裳入即位	-12.5682
夹	-12.5683
僎	-12.5683
怛	-12.5684
鵲	-12.5684
帝曰格汝舜詢事考言乃言	-12.5685
洹	-12.5685
峪	-12.5685
悴	-12.5685
汝若恒越曰我有師師	-12.5685
䳺	-12.5685
乃惟成湯克以爾多方簡代夏作民主	-12.5685
五百里荒服三百里蠻二百里流	-12.5685
朔南暨聲教	-12.5685
皁	-12.5686
吸	-12.5686
諸侯各朝于方岳	-12.5686
天討有罪五刑五用哉政事懋哉懋哉	-12.5686
訑	-12.5687
亦惟天丕建保乂有殷殷王亦罔敢失帝	-12.5687
尚書要義卷	-12.5687
度其隰原	-12.5688
乃告二公曰我之弗辟我無以告我先王	-12.5688
我非敢勤惟恭奉幣用供王能祈天永命	-12.5688
公明保予沖子	-12.5688
予亦念天即于殷大戾肆不正	-12.5688
東序西嚮	-12.5688
太保太史太宗皆麻冕彤裳	-12.5688
今至于爾辟弗克以爾多方享天之命	-12.5688
剏	-12.5689
古我先后既勞乃祖乃父	-12.5689
裝	-12.5689
用奉恤厥若無遺鞠子羞	-12.5689
武王戎車三百兩	-12.5689
灕	-12.5689
我乃卜澗水東瀍水西惟洛食	-12.569
天惟求爾多方大動以威開厥顧天	-12.569
悝	-12.569
􁆞	-12.569
予曷其極卜敢弗于從	-12.569
羣僕侍御之臣	-12.569
左不攻于左汝不恭命	-12.569
越三日庚戌太保乃以庶殷攻位于洛汭	-12.5691
王曰公功棐迪篤罔不若時	-12.5691
天惟時求民主乃大降顯休命于成湯	-12.5691
撲	-12.5691
申命和叔宅朔方曰幽都平在朔易	-12.5691
四方迪亂未定于宗禮亦未克敉公功	-12.5691
我不敢知曰厥基永孚于休若天棐忱	-12.5691
若虞機張往省括于度則釋	-12.5691
澁	-12.5692
牝	-12.5692
王用丕欽罔有逸言民用丕變	-12.5692
今予命汝作大正正于羣僕侍御之臣	-12.5692
乃敗禍姦宄以自災于厥身	-12.5692
惟元祀十有二月乙丑伊尹祠于先王	-12.5692
昉	-12.5692
𤣥衣纁裳	-12.5692
渃	-12.5693
亦敢殄戮用乂民若有功	-12.5693
飯	-12.5693
械	-12.5693
王命作冊逸祝冊惟告周公其後	-12.5693
前徒倒戈	-12.5693
僕臣正厥后克正僕臣	-12.5693
昧昧我思之	-12.5693
學古入官議事以制政乃不迷	-12.5693
曰惟祖惟父其伊恤朕躬	-12.5693
予欲觀古人之象日月星辰山龍華蟲作	-12.5694
泮	-12.5694
汝不和吉言于百姓惟汝自生毒	-12.5694
戒爾卿士功崇惟志業廣惟勤惟克果	-12.5694
欽定書經傳說彚纂卷	-12.5694
葘	-12.5694
其能而亂四方以敬忌天威	-12.5694
乃敢告教厥后曰拜手稽首后矣	-12.5694
栽者培之傾者覆之	-12.5694
其爾典常作之師無以利口亂厥官	-12.5694
旦曰其作大邑其自時配皇天毖祀	-12.5694
今汝聒聒起信險膚予弗知乃所訟	-12.5694
宋魏了翁撰	-12.5694
畢獻方物	-12.5694
聞曰上帝引逸有夏不適逸則惟帝降格	-12.5694
動丕應徯志以昭受上帝天其申命用休	-12.5695
今其有今罔後汝何生在上	-12.5695
瓊	-12.5695
爾亦則惟不克享凡民惟曰不享	-12.5695
知我國有疵民不康曰予復反鄙我周邦	-12.5695
周公曰嗚呼君子所其無逸	-12.5696
墨罰之屬千劓罰之屬千剕罰之屬五百	-12.5696
帝曰俞咨禹汝平水土惟時懋哉	-12.5696
愽	-12.5696
爾萬方百姓罹其凶害弗忍荼毒	-12.5696
敗度敗禮	-12.5696
自作不和爾惟和哉爾	-12.5696
今天其相民矧亦惟卜用	-12.5696
相小人厥父母勤勞稼穡	-12.5696
惇徳允元	-12.5696
我亦不敢知曰其終出于不祥	-12.5696
惇大成裕	-12.5696
越獻臣百宗工矧惟爾事服休服采	-12.5696
恐人倚乃身迂乃心	-12.5696
嗚呼天明畏弼我丕丕基	-12.5696
三后成功惟殷于民	-12.5696
斿	-12.5697
在治忽以出納五言汝聽	-12.5697
反曰嗚呼乃罪多參在上乃能責命于天	-12.5697
天棐忱辭其考我民予曷其不于前	-12.5697
功乃成不貴異物賤用物民乃足	-12.5697
轂	-12.5697
爾惟訓于朕志	-12.5697
四門穆穆納于大麓烈風雷雨弗迷	-12.5697
淫酗肆虐臣下化之	-12.5697
腋	-12.5697
今命爾予翼作股肱心膂	-12.5697
率惟兹有陳保乂有殷故殷禮陟配天	-12.5698
大弗克恭上下遏佚前人光在家不知	-12.5698
鄯州龍支縣	-12.5698
曰格汝禹朕宅帝位三十有三載耄期倦	-12.5698
豎	-12.5698
爾乃邁迹自身克勤無怠以垂憲乃後	-12.5698
瘝厥君時乃引惡惟朕憝	-12.5698
爾尚克羞饋祀爾乃自介用逸	-12.5698
周公曰嗚呼嗣王其監于兹	-12.5699
遲任有言曰人惟求舊器非求舊惟新	-12.5699
析因夷隩	-12.5699
舉能其官惟爾之能稱匪其人惟爾不任	-12.5699
攬	-12.5699
曰雨曰暘曰燠曰寒曰風	-12.5699
爾乃自作不典圖忱于正	-12.5699
義爾邦君越爾多士尹氏御事	-12.57
明清于單辭	-12.57
永畏惟罰非天不中惟人在命	-12.57
武王惟兹四人尚迪有禄	-12.57
暨汝奭其濟小子同未在位	-12.57
書蔡氏傳旁通卷	-12.57
肆予沖人	-12.57
王若曰猷大誥爾多邦越爾御事	-12.57
為善不同同歸于治為惡不同同歸于亂	-12.57
塲	-12.5701
嵯	-12.5701
疴	-12.5701
羣后之逮在下明明棐常鰥寡無	-12.5701
不敢自暇自逸矧曰其敢崇飲	-12.5701
五刑之疑有赦五罰之疑有赦其審克之	-12.5701
緅	-12.5701
有夏桀弗克若天流毒下國	-12.5702
伊尹作書曰先王顧諟天之明命	-12.5702
自今至于後日各恭爾事齊乃位度乃口	-12.5703
曰要囚服念五六日至于旬時丕蔽要囚	-12.5703
文王武王克知三有宅心灼見三有俊心	-12.5703
汝猷黜乃心	-12.5703
爾衆士同力王室尚弼予欽承天子威命	-12.5704
敢知曰不其延惟不敬厥德乃早墜厥命	-12.5704
朕及篤敬恭承民命用永地于新邑	-12.5704
􁆈	-12.5704
譖	-12.5705
告于衆曰嗟予有衆	-12.5705
惟府辜功	-12.5707
逈	-12.5708
承以大夫師長不惟逸豫惟以亂民	-12.571
其或不恭邦有常刑	-12.5712
棉	-12.5713
駱	-12.613
逕葭萌入漢	-12.6148
邯	-12.615
夑	-12.615
濊	-12.615
漊	-12.6152
儀禮經傳通解	-12.6152
近附近之近	-12.6152
埸	-12.6154
杳	-12.6155
歇	-12.6155
盎	-12.6155
嗟人無譁聽命	-12.6156
皐	-12.6157
虞芮質厥成	-12.6157
贍	-12.6157
瑤	-12.6157
稱爾戈比爾干立爾矛予其誓	-12.6159
聫	-12.6159
王曰古人有言曰牝雞無晨	-12.6159
曩	-12.6159
濛	-12.616
糜	-12.616
而康而色曰予攸好徳汝則錫之福	-12.616
杪	-12.616
殤	-12.616
水從西來注之	-12.616
冕執劉立于東堂一人冕執鉞立于西堂	-12.616
大玉夷玉天球河圖在東序	-12.6161
畊	-12.6162
犛	-12.6162
天命弗僭賁若草木兆民允殖	-12.6162
沌	-12.6162
覿	-12.6162
三宿三祭三咤	-12.6163
弗率訓典殊厥井疆俾克畏慕	-12.6163
夏迪簡在王庭	-12.6163
鈴	-12.6164
今蠢今翼日民獻有十夫予翼以于敉	-12.6164
襍	-12.6164
其有聽念于先王勤家	-12.6164
兼攻取侮	-12.6164
家給人足	-12.6164
買	-12.6164
亦惟先正克左右昭事厥辟	-12.6164
禹能修鯀之功	-12.6164
陲	-12.6164
王末有成命王亦顯	-12.6164
惟爾多方罔堪顧之	-12.6164
尚式時周公之猷訓惟日孜孜無敢逸豫	-12.6165
郕	-12.6165
民咨胥怨	-12.6165
有斯明享乃不用我	-12.6165
亦惟有夏之民叨懫日欽劓割夏邑	-12.6165
明明我祖萬邦之君有典有則貽厥子孫	-12.6165
怕	-12.6165
王翼日乃瘳	-12.6165
其爾克紹乃辟于先王永綏民	-12.6166
桞	-12.6166
乾隆四十六年	-12.6166
五百里要服三百里夷二百里蔡	-12.6166
二公及王乃問諸史與百執事	-12.6166
王其徳之用祈天永命	-12.6166
朓	-12.6166
王曰我不惟多誥我惟祗告爾命	-12.6166
政貴有恒辭尚體要不惟好異	-12.6166
今我民罔弗欲喪	-12.6167
惟嗣王不惠于阿衡	-12.6167
一人三失怨豈在明不見是圖	-12.6167
五過之疵惟官惟反惟内惟貨惟來	-12.6167
產	-12.6167
憸人其惟吉士用勱相我國家	-12.6167
四曰攸好徳五曰考終命	-12.6168
以厥庶民暨厥臣達大家	-12.6168
用肇造我區夏越我一二邦以修	-12.6168
越若來三月惟丙午朏越三日戊申太	-12.6168
初一曰五行次二曰敬用五事次三曰	-12.6168
責人斯無難惟受責俾如流是惟艱哉	-12.6168
率乃祖攸行	-12.6168
其作汝用咎	-12.6168
乃命建侯樹屏在我後之人	-12.6169
賡載歌曰元首明哉股肱良哉庶事康哉	-12.6169
越予小子考翼不可征王害不違卜	-12.6169
憒	-12.6169
乃司兹率厥常懋昭周公之訓惟民其乂	-12.6169
嗚呼皇天上帝改厥元子兹大國殷之命	-12.6169
嗚呼繼自今後王立政其惟克用常人	-12.6169
汝共作我畜民汝有戕則在乃心	-12.6169
造次顛沛	-12.6169
紈	-12.6169
王曰嗟六事之人予誓告汝	-12.6169
之臧惟汝衆邦之不臧惟予一人有佚罰	-12.6169
穟	-12.6169
嗚呼閔予小子嗣造天丕愆	-12.6169
不能容以不能保我子孫黎民亦曰殆哉	-12.6169
劓辟疑赦其罰惟倍	-12.6169
光于四方顯于西土惟我有周誕受多方	-12.6169
宅心知訓别求聞由古先哲王用康保民	-12.617
刑罰世輕世重惟齊非齊有倫有要	-12.617
保朝至于洛卜宅厥既得卜則經營	-12.617
驕淫矜侉	-12.617
殄資澤于下民侵戎我國家純	-12.617
柢	-12.617
率作興事慎乃憲欽哉屢省乃成欽哉	-12.617
徳清胡渭撰	-12.617
如自其口出是能容之	-12.617
以親九族九族既睦平章百姓百姓昭明	-12.617
于周邦惟大艱人	-12.617
庶土交正底慎財賦	-12.617
汝不謀長以思乃災汝誕勸憂	-12.617
曰敢敬告天子皇天改大邦殷之命	-12.617
初惟厥終終以不困不惟厥終終以困窮	-12.6171
上下其自時中乂王厥有成命治民今休	-12.6171
錫周公曰拜手稽首旅王若公	-12.6171
誕鄰胥伐于厥室爾亦不知天命不易	-12.6171
黷于祭祀時謂弗欽禮煩則亂事神則難	-12.6171
越小大邦用喪亦罔非酒惟辜	-12.6171
曰惟先格王正厥事	-12.6171
今在予小子旦若游大川	-12.6171
越天棐忱爾時罔敢易法矧今天降戾	-12.6171
予乃𦙍保大相東土其基作民明辟	-12.6171
亦惟先王之臣克左右亂四方	-12.6171
宋錢時撰	-12.6172
為四方新辟作周恭先	-12.6172
惟曰欲至于萬年惟王子子孫孫永保民	-12.6172
侯服百里采二百里男邦三百里諸侯	-12.6172
殱厥渠魁	-12.6172
君子在野小人在位民棄不保天降之咎	-12.6172
涅	-12.6172
武王勝殷殺受立武庚以箕子歸作洪範	-12.6172
命爾不許我我乃屏璧與珪	-12.6172
爾惟敬明乃訓用奉若于先王	-12.6173
誕受厥命越厥邦厥民惟時	-12.6173
娛	-12.6173
宋史浩撰	-12.6173
我二人共貞公其以予萬億年敬天之休	-12.6173
咅	-12.6173
畋于有洛之表	-12.6173
爾安百姓何擇非人何敬非刑何度非及	-12.6173
兄亦不念鞠子哀大不友于弟惟弔	-12.6173
商罪貫盈	-12.6173
今商王受狎侮五常荒怠弗敬	-12.6173
嵗大旱用汝作霖雨	-12.6173
曰無戲怠懋建大命	-12.6173
殷罔不小大好草竊姦宄	-12.6173
乃反商政政由舊釋箕子囚封比干墓	-12.6173
惟説不言有厥咎	-12.6174
于小大民否則厥心違怨否則厥口詛祝	-12.6174
對揚文武之光命追配于前人	-12.6174
汝分猷念以相從各設中于乃心	-12.6174
盤庚斆于民由乃在位以常舊服正法度	-12.6174
汝曷弗告朕而胥動以浮言恐沈于衆	-12.6174
匕	-12.6174
寅餞納日平秩西成宵中星	-12.6174
欽定書經傳説彚纂卷	-12.6174
厥田惟中下厥賦貞作十有三載乃同	-12.6175
父義母慈兄友弟恭子孝	-12.6175
以成周之衆命畢公保釐東郊	-12.6175
阞	-12.6175
亂罰無罪殺無辜怨有同是叢于厥身	-12.6175
越惟有胥伯小大多正爾罔不克臬	-12.6175
柏葉松身	-12.6175
予惟曰襄我二人汝有合哉	-12.6176
嗚呼古我前后罔不惟民之承	-12.6176
硤	-12.6176
佶	-12.6176
乃命于帝庭敷佑四方	-12.6176
又曰天不可信我道惟寧王	-12.6176
若爾三王是有丕子之責于天	-12.6176
瀚	-12.6176
巫咸乂王家在祖乙時則有若巫賢	-12.6176
若顛木之有由蘖	-12.6176
以敬事上帝立民長伯	-12.6177
曰乃其速由文王作罰刑兹無赦	-12.6177
文王卑服即康功田功	-12.6177
端本澄源	-12.6177
士制百姓于刑之中	-12.6177
猥	-12.6177
望秩于山川	-12.6177
𥙿	-12.6178
非台小子敢行稱亂有夏多罪天命殛之	-12.6178
沿于江海達于淮泗	-12.6178
其惟不言言乃雍不敢荒	-12.6178
槽	-12.6178
周公曰嗚呼自殷王中宗	-12.6178
越七日癸酉伯相命士須材	-12.6178
保后胥慼鮮以不浮于天時	-12.6178
宗伯掌邦禮治神人和上下	-12.6178
亦越武王率惟敉功不敢替厥義	-12.6179
予其懋簡相爾念敬我衆	-12.6179
今天降疾殆弗興弗悟爾尚明時朕言	-12.6179
郊社不修宗廟不享作	-12.6179
液	-12.6179
惟文王尚克修和我有夏亦惟有若虢叔	-12.6179
鉛松怪石	-12.6181
王曰嗚呼封敬哉無作怨勿用非謀非	-12.6181
傷心惟荒腆于酒不惟自息乃逸厥心疾	-12.6182
庶羣自酒腥聞在上故天降喪于殷	-12.6182
君臣父子兄弟夫婦朋友	-12.6183
鑰	-12.6184
牘	-12.6191
汝作士五刑有服五服三就	-12.6612
笮	-12.6624
珣	-12.6639
敜乃穽無敢傷牿牿之傷汝則有常刑	-12.6648
筑	-12.6648
抄	-12.665
價	-12.665
𡵨	-12.6652
土黏曰埴	-12.6652
墩	-12.6652
文鹿子皮	-12.6654
滓	-12.6655
琪	-12.6655
導黒水至于三危入于南海	-12.6655
降年有永有不永	-12.6656
竊馬牛誘臣妾汝則有常刑	-12.6656
鶻	-12.6656
赭	-12.6657
嘔	-12.6657
罇	-12.6657
率寧人有指疆土	-12.6657
爾秬鬯一卣彤弓一彤矢百盧弓一盧矢	-12.6657
緬	-12.6658
旼	-12.6658
桴	-12.6658
惟天不畀允罔固亂弼我我其敢求位	-12.6659
盂	-12.666
臯陶曰都在知人在安民	-12.666
恪慎克孝肅恭神人	-12.666
旁作穆穆迓衡不迷文武勤教	-12.666
贈	-12.6661
典祀無豐于昵	-12.6661
罔水行舟朋淫于家用殄厥世	-12.6661
十旬弗反	-12.6661
峙乃芻茭無敢不多汝則有大刑	-12.6661
摶埴之工	-12.6661
若升髙必自下若陟遐必自邇	-12.6662
王曰嗚呼念之哉伯父伯兄仲叔季弟	-12.6663
劭	-12.6663
庸建爾于上公	-12.6663
縳	-12.6663
不惕予一人予若觀火予亦拙謀作乃逸	-12.6663
笠	-12.6663
上天孚佑下民罪人黜伏	-12.6664
有大艱于西土西土人亦不	-12.6664
惟十有三年春大㑹于孟津	-12.6664
旌别淑慝表厥宅里彰善癉惡樹之風聲	-12.6664
佷	-12.6664
于殷我有周佑命將天	-12.6665
狁	-12.6665
曰若古有訓蚩尤惟始作亂延及于平民	-12.6665
立愛惟親立敬惟長始于家邦終于四海	-12.6665
悊	-12.6666
曰嗚呼惟天生民有欲無主乃亂	-12.6666
賑	-12.6666
斂時五福用敷錫厥庶民	-12.6666
今爾罔不由慰日勤爾罔或戒不勤	-12.6666
嗚呼有績予一人永綏在位	-12.6666
軟	-12.6666
不克靈承于旅罔丕惟進之恭洪舒于民	-12.6666
式時周公之猷訓	-12.6666
爾尚敬逆天命以奉我一人	-12.6666
嗚呼往哉惟休無替朕命	-12.6667
𤼵號施令	-12.6667
俾暴虐于百姓以姦宄于商邑	-12.6667
消息盈虚	-12.6667
民弗用靈制以刑惟作五虐之刑曰法	-12.6667
周公曰嗚呼繼自今嗣王則其無	-12.6667
遂與桀戰于鳴條之野	-12.6667
亞旅師氏千夫長百夫長	-12.6667
鯁	-12.6667
伊尹乃言曰先王昧爽丕顯坐以待旦	-12.6667
厥子乃不知稼穡之艱難乃逸乃諺	-12.6668
心廣體胖	-12.6668
寅餞納日	-12.6668
椒	-12.6668
其罪惟均其審克之	-12.6668
將遜于位讓于虞舜	-12.6668
肇十有二州封十有二山濬川	-12.6668
百僚師師百工惟時撫于五辰庶績其凝	-12.6668
公功肅將祗歡	-12.6668
攸受休畢	-12.6669
㑹于澗瀍又東㑹于伊又東北入于河	-12.6669
王曰嗚呼小子封恫瘝乃身敬哉	-12.6669
與受戰于牧野作牧誓	-12.6669
作書曰民非后罔克胥匡以生	-12.6669
有廢有興出入自爾師虞庶言同則繹	-12.6669
曰嗚呼天難諶命靡常	-12.6669
國則罔有立政用憸人不訓于	-12.667
我咸成文王功于不怠丕冒海隅出日	-12.667
乃咸大不宣乃心欽念以忱動予一人	-12.667
肆台小子將天命明威不敢赦	-12.667
㢤	-12.667
王曰嗚呼肆哉爾庶邦君越爾御事	-12.667
王曰若昔大猷制治于未亂保邦于未危	-12.667
同力度徳同徳度義	-12.667
惟時天罔念聞厥惟廢元命降致罰	-12.667
公執桓圭	-12.667
日宣三徳夙夜浚	-12.6671
無荒失朕命	-12.6671
式敷民徳永肩一心	-12.6671
緊	-12.6671
黑水西河惟雍州	-12.6671
饜	-12.6671
天齊于民俾我一日非終惟終在人	-12.6671
滿招損謙受益時乃天道	-12.6671
取彼凶殘	-12.6671
矧惟若疇圻父薄違農父若保宏父定辟	-12.6671
今爾何監非時伯夷播刑之迪	-12.6671
乃命重黎絶地天通罔有降格	-12.6671
世篤忠貞服勞王家厥有成績紀于太常	-12.6671
子弗祗服厥父事大傷厥考心	-12.6672
予聞曰能自得師者王謂人莫	-12.6672
敢用𤣥牡敢昭告于上天神后請罪有夏	-12.6672
臯陶拜手稽首颺言曰念哉	-12.6672
咨伯汝作秩宗夙夜惟寅直哉惟清	-12.6672
書經大全卷	-12.6672
軀	-12.6672
惟周公左右先王綏定厥家毖殷頑民遷	-12.6672
逋逃主萃淵藪	-12.6672
王曰吁來有邦有土告爾祥刑	-12.6673
溯	-12.6673
既克商二年王有疾弗豫	-12.6673
武王有疾周公作金縢	-12.6673
相時憸民猶胥顧于箴言其	-12.6673
鍔	-12.6673
誕受羑若	-12.6673
串	-12.6673
欽定四庫全書尚書講義卷	-12.6674
今王嗣受厥命我亦惟兹二國命嗣若功	-12.6674
翡	-12.6674
惲	-12.6674
日講官起居注	-12.6674
功多有厚賞不迪有顯戮	-12.6674
孶	-12.6674
若火之燎于原不可嚮邇其猶可撲滅	-12.6675
怵惕惟厲中夜以興思免厥愆	-12.6675
聞曰怨不在大亦不在小惠不惠懋不懋	-12.6675
王若曰嗚呼君牙惟乃祖乃父	-12.6675
莾	-12.6676
執藝事以諫	-12.6676
比事臣我宗多遜	-12.6676
砭	-12.6676
星火以正仲夏厥民因鳥獸希革	-12.6676
今予命汝一無起穢以自臭	-12.6676
二公曰我其為王穆卜	-12.6676
蒞	-12.6676
古之謀人則曰未就予忌惟今之謀人姑	-12.6676
今爾有衆汝曰我后不恤我衆	-12.6676
乃聖乃神乃武乃文	-12.6677
曰疇若予上下草木鳥獸僉曰益哉帝曰	-12.6677
商其淪喪我罔為臣僕	-12.6677
非汝封又曰劓刵人無或劓刵人	-12.6678
肇牽車牛逺服賈	-12.6678
嚴惟丕式克用三宅三俊其在商邑用	-12.6678
飄	-12.6678
探天之威我則致天之罰離逖爾土	-12.6678
怖	-12.6679
掌建邦之六典	-12.6679
帝曰疇咨若予采驩	-12.6679
弗若于汝政弗化于汝訓辟以止辟乃辟	-12.668
王曰嗚呼敬之哉官伯族姓朕言多懼	-12.668
父師若曰王子天毒降災荒殷邦方興	-12.668
山襄陵浩浩滔天下民其咨	-12.6681
六府三事允治萬世永賴時乃功	-12.6681
狃于姦宄敗常亂俗三細不宥	-12.6682
已汝惟小子乃服惟𢎞王應保殷民	-12.6682
罪無在大亦無在多矧曰其尚顯聞于天	-12.6683
舍我穡事而割正夏	-12.6683
不克畏死辜在商邑越殷國滅無罹	-12.6684
禹敷土隨山刋木奠髙山大川	-12.6685
棄咎若保赤子惟民其康乂	-12.6685
惟口起羞惟甲胄起戎惟衣裳在笥惟	-12.6686
圄	-12.6688
惟天聰明惟聖時憲惟臣欽若惟民從乂	-12.6688
農用八政次四曰	-12.6879
厥田惟上下厥賦中上	-12.7154
秭	-12.7169
初征自葛東征西夷怨南征北狄怨	-12.717
歐	-12.7173
又卜瀍水東亦惟洛食伻來以圖及獻卜	-12.7173
甬	-12.7174
遐棄厥司	-12.7174
罡	-12.7178
竈	-12.7178
鱉	-12.718
曰奚獨後予攸徂之民室家相慶曰徯	-12.718
九共九篇槀飫	-12.7181
媢	-12.7181
麯	-12.7182
劓刵㭬黥	-12.7182
煉	-12.7183
嶠	-12.7184
㲼	-12.7184
蹉	-12.7184
監本纂圖重言重意互註尚書卷	-12.7185
紺	-12.7185
嗚呼王司敬民罔非天𦙍典祀無豐于昵	-12.7185
畞	-12.7185
屹	-12.7185
其五曰嗚呼曷歸予	-12.7185
汁	-12.7186
朶	-12.7186
文命敷于四海祗承于帝	-12.7186
浮于江沱潛漢逾于洛至于南河	-12.7186
東迤北㑹于匯	-12.7186
簫韶九成鳯凰來儀	-12.7187
痾	-12.7187
厥既命殷庶庶殷丕作	-12.7187
盲	-12.7187
今王嗣厥徳罔不在初	-12.7188
芟夷藴崇	-12.7188
筴	-12.7189
我聞曰世禄之家鮮克由禮	-12.7189
㭬	-12.7189
沸	-12.719
蕉	-12.719
胞	-12.719
惟先王建邦啓土公劉克篤前烈至于	-12.719
孟明西乞白乙	-12.719
肆予告我友邦君越尹氏庶士御事	-12.719
糊	-12.719
又東北㑹于汶又北東入于海	-12.719
囚蔡叔于郭鄰	-12.719
二百里奮武衞	-12.719
貳公𢎞化寅亮天地弼予一人	-12.719
今爾又曰夏迪簡在王庭有服在百僚	-12.719
芑	-12.719
予得吉卜予惟以爾庶邦于伐殷逋播臣	-12.7191
益曰吁戒哉儆戒無虞罔失法度	-12.7191
有窮后羿因民弗忍距于河	-12.7191
徳惟一動罔不吉徳二三動罔不凶	-12.7191
滎陽下引河東南為鴻溝	-12.7191
父義和汝克昭乃顯祖	-12.7191
于後公乃為詩以貽王名之曰鴟鴞	-12.7191
虐威庶戮方告無辜于上上帝監民罔有	-12.7191
帝用不臧式商受命用爽厥師	-12.7191
帝拜曰俞往欽哉	-12.7191
甲子昧爽受率其旅若林㑹于牧野	-12.7192
爾庶邦君越庶士御事罔不反曰艱大	-12.7192
六步七步	-12.7192
惟爾辟以爾多方大淫圖天之命屑有辭	-12.7192
肆予以爾衆士奉辭伐罪	-12.7192
兹率厥典奉若天命	-12.7192
夏王有罪矯誣上天以布命于下	-12.7192
凡厥正人既富方榖	-12.7192
為君難為臣不易	-12.7193
周公告召公作將蒲姑	-12.7193
遺我大寳龜	-12.7193
櫽	-12.7193
對曰信噫公命我勿敢言	-12.7193
乃胥惟虐于民至于百為大不克開	-12.7193
其二曰訓有之内作色荒外作禽荒	-12.7193
刑金作贖刑眚災肆赦怙終賊刑	-12.7193
其三曰惟彼陶唐有此冀方	-12.7193
訐	-12.7193
鄊	-12.7194
餐	-12.7194
懋乃攸績睦乃四鄰以蕃王室以和兄弟	-12.7194
商俗靡靡利口惟賢餘風未殄公其念哉	-12.7194
湯征諸侯葛伯不祀湯始征之作湯征	-12.7194
無輕民事惟難	-12.7194
惸	-12.7194
乃祖乃父乃斷棄汝不救乃死	-12.7195
惟宫室臺榭陂池侈服以殘害于爾萬姓	-12.7195
迪知天威乃惟時昭文王	-12.7195
愎	-12.7195
爾乃尚有爾土爾乃尚寧幹止	-12.7195
于其子孫弗率皇天降災假手于我有命	-12.7195
兹朕未知獲戾于上下	-12.7195
三邦底貢厥名	-12.7195
予小子既獲仁人敢祗承上帝以遏亂	-12.7195
是罔顯在厥世繼自今立政其勿以	-12.7195
予惟乙卯朝至于洛師我卜河朔黎水	-12.7196
庶頑䜛説	-12.7196
帝曰吁臣哉鄰哉鄰哉臣哉禹曰俞	-12.7196
公曰君奭在昔上帝割申勸寧王之	-12.7196
𡨕	-12.7196
籠	-12.7196
㓙	-12.7196
惟爾殷侯尹民我惟大降爾命爾罔不知	-12.7196
聾	-12.7196
人不易物惟徳其物	-12.7196
七曰賓八曰師	-12.7196
伊尹去亳適夏既醜有夏復歸于亳	-12.7196
嚮于時夏弗克庸帝大淫泆有辭	-12.7196
類于上帝禋于六宗望于山川徧于羣神	-12.7197
殲	-12.7197
蔣	-12.7197
無安厥位惟危	-12.7197
百榖用成乂用明俊民用章家用平康	-12.7197
堨	-12.7197
淡	-12.7197
用答揚文武之光訓	-12.7197
罔擇吉人觀于五刑之中惟時庶威奪貨	-12.7198
斑	-12.7198
眞氏徳秀曰	-12.7198
六服羣辟罔不承徳	-12.7198
后非民罔使民非后罔事無自廣以	-12.7198
東序西嚮敷重豐席畫純雕玉仍几	-12.7198
肆其監于兹我受命無疆惟休亦大惟艱	-12.7198
藻火粉米黼黻	-12.7198
用能定爾子孫于下地	-12.7198
三壇同墠	-12.7199
沓	-12.7199
日短星昴以正仲冬厥民隩鳥獸氄毛	-12.7199
徨	-12.7199
又歌曰元首叢脞哉股肱惰哉萬事墮哉	-12.7199
作福作災予亦不敢動用非徳	-12.7199
嗚呼孺子王矣繼自今我其立政立事	-12.7199
視三公四瀆視諸侯其餘視伯子男	-12.7199
丁卯命作冊度	-12.7199
予仁若考能多材多藝能事鬼神	-12.7199
王曰嗚呼凡我有官君子欽乃攸司	-12.72
爾忱不屬惟胥以沈不其或稽自怒曷瘳	-12.72
象以典刑流宥五刑鞭作官刑扑作教	-12.72
道有升降政由俗革不臧厥臧民罔攸勸	-12.72
格汝衆予告汝訓汝猷黜乃心無傲從康	-12.72
哲人惟刑無疆之辭屬于五極咸中有慶	-12.72
膝	-12.72
义	-12.72
妬	-12.72
立政任人準夫牧作三事	-12.72
惟截截善諞言俾君子易辭我皇多有之	-12.72
尚桓桓如虎如貔如熊如羆于商郊	-12.72
正月朔旦受命于神宗率百官若帝之初	-12.72
嗚呼威克厥愛允濟愛克厥威允罔功	-12.72
紙	-12.72
夢帝賚予良弼	-12.72
之從自時厥後亦罔或克	-12.7201
枋	-12.7201
予欲左右有民汝翼予欲宣力四方汝為	-12.7201
爾衆士其尚迪果毅以登乃辟	-12.7201
五瑞既月乃日覲四岳羣牧班瑞于羣后	-12.7201
既墜厥命我有周既受	-12.7202
乃汝其悉自教工	-12.7202
殷之即喪指乃功不無戮于爾邦	-12.7202
仲桓南宫毛	-12.7202
其在祖甲不義惟王舊為小人	-12.7202
命曰汝受命篤弼丕視功載乃汝其悉自	-12.7202
古先民有夏天迪從子保面稽天若今時	-12.7202
哉欲並生哉工以納言時而颺	-12.7202
惟暨乃僚罔不同心以匡乃辟	-12.7202
棼	-12.7203
帝曰疇若予工僉曰垂哉帝曰俞咨垂汝	-12.7203
弧	-12.7203
敺	-12.7203
澡	-12.7203
王若曰往哉封勿替敬典	-12.7203
喩	-12.7203
蹄	-12.7203
有衆率怠弗協曰時日曷	-12.7204
穆穆在上明明在下灼于四方罔不惟	-12.7204
俞咨益汝作朕虞益拜稽首讓于朱虎	-12.7204
公曰君奭我聞在昔成湯既受命	-12.7204
四岳諸侯各朝于方岳大明黜陟	-12.7204
聞汝衆言夏氏有罪予畏上帝不敢不正	-12.7204
抹	-12.7205
無有逺邇畢獻方物惟服食器用	-12.7205
簷	-12.7205
瑩	-12.7205
欽哉慎乃有位敬修其可願	-12.7205
有能俾乂僉曰於鯀哉帝曰吁咈哉方命	-12.7205
五者來備各以其叙庶草蕃廡	-12.7205
君牙乃惟由先正舊典時式民之治亂在	-12.7205
詒	-12.7206
膰	-12.7207
今文子文孫孺子王矣其勿誤于庶獄	-12.7207
名言兹在兹允出兹在兹惟帝念功	-12.7207
至于岱宗柴望秩于山川肆覲東后	-12.7208
蟜	-12.7208
天罰不極庶民罔有令政在于天下	-12.7208
旦夕聽事之坐	-12.7208
一稃二米	-12.7208
􁀈	-12.7208
惟仲康肇位四海𦙍侯命掌六師	-12.7208
其承疇敢不祗若王之休命	-12.7208
不常厥邑于今五邦今不承于古	-12.7209
用孝養厥父母厥父母慶自洗腆致用酒	-12.721
承汝俾汝惟喜康共非汝有咎比于罰	-12.721
司馬掌邦政統六師平邦國	-12.7211
宅爾宅畋爾田	-12.7212
既墜厥命今相有殷天	-12.7212
臣人克有常憲百官修輔厥后惟明明	-12.7212
矧今民罔迪不適不迪則罔政在厥邦	-12.7213
矦	-12.7216
惟民生厚因物有遷違上所命從厥攸好	-12.7218
東至角西至婁	-12.7219
楷	-12.722
榎	-12.7711
玭	-12.7719
峴	-12.7723
篁	-12.7728
拉	-12.7729
貞屯悔豫皆八	-12.773
塡	-12.773
劔	-12.7731
滻	-12.7732
疉	-12.7732
崙	-12.7733
垠	-12.7734
蜯	-12.7734
溱	-12.7735
僮	-12.7736
真氏徳秀曰	-12.7737
追孝于前文人	-12.7737
帝釐下土方設居方	-12.7737
葆	-12.7737
敷同日奏罔功	-12.7737
㵼	-12.7738
觀周樂見舞韶箾者	-12.7738
駛	-12.7739
四人綦弁執戈上刃夾兩階戺	-12.7739
郟	-12.7739
霑	-12.774
箎	-12.774
緻	-12.774
蹲	-12.774
咈百姓以從己之欲	-12.774
同州朝邑縣	-12.7741
适	-12.7742
王若曰爾殷遺多士弗弔旻天大降喪	-12.7742
櫛	-12.7742
苕	-12.7743
奉先思孝接下思	-12.7743
荔	-12.7743
淨	-12.7743
塹	-12.7743
坈	-12.7744
兀	-12.7744
何遷乎有苗何畏乎巧言令色孔壬	-12.7744
公不敢不敬天之休	-12.7744
烝民乃粒萬邦作乂	-12.7744
五皇極皇建其有極斂時五福用敷錫厥	-12.7744
䆒	-12.7744
終始慎厥與惟明明后	-12.7744
貲	-12.7744
禹曰俞哉帝光天之下至于海隅蒼生	-12.7744
惟動丕應徯志	-12.7745
先王惟時懋敬厥徳克配上帝	-12.7745
司徒司馬司空尹旅曰予罔厲殺人亦	-12.7745
洄	-12.7745
汳水受陳留浚儀隂	-12.7746
猫	-12.7746
奉答天命和恒四方民居師	-12.7746
夏師敗績湯遂從	-12.7746
王人求多聞時惟建事學于古訓乃有獲	-12.7746
聆	-12.7746
柟	-12.7747
王出郊天乃雨反風禾則盡起二公命	-12.7747
蔬	-12.7747
斡	-12.7747
既往背師保之訓	-12.7747
嘵	-12.7747
丁未祀于周廟邦甸侯衛駿奔走執豆籩	-12.7747
乃不畏戎毒于逺邇惰農自安不	-12.7747
淫于觀于逸于遊于田以萬民惟正之供	-12.7748
曰嗚呼西土有衆咸聽朕言	-12.7748
讋	-12.7748
五流有宅五宅三居惟明克允	-12.7748
塟	-12.7748
銕	-12.7748
雖畏勿畏雖休勿休惟敬五刑	-12.7748
王曰嗟我友邦冢君御事司徒司馬司空	-12.7749
惟受罔有悛心乃夷居	-12.7749
爾惟踐修厥猷舊有令聞	-12.7749
外丙二年仲壬四年	-12.7749
王懋昭大徳建中于民	-12.7749
恂	-12.7749
有夏誕厥逸不肯慼言于民乃大	-12.7749
瞶	-12.7749
帝乃震怒不畀洪範九疇彝倫攸斁	-12.7749
予其大賚汝爾無不信朕不	-12.7749
在今後嗣王誕罔顯于天矧曰	-12.7749
閫	-12.7749
予一二伯父尚胥暨顧綏爾先公之臣服	-12.7749
軻	-12.7749
稗	-12.775
嗚呼嗣王祗厥身念哉	-12.775
呉江朱鶴齡撰	-12.775
曰皇后憑玉几道揚末命命汝嗣訓	-12.775
撤	-12.775
則亦有熊羆之士不二心之臣保乂王家	-12.775
壝	-12.775
拜手稽首曰予小臣敢以王之讎民	-12.775
泓	-12.775
抉	-12.775
穹	-12.775
敷賁敷前人受命兹不忘大功	-12.775
曰若稽古帝堯曰放勲欽明文思安安	-12.775
敷五典擾兆民	-12.7751
狹人匹夫匹婦不獲自盡民主罔與成厥	-12.7751
須暇之子孫誕作民主罔可念聽	-12.7751
爾尚弼予一人永清四海時哉弗可失	-12.7751
皇天震怒命我文考肅將天威大勲未集	-12.7751
閹	-12.7751
笄	-12.7751
欽厥止率乃祖攸行惟朕以懌萬世有辭	-12.7751
汝無侮老成人無弱孤有幼	-12.7751
輂	-12.7751
臣罔以寵利居成功邦其永孚于休	-12.7751
公曰已汝惟沖子惟終	-12.7752
遷于殷民不適有居率籲衆慼出矢言	-12.7752
䦨	-12.7752
暨稷播奏庶艱食鮮食懋遷有無化居	-12.7752
已有之人之彦聖其心好之不啻	-12.7752
癘	-12.7752
堯老而舜攝	-12.7752
違道以干百姓之譽	-12.7752
古人有言曰人無於水監當於民監	-12.7752
有九徳亦言其人有徳乃言曰載采采	-12.7752
啓佑我後人咸以正罔缺	-12.7752
罪合于一多瘠罔詔	-12.7752
爾交修予罔予棄予惟克邁乃訓	-12.7752
爪	-12.7752
㫄	-12.7752
口不道忠信之言	-12.7753
賫	-12.7753
太保受同降盥以異同秉璋以酢	-12.7753
窬	-12.7753
覊	-12.7753
冢宰掌邦治統百官均四海	-12.7753
𦕈	-12.7753
受王嘉師監于兹祥刑	-12.7753
乃既先惡于民乃奉其恫汝悔身何及	-12.7753
禹曰都帝慎乃在位帝曰俞	-12.7753
觀厥刑于二女	-12.7754
罔違道以干百姓之譽罔咈百姓以從	-12.7754
無以巧言令色便辟側媚其惟吉士	-12.7754
㑹于灃又東㑹于涇又東過漆沮入于河	-12.7754
厥惟艱哉思其艱以圖其易民乃寧	-12.7754
公若曰拜手稽首告嗣天子王矣用咸戒	-12.7754
民可近不可下民惟邦本本固邦寧	-12.7754
古我先王暨乃祖乃父胥及逸	-12.7754
五刑不簡正于五罰五罰不服正于五過	-12.7754
夙夜惟寅直哉惟清	-12.7754
文王不敢盤于遊田以庶邦惟正之供	-12.7754
汝多修扞我于艱若汝予嘉	-12.7754
滚	-12.7754
公既定宅伻來來視予卜休恒吉	-12.7754
受天明命以有九有之師爰革夏正	-12.7755
澣	-12.7755
涑	-12.7755
太保暨芮伯咸進相揖皆再拜稽首	-12.7755
乃受同瑁王三宿三祭三咤上宗曰饗	-12.7755
劉不能胥匡以生卜稽曰其如台	-12.7755
在下曰虞舜帝曰俞予聞如何	-12.7755
兹予其明農哉彼裕我民無逺用戾	-12.7755
糴	-12.7755
王曰君陳爾惟𢎞周公丕訓無依	-12.7755
咸造勿䙝在王庭	-12.7755
我舊云刻子王子弗出我乃顛隮	-12.7756
日覲四岳羣牧	-12.7756
成王既伐管叔蔡叔以殷餘民封康叔	-12.7756
皇天無親惟徳是輔	-12.7756
用命賞于祖不用命戮于社	-12.7756
悞	-12.7756
嗚呼予旦已受人之徽言咸告孺子王矣	-12.7756
如有一介臣斷斷猗無他	-12.7756
帝曰我其試哉女于時觀厥刑于二女	-12.7756
惟曰我民迪小子惟土物愛厥心臧	-12.7756
周公相成王將黜殷作大誥	-12.7756
瑄	-12.7757
成王東伐淮夷遂踐奄作成王政	-12.7757
既道極厥辜	-12.7757
以至仁伐至不仁	-12.7757
子罔以盡人心狎侮小人罔以盡其力	-12.7758
往盡乃心無康好逸豫乃其乂民	-12.7758
爾惟自鞠自苦	-12.7758
申命羲叔宅南交平秩南訛敬致日永	-12.7758
用端命于上帝皇天用訓厥道付畀四方	-12.7758
劄	-12.7759
愧恥若撻于市一夫不獲則曰時予之辜	-12.7759
尫	-12.7759
𣺌	-12.7759
典獄非訖于威惟訖于富敬忌	-12.776
國子祭酒上護軍曲阜縣開國子	-12.776
民之亂罔不中聽獄之兩辭	-12.7761
帝曰咨四岳湯湯洪水方割蕩蕩	-12.7761
邔	-12.7761
徳威惟畏徳明惟明	-12.7761
廢厥職酒荒于厥邑𦙍后承王命徂征	-12.7761
獾	-12.7761
曰若稽古帝舜曰重華協于帝	-12.7762
悻	-12.7762
歩卒七十二人	-12.7763
萹	-12.7763
擣	-12.7763
無稽之言勿聽弗詢之謀勿庸	-12.7763
批	-12.7764
進于王曰嗚呼明王奉若天道建邦設都	-12.7764
仄	-12.7765
人有小罪非眚乃惟終自作不典式爾	-12.7765
柔逺能邇安勸小大庶邦	-12.7767
以木鐸徇于路官師相規工執藝事以諫	-12.7768
霞	-12.7768
王曰封爽惟民迪吉康	-12.7769
裒	-12.7772
罔或干予正	-12.7773
伻來以圖及獻卜	-12.7778
椿	-12.7779
蚳	-12.7781
乃季秋月朔辰弗集于房瞽	-12.8172
厥土白墳海濵廣斥	-12.8296
媵	-12.8304
缶	-12.8304
眎	-12.8309
㣧	-12.8311
芝	-12.8315
饌	-12.8316
綻	-12.8316
鏐	-12.8317
姪	-12.8317
鄡	-12.8317
挑	-12.8319
嶂	-12.8319
彥	-12.8321
鉉	-12.8322
惟學遜志務時敏厥修乃來	-12.8324
瘡	-12.8324
昺	-12.8325
閿	-12.8326
塤	-12.8326
馬牛其風臣妾逋逃勿敢越逐	-12.8326
璺	-12.8326
厎柱析城至于王屋	-12.8327
鋙	-12.8327
峙乃糗糧無敢不逮汝則有大刑	-12.8327
鴞	-12.8328
予永念曰天惟喪殷若	-12.8328
鷺	-12.8329
惟說不言有厥咎	-12.8329
魯人三郊三遂峙乃楨榦甲戌我惟築	-12.8329
乃甲胄敿乃干無敢不弔	-12.8329
赤刀大訓𢎞璧琬琰在西序	-12.8329
鬱金香草	-12.8329
杖黄鉞右秉白旄以麾曰逖矣西土之人	-12.8329
謡	-12.8329
菌	-12.833
厥君先敬勞肆徂厥敬勞肆往姦宄殺人	-12.833
篠簜既敷厥草惟夭厥木惟喬	-12.8331
若丹朱傲惟慢遊是好傲虐是作罔晝夜	-12.8331
髠	-12.8331
坻	-12.8331
闚	-12.8331
一人冕執戣立于東垂一人冕執瞿立	-12.8331
妲	-12.8331
峭	-12.8331
左思蜀都賦	-12.8332
濄	-12.8332
弗慮胡獲弗為胡成一人元良萬邦以貞	-12.8332
聵	-12.8332
扁	-12.8332
底柱析城至于王屋	-12.8332
導淮自桐柏東㑹于泗沂東入于海	-12.8333
不克開于民之麗	-12.8333
自成湯至于帝乙罔不明徳恤祀	-12.8333
豚	-12.8333
葅	-12.8333
閽	-12.8333
虡	-12.8333
迪將其後監我士師工誕保文武受民亂	-12.8333
王惟徳用和懌先後迷民用懌先王受命	-12.8333
導嶓冢至于荆山内方至于大别	-12.8333
滂	-12.8333
恒衛既從大陸既作	-12.8333
王曰封汝典聽朕毖勿辯乃司民湎于酒	-12.8333
永康軍導江縣	-12.8334
既勝夏欲遷其社不可作夏社疑至臣扈	-12.8334
薇	-12.8334
並告無辜于上下神祇	-12.8334
慎厥麗乃勸厥民刑用勸	-12.8334
惟聖罔念作狂惟狂克念作聖天惟五年	-12.8334
之喪二十五月而畢	-12.8334
穩	-12.8335
島夷卉服厥篚織貝厥包橘柚錫貢	-12.8335
濟漢而陳自小别至于大别	-12.8335
凡四方小大邦喪罔非有辭于罰	-12.8335
其侍御僕從罔匪正人以旦夕承弼厥辟	-12.8335
翌	-12.8335
奡	-12.8336
厥貢惟金三品瑶琨篠簜齒革羽毛惟木	-12.8336
天子作民父母以為天下王	-12.8336
今王嗣有令緒尚監兹哉	-12.8336
㛰	-12.8336
兹予有亂政同位具乃貝玉乃祖	-12.8336
曰皇極之敷言是彝是訓于帝其訓	-12.8336
僊	-12.8337
司中司命風師雨師	-12.8337
琛	-12.8337
厥圖帝之命不克開于民之麗	-12.8337
臝	-12.8337
今嗣王新服厥命惟新厥徳	-12.8337
挹	-12.8337
訣	-12.8337
仔	-12.8337
洮州臨潭縣	-12.8337
聿求元聖與之戮力以與爾有衆請命	-12.8337
王其效邦君越御事厥命曷以	-12.8337
貃	-12.8337
若稽古大禹曰文命敷于四海祗承于帝	-12.8337
公曰體王其罔害予小子新命	-12.8338
恭作肅從作乂明作哲聰作謀睿作聖	-12.8338
山川鬼神亦莫不寧暨鳥獸魚鼈咸若	-12.8338
刮	-12.8338
憔	-12.8338
肎	-12.8338
豺	-12.8338
五百里甸服百里賦納總二百里納銍	-12.8338
我惟時其教告之我惟時其戰要囚之	-12.8338
焰	-12.8339
訖于四海禹錫𤣥圭告厥成功	-12.8339
讃	-12.8339
昔在文武聰明齊聖小大之臣咸	-12.8339
旁作穆穆迓衡	-12.8339
皂	-12.8339
大和㑹侯甸男邦采衛百工播民和見士	-12.8339
準人牧夫我其克灼知厥若丕乃俾亂	-12.8339
厥弟五人御其母以從徯于洛之汭	-12.8339
銓	-12.8339
公曰嗟我士聽無譁予誓告汝羣言之首	-12.834
王曰嗟爾萬方有衆明聽予一人誥	-12.834
辯言亂舊政	-12.834
太保承介圭上宗奉同瑁由阼階隮	-12.834
父族四母族三妻族二	-12.8341
挺	-12.8341
友于兄弟克施有政命汝尹兹東郊敬哉	-12.8341
吕伋以二干戈虎賁百人逆子釗	-12.8341
車轍馬迹	-12.8341
驕淫矜侉將由惡終雖收放心閑之惟艱	-12.8341
禹曰安汝止惟幾惟康其弼直	-12.8341
嗚呼丕顯哉文王謨丕承哉武王烈	-12.8341
五國以為屬屬有長	-12.8341
矧曰其有能格	-12.8342
為厥疆畎若作室家既勤垣墉惟其塗	-12.8342
鷹	-12.8342
戒之用休董之用威勸之以九歌俾勿壊	-12.8342
越兹麗刑并制罔差有辭	-12.8342
勤予敢動用非罰世選爾勞予不掩爾善	-12.8342
砆	-12.8342
曓	-12.8342
協賞罰戡定厥功用敷遺後人休	-12.8342
帟	-12.8343
升鼎耳而鳴	-12.8343
聽朕告汝乃以殷民世享	-12.8343
鮐	-12.8343
蔀	-12.8344
衎	-12.8344
王曰封予不惟若兹多誥	-12.8344
綏服三百里揆文教二百里奮武衛	-12.8344
乃得周公所自以為功代武王之説	-12.8344
凡厥正人既富方穀	-12.8344
有若散宜生有若泰顛有若南宫括	-12.8344
政典曰先時者殺無赦不及時者殺無赦	-12.8344
肆予曷敢不越卬敉寧王大命	-12.8344
亦罔不能厥初惟其終	-12.8344
司徒掌邦教敷五典擾兆民	-12.8344
小伯藝人表臣百司太史尹伯庶常吉士	-12.8345
縈	-12.8345
公乃自以為功為三壇同墠為壇	-12.8345
曰雨曰𤾉曰燠曰寒曰風	-12.8345
衅	-12.8345
嗚呼有王雖小元子哉其丕能諴	-12.8345
于小民今休王不敢後用顧畏于民碞	-12.8345
保奭其汝克敬以予監于殷喪大否	-12.8346
臯陶曰吁如何禹曰洪水滔天浩浩	-12.8346
惟公懋徳克勤小物弼亮四世正色率下	-12.8346
兹乃允惟王正事之臣	-12.8346
亦惟終其後嗣王罔克有終相亦罔終	-12.8346
毖庶邦庶士越少正御事朝夕曰祀兹酒	-12.8346
篋	-12.8347
厥監惟不逺在彼夏王	-12.8347
王人罔不秉徳	-12.8347
王曰嗚呼猷告爾有方多士暨殷多士	-12.8347
圈	-12.8348
二曰剛克三曰柔克	-12.8348
日中星鳥以殷仲春厥民析鳥獸孳尾	-12.8348
杯	-12.8349
丌	-12.8349
次五曰建用皇極	-12.8349
用敬保元子釗𢎞濟于艱難	-12.8349
爾大克羞耉惟君爾乃飲食醉飽	-12.835
作其即位爰知小人之依能保惠于	-12.835
君予不惠若兹多誥予惟用閔于天越民	-12.835
王曰嗚呼小子胡汝往哉無荒棄朕命	-12.835
自朝至于日中昃不遑暇食用咸和萬民	-12.835
眚災適爾既道極厥辜時乃不可殺	-12.8352
綾	-12.8352
紕	-12.8353
臚	-12.8354
古我先王將多于前功適于山用降我凶	-12.8354
民有欲無主乃亂	-12.8355
湥	-12.8357
六卿分職各率其屬以倡九牧阜成兆民	-12.8358
天生烝民有物有則	-12.8358
卅	-12.8358
獄成而孚輸而孚其刑上備有并兩刑	-12.8359
東方謂之斥西方謂之鹵	-12.8359
瀵	-12.8378
技其心休休焉其如有容人之有技若	-12.8384
荐	-12.8424
庶尹惟亞惟服宗工越百姓里居	-12.8736
淮夷蠙珠暨魚	-12.8896
縵	-12.8928
淖	-12.8932
大貝如車渠	-12.8937
爼	-12.8939
籬	-12.894
鑛	-12.8943
庸濮在江漢之南	-12.8943
桶	-12.8945
澬	-12.8945
玈	-12.8948
隨西山下東北去	-12.8948
琥	-12.8949
予后后來其蘇民之戴商厥惟舊哉	-12.8949
毆	-12.895
望于山川徧于羣神	-12.895
王曰父義和其歸視爾師寧爾邦用賚	-12.8951
漈	-12.8952
褚	-12.8952
二人雀弁執惠立于畢門之内	-12.8952
闥	-12.8952
翹	-12.8953
滳	-12.8953
洒	-12.8954
荏	-12.8954
天亦惟用勤毖我民	-12.8954
洊	-12.8954
黙思道夢帝賚予良弼其代予言	-12.8955
搆	-12.8955
跳	-12.8955
東過洛汭至于大伾北過洚水至于大陸	-12.8955
徳惟治否徳亂	-12.8955
蜃	-12.8955
遴	-12.8955
厥庶民無有淫朋人無有比徳惟皇作極	-12.8956
綘	-12.8956
雨東北風海水溢	-12.8956
原隰底績至于豬野	-12.8957
髙宗祭成湯有飛雉升鼎耳而雊	-12.8957
太保乃以庶邦冢君出取幣乃復入	-12.8957
陀	-12.8957
惟慢遊是好	-12.8957
剡	-12.8957
徳于民至于婚友丕乃敢大言汝有積徳	-12.8957
王朝至于商郊牧野	-12.8958
倪	-12.8958
党	-12.8958
乃惟有夏圖厥政不集于享天降時喪	-12.8958
無若殷王受之迷亂酗于酒徳哉	-12.8958
嘉言罔攸伏野無遺賢萬邦咸寧稽于衆	-12.8958
脯	-12.8959
四征弗庭綏厥兆民	-12.8959
民興胥漸泯泯棼棼罔中于信以覆詛盟	-12.8959
沼	-12.8959
以至于有萬邦兹惟艱哉	-12.896
㓃	-12.896
柔而立愿而恭亂而敬擾而毅直而	-12.896
巍	-12.896
膴	-12.896
渺	-12.896
遵義遵道遵路	-12.8961
惟太保先周公相宅	-12.8961
九五福一曰夀二曰富三曰康	-12.8961
武威縣東北有休屠	-12.8961
大邦畏其力小邦懐其徳	-12.8961
往敷求于殷先哲王用保乂民	-12.8961
羶	-12.8961
禹曰何臯陶曰寛而栗	-12.8961
大王肇基王迹王季其勤王家	-12.8961
九月而南正月而北	-12.8961
太甲既立不明伊尹放諸桐	-12.8962
王忱不艱允協于先王成徳	-12.8962
慄瞽亦允若至諴	-12.8962
乃劓殄滅之無遺育無俾易種于兹新邑	-12.8962
臣下不匡其刑墨具訓于蒙士	-12.8962
事不師古以克永世匪説攸聞	-12.8962
西旅獻獒太保作旅獒	-12.8962
靳	-12.8962
魯侯伯禽宅曲阜	-12.8962
以予小子揚文武烈	-12.8962
出入自爾師虞	-12.8963
用閔于天越民	-12.8963
有申今朕作大邑于兹洛予惟四方	-12.8963
公將不利于孺子	-12.8963
褱	-12.8963
趍	-12.8963
克綏先王之禄永底烝民之生	-12.8963
蓄疑敗謀怠忽荒政不學牆面莅事惟煩	-12.8963
𢎞于天若徳裕乃身不廢在王命	-12.8963
馯	-12.8963
原隰厎績至于豬野	-12.8963
越翼日癸巳王朝歩自周于征伐商	-12.8964
貨色恒于遊畋時謂淫風敢有侮聖言逆	-12.8964
璇	-12.8964
七世之廟可以觀徳萬夫之長可以觀政	-12.8964
惱	-12.8964
賔于王家與國咸休永世無窮	-12.8965
絮	-12.8965
疾以惡之人之彦聖而違之俾不達	-12.8965
周公曰嗚呼休兹知恤鮮哉	-12.8965
微子若曰父師少師殷其弗或亂正四方	-12.8965
旤	-12.8965
無教逸欲有邦兢兢業業一日二日萬	-12.8965
婚姻僚友	-12.8965
嗚呼今予告汝不易永敬大恤無胥絶逺	-12.8965
賴左右前後有位之士匡其不及	-12.8966
爽邦由哲亦惟十人迪知上帝命	-12.8966
在亶乘兹大命	-12.8966
菆	-12.8966
並其有邦厥鄰乃曰徯我后后來無罰	-12.8966
盤庚乃登進厥民	-12.8966
廊	-12.8966
自洗腆致用酒	-12.8967
穏	-12.8967
越翼日癸巳王朝步自周于征伐商	-12.8967
潢	-12.8967
汝明勗偶王	-12.8967
七曰賔八曰師	-12.8967
亦有無窮之聞子孫訓其成式惟乂	-12.8967
髙后丕乃崇降罪疾曰曷虐朕民	-12.8967
甄	-12.8967
倂	-12.8967
曰嗚呼我西土君子天有顯道厥類惟彰	-12.8968
勝殷邦諸侯班宗	-12.8968
次七曰明用稽疑	-12.8968
薳	-12.8968
天命有徳五服五章哉	-12.8968
鷙	-12.8968
昏迷不恭侮慢自賢反道敗	-12.8968
暱	-12.8968
貌曰恭言曰從視曰明聽曰聰思曰睿	-12.8968
髙宗之享國五十有九年	-12.8968
澈	-12.8968
有商俾嗣王克終厥徳實萬世無疆之休	-12.8969
朕在位七十載汝能庸命巽朕位岳曰否	-12.8969
厥猷肆予命爾侯于東土往即乃封敬哉	-12.8969
既誕否則侮厥父母曰昔之人無聞知	-12.8969
䓁	-12.8969
往哉生生今予將試以汝遷永建乃家	-12.8969
卿士師師非度凡有辜罪乃罔恒獲	-12.8969
曰嗚呼三事暨大夫敬爾有官亂爾有政	-12.897
位不期驕禄不期侈	-12.897
姺	-12.897
夏王滅徳作威以敷虐于爾萬方百姓	-12.897
珩	-12.897
天既遐終大邦殷之命	-12.897
崇信姦回放黜師保屏棄典刑囚奴正士	-12.8971
惟曰若稽田既勤敷菑惟其陳修	-12.8971
犬馬非其土性不畜珍禽竒獸不育于國	-12.8971
帝庸作歌曰勑天之命惟時惟幾	-12.8972
六三徳一曰正直二曰剛克三曰柔克	-12.8972
王敬作所不可不敬德	-12.8972
事一曰貌二曰言三曰視四曰聽五曰思	-12.8972
王乃初服嗚呼若生子罔不在厥初生	-12.8972
克閱于乃邑謀介	-12.8972
薾	-12.8972
牖間南嚮敷重篾席黼純華玉仍几	-12.8972
分命羲仲宅嵎夷曰暘谷	-12.8972
吉事變几凶事仍几	-12.8972
烝民乃粒萬邦作乂臯陶曰俞師汝昌言	-12.8972
史乃冊祝曰惟爾元孫某遘厲虐疾	-12.8972
騑	-12.8973
導黑水至于三危入于南海	-12.8973
狙	-12.8973
聰聽祖考之彝訓	-12.8973
無啓寵納侮無恥過作非	-12.8973
五月南巡守至于南岳	-12.8973
鑽	-12.8973
厥若彞及撫事如予	-12.8974
共違于人用静吉用作凶	-12.8974
我成功所予不敢不極卒寧王圖事	-12.8974
越在外服侯甸男衛邦伯越在内服百僚	-12.8974
厥父菑厥子乃弗肯播矧肯穫	-12.8974
王曰格爾衆庶悉聽朕言	-12.8974
罰懲非死人極于病非佞折獄惟良折獄	-12.8974
惟文王徳丕承無疆之恤	-12.8974
自貽哲命今天其命哲命吉凶命	-12.8975
徳予有亂臣十人同心同徳	-12.8975
于四海而萬姓悦服	-12.8975
獻諸天子王命唐叔歸周公于東作歸禾	-12.8976
虎賁綴衣趣馬小尹左右攜僕百司庶府	-12.8976
磽	-12.8976
皇帝清問下民鰥寡有辭于苗	-12.8976
丕釐上帝之耿命	-12.8977
轘	-12.8977
厥貢鹽絺海物惟錯岱畎絲枲鉛松怪石	-12.8977
必有忍其乃有濟有容徳乃大	-12.8978
厥命罔顯于民祗保越怨不易誕惟厥縱	-12.8978
地八天九地十	-12.8978
畵	-12.8981
樹徳務滋除惡務本	-12.8981
晃	-12.8981
獨夫受洪惟作威乃汝世讎	-12.8982
東成臯南轘轅西	-12.8983
髴	-12.8984
逺念天威越我民罔尤違惟人	-12.9007
􁃋	-12.9025
次三曰農用八政	-12.9357
邛	-12.9558
至于帝乙成王畏相惟御事厥棐有恭	-12.9589
襁	-12.9597
􁇢	-12.9601
眂	-12.9603
弇	-12.9605
纍	-12.9607
駰	-12.9611
其川淮泗其浸沂沭	-12.9611
拈	-12.9612
東迆北㑹于匯	-12.9613
豔	-12.9615
驃	-12.9616
聶	-12.9618
若翼日乙卯周公朝至于洛則	-12.9619
戟	-12.9619
兼弱攻昧取亂侮亡推亡固存邦乃其昌	-12.9619
嬉	-12.962
夐	-12.962
礿	-12.962
磋	-12.962
陕	-12.962
三載四海遏宻八音	-12.9621
圖厥政不蠲烝天惟降時喪	-12.9621
玅	-12.9622
不有初鮮克有終	-12.9622
之悲萬姓仇予予將疇依鬱陶	-12.9622
犒	-12.9622
䲭	-12.9623
倮	-12.9623
辰弗集於房	-12.9623
掾	-12.9623
霅	-12.9623
公歸乃納冊于金縢之匱中王翼日乃瘳	-12.9623
發號施令罔有不臧下民祗若萬邦咸休	-12.9624
曰小人怨汝詈汝則信之則若時不永念	-12.9624
甾	-12.9624
怎	-12.9624
箸	-12.9624
式勿替有殷歴年欲王以小民受天永命	-12.9624
刑殄有夏惟天不畀純	-12.9625
今失厥道亂其紀綱乃底滅亡	-12.9625
茌	-12.9625
陧	-12.9625
伐鄭晉襄公帥師敗諸崤還歸作秦誓	-12.9625
徒駭最北鬲津最南	-12.9625
奏鼓嗇夫馳庶人走羲和尸厥官罔聞知	-12.9625
西郡首陽縣西南今渭州渭	-12.9626
王乃昭徳之致于異姓之邦無替厥服	-12.9626
隼	-12.9626
敷納以言明庶以功車服以庸誰敢不	-12.9626
平曰原下濕曰隰	-12.9626
褐	-12.9626
惟帝不畀惟我下民秉為惟天明畏	-12.9626
臩	-12.9626
虞賔在位羣后徳讓	-12.9627
睽	-12.9627
以口舌代斧鉞	-12.9627
迢	-12.9627
帝曰來禹洚水儆予成允成功惟汝賢	-12.9627
爇	-12.9627
非先王不相我後人惟王淫戲用自絶	-12.9627
簋	-12.9627
今殷民乃攘竊神祇之犧牷牲用	-12.9628
天生五材民並用之	-12.9628
予嘉乃徳曰篤不忘	-12.9628
非我一人奉徳不康寧時惟天命	-12.9628
苾	-12.9628
兹乃不義習與性成予弗狎于弗順	-12.9628
惟我周王靈承于旅克堪用徳惟典神天	-12.9628
浄	-12.9629
食言爾不從誓言予則孥戮汝罔有攸赦	-12.9629
旃	-12.9629
忸	-12.9629
臨君周邦率循大卞燮和天下	-12.9629
蓺	-12.9629
使宅百揆亮采惠疇僉曰伯禹作司空	-12.963
因桓是來浮于潛逾于沔入于渭亂于河	-12.963
靠	-12.963
睂	-12.963
惟周公位冢宰正百工羣叔流言乃致辟	-12.963
开	-12.963
珍禽竒獸	-12.963
㟁	-12.963
五遷將治亳殷民咨胥怨作盤庚三篇	-12.963
鍚	-12.963
任官惟賢才左右惟其人	-12.9631
曰我王來既爰宅于兹重我民無盡	-12.9631
乃歌曰股肱喜哉元首起哉百工熙哉	-12.9631
翕受敷施九徳咸事俊乂在官	-12.9631
徳民墜塗炭天乃錫王勇智表正萬邦	-12.9631
西夾南嚮敷重筍席𤣥紛純漆仍几	-12.9631
伊尹既復政厥辟將告歸乃陳戒于徳	-12.9631
竽	-12.9631
烜	-12.9631
故天棄我不有康食不虞天性不迪率典	-12.9632
至于敬寡至于屬婦合由以容	-12.9632
明四目逹四聰	-12.9632
揀	-12.9633
汝肇刑文武用㑹紹乃辟追孝于前文人	-12.9633
侯甸男衛矧太史友内史友	-12.9633
邃	-12.9633
㽞	-12.9633
崛	-12.9634
至治馨香感于神明黍稷非馨明徳惟馨	-12.9634
獄貨非寳惟府辜功報以庶尤	-12.9634
我祖底遂陳于上	-12.9634
縶	-12.9634
益曰都帝徳廣運乃聖乃神乃武乃文	-12.9634
装	-12.9634
屛	-12.9634
北平驪城縣西南	-12.9634
厎商之罪告于皇天后土所過名山大川	-12.9635
無有逺邇用罪伐厥死用徳彰厥善	-12.9635
惺	-12.9635
嗚呼乃一徳一心立定厥功惟克永世	-12.9635
太保命仲桓南宫毛俾爰齊侯	-12.9635
漑	-12.9635
僉曰伯禹作司空	-12.9636
悮	-12.9636
發有逸口矧予制乃短長之命	-12.9636
前徒倒戈攻于後以北	-12.9636
増修東萊書説卷	-12.9636
檄	-12.9636
糒	-12.9636
迪民康矧曰其有能格知天命	-12.9636
已曰時我我亦不敢寧于上帝命弗永	-12.9636
聿求元聖與之戮力	-12.9636
將崩命召公畢公率諸侯相康王作顧命	-12.9636
我惟時其戰要囚之	-12.9636
報虐以威遏絶苗民無世在下	-12.9636
燈	-12.9637
無僭亂辭勿用不行惟察惟法其審克之	-12.9637
汝念哉無我殄	-12.9637
銘曰苟日新日日新又	-12.9637
其今爾何懲惟時苗民匪察于獄之麗	-12.9637
廣二尋深二仞曰澮	-12.9638
徳罔小萬邦惟慶爾惟不徳罔大墜厥宗	-12.9638
予造天役遺大投艱于朕身越予沖人不	-12.9638
率自中無作聰明亂舊章詳乃視	-12.9638
迪格保面稽天若今時既墜厥命	-12.9638
莤	-12.9638
王人罔不秉徳明恤小臣屏侯甸	-12.9638
禹曰朕徳罔克民不依	-12.9638
鑚	-12.9639
肆予沖人永思艱曰嗚呼允蠢鰥寡哀哉	-12.9639
慎乃出令令出惟行弗惟反	-12.9639
政事懋哉懋哉	-12.9639
王曰外事汝陳時臬司師兹殷罰有倫	-12.9639
弗惟徳馨香祀登聞于天誕惟民怨	-12.9639
周公既得命禾旅天子之命作嘉禾	-12.9639
成王既黜殷命滅淮夷還歸在豐作周官	-12.964
今我既羞告爾于朕志若否罔有弗欽	-12.964
矧咸奔走惟兹惟徳稱用乂厥辟	-12.964
釐降二女于媯汭嬪于虞帝曰欽哉	-12.964
檋	-12.9641
羲和欽若昊天厯象日月星辰敬授人時	-12.9641
圯族岳曰异哉試可乃	-12.9642
爾乃惟逸惟頗大逺王命則惟爾多方	-12.9642
撼	-12.9642
昻	-12.9642
飪	-12.9642
惟民其勑懋和若有疾惟民其畢	-12.9642
贓	-12.9643
既乃遯于荒野入宅于河自河徂亳	-12.9643
官不及私昵惟其能爵罔及惡徳惟其賢	-12.9643
朒	-12.9643
哀敬折獄明啓刑書胥占咸庶中正	-12.9643
罔非在中察辭于差非從惟從	-12.9644
惟文王武王敷大徳于天下用克受殷命	-12.9644
夫人自亂于威儀爾無以釗冒貢于非幾	-12.9644
非廢厥謀弔由靈各非敢違卜用宏兹賁	-12.9644
日有中道月有九行	-12.9645
一耦之伐廣尺深尺	-12.9646
先王有服恪謹天命兹猶不常寧	-12.9646
百穀用成乂用明俊民用章家用平康	-12.9646
訥	-12.9647
散泰南宫皆氏	-12.9647
骸	-12.9648
汝作士明于五刑以弼五教期于予治	-12.9652
持厥婦子以哀籲天徂厥亡出執	-13.0063
鎰	-13.0257
茆	-13.0309
胊	-13.0311
褓	-13.0312
詀	-13.0315
岢	-13.0315
渤	-13.0317
堽	-13.0318
桷	-13.0318
軋	-13.032
今塞為平地滎陽民猶謂其	-13.0323
蔪	-13.0325
蹌	-13.0325
洧	-13.0325
磁	-13.0326
四月維夏六月徂暑	-13.0327
弹	-13.0328
聒	-13.0328
江四曰嘉靡江五曰畎江六曰源	-13.0328
宁	-13.033
器非求舊惟新	-13.033
蜡	-13.033
恁	-13.033
天敘有典勑我五典五惇哉	-13.0331
脞	-13.0331
勠	-13.0331
蘊	-13.0332
𦙍之舞衣大貝鼖鼓在西房	-13.0332
于四海而萬姓恱服	-13.0332
耎	-13.0332
臯陶矢厥謨禹成厥	-13.0333
簵	-13.0333
䍐	-13.0334
生耎毳細毛	-13.0334
枳	-13.0334
擔	-13.0335
大輅在賔階面綴輅在阼階面	-13.0335
飱	-13.0336
非予自荒兹徳惟汝	-13.0336
臯陶方祗厥敘方施象刑惟明	-13.0336
漉	-13.0336
戣瞿皆㦸屬	-13.0336
王麻冕黼裳由賔階隮	-13.0336
飮	-13.0337
侜	-13.0337
迪上以非先王之典	-13.0337
惟公徳明光于上下勤施于四方	-13.0337
𥙷	-13.0338
臏	-13.0338
天無親克敬惟親民罔常懐懐	-13.0338
與其殺不辜寜失不經	-13.0338
湯之於伊尹學焉而後臣	-13.0338
棠	-13.0338
跂	-13.0338
柔逺能邇惇徳允元而難任人蠻夷率服	-13.0339
堯復育重黎之後不忘舊者使復典之	-13.0339
虔	-13.0339
繩愆糾謬格其非心俾克紹先烈	-13.0339
庸蜀羌髳㣲盧彭濮	-13.034
小大之臣咸懐忠良	-13.034
公其以予萬億年敬天之休	-13.034
葺	-13.034
無有遘自疾萬年厭于乃徳殷乃引考	-13.034
天明畏自我民明威達于上下敬哉有土	-13.034
乃訓于王曰惟天監下民典厥義	-13.0341
于三王惟永終是圖兹攸俟能念予一人	-13.0341
蕡	-13.0341
至漸南冬至漸北	-13.0341
于王曰王左右常伯常任準人綴衣虎賁	-13.0341
盤庚下盤庚既遷奠厥攸居乃正厥位	-13.0341
岑	-13.0341
擒	-13.0341
王啓監厥亂為民	-13.0341
茀	-13.0341
太王肇基王迹王季其勤王家	-13.0341
孱	-13.0342
皡	-13.0342
王賔殺禋咸格王入太室祼	-13.0342
㞴	-13.0342
媒	-13.0342
犴	-13.0342
公稱丕顯徳以予小子揚文武烈	-13.0343
釋箕子囚封比干墓式商容閭	-13.0343
轄	-13.0343
教辭惟我一人弗恤弗蠲乃事時同于殺	-13.0343
率乂于民棐彞	-13.0343
詬	-13.0343
鉗	-13.0343
申畫郊圻慎固封守以康四海	-13.0344
羈	-13.0344
摟	-13.0344
慎厥始惟君陳克和厥中惟公克成厥終	-13.0344
東北據海西南距岱	-13.0344
剰	-13.0344
攦	-13.0345
徳盛不狎侮狎侮君	-13.0345
東夷西戎南蠻北狄	-13.0345
鄔	-13.0345
姤	-13.0345
玩人喪徳玩物喪志	-13.0345
我西土惟時怙冒聞于上帝帝休天乃	-13.0345
乃反商政政由舊	-13.0346
聖謨洋洋嘉言孔彰惟上帝不常作善	-13.0346
筰	-13.0346
綢	-13.0346
堕	-13.0346
廣尺深尺曰畎	-13.0346
無輕民事惟難無安厥位惟危慎終于始	-13.0347
以公滅私民其允懐	-13.0347
草上之風必偃	-13.0347
誕膺天命以撫方夏	-13.0347
惟稽古崇徳象賢統承先王修其禮物作	-13.0347
牛一羊一豕一	-13.0347
入自北門乃遇汝鳩汝方作汝鳩汝方	-13.0347
罔不若予不敢廢乃命汝往敬哉	-13.0347
康王既尸天子遂誥諸侯作康王之誥	-13.0347
嗚呼父師今予祗命公以周公之事往哉	-13.0348
唐叔得禾異畝同穎	-13.0348
湯既黜夏命復歸于亳作湯誥	-13.0348
兹率乃祖考之攸行昭乃辟之有乂	-13.0348
一出于闐于闐在南山下	-13.0348
踏	-13.0348
汝丕逺惟商耉成人	-13.0348
若有疾予曷敢不于前寧人攸受休畢	-13.0349
惟兹三風十愆卿士有一于身家必喪	-13.0349
予丕克羞爾用懐爾然	-13.0349
廋	-13.0349
兩造具備師聽五辭	-13.0349
昔公勤勞王家惟予沖人弗及知今天動	-13.035
底商之罪告于皇天后土所過名山大川	-13.035
犁	-13.035
鑠	-13.0351
罔罪爾衆爾無共怒協比讒言予一人	-13.0351
其勿誤于庶獄庶慎惟正是乂之	-13.0351
王曰爾惟舊人爾丕克逺省	-13.0351
纘乃舊服無忝祖考	-13.0351
昏不明俊民用微家用不寧	-13.0351
怨不在大亦不在小	-13.0351
徳不降我則鳴鳥不聞矧曰其有能格	-13.0351
乃穆考文王肇國在西土厥誥	-13.0352
長半寸施之履下以上山不蹉跌也	-13.0352
伊陟相太戊亳有祥桑	-13.0352
西序東嚮敷重底席綴純文貝仍几	-13.0352
天難諶乃其墜命弗克經歴嗣前人	-13.0352
放齊曰𦙍子朱啓明帝曰吁嚚訟可乎	-13.0352
今予其敷心腹腎腸歴告爾百姓于朕志	-13.0353
降咎于苗苗民無辭于罰乃絶厥世	-13.0353
我用沈酗于酒用亂敗厥徳于下	-13.0354
作其即位乃或亮隂三年不言	-13.0354
磐	-13.0354
成王歸自奄在宗周誥庶邦作多方	-13.0355
厥或告之曰小人怨汝詈汝則皇自敬徳	-13.0355
百姓不親五品不遜	-13.0355
寧王興我小邦周寧王惟卜用克綏受	-13.0355
徽柔懿恭懐保小民惠鮮鰥寡	-13.0356
徳矧曰其有能稽謀自天	-13.0356
非克有正迪惟前人光施于我沖子	-13.0356
髣	-13.0356
惟威惟虐大放王命乃非徳用乂	-13.0357
率乃祖文王之彞訓	-13.0357
親屬私燕之坐	-13.0357
俾率先王迪我髙后以康兆民	-13.0357
四方風動惟乃之休	-13.0357
若乘舟汝弗濟臭厥載	-13.0358
未其有若汝封之心朕心朕徳惟乃知	-13.0358
瀁	-13.0358
曰父師少師我其發出狂吾家耄遜于荒	-13.0358
慎乃儉徳惟懐永圖	-13.0359
貌之不恭是謂不肅	-13.036
玷	-13.036
率乃祖考之攸行	-13.036
今惟民不靜未戾厥心迪屢未同	-13.0361
嚴恭寅畏天命自度治民祗懼不敢荒寧	-13.0362
曰嗟我友邦冢君越我御事庶士明聽誓	-13.0364
拄	-13.0364
䑕	-13.0367
降之百祥作不善降之百殃爾惟	-13.0998
碉	-13.1075
1	-13.1089
俱出嶓冢而同為漢水	-13.1092
圁	-13.1094
籀	-13.1096
惟斆學半念終始典于學厥徳修罔覺	-13.1096
㩀	-13.1096
粱	-13.1096
浯	-13.1097
潕	-13.1099
蠃	-13.1099
敢求爾于天邑商	-13.11
獠	-13.11
雲夢者方八九百里	-13.1101
王言惟作命不言臣下罔攸稟令	-13.1102
于有仁鬼神無常享享于克誠天位艱哉	-13.1102
丄	-13.1103
瞰	-13.1103
𦍑	-13.1103
曼	-13.1105
辠	-13.1105
窪	-13.1105
思其艱以圖其易	-13.1105
魋	-13.1105
寮	-13.1106
躐	-13.1106
惟吉凶不僭在人惟天降災祥在徳	-13.1106
脆	-13.1106
餱	-13.1106
仡仡勇夫射御不違我尚不欲	-13.1107
撫民以寛除其邪虐功加于時徳垂後裔	-13.1107
罔曰弗克惟既厥心罔曰民寡惟慎厥事	-13.1107
喇	-13.1107
軹	-13.1107
貕	-13.1107
𠖇	-13.1107
灝	-13.1107
甹	-13.1107
釋水云河千里一曲一直	-13.1107
乃有不吉不迪顛越不恭暫遇姦宄	-13.1107
巔	-13.1107
郇	-13.1108
予一人惟聽用徳肆予敢求爾于天邑商	-13.1108
準人則克宅之克由繹之兹乃俾乂	-13.1108
惶	-13.1108
盼	-13.1108
帝曰臯陶蠻夷猾夏寇賊姦宄	-13.1108
懋乃后徳交修不逮	-13.1109
徳元小民乃惟刑用于天下越王顯	-13.1109
虒	-13.1109
所寶惟賢則邇人安	-13.1109
徳日新萬邦惟懐志自滿九族乃離	-13.111
泒	-13.111
乃同召太保奭芮伯彤伯畢公衞侯毛公	-13.111
殺敵為果致果為毅	-13.111
遊無度畋于有洛之表十旬弗反	-13.111
武王伐殷往伐歸獸識其政事作武成	-13.1111
騫	-13.1111
氓	-13.1111
犠	-13.1111
帝曰咨禹惟時有苗弗率汝徂征	-13.1111
廐	-13.1112
明有家日嚴祗敬六徳亮采有邦	-13.1112
弗克于厥初尚賴匡救之徳圖惟厥終	-13.1112
嗤	-13.1112
沈亂于酒畔官離次俶擾天紀遐棄厥司	-13.1112
沈湎冒色敢行暴虐罪人以族官人以世	-13.1112
曰嗚呼古有夏先后方懋厥徳罔有天災	-13.1113
摉	-13.1113
有命曰割殷告勑于帝	-13.1113
汀	-13.1113
禹曰惠迪吉從逆凶惟影響	-13.1113
王懋乃徳視乃烈祖無時豫怠	-13.1113
譎	-13.1113
卜不習吉禹拜稽首固辭帝曰毋惟汝諧	-13.1113
㳒	-13.1113
天惟式教我用休簡畀殷命尹爾多方	-13.1113
惟徳惟義時乃大訓不由古訓于何其訓	-13.1113
羣后以師畢㑹王乃徇師而誓	-13.1113
惟尹躬先見于西邑夏自周有終相	-13.1113
東面而征西夷怨南面而征北狄怨	-13.1114
旰	-13.1114
淫昏不克終日勸于帝之迪乃爾攸聞	-13.1114
嶭	-13.1114
匆	-13.1114
建官惟賢位事惟能	-13.1114
懃	-13.1114
獮	-13.1115
汋	-13.1115
乃同召太保奭芮伯彤伯畢公衛侯毛公	-13.1115
彿	-13.1115
簠	-13.1116
乃克立兹常事司牧人以克俊有徳	-13.1116
宅憂亮隂三祀既免喪其惟弗言羣臣咸	-13.1116
惟公德明光于上下勤施于四方	-13.1116
黄帝堯舜垂衣裳而天下治	-13.1116
無總于貨寳生生自庸	-13.1116
寧人圖功攸終天亦惟用勤毖我民	-13.1116
既受命還出綴衣于庭越翼日乙丑王崩	-13.1116
乃汝盡遜曰時敘惟曰未有遜事	-13.1117
甲子王乃洮頮水	-13.1117
蹂	-13.1117
菱	-13.1117
淬	-13.1117
畬	-13.1118
舋	-13.1118
欝	-13.1118
粘	-13.1119
袵	-13.112
猺	-13.1121
嚬	-13.1121
晻	-13.1122
溜	-13.1123
肓	-13.1123
僩	-13.1123
餮	-13.1123
𤱔	-13.1123
穂	-13.1125
騏	-13.1126
㸑	-13.1127
蚡	-13.1127
塚	-13.1129
掛	-13.1129
渟	-13.1129
裸	-13.113
郏	-13.113
縝	-13.1132
􁆂	-13.1134
鴨	-13.1138
揄	-13.1145
央	-13.172
煇	-13.1828
㝛	-13.1903
莎	-13.1914
冔	-13.1916
劵	-13.1922
疋	-13.1924
㟭	-13.1926
蛤	-13.1928
噎	-13.1929
盬	-13.193
齎	-13.193
栻	-13.193
崗	-13.193
歧	-13.1931
偁	-13.1932
溽	-13.1936
瞑	-13.1936
擺	-13.1936
俛	-13.1936
團	-13.1937
岣	-13.1937
廖	-13.1937
棊	-13.1937
嶁	-13.1937
拍	-13.1938
礱	-13.1938
皦	-13.1938
顗	-13.1939
懾	-13.1939
傭	-13.1939
蝦	-13.194
祉	-13.194
喘	-13.194
鞞	-13.194
熲	-13.194
涘	-13.1941
摽	-13.1942
膈	-13.1942
鵽	-13.1942
訃	-13.1943
灑	-13.1943
洿	-13.1943
芊	-13.1943
邘	-13.1943
魮	-13.1943
𫐠	-13.1944
薮	-13.1945
佺	-13.1945
逗	-13.1945
捉	-13.1945
爂	-13.1945
罅	-13.1945
讜	-13.1945
冣	-13.1946
􁂒	-13.1946
炯	-13.1946
㝷	-13.1947
募	-13.1947
翬	-13.1947
詖	-13.1947
綵	-13.1947
硬	-13.1948
郅	-13.1948
挟	-13.1948
燿	-13.1948
妺	-13.1948
醬	-13.1948
傒	-13.1948
糲	-13.1948
淅	-13.1948
皎	-13.1949
宓	-13.1949
媺	-13.195
跪	-13.195
埒	-13.1951
醲	-13.1951
嶻	-13.1951
訕	-13.1952
礲	-13.1952
簞	-13.1953
䥫	-13.1953
喙	-13.1953
剌	-13.1953
䕃	-13.1953
僨	-13.1954
攪	-13.1954
烖	-13.1954
煆	-13.1955
黠	-13.1955
嫓	-13.1955
蹻	-13.1955
秪	-13.1955
溴	-13.1955
噴	-13.1956
款	-13.1956
帆	-13.1957
鄃	-13.1957
匚	-13.1957
淀	-13.1958
諏	-13.1958
讟	-13.196
婞	-13.1961
奨	-13.1962
焬	-13.1963
諮	-13.1963
芸	-13.1963
舘	-13.1964
爱	-13.1966
濆	-13.197
彬	-13.2807
鋟	-13.2813
鋼	-13.2816
孼	-13.283
嬌	-13.2833
皖	-13.2834
脇	-13.2835
兔	-13.2835
窘	-13.2836
㮣	-13.2837
瑜	-13.2839
譟	-13.2839
鏘	-13.2839
錞	-13.284
晴	-13.284
頊	-13.284
蜆	-13.284
惎	-13.284
蘋	-13.2841
阸	-13.2841
腔	-13.2841
蜂	-13.2841
芙	-13.2843
鯉	-13.2843
叠	-13.2844
畯	-13.2844
悙	-13.2844
猒	-13.2845
痕	-13.2846
靁	-13.2846
尨	-13.2846
幪	-13.2847
甕	-13.2847
潏	-13.2847
騃	-13.2848
衿	-13.2848
汐	-13.2848
暌	-13.2849
鬚	-13.285
涒	-13.285
稳	-13.2851
媪	-13.2851
衺	-13.2851
拏	-13.2851
陡	-13.2852
匃	-13.2852
恙	-13.2852
术	-13.2853
憬	-13.2853
徤	-13.2853
䰟	-13.2854
敳	-13.2854
艸	-13.2854
滁	-13.2854
醯	-13.2854
緦	-13.2854
翩	-13.2854
絞	-13.2855
袛	-13.2855
倞	-13.2855
欹	-13.2856
裨	-13.2856
瘼	-13.2856
邜	-13.2856
韙	-13.2856
厪	-13.2856
焄	-13.2856
庬	-13.2857
崆	-13.2857
倐	-13.2858
瘞	-13.2858
秫	-13.2859
銎	-13.2859
悒	-13.2859
猴	-13.2859
婆	-13.286
驁	-13.286
駐	-13.286
萎	-13.2861
型	-13.2861
甥	-13.2863
榛	-13.2863
𠡠	-13.2864
廛	-13.2864
酧	-13.2864
艦	-13.2864
邐	-13.2864
苧	-13.2865
詘	-13.2865
􁃻	-13.2865
􁀮	-13.2866
梱	-13.2867
曺	-13.2868
污	-13.2869
燃	-13.287
曖	-13.287
挻	-13.2871
沗	-13.2871
磻	-13.2873
杠	-13.2873
坶	-13.2873
拽	-13.2875
显	-13.2875
秠	-13.2876
肹	-13.2878
闑	-13.2878
栲	-13.2888
牐	-13.3802
潯	-13.3812
2	-13.3815
駘	-13.3818
溳	-13.382
鱣	-13.382
倀	-13.3827
趋	-13.3828
鉦	-13.3828
鐃	-13.3829
岩	-13.3829
峩	-13.3832
蜚	-13.3834
亙	-13.3835
頋	-13.3835
茄	-13.3837
瘢	-13.3837
瑻	-13.3838
螟	-13.384
暉	-13.384
艶	-13.384
湃	-13.384
仡	-13.3841
擘	-13.3841
螽	-13.3841
埜	-13.3842
跬	-13.3842
臍	-13.3842
髕	-13.3842
鳧	-13.3843
玕	-13.3843
敻	-13.3844
瑑	-13.3844
哺	-13.3845
鷖	-13.3846
拖	-13.3848
禬	-13.3848
畒	-13.3848
蹊	-13.3848
祋	-13.3848
璟	-13.3848
癢	-13.3849
螭	-13.3849
渥	-13.3849
繻	-13.385
剠	-13.385
躡	-13.385
謠	-13.385
徊	-13.385
鎌	-13.385
簪	-13.3851
諠	-13.3851
甝	-13.3851
楠	-13.3851
泚	-13.3851
催	-13.3852
踪	-13.3852
㯺	-13.3852
樣	-13.3852
盻	-13.3852
灞	-13.3853
鄼	-13.3853
疢	-13.3855
滏	-13.3855
傋	-13.3855
俠	-13.3855
鑱	-13.3855
霾	-13.3855
鵝	-13.3855
􁂎	-13.3855
吒	-13.3856
熖	-13.3856
蘧	-13.3856
攙	-13.3856
衘	-13.3856
㤙	-13.3857
壻	-13.3857
𤨏	-13.3857
菅	-13.3858
擽	-13.3858
筓	-13.3858
刁	-13.3858
湜	-13.3858
嗾	-13.3858
隍	-13.3858
諜	-13.3858
侃	-13.3859
叵	-13.3859
禅	-13.3859
繄	-13.3859
㶌	-13.3859
湓	-13.3859
赳	-13.3859
娠	-13.3859
淋	-13.386
祊	-13.386
惮	-13.386
鍼	-13.386
鼐	-13.386
慇	-13.3861
拭	-13.3861
椘	-13.3861
蠒	-13.3861
怗	-13.3862
讖	-13.3862
豻	-13.3862
呌	-13.3862
溟	-13.3862
愴	-13.3863
攀	-13.3864
逡	-13.3864
挫	-13.3864
蓮	-13.3865
鈐	-13.3865
觚	-13.3866
櫜	-13.3866
痰	-13.3866
霓	-13.3866
𦦨	-13.3866
喫	-13.3868
櫄	-13.3868
竆	-13.3868
濂	-13.3868
沍	-13.3868
𣏌	-13.3868
彃	-13.387
鄏	-13.3871
誄	-13.3871
笏	-13.3871
蓰	-13.3872
潬	-13.3876
槖	-13.3877
鄀	-13.3877
㯉	-13.3878
娱	-13.388
虙	-13.3882
埭	-13.3883
憧	-13.3895
筝	-13.4903
斌	-13.4932
􁁎	-13.4933
戠	-13.4934
泑	-13.4934
錡	-13.4936
窻	-13.4936
磔	-13.494
蓐	-13.494
蚔	-13.4943
捧	-13.4946
禴	-13.4946
箜	-13.4948
閡	-13.4949
㮚	-13.4949
篌	-13.4949
鄗	-13.495
砦	-13.4952
璽	-13.4952
蓉	-13.4952
詫	-13.4952
霿	-13.4952
禕	-13.4953
㐲	-13.4954
鏑	-13.4954
窽	-13.4954
罝	-13.4955
滆	-13.4955
祺	-13.4955
捺	-13.4955
繚	-13.4955
霏	-13.4955
梢	-13.4956
鞀	-13.4956
蟇	-13.4957
蛟	-13.4958
畸	-13.4958
輾	-13.4958
稿	-13.4958
蹴	-13.4959
邲	-13.4959
烽	-13.4959
扐	-13.496
噲	-13.496
妊	-13.496
僇	-13.4961
驍	-13.4962
竪	-13.4962
耔	-13.4962
嘒	-13.4962
濉	-13.4963
揵	-13.4963
黧	-13.4964
榜	-13.4964
賵	-13.4964
菊	-13.4965
鍇	-13.4965
筩	-13.4965
睨	-13.4966
啐	-13.4966
扣	-13.4966
藜	-13.4966
祤	-13.4966
輜	-13.4966
阱	-13.4967
㝢	-13.4967
狸	-13.4967
蔕	-13.4967
牋	-13.4968
扄	-13.4968
蚍	-13.4968
憊	-13.4969
瓶	-13.497
漚	-13.4971
俑	-13.4971
闈	-13.4971
鞔	-13.4972
莬	-13.4973
謔	-13.4973
喟	-13.4973
惬	-13.4974
妒	-13.4974
諤	-13.4975
携	-13.4975
墍	-13.4976
祜	-13.4976
剸	-13.4976
葸	-13.4976
癡	-13.4977
撙	-13.4977
幬	-13.4978
鄫	-13.4978
焜	-13.4978
湫	-13.4978
孑	-13.4979
薈	-13.4979
藺	-13.4979
簨	-13.4979
痼	-13.498
餕	-13.498
耼	-13.4982
竿	-13.4983
揺	-13.4983
鄩	-13.4983
橁	-13.4985
媸	-13.4988
鑢	-13.499
掲	-13.4992
煨	-13.4993
贗	-13.4995
稒	-13.5003
韤	-13.5007
㬱	-13.6171
甜	-13.6174
疈	-13.6177
亰	-13.6177
厤	-13.6182
塢	-13.6183
灨	-13.6183
鰅	-13.6186
藂	-13.6188
璪	-13.6192
龢	-13.6192
蝗	-13.6192
蛉	-13.6192
廧	-13.6193
箠	-13.6195
床	-13.6198
䢵	-13.6198
蘩	-13.6198
蠯	-13.6198
暬	-13.6199
簬	-13.62
枵	-13.6201
胖	-13.6201
澍	-13.6203
挍	-13.6204
喈	-13.6204
啼	-13.6204
桁	-13.6204
徘	-13.6205
闘	-13.6205
虣	-13.6205
酖	-13.6206
滸	-13.6207
劅	-13.6207
棖	-13.6207
􁇽	-13.6207
箐	-13.6208
叡	-13.6208
眸	-13.6208
玦	-13.6208
顕	-13.6208
腻	-13.6209
倅	-13.6209
惨	-13.6209
鎻	-13.621
丒	-13.621
凴	-13.621
湽	-13.621
侫	-13.6211
耋	-13.6211
粥	-13.6211
羯	-13.6212
煦	-13.6212
騄	-13.6213
刲	-13.6213
愒	-13.6214
謌	-13.6214
簭	-13.6214
簴	-13.6214
畇	-13.6215
鯤	-13.6215
鏺	-13.6215
櫃	-13.6216
陿	-13.6216
换	-13.6216
綯	-13.6216
辣	-13.6216
珽	-13.6216
靧	-13.6217
醋	-13.6218
袖	-13.6218
溈	-13.6218
毓	-13.6218
珌	-13.6218
禡	-13.6219
惚	-13.6219
牕	-13.6219
疣	-13.6219
燬	-13.6219
冄	-13.622
艧	-13.622
爨	-13.622
渫	-13.622
杕	-13.622
綰	-13.6221
肸	-13.6221
畚	-13.6221
狷	-13.6221
蟹	-13.6221
鼷	-13.6221
翺	-13.6221
禝	-13.6222
矍	-13.6222
倕	-13.6222
紋	-13.6222
㘅	-13.6222
掄	-13.6222
茸	-13.6223
攣	-13.6223
泐	-13.6223
緄	-13.6223
匄	-13.6223
虁	-13.6224
斕	-13.6225
郞	-13.6225
翅	-13.6225
撗	-13.6225
槱	-13.6225
宸	-13.6225
㲈	-13.6225
尢	-13.6225
睯	-13.6225
勻	-13.6226
貆	-13.6226
挨	-13.6227
簀	-13.6228
丼	-13.6228
􁂛	-13.6229
柲	-13.623
擦	-13.623
蜉	-13.6233
紘	-13.6234
店	-13.6236
栒	-13.6236
靺	-13.6238
捃	-13.6238
畦	-13.6239
淩	-13.624
巉	-13.624
豷	-13.6241
郜	-13.6244
汰	-13.6245
縓	-13.6246
塍	-13.7593
蓨	-13.7597
朡	-13.7604
濓	-13.7607
勛	-13.7608
䵾	-13.7611
瞢	-13.7613
蓚	-13.7614
鑴	-13.7614
邏	-13.7615
黝	-13.7616
鏗	-13.7616
押	-13.7616
淛	-13.762
龐	-13.762
蜒	-13.7621
梨	-13.7621
椽	-13.7622
販	-13.7622
岨	-13.7623
糸	-13.7623
剋	-13.7623
澦	-13.7623
瞬	-13.7624
燋	-13.7624
穅	-13.7624
縑	-13.7624
債	-13.7625
蓂	-13.7625
桺	-13.7626
蠕	-13.7626
罭	-13.7626
碍	-13.7627
㰎	-13.7628
廮	-13.7629
麒	-13.7629
滬	-13.763
趕	-13.7631
頺	-13.7631
鈆	-13.7631
嵫	-13.7631
鵬	-13.7631
遄	-13.7632
熯	-13.7632
悃	-13.7632
棃	-13.7633
餌	-13.7633
隹	-13.7633
鄄	-13.7634
頁	-13.7635
頫	-13.7635
愀	-13.7635
鮫	-13.7636
觹	-13.7636
駝	-13.7637
斄	-13.7637
袪	-13.7638
䜎	-13.7638
徬	-13.7638
覯	-13.7638
衂	-13.7638
姨	-13.7639
捄	-13.7639
牣	-13.7639
仿	-13.764
㢠	-13.764
朁	-13.764
厨	-13.764
焕	-13.764
綀	-13.764
竢	-13.764
睥	-13.764
湄	-13.7641
窳	-13.7641
璗	-13.7642
槨	-13.7642
揷	-13.7642
鼉	-13.7642
濘	-13.7643
緼	-13.7643
劈	-13.7643
皤	-13.7643
軨	-13.7644
祍	-13.7644
臡	-13.7644
扳	-13.7644
薑	-13.7644
􁇂	-13.7644
錘	-13.7645
暎	-13.7645
扃	-13.7645
嘻	-13.7645
吻	-13.7645
郗	-13.7645
儷	-13.7645
眠	-13.7646
蟊	-13.7646
卹	-13.7647
擎	-13.7647
療	-13.7647
翯	-13.7647
鷔	-13.7648
輶	-13.7648
掎	-13.7649
綠	-13.7649
蒍	-13.7649
狽	-13.7649
纛	-13.7649
藿	-13.765
逶	-13.765
陁	-13.765
璘	-13.765
啄	-13.7651
煎	-13.7651
愕	-13.7651
豵	-13.7651
苪	-13.7652
殀	-13.7653
愔	-13.7653
賕	-13.7654
鶚	-13.7656
俸	-13.7656
轡	-13.7656
樅	-13.7656
㩁	-13.7656
涣	-13.7656
􁆴	-13.7656
糅	-13.7656
撃	-13.7657
麩	-13.7658
曳	-13.7659
詿	-13.7659
吠	-13.766
嘿	-13.766
殍	-13.766
糇	-13.7661
瘥	-13.7661
抒	-13.7661
臊	-13.7661
劃	-13.7661
餁	-13.7662
曀	-13.7662
楮	-13.7662
𣗳	-13.7662
闞	-13.7662
烱	-13.7662
苓	-13.7663
脤	-13.7663
醖	-13.7664
澳	-13.7664
緌	-13.7664
攢	-13.7664
詷	-13.7665
豊	-13.7666
儐	-13.7669
鬵	-13.767
夥	-13.7671
咻	-13.7672
牒	-13.7674
匐	-13.7674
嵏	-13.7676
栞	-13.7676
岠	-13.7677
棸	-13.7696
垞	-13.7718
渽	-13.9192
珦	-13.9209
槄	-13.9239
獂	-13.9254
螢	-13.926
笳	-13.9264
璚	-13.9265
屐	-13.927
氊	-13.9275
圩	-13.9277
襯	-13.9277
氛	-13.9279
滍	-13.9279
荄	-13.928
􁃦	-13.9282
啖	-13.9283
杅	-13.9283
磷	-13.9283
蠅	-13.9284
痏	-13.9284
棋	-13.9285
檴	-13.9286
睱	-13.9286
昱	-13.9287
萋	-13.9288
麇	-13.9289
㕣	-13.9289
巇	-13.9291
絢	-13.9291
譛	-13.9291
慫	-13.9292
臮	-13.9292
鐲	-13.9293
崞	-13.9293
趂	-13.9294
忩	-13.9294
旴	-13.9294
樟	-13.9294
剿	-13.9294
悵	-13.9294
餽	-13.9295
汸	-13.9295
褰	-13.9295
彧	-13.9295
腫	-13.9295
蜿	-13.9296
㕔	-13.9297
侑	-13.9297
靚	-13.9297
酳	-13.9297
嵕	-13.9298
蝌	-13.9298
舩	-13.9299
斐	-13.9299
鐐	-13.9299
瀑	-13.9299
甓	-13.93
逌	-13.93
􁀤	-13.93
􁆅	-13.93
旞	-13.93
齗	-13.93
朘	-13.9301
秤	-13.9301
鐶	-13.9302
曦	-13.9302
堞	-13.9302
睟	-13.9302
蕕	-13.9302
貾	-13.9303
沚	-13.9303
豸	-13.9303
萑	-13.9303
礴	-13.9303
揃	-13.9304
袚	-13.9304
乿	-13.9305
耡	-13.9305
褁	-13.9305
楸	-13.9305
秖	-13.9305
豨	-13.9305
邍	-13.9305
傕	-13.9305
檐	-13.9305
粊	-13.9306
柝	-13.9306
醪	-13.9306
囑	-13.9306
拗	-13.9306
蘬	-13.9306
犆	-13.9306
蜜	-13.9307
酤	-13.9307
逷	-13.9307
鴉	-13.9307
蠆	-13.9307
秃	-13.9307
噍	-13.9307
􁆭	-13.9307
萍	-13.9308
糟	-13.9308
紇	-13.9308
􁆧	-13.9309
臈	-13.9309
抜	-13.9309
炒	-13.9309
兇	-13.9309
礦	-13.9309
虫	-13.931
詡	-13.931
啾	-13.931
站	-13.931
輈	-13.9311
禇	-13.9311
虵	-13.9311
縟	-13.9311
閃	-13.9311
尔	-13.9311
紡	-13.9312
戭	-13.9312
瞫	-13.9312
悪	-13.9313
秔	-13.9313
胚	-13.9313
臥	-13.9314
芾	-13.9314
頷	-13.9314
刧	-13.9314
綫	-13.9314
汮	-13.9314
愠	-13.9315
跽	-13.9315
佔	-13.9315
砌	-13.9315
鬆	-13.9315
壖	-13.9315
鞕	-13.9315
牌	-13.9316
揫	-13.9316
堧	-13.9316
惓	-13.9316
筌	-13.9317
复	-13.9317
湋	-13.9317
喀	-13.9317
籕	-13.9318
堋	-13.9318
縊	-13.9318
竣	-13.9319
訝	-13.9319
呪	-13.9319
抃	-13.9319
䟎	-13.932
獘	-13.9321
帚	-13.9321
駜	-13.9321
䫉	-13.9322
茁	-13.9322
叉	-13.9322
崎	-13.9322
轢	-13.9322
澉	-13.9322
黶	-13.9323
慱	-13.9323
昫	-13.9323
确	-13.9323
稃	-13.9324
鞮	-13.9324
鞨	-13.9324
睫	-13.9324
徉	-13.9325
兎	-13.9326
媾	-13.9326
翫	-13.9326
汉	-13.9327
窈	-13.9328
剴	-13.9329
芡	-13.9329
廽	-13.9329
貺	-13.933
忬	-13.933
椅	-13.933
襌	-13.9331
喑	-13.9331
吭	-13.9331
阽	-13.9332
戱	-13.9333
㽕	-13.9333
薩	-13.9335
匍	-13.9335
廁	-13.9335
櫓	-13.9335
倔	-13.9336
琫	-13.9337
蜩	-13.9338
覘	-13.9338
刓	-13.9339
􁇌	-13.9341
夣	-13.9342
餼	-13.9343
翮	-13.9343
搤	-13.9344
鷸	-13.9346
稡	-13.9346
瑛	-13.9347
坫	-13.9349
䆫	-13.935
沘	-13.9353
橙	-13.9353
襪	-13.9357
𬞞	-13.9374
娣	-14.1207
毊	-14.1245
􁇒	-14.1265
賸	-14.1266
薉	-14.1269
槍	-14.1271
戶	-14.1271
凭	-14.1272
鞂	-14.1273
梵	-14.1273
崍	-14.1274
螺	-14.1274
酺	-14.1275
煜	-14.1278
漱	-14.1278
崌	-14.1279
撒	-14.1281
怩	-14.1281
濜	-14.1282
黈	-14.1283
昕	-14.1284
蚶	-14.1284
暄	-14.1285
哥	-14.1285
挏	-14.1285
蝨	-14.1286
芍	-14.1287
囷	-14.1287
􁆑	-14.1287
菙	-14.1287
旪	-14.1288
鄞	-14.1288
紼	-14.1289
鞘	-14.1289
􁆄	-14.1289
猝	-14.1291
塴	-14.1291
驌	-14.1292
訌	-14.1292
嵬	-14.1292
駉	-14.1293
鼚	-14.1293
闍	-14.1294
侏	-14.1294
暍	-14.1295
冽	-14.1295
帕	-14.1295
箏	-14.1295
寞	-14.1296
週	-14.1296
㴱	-14.1296
坯	-14.1296
黺	-14.1296
搶	-14.1296
遨	-14.1297
韍	-14.1297
輲	-14.1297
𤦺	-14.1297
㵲	-14.1298
敓	-14.1298
莪	-14.1298
蜻	-14.1298
蓊	-14.1299
謩	-14.1299
漭	-14.1299
☰	-14.1299
巋	-14.1299
詧	-14.1299
笱	-14.1299
􁂣	-14.13
嘘	-14.13
棱	-14.13
篴	-14.13
􁆜	-14.13
蹕	-14.1301
虯	-14.1301
酇	-14.1301
唾	-14.1301
暅	-14.1301
儗	-14.1301
窓	-14.1301
漅	-14.1302
捭	-14.1302
哇	-14.1302
鉄	-14.1302
僵	-14.1302
蹋	-14.1302
攴	-14.1302
􁄼	-14.1302
顆	-14.1304
䌓	-14.1304
痌	-14.1304
篪	-14.1304
迸	-14.1304
擲	-14.1304
忖	-14.1304
烟	-14.1304
腳	-14.1304
頇	-14.1305
顢	-14.1305
淚	-14.1305
謦	-14.1305
榷	-14.1305
曶	-14.1305
􁆨	-14.1305
繙	-14.1306
奐	-14.1306
嶰	-14.1306
濃	-14.1306
挂	-14.1307
曇	-14.1307
蜺	-14.1307
卄	-14.1307
燉	-14.1308
嚶	-14.1308
盃	-14.1309
𬎼	-14.1309
粵	-14.1309
朄	-14.1309
酃	-14.1309
腠	-14.1309
爐	-14.1309
腊	-14.131
䦧	-14.131
橐	-14.131
祅	-14.131
潄	-14.131
猖	-14.1311
窿	-14.1311
諼	-14.1311
斾	-14.1311
絆	-14.1311
㗖	-14.1311
犵	-14.1312
腯	-14.1312
輊	-14.1313
咀	-14.1313
嶼	-14.1313
攔	-14.1313
鞉	-14.1313
爝	-14.1313
劌	-14.1314
哂	-14.1314
怱	-14.1314
崟	-14.1314
嘽	-14.1314
誶	-14.1314
豋	-14.1314
頬	-14.1314
瑪	-14.1315
杍	-14.1315
鼬	-14.1315
佻	-14.1315
琚	-14.1316
􁆮	-14.1317
癰	-14.1317
鑪	-14.1317
獼	-14.1317
瑀	-14.1317
訏	-14.1318
綮	-14.1318
膓	-14.1318
祡	-14.1319
嶸	-14.1319
掬	-14.1319
蒂	-14.1319
珤	-14.132
暵	-14.132
嶇	-14.132
氶	-14.132
嫚	-14.1321
脽	-14.1321
邙	-14.1321
泜	-14.1321
觿	-14.1322
悽	-14.1322
莩	-14.1322
莵	-14.1322
硏	-14.1322
粃	-14.1322
絿	-14.1322
耰	-14.1322
儋	-14.1323
碾	-14.1323
勰	-14.1323
値	-14.1323
屣	-14.1323
瀧	-14.1323
閧	-14.1324
騖	-14.1324
絪	-14.1324
鶩	-14.1324
馗	-14.1324
葫	-14.1325
皿	-14.1325
杏	-14.1325
肫	-14.1325
紿	-14.1326
姿	-14.1326
厈	-14.1327
蘗	-14.1327
螣	-14.1327
雱	-14.1328
鯷	-14.1328
醎	-14.1329
倥	-14.1329
幵	-14.1331
卝	-14.1331
觥	-14.1331
壼	-14.1332
隞	-14.1332
侀	-14.1332
㓷	-14.1333
郈	-14.1334
旡	-14.1336
欄	-14.1336
輛	-14.1338
錙	-14.1338
楡	-14.1339
𣪚	-14.1343
淠	-14.1346
眤	-14.1346
祛	-14.1349
䋽	-14.1349
褎	-14.135
琉	-14.1351
璃	-14.1358
篛	-14.1359
鋈	-14.1384
哻	-14.1399
捔	-14.3746
餅	-14.375
姞	-14.3756
4	-14.3761
彎	-14.3771
伽	-14.3772
弤	-14.3772
㯟	-14.3774
劎	-14.3775
慂	-14.3777
榱	-14.3781
儁	-14.3781
埶	-14.3781
嚅	-14.3782
噪	-14.3782
嚼	-14.3788
覦	-14.3788
嚭	-14.3788
怫	-14.3788
嘲	-14.3788
坳	-14.3788
䰞	-14.379
儇	-14.379
单	-14.3791
崮	-14.3791
慓	-14.3792
槌	-14.3792
㶚	-14.3793
彂	-14.3795
嬛	-14.3795
嵒	-14.3796
愊	-14.3796
旭	-14.3797
旧	-14.3799
尠	-14.38
☵	-14.3801
䎡	-14.3802
僾	-14.3802
樁	-14.3802
呶	-14.3802
欿	-14.3802
聱	-14.3803
叱	-14.3803
崘	-14.3803
忮	-14.3806
䣱	-14.3806
丱	-14.3806
暦	-14.3806
伉	-14.3807
扯	-14.3807
橆	-14.3807
帑	-14.3808
惷	-14.3809
抝	-14.381
儿	-14.381
掉	-14.381
嵇	-14.381
㙔	-14.381
塜	-14.381
掣	-14.381
彄	-14.3811
埀	-14.3811
嶮	-14.3811
桉	-14.3811
壙	-14.3811
凄	-14.3813
券	-14.3813
喆	-14.3813
傎	-14.3813
刌	-14.3814
旐	-14.3814
懥	-14.3814
柣	-14.3814
弌	-14.3816
垓	-14.3817
攄	-14.3817
匸	-14.3817
憣	-14.3817
襚	-14.3818
䥘	-14.3818
啜	-14.3818
噱	-14.3818
堊	-14.3818
峜	-14.3818
帀	-14.3818
䱷	-14.382
堦	-14.382
俳	-14.382
檠	-14.3821
卸	-14.3822
橈	-14.3822
䤸	-14.3824
戔	-14.3825
䉁	-14.3825
唤	-14.3825
杆	-14.3828
咳	-14.3829
搃	-14.3829
悄	-14.3829
榨	-14.3831
們	-14.3831
慥	-14.3832
娯	-14.3833
欬	-14.3835
奰	-14.3836
旛	-14.3837
㢮	-14.3838
呱	-14.3842
搯	-14.3843
啞	-14.3843
坏	-14.3843
伹	-14.3847
査	-14.3849
橛	-14.3849
墱	-14.3849
巵	-14.3851
佼	-14.3851
媮	-14.3854
樛	-14.3855
哌	-14.3864
恺	-14.3865
呵	-14.3872
帯	-14.3879
葱	-14.7105
5	-14.7122
癃	-14.7142
鶬	-15.2102
洳	-15.211
9	-15.2111
侖	-15.2141
『	-15.2142
璠	-15.2161
匈	-15.218
宙	-15.2196
闐	-16.1964
怭	-16.2104
堭	-16.2105
谽	-16.2106
谺	-16.2107
稭	-16.2108
柁	-16.2109
廕	-16.211
㪷	-16.2111
畺	-16.2112
泱	-16.2113
荻	-16.2114
玗	-16.2115
鄲	-16.2116
蕘	-16.2117
恝	-16.2118
慷	-16.2119
妢	-16.212
囹	-16.2121
嚀	-16.2122
叮	-16.2123
齦	-16.2124
媧	-16.2125
魑	-16.2126
踴	-16.2127
碔	-16.2128
陔	-16.2129
轝	-16.213
嵹	-16.2131
玁	-16.2132
鮀	-16.2133
嗑	-16.2134
厔	-16.2135
莨	-16.2136
琶	-16.2137
琵	-16.2138
閨	-16.2139
稂	-16.214
墀	-16.2141
.	-16.2141
豉	-16.2142
櫬	-16.2143
鈇	-16.2144
牴	-16.2145
芬	-16.2146
蔥	-16.2147
惴	-16.2148
齟	-16.2149
