<unk>	0
<s>	0
</s>	0
,	-2.37464
。	-2.97992
、	-3.98899
:	-4.78135
▁*	-4.94628
也	-5.13241
者	-5.15658
一	-5.22986
之	-5.23306
;	-5.2359
〕	-5.2579
的	-5.27987
「	-5.29058
為	-5.3052
二	-5.30976
》	-5.34464
▁〔	-5.37168
《	-5.37791
故	-5.3919
有	-5.46765
」	-5.52036
不	-5.602
是	-5.61732
:「	-5.61801
三	-5.67102
。」	-5.67431
?	-5.6762
於	-5.67992
無	-5.71549
中	-5.75712
)	-5.75924
心	-5.77274
明	-5.78035
而	-5.80514
以	-5.81127
(	-5.83708
法	-5.89905
人	-5.97405
此	-5.9907
▁	-5.9954
如	-6.01375
等	-6.01592
行	-6.02917
生	-6.05287
在	-6.09488
與	-6.10662
即	-6.16525
相	-6.17828
經	-6.22496
若	-6.22856
時	-6.22902
言	-6.22914
佛	-6.23517
四	-6.23539
大	-6.2505
我	-6.27408
所	-6.29524
身	-6.30834
得	-6.31167
說	-6.31597
其	-6.32298
見	-6.34051
非	-6.35773
名	-6.40379
自	-6.4217
曰	-6.4477
。】「	-6.47073
】	-6.47726
能	-6.50645
及	-6.50736
▁【	-6.51073
因	-6.52073
菩薩	-6.53664
諸	-6.53725
上	-6.55522
從	-6.58986
彼	-6.60178
依	-6.62566
應	-6.63171
道	-6.63179
五	-6.64019
。」【	-6.64067
作	-6.65009
眾生	-6.65114
處	-6.65137
本	-6.66261
了	-6.66386
則	-6.67742
分二	-6.70471
至	-6.71383
受	-6.71855
亦	-6.72404
。(	-6.73164
已	-6.73368
謂	-6.73575
如來	-6.73645
他	-6.74555
後	-6.75013
問	-6.75222
義	-6.75487
-	-6.77617
地	-6.81496
或	-6.82335
事	-6.82983
入	-6.84711
觀	-6.85751
出	-6.88302
如是	-6.88461
解	-6.89001
欲	-6.89164
子	-6.89195
空	-6.89379
初	-6.8954
下	-6.89549
釋	-6.89729
又	-6.89835
多	-6.89893
善	-6.9033
苦	-6.90639
果	-6.90925
成	-6.91046
前	-6.91408
對	-6.92199
由	-6.93192
起	-6.93502
天	-6.93514
云	-6.93709
可	-6.94117
來	-6.9423
一切	-6.94483
當	-6.97588
知	-6.97795
但	-6.97882
皆	-6.99017
常	-6.99234
修	-7.00998
!	-7.01711
色	-7.02463
號	-7.03413
同	-7.04411
肇	-7.04621
住	-7.05168
智	-7.05506
王	-7.05949
性	-7.07318
未	-7.07427
意	-7.09041
論	-7.09435
。「	-7.10709
理	-7.10921
願	-7.11113
緣	-7.1143
六	-7.11607
念	-7.11645
文	-7.12775
定	-7.12832
體	-7.13676
▁|	-7.13977
眾	-7.14396
門	-7.15877
盡	-7.16456
真	-7.17213
卷	-7.18239
難	-7.1904
用	-7.20061
正	-7.20479
答	-7.20807
教	-7.21468
業	-7.2294
雖	-7.24212
今	-7.24267
滅	-7.2498
世尊	-7.25367
現	-7.25682
將	-7.26878
八	-7.27702
先	-7.27801
離	-7.2869
破	-7.28713
卯	-7.29425
淨	-7.3016
分	-7.30187
樂	-7.30279
想	-7.31478
斷	-7.31687
著	-7.32105
隨	-7.32193
七	-7.323
識	-7.32697
唯	-7.32919
〔	-7.32937
過	-7.3334
復	-7.34959
和	-7.34975
力	-7.35884
求	-7.36143
界	-7.36283
功德	-7.36979
」。	-7.37333
令	-7.38315
取	-7.38517
寅	-7.38579
耶	-7.38593
外	-7.38601
結	-7.38746
年	-7.39586
然	-7.40186
辰	-7.40691
會	-7.40847
汝	-7.41229
境	-7.41866
去	-7.42279
。)	-7.4248
丑	-7.42975
煩惱	-7.43145
就	-7.43448
」,	-7.43501
學	-7.44353
除	-7.44917
利	-7.45008
巳	-7.45299
聞	-7.45742
何	-7.46224
並	-7.46285
別	-7.46285
所以	-7.4653
引	-7.46714
化	-7.46824
日	-7.46924
壬	-7.47396
內	-7.4773
十	-7.47852
己	-7.48242
要	-7.48607
不能	-7.49354
分三	-7.49623
德	-7.49677
戒	-7.49746
辛	-7.50027
光	-7.50663
語	-7.51114
立	-7.51268
重	-7.51835
通	-7.52145
次	-7.52485
俱	-7.52802
錄	-7.52875
持	-7.53078
還	-7.53167
稱	-7.53692
解脫	-7.5512
具	-7.552
勝	-7.55212
施	-7.55417
根	-7.55709
名為	-7.56586
世	-7.56604
食	-7.56864
師	-7.57087
命	-7.57123
慧	-7.57137
深	-7.57157
部	-7.57223
水	-7.57294
開	-7.57688
既	-7.57827
云何	-7.5784
罪	-7.57864
報	-7.57937
實	-7.58035
父母	-7.5847
方	-7.58741
捨	-7.58908
聖	-7.5998
餘	-7.6045
證	-7.60692
癸	-7.61452
指	-7.62138
到	-7.62283
供養	-7.62289
涅槃	-7.62294
斯	-7.62662
度	-7.62971
唵	-7.63089
都	-7.63271
惡	-7.63782
標	-7.63948
分別	-7.6445
顯	-7.6451
異	-7.6467
請	-7.657
神	-7.65802
妙	-7.66217
藏	-7.6681
清淨	-7.66941
約	-7.68025
信	-7.69093
即是	-7.69323
物	-7.69499
福	-7.69667
宗	-7.7023
香	-7.70429
愛	-7.70472
位	-7.70616
合	-7.70664
僧	-7.70686
向	-7.70724
那	-7.7097
生死	-7.71052
主	-7.71596
真言	-7.71647
覺	-7.72025
須	-7.72175
集	-7.7224
便	-7.72469
》、《	-7.72743
親	-7.73332
悉	-7.73839
須菩提	-7.74401
第二	-7.74581
國	-7.74804
使	-7.74961
兩	-7.74967
寶	-7.75645
有情	-7.75779
更	-7.76593
共	-7.76879
轉	-7.77416
廣	-7.77499
阿	-7.77786
聲	-7.77805
法身	-7.77862
被	-7.78003
。」「	-7.7802
你	-7.78204
品	-7.78312
好	-7.78881
乃	-7.79001
大乘	-7.7983
這	-7.80979
庚	-7.81554
發	-7.81755
地獄	-7.82017
丁	-7.83339
攝	-7.83425
數	-7.83701
死	-7.84369
菩提	-7.84603
九	-7.84823
止	-7.84911
a	-7.85285
形	-7.85329
」【	-7.85929
午	-7.86268
長	-7.86289
喻	-7.86391
執	-7.8708
舉	-7.87723
母	-7.87873
火	-7.88022
世間	-7.8846
不同	-7.88805
總	-7.88979
遍	-7.89399
諸佛	-7.89529
流	-7.89631
小	-7.89915
?」	-7.90226
比丘	-7.91124
極	-7.91159
家	-7.91844
照	-7.92548
.	-7.93796
病	-7.94101
.)	-7.94632
修行	-7.95219
眼	-7.95412
傳	-7.95924
白	-7.96114
必	-7.96152
字	-7.96227
記	-7.96315
方便	-7.96505
海	-7.96828
觸	-7.97408
往	-7.97677
種	-7.97836
丙	-7.98011
註釋	-7.98183
月	-7.98357
南無	-7.98568
悟	-7.98868
情	-7.99087
各	-7.99521
坐	-7.9953
金	-7.99876
類	-8.01635
貪	-8.01803
略	-8.01906
不應	-8.02272
遠	-8.02702
帝	-8.02719
爾時	-8.03231
無有	-8.03292
□...□	-8.03437
凡	-8.03844
耳	-8.0393
是故	-8.04104
無量	-8.0441
世界	-8.04515
滿	-8.04943
且	-8.04947
思	-8.05037
第一	-8.05387
萬	-8.05621
千	-8.05747
)。	-8.06485
山	-8.06981
一卷	-8.07083
禪	-8.07333
乘	-8.0752
目	-8.0766
羅	-8.08678
造	-8.09203
把	-8.09637
女	-8.098
口	-8.10506
劫	-8.10631
不得	-8.10892
花	-8.10936
戊	-8.11044
動	-8.11264
第三	-8.11562
量	-8.11595
失	-8.12021
頭	-8.12652
安	-8.12857
T	-8.13104
禮	-8.1328
可以	-8.13439
終	-8.14462
護	-8.14593
於彼	-8.14833
乃至	-8.1486
高	-8.14887
成就	-8.15062
風	-8.15503
面	-8.15559
智慧	-8.1565
它	-8.15897
3	-8.16254
歸	-8.16753
存	-8.17014
自在	-8.1712
阿難	-8.17275
差別	-8.17481
障	-8.18008
無相	-8.18014
娑婆訶	-8.18019
聚	-8.18122
如此	-8.18291
蘊	-8.18546
他們	-8.18839
現在	-8.18886
所有	-8.19006
順	-8.19206
尊	-8.19365
乙	-8.19413
衣	-8.19426
佛教	-8.19985
手	-8.2022
何以故	-8.20301
今初	-8.20309
惑	-8.20388
迷	-8.2054
2	-8.20725
不可	-8.21181
足	-8.21895
疑	-8.22282
味	-8.23154
平等	-8.23365
書	-8.24158
忍	-8.24325
妄	-8.2438
普	-8.2459
莫	-8.2496
三界	-8.25122
金剛	-8.25533
十二	-8.2591
示	-8.26156
聽	-8.2617
夫	-8.26223
誰	-8.26661
安樂	-8.26874
啊	-8.27074
達	-8.27125
看	-8.27126
」(	-8.27611
具足	-8.27611
1	-8.27746
莊嚴	-8.27927
塵	-8.28059
圓滿	-8.28063
凡夫	-8.28424
因緣	-8.28544
密	-8.28813
這個	-8.2883
歡喜	-8.28861
無明	-8.28938
恩	-8.29029
始	-8.29877
慈	-8.29976
百	-8.30199
諸比丘	-8.30305
分四	-8.30331
許	-8.30454
加持	-8.30478
悲	-8.30594
無常	-8.30694
法界	-8.30977
道場	-8.3116
邪	-8.31273
故論文言	-8.31606
猶	-8.31692
近	-8.32407
諸法	-8.32505
新	-8.32637
少	-8.32734
句	-8.32832
說法	-8.33127
故言	-8.33154
土	-8.3332
以為	-8.33743
8	-8.33972
三念佛	-8.34242
是名	-8.34554
一切眾生	-8.34563
該	-8.34902
奉	-8.35347
我們	-8.36356
沒有	-8.36466
所說	-8.36936
微	-8.36971
似	-8.37438
父	-8.37611
首	-8.37647
自性	-8.37893
列	-8.37901
慈悲	-8.38025
豈	-8.38056
精進	-8.38056
7	-8.38324
述	-8.38725
不見	-8.38849
聲聞	-8.39082
乎	-8.39461
散	-8.39777
城	-8.39868
粗	-8.39871
此二	-8.40034
疏	-8.40128
十方	-8.40304
波	-8.40336
如何	-8.40367
最	-8.40567
敬	-8.40611
尋	-8.40728
所謂	-8.4073
害	-8.40739
我今	-8.40821
佛言	-8.41082
像	-8.41526
寺	-8.41777
加	-8.41956
國王	-8.42168
供	-8.42723
樹	-8.4298
某	-8.43125
部分	-8.43201
第	-8.43512
於此	-8.43959
居	-8.4408
直	-8.44243
象	-8.44635
勸	-8.4468
告	-8.44925
之中	-8.4508
息	-8.45147
喜	-8.4551
她	-8.45578
5	-8.45698
偈	-8.45976
雜	-8.46051
壞	-8.46054
財	-8.46127
假	-8.46441
頌	-8.46577
囉	-8.46919
不知	-8.4693
清	-8.47085
卻	-8.47508
增	-8.47641
自然	-8.48113
細	-8.48214
婆	-8.48339
其中	-8.48358
第四	-8.48656
輪	-8.48742
不生	-8.48784
全	-8.48978
遮	-8.49014
6	-8.49075
摩	-8.49506
感	-8.4958
之心	-8.50047
出家	-8.50179
甲	-8.50271
而不	-8.50584
二者	-8.5086
絕	-8.50905
久	-8.51099
三寶	-8.51141
陀	-8.51372
這些	-8.51501
白佛言	-8.51691
中有	-8.51772
此經	-8.51824
無漏	-8.51844
種種	-8.52153
表	-8.52412
□	-8.52988
趣	-8.53009
般若	-8.53439
福德	-8.53446
蓋	-8.53623
弟子	-8.5374
無邊	-8.53757
爾	-8.53769
齋	-8.53796
禪藏	-8.5384
此初	-8.53937
經典	-8.53957
經曰	-8.54063
再	-8.5409
藥	-8.54274
已經	-8.54338
亦無	-8.54429
究竟	-8.54513
決定	-8.54561
真如	-8.54571
周	-8.54592
魔	-8.54727
故名	-8.54735
比	-8.55015
猶如	-8.55865
研究	-8.55892
功	-8.56112
原	-8.56202
無為	-8.56212
尚	-8.56545
孝	-8.56749
制	-8.56882
間	-8.5692
華	-8.56986
何故	-8.57078
殺	-8.5733
永	-8.5748
獨	-8.57589
夜	-8.58126
虛空	-8.5814
興	-8.58199
印	-8.58507
然後	-8.58675
是以	-8.58888
變	-8.58996
僅	-8.59195
一個	-8.59247
瞋	-8.59449
哩	-8.59462
勤	-8.59627
鼻	-8.59735
無生	-8.59755
益	-8.59768
強	-8.5998
由於	-8.60087
之時	-8.60263
座	-8.60269
上述	-8.60644
給	-8.60688
一時	-8.61097
迦	-8.61137
屬	-8.61355
二乘	-8.61379
治	-8.61479
雲	-8.61492
譯	-8.61531
不動	-8.61531
齊	-8.61563
續	-8.61683
4	-8.61688
亂	-8.61798
之人	-8.61813
邊	-8.61839
伏	-8.61901
故云	-8.61994
亡	-8.62001
致	-8.62073
讚	-8.624
」、「	-8.62413
燈	-8.62501
解釋	-8.62923
誦	-8.62946
仍	-8.63177
積	-8.63208
竟	-8.63296
利益	-8.63312
路	-8.63431
生起	-8.6346
北	-8.63791
一一	-8.64042
放	-8.64301
過去	-8.64376
咒	-8.64421
故知	-8.64483
曾	-8.64511
他人	-8.64552
古	-8.64619
迴向	-8.64941
嚴	-8.64997
太子	-8.65068
圓	-8.65218
舍利弗	-8.65577
進	-8.65844
摩訶	-8.65869
計	-8.65878
紙	-8.65984
哆	-8.6603
矣	-8.66198
次第	-8.6623
救	-8.66259
伽	-8.66433
養	-8.66534
一念	-8.66552
外道	-8.66708
繫	-8.66746
室	-8.66802
寧	-8.66971
支	-8.67148
小乘	-8.67328
大眾	-8.67464
如論	-8.67468
大士	-8.67994
思維	-8.68041
陰	-8.68152
三乘	-8.68296
肉	-8.68333
釋曰	-8.68343
節	-8.68529
經文	-8.68622
正法	-8.68719
不住	-8.68838
因果	-8.68931
犯	-8.69128
老	-8.69157
佛如來	-8.69192
分明	-8.69404
ā	-8.69531
裏	-8.69581
人天	-8.69861
染	-8.70174
以此	-8.70309
超	-8.70336
i	-8.70411
伯	-8.70424
之法	-8.7045
之理	-8.70468
三種	-8.70471
習	-8.70653
靈	-8.70809
這樣	-8.70971
歎	-8.70987
舍	-8.71096
無我	-8.71701
甚	-8.72005
文字	-8.72089
佛說	-8.72328
光明	-8.72453
尾	-8.7246
舌	-8.72538
精	-8.72545
反	-8.72753
亦不	-8.72819
嚩	-8.73004
貪著	-8.73018
寂	-8.73033
諸天	-8.73137
輕	-8.73275
此是	-8.73523
顛倒	-8.73559
墮	-8.73564
遇	-8.73717
不淨	-8.73746
三昧	-8.73769
音	-8.73857
尼	-8.73893
聖人	-8.74044
。」】「	-8.74157
自己	-8.74179
907	-8.74303
龍	-8.74345
相續	-8.74356
之因	-8.74459
此中	-8.7479
二釋	-8.74838
虛	-8.75099
代	-8.75293
推	-8.75481
又問	-8.75529
。」(	-8.75701
因此	-8.75935
提	-8.75948
輪迴	-8.76039
勿	-8.7657
佛法	-8.7664
沒	-8.76658
損	-8.76682
覆	-8.76686
傷	-8.76725
祇	-8.77093
回	-8.7722
河	-8.77388
個	-8.77711
婆羅門	-8.77976
據	-8.78034
遂	-8.78049
末	-8.78228
機	-8.7825
所作	-8.78341
諸眾生	-8.78465
我等	-8.78554
麼	-8.7888
均	-8.78998
生滅	-8.79619
觀察	-8.79764
獲	-8.79817
沙門	-8.79987
實相	-8.80096
恭敬	-8.80293
之後	-8.80325
敦煌	-8.80734
一切法	-8.8076
娑	-8.80918
皈依	-8.81044
內容	-8.81155
大悲	-8.81191
雙	-8.81451
當時	-8.81613
初中分	-8.81664
菩提心	-8.8168
速	-8.81949
容	-8.81985
備	-8.82119
底	-8.82179
宜	-8.82228
設	-8.82286
俗	-8.82336
承	-8.8238
之所	-8.82404
宣	-8.8244
南	-8.825
悉皆	-8.82583
序	-8.82594
收	-8.82621
講	-8.82746
若有	-8.82748
淨土	-8.82751
燒	-8.82876
智者	-8.82942
靜	-8.83286
發心	-8.83595
切	-8.83691
志	-8.83781
昔	-8.838
望	-8.83997
縛	-8.84107
含	-8.84176
佛性	-8.84256
無上	-8.84307
權	-8.84314
禪定	-8.84492
毗	-8.85079
未來	-8.85101
訶	-8.85273
成佛	-8.85286
能生	-8.85446
亦名	-8.85589
幾	-8.85644
氣	-8.8566
辭	-8.85719
礙	-8.85793
倒	-8.85974
20	-8.86318
帙	-8.86689
任	-8.87007
此三	-8.87101
元	-8.87113
關於	-8.87166
尊者	-8.87742
守	-8.87806
辨	-8.87867
漏	-8.88419
降	-8.88822
置	-8.88841
相應	-8.8904
惟	-8.89045
簡	-8.8915
懷	-8.89333
寂滅	-8.89382
受用	-8.89493
e	-8.90025
r	-8.90055
對治	-8.90133
所依	-8.9017
消	-8.90596
蓮花	-8.90656
今日	-8.90752
惱	-8.91138
頌曰	-8.91156
毒	-8.91227
遊	-8.91232
律	-8.91397
心中	-8.91424
點	-8.91595
沙	-8.91645
10	-8.91714
演	-8.9177
法門	-8.91796
載	-8.91847
身心	-8.91942
脫	-8.91967
經錄	-8.92068
君	-8.9225
有三	-8.92342
林	-8.92519
資	-8.9275
半	-8.92787
目錄	-8.92856
恒	-8.92968
棄	-8.92975
西	-8.92989
內外	-8.93011
待	-8.93137
善惡	-8.93155
認為	-8.93209
每	-8.93819
癡	-8.93843
陳	-8.93909
無所	-8.93974
由此	-8.94051
》(	-8.941
這種	-8.94111
殊勝	-8.94305
申	-8.94356
殘	-8.94429
宗密	-8.94478
官	-8.94493
彌	-8.94644
眷屬	-8.94653
易	-8.94735
堅	-8.95148
依據	-8.95277
善法	-8.95631
自身	-8.95742
作為	-8.95753
寫	-8.95989
況	-8.95996
期	-8.96077
中的	-8.96109
大王	-8.96322
端	-8.965
平	-8.96675
他的	-8.96702
受苦	-8.96769
毀	-8.96791
疾	-8.969
刻	-8.96972
落	-8.96994
三世	-8.97029
四大	-8.97181
u	-8.97443
哉	-8.97678
維摩詰	-8.97732
濟	-8.97818
徒	-8.97999
?」【	-8.98185
梵	-8.98313
遣	-8.98435
雖然	-8.99176
穢	-8.992
可見	-8.992
怖畏	-8.99213
源	-8.99403
諦	-8.9957
ḥ	-8.99605
12	-8.99856
十一	-8.99863
垢	-9.00271
玄	-9.00281
留	-9.00357
無盡	-9.00434
這一	-9.00496
士	-9.00544
美	-9.00622
懺	-9.00838
無礙	-9.00992
左	-9.01084
煞	-9.01112
本文獻	-9.01243
施捨	-9.01324
違	-9.01369
野	-9.01382
石	-9.0153
縱	-9.01707
就是	-9.01949
群	-9.02034
憂	-9.02335
詞	-9.02363
贊	-9.02385
已下	-9.02573
冥	-9.02798
一樣	-9.02951
兒	-9.03498
走	-9.03519
著錄	-9.03612
隱	-9.03646
什曰	-9.03675
廣大	-9.03686
s	-9.03705
助	-9.03707
等也	-9.03715
車	-9.03747
東	-9.03775
弘	-9.03779
鐵	-9.03781
獄	-9.03918
有一	-9.04091
故曰	-9.0465
名之為	-9.04706
第五	-9.0485
有何	-9.05227
唐	-9.05248
懺悔	-9.05343
垂	-9.05534
殊	-9.0557
應知	-9.05663
解結	-9.05668
最後	-9.0568
愚	-9.05818
忘	-9.05875
現前	-9.06024
骨	-9.06199
吽	-9.06207
談	-9.06255
馬	-9.06284
恐	-9.06313
若能	-9.06319
o	-9.06403
阿羅漢	-9.06467
▁《	-9.06704
法性	-9.06872
受持	-9.07055
決	-9.07099
旨	-9.07145
篇	-9.07223
宮	-9.07286
瞋恚	-9.07325
儀	-9.07366
境界	-9.07435
,」【	-9.07645
善根	-9.07666
免	-9.07748
惡趣	-9.0791
怨	-9.08016
題	-9.08492
迦葉	-9.086
錄文	-9.08616
獻	-9.0872
患	-9.08739
臨	-9.08771
辯	-9.08943
補	-9.09061
m	-9.09071
關	-9.0909
大藏經	-9.09196
娘	-9.09254
冤	-9.09569
歲	-9.09713
器	-9.09817
抄	-9.09909
何以得知	-9.09961
暫	-9.09972
9	-9.09988
呢	-9.10022
說明	-9.10339
梨	-9.10382
有無	-9.10402
青	-9.10605
珠	-9.10691
咸	-9.10826
亦非	-9.10957
復次	-9.11007
報恩	-9.11021
可知	-9.1135
鬼	-9.11358
典籍	-9.11428
之道	-9.11459
六度	-9.11465
人們	-9.11554
王子	-9.11629
蒙	-9.11745
正念	-9.11762
神通	-9.12014
g	-9.12049
頂	-9.1208
的人	-9.12189
例	-9.12253
常住	-9.12273
科	-9.12317
朝	-9.1267
十六	-9.12708
長者	-9.12711
應該	-9.12722
窮	-9.12791
很	-9.12822
特	-9.12945
五百	-9.13165
)「	-9.13217
善男子	-9.13396
舊	-9.13585
木	-9.13616
祖	-9.13668
如下	-9.13671
您	-9.13671
薩	-9.1371
～	-9.13732
釐米	-9.13756
自他	-9.13888
文獻	-9.13959
守護	-9.14063
寶髻	-9.1412
總結	-9.14141
太	-9.14178
注	-9.14344
臣	-9.14373
真實	-9.14437
做	-9.1448
牛	-9.14533
百千	-9.14663
建立	-9.14669
爾時世尊	-9.14726
皆是	-9.14948
一者	-9.15047
編	-9.15124
t	-9.15135
改	-9.15177
仰	-9.15298
園	-9.15381
金剛經	-9.15383
亦應	-9.15489
0	-9.15555
堪	-9.15567
大海	-9.15615
滿足	-9.15674
布施	-9.15997
接	-9.16044
飛	-9.16206
日本	-9.16368
讀	-9.16451
適	-9.16528
圓珍	-9.16601
退	-9.16621
五陰	-9.1677
之事	-9.17002
三業	-9.17151
如是我聞	-9.1738
應當	-9.17408
返	-9.17418
葉	-9.1744
若不	-9.17476
休	-9.17487
之義	-9.17548
有二	-9.17649
邪見	-9.17898
果報	-9.17945
)(	-9.18025
ya	-9.18059
產生	-9.18102
章	-9.18128
法師	-9.18217
賊	-9.1835
專	-9.18357
居士	-9.18547
持戒	-9.18597
差	-9.18687
壽	-9.18689
出生	-9.18775
」。「	-9.18823
意識	-9.18897
微塵	-9.19197
不善	-9.19385
畫	-9.19478
於意云何	-9.19485
打	-9.19485
際	-9.19523
一種	-9.19751
藏經	-9.19927
根本	-9.20057
安立	-9.20371
帶	-9.20383
頓	-9.20409
運	-9.20449
互	-9.20459
不受	-9.20479
公	-9.20493
分五	-9.20604
附	-9.20609
本節	-9.20775
第六	-9.20777
亦有	-9.20801
不離	-9.209
災	-9.21015
非是	-9.21091
本來	-9.21249
良	-9.21249
壇	-9.21319
早	-9.21415
沉	-9.2148
於我	-9.21488
寶藏	-9.21525
吾	-9.21536
因為	-9.21593
禁	-9.21647
乞食	-9.21683
乞	-9.21693
亦是	-9.21696
19	-9.22131
察	-9.22263
諸菩薩	-9.22396
敘	-9.22537
缺	-9.22543
吧	-9.22559
得到	-9.22769
若無	-9.2279
任何	-9.22899
無知	-9.23007
ta	-9.23008
玉	-9.23133
漸	-9.23168
忍辱	-9.2317
不斷	-9.23328
為了	-9.23382
露	-9.23409
中國	-9.23457
翻	-9.23486
右	-9.2349
視	-9.23499
勞	-9.23513
文三	-9.23525
若謂	-9.23526
短	-9.23609
......	-9.23676
步	-9.23707
答曰	-9.23728
憑	-9.23742
馱	-9.23892
整理	-9.23896
譬如	-9.24076
詣	-9.24362
陀羅尼	-9.24517
錄文完	-9.24646
一部	-9.24736
種子	-9.24787
法相	-9.24832
撰	-9.25094
各種	-9.25192
布	-9.25273
七日	-9.25358
鉢	-9.25412
具有	-9.25429
11	-9.25509
39	-9.2551
而生	-9.25566
典	-9.25647
交	-9.25757
經云	-9.25863
思想	-9.26045
欲界	-9.26091
若爾	-9.26096
釋迦	-9.26291
雨	-9.26306
誠	-9.26336
背	-9.2635
一標	-9.26394
痛	-9.2652
厭	-9.2659
相同	-9.2659
愚癡	-9.26813
睹	-9.2684
宋	-9.26842
遠離	-9.26844
黑	-9.26847
焰	-9.26859
一心	-9.26929
僧祐	-9.27012
吒	-9.27019
妄想	-9.2703
出世	-9.2706
嚕	-9.27087
痛苦	-9.27214
9、	-9.2726
一般	-9.27403
於是	-9.27403
修道	-9.27419
十八	-9.27434
二明	-9.27434
誓	-9.27471
補特伽羅	-9.27555
所生	-9.27593
完全	-9.2769
網	-9.27759
四種	-9.27777
鳥	-9.27866
服	-9.27875
不思議	-9.27913
稽首	-9.2794
是非	-9.27968
敬福經	-9.27972
通達	-9.28022
十四	-9.28033
中間	-9.28056
所攝	-9.28247
無間	-9.28427
黃	-9.28493
淨名	-9.28556
生活	-9.2861
如幻	-9.28726
眾多	-9.28772
星	-9.28903
盛	-9.2892
納	-9.28931
徵	-9.28989
二種	-9.29162
喃	-9.29333
六根	-9.29442
質	-9.29471
該經	-9.29556
:『	-9.29561
只	-9.29575
日月	-9.29734
正覺	-9.29817
影	-9.3004
看到	-9.30044
唱	-9.30099
了知	-9.30114
又解	-9.30189
?】「	-9.30202
思惟	-9.30204
所見	-9.30221
ra	-9.30445
前後	-9.30566
我所	-9.30644
不起	-9.30817
宿	-9.31069
能令	-9.31126
列名	-9.31165
飲食	-9.31216
包括	-9.31258
鬼神	-9.316
耆那教	-9.31918
啟	-9.31994
所知	-9.32117
延	-9.32142
熱	-9.32268
逐	-9.32283
遺	-9.32335
彼等	-9.32345
賢	-9.32393
論述	-9.32412
根據	-9.32527
著作	-9.32534
若人	-9.32629
毛	-9.32785
能成	-9.32818
有關	-9.3289
隸	-9.33119
實際	-9.33208
威儀	-9.3338
逆	-9.33415
大正藏	-9.33432
——	-9.33527
累	-9.33527
跡	-9.33555
之苦	-9.33557
餓鬼	-9.33571
按照	-9.33631
三十	-9.33633
都是	-9.33781
幻	-9.34063
色界	-9.34109
一明	-9.34257
出現	-9.34667
世俗	-9.34776
2、	-9.35021
文二	-9.3506
遭	-9.35106
諍	-9.35395
何以	-9.35485
揚	-9.357
同一	-9.35783
娑婆	-9.35793
所緣	-9.35983
作用	-9.36141
n	-9.36166
資料	-9.36244
群生	-9.36244
佛告	-9.36276
十三	-9.36547
配	-9.36613
頭陀	-9.36878
30	-9.3692
建	-9.36941
天地	-9.36952
拜	-9.36985
闕	-9.37041
文殊	-9.37081
州	-9.37116
訖	-9.37128
正見	-9.3714
抄寫	-9.3723
流傳	-9.37233
顯現	-9.37304
五欲	-9.37585
三藏	-9.37733
k	-9.37758
□□	-9.38113
血	-9.38141
融	-9.38156
所以者何	-9.38228
禮拜	-9.38233
可得	-9.38256
出三藏記集	-9.38293
本無	-9.38307
開元錄	-9.38315
大師	-9.38466
彼於	-9.38507
願共	-9.38572
安住	-9.38643
問題	-9.38669
一乘	-9.38844
之身	-9.39235
髮	-9.39251
琉璃	-9.39253
笑	-9.39444
24	-9.39521
905	-9.39546
聖者	-9.39646
萬行	-9.3966
五種	-9.39934
之處	-9.39998
終不	-9.40003
僧人	-9.40052
盲	-9.40105
不成	-9.40161
飯	-9.40322
我身	-9.40408
自體	-9.40466
有四	-9.40469
負	-9.40499
漢	-9.40585
登	-9.40592
刀	-9.40602
富	-9.40606
越	-9.40625
不可思議	-9.40626
草	-9.4066
兼	-9.40662
纏	-9.40675
)。(	-9.40852
最勝	-9.40927
ś	-9.40956
三明	-9.41074
此身	-9.41117
成辦	-9.41351
地藏	-9.41372
校	-9.41643
成為	-9.41722
什麼	-9.4173
它們	-9.41743
藥師	-9.41927
亦復如是	-9.41932
苦樂	-9.41942
堂	-9.41954
慮	-9.41969
秘密	-9.42103
生於	-9.42191
汝等	-9.42449
慢	-9.42501
2.	-9.42583
註	-9.42691
威	-9.42792
發現	-9.42854
領	-9.4286
田	-9.42904
契	-9.42909
調	-9.42934
16	-9.42982
歷	-9.4309
固	-9.43114
彰	-9.43219
;」【	-9.4326
增長	-9.43281
民	-9.43625
!」	-9.43829
虛妄	-9.4395
熟	-9.4431
色身	-9.44325
畢	-9.44365
抄本	-9.44393
後世	-9.4459
非有	-9.44778
發起	-9.44872
嘆	-9.44999
歸依	-9.4506
其心	-9.45114
有漏	-9.45137
詳	-9.45156
同時	-9.45262
六道	-9.45313
夢	-9.45508
惠	-9.45539
一些	-9.45552
各各	-9.45667
在此	-9.45671
乳	-9.45699
謝	-9.45702
消災延壽藥師佛	-9.45778
帕瑪瓦蒂	-9.45796
左右	-9.45802
不異	-9.45854
▁ca	-9.45856
泥	-9.45856
元年	-9.4586
善哉	-9.45863
彌勒	-9.45926
念佛	-9.46003
那麼	-9.46005
唯有	-9.46441
剎	-9.46452
諸有情	-9.46482
化身	-9.46494
相好	-9.46602
無色	-9.46614
互相	-9.4673
不二	-9.46848
七寶	-9.46955
佈施	-9.47043
圖	-9.47115
入藏錄	-9.47141
不為	-9.47166
那些	-9.47187
亦如是	-9.4725
於諸	-9.47433
不捨	-9.47533
必須	-9.47627
哀	-9.47681
祗	-9.47859
拔	-9.47952
軍	-9.47981
三者	-9.47997
問也	-9.48122
張	-9.48138
寒	-9.4817
濁	-9.48232
以後	-9.4824
增上	-9.48308
史	-9.48313
14	-9.48367
普賢	-9.4843
般	-9.4855
帝釋	-9.4868
凡聖	-9.4892
『	-9.4895
天下	-9.48987
情況	-9.49057
發願	-9.49109
是為	-9.49149
聖賢	-9.49181
3.	-9.49376
21	-9.49448
還有	-9.49509
此下	-9.49672
闇	-9.49741
甘露	-9.49774
王后	-9.49813
復有	-9.49886
天神	-9.49935
題解	-9.49951
生曰	-9.49987
住處	-9.50047
若干	-9.50289
較	-9.50291
有人	-9.50363
比較	-9.50581
途	-9.50721
15	-9.50821
爭	-9.50836
無不	-9.50889
飲	-9.50955
伺	-9.50992
授	-9.50998
堅固	-9.51068
浮	-9.51077
為因	-9.51085
儀當演	-9.51103
寂靜	-9.51136
呼	-9.51155
謹	-9.5119
叫	-9.512
所得	-9.51263
虎	-9.51355
否	-9.51435
1.	-9.51465
一人	-9.51472
存在	-9.51581
波羅蜜	-9.51758
不是	-9.52097
無記	-9.52158
限	-9.52159
單	-9.52213
大德世尊	-9.52399
當知	-9.52414
池	-9.52458
赤	-9.52473
依止	-9.52498
活動	-9.5266
禮請	-9.52687
主要	-9.52782
其身	-9.52898
我當	-9.53113
,1	-9.53121
稱為	-9.53137
3、	-9.53156
又云	-9.53355
或有	-9.53361
編纂	-9.53435
四諦	-9.53456
欲求	-9.53558
投	-9.53628
念念	-9.53652
活	-9.53652
加行	-9.53684
ṃ	-9.53837
自心	-9.53845
按	-9.53901
畢竟	-9.53928
盜	-9.53964
25	-9.53976
所造	-9.53979
招	-9.53984
送	-9.53992
廢	-9.53993
誤	-9.54014
折	-9.5402
而無	-9.54148
』	-9.54175
流通	-9.54258
和合	-9.5428
以及	-9.54474
如果	-9.54562
第八	-9.54596
體性	-9.54642
修習	-9.54696
但是	-9.54715
整理者	-9.54753
諦實	-9.5478
四句	-9.54781
則無	-9.55031
纔	-9.55057
經中	-9.55106
4、	-9.5512
洗	-9.55279
灑	-9.55279
修多羅	-9.55345
頁	-9.55418
國土	-9.55509
殃	-9.55514
禪師	-9.55534
神力	-9.55547
心所	-9.55607
為人	-9.55651
羅漢	-9.55805
屬於	-9.55913
亦如	-9.55961
如是見	-9.5604
兩種	-9.56151
印度	-9.56228
底本	-9.56251
廣說	-9.56538
我慢	-9.56587
懈怠	-9.56658
鑒	-9.56723
不可得	-9.56739
不定	-9.56761
合掌	-9.56798
崇	-9.56809
時期	-9.5682
愈	-9.56847
行者	-9.56907
跋	-9.56964
▁D	-9.56974
劣	-9.57012
女人	-9.57104
禪宗	-9.57113
總標	-9.57169
云云	-9.57278
以上	-9.57298
)、「	-9.57308
悔	-9.57354
自己的	-9.57357
貴	-9.57583
第七	-9.57626
之果	-9.577
無餘	-9.57795
饒益	-9.57867
聽到	-9.57969
名稱	-9.58056
判	-9.58117
喪	-9.58236
暗	-9.58247
迹	-9.58253
階	-9.58254
善巧	-9.5826
清涼	-9.5827
幽	-9.58294
酬	-9.583
於中	-9.58312
導師	-9.58352
案	-9.58357
為我	-9.58384
d	-9.58485
13	-9.58508
摧	-9.5866
有為	-9.58676
偽	-9.58833
行人	-9.58933
參	-9.5894
此四	-9.59
。10	-9.59321
法寶	-9.5941
之門	-9.59448
na	-9.5955
十九	-9.59595
臥	-9.59623
多聞	-9.5969
親友	-9.59708
所收	-9.59784
借	-9.59798
派	-9.59818
江	-9.59825
索	-9.59885
問疾	-9.60014
29	-9.60105
āḥ	-9.60124
非法	-9.6014
恭	-9.60227
22	-9.60501
有異	-9.60524
獲得	-9.60709
拏	-9.60732
上來	-9.60776
逢	-9.60859
恨	-9.6087
奇	-9.61066
皆由	-9.61095
雖有	-9.61096
辰三	-9.61119
貧	-9.61161
悅	-9.61166
割	-9.61236
世親論	-9.61243
橫	-9.61264
剎那	-9.61294
須彌	-9.61308
學處	-9.61319
畏	-9.61321
徹	-9.61351
法也	-9.61361
校本	-9.6138
陽	-9.61388
相違	-9.61417
闍	-9.6146
收入	-9.61615
緣起	-9.61642
之相	-9.61686
如來說	-9.61776
皆得	-9.61998
侍	-9.62121
偈頌	-9.62128
經論	-9.62177
過患	-9.62202
如前	-9.6227
十種	-9.62591
涉	-9.62714
燃	-9.62719
驚	-9.6285
問答	-9.62952
福田	-9.62977
看著	-9.63059
怛	-9.6309
盧	-9.63096
如法	-9.63108
而起	-9.63263
名相	-9.63273
條	-9.633
文云	-9.63308
天人	-9.63337
自利	-9.63399
今時	-9.6342
寫本	-9.6344
住於	-9.63531
一切有情	-9.6358
損惱	-9.63617
梵行	-9.63647
18	-9.63923
的內容	-9.64027
6、	-9.64061
密教	-9.64072
未能	-9.6425
勢	-9.64272
妻	-9.64307
考	-9.64331
賜	-9.64363
伸	-9.6439
文殊師利	-9.6439
能仁	-9.6447
先生	-9.64542
而言	-9.64641
此初也	-9.64704
是人	-9.64807
28	-9.64846
上下	-9.64868
不如	-9.64882
遙	-9.64984
無心	-9.65015
讓	-9.65085
即非	-9.65154
學者	-9.65178
吉祥	-9.65197
敷	-9.65247
別釋	-9.65252
人民	-9.65342
。」《	-9.65368
珍	-9.65556
之罪	-9.65735
翻譯	-9.65806
。』	-9.65889
擔	-9.65905
解冤釋結	-9.65911
巧	-9.65912
皮	-9.65933
大慈大悲	-9.65935
40	-9.65967
一切智	-9.66002
疑偽經	-9.66113
至於	-9.66151
時間	-9.66177
友	-9.6621
摩尼	-9.66296
故應	-9.66334
看來	-9.66475
敵	-9.66511
卷第	-9.66604
是否	-9.66648
意義	-9.66814
不了	-9.67102
不信	-9.67178
薩婆	-9.67223
。」「1	-9.67327
氏	-9.67383
色等	-9.67444
十七	-9.67448
忽	-9.67453
驗	-9.67499
靜慮	-9.67519
故不	-9.67521
過失	-9.67572
擬	-9.67592
偏	-9.67601
天上	-9.67616
叉	-9.67633
披	-9.67641
幡	-9.67647
何時	-9.67659
潤	-9.67664
以下	-9.67778
有相	-9.67992
其後	-9.6811
勤修	-9.6812
亦爾	-9.68123
/	-9.68175
苦行	-9.6819
仁	-9.68257
佛道	-9.6836
隨喜	-9.68377
而已	-9.68389
不著	-9.68396
敢	-9.68508
名曰	-9.68517
聖教	-9.68521
塔	-9.68584
無形	-9.68652
教主	-9.68721
無義	-9.68833
等者	-9.68834
男	-9.68943
仙	-9.68945
產	-9.69014
話	-9.69027
能知	-9.69094
進行	-9.69095
狀	-9.69144
魚	-9.69148
瑜伽	-9.69178
焉	-9.69179
方法	-9.69186
初中言	-9.69197
而得	-9.69203
府	-9.69221
以來	-9.69226
頗	-9.69257
責	-9.69266
耆那教認為	-9.69314
西方	-9.69387
如如	-9.69428
瑟吒	-9.69446
非常	-9.69454
淨度經	-9.69461
不作	-9.69552
23	-9.69571
發菩提心	-9.69587
曩	-9.69619
答言	-9.69723
消滅	-9.69755
結合	-9.69799
三毒	-9.70035
得解脫	-9.70144
志心	-9.70201
亦能	-9.70267
即為	-9.70328
變化	-9.70339
有二種	-9.70403
心不	-9.70451
圓成	-9.70495
4.	-9.70562
的是	-9.70603
若於	-9.70613
怖	-9.70662
連	-9.7067
不識	-9.70744
大小	-9.70771
重要	-9.70784
佛土	-9.70789
大孝釋迦牟尼佛	-9.70839
倍	-9.70863
意樂	-9.70874
酒	-9.70908
劍	-9.70916
寬	-9.70923
歌讚	-9.70951
十地	-9.70965
何況	-9.70984
解冤結菩薩	-9.71051
參見	-9.71065
願我	-9.71246
大臣	-9.7125
之間	-9.71286
世人	-9.71434
大慈悲	-9.71544
所言	-9.71553
此時	-9.71602
謗	-9.71781
yā	-9.72015
。9	-9.72291
此外	-9.72293
題記	-9.72402
潔	-9.72488
障礙	-9.72509
能斷	-9.72525
無異	-9.72536
宗教	-9.72583
淫	-9.72591
錯	-9.72598
欺	-9.726
之外	-9.72728
波羅	-9.72782
希有	-9.72915
總持	-9.73169
六塵	-9.73214
之一	-9.73266
則是	-9.73311
香花	-9.73321
▁「	-9.7345
何謂	-9.73545
儀軌	-9.73779
善女人	-9.73822
導	-9.73881
二諦	-9.73893
掌	-9.73905
當來	-9.73999
塗	-9.74012
籍	-9.74156
作者	-9.74205
司	-9.74224
錢	-9.74268
祥	-9.74277
勇	-9.74279
北新	-9.74319
兵	-9.74332
覓	-9.74338
佛陀	-9.74347
十五	-9.74374
怨敵	-9.74374
906	-9.74385
腳	-9.74403
最上	-9.74405
懼	-9.74408
讀誦	-9.74429
的研究	-9.7443
認識	-9.74466
×	-9.74474
善知識	-9.74484
正智	-9.74506
基本	-9.74517
同前	-9.7455
授記	-9.74589
施主	-9.74734
圓明	-9.74749
岸	-9.74907
取捨	-9.7496
大聖	-9.75045
法事	-9.7507
年代	-9.75096
廣解	-9.75244
統	-9.75362
詮	-9.75419
快樂	-9.75454
本節意為	-9.75466
濕	-9.75843
此事	-9.75849
一向	-9.75864
這是	-9.75888
審	-9.75947
務	-9.76005
;「	-9.76041
而成	-9.76051
尤	-9.76063
宅	-9.76071
朋友	-9.76085
庶	-9.76086
倫	-9.76103
微妙	-9.76104
l	-9.7612
謀	-9.76121
男女	-9.76155
不須	-9.76207
文軌	-9.76226
賀	-9.76284
此云	-9.76287
成立	-9.7656
46	-9.76791
形態	-9.76804
引用	-9.76928
禮佛	-9.77002
二十	-9.77201
何所	-9.773
齋日	-9.77323
在於	-9.77326
諸根	-9.77375
希	-9.77376
名字	-9.77512
度眾生	-9.7753
自有	-9.77533
必有	-9.7759
義也	-9.77656
彩	-9.77707
聞法	-9.77763
遵	-9.77789
淺	-9.77804
擊	-9.77823
相對	-9.77826
油	-9.77834
客	-9.77853
急	-9.77882
東方	-9.77891
曉	-9.77902
才	-9.77937
va	-9.77939
危	-9.77952
無畏	-9.78047
降伏	-9.78048
空中	-9.78053
避	-9.78084
觀音	-9.78087
而為	-9.78094
c	-9.7811
所求	-9.78116
佉	-9.78136
顧	-9.78287
諸經	-9.78289
見佛	-9.78344
敦煌遺書	-9.78559
可能	-9.78579
僧法	-9.78595
即有	-9.78613
y	-9.78696
非真	-9.78786
場	-9.78804
惡業	-9.78956
能為	-9.78965
17	-9.78969
佛身	-9.78976
萬劫	-9.78978
所欲	-9.79075
第九	-9.7913
以前	-9.79136
此人	-9.79187
的經典	-9.7921
文中	-9.7932
所有的	-9.79429
寶石	-9.79475
維	-9.79598
乾	-9.79615
慶	-9.79632
薄	-9.79634
減	-9.79636
天台教典	-9.79659
懸	-9.79659
洲	-9.79691
憐憫	-9.79706
蘭	-9.79714
S	-9.79721
鏡	-9.79735
喜悅	-9.79752
殘片	-9.79784
失壞	-9.79856
智昇	-9.79914
佛告阿難	-9.80004
經言	-9.8006
沒馱	-9.80098
眾等	-9.80151
損害	-9.80284
無始	-9.80454
並不	-9.80458
緣覺	-9.80611
段	-9.80616
利他	-9.80661
無人	-9.80668
其時	-9.80732
。】「(	-9.80737
多少	-9.80854
弟	-9.81228
依處	-9.81357
大體	-9.81399
大地	-9.81399
昏	-9.81431
省	-9.81507
1、	-9.81507
侵	-9.81523
於他	-9.81525
舒	-9.81554
其所	-9.8156
夏	-9.81569
刊	-9.81572
言說	-9.81572
東域	-9.81623
在空衣派的刊本中	-9.81628
之境	-9.81632
天台	-9.81638
奴	-9.81638
吉	-9.81723
精神	-9.8174
此即	-9.81831
到了	-9.81866
佛典	-9.8191
現存	-9.81959
鬼王	-9.82049
提出	-9.82113
薩嚩	-9.82144
無分別	-9.82212
曾經	-9.8226
它的	-9.82272
26	-9.82381
文四	-9.82417
無垢	-9.82443
27	-9.82561
處處	-9.82809
師子	-9.82827
能除	-9.82851
不復	-9.82901
摩耶	-9.82956
昇	-9.83046
不可以	-9.83241
猛	-9.83252
恚	-9.83253
顏	-9.83262
A	-9.83268
一心頭面禮	-9.83276
47	-9.83395
皇	-9.83404
甚深	-9.83412
春	-9.83453
卿	-9.83499
寄	-9.83553
我要	-9.8357
迴	-9.8366
生命	-9.83706
亦可	-9.8372
華嚴	-9.83744
或為	-9.8375
般若波羅蜜	-9.83771
畜生	-9.83817
安然	-9.83916
不少	-9.84034
信心	-9.84094
何處	-9.84337
項	-9.84415
及其	-9.84442
不會	-9.84486
故說	-9.84487
紅	-9.8453
我見	-9.84677
人身	-9.84691
子二	-9.84793
斷除	-9.84874
另	-9.84919
夫人	-9.84951
修善	-9.84953
知道	-9.85016
另一	-9.85116
為說	-9.85173
各有	-9.85258
床	-9.85301
憶念	-9.85305
妙法	-9.85318
韻	-9.85366
術	-9.85373
託	-9.85374
楞嚴	-9.8541
泥犁	-9.85494
何不	-9.85509
報身	-9.85526
調伏	-9.85586
法中	-9.85676
此明	-9.85877
心念	-9.8602
在家	-9.86211
唯是	-9.8626
見聞	-9.86265
空寂	-9.86345
無數	-9.86351
比丘眾	-9.86443
非色	-9.86489
生天	-9.86597
版	-9.86718
幸	-9.86839
姓	-9.86959
已上	-9.86963
即興而說	-9.87066
殿	-9.87117
如是知已	-9.87131
心歸命禮	-9.87146
又復	-9.87173
霑	-9.87204
世上	-9.87218
隔	-9.8722
彌勒頌曰	-9.87268
若見	-9.87272
封	-9.87295
賢聖	-9.87295
保	-9.87303
四生	-9.87316
宣揚	-9.87339
孤	-9.87343
蘇	-9.87368
註疏	-9.87378
冤家	-9.87381
不在	-9.87415
敘述	-9.87422
之類	-9.87428
事業	-9.8746
謂之	-9.875
得道	-9.87509
樹下	-9.87595
魯	-9.87638
分六	-9.87641
至今	-9.87648
空性	-9.87672
應為	-9.87701
見於	-9.87794
誰能	-9.87834
既無	-9.87845
目前	-9.87872
ī	-9.87982
記載	-9.88108
所成	-9.88117
之力	-9.88133
功能	-9.88272
(「	-9.88287
胎	-9.88414
所引	-9.88448
善業	-9.88593
我國	-9.88692
ka	-9.88727
相似	-9.888
童子	-9.88834
畜	-9.88961
移	-9.88989
佛經	-9.89068
三千	-9.89173
法華	-9.89183
之前	-9.89214
故名為	-9.89224
充滿	-9.89235
渡	-9.89242
充	-9.89267
武	-9.89268
院	-9.8927
婬	-9.89281
無別	-9.89296
奉獻	-9.89316
優	-9.89328
茲	-9.89337
祈	-9.89344
准	-9.89347
同樣	-9.89354
履	-9.89396
G	-9.89516
5、	-9.8956
素	-9.89561
何等為	-9.89637
就中	-9.89638
首題	-9.89673
你們	-9.89715
苦惱	-9.89893
科儀	-9.89899
四者	-9.89914
達摩	-9.89929
壽量	-9.89987
一日	-9.90012
不然	-9.90029
萬法	-9.90125
即無	-9.90356
是經	-9.90629
其它	-9.90694
道理	-9.90909
怒	-9.90995
召	-9.91182
私	-9.91194
當然	-9.91203
御	-9.91207
維摩經	-9.9128
ni	-9.9131
酉	-9.91318
處所	-9.91327
散亂	-9.91354
教誡	-9.91362
大德	-9.91386
滯	-9.91405
研	-9.91438
暮	-9.91467
系統	-9.91522
疑惑	-9.91614
消除	-9.91689
考察	-9.91701
寫作	-9.91782
不退	-9.91798
菩薩行	-9.91803
完成	-9.9183
即以	-9.91926
本經	-9.91926
三年	-9.91943
利養	-9.91946
入於	-9.91965
通過	-9.9216
方面	-9.92212
雖復	-9.92247
無限	-9.92273
蓮	-9.92322
法者	-9.92364
如意	-9.92681
偉大的	-9.92706
嘗	-9.93115
幻化	-9.93277
雄	-9.93307
圍	-9.93318
驅	-9.93329
憶	-9.93337
追	-9.93419
解冤結	-9.93426
頂禮	-9.93455
曲	-9.93502
乖	-9.93505
貫	-9.93534
始終	-9.93636
有五	-9.93673
大慈	-9.93698
行也	-9.93774
父王	-9.93868
攝受	-9.93977
實無	-9.94096
正是	-9.94103
士夫	-9.94123
vi	-9.94245
兩個	-9.94256
則有	-9.94338
」)	-9.9437
不滅	-9.94485
如理	-9.94486
分十	-9.94499
實體	-9.94504
則為	-9.94529
如斯	-9.94585
滅度	-9.94738
奉行	-9.94888
證明	-9.94901
入藏	-9.94943
中國佛教	-9.94956
不許	-9.95032
不過	-9.9516
須菩提言	-9.95161
之功德	-9.95164
聖道	-9.95246
一點	-9.95254
還是	-9.95289
性相	-9.95358
喬答摩	-9.95454
無作	-9.95457
純	-9.95465
大種	-9.95476
身體	-9.95482
富貴	-9.95488
饑	-9.95496
亦即	-9.95513
怪	-9.95533
狂	-9.95538
牽	-9.95543
掃	-9.95545
鼓	-9.95563
犢子	-9.95573
受生	-9.95757
心生	-9.95784
流轉	-9.9581
一分	-9.95851
開始	-9.95868
殘卷	-9.95882
如其所	-9.95951
首先	-9.95959
壽者	-9.9597
所撰	-9.96083
值	-9.9614
菩薩摩訶薩	-9.96204
v	-9.96446
不樂	-9.9646
義利	-9.96544
有所	-9.96611
證菩提	-9.96781
得阿耨多羅三藐三菩提	-9.96831
。6	-9.96833
化生	-9.96876
經藏	-9.96942
有六	-9.96987
佛所	-9.96999
有大	-9.97025
亦然	-9.97145
唯一	-9.97173
勵力	-9.97194
天女	-9.97243
。7	-9.97339
不實	-9.97353
悲心	-9.97373
金色	-9.97517
佈	-9.97553
則不	-9.97585
圍繞	-9.97589
造作	-9.97612
防護	-9.97626
井	-9.97638
測	-9.97657
展	-9.97682
雪	-9.97687
戀	-9.97711
是我	-9.97723
指出	-9.97731
愚夫	-9.97739
創	-9.97743
付	-9.97749
△	-9.9776
吃	-9.97776
幸福	-9.97776
冀	-9.97789
端嚴	-9.97804
諦聽	-9.97833
勝義	-9.97837
sya	-9.97842
吠	-9.97906
遮止	-9.97962
顯示	-9.97981
滅盡	-9.97989
寶積	-9.97994
億	-9.98
一段	-9.98007
隨順	-9.98013
就象	-9.98068
諸苦	-9.98206
〕「	-9.9826
全部	-9.98301
對於	-9.98377
不依	-9.98473
無住	-9.98578
廣釋	-9.98645
以不	-9.98681
第十	-9.98688
成道	-9.98712
原因	-9.98734
人間	-9.98767
形成	-9.98807
異熟	-9.9888
祇有	-9.99135
成正覺	-9.99139
心無	-9.99214
論文	-9.9923
放逸	-9.99245
令其	-9.99254
眾經	-9.9948
此法	-9.99504
空生	-9.99507
五根	-9.99526
諸行	-9.99531
族	-9.99548
確	-9.99622
困	-9.99638
歡	-9.99669
眉	-9.99675
天子	-9.99745
干	-9.99799
讚揚	-9.99802
慈心	-9.99804
蟲	-9.99842
淚	-9.99859
分為	-9.99859
彌陀	-9.99876
戰	-9.99883
資糧	-9.99898
蛇	-9.99908
規	-9.99908
衛	-9.99914
耀	-9.99917
鄉	-9.99958
竭	-10
杖	-10.0001
努力	-10.0005
灌頂	-10.0006
所行	-10.0007
訓	-10.0007
藝	-10.0009
:】「	-10.0014
壽命	-10.0017
整理本	-10.0025
五識	-10.0027
難行	-10.003
後有	-10.0037
佛果	-10.004
眾苦	-10.0041
伊呬	-10.0041
古今	-10.0043
其人	-10.005
其義	-10.0054
命終	-10.0058
而有	-10.006
娑嚩	-10.007
精勤	-10.0072
不壞	-10.008
八萬四千	-10.0081
人中	-10.0086
略釋	-10.0092
比丘尼	-10.0094
未有	-10.0105
我之	-10.0144
理論	-10.0145
敬禮	-10.0151
作是	-10.0157
天眼	-10.0164
的情況	-10.0165
完	-10.0169
為本	-10.0172
的業	-10.0174
則非	-10.0179
此名	-10.0188
六識	-10.0192
歌	-10.0196
演說	-10.0197
正文	-10.0203
關係	-10.0206
焚	-10.0208
孔	-10.0209
防	-10.0211
臂	-10.0214
捨身	-10.0215
婦	-10.0216
快	-10.0217
碎	-10.0218
儀文	-10.0219
不也世尊	-10.0219
是其	-10.0219
大方便佛報恩經	-10.022
仗	-10.0223
祭	-10.0226
刺	-10.0227
二卷	-10.023
老死	-10.0232
缽	-10.0234
北方	-10.0237
若時	-10.0242
下來	-10.0248
薩婆訶	-10.025
三世諸佛	-10.0253
甚多	-10.0254
斷疑	-10.0257
龍王	-10.0263
孝行	-10.0272
三途	-10.0275
契經	-10.0278
p	-10.0284
法施	-10.0288
為虛妄	-10.0298
佛語	-10.0302
認	-10.0321
若以	-10.0335
語言	-10.0353
自二	-10.0356
若為	-10.0365
問曰	-10.0369
執持	-10.038
8.	-10.0392
五道	-10.0397
不以	-10.0401
現行	-10.0401
無窮	-10.0404
若言	-10.0413
自行	-10.0414
三時	-10.0415
誦經	-10.0418
澄	-10.0425
旋	-10.043
不聽	-10.043
繞	-10.0444
時代	-10.045
慎	-10.0453
採	-10.0454
戶	-10.0455
夜叉	-10.0455
津	-10.0456
誡	-10.0457
朗	-10.0457
發展	-10.046
空無	-10.046
念誦	-10.046
貞元	-10.0463
截	-10.0464
毫無	-10.0465
雙親	-10.0466
台	-10.0475
無法	-10.0479
這部	-10.048
妻子	-10.0482
不足	-10.0482
離諸	-10.0489
伏願	-10.0491
發生	-10.0492
saṃ	-10.0494
無校本	-10.0506
不盡	-10.0513
即使	-10.0515
現世	-10.0527
是也	-10.0538
無色界	-10.054
戒律	-10.0541
行道	-10.0556
然而	-10.0559
勝解	-10.0566
如人	-10.0573
汝今	-10.0579
意為	-10.0586
依此	-10.0591
六種	-10.0598
為他	-10.0604
依於	-10.0611
若是	-10.0618
故能	-10.0619
如上	-10.0634
既有	-10.0647
87	-10.0648
一相	-10.0649
於法	-10.065
甘	-10.0652
若菩薩	-10.0654
般若波羅蜜多	-10.0656
是佛	-10.0657
有些沙門	-10.0659
那個	-10.0661
起來	-10.0671
.)」「	-10.0672
?」「	-10.0676
願力	-10.0679
其事	-10.0679
飾	-10.0684
板	-10.0685
基	-10.0686
騰	-10.0686
慕	-10.0691
別餘	-10.0693
沈	-10.0694
穿	-10.0696
檢	-10.0697
保護	-10.0697
晚	-10.0699
禁誓	-10.0699
禍	-10.07
忠	-10.07
5.	-10.0701
另外	-10.0716
今當	-10.0717
度脫	-10.0718
h	-10.0718
烏	-10.072
表示	-10.0726
萬物	-10.0728
此等	-10.0735
故有	-10.0739
法華經	-10.074
作佛	-10.074
保存	-10.0744
三身	-10.075
下至	-10.0754
果頭	-10.0758
唯識	-10.0774
。5	-10.0803
。8	-10.0806
三卷	-10.0807
實有	-10.0809
結集	-10.081
也是	-10.0817
根塵	-10.083
五蘊	-10.0837
如是等	-10.0857
偽經	-10.0868
的資料	-10.0878
冊	-10.088
人法	-10.0885
名號	-10.0888
於身	-10.0891
之言	-10.0906
恣	-10.0908
相當	-10.0909
十惡	-10.091
無學	-10.0917
依怙	-10.0917
醫	-10.0924
喚	-10.0925
逃	-10.0927
趨	-10.0929
拘	-10.093
米	-10.0934
蕩	-10.0934
輩	-10.0934
泉	-10.0937
塞	-10.0938
無著論云	-10.0939
別人	-10.0943
拈	-10.0944
厚	-10.0945
開元入藏錄	-10.0945
不覺	-10.0946
恆	-10.0947
薩埵	-10.0949
赴	-10.095
兄弟	-10.0953
永遠	-10.0956
我的	-10.0958
銘	-10.0961
梵王	-10.0967
於佛	-10.0975
薩哩嚩	-10.0975
缽囉	-10.0976
卷上	-10.0983
皆有	-10.0988
散花	-10.0989
變異	-10.0996
出於	-10.0996
種智	-10.0998
宣說	-10.1004
生活中	-10.1008
昧	-10.1028
趣入	-10.1033
釋迦牟尼佛	-10.1041
何者	-10.105
並非	-10.1061
60	-10.1073
辦	-10.1108
其他	-10.1116
所述	-10.1119
有餘	-10.1122
不解	-10.113
蓮華	-10.114
經本	-10.1141
於一切	-10.1145
非我	-10.1147
二年	-10.1148
愍	-10.115
日常	-10.1155
享	-10.1167
儒	-10.1171
獅子	-10.1175
持經	-10.1177
愧	-10.1179
大眾志誠	-10.1179
丑三	-10.118
逸	-10.118
係	-10.118
衰	-10.1182
見到	-10.1182
奪	-10.1183
未得	-10.1183
墜	-10.1183
〉	-10.1183
稍	-10.1184
碑	-10.1185
組織	-10.1186
整	-10.1187
默	-10.1187
弱	-10.1187
船	-10.1187
毗盧	-10.1189
環	-10.1189
隆	-10.119
或復	-10.1191
藉	-10.1191
柱	-10.1191
響	-10.1191
原子	-10.1191
屈	-10.1192
往昔	-10.1195
方廣錩	-10.1195
亡佚	-10.1196
喜樂	-10.1196
阿吒力	-10.1201
鎮	-10.1202
不取	-10.1204
應如是	-10.1205
所講的	-10.1206
決示三種悉地法	-10.1206
益意經	-10.1207
伊	-10.1208
滿月	-10.1211
注意	-10.1218
需要	-10.1219
畔	-10.1224
▁A	-10.1229
華嚴經	-10.1236
貪愛	-10.1236
身之	-10.1241
音聲	-10.1243
一冊	-10.1247
卷四	-10.1265
名色	-10.1267
論主	-10.1274
影響	-10.1279
此下二	-10.1284
故經云	-10.1285
眼識	-10.1297
譬	-10.1303
於己	-10.1309
難得	-10.1312
不孝	-10.1313
顯果	-10.1314
普與	-10.1319
佛事	-10.1338
其餘	-10.1343
大千	-10.1367
是指	-10.1367
無論	-10.1375
不染	-10.1376
而去	-10.1379
的著作	-10.138
業果	-10.1381
瓶	-10.1385
無得	-10.1395
污	-10.14
觀之	-10.1404
後來	-10.1414
尾題	-10.1416
此五	-10.1418
戲	-10.1419
偶	-10.1425
了了分明	-10.1427
內典錄	-10.1434
有其	-10.1435
蔽	-10.1436
提綱	-10.1438
抱	-10.1439
不生不滅	-10.144
愁	-10.144
嫉妒	-10.1443
積聚	-10.1443
孰	-10.1445
主宰	-10.1445
恥	-10.1446
旁	-10.1446
格	-10.1447
熱惱	-10.1447
!】「	-10.1448
低	-10.1448
不當	-10.1449
伴	-10.145
說偈	-10.145
詩	-10.1452
此乃	-10.1452
〕《	-10.1455
北圖	-10.1457
燃燈	-10.1465
爛	-10.1468
書寫	-10.1477
南方	-10.148
有些	-10.1482
敦煌遺書中	-10.1491
尊重	-10.1493
」。)	-10.1499
無上菩提	-10.15
現生	-10.15
眼等	-10.1501
不應理	-10.1503
因而	-10.1514
分析	-10.1517
微細	-10.1535
染淨	-10.1541
所受	-10.1554
聖凡	-10.1577
迎	-10.1579
正知	-10.1592
三千大千世界	-10.1606
最高	-10.1606
不僅	-10.163
涅槃經	-10.163
身中	-10.1631
知見	-10.1632
而住	-10.1635
法王	-10.1644
依他	-10.1644
欲令	-10.1645
而來	-10.1648
行相	-10.1651
正觀	-10.1651
輸	-10.1654
從何	-10.1659
空界	-10.1662
32	-10.1668
逼	-10.1673
束	-10.1684
棺	-10.169
希望	-10.1691
救護	-10.1693
瘡	-10.1695
凝	-10.1697
嫌	-10.1699
渴	-10.17
地藏王菩薩	-10.1702
傾	-10.1702
秘	-10.1703
貪慾	-10.1704
振	-10.1704
衣服	-10.1704
卒	-10.1706
縫繢裝	-10.1707
靈藥	-10.1708
這樣的	-10.1708
遵循	-10.1708
累劫	-10.1709
異名	-10.1709
三十二	-10.1711
本文	-10.1711
圓覺	-10.1712
祝	-10.1712
箭	-10.1713
52	-10.1714
繁	-10.1714
P	-10.1714
夷	-10.1716
于	-10.1717
里	-10.1722
罪業	-10.1725
證得	-10.1728
善友	-10.1729
三品	-10.1736
五濁	-10.1737
撰寫	-10.1739
的話	-10.1741
鉢囉	-10.1742
正行	-10.1751
難量	-10.177
五趣	-10.1771
立因	-10.1772
更無	-10.1777
五字	-10.1783
為真諦	-10.1788
無定	-10.1788
施設	-10.1795
為其	-10.1797
我心	-10.1801
既然	-10.1802
諸佛菩薩	-10.1803
孝子	-10.1807
重罪	-10.1813
而是	-10.1818
惜	-10.1834
而作	-10.1835
去來	-10.185
顯然	-10.1861
曹	-10.1863
此為	-10.1865
44	-10.1899
皈	-10.1904
價值	-10.1909
55	-10.1912
諸見	-10.1918
地位	-10.192
。4	-10.1921
提到	-10.1921
的文字	-10.1922
ma	-10.1925
7.	-10.1928
慧眼	-10.1954
需	-10.1957
側	-10.1965
工	-10.1965
牟尼	-10.1969
煩	-10.197
層	-10.1971
枝	-10.1971
吟偈	-10.1972
心王菩薩	-10.1974
算	-10.1975
銅	-10.1978
角	-10.198
博	-10.1981
無比	-10.1982
優劣	-10.1982
消災	-10.1983
籠	-10.1984
冠	-10.1985
房	-10.1985
人相	-10.1988
雪山	-10.199
貪瞋	-10.1991
十齋日	-10.1992
此第二	-10.1993
假名	-10.1995
一句	-10.1997
傍生	-10.2001
陀羅	-10.2001
寂然	-10.2002
此之	-10.2007
和尚	-10.2007
直到	-10.2011
實法	-10.2013
具體	-10.2024
皆為	-10.2026
般涅槃	-10.2038
伽耶	-10.204
無實	-10.2042
更有一	-10.2042
略答	-10.2065
an	-10.2069
一生	-10.2072
你的	-10.2078
淨穢	-10.2081
應以	-10.209
忍受	-10.2096
有三種	-10.2098
是菩提	-10.2102
諸煩惱	-10.2104
生歡喜	-10.2116
善行	-10.2119
滅則	-10.2123
我於	-10.2131
śa	-10.2141
真理	-10.2151
入儀	-10.2157
聞已	-10.2161
積集	-10.2163
來看	-10.218
卷數	-10.2188
不失	-10.219
無由	-10.2193
洪	-10.2193
身相	-10.2197
有此	-10.2197
片	-10.2204
三十二相	-10.2205
一千	-10.2207
殺生	-10.2207
七種	-10.2208
經題	-10.2214
斫	-10.2219
三門	-10.2221
人人	-10.2223
不可說	-10.2233
何為	-10.2234
不堪	-10.2236
無想	-10.2238
無用	-10.224
是道場	-10.2241
B	-10.2242
停	-10.2242
00	-10.2243
輯	-10.2243
巴	-10.2244
預	-10.2246
瑩	-10.2247
獸	-10.2247
湛然	-10.2247
不應貪著	-10.2248
銀	-10.2252
無所得	-10.2254
概	-10.2254
麻	-10.2254
繼	-10.2255
競	-10.2255
敕	-10.2256
可愛	-10.2256
俯降道場	-10.2257
飲酒	-10.2258
歇	-10.226
輒	-10.226
洞	-10.2262
玄奘	-10.2262
寺院	-10.2262
鞞	-10.2263
真如佛性	-10.2264
開元釋教錄	-10.2264
介紹	-10.2265
完整	-10.2266
選	-10.2268
支分	-10.2269
胡	-10.2269
享受	-10.227
也就是說	-10.227
奢	-10.2275
444	-10.2276
離垢	-10.2276
沙彌	-10.228
頻	-10.228
號背	-10.228
金口	-10.228
長行	-10.2281
為二	-10.2284
未嘗	-10.2284
何用	-10.2289
請問	-10.2291
許多	-10.2293
本身	-10.2294
無非	-10.2304
持如是	-10.2304
不久	-10.231
最初	-10.2311
種類	-10.2313
方式	-10.2317
行為	-10.2319
求解脫	-10.2327
亦不能	-10.2334
故稱	-10.234
亦當	-10.2347
入涅槃	-10.2348
不令	-10.2354
眾人	-10.2354
無方	-10.2362
今言	-10.2362
出入	-10.2364
不及	-10.2366
八十	-10.237
信解	-10.238
相等	-10.2381
能破	-10.2387
總攝	-10.2389
悉地	-10.2392
覺悟	-10.2393
無自性	-10.2399
愛樂	-10.24
誐	-10.2405
原文	-10.2412
若依	-10.2418
意云	-10.2423
九種	-10.2424
不自	-10.2435
真諦	-10.2438
如虛空	-10.2446
當作	-10.2446
極微	-10.2447
苦海	-10.2453
齒	-10.2453
pra	-10.2457
而自	-10.2459
均為	-10.2482
得菩提	-10.2482
無著	-10.2483
□□□	-10.2487
一處	-10.2487
地區	-10.2503
讚禮	-10.2504
從而	-10.251
寫經	-10.2513
之名	-10.2516
他心	-10.2517
及諸	-10.2521
四方	-10.2523
是一	-10.2523
稽首和南	-10.2526
而說	-10.2528
臺	-10.2533
拉	-10.2533
明受	-10.2533
鮮	-10.2534
混	-10.2535
瞻	-10.2536
瑞	-10.2537
卑	-10.2538
聖諦	-10.2538
營	-10.2538
199	-10.2539
屋	-10.254
湯	-10.2541
忿	-10.2542
月光	-10.2543
本願	-10.2544
侶	-10.2545
不遠	-10.2545
禁戒	-10.2545
謬	-10.2546
本覺	-10.2546
蹉	-10.2546
財富	-10.2548
晝夜	-10.2548
慧琳音義	-10.2549
飄	-10.2549
6.	-10.2553
摧伏	-10.2557
古代	-10.2559
稱揚	-10.256
此處	-10.2567
敦煌文獻	-10.2575
等諸	-10.2578
無因	-10.258
三昧耶	-10.258
枳	-10.2584
僧伽	-10.2585
法會	-10.2595
大迦葉	-10.2596
頌云	-10.26
我想	-10.2601
未見	-10.2611
59	-10.2613
自性無	-10.2616
恒沙	-10.262
各自	-10.2621
之意	-10.2624
何能	-10.2626
作損惱	-10.2628
違背	-10.2628
罪惡	-10.2629
自知	-10.2633
寶塔	-10.2649
誓願	-10.2655
淨信	-10.2667
有見	-10.2669
不敢	-10.2672
略說	-10.2682
是則	-10.2682
們	-10.2688
諸聖	-10.2703
愆	-10.2705
大悲心	-10.2708
現見	-10.2714
不墮	-10.2715
上品	-10.272
一法	-10.2721
入地獄	-10.2726
更有	-10.2726
mā	-10.2732
作因	-10.2733
出離	-10.2735
知其	-10.2735
為彼	-10.2737
故無	-10.274
威神	-10.2741
式	-10.2746
六類	-10.2748
真正	-10.276
五者	-10.2772
四聲	-10.2772
」。】「	-10.2773
二智	-10.2779
正在	-10.2783
不出	-10.2786
閉	-10.2787
89	-10.2793
真經	-10.2795
所為	-10.2804
伽陀	-10.2808
流行	-10.281
磨	-10.2824
憎	-10.2827
率	-10.2828
寸	-10.2829
俄	-10.2829
運載	-10.283
浴	-10.2832
罵	-10.2832
作禮	-10.2832
斗	-10.2834
眾生相	-10.2834
曜	-10.2834
參差	-10.2835
肢	-10.2837
胸	-10.2837
弗	-10.2838
敗	-10.2838
目連	-10.2838
試	-10.2839
徑	-10.284
黑暗	-10.2842
遍計	-10.2842
梁	-10.2843
願賜	-10.2843
捨棄	-10.2844
組成	-10.2844
溫	-10.2846
歷代三寶記	-10.2847
受戒	-10.2848
丈六	-10.2849
五戒	-10.285
令人	-10.2851
一切諸佛	-10.2852
難陀	-10.2854
三塗	-10.2855
怛囉	-10.2855
鉢羅	-10.2856
除罪	-10.2865
所詮	-10.2876
仍然	-10.2879
多種	-10.2879
不輕	-10.2884
終日	-10.2887
例餘	-10.289
把它	-10.2891
救苦	-10.2892
長壽	-10.2899
並且	-10.29
高下	-10.2902
甚至	-10.2903
相互	-10.2906
化佛	-10.2911
佛教文獻	-10.2919
是菩薩行	-10.2924
苦受	-10.2928
使用	-10.2928
利根	-10.293
來到	-10.2931
女子	-10.2932
往來	-10.294
毫	-10.2949
除了	-10.2953
此下三	-10.2958
得名	-10.2965
這裏	-10.2976
一體	-10.2984
廣明	-10.2984
不入	-10.3
出來	-10.3
失譯	-10.3005
真性	-10.3008
一節	-10.3021
人的	-10.3033
轉變	-10.3041
析	-10.3041
紫	-10.3043
表現	-10.305
界中	-10.3053
道言	-10.3054
隨其	-10.3055
先後	-10.3056
大覺	-10.3062
無憂	-10.3074
令得	-10.3077
三個	-10.3088
輝	-10.3089
哭	-10.3103
年間	-10.3106
黎	-10.3106
漢文	-10.3106
大道	-10.3122
彼諸	-10.313
男根	-10.3131
醉	-10.3132
譏	-10.3132
瞿曇	-10.3132
震	-10.3132
攀緣	-10.3133
巍巍	-10.3133
暴	-10.3134
閻浮提	-10.3135
爪	-10.3135
匠	-10.3135
蹤	-10.3137
拙	-10.3137
須陀洹	-10.3137
冬	-10.3138
雅	-10.3138
華藏	-10.314
療	-10.314
圓融	-10.3141
而且	-10.3141
世紀	-10.3141
泥洹	-10.3142
捧	-10.3143
練	-10.3143
慧琳	-10.3143
維德赫國王	-10.3145
拉雅納瓦蒂	-10.3146
此法會中	-10.3147
冰	-10.3148
珍寶	-10.3151
監	-10.3153
菩提薩埵	-10.3159
可參見	-10.3161
是為入不二法門	-10.3165
地藏菩薩	-10.3169
肉眼	-10.3174
罰	-10.3175
阿耨多羅三藐三菩提	-10.3176
彼我	-10.3176
造像	-10.3177
解說	-10.3178
知識	-10.3179
惡人	-10.319
如我	-10.3194
所化	-10.3196
此問	-10.3202
斷滅	-10.3208
未曾	-10.3209
98	-10.3212
三法	-10.3214
卷下	-10.3219
肯定	-10.3221
重重	-10.3223
作如是	-10.3223
寶珠	-10.3229
心裏	-10.3235
法雨	-10.3238
無上道	-10.3238
千字文帙號	-10.3241
諸如來	-10.3246
嚩囉	-10.325
總明	-10.3268
罪垢	-10.3268
品類	-10.3269
教法	-10.3272
也有	-10.3293
及以	-10.3294
而行	-10.3303
的文獻	-10.3305
議	-10.3315
為什麼	-10.332
持齋	-10.3331
一身	-10.3336
經名	-10.3336
答也	-10.3345
十分	-10.3353
大藏	-10.3356
一百	-10.3369
ti	-10.3371
相待	-10.3384
所應	-10.3386
是何	-10.3389
無病	-10.3407
58	-10.3409
為喻	-10.3413
諸外道	-10.3417
經說	-10.3419
屍	-10.3425
罪人	-10.3427
諸惡	-10.3431
不用	-10.3438
扶	-10.3439
瓦	-10.3441
阿彌陀佛	-10.3442
有十	-10.3443
屠兒	-10.3445
刀劍	-10.3445
囑	-10.3446
豐	-10.3446
線	-10.3448
刑	-10.3448
無智	-10.3448
冥陽	-10.3449
我為	-10.3449
睡	-10.3449
稟	-10.3449
亦為	-10.345
靈藥智者	-10.345
龕	-10.3453
陸	-10.3453
嬰兒	-10.3455
阿修羅	-10.3455
佛告須菩提	-10.3456
聰明	-10.3457
倚	-10.3457
賴	-10.3457
升	-10.3457
諱	-10.3458
南無大孝釋迦佛	-10.3461
北宋	-10.3461
諫	-10.3462
稿	-10.3462
愚人	-10.3462
瓔珞	-10.3465
聞佛	-10.3469
一合相	-10.3471
前二	-10.3471
重視	-10.3472
這一點	-10.3472
諸人	-10.348
觀待	-10.3481
財物	-10.3484
道安	-10.3486
壞滅	-10.3486
亦云	-10.3494
開示	-10.3495
次序	-10.3497
南無三滿多	-10.3498
醯	-10.3504
天帝	-10.3506
的關係	-10.3508
都序	-10.3508
的典籍	-10.3516
八萬	-10.353
護念	-10.3538
極樂	-10.3544
法無	-10.355
國家	-10.3553
祇是	-10.3561
疑經	-10.3563
生死之	-10.3572
明白	-10.3578
kā	-10.3578
性質	-10.3592
願諸	-10.3604
今此	-10.362
從此	-10.3627
相比	-10.3631
囑累經	-10.3631
不忍	-10.3632
無復	-10.3635
令我	-10.3639
彼岸	-10.3642
地方	-10.3644
以明	-10.3654
感官智	-10.3656
名聞	-10.3677
遍滿	-10.3682
俱生	-10.3686
二邊	-10.3687
來生	-10.3687
現身	-10.3691
護持	-10.3697
染著	-10.3698
悲智	-10.3707
38	-10.371
六十	-10.3714
何等	-10.372
筆	-10.372
之方便	-10.3724
又有	-10.3725
波囉	-10.373
的兒子	-10.3746
如同	-10.3749
性空	-10.3751
西夏	-10.3753
仇	-10.3754
究	-10.3756
童	-10.3756
件	-10.3758
鸚鵡	-10.3758
何須	-10.3762
準	-10.3762
世尊在舍衛城祇樹給孤獨	-10.3762
唇	-10.3763
遲	-10.3764
牙	-10.3764
十二部經	-10.3765
蔭	-10.3766
鉤	-10.3767
薰	-10.3771
景	-10.3772
域	-10.3773
呵	-10.3773
虔誠	-10.3774
拾	-10.3774
政	-10.3775
嘉	-10.3775
樓	-10.3775
訛	-10.3776
訪	-10.3776
今天	-10.3777
番	-10.3777
榮	-10.3778
隋	-10.3778
賓	-10.3778
債	-10.3779
無疑	-10.3779
縣	-10.3779
擁護	-10.378
綱	-10.3781
秦言	-10.3782
燭	-10.3782
eka	-10.3784
晉	-10.3784
亦同	-10.3787
直接	-10.3787
長短	-10.3788
牒	-10.379
異也	-10.379
哪	-10.379
不應瞋	-10.379
昔日	-10.3791
增補	-10.3791
欄第	-10.3794
亦得	-10.3797
尋求	-10.3806
惟淨	-10.3811
羯	-10.3811
白衣	-10.3813
分齊	-10.3819
更加	-10.382
在他	-10.3821
論云	-10.3823
段落	-10.3824
但在	-10.3826
在一起	-10.3833
發菩提	-10.3833
大約	-10.3836
益物	-10.3837
明確	-10.3845
正以	-10.3845
故事	-10.3847
金藏	-10.3849
所抄	-10.3853
四明	-10.3853
主張	-10.3857
汝當	-10.3858
直至	-10.3859
教化	-10.3867
一切諸	-10.3868
我認為	-10.387
緣生	-10.3873
不違	-10.3874
為體	-10.388
之過患	-10.388
直心	-10.3881
其母	-10.3881
既不	-10.389
稱念	-10.3905
為一	-10.3905
四禪	-10.3926
貌	-10.3926
恒常	-10.3936
一定	-10.3939
誰為	-10.3944
84	-10.3947
故於	-10.3949
末世	-10.3955
是在	-10.396
身子	-10.3963
一問	-10.3965
分之	-10.3975
聞此	-10.3977
常樂	-10.3982
死後	-10.3995
三根	-10.3997
十句	-10.4006
正道	-10.4016
九句	-10.4017
隨心	-10.4018
區別	-10.4027
以成	-10.403
而能	-10.4031
頭上	-10.4033
軌	-10.4036
結界	-10.4039
彼此	-10.4052
感受	-10.4054
da	-10.4066
所用	-10.4069
身根	-10.4075
共相	-10.4076
商	-10.4079
不具	-10.408
誑	-10.4082
鈔	-10.4088
此心	-10.4091
純陀	-10.4093
慚	-10.4094
之本	-10.4094
威德	-10.4096
貝	-10.4097
受請供養	-10.41
尺	-10.41
宇	-10.41
大聖地藏王菩薩	-10.4101
慚愧	-10.4102
欣	-10.4103
不與	-10.4103
優波離	-10.4104
鳴	-10.4105
捐	-10.4105
雷	-10.4105
闡	-10.4106
僕	-10.4106
漫	-10.4107
秋	-10.4108
穀	-10.4108
名真	-10.4108
克	-10.4109
濫	-10.411
蜜	-10.411
輔	-10.411
京	-10.4111
澤	-10.4111
裡	-10.4112
得知	-10.4113
晝	-10.4113
料簡	-10.4113
排列	-10.4116
所許	-10.4118
阿難言	-10.4118
裝	-10.4118
深入	-10.4119
條件	-10.4119
眾經目錄	-10.4119
唐代	-10.412
塵沙	-10.4121
束縛	-10.4122
布佐	-10.4122
覽	-10.4126
婆羅	-10.4128
奴婢	-10.4133
教誨	-10.4133
成佛道	-10.4135
歸去來	-10.4136
汝心	-10.4136
般若經	-10.4137
身上	-10.4142
逼惱	-10.4155
僧寶	-10.4158
心地	-10.416
眼根	-10.416
的部分	-10.4166
有力	-10.4171
示現	-10.4173
她的	-10.4174
一直	-10.4176
筆者	-10.4178
而非	-10.4182
慈恩	-10.4183
自性成就	-10.4184
得生	-10.4185
69	-10.419
亦復	-10.4195
?「	-10.421
轉法輪	-10.4213
加威	-10.4217
四十九	-10.4219
甲本	-10.422
流出	-10.4226
大乘經	-10.4237
形式	-10.4238
一切皆	-10.4249
放生	-10.4256
這就是	-10.426
六通	-10.426
何者是	-10.4263
不能得	-10.4271
最為	-10.4272
烈	-10.4273
結成	-10.4277
或謂	-10.4287
施等	-10.429
明代	-10.4291
他利	-10.4293
不安	-10.4299
85	-10.4308
但能	-10.4313
bh	-10.4324
長時	-10.4326
作損害	-10.433
神變	-10.4342
是誰	-10.4347
雖不	-10.4348
之性	-10.4358
常時	-10.4366
大家	-10.4367
正因	-10.4367
48	-10.4374
若欲	-10.4387
利用	-10.439
理解	-10.4397
排	-10.4406
檀	-10.4411
收錄	-10.4415
為善	-10.4419
不能自	-10.4422
諸善	-10.4423
逝	-10.4423
惟願慈悲常攝受	-10.4435
由常看守心	-10.4435
程	-10.4436
捨離	-10.4437
我今稱讚	-10.4439
入般涅槃	-10.444
要求	-10.4442
糞	-10.4446
優婆塞	-10.4448
軀	-10.4449
豎	-10.4449
男子	-10.445
奔	-10.4451
祛	-10.4452
妨礙	-10.4454
淵	-10.4454
西明寺	-10.4456
育	-10.4456
其本	-10.4457
枉	-10.4457
增上慢	-10.4457
紛紛	-10.4457
不說	-10.4458
茶供養	-10.4459
佛告迦葉	-10.446
I	-10.446
明其	-10.4461
詳細	-10.4461
作是念	-10.4462
豈不	-10.4463
播	-10.4463
45	-10.4463
歷劫	-10.4463
殘缺	-10.4464
裴休	-10.4466
摩利支	-10.4469
當生	-10.4471
b	-10.4473
本科儀	-10.4478
於生死	-10.4479
能作	-10.4483
科文	-10.4483
這麼	-10.4485
達麼	-10.4489
收藏	-10.4489
端正	-10.4491
分八	-10.4494
曼怛囉	-10.4502
作饒益	-10.4506
數量	-10.4507
之教	-10.4507
的一個	-10.4521
心為	-10.4523
今生	-10.4529
號為	-10.4529
動搖	-10.453
兩重	-10.4532
壇場	-10.4535
慈尊	-10.454
或者	-10.4547
來世	-10.4548
戒定慧	-10.455
方能	-10.4551
人見	-10.4564
得成	-10.4564
已滅	-10.4565
兩者	-10.4565
實執	-10.457
成了	-10.4571
行之	-10.4576
生信	-10.4584
不從	-10.4596
佛頂	-10.4597
pa	-10.46
各處	-10.4607
不行	-10.4608
釋論	-10.4613
墮地獄	-10.4615
其實	-10.462
在我	-10.4623
靡	-10.4634
一詞	-10.464
諸欲	-10.465
時有	-10.4654
歷代	-10.4654
變成	-10.4657
79	-10.4657
9.	-10.4663
夢中	-10.4684
皆從	-10.4687
譯者	-10.4689
施與	-10.4693
即得	-10.4717
有色	-10.4717
心所法	-10.4717
能得	-10.4727
是菩薩	-10.4729
為求	-10.4733
刻本	-10.4742
由斯	-10.4746
我們可以	-10.475
將來	-10.4753
從前	-10.4754
多有	-10.4757
神我	-10.4761
狀態	-10.4761
水中	-10.4764
此論	-10.4766
之妙	-10.4769
命的	-10.477
丈夫	-10.4773
有對	-10.4774
應須	-10.4776
奈	-10.4777
婆希	-10.478
不爾	-10.4782
溺	-10.4782
的原因	-10.4786
62	-10.4789
坐於一旁	-10.4791
或觀察身內之	-10.4792
怯弱	-10.4794
謙	-10.4794
大義	-10.4795
陷	-10.4796
聯	-10.4796
yo	-10.4798
信仰	-10.4798
潛	-10.4798
杵	-10.4799
四法	-10.4799
厄	-10.48
薦	-10.48
脈	-10.48
無論如何	-10.4801
焦	-10.4801
滴	-10.4801
擇	-10.4803
有七	-10.4803
狗	-10.4804
慳	-10.4805
無過	-10.4805
虔	-10.4806
勇猛	-10.4808
鈴	-10.4808
閃	-10.4809
此亦	-10.4809
馳	-10.481
引經	-10.481
曼	-10.4811
大唐內典錄	-10.4811
參考	-10.4811
汙	-10.4811
射	-10.4812
天台宗	-10.4813
炎	-10.4813
空衣派刊本	-10.4813
兄	-10.4815
太陽	-10.4815
穢濁	-10.4816
校勘	-10.4817
龍樹	-10.4817
默然	-10.4818
觀點	-10.4818
宋代	-10.4818
抑	-10.4819
羅剎	-10.4819
有一問答	-10.482
▁'	-10.4821
的思想	-10.4821
憂惱	-10.4823
刃	-10.4825
費長房	-10.4826
迦羅	-10.4827
禪源諸詮集都序	-10.4829
皇帝	-10.483
密咒	-10.483
苦痛	-10.4834
輕重	-10.4838
帶來	-10.4839
唎	-10.484
之善	-10.4844
似乎	-10.4844
佛地	-10.4846
豈有	-10.4847
即時	-10.485
十方世界	-10.4854
孫	-10.4855
梵音	-10.4856
諸罪	-10.4858
現量	-10.4868
舍利	-10.4871
往生	-10.4871
分七	-10.4875
86	-10.4875
佛母	-10.4876
第十一	-10.4888
色處	-10.4892
午三	-10.4896
纔能	-10.4899
何曾	-10.4904
十戒	-10.4906
76	-10.4906
原來	-10.491
道德	-10.4913
等四	-10.4914
nā	-10.4918
入定	-10.492
從來	-10.4928
如來藏	-10.4939
35	-10.4943
文章	-10.4943
歸入	-10.4945
生者	-10.4951
本人	-10.4951
行孝	-10.4956
共同	-10.4961
六波羅蜜	-10.4966
藍	-10.4972
發阿耨多羅三藐三菩提心	-10.4978
相貌	-10.4979
悉能	-10.4993
主人	-10.4998
第一義	-10.5003
如似	-10.5009
苦因	-10.501
得見	-10.5011
若論	-10.5014
哆囉	-10.5018
相也	-10.5033
自證	-10.5037
若有人	-10.5037
因故	-10.5041
宗密的	-10.5057
法空	-10.5063
已知	-10.5065
此偈	-10.5066
從事	-10.5067
罪過	-10.5078
從今	-10.5079
我佛	-10.5088
分身	-10.5098
難思	-10.5098
並是	-10.5109
泣	-10.511
當為	-10.511
所逼	-10.512
極為	-10.5121
中道	-10.5123
這裡	-10.5127
心者	-10.5133
應作	-10.5134
皆悉	-10.5141
諸部	-10.5151
犯戒	-10.5154
旃檀	-10.5159
托鉢	-10.516
區	-10.516
崩	-10.5163
所愛	-10.5163
楚	-10.5164
跟	-10.5166
五年	-10.5168
譽	-10.5168
的作者	-10.5168
若復有人	-10.5169
冷	-10.5171
炬	-10.5176
竹	-10.5176
有法	-10.5177
金剛經讚	-10.5177
巨	-10.5178
鋒	-10.5178
是法	-10.5179
三階教	-10.5179
周沙界	-10.518
效	-10.5181
R	-10.5182
方得	-10.5183
透	-10.5183
矛	-10.5183
F	-10.5184
北敦	-10.5184
嫉	-10.5184
遷	-10.5185
圭峰	-10.5185
災害	-10.5186
肅	-10.5186
煙	-10.5186
俱胝	-10.5187
英	-10.5188
欄	-10.5188
本節論述	-10.5189
囚	-10.5191
毒蛇	-10.5192
無以	-10.5193
禪源諸詮集	-10.5193
十二因緣	-10.5194
如是如是	-10.5195
斷煩惱	-10.5195
高山寺本	-10.5196
草木	-10.5199
揭	-10.52
鮑善恢	-10.52
有說	-10.5204
無緣	-10.5206
伏聞	-10.5207
判斷	-10.5207
07	-10.5209
下文云	-10.5213
勸修	-10.5216
與此	-10.5218
施者	-10.5219
值得	-10.5223
安忍	-10.5224
無能	-10.5225
是如來	-10.5226
同誦	-10.5227
假立	-10.5228
體例	-10.5228
注釋	-10.5233
方便智	-10.5234
因由	-10.5235
三儀軌	-10.524
是時	-10.5241
正確	-10.5243
hā	-10.5244
不求	-10.5248
著錄了	-10.525
餘處	-10.5251
之內	-10.5251
不欲	-10.5256
不可能	-10.5256
後者	-10.5257
法輪	-10.526
後代	-10.5261
佛剎	-10.5267
又名	-10.5268
不論	-10.5269
該號	-10.527
修羅	-10.527
孝順	-10.5272
十八界	-10.5272
36	-10.5276
自覺	-10.528
乃至成佛	-10.528
苦者	-10.5291
以下是	-10.5294
豈可	-10.5298
別錄	-10.5299
外化	-10.5299
而後	-10.5301
可分為	-10.5304
仁者	-10.5308
體相	-10.5312
摩訶薩	-10.5321
於心	-10.5321
此由	-10.5324
為主	-10.5324
異體	-10.5332
攝義	-10.5332
即此	-10.5334
由旬	-10.5339
為眾生	-10.5339
下品	-10.5347
88	-10.5348
法眼	-10.535
歷代大藏	-10.5351
子三	-10.5352
得失	-10.5354
離苦	-10.5354
之樂	-10.5365
受記	-10.5377
正等	-10.538
不通	-10.5381
大菩薩	-10.5383
國中	-10.5385
金棺	-10.5386
罪福	-10.5388
普遍	-10.5391
儀至	-10.5398
八種	-10.5398
若悟	-10.5399
而白佛言	-10.5404
其福	-10.5413
於十方	-10.5421
聽了	-10.5423
一切諸法	-10.5429
之業	-10.5432
符	-10.5442
的佛教	-10.5444
何有	-10.5445
受樂	-10.5447
囉拏	-10.5448
生時	-10.5448
為宗	-10.5462
搖	-10.5462
聞說	-10.5467
護法	-10.547
有用	-10.548
ha	-10.5498
得聞	-10.5505
化眾生	-10.5506
豈非	-10.5507
時候	-10.5512
卷二	-10.5515
之下	-10.5519
我言	-10.5519
靈魂	-10.5528
我應	-10.5534
等等	-10.5534
妙香	-10.5537
醜陋	-10.5542
均有	-10.5543
著衣持鉢	-10.5543
3)	-10.5545
無益	-10.5548
炷	-10.5548
后	-10.5549
無貪	-10.555
羞	-10.555
映	-10.5552
剪	-10.5554
盈	-10.5555
隨所	-10.5555
肩	-10.5555
捉	-10.5556
險	-10.5556
翳	-10.5556
如實	-10.5556
呈	-10.5557
奇哉	-10.5557
鬥	-10.5557
芽	-10.5559
佛弟子	-10.5559
邦	-10.5559
辯才	-10.556
書籍	-10.5561
三摩地	-10.5562
辱	-10.5563
身口意	-10.5564
枯	-10.5565
抉擇	-10.5565
一心奉請	-10.5565
浪	-10.5565
奚	-10.5566
髓	-10.5566
逾	-10.5566
恃	-10.5566
討論	-10.5566
讚歎	-10.5567
健	-10.5567
經宣演	-10.5568
如前所述	-10.5568
綴接	-10.5569
叡	-10.5569
冤讎	-10.557
奏	-10.557
複合體	-10.5571
53	-10.5571
社	-10.5571
直觀智	-10.5572
能發	-10.5572
貞元入藏錄	-10.5572
復有一解	-10.5572
署	-10.5572
旋生	-10.5573
濃	-10.5573
閱	-10.5573
添	-10.5573
楊	-10.5573
應勵力	-10.5574
杜	-10.5575
廣破邪	-10.5575
善逝	-10.5577
夙	-10.5577
該文獻	-10.5579
塵勞	-10.5581
教導	-10.5581
攬	-10.5585
諾賀	-10.5588
東西	-10.5591
𤙣	-10.5591
𩕳	-10.5591
sa	-10.5594
倒想	-10.5596
之謂也	-10.5598
無見	-10.5602
怛姪他	-10.5603
他們的	-10.5604
類似	-10.5606
信受	-10.5607
回答	-10.5611
疾病	-10.5611
得此	-10.5613
已來	-10.5616
個如海量	-10.5616
初地	-10.5618
是從	-10.5618
不絕	-10.5619
地上	-10.5619
僧法誦出經	-10.5619
有的	-10.5625
異本	-10.563
兩號	-10.5645
自相	-10.566
力士	-10.5662
是實	-10.5662
師為	-10.5664
莫不	-10.5664
唯願	-10.567
正明	-10.5671
梵天	-10.5672
四天下	-10.5673
在前	-10.5674
論曰	-10.5677
能燒	-10.568
此則	-10.5681
正信	-10.5682
離欲	-10.5688
。(「	-10.5697
此品	-10.57
相反	-10.5702
見諦	-10.5702
得度	-10.5714
本性	-10.5714
之行	-10.5719
受者	-10.5725
初文	-10.5726
攝持	-10.5727
作業	-10.5727
應身	-10.5734
電	-10.5734
它是	-10.5753
煩惱性	-10.5758
八難	-10.5765
如佛	-10.5777
二十八	-10.5779
天宮	-10.5792
五逆	-10.5793
能力	-10.58
講的	-10.58
上面	-10.5809
身命	-10.5814
應無	-10.5814
一致	-10.5817
不救	-10.5823
何由	-10.5825
於世	-10.5825
應修	-10.5827
觀想	-10.5832
□□□□	-10.5834
明差別	-10.5834
無所有	-10.5835
▁3	-10.584
佛寶	-10.5841
作了	-10.5845
不退轉	-10.5848
即能	-10.5853
正說	-10.5867
tā	-10.5872
之物	-10.5875
誠心	-10.5877
真空	-10.5881
耆那教的	-10.5881
非實	-10.5882
人心	-10.5885
中說	-10.5895
經常	-10.5896
仁王	-10.5896
心王	-10.5896
譯本	-10.5902
而產生	-10.5905
日光	-10.591
其次	-10.5916
後際	-10.5916
正義	-10.5917
即便	-10.5924
說此	-10.5925
幢	-10.5926
反映	-10.5931
+	-10.5942
我是	-10.5942
彼無	-10.5945
兩卷	-10.5946
無著論	-10.5946
全文	-10.5947
魂	-10.5948
曠	-10.5949
回到	-10.595
紀	-10.595
的著錄	-10.5951
閒	-10.5953
匝	-10.5953
輾轉	-10.5956
忻	-10.5957
幼	-10.5957
季	-10.5958
鹿	-10.5958
食肉	-10.5958
壁	-10.5958
怎麼	-10.5959
堆	-10.5961
灌	-10.5961
庭	-10.5961
戴	-10.5961
譬喻	-10.5962
聾	-10.5962
祿	-10.5962
允	-10.5962
巴伐菩提	-10.5963
最澄	-10.5964
丹	-10.5965
贍部洲	-10.5966
霜	-10.5967
梵志	-10.5967
貧窮	-10.5967
然則	-10.5968
局	-10.5968
師子吼	-10.5969
縱橫	-10.5969
寶髻的	-10.5969
慈氏	-10.5969
祐	-10.5969
因中	-10.597
斬	-10.597
豪	-10.597
梵授王	-10.597
範	-10.5971
篇幅	-10.5971
委	-10.5972
pari	-10.5973
提供了	-10.5973
灑淨	-10.5974
麗	-10.5974
慰	-10.5974
康	-10.5975
刊雕	-10.5976
溪	-10.5976
高僧傳	-10.5977
窣	-10.5977
儘管	-10.5979
殺害	-10.5979
損益	-10.5979
那樣	-10.5979
於內	-10.598
粗細	-10.598
叭囉	-10.598
悉達	-10.5981
勢力	-10.5981
曳	-10.5981
金銀	-10.5982
淨度三昧經	-10.5984
引導	-10.5986
雲南	-10.5986
出版	-10.5987
▁C	-10.5992
靈山	-10.5992
大佛頂	-10.5993
死時	-10.5996
如彼	-10.5999
財寶	-10.6002
香積	-10.6002
令彼	-10.6003
dha	-10.6004
阿鼻	-10.6004
感覺	-10.6008
坐禪	-10.6012
自恣	-10.6016
胎生	-10.6016
》。《	-10.6021
禮世尊	-10.6024
不言	-10.6024
二親	-10.6034
願為	-10.6037
疏文	-10.6038
斷見	-10.604
能與	-10.6042
妄語	-10.6047
由是	-10.6048
延壽	-10.6051
川	-10.606
上的	-10.6062
道宣	-10.6062
天王	-10.6069
之結	-10.6069
功用	-10.607
咒唵	-10.6078
讚曰	-10.6078
部經典	-10.6079
淨度	-10.608
ana	-10.6085
如能	-10.609
修學	-10.6091
一切煩惱	-10.6097
奉持	-10.6099
十力	-10.61
也沒有	-10.6102
心也	-10.6103
些	-10.6104
三賢	-10.6106
說名	-10.6107
行持	-10.6116
工作	-10.612
pā	-10.6123
產生於	-10.6126
法供養	-10.6128
文化	-10.6129
人所	-10.6132
所證	-10.6133
三空	-10.6142
後人	-10.615
鄰	-10.6152
為難	-10.6152
迷情	-10.6158
神咒	-10.6159
名義	-10.6162
心懷	-10.6163
aḥ	-10.6165
石刻	-10.6166
必要	-10.6166
行願	-10.6166
來此	-10.6179
隨意	-10.6191
應是	-10.6193
百由旬	-10.6196
經部	-10.6197
之上	-10.6198
明四	-10.6201
取相	-10.6207
明種子	-10.6207
這兒	-10.6212
的主要	-10.6218
大智	-10.6227
無染	-10.6227
義故	-10.623
的形式	-10.6231
有時	-10.6232
本師	-10.6235
他方	-10.625
未知	-10.6256
勉	-10.6259
佛子	-10.626
見色	-10.6264
諸種	-10.627
善事	-10.6272
八百	-10.628
但有	-10.6289
百年	-10.6293
樂受	-10.6297
外凡	-10.6297
而修	-10.6303
聞經	-10.6312
可謂	-10.6314
首楞嚴經	-10.6317
生瞋恚	-10.6317
釋也	-10.6317
光照	-10.6322
如是說	-10.6327
當時的	-10.633
實行	-10.6336
觀心	-10.6346
rā	-10.6353
之自性	-10.6357
耽	-10.6358
威力	-10.6359
刻經	-10.6361
腦	-10.6362
亦不見	-10.6362
您的	-10.6363
天堂	-10.6363
瑜伽師地論	-10.6364
纖毫	-10.6364
頃	-10.6368
盜賊	-10.6369
羊	-10.637
人物	-10.6371
猛烈	-10.6372
斂	-10.6372
受持讀誦	-10.6372
習氣	-10.6373
梵授	-10.6373
薄伽梵	-10.6373
漿	-10.6373
腸	-10.6373
的說法	-10.6374
警策	-10.6375
駕	-10.6376
裝飾	-10.6376
雁	-10.6377
宰	-10.6377
錯誤	-10.6377
初中引經	-10.6379
荒	-10.638
榮耀	-10.6381
無故	-10.6381
單元	-10.6382
天聖釋教	-10.6382
革	-10.6382
皈依三寶	-10.6384
鬥爭	-10.6384
孩兒	-10.6385
獵	-10.6386
禮敬	-10.6386
領納	-10.6387
今有解結	-10.6388
賞	-10.6388
劇	-10.6388
擁	-10.6388
侯	-10.6389
特別	-10.6389
願罪消滅	-10.639
tva	-10.639
尸	-10.639
昌	-10.639
拿	-10.6391
震動	-10.6392
安置	-10.6393
系	-10.6394
黃金	-10.6394
消失	-10.6394
汝於	-10.6396
灰	-10.6397
迦摩囉	-10.6397
探	-10.6398
資財	-10.6399
所斷	-10.6401
未曾有	-10.6401
大乘禪門	-10.6402
區分	-10.6403
成熟	-10.6406
已畢	-10.6406
心中了了分明	-10.6406
亦未	-10.6406
磧砂藏	-10.6407
反映了	-10.6407
分割	-10.6407
譯為	-10.6409
四天王	-10.641
忽然	-10.6411
普照	-10.6414
壽者相	-10.6415
法王身	-10.6415
無動	-10.6417
陀那	-10.642
息滅	-10.642
未生	-10.6421
六界	-10.6422
在那裏	-10.6424
之流	-10.6427
長者子	-10.643
不轉	-10.643
作是言	-10.6433
指示	-10.6433
實語	-10.6433
種姓	-10.6433
色心	-10.6434
仙人	-10.6438
摩囉	-10.6445
四聖諦	-10.6447
嚩羅	-10.6451
月十五日	-10.6453
一如	-10.6453
密語	-10.6459
藥王	-10.6459
論師	-10.6461
有緣	-10.6462
不可見	-10.6465
十善	-10.647
依次	-10.647
行事	-10.6473
有一個	-10.6474
tad	-10.6482
法珍	-10.6483
於其	-10.6487
六情	-10.6494
世世	-10.6494
得大	-10.6498
之路	-10.6499
依教	-10.6507
yoga	-10.6511
貪欲	-10.6513
這樣說	-10.6516
生善趣	-10.6523
資生	-10.6526
是妄	-10.6529
不達	-10.6532
妙用	-10.6538
明三	-10.654
於境	-10.6542
異門	-10.6545
上來所	-10.6555
額	-10.6555
不殊	-10.656
作意	-10.6562
嘆佛	-10.6562
慈父	-10.6569
請你	-10.6575
世尊告	-10.6576
j	-10.6576
總問	-10.6578
非唯	-10.6579
本生	-10.6581
不敬	-10.6582
起於	-10.6584
極難	-10.6591
此土	-10.6597
甚大	-10.6597
大願	-10.6606
來至	-10.6612
改為	-10.6618
寶蓋	-10.6629
應有	-10.6632
苦集	-10.6635
證真	-10.6635
斯則	-10.6638
得佛	-10.6645
依法	-10.6646
師長	-10.6648
顯了	-10.665
五眼	-10.665
結果	-10.6654
自性不成	-10.6654
如是思維	-10.6658
聽法	-10.666
能使	-10.666
不要	-10.6663
明三種	-10.6667
於自身	-10.6669
生物	-10.6671
的痛苦	-10.6672
▁2	-10.6675
行禮	-10.6677
取得	-10.668
口業	-10.6688
本自	-10.6688
觀見	-10.6707
前三	-10.6709
的不同	-10.6714
以彼	-10.672
—	-10.6726
之情	-10.6728
憐	-10.6732
相符	-10.6735
生故	-10.6735
大力	-10.6736
歷史	-10.6739
各有所	-10.6747
所藏	-10.6758
覺性	-10.6767
德行	-10.677
予	-10.6776
人之	-10.6779
疲	-10.6781
斷盡	-10.6784
一劫	-10.6789
悟解	-10.6793
曾無	-10.6796
咎	-10.6797
恐怖	-10.6799
一次	-10.6799
衰損	-10.6799
秦	-10.68
啖	-10.68
以此之故	-10.68
降臨	-10.6802
結跏趺坐	-10.6804
餐	-10.6805
的東西	-10.6805
臭	-10.6805
村	-10.6805
熾	-10.6806
牢	-10.6806
天上人間	-10.6806
詐	-10.6808
段食	-10.6808
迫	-10.6809
如前所說	-10.6809
割肉	-10.6809
廻	-10.6809
料	-10.6809
嶽	-10.681
換	-10.681
優婆夷	-10.6811
時世尊	-10.6812
王宮	-10.6812
遵守	-10.6813
膽	-10.6813
軸	-10.6813
孟	-10.6814
爐	-10.6815
L	-10.6815
貪嗔	-10.6815
詔	-10.6816
副	-10.6817
包含	-10.6818
混合	-10.6819
調御	-10.6819
恰	-10.6819
仰啟	-10.6819
跛	-10.6819
埋	-10.682
寫經造像	-10.6822
臣民	-10.6822
事物	-10.6822
無著論曰	-10.6823
再再	-10.6823
所說的	-10.6823
珍貴	-10.6826
谷	-10.6827
山林	-10.6828
包	-10.6828
聚落	-10.6828
超越	-10.6828
降道場	-10.6829
誇	-10.683
僧團	-10.683
凶	-10.683
弊	-10.6831
能見	-10.6831
仁師	-10.6833
三種悉地法	-10.6834
何因	-10.6834
這個偉大的人	-10.6835
逝世	-10.6837
燒香	-10.6838
誹謗	-10.6839
民間	-10.6839
令人喜悅適意	-10.6839
模式	-10.684
災難	-10.684
舉揚	-10.6844
這個問題	-10.685
美德	-10.6851
應成	-10.6852
惟願	-10.6853
六賊	-10.6854
譯出	-10.6855
圓覺經	-10.6857
提到的	-10.6857
皆能	-10.6858
色彩	-10.6861
慈覺	-10.6861
粗重	-10.6862
下劣	-10.6867
佛國	-10.6867
長安	-10.6874
差異	-10.6877
所說法	-10.6881
向他	-10.6884
信香	-10.6888
他說	-10.689
的時候	-10.6893
所謂的	-10.6898
乃是	-10.6903
辦法	-10.6903
淨想	-10.6905
三重	-10.6906
十方諸佛	-10.691
無名	-10.6911
所緣境	-10.6911
很高興	-10.6915
子一	-10.692
明淨	-10.6925
見其	-10.6928
句子	-10.6928
破戒	-10.6931
之大	-10.6932
非不	-10.6934
到經本	-10.6937
如雲	-10.6938
經過	-10.6939
手執	-10.6941
問言	-10.6943
堅持	-10.6946
雖無	-10.6949
dh	-10.6958
以自	-10.6961
作法	-10.6963
有智者	-10.6965
明珠	-10.6965
善不善	-10.6968
法樂	-10.6975
心性	-10.6976
佛心	-10.6981
六入	-10.6982
有別	-10.6985
放光	-10.6988
的重要	-10.6997
的記載	-10.6997
無差別	-10.6999
放在	-10.7006
觀世音菩薩	-10.7007
造罪	-10.701
計人	-10.7013
與我	-10.7013
煩惱障	-10.7023
修持	-10.7024
真智	-10.7025
之補特伽羅	-10.7029
之差別	-10.703
只有	-10.7033
一面	-10.7042
悉應	-10.7044
要須	-10.7055
出世間	-10.7056
亦須	-10.7061
請為	-10.7061
10.	-10.7066
的地方	-10.7069
不明	-10.7074
法義	-10.7074
舌根	-10.7076
應物	-10.7076
之主	-10.7089
即成	-10.7096
其光	-10.7097
欲明	-10.7098
中無	-10.7104
今世	-10.7119
我執	-10.7121
若此	-10.7123
應供	-10.7124
時節	-10.7124
喻如	-10.7124
苦難	-10.7128
97	-10.7132
不再	-10.7133
【	-10.7138
無為法	-10.7141
禮懺	-10.7143
無念	-10.7143
此第三	-10.7149
三昧經	-10.7152
結構	-10.7157
慈母	-10.7159
體也	-10.7163
得果	-10.7164
不修	-10.7168
如是世尊	-10.7169
意根	-10.7175
愛見	-10.7176
微點	-10.7177
世界的	-10.7187
出定	-10.7193
眾生見	-10.7199
大量	-10.7201
普為	-10.7202
苦滅	-10.7212
更相	-10.7214
戒者	-10.7219
譯經	-10.7223
道品	-10.7223
所取	-10.7228
或以	-10.7228
初文分	-10.7231
役	-10.7233
於前	-10.7233
的問題	-10.724
咬	-10.7241
為大	-10.7245
二空	-10.7245
物質	-10.7246
又言	-10.7249
涼	-10.7253
傍	-10.7254
龍興寺	-10.7254
的身體	-10.7256
名也	-10.7257
稻	-10.7257
饒	-10.7257
裂	-10.7257
毗婆沙師	-10.726
沐	-10.726
皈命	-10.7261
以何	-10.7263
的大藏經	-10.7263
論應知	-10.7263
倘	-10.7265
泡	-10.7265
殖	-10.7265
粘	-10.7266
增減	-10.7266
壯	-10.7266
若有善男子	-10.7267
舟	-10.7269
鳳	-10.7269
狹	-10.7269
須彌山	-10.727
菜	-10.727
驕	-10.7271
安慰	-10.7272
拂	-10.7272
製	-10.7273
實踐	-10.7273
堅牢	-10.7274
休息	-10.7274
毒藥	-10.7274
是菩薩淨土	-10.7275
H	-10.7275
勘	-10.7275
嗟	-10.7276
繫縛	-10.7276
彈指	-10.7276
鈍根	-10.7276
無言	-10.7277
以體收相	-10.7277
立彼宗	-10.7277
作者不詳	-10.7278
幫助	-10.7278
圖書館	-10.7278
dvi	-10.7278
二百	-10.7279
斥	-10.7279
欠	-10.728
世諦	-10.728
地獄中	-10.728
費	-10.7282
延昌	-10.7282
扇	-10.7282
永樂大典	-10.7282
為此	-10.7282
趙城金藏	-10.7282
生死苦	-10.7283
安隱	-10.7284
括	-10.7285
地藏菩薩十齋日	-10.7286
昭	-10.7286
滋	-10.7286
首尾	-10.7287
美女	-10.7287
巾	-10.7287
微塵數	-10.7288
阿那含經	-10.729
雞	-10.7291
的基本	-10.7291
茶	-10.7292
順序	-10.7292
寶座	-10.7293
清楚	-10.7294
十六種	-10.7295
應了了分明	-10.7295
善吉	-10.7296
教授	-10.7297
慾望於此	-10.7297
手等	-10.7298
異生	-10.7301
忉利天	-10.7302
五官	-10.7306
妄心	-10.7307
身份	-10.7309
ava	-10.7309
主治	-10.7314
《〈	-10.7315
(6	-10.7315
誓言	-10.7318
不能救	-10.7319
心肝	-10.732
親近	-10.7323
萬億	-10.7327
無執受	-10.7328
論述了	-10.7331
所修	-10.7334
宮殿	-10.7338
君子	-10.7338
著述	-10.7341
歸命	-10.7341
法故	-10.7343
品行	-10.7344
分離	-10.7349
二相	-10.7351
兩字	-10.7352
大法	-10.7353
此理	-10.7356
二答	-10.7356
記錄	-10.736
完全智	-10.7361
明顯	-10.7365
欲得	-10.7367
得益	-10.7373
兒子	-10.7376
三摩耶	-10.7377
恒時	-10.7378
等故	-10.7384
孝道	-10.7385
佛及	-10.7385
慧命	-10.7386
不喜	-10.7386
不放逸	-10.7389
佛前	-10.739
瞋恨	-10.7393
後時	-10.7398
標題	-10.74
總答	-10.74
三界外	-10.7404
不詳	-10.741
遍法界	-10.7411
輕微	-10.7412
儀式	-10.7413
正好	-10.7413
若我	-10.7418
或在	-10.7421
之福	-10.7426
但坐	-10.743
尚有	-10.7436
此行	-10.7437
見道	-10.7441
佛眼	-10.7444
佛教的	-10.7447
彼如是	-10.7451
神王	-10.7457
74	-10.7458
定慧	-10.7462
離去	-10.7463
誦出	-10.7469
罪愆	-10.747
統一	-10.747
罪障	-10.7473
各地	-10.7474
婆囉	-10.7474
林中	-10.7475
或於	-10.7476
滿願	-10.7483
無非是	-10.7485
方知	-10.7489
使者	-10.75
以此為	-10.7502
品經	-10.7505
不來	-10.7513
內有	-10.7513
得自在	-10.7516
無情	-10.7517
5)	-10.7519
顯真	-10.7521
之王	-10.7528
49	-10.7529
存在於	-10.7529
事實	-10.7531
有八萬四千	-10.7533
不合	-10.7544
我此身	-10.7545
無眾生	-10.7545
女身	-10.7547
婆伽	-10.7549
常能	-10.7557
遍十方	-10.7563
心要	-10.7566
心淨	-10.7571
正破	-10.7572
波羅蜜多	-10.7572
故我	-10.7573
華嚴宗	-10.7576
抄經	-10.7594
同體	-10.7594
報應	-10.7594
的目錄	-10.7595
願心	-10.7595
千生	-10.7596
有八	-10.7601
中有三	-10.7602
賤	-10.7602
無量無邊	-10.7604
百萬	-10.7606
依持	-10.7607
種性	-10.7607
不聞	-10.7607
即知	-10.7614
絕無	-10.7621
善心	-10.7622
凡人	-10.7628
生生	-10.7629
證入	-10.763
既是	-10.7635
周遍	-10.7643
十卷	-10.7643
六處	-10.7644
ād	-10.7647
門中	-10.7649
此義	-10.7654
為養	-10.7664
91	-10.7674
由彼	-10.7681
有心	-10.7685
即於	-10.7685
體現	-10.7689
一起	-10.7698
份	-10.7699
朝時	-10.77
阿伽	-10.77
四海	-10.7705
謂於	-10.772
的時間	-10.7722
管	-10.7724
謂由	-10.7725
衝	-10.7725
又是	-10.7726
團	-10.7728
未知法中	-10.7728
串習	-10.7729
本源	-10.773
耽著	-10.773
一切世間	-10.773
的確	-10.7731
驕慢	-10.7731
於世間一切事物也無所執取	-10.7732
躍	-10.7733
針	-10.7734
魅	-10.7734
戈	-10.7734
由於專心繫念而認清	-10.7734
吐	-10.7734
一類	-10.7734
故此	-10.7734
斧	-10.7736
海會佛菩薩	-10.7737
見性	-10.7737
頸	-10.7738
不止	-10.7739
重擔	-10.7739
寢	-10.7739
懂	-10.7741
懇	-10.7741
蓬	-10.7741
朱	-10.7742
聖眾	-10.7742
唱題	-10.7742
捕	-10.7743
諾	-10.7743
徐	-10.7743
付囑	-10.7744
三相	-10.7744
囊	-10.7744
晨	-10.7744
宣演	-10.7745
憍	-10.7745
耕	-10.7745
纖	-10.7746
鴻	-10.7746
賣	-10.7746
生苦	-10.7747
揀	-10.7747
蔓	-10.7747
8)	-10.7748
猛火	-10.7748
暖	-10.7748
報恩會上	-10.7748
五十	-10.775
的一種	-10.775
馬立奇	-10.7751
右半葉	-10.7752
庫	-10.7752
聖典智	-10.7752
逐漸	-10.7752
策	-10.7753
真常	-10.7753
daśa	-10.7753
摘	-10.7753
邏	-10.7754
bhāva	-10.7754
泯	-10.7754
敬拜	-10.7754
擾	-10.7754
誠心仰請	-10.7755
伐	-10.7755
膝	-10.7756
放棄	-10.7756
刀山	-10.7757
修菩薩行	-10.7757
今欲	-10.7757
耆	-10.7757
所斫	-10.776
這批	-10.776
修福	-10.776
程度	-10.7763
撰述	-10.7764
歡樂	-10.7765
運動	-10.7765
保留	-10.7766
加持誦	-10.7767
涅	-10.7769
戌	-10.7769
勢至	-10.777
般若得經	-10.777
醫王	-10.7773
隨逐	-10.7775
抄錄	-10.7775
冤結	-10.7777
具備	-10.7778
證果	-10.7778
祖師	-10.7778
今朝	-10.7779
大藏經的	-10.778
香壇	-10.7781
這說明	-10.7783
澄觀	-10.7784
恢復	-10.7785
一旦	-10.7785
雖殊	-10.7785
敦煌禪籍	-10.7786
恩愛	-10.779
暇滿	-10.779
形像	-10.7791
。3	-10.7792
七年	-10.7794
涉及	-10.7794
怛他伽哆	-10.7794
便能	-10.7794
心王經	-10.7795
普使	-10.7801
染污	-10.7801
奉請	-10.7805
的五種	-10.781
個性	-10.7812
周錄	-10.7813
怛羅	-10.7817
女神	-10.782
聞思	-10.7827
德也	-10.7827
迦葉菩薩	-10.7829
否則	-10.783
為義	-10.783
善人	-10.7834
的觀點	-10.784
家中	-10.784
善趣	-10.784
音義	-10.7842
但由於	-10.7843
為說法	-10.7847
依彼	-10.7848
從緣	-10.7851
講說	-10.7852
何名	-10.7863
為當	-10.7865
相到	-10.7866
若許	-10.7869
翻譯的	-10.7871
昔時	-10.7873
妙理	-10.7882
勝利	-10.7887
已生	-10.789
摩訶般若波羅蜜	-10.7892
以何為	-10.7894
惑也	-10.7894
所樂	-10.7896
若離	-10.7901
瞋心	-10.7902
的結構	-10.7908
破壞	-10.791
百億	-10.7913
一字	-10.7915
作沙門	-10.7916
共住	-10.7918
俱有	-10.7924
大致	-10.7926
尚不	-10.7934
業力	-10.7935
魔王	-10.794
於諸有情	-10.7942
4)	-10.7944
祇能	-10.7945
即名	-10.7947
說者	-10.7948
說之	-10.7948
昧於	-10.7956
須依	-10.7961
最大	-10.7963
道心	-10.7967
想著	-10.7972
何事	-10.7975
知足	-10.7975
萬善	-10.7982
死者	-10.7991
達到	-10.7994
,10	-10.7995
是一個	-10.7996
月一日	-10.7998
有為法	-10.7999
同為	-10.8004
上文	-10.8008
總之	-10.801
vā	-10.8012
釋迦牟尼	-10.8015
諸佛子	-10.8023
著名	-10.8025
四攝	-10.8026
斷絕	-10.8027
ja	-10.8029
是研究	-10.804
修得	-10.8044
心是	-10.8055
六師	-10.8056
都有	-10.8065
一切佛	-10.8068
為孝	-10.807
的形態	-10.8075
淨戒	-10.8078
能取	-10.8078
不假	-10.8079
無滅	-10.8081
是空	-10.809
聞聲	-10.809
的影響	-10.8091
其父	-10.8092
明立	-10.8094
虛名	-10.8094
之地	-10.8099
妙音	-10.8102
能壞	-10.8104
不名	-10.8105
是由	-10.8109
居住	-10.8114
不造	-10.8116
婆耶	-10.8123
7、「	-10.8126
雜染	-10.8128
三皈	-10.813
三輪	-10.8135
不如法	-10.8136
愛者	-10.8141
他作	-10.8154
但以	-10.8156
」,「	-10.8158
子孫	-10.816
自性空	-10.8161
香水	-10.8161
有疾	-10.8163
暫時	-10.8164
anta	-10.8166
彌勒菩薩	-10.8172
兩行	-10.8172
四依	-10.8174
依經	-10.8175
真身	-10.8177
皆空	-10.8179
千萬	-10.818
眾聖	-10.8192
慾	-10.8194
如有	-10.8198
永不	-10.8199
他是	-10.8203
我愛執持	-10.8203
住世	-10.8204
復言	-10.8205
性地	-10.8213
餓	-10.8215
不易	-10.8215
濡	-10.8221
不空	-10.8225
之際	-10.8226
掉	-10.8228
出品名	-10.823
嗚呼	-10.823
還同	-10.823
D	-10.8232
C	-10.8232
皎	-10.8233
醒	-10.8234
舍衛城	-10.8235
乏	-10.8236
愚昧	-10.8236
津梁	-10.8236
植	-10.8237
飢渴	-10.8237
蘇那	-10.8238
液	-10.8238
灼	-10.8238
袈裟	-10.8239
荷	-10.8239
靠	-10.824
惶	-10.824
薪	-10.824
造業	-10.8241
等同	-10.8241
爰	-10.8242
為斷此疑	-10.8242
繩	-10.8243
王舍城	-10.8243
竺	-10.8243
江河	-10.8243
美妙	-10.8244
睡眠	-10.8244
渴仰	-10.8244
是名為	-10.8244
陣	-10.8244
熾盛	-10.8245
吞	-10.8245
聽到這些話	-10.8245
夕	-10.8245
迅速	-10.8245
塊	-10.8246
降魔	-10.8247
湛	-10.8247
近代抄本	-10.8247
臥具	-10.8248
雙手合十	-10.8249
儀宣演	-10.8249
虧	-10.825
泰	-10.8251
寡	-10.8251
劬勞	-10.8251
塞那克	-10.8251
咽	-10.8251
進一步	-10.8251
跪	-10.8251
森林	-10.8252
纂	-10.8252
百千劫	-10.8252
精舍	-10.8253
天竺	-10.8253
峰	-10.8253
(2)	-10.8254
併	-10.8255
控制	-10.8255
艱苦	-10.8256
一由旬純黃金色	-10.8257
西域	-10.8257
湖	-10.8257
蒭	-10.8257
折磨	-10.8257
化導	-10.8258
某些	-10.8258
尊貴	-10.8259
度人	-10.8259
願消滅	-10.8261
佛為心王菩薩說頭陀經	-10.8261
享樂	-10.8263
三十七品	-10.8264
感官	-10.8265
讚頌	-10.8265
法無我	-10.8265
麥	-10.8267
無可	-10.8268
境界有對	-10.8269
襲	-10.827
藏經洞	-10.8271
中尊	-10.8272
永無	-10.8273
陀耶	-10.8275
現法	-10.8277
拔苦	-10.8279
瑟	-10.8281
分作	-10.8282
食之	-10.8282
曷為	-10.8285
根源	-10.8286
假使	-10.829
以智慧	-10.829
頭頂	-10.8291
(1)	-10.8291
三有	-10.8292
較多	-10.8295
姑	-10.8296
思量	-10.8298
神足	-10.8299
開元	-10.83
▁B	-10.83
未來世	-10.8301
滿馱	-10.8303
亦應如是	-10.8304
宗旨	-10.8305
五色	-10.8311
有境	-10.8312
下文	-10.8314
為何	-10.8316
復原	-10.8318
排除	-10.832
衣食	-10.8321
食肉者	-10.8321
六趣	-10.8322
拖	-10.8324
義者	-10.8326
實際上	-10.8329
妄識	-10.8329
無性	-10.8331
。—	-10.8333
81	-10.8337
懷疑	-10.8341
對研究	-10.8343
四部	-10.8345
雖非	-10.8345
常行	-10.8351
前述	-10.8352
像前	-10.836
證涅槃	-10.8363
āni	-10.8366
二人	-10.8369
利物	-10.8371
請師	-10.8371
作大	-10.8372
在內	-10.8373
傳統	-10.8375
難知	-10.8376
諦實成就	-10.8381
一聲	-10.839
初明	-10.8391
妙善	-10.8391
乙本	-10.8391
面前	-10.8393
引證	-10.8394
經疏	-10.8395
惡心	-10.8395
修淨土	-10.8397
諸有	-10.8404
總體	-10.8408
本尊	-10.8416
理無	-10.8416
時年十	-10.8419
部經	-10.842
何謂為	-10.8423
bha	-10.8431
受諸	-10.8439
取其	-10.8441
之首	-10.8443
九十	-10.8445
日日不	-10.8445
已得	-10.8445
51	-10.8451
五分	-10.8463
原本	-10.8464
大品	-10.8465
千劫	-10.847
眾德	-10.8484
經卷	-10.8484
疏釋	-10.8491
皆以	-10.8491
四十	-10.8494
盡力	-10.8503
)《	-10.8506
非命	-10.8509
止息	-10.8513
一紙	-10.8515
轉化	-10.8534
題目	-10.8537
悔過	-10.8543
的註釋	-10.8543
實智	-10.8549
是常	-10.8551
向佛	-10.8552
七住	-10.8553
□□□□□□□	-10.8556
與佛	-10.8557
中品	-10.8561
是真	-10.8564
多羅	-10.8564
目的	-10.8564
所致	-10.8568
為令	-10.8574
不悟	-10.8576
錄校	-10.8582
云何不	-10.8584
為緣	-10.8586
諸蘊	-10.8587
毛孔	-10.8604
能持	-10.8608
各異	-10.8614
說也	-10.8622
一條	-10.8622
有多	-10.8625
道根	-10.8627
令他	-10.8628
令諸	-10.8631
至少	-10.8631
可能是	-10.8632
的藏經	-10.8639
聞者	-10.8641
卷三	-10.865
行布施	-10.8654
是個	-10.8654
十億	-10.8658
92	-10.8662
文五	-10.8666
感得	-10.8667
應該是	-10.8667
與其	-10.867
有兩	-10.8673
刪	-10.8677
自在轉	-10.8679
普光	-10.8685
為道	-10.8685
淨心	-10.8686
樣	-10.8693
三尊	-10.8703
足下	-10.8704
得授記	-10.8713
之文	-10.8714
有差別	-10.8714
作福	-10.8714
自性成就之	-10.8715
於何	-10.8721
生疑	-10.8722
永離	-10.8726
許為	-10.8729
ch	-10.873
□□□□□	-10.8732
邪正	-10.8734
山中	-10.8738
見此	-10.874
迦旃延	-10.874
所出	-10.8741
唯佛	-10.8744
一件	-10.8744
壓	-10.8752
偉大	-10.8752
口中	-10.8756
喧	-10.8758
發無上正真道意	-10.8758
遶	-10.8761
穩	-10.8761
煉	-10.8762
塚間	-10.8762
應諾	-10.8762
艱辛	-10.8763
戒行	-10.8763
拋	-10.8765
尸羅	-10.8765
盤	-10.8765
技	-10.8766
曆	-10.8766
黨	-10.8767
助伴	-10.8767
捲	-10.8767
於父母	-10.8768
吹	-10.8769
有著	-10.877
逮	-10.877
墨	-10.8771
觀世音	-10.8772
受到	-10.8772
吏	-10.8772
首殘	-10.8773
都無	-10.8773
縮	-10.8773
躬	-10.8773
乍	-10.8773
突	-10.8773
浩浩	-10.8774
憒鬧	-10.8774
幹	-10.8774
地水火風	-10.8775
阿含經	-10.8775
循	-10.8775
匹	-10.8776
佚	-10.8777
曇	-10.8777
刀杖	-10.8777
勝鬘	-10.8778
貪求	-10.8778
廣品歷章	-10.8778
心要法門	-10.8778
譬如有人	-10.8779
帛	-10.8779
泛	-10.8779
J	-10.878
明立論因	-10.878
若不爾者	-10.878
黑城本	-10.878
以此驗	-10.878
誠心禮別	-10.8781
掩	-10.8781
甚多世尊	-10.8782
調查	-10.8782
K	-10.8782
中央	-10.8782
願此	-10.8783
涼土	-10.8783
羅網	-10.8784
隋代	-10.8784
琉璃光	-10.8784
釋迦如來	-10.8784
闡提	-10.8784
威光	-10.8784
召請	-10.8784
能與眾生	-10.8785
吳	-10.8786
覆障	-10.8786
十世紀	-10.8787
不肯	-10.8787
崔法珍	-10.8787
聞是	-10.8787
長養	-10.8787
家祕	-10.8788
孕	-10.8788
完全相同	-10.8789
題名	-10.8789
之功	-10.879
魔旬	-10.8792
仁宗	-10.8792
其他經錄	-10.8792
增加	-10.8793
乃能	-10.8797
輕安	-10.88
民眾	-10.88
佐	-10.8801
羝	-10.8802
國王啊	-10.8803
皆消滅	-10.8803
過程中	-10.8803
梵語	-10.8804
身為	-10.8805
叢林	-10.8805
信士	-10.8808
七地	-10.8809
妄計	-10.881
以是	-10.8811
分成	-10.8812
啟問	-10.8815
頂上	-10.8816
遠近	-10.8816
為正	-10.8817
五識身	-10.8817
得出	-10.8818
達磨	-10.8818
睇	-10.8819
遺書	-10.8819
南宋	-10.8819
好象	-10.882
苦滅道	-10.8822
後三	-10.8822
看看	-10.8826
二卷本	-10.8826
今我	-10.8826
十八界中	-10.8827
戌涅	-10.8827
編撰	-10.8829
師資	-10.883
圓通	-10.8833
阿彌	-10.8833
數數	-10.8835
得無生忍	-10.8837
喜捨	-10.8838
世界海	-10.8847
am	-10.8848
青色	-10.8849
止觀	-10.885
喻比丘	-10.885
兩節	-10.8853
往往	-10.8857
十八種	-10.886
白世尊	-10.8866
九品	-10.8867
焚燒	-10.8869
見我	-10.8873
萬德	-10.8874
,15	-10.8878
密意	-10.888
色相	-10.888
著我	-10.8881
相應法	-10.8882
特點	-10.8883
17、	-10.8883
非虛	-10.8884
upa	-10.889
相離	-10.8891
我若	-10.8899
持誦	-10.8904
亦以	-10.8906
前際	-10.8909
非理	-10.8912
若有眾生	-10.8918
變現	-10.8922
實不	-10.8925
據說	-10.8929
辟支佛	-10.8931
略有	-10.8934
見解	-10.8937
內地	-10.8938
請求	-10.8938
藏外	-10.8944
以其	-10.8948
造下	-10.8949
將軍	-10.8955
我自	-10.8955
漏盡	-10.8958
大小乘	-10.8961
亦不應	-10.8961
要是	-10.8967
惡念	-10.8973
大弟子	-10.8974
若住	-10.8979
sā	-10.8981
置於	-10.8981
事情	-10.8982
父子	-10.8985
見彼	-10.8992
法藏	-10.8992
該經的	-10.8996
使我	-10.9
三災	-10.9003
正真	-10.9003
申三	-10.9006
如今	-10.9008
妄見	-10.9009
五月	-10.9019
陀羅尼經	-10.9025
也可以	-10.9026
觸處	-10.9029
因明	-10.9032
眼見	-10.904
者何	-10.904
三生	-10.904
甚難	-10.9043
有過	-10.9044
念處	-10.9044
造論	-10.9046
此說	-10.9046
夢見	-10.9048
有學	-10.9049
了達	-10.905
金剛般若	-10.9052
悟道	-10.9077
行悲	-10.9079
不任	-10.908
難可	-10.9082
若由	-10.9083
長生	-10.9086
▁5	-10.9088
觀法	-10.9092
進入	-10.9092
大苦	-10.9098
嚩日囉	-10.9099
何人	-10.91
意業	-10.9101
三摩	-10.9102
對境	-10.9104
定心	-10.9107
是苦	-10.9113
無違	-10.9113
由他	-10.9116
則成	-10.9117
能證	-10.9119
福慧	-10.9127
降生	-10.913
傳說	-10.9137
伽藍	-10.9137
手持	-10.9139
所有的人	-10.9143
常自	-10.9144
不貪	-10.9146
(10	-10.9147
的願望	-10.9148
眾善	-10.9149
體非	-10.915
前說	-10.9153
覺知	-10.9154
意地	-10.9159
四年	-10.9159
之恩	-10.9164
此後	-10.9167
斷常	-10.9172
此答	-10.9172
勤精進	-10.9173
雖行	-10.9174
99	-10.9176
當於	-10.918
達囉	-10.9182
行動	-10.9183
可以肯定	-10.9189
病者	-10.9192
法喜	-10.9192
三心	-10.9195
沙數	-10.9223
獲福	-10.9224
一毫	-10.9226
高興地	-10.9226
未作	-10.923
可能性	-10.9231
本空	-10.9233
能如是	-10.9233
昔有	-10.9234
而在	-10.9235
後不久	-10.9237
行法	-10.9237
新譯	-10.924
如其	-10.9241
是一種	-10.9248
故非	-10.9253
有限	-10.9255
雖是	-10.9259
相關	-10.926
〈	-10.9262
四眾	-10.9265
無所染	-10.9265
從無始	-10.9268
未離	-10.9269
食物	-10.9273
現相	-10.9276
明因	-10.9278
非時	-10.9279
九歲	-10.9281
法律	-10.9282
正理	-10.9282
又如	-10.9283
的第一	-10.9285
獨立	-10.929
和上	-10.9296
一部分	-10.9296
捨衛城	-10.9299
奧	-10.9302
得人身	-10.9303
圓珍的	-10.9303
阿那含	-10.9304
竊	-10.9304
結勸	-10.9305
即從座起	-10.9306
以大悲	-10.9306
閻羅	-10.9307
(?)	-10.9308
霞	-10.931
他自己	-10.931
枕	-10.9313
警策大眾	-10.9314
亮	-10.9315
然燈佛	-10.9316
拳	-10.9316
高興	-10.9316
貪瞋癡	-10.9317
我師	-10.9317
有四種	-10.9318
暢	-10.9318
整個	-10.9319
漂	-10.9319
莫作是念	-10.9319
三句	-10.9319
三藐三菩提	-10.9319
煮	-10.932
適悅	-10.932
渾	-10.932
樓閣	-10.932
為他人說	-10.9321
降臨道場	-10.9321
何物	-10.9323
優曇	-10.9323
大孝釋迦佛	-10.9324
攝受報恩	-10.9324
星宿	-10.9324
最上乘	-10.9325
衡	-10.9325
以是義故	-10.9325
誘	-10.9325
矜	-10.9325
剩	-10.9325
淳	-10.9326
諧	-10.9327
朵	-10.9327
憫	-10.9327
陀囉	-10.9327
盆	-10.9327
告言	-10.9327
綴	-10.9328
妖	-10.9328
。......	-10.9329
具足色身	-10.9329
趙	-10.933
無生法忍	-10.933
俯	-10.933
毗盧遮那	-10.933
屍林	-10.9331
綜	-10.9332
以下簡稱	-10.9332
熏	-10.9332
世尊在	-10.9332
廓	-10.9332
砂	-10.9333
卷五	-10.9333
無量劫來	-10.9333
茂	-10.9334
§9.2	-10.9334
有實	-10.9334
追悔	-10.9334
苟	-10.9335
戲論	-10.9335
parā	-10.9335
型	-10.9335
喝	-10.9336
掌握	-10.9336
規範	-10.9336
在僧法誦出經中著錄	-10.9336
空無所有	-10.9336
長行及偈	-10.9337
森林裏	-10.9337
三階佛法	-10.9337
總是	-10.9338
的淨修林	-10.9338
章句	-10.9339
死入地獄	-10.9339
豆	-10.934
祭祀	-10.9342
若在	-10.9342
北京	-10.9342
辭彙	-10.9343
刊刻	-10.9346
形容	-10.9346
大罪	-10.9346
傾向	-10.9346
墮落	-10.9347
淺深	-10.9348
作如是言	-10.935
啟請	-10.935
簡單	-10.935
多方	-10.9351
發表	-10.9354
宴	-10.9356
教化眾生	-10.9357
險道	-10.9357
書中	-10.9357
》,《	-10.936
法想	-10.9361
採用	-10.9361
上方	-10.9361
細微	-10.9361
43	-10.9364
濟度	-10.9364
念彌陀	-10.9365
無量劫	-10.9365
聞之	-10.9365
美惡	-10.9366
不變	-10.9366
或云	-10.9366
方按	-10.9367
任持	-10.937
奉親	-10.9378
三十六	-10.938
專注	-10.938
有一定的	-10.9381
予以	-10.9382
能詮	-10.9382
同嘆	-10.9382
父親	-10.9384
日改為	-10.9384
感到	-10.9386
懷著	-10.9387
分段	-10.9391
惡魔	-10.9391
行施	-10.9391
得之	-10.9396
嚴淨	-10.9397
二十五	-10.9397
會啟	-10.9399
凡情	-10.9399
故得	-10.9399
三曼	-10.94
香味	-10.9403
告訴	-10.9403
第二部分	-10.9404
不可稱	-10.9404
這部經	-10.9404
空故無	-10.9412
母親	-10.9412
城中	-10.9412
眾生佛性	-10.9424
末後	-10.9425
象王	-10.9425
安心	-10.9429
向上	-10.9432
妄念	-10.9433
土地	-10.9434
極大	-10.9437
73	-10.9439
總錄	-10.9439
接受	-10.9443
尚未	-10.9444
不善業	-10.9444
妙藥	-10.9445
相當於	-10.9446
漢譯	-10.9447
菩薩成佛	-10.9447
七月	-10.9453
首部	-10.9457
高尚	-10.9459
離開	-10.9462
二十四	-10.9462
不免	-10.9466
聖位	-10.947
?』	-10.9471
身語	-10.9474
執著	-10.9477
難以	-10.9479
使他	-10.948
懺儀	-10.948
佛號	-10.9481
不忘	-10.9485
中亦有	-10.9485
教義	-10.949
而安立	-10.9491
90	-10.9491
十住	-10.9491
之體	-10.9494
分位	-10.9497
漸漸	-10.9497
紫金	-10.9506
以致	-10.9509
發現了	-10.951
此言	-10.9511
名利	-10.9512
真心	-10.9515
所破	-10.9517
之我慢	-10.9517
懺法	-10.952
禪觀	-10.9525
阿利	-10.9529
空海	-10.9529
即應	-10.954
不可具	-10.9541
六個	-10.9541
不分別	-10.9547
來說	-10.9552
未一	-10.9552
人我	-10.956
這一切	-10.956
同類	-10.9563
或作	-10.9564
256	-10.9567
病苦	-10.9572
且道	-10.9575
神明	-10.9582
囉吽	-10.9586
修證	-10.9587
至誠	-10.9591
修慧	-10.9592
萬歲	-10.9598
又以	-10.9599
三百	-10.96
ak	-10.9601
眾會	-10.9602
令諸眾生	-10.9602
起心	-10.9604
諸大菩薩	-10.9605
願望	-10.9607
餘法	-10.9612
事物的	-10.9617
今將	-10.9619
古人	-10.9625
非由	-10.963
研究者	-10.963
的名稱	-10.9631
修成	-10.9633
大梵天	-10.9641
的一切	-10.9653
段文字	-10.9658
塵塵	-10.9662
既至	-10.9677
我王	-10.9677
捨壽	-10.9678
了了	-10.9679
惡口	-10.9686
你要	-10.9686
前面	-10.9689
誐誐	-10.9701
如山	-10.9703
表明	-10.9706
義理	-10.9718
未盡	-10.972
若彼	-10.9722
果位	-10.9723
樂聞	-10.9736
42	-10.9741
辟支	-10.9744
何得	-10.9744
是因為	-10.9746
無求	-10.9747
檀那	-10.9752
不由	-10.9755
下面	-10.9755
sam	-10.9758
諸光	-10.976
生瞋	-10.976
其理	-10.976
無對	-10.9761
不犯	-10.9765
不息	-10.9778
唯依	-10.9779
不待	-10.9779
得到的	-10.9784
及與	-10.9789
日夜	-10.9797
顯然是	-10.9799
供佛	-10.9799
六欲	-10.9804
實性	-10.9808
此陀羅尼	-10.9809
94	-10.981
香雲	-10.9813
四智	-10.9815
淨壇	-10.9815
八部	-10.982
這些話	-10.9833
法食	-10.9839
那耶	-10.9841
未必	-10.9843
四蘊	-10.9847
告阿難	-10.9848
食者	-10.9864
48、	-10.9864
不攝	-10.9865
於何處	-10.9865
旦	-10.987
說完	-10.9879
編號	-10.988
欲望	-10.9882
冤債	-10.9882
心住	-10.9889
醫藥	-10.9892
法音	-10.9893
有尋有伺	-10.9893
銜接	-10.9893
鬚	-10.9895
鈍	-10.9896
臻	-10.9898
豁	-10.9898
諮	-10.9899
那裏	-10.9899
速疾	-10.9901
雕	-10.9902
應斷	-10.9903
奇妙稀有之法	-10.9903
作惡	-10.9903
軟	-10.9903
盤陀	-10.9904
伏願特垂	-10.9904
庸	-10.9905
郎	-10.9905
恐懼	-10.9907
忙	-10.9907
隊	-10.991
勒	-10.991
十二支法	-10.991
無生無滅	-10.9911
霧	-10.9911
勵	-10.9912
南北朝	-10.9912
討	-10.9912
養育	-10.9913
絲	-10.9913
姚	-10.9913
啼	-10.9913
流浪	-10.9914
眠	-10.9914
嘿	-10.9915
佳	-10.9915
不虛	-10.9915
至佛所	-10.9915
常樂我淨	-10.9915
藥師琉璃光王佛	-10.9916
乾坤	-10.9917
莊	-10.9917
端直	-10.9918
羸	-10.9918
析津志	-10.9918
焚香	-10.9919
團圓	-10.9919
陵	-10.9919
四卷	-10.992
傷害	-10.992
宗派	-10.9921
範疇	-10.9921
距	-10.9921
其餘部分未收	-10.9922
負財	-10.9922
的重要資料	-10.9922
芬芳	-10.9922
除罪一千	-10.9923
藥師尊	-10.9923
踏	-10.9923
李	-10.9923
準備	-10.9923
擬題	-10.9923
預流	-10.9923
但均未著錄見	-10.9924
剖	-10.9924
ṛ	-10.9925
當知是人	-10.9926
左半葉	-10.9926
強調	-10.9926
彙	-10.9926
展轉	-10.9927
詰	-10.9927
詠	-10.9927
衍	-10.9927
促	-10.9928
難敵王	-10.9928
為先	-10.9928
宴坐	-10.9929
慳貪	-10.993
號背面	-10.993
改變	-10.993
省察	-10.9931
閻浮	-10.9932
武帝	-10.9932
教團	-10.9933
八住以上	-10.9933
902	-10.9933
心識	-10.9934
大王莫	-10.9934
通塞	-10.9936
髏	-10.9936
充滿著	-10.9936
代表	-10.9936
爾許	-10.9936
火宅	-10.9937
評	-10.9937
遼	-10.9938
棄捨	-10.9938
最早	-10.9938
無所畏	-10.994
永超	-10.994
構成	-10.994
郡	-10.9941
信禮	-10.9942
爍	-10.9942
這部經在	-10.9943
呬	-10.9943
縱使	-10.9943
手足	-10.9944
趙渢碑	-10.9945
宿命	-10.9947
五代	-10.9948
捺	-10.9949
初靜慮	-10.9949
能斫	-10.9951
美好	-10.9952
永絕	-10.9953
這些經典	-10.9953
來驗	-10.9955
的功德	-10.9956
非謂	-10.9958
存在著	-10.9959
版本	-10.996
真偽	-10.996
卜	-10.9962
勿令	-10.9964
若善男子	-10.9966
adhi	-10.9968
行處	-10.9971
愛河	-10.9973
薩訶	-10.9973
壽者見	-10.9974
虛假	-10.9975
不等	-10.9977
護國	-10.9978
取境	-10.9978
很難	-10.9978
作如是說	-10.9978
腹中	-10.9978
致力	-10.9979
聚集	-10.9979
花雨	-10.9981
對照	-10.9982
來去	-10.9982
利害	-10.9984
跋折	-10.9985
入壇	-10.9985
超過	-10.9986
帙號	-10.9986
齋食	-10.9987
花開	-10.9988
全國	-10.9989
厭離	-10.999
31	-10.9992
眼目	-10.9992
淨飯王	-10.9992
一切善法	-10.9993
冤業	-10.9993
較大	-10.9993
學習	-10.9995
很多	-10.9997
字母	-10.9997
承事	-10.9999
光輝	-11
高僧	-11.0005
大門第	-11.0006
麼囉	-11.0008
眾緣	-11.0012
難忍	-11.0016
並沒有	-11.002
的性質	-11.002
摩細	-11.0022
真正的	-11.0023
知恩	-11.0024
摧毀	-11.0025
識界	-11.0027
不立	-11.0027
願垂	-11.0029
版心	-11.0032
此答也	-11.0033
道果	-11.0034
答云	-11.0039
妙覺	-11.0039
脫離	-11.004
觀行	-11.004
化物	-11.004
等眼	-11.0044
結縛	-11.0047
若作	-11.0048
上師	-11.0049
譯作	-11.0049
我聞	-11.0051
明緣起	-11.0052
無暇	-11.0052
道俗	-11.0054
續藏	-11.0055
女孩	-11.0057
合為一	-11.0057
如夢	-11.0057
行詣	-11.0057
自在王	-11.0063
洪名	-11.0064
14、	-11.0066
上座	-11.007
諸佛如來	-11.007
電光	-11.0071
相忘	-11.0071
理中	-11.0076
座上	-11.0076
一毛孔	-11.0077
恩德	-11.0078
思念	-11.0078
所謂道	-11.0079
難見	-11.008
集會	-11.0085
乃可	-11.0086
拔除	-11.0091
生處	-11.0096
證知	-11.0099
出息	-11.0102
得到了	-11.0108
應受	-11.011
十六行	-11.0112
外境	-11.0117
所譯	-11.0119
一切如來	-11.0119
美麗	-11.0124
己身	-11.0125
生身	-11.0127
著相	-11.0128
八解脫	-11.0137
悟入	-11.014
離此	-11.0142
色聲	-11.0144
實現	-11.0147
爾時如來	-11.0152
很快	-11.0153
傳入	-11.0155
侍者	-11.0155
13、	-11.0159
遊行	-11.0163
內心	-11.0163
18、	-11.0164
水月	-11.0164
能感	-11.0165
方可	-11.0167
今既	-11.0167
眾皆	-11.0171
會主	-11.0173
明四種	-11.0173
大都	-11.0174
大智者	-11.0179
向下	-11.0182
常見	-11.0187
分為二	-11.019
不食	-11.0193
它與	-11.0195
定中	-11.0198
顯明	-11.0202
傳本	-11.0204
通常	-11.0208
1、「	-11.0208
天聖	-11.0211
用智	-11.0219
一名	-11.0223
既知	-11.0225
人無我	-11.0226
釋迦佛	-11.0228
序分	-11.023
諸大眾	-11.0232
15、	-11.0235
(《	-11.0236
此節	-11.0237
令心	-11.0239
諸師	-11.0246
不可為	-11.0247
▁6	-11.025
故以	-11.0253
下是	-11.0256
彼彼	-11.0256
本處	-11.0264
卷一	-11.0265
讓我	-11.0274
歸真	-11.0276
有罪	-11.0278
得解	-11.0278
收集	-11.0279
引起	-11.0279
五卷	-11.0285
印度佛教	-11.0293
大將	-11.0298
不畏	-11.0307
孩子	-11.0309
極其	-11.0311
於其中	-11.0313
章疏	-11.0314
30、	-11.0321
如水	-11.0324
美麗的	-11.0324
文句	-11.0325
當說	-11.0332
有二義	-11.0333
實物	-11.0333
全無	-11.0339
咒南無	-11.0351
常在	-11.0351
皆同	-11.0352
para	-11.0352
佛足	-11.0354
31、	-11.0355
力量	-11.0355
眾罪	-11.036
得安樂	-11.0364
自由	-11.0365
少分	-11.0366
大多	-11.037
之所能	-11.0374
命在	-11.0384
了別	-11.0388
過去等	-11.0394
且如	-11.0401
之極	-11.0408
理事	-11.0409
無際	-11.0409
為益	-11.0416
得清淨	-11.0422
情況如	-11.0427
41	-11.0433
可與	-11.0438
復何	-11.0442
轉成	-11.0443
為利他	-11.0443
到佛所	-11.0445
世尊說	-11.0452
轉輪聖王	-11.0457
38、	-11.0458
36、	-11.0462
特徵	-11.0465
那時	-11.0466
此次	-11.0469
窟	-11.0475
因為他	-11.0484
不以為	-11.0484
常以	-11.0485
若當	-11.0487
還要	-11.0491
正確的	-11.0492
之有情	-11.0493
卷第一	-11.0494
有可能	-11.0494
受身	-11.0496
所存	-11.05
無生忍	-11.0503
十二年	-11.051
維德赫	-11.0512
彌凱耶	-11.0513
眷	-11.0516
凌	-11.0516
以三十二相觀如來	-11.0516
翠	-11.0519
踐	-11.0519
閑	-11.0519
今則	-11.0522
間錯	-11.0523
通達空性	-11.0523
稠	-11.0524
勝者	-11.0524
三界中	-11.0524
約緣	-11.0524
105	-11.0526
敦	-11.0527
協	-11.0527
汁	-11.0528
朽	-11.0528
憂愁	-11.0529
篤	-11.0529
髻	-11.053
瑪	-11.053
婚	-11.053
拘利耶王女蘇波婆沙	-11.0531
照明菩薩	-11.0531
眉間	-11.0532
貧乏	-11.0532
激	-11.0532
剛	-11.0533
恐畏	-11.0533
誕	-11.0533
斯陀含	-11.0533
飽	-11.0533
創始	-11.0533
隙	-11.0534
燄	-11.0534
作此觀	-11.0534
造經像	-11.0535
波囉密	-11.0535
缺乏	-11.0535
陶	-11.0536
蒂	-11.0536
喉	-11.0536
登壇	-11.0537
八十種好	-11.0537
來至佛所	-11.0539
托	-11.0539
傅大士	-11.0539
薩婆怛他伽哆	-11.054
插	-11.0541
下賤	-11.0542
騎	-11.0542
→	-11.0542
之想	-11.0542
嗜	-11.0542
汲	-11.0542
嚴飾	-11.0542
少欲知足	-11.0542
赦	-11.0543
諭	-11.0544
祇陀林	-11.0544
悖逆	-11.0544
背景	-11.0545
模	-11.0545
祠	-11.0545
警覺	-11.0545
檀越	-11.0546
無罣礙	-11.0546
房山石經	-11.0546
統治	-11.0546
給予	-11.0546
筏	-11.0546
瑜	-11.0546
莎	-11.0547
裹	-11.0548
graha	-11.0548
毗耶離	-11.0548
E	-11.0548
追求	-11.0549
零	-11.0549
消亡	-11.0549
禪悅	-11.0549
哪些	-11.055
材料	-11.055
參禮	-11.055
紹	-11.055
熾然	-11.0551
塔寺	-11.0551
的對象	-11.0551
職	-11.0552
我將	-11.0552
藪	-11.0552
彈	-11.0553
諸多	-11.0553
阿耨多	-11.0554
二空理	-11.0554
水陸	-11.0554
陰陽	-11.0554
法喻	-11.0558
的行為	-11.0559
行住坐臥	-11.0559
旗	-11.0559
猶如虛空	-11.0559
毗尼	-11.0559
十二月禮佛	-11.0559
大威力	-11.0559
公元	-11.056
賀囉	-11.0562
權威	-11.0562
宣疏	-11.0563
另一方面	-11.0563
達摩一宗	-11.0564
攝諸	-11.0564
爭論	-11.0565
女兒	-11.0565
平安	-11.0565
三千界	-11.0566
八王日	-11.0567
僧法尼	-11.0567
該詞	-11.0567
者願施	-11.0567
難測	-11.0569
雪帝	-11.0569
鐵城	-11.0569
既得	-11.0569
斷臂	-11.057
佛如來手	-11.0571
千里	-11.0572
不堪任	-11.0572
啟白	-11.0572
乘義	-11.0572
比量	-11.0573
獨覺佛	-11.0578
變易	-11.0578
癹吒	-11.0578
制止	-11.0579
怨親	-11.0582
十王	-11.0584
五體	-11.0585
是故我	-11.0586
母氏	-11.0587
必然	-11.0588
安居	-11.0588
立刻	-11.059
迷惑	-11.059
既見	-11.0591
娑訶	-11.0592
兩舌	-11.0594
不可量	-11.0595
輪轉	-11.0595
明闇	-11.0595
藥師如來	-11.0599
眾生的利益	-11.0599
信行	-11.0602
jīva	-11.0604
良緣	-11.0604
為於父母	-11.0604
來源	-11.0605
他心智	-11.0606
諦觀	-11.0607
作佛事	-11.0608
音樂	-11.061
咒水	-11.0613
所錄	-11.0613
西天	-11.0614
其文	-11.0614
個別	-11.0616
諸家	-11.0616
何由得	-11.0619
尊敬的	-11.0623
到底	-11.0625
機根	-11.0627
法生	-11.0628
若能如是	-11.0636
百五十	-11.0638
疑問	-11.0638
耳根	-11.0638
義天	-11.0644
迦耶	-11.0645
不收	-11.0647
彼於自身他身兼顧注意觀察其	-11.0647
應如是注意觀察其	-11.0648
始覺	-11.065
彼於自身注意觀察其	-11.0651
至今生	-11.0651
很可能	-11.0653
成長	-11.0653
時年	-11.0654
這位	-11.0659
猶有	-11.0659
敦煌佛教	-11.0659
真妄	-11.0659
頭陀經	-11.0666
它們的	-11.0668
塵剎	-11.0673
何故不	-11.0674
普施	-11.0677
官屬	-11.0677
生起因	-11.0681
業障	-11.0683
疏云	-11.0685
今明	-11.0689
受罪	-11.0691
不勤	-11.0692
終於	-11.0693
7)	-11.0694
已久	-11.0694
眾比丘	-11.0697
相逢	-11.0698
從彼	-11.0698
提及	-11.0704
發明	-11.0706
釋云	-11.0706
次下	-11.0706
緣境	-11.0708
一個人	-11.0709
雖知	-11.071
證實	-11.0712
學道	-11.0713
遙見	-11.0714
悟理	-11.0717
必定	-11.0719
此第一	-11.072
死王	-11.0724
āś	-11.0724
第一部分	-11.0728
無諍	-11.0732
不清	-11.0736
的區別	-11.074
解除	-11.0741
取證	-11.0742
請世尊	-11.0743
先須	-11.0745
可以在	-11.0749
第十二	-11.075
將其	-11.0751
以之為	-11.0751
無生滅	-11.0752
本子	-11.0759
業身	-11.0761
四重	-11.0761
於善法	-11.0761
心起	-11.0762
四大種	-11.0764
始從	-11.0764
各別	-11.0768
略出	-11.0769
母子	-11.0777
敬意	-11.078
全身	-11.0781
能忍	-11.0781
依前	-11.0785
開敷	-11.0787
報答	-11.0791
教示	-11.0794
較為	-11.0795
妙伽陀	-11.0795
受苦相	-11.0799
下經云	-11.0804
於諸法	-11.0804
大孝	-11.0808
益也	-11.0814
知覺	-11.0815
識住	-11.0817
初發心	-11.0819
68、	-11.082
常清淨	-11.0821
義同	-11.0825
成相	-11.0826
高貴	-11.0833
以求	-11.0839
道路	-11.0843
33、	-11.085
同上	-11.0852
五佛	-11.0861
產生的	-11.0862
另一個	-11.0866
於此經	-11.0866
觀察法	-11.0867
就會	-11.0871
蘊等	-11.0873
永斷	-11.0875
求得	-11.0876
諦實無	-11.0876
5、「	-11.0891
35、	-11.0892
。)(	-11.0894
相關的	-11.0902
大劫	-11.0911
生淨土	-11.0913
日日	-11.0922
不亂	-11.0924
二帙	-11.0938
明制	-11.0939
想必	-11.0948
又曰	-11.0949
前生	-11.0953
種異本	-11.0957
應思	-11.0961
衣等	-11.0964
喻於	-11.0968
本來無	-11.097
聽受	-11.0971
若約	-11.0974
理破	-11.0989
是什麼	-11.0992
一家	-11.0995
是耆那教	-11.0996
此約	-11.1
罪消滅	-11.1003
我會	-11.1007
的解釋	-11.1013
不曾	-11.1017
三十年	-11.1025
貪心	-11.1025
候	-11.1026
在敦煌遺書中	-11.1029
擇滅	-11.1033
上至	-11.1033
有若干	-11.1048
智人	-11.1051
善能	-11.1059
其舌	-11.1065
名數	-11.1067
無常等	-11.1073
所燒	-11.1084
失譯經	-11.1086
般若部	-11.1086
根起	-11.1091
的特點	-11.1092
34、	-11.1099
五部	-11.1099
之火	-11.1114
理性	-11.1119
如來所說	-11.112
另有	-11.1123
曾為	-11.1126
身業	-11.1132
內凡	-11.1136
過來	-11.1157
佛祖	-11.1161
屠	-11.1163
中有二	-11.1166
世法	-11.1167
閻羅王	-11.1168
巖	-11.1168
絕於	-11.1174
生盲	-11.118
卵	-11.118
妨	-11.1181
阻	-11.1183
勤求	-11.1183
髮際	-11.1184
割截	-11.1185
肉團	-11.1186
厭患	-11.1187
傭	-11.1187
猴	-11.1189
tri	-11.1189
八哥	-11.1189
倦	-11.1193
婦女	-11.1193
閏	-11.1194
亦喻比丘身	-11.1194
艱	-11.1194
亦猶如是	-11.1195
迄	-11.1195
占	-11.1195
久住	-11.1196
大意	-11.1197
掛	-11.1197
莖	-11.1197
歎佛偈	-11.1197
教示兩部祕要義	-11.1198
怕	-11.1198
三惡道	-11.1199
如來廣孝十種報恩道場儀	-11.1199
勝義諦	-11.1199
柳	-11.12
舍利弗尊者	-11.12
芥子	-11.12
裸	-11.1201
禽	-11.1201
一日一夜	-11.1201
揮	-11.1202
偷盜	-11.1202
堅毅	-11.1203
朔	-11.1203
海會聖賢	-11.1203
貨	-11.1203
鎖	-11.1203
罕	-11.1204
沾	-11.1204
志公	-11.1204
人法兩俱	-11.1204
謹慎	-11.1204
第一義諦	-11.1204
無去無來	-11.1204
鳩	-11.1205
嗅	-11.1205
律儀	-11.1205
金剛般若波羅蜜經	-11.1205
三衣	-11.1205
遐	-11.1206
純潔	-11.1206
戟	-11.1206
摧折	-11.1207
潮	-11.1207
噉	-11.1207
稱之為	-11.1207
俾	-11.1207
廣博	-11.1208
游	-11.1208
投誠	-11.1208
天請問經疏	-11.1208
坑	-11.1208
狼	-11.1208
傲慢	-11.1208
沉淪	-11.1208
訟	-11.1208
首尾完整	-11.1209
佛告諸比丘	-11.1209
迥	-11.1209
講堂	-11.1209
劃	-11.1209
哀憫	-11.1209
錦	-11.1209
疲厭	-11.121
逕	-11.121
擎	-11.1211
諸經要集	-11.1211
龜毛	-11.1211
的基礎上	-11.1212
恒河	-11.1212
組	-11.1212
洋	-11.1212
醜	-11.1212
擲	-11.1212
城市	-11.1212
毋	-11.1212
§9.1	-11.1213
劉	-11.1213
三十三天	-11.1213
§9.4	-11.1214
catur	-11.1214
賢首	-11.1214
儘是	-11.1214
永元元年	-11.1214
摧壞	-11.1215
ū	-11.1215
高麗	-11.1216
蒲	-11.1216
沸	-11.1216
羯磨	-11.1216
罔極	-11.1216
ṭ	-11.1216
瞬間	-11.1216
叉欲	-11.1217
農	-11.1217
奢摩他	-11.1217
葬	-11.1218
安排	-11.1218
無處不	-11.1218
形成的	-11.1218
每個	-11.1219
到彼岸	-11.122
證盟	-11.122
粟	-11.122
月八日	-11.122
若如是者	-11.122
設供	-11.1221
而坐	-11.1221
第十三	-11.1222
孝養父母	-11.1222
安惠	-11.1222
生其國	-11.1223
把它們	-11.1224
閱讀	-11.1225
部著作	-11.1225
歷代經錄	-11.1225
夭	-11.1226
貴賤	-11.1226
誐囉	-11.1227
惹	-11.1227
柴	-11.1227
迷亂	-11.1229
阿吒力經典	-11.123
虛偽	-11.123
公主	-11.123
金輪	-11.123
無數劫	-11.123
該目錄	-11.1231
批評	-11.1231
所知障	-11.1231
增益	-11.1232
撮	-11.1233
十月	-11.1233
悉是	-11.1234
負力	-11.1234
補刊	-11.1235
所感	-11.1235
平靜	-11.1236
保持	-11.1237
消息	-11.1237
負命	-11.1237
絕望	-11.1237
鸞宿本	-11.1238
佩	-11.1238
末尾	-11.1238
此下第二	-11.124
瑜伽論	-11.1244
鍐	-11.1244
獨覺	-11.1245
回向	-11.1248
接觸	-11.125
所居	-11.125
位置	-11.125
該書	-11.1253
jñāna	-11.1253
.2	-11.1254
皤	-11.1255
圓照	-11.1255
上昇	-11.1256
天授	-11.1256
正士	-11.1257
慈風	-11.126
大般若經	-11.1262
你就	-11.1262
證據	-11.1266
居家	-11.1268
摩哩	-11.1272
七諦	-11.1274
幾許	-11.1274
賀多	-11.1275
從初	-11.1277
大怖畏	-11.1277
有我相	-11.1278
五百年	-11.1279
處理	-11.1283
道地	-11.1292
梵文	-11.1293
前殘	-11.1293
摩羅	-11.1294
靈文	-11.1294
使他們	-11.1296
2、「	-11.1297
再次	-11.1297
重新	-11.1298
承當	-11.1303
祇要	-11.1308
相合	-11.1313
閑靜	-11.1315
持五戒	-11.1317
經目錄	-11.1318
志誠	-11.1318
廣略	-11.1319
縱令	-11.132
寧可	-11.1321
諸王	-11.1324
現象	-11.1324
理趣	-11.1326
復能	-11.1328
32、	-11.133
重病	-11.1332
律行	-11.1337
有暇	-11.134
傳世	-11.1344
耳識	-11.135
四分	-11.1352
諸菩薩等	-11.1353
非餘	-11.1364
深信	-11.1369
的具體	-11.1369
隨彼	-11.1374
現疾	-11.138
in	-11.1382
不相違	-11.1383
香供養	-11.1384
園林	-11.1385
修忍辱	-11.1389
註明	-11.1394
有執受	-11.1396
取水	-11.14
八句	-11.14
別立	-11.1402
aṇa	-11.1416
皆因	-11.1416
造成	-11.142
莫問	-11.1423
別別	-11.1431
誰多	-11.1432
40、	-11.1433
具說	-11.1436
何日	-11.1438
性淨	-11.1438
現證	-11.1439
入山	-11.1447
滅罪	-11.1449
相遇	-11.1456
乃知	-11.1465
今始	-11.1467
tra	-11.1468
財施	-11.1471
俗人	-11.1473
所有眾生	-11.1473
滿三千大千世界	-11.1483
心境	-11.1484
隨其所	-11.1486
攝取	-11.1492
兜率天	-11.1495
就有	-11.1497
57、	-11.1498
三卷本	-11.1505
諸善根	-11.1506
比如	-11.1511
自度	-11.1512
無倒	-11.1518
諸尊	-11.1525
求利	-11.1526
在中國	-11.1526
75	-11.1534
終無	-11.1537
文義	-11.1537
始於	-11.1538
此中有	-11.1541
6、「	-11.1545
已離	-11.1547
四恩	-11.1552
引文	-11.157
應可	-11.1572
別名	-11.1577
序中	-11.1579
珠寶	-11.1582
轉依	-11.1593
特為	-11.1594
符合	-11.1596
不惜	-11.1601
出現的	-11.1602
烈火	-11.1608
菩薩戒	-11.1614
兜率	-11.1617
著錄的	-11.1618
常無常	-11.1619
吾今	-11.1621
非實有	-11.1622
知無我	-11.1628
天龍	-11.1629
本論	-11.163
有不少	-11.1638
如上所	-11.1639
所有一切	-11.1647
常淨	-11.1648
能立	-11.165
45、	-11.1659
難逃	-11.1666
罪行	-11.1666
虛空界	-11.1666
菩提相	-11.1667
發現的	-11.1687
4、「	-11.1691
化人	-11.1692
僧眾	-11.1692
般若波羅密	-11.1695
百二十	-11.1697
情塵	-11.1698
此類	-11.1703
誦真言	-11.1703
41、	-11.1705
執受	-11.1705
豈能	-11.1706
不改	-11.1712
有情義利	-11.1718
的工作	-11.1727
在何處	-11.1729
ur	-11.173
可信	-11.1731
凡心	-11.1739
境智	-11.174
大藏佛	-11.1744
這兩部	-11.1747
今日今	-11.1749
齋戒	-11.1751
當念	-11.1754
āṇi	-11.1758
八識	-11.1759
之所依	-11.1762
毫光	-11.1768
頭骨	-11.1772
惡趣苦	-11.1774
當令	-11.1796
迴光	-11.1806
此釋	-11.1807
尊卑	-11.1814
的其他	-11.1829
心口	-11.1831
50、	-11.1837
其道	-11.1838
諸本	-11.185
腹	-11.1854
即法身	-11.1855
佛教經典	-11.1856
滅除	-11.1862
找	-11.1863
死生	-11.1867
慈愍	-11.1871
諸世間	-11.1873
迦囉	-11.1875
知一切法	-11.1878
站	-11.1878
修自他平等	-11.1883
我今為報	-11.1888
右旋	-11.189
依心轉起	-11.1891
毛端	-11.1893
疊	-11.1897
竺法護	-11.1898
百劫	-11.1898
汝所許	-11.1899
沐浴	-11.1901
所喜愛	-11.1902
叩	-11.1902
訂	-11.1902
pañca	-11.1903
蜂	-11.1904
無障礙	-11.1904
斑	-11.1904
拒	-11.1905
王捨城	-11.1906
如其次第	-11.1906
又來	-11.1906
或兼察身內之生起與壞滅	-11.1906
尋伺	-11.1907
倉	-11.1907
正遍知	-11.1907
通達空性之般若	-11.1908
吟	-11.1908
凡情上達大圓鏡	-11.1908
槍	-11.1908
摩耶夫人	-11.1909
百千萬億	-11.1909
墮惡道	-11.191
金剛五禮	-11.191
拱	-11.191
作是思維	-11.191
買	-11.1911
態	-11.1911
幽冥	-11.1911
剃	-11.1912
寧為多不	-11.1912
誰人	-11.1912
綺語	-11.1912
坦	-11.1912
揭諦	-11.1913
七竅	-11.1914
姆	-11.1914
柔	-11.1914
吼	-11.1915
千輻輪相	-11.1916
跳	-11.1916
蕭	-11.1916
兆	-11.1916
塔廟	-11.1916
十方三世	-11.1916
龜	-11.1917
悴	-11.1917
橋	-11.1918
維摩	-11.1919
溢	-11.1919
瑪特維	-11.1919
奈良	-11.1919
坐於	-11.1919
鷹	-11.192
棲	-11.1921
鞭	-11.1921
甄	-11.1921
趕快	-11.1921
家庭	-11.1921
眾等志誠	-11.1921
贖	-11.1922
尊勝破地獄法	-11.1922
援	-11.1923
布露	-11.1923
敦煌地區	-11.1923
世出世間	-11.1924
渠	-11.1924
鬼趣	-11.1924
驚訝	-11.1924
萌	-11.1925
饌	-11.1925
成實論	-11.1925
危險	-11.1925
避免	-11.1925
臉	-11.1925
V	-11.1926
西方極樂	-11.1926
罔	-11.1926
眼睛	-11.1927
kaṣāya	-11.1927
五分法身	-11.1927
遞	-11.1927
武周	-11.1928
意謂	-11.1928
查	-11.1929
叔	-11.1929
諂	-11.1929
募	-11.1929
§4.4	-11.1929
darśana	-11.1929
的最短壽命	-11.1929
繼續	-11.193
強弱	-11.193
生老病死	-11.193
空衣派	-11.193
回壇	-11.193
讎	-11.1931
佛性觀修善法	-11.1931
替	-11.1931
房舍	-11.1932
堪忍	-11.1932
災殃	-11.1932
一個巴利堯巴姆	-11.1932
饒益有情	-11.1933
牧	-11.1933
錫	-11.1933
這一問題	-11.1934
七心界	-11.1934
豐富	-11.1935
諦義證得經	-11.1935
當證	-11.1936
曹宗壽	-11.1936
質礙	-11.1936
漂亮	-11.1936
而白世尊	-11.1936
遇善知識	-11.1937
阿闍梨	-11.1937
哲學	-11.1937
碧琉璃	-11.1938
戍	-11.1938
由此可知	-11.1938
窗	-11.1938
朋	-11.1939
禳	-11.1939
亦有二種	-11.194
1002	-11.194
原註	-11.194
劍樹	-11.1941
三滿哆	-11.1941
舍宅	-11.1941
發揮	-11.1942
欺誑	-11.1942
提供	-11.1943
水月觀音	-11.1943
洩	-11.1943
盡讚揚	-11.1943
縛脫	-11.1944
經文可參見	-11.1944
盧舍那佛	-11.1944
神奇	-11.1945
仁壽	-11.1945
卵生	-11.1945
邐	-11.1946
南都本	-11.1948
立足生根	-11.1948
弭	-11.1948
花園	-11.1949
故經言	-11.1949
進趣	-11.1951
流注	-11.1952
中找到	-11.1952
幾乎	-11.1953
典據	-11.1953
三十二分	-11.1953
所得功德	-11.1954
司命	-11.1954
洛	-11.1955
表述	-11.1955
純淨	-11.1955
充分	-11.1956
小兒	-11.1957
輪回	-11.1957
而作佛事	-11.1957
接引	-11.1958
多出	-11.1958
可得福	-11.1958
現代	-11.196
43、	-11.196
聲音	-11.1962
每一	-11.1963
遍法界中	-11.1965
得為乘	-11.1967
有序	-11.1967
80、	-11.1968
偽撰	-11.1968
13.	-11.1969
縱廣	-11.197
請您	-11.197
無盡藏	-11.1971
萬像	-11.1971
作業相	-11.1971
興趣	-11.1971
但念	-11.1973
8、「	-11.1973
娑囉	-11.1974
羅列	-11.1975
竅隙	-11.1975
嚕畔	-11.1976
門下	-11.1976
發阿耨多羅三藐三菩提心者	-11.1978
方面的	-11.1979
此中無	-11.198
資具	-11.1982
70、	-11.1985
琴	-11.1986
祖傳	-11.1987
離開了	-11.1987
禪定解脫	-11.1988
沒有任何	-11.1988
某種	-11.1989
興福	-11.1989
列數	-11.199
註解	-11.199
衣鉢	-11.1992
初文分三	-11.1992
文詞	-11.1994
阿羅漢果	-11.1997
0.	-11.1997
的物質	-11.1998
史上	-11.1998
舌識	-11.1998
其罪	-11.1999
未免	-11.2
此物	-11.2001
領解	-11.2003
婦人	-11.2004
隨機	-11.2006
照明	-11.2006
場所	-11.201
謗佛	-11.2012
論疏	-11.2013
妙寶	-11.2013
之義也	-11.2015
彼於他人注意觀察其	-11.2016
地前	-11.2018
摩那	-11.202
大正藏本	-11.2025
詳見	-11.2027
敵人	-11.2033
行菩提心	-11.2034
普供養	-11.2035
的特徵	-11.2037
寂天	-11.204
無始以來	-11.2045
眾寶	-11.2048
蘊界	-11.2048
海藏	-11.2049
八邪	-11.2054
發意	-11.2056
百卷	-11.2058
取蘊	-11.2059
白毫	-11.2065
生存	-11.2067
不幸	-11.2067
獨一	-11.2067
地區的	-11.2071
普願	-11.2074
投地	-11.2074
49、	-11.2075
尋常	-11.2076
不死	-11.2076
27、	-11.2079
在這裡	-11.2082
對三寶	-11.2082
趣向	-11.2082
鐵圍山	-11.2085
的寶石	-11.2087
實際是	-11.2094
78、	-11.2094
普皆	-11.2098
對首	-11.2102
是為最	-11.2105
實有者	-11.211
多分	-11.211
天啊	-11.2121
來護法	-11.2126
智障	-11.2127
伽囉	-11.2128
歡喜地	-11.2132
bandha	-11.2132
弘道	-11.2135
今乃	-11.2138
實施	-11.2138
初生	-11.2139
應如何	-11.2142
階段	-11.2146
初禪	-11.2147
隨緣	-11.2153
慧日	-11.2159
正使	-11.2161
自相續	-11.2163
大智慧	-11.2165
在懷	-11.2168
福業	-11.217
比丘說	-11.2174
」;「	-11.2179
違緣	-11.2186
第十五	-11.2187
弟子中	-11.2188
斷惑	-11.2197
實無有法	-11.2199
何妨	-11.2205
眾神	-11.2207
墮惡趣	-11.2211
相配	-11.2212
vy	-11.2213
分為三	-11.2217
的存在	-11.2217
外求	-11.2223
下座	-11.2224
正定	-11.2225
唯有一	-11.2226
既非	-11.2228
本土	-11.2237
的意思	-11.2239
應化	-11.2243
12.	-11.2248
所聞	-11.225
開悟	-11.2253
覺天	-11.226
二列名	-11.2261
道教	-11.2263
我曹	-11.2264
云何住	-11.227
乘體	-11.2279
42、	-11.2286
四魔	-11.2286
能成辦	-11.2287
常持	-11.2289
寶髻王	-11.2301
則無有	-11.2301
右手	-11.2308
在當時	-11.2309
十二種	-11.2316
獄中	-11.2321
1)	-11.2324
勸人	-11.2324
三脫	-11.2328
重問	-11.2328
俱空	-11.2333
進而	-11.2339
何云	-11.234
設有	-11.2342
0、「	-11.236
的出現	-11.2367
像法	-11.2368
許彼	-11.2371
收經	-11.238
波若	-11.2381
五方	-11.2383
化主	-11.2387
75、	-11.2393
惑盡	-11.2401
雖同	-11.2404
十萬	-11.2405
當死	-11.2411
無差	-11.2414
微劣	-11.2417
51、	-11.242
先當	-11.242
明壞	-11.2434
□□□□□□□□□	-11.244
願意	-11.2442
加以	-11.2443
依報	-11.2445
個方面	-11.2452
將會	-11.2456
明中有	-11.2458
十個	-11.246
害心	-11.2461
雖多	-11.2461
相傳	-11.2481
恒河沙	-11.2487
物體	-11.2493
惡鬼	-11.2501
無厭足	-11.2502
死相	-11.2508
聞道	-11.2511
造諸	-11.2515
批	-11.252
身垂	-11.2522
而死	-11.2523
二句	-11.2526
生天上	-11.255
應許	-11.2551
同歸	-11.2554
集福	-11.2572
意思	-11.2575
毗捨佉	-11.2578
體解	-11.2592
了一個	-11.2597
印咒	-11.26
悅意	-11.2602
無失	-11.2605
前來	-11.2607
手中	-11.2616
第十四	-11.2617
隨從	-11.2623
的理論	-11.2624
叢	-11.263
58、	-11.263
誨	-11.2634
爾時摩耶夫人	-11.265
父母恩難報	-11.2656
相近	-11.2657
坐在一旁	-11.2658
摸	-11.2659
目犍連	-11.2663
心目	-11.2666
漁	-11.2668
何待言	-11.2669
頰	-11.2669
◇	-11.267
苑	-11.267
懷胎	-11.2671
有大神通	-11.2671
攻擊	-11.2672
稀	-11.2672
怛他誐多	-11.2673
材	-11.2674
阿闍黎	-11.2674
陞	-11.2675
伴侶	-11.2675
盟修奉	-11.2675
到底是	-11.2675
淨修林	-11.2676
蕩滌	-11.2676
赫	-11.2676
有殊	-11.2677
頑	-11.2678
慘	-11.2678
僻	-11.2678
苗	-11.2679
偃	-11.268
瘟疫	-11.268
筋	-11.268
慌	-11.268
鑄	-11.268
貞	-11.268
奴僕	-11.2681
盞	-11.2681
趙氏	-11.2681
丈	-11.2682
發大心	-11.2682
細滑	-11.2683
欽	-11.2683
瑕	-11.2684
吸	-11.2684
如法應和	-11.2685
掉舉	-11.2685
詎	-11.2685
尅	-11.2685
猶豫	-11.2685
以是因緣	-11.2685
三藐三佛陀	-11.2685
即興說	-11.2685
詢	-11.2685
道場清淨眾	-11.2686
糧	-11.2686
冤業罪消滅	-11.2686
廚	-11.2686
挫	-11.2686
邀	-11.2686
真言歌讚	-11.2686
四十二字母	-11.2687
握	-11.2687
級	-11.2687
擾亂	-11.2687
百歲	-11.2688
介	-11.2688
如來悉知	-11.2688
狐疑	-11.2688
妃	-11.2688
岩	-11.2689
嗣	-11.2689
宛	-11.2689
四十齒	-11.269
又一解	-11.269
楞	-11.269
正法輪	-11.269
輕蔑	-11.269
所有的人都	-11.2691
廻向	-11.2691
弄	-11.2692
隻	-11.2692
志心皈命禮	-11.2692
疆	-11.2692
坊	-11.2692
浩	-11.2692
陋	-11.2693
英俊	-11.2693
擾擾	-11.2694
§8.1	-11.2694
憤	-11.2694
見聞覺知	-11.2694
法句經	-11.2694
聊	-11.2694
廳	-11.2694
浮圖	-11.2694
荷負	-11.2694
法海	-11.2694
仿	-11.2694
爾時佛母	-11.2694
努	-11.2694
應歡喜	-11.2695
聯係	-11.2695
報恩德真言	-11.2695
原件	-11.2696
早期	-11.2696
界應如實知見	-11.2696
大明咒	-11.2697
施食	-11.2697
君臣	-11.2697
紙張	-11.2697
白衣派刊本	-11.2697
§1.1	-11.2697
矢吹	-11.2697
據作者原註	-11.2697
布薩	-11.2697
珊	-11.2697
藥叉大將	-11.2697
意向性	-11.2698
熙	-11.2698
良醫	-11.2698
一切時中	-11.2698
寶髻本緣	-11.2698
孽	-11.2699
樊	-11.2699
自從曠劫	-11.2699
不盡有為	-11.2699
湧	-11.2699
寬狹	-11.27
怎樣	-11.27
§2.4	-11.27
紛	-11.2701
勉力	-11.2701
松	-11.2701
可任意	-11.2701
徒勞	-11.2702
藥師寺本	-11.2702
藥草	-11.2702
人間天上	-11.2702
持用布施	-11.2702
三十五佛	-11.2703
愍念	-11.2703
注心要法門	-11.2703
含靈	-11.2703
綰	-11.2704
償	-11.2704
恐怕	-11.2704
一一光明	-11.2704
芳	-11.2706
第一波羅蜜	-11.2706
le	-11.2706
值得注意的是	-11.2706
狂妄	-11.2706
誌	-11.2706
何其	-11.2707
障礙有對	-11.2707
市	-11.2708
執為我	-11.2708
金剛經纂	-11.2709
奏樂	-11.271
所緣有對	-11.271
覆護	-11.271
文繁	-11.2711
阿那律	-11.2711
信仰性佛教	-11.2711
今日道場	-11.2711
貞觀	-11.2712
修菩提心	-11.2712
昏沉	-11.2712
衰退消失	-11.2712
僕使	-11.2714
儒則	-11.2714
因明入正理論	-11.2714
影像	-11.2716
毗舍	-11.2716
利益安樂	-11.2716
悲傷	-11.2716
龍宮	-11.2716
菩	-11.2717
怨賊	-11.2717
令一切	-11.2718
考證	-11.2719
繫屬	-11.2719
物質性的	-11.2719
呵責	-11.2721
復次須菩提	-11.2721
自調	-11.2722
風雨	-11.2722
不住無為	-11.2722
增加了	-11.2724
能作是念	-11.2725
角度	-11.2725
是何物	-11.2725
為君	-11.2725
示其	-11.2725
偽妄	-11.2726
得悟	-11.2726
單位	-11.2727
確定	-11.2728
諸仁者	-11.2728
長老	-11.2728
頓悟	-11.2729
能害	-11.273
905/1	-11.273
殘存	-11.2731
882	-11.2731
中縫	-11.2733
諦下有	-11.2733
鑒別	-11.2734
37、	-11.2735
pūrva	-11.2737
和其他	-11.2737
的論述	-11.2738
歸依佛	-11.2738
相鄰	-11.2738
火輪	-11.274
認真	-11.274
大哭	-11.274
領眾	-11.2742
這篇	-11.2747
感情	-11.2747
勃陀	-11.2748
悲愍故	-11.275
山河	-11.2752
覆藏	-11.2752
正月	-11.2753
解乘義	-11.2753
對治力	-11.2753
頓教	-11.2754
三婆嚩	-11.2755
納受	-11.2755
判定	-11.2755
重宣	-11.2761
接著	-11.2762
商人	-11.2764
用典	-11.2765
勃馱喃	-11.2769
特別是	-11.277
6)	-11.2771
含識	-11.2771
望著	-11.2775
互為	-11.2775
堅定	-11.2775
任意	-11.2777
遮那	-11.2777
經律論	-11.2779
上中下	-11.2787
分九	-11.2789
火燒	-11.279
困難	-11.2792
宣念	-11.2792
舉動	-11.2794
方廣	-11.2794
除煩惱障	-11.2797
還沒有	-11.2799
常依	-11.2801
長大	-11.2808
誦念	-11.2811
肉體	-11.2812
得涅槃	-11.2814
禪那	-11.2815
十年	-11.2818
致使	-11.2819
修善法	-11.2821
龍神	-11.2824
種族	-11.2827
不移	-11.283
無涯	-11.2839
成功	-11.284
二十行	-11.2845
端身	-11.2851
無量功德	-11.2852
該卷	-11.2853
如是之人	-11.2854
一片	-11.2855
何處不	-11.2859
證信	-11.2861
之屬	-11.2865
物品	-11.2866
離生死	-11.2867
的原子	-11.2867
為佛事	-11.2872
速證	-11.2875
況復	-11.2879
聲聞地	-11.2882
真金	-11.2883
死亡	-11.2889
尾秫	-11.2891
令諸有情	-11.2897
左手	-11.2899
此飯	-11.2899
德位	-11.2901
大唐	-11.2905
修苦行	-11.2906
變得	-11.2906
67、	-11.2907
諸經論	-11.2908
三祗	-11.2909
空義	-11.2911
此下四	-11.2915
隨轉	-11.2915
寶蓮華	-11.2916
正答	-11.2919
從上述	-11.2921
惡語	-11.2923
之支分	-11.2926
撰成	-11.2927
例如	-11.2929
本書	-11.2929
愛著	-11.2931
亦不可	-11.2943
七識	-11.2947
昔在	-11.2949
若遇	-11.2949
佛像	-11.2953
布囉	-11.2955
廣答	-11.2956
所遮	-11.2966
還復	-11.2969
77、	-11.2969
親緣	-11.2976
的要求	-11.2978
指教	-11.2982
使其	-11.2985
會要	-11.2986
非法相	-11.2987
謗也	-11.2989
信樂	-11.2989
紅蓮	-11.2992
色蘊	-11.3004
斷結	-11.3004
普及	-11.3017
苦行者	-11.3022
之殊	-11.3032
盲人	-11.3036
無邊功德	-11.3039
示行	-11.304
天帝釋	-11.3043
無量眾生	-11.3046
61、	-11.305
答所以	-11.305
編纂者	-11.3052
聽聞	-11.3054
不妄	-11.3058
能摧	-11.3058
此齋	-11.306
等虛空	-11.3068
真淨	-11.3076
回心	-11.3076
90、	-11.3077
偉大的人	-11.308
聽說	-11.3084
一毛	-11.3097
依照	-11.31
指出的	-11.3101
犯罪	-11.3101
悶絕	-11.3109
遮彼	-11.3109
都沒有	-11.3116
娑伽	-11.3117
其間	-11.3131
安得	-11.3133
有益	-11.3136
辛苦	-11.3137
令入	-11.3137
身量	-11.3145
衣食等	-11.3152
如何得	-11.3157
這兩	-11.3164
得暇滿	-11.3165
世界上	-11.3167
具戒	-11.3169
。』」	-11.3177
體用	-11.3177
以表	-11.318
的密教	-11.3181
為底本	-11.3187
法全	-11.3187
別答	-11.3194
在這裏	-11.3214
諦實成就之	-11.3228
本清淨	-11.3228
已還	-11.3232
他世	-11.3233
佛教典籍	-11.3263
而言之	-11.3267
四趣	-11.3267
阿那	-11.3268
送給	-11.3273
rī	-11.3276
為友	-11.3285
獨自	-11.3285
外國	-11.3285
相違品	-11.3298
了一些	-11.3298
應機	-11.3306
與尋	-11.3306
卷六	-11.3309
65、	-11.3314
了她	-11.3324
苦想	-11.3327
化城	-11.3328
不可言	-11.3329
之徒	-11.3343
入藏的	-11.3356
六結	-11.3357
兩部	-11.337
火焚	-11.337
天魔	-11.3378
的方式	-11.3384
海水	-11.3385
龍天	-11.3386
造藏	-11.3389
是佛性	-11.339
今聞	-11.3392
設立	-11.3404
偷	-11.3426
中國人	-11.3429
依憑	-11.3429
淨飯	-11.3431
實義	-11.3436
77	-11.3442
的壽量	-11.3449
的姑娘	-11.345
殷	-11.3451
牧牛人	-11.3454
肝	-11.3456
諸漏	-11.3459
林間	-11.3459
最多	-11.346
自作自成	-11.3469
當知是	-11.347
垂慈	-11.3478
ram	-11.3478
曷	-11.3482
踴	-11.3484
上一部	-11.349
疲勞	-11.3495
智度論	-11.3496
無尋唯伺	-11.3497
旅	-11.3498
結跏趺	-11.3499
貯	-11.3502
泊	-11.3503
坐臥具	-11.3504
快哉	-11.3504
馴	-11.3504
攀	-11.3504
M	-11.3504
懈	-11.3505
酸	-11.3505
剜	-11.3505
粘葉裝	-11.3505
怠	-11.3506
關節	-11.3507
忿怒	-11.3508
弘教大師	-11.3509
瞬	-11.351
首殘尾全	-11.351
佑	-11.3511
歿	-11.3511
乃至四句偈等	-11.3511
挺	-11.3512
盡其所有	-11.3512
芬馥	-11.3512
踴躍	-11.3512
螺	-11.3513
阿難陀	-11.3513
應了了分明彼心	-11.3514
贅	-11.3514
屏	-11.3515
黠	-11.3515
哲	-11.3516
羹	-11.3516
躁	-11.3516
魏	-11.3516
妹	-11.3516
金翅鳥	-11.3516
其福勝彼	-11.3516
自無主宰	-11.3517
恐人生	-11.3517
膜	-11.3517
曠野	-11.3517
城邑	-11.3517
唯成有漏	-11.3517
措	-11.3518
槃陀	-11.3518
怡	-11.3519
本性清淨	-11.3519
酬罔極	-11.3519
優波	-11.3519
因緣心論頌	-11.3519
過程	-11.352
隅	-11.352
禱	-11.352
銜	-11.352
譯場	-11.3521
搜	-11.3521
乃可取食	-11.3521
秀	-11.3521
甜	-11.3521
無垢淨光佛	-11.3522
煥	-11.3522
今日已往去	-11.3522
廟	-11.3522
金錫	-11.3522
永不復退轉	-11.3523
憐愍	-11.3523
敬白清淨	-11.3523
剛強	-11.3523
瞻仰	-11.3523
云何降伏其心	-11.3524
晚唐	-11.3524
已在我國地	-11.3524
北京圖書館藏	-11.3524
妒	-11.3524
1254	-11.3524
普禮聖眾真言	-11.3524
為基礎	-11.3525
應如是布施	-11.3525
緊	-11.3525
鑿	-11.3525
楊枝	-11.3525
rtha	-11.3525
於他有情	-11.3526
胞胎	-11.3526
宏	-11.3526
完備	-11.3527
贊歎	-11.3527
蠲除	-11.3528
圈	-11.3528
作何業	-11.3528
聲聞緣覺	-11.3528
撥	-11.3528
轂	-11.3528
鱗	-11.3528
復有一人	-11.3529
界攝	-11.3529
鐘	-11.3529
課	-11.3529
嫁	-11.3529
戾	-11.3529
亥	-11.353
開受供養	-11.353
殿上	-11.353
個半葉	-11.353
翅	-11.353
姊	-11.3531
五宗錄	-11.3531
嚼	-11.3531
耗	-11.3531
豬	-11.3531
§4.2	-11.3531
突出	-11.3531
不增不減	-11.3532
光亮身	-11.3532
淪	-11.3532
眼等五根	-11.3532
deśa	-11.3533
煙雲	-11.3533
脩	-11.3533
衷	-11.3533
魔軍	-11.3533
藥叉	-11.3534
咽喉	-11.3534
趺	-11.3534
貢	-11.3534
大藏經史	-11.3534
幸運	-11.3535
殆	-11.3535
虞	-11.3535
污濁	-11.3535
應了了分明尚未生起之	-11.3535
群迷	-11.3535
郁	-11.3536
較量	-11.3536
ādi	-11.3536
該經軌	-11.3536
悅耳	-11.3536
四句偈	-11.3536
能造	-11.3537
-'	-11.3537
訊	-11.3537
風格	-11.3537
是則名為	-11.3537
侵欺	-11.3537
性自空	-11.3537
會昌廢佛	-11.3538
兇	-11.3538
甘地瑪蒂	-11.3538
山脈	-11.3539
已經亡佚	-11.3539
攜	-11.3539
達摩系	-11.3539
本節論述的是對	-11.3539
愚迷	-11.354
重複	-11.354
範圍	-11.3541
室羅筏	-11.3542
殘損	-11.3542
謹白	-11.3543
成書於	-11.3543
釘	-11.3543
這樣做	-11.3543
賧	-11.3544
臨終	-11.3545
天請問經	-11.3545
腔	-11.3546
仰告	-11.3546
淩	-11.3546
假使有人	-11.3546
深淺	-11.3546
662	-11.3546
行款	-11.3547
獻供	-11.3547
幻師	-11.3547
法席	-11.3547
弘揚	-11.3547
朕	-11.3547
象馬	-11.3547
社會	-11.3548
時維摩詰來	-11.3549
缺少	-11.3549
被收入	-11.3549
論究	-11.355
持戒比丘	-11.355
的出處	-11.355
裁	-11.355
諸家雜述	-11.355
報恩寺	-11.355
大抵	-11.3551
端坐	-11.3551
光臨法會	-11.3551
華蓋	-11.3551
步步	-11.3552
怛你也他	-11.3552
薦取	-11.3552
董	-11.3553
陷入	-11.3553
存亡	-11.3554
名號品	-11.3554
得見如來	-11.3554
據此	-11.3554
天龍八部	-11.3554
周圓	-11.3555
太山	-11.3556
阿須倫	-11.3556
奈何	-11.3556
踴出	-11.3557
含情	-11.3557
異同	-11.3558
大法對受	-11.3559
禍福	-11.3559
你自己	-11.3561
的結論	-11.3562
奉養	-11.3562
返照	-11.3562
故先說	-11.3562
翻譯經典	-11.3563
憂悔	-11.3564
(19	-11.3564
趙智鳳	-11.3565
未來不生	-11.3566
尚存	-11.3568
有何益	-11.3568
明尋伺	-11.357
15.	-11.3571
西夏本	-11.3572
邪魔	-11.3574
十色界	-11.3574
mi	-11.3575
無別體	-11.3575
潞州	-11.3576
𠷑吒	-11.3576
無分別智	-11.3577
增上緣	-11.358
心口身	-11.358
香氣	-11.3582
加護	-11.3582
勿使	-11.3582
觸之受	-11.3583
詳盡	-11.3585
100	-11.3587
入胎	-11.3588
覺察	-11.359
假設	-11.3593
勸請	-11.3594
三十萬	-11.3594
虛實	-11.3596
石窟	-11.3597
積德	-11.3598
註疏本	-11.3599
卷十四	-11.3599
愛敬	-11.3599
無量壽佛	-11.36
餘九	-11.36
殷勤	-11.3601
長久	-11.3602
廣無邊	-11.3603
鼻根	-11.3605
不名菩薩	-11.3605
方圓	-11.3606
談論	-11.3607
燈光	-11.3609
毀禁	-11.361
大法王	-11.361
敬仰	-11.3612
佛藏經	-11.3613
印證	-11.3614
自性清淨	-11.3614
悅意之	-11.3616
反映出	-11.362
釋梵	-11.3624
無相乃	-11.3625
妙嚴	-11.3629
面目	-11.363
未曾有也	-11.3631
如來說非	-11.3631
大精進	-11.3632
佛神力	-11.3642
深恩	-11.3644
悲願	-11.3646
除去	-11.3649
所積	-11.3654
佛國土	-11.3654
來到了	-11.3656
乞叉	-11.3657
原卷	-11.3659
他把	-11.3663
未久	-11.3663
的狀態	-11.3664
六百	-11.3665
大疏	-11.3666
鬘	-11.367
禮別	-11.3676
的信仰	-11.3677
空中無	-11.3678
修我慢	-11.3679
參與	-11.3679
發露	-11.368
之患	-11.3683
帝那	-11.369
代抄本	-11.3691
將護	-11.3693
普令	-11.3699
海會	-11.3703
八月	-11.3704
空間	-11.3704
順緣	-11.3704
變作	-11.3716
共通	-11.3717
開發	-11.3718
走向	-11.3721
序文	-11.3723
入無餘	-11.3724
行出世	-11.3727
文書	-11.3731
74、	-11.3732
聖主	-11.3733
歷史上	-11.3735
73、	-11.3736
dharma	-11.3739
無價	-11.3743
從座	-11.3743
故名如來	-11.3745
捨命	-11.3748
時維摩詰	-11.3756
飛行	-11.3758
更無別	-11.376
妄起	-11.376
太虛	-11.3763
十五卷	-11.3765
輪王	-11.3766
);「	-11.377
種善根	-11.3773
其內容	-11.3777
難遭	-11.3778
惡知識	-11.3779
相容	-11.3781
佛境界	-11.3782
曾有	-11.3784
身不淨	-11.3784
道場儀	-11.3788
多劫	-11.3796
出來的	-11.38
欲貪	-11.3802
nām	-11.3804
ayo	-11.3808
教僧	-11.3818
加上	-11.382
共許	-11.3821
聲緣	-11.3822
以偈	-11.3822
金子	-11.3823
意識到	-11.3825
的傳統	-11.3825
來講	-11.3829
波羅密多	-11.3844
持齋戒	-11.3851
偈言	-11.3852
守護心	-11.386
正報	-11.3865
眾香	-11.3865
55、	-11.3865
不能忍	-11.3866
好惡	-11.3868
國師	-11.3875
聲色	-11.3879
字體	-11.3879
煩惱敵	-11.3887
長子	-11.3889
須知	-11.3898
七個	-11.3906
了悟	-11.3908
寫卷	-11.3908
我的身體	-11.3911
少欲	-11.3915
空花	-11.3919
何必	-11.392
寫於	-11.3923
傳統的	-11.3925
勤行	-11.3927
行乞	-11.3931
聚義	-11.3933
par	-11.3939
這兒的	-11.394
相比較	-11.3943
無常義	-11.3943
有所緣	-11.3945
應該說	-11.3946
的力量	-11.3946
於此身	-11.3956
妙吉祥	-11.3961
十四種	-11.3967
項光	-11.3971
63、	-11.3986
末法	-11.3988
婆嚩	-11.3989
大悲觀世音	-11.399
72、	-11.399
暇	-11.3998
五逆罪	-11.4
化現	-11.4013
諸比丘眾	-11.4023
喻若	-11.4031
八個	-11.4037
難報	-11.4037
安寧	-11.404
阿難尊者	-11.4054
亦非我	-11.4067
出三界	-11.4069
羅漢果	-11.4106
通三界	-11.4121
說是法	-11.4126
3、「	-11.4126
誐哩	-11.4126
憂苦	-11.4134
常不動	-11.4151
聞慧	-11.4162
淨三業	-11.417
是身如	-11.4176
難遇	-11.4184
無所緣	-11.4188
訶囉	-11.4188
把他	-11.4193
神光	-11.4196
勤奮	-11.4196
罪失	-11.4199
彼補特伽羅	-11.4209
0)	-11.4218
入無為	-11.4222
山川	-11.4228
部分內容	-11.4235
不顧	-11.424
總目	-11.4256
成菩提	-11.4259
dā	-11.4279
亦得名	-11.4286
71、	-11.429
嚴持	-11.429
高尚的	-11.4297
不避	-11.4302
tat	-11.4325
的題記	-11.4327
編成	-11.4335
第十七	-11.435
頌文	-11.4367
集僧	-11.4379
的時代	-11.4383
無著無縛無脫	-11.4387
jñā	-11.4387
筵	-11.4388
所需	-11.4388
禰	-11.439
縫	-11.4396
世尊在捨衛城	-11.4402
堪任	-11.4406
智惠	-11.4407
抗	-11.4409
謹當宣	-11.4409
注想	-11.441
穴	-11.4412
梵夾裝	-11.4412
頂禮佛足	-11.4413
如我解佛所說義	-11.4413
謹畏	-11.4414
若干種	-11.4414
魄	-11.4415
雀	-11.4415
敷座	-11.4415
天花	-11.4416
琅	-11.4416
入菩薩行論	-11.4417
鑊	-11.4418
囑累	-11.4418
若了依他	-11.4418
忖	-11.4418
星君	-11.4419
赤真珠	-11.4419
波斯匿	-11.442
抵	-11.442
性質相同	-11.4421
54、	-11.4421
不可保信	-11.4423
族姓	-11.4423
龍興寺經藏	-11.4423
吝	-11.4423
波浪	-11.4424
沖	-11.4425
鳥獸	-11.4425
喫	-11.4425
滾	-11.4425
堯	-11.4425
礫	-11.4425
舞	-11.4425
捶	-11.4426
涕	-11.4426
枯竭	-11.4426
毀譽	-11.4427
珍珠	-11.4428
論自釋云	-11.4428
脂	-11.4428
報佛恩	-11.4429
綿	-11.4429
調柔	-11.4429
波吒離村	-11.4429
癹	-11.4429
遊戲	-11.443
收歸入藏	-11.443
信受奉行	-11.443
什	-11.443
驢	-11.443
壤	-11.4431
層燈	-11.4431
花巾	-11.4431
祕	-11.4431
牢獄	-11.4431
螺文	-11.4432
警	-11.4432
四部弟子	-11.4432
如說修行	-11.4432
雷音	-11.4432
筍	-11.4432
報復必更激	-11.4433
呂	-11.4433
丸	-11.4433
繪	-11.4434
巡	-11.4434
臃	-11.4434
逞	-11.4434
更何待言	-11.4435
羅睺羅	-11.4435
婆沙師	-11.4435
癩病患者善覺	-11.4435
靖	-11.4435
美貌	-11.4435
兔	-11.4435
碧	-11.4435
非常高興	-11.4435
我於爾時	-11.4435
圭峰禪師	-11.4435
古今譯經圖紀	-11.4436
曠劫	-11.4436
猶若虛空	-11.4436
獲得正覺	-11.4436
墳	-11.4436
悉皆消滅	-11.4437
阿僧祗劫	-11.4437
壇前教誡	-11.4437
施予	-11.4437
擯	-11.4437
澀	-11.4438
樣態	-11.4438
療治	-11.4438
儻	-11.4438
愿	-11.4438
秤	-11.4438
肘	-11.4439
頓漸	-11.4439
增福壽	-11.4439
佛頂心陀羅尼經	-11.4439
酥	-11.4439
窺	-11.444
火急	-11.444
异熟	-11.444
探討	-11.444
(§3.2	-11.444
迦爾巴住神	-11.444
guṇa	-11.444
大勢至菩薩	-11.444
風吹	-11.444
百姓	-11.444
稽	-11.4441
了所有的	-11.4441
須彌山王	-11.4441
鞠躬	-11.4441
星光神	-11.4441
故致斯	-11.4441
N	-11.4441
śruta	-11.4441
eṣu	-11.4441
楞伽經	-11.4442
阿毗達磨	-11.4442
的最長壽命	-11.4442
昏衢	-11.4442
嬈	-11.4442
巨大的	-11.4443
傾虔	-11.4443
瀝	-11.4443
感格	-11.4443
儲	-11.4443
大理國	-11.4443
此日齋者	-11.4443
聞經眾等罪消滅	-11.4443
應了了分明已生起之	-11.4443
複雜	-11.4443
羯摩	-11.4443
亞	-11.4443
廣引彈事	-11.4443
曲折	-11.4443
毀辱	-11.4443
阿僧祇	-11.4444
淮	-11.4444
清淨法身毗盧遮那佛	-11.4444
輕賤	-11.4444
玩	-11.4444
顫	-11.4444
寶髻故事	-11.4444
優秀	-11.4445
骨肉	-11.4445
大周刊定眾經目錄	-11.4445
我滅度後	-11.4446
遼代	-11.4446
閣	-11.4446
大方廣佛華嚴經	-11.4446
紅瑪瑙	-11.4447
東晉	-11.4447
天監四年	-11.4447
欣喜	-11.4447
右兩個半葉	-11.4447
特定的	-11.4447
蘆	-11.4447
南無地藏王菩薩	-11.4448
虔信	-11.4448
漚	-11.4448
銷	-11.4448
綜合	-11.4448
願我等所求如意	-11.4448
英雄	-11.4449
馬鳴	-11.4449
婆伽婆	-11.4449
頭腦	-11.4449
所節抄	-11.4449
適當的	-11.4449
形狀	-11.4449
燈供養	-11.445
每月十齋日	-11.445
二相本來	-11.4451
梯	-11.4451
巨海	-11.4451
豁然	-11.4452
貧富	-11.4453
香爐	-11.4454
玄奘法師	-11.4454
冒	-11.4454
埵	-11.4455
恆沙	-11.4455
這兩個	-11.4455
偶然	-11.4455
什物	-11.4455
字樣	-11.4456
集中在	-11.4456
個個	-11.4456
照片	-11.4456
品第二十	-11.4456
(§4.3	-11.4457
施無畏	-11.4457
開導	-11.4457
利鈍	-11.4457
捨身命	-11.4457
庾	-11.4458
扣	-11.4459
廢棄	-11.4459
週	-11.4459
胎藏界	-11.4459
塵垢	-11.446
勸導	-11.446
溥	-11.446
大日經	-11.4461
鷲	-11.4461
法筵	-11.4461
惠辯	-11.4462
叉手	-11.4462
大迦旃延	-11.4463
金剛頂	-11.4463
念阿彌陀佛	-11.4464
江泌	-11.4464
戰勝	-11.4465
藥師佛解	-11.4465
提婆	-11.4466
高座	-11.4466
舊抄本	-11.4468
不懈	-11.4468
我們知道	-11.4469
一切種智	-11.4471
動靜	-11.4471
修禪定	-11.4471
平滿	-11.4472
如此處言	-11.4472
摩訶薩埵	-11.4472
這部經典	-11.4473
漸次而	-11.4474
▁pañca	-11.4474
體系	-11.4475
病患	-11.4475
指導	-11.4476
戒條	-11.4478
鉢頭	-11.4479
美味	-11.4481
法苑	-11.4481
亦不得	-11.4482
往詣	-11.4483
賤人	-11.4483
慈愍故	-11.4484
懺主	-11.4484
各個	-11.4485
有疾菩薩	-11.4487
概念	-11.4488
求懺悔	-11.4489
情期	-11.4489
11.	-11.4489
俱盧	-11.449
480	-11.449
立誓	-11.449
現狀	-11.4492
釋氏	-11.4495
南無僧伽	-11.4496
誦持	-11.4499
各各當	-11.4499
何期	-11.45
久近	-11.45
除遣	-11.4501
白雲	-11.4501
傳承	-11.4501
感動	-11.4501
聲聞乘	-11.4506
引用了	-11.4508
辯論	-11.451
他看著	-11.4511
妙供	-11.4512
▁甲本	-11.4514
論文自	-11.4515
難窮	-11.4519
須達	-11.4522
宿業	-11.4522
金剛禮	-11.4523
分類	-11.4523
竺法護譯經	-11.4524
喜歡	-11.4525
侍從	-11.4525
等同於	-11.4525
故應勵力	-11.4526
直須	-11.4527
專門	-11.4528
放光明	-11.4531
黎明	-11.4531
第一義空	-11.4532
五百弟子	-11.4533
地瑟吒	-11.4536
夜分	-11.4537
之極也	-11.4537
縛羅	-11.4537
萬種	-11.4544
無私	-11.4546
道諦	-11.4548
著名的	-11.4552
稱述	-11.4554
報障	-11.4557
願承	-11.4557
難得之	-11.4558
爾時須菩提	-11.4562
.)」「(	-11.4563
句話	-11.4565
內凡惑	-11.4567
經籍	-11.4573
悲泣	-11.4573
秫帝	-11.4575
普通	-11.4575
修空性	-11.4578
的分類	-11.4578
瞋怒	-11.4579
做了	-11.458
婆婆	-11.4582
在天上	-11.4589
哆耶	-11.4589
如前說	-11.459
真如性	-11.459
無作相	-11.4591
來迎	-11.4593
不得自在	-11.4594
增上生	-11.4595
深遠	-11.4597
後期	-11.4602
祗是	-11.4602
的意見	-11.4603
承受	-11.4609
邊地	-11.4609
成佛果	-11.4619
勤苦	-11.4619
未達	-11.4621
智海	-11.4622
單獨	-11.4623
光臨	-11.4626
掌中	-11.4628
吾我	-11.4631
生活在	-11.4638
轉深	-11.4643
成壞	-11.4651
的欲望	-11.4654
母胎	-11.4656
等四種	-11.4662
所述的	-11.4662
如本無	-11.4664
5.3	-11.4677
諸法空	-11.4681
邪觀	-11.4684
參校	-11.4687
報父母	-11.4688
不應爾	-11.469
至孝	-11.4698
良因	-11.4699
三儀軌中	-11.4702
十信	-11.4709
顯正	-11.4711
□□□□□□	-11.4715
五輪	-11.4716
開通	-11.4717
七覺	-11.4719
與其他	-11.4731
種行願	-11.4738
何者為	-11.4754
56、	-11.4755
親愛	-11.4756
如電	-11.4759
te	-11.4765
的引文	-11.4774
故論云	-11.4786
過去諸佛	-11.4797
逃脫	-11.4806
宗章疏	-11.4812
部典籍	-11.4817
罪墮	-11.4834
□□□□□□□□□□	-11.4838
極大的	-11.4848
色陰	-11.4852
金色光	-11.4871
得衣食	-11.4871
執實	-11.4882
何益	-11.4897
有多種	-11.4904
異熟果	-11.4911
日持齋	-11.493
金剛般若經	-11.4941
一一色	-11.4948
這一部分	-11.4955
引述	-11.4962
有許多	-11.4965
進行了	-11.4991
看者見佛在	-11.5002
兩段	-11.5016
新編	-11.502
當來末	-11.502
虛空藏菩薩	-11.5046
約法身	-11.5074
的千字文帙號	-11.5099
世間所有	-11.51
寂照	-11.514
他們都	-11.5143
anu	-11.5144
ty	-11.5145
世界空	-11.5179
眾誦	-11.5182
無價寶	-11.5202
伽羅	-11.5205
花供養	-11.5206
諸魔	-11.5216
保安	-11.5222
64、	-11.5237
河沙	-11.5266
幻事	-11.5286
551	-11.5299
告訴我	-11.5325
別簡	-11.5332
僧法誦出	-11.5336
比丘僧	-11.5372
偉	-11.5373
無量壽	-11.538
興高采烈	-11.5387
散入諸髮	-11.539
根本拔除	-11.539
婉轉下垂	-11.539
態度	-11.5392
五百天女	-11.5393
倚臥	-11.5395
無尋無伺	-11.5395
那伽薩瑪拉	-11.5396
苗芽	-11.5397
狐狸	-11.5397
十餘卷	-11.5399
天竺國菩提達摩禪師論	-11.5401
緣聚會	-11.5406
艷	-11.5408
皆向上靡	-11.5408
僧祇	-11.5409
串	-11.541
五戒十善	-11.541
得聞是經	-11.5411
柔軟可愛	-11.5412
耐	-11.5412
匱	-11.5414
膚	-11.5414
入菩薩行論廣解卷	-11.5415
光目女	-11.5415
世尊如是說	-11.5416
螺髻	-11.5417
磣	-11.5417
唾	-11.5417
穎脫	-11.5417
鬧	-11.5418
一心奉請藥師護教	-11.5418
難陀尊者	-11.5418
如槁木	-11.5418
景德	-11.5419
膿	-11.542
發無上菩提心	-11.542
惟願聖慈	-11.542
血肉	-11.542
滑	-11.542
有眾多	-11.542
疲苦	-11.5421
阿羅訶	-11.5421
愉快	-11.5421
不可愛樂	-11.5422
以恒河沙等身布施	-11.5422
撲	-11.5423
街	-11.5423
拭	-11.5423
今為舉揚	-11.5423
淫慾	-11.5423
香花一心奉請	-11.5424
田中良昭	-11.5425
挂	-11.5425
牆	-11.5425
粒	-11.5425
清信士	-11.5425
綰疊	-11.5425
道品等行	-11.5426
寐	-11.5426
簸	-11.5426
九十八使	-11.5426
過現未來	-11.5427
萇	-11.5427
王中之王	-11.5427
兜	-11.5427
拯	-11.5427
肆	-11.5427
五供養真言	-11.5427
殄	-11.5427
祭則致其嚴	-11.5427
范	-11.5427
已沐雲臨	-11.5428
首殘尾存	-11.5428
啄	-11.5428
婉轉相著	-11.5429
啞	-11.5429
蟠龍	-11.5429
或觀察諸法之	-11.5429
荷擔	-11.5429
矩	-11.5429
揣	-11.5429
兔角	-11.5429
陪	-11.543
悖	-11.543
邑	-11.543
加持發菩提心真言	-11.543
四無量心	-11.543
首尾均殘	-11.543
長一丈	-11.5431
俾令	-11.5431
二十三年	-11.5431
恭謹	-11.5431
名有執受	-11.5431
鏘	-11.5431
增一阿含經	-11.5432
遁	-11.5432
慈覺禪師	-11.5432
楷	-11.5432
恒河中所有沙	-11.5432
翼	-11.5432
澆	-11.5432
受其大苦	-11.5432
佛祖統記	-11.5433
車輪	-11.5433
阻止	-11.5433
庵	-11.5433
臘	-11.5433
几	-11.5433
鋪	-11.5434
無退轉	-11.5434
流出二光	-11.5434
坐臥	-11.5434
廣長舌相	-11.5434
是微塵眾	-11.5435
起信論	-11.5435
熱鐵輪	-11.5435
沉溺	-11.5435
藥師海會佛菩薩	-11.5435
甘露灑	-11.5435
錯謬	-11.5435
飽滿	-11.5435
擺脫	-11.5435
炭	-11.5435
三觀澄明	-11.5435
亦未為歷代大藏經所收	-11.5436
把握	-11.5436
秉	-11.5436
那時候	-11.5436
員	-11.5436
清潔	-11.5436
夫妻	-11.5436
激情	-11.5436
帖	-11.5436
辜	-11.5436
考慮到	-11.5437
謾	-11.5437
峻	-11.5437
如千日	-11.5437
梁武帝	-11.5437
圍遶	-11.5437
撫	-11.5437
遭逢	-11.5437
一切經音義	-11.5438
饑渴	-11.5438
勅	-11.5438
耳遙聞	-11.5438
整理本的底	-11.5438
慾望	-11.5438
灣	-11.5438
腰	-11.5438
謙下	-11.5438
窺基	-11.5438
娛	-11.5439
怙	-11.5439
腋	-11.5439
匿	-11.5439
剝	-11.5439
乾城	-11.5439
悉見是	-11.5439
順天府志	-11.5439
具諸功德	-11.5439
瞿	-11.5439
堂堂	-11.5439
義理性佛教	-11.544
敷陳	-11.544
沮喪	-11.544
韻音	-11.544
brahm	-11.544
北魏	-11.544
nirjarā	-11.544
潭	-11.5441
(513)	-11.5441
嗎	-11.5441
鐸	-11.5441
唅	-11.5441
明教興意	-11.5441
f	-11.5441
cāritr	-11.5441
佛教全書	-11.5442
桃	-11.5442
歟	-11.5442
鼎	-11.5442
蒼	-11.5442
以果收因	-11.5442
無來無去	-11.5442
世間出世間兩階人發菩提心同異法	-11.5442
憶念我昔	-11.5443
端肅	-11.5443
柔和	-11.5443
兮	-11.5443
掣	-11.5443
的標準	-11.5443
閻王	-11.5444
法處所攝	-11.5444
莊嚴佛土	-11.5444
緒	-11.5444
規模	-11.5444
樂小法者	-11.5444
般若心經	-11.5444
.)】「	-11.5444
需要的人	-11.5445
明受苦樂	-11.5445
svā	-11.5445
十二神王	-11.5445
俊	-11.5445
數過百卷	-11.5445
新唐書	-11.5445
編輯	-11.5445
今此道場	-11.5445
微笑	-11.5445
銷釋金剛經科儀	-11.5445
明來處	-11.5445
rūp	-11.5446
東域傳燈目錄	-11.5446
讚嘆	-11.5446
所感之土	-11.5446
琳	-11.5447
nāma	-11.5447
白衣派	-11.5447
任運	-11.5447
目之為	-11.5447
略為一聚	-11.5447
消磨	-11.5448
考慮	-11.5448
凡庸	-11.5448
舍婆提	-11.5449
昊天	-11.5449
紀錄	-11.5449
金剛臺	-11.5449
藥師護教	-11.5449
四生六道	-11.5449
遲疑	-11.5449
中國僧人	-11.545
法界一分	-11.545
儀範	-11.545
說是語	-11.5451
品第三十	-11.5451
通局	-11.5451
傳世文獻	-11.5451
光緒	-11.5451
三萬二千	-11.5452
月亮	-11.5452
英國	-11.5452
七寺本	-11.5452
的主體	-11.5453
鮑善恢題記	-11.5453
影印	-11.5454
可以看出	-11.5454
扶持	-11.5454
田主	-11.5454
唯識論	-11.5454
隋唐	-11.5455
文義相	-11.5455
行事鈔	-11.5455
傳授	-11.5455
稱彼岸	-11.5456
豫	-11.5456
敷演	-11.5456
議論	-11.5457
奧義	-11.5457
雲集	-11.5457
你為什麼	-11.5457
可靠	-11.5458
乾慧	-11.5459
歡悅	-11.5459
加持獻	-11.5459
跋囉	-11.5459
飲水	-11.546
一切有為法	-11.546
可分成	-11.546
龍象	-11.546
首尾題	-11.546
召集	-11.546
娜	-11.5461
般若得道經	-11.5461
楊廣	-11.5461
修訂	-11.5462
七毛	-11.5462
脫落	-11.5462
不與取	-11.5462
大智度論	-11.5463
戍涅馱	-11.5464
莎嚩	-11.5464
憶持	-11.5464
停止	-11.5465
整個世界	-11.5465
背恩	-11.5465
66、	-11.5465
恣意	-11.5465
諷誦	-11.5467
督	-11.5468
仁慈	-11.5468
作緣也	-11.5469
接近	-11.5469
嘍	-11.5469
聖顏	-11.5469
奇異	-11.547
穆	-11.5471
諸化佛	-11.5471
莎婆	-11.5471
豈容	-11.5471
罹	-11.5472
一切萬法	-11.5472
舍利卜怛囉	-11.5472
無量壽經	-11.5473
▁M	-11.5473
18.	-11.5474
獨居	-11.5474
歎未曾有	-11.5474
無慾	-11.5474
而不知者	-11.5476
寫成	-11.5476
密切	-11.5476
流轉生死	-11.5477
妙難思	-11.5477
殘害	-11.5477
想要的	-11.5477
雜經錄	-11.5478
西夏佛教	-11.5478
思考	-11.5479
三界外惑	-11.5482
14.	-11.5482
致敬	-11.5485
鹽官	-11.5485
鳩摩羅什譯	-11.5486
未審	-11.5486
每月	-11.5488
大批	-11.5489
簡略	-11.5489
莽	-11.5491
南齊	-11.5491
最近	-11.5491
或怨家為	-11.5491
福壽	-11.5492
百味	-11.5492
號哭	-11.5493
rati	-11.5493
▁乙本	-11.5495
誐帝	-11.5498
在敦煌文獻中	-11.5498
底瑟吒	-11.5499
若有比丘	-11.55
皤囉	-11.5501
顯隱	-11.5502
續藏本	-11.5503
舊錄	-11.5505
諍論	-11.5508
玄宗	-11.5509
七歲	-11.551
清淨慧菩薩	-11.5511
癡愛	-11.5511
最終	-11.5513
月蓋	-11.5514
福德聚	-11.5517
妙喜	-11.5518
不能銜接	-11.5518
吠那	-11.552
為中心	-11.5522
悉陀夜	-11.5523
共計	-11.5524
間隔	-11.5524
特色	-11.5525
青蓮	-11.5526
合蓋	-11.5526
賢德	-11.5527
站在	-11.553
生冤債	-11.553
楞嚴解冤釋結道場儀	-11.5531
我希望	-11.5531
黃門	-11.5532
賢善	-11.5532
的態度	-11.5532
善無畏	-11.5532
我檀那	-11.5533
無一物	-11.5541
當於何	-11.5541
領受	-11.5542
〕(?)	-11.5543
三檀	-11.5544
推斷	-11.5545
靈光	-11.5545
相連	-11.5556
兩耳	-11.5556
律師	-11.5559
於苦海	-11.5561
到達	-11.5561
鼻識	-11.5567
經版	-11.5567
下接	-11.557
不妄語	-11.5572
濕生	-11.5577
方始	-11.5579
何等人	-11.5581
(50	-11.5584
燈王	-11.5584
甘心	-11.5594
分散	-11.5603
爭得	-11.5617
寒熱	-11.5618
苦趣	-11.5625
兩品	-11.5628
所緣緣	-11.5633
一批	-11.5635
萬億那由他	-11.5662
vya	-11.5667
寶瓶	-11.5668
無妨	-11.57
108	-11.5721
捨置	-11.5724
於佛前	-11.5727
以法為	-11.5751
我心中	-11.5817
虛空藏	-11.5821
不來不	-11.5828
攝益	-11.5851
傳譯	-11.5851
天眼遙	-11.5853
19.	-11.586
邊看者見佛在	-11.5871
美食	-11.5875
不妨	-11.5881
對待	-11.5884
725	-11.59
nam	-11.5911
08、	-11.5918
火所燒	-11.5919
av	-11.5932
不能遮	-11.5949
億萬	-11.5979
śeṣ	-11.5985
寂寂	-11.601
偈贊	-11.6049
nir	-11.6052
持律	-11.6077
正直	-11.609
寶花	-11.609
回光	-11.6104
能了知	-11.6123
yāḥ	-11.6129
值佛	-11.6134
成阿羅漢	-11.6164
僅唯	-11.6234
金容	-11.6237
krama	-11.6262
鐵圍	-11.6275
為眾生說	-11.628
歡喜園	-11.6301
彼怨敵	-11.6308
涯	-11.6316
空閑	-11.6365
帝釋天	-11.6369
看到這個	-11.6394
96、	-11.6396
燦爛	-11.6427
熱地獄	-11.6428
品第十	-11.6431
秫	-11.6445
萬里	-11.6447
刻石	-11.6472
虎吽	-11.6476
第一群	-11.6484
親眷	-11.6487
竺法護譯	-11.6488
諷	-11.6489
起大悲	-11.6496
象狀如	-11.6497
濟群	-11.6501
銳	-11.6502
一盲人摸觸象	-11.6503
婉轉	-11.6506
獵人	-11.6506
堅實法	-11.6508
奶	-11.6509
森	-11.6513
牖	-11.6515
酥油	-11.6515
被人輕賤	-11.6515
相即是非相	-11.6517
構	-11.6517
祇樹給孤獨園	-11.6519
獅	-11.6521
給孤獨	-11.6521
顛	-11.6522
迅	-11.6522
慳吝	-11.6522
非有非無	-11.6522
彼無用故	-11.6522
馳散	-11.6523
依阿練若	-11.6523
墓地觀	-11.6524
自他互換	-11.6524
補特伽羅及蘊	-11.6525
猿猴	-11.6525
答第三問	-11.6525
謁	-11.6525
金剛已還	-11.6525
讚譽	-11.6525
敦煌地區的	-11.6525
不垢不淨	-11.6525
從本以來	-11.6525
即興而說偈	-11.6525
第三時中	-11.6525
六類冤債	-11.6525
舌二根	-11.6525
洽	-11.6526
觀見腐屍	-11.6526
渺	-11.6526
顛狂	-11.6526
頂戴	-11.6527
唯求自利	-11.6527
大毗盧遮那成道經	-11.6527
娶	-11.6527
如紺琉璃	-11.6528
值遇	-11.6528
孝順設供拔苦報恩道場儀	-11.6529
纏繞	-11.6529
八十隨形好	-11.6529
骸骨	-11.653
奮	-11.653
危脆	-11.653
有五百色	-11.653
奮發	-11.653
随	-11.653
棉	-11.653
超昇	-11.6531
老病死	-11.6531
漸次	-11.6531
得四沙門果	-11.6531
加持獻花寶座真言	-11.6531
劫奪	-11.6531
受想行識	-11.6531
操	-11.6531
眸	-11.6532
絡	-11.6532
慨	-11.6533
馥	-11.6533
夜已過	-11.6533
浮囊	-11.6534
入菩薩行論廣解佛子津梁釋	-11.6534
醒悟	-11.6534
糠	-11.6534
糜	-11.6534
日至心進念	-11.6534
錯亂	-11.6534
蚊	-11.6534
痕	-11.6534
因緣心論釋	-11.6534
抱持	-11.6535
脾	-11.6535
荊	-11.6535
不能見如來	-11.6535
視之如	-11.6535
阿耨菩提	-11.6536
孫陀利	-11.6536
汗	-11.6536
乾闥婆	-11.6537
暇滿難得	-11.6537
基本一致	-11.6537
知曉	-11.6537
弓	-11.6538
穹	-11.6538
梵釋寺	-11.6538
鋸	-11.6538
從定起	-11.6539
慈童	-11.6539
起大邪見	-11.6539
霄	-11.6539
正統	-11.6539
肌肉	-11.654
威勢	-11.654
東西南北	-11.654
芒	-11.654
沼	-11.654
可怕的	-11.654
晦	-11.6541
鶴	-11.6541
婚禮	-11.6541
匱乏	-11.6541
辱罵	-11.6541
傑	-11.6541
俱舍論	-11.6541
逼迫	-11.6541
誰言得	-11.6541
無上佛菩提	-11.6541
謫	-11.6541
釀	-11.6541
厘米	-11.6541
大臣們	-11.6541
如來有所說法	-11.6541
緣起緣性	-11.6541
軒	-11.6542
颯	-11.6542
千百億	-11.6542
防止	-11.6542
入城乞食	-11.6542
榜	-11.6542
隧道	-11.6542
恤	-11.6542
入中論	-11.6542
嘌	-11.6542
勇士	-11.6542
解冤結菩薩摩訶薩	-11.6542
傳入雲南	-11.6542
南無日月光	-11.6542
羽	-11.6542
那謨	-11.6543
入不二法門	-11.6543
翹	-11.6543
纖毫亦無	-11.6543
開元舊錄部分	-11.6543
裴	-11.6543
丘陵	-11.6544
如來滅後	-11.6544
湛然常住	-11.6544
淋	-11.6544
繁榮	-11.6544
意味著	-11.6544
菴	-11.6544
邏輯	-11.6544
應作如是觀	-11.6544
倏	-11.6545
千字文	-11.6545
催	-11.6545
映奪	-11.6545
宵	-11.6545
瀾	-11.6545
侯沖	-11.6546
龐	-11.6546
鄙	-11.6546
廣百論疏	-11.6546
忤	-11.6546
菩提妙心	-11.6546
粉	-11.6547
鹿野	-11.6547
身中三毒	-11.6547
拍	-11.6547
日下舊聞考	-11.6547
島	-11.6547
滌	-11.6547
飢	-11.6548
阿闍梨眾賢	-11.6548
鉀	-11.6548
難報志心皈命禮	-11.6548
工巧	-11.6548
忉利天宮	-11.6548
斤	-11.6548
所不能及	-11.6548
達摩禪師論	-11.6549
又乃或為	-11.6549
親戚	-11.6549
頂上旋	-11.6549
皮肉	-11.655
纏縛	-11.655
勾	-11.655
尋找	-11.655
站起來	-11.655
剎土	-11.655
不可思量	-11.655
普供養真言	-11.655
月光童子	-11.6551
無窮無盡	-11.6551
奮迅	-11.6551
瞞	-11.6551
palyopama	-11.6551
下部殘缺	-11.6551
行了禮	-11.6551
第十九	-11.6551
瘥	-11.6552
筵開	-11.6552
如是已說	-11.6552
我得阿羅漢道	-11.6552
衢	-11.6552
§7.1	-11.6552
sparśa	-11.6552
▁二十三日	-11.6552
渡河	-11.6552
贈	-11.6552
法王家	-11.6552
vṛtt	-11.6552
▁Hahn	-11.6552
▁二十九日	-11.6552
太山府君下	-11.6552
sūkṣma	-11.6552
▁二十八日	-11.6552
未為我國歷代大藏經所收	-11.6552
▁十八日	-11.6552
▁我受持不	-11.6552
姿	-11.6552
胸臆	-11.6552
sth	-11.6553
ghāt	-11.6553
§2.3	-11.6553
正加法	-11.6553
堅定不移	-11.6553
獨特	-11.6553
酬恩	-11.6553
鸞宿	-11.6553
滔滔	-11.6553
百歲光陰	-11.6553
勸勉	-11.6553
華嚴瓔珞經	-11.6553
鑽	-11.6553
解脫知見	-11.6553
祭司	-11.6553
gati	-11.6553
▁八日	-11.6553
bheda	-11.6553
喪失	-11.6553
§1.3	-11.6554
的兩倍	-11.6554
Ф	-11.6554
梵文原文	-11.6554
鄰虛	-11.6554
高下執	-11.6554
燋	-11.6554
藥師求解結	-11.6554
修五戒十善	-11.6554
拈提	-11.6554
暑	-11.6554
寶頂山	-11.6555
文殊般若經	-11.6555
自己的生命	-11.6555
藏文本	-11.6555
佛頂心觀世音	-11.6555
犬	-11.6555
昂	-11.6556
鬻	-11.6556
蓮臺	-11.6556
云何於此經	-11.6556
bhedā	-11.6556
無所從來	-11.6556
削	-11.6556
夾註	-11.6557
篆	-11.6557
興奮	-11.6557
鳳儀北湯天	-11.6557
轉輪王	-11.6557
indriya	-11.6557
卿主	-11.6557
考訂	-11.6557
莫測	-11.6558
律藏	-11.6558
修煉	-11.6558
酌	-11.6558
再生族	-11.6558
沉默	-11.6558
鞭撻	-11.6559
帥	-11.6559
嶺	-11.6559
譜系	-11.6559
完美的	-11.6559
冤家債主	-11.6559
清淨無染	-11.6559
爐炭	-11.6559
心猶未	-11.6559
局限	-11.6559
甯	-11.656
馨香	-11.656
蟾	-11.656
聖線	-11.656
四念處	-11.656
夫婦	-11.656
能仁自在	-11.656
興福禪師	-11.6561
漢代失譯	-11.6561
淵源	-11.6561
鉢囉底	-11.6561
鉢頭摩	-11.6561
計劃	-11.6561
行至同欄第	-11.6561
訴	-11.6562
廣泛	-11.6562
坦然	-11.6562
精誠	-11.6563
值得注意	-11.6563
最上之寶	-11.6563
瞻禮	-11.6563
官員	-11.6563
祀	-11.6563
可怖	-11.6563
俗諦	-11.6563
咄	-11.6563
不覺不知	-11.6564
遵奉	-11.6564
緊那羅	-11.6564
床座	-11.6564
澄神	-11.6564
民族	-11.6564
379	-11.6564
大目犍連	-11.6564
植物	-11.6565
初成正覺	-11.6565
手腳耳	-11.6565
炙	-11.6565
人法俱	-11.6565
俱有因	-11.6565
鼻孔	-11.6565
的命令	-11.6566
金剛界大法對受	-11.6566
梅	-11.6567
孟列夫	-11.6567
長者維摩詰	-11.6567
無緣慈	-11.6567
93、	-11.6567
息諍論	-11.6568
蹈	-11.6568
富樓那	-11.6568
縒	-11.6568
三藐三菩陀	-11.6568
嚴格	-11.6568
存文相當於	-11.6568
ānām	-11.6569
祛除	-11.657
掉悔	-11.657
難議	-11.657
499	-11.657
推測	-11.657
他人之苦	-11.657
就中有二	-11.6571
好醜	-11.6571
那些婆羅門	-11.6571
割註	-11.6571
退失	-11.6571
雙林	-11.6571
縣令	-11.6572
牛頭	-11.6572
三十五佛名禮懺	-11.6572
誐誐曩	-11.6572
勇猛精進	-11.6572
劉王	-11.6572
昏昏	-11.6573
承許	-11.6573
錢財	-11.6574
容易	-11.6574
皆發阿耨多羅三藐三菩提心	-11.6574
器世間	-11.6574
燸	-11.6575
詳情	-11.6575
傲物	-11.6575
天人師	-11.6575
排斥	-11.6575
六衰	-11.6576
短小	-11.6576
▁十五日	-11.6576
叭羅	-11.6577
折伏	-11.6577
損壞	-11.6578
持戒律	-11.6578
華嚴部	-11.6579
盧吉	-11.658
寶劍	-11.658
奇妙	-11.6581
連綴	-11.6581
燒道根	-11.6581
層次	-11.6582
顏色	-11.6582
這兩種	-11.6582
尋訪	-11.6582
過咎	-11.6582
蹇	-11.6583
鑒照	-11.6583
半偈	-11.6584
勸君	-11.6585
室哩	-11.6585
名婆伽婆	-11.6585
369	-11.6585
那波那	-11.6585
發表在	-11.6586
尾虔娘	-11.6587
惡友	-11.6587
有萬億那由他	-11.6587
正式	-11.6588
餘里	-11.6588
識宿命	-11.6588
歲月	-11.6588
頗囉	-11.6589
姪他	-11.6589
針對	-11.659
陀囉尼	-11.6591
城裏	-11.6592
愚情	-11.6592
關聯	-11.6593
16.	-11.6593
紅色	-11.6594
六根清淨	-11.6594
崇高	-11.6595
該疏	-11.6595
無量法門	-11.6596
內宮	-11.6596
網羅	-11.6597
持鉢	-11.6597
▁tri	-11.6598
勝劣	-11.6598
義準	-11.6599
昇天	-11.6599
難敵	-11.6599
無我亦無	-11.6599
吽吽	-11.66
圓超	-11.66
雜亂	-11.6603
請問經	-11.6603
雪嚕畔	-11.6603
琉璃界	-11.6603
香飯	-11.6603
一切賢聖	-11.6603
訥	-11.6604
宿世	-11.6604
損失	-11.6605
卷十五	-11.6605
冒地	-11.6607
根器	-11.6608
冤親	-11.6608
難逢	-11.6608
寶頂	-11.6613
四分律	-11.6614
怛那	-11.6615
何關	-11.6616
雜類	-11.6617
嚩嚕	-11.6619
凌人	-11.662
校正	-11.6622
遂乃	-11.6622
永劫	-11.6623
vrat	-11.6623
固定	-11.6623
每日	-11.6624
經軌	-11.6624
母𩕳	-11.6625
萬古	-11.6625
生死輪迴	-11.6626
長夜	-11.6627
法幢	-11.6627
◇(	-11.6628
帶著	-11.6629
簡要	-11.6631
三千大千	-11.6634
本願經	-11.6635
尼師	-11.6639
傳燈	-11.664
月輪	-11.6641
利濟	-11.6641
我等有情	-11.6642
惠眼	-11.6645
當何所	-11.6649
無間獄	-11.6658
dāna	-11.6659
大丈夫	-11.6659
疏鈔	-11.666
稱歎	-11.6662
三世冤	-11.6671
第十六	-11.6672
善男子善女人	-11.6687
吽泮	-11.6688
與佛教的	-11.6721
這個孩子	-11.6749
殊方	-11.6757
遮遣	-11.6757
恭聞	-11.6791
問候	-11.6807
八中第	-11.6807
印文	-11.6845
虛度	-11.6851
孝感	-11.6862
童子下	-11.6874
如意樹	-11.6881
有過失	-11.6903
yoḥ	-11.6917
心持誦	-11.695
思議	-11.6955
中國人所撰	-11.6972
凡愚	-11.6984
大門分	-11.7037
550	-11.7044
夜半	-11.7061
dhika	-11.7061
悲哀	-11.7079
玉毫	-11.7104
rasa	-11.7125
150	-11.7152
śeṣā	-11.7152
起大悲心	-11.7185
更無他	-11.7225
分為十	-11.7235
可以發現	-11.7255
個月	-11.7284
右邊	-11.7306
/□□□□□□□□	-11.7362
令我得	-11.7392
個階段	-11.74
年十歲	-11.7456
21.	-11.7504
十五日	-11.7528
及其他	-11.7533
rya	-11.7606
離二邊	-11.7612
怛他誐哆	-11.7618
受持讀誦此經	-11.7618
賢劫	-11.7645
待考	-11.7675
恆河	-11.7675
億那由他	-11.7676
ayaḥ	-11.7678
176	-11.7681
樹林	-11.77
於我何	-11.7714
非恒有	-11.7718
遍三千	-11.7731
鼠	-11.7734
畏懼	-11.7743
跏趺坐	-11.7745
我和世界既	-11.7746
恢	-11.775
杳	-11.775
萬二千	-11.7752
死王使者	-11.7753
閻羅天子	-11.7758
即興自說	-11.7759
積集資糧	-11.776
之孝也	-11.7762
殺戮	-11.7763
推乾就濕	-11.7764
烏鴉	-11.7769
歧	-11.777
不應住色生心	-11.7771
眾生如來度者	-11.7772
筌	-11.7772
坦然平	-11.7772
仰告諸佛諸菩薩	-11.7772
歎佛宣疏	-11.7772
真俗混融	-11.7773
肯	-11.7773
四智圓	-11.7773
紫磨黃金	-11.7774
或在林中	-11.7774
若以色見我	-11.7774
大迦旃延尊者	-11.7774
晶	-11.7776
睛	-11.7776
敷座而坐	-11.7776
得福多不	-11.7777
是人行邪道	-11.7777
憑此結成	-11.7777
以具足相	-11.7777
先身有	-11.7777
思益經	-11.7777
去後留恩	-11.7777
人非人	-11.7778
離一切諸相	-11.7778
色等五境	-11.7779
枝葉	-11.7779
如來設教	-11.7779
裳	-11.7779
矢吹慶輝	-11.7779
謗方等經	-11.7779
刺刀扎	-11.7779
膿血	-11.778
喪則致其哀	-11.778
年正月一日改為	-11.7781
余	-11.7781
雪山不得為譬	-11.7781
永元二年	-11.7781
飯食已	-11.7781
汩	-11.7781
屎尿	-11.7781
剎帝利	-11.7781
樂音樹下	-11.7782
站立一旁	-11.7782
甘旨	-11.7782
懇禱	-11.7783
童瑋先生	-11.7783
覆蔽	-11.7783
退失菩提心	-11.7783
柔軟	-11.7784
十八不共	-11.7784
地獄等苦	-11.7784
價直	-11.7784
散花行道	-11.7784
登彼岸	-11.7784
恒河沙數	-11.7784
棍	-11.7785
善財童子	-11.7785
墮於地獄	-11.7785
肋	-11.7785
頭頂寶石	-11.7785
偉大的聖者啊	-11.7785
欲達無生	-11.7786
膩	-11.7786
赫赫	-11.7786
清信女	-11.7786
是緣覺人	-11.7786
秘密伽陀	-11.7786
來詣佛所	-11.7786
偏袒	-11.7786
應無所住	-11.7786
律儀戒	-11.7787
佛在世時	-11.7787
卡	-11.7787
描述	-11.7787
時眾得益	-11.7787
為一小殘片	-11.7787
酷	-11.7787
饈	-11.7787
麟	-11.7787
三滿多	-11.7787
萬九千	-11.7787
如夢幻泡影	-11.7787
複	-11.7787
商迦羯	-11.7787
數論師	-11.7787
牟	-11.7787
頗有眾生	-11.7787
掠	-11.7787
框	-11.7787
是一致的	-11.7787
死屍	-11.7788
袋	-11.7788
陀羅尼藏無邊	-11.7788
猊	-11.7788
雇	-11.7788
伏願不違本誓	-11.7788
尖	-11.7788
延齡	-11.7788
蝦	-11.7789
誑惑	-11.7789
皇宮	-11.7789
珀	-11.7789
佛如來手十指	-11.7789
尊勝破地獄儀軌	-11.7789
儒釋兼濟	-11.7789
縷	-11.7789
金剛以還	-11.7789
版片號	-11.7789
桑	-11.779
壇場內外悉清淨	-11.779
的責任	-11.779
開壇門部陀羅尼	-11.779
無上瑜伽派	-11.779
評價	-11.779
脅	-11.779
證無生忍	-11.779
誰有復誰無	-11.779
迷情見有	-11.779
当	-11.779
緇流	-11.779
貧困	-11.779
故論答云	-11.779
明教大師	-11.7791
施命為	-11.7791
邁	-11.7792
曹溪水	-11.7792
事本末	-11.7792
珊瑚	-11.7792
無盡意菩薩	-11.7792
聞經佛子罪消滅	-11.7792
褒	-11.7792
藥師海會	-11.7793
异門	-11.7793
顆	-11.7793
爇	-11.7794
晏	-11.7794
善護念諸菩薩	-11.7794
沒溺	-11.7794
倡	-11.7794
日月星辰	-11.7794
景審	-11.7795
販	-11.7795
塵不染塵	-11.7795
垢穢	-11.7795
士夫之身	-11.7795
右繞	-11.7795
巴利堯巴姆	-11.7795
審諦	-11.7795
殼	-11.7795
胞	-11.7796
志心勤禮拜	-11.7796
蘭膏發	-11.7796
悲憐	-11.7796
綵	-11.7796
墓	-11.7796
濟濟皆	-11.7796
倒在地上	-11.7796
波羅提木叉	-11.7796
狐	-11.7797
嘆德宣疏	-11.7797
覿	-11.7797
到這裏來	-11.7797
閈	-11.7797
去世後	-11.7797
以何因緣	-11.7797
mahā	-11.7797
煎	-11.7797
互不相	-11.7798
善哉善哉	-11.7798
亨	-11.7798
圓滿報身盧舍那佛	-11.7798
敲	-11.7798
聖者馬立奇	-11.7798
這件事	-11.7798
壬寅年	-11.7798
嗔	-11.7798
疫	-11.7798
痛癢思想生死識	-11.7798
如芭蕉	-11.7798
彼我相忘	-11.7798
涓	-11.7798
翔	-11.7798
藻	-11.7798
隨文說明	-11.7798
認識對象	-11.7799
剃髮	-11.7799
閑居	-11.7799
陛	-11.7799
災禍	-11.7799
膺	-11.7799
疲極	-11.7799
第二單元	-11.7799
皆大歡喜	-11.7799
對病應	-11.7799
菩提樹下	-11.78
嘴	-11.78
唸	-11.78
征	-11.78
微弱	-11.78
閻	-11.78
統領	-11.78
頁上第	-11.78
薩怛嚩	-11.78
堵	-11.78
抓	-11.78
探究	-11.78
景祐	-11.78
sthit	-11.78
比較複雜	-11.78
確認	-11.78
內涵	-11.7801
厥	-11.7801
扉	-11.7801
薰習	-11.7801
摶	-11.7801
調伏其心	-11.7801
勤劬	-11.7802
傳到敦煌	-11.7802
尤其是	-11.7802
胥	-11.7802
śubha	-11.7802
bhāg	-11.7802
織	-11.7802
ṅ	-11.7802
之所由生	-11.7802
敦煌地區的大藏經	-11.7802
作如是想	-11.7802
冤憎	-11.7802
四瀆	-11.7802
時向東方禮佛	-11.7802
尊崇	-11.7802
北京圖書館	-11.7802
§8.2	-11.7802
▁二十四日	-11.7802
天大將軍下	-11.7802
厲	-11.7802
▁十四日	-11.7802
全貌	-11.7803
應了了分明彼無	-11.7803
閻浮檀	-11.7803
ānāṃ	-11.7803
可變身	-11.7803
▁三十日	-11.7803
karma	-11.7803
紅塵	-11.7803
moha	-11.7803
大足石刻	-11.7803
kāla	-11.7803
>	-11.7803
貞元新定釋教目錄	-11.7803
閉塞	-11.7803
暫停	-11.7803
贊揚	-11.7803
▁丙本	-11.7804
醮	-11.7804
經律異相	-11.7804
昏迷	-11.7804
法處攝	-11.7804
儉	-11.7804
蕃	-11.7804
願此善力	-11.7804
聞佛所說	-11.7804
嚩囉拏	-11.7805
一段話	-11.7805
崖	-11.7805
無有少法	-11.7805
湧出	-11.7805
皆共成佛道	-11.7805
嬉	-11.7805
遊歷	-11.7805
培	-11.7805
prad	-11.7805
各自不同	-11.7805
廬	-11.7805
壹	-11.7805
vidh	-11.7806
祇園	-11.7806
參加	-11.7806
函	-11.7806
自利利他	-11.7806
昭昭	-11.7806
號為底本	-11.7806
最遲	-11.7806
繼承	-11.7806
得聖人心	-11.7807
波旬	-11.7807
)+《	-11.7807
始終無變	-11.7807
妖魔	-11.7807
如佛所說	-11.7807
拯救	-11.7807
善無畏所譯	-11.7807
慶喜	-11.7807
睒	-11.7807
陳明光	-11.7807
ste	-11.7807
sādh	-11.7808
牛羊	-11.7808
複印件	-11.7808
得法眼淨	-11.7808
呼吸	-11.7808
紺	-11.7808
目前尚無法	-11.7808
董氏	-11.7809
大莊嚴寺	-11.7809
雙行小字	-11.7809
千萬億	-11.7809
般若波羅蜜多心經	-11.7809
nava	-11.7809
悟本心	-11.7809
獻水妖	-11.7809
釋法尼	-11.7809
是法平等	-11.781
志心勤	-11.781
阿鼻地獄	-11.781
上二界	-11.781
棘	-11.781
企	-11.781
天監元年出	-11.781
波濤	-11.781
談談	-11.781
進退	-11.781
§7.16	-11.781
無閡	-11.7811
住相布施	-11.7811
開闡	-11.7812
黃昏	-11.7812
杯	-11.7812
蠲	-11.7812
空衣派刊本把	-11.7812
柰	-11.7813
佛告舍利弗	-11.7813
很清楚	-11.7813
el	-11.7813
所修諸善	-11.7813
伍	-11.7813
貧女	-11.7813
籌	-11.7813
謙和	-11.7814
哀愍	-11.7814
兩肩	-11.7814
實如聖教	-11.7814
澄清	-11.7814
賧子	-11.7814
這番	-11.7814
檀波羅蜜	-11.7814
幾時休	-11.7815
尖刀	-11.7815
狩	-11.7815
良藥	-11.7815
幽玄	-11.7815
芻	-11.7815
大概是	-11.7815
方塔本	-11.7815
舅	-11.7815
作此解	-11.7815
充足	-11.7816
集禪源諸論關要	-11.7816
大千沙界	-11.7816
恐畏長者	-11.7816
皆是佛法	-11.7816
排序	-11.7816
有三問答	-11.7816
糊	-11.7816
叢書	-11.7816
鈐	-11.7816
這部著作	-11.7817
天眼通	-11.7817
漸頓	-11.7817
雍	-11.7817
喜慶	-11.7817
賢愚	-11.7817
交參	-11.7817
鹿王	-11.7817
語默	-11.7818
敏	-11.7818
繒	-11.7818
楞嚴會上	-11.7818
結尾部分	-11.7818
遏阿暗惡	-11.7818
熏成	-11.7818
犁	-11.7819
煩惱怨敵	-11.7819
這個數字	-11.782
輕慢	-11.782
世俗諦	-11.782
慈悲喜捨	-11.7821
心中充滿了	-11.7822
遵循著	-11.7822
的序言	-11.7822
無住涅槃	-11.7823
多饒	-11.7823
吾今為汝	-11.7823
傳記錄	-11.7823
憎愛	-11.7823
在那兒	-11.7824
直饒	-11.7824
新資料	-11.7824
慶幸	-11.7824
而不乖	-11.7824
挽	-11.7825
不相干	-11.7825
眼淚	-11.7826
愍傷	-11.7826
六類冤家	-11.7826
悲痛	-11.7826
放棄了	-11.7827
第四章	-11.7827
偏執	-11.7827
差殊	-11.7827
甚麼	-11.7828
愛慾	-11.7828
101	-11.7828
煞害	-11.7828
播抳	-11.7828
哀憐	-11.7829
飛鳥	-11.7829
憍慢	-11.7829
具一切智	-11.7829
分裂	-11.783
䂮	-11.783
而彼處言	-11.783
嚩囉那	-11.7831
與盡名	-11.7831
摩利支天	-11.7832
和合僧	-11.7832
管理	-11.7833
方軌	-11.7834
愉快地	-11.7834
323	-11.7834
一百三十卷	-11.7834
二乘之人	-11.7835
呈現	-11.7835
號釋迦牟尼	-11.7835
自證分	-11.7835
虛誑	-11.7836
四天王下	-11.7836
有較大的	-11.7836
長房	-11.7836
娑嚩婆嚩	-11.7837
瑟恥帝	-11.7839
結束	-11.7839
禪詮	-11.7839
17.	-11.7841
深厚	-11.7841
阿囉訶	-11.7842
薜	-11.7843
增進	-11.7844
二十偈	-11.7844
這稱為	-11.7845
孝養	-11.7845
鉢羅底	-11.7846
增盛	-11.7848
景德本	-11.7848
娑婆世界	-11.7849
念釋迦牟尼佛	-11.7849
那微涅	-11.785
參照	-11.785
典治	-11.785
毗婆	-11.7851
上報四	-11.7852
諸佛佛子	-11.7852
規定	-11.7853
贊寧	-11.7854
禮儀	-11.7854
惹耶	-11.7856
故名一切法	-11.7858
始末	-11.7859
百官	-11.7861
精粗	-11.7861
末伽	-11.7869
馱囉	-11.787
具體情況	-11.7871
萬端	-11.7872
墀	-11.7873
名為實智	-11.7874
pr	-11.7878
役使	-11.788
濟群生	-11.7881
法之供養	-11.7883
念觀世音菩薩	-11.7892
戍涅	-11.7892
為淨土因	-11.7895
摩訶般若	-11.7896
娑隸哩	-11.7902
忍辱波羅蜜	-11.7903
兢兢誐	-11.7908
魯畔	-11.7917
名為方便智	-11.7918
863	-11.7927
閻羅王下	-11.794
yaḥ	-11.7947
障閉	-11.7947
告諸大眾	-11.7991
可憐	-11.801
說完這些	-11.8013
兩件	-11.8029
227	-11.803
應勤精進	-11.8075
刪除	-11.8083
有四問	-11.8089
造惡業	-11.8128
個微點	-11.8139
簡擇	-11.8175
自此已	-11.8231
受自性不成	-11.824
鄰國	-11.8426
梵天界	-11.8429
無他事	-11.8449
是身無	-11.8487
斛	-11.8533
269	-11.8584
ant	-11.862
這就是正	-11.8674
隸屬	-11.87
vās	-11.8712
opa	-11.8745
弘誓	-11.8769
漸輕微	-11.8805
敦煌遺書中發現	-11.8846
sad	-11.89
一百四十	-11.8938
秫陀	-11.8943
花鬘	-11.895
花台	-11.8983
如海量	-11.9058
tan	-11.9062
忉利	-11.9066
燃燒著	-11.9085
求正覺的	-11.909
jīv	-11.9102
驚怖	-11.9151
鳩摩羅什	-11.9159
寇	-11.9166
皈救	-11.9168
茅	-11.9175
菩薩總持法	-11.9176
席	-11.918
不取不捨	-11.918
波羅密咒	-11.9186
兜羅棉	-11.9187
提婆達多	-11.9187
度生權	-11.919
安閒	-11.9191
守護正知	-11.9192
懇祈	-11.9192
翫	-11.9192
紫紺	-11.9192
大目犍連尊者	-11.9193
雌	-11.9193
筭	-11.9194
五德弟子	-11.9194
芬	-11.9195
寂寞	-11.9195
灌注	-11.9195
難產七日	-11.9196
嘔	-11.9196
七事供養	-11.9196
獄卒	-11.9197
荼	-11.9197
以音聲求我	-11.9197
吐蕃統治時期	-11.9197
填	-11.9197
或在虛室	-11.9197
阿鍐覽唅欠	-11.9199
聖賢降真言	-11.9199
禽獸	-11.9199
蠢	-11.9199
牛王目	-11.9199
虎狼	-11.9199
右脅	-11.92
彎	-11.92
大施會	-11.92
判官	-11.92
色蘊攝	-11.9201
竹林	-11.9201
四念住	-11.9201
憶念不忘	-11.9202
蠡文	-11.9202
悽	-11.9202
日照開	-11.9202
除蓋障	-11.9202
為母說法	-11.9202
著者不詳	-11.9202
何慮不	-11.9202
慣	-11.9203
六根六塵	-11.9204
昨	-11.9204
跋提耶	-11.9205
胡跪	-11.9205
翳燈幻	-11.9205
豎宗立教	-11.9205
伏願承佛神力	-11.9206
眼等諸根	-11.9206
正念思惟	-11.9206
從定中起	-11.9206
芝	-11.9206
俱為妄所	-11.9206
裝幀	-11.9207
廟堂	-11.9207
此燈伏為	-11.9207
畢陵迦婆蹉	-11.9207
傲	-11.9207
有空性相	-11.9207
現法樂住	-11.9208
瑣	-11.9208
成等正覺	-11.9208
盂	-11.9208
契真常	-11.9208
受持四句偈	-11.9208
無第二尋	-11.9208
恕	-11.9209
梳	-11.9209
芒果林	-11.9209
粥	-11.9209
清涼池	-11.9209
蠅	-11.9209
暴虐	-11.9209
無法可說	-11.9209
梵磨	-11.921
瞻視	-11.921
迷頭認影	-11.921
中觀師	-11.921
心滅境	-11.921
是名大身	-11.921
盲龜	-11.921
層層	-11.921
痰	-11.921
刀斫	-11.921
名言安立	-11.9211
為人輕賤	-11.9211
來世當得作佛	-11.9211
蚊虻	-11.9211
百分不及一	-11.9211
楚毒	-11.9211
擔荷	-11.9211
普勸大眾儀當演	-11.9211
社稷	-11.9211
肥	-11.9211
虛空可思量不	-11.9211
暫時停	-11.9211
蝶裝	-11.9211
此為大海所具有之第	-11.9211
釐	-11.9212
無有出期	-11.9212
簇	-11.9212
這段話	-11.9212
任何時中	-11.9213
如汝所說	-11.9213
世尊金口親宣示	-11.9213
說得福德多	-11.9213
昆	-11.9213
佛教目錄學	-11.9214
忘心頓證	-11.9214
曾為舉揚	-11.9214
潔滌	-11.9214
耿	-11.9214
更鼓打	-11.9214
利他兼	-11.9214
枷鎖	-11.9214
儼	-11.9214
諸相非相	-11.9214
纏綿	-11.9214
妻妾	-11.9214
磚	-11.9214
覺華定自在王	-11.9214
喊	-11.9214
妙喜世界	-11.9214
象馬車步	-11.9214
楞伽	-11.9215
鏤	-11.9215
賈	-11.9215
地藏菩薩本願經	-11.9216
泣血	-11.9216
蘇那尊者	-11.9216
長老須菩提	-11.9216
互為配紙	-11.9216
怯	-11.9216
剋	-11.9216
七寶以用	-11.9216
覩	-11.9216
餉	-11.9216
遜	-11.9216
孤貧	-11.9216
打罵	-11.9216
馳騁	-11.9216
綵女	-11.9217
悼	-11.9217
仲	-11.9217
之生起與壞滅	-11.9217
唐高宗	-11.9217
釋迦文佛	-11.9217
或兼察	-11.9217
本文獻未為我國歷代經錄所	-11.9217
踰	-11.9217
侮	-11.9217
終無趣寂	-11.9217
證空便	-11.9218
萊	-11.9218
初日分	-11.9218
直說語言	-11.9218
頗更有	-11.9218
生慰勞	-11.9218
執我乃	-11.9218
如露亦如電	-11.9219
淹	-11.9219
儔	-11.9219
心滿意足	-11.9219
加持字母陀羅尼	-11.9219
庇護	-11.9219
無實無虛	-11.9219
坎	-11.9219
眾生度盡	-11.922
三業六根悉清淨	-11.922
証	-11.922
李有棠	-11.922
映飾	-11.922
妥	-11.922
大明神咒經	-11.922
蘇波婆沙	-11.922
膊	-11.922
膏	-11.922
跋提	-11.922
描	-11.9221
率土	-11.9221
空寂無生	-11.9221
餝	-11.9221
徹底	-11.9221
瘖啞	-11.9221
哭泣	-11.9221
柏	-11.9221
民俗佛教	-11.9221
中國北京圖書館藏	-11.9222
云何應住	-11.9222
食肉之人	-11.9222
正覺之路	-11.9222
潰	-11.9222
vedanīy	-11.9222
赫然	-11.9222
踞	-11.9222
鐫刻	-11.9222
毫無疑問	-11.9223
衰老	-11.9223
各運志誠	-11.9223
臨法會	-11.9223
答第二問	-11.9223
稚	-11.9223
皮膚	-11.9223
喜馬拉雅山	-11.9223
斷三界惑盡	-11.9223
大黑天神	-11.9223
乾燥	-11.9223
晃	-11.9223
念藥師琉璃光佛	-11.9224
目真鄰陀	-11.9224
押	-11.9224
審視	-11.9224
故有斯問	-11.9224
屆	-11.9224
瞋饞	-11.9225
無言無說	-11.9225
沿襲	-11.9225
伺相應	-11.9225
媒	-11.9225
得福無量	-11.9225
猜	-11.9225
生起之束縛	-11.9225
善思念之	-11.9225
解我所說義	-11.9225
洗滌	-11.9225
吻合	-11.9225
所在之處	-11.9225
异	-11.9225
以為有我	-11.9225
啼哭	-11.9226
乞經狀	-11.9226
法師布露	-11.9226
純孝	-11.9226
趙文煥	-11.9226
克什曼德拉	-11.9226
朝廷	-11.9226
忌	-11.9226
海會眾聖賢	-11.9226
迭	-11.9226
無邊誓願	-11.9226
登正覺	-11.9226
八家秘錄	-11.9226
六道四生	-11.9226
柄	-11.9226
無諍三昧	-11.9226
道場合用	-11.9226
鐵匠之子純陀	-11.9226
雪山童子大菩薩	-11.9226
(1026)	-11.9226
大般涅槃經佛母品	-11.9226
放佚禁戒位	-11.9226
頭陀乞食	-11.9227
賦	-11.9227
功勳	-11.9227
習慣義觀	-11.9227
§9.3	-11.9227
何啻	-11.9227
勇毅	-11.9227
豬肉	-11.9227
僕役	-11.9227
我於世世	-11.9227
修此觀	-11.9227
獨存位	-11.9227
控	-11.9227
紀讚	-11.9228
塗抹	-11.9228
梭	-11.9228
梁朝傅大士頌金剛經	-11.9228
頭戴	-11.9228
亦必被割	-11.9228
籌量	-11.9228
順天府	-11.9228
不太可能	-11.9229
大圓鏡智	-11.9229
帕摩達拉	-11.9229
連貫	-11.9229
位因陀羅	-11.9229
▁yathā	-11.9229
夾	-11.9229
virata	-11.9229
手捉	-11.9229
良賁	-11.9229
āṇām	-11.9229
拼	-11.9229
羅什	-11.9229
安世高	-11.9229
ānu	-11.923
毅	-11.923
涼土異經	-11.923
kṣetra	-11.923
弘法寺	-11.923
毗婆沙	-11.923
莫不歡喜	-11.923
搗	-11.923
敦煌出土	-11.923
婆羅多地區	-11.923
ādiṣu	-11.923
浦濕卡羅洲	-11.923
viṃśati	-11.9231
服務	-11.9231
弘明集	-11.9231
sapta	-11.9231
伎樂	-11.9231
為我們研究	-11.9231
明攝法分齊	-11.9231
體起成緣	-11.9231
使全世界	-11.9231
宮住神	-11.9231
yojana	-11.9231
仏	-11.9231
saṃparāya	-11.9231
q	-11.9231
muhūrt	-11.9231
蓮池	-11.9231
察命下	-11.9231
業的滅盡狀態	-11.9231
軟語	-11.9231
攫	-11.9232
疊疊	-11.9232
耐他怨害忍	-11.9232
鍾	-11.9232
彌凱耶尊者	-11.9232
攢	-11.9232
ccha	-11.9232
離散星	-11.9232
莊嚴佛士	-11.9232
▁華嚴經卷	-11.9232
5699	-11.9232
叮嚀	-11.9232
pratya	-11.9232
國王難敵	-11.9232
荷澤	-11.9232
奇特	-11.9232
光讚般若	-11.9232
器世成	-11.9233
▁丁本	-11.9233
威武	-11.9233
爽	-11.9233
郊	-11.9233
迄今	-11.9233
sthiti	-11.9233
āyu	-11.9233
甚深法藏	-11.9234
溝	-11.9234
聽了這些話	-11.9234
她們	-11.9234
無明住地	-11.9234
pudgalā	-11.9234
寶滿三千	-11.9234
貧賤	-11.9234
mati	-11.9234
聽完	-11.9234
哀受我請	-11.9234
於當來世	-11.9234
雕印	-11.9234
掌平	-11.9235
玲	-11.9235
同前云云	-11.9235
明業用	-11.9235
中國佛教典籍	-11.9235
無數倍	-11.9235
產生的漏	-11.9235
求不得苦	-11.9235
香花燈塗	-11.9235
賷	-11.9235
七級	-11.9235
高卑	-11.9235
疏記部	-11.9235
無有是處	-11.9235
sat	-11.9236
領域	-11.9236
kāya	-11.9236
商賈	-11.9236
孃	-11.9236
藐	-11.9236
沫	-11.9236
清信士女	-11.9236
凋	-11.9236
呵罵	-11.9236
常願奉母往見一切	-11.9236
法上錄	-11.9236
十方三世一切諸佛	-11.9236
ich	-11.9236
所生之處	-11.9237
績	-11.9237
渚	-11.9237
谷響	-11.9237
雕造	-11.9237
菀	-11.9237
禪宗僧人	-11.9237
寶曇花菩薩	-11.9237
聽到這話	-11.9237
春秋	-11.9237
青黃	-11.9237
現藏雲南省	-11.9238
痊	-11.9238
鮮花	-11.9238
提謂波利	-11.9238
低微	-11.9238
奄	-11.9238
自作自	-11.9238
龍蛇	-11.9238
違越	-11.9239
根鈍	-11.9239
繞塔	-11.9239
十三法師	-11.9239
何必更	-11.924
所具有的	-11.924
摧殘	-11.924
有身非	-11.924
8386	-11.924
您應該	-11.924
澡浴	-11.924
周圍	-11.924
悕	-11.924
巧計	-11.9241
異口同音	-11.9241
博物館	-11.9241
聰慧	-11.9241
墮三惡道	-11.9241
六波羅密	-11.9242
侄	-11.9242
的許可	-11.9242
辟	-11.9242
刷	-11.9243
宰官	-11.9243
略有不同	-11.9243
泣淚	-11.9243
感佛義	-11.9243
煎熬	-11.9244
開雕	-11.9244
此室常	-11.9244
人空法亦空	-11.9244
攪	-11.9244
走狩	-11.9245
入正位	-11.9245
蔣唯心	-11.9245
如何棄捨	-11.9245
斷除人我	-11.9245
笞	-11.9246
憲	-11.9246
結婚	-11.9246
補充	-11.9246
同圓種智	-11.9246
忽爾	-11.9247
完全一致	-11.9248
餓死	-11.9248
完全依據	-11.9248
刊定眾經目錄	-11.9248
一心皈命禮常住三寶	-11.9248
標文可	-11.9249
首部經文	-11.9249
啟導	-11.925
黑闇	-11.925
被溺	-11.925
炷香	-11.925
丘	-11.9251
明諸大乘	-11.9251
達摩所傳	-11.9252
如來有肉眼	-11.9252
伴佐	-11.9253
腑	-11.9253
一切冤家離	-11.9253
頁下欄第	-11.9253
一一極微	-11.9254
怛囉喃	-11.9254
玄鑒	-11.9254
誦密言	-11.9256
所有的國王	-11.9256
首部文字與	-11.9256
繫綴	-11.9259
然後乃消	-11.926
頭面禮足	-11.9262
伽伽那	-11.9263
的殘餘	-11.9264
㗚	-11.9266
禮別聖賢	-11.9266
從佛聞	-11.9267
百千萬分	-11.9268
不如其一	-11.927
帙皮	-11.927
囉怛那	-11.9272
謨	-11.9273
無與等	-11.9276
喝囉怛那	-11.9282
瑟恥	-11.9286
毗輸	-11.9291
囉夜耶	-11.9296
(78	-11.9297
的原則	-11.9303
160	-11.9314
善女人發阿耨多羅三藐三菩提心	-11.9314
年之久	-11.932
在欲而	-11.9323
為是僧	-11.9331
觀自在菩薩	-11.9336
戍涅多	-11.9337
夢幻	-11.934
找到	-11.9346
看時不	-11.9348
菩提離所	-11.9357
初中文	-11.9367
偷僧	-11.9375
恆河沙	-11.9377
悟真空	-11.9387
自己的身體	-11.9399
dravya	-11.9401
墮三塗	-11.9442
01、	-11.9459
地藏慈悲救苦薦福利生道場儀	-11.9482
sarva	-11.9489
不空譯	-11.9496
仁王般若	-11.9593
可以三十二相	-11.9606
各不相	-11.9606
暇滿所依	-11.9613
antara	-11.962
研究價值	-11.9623
骨一處	-11.9625
毫端	-11.9625
遭遇	-11.9668
齒印	-11.9669
vad	-11.9678
,50	-11.9748
474	-11.9765
薩嚩怛他誐	-11.9811
353	-11.9817
□□□□□□□□□□□□	-11.9853
bhyaḥ	-11.9865
ddh	-11.9938
迷悶	-11.9956
ath	-11.9975
日囉斛	-11.9985
95、	-12.0028
143	-12.0109
作何事	-12.0224
當為汝說	-12.0574
千萬億那由他	-12.0598
寶頂山石窟	-12.0791
lok	-12.0802
住心門	-12.0804
如是降伏其心	-12.0806
悟心門	-12.0807
徵心門	-12.0825
愛他攝受	-12.0835
人集錄	-12.0838
享解脫之樂	-12.0839
於其毛端	-12.0841
之技最高	-12.0842
特殊的	-12.0843
修自他相換	-12.0846
旃陀羅	-12.0848
儘	-12.0848
睫	-12.085
宣講正法	-12.085
世尊及僧眾	-12.0853
修持梵行	-12.0854
圍繞眾髮	-12.0855
胃	-12.0855
四大海水	-12.0856
款	-12.0856
慣習	-12.0857
舁	-12.0857
賊寇	-12.0858
答第四問	-12.0858
駭	-12.0858
此明二宗	-12.0858
犢	-12.0858
牛耕	-12.0858
戳	-12.0858
請世尊入般涅槃	-12.0858
'	-12.0859
因時有果	-12.0859
鴿	-12.086
今正是時	-12.086
誦百生冤結	-12.086
阿鞞比丘	-12.086
月三日改為	-12.086
蓄	-12.0861
蠢動	-12.0861
妖怪	-12.0861
品上生者	-12.0861
轍	-12.0862
汝若作是念	-12.0862
生難遭想	-12.0862
破彼轉計	-12.0863
言語道斷	-12.0863
大孝釋迦	-12.0863
戮	-12.0863
非有想非無想	-12.0864
心常安住	-12.0864
多陀阿竭	-12.0864
無明緣行	-12.0864
瀆	-12.0864
§4.3	-12.0864
我今結界到	-12.0865
祁	-12.0866
人空法亦	-12.0866
佛報恩經	-12.0866
四十里	-12.0866
皰	-12.0866
八萬法蘊	-12.0866
遑	-12.0866
苦空無常	-12.0866
教內文字真如	-12.0867
稽首歸依解冤結菩薩	-12.0867
1009	-12.0868
要假離	-12.0869
犯四重禁	-12.0869
殺生害命	-12.0869
厘	-12.0869
無終隨縛	-12.0869
夭亡	-12.087
互相爭吵	-12.087
屢	-12.087
互換	-12.0871
旬	-12.0871
屍骸	-12.0871
譴	-12.0871
罄	-12.0871
聚義是蘊	-12.0871
腮	-12.0871
詛	-12.0871
謂有一類	-12.0871
燥	-12.0871
揖	-12.0871
城祇樹給孤獨園	-12.0872
師子之座	-12.0872
不勞勵力	-12.0872
佛頂尊勝陀羅尼	-12.0872
聞經深解	-12.0872
身諸毛孔	-12.0872
甚為希有	-12.0872
八十種隨形好	-12.0872
卍	-12.0872
寧捨生命	-12.0873
於面門	-12.0873
因緣心釋論開決記	-12.0873
輦	-12.0873
示同人事	-12.0873
盧舍那	-12.0873
禪門之法	-12.0873
利生接物	-12.0873
。」「8、	-12.0874
輿	-12.0874
古提幹那居士	-12.0874
爾時世尊而說偈言	-12.0874
養則致其樂	-12.0874
琉璃光王佛	-12.0874
歌舞	-12.0874
我從今日	-12.0874
嬌	-12.0874
從三昧起	-12.0874
我諸弟子	-12.0874
摩枲	-12.0874
遽	-12.0875
寧馨	-12.0875
歡娛	-12.0875
不異語者	-12.0875
莫作是說	-12.0876
說八萬四千諸妙相好	-12.0876
知心門	-12.0876
瘟	-12.0876
瀉	-12.0876
狎	-12.0876
過去心不可得	-12.0876
克服	-12.0876
者孝於	-12.0876
肺	-12.0877
具足諸相見	-12.0877
蹄	-12.0877
昭彰	-12.0877
罪垢多除	-12.0877
欽崇	-12.0877
漠	-12.0877
未來心不可得	-12.0877
誥	-12.0877
報父母恩德	-12.0877
旦夕	-12.0877
烤	-12.0877
蟻	-12.0877
硬	-12.0878
膳	-12.0878
簿	-12.0878
祝大明萬萬年刊刻	-12.0878
如是沙等恒	-12.0878
如來所得法	-12.0878
徽	-12.0878
次第答前	-12.0878
賜紫衣	-12.0878
瘡疣	-12.0879
掌壇法師	-12.0879
會集人天	-12.0879
此為佛教所具第	-12.0879
若復有人於此經中	-12.0879
佛復告	-12.088
出現於世	-12.088
珂	-12.088
之冤債也	-12.088
撒	-12.088
語言翻修多羅	-12.088
邃	-12.088
所疏相當於羅什譯本第	-12.088
爾時維摩詰語	-12.088
賤價之醫	-12.088
四色成山	-12.088
箕	-12.088
受持讀誦為人	-12.088
俯垂	-12.088
隨次配釋	-12.0881
瀑	-12.0881
踊	-12.0881
郭	-12.0881
答第一問	-12.0881
母作子	-12.0881
豹	-12.0881
三大阿僧祇	-12.0881
歌利王	-12.0881
縵	-12.0881
輝煌	-12.0881
廣施無遮	-12.0881
形骸	-12.0882
扎	-12.0882
旱	-12.0882
一歷耳根	-12.0882
彼諸補特伽羅	-12.0882
十惡五逆	-12.0882
庇	-12.0882
有法如來得阿耨多羅三藐三菩提	-12.0882
叫喚	-12.0882
皺	-12.0882
如自在天宮	-12.0882
殍	-12.0882
阻攔	-12.0882
霏	-12.0882
伏願諸佛菩薩	-12.0882
心可印	-12.0882
臼	-12.0883
航	-12.0883
恪	-12.0883
佇	-12.0883
駒澤大學	-12.0883
皆得道迹	-12.0883
娑羅樹	-12.0883
荊棘林中業火生	-12.0883
華方田	-12.0883
雙面抄寫	-12.0883
鼈	-12.0883
居則致其敬	-12.0883
灰燼	-12.0883
囂	-12.0884
志心稱念藥師	-12.0884
行於布施	-12.0884
寒冷	-12.0884
頁下第	-12.0884
呼喚	-12.0884
為敷揚	-12.0884
有餘師說	-12.0884
趕緊	-12.0884
封疆	-12.0884
灌清淨醍醐甘露	-12.0884
恩難報母	-12.0884
明常樂我淨行	-12.0884
無沒生	-12.0884
開壇請佛	-12.0884
現有資料	-12.0885
溟	-12.0885
沿	-12.0885
罷	-12.0885
喘	-12.0885
編排	-12.0885
中興元年	-12.0885
慄	-12.0885
毘	-12.0885
涎	-12.0885
tvā	-12.0885
館	-12.0885
樞	-12.0885
以大願力	-12.0886
靄	-12.0886
第一時陞座	-12.0886
翁	-12.0886
套	-12.0886
浸	-12.0886
登寶座	-12.0886
伏大邪見	-12.0886
如來無所說	-12.0886
自相矛盾	-12.0886
楞嚴海會佛菩薩	-12.0886
一心頭面	-12.0886
人與法相	-12.0886
護國司南抄	-12.0886
猶如日輪	-12.0886
四十八願	-12.0887
禪河隨浪	-12.0887
笈	-12.0887
別來幾度春光	-12.0887
頻經五百	-12.0887
網縵	-12.0887
蘊上假	-12.0887
這兩件寶	-12.0887
肌	-12.0887
侈	-12.0887
鹽	-12.0887
昔時稱善	-12.0887
厭倦	-12.0887
蓮華藏世界	-12.0888
赤蓮華	-12.0888
別解脫戒	-12.0888
頤	-12.0888
(1027)	-12.0888
印經院	-12.0888
舟航	-12.0888
吸收	-12.0888
捕魚	-12.0888
以要言之	-12.0888
佛說是經已	-12.0888
識體體	-12.0888
鉤鎖	-12.0888
馭	-12.0889
粳	-12.0889
斷常俱不	-12.0889
辟支羅漢	-12.0889
尊勝幢菩薩	-12.0889
非空亦非	-12.0889
猶如伊字	-12.0889
飢餓	-12.0889
驕傲	-12.0889
大我慢者	-12.0889
鈸	-12.0889
緇	-12.0889
承佛神力	-12.0889
出世之孝	-12.0889
注視著	-12.0889
善付囑諸菩薩	-12.0889
罵詈	-12.0889
不墮鑊湯地獄	-12.0889
菩薩不受福德	-12.0889
腭	-12.0889
石女兒	-12.0889
而取佛土	-12.0889
加持淨三業真言	-12.0889
得聖定	-12.0889
械	-12.0889
葛	-12.0889
搶	-12.0889
學術界	-12.089
禪策問答	-12.089
寒冰	-12.089
王后甘地瑪蒂	-12.089
中國民間	-12.089
抽	-12.089
了了分明尚未生起之	-12.089
佛告淨度	-12.089
王之姜	-12.089
蝕	-12.089
人身長大	-12.089
代苦得樂	-12.089
恩難報父	-12.089
穿透	-12.0891
見種種色	-12.0891
謬誤	-12.0891
吻	-12.0891
圓珍在寫	-12.0891
生生世世	-12.0891
埃	-12.0891
橋樑	-12.0891
斯況並	-12.0891
注意的是	-12.0892
則為有佛	-12.0892
奠	-12.0892
手足柔軟	-12.0892
禁忌	-12.0892
殞	-12.0892
淡	-12.0892
凜	-12.0892
栴	-12.0892
遨	-12.0892
栖	-12.0892
裕	-12.0892
三儀軌之一	-12.0892
天聖四年	-12.0892
望聖慈悲	-12.0892
腎	-12.0893
驚惶	-12.0893
剛剛	-12.0893
各種各樣的	-12.0893
帕	-12.0893
不立知解	-12.0893
光明遍照	-12.0893
凝然湛寂	-12.0893
放金色光	-12.0893
聖者之王	-12.0893
奧旨	-12.0893
嗚	-12.0893
審覆翻經大德	-12.0893
榖	-12.0893
朗朗	-12.0893
未為我國歷代經錄所	-12.0894
黑繩	-12.0894
狹劣	-12.0894
明來暗	-12.0894
得有乘義	-12.0894
行偈語	-12.0894
跋日囉	-12.0894
輯佚	-12.0894
兵刃	-12.0894
匪	-12.0894
尼泊爾	-12.0894
餚	-12.0894
等無間緣	-12.0894
分為六種	-12.0894
南北朝時期	-12.0894
経	-12.0894
明造論因	-12.0894
茫	-12.0895
依教奉行	-12.0895
萬八千	-12.0895
五濁惡世	-12.0895
沽	-12.0895
諸具欲	-12.0895
§5.29	-12.0895
澡	-12.0895
熾盛光王佛	-12.0895
七寶詎能過	-12.0895
皇后	-12.0895
ānta	-12.0895
bah	-12.0895
辯正論	-12.0895
śabda	-12.0896
一生補處	-12.0896
隨心所欲	-12.0896
最後的解脫	-12.0896
紋	-12.0896
.3413	-12.0896
uddhi	-12.0896
雲南阿吒力僧	-12.0896
粗穢濁位	-12.0896
mohanīya	-12.0896
愛拉瓦塔	-12.0896
施門通六	-12.0896
欲覓無生	-12.0896
背境向心	-12.0896
中間住神	-12.0896
pramatta	-12.0896
samyaktva	-12.0896
無見頂相	-12.0897
疱	-12.0897
壘	-12.0897
捫摸	-12.0897
三明六通	-12.0897
舜	-12.0897
bharata	-12.0897
咦	-12.0897
皇家官藏	-12.0897
釋迦氏略譜	-12.0897
āsrava	-12.0897
怨憎會苦	-12.0897
常童子天	-12.0897
▁戊本	-12.0897
leśyā	-12.0897
此方撰述	-12.0897
釋迦譜	-12.0897
常用科儀	-12.0897
空衣派刊本此節為	-12.0897
§9.38	-12.0897
saṃkhyeya	-12.0897
大因陀羅天	-12.0897
§5.4	-12.0897
viśuddh	-12.0897
§6.1	-12.0897
tapas	-12.0897
西夏方塔	-12.0897
斯坦因	-12.0897
不起法忍	-12.0897
宮廷	-12.0897
遺憾的是	-12.0897
,55/68	-12.0897
復前行	-12.0897
持齋除罪一千劫	-12.0897
開皇三寶錄	-12.0897
dvayo	-12.0898
場大界	-12.0898
漏得以產生	-12.0898
凝集生	-12.0898
大佛名經	-12.0898
維德哈地區	-12.0898
§8.10	-12.0898
大唐西域	-12.0898
guṇā	-12.0898
則凡聖一	-12.0898
則見如來	-12.0898
挑	-12.0898
栽	-12.0898
祈禱	-12.0898
傘	-12.0898
如摩尼珠	-12.0898
須菩提是樂阿蘭那行	-12.0898
那羅延	-12.0899
􅶻	-12.0899
棒	-12.0899
月十日	-12.0899
八功德水	-12.0899
繆荃孫	-12.0899
崛	-12.0899
坡	-12.09
若福德有實	-12.09
鉅	-12.09
kriyā	-12.09
墮阿鼻地獄	-12.09
綸	-12.09
鷺	-12.09
廂	-12.09
解結除冤	-12.09
這篇文獻	-12.09
pare	-12.09
絹	-12.0901
姜	-12.0901
性地以上	-12.0901
則為非住	-12.0901
勳	-12.0901
曇曜	-12.0901
不墮寒冰地獄	-12.0902
梵唄	-12.0902
不生滅色心	-12.0902
竊盜	-12.0902
聖者巴伐菩提	-12.0902
輸睇	-12.0902
鷲嶺	-12.0902
波羅奈	-12.0902
漢文譯本	-12.0902
人的壽命	-12.0902
嚩室憐	-12.0903
念賢劫千佛	-12.0903
持九齋	-12.0903
舍衛國	-12.0903
於虛空中	-12.0903
懷著喜悅	-12.0903
明昌四年	-12.0903
大乘起世論	-12.0903
對阿吒力教	-12.0903
洗浴	-12.0903
缽頭麼	-12.0903
相關的典籍	-12.0903
拋棄	-12.0903
單框	-12.0903
堪嗟	-12.0904
夾紙	-12.0904
的光芒	-12.0904
給孤獨園	-12.0904
禪源諸詮	-12.0904
809	-12.0904
紗	-12.0904
彙編	-12.0904
雞足山	-12.0904
露堂堂	-12.0904
募刻	-12.0904
忙忙	-12.0904
陸光祖	-12.0904
有數種	-12.0905
如實知見	-12.0905
叭	-12.0905
三階教文獻	-12.0905
讚十種恩	-12.0905
佛在金棺	-12.0905
念藥王藥上菩薩	-12.0905
早期禪宗	-12.0906
的意願	-12.0906
親眼見到	-12.0906
諦察法忍	-12.0906
鼓勵	-12.0906
六朝文	-12.0907
酪	-12.0907
在佛教中	-12.0907
kha	-12.0908
綿綿	-12.0908
漢地佛教	-12.0908
縈	-12.0908
曩謨	-12.0908
頭上的寶石	-12.0908
查考	-12.0908
糾	-12.0908
之束縛如何	-12.0908
烏瑪斯伐蒂	-12.0908
棋	-12.0909
礦	-12.0909
世間之孝	-12.0909
佛說金剛經纂	-12.0909
伯希和	-12.0909
根三昧安詳而出	-12.0909
心王菩薩說頭陀經	-12.0909
炎炎	-12.091
班	-12.091
亙	-12.091
彈訶	-12.091
韓	-12.091
止此室	-12.091
豬羊	-12.0911
衲衣	-12.0911
掃蕩	-12.0911
一篇文章	-12.0911
李誦	-12.0911
耨	-12.0911
紹知伽	-12.0911
諸佛願智真言	-12.0911
牲	-12.0911
了了分明已棄	-12.0912
慰喻之	-12.0912
披尋記	-12.0912
優鉢	-12.0912
寫於日本	-12.0912
恢恢	-12.0912
懷孕	-12.0912
濩湯	-12.0912
大中祥符	-12.0912
姊妹	-12.0913
如寶印	-12.0913
耆闍	-12.0914
稻麻竹葦	-12.0915
初住已上	-12.0915
救脫菩薩	-12.0915
疾疫	-12.0915
的福利而	-12.0915
冉	-12.0915
伏願六通	-12.0916
就是僧法誦出經	-12.0917
有密切關係	-12.0917
題材	-12.0917
貶	-12.0917
乾達婆	-12.0918
不永滅	-12.0918
丹誠	-12.0918
仇讎	-12.0918
惟希納受鑒丹	-12.0918
卡文德	-12.0918
詵	-12.0919
感得淨土	-12.092
諸宗禪言	-12.092
姪	-12.092
復有五事	-12.092
不墮某某地獄	-12.092
頁上欄第	-12.092
念某佛	-12.0921
雜述錄	-12.0921
弘道尼	-12.0922
如來有佛眼	-12.0923
大昊天寺	-12.0923
并	-12.0923
密教教法	-12.0924
802	-12.0924
睿宗	-12.0924
入矢義高	-12.0924
664	-12.0925
叨	-12.0926
跨	-12.0927
人集錄於十二	-12.0927
怛囉夜耶	-12.0928
摩訶迦盧尼	-12.0929
如來有法眼	-12.093
壇𡒌	-12.0931
地瑟恥多	-12.0931
界作微塵	-12.0932
婁	-12.0932
驃	-12.0932
鞠	-12.0933
跢	-12.0935
夜嚩那	-12.0935
如來有天眼	-12.0936
兢	-12.0937
勃	-12.0938
不如有人能斷酒	-12.0939
如來有慧眼	-12.0939
虔娘	-12.094
除一切苦	-12.0942
奸	-12.0942
》+《	-12.0942
𤚥	-12.0945
怛他蘗多	-12.0946
西天有一	-12.0947
忍耐	-12.0948
紇	-12.0951
枲	-12.0951
開受我	-12.0951
波利秫	-12.0953
所問經	-12.0954
是逆觀	-12.0961
337	-12.0964
嚩羅賀	-12.0965
受人尊	-12.0969
說是沙	-12.0975
資料來源	-12.098
一百九十	-12.0995
自今以	-12.1011
377	-12.1011
正覺的誓言	-12.105
燦燦	-12.1092
卑賤	-12.1197
知眾生心	-12.1204
萬行首楞嚴	-12.1205
輸檀	-12.1271
是諸恒河	-12.1362
否認	-12.1409
迎送	-12.1505
須行智	-12.1624
經偈頌文	-12.1927
無有法得阿耨多羅三藐三菩提	-12.2002
ebhy	-12.2049
幻夢	-12.207
白豪中	-12.2175
中國人所撰佛教	-12.2181
羅神王來護法	-12.2354
dharm	-12.24
中國僧人所撰	-12.2426
彼於自身注意觀察	-12.2474
應如是注意觀察	-12.2479
彼於自身他身兼顧注意觀察	-12.248
娑嚩怛他誐	-12.2578
地藏慈悲救苦薦福利生道場	-12.2581
楞嚴解冤釋結道場	-12.2638
dravy	-12.2657
大佛灣	-12.2783
ākāśa	-12.2785
應捨我愛執持	-12.2824
作利他事	-12.2828
捨戒還俗	-12.2836
如白頗	-12.2839
金棺銀槨	-12.284
出五色光明	-12.284
優樓頻螺地區尼連禪河畔	-12.2841
眶	-12.2841
有十四色	-12.2842
其人近出以	-12.2842
孔雀色無	-12.2842
青者勝青蓮	-12.2842
釣	-12.2843
執以為我	-12.2844
上靡入於髮際	-12.2844
如融紫金光相	-12.2844
釋提桓因	-12.2844
其施無上	-12.2845
鄧殿臣	-12.2845
安好無恙	-12.2846
佛在舍衛	-12.2847
喧鬧	-12.2848
是無常性	-12.2849
陷阱	-12.2851
聰	-12.2852
發此感興	-12.2852
繞棺三匝	-12.2853
樸	-12.2853
蛾	-12.2854
烹	-12.2855
行右繞之禮	-12.2855
泄	-12.2856
如來鼻高修直如鑄金	-12.2856
首全尾殘	-12.2856
如來白毫相	-12.2857
摩揭陀國大臣須尼陀和婆沙迦羅	-12.2857
deva	-12.2858
腐	-12.2858
腿	-12.286
冤家罪消滅第	-12.286
諛	-12.286
髭	-12.286
入一相門	-12.286
當勤勵力	-12.286
梟	-12.286
􅶧	-12.286
寒凍	-12.2861
吮	-12.2861
願我速成	-12.2861
這些句子與段落	-12.2861
無穢濁的感受	-12.2861
靈山會上	-12.2862
尊者於離佛不遠處	-12.2862
得巧之名	-12.2862
疣	-12.2862
會有離別	-12.2863
前受五戒	-12.2863
慊	-12.2863
須闍提	-12.2863
雋	-12.2864
尺五寸	-12.2864
裨	-12.2865
淨名經集解關中疏	-12.2865
積性成海	-12.2865
森羅萬像	-12.2865
久受勤苦	-12.2865
不認盲	-12.2865
轉重復還輕	-12.2866
鐫	-12.2866
因緣觀智	-12.2866
卅	-12.2866
所施物	-12.2866
普勸大眾	-12.2866
鄭	-12.2867
刀山劍樹	-12.2867
信禮海會佛菩薩	-12.2868
心識豈能量	-12.2868
名迷衢	-12.2868
病則致其憂	-12.2868
習種性中	-12.2868
痛苦難熬	-12.2868
唄	-12.2869
天公經	-12.2869
不相繫屬	-12.2869
癘	-12.2869
頓入一乘	-12.287
此法無實無虛	-12.287
兀	-12.287
與大比丘眾	-12.287
瓊	-12.287
菩薩有十種清淨	-12.287
高七多羅樹	-12.287
新集安公注經及雜經志錄第四	-12.287
阿惟顏	-12.287
是人先世罪業	-12.2871
投身憂	-12.2871
銀蹄金角	-12.2871
歐	-12.2871
嚥苦吐甘	-12.2871
頓漸偏圓	-12.2871
出校記	-12.2871
名一切眾生父母	-12.2871
癰	-12.2871
龍猛菩薩	-12.2871
終不能報得父母深重之恩	-12.2872
非段食性	-12.2872
如我昔為歌利王	-12.2872
法顯傳	-12.2872
於南北朝末	-12.2873
諸盲者	-12.2873
則佛土淨	-12.2873
叛	-12.2873
應生嗔恨	-12.2873
燋爛	-12.2873
破八戒齋	-12.2873
不應住色布施	-12.2873
此為破戒者第	-12.2873
三會度人	-12.2873
我初成道摩伽陀國	-12.2873
亦無無明盡	-12.2874
雇值	-12.2874
変	-12.2874
名言共許	-12.2874
正當其時	-12.2874
盡未來際	-12.2874
狐狼野干	-12.2874
阿惟越致	-12.2874
此尊法中所以略	-12.2874
阿耨哆	-12.2875
七寶池中	-12.2875
鎧	-12.2875
鞠躬行禮	-12.2875
應物萬般	-12.2875
欲知檀	-12.2875
禾	-12.2875
諸惡罪障皆悉	-12.2875
弁	-12.2875
現在心不可得	-12.2875
若菩薩心住於法	-12.2875
如自觀身實相	-12.2875
庥	-12.2875
振奮	-12.2875
如人入暗	-12.2875
小聖詎能任	-12.2876
是此神王	-12.2876
法報化身佛	-12.2876
當何名此經	-12.2876
盡輪迴際	-12.2876
化風遠被	-12.2876
東土集傳	-12.2876
皆為非心	-12.2876
佛張口時如	-12.2877
巷	-12.2877
繡	-12.2877
墮阿鼻獄	-12.2877
糅	-12.2877
岳	-12.2877
善男信女	-12.2877
不放捨	-12.2877
由看心	-12.2878
地位階差	-12.2878
非想非非想處	-12.2878
笑倒雲	-12.2878
謹與修齋	-12.2878
於法不說斷滅相	-12.2878
修行得登	-12.2878
熠	-12.2878
以體收緣	-12.2878
唯從於空法	-12.2878
轉女成男	-12.2878
無病藥還	-12.2879
虐	-12.2879
揆	-12.2879
搏	-12.2879
妙智圓光	-12.2879
故舌出五	-12.2879
晃耀	-12.2879
盡獲清涼	-12.2879
蒸	-12.2879
此為持戒者第	-12.2879
大英圖書館藏	-12.2879
教外別傳	-12.288
如來說諸心	-12.288
八方人來	-12.288
凡流信此	-12.288
唯有一乘法	-12.288
無主攝持之	-12.288
模糊	-12.288
潦	-12.2881
伏願來時降福	-12.2881
請座真言	-12.2881
韈	-12.2881
縮微膠卷	-12.2881
純粹	-12.2881
混沌	-12.2881
非想非非想天	-12.2881
千葉蓮花	-12.2881
迴心向	-12.2881
以相收體	-12.2881
無得無證	-12.2881
附續新編	-12.2881
假土而居	-12.2881
開宗明義	-12.2882
如是眾生各各	-12.2882
戚	-12.2882
三類化身釋迦牟尼佛	-12.2882
下齦如優曇鉢	-12.2882
頹	-12.2882
了很久	-12.2882
東晉天竺三藏法師	-12.2882
核	-12.2882
獎	-12.2882
諒	-12.2882
卷軸裝	-12.2882
層閣	-12.2882
金光明經	-12.2882
不由自主	-12.2882
如願以償	-12.2882
這類傳帖	-12.2882
誰後復誰	-12.2883
道成羅漢	-12.2883
騾	-12.2883
迴向下壇	-12.2883
嚮	-12.2883
曀	-12.2883
茫茫	-12.2883
解空第一	-12.2883
綿竹大中祥符寺住持	-12.2883
如人有目	-12.2884
看緣緣	-12.2884
瀚	-12.2884
悶	-12.2884
螺髮外道	-12.2884
大地六種震動	-12.2884
獷	-12.2884
如此上味	-12.2884
碩	-12.2884
疲倦	-12.2884
經由大地	-12.2884
蔡	-12.2884
;(3)	-12.2884
我們現在無法	-12.2884
誼	-12.2884
鹹	-12.2884
吉祥上樂輪等虛空本續	-12.2884
時刻注意觀察	-12.2884
被視為	-12.2885
不違本誓	-12.2885
盡可能地	-12.2885
身財等	-12.2885
其舌根下及舌兩邊有二寶珠流注甘露	-12.2886
下十脈眾光流出	-12.2886
惻	-12.2886
臍	-12.2886
鹿苑	-12.2886
右膝著地	-12.2886
後生一子	-12.2886
閩越金身太平寺沙門若愚述	-12.2886
仗密語伽陀	-12.2886
嵌	-12.2887
口兩吻邊	-12.2887
四心圓備	-12.2887
上下齊平	-12.2887
判為偽經	-12.2887
釜	-12.2887
光淨可愛	-12.2887
鬱	-12.2887
上有紅光	-12.2887
各各別異	-12.2887
巢	-12.2887
涸	-12.2887
糙	-12.2887
行於非道	-12.2887
又科為	-12.2887
新集疑經錄第三	-12.2887
法不孤起	-12.2887
雲南阿吒力教	-12.2887
勝天王經	-12.2887
愉	-12.2887
本地分	-12.2887
猿	-12.2888
入聖超凡	-12.2888
於上下唇及齦	-12.2888
是無等等咒	-12.2888
肚	-12.2888
恃怙	-12.2888
橘	-12.2888
僧法尼所誦出經入疑錄	-12.2888
汰	-12.2888
論文儀伏聞	-12.2888
無始無終	-12.2888
䴬	-12.2888
兩案陞	-12.2888
為無量境	-12.2888
不苦不樂	-12.2888
四門分別	-12.2888
墮十方一切阿鼻地獄	-12.2888
七祖法寶記	-12.2889
發大誓願	-12.2889
鵝	-12.2889
功勳莫可	-12.2889
其骨色鮮白如頗	-12.2889
曼荼羅	-12.2889
箱	-12.2889
萬五千	-12.2889
轉讓給	-12.2889
這塊寶石	-12.2889
具體情況隨文說明	-12.2889
得須陀洹果	-12.2889
沈浸在	-12.2889
皉	-12.2889
齡	-12.2889
得成於忍	-12.2889
猶如淨國優鉢羅	-12.2889
若心有住	-12.2889
不顯姓名	-12.2889
作者在原註中	-12.2889
大興善寺	-12.289
嬰	-12.289
劈	-12.289
菩薩摩訶莎	-12.289
袖	-12.289
作一一對應	-12.289
惰	-12.289
罐	-12.289
作經像師	-12.289
淨修梵行	-12.289
人天同聽梵音聲	-12.289
信根生	-12.289
鑑	-12.289
交給了	-12.289
眾生業垢	-12.289
造斯論	-12.289
漶	-12.289
nāraka	-12.289
細穢濁位	-12.289
腨	-12.289
奉請金剛語菩薩	-12.2891
光光相照	-12.2891
悠	-12.2891
應生無所住心	-12.2891
兩手兩足及	-12.2891
印度大乘佛教中觀學派	-12.2891
耍	-12.2891
豔	-12.2891
一音演說	-12.2891
放大光明	-12.2891
入諸髮	-12.2892
盂蘭	-12.2892
隨煩惱自在而轉	-12.2892
從內容上	-12.2892
如能信此	-12.2892
飼	-12.2892
嬰孩	-12.2892
股	-12.2892
道場法則	-12.2892
住不可思議解脫菩薩	-12.2892
出佛身血	-12.2892
心生重悔	-12.2892
持火燒之	-12.2892
代無常得常	-12.2892
每個人都	-12.2892
求度世道	-12.2892
男孩	-12.2892
紅華金光	-12.2892
開元十八年	-12.2892
四蘊性故	-12.2892
裝幀形式	-12.2892
從生至生	-12.2892
如來為發大乘者說	-12.2893
世紀上半葉	-12.2893
蔔	-12.2893
阻擋	-12.2893
熱衷於	-12.2893
諸師解義	-12.2893
無執乃	-12.2893
玷	-12.2893
緘	-12.2893
如來足跟圓	-12.2893
村莊	-12.2893
續補部分	-12.2893
實無眾生得滅度者	-12.2893
能觀之心	-12.2894
悰	-12.2894
samyagdṛṣṭ	-12.2894
業的本質	-12.2894
貳	-12.2894
熱忱	-12.2894
那落迦	-12.2894
璇	-12.2894
今則無滅	-12.2894
嬉戲	-12.2894
籐	-12.2894
顯慶四年	-12.2894
宋譯一部分	-12.2894
秘書丞兼翰林修撰趙渢	-12.2894
翰林侍講學士黨懷英	-12.2894
□/□□□	-12.2894
噓	-12.2894
疾能證得	-12.2894
脛	-12.2895
最上乘者說	-12.2895
同義詞	-12.2895
逆觀佛	-12.2895
gotra	-12.2895
有的研究者認為	-12.2895
屎	-12.2895
廉纖	-12.2895
憍薩羅國波斯匿王	-12.2895
剔	-12.2895
大規模的	-12.2895
奉請黃隨求金剛	-12.2895
奉請定除災金剛	-12.2895
奉請白淨水金剛	-12.2895
挖	-12.2895
請你告訴我	-12.2895
謂三乘行人	-12.2895
奉請辟毒金剛	-12.2895
嵒	-12.2895
早已亡佚	-12.2895
此十八界攝	-12.2895
雪嶺	-12.2895
奉請青除災金剛	-12.2895
如來能緣之心	-12.2895
大白天	-12.2895
朗闥伽天	-12.2895
。(§3.1	-12.2896
永恆不變	-12.2896
endr	-12.2896
各類尋求	-12.2896
自在主天	-12.2896
奉請大神金剛	-12.2896
奉請紫賢金剛	-12.2896
出土的這批	-12.2896
收因結果	-12.2896
挫碓	-12.2896
悟理詎勞	-12.2896
粘著性	-12.2896
varṇa	-12.2896
saṃsthāna	-12.2896
厭世求法	-12.2896
編集而成	-12.2897
圖示如下	-12.2897
佛說水月光觀音菩薩經	-12.2897
叵	-12.2897
輞	-12.2897
vinaya	-12.2897
jyotiṣk	-12.2897
rita	-12.2897
單一尋求	-12.2897
tyāga	-12.2897
īla	-12.2897
安息香真言	-12.2897
不取於相	-12.2897
明二識所緣	-12.2897
寵	-12.2897
涉途程	-12.2897
潑	-12.2897
中華佛教撰著	-12.2897
今將密語	-12.2897
蓋瓦扎	-12.2897
prakīrṇa	-12.2897
sahasr	-12.2897
加持首楞嚴心印咒解結	-12.2897
業的抑制狀態	-12.2897
煬	-12.2897
爵	-12.2897
的十一種艱苦	-12.2897
陀羅尼雜集	-12.2897
catu	-12.2898
puṣkar	-12.2898
答產處	-12.2898
在空衣派刊本中	-12.2898
幅員	-12.2898
śarīra	-12.2898
新編諸宗教藏總錄	-12.2898
竅	-12.2898
isarg	-12.2898
adhikaraṇa	-12.2898
楯	-12.2898
khyā	-12.2898
搭	-12.2898
邇	-12.2898
以無所得故	-12.2898
嚇	-12.2899
遏	-12.2899
āyika	-12.2899
佛如來足趺	-12.2899
如來在金棺囑累清淨莊嚴敬福經	-12.2899
有人諦觀佛項光	-12.2899
此天授菩薩	-12.2899
漢傳佛教	-12.2899
為某紙之	-12.2899
界限外	-12.2899
破三無三	-12.2899
若欲觀佛圓光	-12.2899
<	-12.2899
三個巴利堯巴姆	-12.2899
兩種天神的壽命是七加	-12.2899
ḍ	-12.2899
的壽命是七加	-12.2899
於善所緣	-12.2899
如師子王	-12.2899
saṃkhyā	-12.2899
manaḥparyāya	-12.2899
球	-12.2899
幫	-12.2899
等無有異	-12.29
暮忌	-12.29
僚	-12.29
虔誠皈命禮	-12.29
匯	-12.29
癢	-12.29
向母胎中	-12.29
鷲峰	-12.29
模樣	-12.29
遍一切處	-12.29
齎	-12.29
三乘人所念	-12.29
apāya	-12.29
文殊普賢二大菩薩	-12.29
應了了分明彼有	-12.2901
仞	-12.2901
內著心中	-12.2901
哂	-12.2901
無以倫比的	-12.2901
在流傳過程中	-12.2901
愛別離苦	-12.2901
綠	-12.2901
嚴佛調譯	-12.2901
普告大眾	-12.2901
為魔得便	-12.2901
疥	-12.2901
變得更加	-12.2901
三井文庫	-12.2901
ṅga	-12.2901
其人臭穢皆悉不	-12.2901
道可求	-12.2902
不墮劍樹地獄	-12.2902
啟迪	-12.2902
實實在在	-12.2902
為若此也	-12.2902
老不止婬	-12.2902
最重要的	-12.2902
夥	-12.2902
太平興國	-12.2902
如鐵生垢	-12.2902
小品般若	-12.2902
bhoga	-12.2902
upabhoga	-12.2903
槃	-12.2903
茫然無知	-12.2903
官主禁	-12.2903
金剛頂經文殊師利	-12.2903
忉	-12.2903
䠒	-12.2903
蠻	-12.2903
俱舍論實義疏	-12.2903
應了了分明已棄除之	-12.2903
āny	-12.2904
sthāpanā	-12.2904
壇前開科儀當演	-12.2904
佛滅度後	-12.2904
加持奉送聖賢真言	-12.2904
問訊起居	-12.2904
裴休碑序	-12.2904
闊	-12.2904
觀經變	-12.2904
北京大學圖書館	-12.2904
擺	-12.2905
臟	-12.2905
憍薩羅國王波斯匿	-12.2905
撓	-12.2905
以聖攝凡	-12.2905
罩	-12.2905
金剛經注頌	-12.2905
累劫報親恩	-12.2905
蕪	-12.2905
四個部分	-12.2905
一系列	-12.2905
這條材料	-12.2906
此難不然	-12.2906
襟	-12.2906
健康	-12.2906
迷真逐妄	-12.2906
色蓮花遶世尊	-12.2906
窒	-12.2906
丟	-12.2907
的主流	-12.2907
紛紜	-12.2907
有慧方便解	-12.2907
廿	-12.2907
有意思的	-12.2907
砍	-12.2907
天曆元年	-12.2907
挨	-12.2907
但凡夫之人	-12.2908
右兩半葉文字	-12.2908
推燥居濕	-12.2908
本略疏	-12.2908
聳	-12.2908
府部眾	-12.2908
李際寧	-12.2909
嚧	-12.2909
遍計所執	-12.2909
騷	-12.2909
錘	-12.291
入海採寶	-12.291
萬行因花	-12.291
愆瑕	-12.291
不見中外歷代佛書	-12.291
恁	-12.291
總包羅	-12.291
苾蒭尼等	-12.291
華嚴略疏	-12.291
巫	-12.291
亦無所去	-12.2911
捷	-12.2911
在家信徒	-12.2911
判為疑偽經	-12.2913
咸平五年	-12.2913
大乘四齋日	-12.2913
5541	-12.2913
旃	-12.2913
相涉入	-12.2913
自爾以來	-12.2914
禮懺功德文	-12.2914
啟請八大金剛	-12.2914
佛說藥師灌頂	-12.2915
㫊	-12.2915
無前無後	-12.2915
順後句	-12.2915
坤	-12.2915
淨居天	-12.2916
遍虛空界悉包	-12.2916
就可以明白	-12.2916
從他聞	-12.2916
󵔯	-12.2916
晉譯華嚴	-12.2916
了了分明已生起之	-12.2916
滲透	-12.2917
胝	-12.2917
摩訶尾欲曼怛	-12.2917
集為一藏	-12.2917
人注目	-12.2917
三時學會	-12.2917
犍	-12.2917
断	-12.2918
得言稱機說	-12.2918
寫錄諸家所述	-12.2918
嬪	-12.2919
大段第	-12.2919
布古薩	-12.2919
釵	-12.2919
持禪定人	-12.2919
鞭笞	-12.2919
不驚不	-12.292
栂尾本	-12.292
妙極之	-12.292
裝訂	-12.292
百日不食	-12.2921
三界外恆沙無明	-12.2921
二曜金剛合璧	-12.2921
伊吹敦先生	-12.2922
標準的	-12.2922
彥	-12.2922
馮夢禎	-12.2922
世流布	-12.2922
個美麗的女孩	-12.2923
築島本	-12.2923
聖人畢故不造新	-12.2923
摩訶母捺	-12.2924
杲	-12.2925
發無上心	-12.2926
摩訶提中	-12.2927
閉目誦出	-12.2928
卷十八的	-12.293
鉗	-12.293
咨	-12.2933
的流傳情況	-12.2933
穰	-12.2933
凡此種種	-12.2934
近邊地獄	-12.2934
窣頗囉	-12.2935
喇	-12.2936
天監十五年	-12.2936
鄰阿伽色	-12.2937
娑哩嚩	-12.2947
置是事	-12.2947
左焰左	-12.2948
(118	-12.2949
烏瑟尼沙	-12.295
謎	-12.2951
所做的	-12.2952
皆出金	-12.2955
繆抄	-12.2956
疎	-12.2956
罪根願消	-12.2959
devā	-12.296
諸菩薩摩訶薩應如是	-12.2978
金剛藏菩薩	-12.3008
梵天王下	-12.3068
蓮花中出生的	-12.3116
方界主	-12.3117
637	-12.32
videh	-12.3212
956	-12.3248
地獄與天	-12.3334
奮勉	-12.3436
āvar	-12.357
adhy	-12.3628
從白豪	-12.3673
毛皆上靡	-12.386
金棺囑累	-12.3863
504	-12.4105
karaṇa	-12.4106
不可思議解脫法門	-12.4189
額上諸毛	-12.4199
yogā	-12.4285
薩嚩怛他揭	-12.4319
bandh	-12.4659
▁sarv	-12.4939
彼於他人注意觀察	-12.497
prayog	-12.5109
薩婆怛他揭	-12.528
亦名安心門	-12.5294
能浮持世間	-12.5307
生正知之理	-12.5313
染著障生天	-12.5318
憍薩羅	-12.5319
死王倏爾	-12.5325
此為所除	-12.5328
氈	-12.533
始生七日	-12.5332
我便命終	-12.5332
謂如來作是念	-12.5334
逾城出家	-12.5335
佛及人壽	-12.5336
須達爾時名	-12.5336
價	-12.5337
偶一觸之	-12.5338
伺共相應	-12.5338
僧伽梨衣	-12.5338
彬	-12.5339
普運慈	-12.5341
孩	-12.5342
卡利瞿陀王子跋提耶	-12.5342
有穢濁的感受	-12.5342
支提甚美	-12.5343
佛如來耳普垂埵	-12.5343
拉貢扎卡跋提	-12.5345
忘善所緣	-12.5345
阿僧祗	-12.5346
摩醯首羅天	-12.5346
入佛性海	-12.5346
資聖寺沙門道液	-12.5348
識緣名色	-12.5349
閡	-12.535
末利王妃	-12.535
能了知之士夫	-12.535
佛說孝順子修行成佛經	-12.5351
兩耳內外出生蓮華及耳孔	-12.5352
我應滅度一切眾生	-12.5352
靈根穎脫	-12.5352
萐	-12.5352
的不少校訂意見	-12.5353
狀似怯人	-12.5353
僧伽羅文巴利三藏	-12.5353
斯里蘭卡國家佛教部監製出版	-12.5353
丞	-12.5353
實智從境	-12.5353
一一畫有十四	-12.5353
阿練若	-12.5354
其餘諸號	-12.5354
蚖	-12.5354
券	-12.5354
株杌	-12.5354
毛皆兩	-12.5354
猶如黑絲分	-12.5354
頭頂骨其色正白如頗	-12.5354
報恩德菩薩摩訶薩	-12.5356
劑	-12.5356
昨夜子時	-12.5357
作六種不祥之夢	-12.5357
醺	-12.5357
得聞如是之經	-12.5357
勝於愛我自己者	-12.5357
何況其沙	-12.5357
供養辟支迦	-12.5357
滅度一切眾生已	-12.5357
特此說明	-12.5359
智嚴譯	-12.5359
破煙然	-12.5359
薄伽筏帝	-12.536
如對香美諸飲	-12.536
沃	-12.536
燒煩惱薪	-12.536
東園彌伽羅	-12.5361
殯斂已	-12.5361
名色緣六	-12.5361
北新八六七號	-12.5361
名色滅則六	-12.5361
金銀為飾裝	-12.5361
歲時誦出	-12.5361
燈佛則不與我	-12.5362
說諸法斷滅	-12.5362
何況繫念觀佛三昧	-12.5363
目淨修廣	-12.5363
啟白敘意	-12.5363
牡	-12.5363
觀除入捨	-12.5363
骸	-12.5363
炮	-12.5364
袁	-12.5364
擴	-12.5364
前後際斷	-12.5364
戛	-12.5364
南無金剛界菩薩	-12.5364
迦樓尼	-12.5364
淨居忉利	-12.5366
那由他俱胝	-12.5366
佛說觀佛三昧海	-12.5366
靈圖寺	-12.5366
八地已上	-12.5367
腥	-12.5367
膻	-12.5367
頻婆果	-12.5367
相提並論	-12.5367
妙絕常境	-12.5367
慈風扇處	-12.5367
所作的科分	-12.5367
章仇禹生	-12.5367
未為歷代經錄所著錄	-12.5368
此人亦除卻八十億劫生死之罪	-12.5368
提供了新的資料	-12.5368
有持戒修福者	-12.5368
閃閃發光	-12.5368
同名釋迦牟尼佛	-12.5368
斷止之相違品	-12.5368
思維忍之功德	-12.5368
擒	-12.5368
茗	-12.5368
難保信	-12.5368
不誑語者	-12.5369
傅	-12.5369
世尊與大比丘眾在	-12.537
先世罪業則為消滅	-12.537
常不輕菩薩	-12.537
何智所緣	-12.537
捩	-12.537
蟒	-12.537
於甚微細事	-12.537
喑	-12.537
得相作也	-12.537
過去無量阿僧祇劫	-12.537
沮	-12.537
擠	-12.5371
濛	-12.5371
撩	-12.5371
距佛不遠處	-12.5371
人有十八識	-12.5371
嚙	-12.5371
生下劣想	-12.5371
沒而來生此	-12.5371
謊	-12.5371
姨母之子	-12.5371
蔬	-12.5371
寞	-12.5372
㝹	-12.5372
漏盡意解	-12.5372
車有十八輻	-12.5372
弩	-12.5372
右肩擔母	-12.5372
小聖詎	-12.5372
我今得聞如是經典	-12.5372
損益展轉更相隨故	-12.5372
漓	-12.5372
無二亦無三	-12.5372
應常注意觀察	-12.5373
移至他世	-12.5373
紙已佚	-12.5373
鑲	-12.5373
日本京都	-12.5374
樑	-12.5374
狸	-12.5374
十小劫	-12.5374
為道場之本	-12.5374
洎	-12.5374
闔	-12.5374
泥梨中	-12.5374
洗足入	-12.5374
解粘去縛	-12.5374
他化自在天	-12.5374
何況有人盡能受持讀誦	-12.5374
信解受持不足為難	-12.5374
無有極微等法	-12.5374
澈	-12.5375
岫	-12.5375
我皆令入無餘涅槃而滅度之	-12.5375
馬和象	-12.5375
蛆	-12.5375
根據目前掌握的	-12.5375
二百五十戒	-12.5375
志心普命	-12.5375
孜孜	-12.5375
廣陳供養	-12.5375
涕淚悲泣	-12.5375
人從三惡處	-12.5375
即往佛所	-12.5375
貓	-12.5375
離有離無	-12.5375
五梵文字母	-12.5375
以為正量	-12.5375
功用根圓滿	-12.5375
應正等覺	-12.5375
或報之於	-12.5375
無在無不在	-12.5375
道場所祖	-12.5375
鹿母當年	-12.5375
爾所國土中	-12.5376
念定光佛	-12.5376
分位及究竟	-12.5377
揵	-12.5377
味甘甜	-12.5377
食肉者墮何	-12.5377
本之底校本	-12.5377
豈不愧哉	-12.5377
佛說相好經	-12.5377
惛	-12.5377
斷下分結	-12.5377
智高財	-12.5377
如來讚歎品	-12.5377
何以加焉	-12.5377
閤	-12.5378
稷	-12.5378
轉更精	-12.5378
不於一佛二佛	-12.5378
左上手持	-12.5378
襯	-12.5378
可以身相見如來不	-12.5378
屈伸臂	-12.5378
聖彼得堡	-12.5378
亦同是例	-12.5378
仆	-12.5378
噫嘻	-12.5378
祚	-12.5378
八萬行別	-12.5378
方眾生悉是	-12.5378
未見緣生義	-12.5378
照見五蘊皆空	-12.5378
聚沙成塔亙青天	-12.5378
滿於三千大千世界	-12.5378
繚	-12.5378
頭面作禮	-12.5378
睿	-12.5379
無量阿僧祇世界	-12.5379
繕	-12.5379
此即先請	-12.5379
分身現寶	-12.5379
履行國王的職責	-12.5379
無量千萬佛所種	-12.5379
者夢見須彌山崩	-12.5379
喜不自勝	-12.5379
血流沒踝	-12.5379
四相所遷	-12.5379
攣	-12.5379
送他回	-12.5379
高高興興地	-12.5379
下部殘爛	-12.5379
如來不應以具足色身見	-12.5379
芥	-12.538
名諸相具足	-12.538
蔑	-12.538
崔	-12.5381
如來妙色身	-12.5381
普賢法王菩薩	-12.5381
韋提希	-12.5381
若內若外	-12.5381
第二時陞座	-12.5381
文化遺產	-12.5381
梵音初震	-12.5381
爨	-12.5381
祇夜伽陀	-12.5381
於一一指節端有十二輪相	-12.5381
諸趣唯因果	-12.5381
還生於空法	-12.5381
長講華嚴海印大師思覺集	-12.5381
兩大系統	-12.5381
我和世界均	-12.5381
如來智慧燈	-12.5382
尉	-12.5382
誓不再造	-12.5382
先所作罪	-12.5382
沓	-12.5382
躭	-12.5382
三摩鉢提	-12.5382
到這兒來	-12.5382
加持焚香真言	-12.5382
文殊師利問維摩詰	-12.5382
犒	-12.5382
五識依緣	-12.5382
密垂加護	-12.5382
六百四萬億	-12.5383
趍	-12.5383
於法有所得不	-12.5383
誹	-12.5383
高山寺	-12.5383
築	-12.5383
曼殊室利	-12.5383
增上生及決定勝	-12.5384
是聖是凡	-12.5384
此間漢地	-12.5384
玉女承顏	-12.5384
鴉鵲同巢	-12.5384
因孝成佛	-12.5384
成書年代	-12.5384
褥	-12.5384
我等云何奉持	-12.5384
與大比丘眾千二百五十人俱	-12.5384
佛如來上腭	-12.5385
采	-12.5385
乳哺養育恩	-12.5385
唏	-12.5385
生子忘憂恩	-12.5385
普懺罪菩薩摩訶薩	-12.5385
.2446	-12.5385
生實信不	-12.5385
遠行憶念恩	-12.5385
四個範疇	-12.5385
拈來不離	-12.5385
以此文驗	-12.5385
凡見諦惑盡	-12.5385
印經一藏進於朝	-12.5385
無根樹下親拈	-12.5385
跑	-12.5385
開皇九年	-12.5385
嗡	-12.5385
多微積聚	-12.5385
梵網經	-12.5385
法華經佛藏經大方廣十輪經	-12.5385
白姐聖妃	-12.5385
破齋者墮	-12.5385
負呵罵冤家	-12.5385
時向西方禮佛	-12.5385
信心不逆	-12.5386
敦煌遺書總目索引	-12.5386
蠡	-12.5386
枷	-12.5386
漲	-12.5386
磋	-12.5386
如救頭然	-12.5386
忽然不現	-12.5386
當做之事	-12.5386
.2849	-12.5386
一花五葉	-12.5386
晴	-12.5386
其苦難忍	-12.5386
十千天子	-12.5386
天及非天	-12.5386
是故如來說一切法	-12.5386
立碑石	-12.5386
節節支解	-12.5386
詭	-12.5386
非苦非樂受	-12.5386
徧	-12.5386
撑	-12.5386
瞿曇沙門在金山中遊行	-12.5386
賢求愚弟	-12.5386
不能解我所說故	-12.5387
便分六十	-12.5387
睦	-12.5387
攻	-12.5387
叭囉速都	-12.5388
洗濯不淨恩	-12.5388
鑰	-12.5388
臨產受苦恩	-12.5388
贓	-12.5388
南無越三界菩薩	-12.5388
兩膝骨圓著	-12.5388
六解一亡	-12.5388
護法呵空	-12.5388
道場功德儀當演	-12.5388
室唎羅多	-12.5388
樂欲造論之因	-12.5388
貸	-12.5388
阿育王	-12.5388
仗境方生	-12.5388
哈	-12.5388
緩	-12.5388
掬	-12.5388
颺	-12.5389
将	-12.5389
淨名經關中疏	-12.5389
延曆寺	-12.5389
牀	-12.5389
諸漏已盡	-12.5389
一輪杲日照	-12.5389
奉請金剛眷菩薩	-12.5389
年歲次	-12.5389
絙	-12.5389
薰成種智	-12.5389
長跪叉手	-12.5389
霖	-12.5389
鏗	-12.5389
除當已過去一切根機現在一切藥病時	-12.5389
本緣故事	-12.539
婆羅門外道同住於捨衛城	-12.539
無生第一樂	-12.539
伎	-12.539
阿賴耶識	-12.539
一月千江	-12.539
懶	-12.539
三界惑粗	-12.539
究竟憐憫恩	-12.539
三牲日	-12.5391
舊時妻	-12.5391
詫	-12.5391
奉慈顏	-12.5391
据	-12.5391
滿懷敬意	-12.5391
法欲滅時	-12.5391
寅年六月十日勘校報恩寺藏舊經帙數	-12.5391
定聚人也	-12.5392
多他阿伽度	-12.5392
權歸實	-12.5392
狄	-12.5392
葷	-12.5392
正眼看來	-12.5392
現身現土	-12.5392
聽玄音	-12.5392
(730)	-12.5392
佛如來兩䏶周圓	-12.5392
憙	-12.5392
旭	-12.5392
毫宛轉	-12.5392
禪師行狀	-12.5392
經像之師	-12.5392
豺	-12.5392
想同助味	-12.5392
窈	-12.5392
傑出的	-12.5392
間接智慧	-12.5392
一盞燈	-12.5393
佛說微塵眾	-12.5393
於其齊中有萬億寶	-12.5393
瘋	-12.5393
粟特文殘本	-12.5393
同義詞差別觀	-12.5393
為造惡業恩	-12.5393
勸比丘酒者	-12.5393
少欲最安樂	-12.5393
昔說小乘	-12.5393
樁	-12.5393
毛皆上靡及身諸毛	-12.5393
流入毗盧華藏	-12.5393
熱鐵地基	-12.5393
饜	-12.5393
七世紀下半葉	-12.5393
以因收果	-12.5393
以種種方便法門	-12.5393
矯	-12.5393
頒	-12.5393
āyuṣka	-12.5393
稽首三界尊	-12.5393
vijay	-12.5394
「〔〕」	-12.5394
佛如來諸骨	-12.5394
kevali	-12.5394
趕	-12.5394
不住色布施	-12.5394
圓覺道場禮	-12.5394
憾	-12.5394
生滅則老	-12.5395
的相關段落	-12.5395
皚	-12.5395
蜀	-12.5395
加持首楞嚴心真言	-12.5395
親眼目睹	-12.5395
縠	-12.5395
橛	-12.5395
舉行法會	-12.5395
軻	-12.5395
ṛju	-12.5395
佛是大良醫	-12.5395
新集疑經偽撰雜錄	-12.5395
續群書類從本	-12.5395
普光明殿	-12.5395
一切義成天	-12.5395
勁	-12.5395
2137	-12.5395
千輻條天	-12.5395
報親恩	-12.5396
hari	-12.5396
被抑制	-12.5396
毘盧遮那	-12.5396
餌	-12.5396
清涼答順宗	-12.5396
虔奏藥師	-12.5396
鑁	-12.5396
難以忍受的	-12.5396
五個婆羅門	-12.5396
雨濛濛	-12.5396
炷香設禮	-12.5396
種方法做成	-12.5396
購	-12.5396
bhir	-12.5396
saṃvara	-12.5396
反照己	-12.5396
掙	-12.5396
習相善業	-12.5396
唐慈恩寺	-12.5396
pāriṣad	-12.5396
也是一種實體	-12.5396
gandha	-12.5396
停作不退	-12.5396
pṛth	-12.5396
airāvata	-12.5397
達塔契乾陀洲	-12.5397
saudharm	-12.5397
佛如來兩足踝不	-12.5397
於其爪端	-12.5397
自知正感覺	-12.5397
bhūta	-12.5397
saṃlekhanā	-12.5397
saṃsār	-12.5397
vedanā	-12.5397
jambūdvīpa	-12.5397
viśeṣa	-12.5397
puruṣa	-12.5397
pariṇāma	-12.5397
uttama	-12.5397
如海量的俱胝的俱胝倍	-12.5397
抑制細作	-12.5397
的精神活動	-12.5397
cakṣu	-12.5397
upapāta	-12.5397
hiṃsā	-12.5397
duḥkh	-12.5397
九之頸飾天	-12.5397
底根恰池	-12.5397
於晨朝時	-12.5397
能計量的	-12.5397
此界他方	-12.5397
aupapātika	-12.5397
antarāya	-12.5397
有譯有本錄	-12.5397
合明助伴及作業	-12.5397
可以推知	-12.5397
挾	-12.5397
過去心已滅	-12.5397
viṣaya	-12.5397
眼中重光生	-12.5397
墮鐵輪地獄	-12.5397
誦大悲咒	-12.5397
首尾俱全	-12.5397
從天而降	-12.5397
持齋除罪九十劫	-12.5397
明制教重輕	-12.5397
直字梵語心經陀羅尼	-12.5397
永樂十年	-12.5397
父母恩重經變	-12.5397
發遣鬼神真言	-12.5397
bhūm	-12.5397
labdh	-12.5397
viṣkambh	-12.5397
śukl	-12.5397
▁bhājy	-12.5397
三教都破	-12.5397
五道大神下	-12.5397
仕	-12.5397
平明時向東方禮佛	-12.5397
廣釋中大門第	-12.5397
桂	-12.5397
江都村	-12.5397
法國國家圖書館藏伯	-12.5397
轄	-12.5397
醘	-12.5397
依自他施設	-12.5397
例餘意種	-12.5397
vikalp	-12.5398
大自在天子	-12.5398
ārjava	-12.5398
沿直線	-12.5398
簡人是非	-12.5398
幅	-12.5398
十四德位的	-12.5398
eṣām	-12.5398
pāriṇāmika	-12.5398
粟特文本	-12.5398
新譯仁王經	-12.5398
dvīpa	-12.5398
liṅga	-12.5398
ārakāṇā	-12.5398
āraṇa	-12.5398
pīt	-12.5398
mithyādarśana	-12.5398
sāgaropama	-12.5398
哈利地區	-12.5398
方位童子	-12.5398
aṇḍa	-12.5398
garbha	-12.5398
Handurukende	-12.5398
佛如來齊如毗	-12.5398
大乘無盡藏法	-12.5398
解如來所說義	-12.5398
bhavan	-12.5398
manaḥ	-12.5398
愈來愈	-12.5398
aruṇa	-12.5398
運動的條件	-12.5398
但在耆那教中	-12.5399
戴密微	-12.5399
lābha	-12.5399
瘦	-12.5399
慟	-12.5399
佛前佛後	-12.5399
炫	-12.5399
大小乘經律論疏	-12.5399
居約迎官	-12.5399
法金剛院藏	-12.5399
禮維摩詰足	-12.5399
來禮請楞嚴會上	-12.5399
扭	-12.5399
謂除前相	-12.5399
闘	-12.5399
kro	-12.5399
himavan	-12.5399
strī	-12.5399
▁pūrvā	-12.5399
saṃyama	-12.5399
佛如來腹小不	-12.54
manojñānām	-12.54
佛如來那羅延力合	-12.54
娑羅雙樹間	-12.54
▁mokṣa	-12.54
忒	-12.54
順宗皇帝所問心要法門	-12.54
方袍圓頂	-12.54
夜叉隨手立長空	-12.54
彰中息	-12.54
撿	-12.54
礿	-12.54
蠱	-12.54
=	-12.54
隳	-12.54
院的藏書目錄	-12.54
史金波	-12.5401
止觀輔行	-12.5401
衣派刊本無此節	-12.5401
圭峰蘭若沙門宗密注	-12.5402
笑點頭	-12.5402
這個聰明的人	-12.5402
升上了	-12.5402
知我說法如筏喻者	-12.5402
芾煌居士	-12.5402
這個偉人	-12.5402
.5841	-12.5402
有方便慧解	-12.5402
漏洩到命上	-12.5402
het	-12.5402
脊	-12.5402
佛如來足下平滿	-12.5402
守護國界主陀羅尼經	-12.5403
(514)	-12.5403
賽	-12.5403
鼕	-12.5403
藩	-12.5403
經折裝	-12.5403
貼	-12.5403
召集神祗	-12.5403
不覺不知己之所	-12.5403
基本原理	-12.5403
為一個整體	-12.5403
反省冥想	-12.5403
廬山遠公	-12.5403
朱士行	-12.5403
歎智德	-12.5403
汪	-12.5403
無別真可立	-12.5403
琦	-12.5403
無而能變	-12.5403
mithy	-12.5403
同生極樂國	-12.5403
北京圖書館善本部	-12.5404
淨口業真言	-12.5404
或弟食	-12.5404
回乾就濕	-12.5404
阿闍世王	-12.5404
王世貞	-12.5404
達溫得	-12.5404
有財不施	-12.5404
磬	-12.5404
夙夜不學	-12.5404
閭	-12.5404
禮拜能除我慢	-12.5404
可指示在	-12.5404
者能住正	-12.5404
驟	-12.5404
涵	-12.5405
宋林羅神王	-12.5406
迦樓羅	-12.5406
不存此解	-12.5406
金城國	-12.5406
韋	-12.5406
纔是最	-12.5406
藥王藥上二大菩薩	-12.5406
(512)	-12.5406
改隸西明寺	-12.5406
阿鍐嚂唅缺	-12.5406
武則天	-12.5406
誦三寶咒	-12.5407
初中又三	-12.5407
安受眾苦忍	-12.5407
房山雲居寺	-12.5407
鄧	-12.5407
者的意圖	-12.5407
觀音勢至二大菩薩	-12.5407
對傳統法規記憶不熟	-12.5407
掘	-12.5407
為眾生的利益而努力	-12.5407
無菩薩行般若	-12.5407
稱揚諸佛功德經	-12.5407
定形物質	-12.5408
acary	-12.5408
卉	-12.5408
萬種千端	-12.5409
放諸生命	-12.5409
雉	-12.5409
常求無念	-12.5409
續命神幡	-12.5409
銖	-12.5409
驚入火宅	-12.5409
不墮鐵床地獄	-12.5409
郭巨埋兒	-12.5409
朦	-12.541
嫡	-12.541
簽	-12.541
君臣道合	-12.541
日本天台學者	-12.541
老古錐	-12.541
褓	-12.541
甦	-12.541
682	-12.541
曹延祿	-12.541
講論錄	-12.541
摩揭陀國	-12.5411
大方廣華嚴十惡品經	-12.5411
覚	-12.5411
聞如來壽命長遠	-12.5411
沒陀喃	-12.5411
偽妄亂真	-12.5411
叱	-12.5411
迦葉微微	-12.5411
盂蘭盆經	-12.5411
只哆嚩	-12.5411
善星解行	-12.5411
sūtra	-12.5412
佛為心王菩薩說投陀經	-12.5412
熄	-12.5413
訣	-12.5413
不以日月所照為	-12.5413
憂惱所逼時	-12.5413
擷	-12.5413
殘暴的	-12.5413
絲毫不	-12.5413
雲南省圖書館藏	-12.5413
四十二恆河沙	-12.5413
是相續緣成	-12.5413
懃	-12.5413
法儀類例	-12.5413
超凡入聖	-12.5413
上海博物館	-12.5413
痾	-12.5414
增其勝解	-12.5414
805	-12.5414
舛	-12.5414
汝勿謂如來	-12.5414
法華經文外義	-12.5414
不應取非法	-12.5415
縛室憐	-12.5415
僧法誦經事	-12.5415
伶	-12.5415
無慧方便縛	-12.5415
背塵合覺	-12.5415
正了知若法若義	-12.5415
原樣照	-12.5415
黑城出土	-12.5415
蟠	-12.5417
鴉	-12.5418
第三時陞座	-12.5418
怛多誐	-12.5418
敦煌文獻中的這些禪	-12.5418
故在此譯	-12.5419
以篇章	-12.542
知識份子	-12.542
麓	-12.542
×20.	-12.542
柳田聖山	-12.542
因明入論	-12.542
舊唐書	-12.542
取捨兼懷	-12.5421
良藥苦口	-12.5421
隨一尊重有知同梵行者為說法要	-12.5421
冉雲華先生	-12.5421
讒	-12.5422
和耆羅神王	-12.5422
咀	-12.5422
畝	-12.5424
鵠	-12.5424
住前性地	-12.5424
薩囉嚩	-12.5424
ォ	-12.5424
寥寥	-12.5424
於湛精明	-12.5424
詮表禪門根源道理	-12.5424
某某神下	-12.5424
摩休羅神王	-12.5425
無蓋慈菩薩	-12.5425
扶容王	-12.5425
前三三與後三三	-12.5426
圖六面	-12.5427
月有十齋日	-12.5427
攘	-12.5428
1-8	-12.5428
左右各牽	-12.5428
集法悅捨苦陀羅尼	-12.5429
遮囉遮囉	-12.5429
金毗羅神王	-12.5429
玄奘法師禮拜逐月有十齋日	-12.5429
綾	-12.5431
尊卑昭穆	-12.5431
伏願慈悲憐	-12.5431
入滅盡定	-12.5432
三種悉地法的典據	-12.5433
息寧靜有序	-12.5433
倮	-12.5433
楞嚴解冤釋結道場密教卷	-12.5435
智證大師	-12.5436
嚴厲的	-12.5436
高宗第	-12.5436
羅國遊化	-12.5437
縊	-12.5439
癙	-12.5439
木道賢獻	-12.5439
無有法名為菩薩	-12.544
唧	-12.5443
夢想苦	-12.5443
摩訶迦嚕尼	-12.5443
咩	-12.5445
逆鄰那	-12.5447
那婆那	-12.545
沒嚴鼻	-12.5451
嬭	-12.5453
嘇	-12.5453
呼盧呼盧	-12.5453
遼道宗	-12.5453
瓢	-12.5454
懺悔願消	-12.5468
峙	-12.5469
那舍你	-12.5471
(117	-12.5476
真陀羅神王	-12.5478
趐	-12.5499
波耶羅神王	-12.5501
鄭哩曩	-12.5508
正覺的道路	-12.5542
之火燃燒	-12.5665
善女人受持讀誦此	-12.5749
即前述第	-12.5822
因持羅神王	-12.5862
吾當為汝	-12.5864
667	-12.5913
varaṇa	-12.5968
650	-12.5993
僧人所撰典籍	-12.6013
貪求無厭	-12.6026
arpi	-12.6423
怛他揭哆	-12.69
tsar	-12.7455
deha	-12.8189
燦	-12.8315
泮	-12.8385
終不於他而生	-12.8586
未覺中毒	-12.8634
作布薩和羯磨	-12.8646
國色天香	-12.8646
卻變為清澈明淨	-12.8648
便即散髮	-12.865
最居上首	-12.8652
西口芳男	-12.8654
我和世界皆是	-12.8654
槽	-12.8654
十二處體皆是法	-12.8654
重伸觀想	-12.8656
姨母波闍	-12.8658
貪之對治分別觀察	-12.8658
鐺	-12.8659
應修自他換	-12.8659
槌	-12.8661
羅剎吸人精氣	-12.8661
古魯沓河	-12.8661
斧等分隔	-12.8661
水鳥樹林	-12.8661
裟羅林	-12.8662
輪郭眾相	-12.8665
臨期生產	-12.8667
破戒常醜陋	-12.8667
亦名制心門	-12.8667
地湧金蓮	-12.8667
緣此實理	-12.8667
即見告人優波離	-12.8669
大隧道本生	-12.8669
之方便為守護正念	-12.8671
五智十身	-12.8671
五位六位	-12.8671
遮頗羅支提	-12.8671
菩提達摩所撰	-12.8673
􂂈	-12.8673
級天神守護之地區建造宅舍	-12.8673
諸位先生表示	-12.8675
大會度諸弟子有	-12.8675
如所現而成就	-12.8675
拔斷十二根	-12.8675
袒	-12.8676
天上天下無如佛	-12.8677
栴陀羅頗黎	-12.8677
罪為惡心怨	-12.8677
亦名正心門	-12.8678
嗒	-12.8679
寶頂山石刻經	-12.8679
闢	-12.8679
世尊在王捨城竹林迦	-12.8679
謁文於東平趙渢述記	-12.8679
其色艷紫紺青琉璃	-12.8679
特別吸收了	-12.8681
一切無有如佛者	-12.8681
所有我盡見	-12.8681
豸	-12.8681
具言刊經本末	-12.8681
如是苦集如是而	-12.8681
金銀銅鐵	-12.8681
哄	-12.8681
離無實之分位	-12.8681
文殊師利法王子菩薩	-12.8683
已破竟故	-12.8683
薝	-12.8683
但當深心起隨喜	-12.8683
諸神通事如	-12.8683
惡毒多毒	-12.8683
道場次序儀宣演	-12.8683
草和糠	-12.8683
賑	-12.8683
日在日本京都禪文化研究所	-12.8684
瓣	-12.8684
於福德為障者不應瞋	-12.8684
她欲設七日之齋	-12.8685
憩	-12.8685
坼	-12.8685
属	-12.8685
瑜伽師地開釋分門記	-12.8685
璽	-12.8685
迦利樹園堂	-12.8685
誅	-12.8686
捫淚而言	-12.8686
有無勝於愛	-12.8686
可謂難也哉	-12.8686
就相續道中	-12.8686
請志公講經	-12.8687
大眾遶壇	-12.8688
燕	-12.8688
各各明悟十種清淨	-12.8688
地獄極重苦	-12.8688
佛如來腦紅頗	-12.8688
膂	-12.8688
莆	-12.8688
禿	-12.8689
持戒恒端嚴	-12.869
云何不留半偈	-12.869
窄	-12.869
同音朗誦	-12.869
他們走上求正覺之路	-12.869
堅性堅類	-12.869
比丘敷設坐臥具	-12.869
觚	-12.869
調御舁棺	-12.869
鏹	-12.869
秣	-12.8692
寥	-12.8692
世尊在王舍城竹林迦蘭陀	-12.8692
往復顯理	-12.8692
心開意解	-12.8692
羨	-12.8692
賣身破產	-12.8692
善趣之名亦不	-12.8692
見在魚行	-12.8693
娑嚩婆嚩秫度	-12.8694
却住一面	-12.8694
彈指超無學	-12.8694
其相如車	-12.8694
卡利瞿陀王之子跋提耶	-12.8694
峽	-12.8694
悚	-12.8694
罟	-12.8694
若取所詮為經	-12.8694
如師所誦	-12.8694
孑	-12.8694
情火的種別	-12.8695
三界四府萬靈	-12.8695
十方滿空賢聖	-12.8695
則為如來以佛智	-12.8695
尿	-12.8696
諸臟腑	-12.8696
者夢見猛火來燒我	-12.8696
正法住世五百年	-12.8696
鞅	-12.8696
三攝十二門	-12.8696
不為人們所知	-12.8696
受者名失利	-12.8696
幼象雜居一處	-12.8696
扃	-12.8696
施者名得利	-12.8696
諸象食去梢頭之草	-12.8696
阿微羅哞	-12.8696
牝象以身體觸摸	-12.8696
燼	-12.8698
對治遍行力	-12.8698
遮止瞋恚之因	-12.8698
擦	-12.8698
人體器官的	-12.8698
假此粗教	-12.8698
得意忘言	-12.8698
這類以單葉為基礎的書籍裝幀法	-12.8698
從頭至足	-12.87
各各明悟如是十種清淨	-12.87
同嘆讚佛偈	-12.87
都得以為乘體	-12.87
精血滴	-12.87
垣	-12.87
段經文的起訖	-12.87
勺	-12.87
書籍裝幀的	-12.87
為罪墮所染	-12.87
鎚	-12.87
上上智斷下下煩惱	-12.87
世間癡所魅	-12.87
四大種及四大種所造	-12.87
灘	-12.87
生起通達真如之般若	-12.87
利益存亡品	-12.8702
素紙竹帛	-12.8702
苛	-12.8702
舌後嘗味	-12.8702
姨	-12.8702
癊	-12.8702
􅶛	-12.8702
不及惡趣之苦一分	-12.8702
涌	-12.8702
當思己過	-12.8702
隆興丞相	-12.8702
丕	-12.8702
勤止惡修善之理	-12.8702
密教付法文	-12.8702
卓	-12.8703
脆	-12.8703
特有的術語	-12.8703
粹	-12.8703
或貴或賤	-12.8704
閻羅王眾讚歎品	-12.8704
皆得無所從生法忍	-12.8704
逈	-12.8704
如來廣孝十種報恩道場教誡儀文	-12.8704
姐	-12.8704
禹	-12.8704
鈎	-12.8704
嘗湯藥	-12.8704
垂降格	-12.8704
小乘迷學竺法度造異儀記第五	-12.8704
王子時大乘想解	-12.8704
以法斷恩	-12.8704
十二支法遞互相生	-12.8704
十六法各各別	-12.8704
心則狂亂	-12.8704
枚	-12.8704
波斯匿王庫中	-12.8704
當齋亡者	-12.8705
慈悲救苦薦福利生道場	-12.8705
▁dev	-12.8705
蚋	-12.8705
二是保持聖	-12.8706
岡	-12.8706
嚩室鄰	-12.8706
成就菩提之難行	-12.8706
為父母轉大法輪	-12.8706
住世一千年	-12.8706
帛尸梨密多羅奉詔譯	-12.8706
於內有五段	-12.8706
此是自家真如	-12.8706
般涅盤	-12.8706
離群獨居	-12.8706
偉哉慈覺	-12.8706
次為水陸有情稱念	-12.8706
廟祀典	-12.8707
殯	-12.8708
參斗陸升乳糜	-12.8708
期諸本可歸為	-12.8708
分明典切之語	-12.8708
愕	-12.8708
殘留上邊	-12.8708
迢	-12.8708
熔	-12.8708
空衣派的刊本中	-12.8708
拘尸那	-12.8709
自知正感覺無關利害	-12.8709
諸經的排列次序	-12.8709
期諸本的有	-12.8709
以解負鞭撻	-12.8709
扳加拉	-12.8709
詳情請參見	-12.871
謳	-12.871
一是談說法	-12.871
不著世間如蓮花	-12.871
南無香積藏菩薩	-12.871
地水二司真言	-12.871
眇	-12.871
羈	-12.871
忍為堅鉀冑	-12.871
恭望聖慈	-12.871
永隔闡提	-12.871
也斷不至於	-12.871
呂澂先生的	-12.871
慳貪捨親友	-12.871
敞	-12.871
此即通彼第	-12.871
據雲南省圖書館藏縮微膠片	-12.871
婉	-12.8711
謠	-12.8711
璧	-12.8711
加持楞嚴字母真言	-12.8711
常善入於空寂行	-12.8711
三篇文獻作了仔細	-12.8711
佛說花嚴瓔珞經	-12.8711
冶	-12.8711
念世尊聲聞弟子行為	-12.8711
祕密主金剛	-12.8711
儒釋以孝為宗	-12.8711
刪繁就簡	-12.8711
哎	-12.8711
拔楔抽釘	-12.8711
潞州長子縣崔進之女	-12.8711
濾	-12.8711
積年合爨	-12.8711
能斫及所斫	-12.8711
許無方分微塵	-12.8711
逄	-12.8711
龍華三會	-12.8711
月十六日至	-12.8712
蓮花捧足真言	-12.8712
妊	-12.8712
最妙勝定經	-12.8712
涕淚交流	-12.8713
臆	-12.8713
不墮刀山地獄	-12.8713
罅	-12.8713
為中國北京圖書館收藏	-12.8713
拶	-12.8713
於殊勝菩提發心	-12.8713
五毒治之	-12.8713
佰	-12.8713
後必赴前	-12.8713
怒癡性即是解脫	-12.8713
炙肉之人	-12.8713
盼	-12.8713
鵬	-12.8713
一百六十卷	-12.8713
奈良朝學問僧的	-12.8713
藥師科範	-12.8713
妾	-12.8715
佞	-12.8715
盥	-12.8715
八寒八熱	-12.8715
波吒離村建立城防	-12.8715
浣	-12.8715
𦡈	-12.8715
壅	-12.8715
二及十是業	-12.8715
以菩薩空有二觀神通為宗	-12.8715
初八九煩惱	-12.8715
我的好朋友	-12.8715
舐	-12.8715
亭	-12.8715
六萬細行	-12.8715
殲	-12.8715
無有定法名阿耨多羅三藐三菩提	-12.8715
肓	-12.8715
虀	-12.8715
裝幀法裝幀	-12.8715
三部密教儀軌	-12.8715
五輪及五觀作一一對應	-12.8715
菩薩聲聞之眾	-12.8715
首存尾殘	-12.8716
於五百世作	-12.8716
濤	-12.8717
圭	-12.8717
劉法善等	-12.8717
或兄食弟肉	-12.8717
或父食子肉	-12.8717
憚	-12.8717
瞽	-12.8717
娠	-12.8717
身如畫瓶	-12.8717
輻	-12.8717
此解難存	-12.8717
餘七皆是苦	-12.8717
掌珠雙破悟玄	-12.8717
肴	-12.8717
五時判教	-12.8717
付紙歷	-12.8717
佛在金棺上囑累經	-12.8717
向四面八方傳	-12.8717
得柔順忍	-12.8717
救諸眾生一切苦難經	-12.8717
日刻延文版	-12.8717
是事而非經	-12.8717
硃	-12.8717
芙	-12.8717
蹬	-12.8717
汪娟博士	-12.8718
濕陀羅薄陀羅	-12.8718
薄陀羅婆睺	-12.8718
訝	-12.8719
或君食臣肉	-12.8719
儒釋皆宗	-12.8719
呻	-12.8719
即是覺察之義	-12.8719
裔	-12.8719
以超人之清淨天	-12.8719
繁榮富強	-12.8719
分為三個部分	-12.8719
蟣	-12.8719
絕下地之	-12.8719
坑中餓狗	-12.8719
奉請金剛愛菩薩	-12.8719
奉請金剛索菩薩	-12.8719
拘利耶王子	-12.8719
敦煌地區不同時期寺院所藏大藏經的	-12.8719
8706	-12.8719
崎	-12.8719
明以定道力	-12.8719
無想有情天處	-12.8719
萬字點間有千輻輪相	-12.8719
請為我說長遠	-12.8719
需要進一步研究	-12.8719
daiv	-12.872
者夢見兩乳	-12.872
皆應恭敬作禮圍繞以諸	-12.872
龍華會上	-12.872
個別身及其相反	-12.8721
漸修而展演	-12.8721
頓悟而發揮	-12.8721
生死空花總是訛	-12.8721
窪	-12.8721
一目了然	-12.8721
五重性範疇	-12.8721
閒靜自思	-12.8721
依不了義經	-12.8721
翰	-12.8721
觀眾生業緣品	-12.8721
較量佈施功德緣品	-12.8721
比丘具持如	-12.8721
釧	-12.8721
歌揚贊	-12.8721
迍	-12.8721
魁	-12.8721
南無香雲蓋菩薩	-12.8721
寓	-12.8721
寫典刊容	-12.8721
摻	-12.8721
編聯入藏	-12.8721
繼圓仁	-12.8721
能發生於乘	-12.8721
蔥	-12.8721
迮	-12.8721
箇	-12.8721
馬牛相乳	-12.8721
駢	-12.8721
以恒河沙等身	-12.8722
衣川賢次	-12.8722
螭	-12.8722
煌	-12.8723
nirgranth	-12.8723
紂	-12.8723
三寶於是現世間	-12.8723
本觀音之化	-12.8723
衛城祇陀林給孤獨園	-12.8723
鏈	-12.8723
澗	-12.8723
繭	-12.8723
敘禮請儀當宣演	-12.8723
積不可計劫	-12.8723
皇統九年	-12.8723
眛	-12.8723
花果茂盛	-12.8723
加持啟白諸聖真言	-12.8723
續群書類	-12.8723
不為我國歷代大藏經所收	-12.8723
佛頂心觀世音經卷中	-12.8723
命聖安寺設壇為法珍受戒	-12.8723
胎藏中尊	-12.8723
菩提心得功德利益之理	-12.8723
虱	-12.8723
金大定十八年	-12.8723
南無解脫月菩薩	-12.8723
周叔迦	-12.8723
帶罪而死	-12.8723
當知此處則為是	-12.8723
都計五千	-12.8723
pidhāna	-12.8724
表示衷心的感謝	-12.8724
naigama	-12.8724
三千大千世界所有微塵是	-12.8724
告吾母知	-12.8724
常於災劫	-12.8725
撞	-12.8725
救人而神用無虧	-12.8725
篡	-12.8725
個敬我太	-12.8725
改祭為齋	-12.8725
董永賣身殯葬父	-12.8725
衹	-12.8725
惘	-12.8725
癃	-12.8725
髀	-12.8725
佛說天公經一卷	-12.8725
博施濟眾	-12.8725
妝	-12.8725
賒	-12.8725
一搏之食	-12.8725
其福甚少	-12.8725
絃	-12.8725
上海古籍出版社	-12.8725
室獸摩羅	-12.8725
寤	-12.8725
帕瑪瓦蒂和瑪特維說	-12.8725
根之中應先說	-12.8725
潞州崔進女法珍	-12.8725
終是地獄之人	-12.8725
與聖齊功	-12.8725
藏清嘉慶	-12.8725
且錯訛較多	-12.8725
呆	-12.8725
國王阿魯納的兒子	-12.8725
坤達拉	-12.8725
嶮	-12.8725
心各發無上	-12.8725
振鈴持咒繞香壇	-12.8725
斷臂募刻藏	-12.8725
是續而是假	-12.8725
有破產鬻	-12.8725
榨	-12.8725
熊	-12.8725
能解彼縛	-12.8725
至善至美	-12.8725
逐世榮名	-12.8725
頓捨身命財	-12.8725
darśanāvaraṇa	-12.8725
emendra	-12.8726
nitya	-12.8726
二十二種艱苦中	-12.8726
一時佛在舍衛國祇	-12.8726
炊	-12.8726
紐	-12.8726
mokṣ	-12.8726
caram	-12.8727
如來腋下平滿	-12.8727
懸生五珠	-12.8727
婬怒癡	-12.8727
修諸微善	-12.8727
加持灌頂清淨真言	-12.8727
毆	-12.8727
懊	-12.8727
根塵縛脫何思慮	-12.8727
灶	-12.8727
約正教斷疑	-12.8727
O	-12.8727
保存完好	-12.8727
分身集會品	-12.8727
心愛的王后	-12.8727
翱	-12.8727
躺	-12.8727
閻浮眾生業感品	-12.8727
盪	-12.8727
和市民	-12.8727
眩	-12.8727
簾	-12.8727
臺內華光殿	-12.8727
諳	-12.8727
ādīnām	-12.8727
中國佛教史的研究	-12.8727
五不請罪	-12.8727
先人後己	-12.8727
南無妙色身如來	-12.8727
南無寶勝如來	-12.8727
南無廣博身如來	-12.8727
悒	-12.8727
拌	-12.8727
搔	-12.8727
猝	-12.8727
的對應關係	-12.8727
禮拜能滅七支	-12.8727
稈	-12.8727
非學非無學	-12.8727
願三途苦輪息	-12.8727
髒	-12.8727
𩰖	-12.8727
雲南省劍川縣	-12.8727
空衣派的刊本此節	-12.8727
sarvārthasiddh	-12.8727
首存尾缺	-12.8727
除罪多少劫	-12.8728
無慚愧僧攝	-12.8728
馨	-12.8728
parokṣa	-12.8728
chadmastha	-12.8728
名譽及其相反	-12.8728
迺	-12.8728
anuprekṣā	-12.8729
vṛddh	-12.8729
乃至無意識界	-12.8729
郵	-12.8729
輟	-12.8729
助佛揚化	-12.8729
北京圖書館所藏敦煌遺書	-12.8729
塑	-12.8729
嵩	-12.8729
而現佛土不同	-12.8729
遍空遍界	-12.8729
難捨能捨	-12.8729
二十萬比丘逮得無所從生法忍	-12.8729
十有色有對	-12.8729
坐我坐處	-12.8729
宥	-12.8729
廣宣流布	-12.8729
新集抄經錄第一	-12.8729
最澄密教傳法文	-12.8729
月二十一日	-12.8729
灌頂章句拔除過罪生死得度	-12.8729
sanatkumār	-12.8729
trāyastriṃśa	-12.8729
世間善非為乘體	-12.8729
懵	-12.8729
攏	-12.8729
陌	-12.8729
薗	-12.8731
閫	-12.8731
偕	-12.8731
惺	-12.8731
搬	-12.8733
瓜	-12.8733
腕	-12.8733
奘	-12.8733
侽	-12.8735
鬢	-12.8735
盟	-12.8735
皓	-12.8736
騫	-12.8736
株	-12.8736
迂	-12.8736
忝	-12.8737
簫	-12.8737
垓	-12.8737
繳	-12.8737
迨	-12.8737
陟	-12.8737
嘶	-12.8737
竿	-12.8737
璃	-12.8738
􅶫	-12.8738
恬	-12.8738
椅	-12.8738
絢	-12.8738
亘	-12.8738
梓	-12.8738
呀	-12.8738
竈	-12.8738
聘	-12.8738
唆	-12.8739
捏	-12.874
徇	-12.874
錐	-12.874
鶻	-12.874
顒	-12.874
攞	-12.8742
塚	-12.8742
攙	-12.8744
脖	-12.8744
幣	-12.8744
皏	-12.8746
廁	-12.8746
噫	-12.875
郢	-12.875
ゥ	-12.875
淑	-12.875
哽	-12.8752
貰	-12.8752
凍	-12.8753
莂	-12.8754
􅶷	-12.8754
蘗	-12.8756
裊	-12.8756
襴	-12.8756
臈	-12.8756
桌	-12.8757
罽	-12.8758
搞	-12.8758
僭	-12.876
瞥	-12.876
𠷑	-12.8761
藕	-12.8765
誣	-12.8765
薑	-12.8767
荅	-12.8771
琉	-12.8771
倆	-12.8773
暈	-12.8775
嚲	-12.8781
苫	-12.881
戎	-12.8812
闥	-12.8814
央	-13.3589
嘲	-13.3611
柂	-13.3636
桓	-13.364
搥	-13.3646
顓	-13.3649
熬	-13.3652
拷	-13.3655
劓	-13.3658
窠	-13.3661
呷	-13.3662
頞	-13.3662
竄	-13.3664
咱	-13.3668
餯	-13.3668
蕓	-13.3668
圜	-13.3671
捻	-13.3671
掀	-13.3671
暝	-13.3671
衾	-13.3671
胒	-13.3674
槁	-13.3674
淌	-13.3674
猷	-13.3674
齁	-13.3674
泗	-13.3677
刳	-13.3677
薨	-13.3677
躡	-13.3677
臠	-13.3677
踩	-13.3677
炳	-13.368
帚	-13.368
刖	-13.368
曄	-13.368
舂	-13.368
󷘃	-13.368
暄	-13.3684
淒	-13.3684
蚤	-13.3684
裘	-13.3684
廉	-13.3686
俞	-13.3687
酢	-13.3687
猖	-13.3687
􅶥	-13.3687
嫻	-13.369
懌	-13.369
斌	-13.369
肪	-13.369
醴	-13.369
􅶜	-13.369
膾	-13.369
鸞	-13.3692
鎸	-13.3693
甫	-13.3693
粵	-13.3693
矮	-13.3693
􅶚	-13.3693
佃	-13.3693
嫦	-13.3693
藤	-13.3693
蛗	-13.3693
蠶	-13.3693
軛	-13.3693
綺	-13.3694
綢	-13.3696
嬗	-13.3696
覲	-13.3696
嗄	-13.3696
捔	-13.3696
晡	-13.3696
檄	-13.3696
硨	-13.3696
羌	-13.3696
貊	-13.3696
霍	-13.3696
硈	-13.3696
婢	-13.3699
U	-13.3699
盓	-13.3699
躄	-13.3699
篋	-13.3699
膠	-13.3699
乂	-13.3699
捌	-13.3699
楹	-13.3699
纍	-13.3699
と	-13.3701
ア	-13.3701
隧	-13.3701
捍	-13.3702
驤	-13.3702
彖	-13.3702
耑	-13.3702
蠕	-13.3702
秒	-13.3705
擋	-13.3705
瘖	-13.3705
觝	-13.3706
尠	-13.3706
繹	-13.3706
鋼	-13.3706
婿	-13.3706
皴	-13.3706
覬	-13.3706
裟	-13.3709
奎	-13.3709
堤	-13.3709
憨	-13.3709
粲	-13.3709
貿	-13.3709
"	-13.3709
屯	-13.3709
獍	-13.3709
陡	-13.3709
餒	-13.3709
叼	-13.371
阱	-13.3712
輛	-13.3712
仄	-13.3712
弦	-13.3712
湩	-13.3712
茨	-13.3712
挍	-13.3712
墟	-13.3712
彜	-13.3712
笥	-13.3712
蛟	-13.3712
蹴	-13.3712
顎	-13.3712
嚐	-13.3712
潺	-13.3712
煒	-13.3712
􅶭	-13.3712
挹	-13.3713
瞑	-13.3715
勛	-13.3715
鵲	-13.3715
拇	-13.3715
皊	-13.3715
愴	-13.3715
抒	-13.3715
独	-13.3715
迪	-13.3717
幔	-13.3718
竣	-13.3718
逭	-13.3718
鋻	-13.3718
伙	-13.3718
剌	-13.3718
学	-13.3718
檻	-13.3718
碰	-13.3718
簋	-13.3718
簠	-13.3718
諠	-13.3718
迓	-13.3718
妲	-13.3718
媚	-13.3718
桶	-13.3718
漉	-13.3718
熒	-13.3718
騃	-13.3718
疇	-13.3721
碓	-13.3721
漱	-13.3721
尹	-13.3721
隘	-13.3721
帳	-13.3721
蔣	-13.3721
疴	-13.3721
蒞	-13.3721
鯉	-13.3721
亟	-13.3721
唉	-13.3721
柯	-13.3721
稔	-13.3721
菟	-13.3721
覯	-13.3721
邱	-13.3721
酡	-13.3721
霽	-13.3721
怎	-13.3723
攔	-13.3724
矢	-13.3724
趁	-13.3724
宦	-13.3724
悷	-13.3724
岐	-13.3724
港	-13.3724
猥	-13.3724
縹	-13.3724
踈	-13.3724
彝	-13.3724
杻	-13.3724
瀅	-13.3724
篩	-13.3724
舡	-13.3724
詬	-13.3724
○	-13.3725
懿	-13.3726
鐮	-13.3726
騖	-13.3726
橐	-13.3728
睜	-13.3728
叮	-13.3728
譚	-13.3728
勻	-13.3728
架	-13.3728
棗	-13.3728
禘	-13.3728
綽	-13.3728
軋	-13.3728
鑛	-13.3728
頷	-13.3729
忱	-13.373
z	-13.373
壑	-13.3731
萃	-13.3731
丳	-13.3731
俟	-13.3731
墊	-13.3731
店	-13.3731
弔	-13.3731
杆	-13.3731
獃	-13.3731
矧	-13.3731
闌	-13.3731
郝	-13.3731
𤙖	-13.3734
妁	-13.3734
樵	-13.3734
剏	-13.3734
挈	-13.3734
鈞	-13.3734
魑	-13.3734
倖	-13.3736
􅶞	-13.3737
羔	-13.3737
轅	-13.3737
囿	-13.3737
嗯	-13.3737
娟	-13.3737
弋	-13.3737
悃	-13.3737
湊	-13.3737
賂	-13.3737
暉	-13.3739
𦍙	-13.374
与	-13.374
訐	-13.374
貲	-13.374
逗	-13.374
鹵	-13.374
攆	-13.374
砧	-13.374
砮	-13.374
禎	-13.374
繈	-13.374
鋩	-13.374
哥	-13.3742
牌	-13.3743
媳	-13.3743
冢	-13.3743
塘	-13.3743
沭	-13.3743
涃	-13.3743
狠	-13.3743
蕉	-13.3743
闚	-13.3743
駒	-13.3743
􅶟	-13.3743
紜	-13.3746
鵰	-13.3746
琢	-13.3746
擰	-13.3747
擅	-13.3747
滲	-13.3749
哞	-13.375
愷	-13.375
朴	-13.375
緡	-13.375
鯨	-13.375
洫	-13.375
磕	-13.375
蛉	-13.375
螟	-13.375
緬	-13.375
羶	-13.375
饗	-13.375
駟	-13.375
仡	-13.375
懦	-13.375
紡	-13.375
廷	-13.375
穎	-13.3751
槐	-13.3753
旺	-13.3753
栂	-13.3753
臡	-13.3753
剥	-13.3753
㮈	-13.3753
躋	-13.3753
坵	-13.3756
堡	-13.3756
数	-13.3756
愔	-13.3756
砥	-13.3756
賄	-13.3756
鞋	-13.3756
蘖	-13.3756
駐	-13.3756
彚	-13.3756
籬	-13.3756
翂	-13.3756
衫	-13.3756
裙	-13.3756
􅶕	-13.3756
菓	-13.3759
旛	-13.3759
貽	-13.3761
竚	-13.3762
絞	-13.3762
辣	-13.3762
倪	-13.3762
妍	-13.3765
煖	-13.3765
咆	-13.3765
寮	-13.3765
牘	-13.3765
泌	-13.3768
澌	-13.3769
咅	-13.3772
票	-13.3772
譜	-13.3774
􂂊	-13.3774
韶	-13.3775
脯	-13.3775
馮	-13.3778
仃	-13.3778
歘	-13.3778
饞	-13.3779
簷	-13.3781
蹌	-13.3781
𦿔	-13.3781
􂏩	-13.3781
扁	-13.3784
𠾏	-13.3784
潞	-13.3787
浙	-13.3787
渧	-13.3787
袍	-13.3787
侐	-13.3794
匆	-13.3794
撈	-13.3794
􅶸	-13.3794
禦	-13.3797
抳	-13.38
趾	-13.38
俁	-13.3838
𡒌	-14.3391
繆	-14.3457
􅶽	-14.354
􂣃	-14.3541
𥞩	-14.3542
𣧾	-14.3543
齶	-14.3544
鼙	-14.3545
黔	-14.3546
麴	-14.3547
麒	-14.3548
鷗	-14.3549
鷖	-14.355
鴟	-14.3551
驍	-14.3552
駿	-14.3553
駁	-14.3554
飡	-14.3555
顰	-14.3556
顙	-14.3557
鞏	-14.3558
鞍	-14.3559
雹	-14.356
闖	-14.3561
閼	-14.3562
鐐	-14.3563
鍪	-14.3564
錍	-14.3565
鉞	-14.3566
鉛	-14.3567
酤	-14.3568
酣	-14.3569
邙	-14.357
辺	-14.3571
轡	-14.3572
躑	-14.3573
蹙	-14.3574
豢	-14.3575
譭	-14.3576
謄	-14.3577
覷	-14.3578
襁	-14.3579
褻	-14.358
藹	-14.3581
薛	-14.3582
薙	-14.3583
蓉	-14.3584
葩	-14.3585
苕	-14.3586
舶	-14.3587
膨	-14.3588
脹	-14.3589
缸	-14.359
纓	-14.3591
緋	-14.3592
綫	-14.3593
綩	-14.3594
綖	-14.3595
窕	-14.3596
禛	-14.3597
祑	-14.3598
碗	-14.3599
瞙	-14.36
睚	-14.3601
癭	-14.3602
癥	-14.3603
瘢	-14.3604
痢	-14.3605
璉	-14.3606
琮	-14.3607
犧	-14.3608
濠	-14.3609
澥	-14.361
潢	-14.3611
滂	-14.3612
渤	-14.3613
淆	-14.3614
淅	-14.3615
洶	-14.3616
洱	-14.3617
洟	-14.3618
沱	-14.3619
欻	-14.362
楫	-14.3621
棟	-14.3622
梗	-14.3623
暱	-14.3624
揩	-14.3625
拆	-14.3626
慞	-14.3627
愜	-14.3628
惕	-14.3629
惋	-14.363
悸	-14.3631
恍	-14.3632
徨	-14.3633
徘	-14.3634
鸚	-14.3635
徊	-14.3635
彿	-14.3636
彷	-14.3637
彪	-14.3638
弈	-14.3639
嶇	-14.364
崗	-14.3641
嫩	-14.3642
喀	-14.3643
姉	-14.3643
声	-14.3644
堙	-14.3645
埽	-14.3646
坷	-14.3647
嚾	-14.3648
嘹	-14.3649
嗤	-14.365
喏	-14.3651
咯	-14.3651
双	-14.3652
卞	-14.3653
匐	-14.3654
刂	-14.3655
匍	-14.3655
刎	-14.3656
冕	-14.3657
儴	-14.3658
撻	-14.3658
㶿	-14.3659
傚	-14.3659
却	-14.3659
僵	-14.3659
估	-14.366
会	-14.3661
黽	-14.3662
鶹	-14.3663
鵂	-14.3664
顗	-14.3665
靂	-14.3666
騁	-14.3666
効	-14.3667
卸	-14.3667
霹	-14.3667
雛	-14.3668
闐	-14.3669
釭	-14.367
轟	-14.3671
躃	-14.3672
賬	-14.3673
襪	-14.3674
捫	-14.3674
孜	-14.3675
䳓	-14.3675
乱	-14.3675
僑	-14.3675
咂	-14.3675
梢	-14.3675
邕	-14.3675
鴦	-14.3675
蝮	-14.3675
蜒	-14.3676
蚰	-14.3677
葫	-14.3678
腱	-14.3679
聃	-14.368
紊	-14.3681
篌	-14.3682
虻	-14.3683
㬋	-14.3683
䘀	-14.3683
䫂	-14.3683
侘	-14.3683
划	-14.3683
箜	-14.3683
盔	-14.3684
瘳	-14.3685
畆	-14.3686
琥	-14.3687
煻	-14.3688
煨	-14.3689
瀟	-14.369
巍	-14.3691
鵡	-14.3691
仵	-14.3691
儜	-14.3691
凸	-14.3691
剁	-14.3691
厝	-14.3691
湎	-14.3691
洴	-14.3692
汜	-14.3693
殑	-14.3694
ジ	-14.3695
㮦	-14.3695
楔	-14.3695
曦	-14.3696
撐	-14.3697
摒	-14.3698
滔	-14.3699
い	-14.3699
づ	-14.3699
て	-14.3699
に	-14.3699
グ	-14.3699
ソ	-14.3699
ド	-14.3699
剉	-14.3699
呿	-14.3699
嘎	-14.3699
揄	-14.3699
慷	-14.37
嶼	-14.3701
媾	-14.3702
婇	-14.3703
垠	-14.3704
嘯	-14.3705
嗽	-14.3706
Φ	-14.3707
の	-14.3707
冗	-14.3707
剞	-14.3707
劂	-14.3707
芾	-14.3707
鮑	-14.3707
咐	-14.3707
吩	-14.3708
匡	-14.3709
匙	-14.371
丐	-14.3711
輾	-14.3711
x	-14.3712
鶖	-14.3713
昊	-14.3713
魎	-14.3714
乇	-14.3715
僥	-14.3715
卦	-14.3715
咋	-14.3715
咫	-14.3715
嗇	-14.3715
雑	-14.3715
魍	-14.3715
酆	-14.3716
*	-14.3716
觴	-14.3717
蠍	-14.3718
賁	-14.3718
翛	-14.3719
羂	-14.372
劬	-14.372
緯	-14.3721
穗	-14.3722
璣	-14.3723
杌	-14.3723
勖	-14.3723
匕	-14.3723
哮	-14.3723
啕	-14.3723
喬	-14.3723
峨	-14.3723
煢	-14.3724
炅	-14.3725
{	-14.3725
}	-14.3725
啻	-14.3725
瀏	-14.3726
濱	-14.3727
漾	-14.3728
溯	-14.3729
~	-14.3729
泳	-14.373
歪	-14.373
詈	-14.373
幀	-14.373
瑚	-14.3731
杙	-14.3731
訃	-14.3731
䗈	-14.3731
偌	-14.3731
僉	-14.3731
勑	-14.3731
咭	-14.3731
哦	-14.3731
哳	-14.3731
嗢	-14.3731
旌	-14.3731
珞	-14.3731
罡	-14.3731
札	-14.3732
侖	-14.3732
斟	-14.3733
揉	-14.3734
徬	-14.3735
庖	-14.3736
幟	-14.3737
嵯	-14.3738
蝶	-14.3739
屑	-14.3739
嚀	-14.3739
瓔	-14.3739
倐	-14.3739
嗓	-14.3739
浦	-14.3739
賅	-14.3739
孥	-14.374
埸	-14.3741
嚂	-14.3742
噴	-14.3743
噁	-14.3744
咷	-14.3745
凰	-14.3746
抹	-14.3746
僱	-14.3747
〇	-14.3747
亶	-14.3747
侔	-14.3747
兌	-14.3747
勣	-14.3747
磑	-14.3747
佼	-14.3748
乩	-14.3749
麝	-14.375
髑	-14.3751
醞	-14.3752
賾	-14.3753
螢	-14.3754
沌	-14.3755
蘩	-14.3755
㤶	-14.3755
俠	-14.3755
倭	-14.3755
呰	-14.3755
咏	-14.3755
氛	-14.3755
藺	-14.3756
萏	-14.3757
菡	-14.3758
繽	-14.3759
眥	-14.376
衲	-14.376
瓏	-14.3761
琰	-14.3762
濩	-14.3763
猙	-14.3763
佺	-14.3763
俛	-14.3763
儁	-14.3763
鏃	-14.3763
斜	-14.3764
憊	-14.3765
姻	-14.3766
妓	-14.3767
䏶	-14.3768
鳧	-14.3769
靉	-14.377
靆	-14.3771
偵	-14.3771
唬	-14.3771
扳	-14.3771
鎔	-14.3771
陝	-14.3772
鍵	-14.3773
袞	-14.3774
荔	-14.3775
肖	-14.3776
羼	-14.3777
柘	-14.3778
晰	-14.3779
两	-14.3779
吁	-14.3779
唻	-14.3779
喙	-14.3779
擗	-14.378
扮	-14.3781
岌	-14.3782
婪	-14.3783
嚨	-14.3784
嚥	-14.3785
僮	-14.3786
麈	-14.3787
嘻	-14.3787
沛	-14.3787
隍	-14.3788
閩	-14.3789
蟆	-14.379
蝠	-14.3791
蝙	-14.3792
葦	-14.3793
荃	-14.3794
翟	-14.3795
倩	-14.3795
剿	-14.3795
讖	-14.3795
齦	-14.3795
磐	-14.3796
烊	-14.3797
澂	-14.3798
滄	-14.3799
榻	-14.38
擻	-14.3801
弧	-14.3802
婻	-14.3803
奕	-14.3804
饉	-14.3805
顱	-14.3806
菪	-14.3807
莨	-14.3808
芯	-14.3809
聆	-14.381
瑋	-14.3811
㽱	-14.3811
獼	-14.3812
獰	-14.3813
牝	-14.3814
撕	-14.3815
鳶	-14.3816
踝	-14.3817
芭	-14.3818
濯	-14.3819
勱	-14.3819
淤	-14.382
棠	-14.3821
嶸	-14.3822
崢	-14.3823
寰	-14.3824
緻	-14.3825
癒	-14.3826
湮	-14.3827
参	-14.3827
氳	-14.3828
槨	-14.3829
棵	-14.383
拓	-14.3831
恙	-14.3832
嘩	-14.3833
х	-14.3834
Д	-14.3835
骷	-14.3836
稼	-14.3837
氤	-14.3838
憔	-14.3839
吵	-14.384
珈	-14.3841
蘋	-14.3842
杭	-14.3843
閦	-14.3844
爺	-14.3845
醐	-14.3846
醍	-14.3847
苾	-14.3848
碼	-14.3849
瑙	-14.385
罣	-14.3851
筒	-14.3852
癩	-14.3853
疼	-14.3854
逍	-14.3855
憒	-14.3856
佔	-14.3857
盾	-14.3858
冑	-14.3859
袈	-14.386
抖	-14.3861
宙	-14.3862
睺	-14.3863
贍	-14.3864
瞭	-14.3865
哺	-14.3866
渢	-14.3867
抉	-14.3868
慇	-14.3869
凱	-14.387
仔	-14.3871
臾	-14.3872
磧	-14.3873
錩	-14.3874
夠	-14.3875
跏	-14.3876
繢	-14.3877
礎	-14.3878
ñ	-14.3879
洹	-14.388
ṇ	-14.3881
ṣ	-14.3882
§	-14.3883
|	-14.3884
勍	-14.3884
