<unk>	0
<s>	0
</s>	0
。	-1.79817
者	-4.42805
故	-4.44987
,	-4.57708
謂	-4.91743
有	-4.96862
非	-5.10854
是	-5.12736
若	-5.25261
名	-5.25698
、	-5.26481
此	-5.35262
彼	-5.36661
為	-5.40964
生	-5.411
於	-5.43128
法	-5.44879
如	-5.46407
無	-5.47145
以	-5.53477
等	-5.5575
.	-5.56231
不	-5.56479
及	-5.57877
中	-5.60932
得	-5.6218
說	-5.64479
心	-5.69842
一	-5.74963
二	-5.76134
時	-5.76543
云何	-5.7929
或	-5.80852
緣	-5.90584
也	-5.90672
至	-5.90739
耶	-5.9563
三	-5.97217
言	-5.97691
因	-5.98039
?	-5.98322
答	-6.0337
起	-6.04994
諸	-6.07092
亦	-6.08825
行	-6.09299
由	-6.12461
受	-6.13027
與	-6.13561
即	-6.14196
定	-6.1579
義	-6.16499
論	-6.16984
見	-6.18912
如是	-6.18937
答曰	-6.20671
身	-6.22373
餘	-6.23076
色	-6.23996
依	-6.24146
唯	-6.24903
問	-6.25185
四	-6.26557
斷	-6.29552
攝	-6.35377
業	-6.37923
▁	-6.37923
已	-6.39604
相	-6.4011
而	-6.41625
後	-6.42359
果	-6.42414
滅	-6.4442
一切	-6.45091
能	-6.45777
:	-6.478
善	-6.49948
住	-6.50526
是名	-6.51104
人	-6.52965
道	-6.52997
修	-6.53551
相應	-6.54955
處	-6.56571
五	-6.5985
識	-6.60027
智	-6.60193
欲	-6.62211
除	-6.62541
從	-6.62671
應	-6.64478
所	-6.64883
捨	-6.65284
觀	-6.65891
作	-6.66207
我	-6.68685
乃至	-6.6921
性	-6.69509
皆	-6.69919
雖	-6.71268
復次	-6.71731
成	-6.72388
又	-6.72564
明	-6.73242
前	-6.75107
多	-6.75175
上	-6.75395
欲界	-6.76649
想	-6.77029
苦	-6.78096
知	-6.78662
意	-6.79401
之	-6.79436
離	-6.81194
樂	-6.81256
觸	-6.81907
事	-6.8265
自	-6.82934
入	-6.83792
通	-6.85553
體	-6.86504
成就	-6.87166
根	-6.88428
隨	-6.88684
俱	-6.92172
勝	-6.92988
釋	-6.93539
」	-6.9377
愛	-6.94604
六	-6.94852
無漏	-6.95736
煩惱	-6.96031
立	-6.96574
佛	-6.96621
同	-6.97743
界	-6.98844
初	-7.00025
然	-7.00582
七	-7.00722
下	-7.00887
取	-7.02492
先	-7.03849
大	-7.03905
令	-7.04003
此中	-7.04046
異	-7.04114
別	-7.04224
名為	-7.04479
盡	-7.05569
故名	-7.06486
解脫	-7.06656
顯	-7.0672
地	-7.06843
未來	-7.07287
。「	-7.07495
在	-7.08644
現在	-7.08672
色界	-7.08884
八	-7.11042
位	-7.12307
(	-7.12502
是故	-7.13484
分	-7.13627
有說	-7.14016
境	-7.14642
幾	-7.14844
力	-7.1514
則	-7.15343
問曰	-7.15503
由此	-7.16729
亦爾	-7.16785
轉	-7.18938
戒	-7.19315
慧	-7.20397
未	-7.20486
差別	-7.23398
具	-7.23821
聲	-7.24779
過去	-7.2509
結	-7.26522
分別	-7.26997
但	-7.27573
復	-7.28035
無明	-7.29135
有漏	-7.29588
便	-7.29803
現	-7.30191
思	-7.31206
淨	-7.3162
其	-7.32756
覺	-7.32859
證	-7.33078
今	-7.33092
何	-7.33958
有情	-7.34331
十	-7.34411
不善	-7.35425
可	-7.35777
出	-7.36031
天	-7.36539
貪	-7.37409
異熟	-7.38389
無色	-7.38807
食	-7.39581
相續	-7.4252
難	-7.43027
隨眠	-7.43146
加行	-7.44092
念	-7.44571
他	-7.44646
經	-7.45429
所以者何	-7.45463
眼	-7.45646
學	-7.46091
用	-7.4647
眾生	-7.46638
外	-7.4716
中有	-7.47276
)	-7.4873
正	-7.48909
理	-7.51263
是謂	-7.51305
當	-7.5137
語	-7.52619
類	-7.53028
內	-7.53214
云	-7.53984
解	-7.54076
不能	-7.55435
趣	-7.55544
即是	-7.55596
世	-7.55701
無記	-7.56105
無有	-7.56466
惑	-7.56909
總	-7.57145
執	-7.57568
涅槃	-7.57659
過	-7.57902
次第	-7.58257
各	-7.5842
必	-7.58924
空	-7.5921
無色界	-7.59284
少	-7.59945
種	-7.5996
信	-7.6006
無學	-7.60548
增上	-7.60651
極	-7.60925
九	-7.60928
世尊	-7.62232
行相	-7.62952
退	-7.63389
自性	-7.63868
引	-7.63957
對	-7.64256
疑	-7.64445
染	-7.64504
無間	-7.64615
本	-7.65868
聖	-7.65878
順	-7.65985
諸法	-7.66597
邪見	-7.66611
使	-7.66668
釋曰	-7.66877
所依	-7.67194
忍	-7.67858
頌曰	-7.68372
既	-7.68438
現在前	-7.68551
蘊	-7.68909
方	-7.69113
共	-7.69317
亦有	-7.69637
聖道	-7.70092
所緣	-7.70872
喜	-7.71174
所攝	-7.71589
門	-7.71789
惡	-7.7298
復有說者	-7.73077
;	-7.73111
遍	-7.73162
如何	-7.74334
常	-7.74748
集	-7.74992
破	-7.75141
無量	-7.75257
決定	-7.75266
數	-7.75562
品	-7.76792
為因	-7.77052
次	-7.77598
報	-7.77664
增	-7.78074
重	-7.78252
壞	-7.78662
約	-7.78835
見道	-7.79656
大種	-7.80787
思惟	-7.80884
或有	-7.81006
造	-7.81048
施	-7.81196
世間	-7.8196
善根	-7.82368
何故	-7.82949
當言	-7.82999
求	-7.83004
文	-7.83094
王	-7.83237
剎那	-7.83541
不得	-7.84225
阿羅漢	-7.84566
三界	-7.84595
實	-7.85473
味	-7.86381
法智	-7.86723
無表	-7.86979
不應	-7.87384
第二	-7.88172
汝	-7.88556
乃至廣說	-7.88566
於彼	-7.88596
因緣	-7.88735
於此	-7.88859
持	-7.88942
現前	-7.89878
意識	-7.89963
無為	-7.8999
第三	-7.90073
不生	-7.9075
亦如是	-7.90995
境界	-7.91151
應知	-7.91376
異生	-7.91497
繫	-7.92058
對治	-7.92188
眾	-7.92416
方便	-7.9256
不成就	-7.92765
量	-7.92897
聞	-7.94464
聚	-7.94703
偈曰	-7.94887
眼識	-7.95997
水	-7.96562
少分	-7.96717
故說	-7.96802
所說	-7.9707
發	-7.97228
支	-7.97245
律儀	-7.97286
不同	-7.97653
三種	-7.98137
物	-7.98162
設	-7.99253
命	-7.99488
若爾	-8.00096
菩薩	-8.00647
遠	-8.00777
論曰	-8.01057
二種	-8.01359
如說	-8.01538
或作是說	-8.02058
合	-8.02823
火	-8.0317
失	-8.03697
許	-8.0374
諦	-8.03809
所有	-8.04703
不可	-8.04913
者謂	-8.0522
更	-8.05728
他心智	-8.0613
風	-8.06168
不相應	-8.06989
不說	-8.07062
慢	-8.07358
色無色界	-8.0737
縛	-8.07877
靜慮	-8.07941
廣	-8.08364
欲界繫	-8.08444
於中	-8.08728
還	-8.09389
邊	-8.10215
近	-8.10587
死	-8.11227
能生	-8.1172
無常	-8.12018
第四	-8.12203
解云	-8.12279
俱生	-8.12401
來	-8.12689
教	-8.13048
何謂	-8.14244
不定	-8.14582
爾時	-8.14642
根本	-8.15291
如來	-8.15461
究竟	-8.15795
亦非	-8.15812
表	-8.17083
師	-8.17322
若有	-8.1745
補特伽羅	-8.17622
清淨	-8.17641
四大	-8.17678
種種	-8.18015
頌	-8.1807
》	-8.18438
香	-8.18908
障	-8.19074
害	-8.19608
建立	-8.20263
何以故	-8.20385
第一	-8.20633
亦名	-8.20737
妙	-8.20966
當知	-8.2118
遮	-8.22048
生死	-8.22226
纏	-8.22289
如此	-8.22495
不爾	-8.22535
據	-8.22639
厭	-8.22687
諸根	-8.22955
有為	-8.23096
和合	-8.23096
五蘊	-8.23166
眼根	-8.23521
故知	-8.24411
道智	-8.24429
盡智	-8.24671
同分	-8.24739
自在	-8.2492
世俗	-8.25128
略	-8.25346
心所	-8.25756
何緣	-8.26181
恒	-8.26307
此是	-8.26508
尋	-8.26561
相應法	-8.26994
辨	-8.27067
句	-8.27157
感	-8.27323
壽	-8.27679
一一	-8.27941
瞋	-8.2831
習	-8.28371
麁	-8.28483
且	-8.28959
形	-8.2927
所生	-8.29568
子	-8.2998
陰	-8.30182
舉	-8.30234
善法	-8.30542
殺	-8.30596
上地	-8.3065
初靜慮	-8.30893
故名為	-8.30985
亦不	-8.31021
地獄	-8.31537
此二	-8.31846
計	-8.31901
向	-8.31904
染污	-8.32292
功德	-8.32654
經說	-8.3284
滿	-8.32987
要	-8.33873
說名	-8.34013
下地	-8.34249
并	-8.34364
比丘	-8.3449
亦是	-8.3509
色界繫	-8.35119
世第一法	-8.35204
喻	-8.35466
自地	-8.35531
流	-8.3558
曰	-8.3596
違	-8.36099
猶如	-8.36459
聖者	-8.36481
唯有	-8.36741
修所斷	-8.37296
善心	-8.37341
墮	-8.37782
有餘師說	-8.37956
有二種	-8.3798
福	-8.3802
所以	-8.38103
小	-8.39105
足	-8.39195
隨順	-8.39385
三世	-8.39408
禪	-8.3983
劣	-8.39898
而不	-8.4009
)。	-8.4037
往	-8.40404
正理	-8.40494
癡	-8.406
化	-8.40983
息	-8.41008
不成	-8.41094
修道	-8.41221
四種	-8.41228
相違	-8.41422
身見	-8.41615
有二	-8.41707
命終	-8.41868
初禪	-8.421
此即	-8.42355
中間	-8.42504
利	-8.42546
自體	-8.43244
皆是	-8.43247
所起	-8.43343
擇滅	-8.43371
應說	-8.43432
十二	-8.43639
業道	-8.43699
離欲	-8.43771
已生	-8.44118
未斷	-8.44192
巳	-8.44447
問何故	-8.44794
細	-8.45078
望	-8.45264
罪	-8.45458
長	-8.45573
豈不	-8.46195
意根	-8.46268
就	-8.46353
雖有	-8.47222
劫	-8.47402
婆沙	-8.47583
將	-8.47747
亦應	-8.4822
記	-8.48418
所作	-8.4856
德	-8.49083
彼法	-8.49325
苾芻	-8.49329
所得	-8.49413
生時	-8.49583
遍知	-8.49747
等者	-8.50246
心心所法	-8.50453
為體	-8.5048
故言	-8.50687
名色	-8.50982
非想非非想處	-8.5102
全	-8.5128
此法	-8.51341
前後	-8.51444
諸行	-8.51679
若法	-8.51701
命根	-8.51784
僧	-8.51922
所餘	-8.52074
護	-8.52074
字	-8.52095
動	-8.52304
第四靜慮	-8.52313
解脫道	-8.52866
正見	-8.52941
女	-8.52993
不起	-8.5337
契經	-8.5369
減	-8.54154
外道	-8.54194
部	-8.54223
相似	-8.54227
衣	-8.5428
恚	-8.54434
增長	-8.54595
施設	-8.54677
非得	-8.54715
著	-8.54927
見所斷	-8.54963
諸有	-8.5526
如前	-8.55767
白	-8.55805
不知	-8.56168
諸餘	-8.56672
等流	-8.56761
論云	-8.56914
止	-8.5692
種子	-8.56922
論主	-8.57842
有四	-8.58435
未得	-8.58615
身中	-8.5886
山	-8.59135
日	-8.59144
作用	-8.59235
說名為	-8.59362
了	-8.59562
光	-8.59679
經部	-8.60159
已說	-8.60562
緣起	-8.60584
蓋	-8.606
稱	-8.60668
樂受	-8.60847
親	-8.60977
有三	-8.61005
治	-8.61133
《	-8.61369
無所有處	-8.614
極微	-8.61451
邪	-8.61772
離染	-8.61808
微	-8.61813
家	-8.62335
同類	-8.62347
聖人	-8.62547
假	-8.62567
非餘	-8.62615
不見	-8.62657
論曰至	-8.62659
永斷	-8.62674
現觀	-8.62791
速	-8.62869
辯	-8.6297
復有	-8.63187
作如是說	-8.63562
熟	-8.63568
度	-8.63601
心不相應行	-8.63647
十一	-8.63668
誰	-8.63805
似	-8.63887
不斷	-8.63921
世俗智	-8.64537
去	-8.64765
漸	-8.65023
屬	-8.65142
已得	-8.65648
愚	-8.65669
苦智	-8.66023
最後	-8.6632
若依	-8.66339
頗有	-8.66372
或曰	-8.66398
不共	-8.66423
謂彼	-8.66427
又解	-8.66785
羅	-8.66946
無覆無記	-8.67001
自相	-8.67096
虛空	-8.67099
樂根	-8.67275
聲聞	-8.67318
因果	-8.67562
不淨	-8.67597
能緣	-8.67759
漏	-8.67799
阿毘達磨	-8.68197
沒	-8.68292
此論	-8.68388
隨轉	-8.68404
容	-8.68514
展轉	-8.68627
如契經說	-8.68954
色等	-8.68961
生故	-8.69139
異熟果	-8.69242
圓滿	-8.69316
未生	-8.69466
無想	-8.69589
苦諦	-8.69607
亦無	-8.69998
等無間緣	-8.70718
無色界繫	-8.7074
見苦所斷	-8.70787
可得	-8.70867
四蘊	-8.71026
顛倒	-8.71171
過去未來	-8.71475
最	-8.71563
作意	-8.71703
憂	-8.72126
類智	-8.72251
念住	-8.72416
無別	-8.72578
第五	-8.72894
何等	-8.73067
無間道	-8.73282
乃	-8.73479
猶	-8.73519
獨	-8.73634
雜	-8.74021
無相	-8.74146
耳	-8.7443
正理論云	-8.74479
五根	-8.74662
遍行	-8.7477
如前說	-8.74786
述	-8.74922
已斷	-8.75099
彼說	-8.75246
等智	-8.75528
第六	-8.75712
能為	-8.75785
說為	-8.75838
所引	-8.7591
若無	-8.76048
功能	-8.76241
有頂	-8.7628
各別	-8.76306
簡	-8.7636
散	-8.76398
五種	-8.76522
尊者	-8.76627
修斷	-8.77175
現行	-8.77177
此定	-8.77212
有異	-8.77224
現在前時	-8.77333
曾	-8.77444
實有	-8.77514
若謂	-8.77691
宗	-8.77697
頂	-8.77717
爾	-8.77835
母	-8.77863
謂於	-8.77975
覆	-8.78073
喜根	-8.7816
沙門	-8.78243
尋伺	-8.78342
此說	-8.78368
諸煩惱	-8.78368
居	-8.78393
像	-8.78423
譬如	-8.78503
復次若	-8.7881
可知	-8.7889
心心所	-8.78922
若於	-8.79028
兼	-8.79062
兩	-8.7912
不與	-8.7914
十六	-8.79558
礙	-8.79566
寂靜	-8.79753
不名	-8.79756
觀察	-8.8006
一分	-8.80202
眼等	-8.80811
樹	-8.80977
半	-8.80983
若言	-8.81016
廣說	-8.81275
願	-8.81571
起故	-8.81828
具足	-8.81882
好	-8.82004
瞋恚	-8.82099
勝解	-8.82262
竟	-8.8258
輕	-8.8276
五識	-8.83074
三昧	-8.83075
易	-8.83193
病	-8.83317
慈	-8.83629
種類	-8.83771
能令	-8.8387
痛	-8.83895
等至	-8.84147
頗	-8.8419
識住	-8.84449
謂除	-8.84617
開	-8.85027
第二靜慮	-8.85298
有色	-8.85829
果故	-8.85852
一剎那	-8.85864
憂根	-8.86158
空無邊處	-8.8657
能起	-8.86838
最勝	-8.86966
勢力	-8.86973
十八	-8.87074
怖	-8.87182
財	-8.87323
凡夫	-8.8741
有身見	-8.87511
若以	-8.87751
前說	-8.87843
隨增	-8.88043
非有	-8.88156
有作是說	-8.88366
有餘	-8.88744
主	-8.8886
真	-8.88877
唯是	-8.89135
見斷	-8.89138
斯	-8.89189
三摩地	-8.89238
熱	-8.8938
現見	-8.89412
進	-8.89524
阿羅漢果	-8.89656
二者	-8.89685
俱起	-8.89786
修習	-8.89815
為緣	-8.89894
及餘	-8.90121
若人	-8.90136
須	-8.90171
長養	-8.90285
皆有	-8.90289
倒	-8.90473
此義	-8.90677
精進	-8.90748
眾同分	-8.90953
國	-8.90991
亦然	-8.91113
藏	-8.9143
謂此	-8.916
若成就	-8.91691
器	-8.91718
由彼	-8.91841
遠離	-8.91896
不然	-8.92083
無願	-8.92273
見取	-8.92352
豈	-8.9254
出家	-8.92591
非擇滅	-8.92605
等持	-8.92726
被	-8.92814
同類因	-8.92855
行者	-8.931
此三	-8.93352
有學	-8.93354
敬	-8.93383
無漏法	-8.93471
生者	-8.93638
一切法	-8.9377
為境	-8.93777
第三靜慮	-8.93792
一向	-8.93864
道諦	-8.9398
深	-8.9431
寶	-8.94546
若不	-8.95185
得果	-8.95499
所斷	-8.95821
非學非無學	-8.95925
百	-8.95932
迦	-8.96293
若說	-8.96385
惡趣	-8.96413
塵	-8.96474
並	-8.96593
亦得	-8.96858
月	-8.96883
彼成就	-8.96887
己	-8.97108
有為法	-8.97181
九品	-8.97256
非是	-8.97365
一時	-8.97634
離繫	-8.97806
勝義	-8.97819
伺	-8.97951
此云	-8.98139
煖	-8.98378
近分	-8.98386
伏	-8.98483
而非	-8.98821
婆羅門	-8.98943
而生	-8.98966
不動	-8.99158
已滅	-8.99207
身根	-8.99265
從此	-8.99363
例	-8.9937
憶	-8.99529
准	-8.99611
乘	-8.99632
一者	-8.99797
闇	-8.99841
苦集	-8.99915
損	-8.99996
加	-9.0048
。】「	-9.00531
初定	-9.00551
上界	-9.00579
鼻	-9.00592
等無間	-9.00602
俱有	-9.00686
無邊	-9.01088
意業	-9.01233
五陰	-9.01276
異熟因	-9.01768
。」【	-9.01888
越	-9.02069
覺支	-9.02505
義故	-9.02509
悲	-9.02608
戒禁取	-9.0274
即此	-9.02753
謗	-9.02762
法故	-9.02998
棄	-9.03237
顯示	-9.03522
空處	-9.03805
垢	-9.04076
四諦	-9.04204
能引	-9.04205
安住	-9.04255
威儀	-9.0426
苦受	-9.04549
四靜慮	-9.04666
男	-9.04711
夜	-9.04726
但說	-9.04801
變	-9.04857
自身	-9.04916
強	-9.05008
貪等	-9.05035
十八界	-9.05155
目	-9.05215
或有說者	-9.05297
前生	-9.05428
應言	-9.05508
受生	-9.05628
染心	-9.05796
惡作	-9.06006
不修	-9.06133
位中	-9.06229
五部	-9.06324
正法	-9.06466
田	-9.06587
所造色	-9.06686
間	-9.06726
如是等	-9.06744
無想定	-9.06765
應作是說	-9.06769
謂諸	-9.06996
應知亦爾	-9.07031
問若爾	-9.0714
性故	-9.07167
等起	-9.07414
唯說	-9.07423
不緣	-9.07508
摩	-9.07511
入正性離生	-9.07622
一種	-9.07731
受等	-9.07904
況	-9.08046
故立	-9.08225
闕	-9.08251
沙門果	-9.08359
為性	-9.08373
評曰	-9.08444
問若	-9.08475
殺生	-9.08494
不作	-9.08501
無生智	-9.0852
安	-9.08667
有三種	-9.08824
能斷	-9.09026
婆	-9.09065
所造	-9.09103
弟子	-9.09105
心所法	-9.09145
勤	-9.0925
如人	-9.09285
答有	-9.09373
猛利	-9.09469
對法	-9.09494
欲令	-9.09518
輕安	-9.09629
思惟斷	-9.09633
意樂	-9.09715
二定	-9.09735
亦說	-9.10134
依止	-9.1019
異熟生	-9.10304
般涅槃	-9.10549
別有	-9.1084
我見	-9.11115
獨覺	-9.11185
青	-9.11257
十五	-9.11286
不律儀	-9.11303
過失	-9.11414
見道所斷	-9.11591
善業	-9.11626
那	-9.11672
眠	-9.11791
象	-9.11856
穢	-9.11913
永	-9.1194
飲食	-9.12189
終	-9.12199
助	-9.12271
二十	-9.12373
怨	-9.12555
法界	-9.12617
惡行	-9.12875
平等	-9.1316
影	-9.13365
因故	-9.13496
雖無	-9.13557
此經	-9.13636
口	-9.1365
堅	-9.13801
不立	-9.1385
一識識	-9.14013
為一	-9.14552
處所	-9.1458
佛世尊	-9.14581
勿	-9.14721
十二處	-9.14723
欣	-9.14799
輪	-9.1488
亦能	-9.1505
經中	-9.15223
受用	-9.15235
不許	-9.15322
牛	-9.15458
悔	-9.15505
超	-9.1553
諸天	-9.15633
不退	-9.15671
餘法	-9.15828
彼一切	-9.15857
立為	-9.15888
但由	-9.15897
見集所斷	-9.15956
眷屬	-9.16083
佛說	-9.16111
造色	-9.16129
千	-9.16173
此釋	-9.16386
即彼	-9.16403
最初	-9.16417
總說	-9.16426
手	-9.16585
見諦	-9.16719
於諸	-9.16778
而得	-9.16811
陀	-9.16908
置	-9.16966
無我	-9.16999
而有	-9.17006
有漏無漏	-9.1719
此言	-9.17256
能知	-9.17395
歸	-9.17583
不淨觀	-9.17589
有一	-9.17653
是故說	-9.17661
諸蘊	-9.17826
轉故	-9.1784
第八	-9.17863
得解脫	-9.18324
不繫	-9.18481
應無	-9.1849
四句	-9.18528
前三	-9.18635
段食	-9.18706
障礙	-9.18796
色處	-9.188
有法	-9.18869
所言	-9.19186
燒	-9.19242
有漏法	-9.19246
識無邊處	-9.19314
有別	-9.19353
能作	-9.19473
第七	-9.19474
招	-9.19677
:「	-9.19736
諸有情	-9.19817
生無色界	-9.20018
老死	-9.201
頭	-9.20158
養	-9.20198
欲色界	-9.20278
此四	-9.20308
凡夫人	-9.20432
皆名	-9.20651
智者	-9.20714
黑	-9.20764
未至	-9.20971
亂	-9.21055
不言	-9.2121
有何	-9.21431
惱	-9.21453
滅智	-9.21464
世尊說	-9.21468
問此	-9.21643
滅定	-9.21702
有部	-9.2188
老	-9.22027
無記心	-9.22093
十四	-9.22123
以彼	-9.22137
或復	-9.22147
後起	-9.22363
菩提	-9.2264
所行	-9.22641
苦根	-9.22684
所謂	-9.22686
路	-9.22752
是則	-9.22833
而起	-9.23059
隨其所應	-9.23091
無知	-9.23245
生得	-9.23248
續	-9.23365
意界	-9.23407
謂欲界	-9.23526
不善心	-9.23579
指	-9.23614
事故	-9.23642
。《	-9.238
俱時	-9.23814
捨根	-9.23817
以此	-9.23839
一法	-9.23853
諸色	-9.23955
迷	-9.24271
身語業	-9.24535
徵	-9.2463
有對	-9.24675
同一	-9.24728
善不善	-9.2478
待	-9.24875
金	-9.24928
答應作四句	-9.24947
知他人心智	-9.25044
味相應	-9.2505
生欲界	-9.25095
有緣	-9.25102
始	-9.25242
未知智	-9.2529
如實知	-9.25437
果報	-9.25593
比智	-9.25684
海	-9.25687
種性	-9.25799
不捨	-9.2583
語業	-9.25946
緣識	-9.261
總名	-9.26175
智慧	-9.26256
高	-9.26298
六識	-9.26311
無漏緣	-9.26352
各有	-9.26356
有五	-9.26386
故作是說	-9.2658
於欲界	-9.26592
故非	-9.26676
練根	-9.26745
寧	-9.26836
同時	-9.27023
標	-9.27164
眼界	-9.27172
化生	-9.27362
故無	-9.27373
安立	-9.27447
與彼	-9.27486
章	-9.27499
犯	-9.2752
能作因	-9.27568
而說	-9.27615
供養	-9.2762
能造	-9.27643
未來世	-9.27646
所不攝	-9.27773
舌	-9.27883
增益	-9.27926
凡	-9.27935
不為	-9.28206
一心	-9.28258
過去現在	-9.283
此文	-9.28397
身識	-9.28488
此中說	-9.28502
親近	-9.28506
天眼	-9.28508
不攝	-9.28548
昔	-9.28751
遍處	-9.28759
是時	-9.28795
別故	-9.28822
城	-9.28847
出離	-9.28862
有四種	-9.28904
內外	-9.29134
悉	-9.29142
此智	-9.29216
准此	-9.29323
等三	-9.29432
殊勝	-9.29508
照	-9.29842
法中	-9.29921
苦法忍	-9.3009
枝	-9.30092
無餘	-9.3024
不受	-9.30416
梵志	-9.30592
年	-9.30641
說一切有部	-9.30717
隨一	-9.3074
不還果	-9.30809
恐	-9.30845
處中	-9.30869
色蘊	-9.30904
所修	-9.30966
九地	-9.31035
作是說	-9.31107
答也	-9.31446
如是說者	-9.31504
軟	-9.3159
能感	-9.3176
中無	-9.3188
坐	-9.32017
經言	-9.32141
非無	-9.3225
為顯	-9.32352
現起	-9.32447
若得	-9.32457
四禪	-9.32631
救	-9.32643
義是	-9.32744
不還	-9.32761
諸佛	-9.32925
生有	-9.32963
真實	-9.32976
如實	-9.33009
尊	-9.33023
身業	-9.33177
所知	-9.3333
花	-9.33552
說法	-9.3361
阿	-9.33615
廣說乃至	-9.33836
見苦斷	-9.34037
有時	-9.34072
增上緣	-9.3423
容有	-9.34571
聖種	-9.34621
有覆無記	-9.34892
俱有因	-9.3498
有報	-9.35073
此人	-9.35101
如次	-9.35322
非我	-9.35323
士用果	-9.35484
諍	-9.35537
境故	-9.35541
掉	-9.35725
不善根	-9.35829
如彼	-9.35955
濁	-9.36201
第四禪	-9.36319
如世尊說	-9.36473
法處	-9.36758
靜	-9.36902
依此	-9.36999
一處	-9.37048
四相	-9.37109
微細	-9.3747
入定	-9.37516
逆	-9.37543
證得	-9.37564
必無	-9.37584
轉變	-9.37627
無漏道	-9.37648
非色	-9.37677
調	-9.37708
骨	-9.3783
梵	-9.37853
我等	-9.37874
不失	-9.37918
益	-9.37961
非常	-9.37971
惡戒	-9.38073
互相	-9.38129
睡眠	-9.38159
遇	-9.38171
憶念	-9.38222
力故	-9.38447
達	-9.3849
色無色	-9.38496
業果	-9.38577
未來現在	-9.38632
六處	-9.38698
見滅所斷	-9.38717
制	-9.38733
已知根	-9.38747
所見	-9.38978
光明	-9.38991
空三昧	-9.38999
可愛	-9.39028
勝故	-9.39062
一類	-9.39063
得阿羅漢果	-9.39069
在欲界	-9.39231
答言	-9.3925
大毘婆沙	-9.39296
非理	-9.39337
去來	-9.39356
阿毘曇	-9.39378
獲	-9.394
他心	-9.39552
八智	-9.39575
過去未來現在	-9.39651
勝處	-9.3982
四大種	-9.39885
三結	-9.39943
令心	-9.3995
無間生	-9.40012
父母	-9.40071
則有	-9.40079
唯緣	-9.40104
異生性	-9.40137
神	-9.40185
相故	-9.40322
信等五根	-9.40355
識處	-9.40395
不復	-9.40401
若生	-9.40626
異故	-9.40792
非業	-9.40872
上下	-9.40999
了知	-9.41074
得生	-9.41155
無學心	-9.41156
傳	-9.41247
滅盡定	-9.41326
二因	-9.41535
無為法	-9.41684
頓	-9.41703
夫	-9.41707
盜	-9.41766
答如是	-9.41812
無常想	-9.41838
十三	-9.41848
斷故	-9.41869
法念住	-9.41914
此心	-9.41946
近事	-9.42002
與果	-9.42019
誦	-9.42052
二明	-9.42242
餘處	-9.42301
歸依	-9.42314
此業	-9.42443
苦樂	-9.42473
理實	-9.42498
別說	-9.4251
我所	-9.42518
增上果	-9.42532
見道斷	-9.42532
面	-9.42683
脫	-9.42885
前二	-9.43025
染污心	-9.43081
告	-9.43293
父	-9.43355
彼地	-9.43494
不善法	-9.43528
上品	-9.43611
而無	-9.43745
故作斯論	-9.43786
身受	-9.43793
預流果	-9.44038
河	-9.44092
此事	-9.44109
興	-9.44201
修行	-9.44403
正受	-9.44529
何者	-9.44646
為依	-9.44771
以何等故	-9.44775
緣緣識	-9.44901
行蘊	-9.44927
問也	-9.45008
無上	-9.45241
為同類因	-9.45259
眾多	-9.45281
妙行	-9.45317
未來修	-9.45448
非聖	-9.4547
大地	-9.45567
須陀洹	-9.45627
五趣	-9.45628
攝故	-9.45746
苦法智忍	-9.45783
四念住	-9.45809
掉舉	-9.4584
五見	-9.4592
方能	-9.4593
不離	-9.45992
責	-9.46006
生色界	-9.46033
說有	-9.46091
婬	-9.46133
先說	-9.46389
自然	-9.46441
何所	-9.4678
唯一	-9.46946
慚	-9.46982
有漏緣	-9.46982
非因	-9.47046
學心	-9.47169
互	-9.47308
藥	-9.47323
彼得	-9.47495
俗	-9.47516
善惡	-9.47559
人中	-9.47685
隨眠隨增	-9.4769
諸結	-9.47907
欲貪	-9.47915
願智	-9.48075
洲	-9.48147
壽量	-9.48169
道類智	-9.48207
答彼	-9.48254
女人	-9.48282
漏盡	-9.48347
過患	-9.48404
四聖諦	-9.48451
無因	-9.48495
從彼	-9.48543
必有	-9.48561
反	-9.48656
無慚	-9.48715
無畏	-9.48743
共相	-9.48746
無色定	-9.48749
預流	-9.48895
利根	-9.48917
阿難	-9.49085
之所	-9.49111
一生	-9.49287
喜樂	-9.49384
等流果	-9.49515
隱	-9.49712
數數	-9.49787
無礙	-9.49807
輪王	-9.499
一明	-9.49988
四緣	-9.50197
則無	-9.50225
於他	-9.50251
後有	-9.5032
心等	-9.50329
出世	-9.50421
愛結	-9.50504
述曰此	-9.50523
彼亦如是	-9.50662
請	-9.50713
依身	-9.50739
生等	-9.50759
六種	-9.50846
而住	-9.50847
心王	-9.51014
後生	-9.51136
但言	-9.51255
復說	-9.5134
三根	-9.51529
等故	-9.51538
三明	-9.51563
滅道	-9.51571
於自	-9.51639
為自性	-9.51715
何因	-9.51749
作因	-9.51752
有差別	-9.51776
資	-9.51829
所化	-9.51884
又如	-9.51999
妄	-9.52227
亦復如是	-9.52232
不依	-9.52286
尼	-9.52382
無想天	-9.52433
非唯	-9.52555
既無	-9.52587
受持	-9.5264
留	-9.52652
能持	-9.5269
尚	-9.5273
滅諦	-9.52742
冷	-9.52781
經主	-9.52848
或非	-9.52939
發起	-9.5294
讚	-9.53232
一切眾生	-9.53272
超越	-9.53333
於餘	-9.53377
無心	-9.53496
生滅	-9.53698
有何差別	-9.53726
心心數法	-9.53744
是名非	-9.53789
斷惑	-9.5386
大種所造	-9.53935
次第緣	-9.53939
色入	-9.53953
三十六	-9.53971
二根	-9.53983
中陰	-9.54028
是善	-9.54069
見結	-9.54122
上流	-9.54122
別立	-9.54301
嗔	-9.54486
彼於	-9.54496
勝進	-9.54512
能治	-9.54517
必定	-9.54541
方得	-9.54568
為名	-9.54575
相應因	-9.54662
三品	-9.5468
正智	-9.54704
體性	-9.54828
自界	-9.55005
得非擇滅	-9.5514
第三禪	-9.55194
不信	-9.55235
有尋有伺	-9.55285
遂	-9.55331
貪欲	-9.55371
若然者	-9.55412
後二	-9.55414
勸	-9.55465
殊	-9.55627
一切皆	-9.55678
會	-9.5575
暫	-9.55812
林	-9.55918
愛盡	-9.55924
是也	-9.55998
有六	-9.5611
正思惟	-9.56165
如理	-9.56182
變壞	-9.56185
遍行隨眠	-9.56187
翻	-9.56343
一來果	-9.56411
所成	-9.56459
異類	-9.56492
集智	-9.56572
就中	-9.5664
潤	-9.56661
作是言	-9.56738
舍	-9.56764
則應	-9.56848
舊	-9.56908
應成	-9.56982
了別	-9.57007
比	-9.57152
第九	-9.57355
此身	-9.57377
如所說	-9.57428
彼非	-9.57527
表業	-9.57588
末	-9.57697
毒	-9.57701
上座	-9.57732
邊際	-9.57828
所受	-9.57863
四無色	-9.57921
久	-9.57969
遊	-9.57987
時解脫	-9.58
第十	-9.58019
云何非	-9.58042
不現在前	-9.58329
是彼	-9.58475
是說	-9.58496
遣	-9.58537
一果	-9.58544
鈍	-9.58575
退法	-9.58577
生已	-9.58636
無諍	-9.58657
又彼	-9.58679
必不	-9.58715
於境	-9.58765
迴轉	-9.58783
恭敬	-9.58803
無異	-9.58812
漸次	-9.58912
燈	-9.59031
引生	-9.59049
餘三	-9.59093
有多	-9.59304
無教	-9.59351
道支	-9.59358
情	-9.59416
誑	-9.59471
梵世	-9.59471
龍	-9.59518
無漏智	-9.59619
我今	-9.59662
金剛喻定	-9.59793
無貪	-9.59939
鬼	-9.60046
魔	-9.60069
短	-9.60094
非見	-9.60098
更無	-9.60148
緣故	-9.60267
偏	-9.60275
略說	-9.60365
無容	-9.60369
謂若	-9.60445
此亦	-9.60506
次第生	-9.60637
無差別	-9.60742
問何故作此論	-9.60751
由斯	-9.60957
一切有情	-9.60973
學無學	-9.60973
色無色界繫	-9.60993
心不	-9.61035
人趣	-9.61168
聚中	-9.61291
盛	-9.61307
石	-9.61454
心法	-9.6151
飲	-9.61559
身心	-9.61619
到	-9.61624
多少	-9.61727
多分	-9.61744
諸業	-9.61754
此地	-9.61756
是苦	-9.61758
畢竟	-9.61972
苦法智	-9.61981
謂善	-9.61989
我當	-9.6201
分明	-9.62081
其體	-9.62142
慧解脫	-9.62294
十七	-9.62296
五百	-9.62387
是我	-9.62392
答諸	-9.62406
無礙道	-9.62409
馬	-9.62495
此名	-9.62569
新	-9.62669
今當說	-9.62739
復次此	-9.62844
又云	-9.62885
十九	-9.62886
以為	-9.62942
無所	-9.62958
有差別故	-9.62974
執我	-9.63046
隔	-9.63075
為所緣	-9.63275
南	-9.63284
斷煩惱	-9.63471
大德	-9.6353
有人	-9.63628
隨煩惱	-9.63672
所緣緣	-9.63698
勢	-9.63715
世俗道	-9.63754
世界	-9.63802
恩	-9.63904
不由	-9.63909
應名	-9.63912
池	-9.63942
故曰	-9.64061
三業	-9.64077
入出息	-9.6414
後三	-9.6417
轉根	-9.64177
脩	-9.64195
若心	-9.64196
已上論文	-9.64309
歿	-9.64334
作是念	-9.64375
十智	-9.64465
有覺有觀	-9.64487
普	-9.64581
應有	-9.64583
立名	-9.64768
齊	-9.64794
身表	-9.64964
二處	-9.64983
二界	-9.65057
大悲	-9.65182
死生	-9.65183
八種	-9.65228
修道所斷	-9.65326
後說	-9.65456
都無	-9.65624
為說	-9.65684
曾得	-9.65753
五識身	-9.65785
雲	-9.65845
然後	-9.65868
純	-9.65897
或說	-9.65976
宮	-9.66062
雖復	-9.66117
刀	-9.6613
至得	-9.66395
行陰	-9.6641
現世	-9.66481
隨相	-9.66494
生處	-9.66516
何法	-9.66555
此下	-9.66574
眼識界	-9.66579
正知	-9.66593
眼觸	-9.66616
一切隨眠隨增	-9.66714
意近行	-9.66766
是何	-9.66775
圓	-9.66798
導	-9.6684
棄捨	-9.66864
設有	-9.66894
無愧	-9.6697
俱解脫	-9.66981
汝等	-9.67115
但有	-9.67122
聖教	-9.67185
神足	-9.67226
是故不說	-9.67271
所立	-9.67271
能取	-9.67372
能證	-9.67388
又此	-9.67461
雙	-9.67476
破僧	-9.67559
而言	-9.67608
有成就	-9.67711
災	-9.67718
勢用	-9.67798
正念	-9.67859
聖諦	-9.67942
無流	-9.67962
具縛	-9.6799
諸惑	-9.68035
香味	-9.68095
草	-9.68133
隨行	-9.68211
歡喜	-9.68215
戒取	-9.68218
何以	-9.68276
種姓	-9.68288
說曰	-9.68311
難也	-9.68402
覺分	-9.68435
為先	-9.68499
是無記	-9.68529
復次以	-9.68596
法入	-9.68633
何處	-9.68637
顯色	-9.68648
當說	-9.68676
色陰	-9.6871
衰	-9.68721
六因	-9.68742
時得	-9.68743
覺觀	-9.68808
律	-9.6904
無學法	-9.69049
所繫	-9.69127
二禪	-9.69193
六識識	-9.69221
簡擇	-9.69221
生於	-9.69277
雨	-9.69434
三禪	-9.69613
虛誑語	-9.69695
唯於	-9.69722
生因	-9.69796
便有	-9.69843
入胎	-9.69893
是不善	-9.7009
已下	-9.70111
有愛	-9.70139
為勝	-9.70165
二緣	-9.70206
尸羅	-9.70247
故不名	-9.70247
倍	-9.70262
晝	-9.70267
姓	-9.70369
未盡	-9.70379
薪	-9.70404
本論	-9.70532
憍	-9.70588
於一	-9.70593
雜修	-9.70697
幾根	-9.70705
名曰	-9.70768
能發	-9.70956
耳識	-9.71048
若是	-9.71064
取果	-9.71087
悅	-9.71139
不放逸	-9.71174
經中說	-9.71187
眼見	-9.71261
和	-9.71262
第四句	-9.71339
與此相違	-9.71343
成立	-9.71344
皆得	-9.71377
託	-9.71544
不可說	-9.71686
際	-9.71765
不樂	-9.71778
得正決定	-9.7179
緣欲界	-9.72074
懷	-9.72148
體是	-9.72151
見色	-9.72193
梵行	-9.72285
慳	-9.72292
此明	-9.72326
百千	-9.72357
第二禪	-9.72381
非不	-9.72466
不相應法	-9.72532
斷善根	-9.72564
愚癡	-9.72692
答無	-9.72722
俱舍	-9.729
二果	-9.73001
不住	-9.73008
別相	-9.73026
都	-9.73033
三地	-9.73274
假立	-9.73289
獲得	-9.73398
諸地	-9.73455
疾	-9.73541
節	-9.7358
人天	-9.73584
可見	-9.73785
皆能	-9.73893
為欲	-9.73896
及與	-9.74096
或時	-9.74104
示	-9.74143
忿	-9.74163
惡業	-9.74189
相應故	-9.74243
未曾	-9.74324
遍行因	-9.74334
隨心轉	-9.74341
不壞	-9.74367
然彼	-9.74433
順決擇分	-9.74477
異相	-9.74497
義者	-9.74516
不通	-9.74674
安隱	-9.74693
華	-9.74964
二心	-9.74973
二智	-9.75006
定有	-9.75008
生起	-9.75041
天中	-9.75042
者何	-9.75044
須陀洹果	-9.75121
見至	-9.75181
若彼	-9.75189
極少	-9.7533
則不	-9.75397
明知	-9.75412
化心	-9.75497
背	-9.75502
黃	-9.75587
心俱	-9.75686
彼無	-9.75691
流轉	-9.75722
能見	-9.75798
眼耳	-9.75904
等見	-9.75947
不具	-9.76041
非心	-9.76044
未來四	-9.76083
貪瞋癡	-9.76178
甚	-9.76298
若作是說	-9.76334
一切應分別	-9.76387
聚集	-9.76419
為我	-9.76447
四行	-9.76495
赤	-9.76516
故彼	-9.76526
無智	-9.76576
相望	-9.76578
撥	-9.76619
男女	-9.76619
無報	-9.76639
無退	-9.7664
或無	-9.76651
若業	-9.76652
彼亦	-9.7666
可說	-9.76876
晝夜	-9.76899
亦通	-9.76966
盡智無生智	-9.77002
俱行	-9.77026
一切處	-9.7707
無尋無伺	-9.77257
色法	-9.77272
能了別	-9.77343
法爾	-9.77452
五蓋	-9.77456
設成就	-9.77517
於一切	-9.77525
異名	-9.77707
集諦	-9.77852
退失	-9.77858
造作	-9.77904
定中	-9.78077
中說	-9.78187
法輪	-9.78233
後時	-9.78234
車	-9.78238
更樂	-9.78328
資糧	-9.78352
工巧	-9.78368
如其次第	-9.78374
六識身	-9.78428
若起	-9.78606
作如是	-9.7864
四沙門果	-9.78644
形色	-9.78652
家家	-9.78737
首	-9.78795
業異熟	-9.7882
八地	-9.78838
有見	-9.78854
近行	-9.78892
邊見	-9.78905
不行	-9.78961
愧	-9.79025
當來	-9.79086
是名為	-9.79093
離染得	-9.792
意行	-9.79253
有因	-9.79338
習智	-9.79351
有幾	-9.79356
盡無生智	-9.79379
當生	-9.79382
於前	-9.7939
雜染	-9.79392
見道中	-9.79409
若不爾者	-9.79425
卷第十	-9.79475
畏	-9.79475
相應耶	-9.7952
唯除	-9.7964
應許	-9.7965
阿那含	-9.79651
若作	-9.79652
無用	-9.79785
此非	-9.79853
自下	-9.79863
作業	-9.79955
五地	-9.79962
受想	-9.80021
對治故	-9.80156
書	-9.80171
身證	-9.80246
作四句	-9.80252
萬	-9.80294
賢聖	-9.80354
其相	-9.80593
果者	-9.80621
無漏心	-9.80645
此道	-9.80671
不待	-9.80718
有八	-9.80802
如比丘	-9.8086
唯依	-9.81148
毘	-9.81156
為幾緣	-9.8121
明了	-9.81326
印	-9.81473
是無漏	-9.81485
身口業	-9.815
具壽	-9.81506
無對	-9.81509
一切使使	-9.8152
取蘊	-9.81534
作如是言	-9.81654
妄語	-9.81663
三受	-9.81716
此復云何	-9.81811
念處	-9.81861
離繫得	-9.81932
功用	-9.81946
彼心	-9.81957
大師	-9.82061
損害	-9.82067
但是	-9.82194
依何	-9.82224
起時	-9.82269
二法	-9.82356
受報	-9.82372
結盡	-9.82415
意處	-9.82531
神通	-9.82571
亦名為	-9.82794
無所緣	-9.82967
云何為	-9.82993
心心法	-9.83025
道法智	-9.83041
諸所有	-9.83055
迹	-9.83123
眾苦	-9.83147
鈍根	-9.83155
傍生	-9.83332
色想	-9.83358
第二句	-9.83385
謂前	-9.83409
初二	-9.83443
室	-9.83445
苦聖諦	-9.83453
四大造	-9.83506
專	-9.83511
擇	-9.83587
未知當知根	-9.83644
何故名	-9.83713
二十二根	-9.83764
未離欲染	-9.8382
木	-9.83897
如文可解	-9.83908
聽	-9.83945
皆無	-9.83978
受樂	-9.8398
一念	-9.83986
三者	-9.84037
不以	-9.84064
得成	-9.84083
釋也	-9.84176
緣彼	-9.84242
現在世	-9.84264
無也	-9.84406
已盡	-9.8451
定心	-9.84548
喜足	-9.84564
愛樂	-9.84766
應非	-9.84811
故正理云	-9.85025
列	-9.85064
過未	-9.85089
二義	-9.85096
怖畏	-9.85259
不相離	-9.85301
一品	-9.8533
善色	-9.85407
毀	-9.85498
不可見	-9.85552
他身	-9.85566
大梵	-9.85679
得故	-9.85719
十種	-9.85754
無能	-9.85756
又說	-9.85843
修所成	-9.85855
是有為	-9.86058
聖法	-9.86069
波	-9.86148
一切煩惱	-9.86176
生長	-9.86182
非異熟	-9.86201
亦與	-9.86252
謂有	-9.86263
等四	-9.86287
禮	-9.863
不應說	-9.86366
濕	-9.86373
不染污	-9.86449
俗智	-9.86469
有異熟	-9.86525
質	-9.86543
也問	-9.86554
已離欲染	-9.86596
上二界	-9.86622
調伏	-9.8671
彼有	-9.86735
皆通	-9.86771
胎	-9.86785
或依	-9.86806
極成	-9.86821
收	-9.86887
身念住	-9.86893
穢污	-9.86976
初得	-9.87138
續生	-9.87167
一切遍	-9.8724
梵王	-9.8731
不了	-9.87317
雜亂	-9.87476
法性	-9.87495
死有	-9.8755
非情	-9.87569
復作是說	-9.87576
相應心	-9.87577
審	-9.87652
一地	-9.87655
具知根	-9.87687
如有	-9.87698
學處	-9.87767
宿	-9.87799
牒	-9.87831
拔	-9.87883
四行相	-9.8792
修道斷	-9.87922
為是	-9.87983
作者	-9.88054
毘婆沙	-9.88069
問答	-9.88176
不善業	-9.88188
根本地	-9.88327
染著	-9.88328
謂從	-9.88343
可意	-9.88415
斷善	-9.88455
第三句	-9.88587
得名	-9.88609
分位	-9.88627
相雜	-9.88671
此五	-9.88785
不淨想	-9.88805
阿那含果	-9.88885
俱轉	-9.88897
密	-9.88897
無漏根	-9.889
答此	-9.88904
契經中	-9.88934
毘婆沙師	-9.8896
便生	-9.88977
與心	-9.89085
苦行	-9.89143
三因	-9.89147
何謂非	-9.89205
滅時	-9.89222
報法	-9.8923
已辯	-9.89235
問何等法	-9.89275
下品	-9.89436
恚結	-9.89494
名之為	-9.89524
不相應行	-9.89528
自他	-9.89548
廣大	-9.89703
六地	-9.89738
瀑流	-9.89757
已知	-9.89772
又世尊言	-9.89791
唯在	-9.89797
別釋	-9.89823
三緣	-9.89945
心故	-9.89998
故得	-9.90079
畜生	-9.90123
勝果道	-9.90123
展轉相	-9.90125
為等無間	-9.90163
未知根	-9.90198
意識相應	-9.90203
學法	-9.90407
能招	-9.90409
應知此中	-9.90454
久住	-9.9052
定無	-9.90537
乎	-9.90669
無過	-9.90683
隨法行	-9.90733
能了	-9.90841
有退	-9.9085
六根	-9.90906
與餘	-9.90956
遲	-9.91044
放逸	-9.91074
雖是	-9.91148
所緣境	-9.91364
我慢	-9.9139
亦成就	-9.91398
入見道	-9.91404
饒益	-9.91419
滅者	-9.91419
諸阿羅漢	-9.91437
此根	-9.91483
第四定	-9.91517
若生欲界	-9.91525
說言	-9.91627
止息	-9.91666
六界	-9.91688
鐵	-9.91772
及諸	-9.9183
轉法輪	-9.91864
此亦如是	-9.91904
冥	-9.91936
未曾得	-9.92001
莫	-9.92006
無失	-9.92101
道理	-9.92174
有勝	-9.92237
非如	-9.92295
亦復	-9.92342
擇法	-9.92426
或由	-9.92514
利益	-9.92536
見結繫	-9.92678
八根	-9.92725
證知	-9.92727
應果	-9.92759
有所	-9.92806
一人	-9.92812
暖	-9.92871
相應無明	-9.93079
沙	-9.93101
謂依	-9.9322
二形	-9.93224
夢	-9.93356
我說	-9.93408
諸見	-9.93431
頌中	-9.93473
直	-9.93484
增故	-9.9355
二部	-9.93553
更有	-9.93559
衣服	-9.93566
生相	-9.93633
體非	-9.93697
三不善根	-9.93745
餘皆	-9.93801
然此	-9.93844
授	-9.93849
於法	-9.93949
不異	-9.93972
說亦如是	-9.9403
何不	-9.94094
意說	-9.94095
已上	-9.94138
忍智	-9.94165
生中	-9.9423
等法	-9.94256
初句	-9.94399
相續中	-9.94408
杖	-9.94458
偈	-9.94527
滅故	-9.9459
應作四句	-9.946
攝受	-9.946
是有漏	-9.94602
周	-9.94634
學位	-9.94648
答若	-9.9466
靜慮中間	-9.94792
以諸	-9.94895
梵天	-9.94955
有餘師言	-9.95035
思擇	-9.95121
也言	-9.95156
五因	-9.95177
離欲界染	-9.95179
隨信行	-9.95209
五支	-9.95214
亦攝	-9.95215
所發	-9.95236
未離欲	-9.95269
現法	-9.95337
睡	-9.95376
聲界	-9.9549
彼結	-9.95531
若緣	-9.95541
無表色	-9.95553
不共無明	-9.95751
或是	-9.95761
地中	-9.95764
九種	-9.95775
斷結	-9.95872
身行	-9.95929
福業	-9.95943
言說	-9.95967
地界	-9.95983
莊嚴	-9.96049
假名	-9.96085
此等	-9.96093
軛	-9.96119
繫縛	-9.96141
問云何	-9.96234
毛	-9.96562
之時	-9.96609
勤修	-9.96741
彼不	-9.96868
北	-9.96906
無記法	-9.96923
若生色界	-9.96942
一緣	-9.96961
為正	-9.96994
有覆無記心	-9.97001
慧根	-9.97008
業感	-9.97027
有所緣	-9.97032
復次比丘	-9.97043
謂色	-9.97108
賢	-9.97118
自部	-9.97174
契經說	-9.97177
爾所	-9.97396
未離	-9.97407
可爾	-9.97452
氣	-9.97466
心相應	-9.97522
正覺	-9.97536
積集	-9.9757
言無	-9.97585
心生	-9.97603
苾芻當知	-9.97625
何況	-9.97635
佛經	-9.97686
初起	-9.97721
不盡	-9.97755
又契經說	-9.97764
所證	-9.97833
具有	-9.97894
不苦不樂受	-9.97904
除餘法	-9.97995
餘四	-9.98009
所依身	-9.9802
未至定	-9.98054
言顯	-9.98059
身語	-9.98069
患	-9.98093
生天	-9.98154
其義	-9.98281
有為相	-9.98377
諸有情類	-9.98401
當有	-9.98405
本有	-9.98411
若斷	-9.9844
受業	-9.98462
無緣	-9.98609
通果心	-9.98687
總相	-9.98696
於色	-9.98705
得自在	-9.98708
初剎那	-9.98732
不相違	-9.98952
差別故	-9.99062
即名	-9.99081
惡不善法	-9.9911
我於	-9.9913
四陰	-9.9915
一行	-9.99167
之中	-9.99528
正理云	-9.9953
大地法	-9.9954
依未至定	-9.99552
有情居	-9.99621
名有	-9.99634
生得善	-9.99639
喜覺支	-9.9965
能得	-9.99705
土	-9.99763
寬	-9.99776
撥無	-9.99819
彼根	-9.99861
前際	-9.99863
敘	-9.99891
頌言	-9.99914
變化心	-9.99924
辟支佛	-9.99955
無執受	-9.99955
見苦	-9.9997
識界	-9.99976
積	-10.0004
是常	-10.0005
決	-10.0018
作是	-10.0021
餓鬼	-10.0024
見滅斷	-10.0025
欲顯	-10.0028
薩婆多	-10.0029
心定	-10.003
便作是念	-10.0039
卵	-10.0047
芽	-10.0049
有七	-10.005
修慧	-10.0054
說一切有部發智	-10.0055
彼定	-10.0057
地等	-10.0068
唯此	-10.0068
二俱	-10.0068
天趣	-10.0069
覺知	-10.0069
珠	-10.0071
是色	-10.0077
相違故	-10.0083
學者	-10.0083
之言	-10.009
伽	-10.0101
無學正見	-10.0106
焰	-10.0107
交	-10.0113
羅漢	-10.0115
善等	-10.0119
邪命	-10.013
犯戒	-10.0131
疑結	-10.0137
令彼	-10.0139
命者	-10.014
不欲	-10.0145
為果	-10.0146
音	-10.0156
何用	-10.0157
漸漸	-10.0159
增盛	-10.0159
損減	-10.0159
諂	-10.0163
如先說	-10.0163
有執受	-10.0164
慚愧	-10.0169
凡夫性	-10.017
迴	-10.017
無漏慧	-10.0173
除何等法	-10.0174
故唯	-10.0175
以是事故	-10.0178
善行	-10.018
視	-10.0184
瓶	-10.0191
謂無漏	-10.0195
】	-10.0199
一切智	-10.0206
二生	-10.021
現在無	-10.0211
恃	-10.0215
族	-10.0215
云何通	-10.0218
或以	-10.022
三性	-10.0222
無異熟	-10.0223
故不說	-10.0226
未滅	-10.0226
能離	-10.0226
無斷	-10.0234
破壞	-10.0239
加行善	-10.0248
狹	-10.0249
無欲	-10.0251
無學位	-10.0252
逼	-10.0257
前所說	-10.0269
信根	-10.0269
即以	-10.0273
等言	-10.0274
十二入	-10.0275
四果	-10.0278
所應	-10.0284
有業	-10.0285
依彼	-10.0288
厭離	-10.0289
皮	-10.0291
而轉	-10.0297
牽	-10.03
受想行識	-10.0304
頌曰至	-10.0305
通達	-10.031
無尋唯伺	-10.0314
八解脫	-10.0315
彼人	-10.0317
方名	-10.0318
大海	-10.0324
傍	-10.0331
欲界修所斷	-10.0332
葉	-10.0335
在家	-10.034
二十二	-10.0341
士	-10.0342
懈怠	-10.0356
知見	-10.0357
謂根	-10.036
仙人	-10.0361
不隱沒無記	-10.0361
以是故	-10.0363
七種	-10.0363
不生法	-10.0373
若無漏	-10.0381
三定	-10.0381
能依	-10.0382
正理論	-10.0383
增上慢	-10.0386
不時解脫	-10.0392
謂三界	-10.0397
甚深	-10.0399
受苦	-10.0402
三藏	-10.0405
端嚴	-10.0406
初禪地	-10.0408
三十三天	-10.0409
定非	-10.0418
佛告	-10.0419
斷滅	-10.0421
多聞	-10.0426
持戒	-10.0433
酒	-10.0434
雜心	-10.0436
無生	-10.0437
成就過去	-10.0442
一劫	-10.0444
然非	-10.0445
見苦集所斷	-10.0453
作意相應	-10.0459
寂	-10.0459
業力	-10.0461
有五種	-10.0462
缺	-10.0462
三十二	-10.0463
謂除前相	-10.0463
無覆	-10.0469
必應	-10.0469
非報非報法	-10.0474
有用	-10.0478
提	-10.0484
六入	-10.0487
薄伽梵	-10.0492
住處	-10.0515
謂佛	-10.0515
能滅	-10.0516
非受	-10.0518
】【	-10.0521
段	-10.0523
念覺支	-10.0524
現有	-10.0529
曲	-10.0535
非定	-10.0541
淨解脫	-10.0546
作證	-10.0546
言依	-10.055
為俱有因	-10.0558
三蘊	-10.0559
此處	-10.0571
令不	-10.0571
熏	-10.0572
修定	-10.0576
若據	-10.0577
宜	-10.0583
故說為	-10.0587
者即	-10.0592
未來法	-10.0604
為令	-10.0606
品中	-10.0607
能障	-10.0612
處起	-10.0616
受者	-10.0621
聖弟子	-10.0626
鳥	-10.0627
嫉	-10.0628
有覆	-10.0631
惡道	-10.0651
雖不	-10.0663
餘如前說	-10.0667
無慚無愧	-10.0673
防	-10.0683
尊重	-10.0685
竝	-10.0686
猶豫	-10.0688
惛沈	-10.069
別解脫律儀	-10.0691
餘地	-10.0692
故不立	-10.0696
未起	-10.0702
若觸	-10.0703
有如是	-10.0704
捨受	-10.0705
諸行滅	-10.0711
西	-10.0715
不應道理	-10.0731
不可得	-10.0735
餘二	-10.0737
上來	-10.0738
心解脫	-10.074
發語	-10.074
隱沒無記	-10.0743
女根	-10.0745
受戒	-10.0752
如契經言	-10.0762
起者	-10.0762
舍利子	-10.0765
縷	-10.077
於我	-10.0772
為遮	-10.0774
此識	-10.0776
常住	-10.0777
同故	-10.078
說此	-10.0792
轉輪王	-10.0792
一切種	-10.0794
非一切	-10.0796
各異	-10.0806
是故彼	-10.0812
九智知除滅	-10.0816
佛教	-10.0821
存	-10.0827
男根	-10.0829
四無量	-10.0832
天上	-10.0832
希求	-10.0834
盲	-10.0837
三無漏根	-10.0839
事業	-10.084
總緣	-10.0842
薄	-10.0844
皆悉	-10.0845
今時	-10.0847
前已說	-10.0847
眼見色	-10.0853
思惟所斷	-10.0859
五取蘊	-10.0862
虛	-10.0866
但緣	-10.0868
臥	-10.0873
別緣	-10.0876
在身	-10.0878
等事	-10.0879
號	-10.0879
結生	-10.088
炎	-10.0883
絕	-10.0885
他相續	-10.0885
舊云	-10.0892
淨無漏	-10.0893
安樂	-10.0905
彼作是說	-10.0917
廣說如上	-10.092
是何義	-10.0937
各各	-10.0939
謂由	-10.094
識身	-10.0943
取境	-10.0945
曾聞	-10.095
信等	-10.0953
前四	-10.0955
生彼	-10.0962
今此	-10.0982
乳	-10.0985
今詳	-10.0987
師說	-10.0988
心起	-10.0988
實義	-10.0992
百大阿羅漢等造三藏法師玄奘奉詔譯	-10.0994
三諦	-10.0998
何義	-10.0999
引起	-10.1002
依初靜慮	-10.1008
為所依	-10.1012
所顯	-10.102
等取	-10.1024
與前	-10.1027
若定	-10.1039
變異	-10.1044
已起	-10.1056
威勢	-10.1057
我執	-10.106
諸隨眠	-10.107
無覺無觀	-10.1071
劣故	-10.1072
問彼	-10.1077
在定	-10.1077
無見	-10.1083
所觸	-10.1092
有非	-10.1096
滅盡	-10.1097
為有	-10.1102
彼宗	-10.1103
苦集諦	-10.1111
飢	-10.1113
七日	-10.1114
肉	-10.1121
更不	-10.1123
結使	-10.1127
有作用	-10.1128
定者	-10.1133
不遍	-10.1135
同前	-10.1138
以何	-10.1142
品類	-10.1147
若智	-10.1147
皆具	-10.1152
唯取	-10.1168
出要	-10.1176
故應	-10.1179
當得	-10.118
准前	-10.1185
布施	-10.1188
是故偏說	-10.1188
有情數	-10.1188
根者	-10.1191
俱非	-10.1193
令其	-10.1194
如是名為	-10.1196
還生	-10.1198
不苦不樂	-10.1199
退時	-10.1199
信勝解	-10.1209
憍慢	-10.1213
釋頌	-10.1213
有為緣	-10.1217
如是思惟	-10.1218
園	-10.1221
贍部洲	-10.1221
髮	-10.1225
非法	-10.1234
謬	-10.1234
無間業	-10.1236
論說	-10.1236
八萬	-10.1239
中品	-10.1239
變易	-10.1241
彼所	-10.1242
長者	-10.125
既言	-10.125
但名	-10.1253
由是	-10.1264
如是所說	-10.1267
無所有	-10.1279
臣	-10.1281
弱	-10.1282
欲界中	-10.1283
隨應	-10.1283
能憶	-10.1284
先起	-10.1304
引發	-10.1304
即便	-10.1308
為證	-10.1311
差別者	-10.1329
謂之	-10.1336
疏	-10.1339
彼經	-10.1339
彼言	-10.1345
彼行	-10.1349
判	-10.1349
不決定	-10.1352
心受	-10.1356
理故	-10.1375
此類	-10.1379
不取	-10.1381
穀	-10.1386
親友	-10.139
不善無記	-10.1392
契經中說	-10.1406
名身	-10.1408
我已	-10.1429
一切地	-10.1429
從此第二	-10.1439
緣色	-10.1442
道聖諦	-10.1449
道故	-10.145
七支	-10.1454
此見	-10.146
謂欲界繫	-10.1472
六十	-10.1487
非所斷	-10.1488
無二	-10.1489
壽命	-10.1503
傳說	-10.1507
法類	-10.1509
雜修靜慮	-10.1511
仙	-10.1513
非實	-10.1514
謂生欲界	-10.1516
謂欲	-10.1518
色身	-10.1523
不應言	-10.1535
欲漏	-10.1536
言我	-10.1537
一說	-10.1539
麁細	-10.1545
守	-10.1545
而能	-10.1546
渴	-10.1546
劫初	-10.1549
守護	-10.1549
有心	-10.155
麤	-10.155
無礙解	-10.1552
名也	-10.1563
全無	-10.1568
五品	-10.1569
善不善無記	-10.1576
可名	-10.1585
八智知除滅	-10.1586
偏說	-10.159
餘煩惱	-10.1592
恨	-10.1594
非想	-10.1596
有十	-10.1596
令他	-10.1603
羸劣	-10.1608
不動法	-10.1608
歲	-10.1609
常見	-10.161
繫屬	-10.1611
習氣	-10.1623
此復	-10.163
雜穢語	-10.1635
所執	-10.1636
佛經說	-10.1642
別者	-10.1647
縱	-10.1647
依處	-10.1658
宿住隨念智	-10.1659
尊者舍利弗	-10.1669
雖非	-10.1671
是人	-10.1671
義也	-10.1672
若修	-10.168
皆不	-10.168
為加行	-10.169
二人	-10.1693
若執	-10.1696
泥	-10.1701
非於	-10.1701
色貪	-10.1701
近住	-10.1705
離繫果	-10.1708
誰成就	-10.1709
意地	-10.1715
三行	-10.1715
無學道	-10.1717
三事	-10.1717
亦同	-10.1726
金剛	-10.1727
所住	-10.1727
他地	-10.1729
別解脫	-10.1733
別明	-10.1741
而未	-10.1742
於所緣	-10.1744
為他	-10.175
愛未盡	-10.1754
誹謗	-10.1765
防護	-10.1766
七地	-10.1769
但依	-10.1774
唯與	-10.1778
為止	-10.1779
唯修所斷	-10.178
是其	-10.1781
應是	-10.179
意入	-10.1791
結所繫	-10.1797
句義	-10.1802
般	-10.1805
於後	-10.1807
奪	-10.1811
得涅槃	-10.1815
二見	-10.1815
數習	-10.1817
結眠沒	-10.1818
勝劣	-10.1819
若在	-10.1822
答以	-10.1822
通果	-10.1823
釋云	-10.1824
難可	-10.1826
是以	-10.1826
現在一	-10.1829
非數滅	-10.1832
四智	-10.1833
其理	-10.1836
論師	-10.1849
無覆無記心	-10.185
刺	-10.1854
諸心	-10.1856
恚結繫	-10.1863
識蘊	-10.1865
非離	-10.1865
亦成	-10.1867
散亂	-10.1868
於苦	-10.1869
受蘊	-10.1869
賊	-10.1871
應理	-10.1871
踰繕那	-10.1875
修得	-10.1876
對治道	-10.1879
眼入	-10.1883
宿住	-10.1886
若有漏	-10.1897
後際	-10.1908
知根	-10.1908
終不	-10.1909
觸處	-10.1913
生上	-10.1916
不隨	-10.1917
顯了	-10.1922
行人	-10.1927
能遮	-10.1928
幾非	-10.193
類智品	-10.1931
因此	-10.1931
箭	-10.1933
隨念	-10.1934
過去世	-10.1935
後念	-10.1936
限	-10.1949
清	-10.195
界地	-10.195
造業	-10.1952
不相似	-10.1953
見集斷	-10.1958
非無漏	-10.1966
自知	-10.1967
已辨	-10.1968
所捨	-10.1971
羊	-10.1971
齋	-10.1974
染污法	-10.1978
無窮	-10.1979
領	-10.1981
遍淨	-10.1982
微妙	-10.1984
無作	-10.1985
及相應法	-10.1986
加行得	-10.1987
以無	-10.1987
隨業轉	-10.1988
狂	-10.1989
梵眾	-10.199
功力	-10.1992
不染無知	-10.1994
而作此論	-10.1994
又若	-10.1995
實體	-10.1996
色愛盡	-10.1999
長等	-10.2001
是處	-10.2007
相似因	-10.2007
緣生	-10.201
非遍行	-10.2015
時分	-10.2019
訶	-10.2023
謂不善	-10.2024
詳	-10.2025
二諦	-10.2026
惠	-10.2031
不定故	-10.2039
此則	-10.204
百年	-10.2047
有四句	-10.205
論文	-10.2053
福田	-10.206
妨	-10.2062
音聲	-10.2064
斯陀含果	-10.2067
得不還果	-10.2068
滅法	-10.207
自類	-10.2074
決擇	-10.2085
致	-10.209
再	-10.2096
諸師	-10.21
與此	-10.2102
不相	-10.2103
牟尼	-10.2104
經所說	-10.2104
堅固	-10.2106
又諸	-10.2109
香等	-10.2112
斷智	-10.2115
真諦	-10.2124
若先	-10.2125
所長養	-10.2127
欲愛	-10.2127
有殊	-10.2132
所取	-10.2133
憙	-10.2146
鏡	-10.2147
耳鼻舌身	-10.2155
若干	-10.2155
法相	-10.2156
善有漏	-10.2158
無記根	-10.216
眼色	-10.2173
舌識	-10.2177
初生	-10.2178
而不說者	-10.2178
佛為	-10.2182
六智	-10.2182
貪瞋	-10.2182
失念	-10.2184
三洲	-10.2189
方成	-10.2189
彼色	-10.2191
於佛	-10.2194
威德	-10.2197
佛法	-10.2207
領納	-10.2211
已離	-10.2214
耳根	-10.2218
過現	-10.2222
空界	-10.2224
法智相應	-10.2225
有此	-10.2229
五境	-10.223
此位	-10.2233
滿足	-10.2236
及彼	-10.2246
應不	-10.2249
起欲	-10.2249
底	-10.225
既不	-10.2254
二十八	-10.2257
彼作是念	-10.2263
若住	-10.2273
厭患	-10.228
增廣	-10.2285
意觸	-10.2286
彼尊者	-10.229
平	-10.2296
諸有為法	-10.2303
是無常	-10.2303
化作	-10.2313
欲染	-10.2316
隱沒	-10.2318
皆應	-10.2329
彼由	-10.2332
無覺有觀	-10.2332
謂一切	-10.2341
善巧	-10.2342
行苦	-10.2343
三無色	-10.2346
非實有	-10.2351
前五	-10.2352
為善	-10.2352
出定	-10.2353
是因	-10.2354
九根	-10.2355
纏所纏	-10.236
及修所斷	-10.2363
二乘	-10.2365
見諦斷	-10.2366
若未	-10.2369
當云何通	-10.2369
而於	-10.2373
佛於	-10.2373
復言	-10.2384
可言	-10.2385
在未來	-10.2387
何故不說	-10.2388
欲界繫善心	-10.2389
八品	-10.239
其中	-10.2391
卑	-10.2392
色相	-10.2393
修惑	-10.2394
定成	-10.2398
未知	-10.24
九十八使	-10.2401
如前釋	-10.2407
二十四	-10.242
沙門婆羅門	-10.2425
一切有為法	-10.2427
不順	-10.2433
定是	-10.2434
速疾	-10.2435
義成	-10.2439
避	-10.2439
許有	-10.2439
七生	-10.2442
而彼	-10.2444
引經	-10.2444
通二	-10.2446
盡故	-10.2447
施主	-10.2447
有教	-10.2449
入母胎	-10.245
一由	-10.2457
之法	-10.2457
飲酒	-10.2457
亦可	-10.2459
學人	-10.2461
無勝	-10.2461
期心	-10.2462
可有	-10.2463
其義云何	-10.2475
假說	-10.2477
妻	-10.2479
自害	-10.2485
諸外道	-10.2491
沈	-10.2491
後方	-10.2492
無漏戒	-10.2496
若離	-10.2499
境界緣	-10.2504
二由	-10.2505
風界	-10.2506
不違	-10.251
三界繫	-10.2517
染法	-10.2523
其心	-10.2534
通三界	-10.2537
未能	-10.2549
如上	-10.2558
但為	-10.2558
非一	-10.2562
順正理論	-10.257
於所	-10.2575
富	-10.2576
三乘	-10.2577
能修	-10.2586
又問	-10.259
九無間道	-10.2593
連	-10.2598
愛結繫	-10.2599
簡別	-10.261
理亦不然	-10.261
正定	-10.2616
伽他	-10.2617
身壞命終	-10.2618
他人	-10.2619
如前所說	-10.2619
延	-10.262
詞	-10.2622
亦緣	-10.2622
能對治	-10.2626
緣起法	-10.2631
邪智	-10.2632
猶有	-10.2633
若能	-10.2636
有果	-10.264
斷見	-10.2641
我宗	-10.2646
二地	-10.2649
上上	-10.2651
推	-10.2652
日月	-10.2654
鉢	-10.266
軍	-10.2665
而般涅槃	-10.2669
如是乃至	-10.2679
善取法相善思惟善解	-10.2679
答如	-10.2688
若受	-10.2695
隨所	-10.2698
乃至非想非非想處	-10.2698
若見	-10.2713
威儀路	-10.2713
遭	-10.272
有我	-10.2721
外法	-10.2724
問何故名	-10.2725
服	-10.2726
語言	-10.2729
有流	-10.2732
是業	-10.2733
智見	-10.2737
十智知	-10.2741
非理作意	-10.2746
有為無為	-10.2748
入滅定	-10.2749
一界	-10.2752
不染	-10.2757
二事	-10.2759
何故說	-10.2762
堪能	-10.2767
擊	-10.2771
後後	-10.2772
自相續	-10.278
九智	-10.2781
二分	-10.2784
四支	-10.2787
士用	-10.2787
隨彼	-10.2796
謂阿羅漢	-10.2796
是道	-10.2797
故成	-10.2801
受異熟	-10.2801
或於	-10.2803
無明使	-10.2806
色有	-10.2809
便起	-10.2811
色者	-10.2816
應作	-10.2816
於身	-10.2823
一切入	-10.2825
俱是	-10.2827
法念處	-10.2837
不與取	-10.2837
然諸	-10.284
斷遍知	-10.284
見疑	-10.2842
其相云何	-10.2846
果名	-10.2855
變化	-10.2861
具二	-10.2864
如是已說	-10.288
一切有為	-10.2883
少欲	-10.2883
二業	-10.2884
斷道	-10.2888
欲色	-10.2896
即有	-10.2898
一云	-10.2903
客	-10.2905
煩	-10.2905
諸得	-10.2917
依地	-10.2918
何者是	-10.2934
悟	-10.2936
此顯	-10.2937
二道	-10.2939
工巧處	-10.2941
七智	-10.2942
斷者	-10.2949
摩訶	-10.2949
長時	-10.295
暫時	-10.2954
慢結	-10.2961
疎	-10.2961
五十	-10.2961
無明結	-10.2961
行相轉	-10.2962
成就未來	-10.2962
二世	-10.2971
却	-10.2974
非隨眠隨增	-10.2978
梵云	-10.2981
行故	-10.2983
相對	-10.2985
亦應說	-10.2987
問如	-10.299
天耳	-10.2994
若於此事	-10.2995
不護	-10.2996
攝在	-10.3
此有	-10.3003
得修	-10.3005
斷對治	-10.3007
下下	-10.3007
受陰	-10.3008
寒	-10.3009
定地	-10.3009
尋求	-10.3011
理應	-10.3011
醉	-10.3013
貪愛	-10.3013
色根	-10.3017
斯陀含	-10.3021
過去法	-10.3022
相應縛	-10.3023
云何不	-10.3032
讚歎	-10.3035
若許	-10.3036
八十	-10.3041
口行	-10.3046
彼斷	-10.3046
死時	-10.3046
增減	-10.3048
隣近	-10.3054
鼻識	-10.3054
應修	-10.3056
見修所斷	-10.3057
意顯	-10.3065
座	-10.3071
一切時	-10.3071
勝論	-10.3075
鬘	-10.3085
釋言	-10.3089
實物	-10.309
打	-10.3092
緣欲界繫	-10.3094
串習	-10.3097
具足住	-10.31
譬喻	-10.3101
成業道	-10.3103
七智知	-10.3114
意止	-10.3115
善知	-10.3117
十二支	-10.312
若餘	-10.3125
結斷	-10.3127
諸相	-10.3131
非緣	-10.3136
美	-10.3144
非我行相	-10.3151
四部	-10.3158
所居	-10.317
執受	-10.3173
卷	-10.3182
亦由	-10.3187
應斷	-10.3189
非善	-10.3193
又於	-10.3201
以世俗道	-10.3204
詣	-10.3205
已斷已遍知	-10.3219
非彼	-10.322
煖等	-10.3223
處處	-10.3223
有大	-10.3226
意識界	-10.3232
後位	-10.3232
由何	-10.3234
即於	-10.3236
心數	-10.3247
義准	-10.3256
嫉結	-10.3257
為苦	-10.326
諸比丘	-10.326
不入	-10.326
初念	-10.3261
四根	-10.3261
信解脫	-10.3262
活	-10.3262
何故不	-10.3268
佛身	-10.3268
三果	-10.327
天授	-10.3288
義如前說	-10.3291
受相應	-10.3292
因義	-10.33
成故	-10.3301
已成	-10.3303
邪定	-10.3306
四生	-10.3309
難知	-10.3309
若從	-10.331
二釋	-10.3313
靜慮支	-10.3323
三識	-10.3323
不轉	-10.3324
諸漏	-10.3328
所治	-10.3335
得定	-10.3337
用故	-10.3338
一切是	-10.3339
大乘	-10.3342
信解	-10.3345
亦生	-10.3346
有過去	-10.3346
觀待	-10.3349
慮	-10.335
無障	-10.3353
無始	-10.3355
性罪	-10.3362
離欲染	-10.3364
證淨	-10.3366
前心	-10.3369
前文	-10.3372
聞慧	-10.3377
觸界	-10.3383
次說	-10.3384
相者	-10.3386
無違	-10.3387
亦以	-10.3396
心亂	-10.3397
憎	-10.3397
村	-10.3402
何名	-10.3405
不觀	-10.3407
為食	-10.3413
得起	-10.3414
不現	-10.3422
不用處	-10.3423
有根	-10.3429
卷第二十	-10.3432
不從	-10.3436
善無記	-10.3457
誠	-10.346
持息念	-10.346
糞	-10.3469
心次第生	-10.3472
灰	-10.3474
相應者	-10.3477
隨逐	-10.3483
宣說	-10.349
為門	-10.3492
五戒	-10.3492
辦	-10.3493
語表	-10.3493
入涅槃	-10.3494
一有情	-10.3504
亦應爾	-10.3509
二蘊	-10.3517
緣緣	-10.352
西方	-10.3523
橫	-10.3533
智力	-10.3534
仍	-10.3536
無數	-10.3541
威	-10.3541
是欲界	-10.3543
牙	-10.3544
發生	-10.3548
唯修	-10.355
世尊弟子	-10.3551
九結	-10.3559
處得	-10.3561
意界意識界	-10.3561
眼等五根	-10.3561
未知欲知根	-10.3563
何者為	-10.3566
無漏律儀	-10.3568
我我所	-10.3575
惱害	-10.3578
無形	-10.3582
廣說如前	-10.3584
婦	-10.3587
鹿	-10.3588
昇	-10.3589
!	-10.3594
飢渴	-10.3596
臥具	-10.3601
且如	-10.3604
若異此者	-10.3608
善通	-10.3608
相似故	-10.3611
邊執見	-10.3613
皆容	-10.3616
慳結	-10.3625
彼同分	-10.3631
雖亦	-10.3632
士夫	-10.3637
運	-10.3637
定成就	-10.3643
知他心	-10.3649
幾是	-10.3649
法體	-10.3651
諸弟子	-10.3653
苦痛	-10.3655
纔	-10.3657
無知根	-10.3666
今應	-10.3668
是無學	-10.3671
然於	-10.3676
得遍知	-10.368
有漏道	-10.3681
二十一	-10.3682
理趣	-10.3684
黑白	-10.369
喜覺意	-10.3691
修所斷法	-10.3693
起緣	-10.3695
內法	-10.3696
是見	-10.3697
緣現在	-10.3707
一字	-10.3708
依未至	-10.3717
善趣	-10.3722
在色界	-10.3724
慢類	-10.3725
能捨	-10.3731
論主破	-10.3735
犢子部	-10.374
加行道	-10.374
別名	-10.3743
退者	-10.3747
極多	-10.3747
此因	-10.375
第一句	-10.3753
皆以	-10.3754
在前	-10.3757
戒盜	-10.3761
猗	-10.3768
無恚	-10.3769
十六行	-10.377
退分	-10.3773
道中	-10.3784
無漏者	-10.3786
通慧	-10.3786
本得	-10.3788
之人	-10.3788
通緣	-10.3789
淨信	-10.3795
火界	-10.3795
生名	-10.3798
譯	-10.3799
現在耶	-10.3801
一切遍使	-10.3801
希	-10.3803
希望	-10.3805
現法樂住	-10.3811
見集	-10.3813
是假	-10.3814
能為因	-10.3815
志	-10.3818
時捨	-10.382
別解脫戒	-10.382
生疑	-10.3826
若由	-10.3832
是故此	-10.3838
誓	-10.384
識陰	-10.3842
彼業	-10.3845
即前	-10.3849
或無記	-10.3854
而立	-10.3855
勝者	-10.3856
眼處	-10.3859
不滅	-10.3862
香味觸	-10.3864
或無處所	-10.3864
罵	-10.3867
漂	-10.3869
等諸	-10.387
經文	-10.3872
悕望	-10.3875
鼓	-10.3876
道果	-10.388
而作論	-10.3883
作此	-10.3883
此無表	-10.3884
生欲色界	-10.3885
心無間	-10.3886
總名為	-10.3888
又正理云	-10.3891
芽等	-10.3892
亦如	-10.3893
報業	-10.3894
色界繫無覆無記心	-10.3894
中劫	-10.3899
見滅	-10.3905
恒時	-10.391
因何	-10.3916
盧	-10.3919
一趣	-10.392
能破	-10.3925
乃至無所有處	-10.3933
無義	-10.3938
得阿羅漢	-10.3943
十一處	-10.3946
生喜	-10.3947
根本業道	-10.3947
非愛	-10.3948
一名	-10.3949
以能	-10.3951
擇法覺支	-10.3952
梵眾天	-10.3961
三十七	-10.3963
於此中	-10.3965
永盡	-10.3971
戲	-10.3972
異生聖者	-10.3973
十六行相	-10.3974
離欲界欲	-10.3976
一物	-10.3978
功	-10.398
如斯	-10.3984
有九	-10.3987
既說	-10.3987
唯得	-10.3989
既有	-10.3992
是非學非無學	-10.3999
淨居	-10.4001
集類智	-10.4002
覺慧	-10.4003
諸惡	-10.4004
謂有漏	-10.4005
中般	-10.4011
威勢緣	-10.4012
次生	-10.402
身繫	-10.4021
報因	-10.4031
不必	-10.4038
他界緣	-10.404
現在修	-10.4046
修未來	-10.4049
梨	-10.4055
謂心	-10.4055
一界一處一蘊攝	-10.4061
毘奈耶	-10.4062
*	-10.4062
苦類智	-10.4067
濫	-10.4069
熾然	-10.4075
正勤	-10.4079
喜受	-10.408
婆沙云	-10.408
十八界中	-10.4082
等志	-10.4084
我所見	-10.4084
此約	-10.4091
能燒	-10.4098
上上品	-10.4098
頓得	-10.4099
順退分	-10.4102
無癡	-10.4106
伴	-10.4109
四明	-10.4109
定故	-10.4116
三法	-10.4118
無有是處	-10.4119
所依止	-10.4123
三有	-10.4126
勤策	-10.4126
三寶	-10.413
呪	-10.413
此諸	-10.4131
淨色	-10.4133
身語表	-10.4134
業生	-10.4134
彼是	-10.4137
不相應故	-10.4138
彼處	-10.4138
色香味觸	-10.4139
他化自在天	-10.414
見所斷法	-10.4153
麁惡語	-10.4157
便得	-10.4159
內身	-10.4162
無明緣行	-10.4163
立為根	-10.4163
為難	-10.4178
猛	-10.418
體相	-10.418
後得	-10.4182
瞋恚結	-10.4183
諸善法	-10.4184
空三摩地	-10.419
諸眾生	-10.419
適	-10.419
波羅	-10.4191
此與	-10.4195
使所使	-10.4208
何等為	-10.4209
餘殘	-10.4211
性者	-10.4212
歡	-10.4213
所覺	-10.4213
最上	-10.4219
二結	-10.422
如是說	-10.4222
是異熟	-10.4223
扼	-10.4225
四法	-10.4225
非根	-10.4233
以是	-10.4238
嚴	-10.4242
有體	-10.4248
一來	-10.4249
作論	-10.4251
四處	-10.4263
事者	-10.4268
處故	-10.4269
時即	-10.427
身形	-10.427
現前故	-10.4271
非過去	-10.4278
詰	-10.4279
成就現在	-10.4281
伹	-10.4282
圓德	-10.4285
正斷	-10.4296
計我	-10.4302
三十一	-10.4303
住異	-10.4306
除入	-10.432
婆沙一百	-10.4324
法師	-10.4329
無別體	-10.4331
無明漏	-10.4335
於上	-10.434
或不繫	-10.4345
違害	-10.4346
所覆	-10.4346
薩	-10.4349
那落迦	-10.435
設爾何失	-10.4351
揵度	-10.4354
如是一切	-10.4356
出息入息	-10.4357
欲邪行	-10.4358
後心	-10.4359
應如	-10.4359
有漏善	-10.4364
因生	-10.4369
彼時	-10.4369
如何可說	-10.4379
相應俱有	-10.438
諸趣	-10.4381
佛弟子	-10.4381
下劣	-10.4383
一因	-10.4383
八支	-10.4388
耽	-10.4394
界者	-10.4395
猶未	-10.4396
眾緣	-10.44
或善	-10.4405
欲界有	-10.4405
未有	-10.4408
角	-10.441
餘文可知	-10.4411
過去耶	-10.4414
昧	-10.4416
名等	-10.4416
關	-10.4417
入出	-10.4422
趣向	-10.4423
諸善	-10.4425
財物	-10.4436
五識相應	-10.4437
當知已說	-10.4437
故說名	-10.444
斷已	-10.4442
思慧	-10.4444
苦集滅道	-10.4448
初二靜慮	-10.4453
心數法	-10.4455
聲入	-10.4458
無色中	-10.4468
八解脫道	-10.4471
母胎	-10.4471
本性	-10.4471
是無為	-10.4481
可立	-10.4484
具三	-10.4489
故今	-10.4492
遮止	-10.4494
非諸	-10.4494
推度	-10.4495
陰界入攝	-10.4495
雖同	-10.4497
諸定	-10.4497
尚不	-10.45
除上爾所事	-10.4501
念覺意	-10.4505
有六種	-10.4505
諸智	-10.4506
多時	-10.4523
為障	-10.4524
東	-10.4527
復次彼	-10.4529
欣樂	-10.4531
問言	-10.4535
示現	-10.4537
餘心	-10.4538
欲界沒	-10.4539
大劫	-10.4542
苦因	-10.4542
十八界十二入五陰	-10.4545
未離色界貪	-10.4546
有支	-10.4547
得有	-10.4551
塗	-10.4555
諸論	-10.4555
法耶	-10.4556
故亦名	-10.4557
諸位	-10.4558
魚	-10.4558
更相	-10.4562
非由	-10.4564
羯磨	-10.4566
何為	-10.4566
離生喜樂	-10.4569
重擔	-10.457
造作增長	-10.457
彼執	-10.4573
所問	-10.4576
無表業	-10.4578
苦等	-10.4582
總結	-10.4585
心中	-10.4587
精勤	-10.4588
何所攝	-10.4602
本相	-10.4606
無差別故	-10.4608
於欲	-10.4608
第三定	-10.461
未說	-10.461
唯有一	-10.4615
所逼	-10.4616
十八界十二處五蘊攝	-10.4622
順解脫分	-10.4623
異說	-10.4625
出息	-10.4626
磨	-10.4626
心念住	-10.4628
為緣生	-10.4632
第一義	-10.4633
臨	-10.4633
分別論者	-10.4634
身口	-10.4637
是何耶	-10.4649
勝妙	-10.4651
異地	-10.4658
等覺支	-10.4659
有未來	-10.466
欲樂	-10.4668
現量	-10.4669
預流者	-10.4676
通三性	-10.4677
無量等	-10.4678
布	-10.4678
【	-10.4679
堪忍	-10.4679
入息	-10.468
極光淨	-10.468
苦果	-10.4693
乾	-10.4693
世第一	-10.4694
彼因	-10.4694
離間語	-10.4697
頃	-10.4698
不雜	-10.4699
有礙	-10.4699
及無漏	-10.4702
此亦非理	-10.4707
烟	-10.4708
如上說	-10.471
見到	-10.4711
為三	-10.4713
立根	-10.4714
曾無	-10.4714
所作因	-10.4719
三分	-10.4724
卵生	-10.4729
所隨增	-10.473
各三	-10.473
除前	-10.4736
從何	-10.4738
能與	-10.4739
諸聖者	-10.474
若爾何故	-10.4741
合成	-10.4743
身力	-10.4743
思惟斷因	-10.4744
是慧	-10.4745
今當	-10.4746
相依	-10.4746
寂滅	-10.4748
地獄中	-10.4748
現在法	-10.4754
問諸	-10.4762
為斷	-10.4765
分齊	-10.4767
貪著	-10.4769
廣說如	-10.4772
四者	-10.4772
畫	-10.4773
半月	-10.4775
耶答	-10.4783
觸入	-10.4784
聲處	-10.4787
地大	-10.4792
不害	-10.4794
數滅	-10.4801
不壞淨	-10.4804
能繫	-10.4808
不還者	-10.4809
障故	-10.481
與識	-10.4818
破戒	-10.4819
俱有法	-10.4822
落	-10.4824
得不律儀	-10.4825
法智品	-10.4831
勝德	-10.4831
吒	-10.4832
云何名	-10.4834
謂契經說	-10.4834
前已	-10.4834
有十八	-10.484
何得	-10.4841
虫	-10.4843
了義	-10.4843
能除	-10.4843
有能	-10.4848
善業道	-10.4854
心品	-10.4856
已滅不失	-10.4857
資具	-10.4859
一業	-10.4864
往來	-10.4867
欲使	-10.4869
何地	-10.4874
男子	-10.4877
勞	-10.4879
女身	-10.4881
七覺支	-10.4886
覺意	-10.4887
為大	-10.4893
行捨	-10.4898
有對觸	-10.4902
正命	-10.4904
以上	-10.4909
中唯	-10.491
傷	-10.4911
謝	-10.4912
無瞋	-10.4915
餘部	-10.4916
有差別者	-10.4917
星	-10.4917
非現在	-10.4918
唯有漏	-10.4918
太	-10.4919
熾盛	-10.4923
為其	-10.4925
三十四	-10.4925
所滅	-10.4926
邪行	-10.4928
己身	-10.4928
五事	-10.4933
左	-10.4933
因名	-10.4936
此即問也	-10.4937
非不善	-10.4944
滑	-10.4946
得戒	-10.4946
多名身	-10.4948
此依	-10.4949
於三	-10.4954
欲界繫有覆無記心	-10.4955
詮	-10.4957
所緣故	-10.4962
緣過去	-10.4965
業報	-10.4967
可解	-10.4969
修所斷結	-10.4973
述曰	-10.4976
及色界	-10.4979
優婆塞	-10.4985
諸異生	-10.4985
五通	-10.4992
評	-10.4993
識所識	-10.4998
諸有漏法	-10.5
經部師	-10.5002
四十	-10.5003
下中上	-10.5011
謂初	-10.5012
翻此	-10.5019
由二	-10.5023
實事	-10.5023
先有	-10.5026
緣三世	-10.5027
謂緣	-10.5027
欲界法	-10.503
所許	-10.5031
等方便	-10.5034
法類智	-10.504
樂根相應	-10.5041
微劣	-10.5042
若當	-10.5042
受果	-10.5065
此生	-10.5065
非苦	-10.5067
是一	-10.5071
藉	-10.5075
任運	-10.5076
非所	-10.5079
帝釋	-10.5085
敘異說	-10.5089
且初	-10.5096
不獲	-10.5104
滅界	-10.5106
思法	-10.5106
多種	-10.5109
解脫門	-10.5112
何等名為	-10.5114
得律儀	-10.5115
若諸	-10.5117
答依	-10.5119
污	-10.5121
便能	-10.5124
如是諸	-10.5125
是實	-10.5126
居士	-10.5126
有種種	-10.5136
唯善	-10.5138
不求	-10.5139
蟲	-10.5143
身量	-10.5144
投	-10.5144
緣識及緣緣識	-10.5153
要由	-10.5155
比量	-10.5157
相續轉	-10.5158
作如是念	-10.5158
我語取	-10.5165
皆非	-10.5171
廣果	-10.5171
獨名	-10.5174
於未來	-10.5175
所使	-10.5179
二門	-10.5179
滅法智	-10.5181
師云	-10.5181
有欲	-10.5184
厭背	-10.5186
已失	-10.5193
取結	-10.5197
不能生	-10.5198
析	-10.5202
忘失	-10.5204
漸增	-10.5207
一切隨眠	-10.5212
即說	-10.5217
呼	-10.5217
狗	-10.5218
通依	-10.5221
智果	-10.5224
四念處	-10.5224
為根	-10.5227
能行	-10.5231
界中	-10.5232
謂先	-10.5234
意故	-10.5235
女男	-10.5237
自宗	-10.5238
長短	-10.524
與樂	-10.5244
彼相應	-10.5249
能伏	-10.5251
十五心	-10.5252
者正理云	-10.5255
若欲	-10.5261
盡壽	-10.5265
互為因	-10.5268
品類足論	-10.5271
得一	-10.5272
人間	-10.5276
四方	-10.528
跋	-10.5281
勝進道	-10.5282
惛	-10.5292
非蘊攝	-10.5293
非所緣	-10.5297
此緣	-10.5303
所緣者	-10.5306
不現前	-10.5307
尋思	-10.5312
云何無學	-10.5319
何故作此論	-10.5324
不應理	-10.5328
緣未來	-10.5332
壽行	-10.5336
世俗正見	-10.5349
三十	-10.5349
隨意	-10.535
三見	-10.5352
修道中	-10.5355
現觀邊	-10.5358
歎	-10.5359
已顯	-10.536
有想無想	-10.5361
不現行	-10.5361
等中	-10.5363
腹	-10.5363
識依	-10.5363
停	-10.5366
空行	-10.5366
一句	-10.5367
謂餘	-10.5368
籌	-10.5375
閉	-10.5376
億	-10.5378
執為	-10.538
便於	-10.5383
蜜	-10.5384
汝今	-10.5388
見斷因	-10.5389
謂諸有情	-10.5392
納息	-10.5394
墮惡趣	-10.5401
三和	-10.5402
不可意	-10.5406
助伴	-10.5406
歷	-10.5407
有貪	-10.5407
九十八隨眠	-10.5408
是因緣	-10.5409
皆同	-10.5415
心意識	-10.5419
世尊為	-10.5421
有想	-10.5422
佛所說	-10.5425
無癡善根	-10.5431
亦為	-10.544
非智	-10.5441
殺等	-10.5443
四食	-10.5444
三惡行	-10.5445
見惑	-10.5448
入聖道	-10.545
不須	-10.5454
能成	-10.5455
先所	-10.5459
以慧	-10.546
能斷善根	-10.5461
一智	-10.5468
已捨	-10.5472
任持	-10.5474
若行	-10.5481
留難	-10.5481
前因	-10.5485
餘經	-10.5486
黠	-10.5489
獄	-10.549
大善地法	-10.549
有漏者	-10.5492
變礙	-10.5493
煩惱障	-10.5497
差別相	-10.5501
智耶	-10.5502
重說	-10.5503
獨立	-10.5504
還得	-10.5509
唯欲界	-10.5511
因力	-10.5514
有多種	-10.5515
二類	-10.5517
改	-10.5528
得得	-10.5534
自分	-10.5534
未來耶	-10.5536
北洲	-10.554
如是類	-10.5542
此善根	-10.5542
因緣故	-10.5547
身觸	-10.5549
如本	-10.5551
即緣	-10.5552
出現	-10.5553
遮罪	-10.5556
所成就	-10.5556
古	-10.5557
前七	-10.5561
方有	-10.5564
禁	-10.5565
無果	-10.5566
能顯	-10.5569
何故但說	-10.557
成佛	-10.5581
二通	-10.5582
成一	-10.5588
越界	-10.5589
三三摩地	-10.5589
羞	-10.559
意趣	-10.5591
神境	-10.5598
飛	-10.5602
濟	-10.5603
機	-10.5604
諦理	-10.5607
有分	-10.5607
復云何	-10.5609
則說	-10.5609
佛出世	-10.5609
不越	-10.561
彼天	-10.561
油	-10.5611
申	-10.5617
如文可知	-10.5618
折	-10.5626
五受	-10.5627
復云何通	-10.5627
胎生	-10.5629
此中有	-10.5636
成就過去未來	-10.5637
但應	-10.5638
諸使	-10.5643
正語	-10.5651
犯重	-10.5654
此上	-10.566
因等起	-10.5662
八勝處	-10.567
不亂	-10.5678
三善根	-10.5683
果實	-10.5685
別解	-10.5685
一根	-10.5685
四定	-10.5688
示導	-10.5692
消	-10.5693
莖	-10.5697
知足	-10.5697
蘇	-10.5699
此亦不然	-10.5699
見聞	-10.57
無有愛	-10.5703
亦捨	-10.5706
有何義	-10.5707
青色	-10.5708
道斷	-10.5711
二字	-10.5712
如實知見	-10.5716
別義	-10.5725
無實	-10.5725
起煩惱	-10.5727
諸世間	-10.5732
深生	-10.5734
先時	-10.5734
隨所應	-10.5738
故論云	-10.5739
為增上	-10.5741
於義	-10.5741
能詮	-10.5745
第九解脫道	-10.5747
一百	-10.575
明利	-10.575
有言	-10.5758
有漏心	-10.576
端	-10.5763
非識識	-10.5764
俱得	-10.5764
若已	-10.5768
文中	-10.577
彌	-10.5773
蘊處界	-10.5773
議	-10.5773
轉輪聖王	-10.5775
不能起	-10.5778
中除	-10.5779
應分別	-10.578
大德說曰	-10.5782
涉	-10.5782
應更	-10.5782
總而言之	-10.5785
各一	-10.5788
於心	-10.5789
十一種	-10.5791
厭捨	-10.5794
見滅道所斷	-10.5794
無倒	-10.5795
時有	-10.5798
思所成	-10.5798
菩提分法	-10.5799
有十二	-10.58
一身	-10.5805
十七界	-10.5809
積聚	-10.5809
正解脫	-10.581
非修	-10.5816
濕生	-10.5819
處少分	-10.582
死後	-10.5821
此相	-10.5822
異門	-10.5826
何差別	-10.5828
憂苦	-10.5828
惡心	-10.5831
第二定	-10.5835
及遍行隨眠隨增	-10.5836
住果	-10.5838
三災	-10.5839
為得	-10.5844
護根	-10.5844
步	-10.5846
經云	-10.5851
或可	-10.5852
不名為	-10.5853
生緣	-10.5854
及欲界	-10.5856
必依	-10.5856
退墮	-10.5856
七處善	-10.5858
大小	-10.5864
應思	-10.5865
一部	-10.5867
事中	-10.5869
亦從	-10.5872
謂意	-10.5873
或執	-10.5873
歸趣	-10.5882
皆成就	-10.5882
現法樂	-10.5884
便為	-10.5885
五法	-10.5885
者則	-10.589
增語觸	-10.5891
正明	-10.5892
異者	-10.5893
分為	-10.5895
巧便	-10.5896
斷欲	-10.5901
於爾時	-10.5901
鼻舌	-10.5903
智證通	-10.5905
集法智	-10.5906
多法	-10.5909
第二師	-10.5913
血	-10.5913
由此因緣	-10.5916
承	-10.5922
不別	-10.5926
噉	-10.5927
不至	-10.593
斷彼	-10.593
是真	-10.5932
所聞	-10.5934
學見迹若阿羅漢	-10.5935
破云	-10.5937
戰	-10.5942
隨觀	-10.5943
諸識	-10.5945
五心	-10.5945
第九品	-10.5946
於三界	-10.5948
三和合	-10.5949
呵責	-10.5953
大煩惱地法	-10.5958
乃至廣作四句	-10.5961
欲界繫無覆無記心	-10.5961
若法非	-10.5968
亦依	-10.597
無定	-10.5971
梵福	-10.5972
樂故	-10.5973
或成就	-10.5981
不應作是說	-10.5984
異學	-10.5985
信等五	-10.5986
若色	-10.599
一間	-10.5992
惡見	-10.5996
二受	-10.5997
謂無記	-10.6
移	-10.6
二說	-10.6001
聖慧	-10.6001
四識住	-10.6002
別異	-10.6004
文句	-10.6005
根本靜慮	-10.6008
下界	-10.6008
乖	-10.601
緣境	-10.601
或名	-10.6017
為何等	-10.6017
無願三昧	-10.6019
州	-10.6019
乃至有頂	-10.6024
中夭	-10.6024
滅類智	-10.6025
知法	-10.6029
苦苦	-10.6035
設許	-10.6038
釋頌本	-10.6041
近對治	-10.6041
阿毘曇毘婆沙論	-10.6043
佛法僧	-10.6045
或復有執	-10.6046
有情類	-10.6051
三妙行	-10.606
不隨增	-10.6063
不造	-10.6065
在彼	-10.6068
想陰	-10.6074
下分	-10.6077
得勝	-10.6078
外物	-10.6083
智知	-10.6084
滅作證	-10.6097
澁	-10.6097
厚	-10.6097
天處	-10.6098
如是比丘	-10.6098
朋	-10.6098
擔	-10.61
此中所說	-10.6101
善品	-10.6103
所依大種	-10.6104
大種造	-10.6105
闍	-10.6107
十法	-10.6107
能於	-10.6108
自業	-10.6108
無根	-10.6109
耽著	-10.611
成熟	-10.6112
但以	-10.6113
學見迹阿羅漢	-10.6113
損益	-10.6115
尊者眾賢造三藏法師玄奘奉詔譯	-10.6118
信勝解練根作見至	-10.6118
業所引	-10.6118
有邊	-10.6119
境中	-10.6124
若未得	-10.6125
本無	-10.6128
如前應知	-10.6135
經義	-10.6135
煩惱斷	-10.6137
知他心智	-10.6137
不久	-10.6138
未來八	-10.6151
唯無漏	-10.6155
豈非	-10.6165
曾見	-10.6167
蘊中	-10.6169
云何知	-10.6171
彼不應作是說	-10.6171
非智知	-10.6172
有力	-10.6174
互為果	-10.6176
青等	-10.6178
第二明	-10.618
非想非非想	-10.6182
是所	-10.6182
哉	-10.6183
舍利弗	-10.6187
荷	-10.6188
提婆達多	-10.6194
三由	-10.62
諸苾芻	-10.6201
五行	-10.6207
聞所成	-10.6212
已正當	-10.6213
一切有	-10.6216
極遠	-10.6217
不能斷	-10.6218
不自	-10.622
二句	-10.6222
行道	-10.6223
相攝	-10.6225
四事	-10.6228
色界中有	-10.6235
若成就過去法智	-10.6238
聖言	-10.6239
以一	-10.6241
意惡行	-10.6242
准知	-10.6243
嗅	-10.6244
九十	-10.6245
過故	-10.6245
意識法	-10.6246
展轉為因	-10.6246
已去	-10.6247
察	-10.6249
此八	-10.6251
或因	-10.6253
諸大種	-10.6257
正起	-10.626
貴	-10.6265
色聲	-10.6266
為能作因	-10.6267
聞已	-10.6268
於道	-10.627
或執為	-10.6274
眼等根	-10.6275
彼岸	-10.6276
釋初句	-10.6278
是義不然	-10.6282
道者	-10.6287
不俱	-10.6292
九十八	-10.6293
人所	-10.6295
命終時	-10.6299
所相	-10.6303
齊此	-10.6303
得二	-10.6306
彼界	-10.631
相生	-10.6312
奉	-10.6319
無漏初靜慮	-10.6325
生識	-10.6325
所害	-10.633
忘	-10.6331
謂諸異生	-10.6335
前位	-10.6338
善士	-10.6342
而行	-10.6345
浮	-10.6347
一蘊	-10.6348
現身	-10.6349
咸	-10.6354
險	-10.6355
無處所	-10.6356
隨信隨法行	-10.6357
負	-10.6359
謂色界	-10.6363
知彼	-10.6366
若觀	-10.6366
設有而失	-10.6368
堪	-10.6369
見已	-10.637
巧	-10.6372
增語	-10.6375
云何知然	-10.6376
難云	-10.6378
根相應	-10.6387
如何說	-10.6388
四聖種	-10.6388
由業	-10.6388
初果	-10.639
未來三	-10.6397
今得	-10.6398
餘界	-10.6399
如理應思	-10.6404
彼依	-10.6404
大眾部	-10.6404
斷壞	-10.6405
無事	-10.6408
有漏行	-10.6411
如色	-10.6414
多生	-10.6416
所依故	-10.6421
利根者	-10.6425
生老死	-10.6428
恒有	-10.6428
頓斷	-10.6429
欲界善心	-10.6431
身等	-10.6434
策	-10.6436
拘	-10.6436
實我	-10.6437
我是	-10.6437
無染	-10.6441
無色界繫善心	-10.6441
隨欲	-10.6442
離貪	-10.6442
覩	-10.6444
繁	-10.6445
受念住	-10.6448
三摩提	-10.6449
已後	-10.6452
論主答	-10.6453
最後解脫道	-10.6461
令生	-10.6463
其餘	-10.6463
皆由	-10.6465
無貪善根	-10.6466
不障	-10.6466
體也	-10.6466
證滅	-10.6471
惡法	-10.6471
十業道	-10.6473
由先	-10.6479
彼過去	-10.6481
佛言	-10.6483
是事	-10.6484
樂等	-10.6485
遊戲	-10.6491
無體	-10.6493
空中	-10.6495
便違	-10.6495
若入	-10.6502
此間	-10.6507
欲取	-10.6507
定不成就	-10.6509
欲界見苦所斷	-10.6509
誤	-10.6511
謂我	-10.6513
應當知	-10.6516
先得	-10.6516
煗	-10.6518
境界故	-10.6521
善性	-10.6524
剎那滅	-10.6527
此果	-10.6529
通行	-10.653
應生	-10.6531
船	-10.6532
准此論文	-10.6536
緣一切法	-10.6537
住分	-10.6538
三句	-10.6539
名見	-10.654
時彼	-10.6541
得色界善心	-10.6546
無疑	-10.6548
又言	-10.6551
為對治	-10.6552
修行者	-10.6554
諸根因	-10.6557
正性	-10.6557
而不能	-10.6558
身語二業	-10.6558
若餘法	-10.6559
諸瑜伽師	-10.6559
麥	-10.656
捨根相應	-10.656
已離欲	-10.6565
非道	-10.6565
顯現	-10.6567
「	-10.6568
所施	-10.6576
此經中	-10.6579
無明觸	-10.6579
上中下	-10.658
遠故	-10.6581
四因	-10.6587
體類	-10.6588
問何	-10.66
道類智時	-10.6602
上生	-10.6606
亦知	-10.6606
何理	-10.6608
床	-10.6609
緣無漏	-10.661
苑	-10.661
思等	-10.661
於餘處	-10.6614
及彼相應	-10.6614
諸欲	-10.6615
是故世尊	-10.6618
愛取	-10.6621
世間第一法	-10.6623
體雖	-10.6632
四地	-10.6634
眾具	-10.6638
尊者阿難	-10.664
七有	-10.6644
心頃	-10.6646
亦應然	-10.6647
苦集智	-10.6651
善者	-10.6652
在過去	-10.6652
既爾	-10.6655
中般涅槃	-10.6661
處界	-10.6668
經部宗	-10.6671
支節	-10.6672
得遍知時	-10.6677
世人	-10.6682
不自在	-10.6682
苦諦所斷	-10.6689
某	-10.6694
色生	-10.6696
十二心	-10.6698
想心	-10.6698
不忍	-10.67
此之	-10.67
寺	-10.67
夢中	-10.6701
知有	-10.6701
力能	-10.6702
勇	-10.6704
含	-10.6706
餘八	-10.6707
六境	-10.6709
七心界	-10.6709
所作已辦	-10.6711
實無	-10.6712
無始來	-10.6718
尊者世友作如是說	-10.672
表無表	-10.6721
方生	-10.6721
有法非	-10.6725
聖語	-10.6744
先已	-10.6747
或生	-10.6752
初二解脫	-10.6755
然有	-10.676
苦惱	-10.676
通五部	-10.6763
所除	-10.6765
心與	-10.6766
所染	-10.6767
說能為緣	-10.6767
下下品	-10.6768
如佛	-10.6768
報生	-10.6769
述曰此下	-10.6776
恥	-10.6783
下文	-10.6785
彼道	-10.6792
是學	-10.6792
接	-10.6793
瘡	-10.6795
敵	-10.6796
鄙	-10.6796
前念	-10.6798
人壽	-10.68
鄔波索迦	-10.68
隨應現修	-10.6803
心轉	-10.6804
於識	-10.6806
邊際定	-10.6806
欲有	-10.6807
離欲界	-10.6808
力強	-10.681
不受後有	-10.681
退故	-10.6811
不可言	-10.6813
義中	-10.6816
根境	-10.6819
新云	-10.6822
不令	-10.6827
已見	-10.6827
色時	-10.6831
染汙	-10.6836
永滅	-10.6842
多人	-10.6844
彼果	-10.6845
有實	-10.6847
三心	-10.6849
使使	-10.6858
無色界繫法	-10.6864
合為	-10.6865
於二	-10.6866
因見苦斷	-10.6866
心便	-10.6867
無知他人心智	-10.6868
業有	-10.687
欲界繫法	-10.6878
仁	-10.6879
放	-10.688
一相續	-10.6881
有事	-10.6881
所識	-10.6881
觀行者	-10.6883
五者	-10.6889
生上地	-10.6891
射	-10.6895
制伏	-10.6896
定力	-10.6898
近事律儀	-10.6898
前八	-10.6898
欲界中有	-10.6903
亦許	-10.6905
二眼	-10.6905
亦不能	-10.6905
所緣縛	-10.6911
得預流果	-10.6912
通有漏無漏	-10.6915
不忘	-10.6916
俱無	-10.6924
諸得俱起	-10.6925
名得	-10.6925
說一切	-10.6926
無色法	-10.6927
便成	-10.6929
鈍根者	-10.6932
有常	-10.6933
解釋	-10.694
成滿	-10.694
手足	-10.6941
一剎那頃	-10.6944
能斷煩惱	-10.6946
次第者	-10.6949
更生	-10.6953
四神足	-10.6957
依第四靜慮	-10.6958
衰損	-10.6962
恐怖	-10.6969
拏	-10.6971
或應	-10.6973
有記	-10.6974
起已	-10.6974
唯受	-10.6975
御	-10.6977
見盡斷	-10.698
一色	-10.6983
所食	-10.6985
解脫心	-10.6985
宿命	-10.6986
彼心與	-10.699
不動心解脫	-10.6991
行滅	-10.6992
一諦	-10.6992
識緣	-10.6996
此境	-10.6999
離欲惡不善法	-10.7
方便道	-10.7
展轉相望	-10.7003
住相	-10.7004
不可轉	-10.701
盡無生	-10.7014
他部	-10.7015
道比智	-10.7016
或不	-10.7017
婬欲	-10.7019
非顛倒	-10.7022
非所緣故隨增非相應故	-10.7023
現在前故	-10.7023
能盡	-10.7024
國王	-10.7031
當斷	-10.7035
或起	-10.7038
若與	-10.704
非異	-10.7044
淨居天	-10.7044
異此	-10.7045
貪故	-10.7046
釋第二句	-10.7046
畢竟無	-10.7052
所趣	-10.7057
內心	-10.7059
第二句者	-10.706
依緣	-10.7061
遍緣	-10.7062
緣有漏	-10.7064
教化	-10.7065
識等	-10.7066
婆娑	-10.7067
屈	-10.7068
身惡行	-10.7069
出定心	-10.7069
佛不	-10.7069
善戒	-10.7071
又應	-10.7072
不聞	-10.7072
迦葉	-10.7073
如眼	-10.7075
佛所	-10.7077
慈悲	-10.7077
訛也	-10.7078
如是如是	-10.708
不願	-10.7082
等流性	-10.7086
長夜	-10.7087
或欲界繫	-10.7091
正見相應	-10.7093
無心位	-10.7094
攝益	-10.7099
有功能	-10.7101
定生	-10.7103
此執	-10.7103
無間起	-10.7103
不覺	-10.7104
想蘊	-10.7111
色聲香味觸	-10.7112
餘師	-10.7118
力所引	-10.7123
滅作證時	-10.7125
成就過去法智	-10.7127
得聖	-10.7131
相攝者	-10.7133
有其	-10.7133
與心相應	-10.7134
見諦所斷	-10.7135
彼相應法	-10.7138
出世間	-10.7139
纏退時	-10.7139
但於	-10.7143
想等	-10.7145
執有	-10.7149
隨身	-10.7149
知苦	-10.7154
未來有	-10.7155
邏	-10.7155
為初	-10.7156
識生	-10.7156
執取	-10.7156
應以	-10.7156
言詞	-10.7157
三相	-10.7157
無漏行	-10.7161
有二十	-10.7164
戒禁	-10.7166
正義	-10.7166
相離	-10.7168
三根相應	-10.7169
富貴	-10.7169
應當	-10.7171
答若已滅不失則成就	-10.7171
性類	-10.7172
風輪	-10.7174
要期	-10.7174
起下	-10.7176
作是語	-10.7176
彼滅已不失	-10.7177
我生已盡	-10.7181
趣涅槃	-10.7183
識所緣	-10.7184
其性	-10.7191
第二剎那	-10.7197
故婆沙云	-10.7201
正觀	-10.7205
成時	-10.7206
三三昧	-10.7208
大梵王	-10.7211
數法	-10.7212
答應作是說	-10.7213
十二種	-10.7216
無間等	-10.7216
住時	-10.7217
天子	-10.7218
牽引	-10.7219
疑惑	-10.7226
不遮	-10.723
二品	-10.7231
解了	-10.7232
義無礙解	-10.7232
發業	-10.7237
無罪	-10.7237
喜根相應	-10.7238
天神	-10.7239
一晝夜	-10.7241
兒	-10.7242
十力	-10.7243
滅道智	-10.7246
造惡	-10.7248
壞故	-10.725
在此	-10.7253
毘鉢舍那	-10.7253
意思惟相應	-10.7254
所作事	-10.7255
作緣	-10.7257
作惡	-10.7259
索	-10.7259
何以故說	-10.726
虗空	-10.726
作是思惟	-10.7262
不解	-10.7264
想異	-10.7265
利他	-10.7265
二三四	-10.7265
因也	-10.7266
於何處	-10.7268
內無色想	-10.7269
無漏識	-10.7269
心相續	-10.727
永離	-10.7273
如經說	-10.7276
則不應言	-10.7278
順上分結	-10.7284
無此	-10.7287
隨其	-10.729
生老病死	-10.7291
後果	-10.7291
無漏故	-10.7292
一識	-10.7293
有漏慧	-10.7296
由前	-10.7302
誰不成就	-10.7302
非見斷非思惟斷因	-10.7305
非食	-10.7307
順下分結	-10.731
假有	-10.7311
順受	-10.7312
便捨	-10.7313
易了	-10.7315
此不應理	-10.7322
捨故	-10.7322
從欲界	-10.7325
如一	-10.7328
若不成就	-10.7334
頌文	-10.7334
斷知	-10.7334
見非見處	-10.7339
反詰	-10.7341
教誡	-10.7344
於四	-10.7344
或有說	-10.7344
吠	-10.7345
狹小	-10.7347
樂欲	-10.7349
第四句者	-10.7349
網	-10.735
貪欲蓋	-10.7354
一切結	-10.7355
出觀	-10.7356
復起	-10.7358
三無數劫	-10.7359
衣等	-10.7361
身異	-10.7365
復生	-10.7366
卷第五	-10.7369
有是處	-10.7369
由旬	-10.737
寂默	-10.737
相觸	-10.7376
大王	-10.7377
盡漏	-10.7379
壞時	-10.738
以明	-10.7383
轉成	-10.739
殺害	-10.7396
樂住	-10.7405
此於	-10.7405
以故爾	-10.7409
無一	-10.741
相別	-10.7411
答應言	-10.7414
善慧	-10.7414
法蘊	-10.7415
有德	-10.7416
定業	-10.7418
不正	-10.7423
施者	-10.7423
難得	-10.7424
三漏	-10.7426
見所斷惑	-10.7427
相似法	-10.7427
下兩句	-10.743
緣三種	-10.7435
彼所緣	-10.7435
二支	-10.7435
旨	-10.7435
已離欲界貪	-10.7436
不過	-10.7438
攝一切	-10.744
得非得	-10.7441
陀羅	-10.7442
出離依	-10.7443
何別	-10.7445
八支聖道	-10.745
默然	-10.7451
災患	-10.7452
此契經	-10.7452
八界	-10.7454
一極微	-10.7461
發聲	-10.7463
謂能	-10.7468
諸心所法	-10.747
增上者如前說	-10.7472
增上緣故	-10.7473
器世間	-10.7474
精	-10.7476
此想	-10.7477
或取	-10.7479
不能修	-10.748
不平等	-10.7485
有餘師說至	-10.7486
此何所	-10.7487
二千	-10.749
不寂靜	-10.7492
未至中間	-10.7492
於後時	-10.7493
亦容	-10.7493
能正	-10.7495
入聖	-10.7496
何相	-10.7498
皆為	-10.7498
於中有	-10.7504
此六	-10.7506
反難	-10.7509
如其	-10.7512
本論說	-10.7513
或應說	-10.7513
此所說	-10.7515
立一	-10.7516
不死	-10.7516
根故	-10.7516
無解脫	-10.753
與一切	-10.7532
無漏得	-10.7533
訖	-10.7533
受心	-10.7536
於有情	-10.754
降伏	-10.7541
有染	-10.7542
釋迦	-10.7542
滅盡三昧	-10.7542
諸受	-10.7545
果耶	-10.7549
近遠	-10.7552
欲生	-10.756
怨家	-10.7561
計度	-10.7564
具四	-10.7564
復有二種	-10.7565
彼滅	-10.7567
云何學	-10.7567
何法名	-10.7568
所宗	-10.7577
共業	-10.7583
處說	-10.7583
諸根大種	-10.7584
貪嗔	-10.7585
貪瞋慢	-10.7587
生愛	-10.759
為樂	-10.7591
由三	-10.7592
四業	-10.7592
相應不相應	-10.7592
方可	-10.7593
出體	-10.7598
定不定	-10.76
惡業道	-10.7601
得滅盡定	-10.7604
聞聲	-10.7608
當辯	-10.7608
色受想行識	-10.7609
自有	-10.7611
於其	-10.7613
通三世	-10.7614
能入	-10.7615
有一類	-10.7615
相續緣	-10.7616
謂無學	-10.7618
以無漏道	-10.7619
心一境性	-10.7619
遍淨天	-10.7623
名義	-10.7624
愛恚	-10.7625
怛	-10.7626
無病	-10.7627
一頌	-10.763
不墮惡趣	-10.763
世尊所說	-10.7633
愁	-10.7635
不定業	-10.7638
迦濕彌羅國	-10.7641
一切遍因	-10.7642
未斷未遍知	-10.7643
樂想	-10.7645
善處	-10.7645
眼觸所生受	-10.7645
得須陀洹果	-10.7648
見道位	-10.7649
自說	-10.7649
果生	-10.7652
即成	-10.7656
慧力	-10.7658
多故	-10.7659
餘趣	-10.7668
緒	-10.7671
則不爾	-10.7674
此二法	-10.7677
無二結繫	-10.7678
如理作意	-10.7678
生般	-10.7679
十處	-10.7682
住律儀	-10.7683
十歲	-10.7683
且據	-10.7683
忍位	-10.7683
起貪	-10.769
是無明	-10.769
一是	-10.7692
無用故	-10.7697
及根	-10.7705
契經言	-10.7707
是第二	-10.7708
即應	-10.7709
第三句者	-10.7709
四取	-10.7711
謂學	-10.7713
不清淨	-10.7713
前師	-10.7714
安布	-10.7717
則不成就	-10.7718
苦滅	-10.7721
齒	-10.7725
隙	-10.7726
合說	-10.7729
乞	-10.7729
入定心	-10.7731
緣自	-10.7731
遮遣	-10.7735
習諦	-10.7736
謂身	-10.7737
四識	-10.7739
所觀	-10.774
故無有失	-10.7743
不增	-10.7745
緣下	-10.7745
摽	-10.7746
期	-10.7747
各自	-10.7747
見處	-10.7747
離非想非非想處染	-10.775
得滅定	-10.775
以何為	-10.775
應立	-10.7752
無間緣	-10.7758
無記性	-10.7759
難言	-10.7759
彼二	-10.7759
如理所引	-10.776
第二釋	-10.7761
學無學非學非無學	-10.7764
然此不	-10.7766
彼於此	-10.7768
昧劣	-10.777
如言	-10.777
淨定	-10.7771
又非	-10.7773
如水	-10.7777
無色界中	-10.7778
於善	-10.7781
其事云何	-10.7781
總標	-10.7783
無明隨眠	-10.7784
謂過去	-10.7784
是謂非	-10.7793
有爾所	-10.7804
彼類	-10.7808
以欲界	-10.7812
所欲	-10.7813
此頌	-10.7813
造論	-10.7815
徒	-10.7825
充	-10.7826
無愛	-10.7826
云何成就	-10.7827
五欲	-10.7828
均	-10.7833
外人	-10.7834
如有一類	-10.7835
佉	-10.7835
算	-10.7836
丈夫	-10.7836
捨離	-10.7837
邪語	-10.7842
心狂	-10.7843
緣闕	-10.7844
亦無有失	-10.7845
先觀	-10.7846
發戒	-10.7849
思業	-10.7851
勇猛	-10.7852
今欲	-10.7853
得成就	-10.7853
師釋	-10.786
思量	-10.7865
巳上	-10.7866
沒生	-10.7872
三無為	-10.7874
作方便	-10.7875
問佛	-10.7875
唯不善	-10.7877
阿毘達磨藏	-10.7881
解脫得	-10.7888
同處	-10.789
彼盡	-10.7892
故說名為	-10.7895
正生	-10.7896
非有情數	-10.7897
順下分	-10.79
退住	-10.7901
加行故	-10.7902
不隱沒無記色	-10.7905
有過	-10.7908
勝利	-10.7913
必生	-10.7917
不墮	-10.7919
不在	-10.7919
餘一切	-10.792
希有	-10.792
降	-10.7923
截	-10.7927
聲說	-10.7928
見滅所斷邪見	-10.793
柔軟	-10.793
稍	-10.7931
非見斷非思惟斷	-10.7931
於現	-10.7932
此二種	-10.7937
即由	-10.7938
高舉	-10.7939
呵	-10.7939
可樂	-10.7941
一切有漏	-10.7941
五明	-10.7941
之心	-10.7942
不如	-10.7946
既是	-10.7946
能觀	-10.7946
修練根	-10.7947
不同分	-10.7947
等相	-10.7948
三時	-10.7949
比丘思惟法生	-10.795
是實有	-10.7954
薩迦耶見	-10.7954
斷一切	-10.7957
二三	-10.7962
聚義	-10.7962
增者	-10.7968
假想	-10.7973
是心	-10.7977
謂法智	-10.7978
高下	-10.7978
八道支	-10.7979
欲愛未盡	-10.7985
身念處	-10.7988
於內	-10.7989
水界	-10.7994
多剎那	-10.7995
是勝義	-10.7996
不正知	-10.7996
無漏定	-10.7997
爾時世尊	-10.8001
地故	-10.8006
理教	-10.801
斫	-10.801
而為	-10.8014
九處	-10.8017
欲知	-10.8018
作事	-10.8018
靜慮律儀	-10.802
後世	-10.8025
未來無	-10.8026
堂	-10.8026
一一皆	-10.8027
我有	-10.8032
三歸	-10.8033
元	-10.8034
生初禪	-10.8036
可生	-10.8039
奢摩他	-10.8039
一切心	-10.804
不應作	-10.8045
在三界	-10.8045
無他心智	-10.8048
可然	-10.8051
有身	-10.8052
創	-10.8053
福德	-10.8053
除此	-10.8055
有身見邊執見	-10.8058
境界有對	-10.8066
空無願	-10.8067
生在	-10.807
樂淨	-10.807
六觸	-10.8072
於四聖諦	-10.8074
非無記	-10.8074
亦起	-10.8083
三惡趣	-10.8083
餘因	-10.8083
二云	-10.8084
亂心	-10.8086
七句	-10.8086
分中	-10.809
道力	-10.8092
其身	-10.8092
在於	-10.8094
為二	-10.8096
於人	-10.8101
上得	-10.8103
不一切遍	-10.8104
勝定	-10.8105
離一切	-10.8106
如法	-10.811
自力	-10.8116
屍	-10.8121
唯佛	-10.8121
之處	-10.8122
此色	-10.8122
斷欲界	-10.8123
違經	-10.8123
自作	-10.8129
伎	-10.813
而現在前	-10.8132
無色有	-10.8133
若有因	-10.8134
蛇	-10.8136
毘婆沙師說	-10.814
何故世尊	-10.8143
本質	-10.8144
乃至第四靜慮	-10.8144
復次欲界	-10.8146
不息	-10.8147
初說	-10.8148
觀諦	-10.815
所求	-10.815
畜	-10.8152
愚夫	-10.8159
色無為心不相應行	-10.816
天眼耳	-10.8161
已解脫	-10.8162
已斷故	-10.8165
所以今當說	-10.8165
如前已說	-10.8167
復有何	-10.8172
共生	-10.8174
無量無邊	-10.8182
不立為	-10.8184
所說當云何通	-10.8185
盡是	-10.8187
背捨	-10.8187
識食	-10.8189
流至	-10.819
未已生	-10.8191
五果	-10.8191
如是相	-10.8191
時解脫阿羅漢	-10.8192
起欲界	-10.8193
可轉	-10.8193
觀見	-10.8193
非人	-10.8197
身口意	-10.8197
非遍	-10.8198
雖說	-10.8198
彼便	-10.8203
樂痛	-10.8203
定慧	-10.8204
十界	-10.8204
加行位	-10.8204
云何無記	-10.8207
可得故	-10.8209
之義	-10.8211
二名	-10.8226
勝解作意	-10.8226
敷	-10.8227
仰	-10.8231
如先	-10.8232
此亦應爾	-10.8233
即無	-10.8233
於過去	-10.8234
餘智	-10.8235
急	-10.8235
先後	-10.8235
結中	-10.8236
不繫法	-10.8237
逮	-10.8238
不明了	-10.8241
暗	-10.8242
念慧	-10.8244
乞食	-10.8245
苦類智已生	-10.8245
餘方	-10.8247
有取	-10.8249
三生	-10.8252
此難不然	-10.8253
等業	-10.8253
退果	-10.8254
若我	-10.8256
總明	-10.8257
金輪	-10.8263
句身	-10.8264
觀身	-10.8266
佛契經說	-10.8268
心現在前	-10.8269
滅相	-10.8269
究竟故	-10.8269
親近多修學	-10.827
四無色定	-10.8271
次後	-10.8274
毗	-10.8276
三靜慮	-10.8279
若識	-10.8281
略有二種	-10.8281
評家	-10.8282
愛敬	-10.8283
在現在	-10.8286
等物	-10.8287
於世	-10.8289
我為	-10.829
心無	-10.8294
得六	-10.8297
我體	-10.8298
增進	-10.8299
此品	-10.8304
宣	-10.8305
及無為	-10.8319
第二念	-10.8327
肘	-10.833
善思	-10.8333
羯	-10.8334
謂自	-10.8335
經部答	-10.8336
趣中	-10.8337
得擇滅	-10.8338
得道	-10.8341
了達	-10.8342
鹽	-10.8342
言為顯	-10.8342
堪任	-10.8343
方起	-10.8343
集聖諦	-10.8346
漏盡通	-10.8346
無相三昧	-10.8346
健	-10.8349
道未知智	-10.8349
一支	-10.8352
快樂	-10.8353
梵行已立	-10.8354
邪婬	-10.8354
理成	-10.8355
神變	-10.8356
未得世俗智現在前	-10.8356
犍度	-10.8356
如何可言	-10.8357
師子	-10.8368
鬪	-10.8371
毘婆闍婆提	-10.8375
修多羅	-10.8376
無我行	-10.8376
汝宗	-10.8379
依無色定	-10.8381
能續	-10.8386
故不別說	-10.8387
由有	-10.8394
或色界繫	-10.8394
若比丘	-10.8394
色耶	-10.8394
業障	-10.8396
六心	-10.8399
得罪	-10.8399
於此義中	-10.8403
無色界無	-10.8407
廣說亦爾	-10.8409
如上所說	-10.841
一眼	-10.8412
中生	-10.8417
根義	-10.8418
稻	-10.8427
下一頌	-10.8428
無明等	-10.8437
無色貪	-10.8437
毛孔	-10.8437
僧破	-10.8437
侍	-10.8438
夏	-10.8439
諸靜慮	-10.8443
日夜	-10.8446
謂己	-10.8446
侵	-10.8448
於理	-10.845
非斷	-10.845
緣無色界繫	-10.845
矯	-10.845
陸	-10.845
是謂成就	-10.8452
可為	-10.8452
未熟	-10.8455
矣	-10.8456
復以	-10.8458
由根	-10.8459
還滅	-10.8463
先已說	-10.8464
鬼趣	-10.8466
同地	-10.8466
生老住無常	-10.8468
毘柰耶	-10.8469
善說	-10.847
眾中	-10.8471
既許	-10.8474
緣法	-10.8474
象馬	-10.8477
廣說四句	-10.8477
起惑	-10.8478
堅信堅法	-10.8478
違理	-10.8484
施設論說	-10.8484
捨成就得不成就	-10.8486
名身等	-10.8492
所持	-10.8495
剎那等起	-10.8496
非一切遍	-10.8497
離欲貪	-10.8497
有三句	-10.8497
貪欲瞋恚	-10.8497
有幾種	-10.8501
釋第四句	-10.8503
苦忍	-10.8504
或無色界繫	-10.8508
名同分	-10.8512
或二	-10.8512
多羅	-10.8516
從此第三	-10.8517
由加行	-10.8521
因苦法智斷	-10.8522
謂無明	-10.8524
餘人	-10.8524
三界見所斷	-10.8525
舌根	-10.8526
取果與果	-10.8526
頌答	-10.8528
智現在前	-10.8528
慧為體	-10.8536
定應	-10.8538
十六心	-10.8542
此應	-10.8543
第一有	-10.8545
甘	-10.8546
當觀	-10.8548
易可	-10.8549
此中依	-10.8549
甞	-10.8554
體即是	-10.8554
賤	-10.8555
習盡道	-10.8555
慶喜	-10.8557
甘露	-10.8558
纏退	-10.856
自性斷	-10.8561
最勝故	-10.8562
同一果	-10.8566
死屍	-10.8566
奢	-10.8566
不能知	-10.8566
學慧	-10.8567
青黃赤白	-10.8567
皆成	-10.8568
令我	-10.857
有所作	-10.8571
尊者妙音作如是說	-10.8571
妙高山	-10.8573
觀外色	-10.8576
有上	-10.858
波羅蜜多	-10.8581
七識住	-10.8581
見苦集	-10.8582
眼識乃至意識	-10.8582
無願三摩地	-10.8584
諸功德	-10.8587
對法藏	-10.8587
非俱有因	-10.8587
後四	-10.8589
無漏他心智	-10.8589
除非	-10.8593
心如實知	-10.8593
毀壞	-10.8594
彼雖	-10.8596
相屬	-10.8599
乃至未	-10.8599
類智品道	-10.86
是謂差別	-10.8605
廣釋	-10.8612
知他	-10.8615
力劣	-10.8616
身見邊見	-10.8617
亦言	-10.8617
堅牢	-10.8621
化事	-10.8625
身中有	-10.8626
解脫者	-10.8628
所為	-10.8638
是緣	-10.8638
最為	-10.8639
非斷智知	-10.864
鼻根	-10.8641
如是見	-10.8645
徹	-10.8649
幾種	-10.8649
微塵	-10.8651
已離色界貪	-10.8654
第一明	-10.8654
洗	-10.8654
罰	-10.8654
文身	-10.8654
尊弟子	-10.8655
若爾云何	-10.8655
宮殿	-10.8659
即顯	-10.866
入滅盡定	-10.8662
有法是	-10.8665
阿練若	-10.8665
分二	-10.8665
非心數	-10.8666
一想	-10.8667
同類遍行	-10.8667
所愛	-10.8667
漸得	-10.8669
利養	-10.8669
蘊界處	-10.8669
正解	-10.867
無始時來	-10.867
滅道法智	-10.8674
聰慧	-10.8675
欲尋	-10.8677
所更	-10.8678
意欲	-10.8679
此後	-10.8681
四境	-10.8681
所說義	-10.8682
追悔	-10.8682
有增上用	-10.8684
六欲天	-10.8684
縛所縛	-10.8684
內無色想觀外色	-10.8685
已離色染	-10.8693
不可知	-10.8694
斷時	-10.8705
沙門性	-10.8713
護法	-10.8715
所得法	-10.8718
復問	-10.8718
或在	-10.8719
無量有情	-10.8721
如我	-10.8722
此能	-10.8723
諸加行道	-10.8724
向道	-10.8727
或為	-10.8732
此觀	-10.8736
唯立	-10.8742
百二十	-10.8743
諸預流者	-10.8743
非色法	-10.8748
或學	-10.8749
一少分	-10.875
受三歸	-10.8751
淨初靜慮	-10.8751
房	-10.8752
謂異生	-10.8754
謂無色界	-10.8755
如今	-10.8758
若如理所引了別	-10.8759
最極	-10.8761
不善色	-10.8762
=	-10.8762
唯見	-10.8763
無厭	-10.8763
悶	-10.8764
為求	-10.8765
一世	-10.8765
檀	-10.8766
緣義	-10.877
酢	-10.8772
瞿	-10.8776
為何所	-10.8777
僧伽	-10.8777
緣識及緣緣識所增隨眠	-10.8777
如何名	-10.878
不斷者	-10.878
復有苾芻	-10.8782
謂如有一	-10.8782
亦唯	-10.8784
非全	-10.879
推求	-10.8792
煩惱垢	-10.8792
愛盡上愛未盡	-10.8793
謂眼	-10.88
或多	-10.8802
而不說	-10.8805
法隨法行	-10.8806
大造	-10.881
所依所緣	-10.8817
明淨	-10.8821
根性	-10.8822
或作	-10.8823
福業事	-10.8823
有他心智	-10.8824
四道	-10.8824
不能引	-10.8824
忍果	-10.8825
生後	-10.8826
隨其事	-10.8826
可成	-10.8827
決斷	-10.8831
共有	-10.8833
處非處	-10.8834
得是時修	-10.8835
地獄畜生餓鬼	-10.8837
謂愛	-10.8843
一處少分	-10.8845
彼所說	-10.885
異熟生心	-10.8851
中際	-10.8856
見智慧	-10.8859
勝行	-10.886
世尊亦說	-10.8861
不斷善根	-10.8864
他性	-10.8865
身語意	-10.8866
此難	-10.8868
修梵行	-10.8868
及修斷使使	-10.8869
其量	-10.8869
無願相應	-10.8869
止觀	-10.8869
化身	-10.887
界品	-10.8871
五結	-10.8871
行報	-10.8873
法救	-10.8873
不分別	-10.8881
單	-10.8882
無垢人	-10.8889
應知此	-10.8894
即能	-10.8895
或不善	-10.8897
餘蘊	-10.8903
於欲界中	-10.8909
顯宗論	-10.8913
生地獄中	-10.8914
非心相應	-10.8914
心得解脫	-10.8915
已復	-10.8916
偏增	-10.8917
欲界苦	-10.8918
為治	-10.8919
第一句者	-10.8919
六品	-10.892
或緣	-10.8922
證法	-10.8922
薪等	-10.8925
名有隨眠	-10.8926
攝持	-10.8926
身分	-10.8926
如大	-10.8927
自在天	-10.8931
外難	-10.8932
五無間業	-10.8933
不定者	-10.8937
疑蓋	-10.8942
之與	-10.8945
遠近	-10.8946
皆依	-10.8956
緣四諦	-10.8956
廣分別	-10.8956
譬喻者	-10.8957
命意捨	-10.8958
有樂	-10.8964
爛	-10.8966
未見	-10.8967
數行	-10.897
為顯示	-10.8972
一增上	-10.8974
有對色	-10.8976
生下	-10.8979
鴿	-10.8981
能轉	-10.8981
見中	-10.8985
如欲界	-10.8985
道類忍	-10.8987
麻	-10.8987
若見圓滿世	-10.8989
勝用	-10.8994
馳	-10.8994
掉悔	-10.8995
無覆無記色	-10.8995
瞿曇	-10.8996
三義	-10.8998
既非	-10.9
無有差別	-10.9
天人	-10.9002
苾芻尼	-10.9008
實非	-10.901
力士	-10.901
此實餘虛妄	-10.9017
世法	-10.9019
因性	-10.9024
上三靜慮	-10.9024
性相	-10.9025
為緣故	-10.9028
若有是事	-10.903
狂亂	-10.9031
住故	-10.9031
有宗	-10.9037
在意地	-10.9038
生位	-10.9038
等生	-10.9039
故契經說	-10.904
引經證	-10.9042
但約	-10.9044
如是等類	-10.9046
第四明	-10.9048
岸	-10.905
非時	-10.905
答不爾	-10.9052
不貪	-10.9055
威儀心	-10.9056
阿羅漢果攝	-10.9059
於自地	-10.9059
亦不應	-10.9063
如是諸法	-10.9064
耳鼻舌身意	-10.9066
何須	-10.9067
諸所有色	-10.9069
誰能	-10.907
即名為	-10.9071
法智類智	-10.9076
及彼同分	-10.9078
解脫故	-10.9078
乃至若	-10.9079
作是釋	-10.908
顧	-10.9082
大生	-10.9084
問頗有	-10.9085
種族	-10.9086
一切法皆	-10.9087
亦有差別	-10.9087
多諸	-10.9088
但可	-10.909
害他	-10.9092
不破	-10.9094
秦	-10.9094
阿世耶	-10.9099
離諸	-10.9103
一界一入一陰攝	-10.9104
一以	-10.9104
唯攝	-10.9108
類中	-10.9109
為十	-10.9112
有少	-10.9115
通二種	-10.9115
持心	-10.9117
彼等起	-10.9118
時解脫練根作不動	-10.9118
生身	-10.9119
不得生	-10.9119
邪性	-10.9121
能受	-10.9122
已得不失	-10.9125
欲說	-10.9126
念力	-10.9126
窮	-10.913
喜相應	-10.9132
不能緣	-10.9134
邪慢	-10.9136
驚	-10.9137
順住分	-10.9137
三念住	-10.9143
之因	-10.9144
念前世智	-10.9147
汝說	-10.9147
彼復	-10.9147
蔽	-10.9152
則為	-10.9153
起滅定	-10.9154
天眼通	-10.9155
若有是處	-10.9161
貪不善根	-10.9165
觸食	-10.9166
欲界見道所斷	-10.9167
以後	-10.9175
同異	-10.9177
隨所得	-10.9184
苦故	-10.9185
果道	-10.9187
必具	-10.9187
威力	-10.9188
方所	-10.919
又正理	-10.919
相續故	-10.9193
離彼	-10.9195
第	-10.9195
兩說	-10.9196
餘色	-10.9196
長益	-10.9197
十纏	-10.9197
顯形	-10.9197
聞法	-10.92
勿有	-10.9206
然無	-10.9207
業煩惱	-10.9207
總立	-10.9208
此中何故不說	-10.9208
弟	-10.921
初師	-10.9211
離煩惱	-10.9212
非愛果	-10.9212
於中有二	-10.9212
由二緣	-10.9213
蔭	-10.9213
羯剌藍	-10.9216
唱	-10.9217
獸	-10.9218
銅	-10.9218
促	-10.9218
泉	-10.9221
非業緣	-10.9222
若就	-10.9224
內等淨	-10.9225
因論生論	-10.9228
所緣隨增	-10.9228
豆	-10.9231
非因緣	-10.9231
於世間	-10.9233
等無間所緣增上	-10.9234
無如是事	-10.9237
餘位	-10.9239
今應思擇	-10.924
功能差別	-10.9242
苦智已生	-10.9244
異於	-10.9246
道智未生	-10.9248
如種	-10.9251
細滑	-10.9251
欲界身	-10.9252
如以	-10.9254
中亦有	-10.9256
名說	-10.9257
天眾	-10.9257
自稱	-10.9258
非梵行	-10.9263
各四	-10.9265
最大	-10.9266
散心	-10.927
忿等	-10.9275
會釋	-10.9276
不能令	-10.9279
欲貪隨眠	-10.928
卷第三十	-10.9282
便無	-10.9283
諸道	-10.9293
內入	-10.9293
苦性	-10.9294
亦修	-10.9296
食等	-10.9297
除色想	-10.9298
通三	-10.9302
無過去	-10.9305
色界繫法	-10.9305
二解脫	-10.9305
有心位	-10.931
應辯	-10.9312
能順	-10.9319
通釋	-10.9319
由因	-10.9322
六通	-10.9323
諸界	-10.9323
旋	-10.9324
問若爾何故	-10.9328
右	-10.9328
餘根	-10.9329
其事	-10.9332
無行	-10.9332
此忍	-10.9333
解脫障	-10.9334
斷善根者	-10.9335
百歲	-10.9336
不相觸	-10.9338
呪術	-10.9338
為因故	-10.9338
審慮	-10.9338
筏	-10.9339
皆可	-10.9342
初靜慮中	-10.9343
所增隨眠	-10.9343
生地獄	-10.9344
正釋	-10.9345
三識識	-10.9347
先斷	-10.9347
問何緣	-10.9349
阿毗達磨	-10.9351
隔越	-10.9352
頂法	-10.9352
破也	-10.9353
初後	-10.9355
色界法	-10.9355
於自身	-10.936
治道	-10.9361
第六句	-10.9361
無力	-10.9363
顯彼	-10.9364
前言	-10.9367
三道	-10.9367
甚為	-10.9372
逼切	-10.9373
不約	-10.9374
謂未來	-10.9374
身不	-10.9375
彼加行道時	-10.9377
本所	-10.938
身命	-10.9381
是智	-10.9382
以種種	-10.9385
有執	-10.9387
見滅斷有漏緣	-10.9387
夢見	-10.9388
所以也	-10.9389
定當	-10.939
觀彼	-10.9392
曾有	-10.9395
若有起	-10.9397
果法	-10.9397
有罪	-10.94
諸聖	-10.9401
可取	-10.9403
至教	-10.9407
答由	-10.9412
必由	-10.9418
十遍處	-10.9421
在無色界	-10.9425
畢竟斷	-10.9425
如見	-10.9427
異緣	-10.9427
修加行	-10.9428
無心定	-10.9431
一體	-10.9432
相應使	-10.9433
帝	-10.9433
大文第	-10.9436
超入	-10.9437
慰	-10.9439
㮈落迦	-10.9442
竪	-10.9442
嘗	-10.9444
于	-10.9448
見使	-10.9451
露	-10.9451
不同故	-10.9452
過去造色	-10.9453
開示	-10.9453
熱惱	-10.9453
生欲界梵世	-10.9454
如意	-10.9455
對法諸師	-10.9457
於何	-10.9458
此下第二	-10.9459
佛語	-10.9461
定生喜樂	-10.9465
彼過去法智耶	-10.9466
猗覺意	-10.9466
生緣老死	-10.9467
中間禪	-10.9467
煩惱故	-10.9467
聲聞獨覺	-10.9469
信受	-10.9471
彼所有	-10.9472
十一界	-10.9473
一切色	-10.9474
六愛身	-10.9474
唯無記	-10.9474
世親	-10.9475
初無漏	-10.9477
闕緣	-10.9479
斷智知	-10.9481
或無處	-10.9482
幾智	-10.9492
思惟法	-10.9495
邪方便	-10.9496
成三	-10.95
更互	-10.9503
增一	-10.9504
發智論	-10.9512
若善	-10.9514
亦當	-10.9515
欲界結	-10.952
未來造色	-10.9521
第三果	-10.9524
或一	-10.953
若約	-10.9533
死想	-10.9534
多住	-10.9536
如經言	-10.9539
不共心	-10.954
生無色	-10.9541
習未知智	-10.9544
亦見	-10.9545
其所	-10.9547
外處	-10.9549
彼經說	-10.9549
彼身	-10.9549
謂貪	-10.9551
三云	-10.9552
能令心	-10.9552
於諦	-10.9553
心不相應	-10.9555
盛陰	-10.9557
阿難陀	-10.9558
其果	-10.9561
即於彼	-10.9565
入正性離生者	-10.9565
隨界	-10.9567
拔濟	-10.9568
及心	-10.9569
跡	-10.957
及無為法	-10.9575
死者	-10.9576
謂有一類	-10.9578
見所斷結	-10.9581
作所依	-10.9582
若爾何緣	-10.9582
故佛	-10.9583
根本禪	-10.9586
現觀邊世俗智	-10.9588
彼亦是	-10.9591
所明	-10.9591
所以不	-10.9591
不別立	-10.9593
彼必	-10.9595
故不相違	-10.9595
廣說如經	-10.9596
不調	-10.9596
不等	-10.9596
無學慧	-10.9597
及除	-10.9597
斷律儀	-10.9603
法生時	-10.9603
現觀時	-10.9606
是他聚故	-10.9609
無漏離繫得	-10.9609
正見等	-10.9609
離界	-10.9611
無障礙	-10.9615
繫念	-10.9616
染淨	-10.9621
念念	-10.9625
除欲	-10.9627
故婆沙	-10.9633
比知	-10.9633
心行	-10.9634
為道	-10.9635
受念處	-10.9636
品類足說	-10.9643
非正	-10.9644
此亦應然	-10.9645
如何得	-10.9648
則不如是	-10.9653
惟	-10.9658
淨相	-10.966
於果	-10.9661
順現法受	-10.9661
等覺	-10.9663
若色界	-10.9665
色識	-10.9668
此滅	-10.9668
四心	-10.9669
不應修	-10.967
所止	-10.967
緣苦集	-10.9673
別觀	-10.9674
有別法	-10.9677
非真	-10.968
雖於	-10.968
總集	-10.968
正量部	-10.9683
定知	-10.9684
欲愛盡	-10.9685
陳	-10.9687
弘	-10.9688
尊者世友	-10.9691
後一	-10.9694
未來生	-10.9695
五人	-10.9695
不犯	-10.9696
召	-10.9696
用增	-10.9697
次復	-10.9697
隨所應當	-10.97
聚落	-10.9703
修所成慧	-10.9704
形量	-10.9706
入處	-10.9707
對法者	-10.9708
東方	-10.9709
如是次第	-10.9711
共相應	-10.9712
於下	-10.9713
緣不繫	-10.9714
一入	-10.9717
善說法	-10.9718
正行	-10.9723
文義	-10.9724
能遍	-10.9736
謂離	-10.9737
共相作意	-10.9738
惑得	-10.9738
譬	-10.9738
亦不應理	-10.9739
壁	-10.9741
味定	-10.9746
順現法受業	-10.9747
若諸有情	-10.9753
堅實	-10.9754
是共	-10.9754
成劫	-10.9754
俱滅	-10.9756
邪念	-10.9765
與後	-10.9766
共心	-10.9769
供	-10.9769
行處	-10.9771
經意	-10.9773
卑慢	-10.9774
亦爾耶	-10.9778
習修	-10.9781
力用	-10.9782
住不律儀	-10.9789
見苦所斷法	-10.9789
見苦集滅道及修所斷	-10.9793
剎帝利	-10.9794
色愛	-10.9794
行世	-10.9795
行動	-10.9795
他界	-10.9796
九結中	-10.9799
餘緣	-10.98
野	-10.9802
私	-10.9803
阿素洛	-10.9807
儀	-10.9809
如王	-10.9809
是故不立	-10.9812
術	-10.9813
演說	-10.9814
尸	-10.9815
起慢	-10.9816
彰	-10.9819
黑闇	-10.982
修等智	-10.9822
壞劫	-10.9823
捷疾	-10.9823
此四種	-10.9825
相差別	-10.9826
三義觀	-10.9827
慢等	-10.9829
已有	-10.9829
現在前者	-10.9832
餘九	-10.9834
契經所說	-10.9837
學見	-10.9837
輕重	-10.9838
隨一現前	-10.9844
漏處攝	-10.9845
所纏	-10.985
二無心定	-10.9853
第三明	-10.9853
大眾	-10.9854
不穢污	-10.9858
所緣故隨增非相應故	-10.986
色究竟天	-10.9861
地者	-10.9862
由此故說	-10.9865
慧眼	-10.9865
隨轉色	-10.9871
不生故	-10.9874
無相三摩地	-10.9874
引果	-10.9875
亦不成就	-10.9877
道品	-10.9881
乃至識	-10.9884
身輕安	-10.9887
中所有	-10.9893
有兩	-10.9894
難了	-10.9897
攝一切法	-10.9899
廣如	-10.9904
一切世間	-10.9908
准正理	-10.9911
依於	-10.9912
復從	-10.9914
盡諸漏	-10.9916
吉祥	-10.9918
則不然	-10.9919
皆名為	-10.992
口業	-10.9921
所燒	-10.9921
慈氏	-10.9921
緣滅諦	-10.9923
懼	-10.9924
其事如是	-10.9925
預	-10.9926
緩	-10.9926
博	-10.9928
迦葉波	-10.9928
〔	-10.9929
身作證	-10.993
譏	-10.9931
男身	-10.9933
見滅道	-10.9934
此師	-10.9934
逼迫	-10.9936
束	-10.9936
樓	-10.9937
從多分說	-10.9937
有別體	-10.9938
為上首	-10.9939
妻子	-10.994
無慚愧	-10.994
有依	-10.994
移轉	-10.9944
評曰應作是說	-10.9944
必起	-10.9947
餘經說	-10.9949
修心	-10.995
又論云	-10.9952
未來十	-10.9952
見道所斷法	-10.9954
色聚	-10.9958
遍身	-10.9959
決定別有	-10.9959
非學非無學法	-10.9961
威儀工巧	-10.9965
九解脫道	-10.9965
難陀	-10.9966
損壞	-10.9967
麁顯	-10.997
滅聖諦	-10.9974
依主釋也	-10.9978
遣他	-10.9981
未至地	-10.9981
此中不說	-10.9983
必成就	-10.9986
因不相應	-10.9987
斷末摩	-10.9989
相待	-10.999
由他	-10.9996
不善善有漏	-10.9997
彼比丘	-10.9998
福行	-10.9998
未了	-10.9998
命終生	-10.9999
此念	-11
今說	-11.0002
滅已	-11.0002
兩釋	-11.0007
正精進	-11.0008
已作	-11.0014
剎那剎那	-11.0015
緣滅	-11.0015
欲界天	-11.002
少有	-11.002
差別云何	-11.002
一味	-11.0022
自心	-11.0023
百劫	-11.0025
非處	-11.0027
欲界善	-11.0029
初盡智	-11.0031
定根	-11.0033
未捨	-11.0036
嫉慳	-11.0036
三慧	-11.0036
彼加行道	-11.0039
皆從	-11.0039
選擇	-11.0039
法門	-11.0043
所隨	-11.0043
達羅	-11.0044
健達縛	-11.0045
若取	-11.0046
俱盧舍	-11.0047
建	-11.0048
寄	-11.0048
任	-11.005
轉時	-11.005
醫	-11.0051
疲	-11.0053
癰	-11.0054
慧者	-11.0054
祠	-11.0056
不顛倒	-11.0061
散壞	-11.0061
或先有不失	-11.0062
隨縛	-11.0063
合故	-11.0064
苦未知智斷	-11.0065
與未來	-11.0066
若無者	-11.0067
阿含	-11.0069
語惡行	-11.0069
違逆	-11.0071
空無我	-11.0074
二無礙解	-11.0076
無想異熟	-11.0076
或復有	-11.0081
更加	-11.0082
無垢	-11.0083
一二分或	-11.0086
盡諦	-11.0086
便斷	-11.0087
云何不善	-11.0088
或有過去愛結繫	-11.009
瀑流軛	-11.0091
此中但說	-11.0094
二禪地	-11.0095
可了知	-11.0098
如眼識	-11.0098
由得	-11.0099
起現在前	-11.0099
是果	-11.0101
不爾故	-11.0103
今見	-11.0104
七覺	-11.0105
俱聚中	-11.0117
善報	-11.0124
引業	-11.0125
正說	-11.0127
意妙行	-11.0133
有是事	-11.0134
餘七	-11.0135
俱時起	-11.0136
於無色界	-11.0136
離欲染時	-11.0138
周遍	-11.0138
知識	-11.0139
有補特伽羅	-11.0146
欲境	-11.0146
死生智	-11.0147
於中間	-11.0148
具說	-11.0148
答因	-11.0149
一身中	-11.0152
慈心	-11.0152
愛果	-11.0152
即滅	-11.0156
兩句	-11.0157
謂若法	-11.0162
逐	-11.0162
能自	-11.0162
此二俱	-11.0163
追	-11.0167
適意	-11.0169
國土	-11.0169
住非律儀非不律儀	-11.0169
幻	-11.0169
及一切	-11.017
稟	-11.017
宋	-11.0176
喪	-11.0176
唯生	-11.0176
初明	-11.0178
彼法非	-11.0178
無結盡	-11.018
耆	-11.0182
耶解云	-11.0183
慼	-11.0183
正等覺	-11.0184
心所念法	-11.0185
縱廣	-11.0185
喬答摩	-11.0186
壞敗	-11.0189
醜陋	-11.0192
卷第七	-11.0192
第三解脫	-11.0196
無間罪	-11.0198
力令	-11.0199
勝解力	-11.0199
得果時	-11.02
無漏四靜慮	-11.0203
妙法	-11.0205
緣和合	-11.0209
亦不成	-11.021
第九無間道	-11.021
空非我	-11.021
後釋	-11.0212
極為	-11.0213
心所起去來屈申迴轉身教	-11.0214
有漏無明漏	-11.0215
以三事故	-11.0216
曾未	-11.0223
除無明	-11.0224
形相	-11.0226
無漏業	-11.0226
起加行	-11.0231
道諦所斷	-11.0235
釋第三句	-11.0237
隨心	-11.0238
動身	-11.0239
定蘊	-11.0251
不復生	-11.0251
增損	-11.0254
遍滿	-11.0255
復有餘	-11.0257
出時	-11.0259
非等無間緣	-11.026
隨義	-11.026
或無學	-11.0262
所樂	-11.0264
吾	-11.0266
第三第四靜慮	-11.0268
水等	-11.027
滅想	-11.0273
所詮	-11.0274
疑使	-11.0276
離色	-11.0277
分為二	-11.0278
忍斷	-11.0279
淨戒	-11.028
齊何	-11.0281
已壞	-11.0283
三心頃	-11.0288
鬪諍	-11.0289
無間滅	-11.029
微微	-11.029
無前後	-11.029
其名	-11.0291
非法智	-11.0291
羸	-11.0291
容受	-11.0293
更互相	-11.0294
標名	-11.0295
應受	-11.0296
嗢	-11.0297
茲	-11.0298
名異生性	-11.03
至生相	-11.0301
金銀	-11.0302
身內	-11.0302
世尊告曰	-11.0308
所縛	-11.0311
支體	-11.0314
三字	-11.0317
諸有為	-11.0318
印度	-11.032
尊者舍利子	-11.0326
二靜慮	-11.0326
業用	-11.0326
前八遍處	-11.0327
彼於此道	-11.0328
謂或有執	-11.0329
通經	-11.0329
二取	-11.033
半超	-11.0331
觸為緣	-11.0337
設法	-11.0344
學無學心	-11.0344
此據	-11.0345
十二緣起	-11.0345
異處	-11.0345
及彼相應無明	-11.0347
六句	-11.0348
有喜	-11.0348
生非想非非想處	-11.0349
向涅槃	-11.0357
空界色	-11.0358
一陰	-11.0359
文證	-11.0362
最為勝	-11.0364
立支	-11.0364
煩惱相應	-11.0366
力等	-11.0366
言論	-11.0368
正慧	-11.0368
我應	-11.037
此意	-11.0376
然由	-11.0377
有色有情	-11.0378
前解	-11.038
梵住	-11.0381
名何法	-11.0384
又無	-11.0385
有形	-11.0387
自境	-11.0395
隨根	-11.0396
捨前	-11.0401
是則應	-11.0402
已便	-11.0404
若諸聖者	-11.0405
有境	-11.0405
七使	-11.0408
六十二	-11.041
若現在前	-11.041
自界緣	-11.041
墜	-11.0411
敗	-11.0415
正業	-11.0419
漸減	-11.042
廢	-11.0423
委	-11.0424
貌	-11.0424
四十四	-11.0424
嶮	-11.0424
教他	-11.0427
由此因故	-11.0428
割	-11.0429
典	-11.043
竊	-11.0431
伊	-11.0431
逢	-11.0435
美妙	-11.0437
受想思觸思惟覺觀	-11.0438
唐捐	-11.0439
一釋	-11.044
惱亂	-11.0442
四品	-11.0446
所須	-11.0446
加行善心	-11.0446
今言	-11.045
自相共相	-11.0452
又契經言	-11.0452
證不還果	-11.0453
是集	-11.0458
要待	-11.0458
轉生	-11.0459
願力	-11.0462
四月	-11.0464
二俱繫	-11.0467
修所斷心	-11.047
總有四種	-11.0476
在初	-11.0476
強盛	-11.0478
淨妙	-11.0478
欲界死	-11.0478
無記業	-11.048
為何果攝	-11.0482
有增減	-11.0483
類忍	-11.0483
徵也	-11.0484
六明	-11.0484
文中初	-11.0485
一界一入	-11.0487
得盡智時	-11.0488
發識	-11.0489
九無礙道	-11.0494
不更	-11.0494
俱害	-11.0495
唯四	-11.0495
受異熟果	-11.0496
問此說	-11.0498
切	-11.0499
所入	-11.0499
已熟	-11.0502
諸聖弟子	-11.0508
非見性	-11.0518
加行後起	-11.0522
藏中	-11.0527
四大所造	-11.053
各二	-11.0534
能解	-11.0534
二相	-11.0535
若不盡	-11.0536
分三	-11.0537
經云何通	-11.0537
無學人	-11.0537
已度	-11.0538
盡不失	-11.054
無中有	-11.054
俱通	-11.0542
欲天	-11.0548
共生因	-11.0548
名沙門果	-11.0551
已了別今了別當了別	-11.0552
悲心	-11.0553
擲	-11.0553
一來者	-11.0554
質直	-11.0554
衛	-11.0556
體未斷	-11.0557
滅位	-11.0557
連續	-11.0559
當知此義有餘	-11.056
尺	-11.0561
酬	-11.0561
眾生數	-11.0562
滋	-11.0563
更有說者	-11.0564
酪	-11.0565
注	-11.0566
應同	-11.0566
離第三靜慮染	-11.0567
強故	-11.057
婆沙一百一十	-11.0573
當受	-11.0573
三位	-11.0574
於此處	-11.0574
除一切法	-11.0575
內門轉	-11.0575
久遠	-11.0578
受化者	-11.0578
初無漏心	-11.0579
救護	-11.0579
自性與自性不相應	-11.0581
如何成	-11.0584
得阿那含果	-11.0585
未來七	-11.0586
意成	-11.0587
尊者佛陀提婆說曰	-11.0589
無明結未斷	-11.0589
一界一處	-11.0591
是修道斷	-11.0596
離生	-11.0597
多行	-11.0598
身語意業	-11.0601
欲界三部	-11.0603
餘身	-11.0604
分析	-11.0605
近分地	-11.0608
而是	-11.0608
所造業	-11.0612
無色界沒	-11.0612
亦斷	-11.0613
欲止	-11.0617
覺悟	-11.0617
不合	-11.0619
壞苦	-11.0622
婆羅	-11.0623
不和合	-11.0625
別法	-11.0626
合立	-11.0626
無間地獄	-11.0632
具戒	-11.0633
續善根	-11.0638
世尊告	-11.0639
能牽	-11.064
病者	-11.0641
諸沙門婆羅門	-11.0647
所因	-11.0648
煩惱使	-11.0648
色界善心	-11.0649
唯約	-11.0652
應爾	-11.0655
命行	-11.0658
斷常	-11.0659
樹下	-11.0659
二識	-11.066
義便	-11.0661
現在造色	-11.0664
在何位	-11.0664
名有執受	-11.0666
有結	-11.0666
聲等	-11.0668
取至境	-11.0674
進根	-11.0674
頌明	-11.0675
捨覺支	-11.0675
義言	-11.0675
火災	-11.0676
豐	-11.0683
屠	-11.0684
復更	-11.0685
於地獄	-11.0686
釋種	-11.0687
旦	-11.069
是故名為	-11.069
諸惡行	-11.0691
彼捨	-11.0694
類智忍	-11.0695
園林	-11.0697
見滅所斷有漏緣	-11.0698
唯應	-11.0698
中間定	-11.0699
學無學法	-11.0699
斷治	-11.0699
別解律儀	-11.07
集滅	-11.07
不能取	-11.0701
集智未生	-11.0702
牢固	-11.0702
語表業	-11.0704
非報緣	-11.0705
麁心	-11.0705
密意	-11.0706
如其所應	-11.0707
彼於爾時	-11.0707
釋名	-11.0713
者即是	-11.0715
身業語業	-11.0715
尊者瞿沙	-11.0717
離第四靜慮染	-11.0717
無學見	-11.0717
廢立	-11.0717
何時	-11.072
情數	-11.072
有行	-11.0721
知已根	-11.0721
所緣斷	-11.0722
二滅	-11.0722
於一切時	-11.0723
繫耶	-11.0724
及無色界	-11.0729
多用功	-11.073
相應慧	-11.0732
結法	-11.0732
合緣	-11.0733
已來	-11.0734
學心者	-11.0736
有相	-11.0737
因明	-11.0739
廣辯	-11.074
三處	-11.074
云何法入	-11.0741
般涅槃者	-11.0741
名修所斷	-11.0744
此既	-11.0748
此眾生	-11.0754
三門	-11.0754
滿業	-11.076
堅法	-11.0762
有聲	-11.0762
轉增	-11.0762
於一切法	-11.0763
作第四句	-11.0765
外緣	-11.0767
空定	-11.0769
中云	-11.0772
除去	-11.0773
於其中	-11.0773
辭	-11.0774
超一切	-11.078
起愛	-11.0785
體即	-11.0785
彼師	-11.0789
不善業道	-11.0792
云何名為	-11.0797
瞋等	-11.0797
入無想定	-11.08
過慢	-11.08
謂或有	-11.0801
自果	-11.0804
於母	-11.0806
不能見	-11.0807
此偈	-11.081
即於此	-11.081
臭	-11.0817
色無色界苦	-11.0818
凝	-11.0818
或八	-11.0818
云何法界	-11.0819
婆沙一百三十	-11.082
擇法覺意	-11.082
謂欲界生長	-11.0821
有作是言	-11.0822
念根	-11.0822
意所念	-11.0823
鏡等	-11.0824
升	-11.0824
循	-11.0825
道類智忍	-11.0826
陵	-11.0827
頻	-11.0828
斷善根時	-11.083
本無今有	-11.0835
彼所起心不相應行	-11.0835
理不成故	-11.0836
里	-11.0836
佛契經	-11.0837
續善	-11.0837
掘	-11.0837
愁憂	-11.0838
尊者妙音說	-11.0839
近住律儀	-11.0841
如實了知	-11.0841
龍王	-11.0842
及住	-11.0847
梵本	-11.0847
幾隨眠隨增	-11.0847
煗頂	-11.0852
其人	-11.0855
復還	-11.0855
即知	-11.0856
自行	-11.0857
謂於此事	-11.0859
幾欲界繫	-11.0861
非增上緣	-11.0864
當見	-11.0867
餘道	-11.0868
下三無色	-11.0869
二行	-11.087
妙欲	-11.0872
定戒	-11.0873
輪轉	-11.0876
作是念言	-11.0876
梵天上	-11.0877
不生欲界	-11.0881
香界	-11.0883
色界無色界	-11.0883
空空	-11.0885
外器	-11.0887
出心	-11.0888
大千	-11.0888
有眾多	-11.089
是麁	-11.0891
所斷法	-11.0891
所對	-11.0891
答一增上	-11.0891
緣諦	-11.0891
餘惑	-11.0892
法前得	-11.0895
中有位	-11.0901
此三種	-11.0901
慳嫉	-11.0904
十大	-11.0905
相去	-11.0909
緣使	-11.0909
此中說之	-11.0923
論主釋	-11.0925
殘	-11.0932
少入	-11.0933
勤求	-11.0934
及不繫	-11.0935
是名法入	-11.0935
緣見苦斷	-11.0936
但能	-11.0936
地獄趣	-11.0936
若無記	-11.0936
非異緣	-11.0936
命終捨	-11.0937
默	-11.0938
隣虛	-11.0938
有實體	-11.0945
雜故	-11.0946
便壞	-11.0948
謂若有	-11.0949
擬	-11.0951
色界死	-11.0952
有頂地	-11.0954
隨所依	-11.0956
餘或成就或不成就	-11.096
良	-11.096
云云	-11.0961
城邑	-11.0963
摧	-11.0963
何果攝	-11.0965
繩	-11.0965
入見諦者	-11.0966
浴	-11.0966
息風	-11.097
前攝後	-11.097
無復	-11.0971
四大種所造	-11.0971
繫心	-11.0972
非過去非未來非現在	-11.0975
宿命智	-11.0976
開避	-11.0976
資益	-11.0976
與上相違	-11.0978
燋	-11.0978
離下染	-11.0979
何妨	-11.098
勢力劣故	-11.0984
無為緣	-11.0984
見修	-11.0984
而作	-11.0988
而復	-11.0989
正語正業正命	-11.0989
遣使	-11.0989
至此	-11.0991
順現	-11.0994
是見性	-11.0995
即生	-11.1002
一方	-11.1004
從他	-11.1005
後師	-11.1006
作論者	-11.1006
女男根	-11.1008
其因	-11.1008
修學	-11.1011
九種結	-11.1014
五力	-11.1018
外境	-11.1019
作三句	-11.102
是故先說	-11.1022
一日	-11.1026
自餘	-11.1028
如是已說至	-11.103
亦令	-11.103
過去者	-11.1036
而實	-11.104
得般涅槃	-11.1041
世所	-11.1043
戒等	-11.1047
為境界	-11.105
云何欲界繫	-11.1051
法無礙解	-11.1056
各別故	-11.1056
說亦爾	-11.1058
依之	-11.106
不相續	-11.1061
非身	-11.1066
上所說	-11.1068
十年	-11.1068
非無學	-11.1075
領受	-11.1075
別有體	-11.1078
依因	-11.1079
餘師說	-11.108
天帝釋	-11.1087
免	-11.1087
乙	-11.109
白佛言	-11.1091
以自	-11.1091
問此中	-11.1092
飄	-11.1092
立解脫	-11.1092
酥	-11.1093
扶	-11.1095
令身	-11.1096
有無量	-11.1096
故作此論	-11.1096
修善	-11.1099
途	-11.1099
童子	-11.11
怨敵	-11.1101
若知	-11.1101
是世俗	-11.1102
無色解脫	-11.1103
阿毘	-11.1106
符	-11.1106
後攝前	-11.1107
所壞	-11.1109
欲界色界	-11.1111
是名法界	-11.1111
生初靜慮	-11.1112
非決定	-11.1117
鼻等	-11.1119
論主難	-11.1119
障礙有對	-11.1119
不續	-11.1125
無喜樂	-11.1125
道路	-11.1125
色漏有漏	-11.1127
無益	-11.1129
諸心所	-11.113
彼命終生	-11.1132
彼文	-11.1134
三昧修	-11.1136
應說而不說者	-11.1136
大士	-11.1138
證阿羅漢果	-11.1143
謂未知當知根	-11.1143
如燈	-11.1145
如實見	-11.115
離喜	-11.1151
謂有為法	-11.1151
未離欲界貪	-11.1155
修所斷隨眠	-11.1159
受身處	-11.116
簡異	-11.116
得決定	-11.1162
佛作是說	-11.1165
不發	-11.1165
當為	-11.1173
者不然	-11.1173
笑	-11.1174
如應當知	-11.1175
顯宗	-11.1178
作所緣	-11.1178
非業道	-11.118
色界繫有覆無記心	-11.1181
復能	-11.1185
一形	-11.1186
九十八隨眠中	-11.119
勝義諦	-11.1197
虛妄	-11.1198
隣	-11.1199
憂喜	-11.1202
巳生	-11.1204
廣略	-11.1205
無慚無愧相應	-11.1206
無色界遍行	-11.1207
有一種	-11.1207
優	-11.121
問起	-11.1211
且說	-11.1211
不障礙	-11.1217
是結	-11.1217
此律儀	-11.1222
能厭	-11.1223
緣見滅斷	-11.1225
見盜	-11.1226
煮	-11.1227
滅雙因	-11.1231
謂諸隨眠	-11.1231
法要	-11.1235
若成就過去	-11.1236
泛	-11.1237
測	-11.1237
溺	-11.1237
寧知	-11.1237
秋	-11.1238
鉤	-11.1239
本法	-11.124
當辨	-11.124
無上菩提	-11.1245
當分別	-11.1246
盡未知智斷	-11.1248
非因計因	-11.1249
彼即是彼	-11.1249
作欲界化	-11.125
諂誑	-11.1251
現在大種	-11.1251
正生時	-11.1252
染時	-11.1253
日光	-11.1253
沙門瞿曇	-11.1255
黃門	-11.1258
何異	-11.1258
唐言	-11.1258
相應思	-11.1259
以何為自性	-11.1263
放逸處	-11.1265
四洲	-11.1265
愛結未斷	-11.1265
不勝法	-11.1268
是名身念處	-11.1268
順生	-11.1268
諸有欲令	-11.127
前行	-11.1271
一入少分	-11.1273
種種想	-11.1274
諸心心所	-11.1274
故無有過	-11.1274
二趣	-11.1274
在後	-11.1275
云何非學非無學	-11.1276
集聚	-11.128
預流向	-11.1283
此通	-11.1284
雜緣	-11.1286
蘊滅	-11.1288
緣下地	-11.1289
有十種	-11.1302
前之	-11.131
於四諦	-11.1311
他心智通	-11.1314
數論	-11.1315
愛著	-11.1321
八十八	-11.1321
便失	-11.1322
必無有	-11.1324
學智	-11.1326
可以	-11.1326
隨從	-11.1329
增上忍	-11.133
不重	-11.1331
對向	-11.1331
經論	-11.1332
起染	-11.1334
淨心	-11.1335
惑業	-11.1335
語妙行	-11.1336
非眾生數	-11.1337
通於	-11.1338
殺加行	-11.1338
墮惡道	-11.1341
復由	-11.1343
遺	-11.1343
除苦根	-11.1344
喜等	-11.1344
喜無量	-11.1344
空無相	-11.1344
至涅槃	-11.1345
色界通一切及思惟所斷	-11.1346
思所成慧	-11.1348
無漏五蘊	-11.1348
誰有	-11.1359
自利	-11.1359
互相攝	-11.1361
色中	-11.1362
未滿	-11.1365
序	-11.1369
臘縛	-11.1371
他害	-11.1372
隨尋轉非伺相應	-11.1374
相妨	-11.1375
或過去或未來或現在	-11.1376
若習若修若多所作	-11.1376
瞻	-11.1376
懸	-11.1376
得知	-11.1379
復次若法	-11.1379
必須	-11.138
在身中	-11.1381
得一來果	-11.1382
相貌	-11.1382
稱讚	-11.1382
品類足	-11.1383
五蘊為體	-11.1385
墮負	-11.1386
登	-11.1388
詞無礙解	-11.1391
邪見等	-11.1391
由業力	-11.1393
斷生命	-11.1395
或思惟	-11.1395
盡法智斷	-11.1396
善友	-11.1398
佛世尊說	-11.1399
念等覺支	-11.14
利樂	-11.1401
合會	-11.1403
彼答言	-11.1404
彼想	-11.1404
順現受	-11.1404
待因	-11.1405
餘不定	-11.1406
能引起	-11.1407
無所依	-11.1407
非過去現在	-11.1409
下三靜慮	-11.141
十隨眠	-11.141
逼惱	-11.1415
於一時	-11.1416
巳下	-11.1419
所緣已斷	-11.1419
問答分別	-11.142
由此證知	-11.142
有九種	-11.1422
無依	-11.1424
分別意識	-11.1428
必當	-11.143
力生	-11.1433
無尋	-11.1435
非無間緣	-11.1436
未證	-11.1439
將欲	-11.144
堅執	-11.1442
離苦	-11.1444
為所緣增上	-11.1446
慢結繫	-11.1447
手等	-11.1448
四類	-11.1448
緣色界繫	-11.1449
謂過去現在	-11.145
神境通	-11.1451
復有一類	-11.146
正勝	-11.1465
不喜足	-11.1466
體性是	-11.1466
施設論	-11.1471
僧眾	-11.1471
不成故	-11.1471
易地	-11.1475
異生位	-11.1478
未至禪	-11.148
及過去現在	-11.1487
缺減	-11.149
從因生	-11.1491
非業相應	-11.1494
依第二靜慮	-11.1498
世尊言	-11.1498
眼能見	-11.1498
生等相	-11.1498
法得起	-11.1499
不用	-11.15
苦比智	-11.1507
飯	-11.1507
俱胝	-11.1509
悅意	-11.1509
思願	-11.1509
上分結	-11.1509
意言	-11.1514
違越	-11.1515
米	-11.1516
集類智未生	-11.1519
哀愍	-11.1519
無間解脫	-11.152
隨心轉非受相應	-11.152
津	-11.152
減少	-11.152
若有人	-11.1524
怯	-11.1525
團	-11.1527
宅	-11.1527
離貪心	-11.1527
已入	-11.1528
伐	-11.1529
恚癡	-11.1531
已還	-11.1531
更無餘	-11.1532
出入息	-11.1532
阿那	-11.1533
電	-11.1536
或復有說	-11.1536
諸無間道	-11.1538
決擇分	-11.1539
五下分結	-11.1542
諸忍	-11.1543
為遮彼執顯	-11.1545
名色緣識	-11.1546
順勝進分	-11.1546
一心頃	-11.155
施福	-11.1551
欲色界繫	-11.1552
差	-11.1556
傍生趣	-11.1557
喜捨	-11.1558
幾隨眠	-11.156
墮一世	-11.1561
答有說	-11.1563
北俱盧洲	-11.1564
根境識	-11.1565
有對法	-11.1573
九法	-11.1576
報果	-11.1577
無記耶	-11.1579
不命終	-11.158
於自相續	-11.158
如世尊言	-11.1581
身處	-11.1582
隨生	-11.1582
隨流	-11.1583
色等境	-11.1583
則不能	-11.1585
一月	-11.1587
他物	-11.1591
得果故	-11.1598
有三品	-11.1599
品惑	-11.16
及得	-11.1603
誑語	-11.1604
淨不淨	-11.1609
可欣	-11.1613
三無漏	-11.1613
更有餘	-11.1614
成就四大	-11.1617
何界	-11.1622
無色界繫有覆無記心	-11.1623
二以	-11.1624
非所隨增	-11.1625
無分別	-11.1625
此戒	-11.1625
非他心智	-11.1628
必同	-11.163
結縛	-11.163
依主釋	-11.1632
相續生	-11.1634
及一切遍	-11.1635
無相無相	-11.1635
彼結非	-11.1635
一心中	-11.1637
過此	-11.1639
持業釋	-11.1639
乃名	-11.164
唯一剎那	-11.1641
不殺	-11.1641
非律儀非不律儀	-11.1649
四面	-11.1655
亡	-11.1656
證智	-11.1656
乃至第四禪	-11.1659
無漏智現在前	-11.1659
種種差別	-11.166
非無願	-11.166
應問彼言	-11.1661
其形	-11.1662
兄	-11.1662
暴流	-11.1666
塚間	-11.1666
於三世	-11.1667
理不應然	-11.1667
床座	-11.1667
壯	-11.1668
飲諸酒	-11.1672
代	-11.1674
通局	-11.1675
祠祀	-11.1675
此即初也	-11.1676
第二解脫	-11.1678
財寶	-11.1681
此難非理	-11.1681
汝應	-11.1682
獄卒	-11.1683
有過去法智	-11.1683
親近勝法不	-11.1685
妙欲境	-11.1686
男根女根	-11.1686
後四勝處	-11.1689
設得	-11.169
長老	-11.169
聞說	-11.169
此方	-11.1693
受緣愛	-11.1695
尊者和須蜜說曰	-11.1695
非理所引	-11.1698
非要	-11.17
引證	-11.1701
依靜慮中間	-11.1703
復次欲	-11.1704
苦集滅	-11.1709
苦未知智	-11.1709
一切有漏法	-11.1711
能往	-11.1712
又見	-11.1713
唯三	-11.1715
漏無漏	-11.1716
不減	-11.1717
諸陰	-11.1719
而可	-11.172
眼耳鼻舌身	-11.1723
無煩惱	-11.1725
有貪心	-11.1726
法智比智	-11.1729
別顯	-11.173
別也	-11.173
未斷為因	-11.1731
識所依	-11.1732
見修所斷法	-11.1733
正生位	-11.1734
第二生	-11.1736
何為餘	-11.1736
外別有	-11.1738
境界智	-11.1742
必無退	-11.1744
使性	-11.1745
邪思惟	-11.1745
苦集滅道智	-11.1746
法界攝	-11.1752
八十九	-11.1753
同此論	-11.1755
等活	-11.1759
得非數滅	-11.1763
於是處	-11.1766
好聲	-11.1768
無願無相	-11.1772
由此故知	-11.1773
離染時	-11.1782
修道位	-11.1783
外無別	-11.1784
分別行	-11.1787
非擇滅得	-11.1787
唯顯	-11.1788
乃得	-11.179
隨轉戒	-11.1791
吐	-11.1794
無餘斷	-11.1799
初解脫	-11.1799
為最勝	-11.1805
雜穢	-11.1811
素怛纜	-11.1812
營	-11.1813
能長養	-11.1814
肩	-11.1816
摧伏	-11.1817
謂此俱有相應	-11.1818
不增不減	-11.182
非想非非想處繫	-11.182
非明非無明觸	-11.182
不也	-11.1822
訶責	-11.1822
親屬	-11.1823
善學色	-11.1823
根品	-11.1824
總攝	-11.1827
遍行隨眠相應識	-11.1828
一來向	-11.1829
摶食	-11.1831
八萬歲	-11.1831
若成	-11.1832
無同類因	-11.1832
復有過去愛結繫耶	-11.1833
亦無有過	-11.1833
族姓	-11.1835
不記	-11.1835
互不相攝	-11.1835
以此故知	-11.1836
所對治	-11.1837
又佛	-11.1838
雖斷	-11.1839
十方	-11.1839
其力	-11.184
見道所斷有漏緣	-11.184
不共業	-11.1843
饒益他	-11.1844
耽嗜依	-11.1844
非即	-11.1847
便應	-11.1848
出離尋	-11.1851
教授	-11.1854
二應分別	-11.1856
有諸有情	-11.186
嫉妬	-11.1861
不修身	-11.1862
是心所	-11.1862
世現見	-11.1866
有十六	-11.1867
中有身	-11.1867
一剎那中	-11.1868
能引發	-11.187
不可以	-11.1878
作如是釋	-11.1879
從初	-11.1882
諸善根	-11.1882
為首	-11.1883
共有法	-11.1884
不應正理	-11.1885
制多	-11.1886
七返	-11.1886
餘有為法	-11.1886
密意說	-11.1889
上兩句	-11.1889
畢竟不生	-11.189
二十五	-11.1891
為益	-11.1892
如說云何	-11.1894
則繫	-11.1894
聞思所成	-11.1896
阿羅漢向	-11.1896
此解	-11.1897
能取果	-11.1897
見道修道所斷	-11.1898
不定聚	-11.1901
同依	-11.1904
生般涅槃	-11.1905
當知亦如是	-11.1909
定感	-11.1911
無想三昧	-11.1911
靜慮地	-11.1911
水中	-11.1914
無學智	-11.1915
可說為	-11.192
癡不善根	-11.1921
依下地	-11.1923
多求	-11.1924
緣道	-11.1927
此下第二明	-11.1927
此行相	-11.1928
謂虛空	-11.1928
諸無漏法	-11.193
正現在前	-11.1932
多念	-11.1934
堅住	-11.1934
競	-11.1941
現在時	-11.1943
為喻	-11.1945
令住	-11.1945
欲界色	-11.1947
)?	-11.1948
無別故	-11.1948
或不斷	-11.1948
執有我	-11.195
亦不可	-11.1951
三際	-11.1952
那羅延力	-11.1953
二緣生	-11.1953
以契經說	-11.1955
風吹	-11.1955
不退法	-11.1958
臺	-11.1958
夜摩天	-11.196
或從	-11.196
一切遍使使	-11.1962
捨戒	-11.1962
釋迦牟尼	-11.1963
涼	-11.1963
響	-11.1964
灑	-11.1965
覩史多天	-11.1965
安置	-11.1965
其體是何	-11.1967
無緣法	-11.1969
解脫道時	-11.197
咎	-11.1971
傷害	-11.1972
產	-11.1973
惑斷	-11.1974
緣已生法	-11.1975
津液遍滿	-11.1975
昏	-11.1976
云何色陰	-11.1977
同婆沙	-11.1979
名句文身	-11.1979
如理思惟	-11.198
為等無間緣	-11.1981
若汝言	-11.1981
如偈說	-11.1983
可厭	-11.1989
聞所成慧	-11.1989
能化	-11.1991
有漏身口戒無教	-11.1991
答眼根	-11.1992
彼聚	-11.1992
一切諸法	-11.1994
不散	-11.1994
有學異生	-11.1995
無貪等	-11.1995
全超	-11.1997
地繫	-11.1997
譬喻者說	-11.1998
復次依	-11.1999
故此不說	-11.2
緣苦	-11.2
義是相應義	-11.201
捨命	-11.2014
不愛	-11.2019
一應分別	-11.202
結現在前	-11.2022
如何知	-11.2022
中根	-11.2023
也正理論云	-11.2025
四正斷	-11.2031
及法處	-11.2033
入五陰	-11.2038
總觀	-11.2039
名遍知	-11.204
煗等	-11.2041
是一切遍	-11.2044
善惡業	-11.2052
即前所說	-11.2055
善五蘊	-11.2055
總有二種	-11.206
七寶	-11.2061
問云	-11.2063
唯欲界繫	-11.2063
總有三	-11.2065
無情	-11.2067
引彼	-11.2067
集滅道	-11.2068
樂苦	-11.207
經主於此	-11.207
無第二	-11.2071
結集	-11.2071
身見等	-11.2076
不繫心	-11.2076
有八種	-11.2078
化語	-11.2079
不了義	-11.2083
汁	-11.2092
閑	-11.2098
剎那頃	-11.2102
捨不成就得成就	-11.2105
煗法	-11.2109
內處攝	-11.211
續起	-11.2112
走	-11.2112
發勤精進	-11.2112
所釋	-11.2114
帶	-11.2115
弟子眾	-11.2115
攬	-11.2116
則能	-11.2116
鬼神	-11.2117
休息	-11.2118
賴	-11.2118
而命終	-11.2119
阿僧祇	-11.2119
吉	-11.2119
目揵連	-11.212
歌	-11.2121
三類	-11.2122
見苦集滅所斷	-11.2127
集智已生	-11.2127
苦智已生集智未生	-11.2129
若退法者	-11.213
答若法	-11.213
諸門分別	-11.213
棄背	-11.2132
或修所斷	-11.2134
復次行者	-11.2134
前四勝處	-11.2137
他有情	-11.2137
所感	-11.2142
二十三	-11.2144
身界	-11.2146
育多婆提	-11.2147
如後當	-11.2147
能斷惑	-11.2148
為支	-11.2148
及彼相應法	-11.2148
有十一	-11.2149
解脫果	-11.2151
智緣盡	-11.2154
不得此無表	-11.2154
萬六千	-11.2154
第九解脫	-11.2155
本論中	-11.2155
種性根	-11.2156
此下大文第	-11.2157
不實	-11.216
能修未來	-11.216
經生	-11.2161
法證淨	-11.2162
又彼所說	-11.2162
不耶	-11.2163
或非學非無學	-11.2164
慈等	-11.217
定障	-11.2172
五十二	-11.2174
所遮	-11.2175
三十三	-11.2177
此在何位	-11.2179
緣非學非無學	-11.2186
生梵世	-11.2189
依欲界身	-11.2191
相狀	-11.2191
未至定靜慮中間	-11.2191
不戒律處	-11.2192
邪業	-11.2193
異部	-11.2193
隨得	-11.2194
緣修斷	-11.2196
趣入	-11.2201
則不應說	-11.2202
一切皆是	-11.2204
謂初靜慮	-11.2204
尚無	-11.2205
麁重	-11.2205
等種種	-11.2207
正滅	-11.2208
所得果	-11.221
次觀	-11.2217
住劫	-11.2225
身壞	-11.2228
入初靜慮	-11.2233
不悅	-11.2233
故於此中	-11.224
門也	-11.2241
結前	-11.2246
味界	-11.2246
禪中間	-11.2251
等念	-11.2251
諸法相	-11.2252
是顛倒	-11.2253
學根	-11.2253
二月	-11.2254
未離無色界貪	-11.2256
色無為	-11.2256
苦憂根	-11.2257
見處非見	-11.2262
屠羊	-11.2262
層級	-11.2263
乏	-11.2267
草木	-11.2268
嫌	-11.2269
雖俱	-11.2269
下半頌	-11.227
審思	-11.2271
塵垢	-11.2271
垂	-11.2271
諸大論師	-11.2275
鳴	-11.2277
見習斷	-11.2277
勳	-11.2278
傾動	-11.2279
渡	-11.228
故名無間	-11.2281
寂靜勝	-11.2282
答為欲分別契經	-11.2282
八忍	-11.2282
脇尊者言	-11.2283
五義	-11.2283
復作此論	-11.2283
法及定不生法	-11.2284
無餘依涅槃界	-11.2285
應供	-11.2286
所餘一切	-11.2286
眼識等	-11.2287
得四沙門果	-11.2288
念覺	-11.229
斷有頂	-11.2291
施與	-11.2292
教戒	-11.2294
離第二靜慮染	-11.2294
殊勝功德	-11.2295
增時	-11.2295
已永斷	-11.2295
身口非戒無教	-11.2296
命根眾同分	-11.2296
離色界染	-11.2299
幾智現在前	-11.2299
千歲	-11.23
不善身表	-11.23
有益	-11.23
禪枝	-11.2302
慈心定	-11.2303
已起滅	-11.2305
聖位	-11.2307
謂已得	-11.2311
不誤	-11.2312
答因增上	-11.2314
或有欲令	-11.2315
略去	-11.2316
四云	-11.2316
正道	-11.2318
有想無想處	-11.2323
名稱	-11.2323
戲論	-11.2326
治生	-11.2328
方處	-11.2332
勤精進	-11.2338
無勞	-11.2343
成實	-11.2343
極光淨天	-11.2344
為三果	-11.2344
乃至離	-11.2345
欲界三種	-11.2348
能進	-11.2348
所斷結	-11.2352
云何色界繫	-11.2353
此下釋	-11.2356
苾芻等	-11.2356
遍六識	-11.2358
發智	-11.236
教無教	-11.236
無常滅	-11.2361
無漏作意相應	-11.2362
近因	-11.2363
彼根非	-11.2364
外入	-11.2365
六觸處	-11.2367
苦行相	-11.237
殺生等	-11.237
若爾應	-11.2383
若法入	-11.2383
無遮	-11.2386
山頂	-11.2388
此理	-11.2388
解義	-11.2393
應觀	-11.2393
亦如前說	-11.2394
就明	-11.2395
有別物	-11.2397
明觸	-11.2398
菩提分	-11.2402
憶知	-11.2404
凡夫聖人	-11.2407
斷集	-11.2411
體實	-11.2416
下釋	-11.2416
畢	-11.2417
無色界修所斷	-11.2417
獵	-11.2417
於五取蘊	-11.2418
氏	-11.2419
及修所斷隨眠隨增	-11.2419
叫	-11.242
喚	-11.242
可了	-11.2423
坑	-11.2425
杌	-11.2425
法蘊足論	-11.2426
閻浮提	-11.243
如是展轉	-11.2431
遷	-11.2433
殖	-11.2434
聞思	-11.2435
八萬劫	-11.2436
離欲得	-11.2437
虛空界	-11.2437
設劬勞	-11.2437
八日	-11.244
三種業	-11.2441
滅智已生	-11.2442
無見無對	-11.2444
外門轉	-11.2445
見所斷心	-11.2445
體已斷	-11.2446
四顛倒	-11.2449
初靜慮地	-11.245
智所知	-11.2451
能益	-11.2454
依上地	-11.2459
我及世間	-11.246
俱生品	-11.2462
正直	-11.2465
遊行	-11.2465
三障	-11.2474
譽	-11.2475
佛知	-11.2476
諸餘心心所法	-11.2477
煩惱盡	-11.2478
無間道中	-11.2479
修彼道時	-11.2479
學道	-11.2481
復作是念	-11.2482
諸無漏道	-11.2483
苦集滅智	-11.2488
作意等	-11.2489
邪精進	-11.2492
空無願無相	-11.2493
生無想天	-11.2493
初禪枝	-11.2494
問何等	-11.2495
所感異熟	-11.2497
諸處	-11.2497
害母	-11.2499
散善	-11.2504
求解脫	-11.2505
初禪二禪	-11.2507
林中	-11.2509
是遍行	-11.2512
本不得	-11.2517
陰中	-11.2522
彼所執	-11.2522
一期	-11.2524
自見	-11.2524
無染心	-11.2533
憂慼	-11.2536
異師	-11.2537
於父	-11.2542
無色染	-11.2545
為增上緣	-11.2549
順上分	-11.2551
斷諸煩惱	-11.2554
第五明	-11.2554
於父母	-11.2561
緣不斷	-11.2561
而無有	-11.2562
惑滅	-11.2564
說是語	-11.2565
使所不使	-11.2565
本來	-11.2566
耳等	-11.2567
忽	-11.2569
血肉	-11.2573
鄔波	-11.2574
揵	-11.2574
焚	-11.2574
後文	-11.2574
彼行者	-11.2576
醎	-11.2577
焉	-11.2579
邑	-11.2579
第二第三靜慮	-11.258
煞	-11.2582
前三句	-11.2582
白色	-11.2583
禽獸	-11.2583
陰界入	-11.2584
精血	-11.2585
穿	-11.2587
此師意說	-11.2589
心次第	-11.2589
染污慧	-11.2591
▁15	-11.2592
當言為緣而不為因	-11.2593
所有隨眠	-11.2594
勤策律儀	-11.2598
如意足	-11.26
義是根義	-11.26
前說為善	-11.2601
頓生	-11.2602
小兒	-11.2602
出息入息覺知	-11.2602
答若前生未斷則繫	-11.2604
頓起	-11.2604
色愛未盡	-11.2608
而自	-11.2612
容起	-11.2613
下賤	-11.2616
無行般涅槃	-11.2617
所化有情	-11.2619
如前廣說	-11.2621
當果	-11.2621
亦得名	-11.2625
能覺	-11.2626
亦應如是	-11.2626
謗因	-11.2629
增上義	-11.2629
謂見苦所斷	-11.263
五識身相應	-11.2631
欲覺	-11.2633
則成就	-11.2636
最重	-11.2637
經久	-11.2638
三禪地	-11.2639
男女根	-11.2641
下上	-11.2642
反問	-11.2643
有死生	-11.2646
者論云	-11.2646
必不生	-11.265
欲界初靜慮	-11.2651
界繫	-11.2654
剎那定	-11.2656
害界	-11.2656
色界繫善心	-11.2665
顛倒想	-11.2667
光音天	-11.2674
光音	-11.2675
及未來現在	-11.2679
無損	-11.2686
數起	-11.2686
宿業	-11.2687
假非實	-11.2688
迴向	-11.2688
惡意樂	-11.2692
般若	-11.2692
俱時生	-11.2693
發無表	-11.2694
婆沙評家	-11.2696
云何得知	-11.2699
故契經言	-11.2701
分為三	-11.2704
於己	-11.2709
必先	-11.2709
害尋	-11.271
言音	-11.2713
無想有情	-11.2714
無滯	-11.2714
易知	-11.2715
不攝不相應	-11.2715
說彼為	-11.2718
種等	-11.272
佛獨覺	-11.2721
一千	-11.2722
廣明	-11.2723
身表業	-11.2723
所領	-11.2724
退已	-11.2725
無間解脫道	-11.2726
覆藏	-11.2728
到彼岸	-11.2729
生欲界中	-11.2729
五見中	-11.2729
應一向記	-11.2731
見四諦	-11.2735
小相	-11.2737
緣身慧	-11.2738
但據	-11.2739
漏盡智	-11.274
胡	-11.274
淺	-11.274
皰	-11.2741
阿笈摩	-11.2744
藍	-11.2745
青瘀	-11.2745
集類智已生	-11.2745
從癡生	-11.2745
龍象	-11.2745
見欲界色	-11.2746
身行口行	-11.2746
飾	-11.2746
附	-11.2746
恣	-11.2747
製	-11.2747
總別	-11.2747
如何言	-11.2747
來詣佛所	-11.2747
有情名聲	-11.2749
二俱有過	-11.2753
谷	-11.2754
知一切法	-11.2754
護覺意	-11.2756
不違理	-11.2756
半行頌	-11.2757
相似相續	-11.2757
順後句	-11.2757
隨地	-11.2758
若無漏為加行	-11.2758
預流一來	-11.2758
不爾云何	-11.276
遠分對治	-11.276
相續不斷	-11.2761
灾	-11.2762
味身	-11.2764
眼識相應	-11.2767
集異門	-11.2767
自體不應自體	-11.2768
化人	-11.2769
侵惱	-11.2772
二俱不繫	-11.2774
波伽羅那	-11.2775
空相應	-11.2775
此下第	-11.2775
經亦說	-11.2781
有表業	-11.2783
此二十二根	-11.2784
是名外	-11.2785
多句身	-11.2786
盡未知智	-11.2786
有想天	-11.2789
勝果	-11.279
於前所說	-11.279
願我	-11.279
分位差別	-11.2792
若阿羅漢	-11.2795
應思擇	-11.2796
除異熟	-11.2798
教理	-11.2799
十一根	-11.28
各有二	-11.28
有過去愛結繫	-11.2801
不相應行蘊	-11.2801
不往	-11.2802
虛空非擇滅	-11.2803
大種造色	-11.2803
設難	-11.2804
定覺支	-11.2804
現修	-11.2809
共因	-11.2816
故非識住	-11.2823
暴	-11.2823
能礙	-11.283
如此等	-11.283
故偏	-11.2835
捨異生性	-11.2835
前八品	-11.2837
已說自性	-11.2839
不修心	-11.2839
智作證	-11.284
釋下兩句	-11.2841
前三無色	-11.2842
是名色陰	-11.2844
別別	-11.2846
受用退	-11.2847
無缺	-11.2849
成十八	-11.2854
准此釋	-11.2855
煖法	-11.2856
六智知	-11.2858
重釋	-11.2861
所能	-11.2863
離欲時	-11.2867
復有說	-11.2869
聖教中	-11.2874
滅道諦	-11.2879
夜增	-11.288
間隔	-11.2881
謂無色界生長	-11.2882
五類	-11.2882
眼識生	-11.2882
緣滅道	-11.2884
層	-11.2884
與後生	-11.2885
行蘊攝	-11.2886
所招	-11.2887
樂報	-11.2889
極妙	-11.2891
念住等	-11.2892
自性善	-11.2895
猪	-11.2896
無願無願	-11.2896
脚	-11.2896
仗	-11.29
修習多修習	-11.2905
目連	-11.2907
載	-11.2907
逸	-11.2908
若法界	-11.2908
不具足	-11.291
孔	-11.2912
如是四種	-11.2913
盡不失則成就	-11.2913
使緣使非相應使	-11.2915
警	-11.2916
十六種	-11.2917
卷第八	-11.2918
生處得智	-11.2918
膩	-11.2918
擾亂	-11.2919
懃	-11.2921
云何行陰	-11.2924
善無色	-11.2925
又婆沙	-11.2927
正理釋云	-11.2927
說之為	-11.2928
引眾同分	-11.2929
樂喜捨	-11.2929
經部師說	-11.2929
是名內	-11.2933
亦應名	-11.2934
有漏身進	-11.2934
不攝何等	-11.2935
謂欲色界	-11.2938
生天上	-11.2938
燈焰	-11.294
正方便	-11.294
行緣識	-11.294
七慢	-11.2943
為四緣	-11.2946
體性是何	-11.295
成辦	-11.2955
道法忍	-11.2959
毗婆沙師	-11.2959
為一增上	-11.296
本事	-11.2962
欲漏有漏	-11.2963
自在等	-11.2964
根本定	-11.2964
是四智	-11.2964
契經說故	-11.2965
能辦	-11.2969
熏習	-11.2969
嫉慳結	-11.2969
日出	-11.297
強力	-11.2971
乃至阿羅漢果	-11.2972
樂著	-11.2975
就勝說	-11.2975
後邊	-11.2978
諸不善心	-11.2983
幾緣緣	-11.2985
何世	-11.2987
不染污心	-11.2987
未成	-11.2991
第十一	-11.2996
有覆無記色	-11.2996
相隣	-11.2998
六十二見	-11.2998
自識	-11.3
所繫事	-11.3001
一面	-11.3005
重得	-11.3006
友	-11.3008
返	-11.3009
過去色	-11.3009
同性	-11.3009
是名行陰	-11.301
或云	-11.301
如世間說	-11.301
愛語	-11.3016
相合	-11.3022
然於此中	-11.3022
千世界	-11.3023
生得善心	-11.3024
毘婆沙師至	-11.3028
眼見色已	-11.3029
未來所修	-11.303
三千	-11.3032
為過患	-11.3032
過去大種	-11.3033
十位	-11.3036
梵音	-11.3038
影像	-11.3039
今於此中	-11.3046
告言	-11.305
非陰攝	-11.3057
揭	-11.3059
心悅	-11.3061
生等生	-11.3063
為所緣故	-11.3063
可令	-11.3063
文中初問	-11.3064
欲界所繫	-11.3066
貧	-11.3067
知過去	-11.3068
若無常若苦若空若無我	-11.3068
側	-11.3073
無常行相	-11.3074
滅類智已生	-11.3074
有處說	-11.3075
具二種	-11.3076
有過去愛結	-11.3076
體應	-11.3077
四大王眾天	-11.3077
調達	-11.3078
廣如彼釋	-11.3079
調柔	-11.308
無因無緣	-11.308
又復	-11.3081
曇	-11.3083
善逝	-11.3085
親里	-11.3086
崇	-11.3087
十八界攝	-11.3088
滅智未生	-11.309
於現法中	-11.3092
諸色界繫善心	-11.3093
求生	-11.3094
慈定	-11.3094
天道	-11.3098
舍利弗阿毘曇論	-11.3098
善通達	-11.3098
識緣名色	-11.31
北涼天竺沙門浮陀跋摩共道泰等譯	-11.3101
迦旃延子造五百羅漢釋	-11.3102
成六	-11.3103
不緣下	-11.3104
我已知苦	-11.3104
堅信人	-11.3105
不隱沒無記心	-11.3108
觀苦	-11.3113
相擊	-11.3121
盡知	-11.3123
起惡	-11.3125
身妙行	-11.3128
行施	-11.3128
如實知色	-11.3129
扇搋等	-11.3131
諸欲界繫善心	-11.3131
別類	-11.3132
是名第二	-11.3133
復作是言	-11.3136
離彼染	-11.3139
五色根	-11.3139
外道執	-11.314
苾芻眾	-11.3141
佛僧	-11.3143
有學位	-11.3157
是名苦聖諦	-11.316
出過	-11.3164
比智分	-11.3167
名譽	-11.317
況復	-11.3171
流通	-11.3175
行苦行	-11.3177
無漏心心所法	-11.3179
入聖道者	-11.3179
五種斷	-11.3183
八云	-11.3183
堅等	-11.3184
於一切眾生	-11.3192
九遍知	-11.3195
厭惡	-11.3195
謂預流果	-11.3196
墮地獄	-11.3196
對治修	-11.3196
辯無礙解	-11.3197
色心不相應行	-11.3201
合集	-11.3202
廣果天	-11.3203
有問言	-11.3203
纏心	-11.3204
准婆沙	-11.3204
此位中	-11.3206
七八	-11.3207
習諦所斷	-11.3212
而作是說	-11.3215
各有四	-11.3223
已起滅法智	-11.3224
各具	-11.3224
且應	-11.3225
云何苦聖諦	-11.3229
有十四	-11.3229
欲界繫造色	-11.3229
方便善心	-11.3232
頞	-11.3232
五順下分結	-11.3232
焚燒	-11.3233
烏	-11.3233
抱	-11.3233
蔑	-11.3234
叉	-11.3235
善染	-11.3241
已斷因	-11.3241
骨瑣	-11.3242
捕	-11.3242
舒	-11.3243
更說	-11.3244
伺察	-11.3245
已離染	-11.3245
尊者世友說曰	-11.3246
應捨置	-11.3248
亦得名為	-11.3249
生上界	-11.3249
穴	-11.325
緣苦諦	-11.3251
水災	-11.3253
生住老無常	-11.3253
聰明	-11.3255
修所斷惑	-11.3255
婆沙一百五十	-11.3256
遍知苦	-11.3256
小惑	-11.3257
往昔	-11.3258
彼結盡非果攝	-11.3259
能了知	-11.3259
火焰	-11.3261
無常苦空無我	-11.3261
不退法者	-11.3261
見苦諦時	-11.3263
行解	-11.3263
霧	-11.3265
見趣	-11.3265
亦無有	-11.3265
不如實知	-11.3267
第二第三第四靜慮	-11.3272
相資	-11.3274
法界一分	-11.3275
不還向	-11.3276
隨煩惱纏	-11.3276
唯在欲界	-11.3276
業品	-11.3278
頓緣	-11.3281
未離初靜慮染	-11.3287
是道諦	-11.3288
不由加行	-11.3289
離散	-11.3289
不成就欲界繫善心	-11.3294
持業釋也	-11.3296
類釋	-11.3296
必俱	-11.3297
長壽	-11.3299
并前	-11.3299
記別	-11.3302
先來	-11.3303
色界繫造色	-11.3303
倒想	-11.331
眼等識	-11.3312
從此第四	-11.332
彼計	-11.3322
謂無施	-11.3322
學見現在前	-11.3324
千年	-11.3326
不復更	-11.3329
思相應	-11.3331
復次世尊	-11.3341
退阿羅漢果	-11.3343
異熟大種	-11.3343
何事	-11.3344
無色地	-11.3344
或撥無	-11.3345
所緣有對	-11.3348
故不立根	-11.3349
契	-11.3349
通所依	-11.335
如實覺	-11.3352
彼定成就	-11.3354
無想定滅盡定	-11.3356
六垢	-11.3359
述曰此釋	-11.336
見集滅道	-11.3364
十二行	-11.3364
癡人	-11.3364
除通果心	-11.3365
是不繫	-11.3365
七云	-11.337
此唯攝	-11.337
白法	-11.337
火大	-11.3372
諸結使	-11.3373
依四靜慮	-11.3375
表無表業	-11.3379
成就過去空	-11.3382
受欲有	-11.3384
設成就現在	-11.3384
執持	-11.3384
來至	-11.3384
除他心智	-11.3388
鼻舌身	-11.3388
皆如前說	-11.339
立蓋	-11.3393
容有退	-11.3395
斷遍知所遍知	-11.3395
泥洹	-11.3395
立宗	-11.3402
曉了	-11.3403
慧蘊	-11.3403
敬禮	-11.3403
偷盜	-11.3405
快	-11.3407
聲香味觸法	-11.3407
根力	-11.3408
學見迹	-11.3409
臍	-11.341
風災	-11.3411
盡無餘	-11.3414
裹	-11.3414
有二義	-11.3415
諂曲	-11.3416
猴	-11.3417
鉢羅	-11.3417
此洲	-11.3418
為簡	-11.3418
卷第九	-11.3418
究	-11.3418
麟角喻	-11.3418
素	-11.3418
惛眠	-11.3419
源	-11.342
羅剎	-11.3421
無時非因	-11.3422
拒	-11.3422
名劣	-11.3422
眼根乃至無色界修所斷無明隨眠	-11.3424
故偏說之	-11.3424
順生受	-11.3425
婆沙三十	-11.3425
怯弱	-11.3425
勝功德	-11.3427
自此已下	-11.3427
理亦應然	-11.3427
其理極成	-11.3429
妙色	-11.3429
空行相	-11.343
謂處卵㲉	-11.343
道現觀三心頃	-11.343
於其中間	-11.3432
亦作是說	-11.3433
緣三諦	-11.3435
起此定	-11.3435
所障	-11.3436
身長	-11.3436
於修所斷法	-11.3438
能超	-11.3438
根律儀	-11.3438
名即差別	-11.3439
法住智	-11.344
災橫	-11.3441
東西	-11.3443
有無明結繫	-11.3444
設當	-11.3444
無有能過	-11.3446
無不皆	-11.3447
先離欲	-11.3447
互相望	-11.3449
意思	-11.3452
唯意識	-11.3455
分段	-11.3455
苦盡	-11.3456
若本不得	-11.3459
緣修所斷	-11.3461
命終已	-11.3464
最後心	-11.3465
去來世	-11.347
入非想非非想處	-11.3471
不共法	-11.3471
四字	-11.3472
起增上慢	-11.3473
三部	-11.3474
自品	-11.3474
發願	-11.3478
唯是善	-11.3478
損惱	-11.3479
味著	-11.3483
當勝解	-11.3488
真解脫	-11.3492
瑜伽師	-11.3495
更起	-11.3495
修不淨觀	-11.3497
不可得故	-11.3499
得離繫	-11.3504
諸如是等	-11.3505
苦智耶	-11.3506
麁惡	-11.3506
大眾部等	-11.3507
方得生	-11.3512
諸無為法	-11.3516
勝道	-11.3519
此義云何	-11.352
眾人	-11.3528
同一果故	-11.3534
力起	-11.3534
謂欲界色界生長	-11.3537
七隨眠	-11.3538
解脫知見	-11.3543
及滅道智	-11.3548
道戒	-11.3549
猶如有一	-11.355
無嗔	-11.355
一切結盡	-11.3558
糞穢	-11.3565
四無礙解	-11.3566
是見道斷	-11.3567
作是問	-11.3567
大仙	-11.3569
乃能	-11.3572
髓	-11.3572
固	-11.3572
猶為	-11.3575
義邊	-11.3575
因謂因	-11.3578
率	-11.3578
非界非處	-11.3582
互不相	-11.3583
緣無為	-11.3585
枯	-11.3586
二十種	-11.3586
設盡便失則不成就	-11.3588
爪	-11.3589
如樹	-11.3589
彈	-11.359
惜	-11.3592
春	-11.3592
暢	-11.3593
如來應正等覺	-11.3594
驅	-11.3594
識身足論	-11.3594
於佛法	-11.3595
頞部曇	-11.3595
除其自性	-11.3595
衣鉢	-11.3596
道類智未生	-11.3597
非等無間	-11.3601
二種業	-11.3602
異熟障	-11.3603
共住	-11.3603
阿修羅	-11.3604
犢子	-11.3604
受律儀	-11.3605
定量	-11.3605
等者等取	-11.3606
五妙欲	-11.3607
此後於彼復起	-11.3609
得定心住正住	-11.3611
或三界繫或不繫	-11.3611
及不定受	-11.3612
尊者瞿沙說曰	-11.3612
此中有說	-11.3612
取陰	-11.3612
若諸異生	-11.3613
正念正定	-11.3615
就初	-11.3618
色無色界結	-11.3619
尚不能	-11.3621
所依根	-11.3621
或依未至滅	-11.3621
離初禪欲	-11.3623
如是不放逸觀	-11.3625
歸依佛	-11.3625
現法涅槃	-11.3626
觀智具足	-11.3626
卷第四十	-11.3627
熟變	-11.3629
至究竟	-11.3629
好香	-11.3632
感異熟	-11.3632
已離無所有處染	-11.3633
自地味相應	-11.3634
緣緣識所增隨眠	-11.3637
瞋癡	-11.3637
幾法相應	-11.3641
有漏及無漏	-11.3642
二萬	-11.3642
能憶知	-11.365
一時得	-11.3655
如譬喻者	-11.3657
見道所斷結	-11.3661
得殺罪	-11.3662
審觀	-11.3663
受想等	-11.3664
於誰	-11.3666
三十五	-11.3669
彼上座	-11.3674
色有相續	-11.3674
十一切入	-11.3678
亦不可說	-11.3678
未離染	-11.3679
釋上兩句	-11.368
五淨居	-11.3684
有愛結繫	-11.3684
根本四禪	-11.3685
同一所緣	-11.3688
水火	-11.3691
色聲觸	-11.3691
有何意耶	-11.3703
扇搋	-11.3706
若謂此	-11.3706
如是已辯	-11.3706
緣道諦	-11.3707
諸諦	-11.3708
通難	-11.371
誰為	-11.3711
作是念已	-11.3712
毗婆沙	-11.3713
修所斷無明隨眠	-11.3719
修世俗智	-11.3721
四無畏	-11.3721
欲界煩惱	-11.3725
由三緣	-11.3726
次前	-11.3728
刃	-11.373
乘前	-11.373
四句分別	-11.3732
世俗智現在前	-11.3732
隨屬	-11.3733
堪達	-11.3735
貪瞋等	-11.3739
所辯	-11.374
若遇	-11.3742
今欲說	-11.3744
擾	-11.3745
所了	-11.3749
筋	-11.3749
曇摩	-11.3753
唐	-11.3753
神力	-11.3753
醫藥	-11.3757
吹	-11.3758
能任持	-11.3759
價	-11.3763
顏	-11.3763
修無常想	-11.3764
勇健	-11.3764
謂契經中世尊善語善詞善說	-11.3766
大種為因	-11.3767
伴侶	-11.3768
清涼	-11.3768
親教	-11.3768
嚴飾	-11.3769
吞	-11.3769
赴	-11.3769
愍	-11.377
極重	-11.3771
躁動	-11.3772
順樂受業	-11.3774
搆	-11.3774
澤	-11.3774
無雜亂	-11.3778
通餘章義准此應知	-11.378
朝	-11.3783
其體未斷	-11.3786
就勝	-11.3791
諸字	-11.3791
空處識處	-11.3794
青黃	-11.3796
汝作是言	-11.3796
無貪性	-11.3798
二識識	-11.3799
聲聞辟支佛	-11.3799
故別立	-11.38
輕安樂	-11.3801
為等流果	-11.3801
小煩惱地法	-11.3803
頓現觀	-11.3805
所更事	-11.3805
亦不說	-11.3806
一正明	-11.3806
王位	-11.3808
還起	-11.3808
第一義諦	-11.3808
已勝解	-11.381
是有對	-11.381
無亂	-11.3811
一一別	-11.3815
法智未知智	-11.3816
但應說	-11.3817
梵輔天	-11.382
資助	-11.3821
此三結	-11.3822
此業能感	-11.3823
能壞	-11.3824
城中	-11.3832
西方師	-11.3837
喜處	-11.384
眼等五識	-11.384
非常等	-11.3845
唯願	-11.3851
三識身	-11.3851
合立一	-11.3853
離殺生	-11.386
事現觀	-11.3861
比丘如是思惟	-11.3863
立遍知	-11.3863
諸方	-11.3864
為所緣境	-11.3866
禪定	-11.3869
得好	-11.3869
且依	-11.387
不應許	-11.3872
對觀	-11.3873
出滅定	-11.3879
漸捨	-11.3879
初靜慮眼識	-11.3882
十大地法	-11.3884
覆蔽	-11.3885
無量種	-11.3886
並生	-11.3889
精進覺支	-11.3902
釋第三	-11.3912
入無想	-11.3917
修他心智	-11.3918
少多	-11.3918
緣滅類智斷	-11.3924
耳鼻舌	-11.3928
大地獄	-11.3928
隨眠品	-11.393
共許	-11.3933
釋第二	-11.3935
富樂	-11.3935
生歡喜	-11.3937
弊	-11.3938
首盧	-11.3939
非學非無學見	-11.3939
婆沙七十	-11.3939
名有隨眠心	-11.3941
膝	-11.3941
看	-11.3942
􂌞	-11.3943
胎卵	-11.3945
修道所斷法	-11.3945
名預流	-11.3946
所造色非有見色	-11.3946
本有教不失	-11.3947
未知當知	-11.395
勵	-11.395
悟入	-11.395
依六地	-11.3952
義是界義	-11.3952
履	-11.3952
古昔	-11.3953
起等起	-11.3953
有二類	-11.3954
孫	-11.3954
談	-11.3955
薰	-11.3956
僻	-11.3957
藥草	-11.3957
為菩提分法	-11.3957
日輪	-11.3958
被燒	-11.3959
見苦集斷不一切遍	-11.3961
之差別	-11.3962
時愛心解脫	-11.3962
讀	-11.3962
隨轉身口業	-11.3963
修道所滅	-11.3963
答第二問	-11.3963
成就幾不成就幾	-11.3963
揣食	-11.3964
隨其所	-11.3968
若成就過去空	-11.3969
因者一因	-11.397
還與	-11.3971
汝聽	-11.3971
故彼所言	-11.3973
諦聽	-11.3974
端正	-11.3974
擾惱	-11.3976
想思觸	-11.3976
悉皆	-11.3978
易得	-11.3979
煩惱現在前	-11.398
闕一	-11.3982
大不善地法	-11.3982
有一人	-11.3983
見結未斷	-11.3984
於此位	-11.3985
草等	-11.3987
器中	-11.3987
見苦時	-11.3987
所斷結種斷	-11.3988
准此應知	-11.399
俱有相應	-11.3992
心所起集聲音句言語口教	-11.3993
義利	-11.3995
又婆沙云	-11.3996
禁戒	-11.3999
苦類智忍	-11.4
微廣	-11.4
而死	-11.4013
應知亦然	-11.4014
觸對	-11.4016
何故唯說	-11.4017
諸部	-11.4019
第四禪地	-11.402
不名增長	-11.4022
所稱	-11.4023
是我所	-11.4024
苾芻律儀	-11.4024
離虛誑語	-11.4024
善不善無記者	-11.403
以手	-11.4034
愚惑	-11.4036
未離貪	-11.4038
伴性	-11.4039
入過去	-11.4042
道所斷	-11.4042
有垢	-11.4043
苦集道	-11.4047
前世	-11.4048
無記性攝	-11.4049
若成就未來	-11.4049
乃至命終	-11.4049
云何想陰	-11.405
且約	-11.4051
轉計	-11.4052
能永	-11.4056
此岸	-11.4056
順後次受業	-11.406
無學正思惟	-11.4063
餘物	-11.4063
得阿羅漢果時	-11.4069
堅性	-11.407
起世俗心	-11.407
引後	-11.4072
豈得	-11.4072
現觀邊忍所	-11.4072
永不生	-11.4074
漸命終	-11.4074
十五界	-11.408
三支	-11.4085
下八地	-11.4087
漸斷	-11.4089
法藏	-11.4092
卒	-11.4097
離初靜慮染	-11.4111
十三界	-11.4113
世道	-11.4114
擇滅無為	-11.4114
十千	-11.4117
緣縛斷	-11.4117
善法報	-11.4118
是名意界	-11.4119
為遍行因	-11.4122
捺落迦	-11.4122
隨眠是所隨增	-11.4122
俱舍論	-11.4123
月輪	-11.413
欻	-11.413
雪	-11.4131
戾	-11.4133
須彌山	-11.4134
錄	-11.4135
所緣故隨增亦相應故	-11.4135
勒	-11.4136
集異門足論	-11.4136
〕-【	-11.4136
充滿	-11.4137
花鬘	-11.4139
能遍知	-11.4139
慈無量	-11.414
順樂受觸	-11.4141
種果	-11.4141
救濟	-11.4142
准上	-11.4143
太子	-11.4143
又彼所言	-11.4145
譬如有人	-11.4146
惡口	-11.4146
復有二法	-11.4146
攀	-11.4147
亦無失	-11.4148
配	-11.4148
成就不成就	-11.4148
當於爾時	-11.4149
超過	-11.4149
欲愛已盡	-11.415
見言不見	-11.415
鎮	-11.415
屈伏	-11.4151
從此大文第	-11.4151
農夫	-11.4151
非時解脫	-11.4151
欲色二界	-11.4152
謂無為法	-11.4155
由斯故說	-11.4155
謂自界四	-11.4156
第十六心	-11.4158
若退若生	-11.4158
有餘依涅槃界	-11.4159
故佛唯說	-11.416
無色界死	-11.4161
軌範師	-11.4162
為己	-11.4162
誰復	-11.4163
火燒	-11.4166
如理應知	-11.4172
若智地若觀解脫心	-11.4172
於此間	-11.4173
不用定	-11.4173
邪道	-11.4174
十善業道	-11.4176
諦現觀	-11.4177
成就無色界繫有覆無記心	-11.4177
信樂	-11.4182
所引發故	-11.4182
尊勝	-11.4183
近治	-11.4186
水輪	-11.4188
穢污心	-11.4189
煖頂忍	-11.4194
唯許	-11.4195
非學非無學慧	-11.4196
是名想陰	-11.4201
於所緣境	-11.4205
八聖道	-11.4206
故彼所說	-11.4207
所殺	-11.4209
答若現在前	-11.4213
心栽	-11.4214
纏垢	-11.4218
有何過	-11.4225
第二念等	-11.4225
說此名	-11.4231
緣非所斷	-11.4233
若住非律儀非不律儀	-11.4234
觀欲界苦	-11.4236
眾聖	-11.4238
不應成	-11.4238
不墮界	-11.4243
無有退	-11.4247
闇中	-11.4247
云何受陰	-11.4249
地神	-11.4252
生住滅	-11.4255
一一極微	-11.4262
論宗	-11.4263
四天王	-11.4264
有取結繫	-11.4271
是因義	-11.4272
斷德	-11.4276
相異	-11.428
亦不得	-11.4285
便般涅槃	-11.4286
世智	-11.4289
能越	-11.4291
諸佛世尊	-11.4291
謂諸聖者	-11.4296
耽嗜	-11.4297
覆障	-11.4297
法處所攝	-11.4297
得不動	-11.4301
速疾迴轉	-11.4306
除世貪憂	-11.4306
親愛	-11.4306
臂	-11.4309
豈不此	-11.4309
有漏心心所法	-11.431
餘一切法	-11.4314
務	-11.4316
勤勇	-11.4316
沙彌	-11.4317
所引經	-11.4318
於道思惟道	-11.4319
兔	-11.4319
蚊	-11.432
見亦見處	-11.4322
然其	-11.4322
半擇迦	-11.4324
傷歎	-11.4324
次第非次第緣緣	-11.4324
房舍	-11.4325
科	-11.4325
藥叉	-11.4326
渧	-11.4327
若不如理所引了別	-11.4327
本性念生智	-11.4328
辛	-11.433
事用	-11.4331
卷第二	-11.4331
若未滅設滅已失則不成就	-11.4332
真道	-11.4332
蒙	-11.4332
流注	-11.4333
或二或三	-11.4335
相應使非緣者	-11.4335
緣使亦相應使者	-11.4336
得須陀洹果乃至阿羅漢果	-11.4337
塔	-11.4337
無著	-11.4337
此文初也	-11.4338
地水火風	-11.4339
得俱起	-11.4339
綺語	-11.4339
由如是等種種因緣	-11.4339
滅受想定	-11.4341
於理為善	-11.4342
下苦	-11.4342
堅著	-11.4344
善利	-11.4344
欺	-11.4346
若依未至	-11.4347
天中有	-11.4347
復有三	-11.4348
四證淨	-11.4352
不攝者何	-11.4352
隨眠相應識	-11.4353
解脫蘊	-11.4353
好色非好色	-11.4353
一業引	-11.4354
何等未斷	-11.4358
達分善根	-11.4359
第三釋	-11.4359
及彼生等	-11.436
惡友	-11.436
滅類智未	-11.4364
獨處	-11.4365
乃至非想非非想處染	-11.4367
曾得未曾得	-11.4371
十一地	-11.4373
數復	-11.4375
次對過去未來	-11.4376
有諸外道	-11.4377
生人中	-11.4377
於上地	-11.4377
不可施設	-11.4379
類性	-11.4381
有何別	-11.4383
此即第一	-11.4384
六云	-11.4387
未曾得道	-11.4387
數量	-11.4389
三百	-11.4391
類不同	-11.4392
是名受陰	-11.4392
依此地	-11.4393
想行蘊	-11.4394
若能了別	-11.4398
彼心俱有	-11.4398
類別	-11.4398
有一類補特伽羅	-11.44
順退	-11.4401
所應作	-11.4402
教證	-11.4402
能遍緣	-11.4408
靜慮無色	-11.441
依第四禪	-11.441
約地	-11.441
名目	-11.4411
六十五	-11.4417
不立蓋	-11.442
活命	-11.442
是無對	-11.4421
作等無間緣	-11.4423
總有十	-11.4423
離殺	-11.4424
經部難	-11.4424
通云	-11.4426
必待	-11.4427
曾起	-11.4431
本處	-11.4432
留住	-11.4434
不別說	-11.4435
行迹	-11.4436
得作證	-11.4438
由因力	-11.4439
還生欲界	-11.444
香入	-11.4445
更不復	-11.4446
諸纏	-11.4455
契經中言	-11.4456
諸解脫道	-11.4457
其數	-11.4458
欲界有情	-11.4462
卷第一	-11.4463
如是種類	-11.4466
思惟道	-11.4469
淨慧	-11.447
定覺意	-11.447
同類因生	-11.4474
有二事	-11.448
大梵天	-11.448
增上力故	-11.4496
本論言	-11.45
赤色	-11.45
渚	-11.451
眼識所依	-11.451
此中應說	-11.4511
所造色非有對色	-11.4512
補	-11.4513
竭	-11.4513
耳鼻舌身意識	-11.4514
衣服飲食	-11.4515
章義	-11.4515
生老無常	-11.4515
相應故隨增非所緣故	-11.4516
摶	-11.4517
二結繫	-11.4518
揚	-11.4519
兵	-11.4519
屋	-11.4519
追求	-11.4521
一日一夜	-11.4521
推徵	-11.4523
劬勞	-11.4524
為境界故	-11.4525
憑	-11.4525
緣使非相應者	-11.4527
初說為善	-11.4528
牢	-11.4528
滅智道智	-11.4528
如有頌言	-11.4528
要具	-11.4529
生住異滅	-11.453
一切世間不可樂想	-11.4533
相順	-11.4533
輔佐	-11.4535
修知他人心智	-11.4537
憂惱	-11.4538
遍淨愛盡	-11.4539
色愛盡遍知	-11.454
自分因	-11.4541
於此地	-11.4543
稱譽	-11.4543
不應為難	-11.4544
順不定受	-11.4546
外色眼識所知	-11.4547
無分別故	-11.4547
無容起	-11.4549
何勞	-11.455
滅已不捨	-11.455
苦智集智	-11.4552
增勝	-11.4552
是故不應	-11.4554
未離色染	-11.4555
俱生聚中	-11.4555
假說為	-11.4557
四禪地	-11.4557
淨及無漏	-11.456
靜等三行	-11.4563
業法煩惱所生報我分攝	-11.4563
取緣有	-11.4565
種種苦	-11.4565
而轉根者	-11.4567
誰言	-11.457
此中意說	-11.4572
憎惡	-11.4573
二十九	-11.4574
眾僧	-11.4575
得無學果	-11.4577
令諸有情	-11.4583
過重	-11.4583
果滿	-11.4584
下分結	-11.4585
非緣使亦非相應使者	-11.4591
共有因	-11.4599
佛證淨	-11.4601
得證淨	-11.4609
謗果	-11.4619
成就遊	-11.462
未久	-11.4626
諸色法	-11.4628
流出	-11.4631
何容	-11.4631
第八解脫	-11.464
盡當知	-11.464
云何意界	-11.4641
彼作是言	-11.4644
亦無退	-11.4646
取結繫	-11.4646
喻顯	-11.4646
除滅智	-11.4653
雜蘊	-11.4656
應如是說	-11.4657
宿住智	-11.4662
救也	-11.4667
兩解	-11.467
色非色	-11.467
是故前說	-11.467
說此為	-11.4671
語律儀	-11.4673
七十三	-11.4677
比丘思惟	-11.4681
舉數	-11.4683
於何時	-11.4683
虛誑	-11.4684
蘊相續	-11.4685
疑隨眠	-11.4686
取像	-11.4695
義如前釋	-11.4696
名無執受	-11.4697
佛告阿難	-11.4697
捨受相應	-11.4701
悋	-11.4701
鷄	-11.4702
無漏緣隨眠	-11.4702
淳	-11.4703
此二智	-11.4703
校	-11.4705
騰	-11.4705
虎	-11.4706
牟呼栗多	-11.4707
數習數修數多所作	-11.4709
灌	-11.471
徑	-11.471
愈	-11.4711
初習業	-11.4711
塞	-11.4711
界二處四蘊攝	-11.4713
寫	-11.4714
出水	-11.4714
卷第四	-11.4715
決判	-11.4715
若作此解	-11.4716
嬈亂	-11.4717
貧窮	-11.4717
般涅槃時	-11.4718
不善有覆無記	-11.4718
復有別	-11.4718
髻	-11.4719
維	-11.4719
枝葉	-11.4719
佛法中	-11.4722
此生故彼生	-11.4723
錯	-11.4723
無斯過失	-11.4723
窟	-11.4724
無處無容	-11.4724
那含	-11.4727
所增	-11.4729
文中有二	-11.4729
身邊二見	-11.4731
若世俗為加行	-11.4731
天眼天耳	-11.4732
惡慧	-11.4732
變吐	-11.4734
為遮彼意顯	-11.4734
惛沈睡眠	-11.4737
毘尼	-11.4738
可愛果	-11.4743
為因等無間所緣增上	-11.4744
如來力	-11.4744
有貪隨眠	-11.4744
當知總說	-11.4746
初三解脫	-11.4746
全分	-11.4746
一境轉	-11.4748
意觸樂受	-11.4748
云何不繫	-11.475
他心通	-11.4752
後當廣	-11.4754
復有三業	-11.4758
五受根	-11.4759
北方	-11.4766
染污不染污	-11.4768
具二義	-11.4769
六結所繫	-11.4769
自性解脫	-11.477
五順上分結	-11.4773
緣非境界緣	-11.4777
倍增	-11.4777
馬勝	-11.4777
比丘尼	-11.4778
有隨眠心	-11.4779
執受大種為因	-11.4779
現見世間	-11.478
淨第四靜慮	-11.478
本宗	-11.4783
有情同分	-11.4785
而去	-11.4785
互為因果	-11.4786
進退	-11.479
名須陀洹	-11.4799
不立根	-11.4801
久時	-11.4801
思種	-11.4802
染慧	-11.4802
假使	-11.4802
又經中說	-11.4802
胎中	-11.4807
害父	-11.4809
歸敬	-11.4809
是名意入	-11.4811
耳鼻舌身根	-11.4816
總釋	-11.4818
用功	-11.4818
憍慢結	-11.4821
無願耶	-11.4822
無學正智	-11.4828
地獄中有	-11.483
名隨信行	-11.4832
能表	-11.4837
若住不律儀	-11.4842
無對法	-11.4849
彼相應無明	-11.4851
所歸依	-11.4851
可退	-11.4858
可施設	-11.4859
色界法現在前	-11.4862
妄執	-11.4862
諍根	-11.4863
等流異熟	-11.4865
何故不立	-11.4865
得一果	-11.4866
正學	-11.4869
所等起故	-11.4873
彼根緣	-11.4873
亦不相違	-11.4873
云何意入	-11.4874
百五十	-11.4881
緣識所增隨眠	-11.4888
阿僧企耶	-11.4889
苦智相應	-11.489
降雨	-11.4892
有變礙	-11.4896
如金剛	-11.4899
此即第二	-11.4901
語具	-11.4904
聖者生無色界	-11.4905
合掌	-11.4906
本有教便失	-11.4906
剌	-11.4908
順不苦不樂受業	-11.4908
散動馳流	-11.4909
迎	-11.4909
不能一趣繫念一境	-11.4909
經證	-11.4909
怒	-11.4911
瓦	-11.4911
刀杖	-11.4912
除類滅道智	-11.4913
哀	-11.4914
相應隨增	-11.4915
相續一趣繫念一境	-11.4916
持對治	-11.4917
良田	-11.4917
威光	-11.4918
祇	-11.4919
理必不然	-11.4922
足前為	-11.4923
脇尊者曰	-11.4925
戒律	-11.4925
鄔陀夷	-11.4926
無常苦想	-11.4926
若思惟法不生	-11.4927
法界中	-11.4927
所待	-11.4927
若法勝非勝能生	-11.4928
輕躁	-11.4928
求覓	-11.4928
惠施	-11.4929
弊惡	-11.4929
審諦	-11.493
二十中劫	-11.4931
皆不成就	-11.4932
無漏緣使	-11.4932
善見天	-11.4933
說如是言	-11.4935
經部釋	-11.4935
無色界無色	-11.4935
六足	-11.4936
集智已生滅智未生	-11.4938
厭食想	-11.4938
有欲心	-11.4939
齊此名為	-11.4939
隨闕一	-11.4939
七善士趣	-11.4939
見道位中	-11.494
得未曾得	-11.4942
有漏身進有漏身除	-11.4942
能如實知	-11.4943
忍許	-11.4944
成就欲界繫無覆無記心	-11.4945
忍所斷	-11.4945
四禪枝	-11.4945
心迴	-11.4946
是相應義	-11.4947
而白佛言	-11.4948
修觀行者	-11.4949
見滅見道所斷	-11.495
愛恚慢	-11.495
是有餘說	-11.4951
述經部	-11.4951
而得生故	-11.4952
除自體	-11.4956
智遍知	-11.4957
答曰或有說者	-11.496
世尊何故	-11.4961
有對無對	-11.4961
諸有此見	-11.4965
要須	-11.4965
幾學	-11.4968
由田	-11.4969
勝知見	-11.4969
大富	-11.497
有餘師	-11.497
莊嚴身	-11.4972
二禪枝	-11.4974
壞僧	-11.4978
合為一	-11.4979
欲界繫大種	-11.4988
了了	-11.4989
嗅香	-11.499
彼諸外道	-11.4991
印可	-11.4993
成善等	-11.4994
欲界見滅所斷	-11.4995
為二果	-11.4997
此居第	-11.4999
五比丘	-11.5001
燈明	-11.5003
俱行心	-11.5003
十色入	-11.5004
諍論	-11.5005
和合性	-11.5006
三有為相	-11.5016
於中有三	-11.5027
逆次	-11.5027
工巧處心	-11.5029
末摩	-11.503
未曾有	-11.5032
自力起	-11.5037
一切善法	-11.5038
色界大種	-11.5045
能緣一切法	-11.5048
緣滅法智斷	-11.5049
息念	-11.5054
正宗	-11.5057
無記為因	-11.5058
未來修七	-11.5059
雖亦有	-11.5062
眠時	-11.5063
汝意	-11.5064
順流	-11.5065
諸極微	-11.5066
能見色	-11.5067
有恚結繫	-11.5068
頓捨	-11.5068
無為解脫	-11.5069
到已	-11.5069
是無畏	-11.5069
習法智	-11.5071
法處攝	-11.5071
順捨	-11.5071
問誰	-11.5073
唯聖者	-11.5074
更立	-11.5075
如箭	-11.5083
眾妙聲	-11.5085
現在四大	-11.509
心相生	-11.5096
但應言	-11.5097
執著	-11.5097
見集所斷遍行隨眠	-11.5099
非色界繫無覆無記心	-11.5099
藤	-11.5099
無明慢掉	-11.5103
非不善非不善為因	-11.5105
若依正理	-11.5107
鮮	-11.511
於中初	-11.5111
碎	-11.5112
不可說言	-11.5113
盡作證	-11.5113
療	-11.5114
樂變化天	-11.5116
未得無色界善心	-11.5117
審察	-11.5118
於彼相應法	-11.5118
從貪生	-11.5119
錢	-11.5119
欲界修道所斷	-11.512
小乘	-11.512
倦	-11.5121
保	-11.5122
慶	-11.5122
窣堵波	-11.5122
群	-11.5124
船筏	-11.5124
憍陳那	-11.5124
夷	-11.5125
憐愍	-11.5125
婆沙一百七	-11.5127
不可思議	-11.5128
九十一劫	-11.5128
撿	-11.5128
展轉相緣	-11.5128
七十五法中	-11.5129
離下地染	-11.513
彼作經者	-11.513
彼諸得	-11.513
即此復從	-11.513
慇懃	-11.5131
理實應言	-11.5131
巳斷	-11.5134
如前說者好	-11.5134
苦無我想	-11.5134
恩德	-11.5136
相續轉變差別	-11.5137
無我觀	-11.5137
意觸所生愛	-11.5137
化主	-11.5139
晝增	-11.5144
所說云何通	-11.5145
麁等三行	-11.5149
恚結未斷	-11.5149
彼云何斷	-11.5149
起此見	-11.5151
請問	-11.5151
若別說者	-11.5152
墮落	-11.5152
十六字	-11.5159
謂無緣法身分	-11.5162
六十四	-11.5164
恚尋	-11.5165
苦滅聖諦	-11.5165
魔王	-11.5166
欲有相續	-11.5168
若意入	-11.5172
無遺	-11.5176
經是此論所依根本	-11.5176
在何處	-11.5176
色蘊攝	-11.5178
奉行	-11.5181
有緣法	-11.5188
已斷為因	-11.5188
說一切有部答	-11.5188
一切功德	-11.5192
嚴身	-11.5193
所說復云何通	-11.5196
散地	-11.5196
修治	-11.5198
諸結盡	-11.52
四諦智	-11.5202
天女	-11.5205
不得自在	-11.5207
堅牢故	-11.5217
盡法智	-11.5225
集滅道智	-11.5227
像色	-11.5234
幾無記	-11.5234
學練根	-11.5237
成滿時	-11.5244
第六明	-11.5247
是故此法	-11.5252
煩惱大地	-11.5262
深入	-11.5268
分限	-11.5271
大地法十	-11.5271
得阿耨多羅三藐三菩提	-11.5272
不隨心轉	-11.5274
緣苦法智斷	-11.5275
阿羅漢最後心	-11.5275
若智生	-11.5276
古師	-11.5277
來入	-11.528
為因生	-11.5283
欲使彼	-11.5285
無巧便	-11.5287
劍	-11.5294
四通行	-11.53
無漏三無色	-11.5304
熾	-11.5307
斷絕	-11.5309
既生彼巳	-11.5309
捨近行	-11.531
波羅提木叉	-11.5311
無窮過	-11.5311
五識識	-11.5313
閑居	-11.5313
成近事	-11.5315
所屬	-11.5315
頗成就	-11.5316
此願智	-11.5317
昔云	-11.5319
敢	-11.5319
欝	-11.5319
採	-11.5319
試	-11.532
豪	-11.532
甲	-11.532
冠	-11.5322
一因生	-11.5323
欲求	-11.5323
偽	-11.5324
奇	-11.5325
給孤獨	-11.5328
菓	-11.5329
柔	-11.5331
苦諦繫法	-11.5331
世友	-11.5331
良醫	-11.5332
軌則	-11.5333
道諦繫法	-11.5334
旃	-11.5334
賢聖弟子	-11.5334
曲穢濁	-11.5335
諸聖諦繫法	-11.5335
出佛身血	-11.5335
各據一義	-11.5336
植	-11.5336
槃	-11.5336
不說自成	-11.5336
上妙	-11.5337
八聖道支	-11.5337
就中有二	-11.5339
與思俱轉	-11.5339
母腹	-11.534
調適	-11.5341
調御	-11.5342
次兩句	-11.5342
村落	-11.5342
於彼色起無覆無記眼識	-11.5343
匠	-11.5343
無間獄	-11.5344
幾使所使	-11.5345
五盛陰	-11.5346
正理破云	-11.5347
當知亦爾	-11.5347
靜妙離	-11.5348
三禪枝	-11.535
一界少分	-11.535
能治彼	-11.5352
准前應知	-11.5354
業增上力	-11.5357
等正覺	-11.5358
護持	-11.5358
彼法得生老住無常	-11.536
答諸法彼心相應	-11.5362
二百五十	-11.5363
初兩句	-11.5365
有成就大種	-11.5368
展轉乃至	-11.5369
斷欲界結	-11.537
自種	-11.537
苦根憂根	-11.537
法智品道	-11.5371
不淨觀持息念	-11.5373
亦不違理	-11.5373
敬重	-11.5378
此四無量	-11.5379
第三師	-11.5381
業能感	-11.5381
壽盡	-11.5381
苦集聖諦	-11.5389
越度	-11.5389
勢分	-11.5391
共生共住共滅	-11.5392
兼顯	-11.5393
是集諦	-11.5396
約世	-11.5396
隣次	-11.5398
三應分別	-11.5399
總有三種	-11.54
離殺等	-11.5413
不成就不善心	-11.5414
不苦不樂捨	-11.5415
順次生受業	-11.5415
尊作是說	-11.5418
若實人若趣若	-11.5419
已斷遍知	-11.5423
是境界緣	-11.5424
墮在	-11.5428
影顯	-11.5433
四倒	-11.5436
纏縛	-11.5443
道支現在前	-11.5443
集法忍	-11.5448
云何識陰	-11.5449
起惑退	-11.5453
能與果	-11.5455
七十二	-11.5463
十使	-11.5465
未來禪	-11.5466
先未得	-11.5468
卷第三	-11.5471
名斷智	-11.5476
染不染	-11.5479
功用果	-11.5482
若處所有	-11.5491
翻為	-11.5492
舉喻	-11.5494
一切染污心	-11.5497
明記	-11.5498
觀四諦	-11.5506
證一來果	-11.5509
色界繫大種	-11.551
五蘊為性	-11.5516
況能	-11.5516
火合	-11.5517
細分	-11.5521
更無別	-11.5526
乳等	-11.5526
納	-11.5526
不動行	-11.5527
弓	-11.5527
六種性	-11.5527
僧伽藍	-11.5528
津漏	-11.553
儒童	-11.5531
怨憎	-11.5531
人民	-11.5532
燃	-11.5533
狼	-11.5534
翅	-11.5534
於苦思惟苦	-11.5535
阿毘曇八犍度論	-11.5535
蘇迷盧	-11.5536
於此位中	-11.5536
已得無色界善心	-11.5538
問世尊說	-11.5538
𣣋	-11.5538
瓶等	-11.5539
薩迦耶	-11.554
扇	-11.554
於理無違	-11.5541
及見集所斷遍行隨眠隨增	-11.5545
未得退	-11.5546
助道法	-11.5546
天宮	-11.5547
童	-11.5548
解脫勝處遍處	-11.555
非無色界繫善心	-11.5551
脩習	-11.5551
斯有何失	-11.5552
憍逸	-11.5552
謂有苾芻	-11.5552
邪性定聚	-11.5553
前來	-11.5554
尊者波奢說曰	-11.5554
無漏慧根	-11.5554
奔	-11.5555
糠	-11.5555
修習圓滿	-11.5556
如前已辯	-11.5556
立一遍知	-11.5556
村邑	-11.5556
順後受業	-11.5557
往詣	-11.5557
俱時而生	-11.5562
住時勢分	-11.5562
入初禪	-11.5566
於欲界修所斷法	-11.5567
支分	-11.5568
當知此說有	-11.5568
輕安覺支	-11.557
自身他身	-11.5574
淨四靜慮	-11.5575
已說體性	-11.558
善不善色	-11.558
盡作證時	-11.5582
如是說者好	-11.5582
色無色界煩惱	-11.5583
逆罪	-11.5583
正斷神足	-11.5588
萬劫壽	-11.5589
無二無量	-11.559
別標	-11.559
唯緣欲界	-11.559
過去空耶	-11.5591
先辯	-11.5592
於一切有情得	-11.5596
諍訟	-11.5599
三德	-11.56
亦復然	-11.5601
不得是時修	-11.5603
又如經說	-11.5603
或有眾生	-11.5606
能速	-11.5608
釋頌文	-11.5608
不壞信	-11.5609
則不定	-11.5612
是名識陰	-11.5613
色等五蘊	-11.5613
等越次取證	-11.5615
問幾是	-11.5618
不恭敬	-11.5622
繫不繫	-11.5623
正滅時	-11.5629
法智忍	-11.5635
善意樂	-11.5637
涅槃寂靜	-11.5638
謂未離欲界貪	-11.5642
離飲酒	-11.5644
無覺無觀定	-11.5644
因苦類智斷	-11.5645
有情世間	-11.5645
此滅盡定	-11.5649
緣餘法	-11.5652
最後身	-11.5653
先作是說	-11.5663
暴惡	-11.5666
計常	-11.5671
能憶念	-11.5673
有因法	-11.5674
色等五	-11.5675
越次取證	-11.5679
戒禁取疑	-11.5684
手執	-11.5688
辨差別	-11.5689
堅信	-11.5689
不為他	-11.5691
幾無色界繫	-11.5695
離非梵行	-11.5698
白佛	-11.5698
尊者婆	-11.5701
能取境	-11.5704
外道計	-11.5708
千踰繕那	-11.5712
非色界繫善心	-11.5714
生芽	-11.5717
修厭	-11.5717
緣苦類智斷	-11.5721
形狀	-11.5722
了義經	-11.5725
苦習	-11.5733
夜分	-11.5737
諸愚夫	-11.5739
愛行者	-11.5739
罽賓	-11.5743
鑽	-11.5744
法入中	-11.5748
無上正等菩提	-11.575
喉	-11.575
閻	-11.575
娑	-11.5751
輩	-11.5751
備	-11.5752
忍辱	-11.5752
見集滅道及修所斷	-11.5753
略而不論	-11.5754
順逆	-11.5754
初二定	-11.5754
婆羅痆斯	-11.5756
骨節	-11.5757
萎	-11.5758
慢過慢	-11.5758
爾許	-11.5758
聽聞正法	-11.5758
環	-11.576
身口無教	-11.576
諸漏永盡	-11.5761
珍寶	-11.5762
貧賤	-11.5763
亦可言	-11.5763
寒熱	-11.5764
所以然者	-11.5764
勤行	-11.5764
輻	-11.5765
貝	-11.5766
盡諦所斷	-11.5766
眼所識色	-11.5767
未滅設滅已失	-11.5767
學無學練根已	-11.5768
猗覺支	-11.5768
未得無漏智現在前	-11.5769
短促	-11.5769
有財釋	-11.5769
修行廣布	-11.577
法念住現在修	-11.5772
非前非後	-11.5772
無諍願智	-11.5773
胎藏	-11.5774
六思身	-11.5776
生眼智明覺	-11.5778
所不得法	-11.5778
斷修惑	-11.5779
學者生無色界	-11.578
第二第三第四禪	-11.5782
緣色無色界繫	-11.5782
唯意地故	-11.5783
後二遍處	-11.5783
有餘復言	-11.5783
逮解脫戒	-11.5785
與未知欲知根相應	-11.5785
第三第四	-11.5787
八字	-11.5787
諸異生類	-11.5789
滅作證九結盡	-11.5789
有情數攝	-11.5791
故不名為	-11.5792
眼所見	-11.5794
愛喜適意	-11.5795
欲貪瞋恚	-11.5797
外處攝	-11.5798
能出離	-11.5798
從此第五	-11.5802
然契經說	-11.5804
十結眠沒	-11.5806
先已得	-11.5808
由此道理	-11.5811
不了知	-11.5812
救云	-11.5818
謂或有說	-11.5819
經不說	-11.5821
三十六隨眠	-11.5829
第二解	-11.5829
無學正勤	-11.583
有七種	-11.5834
身在欲界	-11.5836
入第四靜慮	-11.5839
在九地	-11.5846
不成就欲界繫有覆無記心	-11.5848
不依無色	-11.585
心隨轉法	-11.5854
退法種性	-11.5856
卷第六	-11.586
謂瑜伽師	-11.5864
何法為	-11.5866
佛轉法輪	-11.5869
非分故	-11.5869
如本論說	-11.5873
及數滅	-11.5877
不修戒	-11.5879
入離生	-11.5883
麥等	-11.5883
相應等持	-11.5889
調象	-11.5907
名色為緣	-11.5909
威儀路心	-11.5909
勅	-11.5923
有太過失	-11.5927
有覺有觀定	-11.5937
梵輔	-11.5943
一趣道	-11.5953
苦邊	-11.5954
兩眼	-11.5954
應理論者	-11.5954
殺罪	-11.5955
無妨	-11.5956
具正勤正知正念	-11.5957
非時食	-11.5958
無想眾生	-11.5958
越次	-11.5961
上句	-11.5964
萬踰繕那	-11.5964
琉璃	-11.5966
圍繞	-11.5967
辱	-11.5967
非有身見為因非有身見因	-11.5972
相應受想行識	-11.5974
丸	-11.5976
掌	-11.5976
殷重	-11.5977
殿	-11.5977
翳	-11.5978
條	-11.5979
處母胎卵膜漸厚	-11.5979
如何乃言	-11.598
已斷為因及未斷為因	-11.598
果非有果	-11.5981
非所緣縛	-11.5981
娶	-11.5981
片	-11.5982
不正義	-11.5983
不相雜亂	-11.5984
便為無用	-11.5984
井	-11.5986
正滅位	-11.5991
迷亂	-11.5992
眼根乃至無色界	-11.5992
亦應許	-11.5993
作如此	-11.5996
若不生不思惟	-11.5997
此即總	-11.5998
此事不然	-11.5999
次一句	-11.6
滅智已生道智未生	-11.6003
成就初禪行	-11.6003
過惡	-11.6004
謂眼耳鼻舌身	-11.6004
須陀洹果斯陀含果阿那含果	-11.6005
已下一行頌	-11.6006
故不別	-11.6008
證預流果	-11.6008
對法宗	-11.601
以何因	-11.6014
安布差別	-11.6014
五下分結盡	-11.6016
不相障礙	-11.602
心展轉相緣	-11.6021
現在若現在前	-11.6021
如何得知	-11.6023
無邊空處	-11.6029
隨眠之所隨增	-11.6033
預流果攝	-11.6033
世俗正智	-11.6038
顯己	-11.6041
意觸不苦不樂受	-11.6042
答應說而不說者	-11.6043
一境性	-11.6045
得大果	-11.6047
非學非無學智	-11.605
無餘依	-11.6051
黃色	-11.6051
執我我所	-11.6052
經但說	-11.6053
苦所逼	-11.6054
所收	-11.6056
三界四部	-11.606
無貪無瞋	-11.6061
不修慧	-11.6068
有如是想	-11.6069
六通中	-11.607
決定當	-11.6076
大地法中	-11.6076
最麁	-11.6079
情非情	-11.608
無邊行相	-11.6082
麁動	-11.6088
不善心俱	-11.609
及得預流果	-11.6093
不極成	-11.6095
若於是處	-11.6096
天壽	-11.6102
故名大悲	-11.6104
修十六行相	-11.6106
諸惡趣	-11.611
應不名	-11.6117
百四十	-11.6117
聖道無間	-11.612
而不可說	-11.6122
有勝劣	-11.6144
那伽	-11.6151
所知境	-11.6153
五無間道	-11.6157
前後際	-11.6159
命過	-11.6161
是性罪	-11.6163
厭生死	-11.6168
慼行轉	-11.6169
故不應責	-11.6169
從業生	-11.6173
都無有	-11.6178
不斷煩惱	-11.6179
今日	-11.6184
總相說	-11.6185
非等無間非等無間緣	-11.6186
刑	-11.6187
諸行無常	-11.6189
無想有情天	-11.6189
荼	-11.6192
商	-11.6192
繞	-11.6193
所著	-11.6195
翼	-11.6201
為令已生惡不善法斷故	-11.6202
披	-11.6203
煙	-11.6204
菴羅	-11.6205
苦類智未生	-11.6207
欲界繫色界繫無色界繫	-11.6207
迦濕彌羅	-11.6208
色等五境	-11.6211
樂速通行	-11.6211
於何位	-11.6213
何以不	-11.6213
忘念	-11.6214
循身觀	-11.6214
倚	-11.6214
若依初禪	-11.6215
發欲界語	-11.6216
證圓寂	-11.6217
謀害	-11.6217
阿毘達磨俱舍釋	-11.622
要先	-11.6221
易滿	-11.6221
方隅	-11.6222
親附	-11.6223
慳惜	-11.6223
西方諸師	-11.6224
四大洲	-11.6226
如上所言	-11.6226
復次若法是	-11.623
此即第一明	-11.6231
世八法	-11.6231
六受身	-11.6232
女寶	-11.6233
觸緣受	-11.6234
身業口業	-11.6236
名彼同分	-11.6238
與空三昧相應	-11.6239
近住戒	-11.624
佗心智	-11.6244
詮表	-11.6244
見苦見集所斷	-11.6244
彼說非理	-11.6247
一向無漏	-11.6249
表示	-11.6253
身受心法	-11.6254
出胎	-11.6254
右脇	-11.6257
施物	-11.6257
覺了	-11.626
堪達法	-11.6261
三結盡	-11.6262
非根法	-11.6263
滯	-11.6265
品類差別	-11.6265
此四善根	-11.6268
未離欲貪	-11.6273
得斯陀含果	-11.6278
有漏他心智	-11.6282
自界地	-11.6284
他宗	-11.6286
太過失	-11.6288
禪戒	-11.6294
舍利子等	-11.6297
成佛時	-11.6304
欲界凡夫	-11.6308
性相違故	-11.6308
讚佛	-11.6317
猗樂	-11.6319
無明結繫	-11.632
無相現在前	-11.6321
見滅所斷有漏緣及遍行隨眠	-11.6322
法應爾	-11.6324
為一因	-11.6324
緣生法	-11.6334
立善士趣	-11.6341
有三世得	-11.6343
斷色無色界結	-11.6344
增上所生	-11.6348
部多	-11.6352
四種行相	-11.6352
慢使	-11.636
有頂天	-11.6368
栽	-11.6369
立誓	-11.637
立此名	-11.6371
十一界十一	-11.6383
聞思修	-11.6397
熏成	-11.6398
顯形色	-11.64
強勝	-11.6402
自共相	-11.6402
能斷道	-11.6405
流類	-11.6405
中有生有	-11.641
擇滅非擇滅	-11.6413
剎	-11.6419
各各相	-11.642
受想行	-11.6421
四諦所斷	-11.6422
膜	-11.6423
捉	-11.6424
於色界中	-11.6426
若麁若苦若障	-11.6427
針	-11.6429
竹	-11.643
心隨轉非受相應	-11.6431
牆	-11.6433
中間靜慮	-11.6434
三界二處五蘊攝	-11.6435
孔雀	-11.6439
非無色界繫無覆無記心	-11.6439
龜	-11.6439
式	-11.644
踰	-11.644
師子吼	-11.644
金剛喻	-11.644
化地部	-11.6441
彌勒	-11.6441
閡	-11.6441
十大地	-11.6441
昇進	-11.6442
倉	-11.6442
來生此間	-11.6443
寬狹	-11.6443
此責不然	-11.6444
菩提樹下	-11.6444
鈴	-11.6444
良藥	-11.6446
無罣礙智	-11.6446
發露	-11.6447
汎	-11.6447
正性定聚	-11.6449
流布	-11.6449
有俱不修	-11.645
拘礙	-11.6451
不違法相	-11.6453
忌	-11.6453
想受滅解脫	-11.6454
設已滅而失	-11.6454
答是作論者意欲爾故	-11.6458
舍利	-11.6458
稱歎	-11.6459
占相	-11.6459
舉頌答	-11.646
若法與彼法	-11.646
歿生無色界	-11.6461
為見結所繫	-11.6462
喜憂捨	-11.6462
現有身表	-11.6463
於生死中	-11.6463
軟中上	-11.6464
取結未斷	-11.6467
兩舌	-11.6468
二二分或	-11.6468
黑黑	-11.6469
此章願具	-11.647
戒證淨	-11.6471
有因有果	-11.6471
和集	-11.6472
意思食	-11.6472
離色染	-11.6473
不愛果	-11.6475
此根何果攝	-11.6475
在第四靜慮	-11.6476
無記非我分攝	-11.6477
而於其中	-11.6477
隨增性	-11.6479
修苦行	-11.648
精進覺意	-11.6481
捨壽行	-11.6481
水火風	-11.6482
所斷染污智慧	-11.6483
界退還	-11.6484
比丘當知	-11.6488
緣是業緣	-11.6488
離欲邪行	-11.649
已謝	-11.6494
兩種	-11.6505
五受陰	-11.6508
斷何界	-11.651
餘三諦	-11.6513
在欲色界	-11.6516
害覺	-11.6518
答為止他宗顯正	-11.6518
五逆	-11.6521
恚界	-11.6531
觀不淨	-11.6535
修慈	-11.6536
順樂受等	-11.6537
為其自性	-11.6537
是則應說	-11.6538
非眾妙聲	-11.6539
方般涅槃	-11.6544
實有物	-11.6545
願具	-11.6552
善士趣	-11.6553
及三無為	-11.6555
生得慧	-11.6561
令有相續	-11.6562
所牽	-11.6563
見軛	-11.6564
四根相應	-11.6566
是正義	-11.6568
道迹	-11.6574
彼同分眼	-11.6575
由延	-11.6583
八智知	-11.6585
即由此故	-11.6586
相翻	-11.6589
謂彼有情	-11.6594
設諸根緣	-11.6597
順樂受	-11.6602
入第二靜慮	-11.6603
大善地	-11.6604
所證擇滅	-11.6604
緣見修所斷	-11.6604
十九根	-11.6608
往趣	-11.6609
為我說	-11.661
脇	-11.6619
間雜	-11.6627
所謂此見	-11.6628
從強	-11.663
不成就眼界	-11.6639
給	-11.6643
無變礙	-11.6649
諸貪等貪	-11.6655
諸不善業	-11.6655
塹	-11.6656
頗胝迦	-11.6657
邪解脫	-11.6658
智知除苦集智	-11.6662
每	-11.6665
憤恚	-11.6666
智遍知所遍知	-11.6666
花果	-11.667
白骨	-11.6671
峯	-11.6672
離無所有處染	-11.6672
冬	-11.6674
歇	-11.6676
於彼等起心不相應行	-11.6677
四天下	-11.6678
㮈	-11.6678
㸦	-11.6679
融	-11.6679
詐	-11.668
困	-11.6682
乖違	-11.6682
牆壁	-11.6683
痛想行識	-11.6683
不成就色界繫善心	-11.6683
同在一	-11.6683
讀誦	-11.6683
巖	-11.6684
若餘心不相應行	-11.6684
滅諦繫法	-11.6685
飲噉	-11.6685
集諦繫法	-11.6685
義准已成	-11.6686
顯宗云	-11.6688
若前未生設生已斷則不繫	-11.6688
害生命	-11.6689
及染污無覆無記識	-11.6689
炷	-11.6689
猶預	-11.669
審觀察	-11.6691
乃至時解脫轉根作不動	-11.6692
無相違失	-11.6692
出血	-11.6693
有警覺	-11.6693
□	-11.6693
傍生鬼趣	-11.6694
愛緣取	-11.6695
待客因	-11.6696
流轉生死	-11.6696
無如是失	-11.6696
摩羅	-11.6697
能斷結	-11.6698
必定應	-11.6698
此等皆	-11.67
有俱修	-11.6703
受想行蘊	-11.6704
具見世尊弟子	-11.6704
為止如是說者意	-11.6705
謂二相應法	-11.6705
妍膚非妍膚	-11.6706
軟聲非軟聲	-11.6706
一切煩惱皆	-11.6707
偏立	-11.6708
見滅斷邪見	-11.6708
以是義故	-11.6708
三界五部	-11.671
有嫉結繫	-11.671
速進道	-11.6711
空解脫門	-11.6711
正語正業正命正身進正身除	-11.6712
種類同故	-11.6713
緣無斷	-11.6718
婆娑云	-11.6719
無斯過	-11.6723
方便求	-11.6723
利鈍	-11.6726
不知足	-11.6727
復次若人無慧無明未斷	-11.6727
空無邊處近分	-11.6727
所斫	-11.6731
且止	-11.6733
苦諦習諦	-11.6733
意樂喜捨	-11.6736
於諸欲	-11.6739
說偈	-11.6742
妙高	-11.6744
有漏五蘊	-11.6744
百福	-11.6747
劫壞	-11.6755
諸勝進道	-11.6756
非無色界繫有覆無記心	-11.6757
有餘於此	-11.6759
緣是異緣	-11.6763
苦法智斷	-11.6769
若爾何故至	-11.6773
聖眾	-11.6777
無間而生	-11.678
法俱得	-11.6782
唯無記性	-11.6787
無障住	-11.6791
應分別記	-11.6795
根非根	-11.6798
處胎	-11.6806
離雜穢語	-11.6806
緣是增上緣	-11.6813
不適意	-11.6813
由此勢力	-11.6813
是善性	-11.6815
淨四無色	-11.6816
歸佛	-11.6817
違宗	-11.6818
准釋	-11.6824
上坐	-11.6825
曾當	-11.683
身無教	-11.6831
及諸異生	-11.6832
見滅見道	-11.6837
故說此言	-11.6839
除戒道	-11.6841
正理三十	-11.6851
於先時	-11.6852
成就色界繫善心	-11.6858
生彼處	-11.6862
入第四禪	-11.6862
同一行相	-11.6863
若成就現在	-11.6875
大種為幾緣	-11.6887
作如是問	-11.689
餓	-11.6893
名斷界	-11.6901
為分別慧	-11.6903
雪山	-11.6904
時心解脫	-11.6909
傲	-11.6912
誘	-11.6913
淚	-11.6913
本論文	-11.6913
涌	-11.6914
馱	-11.6915
覺隨轉非觀相應	-11.6917
專注	-11.6917
鞞	-11.6918
毒箭	-11.6918
餘五因	-11.6919
怙	-11.6919
幼	-11.6921
疑惑猶豫	-11.6923
三摩跋提	-11.6924
苗	-11.6925
色界有為緣	-11.6925
轂	-11.6925
亦非相應縛者	-11.6925
妻妾	-11.6925
朋黨	-11.6925
苦遲通行	-11.6925
准上論文	-11.6926
八萬四千	-11.6926
死後有想	-11.6926
剛強	-11.6927
依此有彼有	-11.6927
四大幾緣緣	-11.6928
雜緣法念住	-11.6929
無所顧	-11.693
彼所得斷	-11.693
類同故	-11.6933
見諦所滅	-11.6933
名身證	-11.6934
若生欲界住律儀	-11.6934
薩婆多宗	-11.6935
容預	-11.6935
墮諸惡趣	-11.6935
往詣佛所	-11.6936
相異熟業	-11.6936
逆流	-11.6938
入無想三昧	-11.6939
道共戒	-11.694
佛告苾芻	-11.6941
五識界	-11.6942
從彼歿	-11.6942
入正決定	-11.6943
居家	-11.6943
明昧	-11.6943
安足處	-11.6944
六想身	-11.6944
有愛結前生未斷	-11.6945
此即第二明	-11.6946
見道邊等智	-11.6947
共感一果	-11.6948
意入法入	-11.695
久習	-11.695
學人離結使	-11.695
前無想定	-11.6951
刧	-11.6951
十不善業道	-11.6952
義是入義	-11.6952
外聲耳識所知	-11.6953
領解	-11.6954
序分	-11.6954
被損	-11.6954
與喜覺支相應	-11.6954
瞋恚使	-11.6954
道比忍	-11.6956
已吐	-11.6956
隨信行隨法行	-11.6957
九斷智	-11.6959
第八句	-11.6959
道俱生戒	-11.6963
能生初禪地眼識	-11.6965
學見迹修所斷	-11.6966
去來今	-11.6968
五上分結	-11.6968
能照	-11.6969
巳去	-11.6983
已離初靜慮染	-11.6984
不成就色界繫無覆無記心	-11.6985
十八種	-11.6989
都盡	-11.699
供養恭敬	-11.6993
色聲等	-11.6994
此中何法	-11.7001
舉罪	-11.7002
互相違故	-11.7003
疑結繫	-11.7006
最細	-11.7008
終不能	-11.7009
緣是起緣	-11.7011
迴轉戒	-11.7013
問曰若然者	-11.7018
論中說	-11.7023
入二陰	-11.7023
滅作證無結	-11.7027
從此無間	-11.7029
狀	-11.7029
能通達	-11.703
傍論	-11.7036
作相似因	-11.7037
無增減	-11.704
最尊	-11.7043
破法輪	-11.7047
婆沙四十	-11.7057
意法意識	-11.7059
偏多	-11.7061
佛正法	-11.7063
忍非智	-11.7068
論主述	-11.7078
身中可得	-11.7078
順後次受	-11.7078
能有所	-11.7083
有分限	-11.7099
有處有	-11.7106
自下第二	-11.7109
准此文	-11.7116
四軛	-11.7118
法智苦智	-11.7137
刀兵	-11.7139
幾有對	-11.7143
欣求	-11.7145
一時俱	-11.7149
二根相應	-11.715
士用增上	-11.7151
見滅所斷疑	-11.7151
覆此想此忍此見此	-11.7153
一來不還	-11.7155
謂隨算數漸次順次相續次第	-11.7155
憍陳如	-11.7156
一智知謂	-11.7156
付	-11.7157
若如病若如癰若如箭若	-11.7157
靈	-11.7159
更無異	-11.7159
匱	-11.716
傍布	-11.716
遙	-11.7161
瑞	-11.7162
預流果能作證向	-11.7166
原	-11.7166
慕	-11.7167
勞倦	-11.7168
特	-11.7168
螺	-11.717
錯亂	-11.717
梵宮	-11.7171
商侶	-11.7171
如病如癰	-11.7171
迦多衍尼子	-11.7171
破法輪僧	-11.7173
次舉頌答後釋頌本	-11.7174
焦	-11.7174
親近善士	-11.7175
想等想施設言說	-11.7175
身口有教	-11.7175
俱舍師救云	-11.7176
謂法智已滅不失	-11.7176
除遣修	-11.7176
基	-11.7176
唾	-11.7177
馳流	-11.7177
法後非得	-11.7178
映奪	-11.7179
理必應爾	-11.718
一福量	-11.7181
法前非得	-11.7181
提婆	-11.7181
徒眾	-11.7184
空空無願無願無相無相	-11.7184
祀	-11.7185
貞	-11.7186
身中有過去愛結繫	-11.7186
煖頂	-11.7187
如實人若想憶想	-11.7187
長行釋	-11.7187
設生已斷	-11.719
四大色身攝法	-11.7192
汝等苾芻	-11.7192
若前未生	-11.7193
答欲令疑者得決定故	-11.7193
依第三靜慮	-11.7194
勢力所引	-11.7195
亦得此無表	-11.7197
性類差別	-11.7198
嚴淨非嚴淨	-11.72
初念無表	-11.72
惛沈掉舉	-11.7201
卷云	-11.7203
身根極微	-11.7204
一切法無我	-11.7205
滅受想解脫	-11.7206
於色無色界法	-11.7206
未來修八智	-11.7208
有行般涅槃	-11.7209
定俱生戒	-11.721
上下縱廣	-11.7214
受色界有	-11.7218
皆不應理	-11.7219
俱舍師	-11.7219
得果滅盡定	-11.722
問世尊何故	-11.7227
不更生	-11.7228
其量云何	-11.7232
何等為五	-11.7242
所得自體	-11.7244
所詮義	-11.7249
能入見道	-11.7249
豈不相違	-11.7251
答如有一類	-11.7252
內六處	-11.7253
界善見智慧	-11.7261
欲界四部	-11.7265
宿住通	-11.7267
根少分相應	-11.7268
集比智	-11.7289
不堪	-11.7293
餘隨所應	-11.7294
滅法智忍	-11.7294
山林	-11.7297
所熏	-11.7301
各有三種	-11.7301
將死	-11.7319
不離根	-11.7322
世路	-11.733
色界四部	-11.733
能有所作	-11.733
律儀不律儀	-11.7335
歷六	-11.7341
答初問	-11.7346
集遍知	-11.7352
隨所欲	-11.7363
左右	-11.7364
空處近分	-11.7365
化生有情	-11.7366
依未至地	-11.7384
喜樂一心	-11.7385
名有貪心	-11.7397
非色界繫有覆無記心	-11.7398
皮肉	-11.7399
財富	-11.74
斛	-11.7403
各各別	-11.7406
加行無間解脫道時	-11.7407
軌範	-11.7409
那庾多	-11.7411
醯	-11.7413
羅國	-11.7415
名異義同	-11.7415
封	-11.7417
北俱盧	-11.7417
驗	-11.7418
鮮白	-11.7419
瘦	-11.742
辯才	-11.742
鄔	-11.7421
謂先未曾得	-11.7422
骸	-11.7422
溫	-11.7423
斬	-11.7423
與心俱	-11.7424
除法滅道智	-11.7425
輒	-11.7425
慧為性	-11.7425
教誨	-11.7426
毱	-11.7426
日初分	-11.7427
有部宗	-11.7428
歡喜踊躍	-11.7428
潔	-11.7428
正理救云	-11.7428
嗜	-11.7428
色取蘊	-11.7429
多諸過患	-11.7429
珍	-11.7429
作此論已	-11.743
蘇尸摩	-11.743
洛叉	-11.7431
俱舍論頌疏論本	-11.7431
幽	-11.7433
炭	-11.7433
眼觸所生愛	-11.7434
無貪為性	-11.7434
玄	-11.7437
住本性	-11.7437
裂	-11.7438
九無間道九解脫道	-11.7438
厄	-11.7439
所可用	-11.744
施設足論	-11.744
正語業命	-11.7441
率爾	-11.7441
釋後兩句	-11.7441
或無或一二三四	-11.7442
挍	-11.7444
影光	-11.7447
梵淨行	-11.7447
世俗等見	-11.7447
有爾所隨眠隨增	-11.7447
所等起	-11.7447
推尋	-11.7448
忿覆	-11.7449
見苦集所斷不遍行	-11.7451
謗因邪見	-11.7451
性羸劣故	-11.7453
所獲	-11.7453
近事女	-11.7453
通果心品諸得俱起	-11.7454
作留難	-11.7454
從緣生	-11.7455
離非想非非想處欲	-11.7458
身好聲非	-11.7459
我從今	-11.746
依如是義	-11.7462
謂自界三	-11.7466
五取陰	-11.7466
大臣	-11.7466
意處法處	-11.747
長養眼	-11.7474
彼成就色界繫	-11.748
是以不說	-11.748
為所緣繫	-11.7487
能表示	-11.7489
引例	-11.749
現在未來一	-11.7492
立為支	-11.7503
隱沒無記不隱沒無記	-11.7503
所繫縛	-11.7514
運身	-11.7521
得無間罪	-11.7522
非界非入	-11.7523
能生長	-11.7528
遮防	-11.753
事為自性	-11.7538
起惡心	-11.7546
不應責	-11.7555
例此應	-11.7556
得果轉根故失	-11.7557
然有差別	-11.7559
欲瀑流	-11.7561
復何所	-11.7561
唯加行得	-11.7562
七隨眠中	-11.7564
信敬	-11.7572
無差	-11.7573
是應理論者	-11.7574
壁等	-11.758
集法智忍	-11.7583
靜慮各二種	-11.7584
有漏緣隨眠隨增	-11.7586
依男身	-11.7589
起煩惱現在前	-11.7599
卷第六十	-11.7599
通三界繫	-11.7609
善男子	-11.7628
能攝益	-11.7628
信根相應	-11.7629
無是事	-11.7641
所說偈	-11.7643
五學處	-11.7654
剡浮洲	-11.7655
入佛法	-11.7657
貯	-11.7658
婆訶	-11.7667
隻	-11.7667
何繫心心法	-11.7671
設成就未來	-11.7672
後世感苦異熟	-11.7672
悕求	-11.7673
苾芻苾芻尼等	-11.7676
設成就過去未來	-11.7677
頸	-11.7678
或執第一	-11.7681
七智知除比智	-11.7682
應反詰記	-11.7682
凶	-11.7682
豫	-11.7685
嬈	-11.7685
於集思惟集	-11.7686
於滅思惟滅	-11.7686
孤	-11.7687
踊	-11.7688
底沙	-11.7688
輸	-11.769
幢	-11.7691
食所食	-11.7691
汗	-11.7691
茂	-11.7692
非業非業異熟	-11.7692
扇𢮎	-11.7693
澡浴	-11.7693
六恒住	-11.7694
心及心法	-11.7695
詩	-11.7697
舞	-11.7697
攝一全	-11.7698
謗道邪見	-11.7698
持雙	-11.7699
僮僕	-11.7699
體無異	-11.77
嗣	-11.77
及過去非現在	-11.77
斥	-11.7701
玉	-11.7701
因果相屬	-11.7702
眾生數非眾生數	-11.7703
若於此事有過去愛結繫	-11.7703
如順正理	-11.7703
九十八使盡作證九結永盡	-11.7703
見道諦時	-11.7704
𨵗	-11.7704
非道計道	-11.7705
出現世間	-11.7706
所以得知	-11.7706
未得已失	-11.7707
意觸所生受	-11.7708
若未已滅設已滅而失則不成就	-11.7709
九無間道八解脫道	-11.7709
緣名緣義者	-11.771
不苦不樂痛	-11.771
設生已斷則不繫	-11.771
炙	-11.7713
斷他命	-11.7713
歡行轉	-11.7713
瑞相	-11.7714
觸思識	-11.7714
善一蘊染四蘊無記二蘊	-11.7714
貢高	-11.7714
今欲說之	-11.7716
同分彼同分	-11.772
威儀路工巧處	-11.7722
此法是何	-11.7727
後兩句	-11.7727
識見家	-11.773
遍行非遍行	-11.7736
總攝一切	-11.7737
令生相續	-11.7739
功德田	-11.7739
如事知見	-11.774
意勢	-11.774
無明分觸	-11.7744
有愛使	-11.7745
優波	-11.7745
滑性	-11.7748
菩薩母	-11.7748
現等覺	-11.7749
告他	-11.7752
器世界	-11.7761
從他聞	-11.7761
前六品	-11.7767
慚恥	-11.7769
轉成學	-11.777
相續而轉	-11.7771
略舉	-11.7774
極熱	-11.7778
業所感	-11.7781
違正理	-11.7785
辭辯	-11.7787
五順下分結中	-11.779
非想非非想處諸行滅	-11.7795
門竟	-11.7796
能發表	-11.7798
起滅法智	-11.7804
內淨信	-11.7804
及無色界生長	-11.7816
彼所宗	-11.7832
得聖果	-11.7837
覺支道支	-11.7838
下三句	-11.7839
非學非無學心俱	-11.7842
為煩惱所	-11.7844
第二釋也	-11.7855
毀犯	-11.7856
此下第一	-11.7862
歡慼	-11.7873
還來	-11.788
二萬劫	-11.7894
肉眼	-11.7896
在六地	-11.7904
若實人若趣	-11.7913
疾疫	-11.7921
非有想非無想	-11.7924
斷見惑	-11.7929
來去	-11.7936
復有三種	-11.794
離色愛	-11.794
或執為尊	-11.7942
彼不得無教	-11.7942
紅	-11.7944
自活	-11.7945
若本不得世俗智現在前	-11.7946
三界遍行及修所斷隨眠隨增	-11.795
已了別非今了別非當了別	-11.795
不成就無色界繫無覆無記心	-11.7951
脩習多脩習	-11.7953
猛火	-11.7953
憤	-11.7954
瑜伽	-11.7956
迅速	-11.7959
戶	-11.796
稼	-11.796
文中有三	-11.7961
若汝不說	-11.7961
想受滅	-11.7961
方域	-11.7962
阿羅	-11.7962
生等五因	-11.7963
離俱繫	-11.7963
畦	-11.7964
歌舞	-11.7964
祖	-11.7964
工	-11.7965
怨親	-11.7965
善染無記	-11.7966
憎背	-11.7966
成就得不成就	-11.7966
似自因	-11.7966
隨眠異熟眼識	-11.7966
瑟	-11.7967
斧	-11.7967
嬰孩	-11.7968
不成就色界繫有覆無記心	-11.7968
希奇	-11.797
憶本所作	-11.7971
令心高舉	-11.7972
一切有情皆	-11.7972
材	-11.7973
由如是理	-11.7974
欣慰	-11.7974
若過去若未來若現在	-11.7975
輿	-11.7975
決度	-11.7977
有別意趣	-11.7979
細滑入	-11.7979
邪志	-11.798
射分定	-11.798
立不善根	-11.7981
在此在彼	-11.7981
等意解脫	-11.7981
六內處	-11.7984
應成無用	-11.7984
離空無邊處染	-11.7985
法應如是	-11.7986
汝所執	-11.7988
正現前位	-11.7991
見色眼	-11.7991
二禪三禪四禪	-11.7991
喜足少欲	-11.7992
非黑非白	-11.7992
至已生位	-11.7992
審決	-11.7995
見斷法報	-11.7997
乃至離無所有處欲	-11.7997
無邊識處	-11.7998
聲聞乘	-11.7998
靜息	-11.7998
或有生疑	-11.7999
我已知	-11.8
復有餘師	-11.8001
以彼劣故	-11.8001
厭逆	-11.8002
生不共住不共滅	-11.8004
未聞法	-11.8006
集會	-11.8012
屬主	-11.8013
用勝故	-11.8017
福增長	-11.8017
以二事故	-11.8019
諸無色界繫善心	-11.8027
遍一切處	-11.8029
無餘涅槃界	-11.8029
衰退	-11.8041
緣是相續緣	-11.8042
能防	-11.8047
造無間業	-11.8048
三界見道所斷	-11.8076
妙好	-11.8088
誓願	-11.8091
觸生受	-11.8103
非學非無學無色	-11.8105
有漏緣使	-11.8136
踰繕那量	-11.8161
敘異	-11.8165
順次生受	-11.8166
令他知	-11.8185
謂聖種所攝	-11.8203
練	-11.8221
下別釋	-11.8223
矩	-11.8223
爭	-11.8224
蟻	-11.8225
僧寶	-11.8227
下一行頌	-11.8227
不成就眼識界	-11.8228
緣色界繫無色界繫	-11.8229
飽	-11.8229
已了別非今了別當了別	-11.8229
巡	-11.8229
怪	-11.8231
即此勝行及前所說	-11.8232
驢	-11.8232
蓮花	-11.8232
精舍	-11.8233
擯	-11.8235
腐	-11.8236
幾隨眠所緣故隨增亦相應故	-11.8237
黨	-11.8239
能說者	-11.824
巨	-11.824
猛焰	-11.824
虧	-11.8241
熊	-11.8241
謟	-11.8241
廣如彼說	-11.8243
平等受受所攝	-11.8243
苦速通行	-11.8243
傍生鬼	-11.8244
隨依何地	-11.8245
評家云	-11.8246
當言善耶	-11.8247
聾	-11.8247
滅有對想	-11.8247
嬰兒	-11.8248
防守	-11.8248
借	-11.8249
身作證具足住	-11.8249
珞	-11.8249
捨而不得	-11.825
謂入現觀苦	-11.825
不成就得成就	-11.8252
何等時成就過去法智	-11.8252
分或欲界繫或色界繫	-11.8255
自在而轉	-11.8258
吞噉	-11.8259
阿毘達磨俱舍論	-11.8259
如理師	-11.826
純黑	-11.8262
思已業	-11.8263
雜揵度	-11.8264
果攝義	-11.8267
緣是報緣	-11.8267
阿伽	-11.8268
非想非不想	-11.827
思惟斷法報	-11.8271
此經意說	-11.8272
精進念定慧根	-11.8272
來生人中	-11.8273
麤細	-11.8273
集聲音句言語口教	-11.8275
誦持	-11.8276
真實作意	-11.8276
未離第三靜慮染	-11.8279
隨其次第	-11.8284
斷何繫結	-11.8285
意觸苦受	-11.8286
滅盡涅槃	-11.8286
彼一切加行無間解脫道	-11.8288
無記心俱	-11.8289
當來世	-11.829
法未知當知根相應	-11.829
不得別解脫律儀	-11.8291
味相應初靜慮	-11.8293
色界修所斷善	-11.8293
順苦受業	-11.8299
不見色眼	-11.83
他妻	-11.8301
最妙	-11.8301
念親近多修學	-11.8313
契經雖作是說	-11.8318
所斷遍知	-11.8319
幾非陰界入攝	-11.833
七識界	-11.8333
辦事	-11.8335
後二靜慮	-11.835
殺業道	-11.8353
光影	-11.8368
他界地	-11.8373
戒定慧	-11.8377
不成就欲界繫無覆無記心	-11.8379
成逆罪	-11.8383
亦不戒律	-11.8386
色界沒生欲界	-11.8387
足指	-11.8394
婆沙八十	-11.8401
餘無漏慧	-11.8402
雜亂失	-11.8433
正定聚	-11.8438
滅類智斷	-11.8443
除善非	-11.8448
招後有	-11.8449
道法智忍	-11.8452
輪寶	-11.8453
有餘師釋	-11.8468
大煩惱地	-11.8472
同一所依	-11.8474
牽後有	-11.848
捶	-11.8499
凡聖	-11.8501
骨鎖	-11.8501
迦旃延子造	-11.8503
諸天眾	-11.8506
參	-11.8512
未來現前正起	-11.8512
八道種	-11.8514
已了別今了別非當了別	-11.8515
已起已	-11.8515
廣說乃至為令已生善法堅住乃	-11.8518
欲若勤若信	-11.8518
陶	-11.8518
漬	-11.8519
蘭	-11.852
有能了別色界繫	-11.852
剋	-11.8521
幾隨眠相應故隨增非所緣故	-11.8523
安穩	-11.8523
洛迦	-11.8523
喜根護根	-11.8524
幾隨眠所緣故隨增非相應故	-11.8524
眉間	-11.8524
勃	-11.8525
瞿陀尼	-11.8525
旋火輪	-11.8525
差降	-11.8527
怠	-11.8527
階	-11.8528
戚	-11.8528
失願結	-11.8529
鉢羅奢佉	-11.853
盈	-11.853
臨命終時	-11.853
露形	-11.8531
淡	-11.8531
奴	-11.8531
沃	-11.8532
施戒修	-11.8532
千劫	-11.8533
但有虛言	-11.8533
失願	-11.8534
心等相續	-11.8534
傍生餓鬼	-11.8534
無熱天	-11.8535
十六識內十	-11.8535
六處緣觸	-11.8535
者顯彼自性	-11.8535
汝何所欲	-11.8536
謂已入正性離生	-11.8537
沉	-11.8537
兔角	-11.8537
𤏙	-11.8537
此即第三明	-11.8538
迷謬	-11.854
忽然	-11.8541
作四行相中隨一行相	-11.8542
離此地染	-11.8543
阿毘達磨諸論師	-11.8543
欲愛使	-11.8544
非味相應耶	-11.8544
通三界九地	-11.8545
設緣已斷	-11.8545
是盡或無生	-11.8546
心住正住	-11.8546
業為生因	-11.8548
耳鼻舌根	-11.8551
有覺有觀離生喜樂	-11.8551
連縛	-11.8553
勤三摩地	-11.8557
死生智力	-11.8557
法生住老無常	-11.8557
勤策戒	-11.8558
令不散	-11.8558
大海水	-11.8559
是心垢	-11.8561
香象	-11.8562
劫減	-11.8565
生彼間	-11.8566
大地十	-11.8566
可意聲	-11.8567
除無色染	-11.8569
問若法是	-11.8575
作是問言	-11.8577
愛非愛	-11.8578
雜毒	-11.8578
第二靜慮近分	-11.8578
俱生品諸根	-11.858
見道修道斷	-11.8581
此中但依	-11.8593
此三皆	-11.8595
有覆無記無覆無記色	-11.8595
增進根	-11.8597
佛生身	-11.8602
異熟何處	-11.8607
內色想	-11.8612
起如是心	-11.8613
燈光	-11.8619
是名聲入	-11.8627
能為障	-11.863
無記心命終	-11.864
九地聖道	-11.8641
界趣生	-11.8642
離非時食	-11.8644
是蘊義	-11.8646
七八品	-11.8648
無間滅意	-11.8652
違教	-11.8652
聽聞	-11.8669
相應共有法	-11.8669
都無所	-11.867
瓶衣	-11.8672
至世尊所	-11.8734
此下第三明	-11.874
香氣	-11.8754
諸聖諦繫根法	-11.876
除北俱盧	-11.8769
息不轉	-11.8772
退不退	-11.8773
色界沒生無色界	-11.8784
自下第三	-11.8785
柯	-11.879
那羅延	-11.8792
有智同梵行者	-11.8797
三十一使	-11.8797
惰	-11.8798
珊	-11.8802
膿血	-11.8802
牛貨	-11.8804
三界二入五陰	-11.8804
講	-11.8805
兜	-11.8806
銀	-11.8806
已離無色界貪	-11.8807
無如是過	-11.8807
雞	-11.8808
洛	-11.8809
從瞋生	-11.8809
王舍城	-11.881
腦	-11.8811
諷	-11.8812
善哉善哉	-11.8813
剃	-11.8814
洗浴	-11.8814
剪剃	-11.8814
鑒	-11.8815
局	-11.8816
結縛隨眠隨煩惱纏	-11.8819
結跏趺坐	-11.8819
赫	-11.8819
曜	-11.882
猫	-11.882
液	-11.882
叢林	-11.8821
俱舍論疏	-11.8821
銷	-11.8822
策勵	-11.8822
浣	-11.8824
樂遲通行	-11.8824
餘文可解	-11.8825
有餘部說	-11.8825
貫	-11.8826
庸	-11.8826
結前問起	-11.8828
剎利	-11.8828
遙見	-11.8829
無所畏	-11.8829
有餘復說	-11.8829
數取趣	-11.8829
恩田	-11.883
令此疑得決定故	-11.883
從此以後	-11.883
於諸行中	-11.883
六十劫	-11.8832
謂諸聖者住胎	-11.8833
時解脫阿羅漢練根作不動	-11.8833
非淨非無漏耶	-11.8833
清妙	-11.8833
復以何緣	-11.8835
空一顯色	-11.8835
捷利	-11.8835
相應故言少分	-11.8836
色染無色染	-11.8836
末尼	-11.8837
欲愛瞋恚	-11.8838
已滅名過去	-11.8838
即彼愛未盡	-11.8838
身語意惡行	-11.8839
俱時而起	-11.8839
無祠祀者	-11.8839
齋支	-11.8841
得修習修	-11.8842
何以知之	-11.8842
依何定滅	-11.8844
眼等六根	-11.8845
漏盡智力	-11.8845
顯有過去愛結	-11.8845
念定慧	-11.8845
文中有三初	-11.8846
為恚結所繫	-11.8846
一滅不起	-11.8849
相雜念住	-11.8849
口惡行	-11.885
除去色想	-11.885
或不善或無記	-11.885
憂悲苦惱	-11.8851
有對造色	-11.8855
幾使使	-11.8857
承事	-11.8858
并無為法	-11.8858
信解脫轉根作見到	-11.886
末劫末見	-11.8861
緣無境	-11.8863
堅強	-11.8866
一切隨眠相應識	-11.8868
短長	-11.8868
善業為眷屬	-11.8869
短壽	-11.8869
今欲分別	-11.8871
婆沙一百四十	-11.8874
吾我	-11.8881
妙行惡行	-11.8882
若一處內	-11.8884
非六生	-11.8891
傳聞	-11.8893
緣三界繫及不繫	-11.8908
小四相	-11.8926
與彼相違	-11.8931
四諦理	-11.8939
伽羅	-11.8942
戲笑	-11.8947
世俗心現在前	-11.8979
逆超	-11.8998
畜生餓鬼	-11.9005
欣厭	-11.9016
初中後	-11.9037
僧證淨	-11.9053
根少入	-11.9059
發身識	-11.9089
毫	-11.9104
周匝	-11.9106
錦	-11.9108
十八界十二處五蘊	-11.9108
梁	-11.911
漫	-11.9111
金剛座	-11.9112
替	-11.9112
懈	-11.9113
侶	-11.9114
麗	-11.9115
檢	-11.9115
婆須蜜	-11.9116
內無色想觀外諸色	-11.9116
四意斷	-11.9116
栗	-11.9117
周圍	-11.9117
傲逸	-11.9118
窓	-11.912
三千大千世界	-11.912
名色緣六處	-11.9121
孔隙	-11.9123
按	-11.9124
送	-11.9124
準	-11.9124
鏡面	-11.9125
炬	-11.9126
匿	-11.9126
外觀色	-11.9126
契約	-11.9127
疲勞	-11.9127
溉	-11.9127
童女	-11.9127
欲色界遍行及修所斷隨眠隨增	-11.9127
意識身相應	-11.9128
不移動	-11.9128
告曰	-11.913
眼不見色	-11.913
欻然	-11.913
如實人念憶念	-11.913
伽陀	-11.9131
安靜	-11.9131
堤塘	-11.9132
正等正覺	-11.9132
見斷法斷	-11.9134
化法調伏	-11.9135
老年	-11.9135
當廣分別	-11.9136
見道十五心頃	-11.9136
古德	-11.9136
改易	-11.9136
資財	-11.9136
難斷難	-11.9136
唯佛能知	-11.9137
不見言見	-11.9137
語二業	-11.9138
布灑他	-11.9138
為他說法	-11.9138
得獲成就	-11.9139
為目何義	-11.9139
商人	-11.9141
何見攝	-11.9143
彼心與未來所修	-11.9143
差別之相	-11.9143
無漏斷得	-11.9144
成就色界繫無覆無記心	-11.9145
無施與者	-11.9145
先有身表不失	-11.9146
無愛樂者	-11.9148
此文應如是說	-11.9148
習法智斷	-11.9149
未證欲證	-11.9149
無學人欲得阿羅漢	-11.9151
此說非理	-11.9151
未得欲得	-11.9151
下中上品	-11.9151
羯剌藍位	-11.9152
眾賢	-11.9152
可積集	-11.9153
復次欲現	-11.9154
此則總說	-11.9154
死後無想	-11.9154
」「	-11.9155
此業定當	-11.9156
法二俱解脫	-11.9157
未知智現在前	-11.9158
眼及色	-11.9158
比丘定親近多修學已	-11.9158
動搖	-11.9163
苦類忍	-11.9164
安足	-11.9165
瀑流軛取	-11.9165
次對現在	-11.9166
欲色界三部	-11.9167
梵福量	-11.9167
集諦亦如是	-11.9168
百踰繕那	-11.9169
本論師	-11.9171
無學智現在前	-11.9171
乃至無所有處染	-11.9172
欲貪纏	-11.9176
從此第六	-11.918
作亦名增長	-11.9182
明非其因	-11.9183
賢聖品	-11.9188
愱結	-11.9205
勝義苾芻	-11.9219
俱舍師破	-11.9254
幾界幾處幾蘊攝	-11.9263
殊妙	-11.9272
愛非愛果	-11.9275
正理論師	-11.9284
見道及修	-11.929
根所取	-11.9336
戀	-11.937
下一句	-11.9379
能牽引	-11.9394
入無餘涅槃	-11.9397
退法阿羅漢	-11.9404
固執	-11.9408
不處威儀	-11.9409
覓	-11.9417
筆	-11.9418
皷	-11.942
諸無色界繫無覆無記心	-11.9421
彼得無教	-11.9421
圍遶	-11.9422
道未知忍	-11.9427
弄	-11.9432
處非處智力	-11.9433
場	-11.9433
駄	-11.9434
官	-11.9434
未來現前必起	-11.9434
泰法師	-11.9434
黑繩	-11.9436
內有色想觀外色	-11.9436
稽首	-11.9436
不可為例	-11.9436
艱	-11.9436
陷	-11.9436
臭穢	-11.9437
安樂遊處	-11.9437
迷悶	-11.9437
聖所愛戒	-11.9438
危	-11.9439
竅隙	-11.9439
百俱胝	-11.944
江河	-11.944
麟角	-11.944
聚集出現	-11.9443
養育	-11.9444
順不苦不樂受觸	-11.9444
盤	-11.9444
煩惱等斷	-11.9446
無學若智若見現在前	-11.9446
囊	-11.9446
非所許故	-11.9447
修所斷有覆無記心	-11.9447
眼觸所生想	-11.9448
調戲	-11.9448
道俱有戒	-11.9449
能了別不繫法	-11.9451
擁護	-11.9451
色界三部	-11.9452
法念住為加行	-11.9453
反責	-11.9453
隥	-11.9455
訶厭	-11.9455
不必須通	-11.9455
有見無見	-11.9455
是彼類故	-11.9455
復應思擇	-11.9455
善染污無覆無記	-11.9456
若內若外	-11.9456
而不以彼為因	-11.9456
五十八法	-11.9457
刈	-11.9458
已見諦者	-11.9462
非相應繫	-11.9462
長者子	-11.9462
欺誑	-11.9463
起欲界纏退時	-11.9465
未嘗	-11.9466
智攝一切智	-11.9466
四諦境	-11.9466
無所有處愛盡	-11.9468
苦忍苦智	-11.9468
)【	-11.9469
標宗	-11.947
依三界身	-11.947
罽賓國	-11.947
同時因果	-11.9471
彼法是何	-11.9475
猶如有人	-11.9477
復有欲令	-11.9478
三界三部	-11.9481
由一切因	-11.9483
非當取	-11.9486
坐禪	-11.9487
次對過去現在	-11.9487
次對未來現在	-11.9488
便違契經	-11.9509
釋初兩句	-11.9536
觸生愛	-11.9569
何緣不許	-11.9574
遍行隨眠隨增	-11.9576
覆蓋	-11.9608
見滅所斷有漏緣隨眠	-11.9609
引自果	-11.9625
陰想陰	-11.9652
老病死	-11.9668
由心力	-11.9678
財供養	-11.9682
諸聖諦繫非根法	-11.9708
過去法智耶	-11.9711
正理四十	-11.9717
論者作如是言	-11.9718
他聚故	-11.972
拘隣	-11.9727
何繫結滅	-11.9736
琰魔王	-11.9736
若惑若疑若猶豫	-11.9737
占	-11.9737
魯	-11.974
㲲	-11.9741
毘提訶	-11.9741
加行成滿	-11.9742
憍陣那	-11.9744
非數緣盡	-11.9744
白髮	-11.9745
三界繫及不繫	-11.9745
苦智習盡道智	-11.9745
窣	-11.9745
震	-11.9748
訓	-11.9749
解分智	-11.9749
晨	-11.975
鳩	-11.975
雷	-11.975
吸	-11.9751
肉團	-11.9752
休	-11.9752
三界一切遍使使	-11.9753
蒲桃	-11.9753
苦諦繫根法	-11.9753
苦諦繫非根法	-11.9753
五六七	-11.9755
誨	-11.9756
釋提桓因	-11.9756
研	-11.9756
結加趺坐	-11.9756
此責非理	-11.9756
祭	-11.9757
值	-11.9757
殞	-11.9758
易養	-11.9758
抑	-11.9759
瞋恚愚癡	-11.9759
矜	-11.9759
尊者阿那律	-11.9759
設成就過去現在	-11.9761
若時菩薩	-11.9761
為得未得而學	-11.9763
述異說也	-11.9763
業非業報	-11.9763
無相違過	-11.9763
我已證滅	-11.9764
現有善身語表	-11.9764
順前句	-11.9764
髮毛等	-11.9764
即由此理	-11.9764
釋迦菩薩	-11.9765
月白半第八日	-11.9765
少光天	-11.9766
若非此所增隨眠	-11.9766
外國諸師	-11.9766
有為相應縛非所緣縛	-11.9766
泄	-11.9767
幾結繫	-11.9767
大梵天王	-11.9767
次舉頌答	-11.9767
理必應然	-11.9768
無漏忍時	-11.9768
亡失	-11.9769
廛	-11.977
定俱有戒	-11.977
興者已盡則不繫	-11.977
君	-11.977
修妙相業	-11.977
菩提樹	-11.9771
點了	-11.9772
成就色界繫有覆無記心	-11.9772
離有頂染	-11.9773
惡阿世耶	-11.9774
無礙解增長時	-11.9774
梯	-11.9774
謂聖者住胎	-11.9776
此下第一明	-11.9776
無想正受	-11.9777
集聖諦亦爾	-11.9777
而不作是說者	-11.9778
斯有何過	-11.9779
義是漏義	-11.9781
自性於自性	-11.9782
乃至即得阿羅漢果	-11.9782
一向倒	-11.9783
燋熱	-11.9784
能得清淨	-11.9785
未解欲解	-11.9786
色界繫心俱	-11.9786
爛壞	-11.9787
極多十九	-11.9788
轉根作不動	-11.9789
知解受	-11.9791
與念覺支相應	-11.9791
先未曾侵惱	-11.9794
次對未來	-11.9794
得遍知三結盡	-11.9797
田器	-11.9798
未得聖法	-11.9802
得與所得	-11.9803
但一增上	-11.9805
八十八隨眠	-11.9805
教勅	-11.9806
念住現在一	-11.9808
千倍	-11.9818
現在唯修世俗	-11.9818
念法師	-11.9832
始終	-11.9833
聞思修所成	-11.9833
後法樂	-11.9869
眾生居處	-11.9883
然後乃	-11.9894
大文第二明	-11.9924
苦空無我	-11.9981
至色究竟	-11.9992
為止他	-11.9993
後對過去	-12.0043
供奉	-12.007
室羅筏	-12.0076
瑠璃	-12.0076
聰叡	-12.0079
憒	-12.0079
劇苦	-12.0082
謂欲界生長已離欲界貪	-12.0082
於彼諸色勝知勝見	-12.0083
忻	-12.0087
映	-12.0088
道諦繫非根法	-12.0089
柱	-12.0089
艱辛	-12.009
牢獄	-12.0091
咽喉	-12.0091
糞掃衣	-12.0092
讚美	-12.0093
醜	-12.0093
眼觸所生思	-12.0093
非前非後二心	-12.0094
牛羊	-12.0094
咽	-12.0094
閑靜	-12.0094
少有所	-12.0094
楚	-12.0094
輞	-12.0095
二有中間	-12.0097
我已斷集	-12.0097
摸	-12.0099
經生聖者	-12.0099
依何義說	-12.01
眼色為緣生眼識	-12.01
一晝一夜	-12.01
央	-12.01
諸界諸趣諸生	-12.01
尊貴	-12.0101
過殑伽沙	-12.0101
集滅現觀各四心頃	-12.0101
名色緣觸	-12.0103
稠林	-12.0103
最為殊勝	-12.0103
抄	-12.0104
理定不然	-12.0104
順不逆	-12.0105
尊者世親造三藏法師玄奘奉詔譯	-12.0105
九上緣惑	-12.0105
但名造作	-12.0106
尊者婆須蜜說	-12.0106
訓釋	-12.0107
說一切有部俱舍論	-12.0107
無始已來	-12.0107
超昇離生	-12.0107
設成就未來現在	-12.0108
女根男根	-12.0108
十智為性	-12.0109
遲速	-12.011
下八諦	-12.011
幾因相應	-12.011
三轉十二行相	-12.0111
聖道一時俱斷	-12.0111
日月輪	-12.0112
尊者曇摩多羅	-12.0112
無常想一緣	-12.0113
異生三十一隨眠	-12.0113
比度	-12.0113
諸根長養大種增益	-12.0113
樂根喜根捨根	-12.0114
由二事故	-12.0114
凡夫人到	-12.0114
由一事故	-12.0115
勢力強故	-12.0115
生等四相	-12.0115
三結乃至九十八隨眠	-12.0116
諸法自相共相	-12.0117
苦比忍	-12.0117
去來屈申迴轉身教	-12.0118
見行過患	-12.012
觀涅槃寂滅	-12.012
彼作是答	-12.012
諸法性相	-12.0122
初安足	-12.0122
士用及增上	-12.0124
是貪等流	-12.0124
五有漏處	-12.0124
彼成就無漏初靜慮	-12.0125
正寂靜滅沒除	-12.0126
行緣無明	-12.0129
光法師	-12.013
上座部	-12.0131
四二分或	-12.0134
萬歲	-12.0138
顧戀	-12.0139
從煩惱生	-12.0149
來生此	-12.0151
和會	-12.0159
聖者三隨眠	-12.0164
以一切法為	-12.0177
及彼相應俱有	-12.019
不斷心俱	-12.022
因中因	-12.0222
餘不定如前	-12.0258
色界繫善心捨成就得不成就	-12.0273
分別契經義	-12.0301
能引眾同分	-12.0323
須陀洹斯陀含	-12.0325
使盡作證	-12.0361
妬	-12.0374
烈	-12.04
集諦繫根法	-12.0404
饒	-12.0409
秤	-12.041
餅	-12.041
色聲香味	-12.0412
江	-12.0416
波旬	-12.0418
徐	-12.0418
鹹	-12.0418
名句文	-12.0418
除上爾所	-12.0419
牟	-12.042
漸次順次相續次第數為第	-12.042
存濟	-12.0421
謂諸具縛補特伽羅	-12.0426
廣說乃至勵意不息	-12.0426
諸想等想	-12.0427
符秦罽賓三藏僧伽提婆共竺佛念譯	-12.0427
遶	-12.0427
便生喜足	-12.0429
濤	-12.043
此眾生若根成就	-12.043
本得無漏智現在前	-12.043
羸弱	-12.043
振	-12.0431
莊飾	-12.0431
寸	-12.0432
麟喻	-12.0432
非見亦非見處	-12.0433
一起便住	-12.0434
慶慰	-12.0434
五不善處	-12.0434
出離遠離所生	-12.0434
史	-12.0435
滅諦繫根法	-12.0435
朽	-12.0435
善亦善因	-12.0435
一切忍現在前	-12.0435
入息出息	-12.0436
諸漏已盡	-12.0436
道諦繫根法	-12.0437
從果為名	-12.0438
當作是觀	-12.0438
曼馱多	-12.0439
心平等性	-12.044
多羅樹	-12.044
乃至幾纏所纏	-12.0442
如來無所著等正覺	-12.0442
尤重	-12.0443
文中初結前	-12.0443
撥為無	-12.0444
無量光天	-12.0444
沙門釋光述	-12.0444
橋	-12.0444
有為所緣縛非相應縛	-12.0444
殖順解脫分	-12.0445
而於此非所緣縛	-12.0445
富春沙門遁麟述	-12.0446
此中有愛結前生未斷者	-12.0446
織	-12.0447
隨信法行	-12.0447
形貌	-12.0447
上正決定	-12.0447
及見苦所斷遍行隨眠隨增	-12.0448
滅盡正受	-12.0448
及現在非過去	-12.0448
取非至境	-12.0448
即彼隨眠緣此未斷	-12.0449
鉾	-12.045
眼觸不苦不樂受	-12.045
獨覺菩提	-12.045
謂空已滅不失	-12.0451
起他心智現在前	-12.0451
外國師	-12.0452
無煩天	-12.0452
然無評家	-12.0452
毘舍佉	-12.0453
述曰此牒	-12.0453
涅	-12.0453
有部答也	-12.0453
正念正知	-12.0454
例亦應然	-12.0456
執受大種為因聲	-12.0456
若遠若近	-12.0458
任運轉故	-12.0458
狎	-12.0459
寤	-12.0459
七十七智	-12.0459
共曇摩崛多等譯	-12.046
如先所說	-12.0461
姚秦罽賓三藏曇摩耶舍	-12.0461
無有中愛	-12.0462
於被障色	-12.0462
為愛結所繫	-12.0463
苦類智未已生	-12.0465
增長廣大	-12.0466
四三二一	-12.0466
尊上彼	-12.0469
欲染瞋恚	-12.0472
靜慮無漏律儀	-12.0473
餘位不爾	-12.0474
一起一住一滅	-12.0477
除異熟及離繫	-12.0478
心向彼	-12.0481
愛慢無明	-12.0481
不可見無對	-12.0484
與他心智相應	-12.0484
已生今生當生不定	-12.0491
顯彼對治	-12.0495
第九品染	-12.0507
四天王天	-12.0551
言非苾芻	-12.0554
空無相無願	-12.0555
禮敬	-12.0677
色界繫法現在前	-12.0678
驚怖	-12.0707
微薄	-12.0714
名心隨轉	-12.0719
娑羅	-12.074
逝	-12.0752
違本論	-12.0757
訛	-12.0759
須彌婁	-12.0764
非無記非無記為因	-12.0768
昨	-12.0774
誡	-12.0774
無垢人生無色界	-12.0775
欲界繫見苦所斷心	-12.0781
或執出離	-12.0781
心中可得	-12.0781
若言為我說	-12.0782
東南	-12.0782
體未斷所緣未斷	-12.0782
七智知除苦集滅智	-12.0783
慇	-12.0786
鹵	-12.0787
虗	-12.0788
淪	-12.0788
所修行道未知智	-12.0789
魔軍	-12.0789
非次第亦非次第緣緣	-12.0789
馳散	-12.079
號叫	-12.079
浸	-12.079
●	-12.0791
西域記	-12.0791
又六因中	-12.0791
欣慕	-12.0792
一行半頌	-12.0792
毛端	-12.0792
造色色非可見色	-12.0793
經幾時	-12.0793
順苦受觸	-12.0794
遍知所緣故斷	-12.0794
壓	-12.0794
剃除鬚髮	-12.0795
不可說彼或彼或異	-12.0795
富異熟果	-12.0795
〕	-12.0796
丈	-12.0796
鞞婆沙論	-12.0796
作威勢緣勝	-12.0797
薩埵	-12.0797
三阿僧祇劫	-12.0798
諸大聲聞	-12.0798
無善身語表	-12.0798
云何當令	-12.0799
福非福	-12.0799
不一不異	-12.0799
理不成立	-12.0801
作苦邊際	-12.0801
案	-12.0802
非極成故	-12.0802
奢摩他毘鉢舍那	-12.0802
俱舍頌疏記論本第	-12.0804
住不律儀及非律儀非不律儀	-12.0804
善現天	-12.0804
姊妹	-12.0805
此例不然	-12.0805
可意不可意	-12.0805
非有邊非無邊	-12.0806
卑賤	-12.0806
心善解脫	-12.0806
類此應知	-12.0806
生上三定	-12.0806
推度性故	-12.0807
如前已辨	-12.0807
敷演	-12.0808
此中義意	-12.0808
沈沒	-12.0808
進斷餘結	-12.0808
慼行相轉	-12.0808
舉頌本	-12.0809
若成就善色	-12.0809
憤發	-12.081
如前已釋	-12.081
見聞覺知	-12.081
結繫無嫉結繫	-12.081
是謂此處略毘婆沙	-12.081
咸作是說	-12.0811
總相別相	-12.0811
親近善知識	-12.0812
若生極光淨	-12.0812
信等五三無漏根	-12.0812
十二有支	-12.0813
離三界染	-12.0813
因集生緣	-12.0814
從彼處沒	-12.0816
白白異熟業	-12.0817
所修未來麁等三行相	-12.0818
荒	-12.0819
此心復從	-12.0819
復次此四果位	-12.0821
及餘趣人	-12.0821
壞已知壞已見	-12.0822
輪圍	-12.0822
無漏果耶	-12.0823
煗頂忍世第一法	-12.0823
一起不滅	-12.0823
軟軟	-12.0825
發出度	-12.0825
聖者以世俗道	-12.0825
正語正業正命正身除	-12.0825
已修已息	-12.0828
四身繫中	-12.0828
傾向彼	-12.0828
何繫心心所滅	-12.083
婆沙一百八十	-12.0832
謂根見苦斷	-12.0833
以因緒緣故	-12.0836
非趣攝	-12.0846
及根見集	-12.0852
而不廣分別	-12.0856
斷一切及一切遍	-12.0857
百八受	-12.0857
有覆無覆	-12.0967
知他有漏心	-12.0996
有漏緣使使	-12.102
非緣使亦非相應使	-12.1047
智自遍知	-12.1049
決了	-12.1099
蓮華	-12.1135
若空若無我	-12.1135
所起於法簡擇乃至毘鉢舍那	-12.1138
善知心迴轉	-12.1144
愁惱	-12.1146
黎	-12.1146
所緣已斷其體未斷	-12.1146
所緣已斷其體已斷	-12.1146
躁	-12.1146
欽	-12.1149
二欲界見集所斷	-12.115
捐	-12.1151
茶	-12.1155
踊躍	-12.1156
理且可然	-12.1157
祈	-12.1157
色十一中	-12.1158
阿闍梨	-12.1158
砂	-12.1158
所修行苦法智	-12.1159
界繫遍行隨眠及彼相應等法	-12.1159
及見苦集所斷非遍行	-12.1159
起貪等貪	-12.1159
澡	-12.116
奇哉	-12.116
心隨轉心不相應行	-12.116
非不善亦非不善因	-12.1161
藕	-12.1161
沒欲界生時	-12.1162
駕	-12.1162
諸思等思	-12.1162
映蔽	-12.1162
深坑	-12.1162
論意各別	-12.1163
佐	-12.1164
稽	-12.1164
淳熟	-12.1166
軌	-12.1167
極微細故	-12.1167
舊隨界	-12.1168
光澤	-12.1168
彼異於彼	-12.1169
懷猶豫	-12.117
五下分煩惱	-12.117
萌	-12.117
隨流非流	-12.117
四向四果	-12.117
不善心捨不成就得成就	-12.1171
依無覺無觀三昧	-12.1171
同緣一境	-12.1172
如伽他說	-12.1172
或九或十	-12.1174
鐘	-12.1175
沙門法寶撰	-12.1175
番	-12.1175
闡	-12.1176
諸餘染污苦諦	-12.1176
九根少分相應	-12.1176
當言為因當言為緣	-12.1177
空三摩地已起滅不失	-12.1177
遊履	-12.1178
有善巧作意	-12.1178
四十六心所	-12.1179
漏盡智證明	-12.1179
如種子法	-12.1181
浪	-12.1182
眠夢	-12.1182
心知分別	-12.1182
不招異熟	-12.1182
悲喜捨	-12.1183
今次應辯	-12.1183
非常苦空非我	-12.1183
攝種性諸根	-12.1183
金錢	-12.1183
是此論所為根本	-12.1184
癈	-12.1184
遍淨愛未盡	-12.1184
是隨眠性	-12.1185
使斷智三結永盡	-12.1186
又若爾者	-12.1186
如餘處說	-12.1186
潤益	-12.1186
身語意妙行	-12.1187
慈悲喜捨	-12.1188
人若想憶想	-12.1188
欝單越	-12.1188
不善非見斷	-12.1189
謂生欲界住律儀	-12.1189
不說業相應非業相應	-12.119
彼說未至言	-12.1191
非生滅若未滅	-12.1191
十六聖行	-12.1194
依果報果	-12.1194
因者二因	-12.1195
學六覺支	-12.12
法智比智等智	-12.1201
何繫心心所現前	-12.1202
婆沙正義	-12.1202
見解射方便	-12.1202
若前不生	-12.1204
生共住共滅	-12.1207
招愛果	-12.1226
斷其命	-12.1231
以四事故	-12.1233
不失則成就	-12.1236
災頂	-12.1241
天上人中	-12.1248
無作用故	-12.1273
他界遍行	-12.1284
有心無心	-12.1287
別有實物	-12.1289
萬由旬	-12.1293
法他心智相應	-12.1333
造色幾緣緣	-12.1359
生色究竟	-12.1368
有為緣隨眠隨增	-12.1384
欣尚	-12.1434
諸餘法攝十	-12.1497
佗	-12.1499
章及解章義	-12.1509
髀	-12.1514
盈滿	-12.1516
呾	-12.1521
鉢特摩	-12.1525
出現於世	-12.1528
無八除入	-12.153
成就無教耶	-12.153
所緣已斷及所緣未斷其體未斷	-12.1532
重累	-12.1532
謂除未來現前正起	-12.1533
雁	-12.1534
某甲	-12.1535
燥	-12.1537
體未斷所緣已斷及所緣未斷	-12.1537
泥犁	-12.1537
欲色二界一切遍使使	-12.1537
耕	-12.1537
自識宿命	-12.1539
激	-12.1539
善及無記	-12.154
心明記性	-12.154
三界二入四陰	-12.1541
隨尋轉身語業	-12.1542
耐	-12.1542
糧	-12.1543
羞恥	-12.1543
鎖	-12.1544
生欲界戒律處	-12.1545
朽敗	-12.1545
權	-12.1545
不思議	-12.1546
熱鐵丸	-12.1546
淳淨心	-12.1547
非善非善為因	-12.1548
有已還無	-12.1548
覺隨轉心不相應行	-12.1549
依經起問	-12.155
就長行中	-12.155
為一為異	-12.1551
妹	-12.1551
雅	-12.1551
解脫智見蘊	-12.1551
敏	-12.1551
題	-12.1553
曠野	-12.1554
閉尸	-12.1554
精勤修習	-12.1554
頂忍世第一法	-12.1554
富異熟業	-12.1555
不為因非不隨增	-12.1555
痰	-12.1555
雖有此理	-12.1555
糞土	-12.1555
調練	-12.1556
無邊無際	-12.1557
篾	-12.1557
何理能遮	-12.1557
依有覺有觀三昧	-12.1558
鍵	-12.1559
一切結盡遍知	-12.1559
阿毘曇心論	-12.1559
為止彼意顯	-12.1559
□□	-12.1559
成就有漏無漏初靜慮	-12.156
知言不知	-12.1561
蹉	-12.1561
從此至彼	-12.1561
見諦成就世尊弟子	-12.1562
與理相違	-12.1562
法為果則有	-12.1563
受持讀誦	-12.1563
滅現觀四心頃	-12.1563
色界繫有覆無記心捨不成就得成就	-12.1563
八萬法蘊	-12.1564
破戒及起破戒煩惱	-12.1565
齊限	-12.1565
六十四劫	-12.1565
定共戒	-12.1567
有餘之說	-12.1568
受陰想陰行陰	-12.1568
雖作是說而不分別	-12.1568
破我品	-12.1569
及緣餘法法念住	-12.157
寐	-12.157
尋與伺	-12.1571
作欲界語	-12.1571
非所緣縛亦非相應縛	-12.1571
見色聞聲	-12.1572
證得無上正等菩提	-12.1572
愛為起因	-12.1573
若麁若細	-12.1574
緣學無學非學非無學者	-12.1575
不善非思惟斷	-12.1576
因者五因	-12.1576
欲得修道	-12.1577
外觸身識所知	-12.1577
生如是疑	-12.1578
傾向寂靜	-12.1579
十七界十一處二蘊攝	-12.158
百千萬	-12.1582
謂無緣根	-12.1583
根力現在未來五	-12.1585
善業道俱生思究竟轉	-12.1586
謂相應俱有同類	-12.1595
未來所修麁等三行	-12.1612
成已住	-12.1613
千由旬	-12.1619
慚羞	-12.1636
有增上力	-12.1669
彼根或因	-12.1691
或根緣	-12.1694
述正義	-12.1708
彼根或緣	-12.1744
九眾生居	-12.1819
意捨信等五根	-12.1834
若法智已	-12.1874
意法為緣	-12.1875
月九日	-12.1912
渠	-12.1923
修彼道時修一意止現在前	-12.1927
刻	-12.193
教非無教	-12.193
裟	-12.193
詣佛所	-12.1931
妃	-12.1931
滴	-12.1932
糜	-12.1934
吼	-12.1934
或成就或不成就	-12.1935
只	-12.1935
謂已斷善根	-12.1935
屋舍	-12.1937
已了別非今了別或當了別或不當了別	-12.1937
其體已斷耶	-12.1937
智知除知他心智及滅	-12.1938
毀呰	-12.194
勤䇿	-12.194
設盡便失	-12.194
復進修行此定方便	-12.1941
咀	-12.1941
謂於加行所引生道	-12.1942
供給	-12.1942
為攝散動馳流心	-12.1942
靜慮解脫等持等至	-12.1942
犬	-12.1943
婬怒癡	-12.1943
遠塵離垢	-12.1944
斷眾生命	-12.1945
鬪亂僧	-12.1945
脣	-12.1945
佛及弟子	-12.1945
斗	-12.1945
若本得若本不得世俗智現在前	-12.1946
遏	-12.1946
種解脫分善	-12.1946
從三根生	-12.1946
瘂	-12.1947
教誡示導	-12.1947
彼相應行陰	-12.1948
是了義說	-12.1948
慳悋	-12.1948
泰	-12.1948
硬	-12.1948
胸	-12.1948
擁	-12.1948
隨有所闕	-12.1949
悴	-12.1949
司	-12.195
由心安住等住近住	-12.195
杜多功德	-12.195
睺	-12.195
魅	-12.195
昧鈍	-12.1951
謗滅邪見	-12.1951
增長分智	-12.1951
繼	-12.1951
善故名福	-12.1951
佛涅槃後	-12.1951
非業亦非業報	-12.1951
百大劫	-12.1953
雄	-12.1953
命等八根	-12.1953
絲	-12.1955
迦旃延	-12.1956
曾見梵王	-12.1956
答此增語所顯	-12.1956
上七近分	-12.1956
離欲界乃至無所有處染	-12.1957
若諸異生住胎	-12.1958
等謂等取	-12.1959
隨造因	-12.1959
唯人三洲	-12.1959
鳩摩羅	-12.1959
翻入無	-12.196
渡河	-12.196
係	-12.196
挽	-12.196
相與所相	-12.1962
則為唐捐	-12.1962
的	-12.1962
鼻根舌根	-12.1963
毒蛇	-12.1963
聲音句言語口教	-12.1963
未生未出	-12.1964
諸宿住事	-12.1964
有一說者	-12.1964
訶毀	-12.1964
已說自性所以今當說	-12.1964
分或見斷或思惟斷	-12.1965
非心因法	-12.1965
位修練根時	-12.1965
紛	-12.1965
見滅道所斷見結不相應法	-12.1966
飛鳥	-12.1967
於五見何見攝	-12.1967
修超等至	-12.1967
慈愍	-12.1968
施設論說當云何通	-12.1969
多財釋	-12.1969
先起滅者	-12.1969
謂順現法受等	-12.197
無善身表	-12.197
傍論已了	-12.1971
欲令無如是過故	-12.1971
次四解脫	-12.1972
心等無間法	-12.1973
心觸名觸	-12.1973
宿住隨念	-12.1973
未離無色染	-12.1973
幾有漏幾無漏	-12.1974
如實觀苦集滅道	-12.1975
由九根得	-12.1976
業之道	-12.1976
亦得滿名	-12.1977
若住別解脫律儀	-12.1977
非田非器	-12.1977
信解脫見到	-12.1978
須陀洹斯陀含阿那含	-12.1981
正斷神足現在未來四	-12.1984
若智見解脫方便	-12.1991
即是勸人	-12.2005
復次勸出家者	-12.2005
一切生分	-12.2026
設根緣	-12.2056
阿耨多羅三藐三菩提	-12.2077
即聖者依	-12.2091
兩句答初問	-12.2101
即由此因	-12.2119
見集斷一切遍	-12.2136
表及無表	-12.2166
四萬劫	-12.2176
生果功能	-12.2177
搖	-12.2305
答諸根緣	-12.2312
小煩惱地	-12.2328
百六十四	-12.2328
色界有相續	-12.2335
誅	-12.2339
執藏防護	-12.2341
誓多林	-12.2342
庶	-12.2342
色界生長補特伽羅	-12.2344
大不善地	-12.2344
謂所說語	-12.2347
若本不得無漏智現在前	-12.2348
蟣	-12.235
若習若修	-12.2351
掣	-12.2351
聰	-12.2351
明分觸	-12.2351
異熟果心不現在前	-12.2352
八界二入四陰	-12.2353
十界四處五蘊攝	-12.2354
六智知除他心苦集	-12.2354
諸法彼心相應彼俱有	-12.2354
虱	-12.2355
精勤數習此加行已	-12.2355
乍	-12.2357
禮拜	-12.2357
我食此食	-12.2357
身身觀意止	-12.2358
非無記亦非無記因	-12.2359
嚼	-12.2359
尋不相應伺	-12.2359
仆	-12.236
思惟此相精勤勇猛	-12.236
七無記處	-12.2361
獷	-12.2361
掩	-12.2361
奇特	-12.2362
賓	-12.2362
修餘功德	-12.2362
造色色非有對色	-12.2363
憎嫉	-12.2363
色界生長有學異生	-12.2363
見道修所斷一切隨眠	-12.2364
掃	-12.2364
蕩	-12.2364
死後斷滅	-12.2365
天魔梵等	-12.2365
覽	-12.2365
省	-12.2365
筏蹉	-12.2366
逈	-12.2366
藪	-12.2367
拳	-12.2367
眾事分阿毘曇論	-12.2368
而行惠施	-12.2368
有能了別欲界繫色界繫	-12.2368
意界法界意識界	-12.2369
詠	-12.2369
幸	-12.237
歡悅	-12.237
舉初顯後	-12.237
死此生彼	-12.2371
寔	-12.2371
起欲發勤精進策心持心	-12.2371
他眾生他人	-12.2372
入現觀道類智時	-12.2372
涸	-12.2372
義是蓋義	-12.2373
他界地緣遍行隨眠	-12.2373
及無覆無記識	-12.2373
此世他世	-12.2374
有間隙	-12.2374
文中有四初	-12.2375
名斷名離名滅名諦	-12.2375
所以先明	-12.2375
無明所盲	-12.2375
異語增語	-12.2375
髮毛爪齒	-12.2376
作四行相中隨一行相得阿羅漢果	-12.2376
即彼隨眠若不緣此	-12.2376
舍宅	-12.2376
次應廣釋	-12.2377
同類遍行二因	-12.2377
緣攝助	-12.2377
阿浮陀	-12.2377
有三有為之有為相	-12.2377
迦濕彌羅國諸論師言	-12.2378
有前生愛結未斷	-12.2378
善思惟善解	-12.2378
好醜	-12.2378
喬底迦	-12.2379
第十六道類智	-12.2379
有行般	-12.2379
依如是理	-12.2379
立業道名	-12.2379
通伏難	-12.238
無味受	-12.238
共生因中因	-12.2381
止他宗顯己義故	-12.2381
此非正義	-12.2381
棘	-12.2381
非數緣滅	-12.2382
為遮彼執	-12.2382
及增長時	-12.2383
邪見見取戒禁取	-12.2384
孝	-12.2385
貪欲瞋恚愚癡	-12.2385
勝知勝見	-12.2386
先有善身表不失	-12.2387
離識無邊處染	-12.2388
樂故心定	-12.2389
彼作經者意欲爾	-12.2389
離自地染	-12.2389
及二相應根	-12.2391
依四或未至	-12.2392
身受心念住及緣餘法法念住	-12.2392
為止彼執顯	-12.2392
澁滑	-12.2393
制怛羅	-12.2394
因集法智斷	-12.2394
彼初靜慮身	-12.2394
悅喜心除欲不放逸心捨	-12.2395
迫	-12.2396
歡行相轉	-12.2398
離第四禪欲	-12.2401
貪慢無明	-12.241
意業由意生受想思觸思惟	-12.2415
次對過去	-12.2415
非理所引意業	-12.2417
大名經	-12.2437
立足處	-12.2504
戒道使	-12.2545
先對過去	-12.2596
入一陰攝	-12.2611
因滅法智斷	-12.263
圍	-12.2727
後半第九日	-12.2754
月十五日	-12.2758
不到欲到不獲欲獲不證欲證	-12.276
令身不現	-12.2763
鋒	-12.2765
集諦繫非根法	-12.2768
或是等無間非等無間緣	-12.2775
項	-12.2776
法及諸法必不	-12.2777
洞	-12.2777
順暴流非暴流	-12.2782
心住等住	-12.2782
獲大果	-12.2784
肥	-12.2784
悲喜護	-12.2786
蝦	-12.2786
裸形	-12.2787
是果亦有果	-12.2788
伸	-12.279
既於加行所引生道	-12.279
四分律	-12.2791
喧	-12.2791
旋環	-12.2791
能詮定量	-12.2791
問及頌答	-12.2791
裁	-12.2791
倍倍增	-12.2791
訊	-12.2792
心便安住等住近住	-12.2792
嫁	-12.2794
狸	-12.2794
喜即喜受	-12.2794
領納隨觸	-12.2794
宴坐	-12.2795
一切染污心無記心	-12.2796
盡諦道諦所斷	-12.2796
隨心轉亦受相應	-12.2796
滅諦繫非根法	-12.2796
何故乃言	-12.2797
逝多林	-12.2797
長壽久住	-12.2797
閣	-12.2797
!」「	-12.2798
佞	-12.2799
累	-12.2799
迫迮	-12.28
瞋恚身縛	-12.28
諫	-12.2801
釋第五句	-12.2801
七界一處一蘊攝	-12.2801
彼定不成就過去未來八	-12.2801
眼根乃至無色界修所斷無明隨眠斷道	-12.2801
訪	-12.2801
鬚	-12.2802
見滅斷邪見相應無明	-12.2802
雜阿毘曇心論	-12.2803
遵	-12.2803
差別因緣不可得故	-12.2803
乳房	-12.2804
僕	-12.2804
躬	-12.2804
生欲界若梵天上	-12.2805
定不當退	-12.2805
結不悉盡	-12.2805
腰	-12.2805
落謝過去	-12.2805
從四因生	-12.2806
顛墜	-12.2806
既不許然	-12.2806
五順下分結盡遍知	-12.2807
欝多羅	-12.2807
設得便失	-12.2807
亦有色亦無色	-12.2807
欲界修所斷善識	-12.2807
已得世俗智現在前時	-12.2808
答第三問	-12.2808
無不善身語表	-12.2808
三類智邊	-12.2809
名梵輪	-12.2809
剪	-12.2809
若爾何失	-12.2809
依勝義理	-12.2809
能俱修時	-12.2809
育	-12.2809
順後受	-12.281
逝宮	-12.281
彼成就四大耶	-12.281
若不同界遍行隨眠	-12.2811
若依漏盡身故則	-12.2812
旃荼羅	-12.2812
尊者覺天作如是說	-12.2812
無色界修所斷善識	-12.2812
依何義立	-12.2813
理善成立	-12.2813
竊盜	-12.2813
蘆	-12.2814
擣	-12.2814
妙相業	-12.2814
優波提舍	-12.2814
三重三摩地	-12.2814
亦有邊亦無邊	-12.2815
練根作見至	-12.2815
若他隨眠	-12.2815
俱分解脫	-12.2815
若退若勝進	-12.2815
既生彼已唯受	-12.2816
名色六處觸受	-12.2816
以如是等事故	-12.2817
漢	-12.2817
緣自他相續	-12.2818
如何乃說	-12.2819
增長分定	-12.2819
同異句義	-12.282
正見乃至正定	-12.282
忿怒	-12.2821
斷蓋制纏	-12.2822
依七或未至	-12.2822
由法爾力	-12.2822
如是一切略為一聚	-12.2822
善染污不隱沒無記	-12.2823
無貪無恚無癡	-12.2823
無常苦想苦無我想	-12.2824
眼緣色生眼識	-12.2825
與憂根相應	-12.2826
尊者妙音亦作是說	-12.2826
十善大地	-12.2827
盡形壽	-12.2829
道忍道智	-12.2831
隨眠故名有隨眠心	-12.2832
四五六七八	-12.2832
因境斷識	-12.2834
卷第一百五	-12.2834
見苦集滅道所斷	-12.2834
不威儀亦	-12.2836
成食事	-12.2847
及未來非過去	-12.2859
隨信隨法行現觀邊	-12.2902
是此所問	-12.2919
狀貌	-12.2925
麥芽	-12.2936
法空三摩地相應	-12.296
如向所	-12.3035
民	-12.3206
心如實知是內	-12.321
界一入一陰攝	-12.322
脊	-12.3224
芻	-12.3226
醞	-12.3231
腸	-12.3232
歎譽	-12.3232
法法觀意止	-12.3232
若眾生於地獄中	-12.3233
六智知除知他心智及苦集	-12.3234
非暴流非順暴流	-12.3235
有勝有劣	-12.3236
雹	-12.3238
沐浴	-12.324
捺	-12.3241
二智知謂	-12.3241
茅	-12.3244
瞳	-12.3245
倡	-12.3245
逃	-12.3246
大目乾連	-12.3246
院	-12.3247
捷	-12.3248
七智知除他心滅道	-12.3249
謂見所不攝無漏	-12.3249
不成就學根得學根	-12.3249
詭	-12.3249
皮膚	-12.325
湛	-12.325
三耶三佛	-12.325
杵	-12.3251
耻	-12.3251
嘉苗	-12.3252
五染污見	-12.3252
設滅已失	-12.3252
謂眼識耳鼻舌身意識	-12.3252
嗢怛羅	-12.3253
答應說而不說者當知此義有餘	-12.3253
暇	-12.3253
摩納婆	-12.3253
踐	-12.3254
婁	-12.3254
三劫無數	-12.3255
正學正生	-12.3255
理亦無違	-12.3255
是心所與心相應	-12.3255
欲界繫善心捨不成就得成就	-12.3255
鶴	-12.3255
包	-12.3256
眼及色為緣生眼識	-12.3256
誹謗違越拒逆	-12.3256
斷樂斷苦	-12.3257
上下傍布無二無	-12.3257
歌詠	-12.3257
曠	-12.3258
欲界見集所斷一切	-12.3258
思之可知	-12.3258
總緣共相法念住	-12.3259
善因非善	-12.3259
受諸劇苦	-12.326
此一智謂世俗	-12.326
能斫所斫	-12.326
牒前問起	-12.326
此道名為能	-12.326
離無所有處欲	-12.326
㬉	-12.326
十二分教	-12.3261
表釋迦遺法弟子	-12.3261
從滅定起	-12.3261
樂斷樂修	-12.3262
三和合故觸	-12.3262
匪	-12.3262
蟻卵	-12.3263
俱不修時	-12.3263
蹔	-12.3264
卷第一百九	-12.3264
謂根苦法智斷	-12.3264
非味相應非無漏耶	-12.3264
琴	-12.3265
謂修所斷十隨眠	-12.3265
波羅衍拏	-12.3265
謂於此事有愛結前生未斷	-12.3265
以實而言	-12.3265
黑白黑白異熟	-12.3266
以少從多	-12.3268
紙	-12.3268
前興未盡	-12.3268
及不染污有漏	-12.3268
十力四無所畏	-12.3269
意更愛	-12.3269
色界歿生色界	-12.327
若異生住胎	-12.327
最後所捨得	-12.3271
根集法智斷	-12.3271
答彼作論者意欲爾故	-12.3272
尊者僧伽婆修	-12.3272
日後分	-12.3272
此中何以不說	-12.3272
諦時四心頃	-12.3272
訓詞	-12.3273
卷第一百一	-12.3274
作中四句	-12.3275
卷第一百三	-12.3275
由一切支	-12.3275
已離無色染	-12.3275
為令疑者得決定	-12.3276
隣阿伽色	-12.3276
我物自體相分本性	-12.3277
卷第一百八	-12.3277
卷第一百七	-12.328
受想乃至煩惱使	-12.328
現有善身表	-12.328
名者名曰名	-12.3282
非此所明	-12.3283
此想與定共生共住共滅	-12.3283
何以作此論	-12.3283
義是處義	-12.3284
或善或不善或無記	-12.3284
此實執身繫	-12.3286
摩㝹摩	-12.3286
從障解脫	-12.3287
感非愛異熟	-12.3287
除其自體	-12.3289
喜根憂根捨根	-12.3289
法觀法行	-12.3291
自性念生智	-12.3293
十法成就墮地獄速如𥎞	-12.3293
無餘身涅槃界	-12.3294
卷第一百二	-12.3295
卷第一百四	-12.3295
所依及所緣	-12.3295
餘不相攝	-12.3304
次第境界威勢緣	-12.3308
現前行退	-12.3321
者唯造作	-12.3336
隣逼	-12.334
而不說者當知此義有餘	-12.3353
同分及命	-12.3366
想思觸思惟覺觀解脫	-12.3368
卷第一百六	-12.3373
無貪無瞋無癡	-12.361
思惟非想非非想處諸行	-12.3617
訓誨	-12.37
智觀所化生	-12.3703
同部同品	-12.3706
殑伽河	-12.3706
眠沒幾結	-12.3708
屎	-12.3712
本無今有有已還無	-12.3712
煎	-12.3714
膿	-12.3715
餮	-12.3715
樺	-12.3717
張	-12.3717
著衣持鉢	-12.3717
買	-12.3719
涕唾	-12.3719
芥	-12.3719
殷	-12.3721
甘蔗	-12.3721
四大王天	-12.3721
瑕	-12.3721
佛在世時	-12.3721
繫念眉間	-12.3721
一時薄伽梵在室羅筏	-12.3722
平坦	-12.3724
甚深故難見	-12.3724
饕	-12.3724
謂欲界生長未離欲界貪	-12.3724
亦未名入	-12.3725
暮	-12.3726
潛	-12.3727
非覺隨轉亦非觀相應	-12.3727
莊	-12.3727
為活命故	-12.3727
相繫念思惟	-12.3728
不善因非不善	-12.3728
趣苦滅道聖諦	-12.3728
馳走	-12.3729
有能了別無色界繫	-12.3729
非心非心所非心相應	-12.3729
或少或多	-12.373
嘉	-12.373
嗅甞覺	-12.373
染惱心	-12.373
准彼論文	-12.373
虛偽	-12.3731
曉	-12.3731
墨	-12.3731
嫉與慳	-12.3731
色聲香味細滑	-12.3732
捶打	-12.3732
尊者世友造三藏法師玄奘奉詔譯	-12.3732
名不雜緣	-12.3732
佛及獨覺	-12.3733
超作意位	-12.3733
如是之言亦不可說或彼或異	-12.3733
女身所起煖	-12.3734
濡	-12.3734
溢	-12.3734
狐	-12.3734
謙	-12.3734
優波婆娑護	-12.3735
所修行忍	-12.3735
彈斥	-12.3735
肅	-12.3735
香入味入	-12.3735
由一增上緣	-12.3736
蘊在心中	-12.3737
貶	-12.3737
陰入界	-12.3738
堰	-12.3738
三和合故有觸	-12.3738
此增上慢何緣	-12.3738
種類分同	-12.3738
8	-12.3738
既生彼已	-12.3739
優婆夷	-12.3739
坌	-12.3739
大與所造	-12.3739
色界見集所斷遍行隨眠相應識	-12.3739
俱舍論疏卷第十	-12.374
保延三年	-12.374
憎嫌	-12.3741
驅役	-12.3741
武	-12.3741
苦集道智品無漏識	-12.3741
影光明闇	-12.3741
結蘊第二中十門納息第四之	-12.3743
婆藪盤豆造陳天竺三藏真諦譯	-12.3743
少淨天	-12.3744
本興未盡	-12.3744
前不興	-12.3745
如偈言	-12.3745
已種相身	-12.3745
色界繫善心捨不成就得成就	-12.3745
寡	-12.3745
欲無無表離表而生	-12.3745
見滅道所斷有漏緣隨眠	-12.3746
安般念	-12.3746
躭	-12.3747
未離上染	-12.3748
界見苦集修所斷三部	-12.3748
尊者迦旃延子	-12.3748
皇	-12.3748
身見疑戒盜	-12.3749
為簡彼故	-12.3749
見道中十五心頃	-12.375
今世後世	-12.375
俱舍論疏卷第二十	-12.3751
現二門二略	-12.3751
開聖道門	-12.3751
參差	-12.3751
唐捐其功	-12.3752
通見修斷	-12.3753
尊者和須蜜	-12.3753
是此論根本	-12.3757
略為一聚	-12.3758
非三摩地俱	-12.3759
甚深微妙大法光明	-12.3759
阿迦尼吒	-12.3762
尊上寂靜	-12.3762
非苦非樂受	-12.3762
眼耳身觸所生愛身	-12.3764
上流往色究竟	-12.3765
自體於自體	-12.3765
即此無間能生	-12.3768
九十二隨眠	-12.3768
人不可退	-12.3769
七根滅起	-12.3775
為止他宗顯正義故	-12.3777
色界遍行及修所斷隨眠隨增	-12.3794
諸根見苦斷緣	-12.3819
緣道法智斷	-12.3829
道等四行	-12.3897
知老死滅	-12.3985
六萬劫	-12.4032
多修學已	-12.4069
知他人心	-12.409
七十五法	-12.4171
增損半生	-12.4196
火水風	-12.4203
是因緣亦有因	-12.4208
今此義中意說	-12.4212
復次諸根見習斷因見苦斷緣	-12.4214
四大增益軟美飽	-12.4214
馥	-12.4214
或不善亦不善為因	-12.4215
統	-12.4216
篋	-12.4216
是循內	-12.4217
粒	-12.4217
慜	-12.4218
姦	-12.4219
非心非心法非心相應	-12.422
策心持心	-12.4221
苦未知忍	-12.4221
將入胎時	-12.4222
瞖	-12.4222
惶	-12.4223
根力覺道	-12.4223
准此應釋	-12.4224
篅	-12.4225
對面念	-12.4225
佛及佛弟子	-12.4225
瑩	-12.4226
謂欲界生長未得色界善心	-12.4226
纏復還退時	-12.4226
無評文	-12.4226
豪貴	-12.4227
下兩行頌	-12.4227
部行獨覺	-12.4228
鵝	-12.4228
整	-12.4228
端政	-12.423
欲愛身縛	-12.423
銜	-12.423
奴婢	-12.423
諸根無緣因	-12.4231
當言本得得	-12.4232
紫	-12.4232
入見諦時	-12.4232
尾	-12.4232
陋	-12.4232
堅濕煖動	-12.4233
湯	-12.4233
羯邏藍	-12.4233
諸餘見滅所斷無漏緣	-12.4233
陜	-12.4234
𧄼瞢	-12.4234
住無想滅盡定	-12.4234
陂	-12.4234
費	-12.4234
破羯磨僧	-12.4234
應多聞聖弟子眾	-12.4234
孰	-12.4234
㝹	-12.4235
男身所起煖	-12.4235
若餘報生人中	-12.4235
先立章	-12.4235
此根為何繫結滅	-12.4235
有色無見有對	-12.4235
鋸	-12.4235
凌	-12.4235
慙	-12.4236
羆	-12.4236
緣緣緣非有緣	-12.4236
三和合故生觸	-12.4236
無量淨天	-12.4236
憚	-12.4237
中此最勝故	-12.4237
於無漏根非捨而得	-12.4237
摩揭陀國	-12.4237
若最初入無漏	-12.4238
義是諦義	-12.4238
苗稼	-12.4238
兆	-12.4238
謂三界見道所斷無漏緣	-12.4239
裳	-12.4239
成就非學非無學戒	-12.4239
就頌答中	-12.4239
互有寬狹	-12.424
告他令知	-12.424
隨眠相應不善意識	-12.4241
絹	-12.4241
世出世道	-12.4241
彩畫	-12.4241
無常苦空非我	-12.4242
謂加他心	-12.4242
若劣若勝	-12.4243
理極成立	-12.4243
謂諸隨眠在此心後同類	-12.4243
不善及善有漏	-12.4244
哭	-12.4244
三際愚惑	-12.4244
二界一處一蘊攝	-12.4244
循法觀	-12.4244
初受生時	-12.4245
有增有減	-12.4245
及聖者生極光淨	-12.4246
樂根苦根喜根憂根捨根	-12.4246
若并助伴	-12.4246
彈指頃	-12.4246
依無願三摩地入正性離生	-12.4246
速慧道	-12.4246
於證無能	-12.4248
答此說依空三摩地入正性離生	-12.4248
以清淨心遍解行	-12.4249
所得勝進無漏根等有為法	-12.4249
七覺支八道支現在前	-12.4249
不名有餘涅槃	-12.425
思觸思惟覺觀	-12.4251
幟	-12.4252
學或無學或非學非無學	-12.4252
舉後顯初	-12.4252
於本劫本見	-12.4253
初第二第三解脫	-12.4253
結使不悉盡	-12.4254
若住善心命終	-12.4254
彼捨善蘊五無記蘊	-12.4255
為止如是意	-12.4255
佛陀提婆	-12.4255
加行解脫勝進道	-12.4257
為愱結所繫	-12.4257
名色六入觸受	-12.4257
栴檀	-12.4258
着	-12.4259
四法四類智	-12.426
三界繫不繫者	-12.426
到究竟聲聞	-12.426
信欲不放逸念心捨	-12.4261
謂攝三界各	-12.4264
三二分或	-12.4266
不苦不樂捨念淨	-12.4266
身甜酢苦辛醎淡涎癊	-12.4266
辦一事	-12.4266
隨眠相應有覆無記意識	-12.4266
滅作證六結盡	-12.4271
眾生若解有	-12.4271
有餘身涅槃界	-12.4282
當不侵惱	-12.4283
或餘智斷	-12.4283
無色界歿生欲界	-12.4599
力最強	-12.4702
雨際第二月	-12.4714
零	-12.4718
是所緣緣非有所緣	-12.4735
啼	-12.4739
鷲	-12.4739
傾	-12.474
是緣生是因生是世攝	-12.4741
謂諸定中漸次順次相續次第數為第	-12.4742
辦欲界中陰	-12.4742
諾	-12.4743
欝單曰	-12.4744
愛別離苦	-12.4745
新學苾芻	-12.4745
謂見所不攝有漏	-12.4745
或不善為因非不善	-12.4746
蹲	-12.4746
滓	-12.4748
淵	-12.4748
賣	-12.4748
名異體同	-12.4749
宗輪論	-12.4749
發勤精進乃至勵意不息	-12.475
川	-12.475
唱如是言	-12.475
嘆	-12.475
才	-12.475
已斷為因其體已斷	-12.4751
是善亦善為因	-12.4751
無色界思惟所斷無明使	-12.4752
心隨轉亦受相應	-12.4752
幾有身見為因非有身見因等者	-12.4752
𤘽	-12.4753
東勝身洲	-12.4753
尊者舍利子說三藏法師玄奘奉詔譯	-12.4753
咄	-12.4754
率己情	-12.4754
雌	-12.4754
現憶知諸宿住事	-12.4756
陽	-12.4756
燭	-12.4757
跋渠第	-12.4757
所成堅故	-12.4757
為前攝後後攝前	-12.4757
沮	-12.4757
復次諸根習法智斷因苦法智斷緣	-12.4758
先喜憂沒	-12.4758
餘見滅斷無漏緣	-12.4759
正理彈云	-12.4759
兜率天	-12.476
苾蒭	-12.476
盡及住異	-12.476
筋脈	-12.476
謂見苦集所斷非遍行	-12.476
離八地染	-12.476
受具足戒	-12.4761
苦智習智盡智道智	-12.4761
轉正法輪	-12.4761
]	-12.4761
有近有遠	-12.4761
佛上首僧	-12.4762
聽我所說	-12.4762
死邊際受	-12.4762
已熟修位	-12.4762
父母兄弟姊妹	-12.4764
非流亦非隨流	-12.4765
不復當證	-12.4765
野干	-12.4765
即相應俱有同類因	-12.4765
甜	-12.4765
此如次前所說	-12.4766
求不得苦	-12.4766
祭祀則到	-12.4766
住無想滅盡等至	-12.4767
黑黑異熟業	-12.4767
苦現觀一心頃	-12.4767
箇	-12.4768
業法集智力	-12.4768
犍	-12.4769
欲界思惟所斷法	-12.477
肆	-12.477
若觀待色界	-12.477
𧂐	-12.4771
梵網經	-12.4771
趺	-12.4771
故正理七十	-12.4772
曼	-12.4772
諸根苦法智斷緣	-12.4773
相謂所名	-12.4774
為取結所繫	-12.4774
俱舍論頌疏論本第二十	-12.4775
達磨多羅	-12.4775
空無邊等	-12.4775
義是枝義	-12.4775
有顯無形	-12.4776
謂彼結盡證	-12.4776
頗有一智知一切法	-12.4776
已離無色界染	-12.4777
道如行出	-12.4779
答為止他宗顯己義	-12.4779
斷智時到	-12.4779
使斷智結不悉盡	-12.4779
十二部經	-12.478
盡非果攝	-12.4781
清淨解脫出離	-12.4783
學人離結使聖心入聖道	-12.4783
或先有此表不失	-12.4784
即便能住	-12.4785
得無漏解脫得	-12.4785
名味名味身	-12.4786
心向寂靜	-12.4786
入正性決定	-12.4788
鼻舌觸所生愛身	-12.479
表所起無表	-12.4792
迦多衍尼子造三藏法師玄奘奉詔譯	-12.4793
見道修道無學道	-12.4795
初人可退	-12.4796
生者已斷則不繫	-12.4797
是名名色緣未來	-12.48
後出觀心	-12.4824
釋伏難	-12.4841
口意善行	-12.4893
答彼文應	-12.4894
而不說者有何意	-12.5086
成就味相應淨	-12.5185
是此論所依根本	-12.5204
六千頌	-12.5236
領納攝受種種身	-12.5239
不如理所引了別	-12.5256
信精進念定慧	-12.5271
演	-12.5272
偷	-12.5274
日行此洲	-12.5277
八功德水	-12.5281
設有教便失	-12.5287
識所了說為所	-12.5288
域	-12.5289
叱	-12.5289
是所緣緣亦有所緣	-12.5291
幾應修等者	-12.5293
幾等無間非等無間緣	-12.5293
兇	-12.5293
幾無記非無記為因	-12.5294
所緣未斷其體未斷	-12.5295
所緣未斷其體已斷	-12.5295
所緣未斷及所緣已斷其體已斷	-12.5295
候	-12.5296
執藏防護耽著愛	-12.5296
瞢	-12.5297
體已斷所緣已斷及所緣未斷	-12.5297
辦色界中陰	-12.5297
體已斷所緣未斷	-12.5297
北鳩婁	-12.5297
從座起	-12.5298
錫	-12.5298
覺明慧行	-12.5298
主藏臣寶	-12.5299
膖脹	-12.5299
顏貌端正	-12.53
幾不善非不善為因	-12.5301
躍	-12.5301
體未斷不可分別此心所緣已斷未斷	-12.5302
偃	-12.5302
現修如學	-12.5302
爾時世尊告苾芻眾	-12.5303
啟	-12.5304
揀	-12.5304
莎	-12.5305
廟	-12.5305
衢	-12.5305
幾業非業異熟	-12.5306
幾隨心轉非想行相應	-12.5306
現知他心心所法	-12.5306
顛	-12.5306
非心隨轉亦非受相應	-12.5306
伺相應非隨尋轉	-12.5307
及未離欲界貪聖者現觀邊苦法智	-12.5307
脾	-12.5307
漸次順次相續次第	-12.5307
弗	-12.5307
稚	-12.5307
住等住近住安住	-12.5307
六智知除法他心滅道智	-12.5308
經七晝夜	-12.5308
飲光部	-12.5309
故以名焉	-12.5309
從生門入	-12.5309
向遊塵	-12.531
主財田	-12.531
洟	-12.531
幾業非隨業轉	-12.531
他勝罪	-12.5311
無內眼結	-12.5311
琰	-12.5311
應審思擇	-12.5312
得而不在身成就	-12.5312
白世尊曰	-12.5312
在一面坐	-12.5312
是外入所攝	-12.5312
胞	-12.5313
立量云	-12.5313
奉施制多	-12.5314
今次應辨	-12.5314
聞言不聞	-12.5315
受心念住現在前	-12.5315
已修已猗	-12.5315
名身句身文身	-12.5315
受五逆罪	-12.5315
非善亦非善因	-12.5316
藝	-12.5316
卦	-12.5316
俱舍論記卷第十	-12.5317
勉	-12.5317
漏處所不攝	-12.5317
撰	-12.5317
諸根無斷緣	-12.5318
種種勝解智力	-12.5318
剩	-12.5318
此四智謂法類世俗道	-12.5318
尊婆須蜜菩薩所集	-12.5318
能了別欲界繫法耶	-12.5319
識續餘道	-12.5319
棗	-12.5319
見苦所斷者顯彼對治	-12.532
異生及諸聖者	-12.532
6	-12.532
一切異生染污心	-12.532
現有不善身語表	-12.532
壹	-12.5321
如世尊契經說	-12.5321
稱言癡人	-12.5321
勤策女律儀	-12.5321
令貪不起	-12.5321
曀	-12.5322
初四除入	-12.5323
貨	-12.5323
椽	-12.5323
色界見苦所斷遍行隨眠相應識	-12.5323
諸根思惟斷緣	-12.5324
霜雹	-12.5324
為攝前義	-12.5324
通異生及聖者	-12.5324
受觀受行	-12.5325
謂入現觀集	-12.5325
淤	-12.5325
若滅已不失則成就	-12.5325
從足至頂	-12.5326
乃至或有一品	-12.5327
法密部	-12.5327
喝	-12.5327
謂法類世俗道	-12.5328
蹬	-12.5328
勿有此失	-12.5329
生二三四靜慮地	-12.533
㷮	-12.533
彼未說者今應說之	-12.533
今次當說	-12.533
謹慎	-12.533
初二念心	-12.5331
名為造作亦名增長	-12.5331
過去蘊處界心相續	-12.5331
未離無色界染	-12.5331
取劣法為勝	-12.5332
二分或心相應或非心相應	-12.5333
色行二蘊	-12.5333
當知此是有餘之說	-12.5333
得善蘊四無記蘊	-12.5334
近佛菩薩	-12.5334
已轉已現轉	-12.5336
集忍集智	-12.5336
設滅便失	-12.5336
不殺生戒法	-12.5336
從果至果	-12.5338
心觀心行	-12.5338
非業若業生非業	-12.5338
已慢當慢	-12.5339
即此心所觀	-12.5339
見慧解脫無癡順信悅喜心進心除	-12.534
眄	-12.534
若苦若集	-12.534
於諸罪中	-12.534
由力尊自在	-12.5343
因集類智斷	-12.5344
為無明結所繫	-12.5344
由意生受想思觸思惟	-12.5344
若依無尋無伺定	-12.5344
即以彼為所緣	-12.5345
優陀夷	-12.5346
作近所作因	-12.5348
滅沒除已	-12.5348
生正生起正起	-12.5349
若前生不斷則繫	-12.535
二分或共心或	-12.5352
世共了	-12.5353
鬘童真	-12.5359
六入緣觸	-12.5365
色染無明慢掉	-12.5381
過去現在阿羅漢最後	-12.5408
知他心智及滅	-12.5674
銛	-12.5845
摩訶先優婆夷	-12.5855
報何所受報	-12.5861
痛痛觀意止	-12.5873
無記亦無記為因	-12.5874
俱舍論記卷第二十	-12.5876
泣	-12.5878
阿迦膩吒天	-12.5878
礫	-12.5878
是謂成就過去空及	-12.5879
幾因緣非有因	-12.5879
幾所緣緣非有所緣等者	-12.588
是增上緣亦有增上	-12.5882
幾增上緣非有增上	-12.5883
臛	-12.5884
幾有見等者	-12.5884
暉	-12.5885
囑	-12.5886
優陀耶	-12.5887
弶	-12.5888
腋	-12.5888
鴦	-12.5889
幾有執受等者	-12.5889
鉢羅塞建提	-12.5889
駝	-12.5889
願諸有情皆得	-12.5889
一切難見故甚深	-12.5889
幾善非善為因	-12.589
挑	-12.5891
壽盡故死	-12.5891
斷者名見所斷	-12.5892
見苦所斷遍行煩惱	-12.5892
公	-12.5892
幾難見故甚深	-12.5893
與八無漏處	-12.5893
所修行苦未知智	-12.5894
奈	-12.5894
隨尋轉亦伺相應	-12.5894
憐	-12.5895
見苦所斷不遍行煩惱	-12.5895
如是定中所有善	-12.5895
農	-12.5896
住空閑	-12.5896
一切是甚深難了	-12.5896
揣	-12.5896
論主意朋經部	-12.5897
欲界遍行及修所斷隨眠隨增	-12.5897
超九劫	-12.5898
濯	-12.5898
或業非隨業轉	-12.5898
綠	-12.5898
受相應非隨心轉	-12.5899
捨多壽行	-12.5899
曹	-12.5899
於藥喜足	-12.59
若眼我分攝	-12.59
其四者何	-12.59
色愛無色愛	-12.5901
緊	-12.5901
下兩頌	-12.5903
枳	-12.5903
輔	-12.5903
或前或後	-12.5904
尊者僧伽筏蘇說	-12.5905
諾瞿陀	-12.5906
蹶	-12.5907
殄	-12.5908
謂見所斷八十八隨眠	-12.5908
覺言不覺	-12.5909
賈	-12.5909
極七返生	-12.5909
雙賢弟子	-12.5909
皈	-12.5909
作小四句	-12.591
丹	-12.591
註	-12.591
純大苦蘊集	-12.5911
分離染而命終	-12.5911
繫義是結義	-12.5911
乱	-12.5911
眼及色為緣生於眼識	-12.5911
持訶那	-12.5911
欲界是不定界	-12.5912
諸有欲令一切法是	-12.5912
執藏防護堅著愛染	-12.5913
3	-12.5913
眼界色界眼識界	-12.5913
或攝或不攝	-12.5913
已廣成立	-12.5914
即於此事亦有過去	-12.5914
所攝身語業心不相應行	-12.5914
已正當了別及彼同分	-12.5915
治生時即得果故	-12.5915
勢微劣故	-12.5915
增上所起善有漏無漏道	-12.5915
信勝解轉根作見至	-12.5916
於如是時起未曾得	-12.5916
幾成就幾不成就	-12.5917
阿闍世王	-12.5918
非味相應非淨耶	-12.5918
雜毒義是結義	-12.5918
八邪支	-12.5918
見道所斷見結不相應法	-12.5918
外門起故	-12.5918
於三界五部事	-12.5918
南西北方	-12.592
此救非理	-12.5921
執色為我	-12.5923
擇品當廣說	-12.5923
修多羅毘尼阿毘曇	-12.5925
初一行頌	-12.5925
見此諦所斷	-12.5926
唯有漏緣非遍行	-12.5926
修令柔軟	-12.5927
若等至以味相應	-12.5928
身無表非此表	-12.5928
彼所起身口業	-12.5929
及遍行隨眠之所隨增	-12.5933
斷八種結	-12.5933
見諦具足世尊弟子	-12.5934
見道斷修道斷不斷者	-12.5943
善無尋業	-12.5944
人及前四天	-12.5954
欲界見集所斷遍行隨眠相應識	-12.5971
故正理第	-12.6082
見慧解脫悔不悔悅喜心進信欲念	-12.6297
六波羅蜜	-12.6396
拘屢舍	-12.6456
令未生諸貪欲蓋永不	-12.649
若在現相續中	-12.6497
阿庾多	-12.6498
聳	-12.6498
婢	-12.6499
身力身劣	-12.6499
謂為現法樂住所攝	-12.6501
饑	-12.6502
白淨比丘尼	-12.6503
幾暴流非順暴流等者	-12.6504
設有教不失	-12.6504
同部異品	-12.6505
臘	-12.6506
云何根因見苦斷緣	-12.6506
異熟定時不定	-12.6506
毘㮈耶	-12.6506
近習修作	-12.6507
裏	-12.6508
分陀利	-12.6509
跪	-12.6509
初修業者創修觀時	-12.6509
謂此定中所有善	-12.6509
諸色界繫見苦集所斷有覆無記心	-12.651
怖罪怨	-12.651
迷麗耶酒	-12.651
住現法樂三昧修	-12.6511
目犍連	-12.6511
鍾	-12.6513
隨一種類惡不善法	-12.6513
十二月為一	-12.6514
三十日為	-12.6514
搋	-12.6515
諸無色界繫見苦集所斷有覆無記心	-12.6516
脂	-12.6516
智見明覺	-12.6517
喻況可知	-12.6517
犢	-12.6518
丘	-12.6518
婆設摩阿羅漢造三藏法師玄奘奉詔譯	-12.6519
滴如車軸	-12.6519
寢	-12.652
拘尸城	-12.652
桃	-12.652
洄	-12.6521
風所吹	-12.6521
呈	-12.6521
屢	-12.6521
洹	-12.6522
溝	-12.6522
榮	-12.6523
頂禮雙足	-12.6523
市	-12.6523
綴	-12.6524
見滅所斷有為緣隨眠	-12.6524
𢤱	-12.6524
駛	-12.6524
欲令疑者得決定故	-12.6524
却坐一面	-12.6524
隨眠所感諸異熟心	-12.6524
難斷難破難可越度	-12.6525
破和合僧	-12.6525
阿波那	-12.6526
諠	-12.6527
撲	-12.6527
不黑不白	-12.6528
云何根因苦法智斷緣	-12.6528
施類福業事	-12.6528
戒盜身縛	-12.6529
適悅遍適悅	-12.6529
見滅斷邪見疑相應無明	-12.653
蹈	-12.653
諸資生具	-12.653
鑿	-12.653
捫	-12.6531
如世尊告阿難陀言	-12.6531
低	-12.6531
依法立難	-12.6531
料	-12.6531
是增上緣緣及有增上	-12.6531
非與有身見為因	-12.6532
天眼清淨過人	-12.6532
非業亦非業隨轉	-12.6532
立餘緣起支	-12.6532
貿	-12.6533
第六無相住者	-12.6533
劇	-12.6534
兩關徵	-12.6534
污道沙門	-12.6534
內外身觀身行	-12.6535
影依樹	-12.6537
受陰想陰識陰	-12.6537
亦常亦無常	-12.6537
依六因作論	-12.6537
未知根已知根無知根	-12.6538
1	-12.6538
鬧	-12.6539
一切地一切無漏心	-12.6539
有色有見有對	-12.6539
幾善幾不善幾無記	-12.654
乃至或有一地	-12.654
及於色無色界修所斷法	-12.6541
餘法謂正生可生	-12.6541
阿迦尼師吒	-12.6542
命異身異	-12.6542
謂不礙生	-12.6543
而興作用	-12.6544
入定意三昧	-12.6544
緣三世及離世	-12.6544
成月及年	-12.6545
若習若修若多修習	-12.6545
違聖心故	-12.6546
無色界見道所斷無漏緣隨眠相應識	-12.6547
吾當為汝說	-12.6547
即以彼為等無間	-12.6549
一生一住一滅	-12.6549
可厭毀故	-12.655
謂若依此地入正性離生	-12.6552
覆此想此忍此	-12.6552
容別業感	-12.6552
峻	-12.6555
信欲不放逸念定心捨	-12.6556
香非適意香	-12.6556
役	-12.6556
若一一智現在前修未來修	-12.6557
想作意為先	-12.6559
若依有尋有伺定	-12.6563
三劫阿僧企耶	-12.6563
禪地眼見欲界色	-12.6565
取果不與果	-12.6565
神境智通	-12.6568
結作七句	-12.6583
香非好香	-12.6589
三十六尊句	-12.6595
隱沒不隱沒	-12.6609
既領會已	-12.7105
耨	-12.7153
卵膜漸厚處母胎	-12.7154
肝	-12.7157
冬至日	-12.7158
脛	-12.7164
沫	-12.7165
夭	-12.7166
非成就欲界繫善心亦非	-12.717
盆	-12.7171
若無智若冥暗若愚癡	-12.7172
幡	-12.7173
所緣已斷及所緣未斷其體已斷	-12.7175
考	-12.7176
却住一面	-12.7176
妙翅鳥	-12.7177
體已斷不可分別此心所緣已斷未斷	-12.7178
韻	-12.7178
有情欲為損害	-12.7179
願尊憶持	-12.7179
龕	-12.718
限勢過	-12.718
突	-12.7181
白四羯磨	-12.7181
縮	-12.7182
勘	-12.7182
從後向前	-12.7182
見滅所斷無漏緣煩惱	-12.7183
􂌯	-12.7183
迦多衍那	-12.7183
尿	-12.7184
陿	-12.7184
同文故來	-12.7184
俯	-12.7184
須跋陀羅	-12.7184
収	-12.7186
皺	-12.7186
唯外四界	-12.7187
軸	-12.7187
膏	-12.7188
鄣	-12.7188
現門現略現	-12.7188
瘧	-12.7188
十七界十一處五蘊攝	-12.7189
餘真無能過	-12.7189
婆沙一百二十七云	-12.7189
不善亦不善因	-12.719
從離欲貪復還退時	-12.719
剝	-12.719
耳不聞聲	-12.7191
𧙃	-12.7191
醋	-12.7192
宰	-12.7192
又無間道能盡色貪	-12.7193
嗢柁南	-12.7193
者世人共言	-12.7193
欲潤憙渴	-12.7194
令未生隨一種類惡不善法永不	-12.7194
內身觀身行	-12.7194
未修未安	-12.7194
己界一切遍	-12.7195
伏難意云	-12.7196
及缺有頂諸遍行	-12.7196
朗	-12.7196
充滿遍充滿	-12.7196
滋潤遍滋潤	-12.7197
由此起忍樂慧觀見	-12.7197
眼識耳識身識	-12.7197
種種界智力	-12.7197
舊俱舍云	-12.7197
道真是道	-12.7198
入滅定想微細心時	-12.7198
c	-12.7198
f	-12.7198
入邊際第四靜慮	-12.7198
見滅斷疑相應無明	-12.7198
界纏現在前故退	-12.7199
塘	-12.7199
酷	-12.72
繕	-12.72
懸造未來	-12.72
如是等章及解章義既領會已	-12.72
謂諸隨眠在此心前同類遍行	-12.72
閇	-12.7201
或上或下	-12.7201
瑜	-12.7201
此說依空三摩地入正性離生苦現觀	-12.7201
若不滅設滅便失	-12.7202
入及二入少分	-12.7202
諸心尋求乃至分	-12.7203
隨信行乃至俱解脫	-12.7203
崖	-12.7203
拊	-12.7204
成就此類身根	-12.7204
眼屬二定	-12.7204
所陵雜	-12.7204
義則易解	-12.7204
姝	-12.7205
及彼所證諸結盡	-12.7205
苽	-12.7206
地獄餓鬼畜生	-12.7206
出息入息覺知得悅喜	-12.7207
圖	-12.7207
若作斯解	-12.7207
愚癡及欲漏	-12.7207
此邊執見常見攝	-12.7208
述異釋也	-12.7209
佛知諸法性相勢用	-12.7209
栰	-12.721
眼入耳鼻舌身入	-12.721
當知此義是有餘	-12.7211
續者前得	-12.7211
不思惟不應所	-12.7211
故佛唯說應修聖道	-12.7211
後合觀色無色界	-12.7214
口善行意善行	-12.7215
謂起欲色界中有	-12.7216
椒	-12.7216
將明問起	-12.7217
以初靜慮眼見欲界色	-12.7217
阿須羅	-12.7218
今次當辯	-12.722
名名身不名多名身	-12.7221
邪見見取戒取	-12.7221
與七色根命根	-12.7221
此業是自業	-12.7222
施設經說云何通	-12.7223
復次根本果位	-12.7224
身冷熱輕重麁細	-12.7224
生餘繫識	-12.7224
時取果亦與果	-12.7225
信根精進根念根定根慧根	-12.7227
順生順後	-12.7228
以刀自害	-12.7239
性空論者	-12.724
如是緣現在名色生未來	-12.7241
界見道所斷見智慧	-12.7293
受業已領受	-12.7347
未已起滅先已起滅者	-12.7518
雖作是說而不廣	-12.7746
月十六日至	-12.7851
哲	-12.7861
蒸	-12.7862
癲	-12.7863
探	-12.7868
枉	-12.7878
若貪若慢若癡	-12.7879
主兵臣寶	-12.7881
却後七日	-12.7882
倫	-12.7885
早	-12.7886
戮	-12.7887
成就欲色界善見智慧	-12.7887
不色界沒不生色界	-12.7887
拭	-12.7887
派	-12.7889
孕	-12.7889
廁	-12.789
諸餘無記及善	-12.789
所緣未斷及所緣已斷其體未斷	-12.7891
若好若惡	-12.7891
梵遊行處	-12.7891
出家遠離所生善法	-12.7892
文義巧妙	-12.7895
㵎	-12.7895
戍	-12.7896
麟	-12.7896
若前生未斷則繫	-12.7896
蓮	-12.7897
頗勒窶那	-12.7897
復次諸根習未知智斷因苦未知智斷緣	-12.7897
僵	-12.7897
捔	-12.7897
鈍九利十	-12.7898
彼行緣彼識	-12.7899
不起定者加行道時	-12.7899
筈	-12.7899
始欠持	-12.79
魁	-12.79
不悟入無勝解無淨信	-12.7901
內身住循身觀	-12.7902
識所乘御	-12.7902
謂除過去現在阿羅漢命終時	-12.7902
鉢剌底	-12.7902
芬	-12.7902
誹	-12.7902
姤	-12.7903
貪或瞋或癡	-12.7903
復有所餘如是類法	-12.7903
霜	-12.7903
眾生出生死泥	-12.7904
非身見因身見亦非彼因	-12.7904
棄無漏根得無漏根	-12.7904
畢舍遮	-12.7904
摩伽陀國	-12.7904
餚	-12.7905
謀	-12.7905
頻婆娑羅王	-12.7906
鷺	-12.7906
近佛地菩薩	-12.7906
柳	-12.7906
經中世尊善語善詞善說	-12.7907
退坐一面	-12.7907
乃至以心心數法因	-12.7908
十四界十處五蘊	-12.7908
緣緣緣亦有緣	-12.7908
或有身見為因亦有身見因	-12.7909
疊	-12.7909
無所忌難	-12.7909
銕	-12.791
塗飾香鬘	-12.791
令心隨順調伏	-12.791
豹	-12.791
緣自相續他相續非相續者	-12.7911
籍	-12.7911
自計吾我	-12.7911
北拘盧洲	-12.7912
彼謂諸法行於	-12.7912
窂	-12.7912
紹	-12.7912
▁分別根品第二之	-12.7912
覺隨轉亦觀相應	-12.7912
或有苦諦以有身見為因	-12.7912
當言因當言緣	-12.7912
斷計我人意	-12.7913
觀相應非覺隨轉	-12.7913
隟	-12.7913
安般守意	-12.7913
雖標總稱即受別名	-12.7913
現大妙智	-12.7913
一切四大必不離色	-12.7914
有太過之失	-12.7914
身熱心熱	-12.7915
燧	-12.7915
有為之起亦可了知	-12.7916
依得事得處得	-12.7916
一切世間不樂想	-12.7917
十一界十一處一蘊攝	-12.7918
四大色身所攝法	-12.7918
引發五通諸加行道	-12.7919
澍	-12.7919
得獲觸證	-12.7919
勤斷欣求	-12.792
斷離繫得無漏得	-12.792
妾	-12.792
排	-12.792
名斷名無欲名滅名諦	-12.7921
如聖王輪	-12.7921
先不成就今得成就	-12.7921
為門說緣起法	-12.7922
爾時所得諸餘未來	-12.7922
能為因亦所隨增	-12.7923
樂受苦受不苦不樂受	-12.7923
十界十處一蘊攝	-12.7924
色無色界思惟所斷法二俱	-12.7924
手捫摸	-12.7924
雜蘊第一中智納息第二之	-12.7924
集現觀四心頃	-12.7924
方總集遍知	-12.7925
善一蘊染四蘊無記一蘊現在前	-12.7926
鎧	-12.7926
慎	-12.7926
智為三緣除所緣	-12.7927
縛義是結義	-12.7927
於未現觀四聖諦能現觀	-12.7927
斷想離想滅想	-12.7928
易見易知	-12.7928
下下下中下上	-12.7929
同作一事	-12.793
至阿羅漢九十八隨眠滅作證	-12.793
禪地或至有想無想	-12.793
答未來必繫	-12.7931
見疑相應及不共無明	-12.7932
除滅瞋惱	-12.7932
無異生者能離非想非非想處	-12.7932
一切支非一切因	-12.7932
名句不名句身	-12.7932
依種類滅說	-12.7934
依究竟滅說	-12.7936
心觸名觸明觸明分觸	-12.7938
二心無間皆容現前	-12.7939
阿泥盧頭	-12.7943
得四支正得緣得	-12.7944
猒	-12.7947
即是彼心所觀境界	-12.795
不思惟若干想	-12.7956
界歿生欲界異生	-12.8185
先雜修第四	-12.8341
等名雖有異而體無	-12.8422
骨以拄	-12.8583
捍	-12.8642
復次若阿羅漢出現世間	-12.8646
函	-12.8649
漿	-12.865
胤	-12.8652
埋	-12.8653
厨	-12.8655
勗	-12.8656
銳	-12.8657
牖	-12.8659
完	-12.8661
扶根四境	-12.8663
鴈	-12.8663
蕉	-12.8663
有內眼結	-12.8663
不修諦修有	-12.8664
已了別今了別或當了別或不當了別	-12.8664
膚	-12.8664
腎	-12.8664
界三處二蘊攝	-12.8665
健馱羅國	-12.8665
積集增長有損害法	-12.8666
叢	-12.8666
肪	-12.8666
楊	-12.8667
鍊	-12.8667
不遺不漏	-12.8667
肺	-12.8668
嶮惡趣坑	-12.8669
陣	-12.8669
祥	-12.8669
大諾健那	-12.8669
牛毛塵	-12.867
耗	-12.867
觸有損害觸	-12.8671
鉗	-12.8671
造罪而不羞恥是無	-12.8671
粗	-12.8671
形容端正	-12.8672
頑	-12.8672
竅	-12.8672
鑞	-12.8672
此品廣明故名分別	-12.8672
牧	-12.8672
憍尸迦	-12.8673
筒	-12.8673
若聖弟子以如是相隨念	-12.8674
或善為因非善	-12.8674
謂欲界生長異生未離欲界貪	-12.8674
扣	-12.8675
蘇陀夷	-12.8675
佛世尊於法真諦	-12.8676
若佛出世若不出世	-12.8676
匝	-12.8677
膳	-12.8677
懊	-12.8677
豺	-12.8677
一一等無間生幾心	-12.8677
余	-12.8677
從惑生惑	-12.8678
如次名為斷等三界	-12.8678
愛盡離滅涅槃	-12.8678
絡	-12.8678
芝	-12.8679
想顛倒心顛倒	-12.8679
或有身見為因非有身見因	-12.8679
依如是義故有頌	-12.8679
暑	-12.8679
卜	-12.868
範	-12.868
螫	-12.868
便致無窮	-12.868
杜	-12.868
眼入耳入鼻入舌入身入	-12.8681
糖	-12.8681
▁大慈恩寺沙門	-12.8681
梵迦夷	-12.8682
造作增長起異熟業	-12.8682
依根本地起煖等	-12.8682
祕	-12.8683
諮	-12.8683
羽	-12.8684
阿那波那念	-12.8684
云何根緣見盡斷因	-12.8684
壇	-12.8684
無漏根力覺支道支	-12.8684
西牛貨洲	-12.8684
決定義是智義	-12.8685
尸陀槃尼撰符秦罽賓三藏僧伽跋澄譯	-12.8685
定根定力定	-12.8685
縣	-12.8685
竿	-12.8685
積集增長無損害法	-12.8685
讓	-12.8685
苦現觀後二心頃	-12.8685
以自存活	-12.8686
葦	-12.8686
捧	-12.8686
絮	-12.8686
隨法行人無間忍等斷	-12.8688
一欲界見苦所斷一切隨眠相應識	-12.8688
雜無雜相	-12.8688
自古諸師	-12.8688
併	-12.8688
眾同分有情數五蘊	-12.8688
有等至不以淨	-12.8688
弃	-12.8689
即於此事無有過去愛結繫義	-12.8689
身中前興愛結	-12.8689
前第三句作此第四句	-12.869
非以婆沙評家為量	-12.869
薀	-12.869
後填眾彩	-12.869
耳界聲界耳識界	-12.869
此二雖別而	-12.8691
布剌拏	-12.8691
鞞婆闍婆提	-12.8692
盖	-12.8692
最初所得諸根大種	-12.8693
智遍知故已遍知	-12.8693
嘿	-12.8693
彼捨善蘊四無記蘊	-12.8694
觸有損害無損害觸	-12.8695
獻	-12.8695
思惟緣知緣解緣受緣	-12.8696
若時此法未至已生	-12.8696
及聖者生上成就	-12.8696
但以無礙為性	-12.8697
若法非增長若增長不至生第三	-12.8702
生智生眼生覺生明生	-12.8705
眼色為緣生於眼識	-12.8705
是故獨立為不善根	-12.8706
斷苦樂先滅憂喜	-12.8707
通聖者及異生	-12.8708
禪地眼欲界色	-12.8711
若惡作憂根俱生	-12.8711
及業異熟已生正受	-12.8711
二分或共業或	-12.8711
六識轉為意	-12.8712
鸞	-12.8713
貪恚癡及欲漏	-12.8714
此中增見增慧增道	-12.8715
如諸聖人解捨念樂行	-12.8715
已現在前已牽異熟	-12.8715
本劫本見起論	-12.8717
有使性無伴性	-12.872
愛喜適意愛色欲染相	-12.872
以種類言之	-12.8729
枙	-12.874
頗有法是所通達所遍知	-12.8752
欲界二不善有覆	-12.8762
隨彼意欲而	-12.8817
死後非有想非	-12.8851
胝	-12.945
啄	-12.9455
駮	-12.9458
羯臘婆	-12.9463
三磨鉢耽	-12.9466
頻跋羅	-12.9469
晚	-12.9469
婆喝那	-12.947
傷坻羅	-12.9474
舍衛國	-12.9476
囂	-12.9481
頞浮陀	-12.9482
令已生第三靜慮堅住乃至智作證	-12.9486
涎	-12.949
及過去現在阿羅漢命終時	-12.9491
以利求利	-12.9491
胃	-12.9492
耀	-12.9496
俱容現感	-12.9497
人壽四萬歲時	-12.9497
奏	-12.9497
頞部陀	-12.9497
吟	-12.9498
膽	-12.9498
云何根因苦未知智斷緣	-12.9499
得增上慧法觀	-12.9499
石女兒	-12.9499
諸信信性	-12.9499
若於道謂道謂如謂行謂出	-12.95
綵	-12.95
玩	-12.9501
非造色色亦非有對色	-12.9501
自稱我是鄔波索迦	-12.9501
白有白報	-12.9502
感得有損害自體	-12.9502
峰	-12.9502
仙人意憤	-12.9502
純一圓滿清白梵行	-12.9503
矚	-12.9503
及見滅道修所斷一切隨眠	-12.9503
心昧略性	-12.9504
諸漏未盡得漏盡未得無上安隱得安隱	-12.9504
尊者大目乾連造三藏法師玄奘奉詔譯	-12.9505
阿羅漢果能作證向決定別有阿羅漢果	-12.9505
柯羅邏	-12.9506
蠖	-12.9506
異名義得善巧故	-12.9506
三十二大丈夫相	-12.9506
乃至阿羅漢果能作證向若阿羅漢果	-12.9506
云何根緣盡未知智斷因	-12.9506
埿	-12.9507
綖	-12.9507
睛	-12.9507
斷此三種所證無為	-12.9507
點	-12.9508
諸有正知而妄語	-12.9508
非造色色亦非可見色	-12.9508
知過去他人心所念法	-12.9508
奕	-12.9509
伽蘭他	-12.9509
呬	-12.9509
一切從因緣生世所攝	-12.9509
贍部林中異生	-12.9509
2	-12.951
栴	-12.951
慈緣執受諸蘊相續	-12.951
鼻界香界鼻識界	-12.951
執受大種因聲	-12.951
如是思惟入慈等至	-12.9511
衍	-12.9511
瑜繕那	-12.9511
酸	-12.9511
一切欲界色必不離香	-12.9512
楯	-12.9512
業非業隨轉者	-12.9513
舌界味界舌識界	-12.9513
業相應或非業相應	-12.9513
謂自界五除通果心	-12.9514
彼不說者今應說之	-12.9514
剛	-12.9514
援	-12.9514
捨而安住正念正	-12.9514
▁分別業品第四之	-12.9514
異生性未斷而不成就	-12.9514
身燒心燒	-12.9515
侫	-12.9515
礦	-12.9515
感得無損害自體	-12.9515
糓	-12.9516
證見苦見集見滅見道所斷及脩所斷	-12.9516
彌沙塞部	-12.9516
輕等動性	-12.9516
括	-12.9517
坊	-12.9517
勤三摩地勝行成就神足	-12.9517
長爪梵志	-12.9518
復次若教他出家	-12.9518
緣親迷道	-12.9518
若於如是未曾聞法如理	-12.9518
哀愍世間諸天人眾	-12.9518
髮毛爪等	-12.9518
信勝解不轉根作見至	-12.9518
明智之所說	-12.9519
癡所生染濁作意	-12.952
積集增長有損害無損害法	-12.952
謂四靜慮果各有	-12.952
所欲處如所欲盡所欲	-12.9521
虵	-12.9521
非明非無明更樂	-12.9521
有愛結慢結前生未斷	-12.9521
於等謂己勝	-12.9522
而前未生設生已斷	-12.9522
奘	-12.9522
弗婆提	-12.9522
謂此正論能正顯了	-12.9522
為令彼疑得決定故	-12.9523
秀	-12.9523
有所崇重	-12.9523
業力強非無常	-12.9523
葢	-12.9523
提舍梵天	-12.9523
身見非彼因彼亦非身見	-12.9523
思惟無常知無常解無常受無常	-12.9524
故佛唯說滅應作證	-12.9525
叔	-12.9525
為麁苦障	-12.9526
當言有尋有伺無尋唯伺無尋無伺	-12.9527
惓	-12.9528
生有損害無損害世間	-12.9528
舉後攝初	-12.9529
第二禪第三禪第四禪	-12.9529
中下中中中上	-12.9529
耎	-12.9529
冤	-12.953
楔	-12.9531
增惛滯	-12.9531
分定非射分	-12.9531
於此復起欲界分別	-12.9531
始得果是須陀洹	-12.9532
拂	-12.9532
依緣壞法不定不	-12.9532
就依士釋	-12.9532
所受合立一種	-12.9532
於色無色界五部事	-12.9533
有名有名身有多名身	-12.9534
何緣能憶本所	-12.9534
㝡	-12.9535
一果一等流一異熟	-12.9536
眼入耳入鼻入舌入身入香入味入觸入	-12.9536
衣重一銖	-12.9537
悔不悔悅喜心進信欲念疑怖煩惱使結	-12.9538
令不得入聖諦現觀	-12.9538
卵濕二生	-12.9538
折脚蟻子	-12.9539
彼欲界身四禪地眼	-12.954
即生彼繫識	-12.9544
有法能令心心所滅	-12.9545
非想非無想是	-12.9545
靜慮眼初靜慮色生	-12.9549
阿尼盧頭	-12.955
香非軟香	-12.9554
須涅多羅	-12.9558
隨心轉共心生共住共滅	-12.9563
黑業黑報	-12.9584
或十或九或八或七	-12.9585
雖有異而體無別	-12.9802
愱	-13.0284
字時但可有名	-13.0359
頷	-13.0377
穩	-13.0378
於所說法初中後分	-13.0384
拉婆洲	-13.0386
肚	-13.0389
邏剎娑	-13.0389
隅	-13.0391
波斯匿王	-13.0392
洋	-13.0394
十七界十一入五陰	-13.0395
蟠	-13.0396
名觀三摩地勝行成就神足	-13.0396
金翅鳥	-13.0396
佷	-13.0397
名欲三摩地勝行成就神足	-13.0398
衝	-13.0399
銖	-13.0399
唼	-13.04
賞	-13.04
有從㮈落迦沒生於人趣	-13.04
闊	-13.0401
鍼	-13.0401
紺	-13.0402
揩	-13.0403
赦	-13.0403
載木大火焰相	-13.0403
無劣我慢類	-13.0404
何洲人幾	-13.0404
怡	-13.0404
晴	-13.0404
宇	-13.0405
伊剎尼	-13.0405
謂通行所攝身語業	-13.0406
脈	-13.0406
味勢熟德	-13.0406
嘴	-13.0406
隨尋轉心不相應行	-13.0406
婆拕梨	-13.0406
不思惟種種想入無邊空	-13.0407
燎	-13.0407
青青顯青現青光	-13.0407
不律儀亦不不律儀處	-13.0408
外地水風大草木枝葉	-13.0408
若於滅謂滅謂靜謂妙謂離	-13.0408
瑣	-13.0408
葬	-13.0408
生未生隨一種類出家遠離所生善法	-13.0408
末奴沙	-13.0409
升安善趣	-13.0409
展	-13.041
謂除未來現前必起心心法	-13.041
岐	-13.041
一切是果及有果	-13.0411
䩕	-13.0411
窳	-13.0411
觀自身如是法如是相	-13.0411
有能了別欲界繫無色界繫	-13.0411
媚	-13.0411
宋天竺三藏求那跋陀羅共菩提耶舍譯	-13.0411
令已生初靜慮堅住乃至智作證	-13.0412
三摩鉢底	-13.0412
䭾	-13.0412
摩訶諾健那	-13.0413
婆沙一百二十六云	-13.0413
名心三摩地勝行成就神足	-13.0414
兜術天	-13.0414
成就此心非此心未斷	-13.0414
纖	-13.0415
苣	-13.0415
街	-13.0415
并助伴皆五蘊性	-13.0415
纂	-13.0416
又無間道能盡無色貪	-13.0416
囚	-13.0417
現可得故有義極成	-13.0417
何因輪王女寶	-13.0417
稗	-13.0417
綱	-13.042
鏁	-13.042
沸	-13.0421
冀	-13.0421
幅	-13.0422
翔	-13.0423
迅	-13.0423
s	-13.0424
逕	-13.0425
嗤	-13.0426
迸	-13.0427
湧	-13.0427
覲	-13.0428
肯	-13.0428
睫	-13.0429
搜	-13.0429
湖	-13.043
凹	-13.0432
凸	-13.0432
政	-13.0433
厥	-13.0435
颽	-13.0438
荊	-13.0439
采	-13.0441
選	-13.0448
汙	-13.1026
膞	-13.1373
輟	-13.1386
屣	-13.1386
癩	-13.1388
邦	-13.1389
徙	-13.1393
釘	-13.1394
胄	-13.1394
恭	-13.1395
鑊	-13.1395
臗	-13.1395
尖	-13.1396
貰	-13.1398
㭰	-13.1399
構	-13.14
亮	-13.14
穽	-13.1401
怱	-13.1403
蠅	-13.1403
曝	-13.1404
澆	-13.1404
蛆	-13.1406
菴	-13.1407
懺	-13.1407
-	-13.1409
尠	-13.1409
撫	-13.141
舛	-13.141
筞	-13.1411
麵	-13.1412
辟	-13.1412
削	-13.1413
蒲	-13.1415
菜	-13.1416
冲	-13.1418
迄	-13.1419
戇	-13.1419
邃	-13.142
逾	-13.1421
霑	-13.1423
粉	-13.1423
饌	-13.1424
鑛	-13.1424
郡	-13.1425
筭	-13.1425
嗚	-13.1428
鵂	-13.1428
0	-13.1429
<	-13.143
i	-13.143
級	-13.1431
穌	-13.1431
m	-13.1431
把	-13.1431
g	-13.1432
翹	-13.1432
碧	-13.1432
鵄	-13.1433
痴	-13.1434
鍛	-13.1434
確	-13.1435
夕	-13.1437
㮏	-13.1437
縫	-13.1438
羂	-13.1441
簫	-13.1442
𥎞	-13.1442
吳	-13.1444
瀑	-13.2493
悕	-13.2494
眩	-13.2497
齎	-13.2498
褥	-13.25
阻	-13.2501
姊	-13.2501
禽	-13.2505
枕	-13.2505
氷	-13.2506
蠍	-13.2507
腫	-13.2508
革	-13.2509
眷	-13.2509
額	-13.251
鍮	-13.251
躡	-13.251
醒	-13.2511
鞕	-13.2513
攙	-13.2514
郭	-13.2515
牝	-13.2516
羹	-13.2519
厲	-13.252
嚙	-13.2521
軀	-13.2521
渾	-13.2522
洪	-13.2523
齅	-13.2523
鷹	-13.2523
挺	-13.2523
躇	-13.2524
鞘	-13.2524
英	-13.2525
猥	-13.2526
蓬	-13.2526
廬	-13.2526
篤	-13.2526
諒	-13.2526
塊	-13.2526
區	-13.2527
噓	-13.2527
疫	-13.2528
廓	-13.2529
賃	-13.253
捲	-13.253
緯	-13.2531
戴	-13.2532
澹	-13.2533
蒼	-13.2533
午	-13.2533
彖	-13.2533
隖	-13.2534
柴	-13.2535
曩	-13.2536
鞭	-13.2538
鳳	-13.2539
綿	-13.2539
討	-13.2539
祚	-13.2539
串	-13.254
褐	-13.254
幹	-13.2541
搩	-13.2542
歒	-13.2542
辣	-13.2546
鞅	-13.2548
悷	-13.2548
𣩦	-13.2552
縉	-13.2555
狩	-13.2561
訟	-13.3435
踝	-13.3726
蜂	-13.3738
蝎	-13.374
卯	-13.3742
撻	-13.3742
帽	-13.3747
社	-13.3751
壤	-13.3753
肌	-13.3754
什	-13.3756
眉	-13.3756
疼	-13.3757
隆	-13.3757
舅	-13.3758
輦	-13.3759
席	-13.3759
遐	-13.376
椎	-13.3761
跳	-13.3761
楞	-13.3761
帳	-13.3761
掠	-13.3763
樵	-13.3764
殃	-13.3765
釜	-13.3766
怕	-13.3767
蛾	-13.3769
慘	-13.377
妓	-13.377
苞	-13.3771
淫	-13.3771
𥯤	-13.3771
格	-13.3772
崩	-13.3772
舟	-13.3772
雀	-13.3773
拕	-13.3774
壅	-13.3774
膠	-13.3774
泊	-13.3774
喘	-13.3775
壠	-13.3776
粖	-13.3778
鑄	-13.3778
瓫	-13.3779
爰	-13.378
曳	-13.3781
彫	-13.3781
囉	-13.3782
廊	-13.3783
燸	-13.3784
黷	-13.3784
壘	-13.3784
陟	-13.3785
兮	-13.3785
剖	-13.3789
澀	-13.379
拍	-13.3792
淩	-13.3792
娉	-13.3793
鬱	-13.3793
駈	-13.3793
擅	-13.3799
釰	-13.3806
紳	-13.3809
紐	-13.3813
𤚲	-13.3924
崛	-13.5086
干	-13.5115
坤	-13.5122
雇	-13.5134
旻	-13.5152
癭	-13.5157
疹	-13.5161
靡	-13.5161
禦	-13.517
攪	-13.5171
晡	-13.5175
謹	-13.5179
歐	-13.5181
臆	-13.5182
塚	-13.5185
齧	-13.5188
猜	-13.5189
爍	-13.519
嬰	-13.5192
誚	-13.5192
姑	-13.5192
俄	-13.5194
僂	-13.5195
脹	-13.5196
罷	-13.5197
沽	-13.5197
瀆	-13.5197
𦘕	-13.5197
倩	-13.5197
䟦	-13.5198
儒	-13.5198
技	-13.5198
鏤	-13.5198
裸	-13.5199
辰	-13.5201
騃	-13.5201
腕	-13.5201
拾	-13.5202
鑠	-13.5203
規	-13.5203
邁	-13.5204
孟	-13.5204
駁	-13.5205
賜	-13.5205
櫞	-13.5205
慄	-13.5206
䇿	-13.5206
坎	-13.5206
佇	-13.5206
灼	-13.5207
郎	-13.5207
珂	-13.5208
叛	-13.5208
揮	-13.521
鑰	-13.521
蹙	-13.5211
爐	-13.5211
痒	-13.5212
巷	-13.5212
板	-13.5213
釧	-13.5214
罽	-13.5214
叡	-13.5215
堀	-13.5215
嗟	-13.5215
踞	-13.5216
搏	-13.5216
奮	-13.5216
棟	-13.5216
淹	-13.5216
埵	-13.5217
纓	-13.5218
糅	-13.5218
閫	-13.5219
否	-13.5221
歘	-13.5221
㒵	-13.5223
慠	-13.5224
犁	-13.5225
仇	-13.523
蹇	-13.5232
嶺	-13.5232
紀	-13.5234
雕	-13.5238
窄	-13.5242
踈	-13.5243
矛	-13.5243
線	-13.5246
熅	-13.5255
旬	-13.6832
儲	-13.6836
愆	-13.6844
癎	-13.685
俾	-13.6851
憩	-13.6853
丁	-13.6856
叵	-13.6856
絺	-13.6857
瞬	-13.6859
呿	-13.6859
抂	-13.6859
欠	-13.6863
儉	-13.6864
拉	-13.6865
募	-13.6868
奧	-13.6868
刪	-13.6869
企	-13.687
伍	-13.6871
惣	-13.6872
菩	-13.6872
晉	-13.6874
庾	-13.6877
僚	-13.6877
9	-13.6878
寅	-13.6878
佳	-13.688
朅	-13.6881
咲	-13.6881
宏	-13.6882
捴	-13.6883
押	-13.6883
倏	-13.6884
媵	-13.6884
亭	-13.6888
俓	-13.6889
啞	-13.6889
涕	-13.689
嘖	-13.689
7	-13.6891
㧗	-13.6901
姨	-13.6902
双	-13.6905
喫	-13.691
嚬	-13.6913
貢	-13.6916
態	-13.6936
蒭	-13.8818
彩	-13.8856
緝	-13.8862
遁	-13.8864
僮	-13.8869
曷	-13.8872
祿	-13.8873
札	-13.8877
瑠	-13.8879
穆	-13.889
璧	-13.8894
荀	-13.8901
髖	-14.1317
悵	-14.1342
詔	-14.1344
沓	-14.1347
鼠	-14.1358
拄	-14.1359
𢮎	-14.1378
晦	-14.1392
哆	-14.1401
炤	-14.1434
孩	-14.1437
卿	-14.4665
宴	-14.4677
尤	-14.4679
繒	-14.4682
堤	-14.4686
笈	-14.4709
綺	-14.471
苾	-14.4713
京	-14.4719
填	-14.4721
窶	-14.4723
𧄼	-14.4752
柁	-14.966
稠	-14.9688
蔗	-14.9704
迮	-14.9707
沐	-14.971
璃	-14.9713
膖	-14.9753
坦	-15.9625
薗	-15.9625
憺	-15.9632
呰	-15.9632
彬	-15.9633
娘	-15.9634
墾	-15.9635
猖	-15.9636
撾	-15.9637
摣	-15.9638
忉	-15.9639
哳	-15.964
躊	-15.9641
菽	-15.9642
沼	-15.9643
宛	-15.9644
呻	-15.9645
鶹	-15.9646
隄	-15.9647
鉛	-15.9648
拜	-15.9649
釐	-15.9649
袒	-15.965
笛	-15.9651
帙	-15.9652
嬾	-15.9653
哮	-15.9654
餉	-15.9655
讐	-15.9656
諛	-15.9657
蕂	-15.9658
痍	-15.9659
畟	-15.966
瑚	-15.9661
湎	-15.9662
拆	-15.9663
征	-15.9664
孜	-15.9665
嬉	-15.9666
婇	-15.9667
圄	-15.9668
囹	-15.9669
嚫	-15.967
>	-15.9671
𦽆	-15.9672
芭	-15.9673
肢	-15.9674
瘖	-15.9675
匃	-15.9676
克	-15.9677
鼈	-15.9678
鞠	-15.9679
醐	-15.968
醍	-15.9681
訾	-15.9682
猨	-15.9683
澓	-15.9684
弭	-15.9685
匡	-15.9686
鴛	-15.9687
瘀	-15.9688
鴉	-15.9688
犀	-15.9689
蹭	-15.9689
罔	-15.969
慣	-15.9691
姥	-15.9692
讎	-15.9693
蠲	-15.9694
𢣏	-15.9695
瞼	-15.9696
痼	-15.9697
幖	-15.9698
藹	-15.9699
磁	-15.97
鉆	-15.9701
燼	-15.9702
懶	-15.9703
蟇	-15.9704
坻	-15.9705
鈔	-15.9705
虻	-15.9705
膾	-15.9706
[	-15.9707
罝	-15.9708
埃	-15.9709
庫	-15.971
煻	-15.9711
煨	-15.9712
琉	-15.9713
』	-15.9713
『	-15.9714
嵐	-15.9715
鵡	-15.9716
髑	-15.9717
姚	-15.9718
鸚	-15.9719
髏	-15.972
闥	-15.9721
袈	-15.9722
癊	-15.9723
4	-15.9724
瓔	-15.9725
桓	-15.9726
悍	-15.9727
跏	-15.9728
穡	-15.9729
債	-15.973
獼	-15.9731
+	-15.9732
剡	-15.9733
痆	-15.9734
堵	-15.9735
o	-15.9736
劬	-15.9737
N	-15.9737
饉	-15.9738
罣	-15.9739
藐	-15.974
纜	-15.9741
殑	-15.9742
㲉	-15.9743
5	-15.9744
柰	-15.9745
妍	-15.9746
娛	-15.9747
澄	-15.9748
喬	-15.9749
臾	-15.975
竺	-15.9751
|	-15.9752
拈	-15.9753
贍	-15.9753
