<unk>	0
<s>	0
</s>	0
─	-3.50472
之	-4.48088
(	-4.98568
而	-5.12753
以	-5.15245
有	-5.17595
/	-5.24936
花	-5.33442
為	-5.36474
)	-5.39019
不	-5.43224
香	-5.44702
也	-5.45706
者	-5.47243
一	-5.48461
其	-5.51039
如	-5.55758
中	-5.57619
生	-5.67192
子	-5.71811
人	-5.7326
於	-5.78136
水	-5.84494
無	-5.89539
大	-5.92174
山	-5.95851
葉	-5.97853
時	-5.98828
出	-5.99929
上	-6.0401
曰	-6.0419
作	-6.05396
/)	-6.06148
與	-6.07523
春	-6.09166
用	-6.1166
則	-6.1189
風	-6.13631
白	-6.14081
石	-6.14562
自	-6.15761
原	-6.1612
増	-6.17824
黄	-6.19709
小	-6.26165
下	-6.26674
此	-6.26771
得	-6.26895
長	-6.28452
茶	-6.28679
紅	-6.28749
日	-6.29695
色	-6.31742
見	-6.32622
多	-6.32974
入	-6.34547
天	-6.35126
亦	-6.35261
三	-6.35605
可	-6.35997
竹	-6.3665
樹	-6.37637
一名	-6.39861
至	-6.43033
在	-6.43554
云	-6.43728
青	-6.4479
成	-6.46857
草	-6.46876
木	-6.47316
玉	-6.47671
是	-6.47897
名	-6.47991
金	-6.4836
似	-6.48441
清	-6.5135
開	-6.51808
又	-6.52273
種	-6.53178
新	-6.5362
皆	-6.54153
去	-6.5643
同	-6.57747
氣	-6.57817
方	-6.58546
若	-6.58604
後	-6.60059
相	-6.60463
食	-6.60516
取	-6.61011
地	-6.61563
雲	-6.61801
二	-6.6321
枝	-6.63481
根	-6.65316
酒	-6.66428
王	-6.66556
或	-6.67124
然	-6.67307
文	-6.67646
心	-6.67749
實	-6.6805
魚	-6.68344
增	-6.685
詩	-6.68766
▁	-6.6905
秋	-6.69521
今	-6.69934
州	-6.70535
紫	-6.70584
所	-6.70718
故	-6.72086
乃	-6.72719
已	-6.73326
寒	-6.74787
髙	-6.74969
書	-6.75011
來	-6.75227
即	-6.75354
兮	-6.75909
未	-6.7606
明	-6.77325
月	-6.77923
及	-6.78274
菊	-6.7968
和	-6.80704
欲	-6.82273
初	-6.83198
行	-6.83711
知	-6.84528
宋	-6.85002
何	-6.87047
雨	-6.87297
家	-6.87333
前	-6.8828
公	-6.8886
頭	-6.89492
南	-6.89746
華	-6.90425
深	-6.90557
)(	-6.90843
光	-6.90998
言	-6.91157
傳	-6.9173
非	-6.91766
兩	-6.91926
重	-6.92142
老	-6.92866
五	-6.94085
能	-6.9473
松	-6.95609
道	-6.96729
唐	-6.97506
古	-6.97549
墨	-6.97602
當	-6.97875
間	-6.97987
物	-6.98114
過	-6.9831
處	-6.98354
硯	-6.98858
元	-6.99142
分	-6.99575
異	-6.99767
細	-6.99808
四	-6.99989
土	-7.01198
梅	-7.01743
令	-7.02152
宜	-7.02586
龍	-7.0289
正	-7.03147
半	-7.03362
國	-7.03478
露	-7.0458
好	-7.05403
熟	-7.05487
更	-7.0637
雪	-7.06626
味	-7.06799
江	-7.07245
矣	-7.07779
落	-7.0794
李	-7.08006
先	-7.08173
常	-7.08431
因	-7.09493
獨	-7.09653
事	-7.09881
内	-7.10532
東	-7.10597
芳	-7.11333
来	-7.11696
西	-7.1311
數	-7.13959
火	-7.14043
君	-7.14475
微	-7.14652
錢	-7.14685
盡	-7.15199
賦	-7.15207
于	-7.15349
平	-7.1544
惟	-7.15464
海	-7.15653
記	-7.16078
空	-7.16328
林	-7.17082
甚	-7.17563
舊	-7.17642
我	-7.17766
應	-7.19269
隂	-7.19296
夜	-7.19304
仙	-7.19894
發	-7.20118
萬	-7.20142
飛	-7.20167
合	-7.20307
緑	-7.20772
本	-7.21317
節	-7.21636
客	-7.21824
經	-7.22088
百	-7.22487
陽	-7.22655
使	-7.23296
年	-7.23378
將	-7.23561
從	-7.24387
神	-7.24595
輕	-7.24674
外	-7.25348
字	-7.25927
滿	-7.2623
張	-7.26409
聞	-7.26685
謂	-7.26782
起	-7.26979
復	-7.27225
霜	-7.27402
諸	-7.27673
少	-7.27722
朝	-7.28627
蘭	-7.2904
赤	-7.30557
歸	-7.30618
翠	-7.31326
意	-7.31432
皮	-7.31523
别	-7.31747
治	-7.32332
流	-7.33026
真	-7.33249
法	-7.34684
衣	-7.3493
九	-7.36267
醉	-7.36471
逺	-7.3668
莫	-7.36689
雖	-7.36768
凡	-7.36955
近	-7.36978
向	-7.37006
千	-7.37979
品	-7.38747
莖	-7.38847
類	-7.39458
野	-7.39786
乎	-7.40264
乾	-7.40609
安	-7.40698
馬	-7.41053
耳	-7.41217
著	-7.41556
園	-7.41607
始	-7.41662
結	-7.41701
世	-7.41772
右	-7.42417
猶	-7.42486
思	-7.42747
碧	-7.43055
池	-7.4308
門	-7.43087
通	-7.43262
居	-7.43662
勝	-7.44304
臣	-7.44908
易	-7.44967
羅	-7.4514
柳	-7.45144
餘	-7.45293
聲	-7.45771
甘	-7.45988
筆	-7.46624
美	-7.47013
極	-7.47061
每	-7.48148
志	-7.49059
夏	-7.49257
稱	-7.49399
誰	-7.49921
泉	-7.50238
漢	-7.50276
看	-7.50317
採	-7.50449
還	-7.50456
譜	-7.50855
北	-7.51059
末	-7.514
絶	-7.51431
桃	-7.51617
肉	-7.51762
焉	-7.5197
難	-7.52015
性	-7.52207
蟹	-7.52238
十	-7.52281
但	-7.52339
苦	-7.52791
官	-7.52792
且	-7.53065
手	-7.53254
珠	-7.53704
嵗	-7.5376
留	-7.54052
藥	-7.54175
含	-7.54279
女	-7.54599
陳	-7.55242
形	-7.55437
果	-7.55832
六	-7.55885
采	-7.56174
直	-7.56521
不可	-7.56739
觀	-7.5687
氏	-7.57108
謂之	-7.57184
盛	-7.57394
既	-7.57739
散	-7.57987
面	-7.58111
綠	-7.58563
録	-7.58706
比	-7.58752
影	-7.58939
烟	-7.59079
高	-7.59079
城	-7.59516
冷	-7.59642
湯	-7.60166
最	-7.60416
植	-7.60426
丹	-7.60549
靈	-7.60632
折	-7.61158
宫	-7.61308
許	-7.61492
身	-7.61665
粉	-7.61695
必	-7.61754
嘗	-7.62175
七	-7.62376
遂	-7.62457
朱	-7.62563
溪	-7.62725
各	-7.62988
帝	-7.63043
足	-7.63076
口	-7.63685
精	-7.64121
筍	-7.6416
英	-7.643
卷	-7.64671
麥	-7.64813
目	-7.64901
菜	-7.64968
飲	-7.65499
眼	-7.65649
浮	-7.65716
竒	-7.66062
田	-7.6656
扵	-7.66666
豈	-7.66671
謝	-7.66774
幽	-7.66816
次	-7.67088
桂	-7.67303
條	-7.67389
並	-7.67438
連	-7.67749
景	-7.67882
久	-7.67905
吾	-7.67968
帶	-7.68095
畫	-7.68152
歌	-7.68158
垂	-7.68417
語	-7.68877
夫	-7.68964
移	-7.69216
素	-7.69301
裏	-7.69412
夢	-7.6947
縣	-7.70003
坐	-7.70051
佳	-7.70298
問	-7.7038
冬	-7.70504
止	-7.70852
收	-7.70866
叢	-7.71186
對	-7.71324
便	-7.71494
詠	-7.71709
太	-7.71765
錦	-7.71833
病	-7.71865
愛	-7.71924
周	-7.72243
一兩	-7.72624
潤	-7.72721
照	-7.72736
熱	-7.73301
桑	-7.73339
庭	-7.73362
以為	-7.7369
薄	-7.73984
曲	-7.74608
盤	-7.75693
廣	-7.7572
堂	-7.75736
須	-7.76098
都	-7.76182
笑	-7.76448
煙	-7.76574
骨	-7.76871
隨	-7.77025
俱	-7.77345
嘉	-7.77384
題	-7.77532
絲	-7.77793
八	-7.78125
共	-7.78131
附	-7.78207
僧	-7.78285
瓜	-7.78462
興	-7.79204
蓋	-7.79236
首	-7.79402
爾	-7.79717
士	-7.79975
立	-7.80529
製	-7.80766
寄	-7.80803
藏	-7.81007
齊	-7.81152
亭	-7.8177
命	-7.81771
沙	-7.81874
動	-7.82007
泥	-7.82272
賞	-7.8231
厚	-7.82806
注	-7.8285
雜	-7.82986
定	-7.83023
樂	-7.83423
珍	-7.83472
繁	-7.83643
尚	-7.83888
遺	-7.84078
豆	-7.84218
牡丹	-7.8429
服	-7.84426
澤	-7.84619
致	-7.84887
集	-7.85067
汁	-7.85675
破	-7.85797
淡	-7.86035
布	-7.86175
劉	-7.86375
余	-7.86549
艶	-7.86789
質	-7.8679
棗	-7.86889
解	-7.87023
米	-7.87149
却	-7.87262
載	-7.87329
貴	-7.8743
望	-7.87467
圓	-7.87473
㸃	-7.875
蜜	-7.88081
早	-7.881
疑	-7.88261
橘	-7.88517
吳	-7.88578
濕	-7.88795
紙	-7.89037
本草	-7.89196
路	-7.89389
遊	-7.89495
堅	-7.8952
化	-7.89617
波	-7.89678
置	-7.89698
俗	-7.8998
待	-7.90057
到	-7.90181
益	-7.9027
尤	-7.90697
理	-7.90772
徳	-7.9086
晩	-7.91137
體	-7.91755
等	-7.92074
肥	-7.92136
蜀	-7.92171
塵	-7.92355
良	-7.92357
按	-7.92708
情	-7.92881
葢	-7.92971
主	-7.93136
銀	-7.93498
蓮	-7.93519
梁	-7.93635
研	-7.9374
鳥	-7.93968
芽	-7.9445
房	-7.95012
驚	-7.95271
容	-7.95464
臨	-7.9559
愁	-7.95744
善	-7.95878
栽	-7.96237
瓣	-7.96488
學	-7.96748
星	-7.96782
送	-7.96808
論	-7.96809
喜	-7.96896
蒸	-7.97017
油	-7.97073
忽	-7.97092
衆	-7.97272
榮	-7.97307
力	-7.97465
麻	-7.97563
映	-7.97655
信	-7.9771
凝	-7.97759
荔支	-7.97915
晉	-7.97964
終	-7.97976
秀	-7.98015
引	-7.98114
利	-7.98277
賜	-7.98541
鮮	-7.98609
温	-7.98785
殊	-7.9925
度	-7.99462
候	-7.99533
殿	-7.99545
産	-7.99645
傷	-7.99863
毛	-7.99964
不知	-7.99979
染	-7.9999
蘇	-8.00084
説	-8.00161
斷	-8.00215
臺	-8.00292
洗	-8.00293
晚	-8.00319
茂	-8.00766
寺	-8.00769
食之	-8.00773
器	-8.00886
殘	-8.00996
只	-8.01411
封	-8.01475
圖	-8.01491
血	-8.01492
造	-8.01766
端	-8.01767
海棠	-8.01951
幾	-8.02115
曉	-8.02594
變	-8.02621
疎	-8.02702
寳	-8.0277
民	-8.02843
消	-8.02997
亂	-8.03248
要	-8.03662
持	-8.03855
楊	-8.03864
拂	-8.03868
吹	-8.04141
霞	-8.04296
列	-8.04439
孤	-8.0447
刻	-8.04514
芝	-8.04577
膏	-8.04884
試	-8.04905
音	-8.05389
獻	-8.05581
郡	-8.05652
永	-8.05814
再	-8.05924
晴	-8.06282
角	-8.06462
加	-8.06517
母	-8.06687
史	-8.06739
燕	-8.07048
交	-8.07148
枯	-8.07314
宗	-8.07359
全	-8.07368
狀	-8.07596
堪	-8.08052
稻	-8.08265
就	-8.08343
楚	-8.0852
樓	-8.08651
谷	-8.08712
黒	-8.08782
盖	-8.0881
烏	-8.08945
眀	-8.0896
求	-8.09039
不能	-8.09111
孫	-8.09295
𤣥	-8.09596
稍	-8.09665
彼	-8.09723
貢	-8.0988
府	-8.09929
轉	-8.1008
宿	-8.10321
象	-8.10329
識	-8.10529
號	-8.10619
固	-8.10674
吐	-8.10719
黑	-8.1079
浸	-8.10859
死	-8.10959
進	-8.11395
牛	-8.1169
除	-8.11826
摘	-8.11996
他	-8.12344
麗	-8.1306
柔	-8.13296
江南	-8.13306
御	-8.13646
嫩	-8.13762
桐	-8.13881
煮	-8.13936
予	-8.1399
斜	-8.14116
遇	-8.1424
蟲	-8.14249
集藻	-8.14384
毒	-8.14464
曽	-8.14633
兒	-8.14644
漸	-8.14739
井	-8.14909
接	-8.1497
川	-8.15171
恨	-8.15184
邊	-8.15269
陵	-8.16042
室	-8.16113
修	-8.16416
背	-8.1644
中有	-8.16532
麝香	-8.1666
韻	-8.16875
密	-8.17186
徐	-8.17195
梅花	-8.17234
煑	-8.17237
倚	-8.17248
羣	-8.17303
離	-8.17554
工	-8.17565
翦	-8.17668
片	-8.17826
尋	-8.18033
灰	-8.18229
指	-8.18249
藤	-8.18323
功	-8.18349
濃	-8.18376
巖	-8.18409
虚	-8.18545
春風	-8.18926
半兩	-8.19174
煎	-8.19201
㑹	-8.19252
胡	-8.19421
湖	-8.19592
而不	-8.19594
代	-8.20162
沈	-8.20232
補	-8.20543
覆	-8.20741
妝	-8.20782
妙	-8.21012
養	-8.21164
徑	-8.21184
被	-8.21225
淺	-8.21239
暖	-8.2125
凉	-8.21287
章	-8.21503
特	-8.21508
昔	-8.21576
瑞	-8.21638
傍	-8.2198
舞	-8.22154
陸	-8.22172
側	-8.22351
乳	-8.2251
河	-8.22514
錄	-8.22614
齋	-8.22701
彚考	-8.22888
皇	-8.22954
碎	-8.22997
雞	-8.23448
蒲	-8.23596
丁香	-8.24219
陶	-8.24354
玊	-8.24428
横	-8.24665
閒	-8.25153
趙	-8.25155
聖	-8.2532
可以	-8.25662
吟	-8.25701
短	-8.25761
放	-8.25898
休	-8.25915
仁	-8.26237
瓊	-8.26449
武	-8.2672
冠	-8.26919
里	-8.26936
魏	-8.26945
底	-8.26973
燒	-8.27472
羊	-8.277
仍	-8.27731
建	-8.27736
杏	-8.27749
暮	-8.27759
團	-8.2782
刺	-8.27822
登	-8.27823
一種	-8.28152
栗	-8.28263
蕊	-8.28281
斯	-8.28329
秦	-8.28383
遲	-8.28449
尾	-8.28694
供	-8.28832
雙	-8.28981
顧	-8.29035
承	-8.29112
膠	-8.2941
屬	-8.29615
蒼	-8.297
荷	-8.2983
覺	-8.29838
車	-8.29863
舉	-8.30049
銘	-8.30385
偏	-8.30474
㸔	-8.30582
閣	-8.30697
郎	-8.30788
鳴	-8.3082
表	-8.30999
左	-8.31014
苗	-8.31047
歲	-8.31364
惜	-8.31387
檀香	-8.31475
積	-8.31843
䨇	-8.31892
恐	-8.32115
師	-8.32411
大如	-8.3277
失	-8.33187
榖	-8.33202
洞	-8.3327
一枝	-8.33392
逐	-8.33488
姿	-8.33738
越	-8.33846
頗	-8.33895
調	-8.34096
仲	-8.34213
寧	-8.34315
惡	-8.34613
詞	-8.34897
葵	-8.3503
感	-8.35061
疾	-8.35209
核	-8.35242
雅	-8.35397
依	-8.35628
柏	-8.35638
寶	-8.35924
受	-8.35987
将	-8.35991
懐	-8.36283
虎	-8.36515
隔	-8.36608
軟	-8.36624
苑	-8.36725
鹽	-8.36756
薦	-8.3683
院	-8.37059
夕	-8.3735
槐	-8.37388
憶	-8.37617
爛	-8.37689
材	-8.37917
守	-8.3795
奉	-8.37966
腹	-8.38122
乆	-8.38162
滋	-8.38351
亦有	-8.38608
翁	-8.38772
齒	-8.3882
三月	-8.39049
視	-8.39053
翻	-8.39076
舟	-8.39094
曾	-8.39119
具	-8.39385
低	-8.39427
夀	-8.39432
序	-8.39906
沉	-8.39954
期	-8.39971
村	-8.39998
蠶	-8.40183
茗	-8.40517
榦	-8.40891
萼	-8.40962
梨	-8.40999
芙蓉	-8.41332
桃花	-8.41465
弱	-8.41998
㣲	-8.42356
損	-8.42385
屋	-8.42461
栁	-8.42603
龜	-8.42624
二月	-8.42855
願	-8.42903
茅	-8.43018
友	-8.43156
漿	-8.43255
逢	-8.43389
教	-8.43479
哉	-8.43498
管	-8.43509
紋	-8.43743
伯	-8.44066
親	-8.44104
岸	-8.44439
繞	-8.44455
杜	-8.44708
贈	-8.44731
任	-8.44972
旁	-8.45025
五月	-8.45276
幸	-8.45617
勿	-8.45651
豐	-8.45863
不得	-8.45952
坑	-8.45959
呼	-8.46131
句	-8.4616
隠	-8.46178
辛	-8.46202
所謂	-8.46233
黃	-8.46334
甲	-8.46466
抱	-8.46521
宻	-8.46595
沉香	-8.46764
苔	-8.474
瓶	-8.47505
侯	-8.48034
佛	-8.48058
二兩	-8.48082
義	-8.48164
羽	-8.48362
旋	-8.48363
偶	-8.48444
圍	-8.48597
盆	-8.48744
嬌	-8.48833
辭	-8.49069
鄭	-8.49076
橋	-8.49134
嶺	-8.49342
鄉	-8.49471
二錢	-8.49975
草木	-8.50135
焙	-8.50334
椒	-8.50395
卿	-8.50452
殻	-8.5047
存	-8.50923
炒	-8.51066
忌	-8.5107
荒	-8.51311
滑	-8.51361
酸	-8.51448
暗	-8.51819
切	-8.51924
二十	-8.52137
伏	-8.52137
壓	-8.522
紀	-8.52239
葉似	-8.52293
窓	-8.52338
天下	-8.52495
淨	-8.52657
市	-8.5267
延	-8.52778
故名	-8.52798
刀	-8.52833
鳳	-8.5286
蘂	-8.52863
鳯	-8.52913
制	-8.52935
怪	-8.53293
伴	-8.53315
環	-8.5332
芍藥	-8.53351
昌	-8.53528
羙	-8.53614
薑	-8.53681
飄	-8.53839
把	-8.54047
鐫	-8.54138
考	-8.54244
籠	-8.54312
磨	-8.54635
先生	-8.54655
徒	-8.54671
瓦	-8.55233
東風	-8.55241
蔓	-8.55254
總	-8.55365
尖	-8.55439
扶	-8.5562
降	-8.55872
氷	-8.55901
脚	-8.55905
爐	-8.55967
慶	-8.56013
穿	-8.56058
寛	-8.56353
銅	-8.56581
漫	-8.56671
篇	-8.56697
疏	-8.5676
者為	-8.56992
鐵	-8.5711
龍腦	-8.57177
歩	-8.5728
贊	-8.57299
兹	-8.57362
一日	-8.5774
貯	-8.57754
倒	-8.58041
邉	-8.58444
湏	-8.58998
脂	-8.59054
揚	-8.59077
傾	-8.59297
丸	-8.59402
杯	-8.5948
說	-8.59566
一錢	-8.59646
鶴	-8.59754
愈	-8.59836
糞	-8.60031
賢	-8.60165
蝶	-8.60204
十二	-8.60392
洪	-8.60419
腸	-8.60494
腰	-8.60603
參	-8.60835
反	-8.60887
巧	-8.60904
續	-8.60926
荆	-8.61032
祖	-8.61083
父	-8.61087
宣	-8.61207
兼	-8.61231
鑄	-8.61257
爭	-8.61263
令人	-8.61452
并	-8.61661
憐	-8.61937
忘	-8.62298
舒	-8.62309
㡬	-8.62751
壁	-8.62786
透	-8.62814
急	-8.6303
盈	-8.63204
懸	-8.6344
苞	-8.63447
君子	-8.63792
約	-8.63872
山中	-8.63995
軒	-8.64035
之所	-8.64035
為之	-8.64307
簾	-8.64378
回	-8.64499
聚	-8.6451
罷	-8.64555
粒	-8.64883
静	-8.64888
升	-8.64896
勻	-8.64909
潔	-8.65206
走	-8.65314
挺	-8.65316
粟	-8.65437
浪	-8.65638
揺	-8.65788
八月	-8.65923
鱗	-8.65942
印	-8.6604
飯	-8.66045
顔	-8.66092
本草綱目	-8.66244
孔	-8.66385
負	-8.66764
午	-8.66813
買	-8.66822
千葉	-8.67003
戲	-8.67101
湘	-8.67156
韓	-8.67158
想	-8.67194
投	-8.67196
狀如	-8.67229
暑	-8.67303
報	-8.67541
弄	-8.67553
插	-8.67565
窮	-8.67605
又有	-8.67769
餅	-8.67778
黍	-8.67823
四月	-8.6783
蘆	-8.6787
貞	-8.6797
蕭	-8.68052
禮	-8.68162
况	-8.68287
苖	-8.6835
九月	-8.68427
葉如	-8.68977
户	-8.69083
柯	-8.69104
雷	-8.69104
甘松	-8.6922
禁	-8.69287
耶	-8.69463
辨	-8.69468
往	-8.69707
孝	-8.69804
鏡	-8.69905
占	-8.7019
游	-8.70223
鬚	-8.70241
宅	-8.70241
蠟	-8.70249
燈	-8.70301
麤	-8.70302
畧	-8.70308
葱	-8.70569
舍	-8.70693
柑	-8.7071
穴	-8.70863
大者	-8.70895
詩散句	-8.70985
葛	-8.71338
人間	-8.71515
祥	-8.71751
斑	-8.71802
抽	-8.7181
塗	-8.71844
適	-8.71882
痛	-8.7243
司	-8.72486
蛇	-8.72514
宮	-8.7304
斗	-8.73239
藍	-8.73324
衰	-8.73395
如此	-8.73405
枝葉	-8.73436
闕	-8.73801
源	-8.73859
結實	-8.73892
四兩	-8.74009
爾雅	-8.74152
花開	-8.74159
冰	-8.74238
鼎	-8.74258
漆	-8.74276
誤	-8.74286
味甘	-8.74385
藻	-8.74531
季	-8.7458
息	-8.74629
態	-8.74657
顔色	-8.74727
羞	-8.75084
圃	-8.75162
洛	-8.75476
才	-8.75486
䕶	-8.75513
開花	-8.75714
仰	-8.75859
寫	-8.75911
宴	-8.75938
上有	-8.76284
囊	-8.763
請	-8.76307
泛	-8.76321
枕	-8.76332
尺	-8.76336
七言絶句	-8.76338
省	-8.7635
由	-8.76549
京	-8.76638
此花	-8.76659
厥	-8.76733
羮	-8.76743
争	-8.76787
亦可	-8.76986
綴	-8.77125
其根	-8.77202
毎	-8.77213
玩	-8.77594
福	-8.77937
蓬	-8.77963
炎	-8.77979
勢	-8.7801
屈	-8.78065
櫻桃	-8.78107
夷	-8.78386
不同	-8.78394
商	-8.78433
辰	-8.78435
烹	-8.78653
晨	-8.78687
桃李	-8.78768
不見	-8.79139
可愛	-8.79288
支	-8.79288
頻	-8.79303
澆	-8.79686
株	-8.7994
煩	-8.80098
助	-8.80144
媚	-8.80173
三年	-8.8027
差	-8.80405
充	-8.80594
佩	-8.80595
墻	-8.80654
不及	-8.80783
芋	-8.80972
彩	-8.80976
披	-8.8098
阿	-8.81001
叔	-8.81034
唯	-8.81049
狂	-8.81056
風吹	-8.81172
汝	-8.81197
迎	-8.8123
山谷	-8.81354
液	-8.81393
擇	-8.81445
詔	-8.81454
頂	-8.81498
席	-8.8166
蔕	-8.81829
津	-8.8193
榆	-8.82275
勞	-8.82306
錫	-8.82347
蒙	-8.82793
館	-8.83263
端石	-8.83312
稀	-8.83314
詩云	-8.83328
改	-8.83329
博	-8.83487
肌	-8.83615
耕	-8.83626
麝	-8.83626
鬼	-8.83651
丁	-8.83677
船	-8.83695
價	-8.83719
三兩	-8.8374
霧	-8.83928
療	-8.84129
活	-8.84333
菊花	-8.84435
頌	-8.84539
睡	-8.84552
逸	-8.84558
澗	-8.84577
索	-8.84601
競	-8.84609
葩	-8.84627
鬱	-8.84651
伐	-8.85034
圎	-8.85127
黄花	-8.85196
蜂	-8.85446
遠	-8.85461
梢	-8.85491
曹	-8.85513
殺	-8.85547
掃	-8.85552
閩	-8.85841
可食	-8.85937
籬	-8.86337
綿	-8.86421
土人	-8.86451
避	-8.86487
聊	-8.86866
縷	-8.86998
遣	-8.87189
幹	-8.87226
傅	-8.87305
符	-8.87321
擬	-8.87347
嗟	-8.87349
掌	-8.87371
杖	-8.87385
顆	-8.87508
施	-8.87729
䕃	-8.87757
勁	-8.87784
徧	-8.87808
郭	-8.87818
了	-8.87908
種之	-8.88
者也	-8.88164
滴	-8.88177
大小	-8.88206
牙	-8.8828
爲	-8.88321
農	-8.88497
水中	-8.88616
丘	-8.88693
强	-8.8874
柱	-8.88754
壺	-8.88757
所以	-8.8878
渠	-8.88835
廟	-8.8919
標	-8.89207
咸	-8.89221
融	-8.89234
縁	-8.89264
暈	-8.89401
嚴	-8.89655
乗	-8.8966
呉	-8.89673
惠	-8.89682
悉	-8.89715
包	-8.89717
聽	-8.9016
觧	-8.90197
迷	-8.90207
添	-8.90218
卧	-8.90238
是也	-8.90434
歳	-8.90577
晝	-8.90578
脆	-8.90637
鄰	-8.907
硬	-8.90779
六月	-8.90822
麴	-8.90845
鹿	-8.91035
雕	-8.9113
吴	-8.9114
妍	-8.9119
纔	-8.912
之類	-8.91554
敷	-8.91576
囘	-8.91581
計	-8.91616
衡	-8.91619
乍	-8.91625
甜	-8.91637
設	-8.91656
納	-8.91657
催	-8.91665
琴	-8.91674
盧	-8.91682
燥	-8.91703
檀	-8.91707
名曰	-8.92006
扇	-8.92152
架	-8.92183
編	-8.9219
昭	-8.92462
醒	-8.92501
獲	-8.92586
綺	-8.92592
隱	-8.92609
十月	-8.92632
御製	-8.92641
絳	-8.92667
寸	-8.92912
蒿	-8.92997
烈	-8.93023
伊	-8.93041
洲	-8.93102
簡	-8.93114
退	-8.93128
厯	-8.93179
康	-8.93536
欄	-8.93561
五言古詩	-8.93565
侵	-8.93591
雄	-8.93591
念	-8.93645
敢	-8.93649
瑩	-8.93651
風雨	-8.93842
黄色	-8.93889
婦	-8.93917
東坡	-8.93942
層	-8.94028
奴	-8.94084
歎	-8.94122
彌	-8.94124
備	-8.94425
資	-8.94583
浦	-8.94585
瘦	-8.94643
壽	-8.94657
眉	-8.94843
二年	-8.95194
魂	-8.9556
德	-8.95586
巨	-8.95588
恩	-8.95594
不足	-8.95792
燭	-8.96125
随	-8.96312
韭	-8.96592
飽	-8.96599
談	-8.96632
朶	-8.9682
洛陽	-8.96827
階	-8.97116
裹	-8.97118
悲	-8.9712
溫	-8.97125
遥	-8.9717
遍	-8.97191
妃	-8.97223
丈	-8.97417
薔薇	-8.97501
憂	-8.97584
招	-8.97647
尊	-8.97649
召	-8.97658
童	-8.97842
熏	-8.9786
歡	-8.9811
委	-8.98196
蔡	-8.98242
簇	-8.98249
别錄	-8.98344
杏花	-8.98396
邪	-8.98561
薰	-8.98585
借	-8.9863
歴	-8.98657
李時珍曰	-8.98749
誇	-8.9876
侍	-8.98927
束	-8.99206
屏	-8.9923
濟	-8.99239
灑	-8.99253
粥	-8.99279
𫝊	-8.99304
那	-8.99498
其葉	-8.99591
孟	-8.99718
畢	-8.99722
石榴	-8.9973
崇	-8.99738
左右	-8.99857
式	-9.00087
𤓰	-9.00207
織	-9.00221
儀	-9.00257
用之	-9.00275
崔	-9.00286
註	-9.00646
第	-9.00797
倍	-9.00825
芬	-9.01058
棃	-9.01089
政	-9.01257
繡	-9.01307
五分	-9.01321
卉	-9.01832
旱	-9.01867
竟	-9.01867
啼	-9.01911
凍	-9.01911
三十	-9.01922
為末	-9.02012
畦	-9.02374
鶯	-9.02378
蔬	-9.02382
數十	-9.02511
紛	-9.02847
搗	-9.02876
雀	-9.02899
艾	-9.02941
陸游	-9.02957
浄	-9.03018
自然	-9.03145
毫	-9.03458
鍾	-9.03515
廻	-9.03522
一斤	-9.03577
釋	-9.03582
秋風	-9.036
庶	-9.03981
袖	-9.03985
效	-9.04019
痕	-9.04072
葡萄	-9.04084
檜	-9.04489
讀	-9.04503
一株	-9.04556
浴	-9.04614
澄	-9.04637
焦	-9.04657
其中	-9.04708
楓	-9.04767
紫色	-9.04782
菱	-9.05043
誠	-9.05173
順	-9.05178
裁	-9.05223
千里	-9.05571
鸞	-9.05699
虛	-9.05712
社	-9.05722
畔	-9.05779
穗	-9.06156
潛	-9.06277
閑	-9.06341
吉	-9.06354
十里	-9.0668
瘡	-9.06744
律	-9.068
郊	-9.06834
蕩	-9.06841
錯	-9.06854
削	-9.06943
零陵香	-9.0713
蓮花	-9.07369
虞	-9.07376
吏	-9.07399
璧	-9.07406
禽	-9.07439
奪	-9.0747
棄	-9.0767
少許	-9.07792
軍	-9.07812
推	-9.07944
醋	-9.07975
帳	-9.08014
藕	-9.0805
膩	-9.08131
詳	-9.08172
七月	-9.0828
蘇軾	-9.08447
塘	-9.08447
潭	-9.0858
無人	-9.08582
拜	-9.08588
住	-9.08615
竹筍	-9.08803
服之	-9.08842
乳香	-9.08873
白居易	-9.09001
漬	-9.09004
頃	-9.0901
典	-9.09113
崖	-9.09116
范	-9.09135
膚	-9.09193
純	-9.09196
維	-9.09323
甫	-9.09685
鋤	-9.09718
停	-9.09723
眠	-9.09725
擁	-9.09745
騎	-9.09814
山海經	-9.10139
其實	-9.1015
砌	-9.10277
掩	-9.10295
甌	-9.10377
墜	-9.10387
蓼	-9.10839
三錢	-9.10912
淚	-9.1092
以上	-9.10973
第一	-9.10976
不復	-9.11172
棘	-9.11424
執	-9.11495
術	-9.11527
賣	-9.11529
曰此	-9.11539
拌	-9.11552
僅	-9.1162
胎	-9.11685
塊	-9.11722
其花	-9.11748
清香	-9.11847
翼	-9.12024
奏	-9.12093
鋪	-9.12159
炭	-9.12205
萍	-9.12394
黄金	-9.12446
欽定四庫全書	-9.12587
沸	-9.12605
荔	-9.12717
敗	-9.12731
脫	-9.12799
魯	-9.1316
鼓	-9.13232
棲	-9.13243
峰	-9.13267
部	-9.13299
假	-9.13311
保	-9.13335
畏	-9.13407
姑	-9.13913
漁	-9.13915
蟬	-9.13963
甕	-9.14017
一分	-9.14026
不敢	-9.14283
别録	-9.14328
渾	-9.14441
沃	-9.14515
墮	-9.14597
宋蘇軾	-9.14608
濶	-9.14608
楊柳	-9.15
蕙	-9.15052
戴	-9.15112
換	-9.15174
菌	-9.1527
三四	-9.15316
風流	-9.15578
長安	-9.15579
纎	-9.15707
輙	-9.1572
怨	-9.15791
牀	-9.15805
毬	-9.15876
石硯	-9.16156
賔	-9.16292
鼻	-9.16325
木香	-9.16334
藉	-9.16352
逰	-9.16365
貫	-9.16398
辟	-9.16495
年年	-9.16623
格	-9.16973
富	-9.16978
檻	-9.16987
屑	-9.17072
單	-9.17141
業	-9.17313
􁀙	-9.17512
五色	-9.17517
盞	-9.17579
縱	-9.17586
鬭	-9.17601
凌	-9.17642
腴	-9.17652
乘	-9.17668
四時	-9.17939
排	-9.17967
斤	-9.18056
灌	-9.18148
然後	-9.18149
均	-9.18158
啓	-9.18195
二字	-9.18197
取出	-9.18213
濯	-9.18218
筠	-9.18239
扁	-9.1826
炙	-9.18291
萌	-9.18302
草一名	-9.18499
杜甫	-9.18749
酉陽雜俎	-9.18804
弗	-9.1881
十餘	-9.18852
乞	-9.18882
嫌	-9.18924
裂	-9.18937
生於	-9.19154
又名	-9.19178
五寸	-9.1938
□	-9.1943
一曰	-9.19443
堆	-9.19498
免	-9.19527
徹	-9.19541
餐	-9.19562
眞	-9.19566
奇	-9.19569
碾	-9.19611
旦	-9.19732
揚州	-9.19896
舌	-9.201
卒	-9.20111
徃	-9.20139
饒	-9.20168
嚼	-9.20183
關	-9.20189
厭	-9.20275
其色	-9.20603
叢生	-9.20624
五言律詩	-9.20738
族	-9.208
際	-9.20812
腦	-9.20885
沈香	-9.20938
姓	-9.21258
減	-9.21264
繫	-9.21457
結子	-9.21469
敬	-9.21488
南方	-9.21614
下有	-9.21712
今日	-9.21887
芒	-9.22007
覽	-9.2207
疊	-9.22244
患	-9.22774
馥	-9.22776
靡	-9.22792
訪	-9.22798
飾	-9.22805
撰	-9.22833
得之	-9.22927
白色	-9.23008
芥	-9.23314
春色	-9.23339
形如	-9.2337
觸	-9.23434
介	-9.23435
私	-9.23458
運	-9.23467
忠	-9.23471
累	-9.23484
頓	-9.23513
脱	-9.23528
螺	-9.23532
不如	-9.23618
而已	-9.23742
西風	-9.23825
禪	-9.24069
告	-9.24069
壅	-9.24107
摩	-9.24114
攜	-9.24159
荔枝	-9.24297
后	-9.24638
皆有	-9.24747
較	-9.24776
几	-9.24778
椀	-9.24851
主人	-9.24874
亭亭	-9.2499
正月	-9.25208
甲香	-9.25232
髪	-9.25259
蒜	-9.25357
鈴	-9.25386
塞	-9.25407
七言律詩	-9.25428
界	-9.2547
座	-9.25504
西域	-9.25521
茄	-9.25586
藿香	-9.25594
率	-9.25849
裳	-9.26018
篆	-9.26073
墨池	-9.26074
緣	-9.2611
展	-9.26158
壯	-9.26181
縈	-9.26185
梗	-9.26275
窨	-9.26282
澀	-9.26283
饑	-9.26758
二種	-9.26829
潮	-9.26834
衛	-9.26847
峯	-9.26854
漏	-9.26874
渡	-9.26877
剛	-9.2688
亞	-9.26885
而生	-9.27152
小者	-9.27166
不用	-9.27369
呈	-9.27431
瑶	-9.27463
夾	-9.275
嗜	-9.27508
跡	-9.27527
缺	-9.27532
希	-9.27542
坡	-9.27552
汗	-9.27567
費	-9.2759
楊萬里	-9.276
之上	-9.27975
勤	-9.28192
肅	-9.28253
汲	-9.28274
肺	-9.28284
案	-9.28294
觴	-9.28389
焚	-9.28473
莊	-9.28583
青青	-9.2861
呼為	-9.28882
渚	-9.28912
白花	-9.28914
仙人	-9.28961
本草云	-9.28964
藝	-9.28977
餌	-9.28986
相似	-9.29048
様	-9.29049
其名	-9.2905
可作	-9.29075
稜	-9.29247
梓	-9.29492
筋	-9.29632
銜	-9.29665
廢	-9.29681
截	-9.29691
醫	-9.29701
劑	-9.30117
糖	-9.30283
貨	-9.30333
暉	-9.30335
薪	-9.30335
聳	-9.30341
鎮	-9.30367
酌	-9.30396
紗	-9.30415
臙脂	-9.3042
射	-9.30429
窺	-9.3043
嶺南	-9.30574
人家	-9.30618
菖蒲	-9.30739
柰	-9.30828
三分	-9.31115
皺	-9.31198
次韻	-9.3129
掘	-9.31808
腫	-9.31809
卵	-9.31819
晏	-9.31844
超	-9.31869
白芷	-9.32054
殷	-9.32284
廬	-9.32361
何處	-9.32366
而小	-9.32373
五言絶句	-9.32466
輪	-9.32492
宇	-9.32517
授	-9.32532
猪	-9.32542
靜	-9.32543
培	-9.32554
恒	-9.32556
色如	-9.32586
其味	-9.32878
速	-9.32881
簷	-9.33025
干	-9.33035
害	-9.33222
匪	-9.33245
纖	-9.33271
此物	-9.33271
拔	-9.33285
二寸	-9.33292
給	-9.33317
三日	-9.33325
煤	-9.33356
或云	-9.33669
橙	-9.33973
蔽	-9.34003
取其	-9.34021
懷	-9.34022
擢	-9.34053
唐杜甫	-9.34054
埋	-9.34088
花譜	-9.34177
未嘗	-9.34201
否	-9.34505
攀	-9.3466
偃	-9.34726
徴	-9.34739
蟠	-9.34763
旬	-9.34789
履	-9.34811
蕉	-9.34936
臘	-9.35086
清明	-9.35154
九日	-9.35314
元年	-9.35467
茹	-9.35479
圗	-9.35497
當時	-9.3552
朔	-9.3554
響	-9.35548
述	-9.35553
步	-9.35574
十五	-9.35697
者名	-9.35754
歇	-9.35883
枚	-9.35945
貧	-9.35963
線	-9.3611
箋	-9.36143
樣	-9.36168
臭	-9.36193
婆	-9.36224
禾	-9.36231
啖	-9.3624
據	-9.36247
領	-9.36283
蕃	-9.36284
茸	-9.36327
五錢	-9.36352
板	-9.36384
太守	-9.36412
重陽	-9.36537
剖	-9.36686
萬里	-9.36781
曬	-9.36823
之為	-9.36856
陂	-9.37022
達	-9.37025
黏	-9.37072
取之	-9.37078
爽	-9.37082
賈	-9.37085
巾	-9.37101
示	-9.37162
者謂之	-9.37289
於是	-9.37321
石上	-9.37397
於此	-9.37698
兎	-9.37711
大夫	-9.37719
其上	-9.3774
鴻	-9.37743
挂	-9.37808
戒	-9.37818
恵	-9.37825
肝	-9.37825
箭	-9.37826
曬乾	-9.379
打	-9.37905
姬	-9.37948
明年	-9.38119
天子	-9.38471
刈	-9.38477
香氣	-9.38526
機	-9.38531
儒	-9.38535
遷	-9.38537
岐	-9.38577
至於	-9.38662
京師	-9.38677
甘草	-9.38844
入藥	-9.38953
樽	-9.3928
庚	-9.39322
収	-9.39343
閉	-9.39351
茉莉	-9.39397
鬢	-9.39407
可憐	-9.39424
番	-9.39702
螯	-9.39932
穂	-9.39982
託	-9.39983
賤	-9.40005
智	-9.40046
宛	-9.40058
孰	-9.40107
闗	-9.40163
慈	-9.40177
俟	-9.40184
幕	-9.40205
宋梅堯臣	-9.40226
夫人	-9.4038
/)(	-9.40502
之名	-9.40504
一寸	-9.406
泰	-9.40632
淮	-9.40718
謹	-9.40905
育	-9.4091
申	-9.40925
彦	-9.40927
健	-9.40946
會	-9.40946
匠	-9.40951
翔	-9.40953
婦人	-9.40977
古人	-9.40995
洞庭	-9.41032
蔗	-9.41047
上方	-9.41098
窠	-9.41115
其下	-9.41164
昏	-9.41488
拾	-9.41672
牆	-9.41678
竊	-9.41688
彭	-9.41694
一年	-9.41723
捲	-9.41737
議	-9.41762
澹	-9.4178
綵	-9.41788
愧	-9.41822
杵	-9.41853
荷花	-9.41926
琢	-9.42022
北苑	-9.4206
上下	-9.42167
霄	-9.42489
監	-9.42519
七言古詩	-9.42573
纒	-9.42578
痰	-9.42594
䖏	-9.42627
稠	-9.42681
山有	-9.42754
之以	-9.42899
宣和	-9.43033
種植	-9.43088
人謂之	-9.43104
不過	-9.43105
絮	-9.43203
耀	-9.43262
帖	-9.43356
牽	-9.43358
危	-9.4336
偷	-9.43405
撲	-9.43437
竿	-9.43592
和勻	-9.43737
防	-9.43743
楊梅	-9.4395
付	-9.43982
可為	-9.44004
淵	-9.44026
兵	-9.44131
驛	-9.44219
天地	-9.4428
武帝	-9.44302
製用	-9.44532
者曰	-9.44588
蘋	-9.44723
輝	-9.44909
仿	-9.44922
薛	-9.44946
駕	-9.44956
操	-9.4496
剉	-9.44983
困	-9.45002
柴	-9.45002
韋	-9.45069
四寸	-9.45319
亦不	-9.4545
氣味	-9.45506
五六	-9.45522
以其	-9.45627
犀	-9.45747
不宜	-9.45779
又云	-9.4581
某	-9.45854
𢃄	-9.45879
去皮	-9.4588
色白	-9.45922
略	-9.45955
滌	-9.45969
𨽻書	-9.4629
大而	-9.46459
嘉禾	-9.46502
二尺	-9.46584
賛	-9.46593
祭	-9.46612
山茶	-9.46632
繼	-9.46654
巢	-9.46664
斛	-9.46675
營	-9.46676
參差	-9.4668
鴈	-9.46711
籜	-9.46724
祠	-9.46753
間有	-9.46806
馨	-9.46829
覆手	-9.46902
自是	-9.47299
隆	-9.47364
明月	-9.47425
砂	-9.47502
屢	-9.47505
追	-9.47547
翳	-9.4755
怕	-9.47574
攪	-9.47643
紫花	-9.47678
時有	-9.47702
之屬	-9.47859
之後	-9.47911
萬物	-9.48012
佳人	-9.4815
澄泥	-9.48301
祗	-9.48391
境	-9.48396
擅	-9.48398
銷	-9.48413
是硯	-9.48447
選	-9.48456
四年	-9.48465
幽人	-9.48602
四十	-9.48634
雨露	-9.49068
小兒	-9.4907
葦	-9.49113
森	-9.49118
陰	-9.492
瑤	-9.49201
釣	-9.49205
邑	-9.49215
宵	-9.49226
蠻	-9.49235
務	-9.49257
痩	-9.49289
腦麝	-9.49321
暇	-9.49343
二首	-9.49354
學士	-9.49455
翰	-9.4985
西湖	-9.49856
曰吾	-9.49972
道人	-9.49973
尚書	-9.50025
割	-9.50065
臼	-9.50077
穆	-9.50091
恭	-9.50109
沒	-9.50112
權	-9.50129
署	-9.50157
笛	-9.50162
寂寞	-9.50176
黎	-9.50177
寜	-9.50182
棃花	-9.50199
島	-9.50223
岩	-9.50339
千年	-9.50449
不堪	-9.505
綃	-9.50748
勒	-9.50983
妖	-9.51009
二分	-9.51027
暫	-9.51031
晦	-9.51046
髮	-9.51049
探	-9.5106
鑿	-9.51067
芸	-9.513
為上	-9.5133
南山	-9.51506
凋	-9.51532
茱萸	-9.51653
喬	-9.51849
寒食	-9.51888
鈎	-9.51891
寓	-9.51897
擊	-9.51912
故曰	-9.5194
斧	-9.51971
硯背	-9.52109
觔	-9.52131
數百	-9.52186
十年	-9.52308
十日	-9.52377
慎	-9.52485
渇	-9.52702
暴	-9.52721
沾	-9.52722
鐘	-9.52736
料	-9.52739
揀	-9.52774
斫	-9.52782
蘇頌曰	-9.52791
餉	-9.52812
啜	-9.52821
程	-9.52827
遮	-9.52842
量	-9.5285
樵	-9.5285
芳菲	-9.52881
風味	-9.52986
答	-9.53023
至今	-9.53164
味苦	-9.5331
榴	-9.53479
磁	-9.53589
潘	-9.53633
熬	-9.53641
翫	-9.53673
岡	-9.53707
南海	-9.53718
酣	-9.53767
脉	-9.53803
無毒	-9.53811
莖葉	-9.53845
詩人	-9.53931
端溪	-9.54189
話	-9.54429
穎	-9.54468
輒	-9.54504
筵	-9.54544
驗	-9.54578
堯	-9.54581
䑕	-9.54594
右件	-9.54595
振	-9.54599
滅	-9.54602
茯苓	-9.54654
遶	-9.54714
日月	-9.54724
有之	-9.54896
襲	-9.55125
十八	-9.55395
岳	-9.55405
濤	-9.5541
獸	-9.55437
提	-9.55483
荅	-9.55503
亦名	-9.55509
一宿	-9.55529
旗	-9.55531
彈	-9.55539
肯	-9.55553
貼	-9.55594
春秋	-9.55602
視之	-9.55627
東南	-9.55689
大抵	-9.55738
簪	-9.55807
金錢	-9.55897
神仙	-9.56007
莧	-9.56086
其子	-9.5617
夲	-9.56284
隋	-9.56302
化為	-9.5636
之不	-9.56366
戎	-9.56381
隴	-9.56382
釀	-9.56386
輸	-9.56424
壑	-9.56448
規	-9.56455
歛	-9.56483
隐	-9.56483
𦂳	-9.56487
爾雅云	-9.5677
托	-9.56947
芹	-9.57226
何人	-9.57243
之則	-9.57294
一樹	-9.57298
怒	-9.573
受墨處	-9.57308
𢎞	-9.57323
俯	-9.5734
溝	-9.57358
巴	-9.57362
滯	-9.57363
􁁊	-9.57365
鬬	-9.57373
甑	-9.574
槎	-9.57403
醬	-9.57414
扶疎	-9.57456
茴香	-9.57506
涼	-9.57508
人以	-9.57581
蓴	-9.58121
蕨	-9.58132
搖	-9.5819
開時	-9.58239
騰	-9.58263
瓠	-9.58294
徘徊	-9.58298
值	-9.58329
緩	-9.58333
堤	-9.58341
五年	-9.58372
發墨	-9.58539
薫	-9.58984
三百	-9.59033
乏	-9.59204
妻	-9.59209
顯	-9.59243
臥	-9.59253
壇	-9.59268
貝	-9.5928
而長	-9.59298
快	-9.59308
粲	-9.59309
拆	-9.59366
水浸	-9.59397
腎	-9.59403
愚	-9.59417
一莖	-9.5944
草增	-9.59463
楊花	-9.59479
燒之	-9.59495
之間	-9.59505
一二	-9.59527
匀	-9.59579
箇	-9.59778
零	-9.59918
壤	-9.60166
賴	-9.60223
蕪	-9.60225
東籬	-9.60232
慰	-9.60237
蝦	-9.60249
篆書	-9.60255
袁	-9.60258
筒	-9.60271
額	-9.60284
捧	-9.60287
多少	-9.60385
色黄	-9.60453
而無	-9.60615
香爐	-9.60658
深紅	-9.60707
稷	-9.61009
梧	-9.61037
薺	-9.61069
爪	-9.61089
網	-9.61117
亡	-9.61123
莽	-9.61128
豪	-9.61159
蔚	-9.61197
習	-9.61276
平生	-9.61353
爇之	-9.61376
不甚	-9.6138
有一	-9.61398
十六	-9.61586
芭蕉	-9.61849
之法	-9.61967
范成大	-9.62079
科	-9.62141
倫	-9.62144
僕	-9.62149
泣	-9.62161
纍纍	-9.62163
叚	-9.62195
悦	-9.62197
輿	-9.62233
者皆	-9.62511
一尺	-9.62637
嵗寒	-9.62663
山下	-9.62883
盛開	-9.6293
韶	-9.62973
隂乾	-9.62975
覩	-9.63036
枇杷	-9.63038
梧桐	-9.63074
者以	-9.63084
冬月	-9.6313
曝	-9.63136
詎	-9.63149
筐	-9.63152
裙	-9.63159
欺	-9.63165
喚	-9.63178
踰	-9.63212
穠	-9.63235
鞭	-9.63249
萎	-9.6326
色青	-9.63264
往往	-9.63306
拌勻	-9.63334
忍	-9.63447
相思	-9.63458
有白	-9.6352
天然	-9.63544
李白	-9.6383
五銖	-9.63936
唐書	-9.64005
籍	-9.64088
欵	-9.64105
為度	-9.64118
處處有之	-9.64131
寂	-9.64156
浙	-9.64158
征	-9.64167
欹	-9.64167
播	-9.64186
枝上	-9.64264
慙	-9.64265
長生	-9.64386
芬芳	-9.64432
拾遺記	-9.64481
美人	-9.64699
荔子	-9.64729
今年	-9.64878
無所	-9.64903
焚香	-9.64903
菴	-9.65101
威	-9.6514
述異記	-9.65147
千金	-9.65155
卑	-9.65166
别有	-9.65187
瀉	-9.65202
魁	-9.65221
塲	-9.65228
臯	-9.65239
踏	-9.65239
山之	-9.65739
太平	-9.65766
五十	-9.65803
菘	-9.6603
出於	-9.66131
鴛鴦	-9.66187
熊	-9.6622
叟	-9.66242
也其	-9.66245
咏	-9.66251
雍	-9.66288
天香	-9.66431
畝	-9.66509
今之	-9.66755
不為	-9.66884
多情	-9.66972
花落	-9.66975
十兩	-9.67023
尺許	-9.6714
寸許	-9.67153
渴	-9.67159
飢	-9.6717
蛤	-9.67208
驅	-9.67215
障	-9.67217
輩	-9.67227
四分	-9.67245
犯	-9.67258
犬	-9.67262
揉	-9.67297
糟	-9.67336
玉堂	-9.67468
𣝕香	-9.67495
春光	-9.67895
次之	-9.68069
益氣	-9.68085
尺餘	-9.68122
揮	-9.68169
勸	-9.68196
貌	-9.68229
班	-9.68254
蟻	-9.68256
噉	-9.68261
脾	-9.68262
莎	-9.68266
襟	-9.68271
酬	-9.68284
鏤	-9.68292
兄	-9.68297
偽	-9.68306
奚	-9.68306
粗	-9.6832
寵	-9.68323
專	-9.68325
築	-9.68376
故人	-9.68388
清風	-9.68401
其香	-9.68486
花葉	-9.68507
瓊花	-9.68535
緑葉	-9.68617
茅香	-9.68686
御製題	-9.68701
状	-9.68731
初生	-9.69029
蘿	-9.69069
其後	-9.69085
茶之	-9.69107
匣	-9.69198
榛	-9.69207
堦	-9.69278
跗	-9.69322
不勝	-9.69342
酥	-9.69347
淑	-9.69397
婆娑	-9.69419
人呼為	-9.69456
模	-9.6948
未有	-9.69647
者有	-9.69647
多食	-9.69916
各一	-9.70067
霜雪	-9.70133
之曰	-9.70144
味辛	-9.70149
薇	-9.70165
昬	-9.70171
如何	-9.70196
欣	-9.70256
像	-9.70336
撫	-9.7035
佐	-9.70359
濡	-9.70385
混	-9.70391
握	-9.70401
滓	-9.70402
趣	-9.70404
吕	-9.7041
殆	-9.70461
生者	-9.70563
煉蜜	-9.707
黄白	-9.70849
亦曰	-9.7088
南人	-9.70997
馮	-9.71403
枝頭	-9.71416
鴨	-9.71465
春日	-9.71475
逆	-9.7148
罕	-9.71487
縹	-9.71519
蓄	-9.71541
迹	-9.71548
雉	-9.71582
飲之	-9.71584
木蘭	-9.71661
處處	-9.7187
自有	-9.72175
色紫	-9.72219
一物	-9.72228
胃	-9.7233
湛	-9.7243
彰	-9.72437
庾	-9.72445
摧	-9.7248
三尺	-9.72487
炊	-9.72503
妾	-9.72506
返	-9.7251
職	-9.72516
㕔	-9.72549
秘	-9.72572
喧	-9.72581
艷	-9.72663
今人	-9.72681
皆可	-9.72741
羅紋	-9.72764
五兩	-9.72844
而為	-9.72854
天上	-9.72928
注云	-9.72931
耐	-9.73058
八分	-9.73073
成都	-9.73105
一本	-9.73146
鬱金	-9.73478
輔	-9.73482
位	-9.73526
沼	-9.73581
㝠	-9.73581
百餘	-9.73596
抑	-9.73614
哀	-9.73624
舜	-9.73625
倦	-9.73655
齊民要術	-9.73657
腐	-9.73665
硯銘	-9.73689
擘	-9.73697
所産	-9.73709
曝乾	-9.73744
踈	-9.73761
名醫别録	-9.73777
峽	-9.73791
紅花	-9.74027
五味	-9.74193
松柏	-9.74235
流水	-9.74281
芳草	-9.74347
而有	-9.74615
奔	-9.7463
爾雅翼	-9.74715
憑	-9.74717
一時	-9.74753
剝	-9.74764
粉紅	-9.74768
遙	-9.74773
鑒	-9.74777
篩	-9.74782
整	-9.74793
甞	-9.74795
濁	-9.74796
髻	-9.74815
隅	-9.74836
腥	-9.74842
盌	-9.74844
蘇合油	-9.74942
當年	-9.75152
姚	-9.75391
道士	-9.75532
見之	-9.75566
倉	-9.75797
邦	-9.75811
遭	-9.75831
楮	-9.75865
圭	-9.75881
馳	-9.75894
菰	-9.75902
柄	-9.75942
厚一寸	-9.75948
臉	-9.75952
蚌	-9.75998
焚之	-9.76263
嵓	-9.76274
得其	-9.76308
賀	-9.7638
故有	-9.76558
如玉	-9.76745
粱	-9.76795
慢	-9.76835
之地	-9.76888
者如	-9.76916
遐	-9.76937
稽	-9.76964
牧	-9.76969
娥	-9.7698
熙	-9.76986
翹	-9.76992
瘴	-9.76997
傲	-9.76999
慮	-9.77005
契	-9.77014
唱	-9.77017
鵲	-9.77018
禹	-9.77059
絡	-9.7706
不相	-9.77063
細葉	-9.77065
併	-9.77135
百里	-9.77222
雨後	-9.77228
閩中	-9.77291
或以	-9.77349
而大	-9.7789
杉	-9.77953
薤	-9.78054
徙	-9.78109
相對	-9.78137
煉	-9.78139
慕	-9.78144
竅	-9.78145
循	-9.78151
讓	-9.78164
汎	-9.78167
玲瓏	-9.78182
繩	-9.78202
輭	-9.78215
尹	-9.78217
朋	-9.78222
唐白居易	-9.78337
富貴	-9.78341
弟	-9.78424
綠葉	-9.78501
一夜	-9.78805
巳	-9.78964
有餘	-9.78973
宰	-9.79137
使君	-9.79151
懼	-9.7928
梔子	-9.79321
怯	-9.79331
皓	-9.79367
鷺	-9.79375
朽	-9.79425
捜	-9.79473
也又	-9.79476
右為細末	-9.79532
木犀	-9.79547
有三	-9.79549
鵞	-9.79582
其所	-9.79624
作餅	-9.79829
棠	-9.79941
子如	-9.80062
鯉	-9.803
㳺	-9.80465
衍	-9.80476
安得	-9.80505
髓	-9.80506
叙	-9.80514
貪	-9.80517
纂	-9.8052
䦨	-9.80527
紛紛	-9.80548
迥	-9.80551
惹	-9.8056
雌	-9.8057
剪	-9.80581
穢	-9.80595
荼	-9.80607
勿令	-9.80626
蕭蕭	-9.80667
武夷	-9.80667
歙	-9.80749
數日	-9.80779
一百	-9.80786
一切	-9.80788
一片	-9.80834
百年	-9.80853
江湖	-9.80856
離離	-9.80894
木𤓰	-9.81006
荷葉	-9.81009
西山	-9.81281
單葉	-9.81489
雁	-9.81594
預	-9.8165
嶽	-9.81666
虀	-9.81671
己	-9.81678
暢	-9.81699
爇	-9.8171
忙	-9.81716
邀	-9.81718
顛	-9.81721
柿	-9.81732
㫖	-9.81767
啄	-9.8177
莢	-9.81778
蹙	-9.81783
駐	-9.81785
紅梅	-9.81841
之氣	-9.81871
月令	-9.81955
人多	-9.81977
右為末	-9.82086
半斤	-9.8211
形似	-9.8212
之狀	-9.82151
靣	-9.82411
改元	-9.8257
釵	-9.82603
所出	-9.82792
瑣	-9.82819
慚	-9.82821
竈	-9.82828
配	-9.8284
董	-9.82844
脈	-9.82847
一枚	-9.82847
練	-9.82857
穀	-9.82871
蠧	-9.82871
秉	-9.82872
襄	-9.82874
震	-9.82881
簫	-9.82883
斂	-9.82898
畨	-9.82925
逼	-9.82928
逾	-9.8293
寡	-9.8294
烘	-9.82967
金顔香	-9.83015
笋	-9.83028
篁	-9.83033
其間	-9.83088
爰	-9.83134
數尺	-9.83243
白菊	-9.83365
好事	-9.83378
苧	-9.83818
一笑	-9.8383
脊	-9.83844
漢書	-9.83955
涎	-9.84006
繭	-9.84018
白雲	-9.84088
匹	-9.84093
海中	-9.84101
廷	-9.84113
泊	-9.84141
峻	-9.84147
中國	-9.84152
也今	-9.84167
覓	-9.84176
帷	-9.84198
瓢	-9.84211
葉青	-9.84241
不然	-9.84244
何如	-9.84308
水晶	-9.84332
十分	-9.84459
十四	-9.84583
赤色	-9.84695
十二月	-9.84945
得名	-9.84982
蔥	-9.85082
晉書	-9.85101
香草	-9.85257
䝉	-9.85277
荼䕷	-9.85287
霑	-9.85311
浥	-9.85341
故謂之	-9.85393
惟有	-9.85421
衝	-9.85436
惱	-9.85456
蘿蔔	-9.85474
陸羽	-9.85529
辛夷	-9.85536
依依	-9.85668
皆有之	-9.85892
亦如	-9.86088
奈	-9.86132
雜記	-9.86199
互	-9.86498
鷄	-9.86516
蔵	-9.86528
博物志	-9.86562
普	-9.86565
絹	-9.86579
蘓	-9.86598
痢	-9.86599
鴉	-9.86617
不是	-9.86633
祝	-9.8665
妬	-9.86664
溢	-9.86684
強	-9.86692
開元	-9.86705
將軍	-9.86791
淮南子	-9.86856
相類	-9.86885
焙乾	-9.86948
詩曰	-9.87001
南史	-9.87163
江東	-9.87265
陌	-9.87322
半錢	-9.87539
獨立	-9.8756
拳	-9.87583
好事者	-9.87618
色深	-9.87634
荇	-9.87655
不生	-9.87659
郁	-9.87707
攢	-9.87805
翅	-9.87818
茲	-9.87824
净	-9.87886
邵	-9.87911
閲	-9.87912
琉璃	-9.87914
酪	-9.87951
蒂	-9.87962
秫	-9.87983
零落	-9.87985
蕚	-9.87987
廷珪	-9.88022
詩話	-9.88029
茶經	-9.88079
花如	-9.88083
子孫	-9.88136
大葉	-9.88142
鈐寳	-9.88146
二三	-9.88207
紅紫	-9.88229
延年	-9.88244
銖	-9.88792
丞	-9.8898
則不	-9.89004
术	-9.89036
海南	-9.89048
剥	-9.89075
狗	-9.89087
擲	-9.8909
浩	-9.89091
亮	-9.89121
珊瑚	-9.89121
藜	-9.89134
茍	-9.89135
涵	-9.89149
鄴	-9.89154
闌	-9.89155
狹	-9.89166
鈿	-9.89166
綻	-9.89172
槁	-9.89173
裴	-9.89177
搜	-9.8918
寢	-9.89186
歟	-9.89206
鉢	-9.89208
統	-9.8922
酉	-9.89243
有毒	-9.89288
者亦	-9.89456
行人	-9.89556
古今	-9.89628
少年	-9.89701
造化	-9.89707
文章	-9.89868
相傳	-9.89933
三寸	-9.90069
香味	-9.90108
俗呼	-9.90131
之時	-9.90239
菽	-9.90247
無毒治	-9.90287
七分	-9.90318
黄庭堅	-9.90348
脯	-9.90385
區	-9.90395
精神	-9.90402
柘	-9.90422
土中	-9.90434
察	-9.90434
陀	-9.90445
沐	-9.90491
没	-9.90496
坊	-9.90506
黛	-9.90517
甚多	-9.90522
従	-9.90547
棹	-9.90556
筯	-9.90676
棧香	-9.90719
武陵	-9.90732
人所	-9.90796
味酸	-9.90924
此君	-9.90955
附子	-9.91021
所在	-9.91043
沉水	-9.91179
而成	-9.91337
績	-9.9144
不必	-9.91544
埤雅	-9.91613
各有	-9.91657
一人	-9.91696
悟	-9.91697
禦	-9.917
㧞	-9.91725
秧	-9.91725
百花	-9.91742
豫章	-9.91755
酢	-9.91769
旅	-9.91779
訝	-9.91794
激	-9.91822
梨花	-9.91831
膽	-9.91833
岕	-9.91877
牋	-9.91897
杞	-9.91922
四字	-9.92039
𤣥參	-9.92067
或曰	-9.92152
千萬	-9.92213
然而	-9.92279
野人	-9.92287
建安	-9.92292
涯	-9.92598
訛	-9.92635
滿地	-9.92647
者其	-9.9265
紅色	-9.9277
琅玕	-9.92988
者多	-9.93051
淳	-9.93071
㯽榔	-9.93102
桓	-9.93121
脩	-9.93127
東海	-9.93136
駢	-9.93163
沫	-9.93207
芡	-9.93221
唇	-9.93224
着	-9.93235
刷	-9.93283
白者	-9.93299
四五	-9.93362
児	-9.93365
採蓮	-9.93566
百草	-9.93662
園中	-9.93795
枝幹	-9.94017
御史	-9.94055
植之	-9.94156
大黄	-9.94267
縮	-9.94391
卜	-9.94423
遽	-9.94436
敵	-9.94437
霽	-9.94453
戰	-9.94455
俄	-9.94483
魄	-9.94486
缸	-9.94503
幅	-9.94506
冶	-9.94529
縫	-9.94536
庵	-9.94575
白玉	-9.94594
麫	-9.94626
者不	-9.94664
一丈	-9.94718
痺	-9.94729
記云	-9.94814
甘露	-9.95057
之中	-9.95059
甘菊	-9.95084
以此	-9.95123
終日	-9.95204
之至	-9.95236
之精	-9.95294
月明	-9.95392
鬛	-9.95653
取汁	-9.95677
煎茶	-9.95678
赴	-9.95724
楸	-9.95725
物也	-9.95756
厨	-9.95768
吞	-9.95776
夏月	-9.95798
帛	-9.95799
掇	-9.958
雨過	-9.95812
嘆	-9.95822
曜	-9.95831
寅	-9.95833
局	-9.95855
蒔	-9.95856
靄	-9.9586
杪	-9.95872
隂陽	-9.95941
妄	-9.95982
襯	-9.95993
異香	-9.95994
北方	-9.96048
初開	-9.96059
不成	-9.96187
有人	-9.9652
同食	-9.96655
遼	-9.96689
小而	-9.96965
頰	-9.97087
賓	-9.97124
椿	-9.9713
鼈	-9.97167
綸	-9.97172
誦	-9.97175
何以	-9.97175
認	-9.97179
栖	-9.97182
校	-9.97183
矜	-9.97183
靖	-9.97184
儼	-9.9719
皮日休	-9.9721
丙	-9.97211
倣	-9.97244
臂	-9.97253
𢷬	-9.97258
匙	-9.97259
下方	-9.97285
陋	-9.97289
燦	-9.97299
銙	-9.97306
袋	-9.97309
衫	-9.97309
醅	-9.97313
攅	-9.97332
蕈	-9.97352
四面	-9.97466
十一月	-9.97498
二十四	-9.9754
生薑	-9.97566
歸去	-9.97586
無情	-9.97661
千載	-9.97744
為誰	-9.97752
朗	-9.97774
根如	-9.97904
數枝	-9.98211
天氣	-9.98257
俗名	-9.98307
百尺	-9.98412
羊肉	-9.9849
枸杞	-9.98495
黙	-9.985
祐	-9.98503
婢	-9.98538
卯	-9.98544
荻	-9.98567
兔	-9.98584
垣	-9.98623
睂	-9.98627
孕	-9.98641
醃	-9.9866
嗅	-9.9867
肇	-9.98687
昇	-9.987
濾	-9.98719
裝	-9.98723
鎖	-9.98731
撒	-9.98734
天涯	-9.98808
即此	-9.98813
入水	-9.98835
連理	-9.98942
未知	-9.99449
又曰	-9.99477
實如	-9.99514
水仙	-9.99581
本草拾遺	-9.99771
門外	-9.99835
寒熱	-9.99855
南北	-9.99878
乙	-9.99963
谿	-9.99971
羡	-9.99988
㦸	-9.99989
箬	-9.9999
疇	-10
螭	-10
戊	-10.0001
曠	-10.0002
域	-10.0003
晋	-10.0003
徵	-10.0003
另	-10.0004
劍	-10.0004
廊	-10.0004
癖	-10.0006
鹹	-10.0007
係	-10.0008
燃	-10.0009
恰	-10.0009
十三	-10.001
裊	-10.001
緗	-10.001
不受	-10.0012
挿	-10.0013
不凋	-10.0035
北人	-10.0047
禁中	-10.0065
有兩	-10.0075
七年	-10.0084
諸香	-10.0092
十斤	-10.0092
馨香	-10.0095
明日	-10.0115
般	-10.012
去年	-10.0131
不與	-10.0139
證	-10.0143
鷗	-10.0143
霏	-10.0147
忩	-10.015
糝	-10.015
渭	-10.0151
卓	-10.0151
矢	-10.0152
五臟	-10.0154
宋宋祁	-10.0154
巷	-10.0156
雞冠	-10.0163
蜀葵	-10.0164
不待	-10.0168
見其	-10.0174
前後	-10.0178
幽香	-10.0179
􁈣	-10.0186
其法	-10.0188
洪志	-10.0197
蠟梅	-10.0198
西南	-10.0204
草生	-10.0212
六分	-10.0216
一㸃	-10.0216
人之	-10.0229
輕身	-10.0232
一卷	-10.0234
童子	-10.0246
氣味辛	-10.0249
風霜	-10.0253
此草	-10.0257
蔓生	-10.0261
濵	-10.0264
花發	-10.027
無異	-10.0274
椹	-10.028
鉛	-10.0285
誰知	-10.0288
隣	-10.0289
岑	-10.029
允	-10.0292
產	-10.0292
汚	-10.0292
矮	-10.0293
罪	-10.0294
為君	-10.0295
優	-10.0296
韓愈	-10.0296
緒	-10.0297
鵠	-10.0299
聼	-10.03
迸	-10.0301
崑崙	-10.0304
粘	-10.0305
臍	-10.0308
素馨	-10.0311
下氣	-10.032
其樹	-10.0328
波斯	-10.0332
沸湯	-10.0333
芝草	-10.0339
之下	-10.0354
長條	-10.0358
堂前	-10.0362
熟時	-10.0375
二百	-10.0383
王孫	-10.0385
以竹	-10.0392
樓子	-10.0393
老人	-10.0395
樹下	-10.0407
者佳	-10.0408
咽	-10.0412
如今	-10.0415
移根	-10.0426
食貨志	-10.0436
婉	-10.0442
月中	-10.0443
趨	-10.0443
弓	-10.0445
援	-10.0445
鬻	-10.0446
煥	-10.0446
翡翠	-10.0448
猶有	-10.0448
和香	-10.0449
枳	-10.045
瘧	-10.0451
嘯	-10.0452
突	-10.0455
瓤	-10.0456
七日	-10.046
移栽	-10.0472
神農	-10.0472
書云	-10.0489
金盤	-10.0503
朱子	-10.0504
白檀	-10.0506
移植	-10.0516
蜀中	-10.0552
龍涎	-10.0556
夭	-10.0566
是以	-10.0567
鮫	-10.0576
狀似	-10.0577
牡	-10.0584
詣	-10.0589
閱	-10.059
啟	-10.0591
劒	-10.0593
辣	-10.0594
䇿	-10.0594
訖	-10.0594
捕	-10.0596
淮南	-10.0596
喻	-10.0596
嚢	-10.0596
説文	-10.0598
齡	-10.0599
偉	-10.0599
阮	-10.0601
黑色	-10.0602
爵	-10.0603
園林	-10.0605
蛾	-10.0608
泡	-10.0611
荆州	-10.0615
廣州	-10.0631
合歡	-10.0632
林下	-10.0637
而後	-10.0639
飲食	-10.065
夕陽	-10.0651
一作	-10.0661
瞻	-10.0673
人皆	-10.0687
不識	-10.069
采之	-10.069
人也	-10.0703
無毒主	-10.0721
勃	-10.0744
瀝	-10.0745
誕	-10.0747
洋	-10.0747
飲酒	-10.0748
穰	-10.0748
貽	-10.0748
穫	-10.0749
躍	-10.0749
粤	-10.075
項	-10.0751
抱朴子	-10.0751
炷	-10.0752
拱	-10.0752
蕤	-10.0754
惆悵	-10.0754
浮萍	-10.0755
挹	-10.0756
橘柚	-10.0756
紹興	-10.0758
諫	-10.0758
茁	-10.0758
獵	-10.076
蔣	-10.076
怡	-10.0761
蘸	-10.0763
蘄	-10.0763
袍	-10.0764
以自	-10.0766
修竹	-10.0768
江淮	-10.0772
宋陸游	-10.0775
亁	-10.0777
誰家	-10.0782
何事	-10.0814
可用	-10.0821
一斗	-10.0826
因以	-10.0829
冬青	-10.0831
故事	-10.0832
其形	-10.0841
藿	-10.0859
豈無	-10.0861
落花	-10.0862
二色	-10.0868
池中	-10.0875
公子	-10.0879
而細	-10.0885
鳬	-10.0898
鼠	-10.09
幼	-10.0902
躬	-10.0904
不死	-10.0906
猛	-10.0907
寛三寸	-10.0907
基	-10.0907
擎	-10.0908
冒	-10.0908
審	-10.0909
勾	-10.0911
元稹	-10.0912
舂	-10.0912
麺	-10.0913
拍	-10.0914
匝	-10.0914
王安石	-10.0914
釘	-10.0922
不盡	-10.0932
故也	-10.0938
圖經本草	-10.0939
人不	-10.0947
圖經	-10.0952
不須	-10.0955
五榖	-10.0956
所載	-10.0957
世人	-10.0967
海上	-10.0968
一層	-10.0972
龍涎香	-10.099
即今	-10.1009
用以	-10.101
騷	-10.1012
紅白	-10.1019
萬年	-10.1019
則有	-10.1027
庭前	-10.1028
難得	-10.1032
鄧	-10.1047
萱	-10.1055
栢	-10.1056
紺	-10.1056
男	-10.1056
糧	-10.1057
木之	-10.1059
天竺	-10.106
救	-10.1062
個	-10.1063
辱	-10.1064
蒨	-10.1064
珪	-10.1064
盂	-10.1064
癡	-10.1065
肩	-10.1065
尉	-10.1065
其木	-10.1069
拭	-10.107
黯	-10.107
墀	-10.1074
異物志	-10.1075
凌波	-10.1075
如常法	-10.1075
陣	-10.1076
萱草	-10.1076
王十朋	-10.1077
塢	-10.1082
司馬	-10.109
太子	-10.1113
之可	-10.1125
尋常	-10.114
有所	-10.1144
其地	-10.1145
日暮	-10.1166
櫻	-10.1167
玉盤	-10.1171
無窮	-10.1185
其性	-10.1205
然則	-10.1208
蟾	-10.1218
謀	-10.1222
南方草木狀	-10.1223
講	-10.1223
潜	-10.1224
祕	-10.1225
謁	-10.1226
繪	-10.1226
葅	-10.1226
滄	-10.1227
為硯	-10.1227
旌	-10.1229
粹	-10.1229
蝕	-10.123
蘇恭曰	-10.123
宏	-10.1231
洩	-10.1231
蝴蝶	-10.1231
内有	-10.1232
謬	-10.1232
祈	-10.1232
杜牧	-10.1233
竇	-10.1234
售	-10.1234
僊	-10.1235
為第一	-10.1245
不食	-10.1249
酘	-10.1249
月下	-10.1252
釀酒	-10.1257
直上	-10.126
淵明	-10.1262
草也	-10.1267
冬至	-10.1268
含笑	-10.1273
無不	-10.1277
樹髙	-10.1282
十一	-10.1284
千瓣	-10.1297
使者	-10.1301
上林	-10.131
枝條	-10.1312
君家	-10.1314
先以	-10.1321
此樹	-10.1322
其質	-10.1324
江上	-10.1327
紫薇	-10.134
昨	-10.135
物之	-10.1372
皆以	-10.1379
腮	-10.1379
綬	-10.1382
坎	-10.1382
噴	-10.1385
霜後	-10.1387
兆	-10.1387
五日	-10.1389
災	-10.1391
的	-10.1392
豹	-10.1393
遜	-10.1394
箔	-10.1394
東君	-10.1395
針	-10.1395
煖	-10.1396
饌	-10.1396
戸	-10.1398
昆	-10.1398
蓬萊	-10.1398
攀折	-10.1399
秋色	-10.1404
馬蹄	-10.1408
噐	-10.1409
丹砂	-10.141
消息	-10.1411
時節	-10.1415
青色	-10.1423
西施	-10.1423
此時	-10.1423
山礬	-10.1424
足以	-10.1431
二曰	-10.1443
桂花	-10.1457
以來	-10.1464
有毛	-10.1464
龍眼	-10.1486
而味	-10.1497
細雨	-10.15
亦自	-10.1506
同上	-10.1508
歌曰	-10.1509
無力	-10.1516
第二	-10.1523
䕫	-10.1545
彫	-10.1547
櫟	-10.155
窟	-10.155
牕	-10.1554
中心	-10.1555
隙	-10.1555
墓	-10.1555
牖	-10.1555
减	-10.1556
凹	-10.1557
藴	-10.1558
冉冉	-10.156
金沙	-10.156
祀	-10.156
例	-10.1561
荀	-10.1563
梳	-10.1564
麋	-10.1564
袂	-10.1565
各半兩	-10.1565
珮	-10.1565
圓如	-10.1566
逄	-10.1566
殷勤	-10.1567
髙下	-10.1567
藷	-10.1568
捻	-10.1568
微風	-10.1579
玉蘂	-10.1584
二三尺	-10.1592
讀書	-10.1597
未開	-10.1599
胡麻	-10.1603
無復	-10.1606
第三	-10.1614
疑是	-10.1619
類也	-10.1626
耳目	-10.1631
紅妝	-10.1633
手植	-10.1636
知其	-10.1641
西北	-10.1646
暗香	-10.1647
尤佳	-10.1653
白露	-10.1665
胸	-10.1672
二日	-10.1676
不自	-10.1679
殿前	-10.1685
枝榦	-10.1688
各一兩	-10.169
聞之	-10.1699
色紅	-10.1704
雨中	-10.1704
去其	-10.1715
五言排律	-10.1718
駭	-10.1719
擷	-10.1719
尼	-10.1721
壬	-10.1724
肖	-10.1727
西京雜記	-10.1727
蠲	-10.1728
挑	-10.1728
樸	-10.1728
策	-10.1728
暄	-10.1729
篛	-10.1729
妓	-10.173
鍼	-10.173
勅	-10.173
梵	-10.173
綱	-10.1731
掬	-10.1732
蔡襄	-10.1733
潑	-10.1733
廵	-10.1733
渉	-10.1736
擣	-10.1736
檢	-10.1736
盈盈	-10.1738
籃	-10.1738
柳絮	-10.174
㑹稽	-10.1744
橄㰖	-10.1746
唐李白	-10.1751
不可與	-10.1751
塩	-10.1754
一升	-10.1762
羣臣	-10.1773
忽見	-10.1778
疎影	-10.1779
常以	-10.1779
行書	-10.1795
繡毬	-10.1797
薄荷	-10.1798
未詳	-10.1798
胡桃	-10.1802
金粟	-10.1808
硯面	-10.1825
七十	-10.1832
黄菊	-10.1833
千樹	-10.1835
花中	-10.1839
槿	-10.1841
賦詩	-10.1853
或有	-10.186
魴	-10.1876
可謂	-10.1878
不覺	-10.188
風露	-10.1886
紹	-10.189
芰	-10.1891
鐡	-10.1892
菲	-10.1894
鄙	-10.1894
狐	-10.1895
㪚	-10.1897
欽	-10.1897
絃	-10.1898
挽	-10.1899
彚	-10.1899
山林	-10.19
亨	-10.19
克	-10.19
瀹	-10.1901
笙	-10.1901
淋	-10.1902
訓	-10.1902
漠漠	-10.1902
閨	-10.1903
望之	-10.1903
撥	-10.1904
林檎	-10.1905
鬆	-10.1905
清異録	-10.1906
滚	-10.1907
玫瑰	-10.1908
峭	-10.191
顧渚	-10.1912
浣	-10.1914
水上	-10.1916
門前	-10.1923
一月	-10.1927
丹青	-10.1932
乃知	-10.1935
雪霜	-10.1937
▁(	-10.1939
廣志	-10.194
聖人	-10.1951
有刺	-10.1955
羣芳	-10.1958
採桑	-10.1972
何時	-10.1983
七錢	-10.199
昔人	-10.1992
使人	-10.1995
葉而	-10.2014
文房	-10.2018
壊	-10.2021
籬落	-10.2037
清露	-10.2041
石渠	-10.2048
之義	-10.2049
峩	-10.2057
其莖	-10.2058
温庭筠	-10.2067
羌	-10.2069
慘	-10.2069
熈	-10.2069
冲	-10.2069
巫	-10.2072
鳳凰	-10.2072
歐陽修	-10.2073
逹	-10.2074
陪	-10.2074
刑	-10.2075
纈	-10.2076
巵	-10.2077
擔	-10.2077
幻	-10.2079
㯶	-10.2079
慿	-10.208
醇	-10.2081
牢	-10.2082
鳩	-10.2082
晁	-10.2082
祇	-10.2083
喫	-10.2083
鑑	-10.2084
裛	-10.2086
榕	-10.2086
趁	-10.2089
劈	-10.2089
鵝	-10.2093
促	-10.2093
翰林	-10.2095
硏	-10.2096
宋楊萬里	-10.2098
潔白	-10.2098
如雪	-10.21
周禮	-10.21
薊	-10.2101
次第	-10.2102
榴花	-10.2102
福州	-10.2103
日日	-10.2126
花史	-10.2129
九分	-10.2129
金瘡	-10.2131
未必	-10.2132
此種	-10.2134
多葉	-10.2134
心腹	-10.2139
丁香皮	-10.214
以水	-10.2141
不可食	-10.2143
松子	-10.2144
幽蘭	-10.2144
衆芳	-10.2154
邪氣	-10.2159
芳心	-10.2167
無數	-10.217
中書	-10.2171
淘	-10.2173
繁華	-10.2189
不可得	-10.2204
朝陽	-10.221
今朝	-10.2214
不絶	-10.2215
之功	-10.2229
孔子	-10.2233
未央	-10.2242
郭璞	-10.2243
毋	-10.2244
亥	-10.2245
學圃餘疏	-10.2247
畜	-10.2247
憲	-10.2249
員	-10.225
鋭	-10.225
諒	-10.225
二曰㑹心不逺曰徳充符	-10.2251
函	-10.2251
彤	-10.2254
股	-10.2254
灼	-10.2254
湧	-10.2254
西園	-10.2254
而厚	-10.2255
頴	-10.2255
若夫	-10.2256
杳	-10.2256
交趾	-10.2256
侈	-10.2256
千餘	-10.2257
算	-10.2257
悶	-10.2257
嶠	-10.2257
琳	-10.2257
淪	-10.2258
戀	-10.2258
麓	-10.2258
矯	-10.2258
吸	-10.2258
舎	-10.2259
蘚	-10.226
糊	-10.226
虹	-10.226
曲江	-10.2262
茵	-10.2264
六年	-10.2265
此錢	-10.2266
粧	-10.2266
帚	-10.2267
泄	-10.2268
靈芝	-10.2286
無限	-10.2286
磁器	-10.2294
黄昬	-10.2296
翠葉	-10.2301
臘月	-10.2303
此香	-10.2306
不減	-10.2314
香附子	-10.2329
金線	-10.2331
徽	-10.2333
有大	-10.2341
文曰	-10.2345
夏日	-10.2346
五行	-10.2355
味極	-10.2363
不易	-10.2364
寒無毒	-10.2373
緋	-10.2378
種竹	-10.2385
一朶	-10.2391
後有	-10.2405
李時珍云	-10.2416
協	-10.2418
朴	-10.2419
或作	-10.242
草木之	-10.2422
清水	-10.2428
棟	-10.2428
大麥	-10.2429
床	-10.243
虬	-10.2431
邁	-10.2431
竭	-10.2431
皎	-10.2432
漳	-10.2432
稚	-10.2434
汴	-10.2434
之句	-10.2434
幄	-10.2435
木也	-10.2435
賊	-10.2435
癸	-10.2435
副	-10.2436
木棉	-10.2436
蜀人	-10.2437
街	-10.2438
膾	-10.2438
汙	-10.2439
聴	-10.2441
四方	-10.2441
青州	-10.2443
扉	-10.2443
評	-10.2444
張籍	-10.2449
簮	-10.2449
半月	-10.2452
離披	-10.2453
爛漫	-10.2455
其枝	-10.2455
上品	-10.2457
有聲	-10.2466
立春	-10.25
三種	-10.2502
生意	-10.2504
慢火	-10.2508
其一	-10.2515
由是	-10.2529
一首	-10.2531
因名	-10.2537
池上	-10.2549
女子	-10.2553
大者如	-10.2555
蓮子	-10.2561
拘	-10.2565
碧玉	-10.2568
採之	-10.2569
名也	-10.257
一葉	-10.2578
可以為	-10.2585
八十	-10.259
天台	-10.2591
甚美	-10.2594
也右	-10.2601
禎	-10.2607
金星	-10.2607
山記	-10.2608
不改	-10.2609
畆	-10.261
燒香	-10.261
無花	-10.2612
肆	-10.2616
稗	-10.2616
樊	-10.2616
迴	-10.2617
鷓鴣	-10.2617
無名氏	-10.2619
仕	-10.2619
經霜	-10.262
縛	-10.262
攻	-10.262
酲	-10.2621
羲	-10.2621
俾	-10.2622
赫	-10.2622
聨	-10.2622
寮	-10.2623
演	-10.2624
詢	-10.2626
奩	-10.2626
皂	-10.2627
雛	-10.2629
豆蔲	-10.263
劣	-10.2632
君謨	-10.2636
汪	-10.2636
篠	-10.2639
糯	-10.2651
之形	-10.2658
廬山	-10.2659
庭中	-10.2679
瑞香	-10.2679
宫中	-10.2686
五六月	-10.269
白如	-10.2692
惡瘡	-10.2695
藏之	-10.2703
大率	-10.2713
居士	-10.2726
者必	-10.2732
有五	-10.2734
盡日	-10.275
之物	-10.2751
淺紅	-10.276
言其	-10.2764
杜若	-10.2764
和之	-10.2769
所用	-10.2771
山在	-10.2772
經年	-10.2775
東西	-10.2787
豚	-10.279
鍋	-10.2797
璞	-10.2798
賦云	-10.2799
劚	-10.2799
耘	-10.2799
黝	-10.2801
儉	-10.2805
紐	-10.2805
敲	-10.2806
苕	-10.2806
俞	-10.2806
綘	-10.2806
兄弟	-10.2807
括	-10.2807
險	-10.2807
裊裊	-10.2809
悴	-10.281
龍尾	-10.281
繇	-10.2812
歐陽	-10.2812
塔	-10.2813
恍	-10.2814
豔	-10.2814
天門冬	-10.2817
萃	-10.2818
筋骨	-10.2824
掛	-10.2827
鄭谷	-10.283
昨夜	-10.2833
結根	-10.2836
得地	-10.2838
八九月	-10.2838
苜蓿	-10.2848
洗淨	-10.2848
騷人	-10.285
翠羽	-10.2852
花木	-10.2854
名為	-10.2858
温潤	-10.2863
所居	-10.2867
為貴	-10.2868
新茶	-10.2888
其人	-10.2888
不入	-10.2893
羅浮	-10.2895
一品	-10.2899
宋史	-10.2905
清泉	-10.2908
製作	-10.2908
漢宫	-10.2909
細而	-10.2912
極細	-10.2926
有意	-10.2929
無風	-10.2937
酒浸	-10.2942
天下之	-10.2945
紫檀	-10.2955
甘美	-10.2963
其皮	-10.2975
花瓣	-10.2976
側面	-10.2987
數寸	-10.2987
為佳	-10.2988
臨風	-10.2988
朱實	-10.2988
竦	-10.2988
腹中	-10.2989
山石	-10.299
溜	-10.2991
樗	-10.2994
欒	-10.2994
豫	-10.2996
杭	-10.2998
見日	-10.2998
庇	-10.3001
判	-10.3001
冀	-10.3001
醴	-10.3001
系	-10.3003
瀟灑	-10.3004
葳蕤	-10.3004
氣味甘	-10.3004
桂海虞衡志	-10.3004
叩	-10.3004
滇	-10.3005
参	-10.3005
逕	-10.3005
陸龜蒙	-10.3005
譜云	-10.3006
簟	-10.3006
衢	-10.3007
裔	-10.3008
娘	-10.3009
歐	-10.3011
麵	-10.3021
深黄	-10.3026
扶桑	-10.3028
花紅	-10.3028
樝	-10.303
胡椒	-10.3037
千嵗	-10.3041
竹葉	-10.3045
楊妃	-10.305
余嘗	-10.3062
看花	-10.3064
嵩	-10.3086
如金	-10.31
李賀	-10.3104
賦得	-10.3106
多用	-10.311
六兩	-10.3112
鄉人	-10.3114
白蓮	-10.3114
黄精	-10.3124
厚而	-10.3126
葉葉	-10.3128
處士	-10.3128
得一	-10.3137
子一名	-10.3139
清隂	-10.314
茶録	-10.3144
桂樹	-10.3147
餘香	-10.3166
題詩	-10.3166
久服	-10.3168
人參	-10.3177
𨽻	-10.318
有黄	-10.3182
鋒	-10.3185
嗣	-10.3187
梅堯臣	-10.3189
殖	-10.319
督	-10.3191
輦	-10.3192
違	-10.3192
時人	-10.3193
狼	-10.3194
儲	-10.3194
紉	-10.3195
物類相感志	-10.3196
蘭香	-10.3197
跋	-10.3199
箕	-10.3199
嬋娟	-10.32
汾	-10.32
漲	-10.3201
醪	-10.3201
鮑	-10.3201
窗	-10.3202
課	-10.3203
嫋嫋	-10.3203
徃徃	-10.3204
冽	-10.3206
完	-10.321
札	-10.321
檳榔	-10.3214
壑源	-10.3217
后土	-10.3217
太祖	-10.3218
糯米	-10.322
長者	-10.3235
松樹	-10.3246
二斤	-10.3264
無言	-10.3266
不知其	-10.3277
大錢	-10.3283
數里	-10.3286
木芙蓉	-10.3298
逮	-10.33
勿食	-10.3303
謂其	-10.3309
烏頭	-10.331
置之	-10.3311
早梅	-10.3316
桃紅	-10.332
猶未	-10.3326
謫	-10.3331
相與	-10.3349
歸來	-10.335
褐	-10.3352
何必	-10.3353
香聞	-10.3354
陌上	-10.3355
十九	-10.3368
後人	-10.3368
試之	-10.3368
背文	-10.3371
楠	-10.3373
不散	-10.3378
入山	-10.3379
明目	-10.338
限	-10.3381
楷書	-10.3383
垂楊	-10.3387
俎	-10.3388
拈	-10.339
淹	-10.3391
箱	-10.3392
餳	-10.3395
壠	-10.3396
倘	-10.3397
笑曰	-10.3398
霍亂	-10.3398
欠	-10.3398
蔓菁	-10.3399
閭	-10.3402
享	-10.3402
匡	-10.3402
禀	-10.3403
嫁	-10.3403
之際	-10.3403
枸	-10.3403
窈窕	-10.3405
匏	-10.3405
膜	-10.3407
蔡君謨	-10.3409
緘	-10.341
賦并序	-10.3412
種者	-10.3412
銅雀	-10.3413
秤	-10.3413
罌	-10.3415
牽牛	-10.3417
盈尺	-10.3417
必有	-10.3417
瓷	-10.3418
團團	-10.343
降真香	-10.3433
杏仁	-10.3444
為細末	-10.3451
龍腦香	-10.3459
青松	-10.3467
細辛	-10.3467
其文	-10.3469
金黄	-10.347
水仙花	-10.3474
天地之	-10.3474
文字	-10.3481
日華	-10.3487
臨池	-10.3491
說文	-10.3492
號為	-10.3493
周刻	-10.3496
梅雨	-10.3499
重重	-10.3502
一杯	-10.3505
冰雪	-10.3505
從此	-10.3511
台	-10.3513
古松	-10.3522
國香	-10.3536
榖雨	-10.3538
脹	-10.3542
南有	-10.3546
山上	-10.3558
田家	-10.3563
至春	-10.3563
可得	-10.3564
野菊	-10.357
風光	-10.3576
化工	-10.358
調和	-10.3582
零陵	-10.3583
數年	-10.3585
荘	-10.3591
三五	-10.3595
穉	-10.3598
宸	-10.3598
花香	-10.3599
家家	-10.36
敏	-10.3601
豉	-10.3601
丑	-10.3602
訣	-10.3602
煌煌	-10.3603
漾	-10.3603
梁簡文帝	-10.3605
撚	-10.3608
碩	-10.3609
饋	-10.361
白日	-10.361
得所	-10.3612
咀	-10.3612
侍郎	-10.3614
蒼苔	-10.3622
氣味苦	-10.3625
漪	-10.3628
驢	-10.3628
尚有	-10.3633
金鈴	-10.3646
花似	-10.3657
真珠	-10.3667
三稜	-10.3672
龍鳯	-10.3674
風起	-10.3675
北山	-10.3679
也集藻	-10.3683
人言	-10.3685
者乃	-10.3691
草果	-10.3691
世間	-10.3693
大笑	-10.3697
南陽	-10.3698
多生	-10.3701
長而	-10.3704
相宜	-10.3706
金絲	-10.3715
史記	-10.3718
雞頭	-10.3721
太真	-10.3728
而去	-10.3729
已上	-10.3729
又一種	-10.3729
真人	-10.373
花白	-10.3735
山藥	-10.3743
花下	-10.3745
又詩	-10.3745
之餘	-10.3748
求之	-10.3774
一云	-10.3779
不忍	-10.378
州有	-10.3782
最多	-10.3789
向日	-10.379
二丈	-10.3791
上苑	-10.3792
緻	-10.3796
莆	-10.3799
樟	-10.38
喙	-10.3804
填	-10.3805
踐	-10.3805
噫	-10.3807
庫	-10.3809
夹	-10.3811
蓍	-10.3811
曷	-10.3811
毁	-10.3811
風動	-10.3811
稼	-10.3811
謙	-10.3812
邇	-10.3812
胥	-10.3813
旣	-10.3813
毅	-10.3814
靑	-10.3814
剔	-10.3816
并序	-10.3819
鍊	-10.382
膝	-10.3823
文賦散句	-10.3823
杭州	-10.3823
塵埃	-10.3825
姜	-10.3825
故園	-10.3826
樟腦	-10.3827
段	-10.3829
衞	-10.383
可種	-10.3832
南枝	-10.3832
江水	-10.3833
為人	-10.3842
百卉	-10.3843
細剉	-10.3844
麻子	-10.3845
唐人	-10.3849
皇帝	-10.385
至秋	-10.3865
永嘉	-10.3865
緑色	-10.3878
有花	-10.3879
蔓延	-10.388
根下	-10.3886
采根	-10.3893
收藏	-10.3901
兒女	-10.3902
所生	-10.3905
其氣	-10.3906
而自	-10.391
下種	-10.3911
東山	-10.3914
圓而	-10.3942
佳品	-10.3967
民間	-10.3969
芸香	-10.3973
為墨池	-10.3979
白蜜	-10.3981
山隂	-10.3994
芳香	-10.3995
丈餘	-10.3998
歙州	-10.3998
鱸	-10.3999
十七	-10.4006
亦無	-10.4012
盗	-10.4013
冥	-10.4016
一色	-10.4016
騐	-10.4017
森森	-10.4017
憔悴	-10.4017
斬	-10.4017
拙	-10.4018
倩	-10.402
抛	-10.4021
析	-10.4021
壞	-10.4022
桞	-10.4024
帽	-10.4025
麟	-10.4025
杓	-10.4026
淒	-10.4027
詩注	-10.4027
髯	-10.4028
創	-10.4028
多種	-10.4028
禄	-10.4029
苐	-10.4029
佇	-10.4029
尸	-10.4031
芙蕖	-10.4033
林中	-10.4034
識者	-10.4034
著花	-10.4039
碗	-10.4042
士大夫	-10.4042
青春	-10.4044
四五尺	-10.4044
州刺史	-10.4044
飄零	-10.4045
魚一名	-10.4045
水澆	-10.4045
髙可	-10.4049
右一品	-10.4051
用鹽	-10.4053
而尖	-10.4053
白雪	-10.4056
夜深	-10.4058
名花	-10.4062
其類	-10.4064
石質	-10.4075
真香	-10.4081
依舊	-10.4088
新羅	-10.4093
手自	-10.4095
産茶	-10.4096
而堅	-10.4098
服食	-10.4099
依然	-10.41
久之	-10.41
一字	-10.4102
不若	-10.4108
其為	-10.4108
白檀香	-10.411
蕉葉	-10.411
香滿	-10.4114
桐花	-10.4116
不到	-10.4123
夏至	-10.4137
衣香	-10.4147
杜鵑	-10.415
五箇	-10.4155
方可	-10.4155
光澤	-10.4158
復有	-10.4159
世所	-10.4161
不出	-10.4162
春歸	-10.4173
和劑	-10.4174
同心	-10.4177
李氏	-10.4181
東方	-10.4188
淺深	-10.4191
秋日	-10.4208
抵	-10.421
春時	-10.4212
淡紅	-10.4216
以成	-10.422
攸	-10.4223
柚	-10.4224
礬	-10.4225
文帝	-10.4226
洽	-10.423
樞	-10.4231
花時	-10.4232
菁	-10.4233
朕	-10.4235
苣	-10.4236
悵	-10.4236
一面	-10.4236
栝	-10.4238
寥	-10.4238
鄒	-10.4239
渥	-10.4239
偃蹇	-10.4239
誰與	-10.4239
什	-10.424
敎	-10.4241
㫁	-10.4242
革	-10.4243
褒	-10.4243
曙	-10.4244
庸	-10.4244
灘	-10.4246
荑	-10.4246
渺	-10.4246
羃	-10.4246
癰腫	-10.4247
仗	-10.4248
名之	-10.4248
潄	-10.425
懶	-10.425
之説	-10.4252
離騷	-10.4256
同時	-10.4257
黄熟香	-10.4258
蛀	-10.4258
如小	-10.426
刻作	-10.4265
號曰	-10.4267
熟則	-10.4269
錢塘	-10.427
白芨	-10.4271
六七	-10.4274
紫芝	-10.4281
江梅	-10.4281
可惜	-10.4287
澆灌	-10.4287
不言	-10.4289
不似	-10.429
政和	-10.4292
觀之	-10.4299
註云	-10.4307
沉檀	-10.431
通寳錢	-10.4311
仙子	-10.433
蘭亭	-10.4338
當歸	-10.4341
二品	-10.4343
春來	-10.436
露華	-10.437
二升	-10.4373
人謂	-10.438
十數	-10.4381
雜志	-10.4384
一兩半	-10.4385
與此	-10.4389
之士	-10.44
與君	-10.4409
酒杯	-10.4416
一叢	-10.4419
誰能	-10.4423
切作	-10.4425
荚	-10.4431
桑葉	-10.4431
夭桃	-10.4438
飲茶	-10.4438
人取	-10.4444
决	-10.4454
猿	-10.4456
風日	-10.4458
煠	-10.4458
鱠	-10.4458
譬	-10.4459
嘲	-10.4459
斵	-10.446
籟	-10.446
瑰	-10.446
叠	-10.446
醢	-10.4461
可觀	-10.4461
垢	-10.4462
其家	-10.4462
縞	-10.4463
厲	-10.4464
鬯	-10.4464
纓	-10.4465
酷	-10.4465
韓偓	-10.4465
莓苔	-10.4466
㵼	-10.4466
楹	-10.4466
燼	-10.4467
縠	-10.4468
皴	-10.4468
麪	-10.4469
蠱毒	-10.447
礙	-10.447
阜	-10.447
途	-10.4471
豈不	-10.4471
䑓	-10.4472
灼灼	-10.4473
苓	-10.4474
乾坤	-10.4474
九華	-10.4474
貴妃	-10.448
若乃	-10.4481
二三月	-10.4482
中央	-10.4484
只有	-10.4489
斷腸	-10.4489
薛能	-10.4492
山多	-10.4495
葉細	-10.4495
收貯	-10.4498
有情	-10.4498
玉樹	-10.4505
結實如	-10.4513
春月	-10.4534
竹林	-10.455
春初	-10.4556
觀其	-10.4556
種類	-10.4565
木槿	-10.4565
春夏	-10.4566
采采	-10.4566
大豆	-10.4567
玉女	-10.4568
錢按	-10.4572
正色	-10.4573
猶在	-10.4575
又以	-10.4579
俗呼為	-10.4579
生于	-10.4583
對曰	-10.4584
甘棠	-10.4587
成隂	-10.4592
妃子	-10.4602
三升	-10.4617
仁宗	-10.4621
鐫御題銘一首楷書鈐寳	-10.4621
琢為	-10.4624
有異	-10.4627
花頭	-10.4632
長短	-10.4634
江頭	-10.4636
舶	-10.4653
金谷	-10.4653
何所	-10.466
芷	-10.4662
臨水	-10.4663
生苗	-10.4665
莫不	-10.467
五出	-10.4673
楝	-10.4681
醜	-10.4681
萋萋	-10.4682
敦	-10.4682
細末	-10.4685
云是	-10.4686
岫	-10.4686
汀	-10.4687
詰	-10.4687
戌	-10.4691
醖	-10.4691
陳紫	-10.4692
榻	-10.4692
等謹案	-10.4693
僻	-10.4695
卦	-10.4695
乾隆	-10.4695
沿	-10.4695
孟郊	-10.4696
靨	-10.4696
俊	-10.4696
芬馥	-10.4697
効	-10.4698
曵	-10.47
丰	-10.47
傑	-10.4701
姚合	-10.4701
篤耨	-10.4705
花實	-10.4706
鷹	-10.4706
嘉樹	-10.4706
百姓	-10.4708
諺云	-10.4709
蘇合香	-10.4711
方岳	-10.4714
硝	-10.4716
暮春	-10.472
晝夜	-10.4723
丞相	-10.4723
廣志云	-10.473
占城	-10.4738
小麥	-10.4739
遣使	-10.474
神仙傳	-10.4742
三字	-10.4743
車馬	-10.4744
器中	-10.4744
於上	-10.4747
耐久	-10.475
非也	-10.4751
南國	-10.4761
始知	-10.4764
城中	-10.4776
臨海	-10.4784
之美	-10.4785
煑熟	-10.4786
而下	-10.4786
枝枝	-10.4794
養之	-10.48
七八月	-10.4801
春雨	-10.4802
相逢	-10.4802
所見	-10.4809
中庭	-10.4814
蛟	-10.4818
器物	-10.482
王母	-10.4829
匣盖	-10.4829
滿庭	-10.4829
黄丹	-10.4837
周公	-10.4848
落英	-10.485
刮	-10.4852
二物	-10.4853
成林	-10.4856
此魚	-10.4856
相如	-10.4869
紅葉	-10.4871
五七	-10.4877
髙枝	-10.4884
亦云	-10.4884
葉長	-10.4895
豬	-10.4905
之盛	-10.4905
碧色	-10.4908
距	-10.491
戚	-10.4912
貺	-10.4914
仙家	-10.4915
橢	-10.4915
一統志	-10.4916
棟梁	-10.4918
遵	-10.4919
孺	-10.4919
䖍	-10.4919
搴	-10.4919
哲	-10.492
専	-10.492
庖	-10.4921
劉禹錫	-10.4921
隈	-10.4922
役	-10.4922
耿	-10.4923
每日	-10.4923
沁	-10.4923
菡蓞	-10.4923
攝	-10.4924
碑	-10.4924
璫	-10.4924
霏霏	-10.4925
蹋	-10.4926
濺	-10.4926
謾	-10.4927
乾清宫	-10.4928
税	-10.4928
測	-10.4928
栽培	-10.4929
絞	-10.4929
欝	-10.4929
刋	-10.4929
澁	-10.493
麄	-10.4931
椽	-10.4931
縱横	-10.4931
查	-10.4933
釡	-10.4934
揖	-10.4937
冷氣	-10.4938
百日	-10.4938
中出	-10.494
更無	-10.4942
風前	-10.4946
山水	-10.4947
樹之	-10.4951
蕎麥	-10.4954
真臘	-10.4955
水面	-10.4956
糖霜	-10.4964
何年	-10.4965
四錢	-10.4965
其本	-10.4971
南州	-10.4971
東閣	-10.4982
云云	-10.4988
花前	-10.499
不獨	-10.4995
外有	-10.4996
有節	-10.4997
雨聲	-10.5005
見一	-10.5005
以備	-10.5006
右件用	-10.5011
井水	-10.5011
胸中	-10.5015
莊子	-10.5018
秋光	-10.502
泰山	-10.5033
紫雲	-10.5036
黄柑	-10.504
本草綱目云	-10.5048
有四	-10.505
之令	-10.5054
他年	-10.5061
者非	-10.5066
孤根	-10.5068
妨	-10.5073
次年	-10.5082
日中	-10.5085
賦曰	-10.5087
無心	-10.5087
之意	-10.5097
城東	-10.5102
所得	-10.5109
無聲	-10.511
者為上	-10.5111
錦繡	-10.5112
一箇	-10.5117
貯之	-10.512
入貢	-10.5127
水出焉	-10.5128
晶	-10.5129
漉	-10.5131
辟邪	-10.5134
生苖	-10.5139
一花	-10.514
不肯	-10.5142
者良	-10.5142
則無	-10.5143
瓦硯	-10.5145
分明	-10.5146
亦以	-10.5147
亦有之	-10.5149
帥	-10.515
些	-10.5152
飬	-10.5153
棣	-10.5154
晞	-10.5154
應是	-10.5154
窪	-10.5157
慧	-10.5157
忘憂	-10.5158
茫	-10.5159
拒	-10.5159
隰	-10.5159
萊	-10.516
枉	-10.516
飇	-10.5161
虢	-10.5161
堇	-10.5161
風土記	-10.5162
猗	-10.5162
阻	-10.5162
唐太宗	-10.5163
罐	-10.5163
鞠	-10.5163
霓裳	-10.5164
暝	-10.5164
頑	-10.5165
臻	-10.5165
邈	-10.5166
携	-10.5166
賽	-10.5167
陳與義	-10.5167
箆	-10.5167
責	-10.5167
脾胃	-10.5168
嵐	-10.5168
層層	-10.5168
亟	-10.5168
恣	-10.5168
未識	-10.5171
有二種	-10.5171
髣髴	-10.5174
隻	-10.5174
嚥	-10.5176
王氏	-10.5176
屠	-10.5176
装	-10.5179
復生	-10.5188
此品	-10.5191
躑躅	-10.5196
茶譜	-10.5199
唐李	-10.5205
清霜	-10.5207
光彩	-10.5212
進士	-10.5216
說硯	-10.5218
郎中	-10.5223
花枝	-10.5225
茶味	-10.5225
瓶中	-10.5226
合香	-10.5229
宫人	-10.5229
香烟	-10.5244
而圓	-10.5245
前有	-10.525
雪裏	-10.5251
雖有	-10.5252
内府	-10.5252
云此	-10.5262
陽縣	-10.5264
腦子	-10.5265
無鱗	-10.5269
姚黄	-10.5274
八年	-10.5275
重臺	-10.5286
君王	-10.5298
以供	-10.5299
蒸之	-10.5299
一觔	-10.53
之外	-10.5301
王者	-10.5302
諸山	-10.5311
之月	-10.5312
亦佳	-10.5314
空山	-10.5316
貴人	-10.5326
花經	-10.5331
一石	-10.5332
言之	-10.5343
相連	-10.5353
地黄	-10.5359
緑隂	-10.5377
春分	-10.5379
驪	-10.5381
相間	-10.5384
霜露	-10.5388
得此	-10.539
蹄	-10.5392
敞	-10.5397
輟	-10.5398
禹貢	-10.5398
稟	-10.5401
屯	-10.5401
墨鏽	-10.5401
陟	-10.5402
捐	-10.5402
逓	-10.5403
呂	-10.5403
掖	-10.5403
瓮	-10.5403
頸	-10.5404
慣	-10.5404
秀色	-10.5404
幃	-10.5404
攷	-10.5405
淄	-10.5405
範	-10.5405
瑟	-10.5406
挼	-10.5407
諧	-10.5407
構	-10.5407
宋韓琦	-10.5407
帆	-10.5407
閟	-10.5408
藩	-10.541
匾	-10.5411
䦨干	-10.5412
紅塵	-10.5412
唐王維	-10.5413
各一錢	-10.5413
疲	-10.5413
鴻漸	-10.5413
糠	-10.5413
皁	-10.5415
導	-10.5417
蚓	-10.5417
攤	-10.5418
未見	-10.5418
兒童	-10.5419
員外	-10.542
肚	-10.5421
檐	-10.5421
漢武帝	-10.5424
冗	-10.5428
前人	-10.5429
雨餘	-10.5429
宋歐陽修	-10.543
樓臺	-10.5455
蒼翠	-10.5464
合抱	-10.5465
龍鱗	-10.5473
十丈	-10.5483
修治	-10.5486
凌雲	-10.5489
深淺	-10.5492
江陵	-10.5498
河東	-10.5498
襲人	-10.5502
輕盈	-10.5504
蘇州	-10.5504
大如指	-10.5506
寺僧	-10.5509
左傳	-10.5509
深處	-10.5512
烹茶	-10.5514
何足	-10.5515
之竒	-10.5516
歲寒	-10.5517
不老	-10.552
苦竹	-10.5524
日用	-10.5525
八九	-10.5528
另研	-10.5529
青苔	-10.5532
諸名	-10.5535
弟子	-10.5535
檀心	-10.5551
出水	-10.5551
寒暑	-10.556
南中	-10.5563
細細	-10.5564
出于	-10.5567
今按	-10.5568
状如	-10.5575
如蜜	-10.5576
向陽	-10.558
一半	-10.5581
陽氣	-10.5584
二錢半	-10.5588
青翠	-10.559
之美者	-10.5592
速香	-10.56
他日	-10.561
城南	-10.5616
棉	-10.5624
不厭	-10.5628
縣有	-10.5637
蘇轍	-10.5641
漂	-10.5645
誥	-10.5647
虧	-10.5647
嬾	-10.5648
辯	-10.565
燎	-10.565
夢溪筆談	-10.5651
侔	-10.5651
懿	-10.5651
鈞	-10.5652
周庾信	-10.5652
糜	-10.5653
刃	-10.5653
羸	-10.5654
耗	-10.5655
佩之	-10.5655
凛	-10.5655
槃	-10.5655
家有	-10.5656
廉	-10.5656
宋司馬光	-10.5657
顰	-10.5657
以後	-10.5658
冩	-10.5658
茝	-10.5659
韋莊	-10.566
鞍	-10.566
鸚鵡	-10.566
嵌	-10.5662
儂	-10.5663
空中	-10.5666
折枝	-10.5667
罩	-10.5668
柳色	-10.5674
葉圓	-10.5675
一次	-10.5677
宋黄庭堅	-10.5678
旃檀	-10.5679
盧橘	-10.5684
露滴	-10.5686
甘蔗	-10.5687
池塘	-10.5693
松蘿	-10.57
數千	-10.57
王維	-10.5702
為最	-10.5704
甚佳	-10.5707
同前	-10.571
丁皮	-10.571
不禁	-10.5719
萬嵗	-10.5723
鳳池	-10.5727
蒼蒼	-10.573
不妨	-10.573
五六寸	-10.5737
也故	-10.5738
不湏	-10.5739
腹痛	-10.5745
二株	-10.5748
蘭蕙	-10.5757
綠色	-10.5761
石灰	-10.5761
他處	-10.5765
無端	-10.5767
或如	-10.5769
外國	-10.5771
未可	-10.5772
以紙	-10.5779
何物	-10.5783
秋月	-10.5786
官桂	-10.5786
吳中	-10.5797
此則	-10.5798
久則	-10.5801
凌霜	-10.5803
人以為	-10.5805
而出	-10.5807
花心	-10.5809
鮮明	-10.5824
桂林	-10.5824
因其	-10.5832
人呼	-10.5837
二人	-10.5838
肥地	-10.5846
山人	-10.5854
七八	-10.5856
未成	-10.5864
而實	-10.5866
葭	-10.5885
六七月	-10.5893
迎風	-10.5896
把酒	-10.5897
始生	-10.5899
蓀	-10.5899
不朽	-10.59
巻	-10.5904
紅絲	-10.5905
奮	-10.5905
槩	-10.5906
埃	-10.5906
秋冬	-10.5906
蹤	-10.5906
劉克莊	-10.5906
儔	-10.5907
磚	-10.5907
磬	-10.5908
榜	-10.5909
捨	-10.5909
蘆花	-10.591
藹	-10.5911
濛	-10.5911
時時	-10.5911
羨	-10.5914
鉉	-10.5914
蜃	-10.5915
遁	-10.5915
頼	-10.5915
六出	-10.5915
冕	-10.5915
耆	-10.5915
姝	-10.5916
閏	-10.5917
曄	-10.5917
罅	-10.5918
嘴	-10.5919
葫蘆	-10.5919
抹	-10.5919
𠻳	-10.592
綰	-10.5921
宛轉	-10.5922
公曰	-10.5924
淫	-10.5924
眩	-10.5925
宋王安石	-10.5926
銚	-10.5929
許渾	-10.593
終不	-10.5934
蠣	-10.5936
湖州	-10.5937
三千	-10.5938
右軍	-10.5942
㸃綴	-10.5946
朝日	-10.5947
薰風	-10.5947
傾城	-10.5948
後漢書	-10.595
乃有	-10.595
五百	-10.5952
山川	-10.5952
絶句	-10.5953
太宗	-10.5955
之用	-10.5957
落盡	-10.5964
葉尖	-10.5969
金盞	-10.5969
禮記	-10.597
雲南	-10.5972
不惜	-10.5974
長松	-10.5978
大樹	-10.5983
葉底	-10.5991
向人	-10.6013
龍團	-10.6015
諸州	-10.6017
後世	-10.6018
而香	-10.6025
半開	-10.6028
冬夏	-10.6031
黄帝	-10.6048
早春	-10.6056
百果	-10.6062
長卿	-10.6064
有時	-10.6069
明朝	-10.6069
新妝	-10.6072
一名馬	-10.6077
惡氣	-10.6078
山僧	-10.6089
名園	-10.6093
造物	-10.6094
元和	-10.6097
老夫	-10.6102
春生	-10.6103
人生	-10.6106
堪作	-10.6109
盆中	-10.6114
夏秋	-10.6129
上人	-10.6138
晉郭璞	-10.614
人知	-10.6144
老子	-10.6148
一處	-10.615
更有	-10.6152
所種	-10.6161
枲	-10.6162
品類	-10.6163
寂寥	-10.6165
裘	-10.6167
瘁	-10.6168
薝蔔	-10.6168
堕	-10.617
赬	-10.617
蟄	-10.617
茈	-10.617
磊落	-10.6171
膳	-10.6171
夘	-10.6171
猗猗	-10.6171
虯	-10.6171
甘酸	-10.6171
涕	-10.6171
剥蝕	-10.6172
清異錄	-10.6172
不變	-10.6172
恱	-10.6173
甘香	-10.6173
鞏	-10.6173
㸑	-10.6173
甆	-10.6173
夜雨	-10.6174
酉陽雜爼	-10.6174
筩	-10.6175
遞	-10.6175
究	-10.6176
凖	-10.6177
𣺌	-10.6178
泓	-10.6178
銳	-10.6178
徂	-10.6179
複	-10.6179
聰	-10.6179
碁	-10.618
旖旎	-10.618
煨	-10.6181
峙	-10.6182
一法	-10.6184
何妨	-10.6184
滲	-10.6185
邢	-10.6186
晒乾	-10.6186
少時	-10.6186
君子之	-10.6187
畵	-10.6187
大寒	-10.6187
竪	-10.6188
寐	-10.6189
絨	-10.6191
純白	-10.6191
又有一種	-10.6194
芩	-10.6199
厚二寸	-10.62
廣雅	-10.62
陽春	-10.6203
端午	-10.6203
翠袖	-10.6209
公主	-10.6211
宣城	-10.6222
衣裳	-10.6225
瑶池	-10.6227
初出	-10.623
日乾	-10.623
豐年	-10.623
嫩時	-10.6244
惟此	-10.625
名山	-10.6254
五更	-10.6258
其餘	-10.626
與之	-10.6261
斜陽	-10.6266
風月	-10.6268
去之	-10.6283
三四尺	-10.6293
地上	-10.6297
百藥	-10.6305
者則	-10.6306
滋味	-10.6313
所植	-10.632
絶品	-10.6322
席上	-10.6322
河南	-10.6326
愛之	-10.6333
春深	-10.6333
承露	-10.6334
不一	-10.6334
珍重	-10.6343
千株	-10.6344
形製	-10.6345
世傳	-10.6351
未得	-10.6352
而上	-10.6357
自生	-10.6366
而多	-10.6366
色味	-10.6368
秋菊	-10.638
豈知	-10.6385
春寒	-10.6406
先春	-10.6407
樹上	-10.6415
佞	-10.6423
嬌紅	-10.6423
薏苡	-10.6423
蠅	-10.6427
寔	-10.6429
疫	-10.6431
有小毒	-10.6436
百合	-10.6436
輪囷	-10.6437
做	-10.6438
禱	-10.6438
伽	-10.6439
穹	-10.6439
慨	-10.6441
磊	-10.6441
呵	-10.6442
颺	-10.6442
腸胃	-10.6443
柤	-10.6443
盎	-10.6444
凄	-10.6445
盜	-10.6445
辦	-10.6445
尤多	-10.6445
崩	-10.6446
劉子翬	-10.6446
石理	-10.6446
仞	-10.6447
兎絲	-10.6448
榭	-10.6449
青絲	-10.6449
黔	-10.6449
僚	-10.645
輕紅	-10.645
榨	-10.6451
翩翩	-10.6452
擾	-10.6452
厄	-10.6452
掠	-10.6454
迨	-10.6454
坼	-10.6455
斧斤	-10.6455
爛熳	-10.6456
黄山志	-10.6457
秔	-10.6457
逞	-10.6458
顏	-10.646
内外	-10.6461
傳云	-10.6463
搓	-10.647
活眼	-10.648
雞舌香	-10.6481
天寒	-10.6481
只恐	-10.6482
覆之	-10.6484
無一	-10.6485
燒灰	-10.6493
銀杏	-10.6501
酸棗	-10.6501
褐色	-10.6503
秦觀	-10.6505
滿枝	-10.6513
以鹽	-10.6514
日照	-10.6515
採茶	-10.6517
衆木	-10.6519
老則	-10.6527
夫子	-10.6531
紋如	-10.6531
候冷	-10.6534
吳人	-10.6538
六十	-10.6542
一條	-10.6543
而食之	-10.6544
一名地	-10.6546
數丈	-10.6557
四五月	-10.6559
遂為	-10.6561
密葉	-10.6561
二曰比徳曰朗潤	-10.6567
以下	-10.6572
隨意	-10.6574
蒸熟	-10.6575
一夕	-10.6579
一名白	-10.658
甘泉	-10.6581
中空	-10.6581
三卷	-10.6581
知之	-10.6603
最為	-10.6605
生根	-10.6607
香餅	-10.6612
陳皮	-10.6615
嘉名	-10.6615
小桃	-10.6636
金陵	-10.6638
為我	-10.6645
未能	-10.6646
葷	-10.6649
香美	-10.6657
語曰	-10.6667
嘉祐	-10.6668
歸来	-10.6679
一聲	-10.668
為一	-10.6687
玉泉	-10.669
落日	-10.6697
歎曰	-10.6698
飼	-10.67
蘭花	-10.6701
貴重	-10.6705
霰	-10.6707
拾遺	-10.6708
稅	-10.6708
作羮	-10.6708
繒	-10.6709
儻	-10.6712
方印一	-10.6712
牒	-10.6716
薜荔	-10.6716
周必大	-10.6717
撼	-10.6718
摭	-10.6719
出入	-10.672
夸	-10.672
毗	-10.672
咎	-10.6721
㸃㸃	-10.6721
两	-10.6722
肌膚	-10.6723
布葉	-10.6723
黄華	-10.6723
剰	-10.6724
悔	-10.6724
伸	-10.6724
山丹	-10.6725
麯	-10.6725
呌	-10.6726
炯	-10.6726
恥	-10.6727
跨	-10.6727
雋	-10.6727
卽	-10.6727
靚	-10.6728
煌	-10.6729
不饑	-10.6729
氛	-10.6731
篋	-10.6731
癭	-10.6731
瑪	-10.6732
泠	-10.6732
蘼蕪	-10.6732
摶	-10.6733
陜西	-10.6733
奎	-10.6734
五六尺	-10.6734
明李東陽	-10.6735
躁	-10.6736
彈丸	-10.6738
若有	-10.6739
盃	-10.674
佛頂	-10.6741
棚	-10.6745
宋王	-10.6745
唐韓愈	-10.6749
黒色	-10.675
楚辭	-10.6752
無事	-10.6752
秋水	-10.6758
温無毒主	-10.6766
睡起	-10.6766
籬邊	-10.6769
羙人	-10.6773
廣陵	-10.6778
漢武	-10.6782
未足	-10.6784
于是	-10.6786
建溪	-10.6787
諸菊	-10.6788
金石	-10.6788
澤中	-10.6795
夜月	-10.6795
印香	-10.6798
觀音	-10.6803
清芬	-10.6804
益人	-10.6806
一般	-10.6807
菊譜	-10.681
非常	-10.6811
以蜜	-10.6817
姓名	-10.6821
楚客	-10.6821
殺人	-10.6827
不佳	-10.6829
風字	-10.683
根似	-10.684
孤芳	-10.6841
秋雨	-10.6841
明皇	-10.6852
入口	-10.6862
是時	-10.6876
棄之	-10.688
彼人	-10.6881
不歇	-10.6888
交州	-10.6889
天池	-10.6889
差小	-10.689
始見	-10.6892
紫莖	-10.6899
寒梅	-10.6902
四圍	-10.6908
作詩	-10.6914
肉白	-10.6916
以前	-10.6919
二斗	-10.6925
鐫御題詩一首楷書鈐寳	-10.6927
雲氣	-10.6928
翰墨	-10.6942
州郡	-10.6942
孤山	-10.6948
三徑	-10.6949
本朝	-10.6955
北地	-10.6969
盤中	-10.697
棧	-10.697
繁枝	-10.6971
至冬	-10.6974
萬株	-10.6975
月餘	-10.6976
矣今	-10.6979
莫能	-10.6979
陽和	-10.6985
夜合	-10.6986
鋸	-10.6989
元氣	-10.699
昻	-10.6992
賁	-10.6993
苴	-10.6994
瑕	-10.6994
緯	-10.6995
氤氲	-10.6998
禮記月令	-10.7
良久	-10.7
款	-10.7001
炳	-10.7001
卭	-10.7002
野菜譜	-10.7003
張九齡	-10.7003
濱	-10.7004
瀾	-10.7004
琥珀	-10.7005
租	-10.7005
囿	-10.7007
綽約	-10.7007
巡	-10.7008
霖	-10.7008
簿	-10.7008
柟	-10.7008
缾	-10.7009
止渇	-10.7009
泫	-10.7009
哥	-10.701
雌雄	-10.701
譏	-10.7011
斸	-10.7011
囬	-10.7011
頒	-10.7011
闌干	-10.7011
嶼	-10.7011
几案	-10.7011
姑射	-10.7012
鼔	-10.7012
奕	-10.7013
華林園	-10.7014
千畝	-10.7015
緜	-10.7015
逝	-10.7016
金銀	-10.7016
涉	-10.7016
熖	-10.7017
消渇	-10.7017
凸	-10.7018
痔	-10.7019
狼籍	-10.702
罈	-10.702
拖	-10.7021
筠籠	-10.7021
旺	-10.7021
忽有	-10.7022
濫	-10.7022
棣棠	-10.7023
闊	-10.7023
雀舌	-10.7024
薄而	-10.7026
九月九日	-10.7027
無以	-10.7027
蓓蕾	-10.7029
安息香	-10.703
福建	-10.7031
生青熟	-10.7032
博士	-10.7034
切片	-10.704
其筍	-10.7041
人力	-10.7042
陳藏器曰	-10.7044
平地	-10.7046
回首	-10.7047
半觔	-10.7051
其次	-10.7052
治風	-10.7052
勁節	-10.7056
有感	-10.706
曰臣	-10.7064
海外	-10.7066
欣然	-10.7068
江西	-10.7069
柔條	-10.7075
五字	-10.708
曰蟹	-10.708
吳興	-10.7084
風飄	-10.7085
平頭	-10.7093
松脂	-10.7094
我欲	-10.7098
收之	-10.7101
異常	-10.7104
别離	-10.7108
經宿	-10.7109
盆内	-10.7109
飛燕	-10.7113
不壊	-10.7116
白頭	-10.7119
一畝	-10.7119
不知何	-10.712
此地	-10.7125
入土	-10.7131
又似	-10.7145
西蜀	-10.7146
中鐫	-10.7146
登髙	-10.7154
火齊	-10.716
不類	-10.7164
劉郎	-10.7166
有數種	-10.7172
秋蘭	-10.7173
亦未	-10.7174
相近	-10.7177
冰霜	-10.7178
樂府	-10.7178
牛羊	-10.7181
迎春	-10.7187
府志	-10.7196
鑄錢	-10.7199
嵗月	-10.7203
是知	-10.7204
何須	-10.7208
貢茶	-10.721
先用	-10.721
爰有	-10.7214
始開	-10.7214
沉沉	-10.7218
蜜和	-10.7222
近世	-10.7225
巖桂	-10.7229
白梅	-10.7236
所宜	-10.7246
芳意	-10.7252
水邊	-10.7258
巖石	-10.7265
漚	-10.727
玉蘭	-10.7275
芎藭	-10.7276
七寸	-10.7278
鈐	-10.7281
濕地	-10.7285
鵝黄	-10.7287
鬟	-10.7287
悠	-10.729
墳	-10.7292
電	-10.7294
溺	-10.7294
郵	-10.7295
道家	-10.7295
上林苑	-10.7296
人面	-10.7296
芊	-10.7298
蚤	-10.7298
隄	-10.7298
裕	-10.7299
火燒	-10.7299
抄	-10.73
溟	-10.7301
軸	-10.7302
沛	-10.7302
勲	-10.7303
醤	-10.7303
販	-10.7303
蔴	-10.7304
憎	-10.7304
艱	-10.7304
驕	-10.7305
妒	-10.7305
白樂天	-10.7305
霍	-10.7305
唾	-10.7305
姥	-10.7306
鉤	-10.7307
掲	-10.7309
至此	-10.7309
瀟湘	-10.7309
㶚	-10.731
一顆	-10.731
颯	-10.7311
㡌	-10.7314
荈	-10.7315
迦	-10.7315
的皪	-10.7315
虎邱	-10.7315
邵雍	-10.7317
臆	-10.7317
姸	-10.7319
元豐	-10.7328
揀芽	-10.733
决明	-10.7338
字楷書	-10.7352
堪為	-10.7357
七星	-10.7368
同名	-10.7368
者為勝	-10.7372
老圃	-10.7372
茂盛	-10.7375
友人	-10.7385
識語	-10.7391
頗類	-10.7392
不堪用	-10.7393
詩句	-10.7397
莖青	-10.7398
益精	-10.74
小松	-10.7401
火山	-10.7403
千古	-10.7405
其功	-10.7415
靈根	-10.7422
須用	-10.7425
陶令	-10.743
曉露	-10.7434
珠簾	-10.7435
後主	-10.7446
每嵗	-10.7448
當是	-10.7449
不解	-10.7457
清逺	-10.7462
飛去	-10.7462
硯首	-10.7473
金玉	-10.748
可喜	-10.7488
煎湯	-10.749
卷四	-10.7497
三四月	-10.7498
之事	-10.7499
建州	-10.7501
銘曰	-10.7502
夢中	-10.7503
雲母	-10.7503
菜一名	-10.751
十枚	-10.7524
丹陽	-10.7528
大約	-10.7529
隨風	-10.753
黄赤	-10.7532
太和	-10.7537
龍門	-10.7538
映日	-10.7539
乃是	-10.7541
百六十	-10.7543
漁人	-10.755
寄生	-10.7561
東北	-10.7562
鯤	-10.7567
衙	-10.757
金縷	-10.757
無語	-10.758
柞	-10.7582
娑羅	-10.7589
最佳	-10.759
螫	-10.7591
金橘	-10.7592
蠡	-10.7595
义	-10.7595
檉	-10.7596
摹	-10.7596
夙	-10.7596
軰	-10.7597
護	-10.7598
潦	-10.7598
帙	-10.7599
璣	-10.7599
螖	-10.76
拏	-10.76
冐	-10.7601
斟	-10.7602
箸	-10.7602
返魂	-10.7602
頤	-10.7603
婀娜	-10.7603
甄	-10.7603
芻	-10.7603
自號	-10.7604
蓊	-10.7604
陸㳺	-10.7604
芟	-10.7604
匣盖並鐫是詩𨽻書鈐寳	-10.7606
脛	-10.7606
丹鉛	-10.7607
十株	-10.7608
刺史	-10.7608
坤	-10.7608
疉	-10.7608
縑	-10.7608
葆	-10.7609
㕘	-10.7609
昊	-10.7609
南越志	-10.761
準	-10.761
鱟	-10.7611
篔簹	-10.7611
薹	-10.7611
藂	-10.7612
鐸	-10.7612
擕	-10.7613
逃	-10.7613
篾	-10.7614
所製	-10.7614
蛛	-10.7614
玳瑁	-10.7615
攬	-10.7615
疆	-10.7615
木瓜	-10.7617
鯽魚	-10.7617
元祐	-10.7618
悵望	-10.7619
西王母	-10.7619
鄂	-10.762
剡	-10.7621
潁	-10.7621
蒺藜	-10.7621
殺蟲	-10.7625
閉門	-10.7626
陶潛	-10.7627
圈	-10.7627
猫	-10.7627
陽羡	-10.7629
三分許	-10.7633
石楠	-10.7633
稉	-10.7634
紅藥	-10.7634
沙糖	-10.7634
研細	-10.7636
暴乾	-10.7638
蟹螯	-10.7642
昨日	-10.7642
宋范成大	-10.7645
北斗	-10.7645
志云	-10.7645
其事	-10.7647
長沙	-10.7649
流鶯	-10.7652
地名	-10.7652
樓上	-10.7653
三春	-10.7653
樽前	-10.766
太湖	-10.766
幽姿	-10.7664
變化	-10.7664
城西	-10.7665
君不見	-10.7667
碧雲	-10.7683
其名曰	-10.7684
龍鬚	-10.7686
造茶	-10.7689
開白花	-10.7689
腹下	-10.7692
東風吹	-10.7693
幾時	-10.7694
知是	-10.7703
臘茶	-10.7704
色淡	-10.7706
本紀	-10.7709
眀年	-10.7717
下垂	-10.7722
堅實	-10.7728
從容	-10.7731
壓枝	-10.7732
千丈	-10.7735
既而	-10.7742
剖之	-10.7743
一節	-10.7744
宋玉	-10.7745
問之	-10.7746
不動	-10.7751
水煮	-10.7753
山居	-10.7761
子瞻	-10.7762
輕薄	-10.7765
獨自	-10.7768
子由	-10.7788
尖長	-10.7793
紫蘇	-10.7797
多有之	-10.7807
重九	-10.7807
有力	-10.7817
未盡	-10.7822
雪中	-10.783
宿根	-10.7839
南越	-10.7842
古今注	-10.7844
背有	-10.7846
萬條	-10.786
昔有	-10.7863
故能	-10.7865
石湖	-10.7868
陶𢎞景	-10.7875
室中	-10.7879
有竒	-10.7883
白楊	-10.7892
蹊	-10.7893
鯽	-10.7896
成叢	-10.7898
相去	-10.7899
異魚圖贊	-10.79
芼	-10.7901
槿花	-10.7902
劇	-10.7903
睿	-10.7903
書曰	-10.7904
陛下	-10.7905
攣	-10.7905
毳	-10.7906
跳	-10.7909
狎	-10.791
飈	-10.791
財	-10.7911
儘	-10.7911
趺	-10.7912
咬	-10.7913
矗	-10.7913
物志	-10.7913
弦	-10.7913
斥	-10.7914
噀	-10.7914
麈	-10.7914
蓂	-10.7914
濇	-10.7915
娟	-10.7916
中州	-10.7917
樛	-10.7917
厦	-10.7918
不去	-10.7918
淇	-10.7918
嬰	-10.7918
勉	-10.7919
陳藏器云	-10.7919
榆莢	-10.7919
緇	-10.792
惑	-10.792
悄	-10.7921
吉祥	-10.7921
翩	-10.7921
跪	-10.7922
楷	-10.7922
林逋	-10.7922
悠悠	-10.7923
槽	-10.7923
娱	-10.7924
奢	-10.7924
司馬光	-10.7924
茜	-10.7924
蘖	-10.7924
鬱鬱	-10.7924
灣	-10.7925
愛此	-10.7926
膓	-10.7926
韜	-10.7927
墟	-10.7927
鐺	-10.7927
嫩葉	-10.7927
朱櫻	-10.7928
張舜民	-10.7928
越王	-10.7929
坂	-10.793
右為末煉蜜	-10.793
沮	-10.793
炮炙論	-10.7931
炫	-10.7931
曼	-10.7932
瀛	-10.7933
提要	-10.7935
校官	-10.7936
硫黄	-10.794
隋書	-10.794
安石榴	-10.7944
鶴翎	-10.7946
鄧州	-10.7948
秋聲	-10.795
通志	-10.795
臭味	-10.7953
小團	-10.7954
苦菜	-10.7958
鯉魚	-10.7958
如拳	-10.7963
女貞	-10.7965
宻封	-10.7973
供御	-10.7975
鶴頂	-10.7977
下巖	-10.7977
初見	-10.7985
此日	-10.7985
龍麝	-10.7988
唐昌	-10.7988
細研	-10.7989
黃色	-10.7992
太史	-10.7994
何由	-10.7995
滿山	-10.7998
四季	-10.7999
氷雪	-10.7999
頭痛	-10.8002
二三寸	-10.8006
白衣	-10.8009
冬瓜	-10.8015
五尺	-10.8016
比徳	-10.8019
以手	-10.8019
千尺	-10.8027
金華	-10.8031
滿樹	-10.8033
春事	-10.8036
四足	-10.8037
多則	-10.8041
生南海	-10.8045
松風	-10.8052
五里	-10.8052
溪上	-10.8053
扵是	-10.8054
紅蓮	-10.8054
不許	-10.806
金莖	-10.8066
半日	-10.8076
髙丈餘	-10.8076
揺落	-10.8079
紅粉	-10.8084
一番	-10.8097
芳叢	-10.8097
易生	-10.8108
於世	-10.8119
者是也	-10.8124
柏葉	-10.814
者為佳	-10.8151
皮厚	-10.8156
節節	-10.8159
華清	-10.8161
爾乃	-10.8165
歙硯	-10.8168
衆草	-10.8175
九年	-10.8175
幽獨	-10.8177
三斤	-10.8179
即是	-10.818
錢文	-10.8182
子大如	-10.8186
想見	-10.8195
如絲	-10.82
則易	-10.8202
天寳	-10.8204
塵土	-10.8214
山寺	-10.8216
最盛	-10.8218
甎	-10.8222
和氣	-10.8222
祁	-10.8224
覔	-10.8227
巔	-10.823
訴	-10.8231
鱧	-10.8232
牘	-10.8232
莞	-10.8232
文散句	-10.8233
駿	-10.8234
䟽	-10.8234
膺	-10.8236
豌豆	-10.8236
亘	-10.8238
槍	-10.8239
詵	-10.824
曇	-10.824
戯	-10.8242
梅聖俞	-10.8242
偕	-10.8242
椏	-10.8243
東方朔	-10.8244
罽	-10.8244
嫣然	-10.8245
昀	-10.8245
紈	-10.8246
揭	-10.8246
慵	-10.8246
旭	-10.8246
欽定四庫全書子部九	-10.8246
劉敞	-10.8247
濯濯	-10.8247
綽	-10.8247
現	-10.825
𥙷	-10.8251
窨一月	-10.8252
版	-10.8252
荳蔲	-10.8253
郭索	-10.8257
鹿角	-10.826
管子	-10.8261
射干	-10.8261
粳米	-10.8261
鯨	-10.8263
椰子	-10.8266
皇后	-10.8267
張華	-10.8271
蜂蝶	-10.8276
搗羅	-10.8283
頭上	-10.8285
巴豆	-10.8286
片片	-10.8287
蕭條	-10.8289
通考	-10.8289
漉出	-10.8291
金英	-10.8292
香霧	-10.8293
片腦	-10.8308
桑麻	-10.8312
於斯	-10.8313
柏樹	-10.8314
秋來	-10.8318
熬成	-10.8323
玉蘂花	-10.8323
分種	-10.8325
士人	-10.8332
遊人	-10.8334
青女	-10.8335
扣之	-10.8335
十餘日	-10.8341
雲霧	-10.8347
相向	-10.8347
秋深	-10.8347
石之屬	-10.8351
積雪	-10.8356
注曰	-10.8359
新安	-10.8361
桃源	-10.837
殘紅	-10.8372
蟹眼	-10.8374
帶露	-10.8376
冷水	-10.8393
牡丹皮	-10.8396
第四	-10.8398
百丈	-10.84
根莖	-10.8403
肥大	-10.8406
秋露	-10.8414
露濕	-10.8423
千歲	-10.8423
名品	-10.8435
西瓜	-10.8441
三十年	-10.8445
凌寒	-10.8451
色赤	-10.8452
謂曰	-10.8456
覆以	-10.8467
俗謂之	-10.8479
豈非	-10.8485
半夏	-10.849
八兩	-10.8495
蜜香	-10.8497
以進	-10.8501
色類	-10.8502
黄白色	-10.8505
以示	-10.851
驟	-10.8511
眉子	-10.8511
記得	-10.852
所化	-10.8524
楓香	-10.8525
三十六	-10.8527
月夜	-10.8529
鯊	-10.8541
不可以	-10.8545
蘩	-10.8546
橡	-10.8547
稔	-10.8552
陸放翁詩	-10.8553
牟	-10.8554
緝	-10.8558
餅子	-10.8561
置於	-10.8562
鴟	-10.8562
幢	-10.8564
矧	-10.8565
桔梗	-10.8565
李商隠	-10.8566
溉	-10.8566
顒	-10.8566
蔆	-10.8567
乖	-10.8568
蟳	-10.8568
韌	-10.8569
伺	-10.857
窖	-10.857
沅	-10.857
益智	-10.8571
米芾	-10.8571
軫	-10.8571
蹇	-10.8572
鮒	-10.8573
僮	-10.8573
瀨	-10.8573
媒	-10.8574
㾗	-10.8574
蕋	-10.8574
邸	-10.8575
媿	-10.8575
沐浴	-10.8575
藪	-10.8575
笻	-10.8575
煜	-10.8575
孚	-10.8576
侣	-10.8576
月恭校上	-10.8577
蘤	-10.8578
巒	-10.8578
貎	-10.8579
昉	-10.8579
睛	-10.8579
隊	-10.858
鳶	-10.858
赭	-10.858
滷	-10.8581
拒霜	-10.8583
坦	-10.8584
誌	-10.8584
紆	-10.8584
㺯	-10.8587
魔	-10.8587
場	-10.8588
收拾	-10.8589
牙硝	-10.8589
涸	-10.8589
罨	-10.8589
瑶臺	-10.8592
秪	-10.8592
盟	-10.8593
之日	-10.8594
山泉	-10.8598
彭澤	-10.8601
指甲	-10.8602
搖落	-10.8609
蟠桃	-10.8611
􁀙(	-10.8616
諸家	-10.8616
賔客	-10.862
衙香	-10.8626
良薑	-10.8628
諸葛	-10.8636
十餘年	-10.8641
不信	-10.8643
莫教	-10.8648
薔薇水	-10.8652
止血	-10.8652
亞深	-10.8659
任意	-10.8662
傾國	-10.8663
冬日	-10.8664
酒醒	-10.867
從來	-10.8672
其説	-10.8673
成穗	-10.8678
草堂	-10.8686
庭院	-10.8689
炒令	-10.869
以獻	-10.8691
東坡詩	-10.8694
一丸	-10.8705
諸公	-10.871
切細	-10.8713
猶帶	-10.8714
藿香葉	-10.8729
何曽	-10.8733
益州	-10.8739
録云	-10.8744
含桃	-10.8754
溪水	-10.8755
穴中	-10.8757
其核	-10.8757
未聞	-10.8757
頗似	-10.8768
每年	-10.8771
虚心	-10.8771
著意	-10.879
随風	-10.8803
羅衣	-10.8804
愛惜	-10.8809
玉簪	-10.8809
最宜	-10.8809
無核	-10.8809
杜鵑花	-10.8813
生菜	-10.8817
答曰	-10.8825
相映	-10.8828
置酒	-10.8835
曰汝	-10.8839
天工	-10.884
紫菊	-10.8842
二箇	-10.8845
滿林	-10.8848
釋名	-10.8854
形狀	-10.8854
常食	-10.886
舍人	-10.8862
葉落	-10.8863
𣝕	-10.8888
雒	-10.8894
叶	-10.8896
無奈	-10.8897
莠	-10.8903
獺	-10.8905
長三寸	-10.8907
叱	-10.8909
楫	-10.891
誅	-10.891
伍	-10.8911
瑛	-10.8912
二曰幾暇怡情曰得佳趣	-10.8912
申時行	-10.8913
盻	-10.8915
嘔	-10.8915
臧	-10.8915
數種	-10.8916
祚	-10.8916
嗤	-10.8917
恬	-10.8917
寕	-10.8917
弁	-10.8917
詭	-10.8917
爍	-10.8917
韋應物	-10.8917
癎	-10.8918
日暖	-10.8918
桑椹	-10.8918
眷	-10.8918
裾	-10.8919
鑾	-10.8919
闢	-10.8919
歙溪	-10.8919
訟	-10.8919
瘥	-10.892
滂	-10.892
罔	-10.892
弼	-10.892
腕	-10.8921
汶	-10.8921
陸璣詩疏	-10.8921
陸龜䝉	-10.8922
凭	-10.8922
娛	-10.8922
瓌	-10.8923
癰疽	-10.8923
戴復古	-10.8923
漕	-10.8924
笠	-10.8924
水龍吟	-10.8924
膈	-10.8924
蕖	-10.8924
喘	-10.8925
味美	-10.8925
六七尺	-10.8925
猊	-10.8926
蚶	-10.8926
蒻	-10.8926
甲子	-10.8926
髄	-10.8926
魏文帝	-10.8927
駁	-10.8928
秃	-10.8928
梯	-10.8928
須臾	-10.8928
六字	-10.8929
但見	-10.8931
瀘	-10.8932
明周嘉胄撰	-10.8933
澗底	-10.8936
歎息	-10.894
江蘺	-10.8941
腫毒	-10.8941
酵	-10.8942
子猷	-10.8944
彥	-10.8944
陶𢎞景曰	-10.8946
成蹊	-10.8947
所鑄	-10.8947
積聚	-10.8947
吳越	-10.895
銀燭	-10.8952
上黨	-10.8952
到處	-10.8953
種麥	-10.8957
降真	-10.8961
幾度	-10.8969
鬼神	-10.8972
宛然	-10.8981
蓮房	-10.8988
絳雪	-10.8993
猶存	-10.8993
即活	-10.9002
蜜煎	-10.9002
白蘋	-10.9004
子弟	-10.9005
靈草	-10.9009
兩兩	-10.901
終身	-10.9012
採摘	-10.9015
青木香	-10.9017
髙祖	-10.9026
棠棃	-10.9028
其葉如	-10.903
刮去	-10.9036
維揚	-10.9044
夜來	-10.9048
身輕	-10.905
風韻	-10.9051
日曬	-10.9051
開早	-10.9053
那得	-10.9056
衣服	-10.9063
五代	-10.9067
不耐	-10.9069
脚氣	-10.907
紋理	-10.9085
瓊枝	-10.909
河中	-10.9096
凉風	-10.9102
五升	-10.9108
疏云	-10.9117
逺近	-10.9135
清凉	-10.9135
防風	-10.9139
凉州	-10.9146
蓮葉	-10.915
可供	-10.9154
西方	-10.916
赤莖	-10.9163
茄子	-10.9167
廣寒	-10.9179
英華	-10.9182
田野	-10.9189
四尺	-10.9195
先後	-10.9196
東園	-10.9198
年華	-10.9198
大都	-10.9199
莖端	-10.9211
筆硯	-10.9217
蒼龍	-10.923
自憐	-10.924
凌霄	-10.924
十五年	-10.924
還家	-10.9243
皮膚	-10.9244
紫筍	-10.9244
鱣	-10.925
深院	-10.9258
𨽻書鈐寶	-10.9262
蠱	-10.9263
陳繼儒	-10.9264
此意	-10.9266
糅	-10.9266
傘	-10.9266
彬	-10.9266
決	-10.9266
水經注	-10.9266
繄	-10.9266
岷	-10.9267
嗔	-10.9267
孟浩然	-10.9268
仇	-10.9269
挈	-10.9269
虱	-10.9269
轂	-10.9269
鑠	-10.927
九節	-10.927
揷	-10.9271
勺	-10.9271
羔	-10.9271
廼	-10.9272
腑	-10.9272
控乾	-10.9273
組	-10.9273
梁元帝	-10.9273
婁	-10.9273
億	-10.9273
張耒	-10.9274
彪	-10.9274
曦	-10.9274
橫	-10.9274
趾	-10.9274
嬉	-10.9274
賦有序	-10.9275
衮	-10.9275
蕪菁	-10.9275
叅	-10.9275
鴛	-10.9276
晁補之	-10.9276
槌	-10.9276
悅	-10.9276
鮓	-10.9277
峯巒	-10.9277
䟦	-10.9278
臞	-10.9278
宋書符瑞志	-10.9278
褭	-10.9278
袪	-10.9278
搥	-10.9278
冊	-10.9279
娟娟	-10.928
笥	-10.928
說硯髙五寸	-10.928
熒	-10.9281
盪	-10.9281
鵬	-10.9281
盒	-10.9281
餽	-10.9281
縦	-10.9282
隕	-10.9282
頷	-10.9283
渝	-10.9283
珣	-10.9283
吉貝	-10.9284
峡	-10.9284
酷烈	-10.9285
庭珪	-10.9285
陳憲章	-10.9285
醺	-10.9285
閤	-10.9285
鶻	-10.9285
撮	-10.9286
峒	-10.9287
駝	-10.9287
蝶戀花	-10.9287
禪師	-10.9288
脉脉	-10.9288
兜	-10.9288
禍	-10.9289
釜	-10.929
娃	-10.9291
薰陸	-10.9291
熾	-10.9292
梭	-10.9294
瘻	-10.9294
不拘多少	-10.9297
栟櫚	-10.9297
三月三日	-10.9298
溪澗	-10.9299
遊蜂	-10.93
御題	-10.9308
搗碎	-10.931
光輝	-10.931
洗浄	-10.9312
松烟	-10.9316
芳馨	-10.9319
者不可食	-10.9321
章臺	-10.9324
年少	-10.9324
水調	-10.9328
千秋	-10.9329
霜降	-10.9336
解毒	-10.9344
龍蛇	-10.9344
封固	-10.9346
各二兩	-10.9349
晴日	-10.9351
安縣	-10.9351
方物	-10.9354
其狀如	-10.9356
蜜漬	-10.936
四海	-10.9366
朝夕	-10.9367
石首	-10.9372
黄昏	-10.9376
半升	-10.9382
廣州記	-10.9387
通體	-10.9391
徑二寸	-10.9392
此法	-10.9392
無塵	-10.9395
磨墨	-10.9399
客來	-10.9406
老翁	-10.9406
細切	-10.9407
偏宜	-10.9409
十觔	-10.941
白髪	-10.9412
為業	-10.9413
何郎	-10.9416
對此	-10.9416
清晨	-10.9417
海榴	-10.942
林間	-10.9424
朱草	-10.9428
廣南	-10.9434
獨秀	-10.9437
尤甚	-10.9438
王建	-10.9464
百病	-10.9464
藥譜	-10.9468
雞子	-10.9472
樂事	-10.9473
九重	-10.9475
髙麗	-10.9479
髙宗	-10.948
封植	-10.9481
等分	-10.9488
蕙草	-10.9504
一旦	-10.9507
毬子	-10.9514
圃中	-10.9518
洛中	-10.9524
紳	-10.9537
嘗新	-10.9539
所稱	-10.9542
楓葉	-10.9542
河陽	-10.9546
不畏	-10.9547
鱗甲	-10.9554
各二錢	-10.9559
其殻	-10.956
新芽	-10.9566
喉痺	-10.9579
五株	-10.9583
明帝	-10.9587
皮薄	-10.9588
品第	-10.9593
一塊	-10.9594
北土	-10.9605
賦散句	-10.9615
曉風	-10.9617
雞舌	-10.9623
二曰古香曰太璞	-10.9629
紡	-10.9629
茭	-10.963
山其草多	-10.9631
㽔	-10.9632
釐	-10.9634
詫	-10.9635
溥	-10.9636
軌	-10.9636
睨	-10.9637
夏小正	-10.9638
荏	-10.9638
棋	-10.9638
緬	-10.9639
白牡丹	-10.9639
亷	-10.9639
凄凉	-10.9639
壮	-10.9641
朱慶餘	-10.9641
鮎	-10.9641
于若瀛	-10.9642
蓆	-10.9643
猴	-10.9644
宦	-10.9644
瑒	-10.9645
翥	-10.9645
讌	-10.9646
昂	-10.9646
㝷	-10.9646
喉	-10.9646
曺	-10.9647
鱉	-10.9647
鎔	-10.9648
𤨏	-10.9648
九畹	-10.9648
杜陽雜編	-10.9648
店	-10.9648
摛	-10.9649
討	-10.9649
雜爼	-10.965
屐	-10.965
杲	-10.965
圜	-10.965
襪	-10.965
篝	-10.965
潺	-10.9651
蕎	-10.9651
奠	-10.9651
闔	-10.9651
肎	-10.9652
鈔	-10.9652
菀	-10.9652
譜録類	-10.9653
賚	-10.9653
蹟	-10.9653
檀欒	-10.9654
嵇康	-10.9654
疹	-10.9655
饗	-10.9655
憤	-10.9655
蟹詩	-10.9655
桑柘	-10.9655
嵇	-10.9655
觜	-10.9655
淹留	-10.9656
貴賤	-10.9657
蒲萄	-10.9657
勇	-10.9657
凱	-10.9658
糕	-10.9661
三佛齊	-10.9663
礪	-10.9664
聞道	-10.9664
嘉靖	-10.9665
止渴	-10.9667
鱸魚	-10.9668
夣	-10.9668
襄陽	-10.9673
鉛華	-10.9674
八寸	-10.9675
石芝	-10.9676
宗廟	-10.9677
煙雨	-10.9679
仲春	-10.9681
朱欄	-10.9682
長丈餘	-10.9683
崑山	-10.9684
出西京	-10.9685
飛絮	-10.9686
閩廣	-10.9687
不失	-10.969
色稍	-10.9693
徑寸	-10.9699
照耀	-10.971
尤妙	-10.9712
不堪食	-10.9712
蘇頌曰今	-10.9715
薫風	-10.9716
榮枯	-10.9722
州府志	-10.9723
芒種	-10.9724
雖然	-10.9725
蒲桃	-10.9736
酒服	-10.9742
河水	-10.9745
此藥	-10.9746
真宗	-10.9749
潤澤	-10.9752
成式	-10.9754
含情	-10.9756
詳見	-10.9759
異苑	-10.9761
正二月	-10.9761
殷紅	-10.9766
茗飲	-10.9768
垂絲	-10.9771
田田	-10.9772
垂垂	-10.9775
水底	-10.9777
三柰	-10.9782
三品	-10.9785
苦筍	-10.9802
手足	-10.9805
嵗嵗	-10.9817
初夏	-10.9833
沈周	-10.9833
煮熟	-10.9855
地黃	-10.9856
疎籬	-10.9873
小雅	-10.9885
起居	-10.9895
紫霞	-10.9903
以此為	-10.9933
立秋	-10.994
黄葵	-10.9944
新栽	-10.9947
江北	-10.9948
滿園	-10.9962
細膩	-10.9967
已上各	-10.9967
朱顔	-10.9967
山頂	-10.9986
飴	-10.9987
黨	-10.9997
白鶴	-11
女蘿	-11.0007
諸國	-11.0008
蝤蛑	-11.0012
肪	-11.0016
蓂莢	-11.0017
穄	-11.0019
㤀	-11.0021
秬	-11.0021
豕	-11.0021
明珠	-11.0022
槖	-11.0022
松江	-11.0023
涪	-11.0024
竝	-11.0024
闇	-11.0025
哈	-11.0025
敝	-11.0026
瞿	-11.0026
氊	-11.0027
廹	-11.0027
蛾眉	-11.0027
朧	-11.0028
桷	-11.0028
藁本	-11.0028
軀	-11.0028
蟾蜍	-11.0028
益部方物畧記	-11.0029
洞㝠記	-11.0029
茸茸	-11.003
抗	-11.003
矩	-11.003
篤	-11.0031
不住	-11.0031
橈	-11.0031
彛	-11.0032
炬	-11.0032
濛濛	-11.0032
癯	-11.0032
誓	-11.0033
癰	-11.0033
戞	-11.0033
五月五日	-11.0033
刳	-11.0033
芾	-11.0034
闍	-11.0034
缶	-11.0034
苔蘚	-11.0034
鳯凰	-11.0034
七八尺	-11.0034
頬	-11.0034
椘	-11.0034
扈	-11.0035
瑟瑟	-11.0035
憩	-11.0036
駮	-11.0036
窻	-11.0037
閙	-11.0037
縟	-11.0037
嶺表録異	-11.0038
鑽	-11.0039
況	-11.0039
大食國	-11.0039
葉庭珪云	-11.004
主簿	-11.0041
菉豆	-11.0041
炭末	-11.0041
張騫	-11.0042
箒	-11.0043
詹	-11.0043
壘	-11.0044
橄欖	-11.0044
上方鐫	-11.0046
椎	-11.0048
罍	-11.0048
鐫御題銘一首	-11.0048
鶉	-11.0049
二分許	-11.005
煆	-11.0051
摧折	-11.0051
翠幄	-11.0052
御溝	-11.0054
京兆	-11.0056
柑橘	-11.0056
無由	-11.0058
茅屋	-11.0059
敷榮	-11.0059
鍋内	-11.0061
麝香一錢	-11.0061
嶺表	-11.0062
茶具	-11.0064
未乾	-11.0065
腸斷	-11.0066
萬斛	-11.0072
鼻觀	-11.0073
成事件	-11.0074
對菊	-11.0077
宰相	-11.0078
尚存	-11.0079
煩熱	-11.008
槐樹	-11.0081
盛夏	-11.0081
萍實	-11.0084
宣帝	-11.0084
沉香亭	-11.0085
畏寒	-11.0086
四角	-11.0093
譜序	-11.0095
佳名	-11.0097
世宗	-11.0106
廕	-11.0107
長尺餘	-11.0114
梢頭	-11.0118
貞元	-11.0127
江城	-11.0128
微酸	-11.0131
竹箭	-11.0132
上巳	-11.0137
百歩	-11.014
有司	-11.0142
付與	-11.0143
四周	-11.0144
世説	-11.0155
愁絶	-11.0156
疥	-11.0156
比目	-11.0163
訛為	-11.0168
沉香一兩	-11.0171
諸品	-11.0174
江邊	-11.0175
蒼然	-11.0176
否則	-11.0178
蛟龍	-11.0179
黄蠟	-11.0182
沙門	-11.0182
飛鳥	-11.0189
竒絶	-11.0192
魚狀如	-11.0195
火候	-11.0196
數畝	-11.0197
依前	-11.02
元嘉	-11.02
詠柳	-11.0201
已覺	-11.0205
紅絲石	-11.0205
造墨	-11.021
沙土	-11.0212
百斤	-11.0218
斑㸃	-11.0218
數朶	-11.0219
形容	-11.0227
絶勝	-11.0227
十五日	-11.0233
紫藤	-11.0247
萬顆	-11.0256
東都	-11.0258
徽宗	-11.026
留客	-11.0262
每服	-11.0262
綠隂	-11.0267
排草	-11.027
斑竹	-11.0309
十畝	-11.0319
二十日	-11.0336
紅杏	-11.0338
太陽	-11.0359
十箇	-11.0364
差大	-11.0372
未許	-11.0386
狀類	-11.0389
漢銅雀瓦硯	-11.0398
河豚	-11.0403
芑	-11.0409
瀟	-11.0409
獄	-11.0412
鬐	-11.0413
軼	-11.0414
洵	-11.0414
泌	-11.0419
饞	-11.0419
貍	-11.0419
措	-11.0419
疋	-11.042
嚙	-11.042
徼	-11.0421
苻	-11.0421
譽	-11.0421
寘	-11.0423
暮雨	-11.0423
甃	-11.0424
綾	-11.0424
桄榔	-11.0425
艇	-11.0425
駒	-11.0425
鞋	-11.0425
是月也	-11.0425
甸	-11.0426
諱	-11.0427
左側鐫	-11.0428
柢	-11.0428
鉅	-11.0428
雜俎	-11.0428
秩	-11.0429
藋	-11.0429
恃	-11.0429
衡山	-11.0429
串	-11.0429
咮	-11.043
陳師道	-11.043
囂	-11.0431
癥瘕	-11.0432
咀嚼	-11.0432
警	-11.0432
頽	-11.0433
虗	-11.0433
趂	-11.0434
洛陽伽藍記	-11.0434
悽	-11.0434
乾隆四十六年	-11.0435
描	-11.0435
孫覿	-11.0435
蘆菔	-11.0435
褥	-11.0435
驚蟄	-11.0435
贏	-11.0436
燔	-11.0436
灌溉	-11.0436
疼痛	-11.0437
洮	-11.0437
寂寂	-11.0437
週	-11.0438
琖	-11.0438
宋祁	-11.0438
繖	-11.0439
妖嬈	-11.0439
􁁜	-11.0439
蓬蒿	-11.044
飣	-11.044
洎	-11.044
球	-11.0441
甆器	-11.0441
窰	-11.0443
醍醐	-11.0444
園圃	-11.0444
文理	-11.0444
賒	-11.0444
砧	-11.0446
渭川	-11.0446
哭	-11.0448
厚五分	-11.0449
朝廷	-11.0449
凜	-11.045
㨗	-11.045
借問	-11.045
松栢	-11.045
葺	-11.0456
丁謂	-11.0456
蕾	-11.0456
愚齋云	-11.0457
江浙	-11.0457
攀條	-11.0457
侍臣	-11.0461
洪武	-11.0466
柔弱	-11.0471
揺風	-11.0473
並蔕	-11.0474
金鈴菊	-11.0479
黃連	-11.0485
韶光	-11.0487
拌和	-11.0487
杉木	-11.0488
龍腦麝香	-11.0488
無瑕	-11.0489
髙二三尺	-11.0491
銅錢	-11.05
數株	-11.0507
方干	-11.0509
逐旋	-11.051
歌舞	-11.0515
白术	-11.0519
幽谷	-11.0519
左思	-11.052
淡紫	-11.0523
旋取	-11.0524
五斗	-11.0526
白茅香	-11.0532
放冷	-11.0537
嶺外	-11.0538
二十年	-11.0545
後漢	-11.0549
南軒	-11.0551
後凋	-11.0552
不拘	-11.0552
容易	-11.0563
淺紫	-11.0564
日斜	-11.0568
底事	-11.0568
北齊	-11.0569
千朶	-11.0571
簷下	-11.0575
遼東	-11.0576
定粉	-11.0576
二十五	-11.0588
品題	-11.059
連珠	-11.059
宣州	-11.0593
八字	-11.0594
未覺	-11.0602
托根	-11.0621
滿堂	-11.0632
奈何	-11.0636
本性	-11.0642
佳節	-11.0646
滿眼	-11.0649
三伏	-11.0653
名之曰	-11.0662
楚王	-11.067
澤蘭	-11.0671
幽芳	-11.0678
嵩山	-11.0678
江東呼	-11.0685
亦足	-11.0696
熏衣	-11.071
相顧	-11.0712
湯煑	-11.0718
侍御	-11.0723
南陌	-11.0728
侍中	-11.0736
龍井	-11.0747
匣盖並鐫是銘𨽻書鈐寳	-11.0749
山上有	-11.076
端硯	-11.077
最先	-11.0796
鱓	-11.0803
籬下	-11.0805
菅	-11.0818
鰻	-11.0827
苹	-11.0828
陜	-11.0829
茇	-11.083
霸	-11.0832
楛	-11.0832
都勝	-11.0834
嗚呼	-11.0837
纍	-11.0837
腊	-11.0839
菹	-11.0839
鏗	-11.084
眺	-11.084
巍	-11.084
罰	-11.0841
囚	-11.0841
懋	-11.0842
聯	-11.0842
衾	-11.0842
从	-11.0843
挾	-11.0843
蘅	-11.0843
燄	-11.0843
蜿蜒	-11.0844
茆	-11.0844
三層	-11.0844
蔞	-11.0844
倐	-11.0844
吁	-11.0845
寰	-11.0846
菂	-11.0847
僵	-11.0847
吕氏春秋	-11.0847
剌	-11.0847
搆	-11.0848
根株	-11.0848
桶	-11.0848
茱茰	-11.0848
仄	-11.0849
滕	-11.085
劔	-11.0851
鋸齒	-11.0851
羶	-11.0851
痿	-11.0851
老坑端石	-11.0851
扣之有聲	-11.0852
鵞梨	-11.0852
閔	-11.0852
硃	-11.0854
霓	-11.0854
囀	-11.0855
縉	-11.0855
蘓軾	-11.0856
神異經	-11.0856
嬪	-11.0856
迄今	-11.0856
泳	-11.0856
空腹食之	-11.0857
王世貞	-11.0858
澡	-11.0859
件	-11.0859
姊	-11.0859
漣	-11.0859
茫茫	-11.086
蒼梧	-11.086
捺	-11.086
有大毒	-11.0862
瓏	-11.0863
蒼术	-11.0865
墅	-11.0865
扁舟	-11.0867
擦	-11.0868
炮	-11.0868
依稀	-11.0869
何首烏	-11.0871
宋朱子	-11.0872
御袍黄	-11.0873
蘗	-11.0876
魏武	-11.0878
靈均	-11.0879
褪	-11.088
禁苑	-11.0881
沈約	-11.0882
傅𤣥	-11.0883
辛苦	-11.0883
東坡集	-11.0889
一脚子缷	-11.0889
鳳尾	-11.0893
西番	-11.0895
引蔓	-11.0901
乆服	-11.0901
態度	-11.0902
各少許	-11.0903
竒巧	-11.0904
嚴霜	-11.0907
何䖏	-11.0907
横斜	-11.0911
口腹	-11.0911
餘甘	-11.0913
側理	-11.0914
昭陽	-11.0918
吾鄉	-11.0918
獨活	-11.0935
千頃	-11.0936
應制	-11.0936
白麺	-11.0942
紫薇花	-11.0952
却笑	-11.0954
面背	-11.0957
籬菊	-11.0968
糞土	-11.097
往來	-11.0978
繁英	-11.0985
鷄子	-11.0986
朝霞	-11.099
丹桂	-11.0992
諸郡	-11.0999
凌風	-11.1011
長一尺	-11.1012
家貧	-11.1014
留連	-11.1017
五銖錢	-11.102
第五	-11.1024
囊盛	-11.1032
欽定西清硯譜卷	-11.1043
金刀	-11.1046
離别	-11.1062
尤物	-11.1078
不逮	-11.1078
欽定四庫全書欽定西清硯譜卷	-11.1087
神女	-11.1106
七尺	-11.1119
煮食	-11.1138
丈夫	-11.1141
扣	-11.1149
古柏	-11.1189
臨安	-11.1198
鵞黄	-11.1214
不暇	-11.1232
世俗	-11.1233
西京	-11.1237
琪	-11.124
通寳	-11.1246
鼉	-11.1251
鮪	-11.1255
黼	-11.1263
齧	-11.1263
謝靈運	-11.1264
葳	-11.1264
鰌	-11.1265
蕡	-11.1268
攫	-11.1269
翕	-11.1269
㢠廻	-11.1269
穟	-11.1269
杼	-11.1272
諤	-11.1273
洒	-11.1273
刪	-11.1273
璇	-11.1273
訊	-11.1273
笏	-11.1274
翎	-11.1274
鱮	-11.1275
蠵	-11.1276
闈	-11.1277
俚	-11.1278
瘠	-11.1278
青白色	-11.1279
荄	-11.1279
張孝祥	-11.128
元趙孟頫	-11.128
榧	-11.128
需	-11.128
嶧	-11.1281
蕭瑟	-11.1281
陸機	-11.1281
耨	-11.1281
煒	-11.1283
訶	-11.1283
龍尾石	-11.1283
侃	-11.1283
航	-11.1284
倪	-11.1284
鈍	-11.1285
肅肅	-11.1285
毓	-11.1285
牌	-11.1285
羗	-11.1285
燧	-11.1285
港	-11.1286
簸	-11.1286
詩小雅	-11.1287
仆	-11.1287
礱	-11.1287
斐	-11.1288
嶮	-11.1288
曖	-11.1288
巉岩	-11.1288
娜	-11.1288
瀋	-11.1289
鴨脚	-11.1289
焰	-11.1289
惻	-11.1291
腰膝	-11.1292
五代史	-11.1292
籩	-11.1293
久服輕身	-11.1293
螢	-11.1293
弊	-11.1294
疵	-11.1294
匕	-11.1294
宋張耒	-11.1295
吏部	-11.1295
避暑	-11.1296
湼	-11.1298
磁盒	-11.1298
皁莢	-11.1301
芫荽	-11.1301
虎丘	-11.1301
𣙜	-11.1302
搏	-11.1303
右為細末煉蜜	-11.1303
萌芽	-11.1306
焰硝	-11.1306
舊唐書	-11.1306
瞳	-11.1308
齒牙	-11.1309
宋蘇轍	-11.1309
倭	-11.131
夢魂	-11.1312
林邑	-11.1312
掩映	-11.1312
彭城	-11.1313
釵頭	-11.1322
歐陽公	-11.1325
堦前	-11.1326
沉香檀香	-11.133
遲遲	-11.1333
肌骨	-11.1335
䨇井	-11.1338
秀才	-11.1339
大如斗	-11.1344
周旋	-11.1345
春生苗	-11.1345
宜男	-11.1348
誰憐	-11.1355
仲夏	-11.1358
烈日	-11.1361
託根	-11.1361
二螯	-11.1363
歙石	-11.1365
龍牙	-11.1367
羅隠	-11.1369
二月生苗	-11.1373
水濵	-11.1376
薄暮	-11.1377
予嘗	-11.1378
諸侯	-11.1384
瓦松	-11.1387
數十年	-11.139
蕭然	-11.1392
泥沙	-11.1393
父老	-11.14
生涯	-11.1402
腹脹	-11.1405
殊絶	-11.141
天台山	-11.1413
石菖蒲	-11.1415
末利	-11.1417
昔年	-11.142
秦皮	-11.1422
樣曰	-11.1428
雜録	-11.1432
青蒿	-11.1435
貞心	-11.1436
海邊	-11.1439
台州	-11.1454
車前	-11.1455
水淘	-11.1468
河北	-11.1468
厚薄	-11.1469
金屋	-11.1502
瑞香花	-11.1514
堅潤	-11.1529
嵗貢	-11.1539
五斤	-11.156
三十二	-11.157
耐寒	-11.1573
金杯	-11.1589
六寸	-11.1611
兖州	-11.1641
陸離	-11.1677
二枚	-11.1697
榿	-11.1706
禺	-11.1706
罏	-11.1708
綯	-11.1719
糾	-11.1719
枿	-11.172
元寳錢	-11.172
韓琦	-11.1721
利小便	-11.1721
凶	-11.1723
畹	-11.1724
赩	-11.1724
誣	-11.1725
陶隠居	-11.1726
槲	-11.1727
羈	-11.1727
列仙傳	-11.1728
鸛	-11.1728
緡	-11.1728
鐫御題銘一首楷書鈐寳二曰	-11.173
莒	-11.173
李東陽	-11.173
嬴	-11.1731
李徳裕	-11.1731
糞壤	-11.1732
晷	-11.1732
幙	-11.1732
稼穡	-11.1732
斟酌	-11.1732
筮	-11.1732
亹	-11.1732
寝	-11.1732
擁腫	-11.1733
悞	-11.1734
贍	-11.1734
瑯	-11.1734
衲	-11.1734
煦	-11.1734
膿	-11.1735
諭	-11.1735
菩提	-11.1735
戈	-11.1735
躡	-11.1735
琅	-11.1736
疰	-11.1737
右側鐫	-11.1737
襍	-11.1737
頡	-11.1738
琪樹	-11.1738
侶	-11.1738
殫	-11.1738
牲	-11.1739
澈	-11.1739
虺	-11.1739
大秦國	-11.1739
𦙍	-11.174
渤	-11.174
碌	-11.174
釅	-11.174
諳	-11.1741
芰荷	-11.1741
蝨	-11.1741
東坡雜記	-11.1742
梁江淹	-11.1743
彷彿	-11.1744
窄	-11.1744
川芎	-11.1744
掾	-11.1745
齎	-11.1745
地理志	-11.1745
癥	-11.1745
荆芥	-11.1745
刼	-11.1746
磈	-11.1746
欬	-11.1746
百枚	-11.1747
瀑布	-11.1747
開以九月末	-11.1747
荆棘	-11.1747
峨	-11.1747
虵	-11.1748
邨	-11.1748
艾蒳	-11.1748
唐劉禹錫	-11.1749
捫	-11.1749
龔	-11.1749
雲南志	-11.175
擢秀	-11.175
瑣碎	-11.175
鶯啼	-11.1751
䔩	-11.1751
㝡	-11.1751
圑	-11.1751
為粗末	-11.1753
楊慎	-11.1755
會稽	-11.1755
包裹	-11.1755
忿	-11.1755
沽酒	-11.1757
太尉	-11.1758
博山香爐	-11.1759
刷絲	-11.1759
笙歌	-11.176
仝	-11.176
魯直	-11.1761
鷹爪	-11.1761
搗爛	-11.1762
消渴	-11.1765
婆律	-11.1765
生結香	-11.1766
百餘年	-11.1766
粳	-11.1769
􁎐	-11.1771
悠然	-11.1772
朶朶	-11.1774
人不識	-11.1775
郁李	-11.1776
貞觀	-11.1778
藤蔓	-11.1778
虚勞	-11.1779
澄泥硯	-11.1782
瓊漿	-11.1784
互相	-11.1795
婦女	-11.1795
樓閣	-11.1797
如飴	-11.1799
凌霄花	-11.18
大如拳	-11.1804
三輔	-11.1805
交加	-11.1806
夲草	-11.1807
勁直	-11.1813
莫遣	-11.1814
有毒治	-11.1818
三脊	-11.182
農家	-11.1822
又次之	-11.1826
塞外	-11.1827
濃淡	-11.1827
但恐	-11.1828
忽驚	-11.1829
薔薇露	-11.183
尋芳	-11.1839
歳寒	-11.1845
數十里	-11.1849
畫圖	-11.185
紅綃	-11.1859
龍焙	-11.1868
嘉定	-11.1868
未敢	-11.1895
細鱗	-11.1898
染翰	-11.1932
第十	-11.1935
鐫御題詩與硯同	-11.2014
猩	-11.2042
錢文曰	-11.2092
和匀	-11.2117
馬乳	-11.212
即位	-11.2138
味辛平無毒	-11.2154
臟	-11.2189
胡荽	-11.219
軋	-11.219
鯪	-11.2193
雨航雜錄	-11.2194
昧	-11.2195
唐石渠硯	-11.2199
搔	-11.22
開小白花	-11.22
疎寮詩	-11.22
冡	-11.2201
赦	-11.2202
欄干	-11.2203
濩	-11.2204
岱	-11.2204
涓	-11.2205
孝義傳	-11.2205
杜荀鶴	-11.2205
勵	-11.2206
遯	-11.2206
孩兒	-11.2206
鹵	-11.2207
猥	-11.2207
薈	-11.2207
厓	-11.2207
憚	-11.2208
琵	-11.2208
肱	-11.2209
鸜鵒	-11.2209
農政全書	-11.221
葬	-11.221
栁宗元	-11.221
淤	-11.2211
撩	-11.2211
犁	-11.2212
燠	-11.2212
蘇子瞻	-11.2212
訂	-11.2212
佗	-11.2212
翺	-11.2212
諷	-11.2212
唐李嶠	-11.2213
么	-11.2213
𨼆	-11.2213
茨	-11.2213
驂	-11.2214
盧仝	-11.2214
酈	-11.2215
刓缺	-11.2215
恠	-11.2215
零露	-11.2215
滁	-11.2216
瘟	-11.2216
棺	-11.2216
蓽撥	-11.2216
崇寧	-11.2217
鵶	-11.2217
愷	-11.2217
餙	-11.2217
泔	-11.2217
莘	-11.2218
粲粲	-11.2218
葑	-11.2218
麥門冬	-11.2218
熨	-11.2218
筥	-11.2219
鞓	-11.2219
舫	-11.2219
菩薩蠻	-11.222
金元好問	-11.222
蔫	-11.222
䄂	-11.222
疼	-11.222
髩	-11.2221
匣葢	-11.2221
沆瀣	-11.2221
文房四譜	-11.2222
莨	-11.2222
蔡邕	-11.2223
襦	-11.2223
蝦蟇	-11.2223
珠璣	-11.2223
凌冬不凋	-11.2224
謨	-11.2224
仙人掌	-11.2224
昱	-11.2224
疸	-11.2225
胭脂	-11.2225
翟	-11.2225
溼	-11.2225
礶	-11.2226
睦	-11.2226
薫陸	-11.2227
鑚	-11.2228
肘	-11.2228
貶	-11.2228
膚理	-11.2228
沂	-11.2231
潰	-11.2231
袤	-11.2231
喪	-11.2231
諺曰	-11.2232
荳	-11.2233
挫	-11.2233
蒙頂	-11.2237
各等分	-11.2237
廣雅云	-11.2239
剉碎	-11.224
酸漿	-11.2241
亳	-11.2241
蓉	-11.2244
燒如常法	-11.2245
蓴菜	-11.2246
馬尾	-11.2249
米腦	-11.2251
罌粟	-11.2254
隴西	-11.2262
占斷	-11.2263
楊栁	-11.2264
盛衰	-11.2276
森然	-11.2276
可生食	-11.2279
開胃	-11.2286
等閒	-11.2293
舶上	-11.23
庭除	-11.2302
金釵	-11.2312
折一枝	-11.2316
杜蘅	-11.2322
南康	-11.2333
博物	-11.235
百株	-11.2407
徑尺	-11.2457
絳囊	-11.2579
五丈	-11.2589
十一年	-11.2597
六斤	-11.2609
虞美人草	-11.2675
菼	-11.2683
辟惡	-11.2686
后妃	-11.2688
魏曹植	-11.2689
蘘荷	-11.2691
絺	-11.2693
瑞應圖	-11.2694
鎻	-11.2694
李商隐	-11.2695
壟	-11.2695
琴瑟	-11.2697
戢戢	-11.2697
捉	-11.2697
孜	-11.2699
山其上多	-11.2701
鱖	-11.2702
徳充符	-11.2703
栘	-11.2703
彊	-11.2704
嫗	-11.2704
梁沈約	-11.2704
寤	-11.2704
御定佩文齋廣羣芳譜卷九十	-11.2705
鰥	-11.2705
繋	-11.2706
箴	-11.2706
綈几	-11.2706
重湯煮	-11.2707
塌	-11.2707
繁衍	-11.2707
黿	-11.2708
倡	-11.2708
嵬	-11.2708
笈	-11.2708
覿	-11.2709
儕	-11.2709
絢	-11.2709
熙寧	-11.2709
邕	-11.2709
鎗	-11.2709
御定佩文齋廣羣芳譜卷七十	-11.2709
鵒	-11.271
確	-11.2711
値	-11.2711
溷	-11.2712
替	-11.2712
册	-11.2712
猜	-11.2713
夭矯	-11.2713
惕	-11.2714
鮆	-11.2714
踵	-11.2714
憇	-11.2714
伶倫	-11.2715
汀洲	-11.2715
灔	-11.2715
陶弼	-11.2715
馴	-11.2715
劭	-11.2716
李孝美	-11.2717
償	-11.2717
奥	-11.2717
博雅	-11.2717
葚	-11.2718
嗽	-11.2718
宋景文	-11.2718
陶隱居	-11.2718
斑斑	-11.2718
詩豳風	-11.2719
妖艶	-11.2719
該	-11.2719
圅	-11.272
磯	-11.272
番禺	-11.272
嘶	-11.272
郢	-11.272
淳祐	-11.2721
二字𨽻書	-11.2721
瘤	-11.2721
瑜	-11.2722
崔豹古今注	-11.2722
纎纎	-11.2722
迺	-11.2723
押	-11.2723
筤	-11.2723
鬼疰	-11.2724
高三四尺	-11.2724
淳化	-11.2725
紹聖	-11.2725
㯶櫚	-11.2725
噪	-11.2725
僕射	-11.2725
元馬祖常	-11.2726
甆盒	-11.2726
楊維楨	-11.2726
黍稷	-11.2727
烝	-11.2727
臈茶	-11.2728
縳	-11.2728
賖	-11.2728
續茶經	-11.2729
霆	-11.2729
涪州	-11.2729
另硏	-11.2729
漁父	-11.273
十八娘	-11.2731
禮部	-11.2731
右細末	-11.2731
獅子	-11.2731
蚊	-11.2731
御定佩文齋廣羣芳譜卷八十	-11.2732
酥油	-11.2733
陶淵明	-11.2733
楊巽齋	-11.2735
蘭芷	-11.2736
鍾乳	-11.2737
菱角	-11.2738
玉版	-11.2738
支離	-11.2739
黄魯直	-11.274
隆冬	-11.274
揚雄	-11.274
武宗	-11.2743
御定佩文齋廣羣芳譜卷五十	-11.2744
婺州	-11.2744
雲鬟	-11.2745
庶幾	-11.2746
鳥雀	-11.2747
波濤	-11.2747
濯錦	-11.2749
鹿葱	-11.275
歴代	-11.2752
建炎	-11.2755
伯仲	-11.276
農夫	-11.2765
孟夏	-11.2765
白芨末	-11.2765
宣宗	-11.2766
杯盤	-11.2767
傅粉	-11.2773
春生苖	-11.2773
戲題	-11.2774
夾道	-11.2779
米粒	-11.2779
御定佩文齋廣羣芳譜卷四十	-11.2781
數百年	-11.2783
乞馬	-11.2784
園丁	-11.2785
毎嵗	-11.2788
蚌坑	-11.2792
交廣	-11.2794
李嘉祐	-11.2797
料物	-11.2801
却憶	-11.2801
一百二十	-11.2813
青蔥	-11.2814
二三丈	-11.2814
蠟瓣	-11.2884
左側	-11.2889
鐫御題詩一首	-11.2906
愁殺	-11.2928
瑞蓮	-11.298
四靣	-11.2994
十七年	-11.3101
薌	-11.3106
宗本紀	-11.3174
潯	-11.3195
椰	-11.3197
猷	-11.3201
梔	-11.3201
芎	-11.3211
吠	-11.3215
豳	-11.3217
䱜	-11.3219
黻	-11.3222
數枚	-11.3222
贄	-11.3223
狭	-11.3223
厠	-11.3224
卞	-11.3225
蒹葭	-11.3225
稊	-11.3227
𡨕	-11.3228
乂	-11.3228
惲	-11.3228
徤	-11.3229
堵	-11.323
曄曄	-11.323
廡	-11.3231
禽魚之	-11.3231
錐	-11.3233
三百顆	-11.3234
竄	-11.3234
皷	-11.3234
薏	-11.3234
李咸用	-11.3235
痞	-11.3235
佚	-11.3235
鉏	-11.3236
翊	-11.3236
礲	-11.3236
騁	-11.3236
邃	-11.3236
盍	-11.3237
上方側面	-11.3237
阬	-11.3237
夔	-11.3237
問其故	-11.3237
迫	-11.3237
帯	-11.3238
山其木多	-11.3238
幡	-11.3238
軒轅	-11.3238
楨	-11.3238
撈	-11.3238
嶂	-11.3238
巘	-11.3239
夥	-11.3239
苺	-11.3239
咨嗟	-11.3239
韓保昇曰	-11.324
聘	-11.324
淅	-11.3241
疳	-11.3241
淳熙	-11.3242
如雞卵	-11.3242
哇	-11.3242
侑	-11.3242
㡬暇怡情曰得佳趣	-11.3243
俶	-11.3243
拄杖	-11.3244
㤗	-11.3244
罥	-11.3244
嶰谷	-11.3244
概	-11.3245
購	-11.3245
肢	-11.3245
搯	-11.3245
蛙	-11.3245
恙	-11.3245
愼	-11.3247
祭祀	-11.3247
霜霰	-11.3247
種樹書	-11.3248
摸	-11.3248
爆	-11.3249
揮毫	-11.3249
牛膝	-11.3251
八月采根	-11.3251
欵冬	-11.3251
龎	-11.3253
魏武帝	-11.3253
冰肌	-11.3253
褰	-11.3254
廸	-11.3254
荳䓻	-11.3254
嗁	-11.3254
司空圖	-11.3254
姚魏	-11.3256
珂	-11.3256
晳	-11.3257
撩亂	-11.3257
采擷	-11.3258
陳淳	-11.3258
素娥	-11.3259
王荆公	-11.3259
鳥獸	-11.326
淋漓	-11.3262
賓客	-11.3262
凌晨	-11.3262
橙橘	-11.3263
堆盤	-11.3263
蓊鬱	-11.3264
四肢	-11.3264
三昧	-11.3264
柴胡	-11.3265
沙棠	-11.3265
標格	-11.3266
侍宴	-11.3268
搔頭	-11.3268
胡蘿蔔	-11.3269
夲草云	-11.3269
朱砂	-11.3271
吾廬	-11.3275
髙三四尺	-11.3276
延夀	-11.3278
翦伐	-11.3278
欖	-11.3283
如小豆	-11.3284
藕絲	-11.3287
搗汁	-11.3289
囘首	-11.329
芥菜	-11.3292
永昌	-11.3293
長二三寸	-11.3295
韶華	-11.3297
驪山	-11.3297
燕脂	-11.3302
脂麻	-11.3304
萬頃	-11.3314
麩炭	-11.3324
夭夭	-11.3335
御定佩文齋廣羣芳譜卷三十	-11.3363
御定佩文齋廣羣芳譜卷二	-11.3378
合為一	-11.339
山之陽	-11.3407
謫仙	-11.3416
味苦平無毒	-11.3423
供佛	-11.3439
緋桃	-11.348
猩血	-11.3616
瘡疥	-11.3622
萬竿	-11.37
陳藏器	-11.3736
諺	-11.3742
鰣	-11.3763
璜	-11.3772
南齊書	-11.3773
轅	-11.3774
饕	-11.3775
浣溪沙	-11.3775
中有細子	-11.3778
鰱	-11.3779
虞美人	-11.378
柔韌	-11.378
陛	-11.378
鱒	-11.378
迄	-11.3781
搜神記	-11.3781
鮧	-11.3782
倅	-11.3782
御定佩文齋廣羣芳譜卷六十	-11.3782
有二種一種	-11.3783
蔞蒿	-11.3784
擺	-11.3784
耒	-11.3784
咄	-11.3785
賸	-11.3785
聚八仙	-11.3785
㓜	-11.3786
珥	-11.3786
螃蟹	-11.3786
蹏	-11.3786
明吳寛	-11.3786
䘮	-11.3787
婚	-11.3787
髙似孫	-11.3787
嬝	-11.3787
鏘	-11.3788
苒	-11.3788
瀼	-11.3788
蘢	-11.3789
㨂	-11.3789
懽	-11.379
蟛蜞	-11.379
謔	-11.379
旄	-11.379
菩薩	-11.3791
耿耿	-11.3791
荃	-11.3791
兠	-11.3792
鎡	-11.3793
泚	-11.3794
盼	-11.3794
陁	-11.3794
王羲之	-11.3794
頎	-11.3795
俛	-11.3795
槭	-11.3795
胯	-11.3796
淇澳	-11.3796
禾黍	-11.3796
薯蕷	-11.3796
韓翃	-11.3796
癬	-11.3796
爼	-11.3797
焯	-11.3797
筭	-11.3797
禿	-11.3798
吻	-11.3798
七月七日	-11.3798
元郝經	-11.3798
幣	-11.3798
湍	-11.3799
廓	-11.3799
潘岳	-11.3799
禊	-11.3799
湧幢小品	-11.38
繹	-11.38
攘	-11.38
蒔蘿	-11.3801
瘀血	-11.3801
睹	-11.3801
礦	-11.3801
羯	-11.3801
踞	-11.3801
涪翁	-11.3802
恕	-11.3802
宋王禹偁	-11.3803
幘	-11.3803
太液池	-11.3803
澄泥為之	-11.3804
別	-11.3805
蓴羮	-11.3805
太平興國	-11.3805
敘	-11.3806
蹲	-11.3806
拌和令勻	-11.3806
褁	-11.3806
櫛	-11.3806
将軍	-11.3807
逈	-11.3807
巴蜀	-11.3808
馢	-11.3809
蓬莱	-11.3809
味苦微寒無毒	-11.3809
穹起	-11.3809
蘧	-11.3809
襞	-11.381
洛浦	-11.381
文與可	-11.3811
拂拭	-11.3812
降眞香	-11.3812
涇	-11.3812
鵝毛	-11.3813
西掖	-11.3814
盥	-11.3814
絳紗	-11.3815
百菊集譜	-11.3815
蜂兒	-11.3816
潞	-11.3816
太乙	-11.3816
真宰	-11.3817
採掇	-11.3817
十餘丈	-11.3818
常棣	-11.382
紛披	-11.3821
塼	-11.3822
堅緻	-11.3823
江淹	-11.3824
蕭索	-11.3824
傾倒	-11.3824
孔雀	-11.3826
麝香少許	-11.3831
建康	-11.3834
鎚	-11.3836
盈把	-11.3837
陳藏噐曰	-11.3846
厚朴	-11.3861
稜稜	-11.3863
滴瀝	-11.3871
宗即位	-11.3926
御定佩文齋廣羣芳譜卷十	-11.3954
棠梨	-11.4017
御定佩文齋廣羣芳譜	-11.4064
甘平無毒	-11.4094
三月開花	-11.4134
有木名	-11.4263
男女	-11.4338
陸費墀欽定四庫全書	-11.4339
𧖟	-11.4352
䱐	-11.4357
鰼	-11.4362
戾	-11.4363
耙	-11.4364
耬	-11.4364
鑴	-11.4365
十有二	-11.4365
周禮天官	-11.4365
嗇	-11.4366
兀	-11.4367
詮	-11.4367
萸	-11.4367
拊	-11.4367
鸎	-11.4367
繽紛	-11.4368
塹	-11.4368
祉	-11.4369
愆	-11.4369
宋史五行志	-11.4369
􁑭	-11.437
忝	-11.437
蜕	-11.4371
雚	-11.4371
篚	-11.4371
㹠	-11.4371
㸃絳唇	-11.4372
􁐓	-11.4372
瘕	-11.4373
舅	-11.4374
皎皎	-11.4375
謠	-11.4375
窑	-11.4376
風俗通	-11.4376
技	-11.4376
涌	-11.4377
蕕	-11.4378
轍	-11.4378
呂氏春秋	-11.4378
蝸	-11.4378
張蠙	-11.4379
莪	-11.4379
僉	-11.438
左思蜀都賦	-11.438
癩	-11.438
誚	-11.438
濓	-11.438
淞	-11.438
老學庵筆記	-11.438
眸	-11.4381
澧	-11.4381
㢘	-11.4381
開細花	-11.4381
爻	-11.4381
邱	-11.4381
李商隱	-11.4382
都梁香	-11.4382
桞宗元	-11.4382
斤斧	-11.4382
弔	-11.4382
瀛洲	-11.4383
纖纖	-11.4383
董其昌	-11.4383
韞	-11.4383
曛	-11.4383
荆楚嵗時記	-11.4384
蝠	-11.4384
鼐	-11.4384
曩	-11.4385
罄	-11.4385
菑	-11.4386
䏻	-11.4386
嫦娥	-11.4386
溫庭筠	-11.4386
暘	-11.4386
溲	-11.4386
韋荘	-11.4386
五色線	-11.4387
庻	-11.4387
譜錄類	-11.4387
偈	-11.4387
李孝光	-11.4388
貿	-11.4388
黟	-11.4388
硃砂	-11.4388
兩兩相對	-11.4389
湄	-11.4389
逅	-11.4389
鬲	-11.4389
氣味苦平無毒治	-11.439
覃	-11.439
簜	-11.4391
疥癬	-11.4391
蓑	-11.4392
頳	-11.4392
斑駁	-11.4392
磨礲	-11.4393
冝	-11.4394
楚屈原離騷	-11.4394
惬	-11.4394
撤	-11.4395
韡	-11.4395
毘	-11.4395
通判	-11.4396
樾	-11.4397
鸞鳳	-11.4397
瀰	-11.4397
廿	-11.4397
髭	-11.4397
茅茨	-11.4397
迅	-11.4398
白膠香	-11.4398
嘔吐	-11.4398
都尉	-11.4399
滄浪	-11.4399
三洞珠囊	-11.44
瑩潔	-11.44
綏	-11.44
莭	-11.44
博山爐	-11.44
庾嶺	-11.44
孩兒菊	-11.4401
贅	-11.4402
杜宇	-11.4403
縮砂	-11.4404
梁棟	-11.4405
羽翼	-11.4405
唐八稜澄泥硯	-11.4407
皁角	-11.4407
顆顆	-11.4408
濕痺	-11.4408
拌匀	-11.4409
椑	-11.4409
湘妃	-11.4409
津液	-11.4409
羌活	-11.4414
羣芳譜	-11.4414
弋	-11.4417
莫知其	-11.4417
哈昔泥	-11.4417
徐熙	-11.4417
氷肌	-11.4418
十餘里	-11.4418
蓯	-11.4419
樺	-11.442
羊蹄	-11.4421
瑤臺	-11.4423
萞麻	-11.4425
徑三寸	-11.4429
欽定四庫全書香乗卷	-11.447
驟雨	-11.4506
咽喉	-11.451
京洛	-11.4549
耐乆	-11.456
李紳	-11.4573
慎勿	-11.4594
鈐寳二曰乾隆	-11.4598
上方側鐫	-11.4602
欽定四庫全書御定佩文齋廣羣芳譜	-11.4817
堪入藥	-11.4879
一首楷書	-11.4968
紵	-11.497
莩	-11.4981
鯿	-11.4983
儷	-11.4984
養魚經	-11.4985
聿	-11.4988
衷	-11.499
謡	-11.4991
璀璨	-11.4991
謳	-11.4992
䕡	-11.4994
晒	-11.4995
遨	-11.4995
歘	-11.4995
珏	-11.4996
琛	-11.4997
嬰兒	-11.4997
鮠	-11.4998
沓	-11.4999
刓	-11.4999
飫	-11.5
嫣	-11.5001
溶	-11.5001
岀	-11.5001
詡	-11.5002
搭	-11.5002
誡	-11.5002
蝎	-11.5002
阡	-11.5002
䋲	-11.5003
禧	-11.5003
漢未央甎海天初月硯	-11.5003
小平錢	-11.5004
籌	-11.5004
宼	-11.5004
睇	-11.5004
匣葢並鐫是詩	-11.5004
撐	-11.5005
誘	-11.5005
藁	-11.5005
忤	-11.5006
匣盖鐫御題銘與硯同	-11.5007
牝	-11.5007
欽定四庫全書錢録卷	-11.5007
瓦礫	-11.5007
乾隆宸翰	-11.5007
麝臍	-11.5008
璚	-11.5008
禮記内則	-11.5008
嘘	-11.5008
丫	-11.5008
救荒	-11.5008
壻	-11.5008
彎	-11.5009
撓	-11.5009
㗖	-11.501
低昂	-11.501
氣味辛温無毒	-11.501
涴	-11.501
幔	-11.501
愴	-11.501
堰	-11.501
香乘卷	-11.501
八九尺	-11.501
繚繞	-11.5011
骸	-11.5011
萆	-11.5011
叫	-11.5011
驩	-11.5012
戍	-11.5012
湏臾	-11.5012
宕	-11.5012
闘	-11.5012
雷電	-11.5012
衒	-11.5012
藹藹	-11.5013
蠢	-11.5013
它	-11.5013
衿	-11.5013
騫	-11.5013
肥瘠	-11.5013
聾	-11.5014
俸	-11.5014
晾	-11.5014
腋	-11.5014
寃	-11.5014
凋零	-11.5014
整頓	-11.5015
蹲鴟	-11.5015
渙	-11.5015
櫳	-11.5016
點	-11.5017
摩挲	-11.5017
瘍	-11.5017
閻	-11.5017
司馬相如	-11.5017
唐彦謙	-11.5018
伶	-11.5019
撏	-11.502
繅	-11.502
司農	-11.502
歆	-11.502
爇如常法	-11.502
炊飯	-11.502
淸	-11.5021
簾櫳	-11.5021
泗	-11.5023
檄	-11.5023
北户録	-11.5023
吳都賦	-11.5024
媛	-11.5025
肋	-11.5025
海藥本草	-11.5026
簇簇	-11.5026
七八寸	-11.5029
畢竟	-11.5029
蘑菰	-11.5029
淒凉	-11.503
衂	-11.503
苾	-11.5031
匿	-11.5033
荒蕪	-11.5034
巽	-11.5034
寒水石	-11.5034
瞿麥	-11.5036
檟	-11.5037
鸜鵒眼	-11.5046
潯陽	-11.5061
味甘平無毒主	-11.5272
有草名	-11.5344
錢另研	-11.5462
李時珍	-11.562
乹	-11.5624
鯈	-11.564
魟	-11.5646
棫	-11.5647
洞冥記	-11.5647
菔	-11.5651
沱	-11.5652
藟	-11.5654
殞	-11.5655
莱	-11.5657
蓽	-11.5658
闡	-11.5658
臛	-11.5658
芫	-11.5659
鸂	-11.566
蟚	-11.5661
劃	-11.5661
旨	-11.5661
癢	-11.5661
匱	-11.5662
罟	-11.5662
陷	-11.5663
○	-11.5663
薺苨	-11.5664
适	-11.5664
節度使	-11.5665
四民月令	-11.5665
据	-11.5667
籞	-11.5667
焜	-11.5667
薁	-11.5667
荽	-11.5667
瀆	-11.5667
泝	-11.5668
譚	-11.5668
笄	-11.5668
踪	-11.5668
蟛	-11.5669
王象晉	-11.5669
砥	-11.5669
耻	-11.5669
儆	-11.567
琰	-11.567
肻	-11.567
佑	-11.567
瀕	-11.567
曳	-11.5671
壌	-11.5671
箧	-11.5671
洧	-11.5671
穏	-11.5671
馮琦	-11.5671
分厚七分	-11.5672
嫋	-11.5672
閩部疏	-11.5672
凄凄	-11.5672
梁庾肩吾	-11.5672
管絃	-11.5672
吝	-11.5673
縂	-11.5673
慳	-11.5673
儲光羲	-11.5674
佃	-11.5674
淳熈	-11.5674
通寳大錢	-11.5674
顧瑛	-11.5675
薙	-11.5675
栩	-11.5675
竽	-11.5675
阯	-11.5675
岑寂	-11.5675
倪瓚	-11.5675
這	-11.5677
閶	-11.5677
狄	-11.5677
栻	-11.5677
葶藶	-11.5677
閩粤	-11.5677
三輔黄圖	-11.5678
熠	-11.5678
杉木炭	-11.5678
搦	-11.5678
塜	-11.5678
宋澄泥虎符硯	-11.5678
蒟	-11.5678
賞心樂事	-11.5679
埏	-11.5679
魅	-11.568
㗋	-11.568
拚	-11.568
臓	-11.568
江瑶柱	-11.568
厴	-11.5681
湔	-11.5681
唐王勃	-11.5681
祛	-11.5681
明楊基	-11.5681
優劣	-11.5682
觕	-11.5682
酡	-11.5683
暾	-11.5683
扣之無聲	-11.5683
晃	-11.5683
淘淨	-11.5683
黄太史詩	-11.5684
剜	-11.5684
御衣黄	-11.5684
辜負	-11.5684
五加皮	-11.5685
馥郁	-11.5685
西溪叢語	-11.5685
縝	-11.5685
磵	-11.5686
顛狂	-11.5686
濾去滓	-11.5686
鴨卵	-11.5686
榼	-11.5687
漢司馬相如上林賦	-11.5687
洩痢	-11.5687
浩蕩	-11.5687
簧	-11.5687
嘏	-11.5687
屛	-11.5687
胸膈	-11.5688
楞嚴經	-11.5688
凢	-11.5688
冦	-11.5689
篸	-11.5689
肝膽	-11.5689
𥙷中益氣羊	-11.5689
低昻	-11.5689
烰炭	-11.5689
墾	-11.569
豢	-11.5691
故以為名	-11.5692
呪	-11.5692
垂絲海棠	-11.5692
的的	-11.5692
狗脊	-11.5694
巗	-11.5695
埴	-11.5695
新汲水	-11.5696
鷃	-11.5698
泠泠	-11.5699
舘	-11.5699
密雲龍	-11.5701
暹	-11.5703
稃	-11.5703
玉樓春	-11.5706
杵臼	-11.571
秈	-11.573
菖	-11.581
猩猩	-11.5945
氣味甘平無毒	-11.6101
麩	-11.6291
鱅	-11.6345
瑁	-11.6349
鱷	-11.6359
稭	-11.636
稂	-11.6361
沚	-11.6363
矛	-11.6363
萐	-11.6364
椅桐	-11.6365
孩	-11.6366
揜	-11.6367
周禮地官	-11.6368
忭	-11.637
說硯髙四寸	-11.637
彞	-11.6372
鯁	-11.6372
陕	-11.6373
弆	-11.6374
顫	-11.6374
斕斑	-11.6374
奕奕	-11.6375
突兀	-11.6375
苫	-11.6375
覯	-11.6375
晉宫閣名	-11.6376
褊	-11.6376
三栁軒雜識	-11.6377
彭蜞	-11.6377
芘	-11.6377
麰	-11.6377
琱	-11.6377
忒	-11.6377
豁	-11.6379
槍旗	-11.6379
齅	-11.6379
耽	-11.6379
跌	-11.638
控	-11.638
醯	-11.638
菡萏	-11.638
醎	-11.638
雹	-11.638
梂	-11.638
寰宇記	-11.6381
啾	-11.6381
綢繆	-11.6381
璋	-11.6381
馭	-11.6381
溶溶	-11.6382
生施州	-11.6382
痼	-11.6382
濆	-11.6382
東觀漢記	-11.6383
趙抃	-11.6383
脇	-11.6383
亢	-11.6383
恂	-11.6384
顥	-11.6384
挟	-11.6384
蘊	-11.6384
孝經援神契	-11.6384
㩦	-11.6384
櫺	-11.6384
砍	-11.6384
斕	-11.6384
賭	-11.6385
欬逆	-11.6385
壬寅	-11.6385
聫	-11.6385
顙	-11.6385
琚	-11.6385
梁元帝纂要	-11.6385
飱	-11.6385
遏	-11.6385
嚮	-11.6385
左方鐫	-11.6386
譲	-11.6386
癘	-11.6386
豎	-11.6386
粽	-11.6386
个	-11.6386
錢録卷	-11.6386
醲	-11.6386
邯	-11.6386
蹶	-11.6387
癧	-11.6387
明項元汴	-11.6387
蘽	-11.6387
醑	-11.6388
逗	-11.6388
賈思勰	-11.6388
寥寥	-11.6388
解酒毒	-11.6388
妆	-11.6388
咫尺	-11.6389
殢	-11.6389
圻	-11.6389
諌	-11.6389
瘳	-11.6389
櫨	-11.6389
蛤蜊	-11.6389
怎	-11.6389
簽	-11.6389
弇	-11.6389
瀑	-11.639
瘙	-11.639
名同物異	-11.639
姢	-11.639
謝肇淛	-11.639
硯面正平	-11.6392
不以多少	-11.6392
朱淑真	-11.6392
儋	-11.6392
肴	-11.6392
企	-11.6392
暨	-11.6392
軾	-11.6392
蕳	-11.6392
迷迭	-11.6392
颭	-11.6393
啇	-11.6393
醸	-11.6393
徐似道	-11.6393
奄	-11.6394
麒麟	-11.6394
幌	-11.6394
利水道	-11.6394
疽	-11.6394
罇	-11.6394
帔	-11.6394
賫	-11.6394
迭	-11.6394
吉凶	-11.6395
國史補	-11.6395
馬志曰	-11.6395
區區	-11.6396
龕	-11.6396
稈	-11.6396
藜藿	-11.6396
和作餅子	-11.6396
竚	-11.6397
段成式	-11.6397
淬	-11.6397
明髙啓	-11.6397
頹	-11.6397
閬苑	-11.6397
祓	-11.6397
轡	-11.6397
纓絡	-11.6398
澼	-11.6398
噎	-11.6398
因以為名	-11.6398
蹈	-11.6398
恤	-11.6399
艮	-11.6399
滛	-11.6399
奚庭珪	-11.6399
癃	-11.6399
胞	-11.64
鑱	-11.64
鉤吻	-11.6401
鴿	-11.6401
懋勤殿	-11.6401
婺源	-11.6401
廂	-11.6401
璠	-11.6402
摯	-11.6402
八九寸	-11.6403
捻作餅子	-11.6403
鏁	-11.6403
蓓	-11.6403
汞	-11.6403
闥	-11.6404
蜨	-11.6404
窩	-11.6405
劉攽	-11.6406
韓駒	-11.6406
崗	-11.6407
斚	-11.6407
瘞	-11.6408
脣	-11.641
剏	-11.641
魮	-11.641
棕	-11.6411
斃	-11.6412
剩	-11.6413
釧	-11.6416
囬囬豆子	-11.6417
菓	-11.6418
鷰	-11.6419
卸	-11.6421
五勞七傷	-11.6424
日一澆	-11.6428
陸費墀	-11.6455
金顏香	-11.646
崑	-11.7098
蠕	-11.7111
萁	-11.7114
豨薟	-11.7123
鰐	-11.7124
閬	-11.7131
廩	-11.7131
咨	-11.7135
紥	-11.7135
芭	-11.7136
郭祥正	-11.7137
長方式	-11.7137
賀新郎	-11.7138
琦	-11.7139
菶	-11.7139
言古詩	-11.714
濠	-11.714
螘	-11.7141
嫵媚	-11.7141
叨	-11.7142
无咎	-11.7142
琯	-11.7142
瓔	-11.7142
覧	-11.7143
錬	-11.7144
沽	-11.7144
攄	-11.7145
芃芃	-11.7145
説硯髙四寸	-11.7145
胷	-11.7145
頋	-11.7145
生下濕地	-11.7146
甓	-11.7146
樨	-11.7146
司空曙	-11.7147
闐	-11.7147
逶迤	-11.7148
芣	-11.7148
五雜組	-11.7148
奭	-11.7148
俠	-11.7148
涘	-11.7149
煞	-11.7149
驥	-11.7149
魼	-11.7149
念奴嬌	-11.715
斁	-11.715
湫	-11.715
籖	-11.715
宋楊億	-11.7151
鯢	-11.7151
蝗	-11.7151
犢	-11.7151
斾	-11.7151
篘	-11.7152
菉	-11.7152
蛻	-11.7152
鶗鴂	-11.7152
瀘戎	-11.7152
旻	-11.7152
唐蔆鏡硯	-11.7153
牛蒡	-11.7153
史月表	-11.7154
匣葢鐫御題銘與硯同	-11.7155
彗	-11.7155
屹	-11.7155
葒	-11.7155
洞仙歌	-11.7157
辜	-11.7157
姪	-11.7157
姊妹	-11.7158
虐	-11.7158
耶律楚材	-11.7158
墨客揮犀	-11.7158
雨航雜録	-11.7159
蛩	-11.7159
李德裕	-11.7159
昶	-11.716
佺	-11.716
榔	-11.716
祿	-11.7161
迂	-11.7161
稌	-11.7161
涓涓	-11.7162
勑	-11.7162
揣	-11.7162
䃮	-11.7162
仭	-11.7162
胄	-11.7162
宼宗奭曰	-11.7163
畱	-11.7163
㬰	-11.7163
讚	-11.7163
鎭	-11.7163
蒭	-11.7163
貓	-11.7163
蔭	-11.7163
㢤	-11.7163
奶	-11.7163
髠	-11.7163
孽	-11.7164
漙	-11.7164
亶	-11.7164
宋晏殊	-11.7165
杳杳	-11.7165
鰕	-11.7165
䰟	-11.7165
攙	-11.7165
于敏中	-11.7165
瓞	-11.7165
鑰	-11.7165
哦	-11.7165
埓	-11.7165
暎	-11.7166
磴	-11.7166
揩	-11.7166
晡	-11.7166
蜓	-11.7167
餞	-11.7167
不計多少	-11.7167
咳	-11.7167
迤	-11.7168
圞	-11.7168
兠婁	-11.7168
駱	-11.7169
鉗	-11.7169
華嚴經	-11.7169
沖	-11.7169
品茶要録	-11.717
薷	-11.717
滴滴金	-11.717
蘜	-11.7171
元袁桷	-11.7172
冄	-11.7172
鷂	-11.7172
帕	-11.7173
筴	-11.7173
說硯髙六寸	-11.7175
峴	-11.7175
蝟	-11.7175
㽞	-11.7176
七品三命	-11.7177
砑	-11.7178
鼂	-11.7178
熒熒	-11.7179
芙	-11.7183
舷	-11.7185
墩	-11.7187
哺	-11.7188
箘	-11.7189
葯	-11.7189
日三服	-11.719
生平澤	-11.7194
𥙷中益氣	-11.7195
虇	-11.7227
辛温無毒	-11.745
檿	-11.79
味甘温無毒	-11.794
䜴	-11.7954
鰉	-11.7958
諾	-11.7958
喂	-11.796
朅	-11.7961
獅	-11.7961
彘	-11.7966
慷	-11.7966
勰	-11.7967
掀	-11.7969
粢	-11.7969
遒	-11.7969
綌	-11.797
月季花	-11.7971
姮	-11.7971
春秋運斗樞	-11.7971
寛二寸八分	-11.7972
凰	-11.7974
薅	-11.7975
汨	-11.7975
烜	-11.7976
而斗建	-11.7976
檝	-11.7976
鮝	-11.7977
宋澄泥製	-11.7977
駟	-11.7978
靛	-11.7978
當十錢	-11.7978
廨	-11.7978
跂	-11.7979
棐	-11.7979
楙	-11.7979
灼爍	-11.7981
洄	-11.7981
亰	-11.7981
徂徠	-11.7982
滸	-11.7982
偎	-11.7982
澣	-11.7982
鎬	-11.7982
喟	-11.7982
鯶	-11.7982
鄭康成	-11.7983
鯷	-11.7983
鎸	-11.7984
騖	-11.7984
唐書南蠻傳	-11.7984
匣底内鐫	-11.7984
葍	-11.7984
羇	-11.7985
綜	-11.7985
庾肩吾	-11.7985
愔	-11.7986
郷	-11.7986
薩	-11.7986
燿	-11.7986
畿	-11.7986
汜勝之書	-11.7986
豇	-11.7987
孔平仲	-11.7987
沍	-11.7987
躭	-11.7987
耜	-11.7988
廽	-11.7988
掉	-11.7988
經冬不凋	-11.7988
漢武内傳	-11.7989
璀	-11.7989
珉	-11.7989
畛	-11.7989
陸樹聲	-11.7989
名醫别錄	-11.7989
狸	-11.799
鯖	-11.799
琮	-11.799
枌	-11.7991
箘簵	-11.7991
瑾	-11.7992
礧	-11.7992
枰	-11.7992
籙	-11.7992
隷	-11.7992
飲膳正要	-11.7992
磐	-11.7992
劵	-11.7992
妹	-11.7993
霤	-11.7993
氤氳	-11.7993
元好問	-11.7993
珎	-11.7994
觚	-11.7995
右先将	-11.7995
唐錢起	-11.7995
熹	-11.7995
花客卿	-11.7995
撿	-11.7995
鍇	-11.7995
派	-11.7995
李羣玉	-11.7996
犧	-11.7996
金漳蘭譜	-11.7996
露未晞	-11.7996
卬	-11.7996
澇	-11.7996
騏	-11.7996
嫰	-11.7997
偹	-11.7997
瞰	-11.7997
米元章	-11.7998
颯颯	-11.7998
金髙士談	-11.7998
賞皇十	-11.7998
佛頭菊	-11.7998
扃	-11.7998
鍜	-11.7999
林和靖	-11.7999
賜近臣	-11.7999
天寳遺事	-11.7999
師古曰	-11.8
酋	-11.8
鵷	-11.8
溯	-11.8
萑	-11.8001
戕	-11.8001
鯔	-11.8001
月開小花	-11.8001
篲	-11.8001
螻	-11.8002
漠	-11.8002
笴	-11.8002
方寸匕	-11.8002
鷸	-11.8002
屣	-11.8003
蜩	-11.8003
鬰	-11.8003
搨	-11.8003
菝葜	-11.8003
灝	-11.8004
穤	-11.8004
瘴癘	-11.8004
癲	-11.8005
譯	-11.8005
辛棄疾	-11.8005
㦯	-11.8005
啗	-11.8006
鶡	-11.8007
吃	-11.8007
疴	-11.8007
鷄頭粉	-11.8007
餑	-11.8008
鶚	-11.8009
姒	-11.801
謗	-11.8013
石産土中	-11.8013
宋文同	-11.8014
賡	-11.8014
劉原父	-11.8014
籪	-11.8016
凈	-11.8016
扎	-11.8017
葙	-11.8018
摻	-11.802
饀	-11.8024
塩醋調和	-11.8024
北山酒經	-11.8026
娠	-11.8029
文武火	-11.8029
𨫼	-11.8034
渗	-11.8036
擀	-11.804
芺	-11.8041
麁	-11.8042
蠔	-11.8045
御題銘一首楷書鈐寳二曰比徳曰朗潤	-11.8204
橦	-11.8854
顔氏家訓	-11.8866
縚	-11.8866
杻	-11.8867
筌	-11.8868
避暑録話	-11.887
椇	-11.8871
詩召南	-11.8871
葽	-11.8873
伎	-11.8873
耩	-11.8874
捎	-11.8875
有赤白二種	-11.8875
椵	-11.8875
鄘	-11.8875
鱘	-11.8876
絛	-11.8876
鰒	-11.8877
逋	-11.8877
楩	-11.8877
晰	-11.8879
山其下多	-11.8879
睠	-11.888
睢	-11.888
華而不實	-11.888
鮞	-11.8881
瞑	-11.8883
菟	-11.8883
鯇	-11.8883
𬎼	-11.8884
蔑	-11.8884
􁂶	-11.8884
囷	-11.8885
訥	-11.8885
洛陽花木記	-11.8885
葡	-11.8886
嬈	-11.8886
墉	-11.8887
魏興和甎硯	-11.8887
旌節花	-11.8887
曼陀羅	-11.8887
崦	-11.8887
榎	-11.8887
婺	-11.8888
宥	-11.8888
穬	-11.8888
蜿	-11.8889
嶺表錄異	-11.8889
醁	-11.8889
恧	-11.8889
蠃	-11.889
裨	-11.889
捜神記	-11.889
蜆	-11.889
蕘	-11.8891
鑛	-11.8891
姨	-11.8891
豨	-11.8891
詐	-11.8891
纊	-11.8892
袒	-11.8892
爬	-11.8892
譌	-11.8893
䱡	-11.8893
蹉	-11.8893
劬	-11.8894
頺	-11.8894
仿宋天成風字硯	-11.8894
殃	-11.8894
覊	-11.8895
梧潯雜佩	-11.8896
簳	-11.8896
棖	-11.8896
宓	-11.8896
皇甫冉	-11.8896
惨	-11.8896
皿	-11.8896
氣味苦寒無毒治	-11.8897
欬逆上氣	-11.8897
蔤	-11.8897
貲	-11.8897
劉孝威	-11.8897
冦宗奭曰	-11.8897
癸辛雜識	-11.8897
惶	-11.8897
内府舊藏	-11.8898
四品六命	-11.8898
裒	-11.8898
獬	-11.8898
苒苒	-11.8898
馬祖常	-11.8898
鰲	-11.8899
舄	-11.8899
埽	-11.8899
夐	-11.8899
鰻鱺	-11.8899
楯	-11.8899
瞥	-11.8899
元劉詵	-11.8899
駞	-11.89
璽	-11.89
批	-11.89
穆天子傳	-11.89
藺	-11.89
穡	-11.89
聮	-11.8902
唼	-11.8902
韮	-11.8902
磧	-11.8902
㕓	-11.8902
格古要論	-11.8902
萋	-11.8903
柳宗元	-11.8903
忻	-11.8903
說硯髙八寸	-11.8903
挐	-11.8904
槳	-11.8904
大戴禮	-11.8904
泮	-11.8904
姹	-11.8905
旒	-11.8905
楥	-11.8905
枋	-11.8905
廖	-11.8905
陬	-11.8905
鸚	-11.8905
颸	-11.8905
刹	-11.8906
鉞	-11.8906
觥	-11.8906
婆羅門	-11.8906
纛	-11.8906
澠	-11.8906
繚	-11.8906
䘖	-11.8906
綱目云	-11.8907
稿	-11.8907
名勝志	-11.8907
疝瘕	-11.8907
綦	-11.8907
櫪	-11.8907
鈺	-11.8908
邽	-11.8908
躋	-11.8908
矚	-11.8908
劉貢父	-11.8908
悮	-11.8909
獠	-11.8909
劉孝綽	-11.891
晏元獻	-11.891
璘	-11.891
閃	-11.891
痾	-11.891
媪	-11.891
玳	-11.8911
虋	-11.8911
侮	-11.8912
鶩	-11.8912
㢲	-11.8912
屩	-11.8912
飡	-11.8912
泐	-11.8913
屎	-11.8913
骰	-11.8913
天南星	-11.8913
鷟	-11.8914
咫	-11.8914
夲草拾遺云	-11.8914
秣	-11.8914
䱥	-11.8914
煅	-11.8914
蔊	-11.8915
金盞銀臺	-11.8916
碓	-11.8916
漢官儀	-11.8916
畚	-11.8916
債	-11.8916
劉克荘	-11.8917
牛妳子	-11.8917
級	-11.8918
䖝	-11.8918
鍤	-11.8918
柹	-11.8918
故字從	-11.8918
𣲖	-11.8919
鴽	-11.8919
鉢内研	-11.8919
郝	-11.892
稳	-11.892
駛	-11.8922
譙	-11.8924
臠	-11.8924
空心食之	-11.8925
㬠	-11.8925
煼	-11.8925
唐觀象硯	-11.8925
右件同熬成湯濾浄	-11.8932
右件一同熬成	-11.8947
姙	-11.8955
槀	-11.8957
㫰	-11.8958
北壁石	-11.8967
御題詩一首楷書鈐寳二曰比徳曰朗潤	-11.9138
寸有半	-11.9574
香乗卷十	-11.9799
汪由敦銘	-11.9861
桋	-11.9863
豈比夫	-11.9865
夾竹桃	-11.9865
椅	-11.9866
䱤	-11.9866
鱀	-11.987
蠘	-11.987
䥥	-11.987
餒	-11.9871
碕	-11.9871
桀	-11.9873
簣	-11.9874
苽	-11.9874
踴	-11.9875
鱯	-11.9875
隠逸傳	-11.9876
蠞	-11.9878
董邦達	-11.9878
矞	-11.9879
鮯	-11.988
黽	-11.9881
准	-11.9881
媼	-11.9882
鳧	-11.9882
鱁	-11.9882
媧	-11.9883
長寸餘	-11.9883
届	-11.9883
糭	-11.9884
史記貨殖	-11.9884
坻	-11.9884
籊	-11.9885
秦始皇	-11.9887
禳	-11.9887
舸	-11.9887
大中祥符	-11.9888
味苦寒無毒主	-11.9888
窣	-11.9888
曾端伯	-11.9889
偓	-11.9889
䑃	-11.9889
獰	-11.9889
属	-11.989
庠	-11.989
榱	-11.989
元張翥	-11.989
成公綏	-11.989
鏞	-11.9891
郫	-11.9891
韓詩外傳	-11.9891
林景熙	-11.9892
坌	-11.9892
並鐫是詩𨽻書鈐寳二曰乾隆御製題	-11.9892
篙	-11.9892
得佳趣	-11.9893
纜	-11.9893
鱔	-11.9893
圉	-11.9893
笵	-11.9893
氐	-11.9894
王禹偁	-11.9894
月花盟主	-11.9894
逵	-11.9894
佶	-11.9894
受墨處正平	-11.9894
沬	-11.9894
殺三蟲	-11.9894
宋謝脁	-11.9894
墨鏽深厚	-11.9894
抃	-11.9895
向子諲	-11.9895
靭	-11.9895
尅	-11.9895
盛京志	-11.9896
篻	-11.9896
渟	-11.9896
贋	-11.9896
蜯	-11.9896
墨池深廣	-11.9897
慤	-11.9897
灞	-11.9897
繰	-11.9897
珊珊	-11.9897
粃	-11.9897
楞	-11.9897
説硯髙六寸	-11.9898
蘺	-11.9898
王昌齡	-11.9898
嘻	-11.9899
漢東方朔七	-11.9899
逖	-11.9899
仿宋徳夀殿犀紋硯	-11.9899
孑	-11.9899
弩	-11.9899
盲	-11.9899
華陽國志	-11.99
无	-11.99
霅	-11.9901
苯	-11.9901
藨	-11.9901
本草衍義	-11.9901
稲	-11.9901
顚	-11.9901
簋	-11.9901
茋	-11.9901
廪	-11.9901
柱各有眼	-11.9902
遵生八牋	-11.9902
巉	-11.9902
薜	-11.9902
捋	-11.9902
鄊	-11.9903
幾暇怡情	-11.9903
籦	-11.9903
揑	-11.9903
枻	-11.9903
𦕈	-11.9903
大觀茶論	-11.9903
掣	-11.9903
劄	-11.9903
愿	-11.9903
窈	-11.9904
愍	-11.9904
霹靂	-11.9904
韓魏公	-11.9904
髦	-11.9904
埒	-11.9904
醮	-11.9904
抝	-11.9905
拓	-11.9905
皚	-11.9905
諦	-11.9905
隳	-11.9905
二曰㡬暇怡情曰得佳趣御製	-11.9906
或大或小	-11.9906
孌	-11.9906
狩	-11.9906
湮	-11.9906
縋	-11.9907
櫂	-11.9907
殽	-11.9907
㤙	-11.9907
艧	-11.9907
多伽羅香	-11.9908
月采隂乾	-11.9908
琭	-11.9908
宋雘村石	-11.9908
利九竅	-11.9908
陳傅良	-11.9908
驄	-11.9908
両	-11.9908
蔌	-11.9908
遑	-11.9909
淆	-11.9909
續仙傳	-11.9909
慄	-11.9909
萬鈴菊	-11.991
溱	-11.9911
琨	-11.9911
歉	-11.9911
三餘贅筆	-11.9911
怠	-11.9911
鏨	-11.9911
恪	-11.9912
犂	-11.9912
陳氏香譜	-11.9913
紇	-11.9913
􁅳	-11.9913
鋩	-11.9913
梣	-11.9914
溽	-11.9915
延春閣	-11.9915
鑊	-11.9915
玖	-11.9915
檠	-11.9915
簞	-11.9916
摽	-11.9916
愉	-11.9916
晻	-11.9917
炰	-11.9917
開寶本草	-11.9918
棊	-11.9919
縐	-11.9919
小苑春望宫池柳色	-11.9919
石龍芮	-11.9919
餓	-11.9919
瑞雲翔龍	-11.9922
長九尺	-11.9922
寞	-11.9923
􁘥	-11.9923
東溪試茶録	-11.9923
瑋	-11.9924
澌	-11.9924
綂	-11.9925
訶黎勒	-11.9925
琲	-11.9926
茎	-11.9926
琉	-11.9927
鼊	-11.9927
渣	-11.9928
龍團勝雪	-11.993
悼	-11.9937
笆	-11.9938
䭱	-11.9945
炒葱塩醋調和	-11.9946
羊尾子	-11.9949
簩	-11.9953
䈚	-11.9962
兖	-12.0123
匣盖鐫御題詩與硯同𨽻書鈐寳	-12.0299
上方側鐫御題詩一首楷書鈐寳	-12.06
苦平無毒	-12.0845
纑	-12.0928
雈	-12.0935
䰽	-12.0947
蔦	-12.0964
璲	-12.0971
之山有木焉	-12.0971
鰾	-12.0973
蚩	-12.0974
元王惲	-12.0975
泖	-12.0975
鮬	-12.0976
鮭	-12.0977
伏惟陛下	-12.0978
舁	-12.0979
杴	-12.0979
本草圗經曰	-12.098
梁詩正銘	-12.0981
踈寮詩	-12.0983
一騎紅塵	-12.0983
冉	-12.0985
擒	-12.0986
鐫御題銘一首楷書鈐	-12.0987
説硯髙七寸	-12.0987
炤	-12.0987
竺	-12.0988
䙀	-12.0988
驤	-12.0989
砮	-12.0989
襜	-12.099
鯋	-12.099
涿	-12.099
疣	-12.099
笮	-12.0991
方輿勝覽	-12.0991
估	-12.0993
眇	-12.0994
鯧	-12.0994
濂	-12.0994
蜡	-12.0994
耆舊傳	-12.0994
蒐	-12.0995
窊	-12.0996
蠏	-12.0996
狙	-12.0997
芮	-12.0997
膂	-12.0997
蘼	-12.0998
藙	-12.0998
芉	-12.0998
刄	-12.0999
遝	-12.0999
哆	-12.0999
楷書鈐寶一曰	-12.0999
榝	-12.0999
面青背淡	-12.1
讃	-12.1
鄭樵通志	-12.1
仿宋玉兔朝元硯	-12.1001
懊	-12.1001
郤	-12.1001
䱀	-12.1002
淛	-12.1002
籓	-12.1002
蓏	-12.1002
明呉寛	-12.1002
枵	-12.1002
犖	-12.1002
六品四命	-12.1002
薯	-12.1004
隸	-12.1004
䱟	-12.1004
鏃	-12.1005
歐陽文忠	-12.1005
崕	-12.1005
䲛	-12.1005
晼	-12.1006
與千户侯等	-12.1006
說硯髙三寸	-12.1006
黜	-12.1006
笳	-12.1006
鄲	-12.1006
嶇	-12.1006
瞞	-12.1006
祜	-12.1006
㟁	-12.1006
麞	-12.1007
楊國忠	-12.1007
峋	-12.1007
風寒濕痺	-12.1007
唳	-12.1007
炕	-12.1007
餔	-12.1007
尠	-12.1007
糁	-12.1008
宋劉筠	-12.1008
陶商翁詩	-12.1008
匣盖外鐫	-12.1009
毎百觔稅銀	-12.1009
堞	-12.1009
紿	-12.1009
嶙	-12.1009
韲	-12.1009
澄懐錄	-12.1009
􁫣	-12.1009
李建勲	-12.101
宋史禮志	-12.101
㠶	-12.101
蛸	-12.101
蔀	-12.101
氓	-12.101
禮斗威儀	-12.101
撃	-12.101
蜚	-12.101
篷	-12.1011
金光明經謂之	-12.1011
浚	-12.1011
纚	-12.1011
劉向九歎	-12.1011
緊	-12.1011
藐	-12.1011
春渚紀聞	-12.1011
櫓	-12.1011
缷	-12.1011
彦周詩話	-12.1011
潛確類書	-12.1011
瞭	-12.1012
籥	-12.1012
宗景祐三年禮官宗正請每	-12.1012
躅	-12.1012
暵	-12.1013
誨	-12.1013
斲	-12.1014
憫	-12.1014
玦	-12.1014
匣㡳内鐫乾隆御用四字	-12.1014
堠	-12.1014
南齊書祥瑞志	-12.1014
候補主事陸廷燦撰	-12.1014
輯	-12.1015
纏	-12.1015
屨	-12.1015
瓉	-12.1015
蠒	-12.1015
蒯	-12.1015
覈	-12.1015
稀稠得所	-12.1015
磷	-12.1015
蛣	-12.1016
楊巨源	-12.1016
痊	-12.1016
﨑	-12.1017
檾	-12.1017
不住手攪	-12.1018
廣輿記	-12.1018
蟶	-12.1018
蘠	-12.1018
䔲	-12.1019
韋仲將	-12.1019
蟣	-12.1019
畬	-12.1019
梁昭明太子錦	-12.1019
熁	-12.1019
歜	-12.1019
鍳	-12.1019
寳一曰乾隆御玩御製	-12.1019
冢	-12.1019
雲林石譜	-12.102
塍	-12.102
雩	-12.102
噤	-12.1021
麽	-12.1021
法和衆妙香	-12.1021
嵯	-12.1021
輻	-12.1021
塚	-12.1021
諡	-12.1021
嬖	-12.1021
米泔浸	-12.1021
一曰㡬暇怡情	-12.1021
墨譜法式	-12.1022
戴叔倫	-12.1022
𦍑	-12.1022
栴	-12.1023
桁	-12.1023
氲	-12.1024
馗	-12.1024
騮	-12.1024
罾	-12.1024
擂	-12.1024
農桑通訣	-12.1025
絆	-12.1025
狡	-12.1025
絹袋盛	-12.1025
酎	-12.1026
棬	-12.1026
搘	-12.1027
舖	-12.1027
摺	-12.1029
脰	-12.1029
塡	-12.1029
贑	-12.103
寳一曰乾隆	-12.103
浡	-12.103
郭璞江賦	-12.1031
捍	-12.1031
寨	-12.1031
嫓	-12.1031
慾	-12.1031
兌	-12.1033
揆	-12.1034
杰	-12.1035
鸇	-12.1035
宋史藝文志	-12.1036
范文正公	-12.1036
藾	-12.1036
甖	-12.1036
鄱	-12.1037
宋宣和梁苑雕龍硯	-12.1037
􁗀	-12.1038
褫	-12.1038
寖	-12.1039
唐彦猷	-12.104
朿	-12.104
鍑	-12.104
妳	-12.1044
棒	-12.1047
陸務觀	-12.1048
鐫御題詩一首𨽻書鈐寳	-12.1765
一曰朗潤	-12.1799
旃	-12.213
䱱	-12.2181
之山有草焉其狀如	-12.2215
鯼	-12.2218
開元通寶	-12.222
戢	-12.2225
諼	-12.2225
夏侯湛	-12.2226
朮	-12.2227
畤	-12.2228
禇	-12.2229
酤	-12.223
趙孟頫	-12.2232
紝	-12.2233
膨	-12.2233
瘢	-12.2234
鱊	-12.2234
滔	-12.2235
鱏	-12.2235
恊	-12.2236
惰	-12.2236
繕	-12.2237
顓	-12.2237
䱇	-12.2238
瞬	-12.2239
鰫	-12.2239
屧	-12.224
悚	-12.224
棱	-12.224
䧏	-12.224
饜	-12.224
薍	-12.224
弧	-12.2241
闞	-12.2241
謝幼槃詩	-12.2241
潢	-12.2242
鹺	-12.2242
敕	-12.2242
橑	-12.2243
虞衡志	-12.2244
懲	-12.2244
碍	-12.2245
元許有壬	-12.2245
鶴林玉露	-12.2245
鄭氏允端	-12.2247
湓	-12.2247
隘	-12.2247
㓨	-12.2249
惋	-12.2249
珝	-12.2249
㵎	-12.225
田園雜興	-12.225
􁇩	-12.225
掐	-12.2251
窅	-12.2251
祟	-12.2251
畎	-12.2251
洱	-12.2251
眎	-12.2251
轄	-12.2251
貸	-12.2251
鐙	-12.2251
顱	-12.2252
吼	-12.2252
鎪	-12.2252
宙	-12.2252
昴	-12.2252
離几一寸	-12.2253
翮	-12.2253
厮	-12.2253
彿	-12.2254
王沂孫	-12.2254
明袁凱	-12.2254
䧟	-12.2254
蓺	-12.2254
渌	-12.2255
受墨處寛平	-12.2255
張衡南都賦	-12.2255
瑗	-12.2255
脞	-12.2255
齊東野語	-12.2255
跎	-12.2255
景龍文館	-12.2257
弛	-12.2257
氳	-12.2257
銓	-12.2257
飀	-12.2258
磑	-12.2258
煕	-12.2258
卅	-12.2258
郄	-12.2258
沔	-12.2258
忱	-12.2259
儗	-12.2259
匣盖並鐫是銘𨽻書鈐寳二曰乾隆	-12.226
甍	-12.226
卣	-12.226
生熟皆可食	-12.226
凟	-12.226
鱨	-12.226
􁬡	-12.226
櫚	-12.2261
魵	-12.2261
佯	-12.2261
悁	-12.2261
繢	-12.2261
靳	-12.2261
爕	-12.2261
諠	-12.2262
籯	-12.2262
怖	-12.2262
薐	-12.2262
字欵俱行書	-12.2262
沈佺期	-12.2263
柈	-12.2263
傚	-12.2263
櫸	-12.2263
山家清供	-12.2264
蠆	-12.2264
凑	-12.2264
壹	-12.2264
唘	-12.2264
撑	-12.2264
楚屈原九	-12.2265
令人肥健	-12.2265
璹	-12.2265
宋端石洛書硯	-12.2265
噓	-12.2265
狥	-12.2266
鷁	-12.2266
奐	-12.2266
抖	-12.2266
渦	-12.2266
潘岳閒居賦	-12.2267
抺	-12.2267
煿	-12.2267
拄	-12.2267
栲	-12.2268
懌	-12.2268
淩	-12.2268
緼	-12.2268
芄	-12.2268
鬖	-12.2268
豊	-12.2268
茺	-12.2268
毯	-12.2268
畮	-12.2268
芽十二水十㝛火正貢一百	-12.2268
菝	-12.2268
蘞	-12.2269
屠本畯	-12.2269
延年益夀	-12.2269
穩	-12.2269
潏	-12.2269
大業拾遺	-12.2269
鎌	-12.227
筅	-12.227
杷	-12.227
銹	-12.227
禋	-12.227
漈	-12.227
荂	-12.227
僭	-12.2271
鱭	-12.2271
葇	-12.2271
憨	-12.2271
鄆	-12.2272
盱	-12.2272
􁇪	-12.2272
淖	-12.2273
大如拇指	-12.2273
閴	-12.2273
撾	-12.2273
鑪	-12.2274
蓐	-12.2274
張祥鳶	-12.2274
姣	-12.2274
􁥀	-12.2274
㰖	-12.2274
鵑	-12.2274
麾	-12.2275
郴	-12.2275
拇	-12.2275
王不留行	-12.2276
嫵	-12.2276
悍	-12.2276
譁	-12.2276
撇	-12.2277
涏	-12.2277
𤣥都觀裏	-12.2277
恢	-12.2278
塑	-12.2278
懃	-12.2279
勛	-12.2279
嘬	-12.2279
蚘	-12.2279
舊澄泥玉堂硯	-12.2279
盛京通志	-12.2279
􁊨	-12.2279
腳	-12.2281
嶰	-12.2281
璉	-12.2281
旛	-12.2281
右爲細末	-12.2281
壚	-12.2282
􁵂	-12.2283
町	-12.2284
禹餘糧	-12.2284
媸	-12.2284
坳	-12.2286
飰	-12.2286
􁑀	-12.2286
䵟	-12.2287
嫉	-12.2287
宋史鑄撰	-12.2287
檖	-12.2287
碪	-12.2291
罡	-12.2292
悸	-12.2294
輅	-12.2294
浹	-12.2295
鄞	-12.2296
萇	-12.2298
右件用好肉湯	-12.2299
喊	-12.23
囓	-12.2302
回回豆子	-12.2322
鈐寳一曰太璞	-12.2398
仿漢石渠閣瓦硯	-12.2428
周鐫御題詩一首楷書鈐寳一曰	-12.2728
鮸	-12.3621
藭	-12.3633
梀	-12.3634
粼	-12.364
誼	-12.3642
聒	-12.3643
䲙	-12.3644
勵宗萬銘	-12.365
魾	-12.365
䕷	-12.3651
杬	-12.3656
蜷	-12.3656
咒	-12.3658
鮀	-12.3658
㬉	-12.366
畯	-12.366
鼇	-12.3661
魶	-12.3661
益部方物略記	-12.3661
周環以渠	-12.3663
蔔	-12.3664
澱	-12.3664
鰽	-12.3666
籧	-12.3667
莙	-12.3667
葴	-12.3667
阨	-12.3667
爨	-12.3668
彝	-12.3668
張若靄銘	-12.3669
窳	-12.3669
滉	-12.367
陳張正見	-12.367
鈕	-12.367
􁩌	-12.3672
橛	-12.3673
荍	-12.3673
茟	-12.3673
綉	-12.3673
春秋元命苞	-12.3674
蔏	-12.3675
埤	-12.3675
汜	-12.3675
輈	-12.3675
䕩	-12.3675
搬	-12.3676
擠	-12.3676
􁡜	-12.3676
琬	-12.3676
蒚	-12.3676
捃	-12.3676
脁	-12.3676
鈐寶一曰乾隆御玩	-12.3676
椶	-12.3676
𤣥扈先生曰	-12.3676
窒	-12.3676
薸	-12.3676
㘭	-12.3677
面青背白	-12.3677
兩腋清風	-12.3677
耮	-12.3677
努	-12.3678
棼	-12.3678
簀	-12.3679
㪷	-12.3679
蓛	-12.3679
飭	-12.3679
先薦寢廟	-12.3679
兢	-12.368
筝	-12.368
締	-12.3681
寬	-12.3681
緹	-12.3681
葹	-12.3682
圏	-12.3682
疔	-12.3682
實别見果譜	-12.3683
霎	-12.3683
蒋	-12.3684
艸	-12.3684
栯	-12.3684
姻	-12.3684
讒	-12.3685
郯	-12.3685
㡳	-12.3685
啞	-12.3685
蕺	-12.3685
庾肩吾謝賚	-12.3685
隖	-12.3685
頩	-12.3685
眄	-12.3685
抉	-12.3685
王子年拾遺記	-12.3686
槧	-12.3686
嶄	-12.3686
潼	-12.3686
帨	-12.3686
晤	-12.3686
磔	-12.3686
紱	-12.3686
秠	-12.3686
嗚	-12.3686
舛	-12.3687
跬	-12.3687
悰	-12.3687
㕑	-12.3687
痒	-12.3687
礫	-12.3687
鰅	-12.3687
兗	-12.3687
拽	-12.3688
緌	-12.3688
冺	-12.3688
閽	-12.3688
娯	-12.3688
䜟	-12.3689
罹	-12.3689
秕	-12.3689
慟	-12.3689
泯	-12.3689
醆	-12.3689
懦	-12.369
金蔡松年	-12.369
渫	-12.369
濬	-12.369
擡	-12.369
𣙜貨務	-12.369
乾淳嵗時記	-12.369
湊	-12.3691
儵	-12.3691
覲	-12.3691
娶	-12.3691
雲林遺事	-12.3691
鵙	-12.3691
跛	-12.3691
贖	-12.3691
稧	-12.3691
㝛	-12.3691
鬈	-12.3692
桴	-12.3692
櫐	-12.3692
茒	-12.3692
鄕	-12.3692
娑	-12.3692
莓	-12.3692
頥	-12.3693
臊	-12.3693
全芳備祖	-12.3693
滙	-12.3693
蒳	-12.3693
傭	-12.3694
噏	-12.3694
薨	-12.3694
羆	-12.3694
徉	-12.3694
䬼	-12.3694
蕹	-12.3694
薔	-12.3695
姦	-12.3695
月之管名為	-12.3695
鍛	-12.3695
畀	-12.3695
䖀	-12.3695
跖	-12.3696
氅	-12.3696
䳄	-12.3696
東京夢華錄	-12.3696
綆	-12.3696
磥	-12.3696
捶	-12.3697
麕	-12.3697
虫	-12.3697
呀	-12.3697
址	-12.3697
噙	-12.3697
綈	-12.3698
珊	-12.3698
邐	-12.3699
老學菴筆記	-12.3699
糗	-12.3699
䌫	-12.3699
恡	-12.3699
籝	-12.3699
顗	-12.3699
南部新書	-12.37
泱	-12.37
腠	-12.37
虆	-12.37
髙似孫硯箋	-12.37
扦	-12.37
皦	-12.37
嶷	-12.37
你	-12.37
䜿	-12.37
躚	-12.3701
􁐍	-12.3701
簁	-12.3701
醞	-12.3702
愜	-12.3702
憾	-12.3702
稏	-12.3702
㫄	-12.3703
枹	-12.3703
䭲	-12.3703
詆	-12.3703
奸	-12.3703
程敦厚	-12.3703
朂	-12.3703
㛰	-12.3704
窘	-12.3704
妺	-12.3704
戱	-12.3704
斆	-12.3704
崒	-12.3704
裼	-12.3704
陸羽茶經不第建安之品	-12.3704
氣味苦寒有毒治	-12.3705
哂	-12.3705
洪志引舊譜	-12.3705
撻	-12.3706
解諸藥毒	-12.3706
斡	-12.3707
書録解題	-12.3707
閼	-12.3707
蝉	-12.3707
瀬	-12.3707
韈	-12.3707
右為極細末	-12.3707
闋	-12.3707
棪	-12.3709
搽	-12.3709
臨海水土記	-12.3709
辟瘟疫	-12.3709
謐	-12.3711
僖	-12.3711
鋌	-12.3711
阪	-12.3712
麏	-12.3712
吒	-12.3712
樅	-12.3712
貂	-12.3712
醨	-12.3712
胫	-12.3713
𨽻書鈐寳二曰比徳曰朗潤	-12.3714
耦	-12.3715
翾	-12.3715
寇	-12.3715
瓝	-12.3716
竹籬茅舍	-12.3716
徊	-12.3717
贗	-12.3718
氣味苦温無毒	-12.3718
御苑玉芽	-12.3718
曈	-12.372
沲	-12.3721
槮	-12.3721
欽定四庫全書百菊集譜卷	-12.3722
膊	-12.3724
瀦	-12.3727
媯	-12.3727
穊	-12.3727
栭	-12.3727
漱	-12.3728
崧	-12.373
璆	-12.3733
檽	-12.3738
㙡	-12.374
蔎	-12.3741
篃	-12.3746
鐫御題詩一首楷書鈐寶二曰	-12.3747
箏	-12.3756
塩少許調和	-12.3757
􁉨	-12.3789
𨽻書鈐寳二曰乾隆御製	-12.4671
央	-12.5227
莕	-12.5252
鯸	-12.5275
稞	-12.5296
榣	-12.5306
夬	-12.5309
矴	-12.5313
伏惟皇帝陛下	-12.5313
嶔	-12.5314
鱤	-12.5314
聃	-12.5317
􁟝	-12.5319
綫	-12.5319
裘曰修銘	-12.532
蛹	-12.5321
蝤	-12.5321
䘂	-12.5321
鰨	-12.5323
箐	-12.5324
换	-12.5324
鵜	-12.5325
蓲	-12.5326
騩	-12.5326
橿	-12.5326
蹴	-12.5328
頔	-12.5328
蛑	-12.5328
陳邦彦銘	-12.5329
絙	-12.533
蠙	-12.5331
荸	-12.5331
漵	-12.5331
饔	-12.5331
慝	-12.5331
焦氏易林	-12.5332
海録碎事	-12.5332
壍	-12.5333
繆	-12.5333
􁬊	-12.5333
豸	-12.5334
釭	-12.5334
枮	-12.5335
宫以植所得竒草異木	-12.5336
内鐫御題銘與硯同並𨽻書鈐寳	-12.5336
櫾	-12.5336
蝥	-12.5338
饁	-12.5338
㐮	-12.5339
郍	-12.534
蘵	-12.534
弭	-12.5341
譎	-12.5341
顋	-12.5342
妊	-12.5342
璟	-12.5342
頊	-12.5342
愕	-12.5343
格物叢話	-12.5343
宋澄泥圭硯	-12.5343
隲	-12.5344
開元天寶遺事	-12.5344
滳	-12.5344
燖	-12.5344
糓	-12.5345
追和朱樂圃蘇學	-12.5345
端溪老坑石	-12.5345
帟	-12.5346
悌	-12.5346
縶	-12.5346
杆	-12.5347
䱽	-12.5347
秸	-12.5347
蕣	-12.5347
㝢	-12.5347
許次杼茶疏	-12.5347
牓	-12.5348
腔	-12.5348
俘	-12.5348
叵	-12.5348
豌	-12.5349
酹	-12.5349
筏	-12.5349
覘	-12.5349
瑚	-12.535
懈	-12.535
垓	-12.535
汧	-12.535
倣宋徳夀殿犀文硯倣宋天成風字硯	-12.535
澄泥八方硯	-12.535
鵓	-12.535
􁉤	-12.535
娼	-12.5351
稡	-12.5351
楪	-12.5351
藘	-12.5351
蒴	-12.5351
蟺	-12.5352
掄	-12.5352
鰍	-12.5352
䱓	-12.5352
蓁	-12.5352
䨲	-12.5352
蔟	-12.5352
宋謝惠連	-12.5352
蓫	-12.5352
縢	-12.5352
崛	-12.5352
鱐	-12.5352
彖	-12.5352
薋	-12.5352
鉸	-12.5352
左圭百川學海	-12.5352
欽定四庫全書續茶經卷下之	-12.5352
鶬	-12.5353
蟇	-12.5353
姚氏殘語	-12.5353
􁜍	-12.5353
嵒	-12.5353
旂	-12.5353
灃	-12.5353
櫖	-12.5353
蠌	-12.5353
泬	-12.5354
鞚	-12.5354
韵	-12.5354
昕	-12.5354
􁞟	-12.5354
募	-12.5354
獐	-12.5355
緱	-12.5355
蝑	-12.5355
蚏	-12.5355
窿	-12.5355
驃	-12.5355
嘿	-12.5356
胝	-12.5356
袐	-12.5356
幛	-12.5356
箣	-12.5357
昵	-12.5357
媵	-12.5357
恚	-12.5357
蒁	-12.5357
滎	-12.5357
硫	-12.5358
張文潜詩	-12.5358
㓂	-12.5358
四時有葉無花	-12.5358
扄	-12.5358
隧	-12.5358
岧	-12.5358
垠	-12.5359
䙝	-12.5359
霉	-12.5359
剗	-12.5359
砦	-12.5359
噦	-12.5359
僰	-12.536
苕溪漁隠叢話	-12.536
宋澄泥石函硯	-12.536
犍	-12.536
紫桃軒雜綴	-12.536
瀛厓勝覽	-12.536
恁	-12.536
容齋隨筆	-12.5361
頫	-12.5361
槊	-12.5362
鷖	-12.5362
齕	-12.5362
友張敏叔以	-12.5362
籀	-12.5362
歊	-12.5362
糴	-12.5362
貳	-12.5362
隃	-12.5363
簴	-12.5363
褚	-12.5363
霈	-12.5363
櫧	-12.5363
灧	-12.5363
姫	-12.5363
㵸	-12.5363
彧	-12.5363
㳫	-12.5364
釋氏㑹要	-12.5364
戮	-12.5364
檕	-12.5364
燋	-12.5364
疝	-12.5365
斿	-12.5365
沴	-12.5365
沆	-12.5365
嚲	-12.5366
以為孝感所致	-12.5366
咤	-12.5366
皥	-12.5366
說硯髙四寸五分寛二寸	-12.5366
黠	-12.5366
戶	-12.5366
矻	-12.5366
劎	-12.5367
壒	-12.5367
窞	-12.5367
何可一日無此君	-12.5368
浃	-12.5368
睪	-12.5368
蘇軾和子由岐下	-12.5368
劉禹錫和令狐相公	-12.5368
喇	-12.5368
􁬈	-12.5368
菪	-12.5368
馜	-12.5368
岕茶彚鈔	-12.5368
咍	-12.5368
礎	-12.5369
裀	-12.5369
元朱徳潤	-12.5369
塋	-12.5369
皃	-12.537
賂	-12.537
馞	-12.537
遯齋閒覽	-12.537
腓	-12.537
㲲	-12.537
簄	-12.537
坰	-12.5371
婿	-12.5371
飜	-12.5372
症	-12.5372
箎	-12.5372
撘	-12.5372
􁫗	-12.5372
壖	-12.5373
妥	-12.5373
快雪堂漫	-12.5373
宋蘇易簡撰	-12.5373
廌	-12.5374
褵	-12.5374
𨽻書鈐寳一曰乾隆御玩外鐫標識曰	-12.5374
佘	-12.5375
簍	-12.5375
岏	-12.5375
党	-12.5375
种	-12.5375
丐	-12.5376
屍	-12.5376
𣪚	-12.5376
湖山勝槩	-12.5376
媺	-12.5377
䑛	-12.5377
朹	-12.5377
挨	-12.5378
丸如桐子大	-12.5379
錠	-12.5379
殁	-12.538
扳	-12.538
欏	-12.5381
婪	-12.5382
䭔	-12.5384
一脚子卸成事件	-12.5384
􁙯	-12.5384
麨	-12.5385
丸如梧桐子大	-12.5386
匽	-12.5387
劾	-12.5387
輥	-12.5388
􁉩	-12.5389
􁫂	-12.5389
㷔	-12.539
元張𢎞範	-12.539
右件同熬成湯濾淨	-12.5391
鵰	-12.5393
弹	-12.5394
綳	-12.5394
濳	-12.5395
鞾	-12.5397
鯾	-12.5398
􁸎	-12.5399
霾	-12.5403
翬	-12.5405
診	-12.5406
臕	-12.541
郛	-12.5411
羊肉羊脂羊尾子葱陳皮	-12.5437
右為末煉蜜和劑作餅焚之	-12.5441
鐫乾隆御用四字	-12.7224
蒹	-12.727
鱎	-12.7281
鮊	-12.7289
螃	-12.7292
鯮	-12.7296
薀	-12.7299
張衡東京賦	-12.7302
覬	-12.7303
茴	-12.7305
机	-12.7308
惇	-12.731
丕	-12.7312
縕	-12.7316
愠	-12.7317
搾	-12.7317
姱	-12.7317
硯背印建安十五年五字	-12.7319
尨	-12.732
綢	-12.7323
㟧	-12.7323
睍	-12.7323
􁱔	-12.7323
歠	-12.7324
檣	-12.7324
餮	-12.7325
猱	-12.7325
崿	-12.7326
撝	-12.7326
琤	-12.7326
虌	-12.7327
戔	-12.7329
邅	-12.7329
厪	-12.7329
猨	-12.7329
軿	-12.733
釁	-12.733
熇	-12.733
夌	-12.733
櫬	-12.733
鏽	-12.7331
葈	-12.7331
犲	-12.7333
鞮	-12.7333
莵	-12.7333
杕	-12.7333
萯	-12.7333
茱	-12.7333
鳲鳩在桑其子	-12.7334
澘	-12.7334
漢武帝元鼎六年破南越起扶荔	-12.7334
後十五日斗指	-12.7334
􁀧	-12.7335
廐	-12.7335
籕	-12.7335
饐	-12.7336
鵯	-12.7336
傴	-12.7336
撆	-12.7336
霪	-12.7337
下方側面鐫御題詩一首楷書鈐	-12.7338
汰	-12.7338
蘇軾和文與可洋州園池	-12.7338
蘇軾和子由記園中草木	-12.7338
鍪	-12.7338
鮰	-12.7338
宋四螭澄泥硯	-12.7339
眙	-12.734
瑑	-12.734
薿	-12.7341
湟	-12.7341
躔	-12.7341
蓷	-12.7341
滃	-12.7342
燕人易元光	-12.7342
僂	-12.7342
抒	-12.7343
嶒	-12.7343
碣	-12.7343
藇	-12.7343
暁	-12.7344
械	-12.7344
黧	-12.7344
嚇	-12.7344
呷	-12.7344
甯	-12.7344
疎影横斜水清淺暗香浮動月黄昬	-12.7344
洹	-12.7346
覆手自上削下	-12.7346
隋薛道衡	-12.7346
隼	-12.7346
崐	-12.7346
鷴	-12.7346
套	-12.7347
砰	-12.7347
澥	-12.7347
岱輿山北有	-12.7347
綍	-12.7347
㓗	-12.7347
蘘	-12.7347
桔	-12.7347
姞	-12.7348
騅	-12.7348
塾	-12.7348
葪	-12.7348
鷦	-12.7348
漑	-12.7348
墐	-12.7348
鎰	-12.7349
廞	-12.7349
怳	-12.7349
二曰乾隆宸翰曰惟精惟一	-12.7349
治脾胃虚弱	-12.7349
鰩	-12.7349
燬	-12.7349
剽	-12.7349
菵	-12.7349
棎	-12.735
跧	-12.735
鏟	-12.735
袴	-12.735
洶	-12.7351
廙	-12.7351
讐	-12.7351
癱	-12.7351
羿	-12.7352
証	-12.7352
金党懐英	-12.7352
躓	-12.7352
漶	-12.7352
澠水燕談	-12.7352
䕭	-12.7352
餗	-12.7353
塟	-12.7353
吮	-12.7353
鑵	-12.7353
􁩉	-12.7353
擯	-12.7353
芍	-12.7353
臈	-12.7353
輾	-12.7354
扆	-12.7354
壷	-12.7354
瞠	-12.7354
㙲	-12.7354
嬋	-12.7355
陲	-12.7355
洑	-12.7355
菣	-12.7355
說硯以歙石為之形體尺度	-12.7355
蜞	-12.7355
㮚	-12.7356
朐	-12.7356
屡	-12.7356
覇	-12.7356
灸	-12.7356
緤	-12.7356
氾	-12.7357
匣葢鐫御題詩與硯同𨽻書鈐	-12.7357
莟	-12.7357
賅	-12.7357
繳	-12.7357
並與舊石仿製同上方側面鐫	-12.7357
嚬	-12.7357
熲	-12.7357
鉎	-12.7357
饙	-12.7357
𠂻	-12.7357
鰸	-12.7358
异	-12.7358
搊	-12.7358
獒	-12.7358
勘	-12.7358
諮	-12.7358
諗	-12.7359
愽	-12.7359
濮	-12.7359
㠋	-12.7359
叉	-12.736
餁	-12.736
庋	-12.736
舵	-12.736
䱾	-12.736
易通卦驗	-12.736
鬂	-12.736
懾	-12.736
肄	-12.736
鴆	-12.736
仝前正貢一百片	-12.736
山水乳泉石池漫流者上	-12.736
捩	-12.736
蜒	-12.7361
燾	-12.7361
佩文齋廣羣芳譜	-12.7361
䭾	-12.7361
䘌	-12.7361
幰	-12.7361
砘	-12.7361
與兒洗面作	-12.7361
尿	-12.7362
撅	-12.7362
睫	-12.7362
昃	-12.7362
說硯係澄泥製形體尺度	-12.7362
䬣	-12.7363
鼾	-12.7363
㚄	-12.7363
醹	-12.7363
笱	-12.7363
鬴	-12.7364
嫮	-12.7364
廛	-12.7364
埔	-12.7364
玷	-12.7364
三桞軒雜識	-12.7365
始皇起雲明臺窮四方之珍木	-12.7365
犒	-12.7365
咋	-12.7365
灤	-12.7365
茳	-12.7365
萹	-12.7366
鳲	-12.7366
疚	-12.7366
紓	-12.7366
誰謂荼苦其甘如薺	-12.7366
坪	-12.7366
瀧	-12.7366
片入腦子大鳯一千	-12.7366
黮	-12.7366
皋	-12.7368
亞深葉根多冗	-12.7368
墊	-12.7368
楣	-12.7368
淥	-12.7368
葎	-12.7368
帡	-12.7369
瘵	-12.7369
巇	-12.7369
䆒	-12.7369
磋	-12.7369
鄣	-12.7369
裡	-12.7369
京鋌改造大龍	-12.7369
鑣	-12.737
瞪	-12.737
碏	-12.737
貟	-12.7371
氍	-12.7371
蜇	-12.7371
鱳	-12.7371
鰋	-12.7371
䔛	-12.7371
遄	-12.7371
帘	-12.7372
扛	-12.7373
苟	-12.7373
蟯	-12.7373
鼯	-12.7373
􁟢	-12.7373
荓	-12.7373
囑	-12.7374
昩	-12.7374
渲	-12.7374
鷲	-12.7374
杌	-12.7374
桮	-12.7374
欷	-12.7374
歔	-12.7374
聶	-12.7374
穭	-12.7374
刁	-12.7374
嫫	-12.7375
䦕	-12.7375
諶	-12.7375
垜	-12.7375
痂	-12.7375
居空令蕙草殘	-12.7375
成式狀温荅云	-12.7376
茀	-12.7376
瀍	-12.7376
遡	-12.7376
拉	-12.7377
鏐	-12.7377
槱	-12.7377
開頭可八九寸許	-12.7377
梟	-12.7377
漁隱叢話	-12.7377
爚	-12.7378
􁉧	-12.7378
繽	-12.7379
澨	-12.7379
珽	-12.7379
盝	-12.7379
用鷄頭粉二斤豆粉一斤	-12.7379
軻	-12.7381
雎	-12.7381
飥	-12.7381
鷯	-12.7382
脅	-12.7382
粮	-12.7382
東京夢華録	-12.7382
宋文天祥玉帶生硯	-12.7383
魧	-12.7383
䧺	-12.7383
竆	-12.7384
㳂	-12.7387
桌	-12.7387
憒	-12.7387
帬	-12.7388
泞	-12.7389
幷	-12.739
蜠	-12.7391
臝	-12.7391
簢	-12.7393
鉄	-12.7394
陡	-12.7394
鰟	-12.7394
璺	-12.7395
慥	-12.7395
瞽	-12.7401
莤	-12.7401
櫜	-12.7401
蕷	-12.7403
檛	-12.7408
楱	-12.7412
箄	-12.7413
蚳	-12.7417
右件入料物塩醤拌	-12.742
摇	-12.7421
耎	-12.7438
匣底内鐫乾隆御用四字外鐫	-12.7444
餻	-12.745
薕	-12.9756
䒒	-12.9778
煁	-12.9781
玘	-12.9796
瀚	-12.9797
􁎅	-12.9799
咂	-12.98
沜	-12.98
笞	-12.9801
虷	-12.9803
􁈴	-12.9804
褷	-12.9806
澂	-12.9806
鯝	-12.9806
而縠理金聲而玉	-12.9807
鵻	-12.981
琥	-12.981
舊端石蟠䕫鐘硯	-12.9811
藄	-12.9812
闖	-12.9812
敻	-12.9814
􁆜	-12.9814
叡	-12.9817
薟	-12.9817
欽定西清硯譜	-12.9817
薲	-12.9818
漢未央宫北温室殿瓦硯	-12.9818
龍徳膺符四字	-12.9819
醽	-12.9819
薚	-12.9819
閡	-12.9819
煇	-12.9821
鼃	-12.9821
麹	-12.9821
苨	-12.9823
楔	-12.9823
宋澄泥䕫紋硯	-12.9824
龑	-12.9824
葫	-12.9825
舊蕉白瓠葉硯	-12.9825
舊蕉白雙螭硯	-12.9825
韁	-12.9825
匐	-12.9826
鮂	-12.9826
玭	-12.9826
啣	-12.9827
陳繼儒攤破浣溪	-12.9828
匭	-12.9829
雇	-12.9829
宋澄泥蟠螭硯	-12.9829
穇	-12.9829
箑	-12.983
菆	-12.983
謚	-12.9832
丱	-12.9833
䱢	-12.9833
㒺	-12.9833
宋端石貨布硯	-12.9833
膘	-12.9833
鰹	-12.9833
摟	-12.9834
藠	-12.9835
杶	-12.9835
宋端石歸去來辭硯	-12.9835
蕉白雙螭瓦式硯	-12.9835
藊	-12.9835
寗	-12.9836
纉	-12.9836
熊明遇岕山茶記	-12.9836
瘃	-12.9836
裸	-12.9836
瑳	-12.9836
邵氏聞見後録	-12.9836
明蒼雪菴鳳池硯	-12.9836
洊	-12.9836
赧	-12.9836
㷀	-12.9836
硯髙六寸六分寛四寸	-12.9836
齁	-12.9836
􁠴	-12.9836
䲋	-12.9836
以土㑹之法辨五地之物生	-12.9837
詧	-12.9837
幬	-12.9837
糶	-12.9837
洿	-12.9837
蟞	-12.9837
壩	-12.9839
御題詩一首楷書鈐寳二曰乾隆	-12.9839
䈥	-12.9839
劫	-12.9839
栒	-12.9839
㐫	-12.9839
䪥	-12.9839
簦	-12.9839
揲	-12.9839
眊	-12.9839
賾	-12.9839
觱	-12.984
明楊明時子石科斗硯	-12.984
胹	-12.984
􁡡	-12.984
宋澄泥括囊硯	-12.984
韓熙載云對花焚香	-12.984
徇	-12.9841
詁	-12.9841
竣	-12.9841
悒	-12.9842
扺	-12.9842
蹔	-12.9842
橅	-12.9842
钁	-12.9842
賄	-12.9843
韉	-12.9843
俳	-12.9843
哢	-12.9843
靴	-12.9843
韝	-12.9843
稑	-12.9843
穜	-12.9843
玠	-12.9843
瘋	-12.9843
柜	-12.9843
􁆛	-12.9843
􁚐	-12.9844
宋趙時庚撰	-12.9844
螽	-12.9844
宋端溪天然子石硯	-12.9844
灕	-12.9844
餖	-12.9844
卻	-12.9844
舊端石半蕉硯	-12.9844
舊端石天然壺盧硯	-12.9844
掊	-12.9845
瀣	-12.9846
潎	-12.9846
宋韓彦直撰	-12.9846
諲	-12.9846
咃	-12.9846
茰	-12.9846
說硯髙七寸寛四寸	-12.9846
不霑工部風騷力猶占勾芒造化權	-12.9846
端石雲雷編鐘硯	-12.9846
騶	-12.9846
樁	-12.9846
中細葉上不堆大葉者	-12.9847
鋹	-12.9847
倬	-12.9847
縻	-12.9847
􁖊	-12.9847
茖	-12.9847
傋	-12.9848
古香曰太璞匣盖並鐫是銘	-12.9848
麂	-12.9848
聆	-12.9848
漢甎虎伏硯	-12.9848
舊端石十二章硯	-12.9848
㫋	-12.9848
橉	-12.9848
㶑	-12.9848
舊端石瑞芝硯	-12.9848
懔	-12.9849
抽新條極滋茂若不	-12.9849
􁪾	-12.9849
明楊慎原本大學士胡世安箋	-12.985
庥	-12.985
御題詩一首楷書鈐寶二曰古香曰太璞	-12.985
爺	-12.985
踆	-12.985
蹯	-12.985
藳	-12.985
遘	-12.985
雰	-12.985
瘇	-12.9851
褶	-12.9851
型	-12.9851
端石天然六星硯	-12.9851
翣	-12.9851
蛉	-12.9851
蟧	-12.9851
默	-12.9851
柵	-12.9851
漩	-12.9851
窽	-12.9851
閫	-12.9853
􁸈	-12.9853
姧	-12.9853
芃	-12.9853
宷	-12.9853
鶄	-12.9853
皜	-12.9853
舊端石饕餮䕫紋硯	-12.9853
箈	-12.9853
颶	-12.9853
十年冬改明年為	-12.9853
宋澄泥海嶽硯	-12.9853
楟	-12.9853
稹	-12.9853
扞	-12.9854
䲭	-12.9854
洌	-12.9854
舊蕉白龍池硯	-12.9854
鍔	-12.9854
藫	-12.9854
韀	-12.9854
鑢	-12.9854
㝛火正貢四十片創添六十片	-12.9854
入腦子小龍七百片	-12.9854
小芽十二水七㝛火正貢一百片	-12.9854
鮇	-12.9854
貫四時而不改柯易葉	-12.9855
脡	-12.9855
舊緑端浴鵞硯	-12.9855
舊蕉白𤓰瓞硯	-12.9855
鮦	-12.9855
籮	-12.9855
馡	-12.9855
螖蠌小者蟧	-12.9855
唐澄泥六螭石渠硯	-12.9855
沭	-12.9857
埀	-12.9857
舊紫端朗月踈星硯	-12.9857
葶	-12.9857
䉋	-12.9857
宋端石紫袍金帶硯	-12.9857
宋端石重卦硯	-12.9857
舊端石四螭硯	-12.9857
不入腦子上品揀芽小龍一千二百片	-12.9857
憮	-12.9857
劲	-12.9858
斮	-12.9858
藦	-12.9858
迪	-12.9858
孥	-12.9858
瞖	-12.9858
元釋海雲端石硯	-12.9858
刴	-12.9859
踊	-12.9859
鶹	-12.9859
䝁	-12.986
𥪡	-12.986
櫝	-12.986
鮡	-12.986
群	-12.986
孃	-12.986
畞	-12.986
舠	-12.986
元虞集澄泉結翠硯	-12.986
憬	-12.986
瑊	-12.986
擥	-12.986
挲	-12.986
靠	-12.9861
菭	-12.9861
螿	-12.9861
宋端石登瀛硯	-12.9861
䔅	-12.9861
隔溪諸山雖及時加意製	-12.9861
􁍴	-12.9861
端石環螭風字硯	-12.9861
舊端石飲鹿硯	-12.9861
瑀	-12.9861
舊端石海天浴日硯	-12.9861
鱄	-12.9861
雊	-12.9862
烽	-12.9862
輳	-12.9862
懇	-12.9862
張大復梅花筆談	-12.9862
䴡	-12.9862
三日太史謁之天子曰某日立	-12.9862
錮	-12.9862
凳	-12.9862
舊端石雁柱硯	-12.9862
鐮	-12.9862
侖	-12.9862
魿	-12.9862
歐陽通每書其墨必	-12.9864
陳眉公太平清話	-12.9864
幞	-12.9864
比徳曰朗潤匣盖並鐫是詩	-12.9864
渰	-12.9864
􁣸	-12.9864
倕	-12.9864
啅	-12.9864
禩	-12.9864
宋謝靈運撰征賦	-12.9864
松花石蟠螭硯	-12.9864
􁊼	-12.9864
宋蕉白七子硯	-12.9864
藑	-12.9864
鈆	-12.9864
銛	-12.9864
袷	-12.9865
悪	-12.9865
宋楊時金星歙石硯	-12.9865
訾	-12.9865
􁴭	-12.9865
宋紫端雲腴硯	-12.9865
宋蕉白文瀾硯	-12.9865
莉	-12.9866
淙	-12.9866
梏	-12.9866
僑	-12.9866
蒓	-12.9866
禆	-12.9866
宋澄泥海濤異獸硯	-12.9867
宋端石睿思東閣硯	-12.9867
宋端石石渠秘閣硯	-12.9867
舩	-12.9867
宋蕉白太素硯	-12.9867
舊洮石黄標硯	-12.9867
綷	-12.9868
遅	-12.9868
籸	-12.9868
隗	-12.9868
舊端石弦文硯	-12.9868
説硯髙五寸七分	-12.9868
韙	-12.9868
宋端石印川硯	-12.9868
宋紫端太平有象硯	-12.9868
烙	-12.9868
舊雘村石蘭亭硯	-12.9868
蝘	-12.9869
鰶	-12.9869
箛	-12.9869
揄	-12.9869
痓	-12.9869
汋	-12.9869
宋薛紹彭蘭亭硯	-12.9869
宋端石列宿硯	-12.9869
惺	-12.9869
櫩	-12.9869
蕭子良荅王僧䖍書	-12.9871
焕	-12.9871
炁	-12.9871
達士堅操篤行之	-12.9871
袵	-12.9871
宋紫端涵星硯	-12.9871
宋龍尾石涵星硯	-12.9871
篐	-12.9871
右件用清汁下胡椒一兩塩醋調和	-12.9871
舊端石海日初升硯	-12.9871
菥	-12.9871
鱺	-12.9872
舊澄泥藻文石渠硯	-12.9872
殄	-12.9872
湎	-12.9872
宋中岳外史端石硯	-12.9872
舊端溪子石五明硯	-12.9872
鬘	-12.9872
鈹	-12.9873
籛	-12.9873
􁓨	-12.9873
挍	-12.9873
靶	-12.9873
溈	-12.9873
錘	-12.9873
穽	-12.9873
橀	-12.9873
睆	-12.9873
宋端石騰蛟硯	-12.9873
襃	-12.9873
彷	-12.9875
矦	-12.9875
馣	-12.9875
尺許時掇去其顛數日則	-12.9875
細剉以絹袋盛懸於銚子當中	-12.9875
舊端石七螭硯	-12.9875
襕	-12.9876
埭	-12.9876
㨿	-12.9876
鳯凰山連屬諸焙所	-12.9876
圩	-12.9876
賨	-12.9876
罵	-12.9876
暍	-12.9876
楂	-12.9876
耉	-12.9876
宋宣和八柱硯	-12.9876
人力勤土又膏沃花亦為之屢變	-12.9877
焼	-12.9878
盾	-12.9878
一名林蘭一名杜蘭	-12.9878
巂	-12.9878
明楊士竒舊端子石硯	-12.9878
虜	-12.9878
鱬	-12.9878
嬛	-12.9879
馚	-12.9879
宋端石黻文硯	-12.9879
宋宣和八卦十二辰硯	-12.9879
錡	-12.988
莛	-12.988
皪	-12.988
少陵為爾牽詩興可是無心賦海棠	-12.988
訕	-12.988
鞵	-12.988
葞	-12.988
𥙷中益精氣羊肉	-12.988
宋米芾螽斯𤓰瓞硯	-12.9882
蒕	-12.9882
紶	-12.9882
倣唐菱鏡硯	-12.9882
每用一餅徐徐噙化	-12.9882
濞	-12.9883
王維别墅在輞川有	-12.9883
誑	-12.9883
㩎	-12.9883
痗	-12.9885
嫻	-12.9886
甦	-12.9886
喝	-12.9886
豋	-12.9886
宋鄭思肖端石硯	-12.9886
獮	-12.9886
瀏	-12.9886
䔒	-12.9887
岌	-12.9887
悖	-12.9887
䈄	-12.9889
郿	-12.9889
樷	-12.9889
晉王廞璧水暖硯	-12.9889
紫金石太平有象硯	-12.9889
桿	-12.989
駔	-12.9891
挖	-12.9891
滫	-12.9891
栱	-12.9893
㩁	-12.9893
腿	-12.9893
蚪	-12.9894
冤	-12.9894
偁	-12.9896
紏	-12.9897
黳	-12.9898
醍	-12.99
䘏	-12.9903
瘖	-12.9903
􁌻	-12.9904
怍	-12.9904
翃	-12.9906
􁪜	-12.9907
劙	-12.9909
杔	-12.9909
碭	-12.9911
蝱	-12.9912
之道也逆之則傷	-12.9912
簵	-12.9913
䈏	-12.9918
靧	-12.9919
樑	-12.9921
数	-12.9926
啁	-12.9929
䈛	-12.9943
漢石渠閣瓦硯七字	-13.2672
鰵	-13.3077
旦露池西有靈池方四百	-13.3085
聪	-13.3087
䱑	-13.3097
楰	-13.3104
胠	-13.3116
藡	-13.312
讜	-13.3123
柎	-13.3124
􁈽	-13.3124
䲃	-13.3124
葖	-13.3124
􁡠	-13.3125
螳	-13.3127
崟	-13.3127
鯞	-13.3127
思樂泮水薄采其	-13.3129
搶	-13.3129
鰷	-13.3129
晟	-13.3133
穈	-13.3133
鶘	-13.3133
下米三合煑粥空腹食之	-13.3133
𦵏	-13.3133
鱝	-13.3135
蛆	-13.3135
摥	-13.3135
䱁	-13.3137
􁷳	-13.3137
胐	-13.3137
􁟥	-13.3137
鰈	-13.3137
場人掌國之場圃而樹之果蓏珍異之物	-13.3137
䰷	-13.3139
罳	-13.3141
醥	-13.3141
蜌	-13.3143
䱉	-13.3143
付外庫後長安中大疫	-13.3144
胕	-13.3145
鯆	-13.3145
桵	-13.3145
蘭蕙二物本草言之甚詳	-13.3146
陽文𨽻書上印古錢一文曰	-13.3147
晉何晏景福殿賦	-13.3147
雖香而葉乃無氣其香雖美而質弱易萎	-13.3147
其花葉皆香而燥濕不變故可刈而為佩	-13.3148
獳	-13.3148
穣	-13.3149
蟉	-13.315
紃	-13.315
蔈	-13.315
􁲣	-13.315
戬	-13.315
莜	-13.3151
鵊	-13.3152
䗶	-13.3152
狖	-13.3152
䰵	-13.3152
􁃛	-13.3152
輦四面綴五色玉香囊	-13.3153
硾	-13.3154
敖	-13.3154
矟	-13.3154
玫	-13.3156
不留筆滑不拒墨	-13.3156
虉	-13.3156
至奉宣聖㫖賜臣	-13.3156
茛	-13.3156
䗺	-13.3156
訏	-13.3156
古人藏書辟蠧用芸	-13.3157
鴇	-13.3158
倮	-13.3158
䞇	-13.3158
騣	-13.3158
掞	-13.316
諛	-13.316
迓	-13.316
陳八尉淳監糧	-13.316
闃	-13.316
以荼蕪香屑鋪地四五寸使舞	-13.3161
甿	-13.3162
轟	-13.3162
棁	-13.3162
驌	-13.3162
埂	-13.3162
柬	-13.3162
溪邊粟粒芽前丁後蔡相籠加	-13.3162
拐	-13.3162
份	-13.3162
㶸	-13.3162
認桃無緑葉辨杏有青枝	-13.3162
要知玉雪心腸好不是膏油首面新	-13.3162
鮨	-13.3162
澳	-13.3164
鈐寶二曰乾隆御賞曰幾暇怡情	-13.3164
十里一置五里一堠	-13.3164
笯	-13.3164
銙自不乏山芽安可無	-13.3164
删	-13.3165
膴	-13.3166
强作南朝風雅客夜來偷醉早梅	-13.3166
朞	-13.3166
鎧	-13.3166
合歡蠲忿萱草忘憂	-13.3166
磻	-13.3166
色貴白而餅茶多以珍膏油	-13.3166
弃	-13.3166
尭	-13.3166
漼	-13.3168
䒽	-13.3168
重青白者受水詳明故建安人	-13.3168
喋	-13.3168
箠	-13.3168
覦	-13.3168
􁸊	-13.3168
帇	-13.3168
糈	-13.3168
􁬅	-13.3168
噱	-13.317
攽	-13.317
軃	-13.317
仲將之墨一㸃如漆	-13.317
漢石渠閣瓦硯倣唐八棱澄泥硯倣宋玉	-13.317
邠	-13.317
猧	-13.317
顒清貧寡欲終日長蔬食	-13.317
滯消壅一日之利暫佳瘠氣耗精終身之	-13.317
隨潮退殻一退一長	-13.317
䎡	-13.317
䗯	-13.317
薆	-13.317
行書云墨務官臣廷	-13.317
齾	-13.317
蒢	-13.3172
鳸	-13.3172
茢	-13.3172
耰	-13.3172
明林春澤人瑞硯	-13.3172
臀	-13.3172
謌	-13.3172
戽	-13.3172
邴	-13.3172
郗	-13.3172
瀅	-13.3172
鏖	-13.3172
黲	-13.3172
颷	-13.3174
𨽻書鈐寳一曰乾隆宸翰御製	-13.3174
芴	-13.3174
闚	-13.3174
餚	-13.3174
萄	-13.3175
􁛖	-13.3175
薧	-13.3175
儁	-13.3176
貊	-13.3176
上寛二寸七分下寛三寸	-13.3176
黴	-13.3176
㧓	-13.3176
葐	-13.3176
伉	-13.3176
劖	-13.3176
炅	-13.3176
畸	-13.3176
艤	-13.3176
譔	-13.3176
耄	-13.3177
媠	-13.3177
跼	-13.3177
鐫御題詩二首楷書鈐寳二曰	-13.3177
宣城人秦精常入武昌山	-13.3177
烱	-13.3177
鍬	-13.3177
麦	-13.3177
朙	-13.3177
秒	-13.3177
銅山葛山賈超之山	-13.3177
侠	-13.3177
櫄	-13.3177
櫈	-13.3177
皛	-13.3177
詩年年收稻買江蟹二月得從何處來	-13.3177
䫫	-13.3177
明董其昌畫禪室端石硯	-13.3177
裯	-13.3179
崙	-13.3179
䲊	-13.3179
浼	-13.3179
䓑	-13.3179
硯譜原本不著撰人	-13.3179
匣底鐫寶一曰乾隆御玩御製	-13.3179
宋澄泥蟠䕫石渠硯	-13.3179
憶觀淮南夜火攻不及晨	-13.3179
沙頭郭索衆横行豈料身歸五鼎烹	-13.3179
烹不能鳴渠幸生含糊終作醉	-13.3179
螟	-13.3179
釃	-13.3179
剋	-13.3179
旁挺龍目側生荔支	-13.3179
蛋	-13.318
中芽十二水十㝛火正貢	-13.318
匊	-13.3181
繙	-13.3181
谺	-13.3181
亾	-13.3181
螂	-13.3181
馤	-13.3181
懍	-13.3181
迷迭香廣志云出西域魏	-13.3181
映數里之間焜如星火非名畫之可	-13.3181
萟	-13.3181
恣肥得以採擷供左右杯	-13.3181
泉不甘能損茶味前世之論水品者以此	-13.3181
葉而畏香藥喜温燥而忌	-13.3181
譛	-13.3181
跚	-13.3181
媱	-13.3182
水盤香類黄熟而殊大	-13.3182
雕刻為香山佛像並出舶上	-13.3182
罶	-13.3183
僦	-13.3183
肛	-13.3183
緍	-13.3183
至四五重粉紅色濃淡	-13.3183
蠐	-13.3183
屴	-13.3183
崱	-13.3183
咿	-13.3183
出天竺單于二國與青桂雞骨	-13.3183
怵	-13.3183
戺	-13.3183
有飶其香邦家之光	-13.3183
笲	-13.3183
陔	-13.3183
味主於甘滑惟北苑	-13.3183
鮌	-13.3183
爹	-13.3183
最為妍麗中秋後便可賞	-13.3184
黄熟之别名也其色差白不入藥品和香	-13.3184
訢	-13.3185
兾	-13.3185
薾	-13.3185
跱	-13.3185
兕	-13.3185
人君燕食所加庶羞	-13.3185
入芝蘭之室久而不聞其香	-13.3185
在桃杏紅梅之間未霜即開	-13.3185
曰窮春秋演河圖不如載茗一車	-13.3185
㪺	-13.3185
同是一樹葉似橘經冬不	-13.3185
䓞	-13.3185
内足故把握而兼斤顧占城之枯朽宜	-13.3185
如太華之倚天象小	-13.3185
為苦薏今余所記菊中雖有莖青者然而	-13.3185
而燎蚊宛彼小山巉然可	-13.3185
近正可以配薝蔔而並云矧儋崖之異	-13.3185
金堅而玉潤亦鶴骨而龍筋惟膏液	-13.3185
髣髴或鼻勞而妄聞獨沉水	-13.3185
𤾉	-13.3185
㳙	-13.3185
古者以芸為香以蘭為芬以鬱鬯為祼以	-13.3185
此紫所以為白之次而紅所以為紫之次	-13.3185
洙	-13.3185
甒	-13.3185
骫	-13.3185
骳	-13.3185
黦	-13.3185
唶	-13.3185
除反枯死七月斷其枝有黄汁其	-13.3186
松竹蘭菊為君子安有君子而以態為	-13.3186
歟曰吾嘗聞於古人矣妍卉繁花為小人	-13.3186
㑹心不逺曰徳充符匣葢並鐫是	-13.3186
峪	-13.3187
鸕	-13.3187
噲	-13.3187
艘	-13.3187
代宗朝李季卿刺湖州至維揚	-13.3187
絣	-13.3187
辛療風水毒腫去惡氣樹皮青色木似櫸	-13.3187
入之所分方根塵之起滅常	-13.3187
就中藏吏取交州所獻甘蔗餳	-13.3187
畊	-13.3187
太原温從雲武威	-13.3187
焙中兩三日一次用火	-13.3187
螗	-13.3187
匣葢外鐫御題銘與硯同	-13.3187
營營青蠅止于	-13.3187
菊草屬也以黄為正	-13.3187
中妃子尤愛嗜涪州歳命驛致	-13.3187
宋吳儆井田硯	-13.3187
纘	-13.3187
蠨	-13.3187
乎至於具香與色而又有態是	-13.3188
鏇	-13.3188
蔲	-13.3189
病中無用雙螯處寄與夫君左手持	-13.3189
少或有味苦者而紫色細莖亦無蒿艾	-13.3189
璡	-13.3189
秋水江南紫蟹生寄來千里佐	-13.3189
諂	-13.3189
其色也菊之白者未必皆劣而列	-13.3189
捆	-13.3189
􁟪	-13.3189
擗	-13.3189
杈	-13.3189
説硯髙五寸一分寛三寸	-13.3189
鰮	-13.3189
齪	-13.3189
􁳃	-13.3189
葉紫花魏武帝以為香燒之	-13.319
云死者皆起此則靈香非中國所致	-13.319
壇前别安一小爐以此香煎取香	-13.3191
厔	-13.3191
華香青赤白蓮華香華樹香果樹香	-13.3191
飶	-13.3191
大者為甘菊花小而苦者為野菊若種園	-13.3191
為甘也如是則單葉變	-13.3191
肥沃之處復同一體是小可變	-13.3191
之物不可同年而語也且菊	-13.3191
人間相傳為菊其已乆矣故未能輕取舊	-13.3191
懴	-13.3191
棓	-13.3191
澮	-13.3191
䓴	-13.3191
元黄公望癡菴硯	-13.3191
其言雖簡而於論水盡矣	-13.3191
匣盖並鐫是銘亦𨽻書鈐寳	-13.3191
嗷	-13.3191
崤	-13.3191
掎	-13.3191
而菊獨後開考其理菊性介烈	-13.3191
􁄄	-13.3191
於酒斚疑皆今之甘菊	-13.3192
人隱士籬落畦圃之間不可	-13.3192
花可以藥囊可以枕釀可以飲所以	-13.3192
揾	-13.3193
胡嶠自契丹亡歸中國畧能道其所見云	-13.3193
孛	-13.3193
蝝	-13.3193
花頭極大一枝只一葩喜倒垂下	-13.3193
皐	-13.3193
盆至半陸遽止之又以杓揚之曰自此南	-13.3193
舟深入見者累百敢	-13.3193
者數四貧民取以為利	-13.3193
篼	-13.3193
謎	-13.3193
其香建安民間試茶皆不入香恐奪其真	-13.3193
白菊百餘株次年盡變為黄花	-13.3193
筍作譜記者多矣獨菊花未有為之譜者	-13.3193
説硯髙五寸五分寛	-13.3193
餠	-13.3193
馨淑人是欽窈窕	-13.3193
鵀	-13.3193
氣如蘼蕪可以止癘即零陵香	-13.3194
懸準天極也純黄不雜后土色也早植晩	-13.3194
於三徑采於東籬裛露掇英汎以忘憂鍾	-13.3194
淺黄者轉白而白色者漸轉紅枯	-13.3194
花有落者有不落者蓋花瓣結	-13.3194
賦以五美謂圓華	-13.3194
撦	-13.3195
郃	-13.3195
碨	-13.3195
䈽	-13.3195
唐褚遂良端溪石渠硯	-13.3195
白佛言我諸比丘燒水	-13.3195
與樂即白檀也能治熱病赤檀能治風腫	-13.3195
􁣚	-13.3195
􁵒	-13.3195
鋋	-13.3195
奘	-13.3195
以比忠正而菊與菌桂荃蕙蘭芷	-13.3195
薓	-13.3195
重之如此是菊雖以花為名固與浮冶易	-13.3195
埜	-13.3195
小芽十二水九㝛火正貢	-13.3195
新所記以龍池為第十浮槎之水棄而不	-13.3195
於茗飲而言不及水表是二美吾無愧焉	-13.3195
磕	-13.3196
砒	-13.3197
掗	-13.3197
胾	-13.3197
蚱	-13.3197
鶗	-13.3197
蘭草今當以澤蘭為正山中又有一種	-13.3197
覽偉草之敷英慕君子之𢎞覆兮超託軀	-13.3197
皆以花比之宜非正人	-13.3197
腂	-13.3197
䔷	-13.3197
扭	-13.3197
蹐	-13.3197
鮤	-13.3197
鱴	-13.3197
㳟	-13.3197
中而貯水水隨暈而	-13.3197
倣漢石渠閣瓦硯倣唐八	-13.3197
周墨浮光而黛起明而未融是以為用	-13.3197
月令以動植志氣候如桃桐	-13.3197
楚辭云夕餐秋菊之落英	-13.3197
漸覺離披遇風雨撼之則飄散滿地矣	-13.3197
絜	-13.3197
錚	-13.3197
鞕	-13.3197
鯥	-13.3197
生雲南者大如掌青黄色長四五寸取	-13.3198
州者最勝大如棗核近道者如杏仁許荆	-13.3198
千葉純白長短相次而花	-13.3198
葉尖薄鮮明瑩徹若瓊	-13.3198
瓚	-13.3199
瘑	-13.3199
犇	-13.3199
瞢	-13.3199
嵻	-13.3199
簏	-13.3199
怒目横行與虎爭寒沙奔火禍胎成	-13.3199
偸	-13.3199
嶁	-13.3199
露濕何郎試湯餅日烘荀令炷爐香	-13.3199
䱝	-13.3199
沗	-13.3199
白千葉自中至外長短	-13.3199
鞘	-13.3199
鰦	-13.3199
丁謂茶圖獨論採造之本至	-13.3199
嚴陵灘水第十九雪水第二十	-13.3199
容菊無處無之酒家皆以菊花縛成洞户	-13.3199
明李夢陽端石圭硯	-13.3199
水第五廬山招賢寺下方橋潭水第六	-13.3199
泥鈍不任下筆矣	-13.3199
舊歙溪石函魚藻硯	-13.3199
諍	-13.3199
鶱	-13.3199
􁎈	-13.3199
右除麝香别研外餘	-13.3199
正色獨立不伍衆草變詞而言之歟	-13.3199
瓛	-13.3199
石仿製硯同上方側亦鐫仿	-13.3199
綱正貢入腦子大龍一千	-13.3199
舊龍尾石日月叠璧硯	-13.3199
舒時并採莖葉雜黍米釀之	-13.3199
若雲時濃更薄乍聚還分火微難	-13.3199
螕	-13.3199
輒條數事簡而易明	-13.3199
鑞	-13.3199
律中無射而數九俗尚	-13.32
羹	-13.32
逶	-13.3201
譍	-13.3201
滏	-13.3201
䆳	-13.3201
留丹陽酌觀音泉過無錫㪺慧山水粉槍	-13.3201
秷	-13.3201
襌	-13.3201
以玉毬目之者以其有圓聚之形也	-13.3201
刧	-13.3201
勒成二篇名曰茶録伏惟清	-13.3201
朱火然其中青烟颺其間	-13.3201
柀	-13.3201
椈	-13.3201
繂	-13.3201
至來年九月九日始熟就飲焉	-13.3201
萩	-13.3201
陛下諭臣先任福建	-13.3201
風雨打園林殘菊飄零滿地金	-13.3202
塤	-13.3202
此貞秀姿卓為霜下傑	-13.3203
頮	-13.3203
隍	-13.3203
賺	-13.3203
宋米芾逺岫竒峰硯	-13.3203
穴者以天章顯茂錢塘者以徑山稀至於	-13.3203
䒠	-13.3203
暱	-13.3203
樂浪之東有背眀之國宜種百榖有	-13.3203
珩	-13.3203
花五出初極紅如臙脂㸃㸃然及開則漸	-13.3203
宋澄泥石圅硯說硯	-13.3203
山在蕭山縣西三里	-13.3203
所感幽人之佳尚前賢之精鑒不可及已	-13.3203
簡衆材之攸宜節方圓以定形	-13.3203
鄙恡之生心招神	-13.3203
片建寧府附發大龍茶	-13.3203
藥能輕身延年南陽人飲其潭水皆壽百	-13.3203
道之腴不改其樂者也神農書以菊為養	-13.3203
以鐵杵舂如粉而燒之	-13.3203
道家以此香浴去尸蟲	-13.3204
髣	-13.3204
亦猶是而已菊於君子之道誠有臭味哉	-13.3204
傲睨風露此幽人逸士之操雖寂寥荒寒	-13.3204
􁷰	-13.3204
甥	-13.3204
贛	-13.3204
鬃	-13.3204
名長安有合歡殿披香殿	-13.3204
一株五根一莖五枝一枝五葉一葉	-13.3204
匣盖内並鐫是銘𨽻書鈐寳	-13.3204
噬	-13.3204
宂	-13.3204
於岷蜀角立差勝毛舉實繁	-13.3204
焦竑國史經籍志	-13.3204
墨要涼涼則生光	-13.3204
崇光香霧霏霏月轉廊只恐夜深花睡去	-13.3204
御製後苑雜花十題以海棠為首	-13.3204
漿水泥一塊同浸三日	-13.3204
菊白而檀心曰木香菊黄色而圓	-13.3204
千葉深黄花形圓小而中有鈴	-13.3204
墁	-13.3204
孀	-13.3204
山林好事者或以菊比君子其	-13.3204
葉擁聚蜂起細視若有蜂窠之狀	-13.3204
􁉥	-13.3204
本出江東比年稍移栽	-13.3205
􁅋	-13.3205
毬子紅白單葉繞承之每枝只一花	-13.3206
花心極大每一鬚皆中空攅成一匾	-13.3206
冨	-13.3206
溆	-13.3206
䴵	-13.3206
駭愕夫家力不能屈乃放還	-13.3206
苛	-13.3206
鋟	-13.3206
䱰	-13.3206
噍	-13.3206
􁤹	-13.3206
匡實黄金重螯肥白玉香	-13.3206
肥乳長二寸許為食茶之上品	-13.3206
穮	-13.3206
蓘	-13.3206
?	-13.3206
丈亦可攬結白花中髙品也	-13.3206
嘗識其水泉之目有二十焉㑹西走巴	-13.3206
朱崖郡洲中出諸異香	-13.3206
瘓	-13.3206
花頭徑三寸菊之大者不過此	-13.3206
銘𨽻書鈐寳二曰㡬暇怡情曰得佳趣	-13.3206
䦧	-13.3206
䭯	-13.3206
一之敘事二之造三之雜	-13.3206
參差鬱佳麗合沓紛可憐蔽虧千種樹出	-13.3206
四之辭賦一之敘事	-13.3206
四座莫不歡香風難	-13.3206
根據銅盤雕文各異類離婁自相連誰能	-13.3206
武帝時所獻忘其國名	-13.3206
甲於諸焙丁謂亦云鳯山髙不百丈無危	-13.3206
蒞	-13.3206
若山上貫太華承以銅盤中有蘭綺朱火	-13.3206
蜋	-13.3206
譴	-13.3206
孠	-13.3207
撞	-13.3208
纁	-13.3208
柑橘之葉其芽發即	-13.3208
葉比諸菊最大一花不過六七葉而	-13.3208
新茗齋中試一旗	-13.3208
澑	-13.3208
䰲	-13.3208
燁	-13.3208
開元中禁中初重木芍藥即今牡丹也得	-13.3208
鸘	-13.3208
之霧裳附玉體以行止兮順微風而舒光	-13.3208
患之而不欲傷其意	-13.3208
十葉為貫百二十貫	-13.3209
如小白蓮花多葉而無心花頭疎極	-13.3209
散清絶一枝只一葩	-13.3209
晉安岑州及交廣以南樹似橘煎枝葉為	-13.3209
漓	-13.321
鷩	-13.321
踒	-13.321
佀	-13.321
檎	-13.321
讀孝經必焚香正坐	-13.321
餵	-13.321
王伯敡所藏趙昌	-13.321
裂為兩翅如飛舞狀一枝之杪凡三四花	-13.321
涔	-13.321
澒	-13.321
纇	-13.321
鑌	-13.321
麸	-13.321
粆	-13.321
落訓始也意落英之落蓋謂始開之花	-13.321
委翳消腐而人不知惜自國初以	-13.321
松花石河圖洛書硯	-13.321
繞之花端極尖香尤清烈	-13.3211
株所造止於二三銙而已	-13.3212
窶	-13.3212
􁷴	-13.3212
者出龍腦香肥者出婆律膏	-13.3212
雜比方盛開時筒之	-13.3212
可六七圍葉圓而背白無花實其樹有肥	-13.3212
盬	-13.3212
蜺	-13.3212
香草其奪益甚正當不用	-13.3212
馟	-13.3212
榽	-13.3212
花葉繁縟全似茉莉	-13.3212
環抱氣勢柔秀宜乎嘉植靈卉之所發	-13.3212
蘱	-13.3212
蘴	-13.3212
飃	-13.3212
􁰖	-13.3212
䅺	-13.3212
䐈	-13.3212
侍中刁存年老口臭上出雞舌香	-13.3212
崯	-13.3212
氿	-13.3212
癉	-13.3212
言舉家登山夕還見	-13.3214
䨴	-13.3214
其條敷闡其葉瑩薄崖林之間偶然生出	-13.3214
應阻蟹螯香却乞江邊採捕郎	-13.3214
晬	-13.3214
爁	-13.3214
岐出兩枝又掇之每掇益岐至秋則一	-13.3214
帑	-13.3214
涙	-13.3214
扒	-13.3214
嚅	-13.3214
者裂為二三與花葉相雜比茸茸然	-13.3215
紛紛零落中見此數枝黄	-13.3215
殛	-13.3216
髹	-13.3216
鐶	-13.3216
勌	-13.3216
馠	-13.3216
之地不以山川逺近發不以社之	-13.3216
紬	-13.3216
凴	-13.3216
戛	-13.3216
罁	-13.3216
蠖	-13.3216
也季和曰荀令君至人家坐席三日香	-13.3216
柷	-13.3216
縹榦緑葉青柯紅芒	-13.3216
􁇖	-13.3216
色而花葉之中間生筒葉大小相	-13.3217
人家種以供蔬茹凡菊葉皆深	-13.3217
鑲	-13.3217
汝南桓景隨費長房	-13.3218
馝	-13.3218
銃	-13.3218
馩	-13.3218
湯煎成車聲繞羊腸雞蘇胡麻留	-13.3218
扈江蘺與辟芷兮	-13.3218
羊𤣥保甲馢淺俗比徐湛之甘松蘇合比	-13.3218
南村諸楊北村盧	-13.3218
乎凝霜挺葳蕤於蒼春兮表壯觀乎金商	-13.3218
捷	-13.3218
末次入乳香末等一處用生蜜和勻	-13.3218
裠	-13.3218
蓉尤穠盛者如樓	-13.3219
嚼香味俱勝擷以作羮及泛茶極有風致	-13.3219
閈	-13.322
馛	-13.322
馪	-13.322
乾則灰蒼色潤則青紫色	-13.322
上則垂下裊數尺如纓絡尤宜池潭之瀕	-13.322
左右攅聚而生故俗以為荔枝者以其花	-13.322
蟹眼已過魚眼生颼颼欲作松風鳴	-13.322
作搊粉羊肉切細乞馬	-13.322
俁	-13.322
搠	-13.322
明唐寅龍尾石瓦式硯	-13.322
更擬食根花落後一依本草太傷渠	-13.322
爽然自失矣因念草木之材一有負瓌偉	-13.322
楊允孚灤京雜詠	-13.322
耋	-13.3222
李直方常第果實若貢士以	-13.3222
馧	-13.3222
涂	-13.3222
海閭生屈龍屈龍生容華	-13.3222
尚書令僕丞郎月賜隃	-13.3222
御物三十種有純金香爐一枚	-13.3222
散如亂茸而枝葉細小嫋嫋有態	-13.3222
鴂	-13.3222
擎玉爐燒九和之香	-13.3222
莽之間而其名遂冠天下借使陸羽復起	-13.3222
鷀	-13.3224
馦	-13.3224
弱難得團簇作大本須留意扶植乃成	-13.3224
畦留夷與揭車兮	-13.3224
金日磾既入侍欲衣服香潔	-13.3224
王𢎞送酒即便就酌	-13.3224
蕐	-13.3224
之初不甚香得諸香和之則特美	-13.3225
灺	-13.3226
齆	-13.3226
霮	-13.3226
别初採既濕尚未有香木	-13.3226
頵	-13.3226
㓕	-13.3226
孳	-13.3226
搰	-13.3226
産者味佳故四方以建茶為	-13.3226
駰	-13.3226
感引鶴降醮星辰燒此香	-13.3226
暝焚香徹曙其驕貴如此	-13.3226
餱	-13.3226
厎	-13.3226
婢通殷勤夀踰垣而至時西域有貢	-13.3226
為賈充司空掾充女窺見夀而	-13.3226
煔	-13.3226
􁉦	-13.3226
心起突色如深鵝黄	-13.3227
多葉自中至外長短相次如千葉棣棠狀	-13.3227
蹕	-13.3227
熄	-13.3228
牡丹根甜多引蟲食	-13.3228
髀	-13.3228
此茶矣又論石乳出壑嶺斷崖缺石之間	-13.3228
盜以遺夀後充與夀宴聞其芬馥	-13.3228
􁫩	-13.3228
㢠	-13.3228
廋	-13.3229
入直臺中給女侍史二人皆選端正指使	-13.323
種但花形差大且不甚香	-13.323
卷芳氣最烈一名腦子菊	-13.3231
蝌	-13.3231
之呈色若景星之舒光	-13.3231
抆	-13.3231
賃	-13.3231
䓈	-13.3231
堙	-13.3231
露叢芬馥敵蘭芽	-13.3231
鞅	-13.3231
垤	-13.3231
檰	-13.3231
鷇	-13.3233
䗫	-13.3233
罋	-13.3233
堋	-13.3233
兩花自作一髙枝出叢上	-13.3234
䇘	-13.3235
不得碾揉為大小龍團	-13.3235
茶名有四探春先春次春紫	-13.3235
䒭	-13.3235
凂	-13.3235
乾之後循理而折之其中有香	-13.3235
帀	-13.3235
洪武二十四年詔天下産茶之地	-13.3237
生如金鈴菊中鈴葉之狀	-13.3237
䤖	-13.3239
毖	-13.3239
芐	-13.3239
僱	-13.3241
邏	-13.3241
蒘	-13.3241
雝	-13.3241
􁴵	-13.3243
延年莫斯之貴謹奉一束以助彭祖之術	-13.3245
秋叢遶舍似陶家	-13.3245
醙	-13.3245
􁓾	-13.3245
和體芬芳之淑氣孰能如此故屈	-13.3247
㷊	-13.3249
䱼	-13.3251
􁦝	-13.3252
棨	-13.3253
衘	-13.3253
筦	-13.3255
趕	-13.3255
承平雅玩龍鳯英華玉除清賞啓沃承恩	-13.3258
􁟤	-13.326
囤	-13.3262
檓	-13.3262
鮚	-13.3262
藬	-13.3264
㬌	-13.3266
樲	-13.3274
􁫃	-13.3276
鴡	-13.328
紅羅複斗帳四角垂香囊	-13.3289
鴘	-13.3293
吵	-13.3297
蔖	-13.331
儺	-13.3399
曰㑹心不逺匣盖並鐫是	-13.4091
蘅帶屈菖蒲薦文麝多忌而本羶蘇合若	-13.6792
外鐫仿唐八稜澄泥硯七字	-13.7859
黂	-13.8029
䱙	-13.8039
􁬇	-13.8039
魨	-13.8051
㽟	-13.8058
香反作桑根想終不聞香氣諸相從心起	-13.8064
鰳	-13.8067
鱂	-13.8073
淠	-13.8073
䩾	-13.8077
蕢	-13.8086
南塘水蓮葉映身摘蓮子暑衣鮮	-13.8092
銠	-13.8092
鴛鴦喜作浪舞花驚不起殷勤䕶惜	-13.8092
鶃	-13.8092
魏帝一丸藥且盡盧仝七椀茶	-13.8095
子曬乾以濕沙土拌勻盛筐内	-13.8098
夫投綸錯餌迎而吸之者陽鱎也其為魚	-13.8099
􁈸	-13.8099
損則去皮以肉瓣安竈間用火	-13.8102
鼎間色乃黑可以將逺又橘	-13.8102
􁜛	-13.8105
志恬偶獲尺許修為界尺	-13.8105
刖	-13.8105
暅	-13.8108
鏢	-13.8111
掿	-13.8111
莊子秋水篇公子牟曰子獨不聞夫	-13.8111
輠	-13.8111
檍	-13.8111
鳳凰非梧桐不棲非竹實不食	-13.8111
􁂰	-13.8111
榖之長荀卿亦云食先黍稷	-13.8114
鳴鳩拂其羽戴勝降于桑	-13.8114
后妃齋戒親東鄉躬桑禁婦女	-13.8114
憾收系兄弟梁王彤救	-13.8114
藼	-13.8114
詩溪邊石蟹小如錢喜見輪囷	-13.8114
葝	-13.8114
棄悟用人慎好惡戒玩物無不三致意焉	-13.8114
射人以桑弧蓬矢六射天地四方	-13.8117
與趙王倫同討叛羌	-13.8117
蠶月條桑取彼斧斨以伐	-13.8117
鰿	-13.8117
撮袖以出坐定放香是富貴自好者所	-13.8117
謩	-13.8117
萉	-13.8117
鼕	-13.8117
槙	-13.812
贐	-13.812
其洪長亦同内空生黄堪作丸	-13.812
土龍之屬荇莖苓根化而為鱓黄白異亹	-13.812
寂寞寄寒枝舊曲聞來似歛睂	-13.812
抑存乎其人遂長揖謝客鼓棹去客追	-13.8121
香譜序至治壬戌蘭秋彭蠡釣徒熊朋	-13.8121
此惜其不遇張坦也按禮經容臭者童	-13.8121
髙景倩齋頭啖鑛玊荔支	-13.8121
穪	-13.8121
鱵	-13.8121
徠	-13.8123
能禁家内不得熏香謝𤣥佩香囊則安石	-13.8124
埧	-13.8124
撱	-13.8124
栾	-13.8124
詩横行足使斑寅懼乾死能令瘧鬼亡	-13.8125
晉虞郎獻于帝庭其方俱在食經可徴	-13.8127
沙魚沙魚二族胡沙白沙	-13.8127
寄傲齋予為取龍塘水烹之而	-13.8127
有草實如繭中絲為細纑名曰白疊	-13.8127
聓	-13.8127
河清三年每丁給永業二十	-13.813
鵬譬彼詩頌雕育桃蟲千古言詮誰發其	-13.813
曰季冬行秋令介蟲為妖注曰丑為鼈蟹	-13.813
槿花和鹽曝之梅為槿花所染其色可愛	-13.813
永寧寺僧房樓觀一千餘間	-13.813
䐄	-13.813
泙	-13.813
地則土石皆香著朽木腐草莫不茂蔚以	-13.8132
鴺	-13.8133
其𦙍嗣三節獲乎嬰兒	-13.8133
色白有十二萼標致不凡如淡	-13.8133
䗚	-13.8133
瞎	-13.8133
蜅	-13.8133
人咸云兎毫無優劣筆手有巧拙	-13.8133
嘹	-13.8133
陘	-13.8133
閥	-13.8133
鰓	-13.8133
􁀆	-13.8133
熟二千石常設厨膳命士大夫共㑹樹下	-13.8133
踔	-13.8133
還缺缺還圎此月一缺圎何年君不見	-13.8136
濼	-13.8136
弴	-13.8136
溪友提擕紫蟹肥形模郭索就羈縻	-13.8136
莅	-13.8136
龍之次百種千名研桑莫記圖贊所取亦	-13.8136
嶓	-13.8136
取者悉絶若請神而求即不㧞自出	-13.8136
島夷卉服厥篚織貝	-13.8136
一年好景君須記正是橙黄橘	-13.8136
傖	-13.8136
嗉	-13.8136
或投水中俄滿大盂也荼蕪香	-13.8136
萼色碧玉花枝開體膚鬆美顒顒昻	-13.8136
閠	-13.8136
噫鼎之有功於茶大矣哉	-13.8136
焮	-13.8136
燀	-13.8136
葛之覃兮施于中谷維葉	-13.8136
􁊸	-13.8136
中貯上四香毎一出遊則芬馥滿	-13.8138
編云自兩漢至皇唐皇后公主乗七	-13.8138
環非環玦非玦中有迷離玉	-13.8139
鴦	-13.8139
一曰乾隆御玩外鐫標識曰	-13.8139
宿而後製試時色不鮮明薄如壞卵氣者	-13.8139
以網三面圍之俄而騰上山頂其主	-13.8139
告其主使捕之不得一日遇	-13.8139
御題之後下逮臣工奉勅	-13.8139
大人之占曰衆維魚矣實維豐年	-13.8139
孱	-13.8139
之貴新水不問江井要之貴活千里致水	-13.8139
新茶不過三月至矣罪戾之餘	-13.8139
踸	-13.8139
邪香瑞麟香金鳯香皆異國所獻杜陽	-13.8139
佻	-13.8139
得青陽之輕清者也又其山多	-13.8139
眈	-13.8139
考眀髙濓遵生八箋	-13.8139
蓮枉誤秋風客可是無塵袖裏香	-13.8139
蝀	-13.8139
詩之不及芍藥不足疑也芍藥三十一品	-13.8139
雨次之秋雨冽而白梅雨醇而白雪水五	-13.8139
驁	-13.8139
鷊	-13.8139
鯜	-13.8142
有佚女垂袂似含風翬飛若未已虎視鬱	-13.8142
𬞞	-13.8142
欲盡去其膏膏盡則有如乾竹葉之	-13.8143
籤	-13.8143
崌	-13.8143
廣雅檦竹頭䱢滇池所饒亦名竹丁	-13.8143
闉	-13.8143
偽固不可知就令識真已非活水	-13.8143
愫	-13.8143
旍	-13.8143
魪	-13.8143
徭	-13.8143
㔶	-13.8143
倨	-13.8143
偪	-13.8143
僶	-13.8143
出于闐國其香潔白如玉入土不朽	-13.8143
茥	-13.8143
蕛	-13.8143
隹	-13.8143
風夢深薇露化作斷魂心字紅瓷候火還	-13.8143
遴	-13.8145
瘀	-13.8146
上三臺曹公藏石墨數十萬	-13.8146
曽裘父詩逺及水中蟹直以投葅醢	-13.8146
層穹嶺側多奇樹或孤或	-13.8146
信以為實事耶余嘗謂天地乃一大戯塲	-13.8146
懐胎一口吸盡西江水新羅日午打三更	-13.8146
玉女来看玉樹花異香先引七香車	-13.8146
有雄無雌以影漫鱧而生子	-13.8146
汍	-13.8146
遂盛又有大含笑花素馨花就中小含笑	-13.8146
珈	-13.8146
明典章施而不徳吐惠無疆	-13.8146
歩此水宜茶昔人以為不減清逺	-13.8146
玢	-13.8146
采散色漚染毫芒㸃黛文字	-13.8146
􁝞	-13.8146
倥	-13.8146
宫舊様博山爐楚嬌捧笑開芙蕖八蠶	-13.8146
截斷約一寸許利刀劈作薄片以豆腐漿	-13.8146
蟠蟠牙比魚孔雀翅尾蛟龍鬚	-13.8146
襚	-13.8146
莃	-13.8146
藲	-13.8146
乎後世禪宗衲子却得其意故有龜	-13.8149
如彼崇朝氣觸石繞華嵩	-13.8149
或名江豚欲風則涌恒	-13.8149
滑稽之開端後人不得其意晉江逌詩	-13.8149
中文其甲堪卜馮夷所命切和靈曲	-13.8149
詩老蟹飽經霜紫螯青石殻	-13.8149
苃	-13.8149
匄	-13.8149
痏	-13.8149
者故有含笑之名又有麝香花夏開與	-13.8149
衆香於瓶内久窨可爇藏春香降	-13.8149
上笪焙之用火務令通	-13.8149
乾以見售故用火常帶烟焰烟焰	-13.8149
今年為蔗田者明年改種五榖以	-13.8149
火氣然茶民不喜用實炭號	-13.8149
舊譜最稱蒙頂味露芽雲液勝醍醐	-13.8149
夜之精以生五色神芝皆為聖王休祥焉	-13.8149
頭縮項味珍襄川詞林藻詠名播錦	-13.8149
今鎮江丹陽皆蒔而刈之以酒灑制	-13.8149
僎	-13.8149
雨無限樓前滄波意誰採蘋花寄取	-13.8149
之功而成之良可怪也然而天地之間事	-13.8149
之轉餉親戚以為竒味得者不敢輙食乃	-13.8149
云兩京作斤賣五溪無人採	-13.8149
元裕之桂子紛翻浥露黄桂	-13.8149
墪	-13.8149
必以象牙犀角為管貍毛為心覆以秋毫	-13.8149
襴	-13.8149
陳贇張遇盛氏柴珣宣道	-13.8149
䵖	-13.8149
冠於他境可薦於上栖筠從之始進萬兩	-13.8149
濏	-13.8149
灇	-13.8149
焸	-13.8149
玉指一縷縈簾翠影依稀海風雲氣	-13.8149
眴	-13.8149
臺眺月亦曰眺蟾臺酌雲菹酒菹以𤣥草	-13.8149
中矣孔子豈非磊落人哉近之不悦學者	-13.815
異名所謂蘭蓀即菖蒲也蕙今零陵香也	-13.815
始其欲人盡不識字乎如此之類古人善	-13.8151
拾古人善謔之言以為不肖	-13.8151
未嘗不美莊子欲絶學而莊子何嘗不學	-13.8151
然不可以訓若孔子則豈其然	-13.8151
躬之符可笑且悼充類其	-13.8151
云去年今日此門中人面桃花相映紅人	-13.8152
倐忽雲雨興俯仰三洲移孫放詩巨細同	-13.8152
翬皆不得其言詮也雖郭象之	-13.8152
新泉氣味良古鐵形狀醜那堪風	-13.8152
如美錦甚香極細可以為枕及案面雖	-13.8152
大厯十四年五月癸亥即位閏月戊寅	-13.8152
長鎗大劒之將軍一一皆磊落人也夫	-13.8152
試時色雖鮮白其味帶苦者漬膏之病也	-13.8152
魚之最巨曰海鰌爾舟行	-13.8152
􁎾	-13.8152
疴甦身輕便欲登天衢不知天上有茶無	-13.8152
神物伏䕶得其餘䕃耶何其甘芳精至而	-13.8152
羣以小翦就枝間平蔕斷之輕置筐筥	-13.8152
羭	-13.8152
乗鸞女驚舊恨鎮如許江南夢斷衡臯渚	-13.8152
亦名為鯧同彼狹邪滛蟲相邇其味苦嘉	-13.8152
以細嫩為妙湏當交夏時	-13.8152
爇之則羣花之香畢備花熏香訣用好降	-13.8152
看風日晴和月露初收親自監	-13.8152
碎而色帶赤為度若太熟則失鮮其鍋内	-13.8152
精神未足夏後則梗葉太麤然	-13.8152
絲青牛之類一一剔去方為精潔也蒸茶	-13.8152
至香味去盡取出再以末茶或葉茶	-13.8152
􁉏	-13.8152
了以油紙封口飯甑上蒸少時取起不	-13.8152
其前不得而曉者此其一也洛陽	-13.8152
其花成時如鵝毳抽其緒紡之以作布	-13.8152
到送孤鴻目斷千山阻誰為我唱金縷别	-13.8152
壕	-13.8152
娑羅花在㑹城土主廟其本類大理	-13.8152
怙	-13.8152
收綸蘆中鼓枻樵青蘇蘭薪桂竹裏煎茶	-13.8152
書局後叢莽中得芸香一本	-13.8152
舊屬王氏黄巢兵過欲斧薪之王	-13.8152
舍東種早韭生計似庾郎	-13.8152
詩名又重於張祜諸公在蜀日	-13.8152
鄅	-13.8152
陸香是樹皮鱗甲采之復生乳頭香	-13.8152
杮	-13.8152
迕	-13.8152
茞	-13.8153
蘐	-13.8155
砭	-13.8155
誰書以公音是字謬又哂多子亦孔之羞	-13.8155
鯤解長鱗鵬起扇雲飛撫翼摶積	-13.8155
瑿	-13.8155
之魚出淮及五湖黄肥不可食大如百	-13.8155
訝殘霞覆一叢還似妖姬長年後酒酣	-13.8155
𥚹	-13.8155
令云天下初定吾便禁家内不得	-13.8155
嘷	-13.8155
壑源沙溪其地相背而中隔一嶺其	-13.8155
實剖乾之以之和藥味與商州之枳幾逼	-13.8155
庭中夏至發開盡為水以漬金	-13.8155
得地而後異豈水絡地脉偏鍾粹於壑源	-13.8155
甗	-13.8155
細末煉蜜和勻燒如常法出塵香沉香	-13.8155
里七日逄頭九日逄尾産子	-13.8155
妁	-13.8155
尤不便酒香凡採者竟日不敢飲	-13.8155
枚大如雞子云食此令君不畏風波辟寒	-13.8155
鯚	-13.8155
􁃉	-13.8155
䔉	-13.8155
如椀甲子年結實味與新羅南詔者不别	-13.8155
待得聲聞俱寂後一甌春雪勝醍醐	-13.8155
抨	-13.8155
櫳向曉亂紅無數吹盡殘花無人問惟有	-13.8155
塸	-13.8155
所製銘曰晁季一寄寂軒造者不減潘陳	-13.8155
籋	-13.8155
而膠不如法墨亦不佳如得膠法雖次煤	-13.8155
􁃯	-13.8155
亲	-13.8155
以麗水囊貯香遊之不數日松皆半枯	-13.8155
别用白茅香八兩碎劈去泥焙乾火燒之	-13.8155
右宜近林左宜近野欲引東日而	-13.8155
將有出兹八品之外者余不得而知當俟	-13.8155
年斯亦可愛玩詎必金寳雕琢然後為貴	-13.8155
怱	-13.8155
手巾圍盆口勿令洩氣放冷取茅香灰	-13.8155
採橘葉搗爛代諸花熏之其香清	-13.8155
方九月十月時悉出其根滌以甘泉然後	-13.8155
旎	-13.8155
星院有三賢松三株如古君子梁閣老妓	-13.8155
更近自然且斷烟火氣耳况作人手器不	-13.8155
松黄飾其首面凡肉理怯薄體輕而色黄	-13.8155
濡濡則酷日不能燥至於插引葉之架平	-13.8155
珮呵光銅照昏簾波日暮	-13.8155
竹爐并分封茶具六事苦節君	-13.8155
茶售以十則沙溪之茶售以五其直大率	-13.8155
蒫	-13.8155
逢沍寒則曝之下沙欲疏疏則連雨不能	-13.8155
體堅而色紫試時泛盞凝	-13.8155
魈	-13.8155
魦	-13.8155
􁏁	-13.8155
香草也今七里香是也南人採置席下能	-13.8157
蘺楚人謂之葯其葉謂之蒿與蘭同	-13.8157
然之宫中病者差長安百里内聞其香積	-13.8157
佛書謂之天澤香言其潤澤也	-13.8158
歩草是其種也葉似杜若而紅碧	-13.8158
弓魚西洱弓魚三寸其	-13.8158
取墨必廬山之松烟代郡之鹿角膠十年	-13.8158
大熱有毒主行藥勢殺百邪	-13.8158
揚雄詔令尚書賜筆墨觀書石室	-13.8158
淰	-13.8158
而素淡稍若大軟條冠子	-13.8158
上生菖蒲一寸十二節仙人勸我食令我	-13.8158
殯	-13.8158
簰	-13.8158
蟫	-13.8158
戎菽甘枲莖芹萍子者對	-13.8158
花中細蘂皆出小鈴萼中其萼亦如鈴葉	-13.8158
近時難得枳實人多植枸橘	-13.8158
冬至日取葫蘆盛葱根莖汁埋	-13.8158
方葉不潤生於水中名曰水香茈胡曰地	-13.8158
曝乾如飴可休糧久服神仙名曰金液漿	-13.8158
曰葭草葉曰芸蒿味辛可食生	-13.8158
桂州出古終藤結實如鵝毳	-13.8158
粟之飯炙三弋五卵茗菜而已	-13.8158
銀夏者芬馨之氣射於雲	-13.8158
俱生下濕澤蘭曰虎蘭曰龍棗	-13.8158
偘	-13.8158
綖	-13.8158
轓	-13.8158
又蘄黄生叢竹一叢數竿筍不外	-13.8158
子弗知何物以余攷之乃迦	-13.8158
帉	-13.8158
纔入笪而爭酬所直故壑源之茶常不足	-13.8158
已老而味欠嫩湏在榖雨前後	-13.8158
根之沙防蚯蚓之傷禁螻	-13.8158
櫱	-13.8158
此然沙溪之園民亦勇於	-13.8158
為通論也海棠之盛莫甚於西蜀而杜子	-13.8158
相傳髙僧以二念珠入土一珠出	-13.8158
繬	-13.8158
香薄而味短者沙溪之品也凡肉理實厚	-13.8158
鰧	-13.8158
人伴夜深金鑾不問殘燈事何當巧吹君	-13.8158
得所貯不津器中旋取燒之久窨濕香	-13.8158
撮於爐中烟氣裊裊直上甚於龍腦徳哥	-13.8158
爿	-13.8158
蘥	-13.8158
露庭月井大紅氣輕衫薄袖當君意蜀殿	-13.8158
香一處逐旋入經煉好蜜相和重入臼搗	-13.8158
名誤為人所賦詠澤芬曰白芷曰白	-13.816
如楓而葉香聞數百里名曰返魂樹	-13.816
驚精香又曰振靈香又曰返生香又曰馬	-13.816
繼晷之際口吟手披之餘遇蟲名魚字將	-13.8161
君子以賤雪貴不聞以貴雪賤	-13.8161
觝	-13.8161
兩片得立合體相生狀如鞋屧鰈實其名	-13.8161
樹亦能自作聲聲如羣牛吼聞之者皆心	-13.8161
紅茅山冠子也初開粉紅即漸退白青心	-13.8161
鯦	-13.8161
鱗鱗迎媵夫豈其甥其文實鯦江圖可徴	-13.8161
獻晉帝牋紙三千枚墨二十丸皆極精妙	-13.8161
鎩	-13.8161
屮	-13.8161
搗萬杵入石模脱作古龍涎花子出塵香	-13.8161
菊枝頭破曉寒人生莫放酒杯乾風前横	-13.8161
魚其文如罽薦以上春美而多刺	-13.8161
五六月長筍明年方成竹其筍不堪食	-13.8161
内有金臺即臺為寳子則知寳子乃香爐	-13.8161
天然者自勝耳曽茶山日鑄茶詩	-13.8161
汭	-13.8161
痡	-13.8161
荎	-13.8161
􁁑	-13.8161
䱻	-13.8161
之刮去白木其香結為斑㸃亦名鷓鴣斑	-13.8161
吟曰東海徐肇欲見先靈願此香煙用為	-13.8161
圍一尺許皮色青薄而極光浄葉似阿魏	-13.8161
奬	-13.8161
實若星麗節勁松竹香濃蘭桂宜不植	-13.8161
後中書侍郎南陽岑羲設茗飲葡萄	-13.8161
春晚人困則日賜成象殿茶	-13.8161
火候失宜皆能損其香色也生曬茶瀹之	-13.8161
神明家廟一炷曾英祖靈且	-13.8161
稍多即研焙為二品即龍團勝雪白茶也	-13.8161
茶不必太細細則芽初萌而味欠足不	-13.8161
茶瀹之有屑滯而不爽知味者當自辨之	-13.8161
蝡	-13.8161
蝹	-13.8161
詔苑令取滬溪美土為馨烈侯擁培之具	-13.8161
蹀	-13.8161
門而趨登堂而跪周公拂其首勞而食之	-13.8161
鰬	-13.8161
􁁵	-13.8161
蟲琱取類斯大稱名則	-13.8163
蠯蠯式玉度蚌象寳爻螺書	-13.8163
􁪠	-13.8163
臾	-13.8164
月造墨今旋煎旋用殊失之故潘谷一見	-13.8164
四角三角曰芰兩角曰菱	-13.8164
靈物也香氣聞數百里死者在地聞香氣	-13.8164
吾君所乏豈此物致養口體何陋耶	-13.8165
終風掃於暮節霜露交於杪秋有	-13.8165
豈數橘柚賤芼鼎始足鹽梅和	-13.8165
梨滓甘蔗滓等分為末名小四和四和香	-13.8165
檀香沈水香多摩羅跋香多伽羅香	-13.8165
白芨煎水搗沉香萬杵别研餘品同拌令	-13.8165
之姿望秋而落松柏之質經霜彌茂	-13.8165
也其水邊處處有茗草羅生枝葉如碧玉	-13.8165
嶁碑云龍畫傍分螺書匾刻	-13.8165
憃	-13.8165
早白簡文曰卿何以先白對曰蒲	-13.8165
李太白詩云日照香爐生紫烟	-13.8165
白蝙蝠大如鴉按仙經蝙蝠一名仙䑕千	-13.8165
膻	-13.8165
蠯蚌之狹而長者見周禮	-13.8165
顔色如桃花而此茗清香滑熟異於他	-13.8165
四方傲中國之志每見北人盛誇嶺海之	-13.8165
庾仲文貪賄得嫁女具銅爐四人舉乃勝	-13.8165
乃登黍天子乃以雛嘗黍羞以含桃先薦	-13.8165
些兒似醉渾無氣力海棠一色睡	-13.8165
兼贈詩要余答之遂有此作	-13.8165
半殻含黄宜㸃酒兩螯斫雪勸加餐	-13.8165
哤	-13.8165
定知不作蟛蜞悞曽厠西都學士名	-13.8165
昳	-13.8165
暠	-13.8165
月上旬為下時至五六月止可種藏瓜耳	-13.8165
欇	-13.8165
歡言酌春酒摘我園中蔬	-13.8165
殲	-13.8165
沐春雨之濯濯鳴秋風以蕭蕭素膚紫肌	-13.8165
海上奇烹不計錢枉教陋質上金盤	-13.8165
濕雲癡偏厮稱霓裳霞	-13.8165
膏建茶力厚而甘故惟欲去	-13.8165
郈	-13.8165
配以諸色細果餽送親戚比	-13.8165
錯文不雅馴乃取萬震沈	-13.8165
闕里廟中空舊物開方竈下豈天然玉	-13.8165
露花氣遲遲無奈汗酥浥透	-13.8165
鴷	-13.8165
􁀼	-13.8165
􁪸	-13.8165
建溪茶比他郡最先北苑壑源者尤早	-13.8165
所記皆無千葉花疑今譜中或有非菊者	-13.8165
日始發先芽者氣味俱不佳惟過驚蟄者	-13.8165
李華燒三城絶品炭以龍腦	-13.8165
為候諸焙後北苑者半月去逺則益晩凡	-13.8165
疢	-13.8165
芋魁煨之擊爐曰芋魁遭遇矣	-13.8165
出波斯國拂林呼為頂㪍梨咃長一丈餘	-13.8166
毎三葉生於條端無花結實西域人常	-13.8166
易水奚氏歙州李氏皆用大膠所以養墨	-13.8168
蠯	-13.8168
俱篆書覆手四面斜削為跗中鐫	-13.8168
磽	-13.8168
細凡二三層明黄色心乃深黄中有一㸃	-13.8168
縗	-13.8168
深紅楚州冠子也亦若小旋心	-13.8168
屆	-13.8168
淝	-13.8168
裌	-13.8168
逢陸處士鴻漸李素熟陸名有傾蓋之	-13.8168
馥之世卿豈無島服夷言誇	-13.8168
士凡知香者皆使序之若僕也灰釘之望	-13.8168
季和能笑領其言亦庶幾善補過者有士	-13.8168
州赤縣進香受爵之少府豈無寶梵琳房	-13.8168
既滋蘭之九畹又樹蕙之百	-13.8168
昔人謝塸埞徒為妍詞飾	-13.8168
漢郊祀歌馮夷切和注	-13.8168
眼開丹砂縁手落塵埃誰能有力如黄犢	-13.8168
被石蘭兮帶杜蘅折芳馨兮遺所思	-13.8168
西洱河及滇池冬月多鯽魚	-13.8168
鷞	-13.8168
徐伯珍宅南九里有髙山班固謂之九	-13.8168
所以能還童振枯扶人夀也余	-13.8168
此如荀令君至人家坐席三日香	-13.8168
花倒著冠身健在且加	-13.8168
越山春始寒霜菊晩愈好朝來出細	-13.8168
䂓	-13.8168
上韻雅金罍側直使于闐君從來未嘗識	-13.8168
主吏利其多取以責賂曬煎之法不行矣	-13.8168
之書釋道經典之說則記	-13.8168
似松蘿名曰太華茶普洱	-13.8168
候補主事陳廷燦撰	-13.8168
太極殿前芸香四畦式乾殿前芸香八畦	-13.8168
徽音殿前芸香二株含英殿前芸香二株	-13.8168
水浮陸轉以入京師外至北	-13.8168
汗耐乆不然踰歳壊矣福州舊貢紅鹽蜜	-13.8168
略其名實繁而品類叢脞矣觀乎上古帝	-13.8168
白曬者正爾烈日乾之以核堅為止畜之	-13.8168
絫	-13.8168
者兼令漳泉二郡亦均貢焉蜜煎剥生荔	-13.8168
西夏其東南舟行新羅日本	-13.8168
蹷	-13.8168
軺	-13.8168
㙬	-13.8168
㲮	-13.8168
䱋	-13.8168
之多少使一日造成恐茶過宿則害色味	-13.8168
云楚辭所詠香草曰蘭曰蓀曰茝曰葯曰	-13.8168
以甲不以指以甲則速斷不柔以指則多	-13.8168
凡芽如雀舌榖粒者為鬭品一	-13.8168
厥職見賢不薦者歟子無戀溪泉自取	-13.8168
回雪有風嘗借舞落梅無笛可供愁	-13.8168
夜宫人以黄羅包柑遺近臣謂之傳柑宴	-13.8168
奉命巡察天下風俗採訪海内遺逸安敢	-13.8168
戣	-13.8168
桃熟可獻願陛下出因取櫻桃獻宗廟上	-13.8168
殊而茶事則十人而九竹爐火候茗椀清	-13.8168
為次之餘斯為下茶之始芽萌則有白合	-13.8168
矣師四月十四日汲水沃之曰純陽	-13.8168
籹	-13.8168
翠不驚寒葉醖宜城酒皮	-13.8168
而不舒不分與分之太數皆花之病也花	-13.8168
葰	-13.8168
蒸之必香火之必良一失其度俱為茶病	-13.8168
鏹	-13.8168
體或述其成製或演以新文	-13.8168
魚之美者東海之鮞伊尹説湯水羣首	-13.8168
􁋬	-13.8168
􁍮	-13.8168
楷書鈐寳二曰㡬暇怡情曰	-13.8168
價百鱣鮪界江而西謂之瘟魚棄而不餌	-13.8169
與其足皆在眼畔風波稍急粘石為	-13.8169
鱳各以類聚漢獻大官叔重是取	-13.8169
鮓曰五侯鯖枕如琥珀可以籠燈亦為冠	-13.8171
盭	-13.8171
䇶	-13.8171
臑	-13.8171
薝	-13.8171
㝎	-13.8171
可無譜浩卿過彭蠡以其譜視釣者熊朋	-13.8171
土墨者烟煤所成土之類也	-13.8171
屑鋪四圍種之累試甚佳大凡用	-13.8171
我子再世成譜亦不易宜遴序者豈無蓬	-13.8171
所錄名物漸多猶未取於遐裔也漢唐以	-13.8171
天下聞名矣况揚子南零水又殊絶今	-13.8171
悰南史有傳但名存而書亡此為恨耳	-13.8171
揚子驛將食李曰陸君善於茶	-13.8171
更以蜜兩匙拌勻窨過爇之加减四和香	-13.8171
召之伯熊執器前季卿為再舉杯	-13.8171
敧	-13.8171
溪邊竒茗冠天下武夷仙人從古栽	-13.8171
窮熏習之夢久斷空有廬山一	-13.8171
詩老不知梅格在更看緑葉與青枝	-13.8171
重葉似大金菊而花形圓齊頗類滴	-13.8171
芍藥受天地之氣以生而小大淺深一隨	-13.8171
中孚禪子及青蓮居士李白也	-13.8171
入朱閣海棠繁錦條醉生燕	-13.8171
去尤宜著意描誰能共吹笛樹下想前朝	-13.8171
堊	-13.8171
斯大獲益則歸功茶力貽患則不	-13.8171
旋灑於前項粉麵内拌	-13.8171
曁	-13.8171
横公魚化而為人刺之不殊煑之不死游	-13.8171
減常歳十之六七然修貢者皆取	-13.8171
知福州用曬及半乾者為煎色黄白而味	-13.8171
芳菲而今得向君家見不怕春寒雨濕衣	-13.8171
萼蠟融脂絳闕疑流落瓊欄合䕶持無詩	-13.8171
著春風一任狂當時杜子美吟徧獨相	-13.8171
躪	-13.8171
金陵見宗僧中孚示余茶數十片	-13.8171
限思當晝不勝繁浩露晴方浥遊蜂暖更	-13.8171
鮹	-13.8171
䜶	-13.8171
䱒	-13.8171
不知出於天台之黄巖出於泥山者固	-13.8171
之碧雲傾浮花之雪乳非藉湯勲何昭茶	-13.8171
享首惟馨之薦而沉水薰陸無聞焉百家	-13.8171
健忽似氛埃滅不合别觀書但宜窺玉札	-13.8171
去其子屈盤枝條使不離散	-13.8171
可勝言而計籌者哉吾聞曰人助者信神	-13.8171
唫	-13.8171
四海六合之内無不用之材無不成之器	-13.8171
媞	-13.8171
宣尼失職出處語黙與時消息則子雲投	-13.8171
悳	-13.8171
擷茶以黎明見日則止用爪	-13.8171
敬不享味貴氣臭也是知其用至重採製	-13.8171
望初篁之傍嶺愛新荷之發池	-13.8171
李郢酬友人春暮寄枳花茶	-13.8171
櫠	-13.8171
汗濕一陣風来碧浪翻珍珠零落難收拾	-13.8171
泉亭堂曰漪瀾泉在亭中二井石甃相去	-13.8171
滋露結功多少日脚清寒	-13.8171
烏鰂八足集足在口縮喙在腹形類鞋	-13.8171
焉後之視此譜者觸類而求之則意可見	-13.8171
白公何以得之禹玉未信索帖騐之乃服	-13.8171
筍以含啼顧貞筠而命醑	-13.8171
糲	-13.8171
細流冠學芙蓉勢花堪威	-13.8171
缽	-13.8171
耖	-13.8171
肥大窟深淵曷虞遭食啄香餌與長絲下	-13.8171
茶工從容致力故其色味兩全	-13.8171
葛水為馬向并州柯亭臨絶澗桃枝	-13.8171
西湖處士骨應槁只有此詩君壓倒	-13.8171
覺未免利者求潜潭不為邈	-13.8171
趾七郡貢生荔支十里一置五里一	-13.8171
蹂	-13.8171
際徒翳薈兮為隣挺堅芳兮此身嘉名列	-13.8171
饆	-13.8171
香壓黄欲膏盡亟止如此則製造之功十	-13.8171
驚蟄尤以得天時為急輕寒英華漸長條	-13.8171
不去害茶色茶之美惡尤係	-13.8171
久益佳大舶之徒由是披靡生結	-13.8171
則受水鮮白葉梗短則色黄而泛	-13.8171
地忽生蟹當急遷砦柵不遷將	-13.8171
孝武鎮彭城暢為安北長史魏太武	-13.8171
攔	-13.8171
曰芷曰荃曰蕙曰蘼蕪曰	-13.8171
曰藒車曰蒥荑其類不一不能盡識其名	-13.8171
柞氏掌攻草木及林麓	-13.8171
瘠而芽短則雲脚渙亂去盞而易散葉梗	-13.8171
芽擇肥乳則甘香而粥面	-13.8171
西王母降上燒是香兠渠國所	-13.8171
貝多出摩伽陀國長六七丈經冬不	-13.8171
錦鮮此日傭工記名姓因君數到墨池前	-13.8171
横行竟何從躁心固已息	-13.8172
尾鱐為之母胎育厥子	-13.8172
鮯魚東方有魚其形如鯉其名為鮯六足	-13.8172
既愈人痾復裨牛肥驅蟁如掃兹功亦竒	-13.8174
青魚江有青魚其色正青泔以	-13.8174
刻香印百刻香印以堅木為之山梨為上	-13.8174
䱺	-13.8174
右以餘香别為細末木香水和捻	-13.8174
尺計二百四十寸凡八刻三分刻之一其	-13.8174
有石帆覺失伴惟應海月知族類分明連	-13.8174
稷之外可焫者蕭可佩者蘭可鬯者鬱名	-13.8174
蕟	-13.8174
之不以網收來如陣雲壓幾沉舟名曰跳	-13.8174
二妙千載一遇何曠之乎命軍士謹信者	-13.8174
奉橘三百枚霜未降未可多得	-13.8174
奪海綃九陽資造化天意屬喬繇	-13.8174
宛未移幸分霖雨潤猶見艶陽姿	-13.8174
愁姓趙氏其母夢吞海棠花	-13.8174
春昏君詩似說江南信試與梅花招斷魂	-13.8174
李季卿宣慰江南次臨淮知伯熊善煮	-13.8174
李嶸王播皆一時名士而工於詩者也或	-13.8174
清禁曉丹葩色照晴空珊瑚敲碎	-13.8174
瀋如其劑色味愈西域逺甚	-13.8174
玲瓏人間無此種來自廣寒宫雕	-13.8174
者香今乃獨茂與衆草為伍乃止車援琴	-13.8174
蕫	-13.8174
藤飄落水花雨埋釣舟小風颺酒旗斜	-13.8174
趠	-13.8174
醻	-13.8174
鎛	-13.8174
霞文光啓旦珠琲宻封條積潤涵仙露濃	-13.8174
下度支求杜若省郎以謝	-13.8174
不朽此事雖假亦乆哉惡知非真亦非茍	-13.8174
之叢生山野葉細如茅草根極繁密八月	-13.8174
切碎碾為生料篩羅粗末瓦罈收頓輭香	-13.8174
厖	-13.8174
意東風無限才古今吟不盡百韻愧空裁	-13.8174
施花恵知容馬大同鄭少舉黄八兄周染	-13.8174
林更有佳者相與乃令人買大筍送與之	-13.8174
每集羣臣取一丸入水一石頃刻成酒味	-13.8174
為千葉亦有之矣牡丹芍藥皆為藥中所	-13.8174
睎	-13.8174
花萬蕊雕欄遶通體清香無俗調天氣好	-13.8174
蜮	-13.8174
蜻蜓不自由五月臨平山下路藕花無數	-13.8174
製以松蘿法汲虎嘯巖下語兒泉烹之三	-13.8174
製焙法一味計多狥利之過也余試	-13.8174
醇醪謂之糜欽酒又謂	-13.8174
餒死獨彦升挈囊負母竟以	-13.8174
一小葉上絡以金線綴以玉珠香欺蘭麝	-13.8174
仕因採訪使遇之於端溪謂曰子有樸質	-13.8174
伏尸除瘟疫輕身益氣令人不	-13.8174
厚之徳兼有竒相體貌紫光	-13.8174
去烏蔕則色黄黒而惡不去白合則味苦	-13.8174
嚳	-13.8174
如薔薇煎服令人不眠能誦無忘	-13.8174
始植沈譜云次山作菊圃記云在藥品	-13.8174
安業坊唐昌觀舊有玉蘂花	-13.8174
常如人體温温則禦濕潤	-13.8174
彴	-13.8174
憀	-13.8174
掯	-13.8174
故園今日海棠開夢入江西錦繡堆	-13.8174
於茶筒中選精品碾以待蔡蔡捧甌未嘗	-13.8174
春人間絶品應難識閑對茶經憶故人	-13.8174
春容極明媚走馬蜀錦園名花動人意嚴	-13.8174
曰已發命捲簾則異香自内出郁然滿座	-13.8174
次之沙脚為下紫為上深琥珀次之淺黄	-13.8174
歡酒入妖骨醉低鬟羞不語困	-13.8174
歳之出不知幾千萬億而鄉人得飫食者	-13.8174
漢宫曉一笑初破睡定知夜	-13.8174
為茶宴又嘗過長孫宅與朗上人作茶㑹	-13.8174
無俗姿太息真富貴結束吾方歸此别知	-13.8174
環裹抱團圓其髙八九寸廣	-13.8174
石虚中字居黙南越髙要人	-13.8174
筍泉鳴知水急雲來覺山近不愁花不飛	-13.8174
致堯九疑考古云舂陵	-13.8174
芽必熟去膏必盡蒸芽未熟則草木氣存	-13.8174
若獲一兩以本處水煎服即能	-13.8174
茶建安能仁院有茶生石縫間蓋精品也	-13.8174
菁葵等雜菜乾之並為鹹葅	-13.8174
蓤	-13.8174
薃	-13.8174
記花之紅白亦不云有千葉者今二花生	-13.8174
輕採摘風淅淅船頭觸散	-13.8174
遣人走京師遺王内翰禹玉	-13.8174
邛	-13.8174
野類皆單葉小花至於園圃肥沃之地栽	-13.8174
饉	-13.8174
髽	-13.8174
鬪	-13.8174
黄熟品之下也色澤浮虚而肌質散緩	-13.8174
鼄	-13.8174
􁣔	-13.8174
一甌剔取防風得五合餘食之口香七日	-13.8174
心死生同域紜紜品物物有其極至人者	-13.8174
慈竹筍四月生江南人多以灰煑食	-13.8174
桅	-13.8174
檀香植在天涯賤等荆衡水	-13.8174
清婉耳諸夷以香樹為槽	-13.8174
臺川谷及雍州益州皆有之陶𨼆居云形	-13.8174
蒀	-13.8174
釉	-13.8174
彈子爐中爇一似百花迎曉風野花香	-13.8175
堪録西施乳㴙水羊胛熟	-13.8176
右為細末羅勻以生蜜捜和搗百	-13.8176
淺於鬱金中有細葉出鈴萼上形	-13.8176
醐	-13.8177
詩莫怪野人經宿住白蘋霜落蟹螯肥	-13.8177
石為茶磨令宫人以武隆雪錦茶碾	-13.8177
桼	-13.8177
再蒸凡三換花始暴乾入甆器	-13.8177
壓去核漬之以蜜金柑著蜜尤勝他品	-13.8177
旁以溜汗液用器盛之炊畢	-13.8177
末查子汁和劑窨爇如常法聞思香紫檀	-13.8177
東晉李鄂立春日命以蘆菔芹	-13.8177
魚一角似鯉居陵候時而出神聖攸乘飛	-13.8177
魚衆魚蓐母魚欲生卵觸腹以首蛇醫	-13.8177
不用慢火襯筠州楓香燒勝篤耨香	-13.8177
捄	-13.8177
胙	-13.8177
也丑寅也夘辰也巳午也未申也酉戌也	-13.8177
妙墨俱香是其徳同也皆堅是其操同也	-13.8177
寸四分凡一百刻通長二百四十	-13.8177
祥雲繚繞上通金闕下入幽	-13.8177
者是今復有生黄而沉水者謂之蠟沉又	-13.8177
魚多骨兼此二美而無兩毒粉紅雪白洄	-13.8177
鮅	-13.8177
䴥	-13.8177
右以蜜和粗末爇之假篤耨香	-13.8177
嘗夣陸倕以一束青鏤管筆授之	-13.8177
尢	-13.8177
最號肥美由江而納其芒於海中之魁遇	-13.8177
水人故以濟土為號年載已逺罕有存者	-13.8177
江則江矣非南零者似臨岸之水使曰某	-13.8177
磨豈但一丸之墨如承重寶倍感	-13.8177
艦	-13.8177
風惜未飄蝶魂迷宻徑鶯語近新條芳蕙	-13.8177
一分煉蜜和劑地窨一月旋丸爇之供佛	-13.8177
何忙匡牀不下凝塵滿消盡年光一炷香	-13.8177
凝緑髓炊來光如何重辛苦一一輸膏粱	-13.8177
化菩薩以滿鉢香與維摩詰飯香普	-13.8177
南山茶事動竈起巖根傍水煑石髪氣薪	-13.8177
大成矣詩書言香不過黍稷蕭脂故香之	-13.8177
彼碧巖下恰應深二尺泥易帶雲根燒難	-13.8177
昜	-13.8177
東坡海棠詩曰只恐夜深花睡去	-13.8177
泉歸將挂煙樹滿此是生涯黄金何足數	-13.8177
漭	-13.8177
粗末裹置衣笥中勝蘭衣香零陵香	-13.8177
者又破竹五七尺揺之答答然以	-13.8177
芳茶冠六情溢味播九區	-13.8177
葉西園風嫋嫋催秋老叢邊莫厭金樽倒	-13.8177
蕭仲和許景初何首座林仲孔莊觀成	-13.8177
詩情似被花相惱入我香奩境界中龍	-13.8177
遊其地以一斛歸進上上和諸香作丸大	-13.8177
還通何須楚客紉秋佩坐	-13.8177
郝伯常花落深庭日正長蜂何撩	-13.8177
䘲	-13.8177
上時四月上旬為中時五月上旬為下時	-13.8177
中國出香之地比海南者優劣不侔甚矣	-13.8177
人且能識之固不待記而後見也	-13.8177
以九節為貴而此君面目聳然	-13.8177
其次莫若白西方金氣之應菊以秋開則	-13.8177
匳	-13.8177
千金方九月九日菊花末臨飲服方寸匕	-13.8177
右文令茶吐氣復酹一杯報君謨於地下	-13.8177
唐人以對花啜茶為殺風景故王介甫詩	-13.8177
土薄而不茂也五曰稽茶葉細而厚	-13.8177
圯	-13.8177
壁每於春時木芍藥盛開之際聚	-13.8177
山有樹非林有孔非泉閶闔	-13.8177
山花啜之當更助風景又何必羔兒酒也	-13.8177
希逸潘安仁等或愛其香或詠其色或採	-13.8177
成香則永無朽腐矣雷化	-13.8177
採摘蟲鳥皆不敢近或已取之蝙蝠蜂蟻	-13.8177
日以茶相飲味劣者有罰號為湯社	-13.8177
枝也最忌麝香或遇之花實盡落其熟未	-13.8177
森以苕苕當聖政之文明降元和於九霄	-13.8177
榦所出數千百朶婆娑團植	-13.8177
正當再拜此君而此君亦安得不受	-13.8177
毉	-13.8177
牙硝銀硃一字再拌煉蜜和勻上	-13.8177
福州之西三舎曰水口地少加寒已不可	-13.8177
而無琥珀益州永昌出琥珀而無茯苓	-13.8177
至若靈山霧歇藹藹林樾當楚澤之晨霞	-13.8177
花根窠多不能致逺惟芍藥及時取根盡	-13.8177
葉比柑葉細薄樹髙者五六尺芽短而不	-13.8177
蘂出小鈴萼中枝榦差細葉有支股而圓	-13.8177
趣何也壺小則香不渙散味不躭	-13.8177
金谷千花莫漫煎其意在花非在茶也余	-13.8177
雅委頓深憐蔡克兒	-13.8177
黑者亞之如五靈脂而光澤	-13.8177
䵄	-13.8177
七百二十片二水十五㝛火	-13.8177
三年條次貢物如祥符之數元祐元年	-13.8177
使稀不嗔彭澤寄來遲勸君莫以無腸故	-13.8177
和兵部鄭侍郎省中四松詩十韻	-13.8177
如雲母其氣辟癘魏文帝時題腹國	-13.8177
心不逺曰徳充符考明髙濓遵生八牋稱	-13.8177
放紛此心實與香俱焄聞思大士應已聞	-13.8177
故特論其名色列於記花之後	-13.8177
有異於物者凡花皆以春盛而實	-13.8177
未鳴時採艾見似人處攬而取之	-13.8177
次謝許少卿寄卧龍山茶	-13.8177
欲隨楚客紉蘭佩誰信吳兒是木腸山下	-13.8177
水鰸狀如蝦無足長寸形如股义	-13.8177
焫	-13.8177
玉中還有辟邪香早知百和	-13.8177
矇	-13.8177
莫辨其真或以為都梁或以為澤蘭或以	-13.8177
踠	-13.8177
飋	-13.8177
如白虺或成蒼兕喙餘三尺長尾利齒岸	-13.8179
也但輕虚枯朽不堪者今和香中皆用之	-13.8179
先色與香而後態然則色奚先曰黄	-13.8179
時揚州獻鰅其皮有文出樂浪東漢神	-13.8179
鰻鱺海鰻江鱺善攻岸碕又善升	-13.818
騕	-13.818
倍於常海棠無香獨此地有香焙茶尤妙	-13.818
匣蓋鐫御題銘與硯同𨽻書鈐寳二曰	-13.818
入花一重則實香一重使花多於香	-13.818
大而香就樹採之用箋香細作片以錫為	-13.818
繻	-13.818
㪍	-13.818
㯽	-13.818
秦地有鄠杜竹林南山檀柘號	-13.818
絁	-13.818
詳其毛竹自生毛筍若銀筍即銀鑛如筍	-13.818
亍	-13.818
時祖母集諸孫姪散棗栗	-13.818
眯	-13.818
不出黄葉紛可掃無人送酒壺空	-13.818
佳也故今所録但取其特著者而次第之	-13.818
去惡氣温中除冷耕香南方草木	-13.818
味辛温無毒主臭鬼氣調中生烏滸國	-13.818
有之俗呼為厭草花或云若人帶此花賭	-13.818
殻形雖不典而益帷箔求以象類堪為一	-13.818
為發揚是已本朝名士賦海棠甚多	-13.818
皆用此為實事如石延年云杜甫句作	-13.818
石以光凝敢不致在坐隅酣	-13.818
秀無衆草晨光雖照耀秋雨半摧倒先生	-13.818
筆陣餘波浸潤便同五老之壺終日	-13.818
茶墨云茶與墨二者正相反茶欲白墨欲	-13.818
茶欲重墨欲輕茶欲新墨欲陳	-13.818
象春松之含曜兮鬱蓊蔚以	-13.818
陽時六皆順行自小以入大	-13.818
不厭江山僻客好惟知笑語温莫上南	-13.818
主惜其繁艶為一隅之滯卉為作海棠記	-13.818
兄許氏宻具法服登車既至	-13.818
千悠然凌空去縹緲隨風還世事有過現	-13.818
命是從採訪使遂命博士金漸之規矩磨	-13.818
如茸攅聚相次花下亦無托	-13.818
歌詠清辭麗句徃徃而得立慶	-13.818
此香殊娬媚呼兒急取蒸木犀却作書生	-13.818
澄瓊漿之素色雜金筍之甘葅	-13.818
炷烟當時戒定慧妙供均人天我豈不清	-13.818
蕪拙作五言百韻詩一章四韻詩一章附	-13.818
薥	-13.818
謹黙詔命常侍御案之右以備濡染因累	-13.818
香劉子暈瘴海驪龍供素沫蠻村花露浥	-13.818
鼻觀猶疑似全在爐烟未發時	-13.818
下箸未休資快嚼持螯有味散朝酲	-13.818
以芥嫁筍但恨時不同耳	-13.818
公子鴨爐烟裏逞風標鼻根無奈重	-13.818
定難散者是否則白膠香也薫陸香	-13.818
家有名樹旁植四柱小樓夜棲其上以警	-13.818
影娥池有女香樹細枝葉婦人	-13.818
承之既啜而杯傾乃以蠟環楪子之央其	-13.818
明都過了石泉槐火一時新	-13.818
曰未見甘心氏先迎苦口師衆噱	-13.818
滿腹紅膏肥似髓貯盤青殻大於杯	-13.818
漸變為白色或生青蟲食其花片則衰矣	-13.818
焚香邵康節安樂窩中一炷香	-13.818
瓣薄開過轉紅色玉盤菊黄心突起淡白	-13.818
者謂之歇枝有仍歳生者半生半歇也春	-13.818
脉初能燥金餅漸見乾瓊液九里共杉林	-13.818
茶具之精未必有如斯之雅致	-13.818
處有春光老夫粥後惟躭睡灰	-13.818
詞客賢士大夫莫不為之珍重即唐宋以	-13.818
醉未醒命力士使侍兒扶掖而至妃子醉	-13.818
餧	-13.818
􁦛	-13.818
一泉極清澹謂之御泉用其池水造茶即	-13.818
也定之何難倫因命僕取糧糗以進予	-13.818
副之也是知古聖欽崇之至厚所以備物	-13.818
十六天台山西南峰千丈瀑布水第十七	-13.818
右件物産異金沙名非紫筍江邊地	-13.818
天上三辰次未免人間五鼎烹	-13.818
方物於是始通中國司馬相如賦上林云	-13.818
曰師曠識勞薪易牙别淄澠子陽今之妙	-13.818
曰麥也有杏李柰味三果之熟也不同	-13.818
杵數百如乾加蜜和勻窨地中旋取入麝	-13.818
樠	-13.818
石距烏則之别種見日華子	-13.818
芧	-13.818
苷	-13.818
草是其種也葉似杜若而紅碧相雜貢籍	-13.818
諸香又曰千萬種和香若香若丸若末若	-13.818
香同樹細枝𦂳實未爛者	-13.818
馥烈之異非世所聞大約以沉	-13.818
鯇鮦鱧蠡紛其别稱其膽獨甘以是為徴	-13.818
㸃如紫金斑斑匀布無羅紋	-13.818
䍢	-13.818
一炷雲但覺清芬暗浮動不知碧篆已氤	-13.818
不敗俗嗜酒馬嗜苜蓿漢使取其實	-13.818
中燒之有光而堅實難碎太醫	-13.818
主辟邪殺鬼精中惡風毒療	-13.818
云君方論道承華勛我亦旗	-13.818
以雅尚相推從事茗飲故近	-13.818
共在裹中者為勝或有夏食蛇蟲多至寒	-13.818
則香奪壓黄則味失此皆茶之病也	-13.818
化為琥珀琥珀一名江珠今泰山	-13.818
去膏未盡則色濁而味重受	-13.818
又命取密雲龍家人謂是四學士窺之乃	-13.818
取其變者以為新今此菊亦疑所變也	-13.818
土國名衆香其香比於十方人天之香最	-13.818
太璞匣葢並鐫是銘𨽻書鈐寳二曰	-13.818
幸致無為縉紳之士韋布之流沐浴膏澤	-13.818
忡	-13.818
成䨇三公只得三株看閒客清隂滿北窓	-13.818
掺	-13.818
於水中冷便可燒或欲作餅子	-13.818
於蒔花者云花之形色變易如牡丹之類	-13.818
旋心狀頂上四向葉端㸃小殷紅色	-13.818
檻半開紅朶宻遶池初應翠枝連誰人與	-13.818
濈	-13.818
煑筍汁為羮茹味全加美	-13.818
生必損人苦筍最宜乆甘筍出湯後去殻	-13.818
祖説此事謝曰卿讀爾雅不熟幾為勸學	-13.818
簠	-13.818
者多故取者速也是黄熟不待其成	-13.818
而香去風熱明耳目在木部上篇乃採斫	-13.818
脚剔出人有得之者此香絶勝帶麝非但	-13.818
花可食者根葉未必可食而陸龜蒙云春	-13.818
茂於風霜揺落之時此其得時者異也有	-13.818
葉者花未必可食而康風子乃以食菊	-13.818
薄使芽之膏腴内耗至受水而不鮮明故	-13.818
螠	-13.818
言巧勞智憂養命蠲疫人胡不求枝殘體	-13.818
言火前蓋未知社前之為佳也	-13.818
鐫御題銘與硯同隷書鈐寳一曰徳充符	-13.818
鰀	-13.818
黄帝列珪玉於蘭蒲蓆上然沈榆香舂雜	-13.818
黄金碾畔緑塵飛碧玉甌中翠濤起	-13.818
􁳏	-13.818
槐樹異物志云其葉如椿交州記云樹似	-13.8182
無香惟撚破聞之方知有香至中秋便開	-13.8182
鵝黄雙紋多葉一花之間自有深淡兩色	-13.8182
海魚無鱗形類琵琶一名樂魚其鳴	-13.8183
蜊	-13.8183
嫈	-13.8183
無俗客紗帽籠頭自煎喫	-13.8183
碟	-13.8183
夫人姓魏名華存性樂神仙季冬夜半有	-13.8183
梡	-13.8183
髫	-13.8183
宿不歇惟五羊至今用之他國不尚焉	-13.8183
熛	-13.8183
香朝三界香香滿瓊樓玉境	-13.8183
之品斯固好事之嘉尚博識之精鑒自非	-13.8183
何耶鄭谷詩云浣花溪上空惆悵子美無	-13.8183
出海南主心腹痛霍亂中惡鬼氣殺蟲	-13.8183
取賣與商賈無賈則自食之	-13.8183
既滋蘭之九畹兮又樹蕙之百畮	-13.8183
晉令治書令史掌威儀禁令領受	-13.8183
沙中盛夏木膠流出沙上狀如桃膠夷人	-13.8183
雲水之交有司以薦于上上授之文史登	-13.8183
齊孝宣陳皇后性嗜筍鴨卵永	-13.8183
中自歴位常與宣城毛元	-13.8183
吭	-13.8183
宋玉賢山隂人也既稟女質厥志彌髙自	-13.8183
山中用核桃松子肉和真粉成小	-13.8183
括囊硯舊端石浮鵞硯舊端石星羅硯	-13.8183
日從雲出雲來掩日風吹樹枝	-13.8183
時長短不齊經多日乃齊其心黄色内帶	-13.8183
淮海京東河北陂澤中多有之	-13.8183
相賈元靖耽著百花譜以海棠為花中神	-13.8183
粗末入米腦少許薄紙貼佩之	-13.8183
緑筒縹箭罕節疎目㯽榔之筍盛冬所育	-13.8183
能發衆香故多用之以和香焉	-13.8183
至一處竒泉怪石非人境也有桃數百株	-13.8183
賜蜀茶三觔蠟面茶二觔武班官各有差	-13.8183
黄金一杯寒露三更後誰信幽人更苦心	-13.8183
傅𤣥硯賦云木貴其能軟石美其潤堅	-13.8183
僞	-13.8183
兼者梅花優於香桃花優於色	-13.8183
味足蠲邪助其正直香堪愈	-13.8183
城及三千大千世界時維摩詰語舍利佛	-13.8183
太祝遺雙井茶五品茶具四枚	-13.8183
媾	-13.8183
子地窨燒之如要烟聚入製過甲香一字	-13.8183
嶻	-13.8183
浯	-13.8183
海為名者悉從海外來如海棠之類是也	-13.8183
眼蘋沫香沾齒松下時一看支公亦如此	-13.8183
縐縮如腦子狀荼䕷菊心青黄	-13.8183
而香不足者也菊之黄者未必皆勝而置	-13.8183
花開莫奏傷心曲花落休矜稱面	-13.8183
茸茸突起花多半開者如鈴腦子菊花瓣	-13.8183
菱之石鏡當其山谷之側沉	-13.8183
蚨	-13.8183
金山寺作詩送遂寧僧圓寶	-13.8183
􁠥	-13.8183
㸤	-13.8183
䔰	-13.8183
一本方操柯未下縣令李韶行春見之息	-13.8183
一樹瓏鬆玉刻成飄廊㸃地色輕輕	-13.8183
之精製作之工品第之勝烹㸃之妙莫不	-13.8183
人愛惜藏巖裏白甀封題寄火前	-13.8183
以巨杓颺濃蒜潑之香樂遂散	-13.8183
佳品者常於半曉間衝蒙雲霧	-13.8183
候湯最難未熟則沫浮過熟則茶	-13.8183
出黔南管内或巖下潭水中生	-13.8183
初生時礧磈然不堪食與今	-13.8183
則復鳴鑼以聚之恐其踰時貪多務得也	-13.8183
及許昌宫中皆種之可著粉	-13.8183
呝	-13.8183
味易出田子藝以生曬不炒不揉者為佳	-13.8183
品尤多遜之曰菊當以黄為正餘可鄙也	-13.8183
哠	-13.8183
堅勁雜小石清水植之盆中久而	-13.8183
天仙所餌猶有桂名鱖借音爾流水桃花	-13.8183
妙閑雅可為丘壑燕靜之娛然則古人取	-13.8183
寛二寸四分下寛二寸七分厚一寸五分	-13.8183
實先看雨後花名應出西海顔豈論東家	-13.8183
得一斤地榆安用明月寳珠昔魯定公母	-13.8183
必皆異香曰熟香曰脫落香皆是自然成	-13.8183
意不盡獨自送殘芳色作裙腰染名隨酒	-13.8183
故刑部侍郎劉公諱伯芻	-13.8183
是一物今所謂白芷是也蕙即零陵	-13.8183
有以少為貴者焉敢韞而藏諸見謂新茶	-13.8183
枯槁矣士之生世出處語黙難乎哉韶余	-13.8183
桐君之書名載騷人之詞生於遐深委	-13.8183
槄	-13.8183
樹認紅綃宻宻連因想當年武平一枝枝	-13.8183
每恨陶彭澤無錢對菊花如今九日	-13.8183
每覺西齋景最幽不知官是古諸侯一	-13.8183
水淘刮去上肉焙乾又以清酒二	-13.8183
汁和丹蒸之服一年壽五百	-13.8183
清香寒愈峭髙人避喧守幽獨淑女靜容	-13.8183
滯致清導和則非庸人孺子可得而知矣	-13.8183
灾	-13.8183
然蒸最美味全煻灰中煨後入五味尤佳	-13.8183
用蒼耳辣蓼勒母藤三	-13.8183
痁	-13.8183
百里有積烟成雲積雲成雨然則與人間	-13.8183
禽芝以處女中單覆之則活	-13.8183
秖	-13.8183
種兒女花老大安能逐年少	-13.8183
者然實非菖蒲葉柔脆易折不若蘭蓀	-13.8183
而壑源之品亦自此而盛延及於今百廢	-13.8183
而解為兩向如雞舌故名乃是母丁香也	-13.8183
至嫩也今茶之美者其質素良而所植之	-13.8183
至秋州人泛舟溪中採石崖之菊以飲每	-13.8183
與我師皇墳旁資老耼釋迦文共厄中年	-13.8183
若深一丈則筍出水面為一節蠻	-13.8183
苦茶乆食羽化與韮同食令人體重	-13.8183
茂可愛茝葯䖀芷雖有四名	-13.8183
蕸	-13.8183
蝶生死何足道頗訝昌黎公恨爾生不早	-13.8183
裹搥碎然後熟碾其大要旋碾則色白	-13.8183
謝宗論茶候蟾背之芳香觀蝦目之沸湧	-13.8183
謝幼貞嗜菌庭中忽生一菌狀	-13.8183
載蒸載和豆分而丸之珠貫而	-13.8183
逺一人可負數百本而不勞至於他州則	-13.8183
醭	-13.8183
隨其所備不足觀也祥符初奉詔充天書	-13.8183
霏霏霧雨杏花天簾外春威著羅幕	-13.8183
香末和勻燒熏如常法熏衣梅花香甘松	-13.8183
騃	-13.8183
魛	-13.8183
龍團勝雪白茶二種謂之水芽先蒸後揀	-13.8183
寒主惡風毒出崑崙盤盤之國主消風	-13.8185
檀人磨之以塗風腫雖不生於中	-13.8185
同是一物互為形表鳥藏魚出變化莫曉	-13.8185
劣氣不足消毒殺蟲毒今以如雞骨堅實	-13.8185
桃杏滿村春似錦踏歌椎	-13.8186
椐	-13.8187
拗	-13.8187
春風拾遺舊詠悲零落瘦損腰圍擬未工	-13.8187
三層以黄金鑄像日焚龍腦薰陸諸香數	-13.8187
懼其尠挹岸水増之處士之	-13.8187
漠漠弄秋暉無數蜜蜂花上飛不忍獨醒	-13.8187
王闔閭起響屧廊採香	-13.8187
餾	-13.8187
二香俱出真臘占城國土人以腦麝諸香	-13.8187
呫	-13.8187
和而成或以塗肌或以拂手其香經	-13.8187
嗶	-13.8187
昌州海棠獨香非佳郡乎聞者傳以為笑	-13.8187
李丹大夫客都下一年無差遣	-13.8187
殉	-13.8187
競芳霏霏含宿霧灼灼艶朝陽戲蝶棲輕	-13.8187
繫臂上登山飲菊花酒此禍可消景	-13.8187
長房謂之曰九月九日汝南當有大災	-13.8187
下得靈根吉祥老子親拈出箇箇教成百	-13.8187
之令裏灰常燥以避風濕却忌火氣入甕	-13.8187
九年詔太廟祭后薦筍鴨卵云	-13.8187
前其采芽如鷹爪初造曰試焙又曰一火	-13.8187
又頒文器周及禁林製作泓	-13.8187
書契既造硯墨乃陳篇籍永垂紀誌功	-13.8187
江空蟹急窘於蒐滿腹清凉做盡秋	-13.8187
温無毒主辟惡去邪鬼疰生南海諸山中	-13.8187
漬而氣變色敗者也品雜而碎者	-13.8187
紙不文不武火力均閉	-13.8187
而三火霜霽則三火之茶勝矣	-13.8187
自炷古龍涎但令有香不見烟素馨欲開	-13.8187
襠	-13.8187
視香之多少為殿最而香之品	-13.8187
倒放則過夏不黄以其氣不外泄也子	-13.8187
坡將移臨汝於飲餞處宜	-13.8187
太酸三恨蓴菜性冷四恨海棠無香五恨	-13.8187
姆	-13.8187
子固不能詩聞者大笑淵材瞠目	-13.8187
宗御案墨曰龍香劑一日見墨上有	-13.8187
帨帉無一往之發烈有無窮之氤	-13.8187
心坦然若汪汪萬頃之量也採訪使以聞	-13.8187
楚人故使衷留甲齊客何妨死願烹	-13.8187
為號令之詞作典謨之訓如臣者坐憂才	-13.8187
缸内缸宜砂底則不生水而常燥	-13.8187
菡	-13.8187
鑿大安山取劉守光所藏錢	-13.8187
𬒮	-13.8187
􁊿	-13.8187
不克單馬至蟹浦投漁人	-13.8187
不材則終其天年能鳴則	-13.8187
云逺寄蔗霜知有味勝於崔	-13.8187
今時姑蘇之錫注時大彬之沙壺汴梁之	-13.8187
以呈象亦澄瀾而漬墨硯之用也詎可興	-13.8187
光悦取白雪取紅花與兒洗面作妍華取	-13.8187
兮象辰宿之相扶供無窮之	-13.8187
其次火前謂寒食前也其下則雨前謂	-13.8187
出獵至一縣界憇蘭若中覺	-13.8187
匠兮倪詭異於遐都稽山川之神瑞兮識	-13.8187
合粗末如常法燒熏熏衣芬積香	-13.8187
四領樞軸俸給頒賚隨日而隆故苾芬之	-13.8187
壊若蒸損者以温湯洗過晒乾其香如初	-13.8187
大笑之然茶之中等者用薑煎信佳	-13.8187
家郭索生此曹平日要横行	-13.8187
寂寞龎眉皓首無住著偏袒右肩露	-13.8187
尤不失毫釐近時都下菊品至多皆	-13.8187
彤池紫淵出日所浴蒸為赤	-13.8187
怛	-13.8187
撋	-13.8187
新築塲如鏡面平家家歡喜賀秋成老	-13.8187
椒蘭養鼻椒蘭芬苾所以養鼻也	-13.8187
欲取香伐之經年其根榦枝節各有别色	-13.8187
此時勺複茗野語知逾清	-13.8187
河圖授羲實此出焉神行九野如馬行天	-13.8187
洗手生樽前此物正施行哺糟晚出尤無	-13.8187
浄室内以爐燒之其䑕自至不得殺	-13.8187
淺薄雖頑朴其如近筆端低心蒙潤	-13.8187
澹閒潔韻髙致静則非	-13.8187
然察之於内以肉理潤者為上	-13.8187
煑其肉噉今合香多用謂能發香復	-13.8187
燒香辟瘟樞宻王博文每	-13.8187
爀	-13.8187
特與昔異襲慶奉祀日賜供	-13.8187
用有唐雜記言明皇時異人云醮席中每	-13.8187
眡其面色鮮白著盞無水痕為絶佳建安	-13.8187
空山離披素秋鳥避弋而	-13.8187
立作菌蠢勢煎為潺湲聲草堂暮雲隂松	-13.8187
章臺街裏翻輕吹㶚水橋邊送落暉	-13.8187
羽然以茶經考之皆不合又新	-13.8187
茶不炒甑中蒸熟然後烘焙	-13.8187
茶之為物擅甌閩之秀氣鍾山川之靈	-13.8187
茶啜之可以滌滯思而起清風	-13.8187
葉尖長枝間有刺植之近水乃生其	-13.8187
虛洞下香溪水第十四商州武	-13.8187
蟹之將糖躁擾彌甚仁人用意深懐	-13.8187
裂臍已腐人誰照折股猶腥犬謾爭	-13.8187
襁	-13.8187
計不足乞以官茶博糴每茶三	-13.8187
詩時要指南迎笑天香滿袖喜君先赴朝	-13.8187
豹革為囊風神呼吸之具也	-13.8187
閧	-13.8187
香其花不香成實乃香為雞舌香珍異之	-13.8187
䰕	-13.8187
嗛	-13.8187
嘈	-13.8187
堡	-13.8187
嬭	-13.8187
怦	-13.8187
慼	-13.8187
拯	-13.8187
澷	-13.8187
灎	-13.8187
甔	-13.8187
罧	-13.8187
蕝	-13.8187
蜑	-13.8187
鶼	-13.8187
𦦨	-13.8187
𫀆	-13.8187
􁜔	-13.8187
􁰒	-13.8187
萞	-13.8187
烰	-13.8189
癊	-13.819
姤	-13.819
鬵	-13.819
覻	-13.819
迮	-13.819
𥅆	-13.819
栟	-13.819
􁡎	-13.819
梠	-13.819
黁	-13.819
銑	-13.819
僃	-13.819
耑	-13.819
􁑽	-13.819
䔍	-13.819
䕬	-13.819
戩	-13.819
沕	-13.819
珙	-13.819
罛	-13.819
蠚	-13.819
踽	-13.819
鄖	-13.819
鍠	-13.819
鷽	-13.819
􁉬	-13.819
􁘗	-13.819
惝	-13.8193
􁊭	-13.8193
蔙	-13.8193
縿	-13.8193
耡	-13.8193
覉	-13.8193
喏	-13.8193
堀	-13.8193
嶪	-13.8193
摠	-13.8193
曶	-13.8193
椭	-13.8193
滺	-13.8193
濘	-13.8193
硠	-13.8193
糚	-13.8193
腆	-13.8193
膄	-13.8193
葼	-13.8193
蕞	-13.8193
賮	-13.8193
酧	-13.8193
飂	-13.8193
鱞	-13.8193
􁙞	-13.8193
􁙟	-13.8193
珵	-13.8196
壙	-13.8196
蚴	-13.8196
薠	-13.8196
魺	-13.8196
咈	-13.8196
愬	-13.8196
揠	-13.8196
晱	-13.8196
杙	-13.8196
洫	-13.8196
蔩	-13.8196
豓	-13.8196
鶂	-13.8196
𥜗	-13.8196
􁂳	-13.8196
㬪	-13.8196
㼸	-13.8196
妲	-13.8196
漤	-13.8196
踣	-13.8196
踶	-13.8196
轣	-13.8196
􁠋	-13.8196
黶	-13.8198
愾	-13.8199
罯	-13.8199
霛	-13.8199
帊	-13.8199
䔧	-13.8199
挶	-13.8199
凾	-13.8199
潠	-13.8199
箝	-13.8199
䇤	-13.8199
倀	-13.8199
勣	-13.8199
夊	-13.8199
庀	-13.8199
柁	-13.8199
槨	-13.8199
熻	-13.8199
硜	-13.8199
綣	-13.8199
繀	-13.8199
蒍	-13.8199
讎	-13.8199
鳱	-13.8199
鸐	-13.8199
嘕	-13.8201
􁓁	-13.8201
蹬	-13.8202
珀	-13.8202
覷	-13.8202
逥	-13.8202
䔖	-13.8202
詶	-13.8202
廆	-13.8202
瓿	-13.8202
縰	-13.8202
陞	-13.8202
䗤	-13.8202
怊	-13.8202
枍	-13.8202
栺	-13.8202
矬	-13.8202
笪	-13.8202
􁉣	-13.8202
髴	-13.8204
笇	-13.8205
仡	-13.8205
餫	-13.8205
瞶	-13.8205
扯	-13.8205
柸	-13.8205
輶	-13.8205
埶	-13.8206
拴	-13.8206
爱	-13.8206
袢	-13.8206
鄷	-13.8206
􁘤	-13.8206
㐲	-13.8206
侗	-13.8206
冪	-13.8206
堁	-13.8206
懟	-13.8206
斖	-13.8206
梃	-13.8206
汛	-13.8206
稴	-13.8206
蹌	-13.8206
蹼	-13.8206
靦	-13.8206
鶊	-13.8206
鼒	-13.8206
饠	-13.8209
䕸	-13.8209
酆	-13.8209
凘	-13.8209
䒷	-13.8209
嶃	-13.8209
淦	-13.8209
猺	-13.8209
㡩	-13.8209
䂒	-13.8209
䃋	-13.8209
䅘	-13.8209
堘	-13.8209
璵	-13.8209
緫	-13.8209
胈	-13.8209
菇	-13.8209
袚	-13.8209
鬑	-13.8209
鷤	-13.8209
鏵	-13.8211
刲	-13.8212
䍐	-13.8212
湩	-13.8212
憙	-13.8212
濊	-13.8212
篔	-13.8212
蜾	-13.8212
䖟	-13.8212
蹩	-13.8212
𠡠	-13.8212
􁥽	-13.8212
妦	-13.8212
洸	-13.8212
魘	-13.8212
􁂝	-13.8212
褾	-13.8213
奨	-13.8215
䈙	-13.8215
􁳊	-13.8215
㵝	-13.8215
劐	-13.8215
憭	-13.8215
攲	-13.8215
瀠	-13.8215
􁡚	-13.8215
叮	-13.8215
抜	-13.8215
煏	-13.8215
讖	-13.8215
貉	-13.8215
黷	-13.8215
𠢐	-13.8215
臙	-13.8216
橆	-13.8217
蒺	-13.8218
橐	-13.8218
蹖	-13.8218
皖	-13.8218
万	-13.8218
􁁏	-13.8218
柝	-13.8218
檥	-13.8218
䆫	-13.8218
眡	-13.8218
眥	-13.8218
㜑	-13.8218
䧽	-13.8218
䲧	-13.8218
奧	-13.8218
杹	-13.8218
漇	-13.8218
磎	-13.8218
荖	-13.8218
鯟	-13.8218
􁛲	-13.8218
霹	-13.8221
籐	-13.8221
氤	-13.8221
蓱	-13.8221
饍	-13.8221
曆	-13.8221
桫	-13.8221
釤	-13.8221
㷈	-13.8221
殭	-13.8221
貙	-13.8221
僣	-13.8221
奓	-13.8221
簌	-13.8221
邙	-13.8221
鼏	-13.8221
玲	-13.8224
麑	-13.8224
漘	-13.8224
窋	-13.8224
輮	-13.8224
􁍄	-13.8224
尃	-13.8224
檘	-13.8224
緧	-13.8224
蕂	-13.8224
蘷	-13.8224
枅	-13.8227
􁫆	-13.8227
瑱	-13.8228
痙	-13.8228
魑	-13.8228
葥	-13.8228
轢	-13.8228
劘	-13.8228
槅	-13.8228
蚼	-13.8228
􁵷	-13.8228
离	-13.8231
􁁌	-13.8231
􁷧	-13.8231
裵	-13.8231
儈	-13.8231
廳	-13.8231
趯	-13.8231
鑷	-13.8231
􁲈	-13.8231
稬	-13.8234
鬒	-13.8234
鵴	-13.8234
牗	-13.8234
穅	-13.8234
觳	-13.8234
峕	-13.8234
澶	-13.8234
􁸋	-13.8234
楬	-13.8237
隤	-13.8237
晅	-13.8237
錔	-13.8237
騌	-13.8237
頟	-13.824
燙	-13.824
呿	-13.824
羝	-13.824
燻	-13.8243
胛	-13.8243
懨	-13.8243
􁃼	-13.8243
巋	-13.8245
釂	-13.8246
熝	-13.8246
楦	-13.8246
閹	-13.8246
饎	-13.8246
􁒬	-13.8246
䇣	-13.8249
坯	-13.8249
螓	-13.825
㯸	-13.825
媌	-13.825
䳓	-13.8253
􁂻	-13.8253
孶	-13.8253
扑	-13.8253
鶠	-13.8256
囁	-13.8256
舳	-13.8256
趄	-13.8256
懞	-13.8256
旉	-13.8256
樆	-13.8256
􁅨	-13.8256
䓻	-13.8259
暌	-13.8259
珬	-13.8259
縧	-13.8259
􁎊	-13.8262
庳	-13.8262
佷	-13.8265
娣	-13.8265
籭	-13.8265
䲐	-13.8265
㢕	-13.8269
埼	-13.8269
儿	-13.8272
褻	-13.8272
柠	-13.8272
𫐠	-13.8275
幟	-13.8278
鵽	-13.8278
䞉	-13.8281
𥙿	-13.8281
􁯨	-13.8281
䐑	-13.8281
袿	-13.8281
吪	-13.8297
沄	-13.83
篢	-13.8303
紘	-13.8306
煻	-13.831
騾	-13.8313
􁈏	-13.8325
冇	-13.8328
鸜	-13.8332
煴	-13.8344
􁚡	-14.7744
􁓿	-14.7745
齗	-14.7746
鼢	-14.7747
黥	-14.7748
鷫	-14.7749
鳷	-14.775
鱕	-14.7751
鰜	-14.7752
鰛	-14.7753
鯌	-14.7754
鯀	-14.7755
鮷	-14.7756
鮢	-14.7757
髿	-14.7758
骹	-14.7759
驦	-14.776
馱	-14.7761
餺	-14.7762
顴	-14.7763
鞨	-14.7764
靺	-14.7765
隩	-14.7766
隥	-14.7767
鎊	-14.7768
錙	-14.7769
鋑	-14.777
釄	-14.7771
醱	-14.7772
醰	-14.7773
酏	-14.7774
酇	-14.7775
躗	-14.7776
蹹	-14.7777
蹣	-14.7778
踉	-14.7779
跣	-14.778
贔	-14.7781
贉	-14.7782
貰	-14.7783
豺	-14.7784
豩	-14.7785
譟	-14.7786
諝	-14.7787
裓	-14.7788
袨	-14.7789
蠁	-14.779
蟁	-14.7791
螄	-14.7792
蝭	-14.7793
虖	-14.7794
蘮	-14.7795
蘦	-14.7796
藈	-14.7797
薽	-14.7798
薱	-14.7799
蕿	-14.78
蕀	-14.7801
蔧	-14.7802
蒱	-14.7803
蒬	-14.7804
蒩	-14.7805
葀	-14.7806
萲	-14.7807
莌	-14.7808
艨	-14.7809
艟	-14.781
艌	-14.7811
舐	-14.7812
腽	-14.7813
腝	-14.7814
脗	-14.7815
胼	-14.7816
胏	-14.7817
胊	-14.7818
肸	-14.7819
肭	-14.782
肫	-14.7821
耼	-14.7822
缹	-14.7823
繤	-14.7824
縡	-14.7825
綮	-14.7826
絰	-14.7827
筞	-14.7828
筑	-14.7829
笭	-14.783
笤	-14.7831
竮	-14.7832
竛	-14.7833
穋	-14.7834
祺	-14.7835
礰	-14.7836
确	-14.7837
盫	-14.7838
盩	-14.7839
癜	-14.784
瘾	-14.7841
瘼	-14.7842
瘲	-14.7843
瘛	-14.7844
痟	-14.7845
甋	-14.7846
甀	-14.7847
瑠	-14.7848
珷	-14.7849
玞	-14.785
玓	-14.7851
獪	-14.7852
猯	-14.7853
牣	-14.7854
熥	-14.7855
熀	-14.7856
焱	-14.7857
瀡	-14.7858
澎	-14.7859
漮	-14.786
漋	-14.7861
溧	-14.7862
湃	-14.7863
渂	-14.7864
涮	-14.7865
涫	-14.7866
汐	-14.7867
汊	-14.7868
毺	-14.7869
毹	-14.787
殮	-14.7871
歧	-14.7872
歈	-14.7873
櫑	-14.7874
櫋	-14.7875
檵	-14.7876
檦	-14.7877
橺	-14.7878
橰	-14.7879
橚	-14.788
樬	-14.7881
槪	-14.7882
楜	-14.7883
椌	-14.7884
梬	-14.7885
梫	-14.7886
柂	-14.7887
杝	-14.7888
杄	-14.7889
朢	-14.789
朏	-14.7891
晌	-14.7892
斨	-14.7893
斌	-14.7894
攧	-14.7895
攟	-14.7896
攗	-14.7897
撧	-14.7898
摴	-14.7899
搪	-14.79
搢	-14.7901
搙	-14.7902
揔	-14.7903
捅	-14.7904
愎	-14.7905
惄	-14.7906
庬	-14.7907
巑	-14.7908
嵲	-14.7909
嵎	-14.791
崎	-14.7911
崃	-14.7912
峚	-14.7913
屓	-14.7914
嫖	-14.7915
嫏	-14.7916
婑	-14.7917
奝	-14.7918
墰	-14.7919
墄	-14.792
垍	-14.7921
坏	-14.7922
囅	-14.7923
嚻	-14.7924
嗒	-14.7925
咼	-14.7926
单	-14.7927
匈	-14.7928
勍	-14.7929
刎	-14.793
僬	-14.7931
倜	-14.7932
倆	-14.7933
俜	-14.7934
乩	-14.7935
䶎	-14.7936
䵠	-14.7937
䳭	-14.7938
䳇	-14.7939
䱷	-14.794
䰸	-14.7941
䠓	-14.7942
䜛	-14.7943
䙰	-14.7944
䙞	-14.7945
䖴	-14.7946
䔺	-14.7947
䔟	-14.7948
䓠	-14.7949
䓗	-14.795
䊵	-14.7951
䈝	-14.7952
䆡	-14.7953
䃘	-14.7954
䂬	-14.7955
䂪	-14.7956
㴙	-14.7957
㴑	-14.7958
㫤	-14.7959
㧫	-14.796
㗐	-14.7961
㐨	-14.7962
􁛹	-14.7963
麚	-14.7964
鶺	-14.7965
鵁	-14.7966
鱆	-14.7967
鰠	-14.7968
倌	-14.7969
垈	-14.7969
鯩	-14.7969
魳	-14.797
魢	-14.7971
驊	-14.7972
駑	-14.7973
餭	-14.7974
餦	-14.7975
鞞	-14.7976
鐳	-14.7977
鈸	-14.7978
鄯	-14.7979
鄪	-14.798
郸	-14.7981
邳	-14.7982
迍	-14.7983
轕	-14.7984
轇	-14.7985
躶	-14.7986
跫	-14.7987
跑	-14.7988
豍	-14.7989
譸	-14.799
觫	-14.7991
褧	-14.7992
蟆	-14.7993
蘪	-14.7994
蘈	-14.7995
藎	-14.7996
薳	-14.7997
蕻	-14.7998
蔠	-14.7999
蓶	-14.8
䖂	-14.8001
䱮	-14.8001
蓇	-14.8001
葟	-14.8002
菾	-14.8003
菤	-14.8004
荶	-14.8005
荁	-14.8006
芕	-14.8007
艽	-14.8008
䭳	-14.8009
偫	-14.8009
桒	-14.8009
脝	-14.8009
脖	-14.801
緦	-14.8011
綹	-14.8012
紕	-14.8013
紊	-14.8014
簨	-14.8015
笊	-14.8016
䱌	-14.8017
堈	-14.8017
姶	-14.8017
秭	-14.8017
礜	-14.8018
碡	-14.8019
碚	-14.802
硼	-14.8021
眭	-14.8022
癮	-14.8023
痎	-14.8024
䲄	-14.8025
璪	-14.8025
璐	-14.8026
猙	-14.8027
牱	-14.8028
牁	-14.8029
爝	-14.803
燹	-14.8031
潩	-14.8032
䱂	-14.8033
䱄	-14.8033
䱵	-14.8033
椓	-14.8033
湋	-14.8033
汸	-14.8034
歪	-14.8035
櫔	-14.8036
檮	-14.8037
檫	-14.8038
檇	-14.8039
樳	-14.804
楄	-14.8041
梹	-14.8042
桎	-14.8043
栳	-14.8044
攴	-14.8045
揎	-14.8046
廅	-14.8047
帢	-14.8048
䳺	-14.8049
侅	-14.8049
椷	-14.8049
嶡	-14.8049
嵰	-14.805
崪	-14.8051
崚	-14.8052
岣	-14.8053
嫛	-14.8054
婥	-14.8055
埞	-14.8056
䰅	-14.8057
喆	-14.8057
嫘	-14.8057
岝	-14.8057
咯	-14.8057
匍	-14.8058
勦	-14.8059
儡	-14.806
僽	-14.8061
僝	-14.8062
侏	-14.8063
仃	-14.8064
䔏	-14.8065
䖤	-14.8065
宁	-14.8065
懆	-14.8065
槤	-14.8065
鷓	-14.8065
䖱	-14.8065
䕲	-14.8066
䒻	-14.8067
䍧	-14.8068
㰂	-14.8069
㯆	-14.807
㮕	-14.8071
㬜	-14.8072
枇	-14.8073
㡛	-14.8073
叛	-14.8073
㥏	-14.8073
􁪄	-14.8074
饘	-14.8075
餛	-14.8076
飩	-14.8077
頏	-14.8078
鄼	-14.8079
鄢	-14.808
䁓	-14.8081
䓆	-14.8081
䱗	-14.8081
厙	-14.8081
嗊	-14.8081
婐	-14.8081
嫇	-14.8081
尻	-14.8081
岞	-14.8081
慜	-14.8081
摰	-14.8081
敡	-14.8081
誾	-14.8081
裟	-14.8082
袈	-14.8083
蠛	-14.8084
蠓	-14.8085
蝮	-14.8086
蜝	-14.8087
蛱	-14.8088
䅖	-14.8089
丢	-14.8089
呴	-14.8089
嚦	-14.8089
崍	-14.8089
攕	-14.8089
楢	-14.8089
蛭	-14.8089
蚎	-14.809
蘡	-14.8091
蘀	-14.8092
蕰	-14.8093
蕁	-14.8094
蒝	-14.8095
茩	-14.8096
㖶	-14.8097
㲄	-14.8097
䰍	-14.8097
侜	-14.8097
媢	-14.8097
嬲	-14.8097
愇	-14.8097
柧	-14.8097
梐	-14.8097
樚	-14.8097
臃	-14.8097
腱	-14.8098
胚	-14.8099
綟	-14.81
糙	-14.8101
禕	-14.8102
祼	-14.8103
磄	-14.8104
䙫	-14.8105
䮑	-14.8105
䱠	-14.8105
勗	-14.8105
呺	-14.8105
哾	-14.8105
唤	-14.8105
奫	-14.8105
嫿	-14.8105
嬿	-14.8105
杍	-14.8105
槸	-14.8105
皵	-14.8105
畋	-14.8106
玗	-14.8107
湒	-14.8108
渢	-14.8109
毸	-14.811
毶	-14.8111
毰	-14.8112
㣣	-14.8113
䋣	-14.8113
䴉	-14.8113
儳	-14.8113
唹	-14.8113
垕	-14.8113
壈	-14.8113
屺	-14.8113
楳	-14.8113
輜	-14.8113
橪	-14.8113
槻	-14.8114
梪	-14.8115
枤	-14.8116
曨	-14.8117
擻	-14.8118
挱	-14.8119
拮	-14.812
玕	-14.8121
㕙	-14.8121
㷱	-14.8121
㸐	-14.8121
㽅	-14.8121
傀	-14.8121
匧	-14.8121
卐	-14.8121
呶	-14.8121
垝	-14.8121
尞	-14.8121
拲	-14.8121
晧	-14.8121
棆	-14.8121
楼	-14.8121
慍	-14.8121
悤	-14.8122
忉	-14.8123
嶤	-14.8124
崷	-14.8125
屭	-14.8126
寀	-14.8127
婭	-14.8128
㺄	-14.8129
䐜	-14.8129
儜	-14.8129
冱	-14.8129
凓	-14.8129
埳	-14.8129
塉	-14.8129
嵳	-14.8129
廑	-14.8129
悢	-14.8129
揰	-14.8129
楶	-14.8129
娓	-14.8129
塏	-14.813
喃	-14.8131
哩	-14.8132
吺	-14.8133
匼	-14.8134
僥	-14.8135
价	-14.8136
橄	-14.8137
㹱	-14.8137
㺐	-14.8137
䀪	-14.8137
䅳	-14.8137
䪫	-14.8137
䭀	-14.8137
䭅	-14.8137
冏	-14.8137
剷	-14.8137
厩	-14.8137
夻	-14.8137
媕	-14.8137
嫚	-14.8137
岪	-14.8137
嵫	-14.8137
庅	-14.8137
彳	-14.8137
戹	-14.8137
擫	-14.8137
朒	-14.8137
柙	-14.8137
䒗	-14.8137
㼐	-14.8138
齲	-14.8139
鴒	-14.814
鱃	-14.8141
鯺	-14.8142
踘	-14.8143
螵	-14.8144
蜍	-14.8144
㩻	-14.8145
䂥	-14.8145
䄈	-14.8145
䕔	-14.8145
䤌	-14.8145
䰄	-14.8145
䵩	-14.8145
亱	-14.8145
倂	-14.8145
傃	-14.8145
勳	-14.8145
慴	-14.8145
扅	-14.8145
撡	-14.8145
擴	-14.8145
斒	-14.8145
昐	-14.8145
昘	-14.8145
昫	-14.8145
暧	-14.8145
柩	-14.8145
榹	-14.8145
橱	-14.8145
蓿	-14.8145
蘹	-14.8145
蔛	-14.8146
蒾	-14.8147
蒥	-14.8148
荗	-14.8149
篨	-14.815
竑	-14.8151
碼	-14.8152
桄	-14.8153
檳	-14.8153
㘽	-14.8153
㥵	-14.8153
㬎	-14.8153
㲼	-14.8153
㴱	-14.8153
㶟	-14.8153
䃈	-14.8153
䟐	-14.8153
䟫	-14.8153
䩉	-14.8153
䱎	-14.8153
䲅	-14.8153
傯	-14.8153
啑	-14.8153
啘	-14.8153
啚	-14.8153
圊	-14.8153
婬	-14.8153
嬢	-14.8153
崽	-14.8153
嶱	-14.8153
愀	-14.8153
搤	-14.8153
敳	-14.8153
暐	-14.8153
暪	-14.8153
枏	-14.8153
梴	-14.8153
瓴	-14.8153
碯	-14.8153
碔	-14.8154
硎	-14.8155
砆	-14.8156
灉	-14.8157
櫃	-14.8158
榷	-14.8159
枒	-14.816
徘	-14.8161
㮶	-14.8161
㯿	-14.8161
㴞	-14.8161
䔇	-14.8161
䡆	-14.8161
䲚	-14.8161
仟	-14.8161
佪	-14.8161
凃	-14.8161
刅	-14.8161
劌	-14.8161
匜	-14.8161
噆	-14.8161
坱	-14.8161
墢	-14.8161
尘	-14.8161
岻	-14.8161
嶭	-14.8161
彂	-14.8161
惸	-14.8161
懺	-14.8161
摖	-14.8161
撣	-14.8161
晥	-14.8161
桱	-14.8161
楕	-14.8161
橁	-14.8161
橝	-14.8161
櫲	-14.8161
鑼	-14.8161
旡	-14.8161
徬	-14.8162
巃	-14.8163
嵸	-14.8164
嵕	-14.8165
蒡	-14.8166
嵋	-14.8166
崈	-14.8167
菩	-14.8168
塿	-14.8168
婀	-14.8169
藶	-14.8169
萏	-14.8169
㔢	-14.8169
㡡	-14.8169
㻧	-14.8169
㼕	-14.8169
䃜	-14.8169
䅀	-14.8169
䑸	-14.8169
䰐	-14.8169
䱦	-14.8169
䲀	-14.8169
䲓	-14.8169
僇	-14.8169
僴	-14.8169
凊	-14.8169
凥	-14.8169
剿	-14.8169
劊	-14.8169
勔	-14.8169
吷	-14.8169
嘩	-14.8169
噇	-14.8169
囙	-14.8169
圮	-14.8169
垎	-14.8169
埆	-14.8169
堧	-14.8169
墝	-14.8169
峳	-14.8169
惛	-14.8169
抔	-14.8169
曏	-14.8169
橃	-14.8169
哽	-14.8169
呻	-14.817
劂	-14.8171
剞	-14.8172
䥶	-14.8173
䤵	-14.8174
䔾	-14.8175
䓘	-14.8176
㬦	-14.8177
㷶	-14.8177
㼎	-14.8177
䉁	-14.8177
䉉	-14.8177
䘐	-14.8177
䛕	-14.8177
仐	-14.8177
侻	-14.8177
吊	-14.8177
呑	-14.8177
哮	-14.8177
圌	-14.8177
坭	-14.8177
塪	-14.8177
幇	-14.8177
幺	-14.8177
廏	-14.8177
彔	-14.8177
挮	-14.8177
搐	-14.8177
曯	-14.8177
枘	-14.8177
枽	-14.8177
櫶	-14.8177
箵	-14.8177
㴩	-14.8177
齬	-14.8178
齟	-14.8179
鍍	-14.818
躇	-14.8181
跏	-14.8182
贇	-14.8183
諄	-14.8184
㢸	-14.8185
㮣	-14.8185
㿅	-14.8185
㿔	-14.8185
䑨	-14.8185
䓁	-14.8185
偟	-14.8185
剚	-14.8185
勩	-14.8185
嗾	-14.8185
噶	-14.8185
囦	-14.8185
堫	-14.8185
壜	-14.8185
婵	-14.8185
弨	-14.8185
惮	-14.8185
揶	-14.8185
曮	-14.8185
桚	-14.8185
榰	-14.8185
樿	-14.8185
櫽	-14.8185
鵹	-14.8185
蟪	-14.8185
蟋	-14.8186
蟀	-14.8187
蛄	-14.8188
喭	-14.8189
薴	-14.8189
蒒	-14.819
茼	-14.8191
艻	-14.8192
嫦	-14.8192
卄	-14.8193
翡	-14.8193
葜	-14.8193
㕞	-14.8193
㭊	-14.8193
㽃	-14.8193
䄖	-14.8193
䅻	-14.8193
䇲	-14.8193
䊧	-14.8193
䏰	-14.8193
䐗	-14.8193
䕴	-14.8193
䙚	-14.8193
䟎	-14.8193
䟱	-14.8193
䲎	-14.8193
䴊	-14.8193
丏	-14.8193
东	-14.8193
伻	-14.8193
佉	-14.8193
偞	-14.8193
儐	-14.8193
卍	-14.8193
厈	-14.8193
咦	-14.8193
嗑	-14.8193
嘅	-14.8193
垞	-14.8193
埡	-14.8193
婕	-14.8193
媟	-14.8193
嬗	-14.8193
屼	-14.8193
岔	-14.8193
崘	-14.8193
廚	-14.8193
开	-14.8193
彜	-14.8193
怏	-14.8193
恼	-14.8193
惘	-14.8193
愓	-14.8193
戃	-14.8193
扼	-14.8193
拑	-14.8193
捴	-14.8193
攉	-14.8193
攏	-14.8193
敇	-14.8193
栂	-14.8193
棂	-14.8193
舀	-14.8193
聦	-14.8193
糢	-14.8194
篣	-14.8195
筡	-14.8196
茉	-14.8197
禰	-14.8197
畟	-14.8198
熳	-14.8199
璛	-14.8199
璁	-14.82
㬢	-14.8201
㻛	-14.8201
䁔	-14.8201
䐘	-14.8201
䰼	-14.8201
䱴	-14.8201
䳸	-14.8201
刦	-14.8201
劁	-14.8201
喁	-14.8201
嗢	-14.8201
噞	-14.8201
垐	-14.8201
妸	-14.8201
屜	-14.8201
岤	-14.8201
峍	-14.8201
峘	-14.8201
峞	-14.8201
弈	-14.8201
悛	-14.8201
惔	-14.8201
憕	-14.8201
憺	-14.8201
掦	-14.8201
揪	-14.8201
攑	-14.8201
晹	-14.8201
暦	-14.8201
曕	-14.8201
桗	-14.8201
梮	-14.8201
榾	-14.8201
濰	-14.8201
滹	-14.8202
湑	-14.8203
淼	-14.8204
㦄	-14.8205
槵	-14.8205
梈	-14.8206
摐	-14.8207
愐	-14.8208
蓞	-14.8209
㯭	-14.8209
㲣	-14.8209
㾕	-14.8209
䋏	-14.8209
䖺	-14.8209
䙬	-14.8209
䥴	-14.8209
丌	-14.8209
佈	-14.8209
券	-14.8209
嚀	-14.8209
妮	-14.8209
姘	-14.8209
娏	-14.8209
娵	-14.8209
尙	-14.8209
嵹	-14.8209
巓	-14.8209
幐	-14.8209
庄	-14.8209
憪	-14.8209
揫	-14.8209
斀	-14.8209
朵	-14.8209
栔	-14.8209
栧	-14.8209
檞	-14.8209
櫉	-14.8209
蚰	-14.8209
隟	-14.8209
徜	-14.8209
娬	-14.821
嚶	-14.8211
嘖	-14.8212
嘒	-14.8213
䔄	-14.8214
䍥	-14.8215
䆉	-14.8216
蘑	-14.8216
㠁	-14.8217
㲨	-14.8217
㴸	-14.8217
䇮	-14.8217
䎘	-14.8217
䗒	-14.8217
䗻	-14.8217
䧳	-14.8217
䳏	-14.8217
䵶	-14.8217
佖	-14.8217
兑	-14.8217
冑	-14.8217
吰	-14.8217
噌	-14.8217
嚧	-14.8217
嚵	-14.8217
圡	-14.8217
埯	-14.8217
嫪	-14.8217
峗	-14.8217
巣	-14.8217
幀	-14.8217
幨	-14.8217
悝	-14.8217
慲	-14.8217
摝	-14.8217
摳	-14.8217
攛	-14.8217
旴	-14.8217
曊	-14.8217
栅	-14.8217
栮	-14.8217
桉	-14.8217
梌	-14.8217
棰	-14.8217
滬	-14.8217
㕮	-14.8217
􁘩	-14.8218
􁘨	-14.8219
鸑	-14.822
㴜	-14.8221
鬅	-14.8221
駙	-14.8222
醾	-14.8223
躊	-14.8224
㨶	-14.8225
㭬	-14.8225
䉈	-14.8225
䣃	-14.8225
䳵	-14.8225
佾	-14.8225
傒	-14.8225
咆	-14.8225
嚌	-14.8225
圬	-14.8225
嫡	-14.8225
帋	-14.8225
幈	-14.8225
弸	-14.8225
慱	-14.8225
憏	-14.8225
枷	-14.8225
礨	-14.8225
蹁	-14.8225
蜴	-14.8226
蘝	-14.8227
薞	-14.8228
薘	-14.8229
葧	-14.823
絪	-14.8231
琇	-14.8232
麒	-14.8233
㢧	-14.8233
㫪	-14.8233
䒱	-14.8233
䖃	-14.8233
䲆	-14.8233
內	-14.8233
哱	-14.8233
嚏	-14.8233
岨	-14.8233
峿	-14.8233
憹	-14.8233
昪	-14.8233
晛	-14.8233
棍	-14.8233
楤	-14.8233
橊	-14.8233
淀	-14.8233
獷	-14.8233
猢	-14.8234
欓	-14.8235
朦	-14.8236
旰	-14.8237
慇	-14.8238
徨	-14.8239
胭	-14.8239
徕	-14.824
㙮	-14.8241
㵳	-14.8241
䘍	-14.8241
䪤	-14.8241
䬙	-14.8241
䳡	-14.8241
倓	-14.8241
儇	-14.8241
坿	-14.8241
塕	-14.8241
妣	-14.8241
帩	-14.8241
惢	-14.8241
拶	-14.8241
挅	-14.8241
梲	-14.8241
椆	-14.8241
樏	-14.8241
廧	-14.8241
崆	-14.8242
峥	-14.8243
宧	-14.8244
娩	-14.8245
呦	-14.8246
倖	-14.8247
􁡯	-14.8248
璨	-14.8249
㜮	-14.8249
㯳	-14.8249
䆛	-14.8249
䉽	-14.8249
䔭	-14.8249
䲔	-14.8249
䵸	-14.8249
䷰	-14.8249
勴	-14.8249
妯	-14.8249
娌	-14.8249
晫	-14.8249
桯	-14.8249
楗	-14.8249
樻	-14.8249
跽	-14.8249
齶	-14.8249
𥻘	-14.8249
鵪	-14.825
鰂	-14.8251
邾	-14.8252
蜥	-14.8253
蕓	-14.8254
臚	-14.8255
箊	-14.8256
㙞	-14.8257
㨵	-14.8257
㬅	-14.8257
㾭	-14.8257
䄜	-14.8257
䕠	-14.8257
仳	-14.8257
嚕	-14.8257
埻	-14.8257
尫	-14.8257
忮	-14.8257
懭	-14.8257
搻	-14.8257
曚	-14.8257
柅	-14.8257
栵	-14.8257
筀	-14.8257
睥	-14.8258
猻	-14.8259
抓	-14.826
憧	-14.8261
幪	-14.8262
崢	-14.8263
嬙	-14.8264
苡	-14.8265
㢮	-14.8265
㨷	-14.8265
䐢	-14.8265
䤈	-14.8265
䴷	-14.8265
䷆	-14.8265
侚	-14.8265
倞	-14.8265
噰	-14.8265
幵	-14.8265
醵	-14.8265
喎	-14.8266
鴞	-14.8267
驎	-14.8268
芨	-14.8269
蟕	-14.8269
苢	-14.827
箖	-14.8271
痘	-14.8272
牂	-14.8273
㮇	-14.8273
伹	-14.8273
俣	-14.8273
听	-14.8273
嵂	-14.8273
戇	-14.8273
桕	-14.8274
摵	-14.8275
唧	-14.8276
仔	-14.8277
䍦	-14.8278
鷙	-14.8279
鴝	-14.828
頲	-14.8281
㖡	-14.8281
㠂	-14.8281
冮	-14.8281
墡	-14.8281
岊	-14.8281
巏	-14.8281
敺	-14.8281
棻	-14.8281
靃	-14.8282
薖	-14.8283
茘	-14.8284
翌	-14.8285
珧	-14.8286
珞	-14.8287
瀲	-14.8288
沌	-14.8289
㟑	-14.8289
㻌	-14.8289
䖳	-14.8289
䰂	-14.8289
慓	-14.8289
檯	-14.8289
櫞	-14.829
惚	-14.8291
痃	-14.8292
燉	-14.8293
魫	-14.8294
駸	-14.8295
鄠	-14.8296
謖	-14.8297
崞	-14.8297
摷	-14.8297
蜈	-14.8298
蚣	-14.8299
礴	-14.83
磾	-14.8301
癤	-14.8302
瘰	-14.8303
瑇	-14.8304
昺	-14.8305
㛠	-14.8306
㨨	-14.8306
䃁	-14.8306
伾	-14.8306
唽	-14.8306
摔	-14.8306
媫	-14.8306
妤	-14.8307
咱	-14.8308
㛹	-14.8309
𣏌	-14.831
駘	-14.8311
轤	-14.8312
薢	-14.8313
捘	-14.8314
磅	-14.8314
皤	-14.8315
榠	-14.8316
鶒	-14.8317
鄜	-14.8318
蜻	-14.8319
瓈	-14.832
狻	-14.8321
嘱	-14.8322
墆	-14.8322
颻	-14.8322
轆	-14.8323
輞	-14.8324
藒	-14.8325
洳	-14.8326
榅	-14.8327
桲	-14.8328
朓	-14.8329
䌓	-14.833
仵	-14.833
墠	-14.833
嶫	-14.833
戡	-14.833
棡	-14.833
鷥	-14.833
顇	-14.8331
菠	-14.8332
琊	-14.8333
湲	-14.8334
櫰	-14.8335
喈	-14.8336
顦	-14.8337
厢	-14.8338
囏	-14.8338
扷	-14.8338
揳	-14.8338
韆	-14.8338
鞦	-14.8339
蕒	-14.834
膀	-14.8341
胱	-14.8342
紜	-14.8343
糵	-14.8344
嶸	-14.8345
焄	-14.8346
驀	-14.8346
酩	-14.8347
酊	-14.8348
邂	-14.8349
蚯	-14.835
唵	-14.8351
叭	-14.8352
蝙	-14.8353
啻	-14.8354
䔿	-14.8355
煬	-14.8356
逌	-14.8357
砢	-14.8358
琶	-14.8359
毿	-14.836
蜘	-14.8361
蛺	-14.8362
踟	-14.8363
萵	-14.8364
雘	-14.8365
蹰	-14.8366
玻	-14.8367
饅	-14.8368
緲	-14.8369
靂	-14.837
逡	-14.837
婷	-14.8371
夤	-14.8372
娉	-14.8373
簹	-14.8374
瑙	-14.8375
鸝	-14.8376
颼	-14.8377
匆	-14.8378
鵡	-14.8379
旖	-14.838
逍	-14.8381
躑	-14.8382
憔	-14.8383
迢	-14.8384
窕	-14.8385
苜	-14.8386
鴣	-14.8387
翛	-14.8388
蝴	-14.8389
惆	-14.839
璃	-14.8391
茯	-14.8392
醿	-14.8393
桺	-14.8394
酴	-14.8394
