<unk>	0
<s>	0
</s>	0
之	-4.12292
以	-4.88753
為	-4.96888
有	-5.04778
而	-5.07985
/	-5.11557
也	-5.12065
其	-5.1563
曰	-5.166
者	-5.23179
(	-5.27496
人	-5.31
)	-5.35655
於	-5.37599
不	-5.39458
一	-5.4582
中	-5.62172
至	-5.66757
自	-5.76632
出	-5.77316
大	-5.78872
王	-5.80771
時	-5.82199
子	-5.83046
與	-5.84577
乃	-5.84894
上	-5.85713
無	-5.89173
見	-5.91492
公	-5.92038
云	-5.92817
所	-5.98529
皆	-6.05473
在	-6.06916
如	-6.07162
言	-6.07856
行	-6.08733
後	-6.093
則	-6.09921
此	-6.10347
事	-6.13778
得	-6.14518
又	-6.175
矣	-6.17816
亦	-6.18883
生	-6.19983
及	-6.22113
即	-6.23415
)(	-6.25138
山	-6.26204
遂	-6.26754
書	-6.27631
名	-6.27989
作	-6.29686
因	-6.30438
相	-6.31758
令	-6.32457
下	-6.34522
道	-6.36167
官	-6.36796
李	-6.37395
于	-6.38603
入	-6.39442
三	-6.39489
文	-6.40146
家	-6.40898
使	-6.41778
方	-6.4245
日	-6.43337
爲	-6.43882
然	-6.44681
知	-6.46749
是	-6.46804
來	-6.47237
故	-6.47779
今	-6.48243
水	-6.48559
當	-6.49189
張	-6.49369
多	-6.50033
可	-6.51257
去	-6.51739
復	-6.51779
將	-6.52151
天	-6.52245
謂	-6.55292
二	-6.55306
已	-6.56087
前	-6.56331
欲	-6.58299
君	-6.58584
州	-6.59043
▁	-6.62857
若	-6.64567
命	-6.65854
字	-6.66204
歸	-6.66627
長	-6.66635
門	-6.66777
非	-6.66894
常	-6.67179
聞	-6.68846
甚	-6.69186
石	-6.69406
何	-6.70111
未	-6.72179
用	-6.72926
白	-6.73382
取	-6.73629
死	-6.73631
明	-6.74155
焉	-6.75076
問	-6.75246
居	-6.75798
我	-6.77553
從	-6.7792
國	-6.77991
同	-6.78834
初	-6.79292
耳	-6.81021
馬	-6.81729
成	-6.82196
正	-6.82613
金	-6.82732
元	-6.8432
神	-6.86386
且	-6.8864
臣	-6.88792
能	-6.89613
既	-6.90434
數	-6.90574
請	-6.9083
間	-6.91219
小	-6.92147
食	-6.9232
心	-6.92681
或	-6.92773
吾	-6.92989
先	-6.93234
乎	-6.94096
唐	-6.94316
經	-6.94924
安	-6.95078
坐	-6.95209
南	-6.95267
盡	-6.95781
四	-6.96143
劉	-6.96586
語	-6.97991
本	-6.99238
過	-6.9948
年	-6.99905
女	-7.01012
髙	-7.01367
必	-7.01604
世	-7.01816
立	-7.02791
善	-7.02813
風	-7.03184
五	-7.03184
求	-7.04855
嘗	-7.04945
重	-7.05449
身	-7.05507
雖	-7.05584
處	-7.05934
地	-7.0641
平	-7.06427
朝	-7.06477
龍	-7.06711
陳	-7.06808
帝	-7.06816
意	-7.07881
師	-7.08168
法	-7.08662
起	-7.09222
西	-7.10041
還	-7.1037
東	-7.10672
清	-7.10889
玉	-7.11256
僧	-7.11368
諸	-7.12089
少	-7.12979
衣	-7.14226
詩	-7.15781
酒	-7.1737
物	-7.18458
兩	-7.19703
聲	-7.20421
城	-7.20985
頭	-7.21155
不可	-7.21192
異	-7.21349
好	-7.2177
老	-7.21899
始	-7.22214
士	-7.22221
周	-7.22696
客	-7.23137
民	-7.23353
氏	-7.23627
忽	-7.23655
通	-7.2387
舉	-7.24703
傳	-7.24952
黄	-7.25447
兵	-7.25532
深	-7.25768
等	-7.25896
吏	-7.25899
花	-7.26138
錢	-7.26254
但	-7.26458
内	-7.26711
夜	-7.26949
便	-7.27011
木	-7.27135
禮	-7.27289
進	-7.27729
以為	-7.27951
主	-7.28748
思	-7.28966
氣	-7.29572
發	-7.2977
光	-7.30243
稱	-7.30405
合	-7.30517
軍	-7.30784
應	-7.30879
直	-7.31048
父	-7.312
實	-7.31579
每	-7.31612
色	-7.31677
獨	-7.31854
雲	-7.32016
汝	-7.32653
府	-7.32654
觀	-7.32852
北	-7.33735
果	-7.34186
拜	-7.34257
學	-7.34328
守	-7.34804
陽	-7.35261
召	-7.35326
開	-7.35897
記	-7.35975
九	-7.36394
古	-7.36435
外	-7.36995
卒	-7.37544
衆	-7.37878
不能	-7.3789
望	-7.38749
卿	-7.39379
縣	-7.39494
論	-7.40102
往	-7.40534
服	-7.40565
母	-7.40755
爾	-7.41104
樂	-7.41115
更	-7.41231
徳	-7.41428
宋	-7.41474
引	-7.41624
青	-7.41838
㑹	-7.41866
都	-7.42014
真	-7.42327
漢	-7.42888
謝	-7.42943
親	-7.43617
和	-7.43772
寺	-7.43875
義	-7.44089
某	-7.44155
火	-7.44284
六	-7.44486
首	-7.44515
魚	-7.45306
分	-7.45501
對	-7.45505
新	-7.45805
奏	-7.45868
目	-7.45942
草	-7.46029
定	-7.46187
惟	-7.46269
許	-7.47169
遇	-7.47208
路	-7.47557
凡	-7.47731
失	-7.47737
夫	-7.47981
流	-7.47995
逺	-7.48757
近	-7.4886
止	-7.49217
力	-7.49218
任	-7.49418
致	-7.49671
持	-7.49863
向	-7.50144
尚	-7.5017
天下	-7.5082
郡	-7.5111
别	-7.51383
楊	-7.51546
萬	-7.52071
病	-7.52293
江	-7.53266
孫	-7.53546
百	-7.53649
易	-7.54146
絶	-7.54168
手	-7.5442
就	-7.54491
舊	-7.5455
月	-7.54827
理	-7.55087
華	-7.55221
節	-7.553
如此	-7.55382
素	-7.55451
極	-7.55611
受	-7.55705
猶	-7.5591
疾	-7.56069
一日	-7.56228
耶	-7.56463
賜	-7.56664
春	-7.5674
集	-7.5693
宗	-7.57281
信	-7.57595
具	-7.57708
留	-7.58156
廣	-7.58542
夢	-7.58566
解	-7.58595
妻	-7.58715
趙	-7.58882
載	-7.5937
口	-7.59469
奉	-7.59537
殺	-7.59555
聖	-7.59601
志	-7.6021
宫	-7.60478
呼	-7.60791
飲	-7.6128
十	-7.6131
視	-7.6163
次	-7.61758
史	-7.61909
告	-7.62023
置	-7.62038
著	-7.62096
足	-7.62213
林	-7.62789
武	-7.63071
兒	-7.63217
録	-7.63273
飛	-7.63382
封	-7.6391
章	-7.64026
伯	-7.64068
似	-7.64205
興	-7.64313
難	-7.64629
音	-7.64733
辭	-7.66149
遊	-7.66367
貴	-7.66446
豈	-7.66531
隨	-7.66814
/)	-7.66971
宜	-7.67087
送	-7.67246
才	-7.67267
海	-7.67917
不得	-7.68359
七	-7.68397
鬼	-7.68955
梁	-7.69217
八	-7.69255
司	-7.69583
治	-7.69623
度	-7.70169
終	-7.70221
顧	-7.70596
鄭	-7.70608
詔	-7.70759
各	-7.70777
卷	-7.70941
頗	-7.71139
景	-7.71505
𤣥	-7.71506
喜	-7.72164
登	-7.72195
並	-7.72196
固	-7.72298
俱	-7.72461
共	-7.72771
靈	-7.72982
虎	-7.73022
曰此	-7.73275
崔	-7.73918
悉	-7.73924
堂	-7.74434
仲	-7.7449
益	-7.74703
除	-7.74864
牛	-7.74866
唯	-7.7506
遣	-7.75427
香	-7.75563
號	-7.75659
試	-7.75661
報	-7.76126
遺	-7.763
臺	-7.76412
盛	-7.76471
田	-7.76527
幸	-7.7659
朱	-7.76711
先生	-7.76826
修	-7.7683
郎	-7.76927
指	-7.77
樹	-7.77057
到	-7.77105
晉	-7.77365
車	-7.77797
臨	-7.77928
殿	-7.78218
土	-7.78305
餘	-7.78462
胡	-7.78624
適	-7.78813
被	-7.79153
賢	-7.79324
性	-7.79665
仙	-7.79702
議	-7.79749
藥	-7.79829
德	-7.80056
祖	-7.80377
徐	-7.80509
美	-7.81385
院	-7.81389
位	-7.81453
亡	-7.81693
不知	-7.81834
授	-7.8198
賊	-7.82083
宣	-7.82328
畫	-7.82514
教	-7.83117
容	-7.83237
恐	-7.83669
余	-7.83831
敬	-7.83853
精	-7.84147
執	-7.84259
河	-7.8429
雨	-7.84699
吳	-7.84754
空	-7.84894
詣	-7.84962
加	-7.85219
韓	-7.85376
厚	-7.85819
不敢	-7.8645
寳	-7.86564
哉	-7.86858
室	-7.87012
嵗	-7.87028
説	-7.87311
改	-7.87565
動	-7.87832
體	-7.87899
宿	-7.88738
交	-7.89284
承	-7.89607
省	-7.89777
於是	-7.89782
仁	-7.89927
曰吾	-7.89975
疑	-7.90461
落	-7.9047
怒	-7.90549
来	-7.9068
而去	-7.90731
化	-7.90836
制	-7.90925
齊	-7.91124
識	-7.91394
面	-7.91421
由	-7.9158
叔	-7.91616
夏	-7.91677
尋	-7.91823
延	-7.9188
器	-7.9197
狀	-7.92194
莫	-7.92352
宅	-7.92707
說	-7.92862
蜀	-7.93003
蓋	-7.93515
太	-7.93524
亂	-7.9361
鳥	-7.93689
苦	-7.93971
比	-7.94123
姓	-7.94244
詞	-7.94399
廟	-7.94544
葉	-7.9506
乞	-7.95175
造	-7.95352
陵	-7.95636
降	-7.95667
左右	-7.95772
魏	-7.95798
高	-7.95827
願	-7.96183
羣	-7.96404
表	-7.96664
忠	-7.96868
曲	-7.96993
注	-7.97036
竹	-7.97084
建	-7.97198
形	-7.97347
再	-7.97382
放	-7.98155
筆	-7.98203
盖	-7.98247
情	-7.98537
蛇	-7.9909
列	-7.99549
左	-7.99607
里	-7.99687
罪	-7.99956
婦	-8.00051
第	-8.00133
韋	-8.00473
伏	-8.00726
獻	-8.00811
夫人	-8.01438
備	-8.01679
屬	-8.01954
杜	-8.02021
歌	-8.02092
破	-8.02189
投	-8.02215
曹	-8.02306
隂	-8.02313
驚	-8.02355
設	-8.02385
秦	-8.02439
御	-8.02455
久	-8.0252
圖	-8.02675
覺	-8.02685
誠	-8.02686
代	-8.02758
惡	-8.02984
要	-8.02994
業	-8.02995
連	-8.03151
謁	-8.03185
千	-8.03318
政	-8.03512
赤	-8.0353
賦	-8.03538
半	-8.03579
輕	-8.03579
反	-8.03652
蘇	-8.03694
秋	-8.03782
全	-8.03785
特	-8.03932
懼	-8.03986
恩	-8.04134
羅	-8.04157
計	-8.04249
闕	-8.04342
謂之	-8.05023
俗	-8.05034
滿	-8.05369
勝	-8.05376
舍	-8.05473
鎮	-8.05659
散	-8.05774
僕	-8.05846
罷	-8.06038
竒	-8.06264
他	-8.06357
遷	-8.07029
盧	-8.07139
孝	-8.07171
野	-8.07195
良	-8.07395
亭	-8.07766
怪	-8.07865
福	-8.08409
嚴	-8.0896
利	-8.08964
濟	-8.091
畢	-8.09175
須	-8.09286
念	-8.09337
笑	-8.0951
皇	-8.09631
有一	-8.09651
符	-8.09866
陸	-8.10107
佛	-8.10355
葢	-8.10717
端	-8.10813
感	-8.10903
急	-8.11034
崇	-8.11291
末	-8.11525
朝廷	-8.12117
尤	-8.12523
屋	-8.12891
追	-8.13344
却	-8.13746
權	-8.13888
負	-8.13962
竟	-8.14302
獲	-8.14737
兼	-8.14829
京	-8.15126
寒	-8.1519
昔	-8.15245
遽	-8.15382
池	-8.15438
泉	-8.15524
宴	-8.15722
迎	-8.159
市	-8.16164
侯	-8.16202
轉	-8.16226
約	-8.16351
紫	-8.1638
道士	-8.16402
毛	-8.1643
變	-8.16656
右	-8.16736
達	-8.16817
紀	-8.1686
昭	-8.17473
移	-8.17522
簡	-8.17551
珠	-8.17613
愈	-8.17646
儀	-8.17807
予	-8.17954
醉	-8.18059
藏	-8.18513
丹	-8.18667
燕	-8.18776
舟	-8.18939
微	-8.19546
温	-8.19835
中有	-8.20113
羊	-8.20166
率	-8.20253
紅	-8.20479
尚書	-8.20582
題	-8.20595
傷	-8.20688
推	-8.20694
𩔖	-8.207
曰我	-8.20722
乗	-8.20926
仍	-8.21163
典	-8.21354
退	-8.21435
收	-8.21446
而已	-8.21693
布	-8.21713
私	-8.22003
走	-8.22021
曽	-8.22568
郭	-8.22635
索	-8.22655
職	-8.22715
存	-8.23006
咸	-8.23022
甲	-8.23121
嘉	-8.23207
楚	-8.23253
船	-8.23364
功	-8.23512
骨	-8.23736
憂	-8.24423
天子	-8.24488
斷	-8.24662
庭	-8.24697
訪	-8.2486
愛	-8.25175
永	-8.2532
慶	-8.25338
歲	-8.25476
否	-8.25485
裴	-8.25587
明日	-8.2561
薦	-8.25711
戲	-8.25738
寧	-8.25823
謀	-8.25846
席	-8.26034
敗	-8.26064
毎	-8.26127
懐	-8.26238
彦	-8.26269
待	-8.26378
肉	-8.26506
曾	-8.26561
考	-8.26588
休	-8.26603
齋	-8.26899
鳴	-8.2706
房	-8.2714
工	-8.27254
侍	-8.27528
其事	-8.27548
澤	-8.27568
彼	-8.27641
輒	-8.27802
禁	-8.27828
博	-8.27915
兄	-8.28395
偶	-8.2866
沈	-8.28713
納	-8.2878
閣	-8.28926
季	-8.28957
冠	-8.29199
二人	-8.29254
稍	-8.29373
越	-8.29385
鄉	-8.29496
部	-8.29849
宰相	-8.29951
雪	-8.3005
免	-8.30085
尾	-8.30501
其人	-8.30635
角	-8.30726
薄	-8.30834
一人	-8.31307
雜	-8.31461
弟	-8.31586
贈	-8.31724
之後	-8.31934
積	-8.31995
不復	-8.3203
丞相	-8.32081
可以	-8.32093
充	-8.32209
邊	-8.32307
害	-8.32379
累	-8.32384
窮	-8.3247
養	-8.32549
樓	-8.32587
談	-8.32642
戒	-8.32697
杖	-8.32781
郭曰	-8.32847
籍	-8.33153
結	-8.33239
虚	-8.33375
息	-8.33741
回	-8.33776
徒	-8.33808
廢	-8.33862
賞	-8.33911
所以	-8.33913
阿	-8.33923
雅	-8.34153
徃	-8.34193
翁	-8.34327
折	-8.34906
依	-8.34915
期	-8.3515
陛下	-8.35307
哀	-8.35509
三年	-8.35626
榮	-8.35762
巳	-8.35876
昌	-8.35886
資	-8.35891
殊	-8.35963
幾	-8.36262
帥	-8.36392
族	-8.36404
堅	-8.36574
假	-8.36731
奴	-8.36769
患	-8.36806
二年	-8.37167
讀	-8.3748
案	-8.37668
所謂	-8.37767
騎	-8.37871
術	-8.37917
升	-8.38115
寄	-8.38229
按	-8.38311
不見	-8.38323
竊	-8.38436
斯	-8.385
壁	-8.38516
選	-8.38541
人也	-8.38736
切	-8.38798
友	-8.388
康	-8.3894
施	-8.39169
衛	-8.39234
恨	-8.39386
原	-8.3942
英	-8.39492
蕭	-8.39556
邪	-8.39593
責	-8.39625
赴	-8.39664
其家	-8.3985
吕	-8.40106
進士	-8.40109
婢	-8.40182
象	-8.40529
照	-8.40946
擊	-8.41406
犬	-8.41768
保	-8.41831
垂	-8.41919
蔡	-8.41972
血	-8.41985
離	-8.42018
寶	-8.42075
繼	-8.42104
顯	-8.42115
刻	-8.42122
寢	-8.42287
質	-8.42288
數日	-8.42415
誤	-8.42491
松	-8.42503
星	-8.42626
既而	-8.42796
后	-8.42901
其後	-8.43076
妾	-8.43151
歳	-8.43354
未嘗	-8.43391
調	-8.43517
候	-8.43581
婦人	-8.43818
威	-8.43873
太宗	-8.43893
范	-8.43931
接	-8.43946
避	-8.43947
秀	-8.44016
墓	-8.44128
歴	-8.4417
邑	-8.44347
館	-8.4436
宻	-8.44533
夀	-8.44546
細	-8.45034
并	-8.45152
孟	-8.4518
貧	-8.45782
湯	-8.45984
顔	-8.46075
烏	-8.46084
戰	-8.4619
最	-8.46211
而不	-8.46212
領	-8.46368
勿	-8.46417
祠	-8.46476
逸	-8.46619
園	-8.46624
聚	-8.46662
賈	-8.46936
監	-8.46964
早	-8.4707
像	-8.47276
對曰	-8.47463
恭	-8.47558
游	-8.47757
希	-8.47847
丁	-8.48103
𨼆	-8.48257
差	-8.48274
隱	-8.48314
乘	-8.48322
見之	-8.48358
銀	-8.48538
葬	-8.48558
有人	-8.48589
逐	-8.49035
種	-8.49035
滅	-8.49096
薛	-8.49483
姑	-8.496
聞之	-8.49845
禍	-8.50181
給	-8.50295
𫝊	-8.50301
看	-8.50324
買	-8.50387
帶	-8.50408
曰某	-8.50462
程	-8.50497
盤	-8.5072
井	-8.50823
撰	-8.50865
獄	-8.50867
亦不	-8.51024
吉	-8.5121
視之	-8.51241
漸	-8.51422
儒	-8.51517
只	-8.51658
溪	-8.51735
村	-8.51804
枝	-8.5197
今日	-8.52055
谷	-8.52223
乆	-8.52265
勢	-8.5236
務	-8.52597
誰	-8.52687
丘	-8.52836
營	-8.52941
印	-8.53091
旦	-8.53137
夕	-8.53195
釋	-8.53477
川	-8.53654
側	-8.53655
附	-8.53802
長安	-8.53873
扵	-8.53932
富	-8.54054
申	-8.54139
家人	-8.54171
尊	-8.54207
幽	-8.54267
刀	-8.54296
浮	-8.54458
沙	-8.54663
龜	-8.54739
管	-8.54769
錄	-8.54817
紙	-8.54828
將軍	-8.54851
犯	-8.55085
步	-8.55183
孔	-8.55221
聽	-8.55285
輩	-8.55315
州刺史	-8.55378
黑	-8.55455
智	-8.55511
碑	-8.55839
虞	-8.55842
運	-8.55963
妙	-8.56083
射	-8.56098
味	-8.56485
序	-8.56493
覆	-8.56526
驗	-8.56601
商	-8.5663
巨	-8.56777
名曰	-8.56817
賀	-8.57009
無所	-8.57335
之所	-8.57352
其子	-8.5767
京師	-8.57714
孤	-8.57735
俊	-8.58015
熟	-8.5804
背	-8.5804
獸	-8.58133
洞	-8.58158
棄	-8.58315
忘	-8.58443
數十	-8.58679
條	-8.58739
莊	-8.58926
痛	-8.59085
佐	-8.59095
當時	-8.59289
豐	-8.59331
露	-8.59391
據	-8.59513
之事	-8.59763
卧	-8.59847
住	-8.59972
與之	-8.60062
刑	-8.60151
銅	-8.60742
毒	-8.60885
太守	-8.61014
墨	-8.61071
甘	-8.611
雄	-8.61146
任臣案	-8.61534
穴	-8.61684
句	-8.61785
尉	-8.61796
屈	-8.61819
辨	-8.61958
履	-8.62005
茶	-8.62227
皮	-8.62532
篇	-8.62614
述	-8.6282
掌	-8.62931
雷	-8.63001
壽	-8.63009
貞	-8.63084
童	-8.63104
曉	-8.63139
雞	-8.63166
横	-8.63204
䇿	-8.63219
刺	-8.63243
太祖	-8.63333
蒙	-8.63686
敵	-8.63765
逢	-8.63776
示	-8.63866
妄	-8.6392
己	-8.63928
冬	-8.64042
自是	-8.64062
判	-8.64272
户	-8.64644
夷	-8.64668
縱	-8.64699
敢	-8.64705
湖	-8.64722
學士	-8.64784
麗	-8.64876
勞	-8.64906
機	-8.64913
鐵	-8.64928
厯	-8.65173
畏	-8.65179
啓	-8.6546
眼	-8.65642
祭	-8.65671
誅	-8.65685
品	-8.66257
塵	-8.66292
陶	-8.66666
其所	-8.66746
謹	-8.66763
詩曰	-8.66791
洪	-8.6686
慮	-8.66908
泰	-8.67001
兄弟	-8.67066
詳	-8.6725
悟	-8.67329
由是	-8.67366
密	-8.67389
鼎	-8.6752
惠	-8.67553
悲	-8.67554
乾	-8.67925
託	-8.67995
米	-8.68142
曰汝	-8.68301
岸	-8.68396
元年	-8.68503
御史	-8.68583
順	-8.68795
醫	-8.69088
座	-8.6917
喪	-8.6934
久之	-8.6944
救	-8.69458
環	-8.69475
班	-8.69889
洛	-8.70227
誦	-8.70429
歡	-8.70435
答曰	-8.7046
繫	-8.70557
於此	-8.70724
呉	-8.70863
韻	-8.71029
習	-8.71035
辟	-8.7107
勤	-8.71126
知其	-8.71179
憲	-8.71297
鼓	-8.71506
馳	-8.71554
徑	-8.71637
勸	-8.7177
歎	-8.71921
碧	-8.72415
亦有	-8.72421
了	-8.72455
賔	-8.7265
雙	-8.72837
跡	-8.7291
强	-8.73002
根	-8.73032
苑	-8.73083
波	-8.73146
招	-8.73525
曰君	-8.73748
佳	-8.73882
肅	-8.74244
人皆	-8.74501
暮	-8.74514
燭	-8.74682
委	-8.74773
橋	-8.74776
略	-8.74803
講	-8.74852
翼	-8.74901
不及	-8.7494
巖	-8.75056
貫	-8.75116
栁	-8.75123
伐	-8.75247
哭	-8.75288
殷	-8.75295
㫖	-8.7539
抱	-8.75571
朕	-8.75726
預	-8.76021
三日	-8.76158
危	-8.76222
腹	-8.76308
侍郎	-8.76434
之言	-8.76548
源	-8.76626
關	-8.76655
鏡	-8.76657
奔	-8.76694
圍	-8.76754
殺之	-8.76773
科	-8.76878
仕	-8.77112
舞	-8.77115
嗣	-8.77365
笑曰	-8.77419
震	-8.77454
輔	-8.77756
役	-8.77859
旣	-8.77891
仰	-8.78138
編	-8.78257
賣	-8.78389
詩云	-8.78436
黒	-8.78504
潛	-8.78572
㣲	-8.78576
君子	-8.78743
甫	-8.79086
須臾	-8.79128
駕	-8.79189
支	-8.79199
暴	-8.7931
衡	-8.79709
會	-8.79773
補	-8.7986
泣	-8.79876
桑	-8.79883
太子	-8.79889
困	-8.79934
旋	-8.79966
江南	-8.79976
主人	-8.80366
何以	-8.80693
禄	-8.80719
懷	-8.80878
穆	-8.80951
為之	-8.81022
鹿	-8.81188
馮	-8.8123
盜	-8.81239
續	-8.81404
貶	-8.81537
財	-8.81577
産	-8.81824
速	-8.81907
塞	-8.81934
付	-8.81941
妖	-8.81953
覽	-8.82094
鍾	-8.82308
戎	-8.82342
少年	-8.82495
詠	-8.82504
茂	-8.82549
律	-8.82581
怨	-8.82654
歩	-8.82868
羽	-8.83066
境	-8.83103
貢	-8.83266
之間	-8.83275
亮	-8.83328
鶴	-8.83357
驢	-8.8342
活	-8.83609
揚	-8.83733
旁	-8.83831
然後	-8.8385
脚	-8.8389
如是	-8.8396
問之	-8.8411
宇	-8.84282
遍	-8.8432
叟	-8.84336
齒	-8.84447
戴	-8.84583
撫	-8.84668
十二	-8.8483
愚	-8.84902
珍	-8.84977
亟	-8.85022
遭	-8.85326
見一	-8.85372
察	-8.8543
逆	-8.8555
趨	-8.8563
又曰	-8.85792
以此	-8.8581
畧	-8.85959
傾	-8.86008
屢	-8.8601
柱	-8.86012
不足	-8.86105
牀	-8.86139
採	-8.86288
尹	-8.86466
得一	-8.86611
寵	-8.86747
貨	-8.86763
振	-8.86908
使人	-8.87022
有所	-8.87063
干	-8.87108
飯	-8.87314
食之	-8.87438
魯	-8.87551
答	-8.87641
他日	-8.88161
庫	-8.88166
塗	-8.88169
又有	-8.88408
至今	-8.8861
纔	-8.88641
𢎞	-8.8882
頃	-8.89073
三十	-8.89284
坊	-8.89792
十年	-8.89802
短	-8.89865
泥	-8.89882
晦	-8.89927
超	-8.89952
而死	-8.90031
妃	-8.90144
宰	-8.9019
明年	-8.90326
文章	-8.90341
豪	-8.90372
蟲	-8.90373
幼	-8.90406
攻	-8.90429
損	-8.90526
麻	-8.90536
驛	-8.90637
絲	-8.90696
一時	-8.90709
淵	-8.90714
祥	-8.90726
得之	-8.9083
㕔	-8.90863
使者	-8.90947
如何	-8.91145
毁	-8.91175
恒	-8.91187
舎	-8.91207
隆	-8.9127
導	-8.91272
太尉	-8.9138
東坡	-8.91508
狂	-8.91559
之山	-8.91573
參	-8.91576
敏	-8.91624
異記	-8.91727
操	-8.91891
卜	-8.9194
捕	-8.92134
寫	-8.92217
優	-8.92218
狗	-8.92259
黨	-8.92292
以爲	-8.92433
子孫	-8.92488
鳳	-8.92547
燒	-8.92603
徵	-8.92626
時有	-8.92738
大夫	-8.92798
平生	-8.92843
慎	-8.92898
牧	-8.92921
飾	-8.93113
慈	-8.93162
征	-8.93353
𤣥宗	-8.93456
弟子	-8.93503
階	-8.93663
助	-8.93715
供	-8.93823
判官	-8.93855
巾	-8.93921
髪	-8.94071
父母	-8.94098
殆	-8.94165
縁	-8.94219
及第	-8.94233
倒	-8.94299
訓	-8.94371
司馬	-8.94691
界	-8.94748
錦	-8.9477
臂	-8.94809
懸	-8.94856
總	-8.94927
訖	-8.94966
况	-8.95029
皇帝	-8.95113
署	-8.95236
其妻	-8.95306
材	-8.95678
專	-8.95679
狐	-8.95866
量	-8.95911
扶	-8.95995
棺	-8.96093
茍	-8.96103
爭	-8.9612
岳	-8.9672
知之	-8.96741
姓名	-8.96781
克	-8.96841
貌	-8.96958
二十	-8.97033
話	-8.97077
無不	-8.97265
之子	-8.97274
幕	-8.97385
争	-8.97388
奪	-8.97429
檢	-8.97461
鹽	-8.97495
數百	-8.97816
兮	-8.97823
燈	-8.97859
唱	-8.97876
鼻	-8.98013
揖	-8.98028
閒	-8.98133
逹	-8.98184
借	-8.98363
寓	-8.98368
脱	-8.98674
枕	-8.98681
董	-8.98712
諫	-8.98803
者皆	-8.98937
打	-8.98968
俄	-8.99201
荒	-8.99201
闗	-8.99297
桃	-8.99399
影	-8.99527
琴	-8.99573
迹	-8.99641
而卒	-8.99662
允	-8.99804
没	-8.99838
郎中	-9.00039
凝	-9.00149
晚	-9.00186
寛	-9.003
眞	-9.00457
淮	-9.00659
寃	-9.00679
黃	-9.00844
澄	-9.00948
春秋	-9.0107
牙	-9.01131
靖	-9.01273
逃	-9.01657
自此	-9.01721
舜	-9.01807
鄰	-9.01862
大如	-9.0212
俄而	-9.02131
諱	-9.02169
良久	-9.02177
斬	-9.02313
桓	-9.02336
紹	-9.02362
競	-9.02496
墜	-9.02771
祝	-9.02798
是也	-9.02933
劍	-9.02995
植	-9.03146
傅	-9.03277
格	-9.03318
沉	-9.03326
弗	-9.03351
錫	-9.03449
姚	-9.03451
至於	-9.03459
迴	-9.03548
尺	-9.03987
吟	-9.04077
輿	-9.04361
沒	-9.04369
盈	-9.04529
擇	-9.04726
獵	-9.04733
五年	-9.04795
禹	-9.0486
廷	-9.04871
荆	-9.04945
驅	-9.05024
時人	-9.05037
瑞	-9.0504
妓	-9.0507
抵	-9.05097
叙	-9.05219
僅	-9.05271
決	-9.05339
惜	-9.05357
厭	-9.05383
掩	-9.05396
純	-9.05398
脩	-9.05403
堯	-9.05519
吐	-9.05579
㸃	-9.05579
校	-9.05669
百姓	-9.05894
帖	-9.05908
融	-9.06181
五十	-9.06186
俾	-9.06299
千里	-9.06332
敕	-9.06427
男	-9.06725
見其	-9.06755
頓	-9.06911
第一	-9.07095
祐	-9.07384
小兒	-9.07449
覩	-9.07516
訴	-9.07519
數年	-9.07561
庶	-9.07634
鳯	-9.07667
屏	-9.0778
副	-9.07899
審	-9.07943
輙	-9.08211
圓	-9.08219
倚	-9.08255
鞭	-9.08372
玄	-9.08391
潔	-9.0844
郊	-9.08458
欽定四庫全書	-9.08517
庾	-9.08526
辱	-9.08581
肆	-9.08674
局	-9.08779
倉	-9.08867
慕	-9.08871
相見	-9.08985
雍	-9.09083
辯	-9.09091
湘	-9.09104
讀書	-9.09153
辛	-9.09198
相公	-9.09335
静	-9.0947
介	-9.09508
丞	-9.09524
之意	-9.09585
費	-9.09664
化為	-9.09717
神仙	-9.09749
邀	-9.10013
尸	-9.10146
疏	-9.10217
四年	-9.1022
渡	-9.10355
决	-9.10371
擢	-9.10456
讓	-9.10535
諭	-9.1058
惑	-9.10599
鄧	-9.10607
斗	-9.10791
異之	-9.10888
緑	-9.10898
捨	-9.10941
蘭	-9.1096
而出	-9.11058
士大夫	-9.1108
欽	-9.11122
劒	-9.11301
烈	-9.1131
竇	-9.11323
是時	-9.1144
髮	-9.11444
朗	-9.11457
有大	-9.11538
焚	-9.11615
一名	-9.11658
舒	-9.11662
女子	-9.11775
晏	-9.12005
脫	-9.12023
觀之	-9.12098
上有	-9.1222
暫	-9.12414
秀才	-9.12519
悔	-9.12606
衰	-9.1262
忌	-9.12629
裏	-9.12838
例	-9.12887
朔	-9.129
逰	-9.12914
謂曰	-9.12992
謫	-9.13124
翰	-9.13126
儉	-9.13167
彌	-9.13319
幹	-9.1333
違	-9.13521
擲	-9.13554
問曰	-9.13579
黙	-9.13628
渠	-9.13723
祈	-9.13845
統	-9.13929
眉	-9.1402
軒	-9.14063
飲酒	-9.14121
甞	-9.14165
則天	-9.14183
門外	-9.14186
牽	-9.14281
逼	-9.14311
大臣	-9.14343
未幾	-9.14387
子弟	-9.14424
未有	-9.14462
人間	-9.14517
牒	-9.14657
謙	-9.14659
娶	-9.14716
傍	-9.14759
殘	-9.14866
宏	-9.14873
維	-9.15006
兹	-9.15051
歎曰	-9.15082
途	-9.15083
㡬	-9.15122
不如	-9.15266
倫	-9.1531
其父	-9.15388
嫁	-9.1544
占	-9.15605
築	-9.15779
一夕	-9.15807
為人	-9.15853
公曰	-9.15926
士人	-9.15941
薨	-9.16006
忽有	-9.16044
戸	-9.1608
偽	-9.16081
昏	-9.16145
銜	-9.16215
稽	-9.16249
至此	-9.16282
誕	-9.16392
不然	-9.16403
彈	-9.16406
故事	-9.16606
閑	-9.16608
俟	-9.16753
䕶	-9.16804
之士	-9.16893
榜	-9.16985
提	-9.17063
書曰	-9.17108
循	-9.17204
襄	-9.1743
魂	-9.17786
言之	-9.17928
其上	-9.17937
壯	-9.18011
一作	-9.18281
不肯	-9.1831
之際	-9.18381
盗	-9.18391
值	-9.18559
抑	-9.18593
囊	-9.18616
瓦	-9.18749
孔子	-9.18845
擁	-9.18922
藝	-9.18923
其中	-9.18937
隋	-9.18954
不同	-9.18967
者也	-9.19123
價	-9.19154
潘	-9.19156
一旦	-9.19226
仁宗	-9.19343
所居	-9.19346
洛陽	-9.19388
大笑	-9.19407
嶺	-9.1953
芳	-9.1971
天地	-9.19743
隔	-9.19765
鮮	-9.19808
擒	-9.19958
躬	-9.20011
有司	-9.20022
出酉陽	-9.20151
彭	-9.20155
板	-9.20243
祀	-9.20263
囚	-9.20333
廬	-9.20343
相國	-9.20498
詢	-9.20605
洲	-9.20607
啟	-9.20734
瞻	-9.20744
何如	-9.20996
又云	-9.21068
午	-9.21094
梅	-9.21304
擬	-9.21359
巧	-9.2147
老人	-9.21714
皆有	-9.21716
岀	-9.21867
諸公	-9.21874
束	-9.21967
洎	-9.22377
洗	-9.22381
縣令	-9.22497
蒲	-9.22619
執政	-9.22643
三百	-9.22877
烟	-9.23011
徙	-9.23064
不覺	-9.23156
将	-9.23184
襲	-9.23618
員	-9.2362
勇	-9.23664
熱	-9.23676
中書	-9.23759
公主	-9.23777
效	-9.23911
出入	-9.24057
賓	-9.24154
鄙	-9.2425
規	-9.24274
以其	-9.24275
配	-9.24292
此人	-9.24425
巫	-9.2447
陰	-9.24478
翌日	-9.2451
遵	-9.24632
孰	-9.24683
穿	-9.24901
含	-9.24917
堪	-9.25028
革	-9.25076
絹	-9.25096
遲	-9.25099
潤	-9.25133
富貴	-9.25138
莫不	-9.25177
𥘉	-9.25187
榻	-9.25309
不為	-9.25373
誣	-9.25375
四十	-9.25395
十五	-9.25456
袁	-9.2556
製	-9.25602
防	-9.25762
碎	-9.25777
采	-9.25879
桂	-9.25962
磨	-9.2597
爵	-9.26217
之地	-9.26354
披	-9.26375
峻	-9.26388
晝	-9.26485
愧	-9.26517
壻	-9.2679
忽見	-9.26846
徴	-9.26998
塔	-9.27039
墮	-9.27154
吹	-9.27172
所在	-9.27241
十餘	-9.27303
僕射	-9.27305
娘	-9.27308
柳	-9.2744
䘮	-9.27454
籠	-9.27474
卑	-9.27482
往往	-9.27584
刺史	-9.27645
勒	-9.27676
漏	-9.2768
侍中	-9.27826
粉	-9.27899
𣗳	-9.27929
壇	-9.28111
扇	-9.28112
冷	-9.28359
其言	-9.28482
宮	-9.28486
剛	-9.28596
樞	-9.28736
均	-9.2875
貪	-9.28754
忍	-9.28766
相與	-9.28805
昇	-9.28973
赦	-9.28977
底	-9.28998
佩	-9.29211
先是	-9.29213
遠	-9.29239
從事	-9.29243
丗	-9.29304
之上	-9.29396
窺	-9.29556
節度使	-9.29602
必有	-9.29613
險	-9.29648
偉	-9.29756
前後	-9.29842
勉	-9.29881
芝	-9.29892
喚	-9.29918
鑒	-9.30078
以來	-9.30083
弓	-9.30454
觸	-9.30565
王氏	-9.30578
畜	-9.30585
敦	-9.30607
太原	-9.30612
蒼	-9.30685
帳	-9.30995
凶	-9.31005
粟	-9.3101
奈何	-9.31062
大怒	-9.31171
黜	-9.3118
數人	-9.31256
李公	-9.313
閉	-9.31339
牓	-9.31431
徹	-9.31437
奇	-9.31445
躍	-9.31556
已而	-9.31569
枯	-9.31645
停	-9.31655
膏	-9.31697
取之	-9.31779
百餘	-9.31911
賛	-9.31937
文字	-9.32033
何為	-9.32103
祖父	-9.32218
餅	-9.3231
姦	-9.32344
厥	-9.32362
淚	-9.32368
虜	-9.32409
東南	-9.32414
竄	-9.32564
斥	-9.32572
婚	-9.32587
二子	-9.32788
遜	-9.32801
兆	-9.32897
尼	-9.32934
巢	-9.32937
再拜	-9.33014
寜	-9.33049
四方	-9.33111
糧	-9.33195
太后	-9.33212
翠	-9.3322
山中	-9.33229
寡	-9.33469
曰卿	-9.33545
腰	-9.3361
姬	-9.33667
三人	-9.33699
繁	-9.33743
成都	-9.33765
㓜	-9.33969
可謂	-9.33975
也又	-9.34036
討	-9.34039
睡	-9.34188
諷	-9.34193
榖	-9.34238
譽	-9.34402
禪	-9.34635
陷	-9.34644
暗	-9.34672
賤	-9.34688
古人	-9.34863
蕃	-9.34873
之道	-9.34974
荆公	-9.34978
㝠	-9.34997
從之	-9.35157
之時	-9.35159
店	-9.35164
不過	-9.35205
類	-9.35342
消	-9.35359
太平	-9.35477
帛	-9.35486
其間	-9.35517
藉	-9.35602
荷	-9.35778
酬	-9.35835
言訖	-9.36037
淺	-9.36068
駭	-9.36108
吴	-9.3625
排	-9.36286
昨	-9.36296
勲	-9.36297
爽	-9.363
削	-9.36321
其母	-9.36378
激	-9.36499
瘡	-9.36547
河東	-9.36895
辰	-9.36946
徽	-9.37019
禱	-9.37033
踰	-9.37355
三月	-9.37455
終不	-9.37478
潜	-9.37496
猪	-9.37506
不已	-9.37662
霜	-9.37745
乳	-9.37856
有二	-9.37942
不識	-9.38376
語曰	-9.384
煩	-9.38441
額	-9.38667
箭	-9.38705
鬚	-9.38725
拂	-9.38868
鑄	-9.38959
契	-9.39121
十八	-9.39151
探	-9.3918
返	-9.39187
開元	-9.39233
弱	-9.39281
饌	-9.39355
熊	-9.3938
鸞	-9.39422
津	-9.39423
嘆	-9.39435
貯	-9.39506
蠻	-9.39541
之𩔖	-9.39782
武帝	-9.39806
灰	-9.39899
偏	-9.399
勅	-9.39915
篆	-9.39959
或云	-9.3997
聴	-9.4014
整	-9.40146
肥	-9.40174
所見	-9.40203
騰	-9.40335
贊	-9.40372
衣冠	-9.40412
災	-9.40435
許之	-9.40451
翰林	-9.40465
五色	-9.40625
把	-9.40629
毅	-9.40673
魁	-9.40688
杯	-9.40688
丈	-9.40734
頂	-9.40743
愁	-9.40824
基	-9.4093
㑹稽	-9.40997
髙祖	-9.41008
彩	-9.41024
無以	-9.41071
鐘	-9.41145
晨	-9.41336
錯	-9.41372
日月	-9.41388
侵	-9.41391
策	-9.41618
弼	-9.41652
萬里	-9.41797
雀	-9.41886
得其	-9.4196
即位	-9.42146
衞	-9.42153
𬒳	-9.42176
崩	-9.4236
鑿	-9.42385
拔	-9.42394
限	-9.4241
捧	-9.42416
瓊	-9.4242
簾	-9.42421
耕	-9.42437
厲	-9.42571
風雨	-9.4269
輦	-9.4291
欺	-9.4292
嫗	-9.42929
饑	-9.43078
揚州	-9.43115
擾	-9.43168
岐	-9.432
長史	-9.43262
誓	-9.43398
援	-9.43405
繞	-9.43429
綱	-9.43538
衫	-9.43576
主簿	-9.43609
疎	-9.43622
街	-9.43715
狀如	-9.43759
冀	-9.43781
状	-9.4381
偃	-9.43916
攝	-9.43935
令人	-9.43937
罵	-9.44115
巴	-9.44133
晩	-9.44134
汗	-9.44151
憤	-9.44166
享	-9.44181
蔣	-9.44184
不食	-9.44261
聖人	-9.44358
拒	-9.44396
渾	-9.44404
繩	-9.44438
䑕	-9.44462
荆州	-9.44481
河南	-9.44598
虛	-9.44647
慰	-9.44674
邵	-9.4468
如故	-9.4471
問其	-9.44909
莫能	-9.44942
曠	-9.44964
舌	-9.44974
五六	-9.45115
甚多	-9.45135
用之	-9.45148
社	-9.4517
衣服	-9.45193
刃	-9.45204
旅	-9.45284
旬日	-9.45334
者亦	-9.45366
巡	-9.4545
竟不	-9.45451
攜	-9.4549
憶	-9.45503
訟	-9.45526
鴻	-9.45534
道人	-9.45606
簿	-9.45612
喻	-9.45734
蕩	-9.45761
西北	-9.459
○	-9.45978
髙宗	-9.46015
玩	-9.46121
輪	-9.46228
缺	-9.46242
掠	-9.46296
嵩	-9.46415
式	-9.46417
戚	-9.46452
邦	-9.46454
謬	-9.46495
際	-9.46521
歟	-9.46533
爛	-9.46549
庸	-9.46727
斤	-9.46748
己見	-9.46756
阮	-9.46766
霞	-9.46796
悦	-9.46899
旬	-9.46911
篤	-9.47024
叛	-9.47062
青衣	-9.47081
紹興	-9.47109
下有	-9.47256
妹	-9.47303
飲食	-9.47492
銘	-9.47526
裂	-9.47556
屍	-9.47569
割	-9.47573
氷	-9.47594
範	-9.47755
豫	-9.47791
漆	-9.47815
上曰	-9.47826
禽	-9.47854
迨	-9.48079
煙	-9.48097
涉	-9.48316
酷	-9.48367
軸	-9.48371
所得	-9.48513
筵	-9.48527
􁀙	-9.48578
國家	-9.48612
染	-9.48636
増	-9.4864
叱	-9.48805
網	-9.48883
云此	-9.49116
鬼神	-9.49117
秩	-9.49118
正月	-9.4912
司空	-9.49136
邸	-9.49172
冦	-9.49181
育	-9.49191
從容	-9.49205
水中	-9.49212
而歸	-9.4923
無人	-9.49309
浪	-9.49433
匿	-9.49454
汴	-9.49471
中丞	-9.49696
既至	-9.49704
誌	-9.4971
枚	-9.49714
僉載	-9.4973
真宗	-9.49799
伺	-9.49805
嗟	-9.49842
壊	-9.49989
軰	-9.5001
偕	-9.50151
𡊮	-9.50157
淳	-9.50192
囘	-9.50236
王公	-9.50268
也今	-9.50303
書生	-9.50423
洽	-9.50497
垣	-9.50527
而後	-9.50606
亦無	-9.50694
靜	-9.5077
鼠	-9.50806
展	-9.5081
倍	-9.5106
邉	-9.51088
姪	-9.51096
蔽	-9.5111
匠	-9.5113
伊	-9.51196
以示	-9.51272
場	-9.51275
麥	-9.51298
西南	-9.5134
其下	-9.51345
十三	-9.51455
魏公	-9.51491
普	-9.51543
七十	-9.51577
之人	-9.51589
擅	-9.51638
眀	-9.51841
魯公	-9.51853
恕	-9.51873
油	-9.5188
槐	-9.51883
隣	-9.51916
其名	-9.5198
柔	-9.5215
之聲	-9.52268
不欲	-9.52384
此事	-9.52415
李氏	-9.52415
掾	-9.52445
韶	-9.52446
門下	-9.52498
足下	-9.525
丈夫	-9.5253
自然	-9.52638
揮	-9.52698
項	-9.52721
證	-9.52742
一曰	-9.52799
父子	-9.52813
潭	-9.52866
往來	-9.52918
弄	-9.52998
鬻	-9.53039
葛	-9.53161
衙	-9.53269
袍	-9.53279
毫	-9.5329
自言	-9.53491
棲	-9.53591
已見	-9.53788
茅	-9.53854
安石	-9.53857
標	-9.541
不許	-9.54103
翻	-9.54125
着	-9.54159
之心	-9.54182
處士	-9.54367
警	-9.5438
藻	-9.54672
壺	-9.54684
隅	-9.54684
凌	-9.54822
曰公	-9.54823
戮	-9.54917
數千	-9.54943
致仕	-9.55091
僚	-9.5524
屠	-9.55243
隙	-9.55266
竭	-9.5527
炎	-9.55294
詰	-9.55304
出於	-9.55395
司徒	-9.55521
荀	-9.55529
減	-9.55746
二十年	-9.55774
纂	-9.55826
餌	-9.55833
喬	-9.55851
在此	-9.55854
言曰	-9.55983
頻	-9.56124
陋	-9.56164
未知	-9.56261
絳	-9.56361
雜俎	-9.56425
童子	-9.56692
溺	-9.56724
卦	-9.5675
蓬	-9.5677
安得	-9.56789
淮南	-9.56849
譏	-9.56922
天下之	-9.56978
叢	-9.57006
頌	-9.57006
無他	-9.57008
嫌	-9.57009
吏部	-9.57028
婆	-9.57259
藩	-9.57272
七年	-9.57295
嶽	-9.57489
問其故	-9.57546
曰若	-9.5755
褒	-9.57552
姜	-9.57569
䖏	-9.57583
併	-9.57605
寺僧	-9.57708
嗜	-9.57812
鵲	-9.5786
冢	-9.57861
犀	-9.57873
矢	-9.57888
函	-9.57907
寂	-9.58085
蓮	-9.58151
薪	-9.58166
之則	-9.58345
六年	-9.58349
恃	-9.58426
健	-9.58479
而至	-9.58492
節度	-9.58619
泊	-9.58736
至于	-9.58738
而行	-9.5875
舍人	-9.58793
出門	-9.5891
五月	-9.58957
大喜	-9.59026
而無	-9.5903
縛	-9.5907
因以	-9.59166
叩	-9.59187
緩	-9.59319
促	-9.59326
或有	-9.59361
盃	-9.59371
言其	-9.59649
峯	-9.59651
挾	-9.5966
靣	-9.59682
出朝野	-9.59705
埋	-9.59716
中國	-9.59776
不勝	-9.59799
乆之	-9.59826
之下	-9.59843
姿	-9.59849
遣使	-9.59914
想	-9.59945
取其	-9.59977
之術	-9.60039
數月	-9.60049
罰	-9.6023
舅	-9.60267
無復	-9.60269
遂以	-9.60284
妻子	-9.60331
其意	-9.60501
邁	-9.60514
捉	-9.60574
徧	-9.60584
農	-9.60632
之日	-9.60634
辦	-9.60882
恵	-9.61093
服之	-9.61263
呼為	-9.61381
明皇	-9.61409
其一	-9.61425
官至	-9.61461
従	-9.61466
盆	-9.61486
出廣	-9.61536
不與	-9.61568
而下	-9.61593
不合	-9.61601
麟	-9.61767
裁	-9.61769
快	-9.6177
笏	-9.61784
祚	-9.61843
靡	-9.61902
閱	-9.62056
迷	-9.62074
罕	-9.62077
段	-9.6208
欵	-9.62083
乃以	-9.62092
單	-9.62137
寘	-9.62144
逮	-9.62147
是以	-9.62168
遁	-9.62187
古今	-9.62299
契丹	-9.62373
泛	-9.62398
斛	-9.62402
布衣	-9.62405
又問	-9.6242
桐	-9.62637
閲	-9.62672
不相	-9.62676
弊	-9.62698
媚	-9.62709
崖	-9.62724
七日	-9.62807
▁(	-9.6291
嬰	-9.62933
掃	-9.62969
曰臣	-9.62991
舘	-9.63001
裝	-9.63012
本朝	-9.63031
踐	-9.63036
頴	-9.63262
浴	-9.63309
不至	-9.63572
東西	-9.63577
穢	-9.63586
黎	-9.63609
練	-9.63629
而退	-9.63667
神宗	-9.63754
郎君	-9.63879
釣	-9.63897
爐	-9.63934
皇后	-9.63939
以手	-9.63948
月餘	-9.64121
袖	-9.64127
豹	-9.6415
督	-9.64199
𦵏	-9.64224
眠	-9.64253
廻	-9.64261
㧞	-9.6429
豫章	-9.64319
可乎	-9.64349
鄉里	-9.64374
二百	-9.64516
遐	-9.64564
上下	-9.64565
換	-9.64566
瑩	-9.64597
者以	-9.64687
料	-9.64797
豈可	-9.6482
使君	-9.64829
匹	-9.6483
浦	-9.64839
懇	-9.64861
旨	-9.6488
朝士	-9.65008
荅曰	-9.6502
仗	-9.65071
政事	-9.65105
殺人	-9.65129
俸	-9.6515
詐	-9.65162
菜	-9.652
奮	-9.65219
作詩	-9.65278
或曰	-9.65435
衍	-9.65468
圃	-9.65514
金陵	-9.65518
苗	-9.6581
卓	-9.6583
峰	-9.65864
旱	-9.65991
黄金	-9.66051
之名	-9.66061
墳	-9.6609
挺	-9.66105
趣	-9.66144
荅	-9.66385
冥	-9.66477
不樂	-9.66508
醒	-9.66766
頸	-9.6679
山下	-9.66879
浩	-9.66895
崑崙	-9.67039
忽聞	-9.67042
江西	-9.67049
文學	-9.67065
何不	-9.67113
不忍	-9.67315
憐	-9.67351
陣	-9.67443
再三	-9.67555
元祐	-9.67564
傳曰	-9.67661
六十	-9.67673
有異	-9.67696
緒	-9.67769
十四	-9.6788
東海	-9.67901
未及	-9.67947
乏	-9.67999
一年	-9.68012
抗	-9.68049
摩	-9.68061
八年	-9.68204
少時	-9.68392
挈	-9.68546
死者	-9.68628
大驚	-9.68658
有此	-9.68708
冊	-9.68714
諸子	-9.68752
淫	-9.6877
宫中	-9.68818
豈非	-9.68827
二公	-9.68852
翔	-9.68984
慧	-9.69007
遥	-9.69024
織	-9.6905
漫	-9.69063
腸	-9.6909
第三	-9.69092
秉	-9.69318
何也	-9.6934
矜	-9.69398
寸	-9.69443
祖宗	-9.69564
腦	-9.69613
俯	-9.69701
㳺	-9.69713
團	-9.69715
澗	-9.69741
創	-9.69743
曰爾	-9.69844
不用	-9.69877
賔客	-9.69938
繡	-9.70001
況	-9.70026
二月	-9.70071
貴人	-9.70123
圗	-9.70293
喫	-9.70368
登第	-9.70381
遣人	-9.70385
旗	-9.70425
汾	-9.70576
八十	-9.70597
鱗	-9.70642
胥	-9.70697
柄	-9.70728
鄉人	-9.7073
遼	-9.70841
自稱	-9.70863
潮	-9.71026
劾	-9.71055
人物	-9.7121
是日	-9.71252
十日	-9.71309
有一人	-9.71334
齎	-9.71354
雕	-9.71361
廵	-9.71363
裹	-9.7137
廣陵	-9.71373
壞	-9.71412
漁	-9.7142
之外	-9.71459
逾	-9.71566
乙	-9.71659
臯	-9.71671
播	-9.71691
鷹	-9.71697
以告	-9.71749
五百	-9.71919
䖍	-9.71957
傑	-9.71993
璧	-9.72035
炙	-9.72046
人多	-9.72047
忿	-9.72053
綵	-9.72058
夾	-9.72069
跪	-9.72074
几	-9.72166
八月	-9.72194
駐	-9.72251
掘	-9.72258
扣	-9.72264
豆	-9.72315
邢	-9.7237
床	-9.72375
膝	-9.72398
廉	-9.7242
肯	-9.72478
足以	-9.72571
介甫	-9.72627
當有	-9.72652
羞	-9.72742
有餘	-9.72867
一百	-9.72873
百里	-9.72961
阻	-9.73072
眷	-9.73084
渭	-9.73321
第二	-9.73326
江陵	-9.73392
之徒	-9.73545
小人	-9.73598
求之	-9.73622
因問	-9.73629
其地	-9.73659
栢	-9.73701
肩	-9.7373
算	-9.73753
飲之	-9.73789
豈不	-9.73884
丸	-9.73932
字子	-9.73948
之狀	-9.73981
為相	-9.74002
恥	-9.74063
十六	-9.74103
厨	-9.74148
而來	-9.74194
不免	-9.74249
挽	-9.74419
𤓰	-9.74428
淡	-9.74434
焦	-9.74436
搆	-9.74469
後有	-9.74555
州人	-9.74611
男子	-9.74706
京兆	-9.74751
伸	-9.74816
截	-9.74821
秘	-9.74935
裕	-9.74958
至是	-9.74961
羣臣	-9.75048
南海	-9.75092
𨽻	-9.75106
響	-9.75137
訣	-9.75141
綿	-9.75157
斜	-9.75177
懿	-9.75185
良乆	-9.75292
大小	-9.75316
何人	-9.75327
拘	-9.75366
人家	-9.75407
他人	-9.75411
百官	-9.75433
包	-9.75451
猛	-9.75468
絃	-9.75475
強	-9.75475
嗚呼	-9.75495
慙	-9.75525
視其	-9.75634
子也	-9.75824
奕	-9.75872
壓	-9.75873
憚	-9.75878
那	-9.75924
而入	-9.75977
諸人	-9.76103
然而	-9.76112
不知其	-9.76112
聘	-9.7615
人有	-9.7615
償	-9.76207
朴	-9.76227
不應	-9.76336
憑	-9.76504
號為	-9.76521
飽	-9.76552
水出焉	-9.76561
謗	-9.76566
斧	-9.76572
旌	-9.769
棗	-9.76902
皷	-9.76924
四海	-9.76998
東都	-9.77032
呈	-9.77184
不以	-9.77189
毋	-9.77208
寤	-9.7721
間有	-9.77217
六月	-9.77224
甕	-9.77234
寮	-9.77262
吿	-9.77264
諌	-9.77272
耀	-9.77349
其年	-9.77527
坡	-9.77529
緣	-9.77587
弔	-9.77601
不信	-9.7761
啼	-9.77624
六七	-9.77713
塲	-9.77758
沙門	-9.77821
巷	-9.7796
属	-9.77977
億	-9.78026
何故	-9.78051
同年	-9.7808
頃之	-9.78145
不出	-9.78177
不受	-9.78291
膺	-9.78297
醜	-9.78353
亞	-9.78367
然則	-9.78429
狀元	-9.78461
濤	-9.78486
皆以	-9.78486
聞其	-9.78571
四月	-9.78595
酌	-9.78606
鄴	-9.78617
朋	-9.78626
捷	-9.78677
府君	-9.78692
宵	-9.78724
號曰	-9.78758
勘	-9.78784
不死	-9.78833
片	-9.78844
果有	-9.78858
孟子	-9.79017
戍	-9.79029
梨	-9.79036
歛	-9.79043
押	-9.79206
諸侯	-9.79218
賦詩	-9.79229
百年	-9.79296
沮	-9.79376
鋒	-9.79389
揺	-9.794
揆	-9.79477
饒	-9.79549
郡守	-9.79635
元和	-9.79747
牢	-9.79767
輸	-9.79797
恣	-9.79805
𧰼	-9.79814
貽	-9.7983
賴	-9.79859
山水	-9.79904
究	-9.79942
汲	-9.79969
魅	-9.8007
淑	-9.80083
措	-9.8013
傲	-9.80131
莖	-9.80168
皓	-9.80175
脂	-9.80176
霄	-9.80177
烹	-9.80217
人面	-9.80249
乃知	-9.80298
公卿	-9.8042
者必	-9.80463
枉	-9.80525
城中	-9.80529
十餘年	-9.80676
鈎	-9.80858
刼	-9.80898
騐	-9.80917
與人	-9.80995
各有	-9.81005
所言	-9.81017
不得已	-9.81083
和尚	-9.81187
宣宗	-9.81189
蓄	-9.81269
鼔	-9.81271
拾	-9.81387
宫人	-9.81442
屯	-9.81559
長沙	-9.8156
十數	-9.81576
冲	-9.81635
暢	-9.8164
浸	-9.81676
何處	-9.81796
疑其	-9.8182
完	-9.81834
測	-9.81912
有三	-9.81949
霧	-9.8195
戯	-9.81963
宣和	-9.81991
喧	-9.82036
終日	-9.82099
檀	-9.82104
謂之曰	-9.82174
也其	-9.82274
三四	-9.82293
欲以	-9.82329
蔵	-9.82354
中外	-9.82381
曰昔	-9.82389
斂	-9.82402
珪	-9.82407
狼	-9.82409
三千	-9.82519
吞	-9.82553
呵	-9.82736
姊	-9.82736
殯	-9.82793
島	-9.82826
突	-9.82962
之語	-9.83008
冡	-9.83083
墻	-9.83109
副使	-9.83124
年少	-9.83133
伍	-9.83164
不幸	-9.83221
草木	-9.83275
仙人	-9.83284
一條	-9.83419
寇	-9.83463
諧	-9.83484
娥	-9.83507
驟	-9.83521
仇	-9.83539
彊	-9.83545
塟	-9.8356
於地	-9.83594
之義	-9.83627
禁中	-9.83668
南北	-9.83697
參軍	-9.83806
坦	-9.83831
呪	-9.83872
儲	-9.83899
綺	-9.83912
可得	-9.83913
凉	-9.83937
一卷	-9.84056
拾遺	-9.84259
於人	-9.84264
雉	-9.84284
穀	-9.84287
冩	-9.84303
汁	-9.84306
逐之	-9.84583
鋪	-9.84586
州縣	-9.84594
菩薩	-9.8465
忤	-9.84657
迫	-9.84672
鎭	-9.84676
後世	-9.84868
山谷	-9.84873
待之	-9.84887
上書	-9.84918
恠	-9.85023
替	-9.85058
何所	-9.85139
叅	-9.85236
員外郎	-9.85261
襄陽	-9.85268
駢	-9.85402
夢中	-9.85415
牆	-9.85429
咎	-9.85438
時為	-9.85468
故也	-9.85487
欣然	-9.85567
至一	-9.85754
寨	-9.8576
識者	-9.85805
汚	-9.85825
樊	-9.86133
猿	-9.86156
専	-9.86165
者為	-9.86226
映	-9.86228
曰今	-9.86238
煮	-9.86255
中使	-9.86372
皆不	-9.86384
云是	-9.86442
勾	-9.86448
王荆公	-9.86451
當為	-9.86536
其門	-9.86546
衝	-9.86574
怖	-9.86602
蒸	-9.86609
焚香	-9.86698
之禮	-9.86711
是夕	-9.8674
怒曰	-9.86747
亷	-9.86845
内外	-9.86999
樵	-9.87025
緘	-9.8704
其實	-9.87047
溢	-9.87072
曰朕	-9.87099
它	-9.87268
學者	-9.87333
漕	-9.87348
湛	-9.87352
霍	-9.87356
呌	-9.87395
之罪	-9.87506
禮部	-9.87712
神人	-9.87735
渉	-9.87764
柴	-9.87781
伴	-9.8782
真人	-9.87887
翰林學士	-9.87983
東北	-9.88091
煎	-9.88112
君之	-9.88117
塘	-9.88142
復有	-9.88178
鷄	-9.88179
汪	-9.8819
或作	-9.88214
在焉	-9.88497
十七	-9.88525
邱	-9.88532
有頃	-9.8854
顔色	-9.88541
昉	-9.88544
有聲	-9.88554
楷	-9.88573
霽	-9.88577
衢	-9.88595
十一	-9.88695
酣	-9.88823
觴	-9.88959
肇	-9.88969
裔	-9.89356
爪	-9.89361
聊	-9.89368
奚	-9.89385
硯	-9.89385
宛	-9.89415
媪	-9.89425
灌	-9.89444
登科	-9.89452
之故	-9.89622
暑	-9.89674
綽	-9.89692
蜂	-9.89771
之中	-9.89779
膳	-9.8978
曰是	-9.90066
還家	-9.90075
杭	-9.9012
賂	-9.90141
金玉	-9.90149
張氏	-9.90155
不動	-9.90169
不絶	-9.90184
梓	-9.90189
拳	-9.90191
之功	-9.90218
陟	-9.90231
金帛	-9.9051
先人	-9.90516
太傅	-9.90583
叅軍	-9.90587
鬭	-9.90589
搜	-9.90694
一物	-9.90708
之句	-9.9074
文武	-9.90841
斫	-9.90919
卵	-9.90948
員外	-9.90954
恪	-9.90997
滯	-9.91015
虵	-9.91028
太學	-9.91075
繇	-9.91199
隴	-9.91271
什	-9.9135
縷	-9.91389
携	-9.91394
飄	-9.91395
逵	-9.91407
態	-9.91436
台	-9.91456
𥙷	-9.91582
淹	-9.91659
暇	-9.91688
諸生	-9.91698
瑶	-9.918
晴	-9.91805
牌	-9.91855
罔	-9.91861
狎	-9.91865
居士	-9.91883
河北	-9.91893
亦可	-9.92083
諡	-9.92197
乖	-9.9222
艾	-9.92285
數十人	-9.92321
嶺南	-9.92469
閩	-9.92614
剖	-9.92665
勑	-9.92676
坑	-9.92678
舉進士	-9.92758
若有	-9.928
自有	-9.92819
未能	-9.92876
南陽	-9.92883
不在	-9.92891
閭	-9.92998
障	-9.93045
厄	-9.93103
玉堂	-9.93143
之法	-9.93153
三十年	-9.93191
空中	-9.93236
海内	-9.93358
鑑	-9.93365
批	-9.93415
綠	-9.93417
嘲	-9.93431
偷	-9.93451
涼	-9.93463
暉	-9.93467
劇	-9.93471
粥	-9.93515
二字	-9.93561
紛	-9.93668
子曰	-9.93692
江淮	-9.93722
不從	-9.93817
自後	-9.9387
五日	-9.93874
粧	-9.93915
驕	-9.93922
滑	-9.93943
錢塘	-9.93994
有神	-9.94171
名士	-9.942
熙	-9.94261
療	-9.94316
煥	-9.9432
不知何	-9.94365
文正	-9.94463
金銀	-9.94631
譚	-9.94667
不當	-9.94728
太師	-9.94737
西京	-9.94778
之内	-9.94795
剪	-9.94798
其文	-9.94802
終身	-9.94945
少頃	-9.94977
文帝	-9.9498
如初	-9.95035
九年	-9.95036
所知	-9.95069
蛟	-9.95112
豕	-9.9512
侈	-9.9517
之屬	-9.95185
随	-9.95254
者多	-9.95373
不言	-9.95448
数	-9.9552
公之	-9.95532
一小	-9.95554
圭	-9.95573
贍	-9.95583
家有	-9.95612
歐陽	-9.95634
太常	-9.95684
嶠	-9.95764
嘗為	-9.9578
群	-9.95928
之遂	-9.95959
昧	-9.96062
後人	-9.96064
於庭	-9.96096
一見	-9.96099
不知所	-9.96126
又以	-9.96147
言語	-9.96181
呼之	-9.96235
如其言	-9.96291
杭州	-9.96346
鴈	-9.96349
無異	-9.96365
匡	-9.96431
猶在	-9.96447
慢	-9.96474
鈞	-9.96492
臥	-9.96513
叩頭	-9.96607
同列	-9.96739
低	-9.96816
濕	-9.96876
君臣	-9.96879
觧	-9.9689
輝	-9.96915
瓶	-9.96917
起居	-9.96931
行至	-9.96988
何得	-9.97089
惡之	-9.97137
倦	-9.9721
譜	-9.97282
之物	-9.97283
謂其	-9.97301
康節	-9.9731
厠	-9.9733
而坐	-9.97543
擊之	-9.97583
不堪	-9.97682
夜夢	-9.97701
于是	-9.97719
距	-9.97742
沃	-9.97743
宦	-9.97767
褐	-9.97779
竿	-9.97794
係	-9.97806
阜	-9.97809
大者	-9.97834
嘗與	-9.97888
訪之	-9.97931
得罪	-9.97941
四人	-9.97973
之文	-9.98013
後為	-9.9802
而止	-9.98025
蘓	-9.98117
即以	-9.98184
敎	-9.98188
踈	-9.98203
肅宗	-9.98342
所作	-9.9837
欽定四庫全書太平廣記卷	-9.98453
▁任臣案	-9.98477
跳	-9.98612
贖	-9.98633
慘	-9.98645
膽	-9.98647
鏁	-9.9866
閤	-9.98762
非常	-9.98788
詰之	-9.98824
勃	-9.98912
謝曰	-9.98949
白衣	-9.99023
可也	-9.99024
綴	-9.99093
檄	-9.99113
售	-9.99113
誘	-9.99115
累遷	-9.99207
都督	-9.99228
者有	-9.99246
斃	-9.99356
箱	-9.99519
嘗有	-9.99521
簷	-9.99541
臭	-9.99555
䧟	-9.99561
棊	-9.99576
疊	-9.99635
氏之	-9.99739
軍中	-9.99765
十餘里	-9.99805
一家	-9.9987
筮	-9.99963
裘	-9.99983
䕫	-10.0002
衆皆	-10.0002
訝	-10.0005
無恙	-10.001
縣尉	-10.0014
紫衣	-10.0029
觀者	-10.003
文忠	-10.0037
勵	-10.0041
御史中丞	-10.0041
不聞	-10.0043
括	-10.0044
収	-10.0045
故人	-10.0049
者乃	-10.0054
豈有	-10.0058
大將軍	-10.0062
十九	-10.0065
言者	-10.0076
待制	-10.0078
中書令	-10.0079
羙	-10.0085
漿	-10.0086
牡丹	-10.0089
望之	-10.0093
其餘	-10.0096
南方	-10.01
從此	-10.0108
逆旅	-10.0108
仕至	-10.0113
給事中	-10.0118
宰臣	-10.0118
無一	-10.012
三尺	-10.0128
其徒	-10.0131
彬	-10.0132
較	-10.0133
闢	-10.0135
㫁	-10.0139
元豐	-10.014
隂陽	-10.014
十月	-10.0143
諾	-10.0161
書云	-10.0163
男女	-10.0167
涕	-10.0168
寔	-10.0169
誨	-10.0171
糞	-10.0174
滕	-10.0174
愍	-10.0176
笞	-10.0178
鬱	-10.0179
髯	-10.018
曙	-10.0181
帽	-10.0182
愛之	-10.0195
立於	-10.0207
國之	-10.0214
山有	-10.0214
者曰	-10.0219
股	-10.0222
潰	-10.0227
鐡	-10.0227
疋	-10.0228
開元中	-10.0243
山東	-10.0249
曰可	-10.0252
流涕	-10.026
焚之	-10.0263
璋	-10.0268
刋	-10.0268
昻	-10.0268
填	-10.0272
貲	-10.0273
護	-10.0275
所殺	-10.028
門生	-10.0292
祕	-10.0292
晝夜	-10.0296
域	-10.03
其書	-10.0303
若此	-10.0309
績	-10.0314
飢	-10.0316
的	-10.0317
械	-10.0317
栗	-10.0317
百萬	-10.0319
𨕖	-10.032
貞元	-10.0321
廣州	-10.0322
二女	-10.0354
䜟	-10.0356
株	-10.0357
閻	-10.0363
誡	-10.0367
泄	-10.0368
乃是	-10.037
也後	-10.0372
見一人	-10.0372
黄帝	-10.0373
其首	-10.0373
諸葛	-10.0379
箇	-10.04
易之	-10.0401
數里	-10.0402
姻	-10.0409
髻	-10.0411
叚	-10.0412
王子	-10.0424
相傳	-10.0445
恱	-10.045
孺	-10.0451
知制誥	-10.0454
也遂	-10.0457
蜜	-10.0457
帷	-10.0457
瓌	-10.0459
之國	-10.0463
與語	-10.0463
啖	-10.0464
國朝	-10.0465
從者	-10.0469
千餘	-10.0473
所為	-10.0481
無事	-10.049
乃止	-10.0496
曰何	-10.0499
彰	-10.05
未至	-10.0501
攸	-10.0501
僻	-10.0505
侮	-10.0505
溝	-10.0506
此書	-10.0528
棠	-10.0542
十萬	-10.0548
謔	-10.0548
慚	-10.055
猴	-10.0551
忽然	-10.0551
涯	-10.0555
凢	-10.0556
互	-10.0557
跨	-10.0557
効	-10.0557
之志	-10.0557
友人	-10.0567
不解	-10.0568
十餘人	-10.057
前定	-10.057
村人	-10.0573
之命	-10.0576
庭中	-10.0587
不復見	-10.0587
謚	-10.0589
夫婦	-10.0589
姥	-10.0594
渚	-10.0594
濁	-10.0596
戈	-10.0597
奠	-10.0598
盟	-10.0598
寐	-10.0598
托	-10.06
斑	-10.0602
不顧	-10.0604
送之	-10.0611
洞庭	-10.0614
博學	-10.0618
帝曰	-10.0625
一千	-10.0635
十里	-10.0635
小字	-10.0637
卞	-10.064
以詩	-10.0644
版	-10.0645
室志	-10.0645
形如	-10.0645
混	-10.0646
不平	-10.0652
華山	-10.0653
侍御史	-10.0656
車馬	-10.067
視之乃	-10.0674
滴	-10.0696
檻	-10.0696
峽	-10.0697
瘞	-10.0697
欄	-10.07
丈餘	-10.0715
曰子	-10.0721
廊	-10.0723
拱	-10.0726
繪	-10.0736
不容	-10.0738
屑	-10.0738
增	-10.0739
其中多	-10.0739
矯	-10.074
滋	-10.0741
裙	-10.0744
釘	-10.0745
不獲	-10.0761
幅	-10.0777
出北夢	-10.0788
洋	-10.0789
衮	-10.0789
岡	-10.079
丐	-10.0792
其身	-10.0795
㝷	-10.0795
無有	-10.0811
若不	-10.0813
熈	-10.0831
艱	-10.0838
霸	-10.0839
鳩	-10.0839
針	-10.0842
蟻	-10.0844
山川	-10.0848
世之	-10.0851
其名曰	-10.0851
永嘉	-10.0851
道者	-10.0855
監察御史	-10.0873
何必	-10.0878
老子	-10.0878
注云	-10.0881
詆	-10.0887
敷	-10.0887
當以	-10.0891
俠	-10.0891
俄頃	-10.09
徳宗	-10.0905
帝王	-10.0906
所載	-10.0906
非人	-10.0915
仆	-10.0923
國史	-10.0924
陜	-10.0927
濫	-10.0935
曇	-10.0935
闔	-10.0936
纎	-10.0937
亨	-10.0943
常以	-10.0957
知名	-10.0968
韋氏	-10.0977
何物	-10.0978
之孫	-10.0985
一字	-10.0985
札	-10.0985
羮	-10.0986
稚	-10.0992
記云	-10.1005
未㡬	-10.1012
通判	-10.1012
龎	-10.1029
人言	-10.103
踏	-10.1031
詭	-10.1032
冒	-10.1035
家貧	-10.1037
哲	-10.1046
受命	-10.105
尺餘	-10.1062
云云	-10.107
里人	-10.1072
邈	-10.1073
潁	-10.1074
癡	-10.1079
人少	-10.1082
撥	-10.1082
児	-10.1084
社稷	-10.1084
蹇	-10.1085
少有	-10.1089
璽	-10.1094
以下	-10.1097
猫	-10.11
若是	-10.1105
以歸	-10.1109
生於	-10.1112
今之	-10.1112
鉉	-10.1128
術士	-10.1129
遂為	-10.1129
紳	-10.113
層	-10.1134
示之	-10.1137
䟽	-10.1139
何事	-10.114
南京	-10.1141
世人	-10.1158
老父	-10.1173
呂	-10.1175
酸	-10.1177
山海經	-10.1178
誥	-10.1178
由此	-10.1179
噐	-10.118
博士	-10.118
無何	-10.1181
㸔	-10.1183
紗	-10.1186
塜	-10.1186
訛	-10.1188
冶	-10.1189
鵠	-10.1193
十一月	-10.1194
乃命	-10.1221
筠	-10.1223
庵	-10.1234
妨	-10.1235
冰	-10.1237
炭	-10.1238
蘆	-10.1239
有小	-10.1241
黍	-10.1243
官人	-10.1248
朽	-10.1257
二日	-10.1262
舉人	-10.1269
也然	-10.127
禦	-10.1271
少卿	-10.1272
雌	-10.1277
涇	-10.128
明帝	-10.1281
添	-10.1284
斬之	-10.1288
張公	-10.1303
而終	-10.1318
鞍	-10.1322
一二	-10.1334
電	-10.1335
倡	-10.1335
姨	-10.1338
皇甫	-10.1342
鄒	-10.1343
置於	-10.1348
掖	-10.1354
與君	-10.1362
死於	-10.1364
僧曰	-10.1369
浙	-10.1374
衆人	-10.1378
餉	-10.1384
中書舍人	-10.1386
門人	-10.1387
皂	-10.1388
羡	-10.1388
棘	-10.1388
粗	-10.1397
文公	-10.1401
又東	-10.1404
建康	-10.1411
具以	-10.1415
甚厚	-10.1418
皎	-10.1431
之説	-10.1431
篋	-10.1437
飛去	-10.1438
郷	-10.144
募	-10.144
磬	-10.1445
南山	-10.1448
侍從	-10.1451
亦以	-10.1452
久矣	-10.1452
禪師	-10.1461
白馬	-10.1474
脉	-10.1478
翺	-10.1479
不須	-10.1484
梵	-10.1484
竦	-10.1486
泌	-10.1488
咽	-10.1489
得此	-10.1493
娘子	-10.1496
窟	-10.1497
奏曰	-10.1507
有何	-10.1512
是何	-10.1515
五千	-10.1525
語云	-10.1525
儼	-10.1526
盞	-10.1538
不宜	-10.1539
出宣	-10.1539
拯	-10.154
肝	-10.1542
即命	-10.1545
貸	-10.1545
相繼	-10.1547
笑而	-10.1547
下馬	-10.1552
一言	-10.1553
長生	-10.1563
中人	-10.1569
握	-10.157
十人	-10.158
俞	-10.1586
猷	-10.1591
元昊	-10.1591
贓	-10.1594
有才	-10.1595
杏	-10.1595
悼	-10.1596
自謂	-10.1597
者不	-10.1598
摘	-10.1602
云我	-10.1603
膠	-10.1606
西域	-10.1614
邕	-10.1619
欣	-10.1624
緯	-10.1642
攀	-10.165
至則	-10.1654
縮	-10.1654
莫敢	-10.1655
擢第	-10.1661
為我	-10.1662
其罪	-10.1664
十二月	-10.1675
訊	-10.1677
常有	-10.168
受之	-10.1686
猶未	-10.1689
緡	-10.1697
两	-10.1701
一月	-10.1701
摧	-10.1702
濶	-10.1702
文書	-10.1703
贄	-10.1707
胸	-10.1709
聞而	-10.1709
平章事	-10.1716
不可得	-10.172
評	-10.1731
數萬	-10.1733
江東	-10.1737
謨	-10.1739
其聲	-10.1739
林甫	-10.1747
倅	-10.175
犢	-10.1752
縑	-10.1752
悅	-10.1754
伎	-10.1755
佞	-10.1755
璞	-10.1755
㦸	-10.1756
你	-10.1757
胎	-10.1759
宋李昉等編	-10.1759
翅	-10.176
告之	-10.1761
未詳	-10.1766
瑣言	-10.1768
粲	-10.1787
授之	-10.1793
甄	-10.1793
傭	-10.1803
即日	-10.1805
晁	-10.1805
笛	-10.1806
燃	-10.1806
區	-10.1808
研	-10.1808
官吏	-10.1811
竈	-10.1813
室中	-10.1817
丹陽	-10.182
海中	-10.1822
法師	-10.1838
以自	-10.1841
敘	-10.1855
擔	-10.1859
壘	-10.1863
山人	-10.1863
暖	-10.1864
召之	-10.1889
奏事	-10.1896
槩	-10.1908
里中	-10.1909
轡	-10.1911
雜爼	-10.1912
襟	-10.1913
入京	-10.1914
之美	-10.1915
様	-10.1915
疆	-10.1917
一篇	-10.1921
歇	-10.1924
吳郡	-10.1925
太和	-10.1925
徃徃	-10.1928
不行	-10.1944
已下	-10.1944
大人	-10.1946
以金	-10.1947
不必	-10.1954
避之	-10.1956
教授	-10.1962
慟	-10.1962
人以	-10.1965
朱衣	-10.1965
幘	-10.1966
于此	-10.1967
濬	-10.1968
東方	-10.1969
鎖	-10.197
勁	-10.197
其國	-10.1972
綬	-10.1973
冝	-10.1973
兔	-10.1974
軀	-10.1975
卯	-10.1975
車駕	-10.1982
㕔事	-10.2001
觀其	-10.2002
蜀人	-10.2008
不疑	-10.2008
二十四	-10.2009
人謂	-10.2012
頗有	-10.2014
古之	-10.2016
耗	-10.2023
歷	-10.2025
戱	-10.2025
日暮	-10.2028
踵	-10.2029
其狀如	-10.2033
所記	-10.2033
手足	-10.2037
用事	-10.2042
復來	-10.2042
七月	-10.2047
一大	-10.2049
入山	-10.2053
水出	-10.2055
後果	-10.2065
北方	-10.2071
之盛	-10.2072
顛	-10.2073
雖不	-10.2074
荘	-10.2075
祜	-10.2076
力士	-10.2078
夫子	-10.208
饋	-10.208
掛	-10.2085
架	-10.2087
思之	-10.2088
大中	-10.2092
謝之	-10.2094
鼈	-10.2107
異人	-10.2108
臨安	-10.2115
嘯	-10.2121
未得	-10.2127
藁	-10.2129
虹	-10.213
箕	-10.213
恤	-10.2131
儻	-10.2134
溥	-10.2143
其女	-10.2143
也故	-10.215
國公	-10.2153
好學	-10.216
也乃	-10.2161
覲	-10.2169
以是	-10.2171
南渡	-10.2172
逺近	-10.2179
死矣	-10.2181
淨	-10.2187
沆	-10.2188
禾	-10.2189
柩	-10.2189
琵琶	-10.2191
怠	-10.2191
奉使	-10.2192
藤	-10.2192
菴	-10.2193
匣	-10.2197
核	-10.2198
中興	-10.2199
置之	-10.2199
十二年	-10.2202
天后	-10.2222
驚異	-10.2225
明經	-10.2226
人心	-10.223
萬物	-10.2236
駿	-10.2238
聨	-10.2243
之禍	-10.2244
級	-10.2245
虐	-10.2248
千萬	-10.2253
課	-10.2254
九月	-10.2255
狹	-10.2255
一女	-10.226
答云	-10.2262
氏子	-10.2269
風俗	-10.227
不成	-10.2274
尚有	-10.2277
崔氏	-10.2279
之才	-10.2287
耆	-10.229
失所在	-10.2291
得免	-10.2296
漢書	-10.2297
寝	-10.2299
耿	-10.23
宸	-10.2301
沸	-10.2301
臘	-10.2302
其弟	-10.2304
吉甫	-10.231
有物	-10.2313
此物	-10.2313
殊不	-10.2314
賓客	-10.2316
泰山	-10.2317
二十五	-10.2324
相識	-10.2329
怪之	-10.2329
黄衣	-10.2332
安國	-10.2333
是非	-10.2334
胡人	-10.2336
浙西	-10.2337
有功	-10.2342
令史	-10.2342
甥	-10.2349
貝	-10.2349
疫	-10.2356
演	-10.2357
但見	-10.2358
頼	-10.2358
祗	-10.2358
做	-10.2361
棟	-10.2361
壑	-10.2364
凖	-10.2365
國人	-10.2369
入朝	-10.2378
之氣	-10.2392
識之	-10.24
禧	-10.24
皆如	-10.2401
謂人曰	-10.2402
協	-10.2411
誇	-10.2413
酉	-10.2415
吁	-10.2417
乂	-10.2417
譴	-10.2418
後數日	-10.2419
幣	-10.2423
靖康	-10.2428
也因	-10.2429
一切	-10.2431
仙傳	-10.2437
逝	-10.2441
人所	-10.2443
乃曰	-10.2455
置酒	-10.2459
自云	-10.2466
不起	-10.2468
璟	-10.2468
撲	-10.2469
暨	-10.247
稷	-10.2471
罹	-10.2471
緋	-10.2471
沿	-10.2472
千年	-10.2473
恬	-10.2474
蟠	-10.2476
老僧	-10.2476
搏	-10.2477
鵝	-10.248
嘆曰	-10.2481
大理	-10.2482
代之	-10.2487
曰大	-10.2489
主司	-10.2489
殿前	-10.2493
不暇	-10.2498
留守	-10.2505
不止	-10.2517
戀	-10.2523
上帝	-10.2524
蔓	-10.2527
沖	-10.2528
蟬	-10.2528
子瞻	-10.253
十五年	-10.2535
前有	-10.2537
中夜	-10.2546
雖有	-10.255
咨	-10.2552
物也	-10.2558
議者	-10.256
給事	-10.256
黙然	-10.2562
輟	-10.2563
皆為	-10.2575
其狀	-10.2581
碩	-10.2584
軟	-10.2585
王母	-10.2586
鍊	-10.2587
認	-10.259
甲子	-10.2594
矣然	-10.2604
舉子	-10.2605
入門	-10.2606
今年	-10.2608
能言	-10.2611
為業	-10.2611
京城	-10.2614
方知	-10.2615
彭城	-10.2619
風流	-10.2627
未見	-10.2629
貞觀	-10.2629
三品	-10.2634
毬	-10.2642
佑	-10.2644
抽	-10.2645
畔	-10.2646
註	-10.2647
奢	-10.2649
不盡	-10.2659
廬山	-10.2661
今在	-10.2663
分明	-10.2666
當世	-10.2666
黄門	-10.2679
中郎	-10.2686
内有	-10.2691
乃令	-10.2694
炳	-10.2709
政和	-10.2712
道路	-10.2713
元嘉	-10.2717
常侍	-10.2734
諸將	-10.2739
北海	-10.2739
丈人	-10.2739
不測	-10.2743
聞於	-10.2745
南史曰	-10.2746
失其	-10.2747
可愛	-10.276
楊氏	-10.276
聞者	-10.2762
湧	-10.2763
以進	-10.2764
藴	-10.2764
凍	-10.2767
橘	-10.2768
牖	-10.2769
建炎	-10.2775
以上	-10.2798
不可以	-10.2802
留之	-10.2802
治之	-10.2811
湜	-10.2812
未可	-10.2813
昆	-10.2813
赫	-10.2814
止於	-10.2816
夭	-10.2817
確	-10.2818
禀	-10.282
逕	-10.2821
顒	-10.2822
闊	-10.2822
爾雅	-10.2823
灑	-10.2824
抄	-10.2825
舁	-10.2827
周公	-10.2829
西川	-10.2834
涕泣	-10.2839
酒食	-10.2843
為宰相	-10.2845
金人	-10.2852
指揮	-10.2864
竅	-10.2876
藪	-10.2877
鸚鵡	-10.2878
陪	-10.2881
牋	-10.2882
悶	-10.2883
森	-10.2884
漂	-10.2884
闈	-10.2884
腐	-10.2885
銓	-10.2885
嘗以	-10.2894
陜西	-10.2902
明旦	-10.2908
投之	-10.292
或謂	-10.2924
所著	-10.2934
而成	-10.2934
於前	-10.2936
柏	-10.2937
鞫	-10.2939
浚	-10.294
唾	-10.294
躡	-10.2941
䝉	-10.2941
哥	-10.2941
庠	-10.2941
堦	-10.2942
擕	-10.2944
至元	-10.2944
殂	-10.2946
言事	-10.2948
得非	-10.295
廬陵	-10.2953
色如	-10.2955
安道	-10.296
大王	-10.2966
明清	-10.297
者即	-10.297
歐陽公	-10.2979
粒	-10.298
功徳	-10.2993
稱其	-10.2993
譙	-10.2998
夘	-10.3001
流血	-10.3001
灼	-10.3003
閒話	-10.3006
記之	-10.3008
主者	-10.3032
之初	-10.3032
俄有	-10.3033
二千	-10.3034
言於	-10.3047
夜半	-10.3052
見而	-10.3056
寅	-10.3057
醮	-10.3059
胄	-10.3061
琳	-10.3061
夙	-10.3061
誼	-10.3063
芒	-10.3063
沐	-10.3066
梟	-10.3067
汙	-10.3068
飬	-10.3068
輅	-10.3069
隊	-10.307
果得	-10.3072
筋	-10.3074
若干	-10.3074
故曰	-10.3075
十四年	-10.3075
是嵗	-10.3081
坐客	-10.3085
一室	-10.309
以待	-10.3092
卒於	-10.3092
太史	-10.3095
延之	-10.3097
七八	-10.3106
為文	-10.3112
朝夕	-10.3117
冕	-10.3119
曳	-10.3121
忝	-10.3122
陂	-10.3124
妬	-10.3125
鴨	-10.313
後主	-10.3152
不祥	-10.3154
曰陛下	-10.3156
伶	-10.3158
即此	-10.316
上言	-10.316
之女	-10.3162
遂絶	-10.317
吳興	-10.3178
䑓	-10.3179
郁	-10.3179
孕	-10.318
琰	-10.3181
捜	-10.3181
而起	-10.3183
彪	-10.3186
熙寧	-10.3186
堆	-10.3186
殁	-10.3187
禳	-10.3188
炬	-10.3189
甌	-10.319
于時	-10.319
不問	-10.3194
自知	-10.3211
知人	-10.3213
問之曰	-10.3226
竒之	-10.3236
之處	-10.324
宥	-10.3242
貎	-10.3242
上元	-10.3244
土人	-10.3247
鐸	-10.325
至正	-10.3253
而立	-10.3254
稱之	-10.3256
驚曰	-10.3256
為詩	-10.326
十三年	-10.326
自號	-10.3271
祿	-10.3279
民間	-10.328
中原	-10.3284
其兄	-10.3286
忠宣	-10.3294
數尺	-10.3302
萬年	-10.3302
後漢	-10.3307
壤	-10.3308
撃	-10.3308
瀆	-10.3309
兎	-10.3309
祁	-10.3309
作相	-10.3309
檜	-10.331
疲	-10.3311
脯	-10.3313
喉	-10.3313
畿	-10.3313
窓	-10.3313
僞	-10.3323
不利	-10.3324
郡人	-10.3332
本草	-10.3333
劉氏	-10.3334
中宗	-10.3338
夏侯	-10.3344
提舉	-10.3344
賢者	-10.3346
縣有	-10.3355
狄	-10.336
椒	-10.3367
艶	-10.3367
恢	-10.3368
减	-10.3373
未盡	-10.3374
濡	-10.3375
飼	-10.3376
鞠	-10.3376
羸	-10.3379
奔走	-10.3392
變化	-10.3394
右丞	-10.3401
廡	-10.3404
洛中	-10.3408
爾後	-10.341
遙	-10.3413
與同	-10.3419
則有	-10.3421
謡	-10.3421
貳	-10.3427
㨗	-10.3427
平江	-10.3428
忽一日	-10.3429
奥	-10.343
諒	-10.3431
窻	-10.3433
淪	-10.3434
江湖	-10.3435
瘦	-10.3438
賫	-10.3438
梯	-10.3439
窠	-10.3442
頃刻	-10.3449
汝南	-10.3449
叱之	-10.3452
何足	-10.3461
神明	-10.347
不足以	-10.3472
移時	-10.348
九十	-10.3481
可見	-10.3482
脊	-10.349
其夫	-10.3492
羲	-10.3493
名也	-10.3494
液	-10.3494
衾	-10.3498
褥	-10.3498
後來	-10.3498
見於	-10.3515
曰今日	-10.3515
具言	-10.3516
内侍	-10.3516
相遇	-10.3517
不去	-10.3519
所有	-10.3523
同時	-10.3525
皆是	-10.3533
今夕	-10.3535
白玉	-10.3537
者則	-10.3542
三十里	-10.3548
足矣	-10.3551
讀之	-10.3552
三十六	-10.3559
陳留	-10.356
翫	-10.356
雋	-10.3561
遮	-10.3562
楮	-10.3562
線	-10.3563
袋	-10.3565
噬	-10.3566
愼	-10.3566
蠶	-10.3569
噉	-10.3572
見人	-10.3572
拜謝	-10.3577
秦王	-10.3578
穴中	-10.3588
公事	-10.3593
天寳	-10.36
遂與	-10.3605
尚在	-10.3608
昨夜	-10.3609
有獸焉其狀如	-10.3611
以獻	-10.3622
彛	-10.3624
撤	-10.3625
已死	-10.3627
奸	-10.3628
噫	-10.3628
食頃	-10.3629
爰	-10.3629
無敢	-10.363
憫	-10.363
綜	-10.3631
筭	-10.3631
不聽	-10.3647
其下多	-10.3652
貞元中	-10.3656
自古	-10.3664
殿中	-10.3672
咸通	-10.3678
初不	-10.3679
平原	-10.3687
隐	-10.3688
邇	-10.3689
以問	-10.369
拆	-10.3691
沾	-10.3692
鱠	-10.3693
平日	-10.3711
本末	-10.3717
不甚	-10.3721
五代	-10.3722
光禄	-10.3726
釵	-10.373
甚喜	-10.3731
樹下	-10.3737
聽之	-10.3741
城南	-10.3748
生子	-10.3748
鬛	-10.3749
一行	-10.375
曜	-10.375
催	-10.3753
隸	-10.3753
籬	-10.3753
番	-10.3754
墟	-10.3754
撓	-10.3755
奬	-10.3755
世祖	-10.3757
蟹	-10.3759
膚	-10.3759
聳	-10.3759
稻	-10.3759
挍	-10.376
逡巡	-10.376
稅	-10.3761
旻	-10.3762
亦然	-10.3764
遂命	-10.3766
鮑	-10.3769
疑之	-10.3778
之家	-10.3779
數百人	-10.3779
湖州	-10.3785
坐於	-10.38
尚未	-10.3801
隨之	-10.381
遂令	-10.3811
應舉	-10.3815
侃	-10.3816
婁	-10.3817
湏	-10.382
熾	-10.382
鈔	-10.3821
之制	-10.3824
紋	-10.3825
曰非	-10.383
茗	-10.3831
可為	-10.3831
其心	-10.3845
者乎	-10.3866
其木多	-10.3873
穎	-10.3873
將去	-10.3877
一事	-10.3878
不若	-10.3882
構	-10.3883
郢	-10.3884
鬢	-10.3886
弘	-10.3886
居之	-10.3888
韜	-10.3888
羌	-10.3888
陞	-10.3889
遶	-10.3889
王生	-10.3889
宗室	-10.389
虬	-10.389
枷	-10.3893
廼	-10.3893
莫知所	-10.3896
武陵	-10.3898
元帥	-10.3903
二十八	-10.3903
之東	-10.3903
小吏	-10.3905
云某	-10.3906
以聞	-10.3907
禍福	-10.3914
堂中	-10.3915
河中	-10.392
長子	-10.3929
春風	-10.3929
西湖	-10.393
或以	-10.3931
坤	-10.3938
瑜	-10.394
大抵	-10.3945
呼曰	-10.3949
不是	-10.395
鬬	-10.3956
戾	-10.3956
脅	-10.3957
轉運使	-10.3958
梳	-10.3959
獅子	-10.3966
五品	-10.3973
而不能	-10.3979
車騎	-10.398
改元	-10.3984
大雨	-10.3988
其夕	-10.3992
詞云	-10.3994
釋氏	-10.4001
熟視	-10.4002
兩人	-10.4011
鉢	-10.4012
諸王	-10.4015
鏤	-10.4019
欠	-10.402
馴	-10.4025
文王	-10.4027
存焉	-10.4028
舟中	-10.403
後至	-10.4035
蓮花	-10.4044
宰執	-10.4046
又西	-10.4049
聰	-10.4053
向者	-10.4054
入内	-10.4057
長者	-10.406
爲之	-10.4062
山林	-10.4062
千載	-10.4065
在位	-10.4068
如意	-10.4073
禺	-10.4074
失之	-10.4078
此言	-10.4079
異日	-10.4082
藍	-10.4084
笙	-10.4086
析	-10.4086
朶	-10.4088
嬰兒	-10.4088
該	-10.4089
之亂	-10.4093
甚衆	-10.4094
即令	-10.4101
親戚	-10.4105
國初	-10.4106
以至	-10.4108
平章	-10.4112
覆之	-10.4118
記曰	-10.4122
出談	-10.4124
唐書	-10.4125
人事	-10.4131
召見	-10.4134
非也	-10.4137
多少	-10.4139
般	-10.4139
不喜	-10.4145
蹄	-10.4146
拭	-10.4146
訥	-10.4147
其形	-10.415
塊	-10.415
芻	-10.4151
縫	-10.4151
琛	-10.4153
鎬	-10.4153
蔚	-10.4153
蚤	-10.4154
囑	-10.4154
搖	-10.4156
西王母	-10.4159
伺之	-10.4162
跋	-10.4162
甚盛	-10.4163
不知所在	-10.4164
得道	-10.4166
果然	-10.4166
入城	-10.4169
酒酣	-10.4177
慎勿	-10.4178
裳	-10.4181
精神	-10.4197
何用	-10.4199
猶有	-10.4205
殻	-10.4216
豎	-10.4217
蠟	-10.4217
睿	-10.4219
婉	-10.4223
螺	-10.4224
蹤	-10.4225
亶	-10.4225
天寶	-10.4231
曰天	-10.4233
不能自	-10.4238
貴妃	-10.4238
不安	-10.4242
一枚	-10.4243
臨川	-10.4248
將相	-10.4252
僉	-10.4256
然不	-10.4261
授以	-10.4261
殿上	-10.427
矣又	-10.4275
此亦	-10.4276
死生	-10.4282
綸	-10.4286
狩	-10.4286
菊	-10.4289
鈴	-10.4289
䕃	-10.429
餞	-10.429
綏	-10.4291
弩	-10.4297
觀察使	-10.4301
有女	-10.4306
未必	-10.432
輕薄	-10.4322
試之	-10.4324
丙	-10.4326
是夜	-10.4333
其先	-10.4337
顧謂	-10.4338
四時	-10.4342
恚	-10.435
歌曰	-10.4353
諤	-10.4357
滌	-10.4358
曰彼	-10.4359
喙	-10.4359
毆	-10.436
敝	-10.436
冨	-10.4361
筯	-10.4362
弱冠	-10.4362
模	-10.4363
或問	-10.4364
婦女	-10.4365
人父	-10.437
變為	-10.437
兩府	-10.438
金吾	-10.438
高祖	-10.4382
人或	-10.4384
鄭公	-10.4392
莽	-10.4392
議論	-10.4393
進退	-10.4394
又見	-10.4395
女郎	-10.4397
奄	-10.4398
數十里	-10.4398
美人	-10.4407
李生	-10.441
五尺	-10.4415
將至	-10.4423
光明	-10.4427
幡	-10.4427
巻	-10.4427
躁	-10.4428
忽有一	-10.443
甚急	-10.443
口中	-10.4432
蹙	-10.4432
闇	-10.4437
兵部	-10.4439
池中	-10.4448
為誰	-10.4448
翟	-10.4455
侍御	-10.4458
無遺	-10.4458
應之	-10.4461
劄	-10.4473
暴卒	-10.4477
天上	-10.4481
牟	-10.4489
曰王	-10.4493
浄	-10.4493
柯	-10.4493
稜	-10.4494
箸	-10.4495
惶	-10.4497
潁川	-10.4497
籙	-10.4497
袂	-10.4499
控	-10.4499
渴	-10.4499
庇	-10.45
銷	-10.4501
四百	-10.4502
青州	-10.4502
窘	-10.4502
明公	-10.4504
渥	-10.4504
死後	-10.4507
郎官	-10.4511
别傳曰	-10.4511
嘗見	-10.4514
先君	-10.4514
之西	-10.4517
國有	-10.4518
元和中	-10.4526
江夏	-10.4528
者非	-10.453
其處	-10.4536
救之	-10.4549
題詩	-10.4554
獻之	-10.4558
渡江	-10.4558
先帝	-10.4559
零	-10.456
入相	-10.4561
賦云	-10.4562
志曰	-10.4563
不忘	-10.4563
自若	-10.4566
郝	-10.4566
神記	-10.4566
臧	-10.4567
蕪	-10.4569
揭	-10.4569
隻	-10.457
讐	-10.4571
懽	-10.4572
販	-10.4573
蹈	-10.4573
南康	-10.4574
好事者	-10.4574
匪	-10.4577
敞	-10.4578
寺中	-10.4579
之兆	-10.458
瑤	-10.4581
炊	-10.4581
所用	-10.4583
天命	-10.4587
蔡京	-10.4592
復生	-10.4595
神録	-10.4604
下第	-10.4607
沛	-10.4608
得失	-10.4625
杳	-10.4635
文定	-10.4635
榆	-10.4636
汎	-10.4636
吏部尚書	-10.4636
綾	-10.4637
廓	-10.4637
久而	-10.4638
卻	-10.4638
吝	-10.464
璫	-10.464
未敢	-10.4641
痕	-10.4641
徘徊	-10.4642
桓公	-10.4642
轍	-10.4645
㓂	-10.4645
椀	-10.4646
晉公	-10.4648
覔	-10.4648
者或	-10.4649
以致	-10.4658
時方	-10.466
同行	-10.466
忽見一	-10.4661
必不	-10.4665
陽縣	-10.4671
用此	-10.4685
衣食	-10.4691
所生	-10.4696
朝野	-10.47
王曰	-10.4702
執中	-10.4702
粹	-10.4706
栖	-10.4708
扈	-10.471
亢	-10.471
透	-10.4713
媒	-10.4713
曵	-10.4714
孚	-10.4714
縳	-10.4716
入水	-10.4718
而生	-10.4724
大駭	-10.4727
録事	-10.4728
補闕	-10.4728
之詞	-10.4733
家事	-10.4734
十餘日	-10.4736
選人	-10.4736
位至	-10.4745
於朝	-10.4745
乗馬	-10.475
至矣	-10.4758
請以	-10.4763
荆南	-10.4764
軍士	-10.4765
經年	-10.4767
武昌	-10.4768
近臣	-10.4772
文靖	-10.4772
文宗	-10.4774
之學	-10.4774
漳	-10.4779
陀	-10.478
父老	-10.478
參政	-10.478
閬	-10.4781
淳熙	-10.4782
雜記	-10.4782
畋	-10.4782
岩	-10.4783
世間	-10.4784
徽宗	-10.4784
城下	-10.4785
其故	-10.4785
之門	-10.479
餐	-10.4791
問何	-10.4799
司農	-10.4799
經史	-10.4805
作一	-10.4805
以備	-10.4806
從官	-10.4818
前輩	-10.4819
唐人	-10.4823
四五	-10.4823
已有	-10.4829
見者	-10.4831
見二	-10.4842
莫知其	-10.4844
得疾	-10.4844
不自	-10.4845
其志	-10.4851
白日	-10.4852
誚	-10.4852
臻	-10.4857
葵	-10.4857
攘	-10.486
掲	-10.4861
俶	-10.4864
而走	-10.4864
坎	-10.4865
歌舞	-10.4866
多矣	-10.4871
三子	-10.4872
諫官	-10.4872
如舊	-10.4881
人語	-10.4884
望見	-10.4884
晉陽	-10.4886
長三尺	-10.4889
龍門	-10.4891
未聞	-10.4895
其色	-10.4897
小者	-10.4899
與王	-10.4904
内史	-10.4906
癸	-10.4918
永樂	-10.492
客曰	-10.492
有光	-10.4921
聶	-10.4922
出國	-10.4924
璠	-10.4926
瞿	-10.4926
以求	-10.4927
自外	-10.493
駒	-10.4931
狸	-10.4931
五十里	-10.4932
堯舜	-10.4932
驗之	-10.4933
吾家	-10.4936
至京師	-10.4938
伊川	-10.494
已來	-10.4942
瓜	-10.4945
之說	-10.4946
漢武帝	-10.4953
五人	-10.4954
骨肉	-10.4954
令公	-10.4955
題云	-10.4956
於時	-10.4956
建安	-10.4957
益州	-10.4958
成式	-10.496
上天	-10.4962
太上	-10.4969
祭酒	-10.4973
二十里	-10.4974
誅之	-10.4977
侂胄	-10.4984
上疏	-10.4989
其神	-10.499
蠱	-10.4994
陳氏	-10.4995
𧖟	-10.4995
紿	-10.4996
僊	-10.4998
出幽	-10.4999
以書	-10.4999
怯	-10.5002
瑾	-10.5002
頥	-10.5002
籌	-10.5002
夢一	-10.5003
憩	-10.5006
無此	-10.5006
以文	-10.5008
京兆尹	-10.5008
吉凶	-10.5009
拒之	-10.5012
薦之	-10.5013
徐州	-10.5014
句云	-10.5014
處分	-10.5017
吏曰	-10.5021
誦經	-10.503
異常	-10.5032
二三	-10.5034
目為	-10.5038
又聞	-10.5038
西山	-10.5039
有僧	-10.5042
人情	-10.5044
更無	-10.5052
不通	-10.5053
性命	-10.5054
苖	-10.5068
昶	-10.5069
砂	-10.507
憇	-10.5077
射之	-10.5078
漠	-10.5078
齧	-10.5078
長慶	-10.5079
煖	-10.5079
恍惚	-10.5081
兇	-10.5082
畝	-10.5082
相顧	-10.5082
次第	-10.5083
扉	-10.509
鵰	-10.5097
故來	-10.5097
開封	-10.5104
也若	-10.5125
泗	-10.5132
相去	-10.5134
施行	-10.5134
但以	-10.5139
私第	-10.5141
弦	-10.5147
十卷	-10.5148
賄	-10.5149
慿	-10.515
廨	-10.5152
忠義	-10.5153
乍	-10.5155
倪	-10.5158
新婦	-10.516
蠅	-10.5165
乎曰	-10.5169
不易	-10.5172
矣今	-10.5182
數四	-10.5185
相對	-10.5187
累日	-10.5191
奴婢	-10.5191
且曰	-10.5192
之前	-10.5195
出一	-10.5197
及其	-10.52
乃取	-10.5202
以報	-10.5205
推官	-10.5205
自負	-10.5208
百餘人	-10.5217
禇	-10.5218
殞	-10.5224
矩	-10.5224
復何	-10.5225
摶	-10.5225
技	-10.5226
稀	-10.5227
初為	-10.5227
必先	-10.5228
骸	-10.5229
債	-10.523
劵	-10.523
莫知	-10.523
幻	-10.5231
不下	-10.5232
乃去	-10.5234
愕然	-10.5238
去矣	-10.5243
郭曰音	-10.525
聰明	-10.5256
在外	-10.5259
而言曰	-10.5259
遇之	-10.526
異志	-10.5264
北齊	-10.527
劉公	-10.5271
太平廣記卷三百	-10.5283
樞宻	-10.5284
當國	-10.5286
此則	-10.529
其音如	-10.5292
此語	-10.5296
先子	-10.5296
參知政事	-10.5297
詵	-10.5297
曰妾	-10.5298
寓居	-10.5299
耳目	-10.5302
遏	-10.5302
楹	-10.5302
拙	-10.5303
韓魏公	-10.5304
軫	-10.5304
黔	-10.5304
又謂	-10.5305
税	-10.5307
侍者	-10.5309
馭	-10.5309
谿	-10.5309
者謂	-10.5312
吏部侍郎	-10.5312
僖	-10.5315
之妻	-10.5316
有白	-10.532
信之	-10.5326
聲如	-10.5328
賜之	-10.5328
暇日	-10.5331
都下	-10.5331
必死	-10.5334
則曰	-10.5335
其説	-10.5337
既入	-10.5342
名為	-10.5347
獨孤	-10.5347
圖贊曰	-10.5348
遇一	-10.5348
有客	-10.535
八九	-10.535
而還	-10.5357
千金	-10.5358
道之	-10.5363
詢其	-10.537
彘	-10.5371
老翁	-10.5373
遞	-10.5373
此乃	-10.5374
挂	-10.5375
鴟	-10.5378
日中	-10.5383
鶯	-10.5383
浣	-10.5383
煇	-10.5387
啜	-10.5389
又何	-10.5391
將來	-10.5392
庖	-10.5398
其才	-10.54
亦何	-10.5402
禄山	-10.5403
明月	-10.5406
對曰臣	-10.5407
上意	-10.541
嘉祐	-10.541
簡文	-10.5418
佛寺	-10.5422
三公	-10.5425
女也	-10.543
書之	-10.5434
二十七	-10.5438
有疾	-10.5445
濯	-10.5449
日夜	-10.5449
簪	-10.5453
葺	-10.5454
虢	-10.5457
出家	-10.5459
鄱陽	-10.546
之精	-10.5462
牲	-10.5464
三司	-10.5465
覓	-10.5467
洪州	-10.5469
御史大夫	-10.5472
名山	-10.548
終於	-10.5484
乃自	-10.5485
歎息	-10.5487
太白	-10.5488
太平廣記卷二百	-10.549
地下	-10.5491
應聲	-10.5491
歐	-10.5492
窺之	-10.5495
所能	-10.5496
復見	-10.5501
此山	-10.5502
怡	-10.5509
岑	-10.5528
虧	-10.553
棄之	-10.553
以前	-10.5531
亥	-10.5532
悸	-10.5532
抛	-10.5534
繒	-10.5534
羈	-10.5534
豚	-10.5535
剥	-10.5537
寥	-10.554
中出	-10.5541
止之	-10.5541
北門	-10.5542
愷	-10.5544
敬之	-10.5546
一婦人	-10.555
左丞	-10.5561
清河	-10.557
也李	-10.5572
摭	-10.5574
在中書	-10.558
上皇	-10.5584
盧氏	-10.5584
之首	-10.5585
以奉	-10.5589
無可	-10.559
土地	-10.5591
之子也	-10.5591
奏請	-10.5593
三代	-10.5594
今已	-10.5595
外有	-10.5596
五行	-10.5604
羔	-10.5606
薰	-10.5606
正統	-10.5609
鑰	-10.5615
湖南	-10.5624
井中	-10.5625
石上	-10.5631
之流	-10.5633
長丈餘	-10.5633
建中	-10.564
見此	-10.5643
有文	-10.5645
家僮	-10.565
也吾	-10.5652
今人	-10.5659
養之	-10.5659
之役	-10.5663
簫	-10.5665
其說	-10.5666
而復	-10.5667
范陽	-10.5668
陛	-10.5669
頰	-10.5682
腹中	-10.5682
灘	-10.5684
既去	-10.5686
尚存	-10.5687
倘	-10.5687
曩	-10.5689
僣	-10.569
惋	-10.569
翳	-10.5692
嵗餘	-10.5696
醋	-10.5697
能為	-10.5709
昭宗	-10.5712
又嘗	-10.5713
軌	-10.5716
無所見	-10.5716
市人	-10.5718
李林甫	-10.5719
是年	-10.5725
崇寧	-10.5728
餓	-10.5731
獲免	-10.5733
庚	-10.5734
此地	-10.5735
舉家	-10.5739
西方	-10.574
之神	-10.5745
之理	-10.5748
涓	-10.5752
復出	-10.5753
翹	-10.576
漁人	-10.5764
嫉	-10.5765
師道	-10.5766
苔	-10.5769
鳬	-10.5769
祟	-10.577
嘗謂	-10.5775
乘馬	-10.5778
江中	-10.5795
文士	-10.5799
第四	-10.5803
嘗言	-10.5804
字仲	-10.5808
多有	-10.5816
而上	-10.5816
送至	-10.5826
遺之	-10.5828
野人	-10.5828
辭去	-10.5829
貧道	-10.583
貴賤	-10.5833
不答	-10.5835
福州	-10.5837
寕	-10.584
其術	-10.5841
㢘	-10.5844
捐	-10.5845
別	-10.5846
魄	-10.5847
濃	-10.5847
醇	-10.5848
曰願	-10.5849
唇	-10.5849
有五	-10.5849
三十餘	-10.585
隘	-10.5851
㡌	-10.5857
别墅	-10.5857
舶	-10.5858
姓氏	-10.5861
乳母	-10.5867
天王	-10.587
使我	-10.5871
嘗聞	-10.5874
官職	-10.5875
大呼	-10.5876
其次	-10.5879
方悟	-10.5879
服其	-10.5883
與我	-10.589
亦未	-10.5895
山其上多	-10.5895
因此	-10.5896
瑣	-10.5902
蘇州	-10.5904
㕘	-10.5904
仁義	-10.5912
之變	-10.5919
如人	-10.592
用兵	-10.5921
去後	-10.5921
种	-10.5923
未嘗不	-10.5924
麄	-10.5924
如前	-10.5927
大風	-10.5927
縈	-10.593
嚮	-10.593
維揚	-10.594
民家	-10.5941
甚嚴	-10.5941
天竺	-10.5948
監司	-10.595
意欲	-10.595
昨日	-10.5952
出摭	-10.5953
以俟	-10.5954
開成	-10.596
曰此是	-10.5963
憲宗	-10.5967
東陽	-10.5967
遂得	-10.5968
數丈	-10.5968
輕重	-10.5968
公公	-10.5972
八百	-10.5978
與汝	-10.5983
玉女	-10.5984
𩔖也	-10.5985
生者	-10.5987
喜曰	-10.5988
翊	-10.5993
孝子	-10.5993
問其所	-10.5994
海上	-10.5996
劉昫唐書曰	-10.5997
人主	-10.5999
胷	-10.6003
所致	-10.6007
騶	-10.6008
有石	-10.601
劣	-10.601
弁	-10.6011
拍	-10.6012
漬	-10.6015
悍	-10.6016
凱	-10.6016
憾	-10.6017
去其	-10.6018
蘄	-10.6018
所由	-10.6019
天帝	-10.6023
如言	-10.6033
百千	-10.6033
稍稍	-10.6035
刻石	-10.604
英宗	-10.6046
若水	-10.6052
城門	-10.606
海外	-10.6061
云吾	-10.6063
無所不	-10.6069
吾子	-10.607
於外	-10.6072
歸家	-10.6074
四面	-10.6078
迎之	-10.6083
少保	-10.6086
前代	-10.6086
玠	-10.6088
禮部侍郎	-10.6088
因命	-10.6089
語之曰	-10.6089
租	-10.6089
槖	-10.609
撻	-10.6091
悽	-10.6091
儔	-10.6092
侣	-10.6093
所害	-10.6093
陌	-10.6094
瓘	-10.6094
慄	-10.6096
腥	-10.6096
其詩	-10.6096
遣之	-10.6096
題曰	-10.6096
煉	-10.6096
張華	-10.6098
曲江	-10.6101
博物志	-10.6101
長老	-10.6107
始得	-10.6108
或言	-10.6112
中得	-10.6115
兵馬	-10.6116
雖然	-10.6119
宋史	-10.6119
韓公	-10.6126
嵩山	-10.6127
事皆	-10.6128
不悦	-10.6131
語及	-10.6131
濵	-10.6136
蜀中	-10.6138
屏風	-10.614
生人	-10.6143
以白	-10.6146
改名	-10.6152
所出	-10.6155
其背	-10.6156
竺	-10.6157
山上	-10.6159
出異	-10.6161
琪	-10.6166
頒	-10.6167
洩	-10.6168
術者	-10.6169
與諸	-10.6171
人云	-10.6171
礪	-10.6173
之甚	-10.6173
郭璞	-10.6174
奩	-10.6176
准	-10.6176
絡	-10.6177
嘏	-10.6177
閹	-10.6178
這	-10.6178
悰	-10.6182
蓬萊	-10.6182
禎	-10.6182
公孫	-10.6183
紹聖	-10.6183
袒	-10.6183
因謂	-10.6183
稼	-10.6185
閨	-10.6189
於道	-10.62
堂上	-10.6202
至京	-10.6208
既出	-10.6212
之患	-10.6213
供養	-10.6215
周禮	-10.6216
觀音	-10.6223
晚年	-10.6223
奉詔	-10.6224
鍾山	-10.6229
東宫	-10.6231
不少	-10.6235
執事	-10.6235
郗	-10.6251
治平	-10.6253
不意	-10.6258
史補	-10.6258
刹	-10.6259
葱	-10.6259
吼	-10.626
過人	-10.626
璘	-10.626
形狀	-10.626
茵	-10.6261
蝶	-10.6261
滎陽	-10.6265
乾道	-10.6269
固辭	-10.6269
史記	-10.6271
鳳翔	-10.6271
士卒	-10.6276
邑人	-10.6279
文曰	-10.6279
之情	-10.6284
知舉	-10.6287
之餘	-10.6299
真君	-10.6303
後以	-10.6303
得錢	-10.6304
年七十	-10.6308
人祖	-10.6318
那得	-10.6322
牘	-10.6323
王師	-10.6331
罷相	-10.6334
顗	-10.6334
媿	-10.634
騷	-10.634
晉陽秋曰	-10.6341
上表	-10.6342
甚美	-10.6342
水上	-10.6343
倩	-10.6343
畨	-10.6347
其夜	-10.6347
皁	-10.6348
堤	-10.6348
一丈	-10.6354
旦夕	-10.6366
可知	-10.6368
江左	-10.6368
於世	-10.6372
謝公	-10.6379
公為	-10.638
溫	-10.6381
末年	-10.6384
政府	-10.6386
近世	-10.6387
舟人	-10.6387
衣裳	-10.6389
生死	-10.6394
愛其	-10.6397
河内	-10.6397
公子	-10.6399
曽祖	-10.6407
流沙	-10.6418
太山	-10.6418
在坐	-10.6419
譯	-10.6422
相似	-10.6424
靴	-10.6424
吠	-10.6425
論語	-10.6426
夲	-10.6427
沼	-10.6427
蔬	-10.6429
笥	-10.6431
椽	-10.6431
敖	-10.6432
始知	-10.6433
盍	-10.6434
臠	-10.6434
經云	-10.644
畧曰	-10.644
城隍	-10.6442
宇文	-10.6442
至夜	-10.6443
年可	-10.6443
因與	-10.6447
有罪	-10.645
萊公	-10.645
年二十	-10.6452
有道	-10.6453
遂至	-10.6456
幾何	-10.6462
又言	-10.6462
庭下	-10.6469
一石	-10.6474
元長	-10.6474
都尉	-10.6475
河陽	-10.6477
為此	-10.648
贈之	-10.6482
睦	-10.6489
矣遂	-10.6495
以酒	-10.6495
一僧	-10.6496
州郡	-10.6496
松江	-10.6501
亦自	-10.6502
顥	-10.6502
不入	-10.6504
制度	-10.6505
忽夢	-10.6507
棹	-10.6508
匝	-10.6509
行在	-10.6509
肌	-10.6509
鋭	-10.651
臆	-10.651
耽	-10.6511
旄	-10.6511
憎	-10.6512
爇	-10.6513
滂	-10.6513
倣	-10.6514
中書侍郎	-10.6519
意其	-10.6519
藏之	-10.6525
有兩	-10.6525
嘗於	-10.6527
兩日	-10.6532
不差	-10.6536
以謂	-10.6537
鳥獸	-10.6539
所聞	-10.6541
以事	-10.6542
納之	-10.6543
金石	-10.6548
與此	-10.655
如今	-10.6552
趙公	-10.6556
宗皇帝	-10.6568
之南	-10.6572
有㫖	-10.6573
髙麗	-10.6576
三百里	-10.658
大師	-10.6586
所至	-10.6588
不爾	-10.6589
詢之	-10.6589
何在	-10.6593
先主	-10.6593
中興書曰	-10.6593
愔	-10.6594
晋	-10.6594
騫	-10.6595
貼	-10.6595
數輩	-10.6596
大事	-10.6596
詬	-10.6597
士子	-10.6598
箠	-10.6598
綃	-10.6599
萃	-10.6601
䟦	-10.6602
簮	-10.6602
其上多	-10.6602
庻	-10.6602
珣	-10.6604
以賜	-10.6605
麤	-10.6605
氊	-10.6606
湫	-10.6612
幽州	-10.6614
無故	-10.6616
中有一	-10.6619
度支	-10.6622
一聲	-10.6632
閤門	-10.6633
一女子	-10.6634
九日	-10.6637
安在	-10.6639
覽之	-10.664
人生	-10.6641
主上	-10.6645
及此	-10.6649
任臣	-10.6652
實録	-10.6655
容色	-10.6656
何敢	-10.6661
江州	-10.6665
即是	-10.6665
獨不	-10.667
鯉	-10.6671
及至	-10.6672
性好	-10.6675
齡	-10.6681
蘿	-10.6683
拽	-10.6684
甚有	-10.6685
系	-10.6685
高宗	-10.6686
琬	-10.6686
出于	-10.6687
琮	-10.6687
叶	-10.6687
交趾	-10.6688
慟哭	-10.6688
漲	-10.6689
奎	-10.6692
酋	-10.6693
垢	-10.6693
供奉	-10.6696
小説	-10.6696
以授	-10.6698
峴	-10.6698
叔父	-10.6701
白雲	-10.6702
地獄	-10.6702
仰視	-10.6704
事也	-10.6711
世宗	-10.6711
之風	-10.6717
乃得	-10.6718
不久	-10.6724
曰但	-10.6726
驚懼	-10.6729
檢校	-10.6732
同知	-10.6735
不肖	-10.6735
焉其	-10.6739
人以為	-10.6745
不記	-10.675
樓上	-10.6751
字元	-10.676
其日	-10.6761
其詞	-10.6762
方士	-10.6762
猶存	-10.6768
鉅	-10.6769
滔	-10.6769
愿	-10.6773
常州	-10.6773
絮	-10.6773
諫議大夫	-10.6774
刑部	-10.6774
居此	-10.6775
霑	-10.6775
于上	-10.6777
友善	-10.6777
妍	-10.6777
為名	-10.6777
迪	-10.6778
悖	-10.6779
病死	-10.6781
孝宗	-10.6783
一枝	-10.6787
然亦	-10.6787
承㫖	-10.679
代宗	-10.6791
縣人	-10.6806
未嘗有	-10.6809
慶厯	-10.6809
人臣	-10.681
曰此人	-10.6813
倉卒	-10.6814
東平	-10.682
居人	-10.6823
天台	-10.6827
在上	-10.6829
四足	-10.683
校官	-10.683
至家	-10.6832
出為	-10.6833
奈	-10.6835
辭以	-10.6837
七百	-10.6838
北有	-10.6838
出身	-10.684
其他	-10.684
每至	-10.6844
不異	-10.6851
軍將	-10.6857
潞公	-10.6861
怕	-10.6864
蠧	-10.6865
大觀	-10.6867
諺	-10.6868
現	-10.6869
耻	-10.687
乆矣	-10.687
隷	-10.6871
須㬰	-10.6873
行者	-10.6878
安能	-10.6879
嗜酒	-10.6882
侍讀	-10.6886
功名	-10.6887
崑山	-10.6888
不就	-10.6896
我我	-10.69
二十餘	-10.6902
周旋	-10.6912
昔日	-10.6916
著書	-10.6916
從而	-10.6923
責之	-10.6932
哲宗	-10.6934
牀上	-10.6937
食人	-10.6938
人世	-10.6939
桞	-10.6945
温公	-10.6945
忙	-10.6945
𥿄	-10.6946
點	-10.6947
釐	-10.6948
東方朔	-10.6952
悞	-10.6953
澹	-10.6954
釀	-10.6957
會稽	-10.6958
嫂	-10.6959
貧賤	-10.6962
此詩	-10.6964
為人所	-10.697
考之	-10.6971
為主	-10.6971
好道	-10.698
相者	-10.6983
韓愈	-10.6992
取一	-10.6993
釋之	-10.7
前事	-10.7004
城縣	-10.7005
何時	-10.7008
其為人	-10.7009
楊公	-10.7016
南人	-10.7019
則又	-10.702
鄂	-10.702
勣	-10.702
舎人	-10.7026
濮	-10.7026
辭曰	-10.7029
九江	-10.703
琦	-10.7031
其陽多	-10.7033
蝗	-10.7034
突厥	-10.7036
祇	-10.7041
劫	-10.7042
殮	-10.7044
彥	-10.7045
樞宻院	-10.7045
捫	-10.7045
懲	-10.7046
萬一	-10.7046
揷	-10.7046
躭	-10.7047
頑	-10.7047
不願	-10.7048
也夫	-10.7048
付之	-10.7049
鄭氏	-10.705
親見	-10.7052
無子	-10.7052
自陳	-10.7052
諸君	-10.7053
有竒	-10.7055
諸軍	-10.7062
偶然	-10.7064
及明	-10.7064
其語	-10.7067
驚起	-10.7069
金剛	-10.707
趙氏	-10.7072
無益	-10.7073
也余	-10.7083
夢見	-10.7085
每日	-10.7087
以疾	-10.7093
亦云	-10.7095
不改	-10.71
不曉	-10.7103
麾	-10.7113
唯有	-10.7119
晉王	-10.7122
濛	-10.7125
憐之	-10.7127
拊	-10.7128
佯	-10.7129
别有	-10.7129
五更	-10.7129
捶	-10.713
纓	-10.713
閽	-10.713
饗	-10.713
帑	-10.7131
有名	-10.7131
不逺	-10.7131
嬌	-10.7131
仁傑	-10.7133
願得	-10.7133
紛紛	-10.7135
迅	-10.7136
燧	-10.7136
櫃	-10.7137
挑	-10.7137
略無	-10.7139
之民	-10.7142
五行記	-10.7142
清風	-10.7148
復至	-10.7149
志云	-10.7154
所欲	-10.7158
不畏	-10.7159
閉門	-10.716
頓首	-10.7163
已上	-10.7173
不敢言	-10.7178
又令	-10.7184
詰其	-10.7186
無言	-10.7192
目之	-10.7196
珠林	-10.7203
南郡	-10.7203
杞	-10.7212
近代	-10.7212
奭	-10.7212
而食之	-10.7213
大用	-10.7215
國子監	-10.7219
吻	-10.7221
賁	-10.7222
病者	-10.7223
洙	-10.7223
暝	-10.7223
礙	-10.7223
學問	-10.7224
捲	-10.7225
以禮	-10.7225
噪	-10.7225
奏之	-10.7226
樽	-10.7226
攫	-10.7226
余嘗	-10.723
頊	-10.723
於水	-10.7239
勛	-10.724
向來	-10.7246
其法	-10.7253
侍婢	-10.7257
郭曰言	-10.7266
半年	-10.7267
後因	-10.7284
于地	-10.7284
子厚	-10.7286
引入	-10.7287
之勢	-10.729
文穆	-10.7297
子儀	-10.7298
安知	-10.7302
第五	-10.7304
何由	-10.7307
四十年	-10.7308
棋	-10.7309
軾	-10.731
􁁊	-10.7311
驩	-10.7313
朂	-10.7315
雛	-10.7318
監軍	-10.7318
入蜀	-10.7319
弋	-10.7319
葦	-10.7321
琢	-10.7322
萬餘	-10.7324
所夢	-10.7332
相隨	-10.7333
試官	-10.7338
王丞相	-10.7339
召入	-10.7345
也及	-10.7346
十一年	-10.7347
三卷	-10.7349
寒食	-10.735
世傳	-10.735
太保	-10.7354
熈寧	-10.7354
固不	-10.7355
宛然	-10.7365
來謁	-10.7365
成名	-10.737
以後	-10.7371
笑之	-10.7374
風吹	-10.7375
上馬	-10.7383
詹	-10.7386
知者	-10.739
此時	-10.739
香氣	-10.7397
時已	-10.7399
宗廟	-10.7401
顓頊	-10.7404
覃	-10.7404
鉤	-10.7404
丑	-10.7407
邠	-10.7408
稔	-10.7409
脈	-10.741
掇	-10.7411
貂	-10.7411
詎	-10.7411
凋	-10.7412
駮	-10.7413
鞏	-10.7414
瑗	-10.7414
梧	-10.7415
為大	-10.7415
神武	-10.7417
之妙	-10.7417
蝦	-10.7417
門内	-10.7419
已後	-10.7421
啇	-10.7423
垂簾	-10.7424
功曹	-10.7426
殺我	-10.7431
安置	-10.7432
此𩔖	-10.7438
沂	-10.7441
之類	-10.7444
敏中	-10.7448
宣帝	-10.7448
去之	-10.7451
流水	-10.7459
則以	-10.7462
乃出	-10.7466
諦	-10.7475
者得	-10.7475
時事	-10.7477
六日	-10.7479
異物	-10.748
一時之	-10.7482
老夫	-10.7486
復為	-10.7488
必欲	-10.7489
遇害	-10.7489
一足	-10.7494
絢	-10.7497
迥	-10.7497
瑀	-10.7497
之計	-10.7498
册	-10.7499
徃來	-10.7501
壮	-10.7501
疇	-10.7502
前日	-10.7502
瀛	-10.7503
顆	-10.7504
準	-10.7504
劭	-10.7504
泠	-10.7505
竟以	-10.7506
峭	-10.7508
拓	-10.7509
攷	-10.7511
晟	-10.7511
滑稽	-10.7512
非所	-10.7512
讎	-10.7512
裸	-10.7514
傳云	-10.7516
然無	-10.7518
鞋	-10.7519
意甚	-10.752
知州	-10.7521
也此	-10.7521
持國	-10.7522
文昌	-10.7523
豈能	-10.7523
詩有	-10.7526
有四	-10.7526
近日	-10.7531
亦名	-10.7533
五寸	-10.7536
百日	-10.7538
亦當	-10.7539
慶元	-10.7543
笑語	-10.7545
字文	-10.7547
士也	-10.7547
兩頭	-10.755
僮	-10.7553
學道	-10.7554
佛法	-10.7559
嘗夢	-10.7571
州有	-10.7571
發其	-10.7571
太元	-10.7576
諸司	-10.7577
官軍	-10.7579
人亦	-10.7579
山在	-10.7581
旣而	-10.7588
吾當	-10.7589
生靈	-10.7589
杲	-10.759
毗	-10.7592
楓	-10.7594
龔	-10.7596
渙	-10.7597
讌	-10.76
巵	-10.7601
邃	-10.7601
苐	-10.7602
髭	-10.7603
泣下	-10.7604
侔	-10.7605
無由	-10.7607
嚙	-10.7607
明宗	-10.7608
卽	-10.7608
廟中	-10.7609
其姓名	-10.7609
御前	-10.7612
千人	-10.7613
神也	-10.7614
言畢	-10.7619
二尺	-10.7623
樞宻使	-10.7625
令狐	-10.7625
二十六	-10.7627
紙筆	-10.7628
不歸	-10.7633
百餘里	-10.764
頭上	-10.764
尤甚	-10.7641
之恩	-10.7642
無罪	-10.7643
鄰人	-10.7645
三間	-10.7646
京口	-10.7653
而進	-10.7654
泣曰	-10.7655
堂前	-10.7656
不失	-10.7657
則無	-10.766
兖州	-10.766
㑹昌	-10.7661
埋之	-10.7661
常與	-10.7665
開門	-10.7666
親友	-10.7671
酒肉	-10.7675
明府	-10.7678
出法	-10.7679
出神	-10.7681
其義	-10.7685
閔	-10.7686
欽定四庫全書子部十二	-10.7687
異香	-10.7688
黥	-10.7689
囂	-10.769
鎻	-10.7691
娛	-10.7693
改為	-10.7693
猥	-10.7694
惇	-10.7694
剡	-10.7697
迭	-10.7698
雁	-10.7699
觜	-10.7702
腫	-10.7702
錫熊	-10.7703
毅總	-10.7703
之父	-10.7708
睿宗	-10.7708
尋之	-10.7711
蛙	-10.7711
通衢	-10.7713
叅政	-10.7715
仲尼	-10.7723
以水	-10.7726
一生	-10.7726
音律	-10.7728
五經	-10.7728
而得	-10.7731
知府	-10.7732
州司馬	-10.7737
過之	-10.7737
將欲	-10.774
將以	-10.7741
幸蜀	-10.7742
追之	-10.7744
出城	-10.7748
驚駭	-10.7751
因請	-10.7751
平地	-10.7753
富公	-10.7757
為御史	-10.7761
靡不	-10.7763
而别	-10.7763
羅列	-10.7767
郡縣	-10.7773
字也	-10.7774
無比	-10.7777
大將	-10.7778
旭	-10.7779
隠	-10.7782
等謹案	-10.7783
菌	-10.7784
珙	-10.7787
曰不然	-10.7788
徤	-10.7789
錡	-10.779
涎	-10.779
退之	-10.7791
賚	-10.7791
尅	-10.7792
砌	-10.7793
昀	-10.7795
月恭校上	-10.7795
裾	-10.7796
公以	-10.78
宛轉	-10.7803
東門	-10.7803
珠玉	-10.7806
山隂	-10.7811
為君	-10.7811
大蛇	-10.7812
悲泣	-10.7812
所司	-10.7812
候之	-10.7813
白石	-10.7814
牀下	-10.7821
延入	-10.7821
形似	-10.7824
三更	-10.7832
縣丞	-10.7835
儼然	-10.7836
視事	-10.784
太平廣記卷	-10.7842
得無	-10.7842
走馬	-10.7846
謂是	-10.7847
市中	-10.7848
伺其	-10.7849
二物	-10.785
聞有	-10.7853
行人	-10.7857
下詔	-10.7861
外祖	-10.7866
四尺	-10.7869
張説	-10.7869
即死	-10.787
壁間	-10.7877
遂成	-10.7878
拜相	-10.7879
迄	-10.7881
孫士	-10.7884
亦多	-10.7884
在京	-10.7884
棒	-10.7885
忱	-10.7887
仞	-10.7887
軒轅	-10.7888
釡	-10.789
沐浴	-10.7893
噴	-10.7893
轅	-10.7894
刁	-10.7895
便是	-10.7895
扄	-10.7896
澆	-10.7897
旃	-10.7897
弓矢	-10.7897
睛	-10.7901
蹟	-10.7903
獻可	-10.7903
瞽	-10.7904
知也	-10.7904
虎豹	-10.7905
次日	-10.7905
之北	-10.7913
西有	-10.7918
以来	-10.7926
乃謂	-10.7927
致書	-10.7932
可惜	-10.7935
利害	-10.7937
餘慶	-10.7937
常在	-10.7939
號泣	-10.7941
也於是	-10.7947
人謂之	-10.7948
廣古今	-10.795
於市	-10.7951
鉞	-10.7958
曰適	-10.7966
中令	-10.7969
淮西	-10.7972
并州	-10.7973
文肅	-10.7978
昊	-10.798
唯唯	-10.7981
之議	-10.7982
南有	-10.7982
俛	-10.7982
娼	-10.7982
六尺	-10.7983
芬	-10.7984
霖	-10.7985
不妄	-10.7986
黿	-10.7986
潤州	-10.7988
僭	-10.7989
之任	-10.799
罄	-10.799
迂	-10.7991
巽	-10.7992
煑	-10.7993
退而	-10.7993
劔	-10.7994
洒	-10.7994
衘	-10.7996
一身	-10.7996
提要	-10.7998
繆	-10.8
廟堂	-10.8004
亘	-10.8004
既成	-10.8022
容貌	-10.8025
復以	-10.8025
無忌	-10.8026
出續	-10.8028
告曰	-10.8028
時嘗	-10.8028
仙客	-10.8029
三五	-10.803
之形	-10.8031
豈得	-10.8033
浙江	-10.8037
上官	-10.8043
二萬	-10.8049
乃見	-10.8049
不避	-10.8049
吞之	-10.8051
其室	-10.8052
千餘人	-10.8055
房中	-10.8058
無禮	-10.806
了無	-10.8065
亦曰	-10.8071
門前	-10.8076
曺	-10.8077
尊師	-10.8083
譲	-10.8086
叨	-10.8086
䘏	-10.8087
宫殿	-10.8089
購	-10.809
濠	-10.8091
髓	-10.8091
歿	-10.8093
語人曰	-10.8093
碁	-10.8094
琉璃	-10.8094
以成	-10.8094
狡	-10.8094
出鎮	-10.8095
亦不能	-10.8099
餘杭	-10.8101
以刀	-10.8102
劉禹錫	-10.8102
客有	-10.8105
縱横	-10.8108
屏山	-10.8109
不加	-10.8109
而罷	-10.8112
留連	-10.8114
絶句	-10.8117
(○)	-10.812
内翰	-10.812
今為	-10.8124
一門	-10.8129
城東	-10.8129
念之	-10.813
於西	-10.814
具述	-10.8141
古者	-10.8143
不知所之	-10.8148
百步	-10.8152
王敦	-10.8153
尚書令	-10.8154
平陽	-10.8155
一片	-10.8156
出外	-10.8157
訴於	-10.8164
紙錢	-10.8168
略曰	-10.8168
故以	-10.8168
有數	-10.8169
元載	-10.817
因而	-10.8173
必當	-10.8178
屨	-10.8178
命也	-10.818
有詩云	-10.818
逍遥	-10.818
武王	-10.8181
後魏	-10.8183
宣城	-10.8184
薊	-10.8185
諮	-10.8187
轄	-10.8188
堰	-10.8188
當自	-10.8188
甑	-10.8189
曰夫	-10.819
受其	-10.8191
匕	-10.8192
琚	-10.8192
餒	-10.8193
灾	-10.8193
所食	-10.8193
區區	-10.8194
在前	-10.8196
袴	-10.8197
後數年	-10.8198
龕	-10.8199
貺	-10.8203
字伯	-10.8205
武后	-10.8209
皇太子	-10.8212
相謂曰	-10.8214
館職	-10.8215
年老	-10.8219
教坊	-10.822
告以	-10.822
上問	-10.8221
主之	-10.8226
不可不	-10.8226
也公	-10.8226
官家	-10.8229
長官	-10.8229
扣門	-10.8233
魏武	-10.8235
識其	-10.8236
知是	-10.8236
秘書	-10.8237
之側	-10.8237
語言	-10.8243
萬人	-10.825
義方	-10.8255
嘉興	-10.8258
城西	-10.8262
則可	-10.8272
異也	-10.8273
舊制	-10.8277
久不	-10.8283
塚	-10.8283
道流	-10.8283
駁	-10.8285
嚢	-10.8288
昂	-10.8289
渤海	-10.8289
頤	-10.829
見王	-10.829
幃	-10.8291
鵞	-10.8291
嗚咽	-10.8292
芙蓉	-10.8294
忠定	-10.8297
掣	-10.8298
數十萬	-10.8302
尓	-10.8303
一夜	-10.8307
浙東	-10.8307
詩書	-10.8307
乃召	-10.8317
無數	-10.8318
不納	-10.8321
波斯	-10.8324
監察	-10.8324
直入	-10.8324
使臣	-10.8325
張生	-10.8326
二十餘年	-10.8338
馬上	-10.8342
太平廣記卷一百	-10.8346
不輟	-10.8347
官府	-10.8351
嘗問	-10.8352
一官	-10.8357
其手	-10.8359
我當	-10.8363
故相	-10.8366
夫妻	-10.8371
豁	-10.8372
好事	-10.8373
年五十	-10.8373
閣下	-10.8383
漁者	-10.8383
曼	-10.8384
故有	-10.8385
懐中	-10.839
筒	-10.839
昱	-10.8391
轂	-10.8391
囬	-10.8392
銳	-10.8393
擎	-10.8393
舉手	-10.8394
歆	-10.8394
昬	-10.8394
郄	-10.8395
髠	-10.8395
舂	-10.8396
士庶	-10.8397
起於	-10.8398
纒	-10.8398
鐫	-10.8399
堵	-10.84
大懼	-10.8403
而食	-10.8408
無窮	-10.8408
慨然	-10.8409
召至	-10.8412
欽定四庫全書太平廣記卷一百	-10.8414
北人	-10.8415
席上	-10.8415
忠臣	-10.8416
越王	-10.8417
黄巢	-10.8426
本無	-10.8432
入室	-10.8433
亦隨	-10.8434
吟曰	-10.8437
之異	-10.8441
仕宦	-10.8443
欽若	-10.8451
長二尺	-10.8452
之號	-10.8459
主文	-10.8464
一婢	-10.8467
御筆	-10.847
所親	-10.847
數十年	-10.8471
廂	-10.8476
内臣	-10.8482
功臣	-10.8483
伽	-10.8485
右軍	-10.8487
及諸	-10.849
重之	-10.8491
扁	-10.8491
眩	-10.8495
堡	-10.8496
瀝	-10.8496
瑯琊	-10.8498
赭	-10.8499
診	-10.8499
縣南	-10.85
有子	-10.8501
於内	-10.8502
浮屠	-10.8503
言我	-10.8503
陁	-10.8503
鶻	-10.8503
優劣	-10.8505
以供	-10.8507
長樂	-10.8512
寒暑	-10.8515
上聞	-10.8516
蚓	-10.8516
光武	-10.8517
中官	-10.8517
淮南子	-10.8521
不勝其	-10.8521
為小	-10.8524
聖賢	-10.8524
首尾	-10.8526
伏誅	-10.8529
深山	-10.8531
名臣	-10.8531
字叔	-10.8531
樓下	-10.8538
道中	-10.8539
拾遺記	-10.8539
之費	-10.854
莫之	-10.8542
端坐	-10.8543
禮樂	-10.8544
賞之	-10.8545
洪武	-10.8552
魯直	-10.8552
食者	-10.8562
得以	-10.8568
掘地	-10.8569
之音	-10.8571
便殿	-10.8588
未成	-10.8589
聖人之	-10.859
大荒	-10.8592
自爾	-10.8593
必以	-10.8594
軍節度使	-10.8595
初無	-10.8599
其居	-10.86
神異	-10.8605
牝	-10.8606
槽	-10.8607
魔	-10.8607
談笑	-10.8607
相𩔖	-10.8608
此是	-10.8609
侍臣	-10.8611
廩	-10.8611
總管	-10.8613
宰輔	-10.8614
蹶	-10.8617
又與	-10.8617
工人	-10.8619
旁有	-10.8621
藝祖	-10.8624
女曰	-10.8625
甲科	-10.8631
夷簡	-10.8632
之力	-10.8635
獨坐	-10.8638
九重	-10.8641
幕府	-10.8643
甚謹	-10.8644
出紀	-10.8645
江水	-10.8647
世所	-10.8648
是謂	-10.8649
獨行	-10.8667
七十里	-10.8668
而笑	-10.867
宣武	-10.8672
人馬	-10.8673
弟也	-10.8676
不以為	-10.868
二十三	-10.8692
談論	-10.8692
辜	-10.8693
神龍	-10.8694
樂府	-10.8697
有言	-10.8701
卭	-10.8703
出集	-10.8705
元忠	-10.8706
□	-10.8708
銜之	-10.8709
釁	-10.8709
衲	-10.871
僦	-10.8711
繳	-10.8714
糜	-10.8714
因名	-10.8714
刪	-10.8715
黠	-10.8716
雷電	-10.8717
詈	-10.8717
咸陽	-10.8718
無憂	-10.8718
絕	-10.8721
藍田	-10.8724
欲得	-10.8727
大司馬	-10.873
將入	-10.8733
天人	-10.8733
進曰	-10.8735
下獄	-10.8737
皇祐	-10.8737
等皆	-10.8738
一笑	-10.874
閉目	-10.8743
新法	-10.8748
漢武	-10.8749
皆在	-10.8751
謁之	-10.8754
觀察	-10.8754
嗣宗	-10.8755
善惡	-10.8759
萊	-10.8764
如飛	-10.8765
乃與	-10.8766
師魯	-10.8766
已在	-10.8767
四十里	-10.8772
雜録	-10.8773
兵士	-10.8774
少師	-10.8774
安撫	-10.8778
太廟	-10.8779
五里	-10.8781
二丈	-10.8782
以語	-10.8785
之難	-10.8786
相知	-10.8788
疑是	-10.8788
聞此	-10.879
莭	-10.8792
有鳥	-10.88
掘之	-10.88
都城	-10.8802
皆無	-10.8802
設齋	-10.8803
云何	-10.8803
上清	-10.8805
來此	-10.8805
必能	-10.8807
立功	-10.881
綰	-10.8811
駱	-10.8816
二十二	-10.8816
曄	-10.8816
惱	-10.8818
衡山	-10.8819
廹	-10.882
鴛鴦	-10.882
亊	-10.8821
逺矣	-10.8821
螫	-10.8821
巍	-10.8822
鳯翔	-10.8822
孽	-10.8822
闌	-10.8822
一一	-10.8823
匱	-10.8823
扶桑	-10.8824
萌	-10.8825
有舊	-10.8825
三寸	-10.8826
者無不	-10.8827
積年	-10.8829
而能	-10.8829
獠	-10.8829
如常	-10.8829
之夕	-10.883
廷尉	-10.8831
所獲	-10.8839
者又	-10.884
蛟龍	-10.8842
日夕	-10.8843
林中	-10.8849
宣撫	-10.885
而返	-10.8853
兖	-10.8854
有金	-10.8857
皇子	-10.8858
雲中	-10.886
無疾	-10.8864
倐	-10.8867
階下	-10.8869
難得	-10.8879
夜來	-10.8881
在家	-10.8883
道左	-10.8884
所書	-10.8887
昔有	-10.889
面目	-10.8894
黄白	-10.8895
王者	-10.8903
都人	-10.8904
夜中	-10.8905
與妻	-10.8905
失色	-10.8905
日有	-10.8905
多所	-10.8906
華隂	-10.8907
石室	-10.8909
更不	-10.8911
且以	-10.8915
航	-10.8918
複	-10.8919
舉止	-10.8919
闋	-10.892
散騎常侍	-10.892
汶	-10.8921
孩	-10.8923
挫	-10.8924
肱	-10.8927
經過	-10.8927
惕	-10.8928
鴿	-10.8928
需	-10.8929
勉之	-10.893
道術	-10.893
頋	-10.893
徳裕	-10.893
亦能	-10.8932
愜	-10.8932
狼狽	-10.8933
澣	-10.8933
閏	-10.8934
裒	-10.8934
師古	-10.8935
証	-10.8935
泳	-10.8935
放之	-10.8935
休咎	-10.8937
消息	-10.8941
甘露	-10.8943
瓠	-10.8945
福建	-10.8945
天寳中	-10.8946
大悦	-10.8948
此二	-10.8949
但云	-10.8952
與客	-10.8953
咸平	-10.8954
用一	-10.8956
可畏	-10.896
冬至	-10.8961
五十年	-10.8963
思道	-10.8966
王安石	-10.8966
人形	-10.8968
太清	-10.8972
旬月	-10.8974
南史	-10.8975
而往	-10.8976
奏曰臣	-10.8979
以資	-10.8983
終無	-10.8983
誦之	-10.8984
一本	-10.8986
雷雨	-10.8986
又北	-10.8989
孝武	-10.899
太夫人	-10.899
則已	-10.8991
可以為	-10.8992
少府	-10.8993
命左右	-10.9002
笑謂	-10.9003
可與	-10.9007
論者	-10.9009
又作	-10.901
奉天	-10.9013
山南	-10.9014
宣州	-10.9014
因令	-10.9019
食畢	-10.902
文正公	-10.902
十丈	-10.9022
延年	-10.9023
狀若	-10.9025
生日	-10.9027
砥	-10.9031
艷	-10.9032
當是	-10.9032
鑊	-10.9034
先公	-10.9035
岱	-10.9035
帙	-10.9036
覧	-10.9036
吸	-10.9036
鐺	-10.9038
其中有	-10.9038
之次	-10.9039
逞	-10.9039
惆悵	-10.904
懦	-10.904
劑	-10.9041
𢎞農	-10.9041
企	-10.9042
沔	-10.9042
醴	-10.9044
淸	-10.9044
曷	-10.9045
愆	-10.9046
辤	-10.9046
竪	-10.9047
明道	-10.9047
驚愕	-10.9047
蛤	-10.9049
可觀	-10.9051
復還	-10.9052
家在	-10.9056
城外	-10.9058
兒女	-10.9058
方丈	-10.906
七嵗	-10.9062
作亂	-10.9064
外人	-10.9064
商人	-10.9073
將歸	-10.9075
半日	-10.9075
憲聖	-10.9078
其前	-10.908
前人	-10.9081
時號	-10.9083
出處	-10.9084
音樂	-10.9087
之弟	-10.9089
惟有	-10.9093
尋常	-10.9096
其數	-10.91
謂此	-10.9104
於後	-10.911
萬世	-10.9111
書畫	-10.9114
士女	-10.9114
更有	-10.9121
於上	-10.9125
開封府	-10.9128
子華	-10.9129
豈敢	-10.9134
白金	-10.9136
瑋	-10.914
也音	-10.9143
神錄	-10.9144
黼	-10.9144
也王	-10.9146
缾	-10.9148
富人	-10.9149
氏譜曰	-10.9149
幢	-10.9149
贅	-10.9149
屐	-10.915
涵	-10.915
光禄大夫	-10.915
盂	-10.9151
寖	-10.9151
十七年	-10.9152
嶷	-10.9153
粮	-10.9154
矛	-10.9155
推之	-10.9157
焰	-10.9157
涸	-10.9158
上命	-10.9158
母曰	-10.9162
光庭	-10.9163
可知也	-10.9163
淳化	-10.9165
為太子	-10.9166
聞君	-10.9167
枝葉	-10.9169
而不知	-10.917
行李	-10.9175
皆可	-10.9178
可笑	-10.9178
今則	-10.9185
河朔	-10.9185
相次	-10.9186
山寺	-10.9189
年月	-10.9189
祕書	-10.9191
庶幾	-10.9196
當與	-10.9206
宿於	-10.921
將有	-10.9211
潭州	-10.9212
累年	-10.9215
時人謂之	-10.922
一朝	-10.9221
臨終	-10.9228
親族	-10.9228
汴州	-10.9231
愕	-10.9231
有靈	-10.9231
居於	-10.9236
相思	-10.9238
葬之	-10.9239
棺中	-10.9239
成王	-10.924
未畢	-10.9242
江浙	-10.9244
縣西	-10.9246
一杯	-10.9249
因得	-10.9251
將行	-10.9252
節制	-10.9254
嗤	-10.9255
撒	-10.9257
謐	-10.9259
覿	-10.9259
磚	-10.926
悴	-10.926
厮	-10.9261
不著	-10.9262
滛	-10.9264
天師	-10.9266
既見	-10.9267
泚	-10.9267
肺	-10.9268
三省	-10.927
而滅	-10.9273
進士及第	-10.9273
題名	-10.9274
校尉	-10.9276
武宗	-10.9278
一株	-10.9281
已久	-10.9286
者是	-10.9288
始也	-10.9289
長尺餘	-10.9292
載之	-10.9292
祭之	-10.9295
願以	-10.9295
四日	-10.9298
侍講	-10.9299
是知	-10.9302
秦州	-10.9302
不載	-10.9303
户部	-10.9307
尚書郎	-10.9321
顧問	-10.9323
只是	-10.9323
終不能	-10.9325
千嵗	-10.9326
過江	-10.9334
饒州	-10.9334
之具	-10.9335
已定	-10.9335
所賜	-10.9336
倐忽	-10.9336
葉如	-10.9337
財物	-10.9343
神女	-10.9344
子敬	-10.9346
經宿	-10.9349
朝官	-10.9351
悵	-10.9354
子固	-10.9357
梁祖	-10.9359
爰有	-10.9362
嬪	-10.9366
則為	-10.9366
三萬	-10.9367
霹靂	-10.9367
泓	-10.9367
大業	-10.9368
一目	-10.9368
遘	-10.937
院中	-10.9371
崔公	-10.9372
騾	-10.9372
羨	-10.9375
恰	-10.9378
踞	-10.9378
苟	-10.938
壁上	-10.9381
謾	-10.9381
喝	-10.9381
稠	-10.9382
𡨕	-10.9382
潦	-10.9383
雲氣	-10.9384
秦檜	-10.9385
玊	-10.9386
南唐	-10.939
相如	-10.939
新語	-10.9391
經日	-10.9392
凡有	-10.9392
旬餘	-10.9393
修道	-10.9394
相近	-10.9395
兩手	-10.9396
李徳裕	-10.9396
晩年	-10.94
非是	-10.9401
覘	-10.9405
而巳	-10.9408
浮圖	-10.941
曰諾	-10.941
三郎	-10.9411
一子	-10.9411
是歲	-10.9415
之過	-10.9416
信宿	-10.9417
稱善	-10.9417
始皇	-10.9419
最為	-10.942
黄河	-10.942
疾病	-10.9421
赤水	-10.9422
道徳	-10.9423
之詩	-10.9425
登岸	-10.9426
劄子	-10.943
武子	-10.9435
唐末	-10.9435
胡僧	-10.9435
者甚衆	-10.9438
俊臣	-10.9441
為翰林學士	-10.9446
元符	-10.9447
注曰	-10.9447
懿宗	-10.9449
廬江	-10.945
知古	-10.945
之象	-10.9454
凡三	-10.9457
知微	-10.9458
草書	-10.9459
在西	-10.946
捕之	-10.9461
羲之	-10.9462
同在	-10.9462
畫工	-10.9464
近侍	-10.9464
丹青	-10.9469
恂	-10.9471
簽	-10.9476
兠	-10.9478
稹	-10.9478
笠	-10.9479
一曲	-10.9479
司馬温公	-10.9481
鑾	-10.9482
而致	-10.9482
澧	-10.9482
戩	-10.9484
逓	-10.9485
郤	-10.9485
鏗	-10.9485
夣	-10.9486
帔	-10.9486
羅漢	-10.9488
煜	-10.9489
再生	-10.9489
樂天	-10.949
訐	-10.949
大雪	-10.949
驥	-10.949
嚼	-10.9492
邅	-10.9492
閽者	-10.9492
衷	-10.9492
虺	-10.9493
渇	-10.9493
球	-10.9493
安可	-10.9493
頽	-10.9494
蔡元長	-10.9496
俘	-10.9496
陳郡	-10.9499
主事	-10.9499
此女	-10.95
應天	-10.95
乾坤	-10.9501
南宫	-10.9501
四字	-10.9501
不由	-10.9502
月明	-10.9503
秩滿	-10.9504
朱崖	-10.9505
一雙	-10.9506
忽覺	-10.9507
圉	-10.9512
與子	-10.9512
左右皆	-10.9514
保衡	-10.9514
在地	-10.9518
絲竹	-10.9519
計其	-10.952
必為	-10.9521
郭曰今	-10.9523
龍圖	-10.9529
器之	-10.9531
其二	-10.9531
莊子	-10.9532
斯須	-10.9532
分司	-10.9532
歐公	-10.9536
偕行	-10.9539
於路	-10.9539
以此為	-10.9541
而逝	-10.9544
曰何不	-10.9556
赴闕	-10.9557
昇天	-10.9559
字景	-10.9563
處厚	-10.9564
無草木	-10.9565
老母	-10.9566
當得	-10.9569
汝何	-10.9571
中堂	-10.9575
古文	-10.9578
及長	-10.9578
未甞	-10.9583
吳越	-10.959
兀	-10.9592
自當	-10.9593
時時	-10.9598
中正	-10.96
畆	-10.9601
禹錫	-10.9602
榛	-10.9603
圎	-10.9603
縣吏	-10.9603
鎔	-10.9603
蕙	-10.9604
珮	-10.9604
髣髴	-10.9604
幄	-10.9606
鈿	-10.9606
鷂	-10.9607
縶	-10.9608
之利	-10.9608
逋	-10.9609
後進	-10.9609
太平興國	-10.9609
李白	-10.9609
鼉	-10.961
摹	-10.961
瘠	-10.9611
外國	-10.9611
酹	-10.9612
喘	-10.9613
姝	-10.9615
稟	-10.9615
脇	-10.9616
桶	-10.9617
墓誌	-10.9617
紂	-10.9618
翕然	-10.9618
八人	-10.9618
記室	-10.962
地名	-10.9621
桓温	-10.9622
史館	-10.9627
各一	-10.9628
西門	-10.9628
厲聲	-10.9629
左僕射	-10.9629
同州	-10.963
越州	-10.9632
稱為	-10.9632
門户	-10.9635
中和	-10.964
彦博	-10.9644
曰余	-10.9647
詣闕	-10.9647
村民	-10.9649
不可復	-10.9652
逢一	-10.9653
上仙	-10.9657
侍女	-10.9657
至暮	-10.9658
其黨	-10.9659
竟無	-10.9661
夜則	-10.9663
曰此非	-10.9664
與弟	-10.9665
如生	-10.9668
元帝	-10.9668
走出	-10.9672
永興	-10.9674
驚喜	-10.9675
墮地	-10.9676
王莽	-10.9679
圖畫	-10.968
乆而	-10.968
有志	-10.9682
年四十	-10.9683
曹公	-10.9684
王仲	-10.9689
君家	-10.969
五百里	-10.969
無疑	-10.9692
亦不知	-10.9699
二十九	-10.97
宣王	-10.9701
尺許	-10.9702
二事	-10.9703
此皆	-10.9705
敢不	-10.9705
鬼物	-10.9706
善屬文	-10.9712
闕下	-10.9713
耐	-10.9714
家世	-10.9715
丕	-10.9719
始於	-10.9719
圜	-10.972
忩	-10.9721
笄	-10.9721
秃	-10.9721
杵	-10.9722
脛	-10.9723
扼	-10.9723
貟	-10.9724
佚	-10.9725
肚	-10.9727
峕	-10.9727
徼	-10.9728
眇	-10.9728
已為	-10.9729
白樂天	-10.9729
笈	-10.973
晝寢	-10.9731
洛水	-10.9732
虱	-10.9735
謂左右曰	-10.9735
悵然	-10.9735
太平廣記卷四百	-10.9736
翰苑	-10.9737
若有所	-10.9746
宦者	-10.975
亦非	-10.9752
廡下	-10.9752
某人	-10.9753
承嗣	-10.9754
守之	-10.9755
僚屬	-10.976
殿下	-10.976
以小	-10.9764
傳語	-10.9765
又為	-10.9767
延州	-10.9768
報云	-10.977
蒼頭	-10.977
惜哉	-10.9771
居民	-10.9771
八日	-10.9772
中山	-10.9774
後唐	-10.9779
臣案	-10.9784
遂入	-10.9785
曰郎君	-10.9786
都御史	-10.9787
數百里	-10.9788
如之何	-10.9788
縣東	-10.9799
地理	-10.9803
之論	-10.9811
客至	-10.9817
恐其	-10.9819
當死	-10.982
十許	-10.9822
其主	-10.9825
洵	-10.9829
岷	-10.9831
驚覺	-10.9831
蚌	-10.9834
頲	-10.9834
癘	-10.984
䦨	-10.9841
淳熈	-10.9842
不知也	-10.9843
縦	-10.9843
燼	-10.9843
瓢	-10.9844
其婦	-10.9844
嬉	-10.9844
盼	-10.9845
畱	-10.9845
址	-10.9845
大旱	-10.9847
膾	-10.9847
聞見	-10.9847
戢	-10.9847
繋	-10.9848
杪	-10.9848
匙	-10.9848
工部	-10.9851
元方	-10.9852
錢氏	-10.9853
二寸	-10.9853
鴉	-10.9854
小子	-10.9855
鴻漸	-10.9855
其腹	-10.9856
不預	-10.9857
文潞公	-10.9861
有道士	-10.9863
少孤	-10.9868
固有	-10.9871
直言	-10.9874
雷震	-10.9879
察之	-10.9879
直至	-10.988
後生	-10.9882
大醉	-10.9884
王介甫	-10.9889
河間	-10.9891
已成	-10.9892
亦不敢	-10.9894
别駕	-10.9895
因是	-10.9901
二卷	-10.9915
國在	-10.9917
存者	-10.9918
忘其	-10.9919
有巨	-10.9921
先朝	-10.9924
斯人	-10.9925
以次	-10.9927
狀貌	-10.9927
存亡	-10.9927
不返	-10.9928
其肉	-10.9929
悉皆	-10.9932
戊	-10.9934
二十日	-10.9935
科第	-10.9938
六經	-10.9939
而赤	-10.9942
之樂	-10.9943
予嘗	-10.9944
忻	-10.995
看之	-10.995
遊於	-10.9952
不到	-10.9953
汰	-10.9954
珏	-10.9957
覺而	-10.9957
臣等	-10.9959
椎	-10.9959
螭	-10.996
譁	-10.996
啄	-10.9961
偈	-10.9962
肘	-10.9962
河伯	-10.9962
倖	-10.9963
槃	-10.9964
持刀	-10.9965
攬	-10.9965
哂	-10.9966
河南尹	-10.9966
畵	-10.9966
俚	-10.997
訪其	-10.9971
齊名	-10.9971
迺	-10.9972
塋	-10.9972
與夫	-10.9973
覬	-10.9974
金剛經	-10.9974
鳶	-10.9974
幷	-10.9975
開府	-10.9976
仲淹	-10.9985
仆地	-10.999
園中	-10.9996
一尺	-10.9999
聲色	-11
所稱	-11
宗即位	-11.0003
安敢	-11.0003
乃復	-11.0005
長大	-11.0006
庚子	-11.0009
所獻	-11.0013
武徳	-11.0016
元禮	-11.0016
左手	-11.0021
比之	-11.0028
入宫	-11.0037
白首	-11.0038
徐氏	-11.0039
滄	-11.004
云昔	-11.0043
行數里	-11.0043
市井	-11.0046
其面	-11.0046
官爵	-11.0051
宣仁	-11.0051
素有	-11.0052
琯	-11.0055
百人	-11.0055
當年	-11.0056
華州	-11.0056
詣之	-11.0057
甚至	-11.0059
上殿	-11.0066
可否	-11.0067
汝輩	-11.0069
天官	-11.0069
入翰林	-11.0071
哈	-11.0073
戲之曰	-11.0074
一里	-11.0075
郡王	-11.0075
眺	-11.0076
北流注于	-11.0079
讒	-11.008
沽	-11.0081
形於	-11.0081
襦	-11.0083
諳	-11.0083
尖	-11.0084
莢	-11.0085
㩦	-11.0085
依舊	-11.0086
嗔	-11.0087
縉	-11.0087
最後	-11.0088
犒	-11.0088
腕	-11.0088
爼	-11.009
恐懼	-11.009
不語	-11.009
乃云	-11.009
壅	-11.009
燎	-11.0091
其價	-11.0093
雇	-11.0093
瑕	-11.0094
胃	-11.0094
執之	-11.0097
緫	-11.0097
范文正公	-11.0097
茹	-11.0098
芍藥	-11.0101
扣之	-11.0102
完顔	-11.0104
年八十	-11.0106
諫議	-11.0107
至曉	-11.011
某日	-11.011
往視之	-11.0112
逾年	-11.0113
朋友	-11.0116
數寸	-11.0121
山西	-11.0123
泗州	-11.0128
詞曰	-11.013
内官	-11.0131
更生	-11.0132
溫公	-11.0135
方得	-11.0141
無愧	-11.0143
是書	-11.0146
使相	-11.0146
尚書省	-11.0149
扶風	-11.0153
曰吾聞	-11.0155
遽命	-11.0156
方欲	-11.0157
建州	-11.0158
世俗	-11.016
者謂之	-11.0163
司命	-11.0174
三字	-11.0177
亦甚	-11.0179
繼之	-11.018
王府	-11.0181
西海	-11.0181
親故	-11.0184
諸州	-11.0185
相善	-11.0187
乞食	-11.0189
我今	-11.0194
曰僕	-11.0195
羿	-11.0197
蚩尤	-11.0199
鯀	-11.02
與公	-11.02
隲	-11.0202
梗	-11.0204
草中	-11.0204
國夫人	-11.0204
不孝	-11.0204
閙	-11.0204
濱	-11.0205
新羅	-11.0206
於野	-11.0207
一無所	-11.0207
斷其	-11.0208
箔	-11.0208
可食	-11.021
㳂	-11.021
訝其	-11.0211
寰	-11.0211
咫尺	-11.0211
澈	-11.0212
㢠廻	-11.0212
柘	-11.0212
傍有	-11.0213
觔	-11.0213
鎰	-11.0213
鷰	-11.0215
紇	-11.0216
果如	-11.0217
唐太宗	-11.0221
弇	-11.0222
不待	-11.0226
晉書曰	-11.0226
所傳	-11.0227
從弟	-11.0228
遂去	-11.0229
安仁	-11.0229
東京	-11.0231
案上	-11.0235
縣官	-11.0238
經義	-11.0239
流落	-11.0239
莊宗	-11.0241
異哉	-11.0241
可憐	-11.0242
終身不	-11.0245
大水	-11.0247
拂衣	-11.0247
詩人	-11.0247
行事	-11.0248
器物	-11.025
無餘	-11.0253
水陸	-11.0259
聖㫖	-11.0262
每見	-11.0263
時在	-11.0264
相率	-11.0265
見鬼	-11.0266
齊王	-11.027
既畢	-11.0277
飛鳥	-11.028
因言	-11.0281
青龍	-11.0284
而寤	-11.0284
金紫	-11.0287
登舟	-11.0288
北兵	-11.0296
哭聲	-11.0297
一品	-11.0297
樂工	-11.0306
六百	-11.0308
考功	-11.031
命駕	-11.0312
百家	-11.0313
亦是	-11.0316
樞密	-11.0317
入地	-11.0317
而過	-11.0318
山頂	-11.0318
後當	-11.0319
安世	-11.0321
禹偁	-11.0321
塼	-11.0326
肴	-11.0326
且言	-11.0326
錢唐	-11.0327
湊	-11.0327
六合	-11.0329
覇	-11.033
駝	-11.033
其功	-11.033
貞觀中	-11.0331
嬖	-11.0332
害人	-11.0332
迓	-11.0333
黯	-11.0333
慷慨	-11.0334
峩	-11.0335
廐	-11.0335
立祠	-11.0336
者惟	-11.0336
至其家	-11.0337
不減	-11.0338
瓦礫	-11.0338
琅邪	-11.0339
太真	-11.0339
渝	-11.0339
一隻	-11.034
鏹	-11.0341
萇	-11.0342
沙彌	-11.0347
十六年	-11.0348
放還	-11.0348
怒而	-11.0348
用心	-11.0349
四郎	-11.0349
十八年	-11.035
不懌	-11.0355
范公	-11.0355
將士	-11.0357
景祐	-11.0359
桃李	-11.036
待詔	-11.0362
韓氏	-11.0362
而視之	-11.037
羅浮	-11.0378
不見其	-11.0378
記得	-11.0378
及期	-11.0379
年中	-11.0384
城北	-11.0384
不拜	-11.0387
吏部郎	-11.0391
廣南	-11.0392
凡人	-11.0392
七十二	-11.0392
不克	-11.0399
進用	-11.0403
王君	-11.0403
墜地	-11.0404
復問	-11.0404
隴西	-11.0404
累官	-11.041
△	-11.0417
惜其	-11.0418
上林	-11.0418
之職	-11.042
相視	-11.0429
華亭	-11.0433
舊有	-11.0434
龍虎	-11.0436
崔生	-11.0437
安期	-11.0438
能致	-11.0438
敢言	-11.0441
驚走	-11.0444
云君	-11.0446
司户	-11.0447
興元	-11.0453
挹	-11.0455
蒿	-11.0457
曼卿	-11.0457
忠孝	-11.0458
箴	-11.0458
殿中侍御史	-11.0459
麫	-11.046
嫡	-11.0461
兾	-11.0462
叫	-11.0462
騁	-11.0462
觀世音	-11.0463
猜	-11.0463
臼	-11.0463
相望	-11.0464
蔡州	-11.0464
吐蕃	-11.0464
妻孥	-11.0465
既得	-11.0466
太上皇	-11.0467
愬	-11.0468
竟不能	-11.0469
鯉魚	-11.0469
甚詳	-11.047
邏	-11.0471
惡其	-11.0471
將死	-11.0471
麵	-11.0473
不便	-11.0473
麞	-11.0473
神氣	-11.0476
咸通中	-11.048
京尹	-11.0481
亦不可	-11.0482
大年	-11.0485
此意	-11.0486
之靈	-11.0487
一舉	-11.0488
第十	-11.0493
女壻	-11.0493
罵曰	-11.0493
𨼆居	-11.0497
相接	-11.0497
威儀	-11.0498
台州	-11.0499
來年	-11.0502
否曰	-11.0502
大父	-11.0502
送還	-11.0503
可致	-11.0503
蘭亭	-11.0505
嘗因	-11.0505
柰何	-11.0506
常山	-11.0506
所宜	-11.0508
如期	-11.0508
解之	-11.0508
奏云	-11.0509
於天下	-11.051
一處	-11.0513
反覆	-11.0515
食訖	-11.0517
其半	-11.0519
因出	-11.052
許公	-11.052
乃遣	-11.0522
中朝	-11.0523
燕公	-11.0527
無能	-11.053
平甫	-11.0533
殆盡	-11.0534
吳人	-11.0535
日已	-11.0538
大同	-11.0543
可用	-11.0543
官司	-11.0544
詔書	-11.0551
悚	-11.0556
休復	-11.0556
戸部	-11.056
僖宗	-11.0561
百嵗	-11.0565
惻	-11.0566
樹上	-11.0566
𦙍	-11.0571
馥	-11.0577
所藏	-11.0577
朝堂	-11.0577
有赤	-11.0578
綘	-11.0581
墀	-11.0581
縉紳	-11.0584
茅山	-11.0584
吉州	-11.0585
者雖	-11.0586
槎	-11.0586
隗	-11.0586
啗	-11.0587
関	-11.0587
云汝	-11.0587
装	-11.0587
闘	-11.0587
積薪	-11.0589
翥	-11.0589
鳳凰	-11.0589
瓮	-11.0589
何罪	-11.059
痩	-11.059
朱泚	-11.0591
儁	-11.0593
檀越	-11.0593
麓	-11.0594
僧道	-11.0594
顏	-11.0594
獲一	-11.0595
法華經	-11.0595
九州	-11.0595
肩輿	-11.0595
㗖	-11.0596
其妙	-11.0597
顙	-11.0597
儕	-11.06
走入	-11.0601
御史臺	-11.0601
萬嵗	-11.0602
猗	-11.0602
數千人	-11.0608
自得	-11.0609
酒饌	-11.0613
英雄	-11.0614
髙下	-11.0615
佛像	-11.0618
閒居	-11.0619
百尺	-11.062
成功	-11.0622
今欲	-11.0624
杜牧	-11.0626
正直	-11.0628
應聲曰	-11.0633
形容	-11.0639
金錢	-11.064
頷	-11.0644
兩制	-11.0645
黄州	-11.0646
肖	-11.0647
表云	-11.0647
桃花	-11.0651
婺州	-11.0652
上都	-11.0653
天綱	-11.0653
文惠	-11.0654
素與	-11.0658
别見	-11.0661
八十里	-11.0662
日日	-11.0669
數嵗	-11.067
崑	-11.0671
中流	-11.0672
夜深	-11.0677
大明	-11.0677
人咸	-11.0682
夜行	-11.0693
一斗	-11.0696
百餘年	-11.0698
軍事	-11.0699
報應	-11.07
左傳	-11.0702
已失	-11.0703
咏	-11.0707
章獻	-11.0707
訶	-11.0708
醖	-11.071
扆	-11.071
蟾	-11.0712
之期	-11.0712
名字	-11.0712
溺死	-11.0712
蔡邕	-11.0713
栽	-11.0713
不逮	-11.0713
拉	-11.0714
功德	-11.0714
作樂	-11.0715
歘	-11.0716
異時	-11.0716
趂	-11.0716
寗	-11.0717
鷺	-11.0717
盌	-11.0717
緇	-11.0719
敲	-11.0719
苛	-11.072
蛻	-11.072
隕	-11.072
腴	-11.0723
珊瑚	-11.0724
詩賦	-11.0724
以遺	-11.0724
姓字	-11.0725
吃	-11.0726
能詩	-11.0727
飭	-11.0727
惶懼	-11.0729
芥	-11.073
終南山	-11.0731
欽定四庫全書太平廣記卷四百	-11.0735
唐李	-11.0735
不亦	-11.0736
乾元	-11.0736
野狐	-11.0739
天地之	-11.0739
解衣	-11.074
告之曰	-11.0741
山上有	-11.0749
之末	-11.075
林木	-11.0751
先祖	-11.0756
河水	-11.0756
僉事	-11.0762
山陽	-11.0764
醫者	-11.0767
詩文	-11.0769
牛馬	-11.077
又夢	-11.077
光彩	-11.0779
往還	-11.078
皇太后	-11.0781
過此	-11.0782
神廟	-11.0784
始終	-11.0786
詩話	-11.0789
入海	-11.0789
拜之	-11.0791
里正	-11.0793
年六十	-11.0796
書記	-11.0797
一巨	-11.08
年三十	-11.0803
北面	-11.0805
北山	-11.0805
白頭	-11.0807
後月餘	-11.0811
臨江	-11.0813
置于	-11.0815
西蜀	-11.082
故老	-11.0831
子美	-11.0831
洞中	-11.0835
分為	-11.0835
小女	-11.0835
形貌	-11.0837
箋	-11.0842
瑄	-11.0844
飡	-11.0844
嵇	-11.0845
聼	-11.0845
馨	-11.0847
豬	-11.0848
疽	-11.0848
弭	-11.0849
术	-11.0849
撾	-11.0849
暄	-11.0849
糟	-11.085
踣	-11.0851
鎗	-11.0852
塑	-11.0853
亦嘗	-11.0853
論事	-11.0854
鳯凰	-11.0854
禽獸	-11.0855
誑	-11.0855
元祐中	-11.0857
寂然	-11.0859
継	-11.0859
件	-11.0859
𢃄	-11.0861
燈燭	-11.0862
知貢舉	-11.0862
風雷	-11.0865
艮	-11.0866
云爾	-11.0867
造化	-11.0876
詹事	-11.0878
大樹	-11.0879
香火	-11.0882
雲雨	-11.089
先後	-11.0899
遂不復	-11.09
德宗	-11.0902
集賢	-11.0903
還至	-11.0904
惜之	-11.0905
躍出	-11.0909
腹心	-11.0913
史官	-11.0914
天聖	-11.0915
此輩	-11.0915
朝臣	-11.0921
亡後	-11.0922
投於	-11.0923
吾今	-11.0923
處之	-11.0927
所重	-11.0929
耳今	-11.093
必須	-11.0935
玉帶	-11.0936
華陽	-11.0938
事畢	-11.094
以為然	-11.0942
中立	-11.0946
青城	-11.0946
嘗作	-11.0947
一角	-11.0951
未足	-11.0954
儒者	-11.0954
入禁中	-11.0957
一首	-11.0957
江上	-11.096
凡所	-11.0963
鄧州	-11.0963
是誰	-11.0964
輔國	-11.0965
九齡	-11.0968
瑟	-11.0968
年九月	-11.0969
語林卷	-11.0971
欲求	-11.0972
駞	-11.0972
獨處	-11.0972
並無	-11.0973
盥	-11.0975
有鳥焉其狀如	-11.0975
咒	-11.0976
歐陽文忠公	-11.0978
景文	-11.0978
晞	-11.0978
冉	-11.0979
冀州	-11.0979
岫	-11.0979
暦	-11.0979
鴻臚	-11.098
巡檢	-11.098
薫	-11.0981
捍	-11.0982
遑	-11.0982
冤	-11.0982
汭	-11.0982
醪	-11.0983
暈	-11.0983
麒麟	-11.0983
閫	-11.0984
蔑	-11.0984
即今	-11.0984
扃	-11.0985
帳中	-11.0985
鬼也	-11.0986
芸	-11.0987
卉	-11.0987
黄門侍郎	-11.0987
兵部尚書	-11.0988
晡	-11.0988
校書郎	-11.0989
廊廟	-11.0989
穹	-11.099
櫻桃	-11.0992
虫	-11.0992
武臣	-11.0992
天道	-11.0993
鹽鐵	-11.0994
叟曰	-11.0998
手執	-11.0999
下車	-11.1001
莫測	-11.1002
邦昌	-11.1004
不倦	-11.101
登庸	-11.101
御製	-11.1012
楊慎	-11.1014
服藥	-11.1016
臨海	-11.1024
臺諫	-11.1027
稽首	-11.1033
八座	-11.1035
梁上	-11.1039
被誅	-11.1042
袖中	-11.1044
惠卿	-11.1044
秋風	-11.1054
是何人	-11.1054
無用	-11.1058
堯臣	-11.1059
遼東	-11.1059
賢良	-11.1062
昭王	-11.1063
婺	-11.1063
立廟	-11.107
盛事	-11.1074
血流	-11.1076
顧左右	-11.1079
𫝊曰	-11.1079
左氏	-11.108
尊號	-11.1081
字彦	-11.1081
至期	-11.1083
象先	-11.1083
往往有	-11.1084
八分	-11.1089
萬貫	-11.1095
其上有	-11.1099
建昌	-11.11
旺	-11.11
東有	-11.11
尤為	-11.1101
彚	-11.1102
丁謂	-11.1103
得志	-11.1108
處置	-11.1108
不變	-11.111
坂	-11.111
堊	-11.1113
諂	-11.1113
繕	-11.1113
煒	-11.1113
雜事之屬	-11.1113
鬟	-11.1114
奏聞	-11.1114
剽	-11.1115
兢	-11.1117
殖	-11.1117
逡廵	-11.1118
罷去	-11.1118
宫室	-11.1118
瘴	-11.1119
敇	-11.1119
同僚	-11.1121
一粒	-11.1121
餽	-11.1121
賃	-11.1121
天性	-11.1124
筍	-11.1125
錦繡	-11.1126
巒	-11.1126
祈禱	-11.1126
禮部尚書	-11.1126
十千	-11.1126
孫氏	-11.1127
甜	-11.1127
冗	-11.1128
置一	-11.1128
非常人	-11.1128
釜	-11.1129
韓退之	-11.1129
昕	-11.1131
甦	-11.1131
淘	-11.1131
帝命	-11.1132
孔雀	-11.1132
跳躍	-11.1132
而問之	-11.1137
穎士	-11.1137
直上	-11.1137
熹	-11.1139
知縣	-11.1142
雲霧	-11.1144
五十餘	-11.1145
歹	-11.1147
甚惡之	-11.1147
白虎	-11.1149
隱居	-11.1152
元吉	-11.1152
金色	-11.1153
一寸	-11.1155
誤也	-11.116
入洛	-11.1163
富家	-11.1163
嶺外	-11.1165
王戎	-11.1168
譏之	-11.1169
于朝	-11.1169
金帶	-11.1171
寸許	-11.1172
十九年	-11.1175
禮拜	-11.1176
不拘	-11.1177
討之	-11.118
火燒	-11.118
諸客	-11.1181
汝州	-11.1181
陽城	-11.1191
裴度	-11.1191
制科	-11.1191
祀之	-11.1192
潞州	-11.1209
其側	-11.1213
子女	-11.1213
真卿	-11.1218
潔白	-11.1221
一絶	-11.1225
君子之	-11.1229
本名	-11.1231
銘曰	-11.1234
東風	-11.1237
今世	-11.1241
吕公	-11.1241
行止	-11.1244
深入	-11.1246
婿	-11.1247
鋸	-11.1247
断	-11.1248
聖主	-11.1248
其宅	-11.1249
十五里	-11.125
為政	-11.125
廙	-11.1251
穆天子傳	-11.1251
葫蘆	-11.1252
刺之	-11.1252
皋	-11.1252
視之則	-11.1252
廖	-11.1254
郡中	-11.1254
愽	-11.1256
逈	-11.1256
昆弟	-11.1258
跣	-11.1259
不第	-11.1259
必是	-11.126
丁晉公	-11.1261
瑰	-11.1262
獺	-11.1263
青鳥	-11.1263
非吾	-11.1264
二里	-11.1264
冐	-11.1267
北歸	-11.1267
雹	-11.1267
以罪	-11.1269
始末	-11.1271
二百餘	-11.1274
年七月	-11.1284
猛獸	-11.1286
畧無	-11.1287
花木	-11.129
軍人	-11.1294
來迎	-11.1295
修撰	-11.1295
不自安	-11.1296
無雙	-11.13
三軍	-11.1303
其旁	-11.1303
之年	-11.1309
果見	-11.1311
士良	-11.1312
問訊	-11.1314
至尊	-11.1315
食肉	-11.1316
村落	-11.1316
率皆	-11.132
題其	-11.1338
良久乃	-11.1346
公弼	-11.1349
四明	-11.1349
二府	-11.1354
乃引	-11.1358
陸費墀欽定四庫全書	-11.136
不能得	-11.1364
豈無	-11.1366
訝之	-11.1373
正當	-11.1382
笑曰此	-11.1382
汀	-11.1384
舫	-11.1384
蒼梧	-11.1385
隄	-11.1385
麝	-11.1386
賭	-11.1386
滉	-11.1387
謩	-11.1388
麋	-11.139
趾	-11.1391
揣	-11.1391
硬	-11.1391
鴆	-11.1393
涌	-11.1393
徇	-11.1393
國忠	-11.1393
太常博士	-11.1394
錮	-11.1395
絛	-11.1395
隳	-11.1396
水銀	-11.1396
翦	-11.1397
嵐	-11.1397
嘶	-11.1397
曦	-11.14
鉛	-11.14
匈奴	-11.1404
手持	-11.1406
筆硯	-11.1409
登極	-11.1411
晦叔	-11.1417
迄今	-11.1417
科舉	-11.1417
許諾	-11.1421
千百	-11.1424
多士	-11.1426
不衰	-11.1431
吏卒	-11.1433
能知	-11.1433
嘗語	-11.1434
不離	-11.1437
已亡	-11.1438
岸上	-11.145
到此	-11.1453
可知矣	-11.1455
而斃	-11.1455
土木	-11.1455
三嵗	-11.1459
而遣之	-11.1459
欲取	-11.1465
謂曰汝	-11.1472
錢帛	-11.1473
二十一	-11.1475
但言	-11.1476
臣下	-11.1477
不悟	-11.1477
甚偉	-11.1478
晉卿	-11.1481
儒學	-11.1485
宅中	-11.1486
故得	-11.1488
第六	-11.1489
不誣	-11.1492
或以為	-11.1496
海陵	-11.1498
浹	-11.1503
長短	-11.1507
才學	-11.1507
必得	-11.1508
太和中	-11.1509
死罪	-11.151
楚州	-11.1512
在翰林	-11.1514
何異	-11.1516
省試	-11.1519
曾祖	-11.1521
有婦人	-11.1523
流俗	-11.1523
自隨	-11.1524
樗	-11.1527
簒	-11.1528
其陰多	-11.1528
賑	-11.153
經營	-11.153
瞑目	-11.1532
娃	-11.1533
者是也	-11.1534
曝	-11.1534
熒	-11.1534
泝	-11.1534
竝	-11.1534
埃	-11.1535
梢	-11.1535
鋤	-11.1535
庾公	-11.1536
右手	-11.154
昌言	-11.1541
糾	-11.1542
惶恐	-11.1543
錐	-11.1543
甚異	-11.1543
天意	-11.1544
退居	-11.1545
俯伏	-11.1545
牕	-11.1546
緝	-11.1547
桀	-11.1547
㕘軍	-11.1548
吕氏	-11.1551
終始	-11.1553
知己	-11.1558
非人間	-11.1558
三司使	-11.1568
學士院	-11.1573
鴈門	-11.1576
所造	-11.1579
以杖	-11.1582
元豐中	-11.1584
靈武	-11.1586
都堂	-11.1588
儒生	-11.1588
不恱	-11.1596
東山	-11.16
安縣	-11.1601
召對	-11.1602
二十萬	-11.1603
評事	-11.1603
留心	-11.1603
留意	-11.1606
恩澤	-11.1609
三分	-11.1611
誤矣	-11.1611
少尹	-11.1614
石頭	-11.1615
信州	-11.1626
遁去	-11.1627
人倫	-11.1628
累月	-11.1631
水其中多	-11.1634
國獻	-11.1635
安定	-11.1636
同日	-11.1637
議者以	-11.1638
女嫁	-11.164
在其中	-11.1641
奏上	-11.1644
及曉	-11.165
同郡	-11.1651
舒州	-11.1652
宫闕	-11.1655
其族	-11.1661
夜光	-11.1663
但聞	-11.1665
不數日	-11.1667
襆	-11.1668
帆	-11.1669
贑	-11.1669
其草多	-11.167
溷	-11.1675
物色	-11.1675
瀟	-11.1678
擠	-11.1678
碣	-11.1678
暹	-11.1678
甚善	-11.1679
鈍	-11.168
撮	-11.168
文簡	-11.1681
蹲	-11.1681
朱門	-11.1681
麴	-11.1681
祝融	-11.1686
中書舎人	-11.1687
秦始皇	-11.1687
嵓	-11.1688
聮	-11.1688
旌旗	-11.1689
廸	-11.169
丹砂	-11.1692
錄事	-11.1693
楯	-11.1693
茲	-11.1694
巫山	-11.1698
成帝	-11.1701
揚雄	-11.1702
之弊	-11.1703
京兆府	-11.1703
兩浙	-11.1704
數十步	-11.1706
藏於	-11.171
每嵗	-11.171
少游	-11.1711
文集	-11.1714
年九十	-11.1717
屋宇	-11.1717
七十餘	-11.1719
舉兵	-11.1723
室内	-11.173
黄色	-11.1731
文辭	-11.1731
堯夫	-11.1733
數倍	-11.1734
山甫	-11.1738
獄中	-11.1738
永叔	-11.1739
名氏	-11.1743
堂下	-11.1744
郭氏	-11.1744
左遷	-11.1747
萬緡	-11.1753
相國寺	-11.1754
飾以	-11.1757
俗謂之	-11.1764
未暇	-11.1771
臣僚	-11.1773
車中	-11.1776
將帥	-11.1779
無功	-11.178
不寐	-11.178
職事	-11.1781
不曾	-11.1788
一種	-11.1789
長揖	-11.1789
上章	-11.1789
崇文	-11.1789
所撰	-11.1793
顔子	-11.1793
孫權	-11.1793
伯玉	-11.1794
京官	-11.1795
京都	-11.1796
視之見	-11.1803
天祐	-11.1804
中有人	-11.1804
小舟	-11.1807
下筆	-11.1812
杻	-11.1813
腊	-11.1814
避地	-11.1815
太極	-11.1816
雍州	-11.1816
苞	-11.1817
僕夫	-11.1817
叅知政事	-11.1817
武功	-11.1818
闥	-11.1819
剌	-11.182
讜	-11.182
幞頭	-11.182
殽	-11.1821
涪	-11.1821
巫者	-11.1822
撞	-11.1822
无	-11.1825
彫	-11.1825
轎	-11.1826
瞰	-11.1826
樞密使	-11.1827
壬辰	-11.1827
酧	-11.1827
俎	-11.1828
鮓	-11.1829
睹	-11.183
袈裟	-11.183
糊	-11.1831
可取	-11.1834
紆	-11.1834
迸	-11.1835
太常卿	-11.1843
遲明	-11.1844
言笑	-11.1845
艱難	-11.1846
三足	-11.1848
具陳	-11.185
辭謝	-11.185
議事	-11.185
穆王	-11.185
思邈	-11.1851
武侯	-11.1853
紫色	-11.1854
不啻	-11.1856
兄子	-11.1857
猶子	-11.1869
太湖	-11.1871
詞賦	-11.1878
時政	-11.1878
故謂之	-11.188
便可	-11.1885
一夕夢	-11.1887
圖書	-11.1896
神色	-11.1898
樓臺	-11.1898
不滿	-11.1913
俄見	-11.1914
學生	-11.1914
城内	-11.1915
始悟	-11.1918
慶厯中	-11.1919
病卒	-11.1924
至一處	-11.193
卜者	-11.1931
北斗	-11.1938
闐	-11.194
禆	-11.1943
百歩	-11.1947
我何	-11.195
玉環	-11.1953
南流注于	-11.1955
㸑	-11.1956
林公	-11.1958
抃	-11.1962
晃	-11.1963
璣	-11.1963
殃	-11.1964
窗	-11.1964
雄黄	-11.1964
謳	-11.1964
著述	-11.1965
涿	-11.1967
組	-11.1967
薑	-11.1967
搢紳	-11.1967
不知何許人	-11.1967
先輩	-11.1969
瘳	-11.197
黷	-11.197
春夏	-11.197
訊之	-11.197
臍	-11.1971
龐	-11.1971
僵	-11.1972
嘔	-11.1972
譎	-11.1973
鈐轄	-11.1973
睢陽	-11.1973
倨	-11.1974
矧	-11.1974
槌	-11.1974
薩	-11.1974
雱	-11.1975
謠	-11.1975
𫀆	-11.1975
楊國忠	-11.1975
聿	-11.1976
驍	-11.1977
繹	-11.1978
給使	-11.1978
洛下	-11.1979
蝦蟇	-11.198
親知	-11.1981
蝕	-11.1981
苕	-11.1984
南遷	-11.1986
而殺之	-11.1987
覩其	-11.1994
囊中	-11.1996
舅姑	-11.2004
當路	-11.2006
騎馬	-11.201
父兄	-11.2011
鄂州	-11.2013
信然	-11.2015
出逸	-11.2016
進呈	-11.2017
光照	-11.2017
顧視	-11.2023
将軍	-11.2024
行於世	-11.2027
天順	-11.2031
七尺	-11.2033
所説	-11.2034
精妙	-11.2035
相報	-11.2036
智興	-11.2036
其㫖	-11.2037
内府	-11.2037
九尺	-11.2039
問左右	-11.2043
執手	-11.2046
近年	-11.2048
君房	-11.205
三思	-11.205
昔人	-11.205
恐是	-11.2051
某官	-11.2051
保安	-11.2052
辟為	-11.2054
閤下	-11.2055
劉尹	-11.2057
四十餘	-11.2059
冀公	-11.2063
竟不知	-11.2066
公私	-11.2069
赴任	-11.207
來往	-11.207
崖州	-11.2071
卷三	-11.2073
遂止	-11.2079
張口	-11.2083
景龍	-11.2086
他處	-11.2086
禹玉	-11.2089
赴舉	-11.2091
瘞之	-11.2094
與俱	-11.2098
青山	-11.2101
鏐	-11.2103
襄州	-11.2104
勺	-11.2108
太公	-11.2108
値	-11.2111
狄仁傑	-11.2111
三十二	-11.2112
褊	-11.2112
未竟	-11.2113
頡	-11.2114
每遇	-11.2114
粘	-11.2115
無計	-11.2115
黄庭	-11.2116
著作	-11.2116
所畫	-11.2117
鶉	-11.2118
蘂	-11.2118
鍼	-11.2119
州長史	-11.2119
呻吟	-11.2119
舛	-11.2119
潯陽	-11.212
溉	-11.2121
䏻	-11.2123
杓	-11.2123
甃	-11.2123
聦	-11.2124
鵬舉	-11.2125
躋	-11.2125
干戈	-11.2125
靳	-11.2128
假寐	-11.2129
翰墨	-11.2131
菱	-11.2131
義理	-11.2133
逺方	-11.2133
文敏	-11.2135
聖朝	-11.2136
諸郡	-11.2143
趙普	-11.2145
甲午	-11.2147
何能	-11.215
老嫗	-11.2155
既寤	-11.2155
歸朝	-11.2155
不能言	-11.2156
梁武帝	-11.2157
吹笛	-11.2158
姿色	-11.2158
委曲	-11.216
固請	-11.2162
單衣	-11.2163
韋公	-11.2166
忽遇	-11.2167
葉似	-11.217
梅花	-11.2172
羣僧	-11.2173
王右軍	-11.2177
文度	-11.2179
弟兄	-11.2179
魏王	-11.2184
叩門	-11.2187
中選	-11.219
昭陵	-11.2196
百斤	-11.2197
願陛下	-11.2199
百六十	-11.2199
汲水	-11.2199
岐王	-11.2202
忽不見	-11.2202
同歸	-11.2204
神靈	-11.221
形勢	-11.2214
太僕	-11.2214
殿試	-11.2224
水經	-11.2224
水精	-11.2224
數千里	-11.2231
親舊	-11.2234
祥符	-11.224
官屬	-11.2241
譬	-11.2241
貯之	-11.2243
效之	-11.2245
不息	-11.2245
江山	-11.2246
声	-11.2248
所愛	-11.2248
斐	-11.225
寸餘	-11.2252
茫	-11.2252
屋上	-11.2253
鼓吹	-11.2254
唐詩紀事曰	-11.2257
何謂	-11.2261
公侯	-11.2263
孝經	-11.2264
椅	-11.2264
紫雲	-11.2264
美女	-11.2266
剔	-11.2267
持金剛經	-11.2268
蓍	-11.2268
康節先公	-11.2269
冉冉	-11.2269
堯佐	-11.2269
欒	-11.2271
癖	-11.2271
褰	-11.2271
諸賢	-11.2272
庚辰	-11.2273
貟外	-11.2274
璆	-11.2274
弛	-11.2274
湍	-11.2274
峨	-11.2274
五丈	-11.2275
不仕	-11.2275
羯	-11.2275
塵埃	-11.2276
成化	-11.2277
熖	-11.2277
柯古	-11.2278
棚	-11.2279
求救	-11.228
懶	-11.228
宋璟	-11.2282
潞	-11.2282
無差	-11.2285
庚申	-11.2286
甲辰	-11.2287
定州	-11.2288
松栢	-11.2291
殷勤	-11.2291
姿容	-11.2291
忻然	-11.2292
祭祀	-11.2293
未免	-11.2293
物故	-11.2297
希夷	-11.2298
晨起	-11.23
謝安	-11.2305
歴歴	-11.2308
金華	-11.2309
領軍	-11.231
從兄	-11.231
休璟	-11.231
武士	-11.2314
徑入	-11.2319
次年	-11.2326
驪山	-11.2327
眞宗	-11.2328
嗟乎	-11.2329
神祠	-11.2333
延英	-11.2341
英公	-11.2341
獲罪	-11.2344
積石	-11.2345
河西	-11.235
佛殿	-11.2355
鎮江	-11.2357
以為異	-11.2358
絶倒	-11.2359
命酒	-11.236
手詔	-11.2365
不朽	-11.2371
昔年	-11.2376
其傍	-11.2381
鄆	-11.2382
火光	-11.2383
部員外	-11.2384
髙士	-11.2385
石壁	-11.2391
軍民	-11.2392
徐徐	-11.2396
歎其	-11.2397
東川	-11.2398
于外	-11.24
大厯	-11.2404
右相	-11.2406
鼓琴	-11.2409
一紙	-11.241
少許	-11.241
栁氏	-11.241
佇	-11.2414
摯	-11.2418
斵	-11.2418
㪚	-11.2419
㐮	-11.2419
酪	-11.2419
涇原	-11.2419
糠	-11.242
押衙	-11.242
鯤	-11.2421
聯	-11.2422
紺	-11.2422
甚髙	-11.2424
位極人臣	-11.2424
夏月	-11.2424
無一人	-11.2425
譛	-11.2426
燾	-11.2426
傘	-11.2427
掉	-11.2427
溟	-11.2428
簟	-11.2428
周易	-11.2428
珥	-11.243
豢	-11.243
驂	-11.2431
南岳	-11.2431
彈琴	-11.2432
纏	-11.2432
酒肆	-11.2432
心痛	-11.2434
俄聞	-11.2434
蚊	-11.2434
童貫	-11.2435
蘇子瞻	-11.2436
孝亷	-11.2436
撫掌	-11.244
一代	-11.2443
竹林	-11.2445
受禪	-11.2447
漢陽	-11.2449
者多矣	-11.2451
通鑑	-11.2452
龍腦	-11.2453
宏詞	-11.2455
百九十	-11.2459
官制	-11.246
盧生	-11.2462
鄰里	-11.2462
按察	-11.2462
到官	-11.2464
焚其	-11.2465
牀前	-11.2468
衞公	-11.2471
忽有一人	-11.2472
號哭	-11.2477
明州	-11.2481
北征	-11.2482
班固	-11.2483
張易之	-11.2485
石榴	-11.2486
卷四	-11.2488
踰年	-11.2489
開元初	-11.2505
所須	-11.2519
舊事	-11.2524
驚問	-11.2531
楼	-11.2532
在側	-11.2534
都監	-11.2534
于庭	-11.2537
乾符	-11.2541
歡笑	-11.2541
盛徳	-11.2541
灌之	-11.2543
朝議	-11.2543
境内	-11.2545
邊事	-11.2546
十九日	-11.255
及覺	-11.2557
好古	-11.2558
共語	-11.2559
澳	-11.256
舄	-11.2566
即愈	-11.2567
背上	-11.2568
卿等	-11.2569
雒	-11.2569
題目	-11.2569
輻	-11.257
孜	-11.2572
墅	-11.2573
珉	-11.2573
自愛	-11.2576
聾	-11.2577
攪	-11.2577
諠	-11.2578
鷗	-11.2578
鄭州	-11.258
持正	-11.258
文忠公	-11.2581
劈	-11.2582
刳	-11.2582
盲	-11.2583
搗	-11.2583
殫	-11.2584
裨	-11.2584
諶	-11.2584
零陵	-11.2585
髀	-11.2586
蜃	-11.2586
團練	-11.2586
怙	-11.2586
拈	-11.2588
煞	-11.2591
秤	-11.2593
功業	-11.2597
仁軌	-11.2597
行省	-11.2597
水晶	-11.26
究其	-11.2601
盛暑	-11.2604
然有聲	-11.2612
所遇	-11.2612
庶人	-11.2616
出户	-11.2622
無辜	-11.2623
應對	-11.2624
百八十	-11.2625
誰能	-11.2626
山陵	-11.2633
無畏	-11.2633
半月	-11.2635
賣藥	-11.2635
仲文	-11.2638
軍容	-11.2638
人呼為	-11.2641
謀反	-11.2643
靈異	-11.2646
其父母	-11.2649
山河	-11.2651
勃然	-11.2652
貢父	-11.2654
不救	-11.2658
茂實	-11.266
妓女	-11.2664
在京師	-11.2668
建業	-11.2673
州牧	-11.2675
吳生	-11.268
真定	-11.2681
三丈	-11.2684
明堂	-11.2685
驪	-11.2687
舊本	-11.2692
至於此	-11.2705
徙居	-11.2711
齋戒	-11.2716
不允	-11.2718
今改	-11.2718
江表	-11.272
鮮于	-11.2724
謝恩	-11.2726
既覺	-11.2728
湼	-11.2733
佗	-11.2734
驃騎	-11.2734
嵇康	-11.2734
埽	-11.2736
盎	-11.2736
誓不	-11.2736
軼	-11.2738
拏	-11.2739
帚	-11.2739
裴晉公	-11.2739
斌	-11.2739
簇	-11.274
縞	-11.274
縻	-11.2741
神道碑	-11.2741
所願	-11.2742
絞	-11.2742
軻	-11.2743
哺	-11.2743
曰相公	-11.2743
卧内	-11.2743
如晝	-11.2745
喏	-11.2746
颺	-11.2747
捽	-11.2747
鑿齒	-11.2748
希烈	-11.2752
章子厚	-11.2752
兩朝	-11.2755
夜分	-11.2755
簿書	-11.2755
璹	-11.2756
囓	-11.2756
谷中	-11.2756
所從來	-11.2759
百丈	-11.2765
名之曰	-11.2766
他物	-11.277
于闐	-11.2771
亦謂之	-11.2772
圖經	-11.2774
宣諭	-11.2775
有士人	-11.2776
河南府	-11.2776
當是時	-11.2777
館閣	-11.2779
彼此	-11.2779
善畫	-11.2779
冠帶	-11.2782
閩中	-11.2786
貢院	-11.2787
驚歎	-11.279
娠	-11.2793
齊丘	-11.2794
矣於是	-11.2795
苑中	-11.2799
天監	-11.28
元和初	-11.28
滄海	-11.2802
登山	-11.2806
伯夷	-11.2807
紫微	-11.2808
不可測	-11.2809
丙子	-11.2809
撫州	-11.281
長一丈	-11.2813
太息	-11.2817
有一女	-11.282
舍利	-11.2825
敏求	-11.2826
引去	-11.2829
嘉祐中	-11.2833
八尺	-11.2838
宗正	-11.2844
所費	-11.2851
衡陽	-11.2855
於斯	-11.2855
奪其	-11.286
俄有一	-11.2865
覘之	-11.2869
石刻	-11.2877
洞天	-11.288
者莫不	-11.2883
夸	-11.2885
獄吏	-11.2888
船中	-11.2888
三十餘年	-11.2891
掬	-11.2893
猶能	-11.2894
汧	-11.2896
柞	-11.2896
風月	-11.2896
紱	-11.2897
覊	-11.2897
跛	-11.2897
蛾	-11.2897
蜀郡	-11.2897
魏志曰	-11.2898
不可勝數	-11.2898
恊	-11.2898
駟	-11.2899
寂寞	-11.29
峙	-11.2901
鶚	-11.2901
雞卵	-11.2901
牡	-11.2902
剃	-11.2902
廿	-11.2902
惰	-11.2903
悌	-11.2903
笋	-11.2904
毓	-11.2905
禕	-11.2905
踊	-11.2905
大呌	-11.2906
缶	-11.2908
朋黨	-11.2909
鑪	-11.2909
淮海	-11.291
弃	-11.2911
和氣	-11.2911
靑	-11.2912
蜘蛛	-11.2912
紹興中	-11.2912
加禮	-11.2917
兩京	-11.2917
年號	-11.292
姚崇	-11.2925
金甲	-11.2927
外甥	-11.2929
一箇	-11.2929
踰月	-11.2937
辛苦	-11.2937
設食	-11.2937
同舍	-11.2943
甘泉	-11.2946
景徳	-11.2947
採藥	-11.2948
出㝠	-11.2954
黄昏	-11.2954
女奴	-11.2954
入仕	-11.2955
東向	-11.2957
骸骨	-11.2964
羣玉	-11.2965
出盧氏	-11.2975
歳餘	-11.2983
八十餘	-11.2985
十六日	-11.2987
地仙	-11.2988
術數	-11.299
二百里	-11.299
以為不可	-11.299
忠獻	-11.2995
陳設	-11.2996
庶子	-11.2998
共工	-11.2999
有一物	-11.3011
甚苦	-11.3015
運使	-11.302
本傳	-11.3021
勝負	-11.3023
棄官	-11.3024
亦如之	-11.3024
悉是	-11.303
而不言	-11.3031
博物	-11.3042
欲殺之	-11.3043
事物紺珠	-11.3046
郵	-11.3049
慨	-11.3051
蹕	-11.3054
窣	-11.3056
鯁	-11.3057
有女子	-11.3057
䨇	-11.3057
褚	-11.3058
崟	-11.3059
鮫	-11.306
退朝	-11.3061
觥	-11.3062
彧	-11.3062
瀾	-11.3062
秪	-11.3062
净	-11.3063
㩀	-11.3064
嶮	-11.3064
淄	-11.3065
都賦	-11.3065
悪	-11.3065
狀元及第	-11.3065
夸父	-11.3065
崗	-11.3067
脆	-11.3067
拖	-11.3067
縝	-11.3068
上黨	-11.3068
瘧	-11.3069
晷	-11.3069
膩	-11.307
鸛	-11.307
囿	-11.3071
撼	-11.3071
别去	-11.3074
異聞	-11.3078
豔	-11.3078
查	-11.3079
俛首	-11.3081
主僧	-11.3083
詰旦	-11.3084
家富	-11.3085
無苦	-11.3085
恃才	-11.3085
者數四	-11.3086
慤	-11.3092
不審	-11.3094
百僚	-11.3095
未審	-11.3097
二千石	-11.3099
往視	-11.3101
百司	-11.3103
流汗	-11.3104
都統	-11.3107
降階	-11.3107
之士也	-11.3108
駕幸	-11.3109
黄衫	-11.3111
話録	-11.3112
祿山	-11.3114
君謨	-11.3118
東坡先生	-11.3121
竟日	-11.3125
意氣	-11.3125
汾陽	-11.3127
皇天	-11.3139
華麗	-11.3139
李嶠	-11.3141
所忌	-11.3142
死亡	-11.3146
邕州	-11.3147
沛國	-11.3148
頷之	-11.3152
許州	-11.3156
郡太守	-11.3157
百數	-11.3161
附㑹	-11.3162
四十八	-11.3162
偽蜀	-11.3163
城郭	-11.3164
浩然	-11.3166
奉命	-11.3167
景仁	-11.3175
東洛	-11.3178
世衡	-11.3181
在人間	-11.3184
閩人	-11.3184
出啓	-11.319
奏對	-11.3191
子姪	-11.3204
盛夏	-11.3205
司馬光	-11.3206
造次	-11.3211
首領	-11.3213
久之乃	-11.3215
滁州	-11.3217
叉	-11.3218
之山無草木多	-11.3223
離騷	-11.3223
刈	-11.3223
閎	-11.3224
永州	-11.3224
抹	-11.3224
悄	-11.3224
欝	-11.3225
户外	-11.3227
彎	-11.3227
睨	-11.3228
澁	-11.3228
每年	-11.3228
熏	-11.323
踴	-11.323
嵗月	-11.3231
榼	-11.3233
所部	-11.3233
綉	-11.3233
食之已	-11.3234
羅織	-11.3234
筌	-11.3234
䭾	-11.3234
䄂	-11.3235
貿	-11.3235
文選	-11.3236
秘閣	-11.3236
腋	-11.3237
瞬	-11.3238
襪	-11.3238
遣吏	-11.3238
率多	-11.3238
柬	-11.3239
幙	-11.3239
烽	-11.3239
閉户	-11.3239
芋	-11.3239
轉運	-11.324
噀	-11.324
慾	-11.324
科名	-11.3242
禁止	-11.3243
歌詩	-11.3244
張九齡	-11.3245
池州	-11.3247
放牓	-11.3249
庾亮	-11.3251
神考	-11.3251
差遣	-11.3256
建隆	-11.3259
緑衣	-11.326
好竒	-11.3264
令左右	-11.3269
數升	-11.3272
畫地	-11.3277
廷試	-11.3278
遙見	-11.3281
尤善	-11.3281
侍衛	-11.3282
嘉定	-11.3284
好酒	-11.329
延夀	-11.3298
經筵	-11.33
不能對	-11.3304
五月五日	-11.3306
楊栁	-11.3307
後三日	-11.3307
勿令	-11.3314
昌宗	-11.332
惜乎	-11.3323
咨嗟	-11.3327
三里	-11.3329
尤精	-11.3329
三藏	-11.333
朱紫	-11.333
侍兒	-11.3341
對上	-11.3349
縣界	-11.3349
昇平	-11.3351
柰	-11.336
衢州	-11.3365
十七日	-11.3374
怪録	-11.3378
琅玕	-11.338
元章	-11.338
勿復	-11.3386
太平廣記	-11.3387
氐	-11.339
彦伯	-11.339
草草	-11.3392
澶淵	-11.3392
夐	-11.3392
愠	-11.3395
白居易	-11.3397
蝟	-11.3397
瑛	-11.3398
赧	-11.3399
㟁	-11.3399
鍤	-11.34
擇日	-11.34
訕	-11.34
㓙	-11.34
登進士第	-11.34
韭	-11.34
樸	-11.3401
紈	-11.3402
欹	-11.3402
怏怏	-11.3402
著作郎	-11.3403
藩邸	-11.3405
荆棘	-11.3406
婚姻	-11.3406
銖	-11.3407
懾	-11.3408
飴	-11.3408
吟詩	-11.3409
遯	-11.341
都指揮使	-11.3411
耄	-11.3412
未識	-11.3414
太乙	-11.3415
外孫	-11.3416
渚宫	-11.3416
陲	-11.3418
宗閔	-11.3419
無慮	-11.3421
惻然	-11.3425
容止	-11.3426
汝等	-11.3427
廣西	-11.3429
封禪	-11.3432
仲堪	-11.3432
丞郎	-11.3432
陸氏	-11.3437
長數尺	-11.3438
餘姚	-11.3439
杜甫	-11.344
月十五日	-11.3441
長嘯	-11.3443
義士	-11.3443
果卒	-11.3443
祖母	-11.3444
中央	-11.3447
暴雨	-11.345
忘其名	-11.3454
入覲	-11.3456
交通	-11.3456
之力也	-11.3458
任氏	-11.3459
參議	-11.346
眉目	-11.3465
開視	-11.3472
固當	-11.3472
其詞曰	-11.3476
伶人	-11.3477
司法	-11.3484
天寶中	-11.3485
千貫	-11.3485
畫像	-11.3488
緋衣	-11.3489
明珠	-11.349
道塲	-11.3492
几上	-11.3493
珍重	-11.3497
相逢	-11.3497
字畫	-11.3497
還鄉	-11.3504
千古	-11.3513
中貴人	-11.3516
赤色	-11.3516
我輩	-11.3517
天曹	-11.3534
罷歸	-11.3542
見一大	-11.3544
嬪御	-11.3547
察其	-11.3548
鏃	-11.3564
器皿	-11.3564
愉	-11.3567
屣	-11.3567
右僕射	-11.3568
霆	-11.3569
泊舟	-11.357
顓	-11.3571
墉	-11.3571
款	-11.3571
工部尚書	-11.3571
淩	-11.3572
白晝	-11.3572
拷	-11.3572
莘老	-11.3572
脣	-11.3575
襍	-11.3575
刄	-11.3575
沱	-11.3575
巨石	-11.3576
白鶴	-11.3576
爨	-11.3576
闗中	-11.3576
㓕	-11.3576
秦㑹之	-11.3577
鉗	-11.3577
佺	-11.3577
鍔	-11.3578
第七	-11.3579
狠	-11.358
榭	-11.358
南面	-11.3581
色青	-11.3581
影響	-11.3582
癭	-11.3582
紹熙	-11.3583
不自勝	-11.3584
尉遲	-11.3584
逄	-11.3584
鎧	-11.3585
秉燭	-11.3587
茂貞	-11.3588
援筆	-11.3588
安禄山	-11.359
校書	-11.3594
捕魚	-11.3594
秉政	-11.3594
參差	-11.3595
壬子	-11.3598
日晚	-11.3604
學術	-11.3604
石橋	-11.3606
老叟	-11.3606
性剛	-11.3606
王夷甫	-11.3608
髙力士	-11.3609
正色曰	-11.3613
臺閣	-11.3613
娶婦	-11.3613
四角	-11.3618
冬夏	-11.3622
禮記	-11.3623
文中子	-11.3625
固不可	-11.3627
寂無	-11.3627
一百二十	-11.3627
呉興	-11.3636
夢覺	-11.3638
第宅	-11.3641
友議	-11.3642
唱名	-11.3649
萬國	-11.3651
五榖	-11.3653
弓射	-11.3661
回顧	-11.3664
天尊	-11.3665
太學生	-11.3665
挈家	-11.3665
廣漢	-11.3667
具告	-11.3679
應記	-11.3688
元鎮	-11.3692
後數月	-11.3695
文莊	-11.37
大厯中	-11.3702
尋訪	-11.3708
升堂	-11.3711
思逺	-11.3711
王珪	-11.3713
供給	-11.3715
惠帝	-11.3716
萬歳	-11.3716
建封	-11.3718
有一僧	-11.3721
不豫	-11.3726
少遊	-11.3726
街中	-11.3727
别業	-11.3728
璨	-11.3732
莊周	-11.3736
柟	-11.374
趍	-11.374
褁	-11.3742
僧徒	-11.3742
續晉陽秋曰	-11.3743
南村輟耕録卷之	-11.3744
輯	-11.3745
番禺	-11.3745
搔	-11.3745
佶	-11.3747
在相位	-11.3748
譖	-11.3748
夷堅志	-11.3748
堕	-11.3748
籖	-11.3749
醬	-11.3749
荻	-11.375
荔枝	-11.3751
擣	-11.3751
鍇	-11.3751
善繼	-11.3752
字季	-11.3752
筐	-11.3752
甲第	-11.3753
段成式	-11.3754
偓	-11.3754
瀉	-11.3754
腑	-11.3755
姙	-11.3755
甲戌	-11.3756
揮麈	-11.3757
脾	-11.3757
應制	-11.3757
厲聲曰	-11.3757
榦	-11.3757
規模	-11.3759
白鹿	-11.3759
冏	-11.3762
鱗甲	-11.3763
逢吉	-11.3773
文詞	-11.3773
逾月	-11.3776
侍宴	-11.3777
王長史	-11.3778
何以知之	-11.3779
仲翔	-11.3783
龜年	-11.3785
酌酒	-11.3786
忠信	-11.3787
知開封府	-11.3788
雞鳴	-11.3788
自縊	-11.379
太陽	-11.3791
曰然則	-11.3797
孔明	-11.3801
投刺	-11.3802
永寧	-11.3804
金釵	-11.381
姑蘇	-11.3812
錦衣	-11.382
四川	-11.382
南蠻	-11.3824
將校	-11.3831
竟陵	-11.3838
布政	-11.3846
毛羽	-11.3846
貌甚	-11.3851
又東北	-11.3852
所製	-11.3858
書籍	-11.3871
熈寧中	-11.3871
太宰	-11.3872
皆如其言	-11.3873
思恭	-11.3883
孟氏	-11.3888
甚異之	-11.3892
衛士	-11.3894
時人謂	-11.3894
應手	-11.3895
少監	-11.3896
短小	-11.3898
具奏	-11.39
桂州	-11.3902
大慙	-11.3909
齊賢	-11.3909
内殿	-11.3915
滄州	-11.3915
璿	-11.3917
承平	-11.3918
善射	-11.3918
懈	-11.392
不可得而	-11.3921
楨	-11.3921
黛	-11.3923
州别駕	-11.3924
譌	-11.3924
巾櫛	-11.3925
頔	-11.3925
煬帝	-11.3926
甚佳	-11.3926
制置	-11.3926
蒜	-11.3926
訃	-11.3927
疵	-11.3927
擘	-11.3929
餙	-11.3929
肋	-11.3929
殺汝	-11.393
蘇軾	-11.3931
杉	-11.3932
朞	-11.3933
禹貢	-11.3934
生男	-11.3934
眸	-11.3934
誄	-11.3934
蕈	-11.3934
樞密院	-11.3935
偵	-11.3935
藕	-11.3935
鯨	-11.3936
蹤跡	-11.3939
緩急	-11.394
餗	-11.3941
徐鉉	-11.3942
蝎	-11.3944
章惇	-11.3945
往来	-11.3946
祗候	-11.3946
劉貢父	-11.3947
驚怖	-11.3949
羽翼	-11.395
宣政	-11.3956
長數寸	-11.3956
祈雨	-11.3962
蘭陵	-11.3964
几案	-11.3966
到任	-11.3968
三斗	-11.397
開寳	-11.3972
有知者	-11.3975
燒香	-11.3978
度世	-11.3981
有識者	-11.3985
美玉	-11.3987
宜速	-11.399
微笑	-11.399
衣帶	-11.3993
妓樂	-11.3995
小童	-11.3997
沂公	-11.4
舊例	-11.4006
奄然	-11.4011
兒童	-11.4013
千緡	-11.4017
部落	-11.4021
康伯	-11.4021
百餘步	-11.4028
牛羊	-11.403
既罷	-11.4032
憂懼	-11.4034
歲餘	-11.4035
年十四	-11.4036
康定	-11.4037
𢎞正	-11.404
㕔前	-11.4051
可喜	-11.4059
陜州	-11.4061
州都督	-11.4061
幽求	-11.4062
登樓	-11.4067
后土	-11.4071
座主	-11.4077
蔡氏	-11.4091
蒨	-11.4098
淛	-11.4099
港	-11.41
鷙	-11.4104
衒	-11.4104
虀	-11.4104
芽	-11.4104
桎梏	-11.4105
􁦚	-11.4106
聆	-11.4108
桓宣武	-11.4108
瀘	-11.4108
尚書左丞	-11.4109
鹹	-11.411
蘇頲	-11.411
癸丑	-11.4111
趺	-11.4111
剝	-11.4112
甓	-11.4112
茯苓	-11.4113
乱	-11.4113
繭	-11.4113
巔	-11.4114
鹵	-11.4114
三十三	-11.4116
天錫	-11.4116
臉	-11.4116
姦邪	-11.4116
顚	-11.4116
玷	-11.4117
杜子美	-11.4119
晳	-11.4119
以實告	-11.4121
蠏	-11.4122
就寢	-11.4122
俯仰	-11.4123
燈火	-11.413
異於常	-11.4131
老姥	-11.4131
供帳	-11.4132
訴于	-11.4138
拱手	-11.4139
年十五	-11.4139
致政	-11.4141
閭里	-11.4146
㝠司	-11.4153
掖庭	-11.4156
洪水	-11.4162
珠翠	-11.4165
家財	-11.417
榻前	-11.4175
兵革	-11.4176
粲然	-11.4179
朱氏	-11.4182
萬卷	-11.4183
弱水	-11.4184
元祐初	-11.4185
曰此兒	-11.4186
開棺	-11.4187
太監	-11.4188
交結	-11.4193
明達	-11.4199
方寸	-11.42
狀頭	-11.4202
黒色	-11.4203
怪異	-11.4208
西市	-11.4212
牛頭	-11.4212
本姓	-11.4212
吾輩	-11.422
他適	-11.4233
萬歲	-11.4236
丈許	-11.4236
孺子	-11.4237
殊不知	-11.4242
伊水	-11.4245
一㸃	-11.4245
驛吏	-11.4247
平生不	-11.4247
暴死	-11.4248
疾愈	-11.4254
淵明	-11.4257
無賴	-11.4259
出搜	-11.426
稱賞	-11.4264
恍	-11.4266
火焚	-11.4267
朔方	-11.427
庖人	-11.4272
凉州	-11.4276
汜	-11.4286
陬	-11.4289
秦漢	-11.429
邯鄲	-11.4291
衿	-11.4291
毘	-11.4291
鬂	-11.4293
茸	-11.4293
灸	-11.4294
蜕	-11.4295
壙	-11.4295
讚	-11.4295
轝	-11.4296
蜀主	-11.4296
揀	-11.4297
蠲	-11.4297
紐	-11.4297
太皇太后	-11.4298
聰敏	-11.4298
摸	-11.4298
肢	-11.4299
怍	-11.4299
輜	-11.43
碗	-11.43
咄	-11.4301
凭	-11.4301
駐蹕	-11.4301
霅	-11.4301
屯田	-11.4301
彖	-11.4302
蹔	-11.4302
糺	-11.4304
廪	-11.4304
黑色	-11.4307
漢末	-11.4308
長八尺	-11.4311
琴瑟	-11.4312
雷霆	-11.4313
䑛	-11.4314
壯麗	-11.4317
親屬	-11.4327
不協	-11.4328
既久	-11.433
義熈	-11.4332
數十丈	-11.4334
政和間	-11.4334
權貴	-11.4337
衛將軍	-11.4341
小娘子	-11.4344
嗣位	-11.4345
妖怪	-11.4346
怡然	-11.4353
宣和間	-11.436
不可忍	-11.4362
列坐	-11.4362
安邑	-11.4364
郊外	-11.4364
梁武	-11.4365
景雲	-11.4371
女巫	-11.438
青城山	-11.438
冬月	-11.4381
突入	-11.4383
百疋	-11.4386
一丸	-11.439
歎曰吾	-11.4392
雷州	-11.4392
表弟	-11.4397
智髙	-11.4399
伯父	-11.44
分别	-11.4405
月色	-11.4406
縣主簿	-11.4406
長公主	-11.4408
十八九	-11.4414
二枚	-11.442
四寸	-11.4422
曾孫	-11.4425
晉陵	-11.4432
年二十餘	-11.4436
縊	-11.4443
〇	-11.4449
从	-11.4458
樂器	-11.4465
百匹	-11.4468
翌	-11.4469
郭曰或	-11.4471
蒼生	-11.4473
芾	-11.4474
何須	-11.4476
櫛	-11.4476
虗	-11.4478
下邳	-11.4479
徂	-11.4481
德裕	-11.4482
蜚	-11.4482
廏	-11.4483
攽	-11.4483
斟	-11.4483
延齡	-11.4483
翎	-11.4483
錬	-11.4484
糖	-11.4484
攺	-11.4485
有道術	-11.4486
藜	-11.4486
炷	-11.4487
畦	-11.4487
丙午	-11.4488
櫬	-11.4488
閃	-11.4488
燥	-11.4489
綯	-11.4489
狥	-11.4489
建議	-11.4489
無草木多	-11.4491
琥珀	-11.4491
諜	-11.4491
鱉	-11.4492
派	-11.4493
章句	-11.4493
鍳	-11.4494
嗇	-11.4494
囷	-11.4494
靄	-11.4495
昩	-11.4495
以實對	-11.4495
惟恐	-11.4498
宗族	-11.4503
宜春	-11.4505
不可曉	-11.4506
數十歩	-11.451
孔氏	-11.451
馬蹄	-11.4511
暴風	-11.4512
昆吾	-11.4514
麻姑	-11.4514
一幅	-11.4519
屈原	-11.4522
五百年	-11.4532
詩句	-11.4533
導從	-11.4538
權勢	-11.4539
歙	-11.454
僧孺	-11.4541
五六尺	-11.4552
少陵	-11.4568
悲喜	-11.4572
為賊所	-11.4575
臺省	-11.4591
侯景	-11.4598
幕客	-11.4598
渡河	-11.4609
有娠	-11.461
開元末	-11.4617
上昇	-11.4618
召試	-11.4621
江海	-11.4653
亟命	-11.4654
東流注于	-11.4662
觚	-11.4662
見一物	-11.4664
尔	-11.4665
天章閣待制	-11.4666
鄜延	-11.4667
兕	-11.4667
柑	-11.4667
櫟	-11.4668
憔悴	-11.4668
鵬	-11.4669
叠	-11.467
奐	-11.4671
塩	-11.4672
瞋	-11.4672
醴泉	-11.4672
悠悠	-11.4673
潄	-11.4674
製作	-11.4674
穽	-11.4674
袁生	-11.4675
癰	-11.4676
菩提	-11.4677
殄	-11.4678
丙申	-11.4678
彷彿	-11.4679
箧	-11.468
隋煬帝	-11.468
祅	-11.468
迦	-11.4681
瞪	-11.4681
主帥	-11.4681
咬	-11.4682
大理評事	-11.4682
旹	-11.4683
玳瑁	-11.4683
估	-11.4684
紓	-11.4684
甲寅	-11.4685
偹	-11.4686
咋	-11.4686
丙辰	-11.4688
傪	-11.4689
伊尹	-11.469
絆	-11.4691
侑	-11.4692
遣中使	-11.4694
長七尺	-11.4694
左拾遺	-11.4695
謝太傅	-11.4695
謂此也	-11.4695
永徽	-11.47
紹翁	-11.47
鬼魅	-11.4706
枯骨	-11.4707
鍾離	-11.4709
飲饌	-11.4715
外舅	-11.4727
王欽若	-11.473
對曰某	-11.4733
䖍州	-11.4734
散騎	-11.4735
路傍	-11.474
原注	-11.474
塵土	-11.4742
宦官	-11.4743
十斤	-11.4748
彭年	-11.4755
竹杖	-11.476
州司户	-11.4761
采石	-11.478
荅云	-11.478
愛惜	-11.4785
士衡	-11.4788
腰間	-11.4788
獻帝	-11.479
陽翟	-11.4792
不軌	-11.4793
議郎	-11.4797
大恱	-11.48
絶倫	-11.4803
京邑	-11.4806
京國	-11.4824
東市	-11.4824
亳	-11.4837
渭水	-11.4846
黄冠	-11.4856
非敢	-11.4859
收拾	-11.4862
毳	-11.4862
縹	-11.4863
澥	-11.4864
武德	-11.4865
汨	-11.4866
晏元獻	-11.4866
蹋	-11.4867
飜	-11.4867
泯	-11.4868
橐	-11.4868
太學博士	-11.4868
帕	-11.4869
襖	-11.4869
彤	-11.487
荼	-11.4871
穉	-11.4871
眄	-11.4871
跌	-11.4871
鷓鴣	-11.4871
凄	-11.4872
懋	-11.4873
崧	-11.4873
嶺表	-11.4873
咀	-11.4874
洮	-11.4875
壬午	-11.4875
譔	-11.4876
昆明池	-11.4876
酥	-11.4877
鄩	-11.4879
壠	-11.4879
爍	-11.4879
棣	-11.4879
疇昔	-11.488
十七八	-11.4884
吟詠	-11.4885
愴然	-11.4886
形體	-11.4888
佃	-11.4889
賜第	-11.489
窖	-11.489
年八十餘	-11.4891
亳州	-11.4893
蔬食	-11.4894
遥見	-11.4894
感激	-11.4898
長數丈	-11.4904
桂林	-11.4904
南嶽	-11.4905
大呼曰	-11.4905
胥吏	-11.4915
連呼	-11.4916
群臣	-11.4917
慕容	-11.4918
醉卧	-11.4919
戊子	-11.4923
妙絶	-11.4927
盜賊	-11.493
統制	-11.4933
祥符中	-11.4937
魯國	-11.4942
進御	-11.4944
待罪	-11.4953
道傍	-11.4958
洛城	-11.4961
紹興初	-11.4965
稱㫖	-11.4969
伐木	-11.4971
變色	-11.4972
棄市	-11.4972
歴代	-11.4978
預焉	-11.4979
止之曰	-11.4987
懼不敢	-11.4999
壬	-11.5036
鴞	-11.5063
琅	-11.5063
諛	-11.5068
鬰	-11.5069
諍	-11.5069
椿	-11.5069
倭	-11.5071
刮	-11.5072
据	-11.5072
紘	-11.5073
凛	-11.5073
軋	-11.5073
磧	-11.5075
產	-11.5075
茟	-11.5079
愴	-11.5248
蒯	-11.5255
努	-11.5263
畀	-11.5265
靚	-11.5265
墩	-11.5266
儂	-11.527
猾	-11.5272
宼	-11.5272
鏘	-11.5273
遒	-11.5273
炤	-11.5275
刷	-11.5275
覈	-11.5275
殛	-11.5276
瓉	-11.528
磁	-11.528
莒	-11.5281
擯	-11.5281
鞅	-11.5281
斸	-11.5282
嵌	-11.5283
篙	-11.5285
漾	-11.5285
儆	-11.5288
痊	-11.5288
渺	-11.5292
喇	-11.5464
稿	-11.5468
彂	-11.547
剋	-11.5472
畼	-11.5474
訾	-11.5474
儈	-11.5475
腎	-11.5475
麈	-11.5476
苴	-11.5478
薇	-11.5478
涔	-11.5479
璉	-11.548
懵	-11.548
撿	-11.5482
膊	-11.5482
駛	-11.5482
魘	-11.5482
圮	-11.5483
娑	-11.5483
棧	-11.5484
怛	-11.5485
蚣	-11.5485
磊	-11.5485
兗	-11.5485
插	-11.5485
柵	-11.5485
鋌	-11.5485
券	-11.5486
蕘	-11.5486
㤗	-11.5486
畚	-11.5486
澡	-11.5487
埸	-11.5489
廁	-11.5492
萍	-11.5494
罽	-11.5495
妝	-11.5496
磐	-11.5496
彞	-11.5506
諴	-11.5508
絪	-11.5676
义	-11.5685
儋	-11.5689
罇	-11.5691
遨	-11.5692
菽	-11.5693
埶	-11.5694
槍	-11.5694
嘷	-11.5695
嘻	-11.5695
歉	-11.5695
沫	-11.5695
蘋	-11.5696
燔	-11.5697
蟄	-11.5698
𥙿	-11.5698
慝	-11.5699
睢	-11.5699
躑	-11.5699
褘	-11.57
㪷	-11.5703
麽	-11.5703
螻	-11.5704
糴	-11.5705
槊	-11.5705
嘘	-11.5708
剏	-11.571
輓	-11.571
髦	-11.5714
璵	-11.5898
霏	-11.5904
柤	-11.5906
酈	-11.5906
昵	-11.5907
沅	-11.5907
鍜	-11.5908
逖	-11.5908
瘤	-11.5909
萱	-11.5909
啾	-11.5913
憬	-11.5914
穰	-11.5914
曆	-11.5914
妒	-11.5914
橫	-11.5915
賽	-11.5916
琨	-11.5916
螢	-11.5918
諝	-11.5918
咤	-11.5919
媛	-11.5919
燋	-11.592
磻	-11.5921
楸	-11.5921
勔	-11.5922
荐	-11.5923
糓	-11.5923
堞	-11.5924
窒	-11.5925
淋	-11.5925
鉄	-11.5928
苧	-11.6128
鞾	-11.6128
嬾	-11.6129
叵	-11.6131
翮	-11.6132
瀑	-11.6132
粤	-11.6134
痢	-11.6134
樟	-11.6134
盻	-11.6134
瞳	-11.6136
澠	-11.6136
默	-11.6136
祔	-11.6137
貍	-11.6137
窶	-11.6137
燦	-11.6139
椹	-11.6139
㕑	-11.614
譟	-11.6142
燿	-11.6144
蟒	-11.6145
爻	-11.6145
嘴	-11.6145
些	-11.6147
莱	-11.6147
惲	-11.6148
犁	-11.615
驤	-11.6154
榴	-11.6281
莎	-11.635
僑	-11.6352
垍	-11.6353
双	-11.6354
塡	-11.6356
郾	-11.6358
穏	-11.6362
竢	-11.6362
蓐	-11.6363
芮	-11.6364
莅	-11.6364
釧	-11.6365
杼	-11.6365
炫	-11.6366
猝	-11.6366
藹	-11.6367
禰	-11.6367
䙝	-11.6367
湮	-11.6367
莾	-11.6368
𣙜	-11.6369
邴	-11.637
醵	-11.637
遗	-11.6373
屹	-11.6373
驄	-11.6375
芰	-11.6387
烝	-11.6389
郯	-11.6586
㳙	-11.6588
沓	-11.6591
培	-11.6592
瓚	-11.6593
奨	-11.6593
概	-11.6594
悠	-11.6594
抉	-11.6594
秣	-11.6594
悛	-11.6595
珂	-11.6595
閴	-11.6596
駑	-11.6598
槁	-11.6599
爺	-11.6599
𦂳	-11.6599
㓗	-11.66
窄	-11.66
廳	-11.6601
嫩	-11.6601
憊	-11.6602
穗	-11.6602
阼	-11.6603
酤	-11.6607
孑	-11.6607
烘	-11.6609
菲	-11.6615
𤨏	-11.6811
膜	-11.6824
䖝	-11.6824
㯶	-11.6825
斾	-11.6826
㒺	-11.6831
儛	-11.6831
鈐	-11.6832
謟	-11.6832
媵	-11.6832
瞑	-11.6833
艘	-11.6833
晅	-11.6834
艦	-11.684
腳	-11.684
緍	-11.6841
耒	-11.6842
鋋	-11.6843
蕚	-11.6844
個	-11.6844
鵶	-11.6859
驎	-11.7062
啞	-11.7065
劃	-11.7065
鼇	-11.7068
蛩	-11.7068
擺	-11.7069
謇	-11.7069
蠡	-11.707
韞	-11.7071
揔	-11.7072
禋	-11.7072
鐶	-11.7072
脹	-11.7072
弑	-11.7072
滓	-11.7073
怱	-11.7073
嵬	-11.7073
茄	-11.7073
鄠	-11.7075
裡	-11.7076
邯	-11.7077
䰟	-11.7078
瑊	-11.7079
絙	-11.708
殉	-11.7081
鱣	-11.7081
嘿	-11.7081
郞	-11.7081
翛	-11.7081
豊	-11.7083
璀	-11.7084
吊	-11.7085
窆	-11.7086
紊	-11.7086
晤	-11.7089
睫	-11.7089
幔	-11.709
鈕	-11.7111
壌	-11.7318
纊	-11.7319
飫	-11.732
愎	-11.7323
裊	-11.7325
瘁	-11.7325
剉	-11.7326
葆	-11.7326
鯢	-11.7326
旰	-11.7327
葷	-11.7327
迢	-11.7327
窑	-11.7328
袵	-11.7328
轟	-11.7329
菓	-11.7329
漣	-11.7329
闡	-11.733
㛰	-11.733
瘥	-11.733
癩	-11.733
岌	-11.7331
嬴	-11.7331
惴	-11.7332
搦	-11.7332
堇	-11.7332
蔗	-11.7332
闍	-11.7332
謎	-11.7333
柿	-11.7333
紉	-11.7333
峒	-11.7333
熨	-11.7333
螯	-11.7334
縋	-11.7334
摽	-11.7335
妳	-11.7336
襯	-11.7336
稗	-11.7338
毉	-11.7338
粱	-11.7338
妺	-11.7339
酺	-11.7568
㦯	-11.7569
罩	-11.7578
躓	-11.7579
纜	-11.758
讙	-11.758
巋	-11.7581
暎	-11.7582
薤	-11.7582
罟	-11.7582
煌	-11.7583
蔕	-11.7583
蝮	-11.7584
黏	-11.7584
縗	-11.7584
撚	-11.7584
訂	-11.7584
諲	-11.7584
矚	-11.7585
𬞞	-11.7585
睂	-11.7585
傴	-11.7586
碓	-11.7586
蠢	-11.7587
氛	-11.7588
娯	-11.7588
彗	-11.7589
毀	-11.759
宙	-11.7591
籃	-11.7592
鐍	-11.7592
噤	-11.7592
懴	-11.7592
蠙	-11.7598
羶	-11.7599
䆒	-11.7599
玭	-11.782
潯	-11.7826
甸	-11.783
虖	-11.7832
巘	-11.7833
匈	-11.7835
螽	-11.7837
扺	-11.7837
艇	-11.7837
匆	-11.7838
罌	-11.7841
䋲	-11.7842
薈	-11.7842
塹	-11.7842
鐙	-11.7843
徭	-11.7844
䛕	-11.7844
礎	-11.7844
孀	-11.7844
泫	-11.7845
溜	-11.7846
㱕	-11.7846
隼	-11.7846
嗅	-11.7849
恡	-11.7849
燄	-11.7849
唧	-11.785
厦	-11.7851
櫓	-11.7854
縠	-11.7855
塢	-11.7856
菁	-11.786
諗	-11.786
豺	-11.8098
鮪	-11.8104
騩	-11.8105
閶	-11.8107
穩	-11.8108
魃	-11.8108
洹	-11.8108
涂	-11.811
壹	-11.8111
宕	-11.8112
飱	-11.8114
犍	-11.8114
疥	-11.8115
礬	-11.8116
暐	-11.8117
舸	-11.8118
戶	-11.8118
詫	-11.8118
䡖	-11.8118
灣	-11.8118
訢	-11.8119
沇	-11.8119
箒	-11.812
綂	-11.812
掄	-11.812
鑠	-11.812
舖	-11.812
杰	-11.8121
疼	-11.8121
党	-11.8121
袞	-11.8121
圏	-11.8121
歧	-11.8123
緜	-11.8123
紵	-11.8124
暱	-11.8124
儷	-11.8124
礦	-11.8129
緻	-11.813
珎	-11.8131
碾	-11.8132
炒	-11.8133
葭	-11.8134
醢	-11.8385
鯖	-11.8386
膓	-11.8387
霓	-11.8388
惔	-11.8388
蠕	-11.8388
蝸	-11.8389
拄	-11.8389
献	-11.8389
𠖇	-11.8389
錠	-11.839
曬	-11.8391
罅	-11.8392
㽔	-11.8394
盪	-11.8394
葩	-11.8395
逗	-11.8395
曛	-11.8396
鎚	-11.8396
蹴	-11.8396
皥	-11.8397
袐	-11.8397
韙	-11.8398
臛	-11.8398
盾	-11.8398
藺	-11.8398
芟	-11.84
鋼	-11.8401
缸	-11.8401
袤	-11.8402
亾	-11.8404
詡	-11.8405
壷	-11.8406
蒱	-11.8406
穫	-11.8406
纈	-11.8412
餳	-11.8414
枳	-11.8667
戌	-11.8668
蕋	-11.8669
灞	-11.8671
橿	-11.8671
菅	-11.8672
𣣔	-11.8672
瀕	-11.8675
箏	-11.8676
茨	-11.8678
梭	-11.8678
仝	-11.8679
緬	-11.8679
閧	-11.8679
繚	-11.868
娱	-11.868
槿	-11.868
蜮	-11.8681
鉏	-11.8681
阡	-11.8681
襴	-11.8681
檐	-11.8683
鸎	-11.8683
蔭	-11.8683
弈	-11.8683
藿	-11.8684
惎	-11.8686
躅	-11.8689
僂	-11.8689
藂	-11.8689
珽	-11.869
襃	-11.869
猖	-11.8691
矮	-11.8693
郍	-11.8695
磔	-11.8695
硫	-11.8697
鏞	-11.8958
筩	-11.8959
荔	-11.8959
嚳	-11.8963
跂	-11.8969
邽	-11.897
鑚	-11.897
扎	-11.897
帯	-11.8971
橙	-11.8973
甖	-11.8973
噎	-11.8973
坌	-11.8974
嚬	-11.8974
牸	-11.8974
隰	-11.8975
潼	-11.8976
玫	-11.8976
剰	-11.8976
籥	-11.8977
玗	-11.8977
蹊	-11.8977
狷	-11.8978
杷	-11.8978
吒	-11.8979
弹	-11.8979
胤	-11.898
颯	-11.8981
􁑴	-11.8981
娟	-11.8981
褶	-11.8982
夤	-11.8982
臟	-11.8982
鑷	-11.8982
㚟	-11.8982
慣	-11.8982
撩	-11.8983
睇	-11.8984
聫	-11.8985
埒	-11.8985
擄	-11.8985
纖	-11.8986
鄞	-11.8987
羇	-11.8988
閥	-11.8989
氓	-11.9258
鷟	-11.9261
陔	-11.9261
鮒	-11.9265
麩	-11.9266
詁	-11.9266
悒	-11.9267
讃	-11.9268
鱸	-11.927
檝	-11.927
􁁜	-11.9271
璃	-11.9273
揩	-11.9274
詧	-11.9274
賻	-11.9274
榔	-11.9275
饕	-11.9275
郛	-11.9275
撑	-11.9276
胯	-11.9276
鸚	-11.9277
俳	-11.9277
蔔	-11.9277
禅	-11.9278
唄	-11.9278
暠	-11.9278
棃	-11.9279
蓆	-11.9279
叡	-11.9279
鍛	-11.9279
鑣	-11.9279
搭	-11.9281
穠	-11.9282
鄢	-11.9283
釗	-11.9285
鰲	-11.9285
両	-11.9285
鄜	-11.9286
焙	-11.929
犧	-11.9293
繖	-11.9296
丱	-11.9297
爆	-11.9299
遹	-11.9307
䂮	-11.9315
恙	-11.9498
藷	-11.9578
攄	-11.9579
噱	-11.9579
㵼	-11.958
毯	-11.958
炯	-11.9583
燮	-11.9583
璡	-11.9584
捻	-11.9585
竣	-11.9585
甿	-11.9587
朏	-11.9588
偁	-11.9588
􁌽	-11.9588
笳	-11.9589
凾	-11.959
鈆	-11.959
墊	-11.9591
篠	-11.9591
樣	-11.9592
筝	-11.9592
蘖	-11.9592
涅	-11.9593
翩	-11.9593
屛	-11.9594
涖	-11.9595
煦	-11.9596
掀	-11.9596
羆	-11.9597
㾗	-11.9597
勍	-11.9598
兜	-11.9598
玃	-11.9598
串	-11.9599
敺	-11.9599
竽	-11.9599
戕	-11.96
貰	-11.96
暁	-11.9601
潑	-11.9601
㐫	-11.9602
讞	-11.9602
甆	-11.9602
瑒	-11.9605
闓	-11.9607
瑴	-11.9608
紬	-11.9895
麢	-11.9898
囉	-11.99
滎	-11.9903
滸	-11.9905
倬	-11.9906
䱉	-11.9907
慥	-11.9907
磑	-11.9908
鍵	-11.9908
壚	-11.9908
鱓	-11.9908
傚	-11.9909
黽	-11.9909
㺯	-11.9909
絰	-11.9911
璩	-11.9911
蛛	-11.9911
鬐	-11.9911
衂	-11.9911
瘢	-11.9912
揜	-11.9913
騃	-11.9914
妥	-11.9914
捃	-11.9915
詛	-11.9915
蓼	-11.9916
瓣	-11.9916
簧	-11.9917
裵	-11.9917
戡	-11.9917
薜	-11.9918
楔	-11.9918
瞥	-11.9918
蒞	-11.9919
紡	-11.992
届	-11.9921
瓷	-11.9921
堠	-11.9923
桮	-11.9924
姐	-11.9924
姒	-11.9924
飰	-11.9927
鴛	-11.9929
懌	-12.0173
伉	-12.0225
喑	-12.0235
褫	-12.0238
梃	-12.0239
詮	-12.0239
挿	-12.0242
鰕	-12.0242
礱	-12.0243
筦	-12.0243
軿	-12.0244
壟	-12.0244
魈	-12.0246
凑	-12.0247
迤	-12.0247
咲	-12.0247
倀	-12.0247
櫝	-12.0247
酆	-12.0247
裼	-12.0248
憒	-12.0248
聒	-12.0249
軄	-12.0249
蹉	-12.0249
滻	-12.0249
磯	-12.0251
酲	-12.0252
蕨	-12.0253
頎	-12.0253
賙	-12.0255
磴	-12.0256
摺	-12.026
篡	-12.0261
䓁	-12.0263
朓	-12.0267
璜	-12.0268
鰐	-12.0271
嶓	-12.0576
蓽	-12.0577
凈	-12.0579
胞	-12.058
旂	-12.0582
仭	-12.0583
糈	-12.0583
糗	-12.0584
萎	-12.0584
卲	-12.0584
莞	-12.0586
攅	-12.0586
諄	-12.0587
暘	-12.0587
犂	-12.0588
醯	-12.0588
頹	-12.0588
沁	-12.0588
漚	-12.0588
倜	-12.0589
猱	-12.0589
顰	-12.059
慊	-12.059
罍	-12.0591
楣	-12.0591
賾	-12.0591
慵	-12.0591
朐	-12.0591
劬	-12.0592
菰	-12.0592
蛆	-12.0592
迯	-12.0593
糶	-12.0593
懣	-12.0593
酢	-12.0593
跖	-12.0593
澀	-12.0594
樁	-12.0595
俅	-12.0595
鞘	-12.0595
􁈍	-12.0596
鏑	-12.0597
騮	-12.0597
喋	-12.06
剗	-12.0601
燬	-12.0603
刎	-12.0603
楪	-12.0603
綣	-12.0603
甯	-12.0604
崐	-12.0604
㳟	-12.0604
澶	-12.0926
憧	-12.0929
瑱	-12.0933
楠	-12.0933
勻	-12.0934
鵁	-12.0934
礫	-12.0938
猨	-12.0938
蘧	-12.094
夹	-12.0942
鹺	-12.0942
么	-12.0942
斡	-12.0942
餻	-12.0942
堙	-12.0943
滏	-12.0943
贐	-12.0944
唁	-12.0944
濺	-12.0944
誹	-12.0946
柚	-12.0946
琇	-12.0946
狨	-12.0946
籀	-12.0947
抒	-12.0947
鱖	-12.0948
㒒	-12.0948
㫤	-12.0949
圯	-12.0951
鍋	-12.0951
鉦	-12.0951
瑪	-12.0952
纛	-12.0952
檟	-12.0954
旛	-12.0956
陡	-12.0958
攣	-12.0958
櫪	-12.0959
妣	-12.0959
濳	-12.0959
旒	-12.096
禠	-12.096
攔	-12.0961
隟	-12.0961
蠖	-12.0962
万	-12.0965
頠	-12.0966
仔	-12.1296
廽	-12.1297
頫	-12.1303
蒭	-12.1307
茈	-12.1308
䲭	-12.1309
厝	-12.131
蓊	-12.131
隧	-12.1311
槨	-12.1311
眦	-12.1311
枸	-12.1312
磎	-12.1312
銍	-12.1313
鯽	-12.1313
咳	-12.1313
桷	-12.1314
騅	-12.1315
盩	-12.1316
齪	-12.1316
彝	-12.1317
瑯	-12.1319
瘵	-12.1319
蚺	-12.1319
閼	-12.1319
擐	-12.1319
鮎	-12.132
怳	-12.1321
鄊	-12.1321
嚇	-12.1322
獬	-12.1322
哩	-12.1322
卨	-12.1322
挟	-12.1323
䆠	-12.1323
砍	-12.1323
孃	-12.1323
漉	-12.1324
溧	-12.1325
踪	-12.1327
勗	-12.1327
慳	-12.1328
囙	-12.1328
㝡	-12.1329
勦	-12.1329
崛	-12.133
䆳	-12.133
鬪	-12.133
茘	-12.1331
𦕈	-12.1331
抜	-12.1332
佻	-12.1332
畬	-12.1334
鶵	-12.1335
潢	-12.1336
垜	-12.1337
玘	-12.1337
辝	-12.1338
寀	-12.1344
翾	-12.1344
騟	-12.1358
央	-12.1572
楫	-12.168
翕	-12.1681
蜼	-12.1686
篲	-12.1686
殪	-12.1687
倰	-12.169
僎	-12.1691
鞵	-12.1691
卄	-12.1691
銛	-12.1692
痺	-12.1695
涙	-12.1695
哽	-12.1696
簸	-12.1696
盒	-12.1697
錞	-12.1697
斆	-12.1698
皤	-12.1698
祧	-12.1698
蘚	-12.1698
掐	-12.1699
洧	-12.1699
綫	-12.1699
㹠	-12.17
瞞	-12.1701
厓	-12.1701
籟	-12.1702
輳	-12.1702
棨	-12.1703
蹂	-12.1703
擡	-12.1705
鄣	-12.1706
隈	-12.1707
刲	-12.1708
祼	-12.1708
淝	-12.1708
轢	-12.171
嶸	-12.171
沴	-12.171
嚥	-12.171
汞	-12.1711
鷁	-12.1711
摛	-12.1712
烱	-12.1712
懊	-12.1713
禿	-12.1714
綦	-12.1715
溲	-12.1715
奘	-12.1715
変	-12.1716
鬲	-12.1717
紏	-12.172
砲	-12.1721
畤	-12.1722
蕖	-12.1724
簣	-12.1729
盱	-12.173
滁	-12.1732
韵	-12.208
泑	-12.209
陕	-12.2091
闞	-12.2093
襠	-12.2095
殤	-12.2096
鷩	-12.2096
睚	-12.2096
韉	-12.2097
莘	-12.2097
橛	-12.2097
纘	-12.2097
昺	-12.2098
簞	-12.2098
描	-12.2098
菟	-12.2098
聓	-12.2099
覡	-12.2099
膿	-12.21
苒	-12.21
倕	-12.21
暌	-12.2101
蚩	-12.2102
窩	-12.2102
贏	-12.2102
搶	-12.2102
戅	-12.2103
壼	-12.2103
劎	-12.2104
唳	-12.2104
蹬	-12.2104
蒂	-12.2105
檠	-12.2106
鴘	-12.2106
褌	-12.2106
湎	-12.2106
肻	-12.2106
蕡	-12.2106
獰	-12.2106
恆	-12.2107
潺	-12.2107
捩	-12.2108
阯	-12.2108
嶂	-12.2108
墾	-12.2109
鼾	-12.2109
賡	-12.2109
荳	-12.211
癢	-12.211
顱	-12.2111
搃	-12.2112
泡	-12.2112
祛	-12.2114
伋	-12.2115
糲	-12.2115
賍	-12.2116
佾	-12.2119
贇	-12.2123
殱	-12.2123
溶	-12.2127
匭	-12.213
巉	-12.2499
萼	-12.2499
滬	-12.2501
鰩	-12.2503
芑	-12.2504
靸	-12.2504
狒	-12.2504
昪	-12.2504
廕	-12.2507
攢	-12.2508
皺	-12.2509
鞴	-12.2509
塾	-12.251
嚕	-12.251
嶲	-12.2511
蕉	-12.2511
埏	-12.2512
羹	-12.2514
摠	-12.2514
豸	-12.2515
鵷	-12.2516
蒐	-12.2516
曖	-12.2516
讖	-12.2518
腮	-12.2518
蜑	-12.2518
駔	-12.2519
肓	-12.252
閘	-12.252
敳	-12.252
臚	-12.252
媼	-12.2521
粳	-12.2521
荏	-12.2522
坼	-12.2522
欻	-12.2522
䞇	-12.2522
薺	-12.2522
与	-12.2523
矗	-12.2523
𨗳	-12.2523
謄	-12.2523
咍	-12.2524
婣	-12.2524
槀	-12.2524
㲄	-12.2524
喈	-12.2525
鄘	-12.2526
搢	-12.2526
桌	-12.2526
殍	-12.2527
囯	-12.2527
嗾	-12.2528
內	-12.2528
楞	-12.2528
痒	-12.2528
餚	-12.2529
凜	-12.253
悝	-12.2531
犖	-12.2531
茭	-12.2532
俻	-12.2532
帢	-12.2533
煤	-12.2533
醼	-12.2535
綈	-12.2535
鰍	-12.2535
侏	-12.2536
鸇	-12.2537
庄	-12.2539
餬	-12.2542
盝	-12.2544
儗	-12.2551
郴	-12.2682
爕	-12.2927
称	-12.2937
緊	-12.2939
匀	-12.294
翃	-12.294
椐	-12.2941
嗚	-12.2941
舡	-12.2943
搴	-12.2944
袪	-12.2944
熬	-12.2945
崦	-12.2945
䂓	-12.2947
菑	-12.2947
窈	-12.2948
殭	-12.2948
圄	-12.2949
鼐	-12.2949
涴	-12.2949
娣	-12.2949
痰	-12.2949
参	-12.295
篾	-12.295
䜿	-12.2951
荃	-12.2951
噲	-12.2951
㫄	-12.2951
撝	-12.2951
幌	-12.2952
搬	-12.2952
滹	-12.2952
聃	-12.2952
掊	-12.2953
甎	-12.2953
泅	-12.2954
栲	-12.2954
頺	-12.2955
趕	-12.2956
怏	-12.2956
螟	-12.2957
欖	-12.2957
氲	-12.2957
珝	-12.2957
腿	-12.2957
筑	-12.2957
闚	-12.2958
蝨	-12.2958
飈	-12.2959
玦	-12.296
魎	-12.296
苻	-12.2961
柈	-12.2962
糚	-12.2962
嶼	-12.2963
辣	-12.2963
㕓	-12.2963
冺	-12.2964
壖	-12.2965
仄	-12.2965
閟	-12.2965
炮	-12.2966
綖	-12.2967
熲	-12.2967
陴	-12.2968
漱	-12.2969
淦	-12.2969
椁	-12.297
裀	-12.2971
刅	-12.2971
輞	-12.2972
萄	-12.2974
詘	-12.2977
蟆	-12.3388
纍	-12.3393
艸	-12.3396
蓑	-12.3396
騊	-12.3397
扞	-12.3398
醺	-12.3398
屡	-12.3399
狙	-12.3399
嶧	-12.3399
荚	-12.3399
蘸	-12.34
楛	-12.3401
羗	-12.3401
苾	-12.3402
囀	-12.3402
埤	-12.3404
幞	-12.3404
𥚹	-12.3404
侶	-12.3404
僥	-12.3405
牂	-12.3405
踉	-12.3406
喀	-12.3406
騏	-12.3406
晙	-12.3407
聱	-12.3407
烜	-12.3408
穟	-12.3408
櫺	-12.3409
㙮	-12.3409
痔	-12.3409
砧	-12.3409
塌	-12.341
捄	-12.341
搥	-12.341
餼	-12.3411
髩	-12.3411
飣	-12.3412
蜓	-12.3412
欷	-12.3413
夥	-12.3413
躔	-12.3413
觝	-12.3414
瑁	-12.3414
𥪡	-12.3414
埜	-12.3415
祏	-12.3415
呦	-12.3416
帟	-12.3417
佖	-12.3419
瀨	-12.3419
瀍	-12.342
机	-12.342
淬	-12.342
瀚	-12.342
棬	-12.3421
椰	-12.3422
嘱	-12.3422
𣲖	-12.3422
炁	-12.3423
𧦬	-12.3424
捴	-12.3424
䜛	-12.3427
飥	-12.3427
厰	-12.3427
締	-12.3427
鄯	-12.3428
蛭	-12.3431
忳	-12.3442
撅	-12.3445
濓	-12.3865
拗	-12.3866
眯	-12.3872
䱱	-12.3872
䧏	-12.3872
憨	-12.3872
畎	-12.3873
䳜	-12.3875
剜	-12.3875
牾	-12.3876
鸂	-12.3877
洶	-12.3878
狖	-12.3878
饅	-12.3879
氈	-12.388
屎	-12.388
勮	-12.388
衎	-12.3881
磋	-12.3881
雩	-12.3881
屩	-12.3882
鷲	-12.3883
昝	-12.3884
貊	-12.3884
腔	-12.3885
呻	-12.3885
壕	-12.3885
蠃	-12.3886
鰥	-12.3887
謌	-12.3887
頵	-12.3887
疣	-12.3887
扛	-12.3887
湄	-12.3887
禊	-12.3888
儐	-12.3888
廰	-12.3888
輥	-12.3888
餛	-12.3888
羝	-12.3888
趋	-12.3889
秫	-12.3889
䧺	-12.3889
蠒	-12.389
䭔	-12.389
劼	-12.389
淇	-12.389
婪	-12.3891
腆	-12.3891
篚	-12.3891
捋	-12.3892
揄	-12.3893
蹷	-12.3893
罥	-12.3894
醸	-12.3896
簏	-12.3896
窅	-12.3896
惺	-12.3896
尫	-12.3897
鬯	-12.3898
霈	-12.3898
昴	-12.3898
篁	-12.3899
鞬	-12.39
檣	-12.39
舷	-12.3901
丒	-12.3902
淒	-12.3903
阨	-12.3903
朦	-12.3904
璪	-12.3904
烙	-12.3907
獐	-12.3909
𣢾	-12.3911
軨	-12.4359
苓	-12.4365
黻	-12.4368
翽	-12.4368
站	-12.4368
榣	-12.4369
鉷	-12.4373
驊	-12.4374
芷	-12.4376
枋	-12.4377
葅	-12.4377
釭	-12.4378
嚚	-12.4379
緹	-12.438
勰	-12.438
矟	-12.438
嬙	-12.438
贛	-12.4381
蹭	-12.4382
晢	-12.4382
綆	-12.4382
瀰	-12.4383
陘	-12.4383
濆	-12.4383
糕	-12.4383
磾	-12.4383
价	-12.4384
兊	-12.4384
擿	-12.4384
啣	-12.4384
憸	-12.4384
哨	-12.4384
豉	-12.4385
栝	-12.4385
絜	-12.4385
鶖	-12.4385
淖	-12.4386
頳	-12.4386
芫	-12.4387
蝤	-12.4387
齟	-12.4387
焯	-12.4388
湟	-12.4389
羃	-12.439
臓	-12.4391
韁	-12.4391
弧	-12.4391
獪	-12.4392
𦵔	-12.4392
臀	-12.4393
囁	-12.4394
欤	-12.4395
皐	-12.4396
簀	-12.4396
𥜗	-12.4398
洳	-12.4398
廞	-12.4399
斚	-12.4399
跼	-12.4401
悮	-12.4401
穡	-12.4402
婬	-12.4402
馘	-12.4402
縂	-12.4403
紕	-12.4405
珤	-12.4406
蓀	-12.4407
孛	-12.441
蚡	-12.4411
錚	-12.4425
昞	-12.4438
啻	-12.479
鍍	-12.489
櫾	-12.489
蕞	-12.4891
鰼	-12.4892
峡	-12.4895
巗	-12.4895
糝	-12.4896
駼	-12.4896
閈	-12.4896
鋹	-12.4896
倔	-12.4896
齕	-12.4899
揉	-12.4899
媟	-12.49
纉	-12.4901
酎	-12.4902
惹	-12.4902
顇	-12.4902
皴	-12.4902
㯽	-12.4903
戞	-12.4903
藇	-12.4903
㤙	-12.4904
蘼	-12.4904
熺	-12.4905
獮	-12.4906
薬	-12.4906
􁰽	-12.4906
擴	-12.4906
澦	-12.4906
碍	-12.4908
嵎	-12.4908
貉	-12.491
芹	-12.491
珊	-12.491
渦	-12.4911
濦	-12.4912
渤	-12.4912
宓	-12.4912
寞	-12.4912
鏖	-12.4913
扳	-12.4913
媾	-12.4914
㨿	-12.4914
酖	-12.4914
蹌	-12.4915
髽	-12.4915
縢	-12.4915
縲	-12.4915
廄	-12.4916
餤	-12.4916
濩	-12.4916
扑	-12.4916
胙	-12.4916
靨	-12.4917
翬	-12.4918
麪	-12.4918
鑼	-12.4918
矦	-12.492
擷	-12.4921
竚	-12.4922
髹	-12.4922
夔	-12.4922
𬒮	-12.4923
賸	-12.4923
䣛	-12.4923
洱	-12.4924
蠆	-12.4925
箆	-12.4925
畒	-12.4927
闠	-12.4931
泮	-12.4931
犇	-12.4932
瘟	-12.4932
瀦	-12.4933
燠	-12.4934
􁝜	-12.4935
拌	-12.4936
饘	-12.4943
抺	-12.5437
悙	-12.5444
揑	-12.5444
徠	-12.5447
鰒	-12.5448
臷	-12.5448
柁	-12.545
昃	-12.5451
晶	-12.5451
驀	-12.5452
諢	-12.5453
䍶	-12.5453
耙	-12.5453
緄	-12.5454
澍	-12.5454
峘	-12.5455
篩	-12.5455
蕊	-12.5456
萯	-12.5457
閾	-12.5458
嵫	-12.5459
殳	-12.546
猊	-12.546
馹	-12.546
瑠	-12.546
侁	-12.546
耘	-12.5461
冽	-12.5461
罏	-12.5461
痼	-12.5461
縚	-12.5461
异	-12.5461
儘	-12.5462
凂	-12.5462
棐	-12.5462
妆	-12.5463
丏	-12.5463
雎	-12.5464
綻	-12.5464
醤	-12.5464
灤	-12.5465
癉	-12.5466
闒	-12.5466
匏	-12.5466
竑	-12.5467
淂	-12.5467
肪	-12.5467
潏	-12.5467
㶚	-12.5467
覷	-12.5468
㢤	-12.5469
蟣	-12.5469
饉	-12.5469
賖	-12.547
苣	-12.547
郅	-12.547
皃	-12.547
橡	-12.5471
痍	-12.5471
榱	-12.5471
丰	-12.5472
豳	-12.5472
猳	-12.5473
遴	-12.5473
淆	-12.5474
鞮	-12.5474
卸	-12.5475
吮	-12.5475
斁	-12.5475
筴	-12.5476
溱	-12.5477
匾	-12.5478
笻	-12.5478
惓	-12.5479
臊	-12.5479
忖	-12.5479
慴	-12.5479
饜	-12.5479
钁	-12.548
鵓	-12.5481
鶩	-12.5481
褾	-12.5482
垕	-12.5484
摴	-12.5484
攤	-12.5484
璇	-12.5485
榷	-12.5485
韈	-12.5485
貓	-12.5486
朧	-12.5487
幵	-12.5489
籮	-12.5491
磕	-12.5495
繽	-12.5495
䗫	-12.5496
詗	-12.6026
廋	-12.603
鵸	-12.6038
餧	-12.6039
䁮	-12.6039
彄	-12.6041
蝉	-12.6041
畛	-12.6041
鱟	-12.6042
珧	-12.6042
䏿	-12.6042
鶡	-12.6044
楢	-12.6044
囹	-12.6045
醻	-12.6045
隤	-12.6045
虨	-12.6046
狭	-12.6046
瘕	-12.6046
􁀾	-12.6047
肄	-12.6047
薙	-12.6047
偪	-12.6049
鐃	-12.6049
軺	-12.6049
鑽	-12.6049
牁	-12.6049
庳	-12.6049
䆫	-12.605
崙	-12.605
浯	-12.605
㤀	-12.6051
妊	-12.6051
顫	-12.6051
嗷	-12.6052
彠	-12.6052
唫	-12.6052
哄	-12.6052
鄽	-12.6053
紼	-12.6053
匄	-12.6053
驃	-12.6053
灔	-12.6053
徯	-12.6053
敭	-12.6053
塤	-12.6054
葯	-12.6054
爬	-12.6055
ခ	-12.6055
掞	-12.6056
蜺	-12.6057
駈	-12.6057
邾	-12.6057
踧	-12.6057
荇	-12.6057
踖	-12.6058
矻	-12.6058
滈	-12.6058
儵	-12.6058
宂	-12.6059
祲	-12.606
㮣	-12.606
瀧	-12.606
酴	-12.6061
饔	-12.6061
崆	-12.6061
傖	-12.6062
遄	-12.6062
蒺	-12.6062
孳	-12.6063
蜊	-12.6063
骼	-12.6063
梦	-12.6064
菔	-12.6064
湔	-12.6065
戦	-12.6066
凹	-12.6066
瘖	-12.6066
单	-12.6067
怎	-12.6067
鞦	-12.6067
獷	-12.6067
贗	-12.6067
怜	-12.6068
癯	-12.6068
霤	-12.6068
搨	-12.6069
湓	-12.607
霰	-12.6071
跑	-12.6071
傀	-12.6071
怫	-12.6074
𣑽	-12.6076
瓤	-12.6076
靦	-12.6076
䍐	-12.6078
僴	-12.6079
蛄	-12.6079
嶤	-12.6091
靼	-12.6091
沬	-12.665
蕝	-12.6652
孥	-12.6658
枿	-12.6659
黝	-12.6661
捭	-12.6661
礴	-12.6663
蠓	-12.6665
尠	-12.6665
祫	-12.6665
魨	-12.6665
偎	-12.6668
咆	-12.6668
鶒	-12.6668
秭	-12.6669
襁	-12.6669
猎	-12.6669
皿	-12.6669
窳	-12.667
滚	-12.667
圈	-12.667
濼	-12.667
醲	-12.6671
呿	-12.6671
孱	-12.6671
攏	-12.6672
𪠘	-12.6673
鈒	-12.6674
逶	-12.6674
嘑	-12.6675
漯	-12.6675
灊	-12.6675
搘	-12.6675
氅	-12.6676
癬	-12.6676
蜣	-12.6676
襕	-12.6676
痴	-12.6677
蒔	-12.6677
􁨇	-12.6678
瑇	-12.6678
苹	-12.6678
桔	-12.6678
蜉	-12.6678
蠣	-12.6678
郫	-12.668
鮭	-12.6681
僶	-12.6681
枰	-12.6681
柝	-12.6681
宁	-12.6681
圬	-12.6682
臈	-12.6682
氤	-12.6682
芃	-12.6682
趫	-12.6682
薯	-12.6682
趁	-12.6682
穂	-12.6683
恟	-12.6683
縟	-12.6683
耨	-12.6683
罝	-12.6683
焜	-12.6683
噏	-12.6683
躄	-12.6683
歔	-12.6684
瞢	-12.6684
郃	-12.6684
鵩	-12.6684
眎	-12.6685
蹻	-12.6685
嘈	-12.6685
眙	-12.6685
綮	-12.6686
逭	-12.6687
痁	-12.6688
罘	-12.6688
闖	-12.6689
麕	-12.6689
緼	-12.6689
朢	-12.669
岏	-12.669
霾	-12.669
摇	-12.669
梔	-12.669
釂	-12.6691
饍	-12.6691
鬃	-12.6691
蟇	-12.6691
偘	-12.6691
惙	-12.6693
讋	-12.6693
拚	-12.6693
忒	-12.6694
彀	-12.6694
巂	-12.6695
鍬	-12.6695
儡	-12.6695
筞	-12.6695
瀬	-12.6696
淤	-12.6696
尽	-12.6696
篥	-12.6696
刓	-12.6696
腯	-12.6696
爹	-12.6697
祉	-12.6698
芡	-12.6698
餵	-12.6698
套	-12.6699
氾	-12.6701
鷃	-12.6702
賺	-12.6703
瑫	-12.6705
壐	-12.6709
鸐	-12.6711
綝	-12.731
獅	-12.7314
隍	-12.7318
阪	-12.732
鄔	-12.732
哮	-12.7324
麯	-12.7327
齠	-12.7328
蓴	-12.7329
鶘	-12.733
瓻	-12.733
刦	-12.7331
窹	-12.7331
蕕	-12.7331
絁	-12.7331
鷸	-12.7332
鮐	-12.7333
頞	-12.7334
呀	-12.7334
羬	-12.7335
棖	-12.7335
礼	-12.7335
晒	-12.7335
珫	-12.7336
諞	-12.7336
漪	-12.7336
麂	-12.7336
埭	-12.7337
𥚑	-12.7338
粃	-12.7339
􁑮	-12.7339
蓁	-12.734
棫	-12.734
忭	-12.734
踆	-12.7341
哆	-12.7341
凊	-12.7341
瑑	-12.7341
猢	-12.7343
韲	-12.7344
碭	-12.7344
鵉	-12.7345
葫	-12.7345
柎	-12.7346
衊	-12.7346
𧺫	-12.7346
鉸	-12.7346
瀹	-12.7348
崢	-12.7349
抝	-12.7349
个	-12.7349
嫚	-12.7349
茆	-12.7349
繰	-12.735
桎	-12.735
轆	-12.7351
慱	-12.7351
譓	-12.7351
轤	-12.7351
蕳	-12.7351
狻	-12.7352
柂	-12.7352
賨	-12.7352
輀	-12.7352
䌫	-12.7352
疉	-12.7353
貔	-12.7353
耦	-12.7353
玕	-12.7353
睞	-12.7353
鰌	-12.7354
䖟	-12.7354
拇	-12.7355
疹	-12.7355
踢	-12.7355
硃	-12.7355
瓔	-12.7355
徊	-12.7356
珞	-12.7356
衽	-12.7357
綳	-12.7357
柢	-12.7357
輈	-12.7358
愒	-12.7359
鯔	-12.7359
鯸	-12.736
杌	-12.7362
繢	-12.7362
欎	-12.7362
岧	-12.7363
脰	-12.7363
𦦨	-12.7364
鏟	-12.7366
臾	-12.7367
溘	-12.7368
猒	-12.737
㡓	-12.7371
瀵	-12.7373
橦	-12.7378
睍	-12.7387
邙	-12.8026
昫	-12.8032
㝵	-12.8032
𬗋	-12.8034
週	-12.8037
䦘	-12.8038
蜋	-12.8039
鮆	-12.804
獙	-12.804
蠪	-12.8041
懔	-12.8046
搯	-12.8046
漼	-12.8046
鮯	-12.8047
𠻳	-12.8048
蚨	-12.8049
髫	-12.8049
鱅	-12.805
徨	-12.805
薏	-12.805
窪	-12.805
媽	-12.805
蚳	-12.8051
雘	-12.8052
碪	-12.8052
睪	-12.8053
顕	-12.8053
臞	-12.8053
噶	-12.8054
淯	-12.8055
魴	-12.8055
桉	-12.8055
蜡	-12.8055
𠂻	-12.8055
餠	-12.8056
楙	-12.8056
蜻	-12.8056
涘	-12.8056
秔	-12.8056
櫨	-12.8057
茁	-12.8058
𣺌	-12.8059
埀	-12.806
趄	-12.806
迁	-12.806
觱	-12.806
煬	-12.806
􁈡	-12.8061
迍	-12.8062
崤	-12.8062
嘖	-12.8062
凸	-12.8063
勌	-12.8063
掎	-12.8063
娩	-12.8063
遅	-12.8063
韌	-12.8063
睠	-12.8064
櫳	-12.8064
栱	-12.8065
鶬	-12.8065
恁	-12.8066
莵	-12.8066
尻	-12.8067
駰	-12.8067
棓	-12.8068
㠶	-12.8068
跟	-12.8068
鑱	-12.8068
襜	-12.8068
棼	-12.8068
邡	-12.8069
絀	-12.8069
旐	-12.8069
儦	-12.8069
覦	-12.8071
桁	-12.8071
鄲	-12.8071
艫	-12.8071
尙	-12.8072
馗	-12.8072
蠵	-12.8072
洊	-12.8072
臮	-12.8072
郿	-12.8073
祓	-12.8073
橈	-12.8074
眥	-12.8075
籜	-12.8075
芙	-12.8076
癥	-12.8076
瘍	-12.8077
滙	-12.8078
畞	-12.8079
沭	-12.8079
珓	-12.8079
挼	-12.808
籹	-12.808
菉	-12.8082
緦	-12.8088
邜	-12.8091
祺	-12.8096
蜒	-12.81
訇	-12.8798
螂	-12.8799
倮	-12.8805
纁	-12.8806
狪	-12.8806
傔	-12.8807
戬	-12.881
裭	-12.8815
貆	-12.8815
懟	-12.8816
珩	-12.8818
峪	-12.8818
爱	-12.882
遡	-12.8821
㴩	-12.8823
帊	-12.8823
佽	-12.8823
韐	-12.8823
焼	-12.8824
鐔	-12.8824
蘺	-12.8825
鸑	-12.8825
咈	-12.8825
砭	-12.8826
鶹	-12.8826
蔲	-12.8826
嶢	-12.8826
䉋	-12.8826
濘	-12.8826
䘖	-12.8826
蠚	-12.8827
嬋	-12.8827
甍	-12.8827
蓺	-12.8827
躶	-12.8827
颶	-12.8827
藎	-12.8827
紲	-12.8828
戣	-12.8828
茜	-12.8828
㦲	-12.8828
麑	-12.8828
摻	-12.8828
愳	-12.883
虓	-12.883
侠	-12.8831
鬍	-12.8831
僃	-12.8831
桴	-12.8831
漓	-12.8831
鄖	-12.8832
鱷	-12.8832
瞩	-12.8832
悃	-12.8833
摳	-12.8833
椉	-12.8833
酩	-12.8833
戺	-12.8833
椑	-12.8834
諉	-12.8834
簴	-12.8835
慼	-12.8835
􁫢	-12.8836
擗	-12.8836
邨	-12.8837
蹀	-12.8838
埴	-12.8838
藐	-12.8838
儺	-12.8838
櫚	-12.8839
迩	-12.8839
頏	-12.8839
糵	-12.884
煅	-12.884
蜞	-12.884
崕	-12.884
銕	-12.884
嚏	-12.8841
嗽	-12.8842
萹	-12.8843
罨	-12.8843
瑚	-12.8843
侄	-12.8843
鞚	-12.8844
騖	-12.8845
枵	-12.8845
刖	-12.8846
鴣	-12.8846
砑	-12.8846
菡	-12.8846
呷	-12.8846
秖	-12.8847
蜿	-12.8847
蜾	-12.8847
劚	-12.8848
𡵨	-12.8848
瞎	-12.8851
肈	-12.8851
􁄭	-12.8852
躐	-12.8853
痾	-12.8853
窬	-12.8855
票	-12.8858
鮧	-12.8858
闉	-12.8858
淙	-12.8859
愻	-12.9626
幛	-12.9628
膨	-12.963
硤	-12.9633
眈	-12.9639
鷮	-12.9642
摰	-12.9643
穄	-12.9645
􁏏	-12.9645
鋟	-12.9646
瓛	-12.9647
葌	-12.9649
炅	-12.9649
鯈	-12.965
賵	-12.965
啁	-12.965
訏	-12.965
鍠	-12.9652
訆	-12.9653
椶	-12.9653
剩	-12.9654
詖	-12.9654
裛	-12.9654
洼	-12.9654
删	-12.9655
嗌	-12.9655
捺	-12.9655
很	-12.9655
璝	-12.9655
䳌	-12.9655
誗	-12.9657
狺	-12.9658
絺	-12.9658
滷	-12.9658
鍮	-12.9659
垠	-12.966
哦	-12.966
淅	-12.966
糯	-12.9661
蚪	-12.9661
鼙	-12.9661
㬰	-12.9662
晬	-12.9664
䥫	-12.9664
侗	-12.9664
滲	-12.9664
檉	-12.9664
㝢	-12.9664
勳	-12.9665
卅	-12.9665
搒	-12.9665
釃	-12.9665
籞	-12.9665
錙	-12.9666
軏	-12.9667
愐	-12.9667
莓	-12.9667
牴	-12.9667
􁌻	-12.9667
煆	-12.9667
袷	-12.9667
邛	-12.9668
倏	-12.9668
昜	-12.9668
豋	-12.9669
淼	-12.9669
贜	-12.9669
􁏢	-12.9669
挐	-12.9669
聪	-12.967
歕	-12.9671
欬	-12.9671
廚	-12.9671
呶	-12.9671
?	-12.9671
斕	-12.9672
梏	-12.9672
脞	-12.9673
洿	-12.9673
鷖	-12.9673
醅	-12.9673
茱	-12.9675
嫣	-12.9675
噦	-12.9675
罳	-12.9676
鴒	-12.9676
丫	-12.9676
鍰	-12.9677
圻	-12.9677
駘	-12.9677
萏	-12.9679
塍	-12.968
蠭	-12.968
墁	-12.9681
垤	-12.9681
仵	-12.9681
秬	-12.9681
峥	-12.9681
鯪	-12.9681
弥	-12.9682
輾	-12.9682
号	-12.9683
薿	-12.9683
曁	-12.9684
鐐	-12.9686
鳧	-12.9686
舐	-12.9687
鬘	-12.9687
牎	-12.9687
迕	-12.9688
靛	-12.9689
煨	-12.9689
㩁	-12.9692
雊	-12.9692
壈	-12.9692
矴	-12.9694
旟	-12.9699
瞍	-12.9708
菘	-12.9713
圌	-12.9718
槧	-12.9722
􁩪	-12.9743
偌	-13.0472
骰	-13.053
憕	-13.054
篴	-13.0543
柷	-13.0544
趯	-13.0549
泜	-13.055
朌	-13.055
琹	-13.0551
鸝	-13.0551
翡	-13.0552
曅	-13.0552
螗	-13.0553
燁	-13.0554
㬇	-13.0554
匯	-13.0554
炉	-13.0555
娉	-13.0555
姫	-13.0555
􁃄	-13.0556
䱻	-13.0556
崍	-13.0557
眊	-13.0557
顦	-13.0558
銑	-13.0558
峳	-13.0558
罸	-13.0559
鑛	-13.0559
齔	-13.0559
䄄	-13.0559
粛	-13.056
璈	-13.056
竆	-13.056
稳	-13.0561
吭	-13.0561
杙	-13.0562
芘	-13.0562
鳲	-13.0562
渌	-13.0562
褭	-13.0563
禩	-13.0563
㡳	-13.0563
蔌	-13.0563
郟	-13.0563
炰	-13.0563
幟	-13.0563
煽	-13.0564
耜	-13.0564
汛	-13.0564
砆	-13.0564
膂	-13.0565
鶼	-13.0565
蚋	-13.0565
牣	-13.0565
跧	-13.0566
跚	-13.0566
爚	-13.0566
燻	-13.0566
蠐	-13.0566
跽	-13.0566
姆	-13.0567
旴	-13.0567
篷	-13.0567
砢	-13.0567
稌	-13.0567
潨	-13.0567
耍	-13.0567
屆	-13.0568
䓘	-13.0568
洺	-13.0569
䱜	-13.0569
㒷	-13.0569
紞	-13.057
沲	-13.0571
惬	-13.0571
份	-13.0572
咂	-13.0572
灋	-13.0572
栩	-13.0572
䌓	-13.0572
鄱	-13.0572
嫠	-13.0573
恝	-13.0573
汐	-13.0573
幍	-13.0573
硎	-13.0574
恧	-13.0574
繍	-13.0574
戛	-13.0574
􁂚	-13.0575
婭	-13.0575
褓	-13.0575
赬	-13.0576
郪	-13.0577
靶	-13.0577
杅	-13.0578
懃	-13.0578
愊	-13.0579
跏	-13.0579
帋	-13.0579
栅	-13.0579
鼃	-13.0579
擦	-13.0579
杠	-13.058
曈	-13.058
鄼	-13.058
忮	-13.058
撙	-13.0581
罡	-13.0581
􁒍	-13.0583
艤	-13.0583
蔥	-13.0583
雏	-13.0584
狴	-13.0584
杆	-13.0584
阬	-13.0585
燖	-13.0586
簳	-13.0587
舳	-13.0587
瞠	-13.0589
𠡠	-13.0595
㣧	-13.0597
臝	-13.0597
璥	-13.06
皛	-13.0604
櫻	-13.0608
蚰	-13.0622
䏶	-13.0624
羕	-13.1484
􁁅	-13.1517
桕	-13.153
萋	-13.1541
􁘠	-13.1541
鎡	-13.1546
捎	-13.1546
飮	-13.1547
􁳜	-13.1549
隥	-13.1549
齩	-13.155
穣	-13.1551
齁	-13.1551
絝	-13.1553
胛	-13.1553
粕	-13.1553
㞐	-13.1555
􁡤	-13.1555
蔞	-13.1555
褉	-13.1555
鱃	-13.1555
尭	-13.1556
龢	-13.1556
媯	-13.1556
醎	-13.1556
獳	-13.1556
鴸	-13.1557
苫	-13.1557
菹	-13.1557
􁪳	-13.1557
𤯝	-13.1558
凟	-13.1558
㬢	-13.1558
璲	-13.1558
寬	-13.1558
浥	-13.1558
瑝	-13.1558
荽	-13.1558
蒍	-13.1559
魋	-13.156
蘊	-13.156
箝	-13.156
刉	-13.156
蟋	-13.156
瑨	-13.1561
鋩	-13.1561
鱔	-13.1561
瞤	-13.1561
蕎	-13.1561
您	-13.1562
稲	-13.1562
祸	-13.1562
磈	-13.1562
緗	-13.1562
逥	-13.1563
兌	-13.1563
賕	-13.1563
螃	-13.1563
确	-13.1563
􁔺	-13.1563
惚	-13.1564
黟	-13.1565
茙	-13.1565
孌	-13.1565
滇	-13.1566
嗑	-13.1566
苡	-13.1567
駃	-13.1567
傒	-13.1567
▫	-13.1567
嫖	-13.1568
劘	-13.1568
髄	-13.1569
韀	-13.1569
棕	-13.1569
膞	-13.1569
蹏	-13.157
俜	-13.157
熄	-13.157
寚	-13.157
𨫼	-13.1571
鍪	-13.1571
旤	-13.1571
狃	-13.1572
櫂	-13.1572
宄	-13.1572
猙	-13.1572
鴦	-13.1572
雚	-13.1572
瀣	-13.1572
懺	-13.1572
䊸	-13.1573
沍	-13.1573
颷	-13.1573
膈	-13.1573
繅	-13.1573
鶂	-13.1573
霎	-13.1574
踔	-13.1574
颼	-13.1574
饞	-13.1575
嬸	-13.1575
剸	-13.1575
墼	-13.1576
灝	-13.1576
峋	-13.1576
嵯	-13.1576
臙	-13.1577
适	-13.1577
鵽	-13.1578
鄕	-13.1578
螘	-13.1578
斮	-13.1578
狁	-13.1578
朘	-13.1579
郜	-13.1579
鼷	-13.158
䍧	-13.158
瞭	-13.158
芍	-13.158
緱	-13.158
坰	-13.158
𫐠	-13.158
鏊	-13.1581
岵	-13.1581
厩	-13.1581
曀	-13.1581
蠹	-13.1581
潬	-13.1582
蛣	-13.1582
偲	-13.1582
缽	-13.1582
徕	-13.1582
鷴	-13.1582
湩	-13.1583
坻	-13.1583
檇	-13.1583
鷇	-13.1584
瓴	-13.1584
畹	-13.1584
牯	-13.1585
輛	-13.1586
僇	-13.1586
昷	-13.1586
另	-13.1587
撇	-13.1587
洑	-13.1587
挲	-13.1589
𣏌	-13.1589
粽	-13.1589
舩	-13.159
鵾	-13.1591
􁇔	-13.1591
􁪽	-13.1591
䛆	-13.1593
靠	-13.1594
枻	-13.1594
籪	-13.1595
觷	-13.1595
茰	-13.1596
櫄	-13.1596
鏜	-13.1597
满	-13.1597
㑭	-13.1598
嵊	-13.1599
秊	-13.16
稈	-13.1603
洫	-13.1606
讟	-13.1607
礮	-13.1608
緤	-13.1613
洸	-13.1616
肫	-13.1617
縵	-13.2639
麺	-13.2645
􁡖	-13.2645
鈃	-13.2646
鄏	-13.265
檿	-13.2652
饀	-13.2653
郇	-13.2656
鰻	-13.2657
蜯	-13.2658
囝	-13.266
媱	-13.2662
鬿	-13.2662
盬	-13.2662
丌	-13.2663
渢	-13.2663
絇	-13.2663
狢	-13.2664
咮	-13.2664
櫧	-13.2665
褢	-13.2666
閡	-13.2666
稺	-13.2666
厷	-13.2667
轔	-13.2667
䳋	-13.2667
癙	-13.2667
砟	-13.2668
􁟆	-13.2668
峚	-13.2668
襚	-13.2669
狍	-13.2669
癎	-13.2669
鎌	-13.267
􁍄	-13.267
嘹	-13.267
蠍	-13.2672
琈	-13.2672
芭	-13.2672
樾	-13.2672
銚	-13.2672
痓	-13.2673
哇	-13.2673
柜	-13.2673
聵	-13.2673
鸓	-13.2673
騭	-13.2674
䕷	-13.2674
齓	-13.2674
楶	-13.2674
蟜	-13.2674
攧	-13.2674
塿	-13.2675
恓	-13.2675
􁅥	-13.2675
瑿	-13.2675
坏	-13.2675
㹅	-13.2675
䔄	-13.2677
蚕	-13.2677
獋	-13.2677
鵫	-13.2678
覯	-13.2678
鵜	-13.2678
埓	-13.2678
砦	-13.2679
渟	-13.2679
譫	-13.2679
澇	-13.2679
礜	-13.2679
攙	-13.2679
謦	-13.268
穜	-13.268
蚶	-13.268
璅	-13.268
􁀳	-13.268
贔	-13.2681
瘻	-13.2682
町	-13.2683
换	-13.2683
麨	-13.2683
餡	-13.2683
抨	-13.2684
䴡	-13.2684
軛	-13.2684
嶄	-13.2685
汊	-13.2685
枲	-13.2685
筲	-13.2685
􁂄	-13.2686
皦	-13.2686
猧	-13.2686
蜴	-13.2687
渲	-13.2687
􁃇	-13.2687
蝡	-13.2687
垓	-13.2689
憀	-13.2689
瓏	-13.2689
暍	-13.2689
穨	-13.269
詒	-13.269
笴	-13.2691
鐻	-13.2691
滽	-13.2691
俁	-13.2692
憝	-13.2692
臬	-13.2693
㮚	-13.2693
曏	-13.2693
頁	-13.2693
肹	-13.2693
罐	-13.2693
尿	-13.2694
穪	-13.2694
墖	-13.2694
詼	-13.2694
劊	-13.2695
瘼	-13.2695
謖	-13.2695
卹	-13.2695
𥅆	-13.2696
暾	-13.2696
痿	-13.2696
裩	-13.2696
暏	-13.2696
邰	-13.2697
丨	-13.2697
繂	-13.2697
輶	-13.2697
璚	-13.2697
箬	-13.2697
􁂫	-13.2697
嚲	-13.2698
籛	-13.2698
耴	-13.2699
􁃻	-13.2699
惨	-13.2699
鋺	-13.2699
櫰	-13.27
蝇	-13.27
翶	-13.2701
䏰	-13.2701
揕	-13.2701
辠	-13.2701
㛮	-13.2702
癲	-13.2702
騘	-13.2702
虔	-13.2702
酇	-13.2703
𣪚	-13.2704
惣	-13.2705
骭	-13.2706
瞀	-13.2706
㐲	-13.2707
逌	-13.2707
鏵	-13.2707
跗	-13.2707
泪	-13.2708
鳷	-13.2708
蹠	-13.2708
霪	-13.271
縡	-13.271
姧	-13.271
韮	-13.2711
舗	-13.2711
仿	-13.2715
躧	-13.2718
猺	-13.2718
騤	-13.272
窰	-13.2724
睒	-13.2724
逑	-13.2731
棉	-13.2743
繄	-13.2748
􁨊	-13.385
溽	-13.3883
悊	-13.3889
轓	-13.3893
攴	-13.3894
萆	-13.39
蝻	-13.3902
孿	-13.3904
夬	-13.3904
繶	-13.3904
頧	-13.3909
䗤	-13.391
搊	-13.3911
鬅	-13.3913
䬃	-13.3913
黧	-13.3914
鈸	-13.3914
怵	-13.3914
襤	-13.3914
􁋙	-13.3914
犳	-13.3915
楄	-13.3915
㨂	-13.3915
肸	-13.3915
鶋	-13.3916
毡	-13.3916
􁙻	-13.3916
樷	-13.3917
胝	-13.3917
揎	-13.3918
椆	-13.3918
囈	-13.3918
獫	-13.3918
琲	-13.3919
眘	-13.392
缻	-13.392
胗	-13.392
灧	-13.3922
棁	-13.3922
胖	-13.3922
𦍑	-13.3922
騄	-13.3923
悱	-13.3924
㹮	-13.3924
茝	-13.3925
蜩	-13.3925
秧	-13.3925
􁔼	-13.3925
渰	-13.3926
㗸	-13.3926
荗	-13.3926
羭	-13.3926
藳	-13.3926
呫	-13.3926
蒹	-13.3926
䃌	-13.3927
桅	-13.3927
縧	-13.3927
輭	-13.3927
琤	-13.3927
趠	-13.3928
剚	-13.3928
瘉	-13.3928
眤	-13.3928
菠	-13.3928
咫	-13.3929
犛	-13.3929
宧	-13.3929
雝	-13.393
剨	-13.393
甬	-13.393
籲	-13.393
蓉	-13.393
歊	-13.3931
蜆	-13.3931
鬷	-13.3931
沌	-13.3931
絨	-13.3932
􁍯	-13.3932
紒	-13.3932
耎	-13.3932
苨	-13.3932
鞈	-13.3933
汹	-13.3933
邐	-13.3933
暕	-13.3934
㶌	-13.3935
樿	-13.3935
啚	-13.3935
噓	-13.3935
徉	-13.3935
嚨	-13.3935
莪	-13.3936
訑	-13.3936
涑	-13.3936
􁬸	-13.3936
栒	-13.3936
汔	-13.3937
壍	-13.3937
賷	-13.3937
澱	-13.3938
侖	-13.3938
藟	-13.3939
鑞	-13.3939
鎪	-13.3939
鵒	-13.3939
㷔	-13.394
睱	-13.394
軆	-13.3941
臑	-13.3941
凰	-13.3942
冑	-13.3942
唤	-13.3942
牷	-13.3942
濂	-13.3942
饟	-13.3943
榕	-13.3943
猩	-13.3943
廱	-13.3944
佉	-13.3944
簑	-13.3945
幀	-13.3945
楬	-13.3945
颿	-13.3945
躩	-13.3946
㢮	-13.3946
蛀	-13.3946
鷫	-13.3946
鞹	-13.3946
牗	-13.3946
畊	-13.3947
幗	-13.3948
黁	-13.3948
遟	-13.3948
妲	-13.3948
俵	-13.3949
亰	-13.395
鑕	-13.395
荈	-13.395
􁏉	-13.395
疚	-13.395
漙	-13.395
赶	-13.3951
鄮	-13.3951
鬒	-13.3952
眚	-13.3952
摑	-13.3953
鰓	-13.3954
蟛	-13.3955
閠	-13.3956
檛	-13.3956
倂	-13.3957
蠋	-13.3958
踶	-13.3958
坯	-13.3959
忼	-13.3959
逯	-13.3959
獍	-13.396
獎	-13.3961
銙	-13.3961
柸	-13.3961
恇	-13.3962
熇	-13.3962
眨	-13.3965
䌈	-13.3966
泆	-13.3967
薌	-13.3968
倞	-13.3972
韃	-13.3976
鵪	-13.3976
圊	-13.3978
辿	-13.3984
卬	-13.3984
揵	-13.3993
澌	-13.3999
欀	-13.5312
餕	-13.5319
姁	-13.5326
嗓	-13.5329
耋	-13.5333
﨑	-13.5334
开	-13.5334
濰	-13.5335
鎛	-13.5336
䔥	-13.5336
渷	-13.5336
䖺	-13.5337
湋	-13.5338
蟞	-13.5338
洈	-13.5338
譾	-13.5339
頮	-13.5339
狳	-13.5341
隃	-13.5341
𢋫	-13.5341
塪	-13.5341
嶔	-13.5342
记	-13.5342
䖀	-13.5342
翆	-13.5343
攲	-13.5343
扯	-13.5344
樺	-13.5344
墠	-13.5344
媧	-13.5344
璺	-13.5344
晠	-13.5345
𤞞	-13.5345
痏	-13.5345
晛	-13.5345
􁙼	-13.5346
貘	-13.5346
胅	-13.5346
魮	-13.5347
籧	-13.5347
嫵	-13.5347
弢	-13.5347
蕣	-13.5348
灮	-13.5348
鯥	-13.5349
􁲕	-13.5349
淊	-13.5349
􁋢	-13.535
醑	-13.535
鬆	-13.535
􁧑	-13.535
蘢	-13.535
糁	-13.535
咺	-13.535
琁	-13.5351
􁖅	-13.5351
栻	-13.5351
煗	-13.5351
􁙹	-13.5351
㻬	-13.5352
唼	-13.5352
碟	-13.5352
芎	-13.5352
舵	-13.5352
㗋	-13.5352
䟎	-13.5352
栯	-13.5352
嗛	-13.5352
壎	-13.5353
禔	-13.5353
揾	-13.5353
堲	-13.5353
搕	-13.5353
硌	-13.5353
躰	-13.5353
鰾	-13.5354
雰	-13.5354
榿	-13.5354
綌	-13.5354
譍	-13.5354
旎	-13.5354
㛗	-13.5354
儇	-13.5355
硝	-13.5356
豨	-13.5356
㹥	-13.5356
巇	-13.5356
纑	-13.5356
洄	-13.5356
瀏	-13.5357
葶	-13.5357
畸	-13.5357
僰	-13.5357
苃	-13.5357
矰	-13.5358
嵘	-13.5358
棪	-13.5359
賮	-13.536
嬈	-13.536
􁦍	-13.536
灂	-13.5361
珀	-13.5361
薁	-13.5361
茇	-13.5362
皈	-13.5362
碔	-13.5362
泔	-13.5362
艧	-13.5362
澮	-13.5362
􁀊	-13.5362
迃	-13.5362
桄	-13.5362
蕐	-13.5362
䳐	-13.5363
羚	-13.5363
渊	-13.5363
龠	-13.5363
簌	-13.5363
㽵	-13.5364
剄	-13.5364
琶	-13.5364
笁	-13.5364
搓	-13.5364
鼬	-13.5364
冇	-13.5364
䰠	-13.5364
蹣	-13.5365
禨	-13.5365
絏	-13.5365
晊	-13.5365
蠔	-13.5365
㺊	-13.5366
剮	-13.5366
㛐	-13.5366
佀	-13.5366
􁁱	-13.5366
趐	-13.5366
薲	-13.5367
珵	-13.5367
熠	-13.5367
袄	-13.5367
樕	-13.5367
篘	-13.5368
宝	-13.5368
忸	-13.5368
刧	-13.5368
黌	-13.5369
樅	-13.5369
摉	-13.5369
憍	-13.537
敡	-13.537
帬	-13.5371
䓗	-13.5371
杬	-13.5371
疴	-13.5372
􁐰	-13.5372
喭	-13.5372
桯	-13.5373
飦	-13.5374
沗	-13.5374
鞞	-13.5374
噆	-13.5374
襧	-13.5374
鞲	-13.5374
霣	-13.5375
燐	-13.5376
􁂣	-13.5377
麖	-13.5377
楩	-13.5377
覉	-13.5378
坈	-13.5378
睽	-13.5378
𫾣	-13.5378
鄷	-13.5379
螄	-13.5379
㫋	-13.538
宐	-13.538
蝘	-13.538
鶱	-13.538
訹	-13.538
膴	-13.538
辮	-13.538
􁏈	-13.5381
􁁙	-13.5381
粢	-13.5381
鷦	-13.5381
騙	-13.5381
䜴	-13.5382
圑	-13.5382
耼	-13.5382
霹	-13.5382
筥	-13.5383
旼	-13.5383
惸	-13.5383
錘	-13.5384
溍	-13.5385
𡼏	-13.5385
鄄	-13.5385
嬿	-13.5386
𬋩	-13.5386
莆	-13.5386
泐	-13.5386
䠞	-13.5386
阽	-13.5386
筓	-13.5386
􁙯	-13.5387
貙	-13.5387
獒	-13.5387
餖	-13.5388
莧	-13.5388
麀	-13.5391
蕷	-13.5392
㲲	-13.5392
篪	-13.5394
僱	-13.5395
樝	-13.5395
剟	-13.5395
离	-13.5396
餺	-13.5396
莩	-13.5397
礧	-13.5398
曨	-13.54
􁅃	-13.54
踝	-13.5401
蚘	-13.5404
璐	-13.5405
佋	-13.5409
庋	-13.5412
􁂁	-13.6918
􁑰	-13.6955
薔	-13.6972
𠢐	-13.6974
䣙	-13.6976
鞉	-13.6979
姢	-13.698
􁂶	-13.6985
拴	-13.6986
糒	-13.6987
鯾	-13.6988
奶	-13.6989
䎶	-13.699
犨	-13.6991
輗	-13.6996
渫	-13.6998
篨	-13.6999
呆	-13.7
尨	-13.7001
蓨	-13.7001
眶	-13.7001
俑	-13.7002
翣	-13.7004
埻	-13.7004
襌	-13.7005
䀾	-13.7005
蝯	-13.7006
榎	-13.7006
頦	-13.7006
蘩	-13.7007
蛮	-13.7007
胾	-13.7007
惘	-13.7007
紃	-13.7007
㵸	-13.7008
犰	-13.7008
鼯	-13.7008
莬	-13.7008
蹯	-13.7008
酗	-13.7008
㰱	-13.7008
撈	-13.7009
慍	-13.7009
奧	-13.7009
琖	-13.7009
瞚	-13.7009
硾	-13.7009
􁎀	-13.701
訞	-13.701
檷	-13.701
䍺	-13.701
􁯛	-13.7011
涣	-13.7011
蕢	-13.7012
蝀	-13.7013
窽	-13.7013
􁁪	-13.7013
鱤	-13.7013
螮	-13.7013
厎	-13.7014
噂	-13.7014
䴅	-13.7014
䨼	-13.7014
䐁	-13.7014
袝	-13.7015
梠	-13.7015
崌	-13.7015
眭	-13.7015
澷	-13.7016
蚖	-13.7016
姉	-13.7016
䔍	-13.7016
鰧	-13.7017
裲	-13.7017
簋	-13.7017
􁒷	-13.7017
鯿	-13.7018
潕	-13.7018
櫜	-13.7018
髢	-13.7018
霔	-13.7018
龞	-13.7019
堨	-13.7019
擂	-13.7019
䃤	-13.702
棷	-13.702
嫰	-13.702
鱄	-13.702
糙	-13.7021
晰	-13.7021
瞶	-13.7021
媮	-13.7021
碏	-13.7021
閗	-13.7021
􁇭	-13.7022
䵷	-13.7023
䧿	-13.7023
憙	-13.7024
抶	-13.7024
㡩	-13.7024
􁊲	-13.7024
嘅	-13.7024
籕	-13.7024
煕	-13.7024
詾	-13.7024
蓇	-13.7025
邍	-13.7025
劓	-13.7025
穋	-13.7026
醊	-13.7027
扱	-13.7027
􁑼	-13.7027
鮀	-13.7028
槲	-13.7028
袱	-13.7028
慠	-13.7028
磽	-13.7028
担	-13.7028
卺	-13.7029
庀	-13.7029
􁒓	-13.7029
狶	-13.7029
䗶	-13.703
犴	-13.703
蜨	-13.703
鯶	-13.703
楦	-13.703
磶	-13.703
魶	-13.703
廆	-13.703
䁀	-13.7031
舠	-13.7031
㬙	-13.7031
莠	-13.7032
総	-13.7032
溈	-13.7032
樛	-13.7032
賒	-13.7032
尢	-13.7032
􁊃	-13.7032
栰	-13.7032
妗	-13.7033
蓻	-13.7033
餫	-13.7033
挨	-13.7033
􁄻	-13.7034
餈	-13.7034
㘭	-13.7034
宷	-13.7034
瀋	-13.7034
􁅔	-13.7035
簉	-13.7036
襞	-13.7036
竸	-13.7036
㳅	-13.7036
氍	-13.7036
櫸	-13.7036
􁐜	-13.7037
亹	-13.7037
ဂ	-13.7037
䱐	-13.7037
娵	-13.7038
嬲	-13.7038
溼	-13.7038
囏	-13.7038
䯻	-13.7038
闃	-13.7039
叜	-13.7039
抔	-13.7039
㳫	-13.7039
姖	-13.7039
觶	-13.7039
絍	-13.7039
啅	-13.7039
皜	-13.7039
罋	-13.7039
鵂	-13.704
鼵	-13.704
􁀨	-13.704
惝	-13.704
兑	-13.704
笆	-13.704
騑	-13.704
􁉘	-13.7041
􁐾	-13.7041
㘦	-13.7041
篐	-13.7041
􁁑	-13.7042
寑	-13.7042
跱	-13.7042
氂	-13.7042
竞	-13.7042
龑	-13.7042
坳	-13.7043
国	-13.7043
褧	-13.7043
晻	-13.7043
縄	-13.7044
蓂	-13.7044
硜	-13.7045
禫	-13.7045
嶙	-13.7045
搽	-13.7045
鞔	-13.7046
琥	-13.7046
榘	-13.7046
礟	-13.7046
濞	-13.7046
籤	-13.7046
鷯	-13.7047
豗	-13.7047
􁂧	-13.7047
捏	-13.7047
珦	-13.7047
菶	-13.7048
玢	-13.7048
黶	-13.7048
幬	-13.7049
窊	-13.7049
籩	-13.7049
㒵	-13.7049
沚	-13.7049
篰	-13.7049
麛	-13.705
崿	-13.7051
鈇	-13.7051
偬	-13.7051
糢	-13.7052
鷔	-13.7052
鱧	-13.7053
啷	-13.7054
萟	-13.7054
伷	-13.7054
嶰	-13.7054
桿	-13.7054
繐	-13.7055
袿	-13.7056
瓿	-13.7057
鬨	-13.7057
贋	-13.7058
筏	-13.7058
胚	-13.7059
訌	-13.706
􁫕	-13.706
帨	-13.7062
鐲	-13.7062
凳	-13.7062
荄	-13.7062
翀	-13.7063
踦	-13.7063
杮	-13.7063
挻	-13.7064
祍	-13.7064
箑	-13.7066
漑	-13.7067
棱	-13.7068
憣	-13.7069
餁	-13.707
鮸	-13.7071
騧	-13.7072
葳	-13.7076
輴	-13.7077
綟	-13.7082
蚏	-13.7083
侲	-13.7084
􁞙	-13.7111
枃	-13.7117
勱	-13.8954
屓	-13.8967
裓	-13.8969
齶	-13.8969
㺄	-13.8971
薷	-13.8978
􁐨	-13.8987
訿	-13.8992
猓	-13.8993
茴	-13.8994
瀼	-13.8994
浃	-13.8995
謷	-13.8995
㶑	-13.8996
􁡎	-13.8996
霶	-13.8997
貐	-13.8998
㐨	-13.8998
飃	-13.8998
嬢	-13.8998
彜	-13.9004
溴	-13.9004
􁃪	-13.9005
􁣌	-13.9005
刜	-13.9005
衕	-13.9006
鞓	-13.9007
剞	-13.9007
􁙷	-13.9007
鏨	-13.9008
痠	-13.9008
痤	-13.9009
夋	-13.901
餔	-13.901
鵌	-13.901
侫	-13.901
䍸	-13.901
􁆞	-13.901
熂	-13.9011
醁	-13.9011
㔮	-13.9012
䲃	-13.9012
豰	-13.9012
􁅨	-13.9012
惽	-13.9012
蹵	-13.9013
鵺	-13.9013
􁀗	-13.9013
酔	-13.9013
晫	-13.9013
皖	-13.9013
胆	-13.9013
􁙵	-13.9014
邳	-13.9014
扠	-13.9014
笮	-13.9014
䈥	-13.9014
禭	-13.9014
靿	-13.9014
􁱘	-13.9014
鮨	-13.9014
􁖔	-13.9014
􁱈	-13.9014
蟨	-13.9015
䮝	-13.9015
韤	-13.9015
鬕	-13.9015
㫺	-13.9015
饠	-13.9015
䰽	-13.9016
􁠣	-13.9016
􁊬	-13.9016
𤾉	-13.9017
嗉	-13.9017
灺	-13.9017
䐈	-13.9017
喁	-13.9017
岠	-13.9017
礹	-13.9017
頬	-13.9017
餦	-13.9017
䵟	-13.9017
榑	-13.9017
褙	-13.9018
柹	-13.9018
嫻	-13.9018
鏌	-13.9018
拐	-13.9018
匍	-13.9018
漊	-13.9018
搐	-13.9019
􁎐	-13.9019
慆	-13.9019
亝	-13.9019
苪	-13.9019
觡	-13.9019
鴢	-13.902
旡	-13.902
甝	-13.902
萝	-13.902
簠	-13.902
嚗	-13.902
蘪	-13.9021
珷	-13.9021
饆	-13.9021
幪	-13.9022
惮	-13.9022
罾	-13.9022
鍱	-13.9022
柙	-13.9023
栭	-13.9023
秸	-13.9023
癤	-13.9023
疢	-13.9023
䖪	-13.9023
獂	-13.9024
弞	-13.9024
􁵬	-13.9024
櫈	-13.9024
讁	-13.9024
躃	-13.9024
栟	-13.9024
鍚	-13.9024
􁩹	-13.9025
篝	-13.9025
唶	-13.9025
橑	-13.9025
筇	-13.9025
黳	-13.9025
貛	-13.9026
鈲	-13.9026
膻	-13.9027
昐	-13.9027
躞	-13.9027
葪	-13.9028
夯	-13.9028
滃	-13.9028
觕	-13.9028
蘀	-13.9028
􁙰	-13.9028
舲	-13.9029
􁉓	-13.9029
􁗁	-13.903
荑	-13.903
䁥	-13.903
焕	-13.903
濙	-13.903
碙	-13.9031
佟	-13.9031
佪	-13.9031
碕	-13.9031
釴	-13.9031
枹	-13.9031
鱏	-13.9031
揲	-13.9032
椵	-13.9032
墦	-13.9033
厘	-13.9033
虯	-13.9033
䂊	-13.9033
讕	-13.9033
埧	-13.9033
鼗	-13.9033
龣	-13.9033
纇	-13.9034
㲪	-13.9034
㠯	-13.9034
撘	-13.9034
紖	-13.9034
葖	-13.9034
珚	-13.9034
䳼	-13.9035
澒	-13.9035
蓧	-13.9035
䘵	-13.9035
倧	-13.9035
㴻	-13.9035
戻	-13.9035
儧	-13.9035
抳	-13.9035
佷	-13.9036
􁨑	-13.9036
撐	-13.9036
蟺	-13.9036
箎	-13.9037
肎	-13.9037
詶	-13.9037
餱	-13.9037
凴	-13.9037
厖	-13.9037
瑮	-13.9037
纕	-13.9037
磅	-13.9038
坟	-13.9038
砮	-13.9038
錔	-13.9039
㢠	-13.904
惷	-13.904
辞	-13.904
葚	-13.904
􁇨	-13.904
萵	-13.904
玳	-13.9041
噩	-13.9041
磷	-13.9041
傜	-13.9041
㪺	-13.9041
仐	-13.9042
蔴	-13.9043
厫	-13.9043
􁆁	-13.9043
体	-13.9044
膋	-13.9044
絣	-13.9044
臋	-13.9044
琱	-13.9045
踠	-13.9045
禬	-13.9045
麹	-13.9045
嶇	-13.9045
崎	-13.9045
魟	-13.9046
窨	-13.9046
蟁	-13.9046
禡	-13.9046
灶	-13.9047
抆	-13.9047
竁	-13.9047
攖	-13.9047
蒻	-13.9047
萑	-13.9048
䳵	-13.9048
齚	-13.9048
䖴	-13.9048
螾	-13.9048
墙	-13.9048
梐	-13.9049
􁧏	-13.9049
倥	-13.9049
胔	-13.9049
碇	-13.9049
鈷	-13.9049
􁑛	-13.9049
莉	-13.9049
庥	-13.905
洌	-13.905
愓	-13.905
􁁄	-13.9051
韝	-13.9051
􁐍	-13.9051
剳	-13.9052
时	-13.9053
醆	-13.9053
􁡡	-13.9053
巙	-13.9053
㑺	-13.9054
􁭤	-13.9054
堝	-13.9055
䀋	-13.9055
暵	-13.9056
禓	-13.9056
慽	-13.9057
菆	-13.9057
袽	-13.9058
彍	-13.9058
匃	-13.9058
瞷	-13.9058
􁤝	-13.9059
濜	-13.9062
噇	-13.9062
斲	-13.9063
㝎	-13.9063
蟢	-13.9064
瑙	-13.9065
萁	-13.9065
矞	-13.9067
蘤	-13.9067
禈	-13.9067
􁎗	-13.9068
蜇	-13.9068
􁇜	-13.9068
慷	-13.9069
颭	-13.907
䴵	-13.9071
帰	-13.9071
狽	-13.9072
隖	-13.9073
呢	-13.9073
卣	-13.9074
􁧕	-13.9074
􁒂	-13.9076
􁦹	-13.9077
戹	-13.9084
蟮	-13.9101
匳	-14.1443
䲻	-14.1445
澋	-14.1447
嘵	-14.1457
喆	-14.1472
榨	-14.1474
懛	-14.1479
崒	-14.1482
菖	-14.1482
䨴	-14.1487
􁘔	-14.1489
饁	-14.149
爥	-14.149
蛹	-14.149
餪	-14.1493
䝟	-14.1494
笟	-14.1494
蘃	-14.1494
鐷	-14.1494
暅	-14.1495
埱	-14.1495
楂	-14.1495
隮	-14.1497
􁚠	-14.1499
伈	-14.1499
邹	-14.1499
髁	-14.15
叄	-14.15
芲	-14.15
􁪸	-14.15
磓	-14.1501
䈙	-14.1501
娭	-14.1501
滫	-14.1501
乹	-14.1501
蟶	-14.1503
軔	-14.1504
駉	-14.1504
鵙	-14.1504
怮	-14.1504
靁	-14.1504
􁑈	-14.1505
晌	-14.1506
戔	-14.1506
滜	-14.1506
縐	-14.1506
胣	-14.1506
斨	-14.1506
枣	-14.1507
䔭	-14.1507
骹	-14.1508
䃜	-14.1508
栿	-14.1508
羓	-14.1508
挕	-14.1508
賠	-14.1508
鵴	-14.1508
轊	-14.1509
􁈅	-14.1509
鼣	-14.1509
蛦	-14.151
盭	-14.151
汯	-14.151
猘	-14.151
処	-14.151
㣼	-14.151
䳅	-14.151
鴅	-14.151
琊	-14.151
痸	-14.1511
矌	-14.1511
蛫	-14.1511
䙜	-14.1511
桵	-14.1512
蓯	-14.1513
唘	-14.1513
􁀍	-14.1513
䱹	-14.1513
凨	-14.1513
矇	-14.1513
躪	-14.1513
泿	-14.1513
汵	-14.1513
祙	-14.1513
箘	-14.1513
􁡅	-14.1513
薻	-14.1514
匽	-14.1514
幐	-14.1514
􁀲	-14.1514
唅	-14.1514
熝	-14.1514
栴	-14.1514
䘿	-14.1514
黰	-14.1514
樻	-14.1514
慜	-14.1515
疈	-14.1515
搤	-14.1515
幈	-14.1515
蘗	-14.1515
廌	-14.1515
■	-14.1515
􁙳	-14.1516
􁤮	-14.1516
塈	-14.1516
􁵃	-14.1517
伾	-14.1517
媢	-14.1517
礠	-14.1517
䔩	-14.1517
唖	-14.1517
簥	-14.1517
栔	-14.1517
􁦦	-14.1517
胕	-14.1517
巓	-14.1518
䊧	-14.1518
幰	-14.1518
麸	-14.1518
剭	-14.1518
䳩	-14.1518
猲	-14.1519
猬	-14.1519
􁙸	-14.1519
駚	-14.1519
們	-14.1519
鉟	-14.1519
䛒	-14.1519
搪	-14.152
氁	-14.152
瀙	-14.152
糰	-14.152
鴖	-14.152
疸	-14.1521
嵸	-14.1521
躳	-14.1521
獃	-14.1521
愾	-14.1521
硏	-14.1521
䐆	-14.1521
㫒	-14.1522
埵	-14.1522
埳	-14.1522
囤	-14.1522
鴂	-14.1522
㽞	-14.1522
怔	-14.1522
橚	-14.1522
薳	-14.1522
鱑	-14.1522
􁓵	-14.1522
楟	-14.1523
溆	-14.1523
燑	-14.1523
猕	-14.1524
喊	-14.1524
唏	-14.1524
嶝	-14.1524
燉	-14.1524
鯩	-14.1524
繙	-14.1525
惄	-14.1525
鰠	-14.1525
陖	-14.1525
踽	-14.1525
闑	-14.1525
亁	-14.1525
蹰	-14.1525
媺	-14.1525
􁊢	-14.1525
孶	-14.1525
礲	-14.1525
巏	-14.1525
穅	-14.1525
喟	-14.1526
嵒	-14.1526
䛇	-14.1526
黮	-14.1526
豦	-14.1526
嗁	-14.1526
憃	-14.1526
焞	-14.1526
磪	-14.1526
抖	-14.1526
㧾	-14.1526
朒	-14.1526
簨	-14.1526
嫓	-14.1527
鎩	-14.1527
鄑	-14.1528
忺	-14.1528
杇	-14.1528
陥	-14.1528
鼊	-14.1528
槪	-14.1528
艴	-14.1529
鞗	-14.1529
䞋	-14.1529
虙	-14.153
済	-14.1531
卾	-14.1531
猯	-14.1531
哅	-14.1531
嚵	-14.1531
靧	-14.1531
胜	-14.1531
澨	-14.1531
䟣	-14.1531
䬅	-14.1532
巑	-14.1532
􁁶	-14.1532
罣	-14.1532
柠	-14.1532
驁	-14.1532
玖	-14.1532
瘋	-14.1532
矍	-14.1532
溠	-14.1533
啐	-14.1533
􁳟	-14.1533
壩	-14.1533
慌	-14.1533
㞦	-14.1533
嶁	-14.1533
榠	-14.1533
褵	-14.1533
嫜	-14.1533
􁬾	-14.1535
斈	-14.1535
儌	-14.1535
胘	-14.1535
髑	-14.1535
秕	-14.1535
歠	-14.1535
酅	-14.1535
鏻	-14.1535
鵡	-14.1536
絓	-14.1536
瘂	-14.1536
悾	-14.1536
蓲	-14.1537
鱯	-14.1537
蝠	-14.1537
繤	-14.1537
歜	-14.1537
蜱	-14.1537
娜	-14.1538
泖	-14.1538
𬈑	-14.1538
騣	-14.1538
昡	-14.1538
䝿	-14.1539
墐	-14.1539
􁒝	-14.1539
㬥	-14.1539
耏	-14.154
椘	-14.154
淶	-14.154
􁗀	-14.154
鄳	-14.154
抅	-14.154
瞹	-14.154
軃	-14.154
嫫	-14.154
汳	-14.154
瘰	-14.1542
沜	-14.1542
瓆	-14.1542
犲	-14.1542
蟊	-14.1543
䀌	-14.1543
崈	-14.1543
㹀	-14.1543
嫋	-14.1543
眡	-14.1543
咿	-14.1544
笪	-14.1544
ဃ	-14.1544
င	-14.1544
稭	-14.1544
㷀	-14.1544
枓	-14.1544
癃	-14.1545
拿	-14.1546
爝	-14.1546
㱔	-14.1546
鬣	-14.1546
篔	-14.1546
㪯	-14.1547
赩	-14.1547
憔	-14.1547
僨	-14.1549
鏝	-14.1549
𢷬	-14.1549
㭊	-14.1549
袜	-14.1549
炕	-14.155
倳	-14.155
茞	-14.155
袠	-14.155
􁓓	-14.155
訔	-14.155
擈	-14.155
蛸	-14.155
鞁	-14.155
䃡	-14.155
泱	-14.155
垞	-14.1551
趼	-14.1551
怘	-14.1551
騂	-14.1552
荣	-14.1553
嶪	-14.1553
畯	-14.1553
縆	-14.1553
彿	-14.1553
咦	-14.1553
軷	-14.1553
浟	-14.1553
姹	-14.1554
庿	-14.1554
􁃃	-14.1554
玹	-14.1554
菀	-14.1554
窿	-14.1555
苽	-14.1555
楝	-14.1555
煠	-14.1556
鏄	-14.1556
婇	-14.1556
􁛲	-14.1556
濾	-14.1556
匜	-14.1556
畣	-14.1557
蝱	-14.1557
雑	-14.1557
髆	-14.1557
蝹	-14.1558
慓	-14.1558
棰	-14.1558
騸	-14.156
􁀒	-14.156
傫	-14.156
䈄	-14.156
顴	-14.156
㬑	-14.1561
忡	-14.1561
琵	-14.1561
寉	-14.1561
芤	-14.1561
㪍	-14.1562
蚿	-14.1562
顐	-14.1562
髏	-14.1562
􁋊	-14.1562
􁚔	-14.1564
颸	-14.1564
􁉨	-14.1565
掦	-14.1567
籓	-14.1567
昈	-14.1568
鱮	-14.1568
蹺	-14.1568
􁼿	-14.1568
鑢	-14.1572
蔀	-14.1573
坵	-14.1573
愸	-14.1573
耑	-14.1574
呱	-14.1574
㻫	-14.1574
屧	-14.1575
馱	-14.1575
䄡	-14.1578
鏬	-14.1578
毖	-14.1579
飪	-14.1579
􁐑	-14.1583
誶	-14.1583
囗	-14.1583
􁂳	-14.1583
􁱔	-14.1583
悳	-14.1585
􁱪	-14.1586
踨	-14.1586
査	-14.1586
珹	-14.1589
弅	-14.1592
蝍	-14.1594
矼	-14.1596
毿	-14.16
𡡉	-14.16
誾	-14.1611
婼	-14.1614
魧	-14.4763
㬂	-14.4775
猰	-14.4777
􁍜	-14.4781
澂	-14.4785
褕	-14.4788
睟	-14.4788
乚	-14.479
薾	-14.48
峱	-14.48
蝜	-14.4804
蕺	-14.4806
蝂	-14.4806
韎	-14.4806
䬣	-14.4806
剙	-14.481
釪	-14.4812
鴳	-14.4812
㒦	-14.4814
埠	-14.4815
誖	-14.4816
剺	-14.4816
臇	-14.4816
喂	-14.4816
􁧥	-14.4817
踳	-14.4819
觿	-14.4819
霫	-14.4819
糅	-14.482
嵻	-14.4821
皞	-14.4823
䥴	-14.4825
芨	-14.4825
䳒	-14.4825
麒	-14.4826
嬒	-14.4826
嬻	-14.4826
匐	-14.4827
伹	-14.4827
翱	-14.4827
窴	-14.4827
􁆾	-14.4827
憮	-14.4828
聡	-14.4829
嘍	-14.4829
芦	-14.4829
鶽	-14.4829
侻	-14.483
纯	-14.4831
枅	-14.4831
矃	-14.4831
礸	-14.4831
呴	-14.4831
俺	-14.4831
醽	-14.4831
繯	-14.4833
􁋚	-14.4833
㸙	-14.4833
蝑	-14.4833
箙	-14.4834
㫪	-14.4835
嗄	-14.4835
佼	-14.4835
𢾗	-14.4835
暪	-14.4835
鶢	-14.4835
槭	-14.4836
䛻	-14.4837
坍	-14.4837
璮	-14.4837
騕	-14.4837
惏	-14.4837
萸	-14.4839
疃	-14.4839
媍	-14.4839
顣	-14.4839
㷊	-14.4839
羫	-14.4839
砒	-14.4839
繟	-14.4839
􁬌	-14.4839
􁈎	-14.4841
胲	-14.4841
斍	-14.4841
葑	-14.4841
狚	-14.4841
葽	-14.4841
醡	-14.4841
􁏄	-14.4841
獓	-14.4841
逍	-14.4842
􁡶	-14.4843
藭	-14.4843
䱇	-14.4843
䴑	-14.4843
痞	-14.4843
簁	-14.4843
籝	-14.4843
躊	-14.4843
獑	-14.4843
蒾	-14.4844
园	-14.4844
綍	-14.4844
瑳	-14.4845
卝	-14.4845
喓	-14.4845
殈	-14.4845
􁬋	-14.4845
熯	-14.4845
􁡠	-14.4845
鰅	-14.4845
㮨	-14.4846
漦	-14.4846
狌	-14.4846
蠗	-14.4846
滀	-14.4846
蘷	-14.4846
胳	-14.4846
篟	-14.4846
縕	-14.4846
鄗	-14.4846
鯆	-14.4846
􁥯	-14.4846
祑	-14.4847
鱬	-14.4847
􁪨	-14.4847
渑	-14.4847
哳	-14.4848
輆	-14.4848
儜	-14.4848
䵎	-14.4848
洔	-14.4848
潾	-14.4848
􁁬	-14.4848
䗱	-14.4849
鱭	-14.4849
􁚁	-14.4849
髒	-14.4849
狕	-14.485
騋	-14.485
薢	-14.485
僛	-14.485
臏	-14.485
牥	-14.485
纆	-14.485
瘃	-14.485
褎	-14.485
餭	-14.485
囦	-14.485
屭	-14.485
灵	-14.485
蚼	-14.485
濇	-14.485
栘	-14.4852
鱘	-14.4852
禘	-14.4852
鴽	-14.4852
戇	-14.4852
蒡	-14.4852
庯	-14.4852
繮	-14.4852
豭	-14.4852
咡	-14.4853
齦	-14.4853
臰	-14.4854
錤	-14.4854
呐	-14.4854
蕰	-14.4854
㯭	-14.4854
鑌	-14.4854
鞌	-14.4854
䞉	-14.4854
汩	-14.4854
􁈴	-14.4854
㭍	-14.4855
踡	-14.4855
墄	-14.4855
徘	-14.4856
蛱	-14.4856
姸	-14.4856
鰣	-14.4856
鴝	-14.4856
臿	-14.4856
麦	-14.4856
􁨳	-14.4856
㻌	-14.4856
䆮	-14.4856
懞	-14.4856
轜	-14.4856
矬	-14.4856
枮	-14.4857
桒	-14.4858
蹮	-14.4858
驆	-14.4858
眵	-14.4858
磂	-14.4858
謢	-14.4858
鮝	-14.4858
㧓	-14.4858
㻛	-14.4858
䥈	-14.4858
晣	-14.4858
􁐻	-14.4858
蝺	-14.4858
蟫	-14.4858
撣	-14.4858
潐	-14.4859
鮇	-14.4859
䱎	-14.4859
􁆜	-14.4859
蜍	-14.486
䄫	-14.486
芉	-14.486
綀	-14.486
䴦	-14.486
胠	-14.486
鑴	-14.486
刊	-14.486
捆	-14.486
䘚	-14.486
浜	-14.486
鮹	-14.486
㕍	-14.486
嘩	-14.486
廑	-14.486
膎	-14.486
袚	-14.486
虆	-14.4861
簵	-14.4862
輷	-14.4862
獜	-14.4862
釅	-14.4862
嗊	-14.4862
蝄	-14.4862
瓖	-14.4862
曚	-14.4862
吽	-14.4862
嬭	-14.4862
淞	-14.4862
􁟝	-14.4862
湑	-14.4862
褻	-14.4862
諆	-14.4862
玎	-14.4862
鵕	-14.4862
跰	-14.4863
􁝕	-14.4864
寠	-14.4864
枌	-14.4864
謪	-14.4864
􁊕	-14.4864
琡	-14.4864
醨	-14.4864
􁘀	-14.4864
擻	-14.4864
潙	-14.4864
陊	-14.4864
擥	-14.4865
屼	-14.4866
髐	-14.4866
癱	-14.4866
􁆢	-14.4866
窞	-14.4866
藾	-14.4866
𢡟	-14.4866
疰	-14.4866
晹	-14.4866
裠	-14.4866
鋃	-14.4866
逴	-14.4866
鰈	-14.4866
釱	-14.4867
稾	-14.4867
􁡒	-14.4867
􁂰	-14.4868
欃	-14.4868
禖	-14.4868
邲	-14.4868
喎	-14.4868
蘅	-14.4868
㨾	-14.4868
貤	-14.4868
蘘	-14.4868
閇	-14.4868
馲	-14.4868
閿	-14.4868
枘	-14.4869
菩	-14.4869
嘨	-14.4869
箐	-14.487
仳	-14.487
悁	-14.487
鄚	-14.487
饊	-14.487
􁀐	-14.487
褪	-14.487
㦧	-14.487
􁗉	-14.487
㴉	-14.487
跫	-14.487
薎	-14.487
觟	-14.4871
殏	-14.4871
獦	-14.4871
嫪	-14.4871
腷	-14.4871
䘐	-14.4872
軥	-14.4872
􁸈	-14.4872
壒	-14.4872
􁇛	-14.4872
蕇	-14.4872
㹈	-14.4872
蚔	-14.4872
滦	-14.4873
􁒭	-14.4873
䗋	-14.4873
揳	-14.4873
褲	-14.4873
輊	-14.4873
㚔	-14.4873
獶	-14.4873
悤	-14.4873
蛂	-14.4873
觳	-14.4873
􁏩	-14.4873
佔	-14.4875
咱	-14.4875
酃	-14.4875
鴐	-14.4875
坪	-14.4875
橰	-14.4875
嶭	-14.4875
岣	-14.4875
曕	-14.4875
儓	-14.4875
吚	-14.4875
餂	-14.4875
㬠	-14.4875
棵	-14.4875
焸	-14.4875
膁	-14.4875
鸋	-14.4875
訽	-14.4877
榧	-14.4877
噭	-14.4877
蓞	-14.4877
鉶	-14.4877
樏	-14.4877
礨	-14.4877
媸	-14.4877
甗	-14.4877
㠓	-14.4877
爊	-14.4877
鮚	-14.4877
响	-14.4878
犵	-14.4878
贉	-14.4879
􁋜	-14.4879
骷	-14.4879
鑵	-14.4879
竉	-14.4879
㱾	-14.4879
晧	-14.4879
簄	-14.4879
鴙	-14.4879
􁐡	-14.4879
􁁃	-14.4881
繻	-14.4881
膀	-14.4881
偰	-14.4881
帀	-14.4881
划	-14.4881
俲	-14.4881
㿿	-14.4881
䖳	-14.4881
汋	-14.4882
檏	-14.4883
舴	-14.4883
艋	-14.4883
蟈	-14.4883
㒹	-14.4883
僝	-14.4883
拮	-14.4883
桲	-14.4883
榅	-14.4883
廮	-14.4883
緷	-14.4885
浼	-14.4885
嬀	-14.4885
槅	-14.4885
䔧	-14.4885
緐	-14.4885
㴞	-14.4885
菷	-14.4885
鬀	-14.4885
㘅	-14.4885
豌	-14.4887
檳	-14.4887
􁳋	-14.4887
㭬	-14.4887
溵	-14.4887
熁	-14.4887
曮	-14.4887
銿	-14.4887
􁂴	-14.4887
惛	-14.4887
􁱨	-14.4887
玅	-14.4888
忞	-14.4889
砰	-14.4889
峿	-14.4889
磵	-14.4889
裱	-14.4889
䠶	-14.4889
簹	-14.4889
䄍	-14.4891
搉	-14.4891
軹	-14.4891
摝	-14.4891
㢧	-14.4891
喃	-14.4891
棍	-14.4891
齲	-14.4893
䪊	-14.4893
􁎾	-14.4893
蹁	-14.4893
䴥	-14.4893
盔	-14.4893
戄	-14.4893
蟪	-14.4893
鱨	-14.4893
鼍	-14.4895
蹍	-14.4895
􁃶	-14.4895
嗢	-14.4895
蠨	-14.4895
咯	-14.4895
椓	-14.4895
梴	-14.4896
虻	-14.4896
殕	-14.4897
嵰	-14.4897
彡	-14.4897
瑍	-14.4897
网	-14.4897
拲	-14.4897
蹡	-14.4898
蒌	-14.4898
疝	-14.4899
蒟	-14.4899
☰	-14.4899
蕤	-14.4899
騍	-14.4899
􁇋	-14.4899
伭	-14.49
摐	-14.49
㜕	-14.49
嵳	-14.49
歗	-14.49
謏	-14.49
洚	-14.49
畻	-14.49
呇	-14.49
螖	-14.49
鐇	-14.49
菼	-14.4902
啑	-14.4902
胱	-14.4902
氄	-14.4902
鰂	-14.4902
檖	-14.4902
鬵	-14.4904
劳	-14.4906
眹	-14.4906
訩	-14.4906
簩	-14.4906
淈	-14.4908
噙	-14.4908
玈	-14.4908
惂	-14.4908
諐	-14.491
摏	-14.491
嚂	-14.491
崚	-14.4912
稊	-14.4912
緺	-14.4912
􁈭	-14.4912
穵	-14.4914
􁒐	-14.4914
儿	-14.4914
麏	-14.4914
杈	-14.4914
耇	-14.4914
掤	-14.4916
墯	-14.4922
𠞰	-14.4922
稃	-14.4922
擫	-14.4922
􁏌	-14.4922
玁	-14.4923
􁣿	-14.4924
􁤀	-14.4924
敱	-14.4924
塐	-14.4924
鴷	-14.4924
膄	-14.4925
鍧	-14.4926
垝	-14.4929
腪	-14.4933
篊	-14.4933
醳	-14.4935
蠼	-14.4937
篅	-14.4937
篼	-14.4937
顩	-14.4937
螋	-14.4939
瀁	-14.4939
㪅	-14.4939
笱	-14.4941
煢	-14.4947
帗	-14.4953
曶	-14.4953
􁏮	-14.4964
鉘	-14.5013
亀	-14.9731
㠾	-14.9734
帉	-14.9741
嘛	-14.9744
䔁	-14.9769
弝	-14.9769
墆	-14.9778
噽	-14.9781
噞	-14.9791
嗃	-14.9794
䲽	-14.9797
㟭	-14.9804
䮍	-14.9807
屮	-14.9813
傕	-14.9813
圅	-14.9813
䔫	-14.9816
厶	-14.9816
䭿	-14.9816
啽	-14.9819
偼	-14.9819
㬅	-14.9819
壝	-14.9819
帍	-14.9819
宀	-14.9822
䀡	-14.9825
幇	-14.9826
偫	-14.9826
唵	-14.9826
綢	-14.9829
惆	-14.9829
【	-14.9829
㹻	-14.9829
埡	-14.9832
踘	-14.9832
叁	-14.9832
倵	-14.9832
咼	-14.9832
劂	-14.9832
䦠	-14.9834
髣	-14.9835
劦	-14.9837
俈	-14.9838
䌰	-14.9838
屝	-14.9838
䣀	-14.9839
䓑	-14.9841
䋈	-14.9841
儸	-14.9841
㭉	-14.9842
䍫	-14.9843
䱤	-14.9843
嶕	-14.9843
䰝	-14.9844
哵	-14.9844
㯏	-14.9844
刴	-14.9845
嵹	-14.9845
䶘	-14.9845
䳆	-14.9846
䒽	-14.9846
䧙	-14.9848
夌	-14.9848
㡠	-14.9848
嵪	-14.9848
髴	-14.9848
"	-14.9848
3	-14.9848
㷩	-14.9848
䦧	-14.9848
䲛	-14.9848
刘	-14.9848
嚘	-14.9848
䀈	-14.9849
䲰	-14.9849
䟱	-14.9851
鷓	-14.9851
玲	-14.9851
㟧	-14.9851
㢲	-14.9851
㣚	-14.9851
俏	-14.9851
巹	-14.9854
䈤	-14.9854
㗳	-14.9854
㮰	-14.9854
䀨	-14.9854
䧑	-14.9857
䍪	-14.9857
蜥	-14.9857
㩴	-14.9857
䰀	-14.9857
嘄	-14.9857
嶅	-14.9857
䳑	-14.9858
詨	-14.9858
庱	-14.986
㬭	-14.986
巣	-14.986
㳿	-14.986
䗁	-14.986
崪	-14.986
㧍	-14.986
峦	-14.986
䲀	-14.9861
坁	-14.9863
䍦	-14.9863
㠝	-14.9863
䳱	-14.9863
唽	-14.9863
䬾	-14.9863
魑	-14.9866
亙	-14.9867
唉	-14.9867
唬	-14.9867
幫	-14.9867
䯞	-14.9867
听	-14.9867
嵍	-14.9867
嚾	-14.987
姤	-14.987
奰	-14.987
蝙	-14.987
儃	-14.987
㴬	-14.9872
型	-14.9873
傺	-14.9873
䍃	-14.9873
㜈	-14.9873
厪	-14.9873
㘽	-14.9873
壄	-14.9874
㦬	-14.9876
檞	-14.9876
䨲	-14.9876
㖶	-14.9876
婑	-14.9876
裟	-14.9876
䗡	-14.9876
䩫	-14.9876
岊	-14.9876
嚞	-14.9876
䤪	-14.9876
咊	-14.9876
瓀	-14.9876
尒	-14.9879
蜘	-14.9879
岨	-14.9879
㩧	-14.9879
䖷	-14.9879
仃	-14.9879
埼	-14.9879
蝴	-14.9882
侜	-14.9882
儭	-14.9882
廛	-14.9882
垻	-14.9882
墍	-14.9882
㒞	-14.9882
㕳	-14.9882
叮	-14.9882
嚀	-14.9882
壵	-14.9882
妵	-14.9882
婗	-14.9882
孆	-14.9882
䧹	-14.9885
䞼	-14.9885
崽	-14.9885
丼	-14.9885
䘲	-14.9885
䱥	-14.9885
㧣	-14.9885
唊	-14.9885
屁	-14.9885
哤	-14.9885
喩	-14.9885
䓇	-14.9889
䶵	-14.9889
䓤	-14.9889
倓	-14.9889
堥	-14.9889
䝞	-14.9892
势	-14.9892
㰘	-14.9892
㩗	-14.9892
嚭	-14.9892
妭	-14.9893
岪	-14.9894
塸	-14.9895
嚶	-14.9895
䀻	-14.9895
勩	-14.9895
㳤	-14.9895
㹸	-14.9895
埂	-14.9895
စ	-14.9898
ဆ	-14.9898
劙	-14.9898
袈	-14.9898
㫬	-14.9899
亱	-14.9901
巃	-14.9901
哊	-14.9901
咻	-14.9904
崷	-14.9907
屦	-14.9908
墪	-14.9911
圠	-14.9911
坱	-14.9911
嗸	-14.9911
㜑	-14.9914
凥	-14.9914
喔	-14.9914
弆	-14.9917
佈	-14.9917
姍	-14.9917
䶉	-14.9917
姣	-14.9917
屇	-14.9917
㙭	-14.9917
㸇	-14.9923
巿	-14.9926
刾	-14.9926
䀟	-14.9926
䙞	-14.9926
匵	-14.9932
䪡	-14.9933
丮	-14.9933
僢	-14.9933
奤	-14.9933
庹	-14.9933
䙱	-14.9939
吱	-14.9939
嶃	-14.9942
圩	-14.9945
䃂	-14.9945
嗺	-14.9945
嶒	-14.9952
壜	-14.9955
䴏	-14.9958
㟻	-14.9958
䉕	-14.9958
䁑	-14.9961
凧	-14.9961
唌	-14.9964
㸦	-14.9967
䫙	-14.9967
䜱	-14.9971
㮄	-14.9996
僔	-14.9999
幧	-15.9734
尀	-15.9735
圿	-15.9736
勷	-15.9737
劌	-15.9738
乕	-15.9739
䭫	-15.974
䩱	-15.9741
䡢	-15.9742
䙀	-15.9743
䓞	-15.9744
㿀	-15.9745
㬉	-15.9746
㕎	-15.9747
鍫	-15.9748
菪	-15.9749
莨	-15.975
簺	-15.9751
稡	-15.9752
磄	-15.9753
硉	-15.9754
瞧	-15.9755
氉	-15.9756
毷	-15.9757
毌	-15.9758
欘	-15.9759
櫑	-15.976
仡	-15.9761
䰷	-15.9762
㱆	-15.9763
㝈	-15.9764
鷒	-15.9765
鎞	-15.9766
鎁	-15.9767
鈠	-15.9768
鄅	-15.9769
跅	-15.977
趑	-15.9771
趌	-15.9772
譸	-15.9773
觖	-15.9774
覼	-15.9775
袨	-15.9776
螱	-15.9777
蛈	-15.9778
蕓	-15.9779
蕒	-15.978
茉	-15.9781
脗	-15.9782
聻	-15.9783
耉	-15.9784
羜	-15.9785
缿	-15.9786
粔	-15.9787
篳	-15.9788
秄	-15.9789
祤	-15.979
祋	-15.9791
磢	-15.9792
碬	-15.9793
瞫	-15.9794
瞌	-15.9795
眕	-15.9796
皭	-15.9797
皪	-15.9798
甾	-15.9799
甪	-15.98
狟	-15.9801
爞	-15.9802
洓	-15.9803
殣	-15.9804
櫽	-15.9805
檽	-15.9806
榹	-15.9807
撆	-15.9808
鵑	-15.9809
慫	-15.9809
慂	-15.981
妴	-15.9811
茯	-15.9812
妘	-15.9812
坋	-15.9813
䭃	-15.9814
䡾	-15.9815
㶿	-15.9816
㱙	-15.9817
㥄	-15.9818
鶌	-15.9819
琉	-15.982
箜	-15.982
篌	-15.982
騞	-15.982
蓰	-15.9821
蓏	-15.9822
腽	-15.9823
胼	-15.9824
肭	-15.9825
筀	-15.9826
礝	-15.9827
靂	-15.9828
犄	-15.9828
燹	-15.9829
瀺	-15.983
濝	-15.9831
毹	-15.9832
掯	-15.9833
嫄	-15.9834
俙	-15.9835
窕	-15.9836
侢	-15.9836
䑏	-15.9837
鸘	-15.9838
鷥	-15.9839
鬙	-15.984
轘	-15.9841
蟕	-15.9842
蘡	-15.9843
窫	-15.9843
薐	-15.9844
鸜	-15.9845
蕆	-15.9845
蒢	-15.9846
窀	-15.9847
瞼	-15.9848
猼	-15.9849
檮	-15.985
槥	-15.9851
梪	-15.9852
彷	-15.9853
踟	-15.9853
躇	-15.9853
旖	-15.9853
悻	-15.9854
欓	-15.9855
怩	-15.9855
岢	-15.9856
媳	-15.9857
婷	-15.9858
咃	-15.9859
獼	-15.986
剴	-15.986
僬	-15.9861
䚯	-15.9862
㰖	-15.9863
㙔	-15.9864
􁡓	-15.9865
􁙴	-15.9866
鶺	-15.9867
遝	-15.9868
蹐	-15.9869
蝣	-15.987
羑	-15.9871
竫	-15.9872
禝	-15.9873
牱	-15.9874
湲	-15.9875
徜	-15.9876
屺	-15.9877
媫	-15.9878
鞶	-15.9879
鋏	-15.988
轗	-15.9881
貅	-15.9882
譊	-15.9883
蜪	-15.9884
蜢	-15.9885
蚱	-15.9886
蚍	-15.9887
羖	-15.9888
纚	-15.9889
繿	-15.989
笊	-15.9891
碼	-15.9892
碯	-15.9893
癐	-15.9894
塏	-15.9895
坷	-15.9896
噰	-15.9897
咷	-15.9898
䱰	-15.9899
䤵	-15.99
趦	-15.9901
蟀	-15.9902
螬	-15.9903
芊	-15.9904
礐	-15.9905
熳	-15.9906
忉	-15.9907
齷	-15.9908
韆	-15.9909
輠	-15.991
赳	-15.9911
螣	-15.9912
穸	-15.9913
眢	-15.9914
夗	-15.9915
囅	-15.9916
䬪	-15.9917
遛	-15.9918
螉	-15.9919
砉	-15.992
瓈	-15.9921
嵋	-15.9922
姮	-15.9923
妁	-15.9924
嚅	-15.9925
䳇	-15.9926
䲹	-15.9927
䔲	-15.9928
騢	-15.9929
酊	-15.993
衩	-15.9931
螳	-15.9932
獗	-15.9933
潸	-15.9934
栳	-15.9935
倆	-15.9936
颻	-15.9937
鞨	-15.9938
靺	-15.9939
醐	-15.994
睥	-15.9941
醍	-15.9941
揶	-15.9942
徬	-15.9943
鼕	-15.9944
醿	-15.9945
詿	-15.9946
蠮	-15.9947
薝	-15.9948
慇	-15.9949
胭	-15.9949
窸	-15.995
棻	-15.9951
嫦	-15.9952
蠁	-15.9953
蛑	-15.9954
崘	-15.9955
鶄	-15.9956
駸	-15.9957
噍	-15.9958
齬	-15.9959
跎	-15.996
蠛	-15.9961
蛉	-15.9962
澘	-15.9963
檎	-15.9964
碌	-15.9965
㐌	-15.9965
闤	-15.9966
緲	-15.9967
葡	-15.9968
痂	-15.9969
厔	-15.997
魍	-15.9971
蛺	-15.9972
㸲	-15.9973
跬	-15.9974
餮	-15.9975
蓿	-15.9976
苜	-15.9977
飩	-15.9978
玻	-15.9979
猻	-15.998
鷀	-15.9981
捀	-15.9981
桻	-15.9982
繾	-15.9983
橄	-15.9984
枇	-15.9985
唃	-15.9986
婕	-15.9987
蚯	-15.9988
妤	-15.9989
愀	-15.999
邂	-15.9991
逅	-15.9992
蜈	-15.9993
紜	-15.9994
駙	-15.9995
侂	-15.9996
逡	-15.9997
鸕	-15.9997
