<unk>	0
<s>	0
</s>	0
之	-4.09849
以	-4.56582
為	-4.65782
/	-4.67877
而	-4.84647
(	-4.97031
)	-5.01205
也	-5.05352
其	-5.22488
有	-5.25234
不	-5.29305
曰	-5.33024
王	-5.35606
者	-5.37304
子	-5.45736
人	-5.50658
於	-5.51908
與	-5.60858
▁	-5.67861
大	-5.79602
無	-5.88399
及	-5.89332
自	-5.89919
事	-5.91136
于	-5.92307
上	-5.92403
至	-5.92793
)(	-5.93572
一	-5.94092
使	-5.96558
時	-6.00186
中	-6.0306
乃	-6.05593
則	-6.05952
公	-6.09763
言	-6.12148
在	-6.1535
所	-6.15384
行	-6.15706
皆	-6.17362
又	-6.18126
國	-6.20727
見	-6.20746
故	-6.21299
出	-6.23241
氏	-6.2367
州	-6.27654
帝	-6.27711
後	-6.2934
令	-6.29596
三	-6.30189
復	-6.32498
遂	-6.33267
文	-6.33614
相	-6.34872
立	-6.36083
入	-6.36442
兵	-6.37182
將	-6.41017
道	-6.411
從	-6.41179
矣	-6.41276
今	-6.42169
生	-6.42319
等	-6.42476
臣	-6.44548
得	-6.45878
元	-6.45963
亦	-6.47617
死	-6.47956
下	-6.48174
平	-6.48433
書	-6.50211
此	-6.50629
城	-6.51385
欲	-6.52085
君	-6.54593
二	-6.54809
官	-6.55188
知	-6.56214
軍	-6.59173
安	-6.59774
封	-6.61579
請	-6.62035
齊	-6.6269
非	-6.6326
作	-6.63734
明	-6.64251
如	-6.64392
謂	-6.65373
天	-6.65692
成	-6.66365
當	-6.66918
陳	-6.6714
命	-6.6719
用	-6.67318
南	-6.67426
周	-6.67622
名	-6.68243
我	-6.69908
長	-6.69939
歸	-6.69984
五	-6.70269
山	-6.70622
因	-6.70809
乎	-6.71155
民	-6.71869
多	-6.73615
是	-6.7464
可	-6.75092
東	-6.76481
焉	-6.7692
初	-6.76938
必	-6.77315
居	-6.77874
張	-6.78228
何	-6.79457
秦	-6.79838
正	-6.80762
卒	-6.81168
方	-6.81343
日	-6.81745
已	-6.81902
四	-6.82786
馬	-6.83477
還	-6.83536
同	-6.83656
西	-6.83826
晉	-6.84067
云	-6.84357
諸	-6.84832
家	-6.85071
士	-6.85211
年	-6.85703
魏	-6.86194
地	-6.86472
侯	-6.86538
禮	-6.86969
漢	-6.87605
先	-6.87645
即	-6.88366
以為	-6.88962
聞	-6.89228
世	-6.89522
武	-6.89626
父	-6.90076
師	-6.90433
李	-6.90823
然	-6.90857
若	-6.91422
宋	-6.91949
水	-6.92077
吾	-6.92391
進	-6.93062
去	-6.93519
重	-6.94447
殺	-6.94497
傳	-6.94745
未	-6.95349
主	-6.9542
楚	-6.95893
陽	-6.96548
北	-6.96665
詔	-6.96988
守	-6.98031
劉	-6.98714
徳	-6.98933
取	-6.99921
既	-7.0079
義	-7.00873
常	-7.00882
善	-7.01739
通	-7.01778
始	-7.02324
門	-7.0233
能	-7.02975
伯	-7.03038
法	-7.03104
趙	-7.03414
遣	-7.0352
賊	-7.05126
字	-7.06421
前	-7.06812
遷	-7.07186
拜	-7.07268
内	-7.07464
舉	-7.08008
定	-7.08929
六	-7.091
天下	-7.09271
梁	-7.09804
縣	-7.10946
朝	-7.10956
並	-7.11511
且	-7.129
數	-7.1316
問	-7.13632
分	-7.14137
衆	-7.14435
宗	-7.14489
髙	-7.1465
亡	-7.14928
親	-7.15448
石	-7.16497
稱	-7.16683
甚	-7.17022
興	-7.1706
加	-7.1732
府	-7.17387
求	-7.17414
将	-7.17434
政	-7.17794
樂	-7.17809
服	-7.17816
起	-7.1787
攻	-7.18623
來	-7.1864
雖	-7.19652
心	-7.19924
㑹	-7.20208
少	-7.21045
夫	-7.21175
外	-7.22235
盡	-7.22277
九	-7.22462
置	-7.23474
金	-7.23768
過	-7.23799
反	-7.24156
弟	-7.24239
和	-7.24334
小	-7.25443
食	-7.25851
田	-7.26634
經	-7.26663
魯	-7.26667
治	-7.26668
制	-7.26772
賜	-7.26825
史	-7.26926
不能	-7.27091
降	-7.27165
意	-7.27174
不可	-7.28035
光	-7.28362
議	-7.28688
鄭	-7.29144
位	-7.29619
母	-7.30167
受	-7.30301
信	-7.30487
郡	-7.30775
發	-7.31158
奉	-7.31229
白	-7.31347
論	-7.31429
謀	-7.31833
宜	-7.32052
女	-7.32377
坐	-7.32685
或	-7.33302
都	-7.33654
任	-7.34712
代	-7.35048
宫	-7.35243
爲	-7.35443
左	-7.35477
孫	-7.36042
本	-7.36952
好	-7.37083
易	-7.37093
改	-7.37208
車	-7.37421
敗	-7.37493
賢	-7.37786
合	-7.37814
唐	-7.38023
戰	-7.38111
尚	-7.38866
難	-7.39487
吏	-7.40213
太守	-7.40315
太子	-7.40827
建	-7.41374
元年	-7.41518
失	-7.41635
祖	-7.41901
八	-7.41978
夏	-7.42067
廣	-7.42231
志	-7.42254
除	-7.42325
辭	-7.42567
陵	-7.42784
應	-7.43118
固	-7.43356
身	-7.43612
逺	-7.43763
龍	-7.44681
奏	-7.447
學	-7.44708
召	-7.44738
亂	-7.4479
卿	-7.4512
三年	-7.45832
權	-7.46211
清	-7.46568
異	-7.46702
孝	-7.46713
實	-7.47215
伐	-7.47318
益	-7.47526
神	-7.47553
諸侯	-7.47626
率	-7.48036
思	-7.48344
韓	-7.49071
衛	-7.49138
忠	-7.49346
直	-7.496
力	-7.50233
河	-7.51047
破	-7.51419
古	-7.51478
告	-7.5208
惟	-7.52099
七	-7.52412
景	-7.52452
右	-7.52518
共	-7.52585
耳	-7.52833
深	-7.53721
功	-7.54098
猶	-7.54609
物	-7.5472
宣	-7.54883
撰	-7.55664
獨	-7.55671
吳	-7.55684
各	-7.55808
嘗	-7.55884
章	-7.5627
處	-7.56387
授	-7.56852
江	-7.57294
邑	-7.57645
屬	-7.57793
聲	-7.57892
語	-7.58111
罪	-7.58189
計	-7.58503
鎮	-7.58672
風	-7.58785
誅	-7.59222
於是	-7.59842
昭	-7.60057
燕	-7.60317
表	-7.60604
二年	-7.60789
后	-7.60998
華	-7.61155
利	-7.61221
許	-7.61273
土	-7.61336
十	-7.61378
司	-7.61507
不得	-7.61828
哉	-7.62509
次	-7.62512
敬	-7.6321
疾	-7.6335
度	-7.63399
威	-7.63514
臨	-7.6388
新	-7.64037
黄	-7.64175
絶	-7.64309
更	-7.64346
貴	-7.64627
執	-7.65083
楊	-7.65165
嗣	-7.65269
仁	-7.65435
越	-7.66167
止	-7.66345
致	-7.6643
部	-7.66681
領	-7.66763
曹	-7.67016
終	-7.67078
凡	-7.67121
叔	-7.67141
望	-7.67253
圍	-7.67791
口	-7.67867
胡	-7.68019
引	-7.68038
節	-7.68277
觀	-7.68451
間	-7.68586
首	-7.68711
罷	-7.69534
省	-7.69733
修	-7.69765
别	-7.69931
廢	-7.70682
流	-7.70744
説	-7.70796
理	-7.71068
公子	-7.71301
大夫	-7.71348
將軍	-7.7143
里	-7.71812
延	-7.71816
舊	-7.71824
每	-7.71868
氣	-7.7204
百	-7.72677
留	-7.72713
集	-7.72895
萬	-7.72961
勝	-7.73049
俱	-7.73104
老	-7.73426
擊	-7.73814
徐	-7.73925
討	-7.74007
兩	-7.74125
免	-7.74412
恐	-7.75498
號	-7.75528
路	-7.75803
昌	-7.75966
徙	-7.76438
餘	-7.76445
兼	-7.76535
圖	-7.76698
而不	-7.76988
儀	-7.77574
開	-7.77815
御	-7.77972
太	-7.78334
良	-7.78526
夷	-7.79001
并	-7.79043
衣	-7.79144
仲	-7.79376
妻	-7.79453
音	-7.79665
姓	-7.79669
皇	-7.79949
便	-7.8009
遺	-7.8155
遇	-7.81723
朱	-7.82081
幸	-7.82281
左右	-7.82307
奔	-7.82745
走	-7.82815
據	-7.83013
病	-7.83078
太祖	-7.83127
職	-7.83128
盛	-7.83172
記	-7.83315
素	-7.83526
惡	-7.83597
夜	-7.83647
崇	-7.8415
尚書	-7.84376
林	-7.84395
典	-7.84419
逆	-7.8444
備	-7.84962
保	-7.84973
咸	-7.85725
疑	-7.86084
比	-7.86274
厚	-7.86283
聖	-7.86636
果	-7.86714
承	-7.86776
高	-7.86985
就	-7.86992
永	-7.87164
順	-7.87192
滅	-7.87345
教	-7.87496
德	-7.87812
獻	-7.88153
玉	-7.8825
謝	-7.88311
懼	-7.88574
海	-7.88576
性	-7.88715
刑	-7.88748
怒	-7.88764
被	-7.88909
收	-7.89277
紀	-7.89391
星	-7.89464
廟	-7.89837
才	-7.90137
悉	-7.90255
慶	-7.90288
登	-7.90551
送	-7.90578
納	-7.90743
變	-7.90805
火	-7.90972
懐	-7.9141
交	-7.91565
色	-7.91839
/)	-7.92056
汝	-7.92363
載	-7.92365
雲	-7.9247
追	-7.92503
歴	-7.92856
近	-7.93269
顯	-7.93287
往	-7.93627
著	-7.93706
業	-7.93907
營	-7.93958
動	-7.94036
不敢	-7.94063
濟	-7.94663
室	-7.9474
解	-7.95087
伏	-7.95651
原	-7.95868
商	-7.95907
邪	-7.96093
轉	-7.96296
克	-7.96404
豈	-7.96525
嚴	-7.96547
客	-7.96731
隨	-7.96948
報	-7.97133
木	-7.97176
天子	-7.97401
容	-7.97503
隂	-7.97941
殿	-7.97974
唯	-7.97985
愛	-7.98105
布	-7.98271
尋	-7.98446
月	-7.98676
春	-7.98778
太后	-7.98778
尊	-7.9902
案	-7.99088
私	-7.99175
薨	-7.99182
視	-7.99298
嵗	-7.99471
連	-7.9962
切	-8.00032
恩	-8.0015
退	-8.00266
喜	-8.00492
祭	-8.00492
持	-8.00507
将軍	-8.00556
列	-8.01084
錢	-8.01275
四年	-8.01371
詩	-8.0199
爾	-8.0209
附	-8.02248
由	-8.02271
輕	-8.02514
器	-8.02638
所以	-8.02984
之後	-8.03027
襲	-8.03047
急	-8.03257
敵	-8.04018
向	-8.04053
寧	-8.04092
季	-8.04152
憂	-8.04266
騎	-8.04334
叛	-8.04671
害	-8.04943
要	-8.04984
乞	-8.05034
百姓	-8.05097
救	-8.05579
申	-8.05678
祀	-8.05828
手	-8.05935
寳	-8.06094
彊	-8.06144
迎	-8.06351
具	-8.06377
禁	-8.06438
化	-8.06602
即位	-8.06722
約	-8.06918
象	-8.0713
足	-8.07285
願	-8.07467
選	-8.07475
杜	-8.07739
諫	-8.07781
斬	-8.08137
輔	-8.08236
酒	-8.0847
司馬	-8.08572
誠	-8.08818
甲	-8.08901
監	-8.08942
乗	-8.09036
獲	-8.09131
戎	-8.09578
務	-8.09683
爵	-8.09861
對	-8.10133
推	-8.10179
怨	-8.1029
臺	-8.10449
皇后	-8.10982
武帝	-8.11019
靈	-8.11185
牛	-8.11208
郭	-8.11402
屯	-8.11692
贈	-8.11825
對曰	-8.11909
目	-8.12213
達	-8.1223
允	-8.12778
吉	-8.13001
朝廷	-8.13018
休	-8.13029
人也	-8.13518
兄	-8.13642
蔡	-8.14088
秋	-8.14135
賞	-8.14285
給	-8.14315
市	-8.14363
青	-8.14851
會	-8.14942
極	-8.14952
虜	-8.15021
莫	-8.15134
虞	-8.15183
存	-8.15185
恭	-8.15248
負	-8.15369
邊	-8.15731
来	-8.15744
扵	-8.15826
五年	-8.15962
榮	-8.16119
勿	-8.16248
虎	-8.16294
勸	-8.16355
頭	-8.16639
皇帝	-8.16756
辟	-8.17249
設	-8.17445
特	-8.17563
嘉	-8.17926
按	-8.17939
顧	-8.17985
葬	-8.18205
督	-8.18301
詣	-8.18378
考	-8.18513
陛下	-8.18577
孟	-8.18889
真	-8.18964
康	-8.19343
離	-8.19353
察	-8.19376
寵	-8.19548
犯	-8.19584
曰吾	-8.1995
射	-8.20154
郎	-8.20185
京	-8.20231
亮	-8.20245
說	-8.20316
春秋	-8.20365
鄉	-8.20454
衞	-8.2056
適	-8.20654
哀	-8.20766
傷	-8.20998
䇿	-8.21004
簡	-8.21039
冠	-8.21082
𢎞	-8.21212
獄	-8.21235
禹	-8.21465
養	-8.21573
族	-8.21632
羅	-8.21719
期	-8.21724
但	-8.21813
棄	-8.21837
弗	-8.22016
散	-8.22027
隆	-8.22132
冬	-8.22151
危	-8.22396
類	-8.22749
賦	-8.22902
温	-8.22981
造	-8.23272
援	-8.23336
夫人	-8.23489
統	-8.23601
六年	-8.23698
全	-8.23807
蜀	-8.23881
美	-8.23906
喪	-8.23924
穆	-8.24024
范	-8.24896
責	-8.25033
孔子	-8.25108
撫	-8.2511
聞之	-8.25226
徒	-8.25529
無所	-8.25763
操	-8.25875
黨	-8.26429
結	-8.2649
吕	-8.26577
京師	-8.26606
積	-8.27118
帥	-8.27207
惠	-8.27226
籍	-8.27251
薦	-8.27335
末	-8.27589
曲	-8.27635
赤	-8.27766
徴	-8.27776
崩	-8.27963
智	-8.2804
久	-8.28346
頗	-8.29053
福	-8.2916
再	-8.29303
掌	-8.29309
卷	-8.29468
注	-8.29508
施	-8.29622
移	-8.29729
羣	-8.29886
孤	-8.29891
蕭	-8.30037
繼	-8.3025
孔	-8.30359
參	-8.30614
雍	-8.308
州刺史	-8.30981
仍	-8.31
游	-8.31006
英	-8.3104
澤	-8.31058
一卷	-8.31232
依	-8.3133
待	-8.31673
野	-8.32037
堅	-8.3204
患	-8.32208
堂	-8.324
勞	-8.32634
殷	-8.32681
草	-8.32773
己	-8.32813
勢	-8.32908
呉	-8.32989
眀	-8.33025
畏	-8.33338
禍	-8.33377
輙	-8.33585
質	-8.3376
如此	-8.34126
沈	-8.34131
弱	-8.34231
雄	-8.34492
侵	-8.34587
乘	-8.34865
闕	-8.34887
昔	-8.35181
呼	-8.35375
侍中	-8.35545
盟	-8.35571
憲	-8.35648
雅	-8.35686
指	-8.3607
博	-8.36093
充	-8.36127
魚	-8.36161
情	-8.36203
體	-8.36389
息	-8.36448
斯	-8.36725
讓	-8.36795
邱	-8.36813
資	-8.37059
文帝	-8.37322
窮	-8.37655
飲	-8.37685
侍	-8.37793
舍	-8.37979
富	-8.38306
征	-8.38465
七年	-8.38717
夀	-8.38901
種	-8.3898
竟	-8.39191
川	-8.3922
聽	-8.39414
佐	-8.39501
畧	-8.39631
精	-8.39749
苦	-8.39953
殺之	-8.40042
勇	-8.40075
略	-8.40917
斷	-8.40947
釋	-8.40963
賀	-8.41021
之所	-8.41175
可以	-8.41439
洛	-8.41606
尹	-8.41708
彼	-8.41762
振	-8.41827
假	-8.41932
大將軍	-8.41961
寕	-8.41986
敢	-8.42074
薄	-8.42311
俗	-8.42724
超	-8.42724
盧	-8.42897
陸	-8.43089
桓	-8.43108
形	-8.43167
第	-8.43457
塞	-8.43577
丁	-8.43713
暴	-8.43721
衡	-8.43935
泰	-8.43988
不知	-8.4401
累	-8.44028
阿	-8.44109
予	-8.44123
其後	-8.44312
脩	-8.44338
運	-8.44431
助	-8.44546
晋	-8.44634
而已	-8.44762
慮	-8.44768
祠	-8.45222
一人	-8.4526
放	-8.45343
禄	-8.45445
舜	-8.45624
習	-8.46424
朕	-8.46479
宿	-8.46538
微	-8.46727
畢	-8.46986
尤	-8.47094
荆	-8.4711
賈	-8.47359
奪	-8.4738
兄弟	-8.47395
逐	-8.47447
馳	-8.47478
不如	-8.47506
羣臣	-8.47646
律	-8.47901
聚	-8.48085
升	-8.48109
副	-8.48456
識	-8.48878
㫖	-8.48954
三月	-8.49124
遣使	-8.49546
紹	-8.49551
十年	-8.49601
試	-8.49626
密	-8.49748
朔	-8.49757
詳	-8.49842
寺	-8.49943
襄	-8.50183
遵	-8.50321
端	-8.5045
謂之	-8.50588
赴	-8.50691
友	-8.50739
揚	-8.50849
明年	-8.51011
君子	-8.51026
謹	-8.5107
肅	-8.51281
財	-8.51287
户	-8.51367
貞	-8.5145
都督	-8.51478
震	-8.51484
是以	-8.51588
也今	-8.51918
堯	-8.51967
長安	-8.5197
司徒	-8.5208
歌	-8.52119
録	-8.52295
妃	-8.5234
謙	-8.52433
僧	-8.5249
工	-8.52744
寛	-8.52759
丹	-8.53128
屈	-8.53158
逹	-8.53196
丘	-8.5323
八年	-8.53555
宻	-8.53635
湯	-8.5375
盖	-8.53923
到	-8.54156
豐	-8.54446
招	-8.54515
吴	-8.54588
最	-8.54631
碑	-8.54798
公孫	-8.54887
役	-8.54994
争	-8.5564
偽	-8.55729
感	-8.55832
角	-8.55981
飛	-8.56005
傅	-8.5603
大臣	-8.56149
十二	-8.56261
烈	-8.56309
闗	-8.5647
半	-8.56506
補	-8.56539
專	-8.56577
徃	-8.5663
姑	-8.56766
投	-8.56881
者也	-8.56882
儒	-8.57091
庭	-8.57185
符	-8.57257
馮	-8.57461
接	-8.57537
術	-8.57588
慎	-8.57641
牧	-8.57776
御史	-8.57886
洪	-8.58015
兒	-8.58055
疏	-8.58072
隋	-8.58107
竒	-8.58167
防	-8.58188
樹	-8.58491
爭	-8.58812
刺	-8.58812
調	-8.58879
丞相	-8.59031
茂	-8.59106
忽	-8.59187
不足	-8.5921
羊	-8.59329
他	-8.59488
千	-8.59575
縱	-8.59595
仕	-8.59924
勒	-8.59987
違	-8.60163
誤	-8.60467
毁	-8.60674
藏	-8.60845
戍	-8.61133
使人	-8.61231
䓁	-8.61412
曰此	-8.61553
羽	-8.61674
河南	-8.617
䝉	-8.61878
之子	-8.6193
蓋	-8.62021
雜	-8.62087
雨	-8.62338
夢	-8.62634
乾	-8.62656
蘇	-8.62669
歲	-8.62704
鄧	-8.62748
然後	-8.62771
從之	-8.62818
九年	-8.63074
鼓	-8.63124
機	-8.63344
費	-8.63502
避	-8.63536
寡人	-8.63674
厯	-8.63779
序	-8.6414
赦	-8.64222
垂	-8.64246
舟	-8.64506
婦	-8.64628
勤	-8.65063
署	-8.65208
由是	-8.65357
諌	-8.65525
淂	-8.65655
妾	-8.65811
訓	-8.66045
彦	-8.66185
折	-8.6626
勲	-8.66349
二人	-8.66386
輿	-8.66451
之事	-8.66504
秀	-8.66507
貢	-8.66576
房	-8.67136
太宗	-8.67147
辱	-8.67504
桓公	-8.67706
烏	-8.67734
翼	-8.67804
覆	-8.67937
戒	-8.68057
諭	-8.68177
强	-8.68222
候	-8.68227
滿	-8.68271
敦	-8.6838
歩	-8.68929
述	-8.68938
姬	-8.68963
篇	-8.69127
衰	-8.69174
淵	-8.69188
背	-8.69308
决	-8.69324
總	-8.69335
境	-8.69458
徵	-8.69501
而後	-8.69774
卒子	-8.69805
委	-8.69942
洛陽	-8.70014
匈奴	-8.70077
衍	-8.70215
庶	-8.70308
郊	-8.70395
兮	-8.70462
姦	-8.70493
班	-8.7079
干	-8.70792
崔	-8.71071
遼	-8.71082
薛	-8.71271
面	-8.7179
長史	-8.71951
其子	-8.72439
是為	-8.72534
決	-8.72595
殊	-8.72607
講	-8.729
畫	-8.73142
條	-8.73164
示	-8.73245
太尉	-8.7327
驚	-8.73305
霸	-8.73322
冀	-8.73581
竊	-8.73809
須	-8.73866
革	-8.73963
儉	-8.74014
榖	-8.74359
毛	-8.74387
駕	-8.74485
困	-8.74925
鄴	-8.75148
似	-8.75219
旦	-8.75248
池	-8.75283
䘮	-8.75356
豫	-8.75376
廷	-8.7547
盗	-8.75474
司空	-8.75481
靖	-8.7562
横	-8.75863
逼	-8.76046
蠻	-8.76187
幽	-8.76218
泉	-8.76319
冝	-8.76955
不及	-8.77022
忌	-8.77129
貪	-8.77189
壽	-8.77273
為之	-8.77305
何以	-8.77321
不許	-8.77693
關	-8.77757
險	-8.77788
欽	-8.77885
厲	-8.77971
敏	-8.78051
彌	-8.78171
例	-8.78198
恨	-8.78235
六月	-8.78414
谷	-8.78436
維	-8.78602
淮	-8.78742
拒	-8.78811
貧	-8.78822
井	-8.78851
所謂	-8.79163
卜	-8.7919
䕶	-8.79364
觧	-8.79433
之間	-8.79821
従	-8.79852
毋	-8.80169
支	-8.80485
囚	-8.8052
謁	-8.80678
農	-8.80719
隠	-8.80923
寒	-8.8093
嬰	-8.80958
于是	-8.81177
科	-8.81183
鳥	-8.81256
有司	-8.81403
辰	-8.81477
之言	-8.81676
許之	-8.8168
速	-8.81778
乆	-8.81993
災	-8.82048
丞	-8.8223
顔	-8.82275
㧞	-8.82288
宅	-8.8294
渠	-8.83199
是時	-8.83319
庸	-8.83321
舒	-8.83451
奴	-8.83527
鍾	-8.83807
羌	-8.83897
武王	-8.83905
二十	-8.83916
單于	-8.83942
策	-8.83944
湖	-8.83946
築	-8.83978
厥	-8.83979
索	-8.84061
頃	-8.84137
子孫	-8.84161
彭	-8.84556
戴	-8.84691
亭	-8.84771
校	-8.84797
導	-8.84885
稍	-8.84995
随	-8.85142
皮	-8.85159
九月	-8.85234
逃	-8.85278
循	-8.85457
字子	-8.85478
禽	-8.85579
之地	-8.8579
拔	-8.86026
袁	-8.86183
愈	-8.86189
莊	-8.86258
擢	-8.86262
虚	-8.86376
河東	-8.86399
鳴	-8.86588
采	-8.8664
逸	-8.86745
二月	-8.87022
五月	-8.87046
笑	-8.87206
粟	-8.87218
空	-8.87277
墓	-8.87366
恒	-8.87528
掠	-8.87648
松	-8.87728
不從	-8.87815
祥	-8.87819
夏四月	-8.87882
莫不	-8.87896
有所	-8.8801
妄	-8.88121
誰	-8.88193
累遷	-8.88248
豪	-8.88252
弼	-8.88358
竹	-8.88468
賔	-8.8856
君之	-8.88598
使者	-8.8869
希	-8.88856
介	-8.88912
僕	-8.88926
配	-8.89028
念	-8.89044
甘	-8.89054
均	-8.89231
其所	-8.89274
詐	-8.89282
倫	-8.89497
優	-8.89498
十二月	-8.896
陶	-8.89609
狀	-8.89612
融	-8.89674
愚	-8.89737
桑	-8.89828
託	-8.89874
單	-8.89887
帶	-8.90002
漸	-8.90479
以下	-8.90548
董	-8.9055
増	-8.90611
秦王	-8.90617
落	-8.90618
蘭	-8.9098
勅	-8.91099
者皆	-8.91149
茍	-8.91189
况	-8.91208
浮	-8.91419
冬十月	-8.91433
社稷	-8.9154
宰	-8.91641
余	-8.91643
熊	-8.91649
狄	-8.91664
髙祖	-8.91743
男	-8.91774
哭	-8.91805
程	-8.91824
邉	-8.92153
界	-8.92178
側	-8.92615
早	-8.92877
恵	-8.92921
曰我	-8.92961
周公	-8.93191
毅	-8.93313
捕	-8.93391
飾	-8.93455
文公	-8.93473
冦	-8.9354
諸將	-8.93588
舞	-8.93626
純	-8.93725
尸	-8.93846
寡	-8.93944
管	-8.93967
珍	-8.93968
貨	-8.94181
回	-8.94198
席	-8.94208
格	-8.94209
蒲	-8.94321
不為	-8.94346
又有	-8.94352
以此	-8.94494
差	-8.94638
辨	-8.94671
諡	-8.94693
千里	-8.94796
預	-8.94798
韋	-8.95008
秋七月	-8.95047
聘	-8.95076
論曰	-8.95122
船	-8.95212
忘	-8.9524
公主	-8.9528
懷	-8.95348
世家	-8.95384
卑	-8.95387
鼎	-8.95405
擇	-8.95511
園	-8.95521
奚	-8.95591
俊	-8.95958
占	-8.96021
不見	-8.96055
基	-8.96115
誣	-8.96141
幹	-8.96274
辯	-8.96288
十卷	-8.96321
十一年	-8.96431
熙	-8.96454
啓	-8.96465
上書	-8.96536
先生	-8.96744
劾	-8.96766
黄帝	-8.96906
宴	-8.96996
三卷	-8.97012
歳	-8.97067
葉	-8.97098
讀	-8.97128
䟽	-8.97226
倉	-8.97308
天下之	-8.97308
印	-8.9734
𤣥	-8.97615
諡曰	-8.97624
鹵	-8.97647
以其	-8.97726
峻	-8.97729
藥	-8.97773
糧	-8.97812
賤	-8.97816
神武	-8.97932
戦	-8.97959
尉	-8.98091
覽	-8.98131
大将軍	-8.98178
米	-8.98469
刀	-8.98519
百官	-8.98557
而還	-8.98607
履	-8.98643
寇	-8.98713
閣	-8.98838
荒	-8.99091
姚	-8.99288
徽	-8.99309
奮	-8.99338
未嘗	-8.99406
匡	-8.99519
曽	-8.9959
八月	-8.99805
至於	-8.99828
遊	-8.99909
屋	-8.99916
躬	-8.99927
杖	-9.00016
之士	-9.00163
享	-9.00267
葢	-9.00316
規	-9.00383
鄙	-9.00472
驕	-9.00478
産	-9.00671
式	-9.00699
𦵏	-9.00744
懿	-9.00802
慈	-9.01078
曰君	-9.01387
文武	-9.01394
猛	-9.01456
三十	-9.01549
文王	-9.01575
耕	-9.01684
知其	-9.01909
沙	-9.01949
藩	-9.02005
戮	-9.02012
前後	-9.02031
傾	-9.02054
源	-9.02099
寜	-9.02171
材	-9.02191
割	-9.02236
史記	-9.02293
尺	-9.02326
南陽	-9.02381
損	-9.02409
不受	-9.02428
陣	-9.02447
羙	-9.02646
内史	-9.02759
審	-9.02839
削	-9.02858
太原	-9.02918
幾	-9.02922
悦	-9.03017
𥘉	-9.0314
裴	-9.0334
晏	-9.03749
嵩	-9.03892
岳	-9.0392
辛	-9.03988
答	-9.04114
数	-9.04135
與之	-9.04164
光武	-9.04284
既而	-9.04363
刻	-9.04455
弑	-9.04829
故事	-9.04858
偃	-9.04968
普	-9.04972
至于	-9.04997
知之	-9.05003
中山	-9.05083
量	-9.05106
橋	-9.05268
館	-9.05324
荆州	-9.05363
不過	-9.05683
牙	-9.05775
曰臣	-9.05785
血	-9.05963
攝	-9.05971
未有	-9.05993
凶	-9.06009
太常	-9.06278
五十	-9.06356
死者	-9.06431
卓	-9.06497
屢	-9.06572
樊	-9.06772
明帝	-9.06985
彪	-9.06989
江陵	-9.07114
陷	-9.07327
公卿	-9.0734
而去	-9.07428
四方	-9.077
訪	-9.07777
社	-9.07837
蕃	-9.07928
斗	-9.07965
十三年	-9.08011
扶	-9.08195
聼	-9.08246
荀	-9.08275
邦	-9.08429
内外	-9.08664
伊	-9.08807
禦	-9.08849
咎	-9.08943
人之	-9.08944
三日	-9.09168
饑	-9.09273
焚	-9.09291
鬼	-9.09432
慕	-9.0945
也夫	-9.09632
惜	-9.09691
莽	-9.09717
國家	-9.09751
貶	-9.09777
續	-9.09864
十二年	-9.09995
黒	-9.1003
員	-9.10559
秩	-9.10618
不復	-9.10663
付	-9.10804
惑	-9.10832
剛	-9.10856
宰相	-9.10882
甫	-9.1101
短	-9.11037
先是	-9.11153
幼	-9.11313
悲	-9.11444
静	-9.11507
靡	-9.11518
壁	-9.11819
有功	-9.11832
抑	-9.11835
儲	-9.11862
欲以	-9.11969
祝	-9.1204
肆	-9.12067
与	-9.12117
弓	-9.12241
沒	-9.12243
契丹	-9.12263
㓜	-9.12271
至是	-9.12317
露	-9.12325
楚王	-9.12362
不肯	-9.1242
宏	-9.12444
景公	-9.12462
刺史	-9.12515
句	-9.1257
㓂	-9.12577
寶	-9.12729
賂	-9.12773
祐	-9.12866
苑	-9.12882
十一月	-9.12895
聖人	-9.12949
父子	-9.13092
廬	-9.13111
以來	-9.13233
十五	-9.13294
毎	-9.13404
繫	-9.13599
莒	-9.13756
而死	-9.13935
弟子	-9.1407
尚書令	-9.14216
踰	-9.14252
廵	-9.14293
樓	-9.14415
耶	-9.14565
𣸪	-9.14581
雷	-9.14601
泣	-9.14631
宗廟	-9.14742
荘	-9.14786
抗	-9.14793
篤	-9.14881
錫	-9.14886
諱	-9.14888
軌	-9.14965
翟	-9.14971
啟	-9.14979
十四年	-9.15065
範	-9.1508
父母	-9.15256
没	-9.15332
佛	-9.15412
王子	-9.15435
趨	-9.1545
成王	-9.15482
校尉	-9.15597
訟	-9.15707
鎭	-9.15756
寔	-9.15758
天地	-9.15794
談	-9.15849
自是	-9.15924
如故	-9.15957
渡	-9.16008
骨	-9.16283
恃	-9.16296
中國	-9.16387
津	-9.16404
鴻	-9.16404
兆	-9.16584
絳	-9.16599
博士	-9.16656
筆	-9.16825
胥	-9.16836
幣	-9.16948
十五年	-9.16953
䧟	-9.16987
輒	-9.17289
帛	-9.1734
根	-9.17536
頌	-9.17572
鹿	-9.1765
臧	-9.17918
潛	-9.17924
國之	-9.1817
一日	-9.18277
邾	-9.18287
寢	-9.18468
而無	-9.18472
仇	-9.18772
从	-9.19012
貫	-9.19201
三公	-9.19365
之時	-9.19427
閭	-9.19564
誦	-9.19609
倍	-9.19699
誘	-9.1973
其事	-9.19773
謚	-9.20082
績	-9.2016
在位	-9.20296
舎	-9.20348
詞	-9.20395
階	-9.20504
劍	-9.20509
𨽻	-9.20554
也故	-9.20583
距	-9.20627
斬之	-9.20864
率衆	-9.20966
慰	-9.21075
肉	-9.21083
淫	-9.21184
穀	-9.21221
戸	-9.21271
巫	-9.21286
遭	-9.21319
銀	-9.21337
國人	-9.21407
紂	-9.21418
遜	-9.21526
旗	-9.21533
宛	-9.21557
戲	-9.21636
㣲	-9.21638
偉	-9.21755
以上	-9.21823
聴	-9.22018
先帝	-9.22023
齊王	-9.22083
㑹稽	-9.22099
減	-9.22206
狐	-9.22212
之心	-9.22224
郎中	-9.22309
匿	-9.22341
是也	-9.22378
都尉	-9.22493
參軍	-9.22593
㨗	-9.22717
纂	-9.22826
撃	-9.22874
黜	-9.22901
大王	-9.22991
畜	-9.23012
孰	-9.23066
却	-9.23166
䖏	-9.23297
巴	-9.23351
罰	-9.23357
上下	-9.23399
竇	-9.2341
主簿	-9.23414
逮	-9.2343
庫	-9.23496
晏子	-9.2353
彭城	-9.23531
品	-9.2364
王曰	-9.2374
湛	-9.23741
𧺫	-9.23784
皇太子	-9.23817
弊	-9.23864
效	-9.23983
亷	-9.24009
姜	-9.24127
矢	-9.24138
墨	-9.24177
黎	-9.24179
殘	-9.24211
仁宗	-9.24243
上疏	-9.24326
戚	-9.24438
矯	-9.2447
覺	-9.24476
擊之	-9.24541
丕	-9.2466
歎	-9.24683
不用	-9.24769
植	-9.24867
大司馬	-9.24916
又曰	-9.2495
遁	-9.25101
二子	-9.25122
否	-9.25167
今日	-9.25464
誕	-9.25496
巢	-9.25511
時人	-9.25744
伍	-9.25756
二卷	-9.25844
澄	-9.2585
寄	-9.25852
國公	-9.2588
後世	-9.26
供	-9.26028
所在	-9.26046
兹	-9.26193
脱	-9.26202
子曰	-9.26254
討之	-9.26423
獵	-9.26721
潰	-9.26773
十六年	-9.26775
突	-9.26781
旱	-9.26794
裕	-9.26803
鳯	-9.26933
陰	-9.27084
渉	-9.27159
漢中	-9.27175
旁	-9.27304
陞	-9.27325
足以	-9.27346
祚	-9.2737
擅	-9.27388
妻子	-9.27446
屠	-9.27492
不與	-9.27504
廷尉	-9.27508
整	-9.27549
紫	-9.27737
豹	-9.27759
秉	-9.27814
丈	-9.27843
必有	-9.27847
忍	-9.27909
東南	-9.27912
尾	-9.27972
燒	-9.28015
編	-9.28025
給事中	-9.28277
言之	-9.28422
其言	-9.28454
珠	-9.28463
州郡	-9.28622
栁	-9.28623
郡縣	-9.28657
爽	-9.2871
之禮	-9.28803
閔	-9.28899
細	-9.28938
譽	-9.28962
輸	-9.28991
進士	-9.28999
掩	-9.29052
長子	-9.29156
出為	-9.29253
痛	-9.293
逢	-9.29389
河北	-9.29438
創	-9.29462
誓	-9.29493
遼東	-9.29659
受命	-9.29681
小人	-9.29704
児	-9.29898
閉	-9.2993
贊	-9.29964
壯	-9.30068
十三	-9.30247
裁	-9.30254
𫝊	-9.30282
頓	-9.30352
醉	-9.30372
邵	-9.30391
旅	-9.30404
曰昔	-9.30499
孝武	-9.30637
僖	-9.30643
銅	-9.30711
侍郎	-9.30739
不聽	-9.30749
可謂	-9.3076
級	-9.30931
専	-9.31005
散騎常侍	-9.31087
仰	-9.31091
之義	-9.31158
錄	-9.3121
冲	-9.31322
殆	-9.31504
香	-9.31511
欺	-9.31534
遠	-9.31625
仙	-9.31778
瑞	-9.31861
叙	-9.319
大敗	-9.31913
正月	-9.31924
童	-9.32016
恪	-9.32033
娶	-9.32096
郡國	-9.3222
昭王	-9.3225
隱	-9.32251
之意	-9.32282
壘	-9.32298
歡	-9.32555
募	-9.32789
驅	-9.32862
盈	-9.32873
判	-9.32881
曰子	-9.32898
十萬	-9.32989
慕容	-9.33008
鞅	-9.33015
西北	-9.33072
山東	-9.33082
為人	-9.33105
鹽	-9.33147
夫子	-9.33188
提	-9.33294
孝文	-9.33419
盜	-9.33482
乙	-9.3349
夕	-9.33569
買	-9.33574
士卒	-9.3361
奢	-9.33723
邢	-9.33729
從事	-9.33746
淮南	-9.33811
擒	-9.33953
燕王	-9.34065
錯	-9.34078
璧	-9.34128
吏部尚書	-9.34147
瑾	-9.34179
騰	-9.34375
熈	-9.34476
㡬	-9.34487
婦人	-9.34492
盟于	-9.34501
朗	-9.34552
桀	-9.3456
襄公	-9.34719
塗	-9.34729
悔	-9.34742
皇太后	-9.34758
㳺	-9.3487
毒	-9.3488
院	-9.34922
歎曰	-9.35048
公曰	-9.35058
借	-9.35235
時有	-9.35339
題	-9.35344
麗	-9.35368
子弟	-9.35395
曾	-9.35473
大怒	-9.35643
欽定四庫全書	-9.3567
十八年	-9.35702
掾	-9.35724
東宫	-9.35803
迹	-9.35924
繁	-9.36012
卧	-9.36049
関	-9.36094
抱	-9.3614
太傅	-9.36283
中郎將	-9.3629
浩	-9.3642
斥	-9.36429
蒙	-9.36446
龜	-9.3654
破之	-9.36922
貳	-9.36929
吏民	-9.37007
稽	-9.37019
元帝	-9.37033
奸	-9.37127
十七年	-9.37152
之功	-9.37175
奈何	-9.37255
譚	-9.37376
曰今	-9.37393
昭公	-9.37603
不至	-9.37677
偏	-9.37701
渾	-9.37836
潘	-9.37904
曜	-9.37982
属	-9.38124
江南	-9.38228
堪	-9.38287
鐘	-9.38361
宣帝	-9.38366
郡公	-9.38478
妖	-9.38601
不可以	-9.38748
完	-9.38792
綏	-9.38816
壇	-9.38967
擬	-9.39002
莊公	-9.39032
西南	-9.39051
用之	-9.39054
諸軍	-9.39281
六十	-9.39342
蒼	-9.3938
齒	-9.39495
弔	-9.39636
綱	-9.39709
祁	-9.3973
柱	-9.39754
三百	-9.39786
諸子	-9.39825
両	-9.39891
乃止	-9.39939
不以	-9.39956
後主	-9.40087
自殺	-9.40101
車駕	-9.40134
懸	-9.40253
其家	-9.40302
後漢	-9.40323
出入	-9.40333
趣	-9.40361
曰卿	-9.40411
十六	-9.40412
竭	-9.40596
宮	-9.4062
環	-9.40635
麟	-9.40647
人皆	-9.40672
不然	-9.40774
虛	-9.40779
芳	-9.40872
舅	-9.40879
花	-9.40916
十一	-9.41042
柔	-9.41059
之法	-9.41234
不勝	-9.4148
之道	-9.41496
韶	-9.41573
俟	-9.41717
熟	-9.41777
遽	-9.41893
擾	-9.4196
郢	-9.41961
宇	-9.41976
趙王	-9.4199
開府儀同三司	-9.41993
岐	-9.42316
其母	-9.42357
停	-9.42576
乏	-9.42606
靈公	-9.42789
禪	-9.43009
練	-9.43041
育	-9.43194
霍	-9.43214
犬	-9.43252
刼	-9.43304
徑	-9.43441
湏	-9.43443
不行	-9.43567
疆	-9.43585
瞻	-9.43679
不出	-9.43758
憤	-9.43771
作亂	-9.43816
何如	-9.43863
▁(	-9.43954
世子	-9.4406
斬首	-9.44099
競	-9.44152
當時	-9.44351
裔	-9.44351
步	-9.44372
後魏	-9.44387
亦有	-9.44467
齊人	-9.44477
昇	-9.44539
鑄	-9.44672
十四	-9.44765
項	-9.44817
十月	-9.44998
葛	-9.45036
郷	-9.45196
悼	-9.45257
藝	-9.45279
飬	-9.45299
韓魏	-9.45387
悟	-9.45429
麻	-9.4544
餉	-9.4546
蕩	-9.45596
莭	-9.45644
成都	-9.45818
賣	-9.4588
檄	-9.45894
開府	-9.45954
採	-9.46032
無不	-9.46161
繇	-9.46327
詔曰	-9.46398
苗	-9.46447
諸王	-9.46543
了	-9.46589
䘚	-9.46632
肥	-9.4665
三人	-9.46709
吏部	-9.4684
髪	-9.47204
書曰	-9.47214
增	-9.47349
數十	-9.47382
一年	-9.47431
二百	-9.47474
激	-9.47506
状	-9.47509
古之	-9.47557
粲	-9.4764
波	-9.47649
賔客	-9.47707
劒	-9.47826
是嵗	-9.47913
忿	-9.47942
恢	-9.48195
垣	-9.48242
而歸	-9.48418
襄陽	-9.48433
七十	-9.48502
翰	-9.48509
虢	-9.48553
蔽	-9.48561
屏	-9.4857
濬	-9.48578
孔子曰	-9.48643
而立	-9.48796
琴	-9.48797
含	-9.49002
恤	-9.49081
日月	-9.49161
一曰	-9.49222
救之	-9.49343
限	-9.49457
狗	-9.49477
有罪	-9.49479
其國	-9.49549
學士	-9.49554
檢	-9.49571
其地	-9.49598
嫁	-9.4973
巨	-9.49744
其父	-9.4993
亦不	-9.50015
中軍	-9.50021
之日	-9.50023
黙	-9.50213
百里	-9.50236
恕	-9.50308
列傳	-9.50314
政事	-9.50366
枝	-9.50449
太平	-9.50507
仗	-9.5052
東北	-9.50684
汝南	-9.50732
□	-9.50772
雪	-9.50775
起兵	-9.50836
拘	-9.51003
後為	-9.51037
昭烈	-9.51116
怪	-9.51149
不同	-9.51394
醫	-9.51574
旋	-9.51766
揚州	-9.51853
稷	-9.51881
夾	-9.5189
憚	-9.51964
平王	-9.51977
四十	-9.52068
以告	-9.52102
無以	-9.5216
恥	-9.52218
神宗	-9.52238
見之	-9.52251
勉	-9.52252
輅	-9.52354
以爲	-9.52373
中書	-9.52442
聰	-9.52455
午	-9.52485
萬人	-9.52524
嶺	-9.52644
煩	-9.52659
狂	-9.52699
壊	-9.52712
伐鄭	-9.52744
管仲	-9.52951
灌	-9.52969
括	-9.5301
不忍	-9.53039
皆以	-9.53077
雞	-9.53135
皓	-9.53199
棺	-9.5333
取之	-9.53422
成公	-9.53444
庾	-9.5369
鳳	-9.53728
渭	-9.53794
巧	-9.53821
係	-9.53851
吳王	-9.53959
黑	-9.53961
㐮	-9.54083
鐵	-9.54084
明日	-9.54187
台	-9.54211
皆有	-9.54261
叚	-9.5435
岸	-9.54439
其衆	-9.54503
百萬	-9.54513
阻	-9.54564
攸	-9.54747
侃	-9.54813
侈	-9.54863
瓊	-9.54883
御史中丞	-9.55024
厭	-9.55031
茅	-9.55055
継	-9.55077
又以	-9.5508
頋	-9.55243
得其	-9.55333
某	-9.55339
驗	-9.55364
好學	-9.55455
帳	-9.55468
鑒	-9.555
緩	-9.55514
盤	-9.55526
改為	-9.55794
譙	-9.55837
君臣	-9.55841
明堂	-9.55847
酋	-9.5586
鮑	-9.55923
四月	-9.55931
之徒	-9.55984
頴	-9.55985
沉	-9.56032
如是	-9.56182
為太子	-9.56272
改封	-9.56289
矜	-9.56348
京兆	-9.56394
於此	-9.56453
張儀	-9.56567
愍	-9.56622
喬	-9.5665
譏	-9.56658
相國	-9.56841
饒	-9.57009
我師	-9.57088
穿	-9.57127
溪	-9.57147
宗室	-9.572
髙帝	-9.57221
沮	-9.57276
緒	-9.57299
賛	-9.57306
曰夫	-9.57316
何為	-9.57316
貴人	-9.5735
礼	-9.57414
光禄大夫	-9.57516
廣陵	-9.57579
瑜	-9.57833
夏五月	-9.57916
閒	-9.57945
太師	-9.58
伐我	-9.5803
帝曰	-9.58295
平公	-9.5833
第一	-9.58461
郤	-9.58517
號曰	-9.58553
頻	-9.58587
胄	-9.58612
彛	-9.58827
罕	-9.58854
十八	-9.58912
齋	-9.5893
契	-9.59048
歛	-9.59074
有餘	-9.59148
束	-9.59242
入朝	-9.59378
越王	-9.59403
之制	-9.59478
欵	-9.59511
所殺	-9.59592
耿	-9.59623
褒	-9.59781
訖	-9.59791
也而	-9.59837
嫌	-9.60145
晚	-9.60153
是故	-9.60236
改元	-9.60351
惠王	-9.60383
十九年	-9.60411
乃以	-9.60442
已而	-9.60444
襄王	-9.60457
二千石	-9.60523
沛	-9.6055
二十年	-9.60554
匹	-9.60613
帝崩	-9.60616
淳	-9.60621
饗	-9.60632
城中	-9.6084
其罪	-9.60849
協	-9.61153
滕	-9.61235
􁀙	-9.61466
缺	-9.61488
祿	-9.61491
突厥	-9.61632
子也	-9.61662
藉	-9.61666
十九	-9.61706
世祖	-9.61748
駿	-9.61906
婁	-9.61928
艾	-9.61965
洞	-9.62067
縁	-9.62144
大赦	-9.62167
僕射	-9.62223
鮮	-9.62234
斤	-9.62268
攻之	-9.62305
局	-9.62312
長沙	-9.62426
凖	-9.6247
罔	-9.6249
河内	-9.62528
不應	-9.62538
大事	-9.6258
郡王	-9.6285
大破之	-9.62889
岀	-9.62921
之役	-9.6298
陳留	-9.62988
謨	-9.63077
流涕	-9.63084
不宜	-9.63118
建武	-9.63124
晉陽	-9.63177
諷	-9.63183
宣王	-9.63212
東西	-9.63218
醜	-9.63232
潜	-9.63235
然則	-9.63288
獸	-9.63531
算	-9.63551
建安	-9.63608
誅之	-9.63698
遲	-9.6375
亨	-9.63796
東海	-9.63962
綽	-9.64045
曉	-9.64048
頼	-9.64054
樞	-9.6406
祈	-9.64068
益州	-9.64186
門下	-9.64232
虐	-9.64249
獻公	-9.64291
更始	-9.64462
閤	-9.64606
鄰	-9.64613
晦	-9.64739
故曰	-9.64799
彬	-9.648
曹操	-9.64872
州人	-9.64909
舉兵	-9.64994
數百	-9.65025
五日	-9.65075
尼	-9.65082
腹	-9.65098
裂	-9.65162
地震	-9.65211
扈	-9.65278
四海	-9.65279
鈞	-9.65295
平陽	-9.65391
高祖	-9.65447
稅	-9.65462
錦	-9.65619
知名	-9.65737
晝	-9.65805
久之	-9.65829
之上	-9.65841
勑	-9.65886
擁	-9.66075
五百	-9.66175
儁	-9.66217
貌	-9.66324
靜	-9.66344
倚	-9.66367
海内	-9.66389
勃	-9.66474
説文	-9.66488
之國	-9.66543
俘	-9.66565
先王	-9.66689
喻	-9.66708
賓	-9.67053
照	-9.67075
宼	-9.67079
牀	-9.67115
抵	-9.67136
平原	-9.67267
瓦	-9.67275
敖	-9.67296
不欲	-9.67303
百餘	-9.67355
翁	-9.67406
𬒳	-9.67462
夲	-9.67503
昶	-9.67537
徐州	-9.67563
曺	-9.6758
矩	-9.67702
哲	-9.67721
滋	-9.67823
伐之	-9.67898
睦	-9.67982
祗	-9.67997
桃	-9.68025
嗟	-9.68037
南北	-9.68054
銘	-9.68062
妙	-9.68123
挾	-9.68175
効	-9.68182
穆公	-9.68346
古今	-9.68397
鄒	-9.68518
諸生	-9.68598
以兵	-9.68645
婚	-9.68702
活	-9.68743
叱	-9.68865
鮮卑	-9.68883
佞	-9.68931
萬餘	-9.69059
桂	-9.69062
蛇	-9.69095
彰	-9.69132
璽	-9.6921
圗	-9.69262
自稱	-9.69338
姊	-9.69422
住	-9.69455
文章	-9.69471
之臣	-9.69486
詰	-9.69495
隂陽	-9.69549
未至	-9.69561
戰于	-9.69567
珪	-9.69599
邕	-9.69621
隐	-9.6964
一時	-9.69662
暉	-9.69845
持節	-9.69864
十餘	-9.69898
殺人	-9.69948
敞	-9.69951
譜	-9.70145
贖	-9.70154
警	-9.70199
賄	-9.70233
汾	-9.70311
之中	-9.70317
之名	-9.70366
的	-9.70429
子産	-9.70446
子胥	-9.70565
豆	-9.70566
未可	-9.70688
十七	-9.70698
冕	-9.70705
齊侯	-9.70715
數千	-9.70757
發兵	-9.70761
文子	-9.70806
其餘	-9.71027
以示	-9.71036
杞	-9.71056
邯鄲	-9.71079
軍事	-9.71086
軍中	-9.71127
襃	-9.71313
敝	-9.71465
鋭	-9.71539
租	-9.7157
劭	-9.71599
淑	-9.71644
大破	-9.71666
以待	-9.7177
三千	-9.718
諸将	-9.71828
寅	-9.71874
貸	-9.71893
敎	-9.71908
逰	-9.7193
文學	-9.71952
復為	-9.72
旬	-9.7207
旌	-9.7224
官至	-9.72244
棘	-9.7229
讒	-9.72318
男女	-9.72332
郡守	-9.72381
宇文	-9.7243
致仕	-9.7244
其妻	-9.72464
亭侯	-9.72509
伺	-9.72536
廵撫	-9.72559
潁川	-9.72579
有大	-9.72834
隴	-9.7284
溝	-9.7285
斛	-9.72853
晨	-9.729
中書令	-9.72914
像	-9.72942
西域	-9.72958
課	-9.72975
滛	-9.73089
不足以	-9.73183
兄子	-9.73192
域	-9.73447
大業	-9.7345
安定	-9.73519
鞭	-9.73612
呂	-9.73685
者為	-9.73686
用兵	-9.7376
併	-9.73767
伐齊	-9.73795
味	-9.73805
七月	-9.7387
不相	-9.73872
牽	-9.73961
彈	-9.73978
大都督	-9.73982
秋八月	-9.74015
者不	-9.74021
以功	-9.74046
謬	-9.74202
返	-9.74208
賁	-9.7429
上黨	-9.74378
讐	-9.74386
眞	-9.74391
忠臣	-9.74494
雖有	-9.745
乆之	-9.7461
見其	-9.74643
不克	-9.74667
用事	-9.74717
浚	-9.74738
䧏	-9.74801
吐	-9.74924
䖍	-9.7494
暮	-9.74943
顗	-9.74965
楷	-9.74982
駭	-9.75002
答曰	-9.75012
鑿	-9.75188
世宗	-9.75285
段	-9.75307
者以	-9.75314
緯	-9.75347
功臣	-9.75496
莫敢	-9.75521
太武	-9.75572
之故	-9.75788
之人	-9.75798
不在	-9.75843
僭	-9.75932
仲尼	-9.75934
其君	-9.76097
謂曰	-9.76097
展	-9.76122
侯景	-9.76167
一百	-9.76209
無子	-9.76345
刃	-9.76547
慧	-9.76612
悼公	-9.76656
臯	-9.76683
冊	-9.76692
之君	-9.76707
䕫	-9.76711
曰臣聞	-9.76731
収	-9.7674
飢	-9.76752
武昌	-9.76773
焦	-9.76892
溢	-9.76939
之所以	-9.77007
北齊	-9.77078
車騎將軍	-9.77161
釐	-9.77213
以自	-9.77321
肇	-9.77336
死之	-9.77339
綜	-9.77357
暢	-9.77362
献	-9.77406
駟	-9.77496
初為	-9.77547
冬十一月	-9.77551
少府	-9.77658
閑	-9.77712
乂	-9.7772
琳	-9.77741
洽	-9.77746
宥	-9.77747
而出	-9.77862
太保	-9.7789
譲	-9.77926
武公	-9.7793
卒於	-9.77976
言於	-9.78017
為政	-9.78036
其弟	-9.78096
飲酒	-9.7812
慙	-9.78138
駐	-9.78148
乃使	-9.78181
荅	-9.78181
飯	-9.78204
謗	-9.78338
額	-9.78364
不肖	-9.78485
戈	-9.78502
敕	-9.78528
魏王	-9.78627
輩	-9.78745
㝎	-9.78775
不利	-9.78846
絹	-9.78963
亟	-9.78968
其人	-9.78982
執政	-9.7902
薊	-9.79174
咨	-9.79176
座	-9.79179
罵	-9.79182
碩	-9.79369
疎	-9.79373
上曰	-9.79493
綬	-9.79506
河西	-9.79558
卒贈	-9.79628
沖	-9.79707
絲	-9.79708
僚	-9.79754
塵	-9.79766
數年	-9.79791
釁	-9.79798
何也	-9.79829
不報	-9.79923
遂以	-9.79966
叡	-9.7997
強	-9.79987
之衆	-9.80005
冉	-9.80043
繆	-9.80203
昆	-9.80243
之罪	-9.80287
靣	-9.80363
織	-9.80397
不言	-9.80449
終不	-9.80487
賜爵	-9.805
贍	-9.80583
傍	-9.806
鋒	-9.80625
夏侯	-9.8068
庻	-9.80759
孚	-9.80787
敷	-9.80793
先主	-9.80806
舍人	-9.80826
淺	-9.80829
牢	-9.80836
蟲	-9.80995
疇	-9.81012
也若	-9.81078
荆州刺史	-9.81164
十餘萬	-9.81364
狼	-9.81388
家人	-9.81393
墜	-9.81437
豫章	-9.81504
麥	-9.816
尅	-9.81637
出奔	-9.81647
隴西	-9.81674
蘓	-9.81677
僑	-9.81725
讀書	-9.81728
笑曰	-9.81773
或曰	-9.81841
閩	-9.81879
將兵	-9.82068
人主	-9.821
副使	-9.82109
切説文	-9.82385
嶽	-9.82437
穴	-9.82449
遐	-9.82462
為大	-9.82491
丹陽	-9.8266
左傳	-9.82741
惡之	-9.82796
寸	-9.82819
欣	-9.82859
播	-9.8287
琰	-9.82878
愧	-9.82879
陽侯	-9.8294
固辭	-9.82964
説苑	-9.82986
鸞	-9.83048
齎	-9.83074
千餘	-9.83087
裘	-9.831
詠	-9.83103
甲子	-9.83146
行臺	-9.83205
佩	-9.83215
潁	-9.83274
南京	-9.83284
湘	-9.83286
簿	-9.83342
偶	-9.83365
洲	-9.83369
之難	-9.83394
聞其	-9.83436
驛	-9.83509
芝	-9.8351
寝	-9.83529
曰汝	-9.83551
黃	-9.83578
開封	-9.83629
萬物	-9.837
無忌	-9.83724
之外	-9.83844
不免	-9.83857
衝	-9.83949
而行	-9.8398
也又	-9.84091
愷	-9.84113
羡	-9.84122
婢	-9.84134
枉	-9.84177
御史大夫	-9.8419
今改正	-9.84201
不食	-9.84216
帰	-9.84232
謁者	-9.84242
之計	-9.84272
帝即位	-9.84296
聞而	-9.84401
或云	-9.84473
嶷	-9.8456
爰	-9.84572
百餘人	-9.84581
譬	-9.84609
㤗	-9.84614
詔書	-9.84674
夏六月	-9.84712
布衣	-9.84746
曰若	-9.8476
恣	-9.84805
析	-9.84963
豫州刺史	-9.84971
㝷	-9.85039
柱國	-9.85122
壮	-9.85149
相與	-9.85163
涇	-9.85168
踐	-9.85199
漏	-9.85221
以聞	-9.85243
㕥	-9.85268
二十一年	-9.85348
於秦	-9.85383
冢	-9.85435
江夏	-9.85465
曠	-9.85502
行之	-9.8566
閻	-9.85666
鬬	-9.85676
會稽	-9.85697
墮	-9.85708
傑	-9.8571
取其	-9.85711
富貴	-9.85716
四人	-9.85863
於齊	-9.85872
有一	-9.85964
二萬	-9.85971
昏	-9.85973
為相	-9.85977
太僕	-9.861
泰山	-9.86222
墳	-9.86295
营	-9.86383
詩曰	-9.86469
嫡	-9.86515
及其	-9.86558
惠公	-9.86568
八十	-9.86598
等皆	-9.86704
構	-9.86748
太公	-9.86759
楚人	-9.86774
也且	-9.86778
重耳	-9.8679
魁	-9.86795
者必	-9.86835
欒	-9.86855
璋	-9.86888
多所	-9.86913
潔	-9.86977
也其	-9.87043
足下	-9.87074
之亂	-9.8715
輔政	-9.87236
大國	-9.87267
徹	-9.87281
称	-9.87283
漁	-9.87352
元帥	-9.87422
堡	-9.8745
五經	-9.87452
圉	-9.87576
系	-9.87742
氐	-9.87844
劇	-9.8785
議者	-9.87971
歆	-9.87979
數萬	-9.87988
代之	-9.88029
燭	-9.88096
畔	-9.881
護	-9.88113
汪	-9.88281
紇	-9.88293
恂	-9.88309
為丞相	-9.88335
上言	-9.88364
億	-9.8837
鬭	-9.88541
宫室	-9.88555
濫	-9.88556
引兵	-9.8859
竄	-9.88762
披	-9.88768
再拜	-9.88788
追贈	-9.88824
始皇	-9.88859
訴	-9.88923
蔣	-9.88959
旣	-9.8899
千户	-9.89112
異之	-9.89135
滅之	-9.89209
之際	-9.89218
西河	-9.89444
汲	-9.89447
覇	-9.89482
觸	-9.89501
栢	-9.89608
宦	-9.89617
䑓	-9.89622
琮	-9.89672
節度	-9.89711
言曰	-9.8986
進封	-9.89906
㢤	-9.8991
跪	-9.89941
民之	-9.9003
王莽	-9.9004
囂	-9.90067
而有	-9.90098
至此	-9.90209
士大夫	-9.90211
真宗	-9.90281
不絶	-9.90297
廉	-9.90307
俸	-9.90335
邀	-9.90403
五人	-9.90653
邈	-9.90751
妹	-9.90787
僅	-9.90799
乖	-9.90806
芒	-9.90819
潤	-9.90824
太宰	-9.90829
甞	-9.90897
晉人	-9.90914
軍節度使	-9.90954
之利	-9.90957
漕	-9.90976
演	-9.90987
厲公	-9.91004
不當	-9.91031
伐楚	-9.91039
為司徒	-9.91081
不聼	-9.91098
恊	-9.91099
泥	-9.9122
巳	-9.91229
人心	-9.91229
綸	-9.91232
山川	-9.91281
中興	-9.91281
五千	-9.91301
人也父	-9.91418
徧	-9.91467
悅	-9.91485
詭	-9.91499
立是為	-9.91544
鄉侯	-9.91622
古人	-9.91705
巖	-9.91723
宣武	-9.91735
紅	-9.91754
諸軍事	-9.91763
詔以	-9.91827
豈不	-9.91879
脅	-9.91917
奇	-9.91969
韻	-9.92081
賢者	-9.92086
臂	-9.92192
數日	-9.92337
瑕	-9.92353
號為	-9.92357
未及	-9.92455
秦秦	-9.92559
蠕蠕	-9.92568
石頭	-9.92593
遥	-9.92598
俄	-9.92604
賴	-9.92606
飲食	-9.92633
料	-9.92635
俄而	-9.92656
冀州	-9.92669
之下	-9.92685
晉侯	-9.927
縣侯	-9.92702
當世	-9.92789
耀	-9.92832
忤	-9.92852
為司空	-9.92859
必不	-9.92897
倒	-9.9293
大子	-9.93021
也从	-9.93073
東方	-9.93076
誥	-9.93087
昧	-9.93095
皇子	-9.93258
進爵	-9.93304
逵	-9.93336
無道	-9.93345
亢	-9.93375
挺	-9.93377
問曰	-9.93413
殿中	-9.93452
人有	-9.93654
琅邪	-9.93704
何不	-9.93727
隗	-9.93807
寨	-9.93816
二十五年	-9.93818
甄	-9.93973
各有	-9.93981
勁	-9.94036
閲	-9.9405
大小	-9.94143
令尹	-9.94234
中書侍郎	-9.94255
諸郡	-9.94268
牟	-9.94274
什	-9.94287
俞	-9.943
遂與	-9.943
洋	-9.9431
岱	-9.94313
風俗	-9.94315
不淂	-9.94404
四時	-9.94405
寗	-9.94407
巾	-9.94428
經一卷	-9.94476
祭酒	-9.9449
怠	-9.94505
未詳	-9.9453
臣聞	-9.94563
人情	-9.94663
誡	-9.94692
王室	-9.94694
中有	-9.94702
斌	-9.94718
區	-9.94739
領軍	-9.94759
酷	-9.94763
安得	-9.948
文宣	-9.94814
嬴	-9.9489
隣	-9.94957
煜	-9.94973
柴	-9.94996
廼	-9.95018
未幾	-9.95029
太學	-9.95113
之子也	-9.95138
以疾	-9.95172
那	-9.95197
廢帝	-9.952
老子	-9.95241
頃之	-9.95245
功曹	-9.95267
青州	-9.95385
衛將軍	-9.954
嬖	-9.95419
本紀	-9.95451
雉	-9.95462
禱	-9.95468
五卷	-9.95509
成帝	-9.95583
官屬	-9.95641
曰寡人	-9.95669
三萬	-9.95682
叔父	-9.95683
諧	-9.95689
糾	-9.95706
得罪	-9.95712
而不能	-9.95748
王者	-9.95817
浦	-9.95888
祕	-9.95916
哀公	-9.95932
甲申	-9.95952
江西	-9.95996
視之	-9.96091
不信	-9.96107
不合	-9.96119
㦸	-9.96136
奄	-9.96175
若此	-9.96185
千人	-9.96207
莫能	-9.96236
中外	-9.96253
幽州	-9.96255
下詔	-9.96314
乃遣	-9.96317
永平	-9.96377
為一	-9.96382
千餘人	-9.96413
嘉之	-9.96421
耻	-9.96447
豈可	-9.96515
觀之	-9.9653
未能	-9.96531
神農	-9.9663
囊	-9.96632
侮	-9.96657
其身	-9.9666
屍	-9.967
隙	-9.96736
患之	-9.96835
苻	-9.96874
不若	-9.96916
其名	-9.96921
鐸	-9.96922
戾	-9.96959
三十年	-9.97004
名曰	-9.97018
并州	-9.97097
蔑	-9.971
遣其	-9.97108
銜	-9.97131
牲	-9.97161
跡	-9.97166
之則	-9.9718
為侍中	-9.97227
互	-9.97262
則有	-9.973
不就	-9.97304
一名	-9.97311
待之	-9.97321
曰天	-9.97346
桐	-9.97396
劉氏	-9.97404
把	-9.97421
叔孫	-9.97488
萬餘人	-9.97623
奕	-9.97638
咸陽	-9.97653
滎陽	-9.97698
耆	-9.97705
曰王	-9.97795
王師	-9.97804
相見	-9.97904
銓	-9.97914
黄門	-9.98009
揚州刺史	-9.98042
都御史	-9.98063
陜	-9.98099
儼	-9.98125
天文	-9.98193
所得	-9.98229
字伯	-9.98357
朔日有食之	-9.98358
較	-9.98417
顒	-9.98536
其中	-9.98539
阮	-9.98576
惇	-9.98578
詢	-9.98635
臣之	-9.98641
二十三年	-9.98648
以求	-9.98664
輪	-9.98666
雍州刺史	-9.98666
太廟	-9.98824
徽宗	-9.98825
輦	-9.98829
玩	-9.98844
上帝	-9.98844
阜	-9.9886
其意	-9.98905
尚書郎	-9.99015
縛	-9.99128
辦	-9.99144
龎	-9.99163
常侍	-9.99223
戰於	-9.99304
人以	-9.99311
混	-9.99315
涼	-9.99368
謫	-9.99376
五帝	-9.99456
徐州刺史	-9.99522
諸臣	-9.99584
琛	-9.99606
安國	-9.9962
女子	-9.99655
先君	-9.99665
箕	-9.99779
大水	-9.99807
卞	-9.99821
赫	-9.99849
隊	-9.99862
俾	-9.99865
舌	-9.99867
斂	-9.99875
帝以	-9.99891
㢘	-9.99927
之内	-9.99977
以禮	-10.0001
少子	-10.0006
恱	-10.0007
薨子	-10.0008
冶	-10.001
訊	-10.0012
賑	-10.0014
炎	-10.0017
凌	-10.0018
泄	-10.003
武子	-10.0033
縣公	-10.0035
捨	-10.0036
囘	-10.0039
卦	-10.0043
東陽	-10.0049
不知所	-10.0054
得失	-10.0055
雙	-10.0063
為王	-10.0067
壹	-10.0067
小國	-10.0088
開元	-10.0088
巷	-10.0091
靈王	-10.0093
漢王	-10.0094
之志	-10.0094
望之	-10.0097
不忘	-10.0099
溺	-10.0099
衣服	-10.01
殺其	-10.0101
為亂	-10.0105
二州	-10.0106
佗	-10.0106
二十四	-10.0109
邸	-10.0112
琬	-10.0112
陂	-10.0113
平原君	-10.0117
萊	-10.012
眉	-10.0134
虧	-10.0139
雲中	-10.0141
髮	-10.0143
矦	-10.0144
伏誅	-10.0156
扶風	-10.0158
該	-10.0163
扵是	-10.0164
南郡	-10.0182
税	-10.0188
學者	-10.0188
納之	-10.0206
諒	-10.0212
人也少	-10.0214
三軍	-10.0214
無功	-10.0216
郁	-10.0216
集十卷	-10.0222
是月	-10.0228
蠻夷	-10.023
滑	-10.023
宫中	-10.0236
涉	-10.0238
昬	-10.0239
寃	-10.024
一旦	-10.0241
車騎	-10.0242
丗	-10.0245
定公	-10.0251
膳	-10.0263
長吏	-10.0265
恬	-10.0266
揖	-10.0269
𤓰	-10.027
曰吾聞	-10.0277
二十二年	-10.0288
冨	-10.0292
于齊	-10.0295
守之	-10.0297
字仲	-10.0298
孟子	-10.0302
偹	-10.0317
荷	-10.0321
由此	-10.0328
紀年	-10.0336
眼	-10.034
宣公	-10.034
藻	-10.0343
握	-10.0347
大軍	-10.0347
窺	-10.0347
孟嘗君	-10.0349
乃與	-10.0351
幕	-10.036
敗之	-10.0361
三十六	-10.0364
句踐	-10.0366
滯	-10.0372
季氏	-10.0375
歟	-10.0377
侍御史	-10.0386
請以	-10.039
數百人	-10.039
遣人	-10.0395
清河	-10.0395
諫曰	-10.0404
案范書	-10.0405
進位	-10.0413
讎	-10.0419
慢	-10.0421
豎	-10.0422
所知	-10.0437
者亦	-10.0437
得之	-10.0441
漆	-10.0441
濮	-10.0443
為右	-10.0444
無罪	-10.0446
不失	-10.0447
譖	-10.0448
萌	-10.0455
簡子	-10.0459
亥	-10.0462
不通	-10.0465
檀	-10.047
禮樂	-10.0474
健	-10.0479
衣冠	-10.0493
先王之	-10.0494
迷	-10.0498
不死	-10.0498
誨	-10.0499
建康	-10.0503
太史	-10.0516
河間	-10.0519
儀同三司	-10.0524
畿	-10.0525
逺近	-10.0525
止之	-10.0526
鑑	-10.0528
襲爵	-10.0547
坊	-10.0548
未知	-10.0554
减	-10.0554
包	-10.0555
其先	-10.0557
州牧	-10.0569
兖州	-10.0569
鬼神	-10.0575
春二月	-10.0583
倭	-10.0587
祖宗	-10.0601
二十四年	-10.0601
受禪	-10.0619
鄭伯	-10.0619
上表	-10.063
印綬	-10.0633
曰何	-10.0634
煬帝	-10.0642
宣子	-10.0643
仁義	-10.0644
從者	-10.0645
二世	-10.0648
浙	-10.0649
般	-10.0658
所居	-10.0665
倡	-10.0667
秦之	-10.0668
渤海	-10.0687
以成	-10.0692
十餘年	-10.0696
與其	-10.0697
二十卷	-10.0699
帥師	-10.07
元舊	-10.0707
巡	-10.0716
圓	-10.0719
大義	-10.0729
得免	-10.0733
九州	-10.0737
豈有	-10.0737
去之	-10.074
弋	-10.0741
脫	-10.0741
乎對曰	-10.0742
薪	-10.0743
勵	-10.0746
北伐	-10.0749
永安	-10.0749
不入	-10.0751
昔者	-10.0758
弩	-10.0765
昱	-10.0769
沔	-10.077
鬻	-10.0771
開皇	-10.0776
大學士	-10.0778
州諸軍事	-10.0779
王氏	-10.0786
亦曰	-10.0788
翊	-10.0791
誼	-10.0793
姿	-10.0797
為太尉	-10.08
有二	-10.0803
孫權	-10.0818
道路	-10.0824
消	-10.0825
而卒	-10.0839
之世	-10.0845
不成	-10.0846
排	-10.0849
不聞	-10.0851
汗	-10.0863
琦	-10.087
雀	-10.087
氷	-10.0881
不下	-10.0883
太和	-10.092
艱	-10.0929
貲	-10.0931
文襄	-10.0934
摩	-10.0934
柄	-10.0937
而下	-10.0939
應之	-10.0939
曰公	-10.0941
版	-10.0957
冐	-10.0961
縣令	-10.0969
後宫	-10.0973
稍遷	-10.0973
翻	-10.0982
歸之	-10.0985
況	-10.0986
隕	-10.0986
孝公	-10.0986
着	-10.099
楚子	-10.0992
亳	-10.0995
雖然	-10.0997
周易	-10.0998
列侯	-10.0998
者非	-10.101
眷	-10.1014
壬午	-10.1015
監軍	-10.103
矣今	-10.1033
沃	-10.1036
十里	-10.104
羞	-10.1041
中郎	-10.1047
甲午	-10.1048
嶠	-10.1058
陜西	-10.1065
指揮	-10.1065
冡	-10.1068
其民	-10.1069
從容	-10.1073
簡公	-10.1076
之説	-10.1079
長樂	-10.108
天命	-10.108
篆	-10.1083
姓名	-10.1088
渡江	-10.1089
伊尹	-10.1096
饋	-10.1096
失其	-10.1097
如何	-10.1109
數月	-10.1111
芮	-10.1111
屯田	-10.1117
楚師	-10.1117
左氏	-10.1121
殯	-10.1126
有異	-10.1133
免官	-10.1138
人臣	-10.1139
苛	-10.1152
繕	-10.1153
黍	-10.1153
彧	-10.1154
不得已	-10.1157
莊子	-10.117
送之	-10.1172
公使	-10.1173
門外	-10.1174
賜之	-10.1174
札	-10.1177
拱	-10.1178
㳟	-10.1178
冰	-10.1181
為君	-10.1182
黄門侍郎	-10.1183
所生	-10.1185
州總管	-10.1186
之師	-10.1187
冬十二月	-10.119
有三	-10.1195
二千	-10.1205
製	-10.1206
摯	-10.1207
時年	-10.1211
埋	-10.1212
元嘉	-10.1214
壤	-10.1215
繩	-10.1216
髙陽	-10.1218
賞賜	-10.1218
𢎞農	-10.122
甥	-10.1232
邁	-10.1236
三十卷	-10.1237
亦以	-10.1238
所敗	-10.1239
不顧	-10.124
笞	-10.1241
尼雅滿	-10.1245
少有	-10.1251
謀反	-10.1255
也吾	-10.1259
大同	-10.1262
之禍	-10.1268
山陽	-10.1274
北海	-10.1275
射之	-10.1278
零	-10.1282
宦者	-10.1283
帯	-10.1286
楚之	-10.1287
三分	-10.1291
疲	-10.1292
永嘉	-10.1296
肩	-10.1296
者乎	-10.1297
圭	-10.1297
之類	-10.13
襄子	-10.1307
栗	-10.1324
䘏	-10.1327
椒	-10.1328
文侯	-10.1334
將士	-10.1336
趙氏	-10.1351
寓	-10.1354
之患	-10.1357
究	-10.1358
四卷	-10.1358
軒	-10.1374
假節	-10.1376
謐	-10.1377
莊王	-10.1378
弁	-10.1378
時為	-10.1383
凱	-10.1386
制度	-10.1409
俠	-10.141
佳	-10.1412
庚子	-10.1412
劔	-10.1412
噐	-10.1414
愛之	-10.1422
節度使	-10.1426
濟南	-10.143
以備	-10.1431
繡	-10.1436
所言	-10.1436
翔	-10.1437
訛	-10.1438
陋	-10.144
二十五	-10.1444
臣請	-10.1444
韓子	-10.1455
然而	-10.1457
數千人	-10.1463
汴	-10.1464
朝夕	-10.1465
曲沃	-10.1472
問之	-10.1475
漢有	-10.148
齊桓公	-10.1485
英宗	-10.1488
輕重	-10.1489
測	-10.149
從弟	-10.1494
江東	-10.1494
萇	-10.1495
安石	-10.1496
季孫	-10.1503
死而	-10.1504
梁王	-10.1508
春正月	-10.1508
所為	-10.1512
兵部尚書	-10.1516
蠶	-10.152
潭	-10.1524
事君	-10.1527
楽	-10.1528
夷吾	-10.1529
也然	-10.1531
晃	-10.1531
中大夫	-10.1535
也臣	-10.1536
隔	-10.1549
公薨	-10.155
顥	-10.1553
鞏	-10.1555
曰不可	-10.1558
十餘人	-10.1582
為左	-10.1583
軫	-10.1597
關中	-10.1598
少卿	-10.1606
縊	-10.1618
下邳	-10.1619
父兄	-10.162
康王	-10.1624
䕶軍	-10.1625
衛尉	-10.1625
寡君	-10.1627
生子	-10.163
庚	-10.1634
鄉里	-10.1643
枚	-10.1647
以報	-10.165
𢾗	-10.1651
曰善	-10.1652
矣而	-10.1652
所部	-10.1656
言其	-10.166
出於	-10.1663
秋九月	-10.1667
捐	-10.1678
晝夜	-10.1679
次于	-10.1682
可得	-10.1684
嘆	-10.1687
無復	-10.1688
精兵	-10.169
岑	-10.1698
蠡	-10.1704
辛未	-10.1706
濠	-10.1706
所害	-10.1711
何故	-10.172
膺	-10.1722
為名	-10.1726
逞	-10.1727
壺	-10.1733
濁	-10.1733
蓄	-10.1738
之後也	-10.174
復以	-10.1743
天監	-10.1745
儀同	-10.1752
兵部	-10.1755
大赦天下	-10.1761
尚書僕射	-10.1763
自古	-10.1764
詣闕	-10.1765
箭	-10.1766
促	-10.1766
不堪	-10.1784
謂其	-10.1786
枕	-10.179
天之	-10.1791
逋	-10.1793
貽	-10.1795
孝經	-10.1801
黄金	-10.1802
曇	-10.1814
漢書	-10.1822
粮	-10.1827
而退	-10.1828
甲辰	-10.1834
子路	-10.1842
之術	-10.1843
問其故	-10.1848
證	-10.185
暨	-10.1851
睢	-10.1852
淹	-10.1852
昉	-10.1853
緣	-10.1853
之命	-10.1862
謚曰	-10.1866
各有差	-10.1867
詩云	-10.1869
不善	-10.187
之屬	-10.1872
球	-10.1876
古者	-10.1878
而止	-10.1878
蠲	-10.1879
十日	-10.1879
乙酉	-10.188
陪	-10.1881
軰	-10.1884
眞宗	-10.1884
頸	-10.1885
梅	-10.1885
鉞	-10.1887
翰林	-10.1888
來朝	-10.1891
腹心	-10.1897
舉進士	-10.1901
追封	-10.1904
陟	-10.1906
十人	-10.191
曰是	-10.1915
泗	-10.1915
豕	-10.1916
瀆	-10.1916
受之	-10.1922
男子	-10.1924
奐	-10.1935
快	-10.194
涕	-10.1942
價	-10.1943
有才	-10.1951
闗中	-10.1955
常山	-10.1958
尚書右僕射	-10.1958
母弟	-10.1962
河陽	-10.1967
惲	-10.1968
故也	-10.1971
在外	-10.1972
塟	-10.1973
而復	-10.1975
白馬	-10.1986
肯	-10.1987
宗族	-10.1996
齡	-10.1998
立為	-10.2002
弦	-10.2004
毗	-10.2006
闇	-10.2007
可乎	-10.2008
疋	-10.2011
乃令	-10.2012
盗賊	-10.2013
至今	-10.2013
部曲	-10.202
五行	-10.2022
日夜	-10.2024
無事	-10.2028
兖	-10.2033
潞	-10.2034
乙未	-10.2036
縳	-10.2038
世本	-10.2043
是日	-10.2043
詡	-10.2066
驃騎將軍	-10.2067
遏	-10.2068
欲立	-10.2069
為國	-10.207
長者	-10.2071
啇	-10.2072
𥙷	-10.2074
進退	-10.2075
不易	-10.2075
千金	-10.2081
釋之	-10.2083
昻	-10.2087
見殺	-10.2088
諸國	-10.2088
絃	-10.2093
盾	-10.2093
主事	-10.2097
吹	-10.2098
丙子	-10.2108
夀春	-10.2112
宋朝	-10.2117
于秦	-10.2121
瓘	-10.2125
弛	-10.2132
谿	-10.2132
以後	-10.2136
涼州	-10.2137
豫州	-10.2142
諸侯之	-10.2145
萬世	-10.2149
崖	-10.2159
七日	-10.216
新城	-10.2161
者多	-10.2164
又遣	-10.2168
不識	-10.2175
大司農	-10.2175
翰林學士	-10.2186
有五	-10.2187
公㑹諸侯	-10.2191
殿下	-10.2191
秘	-10.2193
苞	-10.2193
羲	-10.2202
三子	-10.2206
綝	-10.2208
論語	-10.221
矣夫	-10.2212
于晉	-10.2216
匠	-10.2218
龔	-10.2218
獻子	-10.2219
不聴	-10.2223
其志	-10.2226
膽	-10.2226
受其	-10.2227
范陽	-10.2229
不自	-10.2233
城下	-10.2241
成子	-10.2242
追之	-10.2244
歙	-10.225
不祥	-10.2252
十二卷	-10.2253
入于	-10.2253
匱	-10.2256
穢	-10.2256
亞	-10.2274
是年	-10.2281
雋	-10.2283
鶴	-10.2284
東平	-10.2299
熲	-10.23
曰朕	-10.2306
羽林	-10.2307
姬姓	-10.2311
他日	-10.2313
洪武	-10.2314
殖	-10.2314
慟	-10.2315
通判	-10.2315
綿	-10.2316
斃	-10.2317
冒	-10.2318
望出	-10.2318
掘	-10.2323
同知	-10.2323
深入	-10.2327
魯人	-10.2338
使持節	-10.2344
眀帝	-10.2344
征伐	-10.2347
膝	-10.235
而反	-10.2354
重之	-10.2358
耳目	-10.236
有此	-10.2362
武成	-10.2366
北地	-10.2371
既至	-10.2374
鳩	-10.2375
禎	-10.2377
三輔	-10.2379
叩頭	-10.2384
江淮	-10.2385
皇甫	-10.2386
其實	-10.2393
廣漢	-10.2405
炳	-10.2408
丑	-10.2409
壬辰	-10.241
州縣	-10.2413
帝王	-10.2424
九十	-10.2427
其心	-10.2428
不納	-10.2431
子貢	-10.2432
願陛下	-10.2433
王崩	-10.2437
圖之	-10.2438
其一	-10.2442
郃	-10.2447
稱之	-10.2449
駱	-10.2467
晞	-10.2469
筠	-10.2471
褐	-10.2472
弄	-10.2473
有司奏	-10.2473
天地之	-10.2475
留守	-10.2476
模	-10.2478
不問	-10.248
韜	-10.2481
不知其	-10.2482
粤	-10.2486
江州	-10.2494
中常侍	-10.2495
與秦	-10.2503
洗	-10.2504
之民	-10.2505
梟	-10.2505
筮	-10.2505
尚書左僕射	-10.2525
不可不	-10.253
徼	-10.2534
塘	-10.2536
孺	-10.2538
李氏	-10.2553
後周	-10.2556
自此	-10.2556
不安	-10.2559
不已	-10.256
管子	-10.2566
稱其	-10.2568
禮部	-10.2569
城門	-10.2569
夙	-10.257
嗚呼	-10.2571
辛亥	-10.2571
畝	-10.2573
僉	-10.2576
宗正	-10.2577
九江	-10.2578
之官	-10.2582
所著	-10.2588
憐	-10.2589
來聘	-10.2593
言者	-10.2597
几	-10.2602
猷	-10.2605
及諸	-10.2605
壞	-10.2606
臣竊	-10.2606
菜	-10.2606
鐡	-10.2608
西方	-10.2612
叟	-10.2615
群	-10.2615
堯舜	-10.2619
元祐	-10.262
安帝	-10.2627
貴妃	-10.263
甲寅	-10.2637
禦之	-10.2647
三司	-10.2651
一作	-10.2654
怒曰	-10.2654
不可得	-10.2663
旨	-10.2667
睿	-10.267
鉅	-10.2671
紏	-10.2675
周禮	-10.2676
其年	-10.268
参	-10.2682
皆為	-10.2685
主人	-10.2689
其上	-10.269
嬪	-10.2696
穎	-10.2699
太康	-10.2702
給事	-10.2704
戊子	-10.2708
軍士	-10.271
懲	-10.2712
久矣	-10.2713
二十七年	-10.2715
桓子	-10.2724
之弟	-10.2724
親戚	-10.2726
草木	-10.2728
辛丑	-10.2733
曼	-10.2733
只	-10.2733
已下	-10.2736
也乃	-10.2736
吟	-10.2737
廸	-10.2737
直言	-10.2738
詹	-10.2749
之孫	-10.2757
以歸	-10.276
乙亥	-10.2766
縦	-10.2767
柳	-10.2768
譴	-10.2771
攷	-10.2773
吾子	-10.2774
也君	-10.278
伏羲	-10.2781
麾	-10.2783
鈔	-10.279
大風	-10.2792
相如	-10.2793
今君	-10.2794
從事中郎	-10.2794
百人	-10.2795
春三月	-10.2796
柯	-10.2797
戊午	-10.2801
佑	-10.2803
二十八年	-10.2818
驍	-10.2827
燮	-10.2829
沂	-10.2833
壻	-10.2833
丙寅	-10.2835
人多	-10.2838
二十八	-10.2864
千五百	-10.2868
鄱陽	-10.2875
兵馬	-10.2885
癸	-10.2887
家貧	-10.2895
揮	-10.2901
五萬	-10.2902
廹	-10.2902
榆	-10.2903
豊	-10.2904
施行	-10.292
太妃	-10.2923
尋陽	-10.2926
數十人	-10.2926
蘇秦	-10.2928
字元	-10.2929
夫差	-10.293
壬	-10.2931
知制誥	-10.2934
塲	-10.2934
苖	-10.2935
戌	-10.2935
楚國	-10.2936
法度	-10.2937
羸	-10.2937
摧	-10.2938
以安	-10.2939
丙辰	-10.2941
安平	-10.2943
所至	-10.2949
嘆曰	-10.2957
其功	-10.2959
乃還	-10.2963
曰諾	-10.2964
譯	-10.2964
確	-10.2966
愆	-10.2971
貝	-10.2972
將以	-10.2972
吞	-10.2972
己巳	-10.2972
攘	-10.2974
郡太守	-10.298
丁未	-10.299
特進	-10.2994
雍州	-10.2997
朝政	-10.3
雕	-10.3001
悖	-10.3005
值	-10.3006
四百	-10.3018
朋	-10.302
浙江	-10.3022
是非	-10.3023
瑗	-10.303
拒之	-10.3036
躍	-10.3036
凝	-10.304
踈	-10.304
道武	-10.3043
退而	-10.3043
王使	-10.3043
者則	-10.3045
為氏	-10.3049
萬里	-10.3051
之道也	-10.3055
因此	-10.3056
成功	-10.3059
字文	-10.306
㸃	-10.3066
庚午	-10.3069
不載	-10.3069
枯	-10.3074
邇	-10.3074
若不	-10.3075
字叔	-10.3076
村	-10.3076
二十六年	-10.3081
自今	-10.3087
棄之	-10.309
後有	-10.31
劫	-10.3102
丁亥	-10.3108
年表	-10.311
傲	-10.311
鉅鹿	-10.3111
癸未	-10.3119
女也	-10.312
又云	-10.3126
之勢	-10.3128
塔	-10.3129
國語	-10.3131
拂	-10.3138
無禮	-10.3147
女為	-10.3148
而進	-10.315
琨	-10.3157
賜死	-10.316
乳	-10.3166
在此	-10.3168
中正	-10.317
茶	-10.3172
丙午	-10.3176
丙	-10.3176
底	-10.3178
溥	-10.3178
遇害	-10.318
之任	-10.3183
大鴻臚	-10.3191
劉裕	-10.3199
評	-10.3201
染	-10.3201
徇	-10.3204
褚	-10.3206
之謂	-10.3211
輯	-10.3212
二十萬	-10.3212
霜	-10.3213
恵王	-10.3216
熱	-10.3217
博學	-10.3218
大驚	-10.3218
為主	-10.3219
之變	-10.3228
帷	-10.3239
王命	-10.3241
其才	-10.3246
渡河	-10.3247
文字	-10.325
之情	-10.326
之樂	-10.3271
隅	-10.328
姪	-10.3283
八百	-10.3287
諸州	-10.3293
建元	-10.3301
番	-10.3309
諤	-10.3312
奎	-10.3314
遮	-10.3314
己亥	-10.3315
令人	-10.3318
廣州	-10.332
賓客	-10.3321
山中	-10.3323
宫人	-10.3328
食邑	-10.3345
哈	-10.3348
祔	-10.3348
坤	-10.3353
庚申	-10.3353
兖州刺史	-10.3359
者三	-10.3361
不屈	-10.3363
坦	-10.3364
之矣	-10.3366
晉國	-10.3375
乙丑	-10.3381
截	-10.3384
居之	-10.339
中丞	-10.3398
第五	-10.3399
判官	-10.3408
廖	-10.3413
諮	-10.3414
尚書左丞	-10.3416
獨不	-10.3416
于楚	-10.3417
繞	-10.3418
聊	-10.3418
凉	-10.3419
丁巳	-10.342
九卿	-10.3421
太監	-10.3426
三代	-10.3427
戊	-10.3428
人也祖	-10.343
善之	-10.3432
為皇太子	-10.3434
淮南子	-10.3436
大行	-10.3442
廬江	-10.3445
􁁊	-10.3446
簒	-10.3448
銳	-10.3451
戊辰	-10.3453
顓頊	-10.3455
黔	-10.3455
竈	-10.3456
畨	-10.3456
訥	-10.3456
倖	-10.3457
不果	-10.3457
辜	-10.3462
年八十	-10.3466
欲令	-10.3468
曽孫	-10.3471
頗有	-10.3471
洩	-10.3488
庚寅	-10.3489
無益	-10.349
奏事	-10.3495
自立	-10.3497
萬暦	-10.3497
沙門	-10.35
從征	-10.3507
竟不	-10.3507
内侍	-10.3509
裳	-10.351
之才	-10.351
不幸	-10.3512
圖一卷	-10.3516
寘	-10.3521
𤼵	-10.3524
廩	-10.3525
聞之曰	-10.3526
䑕	-10.3527
覧	-10.3528
佚	-10.3528
大統	-10.3529
朴	-10.353
㑹于	-10.3531
不便	-10.3533
東門	-10.3533
令史	-10.3534
之㑹	-10.3539
桓温	-10.3539
于時	-10.3547
不明	-10.3551
禾	-10.3552
亾	-10.3557
沐	-10.3557
憑	-10.3558
己丑	-10.3558
晟	-10.3559
㓕	-10.3559
苻堅	-10.356
鈎	-10.3561
又為	-10.357
師于	-10.3572
召為	-10.3574
之數	-10.3581
北方	-10.3582
永樂	-10.3584
所欲	-10.3584
也遂	-10.3588
抄	-10.3589
吐谷渾	-10.3589
第二	-10.359
驩	-10.3595
華陽	-10.3597
置酒	-10.3601
蝗	-10.3602
伐宋	-10.3608
因以	-10.361
中原	-10.3613
齊國	-10.3614
故不	-10.3615
六卷	-10.3617
彤	-10.362
毫	-10.3629
對曰臣	-10.3629
閎	-10.363
辛巳	-10.3631
繒	-10.3633
柏	-10.3634
不服	-10.3635
途	-10.3636
庙	-10.3638
之初	-10.3644
聖人之	-10.3649
江左	-10.3653
觀其	-10.3654
非常	-10.3654
武陵	-10.3654
有詔	-10.3655
即日	-10.3657
盜賊	-10.366
丁酉	-10.3667
酬	-10.3668
舎人	-10.3677
魯侯	-10.3681
因之	-10.3699
辛酉	-10.3702
西京	-10.3704
外戚	-10.3706
江州刺史	-10.3709
骨肉	-10.3712
断	-10.3713
逐之	-10.3721
與王	-10.3723
而得	-10.3728
曰陛下	-10.3731
教授	-10.3733
響	-10.3736
癸酉	-10.3739
犢	-10.3741
二州刺史	-10.3742
怯	-10.3743
觴	-10.3743
孝王	-10.3743
奴婢	-10.3745
顛	-10.3747
粛	-10.3749
而殺之	-10.3758
上以	-10.3767
年少	-10.377
朝臣	-10.3773
可也	-10.3773
嘗與	-10.3775
司𨽻校尉	-10.3776
敗走	-10.3781
一朝	-10.3786
大悦	-10.3786
之業	-10.3791
南海	-10.3797
王敦	-10.3797
一切	-10.3804
右僕射	-10.3808
驥	-10.3808
鼔	-10.3812
國中	-10.3814
涕泣	-10.3814
己酉	-10.3816
澹	-10.3817
並為	-10.3817
主上	-10.3818
壬子	-10.3819
椘	-10.3821
六人	-10.3821
中書監	-10.3822
諸葛	-10.3831
而入	-10.3832
嗣位	-10.3836
左僕射	-10.3837
不獲	-10.3838
正色	-10.384
其下	-10.3843
孝子	-10.3843
濤	-10.3844
扇	-10.3846
監國	-10.3847
起家	-10.3848
歐陽	-10.3849
剖	-10.3849
艦	-10.3856
义	-10.3856
璫	-10.3861
忠賢	-10.3864
南宫	-10.3864
亦無	-10.3869
其文	-10.3885
鏡	-10.3885
衢	-10.3886
准	-10.3889
勘	-10.389
覲	-10.3891
南郊	-10.3896
諸葛亮	-10.3896
以来	-10.3899
行人	-10.39
或有	-10.3904
卒年六十	-10.391
父老	-10.3915
是歳	-10.3915
幘	-10.3919
叩	-10.3919
自為	-10.392
桓帝	-10.3921
大喜	-10.3922
綺	-10.3922
媚	-10.3922
曷	-10.3923
寫	-10.3925
帖	-10.3925
酌	-10.3927
承天	-10.3931
年六十	-10.3931
金人	-10.394
不悦	-10.3942
人所	-10.3944
亦為	-10.3947
雒	-10.3948
諶	-10.395
甸	-10.3953
剋	-10.3954
刁	-10.3955
昆弟	-10.3957
於天下	-10.3962
網	-10.3962
械	-10.3963
狎	-10.3963
繋	-10.3964
皷	-10.3965
同姓	-10.3967
少昊	-10.3967
國子	-10.3967
匪	-10.3967
雲南	-10.397
車馬	-10.3973
之家	-10.3974
宿衛	-10.3975
其黨	-10.3979
召公	-10.3982
行事	-10.3987
暠	-10.3989
百年	-10.3989
愔	-10.3989
戊寅	-10.3996
騶	-10.3996
武侯	-10.3997
唱	-10.3999
替	-10.4
紙	-10.4001
元昊	-10.4001
暑	-10.4003
記室	-10.4004
東都	-10.4004
琅邪王	-10.401
轉運使	-10.4011
中尉	-10.4011
崇禎	-10.4012
于此	-10.4016
禁中	-10.4019
延年	-10.402
廣平	-10.4023
召之	-10.4024
裏	-10.4026
大亂	-10.4026
騫	-10.4027
出兵	-10.4029
髠	-10.4032
長孫	-10.4032
召見	-10.4033
殉	-10.4037
戊申	-10.4038
范蠡	-10.4049
不容	-10.4054
甚厚	-10.4056
陽虎	-10.406
失之	-10.4061
瑶	-10.4068
標	-10.407
鼻	-10.4075
慶之	-10.4088
不止	-10.409
大旱	-10.4095
朝士	-10.4097
䜟	-10.4099
金城	-10.4106
非所以	-10.4108
碎	-10.4113
董卓	-10.4114
使使	-10.4125
薦之	-10.4127
淮陽	-10.4134
鉏	-10.4145
求之	-10.4147
之學	-10.415
彂	-10.4154
石勒	-10.4168
十五卷	-10.4179
興師	-10.4179
得志	-10.4179
俯	-10.418
如晉	-10.4181
而欲	-10.4181
渚	-10.4186
飽	-10.4186
壬寅	-10.4187
蔵	-10.4187
繹	-10.4187
癸巳	-10.4188
訣一卷	-10.4188
壬申	-10.4188
暇	-10.4188
犂	-10.4188
丁丑	-10.4189
汙	-10.4189
起居	-10.419
瑋	-10.419
覩	-10.419
入宫	-10.4194
有疾	-10.42
也於是	-10.4201
周之	-10.4205
六國	-10.421
可汗	-10.421
牒	-10.4219
之族	-10.422
償	-10.422
偕	-10.4225
猶有	-10.4225
威王	-10.4225
禘	-10.4227
蹈	-10.4228
自知	-10.4232
總管	-10.4232
庶子	-10.4236
禮之	-10.4238
諸大夫	-10.4239
常以	-10.4242
禮記	-10.4248
馮翊	-10.4249
曄	-10.4263
陽太守	-10.4264
皇上	-10.4265
糴	-10.4265
丹陽尹	-10.4267
探	-10.4269
孛	-10.4274
河南尹	-10.4276
之位	-10.428
吏部郎	-10.4289
自以	-10.4289
終日	-10.4294
綰	-10.4295
之議	-10.4296
相繼	-10.4301
晉王	-10.4303
㫁	-10.4304
牆	-10.4304
榜	-10.4307
錦衣	-10.4314
終身	-10.4314
及長	-10.4315
曰彼	-10.4316
袁紹	-10.4318
或以	-10.432
下獄	-10.432
永興	-10.4323
同郡	-10.4324
涿	-10.4326
行於世	-10.4327
東郡	-10.433
未㡬	-10.4333
瓌	-10.4335
弭	-10.4337
石虎	-10.4338
光禄勲	-10.4338
贓	-10.4339
閹	-10.4339
狩	-10.4339
大功	-10.4341
嗜	-10.4342
夭	-10.4343
百八十	-10.4346
僻	-10.4346
敝邑	-10.4348
臯陶	-10.4371
癸丑	-10.4376
懌	-10.4377
囬	-10.4378
之謀	-10.438
悍	-10.438
迫	-10.4381
世之	-10.4385
責之	-10.4385
丈夫	-10.4389
王孫	-10.4397
孝武帝	-10.44
敗績	-10.4402
霄	-10.4406
姒	-10.441
牛馬	-10.4413
鞠	-10.4414
不必	-10.4417
丙申	-10.4417
若有	-10.4419
愼	-10.4419
庚辰	-10.4423
國事	-10.4424
憎	-10.4424
古文	-10.4424
與我	-10.4425
封禪	-10.4426
大人	-10.4435
曰非	-10.444
别駕	-10.4442
故城	-10.4443
翦	-10.4447
視事	-10.445
羿	-10.4452
岡	-10.4456
脚	-10.4458
紛	-10.4458
慷慨	-10.4459
朽	-10.4461
立功	-10.4466
烏桓	-10.4468
食之	-10.447
記一卷	-10.4474
太白	-10.4488
東魏	-10.4489
彘	-10.4489
鬚	-10.4498
墻	-10.4499
迄	-10.45
自守	-10.4501
與語	-10.4512
之兵	-10.4513
叔向	-10.4514
於楚	-10.4514
膠	-10.4514
肅宗	-10.4515
憚之	-10.4516
諸君	-10.4519
諸儒	-10.453
二十七	-10.4531
王導	-10.4531
汜	-10.4532
順帝	-10.4532
斧	-10.4534
两	-10.4538
暫	-10.4539
分為	-10.4543
孽	-10.4543
京口	-10.4551
朝野	-10.4551
卒官	-10.4553
望見	-10.4555
哲宗	-10.4563
南山	-10.457
事者	-10.457
不平	-10.4571
逄	-10.4573
無他	-10.4574
腰	-10.4575
册	-10.4575
措	-10.4575
交趾	-10.4576
災異	-10.458
大梁	-10.4585
遣兵	-10.4587
至矣	-10.4587
之聲	-10.4589
智伯	-10.4592
衣食	-10.4593
若是	-10.4594
簡文	-10.4604
攻魏	-10.4608
之重	-10.4614
追尊	-10.4615
非所	-10.4616
棟	-10.4618
死罪	-10.4618
芻	-10.4619
三國	-10.462
填	-10.4625
為郡	-10.4633
永元	-10.4635
風俗通	-10.4638
幽王	-10.4641
不義	-10.4642
公羊	-10.4643
癸亥	-10.4651
二十九年	-10.4652
庶人	-10.4652
代王	-10.4656
槐	-10.4656
臻	-10.4657
僖公	-10.467
天道	-10.467
鄆	-10.4672
行幸	-10.4674
是謂	-10.4675
人物	-10.4682
遣使者	-10.4683
宜陽	-10.4683
其間	-10.4687
山西	-10.4688
蓬	-10.4689
酈	-10.469
閼	-10.4691
有道	-10.4691
辭曰	-10.4693
盍	-10.4694
瓚	-10.4695
鮑叔	-10.4703
青州刺史	-10.4706
或謂	-10.4707
諸公	-10.4714
周文	-10.4716
國有	-10.4717
泰始	-10.4718
訣	-10.4721
熹	-10.4723
千萬	-10.4728
犀	-10.473
梓	-10.4731
駒	-10.4731
奪其	-10.4735
鉉	-10.4736
愽	-10.4736
東都事略卷	-10.4736
召還	-10.4738
而民	-10.4739
非也	-10.4742
百僚	-10.4743
鎬	-10.4744
闔廬	-10.4744
為大司馬	-10.4744
之節	-10.4746
一言	-10.4746
▁子	-10.4746
經史	-10.4754
五色	-10.4762
以是	-10.4764
疑之	-10.4765
函	-10.4767
東京	-10.4768
杲	-10.4776
準	-10.4777
其有	-10.4778
不敬	-10.4782
沛公	-10.4784
頓首	-10.4789
非其	-10.479
驃騎	-10.4798
賜以	-10.4798
臣謹按	-10.4798
宦官	-10.48
熾	-10.4811
轅	-10.4812
嗟乎	-10.4815
逾	-10.4817
埶	-10.4822
顯宗	-10.483
風雨	-10.4832
而弗	-10.4832
我我	-10.4839
論者	-10.4843
遂為	-10.4844
軾	-10.4852
板	-10.4856
伎	-10.4857
頒	-10.4858
按原書	-10.4858
大理	-10.486
朔方	-10.4864
元年春正月	-10.4864
等並	-10.4869
上疏曰	-10.4871
以為然	-10.4872
哀王	-10.4877
軍國	-10.4878
以致	-10.4879
莫如	-10.4882
入城	-10.4883
道士	-10.4885
有子	-10.4886
萬户	-10.4887
奉詔	-10.4887
者其	-10.4892
暹	-10.4896
弘	-10.4897
不樂	-10.4898
或言	-10.4899
又言	-10.49
遷于	-10.4901
煥	-10.4901
霧	-10.4902
㽞	-10.4904
舘	-10.4904
獻之	-10.4905
雖不	-10.4906
士民	-10.4909
二十餘	-10.4911
楚楚	-10.4913
書云	-10.4914
見而	-10.4916
入為	-10.4927
懋	-10.4931
不盡	-10.4934
股	-10.4937
謡	-10.4938
汚	-10.4941
兵起	-10.4941
沿	-10.4943
舊制	-10.4944
欲殺	-10.4948
桂陽	-10.495
燕趙	-10.4956
安南	-10.496
療	-10.4967
之號	-10.4968
攻城	-10.4971
竦	-10.4972
問其	-10.4975
從兄	-10.4977
輝	-10.498
吴王	-10.498
行至	-10.4981
定國	-10.4981
中書舍人	-10.4981
恚	-10.4982
衞將軍	-10.4983
虗	-10.4986
耗	-10.4988
城南	-10.499
不治	-10.4994
次子	-10.5008
大將	-10.5008
己未	-10.5014
崔杼	-10.5014
毓	-10.5018
於外	-10.502
金銀	-10.502
以前	-10.502
其書	-10.5026
未必	-10.5026
輔臣	-10.5033
永昌	-10.5034
鄂	-10.5043
日中	-10.5048
而求	-10.505
人事	-10.5053
北面	-10.5056
偪	-10.5056
訾	-10.5057
王王	-10.506
溫	-10.5061
自號	-10.5061
曰可	-10.5061
驟	-10.5062
璞	-10.5062
厨	-10.5063
三老	-10.5065
帑	-10.5066
踵	-10.5068
左將軍	-10.5072
不起	-10.5072
部落	-10.5074
引為	-10.5074
刑部	-10.5075
將帥	-10.5075
漁陽	-10.508
百五十	-10.508
孺子	-10.5081
山隂	-10.5087
以問	-10.5087
服之	-10.5092
與楚	-10.5094
金陵	-10.5095
三王	-10.51
圃	-10.51
寤	-10.5102
戯	-10.5104
五星	-10.5107
郝	-10.5108
驢	-10.5108
乃命	-10.511
揺	-10.5112
齊師	-10.5114
虎賁	-10.5114
無有	-10.5118
年七十	-10.5124
百餘里	-10.5124
弱冠	-10.5126
歸于	-10.513
何必	-10.5132
敦煌	-10.5134
之敗	-10.5137
臨淮	-10.5138
有天下	-10.514
鵠	-10.5142
拾遺	-10.5145
磨	-10.5146
鉤	-10.5147
麋	-10.5147
太中大夫	-10.5149
以應	-10.5151
自陳	-10.5154
開門	-10.5158
而能	-10.5162
堵	-10.5187
奉使	-10.5197
城郭	-10.5199
范書	-10.5202
城内	-10.5203
騎都尉	-10.5204
刑罰	-10.5207
公㑹	-10.5209
有寵	-10.5214
迎之	-10.5216
吳興	-10.5216
竟陵	-10.5218
入見	-10.5218
閉門	-10.522
自然	-10.5221
可為	-10.5228
信之	-10.5229
灼	-10.523
搏	-10.5231
金帛	-10.5231
瞽	-10.5235
朂	-10.5236
因而	-10.5236
臘	-10.5242
從子	-10.5251
為文	-10.5251
告急	-10.5253
門人	-10.5257
樂毅	-10.5264
不忠	-10.5264
魏軍	-10.5267
袍	-10.5268
蹇	-10.5269
溉	-10.5272
二十一	-10.5273
拜為	-10.5273
撤	-10.5274
籌	-10.5275
第三	-10.5277
勛	-10.5279
兵法	-10.5279
出知	-10.5281
晉師	-10.5286
少年	-10.5287
夷狄	-10.5289
左丞	-10.5291
忠義	-10.5291
歴位	-10.5297
瑟	-10.53
冏	-10.5307
此言	-10.5308
此其	-10.531
蔚	-10.5311
拯	-10.5312
衮	-10.5314
障	-10.5314
乃出	-10.5315
綵	-10.5315
搆	-10.5315
濵	-10.5318
冀州刺史	-10.532
騐	-10.5321
灰	-10.5323
㘴	-10.5323
賢人	-10.5326
零陵	-10.5328
以身	-10.5339
成侯	-10.5343
和帝	-10.5344
各一人	-10.5347
鄫	-10.5347
益州刺史	-10.5349
藍	-10.5349
平章	-10.5351
春申君	-10.5352
殄	-10.5354
蚤	-10.5357
跋	-10.5358
殁	-10.5361
何所	-10.5363
景帝	-10.5364
執事	-10.5369
甚衆	-10.5371
疾病	-10.5373
縂	-10.5376
太常卿	-10.5377
世隆	-10.5378
貴賤	-10.5382
乃得	-10.5382
仲堪	-10.5385
光祿大夫	-10.5391
著書	-10.5392
乙巳	-10.5396
秦昭王	-10.5396
不疑	-10.5397
羈	-10.5397
存亡	-10.5398
去官	-10.5398
閱	-10.54
南安	-10.5404
僮	-10.5406
渙	-10.5407
爱	-10.5409
討平之	-10.541
境内	-10.5411
熒惑	-10.5413
靈帝	-10.5415
上柱國	-10.5416
太山	-10.5419
功封	-10.542
其能	-10.5427
齊齊	-10.5428
其族	-10.5429
中行	-10.5432
戰國	-10.5436
斬其	-10.5436
僣	-10.5439
天子之	-10.544
白虎	-10.5441
茹	-10.5441
組	-10.5443
自若	-10.5444
耽	-10.5444
禆	-10.5446
當以	-10.545
國除	-10.5452
影	-10.5457
敢不	-10.5458
大呼	-10.5459
無敢	-10.546
矣然	-10.5462
南面	-10.5466
與同	-10.5471
之形	-10.5474
都䕶	-10.5478
穆王	-10.5482
祭祀	-10.5483
功名	-10.5483
汶	-10.5484
卒于	-10.5484
緡	-10.5485
上谷	-10.5486
陳氏	-10.5489
光禄	-10.5489
明公	-10.5501
南方	-10.5502
固請	-10.5505
滿洲語	-10.5508
所獲	-10.551
使其	-10.5517
賜姓	-10.5519
又與	-10.5522
酺	-10.5524
陽城	-10.5525
燧	-10.5529
泓	-10.553
年老	-10.5531
愁	-10.5532
魂	-10.5533
佯	-10.5533
湖廣	-10.5533
纓	-10.5536
不立	-10.5536
未見	-10.5538
為民	-10.5544
其主	-10.5544
三千人	-10.5545
而天下	-10.5546
世紀	-10.5548
冠軍	-10.5551
也原	-10.5553
為秦	-10.5555
章句	-10.5556
悝	-10.5567
事秦	-10.5573
賢良	-10.5576
稚	-10.5576
廻	-10.5578
体	-10.5578
周室	-10.5581
荣	-10.5582
集二十卷	-10.5584
厲王	-10.5588
必死	-10.5589
甚有	-10.5595
苐	-10.5596
不亦	-10.5597
恐其	-10.5597
於前	-10.5598
禮也	-10.56
為天子	-10.5601
畆	-10.5612
馥	-10.5621
捷	-10.5622
逖	-10.5624
悪	-10.5625
建興	-10.5628
不拜	-10.5631
五十里	-10.5631
太元	-10.5634
唐虞	-10.5634
月餘	-10.5646
百户	-10.5647
七百	-10.5654
宣城	-10.5655
通志卷	-10.5659
瑩	-10.566
隘	-10.5662
款	-10.5666
宋人	-10.5666
病卒	-10.5666
壓	-10.5667
以死	-10.5672
鴈門	-10.5672
大司空	-10.5673
君也	-10.5675
爾朱	-10.5678
有四	-10.5685
北征	-10.5688
鄉人	-10.5695
者曰	-10.5696
又何	-10.5697
之職	-10.5699
疫	-10.57
文成	-10.57
與魏	-10.57
為尚書	-10.5702
姻	-10.5704
得一	-10.5705
則無	-10.5705
控	-10.5707
坎	-10.5707
安邑	-10.5709
諾	-10.571
謂之曰	-10.571
上䟽	-10.5711
尭	-10.5716
有聲	-10.5718
八卷	-10.5721
于王	-10.5723
引見	-10.573
吳郡	-10.5735
伐陳	-10.5735
之始	-10.5739
廐	-10.5744
曰不然	-10.5744
奭	-10.5745
之女	-10.5746
詆	-10.575
弑其君	-10.5752
酒泉	-10.5753
赤眉	-10.5754
固守	-10.5755
彩	-10.5756
撫軍	-10.5758
信都	-10.5761
早卒	-10.5761
國王	-10.5763
往來	-10.5766
晉楚	-10.5768
三十里	-10.5769
又使	-10.5771
便宜	-10.5776
詧	-10.578
而亡	-10.5785
下車	-10.5789
卬	-10.5792
鼓吹	-10.5793
槩	-10.5794
蒯	-10.5796
挟	-10.5797
猾	-10.5797
苟	-10.5799
吾君	-10.5806
何足	-10.581
濟隂	-10.5814
禮部尚書	-10.5815
開國	-10.5816
不豫	-10.5819
行也	-10.5821
漳	-10.5826
歇	-10.5827
黄龍	-10.583
秦軍	-10.5833
無異	-10.5834
衆軍	-10.5837
廪	-10.5838
率兵	-10.5839
西戎	-10.5839
聶	-10.5839
二女	-10.5839
廓	-10.584
四夷	-10.5841
壅	-10.5842
怖	-10.5842
扼	-10.5844
志云	-10.5847
下令	-10.585
竒之	-10.5856
欲與	-10.5859
髙麗	-10.5864
為後	-10.5872
頡	-10.5874
位至	-10.5876
刪	-10.5879
成周	-10.588
种	-10.5881
建鄴	-10.5881
哀帝	-10.5884
為庶人	-10.5885
狹	-10.5889
乃復	-10.5889
灾	-10.589
衆皆	-10.5891
七卷	-10.5891
自謂	-10.59
時事	-10.5901
王叔	-10.5902
奔齊	-10.5906
遺詔	-10.5908
皇考	-10.5908
夏人	-10.5916
僧辯	-10.5918
二年春正月	-10.5922
若何	-10.5925
縂兵	-10.5926
撓	-10.5926
且夫	-10.5927
新野	-10.5928
奠	-10.5928
獲其	-10.593
后稷	-10.5931
絡	-10.5931
之盟	-10.5932
禀	-10.5934
民間	-10.5936
元康	-10.5937
周官	-10.5939
收其	-10.594
近臣	-10.5946
趙鞅	-10.5948
小子	-10.5953
及至	-10.5956
烏孫	-10.5956
延夀	-10.5959
武威	-10.5962
鄭人	-10.5965
聚衆	-10.5968
膏	-10.5973
録尚書事	-10.5975
南昌	-10.5978
墟	-10.5979
禽獸	-10.598
法令	-10.5981
暗	-10.5984
陽縣	-10.5985
議郎	-10.5985
襄十	-10.5991
乗輿	-10.5991
山陵	-10.5995
卒年七十	-10.5997
國也	-10.5999
而君	-10.6001
加侍中	-10.6003
之於是	-10.6005
名為	-10.6005
者有	-10.6005
宣徳	-10.6009
嵗餘	-10.6009
迭	-10.6016
公及	-10.6017
樂安	-10.602
偷	-10.6028
㩀	-10.6028
公叔	-10.6028
定州	-10.6031
户部	-10.6036
至尊	-10.6039
請為	-10.6046
共王	-10.6051
稱為	-10.6053
庠	-10.6064
傳云	-10.6064
一也	-10.6068
乃自	-10.6069
璉	-10.607
闢	-10.607
五代	-10.6072
変	-10.6075
死於	-10.6077
第十	-10.6082
禧	-10.6092
有差	-10.6094
二十二	-10.61
新序	-10.6101
媯	-10.6105
卯	-10.611
水旱	-10.6111
財物	-10.6111
當有	-10.6111
魴	-10.6113
騷	-10.6114
經畧	-10.6115
方今	-10.6117
北平	-10.6119
棗	-10.6122
長公主	-10.6126
隋文帝	-10.613
字季	-10.6133
趙盾	-10.6135
扁鵲	-10.6136
白起	-10.6137
詩書	-10.6137
京城	-10.6138
輟	-10.6146
肹	-10.6148
亶	-10.6149
少孤	-10.6151
言事	-10.6151
至南京	-10.6155
愉	-10.6157
滇	-10.6158
托	-10.6159
曰秦	-10.6164
以救	-10.6166
利害	-10.6167
千餘里	-10.6168
是歲	-10.6174
再遷	-10.6175
頃公	-10.6183
不動	-10.6184
之憂	-10.6185
河中	-10.6186
襄二十	-10.6188
加散騎常侍	-10.6189
江都	-10.6194
也昔	-10.6195
第四	-10.6195
洮	-10.6196
建文	-10.6196
趙趙	-10.6197
秃	-10.6198
知人	-10.62
土地	-10.6202
於上	-10.6203
箴	-10.6203
不能用	-10.6205
曰請	-10.6206
朝鮮	-10.6208
告之	-10.621
此書	-10.6211
腐	-10.6213
為我	-10.6214
禮義	-10.6215
數十萬	-10.6221
趙武	-10.6222
太皇太后	-10.6224
而不知	-10.6225
乃召	-10.6237
新安	-10.624
濮陽	-10.624
勉之	-10.624
司𨽻	-10.6243
不進	-10.6246
粥	-10.6252
昨	-10.6254
參知政事	-10.6256
宵	-10.6257
憾	-10.6258
涪	-10.6258
眀年	-10.6261
之書	-10.6261
祇	-10.6262
征討	-10.6264
戢	-10.6265
雒陽	-10.6267
正統	-10.6271
而自	-10.6281
地方	-10.6282
為天下	-10.6283
人者	-10.6285
與人	-10.6287
字公	-10.6288
正徳	-10.6288
登科	-10.6296
不去	-10.6297
七人	-10.6298
稼	-10.6299
黙然	-10.6301
挫	-10.6303
掃	-10.6306
承制	-10.6316
吉凶	-10.6318
合肥	-10.632
必以	-10.632
吏士	-10.6321
少時	-10.6327
少師	-10.6329
而生	-10.633
天水	-10.6335
紳	-10.6344
轍	-10.6347
此則	-10.6348
劳	-10.6348
妬	-10.6348
刋	-10.6348
浸	-10.6348
南征	-10.6348
轡	-10.6351
六卿	-10.6351
屡	-10.6353
䕃	-10.6353
鍾離	-10.6354
初置	-10.6358
度支	-10.6363
都下	-10.6364
説之	-10.6367
鎮撫	-10.6371
秦州	-10.6382
無窮	-10.6383
多矣	-10.6386
𦙍	-10.6386
未聞	-10.6388
閏	-10.6388
繪	-10.6388
昂	-10.6391
祕書監	-10.6394
進軍	-10.6394
張掖	-10.6395
郊祀	-10.6395
三品	-10.6397
儒者	-10.6398
兵至	-10.6401
領兵	-10.6405
衛将軍	-10.6407
掖	-10.6417
上書言	-10.6418
懐王	-10.6419
真定	-10.6428
進曰	-10.6431
未得	-10.6432
所宜	-10.6432
敬王	-10.6436
禕	-10.644
䜛	-10.6447
技	-10.6447
倦	-10.6447
相持	-10.6448
疾篤	-10.645
先後	-10.6454
八人	-10.6461
南康	-10.6462
進兵	-10.6465
不取	-10.6477
臣下	-10.6479
齊楚	-10.648
武平	-10.6482
與齊	-10.6483
臣等	-10.6489
街	-10.649
縉	-10.6493
不答	-10.6494
顓	-10.6494
玄	-10.6497
共工	-10.65
西平	-10.6502
莫若	-10.6505
之說	-10.6505
魯君	-10.6505
安能	-10.6509
三尺	-10.6509
案范	-10.6512
之盛	-10.6513
隷	-10.6517
足矣	-10.6522
與俱	-10.6524
子夏	-10.6527
出塞	-10.6527
季子	-10.6528
拓	-10.653
見於	-10.6531
元景	-10.6531
桓元	-10.6532
瑀	-10.6534
於朝	-10.6536
當今	-10.6536
朞	-10.6538
磬	-10.6538
相傳	-10.6538
樞密使	-10.6539
隄	-10.6539
賚	-10.6542
西周	-10.6544
羆	-10.6548
顔色	-10.6551
嘉其	-10.6553
集二卷	-10.6558
陛	-10.6566
鍼	-10.657
未嘗不	-10.6572
晉文公	-10.6573
員外郎	-10.6579
綴	-10.6584
覬	-10.6586
劵	-10.6587
勾	-10.6588
勒兵	-10.6589
朝服	-10.6589
鱗	-10.6592
擲	-10.6593
齊神武	-10.6593
狥	-10.6594
各一	-10.6596
二曰	-10.6597
不加	-10.66
遇之	-10.6605
淳于	-10.6611
論一卷	-10.6612
或作	-10.6613
武都	-10.6617
建徳	-10.6624
鬱	-10.6624
卿士	-10.6627
丸	-10.663
交通	-10.6631
隰	-10.6632
浪	-10.6632
場	-10.6633
棠	-10.6633
安撫	-10.6638
以明	-10.6639
語曰	-10.6646
侍講	-10.6655
伐秦	-10.6663
教之	-10.6664
朝貢	-10.6664
入秦	-10.6665
白公	-10.6666
世為	-10.6671
二十九	-10.6672
其兄	-10.6672
奏請	-10.6674
與子	-10.6678
號令	-10.6679
為質	-10.668
鷹	-10.6682
吿	-10.6684
蘄	-10.6689
著作郎	-10.669
躡	-10.669
陳蔡	-10.6693
其勢	-10.6696
所作	-10.6698
降者	-10.6702
奔走	-10.6707
萬計	-10.6708
行而	-10.6712
遂殺	-10.6721
歐	-10.6722
河上	-10.6724
越人	-10.6724
蒐	-10.673
蚩尤	-10.6731
驪	-10.6731
椿	-10.6732
亊	-10.6733
炙	-10.6733
貂	-10.6734
神明	-10.6738
狡	-10.6739
西伯	-10.674
為都督	-10.674
徙封	-10.6741
鳥獸	-10.6741
不改	-10.6749
舍之	-10.677
二王	-10.6771
安都	-10.6773
必先	-10.6775
莫之	-10.6776
儋	-10.6778
帝遣	-10.6779
闡	-10.6781
為尚書令	-10.6782
丁卯	-10.6783
忠孝	-10.6784
曰然	-10.6784
二字	-10.6785
矛	-10.6785
訢	-10.6789
柵	-10.6789
治之	-10.6792
歴代	-10.6794
選舉	-10.6797
稽首	-10.6799
軍旅	-10.6807
克之	-10.6809
共公	-10.6812
帝乃	-10.6815
衆心	-10.6819
隸	-10.6822
龍門	-10.6824
攻齊	-10.6826
所親	-10.6826
始興	-10.6829
鄖	-10.6831
稜	-10.6831
攜	-10.6832
為司馬	-10.6832
粹	-10.6835
嶺南	-10.6836
烹	-10.6837
際	-10.684
五百里	-10.6844
忠信	-10.6845
其辭	-10.685
有過	-10.685
律令	-10.6851
之風	-10.6854
生於	-10.6854
所以為	-10.6856
京都	-10.6857
二日	-10.686
記云	-10.6867
不解	-10.6868
一萬	-10.6871
分兵	-10.6872
復舊	-10.6873
秦師	-10.6876
執之	-10.6879
冬至	-10.6882
乃立	-10.6882
伋	-10.6884
伸	-10.6885
它	-10.6885
無可	-10.6889
㱕	-10.689
曰必	-10.6891
燔	-10.6892
官軍	-10.6895
千八百	-10.6899
自立為	-10.6904
其義	-10.6922
禇	-10.6924
馭	-10.6927
爾朱榮	-10.6929
不任	-10.693
有隙	-10.693
蔓	-10.693
建初	-10.6932
盆	-10.6932
嬰齊	-10.6933
棲	-10.6934
總兵	-10.6935
以父	-10.6935
砦	-10.6936
大明	-10.6938
於世	-10.6943
隴右	-10.695
割地	-10.6953
周書	-10.6956
遣子	-10.6965
聘于	-10.6966
應天	-10.6969
康公	-10.6972
知縣	-10.6972
降之	-10.6975
叢	-10.6975
聖王	-10.6976
以奉	-10.698
百六十	-10.6981
辛卯	-10.6982
烝	-10.6982
斫	-10.6983
購	-10.6983
出自	-10.6984
珽	-10.6984
翠	-10.6984
未定	-10.6985
旄	-10.6986
國史	-10.6987
下有	-10.6987
自有傳	-10.6995
漢兵	-10.6998
年三十	-10.7006
麾下	-10.7012
王公	-10.7014
乎曰	-10.7018
之用	-10.7019
詔獄	-10.7024
永初	-10.7026
噲	-10.7026
軍敗	-10.7027
來奔	-10.7029
郵	-10.703
鞍	-10.7031
宋右廸功郎鄭樵漁仲撰	-10.7031
攻楚	-10.7034
粗	-10.7039
鯀	-10.7046
牛羊	-10.7051
議論	-10.7054
蘭陵	-10.7057
參政	-10.7057
其門	-10.7061
興宗	-10.7062
三晉	-10.7063
同心	-10.7066
服其	-10.7066
踐阼	-10.707
威儀	-10.7072
已死	-10.7072
年四十	-10.7077
何謂	-10.708
輜重	-10.7082
嚮	-10.7082
酉	-10.7084
搜	-10.7085
揆	-10.7085
即皇帝位	-10.7085
携	-10.7085
瑱	-10.7086
嘉靖	-10.7087
樵	-10.7089
復置	-10.7107
不變	-10.7115
黃帝	-10.7118
東至	-10.7122
人間	-10.7123
犯法	-10.7123
○	-10.7124
弇	-10.7125
定王	-10.7127
庇	-10.7129
宋衛	-10.7135
頂	-10.7136
島	-10.7136
出公	-10.7138
王曰善	-10.7144
歌曰	-10.7145
反覆	-10.7146
弗許	-10.7148
哀侯	-10.7153
遂入	-10.716
之力	-10.7161
當死	-10.7164
府庫	-10.7166
三世	-10.7171
三皇	-10.7173
弗能	-10.7176
建業	-10.7177
君子之	-10.7177
曰天下	-10.7179
藴	-10.718
軼	-10.7181
故人	-10.7182
野王	-10.7185
其所以	-10.7185
無人	-10.7185
征西	-10.7185
乙卯	-10.7186
衆人	-10.7186
魯國	-10.7187
四子	-10.7193
猶未	-10.7198
不修	-10.7199
歎息	-10.7199
晏子曰	-10.7201
千二百	-10.7208
大笑	-10.7209
景王	-10.7216
有名	-10.7219
鄢	-10.722
自成	-10.7224
指揮使	-10.7227
入海	-10.7228
炎帝	-10.7229
卭	-10.723
七十二	-10.723
柩	-10.7231
敬則	-10.7231
䝉遜	-10.7231
福建	-10.7234
賜錢	-10.7237
昕	-10.7239
纔	-10.7239
平生	-10.724
内附	-10.724
厄	-10.724
黄門郎	-10.7243
乗勝	-10.7245
人無	-10.7246
劉備	-10.7249
數人	-10.725
匹夫	-10.7252
孫氏	-10.7257
其利	-10.7257
而成	-10.7258
人或	-10.7258
嘗為	-10.7258
慶封	-10.7261
必敗	-10.7261
任城	-10.7263
勝之	-10.7269
示之	-10.7277
兀	-10.7279
)□(	-10.728
珣	-10.7281
駢	-10.7281
拾	-10.7282
泛	-10.7283
陽平	-10.7284
巴陵	-10.7285
邠	-10.7287
翳	-10.7288
樞密副使	-10.7289
陘	-10.7289
詘	-10.729
党	-10.7294
籠	-10.7295
猝	-10.7297
引軍	-10.7298
城陽	-10.73
三郡	-10.7305
初封	-10.7305
歩騎	-10.7309
遷都	-10.7313
又詔	-10.7318
三十萬	-10.7319
之象	-10.7319
遼西	-10.7328
許昌	-10.7328
懼而	-10.7329
師曠	-10.7329
於晉	-10.7331
義陽	-10.7331
忻	-10.7332
食其	-10.7333
葵	-10.7333
康子	-10.7333
子良	-10.7336
其可	-10.7336
澗	-10.734
委以	-10.734
甘茂	-10.7341
赫連	-10.7343
酣	-10.7345
閏月	-10.7345
社稷之	-10.7345
慱	-10.7346
實録	-10.7349
濟北	-10.735
勦	-10.735
人君	-10.7351
豈非	-10.7352
中郎将	-10.7352
此人	-10.7354
天祚	-10.7354
戰敗	-10.7356
秦兵	-10.7358
建平	-10.7359
欲使	-10.7361
問於	-10.7361
張氏	-10.7364
甲兵	-10.7364
匄	-10.7366
不能自	-10.7367
因其	-10.7368
五等	-10.7377
伐魯	-10.7379
郯	-10.7381
案范書本傳	-10.7383
力戰	-10.7384
将兵	-10.7385
可不	-10.7386
緑	-10.739
裒	-10.739
梧	-10.739
稱臣	-10.7393
受詔	-10.7393
拊	-10.7394
泊	-10.7394
若之何	-10.7396
吕氏春秋	-10.7396
瞿	-10.7396
柰何	-10.7399
此二	-10.7399
釣	-10.74
蜚	-10.7401
受業	-10.7403
内臣	-10.7406
中道	-10.7413
城守	-10.7423
賦詩	-10.7424
禍福	-10.7424
生而	-10.7426
北至	-10.7429
而使	-10.743
軍至	-10.7431
前代	-10.7436
後以	-10.7436
挽	-10.7437
為司	-10.7441
昭二十	-10.7442
家屬	-10.7444
孟氏	-10.7444
𣣔	-10.7447
怡	-10.7447
然也	-10.7448
李斯	-10.745
囯	-10.7452
赦之	-10.7453
其次	-10.7457
其將	-10.746
通鑑	-10.7463
諡曰文	-10.7464
其計	-10.7465
卒年五十	-10.7465
以正	-10.7466
今年	-10.7466
璽書	-10.7469
成十	-10.747
臨朝	-10.7472
公私	-10.7474
罪人	-10.7481
相率	-10.7491
奉朝請	-10.7491
複	-10.7492
其本	-10.7495
塩	-10.7496
之末	-10.7496
錄尚書事	-10.7498
倪	-10.7498
大司徒	-10.75
堕	-10.75
數萬人	-10.7501
龕	-10.7502
爕	-10.7502
覈	-10.7502
兇	-10.7505
集五卷	-10.7506
卽	-10.7509
殃	-10.751
甚多	-10.7515
車師	-10.7515
王元	-10.7517
順天	-10.7518
朝議	-10.7529
不道	-10.7537
大敗之	-10.7541
衷	-10.7549
槃	-10.7551
扞	-10.7551
禹貢	-10.7551
黥	-10.7551
為帝	-10.7556
稻	-10.7556
黄巾	-10.7566
在前	-10.7566
貴戚	-10.7568
先登	-10.7572
州府	-10.758
臣之所	-10.7583
處之	-10.7584
十五里	-10.7586
遂滅	-10.7586
處士	-10.7588
則可	-10.7588
武陵王	-10.7595
甚矣	-10.7603
窘	-10.7605
復與	-10.7605
祫	-10.7606
蒼梧	-10.7609
伐蜀	-10.761
冤	-10.761
田氏	-10.7618
之徳	-10.7618
勃海	-10.7618
知府	-10.7622
以天下	-10.7631
䏻	-10.7632
之南	-10.7638
穆之	-10.764
莫知	-10.7643
終始	-10.7645
語在	-10.7649
宋公	-10.7649
胙	-10.765
輔國將軍	-10.7657
贄	-10.7658
餓	-10.7661
吾聞	-10.7662
朋黨	-10.7663
豪傑	-10.7664
邃	-10.7665
害之	-10.7667
元和	-10.7668
太子太傅	-10.7672
中書郎	-10.7674
以相	-10.7675
遂至	-10.7675
使臣	-10.7677
子思	-10.7677
復入	-10.7678
地理	-10.7683
所過	-10.7685
于朝	-10.7688
不廢	-10.769
七尺	-10.769
滄	-10.7692
其首	-10.7692
謝曰	-10.7692
此乃	-10.7694
二十三	-10.7699
皂	-10.77
旬日	-10.77
即以	-10.7702
圍之	-10.7705
縣伯	-10.7706
縠	-10.7706
孕	-10.7707
故能	-10.7709
輕騎	-10.7709
死亡	-10.771
想	-10.7712
㝠	-10.7713
屑	-10.7714
遼史	-10.7714
萬騎	-10.7714
声	-10.7715
宓	-10.7716
寐	-10.7718
軒轅	-10.772
為令尹	-10.772
王后	-10.772
頑	-10.772
安之	-10.7725
孔氏	-10.7725
人父	-10.7728
長平	-10.773
徃徃	-10.7732
者乃	-10.7733
邦昌	-10.7743
損益	-10.7749
楊素	-10.775
豈能	-10.7752
童子	-10.7756
永明	-10.7758
羊舌	-10.7764
遍	-10.7765
地而	-10.7766
雎	-10.7769
妨	-10.7769
臣恐	-10.777
乆矣	-10.777
獨孤	-10.7771
以濟	-10.7771
諂	-10.7772
鯉	-10.7773
駮	-10.7773
祕書	-10.7774
卵	-10.7775
吳人	-10.7777
公族	-10.7777
自言	-10.7779
大懼	-10.7781
進號	-10.7789
法一卷	-10.7789
家語	-10.779
無私	-10.7792
本朝	-10.7793
徙居	-10.7795
就國	-10.7797
一家	-10.78
一等	-10.7802
靈太后	-10.7802
山谷	-10.7802
不避	-10.7804
髙平	-10.7804
以私	-10.7807
屬國	-10.781
之理	-10.7811
擊破之	-10.7813
諮議參軍	-10.7817
國無	-10.7817
販	-10.7817
監察御史	-10.7818
淚	-10.7819
呵	-10.7819
尔	-10.7823
京兆尹	-10.7825
録一卷	-10.7829
項羽	-10.783
䆒	-10.7832
自以為	-10.7833
異姓	-10.7833
于周	-10.7835
相攻	-10.7835
之前	-10.7838
元孫	-10.7839
陕西	-10.784
墨子	-10.7841
萬民	-10.7843
曾孫	-10.7845
大者	-10.7846
是其	-10.7847
太子太保	-10.7849
将士	-10.7862
参軍	-10.7865
千戸	-10.7867
竺	-10.787
堤	-10.7874
百家	-10.7875
勃勃	-10.7876
不仕	-10.7876
譛	-10.7876
有事	-10.7878
汎	-10.7879
夫婦	-10.7882
獻帝	-10.7886
罷之	-10.789
衛侯	-10.789
戎狄	-10.7896
而走	-10.7903
不滿	-10.7905
母曰	-10.7905
大夏	-10.7909
明改	-10.791
王儉	-10.7914
山南	-10.7916
慶父	-10.7921
礼部	-10.7922
昵	-10.7923
璠	-10.7926
轂	-10.7926
廆	-10.7928
周人	-10.793
別	-10.7933
而况	-10.7933
定陶	-10.7934
懇	-10.7934
餙	-10.7934
欲得	-10.7935
以義	-10.7936
交州	-10.7937
雌	-10.7939
爛	-10.794
昭十	-10.794
杜預	-10.7943
悛	-10.7944
瘞	-10.7944
上有	-10.7949
百二十	-10.7951
方正	-10.7953
班師	-10.7957
封侯	-10.7967
死子	-10.797
詹事	-10.7971
梁州	-10.7971
禮儀	-10.7972
梁州刺史	-10.7973
姚興	-10.7976
仲子	-10.7977
臨江	-10.7979
獠	-10.7983
著作	-10.7987
於諸侯	-10.7988
猜	-10.7988
小兒	-10.7989
妓	-10.799
中官	-10.7991
率騎	-10.7993
宣撫	-10.7997
三年春正月	-10.7999
注云	-10.8002
必無	-10.8005
此非	-10.8011
三十餘	-10.8016
亡命	-10.8017
齊之	-10.8017
秦人	-10.8019
伐晉	-10.8021
前鋒	-10.8022
所聞	-10.8026
不稱	-10.8029
長城	-10.8033
每有	-10.8033
楯	-10.8034
書奏	-10.8035
推官	-10.8036
少好學	-10.8036
潮	-10.8037
非有	-10.8037
孰與	-10.8038
而起	-10.8038
緝	-10.8041
夣	-10.8041
日食	-10.8042
脉	-10.8042
峯	-10.8042
此皆	-10.8043
奨	-10.8046
二十人	-10.8049
兎	-10.805
凢	-10.805
電	-10.8053
水陸	-10.8059
召入	-10.8062
二國	-10.8073
斟	-10.808
油	-10.8087
曰願	-10.8087
聰明	-10.809
錮	-10.8092
諫議大夫	-10.8093
棄市	-10.8093
奉命	-10.8094
公事	-10.8095
皎	-10.8096
國子祭酒	-10.8098
是何	-10.8098
西魏	-10.8099
猥	-10.81
毛詩	-10.81
覊	-10.8101
慝	-10.8101
凍	-10.8101
而未	-10.8103
者衆	-10.8104
字景	-10.8105
義宣	-10.8107
諛	-10.8108
牡	-10.8111
除名	-10.8115
你	-10.8116
攸之	-10.8117
威名	-10.8124
箕子	-10.8133
如魯	-10.8136
奏曰	-10.8138
奪之	-10.8141
與戰	-10.8141
君命	-10.8144
金石	-10.8146
曰先生	-10.8148
逺矣	-10.8149
班固	-10.815
貎	-10.8152
撥	-10.8155
故有	-10.8155
丐	-10.8156
埽	-10.8158
逝	-10.8158
海上	-10.816
喟然	-10.816
以罪	-10.816
寂	-10.8162
人民	-10.8168
闔	-10.8169
此時	-10.8173
入闗	-10.8176
范氏	-10.8176
元旧	-10.818
也願	-10.8185
杭州	-10.8189
右將軍	-10.819
徴為	-10.819
顧謂	-10.8196
薳	-10.8196
官爵	-10.8197
臨海	-10.8197
復有	-10.8198
為前鋒	-10.8203
荼	-10.8205
舟師	-10.8206
䴡	-10.8208
尚史卷	-10.8208
一月	-10.8208
死後	-10.821
癸卯	-10.821
利用	-10.821
蔡邕	-10.8213
於民	-10.8213
頠	-10.8215
璜	-10.8216
侯子	-10.8218
十有二	-10.8222
劉表	-10.8223
無常	-10.8225
廕	-10.8226
賞罰	-10.8226
救鄭	-10.8227
授之	-10.823
表請	-10.823
三曰	-10.8234
五里	-10.8235
豈得	-10.8235
百七十	-10.8238
師敗績	-10.824
乃歸	-10.8242
孫子	-10.8251
婦女	-10.8253
安樂	-10.8256
奏之	-10.8259
懿公	-10.8261
謝罪	-10.8264
戒之	-10.8265
堰	-10.8265
迥	-10.8267
太上	-10.8268
和親	-10.8268
君何	-10.8269
所由	-10.8273
梗	-10.8274
紿	-10.8274
之美	-10.8275
國號	-10.8275
有人	-10.8278
宋史	-10.8279
按金史	-10.8281
先人	-10.8281
呼為	-10.8282
不順	-10.8285
識者	-10.8289
則民	-10.8292
案此	-10.8294
無知	-10.8295
成敗	-10.8296
虞卿	-10.8296
也及	-10.8301
提舉	-10.8301
何得	-10.8301
四面	-10.8306
四萬	-10.8308
哭之	-10.8311
三川	-10.8313
故得	-10.8313
閣臣	-10.8318
吾欲	-10.8326
邜	-10.8328
韓非子	-10.8329
不救	-10.833
蒸	-10.833
明經	-10.8331
梁武	-10.8334
厮	-10.8336
欽宗	-10.8338
帝嚳	-10.8339
四川	-10.834
魏氏	-10.834
舉秀才	-10.834
若夫	-10.8341
威將軍	-10.8341
三州	-10.8344
公室	-10.8345
漢陽	-10.835
美人	-10.8351
太史公	-10.8356
終於	-10.8356
來降	-10.8359
三嵗	-10.8362
所致	-10.8363
年二十	-10.8367
公公	-10.8369
悌	-10.8373
昭侯	-10.8373
㑹諸侯之大夫	-10.8374
惠帝	-10.8376
明主	-10.8378
更名	-10.8379
致之	-10.8384
璟	-10.8384
玠	-10.8388
祖父	-10.8389
矣若	-10.8391
劉毅	-10.8392
蟬	-10.8394
淮南王	-10.8396
不測	-10.8397
不仁	-10.8398
章獻	-10.8403
人之所	-10.8404
末年	-10.8405
瀛	-10.8406
平侯	-10.8407
縣子	-10.8409
歴陽	-10.8411
世充	-10.8411
蜀人	-10.8411
諌曰	-10.8422
疑其	-10.8422
不自安	-10.8423
上郡	-10.8424
有變	-10.8425
㑹諸侯	-10.8427
身死	-10.8428
黎陽	-10.8428
攻趙	-10.8434
絶其	-10.8435
巴蜀	-10.8436
寮	-10.8437
焚之	-10.844
傉檀	-10.8442
玊	-10.8442
為刺史	-10.8443
篡	-10.8443
袖	-10.8443
龜兹	-10.8443
猗	-10.8444
刄	-10.8444
銖	-10.8444
楨	-10.8446
荆軻	-10.8446
汰	-10.8447
冗	-10.845
未盡	-10.8452
轉運	-10.8452
命也	-10.8454
公車	-10.8456
十數	-10.846
不意	-10.8461
萬國	-10.8462
奉迎	-10.8462
廣州刺史	-10.8463
大雨	-10.8464
司馬懿	-10.847
曰今日	-10.847
又謂	-10.8472
如齊	-10.8475
貢獻	-10.8478
言語	-10.8478
海陵	-10.8479
使君	-10.8479
遣使朝貢	-10.8483
六軍	-10.8484
有徳	-10.8484
上流	-10.8485
駁	-10.8495
史官	-10.8497
後人	-10.8497
紘	-10.8498
時政	-10.8501
尚之	-10.8501
鷄	-10.8502
中書舎人	-10.8503
化為	-10.8504
甲戌	-10.8505
芬	-10.8505
祜	-10.8506
簡王	-10.8508
委任	-10.8508
復遣	-10.8516
諸縣	-10.8517
親征	-10.8522
至京師	-10.8539
千六百	-10.8542
平陵	-10.8542
所滅	-10.8547
四千	-10.8547
穰	-10.855
獻文	-10.8551
盎	-10.8551
良久	-10.8555
還京師	-10.8557
又作	-10.8557
瘠	-10.856
蹕	-10.8561
慘	-10.8563
䛇	-10.8565
单	-10.8567
驂	-10.8568
剪	-10.8569
趙魏	-10.8572
吕覽	-10.8574
容貌	-10.8577
還都	-10.8578
稱疾不	-10.8578
征北	-10.8582
將有	-10.8585
以為不可	-10.8588
悉以	-10.859
工部	-10.8595
如其	-10.8595
年十五	-10.8598
同時	-10.8611
領縣	-10.8613
攀	-10.8613
縶	-10.8613
以待之	-10.8615
亰	-10.8616
漠	-10.8617
三十一年	-10.8617
蓼	-10.8617
踰年	-10.8617
賢而	-10.8619
初立	-10.8619
團	-10.862
豫章王	-10.8622
訐	-10.8622
文書	-10.8625
棄疾	-10.8627
燎	-10.8627
山林	-10.8631
三百人	-10.8634
元顯	-10.8634
入關	-10.8635
黄鐘	-10.8638
諸部	-10.8639
甘泉	-10.8639
傳曰	-10.864
又問	-10.8642
愛其	-10.8644
廢立	-10.8644
留之	-10.8647
五官	-10.8648
智者	-10.8649
于天下	-10.865
萬年	-10.865
者悉	-10.8653
東夷	-10.8658
僖二十	-10.8661
置之	-10.8665
此之謂	-10.8666
以東	-10.8671
國子博士	-10.8674
田宅	-10.8675
嫂	-10.8677
太清	-10.8678
懦	-10.8678
義興	-10.8679
執中	-10.868
梁武帝	-10.8681
水軍	-10.8682
研	-10.8682
需	-10.8682
不暇	-10.8683
卒於家	-10.8683
纎	-10.8685
魏魏	-10.8687
後復	-10.8687
許諾	-10.869
築城	-10.8691
器械	-10.8692
為太傅	-10.8694
数十	-10.8708
十餘日	-10.871
伯父	-10.8715
難以	-10.8722
士誠	-10.8724
求救	-10.8727
執法	-10.8728
牋	-10.8735
群臣	-10.8736
縣男	-10.8738
伴	-10.874
虵	-10.8742
幽州刺史	-10.8742
羮	-10.8743
乞骸骨	-10.8743
討賊	-10.8746
摇	-10.8747
所見	-10.875
年五十	-10.8751
數嵗	-10.8752
孫叔敖	-10.8753
弓矢	-10.8753
行者	-10.8754
下士	-10.8755
作樂	-10.8755
西至	-10.876
堅守	-10.876
五世	-10.8769
伏兵	-10.8769
侍臣	-10.8772
二十里	-10.8776
封為	-10.8776
上卿	-10.878
罷兵	-10.8781
侵我	-10.8783
儒學	-10.8784
萬機	-10.8784
二三	-10.8787
孝友	-10.879
牛酒	-10.879
涖	-10.8794
韓詩	-10.8794
給事黄門侍郎	-10.8795
拳	-10.8796
庚戌	-10.8797
縑	-10.8797
惰	-10.8797
復何	-10.8799
祧	-10.88
甌	-10.88
蘆	-10.8802
羔	-10.8804
牘	-10.8804
十三卷	-10.8804
愬	-10.8805
武城	-10.8805
靳	-10.8806
蔡侯	-10.8807
於周	-10.8807
請降	-10.8809
肝	-10.8814
言官	-10.8817
坦之	-10.8817
五六	-10.8819
永和	-10.882
欽若	-10.8823
襲封	-10.8824
三十二	-10.8828
之詩	-10.8831
至孝	-10.8831
遣將	-10.8838
軍民	-10.884
當是時	-10.8841
皇天	-10.8845
亦作	-10.8846
婼	-10.8852
竝	-10.8853
其城	-10.8853
莘	-10.8853
麤	-10.8855
欲為	-10.8855
更相	-10.886
淡	-10.886
膚	-10.8861
駙馬都尉	-10.8863
股肱	-10.8863
莫有	-10.8865
書記	-10.8865
皝	-10.8865
摶	-10.8866
沆	-10.887
舉孝亷	-10.8871
加以	-10.8873
如楚	-10.8874
上天	-10.8874
祝融	-10.8875
諭之	-10.888
烏珠	-10.8881
三十三年	-10.8883
都指揮使	-10.8883
五百人	-10.8883
謂人曰	-10.8889
成化	-10.889
可用	-10.8893
無後	-10.8896
小字	-10.8897
謚文	-10.89
然之	-10.89
髙宗	-10.8903
縣官	-10.8907
前將軍	-10.8908
殽	-10.8914
湟	-10.8915
黼	-10.8917
樞宻	-10.8917
奔晉	-10.892
戀	-10.8921
慚	-10.8921
𥙿	-10.8923
餌	-10.8924
𢡟	-10.8925
於人	-10.8925
一嵗	-10.8929
問于	-10.8932
城西	-10.8932
安世	-10.8933
俶	-10.8933
終身不	-10.894
其位	-10.8941
中二千石	-10.8942
友諒	-10.8948
亦如之	-10.8951
都官	-10.8953
而食	-10.8957
無遺	-10.896
齊魯	-10.8963
應侯	-10.8964
非禮	-10.8971
秦楚	-10.8972
所重	-10.8974
不法	-10.8974
杼	-10.8977
經術	-10.8978
阪	-10.8979
惶	-10.8979
丙戌	-10.898
曩	-10.8983
厠	-10.8985
進攻	-10.8987
跨	-10.8989
百寮	-10.899
廬陵	-10.8994
曹公	-10.8994
皆在	-10.8999
于天	-10.9
戰勝	-10.9001
趙簡子	-10.9001
内閣	-10.9006
甚盛	-10.9007
仲孫	-10.9009
必欲	-10.9009
之母	-10.901
在朝	-10.9012
無故	-10.9013
吳起	-10.902
延之	-10.9023
以實	-10.9023
之戰	-10.9023
不知也	-10.9024
以次	-10.9026
軻	-10.9029
未發	-10.9032
話	-10.9037
糓	-10.9039
其議	-10.9042
中領軍	-10.9043
捍	-10.9044
太平興國	-10.9044
傭	-10.9044
吐蕃	-10.9044
以和	-10.9046
郈	-10.9046
上皇	-10.9047
胸	-10.9048
卒諡曰	-10.9048
昜	-10.9049
湘東王	-10.9049
故地	-10.905
工部尚書	-10.9052
二縣	-10.9052
中山王	-10.9053
第六	-10.9057
城北	-10.9057
保定	-10.9058
孝昭	-10.9064
臨川	-10.9064
繼之	-10.9064
則是	-10.9069
居正	-10.907
尚書右丞	-10.9071
至徳	-10.9073
所稱	-10.9073
稱善	-10.9074
撃之	-10.9076
于外	-10.9077
師道	-10.9078
山崩	-10.9078
避之	-10.9082
悔之	-10.9084
魯公	-10.9085
者莫不	-10.9086
時論	-10.9087
過人	-10.9088
貴州	-10.909
在郡	-10.9091
脈	-10.9093
蒍	-10.9093
王安石	-10.9093
文育	-10.9094
於時	-10.9095
黯	-10.9095
城外	-10.9096
元感	-10.9099
鞮	-10.91
以獻	-10.9102
矣故	-10.9103
未之	-10.9105
查	-10.9111
懈	-10.9112
燾	-10.9112
嫗	-10.9112
妻之	-10.9112
如初	-10.9113
籓	-10.9116
於道	-10.9121
彗	-10.9131
儀注	-10.9132
鴻臚	-10.9133
者以為	-10.9137
員外	-10.914
泣曰	-10.9144
六十四	-10.9147
九卷	-10.9147
主父	-10.9149
黄初	-10.9154
國君	-10.9157
渝	-10.9161
鴟	-10.9167
戰死	-10.9169
漫	-10.917
罸	-10.9171
曰然則	-10.9173
嗇	-10.9173
如此則	-10.9178
郡人	-10.918
綱紀	-10.9181
仲父	-10.9181
衞尉	-10.9182
予之	-10.9185
北京	-10.9187
姓苑	-10.9187
望風	-10.9189
為御史	-10.919
出師	-10.9191
金史	-10.9191
秦使	-10.9192
王妃	-10.9198
祖母	-10.9203
世世	-10.9203
司農	-10.9204
曰爾	-10.9208
上意	-10.9209
頽	-10.9211
陕	-10.9214
韓王	-10.9218
佐之	-10.9218
兵革	-10.9219
大王之	-10.9219
之罪也	-10.9219
襄城	-10.922
大名	-10.9222
帝親	-10.9222
鼠	-10.9223
少而	-10.9224
諸侯王	-10.9225
王道	-10.9225
不倦	-10.9226
所執	-10.9226
赴之	-10.9227
崧	-10.9228
掖庭	-10.923
臨淄	-10.9231
一篇	-10.9232
礪	-10.9234
雲陽	-10.9234
林父	-10.9236
南直	-10.9237
腸	-10.9238
沸	-10.9238
征西將軍	-10.9239
自有	-10.924
滂	-10.9241
漂	-10.9241
卿大夫	-10.9243
北門	-10.9244
之服	-10.9247
平定	-10.9248
國政	-10.9251
武功	-10.9254
入洛	-10.9256
至則	-10.9257
令狐	-10.9259
五千人	-10.926
見害	-10.926
至自	-10.9269
有識	-10.9271
與韓	-10.9273
所愛	-10.9276
先鋒	-10.9277
奔于	-10.9278
晉陵	-10.9278
北宫	-10.9278
乗馬	-10.9282
月令	-10.9286
管仲曰	-10.929
旻	-10.9292
其職	-10.9292
不願	-10.9293
四十餘	-10.9294
酒酣	-10.9295
耳今	-10.9295
諜	-10.9295
鎧	-10.9296
覃	-10.9296
勰	-10.9296
闈	-10.9297
欲殺之	-10.9298
國用	-10.9298
打	-10.9298
看	-10.9299
又令	-10.93
誰能	-10.93
道子	-10.9302
康叔	-10.9305
殿前	-10.9306
千七百	-10.9311
桀紂	-10.9312
焚其	-10.9316
袁術	-10.9318
其行	-10.9324
之門	-10.9326
之語	-10.9328
勇士	-10.9328
百金	-10.9332
大舉	-10.9341
遁去	-10.9342
晉大夫	-10.9343
景仁	-10.9347
治天下	-10.9348
暐	-10.9348
倉卒	-10.935
昌邑	-10.9351
所用	-10.9351
以供	-10.9352
驤	-10.9352
金紫光禄大夫	-10.9353
以討	-10.9353
散騎侍郎	-10.9356
安危	-10.9356
有竒	-10.9358
詔令	-10.9359
㤙	-10.9359
机	-10.936
覘	-10.936
渴	-10.9361
脂	-10.9362
仲文	-10.9362
出戰	-10.9363
秦必	-10.9365
數千里	-10.9365
秦州刺史	-10.9368
何敢	-10.937
魄	-10.9371
王琳	-10.9372
夙夜	-10.9373
全忠	-10.9374
漢之	-10.938
老人	-10.9381
之恩	-10.9382
謚忠	-10.9384
東觀	-10.9384
韓信	-10.9387
燕燕	-10.9389
名士	-10.9394
憐之	-10.9396
何罪	-10.9398
為郎	-10.9405
下大夫	-10.9409
繼遷	-10.9411
其謀	-10.9412
粉	-10.9413
觀察	-10.9415
四州	-10.9415
緜	-10.9416
尚有	-10.942
肱	-10.9422
騎射	-10.9423
騭	-10.9425
禮部侍郎	-10.9426
璩	-10.9426
註	-10.9428
而好	-10.9429
鉄	-10.9429
淮北	-10.9429
志在	-10.9434
仆	-10.9434
往往	-10.9435
稱王	-10.9437
縣有	-10.944
魏武	-10.9443
夀陽	-10.9444
公侯	-10.9446
一子	-10.9448
悼王	-10.9449
偏將軍	-10.9452
河水	-10.9463
憲宗	-10.9464
遜位	-10.9468
相望	-10.9469
爾雅	-10.9473
成臯	-10.9473
左遷	-10.9476
郕	-10.9478
臼	-10.948
呈	-10.9482
颺	-10.9484
趙髙	-10.9486
上聞	-10.9488
田單	-10.9488
藪	-10.9488
裝	-10.9488
攻秦	-10.9493
一千	-10.9493
杯	-10.9495
獻王	-10.9498
庾亮	-10.9502
七十餘	-10.9502
願得	-10.9503
非是	-10.9504
賊帥	-10.9504
太一	-10.9505
内有	-10.9507
其徳	-10.9508
亡國	-10.9509
敗於	-10.9509
帝幸	-10.9511
前軍	-10.9515
廵按	-10.9515
安陸	-10.9519
矣且	-10.952
相去	-10.952
國寳	-10.9526
争之	-10.9527
復見	-10.9527
不孝	-10.9533
不待	-10.9538
以軍功	-10.9541
紗	-10.9542
五品	-10.9542
牢之	-10.9545
菑	-10.9548
忱	-10.9548
衘	-10.9549
鮪	-10.955
諍	-10.9553
舛	-10.9554
封爵	-10.9554
虎牢	-10.9555
濕	-10.9558
聰敏	-10.9559
咸平	-10.9564
破賊	-10.9566
徵為	-10.9569
主者	-10.9572
水火	-10.9574
大夫種	-10.9574
并州刺史	-10.9576
諫官	-10.9579
二郡	-10.9579
魏郡	-10.9581
納言	-10.9586
有常	-10.9586
之失	-10.9588
巴西	-10.9588
華元	-10.9589
所能	-10.9591
吾將	-10.9595
坐事	-10.9595
依舊	-10.9595
秦漢	-10.9598
陰陽	-10.9598
鮒	-10.96
他人	-10.9602
鴈	-10.9603
廷臣	-10.9606
東平王	-10.9607
此所謂	-10.9608
善射	-10.9608
窟	-10.9609
撻	-10.9613
王翦	-10.9614
大赦改元	-10.9614
万	-10.9615
在後	-10.9615
晳	-10.9617
征之	-10.9618
曰善哉	-10.9618
百疋	-10.9619
莖	-10.962
椎	-10.962
進賢	-10.9621
遙	-10.9621
才學	-10.9622
躁	-10.9622
艱難	-10.9629
功徳	-10.9629
小白	-10.9635
道徳	-10.9636
鄭氏	-10.9638
盡忠	-10.9641
所破	-10.9641
其聲	-10.9648
曽子	-10.9651
劉向	-10.9652
其妻子	-10.9652
君若	-10.9652
魏文侯	-10.9658
藏之	-10.9659
稱疾	-10.9659
於内	-10.9661
前驅	-10.9662
天保	-10.9665
昭儀	-10.9665
病死	-10.9668
郡中	-10.967
寳夤	-10.9671
為人臣	-10.9672
娥	-10.9677
詩一卷	-10.9678
死矣	-10.9678
涓	-10.9679
封建	-10.9681
餞	-10.9683
頥	-10.9683
骸	-10.9683
周旋	-10.9684
雩	-10.9684
拙	-10.9684
畤	-10.9685
鴆	-10.9686
之西	-10.9687
鹽鐵	-10.9687
甚得	-10.9687
摘	-10.9688
惻	-10.9688
尊號	-10.9689
千匹	-10.9691
議曰	-10.9692
殤	-10.9693
與弟	-10.9704
萬一	-10.971
如其言	-10.9716
之北	-10.9717
于民	-10.9722
地志	-10.9725
桓王	-10.9731
以書	-10.9735
待詔	-10.9736
無過	-10.974
集一卷	-10.9743
旃	-10.9743
蚡	-10.9744
何能	-10.9746
塹	-10.9747
洙	-10.9747
執金吾	-10.9748
趾	-10.9749
擔	-10.9749
脯	-10.9749
戊戌	-10.975
徤	-10.9751
蹙	-10.9751
醫藥	-10.9759
犀首	-10.976
安陵	-10.9761
車服	-10.9764
未敢	-10.9765
自後	-10.9765
固讓	-10.9765
上怒	-10.9771
千秋	-10.9771
奉表	-10.9773
北郊	-10.9774
中使	-10.9777
士庶	-10.9778
可知也	-10.9779
獲免	-10.978
孝亷	-10.9781
夏口	-10.9782
凡所	-10.9786
十一卷	-10.9786
有神	-10.9787
府長史	-10.979
鎮東	-10.9794
中牟	-10.9794
之餘	-10.9795
及即位	-10.9796
追至	-10.9798
不害	-10.98
不韋	-10.9805
朝歌	-10.9806
論功	-10.9806
錡	-10.9807
去職	-10.9811
之氣	-10.9814
臨終	-10.9815
裹	-10.9816
批	-10.9817
幅	-10.9817
盡力	-10.9819
門生	-10.9822
穰侯	-10.9825
以徇	-10.9825
囿	-10.9826
銷	-10.9826
不求	-10.983
帳下	-10.9834
處分	-10.9836
守令	-10.9836
棄官	-10.9841
所向	-10.9841
涿郡	-10.9841
字彦	-10.9846
右軍	-10.9847
九品	-10.9851
曰天子	-10.9853
并力	-10.9854
羣下	-10.9854
謝安	-10.9857
原書	-10.9857
流血	-10.9858
之費	-10.9862
兼侍中	-10.9872
而作	-10.9873
承宗	-10.9874
皆如	-10.9878
貟	-10.9878
壯士	-10.988
繆公	-10.9881
獲罪	-10.9881
蠱	-10.9883
坑	-10.9883
筵	-10.9884
馴	-10.9884
宸	-10.9886
年十三	-10.9889
服闋	-10.9892
義渠	-10.9894
蠧	-10.9896
曰夫子	-10.9901
城東	-10.9902
此事	-10.9904
西征	-10.9905
曾祖	-10.9909
至於此	-10.991
千三百	-10.9912
之弊	-10.9914
正始	-10.9915
少康	-10.9915
又改	-10.9924
不附	-10.9931
乎夫	-10.9933
後至	-10.9935
袴	-10.9944
饌	-10.9948
殂	-10.9948
之要	-10.9949
宗人	-10.9949
犒	-10.9949
鞫	-10.995
隧	-10.9951
東周	-10.9952
𬋩	-10.9954
八十一	-10.9954
淪	-10.9954
函谷	-10.9956
里克	-10.9956
洎	-10.9957
樸	-10.9958
姑臧	-10.9959
又按	-10.9959
慟哭	-10.996
夸	-10.9961
任之	-10.9964
濓	-10.9966
字君	-10.9968
西山	-10.9969
千餘級	-10.997
合諸侯	-10.9974
天竺	-10.9975
選侍	-10.9979
士馬	-10.9983
櫟	-10.9984
比干	-10.9984
傳一卷	-10.9984
城陷	-10.9993
三百里	-10.9997
征虜	-10.9998
六合	-10.9999
衛人	-11
五寸	-11.0001
遂有	-11.0001
罃	-11.0004
一軍	-11.0004
煌	-11.0007
轄	-11.0011
蕭何	-11.0011
衙	-11.0016
廂	-11.0018
白帝	-11.0018
牖	-11.002
四十里	-11.002
軀	-11.0021
己卯	-11.0022
桞	-11.0022
核	-11.0023
千乗	-11.0024
以本官	-11.0024
踞	-11.0024
萬嵗	-11.0026
北師	-11.0026
巒	-11.0031
水中	-11.0035
義士	-11.0037
四曰	-11.0042
與兄	-11.005
擢為	-11.0052
興兵	-11.0055
天啓	-11.0057
其情	-11.007
入侍	-11.0071
素服	-11.0074
十四卷	-11.0076
慤	-11.0082
郄	-11.0083
參将	-11.0083
岷	-11.0084
詛	-11.0084
衡陽	-11.0085
碧	-11.0085
滁	-11.0086
有頃	-11.0086
驁	-11.0087
燈	-11.0088
株	-11.0088
名山	-11.0089
乞師	-11.0089
仲淹	-11.009
后土	-11.0091
伐魏	-11.0092
山澤	-11.0094
霖	-11.0097
老母	-11.0098
鄢陵	-11.0098
太宰嚭	-11.0102
親信	-11.0106
京邑	-11.0107
死生	-11.0108
宗伯	-11.0113
擊破	-11.0115
霍光	-11.0116
黄鍾	-11.0117
領軍將軍	-11.0117
商人	-11.0119
牧守	-11.0122
令丞	-11.0127
胎	-11.014
先朝	-11.0144
願大王	-11.0146
惡其	-11.0148
廣東	-11.0149
朔日有蝕之	-11.015
老弱	-11.0152
即墨	-11.0153
袒	-11.0155
恵公	-11.0156
考功	-11.0156
列子	-11.0156
東海王越	-11.0157
髯	-11.0157
肅然	-11.0158
澆	-11.0159
麓	-11.0159
婉	-11.0159
憂之	-11.016
劣	-11.016
退保	-11.0161
貯	-11.0162
秦伯	-11.0163
太官	-11.0164
搗	-11.0165
于諸侯	-11.0168
不中	-11.0179
書傳	-11.0183
極言	-11.0186
失色	-11.0196
蜀郡	-11.0196
撫之	-11.0196
家居	-11.0198
徳宗	-11.0199
義兵	-11.0202
議欲	-11.0203
六百	-11.021
委之	-11.0217
七十里	-11.0217
哀十	-11.0218
千載	-11.0218
瑄	-11.0219
航	-11.022
驪姬	-11.022
斬獲	-11.0221
剽	-11.0222
敵國	-11.0223
之音	-11.0223
泌	-11.0224
而忘	-11.0225
䟦	-11.0228
榻	-11.0228
乾歸	-11.0229
庖	-11.023
紐	-11.0231
將相	-11.0231
不終	-11.0232
故吏	-11.0236
避難	-11.0236
中宗	-11.0241
刑部尚書	-11.0242
累擢	-11.0247
二十六	-11.0257
四國	-11.026
敢言	-11.0265
詳見	-11.0266
羣臣皆	-11.0269
天寳	-11.0273
七千	-11.0277
帝王之	-11.0284
匕	-11.0287
兠	-11.0289
未易	-11.029
不和	-11.029
誄	-11.0291
登進士第	-11.0292
諸侯之師	-11.0294
殞	-11.0295
藺	-11.0297
車騎将軍	-11.0297
三寸	-11.0298
抽	-11.0299
州大中正	-11.0301
公曰善	-11.0303
瑯琊	-11.0304
縮	-11.0306
者所以	-11.0307
旦夕	-11.031
軍師	-11.0314
其俗	-11.0316
亷頗	-11.0317
無宇	-11.0321
明徳	-11.0322
義熙	-11.0323
屯兵	-11.0324
青龍	-11.0328
守仁	-11.0334
此亦	-11.0336
治亂	-11.0339
為左右	-11.0341
者甚衆	-11.0344
髙辛	-11.0345
盛徳	-11.0347
搃	-11.0349
二十餘年	-11.035
景宗	-11.0355
而已矣	-11.0355
小吏	-11.0359
纘	-11.0359
門户	-11.0359
之路	-11.036
甘露	-11.036
大興	-11.0361
閬	-11.0362
懽	-11.0362
劾奏	-11.0362
蝕	-11.0363
婚姻	-11.0364
南陽太守	-11.0365
抜	-11.0366
壬戌	-11.0366
累世	-11.0368
啼	-11.0368
吝	-11.0369
降于	-11.037
企	-11.0372
昭子	-11.0372
伍子胥	-11.0373
小臣	-11.0374
不得入	-11.0377
臣聞之	-11.0379
燕京	-11.0381
嘗謂	-11.0381
高麗	-11.0382
青陽	-11.0384
靈運	-11.0389
國䇿	-11.0401
諸路	-11.0402
叅	-11.0412
旂	-11.0417
矯詔	-11.0419
至長安	-11.042
怪之	-11.0425
以病	-11.0427
不守	-11.0428
鬲	-11.0429
武后	-11.0431
浴	-11.0434
人倫	-11.0435
豁	-11.0436
鎮守	-11.0437
廙	-11.0437
闔閭	-11.0438
筭	-11.0438
謂左右曰	-11.0439
祏	-11.0441
慨然	-11.0443
棄其	-11.0443
趙郡	-11.0447
新亭	-11.0452
彗星見	-11.0454
鄭鄭	-11.0455
魏帝	-11.0456
非吾	-11.0459
加都督	-11.0461
文徳	-11.0464
吕氏	-11.0464
甲戍	-11.0468
太上皇	-11.047
親屬	-11.0471
内官	-11.0473
二三子	-11.0476
燕山	-11.0478
軍吏	-11.0479
晉君	-11.048
為賊所	-11.0486
百日	-11.0487
貧賤	-11.0492
後除	-11.0493
商君	-11.0495
鄰國	-11.0498
治國	-11.0498
雖欲	-11.0499
盂	-11.05
幡	-11.0503
洪武中	-11.0503
添	-11.0507
贈侍中	-11.0507
綦	-11.0508
魏晉	-11.0508
懾	-11.0508
不軌	-11.0509
映	-11.0512
疵	-11.0512
得臣	-11.0512
譎	-11.0514
恐懼	-11.0516
東征	-11.0517
范中行	-11.0518
箇	-11.0521
大駕	-11.0521
四十八	-11.0522
國初	-11.0522
不能得	-11.0523
以避	-11.053
七里	-11.0531
寢疾	-11.0535
博陵	-11.0535
夷簡	-11.0545
劉曜	-11.0552
東山	-11.0558
餘衆	-11.0558
不逮	-11.056
三族	-11.0565
可以為	-11.0565
乎且	-11.0566
因謂	-11.0568
逃歸	-11.057
大如	-11.0576
不虞	-11.0577
於市	-11.0577
塢	-11.0577
五嵗	-11.0578
邴	-11.058
憙	-11.058
西陵	-11.0581
子女	-11.0581
炭	-11.0582
努	-11.0582
呌	-11.0585
同日	-11.0589
陶侃	-11.059
既立	-11.0593
攻圍	-11.0593
不覺	-11.0595
職事	-11.0596
諮議	-11.0596
萬石	-11.0599
可得而	-11.0602
女直	-11.0605
伐趙	-11.0608
儉約	-11.0608
武定	-11.0614
使者曰	-11.0616
流星	-11.0622
弗聽	-11.0623
貞觀	-11.0626
問之曰	-11.0627
不給	-11.063
既已	-11.063
貧民	-11.0631
蔡京	-11.0632
立皇子	-11.0633
逺方	-11.0634
陵侯	-11.0636
詩序	-11.0636
廣西	-11.0638
卿等	-11.0638
帥衆	-11.064
鑠	-11.0643
侍讀	-11.0644
今若	-11.0644
多少	-11.0647
同州	-11.0647
帽	-11.0648
婆	-11.0648
秣陵	-11.0651
伯宗	-11.0651
孜	-11.0652
至北京	-11.0652
其説	-11.0653
璣	-11.0654
家世	-11.0654
聖徳	-11.0654
瓜	-11.0654
山水	-11.0654
換	-11.0655
飭	-11.0656
大辟	-11.0656
次曰	-11.0656
百里奚	-11.0657
區區	-11.0658
仰天	-11.0663
嚭	-11.0664
切責	-11.0667
章帝	-11.0673
仁者	-11.0679
珠玉	-11.0682
杭	-11.0684
仕至	-11.0686
稱帝	-11.0695
以國為氏	-11.0696
上林	-11.0696
湯武	-11.0697
總督	-11.0697
五原	-11.0701
大體	-11.0702
為大將軍	-11.0702
萬歲	-11.0714
斐	-11.0718
辟雍	-11.072
甯	-11.072
邯	-11.0722
虹	-11.0724
司直	-11.0724
滔	-11.0725
碁	-11.0725
善屬文	-11.0726
嘯	-11.0727
左右皆	-11.0728
葦	-11.0728
善騎射	-11.0729
為列侯	-11.0731
為長史	-11.0731
圜	-11.0733
太甲	-11.0734
天和	-11.0735
四十年	-11.0735
神仙	-11.0739
廷弼	-11.0739
涇原	-11.0739
康居	-11.074
也是故	-11.0748
又嘗	-11.0751
都城	-11.0755
申生	-11.076
若水	-11.0761
大定	-11.0768
百世	-11.077
奔楚	-11.0773
門之外	-11.0774
經義	-11.0775
庶長	-11.0778
伯夷	-11.0781
林邑	-11.0782
都指揮	-11.0785
賜名	-11.0786
瑒	-11.0791
伐吳	-11.0793
出鎮	-11.0795
餘黨	-11.0799
斛律	-11.08
烟	-11.0801
挈	-11.0802
四十六	-11.0803
聽之	-11.0803
禁錮	-11.0804
儻	-11.0805
驃騎大將軍	-11.0805
恭王	-11.0806
爾雅曰	-11.0807
邏	-11.0809
永寧	-11.081
冠軍將軍	-11.0811
建州	-11.0814
三十六年	-11.0816
齊桓	-11.0816
女弟	-11.0818
韓琦	-11.0823
性好	-11.0823
八千	-11.0825
不濟	-11.0827
部尚書	-11.0831
江北	-11.0839
云何	-11.084
嘉靖中	-11.0844
郎中令	-11.0845
來歸	-11.0845
尤甚	-11.0848
年十二	-11.0849
百一十	-11.0849
被誅	-11.0849
郢州	-11.0851
既定	-11.0852
因氏焉	-11.0854
諸弟	-11.0855
九錫	-11.0856
九鼎	-11.0859
絞	-11.0868
肘	-11.0869
莱	-11.0869
荔	-11.087
讙	-11.0871
鄭元	-11.0873
子貢曰	-11.0873
撒	-11.0873
未足	-11.0874
其徒	-11.0874
改名	-11.0876
著作佐郎	-11.0877
桓公曰	-11.0877
憶	-11.0878
丙戍	-11.0881
城邑	-11.0881
蘇代	-11.0882
藁	-11.0882
太子詹事	-11.0883
連年	-11.0887
驍勇	-11.0888
征南	-11.0888
燕人	-11.089
於是乎	-11.0892
者何也	-11.0896
而用之	-11.0897
東府	-11.0898
朝堂	-11.09
失利	-11.0902
宫門	-11.0915
復歸	-11.0915
所載	-11.0919
高帝	-11.092
晉平公	-11.0922
沈約	-11.0922
請救	-11.0923
吾聞之	-11.0933
形勢	-11.0934
更立	-11.0935
武徳	-11.0935
神主	-11.0938
攻破	-11.0941
正直	-11.0941
奏言	-11.0945
不亦可乎	-11.0946
不冝	-11.0947
四部	-11.0949
㣧	-11.095
絀	-11.0951
鵬	-11.0951
宋王稱撰	-11.0951
武安君	-11.0952
同平章事	-11.0953
知伯	-11.0954
玘	-11.0957
曹掾	-11.096
傾覆	-11.0961
上邽	-11.0962
楼	-11.0962
有異志	-11.0966
仇池	-11.097
時年四十	-11.0973
郭氏	-11.0973
攻韓	-11.0973
三十七	-11.0977
尚方	-11.098
先君之	-11.0981
上尊號	-11.0982
流人	-11.0983
漢魏	-11.0986
豈敢	-11.0989
經傳	-11.099
老矣	-11.0994
六十里	-11.0996
杜預注	-11.1009
之國也	-11.1012
隗囂	-11.1014
也是以	-11.1015
府君	-11.1017
嘿	-11.1018
公仲	-11.1021
其私	-11.1022
三十二年	-11.1022
璽綬	-11.1022
州防禦使	-11.1022
臣願	-11.1023
臭	-11.1023
片	-11.1023
臥	-11.1025
彭祖	-11.1025
叅知政事	-11.1025
薨諡曰	-11.1026
正朔	-11.1027
鵲	-11.1027
漿	-11.1027
以孝聞	-11.1028
餽	-11.1029
濶	-11.103
經略	-11.1031
慕容垂	-11.1032
不説	-11.1032
奢侈	-11.1033
輔國	-11.1034
洪範	-11.1035
不息	-11.1036
起義	-11.1037
爵位	-11.1038
少帝	-11.1046
充國	-11.105
高陽	-11.1051
昭明	-11.1052
百九十	-11.1052
集三卷	-11.1053
學校	-11.1055
節制	-11.1056
楚莊王	-11.1066
隠公	-11.1068
大計	-11.107
禁止	-11.1074
闕下	-11.108
請罪	-11.108
按此	-11.108
穆宗	-11.1082
湣王	-11.1083
尚書省	-11.1084
張華	-11.1086
斡里雅布	-11.1093
魋	-11.1095
釗	-11.1096
㪚	-11.1098
引去	-11.1098
有星孛于	-11.1098
愕	-11.11
云云	-11.1102
驎	-11.1102
冥	-11.1102
國家之	-11.1103
莾	-11.1104
旒	-11.1104
奬	-11.1104
金玉	-11.1107
宣十	-11.1112
陸遜	-11.1114
反叛	-11.1117
乃更	-11.1119
還家	-11.1125
友人	-11.1132
曽祖	-11.1134
喪服	-11.1137
不雨	-11.1143
唯有	-11.1146
還報	-11.1149
二百里	-11.1156
大抵	-11.1156
聲色	-11.116
太子中庶子	-11.1163
郡丞	-11.1163
東海王	-11.1164
詵	-11.1168
龍圖閣直學士	-11.1168
人謂之	-11.1169
沛國	-11.1171
長驅	-11.1172
亹	-11.1173
白衣	-11.1173
對曰臣聞	-11.1174
爪	-11.1174
嫉	-11.1175
四年春正月	-11.1177
讜	-11.1177
鏤	-11.1178
餐	-11.1178
衛大將軍	-11.118
今陛下	-11.1182
蘇峻	-11.119
胡亥	-11.1193
乘輿	-11.1196
不可復	-11.1196
友善	-11.1196
佐命	-11.1198
尋除	-11.1201
河外	-11.1201
東萊	-11.1206
靈臺	-11.1209
羌胡	-11.121
下獄死	-11.1213
西海	-11.1214
右丞	-11.1214
大潰	-11.1214
海西	-11.1217
猶在	-11.1218
方進	-11.1221
在東宫	-11.1221
西夏	-11.1222
真人	-11.1227
節儉	-11.1229
分遣	-11.1231
鳳翔	-11.1238
年號	-11.1243
學生	-11.1246
闥	-11.1247
豚	-11.1248
子男	-11.1248
戶	-11.1249
髦	-11.1249
百四十	-11.1249
鍳	-11.1251
字士	-11.1251
圻	-11.1251
捶	-11.1252
跳	-11.1252
季札	-11.1254
陁	-11.1254
鳯翔	-11.1254
立祠	-11.1254
曰孤	-11.1255
瓠	-11.1255
乱	-11.1255
士衆	-11.1256
畋	-11.1256
也公曰	-11.1256
倩	-11.1257
餒	-11.1258
城䧟	-11.1259
四十五	-11.1259
楊氏	-11.126
濱	-11.1263
耶律	-11.1265
葛榮	-11.1266
怨望	-11.1268
東郭	-11.1271
寒暑	-11.1272
衡山	-11.1276
河橋	-11.1279
秀才	-11.1288
太后臨朝	-11.1288
三代之	-11.1295
齊名	-11.1296
紹聖	-11.1302
漢興	-11.1305
元謨	-11.1305
騑	-11.1306
奉天	-11.1307
正義	-11.1308
巴郡	-11.1319
之迹	-11.132
侯莫陳	-11.1321
媪	-11.1323
定州刺史	-11.1323
哥	-11.1327
豨	-11.1329
檢校	-11.1331
代郡	-11.1331
奥	-11.1331
冷	-11.1333
異同	-11.1334
厰	-11.1335
羲之	-11.1336
氊	-11.1337
曰吾欲	-11.1338
藍田	-11.1339
六尺	-11.1342
庻人	-11.1352
十嵗	-11.1352
已定	-11.1353
下吏	-11.1357
字世	-11.1357
司馬光	-11.1359
欲誅	-11.1364
意如	-11.1365
盡心	-11.1366
士竒	-11.1373
之力也	-11.1377
治民	-11.1381
精騎	-11.1382
異日	-11.1387
起居注	-11.1389
年十四	-11.139
遷侍中	-11.1391
手詔	-11.1393
郗	-11.1395
手足	-11.1395
親臨	-11.1395
瓛	-11.1397
敢問	-11.1397
竣	-11.1399
丁謂	-11.14
五國	-11.1402
誌	-11.1404
弹	-11.1404
千四百	-11.1405
弃	-11.1406
渥	-11.1407
磔	-11.141
恩信	-11.141
縷	-11.1411
竿	-11.1412
屨	-11.1412
蛟	-11.1416
登城	-11.1418
要害	-11.1418
干戈	-11.1419
笙	-11.142
璁	-11.1423
太伯	-11.1424
公孫述	-11.1424
太子舍人	-11.1425
聞其名	-11.1425
衛君	-11.1428
縱横	-11.1431
五十餘	-11.1432
煬	-11.1432
徐兖	-11.1436
散騎	-11.1437
聖賢	-11.1439
國子監	-11.1447
西門	-11.1448
名臣	-11.1451
稱職	-11.1452
黄河	-11.1459
君君	-11.1462
帝怒	-11.1464
為人所	-11.1465
者謂之	-11.1465
炫	-11.1473
淄	-11.1475
欣然	-11.1481
欲去	-11.1482
勣	-11.1483
共立	-11.1483
還朝	-11.1484
親近	-11.1484
闘	-11.1484
巻	-11.1485
押	-11.1485
烏丸	-11.1486
濡	-11.1486
中國之	-11.1486
蓮	-11.1488
㡌	-11.1488
装	-11.1489
趙衰	-11.1489
濟河	-11.1491
被害	-11.1492
糞	-11.1494
前世	-11.1494
憂懼	-11.1496
磐	-11.1501
天錫	-11.1502
不遜	-11.1503
衛鄭	-11.1504
僉事	-11.1506
三十五	-11.1506
華山	-11.1508
臣不敢	-11.1511
魯衛	-11.1514
年十八	-11.1518
大逆	-11.1519
東昏	-11.1523
不恤	-11.1523
朝㑹	-11.1524
徴拜	-11.1525
求去	-11.1537
膠東	-11.1538
奉先	-11.1539
其形	-11.1541
舊典	-11.1541
猶豫	-11.1546
三十五年	-11.1552
天聖	-11.1552
墾	-11.1553
麴	-11.1553
汭	-11.1557
王僧辯	-11.1558
聿	-11.1558
彥	-11.1558
醢	-11.1562
絮	-11.1563
擕	-11.1564
勔	-11.1564
州觀察使	-11.1565
進爵為公	-11.1566
縫	-11.1567
隋開皇	-11.1568
壬戍	-11.157
戊戍	-11.157
尚未	-11.157
也原作	-11.1573
年十七	-11.1573
洵	-11.1574
姜維	-11.1579
楚滅	-11.1581
部郎	-11.1582
恭帝	-11.1583
掖門	-11.1584
蜀王	-11.1586
本草	-11.1595
由余	-11.1596
人才	-11.1602
建昌	-11.1606
郊廟	-11.1612
南伐	-11.1612
善政	-11.1614
韋昭	-11.1616
韓厥	-11.162
性剛	-11.162
欒氏	-11.162
意欲	-11.1622
徵拜	-11.1625
千餘家	-11.1628
掾屬	-11.1629
宫殿	-11.1632
廵狩	-11.1633
護軍	-11.1634
嘏	-11.1641
黠	-11.1641
征虜將軍	-11.1643
夔	-11.1643
丈人	-11.1646
峽	-11.1647
徂	-11.1648
耒	-11.1648
范仲淹	-11.1649
山海經	-11.165
菽	-11.165
吏部侍郎	-11.1651
齊景公	-11.1652
鎮軍	-11.1653
金錢	-11.1653
夏后	-11.1656
户部尚書	-11.1656
出身	-11.1658
大恱	-11.1661
百濟	-11.1661
綎	-11.1663
居處	-11.1664
也王曰	-11.1664
崔氏	-11.1665
道濟	-11.1685
入蜀	-11.1687
失守	-11.1688
勤王	-11.1694
宗周	-11.1696
不可勝	-11.1703
元豐	-11.1703
後漢書	-11.1708
誰敢	-11.1709
守備	-11.172
斜	-11.1723
沾	-11.1723
鎮惡	-11.1723
捧	-11.1724
齧	-11.1725
周武帝	-11.1726
匃奴	-11.1727
槖	-11.1727
禅	-11.1727
廊	-11.1728
禮畢	-11.173
醇	-11.1731
朱雀	-11.1732
偁	-11.1733
大饑	-11.1733
侍從	-11.1733
車騎大將軍	-11.1733
䨇	-11.1733
媿	-11.1734
喜怒	-11.1738
無恙	-11.1738
豳	-11.1743
上京	-11.1746
敵人	-11.1747
疾苦	-11.1749
守臣	-11.1753
尊卑	-11.1757
純仁	-11.1762
鄧禹	-11.1764
武臣	-11.1765
建隆	-11.1765
而食之	-11.1767
如舊	-11.1768
都官尚書	-11.1778
統軍	-11.1793
犧	-11.1793
相應	-11.1795
兗	-11.1796
五年春正月	-11.1797
清河王	-11.1798
户口	-11.1799
吕布	-11.1801
舉哀	-11.1804
嵇	-11.1805
倨	-11.1807
暱	-11.1808
而自立	-11.1809
禳	-11.1809
咽	-11.1812
噬	-11.1813
釋奠	-11.1813
炊	-11.1813
交阯	-11.1814
巽	-11.1816
甕	-11.1818
寰宇記	-11.1819
善惡	-11.1819
躬自	-11.1823
王肅	-11.1829
清白	-11.1831
積年	-11.1834
奔魯	-11.1836
都司	-11.1836
武庫	-11.184
南都	-11.1852
来朝	-11.1856
鎮西	-11.1867
吳師	-11.1868
屈原	-11.1869
皃	-11.1871
孝寛	-11.1873
伏法	-11.1873
堂上	-11.1874
立廟	-11.1878
闞	-11.1883
行軍總管	-11.1884
祉	-11.1884
㛰	-11.1886
萃	-11.1887
裨	-11.1889
捉	-11.1889
列女傳	-11.1889
蹶	-11.1891
駘	-11.1893
砥	-11.1894
因留	-11.1894
親親	-11.1896
蔬食	-11.1896
伯升	-11.1897
盡殺	-11.1901
渊	-11.1902
大吕	-11.1905
還宫	-11.1906
鄗	-11.1906
于闐	-11.1907
謝病	-11.1909
宣宗	-11.1911
入貢	-11.1912
𬒳執	-11.1914
叅軍	-11.192
配享	-11.1922
仕齊	-11.1922
七嵗	-11.1927
相對	-11.1928
謀殺	-11.1929
伐衛	-11.193
首尾	-11.1931
孫皓	-11.1933
何患	-11.1937
置左右	-11.1938
邳	-11.1941
正光	-11.1943
伯玉	-11.1943
講武	-11.1943
武陽	-11.1943
昊	-11.1945
初除	-11.1946
蒙古語	-11.1949
為博士	-11.195
陽翟	-11.1954
数百	-11.1956
郤至	-11.1958
無所不	-11.1962
赧	-11.1965
呉王	-11.1965
羯	-11.1968
兾	-11.1968
棣	-11.1968
禺	-11.197
飄	-11.1972
謟	-11.1972
惔	-11.1972
荘王	-11.1974
鄣	-11.1975
揭	-11.1975
忝	-11.1975
殮	-11.1975
惕	-11.1976
迂	-11.1976
朐	-11.1976
矟	-11.1977
猛獸	-11.1979
讌	-11.1979
少傅	-11.198
姜姓	-11.1983
黜陟	-11.1984
士匄	-11.1984
有能名	-11.1984
殛	-11.1984
王僚	-11.1985
見東觀記	-11.1987
夏后氏	-11.1988
四品	-11.1993
曹氏	-11.1997
督䕶	-11.2001
民心	-11.2005
字孝	-11.2011
甲士	-11.2016
非其人	-11.2016
州刺史諡曰	-11.2018
田常	-11.202
歸附	-11.2021
等議	-11.2021
號哭	-11.2021
避地	-11.2023
居喪	-11.2027
奈	-11.2031
為主簿	-11.2033
行參軍	-11.2035
師傅	-11.2036
不能制	-11.2036
殤公	-11.204
巴東	-11.2043
永楽	-11.2045
五十萬	-11.2049
駝	-11.205
抃	-11.205
蒋	-11.205
妄言	-11.2051
怙	-11.2053
曵	-11.2054
啖	-11.2055
太學博士	-11.2056
鯁	-11.2057
鄯善	-11.2058
罹	-11.2059
烽	-11.206
僉都御史	-11.206
踊	-11.2061
瑛	-11.2062
牌	-11.2063
景徳	-11.2069
秦始皇	-11.2073
徃來	-11.2086
編修	-11.2089
萬戸	-11.209
湘州刺史	-11.2094
舟山	-11.2103
涼州刺史	-11.2105
文十	-11.2106
秉政	-11.2109
長官司	-11.2116
百戸	-11.2117
前殿	-11.2118
苐一	-11.2118
黶	-11.2119
皇帝諱	-11.212
卒於官	-11.2122
闗内侯	-11.2127
號泣	-11.2128
鎮南	-11.213
貧者	-11.2134
鼓琴	-11.2137
蠆	-11.2137
知開封府	-11.2137
未嘗有	-11.2138
倣	-11.2139
晋陽	-11.2139
本郡	-11.214
聦	-11.2141
乘勝	-11.2141
搖	-11.2141
瘳	-11.2142
兔	-11.2142
督郵	-11.2143
暈	-11.2143
瓉	-11.2144
摠	-11.2144
苴	-11.2144
可觀	-11.2145
概	-11.2147
做	-11.2148
昺	-11.2154
表裏	-11.2154
治水	-11.2156
先零	-11.216
侍御	-11.2166
十二里	-11.2168
君臣之	-11.2169
州里	-11.217
昆吾	-11.217
曲赦	-11.2173
遼陽	-11.2177
城濮	-11.2187
懷王	-11.22
萬二千	-11.2206
四十二	-11.2208
焉用	-11.2211
州别駕	-11.2213
立公子	-11.2213
千石	-11.2214
莊宗	-11.2217
本姓	-11.2219
幢	-11.2221
不畏	-11.2223
諸葛恪	-11.2223
楹	-11.2223
切説	-11.2224
鄄	-11.2224
蕪	-11.2224
渇	-11.2226
召試	-11.2227
催	-11.2228
噉	-11.2228
層	-11.2228
冢宰	-11.223
副都御史	-11.2233
千騎	-11.2239
不可勝數	-11.2239
亳州	-11.2241
約束	-11.2242
章惇	-11.2243
參議	-11.2247
鑄錢	-11.225
四十卷	-11.2251
犍為	-11.2253
惠卿	-11.2256
第七	-11.2258
之謂也	-11.2259
同列	-11.226
産業	-11.2262
遂絶	-11.2269
以功封	-11.2274
止之曰	-11.2274
去就	-11.2275
未甞	-11.2278
殺傷	-11.2281
良夫	-11.2282
手書	-11.2282
悉平	-11.2282
諸公子	-11.2286
萬五千	-11.2289
臧孫	-11.229
秦穆公	-11.2292
再三	-11.2294
濟陽	-11.2298
華隂	-11.2301
金墉	-11.2306
挹	-11.2307
刳	-11.2308
廞	-11.2308
罽	-11.2309
馘	-11.231
誠能	-11.2311
攬	-11.2313
慄	-11.2314
譁	-11.2315
蜂	-11.2315
車駕還宫	-11.2316
䄂	-11.2316
煖	-11.2319
曰余	-11.232
召對	-11.2322
㣲子	-11.2322
應對	-11.2322
重華	-11.2323
氏女	-11.2328
欒書	-11.2329
畧同	-11.2329
二百餘	-11.2332
氏改為	-11.2335
移書	-11.2341
珍寳	-11.2343
文選	-11.2343
秘書	-11.2349
羣公子	-11.2349
太史令	-11.2353
一寸	-11.2359
仁夀	-11.2365
一時之	-11.2367
闗東	-11.2369
弘治	-11.2376
守宰	-11.2379
然猶	-11.2382
淳于髠	-11.2385
鹵簿	-11.2386
虓	-11.2388
山海	-11.2391
娛	-11.2394
皇帝廟號	-11.2397
侔	-11.2397
古史卷	-11.2398
拜議郎	-11.2398
鳬	-11.2398
慿	-11.2399
州團練使	-11.2399
封疆	-11.24
媾	-11.24
朋友	-11.24
青徐	-11.2401
赭	-11.2401
寖	-11.2401
二寸	-11.2401
為之語曰	-11.2402
司冦	-11.2404
祭仲	-11.2408
尝	-11.2408
百匹	-11.2409
越絶書	-11.2412
二百四十	-11.2414
贈司空	-11.2416
祕書郎	-11.2422
幸得	-11.2424
夜半	-11.2432
幾何	-11.2432
髙第	-11.2434
其子孫	-11.2436
土木	-11.2437
勇力	-11.2441
英雄	-11.2448
于是乎	-11.2455
魏文帝	-11.2459
無怨	-11.2459
講學	-11.2459
十六卷	-11.2462
五大夫	-11.2469
凉州	-11.247
論議	-11.2475
媵	-11.2475
本名	-11.2481
遞	-11.2481
儆	-11.2483
上庸	-11.2483
刖	-11.2485
都督中外諸軍事	-11.2486
猶可	-11.2487
皖	-11.2488
鎻	-11.2489
掲	-11.2489
入郢	-11.249
臨菑	-11.249
俛	-11.2491
安豐	-11.2491
盪	-11.2493
消息	-11.2497
腦	-11.2498
徙都	-11.2505
譜一卷	-11.2513
三十七年	-11.2514
江漢	-11.2518
河間王	-11.2518
爾雅云	-11.2519
完顔	-11.2524
可望	-11.2528
著述	-11.2546
摩訶	-11.2554
不早	-11.2561
彗星	-11.2561
筋	-11.2563
栖	-11.2567
异	-11.2568
痤	-11.2568
灑	-11.2568
晩	-11.257
羗	-11.257
浞	-11.2571
趙王倫	-11.2571
伶	-11.2573
延熹	-11.2573
心腹	-11.2574
𠡠	-11.2574
莅	-11.2574
少保	-11.2575
吳越	-11.2575
右諫議大夫	-11.2576
開寳	-11.2582
羣小	-11.2588
相結	-11.2591
䝉古軍	-11.2591
草創	-11.2593
聖主	-11.2596
字敬	-11.2596
紀綱	-11.2597
附庸	-11.2597
荆南	-11.2597
軍糧	-11.26
何憂	-11.2604
京房	-11.2605
過失	-11.261
為尚書左僕射	-11.261
衆庶	-11.2625
去長安	-11.2627
湘州	-11.2631
不䏻	-11.2633
西羌	-11.2638
笑而	-11.2638
詩賦	-11.2643
數百里	-11.2644
明帝即位	-11.265
遑	-11.2656
堯舜之	-11.2657
伉	-11.2657
迪	-11.2658
薩	-11.266
汝隂	-11.2662
䋲	-11.2663
潦	-11.2663
寛厚	-11.2663
百揆	-11.2664
人也舉進士	-11.2666
弢	-11.2666
立其弟	-11.2666
嘻	-11.2668
謇	-11.2669
可知矣	-11.2669
五榖	-11.267
衣裳	-11.267
謀誅	-11.2676
而哭	-11.2677
召陵	-11.2677
昊天	-11.2679
集三十卷	-11.269
子罕	-11.2698
千乘	-11.2699
子思曰	-11.27
僖十	-11.2705
亭長	-11.2706
義康	-11.2707
帝從之	-11.2715
五刑	-11.2718
第三子	-11.2719
度支尚書	-11.2722
李牧	-11.2723
所統	-11.2726
交結	-11.2732
阿那瓌	-11.2732
㽔	-11.2733
軹	-11.2735
兕	-11.2742
大行臺	-11.2743
二千人	-11.2744
圖書	-11.2747
軸	-11.2747
紆	-11.2747
茂陵	-11.2748
司徒左長史	-11.2748
珥	-11.2749
晦日有食之	-11.2749
為盟主	-11.2749
度遼將軍	-11.275
冩	-11.275
䧺	-11.275
敬宣	-11.2751
瑁	-11.2752
沈攸之	-11.2753
陀	-11.2753
臨洮	-11.2756
韓起	-11.2757
緘	-11.2759
旭	-11.2759
都統	-11.276
州吁	-11.2762
太子少傅	-11.2762
挑戰	-11.2766
器用	-11.2768
法駕	-11.2769
皇弟	-11.2769
紹宗	-11.2773
儒生	-11.2774
𢎞正	-11.2775
盧循	-11.2777
何益	-11.2779
過江	-11.278
曹爽	-11.2786
遣將軍	-11.2789
亡國之	-11.2789
而遣之	-11.2791
十餘里	-11.2794
以下皆	-11.2797
還京	-11.2799
休息	-11.2813
九族	-11.2816
留意	-11.2817
嘗問	-11.2818
三十人	-11.2821
吁	-11.2822
犁	-11.2823
廣徳	-11.2823
闔門	-11.2823
一品	-11.2827
伐韓	-11.2827
中庶子	-11.283
澶淵	-11.2831
郊迎	-11.2833
濯	-11.2835
郇	-11.2838
記室參軍	-11.284
縻	-11.2841
嘉禾	-11.2841
贑	-11.2841
身長八尺	-11.2841
鞬	-11.2843
邵陵王	-11.2843
頤	-11.2844
槊	-11.2845
錢塘	-11.2845
駰	-11.2845
曰寡君	-11.2846
以女妻	-11.2847
犬戎	-11.2854
慧景	-11.2854
修徳	-11.2855
藥師	-11.2856
孝昌	-11.2856
羣公	-11.2857
佺期	-11.2859
郤克	-11.2859
竇憲	-11.286
豫章太守	-11.2864
留心	-11.2867
彦博	-11.2868
成湯	-11.2869
尋遷	-11.2873
左師	-11.2874
第八	-11.2881
戸部	-11.2881
事畢	-11.2886
其弊	-11.2896
公如晉	-11.2897
建寧	-11.2904
天性	-11.2905
世襲	-11.2908
丹朱	-11.2911
季友	-11.2912
黔中	-11.2912
㐮王	-11.2916
蒿	-11.2916
仕周	-11.2917
髻	-11.2919
南單于	-11.2919
百斤	-11.292
侠	-11.2921
笛	-11.2923
稠	-11.2925
遯	-11.2927
尉遲迥	-11.2927
菴	-11.2929
艘	-11.293
醴	-11.293
愠	-11.2931
龍驤將軍	-11.2932
亘	-11.2932
西面	-11.2932
籥	-11.2933
眩	-11.2934
眇	-11.2935
衆咸	-11.2936
救趙	-11.2937
翰林院	-11.2937
喉	-11.2938
鄧艾	-11.2939
賈逵	-11.294
温嶠	-11.2942
嗜酒	-11.2943
科臣	-11.2943
䔥	-11.2943
振旅	-11.2944
上封事	-11.2948
三十一	-11.2951
陳蕃	-11.2951
教化	-11.2955
第二子	-11.2957
日蝕	-11.2957
期年	-11.2958
喪亂	-11.2959
昭穆	-11.296
小邾	-11.2965
壮士	-11.2972
襄國	-11.2972
性命	-11.2974
魏冉	-11.2976
吳楚	-11.2978
事覺	-11.2979
將何以	-11.2982
陳倉	-11.2982
何由	-11.2983
諸司	-11.3006
主客	-11.3009
刑獄	-11.3009
可否	-11.3013
周瑜	-11.3014
癡	-11.3015
產	-11.3019
盤庚	-11.3021
椽	-11.3022
分野	-11.3022
疊	-11.3023
監司	-11.3027
揣	-11.3028
兵部侍郎	-11.3028
鷙	-11.3028
庚戍	-11.3028
三十四年	-11.3029
江夏王義恭	-11.303
稔	-11.303
漢武帝	-11.3031
日磾	-11.3031
萬乗之	-11.3033
威福	-11.3033
弗克	-11.3041
六品	-11.3041
為之奈何	-11.3044
晏嬰	-11.3047
第一百	-11.305
嘉祐	-11.3054
單騎	-11.3055
診	-11.3056
惟陛下	-11.3056
天雨	-11.3059
八萬	-11.306
如之何	-11.3064
四十九	-11.3068
簡子曰	-11.3068
曲阿	-11.3069
建議	-11.3071
鮮于	-11.3071
臨川王	-11.3071
姦邪	-11.3071
爵一級	-11.3074
堯佐	-11.3077
羣書	-11.3079
左丞相	-11.3088
太初	-11.3089
泣下	-11.309
談論	-11.3094
糺	-11.3099
犨	-11.31
酋長	-11.3102
豢	-11.3103
晁	-11.3109
肜	-11.311
愿	-11.3112
哩	-11.3115
鼈	-11.3118
趍	-11.312
晷	-11.3122
孥	-11.3122
煦	-11.3125
傕	-11.3195
纍	-11.3199
縗	-11.3209
嘲	-11.321
梯	-11.3211
蹄	-11.3212
鏞	-11.3213
耜	-11.3215
閶	-11.3215
礦	-11.3219
雝	-11.3293
犫	-11.3295
瘡	-11.3296
翩	-11.3297
葆	-11.3299
劓	-11.3301
貿	-11.3303
絰	-11.3304
䛕	-11.3304
胷	-11.3305
耐	-11.3309
嬉	-11.3309
婺	-11.331
舂	-11.3383
箱	-11.3383
檻	-11.3391
峙	-11.3393
陌	-11.3395
煙	-11.3397
笄	-11.3397
雁	-11.3399
荐	-11.34
襟	-11.34
惧	-11.3402
肺	-11.3402
暄	-11.3403
詈	-11.3404
剥	-11.3404
爻	-11.3405
駑	-11.3407
靚	-11.3479
蔬	-11.3485
娣	-11.3487
纒	-11.349
炬	-11.3491
旺	-11.3492
变	-11.3494
􁁻	-11.3495
圈	-11.3495
㓙	-11.3503
釡	-11.351
夹	-11.3585
闓	-11.3586
賻	-11.3587
僇	-11.3588
藤	-11.3593
迅	-11.3594
掛	-11.3595
妣	-11.3595
涌	-11.3595
鯤	-11.3598
枀	-11.3607
鈴	-11.3674
夘	-11.3678
紵	-11.3683
彫	-11.3687
醒	-11.369
塋	-11.3691
鑾	-11.3694
筑	-11.3695
佾	-11.3696
巍	-11.3698
茟	-11.3698
茨	-11.37
耦	-11.3783
貺	-11.3786
姫	-11.3788
誑	-11.3788
吠	-11.3789
僵	-11.3791
蟻	-11.3792
湊	-11.3792
猪	-11.3795
點	-11.3795
槨	-11.3795
箠	-11.3797
慨	-11.3877
讞	-11.3881
珂	-11.3881
蟠	-11.3883
爼	-11.3885
鉗	-11.3886
剡	-11.3889
咄	-11.389
愴	-11.3891
垢	-11.3891
砲	-11.3894
殱	-11.3897
莵	-11.3897
羕	-11.3909
讚	-11.3979
疽	-11.398
翫	-11.3987
黷	-11.3988
峒	-11.3989
藜	-11.3995
娠	-11.4086
拉	-11.4088
龐	-11.4088
戡	-11.4092
敇	-11.4093
撝	-11.4094
㓗	-11.4094
沅	-11.4096
謳	-11.4097
僞	-11.4097
蛮	-11.4098
胃	-11.4102
琇	-11.4187
佃	-11.4188
鄜	-11.4189
笏	-11.4191
悴	-11.4192
淖	-11.4192
篋	-11.4195
趋	-11.4195
縞	-11.4197
卹	-11.42
𤱔	-11.4201
煮	-11.4202
贇	-11.4282
檜	-11.4288
霽	-11.4289
潼	-11.4289
俎	-11.4294
闚	-11.4301
卻	-11.4303
霑	-11.4304
橘	-11.4306
昴	-11.431
龢	-11.4311
鶉	-11.4311
翕	-11.4394
汧	-11.4394
簪	-11.4398
禋	-11.4399
泚	-11.44
袤	-11.4402
孩	-11.4402
蹤	-11.4405
翺	-11.4407
炤	-11.4408
售	-11.4409
綾	-11.4411
辠	-11.4417
謾	-11.4418
壼	-11.4497
綂	-11.4506
爨	-11.4507
酸	-11.4507
倘	-11.4508
詬	-11.4509
撲	-11.4509
訕	-11.451
艮	-11.4512
凋	-11.4513
粒	-11.4516
耘	-11.4518
襍	-11.452
鬷	-11.4605
鉢	-11.4612
埀	-11.4613
貭	-11.4616
翹	-11.4616
㦲	-11.4617
牝	-11.4621
媒	-11.4621
豔	-11.4622
醮	-11.4717
堆	-11.4718
鄶	-11.472
愎	-11.4721
畀	-11.4721
鵉	-11.4722
梵	-11.4723
邲	-11.4723
緫	-11.4723
廡	-11.4724
杏	-11.4724
謖	-11.4729
兑	-11.473
郟	-11.4731
儔	-11.4732
瑣	-11.4738
茲	-11.4825
斡	-11.4825
徭	-11.4829
跣	-11.483
萹	-11.4832
戱	-11.4832
葺	-11.4833
簾	-11.4838
擿	-11.4839
迨	-11.4841
櫬	-11.4844
脛	-11.4845
郜	-11.4932
虺	-11.4933
麒	-11.4941
讃	-11.4941
穉	-11.4942
䡖	-11.4948
淩	-11.4949
喙	-11.4949
祼	-11.4951
誇	-11.4951
畱	-11.4957
弧	-11.4958
諳	-11.4961
睡	-11.4961
涂	-11.5048
芈	-11.5048
濛	-11.5052
蓐	-11.5053
髀	-11.5054
輓	-11.5055
寰	-11.5056
籬	-11.5058
閫	-11.5059
培	-11.506
絜	-11.5061
漣	-11.5061
閽	-11.5061
侑	-11.5062
摭	-11.5063
妥	-11.5064
撞	-11.5066
褁	-11.5067
閨	-11.5126
嚳	-11.5127
挑	-11.5162
暕	-11.5163
宕	-11.5165
伽	-11.5167
涸	-11.5171
詁	-11.5172
誚	-11.5174
掦	-11.5175
認	-11.5176
敘	-11.5176
𣙜	-11.5176
錐	-11.5179
燿	-11.518
裙	-11.5278
伷	-11.528
竪	-11.5283
阬	-11.5285
蠟	-11.5289
捜	-11.5289
毆	-11.5291
悵	-11.5293
針	-11.5294
欠	-11.5296
贏	-11.5298
朏	-11.5381
禰	-11.5396
璿	-11.5403
緄	-11.5404
糜	-11.5404
阨	-11.5405
脊	-11.5406
唾	-11.5406
唘	-11.5407
辞	-11.5407
蓍	-11.5407
床	-11.5407
燼	-11.5407
衾	-11.5409
瀋	-11.5409
態	-11.5409
渦	-11.5411
樽	-11.5411
鬯	-11.5415
緱	-11.5517
液	-11.5517
套	-11.552
斾	-11.5521
這	-11.5523
霞	-11.5523
娘	-11.5525
豺	-11.5525
榭	-11.5526
虖	-11.5531
枳	-11.554
籙	-11.5629
鎰	-11.5632
咺	-11.5636
緹	-11.5637
㤀	-11.5637
騁	-11.5637
峴	-11.5638
𦍑	-11.5638
橐	-11.5642
縝	-11.5642
訶	-11.5643
剝	-11.5646
餅	-11.5646
店	-11.5651
軺	-11.5728
媛	-11.5748
瑤	-11.575
肄	-11.5756
歿	-11.5759
皥	-11.576
暦	-11.576
葭	-11.5764
剔	-11.5765
巋	-11.5768
殫	-11.5774
陬	-11.5867
肸	-11.5874
銑	-11.5875
緬	-11.5875
紓	-11.5876
覿	-11.588
撾	-11.588
筞	-11.588
侗	-11.5882
妺	-11.5882
滌	-11.5884
詎	-11.5885
鴨	-11.5886
恠	-11.5886
洒	-11.5886
烮	-11.5887
糟	-11.5889
杳	-11.589
嵬	-11.589
㬰	-11.5893
姞	-11.5994
勺	-11.5999
毘	-11.5999
勱	-11.6
褥	-11.6002
駞	-11.6003
坡	-11.6005
肴	-11.6008
耄	-11.6009
𫀆	-11.6009
稀	-11.601
扆	-11.6012
遴	-11.6014
璘	-11.6016
闖	-11.6019
朶	-11.6114
蟜	-11.6117
湼	-11.6128
睨	-11.6128
鶻	-11.6129
隲	-11.613
閠	-11.613
酆	-11.6131
湫	-11.6132
淛	-11.6134
罄	-11.6135
謔	-11.6135
㨿	-11.6136
溷	-11.6137
棧	-11.6137
㝢	-11.6138
紊	-11.6138
鋪	-11.6138
薬	-11.6141
擄	-11.6143
逌	-11.6145
碭	-11.6248
鏘	-11.6249
纁	-11.625
悚	-11.6252
澮	-11.6254
牂	-11.6255
􁞗	-11.6256
繻	-11.6257
肌	-11.6257
袂	-11.626
庵	-11.6261
祟	-11.6262
蓺	-11.6262
鬰	-11.6264
褘	-11.6376
阼	-11.6378
洧	-11.6378
聃	-11.6378
峭	-11.638
笥	-11.6385
泝	-11.6386
沱	-11.6387
緇	-11.6388
債	-11.6389
崑	-11.6389
燦	-11.639
郍	-11.639
擯	-11.6391
畎	-11.6391
輻	-11.6392
噪	-11.6392
涯	-11.6393
噫	-11.6393
粱	-11.6394
悽	-11.6394
舶	-11.6394
柬	-11.6395
狸	-11.6395
藹	-11.6396
紞	-11.6396
扣	-11.6399
絢	-11.651
眠	-11.6511
絺	-11.6512
㴱	-11.6513
酤	-11.6513
舄	-11.6515
郿	-11.6515
淨	-11.6516
繚	-11.6518
聳	-11.6518
㒺	-11.6519
匈	-11.652
隳	-11.652
偵	-11.6525
浣	-11.6525
橫	-11.6526
潢	-11.6531
袞	-11.6626
葱	-11.6631
虬	-11.6644
喧	-11.6645
頰	-11.6645
翅	-11.6646
瘁	-11.6647
瀘	-11.6647
狃	-11.6648
雛	-11.6649
幄	-11.6649
睹	-11.6653
舸	-11.6655
椁	-11.6655
堙	-11.6656
叶	-11.6656
沼	-11.6657
塊	-11.6769
紱	-11.6771
珉	-11.6775
鎖	-11.6776
脇	-11.6777
纉	-11.6779
薫	-11.6779
㲄	-11.6781
闊	-11.6782
騏	-11.6782
臠	-11.6785
腕	-11.6785
啣	-11.6785
擴	-11.6787
貉	-11.6788
貙	-11.6789
瓶	-11.6791
糠	-11.6796
襦	-11.6905
簫	-11.6908
澧	-11.6909
鄀	-11.6909
咫	-11.6912
晡	-11.6915
匝	-11.6915
仞	-11.6917
扁	-11.6918
髓	-11.6919
鄊	-11.6919
磁	-11.6919
􁃽	-11.6919
𠂻	-11.6921
鵝	-11.6925
低	-11.6926
猴	-11.6928
乍	-11.695
黻	-11.7038
謠	-11.7045
郅	-11.7045
斵	-11.7047
鏗	-11.7048
酖	-11.7048
瀕	-11.705
聾	-11.705
巵	-11.7051
逡	-11.7051
隻	-11.7052
蹻	-11.7053
拍	-11.7054
鋸	-11.7054
逗	-11.7056
覔	-11.706
悸	-11.706
毐	-11.7061
盱	-11.7062
㔻	-11.7177
森	-11.7184
彖	-11.7185
沁	-11.7186
乹	-11.7187
歹	-11.7187
憫	-11.7191
哨	-11.7192
穹	-11.7192
盲	-11.7194
賍	-11.7194
堞	-11.7194
棊	-11.7194
瞑	-11.7196
湜	-11.7196
祺	-11.7196
舫	-11.7196
梨	-11.7198
珩	-11.72
樗	-11.72
件	-11.72
廨	-11.7202
蒨	-11.7323
惋	-11.7329
袵	-11.733
袪	-11.7331
裸	-11.7331
濳	-11.7331
魅	-11.7332
㥄	-11.7333
棨	-11.7334
粢	-11.7334
鴦	-11.7335
楫	-11.7335
臏	-11.7338
刈	-11.7338
榛	-11.734
簽	-11.734
兌	-11.7341
斑	-11.7341
齮	-11.7342
厝	-11.7343
褊	-11.7344
盥	-11.7347
雹	-11.7443
皋	-11.7456
㕔	-11.746
璨	-11.7466
秣	-11.7468
枹	-11.7473
蜜	-11.7474
砂	-11.7476
勳	-11.7478
唇	-11.7482
鈍	-11.7483
俺	-11.7486
莢	-11.7615
戩	-11.7618
鋤	-11.7618
糶	-11.7619
泯	-11.7619
僊	-11.762
羖	-11.7622
瞶	-11.7622
隍	-11.7623
燥	-11.7623
屐	-11.7625
坼	-11.7627
迴	-11.7629
埒	-11.7629
菁	-11.763
攄	-11.7756
迦	-11.7758
鼂	-11.7759
怫	-11.7762
沽	-11.7763
慾	-11.7763
癘	-11.7764
歷	-11.7764
门	-11.7764
眚	-11.7765
綘	-11.7765
躋	-11.7765
狠	-11.7765
臆	-11.7767
壑	-11.7767
佟	-11.7768
芍	-11.7769
䙝	-11.777
鎔	-11.777
湎	-11.777
繳	-11.777
淇	-11.7771
暁	-11.7772
沴	-11.7772
圎	-11.7773
涽	-11.7775
匣	-11.7776
燝	-11.7777
畵	-11.7781
票	-11.7782
央	-11.787
斿	-11.7871
臾	-11.7893
兢	-11.7901
鹹	-11.7913
餼	-11.7913
鏜	-11.7916
稿	-11.7919
紺	-11.7919
稟	-11.792
坂	-11.792
㮚	-11.7921
韙	-11.7922
跌	-11.7925
薰	-11.7926
柟	-11.7926
啜	-11.7927
猿	-11.7927
䰟	-11.7934
稹	-11.8058
柘	-11.8058
囉	-11.8059
釘	-11.8062
俚	-11.8062
鋹	-11.8062
芉	-11.8063
鄠	-11.8066
煎	-11.8066
盃	-11.8067
岌	-11.8069
架	-11.807
派	-11.807
蒱	-11.8071
旰	-11.8072
脣	-11.8073
逓	-11.8074
簮	-11.8075
騖	-11.8075
鈇	-11.8086
幰	-11.8186
頊	-11.8211
鄔	-11.8213
顚	-11.8213
夬	-11.8214
箋	-11.8215
飴	-11.8215
壌	-11.8216
鞌	-11.8217
悰	-11.8219
㕘	-11.8221
吸	-11.8222
鑊	-11.8223
蘧	-11.8224
衫	-11.8224
欝	-11.8225
衂	-11.8225
殪	-11.8226
汁	-11.8226
幷	-11.8227
黿	-11.8227
窃	-11.8227
蒞	-11.823
兊	-11.8231
抉	-11.8232
聀	-11.8233
摰	-11.8233
姐	-11.8359
祓	-11.8359
宂	-11.8369
斆	-11.8373
琪	-11.8376
窋	-11.8378
氛	-11.8379
鑰	-11.838
腋	-11.8382
鎗	-11.8382
欤	-11.8383
竅	-11.8383
􁉒	-11.8384
馨	-11.8384
朓	-11.8384
櫓	-11.8384
拷	-11.8385
紡	-11.8385
挿	-11.8386
鶡	-11.8387
廽	-11.8388
挂	-11.8389
藿	-11.8392
捽	-11.8393
溱	-11.8527
秭	-11.853
彎	-11.8531
慼	-11.8534
麇	-11.8535
姥	-11.8535
齕	-11.8536
貊	-11.8536
戕	-11.8536
濩	-11.8537
儕	-11.8537
枋	-11.8537
溧	-11.854
煑	-11.8541
刦	-11.8542
赱	-11.8543
蹂	-11.8544
昪	-11.8544
踏	-11.8545
聨	-11.8545
賕	-11.8546
遶	-11.8552
鴉	-11.8552
翬	-11.8556
暾	-11.8676
璵	-11.868
淯	-11.8683
􁅊	-11.8685
殳	-11.8688
薇	-11.8689
䍧	-11.869
禖	-11.8691
羑	-11.8693
埸	-11.8696
潯	-11.8698
䔍	-11.8698
遘	-11.8698
墀	-11.8699
顏	-11.8701
悒	-11.8701
汨	-11.8702
丼	-11.8704
頷	-11.8704
璆	-11.8705
炅	-11.8715
濰	-11.8843
劌	-11.8846
蔿	-11.8848
曳	-11.8855
鐔	-11.8857
敺	-11.8857
郾	-11.8858
雇	-11.8859
呪	-11.8861
圯	-11.8861
衿	-11.8863
賽	-11.8863
嗾	-11.8863
摛	-11.8863
様	-11.8864
掎	-11.8864
蹋	-11.8864
賃	-11.8865
蜺	-11.8865
郞	-11.8865
嚚	-11.8865
漲	-11.8866
筦	-11.8869
峰	-11.887
蝦	-11.887
嫚	-11.887
毉	-11.8871
蠅	-11.8871
䂓	-11.8877
聮	-11.8882
刎	-11.9011
悠	-11.9018
鳶	-11.9019
擠	-11.9024
爐	-11.9026
鉛	-11.9027
貰	-11.9028
仄	-11.9029
郫	-11.9029
㦯	-11.903
譟	-11.903
莬	-11.903
犇	-11.9031
尫	-11.9031
喚	-11.9031
湧	-11.9032
鬪	-11.9033
磧	-11.9033
湾	-11.9036
栩	-11.9039
𢋫	-11.9039
沌	-11.9042
鄩	-11.917
嵐	-11.9191
犄	-11.9195
燬	-11.9195
頵	-11.9196
鬢	-11.9197
菲	-11.9197
傒	-11.9197
轢	-11.9199
沫	-11.92
擣	-11.9201
証	-11.9202
騾	-11.9203
穫	-11.9204
茫	-11.9204
峡	-11.9207
沓	-11.921
湮	-11.9211
錬	-11.922
縢	-11.9359
槀	-11.936
蔟	-11.9361
逯	-11.9367
賵	-11.9368
㺯	-11.9368
弈	-11.9369
仭	-11.9369
諠	-11.9369
帙	-11.9369
煇	-11.937
娱	-11.9371
羨	-11.9371
僂	-11.9371
迺	-11.9372
菟	-11.9372
顙	-11.9372
灵	-11.9373
諦	-11.9373
矧	-11.9373
㐲	-11.9373
另	-11.9374
灘	-11.9375
翥	-11.9376
闌	-11.9377
腫	-11.9379
幟	-11.9379
㫤	-11.938
夐	-11.9381
櫛	-11.9381
楮	-11.9387
碣	-11.9513
鞶	-11.9522
鼐	-11.9532
瞞	-11.9532
㳂	-11.9537
偼	-11.9537
泮	-11.9538
郛	-11.9538
隤	-11.9541
泠	-11.9542
漬	-11.9542
嶮	-11.9543
㐫	-11.9543
搴	-11.9544
嚻	-11.9544
怛	-11.9545
壍	-11.9546
蚪	-11.9546
颯	-11.9546
刘	-11.9548
甑	-11.9549
猺	-11.955
鷺	-11.955
飱	-11.9551
陴	-11.9551
卲	-11.9551
緋	-11.9552
氾	-11.9552
遒	-11.9553
憺	-11.9554
𨼆	-11.9557
报	-11.9558
蠭	-11.9558
掉	-11.9561
癰	-11.9702
缶	-11.9713
觚	-11.9714
𤨏	-11.9717
劑	-11.972
匏	-11.972
偓	-11.9724
鰌	-11.9725
郴	-11.9725
昩	-11.9728
嗤	-11.9728
滬	-11.9729
浹	-11.9729
筐	-11.9731
卆	-11.9731
蕚	-11.9731
鸚	-11.9732
扉	-11.9732
綠	-11.9734
鈐	-11.9739
馹	-11.974
滎	-11.9842
鄯	-11.9883
浄	-11.9895
濊	-11.9896
詮	-11.9899
孳	-11.99
崙	-11.99
刹	-11.99
泫	-11.9902
艸	-11.9902
跖	-11.9902
洫	-11.9902
塡	-11.9903
縋	-11.9903
鵞	-11.9903
褰	-11.9904
侏	-11.9904
艶	-11.9905
珮	-11.9905
俳	-11.9907
彞	-11.9909
惮	-11.991
枷	-11.991
芟	-11.9911
婿	-11.9911
蹟	-11.9912
緤	-11.9913
琉	-11.9913
跽	-11.9913
筴	-11.9915
鏃	-11.9915
冺	-11.9915
倕	-11.9916
姨	-11.9916
憒	-11.9917
怵	-11.9921
珙	-11.9926
肖	-12.0023
彝	-12.0066
騮	-12.0071
棐	-12.0079
盻	-12.0079
淸	-12.0083
彜	-12.0084
踣	-12.0085
玦	-12.0086
洸	-12.0088
莋	-12.0088
棒	-12.0088
琅	-12.0089
皁	-12.0089
槁	-12.0091
璇	-12.0092
逕	-12.0092
狷	-12.0093
慠	-12.0094
吊	-12.0094
学	-12.0094
􁄂	-12.0095
刷	-12.0095
壙	-12.0096
鑕	-12.0096
氂	-12.0097
净	-12.0097
暘	-12.01
䁀	-12.0107
璐	-12.0107
鍇	-12.0262
䍐	-12.0265
黁	-12.0268
璡	-12.0273
䆳	-12.0276
窶	-12.0278
逈	-12.0278
眄	-12.0279
菌	-12.0279
茀	-12.0279
顆	-12.028
豸	-12.0281
鍊	-12.0281
煽	-12.0283
釜	-12.0283
侣	-12.0283
畮	-12.0284
拏	-12.0284
迸	-12.0284
翮	-12.0284
贅	-12.0286
掇	-12.0286
祅	-12.0287
邰	-12.0287
礟	-12.0289
晢	-12.029
鍜	-12.0291
薑	-12.0302
蜡	-12.0314
邽	-12.0438
渢	-12.0455
郳	-12.0457
毳	-12.0459
㳫	-12.0464
个	-12.0464
灸	-12.0469
豬	-12.0469
熖	-12.0469
蘿	-12.0469
懟	-12.0473
洺	-12.0474
黽	-12.0474
畯	-12.0476
轘	-12.0476
顕	-12.0477
瘦	-12.0478
儂	-12.0479
㒷	-12.048
寥	-12.048
繢	-12.048
沍	-12.048
螭	-12.0482
咲	-12.0482
珝	-12.0482
笠	-12.0483
倐	-12.0483
秬	-12.0484
墩	-12.0485
杵	-12.0489
諺	-12.0576
柤	-12.0656
蛾	-12.0663
墅	-12.0664
勗	-12.0664
簋	-12.0665
値	-12.0666
哺	-12.0666
靴	-12.0666
嚢	-12.0667
邘	-12.0668
閘	-12.0669
璝	-12.067
鱄	-12.0672
暖	-12.0673
擐	-12.0673
紈	-12.0673
桶	-12.0674
澍	-12.0676
杌	-12.0676
喇	-12.0677
蹴	-12.068
頎	-12.0683
貍	-12.0686
氓	-12.0688
箸	-12.0859
讟	-12.0861
摹	-12.0861
茵	-12.0861
埭	-12.0862
籕	-12.0863
覦	-12.0863
碏	-12.0864
悶	-12.0865
㗖	-12.0866
硯	-12.0866
崤	-12.0868
估	-12.0872
据	-12.0874
詿	-12.0874
邙	-12.0874
琢	-12.0875
耴	-12.0878
难	-12.0879
檝	-12.0879
槍	-12.0885
妘	-12.1053
燉	-12.1061
墊	-12.1068
琚	-12.1068
濙	-12.1068
賾	-12.1068
聪	-12.107
劬	-12.107
凛	-12.107
珏	-12.107
怱	-12.1071
躓	-12.1072
糗	-12.1074
畚	-12.1074
躭	-12.1074
釀	-12.1074
舡	-12.1075
現	-12.1076
幻	-12.1077
蒜	-12.1077
刅	-12.1077
摽	-12.1077
跛	-12.1078
熏	-12.108
罟	-12.108
𨗳	-12.1085
碌	-12.1086
燁	-12.1086
楙	-12.1095
輜	-12.126
蕤	-12.1266
訂	-12.1273
禼	-12.1274
妤	-12.1275
靑	-12.1276
惴	-12.1276
攅	-12.1277
澣	-12.1277
茷	-12.1277
湝	-12.1278
胤	-12.1279
灊	-12.1281
筏	-12.1282
霤	-12.1283
韞	-12.1283
蓽	-12.1284
闻	-12.1284
歜	-12.1285
蟄	-12.1286
拆	-12.1287
寀	-12.1288
煒	-12.1289
覌	-12.1289
栅	-12.1289
徔	-12.1289
芸	-12.1291
拭	-12.1291
肢	-12.1294
舁	-12.1294
讖	-12.1295
毖	-12.1297
港	-12.1297
琥	-12.1309
芊	-12.1475
䢵	-12.1477
鞞	-12.1481
茸	-12.1486
玷	-12.1486
繖	-12.149
蟹	-12.1492
酪	-12.1494
㸔	-12.1494
櫝	-12.1495
凨	-12.1496
徠	-12.1496
鉦	-12.1496
湓	-12.1496
芥	-12.1496
紲	-12.1497
攫	-12.1497
腑	-12.1498
旴	-12.1498
岩	-12.1499
挕	-12.15
瘴	-12.15
䦨	-12.1501
桴	-12.1501
揜	-12.1502
甬	-12.1504
甦	-12.1505
㸑	-12.1506
跗	-12.1518
螽	-12.152
澶	-12.1572
􁋢	-12.1693
煉	-12.1695
瞍	-12.17
臬	-12.1703
欄	-12.1705
煚	-12.1706
韐	-12.1707
腥	-12.1707
線	-12.1709
儵	-12.1709
暅	-12.171
幔	-12.171
鏁	-12.1711
竽	-12.1713
耨	-12.1713
爇	-12.1713
檮	-12.1713
璪	-12.1713
迤	-12.1714
𥿄	-12.1714
纊	-12.1714
滸	-12.1716
叨	-12.1716
拖	-12.1717
凟	-12.1717
尖	-12.1718
叠	-12.1718
嚙	-12.172
緼	-12.1722
螻	-12.1723
􁠷	-12.1732
柰	-12.1896
瀚	-12.1915
簞	-12.1916
遨	-12.1918
戬	-12.1923
鑽	-12.1925
蘖	-12.1925
浟	-12.1926
㰱	-12.193
﨑	-12.1931
膂	-12.1932
幃	-12.1933
璃	-12.1934
腆	-12.1935
墠	-12.1937
賫	-12.1937
竑	-12.1938
恍	-12.1939
啻	-12.194
螟	-12.194
繭	-12.1942
壠	-12.1942
哇	-12.1942
宝	-12.1942
軋	-12.1943
娼	-12.1944
淦	-12.1944
穗	-12.1944
歧	-12.1945
听	-12.1946
鈕	-12.1957
闋	-12.2123
鵒	-12.2145
輈	-12.2145
玖	-12.2147
彄	-12.2149
鶚	-12.2151
适	-12.2152
饘	-12.2152
毌	-12.2153
鄚	-12.2154
郪	-12.2155
蟣	-12.2155
踴	-12.2155
漙	-12.2156
虱	-12.2156
䜿	-12.2156
閗	-12.2157
慴	-12.2157
陲	-12.2158
麈	-12.2158
棼	-12.2159
榦	-12.216
鏑	-12.2161
啄	-12.2164
㝡	-12.2164
嘱	-12.2164
囷	-12.2166
襁	-12.2167
猖	-12.2168
酢	-12.2168
棱	-12.2168
猫	-12.2169
埃	-12.2169
贛	-12.2172
愀	-12.2172
觔	-12.2173
硤	-12.2175
乕	-12.2181
軿	-12.2363
貜	-12.2382
眺	-12.2383
僥	-12.2383
薈	-12.2385
儷	-12.2386
裾	-12.2388
岫	-12.2389
玫	-12.2389
掣	-12.2392
嗔	-12.2392
淆	-12.2392
沭	-12.2393
箧	-12.2393
燃	-12.2393
捲	-12.2394
塜	-12.2394
庄	-12.2394
螺	-12.2395
綈	-12.2397
皦	-12.2397
孱	-12.2397
諝	-12.2397
隃	-12.2398
矍	-12.2398
譔	-12.2398
苕	-12.2398
緦	-12.24
吃	-12.2401
楛	-12.2401
亱	-12.2401
偈	-12.2402
熒	-12.2403
爌	-12.2403
昃	-12.2403
諄	-12.2403
韭	-12.2404
脾	-12.2406
悆	-12.2407
峪	-12.2408
軟	-12.2411
蘊	-12.2412
攵	-12.2416
鸜	-12.2616
劄	-12.262
滏	-12.2621
娑	-12.2622
瓢	-12.2624
琕	-12.2628
遹	-12.2629
瑪	-12.2629
閧	-12.2629
荻	-12.2631
吮	-12.2631
烱	-12.2632
犖	-12.2633
搤	-12.2633
咒	-12.2633
扎	-12.2634
糲	-12.2635
昞	-12.2636
蕘	-12.2637
篾	-12.2637
懣	-12.2638
焼	-12.2638
磯	-12.264
斁	-12.264
葅	-12.2641
綉	-12.2641
弥	-12.2641
峨	-12.2643
衽	-12.2643
份	-12.2648
蹷	-12.2649
溲	-12.2662
町	-12.2862
厦	-12.2869
隼	-12.2869
厘	-12.2871
讁	-12.2871
唁	-12.2873
洿	-12.2873
捃	-12.2874
跂	-12.2877
蕢	-12.2877
狭	-12.2877
㩁	-12.2877
螳	-12.2878
痺	-12.2878
洹	-12.2878
窳	-12.2881
䄠	-12.2881
丧	-12.2882
歊	-12.2883
􁀊	-12.2883
凑	-12.2884
夤	-12.2885
汔	-12.289
慬	-12.2896
嚕	-12.3115
筩	-12.3115
默	-12.3117
躒	-12.3117
匐	-12.3117
陥	-12.3121
侁	-12.3122
堦	-12.3123
柞	-12.3123
駼	-12.3124
刧	-12.3124
鄘	-12.3125
茭	-12.3125
縹	-12.3125
鍪	-12.3125
汀	-12.3126
纛	-12.3126
鄞	-12.3127
舩	-12.3129
撿	-12.3131
蕙	-12.3131
靁	-12.3132
藐	-12.3132
刮	-12.3132
瀝	-12.3132
醪	-12.3134
咏	-12.3135
屛	-12.314
躄	-12.3155
釵	-12.3359
鐃	-12.3361
莆	-12.3365
轝	-12.337
掊	-12.3373
娯	-12.3375
苫	-12.3377
褶	-12.3377
鐇	-12.3377
繯	-12.3378
灣	-12.3378
騂	-12.3379
戹	-12.3379
酎	-12.338
穡	-12.338
酇	-12.338
罘	-12.338
搶	-12.3381
𣢾	-12.3382
棫	-12.3382
饕	-12.3383
歉	-12.3384
漯	-12.3384
訃	-12.3384
觜	-12.3384
牾	-12.3385
遄	-12.3387
脆	-12.3388
櫃	-12.3389
飼	-12.3389
屣	-12.339
撮	-12.339
憇	-12.3391
荗	-12.3391
灤	-12.3391
嶸	-12.3393
厓	-12.3395
鱉	-12.3397
宷	-12.3406
鄅	-12.3627
喋	-12.3627
銍	-12.3627
馛	-12.363
廧	-12.3631
冇	-12.3631
嗚	-12.3633
萱	-12.3634
菊	-12.3636
縡	-12.3637
旐	-12.3638
墉	-12.3639
晊	-12.3639
琯	-12.364
啗	-12.364
彷	-12.3643
蛤	-12.3644
鎛	-12.3644
悁	-12.3645
会	-12.3647
磊	-12.3648
蝨	-12.3648
喝	-12.3649
縵	-12.365
阸	-12.365
曙	-12.3651
讋	-12.3651
陔	-12.3652
牓	-12.3653
祸	-12.3654
鐫	-12.3655
敳	-12.3657
戅	-12.3657
棋	-12.3659
佻	-12.3662
鑪	-12.3664
侄	-12.3678
霆	-12.3714
犍	-12.3786
𥅆	-12.3896
堇	-12.3902
憕	-12.3904
炮	-12.3904
盼	-12.3906
迓	-12.3906
犛	-12.3906
珧	-12.3908
賭	-12.3908
盩	-12.391
倅	-12.3912
紬	-12.3913
礙	-12.3913
頺	-12.3913
粧	-12.3914
佼	-12.3915
祲	-12.3915
眭	-12.3915
妲	-12.3915
堠	-12.3916
屩	-12.3916
緊	-12.3918
軄	-12.3918
毀	-12.3919
賖	-12.392
瑭	-12.392
鯨	-12.3921
萼	-12.3922
豷	-12.3924
凾	-12.3926
蒺	-12.3926
鷂	-12.3927
彚	-12.3927
誹	-12.3927
榷	-12.3927
漦	-12.3927
捫	-12.3927
皿	-12.3929
濂	-12.393
嫄	-12.3933
蹲	-12.3936
簧	-12.3937
苓	-12.3943
栽	-12.4182
恫	-12.4184
澠	-12.4184
匽	-12.4185
拿	-12.4185
蠢	-12.4187
鶩	-12.4187
諏	-12.4189
獬	-12.419
筝	-12.419
旤	-12.419
惨	-12.419
毬	-12.4191
滹	-12.4191
酹	-12.4191
迯	-12.4192
糒	-12.4193
闍	-12.4193
糊	-12.4196
𣪚	-12.4196
窕	-12.4196
淀	-12.4197
僰	-12.4198
傋	-12.4198
删	-12.4198
儺	-12.4199
迕	-12.42
鬛	-12.42
嘷	-12.4201
卉	-12.4201
届	-12.4202
臚	-12.4203
麑	-12.4205
嚼	-12.4205
氍	-12.4205
蓉	-12.4205
丰	-12.4206
蠋	-12.4206
鑚	-12.4208
瞳	-12.4208
醸	-12.4213
鼉	-12.4213
巂	-12.4464
𡨕	-12.4467
灞	-12.4468
籖	-12.4468
勍	-12.447
淝	-12.4471
鄾	-12.4472
飮	-12.4472
剌	-12.4474
筍	-12.4474
俻	-12.4475
<	-12.4475
蚌	-12.4476
睫	-12.4476
t	-12.4477
哂	-12.4479
騊	-12.4479
濞	-12.448
戇	-12.448
摴	-12.4481
笈	-12.4482
蹊	-12.4482
穣	-12.4482
悳	-12.4482
􁂠	-12.4482
衎	-12.4483
㳙	-12.4484
袐	-12.4484
檦	-12.4485
狙	-12.4488
髭	-12.4491
薁	-12.4491
訏	-12.4491
嗷	-12.4492
鏊	-12.4497
簠	-12.4497
梏	-12.4498
杓	-12.4498
嘔	-12.4499
禜	-12.45
塤	-12.4507
僦	-12.4759
蚝	-12.476
賨	-12.4765
橈	-12.4765
惎	-12.4765
开	-12.4766
狁	-12.4766
珊	-12.4768
虫	-12.4771
禫	-12.4773
壟	-12.4773
仚	-12.4775
麦	-12.4777
􁇢	-12.4779
餔	-12.4779
簀	-12.4779
嶇	-12.478
麄	-12.478
枵	-12.478
嘖	-12.478
址	-12.4781
鸇	-12.4782
巔	-12.4782
麽	-12.4782
气	-12.4783
熨	-12.4785
无	-12.4788
陿	-12.4792
𣆀	-12.5059
笳	-12.5061
嫣	-12.5061
揄	-12.5067
璹	-12.5068
芷	-12.5069
蚩	-12.5069
筯	-12.5069
吻	-12.5074
埓	-12.5074
禿	-12.5074
㬌	-12.5074
矰	-12.5074
泇	-12.5075
窈	-12.5075
裦	-12.5076
覡	-12.5076
瞀	-12.5076
庳	-12.5076
孑	-12.5076
虡	-12.5077
廱	-12.5078
瘤	-12.5078
驄	-12.5078
欹	-12.5078
喫	-12.5078
閥	-12.5079
疚	-12.5079
濼	-12.5079
茗	-12.508
萄	-12.5083
緍	-12.5083
眊	-12.5083
俈	-12.5083
傴	-12.5083
傖	-12.5083
帆	-12.5085
怕	-12.5086
瘧	-12.5087
扑	-12.5087
衒	-12.5087
縈	-12.5088
膾	-12.5088
崛	-12.5089
涘	-12.5089
􁇧	-12.509
娃	-12.509
鼃	-12.509
媍	-12.5091
獺	-12.5091
麞	-12.5096
矌	-12.5129
褾	-12.5349
撙	-12.5369
垍	-12.5374
疢	-12.5376
鵰	-12.5377
鯈	-12.5379
焜	-12.5379
驊	-12.538
紕	-12.5381
咱	-12.5383
湔	-12.5383
抹	-12.5383
羇	-12.5383
桷	-12.5384
鐙	-12.5387
莎	-12.5387
遫	-12.5387
靄	-12.5388
庀	-12.5389
縲	-12.5389
螫	-12.5389
閈	-12.5389
醯	-12.539
鏐	-12.539
瞰	-12.539
樅	-12.5391
醖	-12.5392
靷	-12.5392
䲭	-12.5392
哽	-12.5393
穽	-12.5393
瑯	-12.5393
拽	-12.5393
祊	-12.5394
饜	-12.5395
喈	-12.5395
奩	-12.5396
刲	-12.5401
塾	-12.5402
杰	-12.5405
壕	-12.5407
崱	-12.5408
瞎	-12.5412
珎	-12.5689
虒	-12.5698
泳	-12.5698
綖	-12.5698
棻	-12.57
𤯝	-12.57
澳	-12.5703
摎	-12.5703
邗	-12.5705
碻	-12.5705
嫠	-12.5705
磝	-12.5705
匍	-12.5709
辮	-12.571
躝	-12.571
蓆	-12.5711
𩔖	-12.5712
巗	-12.5712
簟	-12.5712
牴	-12.5713
郏	-12.5714
恧	-12.5715
惚	-12.5715
詒	-12.5717
臝	-12.5717
徯	-12.5717
蚊	-12.5719
间	-12.5719
廿	-12.572
傀	-12.5722
痼	-12.5722
侫	-12.5722
䟱	-12.5722
忩	-12.5724
𥪡	-12.5724
䘖	-12.5725
胆	-12.5725
䑛	-12.5725
斮	-12.5726
柝	-12.5727
瑰	-12.5727
諉	-12.5727
澡	-12.573
瑨	-12.573
珀	-12.5752
湣	-12.5892
闐	-12.5987
甗	-12.5994
卣	-12.5995
翜	-12.5997
鍚	-12.6008
耏	-12.6019
紼	-12.6023
憊	-12.6024
媫	-12.6028
炯	-12.6029
麝	-12.6031
媮	-12.6032
术	-12.6032
踪	-12.6033
卨	-12.6035
肓	-12.6036
叵	-12.6037
驃	-12.6038
囑	-12.6039
拄	-12.604
欷	-12.6041
攣	-12.6041
旟	-12.6041
痍	-12.6041
襜	-12.6042
絕	-12.6042
皞	-12.6043
獷	-12.6043
箎	-12.6043
芋	-12.6043
閟	-12.6044
崗	-12.6044
簇	-12.6045
栒	-12.6045
霓	-12.6046
莚	-12.6046
𤦺	-12.6046
蕞	-12.6047
澥	-12.6048
槌	-12.6048
癃	-12.6049
𫐠	-12.605
焱	-12.6051
芙	-12.6051
萍	-12.6051
稲	-12.6052
歃	-12.6052
獅	-12.6052
喆	-12.6052
薙	-12.6052
诸	-12.6055
頁	-12.6063
鍵	-12.6066
軛	-12.637
瘖	-12.6371
檐	-12.6374
坻	-12.6374
韍	-12.6375
芹	-12.6376
偘	-12.6377
囙	-12.6378
妒	-12.638
澨	-12.6382
閿	-12.6382
襚	-12.6382
澁	-12.6382
髣	-12.6384
嵊	-12.6384
𦕈	-12.6385
湍	-12.6386
尨	-12.6387
膓	-12.6387
溜	-12.6387
揉	-12.6388
夥	-12.6389
柷	-12.6389
螂	-12.6389
坪	-12.639
霾	-12.6392
腴	-12.6393
捋	-12.6394
剏	-12.6395
僨	-12.6395
懔	-12.6395
𬞞	-12.6396
棓	-12.6396
憸	-12.6398
肋	-12.6398
趺	-12.6399
橚	-12.6399
肰	-12.64
窒	-12.6401
襖	-12.6401
厪	-12.6402
踧	-12.6403
櫜	-12.6405
鰥	-12.641
哱	-12.6412
蹌	-12.6417
囤	-12.6422
攽	-12.6721
闟	-12.6725
彡	-12.6727
磾	-12.6729
笮	-12.673
薤	-12.6731
㚟	-12.6732
亜	-12.6734
騅	-12.6735
醳	-12.6737
矇	-12.6737
萎	-12.6738
滉	-12.6738
璀	-12.6743
扯	-12.6743
詗	-12.6744
撼	-12.6744
儛	-12.6745
蕕	-12.6745
忒	-12.6747
橞	-12.6748
柸	-12.6749
忸	-12.6749
蓨	-12.6749
晤	-12.6751
蔭	-12.6752
垠	-12.6752
鼗	-12.6753
靂	-12.6755
盭	-12.6755
暝	-12.6755
椹	-12.6755
埜	-12.6756
埨	-12.6757
誾	-12.6757
蝮	-12.6758
観	-12.6758
榔	-12.6759
塚	-12.6759
迁	-12.6761
酔	-12.6762
癲	-12.6764
榑	-12.6767
虙	-12.6767
佖	-12.6772
墡	-12.6776
猩	-12.7083
鋐	-12.7096
翌	-12.7099
悺	-12.71
騩	-12.7103
厖	-12.7104
痕	-12.7105
撣	-12.7105
噶	-12.7106
薺	-12.7107
眸	-12.7108
痩	-12.7108
燠	-12.7109
鷩	-12.7109
儈	-12.711
簴	-12.711
杠	-12.711
仡	-12.7111
剗	-12.7111
髴	-12.7112
殻	-12.7113
緌	-12.7113
㢮	-12.7113
踦	-12.7114
抒	-12.7114
銚	-12.7114
昝	-12.7116
扺	-12.7116
箜	-12.7116
噎	-12.7116
㴶	-12.7116
芰	-12.7116
邶	-12.7116
晰	-12.7117
饉	-12.7117
檇	-12.7117
餮	-12.7117
焯	-12.7117
臍	-12.7117
喘	-12.7118
翽	-12.7118
嗛	-12.7119
佇	-12.712
贜	-12.712
恁	-12.7121
棃	-12.7123
鐶	-12.7124
瀍	-12.7125
茄	-12.7125
􁂜	-12.7125
喃	-12.7127
鱣	-12.7127
双	-12.7128
螘	-12.713
搢	-12.7131
晴	-12.7137
貼	-12.7138
菅	-12.714
􁱝	-12.7141
画	-12.715
噍	-12.7172
韈	-12.748
缻	-12.7481
頍	-12.7482
旧	-12.7484
筒	-12.7485
漾	-12.7486
媳	-12.7487
嶢	-12.7489
貃	-12.7489
鮭	-12.7489
箐	-12.749
碓	-12.7492
憖	-12.7493
籲	-12.7493
佺	-12.7494
氈	-12.7494
襯	-12.7495
絫	-12.7495
佷	-12.7496
儐	-12.7496
窆	-12.7497
􁅳	-12.7497
煨	-12.7498
嚈	-12.7499
鄪	-12.7499
疥	-12.75
畦	-12.75
艷	-12.75
獮	-12.7501
綯	-12.7501
苹	-12.7502
漚	-12.7502
桁	-12.7502
娀	-12.7502
賙	-12.7503
剸	-12.7503
甓	-12.7503
滴	-12.7505
涙	-12.7505
透	-12.7505
鄼	-12.7506
莠	-12.7506
憮	-12.7507
揔	-12.7507
瑊	-12.7507
鄷	-12.7507
榱	-12.7508
鸛	-12.751
揀	-12.751
廾	-12.7511
䦧	-12.7511
蜩	-12.7512
礫	-12.7513
棹	-12.7514
噤	-12.7515
樟	-12.7517
涵	-12.7517
肈	-12.7517
梳	-12.7518
杅	-12.7519
瀾	-12.752
猨	-12.7526
权	-12.7529
楧	-12.7536
䥖	-12.7858
琡	-12.7875
嶲	-12.7884
䢴	-12.7885
鍤	-12.7885
浡	-12.7888
侖	-12.7889
鄟	-12.7892
畛	-12.7892
鮫	-12.7893
蕉	-12.7894
懃	-12.7896
榴	-12.7896
瑑	-12.7896
扳	-12.7897
篌	-12.7897
仿	-12.7897
埤	-12.7897
您	-12.7898
倮	-12.7898
嬌	-12.7899
趯	-12.7899
翖	-12.79
剴	-12.7901
淞	-12.7901
諲	-12.7902
焬	-12.7902
隩	-12.7902
艫	-12.7904
蝉	-12.7904
揑	-12.7906
咤	-12.7906
潄	-12.7906
譌	-12.7908
㮣	-12.7909
墯	-12.7909
酗	-12.791
羹	-12.791
裭	-12.7911
㪍	-12.7911
扄	-12.7912
楓	-12.7912
甪	-12.7912
泆	-12.7912
憬	-12.7912
帚	-12.7913
內	-12.7913
尠	-12.7913
閾	-12.7914
胔	-12.7914
彀	-12.7914
愞	-12.7914
歘	-12.7915
掻	-12.7916
柚	-12.7916
抶	-12.7917
薏	-12.7918
甡	-12.7918
恰	-12.7918
綟	-12.7918
恡	-12.7921
㸅	-12.7923
蕐	-12.7925
姤	-12.7929
菱	-12.7929
鯢	-12.7939
蜋	-12.7954
宀	-12.8279
眅	-12.8295
縚	-12.8297
阡	-12.83
菰	-12.8302
荏	-12.8304
佔	-12.8305
睂	-12.8308
紋	-12.8308
趫	-12.8309
鴞	-12.8309
趕	-12.831
痿	-12.831
峩	-12.8311
岢	-12.8313
敔	-12.8314
䭾	-12.8314
嬙	-12.8314
棚	-12.8315
楶	-12.8316
軏	-12.8317
坫	-12.8317
魑	-12.8318
嶼	-12.8318
偦	-12.8318
菩	-12.8319
伾	-12.8319
㢸	-12.8319
脰	-12.8319
寿	-12.832
𣲖	-12.832
暌	-12.8322
㕠	-12.8322
狶	-12.8323
跼	-12.8323
忖	-12.8323
沬	-12.8323
㪷	-12.8323
罍	-12.8323
憝	-12.8324
嶧	-12.8325
终	-12.8326
语	-12.8327
徨	-12.8327
跱	-12.8327
醬	-12.8328
􁒭	-12.8328
庲	-12.8329
捄	-12.8329
鍰	-12.8329
胊	-12.8329
窖	-12.833
婪	-12.833
纚	-12.8331
窹	-12.8334
繄	-12.8335
愜	-12.8339
悮	-12.834
麃	-12.8342
􁔨	-12.8365
扛	-12.8721
嵒	-12.8723
豭	-12.8723
漷	-12.873
莞	-12.8732
蠒	-12.8735
翣	-12.8736
蓂	-12.8736
憗	-12.8737
欎	-12.8738
宙	-12.8738
溼	-12.8739
灝	-12.8739
歂	-12.8739
窄	-12.874
袋	-12.874
牱	-12.8741
梲	-12.8742
揩	-12.8743
鳸	-12.8744
臿	-12.8744
辤	-12.8746
蜃	-12.8747
爝	-12.8747
碍	-12.8749
曆	-12.875
仝	-12.8751
傚	-12.8751
𢷬	-12.8751
滓	-12.8751
渤	-12.8751
儇	-12.8751
玳	-12.8752
竢	-12.8753
鷰	-12.8753
㕓	-12.8753
褫	-12.8753
楩	-12.8754
藳	-12.8755
囏	-12.8756
磚	-12.8756
释	-12.8756
娉	-12.8757
抛	-12.8757
熸	-12.8758
濃	-12.8758
梃	-12.8758
咋	-12.8758
怳	-12.8759
剿	-12.8759
莪	-12.8759
絙	-12.8759
睥	-12.876
蔗	-12.876
獫	-12.876
塑	-12.8761
臀	-12.8761
髹	-12.8762
婣	-12.8763
楠	-12.8764
眎	-12.8764
腎	-12.8765
蛆	-12.8766
俁	-12.8766
􁐨	-12.8767
蹵	-12.877
塌	-12.877
魔	-12.8771
㴻	-12.8775
烷	-12.8778
逭	-12.878
籛	-12.9186
筌	-12.9188
磑	-12.9189
輗	-12.9189
堉	-12.9191
傘	-12.9192
蠕	-12.9192
攴	-12.9194
鵶	-12.9195
剃	-12.9195
壝	-12.9196
扃	-12.9197
錞	-12.9198
喀	-12.9199
祻	-12.92
隹	-12.9201
掬	-12.9201
靦	-12.9201
坌	-12.9203
􁊞	-12.9205
曦	-12.9206
楞	-12.9206
詖	-12.9206
唃	-12.9207
𥚹	-12.9207
溯	-12.9207
椀	-12.9207
衲	-12.9207
峝	-12.9209
蝎	-12.9209
堊	-12.9209
势	-12.921
恇	-12.921
齓	-12.921
罩	-12.9211
倀	-12.9212
沲	-12.9212
𣅿	-12.9212
葷	-12.9213
䆠	-12.9213
惆	-12.9214
呻	-12.9214
壚	-12.9215
舳	-12.9215
顱	-12.9215
㯽	-12.9216
蹔	-12.9216
忳	-12.9217
廌	-12.9218
窬	-12.9218
洶	-12.9218
爍	-12.9219
鷇	-12.9219
爺	-12.922
阁	-12.922
襪	-12.922
噴	-12.922
餚	-12.922
扜	-12.9221
蹉	-12.9221
偲	-12.9223
麕	-12.9224
苡	-12.9224
嵎	-12.9225
姝	-12.923
蟆	-12.923
竆	-12.923
娟	-12.9231
爟	-12.9235
檉	-12.9236
蜴	-12.9238
熛	-12.9244
觥	-12.9651
溴	-12.9654
洼	-12.9655
站	-12.9657
鄬	-12.9657
耉	-12.9662
鏌	-12.9664
嶓	-12.9667
賠	-12.9667
窩	-12.9668
閡	-12.9668
鼬	-12.9669
窻	-12.9673
插	-12.9673
麫	-12.9674
訝	-12.9675
鄋	-12.9675
淅	-12.9676
黟	-12.9676
􁇨	-12.9676
姣	-12.9677
濺	-12.9677
雊	-12.9678
槽	-12.9678
喑	-12.9678
慆	-12.9678
𤇺	-12.9678
斶	-12.9678
唶	-12.9679
􁂷	-12.968
晧	-12.968
姧	-12.968
橡	-12.9681
咈	-12.9683
蚕	-12.9684
虨	-12.9684
澘	-12.9684
哆	-12.9684
蕡	-12.9685
剰	-12.9685
媧	-12.9685
箒	-12.9685
蒭	-12.9685
聯	-12.9686
臶	-12.9686
鮓	-12.9687
飈	-12.9687
禨	-12.9689
煞	-12.969
边	-12.969
耑	-12.969
姙	-12.9691
褧	-12.9691
蹯	-12.9692
簷	-12.9693
媟	-12.9693
搥	-12.9693
垓	-12.9694
忮	-12.9694
渺	-12.9694
鈿	-12.9694
鴛	-12.9695
壐	-12.9695
駹	-12.9696
遅	-12.9696
藕	-12.9697
匀	-12.97
鞋	-12.9701
櫂	-12.9701
呐	-12.9703
鰲	-12.9704
鶂	-12.9704
蹠	-12.9708
禊	-13.0146
觶	-13.0149
烜	-13.015
􁂫	-13.0162
灶	-13.0169
癉	-13.017
玁	-13.017
躐	-13.017
郠	-13.017
鮦	-13.0171
痾	-13.0172
粳	-13.0175
絓	-13.0175
鄳	-13.0175
幬	-13.0177
奡	-13.0178
㫋	-13.0178
苾	-13.0178
瀨	-13.0179
秫	-13.0179
佽	-13.0179
瀏	-13.018
怏	-13.018
蓻	-13.0181
蟇	-13.0181
駃	-13.0181
珌	-13.0181
蜮	-13.0181
霣	-13.0182
藎	-13.0183
秤	-13.0183
黧	-13.0183
挐	-13.0183
樛	-13.0183
蠃	-13.0183
𬒮	-13.0183
尢	-13.0184
漼	-13.0184
匭	-13.0185
檣	-13.0185
惙	-13.0186
経	-13.0186
饟	-13.0186
褎	-13.0187
瀬	-13.0187
頲	-13.0188
腊	-13.0188
郲	-13.0189
梭	-13.0189
砮	-13.0189
騃	-13.0189
惏	-13.019
舋	-13.019
昀	-13.0191
誖	-13.0191
梢	-13.0191
羝	-13.0192
寞	-13.0192
凄	-13.0192
罝	-13.0193
縯	-13.0193
葑	-13.0194
􁍇	-13.0194
剉	-13.0194
燄	-13.0195
晹	-13.0195
褏	-13.0195
婭	-13.0195
鄏	-13.0195
宁	-13.0196
窓	-13.0196
煤	-13.0197
醤	-13.0197
荃	-13.0197
踖	-13.0198
栻	-13.0199
踉	-13.0199
􁈍	-13.02
澎	-13.0201
枸	-13.0201
撟	-13.0203
鷁	-13.0204
蔞	-13.0206
黌	-13.0207
瓆	-13.021
厷	-13.021
譆	-13.0211
匜	-13.0636
邿	-13.0685
泐	-13.0686
黛	-13.0692
眕	-13.0693
离	-13.0693
苧	-13.0693
㶏	-13.0694
鵾	-13.0694
譓	-13.0694
𢃄	-13.0694
㷀	-13.0695
哷	-13.0696
荧	-13.0696
箝	-13.0698
翎	-13.0699
眴	-13.0699
垜	-13.07
榕	-13.0701
鋗	-13.0701
頟	-13.0702
厔	-13.0703
匙	-13.0703
躊	-13.0704
擘	-13.0704
咀	-13.0704
砭	-13.0704
鞾	-13.0704
雑	-13.0704
輾	-13.0705
惛	-13.0705
戞	-13.0705
臊	-13.0705
鐺	-13.0706
芽	-13.0706
稗	-13.0707
龑	-13.0708
蹐	-13.0709
甿	-13.071
箏	-13.071
鋌	-13.0711
脤	-13.0711
瘼	-13.0711
褕	-13.0712
蛭	-13.0712
􁈊	-13.0713
婕	-13.0713
粃	-13.0713
妊	-13.0714
釧	-13.0714
砍	-13.0715
蘋	-13.0715
吭	-13.0715
还	-13.0715
灃	-13.0715
潏	-13.0716
鋋	-13.0716
觖	-13.0716
旍	-13.0717
凃	-13.0717
儗	-13.0717
胞	-13.0718
翀	-13.0718
慊	-13.0718
咳	-13.0719
哦	-13.0719
秪	-13.0719
懶	-13.0719
鈹	-13.072
杷	-13.0721
问	-13.0721
屹	-13.0722
睛	-13.0722
垕	-13.0723
獪	-13.0724
訿	-13.0724
涎	-13.0724
桒	-13.0724
絁	-13.0725
澇	-13.0726
溟	-13.0726
嘨	-13.0726
蟒	-13.0726
斈	-13.0727
猱	-13.0729
焰	-13.0729
梱	-13.0731
鄡	-13.0731
棍	-13.0733
䄍	-13.0734
鑱	-13.0736
冂	-13.1234
飂	-13.1244
旛	-13.1245
𥜗	-13.1246
臞	-13.1248
悄	-13.1248
鍭	-13.125
崞	-13.1253
慍	-13.1254
箾	-13.1254
謏	-13.1255
済	-13.1255
祛	-13.1255
满	-13.1255
汋	-13.1255
濘	-13.1256
䞇	-13.1257
魃	-13.1258
埿	-13.1258
㭬	-13.1259
娄	-13.126
焞	-13.126
濆	-13.1261
騄	-13.1261
蘩	-13.1262
𬗟	-13.1263
淤	-13.1263
寠	-13.1263
簏	-13.1263
懴	-13.1263
邡	-13.1264
獞	-13.1267
帔	-13.1267
蛸	-13.1268
淘	-13.1268
崢	-13.1268
瘥	-13.1269
腓	-13.1269
癭	-13.127
宧	-13.127
硬	-13.127
悃	-13.127
禡	-13.1271
嫓	-13.1271
吼	-13.1273
茈	-13.1273
欬	-13.1274
幵	-13.1274
劈	-13.1274
瀀	-13.1276
瀉	-13.1276
頫	-13.1276
杪	-13.1277
汛	-13.1277
澌	-13.1277
攖	-13.1277
聫	-13.1279
啚	-13.1279
暎	-13.128
黝	-13.1281
敲	-13.1282
􁲍	-13.1282
鋏	-13.1282
猘	-13.1282
㑺	-13.1282
躅	-13.1285
瞋	-13.1287
犴	-13.1287
糅	-13.1288
愾	-13.1288
蜓	-13.129
响	-13.129
熺	-13.129
猊	-13.1292
砫	-13.1294
灋	-13.1295
琁	-13.1297
詼	-13.1298
蠖	-13.13
櫻	-13.1304
睔	-13.1823
儦	-13.1823
頔	-13.1826
闸	-13.1827
􁥌	-13.1829
罌	-13.1829
瞫	-13.1832
腯	-13.1835
丨	-13.1835
忙	-13.1837
簣	-13.1837
夂	-13.1838
謩	-13.1838
騧	-13.184
雱	-13.184
漑	-13.1841
迩	-13.1843
蛙	-13.1844
􁔱	-13.1845
瑚	-13.1845
膰	-13.1845
諗	-13.1845
龠	-13.1845
劊	-13.1846
盞	-13.1846
柎	-13.1847
磻	-13.1847
泜	-13.1847
妍	-13.1848
鄲	-13.1849
栲	-13.1849
􁲃	-13.185
猇	-13.185
賡	-13.1851
晶	-13.1851
曅	-13.1851
惬	-13.1851
飰	-13.1851
黏	-13.1851
偫	-13.1851
甖	-13.1852
蚋	-13.1852
尒	-13.1853
鷃	-13.1853
糯	-13.1854
劝	-13.1854
歠	-13.1854
髑	-13.1854
錙	-13.1855
㒒	-13.1855
芾	-13.1856
瞬	-13.1857
独	-13.1857
豉	-13.1857
蓴	-13.1858
呶	-13.1858
筲	-13.1858
藟	-13.186
鍔	-13.1861
餧	-13.1861
荳	-13.1862
嚬	-13.1863
椅	-13.1863
鄺	-13.1863
飡	-13.1863
愒	-13.1864
蝸	-13.1864
徉	-13.1864
巏	-13.1865
􁒐	-13.1865
眥	-13.1865
卄	-13.1865
猳	-13.1866
应	-13.1866
枲	-13.1866
肻	-13.1866
􁌲	-13.1866
睠	-13.1866
衊	-13.1867
鼙	-13.1867
耋	-13.1867
漓	-13.1867
啞	-13.1867
饔	-13.1867
蝟	-13.1868
骼	-13.1868
实	-13.1868
蟾	-13.1869
韃	-13.187
粘	-13.187
旉	-13.187
圡	-13.187
摺	-13.1871
籟	-13.1872
週	-13.1872
癖	-13.1873
郥	-13.1874
鍋	-13.1875
烺	-13.1875
膊	-13.1875
杆	-13.188
茯	-13.1915
鄍	-13.244
轓	-13.2442
姆	-13.2447
䊸	-13.2449
萑	-13.245
兜	-13.2455
棁	-13.2457
奍	-13.2458
𧖟	-13.246
畸	-13.2462
籀	-13.2465
橦	-13.2466
玢	-13.2466
幍	-13.2466
茌	-13.2466
甾	-13.2467
鬴	-13.2468
聒	-13.247
溳	-13.2471
蠹	-13.2471
罇	-13.2471
塼	-13.2473
萯	-13.2473
㷊	-13.2473
䐗	-13.2473
􁇚	-13.2474
斋	-13.2474
攢	-13.2476
洄	-13.2476
簸	-13.2478
躔	-13.2478
竸	-13.2478
瀹	-13.2478
楸	-13.2478
馗	-13.2479
廋	-13.2479
怍	-13.2479
蜒	-13.2479
棖	-13.2479
麵	-13.248
澈	-13.248
畹	-13.248
謄	-13.248
蔀	-13.248
銃	-13.2481
啁	-13.2481
琿	-13.2482
盬	-13.2482
厩	-13.2482
㶚	-13.2482
逥	-13.2482
褌	-13.2483
带	-13.2483
騠	-13.2483
轜	-13.2484
悊	-13.2484
鎸	-13.2485
吒	-13.2485
駸	-13.2485
舖	-13.2485
頬	-13.2485
㬭	-13.2486
蔕	-13.2486
􁌆	-13.2486
鄃	-13.2486
瘐	-13.2487
螢	-13.2487
桔	-13.2487
蕳	-13.2487
薮	-13.2487
榼	-13.2489
翛	-13.2489
締	-13.2489
珫	-13.2489
肫	-13.2489
瑺	-13.2489
淋	-13.249
権	-13.2491
孀	-13.2491
牣	-13.2492
牗	-13.2493
檟	-13.2494
曖	-13.2495
廛	-13.2495
齪	-13.2496
鴿	-13.2496
餬	-13.2496
蜻	-13.2498
摸	-13.2498
篚	-13.2499
鱓	-13.2502
鑨	-13.2504
裼	-13.2504
棡	-13.2504
銕	-13.2505
儘	-13.2505
帕	-13.2507
蚓	-13.2531
銮	-13.3099
䣙	-13.311
傉	-13.3111
菆	-13.3117
尙	-13.3119
絻	-13.3119
眙	-13.312
燀	-13.3124
躇	-13.3125
帢	-13.3126
玭	-13.3126
噩	-13.3128
滙	-13.3128
荂	-13.313
袷	-13.3131
諼	-13.3131
咢	-13.3132
礱	-13.3135
琹	-13.3135
壎	-13.3137
嬀	-13.3137
膴	-13.3137
瑙	-13.3138
瘉	-13.3138
娵	-13.3138
慇	-13.3138
栝	-13.3138
絆	-13.3138
旡	-13.3139
㟁	-13.314
矚	-13.314
鉶	-13.314
鄎	-13.314
漊	-13.314
㢲	-13.3141
瑠	-13.3141
券	-13.3142
芘	-13.3142
綢	-13.3143
稾	-13.3144
朘	-13.3144
駵	-13.3144
眤	-13.3144
籃	-13.3145
柿	-13.3145
桉	-13.3145
紉	-13.3146
噂	-13.3146
搔	-13.3146
佶	-13.3147
薜	-13.3147
聆	-13.3147
疹	-13.3148
廥	-13.3148
禚	-13.3148
徕	-13.3148
僃	-13.3148
葩	-13.3148
磋	-13.3149
灅	-13.3149
獗	-13.3149
齔	-13.3149
攔	-13.315
秔	-13.315
珦	-13.315
䪫	-13.315
鞀	-13.315
𧦬	-13.315
俑	-13.315
踔	-13.3151
玹	-13.3152
㢠	-13.3152
寬	-13.3152
噓	-13.3152
浃	-13.3153
瓴	-13.3153
螯	-13.3153
礬	-13.3154
蠎	-13.3154
呴	-13.3154
蓯	-13.3155
罅	-13.3155
岔	-13.3155
綆	-13.3155
婧	-13.3156
慥	-13.3156
劼	-13.3157
睆	-13.3157
祍	-13.3157
﨣	-13.3158
曝	-13.3159
敫	-13.3159
殚	-13.3159
藋	-13.3159
貔	-13.3159
鍛	-13.3159
䖝	-13.3159
淶	-13.316
髫	-13.3161
倧	-13.3161
硃	-13.3161
惺	-13.3163
邅	-13.3163
惹	-13.3163
禠	-13.3164
飜	-13.3164
􁗉	-13.3165
璯	-13.3167
堨	-13.3167
熄	-13.3167
䂖	-13.3168
晻	-13.3172
疈	-13.3173
窑	-13.3174
鼫	-13.3177
苔	-13.3177
樾	-13.3178
覯	-13.3181
罡	-13.3182
翂	-13.3196
膿	-13.3209
􁐞	-13.38
鄱	-13.3802
坰	-13.3831
溠	-13.3831
鄤	-13.3834
秺	-13.3834
軨	-13.3835
栰	-13.3837
逿	-13.3837
璲	-13.3837
㻱	-13.3838
觟	-13.3839
鄐	-13.384
朾	-13.3842
蓁	-13.3844
藂	-13.3845
牼	-13.3846
眘	-13.3846
洊	-13.3847
慺	-13.3847
畟	-13.3847
懍	-13.3848
彳	-13.3848
湳	-13.3848
輴	-13.3849
􁨄	-13.3849
満	-13.385
偰	-13.385
秸	-13.3851
嫘	-13.3851
瞢	-13.3851
稌	-13.3851
国	-13.3852
㴞	-13.3853
憍	-13.3854
串	-13.3854
錠	-13.3854
􁃕	-13.3855
篳	-13.3855
緻	-13.3856
裯	-13.3856
裡	-13.3857
蝶	-13.3857
䳒	-13.3857
訌	-13.3857
苪	-13.3857
襆	-13.3857
綌	-13.3858
醊	-13.3858
搬	-13.3858
柈	-13.3858
幞	-13.3858
㻛	-13.3859
劘	-13.3859
轟	-13.3859
栘	-13.3859
廏	-13.3859
匃	-13.386
靬	-13.386
埆	-13.386
惽	-13.386
禭	-13.386
痊	-13.386
磽	-13.386
鶬	-13.386
嘘	-13.386
菘	-13.3861
槥	-13.3861
輳	-13.3861
勌	-13.3861
菫	-13.3861
斄	-13.3861
刓	-13.3862
蚠	-13.3862
䜌	-13.3862
楣	-13.3862
昫	-13.3863
憘	-13.3863
嬈	-13.3864
槎	-13.3864
壷	-13.3865
埏	-13.3866
殣	-13.3867
礮	-13.3867
蛄	-13.3867
餗	-13.3867
嵕	-13.3868
椰	-13.3869
􁪽	-13.3869
牕	-13.3869
茝	-13.387
轔	-13.387
輼	-13.387
缾	-13.3872
讇	-13.3873
擺	-13.3874
暵	-13.3875
渌	-13.3875
忼	-13.3876
柙	-13.3876
莧	-13.3877
蒔	-13.3877
麛	-13.3879
鑛	-13.388
袛	-13.3881
唅	-13.3881
幪	-13.3882
葪	-13.3883
憯	-13.3884
茱	-13.3885
曶	-13.389
萭	-13.389
儞	-13.3891
蜥	-13.3897
甝	-13.3903
襠	-13.3903
熞	-13.4582
紑	-13.4584
鼷	-13.4606
洚	-13.4606
穟	-13.4606
袿	-13.4606
婤	-13.4608
薔	-13.4608
衜	-13.4608
袀	-13.461
僬	-13.4611
軷	-13.4611
􁂒	-13.4611
斚	-13.4612
颶	-13.4613
倿	-13.4613
眡	-13.4614
痢	-13.4614
韝	-13.4614
酅	-13.4614
姁	-13.4615
渫	-13.4615
砌	-13.4616
啾	-13.4616
窽	-13.4617
鞈	-13.4619
蜕	-13.4619
瀦	-13.4619
韎	-13.462
腳	-13.4621
踝	-13.4621
処	-13.4621
嫫	-13.4621
戄	-13.4622
蹏	-13.4622
訽	-13.4622
貓	-13.4622
枽	-13.4622
妳	-13.4623
燻	-13.4623
劎	-13.4623
獒	-13.4623
糸	-13.4623
枰	-13.4623
邛	-13.4624
瞭	-13.4624
价	-13.4624
浤	-13.4625
熬	-13.4625
鵜	-13.4625
㹠	-13.4625
厶	-13.4626
饁	-13.4626
广	-13.4626
纖	-13.4626
郚	-13.4627
鷟	-13.4627
菼	-13.4627
軔	-13.4627
匾	-13.4627
猒	-13.4628
瑍	-13.4628
滍	-13.4628
霫	-13.4629
仔	-13.4629
凜	-13.463
壩	-13.463
硎	-13.463
獳	-13.463
闒	-13.463
滚	-13.463
很	-13.4631
诚	-13.4631
訞	-13.4632
鄮	-13.4633
鰓	-13.4633
睇	-13.4633
䌫	-13.4633
蓏	-13.4633
湄	-13.4634
嬃	-13.4635
亼	-13.4635
鐻	-13.4635
遡	-13.4636
渑	-13.4636
些	-13.4637
􁁅	-13.4637
张	-13.4637
宄	-13.4637
纏	-13.4639
絇	-13.4639
㠯	-13.4639
蛉	-13.464
鷖	-13.464
𨳩	-13.464
罏	-13.464
螣	-13.4641
鮀	-13.4641
羶	-13.4641
皐	-13.4642
􁁃	-13.4642
埰	-13.4643
􁐺	-13.4643
鷲	-13.4643
淥	-13.4643
躪	-13.4644
綀	-13.4645
丿	-13.4645
蟀	-13.4645
骫	-13.4646
泱	-13.4646
袚	-13.4647
橒	-13.4647
癯	-13.4647
甃	-13.4647
㠶	-13.4647
庐	-13.4648
籞	-13.4649
硜	-13.4649
隟	-13.4649
倬	-13.4649
师	-13.4649
嗑	-13.4651
盌	-13.4653
曁	-13.4653
倜	-13.4653
艤	-13.4654
氲	-13.4655
罐	-13.4655
鼄	-13.4657
亀	-13.4664
禴	-13.4666
蚯	-13.4673
倞	-13.5421
涅	-13.5427
勖	-13.5433
踶	-13.5435
瓖	-13.5437
􁆚	-13.5438
噏	-13.5439
粆	-13.5441
㞐	-13.5441
俌	-13.5444
潾	-13.5445
琱	-13.5447
甜	-13.5448
祋	-13.5448
絛	-13.5448
僱	-13.5449
屮	-13.5449
檛	-13.5449
恙	-13.5449
亓	-13.5451
䁥	-13.5451
犵	-13.5452
莹	-13.5452
桮	-13.5452
咷	-13.5453
漪	-13.5453
㵼	-13.5454
鍥	-13.5454
仵	-13.5454
漉	-13.5454
韮	-13.5455
噣	-13.5455
确	-13.5456
牁	-13.5456
麩	-13.5457
蓲	-13.5457
鏄	-13.5457
鉷	-13.5458
瀟	-13.5458
觳	-13.5458
絍	-13.5458
鏢	-13.5458
揵	-13.5458
綃	-13.5458
蒢	-13.5459
翾	-13.5459
禈	-13.5459
愓	-13.5459
詫	-13.5459
霏	-13.5459
蜎	-13.546
嘶	-13.5461
叫	-13.5461
蓩	-13.5461
釃	-13.5462
𠫭	-13.5462
䂮	-13.5462
泂	-13.5463
胖	-13.5463
褻	-13.5463
埴	-13.5463
笋	-13.5463
穄	-13.5464
銛	-13.5464
籩	-13.5464
霅	-13.5464
崎	-13.5464
脞	-13.5464
枌	-13.5464
耼	-13.5465
戣	-13.5465
煢	-13.5465
櫪	-13.5465
巘	-13.5466
杉	-13.5466
㗋	-13.5466
倓	-13.5467
帋	-13.5467
絪	-13.5467
汩	-13.5467
凊	-13.5467
圳	-13.5468
戻	-13.5468
薌	-13.5468
蓧	-13.5468
篩	-13.5468
謼	-13.5469
郔	-13.5469
襌	-13.547
虔	-13.547
穂	-13.547
簉	-13.5471
甎	-13.5471
歅	-13.5471
缷	-13.5471
橇	-13.5472
窅	-13.5472
咥	-13.5472
迃	-13.5473
楗	-13.5473
窠	-13.5474
噭	-13.5475
蕨	-13.5475
么	-13.5476
醋	-13.5476
篙	-13.5476
麀	-13.5477
髽	-13.5478
綫	-13.5478
􁌫	-13.5479
浿	-13.5479
諟	-13.5479
𦂳	-13.548
谢	-13.548
惱	-13.548
呦	-13.548
􁂧	-13.548
餱	-13.5481
獼	-13.5481
漱	-13.5482
黈	-13.5484
眯	-13.5485
鷗	-13.5485
搭	-13.5487
咬	-13.5487
旿	-13.5489
撡	-13.549
剕	-13.549
閃	-13.5491
裻	-13.5491
执	-13.5493
窪	-13.5493
鱠	-13.5495
骭	-13.5497
􁐇	-13.5499
拮	-13.5501
嗌	-13.5503
蘘	-13.5517
棪	-13.5524
禑	-13.6331
皤	-13.6334
􁲋	-13.6337
箄	-13.6338
襈	-13.6339
柜	-13.6341
鑣	-13.6341
鼇	-13.6343
𠢐	-13.6348
牷	-13.6348
輛	-13.6348
􁋎	-13.6348
垝	-13.6349
贒	-13.635
鶘	-13.635
篨	-13.635
揕	-13.635
覉	-13.635
􁒏	-13.6352
􁝮	-13.6354
沇	-13.6354
𤏡	-13.6356
禂	-13.6356
瀧	-13.6356
姍	-13.6357
􁁬	-13.6357
鷸	-13.6358
珤	-13.6359
籧	-13.6359
搨	-13.636
玃	-13.636
瞷	-13.636
裠	-13.636
􁂇	-13.636
闽	-13.6361
賧	-13.6361
刵	-13.6362
耎	-13.6362
鷦	-13.6362
絅	-13.6362
駔	-13.6362
玀	-13.6362
浰	-13.6362
傿	-13.6362
㕁	-13.6363
鐲	-13.6363
躧	-13.6363
瘢	-13.6363
秕	-13.6363
愻	-13.6364
幗	-13.6364
磴	-13.6364
揷	-13.6364
豦	-13.6364
麯	-13.6364
窴	-13.6365
橙	-13.6366
残	-13.6366
剙	-13.6366
􁀨	-13.6366
蹰	-13.6366
􁁄	-13.6367
狫	-13.6367
澂	-13.6367
篝	-13.6369
嶂	-13.6369
慣	-13.637
鎦	-13.637
橛	-13.637
頳	-13.6371
暍	-13.6371
拇	-13.6372
簦	-13.6373
褍	-13.6373
髆	-13.6373
醼	-13.6373
輶	-13.6373
艇	-13.6374
痴	-13.6374
炷	-13.6374
桱	-13.6374
鰕	-13.6375
冑	-13.6375
朦	-13.6375
慓	-13.6375
絝	-13.6375
觝	-13.6375
鵷	-13.6376
荊	-13.6376
􁋊	-13.6376
尓	-13.6376
繍	-13.6376
擗	-13.6376
蜼	-13.6377
疝	-13.6377
鴡	-13.6377
㷌	-13.6377
穏	-13.6377
衺	-13.6377
蹢	-13.6377
撇	-13.6378
菹	-13.6378
樏	-13.6378
諢	-13.6378
綣	-13.6378
靉	-13.6378
拈	-13.6378
悱	-13.6379
蛩	-13.6379
薶	-13.6379
艴	-13.638
侲	-13.638
慷	-13.638
閙	-13.6381
捆	-13.6381
䍽	-13.6381
瞪	-13.6381
媼	-13.6382
燋	-13.6383
唏	-13.6384
幙	-13.6384
鞲	-13.6385
礿	-13.6385
泅	-13.6385
蝘	-13.6385
溵	-13.6386
屧	-13.6386
硖	-13.6386
姺	-13.6386
涔	-13.6387
煆	-13.6387
陑	-13.6387
頞	-13.6387
嵯	-13.6388
枻	-13.6389
呆	-13.639
鏖	-13.639
駉	-13.639
梦	-13.639
忬	-13.6391
騒	-13.6391
溈	-13.6391
阤	-13.6396
滽	-13.6397
穷	-13.6398
嫩	-13.6399
㔨	-13.64
蝝	-13.6403
縟	-13.6404
汊	-13.6405
搦	-13.6406
氤	-13.6407
諰	-13.6409
葫	-13.6412
烇	-13.6416
㪯	-13.6416
嵌	-13.6422
欃	-13.6428
奫	-13.643
龣	-13.6431
蒗	-13.731
凹	-13.7325
㵒	-13.7332
􁲄	-13.7332
䵋	-13.7334
鈆	-13.7334
倂	-13.734
畾	-13.7341
郼	-13.7342
㷭	-13.7347
椓	-13.7348
丌	-13.7349
覓	-13.735
剻	-13.7351
撚	-13.7351
朡	-13.7351
袲	-13.7352
崆	-13.7352
轑	-13.7352
壖	-13.7353
图	-13.7354
笇	-13.7354
絏	-13.7354
泲	-13.7355
蚺	-13.7356
􁀣	-13.7356
櫨	-13.7356
棸	-13.7356
蟊	-13.7356
耰	-13.7357
杙	-13.7358
埳	-13.7358
筥	-13.7358
虀	-13.7359
帟	-13.7359
􁢱	-13.7359
唳	-13.736
洱	-13.736
蘂	-13.736
嫻	-13.7361
楬	-13.7361
巛	-13.7361
浯	-13.7362
䄡	-13.7363
􁕓	-13.7363
菓	-13.7363
型	-13.7364
駛	-13.7364
𥚑	-13.7364
􁆴	-13.7364
􁱌	-13.7365
樘	-13.7365
枇	-13.7365
癿	-13.7365
丏	-13.7365
崘	-13.7365
碾	-13.7366
芑	-13.7367
溶	-13.7367
瘍	-13.7367
䖟	-13.7367
掫	-13.7368
阱	-13.7368
仂	-13.7368
䢿	-13.7368
㷔	-13.7368
胐	-13.7368
襞	-13.7368
鵀	-13.7368
郙	-13.737
樑	-13.737
憩	-13.737
颷	-13.737
玈	-13.7372
娓	-13.7372
戛	-13.7372
蜿	-13.7373
斲	-13.7373
緭	-13.7373
蟪	-13.7373
毼	-13.7373
墝	-13.7374
隈	-13.7374
饍	-13.7374
韡	-13.7375
嫳	-13.7375
牸	-13.7375
珵	-13.7375
换	-13.7375
鐐	-13.7375
迮	-13.7375
潚	-13.7376
桎	-13.7376
檿	-13.7376
酧	-13.7376
圏	-13.7377
嘑	-13.7377
邔	-13.7377
疉	-13.7378
遝	-13.7378
厹	-13.7378
憨	-13.7378
乩	-13.7378
㨂	-13.7379
渰	-13.7379
鄹	-13.7379
俅	-13.738
沠	-13.738
鋼	-13.738
􁀾	-13.7381
简	-13.7381
鳧	-13.7381
僴	-13.7382
伹	-13.7382
裟	-13.7382
瘵	-13.7382
個	-13.7383
躑	-13.7383
趄	-13.7384
揲	-13.7384
昄	-13.7384
鬂	-13.7385
槱	-13.7385
酳	-13.7385
􁁔	-13.7385
祒	-13.7386
靼	-13.7386
篁	-13.7386
挍	-13.7386
墙	-13.7387
瓮	-13.7387
逷	-13.7387
蟁	-13.7387
虯	-13.7388
䥶	-13.7389
礚	-13.7389
㹸	-13.7389
鏵	-13.7389
瀑	-13.739
嚇	-13.739
帀	-13.739
㕑	-13.7391
鏹	-13.7391
拚	-13.7391
埈	-13.7391
餕	-13.7391
倥	-13.7392
鑲	-13.7392
稸	-13.7393
圄	-13.7394
壄	-13.7394
龡	-13.7395
箬	-13.7397
荓	-13.7397
皈	-13.7398
洳	-13.74
茆	-13.7401
䘙	-13.7402
哮	-13.7403
嫖	-13.7404
謊	-13.7404
㬥	-13.7406
臉	-13.7407
𪠘	-13.7408
疴	-13.7409
雚	-13.7411
盉	-13.8398
剄	-13.8433
諴	-13.8443
衟	-13.8447
竧	-13.8449
陓	-13.845
昷	-13.8451
卪	-13.8454
傃	-13.8454
褖	-13.8455
獐	-13.8455
暏	-13.8455
熥	-13.8456
烕	-13.8458
垤	-13.8458
􁑴	-13.8458
阯	-13.8458
网	-13.8459
􁦉	-13.846
隶	-13.846
捴	-13.846
怗	-13.846
輞	-13.846
樺	-13.846
轎	-13.8462
撩	-13.8462
鈺	-13.8463
澐	-13.8463
肚	-13.8463
峘	-13.8464
糵	-13.8464
塴	-13.8465
怎	-13.8466
嫪	-13.8466
􁁏	-13.8466
炒	-13.8466
􁒂	-13.8466
臈	-13.8466
禝	-13.8467
惘	-13.8467
麹	-13.8467
蕰	-13.8467
㹀	-13.8468
蹃	-13.8468
刾	-13.847
芭	-13.8471
聵	-13.8471
蜑	-13.8471
冘	-13.8471
徊	-13.8471
抨	-13.8471
柅	-13.8472
踘	-13.8472
傫	-13.8473
禬	-13.8473
鈲	-13.8474
瑳	-13.8474
褭	-13.8474
靽	-13.8474
䝠	-13.8475
娙	-13.8475
鐍	-13.8475
頏	-13.8476
樣	-13.8477
鰒	-13.8477
􁔿	-13.8477
蔴	-13.8477
萴	-13.8477
岵	-13.8477
樠	-13.8478
廳	-13.8478
蒹	-13.8478
􁑺	-13.8478
㩦	-13.8478
縕	-13.8478
攪	-13.8478
􁂅	-13.8478
玕	-13.8479
犠	-13.8479
鄑	-13.8479
灕	-13.8479
鼾	-13.848
咩	-13.8481
牿	-13.8481
汐	-13.8481
郱	-13.8481
􁃎	-13.8481
圣	-13.8481
鑷	-13.8481
凰	-13.8481
滲	-13.8482
耇	-13.8482
昳	-13.8482
坟	-13.8483
溽	-13.8483
颿	-13.8483
鼖	-13.8483
巣	-13.8483
畡	-13.8484
炔	-13.8484
幺	-13.8485
犮	-13.8485
蘷	-13.8485
谓	-13.8485
窰	-13.8485
馯	-13.8485
􁊌	-13.8486
泽	-13.8486
齟	-13.8486
脁	-13.8486
隮	-13.8486
嫕	-13.8486
掄	-13.8486
纇	-13.8487
􁈯	-13.8487
跟	-13.8487
􁄻	-13.8487
蓀	-13.8487
銶	-13.8487
塍	-13.8487
穨	-13.8487
蒧	-13.8487
獯	-13.8488
繾	-13.8488
歔	-13.8488
癎	-13.8488
蘅	-13.8488
傁	-13.8488
滈	-13.8489
陡	-13.8489
鄽	-13.8489
嚄	-13.8489
怦	-13.8489
胱	-13.849
茙	-13.849
㜪	-13.849
俔	-13.849
魘	-13.849
悻	-13.849
逍	-13.849
蝥	-13.8491
泾	-13.8492
黚	-13.8492
鹺	-13.8492
糖	-13.8493
昋	-13.8493
酃	-13.8493
鳲	-13.8493
􁂭	-13.8493
莩	-13.8493
葴	-13.8494
櫆	-13.8494
洨	-13.8495
紝	-13.8495
悞	-13.8495
磷	-13.8495
窀	-13.8496
輬	-13.8496
鄛	-13.8496
斝	-13.8497
錘	-13.8497
鎚	-13.8497
籜	-13.8497
韣	-13.8499
朙	-13.85
祷	-13.85
擎	-13.85
􁋆	-13.85
皜	-13.85
庱	-13.8501
蜯	-13.8501
袠	-13.8501
妷	-13.8501
荄	-13.8502
蛻	-13.8502
皀	-13.8503
􁋚	-13.8503
橑	-13.8503
褓	-13.8505
箑	-13.8506
䠞	-13.8506
絑	-13.8506
螗	-13.8507
􁂼	-13.8509
㬓	-13.8509
堀	-13.851
蠐	-13.8511
湞	-13.8511
圩	-13.8512
淈	-13.8516
蔾	-13.8517
歾	-13.8517
贋	-13.8518
蘼	-13.8519
噦	-13.8519
躃	-13.852
芎	-13.8521
錝	-13.8522
蜉	-13.8524
藭	-13.8526
淒	-13.8527
柂	-13.8527
茒	-13.8534
胯	-13.9662
叀	-13.9678
涑	-13.968
枅	-13.9686
旜	-13.9692
楪	-13.9693
疐	-13.9698
孊	-13.97
涞	-13.9702
睪	-13.9705
壾	-13.9707
塪	-13.9708
畬	-13.9708
沗	-13.971
耡	-13.971
㫄	-13.971
囧	-13.9711
汸	-13.9711
儿	-13.9712
柢	-13.9713
獍	-13.9714
桯	-13.9714
孶	-13.9715
祡	-13.9717
恆	-13.9717
骵	-13.9717
惄	-13.9717
慭	-13.9717
煴	-13.9717
鎋	-13.9717
麏	-13.9718
驌	-13.9718
漴	-13.9718
?	-13.9719
躉	-13.9719
淊	-13.9719
暪	-13.972
荇	-13.972
喟	-13.972
釂	-13.9721
哻	-13.9722
繅	-13.9722
贐	-13.9722
恋	-13.9722
莨	-13.9722
鍮	-13.9722
茇	-13.9722
佹	-13.9722
箘	-13.9723
簬	-13.9723
槲	-13.9723
洌	-13.9723
鎩	-13.9724
薿	-13.9724
萟	-13.9725
逴	-13.9725
圬	-13.9726
鷯	-13.9726
􁇇	-13.9726
豖	-13.9726
惷	-13.9727
嬛	-13.9727
狻	-13.9727
梮	-13.9727
丂	-13.9727
顇	-13.9728
袝	-13.9728
炆	-13.9728
鄇	-13.9729
嶚	-13.9729
臓	-13.9729
柹	-13.973
醵	-13.973
翃	-13.973
囓	-13.9731
葍	-13.9731
烙	-13.9731
洑	-13.9731
舴	-13.9731
塉	-13.9731
誶	-13.9731
鶵	-13.9731
鑅	-13.9731
􁀅	-13.9731
皛	-13.9732
豶	-13.9732
􁆖	-13.9732
玼	-13.9732
鴣	-13.9732
蚳	-13.9733
髳	-13.9733
忭	-13.9733
毚	-13.9733
鴇	-13.9734
釦	-13.9735
們	-13.9735
紒	-13.9735
睍	-13.9735
痁	-13.9735
愡	-13.9735
蠏	-13.9735
㷱	-13.9735
􁃒	-13.9736
䠠	-13.9736
檠	-13.9737
􁍁	-13.9737
鈸	-13.9737
枣	-13.9737
迋	-13.9737
㩲	-13.9737
鑼	-13.9738
驒	-13.9738
亍	-13.9738
嗅	-13.9739
纜	-13.9739
𣏌	-13.9739
蝱	-13.9739
褠	-13.9739
蒂	-13.974
鶠	-13.9741
佘	-13.9741
騘	-13.9741
昖	-13.9742
蝤	-13.9742
𣑽	-13.9743
塏	-13.9743
韵	-13.9744
罋	-13.9744
鱸	-13.9744
扱	-13.9744
俀	-13.9744
趂	-13.9744
㳄	-13.9745
橏	-13.9745
㝱	-13.9745
斸	-13.9746
狖	-13.9746
厈	-13.9746
欿	-13.9746
訇	-13.9746
齠	-13.9746
篷	-13.9747
恌	-13.9747
􁉤	-13.9748
甽	-13.9748
􁑼	-13.9748
偟	-13.9748
盔	-13.9748
檋	-13.9748
􁮅	-13.9749
乜	-13.9749
唖	-13.9749
䪥	-13.9749
鵫	-13.9749
􁐾	-13.975
諐	-13.975
鋘	-13.975
縧	-13.9751
滻	-13.9751
媱	-13.9752
橅	-13.9753
毣	-13.9753
􁮺	-13.9754
抺	-13.9755
悢	-13.9755
闑	-13.9755
楃	-13.9755
蠓	-13.9757
煓	-13.9757
屎	-13.9757
陈	-13.9757
鳪	-13.9758
􁇁	-13.9758
梴	-13.9759
浥	-13.9759
􁄀	-13.976
矔	-13.976
矻	-13.9761
茜	-13.9765
􁈓	-13.9765
爆	-13.9765
叭	-13.9766
槿	-13.9766
栱	-13.9768
塈	-13.9769
􁀐	-13.9769
䨥	-13.9771
炕	-13.9772
劲	-13.9773
厂	-13.9774
嶄	-13.9774
􁊈	-13.9775
砰	-13.9778
芡	-13.9778
癥	-13.978
螾	-13.9782
熿	-13.9782
翿	-13.9788
瘕	-13.9792
砒	-13.9795
鑁	-14.1079
釳	-14.1083
◍	-14.1087
𤾉	-14.1096
捥	-14.1103
􁛩	-14.1107
矬	-14.1109
綮	-14.1112
珞	-14.1114
煃	-14.1115
旼	-14.1115
茁	-14.1115
逑	-14.1115
􁉭	-14.1117
褉	-14.1122
跏	-14.1124
亯	-14.1124
糝	-14.1127
疩	-14.1128
忲	-14.1128
衵	-14.1129
跕	-14.1132
􁈗	-14.1132
賒	-14.1133
僎	-14.1133
椌	-14.1134
緗	-14.1135
樉	-14.1135
贗	-14.1137
駙	-14.1138
东	-14.114
汳	-14.114
喭	-14.1141
􁎾	-14.1142
璅	-14.1142
搠	-14.1142
畼	-14.1142
澅	-14.1142
冣	-14.1144
崕	-14.1144
酁	-14.1144
霈	-14.1144
菉	-14.1144
溓	-14.1144
号	-14.1145
䈥	-14.1145
狺	-14.1145
迢	-14.1146
蜄	-14.1146
鴝	-14.1148
鎌	-14.1148
擡	-14.1148
挶	-14.1148
坯	-14.1148
㲈	-14.1148
虍	-14.1149
蔮	-14.1149
犕	-14.1149
筹	-14.115
帣	-14.115
驘	-14.115
菔	-14.115
傜	-14.1151
肃	-14.1151
筈	-14.1151
鞇	-14.1151
􁂣	-14.1151
捩	-14.1151
嬗	-14.1152
堋	-14.1152
鮐	-14.1152
忉	-14.1152
臟	-14.1152
㮮	-14.1152
婞	-14.1153
頮	-14.1153
阽	-14.1153
䣛	-14.1153
虣	-14.1153
銊	-14.1153
蜘	-14.1153
氅	-14.1154
嵓	-14.1154
秠	-14.1154
蹀	-14.1154
瘝	-14.1154
綪	-14.1154
墺	-14.1154
㙉	-14.1154
蛛	-14.1155
蕺	-14.1155
冽	-14.1155
轀	-14.1155
簺	-14.1155
哿	-14.1155
漒	-14.1155
鉟	-14.1156
☷	-14.1156
畊	-14.1157
嶔	-14.1157
蔥	-14.1157
䵍	-14.1157
奘	-14.1157
峥	-14.1159
猋	-14.116
􁊯	-14.116
劃	-14.116
碆	-14.116
䆫	-14.116
逶	-14.116
膘	-14.116
鈒	-14.116
脹	-14.1161
恝	-14.1161
繽	-14.1161
摉	-14.1161
袓	-14.1162
餳	-14.1162
鞔	-14.1162
奰	-14.1162
为	-14.1163
貅	-14.1163
曕	-14.1163
揫	-14.1163
穠	-14.1163
担	-14.1163
涛	-14.1163
蝇	-14.1163
鑢	-14.1163
栟	-14.1164
徜	-14.1164
鯫	-14.1164
鍧	-14.1165
堮	-14.1165
咠	-14.1165
􁑵	-14.1165
筓	-14.1166
㸐	-14.1166
劦	-14.1166
鵊	-14.1166
癢	-14.1166
䦱	-14.1166
壈	-14.1166
嶕	-14.1166
眢	-14.1167
憃	-14.1167
滶	-14.1167
枓	-14.1168
􁥗	-14.1168
騣	-14.1169
拴	-14.1169
葳	-14.1169
闉	-14.1169
酥	-14.1169
纑	-14.1169
窣	-14.117
苜	-14.117
汞	-14.117
簳	-14.117
戭	-14.1171
冔	-14.1171
鵁	-14.1171
鄕	-14.1171
飦	-14.1171
髄	-14.1171
􁲕	-14.1171
嗴	-14.1171
蕝	-14.1172
棽	-14.1172
鞉	-14.1172
軘	-14.1173
勹	-14.1173
鰐	-14.1173
倔	-14.1173
咆	-14.1174
㳤	-14.1174
狆	-14.1174
騺	-14.1174
觕	-14.1174
瘣	-14.1175
屼	-14.1175
􁁦	-14.1175
韀	-14.1175
侂	-14.1175
棰	-14.1175
􁃟	-14.1176
屆	-14.1176
胝	-14.1176
焭	-14.1176
穯	-14.1176
籐	-14.1177
朒	-14.1178
蝚	-14.1178
灨	-14.1178
甍	-14.1178
顫	-14.1178
卺	-14.1178
茻	-14.1179
揃	-14.1179
謌	-14.1179
癬	-14.1179
朅	-14.1179
玻	-14.118
纆	-14.1181
疁	-14.1181
挻	-14.1181
訦	-14.1181
朢	-14.1182
舃	-14.1182
䀹	-14.1182
䱉	-14.1182
擥	-14.1183
悾	-14.1183
洟	-14.1184
椑	-14.1184
纈	-14.1184
埌	-14.1184
碕	-14.1185
䆮	-14.1185
秒	-14.1185
趼	-14.1186
嘬	-14.1186
鋝	-14.1186
剜	-14.1186
闤	-14.1186
嶻	-14.1186
齷	-14.1186
啐	-14.1186
时	-14.1187
讕	-14.1187
峦	-14.1187
勷	-14.1187
飪	-14.1188
鱧	-14.1189
挨	-14.1189
􁈞	-14.119
嘽	-14.119
碗	-14.119
睽	-14.119
腄	-14.119
􁈜	-14.119
靶	-14.119
殍	-14.119
蠁	-14.1192
矗	-14.1192
寋	-14.1192
麐	-14.1193
偻	-14.1194
猬	-14.1195
琞	-14.1196
䒶	-14.1196
㯶	-14.1196
噱	-14.1197
砕	-14.1198
鸃	-14.1198
樝	-14.1199
堈	-14.1199
茔	-14.1201
蝠	-14.1201
蝙	-14.1202
鵔	-14.1206
灂	-14.1212
䵣	-14.1214
蚱	-14.1215
硝	-14.1216
訒	-14.1222
脽	-14.1227
嚶	-14.1233
􁱬	-14.1235
槬	-14.1238
臑	-14.124
蚘	-14.2752
􁆲	-14.2766
怩	-14.2782
䙱	-14.2782
酄	-14.2784
㷏	-14.2786
琖	-14.2789
礥	-14.2789
录	-14.2789
磎	-14.279
壵	-14.2791
懬	-14.2792
鸎	-14.2794
鵩	-14.2794
觭	-14.2794
䄖	-14.2795
𠻳	-14.2797
僶	-14.2797
菏	-14.2798
恟	-14.2798
祹	-14.2798
骴	-14.28
棕	-14.28
韉	-14.28
鴂	-14.2801
窊	-14.2801
鴳	-14.2802
膞	-14.2802
仌	-14.2803
扢	-14.2803
􁇶	-14.2803
掞	-14.2804
㶇	-14.2804
陗	-14.2804
褱	-14.2805
搯	-14.2805
銂	-14.2805
鶄	-14.2806
襢	-14.2806
繦	-14.2807
柑	-14.2807
鶖	-14.2808
妝	-14.2808
􁄓	-14.2808
挼	-14.2808
襤	-14.2808
箔	-14.2811
鄦	-14.2811
儽	-14.2812
冄	-14.2812
岊	-14.2812
桿	-14.2813
轤	-14.2813
懊	-14.2813
悷	-14.2814
焠	-14.2815
堧	-14.2815
鄁	-14.2816
岏	-14.2816
笨	-14.2817
孿	-14.2818
凭	-14.2818
􁑆	-14.2818
疪	-14.2818
碉	-14.2818
卩	-14.282
懀	-14.282
䧿	-14.282
􁈩	-14.282
漅	-14.282
涷	-14.282
崐	-14.282
鳻	-14.282
靠	-14.282
羃	-14.282
羱	-14.282
灯	-14.282
玲	-14.2821
䇨	-14.2821
酲	-14.2821
鶞	-14.2821
慌	-14.2821
鵂	-14.2821
觱	-14.2821
媢	-14.2821
􁏛	-14.2822
飫	-14.2822
矅	-14.2822
􁐩	-14.2822
嵍	-14.2822
曀	-14.2822
艋	-14.2823
䏰	-14.2823
蔇	-14.2823
鞵	-14.2823
岯	-14.2823
蝹	-14.2823
跅	-14.2824
蝴	-14.2824
鮞	-14.2824
橤	-14.2824
毹	-14.2824
櫳	-14.2824
㝏	-14.2824
疼	-14.2824
狒	-14.2824
瓿	-14.2824
晙	-14.2824
鏻	-14.2825
跬	-14.2826
篲	-14.2826
蓰	-14.2826
胲	-14.2827
瘂	-14.2827
咍	-14.2827
廚	-14.2827
釭	-14.2827
顰	-14.2827
麰	-14.2828
鬋	-14.2828
掆	-14.2828
葡	-14.2828
髾	-14.2828
掐	-14.2828
硏	-14.2828
嚲	-14.2828
鎡	-14.2828
抆	-14.2829
菖	-14.2829
䔧	-14.2829
溍	-14.2829
诗	-14.2829
鞹	-14.283
􁢡	-14.283
戫	-14.283
䫫	-14.2831
詾	-14.2831
泪	-14.2831
䌓	-14.2831
晫	-14.2831
㲪	-14.2831
哄	-14.2831
䥴	-14.2831
佴	-14.2831
瞗	-14.2831
􁂰	-14.2831
閺	-14.2831
􁅖	-14.2831
菪	-14.2832
禔	-14.2832
窫	-14.2833
楝	-14.2833
膢	-14.2833
戔	-14.2833
毦	-14.2834
爬	-14.2834
緺	-14.2834
吽	-14.2834
郮	-14.2834
詶	-14.2835
爓	-14.2835
攙	-14.2835
胠	-14.2835
☰	-14.2835
蚶	-14.2835
㯉	-14.2835
妯	-14.2836
娌	-14.2836
檳	-14.2836
尽	-14.2836
苺	-14.2837
擷	-14.2837
搉	-14.2837
簨	-14.2837
㰚	-14.2837
竞	-14.2838
虆	-14.2838
鏦	-14.2838
㲋	-14.2838
訹	-14.2838
櫕	-14.2838
蝻	-14.2839
样	-14.2839
邧	-14.2839
眦	-14.2839
瓣	-14.2839
篥	-14.2839
榰	-14.2839
玝	-14.2839
輊	-14.2839
膩	-14.284
呑	-14.284
䟆	-14.284
儥	-14.284
辵	-14.284
胛	-14.284
㠝	-14.284
膻	-14.2841
醝	-14.2841
沕	-14.2841
盇	-14.2841
紃	-14.2841
綗	-14.2841
霰	-14.2842
䃯	-14.2842
凂	-14.2842
𡑞	-14.2842
䬃	-14.2842
熢	-14.2842
闭	-14.2842
􁲛	-14.2842
蒟	-14.2842
呿	-14.2842
􁇒	-14.2842
岍	-14.2843
穵	-14.2843
隽	-14.2843
蓊	-14.2843
闠	-14.2843
鸑	-14.2843
匶	-14.2843
丄	-14.2843
筰	-14.2844
橰	-14.2844
趹	-14.2844
􁗥	-14.2844
傰	-14.2845
疒	-14.2845
㮵	-14.2845
岨	-14.2845
痏	-14.2845
摟	-14.2846
霪	-14.2846
仐	-14.2846
搒	-14.2847
喊	-14.2848
楔	-14.2848
輂	-14.2848
謷	-14.2848
邐	-14.2849
輭	-14.2849
琀	-14.2849
寪	-14.285
蝀	-14.285
譊	-14.285
捺	-14.2851
䴵	-14.2851
怔	-14.2851
轊	-14.2851
鑞	-14.2851
莝	-14.2851
粽	-14.2851
茢	-14.2851
鶯	-14.2852
蝡	-14.2852
􁩔	-14.2852
磥	-14.2853
鮆	-14.2854
篠	-14.2854
􁂎	-14.2855
􁰋	-14.2855
訬	-14.2856
痬	-14.2856
芃	-14.2856
烖	-14.2857
坏	-14.2858
邹	-14.2858
䴏	-14.2858
崟	-14.2858
庂	-14.2859
赬	-14.2859
覚	-14.286
梈	-14.286
貐	-14.2861
􁋷	-14.2861
昒	-14.2861
艍	-14.2861
䠶	-14.2863
藘	-14.2863
渼	-14.2863
丽	-14.2864
謿	-14.2865
侻	-14.2865
惂	-14.2866
胾	-14.2866
㹪	-14.2868
蓇	-14.2868
阹	-14.287
芫	-14.2871
捎	-14.2873
鷷	-14.2873
櫚	-14.2873
杻	-14.2874
芴	-14.2876
菀	-14.2878
鄨	-14.2882
㓶	-14.2885
絨	-14.2886
竷	-14.289
佰	-14.291
􁈠	-14.2918
觲	-14.2922
侟	-14.293
茘	-14.4719
濍	-14.4742
茤	-14.4756
鼩	-14.4758
瑈	-14.4759
壴	-14.4759
栔	-14.4759
蔘	-14.476
檡	-14.4766
琭	-14.4769
䚢	-14.477
怣	-14.477
􁊼	-14.4773
勻	-14.4777
笪	-14.478
圁	-14.4781
軵	-14.4785
荥	-14.4787
錚	-14.4788
􁫿	-14.4789
灉	-14.4789
蓫	-14.479
蘠	-14.479
惓	-14.4792
埱	-14.4792
捘	-14.4793
􁂙	-14.4794
㣼	-14.4797
姟	-14.4797
鴒	-14.4798
誧	-14.4798
鞓	-14.4798
韲	-14.4799
䞉	-14.48
罳	-14.48
沶	-14.4801
鼊	-14.4801
􁏙	-14.4801
棷	-14.4802
幛	-14.4802
懢	-14.4802
㚰	-14.4804
滦	-14.4804
挌	-14.4805
罫	-14.4805
摲	-14.4805
㐌	-14.4805
騉	-14.4805
柁	-14.4806
砅	-14.4806
􁃭	-14.4806
擉	-14.4807
畺	-14.4807
􁙺	-14.4807
栳	-14.4808
裩	-14.4808
曬	-14.4808
騪	-14.4808
賸	-14.4808
耊	-14.4809
􁘬	-14.4809
棉	-14.481
塦	-14.481
抴	-14.481
朌	-14.481
瞥	-14.4811
㐭	-14.4811
苒	-14.4811
掺	-14.4811
捭	-14.4811
嗢	-14.4811
頨	-14.4811
􁅋	-14.4811
袙	-14.4811
岠	-14.4812
髕	-14.4812
獂	-14.4812
鋡	-14.4812
㝈	-14.4812
韤	-14.4812
燐	-14.4813
愊	-14.4813
菂	-14.4813
歪	-14.4814
壃	-14.4814
鞦	-14.4814
􁛾	-14.4814
榘	-14.4814
黰	-14.4815
􁂆	-14.4815
嵸	-14.4815
儳	-14.4815
櫑	-14.4815
咅	-14.4815
槳	-14.4815
篣	-14.4815
􁆶	-14.4815
黴	-14.4816
鄵	-14.4816
􁦹	-14.4816
􁄍	-14.4816
嘼	-14.4816
棝	-14.4816
葚	-14.4817
駈	-14.4817
諆	-14.4817
蹹	-14.4818
萋	-14.4818
鰻	-14.4818
辝	-14.4818
鞘	-14.4819
咮	-14.4819
鷽	-14.4819
笱	-14.4819
唄	-14.482
貣	-14.482
涫	-14.482
眰	-14.482
笭	-14.482
绳	-14.482
㩗	-14.482
咻	-14.482
惝	-14.482
芣	-14.482
遟	-14.482
騸	-14.482
墐	-14.4821
揠	-14.4821
卸	-14.4821
弒	-14.4821
痣	-14.4821
卟	-14.4821
榬	-14.4821
􁂁	-14.4821
琠	-14.4821
簘	-14.4821
圊	-14.4822
􁄐	-14.4822
嗁	-14.4822
睱	-14.4822
覸	-14.4822
骹	-14.4822
􁐪	-14.4822
篪	-14.4822
䘿	-14.4822
攓	-14.4822
疣	-14.4822
􁄳	-14.4823
繵	-14.4823
摐	-14.4823
㽜	-14.4823
圅	-14.4823
崍	-14.4823
瘈	-14.4823
狽	-14.4823
糈	-14.4824
厫	-14.4824
稂	-14.4824
斉	-14.4824
☲	-14.4824
懵	-14.4824
𤬪	-14.4824
凥	-14.4825
朸	-14.4825
澚	-14.4825
􁀼	-14.4825
螈	-14.4825
袑	-14.4825
㬊	-14.4825
筸	-14.4825
蔲	-14.4825
躱	-14.4825
栭	-14.4825
葘	-14.4825
璚	-14.4825
寑	-14.4826
㪣	-14.4826
魎	-14.4826
嚨	-14.4826
縌	-14.4826
潺	-14.4826
齬	-14.4826
諓	-14.4826
獰	-14.4826
矮	-14.4826
螿	-14.4826
炗	-14.4826
魍	-14.4827
鴽	-14.4827
对	-14.4827
蹬	-14.4827
􁊓	-14.4827
畒	-14.4827
蒻	-14.4827
襒	-14.4827
瘋	-14.4827
腔	-14.4828
繐	-14.4828
䄇	-14.4828
钁	-14.4828
糿	-14.4828
畴	-14.4828
淬	-14.4828
澓	-14.4828
袥	-14.4828
睎	-14.4828
崪	-14.4829
艟	-14.4829
埾	-14.4829
桍	-14.4831
泡	-14.4831
羼	-14.4831
巇	-14.4832
湑	-14.4832
瓷	-14.4832
擭	-14.4832
槧	-14.4832
酀	-14.4832
紩	-14.4832
甒	-14.4833
焴	-14.4833
嗒	-14.4833
蕷	-14.4833
潬	-14.4833
􁂗	-14.4833
㓝	-14.4833
攟	-14.4833
撅	-14.4833
蠺	-14.4834
窌	-14.4834
裓	-14.4835
􁐰	-14.4835
剟	-14.4835
貇	-14.4835
韅	-14.4835
禩	-14.4836
堲	-14.4836
崌	-14.4836
隉	-14.4836
臰	-14.4836
芨	-14.4836
靺	-14.4836
盒	-14.4836
炰	-14.4836
􁚞	-14.4836
劂	-14.4836
硫	-14.4837
忡	-14.4837
膜	-14.4837
鵴	-14.4837
撦	-14.4837
醆	-14.4837
襴	-14.4838
􁈲	-14.4838
㩧	-14.4838
梠	-14.4838
溘	-14.4838
傶	-14.4838
萦	-14.4838
唊	-14.4838
凈	-14.4838
癕	-14.4839
䔲	-14.4839
皭	-14.4839
奶	-14.4839
欢	-14.4839
笫	-14.4839
伇	-14.4839
鋉	-14.4839
㬎	-14.484
蠪	-14.484
釱	-14.484
瓏	-14.484
􁡭	-14.484
鵕	-14.4841
䓤	-14.4841
砢	-14.4841
蠚	-14.4841
蓚	-14.4841
迍	-14.4841
􁀒	-14.4841
媠	-14.4841
觹	-14.4841
跀	-14.4841
陼	-14.4842
荑	-14.4842
爚	-14.4842
卋	-14.4842
艚	-14.4842
戟	-14.4842
騙	-14.4842
謦	-14.4843
醻	-14.4843
嚥	-14.4844
爀	-14.4844
簑	-14.4845
㖖	-14.4845
嘒	-14.4845
茦	-14.4845
彍	-14.4845
淙	-14.4846
桄	-14.4846
拲	-14.4846
馿	-14.4846
抝	-14.4847
鴶	-14.4847
瀷	-14.4847
餁	-14.4847
湥	-14.4847
拐	-14.4847
顊	-14.4847
蓑	-14.4847
孴	-14.4848
􁃂	-14.4848
尻	-14.4848
豻	-14.4848
搂	-14.4848
慜	-14.4848
􁐌	-14.4848
黂	-14.4848
攤	-14.4849
卾	-14.4849
顴	-14.485
䥧	-14.485
倳	-14.485
􁒔	-14.485
㜑	-14.4851
䝞	-14.4851
馺	-14.4851
珖	-14.4851
碯	-14.4852
貒	-14.4852
㚿	-14.4853
惸	-14.4853
胍	-14.4854
䴊	-14.4855
癩	-14.4855
鬐	-14.4855
猓	-14.4855
胹	-14.4855
噆	-14.4856
鮎	-14.4856
鍈	-14.4856
鞚	-14.4856
䑽	-14.4858
䳨	-14.4858
勧	-14.4858
娭	-14.4858
慳	-14.4859
洭	-14.4859
熯	-14.4859
㟭	-14.4859
胈	-14.4859
麚	-14.486
㰘	-14.486
􁔾	-14.486
礨	-14.486
赳	-14.486
穪	-14.4861
􁒲	-14.4862
􁌀	-14.4862
傽	-14.4863
婐	-14.4863
痘	-14.4864
曡	-14.4865
垔	-14.4866
驀	-14.4866
拎	-14.4866
􁭘	-14.4867
縰	-14.4867
晲	-14.4867
鋳	-14.4869
嫺	-14.4869
䝟	-14.487
夊	-14.4871
藨	-14.4873
㴋	-14.4873
扅	-14.4873
膈	-14.4874
匵	-14.4875
扊	-14.4875
■	-14.4878
􁀥	-14.4879
靃	-14.4879
帊	-14.488
蝣	-14.4881
吅	-14.4882
碟	-14.4889
鼯	-14.489
貈	-14.49
豗	-14.4919
鷉	-14.4921
蠰	-14.4934
迵	-14.494
䓗	-14.7128
寏	-14.718
螵	-14.7224
疤	-14.7225
晄	-14.7234
􁄺	-14.7234
蠇	-14.7237
㥧	-14.726
枼	-14.7262
抇	-14.7263
蜊	-14.7263
幌	-14.7266
騤	-14.7267
喂	-14.727
㞵	-14.7271
嘈	-14.7273
䖽	-14.7273
兟	-14.7274
豯	-14.7277
娎	-14.7278
撐	-14.7278
忷	-14.7278
狌	-14.728
牏	-14.7281
卶	-14.7281
乀	-14.7281
􁌏	-14.7282
􁃱	-14.7283
蜆	-14.7284
齰	-14.7284
悹	-14.7284
罿	-14.7284
巤	-14.7284
虻	-14.7285
巩	-14.7285
曋	-14.7285
瑥	-14.7285
㐱	-14.7285
帨	-14.7286
佋	-14.7287
䆁	-14.7287
萆	-14.7288
螙	-14.7288
枘	-14.7288
凸	-14.7289
􁔯	-14.7289
庌	-14.7291
輹	-14.7291
橜	-14.7292
鞗	-14.7292
繴	-14.7293
橄	-14.7294
謪	-14.7294
桼	-14.7294
甔	-14.7295
檏	-14.7295
惵	-14.7295
櫺	-14.7295
堄	-14.7296
􁁉	-14.7296
喓	-14.7296
囦	-14.7296
漇	-14.7296
嫮	-14.7298
􁧯	-14.7298
咭	-14.7298
渣	-14.7298
腮	-14.7299
䕡	-14.73
蚍	-14.73
僲	-14.73
鏩	-14.73
倄	-14.7301
瀣	-14.7302
韁	-14.7302
茞	-14.7302
点	-14.7303
􁅾	-14.7303
脑	-14.7303
劋	-14.7303
㔫	-14.7303
嬇	-14.7305
礌	-14.7305
霬	-14.7305
踕	-14.7305
媺	-14.7306
懭	-14.7306
閴	-14.7306
慽	-14.7306
憹	-14.7306
誆	-14.7307
㚄	-14.7307
搊	-14.7307
鷣	-14.7307
讔	-14.7308
帬	-14.7309
澀	-14.7309
獝	-14.7309
洓	-14.7309
唎	-14.7309
攏	-14.7309
臛	-14.7309
􁄥	-14.7309
躗	-14.7309
􁯮	-14.7309
俵	-14.7309
抔	-14.7309
瘃	-14.731
濉	-14.731
鏨	-14.731
䢅	-14.731
毊	-14.731
朧	-14.731
􁞀	-14.731
槪	-14.7311
􁊨	-14.7311
掀	-14.7312
姹	-14.7312
苃	-14.7312
嚌	-14.7312
坺	-14.7312
罼	-14.7312
櫍	-14.7312
籯	-14.7313
杴	-14.7313
慫	-14.7313
薢	-14.7313
蚖	-14.7313
埠	-14.7313
孃	-14.7313
鬒	-14.7313
韆	-14.7313
榣	-14.7314
僔	-14.7314
㽛	-14.7314
垞	-14.7314
􁯫	-14.7314
觽	-14.7314
剩	-14.7314
塓	-14.7314
鷓	-14.7314
伅	-14.7316
倱	-14.7316
嫵	-14.7316
鍬	-14.7316
佫	-14.7316
蠙	-14.7316
􁄏	-14.7316
㚔	-14.7316
痂	-14.7316
匯	-14.7316
儜	-14.7316
樁	-14.7317
寉	-14.7317
撽	-14.7317
繙	-14.7317
齲	-14.7317
幓	-14.7317
膫	-14.7317
彠	-14.7318
薉	-14.7318
巜	-14.7319
祤	-14.7319
訩	-14.7319
尞	-14.732
輮	-14.732
􁂞	-14.732
唫	-14.732
噀	-14.732
鼚	-14.732
嘐	-14.732
貕	-14.732
炟	-14.732
虦	-14.732
醨	-14.7321
覷	-14.7321
曏	-14.7321
优	-14.7321
蝺	-14.7321
軬	-14.7321
􁁑	-14.7321
䬳	-14.7321
踆	-14.7321
欶	-14.7321
歯	-14.7321
顄	-14.7321
鍗	-14.7321
摡	-14.7323
丱	-14.7323
巠	-14.7323
驖	-14.7323
敓	-14.7323
豋	-14.7323
鱷	-14.7323
煗	-14.7323
礹	-14.7323
菐	-14.7323
􁓶	-14.7323
扒	-14.7324
瞩	-14.7324
􁁍	-14.7324
䢈	-14.7324
鱎	-14.7324
䲧	-14.7324
髲	-14.7324
剺	-14.7324
釪	-14.7324
􁊖	-14.7324
􁃊	-14.7324
遆	-14.7325
柲	-14.7325
琫	-14.7325
㮙	-14.7325
畷	-14.7325
滷	-14.7325
袗	-14.7325
皚	-14.7325
椵	-14.7326
鸖	-14.7327
睚	-14.7327
弍	-14.7327
爥	-14.7327
䀻	-14.7327
鈛	-14.7327
􁏄	-14.7327
鶾	-14.7327
嫈	-14.7328
錕	-14.7328
僸	-14.7328
☵	-14.7328
囁	-14.7328
􁒽	-14.7328
坿	-14.7328
廮	-14.7328
炌	-14.7328
鐪	-14.7328
㬉	-14.7329
礭	-14.7329
咂	-14.7329
蘺	-14.733
飣	-14.733
葯	-14.733
堣	-14.733
痔	-14.733
鋴	-14.733
㫪	-14.733
犹	-14.733
㩜	-14.733
䯻	-14.733
耝	-14.733
蛹	-14.733
鏚	-14.733
鱁	-14.733
杕	-14.733
蘬	-14.733
艨	-14.7331
荽	-14.7331
夋	-14.7331
奂	-14.7331
檽	-14.7331
鵑	-14.7331
䄈	-14.7331
沘	-14.7331
鮧	-14.7331
吷	-14.7331
粊	-14.7331
汦	-14.7331
髢	-14.7332
秖	-14.7332
􁃞	-14.7332
蔔	-14.7332
樷	-14.7332
竚	-14.7332
翶	-14.7332
鸗	-14.7332
櫏	-14.7332
欞	-14.7332
羛	-14.7332
鬊	-14.7332
麂	-14.7332
岋	-14.7332
窔	-14.7334
碖	-14.7334
􁆢	-14.7334
薯	-14.7334
䑸	-14.7334
荈	-14.7334
􁪛	-14.7334
嗕	-14.7334
㦻	-14.7334
䰍	-14.7334
輷	-14.7334
郰	-14.7335
蓿	-14.7335
薠	-14.7335
釴	-14.7335
螃	-14.7335
􁃻	-14.7335
污	-14.7335
儧	-14.7335
拕	-14.7335
秌	-14.7335
痀	-14.7336
跎	-14.7336
裛	-14.7336
崒	-14.7337
描	-14.7337
稊	-14.7337
􁌵	-14.7337
㚢	-14.7337
䠥	-14.7337
祢	-14.7337
𬗋	-14.7337
嶃	-14.7337
麸	-14.7337
㫃	-14.7337
􁁶	-14.7337
􁯆	-14.7337
肂	-14.7337
􁁲	-14.7338
桅	-14.7338
瞠	-14.7338
㓛	-14.7338
蠛	-14.7338
敚	-14.7338
謭	-14.7338
絣	-14.7338
緵	-14.7338
靨	-14.7338
剞	-14.7338
稳	-14.7338
譸	-14.7339
妎	-14.7339
樒	-14.7339
鋟	-14.7339
僄	-14.7339
墬	-14.7339
枿	-14.7339
㕹	-14.7339
馝	-14.7341
窿	-14.7341
悤	-14.7341
瓫	-14.7341
蓘	-14.7341
樤	-14.7341
犲	-14.7341
晣	-14.7341
辣	-14.7341
駓	-14.7341
憧	-14.7341
燇	-14.7341
𦍕	-14.7341
㮊	-14.7341
椆	-14.7342
䨓	-14.7342
􁲖	-14.7342
鬃	-14.7342
寣	-14.7342
彯	-14.7342
雰	-14.7342
􁅅	-14.7342
駜	-14.7343
医	-14.7343
緞	-14.7343
窾	-14.7343
䴢	-14.7343
尃	-14.7343
牯	-14.7343
􁓿	-14.7343
喣	-14.7343
蟟	-14.7343
􁙆	-14.7343
􁲭	-14.7343
莁	-14.7345
鍂	-14.7345
葒	-14.7345
皺	-14.7345
蛁	-14.7345
鉝	-14.7345
糢	-14.7345
缸	-14.7345
仉	-14.7346
蜱	-14.7346
夅	-14.7346
囈	-14.7346
裎	-14.7346
皡	-14.7346
㜸	-14.7346
㕦	-14.7346
侀	-14.7346
鑙	-14.7346
駣	-14.7346
躙	-14.7347
眶	-14.7348
芦	-14.7348
灄	-14.7348
􁀤	-14.7348
圮	-14.7348
娩	-14.7348
煣	-14.7348
佪	-14.7348
淴	-14.7348
鼲	-14.7348
劖	-14.7348
㩴	-14.7349
麖	-14.7349
瘸	-14.7349
肁	-14.7349
鮌	-14.7349
媕	-14.7349
㾗	-14.735
孌	-14.735
懕	-14.735
艅	-14.735
俉	-14.735
綷	-14.735
輣	-14.735
蜞	-14.7352
剱	-14.7352
罙	-14.7352
韠	-14.7352
㝫	-14.7352
鈌	-14.7352
駍	-14.7352
韊	-14.7352
噽	-14.7352
冖	-14.7353
蕖	-14.7353
踠	-14.7353
鬟	-14.7353
橓	-14.7353
痱	-14.7353
膇	-14.7353
蜾	-14.7354
薅	-14.7354
盄	-14.7354
禒	-14.7354
笤	-14.7354
鐎	-14.7355
􁜳	-14.7355
褲	-14.7355
猲	-14.7355
苣	-14.7355
鬍	-14.7355
霛	-14.7355
楎	-14.7355
灧	-14.7355
珈	-14.7355
煠	-14.7356
拑	-14.7356
鯿	-14.7356
瓤	-14.7356
􁊁	-14.7356
秊	-14.7356
栾	-14.7356
嚅	-14.7357
蝯	-14.7357
仾	-14.7357
鄸	-14.7357
裊	-14.736
躰	-14.736
愃	-14.736
䳢	-14.736
坅	-14.736
鼍	-14.736
惤	-14.736
臃	-14.7361
䳌	-14.7361
韔	-14.7361
㕺	-14.7361
㷼	-14.7361
僝	-14.7361
𠖇	-14.7363
瓈	-14.7363
埧	-14.7363
鍉	-14.7363
攛	-14.7364
巉	-14.7364
囱	-14.7364
􁁴	-14.7364
麔	-14.7366
鴰	-14.7366
螬	-14.7366
橢	-14.7367
☱	-14.7367
瀁	-14.7367
菡	-14.7367
㷆	-14.7367
䔫	-14.7368
􁆛	-14.7368
緅	-14.7368
虪	-14.737
駻	-14.7371
鵅	-14.7371
䝐	-14.7371
􁂴	-14.7371
鳺	-14.7373
鴀	-14.7373
䣅	-14.7373
蟫	-14.7374
氶	-14.7374
萁	-14.7374
藙	-14.7374
鱺	-14.7374
𡡉	-14.7374
豱	-14.7374
蠜	-14.7375
嬓	-14.7375
苨	-14.7375
倝	-14.7375
蘢	-14.7375
䊺	-14.7377
鵙	-14.7377
嬸	-14.7377
熮	-14.7377
鶅	-14.7378
鶝	-14.7378
鵗	-14.7378
嶰	-14.7378
壥	-14.7378
跔	-14.7378
蟯	-14.7378
跿	-14.738
蜈	-14.7381
琶	-14.7381
篹	-14.7381
蚣	-14.7382
㦎	-14.7382
墁	-14.7384
鯔	-14.7384
蠵	-14.7385
滆	-14.7385
矞	-14.7385
䣝	-14.7386
櫰	-14.7388
􁋑	-14.7388
墪	-14.7389
蔁	-14.7389
蟉	-14.7389
􁀰	-14.7389
鷑	-14.7391
蔦	-14.7393
蜙	-14.7396
􁊀	-14.7398
鼒	-14.7409
殥	-14.7459
笲	-15.0438
滱	-15.0516
姎	-15.0544
菥	-15.0563
嵋	-15.0571
縭	-15.0575
幜	-15.0584
㥥	-15.0584
晭	-15.0584
懰	-15.0588
獓	-15.0588
簵	-15.059
忥	-15.059
揦	-15.059
趠	-15.0592
忾	-15.0592
叒	-15.0592
灓	-15.0592
夌	-15.0597
襱	-15.0598
犤	-15.0599
㲻	-15.06
諅	-15.0601
旝	-15.0601
怢	-15.0601
蚥	-15.0603
埡	-15.0605
㤐	-15.0605
憞	-15.0605
笁	-15.0605
肎	-15.0605
鐉	-15.0605
嵆	-15.0607
鋃	-15.0611
犉	-15.0613
䣄	-15.0615
峋	-15.0615
拼	-15.0615
玺	-15.0615
褹	-15.0615
㤨	-15.0615
丆	-15.0615
撑	-15.0617
幩	-15.0617
儭	-15.0617
皸	-15.0617
梡	-15.0617
毲	-15.0617
鍍	-15.0617
芀	-15.0617
羺	-15.0619
穛	-15.0619
潑	-15.0619
嶤	-15.0619
㘩	-15.0619
坒	-15.0619
傪	-15.062
沯	-15.0621
謣	-15.0621
啬	-15.0622
舀	-15.0623
䩭	-15.0623
矈	-15.0623
眂	-15.0624
盳	-15.0624
翄	-15.0624
轆	-15.0625
嶡	-15.0625
楄	-15.0625
萩	-15.0625
踟	-15.0625
㭊	-15.0625
楱	-15.0625
郹	-15.0625
丵	-15.0626
㒞	-15.0626
艰	-15.0627
殀	-15.0627
蜇	-15.0628
摳	-15.0628
鐮	-15.0628
眧	-15.0628
綻	-15.0628
厎	-15.0628
卝	-15.0628
柌	-15.0628
歫	-15.0628
籴	-15.0629
譱	-15.0629
垻	-15.063
瀼	-15.063
瓞	-15.063
豀	-15.063
撗	-15.063
睋	-15.0632
傔	-15.0632
䄄	-15.0632
壀	-15.0632
胜	-15.0632
䚋	-15.0632
怜	-15.0632
炁	-15.0632
䄢	-15.0632
䴴	-15.0632
婏	-15.0632
辡	-15.0632
抬	-15.0632
栞	-15.0634
䗶	-15.0634
澒	-15.0634
琙	-15.0634
䵬	-15.0634
欇	-15.0636
跧	-15.0636
襕	-15.0636
熠	-15.0636
撎	-15.0636
汬	-15.0636
疻	-15.0636
薾	-15.0636
屝	-15.0636
覤	-15.0636
崿	-15.0638
沄	-15.0638
袽	-15.0638
玗	-15.0638
埢	-15.0638
唬	-15.0638
瘟	-15.0638
汫	-15.0638
嘅	-15.0638
潧	-15.0638
萧	-15.0638
碙	-15.0638
賺	-15.0638
傗	-15.064
刊	-15.064
䓣	-15.064
䘐	-15.064
虩	-15.064
陏	-15.064
葈	-15.064
輌	-15.064
辿	-15.064
嵴	-15.064
鐀	-15.064
誎	-15.064
过	-15.0641
蒤	-15.0642
泒	-15.0642
薟	-15.0642
抓	-15.0642
耤	-15.0642
㙜	-15.0642
漶	-15.0642
莔	-15.0642
腵	-15.0642
瑝	-15.0642
㯕	-15.0642
亐	-15.0642
豌	-15.0642
慲	-15.0644
嵳	-15.0644
稑	-15.0644
襏	-15.0644
宖	-15.0644
觡	-15.0644
烊	-15.0644
剼	-15.0644
襮	-15.0645
坳	-15.0646
菝	-15.0646
葜	-15.0646
勩	-15.0646
㧁	-15.0646
犣	-15.0646
銼	-15.0646
婘	-15.0646
箙	-15.0646
蘥	-15.0646
軮	-15.0646
匚	-15.0646
唧	-15.0646
歍	-15.0646
甂	-15.0646
籒	-15.0646
讘	-15.0646
贙	-15.0646
涬	-15.0648
糇	-15.0648
礰	-15.0648
嬎	-15.0648
籣	-15.0648
择	-15.0648
㫒	-15.0648
襫	-15.0648
㙲	-15.0648
畞	-15.0648
襘	-15.0648
趡	-15.0648
●	-15.065
觠	-15.065
袨	-15.065
隑	-15.065
犎	-15.065
䤋	-15.065
閌	-15.065
䒩	-15.065
悕	-15.065
譐	-15.065
维	-15.065
夑	-15.0651
䓑	-15.0651
嗽	-15.0651
喢	-15.0651
㘘	-15.0652
屺	-15.0652
擂	-15.0652
湲	-15.0652
弌	-15.0652
㤥	-15.0652
姱	-15.0652
楀	-15.0652
煐	-15.0652
貤	-15.0652
拗	-15.0652
侰	-15.0653
瘯	-15.0654
谕	-15.0654
焕	-15.0654
裌	-15.0654
妚	-15.0654
玟	-15.0654
腒	-15.0654
迻	-15.0654
蜷	-15.0654
闂	-15.0655
稆	-15.0655
嚆	-15.0655
嫽	-15.0655
励	-15.0655
弎	-15.0655
櫽	-15.0655
洢	-15.0655
矴	-15.0655
蹛	-15.0655
銙	-15.0655
撠	-15.0656
罶	-15.0657
濌	-15.0657
湩	-15.0657
㕍	-15.0657
㚇	-15.0657
佈	-15.0657
倌	-15.0657
汉	-15.0657
瑉	-15.0657
躘	-15.0657
鈏	-15.0657
膄	-15.0658
䘵	-15.0659
擽	-15.0659
妁	-15.0659
㡊	-15.0659
窗	-15.0659
矱	-15.0659
琲	-15.0659
陊	-15.0659
葓	-15.0659
竘	-15.066
湋	-15.0661
屚	-15.0661
莛	-15.0661
佀	-15.0661
憼	-15.0661
葮	-15.0661
椂	-15.0661
啎	-15.0661
庋	-15.0661
䕲	-15.0661
坆	-15.0661
廠	-15.0661
狋	-15.0661
㔥	-15.0661
㘝	-15.0661
囩	-15.0661
梂	-15.0661
醺	-15.0661
奻	-15.0663
冓	-15.0663
嘴	-15.0663
箯	-15.0663
鉆	-15.0663
囗	-15.0663
猂	-15.0663
貮	-15.0663
稃	-15.0663
賷	-15.0663
䰞	-15.0663
幇	-15.0663
蘀	-15.0663
䥩	-15.0663
桌	-15.0663
楰	-15.0663
滃	-15.0663
礴	-15.0663
籈	-15.0663
誂	-15.0663
找	-15.0663
䊆	-15.0665
邼	-15.0665
痎	-15.0665
呫	-15.0665
䔖	-15.0665
轏	-15.0665
㼾	-15.0665
謕	-15.0665
㬚	-15.0665
㽥	-15.0665
仟	-15.0665
釬	-15.0665
厺	-15.0666
儃	-15.0667
斨	-15.0667
烛	-15.0667
㫦	-15.0667
佅	-15.0667
懅	-15.0667
祙	-15.0667
胑	-15.0667
蔨	-15.0667
㷠	-15.0667
䣚	-15.0667
卮	-15.0667
罣	-15.0669
荎	-15.0669
邥	-15.0669
灮	-15.0669
裞	-15.0669
攰	-15.0669
墍	-15.0669
桺	-15.0669
溆	-15.0669
抪	-15.0669
薍	-15.0669
轚	-15.0669
矸	-15.067
芿	-15.0671
狟	-15.0671
芧	-15.0671
蹭	-15.0671
槜	-15.0671
蠮	-15.0671
墼	-15.0671
礉	-15.0671
雃	-15.0671
咜	-15.0671
墆	-15.0671
聱	-15.0671
孨	-15.0671
碽	-15.0671
蠣	-15.0671
吧	-15.0672
䍡	-15.0673
䣕	-15.0673
轗	-15.0673
咶	-15.0673
磗	-15.0673
嬥	-15.0673
请	-15.0673
㳚	-15.0673
䔩	-15.0673
痞	-15.0673
篽	-15.0674
纳	-15.0675
嶙	-15.0675
蕇	-15.0675
剷	-15.0675
桭	-15.0675
焙	-15.0675
冮	-15.0675
捌	-15.0675
趐	-15.0675
鄈	-15.0675
糁	-15.0675
蚉	-15.0676
阐	-15.0676
觩	-15.0677
蒥	-15.0677
燖	-15.0677
䮾	-15.0677
楉	-15.0677
峛	-15.0677
崺	-15.0677
涏	-15.0677
瘅	-15.0677
貗	-15.0677
犦	-15.0677
躞	-15.0678
叮	-15.0679
嚀	-15.0679
蝃	-15.0679
螉	-15.0679
偝	-15.0679
戓	-15.0679
甀	-15.0679
笰	-15.0679
稺	-15.0679
蛑	-15.068
鎏	-15.068
焄	-15.068
嶜	-15.068
螇	-15.068
匳	-15.068
㠀	-15.068
瘙	-15.068
冋	-15.0681
攩	-15.0681
礽	-15.0681
䘲	-15.0681
巚	-15.0681
蟘	-15.0681
宩	-15.0682
䗦	-15.0682
戳	-15.0682
沚	-15.0682
眵	-15.0682
㡣	-15.0682
㷲	-15.0682
啑	-15.0682
旞	-15.0682
譒	-15.0682
棆	-15.0682
豲	-15.0684
欓	-15.0684
忞	-15.0684
桚	-15.0684
㰎	-15.0684
殰	-15.0684
醎	-15.0684
掜	-15.0684
杶	-15.0684
湶	-15.0684
爹	-15.0684
妮	-15.0684
亵	-15.0684
昰	-15.0684
趮	-15.0684
亖	-15.0686
醞	-15.0686
㲰	-15.0686
礎	-15.0686
羂	-15.0686
嬾	-15.0686
尟	-15.0686
睗	-15.0686
胫	-15.0686
㨜	-15.0686
艖	-15.0686
䃣	-15.0686
暧	-15.0686
糙	-15.0686
豽	-15.0686
㢟	-15.0688
艎	-15.0688
烘	-15.0688
䀨	-15.0688
鈄	-15.0688
烚	-15.069
庒	-15.069
蘸	-15.069
傱	-15.069
凴	-15.069
痒	-15.069
貀	-15.069
肭	-15.069
㠭	-15.0692
縀	-15.0692
迾	-15.0692
划	-15.0692
泔	-15.0692
䕠	-15.0692
瀺	-15.0692
塸	-15.0692
腽	-15.0692
蹖	-15.0692
錤	-15.0694
䢾	-15.0694
螮	-15.0694
瞤	-15.0694
祴	-15.0694
緃	-15.0694
㘭	-15.0696
緉	-15.0696
渟	-15.0696
竁	-15.0698
蟈	-15.0698
侜	-15.0698
輁	-15.0698
磕	-15.07
蠑	-15.07
梔	-15.07
儡	-15.07
舐	-15.07
埻	-15.07
漻	-15.0701
郘	-15.0701
摻	-15.0702
䝨	-15.0702
唤	-15.0702
蓞	-15.0702
呀	-15.0702
斻	-15.0702
氀	-15.0702
囟	-15.0704
藾	-15.0704
泃	-15.0704
熇	-15.0704
琵	-15.0704
蠨	-15.0704
獢	-15.0704
磈	-15.0704
涭	-15.0706
嗸	-15.0706
屦	-15.0706
䲔	-15.0706
幈	-15.0706
忔	-15.0707
☴	-15.0707
葠	-15.0707
詑	-15.0707
芔	-15.0708
礁	-15.0708
晛	-15.0708
竉	-15.0709
偊	-15.0709
羜	-15.071
坴	-15.0711
脋	-15.0711
孪	-15.0711
幏	-15.0711
藫	-15.0711
鉸	-15.0713
蘵	-15.0713
謎	-15.0713
蹎	-15.0713
㽦	-15.0713
䓴	-15.0713
搰	-15.0715
曛	-15.0715
䢼	-15.0715
綍	-15.0717
醑	-15.0717
㛠	-15.0717
磓	-15.0717
萪	-15.0717
鍑	-15.0719
鍠	-15.0719
漭	-15.0721
䀭	-15.0721
欐	-15.0721
攆	-15.0723
聅	-15.0725
撬	-15.0725
裶	-15.0727
崏	-15.0727
臋	-15.0728
宔	-15.0729
攳	-15.0729
砧	-15.0731
榎	-15.0733
蚑	-15.0733
凵	-15.0734
醲	-15.0736
輵	-15.074
豜	-15.074
䝢	-15.0742
䣍	-15.0744
瘇	-15.0744
蔆	-15.0744
蚰	-15.0746
衯	-15.0754
瑿	-15.0754
沝	-15.0756
许	-15.0758
䁺	-15.076
蝌	-15.076
蛣	-15.0761
蜰	-15.0762
遰	-15.0764
郸	-15.5579
翡	-15.561
紜	-15.5658
胼	-15.5661
琊	-15.5711
錟	-16.5586
譾	-16.5587
砨	-16.5588
矺	-16.5589
玤	-16.559
撌	-16.5591
塯	-16.5592
嚪	-16.5593
䤈	-16.5594
㿅	-16.5595
㙺	-16.5596
齃	-16.5597
鶀	-16.5598
瞚	-16.5599
慁	-16.56
彲	-16.5601
㕙	-16.5602
矐	-16.5603
柣	-16.5604
峏	-16.5605
䱸	-16.5606
䬹	-16.5607
踁	-16.5608
跦	-16.5609
恮	-16.561
媦	-16.5611
嘊	-16.5612
塿	-16.5613
𨵦	-16.5614
趦	-16.5615
蜣	-16.5616
蜍	-16.5617
膀	-16.5618
羚	-16.5619
穸	-16.562
呱	-16.5621
偬	-16.5622
袈	-16.5623
裋	-16.5624
徬	-16.5625
䵹	-16.5626
蟋	-16.5627
粕	-16.5628
姶	-16.5629
萸	-16.563
腠	-16.5631
拶	-16.5632
嘵	-16.5633
髏	-16.5634
竫	-16.5635
秅	-16.5636
邂	-16.5637
逅	-16.5638
菻	-16.5639
鋮	-16.564
噠	-16.5641
霹	-16.5642
遛	-16.5643
彿	-16.5644
瑇	-16.5645
䴥	-16.5646
勠	-16.5647
㬋	-16.5648
徘	-16.5649
喁	-16.5649
憔	-16.565
>	-16.5651
=	-16.5652
倢	-16.5653
鞨	-16.5653
鵡	-16.5654
3	-16.5655
"	-16.5656
伃	-16.5657
囹	-16.5657
