<unk>	0
<s>	0
</s>	0
,	-2.10638
。	-2.9927
者	-4.93624
、	-4.98199
:「	-4.99565
;	-5.24107
。」	-5.24749
:『	-5.26171
之	-5.3569
為	-5.41976
不	-5.50609
以	-5.51394
有	-5.59911
時	-5.60241
!	-5.63559
也	-5.70483
我	-5.73785
。』	-5.74177
即	-5.75246
於	-5.75501
無	-5.76812
心	-5.7828
故	-5.78317
如	-5.82209
言	-5.84408
?	-5.84501
王	-5.86432
行	-5.87884
其	-5.88195
而	-5.88769
彼	-5.92913
人	-5.96759
佛	-5.96964
得	-5.97739
此	-5.98787
爾時	-6.00809
是	-6.03094
已	-6.04291
▁	-6.05275
如是	-6.07472
生	-6.09233
所	-6.09579
菩薩	-6.10852
見	-6.12719
中	-6.16558
身	-6.17082
諸	-6.18003
法	-6.19725
大	-6.23234
一	-6.23827
自	-6.26482
若	-6.32263
汝	-6.32922
欲	-6.33051
當	-6.36971
等	-6.38713
世尊	-6.40112
相	-6.42259
一切	-6.42781
?」	-6.44289
。「	-6.44762
曰	-6.44898
皆	-6.4535
名	-6.48527
出	-6.49137
意	-6.50914
至	-6.51013
今	-6.51307
及	-6.51486
太子	-6.54214
眾生	-6.55137
復	-6.5583
作	-6.56267
如來	-6.57185
與	-6.57993
說	-6.58376
眾	-6.58761
下	-6.59834
從	-6.61007
二	-6.61746
來	-6.62232
在	-6.63378
上	-6.6435
能	-6.64907
令	-6.66399
謂	-6.67032
天	-6.67787
亦	-6.68268
處	-6.69619
善	-6.69693
或	-6.69888
三	-6.7036
)	-6.70661
受	-6.72588
道	-6.74926
(	-6.75108
便	-6.76713
入	-6.78694
知	-6.82752
?』	-6.83336
常	-6.84072
聞	-6.84606
盡	-6.84912
四	-6.85493
事	-6.85712
願	-6.86479
求	-6.87761
食	-6.87833
因	-6.87884
子	-6.88995
比丘	-6.90448
則	-6.90668
觀	-6.91005
樂	-6.92627
清淨	-6.93558
多	-6.95383
非	-6.95499
前	-6.95698
語	-6.96623
明	-6.9731
念	-6.98861
可	-6.99605
苦	-7.00728
應	-7.02058
住	-7.05135
吾	-7.05801
供養	-7.07713
無有	-7.07951
還	-7.08199
後	-7.08604
使	-7.093
悉	-7.09523
惡	-7.10339
現	-7.11286
滅	-7.11562
又	-7.11638
取	-7.12628
猶如	-7.12899
世間	-7.13051
起	-7.13894
施	-7.13967
去	-7.14286
地	-7.15602
我今	-7.16398
智	-7.17141
難	-7.17483
成	-7.17711
死	-7.18056
然	-7.18108
修	-7.19071
乃	-7.19294
用	-7.21328
將	-7.22042
出家	-7.22309
義	-7.22448
聲	-7.22666
持	-7.23
世	-7.23012
正	-7.24076
捨	-7.25008
重	-7.25175
勝	-7.25373
乃至	-7.25641
國	-7.25758
*	-7.2577
雖	-7.26444
著	-7.26484
水	-7.26486
解	-7.27284
不能	-7.28067
空	-7.2835
報	-7.28651
日	-7.28731
師	-7.28798
經	-7.28984
共	-7.29305
本	-7.29585
離	-7.29859
云何	-7.30423
各	-7.3051
具	-7.30708
過	-7.31059
五	-7.31245
教	-7.3192
既	-7.32374
何	-7.32848
女	-7.3306
問	-7.3427
大王	-7.34934
隨	-7.34937
色	-7.35338
寶	-7.35525
坐	-7.36281
果	-7.36328
種種	-7.3758
往	-7.38652
命	-7.38981
度	-7.40359
先	-7.40385
力	-7.40389
喻	-7.40488
必	-7.40739
無量	-7.4106
歡喜	-7.41259
除	-7.41736
。』「	-7.42019
生死	-7.42188
頭	-7.42911
耶	-7.45112
功德	-7.45168
未	-7.46206
華	-7.46699
家	-7.46781
是時	-7.46843
德	-7.46991
淨	-7.47776
智慧	-7.48269
戒	-7.48292
向	-7.48518
斷	-7.48602
好	-7.49133
火	-7.49167
。】「	-7.49564
父母	-7.49614
定	-7.50071
梵志	-7.50205
利	-7.50251
尊	-7.50647
愛	-7.52325
化	-7.5258
具足	-7.53165
唯	-7.53845
更	-7.54457
。」【	-7.54515
極	-7.54665
諸天	-7.55359
母	-7.56368
緣	-7.56921
到	-7.57173
是故說曰	-7.57278
分	-7.57384
神	-7.57481
耳	-7.57773
我等	-7.57927
發	-7.58182
斯	-7.59043
內	-7.59275
業	-7.59393
善男子	-7.59548
安	-7.59697
光	-7.59865
妙	-7.59987
白	-7.61467
布施	-7.61507
俱	-7.61533
同	-7.61657
莫	-7.62179
猶	-7.62651
自在	-7.63265
獲	-7.63281
證	-7.64074
滿	-7.64229
煩惱	-7.64655
:「『	-7.64902
答言	-7.6608
小	-7.66213
於是	-7.66434
實	-7.66706
識	-7.67384
婆羅門	-7.67527
山	-7.68606
汝等	-7.68609
種	-7.69243
門	-7.69673
甚	-7.69884
初	-7.699
信	-7.69968
長者	-7.70029
樹	-7.70585
解脫	-7.70737
名曰	-7.70764
轉	-7.70829
沙門	-7.71649
尋	-7.71699
口	-7.7176
請	-7.71774
有一	-7.71939
深	-7.71968
三昧	-7.72066
矣	-7.72821
但	-7.72872
病	-7.73061
覺	-7.73663
依	-7.73692
失	-7.73865
乎	-7.7393
足	-7.74085
邊	-7.74616
思惟	-7.75774
成就	-7.75973
形	-7.76128
想	-7.76215
不得	-7.76285
真實	-7.77107
稱	-7.77164
長	-7.77192
學	-7.77354
即便	-7.77767
慧	-7.77847
別	-7.77987
真	-7.78142
由	-7.78192
七	-7.78367
是故	-7.78824
善哉	-7.78938
他	-7.79339
不可	-7.79437
龍	-7.79985
立	-7.80123
貪	-7.80496
方	-7.80527
皆悉	-7.80632
阿難	-7.80693
象	-7.81076
歸	-7.81289
香	-7.81426
少	-7.81809
罪	-7.81827
八	-7.82077
結	-7.82094
福	-7.82096
六	-7.82181
流	-7.82752
爾	-7.83959
止	-7.84176
說法	-7.84339
。△	-7.84389
眼	-7.84704
性	-7.84804
數	-7.85247
光明	-7.85331
金	-7.85642
迦葉	-7.86194
會	-7.86413
城	-7.87174
:	-7.87387
恒	-7.87415
自然	-7.87531
告	-7.87796
合	-7.88368
體	-7.88498
於彼	-7.89175
所謂	-7.8925
。』」「	-7.89612
餘	-7.89715
遠離	-7.91097
云	-7.91238
造	-7.91368
衣	-7.91433
因緣	-7.91605
夫	-7.92009
婦	-7.92033
根	-7.92078
雨	-7.92708
花	-7.935
五百	-7.93813
夫人	-7.94212
獨	-7.95162
殺	-7.95292
精進	-7.9533
聖	-7.95539
被	-7.9562
莊嚴	-7.95749
普	-7.95838
外	-7.9717
廣	-7.97444
無所	-7.97509
馬	-7.97523
佛言	-7.97609
藏	-7.97731
理	-7.97843
致	-7.97879
墮	-7.97983
分別	-7.98431
物	-7.9853
喜	-7.98847
父	-7.99334
弟子	-7.99364
須	-7.99646
飲食	-8.00409
趣	-8.01123
照	-8.0113
釋	-8.01329
手	-8.01396
聽	-8.01661
主	-8.01909
兒	-8.02253
諸佛	-8.02613
仙人	-8.03699
遠	-8.03779
奉	-8.03969
寂靜	-8.04105
》	-8.04284
如此	-8.04326
爾時世尊	-8.05521
通	-8.05732
執	-8.06195
不知	-8.06398
覩	-8.06534
邪	-8.0704
親	-8.0718
所有	-8.07759
懷	-8.07897
無常	-8.08108
時彼	-8.08181
興	-8.08205
棄	-8.08509
開	-8.08718
亦不	-8.08948
微妙	-8.09102
答曰	-8.09872
設	-8.09906
之人	-8.10512
害	-8.10516
志	-8.10638
是故說	-8.10745
或有	-8.1093
思	-8.11211
高	-8.11235
壞	-8.11313
散	-8.11446
毒	-8.11482
詣	-8.11512
速	-8.1205
譬如	-8.12161
國王	-8.12265
昔	-8.12369
財	-8.13204
根本	-8.13526
十	-8.13769
第一	-8.13989
白佛言	-8.14124
久	-8.14475
居	-8.14575
故云	-8.14803
乘	-8.14866
所以	-8.14881
情	-8.15051
人民	-8.15312
放	-8.15408
護	-8.15418
今日	-8.15843
月	-8.16031
正法	-8.16227
魔	-8.16272
亦復如是	-8.16314
次	-8.16459
論	-8.16475
羅	-8.1687
汝今	-8.16886
脫	-8.16903
方便	-8.17225
卿	-8.17334
顯	-8.17474
百	-8.17554
仁	-8.17603
年	-8.1785
。」「	-8.18171
遂	-8.18353
涅槃	-8.19051
習	-8.19084
童子	-8.19156
千	-8.19209
世界	-8.19419
破	-8.19638
於此	-8.19711
息	-8.19764
菩提	-8.20161
近	-8.20328
怨	-8.20524
恩	-8.20681
說偈言	-8.20728
己	-8.20863
染	-8.20965
舍	-8.21132
目	-8.21156
憂	-8.21354
不見	-8.21562
答	-8.22305
鬼	-8.22428
之法	-8.22688
諸比丘	-8.22722
草	-8.2304
舉	-8.23211
之中	-8.23459
集	-8.23681
宜	-8.23922
海	-8.24302
劫	-8.24336
即是	-8.24342
若有	-8.24437
之所	-8.24442
字	-8.24541
勅	-8.24553
十方	-8.24791
號	-8.24895
作如是言	-8.2498
服	-8.2519
反	-8.25978
車	-8.26476
達	-8.26479
一切眾生	-8.2658
無數	-8.26697
瞋恚	-8.26798
復有	-8.26884
盛	-8.26926
巳	-8.27021
陀	-8.27107
大臣	-8.27199
圓滿	-8.27445
修行	-8.27517
老	-8.27802
異	-8.27962
書	-8.28716
動	-8.28763
患	-8.29037
要	-8.29214
適	-8.29478
路	-8.29789
界	-8.29799
悲	-8.30017
阿	-8.30045
迦	-8.30295
且	-8.30346
佛告	-8.30687
計	-8.30783
智者	-8.30903
摩	-8.31034
加	-8.31235
眷屬	-8.31581
悟	-8.31973
那	-8.32137
觀察	-8.32166
位	-8.3262
禮	-8.32737
風	-8.32996
忍	-8.33492
敬	-8.3367
神通	-8.33812
歎	-8.34002
命終	-8.3408
大眾	-8.34124
三界	-8.3441
今者	-8.34447
益	-8.34482
終	-8.34521
攝	-8.34842
平等	-8.3488
誰	-8.3493
變	-8.35119
婆	-8.35131
尊者	-8.35521
面	-8.35573
名為	-8.35867
沒	-8.35945
感	-8.35987
夜	-8.36839
悉皆	-8.37058
慈	-8.37219
舍利弗	-8.37493
臣	-8.37947
縛	-8.38076
過去	-8.38631
果報	-8.38659
視	-8.38722
遇	-8.39063
顛倒	-8.39119
有情	-8.3934
僧	-8.39825
以為	-8.39948
之處	-8.39956
遍	-8.3997
道人	-8.4007
濟	-8.40122
音	-8.40254
。「『	-8.40877
天子	-8.41327
恐	-8.41433
境	-8.41487
疑	-8.41506
辭	-8.41574
遣	-8.41786
增	-8.41834
故曰	-8.41962
七寶	-8.42
眾人	-8.42069
我當	-8.4215
最	-8.42178
疾	-8.42193
之時	-8.42375
兩	-8.42867
牛	-8.43042
女人	-8.43156
愚	-8.432
又復	-8.44264
亦無	-8.44276
藥	-8.44623
師子	-8.44656
始	-8.44745
虛空	-8.45405
凡	-8.4558
端正	-8.45753
治	-8.45857
勸	-8.45942
此是	-8.4601
所說	-8.46501
頌	-8.46634
鹿	-8.46727
惑	-8.46943
器	-8.47149
鉢	-8.47406
不生	-8.47442
愚癡	-8.47605
宿	-8.47721
身體	-8.47858
帝釋	-8.47942
勿	-8.48119
宮	-8.48152
和	-8.48245
并	-8.48274
而說偈言	-8.48754
增上	-8.49351
自性	-8.495
賊	-8.49571
各各	-8.49581
亂	-8.49643
覆	-8.49842
供	-8.50154
福德	-8.50215
進	-8.5027
塵	-8.50323
甘露	-8.50394
凡夫	-8.50832
安隱	-8.50833
之心	-8.50926
一者	-8.50938
味	-8.51088
當知	-8.51205
示	-8.51252
二者	-8.51353
對	-8.51382
晝夜	-8.51448
終不	-8.51549
痛	-8.51681
不淨	-8.52016
調伏	-8.52029
天下	-8.52261
七日	-8.52415
禪	-8.52715
見佛	-8.52736
指	-8.53012
救	-8.53152
邪見	-8.53272
今此	-8.53466
王子	-8.53524
垂	-8.53586
及諸	-8.53668
而不	-8.53687
苦行	-8.5382
賢	-8.53861
守	-8.53979
珍寶	-8.53979
恐怖	-8.53979
癡	-8.54081
望	-8.54138
《	-8.54353
無上	-8.54384
直	-8.54779
提	-8.54833
一一	-8.54968
地獄	-8.55092
其心	-8.55253
佛告諸比丘	-8.55302
違	-8.55549
父王	-8.55917
車匿	-8.56209
九	-8.56388
!」	-8.56406
在於	-8.56498
是為	-8.56522
持戒	-8.56678
順	-8.56703
林	-8.57263
邊際	-8.57369
所作	-8.5755
遊	-8.57616
苦惱	-8.57766
一人	-8.57843
聚	-8.57926
成佛	-8.58263
絕	-8.58294
寧	-8.58471
壽	-8.58774
難陀	-8.58906
觸	-8.59247
究竟	-8.5929
民	-8.59414
蒙	-8.59607
障	-8.59654
天人	-8.59766
比	-8.60056
龍王	-8.60485
傷	-8.60515
辟支佛	-8.60958
畏	-8.61135
百千	-8.61206
微	-8.61254
一心	-8.6156
復次	-8.61586
日月	-8.6166
王曰	-8.61721
何以故	-8.61754
最勝	-8.62203
積	-8.62368
往昔	-8.62433
安樂	-8.62564
就	-8.62674
而行	-8.62683
恚	-8.62724
品	-8.62857
首	-8.63051
隨順	-8.63057
善根	-8.63196
置	-8.6328
土	-8.63374
了知	-8.63518
伏	-8.63999
聲聞	-8.64154
美	-8.64347
白言	-8.6435
髮	-8.64472
授	-8.64855
其身	-8.6492
呼	-8.64928
忽	-8.65056
五欲	-8.65215
語言	-8.65384
人天	-8.65464
類	-8.65594
蓮華	-8.65833
讚	-8.66078
恭敬	-8.66353
而去	-8.66817
何故	-8.66822
值	-8.66824
惟	-8.66837
留	-8.66917
迷	-8.67101
止息	-8.6725
金剛	-8.6735
於我	-8.67402
肉	-8.67486
燒	-8.6757
兄	-8.67599
蓋	-8.67689
易	-8.67694
索	-8.67831
修習	-8.67879
輩	-8.68071
咸	-8.68545
最上	-8.68559
竟	-8.68722
諦	-8.68724
波	-8.68795
座	-8.69117
于	-8.69206
都	-8.69234
三寶	-8.69302
八萬四千	-8.69477
▁一	-8.69786
文	-8.69825
降	-8.69825
臥	-8.69841
仁者	-8.69893
石	-8.69931
不樂	-8.70342
全	-8.70407
惱	-8.70498
養	-8.70817
珠	-8.71004
犯	-8.7102
輪	-8.71065
賢聖	-8.71198
聚落	-8.71225
其人	-8.71258
▁二	-8.71615
亦復	-8.71631
餓鬼	-8.71798
欲得	-8.71849
熱	-8.71989
尼	-8.72158
梵天	-8.7221
不如	-8.72332
飲	-8.72374
不應	-8.72715
然後	-8.72926
或復	-8.73024
退	-8.73075
強	-8.735
拔	-8.73661
永	-8.73777
大悲	-8.74035
。』」	-8.74062
問言	-8.74067
瓔珞	-8.74109
雜	-8.74209
殊勝	-8.74374
仙	-8.74384
虛	-8.747
夜叉	-8.74786
放逸	-8.74842
。(	-8.74881
輕	-8.74934
外道	-8.75147
承	-8.75323
池	-8.75334
鳥	-8.75364
廣大	-8.755
喚	-8.75563
瞋	-8.75914
制	-8.75966
貪欲	-8.76008
無畏	-8.76134
帝	-8.76258
樹下	-8.76291
衣服	-8.76292
梵	-8.76354
無明	-8.76395
毘	-8.76451
捉	-8.76506
嚴	-8.76508
次第	-8.76605
以是	-8.76689
諸法	-8.76824
於時	-8.77246
大乘	-8.77444
佛法	-8.77548
國土	-8.77612
彼人	-8.77622
園	-8.77836
冥	-8.77955
即時	-8.78068
尚	-8.78224
以此	-8.78321
是以	-8.78368
許	-8.78447
作是念	-8.78512
造作	-8.78532
利益	-8.78682
為我	-8.79192
表	-8.79412
彼等	-8.79861
存	-8.80113
漸	-8.80492
目連	-8.80514
塔	-8.80638
萬	-8.80644
快	-8.80667
畢	-8.8083
備	-8.80884
吉祥	-8.80933
妄	-8.80976
亦如是	-8.8107
却	-8.8128
無為	-8.81294
畜生	-8.81357
妻	-8.81386
河	-8.81407
誠	-8.81833
繫	-8.8189
所願	-8.82183
令我	-8.82563
境界	-8.82694
無漏	-8.82873
王言	-8.82913
引	-8.83153
雲	-8.83283
有大	-8.83347
逐	-8.83413
走	-8.83486
得道	-8.83499
聞已	-8.83786
忍辱	-8.83839
此人	-8.83915
逮	-8.84096
一切諸	-8.84239
財寶	-8.8444
其中	-8.84706
堅固	-8.8487
間	-8.84903
飯	-8.84968
有何	-8.84998
毀	-8.85276
伽	-8.85374
氣	-8.85408
宮殿	-8.85425
密	-8.85504
投	-8.85561
亡	-8.85938
應當	-8.86073
哀	-8.86213
此事	-8.8641
之事	-8.8644
群	-8.86482
增長	-8.86559
調	-8.86574
柔軟	-8.86629
獼猴	-8.86862
教化	-8.86897
及以	-8.87018
不復	-8.8702
不久	-8.87052
不為	-8.87139
第二	-8.87237
禪定	-8.87611
與我	-8.87817
決定	-8.88044
飢渴	-8.88052
乞	-8.887
讚歎	-8.88785
二人	-8.88838
堅	-8.88845
見已	-8.88917
天上	-8.88967
船	-8.89173
唯願	-8.89289
箭	-8.89349
弟	-8.89394
一時	-8.89412
左右	-8.89421
蛇	-8.89451
相貌	-8.89548
心意	-8.89604
在家	-8.89615
憍慢	-8.89802
怖	-8.89815
未曾	-8.89928
乞食	-8.90104
法門	-8.90261
得解脫	-8.90273
諸根	-8.90827
兵	-8.91022
無邊	-8.91024
熟	-8.91154
富	-8.91213
默然	-8.91232
天王	-8.91355
淨飯王	-8.91403
夢	-8.91499
誓	-8.91569
即以	-8.91625
頓	-8.91724
鬼神	-8.91734
善惡	-8.91779
室	-8.9179
半	-8.91959
善法	-8.92008
三者	-8.92024
以是因緣	-8.92167
所以者何	-8.92408
悔	-8.92429
看	-8.92694
是名	-8.92791
大海	-8.93047
無不	-8.93148
所見	-8.93216
唯有	-8.93388
諸眾生	-8.93517
王者	-8.93546
快樂	-8.93761
木	-8.94046
決	-8.9414
於中	-8.94288
時有	-8.9441
垢	-8.94514
如是等	-8.94646
活	-8.94664
如彼	-8.94675
相應	-8.94736
親近	-8.94857
!』	-8.94896
逆	-8.95102
唱	-8.95399
驚	-8.95576
鼓	-8.9567
田	-8.95695
故名	-8.957
「	-8.95721
聞法	-8.95797
遮	-8.95908
佛告阿難	-8.95952
越	-8.9596
俗	-8.96169
辦	-8.96283
多聞	-8.96634
男女	-8.96685
厭	-8.96761
至於	-8.96791
提婆達多	-8.97024
靜	-8.9719
笑	-8.97214
士	-8.97487
若人	-8.97693
即得	-8.97837
隱	-8.97895
希有	-8.97969
侍	-8.98024
穢	-8.98092
貴	-8.98221
沙	-8.98275
飛	-8.98314
成道	-8.98574
圓	-8.98734
瞿曇	-8.98835
慢	-8.992
往詣	-8.99209
三世	-8.99291
王即	-8.99467
平	-8.99578
勞	-8.99693
稽首	-8.99904
損	-8.99927
宣	-9.00243
比丘尼	-9.00299
闍	-9.00348
量	-9.00379
佛土	-9.00431
相好	-9.00449
若不	-9.00485
梵行	-9.00505
拘	-9.00541
皆是	-9.0058
而作是言	-9.00585
是處	-9.00725
清	-9.00848
貧窮	-9.01019
況	-9.01022
釋種	-9.01058
聖子	-9.0107
錢	-9.0116
了	-9.01258
記	-9.01305
我身	-9.01313
為王	-9.01491
慈心	-9.01497
無垢	-9.01597
所行	-9.0162
音聲	-9.0176
見其	-9.01775
寂	-9.01807
不動	-9.01925
烏	-9.02154
聞佛所說	-9.02201
不肯	-9.02224
報言	-9.02245
世人	-9.02507
是也	-9.02944
亦如	-9.02996
群臣	-9.03163
倍	-9.03299
白王言	-9.03331
妃	-9.03376
精	-9.03457
血	-9.0378
兼	-9.03867
忽然	-9.04344
無我	-9.04615
臨	-9.04618
總	-9.04783
諸有	-9.04819
諸人	-9.04845
勤	-9.04944
君	-9.05037
恩愛	-9.05253
佛說	-9.05646
國中	-9.05683
焉	-9.05809
對曰	-9.0587
魚	-9.05983
無復	-9.06251
降伏	-9.06315
身心	-9.06431
哉	-9.0646
心生	-9.06512
待	-9.06528
送	-9.06538
不善	-9.0654
容	-9.06546
羅漢	-9.06621
我所	-9.06676
神力	-9.06722
導	-9.06837
眾僧	-9.06838
布	-9.06847
梨	-9.06944
印	-9.06963
避	-9.06981
渡	-9.07255
生於	-9.07503
迴	-9.07697
牽	-9.07698
啟	-9.07716
衰	-9.0772
作是念已	-9.07802
慚愧	-9.07821
網	-9.07914
婬	-9.07943
抱	-9.08065
共相	-9.08095
句	-9.08108
發心	-9.08124
威儀	-9.08229
追	-9.08307
身命	-9.08525
屬	-9.08725
愛樂	-9.08824
不同	-9.08933
神足	-9.09404
堂	-9.09419
有所	-9.0952
骨	-9.09632
仰	-9.09698
妙法	-9.09787
若干	-9.09886
結使	-9.09895
床	-9.09915
領	-9.09929
臂	-9.09951
以上	-9.10097
內外	-9.10176
細	-9.10358
打	-9.10392
辯	-9.10778
燈	-9.10911
處所	-9.10922
所生	-9.10933
泥洹	-9.10943
莫不	-9.10953
壽命	-9.10954
頂	-9.10992
佛語	-9.11204
像	-9.1131
新	-9.11315
假	-9.11572
節	-9.11691
不可得	-9.117
薄	-9.11779
發生	-9.11889
消	-9.11907
金色	-9.11911
乳	-9.11992
齊	-9.12102
皮	-9.12121
不著	-9.12261
長老	-9.12433
此法	-9.12448
阿羅漢	-9.12521
四者	-9.1255
塗	-9.12594
慈悲	-9.127
不受	-9.12712
無能	-9.12741
眾寶	-9.12745
無倒	-9.12811
令其	-9.12873
為人	-9.1288
悅	-9.12914
十二	-9.13192
必當	-9.13233
步	-9.13283
妻子	-9.13505
見之	-9.13567
力用	-9.13664
彌勒	-9.13699
大師	-9.1372
陰	-9.13922
暫	-9.14089
射	-9.14104
無異	-9.14182
我見	-9.14351
顧	-9.14373
遙見	-9.14431
曾	-9.1448
四方	-9.14492
菩薩摩訶薩	-9.14613
喪	-9.14663
勝義	-9.14689
聽聞	-9.14734
窮	-9.14858
欲求	-9.14878
急	-9.14879
察	-9.14881
差	-9.14895
億	-9.14903
示現	-9.1494
今當	-9.15028
黑	-9.15032
不信	-9.15176
皆由	-9.15404
何為	-9.15468
無量無邊	-9.1565
純	-9.15657
現在	-9.158
有人	-9.15938
山林	-9.15963
和合	-9.16004
遭	-9.16142
不覺	-9.16176
術	-9.16264
似	-9.16283
自知	-9.16526
瞻	-9.16532
彌	-9.16581
漏	-9.16717
貧	-9.16908
葉	-9.16947
未來	-9.16959
落	-9.17097
見此	-9.17117
第三	-9.17124
諸臣	-9.17175
懺悔	-9.17341
不敢	-9.17429
後世	-9.17489
助	-9.17526
成阿耨多羅三藐三菩提	-9.17594
有力	-9.17751
王位	-9.17856
何等	-9.1786
約	-9.1802
審	-9.18113
徹	-9.18118
負	-9.18251
大地	-9.18531
生天	-9.18676
睡眠	-9.18684
噉	-9.18758
戰	-9.19091
於諸	-9.19114
佛世尊	-9.19281
聞是語已	-9.19444
空中	-9.1954
中有	-9.19674
出世	-9.19704
調達	-9.19848
瓶	-9.20108
隨意	-9.20125
入於	-9.20138
南	-9.20267
愚人	-9.2038
無礙	-9.20385
安住	-9.20509
閻浮提	-9.20527
舌	-9.20574
守護	-9.20656
發阿耨多羅三藐三菩提心	-9.20663
愛欲	-9.20693
功	-9.20697
白象	-9.20872
今我	-9.20909
魔王	-9.20994
刺	-9.21117
遷變	-9.21235
處處	-9.21365
若有眾生	-9.21413
機	-9.21513
】	-9.21702
演	-9.21773
婇女	-9.21869
威德	-9.21909
愍	-9.21983
正見	-9.22053
赤	-9.22123
給	-9.22127
偈	-9.22367
漸漸	-9.22385
何所	-9.22426
有此	-9.2248
背	-9.22484
之曰	-9.22682
心念	-9.22795
而白佛言	-9.22799
訖	-9.2281
捨離	-9.22836
一切智	-9.2289
人間	-9.22953
諍	-9.23053
樹木	-9.2308
雖復	-9.23083
我為	-9.2329
影	-9.23365
是謂	-9.23435
受苦	-9.23882
若欲	-9.23993
手執	-9.24022
問曰	-9.24083
染著	-9.2414
若能	-9.24179
令彼	-9.24315
作是語已	-9.2433
充滿	-9.24362
非法	-9.24646
刀	-9.24693
超	-9.247
而得	-9.25069
賣	-9.25082
之行	-9.25148
憶	-9.25195
軍	-9.25206
憐愍	-9.25247
化作	-9.25336
可得	-9.2539
精舍	-9.25464
我於	-9.25501
乾	-9.25581
懸	-9.25602
權	-9.25624
諸惡	-9.25664
速疾	-9.25711
殿	-9.25728
時王	-9.25742
財物	-9.25798
呪	-9.26021
戲	-9.26031
交	-9.26042
見彼	-9.26053
御	-9.26385
若我	-9.26407
鼻	-9.26503
徧	-9.26529
天地	-9.26546
側	-9.26565
吉	-9.26588
山中	-9.26606
塵勞	-9.26659
▁三	-9.2667
其意	-9.26692
白王	-9.2683
大聖	-9.26911
道士	-9.2693
遺	-9.27101
污	-9.27103
元	-9.27213
而彼	-9.27406
來至	-9.27462
聞之	-9.27547
脚	-9.27618
末	-9.27911
誦	-9.27993
不與	-9.28054
獄	-9.28061
須彌	-9.28075
所得	-9.28081
姓	-9.2816
飾	-9.28204
免	-9.28301
淨妙	-9.2834
寂然	-9.28351
宗	-9.2841
人中	-9.28412
不離	-9.28794
熾盛	-9.28796
大小	-9.29215
十六	-9.29284
泥	-9.29317
繫縛	-9.29411
敷	-9.29573
並	-9.2959
正念	-9.29596
略	-9.29744
洗	-9.30006
閉	-9.30065
五人	-9.30094
盲	-9.30557
在此	-9.3057
醫	-9.30828
固	-9.31079
所在	-9.31189
資	-9.31226
何以	-9.31239
殃	-9.3169
迎	-9.31873
擲	-9.31889
腹	-9.31924
每	-9.31947
不以	-9.32065
懼	-9.32151
熾然	-9.32191
不起	-9.32228
寶藏如來	-9.32353
專	-9.32472
周	-9.32637
眾苦	-9.32642
遊戲	-9.32666
羅剎	-9.32685
之言	-9.32834
圍繞	-9.32888
亦然	-9.33105
佛所	-9.33127
滿足	-9.33225
是我	-9.33274
導師	-9.33597
天帝	-9.33689
嗚呼	-9.33736
食之	-9.33741
杖	-9.33773
心不	-9.33848
威神	-9.33906
皆有	-9.34125
不自	-9.34155
圍遶	-9.34165
東	-9.3419
三乘	-9.34199
舊	-9.34212
已得	-9.34248
忘	-9.34267
諍訟	-9.34327
袈裟	-9.34375
儀	-9.34426
唯願世尊	-9.34713
無比	-9.34944
出家菩薩	-9.34974
產	-9.34997
歡	-9.35045
巧	-9.35116
青	-9.35173
爾時菩薩	-9.35181
豈	-9.35187
鳴	-9.352
怒	-9.35223
色相	-9.35227
清涼	-9.35254
將來	-9.35298
於其	-9.35362
付	-9.35381
岸	-9.35392
問訊	-9.35412
法寶	-9.35419
明日	-9.35521
苾芻	-9.35659
有二	-9.35666
族	-9.35734
而生	-9.35798
欲界	-9.35816
願我	-9.35819
代	-9.35876
沙彌	-9.35897
舍宅	-9.35922
馳	-9.36011
歷	-9.36129
聞佛	-9.36401
手足	-9.36484
鐵	-9.36669
以其	-9.36794
其子	-9.36842
慕	-9.3693
潤	-9.36932
屈	-9.36975
昔有	-9.37003
不能得	-9.37055
尸	-9.37117
假使	-9.37179
責	-9.37238
天神	-9.37324
心懷	-9.3737
載	-9.37378
商主	-9.37447
銀	-9.37596
幢	-9.37693
四種	-9.3776
不退	-9.37828
請佛	-9.37883
獸	-9.38105
名稱	-9.38172
受持	-9.38318
隋言	-9.38373
報曰	-9.38562
破壞	-9.38645
行者	-9.38661
蓮花	-9.38792
王聞	-9.38848
轉輪聖王	-9.38852
舍利	-9.38859
獵師	-9.38902
惠施	-9.38924
古	-9.39042
無盡	-9.39158
小兒	-9.39289
伴	-9.39334
須臾	-9.39345
睒	-9.39466
威	-9.39516
天女	-9.39535
惠	-9.39653
村	-9.39804
福田	-9.39812
闇	-9.39898
勇猛	-9.39933
亦爾	-9.40017
善心	-9.4007
數數	-9.40178
所須	-9.40267
汝當	-9.40423
如法	-9.40424
雖有	-9.40444
麤	-9.40589
推	-9.40626
懊惱	-9.40632
頂禮	-9.40677
白佛	-9.40853
之本	-9.40953
遙	-9.41026
未得	-9.41062
良以	-9.41071
多有	-9.41177
典	-9.41338
奇	-9.41362
令得	-9.41378
告言	-9.414
濁	-9.41446
歡喜踊躍	-9.41567
當得	-9.41601
貪著	-9.41694
叉手	-9.41706
昇	-9.41804
弓	-9.41933
皆得	-9.41951
眾會	-9.42013
竭	-9.42191
再	-9.42192
收	-9.42239
諸佛世尊	-9.42293
怪	-9.42321
伎樂	-9.42485
禁戒	-9.4254
我子	-9.42553
殘	-9.42636
因果	-9.42662
四天王	-9.42672
靡不	-9.42815
禍	-9.42824
牢	-9.42831
耶輸陀羅	-9.43149
作禮	-9.43295
城門	-9.43303
毒蛇	-9.43336
賤	-9.43375
歲	-9.43378
而住	-9.43382
顏	-9.43512
禁	-9.43584
六師	-9.43626
真如	-9.43657
困	-9.43712
非常	-9.4378
聖人	-9.43796
此云	-9.43889
?』「	-9.43893
里	-9.43937
四大	-9.44021
穀	-9.44086
非是	-9.44275
切	-9.44398
甚深	-9.44514
三藐三佛陀	-9.44518
傳	-9.44542
危	-9.44682
須達	-9.44704
我以	-9.44961
堪	-9.44967
為說	-9.45062
法身	-9.45073
憂愁	-9.45093
徒	-9.45249
默	-9.45308
彼時	-9.45326
他人	-9.455
嚴飾	-9.4555
。《	-9.45619
露	-9.45642
踰	-9.45837
發菩提心	-9.45908
善友	-9.45952
作是	-9.45985
私	-9.46079
雙	-9.46085
不識	-9.46147
琉璃	-9.46149
至彼	-9.46196
男	-9.4628
奉事	-9.46286
希求	-9.46314
不用	-9.46341
諸菩薩	-9.46346
入城	-9.46362
一念	-9.46396
敗	-9.46564
任	-9.46708
北	-9.46709
周匝	-9.46804
修作	-9.46847
而來	-9.46881
標	-9.46898
三種	-9.46911
金銀	-9.46936
報恩	-9.47015
復更	-9.47017
皆為	-9.47044
作如是念	-9.4709
部	-9.47139
是人	-9.47212
期	-9.47279
如我	-9.47305
不捨	-9.4733
為沙門	-9.47367
震動	-9.47717
三十二	-9.47859
種姓	-9.47974
生老病死	-9.47998
蜜	-9.48027
種子	-9.48058
王舍城	-9.48089
愚者	-9.4809
曉	-9.48125
停	-9.48266
而自	-9.48297
眠	-9.48338
接	-9.48365
充	-9.48386
十八	-9.48409
行人	-9.48429
諸釋	-9.48445
何處	-9.48517
甘	-9.48629
瘡	-9.48634
愁	-9.48637
由是	-9.48695
定意	-9.48751
陳	-9.48786
心生歡喜	-9.48829
靈	-9.48953
城中	-9.49173
薪	-9.49188
。○	-9.49193
寒	-9.49209
朝	-9.49228
▁「	-9.49269
倒	-9.49343
長夜	-9.49412
佛教	-9.49444
恨	-9.49546
四諦	-9.49584
狂	-9.49654
盜	-9.49814
賢者	-9.49845
叉	-9.49872
欲令	-9.49889
我慢	-9.4989
天帝釋	-9.49947
端	-9.50039
星	-9.50048
運載	-9.50173
老母	-9.50196
或有菩薩	-9.50353
法中	-9.50412
奴	-9.50414
歡喜奉行	-9.50444
諸王	-9.50462
宮中	-9.50491
不及	-9.50592
其所	-9.50691
不失	-9.50736
遊行	-9.50786
修道	-9.50877
誰能	-9.51047
『	-9.51048
應供	-9.51067
此處	-9.51081
彼岸	-9.51245
自身	-9.51301
即為	-9.51303
宮內	-9.51304
卿等	-9.51361
奪	-9.51412
卒	-9.51419
時諸比丘	-9.51436
一日	-9.51456
優婆塞	-9.51538
合掌	-9.51737
滅度	-9.51761
亦當	-9.51766
善業	-9.51794
兄弟	-9.51868
商人	-9.51968
欲使	-9.51969
曠野	-9.5199
於佛	-9.52009
男子	-9.52071
棄捨	-9.52074
為惡	-9.52087
變化	-9.52094
天人師	-9.52175
黃	-9.52317
尊重	-9.52318
自思惟	-9.52394
原	-9.5245
纏	-9.52456
梵王	-9.5254
能斷	-9.52666
試	-9.52699
況復	-9.52728
誓願	-9.5273
自歸	-9.52775
惡業	-9.52832
良	-9.52837
正遍知	-9.52914
渴	-9.53104
愈	-9.53112
往來	-9.53258
有漏	-9.53273
【	-9.53276
其母	-9.5328
佛道	-9.53317
割	-9.53343
迷惑	-9.53345
何況	-9.53483
學道	-9.53647
牢固	-9.53655
得見	-9.53668
臺	-9.53738
之相	-9.53782
歸命	-9.53994
寤	-9.54027
三十	-9.54135
精勤	-9.54182
野	-9.54191
焰	-9.54275
移	-9.54366
榮	-9.54387
摩訶	-9.54412
佛即	-9.54432
往至	-9.54436
如人	-9.54464
聞如是	-9.54495
於世	-9.54522
樓	-9.54544
誹謗	-9.54757
道路	-9.54773
無厭	-9.54824
必有	-9.54906
召	-9.54908
經歷	-9.5495
水中	-9.54971
善逝	-9.54983
復問	-9.54992
安置	-9.54995
當來	-9.55081
縱	-9.55175
阿修羅	-9.55185
檀越	-9.55239
前後	-9.55247
六十	-9.55266
啼哭	-9.55456
差別	-9.55639
不聞	-9.5584
截	-9.55896
婆羅門言	-9.55898
欺	-9.55913
并及	-9.56094
如意	-9.56123
丈夫	-9.56295
施與	-9.563
利養	-9.5631
演說	-9.56421
法者	-9.56506
勤苦	-9.56519
時諸	-9.56605
早	-9.56608
折	-9.56663
至誠	-9.56694
前白佛言	-9.56728
住處	-9.56735
懈怠	-9.56813
當為	-9.56868
作是思惟	-9.56923
出城	-9.5694
寂滅	-9.57122
波羅蜜	-9.57229
官	-9.57305
淵	-9.57305
宿命	-9.57308
自念	-9.5732
聽法	-9.5742
汝可	-9.57464
日日	-9.57529
智光	-9.57641
涉	-9.57714
力士	-9.57752
惜	-9.57787
其婦	-9.57947
吐	-9.57965
與之	-9.57984
猛	-9.57989
歸依	-9.58052
發起	-9.58129
吹	-9.58153
顏色	-9.58166
難可	-9.58183
栴檀	-9.58224
跡	-9.58296
能令	-9.58339
王宮	-9.58649
)。△	-9.58654
之後	-9.58666
經行	-9.5872
蟲	-9.58783
西	-9.58783
虎	-9.58897
樹神	-9.58955
各自	-9.58985
十力	-9.59008
橫	-9.59343
珍	-9.59373
諸弟子	-9.59375
災	-9.59431
返	-9.59435
無憂	-9.59443
自恣	-9.59465
不相	-9.59511
而作	-9.59511
履	-9.59542
素	-9.5955
乏	-9.59559
大慈	-9.59615
遣使	-9.59698
現世	-9.59762
】【	-9.59771
求索	-9.59775
生滅	-9.59824
慮	-9.59834
宅	-9.59849
一句	-9.5986
相見	-9.59893
葢	-9.60075
斷絕	-9.60113
永斷	-9.60135
厚	-9.60203
隨時	-9.60214
國界	-9.6025
園林	-9.60254
嫌	-9.60298
浮	-9.60325
愁憂	-9.60358
飯食	-9.60367
五道	-9.60391
三十三天	-9.6044
大德	-9.60477
亦有	-9.60555
胎	-9.60585
獲得	-9.60698
十善	-9.60731
復以	-9.60814
思念	-9.60823
知其	-9.60852
除去	-9.60891
阿蘭若處	-9.61006
善行	-9.61159
五者	-9.61183
富貴	-9.61251
名色	-9.61521
義利	-9.61549
市	-9.61554
我不	-9.61672
吞	-9.61687
鬪	-9.61702
登	-9.61741
殊	-9.61771
睡	-9.61805
之身	-9.61821
不可思議	-9.61868
客	-9.61875
養育	-9.61878
呪願	-9.61916
阿耨多羅三藐三菩提	-9.61943
不求	-9.61956
為欲	-9.61964
支	-9.6199
入山	-9.62079
還歸	-9.62326
裏	-9.62415
一身	-9.62419
脩	-9.62491
底	-9.62513
賜	-9.62524
告曰	-9.62547
擁護	-9.62549
智人	-9.62564
漿	-9.62576
親友	-9.62655
纏縛	-9.62659
見者	-9.62865
見我	-9.62895
之道	-9.63065
博	-9.6307
飢	-9.6313
法界	-9.63342
最後	-9.63446
暴	-9.63476
頂禮佛足	-9.6348
象馬	-9.63497
聞此	-9.63574
毛	-9.63632
與諸	-9.63638
與汝	-9.63652
使我	-9.63666
自念言	-9.63684
是阿蘭若	-9.63699
勇	-9.63985
衣食	-9.64022
三十二相	-9.64101
佛告比丘	-9.6413
知之	-9.64147
奇特	-9.64208
不可稱計	-9.64209
度脫	-9.64247
未曾有	-9.64301
作是言	-9.64336
聖王	-9.6437
聖道	-9.64383
廣說	-9.64398
怖畏	-9.64566
特	-9.64598
第四	-9.64618
大仙	-9.64662
已來	-9.64752
巍巍	-9.64763
苦痛	-9.64808
婢	-9.64811
其王	-9.6487
法師	-9.64873
傷害	-9.64936
羊	-9.65022
法明門	-9.65056
軟	-9.65106
從是	-9.65144
孝	-9.65157
佛本行	-9.65159
前世	-9.65173
嫉妬	-9.65177
其有	-9.65183
復言	-9.65199
遍滿	-9.65208
婆羅	-9.65209
採	-9.65247
王問	-9.65279
四天下	-9.65281
尋即	-9.65307
不聽	-9.65328
何緣	-9.65352
受其	-9.65405
擔	-9.65412
累	-9.65427
角	-9.65466
而無	-9.6547
人所	-9.65506
牙	-9.65546
形體	-9.65571
應時	-9.65814
蘭若	-9.66148
善能	-9.6616
裂	-9.66227
諫	-9.66285
本末	-9.66312
觀看	-9.66344
與彼	-9.66356
炎	-9.66371
還復	-9.66392
塵垢	-9.66393
轉法輪	-9.66405
其父	-9.66581
慳貪	-9.66619
畜	-9.66654
一切皆	-9.66658
妄語	-9.66662
枯	-9.66678
娛樂	-9.66705
弘	-9.66971
無餘	-9.66971
林中	-9.67055
轉輪王	-9.67059
不足	-9.67074
亦復不	-9.6713
長大	-9.67132
彼處	-9.67188
作沙門	-9.67219
無極	-9.67309
而坐	-9.67362
右	-9.67475
不能自	-9.67478
成正覺	-9.67504
行道	-9.67541
迦毘羅城	-9.67589
波旬	-9.67662
碎	-9.67827
不審	-9.67892
聰明	-9.67904
友	-9.67937
略說	-9.68035
齋	-9.68058
憶念	-9.68104
心地	-9.68112
枝	-9.68157
於後	-9.68304
憂惱	-9.68333
酒	-9.68537
不解	-9.68577
一名	-9.68612
齒	-9.68619
相師	-9.68639
敵	-9.68644
買	-9.68679
祕密	-9.68707
上妙	-9.68736
擇	-9.68736
狗	-9.68786
園中	-9.68857
乃能	-9.6886
我亦	-9.68923
群生	-9.69022
剎	-9.69079
如何	-9.69085
三毒	-9.69096
勢	-9.69309
供給	-9.69527
辯才	-9.69537
妄想	-9.69541
釋提桓因	-9.696
狀	-9.69651
不出	-9.69737
驚怖	-9.69739
比丘僧	-9.69766
如前	-9.69813
愛敬	-9.6986
集經	-9.69925
和上	-9.70004
踊躍	-9.70036
為佛	-9.7004
摧	-9.70086
寺	-9.70136
幸	-9.70223
四恩	-9.70269
王所	-9.70292
不能自勝	-9.70431
是謂梵志	-9.70498
乃爾	-9.70644
罵	-9.70687
玉女	-9.70955
號曰	-9.70979
波羅	-9.70982
旋	-9.71009
為彼	-9.71201
有諸	-9.71227
摩那婆	-9.71235
泉	-9.71244
眾中	-9.71313
一處	-9.71316
之義	-9.71542
油	-9.71649
此經	-9.71694
弊	-9.71736
下二句	-9.71753
殺害	-9.71782
營	-9.71783
鴿	-9.71813
無相	-9.71817
展轉	-9.71822
述	-9.71891
知足	-9.71937
十一	-9.72087
=	-9.72096
澤	-9.7226
我是	-9.72291
熾	-9.72349
逼	-9.72365
能知	-9.7237
念言	-9.72421
徑	-9.72478
日光	-9.7248
居士	-9.72618
聽我	-9.72641
之聲	-9.72771
耶輸陀	-9.72803
住於	-9.72822
不死	-9.72873
心無	-9.72883
勤修	-9.72907
唱言	-9.72963
納	-9.73022
其義	-9.73113
吾今	-9.73118
年少	-9.73296
今已	-9.733
是事	-9.73375
勸化	-9.73471
煩	-9.73477
流轉	-9.73565
說偈	-9.73608
此身	-9.73736
往彼	-9.738
魔波旬	-9.73828
在前	-9.73911
不違	-9.74016
愛念	-9.74049
道德	-9.74057
禽獸	-9.74094
天宮	-9.74151
育	-9.74198
此之	-9.74251
大士	-9.7427
孤	-9.74294
世世	-9.74341
逢	-9.74354
五陰	-9.74432
輪迴	-9.74437
我心	-9.74523
覺悟	-9.74529
奉行	-9.74606
多陀阿伽度	-9.74624
輸頭檀王	-9.74719
鹿王	-9.7473
以何因緣	-9.74748
其餘	-9.74748
歌	-9.74928
在彼	-9.74988
永離	-9.75051
陀羅	-9.75112
侵	-9.75129
延	-9.75138
輔相	-9.75231
恣	-9.75292
有四	-9.75312
有如是	-9.7538
心中	-9.75398
出家學道	-9.75564
教誨	-9.75586
優陀夷	-9.75671
雪山	-9.75676
建立	-9.757
而為	-9.75702
所造	-9.75846
為是	-9.75855
我於爾時	-9.75896
最為	-9.75914
朽	-9.76036
道場	-9.76039
難得	-9.76094
離諸	-9.76124
言說	-9.76134
檀	-9.76161
見諸	-9.76191
施設	-9.76209
能破	-9.76228
即於	-9.76245
已盡	-9.76363
彼諸	-9.76396
上下	-9.76606
尾	-9.76779
所為	-9.76824
輙	-9.76889
猶若	-9.77049
而語之言	-9.77055
以自	-9.77098
而言	-9.77236
一切法	-9.77276
限	-9.77318
信心	-9.7734
已訖	-9.77417
旨	-9.77653
正使	-9.77663
酥	-9.77684
覺知	-9.777
常住	-9.77701
二乘	-9.77713
上座	-9.77746
憐	-9.77854
隨其	-9.77876
本無	-9.77884
五戒	-9.77961
受教	-9.77978
從此	-9.78136
減	-9.78187
得度	-9.78306
殊妙	-9.78362
劣	-9.78456
之恩	-9.7847
短	-9.78554
擊	-9.7856
崩	-9.78568
萬物	-9.78583
其上	-9.78597
悉令	-9.78672
菓	-9.78677
各有	-9.78724
能生	-9.78727
虛空中	-9.78733
令人	-9.78855
却住一面	-9.78893
安靜	-9.79038
人言	-9.79042
含	-9.79124
有是	-9.79156
惡道	-9.79203
豐	-9.79244
聞佛說法	-9.79312
不遠	-9.79327
于時	-9.79397
圖	-9.79438
銅	-9.7944
諦聽	-9.79536
羅睺羅	-9.79586
頭面禮足	-9.79654
使人	-9.79666
不退轉	-9.79718
化為	-9.79825
今欲	-9.79828
如斯	-9.79836
厭離	-9.79909
成熟	-9.79914
保	-9.79965
得勝	-9.79968
慈愍	-9.80094
皆共	-9.80133
趣求	-9.80175
塞	-9.80247
呵	-9.80344
爾時諸比丘	-9.80392
彼王	-9.80406
慾	-9.80452
修學	-9.80453
百億	-9.80536
八十種好	-9.8061
得成	-9.80674
入是三昧	-9.80809
婬女	-9.80892
知見	-9.80969
逝	-9.80975
恃	-9.81008
不作	-9.81045
行施	-9.8109
張	-9.81149
自利	-9.81192
震	-9.81196
復生	-9.81202
菩提樹	-9.81257
正道	-9.8126
婬怒癡	-9.81268
及餘	-9.81295
災禍	-9.8139
墮落	-9.81446
日夜	-9.81558
幻	-9.81607
吾等	-9.8165
等正覺	-9.81704
陀羅尼	-9.8175
二字	-9.81778
一切人民	-9.81979
貧人	-9.81992
人之	-9.82065
房	-9.82069
坐禪	-9.82069
休息	-9.82071
乾闥婆	-9.82087
偏	-9.82095
謝	-9.82101
出現	-9.82226
五百人	-9.82245
熱惱	-9.82287
競	-9.82324
亦名	-9.82325
即問	-9.82364
左	-9.82418
其家	-9.82443
》、《	-9.82503
是法門	-9.8257
拜	-9.82606
緣覺	-9.82704
世俗	-9.82777
十種	-9.82781
是誰	-9.82876
墮地	-9.82911
來下	-9.82932
發願	-9.82948
我等今者	-9.82966
斫	-9.82976
謗	-9.82986
曲	-9.83001
以手	-9.83122
鬪諍	-9.83143
諸女	-9.8317
波斯匿王	-9.83191
有緣	-9.832
議	-9.83314
證菩提	-9.83342
意欲	-9.83368
教誡	-9.83426
於汝	-9.83449
跋	-9.83683
利他	-9.83692
運	-9.83816
改	-9.83819
當以	-9.83855
蔽	-9.83887
屋	-9.8395
端政	-9.84058
枝葉	-9.84062
能捨	-9.8416
馭者	-9.84201
之物	-9.84208
生子	-9.8427
八萬	-9.84435
借	-9.84448
餘人	-9.84481
諸苦	-9.84486
此言	-9.84653
得脫	-9.84707
受戒	-9.84736
墜	-9.8474
作如是	-9.84768
不壞	-9.84825
劇	-9.84907
執持	-9.85007
如空	-9.85041
此女	-9.85127
奉上	-9.85128
之德	-9.85174
所施	-9.85212
夫婦	-9.85253
終無	-9.85256
解說	-9.85262
從彼	-9.85439
佛為	-9.85444
得此	-9.8548
所求	-9.85497
甚大	-9.85505
劍	-9.85566
源	-9.85578
續	-9.85641
今得	-9.85715
現身	-9.85735
貪愛	-9.85742
長者子	-9.8578
詐	-9.85791
祇	-9.8586
別離	-9.85865
見一	-9.85915
遶	-9.8594
不須	-9.85953
通達	-9.86066
既見	-9.86108
須彌山	-9.86278
建	-9.8628
其事	-9.86294
際	-9.86431
為諸眾生	-9.86466
一切世間	-9.86524
之間	-9.86534
欲見	-9.8659
說之	-9.86619
淺	-9.86721
摩尼	-9.8673
委	-9.86738
務	-9.8674
婦女	-9.86785
之因	-9.86824
亦非	-9.86887
其言	-9.86909
消滅	-9.86939
象王	-9.86956
三千大千世界	-9.86977
頃	-9.87004
三月	-9.87005
殺之	-9.87092
有五百	-9.87134
入定	-9.87162
我已	-9.8717
淚	-9.87214
彼佛	-9.8731
波羅㮈國	-9.87382
如日	-9.87395
捨家	-9.87414
無窮	-9.8743
得大	-9.87449
頗	-9.87516
連	-9.87601
優婁頻螺迦葉	-9.87718
由旬	-9.87728
為其	-9.8775
不食	-9.87877
有三	-9.87924
於一切	-9.8805
礙	-9.88118
入海	-9.88162
可畏	-9.88178
長行	-9.88256
華香	-9.8826
時淨飯王	-9.88269
舍衛國	-9.88351
詳	-9.88383
作此	-9.88463
將欲	-9.88524
得自在	-9.8854
我之	-9.88595
獻	-9.88637
不覩	-9.88641
伐	-9.88648
種族	-9.88687
無智	-9.88843
師子吼	-9.88856
悲泣	-9.88879
不現	-9.88901
己身	-9.8892
知識	-9.88944
我今當	-9.88959
歡樂	-9.88965
作大	-9.88966
以來	-9.88966
鬘	-9.89041
二十	-9.89045
所欲	-9.89045
修善	-9.89093
香花	-9.89108
傍	-9.89116
因行	-9.89152
授記	-9.8918
遣人	-9.89264
世間解	-9.89327
宜應	-9.89397
法性	-9.8943
周遍	-9.89558
千子	-9.89579
優波離	-9.89596
心者	-9.89652
驅	-9.89699
盧	-9.8971
一子	-9.8972
告諸比丘	-9.89733
於地	-9.89734
鏡	-9.89786
三塗	-9.8994
無過	-9.90048
甚難	-9.90086
辱	-9.90302
無諍	-9.90311
糞	-9.90403
臭	-9.90511
磨	-9.90517
心大歡喜	-9.90534
哀愍	-9.90636
吒	-9.90691
何不	-9.90822
到已	-9.90827
一千	-9.90844
放大光明	-9.90878
阿羅呵	-9.90939
爾時太子	-9.90961
無上士	-9.90966
哭	-9.9103
能滅	-9.91104
佛之	-9.91176
告彼	-9.9121
依止	-9.91263
宣說	-9.91464
乃得	-9.91492
傾	-9.91542
熏	-9.91547
音樂	-9.9157
寄	-9.91588
談	-9.91609
烟	-9.91636
莖	-9.91641
爾乃	-9.9169
豆	-9.91749
無諸	-9.91754
敢	-9.91803
金錢	-9.91844
長跪	-9.91883
捨身	-9.91906
善知識	-9.91939
至真	-9.91975
駕	-9.9198
兔	-9.91984
無所著	-9.91998
可以	-9.92004
雷	-9.92075
譬	-9.921
向佛	-9.92216
鴈	-9.92246
諸煩惱	-9.923
互相	-9.9237
其國	-9.92433
德行	-9.92511
為大	-9.92556
秋	-9.92593
三有	-9.92644
娑	-9.92644
所以然者	-9.9267
慇懃	-9.92686
念念	-9.92748
荷負	-9.92766
菩薩記	-9.92772
得聞	-9.92891
城內	-9.93007
豫	-9.93007
受樂	-9.93091
或以	-9.9318
時婆羅門	-9.93227
過於	-9.93323
伺	-9.93326
生者	-9.93375
寂定	-9.93383
八難	-9.93425
而有	-9.93444
招	-9.93533
錢財	-9.93565
龜	-9.93581
國人	-9.93588
竊	-9.93588
救濟	-9.93606
名聞	-9.93733
如佛	-9.9377
宋	-9.93796
相續	-9.93804
讚言	-9.93825
童女	-9.93835
惡行	-9.9393
離欲	-9.93947
惡人	-9.94074
菩提心	-9.94149
既得	-9.94173
見是	-9.94284
能得	-9.94313
求於	-9.94461
太子言	-9.94555
冷	-9.94563
臣民	-9.94573
嫉	-9.94577
憍	-9.94602
封	-9.94609
國內	-9.94618
羸	-9.94627
晝	-9.94646
序	-9.94657
蘇	-9.94666
漏盡	-9.94674
有一長者	-9.94798
恐懼	-9.94881
夢見	-9.94884
大施	-9.94891
授一	-9.94923
生天上	-9.95052
竪	-9.95057
增益	-9.95092
慚	-9.95104
占	-9.95169
禮拜	-9.95171
此等	-9.95172
耀	-9.95195
至佛所	-9.95218
於世間	-9.95245
次當作佛號	-9.95258
所可	-9.95307
慶	-9.95309
福報	-9.95349
若當	-9.95385
隣	-9.95397
見諦	-9.95423
在世	-9.95462
役	-9.95612
穿	-9.95651
弱	-9.95666
暢	-9.95672
所知	-9.95682
不從	-9.95696
囉	-9.95708
遲	-9.95708
五蘊	-9.95732
以何	-9.95773
此則	-9.95887
奔	-9.95964
制度	-9.96019
如是我聞	-9.96033
又問	-9.96058
心如	-9.96117
戀	-9.96217
天眼	-9.96224
教授	-9.96325
欣	-9.96361
受此	-9.96364
二句	-9.96376
大法	-9.96412
恒常	-9.96429
二名	-9.96452
為作	-9.96496
而出	-9.96516
先世	-9.9658
聞其	-9.96672
所言	-9.96723
我昔曾聞	-9.96749
披	-9.96757
之類	-9.96784
草木	-9.96796
於今	-9.96877
著衣持鉢	-9.96952
諸婆羅門	-9.96989
變易	-9.97156
法輪	-9.97302
不貪	-9.97345
諸國	-9.97419
之子	-9.97438
壯	-9.97451
於法	-9.97484
燋	-9.97487
捐	-9.97517
無人	-9.97537
繞	-9.97633
佛剎	-9.97634
賴	-9.97666
行步	-9.97692
夏	-9.97732
我先	-9.97739
兵眾	-9.97759
般涅槃	-9.97787
諸龍	-9.97797
欝	-9.97802
名字	-9.97815
暗鈍	-9.97883
還家	-9.97889
乾陟	-9.97903
針	-9.97995
度眾生	-9.98041
不斷	-9.98131
四禪	-9.98215
不忍	-9.98276
吾當	-9.98279
住阿蘭若	-9.98308
時分	-9.98334
往到	-9.98381
之內	-9.98403
不忘	-9.98426
彼家	-9.98449
說言	-9.9847
慎	-9.98505
誡	-9.98561
受於	-9.98599
故有	-9.98627
證得	-9.98664
火燒	-9.98684
饒益	-9.98707
畫	-9.98746
於虛空中	-9.98752
讀	-9.98781
誑	-9.98815
剋	-9.98823
以身	-9.98847
為本	-9.98941
頭上	-9.9896
端嚴	-9.98986
坑	-9.98995
忉利天	-9.98996
王復	-9.99011
福業	-9.99056
流布	-9.99059
真珠	-9.99097
獵者	-9.991
幾	-9.99113
東方	-9.99143
十三	-9.99226
而說	-9.99295
處在	-9.99344
可謂	-9.99395
則不	-9.99402
福智	-9.99404
之力	-9.99414
眾惡	-9.99425
十五	-9.99443
到佛所	-9.99507
十四	-9.99592
諸仙	-9.99595
覓	-9.99684
踊	-9.99704
若無	-9.9971
貫	-9.99855
我言	-9.99866
休	-9.9992
一面	-9.99922
鄙	-9.99928
卷第十	-10.0002
能除	-10.0002
隨緣	-10.0003
多諸	-10.0003
由此	-10.0003
寶藏	-10.0015
得生天	-10.0015
開示	-10.002
法王	-10.003
寶蓋	-10.004
無著	-10.0042
怨家	-10.0043
及與	-10.0046
食已	-10.005
向於	-10.0052
至心	-10.0063
還國	-10.0066
翻	-10.0066
眾生類	-10.0087
是道	-10.0087
厥	-10.0088
爾時阿難	-10.0103
醉	-10.0109
律	-10.0114
如來復	-10.0115
悉達	-10.0116
中間	-10.0124
身口意	-10.0124
互	-10.0128
不宜	-10.0143
成佛道	-10.0146
大丈夫	-10.0152
深生	-10.0163
若見	-10.0165
承事	-10.0166
不染	-10.0172
挽	-10.0173
家中	-10.0176
孔	-10.0177
三尊	-10.018
皆當	-10.0185
應知	-10.0187
暗	-10.0194
燃	-10.0198
膝	-10.02
惡心	-10.0202
侍者	-10.0203
誤	-10.0206
威力	-10.0209
灌	-10.0212
春	-10.0213
如是如是	-10.0213
繩	-10.0214
灑	-10.0216
優婆夷	-10.0217
勒	-10.0219
咄	-10.0219
言曰	-10.022
還至	-10.0223
為道	-10.0225
普照	-10.0232
那羅陀	-10.0239
却坐一面	-10.0241
事火	-10.0244
佛為說法	-10.0248
若得	-10.025
諸釋種	-10.0251
佛身	-10.0257
隨從	-10.0257
求解脫	-10.0266
自心	-10.0268
修梵行	-10.0279
或時	-10.0289
莫不歡喜	-10.029
為人所	-10.0291
更無	-10.0292
六者	-10.0303
見於	-10.0307
時節	-10.0309
瑞	-10.0311
我欲	-10.0311
無厭足	-10.0312
補	-10.0312
汝若	-10.0315
嗣	-10.032
逸	-10.0323
井	-10.0324
猶尚	-10.0327
輪王	-10.0333
遊觀	-10.0334
云何為	-10.0335
剃除鬚髮	-10.0342
要當	-10.0343
斷除	-10.0344
.	-10.0348
汝等比丘	-10.035
調御丈夫	-10.0352
明行足	-10.0352
萬歲	-10.0355
無量眾生	-10.036
即往	-10.0362
不安	-10.0362
出現於世	-10.0378
勝因	-10.0386
真金	-10.0392
趣向	-10.0405
彼女	-10.0407
無益	-10.0407
見有	-10.0409
之智	-10.0409
防	-10.0415
苦樂	-10.0416
佛以	-10.0417
訓	-10.0424
才	-10.0427
赴	-10.0432
帶	-10.0433
輸	-10.0434
文殊	-10.0436
諸天眾	-10.0441
捕	-10.0441
修證	-10.0445
五體投地	-10.0446
聖眾	-10.045
飛鳥	-10.0452
提婆	-10.0452
是佛	-10.0455
詣佛所	-10.046
見是事已	-10.0467
即與	-10.047
無量百千	-10.0485
不定	-10.0486
隨所	-10.0493
所聞	-10.0496
生處	-10.0496
人身	-10.05
造業	-10.0505
正覺	-10.0508
齎	-10.0513
馳走	-10.0529
響	-10.0536
工	-10.0539
處於	-10.0544
吼	-10.0545
薩	-10.0548
微細	-10.0551
老病死	-10.0554
瀑流	-10.0557
旃陀羅	-10.0559
瑠璃	-10.0564
不念	-10.0569
今可	-10.0571
當作	-10.0571
滅盡	-10.0571
惡趣	-10.0572
母胎	-10.0574
聞是	-10.0574
亦為	-10.0575
阿蘭若	-10.0576
曜	-10.058
求道	-10.059
能為	-10.0612
得一	-10.0618
老死	-10.0625
皆來	-10.0632
菩提樹下	-10.0636
必定	-10.0644
寐	-10.0653
即入	-10.066
時舍利弗	-10.066
不行	-10.0662
我身是也	-10.0673
諸婇女	-10.0676
天中天	-10.0676
星宿	-10.0679
福力	-10.0681
行於	-10.0684
愛著	-10.0689
大富	-10.0696
還宮	-10.07
三業	-10.0703
白淨王	-10.0704
不還	-10.0709
王如來	-10.0712
使者	-10.0719
即自	-10.0719
相狀	-10.0726
死者	-10.0729
饒	-10.0741
炬	-10.0746
心法	-10.0759
悉得	-10.0761
婦人	-10.0767
此義	-10.0767
迹	-10.077
扶	-10.077
某	-10.0771
錯	-10.0771
蘊	-10.0773
羅網	-10.0773
唯然	-10.0774
沐浴	-10.0777
募	-10.0778
低	-10.078
隨逐	-10.0782
說是	-10.0784
為諸	-10.0789
於人	-10.0794
以法	-10.08
相隨	-10.0801
復見	-10.0804
充足	-10.0805
於道	-10.0807
無上菩提	-10.081
為上	-10.0814
往詣佛所	-10.0817
右手	-10.0817
求覓	-10.0821
不令	-10.0829
為求	-10.0829
侍從	-10.0831
氣力	-10.0845
墮地獄	-10.0845
閑	-10.0846
其福	-10.0849
大智	-10.0856
不住	-10.0857
受報	-10.0859
法行	-10.087
衛	-10.0877
大家	-10.0882
庶	-10.0886
晃	-10.0898
涕泣	-10.0901
奢	-10.0902
諸天人	-10.0907
朋友	-10.0907
奏	-10.0912
瑞應	-10.0918
無生	-10.0925
海水	-10.0927
心開意解	-10.0929
主人	-10.093
是童子	-10.0941
為最	-10.0943
善來比丘	-10.0946
觀此	-10.0949
祠	-10.0953
不欲	-10.0955
救護	-10.0956
優	-10.0956
四十	-10.0957
為第一	-10.0963
衣被	-10.0965
向彼	-10.0968
四等	-10.0973
大力	-10.0973
之樂	-10.0982
頌曰	-10.0982
有德	-10.0984
無間	-10.0989
佛性	-10.0995
五百弟子	-10.0997
以偈	-10.1
如今	-10.1006
鷹	-10.1008
厄	-10.1009
七者	-10.101
貢高	-10.1011
慳	-10.1012
究	-10.1013
見菩薩	-10.1016
如實	-10.1017
健	-10.1017
隸	-10.1017
將至	-10.1018
皆從	-10.1019
欲往	-10.1023
宛轉	-10.1025
擬	-10.1026
極大	-10.1027
支節	-10.1028
勇健	-10.1028
除滅	-10.1029
善來	-10.103
嚴駕	-10.1033
復告	-10.1036
惟願	-10.1037
便生	-10.1038
剎利	-10.1038
託	-10.1039
法服	-10.1043
菩薩行	-10.1044
聞者	-10.1047
為苦	-10.1049
復作是言	-10.1052
五濁	-10.1054
詣彼	-10.1058
省	-10.1059
前禮佛足	-10.1061
即前	-10.1062
六年	-10.1065
道者	-10.1066
受用	-10.1072
五十	-10.1077
即勅	-10.1078
二子	-10.1083
菩薩言	-10.1089
過患	-10.109
人眾	-10.1092
則無	-10.1094
便為	-10.1094
有佛	-10.1102
受之	-10.1103
舉身	-10.1111
值遇	-10.1118
沈	-10.1124
暮	-10.1128
偽	-10.113
灰	-10.1131
勿令	-10.1131
遵	-10.1132
一國	-10.1144
緊那羅	-10.1145
懃	-10.115
我自	-10.1158
眾行	-10.1159
護持	-10.116
無所畏	-10.1165
罪福	-10.1171
聞彼	-10.1172
當令	-10.1181
黃金	-10.1187
今以	-10.1188
稱讚	-10.1189
若其	-10.1194
舞	-10.1197
神變	-10.1198
頂上	-10.1202
又云	-10.1205
眾多	-10.1207
穢惡	-10.1216
聞持	-10.1219
此兒	-10.1219
波羅奈國	-10.1224
羣	-10.1225
出入	-10.1227
我有	-10.1229
咎	-10.1229
自稱	-10.1231
供養佛	-10.124
樹間	-10.1249
算	-10.1252
閻浮	-10.1257
掘	-10.1258
汝為	-10.1259
低頭	-10.1268
一切種智	-10.1273
說是偈已	-10.128
助菩提法	-10.1281
喻如	-10.1284
N	-10.1285
o	-10.1285
總持	-10.1286
二種	-10.1296
聽許	-10.13
即起	-10.1306
六度	-10.1312
我時	-10.132
貪求	-10.1324
既不	-10.1332
價	-10.1334
聞此語已	-10.1341
心自念言	-10.1342
問其	-10.1347
永無	-10.1347
生時	-10.1348
月光	-10.1349
王便	-10.1351
不免	-10.1355
幢幡	-10.136
之意	-10.1368
質	-10.1374
療	-10.1375
不犯	-10.1376
飽	-10.1376
奴婢	-10.1376
米	-10.1378
統	-10.1378
祖	-10.1379
翅	-10.1384
牟尼	-10.1384
之苦	-10.1387
牢獄	-10.1388
毀辱	-10.1388
鉢中	-10.1396
輪轉	-10.1396
信敬	-10.1396
都無	-10.1398
北方	-10.1402
語已	-10.1402
洗浴	-10.1406
本願	-10.1408
本性	-10.141
我念往昔	-10.1414
臥具	-10.1419
而能	-10.1425
毒藥	-10.1427
汝等當知	-10.1427
壽終	-10.144
彼國	-10.1445
無因	-10.1459
剃	-10.146
持此	-10.1463
其女	-10.1465
得阿羅漢果	-10.1469
得無	-10.1471
聞說	-10.1475
言語	-10.148
無央數	-10.1481
深山	-10.1485
正真	-10.149
度無極	-10.1493
驗	-10.1499
迦羅	-10.15
最初	-10.1502
弄	-10.1503
迦樓羅	-10.1515
猗	-10.1516
體性	-10.1517
佉	-10.1518
損減	-10.152
臭穢	-10.152
度世	-10.1521
其地	-10.1526
可愛	-10.1529
證知	-10.1533
三事	-10.1534
捨家出家	-10.154
歎未曾有	-10.154
亦可	-10.1545
將諸	-10.1553
前進	-10.1562
有佛出世	-10.1565
來還	-10.1569
甘美	-10.1571
溺	-10.1581
便得	-10.1592
墮於	-10.1598
此閻浮提	-10.1614
來至此	-10.162
乃是	-10.1622
囑	-10.1625
真正	-10.1625
蕩	-10.1627
爭	-10.1631
孔雀	-10.1637
天上人中	-10.164
懷妊	-10.1641
摩睺羅伽	-10.1643
逮得	-10.1647
怨敵	-10.1648
不放逸	-10.1649
即告	-10.1649
更相	-10.165
而為恐怖	-10.1657
那由他	-10.166
精懃	-10.1666
御者	-10.1672
寶珠	-10.1676
大會	-10.1676
雪	-10.1681
大明	-10.1683
得是	-10.1693
閑靜	-10.1696
當觀	-10.1699
聚集	-10.1701
常為	-10.1701
罪人	-10.1703
善哉善哉	-10.1703
本來	-10.1703
具說	-10.1706
浴	-10.1715
謂為	-10.1718
千人	-10.172
心常	-10.172
我昔	-10.1729
觀之	-10.1732
我家	-10.1732
窟	-10.1733
海中	-10.1739
所愛	-10.1739
王見	-10.1742
風雨	-10.1747
斬	-10.1761
昏	-10.1761
髻	-10.1762
四事	-10.1764
偷	-10.1768
知佛	-10.177
說此	-10.1771
風吹	-10.1772
殊特	-10.1776
率	-10.1779
。」《	-10.1782
人王	-10.1785
諸大臣	-10.1785
汝諸比丘	-10.1786
缺	-10.1786
鬚髮自落	-10.1791
他方	-10.1791
畢竟	-10.1791
以不	-10.1795
為汝	-10.1795
說此偈已	-10.1796
是諸	-10.1797
無所得	-10.1798
得須陀洹果	-10.1801
吾當為汝分別解說	-10.1805
三藏	-10.1806
而告之言	-10.1807
分明	-10.181
無疑	-10.1827
莫能	-10.183
火坑	-10.1837
於十方	-10.184
狐疑	-10.1842
墮惡道	-10.1845
我意	-10.1847
能作	-10.1853
彼天	-10.1868
作是說	-10.1879
唐	-10.188
講	-10.1886
心所	-10.1887
頸	-10.189
賞	-10.1893
流淚	-10.1897
於王	-10.1898
來到	-10.1898
神仙	-10.1907
佛子	-10.1909
獵	-10.1912
諸外道	-10.1913
浴池	-10.1918
當於	-10.1919
已竟	-10.192
未有	-10.1926
崇	-10.1928
過去世時	-10.194
師子座	-10.194
阿僧祇劫	-10.194
未能	-10.1944
阿那含	-10.1947
時有一	-10.1952
疾病	-10.1963
爾時如來	-10.1965
此諸	-10.1966
身口	-10.1967
遷	-10.1969
所居	-10.1971
則有	-10.1971
諸三昧	-10.1973
久遠	-10.1973
一生	-10.1975
如天	-10.1983
多羅	-10.1986
勢力	-10.1987
孫	-10.1993
出於	-10.1994
伎	-10.1996
揚	-10.2
附	-10.2001
來詣	-10.2003
徐	-10.2005
即還	-10.2009
驢	-10.2013
柱	-10.2017
頭髮	-10.2019
緩	-10.202
恕	-10.2022
不曾	-10.2026
曠	-10.2027
牆	-10.2031
何謂	-10.2033
灌頂	-10.2035
堪任	-10.2041
於一	-10.2044
所修	-10.2049
憍陳如	-10.2051
無欲	-10.2052
之福	-10.2055
則為	-10.2057
醜	-10.2059
香華	-10.206
乃知	-10.2061
大善	-10.2065
王之	-10.2066
波羅㮈城	-10.2066
我若	-10.2067
悲愍	-10.2076
空寂	-10.2079
多所	-10.2084
同聲	-10.2094
知彼	-10.2094
於生死	-10.2095
須陀洹	-10.2098
忿	-10.2105
父子	-10.2118
今為	-10.212
斯事	-10.2129
經典	-10.2129
生大	-10.2131
多少	-10.2131
淨戒	-10.2135
不盡	-10.2144
淨行	-10.2145
資財	-10.2146
謀	-10.2151
內心	-10.2151
力勢	-10.2153
荒	-10.2155
得免	-10.217
眾生之類	-10.2175
當有	-10.2178
閑居	-10.2178
是大	-10.2179
選擇	-10.218
八種	-10.2183
入涅槃	-10.2186
又見	-10.2187
遠近	-10.2188
作業	-10.2198
至此	-10.2202
開解	-10.2209
尋時	-10.2222
意不	-10.2224
譯	-10.2224
無數劫	-10.2225
得佛	-10.2227
有異	-10.2236
身相	-10.2239
現前	-10.2242
善女人	-10.2246
受五戒	-10.2251
法眼	-10.2253
王告	-10.2255
開化	-10.2263
雄	-10.2278
跪	-10.2281
而復	-10.2281
猪	-10.2282
屍	-10.2287
不敢違	-10.2287
力故	-10.2287
嘆	-10.2288
壁	-10.229
麥	-10.229
蔭	-10.229
少時	-10.2294
以是之故	-10.2297
還來	-10.2305
慰喻	-10.2308
於是便說此偈	-10.231
自致	-10.2311
不然	-10.2319
恐畏	-10.2323
皆能	-10.233
八者	-10.2332
毛孔	-10.2335
法要	-10.2336
迦毘羅	-10.2336
彼有	-10.2338
敷演	-10.234
是身	-10.2345
舉聲	-10.2349
憂苦	-10.2352
離於	-10.2357
十地	-10.2359
希	-10.2366
自陳	-10.237
少分	-10.237
自見	-10.2371
縛著	-10.2375
諸善	-10.2378
不虛	-10.2379
所應	-10.2383
躬	-10.2384
妙好	-10.2388
南無	-10.2391
擎	-10.2396
勝妙	-10.2396
經云	-10.2398
幽	-10.2401
微笑	-10.2402
澡	-10.2409
般	-10.2413
白世尊	-10.2415
不畏	-10.2416
能使	-10.2419
無上道	-10.2421
欲來	-10.2422
般若	-10.2424
實是	-10.2425
按	-10.2426
當自	-10.2428
關	-10.2428
不變	-10.243
償	-10.2431
闕	-10.2431
魔眾	-10.2431
翳	-10.2432
諮	-10.2434
譬喻	-10.2443
垢染	-10.2448
鳥獸	-10.2449
不思議	-10.245
諸欲	-10.245
來者	-10.2453
一旦	-10.2453
阿羅邏	-10.2454
進止	-10.2457
毒龍	-10.2466
娑婆世界	-10.2466
無染	-10.2472
住蘭若	-10.2477
言教	-10.2477
集聚	-10.2484
家內	-10.2493
兜率天	-10.2498
知是	-10.2498
波羅奈	-10.2499
甲	-10.2504
高座	-10.2505
四面	-10.2506
於未來世	-10.2511
女言	-10.2512
列	-10.2517
場	-10.2527
聞王	-10.2531
作何	-10.2534
茲	-10.2534
誨	-10.2541
釋梵	-10.2544
軍眾	-10.2545
有一人	-10.2548
復還	-10.2549
卑	-10.2549
一百	-10.2552
聽受	-10.2552
鼈	-10.2552
麗	-10.2567
為佛作禮	-10.2567
第七	-10.2567
斧	-10.2568
單	-10.2568
阿須倫	-10.2572
周旋	-10.2573
乃往過去	-10.2573
輒	-10.2573
醫藥	-10.2579
婦言	-10.2586
眾生故	-10.2587
有智	-10.2589
彼彼	-10.2595
梵語	-10.2595
常行	-10.2603
見王	-10.2606
名為梵志	-10.2613
所致	-10.2615
城外	-10.2616
皆盡	-10.2619
然後乃	-10.2629
樹林	-10.2632
種種莊嚴	-10.2634
寶物	-10.2636
摩耶	-10.2639
作佛	-10.264
令住	-10.2645
沙門婆羅門	-10.2646
到彼	-10.2646
為法	-10.2647
頂生王	-10.2648
釋迦	-10.2651
慈母	-10.2651
有為	-10.2661
作於	-10.2671
大慈悲	-10.2672
親族	-10.2676
故來	-10.2677
於菩薩	-10.2678
十方諸佛	-10.2682
隨其所	-10.2683
以一	-10.2686
公	-10.2692
為善	-10.2696
漂	-10.27
法故	-10.2701
罰	-10.2702
策	-10.2705
藍	-10.2707
虫	-10.2708
誘	-10.271
虛妄	-10.271
不惜身命	-10.2713
天雨	-10.2714
舍衛	-10.2714
化佛	-10.2715
整	-10.2716
病者	-10.2718
大婆羅門	-10.2719
魔王波旬	-10.272
視之	-10.272
卷第四	-10.2721
黑闇	-10.2721
伏藏	-10.2723
摩尼婁陀	-10.2728
正明	-10.2728
身上	-10.2729
開悟	-10.2734
次復	-10.2735
以種種	-10.2736
王聞是語	-10.2742
聖凡	-10.2746
極為	-10.2747
更有	-10.2747
三千	-10.2747
捨此	-10.2764
王勅	-10.2764
天樂	-10.2764
船師	-10.2766
善巧	-10.2771
我此	-10.2772
會中	-10.2772
爾時大王	-10.2773
妄心	-10.2774
拔濟	-10.2777
他國	-10.2779
皆令	-10.2779
即生	-10.2781
利樂	-10.2784
其後	-10.2786
諸天世人	-10.2798
住世	-10.2801
及比丘僧	-10.2803
此二	-10.2806
從其	-10.2811
萬行	-10.2817
為此	-10.2822
樹上	-10.2823
不異	-10.2828
只	-10.2832
踐	-10.2846
科	-10.2846
譏	-10.2849
倚	-10.285
嬈	-10.2851
教令	-10.2851
滅除	-10.2852
諸行	-10.2853
池中	-10.2854
纔	-10.2858
渴仰	-10.286
取其	-10.2863
身肉	-10.2866
甘蔗	-10.2867
命終之後	-10.2867
慎莫	-10.287
纏蓋	-10.2871
死人	-10.2873
譬如有人	-10.2873
有二種	-10.2874
敬禮	-10.2874
修崇	-10.2876
工巧	-10.2877
然彼	-10.2884
成辦	-10.289
如是次第	-10.289
非時	-10.289
及其	-10.2892
動搖	-10.2899
多種	-10.2902
孝順	-10.2902
引導	-10.2903
歸家	-10.2903
以用	-10.2908
後日	-10.2914
攝受	-10.2915
復有一	-10.2916
殺生	-10.2918
為一	-10.293
。『	-10.2931
教法	-10.294
無想	-10.295
法相	-10.2952
三人	-10.2955
所成	-10.2972
王及	-10.2976
三惡道	-10.2977
舉手	-10.298
疲	-10.2983
兩手	-10.2991
賓	-10.2991
銷	-10.2991
段	-10.2992
咽	-10.2994
餓	-10.2994
沸	-10.2997
東西	-10.3
積聚	-10.3002
迴還	-10.3005
惡法	-10.3006
所著	-10.3008
調御	-10.301
妙色	-10.3013
摩竭	-10.3014
我聞	-10.3024
不取	-10.3025
於是世尊	-10.3025
審諦	-10.3026
大甲	-10.3027
此為	-10.303
此比丘	-10.3031
其事云何	-10.3033
集會	-10.3033
廢	-10.3034
梵德王	-10.3035
?』」「	-10.3037
定慧	-10.3037
得出家	-10.304
其夫	-10.304
來詣佛所	-10.3043
六通	-10.3045
之者	-10.3045
少壯	-10.3046
誠實	-10.3047
常以	-10.3048
必得	-10.305
除其	-10.3054
竹園	-10.3066
不造	-10.3067
弊惡	-10.3072
足下	-10.3077
擾	-10.3077
欲以	-10.3079
入宮	-10.3079
如海	-10.3085
是何	-10.3093
恭	-10.31
修施	-10.3102
不獲	-10.3104
色界	-10.3107
還入	-10.3109
中道	-10.3121
家業	-10.3122
稟	-10.3123
即將	-10.3127
空閑	-10.3131
愛子	-10.3132
化人	-10.3135
施為	-10.3135
不止	-10.3142
殖	-10.3143
把	-10.3146
頻	-10.3148
豈不	-10.3149
在地	-10.315
世之	-10.3151
愍傷	-10.3152
我今已	-10.3152
庫藏	-10.3153
國師	-10.3155
令汝	-10.3158
大劫	-10.3158
厭患	-10.3162
死屍	-10.3162
悔過	-10.3166
受我	-10.3169
昨夜	-10.3177
以神通力	-10.318
身中	-10.318
口中	-10.3184
即從	-10.3185
九十	-10.3191
覩見	-10.3194
獲福	-10.3197
二十五	-10.3198
障礙	-10.3199
善本	-10.3206
其德	-10.3206
自投	-10.3209
冠	-10.3213
不可計	-10.3213
斯陀含	-10.3214
出離	-10.3216
善聽	-10.3217
智力	-10.3219
住在	-10.3224
本生	-10.3227
身不	-10.3234
此地	-10.3238
度生	-10.3241
平正	-10.3241
我執	-10.3243
疑惑	-10.3246
信解	-10.3247
卷	-10.3248
喻佛	-10.3259
而還	-10.326
攝取	-10.3267
涌	-10.3273
活命	-10.3275
以彼	-10.3276
嗔	-10.3276
較	-10.3278
黠	-10.3281
嗚呼我	-10.3281
融	-10.3284
少欲	-10.3286
無動	-10.3288
晨	-10.3288
嶮	-10.3292
圍	-10.3293
長壽	-10.3293
曼	-10.3296
規	-10.3298
第六	-10.3298
觀彼	-10.3298
是時世尊	-10.33
萎	-10.3303
目揵連	-10.3305
婬欲	-10.3305
之患	-10.3306
得法眼淨	-10.3306
無緣	-10.3311
釋子	-10.3311
支分	-10.3313
所念	-10.3314
雖然	-10.3316
受福	-10.3318
發意	-10.3321
天龍	-10.3321
佛在舍衛國祇樹給孤獨園	-10.3322
諸人民	-10.3324
塔寺	-10.3324
華果	-10.3327
形容	-10.3332
凡人	-10.3336
二萬	-10.3338
一乘	-10.3361
戒行	-10.3366
憂悲	-10.3367
意地	-10.3368
釋迦牟尼如來	-10.3369
鮮	-10.3369
最第一	-10.3374
食訖	-10.3382
此非	-10.3384
虗	-10.3387
無道	-10.3389
非真	-10.3397
所獲	-10.3403
其命	-10.3406
譽	-10.341
如上	-10.3414
城邑	-10.3414
童	-10.3419
一切諸法	-10.3429
於如來	-10.343
一切煩惱	-10.3432
紺	-10.3436
倫	-10.3438
維	-10.3443
爛	-10.3444
羞	-10.3445
佛知	-10.3445
陵	-10.3445
溫	-10.3445
矜	-10.3445
猛火	-10.3446
毘舍離	-10.3449
真心	-10.345
申	-10.3451
雲集	-10.3452
莊嚴其身	-10.3459
瞻仰	-10.3459
不順	-10.3464
結加趺坐	-10.3466
六萬	-10.3467
因緣故	-10.3469
如上所說	-10.3477
彼此	-10.3479
得生	-10.3482
西方	-10.3485
合會	-10.3489
亦能	-10.349
生歡喜	-10.3492
施主	-10.3492
是故我今	-10.3499
跋陀羅	-10.35
之日	-10.3507
以偈讚	-10.3509
佛前	-10.351
不喜	-10.3512
心懷歡喜	-10.3517
喜樂	-10.3524
發大	-10.3526
祭祀	-10.3539
未盡	-10.3548
受生	-10.3554
其數	-10.3554
常樂	-10.3556
欲為	-10.3564
顯示	-10.3564
於先	-10.3572
裹	-10.3574
此亦如是	-10.3574
耶舍	-10.3579
我本	-10.358
彰	-10.3583
佛世界	-10.3584
同時	-10.3585
為說法	-10.3585
幼	-10.3586
或在	-10.3587
作惡	-10.3587
姿	-10.3591
不在	-10.3591
佛在	-10.3594
安慰	-10.3594
敘	-10.3595
剝	-10.3598
不息	-10.3598
從何	-10.36
儻	-10.3601
如月	-10.3602
分衛	-10.3604
正理	-10.3605
善巧方便	-10.3605
超越	-10.3607
愚惑	-10.361
八十	-10.3611
槃	-10.3613
有偈說	-10.3617
非有	-10.3617
往古	-10.3618
捨我	-10.362
然其	-10.3621
南方	-10.3624
即從座起	-10.3629
開門	-10.3632
般涅槃後	-10.3643
)《	-10.3643
潔	-10.3653
宣令	-10.3654
三十六	-10.3654
當得作佛	-10.366
之眾	-10.3663
見太子	-10.3667
得不退轉	-10.3671
梵天王	-10.3677
舉國	-10.3677
騎	-10.3684
歡悅	-10.3686
共為	-10.3686
於阿耨多羅三藐三菩提	-10.3687
行法	-10.3688
涼	-10.3697
願見	-10.37
之家	-10.3703
能行	-10.371
飛行	-10.3711
未至	-10.3711
泣	-10.3714
常當	-10.3716
焚燒	-10.3716
正是	-10.3716
如故	-10.3719
夷	-10.3731
馬王	-10.3731
告諸	-10.3736
蹈	-10.3736
不殺	-10.3741
賀	-10.3741
甚多	-10.3742
后	-10.3748
我今欲	-10.375
咸共	-10.3751
汁	-10.3752
拏	-10.3757
縷	-10.3759
優曇	-10.376
禰	-10.3761
無所有	-10.3767
此頌	-10.3768
琴	-10.3771
所趣	-10.3773
勸請	-10.3779
所由	-10.378
身為	-10.3784
盲父母	-10.3785
王家	-10.3786
受請	-10.3792
不祥	-10.3792
四王	-10.3793
大梵天王	-10.3798
樂聞	-10.3798
自由	-10.3799
求索出家	-10.3801
坐於	-10.3804
娑羅	-10.3808
是時菩薩	-10.3811
來入	-10.3815
讚佛	-10.3816
人命	-10.382
日出	-10.382
立願	-10.3825
寶塔	-10.3825
盡其	-10.3832
說此偈	-10.384
汝所	-10.3841
花鬘	-10.3851
諸苾芻	-10.3851
復為	-10.3851
知已	-10.3856
光照	-10.3857
當與	-10.3866
得福	-10.3868
義理	-10.387
使得	-10.3875
祐	-10.3876
堅牢	-10.3882
出生	-10.3884
今在	-10.389
立名	-10.3892
作轉輪聖王	-10.3893
妖	-10.3894
太	-10.3896
若使	-10.3896
太山	-10.3899
濟度	-10.3902
酷	-10.3902
偶	-10.3902
右脇	-10.3904
道中	-10.3906
不觀	-10.3908
亦是	-10.3908
鎧	-10.3909
寢	-10.3909
爪	-10.391
厨	-10.3912
樂者	-10.3914
三途	-10.3914
有子	-10.3914
結勸	-10.3914
戀慕	-10.3915
為首	-10.3915
如來世尊	-10.3916
講堂	-10.3918
官屬	-10.3921
容貌	-10.3923
無一	-10.3927
求佛	-10.3934
得阿羅漢	-10.3934
願佛	-10.3938
便當	-10.394
我曹	-10.3942
一分	-10.3946
生起	-10.3946
觀者	-10.395
欲知爾時	-10.3951
慈仁	-10.3953
之報	-10.3955
或復有	-10.3955
花果	-10.396
訶	-10.3966
若復	-10.3972
諸功德	-10.3972
與其	-10.3973
又有	-10.3977
四句	-10.3983
誰有	-10.3983
戶	-10.3985
法衣	-10.399
諸大眾	-10.399
不隨	-10.3991
所住	-10.3995
惡者	-10.3996
滋	-10.3997
我父	-10.3999
而死	-10.4002
眾善	-10.4004
水火	-10.4005
即遣	-10.4006
百年	-10.4009
問佛	-10.4009
無始	-10.4011
二百五十	-10.4019
當生	-10.402
善知	-10.4024
明了	-10.4025
車乘	-10.4027
明珠	-10.4028
出要	-10.4032
生已	-10.4039
凶	-10.4043
唯佛	-10.4047
蘭	-10.4049
作諸	-10.4053
千歲	-10.4056
汝身	-10.4057
置於	-10.4057
所至	-10.4059
腰	-10.4062
耆	-10.4064
濕	-10.4066
難遇	-10.4067
誅	-10.4067
雅	-10.4068
捨去	-10.4068
愧	-10.4069
悴	-10.407
鉤	-10.4072
說經	-10.4073
虎狼	-10.4078
呪術	-10.408
過失	-10.4084
頗梨	-10.4084
王有	-10.4085
復有一佛號	-10.4086
吾欲	-10.4086
衣裳	-10.4087
群鹿	-10.4088
悉能	-10.4088
稻	-10.4089
安庠	-10.4091
妙寶	-10.4091
血肉	-10.4093
論議	-10.41
迴向	-10.41
摩伽陀國	-10.4112
昔日	-10.4112
當念	-10.4115
去來	-10.4124
水邊	-10.4126
此偈	-10.4127
之罪	-10.413
正定	-10.4139
更不復	-10.4151
海神	-10.4153
聖師	-10.4153
。』『	-10.4163
然此	-10.4164
》(	-10.4168
自說	-10.417
王有子	-10.417
病人	-10.4183
為樂	-10.4184
顏貌	-10.4187
一切大眾	-10.4188
十九	-10.4198
四人	-10.4199
食噉	-10.4205
之具	-10.4213
離苦	-10.4213
念已	-10.4218
隨意所	-10.422
語彼	-10.4222
洲	-10.4225
昧	-10.4231
席	-10.4232
祀	-10.4234
茂	-10.4237
冬	-10.4237
為他	-10.4238
麻	-10.4239
選	-10.4243
嫁	-10.4243
何用	-10.4244
憙	-10.4246
掌	-10.425
九十一劫	-10.4252
欣然	-10.4253
摩訶波闍波提	-10.4253
或為	-10.4255
供具	-10.4256
卷第五	-10.4258
五慾	-10.4259
斷諸	-10.426
喜悅	-10.4263
能自	-10.4265
更不	-10.4268
萬法	-10.4271
時佛	-10.4273
道果	-10.4274
聖賢	-10.4285
為喻	-10.4286
照曜	-10.4287
久住	-10.4288
昔者	-10.4293
真諦	-10.4293
大光明	-10.4296
即復	-10.4297
種種諸	-10.43
即取	-10.4312
智者所	-10.4318
學者	-10.4318
出家得道	-10.4319
皆大歡喜	-10.4319
瓦師	-10.432
甚可	-10.4321
無雙	-10.4323
出家者	-10.4326
欲心	-10.4335
汝於	-10.4338
盛滿	-10.434
泉水	-10.4342
乃可	-10.4344
樹枝	-10.4349
自有	-10.4351
沙門瞿曇	-10.4353
第一義	-10.4353
昇天	-10.4355
警	-10.4358
下生	-10.4366
貌	-10.4366
金輪	-10.4369
佛邊	-10.4381
具以	-10.4383
汝何	-10.4385
復語	-10.4386
據	-10.4392
參	-10.4394
得成就	-10.4394
惶	-10.4396
電	-10.4397
悵	-10.44
刃	-10.44
攻	-10.4401
啼	-10.4402
罵詈	-10.4402
雇	-10.4403
枉	-10.4406
肥	-10.4406
燭	-10.4406
剎那	-10.4407
薰	-10.441
或有眾生	-10.4412
希望	-10.4415
輿	-10.4415
最尊	-10.4418
其形	-10.4419
猶不	-10.442
所作已辦	-10.4421
至于	-10.4424
散亂	-10.4425
何能	-10.4426
本國	-10.4427
時天帝釋	-10.4431
人心	-10.4437
重擔	-10.4437
相與	-10.4438
勝者	-10.4444
彼修行人	-10.4445
斯那	-10.4447
汝等諦聽	-10.4447
皆空	-10.445
為師	-10.4453
捨於	-10.4454
五種	-10.4457
徒眾	-10.4457
仁今	-10.4459
種善根	-10.4462
山澤	-10.4464
其一	-10.4465
修諸	-10.4471
之業	-10.4477
白菩薩言	-10.4484
諸比丘等	-10.449
㲲	-10.45
護世	-10.45
波羅㮈	-10.4509
諸子	-10.4509
無限	-10.4511
瘦	-10.4513
奉迎	-10.4515
如是事	-10.4528
亦不能	-10.4533
六入	-10.4536
變成	-10.454
五通	-10.454
降魔	-10.4545
而此	-10.4546
其間	-10.4549
王意	-10.455
真人	-10.455
得安樂	-10.4552
爾時世尊告	-10.4553
自巳	-10.4559
柔	-10.4562
百味	-10.4562
更復	-10.4563
毗	-10.4564
振	-10.4567
澄	-10.4569
使不	-10.4571
邁	-10.4571
無量阿僧祇	-10.4572
耗	-10.4574
舒	-10.4574
揀	-10.4575
叵	-10.4575
嗟歎	-10.4576
却後七日	-10.4576
願王	-10.4577
匠	-10.4577
憑	-10.4577
以偈答	-10.4577
功勳	-10.4578
旱	-10.4578
注	-10.4579
園觀	-10.458
羸瘦	-10.4581
醜陋	-10.4585
母人	-10.4585
六種震動	-10.4586
疲極	-10.4587
得須陀洹道	-10.4588
百官	-10.4589
慧眼	-10.459
荊棘	-10.4593
奈何	-10.4595
福者	-10.4598
入城乞食	-10.4599
兩目	-10.4599
長養	-10.4603
自覺	-10.4607
佛弟子	-10.4611
悉達太子	-10.4612
於長夜	-10.4614
終不捨離	-10.4614
悲鳴	-10.4616
欲知彼時	-10.4616
猶彼	-10.4618
糞穢	-10.4619
不說	-10.4622
無實	-10.4625
皆生	-10.4638
覩之	-10.465
辦具	-10.4655
如如	-10.4661
能解	-10.4663
所食	-10.4665
如大	-10.4667
為世	-10.4672
世有	-10.4674
天中	-10.4678
不至	-10.468
升	-10.468
鈴	-10.4686
妙音	-10.4691
觀見	-10.4711
之尊	-10.4711
陷	-10.4719
徵	-10.472
氏	-10.4723
所依	-10.4724
施者	-10.4726
問之	-10.4727
監	-10.4731
屠	-10.4732
逃	-10.4733
婿	-10.4735
險	-10.4736
聖諦	-10.4738
逼迫	-10.4743
祇洹	-10.4745
藝	-10.4746
不達	-10.4746
螺	-10.4752
不以為	-10.4753
姊妹	-10.4755
文殊師利	-10.4755
而白	-10.4756
稽首佛足	-10.4757
善生	-10.4757
伊	-10.4758
永盡無餘	-10.4758
悕望	-10.476
無所乏少	-10.4762
若以	-10.4763
為眾	-10.4766
隋天竺三藏闍那崛多譯	-10.477
之功	-10.4774
劫中	-10.4774
發是願	-10.4776
在後	-10.4776
出外	-10.4785
所逼	-10.479
諸結使	-10.4793
見聞	-10.4794
來至佛所	-10.4798
觀其	-10.48
大菩提	-10.4801
辟支	-10.4806
誦經	-10.4817
無色	-10.4818
五趣	-10.4829
得安隱	-10.4832
初句	-10.4834
檀度	-10.4837
大苦	-10.484
五根	-10.4843
於佛前	-10.4844
終身	-10.4845
何有	-10.4849
善淨	-10.485
二俱	-10.4865
授與	-10.4869
之上	-10.4869
便自	-10.487
谷	-10.4872
我從	-10.4873
從我	-10.4875
展轉相	-10.4881
惡言	-10.4882
大歡喜	-10.4883
行布施	-10.4885
亦應	-10.4887
十方世界	-10.4889
出遊	-10.4896
所覆	-10.49
三歸	-10.4905
大道	-10.4913
便以	-10.4914
翔	-10.4914
覺寤	-10.4914
練	-10.4915
盈	-10.492
瓦石	-10.4921
懺	-10.4921
尼揵	-10.4922
溝	-10.4925
煖	-10.4926
毫	-10.4927
炙	-10.4928
雹	-10.4929
村落	-10.4929
過去諸佛	-10.4932
我前	-10.4932
盤	-10.4933
總結	-10.4934
王今	-10.4938
施行	-10.4939
護明菩薩	-10.4944
萬二千	-10.4947
到彼岸	-10.4949
來此	-10.4953
六波羅蜜	-10.4954
尸棄如來	-10.4958
化身	-10.4959
如山	-10.4969
形像	-10.4974
躬自	-10.4981
柔和	-10.4989
宮人	-10.499
追求	-10.4993
汝是	-10.4995
賢劫	-10.5006
見佛世尊	-10.5008
政	-10.5011
賈客	-10.5011
其樹	-10.5012
自餘	-10.5016
門戶	-10.502
善住	-10.5021
厭惡	-10.5027
乞求	-10.5029
守戒	-10.5029
十七	-10.503
不移	-10.5031
無由	-10.5036
善男	-10.5037
諸人等	-10.5038
正智	-10.5042
欲知	-10.5045
未來世	-10.5058
何益	-10.5069
彼城	-10.5072
是則	-10.5073
欲度	-10.5074
閣	-10.5078
食時	-10.508
如是思惟	-10.5081
作一	-10.5082
飽滿	-10.5086
如是言	-10.5087
正行	-10.509
善解	-10.5093
隆	-10.5094
諂	-10.5094
鵝	-10.5094
寬	-10.5096
操	-10.5096
尠	-10.5097
尊貴	-10.5099
垢穢	-10.5099
洞	-10.5101
玄	-10.5102
貨	-10.5104
能持	-10.5105
預	-10.5106
得須陀洹	-10.5107
衰老	-10.5109
迦旃延	-10.5109
侍衛	-10.5111
豈可	-10.5111
白淨	-10.5113
天龍鬼神	-10.5113
形貌	-10.5113
此語	-10.5116
開敷	-10.5119
諸世間	-10.5119
復當	-10.5121
有餘	-10.5125
右膝著地	-10.5127
穢濁	-10.5128
因此	-10.5132
即出	-10.514
訖已	-10.5143
當體	-10.5143
此大沙門	-10.5144
行來	-10.5145
妙香	-10.5145
於諸法中	-10.5145
禮佛	-10.5147
靜住	-10.5149
故為	-10.5151
其罪	-10.5155
苦哉	-10.5157
治化	-10.5157
如雲	-10.5157
卷第二	-10.5159
惡友	-10.5161
取水	-10.5163
愁惱	-10.5164
菩薩母	-10.5168
汝之	-10.5173
』	-10.5175
諸菩薩等	-10.5186
是彼	-10.5186
顯現	-10.5189
即共	-10.5197
禮敬	-10.5197
彼林	-10.5201
老病	-10.5201
無縛	-10.5203
遠來	-10.5206
人生	-10.5208
退轉	-10.5209
華鬘	-10.5211
安止	-10.5214
又以	-10.522
搖	-10.5222
得阿耨多羅三藐三菩提	-10.5225
變為	-10.5229
得生天上	-10.5237
常有	-10.5237
過去久遠	-10.5255
歇	-10.526
優波	-10.5261
邪道	-10.5262
入地獄	-10.5263
丈	-10.5268
無形	-10.527
剛	-10.5274
問彼	-10.5276
商	-10.5277
戴	-10.5278
塚間	-10.5278
言辭	-10.528
冀	-10.5283
纖	-10.5284
啼泣	-10.5284
項	-10.5285
扇	-10.5285
未嘗	-10.5285
阿僧祇	-10.5286
尸利毱多	-10.5286
拂	-10.5288
辛苦	-10.5289
欺誑	-10.5289
乳糜	-10.5291
十千	-10.5294
行十善	-10.5294
澡浴	-10.5298
卷第三	-10.5299
香氣	-10.53
誠諦	-10.5301
人壽	-10.5305
三明六通	-10.5312
捨棄	-10.5312
無量無邊阿僧祇	-10.5318
值佛	-10.5319
隣國	-10.5324
出家修道	-10.5324
人者	-10.5326
數千萬	-10.5326
所說法	-10.533
修集	-10.533
於眾生	-10.5331
得羅漢	-10.5333
眾病	-10.5334
我於今者	-10.5336
若干種	-10.5337
長生	-10.5339
聲聞弟子	-10.5343
等者	-10.5348
無所依	-10.5348
未久	-10.535
諸梵志	-10.5355
生死海	-10.5358
初生	-10.5367
既至	-10.5372
說妙法	-10.5373
來世	-10.5381
大樹	-10.5387
波羅蜜多	-10.5395
其志	-10.5398
契	-10.5405
十惡	-10.5406
我故	-10.5407
而告之	-10.541
然燈	-10.5411
二事	-10.5412
食者	-10.5414
法律	-10.5417
佛便	-10.5422
居家	-10.5423
與王	-10.5424
盲冥	-10.5425
觀也	-10.5426
進修	-10.5426
是法	-10.5429
意解	-10.5434
所害	-10.5434
以偈頌	-10.5436
大象	-10.5436
謙	-10.5441
未及	-10.5451
覩佛	-10.5455
債	-10.5457
蜂	-10.5459
以善	-10.5462
財貨	-10.5462
初二句	-10.5463
侶	-10.5464
饌	-10.5464
大沙門	-10.5464
一切諸佛	-10.5465
均	-10.5465
耕	-10.5466
以佛	-10.5467
丘	-10.5469
不當	-10.5469
阿那律	-10.5469
黨	-10.547
忘失	-10.5471
阿闍世王	-10.5472
巳竟	-10.5474
棄捐	-10.5475
牛頭栴檀	-10.5476
作福	-10.5476
隨喜	-10.5477
滯	-10.5477
最大	-10.5478
貧賤	-10.5479
母子	-10.5482
摩訶那摩	-10.5482
卷第一	-10.5484
那羅延	-10.5485
頭面作禮	-10.5486
香潔	-10.5487
消除	-10.5489
取之	-10.5491
能與	-10.5494
瞿曇沙門	-10.5498
豐樂	-10.5499
樓閣	-10.5503
捐棄	-10.5504
種諸善根	-10.5506
之難	-10.551
獲益	-10.5514
不興	-10.5514
時彼城中	-10.5517
持鉢	-10.5518
波利	-10.5519
知我	-10.5521
幡蓋	-10.5521
弓箭	-10.5524
止觀	-10.5526
樂法	-10.553
自生	-10.553
專心	-10.5532
之名	-10.5532
與此	-10.5542
實無	-10.5543
出水	-10.5544
咸皆	-10.5544
緣是	-10.5545
大迦葉	-10.555
婆羅門等	-10.5551
求哀	-10.5552
入大海	-10.5552
淨心	-10.5557
自然而	-10.5563
於彼時	-10.5563
念佛	-10.5564
非我	-10.5564
而問	-10.5566
佛與	-10.5576
道法	-10.5578
如似	-10.5583
之想	-10.5583
聽之	-10.5584
當共	-10.5609
但當	-10.5612
百歲	-10.5613
則我身是	-10.5616
是非	-10.5628
乞匃	-10.5628
心即	-10.5629
無患	-10.563
諸力士	-10.5631
妙果	-10.5632
聰	-10.5636
不疑	-10.5637
肅	-10.5638
十萬	-10.5642
鈎	-10.5646
姦	-10.5646
兇	-10.5647
捨身命	-10.565
赫	-10.5655
涕	-10.5657
繼	-10.5658
求法	-10.5659
惶怖	-10.566
四十里	-10.5661
修福	-10.5661
紹	-10.5661
阿夷	-10.5661
娉	-10.5662
乞兒	-10.5664
肆	-10.5666
誑惑	-10.5667
邑	-10.567
世尊告諸比丘	-10.5672
而說頌曰	-10.5674
快哉	-10.5677
戲笑	-10.5677
假若	-10.5678
使令	-10.5679
除愈	-10.568
在在處處	-10.568
已後	-10.5683
請佛及僧	-10.5684
四兵	-10.5684
速得	-10.5687
慈者	-10.5692
於太子	-10.5694
前行	-10.5697
堪受	-10.5704
若是	-10.5705
佛果	-10.5706
眼目	-10.5712
得成佛	-10.5714
人乎	-10.5716
飲水	-10.5726
叉手合掌	-10.5732
不久當	-10.5735
亦得	-10.5736
之士	-10.5736
百劫	-10.5746
是真	-10.5747
誰當	-10.5749
不入	-10.5749
長者家	-10.5753
王女	-10.5754
千萬	-10.5757
有疑	-10.5758
出世間	-10.5763
諸結	-10.5764
所證	-10.5768
歌舞	-10.5769
發如是	-10.5774
勝於	-10.5791
住此	-10.5798
而退	-10.5804
持禁戒	-10.5813
而起	-10.5813
旦	-10.5816
此間	-10.5818
禮佛足	-10.5825
跳	-10.5829
舅	-10.583
何人	-10.5833
忠	-10.5833
有婆羅門	-10.5834
舟	-10.5835
軀	-10.5835
武	-10.5835
方所	-10.5838
第五	-10.5838
王后	-10.5839
粗	-10.584
照明	-10.584
幡	-10.5841
苑	-10.5842
鞭	-10.5843
醯	-10.5844
頰	-10.5844
苦患	-10.5845
經法	-10.5845
章句	-10.5845
仍	-10.5845
令入	-10.5846
恚怒	-10.5847
突	-10.5847
貧乏	-10.5847
利刀	-10.5849
恒河沙數	-10.5849
伽羅	-10.5849
良醫	-10.5852
不亂	-10.5853
善意	-10.5855
戒定慧	-10.5855
何由	-10.5858
餚饍	-10.5861
有信	-10.5862
三匝	-10.5865
清信士	-10.5866
豪貴	-10.5867
速證	-10.5869
療治	-10.587
床座	-10.5871
然既	-10.5872
得成阿耨多羅三藐三菩提	-10.5876
聖后	-10.5879
聞知	-10.5879
著於	-10.588
便成沙門	-10.5882
威光	-10.5883
無福	-10.5884
鋪	-10.5888
惡口	-10.5892
於前	-10.5898
一偈	-10.5903
度無極行	-10.5905
第十	-10.5909
五穀	-10.591
宮門	-10.5911
常念	-10.5911
香水	-10.5916
不懷	-10.5918
諸業	-10.5921
想念	-10.5928
十二年	-10.5932
不成	-10.5934
寶車	-10.5935
利根	-10.5935
當還	-10.5937
求菩提	-10.594
將諸比丘	-10.5942
年老	-10.5943
門外	-10.595
不愛	-10.5959
有五	-10.596
眾星	-10.5965
亦皆	-10.5968
毘舍	-10.5969
廟	-10.597
造立	-10.5971
身形	-10.5977
然我	-10.5978
迦葉如來	-10.5981
妙行	-10.5981
愍念	-10.5987
遍照	-10.5989
思想	-10.5992
覩其	-10.5995
意在	-10.5995
重病	-10.5996
滿月	-10.5996
一毛	-10.5997
若在	-10.6
塵土	-10.6
賢善	-10.6004
受是	-10.6005
云何名為	-10.6007
現行	-10.6012
嚴淨	-10.6013
欲害	-10.6017
耆闍崛山	-10.6019
奮	-10.6025
常懷	-10.6026
後生	-10.6027
至世尊所	-10.6027
如風	-10.603
求食	-10.6032
將此	-10.6032
利劍	-10.6035
穴	-10.6037
炭	-10.6039
雀	-10.604
覲	-10.6042
伸	-10.6044
無非	-10.6044
勵	-10.6046
頗有	-10.6047
圓寂	-10.6049
昔者菩薩	-10.6051
無知	-10.6054
愛心	-10.6054
俱夷	-10.6054
捧	-10.6055
明旦	-10.6057
當行	-10.6058
黑暗	-10.606
今復	-10.6063
我能	-10.6065
而用	-10.6067
有七	-10.6068
之人亦復如是	-10.6068
祇桓	-10.6072
六道	-10.6072
修治	-10.6073
兜術天	-10.6073
最正覺	-10.6074
即從坐起	-10.6076
皆言	-10.6078
得己利	-10.6079
甘露法	-10.6085
鬚髮	-10.6085
善言	-10.6087
寶幢	-10.609
諸沙門	-10.6096
染污	-10.6102
不孝	-10.6109
而為說法	-10.6109
子孫	-10.6111
則能	-10.6112
受彼	-10.6119
無價	-10.6119
大王當知	-10.6119
放光	-10.6124
五親	-10.6126
毒害	-10.6128
能度	-10.6128
我知	-10.6135
八戒	-10.6138
止住	-10.6143
其兒	-10.6146
悲哀	-10.6149
聞太子	-10.6151
大威德	-10.6155
而後	-10.6159
端坐	-10.6163
報彼	-10.6164
而問之	-10.6167
心大	-10.6169
恒河沙等	-10.617
求之	-10.6176
不堅	-10.6179
若彼	-10.618
獲其	-10.6188
觀於	-10.6188
地獄中	-10.6189
不害	-10.6189
答王言	-10.6192
善者	-10.6192
大悲心	-10.6197
有一婆羅門	-10.6197
不別	-10.62
諸佛世界	-10.62
佛時	-10.6205
念曰	-10.6211
不修	-10.6212
雜寶	-10.6214
不顧	-10.6218
天主	-10.6218
自活	-10.622
常得	-10.6222
梵音	-10.6223
壓	-10.6226
無學	-10.6227
今生	-10.6232
處世	-10.6234
微塵	-10.6235
􂌞	-10.6237
芽	-10.6238
弗	-10.6239
汗	-10.6239
除諸	-10.624
洪	-10.6241
諾	-10.6244
天冠	-10.6246
瞿	-10.6246
鴦	-10.6248
萬八千	-10.6248
幽冥	-10.6249
煮	-10.6251
妓女	-10.6251
意識	-10.6253
何事	-10.6254
怪哉	-10.6254
茂盛	-10.6255
疊	-10.6257
水牛	-10.6258
作是語	-10.6261
之果	-10.6262
安詳	-10.6263
作倡伎樂	-10.6264
晉言	-10.6269
合十指掌	-10.6272
聞是偈已	-10.6272
入道	-10.6272
諸神	-10.6272
師曰	-10.6276
以偈報	-10.6278
而至	-10.6282
輕慢	-10.6282
離垢	-10.6285
彼眾生	-10.6286
或能	-10.6288
隨機	-10.6291
十二因緣	-10.6291
衣鉢	-10.6293
以天	-10.6296
寧可	-10.6297
更生	-10.63
下賤	-10.6302
?」「	-10.6304
生人間	-10.6308
諸漏	-10.6311
天魔	-10.6315
欲出家	-10.6318
汝莫	-10.6319
所樂	-10.6319
實語	-10.632
騰	-10.6321
不施	-10.6325
世尊告	-10.633
發言	-10.6331
香美	-10.6335
奉持	-10.6335
而欲	-10.6338
未知	-10.6349
凡有	-10.635
我者	-10.6351
一由旬	-10.6351
我雖	-10.6354
厄難	-10.6355
金色王	-10.6358
隨宜	-10.6361
學問	-10.6361
之女	-10.6361
餘處	-10.6361
最妙	-10.6363
復來	-10.6369
戒德	-10.6373
宿世	-10.6377
兜率	-10.6377
雖得	-10.6377
若有人	-10.6384
彼等諸	-10.6392
燒香	-10.6396
我與	-10.6399
之食	-10.6405
法財	-10.6407
諸方	-10.6408
以我	-10.6411
高下	-10.6416
因是	-10.6421
江	-10.6428
而立	-10.6436
其名	-10.6437
促	-10.6441
脊	-10.6443
曩	-10.6444
阿羅漢者	-10.6446
媚	-10.6447
掩	-10.6447
寡	-10.6448
錄	-10.6449
不滅	-10.6449
世樂	-10.6453
脣	-10.6453
朗	-10.6454
悋惜	-10.6455
餅	-10.6455
衛護	-10.6456
能忍	-10.6458
無所罣礙	-10.6458
貴賤	-10.6459
萬民	-10.6459
服飾	-10.6463
婆伽婆	-10.6464
二十八	-10.6468
云何得	-10.6469
奉獻	-10.647
各相謂言	-10.6474
非但今日	-10.6475
是知	-10.6475
惡意	-10.6477
賢者阿難	-10.6478
斯人	-10.6479
正路	-10.648
寶海梵志	-10.6482
讀誦	-10.6484
摩羅	-10.6484
如火	-10.6496
未見	-10.6499
親屬	-10.6499
四德	-10.6506
唯願大王	-10.6507
必欲	-10.6508
燈明	-10.6511
降神	-10.6518
有大威德	-10.652
為難	-10.6525
為因	-10.6526
帝王	-10.6532
惡知識	-10.6532
皆以	-10.6532
願為	-10.6542
迴轉	-10.6542
福樂	-10.6546
此名	-10.6548
流通	-10.6549
是何人	-10.6556
獨坐	-10.6557
即知	-10.6566
大夫人	-10.6566
埋	-10.6568
可知	-10.6574
有世界名	-10.6576
於上	-10.6584
得未曾有	-10.6594
相違	-10.6596
命盡	-10.66
化成	-10.6608
以智	-10.6608
毘沙門	-10.661
此苦	-10.6611
無病	-10.6611
何謂為	-10.6613
是時太子	-10.6615
不絕	-10.6616
無障礙	-10.6617
三達	-10.6617
結顯	-10.6617
摩耶夫人	-10.6619
悉知	-10.6623
復白	-10.6625
供養父母	-10.6625
無可	-10.6626
佛經	-10.6626
此心	-10.6634
羽	-10.6634
靡	-10.6638
拳	-10.6645
藥叉	-10.6647
疑網	-10.6649
與佛	-10.6649
肩	-10.665
廁	-10.6651
苟	-10.6652
所問	-10.6653
叩頭	-10.6653
詞	-10.6654
捶	-10.6654
湯藥	-10.6655
良藥	-10.6656
乖	-10.6656
陣	-10.6657
大神通	-10.6658
織	-10.6658
剃髮	-10.6659
甲冑	-10.6661
投身	-10.6662
司	-10.6662
寂默	-10.6663
怯弱	-10.6663
自當	-10.6664
羡	-10.6664
膿血	-10.6664
苦厄	-10.6665
怨憎	-10.6667
飢餓	-10.6667
卒暴	-10.6668
誦習	-10.6669
既聞	-10.667
花香	-10.6672
荼	-10.6673
閻浮提內	-10.6674
長跪叉手	-10.6674
思惟是已	-10.6676
非一	-10.6676
就座	-10.6677
心故	-10.6678
金銀珍寶	-10.668
壞敗	-10.668
憂慼	-10.6682
面目	-10.6689
四姓	-10.669
離別	-10.669
謂之	-10.669
正觀	-10.6692
年漸長大	-10.6693
阿羅訶	-10.6693
虗空	-10.6697
作佛事	-10.6702
正受	-10.6705
水草	-10.6705
時至	-10.6706
稱譽	-10.6707
說經法	-10.6711
仙人言	-10.6713
或言	-10.672
生活	-10.6724
精神	-10.6726
於是世尊即	-10.6726
皆使	-10.6728
能仁	-10.6732
歎言	-10.6732
我於彼時	-10.6733
何等為	-10.6735
善人	-10.6735
不堪	-10.6735
難量	-10.6739
又如	-10.674
宗族	-10.6741
於一時	-10.6741
佛法僧	-10.6744
斯由	-10.6744
竟不	-10.6749
諸童子	-10.6749
得如是	-10.6749
多人	-10.6749
勝利	-10.675
敬重	-10.6751
獨自	-10.6752
勝德	-10.6752
觀門	-10.6753
眾鳥	-10.6754
吾我	-10.6757
息心	-10.6758
修苦行	-10.6759
坐臥	-10.6759
一切諸天	-10.6764
空無	-10.677
所有一切	-10.6773
天眾	-10.6776
又曰	-10.6778
隨我	-10.6782
成阿羅漢	-10.6783
知時	-10.6785
而不能	-10.6788
常能	-10.6797
地上	-10.6798
啟王	-10.6799
自相	-10.6801
樂欲	-10.6803
阿羅	-10.6804
甚懷	-10.6805
之教	-10.681
法幢	-10.6814
妬	-10.6819
學人	-10.6819
各各自	-10.6829
無害	-10.6829
得已	-10.6833
實有	-10.6835
淨信	-10.6838
依法	-10.6838
即語	-10.6838
枚	-10.684
恣意	-10.6845
諸商人	-10.6845
赦	-10.6846
癡人	-10.6847
已斷	-10.6848
但以	-10.685
何如	-10.6852
以施	-10.6853
復能	-10.6854
下結	-10.6854
誓言	-10.6854
掃	-10.6855
斷一切	-10.6857
讓	-10.6858
忌	-10.6865
楚	-10.6866
潛	-10.6866
帳	-10.687
芥子	-10.687
欽	-10.687
而今	-10.6872
知恩報恩	-10.6872
坌	-10.6872
曜經	-10.6872
果蓏	-10.6873
叢林	-10.6874
老人	-10.6876
兩舌	-10.6877
心淨	-10.6877
禁制	-10.688
帛	-10.6881
一時佛在舍衛國祇樹給孤獨園	-10.6882
呵責	-10.6883
湛然	-10.6888
既云	-10.6888
慳悋	-10.6889
不必	-10.6891
憂患	-10.6894
縱廣正等	-10.6894
撲	-10.6896
於諸眾生	-10.6897
既無	-10.6898
告語	-10.6898
前後圍遶	-10.6898
妙花	-10.6899
竹林	-10.6902
能發	-10.6904
欲殺	-10.6908
道行	-10.6911
長老難陀	-10.6913
不惜	-10.6914
為菩薩時	-10.6923
敬心	-10.6928
退失	-10.6929
是大沙門	-10.6931
自他	-10.6932
安處	-10.6932
得戒	-10.6933
非為	-10.6941
占相	-10.6942
其本	-10.6948
事故	-10.6951
即答言	-10.6951
汝今何故	-10.6951
皆成	-10.6953
汝應	-10.6954
隨心	-10.6954
何也	-10.6957
無怖	-10.6958
後時	-10.6958
此大	-10.696
人皆	-10.6961
習行	-10.6964
諸眾生故	-10.6964
狐	-10.6965
復於	-10.6967
竹	-10.6972
執著	-10.6983
得之	-10.6985
佛土中	-10.6986
悲心	-10.6987
善妙	-10.6988
形相	-10.6989
當為汝說	-10.699
一劫	-10.6994
德本	-10.6995
即召	-10.6998
我願	-10.6999
應感	-10.7001
當用	-10.7003
喻中	-10.7003
大意	-10.7004
令諸	-10.7006
三百	-10.7013
終日	-10.7022
比丘言	-10.7026
隨佛	-10.7026
憎	-10.7033
奉佛	-10.7035
鬚	-10.7039
有福	-10.7044
盡皆	-10.7046
下至	-10.7049
此三	-10.705
修因	-10.705
然燈佛	-10.7051
假令	-10.7053
觀諸	-10.7054
意樂	-10.7054
受身	-10.7056
謂佛	-10.7056
僕	-10.7057
金山	-10.7057
夫主	-10.7057
火然	-10.7061
陽	-10.707
一切菩薩	-10.7072
大山	-10.7074
謬	-10.7074
牧	-10.7075
有八	-10.7075
是故我	-10.7076
何物	-10.7076
行惡	-10.7078
唯見	-10.7078
拘盧	-10.7081
斥	-10.7081
薩薄	-10.7084
悋	-10.7084
生死苦	-10.7085
皆如	-10.7087
吾身是也	-10.7088
世間人	-10.709
羅摩	-10.709
積德	-10.7091
東西南北	-10.7092
喘息	-10.7092
皷	-10.7093
傍臣	-10.7096
欲想	-10.7097
遂便	-10.7097
躃地	-10.7099
巷	-10.71
消息	-10.71
縱廣	-10.7101
戰鬪	-10.7102
數千	-10.7103
脂	-10.7103
白銀	-10.7103
無垢性	-10.7103
共相娛樂	-10.7107
之理	-10.7107
瞻視	-10.7108
如蛇脫故皮	-10.711
國主	-10.7111
佛復	-10.7112
娑毘耶	-10.7115
如一	-10.7115
問之言	-10.7123
正法住世	-10.7124
瑕穢	-10.7126
具八解脫	-10.7126
度生死	-10.7126
法服著身	-10.7129
大人	-10.713
心歡喜	-10.7134
教化眾生	-10.7135
宿殖何福	-10.7136
其法	-10.7139
求願	-10.714
納受	-10.7146
尊敬	-10.7146
向者	-10.7147
賈人	-10.7149
測	-10.715
二十九	-10.7151
車馬	-10.7153
五逆	-10.7154
亦復然	-10.7154
慧命	-10.7155
驚怪	-10.7156
行七步	-10.716
一月	-10.7164
之大	-10.7167
吏	-10.7176
今世	-10.7179
往至佛所	-10.718
鐵圍山	-10.7181
便可	-10.7186
妙覺	-10.7186
後身	-10.7191
汝等今者	-10.7199
我法	-10.72
妙華	-10.7201
瑞相	-10.7201
其中眾生	-10.7203
一種	-10.7204
牛王	-10.7205
十者	-10.7207
所感	-10.721
觀心	-10.7211
得清淨	-10.7215
善友太子	-10.7221
作何等	-10.7225
父言	-10.7225
憂陀	-10.7226
此城	-10.7228
安居	-10.7228
曇	-10.7234
羅云	-10.7241
無量劫	-10.7242
土地	-10.7248
九者	-10.7248
如水	-10.7249
光相	-10.7256
池水	-10.7268
受罪	-10.7269
今若	-10.7273
迦葉佛	-10.7279
親愛	-10.7279
有兩	-10.7281
眾事	-10.7284
自證	-10.7286
於虛空	-10.7288
願力	-10.7288
名阿	-10.7289
能觀	-10.729
周徧	-10.7296
願樂	-10.7296
為之	-10.7296
欲滅	-10.7296
壍	-10.7297
願求	-10.7297
闡	-10.7299
蹋	-10.73
一切有情	-10.7302
俱生	-10.7303
恥	-10.7304
妨	-10.7305
賴吒和羅	-10.7308
否	-10.7308
映	-10.7309
抂	-10.7313
增減	-10.7313
植	-10.7313
疲勞	-10.7314
估客	-10.7315
右旋	-10.7316
憍尸迦	-10.732
在大眾中	-10.7321
悶絕	-10.7322
還得	-10.7323
付囑	-10.7323
石室	-10.7324
愚冥	-10.7324
珊瑚	-10.7325
夫言	-10.7326
居處	-10.7327
離生死	-10.733
恒河	-10.733
內自思惟	-10.7335
生於天上	-10.7336
悉達多	-10.7336
偏袒右肩	-10.7337
調順	-10.734
遶佛三匝	-10.7342
即向	-10.7344
一食	-10.7344
放捨	-10.7345
奉施	-10.7346
所縛	-10.7347
慈父	-10.7347
眾德	-10.7347
于地	-10.7351
共議	-10.7352
治國	-10.7353
勞苦	-10.7353
車匿言	-10.7356
教人	-10.7357
護身	-10.7358
六情	-10.7361
尚不	-10.7361
業障	-10.7361
世界中	-10.7373
未聞	-10.7373
王前	-10.7374
欲取	-10.7377
夜半	-10.7377
又言	-10.7378
復欲	-10.738
惡鬼	-10.7381
說者	-10.7385
千由旬	-10.7391
正顯	-10.7392
當見	-10.7393
詣於	-10.7393
大喜	-10.7394
小乘	-10.7397
大聖太子	-10.74
法味	-10.74
與人	-10.7403
有無	-10.7404
是等	-10.7404
二百	-10.7405
菩提道	-10.7417
安坐	-10.7418
之辭	-10.7419
有一比丘	-10.7421
怙	-10.7429
業力	-10.7431
更求	-10.7437
之體	-10.744
平復	-10.7444
該	-10.7447
善道	-10.7448
欲出	-10.7457
大千	-10.746
不假	-10.7461
時有一人	-10.7461
百種	-10.7462
聖智	-10.7462
在外	-10.7468
來集	-10.7468
乞者	-10.7472
悉來	-10.7477
幻化	-10.7485
不共	-10.7491
名號	-10.7491
信受	-10.7494
到於	-10.7495
奈	-10.7497
目犍連	-10.7498
語之言	-10.7503
實相	-10.7506
輔	-10.751
紫金	-10.751
妾	-10.7516
福利	-10.7519
既到	-10.7519
無惱	-10.752
臣佐	-10.752
捔	-10.7522
復得	-10.7523
果實	-10.7524
判	-10.7525
其前	-10.7526
隔	-10.7529
湯	-10.7529
胸	-10.7532
未曾見	-10.7533
故不	-10.7534
細滑	-10.7534
撿	-10.7535
籌	-10.7535
甜	-10.7536
三摩地	-10.7536
天竺	-10.7537
富那奇	-10.7538
聖者	-10.7541
必能	-10.7541
渧	-10.7542
眾聖	-10.7542
地獄餓鬼畜生	-10.7545
階	-10.7546
華嚴	-10.7547
青衣	-10.7547
善思念之	-10.7549
解了	-10.7553
可意	-10.7553
盜賊	-10.7554
諸魔	-10.7555
尊卑	-10.7557
淨居天	-10.7558
說是語已	-10.7559
默然而住	-10.7559
猶豫	-10.756
採取	-10.7563
栴檀香	-10.7563
最為第一	-10.7567
藥草	-10.7569
輸檀王	-10.7575
梵釋	-10.7578
十月	-10.758
莫作	-10.7582
力強	-10.7584
得離	-10.7587
諸眷屬	-10.7587
何法	-10.7588
世所	-10.7589
亦兼	-10.759
故也	-10.759
陀羅尼門	-10.7591
三時	-10.7591
以金	-10.7595
惱亂	-10.7598
自己	-10.76
本行	-10.7601
六根	-10.7602
共議言	-10.7606
在中	-10.7607
還自	-10.7608
神通變化	-10.7609
天衣	-10.7614
長遠	-10.7614
阿修羅王	-10.7614
行善	-10.7617
阿羅漢果	-10.7618
子言	-10.7622
有二義	-10.7623
生靈	-10.7625
導從	-10.7629
如是語已	-10.763
宿緣	-10.7632
來歸	-10.7637
以是故	-10.7637
身毛	-10.7638
伽陀	-10.7641
有千	-10.7645
獨尊	-10.7647
得人身	-10.7648
從他	-10.7656
或作	-10.7658
生大歡喜	-10.7661
願得	-10.7662
)、	-10.7663
麤惡	-10.7663
皆悉具足	-10.7664
自謂	-10.7666
常在	-10.7668
志願	-10.7669
佛說如是	-10.7677
入水	-10.7678
法教	-10.7684
何得	-10.7684
寶山	-10.7686
病苦	-10.7688
有無量	-10.769
師徒	-10.7691
供佛	-10.7693
豈能	-10.7695
無以	-10.7704
令此	-10.7707
何因	-10.7708
塗香	-10.7712
冷水	-10.7715
四海	-10.7717
難捨	-10.772
中有一	-10.7724
所習	-10.7724
果也	-10.7727
繒	-10.7729
太子前	-10.7729
還去	-10.7732
能以	-10.7733
諸山	-10.7735
以智慧	-10.7736
色欲	-10.7737
叫	-10.7739
所敬	-10.7747
億百千	-10.7747
途	-10.7749
蹔	-10.775
大聲	-10.7751
繁	-10.7752
掉	-10.7753
且約	-10.7755
始終	-10.7758
我觀	-10.7761
祠祀	-10.7762
從於	-10.7762
填	-10.7762
而為上首	-10.7765
迫	-10.7765
詔	-10.7765
眉	-10.7765
章	-10.7765
山頂	-10.7765
不使	-10.7767
煙	-10.7769
酸	-10.7769
化生	-10.777
迷悶	-10.7773
萬端	-10.7774
潤澤	-10.7774
勸助	-10.7776
殷	-10.7777
攀	-10.7777
此中	-10.7778
一世	-10.7779
不停	-10.7786
撰	-10.7786
得羅漢道	-10.7789
用作	-10.7791
取此	-10.7791
其城	-10.7792
所疑	-10.7792
異口同音	-10.7795
永盡	-10.7796
往生	-10.7796
佛即告	-10.7802
詣王	-10.7803
我今可	-10.7804
觀世	-10.7805
不可限量	-10.7806
火鬘	-10.7807
設有	-10.7808
不墮	-10.7811
之徒	-10.7812
一切人	-10.7813
傾動	-10.7816
。』「『	-10.7819
求出家	-10.7823
迦尸國	-10.7825
頭陀	-10.783
滅則	-10.7831
殘害	-10.7833
繫念	-10.7843
。」』	-10.7844
如是種種	-10.7846
以無	-10.7849
還生	-10.785
作如是說	-10.7855
破戒	-10.7858
并諸	-10.7859
力能	-10.7862
能照	-10.7863
山神	-10.7866
實爾	-10.7871
比丘是	-10.7874
苦難	-10.7875
兩足	-10.7877
作種種	-10.7882
諸天子	-10.7883
報應	-10.7886
二障	-10.7887
供養如來	-10.7888
寶冠	-10.7892
深法	-10.7893
今現在	-10.7895
貢	-10.7896
今既	-10.7896
邏	-10.7896
能離	-10.7897
復問言	-10.7897
師子王	-10.7905
受斯	-10.7905
口出	-10.7906
法華	-10.7909
說微妙法	-10.791
慈哀	-10.7911
散花	-10.7918
起於	-10.7926
其體	-10.7927
道跡	-10.793
信施	-10.7937
便共	-10.7941
滿中	-10.7942
本所	-10.7945
身者	-10.7948
恒沙	-10.7948
便欲	-10.7949
勤求	-10.795
彌勒菩薩	-10.795
起滅	-10.7951
白衣	-10.7953
人道	-10.7955
亦無有	-10.796
業報	-10.7961
去此	-10.7963
其聲	-10.7963
有六	-10.7968
重罪	-10.7968
見如來	-10.797
如幻	-10.7974
第八	-10.7987
乃有	-10.7989
法忍	-10.799
所有眾生	-10.7992
心為	-10.7993
承受	-10.7997
自食	-10.7997
出如是聲	-10.7997
不唯	-10.7998
欲行	-10.7999
淳	-10.8
匝	-10.8
團	-10.8001
獨行	-10.8002
愕然	-10.8004
挑	-10.8007
戾	-10.8008
螫	-10.8008
暉	-10.801
覆蓋	-10.8011
次句	-10.8011
斗	-10.8012
謹慎	-10.8012
陸地	-10.8013
囚	-10.8014
毒箭	-10.8014
舐	-10.8015
環	-10.8016
即持	-10.8017
道之	-10.8017
舉聲大哭	-10.8017
城郭	-10.8018
今正是時	-10.8019
摧伏	-10.8021
伴侶	-10.8023
調和	-10.8024
地神	-10.8026
勿得	-10.8028
腹中	-10.803
求佛道	-10.803
殊異	-10.803
孫陀利	-10.8034
豈異	-10.8034
世間所有	-10.8035
便說此偈	-10.8037
成一	-10.8038
樹下坐	-10.8038
六塵	-10.8038
轉正法輪	-10.8042
毀壞	-10.8042
害心	-10.8044
能感	-10.8044
塗身	-10.8046
三句	-10.8047
自求	-10.805
之也	-10.805
神妙	-10.805
甚為	-10.8052
所止	-10.8052
年少沙門	-10.8054
從佛	-10.8059
變現	-10.8061
當學	-10.8062
其頭	-10.8062
覺意	-10.8064
生厭離	-10.8065
證果	-10.8066
復作	-10.8067
我國	-10.8072
王名	-10.8077
以神足	-10.8078
斯須	-10.8078
功夫	-10.8079
聖教	-10.8079
其光	-10.8079
因中	-10.8081
契經	-10.8084
歎說	-10.8087
稱善	-10.8089
執意	-10.8089
大火	-10.8091
應作	-10.8094
當求	-10.81
實為	-10.8102
子等	-10.8104
倍增	-10.8105
乃為	-10.8117
」	-10.812
願令	-10.8124
非人	-10.8124
之音	-10.8126
其色	-10.8127
發遣	-10.8131
其父母	-10.8131
其有眾生	-10.8132
寶樹	-10.8143
為根本	-10.8156
是苦	-10.8161
放光明	-10.8165
珠寶	-10.8167
崇修	-10.8169
四事供養	-10.8169
應須	-10.8169
大智慧	-10.817
摩尼珠	-10.8172
當復	-10.8173
慈悲心	-10.8174
不厭	-10.8183
修行人	-10.8188
其道	-10.819
知此	-10.8192
王夫人	-10.8199
世無	-10.8205
無有餘	-10.8206
未免	-10.8207
勸令	-10.8214
復念	-10.8215
川	-10.8217
師言	-10.8218
觀身	-10.8219
勝法	-10.8219
正教	-10.822
於空中	-10.8221
醒	-10.8224
即成	-10.8228
阿私陀仙	-10.8231
摩訶迦葉	-10.8236
如金剛	-10.8236
受形	-10.8238
糧	-10.8238
篤	-10.8238
津	-10.8238
巡	-10.8244
閒	-10.8246
筋	-10.8248
紛	-10.8249
囊	-10.8249
案	-10.825
駈	-10.8251
身出	-10.8253
三千大千	-10.8253
匹	-10.8255
道成	-10.8256
十五日	-10.8258
卑賤	-10.826
江河	-10.826
綺語	-10.826
羡那	-10.8261
漸次	-10.8262
誐	-10.8263
長短	-10.8263
自至	-10.8263
當度	-10.8264
比丘是也	-10.8266
傘蓋	-10.8266
宗親	-10.8268
語王言	-10.8268
坻	-10.8268
黠慧	-10.8268
飢饉	-10.8269
闇冥	-10.8269
為太子	-10.8271
少雙	-10.8272
生一男兒	-10.8272
尼提	-10.8273
當何	-10.8273
曾聞	-10.8274
佐	-10.8275
所受	-10.8275
終始	-10.8275
妹	-10.8276
昔有一人	-10.8277
於晨朝時	-10.8278
豈有	-10.8278
五色	-10.8279
舉動	-10.8279
得阿羅漢道	-10.828
手脚	-10.8282
住止	-10.8283
五濁惡世	-10.8283
離諍王	-10.8286
命根	-10.8287
彼之	-10.829
母者	-10.829
其兄	-10.8294
句義	-10.8298
無怨	-10.8301
亂想	-10.8305
唯然世尊	-10.8306
說伽陀	-10.8308
善丈夫	-10.8312
無信	-10.8313
於外	-10.8317
可為	-10.8319
長者居士	-10.8323
就坐	-10.8327
一切所須	-10.833
而食	-10.833
夢中	-10.833
音響	-10.833
遂成	-10.8331
向菩薩	-10.8331
得利	-10.8333
臨終	-10.8335
生長	-10.8337
為業	-10.8337
妙觀	-10.8338
與共	-10.8339
生生	-10.8342
受快樂	-10.8343
自莊嚴	-10.8345
啟白	-10.8346
受五欲	-10.8347
舍衛城	-10.8349
檀波羅蜜	-10.8353
美食	-10.8353
遙見世尊	-10.8356
苦海	-10.836
雖多	-10.8364
不惟	-10.8368
汝父	-10.8374
居住	-10.8375
而告	-10.8382
盈滿	-10.8384
法也	-10.8388
不懈	-10.8394
作樂	-10.8394
說曰	-10.8398
王語	-10.84
七重	-10.8402
超過	-10.8403
謂菩薩	-10.8409
人也	-10.841
執杖	-10.841
治之	-10.8419
生憂	-10.8423
俱共	-10.8424
心喜	-10.8427
為眾生故	-10.8428
慰	-10.8433
於我所	-10.8436
持一	-10.8443
是菩薩	-10.8447
報身	-10.8448
吾為	-10.8452
樹葉	-10.8453
設當	-10.8455
河岸	-10.846
王命	-10.8462
諸眾生等	-10.8463
泡	-10.8469
後夜	-10.8474
便即	-10.8474
煩惱障	-10.8475
如師子	-10.8476
欲至	-10.8477
化作一	-10.8478
恃怙	-10.8479
法句	-10.8484
而作是念	-10.8486
將無	-10.8486
斤	-10.8492
無有能	-10.8492
戮	-10.8492
初夜	-10.8492
蒙佛	-10.8492
躡	-10.8495
虧	-10.8495
警策	-10.8497
粳米	-10.8498
鳩	-10.8499
紅	-10.8499
飡	-10.85
雞	-10.8501
額	-10.8503
酪	-10.8503
楚毒	-10.8506
怨讎	-10.8506
佛事	-10.8507
富蘭那	-10.8509
鷲	-10.8509
當爾之時	-10.851
摶	-10.851
彼諸菩薩	-10.8511
猛風	-10.8512
諂曲	-10.8513
般泥洹	-10.8514
祇陀	-10.8514
園苑	-10.8515
完具	-10.8516
分陀利	-10.8517
清徹	-10.8522
諸事	-10.8523
遠塵離垢	-10.8523
白馬	-10.8524
池沼	-10.8526
以本願故	-10.8528
經過	-10.8529
四大天王	-10.8536
難及	-10.8538
行於梵行	-10.8538
求方便	-10.8541
有七寶	-10.8541
照世間	-10.8545
有學	-10.8549
自恃	-10.855
之境	-10.855
而說此偈	-10.8552
詮	-10.8552
抱持	-10.8552
正信	-10.8553
出火	-10.8554
長子	-10.8557
於他	-10.8558
指示	-10.856
種類	-10.8561
食肉	-10.8564
業果	-10.8567
豪族	-10.8573
既能	-10.8576
彼婆羅門	-10.8577
度人	-10.8584
無敢	-10.8586
見道	-10.8588
在眾	-10.859
四輩	-10.8592
取滅度	-10.8593
自得	-10.8594
異學	-10.8595
發聲	-10.8597
八部	-10.8599
彼樹	-10.8602
何時	-10.8606
過惡	-10.8607
時波斯匿王	-10.8607
不去	-10.8609
去離	-10.8615
令心	-10.8618
夫人婇女	-10.8618
諦觀	-10.862
貪婬	-10.8624
數十	-10.8624
臣言	-10.8627
自惟	-10.8629
財利	-10.8632
供養菩薩	-10.8633
善願	-10.8633
則知	-10.8635
四法	-10.8639
過數	-10.8639
十歲	-10.864
以慈	-10.8642
多羅樹	-10.8645
品者	-10.8647
而語	-10.865
雜色	-10.8653
得名	-10.8657
盲人	-10.8662
法藏	-10.8665
所纏	-10.8673
生人中	-10.8675
於正法	-10.8679
莊嚴具	-10.868
具戒	-10.868
頭面	-10.8683
心內	-10.8684
百二十	-10.8685
當往	-10.8686
轉相	-10.8687
現在諸佛	-10.8687
苦毒	-10.8694
他化自在天	-10.8698
飲酒	-10.8698
法樂	-10.8699
受佛	-10.8699
之頃	-10.8714
知有	-10.8714
懷歡喜	-10.8718
令不	-10.8719
如是眾生	-10.8722
悅意	-10.8724
不近	-10.8724
無量菩薩	-10.8724
曾為	-10.8727
不悅	-10.8733
眾患	-10.8733
翼	-10.8735
五事	-10.8736
三十七	-10.8738
坐樹下	-10.8742
坐起	-10.8742
之地	-10.8742
陋	-10.8743
唾	-10.8744
簡	-10.8746
絡	-10.8746
慈惠	-10.8749
激	-10.875
嚕	-10.8751
祿	-10.8752
枕	-10.8752
尺	-10.8752
煎	-10.8753
縮	-10.8755
發於	-10.8756
斛	-10.8756
從今日	-10.8757
有一大	-10.8757
無乏	-10.8758
出國	-10.8759
宜速	-10.8759
大愛道	-10.876
憒	-10.8762
危脆	-10.8762
仗	-10.8762
悶	-10.8762
三千世界	-10.8763
釜	-10.8763
憂悲苦惱	-10.8763
例	-10.8763
抒	-10.8764
穌	-10.8764
使其	-10.8764
莊飾	-10.8764
生疑	-10.8764
謹	-10.8765
器仗	-10.8766
嚴峻	-10.8767
巨富	-10.8768
擾亂	-10.8768
之善	-10.8769
貿	-10.877
影像	-10.877
而出家	-10.877
昔佛在舍衛國祇樹給孤獨園	-10.8771
大悲菩薩	-10.8772
奇哉	-10.8773
應當安住阿蘭若處	-10.8774
災患	-10.8774
瞋恨	-10.8775
卷第六	-10.8776
父母兄弟	-10.8777
所生之處	-10.878
如佛所說	-10.8782
汝心	-10.8782
其夜	-10.8785
剃髮師	-10.8785
將詣	-10.8786
紹王位	-10.8787
人民熾盛	-10.8788
各以	-10.8788
甚善	-10.8791
欲樂	-10.8792
拔出	-10.8793
聰明智慧	-10.8793
光澤	-10.8794
鹿野苑中	-10.8795
無二	-10.8795
證涅槃	-10.8795
親厚	-10.8796
辟支佛乘	-10.88
左手	-10.8802
各各相	-10.8803
真是	-10.8805
寶所	-10.8805
手中	-10.8808
暗慢	-10.8808
成阿耨多羅三藐三菩提已	-10.881
故以	-10.8811
進趣	-10.8812
各隨	-10.8815
罪業	-10.8816
末香	-10.8817
得安	-10.8821
諸鳥	-10.8821
善覺	-10.8823
更不受	-10.8826
惡露	-10.8828
千里	-10.8831
大姓	-10.8832
行詣	-10.884
以七寶	-10.8841
永不	-10.8842
幾時	-10.8843
生信	-10.8848
以此因緣	-10.885
聞聲	-10.8851
反更	-10.8858
其處	-10.8859
名曰善	-10.8868
釋迦文	-10.887
真性	-10.887
無有量	-10.887
無力	-10.8871
七年	-10.8874
不好	-10.8877
一萬	-10.8885
非無	-10.8886
得善利	-10.8889
悅豫	-10.889
為緣	-10.8892
永滅	-10.8897
搏	-10.8904
鈍	-10.8906
外有	-10.8906
戒律	-10.891
寶殿	-10.8913
之王	-10.8915
諸比丘言	-10.8915
人形	-10.8917
品下	-10.8918
徵釋	-10.892
亦莫	-10.892
大魚	-10.8925
於此處	-10.8925
在其	-10.8927
不問	-10.8932
廣為	-10.8934
坐處	-10.8935
四遠	-10.8939
諸親	-10.8943
慳嫉	-10.8944
鐵圍	-10.8945
自責	-10.8947
好樂	-10.8957
生忉利天	-10.8959
現其	-10.896
我當為	-10.8962
所從來	-10.8963
汝能	-10.8966
諸有情	-10.8967
為福	-10.8967
敬信	-10.8968
明達	-10.8969
或執	-10.8973
受已	-10.8974
是諸眾生	-10.8975
停住	-10.8975
便起	-10.8978
推求	-10.8978
慼	-10.898
母言	-10.898
汝今云何	-10.8985
光從	-10.8986
應當知	-10.8987
貪嫉	-10.8987
教勅	-10.8988
本處	-10.899
信樂	-10.899
起塔	-10.8992
半身	-10.8992
中出	-10.8993
身無	-10.8994
著地	-10.8997
已離	-10.8998
駝	-10.9
能施	-10.9001
其水	-10.9003
乘船	-10.9005
阿難白佛	-10.9007
迸	-10.9008
秉	-10.9011
即報	-10.9012
得食	-10.9013
沫	-10.9013
覺了	-10.9016
霜	-10.9016
盡未來際	-10.9016
刑	-10.9017
稍	-10.9018
食飲	-10.9019
祭	-10.902
訪	-10.9022
鎮	-10.9023
嬰兒	-10.9023
鞞	-10.9023
浪	-10.9024
渠	-10.9025
擯	-10.9025
艱難	-10.9026
篤信	-10.9026
貝	-10.9027
如是諸	-10.9027
堪能	-10.9028
刀杖	-10.9029
瞋忿	-10.9031
頞	-10.9031
街巷	-10.9034
前後圍繞	-10.9034
億那由他百千	-10.9035
當受	-10.9036
願以	-10.9037
大患	-10.9037
鬪戰	-10.9038
晨朝	-10.9038
欲與	-10.9039
堪為	-10.9041
寒熱	-10.9042
帝釋天主	-10.9043
如來出世	-10.9045
優波伽	-10.9045
遙聞	-10.9046
受三歸	-10.9048
迦蘭陀	-10.9048
所學	-10.9049
權實	-10.9052
現在住世	-10.9053
願我來世	-10.9053
莊嚴佛土	-10.9055
四無所畏	-10.9057
萬德	-10.9057
等類	-10.9064
一向	-10.9065
復次善男子	-10.9066
為子	-10.9068
漸至	-10.9069
如百千日	-10.9069
汝於來世	-10.9072
名譽	-10.9075
佛已	-10.9078
恒河沙	-10.9079
此乃	-10.9081
子息	-10.9081
便能	-10.9086
叫喚	-10.9087
斷煩惱	-10.9088
億劫	-10.9091
我等輩	-10.9096
及眾	-10.9097
之師	-10.9097
何異	-10.9099
王以	-10.9099
奔馳	-10.91
諸群臣	-10.9101
立字	-10.9102
流出	-10.9104
事業	-10.9105
香風	-10.9105
處胎	-10.9106
財寶無量	-10.9106
真言	-10.9108
聚會	-10.9109
六種	-10.911
先瑞相	-10.9114
往詣彼	-10.9117
身自	-10.9119
詣佛	-10.912
自大	-10.9123
莊嚴故	-10.9124
各異	-10.9126
此世	-10.913
上品	-10.9139
四果	-10.914
經於	-10.9142
生一	-10.9144
善事	-10.9146
為何所	-10.9148
大海水	-10.9148
事理	-10.915
速往	-10.9157
異類	-10.916
著衣	-10.9162
獄卒	-10.9163
瑕	-10.9171
無有異	-10.9172
如汝	-10.9173
念處	-10.9176
以諸	-10.9178
不合	-10.9179
水上	-10.9182
相承	-10.9182
語我	-10.9189
今我身是	-10.9193
其妻	-10.9193
興起	-10.9193
有如是等	-10.9196
佛塔	-10.9202
六日	-10.9204
令諸眾生	-10.9204
不加	-10.9206
魔子	-10.9207
齎持	-10.9207
勿復	-10.9209
乞索	-10.9211
極妙	-10.9212
度彼岸	-10.9213
不避	-10.9214
畏懼	-10.9217
即詣	-10.9218
歸於	-10.9219
二十一	-10.922
用施	-10.9226
祥	-10.923
財產	-10.9231
善說	-10.9233
人物	-10.9234
如本	-10.9235
一類	-10.9236
真理	-10.9237
被服	-10.9238
受諸苦	-10.9244
如實知	-10.9245
數日	-10.9245
此象	-10.9247
以己	-10.9247
業緣	-10.9248
所攝	-10.9251
七珍	-10.9251
於佛所	-10.9258
劫盡	-10.9259
技	-10.9259
火光	-10.9262
金翅鳥	-10.9262
攝意	-10.9266
有道	-10.9269
我作	-10.927
現於	-10.9274
酬	-10.9275
屏	-10.9278
罷	-10.9279
勝彼	-10.9279
較量	-10.9279
犬	-10.928
晚	-10.928
巨海	-10.9281
崖	-10.9283
地中	-10.9283
豪	-10.9288
於時世尊	-10.9288
糜	-10.9288
後得	-10.9288
矢	-10.9288
。」【△	-10.9289
犢	-10.9289
拾	-10.929
遂至	-10.929
劒	-10.929
愆	-10.9291
未甞	-10.9291
憎嫉	-10.9292
抑	-10.9292
濡	-10.9292
懇	-10.9293
淨水	-10.9293
心已	-10.9293
吉凶	-10.9295
白大王	-10.9296
忿怒	-10.9296
乳哺	-10.9297
眾華	-10.9297
耆舊	-10.9298
三品	-10.9299
諸大	-10.9299
得於	-10.9301
為寶	-10.9301
恩德	-10.9301
螺髻	-10.9302
暇	-10.9302
貪瞋癡	-10.9303
號哭	-10.9304
藉	-10.9305
大醫王	-10.9306
初地	-10.9306
翼從	-10.9306
明智	-10.9307
尸棄	-10.9308
淨居諸天	-10.9308
見佛聞法	-10.931
熾燃	-10.9311
諸天龍神	-10.9312
有身	-10.9314
群賊	-10.9318
作禮而去	-10.9321
佛及比丘僧	-10.9321
變異	-10.9325
優鉢羅華	-10.9326
於樹下	-10.9327
賢愚	-10.9329
具陳	-10.933
我得	-10.9331
阿闍世	-10.9333
是中有佛	-10.9335
佛即為其	-10.9337
懷恐怖	-10.9338
福盡	-10.9339
來會	-10.9342
道逢	-10.9343
輕重	-10.9343
倒地	-10.9348
乳母	-10.9348
昔有一	-10.9349
天身	-10.9355
備具	-10.9357
愛戀	-10.9362
五蓋	-10.9365
各持	-10.9365
吾身	-10.9365
僧寶	-10.9367
諸善男子	-10.9368
而往	-10.9368
於是菩薩	-10.9369
往問	-10.9372
吉利	-10.9375
神識	-10.9377
上首	-10.9378
無令	-10.9384
甘果	-10.9385
所殺	-10.9389
眼識	-10.939
佛德	-10.9391
必不	-10.9392
而取	-10.9395
坐已	-10.9399
覆其上	-10.9404
成等正覺	-10.9407
一切悉	-10.9407
大龍王	-10.9409
作子	-10.941
怨賊	-10.9414
火宅	-10.9415
時辟支佛	-10.9419
多劫	-10.9421
我即	-10.9421
威勢	-10.9422
不許	-10.9423
三世如來	-10.9432
可觀	-10.9434
種種雜	-10.9448
即自思惟	-10.945
善慧	-10.9454
弘誓	-10.9459
得道迹	-10.9461
佛寶	-10.9469
摩尼寶	-10.9471
所夢	-10.9473
手持	-10.9484
此珠	-10.9485
得證	-10.9489
諸珍寶	-10.9489
利益安樂	-10.9491
喪身	-10.9492
世間一切	-10.9494
一切處	-10.9494
若知	-10.9495
下車	-10.9495
心得	-10.9498
獲報	-10.95
已還	-10.9506
所化	-10.9506
謂言	-10.9517
歡喜無量	-10.9518
諸餘	-10.9519
諸物	-10.9519
必是	-10.9519
悉見	-10.952
梵德	-10.952
一切苦	-10.9521
大寶	-10.9527
替	-10.9537
殞	-10.9549
各與若干百千眷屬俱	-10.9552
至死	-10.9553
板	-10.9553
不能令	-10.9554
諸苦惱	-10.9556
綺	-10.9559
綵	-10.9559
束	-10.9559
肝	-10.9561
太平	-10.9563
氷	-10.9564
鍊	-10.9565
身分	-10.9565
冤	-10.9566
題	-10.9567
其弟	-10.9568
常見	-10.9569
慧明	-10.957
拍	-10.9571
生一子	-10.9571
為義	-10.9573
候	-10.9575
以是義故	-10.9575
塹	-10.9575
阿耨	-10.9577
屠兒	-10.9578
試之	-10.9578
受大苦惱	-10.9578
麁	-10.9581
眾祐	-10.9581
三乘法	-10.9583
資用得	-10.9584
族姓子	-10.9585
父母恩	-10.9587
佗	-10.9588
遍滿其體	-10.9589
上至	-10.9591
受化	-10.9592
顧視	-10.9594
樂器	-10.9594
通利	-10.9595
喪失	-10.9596
上有	-10.9596
初發	-10.9598
往返	-10.9598
我應	-10.9598
受具足戒	-10.9598
不慮	-10.9599
受胎	-10.9599
七歲	-10.9599
閻浮提中	-10.9599
法合	-10.9602
婆提唎迦	-10.9607
飲之	-10.9608
而供養之	-10.9609
不知何	-10.9611
貪心	-10.9612
身色	-10.9612
諸天在於虛空	-10.9612
大道人	-10.9612
無量世中	-10.9613
昇虛空	-10.9615
願垂	-10.9616
出三界	-10.9617
頂生	-10.9617
界性	-10.9618
二十二	-10.9619
足滿十月	-10.962
有生	-10.9624
能障	-10.9627
所困	-10.9632
欲捨	-10.9641
其門	-10.9641
大國	-10.9642
復往	-10.9645
利益眾生	-10.9648
心垢	-10.9649
觀視	-10.9649
即喚	-10.9649
經中	-10.965
捨之	-10.9654
本有	-10.9655
常生	-10.9657
正為	-10.9658
諸寶	-10.9663
三明	-10.9666
語諸	-10.9668
為名	-10.9672
孝子	-10.9677
高樓	-10.9678
兩兒	-10.9681
而下	-10.9681
口言	-10.9684
餘者	-10.9686
豐饒	-10.9687
大恩	-10.9688
立誓	-10.9689
一生補處	-10.9692
鴈王	-10.9693
王聞是已	-10.9694
斷滅	-10.9695
而反	-10.9695
有何因緣	-10.9698
數百	-10.9698
有一子	-10.9701
色像	-10.9702
殺我	-10.9702
高聲	-10.9704
合成	-10.9706
如王	-10.9706
之命	-10.9713
佛名	-10.9719
實不	-10.9723
為尊	-10.9723
先所	-10.9723
小國	-10.9724
為我說	-10.9729
相似	-10.9732
過去世	-10.9733
愛重	-10.9737
諸菩薩摩訶薩	-10.9739
王答	-10.9741
汝見	-10.9745
當於爾時	-10.9745
長壽王	-10.9749
何因緣	-10.9749
是處菩薩	-10.9751
無處	-10.9752
一切人天	-10.9754
不善法	-10.9761
為己	-10.9762
殺人	-10.9763
內懷	-10.9763
乃名	-10.9766
一錢	-10.9767
不由	-10.9773
憎惡	-10.9773
河水	-10.9778
其邊	-10.9778
空處	-10.9779
自往	-10.9779
吾子	-10.9779
已滅	-10.9779
何足	-10.9784
何可	-10.9789
卷第二十	-10.9789
望得	-10.9791
犯戒	-10.9792
受苦惱	-10.9794
大風	-10.9796
夫為	-10.9799
不實	-10.9804
居止	-10.9806
溢	-10.9806
大河	-10.9808
不習	-10.981
無慢	-10.981
由其	-10.9816
來向	-10.9816
何道	-10.982
雖無	-10.9821
至無為	-10.9821
從事	-10.9822
於大眾中	-10.9823
猴	-10.9827
號釋迦牟尼	-10.983
毘羅	-10.983
無色界	-10.9836
一時佛在	-10.9837
虔	-10.9838
克	-10.9839
法本	-10.9839
法喻	-10.984
丹	-10.9841
猫	-10.9848
起大慈	-10.9848
秘密	-10.9849
勉	-10.9849
宿行	-10.985
鑒	-10.985
奄	-10.9851
禽	-10.9853
躭	-10.9853
祕	-10.9854
霧	-10.9854
又為	-10.9855
籠	-10.9855
瞿多彌	-10.9855
不淨觀	-10.9856
孤獨	-10.9857
細軟	-10.9857
肘	-10.9857
秦	-10.9858
踈	-10.986
閻	-10.9861
便往	-10.9861
應器	-10.9861
聽經	-10.9861
好醜	-10.9861
裸形	-10.9863
累劫	-10.9863
歡娛	-10.9864
耽	-10.9864
富樂	-10.9864
追逐	-10.9864
未斷	-10.9864
朋	-10.9865
已度	-10.9865
賒	-10.9865
諸惑	-10.9866
愁憂不樂	-10.9866
今悉	-10.9866
化眾生	-10.9867
!』「	-10.9868
阿脩羅	-10.9869
咄哉	-10.987
前後導從	-10.987
至尊	-10.987
出迎	-10.9872
交露	-10.9872
爾時比丘	-10.9874
大功德	-10.9875
卷第七	-10.9876
能治	-10.9877
擊鼓	-10.9879
今在何處	-10.9879
受其報	-10.988
化度	-10.9881
不受後有	-10.9881
飛騰虛空	-10.9882
復有五百	-10.9883
微塵數	-10.9883
具足聞持	-10.9884
身有	-10.9885
踊躍歡喜	-10.9885
二義	-10.9886
羣生	-10.9886
誠信	-10.9886
滅罪	-10.9886
受諸苦惱	-10.9886
佛土微塵數	-10.9887
義兼	-10.9887
百味飲食	-10.9887
阿鼻地獄	-10.989
以得	-10.9891
守門者	-10.9893
災難	-10.9893
於佛法	-10.9897
清白	-10.9897
臭處	-10.9899
諸樹	-10.9901
下劣	-10.9902
勅令	-10.9902
其師	-10.9905
釋義	-10.9907
如意珠	-10.9907
國有	-10.991
各共	-10.9914
大目揵連	-10.9915
稱歎	-10.9917
金寶	-10.9918
樂著	-10.9919
無念	-10.992
欲向	-10.992
龍神	-10.9921
如須彌	-10.9923
寶瓔珞	-10.9923
即便命終	-10.9927
隨行	-10.9928
神德	-10.9928
以正法	-10.9928
下句	-10.993
如須彌山	-10.9931
妄言	-10.9933
志性	-10.9934
無有是處	-10.9938
瓶沙王	-10.994
得果	-10.994
後園	-10.994
即於佛前	-10.9943
承佛	-10.9943
真淨	-10.9944
長者言	-10.9947
便與	-10.9947
意念	-10.9949
無作	-10.995
臣等	-10.9956
懈	-10.9957
能詮	-10.996
溺人	-10.9965
精進力	-10.9968
千葉	-10.9968
四向	-10.9969
有王	-10.9971
寶鈴	-10.9972
往白	-10.9973
佛功德	-10.9973
感應	-10.9976
墮三惡道	-10.998
設方便	-10.9983
禮足	-10.9983
塔廟	-10.9985
少許	-10.9985
奔走	-10.9991
欲意	-10.9994
欲入	-10.9994
諸佛如來	-10.9995
鹿母	-11.0001
於往昔	-11.0002
五百比丘	-11.0005
護念	-11.0005
困厄	-11.0009
觀法	-11.0013
眾生心	-11.0015
得入	-11.0015
王身	-11.0018
愛之	-11.002
寶衣	-11.002
至彼岸	-11.0022
釋迦如來	-11.0022
行菩薩行	-11.0023
向王	-11.0023
眼見	-11.0024
惑業	-11.0024
不損	-11.0027
況我	-11.0028
以求	-11.0029
便前	-11.0032
共我	-11.0038
未曾聞	-11.0044
色身	-11.0046
大德沙門	-11.0047
靜處	-11.005
為佛弟子	-11.005
死時	-11.0051
阿那含者	-11.0052
佛意	-11.0053
如其所	-11.006
能見	-11.0061
魔軍	-11.0061
取我	-11.0061
不了	-11.0062
供養恭敬	-11.0064
困苦	-11.0066
無塵	-11.0075
有恩	-11.008
白太子	-11.0082
差摩	-11.0082
尋便	-11.0084
迦維羅衛	-11.0086
四種兵	-11.0088
家居	-11.009
壽盡	-11.0091
以水	-11.0092
出時	-11.0092
二女	-11.0094
能辦	-11.0099
不逆	-11.0101
尸羅	-11.0102
八千	-11.0105
可共	-11.0107
身行	-11.0116
人壽百歲	-11.0129
行菩薩道	-11.0131
展	-11.0132
漢	-11.0132
黎庶	-11.0133
嘉	-11.0133
何福	-11.0134
啄	-11.0135
巨細	-11.0136
篋	-11.0137
態	-11.0139
效	-11.014
於其中	-11.014
犁	-11.0142
謂是	-11.0143
豪富	-11.0143
遍觀	-11.0143
苗	-11.0144
拒	-11.0144
之耳	-11.0144
夕	-11.0145
剛強	-11.0145
膏	-11.0146
山上	-11.0147
疫	-11.0148
天趣	-11.0148
駛	-11.0148
壯士	-11.0148
匿	-11.0148
質直	-11.0149
八關齋	-11.0149
姊	-11.015
挍	-11.0151
但有	-11.0151
專精	-11.0152
技術	-11.0152
瑟	-11.0152
不計	-11.0152
已辦	-11.0153
飄	-11.0153
技藝	-11.0154
當說	-11.0154
訓誨	-11.0154
隙	-11.0155
嗚	-11.0155
石蜜	-11.0155
疏	-11.0156
懷憂	-11.0157
鮮潔	-11.0158
僮僕	-11.0158
我等今	-11.0159
見思	-11.016
皮肉	-11.016
得應真	-11.016
指鬘	-11.0162
阿誐多	-11.0162
欲去	-11.0162
四無垢性	-11.0163
繒綵	-11.0163
有女	-11.0163
造惡	-11.0164
散華	-11.0164
曲躬	-11.0165
謂既	-11.0166
忽然不現	-11.0166
山川	-11.0168
七覺意	-11.0168
此喻	-11.0169
外道異學	-11.0169
未久之間	-11.0169
佛同號	-11.0169
天王釋	-11.0171
一體	-11.0173
復重	-11.0173
三世諸佛	-11.0174
嶮難	-11.0174
身力	-11.0175
所使	-11.0175
佛法僧寶	-11.0175
來求	-11.0176
持用	-11.0176
頗胝迦	-11.0181
當取	-11.0181
隨後	-11.0183
解釋	-11.0183
稱量	-11.0185
勸人	-11.0188
緣生	-11.0189
婆羅門家	-11.0189
已成	-11.0191
價直	-11.0192
不能捨離	-11.0195
遊獵	-11.0196
拔提	-11.0197
復至	-11.0198
亦隨	-11.0199
有四種	-11.0199
普賢	-11.0201
隨彼	-11.0202
許可	-11.0203
摩竭國	-11.0204
無減	-11.0204
初禪	-11.0213
隨類	-11.0215
化導	-11.0216
怨恨	-11.0218
請問	-11.0219
天上人間	-11.0223
時彼國王	-11.0225
象師	-11.0226
速起	-11.0227
戒為	-11.023
眾流	-11.023
大名稱	-11.023
致此	-11.0237
我既	-11.024
無量百千萬億	-11.0242
於我邊	-11.0243
尊者舍利弗	-11.0247
之明	-11.0247
不可說	-11.0248
尊者阿難	-11.0252
出聲	-11.0252
便取	-11.0252
欲愛	-11.0252
此樹	-11.0254
千佛	-11.0255
日光明	-11.0257
如母	-11.0257
三名	-11.0259
違失	-11.0259
貪樂	-11.0259
死亡	-11.026
四神足	-11.0262
濟眾	-11.0262
剃頭	-11.0264
彼仙人	-11.0266
好惡	-11.0267
清明	-11.0268
一人言	-11.027
執行	-11.027
解知	-11.0271
於是太子	-11.0276
二邊	-11.0279
六欲	-11.0281
後宮	-11.0283
悔恨	-11.029
日中	-11.029
如夢	-11.029
不過	-11.0291
眾惱	-11.0293
手自	-11.0293
美味	-11.0297
百千劫	-11.0307
當成阿耨多羅三藐三菩提	-11.0308
亦不可	-11.0311
諸論	-11.0312
給與	-11.0315
濟眾生	-11.0317
悲願	-11.0317
王及夫人	-11.0319
曉了	-11.0321
受食	-11.0323
可往	-11.0323
世事	-11.0329
斯陀含者	-11.0332
持與	-11.0333
種種說法	-11.0334
患難	-11.0335
能分別	-11.0342
有三種	-11.0344
以妙	-11.0353
彼比丘	-11.0356
往見	-11.0362
之寶	-11.0363
諮受	-11.0364
摩那	-11.0364
行業	-11.0365
可之	-11.0368
又此	-11.0373
以是因緣故	-11.0379
國城	-11.0383
王大歡喜	-11.0387
了無	-11.0389
又觀	-11.0391
仙聖	-11.0393
世間眾生	-11.0394
但為	-11.0394
令他	-11.0397
不但	-11.0401
法雨	-11.0408
用為	-11.041
流泉	-11.041
稱為	-11.0411
所出	-11.0412
若聞	-11.0412
若於	-11.0413
牧牛	-11.0416
何故不	-11.0416
沉	-11.0428
佛出世	-11.0431
明淨	-11.0431
姑	-11.0432
於彼處	-11.0432
娶	-11.0433
杵	-11.0435
尤	-11.0436
於一切眾生	-11.0436
庭	-11.0437
德光太子	-11.0441
皇	-11.0442
斷盡	-11.0443
式	-11.0444
大長者	-11.0448
狼	-11.045
必為	-11.045
涕淚	-11.045
宰	-11.045
慘	-11.0451
欲相	-11.0451
嚩	-11.0451
身壞命終	-11.0451
驚愕	-11.0452
唯除	-11.0452
屎	-11.0453
攀緣	-11.0454
粟	-11.0455
鼠	-11.0455
逃走	-11.0455
五欲樂	-11.0455
熾火	-11.0456
行梵行	-11.0457
俟	-11.0458
莫令	-11.0459
博戲	-11.046
苷蔗	-11.0461
瞋怒	-11.0461
諷誦	-11.0461
法說	-11.0462
律儀	-11.0463
香湯	-11.0463
皆然	-11.0463
遠行	-11.0466
毒蟲	-11.0467
僧坊	-11.0467
餓虎	-11.0467
掃灑	-11.0468
廣說如契經	-11.0469
二十四	-11.0469
分為	-11.0472
於其中間	-11.0476
捷疾	-11.0476
駒	-11.0478
焚	-11.048
世所希有	-11.048
左右圍遶	-11.0481
識宿命	-11.0481
熏修	-11.0482
為柱及以梁棟	-11.0485
為臺即	-11.0485
反覆	-11.0487
悲號	-11.0489
而我	-11.0491
諸瓔珞	-11.0491
積年	-11.0492
大恐怖	-11.0493
佛智	-11.0493
所見敬仰	-11.0495
真法	-11.0496
刀劍	-11.0497
歎譽	-11.0497
共行	-11.0498
以濟	-11.0499
謂如來	-11.0504
勿生	-11.0507
本形	-11.0508
磨滅	-11.0512
如象	-11.0513
纏裹	-11.0517
如樹	-11.0517
自修	-11.0518
對治	-11.052
高遠	-11.0525
歎德	-11.0526
聖法	-11.0526
了達	-11.053
有得須陀洹者	-11.053
雖未	-11.0531
欲斷	-11.0534
菩薩具足	-11.0534
聞佛說	-11.0537
能伏	-11.054
修十善	-11.0541
身著	-11.0542
身光	-11.0544
如師子王	-11.0545
白世尊曰	-11.0546
為甲	-11.0547
如虛空	-11.0548
加害	-11.0553
此亦	-11.0555
便問	-11.0556
此子	-11.0558
村人	-11.0558
有一女	-11.0558
頭目	-11.0558
來聽法	-11.0558
速成	-11.056
或現	-11.0563
喜歡	-11.0563
調達是	-11.0566
師長	-11.0566
天福	-11.057
百千萬	-11.0572
捨諸	-11.0573
為弟子	-11.0576
在人間	-11.058
佛恩	-11.058
最後身	-11.0582
整衣服	-11.0584
愛憎	-11.0584
徑路	-11.0585
而眠	-11.0587
還到	-11.0591
如地	-11.0595
無顛倒	-11.0598
處中	-11.0602
佛說是	-11.0604
或因	-11.0605
希有世尊	-11.0611
止宿	-11.0613
人輩	-11.0617
自觀	-11.0625
彼地	-11.0625
普施	-11.0629
用是	-11.0629
有十	-11.0629
微妙法	-11.0633
清淨心	-11.0635
有王名	-11.0639
倒見	-11.0643
何必	-11.0649
常自	-11.0652
得道者	-11.0655
無事不	-11.0656
便作是念	-11.0659
鬘論	-11.0662
諸菩薩眾	-11.0664
各與	-11.0665
一心念	-11.0667
是故當	-11.0671
莊嚴以	-11.0673
甚為難	-11.0674
莫復	-11.0675
修善行	-11.0685
獨處	-11.0686
是汝	-11.0686
那羅	-11.0688
長跪白佛	-11.0688
自受	-11.0692
志求	-11.0702
語舍利弗	-11.0703
時彼比丘	-11.0703
於夜	-11.0705
父母及	-11.0705
山間	-11.0707
孰	-11.0708
一切恐怖	-11.0712
出去	-11.0714
息意	-11.0716
莊	-11.0716
已見	-11.0717
夫妻	-11.0717
此岸	-11.0719
出言	-11.0724
白其父	-11.0725
合掌恭敬	-11.0727
本土	-11.0727
神祇	-11.073
必成	-11.0733
八方	-11.0738
稽首禮	-11.074
護口	-11.0743
諸相	-11.0744
刻	-11.0745
回	-11.0748
乃令	-11.075
甞	-11.0751
片	-11.0752
遐	-11.0753
尼拘陀樹	-11.0753
千億	-11.0754
縱橫	-11.0754
迅	-11.0754
入三昧	-11.0755
百千萬億	-11.0755
掠	-11.0756
撮	-11.0757
沃	-11.0758
荷	-11.076
膚	-11.076
種種珍寶	-11.076
疼痛	-11.0761
腦	-11.0761
瞿曇彌	-11.0762
淨飯	-11.0763
瞿夷	-11.0764
枯竭	-11.0765
瞬	-11.0766
於今日	-11.0767
無等倫	-11.0767
彈	-11.0767
汝今可	-11.0769
由延	-11.0769
揵陟	-11.077
之性	-11.0771
皺	-11.0772
千輻	-11.0772
難思議	-11.0772
某甲	-11.0772
復前行	-11.0772
含笑	-11.0773
一日一夜	-11.0773
沒溺	-11.0775
火所燒	-11.0775
鑽	-11.0776
涕唾	-11.0777
拯濟	-11.0777
天耳	-11.0778
教訓	-11.0779
為所	-11.0779
稽首作禮	-11.0779
宜可	-11.078
從坐而起	-11.078
從三昧起	-11.0784
便語	-11.0785
暴風	-11.0785
頓教	-11.0786
遺餘	-11.0786
嚴麗	-11.0787
能修	-11.0788
喜不自勝	-11.0791
病比丘	-11.0792
文字	-11.0793
依附	-11.0794
已生	-11.0794
歎佛	-11.0794
國事	-11.0796
不敬	-11.0796
以娛樂之	-11.0801
沈水	-11.0801
用心	-11.0802
淨修梵行	-11.0804
悲感	-11.0806
諸小王	-11.0806
五百羅漢	-11.0807
五百長者	-11.0807
深遠	-11.0809
是時於眾生類而	-11.081
廣博	-11.081
如是菩薩觀察	-11.081
悲喜	-11.0811
廣度眾生	-11.0812
分布	-11.0814
備足	-11.0818
醉象	-11.0819
危害	-11.082
失其	-11.0821
流轉生死	-11.0825
便還	-11.0828
其性	-11.0834
應真	-11.0837
君子	-11.0837
遍覆	-11.0837
就死	-11.084
普為	-11.084
著袈裟	-11.0842
兵將	-11.0842
文義	-11.0845
爾等	-11.0849
而哭	-11.085
設會	-11.0853
古昔	-11.0854
戀著	-11.0857
之外	-11.0861
止止	-11.0868
慧者	-11.087
水洗	-11.0874
末後	-11.0875
恒以	-11.0875
攝持	-11.0876
則得	-11.0885
行乞食	-11.0886
不遇	-11.0888
生男	-11.0895
所證之	-11.0899
以天眼	-11.09
會當	-11.0901
唯我	-11.0904
還向	-11.0912
將護	-11.0913
俱行	-11.092
專意	-11.0921
比丘眾	-11.0922
攝心	-11.0922
取一	-11.0924
敬愛	-11.0927
名德	-11.0928
乃至今者	-11.0929
諸獸	-11.0929
還本	-11.093
從何而	-11.093
沙王	-11.0933
毘婆	-11.0935
以供	-11.0941
諮問	-11.0942
不正	-11.0942
時到	-11.0943
求無上道	-11.0943
而成	-11.0954
此夢	-11.0955
入地	-11.0955
行苦行	-11.0957
剎土	-11.0962
調心	-11.0963
度諸	-11.0966
猶未	-11.0968
見人	-11.0969
瓦	-11.0973
取彼	-11.0975
猶有	-11.0979
去後	-11.0984
倍生	-11.0987
在虛空	-11.0989
已知	-11.099
等覺	-11.0996
入此	-11.0996
生歡喜心	-11.0999
無數百千	-11.1002
之水	-11.1003
侍女	-11.1007
三日	-11.101
眾妙	-11.1013
生梵天	-11.1014
在其中	-11.1018
求阿耨多羅三藐三菩提	-11.1022
轉輪	-11.1024
偈言	-11.1025
明月	-11.1028
穢污	-11.1031
今始	-11.1034
汝今諦聽	-11.1037
將非	-11.1037
三分	-11.1044
躍	-11.1044
肌	-11.1061
能壞	-11.1062
神呪	-11.1063
有一仙人	-11.1063
供養世尊	-11.1066
羹	-11.1067
詣向	-11.1067
長者婦	-11.1068
儒	-11.1068
實非	-11.1068
悲啼	-11.1069
為國王	-11.107
怠	-11.107
彼辟支佛	-11.1071
銜	-11.1071
佯	-11.1072
鶴	-11.1072
二十六	-11.1073
屐	-11.1073
耻	-11.1074
縣	-11.1075
而見	-11.1075
藕	-11.1076
即解	-11.1077
能制	-11.1078
愴然	-11.1078
轉增	-11.1079
歸依佛	-11.108
眷	-11.108
吸	-11.1081
嬰	-11.1083
徙	-11.1084
時輸檀王	-11.1084
好布施	-11.1085
刈	-11.1085
胡	-11.1085
謗毀	-11.1085
享	-11.1086
嚙	-11.1086
虬	-11.1087
婬妷	-11.1088
職	-11.1088
是名為	-11.1088
入海採寶	-11.109
淤泥	-11.109
普世	-11.109
逃避	-11.109
又聞	-11.109
喧	-11.1093
諸王臣民	-11.1094
蚊虻	-11.1095
妓樂	-11.1095
大國王	-11.1098
敗壞	-11.1098
光中	-11.1099
陰蓋	-11.1099
高聲唱言	-11.1099
兜	-11.11
房舍	-11.1101
汝但	-11.1102
願為弟子	-11.1103
服之	-11.1103
結跏趺坐	-11.1103
習氣	-11.1104
然則	-11.1106
如雨	-11.1106
迦葉言	-11.1107
和悅	-11.1107
高行	-11.1108
百千億	-11.1108
由彼	-11.1108
頻頭王	-11.1109
永息	-11.1109
受具戒	-11.1111
驚喜	-11.1112
卷第八	-11.1113
金剛座	-11.1113
沙門及婆羅門	-11.1114
伊羅鉢	-11.1116
備辦	-11.1117
嚴身	-11.1118
螺髻梵志	-11.1119
前科	-11.1119
生類	-11.1121
四智	-11.1123
晝夜當念是	-11.1124
請法	-11.1124
何等為四	-11.1124
更樂	-11.1126
缺漏	-11.1128
甘露味	-11.1128
愍哀	-11.1128
優鉢羅花	-11.1128
汝於今者	-11.1129
是為最吉祥	-11.113
損壞	-11.113
數年	-11.113
淨意	-11.1131
優波低沙波離婆闍迦	-11.1132
發誓願	-11.1133
億千	-11.1134
醫師	-11.1135
室家	-11.1135
猶如彼	-11.1137
為真	-11.1138
所有諸	-11.1139
興盛	-11.1139
增修	-11.114
照耀	-11.1141
墮餓鬼	-11.1144
獨步	-11.1146
妙理	-11.1146
光明照	-11.1146
長時	-11.1149
唯一	-11.1151
之機	-11.1154
遭遇	-11.1154
欲何所	-11.1159
自觀察	-11.1159
不被	-11.116
行作沙門	-11.1161
作是願	-11.1168
此賢劫中	-11.117
本是	-11.1171
射獵	-11.1173
發大心	-11.1178
佛告長者	-11.1179
出曜	-11.118
教導	-11.1185
八百	-11.1191
噉食	-11.1191
在胎	-11.1191
即滅	-11.1192
時彼仙人	-11.1193
昔佛在	-11.1195
顏貌端正	-11.1195
專念	-11.1198
萬億	-11.1205
至泥洹	-11.1206
在樹下	-11.1208
時彼長者	-11.1209
真常	-11.1215
將一	-11.1215
喪命	-11.122
辭退	-11.122
即能	-11.1221
時長者子	-11.1224
立精舍	-11.1226
天花	-11.1228
生隨喜	-11.1228
」「	-11.123
諸聖	-11.1234
妙衣	-11.1234
爾所	-11.1241
定力	-11.1242
如魚	-11.1242
無所不	-11.1245
即令	-11.1246
億載	-11.1247
不容	-11.125
信者	-11.1251
無慚	-11.1252
解脫門	-11.1253
吾以	-11.1255
之光	-11.1256
百由旬	-11.1258
用布施	-11.1259
為作禮	-11.126
自取	-11.1262
王仙	-11.1264
月滿	-11.1266
深宮	-11.1267
由我	-11.1271
行路	-11.1273
雖是	-11.1276
理家	-11.128
集諸	-11.1281
現今	-11.1284
虛空諸天	-11.1284
淨潔	-11.1286
金鉢	-11.1286
唯當	-11.1291
又能	-11.1294
勤精進	-11.1295
諸罪	-11.13
捨世	-11.1301
其音	-11.1301
我向	-11.1302
非我所	-11.1304
同學	-11.1306
深重	-11.1308
慧解	-11.1309
無放逸	-11.1309
意謂	-11.131
兔王	-11.1315
五千	-11.1318
羅閱祇	-11.132
或是	-11.1329
與一	-11.1332
諸善根	-11.1332
來往	-11.1335
自守	-11.1336
進道	-11.1338
住立	-11.1338
相謂言	-11.134
大得	-11.1343
調戲	-11.1343
疑怪	-11.1347
美妙	-11.1348
本空	-11.1349
惡報	-11.1353
火聚	-11.1355
後來	-11.1356
王甚	-11.1357
床上	-11.1364
善惡業	-11.1367
或云	-11.1368
今故	-11.1369
能燒	-11.1369
更增	-11.1371
應聲	-11.1375
二執	-11.1376
巖	-11.138
隋	-11.1386
千年	-11.1388
優陀	-11.1389
銀錢	-11.1389
來乞	-11.1391
亦云	-11.1392
干	-11.1393
畢已	-11.1394
澤中	-11.1397
身被	-11.1399
如鳥	-11.14
此婆羅門	-11.1403
梟	-11.1405
暑	-11.1406
陸	-11.141
世榮	-11.1411
棒	-11.1412
玉	-11.1412
淨佛土	-11.1413
無上法	-11.1413
撫	-11.1414
霹	-11.1415
果證	-11.1416
訴	-11.1416
係	-11.1416
夭	-11.1416
趺	-11.1417
〔	-11.1417
雌	-11.1418
為恐怖	-11.1418
㝹	-11.1419
如影隨形	-11.142
畢鉢羅耶	-11.142
憚	-11.1421
屎尿	-11.1421
為食	-11.1421
蠅	-11.1423
覽	-11.1423
僧祇	-11.1423
若知時	-11.1424
疎	-11.1424
佛復告	-11.1425
戈	-11.1425
姚秦涼州沙門竺佛念譯	-11.1426
統領	-11.1426
薄伽梵	-11.1426
大莊嚴論	-11.1427
儞	-11.1428
如是至三	-11.1428
唯有一子	-11.1429
詰	-11.143
精誠	-11.143
婁	-11.1431
見有一	-11.1431
麤獷	-11.1432
寶莊嚴	-11.1432
右遶三匝	-11.1432
無有厭足	-11.1433
座上	-11.1433
少欲知足	-11.1433
云何乃	-11.1433
講說	-11.1435
算數	-11.1436
大城	-11.1437
摩醯首羅	-11.1437
五盛陰	-11.1438
欲有所	-11.1438
滅盡泥洹	-11.1439
已除	-11.1439
本心	-11.1441
革屣	-11.1441
拘胝	-11.1442
來至我所	-11.1444
佐助	-11.1445
醜惡	-11.1445
毀呰	-11.1445
作觀	-11.1445
屏處	-11.1446
與大眾	-11.1446
成菩提	-11.1447
端坐思惟	-11.1449
等無差別	-11.145
施食	-11.1451
自相謂言	-11.1453
或有婇女	-11.1454
覆蔽	-11.1455
合掌向佛	-11.1456
稱揚	-11.1458
經久	-11.1458
二十三	-11.1462
亦復讚歎	-11.1464
大悲菩薩摩訶薩	-11.1464
普慈	-11.1464
摩納	-11.1465
悉當	-11.1466
以是善根	-11.1466
舉足	-11.1468
娉以為婦	-11.1469
深心	-11.147
釋種子	-11.147
汝自	-11.1471
出宮	-11.1471
深妙	-11.1471
床臥	-11.1472
緣是功德	-11.1474
幻惑	-11.1475
斷其	-11.1478
爾時長者	-11.148
棄藥	-11.148
給施	-11.1485
貧苦	-11.1488
逼切	-11.1488
然今	-11.1489
一事	-11.1492
施心	-11.1492
有娠	-11.1492
將去	-11.1493
無量阿僧祇劫	-11.1494
七十	-11.1498
為主	-11.1498
拔苦	-11.1501
五百歲	-11.1502
何因緣故	-11.1505
經戒	-11.1506
三惡	-11.1508
諸禽獸	-11.151
而便	-11.151
焉能	-11.1511
從何來	-11.1514
雖為	-11.1514
我獨	-11.1518
優陀夷言	-11.1521
阿私陀	-11.1525
心地觀	-11.1526
亦不見	-11.1526
當與汝	-11.1526
自娛	-11.153
王教	-11.153
是言	-11.1531
不善業	-11.1534
捨命	-11.1538
欲說	-11.1538
豈得	-11.1541
有一大臣	-11.1541
六親	-11.1542
容受	-11.1546
極令	-11.1548
大子	-11.1549
苦集	-11.155
少小	-11.1551
狀如	-11.1553
修羅	-11.1561
往趣	-11.1562
象龍	-11.1563
不可以	-11.1563
習於	-11.1565
送之	-11.1567
宮城	-11.1567
出於世	-11.1568
有病	-11.1568
像法	-11.1569
清淨無垢	-11.1572
王四天下	-11.1574
恒為	-11.1574
盡力	-11.1583
有好	-11.1583
無物	-11.1585
無情	-11.1592
久停	-11.1593
諸佛菩薩	-11.1594
百福	-11.1595
迴車	-11.1596
業道	-11.1602
遠去	-11.1607
其主	-11.1609
此華	-11.1612
一邊	-11.1614
天祠	-11.1615
證阿耨多羅三藐三菩提	-11.1615
開發	-11.1616
其目	-11.1617
度彼	-11.1617
本覺	-11.1619
思欲	-11.1619
妄念	-11.1621
合集	-11.1624
自滅	-11.1625
令知	-11.1629
有求	-11.1635
欲界諸天	-11.1635
牛羊	-11.1635
下方	-11.1638
證道	-11.1646
瓶沙	-11.1648
毘陀	-11.1652
相將	-11.1657
乘車	-11.1658
二經文	-11.166
未得道	-11.1663
少有	-11.1666
皆圓滿	-11.1669
中央	-11.1669
於一切法	-11.167
已死	-11.1671
財施	-11.1679
風起	-11.1685
如來所說	-11.1687
行檀波羅蜜	-11.169
然火	-11.1692
四寶	-11.1693
勝處	-11.1695
何從	-11.1698
取食	-11.1698
四魔	-11.17
娛	-11.17
可止	-11.1705
岸邊	-11.1708
仙人所	-11.1713
薩婆	-11.1714
皆同	-11.1714
歷劫	-11.1716
怖懼	-11.1717
禪思	-11.1721
寶瓶	-11.1721
出家人	-11.1722
害人	-11.1727
一宿	-11.1727
之形	-11.1728
不來	-11.1729
其舍	-11.1732
阿蘭	-11.1734
西域	-11.1735
各執	-11.1741
彼園	-11.1741
一味	-11.1742
後當	-11.1745
行處	-11.1747
兆民	-11.1748
訟	-11.175
景	-11.175
是故菩薩	-11.1751
前人	-11.1752
四邊	-11.1753
嵐	-11.1754
惻	-11.1754
殿上	-11.1755
發無上正真道意	-11.1755
懅	-11.1758
輝	-11.1758
卵	-11.1758
復令	-11.1758
親戚	-11.1759
江水	-11.1759
優波斯那	-11.176
鎖	-11.176
資糧	-11.1762
基	-11.1762
旬	-11.1762
祈	-11.1762
涸	-11.1764
於地上	-11.1764
擒	-11.1764
電光	-11.1765
革	-11.1766
清淨無瑕穢	-11.1766
海濟婆羅門	-11.1766
脇	-11.1766
娑婆	-11.1766
心地法門	-11.1767
悼	-11.1767
虛偽	-11.1768
屋宅	-11.1768
鞍	-11.1768
后妃	-11.1769
校	-11.1769
憔悴	-11.177
慰勞	-11.1771
狹	-11.1771
聞是事已	-11.1771
當須	-11.1771
怡	-11.1772
我夫	-11.1772
面貌	-11.1773
英	-11.1773
層	-11.1774
沈沒	-11.1775
良田	-11.1776
耆年	-11.1777
怛	-11.1777
割截	-11.1778
那提迦葉	-11.1778
祕藏	-11.178
萬里	-11.1781
𠷐伽波羅	-11.1781
共相謂言	-11.1782
糞掃衣	-11.1783
引發	-11.1783
諸大菩薩	-11.1783
王種	-11.1784
深坑	-11.1784
自悔責	-11.1784
血流	-11.1784
至如來所	-11.1786
般遮	-11.1786
乞士	-11.1786
威儀庠序	-11.1787
今乃	-11.1788
妙樂	-11.1789
汝曹	-11.1789
拜手	-11.1791
莊挍	-11.1792
行菩提行	-11.1792
性行	-11.1793
右邊	-11.1794
懷疑	-11.1794
畢訖	-11.1794
眾許	-11.1796
苦本	-11.1797
一切施	-11.1797
佛及僧	-11.1798
之首	-11.18
若彼天男及天女等	-11.1801
以三昧力故	-11.1801
有發無上菩提心者	-11.1801
因為立字	-11.1802
驚畏	-11.1803
如我今也	-11.1803
熟視	-11.1803
龍象	-11.1804
我母	-11.1804
消化	-11.1806
同前	-11.1807
厭離世間	-11.1807
耳鼻	-11.1807
十號具足	-11.1809
如我今者	-11.181
已捨	-11.1811
其婦懷妊	-11.1813
止寂	-11.1813
受五欲樂	-11.1813
不妄	-11.1814
端政殊妙	-11.1815
爾時海濟婆羅門	-11.1816
感動	-11.1817
河中	-11.1818
皆具	-11.1821
還詣	-11.1824
奉敬	-11.1826
遊歷	-11.1827
斷惑	-11.1829
於後時	-11.1829
於過去世	-11.183
復更重	-11.1831
善惠	-11.1836
隨應	-11.1837
佛問	-11.1843
業行	-11.1846
至王所	-11.1846
妻息	-11.1846
辭別	-11.1847
劫奪	-11.1847
各還	-11.1849
慎勿	-11.1852
稱佛	-11.1852
或復有人	-11.1854
蓮華上	-11.1856
男兒	-11.1859
奉教	-11.1864
佛說是時	-11.1864
留難	-11.1866
稱性	-11.1866
即起合掌	-11.1868
迦葉佛時	-11.1872
林樹	-11.1879
供養於佛	-11.188
三昧門	-11.1883
山野	-11.1884
相娛樂	-11.1885
雜香	-11.1892
毀戒	-11.1895
從來	-11.1897
稱之	-11.19
今來	-11.1901
先度	-11.1901
邪婬	-11.1902
方得	-11.1907
今汝	-11.1913
河邊	-11.1915
飛來	-11.1915
乃見	-11.1921
頻婆娑羅王	-11.1926
惡世	-11.1928
聖主	-11.1931
爾時尊者	-11.1933
令彼一切	-11.1934
復何	-11.1937
道理	-11.194
還本國	-11.1942
昔佛	-11.1943
聲響	-11.1944
倦	-11.1944
自護	-11.1944
巨	-11.1944
麤言	-11.1947
五樂	-11.1947
釋眾	-11.1948
二十七	-11.1951
若非	-11.1953
共同	-11.1954
象子	-11.1956
名婆	-11.1956
得佛道	-11.1959
成無上道	-11.1963
大石	-11.1964
六十四	-11.197
必獲	-11.197
王聞此語	-11.1971
勝行	-11.1973
須彌山王	-11.1973
教他	-11.1977
而以	-11.198
果樹	-11.1981
其次	-11.1981
護法	-11.1989
聲聞眾	-11.1991
白色	-11.1991
無有一人	-11.1992
勝果	-11.1994
七世	-11.1995
殿前	-11.1996
從佛聞	-11.1997
無等	-11.1997
之志	-11.1999
前云	-11.1999
族姓	-11.2007
渴乏	-11.2008
有如此	-11.2009
而共	-11.2011
愚癡故	-11.2011
年已	-11.202
遇佛	-11.2021
忉利天上	-11.2024
釋迦牟尼	-11.2029
但見	-11.2033
猶如大海	-11.2036
月明	-11.2043
愚夫	-11.2043
大莊嚴	-11.2043
迴心	-11.2046
云何能	-11.2049
求財	-11.2058
獨遊	-11.2061
還歸家	-11.2063
將軍	-11.2064
何須	-11.2068
知法	-11.2069
初出	-11.2069
正等	-11.2069
苦身	-11.2069
恭敬供養	-11.2073
設我	-11.2077
齋法	-11.2079
沒在	-11.2082
過去佛	-11.2082
定光	-11.2082
寔	-11.2083
寶藏佛	-11.2087
號名	-11.2088
欲詣	-11.2089
紺青	-11.2092
已到	-11.2098
蟒	-11.2101
僉然	-11.2102
阻	-11.2104
貞	-11.2105
比丘當知	-11.2112
虺	-11.2113
聞是已	-11.2114
哀慟	-11.2114
孝養	-11.2114
葬	-11.2115
閻浮利	-11.2116
𦟛	-11.2117
康	-11.2118
主宰	-11.2118
絞	-11.2119
欲盡	-11.212
析	-11.212
農	-11.212
翹	-11.2121
斂	-11.2124
橋梁	-11.2124
拭	-11.2124
所度	-11.2124
挾	-11.2125
惹	-11.2125
宴	-11.2125
捺	-11.2126
芬	-11.2126
毘沙門天王	-11.2127
屈伸	-11.2127
不待	-11.2127
眾人見	-11.2128
振動	-11.2128
塜間	-11.2128
湊	-11.2129
鍾	-11.2129
欻	-11.2129
漫	-11.2129
軀命	-11.213
剎帝利	-11.2132
剃鬚髮	-11.2132
欣慶	-11.2132
象馬車乘	-11.2132
搖動	-11.2135
不也	-11.2135
名香	-11.2137
澡漱	-11.2137
書寫	-11.2138
聲聞乘	-11.2138
淨飯大王	-11.2138
而說斯偈	-11.2139
根源	-11.2139
下四句	-11.2139
流水	-11.214
生善處	-11.214
姨母	-11.2141
頻頭娑羅	-11.2142
報佛恩	-11.2143
上中下	-11.2143
商客	-11.2143
從座而起	-11.2148
終不得	-11.2148
剜	-11.2148
轉輪王位	-11.215
憎愛	-11.215
如前所說	-11.2151
不如一日	-11.2151
應受	-11.2152
故不如我道真也	-11.2154
十德	-11.2155
無悔恨	-11.2156
本座	-11.2157
乏短	-11.216
退散	-11.2163
發大誓願	-11.2165
服藥	-11.2165
設諸餚饍	-11.2165
如來得成於佛道已	-11.2168
佛出現於世	-11.2169
與食	-11.2169
如牛	-11.2171
能入	-11.2171
我命	-11.2172
罪咎	-11.2173
墜墮	-11.2174
捨彼	-11.2176
那伽	-11.2176
掌中	-11.2179
九十日	-11.2181
道心	-11.2183
般若波羅蜜	-11.2185
云何為四	-11.2186
泉池	-11.2186
解脫句	-11.2186
親親	-11.219
便告	-11.2191
共居	-11.2192
斷生死	-11.2192
我於往昔	-11.2193
無貪	-11.2193
聖德	-11.2195
猶如有人	-11.2195
作聲	-11.2195
為三界	-11.2196
於理	-11.2196
至孝	-11.2197
在虛空中	-11.2198
諸人眾	-11.2199
乘此	-11.2199
或食	-11.2201
福力太子	-11.2202
大沙門邊	-11.2203
染衣	-11.2203
魔羅	-11.2207
耶那	-11.2209
孰能	-11.221
剎中	-11.2212
女身	-11.2213
無慧	-11.2213
猶如虛空	-11.2215
無勝	-11.2216
誠心	-11.2222
大火聚	-11.2223
欲聞	-11.2223
事事	-11.2227
鐵輪	-11.223
共彼	-11.2236
及至	-11.2236
正直	-11.2237
此國	-11.224
定中	-11.224
何方	-11.2241
面色	-11.2241
為禮	-11.2245
遂即	-11.2257
可喜	-11.2261
欲離	-11.2264
已過	-11.2268
染諍	-11.2268
苦空	-11.2274
所有功德	-11.2275
外人	-11.228
及諸眷屬	-11.2282
欲共	-11.2282
▁【	-11.2284
八道	-11.2288
若斷	-11.2292
威神力	-11.2292
尊勝	-11.2292
妙藥	-11.2293
群牛	-11.2293
大海中	-11.2296
怨親	-11.2297
商賈	-11.2297
要誓	-11.2298
來生此	-11.2298
敬奉	-11.2301
為天人	-11.2306
初不	-11.2311
入深山	-11.2314
識知	-11.2314
奧	-11.2316
一合	-11.2317
何以不	-11.2321
仁慈	-11.2323
安得	-11.2325
布施如是	-11.2326
生老死	-11.2328
王又	-11.2337
堅實	-11.2341
障染	-11.2342
?「	-11.2342
作何業	-11.2343
人情	-11.2344
釋迦文佛	-11.2349
從乞	-11.2349
於諸三昧	-11.235
輕躁	-11.2358
告其	-11.2359
無幾	-11.2361
內自	-11.2363
等無異	-11.2365
總言	-11.2369
饑	-11.2373
王頭	-11.2374
雜種	-11.2375
深自	-11.2378
善神	-11.2382
方計	-11.2383
強力	-11.2386
二日	-11.2391
布施持戒	-11.2392
錯亂	-11.2395
乞人	-11.2396
勿使	-11.2397
佛威神	-11.2399
真解脫	-11.2403
勸發	-11.2404
喜心	-11.2405
久長	-11.2405
復有種種	-11.2406
依彼	-11.2413
少年	-11.2414
金光	-11.2418
梵摩達	-11.2423
施戒	-11.2426
二親	-11.2427
自濟	-11.2428
來迎	-11.2428
不亦	-11.2429
四名	-11.243
不擇	-11.2431
其力	-11.2432
無穢	-11.2436
趣菩提	-11.2438
即放	-11.244
觀照	-11.2445
林樹間	-11.2447
何忍	-11.2447
踊躍無量	-11.2448
彼仙	-11.2449
戟	-11.245
取命終	-11.2455
遍身	-11.2458
頂戴	-11.2464
貿易	-11.2473
併	-11.2474
努	-11.2476
自拔	-11.2476
所住處	-11.2478
三十一	-11.2479
奚	-11.2479
摩伽陀	-11.2481
膽	-11.2482
机	-11.2483
猥	-11.2483
胞胎	-11.2485
㮈	-11.2485
橋	-11.2486
嗤笑	-11.2486
豈況	-11.2486
玻	-11.2487
奇異	-11.2488
寇	-11.2488
鑰	-11.2489
有四事	-11.249
行住坐臥	-11.249
末二句	-11.249
墨	-11.249
註	-11.2493
哽咽	-11.2494
偷盜	-11.2495
初心	-11.2495
湧	-11.2495
悚然	-11.2496
渚	-11.2496
給孤獨	-11.2496
悵然	-11.2497
是故汝等	-11.2497
機關	-11.2497
欣悅	-11.2497
如彼愚人	-11.2498
㘁	-11.2498
危厄	-11.2498
頭目髓腦	-11.2499
為諸天人	-11.2499
渡河	-11.2499
堅持	-11.25
始入	-11.25
清潔	-11.25
阿難言	-11.25
金粟	-11.2501
釋氏	-11.2502
辨	-11.2503
百千萬倍	-11.2504
眾罪	-11.2504
有一梵志	-11.2505
嫌恨	-11.2505
大如車輪	-11.2505
當詣	-11.2505
依此	-11.2506
衣被飲食	-11.2507
屋舍	-11.2507
床褥	-11.2508
慙愧	-11.2508
名之為	-11.2509
受我請	-11.2509
心驚毛竪	-11.251
梵行已立	-11.251
於五欲	-11.2512
歸伏	-11.2513
入於涅槃	-11.2514
時阿私陀	-11.2514
寶器	-11.2515
孝養父母	-11.2516
床臥具	-11.2516
牸牛	-11.2516
彈琴	-11.2517
徹照	-11.2519
緣經	-11.2522
授阿耨多羅三藐三菩提記	-11.2522
雜毒	-11.2522
上樹	-11.2522
深固	-11.2522
誰為	-11.2525
牛乳	-11.2525
不改	-11.2526
若茲	-11.2526
在家時	-11.2527
菩提道場	-11.2527
阿耨多羅三藐三菩提記	-11.2529
八正道	-11.2529
精進勇猛	-11.2532
無與等者	-11.2532
世出世間	-11.2532
以奉	-11.2532
東南	-11.2533
令住其中	-11.2534
諸天玉女	-11.2534
說四諦法	-11.2535
非身	-11.2535
勇猛精進	-11.2537
時白淨王	-11.2538
有發辟支佛	-11.254
可獲	-11.254
遷神	-11.254
治生	-11.254
樓上	-11.2541
水流	-11.2541
了解	-11.2542
露地	-11.2547
毀害	-11.2547
同處	-11.255
初頌	-11.2553
豪尊	-11.2554
降伏魔	-11.2555
首羅	-11.2555
有國名	-11.2556
不得自在	-11.2557
遂致	-11.256
無師	-11.2561
罵辱	-11.2565
惟願世尊	-11.2566
說偈曰	-11.2566
獲道果	-11.2572
所乏	-11.2572
五塵	-11.2575
利他之	-11.2578
其根	-11.2579
乾闥婆王	-11.258
於佛法中	-11.2582
復有世界名	-11.2583
永除	-11.2585
諸塵	-11.2589
從無數劫	-11.2594
金瓶	-11.2594
損害	-11.2594
願聽	-11.2595
汝昔	-11.2596
前文	-11.2599
所詮	-11.2603
困乏	-11.2605
法聲	-11.2612
舉頭	-11.2613
疑問	-11.2613
五比丘	-11.2614
響應	-11.2616
又值	-11.2616
當修	-11.2617
欲還	-11.2621
大涅槃	-11.2624
若有善男子	-11.2624
非凡	-11.2625
受記	-11.2627
不飲	-11.2629
大富長者	-11.2629
不妄語	-11.263
諸人輩	-11.2633
五十由旬	-11.2634
戒善	-11.2639
今現	-11.2641
未曾有法	-11.2641
能成	-11.2643
大用	-11.2649
苦滅	-11.2651
又無	-11.2653
三禪	-11.2656
忽見	-11.2656
貢上	-11.2657
不負	-11.2663
令發阿耨多羅三藐三菩提心	-11.2664
服食	-11.2665
令彼眾生	-11.2665
六牙	-11.2666
往佛所	-11.2668
語其	-11.2669
資生	-11.2669
十八界	-11.267
射之	-11.2672
難值	-11.2675
乃謂	-11.2678
於諸法	-11.2682
迎接	-11.2691
利生	-11.2691
待我	-11.2695
誰不	-11.2695
舍利弗是	-11.2697
五體	-11.2702
敬意	-11.2705
坐聽法	-11.2706
福慧	-11.2706
咸來	-11.271
忽然而	-11.2711
忉利天王	-11.2714
諸病	-11.2715
已畢	-11.2715
於父母	-11.2721
奉法	-11.2721
火滅	-11.2727
覺道	-11.2728
必須	-11.2728
三解脫	-11.2729
化彼	-11.273
清淨戒	-11.2731
此沙門	-11.2732
八法	-11.2737
中夜	-11.2738
法執	-11.2739
當勤	-11.274
有人來	-11.2742
眾結	-11.2745
釋種童子	-11.275
此塔	-11.275
蓮	-11.2751
稱心	-11.2757
復起	-11.2758
高山	-11.2759
欲求解脫	-11.2766
善思	-11.2769
青蓮	-11.2771
皆應	-11.2771
悉共	-11.2774
復將	-11.2775
我今應當	-11.2776
亦未	-11.2784
色界諸天	-11.2785
以此為	-11.2786
生天緣	-11.2788
正意	-11.2796
一臣	-11.2797
各相	-11.2798
樹根	-11.2806
聞偈	-11.2807
然可	-11.2812
是名菩薩	-11.2816
梵摩	-11.2817
布地	-11.2818
頭面禮	-11.2823
除斷	-11.2823
意定	-11.2829
能所	-11.283
昨	-11.2833
妙義	-11.2834
亦同	-11.2835
高廣	-11.2835
其塔	-11.2835
先當	-11.2836
持戒者	-11.2843
為一切眾生	-11.2847
方面	-11.285
聞此言	-11.285
天仙	-11.2851
聽我出家	-11.2852
尋求	-11.2853
鐵鼓	-11.2854
不能知	-11.2856
波婆梨	-11.2859
亦無所	-11.2861
窓	-11.2864
徵起	-11.2864
泯	-11.2864
萌芽	-11.2866
出門	-11.2866
膳	-11.2867
認	-11.2867
在宮	-11.2868
蚖	-11.2868
効	-11.2868
餉	-11.2872
諭	-11.2873
配	-11.2874
駄	-11.2875
一時佛遊舍衛祇樹給孤獨園	-11.2876
泥犁	-11.2876
撾	-11.2876
稽	-11.2877
佛在王舍城	-11.2879
向家	-11.2879
曬	-11.2879
乍	-11.2879
〕-【	-11.2879
叔	-11.288
腐	-11.2881
光耀	-11.2881
道法御	-11.2881
日月星辰	-11.2882
流離王	-11.2882
儉	-11.2882
疲乏	-11.2884
童男	-11.2884
梁	-11.2884
從坐起	-11.2886
兄弟二人	-11.2886
道邊	-11.2886
如彼行人	-11.2886
議言	-11.2887
釋梵四王	-11.2887
姿容	-11.2888
作瓶天子	-11.2888
泰然	-11.2888
稅	-11.2889
穀米	-11.2889
契經所說	-11.2889
沙礫	-11.2889
伎女	-11.2889
舉右手	-11.289
財富	-11.289
證明	-11.289
之謂也	-11.2892
摩休勒	-11.2892
來去	-11.2893
不可稱數	-11.2894
地獄苦	-11.2894
鳩槃茶	-11.2895
娑羅那	-11.2897
從空來	-11.2898
七匝	-11.2904
王子名為	-11.2905
二十由旬	-11.2907
流馳	-11.2908
說是言	-11.2908
閻浮利地	-11.2908
若我所願成就	-11.2909
林間	-11.2909
不可量	-11.2909
多饒	-11.2911
尊師	-11.2913
真智	-11.2917
肉眼	-11.2917
持種種	-11.2919
光明普曜	-11.292
莊嚴身	-11.2921
甚大歡喜	-11.2922
百鳥	-11.2924
受苦無量	-11.2927
生此念	-11.2927
敬仰	-11.2928
門中	-11.2933
七種	-11.2934
以大悲	-11.2936
微塵等	-11.2938
引起	-11.2939
阿鼻	-11.2939
福增	-11.294
普遍	-11.2942
一一分別	-11.2944
不殺生	-11.2945
執志	-11.2948
於今者	-11.2948
行慈	-11.2949
無缺	-11.2949
諸婇女等	-11.2951
弟言	-11.2951
。」「『	-11.2951
以神力	-11.2954
億眾生	-11.2955
高大	-11.2957
在山中	-11.2958
而歸	-11.296
踊出	-11.296
供養眾僧	-11.2963
飛空	-11.2964
無違	-11.2968
良善	-11.2968
迴施	-11.297
云何名	-11.2971
饒益眾生	-11.2971
神通力	-11.2973
驚起	-11.2974
十戒	-11.2975
照了	-11.2985
口業	-11.2986
設供養	-11.2987
欲令眾生	-11.2987
無罪	-11.2988
入胎	-11.2989
喜根	-11.299
久存	-11.2994
水精	-11.3
行如是事	-11.3003
中路	-11.3007
之德也	-11.3011
思惑	-11.3011
天降	-11.3018
二商主	-11.3018
當得阿耨多羅三藐三菩提	-11.3019
歌頌	-11.3021
此眾生類	-11.3024
惡獸	-11.3028
以天眼觀	-11.3029
舉世	-11.3032
使女	-11.3035
始得	-11.3035
即集	-11.3037
入禪	-11.3039
於三界	-11.304
釋迦牟尼佛	-11.304
功用	-11.3041
宮室	-11.3042
鈍根	-11.3043
夜分	-11.3043
善權	-11.3048
諸群生	-11.3054
凡愚	-11.3055
七分	-11.3055
終不能	-11.3056
彼業報	-11.3057
餘殃	-11.3057
形狀	-11.3058
奉戒	-11.3059
既自	-11.307
滿鉢	-11.3072
無壞	-11.3079
情欲	-11.3082
毛竪	-11.3083
所照	-11.3086
所奉	-11.3087
雷震	-11.3091
便復	-11.3092
入禪定	-11.3093
標定	-11.3093
受眾苦	-11.3096
惡風	-11.3103
遇此	-11.3119
天人所	-11.3119
以草	-11.3124
浣	-11.3125
不能動	-11.3128
出生死	-11.313
度脫眾生	-11.3135
此科	-11.3137
惡龍	-11.3138
食果	-11.3143
罪過	-11.3144
之要	-11.3147
種種供養	-11.3153
邪徑	-11.3158
所棄	-11.3159
遊於	-11.3162
隱身	-11.3167
彼諸眾生	-11.317
如卿	-11.3173
稱意	-11.3176
齋戒	-11.3176
薄福	-11.3177
端正殊妙	-11.3181
林內	-11.3184
見他	-11.3184
即我身是	-11.3188
至涅槃	-11.3188
可度	-11.3193
聖力	-11.3195
於來世	-11.32
僕使	-11.32
暫時	-11.3201
賈	-11.3201
其實	-11.3203
時淨居天	-11.3207
窮乏	-11.3208
修菩薩行	-11.3208
不知足	-11.321
示之	-11.3211
解義	-11.3214
法施	-11.3215
盡止	-11.3228
蟻	-11.3231
石上	-11.3232
存在	-11.3233
迦尸	-11.3236
火中	-11.324
條	-11.3241
是故應	-11.3242
如我所	-11.3247
容色	-11.325
無上正真	-11.3251
如大海	-11.3251
自殺	-11.3252
唯然已	-11.3253
尋復	-11.3254
方廣	-11.3255
共汝	-11.3256
汝宜	-11.3258
仰觀	-11.326
善教	-11.326
色聲香味觸	-11.3263
裝	-11.3263
女色	-11.3264
仇	-11.3265
企	-11.3267
衰耗	-11.3268
余	-11.3269
諮白	-11.327
頑	-11.3272
憤	-11.3275
欄楯	-11.3275
?』」	-11.3276
四衢	-11.3277
伯	-11.3278
壤	-11.3278
鎧甲	-11.3278
聚沫	-11.3279
茶	-11.3279
思議	-11.328
鄉	-11.3281
籌量	-11.3281
今世後世	-11.3282
如日初出	-11.3282
真偽	-11.3282
喜踊	-11.3282
屈申	-11.3283
優樓頻螺迦葉	-11.3283
為我作	-11.3284
本宮	-11.3284
萬姓	-11.3284
塚	-11.3284
街	-11.3284
皮膚	-11.3286
嘆譽	-11.3286
採華	-11.3286
和雅	-11.3287
摧折	-11.3287
投機	-11.3288
其首	-11.3288
耆婆	-11.3288
大梵	-11.3289
無央數劫	-11.329
缾	-11.329
聞此偈已	-11.329
佛知其意	-11.3292
頭面著地	-11.3292
其土	-11.3293
闊	-11.3293
聰慧	-11.3293
三千界	-11.3294
於阿耨達池	-11.3295
愁憂苦惱	-11.3295
瓦礫	-11.3295
真陀羅	-11.3295
般特	-11.3297
究竟成佛	-11.3297
下釋	-11.3297
摩尼寶珠	-11.3298
威神巍巍	-11.3298
須臾間	-11.3298
承佛威神	-11.3298
甚奇甚特	-11.3298
一念頃	-11.3298
生憂惱	-11.3298
袈裟著身	-11.3299
經無量劫	-11.33
掃除	-11.3302
於如來所	-11.3302
諸天神	-11.3303
幾許	-11.3303
我實不	-11.3304
昵	-11.3304
急疾	-11.3304
發露	-11.3305
中國	-11.3306
出妙音聲	-11.3308
迴向阿耨多羅三藐三菩提	-11.3309
根原	-11.3309
法藥	-11.3309
長跪合掌	-11.3309
僧伽	-11.331
遠布	-11.3312
驚動	-11.3312
彌樓	-11.3313
玉女寶	-11.3314
思量	-11.3316
乃往過去無量世時	-11.3318
隱沒	-11.332
路側	-11.3321
十六分	-11.3322
在王舍城迦蘭陀竹林	-11.3324
毒痛	-11.3325
竪立	-11.3327
▁○	-11.3328
白師	-11.3328
大人相	-11.3328
權智	-11.3328
二偈	-11.3333
乃應	-11.3333
及聲聞眾	-11.3334
增盛	-11.3334
進路	-11.3334
一鉢	-11.3336
迷失	-11.3336
缺減	-11.334
普濟	-11.3342
始覺	-11.3343
何業	-11.3343
羅雲	-11.3344
不盜	-11.3344
懷慚愧	-11.3345
終不為	-11.3346
自陷	-11.3347
流溢	-11.3349
作轉輪王	-11.3349
更無餘	-11.335
行菩薩道時	-11.3353
平地	-11.3353
渡水	-11.3354
奇妙	-11.3355
應先	-11.3357
汝先	-11.3358
天世人	-11.336
必死	-11.3364
懷惡	-11.3364
白骨	-11.3365
明燈	-11.3366
是故名為	-11.3378
復自思惟	-11.3379
香油	-11.3395
岸上	-11.3395
夜摩天	-11.3396
射殺	-11.3397
患苦	-11.3402
如是展轉	-11.3409
皆稱	-11.3409
分散	-11.3414
愛惜	-11.3415
異處	-11.3415
見辟支佛	-11.3417
別相	-11.3418
諸親族	-11.3419
結縛	-11.342
橫生	-11.3422
此座	-11.3422
民眾	-11.3423
便去	-11.3424
倒染	-11.3425
與諸弟子	-11.3433
傍人	-11.3441
及諸弟子	-11.3442
終不起	-11.3445
設供	-11.3446
安立	-11.345
加之	-11.3451
送食	-11.3455
告阿難言	-11.3455
求請	-11.3457
此林	-11.346
總為	-11.3465
並皆	-11.3466
得值	-11.3471
發心者	-11.3474
已曾	-11.3477
蘭若中	-11.3478
箭射	-11.3479
十指	-11.3484
自宮	-11.3486
亦不求	-11.3486
宜當	-11.349
多智	-11.3493
羅婆	-11.3496
凡聖	-11.3501
地獄眾生	-11.3501
二弟	-11.3504
種現	-11.3505
必應	-11.3505
雖處	-11.3506
有大國王	-11.351
沙門梵志	-11.351
自隨	-11.3511
詣王所	-11.3514
敵國	-11.3514
在門外	-11.352
須達長者	-11.3521
以刀	-11.3526
兄言	-11.3526
不移動	-11.3527
功能	-11.3529
眾邪	-11.354
以慈心	-11.3542
往至彼	-11.3551
所制	-11.3553
王舍	-11.3553
聾	-11.3555
大哀	-11.3556
怪之	-11.3557
理事	-11.3562
解脫道	-11.3563
忍力	-11.3586
種種飲食	-11.3588
移轉	-11.3591
教示	-11.3599
欲染	-11.3605
願莫	-11.3606
○	-11.361
舍衛城中	-11.3611
如是之人	-11.3612
成滿	-11.3614
諸仙人	-11.3616
為轉輪王	-11.3617
盛火	-11.3618
勝上	-11.3623
百里	-11.3626
火焚	-11.3628
當得成佛	-11.363
自歸佛	-11.3632
色力	-11.3635
遠聞	-11.3638
』「『	-11.3638
諸賢	-11.3643
一頭	-11.3643
懷恐懼	-11.3643
坐具	-11.3645
諸天龍	-11.3647
手指	-11.3649
拯	-11.365
阿難陀	-11.365
雖小	-11.3651
吾聞	-11.3651
宿福	-11.3652
非實	-11.3654
甚重	-11.3657
攝諸根	-11.3657
作方便	-11.3657
不可輕	-11.366
潔白	-11.3661
頌前第	-11.3663
死入地獄	-11.3664
生瞋恚	-11.3664
年少比丘	-11.3664
靖	-11.3672
番	-11.3673
人天中	-11.3673
逾	-11.3674
鵠	-11.3677
惡念	-11.3678
逐境	-11.3681
烏嚕尾螺迦葉	-11.3682
恤	-11.3682
髀	-11.3684
晦	-11.3685
本誓	-11.3685
三十七品	-11.3686
鬼魅	-11.3686
遁	-11.3687
棘	-11.3688
疲惓	-11.3689
必然	-11.3689
緣起	-11.3689
燥	-11.3689
皆依	-11.3689
我法二執	-11.3689
減少	-11.369
泛	-11.369
嬰孩	-11.369
千二百五十人俱	-11.3691
芳	-11.3691
嚮	-11.3691
費	-11.3693
畜獸	-11.3693
忖	-11.3693
墓	-11.3693
揵	-11.3694
掬	-11.3694
秤	-11.3695
羅睺	-11.3696
千輻輪	-11.3696
摩竭魚	-11.3697
疾得	-11.3697
暴虐	-11.3698
梯	-11.3698
陌	-11.3698
諸比丘尼	-11.3699
曚	-11.37
正業	-11.37
憍恣	-11.3701
怖懅	-11.3701
自說本所	-11.3701
道術	-11.3702
誕	-11.3703
尼連河	-11.3703
涕哭	-11.3703
稽首足下	-11.3703
旃陀	-11.3703
宜知是時	-11.3704
窓牖	-11.3705
一品題	-11.3705
校計	-11.3705
聞是語	-11.3706
牙齒	-11.3706
南天竺	-11.3706
背恩	-11.3707
盡形壽	-11.3707
男女大小	-11.3707
奉覲	-11.3707
釋王婆提唎迦	-11.3707
如說修行	-11.3708
鹿苑	-11.3708
跪拜	-11.3709
阿那含果	-11.3709
遷移	-11.371
頂戴奉行	-11.371
復如是念	-11.371
比豆梨	-11.3711
若不爾者	-11.3712
畫師	-11.3712
在所生處	-11.3712
須闍提	-11.3713
算計	-11.3713
勞度差	-11.3715
都盡	-11.3715
六畜	-11.3715
導引	-11.3715
七日七夜	-11.3715
僧伽梨	-11.3715
步步	-11.3716
深淵	-11.3716
以歡喜心	-11.3717
即成沙門	-11.3718
繞佛三匝	-11.3719
一種無異	-11.3719
稟性	-11.3719
修多羅	-11.3722
奪我	-11.3722
墮淚	-11.3722
娑訶世界	-11.3723
安隱處	-11.3723
百千億那由他	-11.3724
半由旬	-11.3724
棖	-11.3724
多獲義利	-11.3725
因緣力故	-11.3727
斷常	-11.3727
設使	-11.3727
阿閦	-11.3729
邊地	-11.3729
雜穢	-11.3732
夏坐	-11.3735
如我今日	-11.3735
花樹	-11.3736
瀑流煩惱	-11.3736
號毘婆尸	-11.3741
化樂天	-11.3741
空閑處	-11.3742
於當來世	-11.3742
卷下	-11.3744
出家之人	-11.3744
娶婦	-11.3745
復有無量	-11.3746
十六大國	-11.3749
黑色	-11.375
不可恃怙	-11.3752
世有佛	-11.3755
往到佛所	-11.3755
截流	-11.3755
萬六千	-11.3762
向波旬	-11.3764
修行梵行	-11.3766
月八日	-11.3768
是入一切種智行陀羅尼門	-11.3769
菩薩在胎	-11.3769
持來	-11.377
淚出	-11.3771
其最	-11.3775
客作	-11.3776
光曜	-11.3777
渴愛	-11.3779
年歲	-11.3782
林野	-11.3782
兩邊	-11.3783
青色	-11.3786
飛去	-11.3787
自誓	-11.3789
歸依法	-11.3789
且止	-11.3791
等無有異	-11.3793
滿面	-11.3793
為成佛之	-11.3795
繫著	-11.3798
閉在	-11.3798
遭值	-11.3799
不墮地獄	-11.3801
山谷	-11.3803
迦毘羅婆蘇都城	-11.3804
沒命	-11.3804
年既	-11.3805
仰天	-11.3808
共往	-11.3813
苦因	-11.3816
一切眾會	-11.3816
積財	-11.3816
惡聲	-11.382
燒然	-11.3823
其佛號	-11.3824
法炬	-11.3826
間斷	-11.3827
道力	-11.3829
步兵	-11.383
可爾	-11.3832
佛法中	-11.3832
常受快樂	-11.3833
我亦如是	-11.3834
故來相	-11.3837
妙智	-11.3849
由來	-11.3855
持齋	-11.3859
違逆	-11.3861
香熏	-11.3864
肯	-11.3866
但我	-11.3868
唱如是言	-11.3868
命終生天	-11.3877
淨眼	-11.3879
動轉	-11.388
有三十二相	-11.3882
方能	-11.3884
唯願如來	-11.3889
譯人	-11.389
體用	-11.3891
雲雨	-11.3906
骨肉	-11.3914
與大比丘	-11.3915
眾類	-11.3918
此理	-11.392
巧便	-11.392
善觀察	-11.3922
示其	-11.3931
習學	-11.3933
何時當	-11.3933
寧有	-11.3937
雖少	-11.3942
笑之	-11.3948
尚可	-11.395
自手	-11.3961
汝等今	-11.3971
之表	-11.3977
一切善法	-11.3978
善利	-11.3983
所歎	-11.3987
著五欲	-11.3989
摩訶薩	-11.3993
名摩	-11.3993
之屬	-11.4006
此神	-11.4009
坐其上	-11.4009
修持	-11.4013
木石	-11.4013
不吉	-11.4014
顛	-11.4021
治化人民	-11.4023
聖果	-11.4024
生慚愧	-11.4025
心所念	-11.4026
此是如來	-11.403
佛說經	-11.4031
龍中	-11.4039
國中人民	-11.4039
彼土	-11.4039
無有比	-11.404
分別說	-11.404
妙善	-11.4043
目視	-11.405
重恩	-11.4058
閻浮提人	-11.4059
頭面禮佛	-11.406
士女	-11.4063
生人天	-11.4066
濟拔	-11.4066
眾賈	-11.4071
博聞	-11.4071
兜術	-11.4072
須食	-11.4074
十里	-11.408
發明	-11.408
一切所有	-11.4081
增進	-11.4081
△	-11.4083
燒身	-11.4085
見已即	-11.4088
踰於	-11.4094
菴	-11.4097
當成佛	-11.4098
盡諸苦	-11.4101
格	-11.4102
殺汝	-11.4103
准	-11.4109
無量諸天	-11.4109
三衣	-11.4109
隻	-11.4112
翫	-11.4112
投地	-11.4113
賢劫中	-11.4113
外國	-11.4113
犍	-11.4115
不毀	-11.4118
滓	-11.4118
儒童	-11.412
廬	-11.412
菜	-11.412
戰慄	-11.412
徊	-11.4121
波婆伽梨	-11.4122
輦	-11.4123
佳	-11.4124
裸	-11.4124
僂	-11.4124
眉間	-11.4125
游	-11.4125
雉	-11.4125
遏	-11.4125
隆盛	-11.4125
槊	-11.4127
完	-11.4128
往看	-11.4128
白於王	-11.4129
麤澁	-11.4129
倉	-11.4131
庠序	-11.4131
姉	-11.4132
尒時	-11.4132
五百世中	-11.4132
總標	-11.4133
芻	-11.4133
就後世	-11.4133
蓐	-11.4133
人身難得	-11.4134
骨髓	-11.4134
阿耨菩提	-11.4134
退坐一面	-11.4135
釧	-11.4135
波頭摩	-11.4135
縱逸	-11.4136
無上正等菩提	-11.4136
於現法中	-11.4137
漏盡意解	-11.4137
耆域	-11.4138
病瘦醫藥	-11.4138
蟻子	-11.4138
妃后	-11.4138
肉血	-11.4138
柴	-11.4139
金剛杵	-11.4139
邦	-11.4139
甚可怖畏	-11.4139
所知障	-11.4139
稱南無佛	-11.414
迦夷	-11.414
嚴辦	-11.414
退還	-11.414
端正可喜	-11.4141
憂慮	-11.4141
澄寂	-11.4141
成立	-11.4142
攻伐	-11.4142
疾疫	-11.4143
菩	-11.4143
障蔽	-11.4143
崩壞	-11.4143
簫	-11.4144
技能	-11.4144
欝單越	-11.4145
至梵天	-11.4145
側塞	-11.4145
阿含	-11.4146
盛壯	-11.4146
老耄	-11.4147
螢火	-11.4147
初始	-11.4148
驚懼	-11.4148
昔有國王	-11.4149
諸根寂定	-11.415
去城不遠	-11.4151
洗足	-11.4152
曼陀羅華	-11.4152
作十八變	-11.4152
目不暫捨	-11.4153
寬博	-11.4153
與大比丘眾	-11.4154
無上大菩提	-11.4154
生希有心	-11.4154
願樂欲聞	-11.4154
迦蘭	-11.4154
有二萬	-11.4155
復更思惟	-11.4156
難行苦行	-11.4156
群品	-11.4158
測量	-11.4159
僕從	-11.416
充滿其中	-11.4161
波梨婆闍道人	-11.4161
大有威力	-11.4161
奪其	-11.4163
無上正真道	-11.4165
清信	-11.4165
放恣	-11.4166
於無量劫	-11.4166
自識宿命	-11.4166
爾時帝釋	-11.4168
更不造	-11.4168
稟受	-11.4169
逮菩提已	-11.4169
五欲境	-11.417
動地	-11.4171
林木	-11.4172
彼等一切	-11.4172
調適	-11.4173
亦曾	-11.4174
卷上	-11.4175
十小劫	-11.4176
即得名為	-11.4176
求索入道	-11.4177
至年十	-11.4177
說是法時	-11.4177
愚癡之人	-11.4178
自在力	-11.4179
仁賢	-11.4184
尸利	-11.4184
當為我	-11.4187
理宜	-11.4188
尚有	-11.419
積集	-11.4191
畜生中	-11.4191
一面坐	-11.4192
父母愛念	-11.4192
却坐	-11.4196
蓮華上如來	-11.4196
營從	-11.4199
白父母言	-11.4199
不墮惡趣	-11.42
德力	-11.4202
自撲	-11.4207
苦際	-11.4209
說偈讚	-11.421
無漏戒	-11.4212
善果	-11.4215
不減	-11.4219
笑耳	-11.422
極惡	-11.4224
再三	-11.4224
弘慈	-11.4227
羅剎女	-11.4228
諸比丘眾	-11.4229
廣施	-11.4229
摩訶迦葉比丘	-11.423
佛僧	-11.423
異道	-11.4232
無犯	-11.4233
大安	-11.4234
收攝	-11.4234
是故如來	-11.4236
相師占	-11.4237
應隨	-11.4239
皆歸	-11.4241
梵摩達王	-11.4243
道義	-11.4244
鐵師	-11.4245
厭世	-11.4245
深義	-11.4247
和解	-11.4247
今夜	-11.4249
三年	-11.4252
高度	-11.4258
不缺	-11.4261
棄家	-11.4264
彼大沙門	-11.4266
死苦	-11.4267
市中	-11.4268
樂無為	-11.4272
金輪王	-11.4273
於世間中	-11.4275
不自覺	-11.4276
經論	-11.4276
外學	-11.4277
寶座	-11.4279
生怖畏	-11.428
香山	-11.428
夜叉羅剎	-11.4286
問佛言	-11.4288
豈非	-11.429
能降伏	-11.4299
邊方	-11.4304
容儀	-11.4309
不復生	-11.431
邪命	-11.4315
大利益	-11.4317
或臥	-11.4319
不懼	-11.432
四月	-11.4327
惡逆	-11.4333
烏王	-11.4338
祭祀火	-11.4341
無復有	-11.4344
光色	-11.4345
大妃	-11.4345
時轉輪王	-11.435
遠方	-11.4365
眾生皆得	-11.4366
見於菩薩	-11.4379
息除	-11.4385
無差別	-11.4398
時優婆塞	-11.4399
福力王	-11.4405
其池	-11.4405
起慈心	-11.4408
諸道人	-11.4409
是佛弟子	-11.4415
自割	-11.4415
罪報	-11.4415
兒子	-11.4416
相好莊嚴	-11.4423
在何處	-11.4424
修德	-11.443
諸垢	-11.4432
甚用	-11.4438
供養諸佛	-11.4444
調柔	-11.4449
食竟	-11.4452
遙知	-11.4456
無上正真之道	-11.4456
我之所	-11.4458
令我得	-11.4461
如此事	-11.4462
為利益	-11.4465
合前	-11.4465
乘象	-11.4475
但取	-11.4478
無量功德	-11.4479
歸趣	-11.4482
於時菩薩	-11.4491
智印	-11.4493
三昧清淨	-11.4494
聞佛世尊	-11.4497
語比丘	-11.45
彼佛世尊	-11.4502
興惡	-11.4504
孰不	-11.4515
捨施	-11.4517
得涅槃	-11.4518
命過	-11.4521
五力	-11.4521
火神	-11.4525
神明	-11.4529
護意	-11.4532
無記	-11.4533
善分別	-11.4534
勸修	-11.4538
降雨	-11.4538
我生已	-11.4543
伽耶	-11.4545
墮苦	-11.4553
聞佛語	-11.4554
賢王	-11.4554
共諍	-11.456
給使	-11.4561
圓融	-11.4562
臻	-11.4563
錠	-11.4565
三女	-11.4567
昔來	-11.4567
慕魄	-11.4567
禱	-11.4568
悚	-11.4568
彊	-11.4568
讐	-11.4569
寒暑	-11.4571
仁等	-11.4572
棘刺	-11.4572
躃	-11.4572
胸臆	-11.4573
以神通	-11.4573
白父王	-11.4573
諸天人民	-11.4574
弶	-11.4576
秘	-11.4576
忻	-11.4576
寫	-11.4577
絲	-11.4577
撥	-11.4577
揮	-11.4578
械	-11.4578
幼稚	-11.4579
鉢囉	-11.4579
峻	-11.458
野干	-11.4581
排	-11.4581
軸	-11.4582
安庠而	-11.4582
凍	-11.4583
考	-11.4583
悸	-11.4584
攬	-11.4584
與大比丘眾千二百五十人俱	-11.4584
彩	-11.4585
良久	-11.4585
舋	-11.4585
給孤長者	-11.4585
昔佛在舍衛國	-11.4585
矟	-11.4586
王及臣民	-11.4586
詭	-11.4586
種種方便	-11.4586
名稱普聞	-11.4586
色聲香味細滑法	-11.4586
嬉戲	-11.4586
紺琉璃	-11.4586
摩賀曩摩	-11.4587
牒	-11.4588
紹繼	-11.4588
惰	-11.4589
婆羅門種	-11.4589
無能及者	-11.4589
良久乃穌	-11.459
表裏	-11.459
俄	-11.459
傷損	-11.4591
號泣	-11.4592
由是之故	-11.4593
須臾之間	-11.4593
推覓	-11.4594
無有智慧	-11.4594
大乘本生心地觀經淺註	-11.4594
褥	-11.4594
十八不共	-11.4594
樂遠離行	-11.4594
諸天子等	-11.4595
駛流	-11.4596
阿練	-11.4596
赫奕	-11.4596
作何方便	-11.4596
同伴	-11.4597
勤劬	-11.4598
十年	-11.4598
。」』「	-11.4599
生憐愍	-11.46
開閉	-11.4601
眠睡	-11.4602
阿耨大泉	-11.4602
達彼岸	-11.4603
吏民	-11.4603
維那	-11.4603
哆	-11.4603
到於彼岸	-11.4603
斯陀含果	-11.4604
佛及眾僧	-11.4604
人及非人	-11.4604
僧伽藍	-11.4604
波梨婆闍	-11.4605
受三自歸	-11.4605
各將	-11.4606
可憙端正	-11.4608
有七重	-11.4608
仰視	-11.4608
思慮	-11.4608
倍加	-11.4609
喪亡	-11.461
是陀羅尼門	-11.461
自今已後	-11.461
進退	-11.4611
足蹈	-11.4613
為欲所	-11.4613
平復如故	-11.4614
善法堂	-11.4615
興兵	-11.4616
聖僧	-11.4616
健夫	-11.4617
當知是人	-11.4617
可憙	-11.4617
免此	-11.4617
亦名為	-11.4617
七返	-11.4617
宿對	-11.4617
生一女	-11.4618
過一恒河沙等阿僧祇劫	-11.4619
今得值我	-11.462
如汝所說	-11.4621
送與	-11.4621
懷抱	-11.4623
八歲	-11.4625
求未來世阿耨多羅三藐三菩提	-11.4627
身口意業	-11.4627
涌出	-11.4628
二十億	-11.4628
苦切	-11.4635
池邊	-11.4635
遭值於我	-11.4635
實際	-11.4638
一枚	-11.4639
深信	-11.464
嗜欲	-11.464
金翅鳥王	-11.4643
彼塔	-11.4644
成就阿耨多羅三藐三菩提	-11.4645
無罣礙	-11.4645
閻浮樹	-11.4645
大眾圍遶	-11.4646
老病死苦	-11.4648
四聖諦	-11.4648
時彼國中	-11.465
耶輸陀善男子	-11.465
此是何人	-11.4651
獄中	-11.4652
世出世	-11.4653
無一可	-11.4655
上方	-11.4656
既知	-11.4659
佛告舍利弗	-11.4659
防護	-11.466
入般涅槃	-11.466
臣下	-11.4662
作何事	-11.4663
車輪	-11.4666
穀食	-11.4666
異常	-11.4674
得清涼	-11.4674
在佛前	-11.4676
須菩提	-11.468
賢士	-11.468
因緣經	-11.4687
為妻	-11.4688
無央數人	-11.4688
王波斯匿	-11.4689
護喜	-11.4689
競來	-11.469
怨結	-11.4697
得為王	-11.4711
國邑	-11.4714
七寶具足	-11.4714
布現	-11.4717
不飲酒	-11.4718
承前	-11.4722
清淨梵行	-11.4722
勝負	-11.4727
其功	-11.4727
國師婆羅門	-11.4728
大慈大悲	-11.4729
百頭	-11.4731
盡壽	-11.4733
無際	-11.4734
聞已即	-11.4736
遷流	-11.4738
我當云何	-11.474
聞此語	-11.475
立誓願	-11.4753
慈愛	-11.4756
智慧力	-11.4757
發願言	-11.4758
諸國土	-11.4759
我今云何	-11.476
五百賈客	-11.477
諸長者子	-11.4777
小國王	-11.4783
華葉	-11.4783
往迎	-11.4787
常存	-11.4788
依怙	-11.4791
難思	-11.4793
路由	-11.4798
罪滅	-11.4798
況當	-11.4801
迎逆	-11.4802
覺分	-11.4804
受無量苦	-11.481
所服	-11.481
榮樂	-11.4812
諸善業	-11.4817
此小兒	-11.4822
令其中	-11.4823
亦不知	-11.4824
妄生	-11.483
方知	-11.4834
至竟	-11.4837
說法教化	-11.4839
諸鹿	-11.484
目前	-11.4842
二禪	-11.4846
道化	-11.4846
家室	-11.4847
有六牙	-11.485
告勅	-11.4851
)。「『	-11.4859
正爾	-11.4866
常精進	-11.4866
太子出遊	-11.4877
喻生死	-11.488
自省	-11.4881
相稱	-11.4882
之際	-11.4886
有一國王	-11.4889
白父母	-11.4896
起瞋恚	-11.4897
太子今者	-11.4899
毒氣	-11.49
羅城	-11.4906
得休息	-11.491
樓觀	-11.491
餘命	-11.4918
去世	-11.492
自縛	-11.4921
不退轉地	-11.4921
覆面	-11.4921
染縛	-11.4927
有幾	-11.4936
能却	-11.4936
不存	-11.494
五通仙	-11.494
聞是法	-11.4952
菩提場	-11.4957
五百商人	-11.4958
行跡	-11.4958
於閻浮提	-11.4959
安然	-11.4962
無上智	-11.4964
別異	-11.4969
而讚歎	-11.4975
限量	-11.4975
議曰	-11.4988
貪利	-11.4989
明鏡	-11.4989
任運	-11.4993
授我	-11.4994
得授記	-11.4997
罣礙	-11.4997
合掌而	-11.5002
大導師	-11.5005
不傾動	-11.501
未獲	-11.5011
各別	-11.5015
理應	-11.5017
有何罪	-11.502
形色	-11.502
鳴聲	-11.5021
與諸比丘	-11.5026
空性	-11.5027
不能救	-11.5027
翁	-11.5028
慢類	-11.5033
嗟	-11.5033
檀膩䩭	-11.5037
窟中	-11.5039
楞嚴云	-11.5039
搆	-11.504
怪而問	-11.5041
率土	-11.5042
瓨	-11.5043
腸	-11.5043
辛	-11.5045
念定	-11.5045
着	-11.5046
寵	-11.5047
捷	-11.5048
遜	-11.505
瓮	-11.5051
髓腦	-11.5051
豁然	-11.5052
捕魚	-11.5052
豐足	-11.5054
朱	-11.5054
粮	-11.5055
閤	-11.5056
一其心得	-11.5056
髓	-11.5056
贈	-11.5057
𧂐	-11.5058
緒	-11.5059
来	-11.5059
障道	-11.5059
六通清徹	-11.5059
儲	-11.5059
炊	-11.506
舍夷國	-11.506
弈	-11.506
士庶	-11.5061
牟	-11.5062
尅	-11.5062
落地	-11.5062
漬	-11.5062
准前	-11.5063
鋒	-11.5063
廂	-11.5063
閻浮檀金	-11.5063
膩	-11.5065
天龍八部	-11.5065
深廣	-11.5065
澹	-11.5066
諛諂	-11.5066
清旦	-11.5066
瞑	-11.5066
𤛓	-11.5066
弦	-11.5066
閉塞	-11.5066
汲水	-11.5067
釘	-11.5067
婚	-11.5067
討	-11.5067
慎無	-11.5068
宿衛	-11.5068
旃檀	-11.5068
占夢	-11.5068
下閻浮提	-11.5068
齊整	-11.5069
悲戀	-11.5069
羂	-11.507
垂淚	-11.507
骸骨	-11.507
具以上事	-11.5071
常行乞食	-11.5071
資粮	-11.5071
峯	-11.5072
燃火	-11.5072
䭾	-11.5072
雜寶藏經	-11.5073
瓦器	-11.5073
車𤦲	-11.5074
出入息	-11.5074
普曜經	-11.5075
明月珠	-11.5075
吾身是	-11.5076
挍飾	-11.5077
山藪	-11.5078
賴耶	-11.5078
此事不然	-11.5079
身下出火	-11.5079
六年苦行	-11.508
相值	-11.508
歌詠	-11.508
險難	-11.5081
生生世世	-11.5081
世間五欲	-11.5081
最勝最妙	-11.5081
不可沮壞	-11.5081
出家菩薩住阿蘭若	-11.5082
良馬	-11.5083
各各皆	-11.5083
去佛不遠	-11.5083
得初果	-11.5084
根性	-11.5084
悲喜交集	-11.5084
鮮明	-11.5085
身毛皆竪	-11.5085
弗沙	-11.5085
号	-11.5087
師子之座	-11.5087
雲童子	-11.5087
▁一總標	-11.5088
毘婆尸佛	-11.5089
授我阿耨多羅三藐三菩提記	-11.5089
金輪寶	-11.5089
頻毘娑羅王	-11.509
長老耶輸陀	-11.509
未來之世	-11.509
分別演說	-11.5091
餘世界中	-11.5092
十號	-11.5093
遇斯光	-11.5093
音聲叢樹	-11.5094
過咎	-11.5094
次第乞食	-11.5094
如斯之	-11.5094
大有神通	-11.5095
諸如是等	-11.5095
汝等善聽	-11.5096
災害	-11.5096
浮彌	-11.5096
聞持具足	-11.5097
世世相承	-11.5097
嚴治	-11.5098
解脫知見	-11.5099
人非人等	-11.51
某處	-11.5104
摩訶羅	-11.5105
從其面門	-11.5106
運用	-11.5107
不眴	-11.5107
周訖	-11.5109
月樂無垢華	-11.511
身著袈裟	-11.5111
徒自	-11.5111
眾多比丘	-11.5112
長跪白	-11.5114
曾作	-11.5114
眠臥	-11.5115
亡失	-11.5115
終竟	-11.5115
船筏	-11.5119
不恨	-11.5122
窮厄	-11.5123
惡生王	-11.5123
賢聖道	-11.5125
膝上	-11.5126
供設	-11.5127
敬待	-11.5135
如是四法	-11.5137
離越	-11.5138
普覆	-11.514
長益	-11.5141
承事供養	-11.5141
澡洗	-11.5141
放牛	-11.5143
警眾	-11.5145
變動	-11.5145
歸命佛	-11.5146
嚴好	-11.515
天曉	-11.5151
察其	-11.5153
佛告迦葉	-11.5154
行檀	-11.5155
歸依處	-11.5156
大丈夫相	-11.5157
又復思惟	-11.5159
遍體	-11.5162
猶不能	-11.517
呼天	-11.5171
影現	-11.5171
雨淚	-11.5172
蓮花上	-11.5174
六神通	-11.5176
博學	-11.5176
却後	-11.5185
及諸大眾	-11.5189
十二緣	-11.519
多聞清淨	-11.5196
志趣	-11.5197
不忍見	-11.5197
充飽	-11.5201
財業	-11.5203
人中上	-11.5204
梵世	-11.5207
枯木	-11.5207
生是念	-11.521
佛告梵志	-11.5217
亦復不知	-11.5217
經七日	-11.5221
時梵德王	-11.5223
純以	-11.5226
加復	-11.5228
今者云何	-11.5228
生天人中	-11.5228
至彼處	-11.5229
愛護	-11.5231
出家為道	-11.5232
起立	-11.5234
智光長者	-11.5236
入無為	-11.5238
四足	-11.5238
四無畏	-11.5241
曇摩	-11.5242
三輪	-11.5243
死矣	-11.5245
總相	-11.5249
慧力	-11.525
莊嚴樹	-11.525
釋女	-11.5253
八十億	-11.5259
目覩	-11.5259
我於今日	-11.5264
此大地	-11.5264
步行	-11.5266
有五百人	-11.5268
持戒清淨	-11.527
作大利益	-11.5272
慈愍心	-11.5273
惱害	-11.5274
為諸大眾	-11.5276
龍女	-11.5276
善哉大王	-11.5281
遍十方	-11.5282
供事	-11.5285
毘沙門王	-11.5285
為轉輪聖王	-11.529
國政	-11.5291
兒婦	-11.5291
攝化	-11.5292
還所止	-11.5294
出奉迎	-11.5295
受齋	-11.5296
入泥洹	-11.53
尊重讚歎	-11.5304
一切眾生皆	-11.5308
遙見菩薩	-11.531
人民之類	-11.5314
純是	-11.5324
能了	-11.5327
是則為	-11.5341
絃	-11.5341
治病	-11.5342
諸雜	-11.5342
獲安隱	-11.5345
寧自	-11.5349
深解	-11.5363
有大力	-11.5366
得其便	-11.5371
誰應	-11.5384
於一日	-11.5386
生喜樂	-11.5388
不廢	-11.5389
是我所	-11.5392
造罪	-11.5396
猶故不	-11.5398
脫苦	-11.5399
所譽	-11.5406
臥地	-11.5409
癡冥	-11.5416
近臣	-11.5423
妙勝	-11.5426
於大海	-11.5429
志意	-11.543
外現	-11.5444
處其中	-11.5459
聖種	-11.546
無量無邊眾生	-11.5464
菩薩大士	-11.5474
嗜	-11.5487
二萬夫人	-11.5494
惡行者	-11.5495
三歸依	-11.5501
永安	-11.5504
覩世	-11.5504
現神足	-11.5506
當以何	-11.5507
復說偈	-11.5511
一童子	-11.5513
眾商	-11.5519
生何處	-11.552
大叫	-11.5522
根熟	-11.5523
如金山	-11.5526
嘗	-11.5528
接足	-11.553
一切天人	-11.5532
禮世尊足	-11.5533
焦	-11.5535
銳志	-11.5535
賃	-11.5538
奕	-11.5539
個	-11.554
幹	-11.5541
蓬	-11.5542
甕	-11.5542
怯	-11.5543
握	-11.5543
軌	-11.5544
鍾磬	-11.5546
範	-11.5546
僉曰	-11.5546
讒	-11.5546
火炎	-11.5546
研	-11.5547
𠎝	-11.5547
曳	-11.5547
比藍	-11.5548
鄰	-11.5549
出家入道	-11.5549
甥	-11.555
厭足	-11.5551
蠲除	-11.5551
飛行皇帝	-11.5552
翻譯	-11.5552
智慧光明	-11.5554
燕	-11.5554
塵埃	-11.5555
熊羆	-11.5555
催	-11.5555
烏那曳曩	-11.5556
王與夫人	-11.5557
正治	-11.5558
由斯	-11.5558
叛	-11.5558
鑊	-11.5559
如應說法	-11.5559
綠	-11.5559
孕	-11.5559
阿伽陀	-11.5559
五樂自娛	-11.556
椎	-11.5561
逕	-11.5561
祇樹給孤獨園	-11.5561
韋陀	-11.5561
端正姝好	-11.5562
輦輿	-11.5562
矚	-11.5562
孩	-11.5562
級	-11.5562
利物	-11.5563
甚深法	-11.5563
經家敘置	-11.5564
飢虛	-11.5564
優鉢	-11.5564
出興於世	-11.5565
呵梨勒	-11.5565
墮於地獄	-11.5565
澆	-11.5565
劫數	-11.5565
鷄	-11.5565
飼	-11.5565
高峻	-11.5565
不至究竟	-11.5565
民彌娑囉王	-11.5566
屈伸臂頃	-11.5566
挺特	-11.5566
涅	-11.5567
蠕動	-11.5567
招感	-11.5567
倉庫	-11.5567
四意止	-11.5568
玩	-11.5568
貯	-11.5568
九十九	-11.5569
牝	-11.5569
身心不動	-11.557
閻羅王	-11.557
青雀	-11.5571
四域	-11.5571
天地大動	-11.5571
垢膩	-11.5571
六十二見	-11.5571
凝然	-11.5571
五穀豐熟	-11.5572
瞎	-11.5572
臭爛	-11.5572
儀容	-11.5573
婆多梨	-11.5573
甚眾多	-11.5573
猛焰	-11.5573
妬嫉	-11.5574
菩提薩埵	-11.5574
䟽	-11.5575
毘耶離	-11.5575
悶絕躃地	-11.5575
睡臥	-11.5575
即得名為真實波羅蜜	-11.5575
若復有人	-11.5576
笛	-11.5576
熙怡	-11.5578
卷第九	-11.5578
被毒箭	-11.5578
散佛上	-11.5578
兩臂	-11.558
盡苦際	-11.558
上妙衣服	-11.5582
不鼓自鳴	-11.5583
羼提	-11.5585
端正無比	-11.5586
今為所在	-11.5586
縱情	-11.5586
來供養我	-11.5587
為我解說	-11.5588
大地六種震動	-11.5589
少病少惱	-11.5589
受諸快樂	-11.559
百福莊嚴	-11.559
十中劫	-11.559
野馬	-11.5591
正法滅已	-11.5591
自致成佛	-11.5593
交通	-11.5593
姓字	-11.5594
國王臣民	-11.5594
安止住於	-11.5595
口唱	-11.5596
髮爪	-11.5596
晝夜六時	-11.5597
親里	-11.5597
甚奇	-11.5598
饒益一切	-11.5599
出五色光	-11.5599
收取舍利	-11.56
希有希有	-11.56
佛即然可	-11.56
張口	-11.5601
希有之事	-11.5602
乃至如前所說	-11.5602
國大夫人	-11.5602
莊嚴自身	-11.5602
此句	-11.5602
洗鉢	-11.5608
得羅漢果	-11.5608
採果	-11.5609
應度者	-11.561
不惓	-11.5611
半月	-11.5612
殿堂	-11.5613
抱兒	-11.5613
諍競	-11.5617
各作是言	-11.5618
號曰迦葉	-11.5618
愚迷	-11.5619
原本	-11.5625
反顯	-11.5628
眾圍遶	-11.5628
蓮華世界	-11.5628
得五通	-11.5629
於後世	-11.5629
三萬二千	-11.5631
不測	-11.5635
尊長	-11.5635
在於佛前	-11.5636
田業	-11.5637
毀犯	-11.5638
除差	-11.5639
勝軍	-11.5639
諸三昧中	-11.5639
菩薩初生	-11.564
五百童子	-11.564
雜類	-11.5641
正真道	-11.5642
牛主	-11.5642
三惡趣	-11.5643
將詣佛所	-11.5643
修善法	-11.5645
即便問言	-11.565
作如是思惟	-11.5652
分那	-11.5654
來索	-11.5655
為優婆塞	-11.5656
破散	-11.5662
并餘	-11.5663
行列	-11.5665
集百	-11.5669
變悔	-11.5669
不忘失	-11.5671
彼諸王	-11.5672
輪寶	-11.5673
得陀羅尼	-11.5677
圓光	-11.5679
聽受法	-11.5685
時有長者	-11.5687
普告	-11.5701
盡無餘	-11.5703
手擎	-11.5703
盡漏	-11.5704
不失其	-11.5704
眼根	-11.5707
不染著	-11.5709
却敵	-11.5709
勅諸臣	-11.571
有大光明	-11.5711
作是觀	-11.5722
時諸大眾	-11.5726
隨路	-11.5728
攝度	-11.5731
火焚燒	-11.5732
適悅	-11.5737
巧妙	-11.5738
帝釋幢	-11.574
光光	-11.574
七寶莊嚴	-11.5743
寶稱	-11.5745
即報言	-11.5747
欲聽法	-11.5754
承上	-11.5759
巨億	-11.5761
大威力	-11.5762
猶不得阿羅漢	-11.5764
所有人民	-11.5766
』」	-11.5772
於夜半	-11.5774
成羅漢	-11.5775
福德力	-11.5776
處于	-11.5777
三界尊	-11.578
眾圍繞	-11.5781
奉命	-11.5784
離散	-11.5788
人中尊	-11.5789
邪正	-11.579
當來世	-11.5796
不墮惡道	-11.5801
遙覩	-11.5802
空虛	-11.5802
火焰	-11.5806
被袈裟	-11.5807
神聖	-11.5817
同類	-11.5817
安樂處	-11.582
不從他	-11.5822
墮惡趣	-11.5822
神通清淨	-11.5822
四顛倒	-11.5827
子孫相繼有	-11.5839
摩達	-11.5841
漏失	-11.5844
遣信	-11.5858
千萬億	-11.5865
懷恨	-11.5871
強盛	-11.5872
苦諦	-11.5879
如汝所	-11.5879
乘虛	-11.5883
倍復	-11.5883
護戒	-11.5888
得相見	-11.5897
兼復	-11.5898
寶宮	-11.5899
說是法	-11.5902
乞願	-11.5902
純金	-11.5902
無生智	-11.5909
頭頂	-11.5911
諸王子	-11.5915
欲乞	-11.5923
能救	-11.5933
根塵	-11.5935
順從	-11.5935
海邊	-11.5939
轉變	-11.5943
童子生	-11.5945
得道果	-11.5947
百萬	-11.5953
憂畏	-11.5957
最後一	-11.596
興立	-11.5962
脫衣	-11.5974
於夢中	-11.598
遭苦	-11.5989
七多羅樹	-11.5991
相率	-11.5994
種種瓔珞	-11.5994
苦果	-11.5996
入宮中	-11.5997
魔宮	-11.6001
母恩	-11.6001
欣喜	-11.6003
侍人	-11.6006
造塔	-11.6019
徐步	-11.6021
壽命無量	-11.6022
傳聞	-11.6025
惓	-11.6025
方始	-11.6032
莫過	-11.6033
從索	-11.6046
臥起	-11.6047
入于	-11.6047
准長行	-11.6051
餌	-11.6055
牟尼尊	-11.6055
至佛邊	-11.606
園監	-11.6062
鑿	-11.6064
淫	-11.6065
昏暗	-11.6066
爆	-11.6067
悒	-11.6068
透	-11.6069
兆	-11.607
庸	-11.607
灼	-11.6071
內院	-11.6071
耐	-11.6072
寸	-11.6073
爵	-11.6073
儼然	-11.6074
晡	-11.6074
躓	-11.6074
拄	-11.6075
眄	-11.6075
婚姻	-11.6075
屢	-11.6076
魂靈	-11.6076
塜	-11.6077
從座起	-11.6078
叡	-11.6079
䩭	-11.6079
合會有離	-11.6079
放逸多憂愆	-11.6079
株杌	-11.608
誼	-11.608
綿	-11.608
無常苦空	-11.608
來入城	-11.6081
叮	-11.6081
蔓	-11.6081
鹿皮衣	-11.6081
諂偽	-11.6081
踞	-11.6081
殆	-11.6082
拱	-11.6082
蹹	-11.6082
萌	-11.6082
副	-11.6083
敕	-11.6083
歿	-11.6084
九十六種	-11.6084
脾	-11.6084
局	-11.6084
豐熟	-11.6084
散華燒香	-11.6085
贍部洲	-11.6085
頒宣	-11.6086
惚	-11.6086
六反震動	-11.6086
泰山	-11.6086
不逆人意	-11.6086
四大洲	-11.6086
煑	-11.6086
亦使正法久存於世	-11.6087
盈溢	-11.6088
瞻仰尊顏	-11.6088
腫	-11.6088
心心所法	-11.6088
右臂	-11.6088
甘饌	-11.6088
扣	-11.6089
枷	-11.6089
供養之具	-11.6089
灰土	-11.609
老公	-11.609
籍	-11.609
百千無量億那由他	-11.6091
入城分衛	-11.6091
滴	-11.6091
鹽	-11.6092
侵欺	-11.6092
閱叉	-11.6092
劫初	-11.6092
淪	-11.6092
瑩	-11.6092
王及群臣	-11.6092
梳	-11.6092
節節	-11.6093
我今為汝	-11.6093
肉髻	-11.6093
良福田	-11.6093
摩訶衍	-11.6094
肢	-11.6094
炳	-11.6094
未度者	-11.6094
即遣使人	-11.6095
羞恥	-11.6095
所居之處	-11.6095
鈍弱	-11.6095
陶家	-11.6095
我不齊為	-11.6095
以法合喻	-11.6096
究暢	-11.6096
戰掉	-11.6096
陛	-11.6097
酥油	-11.6097
壇	-11.6097
婆私吒	-11.6098
夫婦二人	-11.6098
褰	-11.6099
攘	-11.6099
倍於常	-11.6099
親附	-11.6099
金翅	-11.61
夙夜	-11.61
觸嬈	-11.61
壽終之後	-11.6101
縫	-11.6102
狂象	-11.6102
示教利喜	-11.6102
豈當	-11.6102
育養	-11.6103
心悅	-11.6103
伽耶迦葉	-11.6103
功効	-11.6103
火神堂	-11.6103
娑訶佛土	-11.6103
懺謝	-11.6104
夫人處世	-11.6104
交橫	-11.6104
四部眾	-11.6104
愚闇	-11.6105
覆盆	-11.6105
江海	-11.6105
名稱遠聞	-11.6106
取要言之	-11.6106
身上出水	-11.6106
暖	-11.6106
受地獄苦	-11.6107
十二頭陀	-11.6107
顯赫	-11.6107
八萬四千諸小國王	-11.6109
轉于法輪	-11.6109
而自娛樂	-11.6109
料理	-11.611
伊羅鉢龍王	-11.6111
卑下	-11.6111
二卷	-11.6111
過七日已	-11.6113
作諸伎樂	-11.6113
四洲	-11.6113
博達	-11.6113
令彼得解	-11.6114
雨種種華	-11.6115
無所染	-11.6115
薩婆若	-11.6115
莫作異	-11.6115
發生勝義	-11.6116
甘雨	-11.6117
發是言	-11.6117
莫知所	-11.6118
解了一切陀羅尼門	-11.6118
度攝	-11.6118
飲血	-11.612
兩錢	-11.6121
知自覺者	-11.6123
請佛及比丘僧	-11.6124
恭敬圍遶	-11.6124
暫捨	-11.6125
合掌白	-11.6125
約勅	-11.6127
為供養故	-11.6127
何謂為四	-11.6129
佛本行經	-11.6129
深生信敬	-11.6129
彌勒菩薩摩訶薩	-11.6131
菴羅	-11.6132
金團	-11.6132
還從頂入	-11.6132
掃地	-11.6132
迦梨	-11.6132
幢蓋	-11.6133
微供	-11.6133
五百釋種	-11.6134
妄計	-11.6135
梵音聲	-11.6136
給足	-11.6137
紺青色	-11.6138
以十善	-11.6142
節會	-11.6143
佛說是已	-11.6143
假設	-11.6143
列名	-11.6144
所有財寶	-11.6145
境內	-11.6148
汝今若能	-11.6148
與諸眷屬	-11.6148
而取命終	-11.6149
當作佛	-11.6151
幽靜	-11.6152
弘願	-11.6154
衣服飲食	-11.6155
覆藏	-11.6159
忽爾	-11.6159
纔起心時而	-11.616
將導	-11.616
彌滿	-11.6161
貪瞋	-11.6162
何者是	-11.6162
憐愍眾生	-11.6164
汝善丈夫	-11.6164
如是等種種	-11.6165
能遮	-11.6167
遮止	-11.6168
貧女	-11.6169
最後世	-11.6172
紫	-11.6173
舍內	-11.6176
設計	-11.6176
貪利養	-11.6179
塵數	-11.6182
兩眼	-11.6185
尊者護	-11.6189
降伏一切	-11.6193
時諸商人	-11.6198
卒至	-11.62
無處不	-11.6202
恒河沙數世界	-11.6204
怨嫉	-11.6205
勤加	-11.6205
或有世界	-11.6206
)【	-11.6207
幻法	-11.6208
今者何故	-11.6211
自存活	-11.6214
起塔供養	-11.6216
明星	-11.6221
汝何以	-11.6221
智慧了知	-11.6221
日增	-11.6226
所作功德	-11.6227
慰問	-11.6231
伺其	-11.6234
有得須陀洹	-11.6236
於迦毘羅城	-11.6237
有大長者	-11.6237
該盡	-11.6239
發道心	-11.6243
煩惱海	-11.6245
堅強	-11.6248
異國	-11.6256
不休息	-11.626
能爾者	-11.6261
施辟支佛	-11.6266
昔佛在世	-11.6267
遙見太子	-11.6268
至於佛所	-11.627
諸梵行	-11.6275
倒錯	-11.6276
國位	-11.6281
本寂	-11.6293
聖尊	-11.6293
怪未曾有	-11.6293
血出	-11.6293
是其光	-11.6294
輕便	-11.6297
財色	-11.6298
雨七寶	-11.6301
於城外	-11.6301
報怨	-11.6306
而得自在	-11.6308
生埋	-11.6312
浣衣	-11.6312
過踰	-11.6312
未熟	-11.6312
龍宮	-11.6313
所未聞	-11.6314
經文	-11.6315
最為勝	-11.6325
年耆	-11.634
波斯匿	-11.6342
苦逼	-11.6345
憶昔	-11.6356
競共	-11.6356
心不亂	-11.6363
充盈	-11.6368
魔女	-11.6369
首陀	-11.6373
持淨戒	-11.6376
遠涉	-11.6379
諸惡趣	-11.6386
悲痛	-11.6391
惑亂	-11.6391
馳奔	-11.6395
愛別離苦	-11.6395
白㲲	-11.6396
騰空	-11.6403
安寧	-11.6405
捨此身	-11.6423
佛在舍衛國	-11.6439
還天上	-11.6443
不退轉阿耨多羅三藐三菩提	-11.645
曹	-11.645
弊衣	-11.6451
作如是語	-11.6455
第四禪	-11.6461
皆屬	-11.6463
淨飯王宮	-11.6475
久居	-11.6479
有一天子	-11.648
說諸法	-11.6482
廣設	-11.6482
正值	-11.6482
覆護	-11.6486
永寂	-11.6487
捨王位	-11.6489
我今當往	-11.6491
逢見	-11.6499
願為我說	-11.6503
託生	-11.6514
瓔珞其身	-11.6514
其狀	-11.6519
一歲	-11.6524
至其所	-11.6526
知我心	-11.6527
無人能	-11.6529
不及一	-11.653
美音	-11.6537
香象	-11.6541
萬劫	-11.6544
病患	-11.6552
天人尊	-11.6558
千二百五十	-11.6572
慈孝	-11.6572
十二億	-11.6581
瓔	-11.6582
捨壽	-11.6584
解悟	-11.6586
能作如是	-11.6594
第九	-11.6594
頓然	-11.6597
若其不	-11.6598
盛年	-11.6602
悲導	-11.6611
以清淨心	-11.6615
鶖鷺子	-11.6618
祚	-11.6622
襲	-11.6622
彫	-11.6624
地水火風	-11.6625
於中路	-11.6626
艸	-11.6626
朝夕	-11.6628
轂	-11.6629
叱	-11.663
初總標	-11.663
䩕	-11.663
淚下	-11.6631
賦	-11.6631
優填	-11.6631
歸命三尊	-11.6631
筆	-11.6631
虐	-11.6632
鉀	-11.6633
哽噎	-11.6633
庠	-11.6634
綱	-11.6634
諦視	-11.6635
隨業受報	-11.6635
銳	-11.6636
飢寒	-11.6636
哮吼	-11.6636
鋸	-11.6637
善男下結	-11.6637
僻	-11.6637
子曹	-11.6637
花葉	-11.6638
時老比丘	-11.6638
携	-11.6638
𤦲	-11.6638
勇力	-11.6638
咨嗟	-11.6638
躁	-11.6638
毱	-11.6639
駃	-11.6639
裁	-11.6639
雲霧	-11.664
標數舉類	-11.664
迦栴延	-11.664
伎藝	-11.664
蹄	-11.6641
毘首羯磨	-11.6641
錯謬	-11.6641
禦	-11.6641
厲	-11.6642
惛	-11.6642
魂神	-11.6642
怡悅	-11.6642
二次第列名	-11.6642
腋下	-11.6642
妊	-11.6643
深邃	-11.6643
姉妹	-11.6643
貪恚癡	-11.6643
典籍	-11.6644
鐵丸	-11.6644
卷第三十	-11.6644
罔	-11.6644
鉾	-11.6644
危嶮	-11.6644
野獸	-11.6645
矛	-11.6645
乾竭	-11.6645
翠	-11.6645
所以爾者	-11.6645
為聽法故	-11.6646
從今已後	-11.6646
詠	-11.6646
哀哉	-11.6646
曀	-11.6646
彈指	-11.6646
亭	-11.6647
目真隣陀	-11.6647
轉妙法輪	-11.6647
乏少	-11.6647
曝	-11.6647
倮形	-11.6647
呻吟	-11.6648
歡喜踊躍不能自勝	-11.6648
喚呼	-11.6649
恬	-11.6649
牆壁	-11.6649
不復退轉	-11.665
根莖	-11.665
纏綿	-11.665
阿群	-11.665
囑累	-11.665
轉於法輪	-11.6651
俯仰	-11.6651
阿若憍陳如	-11.6651
無常苦空無我	-11.6652
蓊欝	-11.6652
四無量心	-11.6653
慈育	-11.6653
羅閱城	-11.6653
四維上下	-11.6653
徐徐	-11.6654
修清淨行	-11.6654
灑掃	-11.6655
愚者所	-11.6655
佛說偈已	-11.6655
哭泣	-11.6656
無生法忍	-11.6656
臂頃	-11.6657
污泥	-11.6658
相去不遠	-11.6658
墜落	-11.6659
大乘本生心地觀經	-11.6659
冤家	-11.666
是謂為梵志	-11.666
不但今日	-11.666
貢獻	-11.6661
甘饍	-11.6662
慘然	-11.6663
醒悟	-11.6663
飢渴所逼	-11.6663
文句	-11.6664
須曼那	-11.6664
證得阿耨多羅三藐三菩提	-11.6665
剎利種	-11.6665
床榻	-11.6665
毘舍遮	-11.6666
銀色女	-11.6667
逼近	-11.6667
圍遶三匝	-11.6667
城邑聚落	-11.6668
制伏	-11.6668
阿羅邏仙人	-11.6668
滋蔓	-11.6669
王舍大城	-11.6669
渡海	-11.6669
君臣	-11.667
集不善根	-11.667
作是誓已	-11.667
疋	-11.667
品類	-11.6671
生大苦惱	-11.6671
仰瞻	-11.6672
利群生	-11.6672
初生之時	-11.6673
證羅漢果	-11.6674
終亡	-11.6674
街衢	-11.6674
令其佛土	-11.6675
障閡	-11.6675
轉於無上法輪	-11.6676
足跡	-11.6676
船舶	-11.6677
優波低沙	-11.6677
所住之處	-11.6678
鹿皮	-11.6679
為眾說法	-11.668
慈哀憐愍	-11.6681
阿濕波踰祇多	-11.6681
受持五戒	-11.6682
斷諸結使	-11.6682
無量無邊阿僧祇劫	-11.6683
四真諦	-11.6684
乃往過去九十一劫	-11.6685
本際	-11.6685
高一由旬	-11.6685
并比丘僧	-11.6686
門徒	-11.6686
大方便佛報恩	-11.6687
時王聞已	-11.6687
起大悲心	-11.6689
比丘勝彼此	-11.6691
何等名為	-11.6692
得作佛	-11.6693
指授	-11.6693
次第而行	-11.6697
田主	-11.6697
五百由旬	-11.67
所重者	-11.67
調伏諸根	-11.6701
調馬	-11.6705
禮拜供養	-11.6705
」【	-11.6708
守門人	-11.6709
扶持	-11.6709
究竟涅槃	-11.6709
到已即	-11.6711
染障	-11.6716
神足變化	-11.6716
慈恩	-11.6718
三界之中	-11.672
於世尊所	-11.6725
惟願如來	-11.6726
歎息	-11.6726
鉢器	-11.6726
無缺漏	-11.6727
仙道	-11.6729
是故汝今	-11.673
即以神力	-11.6732
猶恐	-11.6733
供奉	-11.6733
佛土莊嚴	-11.6733
久久	-11.6735
末世	-11.6738
至其家	-11.6739
敷具	-11.6739
未審	-11.6744
慕樂	-11.6745
何者為	-11.6745
復以種種	-11.6748
】*	-11.675
真金色	-11.675
戴天冠	-11.6753
阿難問佛	-11.6753
不妄有	-11.6753
此翻	-11.6756
光明照耀	-11.6758
散壞	-11.676
可保	-11.6762
出遊觀	-11.677
園內	-11.6774
助道	-11.6775
金沙	-11.6775
皆同一	-11.6777
如此之人	-11.6777
能令眾生	-11.6782
為我說法	-11.6783
仁愛	-11.6785
備悉	-11.6788
淨居天子	-11.6788
淨無垢	-11.6793
有心疑	-11.6797
造惡業	-11.6798
如恒沙	-11.6799
如來尊重	-11.681
於一切處	-11.682
真濟	-11.6821
貧家	-11.6825
寶臺	-11.6827
盡諸漏	-11.6841
有大恩	-11.6844
癡暗	-11.6854
與我共	-11.6854
惡罵	-11.6857
貧困	-11.686
滋長	-11.6869
何所作	-11.6872
義味	-11.6881
求出世	-11.6881
於無上道	-11.6883
逼惱	-11.6885
有多種	-11.6893
我於此處	-11.6893
無倦	-11.6896
入惡道	-11.6896
奪取	-11.6907
坐於樹下	-11.6909
那婆	-11.6913
乃可得	-11.6914
受大苦	-11.6915
羅剎鬼	-11.6919
諸佛國土	-11.6922
恩愛別離	-11.6929
飛騰	-11.693
有一大國	-11.6933
暴惡	-11.6935
出城門	-11.6948
以用供養	-11.6952
所居處	-11.6953
滿虛空中	-11.6957
諸婦女	-11.6958
長老阿難	-11.6966
不能免	-11.6972
是故當知	-11.699
在家出家	-11.699
度量	-11.6992
出胎	-11.6992
華蓋	-11.6998
成佛號	-11.7007
諸塵垢	-11.701
足指	-11.7022
詣宮門	-11.7027
嚴整	-11.7033
各齎	-11.704
情深	-11.704
實不虛	-11.705
到其所	-11.7078
是一切智	-11.7111
畏死	-11.7112
安隱快樂	-11.7113
象牙	-11.7116
作諸功德	-11.712
摩伽	-11.7122
守門	-11.7123
栽	-11.7123
無過於	-11.7124
愍其	-11.714
告諸大眾	-11.7141
象護	-11.7171
唼食	-11.7174
恭敬尊重	-11.7191
越祇國	-11.7194
泰	-11.7202
偈頌	-11.7203
又觀自身	-11.7205
遣人往	-11.7209
胡麻	-11.7209
犇	-11.7209
拷	-11.7209
楞嚴	-11.721
贖	-11.7211
訛	-11.7212
佞	-11.7212
傭	-11.7212
於最後王復生一	-11.7213
穿珠師	-11.7214
欄	-11.7214
如上說	-11.7216
除饉	-11.7216
釋童子	-11.7217
讎	-11.7217
迭	-11.7218
株	-11.7219
沉淪	-11.722
滋茂	-11.722
黎	-11.722
之別稱	-11.7221
堆	-11.7221
受享法樂	-11.7221
庫	-11.7221
薩埵	-11.7222
財富無數	-11.7223
苗稼	-11.7224
復經數日	-11.7224
兵仗	-11.7224
影響	-11.7224
雷電霹靂	-11.7224
聟	-11.7225
殞命	-11.7225
僚	-11.7225
忿恨	-11.7226
殄	-11.7226
跳踉	-11.7227
繼嗣	-11.7227
兩肩	-11.7228
怱怱	-11.7228
褐	-11.7228
慙	-11.7228
雷電	-11.7228
㵎	-11.7228
慳惜	-11.7229
珍琦	-11.7229
旃	-11.7229
辰	-11.7229
觝	-11.723
唧	-11.723
勸勉	-11.723
姝好	-11.723
蹈地	-11.723
包	-11.7231
摩拏嚩迦	-11.7231
容顏	-11.7231
爾時世尊以天眼觀	-11.7232
厩	-11.7232
慜	-11.7232
澡罐	-11.7233
慈氏	-11.7233
魁	-11.7234
撾打	-11.7234
馱	-11.7234
無所恃怙	-11.7234
佛說是義足經	-11.7234
舉兩手	-11.7235
洟	-11.7235
轉無上法輪	-11.7235
調良	-11.7235
手自斟酌	-11.7235
敏	-11.7236
淡	-11.7236
慠	-11.7236
無數億劫	-11.7236
姝	-11.7236
五熱炙身	-11.7237
錫	-11.7237
疲厭	-11.7237
身出水火	-11.7237
嗅	-11.7237
柔順	-11.7237
怕	-11.7237
諸比丘僧	-11.7238
寶床	-11.7238
不生不滅	-11.7238
笞	-11.7238
坐一樹下	-11.7238
須臾之頃	-11.7238
心之所念	-11.7238
還精舍	-11.7238
麤細	-11.7239
蔭涼	-11.7239
割肉	-11.7239
摸	-11.7239
宣揚	-11.724
苗裔	-11.724
懈惓	-11.724
本起經	-11.724
蚊	-11.724
四天大王	-11.7241
慶賀	-11.7241
十億	-11.7242
青黃赤白	-11.7242
憘	-11.7243
俱梨迦長者	-11.7243
心懷踊躍	-11.7243
懸繒幡蓋	-11.7243
兜率陀天	-11.7244
宗仰	-11.7245
里巷	-11.7245
禰舞迦	-11.7245
一四句偈	-11.7246
撿挍	-11.7246
俗諦	-11.7246
翫習	-11.7246
供養如來及比丘僧	-11.7246
從今已去	-11.7247
阿迦膩吒	-11.7247
提頭賴吒	-11.7247
無救護者	-11.7247
燒炙	-11.7247
鬚髮自墮	-11.7247
澄靜	-11.7248
燃燈	-11.7248
走獸	-11.7248
非想非非想	-11.7248
藍弗	-11.7248
讚嘆	-11.7249
拔刀	-11.7249
擔負	-11.7249
塗香末香	-11.7249
賢聖八品道	-11.725
垂愍	-11.725
紫磨金	-11.725
發歡喜心	-11.725
飢困	-11.7251
曼陀羅花	-11.7252
然既云	-11.7252
羅列	-11.7252
阿迦尼吒	-11.7252
憍曇彌	-11.7253
顏容	-11.7253
微薄	-11.7254
困篤	-11.7254
半偈	-11.7254
五百金錢	-11.7255
骨節	-11.7255
是汝師	-11.7255
除鬚髮	-11.7255
指環	-11.7255
優波低沙童子	-11.7256
間錯	-11.7256
坐金剛座	-11.7256
乃至菩提際	-11.7256
積累	-11.7256
追悔	-11.7257
拘留孫	-11.7257
多億那由他百千	-11.7257
弘廣	-11.7257
普光如來	-11.7258
說此語已	-11.7258
變怪	-11.7258
諸餓鬼	-11.7258
合為一	-11.726
與其眷屬	-11.726
恭奉	-11.726
娑訶佛剎	-11.7261
日暮	-11.7261
侵害	-11.7262
拘離多	-11.7263
如汝所願	-11.7263
華敷	-11.7263
在菩薩前	-11.7263
大赦	-11.7264
妻子眷屬	-11.7264
逆順	-11.7264
破薪	-11.7268
如來滅後	-11.7269
大目犍連	-11.7269
娑毘耶波梨婆闍	-11.7271
第二禪	-11.7271
在空中	-11.7271
經十二年	-11.7272
泣淚	-11.7272
和順	-11.7273
而以供養	-11.7273
恭敬禮拜	-11.7274
乃至般若波羅蜜	-11.7274
甘露藥	-11.7275
寂志	-11.7275
超異	-11.7277
超絕	-11.7277
▁「『	-11.7277
身體柔軟	-11.7278
北沒	-11.7278
地獄畜生餓鬼	-11.728
閉門	-11.728
。』」《	-11.728
如汝所言	-11.7282
大科	-11.7283
銷滅	-11.7284
甚深微妙	-11.7284
四十九	-11.7284
難保	-11.7284
黃門	-11.7285
使我來世	-11.7286
兵馬	-11.7288
於賢劫中	-11.7288
師子遊戲	-11.7288
於王前	-11.7288
佛以神力	-11.7294
去之後	-11.7294
族望	-11.7297
光影	-11.7297
終不可得	-11.7298
當於彼時	-11.7298
調達是也	-11.73
凶惡	-11.7301
早起	-11.7303
無量阿僧祇眾生	-11.7303
幢如來	-11.7307
持戒之人	-11.7308
牛馬	-11.7309
分別諸法	-11.7311
露現	-11.7311
牧牛人	-11.7311
擲著	-11.7313
壽百歲	-11.7313
疾患	-11.7313
我今此身	-11.7313
擲置	-11.7317
年始	-11.7317
平滿	-11.7318
釋師子	-11.732
汝今當知	-11.7321
未來世中	-11.7323
所得功德	-11.7323
文陀	-11.7324
即遣人	-11.7328
清淨教誨	-11.7328
憶持	-11.7331
尼連禪河	-11.7333
求聲聞乘	-11.7337
諸根具足	-11.7339
然燈如來	-11.7347
高顯	-11.7347
泉源	-11.735
大哭	-11.735
顛狂	-11.7351
器物	-11.7352
被燒	-11.7354
假使有人	-11.7355
石窟	-11.7357
七步	-11.7361
遊化	-11.7362
和同	-11.7362
蓋覆	-11.7366
安徐	-11.7369
要須	-11.7369
安和	-11.7369
舉體	-11.737
饑渴	-11.7371
彼頂生王	-11.7371
即答之	-11.7378
檀那	-11.7378
仙士	-11.7378
億萬	-11.739
非機	-11.7391
所從生	-11.7392
奴僕	-11.7392
雙足	-11.7395
無瑕	-11.7416
成辟支佛	-11.7419
諦聽諦聽	-11.7421
黑雲	-11.7423
說是偈	-11.7424
恭敬親近	-11.7426
作如是事	-11.7426
來至於此	-11.7428
忿恚	-11.7429
歸依僧	-11.7429
利益一切眾生	-11.7446
借問	-11.7456
手捉	-11.7469
生惡念	-11.7476
土石	-11.7481
持律	-11.7482
豈復	-11.7491
是故應當	-11.7494
絃歌	-11.7503
十八億	-11.7517
深奧	-11.7518
受苦樂	-11.7541
復有無量百千	-11.756
幻夢	-11.7583
二偈頌	-11.7584
日天子	-11.7587
相傳	-11.7594
吾當為汝	-11.7594
城內外	-11.76
墮畜生	-11.7607
復有無量無邊	-11.7614
一生補處菩薩	-11.7622
婆羅門聞是語已	-11.7637
窮困	-11.7642
佛在世時	-11.7647
持五戒	-11.767
得天眼	-11.7675
汝今不應	-11.7679
諸賈客	-11.768
能覺知	-11.7681
欲試	-11.7685
叢樹	-11.7706
手掌	-11.7713
八萬四千波羅蜜	-11.7722
人非人	-11.7722
從我乞	-11.7726
決疑	-11.7729
虛空之中	-11.7737
眾寶瓔珞	-11.7742
娠	-11.7758
噉肉	-11.7761
不錯亂	-11.7802
行住坐起相隨	-11.7815
生惡心	-11.7818
偈義	-11.7818
紫磨	-11.7819
受十戒	-11.782
然後方	-11.7822
梨耆彌	-11.7828
湩	-11.7829
)。(○	-11.783
輕毀	-11.7831
桃	-11.7832
蠱道	-11.7833
饍	-11.7833
和調	-11.7834
料	-11.7836
泄	-11.7836
鬱	-11.7838
栴陀羅	-11.7839
如意寶珠	-11.784
探	-11.784
右遶	-11.784
「『	-11.784
垣	-11.784
霍然	-11.784
坏	-11.7841
淹	-11.7841
攢	-11.7843
老翁	-11.7843
誇	-11.7843
互為父母	-11.7843
弩	-11.7843
靽	-11.7845
蝕	-11.7845
虗妄	-11.7845
六度集經	-11.7845
烈	-11.7845
挺	-11.7846
毀譽	-11.7846
樹提伽	-11.7846
鹹	-11.7846
罽	-11.7848
鏁	-11.7848
屯	-11.7848
墾	-11.7848
軌持	-11.7848
征	-11.7848
四百四病	-11.7849
燒煮	-11.7849
狼藉	-11.785
允	-11.785
偃	-11.785
泆	-11.785
檢	-11.7851
迦良那伽梨	-11.7851
駱駝	-11.7851
京	-11.7851
恭肅	-11.7851
的	-11.7852
喘	-11.7853
作眾伎樂	-11.7853
迅速	-11.7853
憒亂	-11.7854
寶瓔	-11.7854
妙后	-11.7854
澡瓶	-11.7854
錦	-11.7855
慈悲喜護	-11.7855
世多有人	-11.7855
衝	-11.7855
點	-11.7855
沓	-11.7855
純熟	-11.7856
勳	-11.7856
埵	-11.7857
財賄	-11.7857
粒	-11.7857
九色鹿	-11.7858
矜愍	-11.7858
超過三界	-11.7858
雄猛	-11.7859
炳著	-11.7859
勤方便	-11.7859
聞是說已	-11.7859
軒	-11.7859
得阿那含道	-11.786
無有出期	-11.786
菩薩如是思惟念	-11.7861
丈六	-11.7861
尸毘王	-11.7862
利鈍	-11.7862
如星中月	-11.7862
睺	-11.7862
虱	-11.7862
供養舍利	-11.7863
努力	-11.7863
熱鐵丸	-11.7863
次二句	-11.7864
冒	-11.7864
四輩弟子	-11.7864
沮壞	-11.7864
此為何人	-11.7864
地為大動	-11.7865
憍薩羅	-11.7865
如來重說偈言	-11.7865
揵沓和	-11.7865
居蘭若	-11.7865
毀謗	-11.7866
同譯經梵才大師紹德慧詢等奉詔譯	-11.7866
飡那	-11.7866
朝散大夫試鴻臚少卿	-11.7866
為後眾生	-11.7866
僧房	-11.7867
怪其所以	-11.7867
水上泡	-11.7867
祇洹精舍	-11.7867
喧諍	-11.7867
搦	-11.7867
短促	-11.7868
肋	-11.7868
曼殊沙	-11.7868
不知厭足	-11.7869
作天伎樂	-11.787
迦毘梨	-11.787
猶如師子	-11.787
羯	-11.787
饒益有情	-11.7871
月十五日	-11.7871
慶幸	-11.7871
為漏義	-11.7871
潔淨	-11.7872
身上出火	-11.7872
流泉浴池	-11.7872
田宅	-11.7872
俱胝	-11.7872
寬廣	-11.7872
誰有智者	-11.7873
甚可愛樂	-11.7873
廻	-11.7873
自調者	-11.7874
塵坌	-11.7874
大乘悲分陀利經	-11.7874
迴波	-11.7874
示導	-11.7874
摩竭國界	-11.7874
長老摩訶迦葉	-11.7874
護明菩薩大士	-11.7875
若在家者	-11.7875
平治道路	-11.7875
即得名為親近波羅蜜	-11.7875
文飾	-11.7875
月光天子	-11.7875
燈燭	-11.7876
昨日	-11.7876
閡	-11.7876
轉復前行	-11.7876
是則名為	-11.7877
怨憎會苦	-11.7877
摩竭提國	-11.7877
若能覺此苦	-11.7878
行道淨其迹	-11.7878
胤	-11.7878
捨之而去	-11.7878
還歸本國	-11.7879
繫閉	-11.788
左面魔子	-11.788
盲者得	-11.788
談論	-11.788
出微妙音	-11.788
善樂於	-11.788
十二由旬	-11.7881
光明照曜	-11.7881
戲論	-11.7882
隨汝意	-11.7882
暉曜	-11.7883
六度無極	-11.7883
象馬牛羊	-11.7884
戰動	-11.7885
皆發無上正真道意	-11.7885
嘿然	-11.7885
肅然	-11.7885
在一樹下	-11.7886
威德力故	-11.7886
和尚	-11.7886
閻浮樹下	-11.7886
禍福	-11.7887
不從他聞	-11.7887
千兩金	-11.7887
往度之	-11.7888
金銀琉璃	-11.7889
各各執持	-11.7889
生有死	-11.789
迦尸迦衣	-11.789
閉目	-11.789
宅主	-11.7891
飯食已訖	-11.7891
十倍	-11.7891
左邊	-11.7892
乃至成阿耨多羅三藐三菩提	-11.7892
如世尊教	-11.7892
決了	-11.7893
既出家已	-11.7893
無辜	-11.7893
昔舍衛國	-11.7893
天上天下	-11.7893
一日之中	-11.7893
無有遺餘	-11.7894
無生忍	-11.7895
愁毒	-11.7896
犢子	-11.7897
黑風	-11.7897
長老摩尼婁陀	-11.7897
將諸群臣	-11.7903
遊行教化	-11.7903
漸進	-11.7904
盡老病死	-11.7904
牛跡	-11.7906
長老婆提唎迦	-11.7906
廣演	-11.7908
供養佛僧	-11.791
白黑	-11.7916
如我所見	-11.7918
敷設	-11.7918
二千一百	-11.792
枝條	-11.7923
給侍	-11.7923
彼眾中	-11.7925
受我供養	-11.7925
諸眷屬等	-11.7926
阿難是也	-11.7926
狂癡	-11.7928
無有休息	-11.7928
減損	-11.7929
現神變	-11.7931
時彼二人	-11.7934
青蓮花	-11.7935
勸請如來	-11.7935
令其中眾生	-11.7935
七日之中	-11.7938
無替	-11.794
一切施王	-11.7942
將諸弟子	-11.7945
火燃	-11.7947
千劫	-11.7948
平安	-11.795
水泡	-11.7951
今此童子	-11.7959
具三十二相	-11.7964
當求方便	-11.7967
我今與汝	-11.7968
魔界	-11.7972
央	-11.7978
違犯	-11.7982
及諸群臣	-11.7988
合掌向	-11.799
餘殘	-11.8008
梵宮	-11.8008
堪忍	-11.8012
青蓮華	-11.8016
隨汝所	-11.8017
求作沙門	-11.8018
滅度之後	-11.8018
還歸本	-11.8022
非人所	-11.8028
吐毒	-11.8039
城裏	-11.8046
停止	-11.8054
坐道場	-11.8056
欲入海	-11.8057
到其家	-11.8063
狂惑	-11.8067
離波多	-11.8069
妙香花	-11.8069
一升	-11.8071
遍布	-11.8077
福慶	-11.8078
魔軍眾	-11.808
光明普照	-11.8087
作此語	-11.8094
名色滅	-11.8096
調象	-11.8097
觀者無厭	-11.8097
愛別離	-11.8104
存活	-11.812
視瞻	-11.8138
聞其語	-11.814
拘羅	-11.8147
疑慮	-11.8148
告之言	-11.8166
哀號	-11.817
軟語	-11.8171
道迹	-11.8175
入舍衛城	-11.819
駕乘	-11.8192
憂懼	-11.8205
支體	-11.8207
七十二	-11.821
慈忍	-11.8214
而當不	-11.8235
尊豪	-11.8236
臣吏	-11.8241
憐愛	-11.8247
破魔軍	-11.8257
尊榮	-11.8258
恚恨	-11.826
疾走	-11.8272
衣毛	-11.8273
無量劫中	-11.8276
大聖尊	-11.8283
恒河沙等諸佛	-11.8287
狂醉	-11.8287
相撲	-11.8322
生我國	-11.835
車載	-11.836
毛髮	-11.8361
妙㲲	-11.8371
證無上菩提	-11.8381
眾中有一	-11.8389
得飽滿	-11.842
校飾	-11.8429
懷嫉妬	-11.8457
宮婇女	-11.8463
舶	-11.8472
可恃怙	-11.8477
不依他	-11.8478
淚流	-11.8485
漸近	-11.8485
嫡	-11.8489
妓	-11.849
魂	-11.8497
委曲	-11.8497
黎民	-11.8498
參究	-11.8498
維耶離	-11.8499
阿淚吒	-11.85
屠割	-11.8501
鑑	-11.8501
慊	-11.8501
爐	-11.8501
瞿波利	-11.8502
杜	-11.8503
瘳	-11.8504
劈	-11.8505
諧	-11.8505
裘夷	-11.8509
幔	-11.8509
艱	-11.8509
沾	-11.8509
身體羸瘦	-11.8509
循	-11.851
白四羯磨	-11.851
說斯偈	-11.851
撥無因果	-11.8511
賞賜	-11.8511
十種勝利	-11.8511
阿摩勒	-11.8511
駿	-11.8512
藤	-11.8513
沐	-11.8513
按摩	-11.8513
販賣	-11.8513
以水灑	-11.8514
憒閙	-11.8515
唵	-11.8515
嗤	-11.8515
提婆達	-11.8516
吟	-11.8516
蠶	-11.8516
大圓鏡智	-11.8516
唄	-11.8517
受想行識	-11.8517
脅	-11.8517
飛蛾	-11.8518
綩綖	-11.8518
卜	-11.8518
招禍	-11.8518
牝馬口海	-11.8518
色界無色界	-11.8518
鐘	-11.8519
剝皮	-11.8519
鬪訟	-11.8519
萬法唯	-11.8519
鱗	-11.852
愁慼	-11.852
狸	-11.852
羸劣	-11.852
澄清	-11.8521
十二部經	-11.8521
鞭杖	-11.8521
麋鹿	-11.8521
俾	-11.8521
馨	-11.8521
􂍖	-11.8522
乞丐	-11.8522
衢	-11.8522
哀鸞	-11.8522
他受用身	-11.8523
綜	-11.8524
貧窮下賤	-11.8524
墟	-11.8525
咄嗟	-11.8525
狂亂	-11.8525
芥	-11.8525
車𤦲馬瑙	-11.8525
應病與藥	-11.8525
維衛	-11.8526
端正殊好	-11.8526
一時佛遊	-11.8526
改悔	-11.8526
姿態	-11.8527
折伏	-11.8527
債主	-11.8527
年幼	-11.8527
阿育王	-11.8527
船舫	-11.8528
俯	-11.8528
脈	-11.8528
履屣	-11.8528
曼陀羅	-11.8529
自受用身	-11.8529
瘂	-11.8529
滌	-11.8529
長幼	-11.8529
隱身不現	-11.853
廐	-11.853
不惜軀命	-11.853
從頭至足	-11.853
杖捶	-11.853
臘	-11.853
緊	-11.853
倡	-11.8531
布薩婆梨迦	-11.8531
在閑靜處	-11.8532
跋伽婆	-11.8532
郡縣	-11.8532
筋骨	-11.8532
無常殺鬼	-11.8532
怨讐	-11.8533
嬭	-11.8533
痛痒	-11.8533
和顏悅色	-11.8533
迦婁羅	-11.8534
降伏魔怨	-11.8534
以是緣故	-11.8534
無反復	-11.8534
即於座上	-11.8534
強敵	-11.8534
遙見佛來	-11.8535
身下出水	-11.8535
追憶	-11.8535
年七歲	-11.8536
刑戮	-11.8536
刖	-11.8537
四寶所成	-11.8537
波浪	-11.8537
蓋屋	-11.8538
疲倦	-11.8538
有形之類	-11.8538
化自在天	-11.8538
􂎂	-11.8539
人民飢餓	-11.8539
運動	-11.8539
拘勿頭	-11.8539
豪姓	-11.8539
於七日中	-11.8539
紫磨金色	-11.854
略說其要	-11.854
耕種	-11.854
親近善友	-11.8542
一萬大臣	-11.8542
香水灑地	-11.8542
於意云何	-11.8542
加趺而坐	-11.8543
修布施行	-11.8543
右面魔子	-11.8543
降伏眾魔	-11.8543
汝意云何	-11.8543
復有二佛同號	-11.8543
酷毒	-11.8544
闍維	-11.8544
拘那含牟尼	-11.8544
明日食時	-11.8544
北涼天竺三藏	-11.8544
端正可憙	-11.8544
第二第三	-11.8545
供給所須	-11.8545
退敗	-11.8546
經於七日	-11.8546
惺悟	-11.8546
七寶所成	-11.8547
禪悅	-11.8547
摩訶曼陀羅華	-11.8547
隘	-11.8547
疫病	-11.8548
至心諦聽	-11.8548
召喚	-11.855
從地踊出	-11.8551
開士	-11.8551
受如是苦	-11.8551
後宮婇女	-11.8551
是以聖人	-11.8552
虛空印菩薩摩訶薩	-11.8552
願為解說	-11.8553
明行成	-11.8553
五體禮寶藏如來足	-11.8553
授我記	-11.8553
衣服臥具	-11.8554
南面	-11.8554
四大王天	-11.8554
出家菩薩又觀自身	-11.8554
百姓	-11.8556
齎持香花	-11.8556
不可移動	-11.8557
金團天子	-11.8558
廣布	-11.8558
自說言	-11.8559
馬麥	-11.856
多億那由他百千眾生	-11.856
主四天下	-11.8561
力所加	-11.8561
草葉	-11.8561
受佛戒	-11.8563
遊戲神通	-11.8564
辟支佛緣覺世尊	-11.8564
耐提蘭	-11.8565
揚聲	-11.8566
其後命終	-11.8566
二種生死	-11.8567
持此功德	-11.8567
所獲功德	-11.8568
長老瞿曇	-11.8568
採寶	-11.8569
鹿野	-11.8569
肌肉	-11.8569
百千萬眾	-11.857
寶月如來	-11.857
不知所在	-11.857
尼乾子	-11.857
聽佛說法	-11.857
持用布施	-11.8572
生死之苦	-11.8572
降伏諸魔	-11.8572
盜竊	-11.8574
五戒十善	-11.8576
不能自解	-11.8577
於我法中	-11.8579
棄背	-11.8581
不識恩	-11.8583
便作是語	-11.8583
勸進	-11.8583
廣宣	-11.8586
我時供養彼	-11.8587
出家未久	-11.8589
永劫	-11.8591
音樂樹	-11.8596
諸天子眾	-11.8599
山巖	-11.86
著諸瓔珞	-11.8603
驚覺	-11.8604
佛告目連	-11.8609
優陀耶	-11.861
㲲衣	-11.861
割斷	-11.861
諸小國王	-11.8611
敷榮	-11.8612
無等等	-11.8615
八齋	-11.8617
四萬歲	-11.862
莊校	-11.8624
修諸功德	-11.8625
生悔心	-11.8628
甚深難	-11.8629
懷憂惱	-11.863
至他國	-11.8638
不知有身	-11.8639
閻浮金	-11.8645
染倒	-11.8646
度生死海	-11.8647
得大利益	-11.8659
羅閱祇城	-11.8661
神通遊戲	-11.8664
見道跡	-11.8665
語其夫	-11.8666
含毒	-11.8669
稱我名	-11.8678
有現如	-11.8679
住於蘭若	-11.8681
莫愁	-11.8683
迦維羅衛國	-11.8688
未詳	-11.8696
且待	-11.871
諸釋童子	-11.8711
燋然	-11.8712
善生女	-11.8716
快樂無極	-11.872
告諸臣	-11.8725
千二百五十比丘	-11.8729
挽弓	-11.8733
域	-11.8748
本所造	-11.8754
作是唱	-11.8755
愚癡無智	-11.8756
奔趣	-11.8784
種種音樂	-11.8792
從王乞	-11.8806
手搏	-11.8812
難測	-11.882
師子步	-11.8828
還本處	-11.884
鮮白	-11.8854
免脫	-11.8857
在其前	-11.886
便微笑	-11.8876
移動	-11.8881
勅之言	-11.8883
標徵	-11.889
耆老	-11.8892
諸根不具	-11.8908
軍馬	-11.8919
聞其聲	-11.8945
醜形	-11.8958
熏成	-11.8959
破暗	-11.9029
諸民眾	-11.9053
共集會	-11.9076
娑羅樹	-11.9079
設大會	-11.913
千二百	-11.9136
世尊復說	-11.9138
優鉢羅	-11.9139
一念不生	-11.917
弓射	-11.9171
睛	-11.9175
馭	-11.9178
終不能得	-11.9183
罽賓	-11.9183
草鋪	-11.9191
矩	-11.92
末句	-11.9201
貴族	-11.9206
祝	-11.9207
粥	-11.921
蠱	-11.921
瞽	-11.9212
恣情	-11.9215
嶽	-11.9215
凝	-11.9216
換	-11.9217
熊	-11.9219
猿	-11.9219
㯓	-11.9219
欠	-11.9219
跨	-11.922
愴	-11.9221
貸	-11.9221
無遮會	-11.9222
脉	-11.9222
仞	-11.9223
肅肅	-11.9223
漲	-11.9223
駮	-11.9223
奮迅	-11.9224
瞪	-11.9224
抆	-11.9224
厨士	-11.9224
洄	-11.9225
涎	-11.9225
三輪體空	-11.9225
耳璫	-11.9225
恧	-11.9226
紡	-11.9227
牸象	-11.9227
拔劍	-11.9227
軛	-11.9227
䟦	-11.9227
擣	-11.9228
墻	-11.9228
阿脂王	-11.9228
僥	-11.9229
播	-11.9229
轍	-11.9229
頭戴	-11.923
腸胃	-11.923
命令坐	-11.923
敬諾	-11.9231
蒸	-11.9231
無所傷損	-11.9231
普光如来	-11.9231
林藪	-11.9231
懇惻	-11.9232
警覺	-11.9232
伴黨	-11.9232
尼乾	-11.9233
脛	-11.9233
三歎德結眾	-11.9233
依教奉行	-11.9233
繁茂	-11.9233
平等性智	-11.9233
謁	-11.9233
呵制	-11.9233
富蘭迦葉	-11.9233
捫摸	-11.9234
比丘謹慎樂	-11.9234
歸恩於佛	-11.9234
衣毛為竪	-11.9234
擾動	-11.9235
妙觀察智	-11.9235
尊者迦栴延	-11.9235
波闍波提	-11.9235
積功累德	-11.9235
踝	-11.9235
脆	-11.9235
威儀禮節	-11.9236
恬惔	-11.9236
姟	-11.9236
漱口	-11.9237
薄祐	-11.9237
問訊起居	-11.9237
駟	-11.9237
無涯	-11.9237
吉義如來	-11.9237
欵	-11.9238
哲	-11.9238
防衛	-11.9238
阿耆達	-11.9238
四威儀中	-11.9238
安處無為	-11.9238
盥	-11.9239
紙	-11.9239
欣踊	-11.9239
削	-11.9239
寂寞	-11.9239
強健	-11.9239
飛鳥走獸	-11.9239
質多羅	-11.9239
倉卒	-11.9239
廣度一切	-11.9239
慨	-11.924
函	-11.924
網縵	-11.924
求不得苦	-11.924
富樓那	-11.924
援	-11.9241
最為上首	-11.9241
麾	-11.9242
祇夜多	-11.9242
慚恥	-11.9242
臨命終時	-11.9242
身相端嚴	-11.9242
坏器	-11.9242
欝多羅	-11.9242
明教大師臣法賢奉詔譯	-11.9243
聰叡	-11.9243
歡欣	-11.9243
蒲	-11.9243
清淨無瑕	-11.9244
白如雪	-11.9244
眠寐	-11.9244
讖	-11.9244
無有窮盡	-11.9244
淚下如雨	-11.9244
菩提妙果	-11.9244
禾	-11.9244
錐	-11.9245
忠孝	-11.9245
欺詐	-11.9245
漂沒	-11.9245
迦陵頻伽	-11.9245
葦	-11.9246
若男若女	-11.9246
撻	-11.9246
越次取證	-11.9246
牽連	-11.9246
不但今世	-11.9247
拘薩羅國	-11.9247
苦習盡道	-11.9247
波羅提木叉戒	-11.9247
自利利他	-11.9247
八功德水	-11.9247
北俱盧洲	-11.9247
軌範	-11.9247
禮儀	-11.9248
吠	-11.9248
禳	-11.9248
八十由旬	-11.9249
統攝	-11.925
蔭覆	-11.925
慈悲喜捨	-11.925
尊榮豪貴	-11.925
煒	-11.9251
從兜率下	-11.9251
南西北方	-11.9251
還歸所止	-11.9251
侵奪	-11.9251
世之希有	-11.9251
在何許	-11.9252
在於宮內	-11.9252
從地獄出	-11.9253
蹤跡	-11.9253
令不斷絕	-11.9253
眉間白毫	-11.9253
心意開解	-11.9253
問馭者言	-11.9253
人所不至	-11.9253
得阿惟越致	-11.9253
齊平	-11.9254
勇悍	-11.9254
勸諫	-11.9254
滿十月	-11.9254
如慧之所見	-11.9255
庵	-11.9255
末利夫人	-11.9255
希奇	-11.9257
失譯人名	-11.9258
良久乃	-11.9258
講論	-11.9258
經六帝釋滅	-11.9258
親近善知識	-11.9258
灰河	-11.9259
3	-11.9259
曼坻	-11.9259
心善解脫	-11.926
諸相具足	-11.926
不自覺知	-11.926
東西馳走	-11.926
於其晨朝	-11.926
蓮華尊佛	-11.9261
閱頭檀	-11.9262
眾德具足	-11.9262
降怨王	-11.9262
勤勞	-11.9262
遙望	-11.9263
吳月支優婆塞支謙譯	-11.9264
精勤修習	-11.9264
優婁頻螺聚落	-11.9264
於三乘中	-11.9264
若有佛子	-11.9264
假借	-11.9265
迦毗羅	-11.9265
於當來世過一恒河沙數阿僧祇	-11.9265
嬉戲娛樂	-11.9266
人相具足	-11.9266
覺支	-11.9266
波塞奇	-11.9266
甚為希有	-11.9267
真善知識	-11.9267
於一念中	-11.9268
無數億那由他百千	-11.9268
】*【	-11.9268
美妙聲等	-11.9268
莂	-11.9269
嚴麗殊妙可觀	-11.9269
聽受妙法	-11.9269
刀兵	-11.9269
若我如是意滿	-11.9271
觀世音	-11.9272
跋陀	-11.9272
心懷喜悅	-11.9273
附近	-11.9273
虛空印菩薩	-11.9274
童子在胎	-11.9274
七十九	-11.9274
用求佛道	-11.9275
以是業緣	-11.9275
迷荒	-11.9275
又有種種妙	-11.9276
諸聖眾	-11.9276
入於大海	-11.9277
懈廢	-11.9277
爾時世尊有如是	-11.9278
供辦	-11.9279
罷道	-11.9279
分陀利華	-11.9282
往至其所	-11.9283
宿造何	-11.9283
嚪婆羅	-11.9284
唯願仁者	-11.9284
了不能得	-11.9285
有七七	-11.9286
逮阿耨多羅三藐三菩提	-11.9286
受天快樂	-11.9287
波離婆闍迦	-11.9288
喪身命	-11.9289
何可貪	-11.9299
此是菩薩希奇之事	-11.9299
為其說法	-11.9301
福祐	-11.9303
非世所	-11.9311
能違逆	-11.9313
乃往過去久遠世	-11.9314
如千日	-11.9316
枯樹	-11.9316
樹王下	-11.9317
諸不善根	-11.9318
萬法聚	-11.9319
聽汝出家	-11.9342
遠逝	-11.9343
難見難	-11.9355
纏繞	-11.9358
根栽	-11.9361
母右脇	-11.9362
割身肉	-11.9375
珍奇	-11.9376
靡所不	-11.9387
不退轉於阿耨多羅三藐三菩提	-11.9407
父母師長	-11.9416
成菩提道	-11.9429
海潮	-11.9456
詣菩提場	-11.9476
頗羅	-11.9495
無有人能	-11.9515
知他心	-11.9516
珍妙	-11.9521
如法治化	-11.9536
涼冷	-11.9539
持應器	-11.955
苦行林	-11.9565
垢濁	-11.9569
乘騎	-11.9577
昔在人	-11.959
生悔恨	-11.961
長老優陀夷	-11.9625
求出離	-11.9633
初句標	-11.9636
甚可畏	-11.9647
蘭若修證	-11.9652
往至世尊所	-11.9658
詣佛樹	-11.9686
憂陀答	-11.9705
誨示	-11.9752
到王所	-11.9794
億歲	-11.9821
無時不	-11.9823
狀似	-11.984
往其所	-11.9854
阿毘曇	-11.9858
祥瑞	-11.9872
毀罵	-11.9909
百兩金	-11.9918
眴	-11.9961
理事無礙	-11.9967
惺	-11.9971
以偈告	-11.9977
世間愚人亦復如是	-11.9978
俱梨迦	-11.9978
魅	-11.9979
妖蠱	-11.998
雕	-11.9982
輻	-11.9982
稀	-11.9982
愕	-11.9983
模	-11.9984
琢	-11.9985
材	-11.9986
冶	-11.9987
另	-11.9987
這裏	-11.9987
傅	-11.9987
陶	-11.9988
鴦仇摩羅	-11.9989
孚	-11.9989
以偈問	-11.999
蜜蜂	-11.999
緣一覺	-11.9991
院	-11.9991
跛	-11.9992
餚饌	-11.9992
錠光佛	-11.9992
肺	-11.9992
混	-11.9992
繭	-11.9992
儀式	-11.9992
衒	-11.9993
自今以後	-11.9993
跣	-11.9994
豐盈	-11.9994
擁	-11.9994
聊	-11.9994
群僚	-11.9995
羞耻	-11.9995
猨猴	-11.9996
無出期	-11.9996
隋數十	-11.9996
万	-11.9996
岳	-11.9997
逈	-11.9997
鹿野苑	-11.9997
腋	-11.9997
椎胸	-11.9998
楞	-11.9998
汲汲	-11.9998
色聲香味細滑之法	-11.9998
抗	-11.9999
刻鏤	-11.9999
妬忌	-12
拊	-12
從何所來	-12
緻	-12.0001
轉大法輪	-12.0001
分段生死	-12.0001
廕	-12.0002
哩	-12.0002
呼嗟	-12.0003
形骸	-12.0003
瞢	-12.0003
師子奮迅	-12.0003
荅	-12.0003
䏶	-12.0004
柯	-12.0004
丁	-12.0004
何緣乃爾	-12.0004
自致得佛	-12.0004
無礙辯才	-12.0004
興隆	-12.0005
獻供	-12.0005
噎	-12.0005
鵒	-12.0005
燿	-12.0005
悔過自責	-12.0005
品格	-12.0006
評	-12.0006
即如其言	-12.0006
犀	-12.0006
融通	-12.0006
濤	-12.0006
伺候	-12.0007
尸利苾提	-12.0007
彈指之頃	-12.0007
無有過者	-12.0007
栴	-12.0007
馳騁	-12.0007
靜室	-12.0008
崛	-12.0008
宇	-12.0008
管	-12.0008
受持讀習	-12.0008
老死患	-12.0008
汝不知耶	-12.0009
不起法忍	-12.0009
佩	-12.0009
掣	-12.0009
倍於前	-12.0009
淑	-12.001
搥	-12.001
零	-12.001
得全濟	-12.001
疆	-12.001
癩	-12.001
遇善知識	-12.001
周法界	-12.0011
利樂有情	-12.0011
旗	-12.0011
西天譯經三藏朝散大夫試鴻臚少卿	-12.0011
惕	-12.0011
竄	-12.0012
𣫍	-12.0012
鞭打	-12.0012
餘命無幾	-12.0013
欽仰	-12.0013
若好若醜	-12.0013
提婆大婆羅門	-12.0014
四寸	-12.0014
童男童女	-12.0014
天主帝釋	-12.0014
如月盛滿	-12.0014
幻術	-12.0015
縣官	-12.0015
威猛	-12.0015
尋究本末	-12.0016
掬水	-12.0016
其家大富	-12.0016
無常對至	-12.0017
濁穢	-12.0017
木槍	-12.0017
猶如赤子	-12.0017
及諸臣民	-12.0018
紹三寶種	-12.0018
讚詠	-12.0018
從定起	-12.0018
慍	-12.0018
毗舍	-12.0019
販	-12.0019
香爐	-12.0019
歡喜丸	-12.0019
無礙辯	-12.0019
統四天下	-12.0019
今現我父	-12.0019
財富無量	-12.002
故從遠來	-12.002
羝	-12.002
拄杖	-12.002
汎	-12.002
癰	-12.0021
饒財多寶	-12.0021
所不能及	-12.0021
村邑	-12.0021
威容	-12.0021
晝夜不息	-12.0021
禱祀	-12.0021
於諸善法	-12.0022
辭謝	-12.0022
三脫門	-12.0023
跋陀羅迦卑梨耶	-12.0023
吃	-12.0023
五百群鴈	-12.0023
猛獸	-12.0023
過去之世	-12.0023
西天譯經三藏朝	-12.0023
酬報	-12.0023
6	-12.0023
闥	-12.0023
羯磨	-12.0024
威嚴	-12.0024
可喜端正	-12.0024
毀敗	-12.0025
福祚	-12.0025
毘羅摩	-12.0025
以正法治國	-12.0025
乳哺力	-12.0025
發道意	-12.0026
萬歲世人中	-12.0026
釋童摩尼婁陀	-12.0026
奉諸所安	-12.0027
拘物頭華	-12.0027
跋伽仙人	-12.0027
左面	-12.0027
黑繩	-12.0027
無有限量	-12.0028
悕求	-12.0028
元魏涼州沙門慧覺等在高昌郡譯	-12.0028
八萬歲	-12.0028
如之何	-12.0029
舁	-12.0029
著袈裟衣	-12.0029
我逮菩提時	-12.0029
正念正知	-12.0029
澡盤	-12.003
浮雲	-12.003
諸漏已盡	-12.003
或有諸鬼	-12.003
兜率宮	-12.003
墮於惡道	-12.0031
兜率天宮	-12.0031
堆阜	-12.0032
安隱豐樂	-12.0033
悟無生忍	-12.0033
涉歷	-12.0034
勝力兵眾	-12.0034
天曼陀羅華散布其地	-12.0034
狀貌	-12.0035
受大快樂	-12.0035
聽在道次	-12.0035
為眾生說法	-12.0035
鼉	-12.0035
造無間業	-12.0035
微塵數等諸佛世界	-12.0035
迴顧	-12.0036
三福地	-12.0036
隨自福力	-12.0037
諸大弟子	-12.0037
勝義無倒	-12.0037
其樹所出四色妙衣	-12.0037
日在東方	-12.0038
跋陀羅迦卑梨耶比丘尼	-12.0038
事三火	-12.0038
岐	-12.0039
憐愍我故	-12.0039
波頭摩華	-12.0039
摧破	-12.0039
觸處遍灑旃檀香水	-12.004
金繩交絡垂金鈴鐸	-12.004
聞我名者	-12.004
餚饍飲食	-12.0041
為作救護	-12.0043
毛羽	-12.0044
無有及者	-12.0044
何因何緣	-12.0044
無垢德明王如來	-12.0044
往至其家	-12.0045
胡跪合掌	-12.0045
施佛及僧	-12.0047
稠林	-12.0047
諸善普	-12.0047
及其眷屬	-12.0048
詣向佛所	-12.0049
痛不可言	-12.005
俱發聲	-12.005
勇士	-12.0051
外寇	-12.0051
產一男兒	-12.0053
正等覺	-12.0053
畵	-12.0053
摧壞	-12.0053
第二恒河沙等阿僧祇劫後分	-12.0053
生於人中	-12.0053
目無所見	-12.0053
佛在迦毘羅衛國尼拘	-12.0054
謙卑	-12.0056
是故當離	-12.0056
萬人俱	-12.0057
均提	-12.0057
速證菩提	-12.0058
見一餓鬼	-12.0059
生於人間	-12.0061
外異學	-12.0061
往到其所	-12.0063
娑羅窟	-12.0064
西沒	-12.0066
謙敬	-12.0068
罽賓國	-12.007
路傍	-12.0072
是大有情	-12.0075
二利之	-12.0075
恒沙劫	-12.0089
懷愁憂	-12.0094
香瓔	-12.0094
生此天	-12.014
尼拘陀	-12.0156
槍亦	-12.0183
叢	-12.0189
領納	-12.022
求無上正真之道	-12.0229
左手執	-12.0234
母摩耶夫人	-12.0255
奉佛教	-12.0271
心如是念	-12.0288
得如願	-12.0291
詣世尊所	-12.0311
病瘦	-12.0317
訖了	-12.0335
百千由旬	-12.0364
瓔珞莊嚴其身	-12.0406
天人龍鬼	-12.0455
尊重恭敬	-12.0468
騰虛	-12.0484
何瑞相	-12.0488
頻婆娑羅	-12.0526
說種種法	-12.0539
方域	-12.0556
唯佛能	-12.057
諸天及人	-12.0602
閻浮園	-12.0608
第	-12.069
輸頭檀	-12.069
辜	-12.0789
復因何	-12.0791
彌蘭	-12.0791
菩提分法	-12.0804
纔起心時	-12.0805
獘	-12.0806
阿闍黎	-12.0811
鹵	-12.0812
鞍馬	-12.0813
紀	-12.0814
專意不散	-12.0815
名句文	-12.0815
𨄔	-12.0817
竝	-12.0817
暴露	-12.0817
烹	-12.0818
凋落	-12.082
儗	-12.082
巢	-12.0821
頞誰那	-12.0821
航	-12.0822
葛	-12.0822
距	-12.0822
郭	-12.0823
睹	-12.0825
張弓	-12.0825
駮足王	-12.0827
拘物頭	-12.0827
鵄	-12.0828
妙高山王	-12.0828
脚蹋	-12.0828
幟	-12.0828
譖	-12.0829
屑	-12.0829
憩	-12.0829
悍	-12.0829
豪強	-12.0829
穩	-12.0829
三僧祇劫	-12.083
朝露	-12.083
魄	-12.083
鑊湯	-12.0831
榮祿	-12.0831
誣	-12.0831
搥胸	-12.0831
全彰	-12.0831
灰覆火	-12.0831
柰	-12.0831
征伐	-12.0832
霍	-12.0833
甫	-12.0833
𤚲	-12.0834
專注	-12.0834
廓	-12.0834
須陀素彌	-12.0834
閙	-12.0834
歸功於	-12.0835
羈	-12.0835
如幻如化	-12.0836
洽	-12.0836
諧偶	-12.0836
頷	-12.0836
從遠方來	-12.0836
與愚從事	-12.0837
地大動	-12.0837
慟	-12.0837
默然不答	-12.0837
煥	-12.0837
豎	-12.0837
無上正等正覺	-12.0837
行澡水	-12.0838
生餓鬼中	-12.0838
恒伽達	-12.0838
禱祠	-12.0838
拘耶尼	-12.0838
頭面禮足在一面坐	-12.0838
投巖	-12.0838
殃禍	-12.0839
法衣在身	-12.0839
韋陀論	-12.0839
太官	-12.0839
非空非海中	-12.0839
豹	-12.084
遨	-12.084
拘睒彌	-12.084
解見前文	-12.084
蚑	-12.084
良友	-12.084
骸	-12.0841
乾薪	-12.0841
蹉	-12.0841
大如毛髮	-12.0841
帆	-12.0842
安明山	-12.0842
枷鏁	-12.0842
祁	-12.0842
為母說法	-12.0842
不可久保	-12.0842
栖	-12.0842
鴻	-12.0842
獷	-12.0842
坐其下	-12.0843
夫欲安命	-12.0843
壽百年	-12.0843
珂雪	-12.0844
即召相師	-12.0844
縛束	-12.0844
是謂名苦際	-12.0844
住不退地	-12.0844
虵	-12.0844
為水所漂	-12.0845
見佛光相	-12.0845
恡	-12.0845
燒眾名香	-12.0845
三聚淨戒	-12.0845
輕蔑	-12.0846
阿儞嚕馱	-12.0846
動一山中	-12.0846
沈溺	-12.0846
善權方便	-12.0846
潰	-12.0846
廣照后	-12.0846
孤窮	-12.0846
南贍部洲	-12.0847
膏油	-12.0847
好喜布施	-12.0847
屣	-12.0848
十六不獲一	-12.0848
裝嚴	-12.0848
禮佛而退	-12.0848
首陀會天	-12.0848
羸弱	-12.0848
濫	-12.0848
牖	-12.0848
訾	-12.0848
常坐不臥	-12.0848
身死神	-12.0849
線	-12.0849
炷	-12.0849
匐	-12.0849
解說書寫	-12.0849
光音天	-12.085
嵐毘尼園	-12.085
復更如是思惟	-12.085
四意斷	-12.085
如赤銅	-12.085
恣汝所	-12.085
摩訶目揵連	-12.0851
庶民	-12.0851
佛與眾僧	-12.0851
八十里	-12.0852
慢惰	-12.0852
柄	-12.0852
國城妻子	-12.0853
阿輸迦	-12.0853
甚為奇特	-12.0853
鐸	-12.0853
恭恪	-12.0853
佛在羅閱祇耆闍崛山中	-12.0853
髠	-12.0854
杅	-12.0855
奉大夫試光祿卿傳法大師賜紫	-12.0855
三界唯心	-12.0856
乳汁	-12.0856
雜譬喻經	-12.0856
蒙賴	-12.0856
傴	-12.0857
摩訶波闍波提憍曇彌	-12.0857
滑澤	-12.0857
心中所念	-12.0857
如赤子	-12.0857
彼不能乘	-12.0857
却在一面	-12.0857
世世所生	-12.0858
蹙	-12.0858
有想無想	-12.0858
三耶三佛	-12.0858
平等無二	-12.0858
檀特山	-12.0858
奴婢僕使	-12.0858
冤對	-12.0859
班	-12.0859
身諸毛孔	-12.0859
說如是法	-12.0859
聞王勅已	-12.0859
從生已來	-12.0859
譏呵	-12.0859
妻妾	-12.0859
無數千歲	-12.0859
從今已往	-12.086
隱蔽	-12.086
弓刀	-12.086
受持讀誦	-12.0861
踊悅	-12.0861
福梨伽	-12.0861
遽	-12.0861
是故當晝夜	-12.0861
三十二大人之相	-12.0861
住菩薩前	-12.0861
入無餘涅槃	-12.0862
聾者得聽	-12.0863
不應住止阿蘭若處	-12.0863
錫杖	-12.0863
五欲自娛	-12.0863
止住其中	-12.0863
阿耨大龍王	-12.0864
以佛眼觀	-12.0864
敬戴	-12.0864
優陀羅	-12.0864
於七歲中	-12.0865
徒步	-12.0865
揣食	-12.0865
加趺	-12.0866
受於快樂	-12.0866
充塞	-12.0866
目揵羅夜那	-12.0867
唐捐	-12.0867
應為王者	-12.0867
諫曉	-12.0867
阿斯陀仙	-12.0867
才辯	-12.0868
坐菩提座	-12.0869
蘇陀味	-12.0869
尊音王	-12.0869
拘離多童子	-12.0869
赤真珠	-12.0869
▁18	-12.087
周匝千由旬	-12.087
曩昔	-12.087
寶體佛	-12.0871
綖	-12.0871
譚	-12.0872
刪提嵐	-12.0873
治罰	-12.0873
遍照十方	-12.0873
遠塵離垢得法眼淨	-12.0873
殿堂樓閣	-12.0874
清涼甘美	-12.0874
盡其壽命	-12.0875
授其記	-12.0876
報其恩	-12.0877
鹿母夫人	-12.0878
眼睛	-12.0878
以慈悲力	-12.0879
為作歸依	-12.0883
召諸相師	-12.0883
復有四法	-12.0887
彼等螺髻梵志	-12.0887
命終已後	-12.0887
無與等	-12.0888
月上如來	-12.0888
六牙白象	-12.0889
造四寶塔	-12.089
拘離多波離婆闍迦	-12.089
槃頭末帝	-12.0893
難陀比丘是也	-12.0897
造諸罪	-12.0897
壽八萬歲	-12.0898
我昔曾	-12.0898
為賊所	-12.0912
從地而	-12.0919
白淨飯王言	-12.0943
匃	-12.095
滅故即	-12.0961
五百乘車	-12.0982
食其肉	-12.0983
久遠世時	-12.0985
視之無厭	-12.1003
投火坑	-12.1021
修菩薩道	-12.1027
禮菩薩足	-12.1057
詣太子所	-12.1064
羅邏	-12.1384
獲大利	-12.1401
潮	-12.1472
自他兩利	-12.1478
槍	-12.1527
五穀豐	-12.1547
二恒河沙阿僧祇	-12.155
須夜摩	-12.1568
尼連禪	-12.161
筏	-12.1646
即時能知因	-12.1665
斛飯王	-12.1681
箕	-12.1707
阿耨達池	-12.1711
亦不從受	-12.1712
螢	-12.1715
話	-12.172
烏嚕尾螺	-12.172
恙	-12.1723
繡	-12.1724
非有非無	-12.1725
隥	-12.1726
輪轉無際	-12.1726
揖	-12.1727
筋脉	-12.1728
如夢幻	-12.1728
膠	-12.1728
色究竟天	-12.1729
澍	-12.1729
端身正念	-12.173
毘世師論	-12.173
惟衛佛	-12.173
隕	-12.173
湛	-12.1731
應機說法	-12.1731
文章	-12.1731
隊	-12.1731
臆	-12.1732
菴摩羅	-12.1732
騾	-12.1733
蒼	-12.1733
惔怕	-12.1734
瘡痍	-12.1734
亘	-12.1734
踏	-12.1734
浣濯	-12.1735
屍骸	-12.1735
稗	-12.1736
抳	-12.1737
挫	-12.1737
所適無患	-12.1737
蛾	-12.1737
趨	-12.1737
厨宰	-12.1738
叚	-12.1738
肚	-12.1739
逍遙	-12.1739
悠	-12.1739
尸陀林	-12.174
典兵臣	-12.174
魏	-12.174
珮	-12.1741
經歷劫數	-12.1741
舌舐	-12.1741
歡慶	-12.1741
眾生誓度	-12.1741
琦	-12.1741
旅	-12.1741
靤	-12.1742
荊	-12.1742
彎弓	-12.1742
身語意	-12.1742
千乘萬騎	-12.1742
悲母恩	-12.1742
編	-12.1742
侯	-12.1742
創	-12.1742
􂍧	-12.1742
昔者菩薩為大	-12.1742
估	-12.1743
竿	-12.1743
驃	-12.1743
牧羊	-12.1743
縵	-12.1743
乳酪	-12.1743
甘露飯王	-12.1743
未經幾	-12.1744
娶妻	-12.1744
咽喉	-12.1744
倩	-12.1744
狎	-12.1745
鬼子母	-12.1745
般遮于瑟	-12.1745
屠羊	-12.1745
燃千燈	-12.1746
􂌤	-12.1746
簿	-12.1746
香汁灑地	-12.1746
㨶	-12.1746
咀	-12.1747
伺捕	-12.1747
無慚無愧	-12.1747
貧窮困苦	-12.1747
不敗亡	-12.1747
以心為主	-12.1747
汝今被菩薩	-12.1747
湖	-12.1747
溪	-12.1747
閉門戶	-12.1748
奉詔譯	-12.1748
悅頭檀	-12.1748
抄	-12.1748
斜	-12.1749
以手指地	-12.1749
紅赤	-12.1749
靈鷲山	-12.1749
蓋不足言	-12.1749
皎潔	-12.1749
壽八萬四千歲	-12.1749
常樂我淨	-12.1749
今世及後世	-12.1749
六萬婇女	-12.1749
稱伽拔吒	-12.175
貧富貴賤	-12.175
鴦伽陀王	-12.175
姧	-12.1752
墮大地獄	-12.1752
刀山劍樹	-12.1752
啖	-12.1752
生希有想	-12.1752
餧	-12.1752
雖得為人	-12.1752
飛昇虛空	-12.1752
阜	-12.1752
州	-12.1753
跟	-12.1753
瑜	-12.1753
糅	-12.1753
將來之世	-12.1753
四衢道頭	-12.1753
顏色和悅	-12.1753
冐	-12.1753
導從前後	-12.1753
毘樓勒	-12.1754
香鑪	-12.1754
㸌	-12.1754
利師跋王	-12.1754
塠	-12.1754
嬪	-12.1754
賑	-12.1754
彩畫	-12.1754
左右顧視	-12.1754
末香塗香	-12.1754
禿	-12.1754
𠻬	-12.1755
地居諸天	-12.1755
聞經歡喜	-12.1755
婉	-12.1755
爺	-12.1755
為磨滅法	-12.1755
傾倒	-12.1755
澁	-12.1755
戢	-12.1756
天文地理	-12.1756
右繞三匝	-12.1756
慈心相向	-12.1756
皎	-12.1757
即復以偈	-12.1758
奢摩他	-12.1758
掛	-12.1758
乃往過去無數世	-12.1758
棲止	-12.1758
剪	-12.1758
從何道來	-12.1758
箇	-12.1758
日無精光	-12.1758
摩訶薩埵	-12.1759
目如青蓮	-12.1759
悕	-12.1759
坑坎	-12.176
塼	-12.176
愚騃	-12.176
驕	-12.176
摩訶僧祇師	-12.176
嚴身之具	-12.1761
踰闍那	-12.1761
怱	-12.1761
我我所執	-12.1761
憍陳如等五	-12.1761
阿彌陀	-12.1761
幃帳	-12.1761
呻	-12.1761
唼𠲿	-12.1761
花果茂盛	-12.1762
菴婆羅	-12.1762
宮嬪	-12.1762
於大眾前	-12.1762
臛	-12.1762
顏容端正	-12.1762
德樂正	-12.1762
儔	-12.1763
不傷人意	-12.1763
鉢盂	-12.1763
拔愛根本	-12.1763
如實證知	-12.1763
紺馬寶	-12.1763
所至到處	-12.1763
而娛樂之	-12.1764
是處有王	-12.1764
有發無上正真道意者	-12.1764
以手掩耳	-12.1764
優為迦葉	-12.1765
金千兩	-12.1765
帥	-12.1765
葬送	-12.1765
不亦快乎	-12.1766
從外來	-12.1766
摩訶曼陀羅花	-12.1766
獨無伴侶	-12.1766
王既聞已	-12.1766
信受奉行	-12.1766
迦留羅	-12.1767
覔	-12.1767
月氏國	-12.1767
誰不樂世	-12.1768
秋節	-12.1768
得大勢	-12.177
去此不遠	-12.177
優波伽摩那婆	-12.177
如一佛剎微塵數等	-12.177
深無底	-12.177
五通神仙	-12.177
多所饒益	-12.177
不驚不怖	-12.1771
呵罵	-12.1771
摩那毘迦	-12.1771
懈慢	-12.1771
波羅捺	-12.1772
身紫金色	-12.1772
卓	-12.1773
執持應器	-12.1773
聞是聲已	-12.1773
竹林精舍	-12.1773
䐡	-12.1774
臺閣	-12.1774
發無上菩提之心	-12.1774
或勝此	-12.1774
於其後時	-12.1776
發是心	-12.1777
地六種動	-12.1777
此是菩薩未曾有法	-12.1777
▁16	-12.1777
7	-12.1778
俱母陀	-12.1778
奔拏利迦	-12.1778
鉢訥摩	-12.1778
純金所成	-12.1778
纏絡	-12.1779
從彼優婁頻螺迦葉	-12.178
如兜羅緜	-12.178
睒摩迦	-12.178
去此佛土過	-12.1781
若頗胝迦為臺即瑠璃為柱及以梁棟	-12.1781
豐諸飲食	-12.1781
是瞿曇弟子	-12.1781
彼樹所出手釧足環	-12.1781
復有種種華樹	-12.1782
直生端立圓無缺減	-12.1782
及身莊嚴妙好之具	-12.1783
爇眾名香	-12.1783
或處其中安隱而坐	-12.1783
以佛力故	-12.1783
不可思議阿僧祇劫	-12.1783
東方去此	-12.1783
何憂何畏	-12.1784
播曩漿等	-12.1784
奇雅	-12.1784
諸長老輩	-12.1784
二恒河沙數阿僧祇	-12.1784
於諸三昧示現	-12.1784
以界道側	-12.1785
是沙門所為	-12.1786
無歸依者	-12.1787
金沙布地	-12.1788
作諸音樂	-12.1791
城南門	-12.1794
無有能脫此	-12.1794
唼	-12.1838
弑	-12.2698
擻	-12.2709
漚	-12.271
褻	-12.2712
傘	-12.2717
聯	-12.2718
椽	-12.272
炤	-12.2721
斵	-12.2723
𨽁	-12.2723
隷	-12.2725
煌	-12.2725
犲	-12.2725
霑	-12.2726
獺	-12.2726
樵	-12.2727
熬	-12.2727
昌	-12.2727
𤛆	-12.2727
壻	-12.2728
漁	-12.2729
穆	-12.273
史	-12.2732
埃	-12.2733
鬧	-12.2733
丸	-12.2733
塊	-12.2734
搔	-12.2734
縈	-12.2734
畔	-12.2735
稼	-12.2736
抴	-12.2736
鐶	-12.2737
怜	-12.2737
汲	-12.2737
瀑	-12.2737
劬	-12.2739
蘆	-12.2739
矇	-12.274
瞞	-12.2741
窈	-12.2741
湍	-12.2742
粘	-12.2743
瘖	-12.2743
𣧑	-12.2743
嘯	-12.2743
鑪	-12.2744
喫	-12.2744
昂	-12.2744
輞	-12.2744
壑	-12.2745
剖	-12.2745
詩	-12.2746
埀	-12.2747
棲	-12.2747
穽	-12.2747
陟	-12.2748
揩	-12.2749
頹	-12.2749
售	-12.2751
杓	-12.2751
挂	-12.2751
耘	-12.2751
惋	-12.2751
辟	-12.2753
髦	-12.2753
攪	-12.2754
珂	-12.2754
鞔	-12.2754
痒	-12.2755
磧	-12.2755
覿	-12.2755
閱	-12.2756
歟	-12.2756
溉	-12.276
狡	-12.2761
𣃆	-12.2762
埿	-12.2763
5	-12.2764
𣣋	-12.2766
熅	-12.2769
8	-12.277
􂍰	-12.2771
亮	-12.2772
埏	-12.2772
詶	-12.2776
墼	-12.3804
韑	-12.3813
吮	-12.3819
僉	-12.382
晉	-12.3821
牀	-12.3822
洒	-12.3826
臟	-12.3827
㛐	-12.3828
衍	-12.3829
旁	-12.3835
壺	-12.3835
謄	-12.3835
歛	-12.3835
巔	-12.3836
旛	-12.3837
磋	-12.3837
這	-12.3838
押	-12.3838
帚	-12.3838
槩	-12.3839
峰	-12.384
鍮	-12.3841
卦	-12.3841
卉	-12.3842
勃	-12.3843
確	-12.3844
髴	-12.3844
狩	-12.3844
朕	-12.3846
僮	-12.3847
寮	-12.3847
殯	-12.3848
濃	-12.3848
概	-12.3849
溷	-12.385
拽	-12.385
􂌶	-12.385
礫	-12.385
瓠	-12.3852
亢	-12.3852
爀	-12.3852
泊	-12.3854
謟	-12.3854
爽	-12.3855
匂	-12.3855
浩	-12.3855
皈	-12.3855
篇	-12.3855
瀉	-12.3856
耨	-12.3856
撞	-12.3856
鉗	-12.3857
鎻	-12.3857
秀	-12.3858
朴	-12.3858
濯	-12.3858
築	-12.3858
鬢	-12.3859
諷	-12.3859
漱	-12.3859
廉	-12.386
捍	-12.386
鼎	-12.3861
筌	-12.3862
鉞	-12.3862
艷	-12.3862
磔	-12.3862
轡	-12.3863
迄	-12.3863
甖	-12.3863
腨	-12.3863
膾	-12.3863
陂	-12.3863
鳧	-12.3863
扠	-12.3864
𡁠	-12.3864
諄	-12.3866
痊	-12.3866
惙	-12.3866
瞤	-12.3866
腕	-12.3868
峨	-12.387
弭	-12.3871
睫	-12.3871
抵	-12.3872
薨	-12.3874
課	-12.3875
鳳	-12.3876
疇	-12.3876
擘	-12.3878
惽	-12.3878
]	-12.3879
裘	-12.388
啞	-12.388
黿	-12.3881
齧	-12.3881
吁	-12.3883
[	-12.3885
儜	-12.3889
a	-12.3899
牸	-12.5047
迮	-12.5069
舂	-12.5071
耄	-12.5073
叩	-12.5076
轢	-12.5077
曄	-12.5078
薦	-12.5078
輭	-12.508
簸	-12.508
糖	-12.5081
鞠	-12.5081
釣	-12.5083
讁	-12.5084
郡	-12.5084
澓	-12.5086
忙	-12.5086
噓	-12.5086
倣	-12.5086
脹	-12.5088
疱	-12.5088
滑	-12.5089
斑	-12.5091
嬖	-12.5092
蹲	-12.5092
胝	-12.5093
采	-12.5094
堤	-12.5095
蔗	-12.5095
鍼	-12.5095
詎	-12.5096
箏	-12.5096
窶	-12.5096
忤	-12.5097
痰	-12.5097
脯	-12.5097
歔	-12.5097
痴	-12.5097
窠	-12.5097
宕	-12.5098
符	-12.5098
午	-12.5099
呞	-12.5099
瘢	-12.5099
股	-12.51
轅	-12.5101
夾	-12.5101
麵	-12.5101
粳	-12.5102
聳	-12.5102
峙	-12.5103
鑄	-12.5103
蟠	-12.5103
胄	-12.5103
穬	-12.5103
諱	-12.5103
傲	-12.5104
疣	-12.5104
駭	-12.5104
祗	-12.5105
凋	-12.5105
棺	-12.5106
豕	-12.5106
无	-12.5106
敦	-12.5106
鈔	-12.5106
稚	-12.5106
嘶	-12.5107
蠡	-12.5107
佇	-12.5108
妐	-12.5108
刮	-12.5108
酢	-12.511
嚇	-12.511
蛆	-12.511
蒱	-12.511
踴	-12.511
哽	-12.511
掁	-12.5111
鋑	-12.5111
悞	-12.5111
懊	-12.5111
侈	-12.5112
筒	-12.5113
蝮	-12.5113
嚬	-12.5114
壘	-12.5114
壙	-12.5115
詛	-12.5115
隅	-12.5115
冰	-12.5116
榜	-12.5116
撓	-12.5118
沮	-12.5118
顒	-12.512
杼	-12.512
氍	-12.512
駁	-12.5121
噤	-12.5121
夙	-12.5122
尫	-12.5123
樗	-12.5123
趁	-12.5128
癲	-12.513
抽	-12.5131
予	-12.5132
邸	-12.5133
0	-12.5134
暎	-12.5135
9	-12.5138
4	-12.5139
駢	-12.5139
裳	-12.6414
劉	-12.6474
藪	-12.6487
舜	-12.6488
敲	-12.649
瓜	-12.6501
壅	-12.6503
酤	-12.6506
瓢	-12.6507
姨	-12.6507
饉	-12.6508
烔	-12.6509
麼	-12.6509
核	-12.6509
遘	-12.6509
肪	-12.651
汪	-12.6511
剌	-12.6511
燎	-12.6512
銘	-12.6513
筩	-12.6513
倐	-12.6515
晏	-12.6515
疼	-12.6517
諳	-12.6518
鈷	-12.6521
𦾨	-12.6522
臍	-12.6523
戎	-12.6524
盟	-12.6525
鞅	-12.6525
仲	-12.6525
羖	-12.6526
嬾	-12.6526
呌	-12.6528
架	-12.6528
渾	-12.6528
榻	-12.6529
壹	-12.6529
腭	-12.653
癃	-12.6531
擭	-12.6531
呈	-12.6531
䓸	-12.6531
姹	-12.6531
捲	-12.6531
飜	-12.6532
噪	-12.6532
嚼	-12.6533
窰	-12.6533
詢	-12.6533
跱	-12.6534
彷	-12.6534
軻	-12.6534
插	-12.6535
綾	-12.6535
鍱	-12.6535
葩	-12.6535
郊	-12.6536
社	-12.6536
莎	-12.6536
眩	-12.6537
巾	-12.6537
懾	-12.6537
属	-12.6537
蔚	-12.6538
罝	-12.6538
措	-12.6539
浸	-12.6539
薗	-12.6539
鋡	-12.654
隍	-12.654
嬉	-12.654
䗍	-12.654
檻	-12.654
瘥	-12.6541
騃	-12.6542
𠲿	-12.6542
悖	-12.6543
熈	-12.6543
儵	-12.6544
噫	-12.6545
繖	-12.6545
曆	-12.6546
疹	-12.6546
拪	-12.6546
徉	-12.6546
疽	-12.6546
裨	-12.6546
坊	-12.6546
刪	-12.6547
獦	-12.6548
壃	-12.6548
摑	-12.6549
券	-12.6549
砂	-12.6549
苞	-12.655
茹	-12.6551
咨	-12.6551
󰦄	-12.6552
捫	-12.6554
猾	-12.6555
唎	-12.6555
咩	-12.6555
邈	-12.6555
璧	-12.6556
餝	-12.6556
蚤	-12.6557
虹	-12.6558
馥	-12.6559
楯	-12.6561
1	-12.6561
懵	-12.6564
跌	-12.6567
2	-12.6578
頤	-12.6579
釪	-12.8088
橘	-12.8154
禘	-12.8157
斟	-12.816
拙	-12.816
澌	-12.8164
呰	-12.8166
哺	-12.8166
錍	-12.8167
仆	-12.8167
糠	-12.817
臼	-12.817
躇	-12.817
咋	-12.8172
衲	-12.8172
竈	-12.8173
欬	-12.8174
凌	-12.8175
仂	-12.8175
坎	-12.8177
豚	-12.8177
疵	-12.8177
匱	-12.8178
貲	-12.8178
勦	-12.8178
謔	-12.8179
賙	-12.818
蹤	-12.818
幖	-12.8181
贍	-12.8182
䂎	-12.8182
疥	-12.8183
製	-12.8183
妍	-12.8183
釆	-12.8183
拇	-12.8183
鵲	-12.8184
𢜫	-12.8184
袖	-12.8184
崙	-12.8184
汙	-12.8185
搣	-12.8185
霖	-12.8185
鏤	-12.8186
踵	-12.8186
慄	-12.8187
靷	-12.8187
裔	-12.8188
倮	-12.8188
珞	-12.8189
協	-12.819
爇	-12.819
燧	-12.819
俠	-12.8191
爴	-12.8191
醎	-12.8192
踧	-12.8193
橛	-12.8194
臗	-12.8194
罕	-12.8195
𥇒	-12.8195
袒	-12.8195
劑	-12.8195
鏃	-12.8196
㶿	-12.8196
蒿	-12.8196
盆	-12.8196
驟	-12.8197
洛	-12.8197
摘	-12.8198
勁	-12.8198
晴	-12.8198
硨	-12.8199
髭	-12.8199
膿	-12.8201
訥	-12.8201
搜	-12.8202
褒	-12.8202
萠	-12.8203
繚	-12.8203
嶺	-12.8203
蟣	-12.8203
鏗	-12.8203
髆	-12.8203
珊	-12.8204
撩	-12.8204
串	-12.8204
痟	-12.8204
侮	-12.8204
枳	-12.8204
餚	-12.8205
匪	-12.8206
掖	-12.8206
騫	-12.8206
媒	-12.8207
遞	-12.8208
挊	-12.8208
桓	-12.8209
訣	-12.8209
昆	-12.8209
遑	-12.821
鬲	-12.821
㷿	-12.821
𠼝	-12.821
瑰	-12.821
潑	-12.821
尿	-12.8211
嗽	-12.8212
嘷	-12.8212
釵	-12.8212
鞦	-12.8213
竇	-12.8213
鬣	-12.8215
旌	-12.8215
罣	-12.8216
餔	-12.8216
岨	-12.8217
暝	-12.8218
憊	-12.8219
薝	-12.8219
惘	-12.8223
霸	-12.8223
謇	-12.8225
撗	-12.8225
冊	-12.8227
杌	-12.8228
姻	-12.8228
店	-12.8231
拖	-12.8233
孃	-12.8233
嗏	-12.8233
偝	-12.8237
羗	-12.8237
腥	-12.8239
韋	-12.824
僊	-12.8247
兀	-12.8258
茅	-12.9969
粧	-13.0128
蹠	-13.0142
簇	-13.0148
季	-13.015
樣	-13.0153
賂	-13.0154
勾	-13.0158
謚	-13.0158
沽	-13.0162
昊	-13.0162
棗	-13.0163
騷	-13.0164
盻	-13.0165
區	-13.0167
佃	-13.0168
竦	-13.0172
杳	-13.0173
堯	-13.0174
惔	-13.0176
噴	-13.0176
鬻	-13.0176
冲	-13.0177
吱	-13.0177
醼	-13.0177
柳	-13.0178
笳	-13.0179
兕	-13.0179
擢	-13.0181
觜	-13.0181
𨁟	-13.0181
梗	-13.0182
蹶	-13.0182
殮	-13.0182
嚚	-13.0183
霽	-13.0184
蹰	-13.0184
帀	-13.0184
蔑	-13.0184
䑛	-13.0185
㺃	-13.0185
憃	-13.0185
湎	-13.0185
膜	-13.0186
闢	-13.0187
帷	-13.0187
咏	-13.0187
府	-13.0188
闚	-13.0188
淋	-13.0188
偕	-13.0188
肇	-13.0188
括	-13.0188
皂	-13.0189
尖	-13.019
徼	-13.019
虻	-13.0191
慣	-13.0191
郁	-13.0191
擐	-13.0191
匙	-13.0193
鑛	-13.0193
譴	-13.0194
咳	-13.0194
翮	-13.0194
鸕	-13.0194
弃	-13.0195
蚩	-13.0195
倘	-13.0195
𦘕	-13.0195
恪	-13.0195
啑	-13.0196
絜	-13.0196
憧	-13.0196
懿	-13.0197
控	-13.0197
鰥	-13.0197
椒	-13.0197
焭	-13.0198
堓	-13.0198
潦	-13.0199
虞	-13.0199
嵗	-13.02
亞	-13.02
戌	-13.02
熒	-13.0201
胷	-13.0201
仕	-13.0201
臠	-13.0201
薜	-13.0201
鍛	-13.0201
閦	-13.0202
呬	-13.0202
績	-13.0202
廩	-13.0203
孟	-13.0204
笥	-13.0204
繪	-13.0204
嫂	-13.0204
囿	-13.0205
綏	-13.0205
膊	-13.0205
液	-13.0206
箱	-13.0207
嘲	-13.0207
鵰	-13.0208
礼	-13.0208
蚌	-13.0209
窣	-13.0209
灾	-13.0209
㝃	-13.021
捋	-13.021
牴	-13.021
ā	-13.0211
諠	-13.0211
蠟	-13.0212
毉	-13.0212
櫛	-13.0212
憺	-13.0212
僑	-13.0212
鄽	-13.0213
繕	-13.0214
蕭	-13.0214
蹀	-13.0214
程	-13.0215
攣	-13.0215
㲪	-13.0215
澗	-13.0216
槽	-13.0217
劓	-13.0218
趍	-13.0218
系	-13.0221
蹇	-13.0222
獎	-13.0222
嘖	-13.0222
蟄	-13.0222
瞙	-13.0223
𥌎	-13.0223
塘	-13.0224
𨶳	-13.0225
皓	-13.0226
蒔	-13.0227
倖	-13.0228
嚶	-13.0228
敞	-13.0228
曷	-13.0229
齩	-13.0229
献	-13.023
乙	-13.0233
𧯞	-13.0239
𧹞	-13.0244
収	-13.0249
柘	-13.025
稠	-13.2628
□	-13.2631
呦	-13.2645
拋	-13.2647
鶖	-13.2647
娘	-13.2649
碾	-13.2651
嬌	-13.2653
剉	-13.2658
厝	-13.2661
鞬	-13.2661
〕	-13.2662
讙	-13.2664
倪	-13.2664
咤	-13.2665
鴆	-13.2667
稷	-13.2667
斃	-13.2669
喉	-13.267
鞴	-13.2671
燄	-13.2671
葱	-13.2672
匡	-13.2672
𦦨	-13.2672
恰	-13.2674
谿	-13.2675
緯	-13.2675
翰	-13.2676
甦	-13.2676
嘿	-13.2677
确	-13.2678
蓆	-13.2678
款	-13.2679
黧	-13.2679
垤	-13.268
嚲	-13.268
殤	-13.2681
絳	-13.2682
姤	-13.2683
幕	-13.2683
芸	-13.2683
森	-13.2685
碧	-13.2685
穗	-13.2685
藻	-13.2685
磑	-13.2685
燦	-13.2686
笙	-13.2686
逋	-13.2686
葌	-13.2687
閇	-13.2687
闔	-13.2687
弼	-13.2687
噆	-13.2687
派	-13.2689
逡	-13.2689
刧	-13.2689
羆	-13.269
鋤	-13.2691
睞	-13.2691
篡	-13.2692
刷	-13.2692
纂	-13.2692
鋼	-13.2692
呿	-13.2693
瓌	-13.2693
罄	-13.2693
羶	-13.2693
垛	-13.2693
磬	-13.2693
䠒	-13.2694
趾	-13.2694
煢	-13.2694
觚	-13.2694
拈	-13.2694
䖍	-13.2694
膺	-13.2695
哮	-13.2695
搗	-13.2696
趂	-13.2696
煜	-13.2696
冑	-13.2696
訝	-13.2697
騣	-13.2697
棟	-13.2697
茇	-13.2698
蓽	-13.2698
邃	-13.2698
窗	-13.2698
裴	-13.2698
潭	-13.2698
􂌴	-13.2699
晧	-13.2699
竅	-13.27
瑋	-13.27
B	-13.2701
𥞑	-13.2701
儼	-13.2702
槌	-13.2703
摴	-13.2703
㖑	-13.2703
昳	-13.2703
恠	-13.2703
i	-13.2703
𢙉	-13.2704
摽	-13.2704
觧	-13.2704
揣	-13.2704
豺	-13.2705
圈	-13.2705
聘	-13.2705
巴	-13.2705
勌	-13.2707
沌	-13.2707
埳	-13.2707
䩛	-13.2707
釁	-13.2707
黮	-13.2707
猨	-13.2708
奸	-13.2708
澥	-13.2708
戹	-13.2708
嵩	-13.2709
泝	-13.271
瀝	-13.271
踖	-13.271
哂	-13.271
宥	-13.2711
蹴	-13.2711
勗	-13.2711
搘	-13.2712
緹	-13.2712
偟	-13.2714
氈	-13.2714
扈	-13.2714
轟	-13.2714
姪	-13.2714
寅	-13.2714
粉	-13.2715
剔	-13.2715
迨	-13.2715
謿	-13.2716
垖	-13.2717
瘠	-13.2718
芒	-13.2718
齓	-13.2719
瞇	-13.2719
瑳	-13.2721
鎔	-13.2721
啜	-13.2721
鏘	-13.2721
躑	-13.2722
輟	-13.2722
鐙	-13.2722
洸	-13.2723
羋	-13.2723
䩸	-13.2724
鞋	-13.2725
襞	-13.2725
蜎	-13.2726
蝎	-13.2726
𦟂	-13.2728
琉	-13.2729
󰝟	-13.273
喬	-13.2733
𥧌	-13.2734
潘	-13.2735
沼	-13.2736
軿	-13.2736
懶	-13.2746
虅	-13.2747
橖	-13.2748
𣚦	-13.2757
攔	-13.5894
甑	-13.5919
岌	-13.5931
挮	-13.5937
做	-13.5962
崎	-13.5965
莽	-13.5967
謦	-13.5969
呂	-13.5973
閃	-13.5977
糓	-13.5977
菽	-13.5979
綸	-13.5981
䰡	-13.5981
瑠	-13.5981
悌	-13.5981
顙	-13.5981
碓	-13.5983
朵	-13.5983
𧞣	-13.5983
呾	-13.5985
捻	-13.5987
蹌	-13.5987
醇	-13.5987
𠥶	-13.5988
盂	-13.599
醬	-13.599
螉	-13.599
刳	-13.599
竺	-13.599
俛	-13.5991
眵	-13.5992
蜒	-13.5992
𩲐	-13.5992
桑	-13.5994
闐	-13.5994
腑	-13.5994
笮	-13.5994
㛹	-13.5994
吔	-13.5994
鍬	-13.5996
搭	-13.5996
媟	-13.5996
钁	-13.5998
闌	-13.5998
岩	-13.6
焬	-13.6
戚	-13.6002
訧	-13.6002
松	-13.6002
凸	-13.6004
m	-13.6004
豔	-13.6004
〈	-13.6004
憔	-13.6006
僅	-13.6006
蒭	-13.6006
拗	-13.6006
覷	-13.6006
詆	-13.6006
〉	-13.6006
襤	-13.6006
踪	-13.6006
丐	-13.6006
𠢕	-13.6008
韜	-13.6008
g	-13.6009
痾	-13.601
督	-13.601
几	-13.601
挌	-13.601
煉	-13.601
懽	-13.601
踣	-13.601
膖	-13.6012
涱	-13.6012
鈸	-13.6012
剩	-13.6012
􂎏	-13.6012
樸	-13.6012
蒂	-13.6012
􁈿	-13.6012
璫	-13.6012
舡	-13.6014
諒	-13.6014
蘂	-13.6014
圃	-13.6014
穰	-13.6014
噵	-13.6014
纓	-13.6015
坼	-13.6015
讌	-13.6015
睆	-13.6016
蹟	-13.6016
尉	-13.6016
瓫	-13.6016
擅	-13.6017
尻	-13.6017
巍	-13.6017
擗	-13.6017
愽	-13.6017
憫	-13.6017
郗	-13.6017
餬	-13.6017
饋	-13.6017
梓	-13.6017
苷	-13.6019
姚	-13.6019
銖	-13.6019
𠆸	-13.6019
盪	-13.6019
漩	-13.6021
鬬	-13.6021
豬	-13.6021
祟	-13.6021
朔	-13.6022
藂	-13.6022
覊	-13.6023
診	-13.6023
霞	-13.6023
䆳	-13.6023
菅	-13.6023
喙	-13.6023
拼	-13.6023
熙	-13.6025
鼗	-13.6025
鶡	-13.6025
滂	-13.6025
􂍾	-13.6025
蔬	-13.6027
逵	-13.6027
唇	-13.6027
介	-13.6027
皦	-13.6027
䩙	-13.6027
羨	-13.6027
偉	-13.6029
炒	-13.6029
𡰱	-13.6029
胆	-13.6031
酌	-13.6031
輾	-13.6031
寞	-13.6032
咃	-13.6033
賽	-13.6033
璃	-13.6033
驂	-13.6033
㼜	-13.6033
𠶜	-13.6033
錞	-13.6033
􂎊	-13.6033
鷂	-13.6035
筭	-13.6035
禹	-13.6035
澈	-13.6036
緝	-13.6037
韛	-13.6037
𥥧	-13.6037
蓊	-13.6038
貽	-13.6039
嫩	-13.6039
徇	-13.6039
譁	-13.6039
迯	-13.6039
乹	-13.6039
痏	-13.6039
賄	-13.6039
卯	-13.604
攫	-13.6041
迂	-13.6041
閨	-13.6041
捩	-13.6041
幅	-13.6041
𠷐	-13.6041
揭	-13.6041
滲	-13.6041
頒	-13.6041
窺	-13.6041
誥	-13.6042
擴	-13.6042
絹	-13.6042
瘀	-13.6042
湏	-13.6043
燼	-13.6044
酉	-13.6044
輈	-13.6044
托	-13.6044
饗	-13.6044
署	-13.6044
恢	-13.6046
㝡	-13.6046
隈	-13.6046
伍	-13.6046
糾	-13.6047
玅	-13.6048
洹	-13.6049
憋	-13.605
犎	-13.605
噏	-13.605
𢍶	-13.605
醢	-13.6052
抧	-13.6052
祛	-13.6052
胞	-13.6053
璅	-13.6054
𪗾	-13.6054
𡱁	-13.6054
瘙	-13.6054
豁	-13.6058
凞	-13.6058
添	-13.6058
霔	-13.6058
酣	-13.6058
癭	-13.6058
衡	-13.6058
齲	-13.6058
丑	-13.6058
𣧩	-13.606
䛴	-13.606
綻	-13.606
憇	-13.606
驛	-13.6062
拓	-13.6062
䔮	-13.6062
俣	-13.6062
薑	-13.6064
枰	-13.6064
菀	-13.6064
媾	-13.6064
擿	-13.6064
賭	-13.6066
邠	-13.6066
抓	-13.6066
㵱	-13.6066
雛	-13.6066
𧜟	-13.6066
堰	-13.6068
鴨	-13.6068
葵	-13.607
剗	-13.6071
窖	-13.6071
h	-13.6073
􂌨	-13.6073
秪	-13.6075
皤	-13.6077
嘔	-13.6079
魯	-13.6079
t	-13.608
穫	-13.6085
癖	-13.6087
溟	-13.6096
脒	-13.6116
𧵵	-13.6123
嚥	-14.095
慺	-14.095
札	-14.095
勺	-14.0954
憨	-14.0954
兮	-14.0963
擩	-14.0963
殻	-14.0963
悽	-14.0966
毼	-14.0966
俞	-14.0969
恂	-14.0969
岑	-14.0972
慓	-14.0976
李	-14.0976
杏	-14.0976
宛	-14.0977
<	-14.0979
惷	-14.0979
攦	-14.0979
憾	-14.0979
栢	-14.0979
樑	-14.0982
娩	-14.0982
-	-14.0982
C	-14.0982
尒	-14.0983
挅	-14.0985
揃	-14.0988
挹	-14.0988
坋	-14.0988
㧧	-14.0988
咻	-14.0988
培	-14.0988
扸	-14.0988
椀	-14.0988
彥	-14.099
懍	-14.0991
凹	-14.0991
帊	-14.0991
擺	-14.0994
㷀	-14.0994
咒	-14.0994
慌	-14.0994
涯	-14.0997
䨍	-14.0998
嫰	-14.0998
旻	-14.0998
誹	-14.0999
庇	-14.1001
媛	-14.1001
廛	-14.1001
佷	-14.1004
蓏	-14.1005
嬴	-14.1007
攉	-14.1007
叶	-14.1007
圊	-14.1007
孾	-14.1007
璣	-14.1008
徨	-14.101
侻	-14.101
寓	-14.1011
忭	-14.1013
奠	-14.1013
㗘	-14.1013
惴	-14.1013
胃	-14.1016
撽	-14.1016
杪	-14.1017
埤	-14.102
堵	-14.102
匈	-14.102
桴	-14.102
伶	-14.1023
嫇	-14.1023
嫈	-14.1023
擏	-14.1023
蠲	-14.1025
幃	-14.1026
撝	-14.1026
倨	-14.1026
妒	-14.1026
筈	-14.1026
咆	-14.1026
悁	-14.1026
懟	-14.1026
懦	-14.1026
杇	-14.1026
泅	-14.1026
蠕	-14.1027
嵯	-14.1029
愶	-14.1029
侫	-14.1029
歧	-14.1029
娼	-14.1029
卸	-14.1029
宏	-14.1029
嶷	-14.1029
弛	-14.1029
扃	-14.1029
妷	-14.1031
俳	-14.1032
壬	-14.1032
喑	-14.1032
昴	-14.1032
劵	-14.1034
喝	-14.1035
嗒	-14.1035
刎	-14.1038
殀	-14.1038
槀	-14.1038
檐	-14.1038
侔	-14.1038
噬	-14.1039
曒	-14.1042
檝	-14.1045
挈	-14.1045
嶔	-14.1045
暄	-14.1045
莚	-14.1048
䂓	-14.1048
䴸	-14.1048
丳	-14.1048
坵	-14.1048
刓	-14.1051
卅	-14.1051
忩	-14.1051
僫	-14.1054
噦	-14.1054
幣	-14.1054
呱	-14.1057
俓	-14.1057
姜	-14.1057
檊	-14.1057
羼	-14.1059
鸞	-14.1059
騁	-14.106
氂	-14.106
搯	-14.1061
柵	-14.1061
n	-14.1062
廿	-14.1064
㪷	-14.1064
毦	-14.1064
刵	-14.1064
囂	-14.1067
埠	-14.1067
恇	-14.107
樞	-14.107
㯹	-14.1073
淤	-14.1075
䗈	-14.1076
倏	-14.1086
橕	-14.1086
罐	-14.1089
棠	-14.1089
抬	-14.1092
棹	-14.1095
沛	-15.0813
氳	-15.0814
毺	-15.0815
櫨	-15.0816
樚	-15.0817
桁	-15.0818
旒	-15.0819
擽	-15.082
搩	-15.0821
揥	-15.0822
挵	-15.0823
扼	-15.0824
扞	-15.0825
戇	-15.0826
懎	-15.0827
憿	-15.0828
憮	-15.0829
慷	-15.083
慉	-15.0831
愱	-15.0832
悷	-15.0833
廷	-15.0834
廝	-15.0835
帽	-15.0836
岠	-15.0837
孑	-15.0838
嫪	-15.0839
婪	-15.084
墎	-15.0841
嘻	-15.0842
咿	-15.0843
吽	-15.0844
叹	-15.0845
剄	-15.0846
凊	-15.0847
况	-15.0848
倿	-15.0849
丕	-15.085
䠱	-15.0851
䖟	-15.0852
䁯	-15.0853
㨗	-15.0854
y	-15.0855
r	-15.0856
>	-15.0857
𣰆	-15.0858
𣯾	-15.0859
𡶅	-15.086
𠃵	-15.0861
麓	-15.0862
鶹	-15.0863
馚	-15.0864
閼	-15.0865
鍵	-15.0866
逶	-15.0867
迤	-15.0868
跑	-15.0869
贊	-15.087
讇	-15.0871
蠍	-15.0872
蜺	-15.0873
蜯	-15.0874
蚋	-15.0875
蒺	-15.0876
葺	-15.0877
臧	-15.0878
胥	-15.0879
胑	-15.088
聒	-15.0881
彎	-15.0882
粆	-15.0882
碼	-15.0883
痤	-15.0884
畟	-15.0885
瑤	-15.0886
狄	-15.0887
湮	-15.0888
涪	-15.0889
泳	-15.089
汩	-15.0891
櫃	-15.0892
楹	-15.0893
桀	-15.0894
柩	-15.0895
擋	-15.0896
摒	-15.0897
憀	-15.0898
弝	-15.0899
庾	-15.09
庌	-15.0901
帑	-15.0902
婀	-15.0903
娜	-15.0904
墯	-15.0905
垜	-15.0906
噢	-15.0907
噈	-15.0908
喎	-15.0909
啻	-15.091
呴	-15.0911
卍	-15.0912
匾	-15.0913
佮	-15.0914
仿	-15.0915
丙	-15.0916
䔧	-15.0917
䍧	-15.0918
㽵	-15.0919
𪇔	-15.092
𪆗	-15.0921
𣹉	-15.0922
𣰅	-15.0923
饕	-15.0924
飴	-15.0925
靉	-15.0926
靆	-15.0927
鄭	-15.0928
郎	-15.0929
辮	-15.093
踟	-15.0931
謫	-15.0932
褓	-15.0933
蜇	-15.0934
葡	-15.0935
綬	-15.0936
礓	-15.0937
碁	-15.0938
痢	-15.0939
畋	-15.094
璞	-15.0941
櫁	-15.0942
棧	-15.0943
樊	-15.0943
梏	-15.0944
桎	-15.0945
曤	-15.0946
暐	-15.0947
揆	-15.0948
媵	-15.0949
奩	-15.095
墳	-15.0951
喟	-15.0952
唏	-15.0953
傑	-15.0954
俸	-15.0955
你	-15.0956
佑	-15.0957
㗚	-15.0958
舫	-15.0958
𪑓	-15.0959
𢤱	-15.096
魎	-15.0961
魍	-15.0962
顦	-15.0963
顇	-15.0964
苫	-15.0965
肴	-15.0966
穡	-15.0967
睦	-15.0968
玫	-15.0969
玔	-15.097
獅	-15.0971
牕	-15.0972
榰	-15.0973
榓	-15.0974
搪	-15.0975
揬	-15.0976
怵	-15.0977
忪	-15.0978
崑	-15.0979
寗	-15.098
姙	-15.0981
噠	-15.0982
咥	-15.0983
螻	-15.0983
凰	-15.0984
㓟	-15.0985
鶄	-15.0986
鵙	-15.0987
鵁	-15.0988
韀	-15.0989
詹	-15.099
痍	-15.0991
襁	-15.0991
裟	-15.0992
蟆	-15.0992
蕃	-15.0993
蓱	-15.0994
翱	-15.0995
翡	-15.0996
繹	-15.0997
粖	-15.0998
棚	-15.0999
齕	-15.1
搒	-15.1
嫜	-15.1001
夗	-15.1002
嗷	-15.1003
呹	-15.1004
鵂	-15.1005
髣	-15.1006
霆	-15.1007
踉	-15.1007
駱	-15.1007
蛟	-15.1008
萄	-15.1009
菉	-15.101
艾	-15.1011
縠	-15.1012
綫	-15.1013
瑪	-15.1014
琥	-15.1015
鄯	-15.1016
猘	-15.1016
氀	-15.1017
欷	-15.1018
槁	-15.1019
昞	-15.102
幘	-15.1021
圄	-15.1022
囹	-15.1023
緜	-15.1024
乂	-15.1024
黤	-15.1025
顰	-15.1026
腎	-15.1027
肖	-15.1028
琶	-15.1029
琵	-15.103
犛	-15.1031
綩	-15.1032
櫓	-15.1032
斾	-15.1033
惒	-15.1034
崗	-15.1035
埴	-15.1036
匍	-15.1037
驉	-15.1038
駏	-15.1039
䇿	-15.1039
邇	-15.104
訊	-15.104
賁	-15.1041
蟇	-15.1042
翊	-15.1043
窳	-15.1044
痿	-15.1045
构	-15.1046
抖	-15.1047
栗	-15.1048
嫗	-15.1048
鸛	-15.1049
楊	-15.105
宄	-15.1051
嚪	-15.1051
嘍	-15.1052
兢	-15.1053
麋	-15.1054
㖿	-15.1054
𤃗	-15.1055
鳶	-15.1056
鸜	-15.1056
躶	-15.1057
蠢	-15.1058
繽	-15.1059
甄	-15.106
殑	-15.1061
咷	-15.1062
絺	-15.1063
𡖦	-15.1064
皿	-15.1064
懌	-15.1065
惆	-15.1066
台	-15.1067
瀆	-15.1068
撕	-15.1069
貰	-15.107
瓈	-15.1071
餮	-15.1072
蝦	-15.1073
茵	-15.1074
麞	-15.1075
躄	-15.1076
港	-15.1077
嚀	-15.1078
閫	-15.1079
逍	-15.1079
蕀	-15.108
紜	-15.1081
杻	-15.1082
憲	-15.1083
慞	-15.1084
孜	-15.1085
醐	-15.1086
醍	-15.1087
昭	-15.1088
恍	-15.1089
坤	-15.109
徘	-15.1091
髑	-15.1092
髏	-15.1093
嚫	-15.1094
什	-15.1095
蔔	-15.1096
鷺	-15.1097
蓉	-15.1098
芙	-15.1099
珀	-15.11
洴	-15.1101
釐	-15.1102
臚	-15.1103
洋	-15.1104
+	-15.1105
紐	-15.1106
吳	-15.1107
怏	-15.1108
篌	-15.1109
箜	-15.111
鴛	-15.1111
昱	-15.1112
坦	-15.1113
琰	-15.1114
瑚	-15.1115
靂	-15.1116
癊	-15.1116
跏	-15.1117
瑙	-15.1118
蕉	-15.1119
芭	-15.112
詈	-15.1121
鸚	-15.1122
鵡	-15.1123
慇	-15.1124
潺	-15.1124
臾	-15.1125
忉	-15.1126
苾	-15.1127
獼	-15.1128
袈	-15.1129
—	-15.113
婇	-15.1131
藐	-15.1132
諛	-15.1132
