<unk>	0
<s>	0
</s>	0
。	-2.2167
,	-4.13484
者	-4.47926
也	-4.52527
故	-4.83651
為	-5.04734
▁	-5.08039
之	-5.08923
二	-5.20918
以	-5.23471
是	-5.25909
(	-5.30446
即	-5.3093
)	-5.32852
有	-5.36771
*	-5.46935
三	-5.47894
此	-5.48106
一	-5.50792
名	-5.53443
中	-5.53958
如	-5.575
而	-5.58674
於	-5.60084
不	-5.63322
若	-5.65204
言	-5.66408
下	-5.69428
無	-5.72165
法	-5.76211
等	-5.77101
。】「	-5.77433
說	-5.83882
心	-5.87903
則	-5.89863
佛	-5.91557
明	-5.92101
、	-5.93141
云	-5.94232
。」【	-5.94647
非	-5.99725
生	-6.00485
四	-6.01514
人	-6.02207
行	-6.03106
至	-6.05751
」	-6.05783
得	-6.0603
謂	-6.07564
其	-6.09796
又	-6.10676
今	-6.13549
初	-6.137
相	-6.13757
見	-6.13859
菩薩	-6.15385
大	-6.20964
義	-6.22506
亦	-6.27082
時	-6.27101
次	-6.27774
問	-6.27967
觀	-6.33785
從	-6.34382
因	-6.3592
與	-6.35932
經	-6.36232
自	-6.36906
通	-6.41424
皆	-6.41424
後	-6.41465
上	-6.42325
身	-6.44003
及	-6.46763
眾生	-6.47377
意	-6.47744
在	-6.4864
文	-6.49216
所	-6.49412
諸	-6.51262
「	-6.52268
答	-6.52755
事	-6.5301
五	-6.53283
即是	-6.5408
釋	-6.54094
本	-6.54179
教	-6.55229
前	-6.57045
入	-6.57484
出	-6.57574
用	-6.5823
我	-6.59195
巳	-6.59473
能	-6.59744
同	-6.59756
智	-6.62136
別	-6.63986
如來	-6.646
成	-6.65381
理	-6.65592
彼	-6.66306
知	-6.67446
論	-6.67772
果	-6.67981
道	-6.69572
作	-6.69724
性	-6.71593
應	-6.7175
既	-6.72055
修	-6.7241
一切	-6.73176
然	-6.73448
解	-6.73488
:	-6.74488
起	-6.74553
但	-6.74604
正	-6.7731
令	-6.7951
或	-6.79675
破	-6.79875
多	-6.80082
空	-6.80445
由	-6.80598
欲	-6.80935
雖	-6.81868
;	-6.81966
故云	-6.82212
具	-6.84538
定	-6.85739
耶	-6.8599
聞	-6.86391
顯	-6.86979
證	-6.87234
當	-6.88127
緣	-6.88304
合	-6.8917
善	-6.89258
實	-6.89368
體	-6.91741
處	-6.92004
曰	-6.92042
眾	-6.92153
常	-6.92886
譬	-6.92911
喻	-6.93635
妙	-6.94321
▁二	-6.94329
可	-6.95038
分	-6.95201
六	-6.95256
依	-6.95258
開	-6.95533
對	-6.95809
先	-6.96071
住	-6.96867
如是	-6.96931
。△	-6.97388
地	-6.98904
難	-7.00683
圓	-7.00715
受	-7.00958
乃	-7.01465
滅	-7.01621
約	-7.01749
耳	-7.03693
復	-7.03976
等者	-7.04251
小	-7.04828
門	-7.0537
方便	-7.06474
十	-7.08485
涅槃	-7.0851
記	-7.08547
名為	-7.08808
色	-7.09736
王	-7.10558
位	-7.11324
發	-7.12065
來	-7.12379
示	-7.13665
取	-7.13752
七	-7.14711
俱	-7.15524
立	-7.15629
淨	-7.1603
苦	-7.16131
境	-7.16142
二乘	-7.16538
子	-7.16594
未	-7.1754
離	-7.17944
師	-7.1829
斷	-7.19616
廣	-7.19904
異	-7.21149
乃至	-7.21274
所以	-7.21397
。「	-7.21708
唯	-7.21735
隨	-7.21939
真	-7.22099
現	-7.2214
不同	-7.22877
重	-7.22956
化	-7.23217
盡	-7.23779
天	-7.23883
識	-7.24177
八	-7.2604
方	-7.26331
念	-7.26579
信	-7.27107
引	-7.28062
何	-7.2912
矣	-7.29584
餘	-7.2985
諸佛	-7.30583
會	-7.31907
攝	-7.32264
外	-7.33439
總	-7.33515
功德	-7.3356
勝	-7.34047
無量	-7.34204
惡	-7.34698
已	-7.35318
是故	-7.35777
樂	-7.36218
法華	-7.36512
權	-7.36933
轉	-7.37555
業	-7.38063
指	-7.38342
》	-7.38394
求	-7.39864
第二	-7.40151
結	-7.40468
?	-7.41625
各	-7.42285
大乘	-7.42395
頌	-7.42798
他	-7.43158
必	-7.43245
力	-7.43354
深	-7.43483
略	-7.44375
須	-7.44641
慧	-7.46642
內	-7.46965
數	-7.47528
聲聞	-7.47986
機	-7.48338
更	-7.48384
疑	-7.4904
將	-7.49107
戒	-7.49279
無明	-7.49474
法身	-7.49555
《	-7.49628
字	-7.49885
】	-7.50386
世尊	-7.50679
品	-7.51658
除	-7.51929
德	-7.52385
便	-7.52599
止	-7.53062
分別	-7.53162
因緣	-7.53624
說法	-7.5404
執	-7.54094
煩惱	-7.54181
過	-7.54683
疏	-7.54756
去	-7.55724
語	-7.55752
九	-7.56063
不可	-7.56135
乘	-7.56179
汝	-7.56182
昔	-7.56627
舉	-7.56679
並	-7.56805
故名	-7.56939
持	-7.57198
具足	-7.57508
宗	-7.57541
世	-7.57891
稱	-7.58007
乎	-7.58059
請	-7.59648
惑	-7.59963
兩	-7.60019
故言	-7.6029
水	-7.6054
共	-7.61929
願	-7.62018
使	-7.62699
華	-7.62871
第三	-7.63024
表	-7.63348
失	-7.63475
屬	-7.64828
:「	-7.64874
不得	-7.65176
三昧	-7.65556
供養	-7.6576
聲	-7.66458
遠	-7.66685
且	-7.66961
覺	-7.67052
光	-7.67353
清淨	-7.67464
藏	-7.67747
▁初	-7.67797
捨	-7.68283
此經	-7.68312
云何	-7.68355
經云	-7.68595
次第	-7.69605
云云	-7.69672
種	-7.70003
聖	-7.70031
向	-7.70439
著	-7.70504
照	-7.70896
不知	-7.71164
況	-7.71329
益	-7.71344
禪	-7.7198
辨	-7.73513
解脫	-7.73869
第一	-7.74186
想	-7.74447
般若	-7.7451
物	-7.75362
因果	-7.75921
世間	-7.76059
度	-7.76208
不能	-7.76501
還	-7.76838
根	-7.7714
生死	-7.77245
利	-7.77627
報	-7.78263
實相	-7.78496
三乘	-7.78802
國	-7.78822
食	-7.79082
智慧	-7.7939
近	-7.79702
少	-7.79735
種種	-7.79881
施	-7.80366
迷	-7.81368
邪	-7.81669
病	-7.82308
障	-7.82315
法界	-7.8262
止觀	-7.82635
凡	-7.82665
爾時	-7.82666
故知	-7.83798
竟	-7.83829
安	-7.84182
假	-7.84228
山	-7.84417
悉	-7.85232
日	-7.8547
歎	-7.85577
極	-7.86115
動	-7.86119
寶	-7.87141
順	-7.87195
諸法	-7.88078
滿	-7.88555
始	-7.88677
足	-7.88816
就	-7.88934
學	-7.89654
劫	-7.90082
悟	-7.90152
漸	-7.90393
猶	-7.9094
權實	-7.91013
類	-7.91129
思	-7.9131
小乘	-7.91327
一乘	-7.91586
音	-7.92129
集	-7.92144
▁三	-7.92286
要	-7.93394
如此	-7.94176
長	-7.94566
忍	-7.94605
之義	-7.9472
遍	-7.94774
所謂	-7.95002
愛	-7.95753
土	-7.96197
居	-7.96264
火	-7.96961
高	-7.97256
之法	-7.9745
兼	-7.97692
無有	-7.97762
全	-7.978
香	-7.97862
判	-7.97879
斯	-7.97977
成就	-7.98947
尚	-7.99062
四句	-7.99916
豈	-8.00529
命	-8.00747
例	-8.00786
中道	-8.00853
究竟	-8.00965
似	-8.01455
何故	-8.01495
普	-8.01635
界	-8.01674
形	-8.01678
頓	-8.01682
迹	-8.01969
家	-8.02042
述	-8.0209
徧	-8.0276
偈	-8.03737
坐	-8.03743
直	-8.03786
歸	-8.03796
往	-8.03882
三千	-8.03944
夫	-8.04081
終	-8.05055
釋迦	-8.05517
計	-8.05796
僧	-8.05854
我等	-8.06514
息	-8.06641
造	-8.0738
二者	-8.074
句	-8.08438
菩提	-8.08653
成佛	-8.08949
華嚴	-8.08961
皆是	-8.08987
三界	-8.09246
喜	-8.09643
。○	-8.09781
當知	-8.10274
比丘	-8.10352
莊嚴	-8.10453
神	-8.11334
此云	-8.11717
父	-8.11726
流	-8.1177
法性	-8.11812
了	-8.11936
眼	-8.11986
第四	-8.12006
一者	-8.12093
佛性	-8.12133
被	-8.12602
世界	-8.12607
一心	-8.13622
偏	-8.14036
以為	-8.14041
情	-8.14143
俗	-8.14854
治	-8.14989
勸	-8.15253
又云	-8.15299
趣	-8.15388
主	-8.15505
無漏	-8.15652
一一	-8.16151
口	-8.16233
而不	-8.16365
凡夫	-8.16548
福	-8.17868
達	-8.18283
白	-8.18323
加	-8.18551
序	-8.19266
故曰	-8.19285
故也	-8.19375
歡喜	-8.19432
於此	-8.19594
城	-8.19628
傳	-8.2001
平等	-8.2007
之人	-8.206
習	-8.20856
!	-8.20971
死	-8.20992
此是	-8.21236
爾	-8.21498
進	-8.2231
自在	-8.22342
三諦	-8.22502
」,	-8.22638
一念	-8.2277
無生	-8.22824
獨	-8.23115
味	-8.23162
簡	-8.23528
不生	-8.23545
海	-8.23746
標	-8.23818
魔	-8.23821
風	-8.2409
文殊	-8.2437
領	-8.24417
三藏	-8.24844
十方	-8.25665
部	-8.25718
蓋	-8.25832
絕	-8.25881
退	-8.26039
是名	-8.26338
修行	-8.26783
。」【△	-8.26952
宜	-8.27218
亦不	-8.2725
到	-8.27392
佛法	-8.27629
周	-8.27765
車	-8.28253
罪	-8.28572
塵	-8.28746
感	-8.28913
密	-8.29198
別教	-8.29659
染	-8.29723
神通	-8.30042
下明	-8.303
亦名	-8.30788
雙	-8.31226
之相	-8.31579
彌勒	-8.31792
易	-8.31994
此中	-8.32307
真如	-8.32366
一切眾生	-8.33296
列	-8.33443
望	-8.33605
年	-8.34107
月	-8.34298
橫	-8.34367
反	-8.34433
親	-8.34437
久	-8.34917
斥	-8.35255
所說	-8.35342
設	-8.35359
弟子	-8.35731
慈悲	-8.35863
差別	-8.35912
授	-8.36318
無常	-8.36432
觀心	-8.36591
號	-8.36801
舍利弗	-8.36802
伏	-8.36944
據	-8.37132
衣	-8.37288
恐	-8.37372
慈	-8.37427
散	-8.37433
過去	-8.3756
變	-8.37816
邊	-8.38015
章	-8.38248
致	-8.38283
女	-8.38393
聽	-8.38414
法門	-8.38772
金	-8.38928
有二	-8.38961
切	-8.39009
許	-8.39369
授記	-8.39533
長者	-8.39708
妄	-8.3976
以此	-8.40007
四諦	-8.4004
亦是	-8.40143
待	-8.40474
之中	-8.40539
無上	-8.411
于	-8.41433
讚	-8.41474
好	-8.41486
百	-8.42108
目	-8.42225
陰	-8.42253
覆	-8.42443
存	-8.42634
阿難	-8.42813
發心	-8.42819
樹	-8.42849
尊	-8.42906
十二	-8.42927
支	-8.43079
齊	-8.43191
遂	-8.43349
人天	-8.43423
法師	-8.43597
大小	-8.44031
出家	-8.44172
不思議	-8.44178
增	-8.44265
外道	-8.44373
告	-8.4488
如何	-8.45272
三種	-8.4538
千	-8.46021
哉	-8.46075
禮	-8.46732
未來	-8.46981
歷	-8.47038
不見	-8.47075
鬼	-8.47091
圓教	-8.47652
亦有	-8.47698
生滅	-8.47771
莫	-8.47896
真實	-8.479
壞	-8.48274
經文	-8.48439
惟	-8.48488
敘	-8.48594
翻	-8.48788
護	-8.48906
何者	-8.49018
藥	-8.49397
之心	-8.49714
貪	-8.49732
諦	-8.49823
不定	-8.50095
備	-8.50142
卷	-8.50162
無相	-8.50273
不出	-8.50332
含	-8.5051
頭	-8.50776
甚	-8.50799
書	-8.50975
利益	-8.51022
故名為	-8.51053
尋	-8.51207
像	-8.51296
末	-8.51388
有三	-8.51409
蓮華	-8.51535
次明	-8.51845
精進	-8.52025
現在	-8.52262
之意	-8.52379
一句	-8.52457
無所	-8.52633
若有	-8.5308
仍	-8.53373
思惟	-8.53401
壽	-8.53981
手	-8.54052
可知	-8.54082
舊	-8.54289
不動	-8.54899
吾	-8.55009
半	-8.55315
只	-8.55368
玅	-8.55381
光明	-8.55483
四教	-8.55548
收	-8.55719
興	-8.55826
諸天	-8.5587
觸	-8.55998
之所	-8.56711
譬如	-8.56806
并	-8.56935
麤	-8.57146
雨	-8.57348
科	-8.57361
第五	-8.5739
▁一	-8.57843
大眾	-8.57967
一切法	-8.58296
咸	-8.58429
輪	-8.58607
妙法	-8.58685
不二	-8.58798
行者	-8.58884
下釋	-8.58941
.	-8.58963
座	-8.59764
今經	-8.60643
內外	-8.60657
助	-8.60744
眷屬	-8.60781
塔	-8.60875
迦葉	-8.61042
玄	-8.61244
汝等	-8.61273
焉	-8.61592
十地	-8.61701
善根	-8.61701
諸菩薩	-8.61763
輕	-8.61821
龍	-8.62261
是則	-8.62313
接	-8.62571
四眾	-8.62677
細	-8.62869
長行	-8.63106
墮	-8.63139
中間	-8.63333
羅	-8.63387
通教	-8.63414
論云	-8.63503
流通	-8.63657
雜	-8.63721
寂	-8.6376
敬	-8.64042
珠	-8.648
今日	-8.6488
而為	-8.65
自他	-8.65448
元	-8.65899
欲界	-8.65973
害	-8.65979
萬	-8.66064
今文	-8.66137
▁四	-8.66165
乃是	-8.66198
相應	-8.66206
亡	-8.66353
各有	-8.66887
脫	-8.67195
羅漢	-8.67248
量	-8.67383
雲	-8.67409
誰	-8.67876
違	-8.6807
彰	-8.68302
本迹	-8.68315
自行	-8.68666
融	-8.69038
微	-8.6919
如前	-8.69283
身子	-8.69417
縱	-8.69676
出世	-8.69878
專	-8.69899
十界	-8.70024
推	-8.70195
若不	-8.70341
之事	-8.7036
準	-8.70465
前後	-8.70484
廢	-8.70526
地獄	-8.70534
始終	-8.70564
劣	-8.70713
註	-8.70898
根本	-8.71053
無礙	-8.71112
三觀	-8.71164
三世	-8.71177
却	-8.71208
甚深	-8.71345
名之為	-8.71521
奉	-8.71547
二種	-8.71659
國土	-8.71755
超	-8.71902
五百	-8.72158
古	-8.72291
亦無	-8.72385
聞法	-8.72576
功	-8.72596
遇	-8.72738
大經	-8.73081
那	-8.73132
悲	-8.73196
比	-8.73214
是也	-8.73494
中有	-8.73849
之言	-8.74438
大論	-8.7456
示現	-8.74725
正明	-8.74921
)。】「	-8.75213
之理	-8.75227
葢	-8.75509
母	-8.7553
之文	-8.75556
三德	-8.75562
隱	-8.75739
阿	-8.75805
常住	-8.75971
之時	-8.76154
不可思議	-8.76254
陳	-8.76307
豈非	-8.76659
方等	-8.76853
亦爾	-8.76957
草	-8.76964
獲	-8.76972
化他	-8.77109
二初	-8.77196
遮	-8.77409
殊	-8.7753
冥	-8.77769
復有	-8.77797
旨	-8.77908
文云	-8.77936
節	-8.77972
最	-8.78048
為說	-8.78195
所有	-8.78203
木	-8.7822
果報	-8.78517
無不	-8.78541
強	-8.78638
虗空	-8.78703
第六	-8.79125
窮	-8.79352
毀	-8.79409
亦如是	-8.79474
事理	-8.79507
不退	-8.79631
六度	-8.80269
虗	-8.80344
不說	-8.80432
三者	-8.80498
談	-8.80591
夜	-8.8064
觀音	-8.80652
運	-8.80715
首	-8.80842
不應	-8.81282
器	-8.81761
決定	-8.82031
今此	-8.82084
大師	-8.82107
癡	-8.82238
對治	-8.82354
舍	-8.82395
無作	-8.82443
遣	-8.82745
。」【○	-8.82831
初明	-8.82853
一人	-8.8288
救	-8.82902
佛道	-8.83
所以者何	-8.83003
諸子	-8.83004
受持	-8.83088
境界	-8.84249
其義	-8.84271
不淨	-8.84295
間	-8.84445
一時	-8.84538
○	-8.84545
詮	-8.84778
〉	-8.84909
十六	-8.84971
寂滅	-8.85033
曾	-8.85207
決	-8.85422
印	-8.85476
二諦	-8.85771
名字	-8.86363
不信	-8.8653
是為	-8.86662
但是	-8.86727
互	-8.86848
雖有	-8.87359
公	-8.87463
寄	-8.87602
禪定	-8.87829
經言	-8.88021
此文	-8.88088
大品	-8.8854
此即	-8.886
象	-8.88888
亦復如是	-8.88967
得道	-8.89006
及以	-8.89116
提	-8.89157
沙門	-8.89196
善惡	-8.89212
三法	-8.89227
志	-8.89298
而巳	-8.89436
單	-8.89538
勿	-8.89562
下結	-8.89571
五陰	-8.89579
慢	-8.89671
宣	-8.89821
美	-8.89886
種子	-8.9002
供	-8.90108
滅度	-8.9017
毒	-8.90187
四種	-8.90236
贊曰	-8.90527
皆有	-8.90767
弘	-8.91244
初心	-8.91378
義也	-8.91392
財	-8.91468
故以	-8.91844
有漏	-8.92003
二頌	-8.92021
諸經	-8.92064
經中	-8.9229
疾	-8.92344
申	-8.92361
精	-8.92533
謂之	-8.92933
邪見	-8.92987
資	-8.93106
置	-8.93331
和	-8.93345
若爾	-8.93414
此則	-8.9365
面	-8.9383
恒	-8.94028
二義	-8.94259
唱	-8.94308
路	-8.94311
信解	-8.94324
之名	-8.94326
夢	-8.94451
惱	-8.9454
初住	-8.94545
故不	-8.94549
固	-8.94553
氣	-8.94567
棄	-8.94654
嚴	-8.94789
今謂	-8.94967
開顯	-8.95005
謗	-8.95141
次釋	-8.95345
永	-8.95399
速	-8.95516
畢	-8.95564
制	-8.95587
摩	-8.95669
輔行	-8.95713
猶如	-8.9579
能生	-8.95857
新	-8.96073
真諦	-8.96105
自然	-8.96212
有四	-8.96234
熟	-8.96265
懷	-8.96409
辯	-8.96411
西	-8.96443
徒	-8.96467
東	-8.96564
文句	-8.96664
能所	-8.96709
天台	-8.96888
老	-8.96911
妙音	-8.9696
差	-8.97048
初地	-8.97081
〈	-8.97146
佛言	-8.97204
聚	-8.97238
索	-8.97269
正法	-8.97303
石	-8.97322
脩	-8.97371
瑞	-8.97522
梵	-8.9755
具如	-8.97664
所見	-8.97715
陀	-8.97737
寺	-8.97814
消	-8.98047
第十	-8.98132
文中	-8.98154
忘	-8.98211
亂	-8.98223
見佛	-8.98342
改	-8.9873
宿	-8.98833
第一義	-8.9895
大悲	-8.99141
而說	-8.99221
藥王	-8.99227
增長	-8.9926
隨喜	-8.99355
作佛	-8.99383
損	-8.99473
誡	-8.995
壽命	-8.99549
牛	-8.99972
賢	-8.99988
此二	-9.0004
熏	-9.00135
林	-9.00155
縛	-9.00237
讀	-9.00267
見思	-9.00493
答曰	-9.00518
契	-9.00574
教化	-9.00673
遊	-9.0071
為體	-9.00762
頂	-9.00812
誓	-9.00835
何以故	-9.00896
亦可	-9.00903
付	-9.01097
乳	-9.01235
疏云	-9.0141
譯	-9.01503
巧	-9.01651
是人	-9.01707
故有	-9.01809
沒	-9.01891
平	-9.02121
得名	-9.02178
亦云	-9.02201
然後	-9.02288
於中	-9.02315
緣覺	-9.02351
不可得	-9.02406
應知	-9.0268
不受	-9.02705
暗	-9.02722
淨土	-9.02887
中云	-9.03306
講	-9.03409
承	-9.03458
堅	-9.03528
犯	-9.03596
逆	-9.03604
注	-9.03619
盛	-9.04017
神力	-9.04051
繫	-9.0412
都	-9.04198
清	-9.04249
濁	-9.04331
調	-9.04367
我今	-9.04507
者謂	-9.0454
淺	-9.04572
頌上	-9.04699
何以	-9.04955
六根	-9.05069
能知	-9.05559
借	-9.0587
河	-9.05918
聖人	-9.06024
問答	-9.06034
有情	-9.0632
四門	-9.06387
闕	-9.0639
今明	-9.06512
段	-9.06589
陀羅尼	-9.06653
亦應	-9.06656
婆	-9.06781
儀	-9.06838
垂	-9.06993
誦	-9.071
弘經	-9.07101
帝	-9.07377
無為	-9.07847
無非	-9.07859
三業	-9.07888
知見	-9.07889
二十	-9.07949
服	-9.07981
四明	-9.07997
帶	-9.08149
第七	-9.08227
亦然	-9.08256
南	-9.08452
故須	-9.08454
波	-9.0855
下文	-9.08692
譬喻	-9.08712
此義	-9.08842
悔	-9.08848
成道	-9.08925
瞋	-9.08966
智者	-9.09012
誠	-9.0922
而言	-9.09439
減	-9.09447
傍	-9.0945
阿羅漢	-9.09694
普賢	-9.09872
勤	-9.0996
。【	-9.10009
二明	-9.10171
短	-9.10316
詳	-9.10507
背	-9.1053
放	-9.10644
堂	-9.10649
自性	-9.10693
無數	-9.10874
金剛	-9.10888
若言	-9.10956
於是	-9.11402
天人	-9.11506
文殊師利	-9.11543
修習	-9.11596
空中	-9.11694
律	-9.11788
竪	-9.11824
乖	-9.11846
此品	-9.11853
行人	-9.12119
問曰	-9.12155
不離	-9.12456
鳥	-9.12513
之道	-9.12589
二句	-9.12646
安樂	-9.12687
交	-9.12704
靜	-9.12785
稟	-9.12794
通別	-9.12835
而有	-9.12979
三身	-9.12999
愚	-9.13109
父母	-9.13262
【□	-9.13439
無邊	-9.1352
依正	-9.13551
妨	-9.13566
色心	-9.13579
倒	-9.13666
特	-9.13891
蒙	-9.13892
穢	-9.13916
此明	-9.13985
諸眾生	-9.14478
一切智	-9.14543
三教	-9.14578
現前	-9.14714
復次	-9.15116
導	-9.15385
則有	-9.15408
善男子	-9.15534
五品	-9.15541
拔	-9.15582
無學	-9.15606
曲	-9.15651
放光	-9.15672
解釋	-9.15797
此三	-9.15872
法輪	-9.1588
有無	-9.15931
隔	-9.16031
此土	-9.16064
呪	-9.16073
壽量	-9.16405
若以	-9.16581
一法	-9.16614
則無	-9.1681
何得	-9.16814
皆悉	-9.16889
患	-9.17067
三寶	-9.17226
所言	-9.17286
訖	-9.1734
相似	-9.17516
怨	-9.17845
領解	-9.18063
為一	-9.18254
不異	-9.18438
馬	-9.18541
多寶	-9.1889
此下	-9.18997
但以	-9.19355
道場	-9.19615
謬	-9.19708
委	-9.1976
姓	-9.19762
殺	-9.198
擬	-9.19925
該	-9.20255
燒	-9.20288
所得	-9.20302
」【	-9.20305
之說	-9.20362
所化	-9.20379
約教	-9.20431
實智	-9.20516
之處	-9.20558
不住	-9.20577
化城	-9.20689
祖	-9.20711
不斷	-9.20761
揀	-9.21064
況復	-9.21106
觀行	-9.21136
留	-9.2133
責	-9.21391
此乃	-9.21392
佛說	-9.21529
名曰	-9.21856
而無	-9.21908
不然	-9.22087
三句	-9.22262
麁	-9.22351
影	-9.22444
佛所	-9.22509
法華經	-9.22558
十八	-9.22612
濟	-9.2268
點	-9.2274
六道	-9.22758
再	-9.22786
今初	-9.23138
不須	-9.23185
初禪	-9.23285
本無	-9.23299
准	-9.23497
讀誦	-9.23522
肉	-9.23529
憂	-9.23554
瓔珞	-9.23706
所生	-9.23823
靈	-9.23868
意也	-9.23904
念處	-9.23928
題	-9.23967
)(	-9.24173
純	-9.24254
寧	-9.24276
其人	-9.24284
未得	-9.24298
第八	-9.24433
不可說	-9.24495
顛倒	-9.24818
舍利	-9.24819
和合	-9.24895
何況	-9.24913
容	-9.25176
分身	-9.25184
婆羅門	-9.25191
男	-9.25226
若無	-9.2526
淨名	-9.25286
北	-9.25292
結緣	-9.25378
菩薩摩訶薩	-9.25496
室	-9.25556
而生	-9.25667
▁初明	-9.25669
十一	-9.25673
佛果	-9.25763
由此	-9.25871
之後	-9.25979
其心	-9.2604
十住	-9.26103
既云	-9.26244
辭	-9.26382
不滅	-9.26525
畢竟	-9.26554
值	-9.26576
分二	-9.26635
守	-9.26792
以明	-9.26904
此之	-9.26924
黑	-9.27037
詣	-9.27089
如來藏	-9.27109
補	-9.2723
不起	-9.2726
同異	-9.27279
應身	-9.27363
二智	-9.27477
鏡	-9.27496
不為	-9.27584
初文	-9.27864
苦集	-9.27922
宅	-9.28075
方便品	-9.28246
如是等	-9.28253
覩	-9.28325
演	-9.28465
根性	-9.28515
仰	-9.28561
報身	-9.28597
為因	-9.28612
鈍	-9.28622
法中	-9.28697
期	-9.28708
忽	-9.29
九界	-9.29026
之力	-9.29191
所依	-9.29251
歲	-9.29317
妙覺	-9.29391
十信	-9.2941
附	-9.29445
落	-9.29456
言之	-9.29526
安隱	-9.29526
各各	-9.2958
五欲	-9.29593
降	-9.29596
可見	-9.29615
十二因緣	-9.29672
垢	-9.29761
有人	-9.29829
視	-9.29852
無我	-9.29924
應云	-9.30245
令其	-9.30323
漏	-9.30329
十種	-9.30403
只是	-9.30502
際	-9.30651
定慧	-9.30782
局	-9.30831
顯實	-9.30939
亦非	-9.31084
二邊	-9.3133
恩	-9.31397
牒	-9.31487
音聲	-9.31539
等覺	-9.316
不識	-9.31613
得記	-9.317
七寶	-9.31701
隨順	-9.31821
一切種智	-9.31875
所證	-9.31977
入定	-9.31991
適	-9.32222
彌	-9.32316
熱	-9.32342
別圓	-9.32478
經論	-9.32777
四禪	-9.32908
道品	-9.32972
▁○	-9.3321
廣說	-9.33214
三明	-9.33318
不覺	-9.33333
此法	-9.33347
一實	-9.3335
但有	-9.33371
懺	-9.3339
但云	-9.33448
沙	-9.33453
者即	-9.33542
所作	-9.33629
持經	-9.33683
持戒	-9.33808
總結	-9.33917
潤	-9.33957
隨緣	-9.33961
登	-9.33973
佛界	-9.3412
恭敬	-9.34123
否	-9.34252
之體	-9.34356
故得	-9.34418
自有	-9.34525
一向	-9.34614
法者	-9.34618
如文	-9.34619
十五	-9.34684
利根	-9.34696
又復	-9.34719
阿含	-9.34788
修道	-9.34839
闇	-9.35057
勢	-9.35066
料簡	-9.35143
是時	-9.35559
若人	-9.3563
蔽	-9.35762
迦	-9.35907
無異	-9.3592
至於	-9.36078
有所	-9.36092
為三	-9.36115
五濁	-9.36175
為二	-9.36296
記云	-9.36344
而得	-9.36434
無色	-9.36441
之行	-9.36715
相續	-9.36758
宮	-9.36883
色界	-9.36912
雖復	-9.37071
然此	-9.37109
錄	-9.37116
令得	-9.37119
法也	-9.3712
懺悔	-9.37185
圓滿	-9.37201
最後	-9.37249
端	-9.37424
感應	-9.37451
鼻	-9.37551
巳上	-9.37573
不聞	-9.37693
質	-9.37725
地前	-9.37754
無盡	-9.3777
源	-9.37818
誓願	-9.38121
一行	-9.38276
三義	-9.38396
無別	-9.38498
圓融	-9.38515
無畏	-9.3853
上下	-9.38552
初二	-9.38668
曉	-9.38737
五種	-9.38809
法說	-9.38831
十四	-9.39098
演說	-9.39154
得益	-9.3924
開權	-9.39431
任運	-9.3945
緣起	-9.39455
法相	-9.39467
導師	-9.39563
諸教	-9.3961
而起	-9.39647
,「	-9.39846
假名	-9.39912
故今	-9.40006
百千	-9.40183
一往	-9.4031
胎	-9.4033
醍醐	-9.40342
相即	-9.40707
爾時世尊	-9.40745
正是	-9.40801
釋云	-9.40855
四大	-9.40874
太	-9.4093
有二種	-9.40971
發菩提心	-9.41166
即空	-9.41227
第九	-9.41227
彼佛	-9.41302
佛眼	-9.41439
可以	-9.41464
厭	-9.41494
權智	-9.41563
轉法輪	-9.41656
界外	-9.41715
薄	-9.41772
亦如	-9.41834
三毒	-9.41854
無情	-9.42097
不解	-9.42294
種性	-9.42296
或云	-9.42332
廣大	-9.42464
不言	-9.42474
,《	-9.42518
四者	-9.42577
十法	-9.42625
得果	-9.42667
召	-9.42734
念念	-9.4302
所明	-9.43033
青	-9.43067
微妙	-9.4323
?」	-9.43335
亦得	-9.43375
先明	-9.43424
何不	-9.43549
不虗	-9.43621
泯	-9.43635
倍	-9.43666
道理	-9.43711
其所	-9.4376
以顯	-9.43814
怖	-9.43849
默	-9.43901
有五	-9.43935
為本	-9.43956
賜	-9.43976
既是	-9.44046
貴	-9.44047
有一	-9.44083
若約	-9.44093
載	-9.44207
體用	-9.44207
如彼	-9.4428
前三	-9.44304
傷	-9.44335
▁五	-9.44388
悉皆	-9.44538
呼	-9.44554
本來	-9.44589
則不	-9.44606
積	-9.44665
四悉	-9.44689
大法	-9.44723
此人	-9.44738
悅	-9.44781
佛身	-9.44828
賊	-9.44876
相對	-9.44996
最初	-9.45042
其實	-9.45063
應以	-9.45216
三周	-9.45262
礙	-9.45399
代	-9.45408
舌	-9.45413
增上慢	-9.4542
鹿苑	-9.45552
性德	-9.45578
布	-9.45695
無量無邊	-9.45698
士	-9.45811
希有	-9.45848
唯有	-9.4587
揚	-9.45909
此約	-9.46013
奪	-9.46143
塞	-9.46163
此意	-9.46163
之本	-9.46451
心性	-9.4646
妙法蓮華經	-9.46486
五味	-9.46697
無間	-9.46703
驚	-9.46716
今言	-9.46764
不取	-9.4679
尼	-9.46809
二字	-9.46819
慮	-9.46932
骨	-9.47385
之教	-9.4746
若能	-9.47532
故說	-9.47537
池	-9.47549
軌	-9.4755
為人	-9.47589
梵行	-9.47615
移	-9.47752
能破	-9.47861
本有	-9.47896
訓	-9.47897
典	-9.47914
理性	-9.47945
師子	-9.48139
結成	-9.48239
久遠	-9.48262
凡聖	-9.4839
黃	-9.48447
大士	-9.48475
入涅槃	-9.4856
仁	-9.48709
無復	-9.48714
臣	-9.48746
八萬	-9.48793
不及	-9.48805
女人	-9.48976
大意	-9.49003
幻	-9.49007
四念處	-9.49056
則為	-9.49069
稍	-9.4916
淨心	-9.4925
越	-9.49276
州	-9.493
鈍根	-9.49332
一家	-9.49349
剎那	-9.4937
無性	-9.49399
智斷	-9.49435
何等	-9.49482
任	-9.49495
般	-9.49519
昔日	-9.49542
無量義	-9.49549
無二	-9.49642
佛子	-9.49697
在於	-9.49723
通達	-9.49813
配	-9.49847
不復	-9.49927
觀法	-9.49961
並是	-9.49994
群	-9.50107
急	-9.50146
防	-9.50152
途	-9.50198
不成	-9.50201
正因	-9.50332
其中	-9.50568
合上	-9.50686
大車	-9.507
己	-9.50706
十法界	-9.50709
日月	-9.50732
累	-9.50741
有此	-9.50794
安樂行	-9.50831
不失	-9.50935
皆名	-9.50988
非是	-9.51086
立名	-9.51123
堪	-9.5119
開合	-9.51201
所詮	-9.51206
意者	-9.514
免	-9.51417
燈	-9.51448
修觀	-9.51508
總別	-9.51521
其意	-9.5154
於佛	-9.51543
圓頓	-9.51563
堅固	-9.51641
發願	-9.51658
遺	-9.51858
處處	-9.521
窮子	-9.52123
多少	-9.52126
若依	-9.52189
虛空	-9.52205
斷惑	-9.52298
身心	-9.52358
畏	-9.52437
有異	-9.52508
善法	-9.5254
於彼	-9.52577
虛	-9.52579
暫	-9.5258
涉	-9.5265
住持	-9.52697
或有	-9.52765
貪欲	-9.52797
王子	-9.52798
幾	-9.52919
何所	-9.53058
驗	-9.53078
玄文	-9.53082
迴	-9.53179
底	-9.53192
皆得	-9.53276
界內	-9.53367
境智	-9.53384
學者	-9.53535
豈可	-9.5354
大涅槃	-9.53632
幽	-9.53818
見道	-9.5383
徹	-9.5404
。」【【■	-9.54105
東方	-9.54297
則是	-9.54312
名義	-9.54329
因中	-9.54664
梵王	-9.54673
分明	-9.54733
濫	-9.5484
滅後	-9.54876
利鈍	-9.54971
三十	-9.55144
發起	-9.5519
正說	-9.55389
波羅蜜	-9.55435
養	-9.55499
怖畏	-9.55535
私	-9.55653
預	-9.55776
又二	-9.55846
朝	-9.55865
若論	-9.5616
教門	-9.56442
之身	-9.56472
的	-9.56737
折	-9.56747
以其	-9.56752
開權顯實	-9.56886
釋名	-9.56972
一品	-9.57022
尊者	-9.57173
福德	-9.57234
懸	-9.57311
今以	-9.57313
。」【(	-9.57477
是法	-9.57523
伹	-9.57554
須知	-9.57561
而說偈言	-9.57702
必須	-9.57793
臨	-9.57889
親近	-9.57899
八萬四千	-9.57931
釋迦牟尼佛	-9.57944
大經云	-9.57982
彼經	-9.58061
及諸	-9.58085
火宅	-9.58246
住於	-9.58273
藉	-9.58379
支佛	-9.58479
追	-9.58803
之因	-9.58844
他方	-9.58898
變易	-9.58919
五時	-9.58931
威儀	-9.58985
之性	-9.59045
每	-9.59133
:『	-9.59195
文字	-9.59288
迹門	-9.59293
本門	-9.59315
則知	-9.59398
良	-9.59482
諸比丘	-9.59497
輔行云	-9.59533
染淨	-9.59545
田	-9.59585
有十	-9.59594
功能	-9.59628
諸文	-9.59656
此等	-9.59714
即以	-9.59749
葉	-9.59859
佛告	-9.599
不盡	-9.59921
四行	-9.59972
之機	-9.59992
泥	-9.60077
謝	-9.60082
所行	-9.60112
如上	-9.60132
億	-9.60216
利他	-9.60245
男女	-9.60245
人也	-9.6026
星	-9.60282
原	-9.60284
仙	-9.60405
辟支佛	-9.60417
當體	-9.60581
性相	-9.6063
之由	-9.60648
必有	-9.6066
惡業	-9.60701
善知識	-9.6071
人中	-9.6075
佛智	-9.60771
是菩薩	-9.6083
生身	-9.60894
不輕	-9.60913
欣	-9.60947
應作	-9.61106
之用	-9.61235
意在	-9.61299
布施	-9.61398
最勝	-9.61473
富	-9.61494
破無明	-9.61605
行相	-9.61727
秦	-9.61876
是事	-9.61969
析	-9.62102
是經	-9.62194
故此	-9.62357
天下	-9.62374
修性	-9.62376
民	-9.62451
天子	-9.62481
若欲	-9.6254
佛乘	-9.62596
是以	-9.62687
無始	-9.62692
世人	-9.62718
為實	-9.62814
豎	-9.62827
安住	-9.62882
統	-9.6314
以下	-9.63163
託	-9.63199
漸頓	-9.63247
合掌	-9.63256
此四	-9.63418
寶塔	-9.63483
塵沙	-9.63523
豈不	-9.63613
今佛	-9.63732
鉢	-9.6374
分段	-9.63779
唐	-9.63814
讚歎	-9.63849
不了	-9.63924
化身	-9.63998
不相	-9.64075
未曾	-9.6424
七日	-9.64253
疏主	-9.64283
。】△	-9.64321
二人	-9.6456
皆以	-9.64622
意識	-9.64637
既有	-9.64684
扶	-9.64686
忍辱	-9.64735
不善	-9.64762
付囑	-9.64781
得入	-9.648
是佛	-9.64953
貫	-9.65061
張	-9.65196
天眼	-9.653
氏	-9.65326
疎	-9.654
餘經	-9.65662
不名	-9.65736
一切諸法	-9.65869
文義	-9.66021
其身	-9.66057
淺深	-9.66182
初標	-9.66246
稱歎	-9.66281
一偈	-9.66327
遠離	-9.66359
毛	-9.66368
開示	-9.66405
佛慧	-9.6641
相好	-9.66558
毗	-9.66594
按	-9.66645
故稱	-9.66704
緣了	-9.66711
寂光	-9.67005
苦諦	-9.67167
八地	-9.67206
四法	-9.67281
千二百	-9.67301
人法	-9.67408
法王	-9.67415
亦復	-9.67425
酪	-9.67446
上來	-9.67467
二釋	-9.67557
剎	-9.67607
唯一	-9.6763
娑婆	-9.67736
盲	-9.67756
總持	-9.67843
引證	-9.67861
所知	-9.6791
二乘人	-9.67911
皆為	-9.67958
之旨	-9.68128
關	-9.68151
得聞	-9.6818
一種	-9.68297
於諸	-9.6832
由是	-9.68541
擊	-9.68556
苟	-9.68585
五十	-9.68598
時節	-9.68739
即得	-9.68759
如經	-9.68816
無差別	-9.69123
客	-9.69144
帝釋	-9.69199
檀	-9.6931
以是	-9.69369
夏	-9.69398
兒	-9.69407
更有	-9.6946
一切世間	-9.69479
之境	-9.69491
花	-9.69607
摩訶	-9.69677
十乘	-9.69755
苦行	-9.69783
同一	-9.69938
思議	-9.69948
今家	-9.6995
同時	-9.69971
三車	-9.70039
國王	-9.70049
不如	-9.70069
藏通	-9.70132
有二義	-9.70218
不爾	-9.70271
又如	-9.70282
惡道	-9.70314
初釋	-9.70407
有餘	-9.70441
若干	-9.70476
虗妄	-9.70492
訶	-9.70537
秖是	-9.70546
之功	-9.70567
下約	-9.70679
愍	-9.70692
能令	-9.70772
招	-9.71111
而能	-9.71144
等也	-9.71157
一生	-9.71228
勞	-9.71231
良由	-9.71244
▁【	-9.71249
安心	-9.71367
不與	-9.71459
此言	-9.71598
今云	-9.71658
故能	-9.71741
慕	-9.71763
茲	-9.7188
滯	-9.71895
四方	-9.71908
浮	-9.71921
如實	-9.7201
上根	-9.72236
十九	-9.72244
符	-9.72334
三根	-9.72368
所成	-9.7249
說一乘	-9.72491
異名	-9.72503
生佛	-9.72532
不明	-9.7258
草木	-9.72674
祇	-9.72692
內心	-9.72741
諍	-9.72781
生起	-9.72806
說者	-9.72813
諸行	-9.72889
中說	-9.72982
中有二	-9.72991
作是念	-9.73003
義同	-9.73047
徵	-9.73065
酬	-9.73137
昏	-9.73161
觀世音	-9.73214
不共	-9.73246
三十二	-9.73248
弱	-9.73269
無知	-9.73289
住處	-9.73409
返	-9.7349
心中	-9.73546
嗔	-9.73576
狹	-9.73598
須彌	-9.73853
即有	-9.7387
飲食	-9.73974
不許	-9.74013
欲令	-9.74176
逢	-9.74282
前文	-9.74361
前二	-9.74453
六種	-9.74544
魚	-9.74642
一部	-9.74704
鼓	-9.74791
龍女	-9.74868
畜生	-9.74928
三道	-9.74933
嘆	-9.74934
尊特	-9.74951
絕待	-9.75129
逐	-9.75156
太子	-9.75159
婆沙	-9.75299
入空	-9.75312
故無	-9.75401
而論	-9.75425
俱舍	-9.7544
伽	-9.75463
甘露	-9.75644
勅	-9.75664
無記	-9.757
角	-9.75727
諸惡	-9.75836
梵天	-9.75899
次約	-9.75945
篇	-9.76026
通於	-9.76058
非但	-9.76076
五乘	-9.76085
俗諦	-9.76104
刀	-9.7611
既無	-9.76111
蘊	-9.76171
竝	-9.76195
十七	-9.76211
二門	-9.7627
大論云	-9.76281
蓮	-9.7629
廣明	-9.76341
為正	-9.76347
如佛	-9.76396
稱為	-9.76519
展轉	-9.76588
寒	-9.76685
網	-9.7671
玉	-9.76718
十三	-9.76824
無能	-9.76848
十如	-9.76874
三頌	-9.76886
善哉	-9.76903
上品	-9.76905
希	-9.76915
頌合	-9.76923
古人	-9.76942
術	-9.76963
是實	-9.76966
滅諦	-9.77175
誤	-9.77202
正釋	-9.77302
觀察	-9.77317
凡有	-9.77337
連	-9.77342
無上道	-9.77356
階	-9.77499
圖	-9.77521
百千萬億	-9.77547
此翻	-9.77838
他人	-9.77858
法體	-9.77897
跡	-9.77995
道諦	-9.78018
議	-9.7804
鳴	-9.78056
一分	-9.78193
建立	-9.782
說經	-9.78201
敷	-9.78231
問訊	-9.78311
背捨	-9.78357
巳來	-9.78362
續	-9.78425
現身	-9.78526
懈怠	-9.78618
未盡	-9.78648
赴	-9.78658
早	-9.78703
不以	-9.78715
正宗	-9.7876
罵	-9.78802
啟	-9.78857
漢	-9.78869
賢聖	-9.78909
相待	-9.78932
宛然	-9.78996
慶	-9.79064
既爾	-9.7911
十善	-9.79111
唯識	-9.79142
旋	-9.79147
建	-9.79244
充	-9.79287
有大	-9.79347
之果	-9.79366
觀者	-9.79414
飛	-9.79522
大千	-9.79597
可得	-9.79671
露	-9.79676
雖無	-9.79681
中二	-9.79736
從此	-9.79826
語言	-9.79843
應當	-9.7998
赤	-9.80012
不著	-9.80013
阿耨多羅三藐三菩提	-9.80126
投	-9.80169
不空	-9.80199
所攝	-9.8021
一性	-9.80214
釋疑	-9.80235
章安	-9.80304
一頌	-9.80349
論曰	-9.80357
左	-9.80374
長短	-9.80383
昧	-9.804
別釋	-9.80446
十行	-9.80491
之眾	-9.80548
總名	-9.80598
輩	-9.80614
何須	-9.80687
來意	-9.80773
彼此	-9.80792
諸根	-9.80811
厚	-9.80893
究	-9.81016
愈	-9.81056
光宅	-9.81094
自知	-9.811
番	-9.81101
抑	-9.81128
非真	-9.81162
三人	-9.81272
不退轉	-9.81434
能見	-9.81444
▁二釋	-9.81455
唯在	-9.81515
微塵	-9.81833
何處	-9.81861
佛土	-9.81886
餓鬼	-9.81901
輪王	-9.81969
入滅	-9.8198
寶所	-9.82067
不可以	-9.82129
不妨	-9.82158
君	-9.8237
能持	-9.82429
釋曰	-9.82482
恒沙	-9.82484
亦以	-9.82508
皆云	-9.8257
佛為	-9.82582
自心	-9.82596
繁	-9.8262
一味	-9.8268
應化	-9.82682
醫	-9.82727
無住	-9.82828
心生	-9.82856
非謂	-9.82968
不論	-9.83002
非一	-9.83015
初句	-9.831
寬	-9.83342
大海	-9.83373
。』	-9.83379
終不	-9.83472
拘	-9.8348
此釋	-9.83481
貧	-9.83528
萬行	-9.83548
右	-9.83698
戲	-9.83732
初約	-9.83795
言說	-9.83827
看	-9.8385
有三種	-9.83857
為大	-9.83888
老死	-9.83906
▁二若	-9.8392
奇	-9.83934
▁「	-9.83989
限	-9.84069
不求	-9.84273
之德	-9.84281
無餘	-9.84281
通論	-9.84305
行因	-9.84333
得解脫	-9.8436
上文	-9.84485
正觀	-9.84603
種智	-9.8464
普門	-9.84867
不具	-9.85009
行道	-9.85159
有何	-9.85164
雙非	-9.85179
唯心	-9.85209
說三乘	-9.85229
貪著	-9.85327
說也	-9.85387
偈頌	-9.85453
開佛知見	-9.85473
偈云	-9.85479
五行	-9.85577
論文	-9.8562
大機	-9.85643
為名	-9.85646
三品	-9.85814
大王	-9.85922
若作	-9.86104
聞經	-9.86126
為緣	-9.86162
無緣	-9.86172
聽法	-9.86299
也又	-9.8639
滿足	-9.86398
樓	-9.86406
乞	-9.86443
諸法實相	-9.86452
無量劫	-9.86467
二行	-9.86514
妄想	-9.86522
本願	-9.86545
三智	-9.86551
某	-9.86558
能通	-9.86645
自謂	-9.86727
八十	-9.86838
之與	-9.86862
玄義	-9.86982
變化	-9.87087
了因	-9.87127
有云	-9.87154
目連	-9.87224
相也	-9.87322
四十	-9.87413
以釋	-9.87445
若是	-9.87482
不在	-9.87516
離諸	-9.87629
未有	-9.87633
教道	-9.87644
能觀	-9.87818
護持	-9.87877
五根	-9.87883
初後	-9.87947
逗	-9.87955
然則	-9.88013
又曰	-9.88069
念佛	-9.88139
誘	-9.88151
西方	-9.88186
里	-9.88376
梁	-9.88389
所緣	-9.88425
四果	-9.88464
妙境	-9.88476
可解	-9.88563
十方佛	-9.88575
負	-9.88736
無差	-9.88777
前明	-9.88843
煩	-9.88883
波若	-9.88895
偽	-9.88974
納	-9.88988
義故	-9.89003
故非	-9.89015
豈有	-9.8906
愚癡	-9.89284
喚	-9.89317
酒	-9.89335
畜	-9.89464
於法	-9.89525
牽	-9.89654
淨穢	-9.89697
方名	-9.89758
迴向	-9.89771
不變	-9.89793
說此經	-9.89805
若得	-9.89823
作此	-9.8983
眾中	-9.8984
說之	-9.89868
寂靜	-9.8989
宮殿	-9.89908
調伏	-9.90073
別明	-9.90137
至此	-9.90137
生疑	-9.90225
釋之	-9.90256
釋籤	-9.90258
殘	-9.90283
深心	-9.90303
中根	-9.9032
六即	-9.90375
升	-9.90424
一一皆	-9.90479
兵	-9.90479
此亦	-9.90484
不合	-9.90522
珍	-9.90528
不壞	-9.90543
之前	-9.90576
隨機	-9.90588
狀	-9.90623
若從	-9.90729
冠	-9.9075
古今	-9.9075
所引	-9.90788
信受	-9.90864
七地	-9.90945
摩訶衍	-9.90949
退大	-9.90962
秖	-9.90977
橫竪	-9.91009
無所有	-9.91023
於一	-9.91026
白佛言	-9.91091
於前	-9.91115
禮拜	-9.91116
行也	-9.91231
不用	-9.91252
相者	-9.91278
錯	-9.91283
須菩提	-9.91463
出入	-9.91563
侍	-9.91615
束	-9.91634
弊	-9.91651
尺	-9.91675
譬說	-9.9172
無著	-9.91768
互相	-9.91801
鬼神	-9.91801
審	-9.91806
江	-9.91819
臥	-9.91852
若於	-9.91855
二禪	-9.91889
此事	-9.91928
他土	-9.92006
相違	-9.92057
一切皆	-9.92101
陽	-9.92178
缺	-9.92183
果也	-9.92374
緣因	-9.92393
未能	-9.9247
噉	-9.92505
既不	-9.92561
哀	-9.92622
三千大千世界	-9.9266
恒河沙	-9.9268
下根	-9.92699
總明	-9.92763
空寂	-9.92764
能詮	-9.9284
法空	-9.92865
沈	-9.93093
即便	-9.9316
擇	-9.93309
默然	-9.93319
本是	-9.93365
次引	-9.93381
尸	-9.93409
道滅	-9.93412
一日	-9.93413
多聞	-9.93449
位也	-9.93452
名色	-9.93498
說法華	-9.935
蟲	-9.93528
祕密	-9.93558
得見	-9.93587
依止	-9.93621
文也	-9.93731
入道	-9.93764
詞	-9.93783
得此	-9.93792
出生	-9.93861
▁二頌	-9.93891
是知	-9.9394
為四	-9.9397
比丘尼	-9.93987
二子	-9.94008
守護	-9.94022
下引	-9.9408
有六	-9.94136
五道	-9.94148
娑婆世界	-9.94214
與記	-9.94225
枝	-9.94264
臺	-9.94281
痛	-9.94303
憑	-9.94342
漸漸	-9.9441
離合	-9.94473
一處	-9.945
威	-9.94542
下引證	-9.94598
獄	-9.94612
佛之	-9.94648
釋者	-9.94701
之智	-9.94849
二十五	-9.94918
是諸	-9.94992
思之	-9.94995
珍寶	-9.95172
而非	-9.95371
官	-9.95377
饒益	-9.95401
▁初釋	-9.95446
擬宜	-9.95483
餘三	-9.95572
之語	-9.95589
出假	-9.95628
非實	-9.9569
命終	-9.95693
天王	-9.95696
乾	-9.95758
毫	-9.95758
所聞	-9.95828
一相	-9.95853
受持讀誦	-9.95961
吉	-9.95966
何名	-9.95984
明其	-9.96009
當機	-9.96135
即成	-9.96154
顯示	-9.96214
掌	-9.96224
遷	-9.96224
之位	-9.96227
成佛道	-9.96259
一行半	-9.9627
無窮	-9.96299
即此	-9.96399
依報	-9.96408
之類	-9.96462
此方	-9.96497
眾多	-9.96517
善巧	-9.9657
雖不	-9.96596
結集	-9.96633
妙光	-9.96645
三十二相	-9.96772
走	-9.9695
之異	-9.96955
鹿	-9.96972
生善	-9.97026
釋成	-9.97077
經曰	-9.97087
答言	-9.9712
福慧	-9.97177
」「	-9.97282
血	-9.97298
得度	-9.9732
清涼	-9.97368
妙玄	-9.97484
靈山	-9.9749
荊溪	-9.97506
又以	-9.97546
不思議境	-9.97552
略說	-9.97592
偏圓	-9.97682
而復	-9.97758
沙彌	-9.9777
人間	-9.97802
拜	-9.97878
我於	-9.97948
天竺	-9.97967
論中	-9.98018
佛知見	-9.98075
智力	-9.98095
囑	-9.98106
苦惱	-9.98278
修多羅	-9.98291
恨	-9.98336
本覺	-9.98364
略明	-9.98404
飲	-9.98424
明了	-9.98474
三行	-9.98516
陵	-9.98549
余	-9.98562
同體	-9.98588
實報	-9.98591
正見	-9.98602
如人	-9.9867
惜	-9.98829
長遠	-9.98837
入於	-9.9886
七種	-9.98872
性惡	-9.98948
知其	-9.9901
難解	-9.99063
格量	-9.99219
不肯	-9.99231
旁	-9.99244
觀世音菩薩	-9.99308
空觀	-9.99387
無垢	-9.99479
尚不	-9.99492
而自	-9.9958
歌	-9.99594
一百	-9.9971
說是經	-9.99737
貌	-9.99748
分三	-9.99755
顧	-9.99819
一體	-9.99844
書寫	-9.99989
唱滅	-10.0004
回	-10.0007
師曰	-10.0013
更無	-10.0019
巳後	-10.0021
佛意	-10.0037
而今	-10.0043
大地	-10.0047
文意	-10.0047
非不	-10.0051
繼	-10.0052
暢	-10.0062
因此	-10.0063
世諦	-10.0064
若見	-10.0064
植	-10.0065
理一	-10.0073
心不	-10.0075
身中	-10.0075
夜叉	-10.008
同居	-10.0094
四悉檀	-10.0096
宋	-10.0098
真俗	-10.0103
二法	-10.0114
龍樹	-10.0117
十力	-10.0117
菩薩行	-10.0119
庶	-10.0127
修證	-10.0128
幸	-10.0128
獸	-10.0131
充滿	-10.014
是一	-10.0142
出於	-10.0145
不行	-10.0151
保	-10.0154
拂	-10.0164
藥草	-10.0165
燈明	-10.0171
集諦	-10.0181
秘密	-10.0188
一門	-10.0191
方法	-10.0195
八部	-10.0211
法故	-10.0211
法師品	-10.0216
聞者	-10.022
非無	-10.0227
朽	-10.023
三事	-10.0236
二空	-10.0242
度眾生	-10.0242
軍	-10.0252
習氣	-10.0253
為是	-10.026
測	-10.0263
心法	-10.0264
慧命	-10.0265
十方諸佛	-10.027
巳得	-10.0271
迹中	-10.0271
避	-10.0272
若云	-10.0278
不生不滅	-10.0279
髮	-10.0284
等四	-10.0284
非有	-10.0303
步	-10.0309
出三界	-10.0326
從初	-10.0329
行成	-10.0329
送	-10.033
後二	-10.035
不捨	-10.0357
約行	-10.0359
傾	-10.0362
笑	-10.0369
眠	-10.0373
理觀	-10.0377
園	-10.0379
孔	-10.038
其文	-10.0381
唯佛	-10.0393
最上	-10.0395
雷	-10.0401
衰	-10.0402
楞嚴	-10.0405
為欲	-10.0406
初果	-10.0412
金色	-10.0415
囑累	-10.0415
下品	-10.0418
慈心	-10.042
此一	-10.0422
十妙	-10.043
不別	-10.0436
延	-10.0438
濕	-10.0443
大道	-10.045
此間	-10.0458
了知	-10.0461
三結	-10.0463
童子	-10.0463
不立	-10.0464
少分	-10.0464
五人	-10.047
未曾有	-10.0478
我見	-10.0486
觀之	-10.049
釋中	-10.0492
狂	-10.0498
博	-10.0499
行處	-10.05
所觀	-10.0501
遙	-10.0509
得未曾有	-10.0516
真理	-10.0518
不久	-10.0518
便是	-10.0521
或見	-10.0528
益物	-10.0529
三初	-10.0529
證得	-10.0531
常在	-10.0531
般涅槃	-10.0532
無機	-10.0535
辦	-10.0535
隨其	-10.0539
所破	-10.054
力故	-10.0541
教行	-10.0543
得佛	-10.0546
第二明	-10.0551
不實	-10.0558
有為	-10.0562
身口	-10.0568
釋論	-10.0569
三途	-10.0569
洞	-10.0571
常樂	-10.0571
險	-10.0573
九十	-10.0574
丈六	-10.0577
梵語	-10.0596
)。△	-10.0605
本末	-10.0607
乞食	-10.0613
三因	-10.0617
四義	-10.0619
正為	-10.0621
纏	-10.0625
不作	-10.0626
見者	-10.063
一切諸	-10.0633
逼	-10.0642
。(△	-10.0643
一云	-10.0654
方得	-10.0655
時眾	-10.0655
問何故	-10.0661
心無	-10.0673
夫人	-10.0686
助道	-10.0686
懼	-10.0688
阿修羅	-10.0689
鈔	-10.0694
二偈頌	-10.0695
第	-10.0701
性具	-10.0713
當來	-10.0714
不二門	-10.072
摧	-10.0723
晉	-10.0723
約理	-10.0723
不足	-10.0725
錢	-10.0725
洲	-10.0726
得解	-10.0729
如幻	-10.073
加行	-10.0736
小機	-10.0739
履	-10.0739
不敢	-10.0742
前之	-10.0745
無方	-10.0749
眾人	-10.076
攝一切	-10.0763
呵	-10.0776
此心	-10.0783
冷	-10.0784
一音	-10.0791
觀於	-10.0792
南無	-10.0795
為難	-10.0796
者即是	-10.0803
活	-10.081
是權	-10.0814
其相	-10.0818
條	-10.0821
方能	-10.0823
融通	-10.0836
澤	-10.0839
威德	-10.084
教相	-10.0848
小果	-10.0848
狗	-10.085
教化眾生	-10.0851
意謂	-10.0855
迴心	-10.0858
閑	-10.0863
緣生	-10.0865
所起	-10.0866
初中	-10.0867
施權	-10.087
案	-10.0879
坐道場	-10.0882
無疑	-10.0884
鐵	-10.0895
皆具	-10.0898
四生	-10.0898
若就	-10.0899
前來	-10.09
憶	-10.0907
現行	-10.0907
予	-10.0911
攬	-10.0919
之妙	-10.092
即能	-10.0921
未必	-10.0924
俱有	-10.0925
塗	-10.0928
二十四	-10.0936
研	-10.0942
或言	-10.0942
皮	-10.0942
巳下	-10.0943
教中	-10.0944
巳去	-10.0945
生於	-10.0956
六根清淨	-10.0956
佛地	-10.0957
兩句	-10.0958
師云	-10.0958
秘	-10.0965
雙照	-10.0966
▁六	-10.097
之上	-10.0971
為妙	-10.0972
耶答	-10.0973
之外	-10.0976
空假	-10.0977
入實	-10.0982
能得	-10.0984
萬德	-10.0989
具有	-10.0995
喪	-10.0999
向上	-10.1004
難信	-10.1005
甞	-10.1013
七方便	-10.1016
大智	-10.1017
涅槃經	-10.1017
其名	-10.1024
春	-10.1027
信心	-10.1033
大慈	-10.1033
自證	-10.1047
後世	-10.1052
或說	-10.1061
仙人	-10.1067
佛語	-10.1068
闍	-10.1071
羅剎	-10.1071
一切諸佛	-10.1072
之別	-10.1073
聞佛	-10.1077
章門	-10.1078
無所畏	-10.1078
心所	-10.108
不虛	-10.109
眾苦	-10.11
其事	-10.1109
合譬	-10.1113
聞說	-10.1116
柔軟	-10.1118
廣釋	-10.1118
心體	-10.1119
正道	-10.1119
齒	-10.112
通塞	-10.1124
戲論	-10.1133
等事	-10.1134
世世	-10.1142
四德	-10.1153
教理	-10.1158
不入	-10.116
惠	-10.116
御	-10.1161
於佛前	-10.1162
殊勝	-10.1165
餘人	-10.1167
處所	-10.1181
以成	-10.1183
全體	-10.1186
稱名	-10.1187
自利	-10.1189
後一	-10.119
明矣	-10.1192
三禪	-10.12
枯	-10.1201
父子	-10.1206
開發	-10.1207
勝劣	-10.1211
本具	-10.1212
先釋	-10.1223
。【■	-10.1227
自身	-10.1234
於後	-10.124
初頌	-10.125
敢	-10.1252
又有	-10.1258
晝夜	-10.1258
護法	-10.1259
停	-10.126
陰入	-10.1262
諸人	-10.1263
諸聲聞	-10.1264
均	-10.1265
醉	-10.1266
名相	-10.1273
打	-10.1275
三假	-10.1278
即指	-10.1282
參	-10.1283
驚怖	-10.1286
幢	-10.1291
依此	-10.1294
惡世	-10.1295
蕩	-10.1302
叉	-10.1314
》,	-10.1314
何別	-10.1314
利物	-10.1315
未見	-10.1325
不云	-10.1328
若非	-10.1334
遊戲	-10.1337
大聖	-10.1341
一身	-10.1349
閻浮提	-10.1359
莫不	-10.1371
婬	-10.1377
此名	-10.1382
禁	-10.1383
牙	-10.1383
羣	-10.1384
衣服	-10.1388
能證	-10.1393
秋	-10.1393
不堪	-10.1394
四智	-10.1395
復以	-10.14
教也	-10.1404
此初也	-10.1413
中論	-10.1419
解云	-10.1421
與佛	-10.1432
性空	-10.1432
體同	-10.1433
為宗	-10.1436
初問	-10.1436
大事	-10.1438
隨宜	-10.1438
等三	-10.1441
伽耶	-10.1443
今但	-10.1454
不過	-10.1469
尅	-10.1469
亦能	-10.147
居士	-10.147
侍者	-10.1485
猶未	-10.1486
八相	-10.1487
問云	-10.1487
闡提	-10.1494
墨	-10.1507
引經	-10.1507
所顯	-10.1508
遠近	-10.1512
說法華經	-10.1513
中之	-10.1516
百界	-10.1529
危	-10.1532
高下	-10.1532
沉	-10.1533
各異	-10.1537
令入	-10.1547
之權	-10.1547
具三千	-10.1549
墜	-10.1555
體性	-10.1555
夷	-10.1557
或以	-10.1558
院	-10.1558
混	-10.1558
乃以	-10.156
通經	-10.1561
萬億	-10.1562
說此	-10.1566
前云	-10.1566
增上	-10.1581
務	-10.1581
初又二	-10.1593
是非	-10.1593
祕	-10.1599
答疏言	-10.1605
甚多	-10.1605
三性	-10.1609
閉	-10.1616
得菩提	-10.1618
今當	-10.1634
佗	-10.1636
逮	-10.1636
今從	-10.1643
贊	-10.1646
所修	-10.165
謹	-10.165
為果	-10.1651
嚴飾	-10.1654
樂說	-10.1656
真性	-10.1661
雖未	-10.1662
各具	-10.1667
今且	-10.1667
聖行	-10.1667
成正覺	-10.1671
其體	-10.1673
釋義	-10.1678
聖道	-10.1686
今欲	-10.1686
而後	-10.1687
武	-10.169
應供	-10.1695
機緣	-10.1703
此理	-10.1705
實無	-10.1707
若聞	-10.1708
房	-10.1708
勸信	-10.171
以方便	-10.1719
義者	-10.1721
涌出	-10.1722
三惑	-10.1723
有八	-10.1723
菩提心	-10.1727
唯是	-10.1727
卒	-10.1744
飾	-10.1747
雖是	-10.1748
與前	-10.175
能化	-10.1752
榮	-10.1764
五者	-10.1768
下正明	-10.1769
繩	-10.1771
值佛	-10.1777
樹下	-10.1782
而成	-10.1786
胡	-10.1789
智積	-10.1792
斷常	-10.1795
於理	-10.1796
快	-10.1799
蘇	-10.1802
撰	-10.1805
無智	-10.1812
知此	-10.1813
童	-10.1821
盜	-10.1826
六十	-10.1827
經典	-10.1829
通名	-10.1829
戰	-10.1829
心者	-10.1833
不自	-10.1842
仁王	-10.1847
今既	-10.1849
觀智	-10.1854
無想	-10.1856
如意	-10.1856
品中	-10.1861
解說	-10.1862
瑜伽	-10.1864
輔	-10.1868
文略	-10.1874
但明	-10.188
相貌	-10.1881
人民	-10.1884
乾闥婆	-10.1888
何異	-10.1897
得失	-10.1898
為五	-10.1898
四天下	-10.1902
皆由	-10.1902
俱是	-10.1904
能發	-10.1906
六波羅蜜	-10.1913
二約	-10.1915
無盡意	-10.1916
惡人	-10.192
有相	-10.1926
而為說法	-10.1933
深遠	-10.1934
未知	-10.1936
行菩薩道	-10.194
出世間	-10.1941
豈得	-10.1943
流轉	-10.1944
克	-10.1947
一千	-10.1953
妙行	-10.1955
侵	-10.1958
卑	-10.1959
極果	-10.1966
序品	-10.1967
各別	-10.1968
久住	-10.1972
補處	-10.1983
何謂	-10.1992
婦	-10.1994
其國	-10.1997
之實	-10.2003
龍王	-10.2004
與之	-10.2006
隣	-10.2008
即為	-10.202
頓漸	-10.202
磨	-10.2024
說是	-10.2024
籤	-10.2024
而作	-10.2028
問佛	-10.2032
三百	-10.2043
意云	-10.2045
彼土	-10.2047
根塵	-10.2048
開三顯一	-10.205
三一	-10.2053
修羅	-10.2054
即假	-10.2056
知識	-10.2066
▁二明	-10.2073
撿	-10.2074
教法	-10.2094
令知	-10.2094
檢	-10.2097
開三	-10.2105
見聞	-10.2115
在後	-10.2116
曠	-10.2116
無上菩提	-10.2131
下正釋	-10.2131
汝今	-10.2135
臭	-10.2135
慳	-10.2137
優	-10.2137
略舉	-10.2138
索車	-10.2143
獨覺	-10.2144
斷結	-10.2144
功用	-10.2145
受記	-10.215
則能	-10.2152
三門	-10.2152
等文	-10.2154
十方世界	-10.2157
促	-10.2158
即前	-10.216
化生	-10.216
得悟	-10.2161
五千	-10.2162
吐	-10.2164
正覺	-10.2167
皇	-10.217
兩種	-10.2183
佛知	-10.2186
吹	-10.2186
真空	-10.2188
能說	-10.2189
孤	-10.2189
亦同	-10.2189
此頌	-10.219
同也	-10.219
三請	-10.219
所表	-10.2194
伴	-10.2197
舍那	-10.2201
今昔	-10.2203
咎	-10.2205
諸師	-10.2206
孝	-10.2213
度脫	-10.2214
睡	-10.2214
禪師	-10.2231
體是	-10.2232
令他	-10.2233
腹	-10.2236
有七	-10.2241
如云	-10.2242
實際	-10.2243
未聞	-10.2246
瞋恚	-10.2249
無色界	-10.2252
首楞嚴	-10.2258
三慧	-10.226
不是	-10.227
端正	-10.2273
飯	-10.2279
增減	-10.229
非想	-10.2295
盈	-10.2296
戒環曰	-10.2298
登地	-10.2308
殿	-10.2309
悉是	-10.2327
皆從	-10.2335
須陀洹	-10.234
全身	-10.2344
虛妄	-10.2344
勉	-10.2344
賤	-10.2348
一塵	-10.2353
妙也	-10.2353
圓人	-10.2356
一代	-10.2366
所造	-10.237
上中下	-10.2374
為證	-10.2376
伊	-10.2382
覺觀	-10.2404
千萬億	-10.2405
頃	-10.241
位中	-10.2411
纔	-10.2416
練	-10.2416
甘	-10.2419
不殊	-10.2423
下方	-10.2427
不必	-10.2428
義通	-10.2428
而去	-10.2433
萬法	-10.2434
有門	-10.2435
齋	-10.2435
結前	-10.2441
諸有	-10.2445
猶是	-10.2452
八識	-10.2453
因也	-10.2453
而來	-10.2455
能為	-10.2457
若謂	-10.2457
怪	-10.2457
其本	-10.2459
瞻	-10.2464
作意	-10.2464
三藏教	-10.2465
儒	-10.2465
瓶	-10.2465
不無	-10.2466
雖同	-10.2471
意言	-10.2474
為他	-10.2477
在家	-10.2481
苦樂	-10.2484
洗	-10.2485
起塔	-10.2485
在此	-10.2491
始從	-10.2491
以上	-10.2492
諸見	-10.2499
為能	-10.25
諸佛如來	-10.2501
受生	-10.2504
法眼	-10.2505
天上	-10.2506
身業	-10.2508
則非	-10.2508
鄙	-10.2508
於一切	-10.2511
所釋	-10.2512
受苦	-10.2514
乃云	-10.2514
實有	-10.2517
良以	-10.2517
即無	-10.2518
作是	-10.2521
而言之	-10.2522
震	-10.2524
種種因緣	-10.2525
緩	-10.2526
得成佛	-10.2526
于時	-10.2527
荊谿	-10.2531
蛇	-10.2532
又見	-10.2545
嫉	-10.2547
法華三昧	-10.2554
火起	-10.2556
脚	-10.2558
正報	-10.2558
中明	-10.2559
機感	-10.256
悟入	-10.2562
用也	-10.2565
六句	-10.2579
惡趣	-10.258
門中	-10.258
沙門瞿曇	-10.2581
大教	-10.2584
正當	-10.259
式	-10.2592
可謂	-10.2592
是我	-10.2602
獻	-10.2602
六塵	-10.2602
知是	-10.2611
佛滅度後	-10.2616
下正	-10.262
今依	-10.2628
次文	-10.2634
國名	-10.2643
相生	-10.2644
寫	-10.2647
毘	-10.2649
最為	-10.265
二身	-10.2651
察	-10.2653
【	-10.2659
勝處	-10.2667
修善	-10.2671
法爾	-10.2672
圍繞	-10.2674
廣略	-10.2676
之子	-10.2677
注云	-10.2677
)。」【【■	-10.2681
其餘	-10.2684
諸善男子	-10.2687
難陀	-10.2689
他國	-10.2692
試	-10.2696
即具	-10.2702
以證	-10.2703
離欲	-10.2703
有人言	-10.2705
能成	-10.2708
綱	-10.2714
十義	-10.2715
一佛	-10.2716
一期	-10.2717
五住	-10.2717
皷	-10.2718
且約	-10.2718
昭	-10.2721
野	-10.2723
轉教	-10.2728
一佛乘	-10.2728
生信	-10.2731
色身	-10.2739
筆	-10.2742
三障	-10.2744
答中	-10.2748
楞伽	-10.2753
校	-10.2756
爾時世尊欲重宣此義而說偈言	-10.2757
名同	-10.2757
即現	-10.276
九品	-10.2763
觀境	-10.2776
勸持	-10.2781
果上	-10.2785
覓	-10.2787
正顯	-10.279
崇	-10.2791
見此	-10.2796
九地	-10.2798
之曰	-10.2799
不待	-10.2802
竹	-10.2815
个	-10.2825
初總	-10.283
故使	-10.2833
受用	-10.2835
別有	-10.2836
經意	-10.2845
但言	-10.2845
圓妙	-10.2846
律儀	-10.2847
品云	-10.285
得涅槃	-10.285
釋也	-10.2853
阿僧祇	-10.2856
▁初標	-10.2857
乏	-10.2861
即法身	-10.2864
顯一	-10.2866
竊	-10.2867
了達	-10.2872
自體	-10.2873
譬上	-10.2873
降伏	-10.2874
開示悟入	-10.2875
妙理	-10.2877
斷見	-10.2878
一名	-10.288
前四	-10.2881
求佛道	-10.2881
以一	-10.2881
定性	-10.2883
下是	-10.2895
佛教	-10.2895
於大	-10.2901
是真	-10.2904
鶖子	-10.2908
三軌	-10.2909
同歸	-10.2911
觧	-10.2922
化眾生	-10.2925
臂	-10.2926
宣說	-10.2928
中觀	-10.293
初一行	-10.2941
事須	-10.2941
總標	-10.2942
三段	-10.2943
當得	-10.2943
憍	-10.2955
柱	-10.2955
床	-10.2956
無因	-10.2963
之辭	-10.2964
▁初正	-10.2967
若有眾生	-10.2969
之樂	-10.2974
屈	-10.2975
聲聞緣覺	-10.2977
千萬	-10.2978
故先	-10.2979
甲	-10.2981
半滿	-10.2984
五章	-10.2984
二文	-10.2988
眾寶	-10.2989
見惑	-10.299
根鈍	-10.3001
寶藏	-10.3004
亦通	-10.3005
之門	-10.3008
迷悟	-10.3012
潛	-10.3012
之地	-10.3013
成論	-10.3021
佛之知見	-10.3027
上明	-10.3029
何意	-10.3032
金光明	-10.3033
阿逸多	-10.3041
方乃	-10.3042
本事	-10.3043
但為	-10.3044
肉眼	-10.3047
無量義經	-10.3048
次位	-10.3063
既言	-10.3063
發明	-10.3066
無心	-10.3073
修因	-10.3075
▁初約	-10.3077
更不	-10.3082
正意	-10.3092
或時	-10.3093
不當	-10.3096
劫名	-10.3097
機應	-10.3101
裂	-10.3108
止觀云	-10.3115
下合	-10.3118
所住	-10.3121
以喻	-10.3127
不達	-10.3127
樂欲	-10.3131
由旬	-10.3136
以彼	-10.3136
上慢	-10.3144
所立	-10.3145
四住	-10.3151
荷	-10.3153
封	-10.3159
述成	-10.3163
空有	-10.3167
若據	-10.3168
別相	-10.3179
願力	-10.3192
災	-10.3193
為佛	-10.3196
同前	-10.3197
寂然	-10.3198
光照	-10.3202
神通力	-10.3202
二觀	-10.3203
竭	-10.3204
答云	-10.3222
疏中	-10.3223
生法	-10.3224
而行	-10.3225
勸發	-10.3237
本性	-10.3238
證道	-10.3239
不依	-10.3256
而作是言	-10.3258
頓教	-10.3261
當時	-10.3261
五塵	-10.3264
智照	-10.327
所為	-10.3274
於我	-10.3274
門者	-10.3275
謀	-10.3279
上上	-10.328
我身	-10.3282
爭	-10.3287
若不爾者	-10.3301
三意	-10.331
其父	-10.3311
假觀	-10.3311
別義	-10.3318
二云	-10.3318
都無	-10.3322
十六王子	-10.3323
欲得	-10.3328
正念	-10.3329
慧眼	-10.333
之失	-10.3331
得成	-10.3333
競	-10.3334
之要	-10.3337
化儀	-10.3338
我當	-10.3339
我以	-10.334
出宅	-10.334
餘二	-10.3343
今取	-10.3347
又問	-10.335
乃能	-10.3351
響	-10.3352
欲以	-10.3355
為門	-10.3356
泉	-10.3357
不通	-10.3359
說偈	-10.3361
相望	-10.3377
▁初頌	-10.3381
自巳	-10.3383
悉檀	-10.3385
所照	-10.3387
詩	-10.3389
▁二答	-10.3393
義當	-10.3397
其數	-10.3403
疑惑	-10.3405
五戒	-10.3406
學無學	-10.3408
財物	-10.341
又此	-10.3411
常不輕	-10.3411
皆名為	-10.3417
兩教	-10.3417
五支	-10.3425
所感	-10.3428
我所	-10.3429
則以	-10.3431
一卷	-10.3444
猶有	-10.3445
觀成	-10.3448
名號	-10.3452
昇	-10.3453
自行化他	-10.3456
意業	-10.3463
梵志	-10.3463
維	-10.3468
薀	-10.3474
別論	-10.3476
何能	-10.3477
以是因緣	-10.3478
具三	-10.348
舊云	-10.3484
梵音	-10.3488
在前	-10.3489
顯露	-10.3492
不次第	-10.3496
此十	-10.3499
歸依	-10.35
無分別	-10.3501
▁二又	-10.3506
大品云	-10.3516
一切處	-10.3521
拔苦	-10.3524
滋	-10.3529
二初明	-10.3531
以方便力	-10.3532
難得	-10.3532
遲	-10.3533
嫌	-10.3533
大通	-10.3536
有學	-10.3538
工	-10.3539
應須	-10.354
行行	-10.3549
之初	-10.3551
給	-10.3553
無生滅	-10.3554
對於	-10.3555
澄	-10.3557
優劣	-10.3558
考	-10.3559
銷	-10.356
漏盡	-10.3571
煖	-10.3574
皆能	-10.3577
其理	-10.3581
有佛性	-10.3583
妻	-10.3585
大慈悲	-10.3598
優婆塞	-10.3602
令人	-10.3605
格	-10.3607
勝鬘	-10.361
聚落	-10.3613
常行	-10.3614
攝取	-10.3619
疑悔	-10.3627
中二先	-10.3628
四一	-10.3629
空門	-10.3632
方等般若	-10.3632
蘭	-10.3634
法華論	-10.3636
之大	-10.3637
一剎那	-10.3638
慚愧	-10.3639
弗	-10.364
覺悟	-10.3641
異故	-10.3643
不違	-10.3645
本地	-10.3646
權教	-10.3649
學人	-10.365
往昔	-10.3653
行位	-10.3655
席	-10.3657
我聞	-10.3658
觀門	-10.367
號曰	-10.3673
顯現	-10.3676
愛見	-10.3684
相狀	-10.3685
台	-10.3686
十門	-10.3692
有四種	-10.3695
法藏	-10.3701
為權	-10.3703
恚	-10.3711
等是	-10.372
五法	-10.372
行法	-10.3722
誑	-10.3736
僧祇	-10.3741
當作佛	-10.3742
因緣故	-10.3743
與授記	-10.3745
初正	-10.3748
乃成	-10.3749
隨情	-10.3751
本意	-10.3752
化物	-10.3753
所出	-10.3756
栴檀	-10.3756
覽	-10.3767
即知	-10.3776
二名	-10.378
一理	-10.3781
則成	-10.3783
問何名	-10.3783
見其	-10.3785
自說	-10.3785
百年	-10.38
孰	-10.3804
▁初問	-10.3807
大菩薩	-10.3809
無生忍	-10.381
曾見	-10.3811
才	-10.3815
淨名云	-10.3816
方便說	-10.3818
說大乘	-10.3827
之間	-10.3829
真心	-10.3829
二教	-10.3832
雖然	-10.3834
屬於	-10.3834
用此	-10.3836
隨所	-10.3837
地持	-10.3838
以由	-10.384
此身	-10.3841
相見	-10.3842
知之	-10.3844
相攝	-10.3845
育	-10.3847
當得作佛	-10.3848
畫	-10.3848
但約	-10.3849
外無	-10.3851
劫數	-10.3856
當分	-10.3859
逆順	-10.3861
為顯	-10.3863
而修	-10.3866
壽量品	-10.3866
理具	-10.3866
度生	-10.3868
秪	-10.3871
能斷	-10.3875
福田	-10.3878
大德	-10.388
岸	-10.3882
不曉	-10.3887
其佛	-10.389
能作	-10.3891
三果	-10.3892
既知	-10.3905
法施	-10.3912
中先	-10.3914
根利	-10.392
例如	-10.3924
騰	-10.3924
讓	-10.3924
障礙	-10.3924
苑	-10.3928
理即	-10.3929
故成	-10.3932
五眼	-10.3936
見佛性	-10.3938
白佛	-10.3939
說三	-10.3941
為所	-10.3944
所應	-10.3945
羊	-10.3949
覺知	-10.395
佛以	-10.3957
經說	-10.3958
宿世	-10.396
八千	-10.3961
論之	-10.3962
體也	-10.3962
我心	-10.3965
出現於世	-10.3971
正以	-10.3972
見諦	-10.3978
所以然者	-10.3979
五義	-10.3983
與樂	-10.3984
疏文	-10.3987
一劫	-10.3991
等法	-10.4001
佛種	-10.4003
一念心	-10.4005
喜見	-10.4007
碎	-10.4008
兩行	-10.4009
能治	-10.4012
全無	-10.4012
訛	-10.4014
與今	-10.4014
莊	-10.4015
實法	-10.4016
即時	-10.4024
藏教	-10.4026
佛滅後	-10.4028
正行	-10.4029
陳如	-10.4038
言我	-10.404
此教	-10.404
是別	-10.4041
眾經	-10.4042
之苦	-10.4042
歸一	-10.4053
誹謗	-10.4053
中三	-10.4055
觀照	-10.4058
戒定慧	-10.4064
令彼	-10.4065
俱生	-10.4065
偈中	-10.4066
遭	-10.4069
爾時佛告	-10.4073
各得	-10.4082
六趣	-10.4083
二意	-10.4084
能以	-10.409
有佛	-10.4092
意根	-10.4101
巳前	-10.4103
䟦	-10.411
不轉	-10.4112
諸禪	-10.4112
息化	-10.4113
三乘人	-10.4114
可說	-10.4114
之徒	-10.4117
四意	-10.4119
所由	-10.412
今說	-10.4123
是方便	-10.4124
依於	-10.4138
如華嚴	-10.4141
烏	-10.4145
口業	-10.4146
緊那羅	-10.4155
高廣	-10.4156
之緣	-10.416
妙法華經	-10.4161
將來	-10.4169
身土	-10.417
佛自	-10.4171
弘誓	-10.4172
如前說	-10.418
▁初正釋	-10.4181
寸	-10.4181
二千	-10.4181
既以	-10.4184
何法	-10.4191
非有非無	-10.4192
後三	-10.4193
巨	-10.4198
聞慧	-10.4198
禪門	-10.4199
萬物	-10.4202
二死	-10.4217
橫豎	-10.4222
」。「	-10.4222
所說法	-10.4223
出離	-10.4224
倚	-10.4225
天地	-10.4228
四頌	-10.423
放逸	-10.4231
無益	-10.4233
說於	-10.4233
一界	-10.4233
刻	-10.4234
因行	-10.4241
飢	-10.4251
初三	-10.4258
馳	-10.4259
阿僧祇劫	-10.4264
心念	-10.4267
體相	-10.4267
灰	-10.4269
亦為	-10.4269
事也	-10.4271
之一	-10.4272
顯本	-10.4274
盖	-10.4276
猛	-10.4276
終至	-10.428
遵	-10.4281
我亦	-10.4282
令眾生	-10.4284
價	-10.4286
隋	-10.4287
常為	-10.4288
縱橫	-10.4289
巳竟	-10.4295
之始	-10.4323
諸苦	-10.4329
時有	-10.4329
辱	-10.4333
以對	-10.4335
牛車	-10.4343
尊重	-10.4346
何必	-10.4354
亦具	-10.4354
穢土	-10.4359
枝葉	-10.4362
若知	-10.4363
族	-10.4363
戶	-10.4369
異也	-10.4371
初二句	-10.4373
調達	-10.4374
智度論	-10.4379
一雙	-10.4383
但見	-10.4384
四聖	-10.4384
小大	-10.4385
會中	-10.4389
出水	-10.4392
漸次	-10.4393
為義	-10.4403
生生	-10.442
粗	-10.442
譬喻品	-10.4427
始自	-10.4435
次結	-10.4436
二合	-10.444
解者	-10.4443
是大	-10.445
舉一	-10.4451
起於	-10.4454
正智	-10.4462
不唯	-10.4463
能感	-10.4467
得其	-10.4468
此為	-10.4469
與其	-10.4471
不分	-10.4473
中初	-10.4475
此以	-10.4477
今約	-10.4477
四十年前	-10.448
所燒	-10.4481
異熟	-10.4482
何為	-10.4485
如今	-10.4486
彼文	-10.4494
坐禪	-10.4496
化作	-10.4498
成熟	-10.45
薰	-10.45
能解	-10.4502
亦即	-10.4504
複	-10.4508
聞之	-10.4515
油	-10.4516
求法	-10.4517
於空	-10.4527
大小乘	-10.4527
空假中	-10.4529
述其	-10.4532
豐	-10.4533
為真	-10.4534
而立	-10.4534
撮	-10.4535
邑	-10.4537
之殊	-10.4549
法譬	-10.4549
須臾	-10.4556
即名	-10.4559
圓觀	-10.4561
發大心	-10.4568
地上	-10.4572
□	-10.4578
安立	-10.4579
是苦	-10.458
但說	-10.4581
上界	-10.4583
如止觀	-10.4586
就此	-10.4592
皆同	-10.4593
絕言	-10.4594
妙樂	-10.4599
勝妙	-10.4599
故經云	-10.46
無失	-10.4601
惱亂	-10.461
;「	-10.4613
過患	-10.4615
無人	-10.4616
免難	-10.4616
焰	-10.4617
今問	-10.4617
伎樂	-10.4633
忽然	-10.4634
諸佛世尊	-10.4634
有所得	-10.4638
梨	-10.4645
事相	-10.4645
焚	-10.4649
又言	-10.4654
道者	-10.4654
從佛	-10.4664
)。○	-10.467
世俗	-10.4671
鑒	-10.4676
尚無	-10.4679
華香	-10.468
轍	-10.4682
身見	-10.4685
習因	-10.469
斷煩惱	-10.4695
八百	-10.4698
為方便	-10.4703
此皆	-10.4704
無殊	-10.4709
輒	-10.4712
領上	-10.4717
觀此	-10.472
外凡	-10.4723
總相	-10.4724
施設	-10.4727
處也	-10.4732
湯	-10.4737
依他	-10.4737
之流	-10.4742
當教	-10.4746
神變	-10.4746
但得	-10.475
通途	-10.4754
手足	-10.4755
修慧	-10.4755
南方	-10.4756
谷	-10.4759
異者	-10.476
今為	-10.4762
別名	-10.4763
如斯	-10.4766
佛世	-10.4769
佛在	-10.477
十二部	-10.477
二十五有	-10.4776
即中	-10.4779
何妨	-10.478
佛出世	-10.4786
四倒	-10.4788
以譬	-10.479
能除	-10.4792
肩	-10.4794
所發	-10.4795
尾	-10.4795
鄉	-10.4796
言其	-10.4796
來者	-10.4797
若說	-10.4797
法智	-10.4805
後明	-10.4806
慈恩	-10.4807
佛壽	-10.4808
不令	-10.4812
安忍	-10.4816
門外	-10.4816
耆	-10.4816
隆	-10.4824
俾	-10.4826
下文云	-10.4827
穴	-10.4828
伐	-10.4831
陀羅	-10.4833
諸煩惱	-10.4834
一義	-10.4834
我為	-10.4835
供佛	-10.4843
信行	-10.4843
也然	-10.4846
真應	-10.4849
或可	-10.4851
能顯	-10.4858
家家	-10.4859
上人	-10.486
宿王華	-10.4868
明之	-10.487
得無生忍	-10.487
是如來	-10.4871
名通	-10.4871
阿那含	-10.4872
始末	-10.4875
史	-10.4876
金銀	-10.4879
不從	-10.4884
彼岸	-10.4889
於他	-10.489
而已	-10.4891
雨華	-10.4893
之益	-10.4903
是同	-10.4903
。」【(△	-10.4904
不修	-10.4905
快樂	-10.4911
人所	-10.4912
彌陀	-10.4916
現見	-10.4916
尤	-10.4917
為性	-10.4918
五句	-10.4922
為求	-10.4922
十境	-10.4926
二百	-10.4927
聽受	-10.4928
其有	-10.4928
家業	-10.4929
佛事	-10.493
示相	-10.4935
後文	-10.4937
解行	-10.4937
潔	-10.4937
眾德	-10.494
箇	-10.4944
修惡	-10.4944
難思	-10.4944
或現	-10.4945
不一	-10.4949
捉	-10.495
友	-10.4951
不樂	-10.4952
過失	-10.4952
聲聞人	-10.4954
師子吼	-10.4959
包	-10.4963
憶念	-10.4963
受化	-10.4964
糞	-10.4966
無所得	-10.4968
採	-10.497
心王	-10.4972
眾生心	-10.4975
冀	-10.4976
若在	-10.4984
如法	-10.4988
三十七品	-10.4992
衣食	-10.4992
次別	-10.4993
添	-10.4996
披	-10.4997
暴	-10.4998
且從	-10.5008
丈	-10.501
為勝	-10.5014
供養佛	-10.5016
能起	-10.5019
破戒	-10.5022
所居	-10.5022
盧	-10.5027
率	-10.5029
繫珠	-10.503
欺	-10.5031
數息	-10.5033
文為二	-10.5037
分證	-10.5044
寂照	-10.5044
當知是人	-10.5045
朗	-10.5047
汝當	-10.5048
一經	-10.5051
修德	-10.5055
以佛	-10.5058
八種	-10.5059
之所以	-10.506
南嶽	-10.506
喻說	-10.506
不融	-10.506
初文者	-10.5062
▁三結	-10.5062
之義也	-10.5071
教一	-10.5078
之極	-10.508
勇	-10.5082
併	-10.5093
即理	-10.5095
信解品	-10.5106
評	-10.5111
皆不	-10.5113
法喻	-10.5115
▁初總	-10.5117
雪山	-10.5118
其子	-10.512
求佛	-10.5123
二十七	-10.5123
有三義	-10.5127
後心	-10.5131
三十六	-10.5132
勤修	-10.5134
迦樓羅	-10.5139
如水	-10.5139
為十	-10.514
言無	-10.5147
文句云	-10.5148
同於	-10.5153
眼根	-10.5156
亦名為	-10.5164
華嚴經	-10.5172
闡	-10.5178
二果	-10.5179
逼迫	-10.518
教觀	-10.5181
以示	-10.5184
營	-10.5185
六地	-10.5189
宿命	-10.5189
今所	-10.5193
能忍	-10.5198
菩薩道	-10.52
此解	-10.5202
循	-10.5208
豪	-10.5209
言語	-10.521
謙	-10.521
依教	-10.5211
裏	-10.5212
諸佛所	-10.5214
生老病死	-10.5219
三土	-10.5223
能於	-10.5224
十卷	-10.5225
為我	-10.523
苦果	-10.524
翻為	-10.5241
此語	-10.5243
方可	-10.5253
孫	-10.5258
本自	-10.5259
聖教	-10.5259
受潤	-10.5267
曜	-10.527
故不可	-10.5271
發真	-10.5274
應是	-10.5276
摩羅	-10.5277
場	-10.5281
故於	-10.5287
曼	-10.529
二別	-10.529
四教義	-10.529
為第一	-10.5291
用觀	-10.5293
列名	-10.5293
不但	-10.5298
為其	-10.5298
諦觀	-10.53
理事	-10.53
小劫	-10.5303
入假	-10.5303
二十一	-10.5306
先列	-10.5311
深入	-10.5314
而出	-10.5314
等賜	-10.5316
般若波羅蜜	-10.5316
以論	-10.5316
多寶佛	-10.5317
治病	-10.5318
經家	-10.5322
妙樂云	-10.5325
善心	-10.5327
排	-10.5332
薪	-10.5334
萬八千	-10.5337
亦乃	-10.534
半行	-10.535
山林	-10.5351
如向	-10.536
五百由旬	-10.536
頻	-10.5362
顯於	-10.537
初云	-10.5374
雖云	-10.5383
中言	-10.5386
三轉	-10.5387
頌云	-10.539
輙	-10.5396
凝	-10.5398
信者	-10.5398
此諸	-10.5399
此說	-10.5399
初一	-10.5399
名大	-10.5399
觀也	-10.5404
今者	-10.5405
下去	-10.5407
既得	-10.5408
一諦	-10.5408
六識	-10.5414
法行	-10.5414
名無	-10.5415
今意	-10.5417
破壞	-10.542
之內	-10.5421
入佛慧	-10.5432
抱	-10.5435
用之	-10.5436
怠	-10.5446
四弘	-10.5449
將欲	-10.545
扣	-10.5454
生時	-10.5456
別故	-10.5458
嘉	-10.546
省	-10.5461
三四	-10.5467
同是	-10.5468
或是	-10.5468
今之	-10.5474
且如	-10.5478
常樂我淨	-10.5479
柔	-10.5481
下判	-10.5482
一心三觀	-10.5486
三番	-10.5486
燒香	-10.549
位者	-10.5492
杖	-10.5494
楚	-10.5496
楊	-10.5498
二萬	-10.5499
大力	-10.5499
若觀	-10.5499
假使	-10.5501
疑者	-10.5502
能信	-10.5504
得阿耨多羅三藐三菩提	-10.5505
殷勤	-10.5508
獲益	-10.5512
諸如來	-10.5514
顯理	-10.552
初品	-10.5523
迎	-10.5524
難可	-10.5526
善知	-10.5527
中亦	-10.5528
境也	-10.5541
九想	-10.5545
彈指	-10.5547
或作	-10.5554
理也	-10.5556
具四	-10.5557
又三	-10.556
雖多	-10.556
皆當	-10.5573
為喻	-10.5573
毛孔	-10.5574
身命	-10.5578
安穩	-10.5578
結云	-10.5578
理智	-10.5579
戒取	-10.558
瑠璃	-10.5581
那得	-10.5581
紛	-10.5584
罪福	-10.5585
奏	-10.559
怒	-10.5593
開悟	-10.5597
六入	-10.56
轉輪聖王	-10.5603
但取	-10.5603
今則	-10.5606
示之	-10.5607
未入	-10.561
文雖	-10.561
鷲	-10.5612
諸大菩薩	-10.5612
心為	-10.5614
內有	-10.5618
繞	-10.5623
如如	-10.5624
義例	-10.5624
十二緣	-10.5625
說有	-10.5628
禮佛	-10.5636
畢竟空	-10.5637
遙見	-10.5639
我滅度後	-10.5641
m	-10.5642
g	-10.5642
百億	-10.5642
終日	-10.5643
唯取	-10.5643
恣	-10.5647
去來	-10.5649
後方	-10.565
通明	-10.5652
持經者	-10.5654
如我	-10.5657
下劣	-10.566
出現	-10.5661
而入	-10.5661
約事	-10.5662
果德	-10.5664
佛心	-10.5665
三約	-10.5671
i	-10.5674
空無	-10.5676
記中	-10.5678
休	-10.5678
故但	-10.5678
末世	-10.5679
妙觀	-10.5683
以何因緣	-10.5684
弟	-10.5693
約法	-10.5699
即當	-10.5702
教主	-10.5702
佛所說	-10.5703
我常	-10.5704
<	-10.5706
振	-10.5707
已下	-10.5713
八苦	-10.5713
稟教	-10.572
善女人	-10.5723
生處	-10.5729
各自	-10.5729
眼見	-10.5734
能具	-10.5736
括	-10.5741
示其	-10.5741
規	-10.5743
以來	-10.5744
欲求	-10.5746
能照	-10.5748
十號	-10.5748
雖殊	-10.575
證理	-10.575
三世諸佛	-10.5751
所現	-10.5751
中無	-10.5753
大集	-10.5756
皆屬	-10.5762
和尚	-10.5763
憍慢	-10.5768
入佛知見	-10.5772
有緣	-10.5775
眉	-10.5778
究盡	-10.5779
諸位	-10.578
釋經	-10.5784
深妙	-10.5787
諸功德	-10.5788
妙莊嚴王	-10.5791
見子	-10.5792
二經	-10.5793
非道	-10.5799
理體	-10.5799
阿耨菩提	-10.5802
斷德	-10.5802
茶	-10.5803
作佛事	-10.5804
第三句	-10.5804
華德	-10.5805
使人	-10.5805
法雨	-10.5806
有二意	-10.581
多有	-10.5814
共相	-10.5814
即入	-10.5817
令我	-10.5819
三釋	-10.582
微細	-10.582
皆令	-10.5833
既非	-10.5835
虧	-10.5838
十二部經	-10.5838
雅	-10.5841
商	-10.5841
頗	-10.5842
此法華經	-10.5842
當以	-10.5847
初正明	-10.5849
第四句	-10.5851
皆空	-10.5852
釋上	-10.5852
智德	-10.5855
後得智	-10.5859
左右	-10.5859
百千萬	-10.5859
四時	-10.5863
如其	-10.5863
思惑	-10.5863
何獨	-10.5869
回向	-10.5869
能緣	-10.5869
勝應	-10.5873
時也	-10.5874
我及	-10.5874
貪愛	-10.5877
諦理	-10.5878
能滅	-10.5881
七覺	-10.5882
一字	-10.5883
一化	-10.5885
得大	-10.5893
不破	-10.5897
註云	-10.5897
域	-10.5897
遊行	-10.5898
親友	-10.5906
四事	-10.5907
悉知	-10.5908
瘡	-10.591
不獨	-10.5912
輕重	-10.5918
不忘	-10.592
亦當	-10.5923
未生	-10.5926
富樓那	-10.5927
四味	-10.5927
正使	-10.593
利生	-10.5932
止息	-10.5936
二初頌	-10.5938
經行	-10.594
取著	-10.5942
消文	-10.5946
性故	-10.5952
不止	-10.5955
側	-10.5958
如來滅後	-10.5959
過於	-10.596
依經	-10.5961
釋迦牟尼	-10.5962
重頌	-10.5963
游	-10.5967
紹	-10.5971
大體	-10.5973
百萬億	-10.5976
北方	-10.5977
是法華經	-10.5989
彈	-10.5991
異於	-10.5993
家之	-10.5996
憂惱	-10.5997
恭	-10.6001
泛	-10.6001
不即	-10.6003
天親	-10.6004
起行	-10.6007
淫	-10.6008
復更	-10.6009
諸部	-10.601
論師	-10.6012
能入	-10.6015
無實	-10.6016
分真	-10.6025
薩	-10.6026
迦旃延	-10.6031
勒	-10.6032
慎	-10.6036
一番	-10.6042
俱名	-10.6043
所乘	-10.6045
一明	-10.6051
有作	-10.6052
釋尊	-10.6055
三佛	-10.6061
別也	-10.6061
一道	-10.6063
炬	-10.6063
則曰	-10.6068
全是	-10.6073
非常	-10.6073
自生	-10.6074
四天王	-10.6075
聞此	-10.608
軟	-10.6081
四分	-10.6086
正示	-10.6088
文相	-10.609
五百人	-10.6091
理無	-10.6094
不能知	-10.6094
皆應	-10.6094
聞巳	-10.6097
船	-10.61
境觀	-10.6101
更加	-10.6102
峯	-10.6103
無染	-10.6105
見之	-10.6107
墮落	-10.6109
▁初列	-10.611
經卷	-10.611
為菩薩	-10.6118
雖知	-10.6121
刀杖	-10.6123
過去佛	-10.6123
恒河沙等	-10.6125
約位	-10.6127
所在	-10.6127
勇猛	-10.6128
正助	-10.6131
乃至云	-10.6131
秉	-10.6136
稽首	-10.6136
思益	-10.6136
五事	-10.6139
諸大眾	-10.6139
師弟	-10.6145
古佛	-10.6151
衍	-10.6154
現瑞	-10.6157
了了	-10.6158
翻譯	-10.6159
頓悟	-10.6159
五識	-10.6159
德也	-10.6161
者何	-10.6162
其上	-10.6162
三菩提	-10.6164
辨異	-10.6168
來世	-10.6169
流布	-10.6169
不易	-10.6171
修得	-10.6175
信力	-10.6176
互融	-10.6176
雖說	-10.6177
一類	-10.6177
是所	-10.6181
歸命	-10.6188
何也	-10.6189
名異	-10.619
探	-10.6196
六行	-10.6196
據此	-10.6197
今更	-10.62
華嚴云	-10.6201
人說	-10.6202
紀	-10.6203
忻	-10.6204
前五	-10.6205
割	-10.6206
四人	-10.6207
古師	-10.6207
權實二智	-10.6208
溪	-10.6209
二正	-10.6209
多寶如來	-10.6209
方知	-10.6212
管	-10.6213
實性	-10.6215
造作	-10.6221
四依	-10.6225
得之	-10.6227
▁初分科	-10.6228
第一義諦	-10.6232
已來	-10.6235
伸	-10.6236
萬善	-10.624
頌中	-10.6248
今亦	-10.6252
那由他	-10.6256
下重	-10.6261
作念	-10.6263
浪	-10.6264
門也	-10.6272
素	-10.6273
欲令眾生	-10.6275
兩處	-10.6279
變為	-10.628
其福	-10.6284
麤妙	-10.6307
女身	-10.6313
長夜	-10.6315
不假	-10.6318
合為	-10.6321
嚴淨	-10.6323
耳根	-10.6324
△	-10.6327
較	-10.6328
出定	-10.6335
邪正	-10.6336
七十	-10.6339
知眾生	-10.6342
久近	-10.6343
佛出	-10.6344
政	-10.6346
破之	-10.6352
論其	-10.6353
夢中	-10.6354
南山	-10.6355
天龍	-10.6362
之物	-10.6366
此五	-10.6366
此處	-10.6369
丈夫	-10.6369
警	-10.6371
心行	-10.6374
二十八	-10.6376
令生	-10.6379
善友	-10.6382
雖在	-10.6382
司	-10.6386
而不知	-10.639
不有	-10.6391
天台云	-10.64
瓦石	-10.64
妄語	-10.64
此正	-10.6401
雪	-10.6402
小教	-10.6403
即空假中	-10.6404
實理	-10.6405
君子	-10.641
無過	-10.6411
大樹	-10.6412
梵云	-10.6415
體法	-10.6415
斯經	-10.6416
應有	-10.6416
普賢菩薩	-10.6418
歎德	-10.6418
二十三	-10.6422
分齊	-10.6427
定心	-10.6427
所覆	-10.6431
黨	-10.6437
頓頓	-10.6438
無量眾生	-10.6441
壁	-10.6441
大乘法	-10.6443
冬	-10.6443
諸大	-10.6448
中下	-10.6451
略示	-10.6451
計我	-10.6456
施化	-10.6456
化佛	-10.6457
他心	-10.646
若有人	-10.6462
大化	-10.6466
東西	-10.6466
恐怖	-10.6467
白牛	-10.6468
四十餘年	-10.6468
以表	-10.6469
疑也	-10.6469
下別	-10.6472
僻	-10.6473
周徧	-10.6474
莖	-10.6475
六通	-10.6478
虎	-10.6478
二俱	-10.6485
逾	-10.6492
泰	-10.6493
諸弟子	-10.6493
力用	-10.6494
益也	-10.6495
白佛言世尊	-10.6497
今聞	-10.6497
散亂	-10.6498
智也	-10.6499
進退	-10.6501
所問	-10.6502
本懷	-10.6503
初言	-10.6505
如意珠	-10.6506
渴	-10.6507
體即	-10.6507
爛	-10.6513
是何	-10.6515
末代	-10.6515
欲明	-10.6515
魏	-10.6523
種類	-10.6525
往來	-10.6525
不現	-10.6526
後得	-10.6534
別立	-10.6534
毗曇	-10.6542
屋	-10.6544
今得	-10.6551
外境	-10.6555
大旨	-10.6559
天魔	-10.6565
皆非	-10.6567
展	-10.6569
晚	-10.6577
銅	-10.6577
奢	-10.6579
頭陀	-10.6585
之主	-10.6587
文旨	-10.6588
五逆	-10.6595
明佛	-10.6598
都不	-10.6599
圓通	-10.66
證果	-10.6601
無數劫	-10.6603
二處	-10.6605
妙智	-10.6607
良醫	-10.6608
離於	-10.6609
醜	-10.6613
勸修	-10.662
所得功德	-10.6629
三止	-10.663
三分	-10.663
瑞相	-10.6634
安得	-10.6639
彼彼	-10.6639
魔王	-10.6641
其間	-10.6642
艸	-10.6644
引文	-10.6645
廣如	-10.6646
冤	-10.6646
威神	-10.6647
匠	-10.665
菴	-10.6654
佛弟子	-10.666
微塵數	-10.666
云何名	-10.6663
轉輪王	-10.6666
處中	-10.6667
以理	-10.667
是果	-10.6675
雄	-10.6678
敗	-10.668
非法	-10.668
南岳	-10.6682
攝法	-10.6684
二十年	-10.6685
道種智	-10.6685
淵	-10.6686
兔	-10.6688
別者	-10.669
乃可	-10.669
不定性	-10.6694
入者	-10.6696
攝受	-10.6698
深著	-10.6698
破惑	-10.6701
義理	-10.6701
中有三	-10.6703
從本	-10.6707
言此	-10.6707
難知	-10.6709
論釋	-10.671
萬二千	-10.6719
不相違	-10.672
不疑	-10.6721
二答	-10.6722
所用	-10.6727
日光	-10.6731
引導	-10.6734
意趣	-10.6737
王三昧	-10.6739
四百	-10.6749
佛智慧	-10.675
王言	-10.675
溢	-10.6752
內凡	-10.6757
炎	-10.6758
動地	-10.6763
半偈	-10.6765
報佛	-10.6767
增一	-10.6771
不可盡	-10.6776
永無	-10.6778
深淺	-10.6782
相成	-10.6784
䇿	-10.6789
皆巳	-10.6792
西域	-10.6792
佛答	-10.6794
之一字	-10.6795
乍	-10.6797
何但	-10.6799
略釋	-10.6803
能造	-10.6804
第三明	-10.6805
如來知見	-10.6806
分身諸佛	-10.6813
約義	-10.6813
百劫	-10.6815
自是	-10.6818
羅睺羅	-10.6818
陰界入	-10.682
但名	-10.6821
金錍	-10.6828
基	-10.683
為首	-10.6831
為法	-10.6832
自見	-10.6832
見如來	-10.684
琉璃	-10.6855
是第三	-10.6859
飽	-10.6864
起教	-10.6866
如理	-10.6866
譬中	-10.6866
故令	-10.6873
重釋	-10.6874
不來	-10.6876
善修	-10.688
或曰	-10.6881
若望	-10.6882
及餘	-10.6883
四相	-10.6888
擔	-10.6889
傳云	-10.689
未來世	-10.6895
得大勢	-10.6896
色像	-10.6898
熟酥	-10.6898
如大	-10.6899
樂小法	-10.69
旦	-10.6902
而未	-10.6903
三時	-10.6904
數數	-10.6907
十劫	-10.6909
道中	-10.6909
生空	-10.6916
若準	-10.6917
明如來	-10.6917
指前	-10.6919
至法華	-10.6922
約此	-10.6923
之意也	-10.6929
兩字	-10.6934
空處	-10.6934
方是	-10.6937
二地	-10.6939
法愛	-10.694
後之	-10.6941
次從	-10.6942
妙經	-10.6943
是第二	-10.695
一如	-10.695
孟	-10.6952
告舍利弗	-10.6958
種善根	-10.6959
意同	-10.696
一地	-10.6962
之業	-10.6963
將此	-10.6964
散心	-10.6966
隨意	-10.6969
爪	-10.6969
辛	-10.697
寂滅相	-10.697
又前	-10.6974
無諦	-10.6974
耀	-10.6974
吳	-10.6975
地中	-10.6978
相性	-10.6979
即真	-10.698
世智	-10.6985
八品	-10.6985
色相	-10.6988
所不能	-10.699
身相	-10.6991
是故須	-10.6995
護念	-10.6998
欲顯	-10.6999
別序	-10.7001
熏習	-10.7001
此譬	-10.7001
空法	-10.7002
鑑	-10.7003
亦未	-10.7005
位次	-10.7007
未至	-10.7007
心是	-10.7011
三藏菩薩	-10.7013
持品	-10.7017
▁初略	-10.7019
於其	-10.702
法住	-10.7026
不絕	-10.7031
從地涌出	-10.7033
有差別	-10.7035
但舉	-10.7037
復云	-10.7037
無量百千萬億	-10.7041
擾	-10.7042
舍宅	-10.7042
枕	-10.7043
塵勞	-10.7043
以大	-10.7046
四運	-10.7047
四趣	-10.7048
三藏中	-10.7049
一乘之	-10.7049
之過	-10.7051
劫濁	-10.7058
心境	-10.7059
謂佛	-10.7069
煗	-10.7074
衛	-10.708
溺	-10.7081
能受持	-10.7089
所趣	-10.709
四初	-10.7094
對前	-10.7097
是常	-10.71
無諸	-10.7105
諸佛法	-10.7107
善能	-10.7107
僕	-10.7107
理教	-10.7108
未甞	-10.7109
頌長行	-10.7114
擇滅	-10.7116
映	-10.7117
之相也	-10.7124
縣	-10.7124
住世	-10.7125
可信	-10.7126
為境	-10.7126
釋此	-10.7128
具明	-10.7129
名聞	-10.7129
義兼	-10.713
空故	-10.7132
猶在	-10.7134
化主	-10.7135
已上	-10.714
不墮	-10.714
善業	-10.7142
紫	-10.7144
髻	-10.7149
徐	-10.7152
驚疑	-10.7152
未熟	-10.7152
紙	-10.7153
別惑	-10.7155
今謂此	-10.7162
實非	-10.7164
被接	-10.7173
頌曰	-10.7173
後學	-10.7173
嘗	-10.7178
約人	-10.7179
賓	-10.7181
中品	-10.7187
如來智慧	-10.719
圍	-10.719
當於	-10.7193
下示	-10.7198
第一明	-10.7199
正頌	-10.72
以無	-10.7203
百歲	-10.7206
例前	-10.7207
離垢	-10.7208
正修	-10.721
垂迹	-10.7211
餘四	-10.7213
故稱為	-10.722
壅	-10.722
論主	-10.7223
▁初正明	-10.7223
銀	-10.7224
顏	-10.7225
皆爾	-10.7226
無以	-10.7228
卵	-10.723
還是	-10.7238
理實	-10.7247
何故不	-10.7247
所傳	-10.7254
憎	-10.7259
互具	-10.7264
樂小	-10.7264
初略	-10.7266
在昔	-10.7268
今乃	-10.7275
先以	-10.7279
道樹	-10.7281
所持	-10.7284
與彼	-10.7286
一異	-10.7292
見有	-10.7299
身而為說法	-10.73
常無常	-10.73
剋	-10.7301
扇	-10.7304
通釋	-10.7306
是其	-10.7307
昔所	-10.731
初發心	-10.7311
六十二見	-10.7313
帖	-10.7314
心數	-10.7318
巳有	-10.7318
佛前	-10.732
去聲	-10.7322
後人	-10.7323
行之	-10.7325
不相應	-10.7326
藥王菩薩	-10.733
何有	-10.7335
於大眾中	-10.7335
智慧力	-10.7336
行果	-10.7337
救護	-10.7338
祥	-10.7339
佛號	-10.7341
毗尼	-10.7341
鹽	-10.7344
饑	-10.7346
愧	-10.7347
讚佛	-10.7351
摩睺羅伽	-10.7357
節節	-10.7358
如空	-10.7359
坑	-10.7359
劫國	-10.736
聖位	-10.7361
如雲	-10.7362
之數	-10.7367
九部	-10.7368
▁七	-10.7368
塔廟	-10.7371
淳	-10.7375
今略	-10.7376
向下	-10.7378
是諸眾生	-10.7379
今釋	-10.7379
志願	-10.738
性體	-10.7383
亦知	-10.7383
二佛	-10.7384
所得法	-10.7386
大劫	-10.7393
如上說	-10.7399
所執	-10.7401
一切佛法	-10.7402
得自在	-10.7408
根熟	-10.741
妙音菩薩	-10.7414
長壽	-10.7417
聾	-10.7418
徑	-10.7419
孤山	-10.742
井	-10.742
付財	-10.7421
浴	-10.7422
涌	-10.7422
隱顯	-10.7423
為汝	-10.7425
方有	-10.7425
而知	-10.7426
如虗空	-10.7429
為眾	-10.743
若此	-10.7433
說法者	-10.7435
果中	-10.7438
理同	-10.7441
合前	-10.7441
舌根	-10.7441
義便	-10.7443
某甲	-10.7444
賴	-10.7447
我子	-10.7447
六者	-10.7449
舒	-10.7449
四釋	-10.7449
鐘	-10.7449
窟	-10.7451
疊	-10.7451
緫	-10.7451
踊躍	-10.7451
未免	-10.7452
丘	-10.7454
不同故	-10.7455
恃	-10.7456
生天	-10.7456
丹	-10.7457
得樂	-10.7457
米	-10.7457
疑念	-10.7458
秀	-10.746
淨名疏	-10.7462
天女	-10.7467
煩惱障	-10.7468
六千	-10.747
出生死	-10.7471
發問	-10.7472
於三界	-10.7474
如日	-10.7474
如海	-10.7477
指要	-10.7478
四面	-10.7481
非佛	-10.7483
師子座	-10.7485
利養	-10.7488
玅玄	-10.7494
身得度者	-10.7498
發迹	-10.7502
𦦨	-10.7505
實也	-10.7506
所歸	-10.7509
近遠	-10.7512
不淨觀	-10.7517
思量	-10.7519
聞是	-10.7519
以辨	-10.752
除糞	-10.7524
我法	-10.7526
多劫	-10.7527
是諸佛	-10.753
釋論云	-10.7533
初門	-10.7533
無此	-10.7533
六義	-10.7534
景	-10.7537
同類	-10.7541
於十方	-10.7554
開敷	-10.7557
合成	-10.7558
不開	-10.7559
無可	-10.7569
困	-10.7571
深信	-10.7571
那含	-10.7573
無妨	-10.7574
五蘊	-10.7575
睡眠	-10.7576
轉變	-10.7576
麻	-10.7576
牒前	-10.7577
圓位	-10.7579
康	-10.7581
親近處	-10.7583
法執	-10.7585
道也	-10.7588
教菩薩法	-10.7589
輪迴	-10.7591
一切法趣	-10.7594
影響	-10.7603
奉持	-10.7603
肇	-10.7603
是經典	-10.7605
八教	-10.7605
喜樂	-10.7606
彼國	-10.7611
氷	-10.7613
溫	-10.7613
上云	-10.7617
慚	-10.7618
分別說	-10.7621
最後身	-10.7622
偏真	-10.7623
八句	-10.7628
大乘教	-10.763
堪任	-10.7631
善逝	-10.7632
如說修行	-10.7632
必當	-10.7635
下結成	-10.7637
慇懃	-10.7638
擁護	-10.7645
之罪	-10.7648
判教	-10.7649
然而	-10.7652
無行	-10.7653
有人云	-10.7654
由前	-10.766
狼	-10.7661
先後	-10.7663
車體	-10.7664
一邊	-10.7664
分為二	-10.7666
廿	-10.7672
於一切法	-10.7676
之師	-10.7677
現世	-10.7678
發誓	-10.768
法寶	-10.7682
雖異	-10.7682
破惡	-10.7686
不等	-10.7686
四十年	-10.7691
多人	-10.7691
鄭	-10.7692
賢劫	-10.7696
雖非	-10.7698
皆成	-10.7699
是總	-10.7699
周遍	-10.77
受報	-10.77
一切煩惱	-10.7701
善財	-10.7703
男子	-10.7705
假實	-10.7709
乾慧	-10.7711
辟支	-10.7711
若取	-10.7713
亦須	-10.7714
滿慈	-10.7714
如世	-10.7718
校量	-10.7719
照明	-10.7719
發相	-10.772
當為	-10.7723
法會	-10.7724
此句	-10.7725
是無常	-10.7731
法喜	-10.7734
生長	-10.7734
為王	-10.7746
他身	-10.7746
喻佛	-10.7747
準此	-10.7747
聞持	-10.7749
大王當知	-10.775
幡	-10.7755
若其	-10.7756
歡	-10.7757
螺	-10.7761
歸於	-10.7763
無二無別	-10.7763
漸教	-10.777
取證	-10.7774
伯	-10.7774
生死涅槃	-10.7778
法忍	-10.7778
以法	-10.7779
不悟	-10.7781
即佛	-10.7784
以小	-10.7787
算	-10.7787
如下	-10.7789
寶珠	-10.779
即同	-10.7792
其旨	-10.7793
斷見思	-10.7794
聲聞乘	-10.7799
而云	-10.7802
即其義也	-10.7804
隨義	-10.7804
不息	-10.7807
諸善	-10.7807
引論	-10.7809
祭	-10.7809
府	-10.7813
知佛	-10.7814
發言	-10.7816
有頂	-10.782
欲重宣此義	-10.7821
初聞	-10.7822
教者	-10.7824
三十三天	-10.7829
持此經	-10.7829
巳身	-10.7832
未可	-10.7833
圓成	-10.7834
總譬	-10.7836
閻浮	-10.7836
故下文云	-10.7837
准此	-10.7837
完	-10.7838
心大歡喜	-10.7843
京	-10.7845
人之	-10.7846
下句	-10.785
初長行	-10.785
正義	-10.7851
聰	-10.7852
於世	-10.7854
既巳	-10.7855
此非	-10.7863
已後	-10.7864
修禪	-10.7866
諸餘	-10.7871
懈	-10.7872
心地	-10.7873
豈能	-10.7875
曇	-10.7878
旃檀	-10.7879
逸	-10.7881
昔教	-10.7882
初引	-10.7883
隨其所	-10.7883
廟	-10.7883
四品	-10.7888
魔事	-10.7895
有餘涅槃	-10.7898
彌勒菩薩	-10.79
靜慮	-10.7906
》、《	-10.7909
道法	-10.7911
此上	-10.7914
得清淨	-10.7917
小智	-10.7918
證成	-10.792
伽陀	-10.7922
尚未	-10.7923
穿	-10.7925
諸佛之	-10.7925
之下	-10.7927
八方	-10.7928
雖通	-10.7936
因者	-10.7936
故引	-10.7938
鬘	-10.7949
圓因	-10.7952
歷別	-10.7952
彼時	-10.7953
妙用	-10.7955
次正	-10.7956
漸悟	-10.7957
所通	-10.7959
方廣	-10.7959
力者	-10.7968
易解	-10.7973
為下	-10.7981
開譬	-10.7981
大覺	-10.7983
實不	-10.7985
所計	-10.7986
不縱不橫	-10.7986
煞	-10.7987
於小	-10.799
心造	-10.799
箭	-10.7997
外人	-10.7999
故前	-10.7999
一事	-10.7999
序中	-10.8002
倦	-10.8003
次句	-10.8003
同名	-10.8003
偶	-10.8003
解也	-10.8005
若但	-10.8006
奚	-10.8007
實是	-10.8014
然燈	-10.8016
初舉	-10.8016
漸圓	-10.8016
侯	-10.8019
三合	-10.8022
修止觀	-10.8024
在其中	-10.8027
教意	-10.8031
天然	-10.8038
幼	-10.8041
後說	-10.8048
成佛之	-10.805
一頌半	-10.8053
成於	-10.8054
得脫	-10.8054
俱時	-10.8056
眾會	-10.8057
無由	-10.8059
散華	-10.8062
只一	-10.8063
所被	-10.8065
三十心	-10.8065
增進	-10.8066
業識	-10.8066
開近顯遠	-10.8067
而發	-10.8067
空見	-10.8071
求之	-10.8073
僮僕	-10.8075
瑕	-10.8077
大寶	-10.8077
今復	-10.808
開塔	-10.808
煙	-10.8081
整	-10.8083
始得	-10.8083
是理	-10.8085
薩婆若	-10.8087
無定	-10.8089
嗣	-10.809
所治	-10.8091
虫	-10.8092
問何	-10.8094
便謂	-10.8096
因成	-10.8102
歡喜踊躍	-10.8109
觀慧	-10.8112
五薀	-10.8113
必得	-10.8115
修學	-10.8122
歟	-10.8123
邊見	-10.8126
天中	-10.8128
賣	-10.813
有如是	-10.8147
諸外道	-10.8149
破於	-10.8151
日夜	-10.8152
悉見	-10.8152
未了	-10.8158
何由	-10.8159
能應	-10.816
於法華	-10.8161
玅法	-10.8163
若入	-10.8164
比丘比丘尼	-10.8164
▁三頌	-10.8166
群生	-10.8174
方便者	-10.8175
兩意	-10.8176
妄心	-10.8176
乃知	-10.8177
六年	-10.8183
無漏智	-10.8184
染著	-10.8189
以至	-10.8189
縮	-10.8192
此定	-10.8195
會通	-10.8196
見我	-10.82
惡法	-10.8203
佛告諸比丘	-10.8209
不專	-10.8213
子曰	-10.8215
結會	-10.8216
本國	-10.8217
華果	-10.8218
與眾生	-10.8218
佛於	-10.8219
有兩	-10.8223
神呪	-10.8224
何殊	-10.8226
哀愍	-10.8228
為主	-10.8229
斯陀含	-10.8232
無得	-10.8233
欲說	-10.8234
兜率	-10.8235
但觀	-10.8243
此兩	-10.8247
貞	-10.8247
片	-10.8249
前品	-10.8255
而觀	-10.8255
不同也	-10.8255
聞品	-10.8256
干	-10.826
休息	-10.826
圓修	-10.8262
三地	-10.8263
其性	-10.8265
未出	-10.8268
了義	-10.8269
當知此	-10.8269
為異	-10.8271
優婆夷	-10.8272
不發	-10.8279
涅	-10.828
拙	-10.828
黎	-10.8283
等皆	-10.8284
智論	-10.8286
肯	-10.8286
後時	-10.8287
點示	-10.8287
槩	-10.8288
射	-10.8288
次正釋	-10.829
通序	-10.829
掉	-10.829
分四	-10.829
悞	-10.829
譽	-10.8291
屍	-10.8291
半字	-10.8292
前三教	-10.8293
九種	-10.8298
之方	-10.8305
佛及	-10.8306
不遠	-10.8313
結示	-10.8316
無上士	-10.8317
聞此經	-10.8317
入位	-10.8319
即生	-10.8326
翳	-10.8326
肅	-10.8327
初正釋	-10.8328
經歷	-10.8329
無極	-10.833
大臣	-10.833
常念	-10.8331
鼠	-10.8331
能轉	-10.8331
空理	-10.8334
產	-10.8337
十向	-10.8344
為麤	-10.8347
下二句	-10.8349
佛世尊	-10.8351
俱舍云	-10.8354
或復	-10.8356
佛國	-10.836
川	-10.8362
今品	-10.8364
辯才	-10.8366
十萬	-10.8366
大樂說	-10.8367
不死	-10.8367
三世佛	-10.837
宗旨	-10.8372
寡	-10.8374
壯	-10.8374
什	-10.8382
烈	-10.8383
我慢	-10.8383
現生	-10.8383
請說	-10.8386
由於	-10.8387
皆約	-10.8388
仁者	-10.8388
於如來	-10.8389
▁二偈頌	-10.8396
薩埵	-10.8399
不廢	-10.84
芽	-10.8405
攝云	-10.8406
機宜	-10.8408
如一	-10.8409
編	-10.8409
派	-10.8413
領悟	-10.8413
於此經	-10.8415
諸國	-10.8417
正憶念	-10.842
進修	-10.842
龜	-10.842
方便也	-10.8425
共成	-10.8425
世出世	-10.8431
無生法忍	-10.8432
是能	-10.8436
本淨	-10.8438
十惡	-10.844
以立	-10.8442
別說	-10.8446
中自有	-10.8447
所具	-10.8448
心起	-10.8448
色法	-10.845
劣應	-10.8452
兩重	-10.8452
諭	-10.8453
茂	-10.8455
嫉妬	-10.8456
役	-10.8457
重重	-10.8459
十迴向	-10.846
頸	-10.846
本為	-10.8463
先標	-10.8465
大段	-10.8465
餘國	-10.8467
四見	-10.8467
聖者	-10.8468
生酥	-10.8468
何義	-10.8469
殺人	-10.847
利人	-10.8472
說大乘經	-10.8473
出其	-10.8475
為諸菩薩	-10.8476
取捨	-10.8481
秪是	-10.8483
有其	-10.8485
三年	-10.8486
易知	-10.8486
未明	-10.8486
一段	-10.8487
作是言	-10.8489
八正道	-10.8489
之聲	-10.849
震動	-10.8491
無諍	-10.8492
覈	-10.8497
說般若	-10.8498
猒	-10.8502
奔	-10.8504
無形	-10.8505
故舉	-10.8507
乃名	-10.851
一行頌	-10.851
所受	-10.8511
之觀	-10.8512
中亦有	-10.8512
之慧	-10.8514
入中	-10.8515
菩提樹下	-10.8518
偏小	-10.852
能依	-10.8531
八子	-10.8531
法座	-10.8533
未斷	-10.8536
一念三千	-10.8536
久修	-10.8536
穀	-10.8536
相資	-10.8538
籠	-10.8539
擲	-10.8542
抄	-10.8543
為小	-10.8543
證真	-10.8546
根本智	-10.8549
正由	-10.8549
徧滿	-10.8552
法花	-10.8555
陰境	-10.8559
須彌山	-10.8565
往生	-10.8569
種姓	-10.8569
大勢	-10.8571
平等大慧	-10.8572
如前釋	-10.8573
各三	-10.8573
五趣	-10.8577
神力品	-10.8578
稱讚	-10.8578
結使	-10.8579
迭	-10.8579
其言	-10.8585
思慧	-10.8586
便為	-10.8589
踐	-10.859
結歸	-10.8591
受戒	-10.8595
之首	-10.8597
真常	-10.8603
觀一切法	-10.8603
六瑞	-10.8608
判為	-10.861
無量功德	-10.8611
共為	-10.8614
嗚呼	-10.8619
即性	-10.8621
十六句	-10.8625
尸棄	-10.8625
引之	-10.8626
受請	-10.8627
熱惱	-10.8628
法華云	-10.8631
解義	-10.8634
下一行	-10.8638
百由旬	-10.8638
諸菩薩摩訶薩	-10.8646
佛成道	-10.8647
善哉善哉	-10.8653
四位	-10.8656
第一義空	-10.8659
正法華	-10.8662
。」【【	-10.8665
能障	-10.8668
上有	-10.8669
寶華	-10.8673
具十	-10.8676
既然	-10.8677
增益	-10.8678
能如是	-10.8683
忉利	-10.8683
但中	-10.8684
觀心者	-10.8688
復言	-10.8688
一大事因緣	-10.8689
之迹	-10.869
華光	-10.8695
諸佛菩薩	-10.8696
四重	-10.8701
言教	-10.8701
者是也	-10.8702
寶雲	-10.8704
結勸	-10.8705
祖師	-10.8706
長安	-10.8709
倫	-10.871
駕	-10.8712
伏惑	-10.8712
範	-10.8713
浩	-10.8715
即般若	-10.8718
圓理	-10.8718
妻子	-10.8719
追頌	-10.872
今觀	-10.8721
一約	-10.8722
野干	-10.8723
行一	-10.8724
教證	-10.8724
見諸佛	-10.8726
二十二	-10.8733
在世	-10.8736
八解脫	-10.8736
驗知	-10.8738
勝義	-10.8738
從事	-10.874
遶	-10.8741
四性	-10.8741
有量	-10.8743
佛說法	-10.8744
搖	-10.8744
不欲	-10.8745
此與	-10.8747
佛與	-10.8748
無有是處	-10.8748
妙宗	-10.8751
諸地	-10.8753
體一	-10.8756
舟	-10.8764
開會	-10.8765
受樂	-10.8766
但能	-10.8766
蓋是	-10.8767
無功用	-10.8771
皆依	-10.8775
法合	-10.8775
誰能	-10.8779
結會古今	-10.8786
金剛三昧	-10.8787
消釋	-10.8788
初總標	-10.8789
釋籤云	-10.88
我巳	-10.88
未發	-10.8802
如是展轉	-10.8804
令住	-10.8805
眉間	-10.8806
既同	-10.8807
疏釋	-10.8808
思念	-10.8809
惡口	-10.881
是諸菩薩	-10.881
次以	-10.8811
即於	-10.8814
羊鹿	-10.8814
於今	-10.8816
能現	-10.8818
梵天王	-10.8822
亦皆	-10.8822
熾	-10.8825
因緣生	-10.8827
僧坊	-10.8827
非直	-10.8831
何事	-10.8831
有生	-10.8833
聲聞眾	-10.8837
淨德	-10.8839
白毫	-10.8839
住前	-10.8839
嗟	-10.8839
偈文	-10.8839
六品	-10.884
即從座起	-10.8841
至果	-10.8841
悟解	-10.8845
認	-10.8845
候	-10.8845
鼻根	-10.8847
謂是	-10.8847
性善	-10.8848
本文	-10.885
付家業	-10.8853
攝得	-10.8854
聽者	-10.8854
像法	-10.8855
必先	-10.8856
有邊	-10.886
至涅槃	-10.886
是名為	-10.8861
至寶所	-10.8862
對辨	-10.8863
▁一正	-10.8867
自覺	-10.8869
爾乃	-10.887
慰	-10.8872
成就者	-10.8872
便得	-10.8881
法報	-10.8881
庭	-10.8881
跋	-10.8883
智行	-10.8883
刑	-10.8883
驅	-10.8884
近處	-10.8885
天人師	-10.8886
結歎	-10.8887
巳成	-10.8889
此觀	-10.889
上句	-10.8891
津	-10.8892
長文	-10.8893
所列	-10.8895
若修	-10.8896
至于	-10.8897
與汝	-10.8899
喻如來	-10.8901
觀空	-10.8901
。」《	-10.8902
兄	-10.8903
第二句	-10.8909
之則	-10.8911
之稱	-10.8915
俟	-10.8915
為六	-10.8917
而住	-10.8919
無明為	-10.892
惑業	-10.8926
治之	-10.8928
此界	-10.8928
蜜	-10.8931
知者	-10.8932
如是之人	-10.8932
而於	-10.8933
》「	-10.8933
皆共	-10.8935
方便力	-10.8936
誦經	-10.8939
四段	-10.894
?「	-10.8945
文為三	-10.8946
十小劫	-10.8949
邊際	-10.8951
此就	-10.8953
下舉	-10.8954
三字	-10.8954
報恩	-10.8955
尚非	-10.8958
講說	-10.8958
敵	-10.896
麁妙	-10.8962
如來亦復如是	-10.8966
上言	-10.8966
安慰	-10.8967
三惡道	-10.8967
▁二正	-10.8967
躬	-10.8972
羅云	-10.8973
翼	-10.8973
果者	-10.8974
羯磨	-10.8974
尚有	-10.8975
今世	-10.8976
諮	-10.8977
梵網	-10.8978
此菩薩	-10.8979
總是	-10.8981
明菩薩	-10.8984
為總	-10.8984
不同者	-10.8985
具一切法	-10.8986
正定	-10.8991
之功德	-10.8994
特勝	-10.8995
先舉	-10.8995
忘失	-10.9003
苦道	-10.9006
但在	-10.9007
大同	-10.9008
萌	-10.9011
事中	-10.9012
百界千如	-10.9013
上首	-10.9016
晝	-10.9017
半頌	-10.902
郡	-10.9021
一途	-10.9022
皆無	-10.9023
次二句	-10.9026
分之	-10.9029
貧窮	-10.9029
『	-10.903
亦不能	-10.9031
之宗	-10.9035
而作是念	-10.9035
火所燒	-10.9044
提婆達多	-10.9046
合為一	-10.9048
假立	-10.9049
未開	-10.905
無罪	-10.905
無生智	-10.905
生故	-10.9053
經明	-10.9056
正合	-10.9057
時長	-10.9058
質直	-10.906
序分	-10.906
篤	-10.9062
四王	-10.9063
莫非	-10.9063
以神通力	-10.9068
為物	-10.9074
得生	-10.9078
勝故	-10.9078
斷疑	-10.9082
名利	-10.9085
有疑	-10.9087
今時	-10.9089
普門品	-10.9091
▁初引	-10.9091
疑網	-10.9091
因位	-10.9093
不攝	-10.9096
多分	-10.9096
性也	-10.9098
幼稚	-10.91
邁	-10.9101
瞻仰	-10.9102
永盡	-10.9103
幻化	-10.9104
空空	-10.9106
知有	-10.9106
超越	-10.9107
逃	-10.9108
亦二	-10.9109
今皆	-10.9109
品題	-10.9109
衡	-10.9112
盤	-10.9114
若我	-10.9116
二乘之人	-10.9117
叵	-10.9118
之惑	-10.9121
何因緣	-10.9123
之情	-10.9123
與此	-10.9125
開出	-10.9125
諸相	-10.9126
後分	-10.9128
不正	-10.9128
無所有處	-10.9129
過去世	-10.9129
又聞	-10.9137
依他性	-10.9139
四字	-10.9141
人身	-10.9145
感佛	-10.9146
法音	-10.9148
不雜	-10.9148
方成	-10.9149
物機	-10.915
初合	-10.9154
別示	-10.9154
上文云	-10.9156
合論	-10.9156
入城	-10.9157
得授記	-10.9162
所宜	-10.9164
色香	-10.917
下總結	-10.9175
先世	-10.9175
引大經	-10.9176
諦聽	-10.9179
王舍城	-10.9194
設教	-10.9196
諸境	-10.9198
能行	-10.9199
俯	-10.9201
豆	-10.9203
後釋	-10.9204
無減	-10.9205
果位	-10.9208
圓極	-10.9209
妙者	-10.9209
於人	-10.921
為善	-10.9211
汝等當	-10.9213
申明	-10.9217
請問	-10.9218
二品	-10.922
化導	-10.9221
直說	-10.9222
藍	-10.9224
未審	-10.9226
染淨二	-10.9228
非究竟	-10.9228
所念	-10.9229
人多	-10.9234
圓覺	-10.9236
正理	-10.9239
堪忍	-10.9242
三輪	-10.9242
不可量	-10.9245
乘體	-10.9246
此六	-10.925
十二年	-10.9251
如實知	-10.9253
是法身	-10.9253
真妄	-10.9255
有五種	-10.9255
未嘗	-10.9257
圓明	-10.9258
呼為	-10.9258
事造	-10.9261
莫能	-10.9262
之謂也	-10.9263
巳證	-10.9268
又二初	-10.9271
有九	-10.9276
不可見	-10.9276
三七日	-10.9277
前說	-10.9277
今就	-10.928
▁二今	-10.9281
至今	-10.9283
起用	-10.9286
不染	-10.9289
宰	-10.9289
職	-10.9291
無障礙	-10.9292
達磨	-10.9293
大用	-10.9294
能修	-10.9297
破古	-10.93
相關	-10.9301
之能	-10.9304
同入	-10.9305
業報	-10.9308
皆在	-10.9312
必具	-10.9314
長時	-10.9319
師資	-10.9319
事故	-10.932
欲重宣此義而說偈言	-10.932
初示	-10.9322
常寂	-10.9323
地論	-10.9326
佛告阿難	-10.9328
▁一頌	-10.9333
區	-10.9333
菩薩為	-10.9336
為成	-10.9337
忌	-10.9337
能仁	-10.9337
赴機	-10.9338
湛然	-10.9338
得無漏	-10.9339
旨歸	-10.934
識處	-10.934
陶	-10.934
喻於	-10.9342
宇	-10.9343
世間解	-10.9343
以大乘	-10.9346
見理	-10.9346
三塗	-10.9351
從於	-10.9353
龍神	-10.9357
說教	-10.9358
皆如	-10.9358
皆可	-10.9362
奉行	-10.9364
提婆	-10.9366
是真實	-10.9369
掩	-10.9377
千由旬	-10.938
應機	-10.938
怨賊	-10.9382
千億	-10.9382
李	-10.9384
徧照	-10.9385
昔於	-10.9385
愁	-10.9385
此二句	-10.9389
若離	-10.939
方丈	-10.9391
無量壽	-10.9391
主伴	-10.9394
永異	-10.9398
今是	-10.9399
勝解	-10.94
遍滿	-10.9402
佛菩提	-10.9405
知一切法	-10.9405
眾行	-10.9406
即應	-10.9407
餘文	-10.9408
止行	-10.9409
內身	-10.9413
其形	-10.9416
渠	-10.9423
何關	-10.9423
逈	-10.9425
未悟	-10.9427
分別功德品	-10.9427
譏	-10.9428
琴	-10.9429
未到	-10.9429
膠	-10.943
識心	-10.943
杜	-10.943
后	-10.9436
未說	-10.9436
依何	-10.9445
悉能	-10.9449
此娑婆世界	-10.9451
無漏法	-10.9451
領受	-10.9455
佛在世	-10.9456
若未	-10.9457
聞佛說	-10.9462
渴仰	-10.9462
歎佛	-10.9465
會眾	-10.9466
光中	-10.9469
大會	-10.947
奇特	-10.947
總頌	-10.9471
兆	-10.9472
是因	-10.9474
忠	-10.9478
海中	-10.9479
且以	-10.948
見父	-10.9484
稱其	-10.9486
十八界	-10.9487
開為二	-10.9489
諸門	-10.9489
非空	-10.9489
大乘經	-10.9492
疲	-10.9494
別對	-10.9495
喻中	-10.9496
所求	-10.9498
普賢觀	-10.9499
多諸	-10.95
十歲	-10.9503
聞而	-10.9505
誘引	-10.9506
此一行	-10.9507
法華前	-10.9509
世第一	-10.951
異相	-10.951
深廣	-10.951
知音	-10.951
顯其	-10.9515
諸經論	-10.9516
覲	-10.9516
隨宜說法	-10.9517
圓別	-10.9518
故立	-10.9519
其道	-10.9521
允	-10.9523
辰	-10.9525
此會	-10.9526
從前	-10.9527
身體	-10.9534
妄念	-10.9536
國界	-10.9536
我有	-10.9538
三處	-10.954
例餘	-10.9541
自得	-10.9543
自爾	-10.9545
依文	-10.9545
舍利弗當知	-10.9545
起信	-10.9549
非權非實	-10.9551
觀解	-10.9552
立行	-10.9552
安置	-10.9552
此位	-10.9553
其一	-10.9553
意樂	-10.9554
四大弟子	-10.9555
有無量	-10.9559
而此	-10.9562
摩訶般若	-10.9563
三十三	-10.9564
地涌	-10.9566
既其	-10.9569
大綱	-10.9569
最為第一	-10.9569
環	-10.9571
嘉祥	-10.9572
紅	-10.9573
對法	-10.9573
爽	-10.9573
爾時舍利弗	-10.9579
降魔	-10.9579
若別	-10.9581
而求	-10.9581
尋常	-10.9586
初列	-10.9589
正解	-10.9591
無障	-10.9592
唯有一	-10.9593
欲見	-10.9596
云爾	-10.9598
明位	-10.9598
怯弱	-10.9603
旋陀羅尼	-10.9608
初如文	-10.961
正在	-10.9614
奧	-10.9614
勤精進	-10.9615
選	-10.9616
祈	-10.9617
已得	-10.9617
佛所護念	-10.9621
取其	-10.9621
破其	-10.9622
作法	-10.9627
迦羅	-10.9628
久成	-10.963
離苦	-10.9632
亦空	-10.9634
三重	-10.9637
一十	-10.9637
之善	-10.964
水火	-10.9641
各有所	-10.9643
悟道	-10.9644
別人	-10.965
大歡喜	-10.9653
佛化	-10.9655
能受	-10.9665
諂	-10.9668
性者	-10.967
希望	-10.9671
觀中	-10.9672
神足	-10.9676
踊	-10.9677
五蓋	-10.9677
遮那	-10.9678
十二行	-10.9682
謂有	-10.9684
限量	-10.9686
資成	-10.9688
六種震動	-10.9691
取相	-10.9696
誤也	-10.9699
皆須	-10.9699
前七	-10.9702
違順	-10.9702
境中	-10.9702
重罪	-10.9703
本迹者	-10.9705
德行	-10.9706
定中	-10.9707
郭	-10.9708
洪	-10.971
何耶	-10.9711
譬如有人	-10.9713
二土	-10.9713
得法	-10.9714
獲得	-10.9714
無際	-10.9714
之香	-10.9715
三三昧	-10.9717
難云	-10.972
毒藥	-10.9722
亦得名	-10.9722
不能得	-10.9723
聞是經	-10.9727
修中	-10.9727
迷惑	-10.9729
起慈悲	-10.9731
異耳	-10.9731
執著	-10.9734
柔和	-10.9741
燃	-10.9744
次引證	-10.9747
大城	-10.9751
泥洹	-10.9753
雙標	-10.9754
此一句	-10.9755
不畏	-10.9756
截	-10.9757
不隔	-10.9758
本也	-10.9758
乃為	-10.976
它	-10.9761
古德	-10.9761
恠	-10.9764
正體	-10.9766
大般涅槃	-10.9767
下辨	-10.9768
供養諸佛	-10.9774
經題	-10.9775
以智	-10.9775
有殊	-10.9776
下譬	-10.9778
本住	-10.9778
羅什	-10.978
化菩薩	-10.979
百萬億那由他	-10.9792
十方三世	-10.9793
二行半	-10.9795
論意	-10.9795
書云	-10.9795
十六行	-10.9796
明珠	-10.9797
蔭	-10.9799
一方	-10.98
盆	-10.9801
四番	-10.9801
位在	-10.9804
父母所生	-10.9804
二世	-10.9811
五度	-10.9812
隅	-10.9812
吞	-10.9813
尚爾	-10.9816
實教	-10.9821
無生門	-10.9824
。􂔹	-10.9824
善道	-10.9825
如來說法	-10.9828
精勤	-10.983
不順	-10.983
所動	-10.983
推之	-10.9831
禪波羅蜜	-10.9833
其德	-10.9834
滅盡	-10.9835
權也	-10.9836
所不能知	-10.9837
增上慢人	-10.9838
兄弟	-10.9839
俱無	-10.984
為破	-10.9842
惑盡	-10.9843
此喻	-10.9847
惟願	-10.9848
牀	-10.9849
舉譬	-10.9852
禪中	-10.9853
文自	-10.9855
之難	-10.9856
料揀	-10.9856
體者	-10.9857
莊子	-10.9859
即解脫	-10.9859
言辭	-10.986
是心	-10.9865
部中	-10.9865
攝論	-10.9869
習果	-10.9873
亦與	-10.9874
聖主	-10.9875
意顯	-10.9877
所著	-10.9885
淨故	-10.9888
生解	-10.9889
欲樂	-10.9889
達多	-10.9891
報應	-10.9891
大威德	-10.9892
作禮	-10.9894
乃得	-10.9894
四無量心	-10.9896
今生	-10.9896
十六心	-10.9898
奴	-10.9901
屠	-10.9902
惟忖	-10.9902
吉祥	-10.9903
罔	-10.9905
諸聲聞眾	-10.9906
麥	-10.9907
賈	-10.9908
舉其	-10.9908
私謂	-10.9909
所知障	-10.9918
自下	-10.9922
初文二	-10.9933
次一行	-10.9933
五門	-10.9934
」【(	-10.9935
於未來世	-10.9936
於生死	-10.9939
毘曇	-10.9943
初觀	-10.9943
有想	-10.9944
斷滅	-10.9946
菓	-10.9948
隨自意	-10.9951
輕慢	-10.9951
瑞應	-10.9951
歸趣	-10.9952
能了	-10.9956
夭	-10.9958
報果	-10.9958
三十四心	-10.9959
亦不得	-10.996
四土	-10.9963
不改	-10.9963
一實諦	-10.9967
顯是	-10.9968
七者	-10.9975
真珠	-10.9975
為聲聞	-10.9976
復能	-10.9984
大菩提	-10.9985
迹本	-10.9986
豁	-10.9986
直明	-10.9991
千佛	-10.9992
膝	-10.9996
契經	-10.9996
鑽	-10.9996
食之	-10.9997
遠本	-10.9998
爾時釋迦牟尼佛	-10.9998
殃	-10.9999
若對	-11.0002
破執	-11.0003
所對	-11.0004
我是	-11.0005
買	-11.0007
互舉	-11.0016
數量	-11.0018
於實	-11.0019
眾生濁	-11.002
又能	-11.0022
多羅	-11.0024
過去諸佛	-11.0025
無虗妄	-11.0026
見於	-11.0029
亦隨	-11.003
八正	-11.0031
形聲	-11.0032
諸家	-11.0035
永不	-11.0036
在門外	-11.0038
三乘共	-11.0039
淨光	-11.0042
羅睺	-11.0042
可爾	-11.0043
合說	-11.0044
以是義故	-11.0046
或問	-11.0046
生歡喜	-11.0047
漫	-11.0047
托	-11.0047
板	-11.0048
滑	-11.0048
標章	-11.0049
不妄	-11.0051
為用	-11.0056
在座	-11.0056
見愛	-11.0057
現滅	-11.0058
入生死	-11.0061
下地	-11.0062
菩提涅槃	-11.0064
長子	-11.0065
大果	-11.0066
▁三若	-11.0069
善人	-11.007
明義	-11.0077
時諸梵天王	-11.0078
一月	-11.0078
大通智勝佛	-11.008
現相	-11.0083
湛	-11.0085
瑜伽論	-11.0086
𥁞	-11.0089
事用	-11.009
嬉戲	-11.0093
不差	-11.0093
菩薩戒	-11.0094
第十六	-11.0094
戀	-11.0094
從理	-11.0096
懃	-11.0097
不見有	-11.0098
通義	-11.01
火燒	-11.0102
而實	-11.0106
卿	-11.0106
無自性	-11.0108
所取	-11.0108
證知	-11.0111
且依	-11.0113
別則	-11.0114
普照	-11.0115
之異名	-11.0117
明淨	-11.0118
餘之	-11.0121
弘法	-11.0125
今頌	-11.0127
,〈	-11.0128
無偏	-11.013
巳還	-11.0131
心具	-11.0137
三苦	-11.0138
外有	-11.014
毗盧遮那	-11.0142
滴	-11.0143
於諸法	-11.0149
小樹	-11.015
圓行	-11.0151
創	-11.0151
吒	-11.0153
刃	-11.0154
實義	-11.0155
體具	-11.0156
恐誤	-11.0162
而坐	-11.0163
更明	-11.0167
承上	-11.0168
餘九	-11.0174
。」「	-11.0177
志求	-11.018
五分	-11.0184
從初發心	-11.0188
正教	-11.0189
偏空	-11.0189
入大乘	-11.0189
淨佛國土	-11.019
顯密	-11.019
衣裓	-11.019
圓中	-11.0193
籍	-11.0193
委悉	-11.0196
此結	-11.0196
嬰兒	-11.0203
一切佛	-11.0204
夕	-11.0204
)。【	-11.0205
無作四諦	-11.0207
外國	-11.0208
智障	-11.0208
得滅度	-11.0208
之甚	-11.0215
覺了	-11.0217
依理	-11.0221
分別性	-11.0225
分身佛	-11.0231
愛樂	-11.0231
罵詈	-11.0235
喻之	-11.0239
一長行	-11.0241
遍計	-11.0241
於心	-11.0243
龍宮	-11.0243
囑累品	-11.0246
多種	-11.0246
今解	-11.0247
第二釋	-11.0248
二障	-11.025
緒	-11.025
在因	-11.025
末後	-11.0251
湖	-11.0252
厥	-11.0252
彩	-11.0256
進否	-11.0264
謂如來	-11.0264
臨終	-11.0266
欲知	-11.027
方始	-11.0274
大火	-11.0276
人非人等	-11.0276
隨文	-11.0278
瞿曇	-11.0278
示教利喜	-11.0278
四緣	-11.0279
聞其	-11.0279
果地	-11.0283
亦作	-11.0283
諸菩薩眾	-11.0285
集眾	-11.029
彈斥	-11.0293
未成	-11.0294
祗	-11.0294
慳貪	-11.0298
綿	-11.0299
若心	-11.0301
丁	-11.0301
嶺	-11.0302
二十五三昧	-11.0303
諱	-11.0304
有苦	-11.0305
又約	-11.0305
掃	-11.0306
一心中	-11.0312
皆歡喜	-11.0319
所斷	-11.0319
二事	-11.032
利益眾生	-11.0328
利者	-11.0329
眾生界	-11.0332
有種種	-11.0332
百千萬億那由他	-11.0332
而見	-11.0334
多是	-11.0335
頌第二	-11.0337
非正	-11.034
諸菩薩等	-11.034
一境	-11.0342
佛神力	-11.0343
籌量	-11.0345
發得	-11.0347
初牒	-11.0347
至極	-11.0348
馳走	-11.0348
尸羅	-11.0349
命濁	-11.035
不散	-11.0351
祕藏	-11.0351
重明	-11.0352
聊	-11.0353
斗	-11.0354
不會	-11.0354
捨身	-11.0354
得羅漢	-11.0355
有四句	-11.0359
成實	-11.036
五力	-11.0361
以觀	-11.0367
方顯	-11.0368
流出	-11.0368
三行半	-11.0372
而現	-11.0373
別行	-11.0373
以種種	-11.0374
六七	-11.0376
能問	-11.0378
正像	-11.0378
為說法	-11.0382
及與	-11.0384
勸請	-11.0385
忖	-11.0386
百八	-11.0387
惡鬼	-11.0388
阿脩羅	-11.039
教人	-11.039
受名	-11.0392
變造	-11.0393
一教	-11.0394
之色	-11.0396
資生	-11.0396
鄰	-11.0397
巍巍	-11.0398
利使	-11.04
此舉	-11.0402
暮	-11.0404
不能自	-11.0404
來至	-11.0405
▁初法	-11.0405
頭面	-11.0407
佛亦如是	-11.0407
不復更	-11.0407
禁戒	-11.041
經體	-11.0416
所觀境	-11.0416
經旨	-11.0417
山中	-11.0421
性地	-11.0426
故約	-11.0426
入初住	-11.0428
伏難	-11.043
難見	-11.043
大梵	-11.0431
父王	-11.0432
云何言	-11.0437
應言	-11.0437
不曾	-11.0441
等是也	-11.0442
於中先	-11.0442
到彼岸	-11.0445
纖	-11.0445
造業	-11.0447
跪	-11.045
合有	-11.045
詳之	-11.0451
顯今	-11.0451
土地	-11.0453
墮地獄	-11.0456
兩義	-11.0457
悲心	-11.0467
攝一切法	-11.0467
個	-11.0469
義異	-11.0476
忉利天	-11.0476
高山	-11.0477
若准	-11.0477
受命	-11.048
明行足	-11.048
互用	-11.0482
方軌	-11.0483
第四禪	-11.0484
遍照	-11.0486
自分	-11.0486
直至道場	-11.049
無滅	-11.0491
寶積	-11.0492
除疑	-11.0493
兼於	-11.0496
寂場	-11.0496
善行	-11.0503
信法	-11.0504
者只是	-11.0505
淪	-11.0506
即此意也	-11.0508
身上	-11.0508
從他	-11.051
敬信	-11.0513
眾疑	-11.0513
多所	-11.0515
求索	-11.0515
熾然	-11.0516
開化	-11.0517
始覺	-11.0519
三衣	-11.0522
無所不	-11.0525
悟佛知見	-11.0534
維摩	-11.0534
幻有	-11.0535
迴轉	-11.0536
大悲心	-11.0538
何曾	-11.0538
隨眾生	-11.0539
第二十	-11.054
心常	-11.0548
乃有	-11.0548
未解	-11.0549
陸	-11.0549
機熟	-11.0553
菩薩乘	-11.0556
燭	-11.0558
市	-11.056
壇	-11.0563
波羅	-11.0563
頂禮	-11.0563
殆	-11.0564
而顯	-11.0565
二因	-11.0566
化道	-11.057
義立	-11.0571
雲雨	-11.0571
圓實	-11.0572
滅道	-11.0572
助宣	-11.0572
直指云	-11.0573
超頌	-11.0579
惡心	-11.0581
爾時下	-11.0582
可也	-11.0584
判屬	-11.0584
準知	-11.0585
戒善	-11.0585
之報	-11.0588
進入	-11.0589
有益	-11.0589
別顯	-11.059
受持是經	-11.0597
旛	-11.0599
二十九	-11.0601
撥	-11.0601
大慧	-11.0606
一切法皆	-11.0608
行願	-11.061
滿字	-11.061
焦	-11.0612
誨	-11.0613
有性	-11.0616
是大乘	-11.0616
如虛空	-11.0617
作此說	-11.0618
自念	-11.0619
釋前	-11.0629
但知	-11.0635
能詮教	-11.0635
作譬	-11.0636
四地	-11.0636
或在	-11.0636
十章	-11.0636
真法	-11.0638
求道	-11.0642
而用	-11.0643
眾集	-11.0643
中有四	-11.0646
國中	-11.0646
伺	-11.0654
稱性	-11.0654
醯	-11.0654
未證	-11.0657
地動	-11.0659
云何得	-11.0659
弘通	-11.066
渡	-11.0662
聖賢	-11.0666
娛樂	-11.0666
灾	-11.0667
於無量	-11.0667
能令眾生	-11.067
如是法	-11.067
燒身	-11.0671
總釋	-11.0673
滅盡定	-11.0673
因聞	-11.0673
直至	-11.068
有為無為	-11.0683
謂我	-11.0683
空閑	-11.0684
先總	-11.0686
機發	-11.0686
於其中	-11.0687
七難	-11.0687
謗法	-11.0691
先引	-11.0694
千二百人	-11.0694
論議	-11.0695
為通	-11.0695
如實相	-11.0698
餘皆	-11.07
以自	-11.07
漂	-11.0702
成菩提	-11.0706
園林	-11.0707
六道眾生	-11.0707
加被	-11.0707
當生	-11.0708
賢首	-11.0708
山川	-11.0709
四魔	-11.0709
俱得	-11.071
宿世因緣	-11.0711
圍遶	-11.0712
攝大乘	-11.0712
誕	-11.0712
記主	-11.0714
以前	-11.0715
癈	-11.0716
人一	-11.0716
脂	-11.0718
稱理	-11.0719
諸難	-11.0721
大略	-11.0724
論語	-11.0725
非色	-11.073
將護	-11.0732
能捨	-11.0734
化事	-11.0735
人壽	-11.074
入大	-11.074
受者	-11.0744
得阿羅漢	-11.0744
次辨	-11.0747
真實性	-11.0747
聰明	-11.0748
業力	-11.0749
通利	-11.0749
諸方	-11.075
通至	-11.075
得作佛	-11.0751
無緣慈	-11.0752
之想	-11.0754
正約	-11.0756
爾前	-11.0756
難也	-11.0756
通教菩薩	-11.0758
大雲	-11.0764
記者	-11.0766
勵	-11.0767
阿毗曇	-11.0768
無言	-11.0769
王者	-11.0771
不測	-11.0775
直云	-11.0779
應用	-11.078
入理	-11.0785
決了	-11.0785
心淨	-11.0785
外觀	-11.0794
相稱	-11.0798
離相	-11.0798
稱機	-11.08
最大	-11.0806
為諸眾生	-11.0806
四聖諦	-11.0806
衍門	-11.0809
四善根	-11.081
療	-11.081
請記	-11.0811
兩番	-11.0811
罪報	-11.0813
湧	-11.0813
詣佛所	-11.0817
熾盛	-11.0817
踰	-11.0818
變成	-11.0819
玉篇	-11.082
筋	-11.0823
隨類	-11.0823
不謬	-11.0827
丸	-11.0827
與拔	-11.0829
翅	-11.083
餘處	-11.0832
波旬	-11.0832
請佛	-11.0838
觀佛	-11.0839
不俟	-11.0841
富貴	-11.0841
日月燈明佛	-11.0846
而不能	-11.0848
調御丈夫	-11.0848
六十二	-11.0848
前人	-11.0849
憐愍	-11.0859
僧伽	-11.0862
聲聞辟支佛	-11.0863
天性	-11.0864
而白佛言	-11.0866
無數方便	-11.0867
若得此意	-11.0868
飢渴	-11.0869
何用	-11.0871
雖則	-11.0873
荒	-11.0874
萬里	-11.0875
究竟涅槃	-11.0878
巳盡	-11.0879
煩惱濁	-11.0882
無一	-11.0883
何緣	-11.0884
雙釋	-11.0884
化度	-11.0884
若行	-11.0889
入於涅槃	-11.0894
入真	-11.0898
蒙佛	-11.0898
成等正覺	-11.0903
以判	-11.0904
無等等	-11.0905
天主	-11.0905
圓門	-11.0908
師子奮迅	-11.0911
趣寂	-11.0913
四攝	-11.0918
還歸	-11.0919
從佛聞	-11.0919
諷誦	-11.0923
薩婆多	-11.0927
團	-11.0927
額	-11.0928
擯	-11.093
儀式	-11.0936
驢	-11.0937
通稱	-11.0938
▁初敘	-11.0941
即第一義	-11.0941
所解	-11.0942
失於	-11.0943
所願	-11.0944
謨云	-11.0946
開解	-11.0952
心懷	-11.0953
棄捨	-11.0958
名體	-11.096
不容	-11.096
知諸法	-11.0961
之謂	-11.0961
三界火宅	-11.0961
皆然	-11.0963
有退	-11.0964
淨戒	-11.0966
婆沙云	-11.0967
岳	-11.0975
剛	-11.0976
譚	-11.0976
不生不生	-11.0978
應物	-11.0979
灼然	-11.0983
豁然	-11.0991
那云	-11.0991
鈍使	-11.0995
亦說	-11.0998
世所	-11.1001
之福	-11.1003
具十界	-11.1003
無願	-11.1006
諸禪定	-11.1008
二利	-11.1009
大義	-11.101
稱之為	-11.1012
▁八	-11.1015
:《	-11.1015
妄執	-11.1015
未足	-11.1015
▁一標	-11.1017
輸	-11.1019
佛法界	-11.1021
吼	-11.1024
汙	-11.1024
生死即涅槃	-11.1028
借別	-11.103
為實施權	-11.1031
所從	-11.1036
彊	-11.1038
猶豫	-11.1038
肥	-11.1039
巳心	-11.1043
譬也	-11.1044
供給	-11.1046
慧解脫	-11.1046
不頌	-11.1047
五悔	-11.105
譬本	-11.1052
即實相	-11.1053
證入	-11.1053
次答	-11.1053
經家敘	-11.1054
為利	-11.1057
盧舍那	-11.1058
過此	-11.1058
孔子	-11.1058
之解	-11.106
奉命	-11.1063
所逼	-11.1068
大自在	-11.107
諸釋	-11.1072
不安	-11.1073
未除	-11.1074
三草二木	-11.1075
妙解	-11.1076
進趣	-11.1081
灌	-11.1085
三災	-11.1088
不調	-11.109
定是	-11.109
一雨	-11.1091
八十八使	-11.1091
鶴	-11.1093
為子	-11.11
品名	-11.11
便成	-11.1102
當知是	-11.1106
聞聲	-11.1106
盡智	-11.1107
又是	-11.1111
荊溪云	-11.1116
遺教	-11.1117
又觀	-11.1118
有損	-11.1118
種種方便	-11.1121
果後	-11.1123
所須	-11.1124
兩門	-11.1128
前釋	-11.1128
於道	-11.1133
五停心	-11.1134
巳說	-11.1135
諸法空	-11.1135
令眾	-11.1137
敷演	-11.1139
請轉法輪	-11.1143
難者	-11.1144
捐	-11.1145
策	-11.1147
忿	-11.115
果滿	-11.1151
色無色	-11.1153
如是相	-11.1154
答前	-11.1154
疑云	-11.1157
大弟子	-11.1157
愍念	-11.1161
亦有亦無	-11.1163
為他說	-11.1164
亦由	-11.117
而取	-11.117
只此	-11.1171
敬禮	-11.1174
唯以	-11.1176
墮惡道	-11.1178
開章	-11.1179
常精進	-11.118
唯說	-11.1182
於斯	-11.1183
等義	-11.1183
見濁	-11.1187
受教	-11.1189
化人	-11.1189
耆闍崛山	-11.1191
隨智	-11.1193
亘	-11.1195
陋	-11.12
決疑	-11.1201
真正	-11.1202
欽	-11.1202
四十八	-11.1203
望於	-11.1203
契理	-11.1209
應生	-11.121
所不及	-11.121
真身	-11.121
菩薩眾	-11.1211
起滅	-11.1212
豈是	-11.1215
七支	-11.1216
實報土	-11.1216
我雖	-11.1217
眾也	-11.1218
我昔	-11.1218
莫不皆	-11.1226
摩訶迦葉	-11.1235
無量千萬億	-11.124
妄計	-11.1242
指示	-11.1247
〔	-11.1249
為眾生故	-11.125
破法徧	-11.1252
以神力	-11.1255
韋陀	-11.1255
為道	-11.1255
受道	-11.1255
生滅四諦	-11.1255
好醜	-11.1255
破徧	-11.1256
五通	-11.1256
汎	-11.1258
涅槃云	-11.1258
於大乘	-11.1258
儻	-11.1261
眾善	-11.1261
本師	-11.1262
緣理	-11.1263
證於	-11.1266
為作	-11.1267
陰入界	-11.1267
所以下	-11.1268
首座	-11.1271
維那	-11.1272
即非	-11.1273
白象	-11.1276
有支	-11.1276
三無差別	-11.1278
之法也	-11.1278
摩尼	-11.1281
自陳	-11.1281
說四諦	-11.1282
中本有	-11.1287
叵得	-11.1289
聞香	-11.129
佛既	-11.1291
別在	-11.1293
二十六	-11.1294
之土	-11.1297
籌	-11.13
五明	-11.1302
二用	-11.1302
亦先	-11.1302
小異	-11.1304
三科	-11.1305
人情	-11.1305
險道	-11.1305
開方便門	-11.1307
貝	-11.131
因何	-11.1315
軀	-11.1316
說呪	-11.1319
夙	-11.1322
解脫道	-11.1323
顯發	-11.1325
結上	-11.1325
之深	-11.1326
魯	-11.1328
常坐	-11.1339
聲聞弟子	-11.134
前巳	-11.1345
尊重讚歎	-11.1345
十信位	-11.1346
地位	-11.1349
不免	-11.1351
論義	-11.1351
願我	-11.1352
出沒	-11.1354
光明照	-11.1354
勢力	-11.1355
神通之力	-11.1358
繒	-11.1358
為機	-11.1358
一大事	-11.1361
為眾生說	-11.1361
還以	-11.1366
宏	-11.1366
拒	-11.1368
鬪	-11.1368
寢	-11.1368
囊	-11.137
製	-11.1371
深達	-11.1371
妙玄云	-11.1371
灑	-11.1371
麗	-11.1371
獵	-11.1373
棲	-11.1374
內觀	-11.1375
如來說	-11.1376
疑問	-11.1376
尚自	-11.1376
速疾	-11.1379
顯體	-11.1379
障除	-11.138
令心	-11.1381
雖曰	-11.1382
廣狹	-11.1389
南北	-11.139
彼云	-11.139
作如是說	-11.1391
自昔	-11.1394
兼得	-11.1395
出體	-11.1398
章句	-11.1398
聞教	-11.1408
入海	-11.1409
其猶	-11.1411
身根	-11.1412
徃	-11.1414
簡非	-11.1414
六法	-11.1414
募	-11.1414
之談	-11.1415
涅槃經云	-11.1415
由彼	-11.1415
作證	-11.1419
十二句	-11.1422
權說	-11.1425
等正覺	-11.1425
之際	-11.1425
受變易	-11.1427
拳	-11.1431
貿	-11.1431
【△	-11.1432
林中	-11.1432
諸大乘經	-11.1434
見色	-11.1435
文在	-11.1435
果人	-11.1439
不殺	-11.1442
理本	-11.1443
元年	-11.1443
任持	-11.1445
佛剎	-11.1448
作如是	-11.1449
欣樂	-11.145
先說	-11.145
後生	-11.1456
具在	-11.1456
能離	-11.1457
眼識	-11.1457
自非	-11.146
不亂	-11.1461
之經	-11.1461
千歲	-11.1464
之佛	-11.1465
徵起	-11.1466
論家	-11.1467
斷無明	-11.147
牟尼	-11.1471
例知	-11.1472
)。(	-11.1472
仁王經	-11.1473
逝	-11.1475
約觀	-11.1475
唯除	-11.1477
諸經中	-11.1478
總攝	-11.1478
識陰	-11.1484
絲	-11.1485
一切人	-11.1485
色等	-11.1487
以求	-11.1487
四月	-11.1487
唾	-11.1487
辨才	-11.1488
復次下	-11.1488
皆言	-11.149
塔中	-11.1491
評曰	-11.1495
見取	-11.1501
兩段	-11.1501
作用	-11.1506
五頌	-11.1509
四陰	-11.151
破諸	-11.1511
不自知	-11.1512
廣宣	-11.1513
四十二	-11.1513
第一卷	-11.1514
未度	-11.1516
所入	-11.1517
破立	-11.1519
心識	-11.1521
十億	-11.1522
十八空	-11.1525
空慧	-11.1526
七八	-11.1527
行六度	-11.153
提謂	-11.153
貶	-11.153
待絕	-11.1531
眼智	-11.1536
恐人	-11.1536
殷	-11.154
偷	-11.1541
朱	-11.1542
象馬	-11.1545
因緣者	-11.1547
窺	-11.1547
體達	-11.1547
不二而二	-11.1549
往詣	-11.155
別約	-11.155
外護	-11.1552
本非	-11.1562
觀相	-11.1562
議曰	-11.1562
頌前	-11.1562
所行道	-11.1568
寶塔品	-11.1569
隨喜品	-11.1569
為度眾生	-11.1569
權巧	-11.1576
可度	-11.1578
並皆	-11.1578
無希取	-11.1582
玅法蓮華經	-11.1583
匝	-11.1586
智地	-11.159
且初	-11.1592
指上	-11.1593
天雨	-11.1594
得無生法忍	-11.1597
大通佛	-11.1597
那忽	-11.1598
諸法皆	-11.1599
又下文云	-11.1599
次破	-11.1599
從因	-11.16
言詞	-11.1602
未始	-11.1602
因緣生法	-11.1605
力無所畏	-11.1607
雖具	-11.161
捨離	-11.1611
何云	-11.1612
本空	-11.1615
表之	-11.1618
無上慧	-11.1618
破見思	-11.1619
修成	-11.1619
生死苦	-11.162
三乘同	-11.1626
現起	-11.1627
是長者	-11.1631
小善	-11.1634
父見子	-11.1635
脩行	-11.1635
一心頂禮	-11.1636
見諸眾生	-11.1639
即屬	-11.164
既具	-11.164
懷疑	-11.1641
所潤	-11.1642
若復有人	-11.1642
內合	-11.1644
其說	-11.1647
涼	-11.1648
願行	-11.1649
之疑	-11.165
立義	-11.1652
詐	-11.1654
心相	-11.1654
趨	-11.1654
少時	-11.1655
禽獸	-11.1655
若復	-11.1656
多說	-11.1656
兩足	-11.1667
何者是	-11.1667
即見	-11.1667
全同	-11.1669
有十種	-11.1669
二問	-11.1672
脩羅	-11.1672
次列	-11.1674
下別釋	-11.1675
授記品	-11.168
所談	-11.1684
得近	-11.1685
商人	-11.1695
則應	-11.1696
無體	-11.1702
請答	-11.1703
誼	-11.1704
着	-11.1705
攻	-11.1707
十地菩薩	-11.1707
探領	-11.1708
鴿	-11.1709
聖果	-11.1712
卦	-11.1712
為序	-11.1712
蒼	-11.1713
六蔽	-11.1713
三點	-11.1718
若夫	-11.1718
善惡業	-11.1718
法華會	-11.1718
自作	-11.1719
瑩	-11.172
復生	-11.1721
下斥	-11.1727
大神通	-11.1728
妙體	-11.1731
一切功德	-11.1739
業障	-11.1739
徵釋	-11.1743
是三昧	-11.1745
必定	-11.1746
分段生死	-11.1748
娑羅	-11.1748
入初地	-11.1749
赤色	-11.1749
如夢	-11.175
一相一味	-11.1754
趣向	-11.1756
小兒	-11.1757
佛記	-11.1758
或示	-11.1758
一切眾生皆	-11.1758
下至	-11.1761
眷	-11.1762
苦因	-11.1764
約五味	-11.1764
亦何	-11.1767
樞	-11.1769
生疑惑	-11.177
但由	-11.1775
令離	-11.178
三學	-11.178
實行	-11.1785
種種諸	-11.1786
遣使	-11.1786
踊出	-11.1787
諸佛智慧	-11.1788
異解	-11.1789
聲聞菩薩	-11.1789
如來出世	-11.179
求於	-11.1794
為對	-11.1794
隨宜所說	-11.1798
止止	-11.1798
以此為	-11.1799
初總明	-11.1803
此從	-11.1806
罪人	-11.1811
甚為希有	-11.1811
說是法華經	-11.1814
道前	-11.1815
爾時彌勒菩薩	-11.182
但空	-11.182
下料簡	-11.1823
粟	-11.1825
後五	-11.1826
第八識	-11.1827
諫	-11.1828
嗅	-11.1828
共生	-11.1828
陣	-11.1829
松	-11.1831
雖聞	-11.1832
巖	-11.1834
充足	-11.1835
所無	-11.1835
初文又二	-11.1837
便有	-11.184
貢	-11.1841
空不空	-11.1841
喻如	-11.1844
正用	-11.1849
三受	-11.185
婬欲	-11.1852
設化	-11.1858
五種法師	-11.1859
照了	-11.1859
名數	-11.1862
唯此	-11.1863
為示	-11.1868
引古	-11.1869
而分	-11.1871
不名為	-11.1872
釋中二	-11.1873
一切眾生喜見菩薩	-11.1875
故文云	-11.1876
求其	-11.1883
爾時長者	-11.1884
祝	-11.1891
並名	-11.1891
及見	-11.1891
天華	-11.1897
方便土	-11.1899
劉	-11.1902
食者	-11.1905
非唯	-11.1914
皆不可得	-11.1915
偈半	-11.1917
實體	-11.1918
雖得	-11.1924
正徧知	-11.1925
摩訶止觀	-11.1926
成阿耨多羅三藐三菩提	-11.1929
豈無	-11.1929
三十七	-11.193
樹王	-11.1931
若更	-11.1933
寶樹下	-11.1934
自恣	-11.1938
義不成	-11.1938
不生滅	-11.194
之詞	-11.1941
勝進	-11.1941
大通智勝	-11.1941
層	-11.1942
曠野	-11.1945
之火	-11.1945
恥	-11.1946
八生	-11.1946
二頌合	-11.1952
新云	-11.1953
展轉相	-11.1956
故用	-11.1956
傍正	-11.1957
總答	-11.1959
三千界	-11.1964
無量四諦	-11.1966
亦言	-11.1968
』	-11.1969
轉成	-11.197
唯觀	-11.1972
寶物	-11.1973
信樂	-11.1976
次觀	-11.1976
欲聞	-11.1979
通用	-11.1979
斯人	-11.198
輪轉	-11.199
約教者	-11.199
心得自在	-11.1993
三世益物	-11.1994
鮮	-11.2
欺誑	-11.2003
次斷	-11.2003
唱言	-11.2003
劇	-11.2006
於佛道	-11.2006
其所以	-11.2008
春秋	-11.2008
英	-11.2008
已去	-11.201
難遇	-11.2012
於時	-11.2014
變易生死	-11.2014
增數	-11.2016
著於	-11.2017
天衣	-11.2017
不驚	-11.2017
諸聖	-11.202
攝心	-11.202
順理	-11.2024
即法性	-11.2026
他化	-11.203
推求	-11.2031
牟云	-11.2034
起時	-11.2036
自當	-11.2037
未顯	-11.2038
並在	-11.2038
縱有	-11.2038
宛	-11.2039
覆講	-11.2044
平正	-11.2045
他經	-11.2047
入無餘	-11.2049
例然	-11.205
心相體信	-11.2051
作是說	-11.2053
生不生	-11.2056
念彼觀音力	-11.2058
初依	-11.2059
一位	-11.206
加之	-11.2061
聞香悉能知	-11.2062
煩惱即菩提	-11.2062
算數	-11.2062
幹	-11.2063
助成	-11.2064
滅度之後	-11.2065
常見	-11.2065
利行	-11.2068
隻	-11.2068
沾	-11.2068
不還	-11.2069
羸	-11.2069
如實智	-11.2071
無所依	-11.2079
舉喻	-11.2079
外色	-11.208
三十一	-11.2082
題目	-11.2082
觀體	-11.2082
亦見	-11.2084
爾雅云	-11.2085
愛著	-11.2088
本時	-11.2088
持法	-11.209
度脫眾生	-11.209
其地	-11.2091
自此	-11.2094
昔有	-11.2097
厭離	-11.21
可畏	-11.2102
大迦葉	-11.2105
供養恭敬	-11.2105
可知矣	-11.2112
通達無礙	-11.2117
疲極	-11.2118
卷第一	-11.2119
勸人	-11.2119
變現	-11.2121
敦	-11.2122
秊	-11.2124
躭	-11.2124
即離	-11.2125
上二界	-11.2128
不現前	-11.2128
舞	-11.2129
搜	-11.2131
一萬	-11.2132
覔	-11.2132
唯一佛乘	-11.2133
訪	-11.2133
鐵輪	-11.2134
經中說	-11.2135
諸句	-11.2138
亦不可	-11.2141
教他	-11.2141
廣解	-11.2142
寶樹	-11.2144
五行半	-11.2149
今何	-11.2149
法界次第	-11.215
身口意	-11.2152
諸天人	-11.2161
亦成	-11.2162
三十子	-11.2162
如來方便	-11.2162
名觀世音	-11.2163
之喻	-11.2165
從何	-11.2168
既未	-11.2169
初敘	-11.217
雖爾	-11.217
更須	-11.217
曼陀羅	-11.2172
被機	-11.2173
財富無量	-11.2174
淨妙	-11.2175
能取	-11.2175
名無量義	-11.2175
娑	-11.2175
2	-11.2176
能救	-11.2177
從空入假	-11.2177
會三歸一	-11.2179
停心	-11.2184
村	-11.2184
吟	-11.2186
教理行果	-11.2186
晦	-11.2187
上地	-11.2188
憐	-11.2191
搆	-11.2193
之方便	-11.2193
狐	-11.2194
動靜	-11.2194
六十小劫	-11.22
離一切	-11.2202
讚嘆	-11.2205
中陰	-11.2206
星宿	-11.2206
八王子	-11.2207
更無別	-11.2207
即是法身	-11.2208
金輪	-11.2209
近代	-11.2211
不能盡	-11.2212
亦兼	-11.2215
深密	-11.2221
實語	-11.2226
現通	-11.2231
界內外	-11.2233
然後乃	-11.2235
相現	-11.2235
入三昧	-11.2236
詔	-11.2238
樓閣	-11.2238
佛說是	-11.2244
無足	-11.2245
筌	-11.2247
法藥	-11.2249
薦	-11.2249
真智	-11.2251
瘦	-11.2253
他受用	-11.2254
無念	-11.2254
烟	-11.2254
若乃	-11.2255
卷第三	-11.2256
詰	-11.2256
仲	-11.2257
示滅	-11.2261
設方便	-11.2264
積聚	-11.2264
通指	-11.2267
度人	-11.2267
真因	-11.2269
十千	-11.2269
引例	-11.227
應在	-11.227
告諸比丘	-11.2277
之恩	-11.2277
云何名為	-11.2278
並屬	-11.2281
諦境	-11.2281
離染	-11.2281
昔說	-11.2282
藥病	-11.2284
雙樹	-11.2291
本處	-11.2292
十使	-11.2292
假中	-11.2294
所施	-11.2294
旬	-11.2295
法供養	-11.2296
般若中	-11.2297
位位	-11.2298
始於	-11.23
鬚	-11.23
動執生疑	-11.2301
空智	-11.2305
五眾	-11.2305
若唯	-11.2306
以何法	-11.2307
皆得解脫	-11.2307
靡	-11.2308
於如來滅後	-11.2309
觀理	-11.231
有二種一	-11.2313
禍	-11.2315
無限	-11.2315
鎮	-11.2316
匪	-11.2316
通別二	-11.2316
徧一切處	-11.2319
唯約	-11.2321
陰陽	-11.2324
變土	-11.2327
隨分	-11.2328
天帝	-11.2331
出火宅	-11.2335
五百弟子	-11.2338
之狀	-11.2338
所因	-11.2339
說文云	-11.234
所說之法	-11.2344
已前	-11.2346
眾僧	-11.2351
卷第二	-11.2353
作如是言	-11.2353
▁二釋明	-11.2353
諸佛出世	-11.2356
定力	-11.2357
不礙	-11.236
十番	-11.2363
則易	-11.2364
牢	-11.2371
第一義悉檀	-11.2374
炭	-11.2374
刺	-11.2377
結業	-11.2379
顯說	-11.2379
郎	-11.2384
隨喜者	-11.2384
鳩	-11.2385
檀越	-11.2385
乾慧地	-11.2386
見性	-11.2389
其土	-11.2391
死屍	-11.2391
世第一法	-11.2394
大般若	-11.2395
流入	-11.24
是故如來	-11.2401
不虗也	-11.2401
六十劫	-11.2402
之病	-11.2403
從勝	-11.2409
說偈言	-11.2414
當得阿耨多羅三藐三菩提	-11.2414
供養舍利	-11.2416
五略	-11.2417
開示悟入佛之知見	-11.2419
答意者	-11.242
橫論	-11.2422
當成	-11.2423
六妙門	-11.2424
位不退	-11.2424
貴賤	-11.2426
復何	-11.2429
皃	-11.2429
餘法	-11.243
所變	-11.243
人人	-11.2434
五部	-11.2434
王城	-11.2435
自利利他	-11.2435
安樂行品	-11.2437
咽	-11.2438
倉	-11.244
閱	-11.244
討	-11.244
煑	-11.2442
親疎	-11.2444
俱解脫	-11.245
施主	-11.2451
八背捨	-11.2454
初立	-11.246
不念	-11.2461
皆稱	-11.2461
無動	-11.2462
舍利弗言	-11.2463
一百二十	-11.2464
香華	-11.2465
隨逐	-11.2465
無非法界	-11.2466
海水	-11.2466
真似	-11.2471
始行	-11.2471
此據	-11.2472
或從	-11.2478
身長	-11.2482
獨處	-11.2482
▁初立	-11.2485
四部眾	-11.2489
即空即假即中	-11.2489
值遇	-11.249
兮	-11.249
庫	-11.2491
熟蘇	-11.2492
靡不	-11.2493
閣	-11.2493
業道	-11.2495
庫藏	-11.2495
先敘	-11.2495
世界悉檀	-11.2497
文末	-11.2498
荼	-11.2498
妙慧	-11.2499
名目	-11.25
調熟	-11.2501
拈	-11.2502
能聞	-11.2502
有多種	-11.2504
斫	-11.2504
菩薩聲聞	-11.2505
門門	-11.2505
上長行	-11.2507
七佛	-11.2508
二萬佛	-11.2508
要須	-11.2511
隨時	-11.2512
此依	-11.2515
大品經	-11.2516
標名	-11.2516
上流	-11.2517
得免	-11.2523
別譬	-11.2526
卷第四	-11.2526
諍論	-11.2526
問如何	-11.2533
往古	-11.2537
及南曰	-11.2537
久矣	-11.2539
一念隨喜	-11.2541
通因果	-11.2542
摩訶薩	-11.2542
異說	-11.2545
比丘比丘尼優婆塞優婆夷	-11.2547
為最	-11.2547
無病	-11.2548
甄	-11.2554
電	-11.2555
前文云	-11.2556
萬歲	-11.2558
妙法蓮華	-11.2558
令諸眾生	-11.256
低	-11.2561
褒	-11.2563
瞿	-11.2563
牛頭	-11.2564
栖	-11.2564
午	-11.2564
舍利弗等	-11.2565
誡勸	-11.2565
能度	-11.2566
班	-11.2567
一切聲聞	-11.2567
斯義	-11.2568
唯願	-11.2568
請觀音	-11.2571
良藥	-11.2571
於權	-11.2573
風吹	-11.2573
方便教	-11.2574
妙道	-11.2577
還復	-11.2578
答疏云	-11.2578
三月	-11.258
十觀	-11.2585
此並	-11.2588
六凡	-11.2589
人天乘	-11.259
月光	-11.259
修六度	-11.2591
斯乃	-11.2594
文可見	-11.2597
對境	-11.2597
甚難	-11.2598
道德	-11.2599
分文	-11.26
通別圓	-11.2602
聞法華經	-11.2603
別答	-11.2606
實慧	-11.2607
解了	-11.2607
鐵圍山	-11.2615
萬劫	-11.2615
彰其	-11.2616
澍	-11.2617
若有菩薩	-11.2617
本經	-11.2621
諸義	-11.2621
峰	-11.2621
大集經	-11.2622
勇施	-11.2622
剃	-11.2622
妙德	-11.2622
就文為二	-11.2623
身心不動	-11.2623
三行頌	-11.2624
示珠	-11.2625
一心合掌	-11.2626
輝	-11.2626
堪為	-11.2627
皆巳成佛道	-11.2629
祀	-11.263
援	-11.2632
事業	-11.2633
剌	-11.2634
億劫	-11.2634
一个	-11.2635
行業	-11.2636
如是則	-11.2638
阿含云	-11.2638
繫縛	-11.2638
猶如虗空	-11.2639
十雙	-11.264
善聽	-11.2645
或謂	-11.2646
體狀	-11.2649
三祇	-11.265
成觀	-11.2653
來生	-11.2654
求無上道	-11.2656
如身子	-11.2661
二年	-11.2662
染性	-11.2666
本因	-11.2667
亦異	-11.2669
九法界	-11.2672
本識	-11.2675
餘五	-11.2675
一心奉請	-11.2677
從三昧起	-11.2679
法財	-11.2679
三十五	-11.2679
受想行識	-11.2679
卉木	-11.268
第二從	-11.2681
祕密藏	-11.2682
我執	-11.2682
欄楯	-11.2683
兩足尊	-11.2684
如幻化	-11.2684
凡夫二乘	-11.2688
但成	-11.2688
健	-11.269
玅覺	-11.269
調停	-11.2691
佛力	-11.2691
填	-11.2692
通約	-11.2692
灌頂	-11.2698
三密	-11.2698
耶輸	-11.2705
第四明	-11.2705
觀陰	-11.2706
智度	-11.2707
山頂	-11.2707
起修	-11.2707
一科	-11.2709
約四教	-11.271
之源	-11.271
而照	-11.2712
得福	-11.2713
宿習	-11.2714
三味	-11.2714
毀謗	-11.2716
說妙法	-11.2719
止觀中	-11.2719
仍須	-11.2719
六神通	-11.2719
障重	-11.2721
相海	-11.2721
我我所	-11.2722
歎法	-11.2726
梵本	-11.2727
三乘教	-11.273
次譬	-11.273
把	-11.2732
後報	-11.274
惡行	-11.2742
但用	-11.2744
如來所說	-11.2744
樂著	-11.2744
也又云	-11.2746
爐	-11.2747
淡	-11.2748
約部	-11.2749
叡	-11.2751
所惱	-11.2752
四洲	-11.2753
稚	-11.2754
無緣慈悲	-11.2755
賞	-11.2757
須約	-11.2759
遍一切處	-11.276
忍位	-11.2761
聞佛所說	-11.2761
明文	-11.2765
諸論	-11.2765
六根淨	-11.2765
姑	-11.2766
調適	-11.2767
前約	-11.2771
此由	-11.2773
俱非	-11.2776
圓解	-11.2776
今論	-11.2777
所及	-11.2779
先約	-11.278
諸山	-11.2783
劫初	-11.2786
雲集	-11.2787
先出	-11.2788
凡位	-11.2791
諦緣	-11.2792
其母	-11.2795
此偈	-11.2798
相傳	-11.2798
余曰	-11.2799
正應	-11.2802
境妙	-11.2802
圓證	-11.2803
惡獸	-11.2803
遭苦	-11.2808
王宮	-11.2808
波羅奈	-11.2809
摩頂	-11.281
諸世界	-11.2811
如月	-11.2812
照東方	-11.2815
澁	-11.2815
雞	-11.2816
皎	-11.2817
八相成道	-11.2818
之日	-11.2819
巳斷	-11.2821
牖	-11.2822
胸	-11.2823
肆	-11.2824
呈	-11.2824
資粮	-11.2825
何時	-11.2826
入如來室	-11.2826
互為	-11.2826
塵數	-11.2828
宿王	-11.283
德本	-11.283
勤求	-11.2831
近迹	-11.2831
字義	-11.2833
操	-11.2833
方便門	-11.2836
修菩薩行	-11.2837
能趣	-11.2838
同彼	-11.284
斷盡	-11.2841
方盡	-11.2841
難易	-11.2843
斷三界	-11.2844
等四句	-11.2848
形像	-11.2849
則全	-11.285
若有比丘	-11.2851
理顯	-11.2855
是世界	-11.2858
毒害	-11.2859
前四時	-11.286
略頌	-11.2864
具云	-11.2865
圓家	-11.2866
如來室	-11.2869
此指	-11.2872
淨行	-11.2873
谿	-11.2874
叢林	-11.2874
結前生後	-11.2876
根未熟	-11.2878
次料簡	-11.2878
又為二	-11.2878
初文又二初	-11.2879
威音王	-11.2882
退失	-11.2882
覺分	-11.2883
針	-11.2883
佉	-11.2883
欠	-11.2884
於未來	-11.2885
僅	-11.2885
端嚴	-11.2886
憚	-11.2886
霑	-11.2887
無比	-11.2888
阿鼻	-11.2888
二百五十	-11.2888
秘藏	-11.2888
次合	-11.2889
就文	-11.2889
四微	-11.289
可識	-11.289
化緣	-11.289
常寂光	-11.289
費	-11.289
折伏	-11.2893
高原	-11.2893
戾	-11.2893
加持	-11.2899
手執	-11.29
▁二合	-11.2906
入無餘涅槃	-11.2907
求佛道者	-11.291
剎利	-11.291
阿難言	-11.2912
是謂	-11.2918
餘習	-11.2918
赴緣	-11.2919
未曾有法	-11.2921
應受	-11.2921
上忍	-11.2922
名妙法蓮華	-11.2925
於汝意云何	-11.2928
大事因緣	-11.293
何等為	-11.293
法身地	-11.2931
雙結	-11.2931
釋迦佛	-11.2932
大千界	-11.2941
放大光明	-11.2944
不預	-11.2946
宣揚	-11.2946
鄣	-11.2947
障道	-11.2948
未起	-11.2948
藥王品	-11.2949
親族	-11.295
勘	-11.2951
初一行半	-11.2952
直指	-11.2952
無違	-11.2952
撥無	-11.2956
鬱	-11.2957
天宮	-11.2957
如來座	-11.2958
大願	-11.2958
不移	-11.2961
聖諦	-11.2966
科文	-11.2966
被燒	-11.2967
日出	-11.2967
宣示	-11.2971
多用	-11.2972
長大	-11.2973
五十小劫	-11.2974
染法	-11.2976
他云	-11.2985
中途	-11.2985
不忍	-11.2985
諸魔	-11.299
大本	-11.2991
其功	-11.2996
于今	-11.2997
菩	-11.3004
開廢	-11.3005
四乘	-11.3005
為他人說	-11.3007
此法門	-11.3009
無生無滅	-11.3012
藥艸	-11.3012
總舉	-11.3013
然燈佛	-11.3014
醒	-11.3015
侶	-11.3015
證涅槃	-11.3017
波羅密	-11.3017
如乳	-11.3017
為下根	-11.3017
伏忍	-11.3018
蝮	-11.3019
現神力	-11.302
聞是法	-11.302
闍梨	-11.302
刪	-11.3021
漚	-11.3022
熏心	-11.3023
邪法	-11.3025
淚	-11.3026
久巳	-11.3027
斯事	-11.3028
所譯	-11.3032
望前	-11.3035
灰斷	-11.3037
平聲	-11.3037
得受記	-11.304
法華會上	-11.3041
唯有一乘	-11.3041
無遺	-11.3041
財施	-11.3043
且云	-11.3046
六行半	-11.3048
十句	-11.305
至等覺	-11.3054
示佛知見	-11.3056
得陀羅尼	-11.3057
巳具	-11.3058
百萬	-11.3059
此疑	-11.3059
若直	-11.306
文勢	-11.3062
發露	-11.3065
小超	-11.3068
勳	-11.3071
極樂	-11.3073
為所依	-11.3074
諸善根	-11.3078
槃	-11.3079
一句一偈	-11.3079
去取	-11.308
族姓子	-11.308
脩多羅	-11.3081
常住不滅	-11.3083
怯	-11.3084
。」△	-11.3089
功成	-11.3092
不親近	-11.3093
互現	-11.3094
火災	-11.3097
益他	-11.3098
諸漏	-11.3101
內證	-11.3108
兩釋	-11.311
▁初長行	-11.3114
雙舉	-11.3116
厭苦	-11.3116
逗機	-11.3117
垢衣	-11.3118
亦復不	-11.3119
命根	-11.3125
體徧	-11.3125
瓔珞經	-11.3126
第十地	-11.3129
眾聖	-11.3132
妬	-11.3133
謦欬	-11.3133
9	-11.3137
1	-11.314
自立	-11.3142
五戒十善	-11.3142
藥草喻品	-11.3145
頑	-11.3146
貧里	-11.3148
敕	-11.3148
力士	-11.3149
授與	-11.3149
譬作本	-11.3152
餓	-11.3152
賀	-11.3153
軸	-11.3153
初番	-11.3154
來至此	-11.316
是諸人等	-11.316
成就眾生	-11.3163
法樂	-11.3163
心自在	-11.3167
諸業	-11.3169
有通別	-11.317
殺生	-11.3174
若了	-11.3177
稱揚	-11.3177
一切種	-11.318
勤苦	-11.318
斷絕	-11.318
難值	-11.3181
我今當	-11.3183
許說	-11.3187
意趣難解	-11.3201
更約	-11.3201
法利	-11.3202
豈同	-11.3207
激	-11.3215
枝末	-11.3215
正遍知	-11.3215
適時	-11.3219
般舟	-11.3219
各隨	-11.3219
戴	-11.322
纂	-11.3221
既久	-11.3221
終無	-11.3223
曹	-11.3223
祿	-11.3223
照境	-11.3223
上妙	-11.3224
賦	-11.3226
陷	-11.3226
慰喻	-11.3228
嗔恚	-11.3228
於諸佛所	-11.323
爾時窮子	-11.323
隨事	-11.3231
苗	-11.3232
章中	-11.3234
於一一	-11.3236
是故名為	-11.3236
果果	-11.3236
引大論	-11.3236
汝身	-11.3237
入住	-11.3239
前兩	-11.324
未堪	-11.3241
如是我聞	-11.3244
善吉	-11.325
使其	-11.3251
總說	-11.3253
吾祖	-11.3254
狹小	-11.3254
四種四諦	-11.3255
諸佛土	-11.3255
兩品	-11.3259
火難	-11.3259
何益	-11.3261
中又二	-11.3262
好惡	-11.3268
如淨名	-11.327
十二門	-11.327
憂念	-11.3271
初周	-11.3272
眼目	-11.3273
肘	-11.3282
耐	-11.3283
妙果	-11.3283
更無餘	-11.3284
仲尼	-11.3289
大富	-11.329
法說中	-11.3291
占	-11.3295
法性身	-11.3296
且據	-11.3297
略出	-11.3298
聽聞	-11.3299
弘宣	-11.33
喫	-11.3302
比決	-11.3302
十年	-11.3302
俱舍論	-11.3308
列眾	-11.331
天耳	-11.3311
天授	-11.3313
對論	-11.3313
隨意所	-11.3314
顯真實	-11.3316
行不退	-11.3318
淨業	-11.3318
判位	-11.3319
有為法	-11.3319
現報	-11.332
次正明	-11.3322
根緣	-11.3325
品目	-11.3331
金口	-11.3332
如是等種種	-11.3334
終歸	-11.3335
他宗	-11.3336
身內	-11.3337
自思惟	-11.334
言語道斷	-11.3341
况	-11.3347
唯佛與佛	-11.3348
生蘇	-11.3349
萬八千土	-11.3351
初一句	-11.3351
□□	-11.3352
他事	-11.3353
普門示現	-11.3353
龕	-11.3354
耽	-11.3355
禱	-11.3357
據理	-11.3358
諸品	-11.3359
聞思	-11.3359
社	-11.3361
據實	-11.3362
不周	-11.3362
準前	-11.3369
正勤	-11.3372
世出世間	-11.3377
能伏	-11.3377
隨力	-11.338
正語	-11.338
智境	-11.3384
樂受	-11.3386
初長文	-11.3386
經首	-11.3387
酥	-11.339
傍人	-11.3396
百福	-11.3396
六度菩薩	-11.3401
無厭	-11.3402
財寶	-11.3404
束為	-11.3404
油燈	-11.3404
願佛	-11.3406
能攝	-11.3407
滅定	-11.3408
如是性	-11.3409
為麁	-11.341
知息	-11.3411
增道損生	-11.3412
攀	-11.3415
飜	-11.3415
起大悲心	-11.3418
揭	-11.3419
臍	-11.342
右手	-11.342
次判	-11.3421
永斷	-11.3423
什公	-11.3427
袈裟	-11.3427
蓮花	-11.3427
軒	-11.3429
貨	-11.343
委釋	-11.3433
十里	-11.3435
二章	-11.3436
聲教	-11.3436
千里	-11.3437
四無畏	-11.3439
心想	-11.3439
成佛時	-11.344
自餘	-11.3443
執持	-11.3444
深重	-11.3446
知機	-11.3449
人師	-11.3453
應現	-11.3454
舊解	-11.3461
四行半	-11.3462
有三意	-11.347
三際	-11.3472
慧行	-11.3472
污	-11.3473
所致	-11.3476
植眾德本	-11.3477
釋提桓因	-11.348
又二先	-11.3483
斷疑生信	-11.3483
是有漏	-11.3486
多寶佛塔	-11.3487
殺賊	-11.3487
悟理	-11.3488
挫	-11.3489
四辯	-11.3489
諸梵	-11.349
裁	-11.349
亦不知	-11.3491
洛	-11.3493
梵世	-11.3493
洎	-11.3495
削	-11.3495
價直	-11.3495
犬	-11.3497
仍有	-11.3498
昔曾	-11.3501
八番	-11.3502
還成	-11.3502
崩	-11.3504
性念處	-11.3505
妙假	-11.3505
精舍	-11.351
四正勤	-11.3512
既成	-11.3521
持地	-11.3524
端坐	-11.3526
今古	-11.3526
初文中	-11.3533
略不頌	-11.3533
皆大歡喜	-11.3536
證信	-11.3537
同聞	-11.3539
黃金	-11.354
籤云	-11.354
是第一義	-11.3542
兩經	-11.3543
爾許	-11.3543
七識	-11.3546
發阿耨多羅三藐三菩提心	-11.3548
己身	-11.3548
鎧	-11.3549
六萬	-11.355
此節	-11.3554
緣修	-11.3558
第二卷	-11.3559
示同	-11.356
位高	-11.356
令一切眾生	-11.3561
別列	-11.3563
如上所說	-11.3564
愆	-11.3568
即此義也	-11.357
智體	-11.3571
詮量	-11.3571
出入息	-11.3573
慈氏	-11.3575
羽	-11.3578
菩提樹	-11.3586
具如止觀	-11.3593
過現	-11.3598
八難	-11.3603
諸味	-11.3603
只有	-11.3613
坐師子座	-11.3622
無央數	-11.3622
默念	-11.3622
末法	-11.3627
作是思惟	-11.3631
瓔	-11.3633
等賜大車	-11.3634
下解釋	-11.3635
唯圓	-11.3636
兇	-11.3636
鳳	-11.3638
子見父	-11.3638
正因佛性	-11.3639
痴	-11.3641
起信論	-11.3642
食人	-11.3644
如來衣	-11.3644
來至佛所	-11.3646
判釋	-11.3647
斯文	-11.3649
幢幡	-11.3649
二而不二	-11.365
正直	-11.365
婆娑	-11.3653
地住	-11.3657
且置	-11.3658
服藥	-11.3662
▁一明	-11.3664
我所說	-11.3665
雙遮	-11.3667
具列	-11.367
威力	-11.3671
▁三又	-11.3675
正受	-11.3675
伽羅	-11.3676
在迷	-11.3677
火宅中	-11.3681
觀因緣	-11.3682
無所著	-11.3682
非滅現滅	-11.3686
報化	-11.3687
執小	-11.369
九次第定	-11.369
初又三	-11.3693
逮得	-11.3698
冰	-11.3698
隷	-11.3701
懈倦	-11.3702
效	-11.3705
斛	-11.371
調柔	-11.3711
髓	-11.3711
南洲	-11.3713
和會	-11.3715
淨佛土	-11.3715
老子	-11.3715
揀非	-11.3718
不知其	-11.3723
通泰	-11.3724
序云	-11.3724
本不生	-11.3725
事禪	-11.3727
不惟	-11.3728
滿願	-11.3729
二初正	-11.3734
勸令	-11.3736
假設	-11.3736
未發心	-11.3737
寂滅忍	-11.3741
日月淨明德佛	-11.3741
見佛聞法	-11.3741
六處	-11.3748
簡異	-11.3748
在會	-11.3751
說法教化	-11.3753
其要	-11.3755
外緣	-11.3756
來入	-11.3756
大部	-11.3758
來集	-11.3761
伏斷	-11.3763
為菩薩說	-11.3765
世間相常住	-11.3769
頂上	-11.3769
袒	-11.377
諍競	-11.377
閒	-11.3772
心心所	-11.3772
毗沙門	-11.3773
脣	-11.3773
〉、〈	-11.3774
律師	-11.3775
艱	-11.3777
方等中	-11.3777
離愛	-11.3778
輕賤	-11.378
絃	-11.3781
斷除	-11.3782
廢權	-11.3786
拔濟	-11.3793
六師	-11.3797
埵	-11.3799
諸三昧	-11.38
▁初舉	-11.381
妙悟	-11.3811
寄言	-11.3814
求菩提	-11.3815
為根本	-11.3816
教授	-11.3816
曉了	-11.382
於佛滅後	-11.3823
何人	-11.3826
此中意	-11.3827
偈讚	-11.3828
秘密藏	-11.383
二千人	-11.3831
遍身	-11.3832
不顛倒	-11.3832
小乘人	-11.3833
迹示	-11.384
其過	-11.384
不缺	-11.3842
不信受	-11.3842
法師云	-11.3843
有通有別	-11.3845
夜摩	-11.3846
眾喜	-11.3846
相似位	-11.3847
憶想	-11.3848
銘	-11.385
屏	-11.3853
五分法身	-11.3853
如何是	-11.3854
迦葉佛	-11.3855
桃	-11.3856
為人說	-11.3857
瓜	-11.3858
機動	-11.386
四十九	-11.3861
第五十人	-11.3861
隨應	-11.3862
一念信解	-11.3862
願滿	-11.3867
季	-11.3868
乃至老死	-11.3869
更互	-11.3871
七科	-11.3877
世間出世間	-11.3883
切音	-11.3886
頌第一	-11.3887
臥具	-11.3891
如此等	-11.3895
中邊	-11.3899
第二段	-11.3899
鈴	-11.39
▁三明	-11.3901
是妙音菩薩	-11.3903
牛羊	-11.3906
七年	-11.3906
竺	-11.3912
䟽	-11.3913
解脫門	-11.3914
有疾	-11.3915
瞑	-11.3915
或約	-11.3917
法師功德品	-11.3917
入見道	-11.3918
掘	-11.3919
罰	-11.3925
動搖	-11.3928
功報	-11.3931
隱沒	-11.3933
堪受	-11.3933
庸	-11.3935
所熏	-11.3936
四種三昧	-11.3936
繫念	-11.3938
出過	-11.3941
中路	-11.3947
現像	-11.3949
句句	-11.3949
輭	-11.3951
難測	-11.3952
異體	-11.3952
無缺	-11.3955
前進	-11.3958
未久	-11.3961
清濁	-11.3961
▁初示	-11.3962
徒眾	-11.3967
當念	-11.3971
客作	-11.3978
肉髻	-11.3978
之志	-11.3983
鍊	-11.3988
維摩詰	-11.3988
罷	-11.3989
廓	-11.3989
諷	-11.399
所學	-11.3992
三脫	-11.3993
大慈大悲	-11.3994
蒲	-11.3994
革	-11.3997
咨	-11.3999
青蓮華	-11.4
技	-11.4001
菩薩所行	-11.4005
攝盡	-11.4005
五年	-11.401
聖凡	-11.4012
昔佛	-11.4012
有淺深	-11.4018
柔輭	-11.4023
巧拙	-11.4023
置毒	-11.4023
第五十	-11.4026
說不能盡	-11.4028
釋題	-11.4028
而反	-11.4033
釋迦如來	-11.4038
何以知	-11.4042
難信難解	-11.4046
豈唯	-11.4047
客曰	-11.4053
莫過	-11.4055
死魔	-11.4055
勇猛精進	-11.4056
喻曰	-11.4056
靜處	-11.4057
四章	-11.406
薩遮	-11.406
諂曲	-11.4063
砂	-11.4064
華臺	-11.4065
真宗	-11.4065
百餘	-11.4066
藏識	-11.4067
畔	-11.407
於茲	-11.4071
枉	-11.4072
七行半	-11.4073
遽	-11.4073
姚	-11.4076
有功	-11.4076
邦	-11.4076
玄籤	-11.4079
叔	-11.408
領納	-11.4082
脈	-11.4086
傳弘	-11.4087
欲使	-11.4088
結顯	-11.4089
三藏佛	-11.409
諸佛之所	-11.4091
潤生	-11.4091
轉釋	-11.4093
太虗	-11.4093
六十四	-11.4093
此二種	-11.4095
十德	-11.41
麤細	-11.4102
我弟子	-11.4102
所習	-11.4103
不備	-11.4103
億千	-11.4103
大數	-11.4109
眾惡	-11.4111
佛境界	-11.4111
未論	-11.4115
佛祖	-11.412
薩遮尼乾子	-11.4123
一闡提	-11.4124
淨性	-11.4127
勝鬘經	-11.4128
煩惱魔	-11.4131
哲	-11.4134
六門	-11.4134
只如	-11.4136
珊	-11.4136
分別功德	-11.4137
彼經云	-11.4139
中道第一義諦	-11.414
塗香	-11.4141
擅	-11.4146
嶽	-11.4148
雙明	-11.415
北洲	-11.4155
能招	-11.4157
之儀	-11.4159
犢子	-11.4163
何要	-11.4167
故有此	-11.4169
止觀輔行	-11.4172
尚書	-11.4172
釋梵	-11.4176
自責	-11.4179
迦葉當知	-11.4179
億百千	-11.4183
授藥	-11.4184
得初果	-11.4192
戒體	-11.4193
故喻以	-11.4193
圓常	-11.4194
十二種	-11.4194
除滅	-11.4195
諸波羅蜜	-11.4196
好樂	-11.4196
非有想非無想	-11.42
於虗空中	-11.4201
跨節	-11.4207
諸天子	-11.4211
阿毘曇	-11.4211
猪	-11.4213
虗相	-11.4213
悋	-11.4213
吏	-11.4214
非獨	-11.4214
勑	-11.4214
佛地論	-11.4216
詠	-11.4217
不窮	-11.4217
瓦	-11.422
四句分別	-11.4221
智勝	-11.4222
四安樂行	-11.4222
根力	-11.4223
毋	-11.4225
攀緣	-11.4227
笈多	-11.4228
入室	-11.4231
無垢稱	-11.4231
知禮	-11.4234
非非想	-11.4234
千劫	-11.424
七種方便	-11.424
居初	-11.4247
僕從	-11.4249
別頌	-11.4251
別教菩薩	-11.4252
歎經	-11.4253
從假入空	-11.4254
一毫	-11.4255
六趣眾生	-11.4258
自受用	-11.4258
各有三	-11.4259
雜心	-11.426
若許	-11.4262
三昧力	-11.4265
起愛	-11.4274
所集	-11.4275
著如來衣	-11.4277
檀波羅蜜	-11.4278
不見佛	-11.4279
會權歸實	-11.4279
頭面禮足	-11.428
不相離	-11.428
介爾	-11.4281
前世	-11.4282
智度論云	-11.4283
厚薄	-11.4284
楞嚴云	-11.4285
遞	-11.4286
由斯	-11.4287
十二支	-11.4289
從定起	-11.4289
融會	-11.4289
顛	-11.429
五十餘年	-11.4293
厄	-11.4294
訶責	-11.4296
身量	-11.4296
教旨	-11.4302
退轉	-11.4305
肝	-11.4306
獲大	-11.4308
別指	-11.431
童女	-11.4313
厭患	-11.4314
不煩	-11.4317
消滅	-11.4321
小千	-11.4324
中夜	-11.4326
證法身	-11.4327
略廣	-11.4328
放捨	-11.433
金剛心	-11.4332
今當說	-11.4334
伏無明	-11.4335
始成	-11.4337
當得成佛	-11.4339
頌第三	-11.4341
淨覺	-11.4346
真偽	-11.4349
非常非無常	-11.4353
第六識	-11.4353
於一佛乘分別說三	-11.4354
天龍八部	-11.4356
玩好	-11.4357
不惜身命	-11.4358
安能	-11.4359
周匝	-11.4359
世雄	-11.4362
羊車	-11.4362
十玅	-11.4363
戒定	-11.4363
荷負	-11.4363
不輕之	-11.4364
靈鷲	-11.4364
日用	-11.4365
仗	-11.4365
大喜	-11.4368
飄	-11.4368
霜	-11.4369
今文云	-11.4369
從緣生	-11.4371
令物	-11.4371
昌	-11.4371
矜	-11.4372
鍾	-11.4374
深觀	-11.4375
文有三	-11.4376
兜率天	-11.4377
如何得	-11.4378
諸物	-11.4378
長行云	-11.438
行施	-11.4384
七百	-11.4386
智光	-11.4389
十種三法	-11.439
▁一示	-11.4392
初經家敘	-11.4395
以何為	-11.4396
除障	-11.4397
冥顯	-11.44
八年	-11.4401
正命	-11.4402
只緣	-11.4405
能潤	-11.4411
求食	-11.4412
迹顯本	-11.4416
四十一	-11.4417
妄見	-11.442
全在	-11.4422
字誤	-11.4425
難解難入	-11.4427
相承	-11.4428
從何所來	-11.4428
能壞	-11.4429
無分別智	-11.4431
入不二法門	-11.4433
亦應有	-11.4434
初一頌	-11.4439
似解	-11.4439
剩	-11.4443
墻壁	-11.4445
咄	-11.4446
永嘉	-11.4449
安可	-11.445
阻	-11.4452
一心三智	-11.4454
農	-11.4454
似位	-11.446
染污	-11.446
寶帳	-11.446
復須	-11.4463
各論	-11.4465
機情	-11.4466
文殊師利言	-11.4469
先示	-11.4472
流通分	-11.4475
樂聞	-11.4475
度入	-11.4476
無餘涅槃	-11.448
此二義	-11.4486
純一	-11.4488
無價	-11.4496
大根	-11.4498
分科	-11.4498
所化眾生	-11.45
後五百歲	-11.4502
學道	-11.4505
新舊	-11.4506
6	-11.4507
慈悲喜捨	-11.4509
修禪定	-11.4509
分為三	-11.4509
幰	-11.451
譏嫌	-11.451
千世界	-11.4512
頂戴	-11.4514
唇	-11.4515
夫子	-11.4516
鋒	-11.4516
發真無漏	-11.4517
捕	-11.4517
乙	-11.4518
意生身	-11.4518
旃陀羅	-11.4518
無滯	-11.452
此經典	-11.4522
惟其	-11.4523
無前後	-11.4523
如向所	-11.4524
二萬億佛所	-11.4528
帶方便	-11.453
也妙樂云	-11.453
摩耶	-11.4532
即對治	-11.4533
大莊嚴	-11.4535
施與	-11.4536
詩云	-11.4537
無復煩惱	-11.4544
一心稱名	-11.4546
所獲	-11.455
地地	-11.4552
修止	-11.4555
二途	-11.4556
具二義	-11.4559
禮拜供養	-11.456
婆羅	-11.456
千界	-11.456
譯經	-11.4567
普現色身	-11.457
五濁障	-11.4574
清水	-11.4576
非生現生	-11.4576
婦女	-11.458
天鼓	-11.458
結加趺坐	-11.4582
函	-11.4582
此下是第二	-11.4584
則不然	-11.4584
穿鑿	-11.4586
不獲	-11.4587
近果	-11.4587
苦苦	-11.459
炷	-11.459
為人悉檀	-11.4591
思之思之	-11.4596
呌	-11.4601
羅剎女	-11.4601
問答料簡	-11.4601
線	-11.4606
開導	-11.4606
趙	-11.4606
媚	-11.4609
方等經	-11.4609
歎二智	-11.461
消伏	-11.461
今文中	-11.4611
一點	-11.4615
必假	-11.4621
什師	-11.4622
日月燈明	-11.4624
愚人	-11.4626
最第一	-11.4626
容有	-11.4635
本寂	-11.4639
持業	-11.464
四十六	-11.4652
十戒	-11.4655
皆歸	-11.4655
戀慕	-11.4659
若善男子善女人	-11.4659
自誓	-11.4662
威猛	-11.4664
在家出家	-11.4665
明本迹	-11.4665
彈訶	-11.4665
破法遍	-11.467
法師功德	-11.467
齊教	-11.4671
喧	-11.4672
從因至果	-11.4672
目前	-11.4673
一切聲聞辟支佛	-11.4674
一面	-11.4674
𦘕	-11.4677
未會	-11.4677
詎	-11.4678
卓	-11.4678
怕	-11.468
事畢	-11.4681
經部	-11.4685
有即非有	-11.4687
常途	-11.4687
如牛	-11.4688
壓	-11.4688
荊	-11.4692
滅度後	-11.4695
自古	-11.4701
聞此法	-11.4704
不暇	-11.4705
不放逸	-11.4708
如來能知	-11.471
有長行偈頌	-11.471
老病死	-11.471
帖合	-11.4713
者何耶	-11.4713
初二行	-11.4717
不犯	-11.4718
領知	-11.4719
通局	-11.472
而不說	-11.4721
善不善	-11.4725
難思議	-11.4725
世音	-11.4726
貼文	-11.4741
於諸法中	-11.4741
瞻仰尊顏	-11.4743
三千大千	-11.4743
獎	-11.4746
和南	-11.4747
愕	-11.4751
之士	-11.4752
壞苦	-11.4752
說大法	-11.4755
亭	-11.4756
脹	-11.4756
羞	-11.4759
真如理	-11.476
變異	-11.4761
芥子	-11.4763
諸佛道同	-11.4764
形色	-11.4765
下別明	-11.4765
七卷	-11.4767
皇帝	-11.4768
之端	-11.4769
為我說	-11.4769
大菩薩眾	-11.4771
寶鈴	-11.4773
於中初	-11.4775
▁二約	-11.4779
未曾說	-11.4779
宗要	-11.4782
佛之智慧	-11.4783
顯益	-11.4783
墮苦	-11.4785
真道	-11.4788
不護	-11.4791
十萬億	-11.4791
希求	-11.4791
小草	-11.4792
集分身	-11.4795
不繁	-11.4797
自在天	-11.4799
因茲	-11.4799
得三菩提	-11.48
不涉	-11.4801
求衣食	-11.4809
廣演	-11.4813
色陰	-11.4815
凡有三	-11.4821
非關	-11.4829
膩	-11.483
本源	-11.4832
觀四諦	-11.4832
中根人	-11.4833
又見佛子	-11.4834
屢	-11.4834
我等今者	-11.4835
耻	-11.4836
醒悟	-11.4837
諸法門	-11.4837
膚	-11.4838
何足	-11.484
得聞是經	-11.4853
助顯	-11.4855
三賢	-11.4856
救濟	-11.4857
易見	-11.4857
持經之人	-11.4861
奈何	-11.4865
報因	-11.4866
僧寶	-11.4868
望後	-11.487
功德莊嚴	-11.4873
修福	-11.4874
法印	-11.4876
十一品	-11.4877
六十二億	-11.4879
在茲	-11.4879
下結示	-11.4883
所敬	-11.4883
八萬劫	-11.4886
其數無量	-11.4887
文殊師利法王子	-11.4893
破塵沙	-11.4894
凡情	-11.4898
百八十	-11.49
遍知	-11.4903
曾無	-11.4904
梵眾	-11.4904
十六沙彌	-11.4904
凖	-11.4907
全性起修	-11.491
生厭	-11.4911
託事	-11.4912
低頭	-11.4913
醉臥	-11.4913
無處不	-11.4914
牧	-11.4915
委明	-11.4915
聞思修	-11.4916
又見菩薩	-11.4917
妃	-11.4918
單複	-11.4922
呂	-11.4922
尚不能	-11.4923
苦痛	-11.4924
兩序	-11.4928
同聲	-11.4935
義推	-11.4946
現種種	-11.4947
情智	-11.4951
有三品	-11.4952
下釋疑	-11.4952
聚集	-11.4954
十方界	-11.4959
稱妙	-11.4961
復作是念	-11.4961
引華嚴	-11.497
悲智	-11.4972
不自覺知	-11.4982
殖	-11.4982
殃掘	-11.4982
山河	-11.4983
天人阿修羅	-11.4985
寂而常照	-11.4986
靈鷲山	-11.4987
噫	-11.4987
三初頌	-11.4987
即為人	-11.4989
遍法界	-11.499
得六根清淨	-11.4992
崖	-11.4992
蹈	-11.4993
不關	-11.4994
緯	-11.4996
誣	-11.4996
絡	-11.4999
弄	-11.5001
鬪諍	-11.5002
必由	-11.5005
大誓願	-11.5008
二十五法	-11.5009
重舉	-11.5009
大小俱	-11.5015
析法	-11.5017
執近	-11.5017
王舍	-11.5021
自然智	-11.5021
風輪	-11.5026
以下是	-11.5028
長阿含	-11.5032
接引	-11.5033
得佛道	-11.5033
調心	-11.5034
八十億	-11.5037
罪業	-11.5037
金剛藏	-11.5045
暇	-11.5045
諸佛所說	-11.5046
二別明	-11.5047
法王子	-11.5053
白衣	-11.5054
名稱普聞	-11.5055
雲雷音	-11.5055
過是巳後	-11.5057
惟願世尊	-11.5059
?』	-11.5062
半行頌	-11.5065
悕	-11.5069
浴池	-11.507
所觀之境	-11.5071
憍陳如	-11.5071
尋伺	-11.5071
燃燈	-11.5072
伎	-11.5072
刊	-11.5073
不變隨緣	-11.5075
別舉	-11.5075
頗有	-11.5076
鷄	-11.5076
毒蛇	-11.5081
寮	-11.5082
煎	-11.5085
卜	-11.5085
十二品	-11.5089
。】「【	-11.5093
具述	-11.5095
滅罪	-11.5096
兼別	-11.5097
鬼畜	-11.5106
一乘實相	-11.5108
共念處	-11.5111
諸有情	-11.5114
三總結	-11.5124
異類	-11.5131
無學果	-11.5136
甚大久遠	-11.514
頂法	-11.514
得阿羅漢果	-11.5143
今借	-11.5144
羼	-11.5147
安處	-11.5147
中之一	-11.5148
拔苦與樂	-11.5148
漏無漏	-11.5149
慈雲	-11.5149
儔	-11.5151
大自在天	-11.5152
以是方便	-11.5152
帙	-11.5152
不苦不樂	-11.5153
各各不同	-11.5153
瓦礫	-11.5154
錫	-11.5156
杵	-11.5156
繇	-11.5158
悶	-11.5159
撲	-11.5159
巡	-11.5159
透	-11.516
炳然	-11.516
商主	-11.5161
雀	-11.5162
名句文	-11.5164
恒河	-11.5168
演說諸法	-11.5169
香氣	-11.5171
歷事	-11.5171
天台大師	-11.5173
四十二字	-11.5173
所障	-11.5176
脉	-11.5178
金山	-11.5182
於今日	-11.5186
自受用身	-11.5189
世樂	-11.5191
致使	-11.5191
歷五味	-11.52
指歸	-11.52
不謗	-11.5202
奈	-11.5205
如須彌山	-11.5211
斷伏	-11.5213
皆實不虗	-11.5218
功德成就	-11.5224
露地	-11.5228
因緣所生法	-11.523
優曇華	-11.5231
雨法雨	-11.5232
渧	-11.5233
料	-11.5234
滿月	-11.5234
不談	-11.5234
體宗用	-11.5234
甚深微妙	-11.5234
璞	-11.5236
見諸菩薩	-11.5237
坐如來座	-11.5237
久久	-11.5237
寂滅道場	-11.5237
囚	-11.5239
野客	-11.524
猗	-11.5242
七方便人	-11.5242
乾土	-11.5244
永離	-11.5244
貼	-11.5245
庶幾	-11.5248
推功	-11.5249
不索	-11.5249
超過	-11.525
償	-11.5251
垂應	-11.5251
不一不異	-11.5252
蛣𧏙	-11.5253
唯有一門	-11.5255
聖眾	-11.5257
準例	-11.5261
若善男子	-11.5262
分座	-11.5267
持經人	-11.5267
中各有	-11.5268
具諸法	-11.5273
孤起	-11.5277
穢惡	-11.5282
互通	-11.5282
古來	-11.5282
法付	-11.5293
」。《	-11.5294
二行頌	-11.5294
能變	-11.5296
喜根	-11.5299
正法住世	-11.5302
青色	-11.5305
宰官	-11.5309
顯了	-11.5311
非想非非想	-11.5313
未滿	-11.5314
桓	-11.5318
奴婢	-11.5319
几	-11.5319
饉	-11.5322
得法眼淨	-11.5323
無大機	-11.5323
破遍	-11.5324
有無量相	-11.5325
秤	-11.5326
見思惑	-11.5326
隨喜功德	-11.5327
皮肉	-11.5331
成壞	-11.5337
不濫	-11.5345
淨名經	-11.5346
熏修	-11.5347
金剛般若	-11.5349
大聖人	-11.5349
諸大弟子	-11.5366
現在佛	-11.5367
非真實	-11.5368
善巧方便	-11.5372
十方三世諸佛	-11.538
因緣譬喻	-11.5385
二十小劫	-11.5387
辨同異	-11.5389
三千世界	-11.5392
佛告舍利弗	-11.5394
疲倦	-11.5394
無學道	-11.5395
毀訾	-11.5397
其疾如風	-11.5398
化城喻品	-11.5398
根機	-11.5399
盡未來際	-11.5399
結跏趺坐	-11.5401
犯戒	-11.5401
晨	-11.5401
鳩槃茶	-11.5402
憫	-11.5402
四眾八部	-11.5408
替	-11.5415
微玅	-11.5416
膏	-11.5419
局在	-11.5424
推尋	-11.543
摩那	-11.5444
醫師	-11.5449
六番	-11.5454
略指	-11.5462
無住本	-11.5462
音樂	-11.5463
護持助宣	-11.5469
蓋由	-11.5469
廣說此經	-11.5472
超出	-11.5473
八觸	-11.5474
天龍夜叉	-11.5478
禰	-11.5478
偏執	-11.5479
但說無上道	-11.5479
示真實相	-11.548
祇是	-11.5481
狀如	-11.5481
於中又二	-11.5482
汝等所行是菩薩道	-11.5482
謗經	-11.5482
級	-11.5483
鹹	-11.5484
消經	-11.5484
迂	-11.5485
遙聞	-11.5485
迴心向大	-11.5487
洽	-11.5487
將何以	-11.5488
大施主	-11.5488
拾	-11.5489
▁一標示	-11.5494
祐	-11.5495
藝	-11.5495
隨緣不變	-11.5496
隱實	-11.5496
虞	-11.5498
祇夜	-11.55
識通塞	-11.55
豈應	-11.55
含容	-11.5502
滅受想定	-11.5502
猛利	-11.5503
餘殘	-11.5506
蘭若	-11.551
情無情	-11.5513
譬喻言辭	-11.5515
便作是念	-11.5515
第三段	-11.5519
三乘之人	-11.552
要知	-11.5524
所領	-11.5525
只是一	-11.5526
諸大士	-11.5528
前長行	-11.5528
適願	-11.5528
引導眾生	-11.5534
習盡	-11.5534
阿彌陀佛	-11.5534
增道	-11.554
甚深無量	-11.5541
西北	-11.5544
詺為	-11.5546
未敢	-11.5549
皆成佛道	-11.5551
兼帶	-11.5552
二酥	-11.5554
卷第五	-11.5555
更增	-11.5556
荅	-11.5556
寧有	-11.5559
感果	-11.556
加頌	-11.5565
此輩	-11.5566
箋	-11.5568
所詮理	-11.5568
感應道交	-11.557
抖擻	-11.5571
逕	-11.5573
裔	-11.5575
牆壁	-11.5575
未曾見	-11.5575
陁	-11.5575
帛	-11.5576
為令眾生	-11.5576
根器	-11.5579
所稟	-11.5581
毗舍	-11.5582
問何不	-11.5584
汁	-11.5585
仁義	-11.5586
宜應	-11.5587
新譯	-11.559
決定性	-11.5592
新學	-11.5596
唯識論	-11.5596
殺害	-11.5602
報土	-11.5603
尼眾	-11.5604
方稱	-11.561
是有為	-11.561
略述	-11.5615
具十法界	-11.5624
無量無數	-11.563
頂受	-11.563
千萬億劫	-11.5633
章安云	-11.5635
設使	-11.5635
記莂	-11.5636
波水	-11.5637
過未	-11.564
一二三	-11.5649
是法不可示	-11.5652
上座	-11.5652
芥	-11.5653
父子相見	-11.5655
斬	-11.5656
饍	-11.5657
佐	-11.5657
不滯	-11.5658
一切法門	-11.5661
趺	-11.5661
哭	-11.5662
無問自說	-11.5664
柰	-11.5664
緊	-11.5665
項	-11.5666
病患	-11.5667
靜室	-11.5668
於無量劫	-11.5671
縷	-11.5678
為眾生說法	-11.5688
理具三千	-11.5695
補注	-11.5696
信毀	-11.5697
出世本懷	-11.5697
次別釋	-11.5703
其中眾生	-11.5705
迷妄	-11.5705
因果俱	-11.5707
乘乘	-11.5708
維摩經	-11.5714
例可知	-11.5717
伽藍	-11.5724
旨趣	-11.5724
獨頭	-11.5729
果頭	-11.573
所護	-11.5731
一空一切空	-11.5734
權實不二	-11.5738
族姓	-11.5739
空無相	-11.574
後代	-11.5741
塵劫	-11.5742
臘	-11.5743
匹	-11.5744
姟	-11.5745
能熏	-11.5745
是則為難	-11.5747
諦緣度	-11.5747
豫	-11.5749
大乘機發	-11.5751
諳	-11.5752
是菩薩道	-11.5752
可以意得	-11.5752
那提	-11.5754
震旦	-11.5754
摩竭	-11.5756
圓照	-11.5758
敗種	-11.5759
何疑	-11.576
退席	-11.5762
欲說大法	-11.5762
而巳矣	-11.5763
覆障	-11.5766
鏡像	-11.5769
妙旨	-11.5772
色無色界	-11.578
淨藏	-11.5785
初𦦨	-11.5792
縱廣	-11.5793
利樂	-11.5793
第五卷	-11.5793
闍王	-11.5794
所遊	-11.5794
自行權實	-11.5794
無生四諦	-11.5801
兩教二乘	-11.5801
不退菩薩	-11.5802
因緣和合	-11.5803
悉令	-11.5807
▁一出	-11.5813
語業	-11.5814
傳持	-11.5814
於道場	-11.5815
現在前	-11.5816
恩德	-11.5816
千年	-11.5822
真是佛子	-11.5823
自慶	-11.5824
具如前	-11.5828
八十種好	-11.583
象馬車乘	-11.583
誦持	-11.5831
〕	-11.5832
損生	-11.5832
騰疑	-11.5833
雨華動地	-11.5833
嚮	-11.5834
父子相失	-11.5834
功勳	-11.5837
呵責	-11.5838
遊戲神通	-11.5839
五百比丘	-11.5842
宅中	-11.5843
遍十方	-11.5843
毒蟲	-11.5845
糓	-11.5848
河沙	-11.5849
不定教	-11.5851
藻	-11.5852
愛語	-11.5853
踏	-11.5854
重擔	-11.5857
舌相	-11.5858
慧日	-11.5862
致令	-11.5866
調和	-11.5868
。』」	-11.5869
安居	-11.5871
楞伽經	-11.5873
虵	-11.5876
死後	-11.5881
華光佛	-11.5881
山海	-11.5883
西南	-11.5887
悲華	-11.5891
三教菩薩	-11.5892
開為三	-11.5894
末香	-11.5894
忍力	-11.59
普賢行	-11.5905
如來述成	-11.591
譬帖合	-11.5912
喘	-11.5912
阿僧祗	-11.5915
座席	-11.5921
所讚	-11.5922
即一而三	-11.5924
淹	-11.5926
對治悉檀	-11.5927
例爾	-11.5928
朋	-11.5929
實相印	-11.5929
剖	-11.5931
泣	-11.5931
曆	-11.5931
黑色	-11.5931
鉤	-11.5932
嘿	-11.5932
尊特身	-11.5937
諸佛護念	-11.5937
宛轉	-11.5938
無礙智	-11.5939
能達	-11.5945
永滅	-11.5947
助發	-11.5948
慶喜	-11.595
猶屬	-11.5956
雙林	-11.5956
欲界定	-11.5957
安養	-11.596
共不共	-11.596
行布施	-11.5965
猶未盡	-11.5968
反顯	-11.5971
引物	-11.5976
劫盡	-11.5976
懺法	-11.598
部內	-11.5983
見不空	-11.5985
至佛所	-11.5989
從容	-11.5996
分陀利	-11.6003
奮迅	-11.6006
波闍波提	-11.6007
饒	-11.6009
即三而一	-11.6011
此三法	-11.6011
上求下化	-11.6013
法器	-11.6013
乞士	-11.6014
一代教	-11.6015
䨱	-11.6015
饑渴	-11.6015
鉢羅	-11.6015
兜	-11.6016
之象也	-11.6018
戲笑	-11.6019
何以知之	-11.6019
佛告迦葉	-11.602
故云爾也	-11.602
佳	-11.602
墻	-11.6021
濁水	-11.6022
攝大乘論	-11.6023
四衢	-11.6028
提婆達多品	-11.6029
總而言之	-11.6038
直約	-11.604
會歸	-11.6047
平地	-11.6051
根源	-11.6054
大千世界	-11.6063
自在神力	-11.6069
牟	-11.6074
唯有如來	-11.6079
淨華宿王智佛	-11.6087
起七寶塔	-11.6087
普現	-11.6088
無量百千	-11.609
哆	-11.6091
身手有力	-11.6093
唯願世尊	-11.6095
超斷	-11.6098
韋	-11.6099
=	-11.6101
嶮	-11.6101
罄	-11.6103
濃	-11.6104
橋	-11.6105
臆	-11.6105
飲酒	-11.6106
攘	-11.6107
城邑	-11.6108
說三乘法	-11.6109
自然而	-11.6114
較量	-11.6116
現量	-11.6118
昨	-11.6118
能燒	-11.6121
塔寺	-11.6122
貪瞋	-11.6125
授記作佛	-11.6131
貧人	-11.6166
結要	-11.6171
若能如是	-11.6173
萬由旬	-11.618
互顯	-11.6182
從座而起	-11.6183
大人相	-11.6185
轉輪	-11.6187
假使有人	-11.6188
有漏無漏	-11.619
頗梨	-11.6191
復次常精進	-11.6192
臻	-11.6192
以之為	-11.6193
膳	-11.6194
往往	-11.6194
眾所知識	-11.6194
織	-11.6196
叉手	-11.6199
洋	-11.62
曾聞	-11.6202
啼	-11.6202
挾	-11.6203
騎	-11.6204
躍	-11.6206
無量阿僧祇劫	-11.621
其志	-11.6224
自謂巳得	-11.6226
常不輕菩薩	-11.6226
判麤妙	-11.6228
長養	-11.623
飲光	-11.6233
迷情	-11.6236
番問答	-11.6239
阿難白佛言	-11.6239
色究竟	-11.624
問意者	-11.6241
歡喜地	-11.6242
後二句	-11.6253
種種法門	-11.6267
遍覆	-11.6267
不任	-11.627
百六十	-11.6273
非如非異	-11.6274
竪論	-11.6279
心之所念	-11.628
怛	-11.6283
吾今	-11.6284
龍華	-11.6285
乃可為說	-11.6285
擣	-11.6286
漿	-11.6286
長行偈頌	-11.6287
引文證	-11.6288
贖	-11.6289
蔑	-11.6291
鑿	-11.6292
堪能	-11.6293
爾時佛告舍利弗	-11.6293
阿闍世王	-11.6294
為初門	-11.6294
純陀	-11.6295
運載	-11.6297
保證	-11.6297
指南	-11.6298
殘害	-11.6298
起誓	-11.6302
何須更	-11.6309
莂	-11.6309
伊字	-11.6311
三十四	-11.6314
持法華經	-11.6317
分別說三	-11.6319
煖法	-11.632
四十里	-11.6321
互發	-11.6327
未到地	-11.6327
濟度	-11.6328
兩舌	-11.633
雨寶	-11.6333
我等今日	-11.6338
一心聽	-11.634
達摩	-11.635
欲退還	-11.636
住忍辱地	-11.6364
抹	-11.6365
紺	-11.637
胎生	-11.6372
綺	-11.6372
上至有頂	-11.6372
三十六句	-11.6373
令入佛道	-11.6376
著衣	-11.6376
柔順忍	-11.6376
身念處	-11.6377
三摩地	-11.6379
梁棟	-11.638
諸小王	-11.638
演暢	-11.638
一時俱	-11.638
開迹顯本	-11.6381
沓	-11.6381
新發意菩薩	-11.6382
焚燒	-11.6382
燄	-11.6383
出於世	-11.6384
措	-11.6386
魅	-11.6386
係	-11.6387
八地巳上	-11.6388
揆	-11.6388
威音	-11.6388
虔	-11.639
酉	-11.6391
二乘作佛	-11.6391
不能動	-11.6392
▁二復次下	-11.6392
異熟果	-11.6393
掣	-11.6398
八萬四千劫	-11.6402
廣博	-11.6406
形容	-11.6407
難遭	-11.6409
第三卷	-11.6411
於佛智慧	-11.6424
五停	-11.6425
增一阿含	-11.6426
觀十二因緣	-11.6438
增上緣	-11.6444
造像	-11.645
智積菩薩	-11.6451
亦無所	-11.6454
度無量眾	-11.6455
滅受想	-11.6458
他日	-11.6459
常修梵行	-11.646
非因非果	-11.6461
萬二千歲	-11.6461
半月	-11.6462
周帀	-11.6467
從始至終	-11.6468
貪嗔癡	-11.6469
塵沙無明	-11.6471
還本土	-11.6471
吏民	-11.6471
藪	-11.6471
掛	-11.6472
中止一城	-11.6473
寓	-11.6474
雙照二諦	-11.6474
一行半頌	-11.6475
畵	-11.6476
屈曲	-11.6476
身受心法	-11.6476
中庸	-11.6476
宴	-11.6477
一切天人	-11.6479
揖	-11.6479
吸	-11.6482
不了義	-11.6483
構	-11.6485
初引經	-11.6488
福德莊嚴	-11.6488
押	-11.6489
不燒	-11.649
覆藏	-11.649
妙光菩薩	-11.6491
武帝	-11.6491
深敬	-11.6493
七覺支	-11.6498
分大小	-11.65
猶存	-11.6503
四階	-11.6506
無有異	-11.6507
悔過	-11.6516
圓詮	-11.6518
何等法	-11.6518
加行位	-11.652
爾時文殊師利	-11.6522
如是諸人等	-11.6523
母胎	-11.6525
單約	-11.6534
威音王佛	-11.6541
不擇	-11.6546
日日	-11.6548
得現一切色身三昧	-11.6548
不須復說	-11.6551
藥王菩薩本事品	-11.6553
禮記	-11.6554
波羅柰	-11.6558
𣗳	-11.6558
揵	-11.6558
于世	-11.6561
捷疾	-11.6564
迫	-11.6564
峻	-11.6564
彰灼	-11.6564
匱	-11.6566
躡	-11.6567
蚖	-11.6569
淮	-11.657
依主釋	-11.6571
貪嗔	-11.6572
柳	-11.6578
兩家	-11.6579
閑居	-11.6582
旋轉	-11.6583
假想	-11.6587
眷屬妙	-11.659
習學	-11.659
四大聲聞	-11.6592
名阿羅漢	-11.6595
黎耶	-11.6595
朗然	-11.6599
華嚴經云	-11.6605
見寶塔品	-11.6607
受持此經	-11.6609
畢定	-11.6612
得安隱	-11.662
十不二門	-11.6621
怖魔	-11.6628
誠諦	-11.6629
傳傳	-11.6632
供具	-11.664
亦未為難	-11.6641
合掌向佛	-11.6646
年少	-11.6646
憍恣	-11.6651
萬二千人	-11.6652
陀羅尼品	-11.6653
▁一正明	-11.6657
慈愍	-11.6658
㝹	-11.6658
禮敬	-11.6659
無明住地	-11.666
欝	-11.6661
隨喜功德品	-11.6662
無價寶珠	-11.6662
暖	-11.6663
嗜	-11.6668
六萬恒河沙	-11.6669
即空即中	-11.667
劍	-11.6671
尼乾	-11.6673
雙游	-11.6676
二三四	-11.6677
一經之	-11.6678
爰	-11.6679
周旋	-11.6686
骨人	-11.6691
雙亡	-11.6698
思慮	-11.6699
鈔云	-11.6699
十六門	-11.6702
附文	-11.6702
留難	-11.6703
教行理	-11.6705
有四義	-11.6714
三業供養	-11.672
飛行	-11.6722
此三義	-11.6728
初一偈	-11.6738
一地所生	-11.6743
終歸於空	-11.6744
本末究竟等	-11.6747
兼行六度	-11.6748
多所饒益	-11.6748
寶山	-11.675
釆	-11.6752
溝	-11.6752
從淺至深	-11.6754
破二十五有	-11.6755
青黃赤白	-11.6756
何以得知	-11.6758
別接通	-11.676
碑	-11.6763
瑟	-11.6763
芳	-11.6763
閇	-11.6764
鐵圍	-11.6764
監	-11.6764
與若干百千眷屬俱	-11.6764
頞	-11.6765
貪瞋癡	-11.6765
遑	-11.6765
國王大臣	-11.6766
坎	-11.6767
無情有性	-11.6767
為侍者	-11.6768
恒沙佛法	-11.6768
豈獨	-11.6769
柱根	-11.6776
退屈	-11.6793
先正釋	-11.6794
無常無我	-11.6797
何物	-11.68
八聖道	-11.6803
脫苦	-11.6809
分為四	-11.681
功歸	-11.6813
退墮	-11.6814
所縛	-11.6817
并前	-11.6822
得不退轉	-11.6825
化功	-11.6827
以偈頌曰	-11.6834
事即理	-11.6838
鑒機	-11.6839
亦復然	-11.6841
出胎	-11.6841
正直捨方便	-11.6843
吝	-11.6844
於意云何	-11.6844
捨几用車	-11.6844
筭	-11.6848
堂司行者	-11.6849
央	-11.6855
住行向地	-11.6856
巾	-11.686
輻	-11.6861
椎	-11.6861
喉	-11.6861
推檢	-11.6862
擎	-11.6863
翫	-11.6863
志求佛道	-11.6864
卷第六	-11.6864
禹	-11.6864
獼猴	-11.6865
渾	-11.6867
耕	-11.6868
東南	-11.687
爾時會中	-11.6871
巧度	-11.6874
電光	-11.6875
教詔	-11.6875
肺	-11.6877
目之為	-11.6879
入實際	-11.6892
念不退	-11.6893
遊化	-11.6896
損益	-11.6897
商略	-11.6897
逆罪	-11.6903
險難	-11.6904
寶臺	-11.6911
減少	-11.6919
嬰兒行	-11.6919
殊不知	-11.692
親承	-11.6922
能信受	-11.6925
直爾	-11.6936
方便波羅蜜	-11.6941
耶輸陀羅	-11.6941
華香瓔珞	-11.6941
八十萬億那由他	-11.6944
教菩薩法佛所護念	-11.6945
佛難值	-11.6945
但有名字	-11.6948
薝蔔	-11.695
名異義同	-11.6951
未得謂得	-11.6952
央掘	-11.6954
冥機	-11.6956
延促	-11.6958
遐	-11.696
頹	-11.696
淨潔	-11.696
腦	-11.6963
章敬云	-11.6963
四弘誓	-11.6966
須臾聞	-11.6968
於佛法中	-11.6969
耆婆	-11.6971
作此釋	-11.6977
漁	-11.6977
歎美	-11.6977
存略	-11.6978
人不見之	-11.6982
殊妙	-11.6983
亡照	-11.6984
此娑婆	-11.6984
乃至第十	-11.6986
頂墮	-11.6986
呪護	-11.6987
存沒	-11.6991
十六子	-11.6992
偏舉	-11.6993
薄德	-11.6994
四無礙智	-11.6996
流注	-11.6997
次半行	-11.6999
初標章	-11.7019
十行半	-11.7025
密雲	-11.7034
八倒	-11.7035
於我滅後	-11.7036
千國土	-11.704
淨名疏云	-11.7042
當得菩提	-11.7044
憂悲苦惱	-11.7044
其車高廣	-11.7046
檢校	-11.7052
恬	-11.7052
日照	-11.7052
不休	-11.7053
第五品	-11.7053
醜陋	-11.7054
牕	-11.7054
怨嫌	-11.7054
四十位	-11.7059
孕	-11.7061
矯	-11.7062
惶	-11.7062
叫	-11.7065
未暇	-11.7067
定性聲聞	-11.7068
鹿車	-11.7068
矛	-11.7069
恐畏	-11.7073
金光	-11.7082
無別體	-11.7093
八十年	-11.7095
百二十	-11.7096
斥奪	-11.7099
化城品	-11.7102
淺處	-11.7106
傳燈	-11.7112
西晉	-11.7119
字訓	-11.7128
一心同聲	-11.7133
妙音品	-11.7134
唯識云	-11.7139
入正定聚	-11.7142
佛自住大乘	-11.7142
脊	-11.7145
於一佛乘	-11.7145
濃淡	-11.7145
。】【△	-11.7148
眇	-11.7151
昆	-11.7151
斜	-11.7153
文有四	-11.7153
韓	-11.7153
雌	-11.7154
篋	-11.7154
䭾	-11.7157
机	-11.7158
六十四番	-11.7158
功由	-11.7163
弓	-11.7168
三十六物	-11.7169
祖承	-11.7175
惡知識	-11.7181
第十八	-11.7185
法中論	-11.7189
恭敬供養	-11.7189
告彌勒	-11.7194
熱病	-11.7195
外別有	-11.7207
無增減	-11.7211
一心精進	-11.7215
最尊	-11.7218
含藏	-11.722
器世間	-11.7225
百千億	-11.7235
玅音	-11.7239
非空非有	-11.724
於身中現	-11.7244
授聲聞記	-11.7244
閑居編第	-11.7245
聖旨	-11.7246
愛敬	-11.7247
山家	-11.7248
密遣二人	-11.7248
皈	-11.7248
莊校	-11.7249
疲勞	-11.725
常懷	-11.7252
廁	-11.7257
勗	-11.7257
甚可怖畏	-11.7258
䟦提	-11.7259
得少為足	-11.7259
四十一位	-11.7261
燕	-11.7262
魔軍	-11.7263
何以知然	-11.7264
標列	-11.7264
金錢	-11.7266
決擇	-11.7267
衣裏	-11.7268
智者大師	-11.727
審實	-11.7271
朕	-11.7272
又三初	-11.7273
權即實	-11.7276
侵習	-11.728
會麼	-11.7283
勸誡	-11.7292
無量阿僧祇	-11.7295
魔界	-11.7296
不覺不知	-11.7297
無非實相	-11.7307
氣息	-11.731
佛果菩提	-11.7318
饒益眾生	-11.7321
十五日	-11.7321
罪過	-11.7328
生大歡喜	-11.733
衰老	-11.7333
微塵數菩薩摩訶薩	-11.7337
初又二初	-11.7338
心心數法	-11.7339
初中後	-11.734
臨欲終時	-11.7342
言辭相寂滅	-11.7342
雨大法雨	-11.7343
遮照	-11.7344
遊於四方	-11.7345
抗	-11.735
不得自在	-11.7351
踞	-11.7354
囉	-11.7355
模	-11.7355
智慧莊嚴	-11.7355
沫	-11.7356
彼佛滅度	-11.7357
即其事也	-11.7358
無數億	-11.736
寒熱	-11.736
歇	-11.7361
田宅	-11.7361
臣佐	-11.7361
參差	-11.7362
捷	-11.7363
輿	-11.7364
心佛眾生	-11.7364
幽谷	-11.7364
効	-11.7366
程	-11.7368
蜈蚣	-11.7368
生天上	-11.737
冥益	-11.7371
同居土	-11.7372
亡泯	-11.7374
白骨	-11.7379
不可計	-11.7384
界界	-11.7393
惡友	-11.7398
不聞不知	-11.7409
龍女成佛	-11.7411
三根聲聞	-11.7412
色心不二	-11.7415
無始來	-11.7419
疏主解	-11.7419
到於彼岸	-11.7443
孰能	-11.7443
所緣境	-11.7444
無有餘乘	-11.7452
能持是經者	-11.7453
赫	-11.7455
叢	-11.7455
炙	-11.7457
安隱得出	-11.7458
駭	-11.7458
勸流通	-11.746
貽	-11.7461
蹄	-11.7461
腰	-11.7461
蕭	-11.7463
而供養之	-11.7464
糅	-11.7464
萎	-11.7465
又復應知	-11.7465
房舍	-11.7467
毗婆沙	-11.7469
更互相	-11.7469
純熟	-11.747
丙	-11.7471
一偈一句	-11.7473
乘急	-11.7475
二十八品	-11.7476
五百年	-11.7482
聽許	-11.749
以勸流通	-11.7502
教所詮	-11.7502
薩婆	-11.7503
帝網	-11.7504
細尋	-11.7505
博地	-11.751
具三義	-11.752
▁初引經	-11.7527
四攝法	-11.753
金光明經	-11.7531
下舉譬	-11.7537
高座	-11.7543
僭補	-11.7547
戒律	-11.7547
諸佛智慧甚深無量	-11.7549
徒施	-11.7552
三千大千國土	-11.7553
如此方	-11.7555
非三非一	-11.7555
那羅延	-11.7556
俱舍頌云	-11.7557
初發心時	-11.7557
諸漏巳盡	-11.7559
勇健	-11.7559
極微	-11.7559
三變淨土	-11.756
懶	-11.7561
十乘觀法	-11.7564
韻	-11.7565
幔	-11.7565
未詳	-11.7568
碩	-11.7568
寅	-11.7568
一雨所潤	-11.757
丑	-11.757
収	-11.7572
毱多	-11.7574
軫	-11.7575
搏	-11.7576
四無所畏	-11.7577
斤	-11.7578
縛脫	-11.7579
八勝處	-11.7589
智慧明了	-11.7589
顏色	-11.7592
准知	-11.7597
正法華經	-11.7597
延慶	-11.76
涯	-11.7609
為頓頓	-11.7612
拙度	-11.7616
火坑	-11.7619
此經亦復如是	-11.7623
斯旨	-11.7627
抑亦	-11.7631
開為四	-11.7633
付屬	-11.7646
中路懈退	-11.7647
初成道時	-11.7652
流通此經	-11.7657
坐座	-11.766
其智慧門	-11.7661
茫	-11.7662
藥草喻	-11.7663
摸	-11.7664
非漏非無漏	-11.7666
慶幸	-11.7668
斷通惑	-11.7668
諸佛子等	-11.7668
猴	-11.7669
倘	-11.767
四弘誓願	-11.767
準此可知	-11.7671
鎖	-11.7671
羯	-11.7672
膜	-11.7673
賢位	-11.7674
蹤	-11.7675
敦信	-11.7675
墳	-11.7677
在纏	-11.7678
皰	-11.7678
沐	-11.7679
黃帝	-11.7681
差降	-11.7681
兩臂	-11.7682
緣念處	-11.7683
弦	-11.7685
兩班	-11.7686
聞法信受	-11.769
初中先	-11.7693
自念言	-11.7695
舉如意云	-11.7695
喚作	-11.7702
隨眠	-11.7702
求出家	-11.7704
比量	-11.7705
究其	-11.771
東北	-11.7711
宣傳	-11.7712
天帝釋	-11.7712
還源	-11.7713
頭首	-11.7714
糞穢	-11.7717
種種譬喻	-11.7724
其有眾生	-11.7724
不堪聞	-11.7725
蓮子	-11.773
獲罪	-11.7731
帳	-11.7731
慈父	-11.7735
道士	-11.7739
如釋籤	-11.774
濕性	-11.7747
分段變易	-11.7755
手摩其頭	-11.7758
但教化菩薩	-11.7758
現神變	-11.7762
踰繕那	-11.7763
時乃說之	-11.7766
九十八使	-11.7767
何故爾	-11.7768
挍	-11.7769
五百萬億國	-11.7771
優鉢羅	-11.7771
調御	-11.7772
行住坐臥	-11.7776
碧	-11.7776
雄猛	-11.7777
霧	-11.7778
闢	-11.7778
冶	-11.7778
刀兵	-11.7779
凶	-11.7779
神通變化	-11.778
不即不離	-11.778
持淨戒	-11.7781
淨飯王	-11.7782
煖頂	-11.7783
抵	-11.7787
徙	-11.7787
十八變	-11.7791
靈瑞	-11.7792
成實論	-11.7792
眼視	-11.7792
十八不共法	-11.7802
為汝等說	-11.7804
觀不思議境	-11.7806
容受	-11.7819
三乘根性	-11.7819
隔異	-11.7833
普告	-11.7836
有餘無餘	-11.784
香油	-11.7847
緣覺乘	-11.7851
互攝	-11.7857
娛	-11.7861
阿耨	-11.7862
属	-11.7874
銖	-11.7874
猷	-11.7875
爭出火宅	-11.7877
邃	-11.7877
禦	-11.7878
少病少惱	-11.7879
墯	-11.788
纓絡	-11.7881
善權方便	-11.7881
埋	-11.7882
鹿野	-11.7882
銅輪	-11.7883
粥	-11.7883
卷第七	-11.7886
往聽	-11.7886
根本禪	-11.7888
錢唐	-11.7888
憂悔	-11.7893
助顯第一義	-11.7894
此之謂也	-11.7894
齧	-11.7896
優波	-11.7902
菩薩聞是法	-11.7905
五百羅漢	-11.7912
第七卷	-11.7913
滅不滅	-11.7916
故喻云	-11.7926
稱嘆	-11.7934
三七思惟	-11.7937
白母	-11.7939
雜亂	-11.7942
十二月	-11.7947
若干種	-11.7948
深禪定	-11.7953
敘昔	-11.7961
口密	-11.7962
現世安隱	-11.7963
皆當作佛	-11.7964
隨他意語	-11.7974
味味	-11.7977
於後惡世	-11.7978
而告之言	-11.7978
何由可	-11.7979
啞	-11.7983
隱實施權	-11.7984
鞞	-11.7986
薪盡火滅	-11.7987
螢	-11.7988
森羅	-11.7989
故此品來	-11.7989
泡	-11.799
一日一夜	-11.799
江河	-11.7993
簫	-11.7994
儼	-11.7994
曷	-11.7994
當學般若	-11.7995
癰	-11.7995
疣	-11.7995
栴檀香	-11.7996
態	-11.8
發迹顯本	-11.8
梅	-11.8002
贈	-11.8003
毒虫	-11.8005
若有女人	-11.8006
霅川	-11.8006
念觀音	-11.8011
階位	-11.8019
頌上第二	-11.8022
厭生死	-11.8025
法華巳前	-11.8025
發大願	-11.8039
三解脫門	-11.8048
成辦	-11.8055
不須更	-11.8058
下根人	-11.8064
說無量義經	-11.8065
爾時四眾	-11.8077
坐於道場	-11.8088
邏	-11.8093
大海水	-11.8093
入於佛慧	-11.8095
毀呰	-11.8096
唯佛能知	-11.8097
稽	-11.8097
一四句偈	-11.8097
良有以也	-11.8098
波斯匿王	-11.8099
發揮	-11.8101
七歲	-11.8101
燋	-11.8102
鏁	-11.8102
敏	-11.8102
地水火風	-11.8104
羸瘦	-11.8104
涕	-11.8105
朔	-11.8105
猶如虛空	-11.8105
罕	-11.8106
寬狹	-11.8106
波羅夷	-11.8108
懇	-11.8108
水陸	-11.8109
坤	-11.8111
苦法忍	-11.8114
四十二位	-11.8117
等無有異	-11.8118
仕	-11.8119
自知作佛	-11.8121
諸善法	-11.8121
四如意足	-11.8121
集註	-11.8124
逗會	-11.8137
萬象	-11.814
如前所說	-11.8148
拂迹	-11.8148
史記	-11.8149
毗盧	-11.8149
文為四	-11.8168
不逾	-11.8175
作此解	-11.8178
六欲天	-11.8181
思議境	-11.8187
皆是吾子	-11.8198
依正不二	-11.8202
雇	-11.8203
迦陵頻伽	-11.8203
練磨	-11.8204
拱	-11.8209
犁	-11.8209
矩	-11.8209
唯然世尊	-11.821
膿	-11.8212
無量無邊不可思議	-11.8213
威光	-11.8214
應作是念	-11.8216
綜	-11.8216
撫	-11.8216
簡要云	-11.8219
毗婆尸	-11.8219
寤	-11.822
大目犍連	-11.8221
綺語	-11.8221
胤	-11.8225
衝	-11.8226
豈容	-11.8228
說種種法	-11.8231
防護	-11.8234
作是觀	-11.8234
修道品	-11.8235
骨肉	-11.8238
脩習	-11.8239
影像	-11.8241
便成正覺	-11.8242
摩尼寶	-11.8243
▁三結示	-11.8244
千倍	-11.8251
失本心	-11.8258
交互	-11.8261
圓頓止觀	-11.827
十二年前	-11.8272
且寄	-11.8272
何甞	-11.8278
不善業	-11.8283
誡聽	-11.8286
幡蓋	-11.8295
約六即	-11.8295
其土平正	-11.8308
護持法藏	-11.8311
五十二位	-11.8314
一日之價	-11.8315
恭敬圍繞	-11.8316
雜染	-11.8316
非內非外	-11.8317
三十七道品	-11.8317
千二百歲	-11.8318
初半行	-11.8318
國邑聚落	-11.8319
資糧	-11.832
惰	-11.8321
驚入火宅	-11.8321
孚	-11.8322
不可稱計	-11.8322
教誨	-11.8323
斷見惑	-11.8323
玅樂云	-11.8323
供養經卷	-11.8326
酧	-11.8326
愽	-11.8326
剃髮	-11.8327
未斷惑	-11.833
岐	-11.8332
感應妙	-11.8332
椽	-11.8333
嬈	-11.8334
怡	-11.8335
莫測	-11.8338
塵剎	-11.8347
推撿	-11.835
於此會得	-11.8355
現身說法	-11.8363
念佛三昧	-11.837
梵王請	-11.8373
不休息	-11.8385
三千性相	-11.8396
謨	-11.8412
深信解相	-11.8418
子孫	-11.8422
不受後有	-11.8427
慈善根力	-11.8428
嵗	-11.8428
悅可眾心	-11.8431
普賢勸發	-11.8431
鮮白	-11.8431
一真法界	-11.8432
阿閦	-11.8434
攝末歸本	-11.8434
諸天人民	-11.8436
頓悟菩薩	-11.8436
三種意生身	-11.8436
阿鼻獄	-11.8437
卯	-11.8437
疆	-11.8437
航	-11.8438
不求自得	-11.8438
愛別離	-11.8439
犍	-11.844
打擲	-11.8441
凌	-11.8442
匡	-11.8442
悶絕	-11.8442
播	-11.8442
為眾生作	-11.8443
鞭	-11.8443
七地巳前	-11.8444
葬	-11.8444
猿	-11.8445
跛	-11.8446
捧	-11.8446
同入法性	-11.8446
本迹二門	-11.8448
威勢	-11.8449
庚	-11.8449
問經從	-11.845
惛	-11.8451
婢	-11.8452
脾	-11.8454
腎	-11.8455
沸	-11.8455
及聲聞眾	-11.8456
三觀一心	-11.846
馬鳴	-11.8461
桑	-11.8468
真如隨緣	-11.8471
所依止	-11.8485
幾何	-11.8495
無法不	-11.8506
皆悉具足	-11.8508
殊特	-11.851
醫王	-11.851
風雨	-11.8511
一念心起	-11.8512
審諦	-11.8519
委付	-11.8527
我等諸宮殿	-11.8531
豈異人乎	-11.8533
阿逸	-11.8533
無想天	-11.854
於菩薩法	-11.854
淘汰	-11.8543
天台智者大師	-11.8543
糠	-11.8551
殞	-11.8551
瑤	-11.8552
貯	-11.8554
憒	-11.8555
隘	-11.8557
涌現	-11.8558
衣覆	-11.8559
觀音玄	-11.8561
祠	-11.8564
恕	-11.8565
盡無生智	-11.8565
賓主	-11.8566
膺	-11.8568
詢	-11.8569
為是義故	-11.8571
號日月燈明	-11.8571
方堪	-11.8573
蜋	-11.8578
怙	-11.8581
度諸眾生	-11.8585
五番	-11.8586
初發心住	-11.859
今者世尊	-11.8598
未曾聞	-11.8598
九行半	-11.8603
法身大士	-11.8627
地獄界	-11.8629
且就	-11.8631
初通明	-11.8637
容易	-11.8644
第四卷	-11.8647
偏袒右肩	-11.8651
優婆塞優婆夷	-11.8652
捃拾	-11.8661
決了聲聞法	-11.8661
眼所見	-11.8664
杳	-11.8665
姨母	-11.8667
敗壞	-11.8669
給侍	-11.867
倣	-11.8671
有一導師	-11.8671
一體三寶	-11.8672
劒	-11.8673
鑑機	-11.8677
㵎	-11.8678
汲	-11.8678
雕	-11.8679
思之可知	-11.868
蹔	-11.8681
講堂	-11.8685
天台智者	-11.8687
麁細	-11.8688
分別解說	-11.8692
見火譬	-11.8694
退菩提心	-11.8694
志固	-11.8699
輕毀	-11.8701
紫金	-11.8708
阿彌陀	-11.8732
十一切處	-11.8749
觀外色	-11.8751
日月燈	-11.8754
無量義處	-11.8757
閻浮檀金	-11.8769
涅槃時到	-11.8774
根莖枝葉	-11.8776
玻瓈	-11.8776
爾雅	-11.8777
是趣不過	-11.8777
插	-11.8782
綵	-11.8782
燒臂	-11.8785
裕	-11.8786
東南方	-11.8787
謟	-11.8788
僊	-11.8789
騐	-11.879
更無有	-11.879
梵輔	-11.879
無礙辯	-11.8791
於時世尊	-11.8791
八百弟子	-11.8791
蔓	-11.8793
翹	-11.8794
嫁	-11.8796
戚	-11.8797
求聲聞者	-11.8798
袪	-11.8799
你	-11.8799
狹劣	-11.8804
諸禪三昧	-11.8804
狐疑	-11.8806
積集	-11.8809
中道正觀	-11.8809
習種性	-11.8815
預流	-11.8816
迦葉白佛言	-11.882
剎海	-11.8822
十界十如	-11.8824
弊惡	-11.8829
十方國土	-11.8832
一切色身	-11.8835
絕言歎	-11.8869
藏通別圓	-11.8872
放光照	-11.8879
深入禪定	-11.8888
寶樹莊嚴	-11.8889
六度萬行	-11.8896
學無學二千人	-11.8896
今正是時	-11.8897
乃能知之	-11.8899
欻	-11.8899
互相推排	-11.89
彚	-11.8901
珍玩	-11.8901
不悕	-11.8902
占察	-11.8904
稻	-11.8904
憂愁	-11.8905
踈	-11.8905
弄引	-11.8906
坦然	-11.891
啻	-11.8911
鴻	-11.8912
摩尼珠	-11.8913
群臣	-11.8914
隴	-11.8915
筵	-11.8916
征	-11.8916
茅	-11.8917
讚揚	-11.8929
沼	-11.8929
紀國	-11.8935
金輪王	-11.894
普潤	-11.8942
度無極	-11.8945
支林	-11.8956
八行半	-11.8959
世間之父	-11.8965
波利	-11.8966
自在無礙	-11.8972
教化成就	-11.8993
㭊玄	-11.9006
帀	-11.9009
地獄餓鬼畜生	-11.9011
得大神通	-11.9012
塊	-11.9013
十力無畏	-11.9013
授學無學人記品	-11.9016
秘密之藏	-11.9016
不唐捐	-11.9017
几案	-11.9018
當為汝說	-11.9019
苦集滅道	-11.9022
概	-11.9025
介	-11.9025
圭	-11.9026
丹丘	-11.9027
追誘	-11.9028
煥	-11.9029
縫	-11.903
迦毗羅	-11.9031
蓬	-11.9035
從佛聞法	-11.9039
斧	-11.904
鼎	-11.9042
翁	-11.9048
圓教四門	-11.9053
憶持	-11.9059
初後俱	-11.9059
引論文	-11.906
五十由旬	-11.9064
憂喜	-11.9067
初標列	-11.9085
第六卷	-11.9097
香水海	-11.9131
盡諸有結	-11.9135
如意足	-11.9137
三藐三菩提	-11.9138
却住一面	-11.9142
無上正真道	-11.9142
清信士	-11.9143
旃	-11.9144
蜂	-11.9144
塲	-11.9146
報佛恩	-11.9148
闊	-11.9148
聯	-11.9148
吠	-11.9149
多羅樹	-11.9149
讖	-11.915
崛	-11.915
靈山一會	-11.915
奮	-11.9152
侍衛	-11.9153
廬	-11.9155
株	-11.9155
菜	-11.9155
非空非有門	-11.9156
統紀	-11.9156
翠	-11.9156
初地巳上	-11.9156
虎狼	-11.9157
遏	-11.916
添品	-11.9166
傳寫	-11.9167
尊貴	-11.9168
良由於此	-11.9171
六種法師	-11.9173
頌上長行	-11.9178
是時長者	-11.9178
華葉	-11.918
檀度	-11.9183
大乘經典	-11.9191
遭難	-11.9194
那律	-11.9207
練根	-11.9235
攝取事門	-11.9253
圓入通	-11.9256
得幾所福	-11.9257
令法久住	-11.9262
解無上士調御丈夫天人師佛世尊	-11.9262
佛種從緣起	-11.9264
唄	-11.9265
草庵	-11.9266
污穢	-11.9266
濤	-11.9266
根有利鈍	-11.9269
閙	-11.927
饌	-11.9272
毗舍闍	-11.9272
賖	-11.9272
薄拘羅	-11.9273
檀那	-11.9274
一心觀佛	-11.9275
下中上	-11.9276
梯	-11.9276
金翅鳥	-11.9279
隤	-11.9279
材	-11.9279
終不能	-11.9281
話	-11.9282
麟	-11.9283
邪僻	-11.9286
赦	-11.9286
行如來事	-11.9286
月十五日	-11.9289
聽法華經	-11.929
色究竟天	-11.9294
此等皆	-11.9296
降靈	-11.9323
無涯	-11.9347
十三卷	-11.9351
初一行頌	-11.9377
於無量億劫	-11.938
琉璃為地	-11.9381
多摩羅䟦	-11.9384
得車歡喜	-11.9386
如來應供正徧知明行足善逝世間	-11.9386
7	-11.9388
演大法義	-11.9388
箜篌	-11.9389
驚駭	-11.939
瞬	-11.9391
十法成乘	-11.9391
普賢觀經	-11.9392
他土六瑞	-11.9393
供養眾僧	-11.9393
飡	-11.9394
一生補處	-11.9394
清凉	-11.9394
其數如恒沙	-11.9394
恡	-11.9395
阿練若	-11.9395
摩醯首羅	-11.9395
非色非心	-11.9396
二頌半	-11.9398
如是之人乃可為說	-11.9399
稷	-11.9399
鷹	-11.94
大富長者	-11.94
付法藏	-11.9402
笛	-11.9404
綖	-11.9404
流浪	-11.9405
換	-11.9405
挺	-11.9407
駝	-11.9409
吉凶	-11.9411
確	-11.9412
率爾	-11.9412
妖	-11.9416
禾	-11.9416
疑致請	-11.9418
來聽法	-11.942
以智方便	-11.9423
塵垢	-11.9425
▁二何者下	-11.9427
臭穢	-11.9435
他受用身	-11.9435
有何不可	-11.9441
連持	-11.9441
從假入空觀	-11.9441
五十年	-11.9445
來至法華	-11.9456
若然者	-11.947
義明矣	-11.9482
如之何	-11.9485
等賜大車譬	-11.9494
轉於法輪	-11.9497
以道受樂	-11.95
是法皆為一佛乘故	-11.9501
所將人眾	-11.9503
深心所行	-11.9507
富單那	-11.9508
天雨四華	-11.9508
付囑有在	-11.9511
百佛世界	-11.9512
不可稱數	-11.9512
億百千姟	-11.9514
即實而權	-11.9515
柔和忍辱	-11.9516
見子便識	-11.9516
怱	-11.9517
得佛法分	-11.9517
住不退地	-11.9518
戒禁	-11.9518
如幻如化	-11.9518
歎法希有	-11.9518
無二亦無三	-11.9518
藕	-11.9518
五重玄義	-11.9519
俱胝	-11.9519
領家業	-11.952
歘	-11.9522
無師智	-11.9523
種諸善根	-11.9524
毘尼	-11.9524
速出三界	-11.9524
芬	-11.9526
魑魅	-11.9527
頴	-11.9531
轂	-11.9531
四分律	-11.9534
鑄	-11.9536
一道清淨	-11.9536
楯	-11.9537
禽	-11.9537
別教教道	-11.9538
於世尊前	-11.9543
簡擇	-11.9546
敵對	-11.9552
隔歷	-11.9557
賴耶	-11.9559
舊譯	-11.9563
月八日	-11.9579
為眾說法	-11.9579
所從來	-11.9583
一切有為	-11.9583
持業釋	-11.9585
二萬億佛	-11.9608
億那由他	-11.9635
雲雷音宿王華智佛	-11.9638
廢權立實	-11.964
於三七日中	-11.964
悉亦當作佛	-11.9643
淨藏淨眼	-11.9643
最實事	-11.9645
阿若憍陳如	-11.9648
從體起用	-11.9649
牌	-11.9649
百川	-11.9649
淤泥	-11.965
五千退席	-11.965
諒	-11.9651
愍眾生故	-11.9651
處非處	-11.9652
卷舒	-11.9652
瀉	-11.9655
質礙	-11.9655
眼智明覺	-11.9656
抽	-11.9657
澡	-11.9658
甚麼	-11.9658
欄	-11.9658
辨訛曰	-11.9659
棃	-11.9661
糟	-11.9661
矧	-11.9661
祭祀	-11.9662
正法念經	-11.9663
鈎	-11.9663
厲	-11.9665
緇	-11.9665
涌出品	-11.9666
慞惶	-11.9669
秘要	-11.9669
力無畏等	-11.9669
閑靜	-11.9675
起塔供養	-11.9683
怨親	-11.9686
衣鉢	-11.9694
不肖	-11.9695
無時不	-11.972
十由旬	-11.9723
十八不共	-11.973
諸有所作	-11.9768
開方便門示真實相	-11.9769
從實施權	-11.9772
兩楹	-11.9774
盈縮	-11.9774
玩	-11.9774
祕密之藏	-11.9774
揣	-11.9775
無差而差	-11.9776
殿堂	-11.9776
艸木	-11.9778
寶渚	-11.978
校計	-11.978
至親友家	-11.9781
有權有實	-11.9781
耳鼻舌身意	-11.9782
右旋	-11.9783
託胎	-11.9784
蠲除	-11.9784
舍衛	-11.9784
脇	-11.9785
㲉	-11.9785
磬	-11.9786
疫	-11.9787
騃	-11.9787
汗	-11.9787
遜	-11.9787
界內界外	-11.9788
擊鼓	-11.9789
阿那律	-11.9791
嵩	-11.9792
剪	-11.9793
會稽	-11.9794
正行六度	-11.9797
染汙	-11.9799
東晉	-11.98
對法論	-11.98
臟	-11.9808
頌開譬	-11.9823
斯經典	-11.9823
門側	-11.9825
源底	-11.9827
年歲	-11.985
後生善處	-11.989
退大取小	-11.9895
世尊甚希有	-11.9896
天大將軍	-11.9898
胡跪	-11.9898
爾時世尊欲重宣此義	-11.9898
悲愍	-11.9901
自覺覺他	-11.9903
不由他悟	-11.9904
心行處滅	-11.9904
階級	-11.9905
佛未出家時	-11.9905
純一無雜	-11.9905
阿羅訶	-11.9905
須曼那	-11.9908
唯佛與佛乃能究盡	-11.991
隨自意語	-11.9911
遙見其父	-11.9912
金銀珍寶	-11.9913
大窾	-11.9914
高五百由旬	-11.9915
筏	-11.9915
西域記云	-11.9916
儐	-11.9917
枯榮	-11.9917
命終之後	-11.9918
朴	-11.9918
佛道長遠	-11.9918
梓	-11.9919
員	-11.9919
齡	-11.9919
字函	-11.9919
鱗	-11.992
龜茲	-11.9921
蟒	-11.9921
暑	-11.9923
憤	-11.9924
初文又三	-11.9924
誅	-11.9925
萇	-11.9927
淨居天	-11.9928
濕土	-11.9929
廣為人說	-11.9932
普現色身三昧	-11.9936
聞我所說	-11.995
百姓	-11.9952
修大行	-11.9964
▁二如是下	-11.9976
受記作佛	-11.9977
略開三顯一	-11.9988
月天子	-12.0004
首題	-12.0013
勤加精進	-12.0031
入出無難	-12.0031
其智慧門難解難入	-12.0034
差即無差	-12.0035
不務速說	-12.0036
庾	-12.0036
遣化人	-12.0037
競共馳走	-12.0039
不多不少	-12.004
憙	-12.004
六年苦行	-12.004
婆藪	-12.0043
先權後實	-12.0044
剛強	-12.0046
標釋結	-12.0047
鵲	-12.0048
韋提希	-12.0048
湎	-12.005
庫司	-12.005
庵	-12.0051
浮囊	-12.0051
鋪	-12.0054
大成云	-12.0059
孤獨	-12.0067
謗毀	-12.0075
赤白	-12.0076
沉水	-12.0077
▁二大經下	-12.01
身子領解	-12.0122
魔波旬	-12.0124
恭敬尊重	-12.0141
究竟皆得一切種智	-12.0152
即權而實	-12.0165
成就大志	-12.0168
舊醫	-12.0169
十力四無所畏	-12.017
出廣長舌	-12.017
受諸苦惱	-12.0172
聾啞	-12.0173
更無餘乘	-12.0173
三明六通	-12.0173
憍曇彌	-12.0174
贍	-12.0174
儉	-12.0175
告諸大眾	-12.0175
妙莊嚴王本事品	-12.0175
即遣傍人	-12.0176
無量無邊阿僧祇	-12.0176
無明緣行	-12.0176
優波提舍	-12.0176
瑪瑙	-12.0177
懈退	-12.018
過去益物	-12.018
蚖蛇	-12.0181
庠序	-12.0181
齎	-12.0182
謂如半日	-12.0183
賈客	-12.0184
若自書	-12.0185
昂	-12.0186
裹	-12.0186
芻	-12.0187
阿梨	-12.0188
輟	-12.0191
戌	-12.0192
不信不解	-12.0192
俄	-12.0192
棟	-12.0193
初中後善	-12.0194
傭作	-12.0199
畢竟空寂	-12.02
佛初成道	-12.0204
樂說無礙	-12.0245
定慧力莊嚴	-12.0304
於寶塔中	-12.0304
導利眾生	-12.0305
出大音聲	-12.0306
聚落城邑	-12.0307
以要言之	-12.0307
則我身是	-12.0308
三藐三佛陀	-12.0308
不可窮盡	-12.0309
阿惟越致	-12.0311
低頭舉手	-12.0311
决	-12.0311
頞鞞	-12.0311
罣	-12.0312
色聲香味觸	-12.0312
若人遭苦	-12.0312
諂誑	-12.0313
本無今有	-12.0313
六根互用	-12.0317
規矩	-12.0319
阿闍世	-12.032
唵	-12.032
百福莊嚴	-12.032
十二分教	-12.0321
九十一劫	-12.0322
阿蘭若	-12.0323
蟻	-12.0323
仞	-12.0323
滓	-12.0326
玄贊	-12.0327
翰	-12.0328
為人演說	-12.0328
風災	-12.0328
挹	-12.0332
厨	-12.0333
債	-12.0334
依正色心	-12.034
五下分	-12.0345
摧伏	-12.0349
愛憎	-12.037
非二乘所	-12.0379
根莖	-12.0412
華藏世界	-12.0422
長遠壽量	-12.0438
受持讀誦解說書寫	-12.0439
汝於來世	-12.0444
轉四諦法輪	-12.0445
志念堅固	-12.0446
迴小入大	-12.0447
久默斯要	-12.0448
其數無有量	-12.0448
閡	-12.0449
先三後一	-12.0449
諸求三乘人	-12.045
眾寶莊校	-12.0452
佛界十如	-12.0452
合掌恭敬	-12.0453
不起滅定	-12.0454
頻婆羅	-12.0454
獅子	-12.0454
金剛錍	-12.0456
知苦斷集	-12.0457
對治助開	-12.0457
像法決疑	-12.0458
褥	-12.0458
皮膚	-12.046
頰	-12.0461
衛護	-12.0461
紛紜	-12.0462
去聲呼	-12.0462
鬬	-12.0462
劫賓那	-12.0462
百穀	-12.0463
悉能受持	-12.0463
縈	-12.0464
突	-12.0464
湯藥	-12.0466
恰	-12.0467
不可說不可說	-12.0475
誦呪	-12.0475
臰	-12.0477
委曲	-12.0478
雍	-12.0481
麤弊	-12.0513
觀經疏	-12.0518
以諸因緣	-12.0558
卉木叢林	-12.0575
各得生長	-12.0579
修攝其心	-12.0582
止止不須說	-12.0585
要當說真實	-12.0585
復倍上數	-12.0586
硨磲碼碯	-12.0586
坦	-12.0586
徤	-12.0586
無一不成佛	-12.0587
來至我所	-12.0588
旃延	-12.0589
鑿井	-12.059
生法二身	-12.059
通達大智	-12.0591
江河沙	-12.0591
招感	-12.0591
他化自在天	-12.0591
從佛口生	-12.0592
我始坐道場	-12.0593
長行與偈	-12.0594
塵點劫	-12.0594
憔悴	-12.0594
甚大歡喜	-12.0595
䆳	-12.0596
暉	-12.0596
奠	-12.0599
馳騁	-12.0599
性德緣了	-12.0602
非一非異	-12.0604
絹	-12.0605
挂	-12.0606
鑊	-12.0607
舅	-12.0608
復有諸鬼	-12.0608
甫	-12.0609
遵式	-12.061
梠	-12.0611
振動	-12.063
逼惱	-12.0675
無與等	-12.0678
兩行半	-12.0694
幡葢	-12.0712
秘要之藏	-12.072
摩訶曼陀羅華	-12.072
現大神力	-12.072
惟願說之	-12.072
轉無上法輪	-12.0726
汝等皆當作佛	-12.0726
方便有餘土	-12.0728
詶	-12.0729
出無佛世	-12.073
5	-12.0731
以大音聲	-12.0734
心不喜樂	-12.0734
即色是空	-12.0734
以偈問曰	-12.0735
藏通二教	-12.0736
荊棘	-12.0736
不取不捨	-12.0737
真性軌	-12.0737
叨	-12.0737
二偈頌二初頌	-12.0738
五濁八苦	-12.0739
礫	-12.0739
住行向	-12.0739
芭蕉	-12.074
丞	-12.0741
鍵	-12.0741
枷鎻	-12.0742
偃	-12.0742
打罵	-12.0743
贅	-12.0745
畜養	-12.0746
常寂光土	-12.0747
叩	-12.0747
典籍	-12.0747
蝎	-12.0749
販	-12.0753
滌	-12.0756
高麗	-12.0757
人人本具	-12.0762
事理二觀	-12.0766
頭痛	-12.0767
八萬歲	-12.0767
咀嚼	-12.0768
本來寂滅	-12.0785
殺盜	-12.0786
依怙	-12.0848
拄	-12.0855
衢	-12.0865
行法行王	-12.0868
十方三世一切諸佛	-12.087
祥邁	-12.087
適子所願	-12.0874
調伏其心	-12.0877
從一法生	-12.0877
擊大法鼓	-12.0878
始見我身	-12.0878
陿	-12.0878
义	-12.0878
天台四教儀	-12.0878
內秘外現	-12.088
行步平正	-12.088
疵	-12.088
摶	-12.088
本自有之	-12.0881
髻珠	-12.0881
五體投地	-12.0882
著弊垢衣	-12.0882
從法化生	-12.0882
放光現瑞	-12.0884
甘蔗	-12.0886
猜	-12.0886
天台教觀	-12.0888
躄	-12.0888
享	-12.0889
塚	-12.0889
非生非不生	-12.0889
陌	-12.089
誌	-12.089
鎻	-12.0891
緩急	-12.0891
苾	-12.0892
樣	-12.0892
紆	-12.0892
嬰	-12.0893
傅	-12.0893
能詮之教	-12.0894
浣	-12.0894
姝	-12.0894
七種二諦	-12.0895
妓	-12.0896
竺法護	-12.0898
䇿進	-12.0898
羨	-12.0898
舜	-12.0899
螫	-12.0899
綸	-12.09
腸	-12.0902
摧折	-12.0907
十寶山	-12.0912
無二無三	-12.0919
字平聲	-12.0921
圓入別	-12.093
如明鏡	-12.0935
垢穢	-12.0942
從座起	-12.0974
而散佛上	-12.1009
像法亦住	-12.1011
巳曾供養	-12.1013
說是偈巳	-12.1017
彌樓山	-12.1017
刀箭	-12.102
轉不退輪	-12.102
安住實智中	-12.1021
意在此也	-12.1022
大力菩薩言	-12.1025
穩	-12.1025
焦炷	-12.1027
捨父逃逝	-12.1028
安置丹枕	-12.1029
如止觀第三記	-12.1029
鳩槃荼	-12.103
其家廣大	-12.103
諍訟	-12.103
餚	-12.103
諾	-12.103
我法二執	-12.1031
大悲拔苦	-12.1031
迅	-12.1034
觧脫	-12.1035
爵	-12.1037
兢	-12.1038
劬	-12.1038
庠	-12.1038
怨敵	-12.1039
槌	-12.1039
當為宣說	-12.1039
迷悶	-12.104
稼	-12.1041
握	-12.1042
澆	-12.1043
甜	-12.1043
所以爾者	-12.1044
姊	-12.1044
襲	-12.1044
泥塗	-12.1045
尊卑	-12.1055
頌法合	-12.1066
知見波羅蜜	-12.1085
皆悉到於一切智地	-12.1157
娛樂之具	-12.1165
柔和善順	-12.1165
而度脫之	-12.1166
有大勢力	-12.1166
爾時五百萬億諸梵天王	-12.1169
若有善男子善女人	-12.1169
放眉間白毫相光	-12.1172
是諸經之王	-12.1172
乘是寶乘	-12.1174
更以異方便	-12.1175
堂閣	-12.1175
教證二道	-12.1176
瘖瘂	-12.1177
疑網皆巳除	-12.1177
僉	-12.1178
大圓鏡智	-12.1179
輦輿	-12.118
瞽	-12.1181
齊教領	-12.1182
遇向本國	-12.1182
無住菩薩言	-12.1182
閻	-12.1182
阿閦婆	-12.1182
牢獄	-12.1183
坼	-12.1183
行七步	-12.1184
卅	-12.1185
妹	-12.1186
撓	-12.1186
下隨釋	-12.1186
優曇鉢	-12.1187
有大神力	-12.1187
跨	-12.1187
輦	-12.1188
膾	-12.1188
我等長夜	-12.1189
廣雅云	-12.1189
抑揚	-12.1191
靈山會上	-12.1191
於一念中	-12.1192
宛爾	-12.1192
無厭足	-12.1192
漆	-12.1192
自在神通之力	-12.1194
膽	-12.1201
掉悔	-12.1201
魂	-12.1202
妾	-12.1207
大千經卷	-12.1209
發道心	-12.1232
二次明下	-12.13
三千即空假中	-12.1313
行深妙道	-12.1315
順道法愛	-12.132
如止觀第五記	-12.1321
吉蔗	-12.1321
輔宏記	-12.1322
觀練熏修	-12.1325
火不能燒	-12.1327
了了分明	-12.1328
錯謬	-12.1328
道種慧	-12.1329
為聽法故	-12.133
坐寶蓮華	-12.1331
〕-【	-12.1333
熈	-12.1333
五濁惡世	-12.1333
阿鼻地獄	-12.1334
斟酌	-12.1335
溥	-12.1335
嚬	-12.1337
譬如大雲	-12.1337
生生不可說	-12.1338
衒	-12.134
婁	-12.1341
腫	-12.1342
揮	-12.1344
絲竹	-12.1344
江東	-12.1345
鵰鷲	-12.1345
別行玄	-12.1351
無塵智	-12.1366
故以為名	-12.1372
五佛章	-12.1398
讀誦通利	-12.1416
我實成佛巳來	-12.1468
非滅唱滅	-12.1469
生安隱想	-12.1469
求辟支佛者	-12.1472
快得安隱	-12.1476
放眉間光	-12.1478
難行苦行	-12.1478
所作巳辦	-12.1478
猶不能盡	-12.1479
成最正覺	-12.148
從四面起	-12.1481
稀	-12.1481
形色憔悴	-12.1483
擁	-12.1483
畧	-12.1483
罄無不盡	-12.1484
玫瑰	-12.1484
麤一妙	-12.1484
能觀之智	-12.1484
思之可見	-12.1485
君臣	-12.1485
止住其中	-12.1486
捨几	-12.1486
番番	-12.1487
稱南無佛	-12.1487
訂	-12.1488
為諸法王	-12.1489
除佛方便	-12.1489
喝	-12.149
香爐	-12.1492
佩	-12.1492
潞	-12.1493
盂	-12.1493
妊	-12.1494
剝	-12.1496
匿	-12.1497
歛	-12.1498
颺	-12.1499
琳	-12.1499
邇	-12.1501
癸	-12.1501
辜	-12.1503
菀	-12.1504
屎尿	-12.1506
燉煌	-12.1508
彭	-12.1508
正法像法	-12.151
邀	-12.1512
其或不然	-12.1513
法緣慈	-12.1561
新發意	-12.161
生希有心	-12.1624
佛壽十二小劫	-12.1625
欲聞具足道	-12.1627
我本行菩薩道	-12.1628
在在處處	-12.1629
一行一切行	-12.163
從本垂迹	-12.1632
從牛出乳	-12.1634
髻中明珠	-12.1636
本迹雖殊不思議一	-12.1639
序正流通	-12.1639
請佛轉法輪	-12.1639
其佛國土	-12.1641
即說呪曰	-12.1641
詛	-12.1642
虛誑	-12.1642
優樓頻螺	-12.1643
蹙	-12.1643
舍衛國	-12.1644
巷	-12.1644
剎利居士	-12.1645
奢摩他	-12.1645
迸	-12.1646
茵	-12.1646
頒	-12.1647
楷	-12.1647
婉	-12.1648
五時八教	-12.1648
腐敗	-12.1648
啼哭	-12.1649
炤	-12.165
謁	-12.1651
起巳遊行	-12.1651
隙	-12.1651
五上分	-12.1653
唼	-12.1653
浸	-12.1654
寇	-12.1655
憲	-12.1655
陛	-12.1657
耆舊	-12.1658
拏	-12.1658
詺	-12.1684
六十二億恒河沙	-12.1685
獄卒	-12.169
白導師言	-12.1775
一心敬禮	-12.1776
自從是來	-12.1784
穰	-12.1785
深固幽遠	-12.1789
皆以如來滅度而滅度之	-12.1789
今正是其時	-12.179
勤行精進	-12.1791
海此岸	-12.1791
生滅度想	-12.1792
隋天台智者大師說	-12.1794
又以他日	-12.1795
缾	-12.1796
右脇	-12.1797
狄	-12.1798
求子不得	-12.18
估	-12.18
無始無終	-12.1801
肎	-12.1801
具相三十二	-12.1802
莎	-12.1802
矛盾	-12.1802
亥	-12.1803
驚怪	-12.1803
駕以白牛	-12.1805
枷	-12.1806
矢	-12.1807
愍傷	-12.1808
釋迦文佛	-12.1808
駄	-12.1808
歌詠	-12.1809
魎	-12.1809
柄	-12.181
咀	-12.1811
壤	-12.1811
鵝	-12.1811
對治此故	-12.1814
空無相無作	-12.1817
裝	-12.182
柯	-12.1821
名字章句	-12.1822
糜	-12.1822
非生非滅	-12.1823
文殊問經	-12.1836
皆應起塔	-12.1891
像法住世	-12.1911
黃金為繩	-12.1946
化作一城	-12.1947
葱	-12.1948
纓珞	-12.1949
如是大果報	-12.1949
授阿耨多羅三藐三菩提記	-12.1951
未曾顯說	-12.1951
互不相知	-12.1951
普佛世界	-12.1952
優曇	-12.1953
說是法時	-12.1953
隨功賞賜	-12.1954
住在空中	-12.1955
說是語時	-12.1955
有是神力	-12.1955
瑠璃為地	-12.1955
耘	-12.1955
多陀阿伽度	-12.1955
慳悋	-12.1957
轉不退法輪	-12.1957
髣髴	-12.1957
黠慧	-12.1957
如彼大雲	-12.1958
入如來慧	-12.1958
濡	-12.1959
邪歸正	-12.1959
即大驚怖	-12.1959
掬	-12.196
鴈	-12.196
嚴身之具	-12.1961
調伏諸根	-12.1961
糟糠	-12.1962
罽	-12.1963
游戲	-12.1964
睢	-12.1965
餐	-12.1965
戊	-12.1965
姿	-12.1965
沃	-12.1966
醎	-12.1967
惻	-12.1967
慜	-12.1968
迄	-12.1968
卻	-12.1969
魍	-12.197
膿血	-12.1971
裳	-12.1972
襟	-12.1974
從地獄出	-12.1975
牆	-12.1975
梟	-12.1976
油塗	-12.1978
逍遙	-12.1983
為大眾說	-12.2022
諸漏已盡	-12.2103
以慈修身	-12.2114
一中一切中	-12.2114
寶處在近	-12.2115
無記化化禪	-12.2116
金銀琉璃	-12.2116
知法常無性	-12.2116
非空非假	-12.2116
吹大法螺	-12.2116
心各勇銳	-12.212
當願眾生	-12.212
即事而真	-12.212
枝條	-12.2122
為太子時	-12.2122
可以遊戲	-12.2122
挑	-12.2123
淳熟	-12.2123
而諸子等	-12.2124
與珠譬	-12.2124
闥	-12.2124
瞿夷	-12.2126
件	-12.2127
餌	-12.2127
等賜諸子	-12.2128
采	-12.2129
慙	-12.2129
生法二空	-12.213
例此可知	-12.2131
不分而分	-12.2132
裸形	-12.2132
正助合行	-12.2132
頂髻	-12.2133
癩	-12.2133
淑	-12.2134
戮	-12.2134
鳩摩羅什	-12.2135
切韻	-12.2135
車匿	-12.2136
悲泣	-12.2137
上座部	-12.2138
天上人間	-12.214
棺	-12.2143
蹋	-12.2144
本行經	-12.2165
疲厭	-12.2174
而不卒暴	-12.2271
不如三界見於三界	-12.2272
無令漏失	-12.2272
六萬恒沙	-12.2281
桃李	-12.2283
灰身滅智	-12.2284
將死不久	-12.2284
佛佛道同	-12.2284
說是大乘經	-12.2285
真珠瓔珞	-12.2287
大慈與樂	-12.2287
世尊大恩	-12.2288
傭賃展轉	-12.2289
馱	-12.2289
寥	-12.2289
冷水灑面	-12.2291
褒貶	-12.2292
懿	-12.2292
尠	-12.2293
不前不後	-12.2293
悔過自責	-12.2293
獘	-12.2293
路伽耶陀	-12.2297
偉	-12.2297
綠	-12.23
壑	-12.23
若其然者	-12.2301
寔	-12.2302
𡉏	-12.2302
挽	-12.2302
潮	-12.2302
巢	-12.2302
械	-12.2303
鵄	-12.2303
曩	-12.2306
體真止	-12.2306
夾	-12.2308
恢	-12.2309
竅	-12.2309
無始時來	-12.2311
恁麼	-12.2311
摘	-12.2316
初分經	-12.2337
手把	-12.2358
目犍連	-12.2427
持是經者	-12.2435
黠	-12.2447
從顛倒生	-12.2447
𨽻	-12.2447
姚秦三藏法師鳩摩羅什奉詔譯	-12.2447
無差即差	-12.2451
一假一切假	-12.2452
唯佛與佛乃能究盡諸法實相	-12.2452
十六菩薩沙彌	-12.2453
我法妙難思	-12.2453
隨汝所欲	-12.2453
溼	-12.2454
為作證明	-12.2454
零落	-12.2454
一色一香	-12.2455
炳	-12.2455
法華文句記卷第	-12.2455
泥履	-12.2456
三德秘藏	-12.2456
有同有異	-12.2456
此土六瑞	-12.2458
十方佛土中	-12.2458
現諸威儀	-12.2458
祇洹	-12.246
樂著小法	-12.2461
輞	-12.2463
微妙淨法身	-12.2463
穆	-12.2464
砧	-12.2464
為同為異	-12.2465
稠	-12.2466
離婆多	-12.2467
願決眾疑	-12.2467
酢	-12.2467
攢	-12.2468
々	-12.2468
稅	-12.2471
圭峯	-12.2472
雹	-12.2473
基陛	-12.2474
壬	-12.2475
禿	-12.2475
揩	-12.2481
讀誦法華經者	-12.2574
不可說佛剎微塵數	-12.2612
昔所未有	-12.2614
從久遠劫來	-12.2615
度苦惱眾生	-12.2619
樂於小法	-12.262
約說證道	-12.2621
助發實相義	-12.2621
眾又清淨	-12.2621
其實為一乘	-12.2622
險難惡道	-12.2622
多諸人眾	-12.2625
卉	-12.2625
如汝所言	-12.2626
八萬四千法藏	-12.2627
內有智性	-12.2628
唯此一事實	-12.2629
善財童子	-12.2629
四面懸鈴	-12.2629
逃走	-12.263
於一劫中	-12.263
常在靈鷲山	-12.263
及比丘僧	-12.2631
棘	-12.2632
開麤顯妙	-12.2632
褰	-12.2633
布薩	-12.2633
具陳上事	-12.2634
住立門側	-12.2634
若權若實	-12.2636
深達罪福相	-12.2636
桂	-12.2636
唯願說之	-12.2636
瞻蔔	-12.2636
森	-12.2636
覿	-12.2637
泠	-12.2638
渚	-12.2638
拘絺羅	-12.2639
為止息故	-12.2639
無威德者	-12.264
拯	-12.2641
三障四魔	-12.2641
貫穿	-12.2642
有大力勢	-12.2643
顒	-12.2645
爆	-12.2645
羣臣	-12.2646
顗	-12.2648
陪	-12.2652
翔	-12.2653
骸	-12.266
二萬一千	-12.2686
毘婆沙	-12.272
隸	-12.2784
以無量無數方便	-12.2784
漸得入道	-12.2792
借別名通	-12.2796
出釋氏宮	-12.2796
無人能到	-12.2797
阿字門	-12.2798
知水必近	-12.2798
3	-12.2798
復經少時	-12.2799
聖所稱歎	-12.2799
可以意知	-12.28
兼但對帶	-12.28
諸佛語無異	-12.28
若不時出	-12.28
必為所焚	-12.2801
天台沙門湛然述	-12.2802
八人見地	-12.2803
流入薩婆若海	-12.2803
不增不減	-12.2805
挍量	-12.2808
妙觀察智	-12.2809
槁	-12.2809
疾走往捉	-12.281
得見我身	-12.281
楞	-12.2811
宜善思之	-12.2812
心佛眾生三無差別	-12.2812
割截	-12.2813
勿妄宣傳	-12.2813
􂎴	-12.2814
四沙門果	-12.2815
見聞覺知	-12.2815
禧	-12.2817
痒	-12.2817
駈	-12.2818
錦	-12.2818
拾遺	-12.2819
枷鎖	-12.2819
銳	-12.2819
彫	-12.2819
涌泉	-12.2821
修二性一	-12.2824
高僧傳	-12.2824
道共戒	-12.2825
十境十乘	-12.2825
窻	-12.2826
洛陽	-12.2826
戈	-12.2826
裂網	-12.2828
德無不圓	-12.2829
耎	-12.2831
別入通	-12.2832
盾	-12.2833
尉	-12.2833
璧	-12.2834
本業經	-12.2909
眉間白毫	-12.293
數如恒沙	-12.2954
令離諸著	-12.2971
讚言善哉善哉	-12.2973
乃往過去	-12.2973
諸天龍鬼神	-12.2974
阿黎耶	-12.2977
破一品無明	-12.2977
不乖本心	-12.2978
受行悟入	-12.2978
珂	-12.2978
年紀大小	-12.2979
今我喜無畏	-12.2979
是妙光法師	-12.2979
餘二則非真	-12.2979
久修業所得	-12.298
與大比丘眾	-12.2981
國城妻子	-12.2982
無前無後	-12.2984
從一至十	-12.2986
旅	-12.2986
所燒之門	-12.2986
柴	-12.2987
如次配	-12.2987
荷擔	-12.2988
非滅非不滅	-12.2988
亦滅亦不滅	-12.2989
模範	-12.2989
娑伽羅	-12.2989
熙	-12.299
蓐	-12.2991
沮	-12.2992
稠林	-12.2993
特勝通明	-12.2993
無機息化	-12.2993
范	-12.2994
無常苦空無我	-12.2995
埃	-12.2996
拓	-12.2996
栗	-12.2996
悔來至此	-12.2997
咲	-12.2997
繡	-12.2998
尼犍	-12.3
霞	-12.3002
副	-12.3003
生住異滅	-12.3004
發大乘心	-12.3006
睛	-12.3007
捶	-12.3008
值二千億佛	-12.3155
大海江河	-12.3156
我見佛子等	-12.3159
我定當作佛	-12.3159
德薄垢重	-12.3159
乘此寶乘	-12.316
為蓮故華	-12.316
師子之座	-12.316
視父而巳	-12.3161
若我遇眾生	-12.3162
從地湧出	-12.3162
依正二報	-12.3164
目不暫捨	-12.3165
清涼觀師	-12.3165
先小後大	-12.3165
辟	-12.3166
入清涼池	-12.3166
洮汰	-12.3167
悅豫	-12.3168
貲	-12.3168
聞所未聞	-12.3169
施佛及僧	-12.317
非巳智分	-12.317
發大乘意	-12.3171
形體姝好	-12.3171
陟	-12.3171
如來所遣	-12.3171
米麵	-12.3172
瞙	-12.3172
得大饒益	-12.3172
襄	-12.3173
多有田宅	-12.3173
倉庫	-12.3173
麼	-12.3175
躃	-12.3176
從外來	-12.3177
而成熟之	-12.3178
不制止	-12.3178
惺	-12.3179
蜀	-12.3179
蠡	-12.318
蓏	-12.318
抉	-12.3181
法華經玄贊要集卷第	-12.3182
酸	-12.3182
得真自在	-12.3183
駁	-12.3184
黧	-12.3185
屑	-12.3187
嚼	-12.3189
不愚法	-12.3192
孩	-12.3197
王子覆講	-12.3338
推尋是相	-12.3339
令諸子等	-12.334
亦常亦無常	-12.334
非遠非近	-12.334
種相體性	-12.3341
去伽耶城不遠	-12.3341
至珍寶處	-12.3342
悉於中現	-12.3342
童男童女	-12.3342
三十二相八十種好	-12.3342
為五比丘說	-12.3343
求自然慧	-12.3345
下至阿鼻地獄	-12.3345
若教人書	-12.3345
佛悉成就	-12.3345
現希有事	-12.3346
埀	-12.3347
將導譬	-12.3349
便得決了	-12.3351
全性成修	-12.3351
自求涅槃	-12.3351
謦咳	-12.3351
攝別入總	-12.3352
醉酒而臥	-12.3352
洒	-12.3353
佞	-12.3353
行處近處	-12.3354
今世後世	-12.3355
眾生沒在苦	-12.3355
倉庫盈溢	-12.3355
驟	-12.3356
篩	-12.3357
衣座室	-12.3357
種熟脫	-12.3358
遁	-12.3358
嬉	-12.336
訥	-12.3361
遍計所執	-12.3361
瀆	-12.3361
忝	-12.3362
榜	-12.3362
杭	-12.3363
胸臆	-12.3365
自語相違	-12.3366
聳	-12.3367
蚊	-12.3368
堯	-12.3369
蠍	-12.3369
長者見火	-12.337
譜	-12.3372
臧	-12.3375
嚌	-12.3384
鐸	-12.3391
大章第	-12.3499
憎嫉	-12.3506
陁羅尼	-12.3517
第三入文判釋	-12.352
皆同一號	-12.3528
見大通智勝如來	-12.3528
藤	-12.3532
悉皆得聞之	-12.3532
破有法王	-12.3533
轉不退轉法輪	-12.3533
若好若醜	-12.3533
皆當驚疑	-12.3535
踴躍	-12.3536
根力覺道	-12.3536
自以為足	-12.3537
勇銳	-12.3537
執金剛神	-12.3537
願不有慮	-12.3538
起隨喜心	-12.3538
即脫瓔珞	-12.3538
說無分別法	-12.3539
阿賴耶識	-12.354
樂著嬉戲	-12.354
華嚴海空	-12.3541
冥顯兩益	-12.3541
時一現耳	-12.3541
俱盧舍	-12.3542
碾	-12.3542
一如無二如	-12.3542
捺	-12.3544
稱怨大喚	-12.3545
覧	-12.3545
纓	-12.3546
踟蹰	-12.3546
啖	-12.3546
到父城	-12.3547
性善性惡	-12.3547
謂如食頃	-12.3548
課	-12.3548
帆	-12.3548
幟	-12.3548
懽	-12.355
其家大富	-12.355
蔬	-12.355
坊	-12.3551
拍	-12.3552
齅	-12.3553
旱	-12.3554
突吉羅	-12.3554
這	-12.3554
九百九十	-12.3555
諧	-12.3555
喍	-12.3555
攸	-12.3556
捍	-12.3556
懊	-12.3557
戎	-12.3557
狎	-12.3564
即各相詣	-12.3714
藥上菩薩	-12.3714
阿耨多羅	-12.3724
諸法從本來常自寂滅相	-12.3725
自鄙先心	-12.3725
取要言之	-12.3725
萬天子俱	-12.3726
我見燈明佛	-12.3727
我說即是空	-12.3727
自覺聖智	-12.3727
少欲知足	-12.3728
飲他毒藥	-12.3729
知眾生性欲	-12.3729
▁二譬如下譬	-12.373
非一非一切	-12.3731
治生產業	-12.3731
從空出假	-12.3731
灼	-12.3732
急追將還	-12.3732
過二萬劫	-12.3733
一色一香無非中道	-12.3733
媻	-12.3734
逮得巳利	-12.3735
唯識歷事	-12.3735
迦留陀夷	-12.3736
蚩	-12.3736
東西南北	-12.3736
成所作智	-12.3736
渺	-12.3736
跳	-12.3736
狀有所畏	-12.3737
鑰	-12.3737
葛	-12.3738
眾生諸根鈍	-12.3738
腐	-12.3739
八忍八智	-12.374
另	-12.374
白虎通	-12.3741
潭	-12.3741
企	-12.3742
化樂天	-12.3742
楗	-12.3743
紐	-12.3743
:>【■	-12.3745
傲	-12.3745
燥	-12.3746
訣	-12.3748
觀身不淨	-12.3751
慨	-12.3751
賾	-12.3752
黮	-12.3756
銜	-12.3757
尹	-12.3762
直顯心性	-12.3772
一地一雨	-12.3877
抳	-12.3912
一時等澍	-12.3915
名別義通	-12.3918
貧窮下賤	-12.3919
刦	-12.392
如優曇鉢華	-12.3921
置毒乳中	-12.3922
盡智無生智	-12.3922
4	-12.3923
先取其價	-12.3924
習因習果	-12.3924
令入於佛道	-12.3924
亦空亦有門	-12.3925
種種念觀	-12.3925
醋	-12.3925
道觀雙流	-12.3927
跟	-12.3928
依何等義	-12.3928
盡教以佛道	-12.3928
瓦官	-12.3929
大白牛車	-12.3929
平等性智	-12.3929
天人師佛世尊	-12.393
波羅提木叉	-12.393
其年衰邁	-12.3931
瘂	-12.3931
絺	-12.3932
先照高山	-12.3932
券	-12.3932
頌國淨	-12.3933
艾	-12.3934
蹉	-12.3934
有一大宅	-12.3934
四禪八定	-12.3934
蒭	-12.3934
隱勝現劣	-12.3934
郁	-12.3935
閭	-12.3935
舛	-12.3935
矚	-12.3935
情與無情	-12.3936
俱體俱用	-12.3936
薗	-12.3937
慇	-12.3937
奄	-12.3938
靳	-12.3938
扶律談常	-12.3939
啄	-12.3939
滄	-12.394
廉	-12.3941
坌	-12.3942
㲲	-12.3943
虬	-12.3943
三止觀結	-12.3945
菩提分法	-12.3945
藂	-12.3946
泊	-12.3954
於中有三初	-12.3961
寶性論	-12.3965
與八萬四千菩薩	-12.4109
密雲彌布	-12.4111
辟支迦羅	-12.4113
山川谿谷土地	-12.4116
所經諸國	-12.4117
稱觀世音菩薩名者	-12.4118
亦不行不分別	-12.4118
即滅化城	-12.4118
父知子意	-12.4119
如來如實知見三界之相	-12.412
誠如所言	-12.4121
臨命終時	-12.4121
從地踊出	-12.4121
崔	-12.4122
三車一車	-12.4122
央掘魔羅	-12.4123
縱廣正等	-12.4123
分身遠集	-12.4124
各賜諸子等一大車	-12.4125
各乘大車	-12.4125
羶	-12.4125
地平如掌	-12.4126
生緣老死	-12.4126
苔	-12.4126
領知眾物	-12.4127
正直捨方便但說無上道	-12.4127
受種種苦	-12.4127
竊為一人	-12.4128
歎三車希有	-12.4128
以信得入	-12.4128
具普賢道	-12.4128
且待須臾	-12.4129
菩提流支	-12.413
求不得苦	-12.4131
怜	-12.4131
粒	-12.4133
睹	-12.4133
事事無礙	-12.4133
藐	-12.4134
證道同圓	-12.4134
三界無安	-12.4135
好自安意	-12.4135
窓牖	-12.4135
杻械	-12.4135
𧂐	-12.4135
三祇百劫	-12.4135
跏趺	-12.4136
媒	-12.4139
蔡	-12.4142
鬬諍	-12.4142
霄	-12.4143
餝	-12.4144
摣	-12.4145
堯舜	-12.4146
蝕	-12.4147
釧	-12.4149
玷	-12.4152
圓接通	-12.4161
曰恁麼則	-12.4163
度脫無量眾	-12.418
唯我知是相	-12.4319
過三百由旬	-12.432
全生如乳	-12.432
而命其子	-12.4322
俱發聲言	-12.4325
心佛及眾生是三無差別	-12.4325
阿須倫	-12.4325
廣演言教	-12.4326
無求出意	-12.4326
無有缺減	-12.4326
有佛子心淨	-12.4327
佛說一解脫義	-12.4328
□□□□	-12.4329
發救一切眾生之心	-12.433
柈	-12.433
佛當為除斷	-12.433
叮	-12.4331
名不共法	-12.4331
不亦快乎	-12.4332
非本所望	-12.4332
悚慄	-12.4332
皆成佛無疑	-12.4334
五千起去	-12.4334
疾走而去	-12.4335
老弊使人	-12.4336
寐	-12.4336
胝	-12.4337
綩	-12.4337
拆	-12.4338
鬼子母	-12.4339
謾	-12.434
晃	-12.434
有覺有觀	-12.4341
咄男子	-12.4341
𡨋	-12.4341
亞	-12.4341
澹	-12.4342
謚	-12.4342
文無者略	-12.4342
孫陀利	-12.4343
頡	-12.4343
敻	-12.4343
歒	-12.4344
殑	-12.4344
闐	-12.4344
疥癩	-12.4348
粉	-12.4354
或有說言	-12.4369
藥王藥上	-12.4376
成就甚深未曾有法	-12.4524
慳恡	-12.4525
解其義趣	-12.4529
我今語汝	-12.4532
遊於娑婆世界	-12.4533
常好坐禪	-12.4534
我今當設方便	-12.4535
惓	-12.4535
二十千萬億偈	-12.4536
生下劣想	-12.4537
即時觀其音聲	-12.4537
解脫菩薩而白佛言	-12.4537
如止觀第七記	-12.4538
樂獨善寂	-12.4538
上上起門	-12.4538
佛口所生	-12.4538
破思假	-12.4539
生老病死憂悲苦惱	-12.4541
傭賃	-12.4542
富樓那彌多羅尼子	-12.4542
汰	-12.4542
甄迦羅	-12.4543
作是語巳	-12.4544
頗羅墮	-12.4544
阿那波那	-12.4544
頤	-12.4544
𦗟	-12.4544
功深福重	-12.4545
廼	-12.4546
貧所樂法	-12.4546
因中說果	-12.4546
官事當行	-12.4547
云何而可度	-12.4548
亦應更云	-12.4548
遠塵離垢	-12.4548
父每念子	-12.4551
莚	-12.4551
綴	-12.4552
糧	-12.4553
捨權就實	-12.4554
斂	-12.4554
二何以下	-12.4555
啀	-12.4559
郊	-12.4561
巽	-12.4564
苫	-12.4566
做	-12.4567
鵬	-12.4575
什麼	-12.4579
白毫相光	-12.4617
不能復進	-12.4731
佛告無盡意菩薩	-12.4737
亦無在世及滅度者	-12.4737
若使人書	-12.4739
一切眾生憙見菩薩	-12.4741
其澤普洽	-12.4742
於恒沙劫	-12.4743
以佛道聲令一切聞	-12.4744
羊車鹿車牛車	-12.4744
我本立誓願	-12.4745
未曾暫廢	-12.4746
歎佛恩深	-12.4747
化功歸巳	-12.4747
發心畢竟二不別	-12.4747
提婆達多善知識故	-12.4749
皆順正法	-12.475
其語巧妙	-12.475
寶威德上王	-12.475
令盡無有餘	-12.475
非思量分別之所能解	-12.4751
未有所識	-12.4752
䟦陀婆羅	-12.4752
不謀而	-12.4752
不驚不怖	-12.4754
順決擇分	-12.4754
陞	-12.4754
塘	-12.4754
無上正真之道	-12.4754
四無色定	-12.4754
所燒之門安隱得出	-12.4755
遇到父舍	-12.4755
鵠	-12.4756
悴	-12.4756
非縱非橫	-12.4757
分明判答	-12.4757
清信女	-12.4757
犢	-12.4757
努	-12.4759
商估	-12.4759
昆勒	-12.4759
聞香知所在	-12.4759
發軫學小	-12.476
魁	-12.476
非行非坐	-12.476
冝	-12.476
迦毘羅	-12.476
罪根深重	-12.476
敬順佛意	-12.4761
晴	-12.4762
鴟	-12.4763
去尺就寸	-12.4763
諄諄	-12.4764
皓	-12.4768
玼	-12.4768
廷	-12.4769
奘	-12.4771
蠅	-12.4776
姪	-12.4776
七日七夜	-12.4777
拌	-12.4777
銓	-12.4778
故現於世	-12.4796
經律論	-12.4852
爾時大通智勝如來	-12.4946
妙幢相	-12.4957
作是供養巳	-12.4959
復過於此	-12.496
將導眾人	-12.4962
十九行偈	-12.4962
今相如本瑞	-12.4963
阿迦尼吒	-12.4963
居僧之首	-12.4964
𤦲	-12.4964
但離虗妄	-12.4964
吾從成佛巳來	-12.4966
所分之身	-12.4966
行五波羅蜜	-12.4966
真淨大法	-12.4966
發希有心	-12.4967
枳	-12.4968
若有疑悔者	-12.4969
若遇餘佛	-12.4969
]	-12.4969
鑪	-12.4969
從東方來	-12.4969
從無住本立一切法	-12.4971
掖	-12.4972
三賢十聖	-12.4973
半行半坐	-12.4973
我生巳盡	-12.4973
皆與實相不相違背	-12.4975
栢	-12.4975
無罣礙	-12.4975
亮	-12.4975
减	-12.4976
羮	-12.4977
腋	-12.4977
劵	-12.4979
酌	-12.4979
催	-12.4981
捔	-12.4985
詭	-12.4986
餅	-12.4988
築	-12.499
琢	-12.4991
恍	-12.4991
棒	-12.4994
熊	-12.4999
緻	-12.5182
廊	-12.5189
崙	-12.5191
0	-12.5193
鬧	-12.5193
捫	-12.5194
煮	-12.5196
袖	-12.5197
簸	-12.5197
愜	-12.52
釐	-12.5201
系	-12.5204
鍮	-12.5205
裡	-12.5205
縵	-12.5205
駐	-12.5208
痕	-12.5209
蛆	-12.5211
斵	-12.5211
粘	-12.5218
傭	-12.5392
稜	-12.5421
誥	-12.5421
粖	-12.5423
胗	-12.5424
粳	-12.5427
弁	-12.5427
零	-12.5429
侮	-12.5429
殄	-12.543
控	-12.543
溟	-12.5433
蒸	-12.5434
鑛	-12.5434
獷	-12.5435
肌	-12.5436
氎	-12.5437
屎	-12.5439
蠱	-12.5439
轅	-12.5442
枚	-12.5446
汩	-12.5653
𤛆	-12.5654
恱	-12.5654
靉	-12.5657
絓	-12.5658
嫡	-12.5658
甥	-12.5658
覇	-12.5658
扁	-12.5658
榻	-12.5659
鎔	-12.5662
伍	-12.5662
侈	-12.5662
磁	-12.5663
堆	-12.5663
羲	-12.5666
裨	-12.5666
瘀	-12.5669
街	-12.5671
晏	-12.5673
疇	-12.568
核	-12.5683
𧏙	-12.5687
疼	-12.5692
菽	-12.5888
墀	-12.5891
週	-12.5893
罸	-12.5894
庇	-12.5897
爍	-12.5898
叱	-12.5898
囂	-12.5901
擘	-12.5901
澀	-12.5901
賒	-12.5902
胃	-12.5902
踵	-12.5902
繹	-12.5903
釣	-12.5905
粹	-12.5906
旌	-12.5906
躶	-12.5908
胞	-12.5908
阤	-12.5908
姨	-12.5909
豬	-12.5909
萃	-12.5911
沽	-12.5911
琰	-12.5913
畋	-12.5923
窓	-12.5928
滔	-12.6126
8	-12.6129
萄	-12.6138
燸	-12.6142
碌	-12.6143
梗	-12.6144
坡	-12.6146
墓	-12.6146
寰	-12.6147
垣	-12.6148
䏶	-12.6149
狸	-12.615
駟	-12.6151
瓊	-12.6153
倐	-12.6154
睫	-12.6154
傑	-12.6155
蠢	-12.616
疋	-12.6161
凉	-12.6161
冊	-12.6163
崑	-12.6374
砌	-12.638
䞋	-12.6386
裸	-12.6387
訴	-12.6387
擴	-12.6387
誇	-12.6388
窄	-12.6391
閏	-12.6393
悖	-12.6393
浙	-12.6395
睿	-12.6395
麵	-12.6396
燼	-12.6397
携	-12.6398
軻	-12.6398
悚	-12.6398
殉	-12.6398
尿	-12.64
矬	-12.6401
鉛	-12.6401
剡	-12.6402
俊	-12.6402
蜒	-12.6405
呞	-12.6406
肴	-12.6407
荀	-12.641
犀	-12.6411
碯	-12.6641
踝	-12.6641
扼	-12.6646
鄧	-12.6646
寱	-12.6646
瘠	-12.6647
煉	-12.6647
痟	-12.6648
斑	-12.665
孜	-12.6651
姬	-12.6651
鐃	-12.6651
膊	-12.6652
刈	-12.6655
繆	-12.6657
讒	-12.6657
杲	-12.6658
綽	-12.6659
衷	-12.6661
緘	-12.6663
拭	-12.6666
跏	-12.6669
狙	-12.6671
肖	-12.686
繚	-12.6897
瑙	-12.6899
鹵	-12.6907
杌	-12.6908
竿	-12.691
慼	-12.6911
稗	-12.6911
蹲	-12.6913
蠲	-12.6915
抒	-12.6915
剏	-12.6917
彷	-12.6917
馮	-12.6918
釘	-12.6918
邈	-12.6921
馭	-12.6921
簣	-12.6923
勃	-12.6923
𤏙	-12.6923
篆	-12.6927
蠻	-12.6927
廗	-12.6929
欵	-12.693
陜	-12.6933
釜	-12.6939
檐	-12.7161
燧	-12.7163
唧	-12.7168
漠	-12.7168
胥	-12.7169
冏	-12.7172
翩	-12.7174
檻	-12.7176
芿	-12.7177
痤	-12.7178
笈	-12.7178
鍼	-12.7179
斆	-12.7181
妒	-12.7182
宵	-12.7183
巴	-12.7183
娠	-12.7184
僣	-12.7184
墟	-12.7184
簿	-12.7184
傴	-12.7185
寵	-12.7186
兕	-12.7187
聘	-12.7188
憺	-12.7189
眩	-12.719
芝	-12.719
鸞	-12.7191
胷	-12.7192
侔	-12.7193
呬	-12.7193
銕	-12.7193
褁	-12.7196
韶	-12.7196
沛	-12.7197
蠧	-12.7198
觚	-12.7205
髀	-12.7441
訟	-12.7452
蟬	-12.7453
窊	-12.7454
鴦	-12.7454
磐	-12.7455
暨	-12.7455
梧	-12.7456
遼	-12.7456
濶	-12.7456
懌	-12.7456
躁	-12.7458
儲	-12.746
呻	-12.746
叛	-12.7461
徽	-12.7461
魄	-12.7462
詈	-12.7462
嵐	-12.7464
苞	-12.7465
鵰	-12.7465
黜	-12.7469
屣	-12.7472
拋	-12.7473
㓨	-12.748
婚	-12.7481
迊	-12.7482
禺	-12.7722
􂐔	-12.7737
瀾	-12.7738
漉	-12.7739
呾	-12.7742
妍	-12.7745
凋	-12.7747
阜	-12.7747
蠆	-12.7747
繕	-12.7747
迨	-12.7749
纊	-12.7752
冲	-12.7753
芙	-12.7754
粮	-12.7754
窂	-12.7756
猥	-12.7764
旗	-12.7764
䗍	-12.8018
麄	-12.8022
訊	-12.8023
眴	-12.8024
摭	-12.8028
c	-12.803
f	-12.803
睞	-12.8033
誹	-12.8034
潰	-12.8035
㭊	-12.8035
凭	-12.8036
樵	-12.8038
衿	-12.8038
筒	-12.8039
𠎝	-12.8039
碍	-12.8041
液	-12.8044
迺	-12.8045
彿	-12.8045
忙	-12.8045
冐	-12.8046
皐	-12.8047
架	-12.8047
鍛	-12.8047
顆	-12.8047
硬	-12.8049
貂	-12.8053
棠	-12.8053
巫	-12.8054
娶	-12.8054
菟	-12.8055
嚙	-12.8059
駱	-12.8059
竦	-12.8065
鏘	-12.8325
寞	-12.8327
萊	-12.833
箴	-12.833
廻	-12.8331
犧	-12.8334
漬	-12.8335
洄	-12.8338
馨	-12.8338
㶿	-12.8339
疽	-12.834
酷	-12.8341
猨	-12.8341
臼	-12.8341
亟	-12.8342
喟	-12.8345
蚌	-12.8345
淤	-12.8345
仇	-12.8346
瘖	-12.8346
蚤	-12.8347
献	-12.8347
凹	-12.8347
甎	-12.8349
竄	-12.835
濯	-12.835
癬	-12.835
誚	-12.8352
琅	-12.8352
罹	-12.8353
懲	-12.8353
悠	-12.8353
㒵	-12.8353
噓	-12.8354
恤	-12.8355
曳	-12.8356
艮	-12.8356
衲	-12.8358
軛	-12.8358
闔	-12.836
𤼣	-12.836
徇	-12.8361
貍	-12.8365
匾	-12.8641
頷	-12.8645
綮	-12.8645
弼	-12.8646
㢡	-12.8647
疱	-12.8648
郵	-12.8648
柅	-12.8648
隥	-12.8649
馥	-12.865
兀	-12.8651
韜	-12.8652
襵	-12.8652
盥	-12.8654
忤	-12.8655
桐	-12.8656
羗	-12.8658
孱	-12.8659
忒	-12.8659
鏤	-12.8659
紊	-12.866
娥	-12.8662
需	-12.8662
歐	-12.8662
浦	-12.8662
勾	-12.8663
褫	-12.8664
肢	-12.8664
悼	-12.8665
渭	-12.8665
梏	-12.8668
胄	-12.8678
蛙	-12.8678
釰	-12.8678
蚰	-12.8681
彥	-12.8686
譎	-12.897
甕	-12.8971
碼	-12.8972
黍	-12.8973
弃	-12.8974
鈸	-12.8975
亢	-12.8976
鄔	-12.8976
殫	-12.8977
阡	-12.8979
迮	-12.8979
觜	-12.8979
煨	-12.8981
蕪	-12.8981
旻	-12.8981
敝	-12.8982
蝘	-12.8983
逵	-12.8986
濵	-12.8986
芒	-12.8986
艶	-12.8988
吃	-12.8989
簷	-12.899
靖	-12.899
蜣	-12.8992
菊	-12.8992
𩑔	-12.8994
脅	-12.8994
苻	-12.9007
竛	-12.929
体	-12.929
睺	-12.9296
繽	-12.9299
峙	-12.9306
畟	-12.9306
峨	-12.9307
腥	-12.9308
杻	-12.9309
葩	-12.931
秩	-12.9311
栽	-12.9312
愉	-12.9312
麞	-12.9312
禎	-12.9312
礪	-12.9313
靆	-12.9314
𤘽	-12.9314
裴	-12.9316
嬪	-12.9316
袋	-12.9317
揲	-12.9318
溉	-12.9318
趾	-12.9319
鷸	-12.9319
樊	-12.9319
帥	-12.932
僚	-12.932
撻	-12.9321
柏	-12.9321
距	-12.9324
阮	-12.9328
􂌞	-12.9328
桎	-12.9328
慞	-12.9329
潑	-12.9329
董	-12.9331
暄	-12.9332
嚩	-12.9334
擒	-12.9341
鈞	-12.9344
唎	-12.9635
竮	-12.9636
蘆	-12.9644
茯	-12.9647
伶	-12.9649
舡	-12.9652
迤	-12.9652
喃	-12.9653
櫓	-12.9653
虺	-12.9654
駢	-12.9654
蓄	-12.9656
牓	-12.9656
偪	-12.9657
培	-12.9657
擗	-12.9658
祚	-12.9658
皺	-12.9659
筞	-12.966
僮	-12.9661
吻	-12.9661
禳	-12.9664
吁	-12.9664
蕖	-12.9665
宍	-12.9666
冢	-12.9667
屆	-12.9667
豹	-12.9668
哺	-12.9669
挈	-12.967
馴	-12.9676
杯	-12.9677
琵	-12.9678
毳	-12.9684
珮	-12.9687
秭	-13
嬾	-13.0003
掠	-13.0006
旭	-13.0007
腨	-13.0009
闚	-13.001
惕	-13.0011
􂎶	-13.0013
漓	-13.0015
翦	-13.0015
魑	-13.0015
鍚	-13.0016
胛	-13.0016
朦	-13.0016
汪	-13.0016
絞	-13.0016
聆	-13.0017
𤚲	-13.0018
佇	-13.0019
股	-13.002
歿	-13.002
豕	-13.0022
坏	-13.0023
籬	-13.0025
戟	-13.0028
磋	-13.0028
讎	-13.0032
鄴	-13.0033
悱	-13.0047
瑋	-13.0367
䬸	-13.0371
殻	-13.0373
媿	-13.0374
扉	-13.0375
劑	-13.0375
兗	-13.0376
迥	-13.0377
箕	-13.0379
箱	-13.0379
歧	-13.0382
揜	-13.0382
鞠	-13.0382
雉	-13.0383
郤	-13.0384
𢮎	-13.0384
僭	-13.0385
凸	-13.0385
駛	-13.0385
錠	-13.0386
慾	-13.0389
匙	-13.0389
姉	-13.0389
溷	-13.039
璣	-13.0391
奩	-13.0391
桶	-13.0392
莽	-13.0393
樸	-13.0394
瞪	-13.0394
嘻	-13.0398
帚	-13.0399
鼬	-13.0399
嗢	-13.04
霍	-13.04
琶	-13.0401
瞳	-13.0401
鳶	-13.0404
蜓	-13.041
腕	-13.075
襃	-13.0754
袱	-13.0755
儴	-13.0756
垓	-13.0757
飴	-13.0759
盞	-13.0764
靣	-13.0764
咒	-13.0765
藩	-13.0765
聃	-13.0765
晡	-13.0766
涵	-13.0769
猫	-13.077
殤	-13.0771
嘲	-13.0771
躋	-13.0771
攪	-13.0773
棹	-13.0773
版	-13.0775
脆	-13.0776
潦	-13.0777
燎	-13.0778
黏	-13.0779
蹶	-13.078
瞞	-13.078
廛	-13.078
塑	-13.0782
噬	-13.0785
尖	-13.0786
馲	-13.0787
苽	-13.0788
描	-13.0789
鼷	-13.079
沿	-13.0792
督	-13.0796
縠	-13.0796
邵	-13.0801
罏	-13.0802
犛	-13.1155
羙	-13.1155
穫	-13.1155
鶖	-13.1157
蝶	-13.1157
嚝	-13.1157
茆	-13.1158
蠕	-13.1158
奕	-13.1159
昱	-13.1165
洮	-13.1166
顓	-13.1166
駮	-13.1167
釁	-13.1167
賷	-13.1168
彗	-13.1168
眸	-13.1168
棗	-13.1169
薜	-13.117
冗	-13.117
嘴	-13.1171
涎	-13.1171
膓	-13.1172
遘	-13.1172
驛	-13.1172
霽	-13.1172
毅	-13.1174
􂋧	-13.1174
羈	-13.1175
倩	-13.1175
踴	-13.1176
盪	-13.1177
署	-13.1177
盻	-13.1177
蹊	-13.1178
彪	-13.1179
涇	-13.1179
慘	-13.1179
粲	-13.118
兌	-13.118
隳	-13.1181
鉗	-13.1181
郢	-13.1182
蜯	-13.1182
褚	-13.1184
綏	-13.1186
慄	-13.119
紂	-13.1193
庖	-13.12
觕	-13.1204
沌	-13.121
蔗	-13.1565
咳	-13.1572
噵	-13.1572
捒	-13.1572
罩	-13.1572
邐	-13.1572
怗	-13.1574
鼈	-13.1574
輯	-13.1575
卄	-13.1578
旹	-13.1579
澓	-13.158
􂕩	-13.1582
鴉	-13.1584
蠟	-13.1585
鞋	-13.1586
舫	-13.1586
氈	-13.1586
㸦	-13.1587
襍	-13.1587
捲	-13.1587
撼	-13.1588
嘔	-13.1588
苕	-13.159
瘳	-13.1591
粧	-13.1591
宼	-13.1591
跂	-13.1592
揄	-13.1593
弑	-13.1594
齶	-13.1595
剜	-13.1595
蟄	-13.1596
竇	-13.1596
碁	-13.1597
掀	-13.1597
雎	-13.1598
雁	-13.1599
瀑	-13.16
搔	-13.1601
瀝	-13.1601
丕	-13.1602
烹	-13.1602
盟	-13.1605
瓠	-13.1608
鳧	-13.1608
俶	-13.1611
蕃	-13.1611
凍	-13.1617
咏	-13.1618
舘	-13.2002
觴	-13.2002
弩	-13.2003
刼	-13.2005
霔	-13.2006
跢	-13.2006
哮	-13.201
績	-13.2012
琦	-13.2012
罥	-13.2014
闘	-13.2014
泄	-13.2014
硯	-13.2016
鋸	-13.2017
趍	-13.2019
氛	-13.2021
臯	-13.2021
蜴	-13.2022
朧	-13.2022
諺	-13.2023
嗚	-13.2024
鞮	-13.2024
帷	-13.2026
霹	-13.2026
靂	-13.2027
慣	-13.2027
霸	-13.2028
瀁	-13.2028
樒	-13.2028
姦	-13.2031
島	-13.2033
喬	-13.2034
姒	-13.2034
廳	-13.2036
窳	-13.2036
聿	-13.2037
桀	-13.2038
悵	-13.204
浹	-13.2041
弔	-13.2041
湘	-13.2043
咼	-13.2461
耨	-13.2463
杇	-13.2463
聦	-13.2464
穌	-13.2464
衫	-13.2465
喀	-13.2467
皤	-13.2469
窣	-13.247
㖿	-13.2471
皂	-13.2472
癭	-13.2472
粵	-13.2473
嘷	-13.2474
蹴	-13.2474
爻	-13.2475
攷	-13.2475
葦	-13.2475
􂌤	-13.2475
劂	-13.2475
墾	-13.2475
淆	-13.2476
搋	-13.2476
燦	-13.2476
篾	-13.2477
釵	-13.2478
驕	-13.2478
狩	-13.2478
蟠	-13.2478
憾	-13.2479
駿	-13.248
跉	-13.248
𤨏	-13.2482
閔	-13.2482
鬻	-13.2483
虢	-13.2483
羌	-13.2484
痰	-13.2484
貸	-13.2487
貳	-13.2487
虐	-13.2487
叟	-13.2487
冕	-13.2488
幕	-13.2492
叶	-13.2492
扠	-13.2494
蹇	-13.2495
笙	-13.2496
些	-13.2497
湊	-13.2498
咬	-13.2499
蒿	-13.2501
麴	-13.2503
匏	-13.2514
椉	-13.2928
𦟛	-13.2933
蔔	-13.2933
靄	-13.2934
蹬	-13.2935
熨	-13.2939
s	-13.2941
噐	-13.2941
壹	-13.2942
惔	-13.2942
港	-13.2942
驪	-13.2943
嘯	-13.2943
忩	-13.2943
袠	-13.2945
罤	-13.2945
孳	-13.2945
薳	-13.2946
嘇	-13.2947
幅	-13.2947
埿	-13.2949
薑	-13.2949
𨷂	-13.295
隍	-13.2951
柵	-13.2952
擡	-13.2952
讐	-13.2952
爇	-13.2953
蜥	-13.2954
勣	-13.2954
乱	-13.2955
鬲	-13.2955
瞥	-13.2956
綰	-13.2957
帽	-13.2957
穉	-13.2958
宙	-13.2959
粕	-13.2959
灸	-13.2959
牗	-13.296
痆	-13.296
轄	-13.2961
樑	-13.2961
钁	-13.2961
齓	-13.2961
􂎫	-13.2962
釀	-13.2966
鄞	-13.2967
瞎	-13.2967
啾	-13.297
騫	-13.297
剔	-13.297
璪	-13.2973
壺	-13.2973
戍	-13.2974
蝦	-13.2974
䶩	-13.2975
𤛾	-13.2977
稔	-13.2977
溈	-13.2979
􂐓	-13.2981
札	-13.2991
楹	-13.3429
竢	-13.3437
崎	-13.3438
俵	-13.3439
㳂	-13.3439
俛	-13.344
羝	-13.3441
膖	-13.3443
珪	-13.3443
栴	-13.3444
袟	-13.3444
嗽	-13.3444
榦	-13.3445
𢟋	-13.3445
賃	-13.3446
詑	-13.3446
窒	-13.3447
翊	-13.3447
暝	-13.3448
鷺	-13.3448
巍	-13.3449
滲	-13.3452
恊	-13.3452
佑	-13.3453
皿	-13.3453
舶	-13.3455
椅	-13.3456
釗	-13.3456
牘	-13.3457
佚	-13.3457
黛	-13.3457
煻	-13.3457
煌	-13.3458
弒	-13.346
批	-13.346
愴	-13.346
騁	-13.3461
詬	-13.3461
爝	-13.3461
耗	-13.3462
胮	-13.3463
煬	-13.3463
聶	-13.3463
桷	-13.3465
怳	-13.3466
擕	-13.3467
孽	-13.347
朵	-13.347
蘋	-13.3472
轟	-13.3475
憩	-13.3476
騷	-13.3477
澣	-13.3477
𠒋	-13.3484
涓	-13.349
哢	-13.3953
凞	-13.3954
欬	-13.3955
豌	-13.3963
訾	-13.3963
噏	-13.3965
聵	-13.3965
㳷	-13.3967
蕅	-13.3967
楔	-13.397
壍	-13.3971
欹	-13.3972
溜	-13.3972
榴	-13.3973
掦	-13.3973
緜	-13.3973
袁	-13.3973
􂔗	-13.3974
啐	-13.3974
塹	-13.3974
狡	-13.3974
懦	-13.3976
簾	-13.3976
懾	-13.3978
毱	-13.3978
穬	-13.3978
鬮	-13.3978
顰	-13.3978
飼	-13.3979
幃	-13.3979
璽	-13.398
迢	-13.398
蹟	-13.398
鏗	-13.398
蓊	-13.3981
宥	-13.3982
館	-13.3982
宸	-13.3985
岫	-13.3987
閼	-13.3987
屯	-13.3987
俞	-13.3987
莾	-13.3987
萏	-13.399
晶	-13.399
嬌	-13.3991
拇	-13.3993
髦	-13.3995
茹	-13.3995
哳	-13.3997
綾	-13.4
麓	-13.4
蘩	-13.4
螳	-13.4002
囓	-13.4004
脛	-13.4009
岡	-13.4015
咦	-13.4023
亹	-13.45
軼	-13.451
灯	-13.4515
蚋	-13.4518
柝	-13.452
懱	-13.452
閹	-13.4521
燿	-13.4521
𠥶	-13.4522
饗	-13.4525
壟	-13.4525
牡	-13.4526
撙	-13.4527
渟	-13.4527
逶	-13.4528
嚚	-13.4528
偕	-13.4529
搗	-13.4531
䖍	-13.4531
腑	-13.4532
裘	-13.4533
哽	-13.4533
髭	-13.4533
洩	-13.4533
顙	-13.4534
蛛	-13.4534
鯁	-13.4534
峩	-13.4534
涸	-13.4534
螻	-13.4534
昊	-13.4534
徊	-13.4535
窈	-13.4535
蔣	-13.4537
螟	-13.4538
袍	-13.4538
簪	-13.454
蛾	-13.4541
瓚	-13.4541
彖	-13.4542
拊	-13.4542
儛	-13.4543
瑣	-13.4544
砰	-13.4544
孺	-13.4544
橛	-13.4544
熢	-13.4545
蘄	-13.4545
菡	-13.4546
璨	-13.4546
絮	-13.4547
緝	-13.4548
刷	-13.4549
軋	-13.455
鉅	-13.455
俚	-13.4551
拗	-13.4551
瑜	-13.4552
址	-13.4552
鐫	-13.4553
仿	-13.4553
娉	-13.4555
筮	-13.4555
儞	-13.5091
臚	-13.5099
􂍧	-13.5104
劃	-13.5106
炊	-13.5108
斐	-13.5108
嵆	-13.5111
伇	-13.5111
啇	-13.5112
𠍴	-13.5113
諛	-13.5115
祛	-13.5115
礦	-13.5116
詒	-13.5116
扞	-13.5117
欒	-13.5118
𩬊	-13.5119
眚	-13.5119
睦	-13.512
拉	-13.5121
霆	-13.5121
舂	-13.5122
蠶	-13.5123
謔	-13.5123
熒	-13.5125
爼	-13.5126
蛤	-13.5129
晞	-13.513
瘥	-13.513
詫	-13.513
隟	-13.5131
翱	-13.5131
虻	-13.5131
躐	-13.5131
葡	-13.5131
坯	-13.5132
鱉	-13.5132
翛	-13.5132
葺	-13.5133
敞	-13.5134
奸	-13.5135
蚪	-13.5136
駃	-13.5138
槐	-13.5138
杏	-13.514
蘖	-13.5142
恙	-13.5142
齟	-13.5149
䥫	-13.5152
癥	-13.5153
獦	-13.5157
獠	-13.5159
觔	-13.5161
濮	-13.5188
窾	-13.5701
腳	-13.5722
泫	-13.5723
瑠	-13.5727
噪	-13.5733
亶	-13.5733
廈	-13.5733
捻	-13.5734
䑛	-13.5734
𨤲	-13.5735
璃	-13.5735
寘	-13.5736
仆	-13.5736
卛	-13.5736
敭	-13.5737
𩔗	-13.5738
閩	-13.5739
轎	-13.5739
􂔔	-13.574
瑛	-13.5741
撤	-13.5742
癖	-13.5742
杉	-13.5742
劈	-13.5743
絆	-13.5743
慍	-13.5743
閫	-13.5743
晷	-13.5744
忉	-13.5744
瞭	-13.5745
漱	-13.5745
砥	-13.5745
奐	-13.5746
吊	-13.5746
檝	-13.5746
惚	-13.5746
刖	-13.5747
邕	-13.5748
穭	-13.5748
澗	-13.5748
癃	-13.5749
椶	-13.5749
稿	-13.575
㐫	-13.5751
繪	-13.5751
暹	-13.5751
堀	-13.5751
獺	-13.5752
頊	-13.5752
姙	-13.5752
迪	-13.5752
笇	-13.5753
闠	-13.5754
祟	-13.5754
躇	-13.5754
窹	-13.5755
賽	-13.5755
鎚	-13.5755
嗤	-13.5756
瑯	-13.5757
暎	-13.5758
串	-13.5758
蝍	-13.5759
熬	-13.576
嵬	-13.576
闌	-13.5762
肪	-13.5765
瞢	-13.5765
綫	-13.5768
冉	-13.5771
輗	-13.5777
𨽾	-13.6368
裙	-13.6389
卍	-13.6395
咩	-13.6396
泗	-13.6399
蛟	-13.6399
傘	-13.64
轆	-13.6401
黶	-13.6402
蔀	-13.6402
扃	-13.6404
荏	-13.6404
憀	-13.6405
俜	-13.6405
逞	-13.6405
淘	-13.6406
霅	-13.6406
佯	-13.6406
鞍	-13.6406
凜	-13.6407
耄	-13.6407
皴	-13.6408
錐	-13.6408
烝	-13.6409
㝡	-13.641
慵	-13.6411
颯	-13.6412
惹	-13.6412
絳	-13.6412
椿	-13.6413
羬	-13.6414
崗	-13.6414
倨	-13.6415
鯨	-13.6415
鶻	-13.6415
覃	-13.6416
搥	-13.6417
脯	-13.6417
蛉	-13.6417
矇	-13.6418
曄	-13.6418
莅	-13.6419
慟	-13.6419
磕	-13.642
戢	-13.642
冑	-13.642
觝	-13.6421
𠯗	-13.6422
厝	-13.6422
蘂	-13.6422
槽	-13.6422
漕	-13.6424
顇	-13.6424
覷	-13.6424
肚	-13.6425
鬢	-13.6425
葵	-13.6426
𥇒	-13.6426
痾	-13.6426
彎	-13.6427
黿	-13.6429
羹	-13.643
弭	-13.6431
凰	-13.6432
瞰	-13.6433
唬	-13.6433
嚯	-13.6433
拽	-13.6434
賚	-13.6438
笞	-13.6438
劄	-13.6438
臠	-13.6439
噍	-13.6443
籥	-13.6443
宦	-13.6444
協	-13.6453
筐	-13.6458
卞	-13.6459
髫	-13.7104
a	-13.7105
唅	-13.7106
狖	-13.7108
跣	-13.7113
鑞	-13.7115
僃	-13.7115
飱	-13.7115
蟾	-13.7115
蓍	-13.7116
謫	-13.7116
詆	-13.7116
牲	-13.7117
黯	-13.7119
倡	-13.712
蜎	-13.7121
渙	-13.7121
諄	-13.7122
遄	-13.7122
亨	-13.7123
擐	-13.7123
蔚	-13.7124
洹	-13.7124
淅	-13.7125
畝	-13.7126
撾	-13.7126
夸	-13.7126
盍	-13.7126
𡀗	-13.7127
幣	-13.7127
喎	-13.7127
昃	-13.7127
驍	-13.7127
纘	-13.7128
甯	-13.7128
悷	-13.7129
鈆	-13.7129
勁	-13.7129
嚕	-13.713
裓	-13.7131
蠑	-13.7131
懵	-13.7131
勛	-13.7131
塼	-13.7132
縻	-13.7132
狽	-13.7132
訕	-13.7133
憔	-13.7133
垛	-13.7133
擥	-13.7133
蘤	-13.7133
櫚	-13.7135
晤	-13.7136
玫	-13.7138
牸	-13.7138
蛣	-13.7139
毉	-13.7139
紏	-13.7139
黐	-13.714
堵	-13.714
繳	-13.7141
槨	-13.7142
癊	-13.7142
簧	-13.7142
屐	-13.7142
鴆	-13.7142
慠	-13.7143
泝	-13.7143
銛	-13.7143
弋	-13.7144
佃	-13.7144
羆	-13.7145
潘	-13.7147
譙	-13.7147
趁	-13.7149
倪	-13.7149
頺	-13.7151
醬	-13.7152
哨	-13.7153
蝗	-13.7154
竈	-13.7156
隊	-13.7161
儕	-13.7164
啜	-13.7164
岌	-13.7168
苐	-13.7174
臗	-13.7853
􂌦	-13.7867
弢	-13.7869
癕	-13.7871
蕋	-13.7871
甑	-13.7875
刮	-13.7876
覬	-13.7877
𠁼	-13.7877
蘚	-13.7877
剉	-13.7881
晈	-13.7885
呰	-13.7885
攣	-13.7886
尒	-13.7886
玻	-13.7886
昴	-13.7888
瓫	-13.7888
曦	-13.7888
譔	-13.7888
顦	-13.7889
𠝶	-13.7889
甌	-13.789
咆	-13.789
疹	-13.7891
訝	-13.7891
𣆶	-13.7892
抃	-13.7893
氳	-13.7895
愔	-13.7896
糯	-13.7897
窠	-13.7897
堦	-13.7898
墉	-13.7898
傚	-13.7898
睒	-13.7899
尻	-13.7899
蝙	-13.7899
挐	-13.7899
孛	-13.7899
蝠	-13.7899
滂	-13.79
鍱	-13.79
𢩁	-13.79
氐	-13.7901
錍	-13.7901
詁	-13.7902
袈	-13.7903
埽	-13.7903
褻	-13.7906
搬	-13.7906
踠	-13.7907
癢	-13.7907
辣	-13.7908
丐	-13.7908
摹	-13.7908
霖	-13.791
漾	-13.791
蛻	-13.7911
櫁	-13.7911
廩	-13.7911
彬	-13.7912
騖	-13.7913
很	-13.7914
麋	-13.7914
疥	-13.7916
撞	-13.7917
曝	-13.7917
撝	-13.7918
虱	-13.7918
綬	-13.7919
痺	-13.7919
齬	-13.792
䓗	-13.7921
虹	-13.7921
俠	-13.7925
賄	-13.7925
瓢	-13.7927
檄	-13.7931
懋	-13.7934
踧	-13.7941
膞	-13.8707
㔸	-13.8708
嚧	-13.871
穹	-13.8712
轝	-13.8713
彝	-13.8713
灋	-13.8714
姥	-13.8714
蓆	-13.8715
菔	-13.8716
杼	-13.8716
𣗥	-13.8716
箏	-13.8717
揑	-13.8718
􂐴	-13.8719
霈	-13.8719
繭	-13.872
𢤱	-13.8721
謐	-13.8721
弛	-13.8722
迃	-13.8722
夥	-13.8722
醍	-13.8722
巒	-13.8723
曯	-13.8723
叚	-13.8723
醞	-13.8724
褊	-13.8724
豸	-13.8724
俻	-13.8725
擢	-13.8725
頁	-13.8725
碓	-13.8725
悌	-13.8727
痢	-13.8728
匣	-13.8728
壘	-13.8728
濬	-13.8728
餒	-13.8728
躰	-13.8728
堤	-13.8729
宕	-13.8729
妥	-13.873
槊	-13.873
倏	-13.873
湮	-13.873
遡	-13.873
礡	-13.8731
宂	-13.8731
噦	-13.8732
澈	-13.8732
斟	-13.8733
𥪰	-13.8733
僥	-13.8733
璋	-13.8734
瓮	-13.8734
紋	-13.8735
迯	-13.8735
韞	-13.8736
鋤	-13.8736
堊	-13.8736
勺	-13.8737
瑰	-13.8737
餉	-13.8737
診	-13.8739
怏	-13.8739
軄	-13.874
醴	-13.874
扈	-13.8744
喙	-13.8744
哩	-13.8745
嗷	-13.8746
蟹	-13.8746
柁	-13.8747
茄	-13.8747
盃	-13.8747
庿	-13.8748
紳	-13.8748
䆿	-13.8749
窗	-13.8749
麈	-13.8749
掇	-13.875
菉	-13.8751
琮	-13.8751
虜	-13.8754
檠	-13.8754
𤛓	-13.8755
斃	-13.8756
廂	-13.8757
匐	-13.8757
憨	-13.8758
筯	-13.8761
駞	-13.8761
沚	-13.8763
悛	-13.8764
憋	-13.8765
壠	-13.8766
苴	-13.8769
謄	-13.8772
淋	-13.8773
萍	-13.8774
蹰	-13.8774
愷	-13.8775
濾	-13.9595
𥠖	-13.9606
餧	-13.9611
轤	-13.9612
搭	-13.9612
錘	-13.9613
檮	-13.9614
鵽	-13.9615
攙	-13.9616
双	-13.9616
歆	-13.9617
裰	-13.9618
迆	-13.9621
泮	-13.9622
甦	-13.9622
膂	-13.9622
悳	-13.9624
醇	-13.9625
刳	-13.9625
鶚	-13.9625
猊	-13.9626
嘊	-13.9626
攫	-13.9628
戕	-13.963
鄮	-13.9632
墩	-13.9632
售	-13.9634
蘿	-13.9634
覡	-13.9635
齆	-13.9635
綢	-13.9635
痊	-13.9636
怫	-13.9638
薛	-13.9638
瘉	-13.9638
犲	-13.9639
鉾	-13.9639
翕	-13.9639
𡁱	-13.964
泳	-13.964
凳	-13.964
珞	-13.964
匇	-13.9641
犂	-13.9641
𦵔	-13.9641
檗	-13.9641
𢍉	-13.9641
敲	-13.9641
蘗	-13.9641
饕	-13.9642
湫	-13.9642
愀	-13.9642
𥧌	-13.9643
桴	-13.9643
踪	-13.9643
淛	-13.9644
藿	-13.9644
紗	-13.9645
糖	-13.9645
岩	-13.9645
扯	-13.9648
酖	-13.9649
壃	-13.9649
轡	-13.9649
𤚼	-13.9649
薙	-13.965
羡	-13.965
雋	-13.965
型	-13.9651
弉	-13.9651
漩	-13.9651
糩	-13.9652
縉	-13.9653
芟	-13.9653
涘	-13.9653
咤	-13.9653
毓	-13.9654
峭	-13.9654
蜃	-13.9654
峽	-13.9654
驃	-13.9656
帋	-13.9656
毬	-13.9658
悍	-13.9659
抅	-13.966
罟	-13.966
毆	-13.966
渤	-13.9661
閤	-13.9661
猾	-13.9661
譴	-13.9662
窶	-13.9662
掞	-13.9665
訐	-13.9666
巋	-13.9667
籓	-13.9667
逋	-13.9672
駒	-13.9675
踖	-13.968
噤	-13.9681
畦	-13.9689
貉	-14.0599
殯	-14.0607
撕	-14.061
店	-14.0614
歪	-14.0614
𩯭	-14.0614
玦	-14.0616
捃	-14.0619
擋	-14.062
琉	-14.0621
貁	-14.0622
鳱	-14.0622
瓘	-14.0625
躳	-14.0626
墡	-14.0626
臊	-14.0626
抂	-14.0626
盋	-14.0626
仝	-14.0628
颰	-14.0628
奎	-14.0629
軰	-14.0629
舁	-14.0629
鑠	-14.063
翌	-14.063
䐗	-14.063
蓼	-14.063
矝	-14.0631
􂐢	-14.0632
彙	-14.0634
狥	-14.0635
鉏	-14.0635
䱜	-14.0635
岑	-14.0635
䯗	-14.0636
肱	-14.0636
錮	-14.0636
穽	-14.0637
濛	-14.0638
粇	-14.0638
凑	-14.0639
拼	-14.0639
􂐺	-14.0639
洿	-14.064
笻	-14.064
戹	-14.0642
浚	-14.0642
迁	-14.0642
惋	-14.0643
籟	-14.0643
蝨	-14.0643
蜫	-14.0643
覊	-14.0643
譌	-14.0644
昉	-14.0644
囈	-14.0645
烽	-14.0645
髖	-14.0645
耿	-14.0646
帑	-14.0646
茟	-14.0647
俸	-14.0647
倖	-14.0647
礴	-14.0647
橘	-14.0647
撩	-14.0647
眺	-14.0648
袂	-14.065
賺	-14.065
癘	-14.065
纜	-14.0652
餔	-14.0653
摛	-14.0653
袞	-14.0653
躅	-14.0653
姻	-14.0654
髼	-14.0654
汾	-14.0654
􂌴	-14.0654
呿	-14.0655
窘	-14.0656
燔	-14.0657
糗	-14.0657
麾	-14.0658
嗇	-14.0658
𨫼	-14.0659
𨷖	-14.0659
坥	-14.066
蚿	-14.066
蝸	-14.066
彤	-14.0662
薏	-14.0662
呦	-14.0662
徂	-14.0664
悒	-14.0664
酣	-14.0664
鉐	-14.0664
淄	-14.0665
郛	-14.0666
頵	-14.0666
褐	-14.0666
繄	-14.0667
漣	-14.0668
驀	-14.0669
廡	-14.067
嫂	-14.0671
塤	-14.0672
輊	-14.0673
埤	-14.0673
窪	-14.0676
塠	-14.0681
瞀	-14.0682
潢	-14.0683
莠	-14.0689
梲	-14.0689
𪘨	-14.1693
􂕴	-14.1711
殼	-14.1712
𨳝	-14.1717
齜	-14.1721
􂓫	-14.1721
哂	-14.1722
縹	-14.1728
懟	-14.1728
圊	-14.1729
貓	-14.1731
匈	-14.1733
𦒿	-14.1733
佀	-14.1734
􂐡	-14.1735
跌	-14.1737
遯	-14.1737
僵	-14.1738
𢾗	-14.1739
崐	-14.1739
卸	-14.1739
笥	-14.174
誷	-14.174
廨	-14.174
悽	-14.174
榛	-14.1741
閃	-14.1741
眄	-14.1741
摺	-14.1742
羇	-14.1742
廕	-14.1743
髂	-14.1743
椀	-14.1744
嶂	-14.1744
豺	-14.1744
㸌	-14.1744
翮	-14.1744
喁	-14.1745
噞	-14.1745
醐	-14.1745
褺	-14.1745
劓	-14.1746
勦	-14.1746
賔	-14.1747
杓	-14.1748
橦	-14.1748
鰥	-14.1748
噴	-14.1749
匃	-14.1749
搩	-14.1749
㘅	-14.1749
舐	-14.1749
閽	-14.1749
篪	-14.175
燠	-14.175
拖	-14.1751
㷿	-14.1752
磓	-14.1752
辤	-14.1752
酵	-14.1753
齗	-14.1754
畿	-14.1755
薨	-14.1755
泴	-14.1755
夔	-14.1755
穗	-14.1756
雰	-14.1756
猖	-14.1756
吽	-14.1756
跰	-14.1757
蕀	-14.1757
憧	-14.1757
栝	-14.1757
咫	-14.1757
𣫍	-14.1758
穡	-14.1758
郝	-14.1758
刎	-14.1761
勠	-14.1761
鐶	-14.1762
媛	-14.1762
𣈆	-14.1762
喑	-14.1762
醨	-14.1763
邠	-14.1763
廝	-14.1763
鱓	-14.1764
邯	-14.1765
鄲	-14.1765
衾	-14.1765
遒	-14.1765
鯉	-14.1767
隕	-14.1767
㯭	-14.1767
翥	-14.1768
闤	-14.1768
隹	-14.1769
諡	-14.177
詡	-14.177
窬	-14.1772
醘	-14.1773
䟤	-14.1773
廐	-14.1774
菲	-14.1774
䈥	-14.1775
糺	-14.1777
藹	-14.1778
覘	-14.1778
菌	-14.1779
粃	-14.1779
麂	-14.1779
潺	-14.1779
覯	-14.1781
狠	-14.1781
徼	-14.1782
缶	-14.1784
賂	-14.1787
僶	-14.1791
娘	-14.1791
槖	-14.1795
婿	-14.1796
狷	-14.1797
甃	-14.1797
楮	-14.1806
鯤	-14.1823
瞗	-14.2934
円	-14.2952
笠	-14.2963
謦	-14.2971
煜	-14.2971
繢	-14.2975
牯	-14.2976
祴	-14.2977
驥	-14.2978
竣	-14.2979
豚	-14.298
棱	-14.298
羂	-14.298
搘	-14.298
瑪	-14.2981
幖	-14.2981
蒜	-14.2982
鵶	-14.2982
陼	-14.2983
騾	-14.2983
唶	-14.2983
惣	-14.2984
􂎹	-14.2985
斲	-14.2986
堙	-14.2986
瓨	-14.2987
沗	-14.2988
崘	-14.2988
岱	-14.2988
衙	-14.2989
貙	-14.2989
諤	-14.299
鼇	-14.299
佷	-14.2991
箸	-14.2991
諐	-14.2992
𣠵	-14.2993
啝	-14.2993
㨿	-14.2994
麪	-14.2994
輨	-14.2995
陂	-14.2995
獅	-14.2996
黽	-14.2996
龐	-14.2996
筍	-14.2997
厓	-14.2998
輥	-14.2998
妣	-14.2999
兖	-14.3
黔	-14.3
飭	-14.3001
軔	-14.3001
薺	-14.3002
蠹	-14.3003
㽵	-14.3003
璿	-14.3003
恪	-14.3003
魘	-14.3004
泓	-14.3004
捴	-14.3004
圉	-14.3004
饋	-14.3005
耦	-14.3005
婪	-14.3005
炫	-14.3005
苓	-14.3006
冒	-14.3006
撒	-14.3007
挊	-14.3007
喋	-14.3007
䏲	-14.3007
輓	-14.3007
羺	-14.3007
媟	-14.3007
壙	-14.3007
樗	-14.3008
姤	-14.3008
䎡	-14.3008
牝	-14.3009
閦	-14.3009
𦙽	-14.301
瀚	-14.301
餮	-14.301
竚	-14.301
痼	-14.301
翾	-14.301
屨	-14.301
跑	-14.3011
簇	-14.3011
磑	-14.3012
症	-14.3012
逭	-14.3012
蜚	-14.3012
曛	-14.3012
縟	-14.3012
懅	-14.3014
穎	-14.3014
縊	-14.3014
鐺	-14.3014
􂑒	-14.3015
勖	-14.3015
噣	-14.3016
縶	-14.3016
嬴	-14.3016
无	-14.3016
晁	-14.3019
愓	-14.3019
瑘	-14.3019
萠	-14.302
耑	-14.3021
蜘	-14.3021
𥨊	-14.3021
篙	-14.3023
㿇	-14.3023
捋	-14.3023
螂	-14.3023
鑷	-14.3025
輾	-14.3025
堋	-14.3025
痍	-14.3025
昺	-14.3025
矮	-14.3025
蒐	-14.3027
劭	-14.3028
瘸	-14.3028
鶩	-14.3028
駑	-14.3029
棋	-14.303
仄	-14.3031
狺	-14.3032
榆	-14.3034
蠒	-14.3034
諠	-14.3034
圃	-14.3035
瓞	-14.3035
紕	-14.304
牋	-14.3041
磚	-14.3046
衮	-14.3047
拷	-14.3053
赳	-14.3076
骯	-14.3079
苣	-14.3085
侹	-14.4377
澇	-14.4391
儆	-14.4402
捿	-14.4402
䘏	-14.4404
瓣	-14.4405
殽	-14.4408
从	-14.4409
抖	-14.4411
佽	-14.4411
戇	-14.4412
嘖	-14.4412
侚	-14.4414
燾	-14.4416
㹬	-14.4417
玲	-14.4418
慓	-14.4419
搨	-14.442
巔	-14.4423
侫	-14.4423
圯	-14.4423
碣	-14.4423
䫌	-14.4424
慴	-14.4424
皁	-14.4426
橙	-14.4428
玕	-14.4428
㑦	-14.4428
埠	-14.4428
僖	-14.4429
櫪	-14.4429
幬	-14.4429
屩	-14.4429
㓟	-14.4429
叅	-14.443
瓷	-14.443
漪	-14.4431
弈	-14.4431
甬	-14.4432
䐇	-14.4433
溯	-14.4433
桉	-14.4434
夤	-14.4436
紜	-14.4437
䐔	-14.4438
悸	-14.4438
瘵	-14.444
侏	-14.444
椒	-14.444
睇	-14.4441
咂	-14.4441
歉	-14.4442
漲	-14.4443
孾	-14.4443
曀	-14.4444
獐	-14.4445
吮	-14.4445
捩	-14.4445
渝	-14.4445
涿	-14.4446
掊	-14.4447
埒	-14.4448
搪	-14.445
洼	-14.445
湕	-14.445
杆	-14.445
㩲	-14.4452
妮	-14.4453
坂	-14.4453
瀛	-14.4455
棊	-14.4456
溘	-14.4457
璫	-14.4459
爺	-14.446
摳	-14.4462
㺃	-14.4463
眵	-14.4465
滬	-14.4466
匍	-14.4469
廌	-14.4474
恧	-14.4475
薝	-14.6082
蕉	-14.6094
􂔹	-14.6913
-	-14.808
髣	-14.8081
篌	-14.8095
臾	-14.8106
逍	-15.0578
髴	-15.06
擻	-15.0646
鸚	-15.3893
箜	-15.3924
芭	-15.3961
髑	-15.399
硨	-15.8865
鵡	-15.8874
磲	-15.889
裟	-15.8931
踟	-15.8947
鴛	-15.8947
獼	-15.8978
恁	-15.8994
𧧌	-15.9019
瓈	-16.8934
髏	-16.8966
燉	-16.8999
蹭	-16.9
駙	-16.9001
蓉	-16.9002
暐	-16.9003
𠓆	-16.9004
蟇	-16.9005
沱	-16.9006
蟷	-16.9007
窕	-16.9008
俙	-16.9009
邲	-16.901
惒	-16.9011
嶇	-16.9012
徘	-16.9013
圄	-16.9014
囹	-16.9015
剞	-16.9016
茘	-16.9017
躊	-16.9018
嚀	-16.9019
[	-16.902
婇	-16.9021
+	-16.9022
蜈	-16.9023
琥	-16.9023
珀	-16.9024
瑚	-16.9025
o	-16.9026
N	-16.9027
>	-16.9028
—	-16.9029
|	-16.903
■	-16.9031
蚣	-16.9031
