<unk>	0
<s>	0
</s>	0
之	-4.10166
而	-4.69411
以	-4.73344
臣	-4.77739
者	-5.00928
其	-5.114
於	-5.17619
為	-5.18599
(	-5.23989
有	-5.25004
則	-5.30357
/)	-5.34544
不	-5.34635
也	-5.42585
一	-5.71939
無	-5.73139
自	-5.74891
人	-5.78038
事	-5.901
行	-5.96127
大	-5.97653
等	-5.98716
至	-6.02246
此	-6.02396
所	-6.03649
與	-6.04235
今	-6.0622
及	-6.07466
官	-6.13355
又	-6.15246
在	-6.15808
將	-6.18002
矣	-6.22967
上	-6.2313
如	-6.23489
用	-6.27761
亦	-6.27781
或	-6.31559
若	-6.32396
可	-6.34763
時	-6.34834
使	-6.35074
得	-6.35525
已	-6.36799
當	-6.37633
兵	-6.37817
令	-6.38234
各	-6.41061
皆	-6.42788
非	-6.44388
王	-6.45021
故	-6.45432
中	-6.45506
言	-6.4574
是	-6.46038
陛下	-6.46908
知	-6.48448
出	-6.48552
然	-6.49994
雖	-6.50438
必	-6.50641
民	-6.51128
未	-6.52835
曰	-6.53038
公	-6.55914
下	-6.56641
朕	-6.58026
復	-6.58127
道	-6.58619
明	-6.58895
安	-6.59469
見	-6.61197
應	-6.612
多	-6.613
即	-6.61305
▁	-6.61682
實	-6.61701
正	-6.62352
日	-6.62708
文	-6.65968
欲	-6.66341
三	-6.66799
州	-6.6713
外	-6.67856
内	-6.68111
因	-6.71549
乎	-6.72175
二	-6.72489
分	-6.73998
乃	-6.75477
相	-6.77355
重	-6.77776
前	-6.77921
天下	-6.78179
名	-6.81637
惟	-6.83562
且	-6.83688
議	-6.8384
本	-6.84113
國	-6.85
法	-6.85427
成	-6.85929
既	-6.85994
天	-6.88276
心	-6.88309
生	-6.89759
同	-6.89922
方	-6.90398
定	-6.90905
取	-6.91016
先	-6.91492
命	-6.91805
能	-6.92867
兩	-6.93412
入	-6.94384
後	-6.94535
守	-6.95566
宜	-6.9558
朝廷	-6.95981
四	-6.96276
奏	-6.96571
請	-6.97223
不能	-6.97567
地方	-6.97747
常	-6.98478
子	-6.98484
發	-6.99325
除	-6.99373
數	-7.00082
地	-7.00305
過	-7.00353
深	-7.00686
查	-7.01222
年	-7.01439
聞	-7.01554
親	-7.01753
從	-7.01977
加	-7.01999
夫	-7.02228
立	-7.02679
何	-7.02952
進	-7.03644
舉	-7.03737
以為	-7.04903
平	-7.05235
難	-7.0559
但	-7.06148
不可	-7.06398
開	-7.07126
五	-7.07181
軍	-7.07332
經	-7.08064
盡	-7.08307
任	-7.0844
于	-7.10261
逺	-7.10316
稱	-7.10635
通	-7.1125
馬	-7.118
制	-7.12001
爾	-7.12097
禮	-7.12108
張	-7.12151
陳	-7.1228
去	-7.12823
理	-7.12854
河	-7.13191
/	-7.1372
并	-7.13915
長	-7.14524
家	-7.14688
水	-7.15061
所以	-7.1527
處	-7.15577
爲	-7.16206
之人	-7.16209
著	-7.16324
作	-7.16619
俱	-7.17833
計	-7.18354
據	-7.18815
書	-7.18886
治	-7.19194
近	-7.19403
合	-7.20082
徳	-7.20827
縣	-7.21189
論	-7.21895
歸	-7.23272
凡	-7.23387
山	-7.24142
城	-7.24651
止	-7.24768
謂	-7.25442
遂	-7.25707
思	-7.2598
利	-7.26189
務	-7.26233
将	-7.26255
甚	-7.26773
仍	-7.26857
固	-7.27196
李	-7.27258
少	-7.27615
府	-7.28075
朝	-7.28184
小	-7.28725
備	-7.28909
省	-7.29122
致	-7.29547
報	-7.29657
更	-7.29852
我	-7.30314
來	-7.31074
興	-7.3117
易	-7.3143
求	-7.31827
居	-7.31965
失	-7.32203
意	-7.32905
政	-7.33196
尚	-7.3324
賊	-7.34883
力	-7.35141
到	-7.3517
奉	-7.36336
銀	-7.36732
營	-7.36864
焉	-7.36929
共	-7.36942
善	-7.36964
受	-7.37396
衆	-7.3757
錢	-7.38096
司	-7.38146
再	-7.38622
諸	-7.39665
猶	-7.39995
收	-7.40258
主	-7.40343
原	-7.40516
世	-7.4068
巳	-7.41274
廣	-7.41418
始	-7.41841
清	-7.42123
問	-7.42617
罪	-7.42659
身	-7.42934
六	-7.43094
屬	-7.43268
周	-7.43293
服	-7.4381
起	-7.44597
哉	-7.4485
南	-7.44938
誠	-7.45249
可以	-7.45408
敵	-7.45724
修	-7.45748
差	-7.45879
謀	-7.46112
初	-7.46202
恐	-7.46251
給	-7.46275
動	-7.46313
功	-7.46396
隨	-7.46824
改	-7.46989
聖	-7.47119
職	-7.47504
死	-7.47841
如此	-7.47922
該	-7.48187
私	-7.48312
保	-7.48487
士	-7.48696
係	-7.48771
回	-7.48988
門	-7.49078
君	-7.49173
每	-7.49378
元	-7.49638
並	-7.49938
彼	-7.50123
要	-7.5016
信	-7.50366
學	-7.50471
照	-7.50645
不敢	-7.51092
益	-7.51404
和	-7.51675
食	-7.52166
扵	-7.52367
由	-7.52408
流	-7.52784
土	-7.53065
嚴	-7.53067
大臣	-7.53174
兼	-7.53422
委	-7.53767
新	-7.53818
)	-7.54034
輕	-7.54389
義	-7.545
漢	-7.54876
情	-7.55005
交	-7.55332
運	-7.55913
謹	-7.55989
設	-7.5614
恩	-7.56222
節	-7.56323
直	-7.5634
降	-7.56599
髙	-7.56984
不得	-7.57215
被	-7.57385
西	-7.57785
間	-7.58101
邊	-7.58165
選	-7.58256
至於	-7.58357
便	-7.58661
耳	-7.58902
存	-7.59083
置	-7.59119
州縣	-7.59164
而不	-7.59292
之事	-7.59948
吏	-7.6008
武	-7.60959
補	-7.61227
望	-7.61862
具	-7.62086
鎮	-7.62171
全	-7.62307
賢	-7.62729
東	-7.63048
舊	-7.6324
口	-7.63377
田	-7.64066
樂	-7.64308
納	-7.64437
詔	-7.64474
嵗	-7.64595
就	-7.64643
亂	-7.65054
承	-7.65292
特	-7.65468
江	-7.65575
異	-7.65894
變	-7.66175
賜	-7.6686
風	-7.66863
物	-7.67423
石	-7.67602
封	-7.67891
圖	-7.68299
路	-7.68303
觀	-7.68395
寧	-7.68767
豈	-7.68986
盖	-7.6903
聽	-7.69414
解	-7.69558
惡	-7.69762
海	-7.6986
容	-7.69867
慮	-7.69873
留	-7.70387
察	-7.70494
賞	-7.70723
師	-7.71515
古	-7.71524
乞	-7.71712
戰	-7.71738
犯	-7.7179
之心	-7.7192
是以	-7.71948
次	-7.72238
國家	-7.72832
詳	-7.72985
九	-7.73012
足	-7.73419
金	-7.73718
工	-7.73769
建	-7.73877
云	-7.73919
永	-7.74547
糧	-7.7474
比	-7.74745
告	-7.74889
北	-7.75111
宗	-7.75148
餘	-7.75726
才	-7.76069
還	-7.76241
好	-7.76406
禁	-7.7705
百	-7.77111
忠	-7.77123
德	-7.77338
順	-7.77438
悉	-7.77566
審	-7.77803
役	-7.77808
切	-7.77838
終	-7.77935
首	-7.78036
諭	-7.78211
造	-7.78221
劉	-7.7877
往	-7.79257
撫	-7.79533
萬	-7.79635
幸	-7.79707
送	-7.80107
不知	-7.80228
追	-7.80402
之後	-7.80636
之意	-7.80705
引	-7.80903
廢	-7.80909
神	-7.81064
十	-7.81445
極	-7.81891
費	-7.82247
之時	-7.82257
位	-7.82366
都	-7.82548
㑹	-7.82799
罷	-7.82894
准	-7.83068
陽	-7.83378
貴	-7.83392
光	-7.83482
八	-7.83537
領	-7.83542
帝	-7.83543
濟	-7.8389
皇上	-7.83936
坐	-7.83948
免	-7.84008
厚	-7.84238
許	-7.8426
别	-7.84477
念	-7.84884
獨	-7.85005
獲	-7.85176
須	-7.85186
稍	-7.86894
米	-7.87079
庶	-7.87185
資	-7.87191
度	-7.87201
臣等	-7.87278
傳	-7.875
之處	-7.87674
衛	-7.87789
刑	-7.87864
權	-7.88092
月	-7.88333
化	-7.88502
養	-7.89289
考	-7.8965
調	-7.89701
責	-7.89719
向	-7.89769
以來	-7.90079
廟	-7.90158
教	-7.90557
典	-7.9057
勞	-7.90579
絶	-7.90684
太	-7.90719
久	-7.90721
黄	-7.91317
徒	-7.91378
憂	-7.91553
章	-7.91706
七	-7.91907
勢	-7.9196
科	-7.91979
志	-7.92226
充	-7.92268
減	-7.92273
部	-7.92293
例	-7.92497
仁	-7.92611
急	-7.9262
有司	-7.92732
百姓	-7.92821
視	-7.93278
積	-7.93428
員	-7.93592
良	-7.9425
伊	-7.94283
疑	-7.94304
推	-7.94526
楊	-7.9484
期	-7.95
俟	-7.95193
代	-7.95292
監	-7.95352
依	-7.95366
遣	-7.95396
之所	-7.95755
齊	-7.96404
害	-7.96414
懐	-7.96479
莫	-7.96581
唐	-7.96631
累	-7.96777
結	-7.97201
率	-7.97442
業	-7.97694
專	-7.98267
顧	-7.98838
白	-7.98865
斷	-7.98877
不足	-7.98908
而已	-7.99091
移	-7.99098
䝉	-7.9972
氣	-7.99813
支	-7.99933
漸	-8.00039
户	-8.0021
載	-8.00264
殺	-8.00346
試	-8.01009
夏	-8.01027
然後	-8.01158
克	-8.01393
宫	-8.01655
放	-8.01823
崇	-8.01856
退	-8.01963
赴	-8.01992
遇	-8.02074
勝	-8.02275
来	-8.02473
錢糧	-8.02804
之地	-8.02818
御	-8.02934
辭	-8.03024
體	-8.03106
轉	-8.03463
孝	-8.03578
繼	-8.0366
臨	-8.03693
量	-8.03843
息	-8.03962
敢	-8.04315
宣	-8.04469
老	-8.04578
傷	-8.04675
卒	-8.05065
患	-8.05145
敬	-8.05165
怨	-8.0544
均	-8.05503
習	-8.05536
督	-8.0558
闗	-8.05686
布	-8.05861
反	-8.05903
邉	-8.05905
之間	-8.0597
散	-8.06072
盛	-8.06147
耶	-8.0619
昔	-8.0632
商	-8.06375
疏	-8.0651
召	-8.06699
違	-8.06721
防	-8.06784
恭	-8.06908
威	-8.07258
三年	-8.07406
願	-8.07443
姦	-8.07451
船	-8.07731
待	-8.07878
闕	-8.07931
施行	-8.08377
所謂	-8.09099
之道	-8.09173
管	-8.09277
寛	-8.09412
里	-8.09566
斯	-8.09718
者也	-8.09816
仰	-8.09889
弊	-8.10152
鹽	-8.10172
集	-8.10237
微	-8.10743
擇	-8.11105
汝	-8.1182
况	-8.12202
決	-8.12306
尤	-8.12713
福	-8.12732
京	-8.1279
勤	-8.12957
今日	-8.13069
連	-8.13125
祖	-8.13218
趙	-8.1325
素	-8.13297
増	-8.13724
申	-8.13949
乆	-8.14236
歴	-8.14649
右	-8.14776
亡	-8.14781
官員	-8.14888
兹	-8.14937
案	-8.14942
對	-8.15169
遷	-8.15227
之法	-8.15328
速	-8.15579
丁	-8.15592
俾	-8.16051
供	-8.1612
授	-8.1641
竊	-8.16661
鄉	-8.16684
尊	-8.16874
兵丁	-8.16964
妄	-8.17021
況	-8.17106
革	-8.17141
具奏	-8.17203
郡	-8.175
卿	-8.17546
一切	-8.17754
現在	-8.17787
懼	-8.18046
塞	-8.18062
左	-8.18281
面	-8.18635
天下之	-8.18688
孫	-8.18697
嘗	-8.18926
財	-8.19069
宋	-8.19395
病	-8.19483
有所	-8.19531
聲	-8.19717
敗	-8.19814
强	-8.20108
慶	-8.20159
果	-8.20356
不過	-8.20465
屢	-8.20512
人心	-8.20603
完	-8.2071
按	-8.20733
候	-8.20752
辦	-8.20965
羣	-8.21086
春	-8.2117
戒	-8.2146
氏	-8.21488
署	-8.21499
龍	-8.21773
精	-8.21799
勿	-8.21873
覆	-8.21882
吾	-8.22189
簡	-8.22205
曽	-8.2253
缺	-8.22605
價	-8.22626
接	-8.23009
茍	-8.23091
感	-8.23103
伏	-8.23265
愚	-8.23545
虚	-8.2363
獻	-8.23869
列	-8.24132
示	-8.24316
畏	-8.24317
限	-8.24339
宻	-8.24513
銀兩	-8.24632
無所	-8.2478
優	-8.24941
條	-8.24974
皇	-8.25055
約	-8.25093
也今	-8.25201
總	-8.25398
統	-8.25695
端	-8.2574
允	-8.25868
美	-8.25926
愈	-8.26051
招	-8.2616
危	-8.26161
毎	-8.26355
垂	-8.26584
遺	-8.26686
持	-8.26788
籍	-8.26845
昭	-8.26905
邪	-8.27182
目	-8.27261
達	-8.27304
延	-8.27439
陵	-8.2753
逆	-8.27746
逐	-8.27826
細	-8.2793
小人	-8.28242
號	-8.28304
額	-8.28328
盜	-8.28381
撥	-8.28487
施	-8.28674
辦理	-8.28702
謹奏	-8.29117
關	-8.2946
祭	-8.29478
咸	-8.29529
之言	-8.2966
熟	-8.29917
所有	-8.29925
買	-8.30156
以致	-8.3019
其所	-8.30434
種	-8.30853
殿	-8.30964
秦	-8.30978
夷	-8.30996
指	-8.31042
似	-8.31121
棄	-8.31681
陜西	-8.31889
題	-8.31997
疾	-8.32159
)(	-8.32192
一人	-8.32303
勅	-8.32477
縁	-8.32531
隆	-8.32559
督撫	-8.32638
負	-8.32732
勸	-8.32995
帶	-8.33183
爾等	-8.33316
等處	-8.33326
祖宗	-8.33409
攻	-8.33537
識	-8.33773
干	-8.3393
阿	-8.34097
黨	-8.3413
隂	-8.34227
假	-8.34245
㫖	-8.35166
奏聞	-8.3525
䇿	-8.35405
陞	-8.35689
蓋	-8.35775
真	-8.35871
執	-8.35889
愛	-8.35932
史	-8.35945
器	-8.36104
登	-8.36203
以上	-8.36586
貪	-8.36732
雨	-8.36807
官兵	-8.36888
救	-8.36894
中外	-8.36991
越	-8.37103
之際	-8.37292
窮	-8.37886
嘉	-8.38028
咨	-8.38324
色	-8.38586
借	-8.38731
逃	-8.388
覽	-8.38931
木	-8.39098
左右	-8.3922
誅	-8.39382
富	-8.39565
薄	-8.39677
己	-8.39766
誤	-8.39845
密	-8.39872
聚	-8.3994
之日	-8.4007
究	-8.4015
料	-8.40327
父	-8.41034
最	-8.41063
頗	-8.41586
縱	-8.41871
川	-8.42104
藏	-8.4213
早	-8.42173
附	-8.42243
破	-8.42464
荒	-8.42526
字	-8.42828
奪	-8.43124
祀	-8.43193
未有	-8.43229
遵	-8.43534
唯	-8.43624
何以	-8.43711
效	-8.4391
御史	-8.43961
殊	-8.44075
秋	-8.44139
顯	-8.44286
災	-8.44342
衙門	-8.44546
草	-8.44755
格	-8.44911
性	-8.45226
材	-8.45405
勘	-8.45519
滿	-8.45686
之士	-8.45933
甲	-8.46007
語	-8.46082
薦	-8.46104
魏	-8.46454
適	-8.46496
澤	-8.46625
從前	-8.46721
倉	-8.46789
他	-8.46819
智	-8.47125
折	-8.472
奸	-8.47238
賦	-8.47251
不必	-8.47276
肆	-8.47561
避	-8.47658
巡撫	-8.47764
離	-8.47795
手	-8.48071
徐	-8.48276
臣聞	-8.48525
弱	-8.48553
車	-8.48614
華	-8.48714
雜	-8.4899
臺	-8.49064
而後	-8.49076
擬	-8.49093
戎	-8.49198
内外	-8.49425
録	-8.49505
忽	-8.4954
律	-8.49659
訓	-8.4976
表	-8.49854
不及	-8.49883
寨	-8.50073
足以	-8.50212
循	-8.50285
景	-8.50383
火	-8.50535
禍	-8.50729
天地	-8.50742
廷	-8.50763
頭	-8.50794
情形	-8.51143
抑	-8.51184
嗣	-8.51389
副	-8.51398
呈	-8.51406
言之	-8.51434
官吏	-8.5149
倘	-8.51523
說	-8.51533
詞	-8.51636
上下	-8.51637
室	-8.51649
其餘	-8.52072
必有	-8.52109
儀	-8.52247
欽此	-8.52299
損	-8.52313
於此	-8.52438
君子	-8.525
提	-8.52651
俗	-8.5284
如此則	-8.53371
預	-8.53412
只	-8.53568
驗	-8.53655
官軍	-8.53698
勇	-8.53775
無不	-8.54378
侵	-8.5448
協	-8.54512
諫	-8.54518
二年	-8.54595
為之	-8.54843
記	-8.5485
徃	-8.54915
禄	-8.54943
輔	-8.54948
欺	-8.55024
冒	-8.5503
四方	-8.55223
惠	-8.55542
罰	-8.56014
等語	-8.5623
喜	-8.56333
脩	-8.56681
指揮	-8.56896
等項	-8.56945
曲	-8.5696
等因	-8.57219
伯	-8.57274
㑹同	-8.57279
玉	-8.5741
竭	-8.57418
文武	-8.57436
天子	-8.57603
不為	-8.57635
豐	-8.57685
班	-8.57769
之中	-8.5777
參	-8.5782
獄	-8.58082
築	-8.58152
葢	-8.5824
母	-8.58323
高	-8.58423
一日	-8.5843
講	-8.58528
煩	-8.58598
侯	-8.58745
邑	-8.5877
征	-8.59
晉	-8.59243
市	-8.59249
會	-8.5948
一時	-8.59535
酌	-8.59707
𩔖	-8.59756
辨	-8.59766
眀	-8.59973
不許	-8.59998
庫	-8.60079
赦	-8.60106
江南	-8.60175
界	-8.60201
皇帝	-8.60211
險	-8.60286
苦	-8.60412
具題	-8.60734
慎	-8.60943
歲	-8.61042
寵	-8.61067
楚	-8.61195
刻	-8.61245
説	-8.61302
濫	-8.61333
徴	-8.61393
農	-8.61694
緩	-8.61805
派	-8.61808
淮	-8.61819
空	-8.61926
等官	-8.62109
勉	-8.62151
困	-8.62278
之弊	-8.62316
院	-8.62401
升	-8.62555
幾	-8.6265
雖有	-8.62805
添	-8.62847
稅	-8.62973
衰	-8.63058
確	-8.6308
捐	-8.63341
第	-8.6347
另	-8.63578
令其	-8.63787
賣	-8.63948
榮	-8.6395
予	-8.64027
之計	-8.64058
林	-8.64062
堂	-8.64145
英	-8.64152
助	-8.64156
振	-8.64237
併	-8.64273
有餘	-8.64493
偏	-8.64589
末	-8.64669
繁	-8.64719
不以	-8.6477
式	-8.65168
衣	-8.65175
豫	-8.65224
廵撫	-8.65352
奏請	-8.6551
之罪	-8.6555
堅	-8.65555
拜	-8.65614
畧	-8.65681
冊	-8.65754
羅	-8.65868
梁	-8.66093
暴	-8.6621
抵	-8.66319
儒	-8.66506
雲	-8.66572
京師	-8.66693
靈	-8.66706
昌	-8.66799
七月	-8.66876
印	-8.66917
叅	-8.67161
之數	-8.672
淺	-8.67277
休	-8.67303
質	-8.67416
胡	-8.67479
貢	-8.67539
莫不	-8.67623
曹	-8.67752
博	-8.67803
宰相	-8.67828
可謂	-8.68025
畢	-8.68281
狀	-8.68325
揚	-8.6838
惜	-8.68462
住	-8.68546
飭	-8.68721
千	-8.68722
奉上諭	-8.68797
羣臣	-8.68874
未嘗	-8.68938
課	-8.68947
庸	-8.692
四月	-8.69227
訪	-8.69227
聴	-8.6925
謹奏為	-8.6931
曾	-8.69318
泰	-8.69401
操	-8.69498
付	-8.69548
利害	-8.696
配	-8.69717
族	-8.69775
提督	-8.69804
紀	-8.69838
乾	-8.69932
之民	-8.69953
之外	-8.703
裁	-8.70383
享	-8.70525
之患	-8.70571
賤	-8.70824
番	-8.71043
所奏	-8.71296
怒	-8.71408
五月	-8.7163
覺	-8.71698
星	-8.71727
榖	-8.71732
堤	-8.71794
事竊	-8.71823
惑	-8.7191
人主	-8.72013
旗	-8.7222
境	-8.72226
山東	-8.72274
擢	-8.72443
吳	-8.7246
耕	-8.72504
投	-8.72516
朱	-8.72612
維	-8.72627
頃	-8.72645
各官	-8.7266
忘	-8.72929
催	-8.72972
后	-8.73167
憲	-8.73215
冬	-8.73257
青	-8.73312
乗	-8.73405
太宗	-8.73412
中國	-8.73625
㕘	-8.73628
不勝	-8.73982
綱	-8.73998
總督	-8.74063
六月	-8.74129
聖人	-8.74385
編	-8.74387
房	-8.74829
賴	-8.7515
河南	-8.75165
於是	-8.75238
甘	-8.75331
政事	-8.75392
三月	-8.75537
半	-8.75625
蜀	-8.75767
毋	-8.75845
人之	-8.75989
謝	-8.76055
産	-8.76085
略	-8.76131
竟	-8.76202
上諭	-8.76282
之至	-8.76293
程	-8.76497
屯	-8.766
竒	-8.76725
知其	-8.76984
徵	-8.77023
不同	-8.77026
得以	-8.77084
一二	-8.77242
強	-8.77267
規	-8.77335
争	-8.77385
一面	-8.77398
夜	-8.7749
機	-8.77512
寳	-8.77561
戸	-8.77596
湖	-8.77872
者亦	-8.77907
料理	-8.78025
肅	-8.78061
韓	-8.7811
看	-8.7826
冀	-8.78392
佐	-8.78811
牧	-8.78847
消	-8.79173
自古	-8.79214
吏部	-8.79421
將軍	-8.79449
勲	-8.79682
先帝	-8.79798
屈	-8.79891
行之	-8.7993
謂之	-8.79937
懷	-8.79949
爵	-8.79996
苗	-8.80072
亦有	-8.80262
隠	-8.80425
沙	-8.80478
儲	-8.80516
一事	-8.80597
以此	-8.80602
尚書	-8.80753
鑒	-8.80778
横	-8.80785
康	-8.8082
浮	-8.81028
批	-8.81029
暫	-8.81043
吉	-8.81119
子孫	-8.8123
耗	-8.8145
也臣	-8.81466
蒙	-8.81572
若不	-8.81587
二月	-8.81681
恃	-8.81823
稽	-8.8195
野	-8.82012
民間	-8.82036
十二月	-8.82186
㣲	-8.82216
豈不	-8.82228
寜	-8.82311
各處	-8.82414
遽	-8.82565
靖	-8.82621
廵	-8.8265
人情	-8.82731
帥	-8.82796
滅	-8.8292
壊	-8.83225
一年	-8.83323
伐	-8.83332
萬一	-8.83375
擾	-8.83515
随	-8.83988
女	-8.84004
不當	-8.84139
邦	-8.8426
厯	-8.84397
乏	-8.84445
二十	-8.84507
使之	-8.84669
元年	-8.84698
茶	-8.84999
事宜	-8.85047
如何	-8.85096
庭	-8.85117
盈	-8.85133
銷	-8.85135
牛	-8.85163
各屬	-8.85178
停	-8.85295
以来	-8.85378
税	-8.85557
尋	-8.85565
十月	-8.85628
躬	-8.85646
却	-8.85935
蘇	-8.85966
檢	-8.86002
江西	-8.8605
者皆	-8.86054
現	-8.8611
黜	-8.86118
懲	-8.86147
寄	-8.8646
形	-8.86476
寺	-8.86578
衝	-8.86605
歳	-8.86681
欽	-8.86736
捕	-8.86975
布政使	-8.87052
其事	-8.87097
貫	-8.87118
九月	-8.87124
也夫	-8.87176
詢	-8.87178
廣東	-8.87253
所屬	-8.87352
或有	-8.87393
出於	-8.87437
釋	-8.87545
宿	-8.87623
寇	-8.87644
某	-8.87718
郊	-8.87798
杜	-8.87899
鄭	-8.87999
虛	-8.88101
嗣後	-8.88111
擊	-8.88163
而無	-8.88218
季	-8.88296
之初	-8.88525
明白	-8.88549
增	-8.8871
虞	-8.88846
掌	-8.88892
聖明	-8.88924
援	-8.89
僅	-8.89138
専	-8.89141
十一月	-8.89283
品	-8.89306
騎	-8.89425
其人	-8.89445
太祖	-8.89485
亟	-8.8953
未能	-8.89772
守備	-8.89845
俸	-8.89847
慈	-8.89881
巧	-8.89913
討	-8.89931
通行	-8.89935
貨	-8.89949
穀	-8.89966
八月	-8.90048
希	-8.90054
卑	-8.901
輸	-8.90349
不行	-8.90447
此等	-8.90455
孤	-8.90487
校	-8.90545
哀	-8.90639
巡	-8.907
落	-8.90757
阻	-8.9114
叛	-8.91233
風俗	-8.91281
貧	-8.9132
輙	-8.9168
飛	-8.91713
一員	-8.9191
漕	-8.91945
項	-8.92056
麥	-8.92103
各省	-8.92217
雲南	-8.9235
源	-8.92355
盜賊	-8.9241
不可不	-8.92459
魯	-8.92485
耳目	-8.925
術	-8.92526
春秋	-8.92538
旱	-8.92653
酒	-8.92681
諸臣	-8.9275
侍	-8.92776
恤	-8.92961
丈	-8.93007
孰	-8.93073
亦不	-8.93122
象	-8.93218
警	-8.9326
繫	-8.93265
河北	-8.93287
正月	-8.93321
痛	-8.93361
當時	-8.9345
擅	-8.93515
𢎞	-8.93656
藉	-8.93669
詐	-8.93692
厥	-8.93717
之恩	-8.93869
弗	-8.93971
用之	-8.94035
効	-8.94187
續	-8.94236
不肯	-8.94347
郭	-8.94399
収	-8.94446
趨	-8.94615
誰	-8.9462
之員	-8.94743
粟	-8.94817
監司	-8.94823
錫	-8.94825
據實	-8.9485
兵部	-8.94895
慰	-8.94967
場	-8.9502
爭	-8.95128
之内	-8.95228
之勢	-8.95251
乘	-8.95546
燕	-8.95553
睿	-8.95835
衞	-8.95863
前來	-8.95925
飾	-8.9597
注	-8.96048
滋	-8.96055
寒	-8.9611
了	-8.96158
五十	-8.96209
温	-8.96219
伊等	-8.96222
標	-8.96396
否	-8.96633
之理	-8.96763
祥	-8.96975
本部	-8.9721
舍	-8.97407
盗	-8.97767
豈可	-8.97916
讀	-8.97946
决	-8.97978
查得	-8.98019
索	-8.98038
襲	-8.9815
一體	-8.98265
之功	-8.98306
悔	-8.98332
堪	-8.98601
工程	-8.98668
不足以	-8.98822
因循	-8.98844
藩	-8.98877
福建	-8.98897
迎	-8.98901
又有	-8.98953
遠	-8.99084
尚未	-8.99119
勵	-8.99292
餉	-8.99302
將來	-8.9944
普	-8.99483
蕃	-8.99486
之徒	-8.99571
雄	-8.99617
遲	-8.99619
寡	-8.99628
收成	-8.99706
拘	-8.99788
策	-8.99833
蔽	-8.9989
古之	-8.99909
懇	-8.99944
倫	-9.00015
知之	-9.00095
逸	-9.00237
議者	-9.00436
其間	-9.00472
酌量	-9.0057
此事	-9.00655
如是	-9.00713
不然	-9.0083
之用	-9.00851
激	-9.00871
小民	-9.00903
較	-9.00976
大小	-9.01045
占	-9.01122
寸	-9.01136
事務	-9.0129
汛	-9.01468
底	-9.01472
之禮	-9.01607
逹	-9.01701
已經	-9.01705
以備	-9.0186
殘	-9.01873
毁	-9.0203
得人	-9.02088
至今	-9.02152
禹	-9.02177
陸	-9.02181
殷	-9.02243
前項	-9.02258
進士	-9.02319
傾	-9.02322
囘	-9.02366
人君	-9.02372
洪	-9.0239
布政司	-9.02413
膺	-9.02552
浙江	-9.02655
郎	-9.02925
類	-9.03107
謬	-9.03173
人等	-9.03363
銅	-9.0348
祗	-9.03501
誣	-9.03556
分别	-9.03711
茂	-9.03799
近日	-9.03931
惟陛下	-9.03988
頒	-9.04053
兇	-9.04064
之義	-9.04109
奮	-9.04152
的	-9.04216
惟有	-9.04287
勒	-9.04508
前後	-9.04619
塘	-9.04662
敵人	-9.04674
總兵官	-9.04684
敕	-9.04727
閲	-9.05028
册	-9.05038
不致	-9.05145
父母	-9.05164
斥	-9.05265
用兵	-9.05557
其中	-9.05817
甞	-9.05939
無事	-9.06236
符	-9.06237
之兵	-9.0625
啓	-9.06372
背	-9.06396
育	-9.06411
震	-9.06903
以後	-9.07061
聖主	-9.07137
不便	-9.07507
昨	-9.07524
是非	-9.07537
一帶	-9.07723
不至	-9.07736
輕重	-9.07833
圗	-9.07917
靡	-9.07965
旣	-9.07983
客	-9.08252
履	-9.08268
貯	-9.08304
如有	-9.08313
邀	-9.08334
故事	-9.08424
署理	-9.08472
詩	-9.08653
四年	-9.08762
奔	-9.0892
之制	-9.08951
託	-9.08974
弟	-9.09015
無以	-9.0917
者必	-9.09214
之任	-9.09299
虧空	-9.09336
聖訓	-9.09382
觧	-9.0951
每年	-9.0961
根	-9.09695
在於	-9.0971
陷	-9.09779
吕	-9.09794
一旦	-9.09803
畫	-9.09952
其言	-9.10013
十分	-9.10161
堯	-9.10295
䘮	-9.10431
募	-9.10532
荷	-9.10588
忍	-9.10644
以下	-9.10807
也陛下	-9.10843
遭	-9.1085
姑	-9.10873
露	-9.1089
途	-9.10958
庶幾	-9.11146
六十	-9.11151
人員	-9.11213
陸續	-9.11273
五年	-9.11335
四川	-9.11517
䕶	-9.11534
剛	-9.11617
可也	-9.11626
賞罰	-9.11628
辦事	-9.1172
隔	-9.11775
虧	-9.11854
之費	-9.11974
輒	-9.11975
莊	-9.12032
驅	-9.12038
皇考	-9.12039
五百	-9.12158
諭㫖	-9.12361
幹	-9.12371
舟	-9.12416
斗	-9.12589
太平	-9.1266
倍	-9.12701
我皇上	-9.12825
歟	-9.12867
欠	-9.12914
泉	-9.13124
照例	-9.13311
敏	-9.1338
驕	-9.13386
所當	-9.13448
曠	-9.13519
不可以	-9.13523
執政	-9.13564
諸侯	-9.13617
米價	-9.13649
舜	-9.13695
旨	-9.13776
倚	-9.13788
彰	-9.13814
軍民	-9.13825
往往	-9.13879
不復	-9.13892
後世	-9.13934
禀	-9.13971
序	-9.13974
竝	-9.13978
所在	-9.14113
烏	-9.14242
堡	-9.14354
聖恩	-9.14358
不忍	-9.14362
范	-9.1439
打	-9.14416
二人	-9.14495
者有	-9.14545
其後	-9.1475
之官	-9.14866
斬	-9.14937
偽	-9.14952
四海	-9.1497
贓	-9.14999
苖	-9.15016
壩	-9.15038
裕	-9.15143
處分	-9.1517
懸	-9.15246
相應	-9.15253
然而	-9.15271
匹	-9.15296
之例	-9.1543
難以	-9.15475
仁宗	-9.15513
四十	-9.15536
該部	-9.15818
前往	-9.15846
户部	-9.16001
壯	-9.16069
拏	-9.16134
乖	-9.16162
祠	-9.1617
傅	-9.16195
走	-9.16197
恵	-9.16515
述	-9.16532
尚有	-9.16548
衡	-9.1659
採	-9.16629
黙	-9.16716
禦	-9.16725
以至	-9.16857
咎	-9.16998
為此	-9.17103
之利	-9.17255
需	-9.173
喪	-9.17387
䝉皇上	-9.17428
馬匹	-9.17466
辰	-9.17848
削	-9.17875
同日又奏為	-9.17911
奏稱	-9.17922
跡	-9.17983
愧	-9.17997
廣西	-9.18038
同知	-9.18302
之家	-9.18344
蓄	-9.18357
民力	-9.18477
踰	-9.18563
到任	-9.18657
貽	-9.18709
蔡	-9.18734
即行	-9.18849
契丹	-9.18859
緩急	-9.18964
尺	-9.19034
社稷	-9.19072
局	-9.19089
此皆	-9.19174
疎	-9.19247
總兵	-9.19288
出入	-9.19385
卷	-9.19397
也故	-9.19501
顔	-9.19604
感激	-9.19794
奉㫖	-9.19945
兵馬	-9.20014
内有	-9.20045
願陛下	-9.20264
隱	-9.20275
純	-9.2041
君臣	-9.20448
天恩	-9.20472
基	-9.20567
戍	-9.20594
旁	-9.20632
知府	-9.20635
旋	-9.20688
導	-9.20713
為陛下	-9.20738
創	-9.20791
若干	-9.20798
今年	-9.20815
中書	-9.20834
臣愚	-9.20843
洋	-9.20874
罔	-9.20994
仲	-9.21009
無益	-9.21011
訖	-9.2112
國之	-9.21178
奏摺	-9.2118
閘	-9.21355
采	-9.2147
把總	-9.21537
言者	-9.21611
兒	-9.21673
誘	-9.21738
用人	-9.21861
今後	-9.21872
以示	-9.21905
督臣	-9.2196
撫臣	-9.22079
盤	-9.22101
駕	-9.22145
驛	-9.22249
戴	-9.22293
雅	-9.22431
朔	-9.22433
夀	-9.22441
之下	-9.22659
鼎	-9.22663
沮	-9.22821
賑	-9.22917
以爲	-9.22946
南京	-9.22957
不如	-9.22978
士大夫	-9.23155
之政	-9.23226
百官	-9.23268
一併	-9.2327
齎	-9.23347
錯	-9.23352
民之	-9.23359
三千	-9.23381
遣使	-9.23489
譽	-9.23522
属	-9.23544
俊	-9.23628
單	-9.23663
甫	-9.23709
之則	-9.23731
䟽	-9.23899
巻	-9.2423
臣恐	-9.24238
欵	-9.2434
皆有	-9.24436
秩	-9.24468
緝	-9.2454
孔	-9.24572
不在	-9.24574
音	-9.24654
之情	-9.24665
可否	-9.24741
之術	-9.24771
之職	-9.24781
刀	-9.24816
叙	-9.24878
閩	-9.24957
諸路	-9.24973
斂	-9.25009
雷	-9.25023
替	-9.25103
呉	-9.25198
屬員	-9.2528
叔	-9.25283
静	-9.25389
必須	-9.25501
知縣	-9.25502
厲	-9.25579
繳	-9.25628
佞	-9.25682
馳	-9.25687
十二	-9.25755
烈	-9.25853
判	-9.25928
則有	-9.26003
渉	-9.26077
欽定四庫全書	-9.26084
與之	-9.2612
奏明	-9.26133
家人	-9.26143
為國	-9.26215
宗廟	-9.26284
包	-9.26302
艱	-9.26344
僃	-9.26417
不合	-9.26498
然則	-9.26672
地方官	-9.26818
玩	-9.26932
虎	-9.27036
之名	-9.27048
日月	-9.27067
報稱	-9.27166
也然	-9.27175
貳	-9.27207
之故	-9.27263
雪	-9.27277
湖廣	-9.27345
查明	-9.27427
各有	-9.2745
縣知縣	-9.27494
古者	-9.27537
遊	-9.2756
疲	-9.27616
並無	-9.27668
穆	-9.27999
子弟	-9.28011
伏乞	-9.28133
未必	-9.28157
虜	-9.28216
花	-9.28293
紹	-9.28296
圍	-9.28332
通省	-9.28404
愆	-9.28531
所言	-9.28658
鈔	-9.28675
藥	-9.28676
八十	-9.28725
幽	-9.28887
彌	-9.28908
秉	-9.28953
其心	-9.29085
十年	-9.29324
階	-9.2946
宴	-9.29484
㡬	-9.29531
状	-9.29647
射	-9.29672
直隸	-9.29751
道路	-9.29781
潛	-9.29822
慕	-9.30143
公議	-9.30163
各該	-9.30332
短	-9.30351
奉行	-9.3041
窺	-9.30436
郡縣	-9.30438
挑	-9.30443
太子	-9.3051
伍	-9.30559
禮部	-9.30579
練	-9.30599
游	-9.30608
湖南	-9.30671
扣	-9.30682
勾	-9.30896
七十	-9.30959
在案	-9.31009
原任	-9.3103
三百	-9.31048
秀	-9.31107
得雨	-9.31171
憤	-9.31186
六年	-9.31234
水旱	-9.3126
瑞	-9.31283
理合	-9.31341
殆	-9.31407
數目	-9.31442
山西	-9.31445
法度	-9.31519
閣	-9.31535
二三	-9.31573
得其	-9.31586
貸	-9.31593
兩零	-9.31678
一百	-9.31685
冦	-9.31697
不堪	-9.31705
忌	-9.31746
廉	-9.32026
𫝊	-9.32054
割	-9.32121
辱	-9.32205
儻	-9.32222
斤	-9.32292
探	-9.32335
聖心	-9.32418
欽遵	-9.32423
遍	-9.32439
措	-9.32525
疋	-9.32535
亦無	-9.32609
古今	-9.32629
斟酌	-9.3265
堯舜	-9.32737
委員	-9.329
湯	-9.32939
對曰	-9.3308
頓	-9.33124
無可	-9.33147
社	-9.33155
租	-9.3317
孔子	-9.33206
凡有	-9.33232
閱	-9.33238
未免	-9.33354
人材	-9.33448
進退	-9.33573
姓	-9.33613
訊	-9.34109
恕	-9.34123
不肖	-9.34156
認	-9.34175
豪	-9.34201
捨	-9.34204
蕭	-9.34224
沈	-9.34624
村	-9.34699
敷	-9.3472
祈	-9.34746
彊	-9.34771
則是	-9.35081
三十	-9.352
等情	-9.35201
留心	-9.35308
大夫	-9.35314
值	-9.35408
又曰	-9.35452
州府	-9.35496
核	-9.35586
駐劄	-9.35624
一路	-9.35645
通判	-9.35686
迹	-9.35808
偶	-9.35814
董	-9.35837
一一	-9.35898
甚多	-9.35941
帛	-9.36075
亷	-9.36149
安危	-9.36197
凶	-9.36224
隻	-9.36229
田文鏡	-9.36249
不得不	-9.36422
踈	-9.36492
之大	-9.36519
有功	-9.36562
笑	-9.36567
鼓	-9.36574
以及	-9.36622
在京	-9.36701
不敷	-9.36733
敦	-9.36765
學士	-9.36801
蠻	-9.36816
屏	-9.36855
魚	-9.3699
擒	-9.37018
人才	-9.37023
二千	-9.37037
而為	-9.37194
謗	-9.37336
事體	-9.37416
慢	-9.3766
妻	-9.37661
逐一	-9.37672
自然	-9.37767
仕	-9.37788
臣下	-9.37804
雍正六年	-9.37807
都御史	-9.37852
謙	-9.37855
南北	-9.37876
緣	-9.37886
徑	-9.37941
績	-9.38086
聖徳	-9.38124
矜	-9.38245
二百	-9.38281
聖意	-9.38344
拒	-9.38444
浙	-9.38455
驚	-9.38474
俱係	-9.38502
洞	-9.38626
兆	-9.38656
儉	-9.38707
之論	-9.38708
民生	-9.38731
其罪	-9.38742
紙	-9.38763
另行	-9.38766
隙	-9.38824
河東	-9.38983
眷	-9.38991
賈	-9.39044
匪	-9.39073
超	-9.39101
牌	-9.39124
弼	-9.3913
竭力	-9.39151
屋	-9.3916
以聞	-9.39273
篤	-9.39284
徇	-9.393
抗	-9.39318
効力	-9.3932
籌	-9.39388
宇	-9.39431
措置	-9.3944
諌	-9.3944
四百	-9.39661
州郡	-9.39667
者則	-9.39772
遊擊	-9.39813
之所以	-9.39827
奉聖㫖	-9.39888
漏	-9.39943
不容	-9.39952
事理	-9.39975
晚	-9.40018
題請	-9.40219
鄂爾泰	-9.40227
副使	-9.40283
古人	-9.40294
丹	-9.4032
雍正五年	-9.4034
掩	-9.40362
醫	-9.40423
請㫖	-9.40426
豈有	-9.40462
淵	-9.4047
似此	-9.40529
之風	-9.40699
緊要	-9.4076
閒	-9.40777
蕩	-9.40832
即位	-9.4084
肯	-9.41051
加意	-9.4106
各州縣	-9.41098
雍正七年	-9.41184
恨	-9.41197
鄙	-9.41201
以待	-9.41243
井	-9.41339
釐	-9.41399
在外	-9.41417
歩	-9.41612
所宜	-9.41761
護	-9.41811
柔	-9.4184
父子	-9.4185
士卒	-9.41882
嚴加	-9.4198
摺	-9.42021
不時	-9.42057
遵行	-9.42091
昏	-9.42161
見在	-9.42253
劾	-9.42292
事例	-9.42435
啟	-9.42441
也若	-9.42562
詔書	-9.4261
呼	-9.42638
合無	-9.42727
所得	-9.42796
算	-9.42817
去後	-9.42915
冠	-9.42926
硃批	-9.43058
是也	-9.43183
勑	-9.43189
介	-9.43223
之憂	-9.43346
鍾	-9.43411
任内	-9.43417
蠧	-9.43418
委任	-9.43487
生事	-9.43508
亦可	-9.43558
朕意	-9.43572
人民	-9.43581
而又	-9.43671
掠	-9.43694
查勘	-9.43711
厭	-9.4373
又據	-9.43759
巴	-9.43871
瀆	-9.43938
輩	-9.43966
冗	-9.43967
本官	-9.44056
曉	-9.44065
蘭	-9.44121
艱難	-9.44276
㸃	-9.44277
従	-9.44282
敎	-9.44318
賀	-9.44344
嫌	-9.44389
筆	-9.44436
宥	-9.4447
六百	-9.446
俯	-9.44646
那	-9.4465
之盛	-9.44871
寧夏	-9.44873
前日	-9.44877
再行	-9.44966
之志	-9.45
枉	-9.45036
所見	-9.45043
不免	-9.45066
釁	-9.45107
夙夜	-9.45115
有以	-9.45133
千里	-9.45237
之說	-9.45443
迫	-9.45467
徧	-9.45477
辟	-9.45532
以謂	-9.4559
數年	-9.45626
憑	-9.45661
閉	-9.45664
拔	-9.45695
之不	-9.45699
未盡	-9.45814
齒	-9.45905
粮	-9.46027
厰	-9.46043
刑部	-9.46056
恱	-9.46058
寢	-9.46101
訴	-9.46111
之至意	-9.46168
伸	-9.46419
池	-9.46422
舉行	-9.46503
聞之	-9.46612
給事中	-9.46663
議論	-9.46664
怠	-9.46726
頻	-9.46755
清查	-9.47011
紀綱	-9.47048
𤣥	-9.47137
攸	-9.47179
舎	-9.47206
渠	-9.47243
臣竊	-9.47278
鮮	-9.47338
貴州	-9.47377
零	-9.47607
宰	-9.47704
事件	-9.47709
宏	-9.47749
拏獲	-9.47757
伏念	-9.47783
公私	-9.47797
區區	-9.47879
前去	-9.48025
浸	-9.48289
以前	-9.48345
内地	-9.48371
亮	-9.48384
行事	-9.48404
於上	-9.48409
僻	-9.48427
至于	-9.48479
辯	-9.48547
矣然	-9.4863
展	-9.48648
逺近	-9.48681
狂	-9.48706
黎	-9.48718
往來	-9.489
該管	-9.48908
可用	-9.4891
滯	-9.49042
加以	-9.4905
歌	-9.49093
目前	-9.49146
實心	-9.49203
大學士	-9.4921
估	-9.49244
襄	-9.49265
談	-9.49277
甘肅	-9.49304
諒	-9.4931
聼	-9.49314
𠞰	-9.49317
本年	-9.49387
元祐	-9.49396
誦	-9.49406
為人	-9.49513
妃	-9.49548
人人	-9.4957
之實	-9.49781
一案	-9.49882
不等	-9.49905
貶	-9.49954
其實	-9.49958
之説	-9.49988
藝	-9.49999
逮	-9.50035
東南	-9.5009
萬世	-9.50207
三代	-9.50358
之資	-9.50364
換	-9.50395
焚	-9.50437
不宜	-9.50456
馭	-9.50531
排	-9.50564
直𨽻	-9.50684
哨	-9.50702
若有	-9.50868
陛下之	-9.50872
錄	-9.50888
府屬	-9.50933
雍正四年	-9.51021
見其	-9.51024
而行	-9.51037
搶	-9.51124
疆	-9.51205
尹	-9.51319
匿	-9.51322
園	-9.51336
席	-9.51337
溢	-9.51347
未經	-9.51352
朋黨	-9.51356
大事	-9.51363
朝夕	-9.51407
祚	-9.51418
萌	-9.5145
漫	-9.51467
今日之	-9.51623
營伍	-9.51624
賑濟	-9.51802
婦	-9.51844
駐	-9.51865
暗	-9.51936
舞	-9.52043
潮	-9.52067
矣臣	-9.52213
之謀	-9.52295
彼此	-9.5235
旌	-9.52372
欽此欽遵	-9.52384
生靈	-9.52507
治罪	-9.52526
孟	-9.52596
祖宗之	-9.52631
遏	-9.52734
畝	-9.52814
鎭	-9.52846
至公	-9.529
者乎	-9.53031
去年	-9.53084
驟	-9.533
三司	-9.53307
皇后	-9.53462
實為	-9.53508
橋	-9.53542
至誠	-9.53571
旦	-9.53705
設法	-9.53715
侍郎	-9.53716
未敢	-9.53738
岳	-9.5376
寃	-9.53878
也且	-9.53906
弛	-9.53945
祐	-9.54086
友	-9.54163
財用	-9.54172
隂陽	-9.54219
之責	-9.54284
答	-9.54307
臺諫	-9.54309
奬	-9.54367
陋	-9.54409
黄河	-9.54446
哲	-9.54479
八年	-9.54482
虐	-9.54697
簿	-9.54729
將帥	-9.54804
逼	-9.54891
處置	-9.54922
枝	-9.5494
惟是	-9.55003
補授	-9.55007
徙	-9.55067
柄	-9.55071
有益	-9.55105
元昊	-9.55135
現今	-9.55146
公事	-9.55175
上司	-9.55286
祿	-9.55315
宗社	-9.55358
庻	-9.55507
搜	-9.55508
樹	-9.55548
巨	-9.55554
糾	-9.55595
之變	-9.55631
彦	-9.55848
等事	-9.55895
成功	-9.55939
快	-9.56017
被水	-9.56084
糴	-9.56152
五六	-9.56222
謨	-9.56224
之失	-9.56319
官司	-9.56343
褒	-9.56357
粗	-9.56395
伏望陛下	-9.56421
之才	-9.56457
刺	-9.56516
糶	-9.56547
販	-9.56589
鎮守	-9.56604
公曰	-9.56719
甚屬	-9.56767
侍從	-9.56875
之餘	-9.56881
押	-9.57024
不用	-9.57081
嚴飭	-9.5719
之議	-9.57191
冝	-9.57333
三四	-9.57335
鄧	-9.57349
邇	-9.57354
聖諭	-9.57535
引見	-9.57587
黔	-9.57615
撰	-9.57685
不相	-9.57717
溝	-9.57754
綏	-9.57758
伏望聖慈	-9.57771
上天	-9.57785
奏報	-9.5795
秉公	-9.58032
國用	-9.58073
蹈	-9.58085
朕心	-9.58108
雍正三年	-9.58113
九年	-9.58147
苛	-9.58203
卜	-9.58237
逾	-9.58311
準	-9.58336
三省	-9.58339
頂	-9.58439
交與	-9.5865
之路	-9.58684
曉諭	-9.58703
天意	-9.58719
歎	-9.58786
之衆	-9.58791
鴻	-9.58839
雍正二年	-9.58846
湏	-9.58881
帝王	-9.59014
歡	-9.5903
粤	-9.59057
副將	-9.59078
年羮堯	-9.59096
寫	-9.59117
昧	-9.59118
豆	-9.59354
填	-9.59373
莫若	-9.5939
陶	-9.59409
頌	-9.5942
貟	-9.5947
次第	-9.59488
稍有	-9.5949
者不	-9.5951
本朝	-9.59517
駭	-9.59533
號令	-9.59546
稽查	-9.59558
赤	-9.5959
桑	-9.59621
兩省	-9.59658
得失	-9.59744
公卿	-9.599
有無	-9.59906
不法	-9.59966
河道	-9.59999
束	-9.60032
倖	-9.60082
側	-9.60138
臣伏見	-9.60254
之䇿	-9.6027
九十	-9.6028
䖏	-9.60296
府知府	-9.60321
植	-9.60393
未聞	-9.60395
蠲	-9.60408
而不能	-9.60419
居官	-9.60444
由是	-9.6049
初一日	-9.60537
年間	-9.6062
各營	-9.60683
悉心	-9.60683
七年	-9.60698
上曰	-9.60699
給與	-9.60793
攝	-9.60814
矣今	-9.60825
書曰	-9.60926
羊	-9.60931
不惟	-9.60965
潔	-9.6097
遇有	-9.61037
血	-9.61044
明堂	-9.61071
敢不	-9.61096
五千	-9.61105
彭	-9.61122
僭	-9.61156
館	-9.61178
哈	-9.61204
爰	-9.61394
聖慈	-9.61471
十五日	-9.61537
悦	-9.6155
毒	-9.61591
之重	-9.61739
宸	-9.61803
不言	-9.61856
檄	-9.61915
丞	-9.61921
角	-9.61968
於民	-9.62119
伏望	-9.62164
恒	-9.6222
猷	-9.62269
方今	-9.62376
丕	-9.62428
仇	-9.62462
證	-9.62465
毛	-9.62475
覩	-9.62521
恣	-9.6258
夲	-9.62618
香	-9.6262
𤼵	-9.62632
劄	-9.62648
革職	-9.62667
兄	-9.62696
定例	-9.62718
酬	-9.62731
臣願陛下	-9.6278
之物	-9.62805
知州	-9.62807
叨	-9.62856
匠	-9.62971
皇太后	-9.62971
座	-9.62997
情由	-9.62999
峻	-9.63082
沒	-9.63089
健	-9.63093
省城	-9.63149
淳	-9.6317
僉	-9.6323
覆奏	-9.63243
所請	-9.63327
抱	-9.63383
兵民	-9.63409
混	-9.63538
一道	-9.63639
土司	-9.63641
前代	-9.63731
根本	-9.63745
紅	-9.6381
戮	-9.63864
銜	-9.6387
宗室	-9.63985
佑	-9.64001
碩	-9.64014
饑	-9.64054
苑	-9.64089
潰	-9.64136
把	-9.64178
水勢	-9.64279
起程	-9.64294
雇	-9.64318
鋒	-9.64389
敝	-9.6439
中原	-9.64423
天下幸甚	-9.64428
鳯	-9.64433
安石	-9.64501
葬	-9.64503
二麥	-9.64533
間有	-9.64556
伏見	-9.64642
帖	-9.64701
互相	-9.64721
看得	-9.64789
謁	-9.6493
馮	-9.6493
加恩	-9.64948
管理	-9.64954
就近	-9.64965
朋	-9.64989
天心	-9.65
矢	-9.65018
災異	-9.6502
諭旨	-9.65024
沛	-9.6508
無異	-9.65121
淹	-9.65122
近者	-9.65231
其意	-9.65268
按察使	-9.6528
佛	-9.65352
渡	-9.65374
截	-9.6538
扶	-9.65395
生民	-9.65432
踐	-9.65436
贊	-9.65454
之𩔖	-9.6549
二十日	-9.65522
監察御史	-9.65604
親王	-9.65621
悍	-9.65719
先後	-9.65785
整	-9.65791
懿	-9.65831
其有	-9.66016
大將軍	-9.66018
人皆	-9.66051
戚	-9.66053
一言	-9.66073
今嵗	-9.66102
約束	-9.66196
逢	-9.662
讎	-9.66229
槩	-9.66304
故也	-9.66366
使人	-9.66391
衛所	-9.66412
恥	-9.66413
差遣	-9.6647
鄰	-9.66484
雍	-9.66488
而巳	-9.66494
拾	-9.66519
憚	-9.66586
嘉靖	-9.66629
荆	-9.66716
十一	-9.66739
壞	-9.66741
立法	-9.66746
洛	-9.66761
旬	-9.66847
附近	-9.66849
軍需	-9.6687
仗	-9.66879
環	-9.66893
今之	-9.66895
海内	-9.67005
此乃	-9.67052
競	-9.67144
太監	-9.67293
飲	-9.67372
未可	-9.67385
軍士	-9.67414
之誠	-9.67425
播	-9.67447
囚	-9.67461
竄	-9.67537
㫁	-9.67569
務期	-9.67574
羌	-9.67591
轉運使	-9.67602
不問	-9.67726
封疆	-9.67814
之君	-9.67884
平日	-9.67901
未甞	-9.67942
盡心	-9.67951
洽	-9.67964
而天下	-9.68102
再三	-9.68161
其勢	-9.68221
之子	-9.68242
級	-9.68274
九卿	-9.68508
挾	-9.68513
誡	-9.68521
飬	-9.68547
一千	-9.68638
僥倖	-9.68653
翼	-9.68658
頑	-9.68693
康熙	-9.68709
七八	-9.6871
愛民	-9.68717
豈能	-9.68744
自有	-9.68862
崔	-9.68928
台	-9.68951
遜	-9.69061
臣謂	-9.69134
深入	-9.69135
禁止	-9.69199
互	-9.69218
以資	-9.69271
姓名	-9.69309
訟	-9.69312
裏	-9.69392
取之	-9.69416
陳奏	-9.69429
何所	-9.6946
仍令	-9.69499
諱	-9.69521
吏治	-9.69539
兄弟	-9.69567
頼	-9.69595
周公	-9.69788
宅	-9.69815
十五	-9.69896
而行之	-9.69904
未及	-9.69951
偷	-9.69957
駁	-9.69982
骨	-9.70014
之主	-9.70026
等日	-9.70296
勉之	-9.70313
畜	-9.70315
葉	-9.70328
聰明	-9.70374
庶㡬	-9.70381
數十	-9.70417
其弊	-9.70446
譏	-9.70447
無窮	-9.70516
之要	-9.70614
徽	-9.70641
都察院	-9.70652
不易	-9.7068
壽	-9.70681
旅	-9.70716
盟	-9.70724
治道	-9.70747
也而	-9.70756
不加	-9.70917
之害	-9.70917
而不知	-9.70984
者多	-9.70993
隄	-9.71073
杖	-9.71119
豫省	-9.71258
是故	-9.7127
陜	-9.71355
輿	-9.71371
夕	-9.71379
也又	-9.71478
之力	-9.71555
不但	-9.71571
之上	-9.7163
岸	-9.71667
塵	-9.71683
贈	-9.71686
河工	-9.71724
祇	-9.71735
文王	-9.7181
諸州	-9.71883
刦	-9.7193
讓	-9.71957
不顧	-9.71983
牽	-9.72045
俱各	-9.72055
實在	-9.72096
未完	-9.721
幸甚	-9.72116
條奏	-9.72151
詰	-9.72153
直言	-9.72224
耻	-9.72246
𢎞治	-9.72277
壇	-9.72306
員缺	-9.72381
會同	-9.72505
内閣	-9.72506
照舊	-9.72536
守令	-9.72586
廢弛	-9.72631
至此	-9.72632
妨	-9.72686
件	-9.72757
妥	-9.72761
不一	-9.72788
詭	-9.72853
國家之	-9.72854
廹	-9.72864
最為	-9.72987
西北	-9.73002
大體	-9.73084
而下	-9.73112
具摺	-9.73122
法令	-9.73123
議處	-9.73177
未見	-9.73181
戸部	-9.73259
纔	-9.7329
千總	-9.73316
籌畫	-9.73448
以便	-9.73452
十九日	-9.73466
一名	-9.73466
𨽻	-9.73482
胥	-9.73721
可行	-9.73759
先王	-9.73778
七百	-9.73814
之氣	-9.73835
有罪	-9.73882
之禍	-9.73894
十六日	-9.7394
舉人	-9.74008
畆	-9.74117
不出	-9.74135
欣	-9.74182
庇	-9.74212
於天下	-9.74233
為害	-9.74247
鐵	-9.74284
器械	-9.74288
篇	-9.74297
聖㫖	-9.744
初六日	-9.74486
童	-9.74555
東西	-9.74575
之語	-9.74703
此其	-9.74715
雨澤	-9.74715
嚴行	-9.74753
先朝	-9.74765
何如	-9.74788
緣由	-9.74838
沐	-9.74897
譴	-9.74987
誓	-9.7511
不欲	-9.75134
契	-9.75135
十二日	-9.75154
如果	-9.75187
豈非	-9.75207
騰	-9.75255
以求	-9.75285
操守	-9.75309
之美	-9.75474
翰	-9.75565
議奏	-9.75573
舒	-9.7558
溺	-9.75647
僕	-9.75695
以成	-9.75699
為民	-9.75804
自當	-9.75813
銓	-9.75832
奈何	-9.75872
若此	-9.75892
再加	-9.75899
黃	-9.75955
塗	-9.75973
十八日	-9.76001
二十六日	-9.76022
谷	-9.76074
軫念	-9.76087
修理	-9.76131
王者	-9.76169
言事	-9.76174
之本	-9.76221
職事	-9.76222
僧	-9.76229
按察司	-9.76283
太后	-9.76287
上言	-9.76334
四夷	-9.7641
不無	-9.76422
猛	-9.76455
實有	-9.76487
賞給	-9.76514
揆	-9.76519
原係	-9.76578
靣	-9.76647
縣令	-9.76663
肇	-9.76725
蠲免	-9.76748
鑿	-9.76757
饒	-9.76768
第一	-9.76798
岳鍾琪	-9.76799
十三日	-9.76819
寶	-9.76854
論列	-9.76861
屯田	-9.76862
萬里	-9.76879
誕	-9.76883
舊例	-9.7689
二十二日	-9.7697
商酌	-9.77018
盡行	-9.77038
所用	-9.7718
二府	-9.77183
東省	-9.7732
百萬	-9.77404
防守	-9.77427
水師	-9.77447
抄	-9.77509
墨	-9.77512
分數	-9.77526
之治	-9.77562
向來	-9.7757
悟	-9.77597
傑	-9.77647
業經	-9.77651
不聞	-9.7772
各員	-9.7773
丘	-9.77742
都督	-9.77783
陣	-9.77798
羽	-9.77801
起至	-9.77919
未知	-9.77929
誼	-9.77944
瞻	-9.77961
上年	-9.77962
又復	-9.77971
不安	-9.78082
誠恐	-9.78104
靜	-9.78112
從之	-9.78159
指示	-9.78222
祝	-9.78258
詣	-9.78279
訓練	-9.78354
幣	-9.78363
盧	-9.78414
八旗	-9.7842
船隻	-9.78425
初二日	-9.78465
衷	-9.78526
可為	-9.78532
觀其	-9.78577
之典	-9.78608
天地之	-9.78649
今若	-9.78664
墾	-9.78736
僚	-9.78738
近年	-9.78798
畨	-9.78898
揀選	-9.7892
矯	-9.78959
垣	-9.7896
逞	-9.7897
之私	-9.79054
伏惟	-9.7908
多寡	-9.7918
都司	-9.79201
經理	-9.79224
二十四日	-9.79245
不若	-9.79257
男	-9.79259
六七	-9.79339
廬	-9.79347
各項	-9.79422
不見	-9.79486
板	-9.79492
開元	-9.79533
常平	-9.79634
坊	-9.79644
不應	-9.7969
死者	-9.79699
㢘	-9.79725
亦當	-9.79837
麟	-9.79842
餘兩	-9.79884
其身	-9.79889
含	-9.79892
鄂	-9.79916
事竊照	-9.7992
摺奏	-9.79944
西安	-9.79967
之命	-9.79977
據實奏聞	-9.80001
者非	-9.80027
贍	-9.80143
前任	-9.80152
皆以	-9.80222
將士	-9.80223
抽	-9.80259
浩	-9.80309
貼	-9.80315
攘	-9.8033
遁	-9.80333
嶺	-9.80342
暨	-9.80377
四五	-9.80388
貞	-9.80414
其地	-9.80418
隋	-9.80435
竊見	-9.80473
罕	-9.80515
减	-9.80536
帑	-9.8056
到日	-9.80577
姑息	-9.80578
此奏	-9.80614
臣寮	-9.80674
府州縣	-9.80677
一應	-9.80781
欲以	-9.80798
鳴	-9.8084
衆人	-9.80968
朕之	-9.80979
諡	-9.81019
賠	-9.81067
初三日	-9.8107
之期	-9.81126
縁由	-9.8126
終身	-9.81275
應行	-9.81355
以自	-9.81356
所司	-9.81406
或以	-9.81444
袁	-9.81447
非所以	-9.81498
大兵	-9.81599
必欲	-9.81616
察其	-9.81705
於前	-9.81732
多有	-9.81738
臺灣	-9.8178
津	-9.81788
而有	-9.81794
雍正元年	-9.81796
用心	-9.82001
二十一日	-9.82015
舊制	-9.82036
動用	-9.82089
内開	-9.82192
正在	-9.82209
數月	-9.82316
十八	-9.8232
之前	-9.82336
墩	-9.82355
禮樂	-9.82385
十三	-9.82485
悖	-9.82491
保甲	-9.82504
誥	-9.82513
雨水	-9.82627
初四日	-9.82734
置之	-9.82789
珠	-9.82961
殺人	-9.82976
題㕘	-9.83032
髙宗	-9.83053
也其	-9.83068
差人	-9.83086
灾	-9.8309
侮	-9.83116
降㫖	-9.83124
辜	-9.83143
泥	-9.83185
三分	-9.83237
不與	-9.83286
大抵	-9.83362
不下	-9.83453
司馬光	-9.83463
倒	-9.83542
因而	-9.83547
潤	-9.83598
公同	-9.83644
也昔	-9.83688
熙	-9.83735
州刺史	-9.83741
泛	-9.8379
大計	-9.83804
緒	-9.83837
今陛下	-9.83846
運河	-9.83864
讒	-9.83918
跪	-9.83956
不止	-9.8398
弁	-9.83995
㕔	-9.84006
之吏	-9.84016
者即	-9.84046
荘	-9.84047
嵩	-9.84099
責成	-9.84107
弭	-9.84121
尾	-9.84194
十萬	-9.84306
作何	-9.84342
行令	-9.84375
惟恐	-9.84401
臣僚	-9.84433
遵㫖	-9.84438
二十五日	-9.84442
典禮	-9.84444
償	-9.84462
萬物	-9.84477
辛	-9.84487
區	-9.8456
䑓	-9.84616
飢	-9.84713
倡	-9.84745
歛	-9.84753
肥	-9.84766
成化	-9.84767
茍且	-9.84811
正徳	-9.84813
刼	-9.84865
初八日	-9.84927
其職	-9.84941
二十八日	-9.84972
差官	-9.8499
過於	-9.85038
帶領	-9.85055
筭	-9.85066
於下	-9.85066
而欲	-9.85079
明詔	-9.85086
劄子	-9.85092
初十日	-9.85124
塲	-9.85189
洩	-9.85194
則必	-9.8522
邪正	-9.85225
睿鑒	-9.85248
以安	-9.85279
測	-9.85404
竹	-9.8543
保全	-9.85431
壅	-9.85481
衍	-9.85558
郎中	-9.85609
供職	-9.8561
矣夫	-9.85686
臣嘗	-9.85704
札	-9.85738
之徳	-9.85839
聽其	-9.85845
工部	-9.85955
採買	-9.86075
老成	-9.86076
添設	-9.86102
九分	-9.86182
特賜	-9.86189
十七日	-9.86229
腹心	-9.86261
麗	-9.8631
不已	-9.8642
没	-9.86492
湖北	-9.86515
諸司	-9.86525
欽奉	-9.86547
朝廷之	-9.86584
十六	-9.86642
閩省	-9.86748
隣	-9.86774
而不可	-9.86847
賛	-9.86852
家口	-9.86891
來京	-9.86892
丞相	-9.86939
遞	-9.8705
造冊	-9.87071
怪	-9.87153
矣而	-9.87154
脱	-9.87204
上奏曰臣	-9.87301
萬石	-9.87334
勦	-9.87338
公論	-9.87427
欲乞	-9.875
中間	-9.87527
公主	-9.87537
以濟	-9.87636
孚	-9.8765
三人	-9.87658
之舉	-9.87676
揑	-9.87724
伏思	-9.87756
修築	-9.8777
動支	-9.87802
天下之人	-9.8789
幼	-9.87964
武帝	-9.8805
事情	-9.8805
之役	-9.88057
漲	-9.88107
委官	-9.88121
軰	-9.88177
之虞	-9.8819
而去	-9.88206
查照	-9.88224
兵備	-9.8824
擢用	-9.88291
無有	-9.88312
阜	-9.88343
燒	-9.88349
脫	-9.88355
鑄	-9.88571
近臣	-9.88612
為國家	-9.88657
受其	-9.88688
從事	-9.88729
毋得	-9.88779
忿	-9.88781
御史中丞	-9.88785
噐	-9.88825
俱有	-9.88889
重大	-9.88913
苟	-9.88965
一摺	-9.88965
自此	-9.89009
及其	-9.8902
分守	-9.89035
之項	-9.89094
喻	-9.89148
霑足	-9.89221
叩	-9.89302
步	-9.89316
亭	-9.89319
遼	-9.89327
遥	-9.89351
不失	-9.8936
可知	-9.89401
是時	-9.8941
狼	-9.89485
汪	-9.89504
嵗月	-9.89517
不暇	-9.89523
整飭	-9.89536
設立	-9.89536
文字	-9.89548
相度	-9.89561
䖍	-9.89644
年正月	-9.89722
不盡	-9.89765
迨	-9.89816
未得	-9.89838
夾	-9.89857
訪聞	-9.89877
自應	-9.89884
此項	-9.89915
竊惟	-9.89916
不待	-9.89951
照依	-9.90009
愼	-9.9002
閏	-9.9005
潜	-9.90134
數千	-9.90163
段	-9.90191
何敢	-9.90243
者又	-9.90265
惕	-9.90333
之使	-9.90414
遐	-9.90432
綿	-9.90514
藩司	-9.90525
窩	-9.90575
珍	-9.9066
聖祖仁皇帝	-9.90706
做	-9.90738
使其	-9.90743
留意	-9.90749
不明	-9.90775
由此	-9.90879
諫官	-9.90927
捧	-9.91004
制度	-9.91034
闢	-9.91079
之權	-9.91094
而不敢	-9.91096
民心	-9.91128
八分	-9.91176
上帝	-9.91208
尤為	-9.91221
汗	-9.91316
果能	-9.91342
京城	-9.91364
牆	-9.91381
使臣	-9.91441
晏	-9.91462
波	-9.91517
支給	-9.91519
皆得	-9.91528
一節	-9.91556
十七	-9.9157
確查	-9.91584
該督撫	-9.91611
至意	-9.91646
嚮	-9.91678
大同	-9.91689
不通	-9.91706
綸	-9.91753
門下	-9.91822
彚	-9.91898
一月	-9.91966
不善	-9.91981
㑹議	-9.92026
以圖	-9.92029
長吏	-9.92061
繕	-9.92063
悞	-9.92063
滿洲	-9.92069
諸道	-9.92143
行文	-9.92168
不自	-9.92181
毫無	-9.92193
而用之	-9.92245
統領	-9.92268
形勢	-9.92325
侈	-9.92331
今據	-9.92354
猶有	-9.92378
聞奏	-9.9242
輪	-9.92496
二十七日	-9.92496
壘	-9.92519
居民	-9.92568
賢否	-9.92585
之難	-9.92685
本月	-9.92725
域	-9.92775
自行	-9.92778
停止	-9.92839
和氣	-9.92849
儆	-9.92891
反覆	-9.92899
廪	-9.92921
諸軍	-9.92969
多方	-9.92976
萬兩	-9.92982
防禦	-9.93103
嗟	-9.93168
轍	-9.93234
戾	-9.93258
斃	-9.93266
難於	-9.933
歴年	-9.93329
揺	-9.93343
淤	-9.93412
溪	-9.93448
何必	-9.93457
並不	-9.93483
之福	-9.93486
查出	-9.93561
㳺	-9.93589
岀	-9.93598
衣食	-9.93607
又聞	-9.9369
而陛下	-9.93702
樓	-9.93758
此時	-9.9387
員名	-9.93925
緫	-9.93934
隘	-9.93941
賄	-9.94031
受命	-9.94047
奏曰	-9.94051
一方	-9.94052
翰林學士	-9.94063
聰	-9.94079
將此	-9.94104
姚	-9.94135
者盖	-9.94164
為一	-9.9423
則天下	-9.94242
之業	-9.94267
疊	-9.94294
髙祖	-9.94341
已有	-9.94353
不幸	-9.94424
礙	-9.94501
刷	-9.94507
果有	-9.94578
九百	-9.94616
田地	-9.94628
郡王	-9.94629
贖	-9.94631
牙	-9.94676
先年	-9.94793
樞	-9.94842
塩	-9.94861
人事	-9.94871
商人	-9.94947
撓	-9.94983
逓	-9.95037
無知	-9.95114
碑	-9.95153
猥	-9.95166
其他	-9.95198
百里	-9.95206
既有	-9.95253
人户	-9.95257
出身	-9.95261
前奏	-9.95282
䘏	-9.95359
相與	-9.95367
二員	-9.95368
皆由	-9.95369
有一	-9.95385
濬	-9.95416
民情	-9.95453
寘	-9.95501
亦未	-9.95504
中興	-9.95524
事竊查	-9.95596
絲毫	-9.9565
窮民	-9.95762
鳳	-9.95853
逆賊	-9.95886
皇太子	-9.95912
數日	-9.95918
閑	-9.95998
人言	-9.96003
冒昧	-9.9614
套	-9.96152
忠義	-9.96158
定奪	-9.96205
聖人之	-9.96232
土兵	-9.96244
都統	-9.96331
想	-9.96428
臣請	-9.96451
其才	-9.96481
司庫	-9.96492
澄	-9.96536
選擇	-9.96576
隴	-9.96579
既已	-9.96602
具摺奏聞	-9.96611
案内	-9.96615
調補	-9.96662
壹	-9.968
墊	-9.96834
情願	-9.96866
數人	-9.96869
製	-9.96881
日夜	-9.96963
自今	-9.96991
神宗	-9.96998
紛紛	-9.97004
豐收	-9.97007
不忘	-9.97012
所能	-9.97022
者或	-9.97038
浦	-9.97139
埽	-9.97167
之念	-9.97219
司馬	-9.97224
養廉	-9.97257
此則	-9.97259
恭謝天恩	-9.97409
繩	-9.97478
軍務	-9.97483
金人	-9.97485
隳	-9.97487
事之	-9.97498
睦	-9.97505
先行	-9.9757
部議	-9.97627
稱職	-9.97652
憫	-9.97662
治天下	-9.9772
可不	-9.97724
倭	-9.97726
勤勞	-9.97755
未便	-9.97792
用度	-9.97812
交代	-9.97816
罹	-9.97884
裴	-9.97991
巳經	-9.98007
賔	-9.98022
距	-9.9804
諸將	-9.98054
六千	-9.98077
格外	-9.98088
天下之事	-9.9818
潘	-9.98274
學校	-9.98298
在上	-9.98334
荅	-9.98376
耀	-9.98389
賢者	-9.9839
相繼	-9.98393
網	-9.98426
必先	-9.98442
二十九日	-9.98451
遵照	-9.98458
涉	-9.98624
鉅	-9.98625
恊	-9.98799
付之	-9.98871
則曰	-9.9894
十四	-9.98954
剥	-9.98968
堤工	-9.99075
暢	-9.99111
免其	-9.9912
印務	-9.99147
一也	-9.99158
墓	-9.99171
科道	-9.99226
務令	-9.99249
天威	-9.99302
治之	-9.99322
奏事	-9.99335
𣙜	-9.99352
有不	-9.99368
伏乞皇上	-9.99396
失所	-9.99435
治平	-9.99493
齋	-9.99523
踵	-9.99524
一身	-9.99535
暇	-9.99541
州軍	-9.99564
未嘗不	-9.99572
貞觀	-9.99578
皮	-9.99584
肉	-9.99656
不思	-9.99674
詳報	-9.99679
恪	-9.9971
平糶	-9.9972
耗羡	-9.99737
數百	-9.99774
務使	-9.99863
固原	-9.99864
天命	-9.99879
偉	-9.99896
柱	-9.9991
之師	-9.99962
箇	-10.0001
元豐	-10.0002
百年	-10.0007
有言	-10.0009
夥	-10.0012
再查	-10.0013
取其	-10.002
暮	-10.0025
紫	-10.0026
大義	-10.0028
㨗	-10.003
因此	-10.0044
臻	-10.0045
安民	-10.0046
紛	-10.005
無一	-10.005
憐	-10.0066
事有	-10.0076
陛見	-10.0077
之戒	-10.008
他日	-10.0087
初九日	-10.0088
弓	-10.0091
盛徳	-10.0095
臣竊見	-10.0095
司道	-10.0096
披	-10.0097
宼	-10.0098
壓	-10.0102
先生	-10.0103
之機	-10.0108
上諭大學士等曰	-10.0111
霑	-10.012
韋	-10.0123
㸔	-10.0126
必不	-10.0126
刑名	-10.0133
忱	-10.0138
曰臣聞	-10.0138
本路	-10.014
凌	-10.0142
惰	-10.0147
差役	-10.0148
姦邪	-10.0149
䝉古	-10.0151
軌	-10.0151
松	-10.0156
仰體	-10.0157
匡	-10.0159
淮南	-10.0159
闗係	-10.0161
俞允	-10.0163
輔臣	-10.0167
不從	-10.0167
日期	-10.0169
劣	-10.017
從容	-10.0172
什	-10.0174
不少	-10.0174
見於	-10.0176
賢能	-10.0177
五分	-10.0179
節省	-10.0183
沿途	-10.0183
生員	-10.0184
敵衆	-10.0191
㒺	-10.0192
日久	-10.0193
浚	-10.0208
無他	-10.0213
趣	-10.0213
致仕	-10.0215
雍正八年	-10.0219
因其	-10.0225
妥協	-10.0225
於人	-10.0232
匈奴	-10.0233
天之	-10.0234
不知其	-10.0244
太學	-10.0251
人馬	-10.0252
霸	-10.0255
之文	-10.0258
水利	-10.0258
新任	-10.026
自知	-10.027
匱	-10.0271
莭	-10.0272
無人	-10.0276
本省	-10.0281
而民	-10.0282
唐太宗	-10.0286
燭	-10.0289
染	-10.0294
太廟	-10.0294
如故	-10.0298
七分	-10.03
方可	-10.0308
以正	-10.0317
拉	-10.0319
人主之	-10.0323
絲	-10.0325
照數	-10.0329
寖	-10.0329
未至	-10.0339
之苦	-10.0343
故曰	-10.0346
囬	-10.0351
重任	-10.0359
尚可	-10.0363
範	-10.0373
畫一	-10.0375
撤	-10.0384
狹	-10.0389
踴躍	-10.0391
士民	-10.0393
任事	-10.0395
務要	-10.0395
滇	-10.04
三日	-10.0401
牒	-10.0402
一項	-10.0408
世之	-10.041
着	-10.0414
竊以	-10.0414
止於	-10.042
公用	-10.042
奢	-10.0423
股肱	-10.0424
毅	-10.0427
一分	-10.0431
止有	-10.0432
價銀	-10.0435
延綏	-10.0436
不避	-10.0437
懦	-10.0444
徹	-10.0446
膽	-10.0446
彼處	-10.045
低	-10.045
得雪	-10.0458
觸	-10.0465
為患	-10.0465
者為	-10.0466
硃批諭㫖巻	-10.0468
腹	-10.0468
更有	-10.0469
騐	-10.047
銳	-10.0473
依舊	-10.0476
事君	-10.048
亦皆	-10.048
精神	-10.0483
幕	-10.0484
不得已	-10.0484
可見	-10.0485
臣雖	-10.0487
輝	-10.0488
鎗	-10.049
不識	-10.0493
該縣	-10.0496
欽差	-10.0497
歉	-10.05
無遺	-10.05
江淮	-10.0506
天人	-10.0506
竊聞	-10.051
管轄	-10.0515
朕所	-10.0517
尉	-10.0519
英宗	-10.052
㧞	-10.0521
從來	-10.0521
存留	-10.0525
敬謹	-10.053
國體	-10.054
整理	-10.054
甚為	-10.0543
失其	-10.0547
皇恩	-10.0549
博士	-10.0549
曰吾	-10.0552
思之	-10.0558
知所	-10.0571
毫	-10.0573
得其人	-10.0577
纂	-10.0578
駐防	-10.0579
臣子	-10.058
覈	-10.0581
錦	-10.0582
勢必	-10.0583
彈壓	-10.0586
閭閻	-10.0587
彼時	-10.0589
而能	-10.0589
無庸	-10.0598
際	-10.0606
八百	-10.0609
進呈	-10.0609
自是	-10.0611
擁	-10.0619
於外	-10.0623
熈	-10.0624
斛	-10.0624
李衞	-10.0632
歸於	-10.0634
伏查	-10.0634
去處	-10.0635
妖	-10.0636
伏惟陛下	-10.0639
漕運	-10.0644
之效	-10.0644
絹	-10.0644
膳	-10.0644
天道	-10.0648
著將	-10.0658
數萬	-10.0661
臨御	-10.0663
深知	-10.0674
任使	-10.0674
無復	-10.0676
可得	-10.0684
麻	-10.0686
之方	-10.0689
之明	-10.0691
又不	-10.0697
大有	-10.0698
准其	-10.0701
溥	-10.0704
隅	-10.0708
而言	-10.071
必得	-10.0714
商賈	-10.0714
禮義	-10.0721
揣	-10.0723
富貴	-10.0724
宣諭	-10.0727
儘	-10.0727
款	-10.0732
文帝	-10.0735
一次	-10.0739
在位	-10.074
壁	-10.074
淫	-10.0742
奚	-10.0743
幫	-10.0744
圖報	-10.0745
懈	-10.0746
曰朕	-10.075
𣲖	-10.0752
前事	-10.0754
八九	-10.0757
相機	-10.076
摧	-10.076
巢	-10.0764
較之	-10.0769
周禮	-10.0777
忝	-10.0781
孽	-10.0781
講求	-10.0782
奴	-10.0783
使天下	-10.0787
上時	-10.0788
聖祖	-10.0794
傳曰	-10.0796
學者	-10.0797
揀	-10.0798
聖朝	-10.0801
恬	-10.0804
凖	-10.0804
必致	-10.0805
刑罰	-10.0809
無由	-10.0809
愛惜	-10.0817
人犯	-10.0817
貝勒	-10.0825
訓誨	-10.083
元元	-10.0833
真宗	-10.0835
及至	-10.0835
相同	-10.084
冕	-10.0842
必無	-10.0842
外所有	-10.0842
礮	-10.0848
何謂	-10.085
之始	-10.0854
霜	-10.086
隆恩	-10.0861
未有不	-10.0865
以防	-10.0867
矣此	-10.0869
毆	-10.0875
目下	-10.0877
飭令	-10.0881
此案	-10.0883
易於	-10.0884
壮	-10.0884
者其	-10.0885
者矣	-10.0887
臣以為	-10.0896
隨即	-10.0896
在乎	-10.0897
返	-10.0901
數多	-10.0902
以慰	-10.0902
吐	-10.0903
黜陟	-10.0906
脚	-10.0909
亦非	-10.0909
浙省	-10.091
控	-10.0914
在官	-10.0923
之世	-10.0924
土官	-10.0933
觀望	-10.0937
拯	-10.0943
稔	-10.0945
前因	-10.0946
偹	-10.0947
黒	-10.0948
太原	-10.0949
洗	-10.0949
民人	-10.0956
等因到	-10.096
迷	-10.0967
孔子曰	-10.0973
悃	-10.0973
二萬	-10.0974
軍人	-10.0974
其為	-10.0975
本州	-10.0976
矣陛下	-10.0977
莫如	-10.098
豈無	-10.0981
俞	-10.0981
所欲	-10.0988
一曰	-10.099
題補	-10.1
轉運	-10.1001
無過	-10.1006
薪	-10.1008
又以	-10.1008
狡	-10.101
朴	-10.1012
猶未	-10.1013
其家	-10.1024
戢	-10.1027
之宜	-10.1033
何由	-10.1042
綱紀	-10.1044
若以	-10.1046
坦	-10.1049
移咨	-10.1049
盗賊	-10.1051
尤甚	-10.1053
沿海	-10.1054
上奏曰臣聞	-10.1059
薦舉	-10.106
雖欲	-10.1069
迂	-10.1069
考試	-10.107
汰	-10.1073
天津	-10.1074
關係	-10.1076
它	-10.1076
脅	-10.1078
部院	-10.1078
帝王之	-10.1084
其害	-10.1085
醜	-10.109
之曰	-10.1091
陛下以	-10.1104
壤	-10.1104
除授	-10.1105
仁義	-10.111
今乃	-10.1112
讀書	-10.1112
固已	-10.1113
懋	-10.1113
上書	-10.1118
掣	-10.1118
始終	-10.112
奉旨	-10.1122
各衙門	-10.1122
地震	-10.1122
人數	-10.1127
擇其	-10.1134
墻	-10.1135
冐	-10.1137
情節	-10.1142
亦必	-10.1146
不疑	-10.1146
逰	-10.1147
突	-10.1148
所為	-10.1154
有此	-10.116
邸	-10.1168
寓	-10.1174
讐	-10.1175
伏讀	-10.1179
神明	-10.1181
朽	-10.1185
山川	-10.1187
之望	-10.1191
賂	-10.1192
十四日	-10.1196
而未	-10.1198
俱已	-10.1199
佐領	-10.12
中有	-10.1201
票	-10.1201
聦明	-10.1202
同心	-10.1203
教化	-10.1208
余	-10.1211
奠	-10.1212
提舉	-10.1212
平時	-10.1213
漢唐	-10.1215
事事	-10.1218
四千	-10.1234
竣	-10.124
不獨	-10.1241
培	-10.1241
行走	-10.1242
拆	-10.1242
節次	-10.1248
萬全	-10.1248
處之	-10.1251
言路	-10.1251
戈	-10.1254
髙下	-10.1255
應否	-10.1255
買補	-10.1258
調度	-10.1258
而復	-10.126
更不	-10.1269
先王之	-10.127
刺史	-10.1278
吴	-10.1279
得之	-10.128
陪	-10.128
蘓	-10.1284
轉行	-10.1285
掃	-10.129
倘有	-10.1294
支用	-10.1294
秋成	-10.1295
耕種	-10.1296
一處	-10.1298
耆	-10.1298
臣竊惟	-10.1307
國公	-10.1308
遵守	-10.1317
嘆	-10.1319
飽	-10.1322
稻	-10.1323
窘	-10.1325
這	-10.1329
或因	-10.1329
赤子	-10.1335
所陳	-10.1337
徼	-10.134
知人	-10.1341
分不等	-10.1341
活	-10.1346
初七日	-10.1352
不服	-10.1353
出自	-10.1356
此數	-10.1356
今又	-10.1357
迭	-10.1366
僉事	-10.1368
非有	-10.1373
上言曰	-10.1376
申明	-10.1382
外其餘	-10.1392
於本年	-10.1393
成王	-10.1394
多事	-10.1397
愚昧	-10.1397
田禾	-10.1398
拱	-10.1402
鑑	-10.1407
夫人	-10.1408
彈	-10.1411
詔㫖	-10.1411
喇	-10.1412
誨	-10.1413
瓊	-10.1417
一嵗	-10.1419
米石	-10.1419
國朝	-10.1421
軍馬	-10.1424
技	-10.1424
龜	-10.1425
䟽曰臣	-10.1426
有事	-10.1436
任其	-10.1444
定議	-10.1444
三路	-10.145
其本	-10.1451
復有	-10.1451
之勞	-10.1462
蘇州	-10.1463
所知	-10.1468
仙	-10.1468
卿等	-10.1469
軍政	-10.147
托	-10.1475
無功	-10.1477
急務	-10.1492
有限	-10.1499
有可	-10.1505
開封府	-10.1506
者乃	-10.151
沿	-10.1514
榜	-10.1522
房屋	-10.1523
𦂳要	-10.1526
泣	-10.1535
公費	-10.1535
故能	-10.1545
下情	-10.1554
磨	-10.1559
跪讀之下	-10.1561
接濟	-10.1562
待罪	-10.1563
太皇太后	-10.1566
惇	-10.157
汝等	-10.157
人臣	-10.1572
午	-10.1576
洎	-10.1576
泊	-10.1577
妙	-10.1577
督率	-10.1583
㕘將	-10.1591
伺	-10.1599
目今	-10.1599
彬	-10.16
臣言	-10.16
裂	-10.16
樁	-10.1602
別	-10.1603
王安石	-10.1604
熈寧	-10.1607
裔	-10.1609
即將	-10.1612
種種	-10.1621
灣	-10.1626
妻子	-10.1627
諄諄	-10.1628
居住	-10.1635
府庫	-10.1644
饋	-10.1644
國法	-10.1648
誌	-10.1649
晝夜	-10.165
詢問	-10.1652
毎年	-10.166
養亷	-10.1662
損益	-10.1676
前来	-10.1677
此二	-10.168
朕躬	-10.1682
該道	-10.1683
䝉聖恩	-10.1684
祧	-10.169
鼓舞	-10.1691
奨	-10.1691
輯	-10.1692
邵	-10.1694
責之	-10.1703
慝	-10.1709
政令	-10.1718
感戴	-10.1719
禀稱	-10.1719
未易	-10.1726
茲	-10.173
為政	-10.173
妾	-10.1732
忠臣	-10.1744
織	-10.1749
本司	-10.1749
風雨	-10.1752
奉天	-10.1754
君父	-10.1758
並未	-10.176
哉臣	-10.1768
十里	-10.177
充軍	-10.1773
即令	-10.1773
黔省	-10.1774
姪	-10.1774
謫	-10.1774
必至	-10.1776
夢	-10.1777
又論	-10.178
弁兵	-10.1782
委署	-10.179
其利	-10.179
亦宜	-10.179
貧民	-10.1794
無非	-10.1799
巖	-10.18
之仁	-10.1803
諸事	-10.1804
欺罔	-10.181
之體	-10.1813
從而	-10.1818
劇	-10.1819
鋪	-10.1827
時有	-10.1828
叅奏	-10.1828
之門	-10.1839
寕	-10.1846
責其	-10.1848
若夫	-10.1851
災傷	-10.1852
判官	-10.1853
周詳	-10.1854
青苗	-10.1854
疾苦	-10.1856
奉欽依	-10.1861
臣不勝	-10.1863
皇仁	-10.1863
墜	-10.1864
将軍	-10.1865
宵旰	-10.1869
薛	-10.1869
亦難	-10.1872
深為	-10.1875
今天下	-10.188
正人	-10.1884
栁	-10.1887
晦	-10.1888
所由	-10.1888
負朕	-10.189
州知州	-10.1894
在彼	-10.1894
此言	-10.1895
遵奉	-10.1895
具本	-10.19
當即	-10.1906
聖鑒	-10.1907
慎重	-10.1909
川省	-10.1911
必以	-10.1913
必能	-10.1919
操練	-10.1924
及時	-10.1928
機宜	-10.1929
丗	-10.1932
鬻	-10.1937
樊	-10.1938
安得	-10.194
固有	-10.1948
等府	-10.195
兩淮	-10.1953
所議	-10.1954
械	-10.1956
隊	-10.1957
安撫	-10.1958
售	-10.196
為首	-10.1962
等各	-10.1964
以期	-10.197
比之	-10.1971
桂	-10.1976
暑	-10.198
帳	-10.198
此外	-10.1981
好惡	-10.1984
不敢不	-10.1987
佃	-10.1988
三府	-10.1998
弄	-10.1998
名器	-10.1999
搆	-10.2001
膏	-10.2002
此誠	-10.2004
任用	-10.2005
每嵗	-10.2007
以禮	-10.2007
都指揮	-10.2009
與其	-10.2012
他人	-10.2012
紹興	-10.202
夙	-10.202
鋭	-10.202
夷狄	-10.2022
治亂	-10.2022
官民	-10.2024
求治	-10.2024
堯舜之	-10.2031
為大	-10.2031
益加	-10.2034
領兵	-10.2044
牢	-10.2047
貌	-10.2048
嘉祐	-10.2049
舖	-10.205
人力	-10.2052
使者	-10.2052
處所	-10.2053
何也	-10.2053
所行	-10.2059
盡力	-10.2066
我朝	-10.2067
有過	-10.2069
沉	-10.207
岐	-10.2071
正法	-10.2073
闔	-10.2074
猾	-10.2075
莫能	-10.2092
恢	-10.2102
善惡	-10.2103
繕摺	-10.2108
則為	-10.2114
㢤	-10.2116
怯	-10.2116
詳議	-10.2117
灌	-10.2117
謹奏覽	-10.2124
該員	-10.2124
細加	-10.2125
裨	-10.2132
上奏曰	-10.2133
贏餘	-10.2135
詩曰	-10.2136
縁係	-10.2137
憂勤	-10.2138
悲	-10.214
䧟	-10.2143
稽察	-10.2146
職任	-10.2148
必行	-10.2149
更張	-10.2152
宜令	-10.2153
千餘	-10.2156
甸	-10.2159
財物	-10.2162
忤	-10.2162
聖慮	-10.2163
二曰	-10.2163
囑	-10.217
少有	-10.2175
與夫	-10.2175
轉運司	-10.2176
嚴禁	-10.2179
不以為	-10.2181
饗	-10.2181
則不	-10.2191
若是	-10.2192
皆可	-10.2193
概	-10.2205
揭	-10.2213
為先	-10.2214
萬餘	-10.2222
三萬	-10.2227
邊事	-10.223
恩澤	-10.2233
十餘	-10.2233
可惜	-10.2233
翰林	-10.2237
郡守	-10.2239
其力	-10.2251
𥘉	-10.2251
㳟	-10.2254
屠	-10.2255
任意	-10.2258
軍旅	-10.2259
稟	-10.2262
飲食	-10.2262
貲	-10.2267
有天下	-10.2267
為名	-10.2267
有大	-10.2273
於陛下	-10.2274
之水	-10.2277
奉公	-10.2279
隐	-10.2282
一半	-10.2282
邁柱	-10.2286
臣竊謂	-10.2291
棍	-10.2298
桓	-10.23
瓦	-10.2302
繆	-10.2304
倣	-10.2306
既不	-10.2306
梟	-10.2306
頭目	-10.2308
軍前	-10.231
者雖	-10.2311
城池	-10.2314
户口	-10.2315
其可	-10.2324
見今	-10.2326
恐有	-10.2327
雍正九年	-10.2329
祭祀	-10.2331
上聞	-10.2334
府屬之	-10.2342
江浙	-10.2344
江蘇	-10.2347
汴	-10.2348
之道也	-10.2349
得罪	-10.2351
副都統	-10.2357
為重	-10.236
凡事	-10.2364
太常	-10.2364
之甚	-10.2366
二縣	-10.2368
今既	-10.237
獵	-10.2374
芳	-10.2375
一官	-10.238
恢復	-10.239
則又	-10.2393
内臣	-10.2393
而致	-10.2395
撫按	-10.2397
二十四	-10.2398
狥	-10.2399
奔走	-10.24
萬民	-10.2402
案件	-10.2402
一經	-10.2405
所致	-10.2406
言而	-10.2408
酌議	-10.2414
坤	-10.2416
卽	-10.243
無辜	-10.243
不獲	-10.2441
臨時	-10.2454
用事	-10.2454
邁	-10.2466
捷	-10.2471
則其	-10.2472
學習	-10.2486
之分	-10.2486
殫	-10.2486
取士	-10.249
攬	-10.2491
宦	-10.2491
半年	-10.2492
盡其	-10.2498
轄	-10.2501
漢之	-10.2501
欲望	-10.2513
秘	-10.2514
一百二十	-10.2516
應用	-10.2518
禱	-10.2518
從此	-10.252
不信	-10.2522
收貯	-10.2522
不息	-10.253
千户	-10.253
徃徃	-10.2532
摺内	-10.2533
所聞	-10.2533
曷	-10.2536
孟子	-10.2538
所貴	-10.254
有警	-10.254
宗廟社稷	-10.2542
情弊	-10.2543
各府	-10.2548
降指揮	-10.255
又何	-10.2567
孔毓珣	-10.2569
析	-10.2572
哲宗	-10.2573
病故	-10.2577
凡此	-10.258
矣其	-10.2581
保舉	-10.2588
節制	-10.2589
豐稔	-10.2593
財賦	-10.2593
邊境	-10.2596
凛	-10.2597
刑獄	-10.2597
邊方	-10.2598
而自	-10.2601
裝	-10.2605
禆	-10.261
於萬一	-10.2614
蔣	-10.2615
之謂	-10.2626
節度	-10.2626
到任後	-10.2628
曩	-10.2634
本末	-10.2638
將官	-10.2644
雨雪	-10.2647
詔令	-10.2647
何者	-10.265
一家	-10.2651
愚見	-10.2652
憲宗	-10.2655
凝	-10.2657
酋	-10.266
存貯	-10.2665
皆知	-10.2665
遂使	-10.2674
髙厚	-10.2674
無虞	-10.2681
汚	-10.2682
沃	-10.2683
初五日	-10.2696
約有	-10.2697
可嘉	-10.2698
光武	-10.2699
聖王	-10.27
莫敢	-10.2707
竝無	-10.2708
諂	-10.2709
難得	-10.2709
臣竊以	-10.2709
至扵	-10.271
掛	-10.2711
要害	-10.2715
皆是	-10.2723
具疏	-10.2724
闈	-10.2729
之策	-10.2732
有㫖	-10.2732
千萬	-10.2733
廟堂	-10.2733
呈報	-10.2736
題報	-10.2738
今來	-10.2738
不分	-10.274
重地	-10.274
預備	-10.274
原籍	-10.2744
職業	-10.2753
巡按	-10.2754
力行	-10.2757
刁	-10.2761
稿	-10.2764
五帝	-10.2765
以副	-10.2768
該府	-10.2772
之位	-10.2772
天下之大	-10.2778
其情	-10.2781
韓琦	-10.2784
積弊	-10.2784
昻	-10.2785
髙其倬	-10.2785
朕思	-10.2786
大雨	-10.2791
速行	-10.2795
所費	-10.2799
淪	-10.2806
自新	-10.281
人也	-10.2813
被災	-10.2816
輟	-10.2827
劄子曰臣	-10.283
待之	-10.283
矧	-10.2831
之威	-10.2832
外其	-10.2834
之節	-10.2837
委曲	-10.2839
非其人	-10.2844
甚至	-10.2846
署撫	-10.285
牲	-10.2855
其道	-10.2855
墮	-10.2857
爛	-10.2859
摘	-10.2879
酷	-10.2879
一時之	-10.288
鈞	-10.288
濶	-10.2883
易曰	-10.2909
蒲	-10.2909
愛君	-10.2911
港	-10.2915
之類	-10.2918
實難	-10.2919
武王	-10.292
臣願	-10.2926
逋	-10.2927
武備	-10.2928
嗚呼	-10.293
箭	-10.2932
浪	-10.2932
叢	-10.2934
般	-10.2934
起居	-10.2934
韶	-10.2936
皇帝陛下	-10.2936
給發	-10.2941
恭請	-10.2946
如是則	-10.2949
計議	-10.2955
扇	-10.2957
去嵗	-10.2958
所以為	-10.2958
公忠	-10.2958
聖德	-10.2959
恭惟	-10.2959
休戚	-10.2961
犬馬	-10.2962
李紱	-10.2964
二十年	-10.2965
然也	-10.2969
倉卒	-10.2973
則民	-10.2978
㓂	-10.2978
伏乞皇上睿鑒謹奏	-10.298
等縣	-10.2983
又奉上諭	-10.2984
欲其	-10.2984
等物	-10.2986
其子	-10.2988
之具	-10.2989
安能	-10.2992
三曰	-10.2993
民食	-10.2993
廷臣	-10.2993
昇	-10.2998
寅	-10.2998
鳥	-10.3
捍	-10.3
何人	-10.3001
陟	-10.3002
司官	-10.3004
矣又	-10.3005
計之	-10.3005
膠	-10.3006
事勢	-10.301
甚者	-10.3015
報到	-10.3016
俱經	-10.3021
協同	-10.3025
别無	-10.3027
崩	-10.303
㓜	-10.3035
經筵	-10.3037
應援	-10.3037
法司	-10.3042
經過	-10.3043
進貢	-10.3046
經營	-10.3048
召募	-10.3049
休息	-10.3051
二分	-10.3051
庶政	-10.3052
堰	-10.3053
風聞	-10.3054
繇	-10.3055
隨時	-10.3056
叅將	-10.3056
帶兵	-10.3058
者並	-10.3061
黽勉	-10.3062
之慮	-10.3066
廼	-10.308
紳	-10.3081
其所以	-10.3085
考之	-10.3085
軍器	-10.3087
河西	-10.3091
王府	-10.31
無私	-10.3102
不能自	-10.3102
甚是	-10.3102
亦不可	-10.3103
雖然	-10.3104
括	-10.3112
之迹	-10.3114
註	-10.3116
噶爾丹	-10.3116
前徃	-10.3124
者不過	-10.3129
有常	-10.313
其志	-10.3132
礦	-10.3132
時政	-10.3132
渭	-10.3133
羞	-10.3133
雍正十年	-10.3139
透	-10.3139
年二月	-10.3147
九千	-10.3147
武職	-10.3149
伏乞睿鑒謹奏	-10.3149
防範	-10.3149
矣若	-10.315
口糧	-10.3154
明年	-10.3154
偃	-10.3155
百餘	-10.3155
尸	-10.3157
銘	-10.3159
不逮	-10.3162
江寧	-10.3164
戰守	-10.3167
趕	-10.3168
觀之	-10.3172
不測	-10.3174
十數	-10.3176
為心	-10.3177
職掌	-10.3178
預為	-10.3178
不畏	-10.3184
保定	-10.3185
仰見我皇上	-10.3186
謹將	-10.3186
仍照	-10.3187
者今	-10.3187
於朝	-10.3188
蒙皇上	-10.3189
拖欠	-10.3193
此亦	-10.3197
赴京	-10.3202
夫以	-10.3204
叶	-10.3205
無地	-10.3208
堅固	-10.3209
屬之	-10.321
淑	-10.3212
十九	-10.3216
所至	-10.3219
賞賜	-10.3223
南郊	-10.3229
不特	-10.3229
寝	-10.3234
悅	-10.3236
葛	-10.3238
為此謹奏	-10.3241
既無	-10.3243
兩府	-10.3252
選用	-10.3252
闊	-10.3264
鬭	-10.3264
又於	-10.327
在陛下	-10.3279
艾	-10.3281
炎	-10.3281
夏秋	-10.3283
曰此	-10.3286
乎此	-10.3287
竊恐	-10.3289
進用	-10.3289
也至於	-10.329
一例	-10.3292
晴	-10.3292
日新	-10.3293
不勝幸甚	-10.3295
後來	-10.3297
要務	-10.33
地勢	-10.3303
河水	-10.3309
農民	-10.3317
等衙門	-10.3318
上柱國	-10.3332
荷䝉	-10.3332
代之	-10.3338
某人	-10.3339
合先	-10.334
耿	-10.3342
厪	-10.3343
已上	-10.3345
畏懼	-10.3346
莫大於	-10.3347
侵蝕	-10.3347
親戚	-10.3352
授以	-10.3358
絳	-10.3359
勁	-10.3361
不拘	-10.3364
輦	-10.3364
守之	-10.3369
以供	-10.337
不可勝	-10.3375
若非	-10.3378
詳細	-10.3378
君之	-10.338
經費	-10.338
第二	-10.3384
挺	-10.3386
此心	-10.3388
融	-10.3388
實係	-10.3388
為善	-10.3393
自安	-10.3396
愛養	-10.3402
一兩	-10.3402
戲	-10.3405
之詔	-10.3406
之學	-10.3411
物料	-10.3412
照得	-10.3412
本處	-10.3414
詆	-10.3414
泄	-10.3416
穴	-10.3416
留神	-10.3416
開墾	-10.3419
實屬	-10.3421
樸	-10.3421
萬人	-10.3421
亦屬	-10.3423
監生	-10.3425
卓	-10.3425
四時	-10.3431
賠補	-10.3431
奏銷	-10.3433
蘭州	-10.3433
天子之	-10.3435
漸次	-10.3441
即可	-10.3441
瘠	-10.3445
可乎	-10.3445
知陛下	-10.3448
今已	-10.3451
才具	-10.3455
言其	-10.3458
價值	-10.3459
王師	-10.3465
群	-10.3466
為是	-10.3466
之末	-10.3471
寛宥	-10.3474
何則	-10.3478
怡親王	-10.348
中國之	-10.3482
皆為	-10.3484
修省	-10.3489
二者	-10.3496
兩岸	-10.3497
拙	-10.3498
臣觀	-10.3499
孜孜	-10.3499
棟	-10.3501
掲	-10.3502
實情	-10.3502
禍亂	-10.3504
十二年	-10.3505
急於	-10.3507
日益	-10.3513
噶	-10.3523
軒	-10.3524
其數	-10.3531
也此	-10.3532
即有	-10.3533
為此繕摺	-10.3533
周知	-10.3534
臂	-10.3543
兩月	-10.3543
嫡	-10.3548
矣故	-10.3552
仰祈	-10.3552
雖未	-10.3554
即如	-10.3559
臣切	-10.3568
大業	-10.3568
諸王	-10.3572
義理	-10.3572
倉庫	-10.3574
歴代	-10.3576
為念	-10.3576
伏覩	-10.3577
二十五	-10.358
招撫	-10.3591
訪得	-10.3591
是否	-10.3592
冬至	-10.3592
七千	-10.3594
每石	-10.3595
大功	-10.3595
不絶	-10.3597
京東	-10.3602
氷	-10.3603
論奏	-10.3606
貿易	-10.3607
也自	-10.3608
小心	-10.3608
人命	-10.3611
今春	-10.3614
以是	-10.3614
肆行	-10.3616
失於	-10.3618
自為	-10.362
守禦	-10.3623
逺方	-10.3623
地畝	-10.3625
亦何	-10.363
欲使	-10.363
剋	-10.3632
奇	-10.3633
整頓	-10.3633
濵	-10.3633
灘	-10.3634
站	-10.3636
倉穀	-10.3637
多少	-10.364
上時為	-10.3642
畿	-10.3643
建立	-10.3645
者十	-10.3648
漳	-10.3652
非惟	-10.3653
萬幾	-10.3657
猶可	-10.3662
有裨益	-10.3669
不立	-10.367
以充	-10.3672
忠誠	-10.3678
大禮	-10.3679
祔	-10.368
小臣	-10.3682
一心	-10.3685
也臣聞	-10.3688
西寧	-10.3693
田畝	-10.3693
但恐	-10.3699
無疑	-10.37
作弊	-10.3705
新舊	-10.3706
媚	-10.3708
諛	-10.3708
挫	-10.3709
規模	-10.3711
柴	-10.3714
守臣	-10.3714
威福	-10.3715
傳諭	-10.3716
職守	-10.3716
二名	-10.3717
中書門下	-10.3719
所轄	-10.3719
騾	-10.372
為天下	-10.3724
宫中	-10.3728
不使	-10.3728
琦	-10.3734
題為	-10.3735
樞宻院	-10.3735
糧道	-10.3735
良民	-10.3736
糧餉	-10.3736
嗜	-10.3737
部文	-10.3737
制置	-10.3739
潦	-10.374
奏乞	-10.3744
沿邊	-10.3745
去訖	-10.3746
兩路	-10.3746
仍乞	-10.3746
查議	-10.3747
你	-10.3749
近聞	-10.3753
臣愚以為	-10.3755
軍國	-10.3756
䝉恩	-10.3756
碎	-10.3764
宮	-10.3765
流離	-10.3776
一定	-10.3776
數十年	-10.3778
一朝	-10.3779
其國	-10.378
蒼	-10.3781
閭	-10.3785
何事	-10.3786
徳音	-10.3788
吞	-10.3788
所載	-10.3788
求賢	-10.3788
粤東	-10.3789
以副朕	-10.379
齡	-10.379
據此	-10.3791
者何	-10.3798
本地	-10.3802
皆係	-10.3806
亦不能	-10.3807
擒獲	-10.3811
發遣	-10.3814
改為	-10.3815
任之	-10.3816
楊文乾	-10.3826
欽奉上諭	-10.3829
固守	-10.384
戀	-10.3842
一槩	-10.3843
促	-10.3844
即以	-10.3852
朕以	-10.3853
非獨	-10.3859
楚省	-10.3866
五萬	-10.3867
藩庫	-10.3872
之區	-10.3873
汙	-10.3875
於今	-10.3876
梅	-10.3877
考其	-10.3878
宰臣	-10.3881
列聖	-10.3881
今歲	-10.3883
閫	-10.3887
亦多	-10.3889
宗愈	-10.3889
臣工	-10.3891
立功	-10.3894
其名	-10.3896
帯	-10.3899
哭	-10.3899
終始	-10.39
漁	-10.3901
演	-10.3903
起於	-10.3905
尅	-10.3906
瞻顧	-10.3913
糧草	-10.3913
查拏	-10.3915
奮勇	-10.3916
主事	-10.3916
用其	-10.3916
額外	-10.3918
議覆	-10.392
調遣	-10.3923
千八百	-10.3925
陰	-10.3925
視為	-10.3926
豈得	-10.3926
芻	-10.3927
致治	-10.3929
乎臣	-10.3929
聲明	-10.3931
訛	-10.3932
西路	-10.3933
其君	-10.3934
覺察	-10.3936
樂業	-10.3938
降諭㫖	-10.3938
外任	-10.3942
二也	-10.3942
異日	-10.3946
涇	-10.3949
未安	-10.3949
之流	-10.395
所舉	-10.3951
國事	-10.3955
蟲	-10.3956
盡言	-10.3956
句	-10.3957
恐懼	-10.396
不次	-10.396
考察	-10.3961
效力	-10.3963
前世	-10.3974
不令	-10.3974
北敵	-10.3975
薨	-10.3982
其功	-10.3983
翻	-10.3984
禁約	-10.3984
而求	-10.3986
祫	-10.3987
數十萬	-10.3988
以言	-10.3988
試用	-10.3996
直省	-10.3996
即今	-10.3997
而得	-10.4006
奏議	-10.4007
拂	-10.401
姜	-10.4011
劫	-10.4012
於後	-10.4015
圓	-10.4016
文學	-10.4023
者惟	-10.4029
秋禾	-10.403
紊	-10.4031
捉	-10.4039
亨	-10.404
玷	-10.4041
卸	-10.4046
千百	-10.4046
申報	-10.4046
省察	-10.4048
本色	-10.4051
徐州	-10.4052
收穫	-10.4054
何能	-10.4057
批示	-10.4061
條陳	-10.4061
亦不敢	-10.4064
尼	-10.4066
洪恩	-10.4067
逃亡	-10.4068
萬四千	-10.407
之㫖	-10.4072
聦	-10.4074
渾	-10.4074
近年以來	-10.4077
之性	-10.4077
賑恤	-10.4078
百司	-10.4078
何不	-10.4083
人口	-10.4085
失之	-10.4086
獸	-10.409
其說	-10.4091
之端	-10.4091
水陸	-10.4094
盤查	-10.4094
藻	-10.4095
挽	-10.4097
籠	-10.4098
軫	-10.4101
設有	-10.4102
弊端	-10.4104
該司	-10.4105
五錢	-10.4106
聖躬	-10.4107
司徒	-10.4114
該撫	-10.412
望陛下	-10.4129
者衆	-10.4129
忠良	-10.413
未定	-10.4136
伏望皇上	-10.4137
何足	-10.4142
責任	-10.4145
自來	-10.4147
李衛	-10.4152
悚	-10.4154
前此	-10.4154
軍中	-10.4154
無幾	-10.416
而成	-10.4166
收買	-10.4167
蝗	-10.4169
聲名	-10.4172
當日	-10.4173
一萬	-10.4178
刃	-10.4178
緘黙	-10.4179
吝	-10.418
藴	-10.418
飯	-10.4182
攜	-10.4184
利而	-10.4188
不才	-10.4195
撫綏	-10.4196
已行	-10.4203
闇	-10.4204
廩	-10.4207
宣布	-10.4212
慿	-10.4213
十人	-10.4215
箐	-10.4215
銀一萬	-10.4217
起見	-10.4219
太平之	-10.4221
仍行	-10.4223
申飭	-10.4226
知制誥	-10.423
與否	-10.4236
菜	-10.4238
干戈	-10.4239
衢	-10.424
或謂	-10.4247
今則	-10.4247
全無	-10.4248
天變	-10.4249
内府	-10.4252
備禦	-10.4256
深思	-10.4259
茅	-10.4264
洵	-10.4265
二十餘	-10.4267
攷	-10.4267
鉛	-10.427
謂陛下	-10.4279
實力	-10.428
畀	-10.4281
民欠	-10.4281
蒸	-10.4292
非不	-10.4294
成都	-10.4295
行移	-10.4295
聖賢	-10.4298
土地	-10.4302
教之	-10.4305
寒心	-10.4309
其任	-10.431
十一年	-10.4312
帥臣	-10.4312
在内	-10.4313
一縣	-10.4314
不可以不	-10.4319
謹奏為奏聞事竊	-10.4322
蝕	-10.4323
察訪	-10.433
伏乞皇上睿鑒施行謹奏	-10.4331
城垣	-10.4334
費用	-10.4335
為本	-10.4336
山陵	-10.4336
幸而	-10.4339
疇	-10.4339
一州	-10.434
即於	-10.434
積貯	-10.4341
武臣	-10.4345
者陛下	-10.4346
人夫	-10.4347
金帛	-10.4347
犯法	-10.4349
文章	-10.4349
四人	-10.4354
興工	-10.4361
禮官	-10.4367
不可復	-10.4368
而不為	-10.4376
沾	-10.4377
上殿	-10.4378
十五年	-10.4379
蹟	-10.4383
街	-10.4385
請旨	-10.4387
建昌	-10.4387
之過	-10.4399
凉	-10.4403
但以	-10.4403
傍	-10.4412
當以	-10.4413
以次	-10.4414
熊	-10.4414
敢言	-10.4417
開報	-10.4419
昔者	-10.442
之深	-10.4423
甚明	-10.4424
呈稱	-10.4429
肩	-10.4435
十三年	-10.4435
唐虞	-10.4449
分為	-10.4451
承平	-10.4452
求其	-10.4454
是則	-10.4455
大臣等	-10.4456
安插	-10.4459
城堡	-10.446
非常之	-10.4464
大吏	-10.4464
發落	-10.4465
請將	-10.4468
遣官	-10.4469
密奏	-10.4475
學問	-10.4476
爾部	-10.4479
剰	-10.4482
河朔	-10.4482
賚	-10.4483
鬼	-10.4488
甚於	-10.4488
即便	-10.4488
竈	-10.4496
朕亦	-10.4502
一介	-10.4514
為朝廷	-10.4515
之由	-10.4515
不忠	-10.4516
甄	-10.452
總管	-10.4523
緯	-10.4523
自謂	-10.4524
黷	-10.4524
王之	-10.4527
連年	-10.4528
雞	-10.4528
吏部尚書	-10.4529
之案	-10.4539
地土	-10.454
黎元	-10.454
遂致	-10.4543
執事	-10.4546
安静	-10.4547
凡遇	-10.4547
老弱	-10.4547
萬國	-10.4547
多士	-10.4548
甚大	-10.4552
三軍	-10.4553
宣示	-10.4554
崖	-10.4556
未足	-10.4557
片	-10.456
實封	-10.456
平常	-10.4563
此又	-10.4564
著落	-10.4565
徃來	-10.4566
迄今	-10.4569
期於	-10.457
協力	-10.457
月十一日	-10.4577
亦以	-10.4579
四分	-10.458
補用	-10.4585
皆謂	-10.4586
勞苦	-10.4586
鹿	-10.4586
剿	-10.4588
窺伺	-10.4588
邱	-10.4588
明日	-10.4589
斌	-10.459
貼黄	-10.4591
酌定	-10.4595
將伊	-10.4596
京官	-10.4597
三公	-10.4597
誠為	-10.4598
在此	-10.4603
各犯	-10.4603
和平	-10.4605
聞其	-10.4607
奄	-10.461
公務	-10.4611
人以	-10.4613
其私	-10.4615
覃	-10.4616
庶使	-10.4616
舉動	-10.4616
其能	-10.4617
謂宜	-10.4617
杭州	-10.462
本府	-10.4623
訓諭	-10.4627
激切	-10.4628
揚州	-10.4631
殺死	-10.4635
可比	-10.4635
詳悉	-10.4639
春夏	-10.4642
順天	-10.4644
徵收	-10.4644
近來	-10.4645
乙	-10.4648
江省	-10.465
無能	-10.4654
三代之	-10.4656
本職	-10.4662
有三	-10.4662
查核	-10.4662
不逺	-10.4663
君子小人	-10.4663
當今	-10.4664
遵旨	-10.4667
悼	-10.4669
遂至	-10.4669
聞見	-10.4673
此非	-10.4674
仰報	-10.4677
范時繹	-10.4677
稽古	-10.4681
為治	-10.4683
謹按	-10.4686
未幾	-10.4692
之德	-10.4696
宫室	-10.4698
祕	-10.4699
喧	-10.4703
蠶	-10.4705
二聖	-10.4707
店	-10.4708
奔競	-10.4709
諸王大臣	-10.4711
雖不	-10.4712
陋規	-10.4716
滿漢	-10.4717
不能無	-10.4725
十餘萬	-10.4726
不受	-10.4728
務在	-10.4736
尚在	-10.4741
無厭	-10.4744
賢才	-10.4744
諭令	-10.4746
竊謂	-10.4749
諸處	-10.475
王室	-10.4754
有才	-10.4754
名色	-10.4755
鞭	-10.4764
戶	-10.4771
茂盛	-10.4773
文書	-10.4774
定擬	-10.478
題明	-10.4781
勝任	-10.4782
不願	-10.4788
之極	-10.4789
仍舊	-10.479
尋常	-10.479
炳	-10.4791
少卿	-10.4793
手足	-10.4793
凍	-10.4796
塔	-10.4796
康熙五十	-10.4797
也況	-10.4799
未獲	-10.4802
居心	-10.4802
千餘兩	-10.4804
唐之	-10.4809
非特	-10.4813
經術	-10.4817
共計	-10.4821
道也	-10.4823
四海之	-10.4823
不治	-10.4824
方得	-10.4827
夀皇	-10.4828
新法	-10.4832
衣服	-10.4835
所繫	-10.4835
陽縣	-10.4837
帝曰	-10.4841
虚實	-10.4846
之輩	-10.4846
詳加	-10.4846
卹	-10.4852
書之	-10.4852
伴	-10.4855
於地方	-10.4856
多而	-10.4857
硃批諭㫖	-10.486
量加	-10.4863
建議	-10.4864
之米	-10.4868
伏願陛下	-10.4871
伏以	-10.4872
諸郡	-10.4874
敬陳	-10.4877
盡忠	-10.4877
後患	-10.4879
其法	-10.4879
而反	-10.4884
監督	-10.4884
運送	-10.4885
枯	-10.4885
當此	-10.4888
也朕	-10.4893
今月	-10.4893
奉命	-10.4896
鉞	-10.4912
進取	-10.4915
漕糧	-10.4916
鬼神	-10.4917
至如	-10.4917
前進	-10.4923
製造	-10.493
今欲	-10.493
奏謝	-10.4931
陛	-10.4935
已久	-10.4937
泗	-10.4939
遷延	-10.4939
者固	-10.4941
糜	-10.4943
完結	-10.4948
臣近	-10.4948
不取	-10.4948
是用	-10.4948
萬方	-10.4949
各邊	-10.4957
千把	-10.4957
分布	-10.4958
其故	-10.496
御批	-10.4963
去之	-10.4965
臨事	-10.4967
工料	-10.4968
仍前	-10.497
斯民	-10.4974
五代	-10.4975
霍	-10.4976
杭	-10.4976
節度使	-10.4981
殿下	-10.4987
印信	-10.4988
清楚	-10.499
也盖	-10.499
遼東	-10.4993
遲延	-10.4993
之善	-10.4996
於事	-10.4996
豈敢	-10.4996
梧	-10.5001
庶人	-10.5002
改正	-10.5002
晝	-10.5002
婚	-10.5004
章奏	-10.501
推諉	-10.501
将帥	-10.5012
臣伏覩	-10.5013
禾	-10.5014
工食	-10.5014
以重	-10.5018
詳稱	-10.5018
下詔	-10.5019
雖無	-10.502
識見	-10.5028
明主	-10.503
終不	-10.5033
二十二	-10.5033
羙	-10.5035
頽	-10.5038
營私	-10.5041
熱	-10.5042
原有	-10.5042
自取	-10.5044
臣以謂	-10.5045
挑選	-10.5056
現任	-10.5057
握	-10.5062
又如	-10.5062
涯	-10.5064
殊恩	-10.5065
天縱	-10.5065
妄行	-10.5067
所出	-10.5072
又將	-10.5072
成敗	-10.5077
聖懐	-10.508
以養	-10.5083
前赴	-10.5088
何為	-10.509
平定	-10.5092
在任	-10.5094
猜	-10.5096
潁	-10.5096
蹙	-10.5098
渥	-10.5098
侵犯	-10.5102
謹奏為恭報	-10.5104
呂	-10.5106
不能盡	-10.5107
兼管	-10.5108
之咎	-10.511
神考	-10.5113
則無	-10.5115
營汛	-10.5122
主簿	-10.5123
乎夫	-10.5127
摩	-10.5131
又云	-10.5133
臣又聞	-10.5136
詔曰	-10.5138
調發	-10.5139
不至於	-10.5141
孝宗	-10.5143
惶	-10.5146
奏聞謹奏	-10.515
保其	-10.5154
不恤	-10.5154
無故	-10.5154
聖裁	-10.5155
掖	-10.5158
更加	-10.5158
相沿	-10.5158
鐸	-10.5159
而已矣	-10.516
枕	-10.516
馬政	-10.5161
四萬	-10.5162
伏祈睿鑒謹奏	-10.5163
外省	-10.5163
亦應	-10.5166
而易	-10.5166
清明	-10.5167
優劣	-10.5167
為難	-10.5168
原額	-10.5173
兩次	-10.5175
提臣	-10.5179
守僃	-10.5181
二字	-10.5182
兩京	-10.5184
政務	-10.5184
之源	-10.5188
無罪	-10.5192
各省督撫	-10.5195
萬八千	-10.5198
不虞	-10.5199
必然	-10.52
下至	-10.5202
則人	-10.5208
如前	-10.5209
功臣	-10.5211
死亡	-10.5211
使民	-10.5213
多矣	-10.5217
官弁	-10.5217
副總兵	-10.5218
囊	-10.522
交結	-10.522
駒	-10.522
其時	-10.522
嫉	-10.5222
祻	-10.5222
年來	-10.5226
至重	-10.5226
所恃	-10.5226
則當	-10.5227
頗有	-10.5228
命令	-10.5228
開封	-10.523
可取	-10.5232
萬世之	-10.5233
陕西	-10.5233
用此	-10.5236
周之	-10.5237
屢次	-10.524
有竒	-10.5241
可憂	-10.5241
之財	-10.5242
王道	-10.5243
之福也	-10.5245
豈容	-10.5248
退而	-10.5249
者甚多	-10.525
男婦	-10.5251
忻	-10.5252
范仲淹	-10.5252
刋	-10.5253
□	-10.5256
穿	-10.5256
忠厚	-10.5257
瑛	-10.5258
者豈	-10.5267
璽	-10.5267
也如	-10.5268
行下	-10.5269
蘇松	-10.5271
慶厯	-10.5274
郊祀	-10.5278
寔	-10.528
眞	-10.5282
六分	-10.5282
若果	-10.5282
舌	-10.5282
傳聞	-10.5288
黑	-10.529
夜不收	-10.5291
豁	-10.5291
養之	-10.5291
未曽	-10.5297
蒼生	-10.5298
鐘	-10.5299
科舉	-10.5307
不和	-10.5308
舊章	-10.531
為法	-10.531
恤民	-10.5315
慚	-10.5317
骨肉	-10.5319
諄切	-10.532
逭	-10.5321
弔	-10.5321
於心	-10.5323
察之	-10.5327
然臣	-10.5328
誠心	-10.5331
紹聖	-10.5332
茍有	-10.5332
長沙	-10.5334
聖政	-10.5335
漢人	-10.5342
理應	-10.5344
之備	-10.5345
沖	-10.5345
朝政	-10.5348
士子	-10.5349
度支	-10.5351
聚衆	-10.5352
是皆	-10.5352
草率	-10.5354
道員	-10.5355
恐非	-10.5364
中軍	-10.5364
相承	-10.5365
通融	-10.5366
所據	-10.5366
大率	-10.5367
宣化	-10.5368
肅州	-10.5368
遣人	-10.5376
先事	-10.5377
知諫院	-10.5377
梗	-10.538
回奏	-10.5381
盔甲	-10.5384
萬餘兩	-10.5386
要地	-10.5388
意見	-10.5392
為非	-10.5393
具報	-10.5394
八錢	-10.5395
可觀	-10.5403
子曰	-10.5405
仲淹	-10.5406
未到	-10.541
繹	-10.5412
大員	-10.5414
之田	-10.5418
喀爾喀	-10.5419
百户	-10.542
不啻	-10.5421
十四年	-10.5422
民田	-10.5426
親詣	-10.5427
安南	-10.5428
非常	-10.5429
憂國	-10.5431
一百五十	-10.5436
犬	-10.5438
寛大	-10.5442
顛	-10.5442
殺之	-10.5442
本道	-10.5451
昂	-10.5454
利也	-10.5456
恐其	-10.5458
號為	-10.5459
名下	-10.5461
於朝廷	-10.5464
請託	-10.5468
赫	-10.5475
味	-10.5477
卧	-10.5478
喬	-10.5479
善政	-10.548
該本部	-10.5481
迎合	-10.5481
之聲	-10.5482
遴選	-10.5483
倉榖	-10.5483
兩制	-10.5484
債	-10.5485
無所不	-10.5485
恭儉	-10.5486
宰執	-10.5486
責令	-10.5489
莽	-10.5492
才能	-10.5493
詩賦	-10.5493
生於	-10.5503
事故	-10.5504
伏乞皇上睿鑒	-10.5506
爽	-10.5507
鼔	-10.5509
敵國	-10.5511
具呈	-10.5511
聘	-10.5511
詳明	-10.5513
䕃	-10.5515
土木	-10.5519
何可	-10.5522
禁中	-10.5522
有定	-10.5526
營房	-10.5526
總理	-10.5531
萬事	-10.5531
者俱	-10.5533
身為	-10.5538
淮安	-10.5538
凢	-10.5538
自昔	-10.5539
涸	-10.554
情理	-10.5541
賓	-10.5543
求之	-10.5544
鞫	-10.5544
即日	-10.5545
乂	-10.5547
二十八	-10.5552
私意	-10.5553
南昌	-10.5554
便宜	-10.5557
公正	-10.5557
執政大臣	-10.5558
正當	-10.5559
禁軍	-10.556
法制	-10.556
委用	-10.5564
經義	-10.5564
之賢	-10.5564
如天	-10.5565
漢軍	-10.5566
似應	-10.5567
而止	-10.5568
昆	-10.5568
發兵	-10.5568
謝恩	-10.5569
以杜	-10.5572
虚名	-10.5573
節儉	-10.5575
篆	-10.5575
害民	-10.5576
跪讀	-10.5578
勉勵	-10.5579
騷擾	-10.558
可使	-10.558
檢校	-10.5581
匪類	-10.5581
大河	-10.5582
海口	-10.5583
之多	-10.5587
訪察	-10.5588
往年	-10.5592
以救	-10.5594
不曽	-10.5596
能否	-10.5598
清理	-10.5605
累年	-10.5607
之樂	-10.5617
許其	-10.5618
皇子	-10.562
而不得	-10.5622
需用	-10.5623
三十年	-10.5627
明楊士竒等撰	-10.5632
有道	-10.5636
臬司	-10.5641
名實	-10.5641
員外郎	-10.5643
賫	-10.5647
無用	-10.565
太僕寺	-10.565
有何	-10.5652
大患	-10.5655
為急	-10.5657
天理	-10.5657
無補	-10.5657
自首	-10.566
確實	-10.5661
朕自	-10.5662
正直	-10.5664
不甚	-10.5664
熾	-10.5671
愚民	-10.5671
各府州縣	-10.5672
縦	-10.5672
每月	-10.5674
詎	-10.5676
難行	-10.568
時日	-10.568
罷黜	-10.568
國子監	-10.5682
部落	-10.5685
離任	-10.5687
焦	-10.5697
時時	-10.5707
者亦有	-10.5708
之不可	-10.5709
言官	-10.571
及今	-10.5712
即當	-10.5716
思所以	-10.5721
有成	-10.5723
推官	-10.5729
所管	-10.5729
之年	-10.5729
詳請	-10.5731
情罪	-10.5731
特降	-10.5731
稷	-10.5732
四路	-10.5733
殄	-10.5733
造册	-10.5735
箴	-10.5735
殃	-10.5737
九重	-10.5741
埋	-10.5742
並令	-10.5743
諳	-10.5744
我兵	-10.5746
矣一	-10.5746
不論	-10.5747
國王	-10.5748
相去	-10.5749
誠以	-10.5749
鸞	-10.5752
送部	-10.5752
近習	-10.5752
殊屬	-10.576
世祖	-10.577
陸路	-10.577
禀報	-10.578
謹奏覽奏	-10.5782
據報	-10.5784
則天下幸甚	-10.5789
亦得	-10.5793
議叙	-10.5793
兩宫	-10.5794
無疆	-10.5795
璧	-10.5796
死罪	-10.5797
甲兵	-10.5798
孰不	-10.58
聊	-10.5801
貴賤	-10.5802
國計	-10.5803
慘	-10.5805
𦵏	-10.5806
知道了	-10.5806
而不言	-10.5807
理合繕摺	-10.5807
腹裏	-10.5809
冩	-10.581
盡善	-10.5812
近嵗	-10.5815
固當	-10.5815
之常	-10.5817
當世	-10.582
兩浙	-10.582
天氣	-10.5822
無名	-10.5827
侍御史	-10.5828
道府	-10.5829
定制	-10.583
天性	-10.5831
彞	-10.5837
大理寺	-10.5837
剪	-10.5838
評	-10.5839
倦	-10.5842
運司	-10.5845
雍正十一年	-10.5846
萬邦	-10.5853
所共知	-10.5858
積欠	-10.586
故道	-10.586
年十月	-10.5862
覽奏	-10.5862
者有之	-10.5866
一件	-10.5866
弩	-10.5867
不意	-10.5869
豪傑	-10.5869
晋	-10.5871
又經	-10.5871
瑕	-10.5873
挨	-10.5873
魁	-10.5873
尚多	-10.5874
髙麗	-10.5876
禘	-10.5877
兵部尚書	-10.5877
被其	-10.5879
凡百	-10.5883
安可	-10.5885
府縣	-10.5889
涼	-10.5891
計其	-10.5891
以時	-10.5892
諸色	-10.5893
薊	-10.5893
千載	-10.5899
此臣所以	-10.5901
之誅	-10.5902
二十七	-10.5905
必當	-10.5909
縣官	-10.5909
寧謐	-10.5909
曽經	-10.591
議擬	-10.5914
織造	-10.5914
而為之	-10.5915
上下相	-10.5917
商量	-10.5918
闕失	-10.5919
西南	-10.5919
特諭	-10.592
以報	-10.5923
年八月	-10.5926
此一	-10.5927
以明	-10.5928
諤	-10.593
各縣	-10.593
為盜	-10.5933
裁革	-10.5935
沅	-10.5937
猶恐	-10.5938
惓惓	-10.594
審明	-10.5941
他省	-10.5942
煙	-10.5942
困苦	-10.5943
康熈	-10.5943
州府知府	-10.5946
以全	-10.5946
侍中	-10.5947
不聽	-10.5949
自必	-10.5949
弓馬	-10.5953
才識	-10.5955
望其	-10.5957
推恩	-10.5963
視之	-10.5963
上諭内閣	-10.5964
史官	-10.5965
行禮	-10.5965
禽	-10.5969
縷	-10.597
胄	-10.597
襄陽	-10.5971
輔弼	-10.5971
叚	-10.5972
兩河	-10.5973
境内	-10.5975
臣竊聞	-10.5978
百人	-10.598
條例	-10.598
尚書省	-10.5982
坐視	-10.5983
先是	-10.5983
而況	-10.5985
别有	-10.5988
臣不敢	-10.5991
州縣官	-10.5993
存亡	-10.5993
方能	-10.5995
乎且	-10.5997
勉强	-10.5999
裁減	-10.5999
人有	-10.6001
嶽	-10.6003
徭	-10.6005
鬬	-10.6007
繕摺奏聞	-10.6007
柳	-10.6008
穢	-10.6009
每遇	-10.601
五日	-10.6013
兵革	-10.6013
公言	-10.6016
御史臺	-10.6016
赴任	-10.6018
宣王	-10.6021
朕聞	-10.6023
鹽政	-10.6026
正統	-10.6028
敘	-10.6028
愁	-10.6033
士之	-10.6033
嬰	-10.6034
億兆	-10.6035
臧	-10.6036
坡	-10.6038
修造	-10.6039
大約	-10.6044
祥符	-10.6046
管事	-10.6049
上流	-10.6057
議得	-10.6065
在廷	-10.6065
天聽	-10.6065
沽	-10.6067
潭	-10.6071
聳	-10.6074
時為	-10.6075
表裏	-10.6076
如䝉	-10.6076
作速	-10.6078
之意也	-10.6078
惟在	-10.6083
若使	-10.6084
獲罪	-10.6085
業已	-10.6086
精兵	-10.6092
詳酌	-10.6098
聲勢	-10.6098
之象	-10.6101
之未	-10.6101
年久	-10.6103
也然而	-10.6105
𠡠	-10.6105
可勝	-10.6106
更改	-10.6107
之需	-10.6107
仰祈睿鑒事竊	-10.6112
臣之所	-10.6112
庸愚	-10.6118
設官	-10.612
日食	-10.6123
相符	-10.6125
經歴	-10.6128
将來	-10.6131
或曰	-10.6131
協營	-10.6135
罄	-10.6136
異時	-10.6138
㳂	-10.6139
響	-10.6139
羸	-10.6141
罪人	-10.6142
又諭	-10.6147
者當	-10.6148
將弁	-10.6153
滇省	-10.6154
人無	-10.6155
第三	-10.6155
委之	-10.6157
烏䝉	-10.6162
上䟽	-10.6165
長安	-10.6168
障	-10.6171
萬三千	-10.6173
駮	-10.6173
尤宜	-10.6175
脉	-10.6176
勉力	-10.618
惻	-10.6185
出師	-10.6185
甚屬可嘉	-10.6186
者少	-10.6187
為始	-10.6187
二百餘	-10.6191
入官	-10.6193
之選	-10.6195
九錢	-10.6195
慶歴	-10.6196
行營	-10.6199
並非	-10.62
上䟽曰	-10.6201
有如	-10.6201
實效	-10.6202
南方	-10.6205
此所謂	-10.6207
綜	-10.6208
濁	-10.6208
自可	-10.6209
翟	-10.6211
腐	-10.6211
稼	-10.6212
嫁	-10.6212
匣	-10.6213
煥	-10.6214
開導	-10.6215
不改	-10.6217
乃是	-10.6217
棄之	-10.6221
奉到	-10.6223
六萬	-10.623
䛕	-10.6239
社稷之	-10.6241
不由	-10.6245
黍	-10.6248
傲	-10.6248
大明	-10.6248
伏聞	-10.625
於中	-10.6251
大典	-10.6251
蔵	-10.6252
從重治罪	-10.6255
齊蘇勒	-10.6255
重兵	-10.6259
其在	-10.626
又無	-10.6266
明皇	-10.6271
從公	-10.6272
諫議大夫	-10.6272
禪	-10.6275
積習	-10.6277
覇	-10.6278
萬機	-10.6278
功名	-10.6279
題叅	-10.6283
不多	-10.6284
人多	-10.6284
耗羨	-10.6285
餘丁	-10.6286
豈宜	-10.6286
擄	-10.6288
年三月	-10.6289
富弼	-10.6289
隱匿	-10.629
其次	-10.6292
體國	-10.6297
所需	-10.6298
否則	-10.6298
雜處	-10.6299
罷之	-10.6302
一夫	-10.6303
理財	-10.6307
邊防	-10.6308
圭	-10.6313
鹽課	-10.6313
拓	-10.6314
伏候	-10.6315
義勇	-10.6316
不須	-10.6317
之累	-10.6319
將来	-10.6319
國勢	-10.632
特恩	-10.6321
之寄	-10.6321
一毫	-10.6321
到京	-10.6323
懇切	-10.6324
不惜	-10.6325
信任	-10.6327
應天	-10.6327
之俗	-10.6328
貽誤	-10.6333
鞏	-10.6333
不遵	-10.6334
俱著	-10.6334
通州	-10.6335
等第	-10.6337
詳定	-10.6337
空虚	-10.6338
進𠞰	-10.6339
大理	-10.6342
權宜	-10.6346
兵士	-10.6349
墳	-10.6349
得一	-10.6353
部議覆	-10.6357
供給	-10.6359
賞賚	-10.6362
變通	-10.6366
鄉村	-10.6372
而歸	-10.6373
率皆	-10.6374
竇	-10.6375
八千	-10.6377
秋冬	-10.6378
不稱	-10.6378
兵餉	-10.6378
兵力	-10.6381
影	-10.6383
二處	-10.6384
僣	-10.6386
萬姓	-10.6386
不實	-10.6389
两	-10.639
股	-10.6391
於國	-10.6391
歡呼	-10.6392
復何	-10.6397
鳥鎗	-10.6399
卑職	-10.64
其位	-10.6403
田土	-10.6406
火耗	-10.6407
永樂	-10.6407
可望	-10.641
以陛下	-10.6411
吾之	-10.6413
全完	-10.6414
回籍	-10.6416
久矣	-10.6418
徇私	-10.6419
祁	-10.642
汾	-10.6422
士庶	-10.6423
更為	-10.6424
資格	-10.6428
改過	-10.6428
郡國	-10.6429
與民	-10.643
明矣	-10.6434
永逺	-10.6435
其説	-10.6437
所收	-10.6438
臣民	-10.6439
古州	-10.6443
又恐	-10.6444
幾何	-10.6445
天時	-10.6446
起解	-10.6449
之急	-10.645
勸懲	-10.6452
諧	-10.6455
鄒	-10.6458
感召	-10.6458
疾病	-10.6459
審理	-10.646
潞	-10.6461
研	-10.6464
早稻	-10.6466
可憫	-10.6467
凡所	-10.6468
督撫提鎮	-10.6471
得志	-10.6473
身家	-10.6479
銀二萬	-10.648
是為	-10.6481
引河	-10.6485
所及	-10.6487
不准	-10.6488
言也	-10.6491
無為	-10.6493
撃	-10.6494
陳世倌	-10.6497
見聞	-10.6497
流民	-10.6499
繁多	-10.6501
奈	-10.6502
從寛	-10.6502
逺人	-10.6504
寛仁	-10.6506
是謂	-10.6507
供應	-10.6508
不難	-10.6508
萬年	-10.6509
於今日	-10.651
是何	-10.6513
公道	-10.6513
三十六	-10.6515
沂	-10.6524
而猶	-10.6527
性命	-10.6527
扼	-10.6528
合於	-10.6528
以助	-10.6529
亦嘗	-10.653
姻	-10.6531
太守	-10.6534
三等	-10.6535
兖	-10.6537
恭繳	-10.6538
台吉	-10.6539
歸公	-10.6541
率領	-10.6543
衙	-10.6544
查有	-10.6544
不禁	-10.6546
執中	-10.6547
再四	-10.6558
可畏	-10.6559
夷人	-10.6559
殿中侍御史	-10.656
此輩	-10.6564
則可以	-10.6564
上仁宗論	-10.6565
之險	-10.6569
沿河	-10.657
收成分數	-10.6572
固非	-10.6574
問罪	-10.6574
五品	-10.658
三錢	-10.6591
版	-10.6591
涕	-10.6592
數千里	-10.6593
民困	-10.6598
昧死	-10.66
十餘年	-10.66
冨	-10.66
安徽	-10.6602
忠信	-10.6605
牟	-10.6607
守法	-10.6612
騎射	-10.6613
千人	-10.6616
之令	-10.6619
父兄	-10.6619
亦已	-10.6621
而使	-10.6622
是日	-10.6628
粒	-10.6629
夔	-10.6633
年四月	-10.6633
礪	-10.6635
不平	-10.6636
未見其	-10.6636
報部	-10.6637
虚文	-10.6637
巢穴	-10.6637
二十三	-10.6638
至矣	-10.6638
迅	-10.664
郝玉麟	-10.6643
卯	-10.6644
每日	-10.6644
千古	-10.6644
上供	-10.6647
黎庶	-10.6648
不給	-10.6653
清河	-10.6654
名曰	-10.6654
需索	-10.6657
東北	-10.6659
而知	-10.666
再有	-10.6662
百世	-10.6662
恭惟陛下	-10.6664
去冬	-10.6666
題准	-10.6669
小大	-10.6669
之儀	-10.6673
二十萬	-10.6675
毛文銓	-10.6676
不修	-10.6677
年九月	-10.6677
絞	-10.6679
四曰	-10.6679
擔	-10.668
太和	-10.6685
若能	-10.6686
往返	-10.6686
之尊	-10.6687
而來	-10.6687
太常寺	-10.6689
十六年	-10.6689
忠賢	-10.6691
躬親	-10.6695
戰船	-10.6696
上疏曰	-10.6696
悛改	-10.6701
甚矣	-10.6702
萊	-10.6702
閔	-10.6703
今雖	-10.6705
中興之	-10.6713
尹繼善	-10.6716
實心任事	-10.6716
之大者	-10.6718
之積	-10.6719
三也	-10.6721
優容	-10.6722
隄防	-10.673
名為	-10.6732
職名	-10.6733
之基	-10.674
裘	-10.674
之請	-10.6742
人物	-10.6742
三品	-10.6744
續據	-10.6745
臣竊觀	-10.6747
未可知	-10.6748
點	-10.6749
職司	-10.6749
車駕	-10.6753
學政	-10.6755
異於	-10.6758
頗多	-10.6759
即時	-10.676
太祖皇帝	-10.6761
矣且	-10.6762
年七月	-10.6763
不正	-10.6763
去其	-10.6767
自非	-10.6767
可知矣	-10.6768
利病	-10.6771
有能	-10.6775
堂官	-10.6776
淮揚	-10.6786
餓	-10.6787
蠻夷	-10.679
寮	-10.6795
如此而	-10.6795
掌印	-10.68
方為	-10.6801
聖學	-10.6802
豁免	-10.6805
職在	-10.6805
奏狀	-10.6806
額設	-10.681
為戒	-10.6812
聽候	-10.6812
也但	-10.6813
奥	-10.6814
年老	-10.6814
滛	-10.6816
躋	-10.6817
怙	-10.6819
從其	-10.6822
日用	-10.6826
寸不等	-10.6826
而進	-10.6826
之異	-10.6833
無足	-10.684
二千石	-10.6841
報效	-10.6843
亦須	-10.6843
而朝廷	-10.6843
無多	-10.6844
靈州	-10.6845
出口	-10.6847
凛遵	-10.6851
思慮	-10.6852
皆當	-10.6853
瑣	-10.6856
日乆	-10.6857
衣冠	-10.6859
蔡珽	-10.6859
糓	-10.6859
靖康	-10.686
衆心	-10.686
一同	-10.686
鎮撫	-10.6863
雙	-10.6864
該督	-10.6864
廵檢	-10.6869
至是	-10.6871
待制	-10.6873
爾其	-10.6873
天下之士	-10.6874
職官	-10.6876
可得而	-10.6877
重輕	-10.6878
以昭	-10.688
宣府	-10.688
治體	-10.6887
構	-10.689
試之	-10.6891
佩	-10.6894
於天	-10.6896
詠	-10.6896
之長	-10.6902
而終	-10.6906
有人	-10.6912
無論	-10.6914
荆州	-10.6918
一省	-10.6921
題奉欽依	-10.6921
檄行	-10.6922
衮	-10.6925
餽	-10.6925
元氣	-10.6926
交通	-10.6927
者謂	-10.6928
痊	-10.6929
止是	-10.6929
瘴	-10.6931
原無	-10.6931
見之	-10.6932
完納	-10.6935
則陛下	-10.6937
旺	-10.6938
有意	-10.6938
陂	-10.6939
神武	-10.6941
南陽	-10.6943
之習	-10.6944
所難	-10.6945
二省	-10.6956
無從	-10.6957
總之	-10.6958
論之	-10.6961
少而	-10.6962
元帝	-10.6962
營遊擊	-10.6968
奉有	-10.6969
臣欲乞	-10.6971
唱	-10.6972
依擬	-10.6974
不舉	-10.6974
大舉	-10.6974
神道	-10.6974
要在	-10.6975
固不可	-10.6976
也凡	-10.6978
不職	-10.6979
一字	-10.698
三百餘	-10.6984
北岸	-10.6987
得所	-10.6987
然猶	-10.6988
也然則	-10.6991
不計	-10.6991
合行	-10.6995
好生	-10.6995
蹤	-10.7
膚	-10.7001
不覺	-10.7003
罷去	-10.7003
輸納	-10.7005
而起	-10.7007
址	-10.7007
私鹽	-10.7008
又非	-10.7009
廣南	-10.7009
二十一	-10.7009
使得	-10.7009
叁	-10.7011
煎	-10.7013
不遑	-10.7014
興修	-10.702
一千五百	-10.702
亦不過	-10.702
本寺	-10.7022
百餘里	-10.7023
此意	-10.7023
士氣	-10.7025
人君之	-10.703
治國	-10.7034
以廣	-10.7035
皇天	-10.7039
請以	-10.7039
教官	-10.704
之所致也	-10.7044
親見	-10.7046
發覺	-10.7047
翰林院	-10.7049
見任	-10.705
米穀	-10.705
至愚	-10.7054
俟其	-10.7055
各路	-10.7057
歴任	-10.7063
仁愛	-10.7065
米糧	-10.7068
賊衆	-10.707
洪武	-10.7071
之見	-10.7072
論議	-10.7073
即乞	-10.7073
一有	-10.7073
蘆	-10.7075
舅	-10.7076
調用	-10.7076
曾經	-10.7076
也是以	-10.7079
恩賞	-10.7079
錢物	-10.708
京西	-10.708
敢有	-10.708
醇	-10.7081
吹	-10.7081
殖	-10.7082
譚	-10.7082
今聞	-10.7083
歷	-10.7083
仰賴	-10.7084
賊首	-10.7086
存心	-10.7088
提調	-10.7098
成就	-10.7103
安得不	-10.7106
天語	-10.7108
狐	-10.7113
弃	-10.7113
未曾	-10.7113
首領	-10.7114
渙	-10.7114
冲	-10.7115
娶	-10.7115
乏食	-10.7122
言語	-10.7122
恪遵	-10.7128
與人	-10.7128
兹據	-10.7129
前古	-10.7129
太宗皇帝	-10.7132
教授	-10.7133
而上	-10.7136
不得已而	-10.7137
心力	-10.714
偶有	-10.7143
又上奏曰臣	-10.7143
瀝	-10.7153
虗	-10.7155
年五月	-10.7157
為君	-10.7157
王國棟	-10.7157
内侍	-10.7158
壅蔽	-10.7158
社倉	-10.716
抒	-10.716
另摺	-10.716
變而	-10.7164
陳時夏	-10.7166
喜怒	-10.7171
小事	-10.7176
布衣	-10.7176
亢	-10.7179
必使	-10.7183
以實	-10.7183
事機	-10.7184
吏民	-10.7187
于此	-10.7187
標下	-10.7187
百王	-10.7189
糧船	-10.7194
凱	-10.7196
繪	-10.7196
饑饉	-10.7197
之列	-10.7198
十名	-10.7198
等州	-10.7199
求言	-10.7203
言責	-10.7213
知有	-10.7214
首尾	-10.7215
世宗	-10.7216
迄	-10.7219
異同	-10.7219
困於	-10.7223
三尺	-10.7225
現有	-10.7227
卦	-10.7228
該地方官	-10.723
瘦	-10.7232
解送	-10.7236
急公	-10.7238
衆多	-10.7238
擺	-10.7239
積年	-10.724
十一日	-10.724
則可	-10.724
十萬石	-10.7241
仁宗皇帝	-10.7241
公爲	-10.7241
本無	-10.7242
日以	-10.7242
昭然	-10.7243
溜	-10.7243
既多	-10.7244
司農	-10.7246
困窮	-10.7248
㕘奏	-10.725
二十六	-10.7252
皆在	-10.7252
乞勑	-10.7261
蔑	-10.7268
躬行	-10.7269
聨	-10.727
鬱	-10.727
於内	-10.7272
躁	-10.7272
執法	-10.7272
靳	-10.7275
早賜	-10.7277
亦未可定	-10.7278
勵精	-10.728
養贍	-10.7284
前件	-10.7284
山林	-10.7287
之漸	-10.7287
祖父	-10.7287
罪惡	-10.7288
清水	-10.7289
過失	-10.729
一府	-10.7293
同列	-10.7295
一等	-10.7296
瞽	-10.7302
不均	-10.7305
下流	-10.7306
至大	-10.7306
約計	-10.7306
僧道	-10.731
茫	-10.7312
撲	-10.7313
鶴	-10.7314
環慶	-10.7316
史館	-10.7317
功徳	-10.7318
以盡	-10.7318
盡數	-10.732
紓	-10.7321
何益	-10.7321
藩臬	-10.7326
赴部	-10.7326
得宜	-10.7334
他處	-10.7337
以事	-10.7338
詳察	-10.7338
留中	-10.734
粤西	-10.7343
跟	-10.7344
侔	-10.7345
沔	-10.7346
單于	-10.7346
至今未	-10.7347
不輕	-10.735
而退	-10.7355
又奏	-10.7357
致有	-10.736
之詞	-10.7361
巡檢	-10.7367
成風	-10.7368
堵	-10.737
俾得	-10.7373
告成	-10.738
雲貴	-10.7381
士人	-10.7382
因公	-10.7383
日後	-10.7384
南岸	-10.7385
黠	-10.7386
其民	-10.739
論事	-10.7392
挖	-10.7392
操演	-10.7396
不報	-10.7398
巡按御史	-10.74
八萬	-10.7402
石麟	-10.7404
敗露	-10.7405
成命	-10.7411
撫恤	-10.7417
此豈	-10.7419
屢經	-10.7419
慎之	-10.7421
烽	-10.7422
斷不敢	-10.7423
之務	-10.7426
既而	-10.7426
錢榖	-10.7426
頋	-10.7426
合用	-10.7427
奸邪	-10.7428
歴代名臣奏議卷	-10.7428
養馬	-10.7429
已來	-10.743
駝	-10.7432
故其	-10.7432
婦人	-10.7433
蔡京	-10.7433
既經	-10.7435
一則	-10.7438
不勝其	-10.7439
總制	-10.744
實用	-10.7447
十萬兩	-10.7447
中人	-10.7448
之夫	-10.7449
竭誠	-10.745
地名	-10.7453
有零	-10.7453
覲	-10.7456
葺	-10.7458
司空	-10.7462
久而	-10.7463
訐	-10.7464
者哉	-10.7465
也况	-10.7466
菲	-10.7469
務須	-10.747
該部知道	-10.7472
布按二司	-10.7473
直抵	-10.7473
督責	-10.7474
可疑	-10.7478
獨斷	-10.748
經畧	-10.748
燾	-10.7482
迤	-10.7484
以定	-10.7488
畀以	-10.7489
商民	-10.749
即為	-10.7491
官制	-10.7493
聲色	-10.7493
正項	-10.7494
夏人	-10.7496
縮	-10.7497
慙	-10.7499
閤	-10.7501
諫曰	-10.7502
宵	-10.7503
攀	-10.7503
憾	-10.7505
禧	-10.7505
鈍	-10.7506
石文焯	-10.7506
祈禱	-10.7508
名臣	-10.7512
億	-10.7513
嵇曾筠	-10.7514
仰惟	-10.7516
譬如	-10.7522
再為	-10.7525
休致	-10.7525
惟以	-10.7527
金銀	-10.7531
謂其	-10.7533
方許	-10.7534
乎今	-10.7535
意欲	-10.7537
永平	-10.7537
侵欺	-10.7537
尤當	-10.7537
之化	-10.7539
鎮江	-10.7539
回京	-10.754
餘石	-10.7541
承襲	-10.7542
亦甚	-10.7543
出納	-10.7545
曰陛下	-10.7546
像	-10.7546
長官	-10.7547
韜	-10.7548
話	-10.7548
降詔	-10.7552
諌官	-10.7559
天寳	-10.7561
仰荷	-10.7561
流移	-10.7564
不患	-10.7565
其始	-10.7568
也非	-10.7568
平生	-10.7568
盛京	-10.7569
究其	-10.7572
盤費	-10.7576
足矣	-10.7577
䜛	-10.7579
奏准	-10.7581
叟	-10.7582
城内	-10.7582
成災	-10.7584
近世	-10.7586
何處	-10.7586
太尉	-10.7586
風化	-10.7588
所論	-10.759
稠	-10.7591
之書	-10.7591
災變	-10.7593
二日	-10.7594
秦漢	-10.7599
七錢	-10.7599
愚以為	-10.76
之規	-10.76
海疆	-10.7601
胥吏	-10.7602
諸生	-10.7603
石零	-10.7604
將何	-10.7607
出征	-10.7607
成法	-10.7609
餘銀	-10.761
悉皆	-10.7612
徑自	-10.7614
兢	-10.7616
賄賂	-10.7616
土民	-10.762
惶悚	-10.7623
大半	-10.7624
劒	-10.7624
奕	-10.7628
況今	-10.7629
即與	-10.7633
康熙三十	-10.7637
怠忽	-10.7639
緡	-10.7645
奉聖㫖是	-10.7648
差除	-10.7648
二事	-10.765
六錢	-10.7653
今朝廷	-10.7654
沴	-10.7655
代為	-10.7659
應得	-10.7659
時雨	-10.7661
盛德	-10.7662
瘁	-10.7662
不爲	-10.7663
滌	-10.7664
早為	-10.7668
官爵	-10.7668
齎摺	-10.7668
十七年	-10.7671
様	-10.7672
堆	-10.7672
初無	-10.7675
天下之心	-10.7675
不允	-10.7676
訓示	-10.7678
朕實	-10.7678
公項	-10.7678
一錢	-10.7681
邊鄙	-10.7682
秋收	-10.7684
無益於	-10.7685
大名	-10.7686
轉輸	-10.7686
不成	-10.7687
分給	-10.7694
公家	-10.7695
一舉	-10.7695
五人	-10.7696
風憲	-10.77
姦人	-10.7702
㤙	-10.7702
武昌	-10.7705
栽	-10.7706
感恩	-10.7706
可以為	-10.7707
其上	-10.7708
舊有	-10.771
詩書	-10.7712
捏	-10.7713
甚非	-10.7714
望風	-10.7714
必不能	-10.7714
者宜	-10.7719
選差	-10.7719
所存	-10.7721
令各	-10.7721
鹽法	-10.7723
天戒	-10.7723
一念	-10.7723
有闕	-10.7723
屬官	-10.7724
經久	-10.7725
施行謹奏	-10.7726
一石	-10.7727
十日	-10.7727
必待	-10.7729
施於	-10.773
宣帝	-10.773
員弁	-10.7734
不廢	-10.7735
欲望聖慈	-10.7736
目擊	-10.7736
脚價	-10.7736
明知	-10.7736
庫銀	-10.7737
感動	-10.7738
物議	-10.7739
偷安	-10.774
廓	-10.774
各案	-10.7741
之助	-10.7741
久任	-10.7741
抃	-10.7742
一丈	-10.7744
到部	-10.7744
臯	-10.7745
亞	-10.7746
國帑	-10.7748
岡	-10.7748
深恩	-10.7748
奎	-10.7751
極言	-10.7751
奉上諭據	-10.7752
殊不知	-10.7754
失職	-10.7754
岳濬	-10.7755
以應	-10.7755
悉行	-10.7757
西戎	-10.7758
特命	-10.7762
既久	-10.7764
議曰	-10.7767
道徳	-10.7769
乃以	-10.7772
保固	-10.7773
可保	-10.7773
皆非	-10.7773
見陛下	-10.7776
部覆	-10.7779
選人	-10.7779
問其	-10.7782
臯陶	-10.7783
官職	-10.7786
一本	-10.7786
兩司	-10.7786
瑾	-10.7787
獄訟	-10.7788
夤縁	-10.779
誤事	-10.7794
未嘗有	-10.7795
年嵗	-10.7795
估計	-10.7798
元和	-10.7802
勞績	-10.7806
諳練	-10.7812
創業	-10.7816
體察	-10.7819
猺	-10.7822
敵騎	-10.7822
承天	-10.7823
例應	-10.7824
紏	-10.7825
蠢	-10.7828
臆	-10.783
裨益	-10.783
事關	-10.7834
其父	-10.7836
庶可	-10.7837
至有	-10.7838
瑞雪	-10.7839
康熙四十	-10.7841
大將	-10.7843
實無	-10.7843
才力	-10.7843
俱照	-10.7845
匹夫	-10.7845
雖經	-10.7847
豐年	-10.7848
無常	-10.7849
晉省	-10.7849
革去	-10.785
各寨	-10.785
盖以	-10.7851
視朝	-10.7851
湖廣總督	-10.7851
解到	-10.7853
持節	-10.7853
報國	-10.7854
失業	-10.7857
等曰	-10.7858
一出	-10.786
粹	-10.7862
牘	-10.7869
入境	-10.787
圖之	-10.7872
感激涕零	-10.7872
誅戮	-10.7875
便於	-10.7875
右正言	-10.7876
抵任	-10.7878
救之	-10.7878
昊	-10.788
禮儀	-10.7882
擇人	-10.7894
内除	-10.7894
則朝廷	-10.7894
饑民	-10.7897
咨部	-10.7898
不務	-10.7901
賢員	-10.7901
嗣位	-10.7902
繋	-10.7906
實非	-10.7906
猓	-10.7906
廕	-10.7907
孺	-10.7907
伏祈皇上睿鑒謹奏	-10.7907
宸衷	-10.7908
晨	-10.7909
懽	-10.7909
斧	-10.7912
捍禦	-10.7913
准行	-10.7916
譯	-10.7919
報効	-10.7921
告竣	-10.7925
不知所	-10.7926
合併	-10.7928
播種	-10.7928
東川	-10.793
不動	-10.7931
我之	-10.7934
上意	-10.7934
陵寢	-10.7935
二十三日	-10.7941
必將	-10.7941
此番	-10.7944
之黨	-10.7945
爵賞	-10.7946
多係	-10.7947
化導	-10.7947
冰	-10.7948
恭謝	-10.7949
濤	-10.7949
聞知	-10.7949
照常	-10.795
姦宄	-10.7951
諸務	-10.7952
紛紜	-10.7952
淨	-10.7952
所生	-10.7953
烟	-10.7953
架	-10.7954
備用	-10.7954
或可	-10.7958
焦勞	-10.7961
甚重	-10.7966
也臣愚	-10.7968
誠敬	-10.797
所部	-10.7972
牽制	-10.7972
朕念	-10.7973
甚難	-10.7975
懇請	-10.7978
國史	-10.7986
臺諌	-10.7986
懲治	-10.7987
漠	-10.7987
則彼	-10.7989
楮	-10.7989
桃	-10.7992
兌	-10.7993
差委	-10.7993
穗	-10.7997
深慮	-10.7998
臨安	-10.7998
大中	-10.7999
大槩	-10.7999
聲息	-10.8004
署督	-10.8005
征伐	-10.8006
不察	-10.8007
俱在	-10.8007
城郭	-10.8008
奉到硃批	-10.8008
教習	-10.8009
舊法	-10.801
利於	-10.801
宣撫	-10.801
德音	-10.8012
足用	-10.8013
四府	-10.8015
塞責	-10.8021
惟陛下留神	-10.8026
不可行	-10.8026
訪問	-10.8026
流亡	-10.8027
名口	-10.8031
兊	-10.8032
影響	-10.8034
常有	-10.8034
繡	-10.8034
恩賜	-10.8036
其下	-10.8037
未久	-10.8045
丁憂	-10.8047
配天	-10.8047
億萬	-10.8048
之心而	-10.8051
河間	-10.8053
以清	-10.8055
草木	-10.8056
而廢	-10.8056
䑓諫	-10.8058
施之	-10.8058
折色	-10.8062
土人	-10.8063
既不能	-10.8063
俱令	-10.8068
切於	-10.8068
甘心	-10.807
重寄	-10.807
蹇	-10.807
凟	-10.8074
罵	-10.8076
陞任	-10.8077
原摺	-10.8078
不妨	-10.8079
匱乏	-10.808
因事	-10.8083
頃者	-10.8083
之材	-10.8083
無所不至	-10.8087
顆	-10.8089
廂	-10.8093
貪婪	-10.8093
門外	-10.8096
文移	-10.8097
此例	-10.8102
所遺	-10.8108
在朝	-10.8108
魂	-10.811
奪其	-10.811
覬	-10.8112
安置	-10.8112
責以	-10.8113
善者	-10.8115
鈐	-10.8117
洊	-10.8117
時加	-10.8119
石禮哈	-10.8119
一靣	-10.8121
三王	-10.8121
逺慮	-10.8122
眼	-10.8122
致祭	-10.8125
冠帶	-10.8127
遵循	-10.8135
縣丞	-10.8136
納諫	-10.8136
維新	-10.8136
夫役	-10.8139
御史大夫	-10.8147
以此為	-10.8154
固宜	-10.8154
東宫	-10.8154
亦乞	-10.8154
邊患	-10.8155
藩籬	-10.8155
馬歩	-10.8156
良善	-10.8158
不克	-10.8159
疵	-10.8159
不負	-10.8161
提㸃刑獄	-10.8162
以補	-10.8162
出境	-10.8162
修防	-10.8165
若謂	-10.8166
又況	-10.8167
北方	-10.8167
觔	-10.8168
人役	-10.8174
成憲	-10.8174
久逺	-10.8176
同日又奏為奏聞事竊	-10.8176
之所謂	-10.8179
䝉皇上天恩	-10.8179
不作	-10.818
何得	-10.8181
欲求	-10.8182
也乃	-10.8183
諸凡	-10.8185
三十日	-10.8189
所不能	-10.8189
身任	-10.8189
有所未	-10.819
姿	-10.8194
用命	-10.8198
浹	-10.8199
芻蕘	-10.82
都城	-10.8201
以固	-10.8202
此實	-10.8202
之形	-10.8209
内降	-10.8214
有犯	-10.8216
數倍	-10.8218
近因	-10.8219
無敢	-10.8219
接到	-10.822
牧馬	-10.822
珪	-10.8222
移駐	-10.8223
取人	-10.8224
數年以來	-10.8224
購	-10.8227
内帑	-10.8227
手詔	-10.8229
荷䝉皇上	-10.8229
事闗	-10.823
供奉	-10.823
民兵	-10.8232
凋	-10.8235
賊人	-10.8238
在我	-10.8238
豈惟	-10.8241
按察	-10.8241
禍福	-10.8243
名節	-10.8244
装	-10.8245
不可用	-10.8245
軟	-10.8245
叅政	-10.8246
串	-10.8247
剖	-10.8247
良法	-10.8247
見有	-10.8248
先於	-10.8249
賦役	-10.8249
徒以	-10.8249
朕甚	-10.8251
官府	-10.8251
欺隱	-10.8253
此所以	-10.826
四名	-10.8264
有益於	-10.8268
多端	-10.827
職分	-10.827
無窮之	-10.827
宦官	-10.8273
轉飭	-10.828
皆曰	-10.828
稀	-10.8281
隨據	-10.8281
將相	-10.8284
缺出	-10.8287
邊陲	-10.8288
大軍	-10.8289
睢	-10.8289
未為	-10.829
運至	-10.829
廣州	-10.8294
聽政	-10.8299
永寧	-10.8299
陣亡	-10.8301
勒限	-10.8304
執奏	-10.8306
昇平	-10.8306
起身	-10.8311
姑容	-10.8317
賢不肖	-10.8317
言行	-10.8321
汲汲	-10.8326
縣地方	-10.833
和議	-10.833
悮	-10.833
隆慶	-10.8331
漂	-10.8331
甘霖	-10.8332
慣	-10.8334
前撫	-10.8335
徹底	-10.8336
不即	-10.8337
妄言	-10.8338
協副將	-10.8338
之先	-10.8339
濮王	-10.8339
不可勝數	-10.8342
仍復	-10.8342
本内	-10.8344
不經	-10.8349
解部	-10.835
民命	-10.8351
兼理	-10.8352
暫行	-10.8353
實録	-10.8354
大水	-10.8355
分析	-10.8357
侍衛	-10.8359
失事	-10.836
而乃	-10.8361
斷不	-10.8366
竦	-10.8368
合詞	-10.8368
旒	-10.8368
萬死	-10.8369
兼并	-10.8369
據各屬	-10.8372
入於	-10.8376
李維鈞	-10.8376
舊欠	-10.8376
之暇	-10.8377
河務	-10.8379
衆論	-10.8379
停當	-10.8382
保障	-10.8384
人臣之	-10.839
修舉	-10.839
也同日又奏為	-10.8393
繕摺奏聞謹奏	-10.8394
口外	-10.8395
分巡	-10.8395
繕摺具奏	-10.8397
罪戾	-10.8398
曰我	-10.8409
朞	-10.841
態	-10.841
而忘	-10.841
戡	-10.8413
俘	-10.8413
雖多	-10.8414
於斯	-10.8414
屆	-10.8415
待其	-10.8415
佟	-10.8416
雖已	-10.8416
灰	-10.8418
竊發	-10.8419
狂妄	-10.8427
三十餘	-10.8431
空言	-10.8433
便可	-10.8433
哉今	-10.8435
方且	-10.8437
一級	-10.8437
又言	-10.8442
卞	-10.8443
以寛	-10.8448
憎	-10.8449
嬪	-10.845
萬貫	-10.8451
名分	-10.8452
營田	-10.8453
相望	-10.8454
狩	-10.8455
佳	-10.8457
畏天	-10.8457
此風	-10.8458
不謹	-10.8459
掣肘	-10.846
副将	-10.8461
隕越	-10.8463
批諭	-10.8465
紳衿	-10.8465
流通	-10.8466
太祖太宗	-10.8467
開國	-10.8467
首惡	-10.8469
丁寧	-10.847
供出	-10.8472
之比	-10.8474
武弁	-10.8474
加謹	-10.8474
和衷	-10.8475
時刻	-10.8475
往来	-10.8475
朋比	-10.8476
寃抑	-10.8476
即是	-10.848
留任	-10.8482
簿書	-10.8483
銀内	-10.8484
到彼	-10.8485
此理	-10.8486
後因	-10.8487
京畿	-10.8487
督同	-10.8492
特加	-10.8493
太師	-10.8494
革除	-10.8498
無任	-10.8498
人倫	-10.8499
簽	-10.8499
不憚	-10.8499
太過	-10.8499
軀	-10.85
彛	-10.8501
翁	-10.8501
武舉	-10.8503
舉主	-10.8503
技藝	-10.8503
者蓋	-10.8505
薩	-10.851
五名	-10.8511
交界	-10.8512
另有	-10.8513
始於	-10.8514
通計	-10.8514
進京	-10.8518
九州	-10.8519
徇情	-10.8523
尊卑	-10.8525
朕懐	-10.8525
愚忠	-10.8527
何患	-10.8527
邊臣	-10.8528
已極	-10.8531
耳今	-10.8534
内官	-10.8537
忠孝	-10.8538
養兵	-10.8539
轂	-10.854
蚤	-10.8541
愚臣	-10.8541
親往	-10.8541
授之	-10.8542
搢紳	-10.8543
佚	-10.8543
邢	-10.8543
運使	-10.8547
敇	-10.8547
嚴查	-10.8549
内則	-10.8551
皇祐	-10.8552
三名	-10.8552
考滿	-10.8555
進兵	-10.8556
上請	-10.8557
一郡	-10.8559
之設	-10.856
疎忽	-10.8561
外則	-10.8562
臣無任	-10.8565
之所致	-10.8568
保題	-10.8568
嚴拏	-10.857
輓	-10.8572
伏願	-10.8574
建康	-10.858
體恤	-10.8581
三縣	-10.8587
勛	-10.8588
猖獗	-10.8588
鄉里	-10.859
詔有司	-10.8591
非敢	-10.8592
然亦	-10.8592
於其間	-10.8597
向者	-10.8598
相率	-10.8599
生民之	-10.8599
所共	-10.8599
勒索	-10.86
勘合	-10.8601
等語朕	-10.8602
人戸	-10.8602
隠匿	-10.8602
出兵	-10.8604
一百四十	-10.8605
政治	-10.8608
俯賜	-10.8608
澄清	-10.8608
諫諍	-10.8608
講讀	-10.8609
宿遷	-10.861
改作	-10.8614
月日	-10.8615
竊思	-10.8616
一遇	-10.8616
但有	-10.8616
纎	-10.8616
逺矣	-10.8617
可信	-10.8618
節用	-10.8618
善人	-10.8623
有負	-10.8623
然後可以	-10.8626
此舉	-10.8626
俄	-10.8627
起運	-10.8628
府同知	-10.8629
據稱	-10.8629
懾	-10.863
處處	-10.8632
年六月	-10.8638
實力奉行	-10.8639
卿士	-10.864
鼐	-10.8641
勝負	-10.8643
竝未	-10.8643
訓飭	-10.8644
監候	-10.8648
奏曰臣	-10.8648
解任	-10.8652
細查	-10.8655
至當	-10.8655
感格	-10.8658
檢㑹	-10.8659
以憑	-10.8661
不貲	-10.8663
銀一兩	-10.8664
頴	-10.8671
祀典	-10.8671
出力	-10.8673
諷	-10.8673
仲尼	-10.8674
笞	-10.8676
洲	-10.8676
允當	-10.8676
綂	-10.8677
許容	-10.8678
瑗	-10.8679
歇	-10.868
將以	-10.868
甚好	-10.8681
在案今	-10.8683
馳驛	-10.8683
乞罷	-10.8685
誠有	-10.8685
甲子	-10.8693
臺官	-10.8693
又因	-10.8695
五十餘	-10.8698
分管	-10.8701
樞宻	-10.8703
以彰	-10.8706
今復	-10.871
三十萬	-10.871
遇事	-10.8711
欽奉硃批	-10.8712
平章事制	-10.8714
先務	-10.8715
首級	-10.8716
如之何	-10.8717
裳	-10.8717
自陳	-10.8718
熒惑	-10.872
之柄	-10.872
獨不	-10.8721
於法	-10.8722
勤慎	-10.8726
已下	-10.8727
殺傷	-10.8727
䏻	-10.873
心腹	-10.8731
誤國	-10.8731
寅畏	-10.8732
火藥	-10.8733
忠直	-10.8737
吐蕃	-10.8738
率土	-10.874
並行	-10.8741
疏曰臣	-10.8742
爵禄	-10.8743
不振	-10.8744
提問	-10.8746
於三月	-10.8747
郎官	-10.8755
仰惟陛下	-10.8762
松江	-10.8762
忠言	-10.8763
狂瞽	-10.8766
漢文	-10.8769
漏網	-10.8772
萬萬	-10.8776
魏徴	-10.8776
詳審	-10.8778
面諭	-10.878
舊規	-10.8783
赴闕	-10.8783
城縣	-10.8786
謹繕摺	-10.8787
所取	-10.8787
謹慎	-10.8791
事竣	-10.8791
以告	-10.8792
已定	-10.8794
亦復	-10.8796
䇿應	-10.8796
訓㫖	-10.8797
者不得	-10.8798
所係	-10.8798
後日	-10.8799
團	-10.8803
看守	-10.8803
禁革	-10.8804
覿	-10.8805
涵	-10.8806
乳	-10.8809
建言	-10.8809
仍留	-10.8809
漢文帝	-10.8809
山縣	-10.8809
恠	-10.8809
諉	-10.881
溝壑	-10.881
一二年	-10.8811
仰懇	-10.8812
而論	-10.8815
尺寸	-10.8815
堤岸	-10.8816
中丞	-10.8816
讞	-10.8817
時價	-10.8818
沁	-10.8821
一座	-10.8821
收受	-10.8822
險阻	-10.8824
二十九	-10.8824
給銀	-10.8824
其失	-10.8825
題奏	-10.883
送到	-10.883
陳明	-10.8831
不可得	-10.8832
立為	-10.8834
公然	-10.8834
需銀	-10.8837
受恩	-10.8841
邕	-10.8842
我國家	-10.8843
庶官	-10.8843
問之	-10.8845
不樂	-10.8846
筵	-10.8847
一端	-10.8847
也臣願陛下	-10.8849
甚少	-10.885
邊備	-10.8851
邦本	-10.8852
俱屬	-10.8852
酉	-10.8855
胸	-10.8858
盡職	-10.8859
疏濬	-10.8867
周官	-10.8868
奉硃批	-10.887
緊	-10.8871
示以	-10.8873
特㫖	-10.8876
傳之	-10.8878
知㑹	-10.888
自信	-10.8881
不齊	-10.8882
浮費	-10.8882
如遇	-10.8883
至和	-10.8885
無一人	-10.8887
更換	-10.8889
運道	-10.8892
知遇	-10.8892
決口	-10.8892
巡察	-10.8895
禋	-10.8895
奏陳	-10.8897
之州縣	-10.8897
舊典	-10.89
咸知	-10.8902
湧	-10.8903
魏廷珍	-10.8905
雍正十二年	-10.8906
志在	-10.8907
欲令	-10.8909
到官	-10.8909
議定	-10.891
莫非	-10.8911
疏題為	-10.8912
青苖	-10.8915
是知	-10.8917
哈宻	-10.8918
主上	-10.8919
而不用	-10.892
細故	-10.8923
以奉	-10.8926
以相	-10.8926
差使	-10.8927
門下侍郎	-10.8931
復用	-10.8939
雷霆	-10.894
法紀	-10.8942
刪	-10.8946
涓埃	-10.8946
絡	-10.895
生擒	-10.8952
綬	-10.8953
絶其	-10.8956
弓手	-10.8956
隨經	-10.8957
徽宗	-10.8959
該衙門	-10.896
左侍郎	-10.8964
在下	-10.8965
上緊	-10.8969
祖宗以來	-10.8969
必勝	-10.8971
有旨	-10.8972
緝捕	-10.8974
定額	-10.8976
終無	-10.8976
而後可	-10.8978
五行	-10.8978
於十一月	-10.8979
敵情	-10.898
不求	-10.8981
以為非	-10.8985
借端	-10.8987
於兹	-10.8988
鹵	-10.899
扎	-10.8992
捌	-10.8992
免役	-10.8993
熈寜	-10.8995
小者	-10.8995
侵漁	-10.8995
藝祖	-10.8997
已成	-10.8999
修葺	-10.9001
嚴督	-10.9001
拿	-10.9002
臨御以來	-10.9002
接壤	-10.9002
奮勉	-10.9003
不得其人	-10.9005
無用之	-10.9008
標兵	-10.9011
内稱	-10.9012
昭穆	-10.9015
河身	-10.9018
各鎮	-10.902
大政	-10.9021
者所以	-10.9028
又謂	-10.9029
誠能	-10.9031
寛免	-10.9032
孳	-10.9032
三五	-10.9032
軍營	-10.9034
愛之	-10.9036
張廣泗	-10.9037
伎	-10.9038
𤓰	-10.9038
形迹	-10.9038
不專	-10.904
叩頭	-10.9049
二州	-10.9049
以禦	-10.9049
市井	-10.9051
中正	-10.9052
詳慎	-10.9052
而弗	-10.9053
邉事	-10.9055
詩云	-10.9059
人之所	-10.9059
國初	-10.9061
純仁	-10.9061
有方	-10.9061
轉移	-10.9062
生計	-10.9064
豈肯	-10.9069
翊	-10.9076
希圖	-10.9077
哉夫	-10.9078
郡邑	-10.9079
有備	-10.9082
徳澤	-10.9082
寒暑	-10.9083
况今	-10.9085
琳	-10.9086
悚惶	-10.9086
大使	-10.9087
舛	-10.9087
遮	-10.9088
乏人	-10.9089
亦曰	-10.9089
相接	-10.9091
喇嘛	-10.9093
所闗	-10.9094
至尊	-10.9097
正項錢糧	-10.9097
體統	-10.9098
無力	-10.9099
奏覆	-10.9102
儲蓄	-10.9107
應副	-10.9109
始得	-10.9115
倉糧	-10.9117
羣下	-10.9121
國恩	-10.9122
渝	-10.9125
桀	-10.9125
塗炭	-10.9126
寂	-10.9126
奢侈	-10.9126
㪚	-10.9128
賢愚	-10.9129
竭盡	-10.913
近侍	-10.9131
亦恐	-10.9131
藩邸	-10.9132
迴	-10.9133
丈量	-10.9133
著於	-10.9134
機務	-10.9136
廵撫印務	-10.9137
許之	-10.914
𦂳急	-10.9144
後宫	-10.9146
仰副	-10.9147
正典刑	-10.9148
著令	-10.9149
今日之事	-10.9151
農桑	-10.9152
智者	-10.9153
也彼	-10.9158
語言	-10.9159
侍講	-10.9159
上進	-10.9164
前經	-10.9164
累月	-10.9165
亦係	-10.9167
誑	-10.9172
報明	-10.9173
鐡	-10.9173
外官	-10.9174
駐蹕	-10.9174
郷	-10.9175
之狀	-10.9175
今者	-10.9176
愷	-10.9177
㦯	-10.9177
異議	-10.9177
冶	-10.9177
伏乞聖主睿鑒	-10.9177
生成	-10.9178
寬	-10.9178
殞	-10.9179
既得	-10.918
浩蕩	-10.9184
恭繳硃批	-10.9184
管仲	-10.9184
福州	-10.9185
某某	-10.9186
五曰	-10.9189
併力	-10.9192
平居	-10.9193
沿江	-10.9193
至仁	-10.9193
非陛下	-10.9194
文職	-10.9195
恐致	-10.9198
以免	-10.9202
斷不可	-10.9202
臣之愚	-10.9203
所向	-10.9204
飛飭	-10.9204
有害	-10.9206
郊廟	-10.9207
推誠	-10.9211
據實奏明	-10.9214
此弊	-10.9215
許令	-10.9216
方面	-10.9218
者也今	-10.9218
四品	-10.9218
復行	-10.9221
穹	-10.9221
乞勅	-10.9221
夘	-10.9222
烝	-10.9222
該鎮	-10.9223
大畧	-10.9223
鞍	-10.9223
隸	-10.9224
幅	-10.9226
率多	-10.9226
之訓	-10.9226
臣謹按	-10.9228
兑	-10.9229
以義	-10.923
無間	-10.923
允禩	-10.923
一尺	-10.923
該省	-10.9232
燬	-10.9232
亦在	-10.9232
司禮監	-10.9233
僖祖	-10.9233
倉厫	-10.9234
罔不	-10.9235
虧損	-10.9237
靡不	-10.9239
堂上官	-10.924
數處	-10.9243
城守	-10.9244
被淹	-10.9245
維持	-10.9246
查考	-10.9249
千兩	-10.9252
亦可以	-10.9253
勿以	-10.9257
奉諭㫖	-10.9259
私心	-10.926
乃有	-10.9262
似屬	-10.9263
買馬	-10.9263
承辦	-10.9265
唐大詔令集巻	-10.9265
錮	-10.9271
而獨	-10.9271
物力	-10.9271
潼	-10.9272
分兵	-10.9276
淮西	-10.9277
産業	-10.9277
驛站	-10.9277
伊尹	-10.9282
熟悉	-10.9282
無恥	-10.9284
識者	-10.9286
陳乞	-10.9287
生息	-10.9287
秦州	-10.9288
一二人	-10.9288
厥職	-10.9289
抑且	-10.9295
江湖	-10.9297
天下後世	-10.9307
覧	-10.9312
減省	-10.9314
湘	-10.9316
踏	-10.9317
愛人	-10.9319
中書令	-10.9321
電	-10.9321
義倉	-10.9322
洪範	-10.9322
將原	-10.9322
旬日	-10.9323
或係	-10.9325
興師	-10.9327
糜費	-10.9327
景祐	-10.9329
未當	-10.9329
謹守	-10.9329
恭報	-10.933
情實	-10.9331
假以	-10.9332
難保	-10.9334
宣力	-10.9335
山海	-10.9344
孝經	-10.9345
為主	-10.9354
田里	-10.9355
當先	-10.9356
無忌	-10.936
劵	-10.936
汎	-10.9361
芝	-10.9363
掘	-10.9363
遂成	-10.9363
种	-10.9364
可不慎	-10.9365
宛	-10.9367
那移	-10.9368
稼穡	-10.9369
皆以為	-10.937
准兵部咨	-10.937
也今陛下	-10.9373
非徒	-10.9374
亦不得	-10.9375
莫先於	-10.9376
手本	-10.9376
矣至於	-10.938
所獲	-10.9384
鹽務	-10.9386
而出	-10.9393
貢舉	-10.9398
六經	-10.9401
任人	-10.9404
而無所	-10.9406
將見	-10.9408
猝	-10.9409
捜	-10.9412
彩	-10.9412
者此也	-10.9413
訓誡	-10.9414
用是	-10.9414
叩謝天恩	-10.9415
委的	-10.9415
乞恩	-10.9415
未䝉	-10.9415
剝	-10.9416
并將	-10.9416
拖	-10.9416
不軌	-10.9418
彝	-10.9421
候補	-10.9421
縱有	-10.9421
體量	-10.9423
教養	-10.9425
定議具奏	-10.9425
杜絶	-10.9427
採訪	-10.9429
此法	-10.943
紀律	-10.9432
潮州	-10.9434
在朝廷	-10.9444
便殿	-10.9447
逼近	-10.9449
闗中	-10.945
之亂	-10.9451
貨物	-10.9453
亥	-10.9456
萃	-10.9456
楊名時	-10.9457
島	-10.9457
視其	-10.9458
殫心	-10.9458
眩	-10.9458
縻	-10.946
鵬	-10.9463
硃批奏摺	-10.9465
查察	-10.9468
給以	-10.9468
有志	-10.9468
臣故曰	-10.9469
推之	-10.947
統轄	-10.9471
不備	-10.9474
合宜	-10.9476
太倉	-10.9478
兩廣	-10.9479
權勢	-10.9481
下民	-10.9484
通同	-10.9486
第四	-10.9487
揆之	-10.9487
止令	-10.9489
據奏	-10.949
食糧	-10.9493
軍法	-10.9495
以威	-10.9495
為要	-10.9499
勢難	-10.9499
頥	-10.95
不倦	-10.95
權臣	-10.9502
名目	-10.9502
兾	-10.9503
士風	-10.9504
聽言	-10.9505
傷人	-10.9506
拾遺	-10.9507
先聖	-10.9509
自便	-10.9509
區處	-10.951
政府	-10.951
徴收	-10.9511
之可也	-10.9512
謹奏知道了	-10.9512
漆	-10.9513
隨事	-10.9513
藍	-10.9513
本人	-10.9513
騙	-10.9514
帑金	-10.9515
之謂也	-10.952
財力	-10.952
之處著	-10.952
有年	-10.952
乞賜	-10.9525
比者	-10.9526
成湯	-10.9527
朕已	-10.9527
先經	-10.9529
項下	-10.9529
不入	-10.953
其舊	-10.9533
明帝	-10.9535
接任	-10.9537
因時	-10.9539
景徳	-10.9542
何哉	-10.9547
施恩	-10.9552
聞風	-10.9552
武藝	-10.9553
滑	-10.9553
燦	-10.9554
寄信	-10.9554
用銀	-10.9555
狗	-10.9555
貧者	-10.9555
又令	-10.9559
一箇	-10.9559
無愧	-10.9559
必由	-10.956
者悉	-10.9561
造作	-10.9562
東路	-10.9566
兵役	-10.9567
教導	-10.9576
曲直	-10.9578
仰體皇上	-10.9581
督令	-10.9581
為萬世	-10.9585
為姦	-10.9586
盜案	-10.9586
不嚴	-10.9598
當差	-10.9601
險要	-10.9601
聚集	-10.9601
穏	-10.9603
長驅	-10.9604
挐	-10.9606
修整	-10.9608
剩	-10.9609
之本意	-10.961
森	-10.9611
涇原	-10.9614
府州	-10.9618
西京	-10.9619
徳宗	-10.9619
提標	-10.9622
差員	-10.9624
邊疆	-10.9624
臨朝	-10.9625
次日	-10.9627
營兵	-10.9628
不敢言	-10.963
奉詔	-10.9632
即位之初	-10.9633
照前	-10.9633
所入	-10.9635
同中書門下平章事	-10.9636
粤省	-10.9637
典刑	-10.964
考課	-10.9642
姦民	-10.9643
私恩	-10.9646
龔	-10.9649
可恃	-10.965
巷	-10.9651
一千二百	-10.9653
受恩深重	-10.9655
洛陽	-10.9657
今以	-10.9657
師旅	-10.9657
鎖	-10.9658
突厥	-10.9658
謚	-10.9658
閤門	-10.9659
生長	-10.966
無隠	-10.966
泰山	-10.9661
邉境	-10.9661
之隆	-10.9662
學官	-10.9663
伊父	-10.9665
墩臺	-10.9665
熈河	-10.9666
柰何	-10.9666
直至	-10.9668
自相	-10.9668
仁孝	-10.9673
直隸總督	-10.9676
勞費	-10.9677
無損	-10.9678
深切	-10.9683
負恩	-10.9684
經史	-10.9685
來者	-10.9687
挾私	-10.9689
改易	-10.9694
特遣	-10.9694
十八年	-10.9696
皇城	-10.9696
范純仁	-10.9697
多年	-10.9697
事發	-10.9699
成帝	-10.9699
高厚	-10.97
鑾	-10.9701
自今以後	-10.9702
館閣	-10.9706
徭役	-10.9708
犬馬之	-10.9709
蔡確	-10.971
制勝	-10.9711
俸工	-10.9713
皇上硃批	-10.9715
分晰	-10.9719
追還	-10.9719
不滿	-10.9721
知道	-10.9721
當今之	-10.9723
條貫	-10.9726
仍將	-10.9727
者莫不	-10.973
本院	-10.9731
糧米	-10.9738
錦衣衛	-10.9744
畋	-10.9748
擯	-10.9749
愍	-10.975
屯兵	-10.975
捄	-10.9752
俵	-10.9752
瀚	-10.9753
不可得也	-10.9757
幷	-10.9759
懲創	-10.976
藏匿	-10.9768
宣慰	-10.9772
有所不	-10.9773
洞悉	-10.9773
臣昨	-10.9776
奉職	-10.9776
王公	-10.9778
四十五	-10.9783
千金	-10.9788
䝉陛下	-10.9794
平章事	-10.9795
善後	-10.9796
孟子曰	-10.9796
庶乎	-10.9798
憸	-10.9798
同日	-10.9801
霖	-10.9802
江北	-10.9802
批示遵行謹奏	-10.9803
大凡	-10.9805
戌	-10.9805
意在	-10.9807
吉凶	-10.9809
或者	-10.981
專以	-10.981
伏祈	-10.9815
竟不	-10.9819
擾害	-10.9822
任賢	-10.9829
之序	-10.9829
為天子	-10.983
其源	-10.983
天資	-10.9835
毎石	-10.9836
多是	-10.9838
十餘人	-10.9838
再照	-10.9841
見錢	-10.9841
髙帝	-10.9843
晚禾	-10.9846
羡餘	-10.9848
乆矣	-10.9849
昊天	-10.985
校尉	-10.985
此係	-10.985
飄	-10.9851
折銀	-10.9851
不預	-10.9852
垂拱	-10.9853
陡	-10.9854
濱	-10.9854
覓	-10.9855
何嘗	-10.9857
終日	-10.9858
油	-10.9862
兩年	-10.9862
王子	-10.9862
至若	-10.9863
儒臣	-10.9865
侵擾	-10.9866
自守	-10.9867
堪以	-10.9869
所關	-10.9871
為惡	-10.9873
値	-10.9879
累朝	-10.9888
將前項	-10.9892
尚存	-10.9892
士馬	-10.9895
有濟	-10.9895
極其	-10.9896
縉紳	-10.9899
不唯	-10.9899
各兵	-10.99
比年	-10.99
家産	-10.9901
教訓	-10.9901
運米	-10.9902
荆襄	-10.9903
数	-10.9905
流涕	-10.9908
罔上	-10.9911
顯然	-10.9911
詳議具奏	-10.9918
以俟	-10.9919
七日	-10.9919
動揺	-10.992
書辦	-10.9921
等處地方	-10.9923
愈加	-10.9928
庶務	-10.993
前日之	-10.9932
漢中	-10.9932
朝鮮	-10.9934
天聖	-10.9935
兵法	-10.9935
長久	-10.9939
儒學	-10.994
實由	-10.9942
諸縣	-10.9945
渡江	-10.9948
衆議	-10.9949
瞻徇	-10.9949
誰敢	-10.995
藪	-10.9952
賈誼	-10.9953
蒞	-10.9954
祖訓	-10.9956
國計民生	-10.9957
些	-10.9957
灼	-10.9959
一百八十	-10.996
私情	-10.996
地利	-10.9961
輔導	-10.9963
浩繁	-10.9963
不精	-10.9964
年月	-10.9974
聖聽	-10.9977
為事	-10.998
諸子	-10.9981
而非	-10.9981
向化	-10.9985
可慮	-10.9986
巡撫都御史	-10.999
月二十三日	-10.999
練兵	-10.9992
行間	-10.9999
𥙷	-11.0001
儼	-11.0001
神宗皇帝	-11.0002
嚇	-11.0004
俱巳	-11.0004
經畫	-11.0005
將領	-11.0006
查看	-11.0006
何故	-11.0007
欽奉諭㫖	-11.0007
窪	-11.0008
沈廷正	-11.0008
一十四	-11.0008
敬天	-11.001
大小臣工	-11.0011
嘗謂	-11.0012
更易	-11.0016
一百六十	-11.0016
民財	-11.0016
舜之	-11.0017
一十二	-11.0019
究治	-11.0027
若欲	-11.0028
一百七十	-11.0028
入海	-11.003
昔漢	-11.0031
施設	-11.0031
漢武帝	-11.0031
除將	-11.0031
將何以	-11.0033
緣係	-11.0039
丙	-11.0042
另疏	-11.0042
允協	-11.0044
宜加	-11.0045
麾	-11.0048
驍	-11.005
犒	-11.005
所長	-11.005
澆	-11.0051
荀	-11.0052
致死	-11.0054
供稱	-11.0055
鱗	-11.0057
肆其	-11.0057
低窪	-11.0058
未敢擅便	-11.0059
買米	-11.006
朕因	-11.0062
朔方	-11.0063
商旅	-11.0064
可守	-11.0065
賜物	-11.0068
始祖	-11.0072
雖係	-11.0072
主兵	-11.0075
孝子	-11.0076
復加	-11.0085
愚誠	-11.0085
極力	-11.009
寺觀	-11.0091
經制	-11.0092
經手	-11.0096
多人	-11.0101
髪	-11.0101
棘	-11.0102
四十餘	-11.0104
題稱	-11.0104
合祭	-11.0105
章惇	-11.0105
六部	-11.0105
撲滅	-11.0105
其材	-11.0105
梓宫	-11.0106
濕	-11.0106
壕	-11.0107
等州縣	-11.0108
飲酒	-11.0108
不去	-11.0109
琮	-11.011
狄	-11.011
戰慄	-11.0112
逐處	-11.0112
怠玩	-11.0116
未復	-11.0117
先儒	-11.0118
積水	-11.0118
肅清	-11.0118
對敵	-11.0119
遂為	-11.0121
就緒	-11.0122
功業	-11.0123
固執	-11.0123
額徵	-11.0131
無時	-11.0132
戒之	-11.0132
先期	-11.0139
插	-11.0139
豈可不	-11.0139
也伏望陛下	-11.0142
行伍	-11.0142
兩日	-11.0147
富民	-11.0149
又欲	-11.015
綴	-11.015
正德	-11.015
勿使	-11.0152
欽承	-11.0152
弓箭	-11.0153
邊務	-11.0153
襟	-11.0154
亳	-11.0155
躍	-11.0155
高其倬	-11.0157
之本也	-11.0158
矣昔	-11.0158
為今之計	-11.0158
砍	-11.016
怨望	-11.0161
嵇曽筠	-11.0162
產	-11.0163
旦夕	-11.0164
便民	-11.0165
塞楞額	-11.0165
運糧	-11.0166
等情到	-11.0167
九江	-11.0169
所屬之	-11.0169
用刑	-11.017
乃可	-11.017
金石	-11.0171
嵗時	-11.0171
撤回	-11.0172
史冊	-11.0179
生理	-11.018
疏内	-11.0182
昉	-11.019
王柔	-11.019
回任	-11.0191
重罪	-11.0194
親征	-11.0198
尚何	-11.02
偕	-11.0201
㝠	-11.0202
讜	-11.0203
不利	-11.0206
砥礪	-11.0207
安慶	-11.0208
者多矣	-11.0209
從重	-11.021
更相	-11.021
踪	-11.0211
仁祖	-11.0214
典章	-11.0217
坍	-11.0218
百端	-11.0219
搶掠	-11.0221
髙明	-11.0222
致令	-11.0223
僕射	-11.0223
羣議	-11.0224
不早	-11.0224
未暇	-11.0227
只得	-11.0227
勒令	-11.0229
誠意	-11.0233
仁聖	-11.0235
制錢	-11.0243
璋	-11.0249
别項	-11.025
擾民	-11.0251
變亂	-11.0251
中書舍人	-11.0253
乆而	-11.0254
至治	-11.0254
姬	-11.0256
欝	-11.0256
上哲宗論	-11.0256
苗疆	-11.0257
𠂻	-11.0257
又多	-11.0257
不諳	-11.0258
搖	-11.0258
硃	-11.026
舟楫	-11.026
閻	-11.0261
二十餘年	-11.0261
神靈	-11.0261
蝗蝻	-11.0261
臕	-11.0262
屍	-11.0262
不曾	-11.0262
事該	-11.0264
平穩	-11.0265
民瘼	-11.027
不敢輕	-11.0271
親身	-11.0272
典史	-11.0272
劄付	-11.0273
云云	-11.0273
逐路	-11.0276
立國	-11.0278
敕部	-11.0279
獻納	-11.028
殊非	-11.0285
長子	-11.0285
適中	-11.029
豐登	-11.0295
一軍	-11.0296
自後	-11.0305
合將	-11.0307
倉廪	-11.0307
亘	-11.0307
四員	-11.0307
慄	-11.0308
翔	-11.0308
頒發	-11.0309
此一事	-11.031
極矣	-11.0312
紬	-11.0314
○	-11.0314
修徳	-11.0314
諾	-11.0315
布蘭泰	-11.0316
僱	-11.0316
負陛下	-11.0317
尤重	-11.0318
選舉	-11.0319
殺賊	-11.0319
栢	-11.0321
臣所謂	-11.0321
自古帝王	-11.0323
歉收	-11.0328
稽遲	-11.0331
察吏	-11.0331
張皇	-11.0332
採擇	-11.0334
難矣	-11.0337
御極	-11.0339
官一員	-11.0339
御前	-11.0342
賢良	-11.0345
官錢	-11.0346
拒敵	-11.0349
非禮	-11.0349
上皇	-11.035
于今	-11.0351
臣竊以為	-11.0352
勃	-11.0357
失察	-11.0359
兵食	-11.0359
安靜	-11.0359
十餘里	-11.036
蛇	-11.0361
狃	-11.0362
儉約	-11.0363
雕	-11.0365
捧到	-11.0365
屑	-11.0366
未報	-11.0367
塊	-11.0371
治民	-11.0371
優游	-11.0376
斬獲	-11.0377
二次	-11.0381
徳意	-11.0381
依違	-11.0381
舉劾	-11.0382
苦累	-11.0383
應詔	-11.0383
即係	-11.0385
優恤	-11.0385
詢訪	-11.0385
旗人	-11.0386
等弊	-11.0391
共知	-11.0394
辭免	-11.0396
查驗	-11.0397
海洋	-11.0401
之多寡	-11.0401
審擬	-11.0402
地界	-11.0402
入内	-11.0403
漕米	-11.0403
中傷	-11.0405
省覽	-11.0406
畔	-11.0408
扞	-11.0412
所居	-11.0417
老病	-11.0418
仰承	-11.0422
優長	-11.0424
花馬池	-11.0426
殊為	-11.0427
曷勝	-11.0427
有損	-11.0429
咨稱	-11.0435
並用	-11.044
七廟	-11.0446
婦女	-11.0448
宋名臣奏議巻	-11.045
本鎮	-11.045
結黨	-11.0451
今歳	-11.0451
奉法	-11.0453
遲誤	-11.0453
朝㫖	-11.0456
毀	-11.0458
闘	-11.046
未明	-11.0463
牓	-11.0465
海道	-11.0466
一百餘	-11.0467
簡用	-11.0468
氓	-11.0468
簾	-11.0469
一十五	-11.0469
岱	-11.047
一舉而	-11.0471
情偽	-11.0472
迪	-11.0472
䕶軍	-11.0474
臨清	-11.0475
狀曰臣	-11.0479
心術	-11.0481
接准	-11.0481
外廷	-11.0481
而遽	-11.0482
之所在	-11.0483
長史	-11.0484
故敢	-11.0486
七萬	-11.0486
人望	-11.0487
招募	-11.0489
遊兵	-11.0493
竟有	-11.0499
后稷	-11.05
典故	-11.0504
横行	-11.0505
釋放	-11.0506
敗事	-11.0506
催科	-11.0509
河防	-11.0513
外國	-11.0515
氛	-11.0515
數百人	-11.0516
𦙍	-11.0516
誇	-11.0518
庾	-11.0521
賔客	-11.0521
預防	-11.0521
分頭	-11.0522
庠	-11.0522
藩鎮	-11.0522
蘇軾	-11.0523
逝	-11.0525
銀米	-11.0526
元祐元年	-11.0527
㨿	-11.0527
綽	-11.0527
一百三十	-11.0528
為此具本	-11.0529
管見	-11.0531
和好	-11.0531
當是時	-11.0531
師道	-11.0532
小利	-11.0535
御筆	-11.0535
明經	-11.0538
痛加	-11.054
仰請	-11.0545
𦂳	-11.0545
萬厯	-11.0545
撥給	-11.0548
閏三月	-11.0548
甚易	-11.0552
懇乞	-11.0556
渡河	-11.0557
永為	-11.056
養㢘	-11.0561
尊號	-11.0564
指為	-11.0564
監禁	-11.0566
仰遵	-11.0567
可免	-11.0568
無慮	-11.0569
上天之	-11.0569
揖	-11.0569
之限	-11.0574
膝	-11.0574
治安	-11.0575
安國	-11.0576
摭	-11.0578
不悛	-11.0578
攤	-11.0578
大寳	-11.0579
搭	-11.058
督催	-11.0581
共銀	-11.0584
賦斂	-11.0585
告示	-11.0587
上納	-11.0589
觀察使	-11.0591
無害	-11.0595
來年	-11.0602
戎狄	-11.0603
羣情	-11.0603
穀石	-11.0603
後人	-11.0606
三載	-11.0607
黨與	-11.0608
表率	-11.0609
具摺奏	-11.0611
缺少	-11.0614
禮記	-11.0614
候朕	-11.0614
進獻	-11.0615
依前	-11.0615
誅求	-11.0616
部下	-11.0616
妥議	-11.0621
闡	-11.0622
奉上諭朕	-11.0626
几	-11.0628
馴	-11.0628
原議	-11.0629
厄魯特	-11.0632
寧州	-11.0632
鑲	-11.0634
審訊	-11.0635
治理	-11.0635
同日又奏爲	-11.0636
經國	-11.0637
理合一併	-11.0638
踏勘	-11.0638
聚斂	-11.064
黎民	-11.064
形於	-11.0643
卓異	-11.0647
景泰	-11.0652
灼見	-11.0656
月糧	-11.0658
濮	-11.0659
咸平	-11.066
軍節度使	-11.0662
未必不	-11.0669
戰陣	-11.0677
敷陳	-11.0678
瀛	-11.0678
洮	-11.0678
梓	-11.0679
粉	-11.068
層	-11.0682
吕誨	-11.0684
伏自	-11.0686
如聞	-11.0686
數少	-11.0687
贛	-11.0687
供億	-11.0693
佐貳	-11.0695
所犯	-11.0697
留守	-11.0698
不雨	-11.0698
堪任	-11.0699
兵威	-11.07
睿裁	-11.0702
諍	-11.0705
威武	-11.0705
水災	-11.0706
丹江	-11.0707
指陳	-11.0712
河流	-11.0714
科道官	-11.0719
提鎮	-11.0723
聽納	-11.0726
不然則	-11.0728
米榖	-11.0729
荆公	-11.0729
經由	-11.0731
著照	-11.0732
廊	-11.0733
鞠	-11.0733
軍興	-11.0734
殛	-11.0734
廻	-11.0734
㤗	-11.0737
效法	-11.0737
乗輿	-11.0738
反復	-11.0739
届	-11.0742
粉飾	-11.0743
只是	-11.0748
枉法	-11.0748
荷蒙	-11.0755
三次	-11.0755
餘黨	-11.0758
孝友	-11.0758
亦足以	-11.076
過多	-11.076
不得巳	-11.0761
財利	-11.0762
超擢	-11.0763
分路	-11.0763
夫婦	-11.0765
無患	-11.0766
截殺	-11.0768
精力	-11.0772
方畧	-11.0773
加倍	-11.0775
養民	-11.0776
聖賢之	-11.0778
天下之勢	-11.0781
藉口	-11.0782
孝文	-11.0783
以為不可	-11.0783
備咨	-11.0783
刑賞	-11.0785
分撥	-11.0787
燮	-11.0791
請給	-11.0791
地形	-11.0791
碾	-11.0793
糴買	-11.0793
剽	-11.0793
父老	-11.0795
不審	-11.0797
國人	-11.0799
據實陳奏	-11.08
抛	-11.08
題奉聖㫖	-11.08
討論	-11.0802
數十人	-11.0802
無餘	-11.0802
上疏	-11.0802
三嵗	-11.0803
布政	-11.0805
畏避	-11.0806
羨	-11.0808
講學	-11.0808
常例	-11.0811
怠惰	-11.0812
因縁	-11.0814
異數	-11.0816
主張	-11.0817
輔相	-11.0819
之名而	-11.082
勸農	-11.082
大略	-11.0824
二三大臣	-11.0824
宫禁	-11.0825
陕	-11.0826
援引	-11.0828
相安	-11.0829
言事者	-11.0831
進言	-11.0833
身死	-11.0838
㑹合	-11.084
惻怛	-11.084
覘	-11.0841
素有	-11.0843
朕觀	-11.0843
萬緡	-11.0847
事畢	-11.085
河道總督	-11.085
輕易	-11.0851
冷	-11.0851
移文	-11.0852
一物	-11.0853
該犯	-11.0854
案牘	-11.0855
虚心	-11.0857
夷簡	-11.0858
職銜	-11.0859
累聖	-11.0859
王珪	-11.0864
開具	-11.0865
外議	-11.0869
看詳	-11.0871
六十年	-11.0874
講和	-11.0875
北京	-11.0877
其子孫	-11.0877
假借	-11.0879
立即	-11.088
缺乏	-11.0882
一十三	-11.0883
都指揮使	-11.0887
豈復	-11.0888
相傳	-11.0888
山澤	-11.089
也蓋	-11.089
交易	-11.0891
聖聰	-11.0894
撥兵	-11.0896
上哲宗乞	-11.0897
著該督撫	-11.0898
悠	-11.0899
一番	-11.0902
混淆	-11.0903
挈	-11.0903
君上	-11.0904
其術	-11.0904
籲	-11.0905
雨暘時若	-11.0907
隆科多	-11.0908
内務府	-11.0908
禎	-11.0909
海塘	-11.0911
加罪	-11.0914
苛刻	-11.0918
反側	-11.0919
新設	-11.0923
徳行	-11.0924
切惟	-11.0929
廵察	-11.093
該州	-11.093
本日	-11.0935
用過	-11.0936
畿輔	-11.0938
聖斷	-11.0941
報復	-11.0942
市易	-11.0943
習俗	-11.0944
既定	-11.0947
向有	-11.0948
搬	-11.0949
異端	-11.0951
挟	-11.0952
悖逆	-11.0952
僖	-11.0952
五百餘	-11.0953
譬	-11.0957
勻	-11.0958
所損	-11.0959
翕然	-11.096
開銷	-11.096
無忌憚	-11.0963
入已	-11.0963
牛羊	-11.0964
查郎阿	-11.0964
伏乞聖裁	-11.0964
筆帖式	-11.0965
滿保	-11.0965
堯佐	-11.0967
行遣	-11.0969
兢兢	-11.097
庸劣	-11.0971
乃欲	-11.0972
再議	-11.0973
之所能	-11.0975
甚衆	-11.0976
似可	-11.0979
其業	-11.0983
勸諭	-11.0984
細民	-11.0984
四十年	-11.0984
但查	-11.0985
必不可	-11.0986
天下臣民	-11.0988
邳	-11.0989
大小官員	-11.0992
百工	-11.1002
保無虞	-11.1003
秋汛	-11.1004
元帥	-11.1006
纘	-11.1006
又乞	-11.1007
莫可	-11.1008
朂	-11.1011
眚	-11.1013
攔	-11.1014
靈武	-11.1014
囂	-11.1014
上神宗論	-11.1016
眞宗	-11.1017
圜丘	-11.1018
二千餘	-11.1019
不孝	-11.102
交納	-11.1021
邦家	-11.1024
暢茂	-11.1026
庶績	-11.1027
專責	-11.1031
補足	-11.1031
未甚	-11.1032
錯誤	-11.1034
毋忽	-11.1038
恭順	-11.1039
可矜	-11.104
未備	-11.1042
贖罪	-11.1044
邦國	-11.1045
睿斷	-11.1046
之得失	-11.1048
已完	-11.1048
周旋	-11.1049
羨餘	-11.105
和買	-11.1051
消弭	-11.1052
視聽	-11.1056
理宜	-11.1061
聿	-11.1062
萬一有	-11.1063
聽斷	-11.1063
天下之民	-11.1065
翦	-11.1065
也臣竊	-11.1067
若再	-11.1068
胷	-11.1069
㑹商	-11.1069
圖治	-11.1069
二尺	-11.1073
渠魁	-11.1075
史貽直	-11.1076
流俗	-11.1076
熟諳	-11.1077
陛下之所	-11.1077
餽送	-11.1079
防秋	-11.108
惡習	-11.1081
租賦	-11.1082
入貢	-11.1083
考覈	-11.1085
世世	-11.1088
搶奪	-11.1088
原屬	-11.1088
敵兵	-11.1089
跟隨	-11.1089
竝不	-11.109
衞所	-11.1095
此㫖	-11.11
虧缺	-11.1101
縱使	-11.1103
我師	-11.1103
昭示	-11.1105
臣區區	-11.1108
衆人之	-11.1112
地方情形	-11.1116
臨期	-11.1117
稽考	-11.1117
踈逺	-11.1117
吾民	-11.112
厚恩	-11.1121
邠	-11.1123
邇者	-11.1123
擠	-11.1125
事權	-11.1126
燈	-11.1126
善良	-11.1126
覆載	-11.1128
雹	-11.1129
窄	-11.113
庚戌	-11.113
山東河南	-11.1131
伊子	-11.1135
男女	-11.1135
莊浪	-11.1136
比較	-11.1138
永順	-11.1141
終不能	-11.1143
查訪	-11.1145
全在	-11.1146
面奏	-11.1146
訓導	-11.1147
之所為	-11.1148
登場	-11.115
順治	-11.1151
常賚	-11.1152
羣小	-11.1155
倍加	-11.1156
復業	-11.1156
平民	-11.1158
咨明	-11.116
彌補	-11.116
宿衛	-11.1161
聖體	-11.1163
核實	-11.1166
所領	-11.1166
盛時	-11.1169
緝拏	-11.1169
歐陽	-11.1169
向日	-11.1174
意外之	-11.1176
四面	-11.1177
殱	-11.1178
乍	-11.118
鈐轄	-11.118
剔	-11.118
毗	-11.1182
拳拳	-11.1183
坑	-11.1186
劉世明	-11.1186
經年	-11.1187
喚	-11.1188
湊	-11.1188
尺不等	-11.1188
仰祈聖鑒事竊	-11.119
天顔	-11.1191
兆民	-11.1192
宰輔	-11.1193
大有為	-11.1193
變故	-11.1195
磨勘	-11.1197
近該	-11.1197
舉措	-11.1197
失宜	-11.1202
草塲	-11.1202
少年	-11.1203
陋習	-11.1203
扵是	-11.1205
忌諱	-11.1208
頭人	-11.121
截留	-11.121
者以其	-11.1211
事理未敢擅便	-11.1212
比照	-11.1216
世襲	-11.1222
兮	-11.1223
整齊	-11.1224
水草	-11.1227
變異	-11.123
先任	-11.123
三處	-11.1231
非不知	-11.1231
曉然	-11.1231
犯罪	-11.1234
取進止	-11.1234
拊	-11.1235
小補	-11.1237
過舉	-11.1239
譁	-11.1242
䭾	-11.1243
政體	-11.1243
入告	-11.1243
状曰臣	-11.1244
趙𢎞恩	-11.1245
歡欣	-11.1245
封駮	-11.1248
滇黔	-11.1248
黄廷桂	-11.1251
忠邪	-11.1253
取具	-11.1253
詞訟	-11.1253
賜予	-11.1254
原擬	-11.1255
禦敵	-11.1259
入朝	-11.1261
哉且	-11.1261
諸儒	-11.1265
三寸	-11.1266
暫停	-11.1266
寛貸	-11.1267
旗下	-11.1269
進賢	-11.1269
分司	-11.1269
孤立	-11.127
叛逆	-11.1276
罷免	-11.1277
将来	-11.1279
煩擾	-11.1281
武宗	-11.1282
治亂之	-11.1282
危亡	-11.1286
憂勞	-11.1288
上表	-11.1288
企	-11.1291
隕	-11.1292
狎	-11.1294
外戚	-11.1297
馬步	-11.1297
一語	-11.1298
鼠	-11.1298
清口	-11.1299
鋤	-11.13
奏眀	-11.13
湛	-11.13
本心	-11.13
厚薄	-11.1301
支持	-11.1302
威權	-11.1306
掩飾	-11.1307
暖	-11.1307
此臣之所	-11.1307
第五	-11.1308
近見	-11.1309
毎嵗	-11.1312
傷損	-11.1315
常平倉	-11.1317
折衝	-11.1322
計算	-11.1325
一條	-11.1327
三司使	-11.1328
平凉	-11.1328
不遺	-11.1332
上負	-11.1334
但知	-11.1341
闗防	-11.1341
其半	-11.1342
斷自	-11.1345
書生	-11.1352
悉令	-11.1352
竊念	-11.1355
山東廵撫	-11.1355
殁	-11.1356
而使之	-11.1357
眉	-11.1357
視事	-11.1357
數百里	-11.1357
群臣	-11.1359
纒	-11.136
函	-11.136
繼遷	-11.1362
樣	-11.1362
甘州	-11.1364
羡	-11.1366
密訪	-11.1366
昔年	-11.1369
仰答	-11.137
十五萬	-11.1372
王者之	-11.1373
豈獨	-11.1373
毋使	-11.1376
分派	-11.1377
譬之	-11.1377
息民	-11.1379
戸口	-11.1382
敬慎	-11.1382
原非	-11.1384
成例	-11.1385
商販	-11.1386
借給	-11.1387
修身	-11.139
諸将	-11.139
有缺	-11.1391
召對	-11.1392
本意	-11.1393
蓄積	-11.1394
强弱	-11.1394
慶幸	-11.1397
究問	-11.14
私販	-11.1402
擒拏	-11.1402
邈	-11.1402
正宜	-11.1403
臣伏以	-11.1405
農事	-11.1406
我軍	-11.1406
上仁宗乞	-11.1409
寐	-11.1411
晏然	-11.1412
安定	-11.1413
圉	-11.1417
齎摺家人回	-11.1417
是否有當	-11.1419
滚	-11.1419
該衙門知道	-11.1419
宣和	-11.142
凑	-11.1422
被害	-11.1423
世宗憲皇帝上諭内閣	-11.1424
莫知	-11.1424
本縣	-11.1426
減等	-11.1426
文彦博	-11.1426
得免	-11.1426
百辟	-11.1427
合無將	-11.1428
著該部	-11.1428
歸順	-11.1434
條具	-11.1434
屬下	-11.1435
紛更	-11.1435
功成	-11.1442
爾等可	-11.1442
大工	-11.1442
衙前	-11.1443
舍人	-11.1446
等十	-11.1448
充足	-11.145
集議	-11.1452
尤不可	-11.1454
會議	-11.1457
半月	-11.1457
上蒼	-11.1462
裁擇	-11.1465
備員	-11.1467
興化	-11.1468
衂	-11.1469
水患	-11.147
臣子之	-11.1471
咫尺	-11.1472
王氏	-11.1474
未之有也	-11.1477
桐	-11.1477
罪犯	-11.1478
文武官員	-11.148
賭博	-11.1482
逰擊	-11.1483
州屬	-11.1483
契勘	-11.1484
皇極	-11.1486
損傷	-11.1487
陳言	-11.1487
蕃部	-11.1488
清議	-11.1488
主客	-11.1489
無事之時	-11.1492
西域	-11.1492
贏	-11.1494
嚴審	-11.1497
官物	-11.15
恩㫖	-11.1505
糧儲	-11.1508
尚屬	-11.1511
馬價	-11.1516
勘㑹	-11.1516
館職	-11.1518
乃敢	-11.1519
茍簡	-11.1519
肝	-11.1524
不爽	-11.1527
銅錢	-11.1528
昵	-11.1529
炭	-11.1529
啇	-11.1529
管領	-11.1531
奉使	-11.1532
慾	-11.1533
粥	-11.1534
備位	-11.1534
准吏部咨	-11.1534
無狀	-11.1535
費金吾	-11.1537
諸國	-11.1538
哈元生	-11.1538
王士俊	-11.1538
違法	-11.1539
寺丞	-11.1541
濟南	-11.1542
喀	-11.1543
挑濬	-11.1544
營守備	-11.1545
江東	-11.1545
不可得而	-11.1547
武夫	-11.1549
軍功	-11.155
張浚	-11.1551
安邊	-11.1552
安堵	-11.1552
公卿大夫	-11.1553
宻奏	-11.1556
者謂之	-11.1561
脅從	-11.1566
散給	-11.1569
提刑	-11.157
和糴	-11.1572
共相	-11.1575
但能	-11.1577
鼓鑄	-11.1577
農夫	-11.1579
曰卿	-11.1581
紛然	-11.1585
黼	-11.1585
黃河	-11.1586
戕	-11.1589
繒	-11.159
兢兢業業	-11.1591
黄帝	-11.1592
寤寐	-11.1592
迯	-11.1593
宫闈	-11.1596
所有奉到	-11.1597
天順	-11.1598
去就	-11.1599
莅任	-11.1599
温公	-11.1601
若遇	-11.1601
母后	-11.1601
必求	-11.1605
顯著	-11.1607
昔日	-11.161
真偽	-11.161
尚且	-11.161
深察	-11.1611
激勸	-11.1615
漢唐之	-11.1616
控制	-11.1618
齎捧	-11.1623
修補	-11.1625
連日	-11.1627
攻取	-11.1627
消息	-11.1628
事功	-11.1628
矣然而	-11.1631
數百萬	-11.1631
立政	-11.1636
倍於	-11.1638
過半	-11.1639
經管	-11.164
歆	-11.1642
貺	-11.1644
泯	-11.1646
陞授	-11.1646
舊額	-11.1647
稟稱	-11.1648
摇	-11.1648
吕公著	-11.1649
䙝	-11.165
愕	-11.1651
世道	-11.1652
親臨	-11.1652
直道	-11.1653
長短	-11.1653
一介庸愚	-11.1655
安樂	-11.1656
持重	-11.1656
賭	-11.1657
有禆益	-11.1657
力不能	-11.1657
致太平	-11.166
皆云	-11.166
中庸	-11.166
興起	-11.1661
保安	-11.1667
飯食	-11.1667
兇惡	-11.1668
某事	-11.1671
投誠	-11.1673
地方事務	-11.1675
祖宗之法	-11.1679
於是乎	-11.1679
毋致	-11.1679
浙西	-11.168
所不及	-11.1684
千戸	-11.1686
嫌疑	-11.1694
重困	-11.1694
倒死	-11.1695
而不行	-11.1699
仰給	-11.1703
軾	-11.1704
水火	-11.1704
溫	-11.1705
遑	-11.1706
棲	-11.1707
不登	-11.1707
寛厚	-11.1708
欽遵在案	-11.1708
捕盜	-11.1709
飭行	-11.171
調劑	-11.1711
學術	-11.1712
通飭	-11.1713
瞞	-11.1714
年力	-11.1714
殿最	-11.1717
患病	-11.1719
朕心深為	-11.1722
通行曉諭	-11.1725
揮	-11.1725
共該	-11.1726
總河	-11.1731
聖君	-11.1733
並宜	-11.1738
建中	-11.1738
變更	-11.1741
馬疋	-11.1747
十九年	-11.1747
恣意	-11.1748
輿論	-11.1749
奏對	-11.175
朝廷之上	-11.1752
關中	-11.1752
祖考	-11.1753
汛地	-11.1754
者甚衆	-11.1757
出洋	-11.1758
琪	-11.1762
放免	-11.1767
嬖	-11.1767
二司	-11.1768
昨日	-11.1768
㦸	-11.1769
弋	-11.177
噬	-11.1771
遯	-11.1772
飢寒	-11.1772
模	-11.1772
宗正	-11.1773
愛憎	-11.1773
黄水	-11.1774
羣生	-11.1776
朦混	-11.1776
區畫	-11.1779
爐	-11.1779
文冊	-11.1779
鞏昌	-11.1783
改悔	-11.1786
書吏	-11.1787
虧欠	-11.1788
鎮標	-11.1789
鄉試	-11.1792
朱綱	-11.1792
衝決	-11.1795
指名	-11.1795
上章	-11.1796
歸併	-11.1802
涼州	-11.1803
者何也	-11.1804
不可廢	-11.1805
惻然	-11.1806
畏威	-11.1806
其所長	-11.1808
議敘	-11.1808
科目	-11.1809
巡視	-11.181
並進	-11.1819
鄜延	-11.1822
摯	-11.1823
𬒳	-11.1824
敞	-11.1824
轅	-11.1824
保薦	-11.1825
開陳	-11.1827
潢	-11.1829
治河	-11.1829
譎	-11.1829
陸贄	-11.1829
廷尉	-11.1832
大有裨益	-11.1832
塌	-11.1832
厄	-11.1832
淡	-11.1835
是否可行	-11.1835
修撰	-11.1837
預先	-11.1837
上諭兵部	-11.1838
機㑹	-11.1838
繁劇	-11.1838
暴露	-11.1839
雖云	-11.184
利民	-11.1842
倉儲	-11.1849
韓維	-11.185
百度	-11.1851
以仰報	-11.1851
命往	-11.1853
臣愚欲乞	-11.1855
清軍	-11.1858
諸大臣	-11.1859
採辦	-11.1861
補報	-11.1863
衰老	-11.1863
召還	-11.1865
右侍郎	-11.1866
二百五十	-11.1866
縱横	-11.1866
開列	-11.1867
牧守	-11.1873
並依	-11.1877
名數	-11.1878
查審	-11.1878
保䕶	-11.188
毫釐	-11.1885
髮	-11.1886
銀三萬	-11.1886
打死	-11.1887
𠞰撫	-11.1887
水路	-11.1888
鏡	-11.1888
嘯聚	-11.1889
朗	-11.189
協理	-11.189
入寇	-11.189
霄	-11.1891
壑	-11.1891
棚	-11.1892
洙	-11.1892
南面	-11.1893
殆盡	-11.1894
廖	-11.1897
祥瑞	-11.19
之過也	-11.1907
重加	-11.1912
又奏曰臣	-11.1912
田産	-11.1914
六品	-11.1915
古制	-11.1916
乗間	-11.1921
於上年	-11.1921
門户	-11.1922
侍讀	-11.1923
荆湖	-11.1924
也又曰	-11.1925
邪說	-11.1928
大臣官員	-11.1929
奏曰臣聞	-11.193
考校	-11.1932
膏血	-11.194
皇上天恩	-11.1945
滎	-11.1946
一隅	-11.1947
兩漢	-11.195
窟	-11.195
諸葛亮	-11.1951
保奏	-11.1951
縛	-11.1952
鷹	-11.1952
敕下	-11.1953
紘	-11.1954
上諭曰	-11.1955
歐陽脩	-11.1955
不為不	-11.1959
國威	-11.1959
政教	-11.196
惶懼	-11.196
穵	-11.1962
朝野	-11.1963
尊崇	-11.1964
額森	-11.1965
衙署	-11.1965
㕘革	-11.1966
取信	-11.1967
百僚	-11.1967
維艱	-11.1967
艘	-11.1969
誠實	-11.1969
叅劾	-11.1969
首報	-11.197
恩威	-11.1973
格天	-11.1973
虞舜	-11.1974
精選	-11.1977
講論	-11.198
經略	-11.1984
沿邉	-11.1987
罷斥	-11.199
卓然	-11.1991
展轉	-11.1993
一概	-11.1993
不悟	-11.1995
推舉	-11.1997
謹具	-11.1999
彦博	-11.2004
何異	-11.2005
巫	-11.2006
堅守	-11.2012
醉	-11.2013
畿甸	-11.2014
利弊	-11.2015
咨爾	-11.2017
深憂	-11.2018
小的	-11.2019
張坦麟	-11.202
端拱	-11.202
太史	-11.202
文武官	-11.2021
發往	-11.2023
轉對	-11.2023
淺陋	-11.2026
全省	-11.2027
成熟	-11.2027
節文	-11.2027
不諱	-11.2029
茍非	-11.2033
天下國家	-11.2035
西海	-11.2036
客兵	-11.2036
謹奏為奏聞事竊照	-11.2036
畿内	-11.2038
天災	-11.2038
亢旱	-11.2038
悔過	-11.2038
支放	-11.2039
吏部侍郎	-11.2042
上江	-11.2042
提解	-11.2046
歴練	-11.2049
欺君	-11.2051
大辟	-11.2057
給由	-11.2057
㕘處	-11.2058
火器	-11.2058
廵按	-11.2064
司府	-11.2065
謹奏為奏聞事	-11.2065
正論	-11.2065
深信	-11.207
疆界	-11.2073
名糧	-11.2074
䆒	-11.2077
穰	-11.2077
霽	-11.2077
苴	-11.2077
等寨	-11.2079
岳州	-11.2079
檄飭	-11.208
召見	-11.2081
抵補	-11.2083
子女	-11.2086
疏通	-11.2086
儆戒	-11.2086
守忠	-11.2086
騷然	-11.2087
家屬	-11.209
派撥	-11.209
熙寧	-11.2096
受害	-11.21
廵查	-11.2103
寡人	-11.2104
貨財	-11.2107
巡捕	-11.2108
向来	-11.211
萬歴	-11.2111
購買	-11.2116
萬乗	-11.2116
警戒	-11.2119
㑹審	-11.212
造報	-11.2124
交盤	-11.2126
自愛	-11.2127
曜	-11.2129
賁	-11.2134
存案	-11.2135
肻	-11.2135
更化	-11.2136
㽞	-11.2137
豹	-11.2137
霈	-11.2139
銃	-11.214
谿	-11.214
腰	-11.214
該本部題	-11.2141
晚稻	-11.2146
桿	-11.2147
包攬	-11.2148
知識	-11.2149
接受	-11.215
弓箭手	-11.215
故違	-11.2155
支領	-11.2158
乗機	-11.2158
任其責	-11.2161
輿情	-11.2165
成效	-11.217
窮困	-11.2171
餉銀	-11.2171
罰俸	-11.2172
禦戎	-11.2181
夷民	-11.2184
恩命	-11.2185
勤求	-11.2193
收拾	-11.2198
絃	-11.22
蒐	-11.2201
聖帝明王	-11.2201
訥	-11.2201
古人有言	-11.2202
毓	-11.2203
裹	-11.2203
愿	-11.2204
璘	-11.2205
顛倒	-11.2207
箱	-11.2208
枚	-11.221
成規	-11.221
目覩	-11.2212
寺監	-11.2215
新進	-11.2217
安瀾	-11.2219
都監	-11.2219
昌言	-11.2222
於戲	-11.2223
質審	-11.2225
虛名	-11.2226
抑或	-11.2229
樞宻使	-11.223
盛衰	-11.2233
文辭	-11.2233
散賑	-11.2234
勉為之	-11.2234
各工	-11.2237
守巡	-11.2239
已乆	-11.2241
始知	-11.2243
工匠	-11.2248
鹽規	-11.2249
此臣所謂	-11.2251
乞休	-11.2252
民壯	-11.2257
劍	-11.226
中書舎人	-11.2262
土府	-11.2262
睹	-11.2263
桓公	-11.2265
考驗	-11.2267
軸	-11.2268
安業	-11.2269
蹤跡	-11.227
何暇	-11.227
新命	-11.2271
布置	-11.2271
光禄寺	-11.2271
我皇考	-11.2274
侍衞	-11.2278
拒捕	-11.2278
出示	-11.2282
教職	-11.2283
狂悖	-11.2285
而後已	-11.2286
好學	-11.2287
詳查	-11.229
兵弁	-11.2293
一十六	-11.2295
生業	-11.2301
七八分	-11.2307
以紓	-11.231
湖水	-11.2312
造就	-11.2315
孰為	-11.2318
唯恐	-11.2319
鎗礮	-11.232
功罪	-11.2321
資序	-11.2323
斧鉞	-11.2324
瞭	-11.2325
澗	-11.2326
彌縫	-11.2327
聆	-11.2329
人地相宜	-11.2329
誚	-11.2329
帷幄	-11.2329
汀	-11.233
大敗	-11.2332
䕫	-11.2332
瀘	-11.2332
斬獲首級	-11.2333
阿克敦	-11.2333
濡	-11.2335
藐	-11.2336
伏乞睿鑒	-11.2336
此二人	-11.2336
塹	-11.2337
商議	-11.2338
奉承	-11.2338
抗拒	-11.2338
衛指揮	-11.234
於此時	-11.2341
從諫	-11.2343
均屬	-11.2344
練達	-11.2348
斥逐	-11.2349
譴責	-11.2358
臺省	-11.2364
拔擢	-11.2366
憲章	-11.2367
聖駕	-11.237
三十九	-11.2371
慶元	-11.2374
武功	-11.2376
十倍	-11.2378
物價	-11.2379
奮勵	-11.2381
爪牙	-11.2383
大赦	-11.2384
平陽	-11.2385
彈劾	-11.2387
申嚴	-11.2389
河南山東	-11.239
給賞	-11.239
憂懼	-11.2391
𤣥宗	-11.2393
繞	-11.2393
料物	-11.2393
黎平	-11.2394
長乆	-11.2398
優渥	-11.24
器用	-11.2401
玖	-11.2405
漳州	-11.2408
九品	-11.2411
姦謀	-11.2411
慶賀	-11.2417
三邊	-11.2417
大學士等	-11.2418
上奏曰臣伏見	-11.2427
知悉	-11.2427
銀共	-11.2427
銓選	-11.2429
穫	-11.2435
起送	-11.2438
安輯	-11.2439
不過數	-11.2439
所屬地方	-11.2445
納忠	-11.2446
佇	-11.2451
参	-11.2455
仰懇聖恩	-11.2455
共濟	-11.2456
踐阼	-11.2456
本身	-11.2456
等件	-11.2457
墟	-11.2457
遐邇	-11.2458
太祖髙皇帝	-11.2458
妣	-11.2459
跌	-11.2461
勉之勉之	-11.2463
接准部咨	-11.2463
砌	-11.2463
銖	-11.2464
右副都御史	-11.2466
撙節	-11.2466
邪佞	-11.2467
緑旗	-11.2467
副總河	-11.2468
以臣言為	-11.2469
指實	-11.247
軍伍	-11.247
築城	-11.2471
離間	-11.2471
嚴加議處	-11.2471
頭緒	-11.2471
禹湯	-11.2473
陛下即位	-11.2475
章疏	-11.2475
宣仁	-11.2481
後效	-11.2484
竭忠	-11.2485
度日	-11.2486
但見	-11.2489
可惡	-11.2489
體訪	-11.2489
奸弊	-11.249
延州	-11.2492
國課	-11.2497
其大者	-11.2498
論思	-11.2501
蠲除	-11.2504
宣徳	-11.2505
于兹	-11.2506
價値	-11.2507
革退	-11.2509
顒	-11.2512
親近	-11.2516
滔	-11.2518
疆埸	-11.2518
發帑	-11.2519
憲德	-11.2519
疫	-11.2521
律令	-11.2522
駿	-11.2522
北路	-11.2522
箕	-11.2523
滄	-11.2526
衿	-11.2528
親丁	-11.2529
戯	-11.2529
埠	-11.253
比年以來	-11.2531
四百餘	-11.2531
楠	-11.2534
磚	-11.2535
㡬何	-11.2538
伏望聖明	-11.2539
星馳	-11.2539
懲戒	-11.2541
工完	-11.2544
尚能	-11.2546
不符	-11.2547
始末	-11.2547
斯言	-11.255
力役	-11.2551
惟新	-11.2551
仰懇皇上	-11.2552
東漢	-11.2555
不惑	-11.2561
物件	-11.2562
統兵	-11.2564
漢宣帝	-11.2565
改元	-11.2568
元符	-11.2568
而任之	-11.2568
帑藏	-11.257
語曰	-11.2573
䝉我皇上	-11.2579
輅	-11.2579
理合恭摺	-11.2579
相通	-11.258
湟	-11.2582
臘	-11.2583
鏤	-11.2583
四十八	-11.2584
必有所	-11.2585
蔚	-11.2585
嘿	-11.2587
去留	-11.2588
一帶地方	-11.2588
例該	-11.259
謄	-11.259
蟻	-11.2591
絡繹	-11.2594
便利	-11.2594
果係	-11.2595
六曹	-11.2597
未能盡	-11.2598
恩信	-11.2599
按季	-11.2603
毁譽	-11.2603
城寨	-11.2604
威逺	-11.2604
管内	-11.2606
田疇	-11.2606
女真	-11.2608
未息	-11.2608
川陜	-11.261
素所	-11.2613
外患	-11.2614
禮部尚書	-11.262
海運	-11.2628
艱食	-11.2629
永久	-11.2631
雍正	-11.2633
擾累	-11.2635
叅議	-11.2635
果否	-11.2636
强盜	-11.2638
損壊	-11.2638
捕役	-11.2639
勾當	-11.2641
郢	-11.2643
鄆	-11.2645
密行	-11.2648
鈎	-11.2651
袒	-11.2651
查弼納	-11.2652
閹	-11.2652
邏	-11.2652
訕	-11.2653
與一子	-11.2654
謹奏為奏明事竊	-11.2656
可汗	-11.2656
謹奏為恭謝天恩事竊	-11.2657
能員	-11.2657
貽悞	-11.2662
皇皇	-11.2662
餬口	-11.2663
慨然	-11.2663
理藩院	-11.2664
軍職	-11.2665
去邪	-11.2666
李光	-11.2667
殺害	-11.2667
旬月	-11.2669
控告	-11.2669
精鋭	-11.267
朝覲	-11.2674
難免	-11.268
建造	-11.268
隣省	-11.2681
臨陣	-11.2687
積累	-11.269
増添	-11.2696
遷善	-11.2699
乂安	-11.2704
五府	-11.2708
入仕	-11.2709
軍機	-11.271
熟練	-11.2713
累日	-11.2716
怡	-11.2717
刑政	-11.2718
鍳	-11.2718
綰	-11.2718
廸	-11.2719
長寨	-11.2719
捐軀	-11.2721
掾	-11.2722
既往	-11.2722
甲寅	-11.2723
琰	-11.2723
真宗皇帝	-11.2724
督理	-11.2727
但係	-11.2727
太上皇	-11.2728
晟	-11.2728
領軍	-11.2731
滋長	-11.2732
可采	-11.2734
承㫖	-11.2736
提學	-11.2739
邉鄙	-11.2739
愛戴	-11.274
魏公	-11.2742
輪流	-11.2745
日夕	-11.2747
則無以	-11.2747
原設	-11.2748
刻薄	-11.2754
根株	-11.2761
指使	-11.2761
萬餘石	-11.2763
嗣據	-11.2763
一顆	-11.2767
所患	-11.2767
米每石	-11.277
夏國	-11.2775
上封事	-11.2776
郵	-11.2777
蕩平	-11.2777
奏疏	-11.2777
母子	-11.2781
扆	-11.2782
祲	-11.2783
俛	-11.2785
先次	-11.2786
未足以	-11.2787
哺	-11.2787
仰見皇上	-11.2787
秧	-11.2788
葦	-11.279
疆場	-11.279
所属	-11.2791
儹	-11.2791
粵	-11.2791
線	-11.2792
附和	-11.2792
覊	-11.2792
賊勢	-11.2793
閭里	-11.2793
豈不知	-11.2793
謹題請㫖	-11.2794
管河道	-11.2794
六合	-11.2794
百計	-11.2795
裴度	-11.2795
厯年	-11.2796
選任	-11.2802
伏乞聖明	-11.2803
漢武	-11.2804
驛遞	-11.2805
征討	-11.2814
仰邀	-11.2816
士竒	-11.2817
䝉蔽	-11.2819
千餘里	-11.2819
按律	-11.282
毫不	-11.2824
千二百	-11.2825
未必能	-11.2826
二百四十	-11.2828
豐熟	-11.2829
部郎中	-11.2832
原委	-11.284
胥役	-11.2841
賊犯	-11.2842
具詳	-11.2842
追賠	-11.2846
馴致	-11.2847
戚繼光	-11.2849
無逸	-11.2851
濠	-11.2852
迺	-11.2852
永昌	-11.2853
覬覦	-11.2853
嚴刑	-11.2853
駑	-11.2854
榆	-11.2854
竝非	-11.2855
貎	-11.2855
章䟽	-11.2855
米價每石	-11.2855
謹奏竊	-11.2855
岷	-11.2856
東向	-11.2857
封疆大吏	-11.2857
硃批諭旨巻	-11.2857
理合繕摺奏聞	-11.2863
早禾	-11.2864
犒賞	-11.2864
捐納	-11.2865
歎息	-11.2867
為陛下言之	-11.2867
殺戮	-11.287
奮發	-11.2871
亡國	-11.2873
左右前後	-11.2873
來説	-11.2873
倒置	-11.2876
文員	-11.2882
俯念	-11.2884
智勇	-11.2886
應付	-11.2889
零星	-11.2889
之幸也	-11.2889
遺漏	-11.2894
戒飭	-11.2895
四月内	-11.2896
可見矣	-11.2897
據實覆奏	-11.2898
外夷	-11.2901
商船	-11.2902
提舉官	-11.2904
瑋	-11.2909
究擬	-11.2911
車馬	-11.2912
仁厚	-11.2914
五寸	-11.2914
増置	-11.2917
團練	-11.2917
豕	-11.2918
沸騰	-11.2918
親賢	-11.2918
理合繕摺奏聞謹奏	-11.2919
神器	-11.2919
彫	-11.2919
三十四	-11.2921
樞宻副使	-11.2923
柵	-11.2923
鑰	-11.2924
楊宗仁	-11.2925
干犯	-11.2927
餧養	-11.2929
鍋	-11.293
欽定四庫全書世宗憲皇帝上諭内閣卷	-11.2932
草料	-11.2934
血氣	-11.2936
調治	-11.2936
旗丁	-11.2941
衆口	-11.2943
薊鎮	-11.2943
齊集	-11.2945
黄鍾	-11.2949
陞補	-11.2951
精明	-11.2959
築堤	-11.296
延安	-11.2963
百執事	-11.2963
現存	-11.2968
三千餘	-11.2971
非一日	-11.2973
㑹題	-11.2973
防䕶	-11.2973
威寧	-11.2977
諄	-11.2984
頻年	-11.2986
窒	-11.2986
孟軻	-11.2989
趲	-11.299
仰慰聖懐	-11.2991
欽若	-11.2992
淮甸	-11.2992
傭	-11.2994
密諭	-11.2994
癸丑	-11.2995
感悟	-11.2995
避嫌	-11.2998
躱	-11.2998
岑	-11.3003
鎮逺	-11.3004
河東總督	-11.3004
繕疏	-11.3006
石工	-11.3008
秋審	-11.3009
開言路	-11.301
文景	-11.301
歴來	-11.3012
七十餘	-11.3013
營求	-11.3013
根究	-11.3017
甚盛	-11.3017
讜言	-11.3018
明示	-11.3018
魏晉	-11.302
比來	-11.3022
二丈	-11.3023
起科	-11.3027
邪説	-11.3027
專司	-11.303
一十八	-11.3033
方鎮	-11.3036
士習	-11.3039
親信	-11.3043
徇庇	-11.3044
宗族	-11.3044
候㫖	-11.3044
毎遇	-11.3046
蒙古	-11.3048
芒	-11.305
無賴	-11.305
文册	-11.3051
陞遷	-11.3051
禳	-11.3052
鯁	-11.3053
奭	-11.3059
當此之時	-11.3063
跪聆	-11.3064
壬子	-11.3065
建炎	-11.3069
遴	-11.307
均平	-11.307
分投	-11.3074
沽名	-11.3082
所不免	-11.3084
欽哉	-11.3085
未協	-11.3088
查究	-11.3088
警懼	-11.3089
欣然	-11.3092
慶陽	-11.3099
不愧	-11.3099
節年	-11.3106
條目	-11.311
六里	-11.3115
五月内	-11.3121
加一階	-11.3121
柏	-11.3122
光景	-11.3123
跨	-11.3123
不可不察也	-11.3124
帷	-11.3125
旗軍	-11.3126
修德	-11.3128
朘	-11.3129
漢髙祖	-11.3129
輾轉	-11.313
查豫省	-11.3133
撿	-11.3133
又查得	-11.3134
審察	-11.3134
厦門	-11.3137
黄炳	-11.314
推廣	-11.3144
百倍	-11.3146
鎮巡	-11.3148
元江	-11.3149
西藏	-11.3153
欽恤	-11.3157
閏四月	-11.3158
照臨	-11.3159
道德	-11.316
竊慮	-11.3162
矜全	-11.3163
寢食	-11.3163
帶徵	-11.3164
也方今	-11.3164
旋即	-11.3167
泉州	-11.3167
聖治	-11.317
開採	-11.3172
流弊	-11.3172
違例	-11.3173
量移	-11.3182
效尤	-11.3184
遽行	-11.3185
餌	-11.3185
變易	-11.3185
載籍	-11.319
徂	-11.3193
猖狂	-11.3193
肌	-11.3194
乾坤	-11.3194
敷奏	-11.3194
借支	-11.3195
謡	-11.3195
廟堂之上	-11.3196
灌溉	-11.3196
蜂	-11.3196
濯	-11.3196
霧	-11.3198
甦	-11.32
秤	-11.3204
斜	-11.3205
壅滯	-11.3205
以仰副	-11.3207
文武官弁	-11.3208
何人斯	-11.3208
惠卿	-11.3208
每歲	-11.3213
廬舍	-11.3214
稀少	-11.3214
面加	-11.3216
姦匪	-11.322
邉方	-11.3222
庸材	-11.3223
土目	-11.3225
衆庶	-11.3225
萬㡬	-11.3225
地丁	-11.3226
疑惑	-11.323
銀二十	-11.323
相持	-11.3232
基業	-11.3234
徐徐	-11.3238
孰敢	-11.3238
省㑹	-11.3243
取㫖	-11.3245
遴委	-11.3246
額數	-11.3248
禾苗	-11.3248
此軰	-11.3255
張勇	-11.3257
當否	-11.3261
櫃	-11.3262
搏	-11.3263
畎	-11.3263
玠	-11.3264
四凶	-11.3265
由此觀之	-11.3269
斛斗	-11.3269
淚	-11.327
辛亥	-11.327
前史	-11.3272
咽喉	-11.3273
碍	-11.3274
講明	-11.3274
所擬	-11.3281
金陵	-11.3284
伏望聖慈特	-11.3287
恭摺	-11.3288
澳	-11.3295
聖世	-11.3298
冒濫	-11.3298
罔極	-11.3298
事無不	-11.33
開濬	-11.3301
業巳	-11.3302
未聞有	-11.3307
振作	-11.3311
滋擾	-11.3311
寛裕	-11.3314
素著	-11.3315
軫恤	-11.3316
封爵	-11.3319
太皇太后陛下	-11.3321
該旗	-11.3325
販賣	-11.3328
神主	-11.333
張方平	-11.3333
强敵	-11.3335
詐偽	-11.3335
稍稍	-11.3336
髓	-11.3336
勸勉	-11.3338
絀	-11.3338
孝悌	-11.3341
覔	-11.3341
儀注	-11.3341
兔	-11.3341
問擬	-11.3342
己酉	-11.3343
匪人	-11.3343
太多	-11.3347
教誨	-11.3355
嘉納	-11.3357
糧食	-11.3358
甲辰	-11.3358
伏秋	-11.3365
引咎	-11.3371
水漲	-11.3376
上件	-11.3379
不可一日	-11.3379
咨送	-11.338
天下之治	-11.339
咨覆	-11.3395
封疆大臣	-11.3395
素稱	-11.3399
澶淵	-11.3401
蕪	-11.3404
邉防	-11.3404
控扼	-11.3405
瘞	-11.3405
憊	-11.3406
巾	-11.3409
英斷	-11.3409
呌	-11.3409
丙午	-11.341
唯陛下	-11.341
法律	-11.3411
􁞽	-11.3412
扎薩克	-11.3413
荷䝉聖恩	-11.3415
桃源	-11.3416
奬勵	-11.3417
嶺南	-11.3418
煽惑	-11.342
遷徙	-11.342
旭	-11.3422
循良	-11.3422
竊觀	-11.3424
有成效	-11.3425
茶馬	-11.3429
具摺奏明	-11.3432
拏問	-11.3433
市價	-11.3434
貽患	-11.3436
兩不等	-11.3437
欺隠	-11.3437
聖化	-11.3438
不厭	-11.3441
逾格	-11.3443
調理	-11.3444
端方	-11.3445
切責	-11.345
生苗	-11.346
買辦	-11.3464
扈	-11.3465
限期	-11.3468
矩	-11.347
贄	-11.3474
浄	-11.3475
汲	-11.3477
愬	-11.3478
勢要	-11.348
豈特	-11.348
饌	-11.3481
也雖然	-11.3481
雍正十三年	-11.3481
􁱰	-11.3481
宜兆熊	-11.3482
僞	-11.3482
映	-11.3485
両	-11.3485
陛辭	-11.349
張楷	-11.3491
嘉悦	-11.3491
宗祀	-11.3496
臣愚欲望聖慈	-11.3496
灼然	-11.3502
頃刻	-11.3502
刑措	-11.3505
畏憚	-11.3508
量給	-11.351
搶去	-11.3511
追補	-11.3511
三十五	-11.3513
無㡬	-11.3515
狂愚	-11.3517
京營	-11.3519
還項	-11.3522
顧忌	-11.3523
威靈	-11.3532
北郊	-11.3533
博訪	-11.3533
一萬二千	-11.3536
能保其	-11.3537
富國	-11.3541
西夏	-11.3541
降黜	-11.3543
律例	-11.3543
文武大臣	-11.3544
部署	-11.3545
晁	-11.3545
譲	-11.3548
接連	-11.3548
蹶	-11.3549
董仲舒	-11.355
無疆之休	-11.3551
在天之靈	-11.3551
辛酉	-11.3552
䧏	-11.3553
鄂彌達	-11.3554
雨水調勻	-11.3555
伏祈皇上	-11.3555
坍塌	-11.3556
水手	-11.3556
遵即	-11.3557
平涼	-11.356
惶恐	-11.3563
依律	-11.3572
驅逐	-11.3573
王恕	-11.3574
配享	-11.3575
扶持	-11.3582
廂軍	-11.3583
譴告	-11.3588
南海	-11.3588
我祖宗	-11.3591
宣宗	-11.3593
調任	-11.3594
冗食	-11.3594
糶賣	-11.3596
切齒	-11.3603
昌平	-11.361
上諭吏部	-11.361
採納	-11.3612
謐	-11.3614
營造	-11.3619
所屬州縣	-11.362
筠	-11.362
監司郡守	-11.3621
愽	-11.3621
交趾	-11.3622
湮	-11.3623
天討	-11.3623
修建	-11.3625
孝宗皇帝	-11.3627
飛檄	-11.3627
醴	-11.3627
薰	-11.3628
錠	-11.3628
趂	-11.3631
雲貴總督	-11.3632
仁政	-11.3635
情狀	-11.3637
甄别	-11.3638
兼顧	-11.3638
南康	-11.3639
字様	-11.3641
撫標	-11.3642
雜糧	-11.3648
缺額	-11.3648
外尚有	-11.365
考績	-11.3655
田野	-11.3655
必湏	-11.3668
隄備	-11.3668
陛下誠能	-11.3669
伏乞陛下	-11.3677
七十五	-11.3683
惑衆	-11.3686
開府儀同三司	-11.3691
應徵	-11.3692
恭呈御覽	-11.3695
都指揮僉事	-11.3696
吏部知道	-11.3699
隍	-11.37
庚辰	-11.37
人品	-11.37
專委	-11.3702
紛擾	-11.3703
居心行事	-11.3703
岩	-11.3706
内庫	-11.3706
封建	-11.3711
率屬	-11.3713
灾傷	-11.3713
轉徙	-11.3717
勸導	-11.3719
廢置	-11.3719
倒失	-11.3721
騎操	-11.3724
明晰	-11.3724
營㕘將	-11.3729
教育	-11.3737
權貴	-11.3742
男子	-11.3744
弭盜	-11.3745
解體	-11.3745
寜夏	-11.375
厯代	-11.3762
刑部尚書	-11.3765
㝎	-11.3765
囿	-11.3766
臣愚以謂	-11.3766
中途	-11.3768
槖	-11.3768
常賦	-11.3768
失望	-11.3772
禮部侍郎	-11.3772
枷號	-11.3776
家莊	-11.3776
攻城	-11.3777
諭部	-11.3777
䝉聖主	-11.3778
揭報	-11.3779
規禮	-11.3781
幇	-11.3782
考功	-11.3783
訊據	-11.3784
驚擾	-11.3785
均沾	-11.3786
人畜	-11.3787
出沒	-11.3789
輔佐	-11.3792
踰年	-11.3792
恩於萬一耳	-11.3799
姦雄	-11.3803
予奪	-11.3806
崇尚	-11.381
痛心	-11.3811
范鎮	-11.3815
頒賜	-11.3817
州府屬之	-11.3822
十之二	-11.3822
餘剰	-11.3828
咸謂	-11.3828
冗官	-11.3834
良吏	-11.3836
牖	-11.3837
謹奏為恭謝天恩事	-11.3839
孟浪	-11.3841
泗州	-11.3843
上䟽曰臣聞	-11.3845
不聊生	-11.3846
特降指揮	-11.3846
羈	-11.3847
伊都立	-11.3848
袍	-11.3848
遙	-11.3848
饑寒	-11.3851
誰肯	-11.3851
操備	-11.3853
三十七	-11.3861
一帯	-11.3865
權要	-11.3865
妖言	-11.3867
較前	-11.3868
歐陽修	-11.3868
救弊	-11.3872
招討	-11.3873
不朽	-11.3875
糾㕘	-11.3876
條制	-11.3879
備細	-11.3882
工部尚書	-11.3889
奏討	-11.3893
甲申	-11.3898
榖石	-11.3899
兖州	-11.3901
兢惕	-11.3903
𣣔	-11.3905
臚	-11.3912
媿	-11.3914
瘡痍	-11.3916
剗	-11.3916
長䇿	-11.3918
三月内	-11.3918
倉廩	-11.392
禾稼	-11.3921
脈	-11.3921
擡	-11.3923
轡	-11.3923
逵	-11.3923
叵測	-11.3925
理合奏聞	-11.3925
張耀祖	-11.3927
天下之望	-11.3928
漫溢	-11.3928
成康	-11.3929
蒙聖恩	-11.3929
恭摺奏聞	-11.3931
漕船	-11.3934
棍徒	-11.3935
同日又奏為奏聞事竊照	-11.3937
睿智	-11.3938
莫甚於	-11.3939
咨㑹	-11.394
矢石	-11.3941
寢罷	-11.3942
的確	-11.3945
九月内	-11.3947
按月	-11.3947
去秋	-11.3948
一十九	-11.3949
疑似	-11.395
肅宗	-11.396
諭大學士等	-11.3963
定限	-11.3964
科場	-11.3967
不知何	-11.3967
特頒	-11.397
二項	-11.3974
㑹試	-11.3978
庚	-11.3979
劉向	-11.3983
盍	-11.3987
掊	-11.3988
羲	-11.3989
變賣	-11.3992
招集	-11.3993
奉㫖依議	-11.3993
太宗文皇帝	-11.3994
傚	-11.3995
醒	-11.3995
坪	-11.3995
瓜	-11.3996
廐	-11.4
分賠	-11.4
撥運	-11.4003
世俗	-11.4005
憫惻	-11.401
顔色	-11.4013
簡任	-11.4013
必需	-11.4014
衆寡	-11.4015
七百餘	-11.4018
分貯	-11.4022
抑配	-11.4022
數年之後	-11.4023
住牧	-11.4027
奏繳	-11.4028
殷實	-11.4033
移咨到	-11.4034
仰見聖	-11.4044
臣愚竊	-11.4047
詹事	-11.4049
養育	-11.4052
裁損	-11.4052
標中軍	-11.4055
丈尺	-11.4062
三十三	-11.4064
旰	-11.4064
舘	-11.4065
闥	-11.4065
河套	-11.4065
戒懼	-11.4066
章獻	-11.4066
嗇	-11.4068
貂	-11.4069
趙汝愚	-11.407
株	-11.407
剏	-11.407
右司諫	-11.4072
媒	-11.4073
薊州	-11.4075
古帝王	-11.4076
禦侮	-11.4076
支吾	-11.4076
戊申	-11.4077
案呈到部	-11.4079
一百九十	-11.408
從寛免	-11.4084
一千四百	-11.4085
合無今後	-11.4087
齋戒	-11.4092
降調	-11.4094
哈密	-11.4094
劾奏	-11.4095
八月内	-11.4097
一千名	-11.4098
睿㫖	-11.41
率衆	-11.4106
塘汛	-11.4107
緝獲	-11.4109
完固	-11.411
曲折	-11.4111
偶然	-11.4111
恩施	-11.4124
四十餘年	-11.4126
順天府	-11.4127
條列	-11.413
安撫使	-11.413
蕩然	-11.4134
不可緩	-11.4136
歸附	-11.4137
范祖禹	-11.4139
縱容	-11.4144
三十八	-11.4144
膏腴	-11.4145
厮	-11.4145
禽獸	-11.4145
芥	-11.4146
峒	-11.4146
撻	-11.4146
經乆	-11.4146
愁苦	-11.4146
滁	-11.4148
遺詔	-11.4149
韓良輔	-11.4149
六月内	-11.4149
旗幟	-11.415
釘	-11.4152
敬天勤民	-11.4153
都布按三司	-11.4153
哥	-11.4153
村莊	-11.4154
庚子	-11.4157
介甫	-11.416
謹遵	-11.4162
簡易	-11.4164
辦公	-11.4167
借貸	-11.4169
理合據實	-11.4171
恣行	-11.4175
山谷	-11.4181
向背	-11.4185
關防	-11.4194
念切	-11.4195
爵位	-11.4203
後悔	-11.4207
未必皆	-11.4213
疚	-11.4213
祜	-11.4216
叅知政事	-11.4217
瘵	-11.4219
追究	-11.4219
紂	-11.4221
蔓	-11.4222
倬	-11.4223
黥	-11.4224
倪	-11.4224
恂	-11.4224
陛下即位以來	-11.4225
沸	-11.4225
參知政事	-11.4225
婁	-11.4225
赦書	-11.4227
週	-11.423
壅塞	-11.423
一至於此	-11.423
鼓勵	-11.4235
傅泰	-11.4238
工役	-11.4239
収成	-11.424
大猷	-11.4244
奉聖㫖是欽此	-11.4244
咨商	-11.425
造完	-11.4252
到任以來	-11.4254
貞元	-11.4254
王莽	-11.4255
上𦂳	-11.4255
勤敏	-11.4257
抑勒	-11.4258
傾心	-11.426
堅執	-11.4262
采納	-11.4267
同日又奏為奏聞事竊查	-11.4271
巡查	-11.4272
慎擇	-11.4279
僅存	-11.4284
莅	-11.4291
鯀	-11.4294
客商	-11.4295
驩	-11.4297
按伏	-11.4297
嗷嗷	-11.4298
龎	-11.4299
瓚	-11.4299
茹	-11.4299
謂侍臣曰	-11.43
岌	-11.43
劣蹟	-11.4301
陳世倕	-11.4302
汶	-11.4302
蹕	-11.4302
驚駭	-11.4303
太上皇帝	-11.4303
聯	-11.4304
荼毒	-11.4304
捫	-11.4305
仔	-11.4308
們	-11.4309
廢棄	-11.4313
上尊號	-11.4315
兵備副使	-11.4317
先皇帝	-11.432
一萬五千	-11.4329
不可勝計	-11.433
緡錢	-11.433
聖謨	-11.4332
水脚	-11.4332
魏徵	-11.4336
三十二	-11.4338
湯武	-11.4345
恭候	-11.4347
籍籍	-11.4354
一百一十	-11.4354
天眷	-11.4359
冊籍	-11.4366
起居注	-11.4371
行陣	-11.4373
主者施行	-11.4374
一千六百	-11.4375
熹	-11.4376
劑	-11.4377
狠	-11.4378
筦	-11.4379
慟	-11.4379
裒	-11.438
綢繆	-11.438
癸酉	-11.438
一味	-11.4381
灑	-11.4381
姧	-11.4381
實心辦事	-11.4385
技勇	-11.4386
謹奏為遵㫖	-11.4391
至一兩	-11.4391
哨探	-11.4393
此項銀兩	-11.4394
奏請定奪	-11.4395
匪𩔖	-11.4399
困弊	-11.44
瞭見	-11.44
逃竄	-11.44
精擇	-11.44
苑馬寺	-11.4401
繼述	-11.4401
貪殘	-11.4403
陞賞	-11.4405
隋唐	-11.4406
木植	-11.4408
伏汛	-11.4409
逢迎	-11.4409
嘉祥	-11.441
泗城	-11.4411
陞科	-11.4416
寳元	-11.4418
何以言之	-11.4428
廵視	-11.4434
思奮	-11.4435
務農	-11.4435
不䏻	-11.4439
方纔	-11.4443
井田	-11.4443
兵一千名	-11.4444
防護	-11.4444
條約	-11.4444
諒祚	-11.4445
青海	-11.4448
祉	-11.445
僥	-11.445
理合恭繳謹奏	-11.4451
縝	-11.4452
受賄	-11.4454
㤀	-11.4454
夸	-11.4455
樞密	-11.4456
棺	-11.4458
囹圄	-11.4459
諫官御史	-11.4461
贑	-11.4461
二千五百	-11.4465
駕馭	-11.4466
輳	-11.4467
同日又奏竊	-11.4469
以為不然	-11.4473
堂堂	-11.4473
寛縱	-11.4474
一千三百	-11.4476
切勿	-11.4477
肇慶	-11.4479
遵依	-11.448
所不容	-11.4481
殆非	-11.4482
擁衆	-11.4487
百神	-11.4491
賦性	-11.4496
專管	-11.4496
大柄	-11.4497
戮力	-11.4501
折價	-11.4502
貢獻	-11.4502
偏執	-11.4502
牧放	-11.4506
皇祖	-11.4507
振舉	-11.4517
理合據實奏聞	-11.4518
吾君	-11.4522
災害	-11.4522
沆	-11.4526
何憂	-11.4526
頡	-11.4526
掌印官	-11.4527
箠	-11.4527
守宰	-11.4528
天錫	-11.4534
收糴	-11.4534
謹繕摺奏聞	-11.4535
韓信	-11.4536
癘	-11.4536
綵	-11.4538
附㑹	-11.4539
吏胥	-11.4539
莫此為甚	-11.4539
西陲	-11.4539
看了來説	-11.454
鎮巡等官	-11.454
震驚	-11.454
感召天和	-11.4541
干預	-11.4543
榖價	-11.4545
一兩一錢	-11.4547
紊亂	-11.4547
凜遵	-11.4548
吏治民生	-11.4548
在朕前	-11.4553
試看	-11.4553
黜責	-11.4557
不急之	-11.456
所有微	-11.4562
勅諭	-11.4563
隘口	-11.4563
詹	-11.4565
七十二	-11.4566
監臨	-11.457
功績	-11.4571
財貨	-11.4573
經綸	-11.4577
勿疑	-11.4579
稍遲	-11.4586
弟子	-11.46
衝要	-11.4601
斬首	-11.4604
俯仰	-11.4608
調撥	-11.461
濟寧	-11.4612
指授	-11.4612
報銷	-11.4613
沙漠	-11.4613
藁	-11.4614
颺	-11.4615
耽	-11.4615
一摺奉有硃批	-11.4615
泌	-11.4616
卻	-11.4617
謟	-11.4617
墳墓	-11.4618
赫然	-11.4618
十有二	-11.462
婉	-11.462
鳩	-11.4622
葱	-11.4623
巖疆	-11.4624
已有㫖	-11.4624
琛	-11.4625
刋刻	-11.4625
裁處	-11.4629
付託	-11.4631
論語	-11.4633
一十七	-11.4641
謹奏為欽奉上諭事	-11.4641
驚疑	-11.4646
楊一清	-11.4647
貧富	-11.465
通曉	-11.4656
奉聖㫖卿	-11.466
嵗貢	-11.4666
著九卿	-11.4666
弁員	-11.4666
管糧	-11.4668
愚衷	-11.4669
南澳	-11.4675
貝	-11.468
敬畏	-11.4682
雩	-11.4686
短長	-11.4692
弓矢	-11.4692
富庶	-11.4696
庠序	-11.4697
踞	-11.4697
昩	-11.4698
閒暇	-11.4698
交部議	-11.4701
丁丑	-11.4701
豢養	-11.4702
臂指	-11.4704
驢	-11.4705
鑽營	-11.4707
貯庫	-11.4708
河南廵撫	-11.4708
市恩	-11.4709
我們	-11.4715
大将軍	-11.4716
空閒	-11.472
歲月	-11.4724
精銳	-11.4725
茶鹽	-11.4728
結案	-11.473
溺職	-11.4737
幽州	-11.474
茍免	-11.4743
慶雲	-11.4745
繁簡	-11.4747
變價	-11.4748
離散	-11.4751
押解	-11.4754
鹽價	-11.4754
邇來	-11.4762
接管	-11.4765
下悃	-11.4767
豺狼	-11.4772
爪	-11.4774
承大統	-11.4776
楷	-11.4776
栽插	-11.4779
璉	-11.478
兗	-11.4781
洞鑒	-11.4781
躧	-11.4783
三品以上	-11.4785
癸巳	-11.4786
各府州	-11.4788
㭍	-11.4788
扣除	-11.4789
加勉	-11.479
師傅	-11.4791
榆林	-11.4794
輪班	-11.4795
著革職	-11.4796
度牒	-11.4799
協助	-11.4813
貪利	-11.4814
四十九	-11.4814
輓運	-11.4815
倉場	-11.4816
此之謂也	-11.4818
靖逆	-11.4818
十之三	-11.4823
謹具奏聞	-11.4824
瞻仰	-11.4824
同日又奏為恭報	-11.4828
密摺	-11.4845
欽賜	-11.4845
蠱	-11.4847
司道府	-11.4847
凜	-11.4855
晷	-11.4856
峽	-11.4856
聖天子	-11.4856
鉗	-11.4857
本年六月	-11.4857
槽	-11.4858
峙	-11.4859
再四思維	-11.4866
冐昧	-11.4866
驍勇	-11.4866
悉心籌畫	-11.4867
庚寅	-11.4867
詿誤	-11.4867
糾劾	-11.4869
騷動	-11.4871
退縮	-11.4871
聖母	-11.4872
抄出	-11.4873
束手	-11.4875
哀矜	-11.4875
臺閣	-11.4876
旗員	-11.4877
獻替	-11.4879
六十餘	-11.488
騾頭	-11.4882
阿哥	-11.4882
丙子	-11.4884
冗費	-11.4893
錢穀	-11.4899
銀一十	-11.4899
餘鹽	-11.49
仰祈睿鑒事	-11.4906
協辦	-11.4907
兵部侍郎	-11.4908
陜省	-11.4908
它日	-11.4913
勞逸	-11.4919
中書省	-11.4925
敕諭	-11.4934
孝敬	-11.4934
戊午	-11.4936
羽翼	-11.4939
宇宙	-11.4941
䑕	-11.4943
鎮巡官	-11.4943
燔	-11.4943
咈	-11.4944
有名無實	-11.4944
黄國材	-11.4944
滕	-11.4945
難測	-11.4946
緝熈	-11.4947
更有請者	-11.4947
枝葉	-11.4949
証	-11.495
丁酉	-11.4952
衙役	-11.4954
罪狀	-11.4955
邉患	-11.4958
甲午	-11.4958
殫竭	-11.498
盜竊	-11.4986
鞏固	-11.4986
得其要	-11.4987
弭災	-11.4987
公帑	-11.4989
乘機	-11.4994
買賣	-11.4995
危險	-11.4998
卿大夫	-11.5001
權衡	-11.5002
私鑄	-11.5007
瓘	-11.5008
銀一百	-11.5011
蕭何	-11.5018
不能自已	-11.5018
夭	-11.5018
賜紫金魚袋	-11.5019
濮安懿王	-11.5019
歿	-11.502
倉猝	-11.5022
飛報	-11.5022
駑駘	-11.5024
㝷	-11.5025
悠悠	-11.5026
丘濬	-11.5027
虹	-11.5027
庚午	-11.5028
戊寅	-11.5028
槐	-11.5028
頤	-11.5028
褊	-11.5028
愜	-11.5028
准部咨	-11.5029
悚惕	-11.5029
㐮	-11.503
衝突	-11.503
巡撫印務	-11.5031
遷移	-11.5032
鎻	-11.5033
風紀	-11.5033
峪	-11.5035
膏澤	-11.5035
又從而	-11.5037
遊擊將軍	-11.5038
講究	-11.5039
統俟	-11.504
貝子	-11.5042
莫知所	-11.5048
硝	-11.5049
生苖	-11.505
玩好	-11.5059
總督印務	-11.5061
革弊	-11.5061
充裕	-11.507
八百餘	-11.5076
靡寧	-11.5077
鹽商	-11.5081
標營	-11.5083
朔望	-11.5083
犯贓	-11.5092
五十萬	-11.5095
寤	-11.5099
凶年	-11.5101
科甲	-11.5102
雉	-11.5105
組	-11.5106
襃	-11.5108
昊天上帝	-11.5108
招徠	-11.5109
讟	-11.511
俶	-11.511
羈縻	-11.511
泓	-11.511
撞	-11.511
一勞永逸	-11.5112
庚申	-11.5114
㨂	-11.5115
所奏知道了	-11.5115
謹奏為奏聞事竊查	-11.5116
委靡	-11.5116
眷佑	-11.5118
崑	-11.5118
封疆重任	-11.5119
宗人府	-11.512
明白回奏	-11.5122
刺史縣令	-11.5125
謹奏據奏	-11.5125
竄逐	-11.5127
覺悟	-11.5134
英雄	-11.5134
君臣之間	-11.5143
巧詐	-11.515
暫留	-11.5151
姦徒	-11.5155
乙未	-11.5158
錢粮	-11.5164
追捕	-11.5178
瘳	-11.5187
勤儉	-11.5188
擘畫	-11.5188
覽奏知道了	-11.5192
彪	-11.5192
疏入帝	-11.5194
殯	-11.5194
誹謗	-11.5194
肘腋	-11.5194
桀紂	-11.5195
太常博士	-11.5197
觀風整俗使	-11.5198
松潘	-11.5198
腸	-11.5199
含糊	-11.5199
㕑役	-11.5199
出没	-11.5199
慧	-11.52
懈弛	-11.5201
奉聖旨	-11.5202
隄岸	-11.5204
棗	-11.5205
團營	-11.5206
仰惟皇上	-11.5209
封樁	-11.5211
微忱	-11.5211
條例司	-11.5214
理合奏聞謹奏	-11.5217
宸斷	-11.5217
千把總	-11.522
六十餘年	-11.5224
舜禹	-11.5227
侵占	-11.5228
軍裝	-11.523
謹奏覽同日又奏為	-11.5236
輙敢	-11.5236
那端	-11.5238
子姪	-11.5241
晰	-11.5243
上書曰	-11.5247
三法司	-11.525
清釐	-11.5253
汛防	-11.5253
庫項	-11.5254
神祗	-11.5258
枷	-11.5272
逄	-11.5275
燎	-11.5276
擿	-11.5276
喉	-11.5277
壬午	-11.5278
閨	-11.5278
栗	-11.5281
乙酉	-11.5281
有時而	-11.5282
雀	-11.5283
囤	-11.5283
堵塞	-11.5285
耤	-11.5288
椿	-11.5289
淩	-11.536
翠	-11.5362
舶	-11.5365
餐	-11.5366
秣	-11.5367
顓	-11.5368
訂	-11.5369
療	-11.537
吿	-11.5371
擲	-11.5372
砂	-11.5373
刧	-11.5374
緬	-11.5375
厨	-11.5376
譛	-11.5447
鮑	-11.5451
燧	-11.5453
耘	-11.5456
粱	-11.5456
蝻	-11.5456
霉	-11.5458
倅	-11.546
爼	-11.5538
撒	-11.5548
瀕	-11.5549
湍	-11.555
賍	-11.555
磺	-11.5566
魄	-11.5625
綺	-11.5626
澶	-11.5626
嬉	-11.5627
苐	-11.5629
躐	-11.5631
佔	-11.5633
喊	-11.5633
庥	-11.5635
澇	-11.5635
趁	-11.5635
諮	-11.568
豎	-11.5715
妹	-11.5718
釀	-11.5721
隰	-11.5721
携	-11.5723
攙	-11.5724
蔬	-11.5725
幄	-11.5804
球	-11.5811
扁	-11.5811
喫	-11.5813
磁	-11.5815
𠫭	-11.5817
縀	-11.5821
忒	-11.5899
袤	-11.5899
舵	-11.59
冉	-11.59
掄	-11.59
阨	-11.5901
雋	-11.5902
鴈	-11.5902
閽	-11.5902
飼	-11.5904
圜	-11.5907
帽	-11.5907
趾	-11.5979
瑀	-11.5983
䜟	-11.5988
骸	-11.5988
嫺	-11.599
郯	-11.5991
軼	-11.5994
顏	-11.5997
掯	-11.5998
梯	-11.6001
卵	-11.6078
詈	-11.608
喘	-11.608
𤨏	-11.6081
煽	-11.6081
敖	-11.6083
琢	-11.6083
丐	-11.6084
餒	-11.6086
攄	-11.6087
狆	-11.6092
袋	-11.6096
淆	-11.6174
渇	-11.6176
翹	-11.6176
瑜	-11.6176
掇	-11.6176
痰	-11.6177
頺	-11.6178
烹	-11.618
蚩	-11.618
䟦	-11.618
鄖	-11.6186
弦	-11.6263
瘡	-11.6268
袖	-11.6271
葵	-11.6275
慤	-11.6275
峯	-11.6277
倂	-11.6282
彗	-11.6358
顥	-11.6359
塋	-11.6362
橫	-11.6365
愎	-11.6365
閎	-11.6368
仆	-11.6369
涿	-11.6371
瑄	-11.6377
筋	-11.6454
錡	-11.6457
隷	-11.6459
緘	-11.646
婢	-11.6461
贅	-11.6466
煌	-11.6468
曬	-11.647
騁	-11.655
圎	-11.6551
吁	-11.6554
瑶	-11.6554
訾	-11.6555
圩	-11.6555
噫	-11.6557
緑	-11.656
耄	-11.6561
跋	-11.6562
壻	-11.6562
廡	-11.6566
餼	-11.6656
蓬	-11.6657
璟	-11.6659
圮	-11.666
肺	-11.6661
棉	-11.6664
虢	-11.6665
嘴	-11.6668
棐	-11.6752
鎬	-11.6752
賖	-11.6753
庄	-11.6754
遄	-11.6755
虔	-11.6756
忙	-11.6756
俠	-11.6757
搗	-11.6761
滙	-11.6763
棠	-11.6769
旄	-11.6852
瘝	-11.6855
偁	-11.6855
堕	-11.6855
俎	-11.6858
肄	-11.6858
冥	-11.6858
粲	-11.6859
駢	-11.686
卡	-11.686
駙	-11.686
儔	-11.686
缷	-11.6862
稲	-11.6865
犀	-11.6951
柬	-11.6952
樵	-11.6954
蠡	-11.6955
紇	-11.6956
曏	-11.6956
圯	-11.6961
憶	-11.6962
畯	-11.6962
聮	-11.6963
睠	-11.7052
締	-11.7053
綾	-11.7054
纓	-11.7058
郴	-11.7059
涓	-11.706
殉	-11.706
郝	-11.706
鋐	-11.7061
皂	-11.7061
㩁	-11.7156
弑	-11.7157
戇	-11.7158
胎	-11.7161
蹂	-11.7164
芟	-11.7166
婻	-11.7173
砲	-11.7174
蘄	-11.7267
鯤	-11.7267
筮	-11.727
胞	-11.7271
徨	-11.7272
圃	-11.7279
扛	-11.7279
騷	-11.7337
蠕	-11.7349
慨	-11.7358
欄	-11.7366
磧	-11.7369
猪	-11.7369
吟	-11.7372
稚	-11.7374
驥	-11.7375
渰	-11.7376
煮	-11.7376
磬	-11.7389
阮	-11.7393
䓁	-11.7469
槍	-11.7471
艦	-11.7474
荐	-11.7476
椒	-11.7479
璫	-11.7479
澧	-11.748
唆	-11.7481
馱	-11.7483
彀	-11.7486
鏞	-11.7486
膜	-11.7486
溉	-11.7487
灝	-11.7506
躡	-11.7584
籽	-11.7586
袵	-11.7587
竢	-11.7589
悶	-11.7589
秪	-11.7594
餧	-11.7595
垜	-11.7595
攅	-11.7602
稹	-11.7681
拭	-11.7685
蟄	-11.7694
諺	-11.7695
亶	-11.7695
煦	-11.7696
閼	-11.7698
黯	-11.7699
暈	-11.7702
斡	-11.7704
淸	-11.7704
柯	-11.7705
脂	-11.7787
盪	-11.7798
坎	-11.7801
纉	-11.7801
㝢	-11.7802
堙	-11.7804
丸	-11.7806
翳	-11.7806
佈	-11.7807
逡	-11.7808
紆	-11.781
喙	-11.7811
壌	-11.7811
鬯	-11.7899
菽	-11.791
杲	-11.7912
鐫	-11.7913
杞	-11.7914
颶	-11.7915
媮	-11.7917
燥	-11.7918
偵	-11.7918
僨	-11.7918
扳	-11.7921
淄	-11.8019
臭	-11.8024
餙	-11.8028
騖	-11.8028
藎	-11.8029
怵	-11.803
鑼	-11.8031
氊	-11.8034
砥	-11.8034
鈕	-11.8034
靠	-11.8035
煖	-11.8036
饕	-11.8038
戊	-11.8127
貿	-11.8135
㳙	-11.8136
峝	-11.8138
瀋	-11.8138
迥	-11.8139
侑	-11.8139
系	-11.8141
脆	-11.8142
玊	-11.8142
鶻	-11.8142
踴	-11.8143
聶	-11.8144
擕	-11.8151
癸	-11.8234
閃	-11.8249
渴	-11.8253
釣	-11.8255
諠	-11.8255
丑	-11.8256
冤	-11.8257
儌	-11.8258
砦	-11.8261
聫	-11.8264
怕	-11.8267
韻	-11.8268
咽	-11.8364
悌	-11.8368
亹	-11.8369
渚	-11.8369
怖	-11.8374
褐	-11.8374
陬	-11.8374
皁	-11.8379
暘	-11.8379
焜	-11.838
澎	-11.8383
賽	-11.8484
暵	-11.8488
焰	-11.8488
枵	-11.8489
抜	-11.8489
個	-11.849
澹	-11.8491
〇	-11.8491
帮	-11.8492
秖	-11.8492
涖	-11.8495
煉	-11.8495
霆	-11.8496
峴	-11.8501
綑	-11.8502
諜	-11.8579
冢	-11.859
泚	-11.8607
肢	-11.8607
逗	-11.8607
槁	-11.8607
暉	-11.8609
鯨	-11.861
𢷬	-11.8611
厦	-11.8611
莱	-11.8613
迓	-11.8613
鞅	-11.8616
匀	-11.8617
琉	-11.8618
塡	-11.8628
翕	-11.871
髦	-11.8727
盱	-11.8727
酣	-11.8728
甥	-11.873
鎧	-11.8731
倐	-11.8734
朦	-11.8734
翎	-11.8741
斫	-11.8741
藹	-11.8845
汨	-11.8848
脣	-11.8848
燼	-11.8848
菑	-11.8849
寗	-11.885
滂	-11.885
埶	-11.8851
羮	-11.8851
擴	-11.8852
䋲	-11.8853
錐	-11.8854
轎	-11.8855
翫	-11.8855
殽	-11.8857
遘	-11.8857
哩	-11.8867
悛	-11.8884
鉉	-11.8966
郤	-11.897
黻	-11.8971
逖	-11.8974
眇	-11.8976
恍	-11.8977
躭	-11.8978
麓	-11.8979
倩	-11.8982
龐	-11.8982
埀	-11.8982
蹷	-11.8983
窠	-11.8983
憒	-11.8984
拳	-11.8985
濳	-11.9099
甿	-11.9099
閥	-11.9099
驤	-11.91
獞	-11.9102
薫	-11.9103
腦	-11.9103
閙	-11.9105
脇	-11.9105
蛟	-11.9105
洒	-11.9105
昬	-11.9106
寰	-11.9216
弹	-11.922
歙	-11.9221
臾	-11.9222
賕	-11.9223
皥	-11.9225
潯	-11.9226
孱	-11.9227
虺	-11.9227
犢	-11.9228
甎	-11.9228
総	-11.923
鼻	-11.9231
鑚	-11.9232
岔	-11.9232
碣	-11.9237
穂	-11.9238
逈	-11.924
謾	-11.9351
婿	-11.9351
廳	-11.9351
謩	-11.9352
櫓	-11.9354
壺	-11.9354
撼	-11.9354
鑠	-11.9355
菴	-11.9355
婺	-11.9355
航	-11.9356
𤦺	-11.9357
煜	-11.9358
杰	-11.9358
駟	-11.9358
耐	-11.9361
撈	-11.9361
紐	-11.9362
珤	-11.9362
嵐	-11.9473
粢	-11.9478
棣	-11.9479
頸	-11.9479
袴	-11.9479
酤	-11.9479
椎	-11.9482
澍	-11.9484
扺	-11.9484
刈	-11.9485
懌	-11.9485
㝡	-11.9486
无	-11.9487
瑪	-11.9488
駸	-11.9489
狭	-11.9489
㪷	-11.949
倶	-11.9491
麽	-11.9498
昱	-11.9607
揔	-11.9607
摶	-11.9608
𦕈	-11.961
娯	-11.9612
叱	-11.9614
縉	-11.9616
冡	-11.9616
聾	-11.9616
鴟	-11.9617
巽	-11.9618
豊	-11.9618
旻	-11.9618
紗	-11.9618
竿	-11.9619
㓙	-11.962
訶	-11.962
烙	-11.9621
晩	-11.9622
暹	-11.9622
琴	-11.9623
圻	-11.9626
縊	-11.9629
璪	-11.9739
狁	-11.974
嗸	-11.9741
嚬	-11.9743
掉	-11.9747
柩	-11.9747
鄴	-11.9749
輜	-11.975
痼	-11.975
輛	-11.9751
茨	-11.9752
踊	-11.9752
靦	-11.9753
仿	-11.9754
央	-11.9756
孑	-11.9757
尖	-11.9761
㓕	-11.9878
墀	-11.9881
燄	-11.9883
滷	-11.9884
漬	-11.9884
囉	-11.9885
皓	-11.9885
撮	-11.9886
璠	-11.9889
垢	-11.9889
粘	-11.9892
裡	-11.9896
悳	-12.0011
壬	-12.0011
觴	-12.0016
呵	-12.0018
仄	-12.0021
璨	-12.0021
斁	-12.0022
莖	-12.0023
碭	-12.0024
獷	-12.0024
鏹	-12.0024
瓌	-12.0025
馥	-12.0025
糞	-12.0027
彜	-12.0027
帙	-12.0027
吊	-12.003
淋	-12.0031
忭	-12.0031
玘	-12.0035
勣	-12.0162
适	-12.0162
翅	-12.0163
勷	-12.0164
詖	-12.0165
纍	-12.0173
殤	-12.0277
衘	-12.0293
娛	-12.0295
蓮	-12.0296
纖	-12.0296
諴	-12.0299
鄜	-12.0299
筏	-12.0299
縫	-12.03
琇	-12.0301
瑩	-12.0302
暌	-12.0302
琅	-12.0302
啗	-12.0303
刄	-12.0304
惹	-12.0304
貊	-12.0304
沭	-12.0305
呐	-12.0307
伶	-12.0316
兎	-12.0316
侃	-12.0321
瀾	-12.0412
璣	-12.0422
叄	-12.0425
陲	-12.0429
穡	-12.0443
齟	-12.0443
棊	-12.0444
畱	-12.0446
蟠	-12.0447
襁	-12.0448
陀	-12.0451
塾	-12.0452
拽	-12.0455
儧	-12.0456
瞑	-12.0579
佯	-12.0583
煒	-12.0584
鬧	-12.0585
鏜	-12.0587
厝	-12.0588
寥	-12.0588
甕	-12.0589
悵	-12.0589
淞	-12.059
蹊	-12.0591
詘	-12.0591
滬	-12.0592
杪	-12.0595
褫	-12.0596
嫻	-12.0596
勳	-12.0597
禺	-12.0597
柘	-12.0598
鷄	-12.0598
褚	-12.0598
􁀒	-12.0598
焯	-12.0599
杉	-12.0613
郁	-12.0728
謳	-12.0732
陌	-12.0733
劃	-12.0734
欒	-12.0734
鄯	-12.0734
簒	-12.0734
穽	-12.0736
緋	-12.0739
殍	-12.074
戅	-12.074
赧	-12.0741
罸	-12.0741
䂓	-12.0742
嘏	-12.0742
瓶	-12.0743
縂	-12.0743
芽	-12.075
螟	-12.0878
摠	-12.0879
爻	-12.0879
関	-12.0879
譙	-12.088
袐	-12.0882
劔	-12.0883
鎔	-12.0884
戩	-12.0884
躔	-12.0885
盎	-12.0885
訃	-12.0887
蒋	-12.0888
换	-12.0888
犄	-12.0888
跳	-12.0889
嚳	-12.0889
廨	-12.089
籙	-12.089
鷙	-12.0894
羔	-12.0895
駱	-12.09
柰	-12.1006
昃	-12.1013
謇	-12.1031
􁈄	-12.1036
鍊	-12.1036
壼	-12.1036
霪	-12.1036
稳	-12.1039
遹	-12.104
屡	-12.1041
宁	-12.1042
莠	-12.1044
牝	-12.1044
鹹	-12.1044
旴	-12.1046
耨	-12.1047
麵	-12.1048
鬆	-12.1051
碌	-12.119
湔	-12.119
賃	-12.1191
勺	-12.1193
冺	-12.1193
找	-12.1194
匾	-12.1196
捃	-12.1198
滲	-12.12
遶	-12.1201
埸	-12.1201
檜	-12.1203
樑	-12.1205
宂	-12.1205
楹	-12.1337
駈	-12.134
栅	-12.134
伽	-12.1342
羗	-12.1342
牾	-12.1343
禫	-12.1344
邯	-12.1345
瀦	-12.1346
韙	-12.1347
卭	-12.1347
逕	-12.1347
桅	-12.1348
蒔	-12.1348
蹔	-12.1348
稜	-12.1351
糗	-12.1355
檔	-12.1357
肖	-12.1424
恙	-12.1467
皷	-12.1491
垍	-12.1496
豢	-12.15
夬	-12.15
匭	-12.1502
詮	-12.1503
彂	-12.1503
淛	-12.1505
愉	-12.1506
燠	-12.1508
慊	-12.1508
硬	-12.1508
衒	-12.1509
纛	-12.151
酸	-12.1512
磽	-12.1513
椽	-12.1514
熬	-12.1515
巍	-12.1516
埧	-12.1519
腿	-12.1521
禰	-12.1655
闋	-12.1659
翌	-12.1659
犧	-12.166
邃	-12.1661
撝	-12.1661
悴	-12.1662
爕	-12.1663
穩	-12.1665
挹	-12.1665
籩	-12.1665
軋	-12.1666
樽	-12.1666
亰	-12.1667
醮	-12.1667
豚	-12.1668
懵	-12.1669
蹉	-12.167
猫	-12.1673
疉	-12.1674
彥	-12.1674
荔	-12.1675
倨	-12.1676
鈴	-12.1676
粳	-12.1684
壠	-12.1825
闚	-12.1825
浴	-12.1827
狙	-12.1828
齪	-12.1828
讙	-12.1828
攪	-12.1829
跂	-12.1829
詡	-12.183
彷	-12.183
阽	-12.183
氐	-12.1831
觖	-12.1831
賙	-12.1832
溷	-12.1835
鋸	-12.1836
捶	-12.1837
澁	-12.1837
糊	-12.1838
矮	-12.1838
拷	-12.1839
顚	-12.1839
叭	-12.1848
夯	-12.1851
複	-12.1972
俻	-12.1988
榭	-12.1989
甌	-12.1991
埃	-12.1993
箝	-12.1993
莒	-12.1995
𨼆	-12.1996
煑	-12.1996
嫚	-12.1997
賡	-12.1998
懟	-12.1998
梢	-12.1998
縳	-12.1999
縑	-12.1999
鬰	-12.1999
穎	-12.2
圈	-12.2
蠟	-12.2001
歐	-12.2002
麒	-12.2002
妬	-12.2004
擦	-12.2005
崗	-12.2005
懶	-12.2005
珏	-12.2007
歹	-12.2008
碧	-12.2011
擐	-12.2163
匃	-12.2164
頲	-12.2164
厫	-12.2164
鄱	-12.2166
曵	-12.2166
徤	-12.2169
陥	-12.217
犁	-12.217
胙	-12.217
䦨	-12.217
擱	-12.2171
扯	-12.2171
撑	-12.2172
溯	-12.2172
痕	-12.2173
櫬	-12.2174
罣	-12.2176
吠	-12.2177
廑	-12.2177
縈	-12.2178
揷	-12.2179
盆	-12.2182
爺	-12.2184
寀	-12.2328
臬	-12.2331
蓍	-12.2332
墉	-12.2333
郅	-12.2333
祅	-12.2334
獎	-12.2335
檻	-12.2335
馘	-12.2336
僑	-12.2338
篋	-12.2338
苞	-12.2339
旂	-12.2339
藤	-12.2341
餅	-12.2342
婆	-12.2342
帆	-12.2342
曺	-12.2342
瓉	-12.2344
釗	-12.2344
簮	-12.2344
嫂	-12.2345
棹	-12.2346
啖	-12.2346
諏	-12.2347
夹	-12.235
汧	-12.251
党	-12.2512
纊	-12.2513
幻	-12.2513
䧺	-12.2513
滴	-12.2513
㐲	-12.2514
衽	-12.2514
籬	-12.2514
笏	-12.2515
懔	-12.2515
瑟	-12.2515
菁	-12.2517
蕎	-12.2517
斵	-12.2517
鵝	-12.2518
㬰	-12.2519
牀	-12.2519
㐫	-12.2519
麄	-12.2521
瀉	-12.2521
芬	-12.2522
恡	-12.2523
琥	-12.2527
孩	-12.2529
崛	-12.2681
緇	-12.2688
蘖	-12.2689
窶	-12.2689
蕞	-12.2691
嶼	-12.2693
縲	-12.2693
衾	-12.2693
筸	-12.2693
昶	-12.2693
杼	-12.2694
挂	-12.2694
熄	-12.2695
眙	-12.2695
翺	-12.2696
徕	-12.2696
俚	-12.2698
顗	-12.2698
綈	-12.2698
縶	-12.2698
誹	-12.27
攫	-12.2701
􁧛	-12.2701
妓	-12.2703
曖	-12.2705
珣	-12.2705
鎛	-12.2718
僵	-12.2865
榻	-12.2869
矛	-12.2869
戬	-12.2869
濃	-12.2869
漿	-12.2871
覦	-12.2872
肘	-12.2872
揜	-12.2873
藿	-12.2874
糺	-12.2875
泮	-12.2876
駛	-12.2876
溼	-12.2876
刹	-12.2877
沱	-12.2878
謭	-12.2879
霞	-12.2879
辠	-12.288
􁂒	-12.288
瞬	-12.288
拴	-12.2881
躪	-12.2882
桌	-12.2884
針	-12.2885
唇	-12.2889
哄	-12.2889
鰲	-12.2891
棒	-12.2892
袂	-12.305
儂	-12.3051
怏	-12.3052
昴	-12.3053
冑	-12.3054
敺	-12.3058
沓	-12.3059
彘	-12.306
嶷	-12.306
庖	-12.306
跼	-12.306
娱	-12.3061
􁏠	-12.3066
儷	-12.3068
燃	-12.307
覯	-12.3074
酗	-12.3075
徬	-12.3075
桶	-12.3081
懃	-12.3235
叡	-12.3242
舋	-12.3243
琬	-12.3243
檀	-12.3244
蔀	-12.3246
簷	-12.3247
鶉	-12.3247
愾	-12.3248
緦	-12.3248
孜	-12.3248
暱	-12.3249
炯	-12.325
苾	-12.325
刨	-12.3251
鄲	-12.3252
㩀	-12.3252
塟	-12.3252
診	-12.3253
饜	-12.3253
彤	-12.3253
滸	-12.3254
鹻	-12.3254
坻	-12.3255
扑	-12.3255
糟	-12.3256
瞿	-12.3257
畚	-12.326
捲	-12.3261
葭	-12.3261
籖	-12.3264
炒	-12.3271
鍵	-12.3435
罅	-12.3439
騫	-12.3441
幡	-12.3444
杯	-12.3445
酈	-12.3445
鯉	-12.3445
憝	-12.3446
斐	-12.3446
曼	-12.3446
杵	-12.3448
兠	-12.3451
扒	-12.3463
罝	-12.3629
很	-12.3632
嚷	-12.3633
詒	-12.3634
飜	-12.3634
劬	-12.3634
詁	-12.3636
躇	-12.3637
滾	-12.3638
抉	-12.3638
犂	-12.3638
墅	-12.3639
症	-12.364
擘	-12.3641
魅	-12.3642
舗	-12.3643
叠	-12.3643
匐	-12.3644
偪	-12.3645
祺	-12.3645
筐	-12.3645
篷	-12.3647
洺	-12.3648
誆	-12.3666
蜡	-12.3814
舡	-12.3823
孛	-12.3829
馨	-12.3829
璀	-12.383
妒	-12.3831
澣	-12.3832
癰	-12.3834
浥	-12.3835
蠭	-12.3836
榷	-12.3836
隲	-12.3836
沼	-12.3836
楨	-12.3837
柟	-12.3837
酺	-12.3837
皎	-12.3838
唾	-12.3839
檝	-12.384
摹	-12.3841
佾	-12.3842
朶	-12.3842
惋	-12.3842
犴	-12.3842
鑽	-12.3843
涌	-12.3844
琯	-12.3845
顙	-12.3845
綁	-12.3845
㓗	-12.3846
譖	-12.3847
匍	-12.3847
单	-12.3854
嘯	-12.4032
紱	-12.4034
姊	-12.4034
圏	-12.4036
隗	-12.4038
麤	-12.4039
姒	-12.4039
跬	-12.4039
床	-12.4039
湎	-12.4041
閆	-12.4041
疽	-12.4041
淬	-12.4042
撘	-12.4043
霾	-12.4044
㩦	-12.4044
煕	-12.4044
忖	-12.4045
敉	-12.4046
喂	-12.4047
叉	-12.4048
鼈	-12.4048
瑊	-12.4055
脊	-12.4057
膂	-12.4229
嶮	-12.4244
蚊	-12.4244
聪	-12.4245
贇	-12.4246
惲	-12.4246
牴	-12.4248
廝	-12.4248
龠	-12.425
珙	-12.425
讋	-12.425
褥	-12.425
犇	-12.4251
攴	-12.4251
祛	-12.4253
雒	-12.4255
儁	-12.4255
鉄	-12.4256
亙	-12.4257
詬	-12.4257
敲	-12.4259
鍤	-12.426
蟒	-12.4264
凃	-12.4265
璜	-12.4266
枋	-12.4279
搢	-12.4449
䞇	-12.445
愠	-12.4451
喁	-12.4453
璞	-12.4454
耒	-12.4455
悸	-12.4455
釡	-12.4457
炙	-12.4458
箋	-12.4458
踣	-12.4459
騶	-12.446
喝	-12.4462
臥	-12.4463
垓	-12.4463
榛	-12.4464
兜	-12.4464
緜	-12.4465
慴	-12.4465
舂	-12.4465
攢	-12.4465
眊	-12.4466
峰	-12.4466
悽	-12.4467
爨	-12.4467
楫	-12.4467
鴨	-12.4468
抹	-12.4469
鄢	-12.4469
頹	-12.4471
糈	-12.4473
頊	-12.4473
㡌	-12.4476
娼	-12.4478
泇	-12.4482
偓	-12.4669
体	-12.4672
惨	-12.4673
訣	-12.4674
獠	-12.4674
蟊	-12.4676
鑛	-12.4678
濩	-12.4679
繭	-12.4679
橐	-12.4679
轢	-12.4681
醖	-12.4682
㸑	-12.4683
撾	-12.4683
紕	-12.4685
靑	-12.4686
㟁	-12.4686
肓	-12.4688
肫	-12.4688
蒿	-12.4689
卨	-12.469
睡	-12.4691
汕	-12.4692
璿	-12.4692
哇	-12.4694
緞	-12.4695
蔟	-12.4699
藺	-12.4893
狷	-12.4894
惸	-12.4896
鬚	-12.4897
佗	-12.4898
愊	-12.4898
驪	-12.4899
疴	-12.4899
浼	-12.49
釜	-12.49
雁	-12.49
趍	-12.49
柝	-12.4901
榦	-12.4903
净	-12.4903
瞰	-12.4903
熏	-12.4904
揉	-12.4904
杳	-12.4904
峭	-12.4904
査	-12.4905
𨗳	-12.4905
汊	-12.4906
鞋	-12.4906
澱	-12.4907
淘	-12.4908
㢮	-12.4913
拐	-12.4914
簫	-12.4915
鍔	-12.4916
窯	-12.4922
珎	-12.512
删	-12.512
諶	-12.512
龕	-12.5121
据	-12.5122
坂	-12.5123
昀	-12.5125
幃	-12.5126
桷	-12.5126
髴	-12.5128
紿	-12.5128
剌	-12.5128
炊	-12.5128
孶	-12.5128
敶	-12.5129
戛	-12.513
淇	-12.513
鉤	-12.513
蕚	-12.5131
冇	-12.5132
鴉	-12.5132
鵲	-12.5132
型	-12.5132
尫	-12.5133
曆	-12.5133
莩	-12.5134
梏	-12.5136
餗	-12.5136
鑕	-12.5137
戧	-12.514
畸	-12.5141
渣	-12.5141
呻	-12.5143
廁	-12.5143
匆	-12.5145
硫	-12.5162
曙	-12.5352
曁	-12.5357
輻	-12.5357
𣺌	-12.5358
絮	-12.5358
牡	-12.5359
惬	-12.5359
怛	-12.536
怍	-12.536
刮	-12.536
桞	-12.536
柢	-12.5361
扄	-12.5361
斾	-12.5361
酢	-12.5362
螽	-12.5363
蒭	-12.5363
祼	-12.5364
澟	-12.5364
㦲	-12.5364
雎	-12.5365
袞	-12.5366
盭	-12.5367
屛	-12.5368
訝	-12.5368
㺜	-12.5369
絨	-12.5369
匝	-12.537
盔	-12.537
硤	-12.5372
戥	-12.5372
癃	-12.5373
恟	-12.5375
夣	-12.5585
僦	-12.5588
璲	-12.559
匄	-12.5591
噲	-12.5592
僮	-12.5592
倔	-12.5593
箔	-12.5593
訏	-12.5594
昕	-12.5594
竽	-12.5594
礫	-12.5595
宷	-12.5596
媛	-12.5596
鍜	-12.5596
喑	-12.5596
俳	-12.5596
髣	-12.5597
獬	-12.5598
腴	-12.5599
勔	-12.5599
汐	-12.5599
苫	-12.5599
尔	-12.56
埂	-12.56
芑	-12.5603
唘	-12.5603
癉	-12.5605
碁	-12.5606
峩	-12.5607
䆳	-12.5607
蔭	-12.5609
暄	-12.561
庵	-12.5618
糯	-12.562
祓	-12.5824
弧	-12.5826
栖	-12.5831
繚	-12.5836
泝	-12.5839
蹐	-12.5841
樗	-12.5841
邐	-12.5842
刖	-12.5842
愴	-12.5843
熖	-12.5843
怱	-12.5844
窖	-12.5845
貔	-12.5845
芮	-12.5845
驃	-12.5846
狴	-12.5846
晤	-12.5846
笙	-12.5846
攣	-12.5848
瘋	-12.5852
璃	-12.5853
靴	-12.5854
籥	-12.5855
濓	-12.5856
贜	-12.5856
搪	-12.5856
茭	-12.5856
叫	-12.5857
閟	-12.5859
吧	-12.5865
睽	-12.6083
𬗟	-12.6084
莾	-12.6087
溧	-12.6088
旃	-12.609
嗚	-12.609
嶠	-12.609
啼	-12.6091
獍	-12.6091
豺	-12.6092
蠆	-12.6092
殂	-12.6093
戽	-12.6093
惚	-12.6093
糠	-12.6094
澂	-12.6094
盂	-12.6094
抝	-12.6096
瀰	-12.6096
㞐	-12.6096
筞	-12.6097
耑	-12.6099
嬴	-12.6099
昪	-12.61
棻	-12.6101
宕	-12.6101
筒	-12.6102
搴	-12.6103
屹	-12.6104
咒	-12.6105
溘	-12.6105
譜	-12.6106
銑	-12.6107
丢	-12.611
繙	-12.6117
羿	-12.6334
莆	-12.6342
簇	-12.6345
詾	-12.6345
鈺	-12.6346
翥	-12.6346
蕘	-12.6348
蕙	-12.6348
鏃	-12.6348
兀	-12.6349
堠	-12.6349
髠	-12.6349
醢	-12.6349
噎	-12.635
匯	-12.635
蓺	-12.635
瞎	-12.635
畤	-12.6351
拗	-12.6351
鵠	-12.6351
夐	-12.6351
磊	-12.6352
暦	-12.6352
遅	-12.6352
漣	-12.6353
紈	-12.6356
么	-12.6356
涪	-12.6356
縴	-12.6356
譟	-12.6356
眦	-12.6356
跖	-12.6356
闌	-12.6356
彧	-12.6357
掏	-12.6357
腊	-12.6358
劓	-12.6358
𤾉	-12.6359
赶	-12.6361
匏	-12.6363
瘼	-12.6564
綦	-12.6599
鼂	-12.6603
閬	-12.6605
伙	-12.6605
毬	-12.6607
䌓	-12.6608
狸	-12.6608
摽	-12.6609
冄	-12.6609
玄	-12.661
儈	-12.6611
鉷	-12.6611
􁌆	-12.6611
𦍑	-12.6612
陘	-12.6612
徯	-12.6613
梃	-12.6613
脾	-12.6614
攽	-12.6614
湜	-12.6615
淦	-12.6615
姨	-12.6615
鯢	-12.6615
皋	-12.6616
閧	-12.6616
螂	-12.6616
殲	-12.6617
蜚	-12.6617
獅	-12.6618
徠	-12.6618
鹺	-12.6619
擎	-12.662
遡	-12.662
澠	-12.662
剡	-12.6621
硐	-12.6621
溱	-12.6622
礟	-12.6623
濘	-12.6623
莞	-12.6623
蕕	-12.6624
𥙿	-12.6628
豌	-12.6629
嘖	-12.6629
嘱	-12.6632
秬	-12.6862
嘻	-12.6873
疢	-12.6873
櫜	-12.6874
屉	-12.6877
匕	-12.6878
蠹	-12.6879
彿	-12.688
惴	-12.6881
麋	-12.6882
􁁏	-12.6883
儕	-12.6883
楞	-12.6883
雌	-12.6884
巵	-12.6885
嬙	-12.6886
莘	-12.6887
𢡟	-12.6887
蠅	-12.6888
厠	-12.6889
壝	-12.689
睚	-12.689
迸	-12.6891
啜	-12.6891
噍	-12.6891
桎	-12.6893
泳	-12.6893
蓰	-12.6895
紋	-12.6896
䍐	-12.6904
岢	-12.7143
瑯	-12.7145
篡	-12.7146
廏	-12.7152
硯	-12.7152
珊	-12.7154
踧	-12.7155
曄	-12.7155
默	-12.7156
悒	-12.7158
奐	-12.7159
吻	-12.7161
羆	-12.7161
厓	-12.7161
芹	-12.7162
禕	-12.7162
竪	-12.7163
詛	-12.7164
咏	-12.7165
軏	-12.7165
蔕	-12.7166
䜿	-12.7166
嗔	-12.7166
烱	-12.7167
禔	-12.7168
袪	-12.7168
俑	-12.7168
諦	-12.717
譊	-12.717
眠	-12.717
剉	-12.7171
异	-12.7172
蜮	-12.7173
壙	-12.7173
苻	-12.7175
栻	-12.7179
盞	-12.718
撙	-12.7413
騏	-12.7438
僊	-12.7442
惮	-12.7443
殮	-12.7443
躅	-12.7444
櫟	-12.7445
劭	-12.7446
豸	-12.7447
扉	-12.7448
恰	-12.7449
藜	-12.7449
畹	-12.745
絰	-12.745
儇	-12.7451
薇	-12.7451
淖	-12.7451
螺	-12.7451
綘	-12.7451
禇	-12.7452
綫	-12.7452
噤	-12.7452
鬨	-12.7454
濰	-12.7455
阡	-12.7455
芃	-12.7455
琠	-12.7456
珩	-12.7458
𣪚	-12.7458
悻	-12.7459
瘐	-12.746
楩	-12.7461
蓆	-12.7463
唃	-12.7727
絢	-12.7732
瓠	-12.7735
鶚	-12.7736
褎	-12.7736
墯	-12.7737
柒	-12.7737
緍	-12.7737
􁐍	-12.7737
盼	-12.7738
簋	-12.774
礱	-12.774
菩	-12.774
澈	-12.774
夤	-12.7741
阼	-12.7741
愒	-12.7741
廛	-12.7742
豳	-12.7742
渺	-12.7742
淝	-12.7744
㷀	-12.7744
棧	-12.7745
辤	-12.7745
熒	-12.7746
婣	-12.7746
瑚	-12.7746
堘	-12.7746
亾	-12.775
稂	-12.7751
糙	-12.7752
恁	-12.7752
飫	-12.7753
潑	-12.7756
媾	-12.7758
葑	-12.7759
硪	-12.7767
鞘	-12.8034
濼	-12.8035
翀	-12.8036
曦	-12.8037
晡	-12.8038
塢	-12.8038
槃	-12.8039
吃	-12.804
僇	-12.804
隧	-12.804
嶧	-12.8041
冏	-12.8042
衫	-12.8043
孕	-12.8043
鬪	-12.8044
珮	-12.8046
篚	-12.8046
虖	-12.8047
嚢	-12.8047
勰	-12.8049
扮	-12.8052
纜	-12.8053
峨	-12.8054
翬	-12.8054
廽	-12.8055
絜	-12.8056
癡	-12.8056
鸚	-12.8057
簸	-12.8061
瀠	-12.8062
啻	-12.8286
棼	-12.8339
髀	-12.8348
耋	-12.8348
劘	-12.8351
櫛	-12.8352
玆	-12.8352
膈	-12.8353
矍	-12.8353
恫	-12.8354
擂	-12.8354
闐	-12.8354
罟	-12.8355
鳬	-12.8355
盥	-12.8355
漓	-12.8355
籓	-12.8355
婭	-12.8356
暐	-12.8357
舄	-12.8357
窰	-12.8358
賻	-12.8358
戱	-12.8358
訌	-12.8358
叮	-12.8359
迕	-12.8359
驁	-12.8359
敭	-12.8359
簧	-12.836
粃	-12.836
巒	-12.8361
液	-12.8361
蝟	-12.8361
衊	-12.8362
剃	-12.8362
嗤	-12.8366
謠	-12.8366
嫓	-12.8368
鏻	-12.8368
煤	-12.8368
硜	-12.8369
愓	-12.8369
个	-12.8373
纁	-12.8386
猖	-12.8654
悰	-12.8664
搦	-12.8665
裾	-12.8674
崧	-12.8675
澮	-12.8676
胼	-12.8677
軺	-12.8677
沗	-12.8677
麴	-12.8678
沍	-12.8678
伉	-12.8679
攖	-12.8679
淀	-12.8679
慌	-12.8679
胝	-12.8679
咱	-12.8681
吸	-12.8683
鎡	-12.8683
嫗	-12.8686
稗	-12.8686
疼	-12.8686
縗	-12.8688
猗	-12.8688
礬	-12.8689
墠	-12.869
槨	-12.8691
腫	-12.8691
悪	-12.8693
呢	-12.8704
箸	-12.8997
扃	-12.9004
塜	-12.9004
鏐	-12.9004
爍	-12.9005
堞	-12.9008
屨	-12.9008
搔	-12.9008
閠	-12.9009
嚚	-12.9009
琨	-12.9009
禠	-12.9009
貰	-12.901
髄	-12.9011
餞	-12.9012
杕	-12.9012
汜	-12.9012
癢	-12.9014
珂	-12.9014
穉	-12.9015
郄	-12.9016
慱	-12.9016
梨	-12.9016
鸇	-12.9016
燿	-12.9016
晃	-12.9016
𤯝	-12.9017
摰	-12.9017
辧	-12.9018
鴆	-12.9019
塏	-12.9019
楧	-12.9021
鉏	-12.9022
戳	-12.9024
糲	-12.903
柑	-12.9031
疹	-12.9341
笥	-12.9343
尭	-12.9348
臟	-12.935
閡	-12.9351
舁	-12.9351
鍛	-12.9352
峡	-12.9352
訩	-12.9352
炫	-12.9353
饉	-12.9353
菓	-12.9354
鈵	-12.9354
仞	-12.9354
耰	-12.9355
伋	-12.9355
繄	-12.9355
􁌫	-12.9355
艮	-12.9355
菅	-12.9356
孥	-12.9357
刓	-12.9357
㺯	-12.9358
愞	-12.9358
楯	-12.936
牣	-12.936
芘	-12.9361
蛙	-12.9361
跣	-12.9362
篙	-12.9364
䟎	-12.9366
蔴	-12.9366
匙	-12.9366
盃	-12.9367
褻	-12.9367
琚	-12.9368
惷	-12.9369
娘	-12.937
雱	-12.937
簪	-12.937
璁	-12.9374
襖	-12.938
熲	-12.9695
獫	-12.9702
穜	-12.9704
橅	-12.9707
㕓	-12.9707
􁌰	-12.9708
捴	-12.9709
酧	-12.9709
媪	-12.971
坰	-12.971
欎	-12.9711
遝	-12.9712
鵰	-12.9713
呑	-12.9713
趋	-12.9713
堽	-12.9713
桉	-12.9714
頰	-12.9714
盒	-12.9714
萍	-12.9714
㕑	-12.9714
胃	-12.9714
萼	-12.9716
訢	-12.9717
涎	-12.9718
斑	-12.9718
脗	-12.9718
艫	-12.9719
曝	-12.972
蹄	-12.972
嚀	-12.9721
姆	-12.9721
闖	-12.9721
棋	-12.9722
噪	-12.9724
嚕	-12.9725
殚	-12.9725
糖	-12.9726
猊	-12.9727
瀏	-12.9728
縟	-12.9729
瞶	-12.9729
蘷	-12.9732
鼗	-12.9733
瘸	-12.9733
焕	-12.9734
騸	-12.9742
焞	-13.006
絪	-13.0066
乹	-13.007
粧	-13.0075
爱	-13.0076
毉	-13.0076
鄔	-13.0078
頷	-13.0079
倜	-13.0079
輭	-13.0079
挿	-13.008
堦	-13.008
矚	-13.0081
靄	-13.0082
佻	-13.0082
軻	-13.0083
瞍	-13.0083
綠	-13.0083
媟	-13.0084
絺	-13.0084
浃	-13.0085
璵	-13.0085
椗	-13.0085
萎	-13.0086
玟	-13.0087
茗	-13.0087
欹	-13.0087
儋	-13.0087
漑	-13.0088
寞	-13.0088
齧	-13.0089
諲	-13.009
塑	-13.009
犖	-13.009
睫	-13.0091
譔	-13.0092
恝	-13.0092
祸	-13.0094
尢	-13.0094
跛	-13.0095
鄊	-13.0095
惪	-13.0095
賬	-13.0095
緻	-13.0096
义	-13.0096
眎	-13.0097
扭	-13.0098
甯	-13.0104
煓	-13.0105
桴	-13.0451
彍	-13.0458
巇	-13.0459
黈	-13.046
袱	-13.0464
挻	-13.0464
醪	-13.0465
髫	-13.0465
騃	-13.0465
毖	-13.0466
嗾	-13.0466
鼇	-13.0466
汹	-13.0468
檟	-13.0469
柅	-13.0469
﨑	-13.0469
顕	-13.047
砭	-13.0471
礿	-13.0471
艍	-13.0472
壟	-13.0472
飱	-13.0473
婪	-13.0474
綯	-13.0474
媢	-13.0475
开	-13.0476
媳	-13.0476
詫	-13.0478
塍	-13.0478
鏊	-13.0479
耦	-13.0479
妍	-13.048
埭	-13.048
酆	-13.0481
咐	-13.0482
璥	-13.0492
秫	-13.0493
囷	-13.0855
骼	-13.0855
彎	-13.0857
荼	-13.0858
馹	-13.0859
腑	-13.086
窳	-13.086
楓	-13.0861
杆	-13.0861
邾	-13.0862
羇	-13.0862
暁	-13.0863
惏	-13.0864
怫	-13.0865
凂	-13.0865
媵	-13.0865
饔	-13.0866
簞	-13.0867
幟	-13.0867
恧	-13.0867
剸	-13.0867
逍	-13.0867
郃	-13.0867
侫	-13.0868
磔	-13.0868
脛	-13.0869
枹	-13.0869
賾	-13.0869
羯	-13.0869
滓	-13.087
殪	-13.087
晒	-13.0871
盻	-13.0871
縞	-13.0872
綍	-13.0872
拍	-13.0873
麯	-13.0873
戞	-13.0873
氈	-13.0874
饍	-13.0874
勩	-13.0875
醲	-13.0875
䄂	-13.0877
筯	-13.0877
嵎	-13.0878
聡	-13.0878
㵼	-13.0879
簍	-13.088
珥	-13.0881
坵	-13.0881
埓	-13.0882
捱	-13.0882
鏖	-13.0882
蘋	-13.0883
糵	-13.0883
蝦	-13.0883
摸	-13.0883
肚	-13.0885
埔	-13.0889
涂	-13.0906
刎	-13.1267
縠	-13.127
裵	-13.1271
椅	-13.1272
蟬	-13.1273
捽	-13.1273
欷	-13.1275
憧	-13.1276
埕	-13.1276
搉	-13.1276
罩	-13.1278
謔	-13.1279
椘	-13.1279
悄	-13.1279
鍼	-13.1282
舳	-13.1282
檣	-13.1284
珦	-13.1284
摛	-13.1286
彖	-13.1286
褂	-13.1288
歪	-13.1289
䑃	-13.1289
坼	-13.129
蘊	-13.1291
􁇠	-13.1292
玀	-13.1292
駞	-13.1292
磋	-13.1292
煨	-13.1292
倏	-13.1292
䰟	-13.1293
杌	-13.1294
呶	-13.1294
榔	-13.1295
灤	-13.1295
虵	-13.1295
腥	-13.1295
躓	-13.1296
晾	-13.1296
呪	-13.1296
畒	-13.1296
澀	-13.1297
銹	-13.1299
臍	-13.1299
滉	-13.13
鍬	-13.13
汁	-13.1305
竜	-13.1305
䨇	-13.1306
唬	-13.1311
盲	-13.1694
毳	-13.1705
淶	-13.1709
窻	-13.1709
倀	-13.1709
紼	-13.1711
屣	-13.1713
荏	-13.1713
嘔	-13.1716
筴	-13.1717
讚	-13.1717
溆	-13.1717
痍	-13.1718
犍	-13.1718
勗	-13.1718
侂	-13.1719
恚	-13.1719
赭	-13.172
塤	-13.172
瀍	-13.172
螫	-13.172
煬	-13.1721
虫	-13.1721
刳	-13.1721
紡	-13.1721
盩	-13.1722
獮	-13.1722
檐	-13.1723
豋	-13.1723
徔	-13.1724
衺	-13.1724
甃	-13.1724
殣	-13.1724
槪	-13.1724
皦	-13.1725
澨	-13.1725
洧	-13.1727
匈	-13.1729
箒	-13.1729
珉	-13.1731
磯	-13.1731
痾	-13.1731
剜	-13.1732
摉	-13.1733
蜜	-13.1733
哮	-13.1734
咆	-13.1736
晫	-13.1736
弇	-13.1737
􁐠	-13.1742
罍	-13.1749
溟	-13.2156
𬞞	-13.2158
慼	-13.2159
柁	-13.2163
遨	-13.2165
啄	-13.2165
虀	-13.2165
郜	-13.2166
綉	-13.2166
鬴	-13.2166
歧	-13.2166
筑	-13.2168
擣	-13.2168
􁝠	-13.217
厎	-13.2171
佖	-13.2172
鬲	-13.2173
㗖	-13.2173
抨	-13.2173
舩	-13.2175
𫉬	-13.2177
闒	-13.2177
啞	-13.2177
佘	-13.2178
缾	-13.2178
咲	-13.2178
讃	-13.2179
竺	-13.2179
痿	-13.218
𠻳	-13.218
刊	-13.218
搤	-13.2181
晳	-13.2181
珽	-13.2181
儗	-13.2181
鷺	-13.2182
鷂	-13.2182
玫	-13.2182
聒	-13.2183
繅	-13.2183
簣	-13.2183
畛	-13.2184
堲	-13.2186
軄	-13.2186
朓	-13.2187
觜	-13.2187
蘧	-13.2188
豔	-13.2188
莪	-13.2188
皖	-13.2189
嶴	-13.2189
􁀲	-13.219
驂	-13.219
餮	-13.2192
祟	-13.2192
橛	-13.2194
蹬	-13.2194
隃	-13.2197
傀	-13.2197
掞	-13.2201
怎	-13.2211
仝	-13.2225
堊	-13.2623
鉦	-13.2633
螭	-13.2636
鑊	-13.2636
讁	-13.2637
晻	-13.2637
煇	-13.2641
嵬	-13.2643
槀	-13.2644
担	-13.2645
菊	-13.2645
疃	-13.2645
邜	-13.2648
醻	-13.2648
䟱	-13.2648
凴	-13.2649
紲	-13.2649
郇	-13.265
𡨕	-13.265
煢	-13.2651
黏	-13.2651
䲭	-13.2652
炮	-13.2652
掎	-13.2652
餱	-13.2652
雝	-13.2653
喟	-13.2654
樟	-13.2654
郿	-13.2654
窑	-13.2655
獯	-13.2655
􁁂	-13.2655
昝	-13.2656
猴	-13.2656
鐍	-13.2656
嘲	-13.2656
孀	-13.2656
豬	-13.2657
稞	-13.2657
綻	-13.2657
鑪	-13.2658
暎	-13.2658
鏘	-13.2659
戻	-13.2659
㴞	-13.2659
鈆	-13.266
忮	-13.266
𣢾	-13.266
哂	-13.266
悱	-13.2662
阪	-13.2662
廒	-13.2662
凹	-13.2663
燹	-13.2663
邴	-13.2664
剷	-13.2667
􁆢	-13.2668
芸	-13.2669
澑	-13.267
逯	-13.267
伾	-13.2672
稭	-13.2674
􁲑	-13.2679
􁐜	-13.313
鄣	-13.3132
凈	-13.3135
斟	-13.3136
牋	-13.3137
穸	-13.3137
楙	-13.3139
螳	-13.3139
勍	-13.3139
郕	-13.3139
吭	-13.3144
烖	-13.3145
悝	-13.3146
搃	-13.3147
麫	-13.3148
棫	-13.3148
骾	-13.3149
𥪡	-13.3149
埒	-13.3149
箧	-13.3149
聵	-13.3149
楽	-13.3151
痏	-13.3151
痢	-13.3151
蒯	-13.3152
廈	-13.3152
戣	-13.3153
闤	-13.3153
吮	-13.3154
賒	-13.3154
簠	-13.3155
腠	-13.3156
牐	-13.3156
咻	-13.3157
謊	-13.3157
臠	-13.3157
滹	-13.3157
饟	-13.3157
邰	-13.3157
飡	-13.3158
鵞	-13.3158
纏	-13.3159
䥴	-13.3159
闠	-13.3159
蚡	-13.3159
爝	-13.3161
霓	-13.3161
昺	-13.3162
撦	-13.3163
曳	-13.3163
趄	-13.3165
睨	-13.3166
餵	-13.3166
裼	-13.3168
蚌	-13.317
赳	-13.3172
䴡	-13.3653
瑒	-13.3663
褰	-13.3664
茆	-13.3665
鬃	-13.3666
緼	-13.3667
詼	-13.3667
兕	-13.3667
澐	-13.3668
汭	-13.3668
廋	-13.3669
祏	-13.367
鍚	-13.367
翮	-13.3673
泂	-13.3673
萋	-13.3673
酖	-13.3673
浣	-13.3674
澥	-13.3674
撩	-13.3676
韃	-13.3676
擗	-13.3676
鞬	-13.3678
鱉	-13.3678
頔	-13.3679
拚	-13.3682
窵	-13.3683
慇	-13.3684
梭	-13.3684
梵	-13.3684
粕	-13.3684
襪	-13.3685
樾	-13.3685
垠	-13.3686
荻	-13.3686
崙	-13.3687
幬	-13.3687
璐	-13.3687
襍	-13.3688
栰	-13.3688
蕉	-13.3688
浤	-13.3688
蘩	-13.369
濂	-13.369
倥	-13.3691
捆	-13.3692
茄	-13.3693
朒	-13.3693
葆	-13.3695
杓	-13.3695
昜	-13.3695
醋	-13.3696
皿	-13.3699
鄞	-13.3701
骰	-13.3703
溶	-13.3704
咬	-13.3707
錝	-13.3707
惺	-13.3711
㬊	-13.3726
頠	-13.4204
籀	-13.4209
哷	-13.421
耜	-13.421
𥚹	-13.4219
櫝	-13.4219
韡	-13.4219
掀	-13.4221
靼	-13.4221
媯	-13.4222
艷	-13.4222
哽	-13.4224
憬	-13.4224
跑	-13.4224
蠖	-13.4225
瑱	-13.4226
誄	-13.4226
禩	-13.4229
籞	-13.4229
擥	-13.4229
晙	-13.423
禨	-13.4231
侣	-13.4231
崤	-13.4232
鵷	-13.4232
涘	-13.4233
薙	-13.4233
􁩷	-13.4233
噴	-13.4234
矇	-13.4234
鎰	-13.4235
槱	-13.4235
陴	-13.4235
湫	-13.4236
雛	-13.4236
蝮	-13.4237
諼	-13.4237
劻	-13.4237
努	-13.4238
侁	-13.4239
窽	-13.4239
杏	-13.424
矬	-13.4243
諝	-13.4244
祹	-13.4244
庀	-13.4245
旤	-13.4245
秒	-13.4245
眺	-13.4246
卉	-13.4246
咳	-13.4246
駔	-13.4248
綆	-13.4248
痘	-13.4259
帚	-13.4262
忷	-13.4798
阱	-13.4809
璇	-13.4809
盾	-13.481
凊	-13.481
圑	-13.481
幔	-13.4812
譾	-13.4812
疥	-13.4813
筲	-13.4813
捭	-13.4814
厖	-13.4814
鰍	-13.4814
輶	-13.4814
褁	-13.4814
甜	-13.4815
脯	-13.4815
􁇢	-13.4816
憺	-13.4817
鼙	-13.4818
讌	-13.4818
魔	-13.4819
児	-13.482
矦	-13.482
偲	-13.482
酥	-13.482
疣	-13.4821
忡	-13.4821
崎	-13.4821
郟	-13.4822
痺	-13.4822
鰥	-13.4822
笄	-13.4823
爇	-13.4823
鏁	-13.4823
𤇺	-13.4824
嶂	-13.4824
銛	-13.4825
芋	-13.4826
枘	-13.4826
賘	-13.4827
柷	-13.4827
􁧑	-13.4828
卬	-13.4829
黌	-13.4829
瑁	-13.4829
攩	-13.483
辮	-13.483
鏗	-13.483
佀	-13.483
賺	-13.4831
黴	-13.4832
肱	-13.4832
碗	-13.4834
玭	-13.4835
姐	-13.4838
屜	-13.4838
鑣	-13.484
鋼	-13.4841
痞	-13.4842
棖	-13.4846
頁	-13.4846
轝	-13.4846
柚	-13.4847
橙	-13.4863
聃	-13.5423
氂	-13.5424
侏	-13.5424
渤	-13.5425
癯	-13.5425
窓	-13.5425
嫠	-13.5432
肈	-13.5433
􁐾	-13.5433
螣	-13.5434
暟	-13.5435
翩	-13.5436
縢	-13.5436
閈	-13.5437
斆	-13.5437
螢	-13.5437
胔	-13.5438
徊	-13.5438
礁	-13.5439
􁱝	-13.544
烜	-13.544
戹	-13.544
抆	-13.5441
蛀	-13.5441
篾	-13.5442
矻	-13.5443
隤	-13.5444
賸	-13.5444
憯	-13.5444
蓐	-13.5445
奶	-13.5446
酪	-13.5447
臏	-13.5447
秃	-13.5447
肴	-13.5449
輊	-13.5449
蜺	-13.545
礼	-13.545
棨	-13.545
蕤	-13.5452
瑤	-13.5453
万	-13.5453
宓	-13.5453
瘢	-13.5454
畵	-13.5454
鈇	-13.5454
坌	-13.5454
醬	-13.5455
叧	-13.5455
囏	-13.5455
罐	-13.5455
丒	-13.5456
蹰	-13.5456
榱	-13.5456
蹻	-13.5456
鉢	-13.5457
鴞	-13.5457
畦	-13.5457
紵	-13.5458
汔	-13.5459
蓼	-13.5459
蹴	-13.5459
懣	-13.5461
橘	-13.5463
歃	-13.5464
驘	-13.5464
糇	-13.5465
􁂗	-13.5472
帕	-13.548
靁	-13.5504
陁	-13.6087
鐃	-13.6088
嚙	-13.609
妤	-13.6096
洿	-13.6096
竚	-13.6097
訿	-13.6098
秸	-13.6099
甽	-13.61
确	-13.61
幘	-13.6102
蔗	-13.6102
逌	-13.6102
隼	-13.6103
癬	-13.6103
梴	-13.6103
搒	-13.6103
訹	-13.6104
丰	-13.6107
韞	-13.6107
橜	-13.6108
尓	-13.6108
灸	-13.6108
雊	-13.6108
珝	-13.6108
碉	-13.6109
杻	-13.611
郛	-13.611
煆	-13.6111
抔	-13.6111
咄	-13.6111
蜑	-13.6112
檮	-13.6112
溽	-13.6113
涣	-13.6114
㮣	-13.6114
埜	-13.6115
撐	-13.6116
軿	-13.6116
迦	-13.6116
禬	-13.6116
炤	-13.6117
尙	-13.6117
洄	-13.6118
罽	-13.6118
篩	-13.6118
紥	-13.6119
术	-13.6119
枲	-13.6119
傘	-13.612
佶	-13.612
塈	-13.612
爚	-13.612
疤	-13.6122
閶	-13.6122
厘	-13.6122
匵	-13.6122
倕	-13.6123
甑	-13.6123
韈	-13.6123
玢	-13.6125
乜	-13.6126
嘘	-13.6126
薾	-13.6126
慫	-13.6126
𫀆	-13.6127
鬍	-13.6127
釴	-13.6127
嵒	-13.6127
描	-13.613
洚	-13.613
嫩	-13.6134
价	-13.6135
洹	-13.6136
踢	-13.6138
暠	-13.6138
黝	-13.6795
蹠	-13.6803
飈	-13.6806
蜃	-13.6807
茝	-13.6811
笳	-13.6812
䦧	-13.6815
断	-13.6815
騂	-13.6816
糕	-13.6817
浜	-13.6817
􁪽	-13.6818
飴	-13.6818
臓	-13.6818
歔	-13.6819
劈	-13.6821
緹	-13.6821
緗	-13.6821
雘	-13.6822
咀	-13.6822
瘧	-13.6823
悈	-13.6823
庳	-13.6824
葅	-13.6824
庌	-13.6825
鄼	-13.6825
壐	-13.6825
怔	-13.6826
炷	-13.6826
嶇	-13.6827
忸	-13.6827
秔	-13.6827
瘥	-13.6827
獒	-13.6828
繢	-13.6828
璹	-13.6828
㳫	-13.6828
𫐠	-13.6828
䑸	-13.6828
蝎	-13.6828
陿	-13.6829
筍	-13.6829
徉	-13.6829
梱	-13.683
􁏏	-13.683
艶	-13.683
炌	-13.6831
璸	-13.6832
莢	-13.6832
耉	-13.6832
鄺	-13.6832
餔	-13.6833
鄘	-13.6833
鈿	-13.6833
藔	-13.6833
馪	-13.6833
嚼	-13.6834
蚕	-13.6834
酎	-13.6834
娥	-13.6835
瓏	-13.6835
籐	-13.6835
柙	-13.6835
瘟	-13.6835
㛰	-13.6836
艌	-13.6836
藳	-13.6836
仳	-13.6837
襯	-13.6838
趫	-13.6838
鮓	-13.6838
跎	-13.6839
蜕	-13.684
霅	-13.684
諟	-13.6842
􁠙	-13.6843
燉	-13.6844
塚	-13.6845
萄	-13.685
券	-13.685
燝	-13.6856
懴	-13.6856
呷	-13.6857
騍	-13.6988
酹	-13.7571
詵	-13.7572
甓	-13.7576
蚋	-13.7576
䘵	-13.7578
糅	-13.758
径	-13.7581
煞	-13.7582
幙	-13.7582
撡	-13.7582
惱	-13.7584
櫪	-13.7586
縋	-13.7586
晶	-13.7588
迩	-13.7588
齠	-13.7589
敡	-13.7589
晹	-13.7589
踹	-13.759
貉	-13.7591
卲	-13.7591
綢	-13.7591
炬	-13.7592
磕	-13.7592
斿	-13.7592
稈	-13.7593
觕	-13.7593
䣃	-13.7593
憃	-13.7595
磾	-13.7595
曕	-13.7596
眸	-13.7596
緖	-13.7597
艇	-13.7598
覼	-13.7598
鄗	-13.7599
蘗	-13.7599
奩	-13.7599
宄	-13.7599
鏄	-13.7599
誾	-13.76
姤	-13.76
坯	-13.7601
朏	-13.7601
淅	-13.7602
苓	-13.7602
茒	-13.7602
胖	-13.7603
􁁎	-13.7603
埤	-13.7603
紃	-13.7604
薯	-13.7604
絆	-13.7605
􁰽	-13.7605
泒	-13.7605
蛋	-13.7605
伱	-13.7606
苧	-13.7606
巉	-13.7607
掦	-13.7608
廚	-13.7609
砧	-13.7611
簰	-13.7612
㾗	-13.7612
腎	-13.7612
鼒	-13.7612
裙	-13.7614
癈	-13.7616
爬	-13.7616
邨	-13.7616
牕	-13.7617
廙	-13.7617
搧	-13.7618
掜	-13.7619
芾	-13.7619
萇	-13.7621
醎	-13.7623
欖	-13.7624
􁆸	-13.7625
榕	-13.7629
龢	-13.7631
鷔	-13.8388
黽	-13.8395
嚻	-13.8397
㭱	-13.8403
褘	-13.841
騭	-13.841
槳	-13.8411
顰	-13.8412
蹀	-13.8414
磑	-13.8414
謏	-13.8416
踳	-13.8416
邽	-13.8417
􁃻	-13.8418
隩	-13.8418
䑛	-13.8419
耎	-13.8419
庒	-13.842
揄	-13.842
錬	-13.842
朐	-13.8421
靉	-13.8421
劌	-13.8421
麰	-13.8421
渟	-13.8422
罇	-13.8423
昞	-13.8423
皃	-13.8423
臼	-13.8423
覷	-13.8424
蜋	-13.8425
仭	-13.8425
鷩	-13.8425
慓	-13.8425
齓	-13.8425
憙	-13.8425
腕	-13.8426
啣	-13.8426
堨	-13.8427
傒	-13.8427
埴	-13.8427
􁁶	-13.8428
轟	-13.8428
噂	-13.8428
𦦨	-13.8428
坳	-13.8429
咤	-13.8429
爌	-13.8429
踉	-13.843
遒	-13.843
柞	-13.843
菉	-13.843
辞	-13.843
惛	-13.8431
㫤	-13.8431
𤱔	-13.8431
儛	-13.8431
瑰	-13.8431
窋	-13.8431
幢	-13.8431
絍	-13.8431
㠓	-13.8432
鬢	-13.8432
暾	-13.8432
肋	-13.8432
腯	-13.8432
媕	-13.8432
迃	-13.8433
埏	-13.8433
誖	-13.8433
犆	-13.8433
紺	-13.8433
湄	-13.8434
弈	-13.8434
䡖	-13.8434
蟣	-13.8434
纇	-13.8435
?	-13.8435
葷	-13.8435
萑	-13.8436
錚	-13.8436
秕	-13.8436
癲	-13.8437
氾	-13.8437
籃	-13.8437
筩	-13.8438
茁	-13.844
勌	-13.8441
淒	-13.8441
笆	-13.8442
邅	-13.8442
醯	-13.8443
殻	-13.8445
嵌	-13.8445
唤	-13.8447
玗	-13.8449
頞	-13.8449
鐙	-13.845
秈	-13.8451
拄	-13.8451
穠	-13.8453
蹲	-13.8454
蜒	-13.8455
頎	-13.8459
㭬	-13.847
鐐	-13.9292
焫	-13.9303
逶	-13.9316
鋌	-13.9318
瘃	-13.9319
浞	-13.9321
釵	-13.9321
羶	-13.9322
埆	-13.9322
攲	-13.9325
渦	-13.9325
廌	-13.9326
鋩	-13.9327
窆	-13.9327
娃	-13.9328
刅	-13.9328
眡	-13.9329
跧	-13.9329
誶	-13.9329
衎	-13.933
𣏌	-13.933
弥	-13.933
欬	-13.933
覡	-13.933
鮒	-13.9332
巔	-13.9332
蛾	-13.9333
璡	-13.9333
楸	-13.9333
媽	-13.9334
舸	-13.9334
齔	-13.9334
蹌	-13.9334
珀	-13.9335
楛	-13.9335
蜴	-13.9335
紝	-13.9337
嚭	-13.9337
哆	-13.9337
髻	-13.9337
灞	-13.9337
噉	-13.9338
阸	-13.9339
薈	-13.9339
蠋	-13.9339
飇	-13.934
皐	-13.934
䝴	-13.9341
堌	-13.9341
壷	-13.9341
䍧	-13.9342
慵	-13.9342
甍	-13.9342
鏑	-13.9342
嵇	-13.9342
尠	-13.9343
霰	-13.9343
瓢	-13.9343
釃	-13.9344
圄	-13.9345
豨	-13.9345
鞀	-13.9345
饎	-13.9345
逥	-13.9346
舫	-13.9346
暬	-13.9347
荃	-13.9348
㡳	-13.9348
㜮	-13.9349
菱	-13.935
荄	-13.9351
􁚠	-13.9351
鰌	-13.9353
㴻	-13.9353
槊	-13.9353
湃	-13.9354
鍰	-13.9354
絁	-13.9354
硏	-13.9355
鋗	-13.9355
嗎	-13.9356
椁	-13.9357
愳	-13.9358
穣	-13.9358
摃	-13.9358
枤	-13.9359
嗽	-13.9359
禴	-13.9359
㯶	-13.936
緱	-13.9364
媺	-13.9366
幚	-13.9369
洸	-13.937
爹	-13.9371
􁳁	-13.9379
瓛	-13.9379
膩	-13.9407
梲	-14.0283
伃	-14.0307
榴	-14.0311
磷	-14.0312
浯	-14.0315
殳	-14.0319
薌	-14.0319
腋	-14.0319
悾	-14.032
惄	-14.0321
磴	-14.0321
鄠	-14.0322
愔	-14.0323
諓	-14.0323
篐	-14.0323
􁇜	-14.0324
营	-14.0324
霤	-14.0324
憇	-14.0325
茀	-14.0326
鞮	-14.0326
舠	-14.0327
黛	-14.0327
橈	-14.0327
眘	-14.0327
秭	-14.0328
眤	-14.0328
裸	-14.0328
頫	-14.0329
臉	-14.0329
㚄	-14.0329
僰	-14.033
顱	-14.033
騑	-14.0332
﨣	-14.0333
𬗋	-14.0333
膾	-14.0333
諰	-14.0333
廱	-14.0333
㽔	-14.0334
蝨	-14.0334
玻	-14.0334
岫	-14.0334
醊	-14.0335
徜	-14.0335
𥿄	-14.0335
槧	-14.0336
嬈	-14.0336
㗋	-14.0336
麛	-14.0336
呴	-14.0337
傋	-14.0337
艙	-14.0337
瑑	-14.0338
崆	-14.0338
麹	-14.0338
暏	-14.0338
錘	-14.0338
􁆁	-14.0339
睂	-14.0339
堧	-14.034
顫	-14.034
絓	-14.034
漾	-14.034
鄽	-14.0341
薿	-14.0342
詗	-14.0343
僴	-14.0343
燻	-14.0343
耼	-14.0344
簉	-14.0344
耍	-14.0344
泖	-14.0345
醤	-14.0345
笛	-14.0345
膴	-14.0345
贐	-14.0346
涅	-14.0346
訑	-14.0346
􁢑	-14.0346
曇	-14.0347
瞋	-14.0347
蒂	-14.0347
絫	-14.0347
醵	-14.0348
仐	-14.035
蝝	-14.035
𨕖	-14.0351
櫍	-14.0351
澌	-14.0351
閴	-14.0351
沫	-14.0352
瘖	-14.0353
縵	-14.0354
梳	-14.0354
丱	-14.0355
醸	-14.0355
腆	-14.0356
貛	-14.0356
莎	-14.0357
荗	-14.0357
慆	-14.0359
鳶	-14.0359
鉟	-14.036
撁	-14.0361
崐	-14.0361
廿	-14.0361
鈁	-14.0361
敔	-14.0361
皈	-14.0364
竅	-14.0366
譓	-14.0384
櫄	-14.1371
榯	-14.1419
侠	-14.1426
宐	-14.1427
磐	-14.143
菟	-14.143
倧	-14.1434
䔍	-14.1435
旛	-14.1436
輈	-14.1437
闓	-14.1437
麈	-14.1437
輾	-14.1438
篳	-14.1438
蓁	-14.1438
楗	-14.1438
傜	-14.1439
蔇	-14.1439
皤	-14.1439
箎	-14.144
眄	-14.144
塼	-14.1441
陔	-14.1441
窅	-14.1442
祊	-14.1442
蜿	-14.1442
嬾	-14.1442
禖	-14.1443
咋	-14.1443
墧	-14.1443
怗	-14.1443
笈	-14.1443
㴠	-14.1444
貍	-14.1444
㝏	-14.1445
騤	-14.1445
嗢	-14.1445
骫	-14.1446
蓀	-14.1446
嵓	-14.1446
橄	-14.1446
圡	-14.1446
禅	-14.1447
鷖	-14.1447
嶍	-14.1447
敓	-14.1448
轕	-14.1448
嶲	-14.1449
玹	-14.1449
鐮	-14.1449
泡	-14.1449
觝	-14.145
闞	-14.145
霏	-14.145
逅	-14.1451
邂	-14.1451
瓆	-14.1451
侄	-14.1451
惎	-14.1451
毘	-14.1452
崒	-14.1452
􁲬	-14.1452
璆	-14.1453
墁	-14.1453
鐄	-14.1453
茇	-14.1454
滀	-14.1454
揠	-14.1454
泾	-14.1454
藕	-14.1455
抺	-14.1455
魍	-14.1455
礴	-14.1455
斶	-14.1456
蘿	-14.1457
燁	-14.1457
嘽	-14.1457
瑨	-14.1457
挪	-14.1457
􁎗	-14.1457
倓	-14.1458
慳	-14.1458
轆	-14.1458
蜉	-14.1458
娩	-14.1458
賮	-14.1458
螘	-14.1458
䖝	-14.1459
耔	-14.1459
畊	-14.1461
亊	-14.1461
猿	-14.1461
佺	-14.1462
涙	-14.1462
䑩	-14.1462
蛤	-14.1464
脹	-14.1465
𢋫	-14.1465
烊	-14.1466
萱	-14.1466
爆	-14.1466
虱	-14.1466
眈	-14.1466
梆	-14.1466
盬	-14.1467
巏	-14.1468
牷	-14.1468
𧖟	-14.1468
饁	-14.1468
黿	-14.147
荍	-14.147
輗	-14.1471
澘	-14.1472
稄	-14.1473
滆	-14.1477
玲	-14.1477
磡	-14.1479
奧	-14.148
醃	-14.1484
蟇	-14.1491
瓷	-14.1497
拌	-14.1514
兟	-14.2644
倢	-14.2651
錞	-14.2655
芰	-14.2657
簴	-14.2662
喆	-14.2665
菌	-14.2666
妲	-14.2673
簳	-14.2674
絛	-14.2675
慜	-14.2675
幞	-14.2676
茵	-14.2676
禜	-14.2676
􁀰	-14.2676
傃	-14.2677
虙	-14.2678
虁	-14.2679
晞	-14.2679
釧	-14.268
冣	-14.2681
􁀌	-14.2682
麀	-14.2682
罏	-14.2682
腔	-14.2683
儐	-14.2686
鍍	-14.2686
胠	-14.2686
閺	-14.2687
荣	-14.2688
怜	-14.2689
痱	-14.2689
鮐	-14.2689
筝	-14.2689
㓛	-14.2689
龥	-14.269
獾	-14.2691
澡	-14.2691
剳	-14.2692
熭	-14.2692
餫	-14.2692
綖	-14.2693
驀	-14.2693
瘇	-14.2693
槻	-14.2693
泆	-14.2693
摟	-14.2693
隟	-14.2694
鵁	-14.2694
鶄	-14.2694
壍	-14.2694
㮚	-14.2694
枰	-14.2694
眂	-14.2695
㫋	-14.2695
僶	-14.2695
迢	-14.2695
瓮	-14.2696
攟	-14.2696
蛻	-14.2696
臝	-14.2696
嘷	-14.2696
􁰁	-14.2696
僂	-14.2697
佽	-14.2698
巘	-14.2698
蠁	-14.2698
􁆹	-14.2698
傴	-14.2698
缶	-14.2698
鞾	-14.2698
袓	-14.2698
漯	-14.2699
薑	-14.2699
窈	-14.2699
窕	-14.27
鵡	-14.27
蹋	-14.27
櫻	-14.27
蓿	-14.2701
郫	-14.2702
㠄	-14.2702
巹	-14.2702
苜	-14.2702
蠎	-14.2702
􁂎	-14.2702
剞	-14.2702
􁡍	-14.2703
孃	-14.2703
崈	-14.2703
騮	-14.2703
櫂	-14.2703
蕡	-14.2704
鐶	-14.2704
鑨	-14.2704
魎	-14.2704
懺	-14.2704
旟	-14.2704
睱	-14.2704
洫	-14.2705
竑	-14.2705
瀹	-14.2706
漉	-14.2706
蔥	-14.2706
紾	-14.2707
跴	-14.2707
廠	-14.2707
穯	-14.2707
縚	-14.2708
纆	-14.2708
鰕	-14.2709
砑	-14.2709
忩	-14.271
謌	-14.271
枌	-14.271
㫄	-14.271
􁋍	-14.271
鄕	-14.2711
跗	-14.2712
悁	-14.2712
狑	-14.2712
冽	-14.2712
礲	-14.2713
卾	-14.2713
縧	-14.2714
捺	-14.2715
怩	-14.2715
掬	-14.2715
𨫼	-14.2715
杷	-14.2717
囙	-14.2717
栝	-14.2717
堇	-14.2718
郾	-14.2718
㵢	-14.2718
楪	-14.2719
誎	-14.2719
寉	-14.2719
鏢	-14.272
毯	-14.272
栲	-14.272
雯	-14.272
煚	-14.2721
逑	-14.2722
􁅳	-14.2722
趑	-14.2724
帟	-14.2724
棱	-14.2724
霨	-14.2726
烺	-14.2728
紞	-14.2728
壖	-14.2728
秄	-14.2728
瑭	-14.273
靚	-14.273
䥷	-14.2731
埝	-14.2732
撅	-14.2732
觚	-14.2735
妺	-14.2737
溈	-14.2737
揲	-14.4094
弢	-14.4096
姥	-14.4101
皸	-14.4103
畬	-14.4105
槌	-14.4105
崞	-14.4106
劳	-14.4106
揪	-14.411
斮	-14.4112
畮	-14.4113
㰱	-14.4116
憩	-14.4116
濞	-14.4118
惆	-14.4119
㜸	-14.4121
娑	-14.4122
㰖	-14.4124
燋	-14.4124
濴	-14.4124
獺	-14.4127
滏	-14.4127
㬌	-14.4127
污	-14.4127
烘	-14.4128
娀	-14.4128
濚	-14.4129
漴	-14.4129
欃	-14.413
憗	-14.413
噢	-14.413
俅	-14.4132
俲	-14.4132
睟	-14.4133
凷	-14.4133
囓	-14.4134
沬	-14.4134
熺	-14.4137
劂	-14.4137
琱	-14.4137
㑭	-14.4138
献	-14.4138
娣	-14.4139
滽	-14.4139
珵	-14.4139
瑢	-14.414
甬	-14.4141
犲	-14.4142
崕	-14.4142
桁	-14.4142
䀻	-14.4143
晛	-14.4144
剴	-14.4144
僾	-14.4145
忲	-14.4145
擋	-14.4145
刲	-14.4146
囍	-14.4146
濛	-14.4148
棃	-14.4148
嗷	-14.4149
卺	-14.4149
噓	-14.415
拶	-14.415
榨	-14.4151
俔	-14.4151
憞	-14.4151
毼	-14.4154
啚	-14.4156
嵱	-14.4164
晭	-14.4213
紜	-14.5671
阯	-14.5776
錙	-14.5778
朧	-14.5793
餬	-14.5794
洶	-14.5795
駘	-14.7778
詿	-14.778
撕	-14.7781
惓	-14.7801
喋	-14.7802
宙	-14.7808
憔	-15.0294
茸	-15.0305
螻	-15.0318
睥	-15.361
獪	-15.3621
嘛	-15.3646
慷	-15.3662
璂	-15.8629
倌	-15.8641
遛	-15.8654
焻	-16.8578
䭲	-16.8579
昷	-16.858
徘	-16.8581
糢	-16.8581
𠺕	-16.8582
鑍	-16.8583
趦	-16.8584
謖	-16.8585
蕖	-16.8586
蒗	-16.8587
葡	-16.8588
慂	-16.8589
鎎	-16.859
茌	-16.8591
絏	-16.8592
窀	-16.8593
濊	-16.8594
巋	-16.8595
媫	-16.8596
圌	-16.8597
㸅	-16.8598
㓲	-16.8599
鏸	-16.86
懥	-16.8601
冔	-16.8602
偫	-16.8603
㶏	-16.8604
拮	-16.8605
琶	-16.8605
琵	-16.8606
榿	-16.8607
暲	-16.8608
嗃	-16.8609
饘	-16.861
苒	-16.8611
勠	-16.8612
叵	-16.8612
跅	-16.8613
憻	-16.8614
愀	-16.8615
偬	-16.8616
鐈	-16.8617
㒜	-16.8618
頏	-16.8619
貅	-16.862
囹	-16.8621
譸	-16.8621
厔	-16.8622
儡	-16.8623
毣	-16.8624
魃	-16.8625
㮶	-16.8626
琊	-16.8627
吩	-16.8628
綮	-16.8629
憮	-16.863
璱	-16.8631
旿	-16.8632
嫄	-16.8633
齷	-16.8634
洳	-16.8635
踖	-16.8636
𣅿	-16.8637
魑	-16.8638
葫	-16.8639
窬	-16.864
彔	-16.8641
栘	-16.8642
㙉	-16.8643
褓	-16.8644
獗	-16.8645
繽	-16.8645
慺	-16.8646
禝	-16.8647
馝	-16.8648
痌	-16.8649
玁	-16.865
䄉	-16.8651
芠	-16.8652
搠	-16.8653
嘵	-16.8654
烆	-16.8655
鰓	-16.8656
漋	-16.8657
瓴	-16.8658
躊	-16.8659
齬	-16.866
凰	-16.8661
倆	-16.8662
禟	-16.8663
脞	-16.8664
洱	-16.8665
鐇	-16.8666
狽	-16.8667
咫	-16.8668
禵	-16.8668
