<unk>	0
<s>	0
</s>	0
之	-4.00914
而	-4.47469
以	-4.76526
其	-4.99838
也	-5.04806
者	-5.08723
為	-5.0884
有	-5.09827
於	-5.29361
不	-5.32662
人	-5.47624
一	-5.49965
公	-5.51394
無	-5.6922
則	-5.75675
自	-5.76082
與	-5.89069
大	-5.93256
行	-5.95375
中	-5.98886
子	-5.99011
事	-5.9935
時	-5.9989
君	-6.00177
如	-6.01994
曰	-6.07272
得	-6.07816
生	-6.08108
此	-6.12315
上	-6.1303
矣	-6.13345
在	-6.13368
所	-6.14456
是	-6.1625
山	-6.17241
天	-6.17543
然	-6.178
文	-6.17804
至	-6.20205
言	-6.24698
見	-6.25044
亦	-6.25287
書	-6.25766
又	-6.27328
乎	-6.27452
心	-6.27553
日	-6.32089
出	-6.34448
道	-6.34627
故	-6.36679
焉	-6.36845
若	-6.37866
長	-6.38532
我	-6.40028
已	-6.4047
名	-6.40944
知	-6.41457
相	-6.43304
可	-6.43453
非	-6.43823
于	-6.44416
歸	-6.45373
皆	-6.4576
下	-6.45937
家	-6.46166
來	-6.46535
王	-6.46885
三	-6.48821
今	-6.48857
當	-6.50144
明	-6.51188
復	-6.52221
成	-6.54347
多	-6.54474
吾	-6.54861
乃	-6.57838
何	-6.57849
作	-6.58583
世	-6.58924
官	-6.59504
同	-6.59789
水	-6.60577
風	-6.60668
重	-6.61827
方	-6.62177
先生	-6.62178
欲	-6.62845
去	-6.63095
及	-6.64128
學	-6.64207
用	-6.64459
且	-6.65226
臣	-6.65639
未	-6.66786
後	-6.6699
入	-6.67561
民	-6.6799
雲	-6.68325
清	-6.69
將	-6.6994
能	-6.70078
兮	-6.70304
二	-6.70645
從	-6.7164
▁	-6.73849
使	-6.75399
前	-6.75651
夫	-6.76685
正	-6.76787
意	-6.77157
予	-6.78618
年	-6.79134
聞	-6.79185
過	-6.79651
思	-6.79952
即	-6.80046
居	-6.81266
哉	-6.81453
惟	-6.82284
必	-6.83289
(	-6.85085
諸	-6.86005
詩	-6.86008
雖	-6.86332
春	-6.86469
先	-6.87498
逺	-6.87939
既	-6.87957
深	-6.88074
爲	-6.8863
石	-6.89152
傳	-6.89387
髙	-6.9035
獨	-6.90917
南	-6.91176
老	-6.91948
士	-6.92626
或	-6.92939
安	-6.94048
地	-6.94932
分	-6.95172
盡	-6.95314
望	-6.95995
善	-6.96059
命	-6.97132
徳	-6.98002
遂	-6.98434
余	-6.99503
因	-6.99603
令	-7.00448
應	-7.00708
國	-7.01073
起	-7.01117
實	-7.01314
月	-7.01701
古	-7.0196
本	-7.01996
金	-7.02075
新	-7.03199
間	-7.03721
難	-7.03743
始	-7.04434
賢	-7.0451
處	-7.04658
門	-7.05675
花	-7.06099
身	-7.06199
外	-7.06492
氣	-7.07723
數	-7.07928
州	-7.07929
師	-7.08006
還	-7.08237
聲	-7.08788
兵	-7.08865
稱	-7.08898
初	-7.09343
志	-7.09613
猶	-7.10122
客	-7.10148
城	-7.10233
益	-7.10315
四	-7.10393
元	-7.10404
小	-7.10979
東	-7.11151
五	-7.11418
經	-7.11499
舉	-7.11769
興	-7.1186
朝	-7.11954
好	-7.12099
玉	-7.12138
論	-7.12537
法	-7.12803
空	-7.13184
謂	-7.13239
神	-7.13442
立	-7.14254
治	-7.14471
氏	-7.14834
流	-7.14845
問	-7.14901
少	-7.15118
耳	-7.15642
發	-7.1567
易	-7.16173
西	-7.16211
樂	-7.1654
開	-7.16778
親	-7.16871
兩	-7.17417
守	-7.17658
禮	-7.17692
死	-7.1788
云	-7.18159
尚	-7.18197
常	-7.18501
白	-7.18723
秋	-7.18737
華	-7.18763
江	-7.19015
不能	-7.19188
情	-7.19283
義	-7.19683
甚	-7.19942
觀	-7.201
爾	-7.20261
平	-7.21389
字	-7.2168
物	-7.21786
光	-7.21939
馬	-7.2194
取	-7.22607
以為	-7.22663
真	-7.22689
林	-7.2408
近	-7.24568
通	-7.25244
力	-7.25316
語	-7.25547
不可	-7.25768
海	-7.26413
夜	-7.26525
送	-7.26541
龍	-7.2721
更	-7.27665
陳	-7.28168
節	-7.28281
舊	-7.28525
周	-7.28654
雨	-7.29392
母	-7.29446
張	-7.29904
定	-7.30407
萬	-7.30769
宗	-7.30899
寒	-7.31085
固	-7.31414
理	-7.31652
教	-7.31811
坐	-7.31874
題	-7.32191
和	-7.32365
終	-7.32507
飛	-7.32742
陽	-7.32932
合	-7.33462
莫	-7.33837
請	-7.3415
進	-7.34164
凡	-7.35063
辭	-7.35279
奉	-7.35455
黄	-7.36744
樹	-7.36808
病	-7.36836
求	-7.37223
集	-7.38198
致	-7.38538
九	-7.38795
贈	-7.39285
信	-7.3938
圖	-7.39697
别	-7.39908
次	-7.40069
才	-7.40128
顧	-7.40345
嵗	-7.41007
百	-7.41078
序	-7.41105
卒	-7.41754
宜	-7.41954
豈	-7.42638
内	-7.43367
酒	-7.43383
歌	-7.43486
誠	-7.43806
田	-7.44564
父	-7.44959
㑹	-7.45175
直	-7.45226
漢	-7.4565
任	-7.45918
各	-7.46152
動	-7.46493
餘	-7.46501
等	-7.46765
視	-7.46922
良	-7.47608
向	-7.47634
青	-7.47705
侯	-7.48189
記	-7.48484
嘗	-7.48584
六	-7.48602
天下	-7.49209
翁	-7.49366
色	-7.49597
喜	-7.49738
堂	-7.50238
李	-7.50344
某	-7.50932
念	-7.5099
異	-7.51101
章	-7.51185
愛	-7.51199
仁	-7.513
女	-7.51408
政	-7.51465
賦	-7.51561
絶	-7.51886
臺	-7.52536
弗	-7.52598
報	-7.52618
承	-7.52637
北	-7.52645
留	-7.52821
扵	-7.52822
敬	-7.52892
/)	-7.52957
食	-7.53098
路	-7.53789
草	-7.53887
共	-7.54105
寄	-7.54364
期	-7.54624
彼	-7.5492
登	-7.55358
久	-7.55615
)	-7.55866
足	-7.57108
所以	-7.57251
誰	-7.5727
功	-7.57717
封	-7.58262
縣	-7.58311
伯	-7.58528
/	-7.58672
計	-7.5875
竹	-7.58765
鄉	-7.5877
交	-7.59948
手	-7.60695
似	-7.60752
宋	-7.60802
寧	-7.60886
落	-7.61083
主	-7.61167
感	-7.61196
衣	-7.61304
君子	-7.61353
河	-7.61719
府	-7.61743
度	-7.61821
著	-7.62134
素	-7.62514
遺	-7.62558
首	-7.62776
孤	-7.62792
斯	-7.6286
汝	-7.62994
謝	-7.63001
衆	-7.63203
化	-7.64198
高	-7.64843
受	-7.64902
養	-7.65123
利	-7.65242
郡	-7.65471
盖	-7.65499
德	-7.656
頭	-7.65861
修	-7.66142
幸	-7.66194
性	-7.66455
聖	-7.66589
忠	-7.66947
遊	-7.67277
臨	-7.67347
仲	-7.67756
尤	-7.67871
武	-7.67887
所謂	-7.68112
目	-7.68458
雪	-7.68504
止	-7.69112
貴	-7.69141
耶	-7.69559
勝	-7.69686
存	-7.697
識	-7.69814
不知	-7.69889
永	-7.7008
都	-7.70345
之所	-7.70552
服	-7.70836
滿	-7.70899
再	-7.71102
俱	-7.71288
極	-7.71321
靈	-7.71402
比	-7.71417
溪	-7.71496
畫	-7.71734
原	-7.71822
具	-7.71849
容	-7.71923
解	-7.7208
嚴	-7.72549
而不	-7.72564
載	-7.72564
精	-7.72655
屬	-7.73075
就	-7.73154
失	-7.73166
里	-7.7376
尊	-7.7387
来	-7.74407
夢	-7.74617
到	-7.75218
孝	-7.75318
孫	-7.75429
恩	-7.7551
隨	-7.75516
盛	-7.7561
口	-7.76208
憂	-7.76309
土	-7.76408
要	-7.76487
加	-7.76559
廣	-7.76635
景	-7.76851
懐	-7.76865
由	-7.76874
便	-7.77055
野	-7.77288
史	-7.77445
適	-7.77629
巻	-7.77698
議	-7.77884
美	-7.78008
劉	-7.78748
厚	-7.78989
亂	-7.79142
祖	-7.79298
泉	-7.79519
往	-7.80078
職	-7.80187
疑	-7.80971
業	-7.81012
八	-7.8117
勞	-7.81212
松	-7.81264
幾	-7.81294
體	-7.81529
舟	-7.81803
賊	-7.8186
省	-7.82034
對	-7.82662
持	-7.8302
遇	-7.83338
幽	-7.83374
竒	-7.83788
千	-7.83812
忽	-7.83874
榮	-7.8394
弟	-7.83967
看	-7.84132
羣	-7.84178
帝	-7.84222
變	-7.84434
吏	-7.84497
許	-7.84655
香	-7.84677
制	-7.84731
可以	-7.84887
疾	-7.84969
賜	-7.85
司	-7.85065
簡	-7.85211
軍	-7.85276
繼	-7.85487
苦	-7.85762
試	-7.85992
告	-7.86038
邊	-7.8661
連	-7.86626
務	-7.86744
宫	-7.86761
吳	-7.86771
唐	-7.87365
樓	-7.87467
徒	-7.87574
木	-7.88213
楊	-7.88225
兼	-7.88236
兹	-7.8877
葢	-7.88816
隂	-7.88887
不得	-7.88953
建	-7.89198
授	-7.90142
室	-7.90297
端	-7.90789
願	-7.90822
積	-7.90941
昔	-7.90975
越	-7.91109
窮	-7.91154
者也	-7.9119
惡	-7.91205
輕	-7.91438
齋	-7.9151
亭	-7.91531
楚	-7.9161
轉	-7.91674
推	-7.91675
友	-7.91689
曲	-7.91701
備	-7.91726
列	-7.91951
七	-7.91972
卿	-7.92092
夀	-7.92172
仙	-7.92472
半	-7.92497
鳴	-7.92547
将	-7.93105
右	-7.9335
顯	-7.93656
遷	-7.9372
表	-7.93954
邑	-7.94435
全	-7.94614
庭	-7.94807
待	-7.94833
夏	-7.94889
最	-7.94889
如此	-7.95117
齊	-7.95194
考	-7.95238
於是	-7.95771
亡	-7.95962
散	-7.96185
俗	-7.96287
移	-7.96368
但	-7.96409
拜	-7.96498
愁	-7.96586
負	-7.96824
筆	-7.96868
工	-7.97258
號	-7.97865
塵	-7.98141
克	-7.98329
驚	-7.98339
星	-7.98361
每	-7.99023
微	-7.99093
澤	-7.99406
十	-7.99418
垂	-7.99493
左	-7.9958
指	-7.99891
照	-7.9993
醉	-8.00241
忘	-8.00303
兄	-8.00435
達	-8.00599
勤	-8.00662
説	-8.0068
銘	-8.00808
奏	-8.01132
謹	-8.01341
代	-8.01341
𤣥	-8.01397
蓋	-8.01453
讀	-8.01455
雙	-8.01767
特	-8.02085
葉	-8.02212
秦	-8.02283
率	-8.02377
恐	-8.028
其所	-8.03362
悲	-8.03528
梁	-8.0366
仕	-8.03818
休	-8.03835
游	-8.04128
引	-8.04567
撫	-8.049
朱	-8.05
虚	-8.05379
徐	-8.05401
閒	-8.05502
聽	-8.05553
太	-8.06115
胡	-8.06144
結	-8.06491
車	-8.06522
勢	-8.06536
調	-8.06567
燕	-8.06866
寺	-8.07274
魚	-8.07722
謀	-8.07791
類	-8.07826
薄	-8.07926
急	-8.07953
崇	-8.07959
尋	-8.08037
改	-8.08038
早	-8.08082
位	-8.08132
軒	-8.08265
廢	-8.08273
被	-8.08554
有所	-8.08566
儀	-8.08584
笑	-8.08601
川	-8.0878
巳	-8.08955
他	-8.09183
皇	-8.09202
哀	-8.09497
嘉	-8.09532
維	-8.09582
不敢	-8.09788
獲	-8.09862
私	-8.09929
約	-8.09968
英	-8.10838
浮	-8.11219
仰	-8.11474
果	-8.11713
詞	-8.11828
仍	-8.12025
累	-8.1208
郎	-8.12222
儒	-8.12278
芳	-8.12361
紀	-8.12654
貞	-8.12729
習	-8.12794
廟	-8.12886
敢	-8.12945
音	-8.13509
離	-8.13524
飲	-8.13808
竟	-8.13862
慶	-8.14202
而已	-8.14318
藏	-8.14755
宿	-8.14838
池	-8.15273
荒	-8.15604
紅	-8.15739
覺	-8.15749
選	-8.15853
羅	-8.16106
隠	-8.16446
宣	-8.16479
壽	-8.16566
第	-8.16601
咸	-8.16686
陵	-8.17171
回	-8.17174
昭	-8.1734
福	-8.17448
却	-8.17465
乆	-8.1761
形	-8.17618
濟	-8.17791
湖	-8.17897
說	-8.17927
雅	-8.18111
切	-8.18434
接	-8.1847
甫	-8.18482
露	-8.18603
順	-8.1895
斷	-8.19041
脩	-8.19124
施	-8.19297
詔	-8.19302
祠	-8.1952
族	-8.19569
烟	-8.19578
歲	-8.19675
悉	-8.19953
京	-8.19955
霜	-8.20175
鳥	-8.20296
曽	-8.20589
保	-8.20692
追	-8.2085
薦	-8.21082
鶴	-8.21209
公之	-8.21215
罪	-8.21373
波	-8.21401
叔	-8.21518
閣	-8.2171
揚	-8.21884
須	-8.21917
况	-8.22288
冠	-8.22403
置	-8.22444
夷	-8.22461
部	-8.22548
傷	-8.22635
僕	-8.22771
火	-8.22786
疏	-8.22921
運	-8.2311
戒	-8.23143
振	-8.23463
息	-8.23475
錢	-8.23599
闕	-8.23714
祭	-8.2399
兒	-8.24106
闗	-8.24135
典	-8.24399
竊	-8.24491
人之	-8.24589
執	-8.2466
曹	-8.24828
並	-8.24834
沙	-8.24997
殊	-8.25218
碧	-8.25307
折	-8.25389
舍	-8.2579
影	-8.25927
孟	-8.25995
附	-8.26007
懷	-8.26255
恒	-8.26296
孺人	-8.26323
侍	-8.26554
延	-8.27043
除	-8.27061
厥	-8.27354
收	-8.27409
刻	-8.2782
造	-8.27991
顔	-8.2831
召	-8.285
倚	-8.28568
篇	-8.28941
曾	-8.28964
婦	-8.28966
質	-8.29024
伏	-8.2906
翠	-8.29785
裏	-8.29927
惠	-8.29995
談	-8.30012
而後	-8.3006
之間	-8.30244
晉	-8.30423
吟	-8.30452
邪	-8.30626
遣	-8.30793
漸	-8.31273
退	-8.31299
呉	-8.31349
為之	-8.31415
面	-8.31451
雄	-8.31524
銀	-8.31719
徃	-8.31874
園	-8.31941
慎	-8.31954
抱	-8.32166
趙	-8.32183
威	-8.32483
季	-8.32546
韻	-8.3266
關	-8.32835
訓	-8.3288
示	-8.331
補	-8.33149
罷	-8.33285
賞	-8.33361
丹	-8.33524
嗚呼	-8.33543
反	-8.33638
棄	-8.3364
姓	-8.33716
程	-8.33732
呼	-8.33955
器	-8.34047
獻	-8.34193
憲	-8.34196
逢	-8.34421
源	-8.34465
役	-8.34466
殘	-8.34542
寳	-8.34679
蘭	-8.34705
依	-8.3481
愈	-8.34827
暮	-8.34897
陸	-8.34931
橋	-8.35008
録	-8.35143
富	-8.35465
機	-8.35479
廷	-8.35526
破	-8.35561
充	-8.35654
屋	-8.35753
給	-8.3586
走	-8.36029
紫	-8.36225
設	-8.36264
資	-8.36522
慕	-8.36555
横	-8.36586
擬	-8.36913
履	-8.37001
恭	-8.37026
强	-8.37146
憶	-8.3726
殺	-8.37395
只	-8.37397
愚	-8.37424
無所	-8.37544
墓	-8.3789
夫人	-8.37984
勿	-8.38146
慮	-8.3816
象	-8.38204
懸	-8.38414
放	-8.38563
殿	-8.38579
佐	-8.38662
萬里	-8.38805
一日	-8.38815
烏	-8.3891
御	-8.3919
沈	-8.39209
衛	-8.39608
歴	-8.39746
俾	-8.40031
秀	-8.40193
委	-8.40405
孰	-8.40442
述	-8.40721
營	-8.40799
堪	-8.40809
梅	-8.40841
晚	-8.40951
隱	-8.40991
静	-8.41054
虎	-8.41117
衰	-8.41424
講	-8.41429
毋	-8.41536
隔	-8.41552
丘	-8.41681
戰	-8.41684
康	-8.41928
細	-8.42224
徴	-8.42265
布	-8.42381
曉	-8.42541
句	-8.42681
村	-8.42727
籍	-8.42754
貧	-8.4279
千里	-8.42933
訪	-8.43124
昌	-8.43217
降	-8.43314
據	-8.4332
之心	-8.43396
稍	-8.43514
塞	-8.43701
博	-8.43738
逸	-8.4386
市	-8.43882
至於	-8.43943
足以	-8.44019
操	-8.44266
末	-8.44396
帶	-8.44481
總	-8.44547
醫	-8.44652
壯	-8.44712
迎	-8.44931
赴	-8.45218
差	-8.45259
曰吾	-8.45268
乞	-8.45282
材	-8.45364
洞	-8.45447
姑	-8.45508
晴	-8.45628
并	-8.45816
庶	-8.45858
敵	-8.46105
偏	-8.4611
夕	-8.46325
谷	-8.46484
葬	-8.4666
蘇	-8.46938
征	-8.47001
晩	-8.47069
巖	-8.47144
希	-8.47244
頗	-8.47296
商	-8.47386
逐	-8.47519
鎮	-8.47587
進士	-8.47616
抑	-8.47748
恨	-8.47795
虞	-8.47852
跡	-8.47855
誦	-8.48468
祀	-8.48574
聚	-8.4861
危	-8.487
采	-8.48969
吉	-8.49049
趨	-8.49502
温	-8.49709
輒	-8.49724
種	-8.4989
免	-8.49907
憐	-8.49956
雜	-8.49976
天地	-8.49991
邦	-8.50109
不足	-8.50321
按	-8.50347
諭	-8.50428
違	-8.50539
禁	-8.5061
惜	-8.50902
大夫	-8.51087
詳	-8.5111
魯	-8.51113
狀	-8.51278
聖人	-8.51352
冬	-8.5136
㣲	-8.51482
隆	-8.51511
御史	-8.51597
枝	-8.51633
佳	-8.51671
避	-8.51682
逰	-8.51712
峯	-8.5195
祥	-8.51987
天子	-8.52002
領	-8.52288
乗	-8.52531
候	-8.52653
偶	-8.5267
勸	-8.52777
屢	-8.52781
喪	-8.52799
藥	-8.52837
愧	-8.52885
科	-8.52945
責	-8.53138
蒼	-8.53341
答	-8.53387
郭	-8.53597
靜	-8.53926
處士	-8.53961
效	-8.54203
兄弟	-8.54256
譜	-8.54279
鄭	-8.54542
寛	-8.54734
孔	-8.5478
緑	-8.54878
慰	-8.54906
嗣	-8.54961
朝廷	-8.55074
子孫	-8.55175
僧	-8.55234
智	-8.55512
輔	-8.55641
讀書	-8.55728
春秋	-8.55818
投	-8.55861
羽	-8.5602
墨	-8.56117
途	-8.56242
船	-8.56436
今日	-8.56476
骨	-8.56565
莊	-8.56649
之意	-8.5665
短	-8.56709
患	-8.56731
衡	-8.56868
根	-8.56895
㡬	-8.5704
察	-8.57566
之士	-8.58223
權	-8.58334
督	-8.58627
辱	-8.58646
辨	-8.58798
娶	-8.58799
懼	-8.58988
不為	-8.59072
畏	-8.59097
否	-8.59109
麗	-8.5913
允	-8.59196
傾	-8.59198
堅	-8.59399
縱	-8.59433
何以	-8.59598
編	-8.60138
馳	-8.60197
招	-8.60217
騎	-8.60329
三年	-8.60382
絲	-8.60424
古人	-8.60453
茍	-8.60504
彦	-8.60821
府君	-8.60981
峰	-8.61018
慈	-8.61022
妙	-8.61061
鼎	-8.61117
境	-8.61215
量	-8.61615
淵	-8.61625
覆	-8.61629
申	-8.61786
豐	-8.61949
㫖	-8.61969
錦	-8.6213
擇	-8.62193
也夫	-8.62438
豪	-8.62438
一時	-8.62635
盤	-8.62728
舞	-8.62761
納	-8.62782
己	-8.62829
牛	-8.62842
禄	-8.62863
之道	-8.62985
助	-8.63037
勉	-8.63144
不及	-8.63381
支	-8.63514
管	-8.63614
遥	-8.63898
的	-8.64259
栁	-8.64361
專	-8.64548
甘	-8.64577
天下之	-8.64584
諸生	-8.6476
躬	-8.64816
廬	-8.64964
謁	-8.6502
擢	-8.65143
殆	-8.6526
席	-8.65331
父母	-8.65381
碑	-8.6545
格	-8.65572
鳳	-8.65604
靡	-8.65683
費	-8.65692
刑	-8.6571
寓	-8.65874
耕	-8.65901
升	-8.66218
陶	-8.6625
珠	-8.66315
遲	-8.66317
鍾	-8.66484
甲	-8.66486
爭	-8.66509
嗟	-8.6655
律	-8.66642
韓	-8.66877
乘	-8.66896
釋	-8.66905
駕	-8.66936
困	-8.66941
干	-8.66992
京師	-8.67022
奪	-8.6706
菴	-8.67087
肅	-8.67266
卧	-8.6732
鮮	-8.67826
寵	-8.67907
痛	-8.68031
歡	-8.68279
匪	-8.68333
洪	-8.68354
庸	-8.68356
平生	-8.68533
南京	-8.68747
丁	-8.68808
之後	-8.69016
聊	-8.69023
怨	-8.69164
監	-8.6937
鳯	-8.69399
佛	-8.69713
配	-8.69885
歎	-8.70004
篤	-8.70023
二首	-8.70051
畧	-8.70093
井	-8.70122
畢	-8.70259
未嘗	-8.70364
奚	-8.70618
徑	-8.70877
例	-8.70956
僅	-8.70978
文章	-8.71029
十年	-8.71098
奮	-8.71171
傍	-8.71288
聴	-8.71291
瑞	-8.71484
於此	-8.71513
想	-8.71614
蕭	-8.71625
孔子	-8.71689
怒	-8.71725
鼓	-8.71922
介	-8.71927
繫	-8.72066
諱	-8.72154
厯	-8.72186
當時	-8.72371
桂	-8.72407
害	-8.72451
館	-8.72529
含	-8.72782
學者	-8.72959
缺	-8.73206
鴻	-8.73341
不以	-8.73473
徙	-8.73512
陞	-8.73684
錫	-8.73713
眼	-8.73775
假	-8.73803
險	-8.73815
寡	-8.73839
左右	-8.7391
疎	-8.73915
繁	-8.73942
不見	-8.73949
了	-8.74024
完	-8.74032
索	-8.74113
毛	-8.74142
煙	-8.74166
蜀	-8.74183
撰	-8.74262
淚	-8.74301
荷	-8.74464
貢	-8.7451
宅	-8.7457
有司	-8.74586
歳	-8.74616
嶺	-8.74756
瞻	-8.7498
白雲	-8.75284
䇿	-8.75289
藉	-8.75412
農	-8.75588
攻	-8.7563
署	-8.75797
虛	-8.75867
步	-8.75907
茂	-8.75935
徵	-8.76008
祝	-8.76142
䝉	-8.76378
頌	-8.76397
一人	-8.76476
閩	-8.76483
丈	-8.7654
可謂	-8.76543
院	-8.76781
歟	-8.7706
足下	-8.77096
條	-8.7726
裁	-8.7752
琴	-8.77933
爵	-8.77995
其人	-8.78033
其子	-8.7828
房	-8.7844
掌	-8.78602
偉	-8.78633
亦有	-8.78759
藩	-8.78905
烈	-8.78998
必有	-8.79018
哭	-8.79159
敏	-8.79206
縁	-8.79325
射	-8.79526
赤	-8.79839
唯	-8.79966
味	-8.80099
詠	-8.80116
賀	-8.80125
敗	-8.8018
輩	-8.80565
盈	-8.80617
賔	-8.80629
覽	-8.80674
借	-8.80886
俊	-8.81107
續	-8.812
者皆	-8.81252
牧	-8.81304
沒	-8.81398
魏	-8.81436
純	-8.81457
統	-8.81465
屈	-8.81524
享	-8.81538
底	-8.81643
漫	-8.81664
燈	-8.81738
舎	-8.8182
迹	-8.81866
忍	-8.81917
倫	-8.82012
户	-8.82013
其事	-8.82189
頻	-8.82339
扶	-8.82512
會	-8.82799
角	-8.82808
品	-8.82833
校	-8.83064
符	-8.83163
淮	-8.83193
煩	-8.83402
㳺	-8.83437
掩	-8.83549
杜	-8.83857
環	-8.83865
相與	-8.8411
肆	-8.8419
獄	-8.84226
斗	-8.84546
宇	-8.84654
尚書	-8.84673
悟	-8.84677
君之	-8.84719
米	-8.8496
旌	-8.85063
壁	-8.85203
弱	-8.85279
消	-8.85316
啓	-8.85341
剛	-8.85384
該	-8.85498
浪	-8.85562
産	-8.85588
奔	-8.85746
狂	-8.85857
鴈	-8.85983
齒	-8.86154
趣	-8.86235
淺	-8.86334
寫	-8.864
班	-8.86532
百年	-8.86536
社	-8.86602
毎	-8.86808
未有	-8.86974
禍	-8.86981
誤	-8.87055
參	-8.87056
勇	-8.87182
優	-8.87196
童	-8.87388
也其	-8.87399
翻	-8.87561
也今	-8.87602
者乎	-8.87805
熟	-8.87862
之言	-8.87934
逹	-8.88015
託	-8.88157
供	-8.88303
旣	-8.88353
卜	-8.88359
擊	-8.88497
郊	-8.88516
吹	-8.88537
故人	-8.88611
以爲	-8.88628
吏部	-8.8871
停	-8.88884
何處	-8.88895
震	-8.89039
阿	-8.89048
其後	-8.89213
靖	-8.89274
之學	-8.89406
循	-8.89421
謙	-8.89513
也故	-8.89579
覩	-8.89645
執事	-8.89735
激	-8.89878
也而	-8.89923
植	-8.8997
糧	-8.90063
襲	-8.90134
寜	-8.9019
財	-8.90439
増	-8.90509
卷	-8.90629
卑	-8.908
是以	-8.9086
屏	-8.90915
言之	-8.90951
迷	-8.9096
侵	-8.91036
均	-8.91157
審	-8.91254
邉	-8.91369
階	-8.91491
妻	-8.91539
翼	-8.91801
至今	-8.91955
凌	-8.91958
逆	-8.92111
晨	-8.92158
讓	-8.92225
泣	-8.92259
欽	-8.92311
日月	-8.9239
輙	-8.92537
譽	-8.92566
尺	-8.92574
宦	-8.92582
霞	-8.92593
績	-8.92706
返	-8.93149
防	-8.93475
荆	-8.93517
藝	-8.93605
争	-8.94152
者亦	-8.94197
窺	-8.94386
際	-8.9447
旁	-8.94694
世之	-8.94771
究	-8.94825
宴	-8.94825
如何	-8.94872
宻	-8.94932
國家	-8.94996
無不	-8.95131
然而	-8.95306
後世	-8.95397
四方	-8.95579
嘆	-8.95782
背	-8.95837
旅	-8.95879
厭	-8.9592
山中	-8.96143
彌	-8.96193
泥	-8.96269
戚	-8.96367
風雨	-8.96399
犯	-8.96409
知其	-8.96418
式	-8.96511
術	-8.96547
厲	-8.96552
凝	-8.96626
戴	-8.96635
㸔	-8.96748
注	-8.96775
人也	-8.96928
乾	-8.96937
映	-8.97151
謂之	-8.97207
曠	-8.97217
呈	-8.97395
快	-8.97473
青山	-8.97579
旋	-8.97579
學士	-8.97658
十二	-8.9803
洲	-8.98181
禪	-8.98282
規	-8.9833
黙	-8.98342
潮	-8.98521
岳	-8.9854
鸞	-8.98603
尹	-8.98636
輝	-8.98698
曷	-8.98823
人心	-8.98861
輿	-8.99045
豈不	-8.99146
古今	-8.99151
巨	-8.9919
辰	-8.99259
側	-8.99301
凉	-8.99396
三月	-8.99527
其心	-8.99537
紛	-8.99605
育	-8.99806
没	-8.99986
劍	-9.00003
嘉靖	-9.00012
之曰	-9.00035
冷	-9.00172
掃	-9.00177
菊	-9.0026
春風	-9.00268
住	-9.00276
沉	-9.00303
賈	-9.00309
拂	-9.00319
滅	-9.00437
有餘	-9.00758
超	-9.00943
契	-9.01055
苟	-9.01076
酬	-9.01089
瓊	-9.01191
披	-9.01204
皇上	-9.01224
司馬	-9.01336
何如	-9.0134
妄	-9.0159
預	-9.01699
舒	-9.01741
遠	-9.01777
晦	-9.01854
潤	-9.01874
踰	-9.01903
粟	-9.02017
叙	-9.0214
觴	-9.02232
遽	-9.02471
伐	-9.02632
泰	-9.02653
山水	-9.02913
托	-9.02962
幼	-9.03006
弊	-9.03083
明年	-9.03397
蕩	-9.03442
警	-9.03453
秉	-9.03518
髪	-9.03688
驛	-9.0374
之事	-9.03819
之地	-9.03992
莫不	-9.04066
决	-9.04105
江南	-9.04291
然後	-9.04489
江西	-9.04526
雷	-9.04682
以來	-9.04717
之功	-9.0478
擁	-9.04824
旦	-9.04863
塘	-9.04971
岡	-9.05038
怪	-9.0507
辟	-9.05075
䘮	-9.05149
漁	-9.05215
淳	-9.05287
提	-9.05338
肯	-9.05382
洗	-9.05396
上下	-9.05412
巢	-9.05722
丞	-9.05875
革	-9.05889
把	-9.06257
渠	-9.06431
築	-9.06435
副	-9.0652
不復	-9.06595
巧	-9.06632
展	-9.0685
津	-9.06969
渾	-9.07075
係	-9.0722
速	-9.07324
伊	-9.07327
暫	-9.07552
將軍	-9.07566
渡	-9.07749
賴	-9.07808
逮	-9.07823
陛下	-9.0804
黨	-9.08154
朔	-9.08201
棲	-9.08249
殷	-9.08269
崖	-9.08399
舜	-9.08498
鄙	-9.08744
晝	-9.08897
岸	-9.08954
蒙	-9.09087
不然	-9.09118
俯	-9.09143
其家	-9.09186
競	-9.09298
吐	-9.09389
潔	-9.09403
而無	-9.09413
偕	-9.09742
七十	-9.09989
饒	-9.09993
啟	-9.10083
洪武	-9.10201
血	-9.10516
貫	-9.10569
印	-9.10607
束	-9.10638
鄰	-9.10644
亦不	-9.10662
人間	-9.10677
遭	-9.10693
玩	-9.10761
得其	-9.10814
枕	-9.10886
其二	-9.11007
昏	-9.11126
奸	-9.11133
禹	-9.11173
以自	-9.11324
救	-9.11442
太守	-9.11572
先生之	-9.11638
矣而	-9.1177
羊	-9.11848
帖	-9.11851
驅	-9.11858
其言	-9.11868
之為	-9.11913
買	-9.11949
付	-9.12006
酌	-9.1202
佩	-9.12304
貪	-9.12441
倍	-9.12552
歩	-9.12628
逝	-9.12628
眠	-9.12686
艱	-9.12723
杖	-9.12731
之義	-9.12733
亟	-9.12914
阻	-9.12923
桑	-9.1311
勲	-9.13235
蔡	-9.13237
吕	-9.13258
蔽	-9.13413
輸	-9.13539
占	-9.13586
俟	-9.13726
明月	-9.13777
如是	-9.13798
陰	-9.13848
戎	-9.13882
饑	-9.13921
不肖	-9.13924
秩	-9.14082
柔	-9.14189
董	-9.14239
浦	-9.14277
茅	-9.14314
苑	-9.14329
不忍	-9.14452
宰	-9.14528
迴	-9.14645
勵	-9.14979
鹽	-9.15
氷	-9.15025
暴	-9.15151
大臣	-9.15326
敎	-9.15495
鏡	-9.15522
千載	-9.15554
遵	-9.15582
魂	-9.15658
其間	-9.15718
援	-9.15789
他日	-9.15877
出於	-9.15899
其志	-9.16143
敦	-9.16288
拙	-9.16429
淑	-9.16554
盧	-9.1666
值	-9.16686
澗	-9.16795
錯	-9.16945
山川	-9.16948
抵	-9.17005
飾	-9.17007
誅	-9.17072
垣	-9.17074
鬼	-9.17146
稿	-9.17181
㸃	-9.17291
汪	-9.17326
啼	-9.17433
以是	-9.17572
不同	-9.17625
自是	-9.17693
那	-9.17725
不勝	-9.17805
損	-9.17888
盜	-9.18096
忌	-9.18216
也然	-9.18303
筵	-9.18476
繞	-9.18533
暗	-9.18658
儲	-9.18695
低	-9.18817
敷	-9.18872
珍	-9.18878
漏	-9.1891
練	-9.19146
之人	-9.19147
騰	-9.19273
貌	-9.19374
者其	-9.19435
斜	-9.19526
贊	-9.19571
翰	-9.19633
皇帝	-9.19677
欺	-9.19713
基	-9.19779
范	-9.19869
燭	-9.19921
稽	-9.19991
緩	-9.20041
不必	-9.20259
成化	-9.20579
澄	-9.20612
炎	-9.20708
其身	-9.20715
傅	-9.2076
地方	-9.20797
不過	-9.20862
陋	-9.20863
東南	-9.21037
稀	-9.21069
爰	-9.21096
枯	-9.21135
探	-9.21279
肉	-9.21305
者必	-9.21452
之外	-9.21551
釣	-9.21594
欽定四庫全書	-9.21916
嶽	-9.21919
父子	-9.2192
翔	-9.22049
䟽	-9.22062
朕	-9.22101
湯	-9.22123
然則	-9.22146
泛	-9.2221
有以	-9.22213
罔	-9.22259
襟	-9.22296
宏	-9.22316
亷	-9.22396
宵	-9.22413
之盛	-9.22415
古之	-9.22428
寂	-9.22583
夫子	-9.22678
午	-9.22755
洛	-9.22764
子弟	-9.2279
蓬	-9.22839
悔	-9.22864
竭	-9.23056
往往	-9.23209
滋	-9.23246
澹	-9.23314
雞	-9.23402
叅	-9.23404
銘曰	-9.23512
逃	-9.23534
錄	-9.23597
麟	-9.2364
眉	-9.23705
諫	-9.23731
𢎞	-9.23733
寸	-9.23765
之際	-9.24143
六十	-9.24153
暇	-9.24161
囘	-9.24182
倦	-9.24238
頃	-9.24323
寢	-9.24481
輪	-9.24596
鐘	-9.24626
催	-9.24644
翰林	-9.24708
不如	-9.24741
塟	-9.24814
響	-9.24893
之所以	-9.24921
彭	-9.25112
長安	-9.2525
斥	-9.25255
霧	-9.25385
賛	-9.25429
二十	-9.25478
倒	-9.25527
奠	-9.2559
今年	-9.25614
劇	-9.25632
眀	-9.25658
脱	-9.25796
緒	-9.25906
貽	-9.26
其中	-9.26071
馮	-9.26213
況	-9.26253
強	-9.2631
士大夫	-9.26401
巡	-9.26456
恃	-9.2654
恤	-9.26568
奇	-9.26644
不可以	-9.26704
略	-9.27155
聖賢	-9.27357
較	-9.27378
圍	-9.27497
閑	-9.27516
紙	-9.27598
帥	-9.276
密	-9.27696
乎其	-9.27911
未能	-9.27958
不佞	-9.28065
不足以	-9.28075
蓮	-9.28109
戸	-9.28228
誣	-9.28232
圗	-9.28266
驗	-9.2833
圓	-9.28389
課	-9.28402
綺	-9.28457
淡	-9.28493
昧	-9.28526
挾	-9.28591
𦵏	-9.28619
之時	-9.28675
屯	-9.28855
策	-9.28923
壇	-9.28954
見其	-9.28955
叢	-9.29128
倉	-9.29283
藻	-9.29297
刀	-9.29332
餉	-9.2953
奈何	-9.29536
四十	-9.29552
爽	-9.29562
秋風	-9.29683
后	-9.29743
永樂	-9.29888
隣	-9.29892
查	-9.29936
鬱	-9.29974
遐	-9.30035
曰此	-9.30117
庶幾	-9.30119
冀	-9.30156
穆	-9.3016
兆	-9.30164
座	-9.30171
諸公	-9.30171
之志	-9.30358
吴	-9.30465
河南	-9.30559
柳	-9.30567
禮部	-9.30763
潭	-9.3106
袁	-9.31099
若是	-9.31133
孟子	-9.31158
六月	-9.31176
富貴	-9.31261
得之	-9.31316
壺	-9.31359
賤	-9.31446
風吹	-9.31456
杯	-9.31804
紹	-9.31914
飄	-9.31973
者非	-9.32032
民之	-9.32055
濕	-9.32127
聞之	-9.32139
像	-9.3214
郎中	-9.32211
揮	-9.32218
而又	-9.32401
檄	-9.32482
白日	-9.32646
弟子	-9.32684
裕	-9.32685
中丞	-9.32702
知之	-9.32786
踈	-9.32809
朱子	-9.32851
彰	-9.32873
亨	-9.32879
璧	-9.32915
樵	-9.33029
茶	-9.33041
敝	-9.33054
二月	-9.33161
額	-9.33303
禽	-9.33345
寶	-9.33362
飯	-9.33374
太平	-9.33379
訟	-9.33419
耀	-9.33425
蒲	-9.33573
千古	-9.33646
併	-9.33665
案	-9.33695
毁	-9.33967
亮	-9.33972
詩書	-9.34138
乾坤	-9.34259
褒	-9.34389
區區	-9.34406
三十	-9.34456
塗	-9.34468
決	-9.34993
矜	-9.35053
蚤	-9.35077
傑	-9.35101
惑	-9.35165
衍	-9.35179
人皆	-9.35213
内外	-9.35217
伸	-9.35225
若干	-9.35233
黃	-9.35504
不盡	-9.35508
勒	-9.35679
冊	-9.35721
頓	-9.35735
二子	-9.35739
者矣	-9.35757
界	-9.35863
襄	-9.35898
潛	-9.35941
尾	-9.35947
誼	-9.36083
詣	-9.36125
咨	-9.36132
矢	-9.36143
子曰	-9.36153
層	-9.36362
墮	-9.36366
閲	-9.36507
朋	-9.3659
不忘	-9.36653
五十	-9.36687
哲	-9.36706
湘	-9.36726
胥	-9.368
卓	-9.36904
䕶	-9.36937
勅	-9.37013
以此	-9.3703
子之	-9.37065
禮樂	-9.37084
憑	-9.3712
於人	-9.3716
潘	-9.37195
無窮	-9.37325
妾	-9.37416
逾	-9.37442
朝夕	-9.37446
安得	-9.37462
暨	-9.37469
壑	-9.37478
儉	-9.37552
四海	-9.37671
桃	-9.37754
捐	-9.37801
冦	-9.37803
周公	-9.37897
暑	-9.37911
羞	-9.37987
整	-9.38154
牽	-9.38192
價	-9.38293
堯	-9.38341
不自	-9.38369
悠悠	-9.38378
簾	-9.38427
態	-9.38545
矣然	-9.38579
一二	-9.38611
昨	-9.38826
小人	-9.38857
涼	-9.38887
二年	-9.39031
而為	-9.39109
出入	-9.39111
攜	-9.3913
繇	-9.39147
鄉人	-9.39232
倡	-9.39299
弄	-9.39372
之不	-9.39389
太史	-9.39393
𢎞治	-9.39496
範	-9.39644
眷	-9.39746
聘	-9.39769
衝	-9.39772
第一	-9.40004
駐	-9.40028
摩	-9.40171
刺	-9.40221
拘	-9.40246
豈非	-9.4028
喻	-9.40298
致仕	-9.40333
祗	-9.40421
峻	-9.40477
又曰	-9.40514
浩	-9.40739
之餘	-9.40796
姿	-9.41053
伍	-9.412
巾	-9.41218
抗	-9.41225
旗	-9.41404
飭	-9.41593
一言	-9.41604
創	-9.41618
削	-9.41644
䖏	-9.41865
徹	-9.41897
雍	-9.41926
標	-9.41938
誇	-9.42002
鑒	-9.42076
焚	-9.42137
黎	-9.42149
衣冠	-9.42168
穿	-9.42208
侍郎	-9.42245
㓜	-9.42344
摧	-9.42359
辦	-9.42411
觸	-9.42414
齡	-9.4243
採	-9.42529
鑑	-9.42692
膺	-9.42733
悦	-9.42827
槩	-9.42909
不在	-9.43011
挽	-9.43057
滯	-9.43118
江湖	-9.43119
諸侯	-9.43325
五月	-9.43402
慚	-9.43448
擾	-9.43557
之日	-9.43578
溺	-9.43663
潜	-9.4367
腹	-9.43682
融	-9.43786
一旦	-9.43893
鑿	-9.44032
豫	-9.44137
圃	-9.44153
君子之	-9.44256
海内	-9.44278
其先	-9.44279
之中	-9.44353
而有	-9.44368
涉	-9.44514
少年	-9.44616
也吾	-9.44659
八十	-9.44757
長者	-9.44831
次韻	-9.44883
是故	-9.44938
禦	-9.44946
局	-9.45052
芙蓉	-9.45057
㢤	-9.45129
臣等	-9.45134
庵	-9.45202
增	-9.45224
梅花	-9.45237
榖	-9.45242
台	-9.45359
攀	-9.45406
話	-9.45437
揺	-9.45463
衢	-9.45568
弓	-9.45677
健	-9.45699
眞	-9.45718
矧	-9.45806
乏	-9.45857
磨	-9.45891
今之	-9.45907
詎	-9.46047
山東	-9.46069
由是	-9.46078
盗	-9.4612
芝	-9.46141
人生	-9.46156
片	-9.46243
浙	-9.4626
割	-9.46318
不相	-9.46318
辯	-9.46325
戀	-9.46329
綱	-9.46355
溢	-9.46358
闢	-9.46424
無以	-9.46434
夙	-9.46464
髮	-9.46486
蘿	-9.46505
囊	-9.4658
閱	-9.46627
脫	-9.46741
孚	-9.46761
侍御	-9.46806
主事	-9.46874
晏	-9.46912
山人	-9.46915
者則	-9.46957
膏	-9.46957
與之	-9.46962
諸子	-9.47147
疇	-9.47199
遍	-9.47222
猷	-9.47253
戍	-9.47305
飽	-9.47368
八月	-9.47449
邇	-9.47494
柱	-9.47708
恵	-9.4791
鄒	-9.48059
於世	-9.48179
之法	-9.48206
謬	-9.48265
歸來	-9.48272
懿	-9.48309
彩	-9.48413
為人	-9.48421
其地	-9.48479
擅	-9.48504
鹿	-9.48737
鐵	-9.48743
南北	-9.48765
十五	-9.48818
未必	-9.48896
顛	-9.48929
銜	-9.48937
災	-9.4895
其意	-9.48954
皆有	-9.49012
墜	-9.49092
盟	-9.49112
混	-9.49122
迂	-9.49209
草木	-9.49321
黄金	-9.49343
苔	-9.49378
殁	-9.49542
貲	-9.49612
者有	-9.4962
是非	-9.49656
導	-9.49809
誥	-9.49953
姚	-9.50028
者不	-9.50286
懽	-9.50319
之則	-9.50352
道之	-9.505
迫	-9.50523
)(	-9.50531
姦	-9.50601
帆	-9.50621
監察御史	-9.50751
賦詩	-9.50802
斬	-9.50826
泊	-9.50828
攝	-9.50858
纔	-9.50892
使人	-9.509
徽	-9.5095
鬢	-9.51037
醒	-9.51064
蕃	-9.51111
百里	-9.5117
従	-9.51223
之至	-9.51285
臯	-9.5146
添	-9.5162
貳	-9.51639
肥	-9.51736
其父	-9.51787
歛	-9.51898
江上	-9.5196
喬	-9.52017
賓	-9.52107
之上	-9.52124
沾	-9.52284
又有	-9.52309
渚	-9.525
一切	-9.52589
故曰	-9.5266
之故	-9.52742
歐陽	-9.52821
見之	-9.52834
明日	-9.52836
繡	-9.52865
彈	-9.52871
同年	-9.52923
偽	-9.52938
羡	-9.53001
詢	-9.53116
可也	-9.53276
毫	-9.53373
不朽	-9.534
使者	-9.53402
宜人	-9.53435
曰是	-9.53484
銅	-9.53562
播	-9.53642
穴	-9.53654
恥	-9.53722
則有	-9.53785
染	-9.53804
着	-9.53895
腸	-9.53898
其親	-9.54088
金陵	-9.541
塲	-9.54198
怠	-9.54216
郷	-9.54285
侈	-9.54393
鉅	-9.54455
以其	-9.5449
三日	-9.54543
遙	-9.54544
驕	-9.54549
之民	-9.54694
之子	-9.54726
邀	-9.54797
未嘗不	-9.5481
謫	-9.54812
太夫人	-9.5482
悼	-9.5482
秘	-9.54856
龜	-9.55074
嗜	-9.55104
俞	-9.5513
邁	-9.55225
而下	-9.55262
嫌	-9.55303
二人	-9.55376
捕	-9.55411
以示	-9.55445
九月	-9.55498
用之	-9.55631
從容	-9.55839
劒	-9.55859
牙	-9.55907
僚	-9.55979
蹈	-9.5611
壤	-9.56118
矯	-9.56192
茲	-9.56215
蓄	-9.56228
男	-9.56355
枉	-9.56384
閉	-9.56411
不幸	-9.56475
王氏	-9.56551
甞	-9.56826
孝子	-9.56826
戲	-9.56955
梓	-9.5696
属	-9.56994
已而	-9.57159
固有	-9.57167
之文	-9.57218
爛	-9.5725
區	-9.57254
貨	-9.5728
効	-9.57303
桐	-9.5733
耳目	-9.57433
鱗	-9.57455
嫁	-9.57472
雖然	-9.57562
㝠	-9.5757
措	-9.57586
十月	-9.57638
是也	-9.57661
庫	-9.57724
幣	-9.57855
棹	-9.57976
者又	-9.57986
何人	-9.58015
討	-9.58039
徧	-9.58082
嘯	-9.58178
迺	-9.58186
促	-9.58199
憤	-9.58216
不易	-9.58234
製	-9.58257
嵩	-9.58373
之賢	-9.58393
碩	-9.58445
不肯	-9.58492
萬物	-9.58554
堯舜	-9.58588
軰	-9.58598
太學	-9.58619
絃	-9.58682
懋	-9.58723
韶	-9.58823
其名	-9.58888
聖明	-9.58968
諒	-9.58976
攸	-9.59108
銷	-9.59122
群	-9.59146
喧	-9.59258
時時	-9.59283
熊	-9.59327
葛	-9.59333
谿	-9.59501
東西	-9.59572
檢	-9.59579
㫁	-9.59595
蠻	-9.59636
虹	-9.59682
魁	-9.59739
門下	-9.59846
扇	-9.59997
榻	-9.60059
若此	-9.60135
俄	-9.60135
文學	-9.60201
冒	-9.6022
伴	-9.60406
不至	-9.60432
衞	-9.60436
弔	-9.60505
噫	-9.60545
濤	-9.60552
𥘉	-9.60754
父老	-9.60767
随	-9.6078
淪	-9.60782
又何	-9.60804
洽	-9.60836
専	-9.60845
王公	-9.61094
祈	-9.61117
功名	-9.61128
後人	-9.61289
所為	-9.61319
之說	-9.6144
仁義	-9.61486
中有	-9.61543
嚮	-9.61591
倘	-9.61601
隴	-9.61744
咎	-9.61829
文字	-9.61903
熈	-9.62251
隅	-9.62335
繩	-9.62346
相逢	-9.62456
行之	-9.62615
觧	-9.62723
流水	-9.62736
協	-9.62753
織	-9.62863
旱	-9.62892
誓	-9.62904
夾	-9.62966
唱	-9.6306
所得	-9.63249
涵	-9.63299
衷	-9.63346
淫	-9.63354
終身	-9.63356
拱	-9.63372
閭	-9.63491
無事	-9.63531
欵	-9.63583
斂	-9.636
仗	-9.63636
奴	-9.63643
袖	-9.63762
需	-9.63831
毒	-9.63972
頼	-9.63978
其為	-9.63986
公以	-9.63991
湛	-9.64098
亦何	-9.64133
蔵	-9.64409
清風	-9.64455
岐	-9.64493
荅	-9.64501
至是	-9.64507
乍	-9.64687
浮雲	-9.64692
搆	-9.64738
孝友	-9.64781
桃花	-9.6479
析	-9.64891
灑	-9.65024
不獲	-9.65041
湏	-9.65049
勁	-9.65281
簷	-9.65281
飢	-9.65314
海上	-9.65318
恕	-9.6534
墳	-9.65362
弼	-9.65372
猿	-9.65393
暢	-9.65444
紛紛	-9.65444
毅	-9.65503
霄	-9.65595
排	-9.65633
東風	-9.65648
域	-9.65649
則又	-9.65713
評	-9.65779
陟	-9.65787
落日	-9.65825
暖	-9.65937
叩	-9.66042
員	-9.6606
文武	-9.6614
羨	-9.66155
南山	-9.66299
聖人之	-9.66346
及其	-9.66439
邵	-9.66494
不欲	-9.66515
久之	-9.66552
榜	-9.66563
禱	-9.66571
風流	-9.66686
而歸	-9.66956
牀	-9.67061
之説	-9.67213
状	-9.67238
使君	-9.67283
於斯	-9.67346
活	-9.67397
獵	-9.67429
楹	-9.67513
矣夫	-9.67557
謨	-9.67559
霽	-9.67639
𨽻	-9.6772
宛	-9.6786
坡	-9.67947
姪	-9.67956
遼	-9.68069
媚	-9.68106
證	-9.68185
岩	-9.68254
未幾	-9.68262
嗟乎	-9.68324
夭	-9.6838
恬	-9.68403
而能	-9.68408
者以	-9.68489
減	-9.6854
之徒	-9.68542
欣	-9.68548
鞭	-9.68568
廉	-9.6865
風塵	-9.68699
綵	-9.68777
自有	-9.68861
踐	-9.69008
聨	-9.69119
之才	-9.69121
誨	-9.69153
前後	-9.69206
障	-9.69304
既而	-9.69309
萬世	-9.69423
渉	-9.69653
几	-9.6975
忝	-9.69788
不容	-9.69861
陪	-9.69867
暉	-9.69915
兵部	-9.69979
以求	-9.70101
祿	-9.70117
山林	-9.70139
畔	-9.70183
丈夫	-9.70187
不聞	-9.70401
誌	-9.7045
雕	-9.70479
教之	-9.70491
韋	-9.70517
瑶	-9.70529
黒	-9.70549
躍	-9.70595
幹	-9.70703
丞相	-9.70803
限	-9.70823
網	-9.70828
拔	-9.70935
有子	-9.7098
零	-9.71053
四月	-9.71116
五年	-9.7113
叟	-9.71132
什	-9.71136
數年	-9.71276
料	-9.7134
朗	-9.71383
坦	-9.71386
良知	-9.71397
慨	-9.71484
都御史	-9.7151
篆	-9.71527
纎	-9.71533
懇	-9.71535
則其	-9.71536
也又	-9.71538
闈	-9.71562
不待	-9.71572
穀	-9.71587
鄧	-9.71638
遜	-9.71678
千年	-9.71865
正徳	-9.72027
簿	-9.72059
綸	-9.72092
壓	-9.72107
麥	-9.72117
雖有	-9.72161
何所	-9.72397
雀	-9.72497
肇	-9.72503
僻	-9.72551
判	-9.72595
墻	-9.72648
墟	-9.72668
安人	-9.72765
栢	-9.72783
墓誌銘	-9.72809
距	-9.72935
日夜	-9.73125
金華	-9.73159
不堪	-9.73216
終日	-9.73247
蕪	-9.73296
天之	-9.7343
六年	-9.73451
綠	-9.73457
人情	-9.73467
薛	-9.73521
而不知	-9.73558
也予	-9.73574
其所以	-9.7359
正統	-9.73626
蕭蕭	-9.73673
單	-9.73705
廿	-9.73739
疊	-9.73842
自然	-9.73871
挺	-9.73901
樞	-9.74002
二十年	-9.74084
不免	-9.74118
三千	-9.74147
埀	-9.74174
徘徊	-9.74238
所居	-9.74288
國之	-9.74358
鋒	-9.74471
涕	-9.74494
上人	-9.74497
翳	-9.74582
逼	-9.74583
氏之	-9.74717
當年	-9.74814
剪	-9.7485
何時	-9.74902
令人	-9.75039
㢘	-9.75054
七月	-9.75063
幕	-9.75108
知縣	-9.75142
濂	-9.75199
島	-9.75311
十八	-9.75312
誕	-9.75313
裂	-9.75352
不用	-9.7538
往來	-9.75501
豈無	-9.75553
握	-9.7557
久矣	-9.75582
濶	-9.75621
准	-9.75621
賢者	-9.75656
項	-9.75695
熱	-9.75712
疆	-9.75749
各有	-9.7577
寃	-9.75843
主人	-9.75858
得以	-9.75872
廣東	-9.7594
大父	-9.75961
草堂	-9.75984
樽	-9.75991
携	-9.7608
宮	-9.7615
士之	-9.76153
也哉	-9.76197
旬	-9.76268
教授	-9.76331
無人	-9.7634
箇	-9.7645
此心	-9.76511
涯	-9.76624
之情	-9.76746
不與	-9.76759
賣	-9.76763
岑	-9.76783
不出	-9.76785
莽	-9.76827
而不能	-9.76844
沿	-9.76852
熙	-9.76894
行人	-9.76918
詩序	-9.76936
貸	-9.76951
而弗	-9.76996
精神	-9.77012
帳	-9.77217
跋	-9.77265
沐	-9.77267
壊	-9.7737
湖廣	-9.7738
驟	-9.77408
鈞	-9.77417
勑	-9.77427
所至	-9.77457
濫	-9.77547
䟦	-9.77557
羙	-9.77573
籠	-9.77592
陣	-9.77784
緣	-9.77826
匡	-9.77848
畝	-9.7787
未及	-9.78049
踏	-9.78081
以致	-9.78103
廻	-9.78237
指揮	-9.7829
慧	-9.78327
太常	-9.78332
之矣	-9.78381
也則	-9.78489
窓	-9.78513
自古	-9.78522
粉	-9.78532
籌	-9.78642
楓	-9.7871
蹇	-9.78804
戈	-9.78952
不識	-9.78983
君臣	-9.79031
亦可	-9.79096
觀之	-9.79122
千秋	-9.79144
俸	-9.79167
數十	-9.79175
有不	-9.79195
姬	-9.79238
公曰	-9.79331
讀之	-9.79369
傲	-9.79439
庻	-9.79543
相見	-9.79565
裘	-9.79715
是時	-9.79733
袍	-9.79849
天上	-9.79982
捧	-9.80011
巷	-9.80022
槐	-9.80023
浸	-9.80095
九日	-9.80144
互	-9.80252
幻	-9.80278
不知其	-9.80292
先後	-9.80462
綿	-9.80641
溝	-9.80795
這	-9.80837
償	-9.80853
軀	-9.81102
十三	-9.81146
之下	-9.81159
麓	-9.81249
先君	-9.81251
學校	-9.81337
妖	-9.81361
中書	-9.81366
至于	-9.81416
蟲	-9.81555
乖	-9.81631
翩翩	-9.81631
森	-9.81639
駭	-9.81703
粤	-9.81706
也若	-9.81736
稅	-9.81792
汗	-9.81838
朴	-9.81868
綴	-9.81872
西山	-9.81917
偃	-9.81999
恣	-9.82006
進退	-9.82015
做	-9.82022
廵	-9.82049
黜	-9.82057
掠	-9.82083
馭	-9.82193
轍	-9.82212
儒者	-9.82235
千萬	-9.82278
白頭	-9.82323
中外	-9.82386
以下	-9.82457
圭	-9.82482
蹟	-9.82488
千金	-9.82495
慘	-9.82564
之氣	-9.82585
中原	-9.82618
之名	-9.8267
寂寞	-9.82687
輯	-9.82698
沮	-9.827
張氏	-9.82723
凋	-9.82753
冰	-9.82759
陳氏	-9.82777
言者	-9.82856
不少	-9.82902
蒸	-9.8291
漕	-9.8296
弛	-9.83085
杳	-9.83178
畜	-9.83288
睦	-9.83289
十里	-9.8333
書院	-9.83417
青雲	-9.83424
焉而	-9.83583
棘	-9.83626
叛	-9.83718
包	-9.8373
鄉里	-9.83762
無一	-9.8379
未可	-9.83923
淹	-9.84016
者為	-9.84167
亦無	-9.84214
也公	-9.84227
咏	-9.84282
四年	-9.84285
腰	-9.84399
㕘	-9.84439
藴	-9.84503
姻	-9.84516
鶯	-9.84519
慨然	-9.84638
憫	-9.8468
酣	-9.84686
裝	-9.84717
十日	-9.84746
騷	-9.848
之行	-9.84834
汀	-9.85006
三代	-9.85014
裔	-9.85076
眺	-9.85092
迨	-9.85131
天涯	-9.85167
使之	-9.85218
疲	-9.85254
有感	-9.85279
人所	-9.85279
見於	-9.85378
堤	-9.85445
巡撫	-9.85475
一朝	-9.85537
雁	-9.85575
扁舟	-9.85589
柄	-9.85685
濁	-9.85702
戾	-9.85724
百世	-9.85727
所當	-9.85747
竿	-9.85893
槎	-9.859
寅	-9.85909
其才	-9.85913
副使	-9.85965
之類	-9.86021
頂	-9.86041
構	-9.86051
薪	-9.86058
之命	-9.8622
浙江	-9.8627
鬼神	-9.863
大小	-9.8635
正月	-9.8637
刼	-9.86411
柯	-9.86443
天理	-9.8658
回首	-9.86756
天地之	-9.86787
匿	-9.86831
嵗月	-9.86847
恱	-9.86899
故鄉	-9.86932
梧	-9.86948
飬	-9.86956
徼	-9.86962
不是	-9.87004
罰	-9.87007
塔	-9.87018
乎哉	-9.8703
淑人	-9.87161
斯文	-9.87223
三人	-9.87258
二三	-9.87267
其文	-9.87276
屠	-9.87458
掛	-9.87511
諧	-9.87523
隂陽	-9.87536
儼	-9.87562
蔣	-9.87567
㧞	-9.8764
諡	-9.87652
十六	-9.87683
踵	-9.87781
函	-9.87813
有言	-9.87819
肩	-9.8782
茫茫	-9.87825
床	-9.87854
萬古	-9.87945
便是	-9.87949
崔	-9.8799
三十年	-9.88034
其職	-9.88053
風俗	-9.881
山西	-9.88153
者曰	-9.88307
扉	-9.88458
邈	-9.88466
西風	-9.88518
三百	-9.88566
炳	-9.88603
魄	-9.88653
求之	-9.88654
遁	-9.88704
舌	-9.88714
蛇	-9.88751
其餘	-9.88854
次第	-9.88894
躋	-9.88921
鼔	-9.88927
狐	-9.88978
白髪	-9.89008
怡	-9.89018
萃	-9.89082
奥	-9.89137
別	-9.89189
相望	-9.89208
懶	-9.89256
而去	-9.89289
裳	-9.89291
婉	-9.89414
太孺人	-9.89429
以告	-9.89438
餞	-9.89444
人人	-9.89472
矣今	-9.89601
者哉	-9.89638
詭	-9.89654
拒	-9.89725
燒	-9.89842
逕	-9.89883
猶未	-9.9008
之謂	-9.90099
洞庭	-9.90107
栖	-9.90211
而卒	-9.90235
安能	-9.90269
書之	-9.9027
張公	-9.90337
鷗	-9.90351
中國	-9.90406
粹	-9.90409
宸	-9.90452
相思	-9.90508
媿	-9.90509
軌	-9.90605
凢	-9.90643
冲	-9.90658
十四	-9.90663
麻	-9.90664
䏻	-9.90775
棺	-9.90788
隙	-9.9083
耆	-9.90883
縮	-9.90922
一身	-9.90944
不覺	-9.9097
槖	-9.91016
其行	-9.91074
未盡	-9.91078
此日	-9.91079
元年	-9.91128
札	-9.91154
政事	-9.91158
不暇	-9.9129
六經	-9.9132
其能	-9.91324
壘	-9.91459
鈎	-9.91491
與其	-9.91524
者固	-9.91539
矩	-9.91544
逋	-9.9159
銓	-9.91619
忤	-9.9164
頑	-9.91655
百餘	-9.91655
誰能	-9.91678
灌	-9.91682
故事	-9.91841
蹤	-9.91899
只是	-9.91914
突	-9.92119
凍	-9.92168
級	-9.92187
譏	-9.9219
得失	-9.92198
之大	-9.92219
夕陽	-9.92291
瓦	-9.92299
杭	-9.92305
而已矣	-9.92319
之政	-9.92413
囬	-9.92428
逺近	-9.92444
醇	-9.92481
舉進士	-9.92549
臂	-9.92599
税	-9.92661
其道	-9.92672
之難	-9.92724
打	-9.92803
文獻	-9.92912
郡縣	-9.92933
或有	-9.92947
牆	-9.92966
䑓	-9.92973
慷慨	-9.93043
壮	-9.93128
賑	-9.93164
纓	-9.93247
寔	-9.93351
卽	-9.93354
也乃	-9.93432
之罪	-9.93448
煥	-9.93507
劾	-9.93562
先世	-9.936
闌	-9.93652
斑	-9.93775
截	-9.9384
家人	-9.93878
坤	-9.93892
渭	-9.93902
艾	-9.93959
粗	-9.93991
公諱	-9.94004
懲	-9.94059
七年	-9.94162
視之	-9.94176
縉紳	-9.94231
徃徃	-9.94234
勘	-9.9427
樸	-9.94283
當世	-9.94286
匹	-9.94402
百姓	-9.94402
阜	-9.94443
飲食	-9.94545
濬	-9.94587
冝	-9.94599
僉	-9.9462
昔人	-9.94652
頽	-9.94653
刑部	-9.94779
倪	-9.94823
博士	-9.94843
學問	-9.94862
脉	-9.94862
摘	-9.94871
猶有	-9.94979
帷	-9.94989
道路	-9.95046
慙	-9.95091
帙	-9.95098
祐	-9.95145
出處	-9.95195
而巳	-9.95344
蟬	-9.95348
册	-9.95402
教諭	-9.95425
愛之	-9.95477
治之	-9.9551
坊	-9.95529
何必	-9.95592
為文	-9.95617
皆以	-9.9568
鵬	-9.95693
虜	-9.95751
諸君	-9.95776
於其	-9.95877
或曰	-9.95906
牌	-9.95909
美人	-9.9594
於是乎	-9.95955
十二月	-9.95955
駿	-9.95966
同知	-9.9608
侣	-9.96173
户部	-9.9619
技	-9.96226
叨	-9.96232
僉事	-9.96255
苗	-9.96299
自得	-9.96332
盍	-9.96426
腐	-9.96443
數百	-9.96451
聰	-9.96607
之美	-9.96854
芳草	-9.96855
公為	-9.96869
替	-9.969
誘	-9.96964
鷄	-9.96971
不當	-9.97057
莫能	-9.97227
株	-9.97243
憾	-9.97261
蓬萊	-9.97297
以成	-9.97307
李公	-9.97307
陂	-9.97323
膚	-9.97399
牘	-9.97433
從事	-9.97482
捷	-9.975
􁀙	-9.97522
始終	-9.97536
節婦	-9.97553
也余	-9.97554
千餘	-9.9756
桓	-9.97563
閨	-9.97568
斧	-9.97613
不受	-9.97631
勉之	-9.97775
二公	-9.97776
於家	-9.97842
為我	-9.97893
之樂	-9.97923
不失	-9.98052
虧	-9.98113
舘	-9.98178
五色	-9.98263
公子	-9.98294
文集	-9.98313
穹	-9.98358
先是	-9.9837
冩	-9.98468
臥	-9.98472
觀其	-9.98473
沃	-9.98482
巫	-9.98502
故其	-9.9852
金石	-9.98596
壻	-9.98648
無他	-9.98709
埋	-9.98717
意氣	-9.98728
老成	-9.98784
歇	-9.98798
竄	-9.98874
朋友	-9.98905
隘	-9.98972
遂以	-9.98999
不已	-9.99057
帛	-9.99105
福建	-9.99111
咫尺	-9.99138
愆	-9.99153
李氏	-9.99163
濃	-9.99201
萬一	-9.99238
死者	-9.99283
可憐	-9.99418
所見	-9.99437
歎曰	-9.99491
十一	-9.99499
釐	-9.99589
此其	-9.99677
廬陵	-9.99708
頴	-9.99722
其可	-9.99726
奬	-9.99754
乳	-9.9985
募	-9.99861
擒	-10.0005
求其	-10.0008
嬰	-10.0014
絳	-10.0014
工部	-10.0017
不死	-10.0018
諾	-10.0021
藤	-10.0021
妃	-10.003
灰	-10.0038
濵	-10.0044
畆	-10.0051
挂	-10.0052
又以	-10.0053
峽	-10.0062
相繼	-10.0069
至正	-10.0077
繪	-10.0082
頒	-10.0082
至此	-10.0083
郡守	-10.0084
馴	-10.0087
豈有	-10.0102
漳	-10.0105
軸	-10.011
仇	-10.0111
氛	-10.0115
神仙	-10.0119
掲	-10.0122
造化	-10.0122
不負	-10.0123
算	-10.013
笛	-10.0131
蠧	-10.0137
詰	-10.0138
於天	-10.0146
其有	-10.0146
姜	-10.016
仙人	-10.0161
婁	-10.0162
天道	-10.0162
覈	-10.0165
員外郎	-10.017
歿	-10.0177
狼	-10.0181
其母	-10.0187
致其	-10.0192
認	-10.0193
然也	-10.0193
靄	-10.0193
焦	-10.0198
一笑	-10.0199
劉氏	-10.0199
租	-10.0202
派	-10.0203
先人	-10.0234
大抵	-10.0234
板	-10.0236
犬	-10.0238
濡	-10.0246
青天	-10.0252
妍	-10.0256
皮	-10.026
場	-10.026
訓導	-10.0271
當是時	-10.0273
十七	-10.0276
註	-10.0276
鞠	-10.0287
鳬	-10.0288
其實	-10.0292
奔走	-10.0296
亦以	-10.0306
生平	-10.0312
詩曰	-10.0313
北京	-10.0318
確	-10.0321
十餘	-10.0323
猛	-10.0339
収	-10.0342
泰和	-10.0343
揆	-10.0344
月明	-10.0349
它	-10.0354
珮	-10.0368
十一月	-10.0373
忩	-10.0377
尚有	-10.0386
昔者	-10.0391
也是	-10.0394
綏	-10.0406
荘	-10.0409
雖不	-10.0411
系	-10.0415
凶	-10.0416
憚	-10.0418
知府	-10.0423
以至	-10.0423
一百	-10.0425
門人	-10.0434
涇	-10.044
之教	-10.044
一年	-10.0441
有志	-10.0442
廼	-10.0443
山之	-10.0444
於時	-10.0444
何其	-10.0444
以俟	-10.0447
矣其	-10.0457
籬	-10.0458
矣故	-10.0462
䕫	-10.0464
玄	-10.0476
萍	-10.0482
訴	-10.0486
東海	-10.0489
周旋	-10.0499
祖宗	-10.0501
冥	-10.0506
尉	-10.0511
有聲	-10.0522
賁	-10.0522
從之	-10.0533
之遺	-10.0539
洒	-10.0544
江山	-10.0547
芒	-10.0547
為善	-10.0554
於天下	-10.0561
之初	-10.0567
之變	-10.0568
之理	-10.0572
給事	-10.0578
學之	-10.0579
四時	-10.0579
撥	-10.0589
者多	-10.0589
餐	-10.0598
古者	-10.0598
培	-10.0599
一首	-10.0601
友人	-10.0602
君不見	-10.0606
四首	-10.0609
譬	-10.0612
杏	-10.062
有功	-10.0625
所以為	-10.0634
峙	-10.0635
以待	-10.064
吞	-10.064
濯	-10.0643
簮	-10.0648
獸	-10.0649
汲	-10.0658
狎	-10.0661
死生	-10.0663
五日	-10.067
之臣	-10.0672
顔色	-10.0679
淨	-10.069
耗	-10.0691
匠	-10.0695
攬	-10.0706
囚	-10.0706
車馬	-10.0707
人物	-10.0709
東山	-10.0716
人者	-10.0717
控	-10.0718
淸	-10.0722
白首	-10.0723
無復	-10.0727
閫	-10.0729
老人	-10.0729
何日	-10.0732
巴	-10.0741
灘	-10.075
徳之	-10.075
之徳	-10.0758
郡邑	-10.0761
道徳	-10.0765
無恙	-10.0767
不言	-10.0771
社稷	-10.0782
邸	-10.0783
不善	-10.0783
之先	-10.0785
久而	-10.0786
批	-10.0787
漠	-10.0795
滄海	-10.0798
芬	-10.08
行事	-10.0808
汚	-10.081
汎	-10.0814
雨露	-10.0816
邑之	-10.0816
齎	-10.0818
脚	-10.0824
乎此	-10.0825
菜	-10.0826
物之	-10.0827
謂其	-10.0828
慟	-10.0829
忠孝	-10.0835
聖天子	-10.0837
惓惓	-10.0839
㦸	-10.0844
布衣	-10.0853
諸君子	-10.0859
道也	-10.0862
之詩	-10.0869
普	-10.087
憲副	-10.0872
攘	-10.0887
髯	-10.0888
罕	-10.0889
昆	-10.0889
神明	-10.0895
而復	-10.0896
曩	-10.0897
臻	-10.0914
有道	-10.0922
風雲	-10.0923
人有	-10.0924
箴	-10.0926
王子	-10.0928
也雖然	-10.0937
詐	-10.0942
何事	-10.0946
泯	-10.0947
爲之	-10.0947
祚	-10.0949
䕃	-10.0954
朂	-10.0962
文王	-10.0963
膠	-10.0965
靣	-10.0966
雲南	-10.0974
未得	-10.0975
於今	-10.0976
而得	-10.0978
僊	-10.0979
粲	-10.0981
之風	-10.0984
曙	-10.0984
西湖	-10.0991
相對	-10.0991
太祖	-10.0992
夣	-10.0993
其一	-10.1
廓	-10.1013
樊	-10.1015
扁	-10.1021
鄕	-10.1021
等處	-10.1025
之原	-10.1025
窻	-10.1035
爐	-10.1042
掖	-10.1042
九年	-10.1052
孺	-10.1052
蟠	-10.1056
組	-10.1058
遏	-10.1058
苐	-10.106
九重	-10.1064
二百	-10.1068
莆	-10.1068
畵	-10.1072
卦	-10.1078
無可	-10.108
舅	-10.1083
撓	-10.1086
予曰	-10.1098
訊	-10.1102
拾	-10.1104
繼之	-10.1106
其學	-10.111
瑾	-10.1117
未知	-10.1118
膝	-10.1121
甲子	-10.1123
國朝	-10.1126
㓂	-10.1126
倭	-10.1127
汙	-10.1136
搜	-10.1154
去年	-10.1154
太子	-10.1164
沛	-10.1167
與君	-10.1172
天命	-10.1172
電	-10.1177
天台	-10.1177
墓表	-10.1179
衆人	-10.1185
胄	-10.1188
西北	-10.1189
天順	-10.119
悵	-10.1193
窟	-10.1197
闔	-10.1206
有一	-10.1207
弦	-10.1207
鵲	-10.1209
其情	-10.1223
宇宙	-10.1229
與人	-10.123
姓名	-10.1233
不可不	-10.1238
羈	-10.1239
之勝	-10.1241
尸	-10.1243
先生曰	-10.1244
麾	-10.1248
棟	-10.1253
也嗚呼	-10.1263
司徒	-10.1264
他人	-10.1266
夫婦	-10.1273
寨	-10.1274
𤓰	-10.1274
何為	-10.1275
迪	-10.1276
八年	-10.1277
哨	-10.1278
團	-10.1286
者謂	-10.1286
斯人	-10.1289
不成	-10.1293
箕	-10.1294
其三	-10.1295
禮義	-10.1299
所稱	-10.1307
起居	-10.1309
日暮	-10.131
為政	-10.1316
不止	-10.1319
惰	-10.1322
儒學	-10.1326
方伯	-10.1326
吾兄	-10.1329
少卿	-10.1333
牖	-10.1334
子男	-10.1336
冶	-10.1339
三載	-10.1345
葵	-10.1345
驥	-10.1346
逺矣	-10.1346
講學	-10.1349
陜西	-10.136
研	-10.1362
晝夜	-10.1368
題詩	-10.1371
於朝	-10.1372
罹	-10.1374
睡	-10.1377
王君	-10.1378
十載	-10.1379
辛	-10.1388
紳	-10.1392
輟	-10.1393
旦夕	-10.1396
倐	-10.1399
之制	-10.1401
一念	-10.1403
佑	-10.1404
諌	-10.1405
售	-10.1412
戮	-10.1412
人事	-10.1413
禾	-10.1414
以故	-10.1414
變化	-10.1417
庾	-10.142
消息	-10.1425
之作	-10.1426
萌	-10.1426
工夫	-10.1436
春日	-10.1436
禎	-10.1443
訝	-10.1444
桃李	-10.1452
一家	-10.1453
朽	-10.1454
揭	-10.1454
灣	-10.1455
幅	-10.1456
譚	-10.1457
將以	-10.146
俠	-10.1464
䖍	-10.1464
之治	-10.1464
閔	-10.1473
生於	-10.1475
公卿	-10.1485
家居	-10.1488
緘	-10.149
西南	-10.1491
居士	-10.1494
娛	-10.1497
葺	-10.1502
勦	-10.1504
里中	-10.1506
不起	-10.1506
俯仰	-10.1507
凄	-10.1508
者何	-10.151
測	-10.1514
不啻	-10.1516
嬉	-10.1517
减	-10.1521
天性	-10.1527
豁	-10.1528
錢塘	-10.1536
昻	-10.1536
無所不	-10.1539
詩文	-10.154
大江	-10.1541
予言	-10.1545
奈	-10.1546
渺	-10.1551
恠	-10.1555
江水	-10.1557
蔬	-10.1563
蘆	-10.1571
不許	-10.1576
侯之	-10.1577
妻子	-10.1578
司空	-10.1583
時有	-10.1583
城南	-10.159
也此	-10.1596
隋	-10.16
崑山	-10.161
所在	-10.161
鴉	-10.161
簪	-10.1613
十九	-10.1614
腴	-10.1619
盃	-10.1621
給事中	-10.1624
一事	-10.1631
此時	-10.1636
之役	-10.1637
也非	-10.1642
秋色	-10.1644
之論	-10.1644
護	-10.1645
童子	-10.1645
奎	-10.1648
者乃	-10.1649
縈	-10.1651
提學	-10.1652
焉則	-10.1655
陷	-10.1657
訖	-10.1659
謾	-10.1659
滌	-10.1662
畀	-10.1667
惟恐	-10.1672
讐	-10.1676
檻	-10.1678
其民	-10.1678
尋常	-10.1688
望之	-10.169
道中	-10.1691
滴	-10.1695
穢	-10.1698
年年	-10.1701
椒	-10.1713
厓	-10.1724
何也	-10.1736
聰明	-10.1739
之用	-10.1742
尚未	-10.1743
數日	-10.1747
數千	-10.1752
碎	-10.1762
蔚	-10.1766
十餘年	-10.1771
人以	-10.1773
以文	-10.1774
婚	-10.1783
昇	-10.1784
栗	-10.1793
亢	-10.1796
歸省	-10.1807
州縣	-10.1816
者或	-10.1821
括	-10.1821
瑤	-10.1824
覔	-10.1825
文辭	-10.1826
其功	-10.1831
勾	-10.1832
壞	-10.1833
歸去	-10.1836
雉	-10.1837
揖	-10.1839
幸甚	-10.1844
訃	-10.1848
禀	-10.185
搖	-10.1852
尼	-10.1853
庇	-10.1858
歐	-10.1861
至矣	-10.1862
牒	-10.1865
得一	-10.1866
孫女	-10.1873
以禮	-10.1874
然其	-10.1875
嘆曰	-10.1876
茹	-10.1877
纂	-10.188
貯	-10.1886
一方	-10.1887
縱横	-10.1891
赫	-10.1895
惟有	-10.1896
不亦	-10.1898
豪傑	-10.1898
晤	-10.1901
贅	-10.1909
何足	-10.191
是為	-10.1912
故園	-10.1915
有大	-10.1916
廣西	-10.1927
事業	-10.1936
不合	-10.1939
嗟夫	-10.1939
同心	-10.194
未易	-10.1942
隄	-10.1943
若有	-10.1944
不獨	-10.195
袂	-10.1965
之禮	-10.1977
公所	-10.1986
利害	-10.1989
徇	-10.1991
崩	-10.1991
漿	-10.1994
瘦	-10.1995
者豈	-10.1995
于是	-10.1996
蠲	-10.1997
三首	-10.1998
為君	-10.2
汴	-10.2002
祇	-10.2007
不厭	-10.2011
孫男	-10.2011
言曰	-10.2013
抽	-10.2013
非有	-10.202
鞍	-10.2022
填	-10.2025
之私	-10.2027
玉堂	-10.2028
豫章	-10.2029
不宜	-10.2032
慢	-10.2038
先公	-10.2043
卉	-10.2046
鳩	-10.2048
䘏	-10.2049
挹	-10.2055
頥	-10.2059
道士	-10.2059
亦自	-10.2061
吾心	-10.2065
以慰	-10.2065
有序	-10.2066
欲以	-10.2068
侮	-10.207
文公	-10.207
妣	-10.2077
可見	-10.2081
門外	-10.2084
可知	-10.2092
四人	-10.2094
三子	-10.2102
模	-10.2102
言也	-10.2107
世家	-10.2108
䑕	-10.2111
栽	-10.2116
人之所	-10.2119
遶	-10.2119
出門	-10.2122
有成	-10.2123
未至	-10.2125
其本	-10.2126
曽祖	-10.2137
作者	-10.214
因以	-10.2143
之善	-10.2144
無愧	-10.2153
太學生	-10.2156
嵐	-10.2157
若夫	-10.216
以上	-10.2165
潰	-10.2166
鷹	-10.2167
寇	-10.2174
些	-10.2177
牕	-10.2179
虐	-10.2187
夙夜	-10.2188
瑟	-10.2189
多矣	-10.219
輓	-10.2191
之力	-10.2196
敕	-10.2196
烹	-10.2196
睿	-10.2203
復有	-10.2209
不一	-10.2212
大學	-10.2213
洋	-10.2219
之内	-10.223
其在	-10.2232
躡	-10.2238
登臨	-10.2239
奕	-10.2241
布政司	-10.2246
所欲	-10.2255
謗	-10.226
黯	-10.2263
而非	-10.2266
不作	-10.2269
凖	-10.227
庶㡬	-10.227
扣	-10.2275
大義	-10.2286
郁	-10.229
出而	-10.2292
之職	-10.2297
恢	-10.2307
先王	-10.231
黄河	-10.2316
稱其	-10.2318
楊氏	-10.2321
聳	-10.2326
有時	-10.2328
不可得	-10.2329
彛	-10.2335
敘	-10.2349
廩	-10.235
換	-10.2351
失其	-10.2352
醜	-10.2355
陳公	-10.2365
七日	-10.2367
而不可	-10.2373
衙門	-10.2375
成功	-10.2379
一見	-10.2381
絡	-10.2382
瀆	-10.2385
僉憲	-10.2388
自號	-10.2389
儔	-10.2391
從此	-10.2394
暝	-10.2395
之書	-10.2396
阮	-10.2396
之使	-10.2401
鈔	-10.2402
錦衣	-10.2408
在此	-10.241
亞	-10.2416
吾子	-10.2419
雲中	-10.242
禆	-10.2428
溟	-10.2432
榆	-10.2432
汲汲	-10.2436
悖	-10.2439
曾祖	-10.2441
贏	-10.2441
萬年	-10.2443
者歟	-10.2449
弱冠	-10.2461
張君	-10.2461
跨	-10.2462
州府	-10.2464
闊	-10.2471
不顧	-10.2472
筠	-10.2473
雛	-10.2477
冗	-10.2486
復何	-10.2498
勃	-10.2501
綬	-10.2503
人才	-10.2505
春色	-10.2505
以歸	-10.2507
之任	-10.2522
剖	-10.2524
於外	-10.2527
不能無	-10.253
年七十	-10.253
自謂	-10.2531
萬事	-10.2537
骨肉	-10.2538
縷	-10.2541
其鄉	-10.2546
藍	-10.2549
耻	-10.2556
也自	-10.2557
諷	-10.2565
萬厯	-10.257
戯	-10.2573
篋	-10.2584
元氣	-10.259
焉其	-10.2594
埃	-10.2596
粧	-10.2597
吁	-10.2599
則曰	-10.2599
捲	-10.2599
稚	-10.26
稻	-10.2611
者盖	-10.2614
咽	-10.2615
山下	-10.2618
舟中	-10.2629
鯨	-10.2631
冕	-10.2648
笙	-10.2651
湧	-10.2655
塾	-10.266
有此	-10.2664
蒼蒼	-10.2668
取其	-10.2669
柴	-10.267
貶	-10.2677
也然則	-10.2677
問學	-10.268
逈	-10.268
江東	-10.268
陌	-10.2682
而未	-10.2683
而成	-10.2685
郵	-10.2688
寒暑	-10.2692
妨	-10.2694
鬻	-10.2701
知君	-10.2702
男子	-10.2704
考績	-10.2705
一片	-10.2707
楷	-10.2707
甥	-10.271
琳	-10.2714
不須	-10.2718
為此	-10.2718
之業	-10.2719
慿	-10.2724
喚	-10.273
官軍	-10.2735
國公	-10.2736
歉	-10.2738
隕	-10.2745
存者	-10.2748
将軍	-10.2749
輕重	-10.2752
冐	-10.2761
之資	-10.2765
予嘗	-10.2766
鑄	-10.2771
有二	-10.2771
使其	-10.2771
囂	-10.2775
忠義	-10.2777
乆矣	-10.2783
歆	-10.2787
饋	-10.2789
太師	-10.279
邱	-10.279
蛟	-10.2791
守令	-10.2792
事者	-10.2801
羣臣	-10.2802
為序	-10.2802
數月	-10.2804
生死	-10.2804
薫	-10.2806
巵	-10.2808
必以	-10.2809
不動	-10.281
曰我	-10.2811
恪	-10.2812
退而	-10.2814
賔客	-10.2816
中間	-10.2818
肖	-10.2818
瘁	-10.2819
相知	-10.282
等官	-10.282
彊	-10.2821
殫	-10.2821
所能	-10.2821
安知	-10.2827
年來	-10.2828
記之	-10.2836
而知	-10.2836
屐	-10.2837
簫	-10.2839
鬚	-10.284
龎	-10.2841
蔓	-10.2841
太僕	-10.2859
不逮	-10.2868
贖	-10.2896
於民	-10.29
聼	-10.2902
航	-10.2908
劣	-10.2911
一體	-10.2917
堂記	-10.2924
再拜	-10.2928
無異	-10.2928
一字	-10.2928
奄	-10.2931
以及	-10.2935
㝷	-10.2938
不樂	-10.2945
識之	-10.2948
扵是	-10.2954
相傳	-10.2955
叅政	-10.2955
武王	-10.296
知有	-10.2961
睹	-10.2964
所宜	-10.2965
城中	-10.2969
恍	-10.2971
二日	-10.2977
坎	-10.2982
都憲	-10.2982
分明	-10.2985
鈍	-10.2989
三尺	-10.2991
白雪	-10.3001
鮑	-10.3005
鐡	-10.3014
其他	-10.3021
嵗時	-10.3022
而自	-10.3023
丹青	-10.3036
四明	-10.304
臧	-10.3046
藁	-10.3047
演	-10.3048
而止	-10.3051
浴	-10.3055
别號	-10.3057
不若	-10.3058
鄉試	-10.306
大理	-10.3063
悠	-10.3064
識者	-10.3066
婺	-10.3068
廊	-10.3069
異日	-10.3074
悠然	-10.3075
巒	-10.3077
其時	-10.3077
惻	-10.3095
仲子	-10.3095
梗	-10.31
次適	-10.31
也且	-10.3102
薊	-10.3104
霍	-10.3122
之本	-10.3134
蝶	-10.3135
後先	-10.3136
遮	-10.314
忻	-10.3143
芻	-10.3146
欝	-10.3152
平日	-10.3153
暘	-10.3154
酋	-10.3161
旨	-10.3167
中庸	-10.3167
鐸	-10.3169
性命	-10.3173
滑	-10.3175
寕	-10.3177
不辭	-10.3184
漆	-10.3186
名曰	-10.3186
於後	-10.3186
瑕	-10.3187
霖	-10.3197
蕭條	-10.3209
人亦	-10.3209
㑹稽	-10.3211
瑩	-10.3216
愉	-10.3218
豹	-10.3225
楊公	-10.3226
衮	-10.3229
已矣	-10.3231
以詩	-10.3231
而為之	-10.3231
未敢	-10.3234
偶然	-10.3239
父兄	-10.3252
牲	-10.3252
劉公	-10.3253
生民	-10.3255
于鱗	-10.3255
南昌	-10.3259
娥	-10.3264
九十	-10.3271
悍	-10.3274
于今	-10.328
祔	-10.3283
可乎	-10.3286
湖上	-10.3289
輦	-10.3292
而今	-10.3294
𬒳	-10.3295
皓	-10.3296
寮	-10.3297
科第	-10.3299
俘	-10.3301
不絶	-10.3303
訂	-10.3304
貺	-10.3307
韜	-10.3313
繹	-10.3313
四川	-10.3315
同志	-10.3317
秋水	-10.3326
柬	-10.3332
十五年	-10.3333
脂	-10.3334
欠	-10.3339
都督	-10.3352
乃以	-10.3352
畱	-10.3356
感激	-10.3359
刋	-10.3359
挈	-10.3359
忙	-10.3363
裾	-10.3366
老矣	-10.3373
而行	-10.3374
礪	-10.3381
所著	-10.3382
其子孫	-10.3383
哉夫	-10.3387
隻	-10.3387
於公	-10.339
起家	-10.3391
或以	-10.3391
地下	-10.3396
貝	-10.3397
駒	-10.3401
牢	-10.3403
其下	-10.3407
古之人	-10.3415
鋭	-10.3416
豈可	-10.3419
縛	-10.3422
於上	-10.3422
楮	-10.3423
黑	-10.3424
吾道	-10.3426
可為	-10.3428
龔	-10.3435
何由	-10.3435
吾聞	-10.3451
梵	-10.3461
其徳	-10.3463
知所	-10.3472
予與	-10.3474
宣徳	-10.3477
耄	-10.3478
思之	-10.3487
鑾	-10.3487
不行	-10.3488
衣食	-10.3499
迄	-10.3503
恊	-10.3503
瘠	-10.3505
秪	-10.3507
狗	-10.351
不廢	-10.3512
寘	-10.3516
伏惟	-10.352
弭	-10.3523
霑	-10.3523
穎	-10.3525
陛	-10.3527
萱	-10.3529
於心	-10.3531
之數	-10.3532
戢	-10.3533
世間	-10.3537
架	-10.3539
徂	-10.3539
白石	-10.354
以後	-10.3544
而况	-10.3544
知公	-10.3547
長沙	-10.3548
羮	-10.3552
于朝	-10.3556
粮	-10.3558
也惟	-10.3563
箭	-10.3565
皷	-10.3566
璞	-10.3566
受命	-10.3566
黔	-10.3569
甚矣	-10.357
廪	-10.3573
磯	-10.3573
梯	-10.3584
漲	-10.3586
相率	-10.3586
幾何	-10.3599
取之	-10.36
庚	-10.3602
濓	-10.3603
敢不	-10.3604
逍遥	-10.3605
於道	-10.3609
當其	-10.3609
等因	-10.3615
痕	-10.3616
蘋	-10.3616
廡	-10.3624
靡不	-10.3626
歙	-10.3627
烟霞	-10.3628
乃知	-10.3629
怯	-10.363
恭人	-10.3631
段	-10.3632
而獨	-10.3632
奉命	-10.3634
寐	-10.3634
鼻	-10.3645
弁	-10.3647
縣令	-10.3652
日日	-10.3652
抄	-10.3655
知者	-10.3657
亦非	-10.366
以身	-10.3664
多少	-10.3665
邃	-10.3669
翊	-10.3671
猗	-10.3684
刃	-10.3691
覲	-10.3696
堆	-10.3697
而上	-10.3701
千百	-10.3701
丕	-10.3703
訣	-10.3705
馨	-10.3717
君家	-10.3723
靳	-10.3723
愴	-10.3731
失之	-10.3735
不能自	-10.3735
多病	-10.3738
絮	-10.3744
忠信	-10.3744
偷	-10.3746
㨗	-10.3748
畨	-10.3753
甕	-10.3753
彷彿	-10.3755
猶在	-10.3756
花開	-10.3757
日以	-10.3757
庠	-10.3764
渥	-10.3768
版	-10.3769
此地	-10.3771
名家	-10.3786
世貞	-10.3786
臘	-10.3788
膽	-10.3788
莫如	-10.3789
忿	-10.3791
惆悵	-10.3797
日益	-10.3797
酷	-10.3802
請予	-10.3805
議論	-10.3809
其門	-10.3811
茗	-10.3811
聞其	-10.3814
自愛	-10.3814
吝	-10.3814
不仕	-10.3819
棠	-10.382
堡	-10.3821
經術	-10.3822
公與	-10.3822
其弟	-10.3829
竇	-10.3846
而欲	-10.3847
唐虞	-10.3859
人家	-10.3867
鯉	-10.3867
命之	-10.3868
紆	-10.3868
之典	-10.3868
闡	-10.3869
肝	-10.3869
廵撫	-10.3871
趾	-10.3872
髙祖	-10.3874
一一	-10.3875
陽明	-10.3887
知己	-10.3891
檜	-10.3894
上書	-10.3899
祖母	-10.3906
大人	-10.3907
春雨	-10.3907
得此	-10.3911
臣之	-10.3918
太白	-10.3921
非所	-10.3932
耿	-10.3933
白沙	-10.3933
街	-10.3937
祁	-10.3942
雲山	-10.3946
太宰	-10.3946
本院	-10.3948
妬	-10.3949
廟堂	-10.395
羸	-10.3952
悚	-10.3953
佚	-10.3953
世祖	-10.3954
之恩	-10.3957
景泰	-10.3963
緩急	-10.3978
無有	-10.3981
遂為	-10.3984
如也	-10.3984
之妙	-10.3989
者雖	-10.3993
帝王	-10.3995
溥	-10.3997
終始	-10.3998
其上	-10.4005
閉門	-10.4006
苖	-10.4009
剡	-10.4019
焉者	-10.4023
一代	-10.4026
太極	-10.403
長史	-10.4034
吾母	-10.4035
髙堂	-10.4036
吾友	-10.4043
無遺	-10.4043
為國	-10.4043
所藏	-10.4052
丸	-10.4056
無能	-10.4057
焚香	-10.4064
孝弟	-10.4068
其説	-10.4069
言語	-10.407
依依	-10.407
也於是	-10.4077
異時	-10.4079
剥	-10.408
惇	-10.408
濠	-10.4082
年六十	-10.4088
鉞	-10.4091
裡	-10.4098
婦人	-10.4098
國初	-10.4098
者耶	-10.4104
通判	-10.4105
其不	-10.4106
其四	-10.4107
叶	-10.4108
置之	-10.411
門前	-10.4112
子也	-10.4123
礙	-10.4125
蒼生	-10.4126
北上	-10.4127
堦	-10.4128
伺	-10.4131
膳	-10.414
糾	-10.414
野人	-10.4143
少保	-10.4144
隊	-10.4147
企	-10.4147
江海	-10.4149
稷	-10.4156
磬	-10.4157
不信	-10.4165
傳之	-10.4168
㠶	-10.4168
不問	-10.4169
上有	-10.4173
羲	-10.4173
狹	-10.4173
終不	-10.4179
兎	-10.418
知已	-10.4183
吾父	-10.4184
作詩	-10.4189
豆	-10.4197
一巻	-10.4199
世俗	-10.4205
林下	-10.4205
琢	-10.4208
擲	-10.4215
鬬	-10.4216
新安	-10.4221
吾家	-10.4222
賚	-10.4223
不明	-10.4224
匱	-10.4224
事親	-10.4227
宗族	-10.4227
宗伯	-10.4231
之實	-10.4238
之勢	-10.4244
氓	-10.4246
太宗	-10.4249
件	-10.4251
遘	-10.4251
小子	-10.4253
徃來	-10.4253
有事	-10.4253
世事	-10.4253
妹	-10.4254
詩人	-10.4256
軫	-10.4257
浚	-10.4257
贍	-10.4259
此意	-10.4262
好學	-10.4263
世有	-10.4266
霸	-10.4269
矣此	-10.4272
稼	-10.4276
施行	-10.4277
炙	-10.4277
鵠	-10.428
為大	-10.4285
迥	-10.4286
胸	-10.4289
有三	-10.4291
然亦	-10.4293
落花	-10.4298
千户	-10.4299
空山	-10.43
豈能	-10.4304
陽春	-10.4305
瀾	-10.4308
乎夫	-10.4311
卒於	-10.4319
無間	-10.4327
薇	-10.4331
李君	-10.4332
飲酒	-10.4333
至則	-10.4335
瘴	-10.4335
用心	-10.4345
亘	-10.436
無限	-10.4362
無益	-10.4363
嬌	-10.4365
繕	-10.4367
為詩	-10.4367
予之	-10.4368
賄	-10.4369
姊	-10.4376
參差	-10.4377
十萬	-10.4379
可知矣	-10.4379
人主	-10.4382
閟	-10.4386
為民	-10.4386
跪	-10.4387
茫	-10.4388
其故	-10.4389
辜	-10.439
不得已	-10.4393
巻十	-10.44
云云	-10.4405
大同	-10.441
逞	-10.4414
五人	-10.4415
生子	-10.4417
癡	-10.4418
甸	-10.4422
番	-10.4426
先王之	-10.4432
垢	-10.4433
坑	-10.4438
即位	-10.4439
億	-10.4441
凱	-10.4447
矣予	-10.4448
功成	-10.4449
雲間	-10.4449
蹙	-10.4459
世人	-10.4462
君王	-10.4467
吾之	-10.4468
之世	-10.4471
蒞	-10.4475
兵備	-10.4476
孰不	-10.4476
與子	-10.4476
何敢	-10.448
倣	-10.4486
南宫	-10.4486
之患	-10.4488
長洲	-10.4488
硯	-10.4489
所知	-10.4498
璽書	-10.4501
其詩	-10.4502
楫	-10.4502
瑣	-10.4505
未見	-10.4506
之弊	-10.451
于家	-10.4514
前人	-10.4514
功業	-10.4518
聯	-10.4521
洛陽	-10.4522
淮南	-10.4524
拓	-10.4524
其官	-10.453
矣又	-10.4535
能以	-10.4535
蠶	-10.4541
泮	-10.4544
之責	-10.4547
鳯凰	-10.4552
薰	-10.4553
塢	-10.4553
遯	-10.4554
眩	-10.4556
哉然	-10.4557
諸孫	-10.4557
今人	-10.4559
所自	-10.4563
之㫖	-10.4566
於前	-10.457
經史	-10.4575
欣然	-10.4575
衾	-10.4576
黍	-10.4577
祭酒	-10.4591
楊栁	-10.4591
老子	-10.4594
卓然	-10.4595
蕭然	-10.4596
人言	-10.4601
正德	-10.4605
嗚呼哀哉	-10.4606
庖	-10.4607
余曰	-10.461
惶	-10.461
之計	-10.4616
而民	-10.4619
佞	-10.4621
苛	-10.4621
得人	-10.4624
胡為	-10.4625
欄	-10.4626
柩	-10.4628
族人	-10.463
與夫	-10.4633
未足	-10.4635
平原	-10.4638
著書	-10.4642
對曰	-10.4643
岀	-10.4646
之流	-10.4648
豕	-10.4656
其義	-10.4656
其始	-10.4662
名山	-10.4662
夢中	-10.4662
豈惟	-10.4666
乆之	-10.4667
有竒	-10.467
畿	-10.467
也是故	-10.4671
孔孟	-10.4673
我心	-10.4675
龍門	-10.4676
鋪	-10.4677
以見	-10.4692
譬之	-10.4692
十二年	-10.4693
彤	-10.4702
稱之	-10.4703
以傳	-10.4705
新詩	-10.4708
陜	-10.4709
蟻	-10.4714
五百	-10.4717
官員	-10.4719
惕	-10.473
雋	-10.4734
以報	-10.4734
官府	-10.4739
以相	-10.474
軍民	-10.4741
未㡬	-10.4743
䦨	-10.4749
燦	-10.4751
塊	-10.4752
斯道	-10.4754
顆	-10.4755
道者	-10.4756
覃	-10.4759
劵	-10.4759
師友	-10.4761
之可	-10.4766
貧賤	-10.4769
英雄	-10.4775
不求	-10.4775
鍊	-10.4778
之術	-10.4779
盡心	-10.4781
王孫	-10.4788
脈	-10.4789
郢	-10.4792
宥	-10.4797
其勢	-10.4801
迅	-10.4802
聖主	-10.4802
山色	-10.4804
而求	-10.4804
流俗	-10.4806
上疏	-10.4814
聮	-10.4818
周氏	-10.4819
泗	-10.4819
所及	-10.4819
君以	-10.4827
黄花	-10.4828
珪	-10.4832
噐	-10.4834
籟	-10.4835
寰	-10.4838
虬	-10.4838
各官	-10.4847
人曰	-10.4856
六日	-10.4861
柏	-10.4863
星辰	-10.4865
間有	-10.4869
璋	-10.487
何哉	-10.487
一曲	-10.4872
透	-10.4874
也因	-10.4874
蛟龍	-10.4877
之官	-10.4879
其兄	-10.4884
之道也	-10.4884
用是	-10.4885
蕙	-10.4885
光禄	-10.4888
任之	-10.4892
㓕	-10.4894
則無	-10.4897
緯	-10.4902
三世	-10.4904
繆	-10.4906
之節	-10.4907
而益	-10.4908
莫敢	-10.4908
以備	-10.4911
四百	-10.4914
嘗以	-10.4916
雨中	-10.4919
聞道	-10.492
始知	-10.4923
罄	-10.493
仁者	-10.493
濱	-10.4931
竈	-10.4931
之屬	-10.4933
南歸	-10.4935
煦	-10.4935
陳君	-10.4936
侍講	-10.495
鷺	-10.4954
劄	-10.496
在人	-10.4969
稔	-10.4971
予聞	-10.4972
劑	-10.4972
于時	-10.4975
夫豈	-10.4978
東陽	-10.4981
太安人	-10.4982
鋤	-10.4982
則亦	-10.4984
興起	-10.4984
筭	-10.4986
右軍	-10.4987
渡江	-10.4989
畦	-10.4992
孺子	-10.4992
則必	-10.4993
視其	-10.4993
乙	-10.4995
豈獨	-10.4997
一室	-10.4998
女子	-10.5
耿耿	-10.5004
所載	-10.5004
摹	-10.5008
銳	-10.5011
𦙍	-10.5013
飈	-10.5014
名其	-10.5017
有如	-10.5021
拊	-10.5022
同官	-10.5022
詹	-10.5024
聖賢之	-10.5026
亦未	-10.503
君諱	-10.5035
嫡	-10.5039
道人	-10.5048
白髮	-10.505
饌	-10.5055
沼	-10.5056
四十年	-10.5057
者無	-10.5058
巍	-10.506
大學士	-10.5063
聞而	-10.5065
有意	-10.5074
熾	-10.5074
愽	-10.5075
僣	-10.5075
泄	-10.5075
冺	-10.5075
某某	-10.5078
所作	-10.5078
此身	-10.5083
綽	-10.5084
之利	-10.5088
處之	-10.5089
本於	-10.5096
咲	-10.5096
季子	-10.5097
然自	-10.51
盆	-10.5108
羌	-10.5112
因其	-10.5113
死而	-10.5115
祖諱	-10.5118
纒	-10.5119
明朝	-10.5122
養之	-10.5125
姑蘇	-10.5127
彬	-10.5128
驂	-10.513
明公	-10.5135
或謂	-10.5135
者故	-10.5138
奉聖㫖	-10.5145
握手	-10.5146
其說	-10.515
不得不	-10.515
胸中	-10.5159
八日	-10.5162
洩	-10.5163
仕者	-10.5171
考功	-10.5179
小民	-10.5179
而不敢	-10.5185
足矣	-10.5188
所聞	-10.519
也昔	-10.5191
崑崙	-10.5198
一世	-10.52
上帝	-10.5204
永嘉	-10.5206
赦	-10.5208
貴州	-10.5208
不改	-10.5208
汨	-10.5212
溫	-10.5215
橘	-10.5222
也盖	-10.5223
顔子	-10.5223
滄浪	-10.5224
多士	-10.5224
緝	-10.5226
於乎	-10.5229
菲	-10.5231
以養	-10.5232
緬	-10.5232
與予	-10.5233
瓢	-10.5235
之思	-10.5238
甲申	-10.5241
今古	-10.5247
于此	-10.525
釀	-10.5253
之末	-10.5256
吾邑	-10.5259
曰汝	-10.5259
鎖	-10.5263
明白	-10.5265
勛	-10.5268
劉君	-10.5269
挫	-10.5273
五湖	-10.5275
惟公	-10.5276
承恩	-10.5277
為之記	-10.5279
何能	-10.5281
則為	-10.5281
於學	-10.5282
為記	-10.5282
惟是	-10.5284
守之	-10.5286
之性	-10.5287
知道	-10.5288
誰知	-10.5292
花落	-10.5295
狥	-10.5298
殖	-10.5305
者惟	-10.5309
其生	-10.5312
何有	-10.5314
循吏	-10.5318
迭	-10.5319
盡其	-10.5321
江漢	-10.5321
杞	-10.5323
松栢	-10.5324
也君	-10.5325
不利	-10.5328
渴	-10.533
經筵	-10.533
無疑	-10.5333
詆	-10.5334
山谷	-10.5335
三山	-10.5351
笑曰	-10.5353
驩	-10.5362
少師	-10.537
一枝	-10.5377
種種	-10.5387
彚	-10.5388
山隂	-10.5395
武昌	-10.5396
萊	-10.5406
聞者	-10.5406
忘其	-10.541
歸而	-10.5411
此則	-10.5412
址	-10.5416
戸部	-10.5416
老而	-10.5417
其賢	-10.542
可得	-10.5421
臭	-10.5423
堂上	-10.5435
殺人	-10.5437
縣官	-10.5438
數千里	-10.5441
讒	-10.5442
之所謂	-10.5445
處處	-10.5451
峭	-10.5451
雲霄	-10.5453
䧟	-10.5456
炊	-10.5462
不能盡	-10.547
甌	-10.547
奢	-10.5471
其力	-10.5471
青青	-10.5474
犀	-10.5475
蜂	-10.5476
酸	-10.5476
剿	-10.5484
南陽	-10.5486
公既	-10.5487
城西	-10.5489
在天	-10.5502
遣使	-10.5503
鬭	-10.5503
提督	-10.5515
以死	-10.5515
貴人	-10.5516
焉耳	-10.5516
浄	-10.5518
吁嗟	-10.5519
購	-10.5525
在上	-10.5525
由來	-10.5526
别離	-10.5527
浣	-10.5527
饗	-10.5528
不遇	-10.5534
粥	-10.5535
世道	-10.5535
非其	-10.5537
優游	-10.5538
孔子曰	-10.5545
屬予	-10.5546
始得	-10.5546
而不得	-10.5546
如故	-10.5547
窘	-10.5548
歷	-10.555
不下	-10.555
茅屋	-10.5554
亦可以	-10.5562
諳	-10.5562
幾人	-10.5563
大明	-10.5563
其辭	-10.5563
罵	-10.5575
憶昔	-10.5576
題畫	-10.5576
今日之	-10.558
十四年	-10.558
二十四	-10.558
掇	-10.5582
刪	-10.5586
稍稍	-10.5586
之深	-10.5586
是則	-10.5587
檀	-10.5589
隳	-10.5589
參政	-10.5601
之精	-10.5602
反覆	-10.5605
騁	-10.5607
吳中	-10.561
誰與	-10.5615
之賜	-10.5616
華亭	-10.5617
相去	-10.5617
乎曰	-10.5618
而致	-10.5622
平居	-10.5627
跳	-10.5628
别有	-10.563
也豈	-10.5632
道理	-10.5636
登髙	-10.5644
以義	-10.5647
近世	-10.5647
惟其	-10.5649
詩云	-10.565
揚州	-10.5654
行者	-10.5657
厄	-10.5657
自今	-10.5658
寥寥	-10.5659
未發	-10.5666
虗	-10.5669
於鄉	-10.5671
也先生	-10.5674
屑	-10.5677
墀	-10.5682
四日	-10.5684
載酒	-10.5688
滄洲	-10.5691
編修	-10.5694
士竒	-10.5699
必欲	-10.5702
孽	-10.5703
此非	-10.5706
桞	-10.5707
葩	-10.5707
事君	-10.5708
一毫	-10.5708
國子	-10.5722
遡	-10.5723
两	-10.5724
上官	-10.5726
湖山	-10.5728
居官	-10.573
斯民	-10.5731
有過	-10.5738
程子	-10.574
為學	-10.5741
何可	-10.5745
曳	-10.5748
序之	-10.5752
怙	-10.5755
吉水	-10.5757
岱	-10.5761
煖	-10.5762
縣丞	-10.5763
之體	-10.5764
能為	-10.5768
年五十	-10.577
以濟	-10.577
復以	-10.5772
怕	-10.5774
能知	-10.5775
太宜人	-10.5777
柰何	-10.5788
居之	-10.5789
緇	-10.579
駢	-10.5794
艱難	-10.5794
理之	-10.5795
顓	-10.5795
髙明	-10.5801
兔	-10.5803
北斗	-10.5803
悽	-10.5804
麒麟	-10.5804
之憂	-10.5813
未甞	-10.5813
不逺	-10.5817
夜深	-10.5818
銘銘曰	-10.5819
謳	-10.582
巽	-10.5821
此皆	-10.5821
祉	-10.5822
壬辰	-10.5823
南都	-10.5829
有遺	-10.5831
潦	-10.5833
哉予	-10.5833
不果	-10.5833
云爾	-10.5834
椿	-10.5834
觀者	-10.5834
廖	-10.5838
蹄	-10.5839
朱氏	-10.584
藹	-10.584
東坡	-10.5841
矣乎	-10.5843
臨川	-10.5846
現	-10.5848
亦知	-10.5848
有能	-10.5851
靑	-10.5856
太史公	-10.586
其大	-10.5862
沸	-10.5862
自信	-10.587
之誠	-10.5872
之訓	-10.5873
玉樹	-10.5873
大節	-10.5876
餓	-10.5878
舄	-10.5886
相從	-10.5889
從子	-10.589
殯	-10.5893
公亦	-10.5897
謡	-10.5903
哺	-10.5903
之重	-10.5907
白玉	-10.5908
二者	-10.5909
皎	-10.5912
其族	-10.5915
斯言	-10.592
之望	-10.592
長子	-10.5923
綂	-10.5926
始於	-10.5935
㑹試	-10.5936
日夕	-10.5937
以事	-10.5938
翹	-10.5939
止於	-10.5939
國史	-10.5942
禮部尚書	-10.5944
湮	-10.5945
曜	-10.5945
其氣	-10.5948
東方	-10.5948
感慨	-10.5949
拯	-10.5951
内閣	-10.5951
鳳凰	-10.5958
南海	-10.5958
敞	-10.5958
長歌	-10.5961
餽	-10.5964
之謂也	-10.5966
鄭氏	-10.5966
以行	-10.5966
之仁	-10.5971
一夜	-10.5973
可知也	-10.5973
生而	-10.5978
後之人	-10.598
閏	-10.5982
未有不	-10.5983
真人	-10.5989
嗇	-10.5993
壅	-10.5993
不克	-10.5993
有聞	-10.5995
湍	-10.6
都門	-10.6003
六合	-10.6004
滇	-10.6004
武帝	-10.6005
掣	-10.6006
清明	-10.6009
太原	-10.6009
昨夜	-10.601
琅玕	-10.6012
有可	-10.6014
城郭	-10.6016
莫之	-10.6017
以来	-10.6017
知也	-10.6024
驪	-10.6026
有是	-10.6027
翮	-10.6027
固不	-10.6031
詫	-10.6032
之能	-10.6032
矣公	-10.6035
霄漢	-10.6039
然者	-10.6041
幽人	-10.6042
矣吾	-10.6046
憎	-10.6046
白馬	-10.605
京兆	-10.6054
矣乃	-10.6056
核	-10.606
七言	-10.6062
荀	-10.6062
未免	-10.6066
零落	-10.6088
仲尼	-10.6094
彼此	-10.6095
宰相	-10.6104
五雲	-10.6104
幸而	-10.6109
一夕	-10.6112
日用	-10.6117
昌黎	-10.6119
譁	-10.6119
固已	-10.612
兇	-10.6123
𣲖	-10.6134
陀	-10.6136
鹵	-10.6137
所云	-10.6138
猥	-10.6145
天地間	-10.6145
渙	-10.6148
自昔	-10.6151
而出	-10.6151
某等	-10.6152
中人	-10.6154
之墓	-10.6157
有異	-10.6157
教化	-10.6159
翰墨	-10.6162
不惟	-10.6166
阡	-10.6168
求予	-10.6171
年少	-10.6171
聖學	-10.6174
泉石	-10.6174
油	-10.6175
儻	-10.6176
守備	-10.6176
不妨	-10.618
閒居	-10.6184
異於	-10.6184
厨	-10.6185
諸臣	-10.6186
事也	-10.6186
竟不	-10.6187
名臣	-10.6189
十一年	-10.6195
者咸	-10.6198
啄	-10.6199
前代	-10.6202
在焉	-10.6205
士君子	-10.6206
中流	-10.6207
玊	-10.6215
臆	-10.6218
第二	-10.622
江右	-10.6223
秋日	-10.623
撲	-10.623
翟	-10.6235
殷勤	-10.6237
進而	-10.6239
余言	-10.624
其為人	-10.6244
箋	-10.6246
稜	-10.6246
太行	-10.6247
其居	-10.6253
今上	-10.6255
撤	-10.6264
数	-10.6265
乂	-10.6267
曰某	-10.6268
有光	-10.627
溪上	-10.6271
不到	-10.6276
可與	-10.6276
斛	-10.628
蟾	-10.6284
訾	-10.6296
别後	-10.6296
官兵	-10.6299
皆可	-10.6299
一何	-10.6303
鴻臚	-10.6309
桃源	-10.6311
明道	-10.6311
自知	-10.6314
學宫	-10.6317
羅浮	-10.6319
亦多	-10.632
必先	-10.6323
睢	-10.6324
不倦	-10.6326
旭	-10.633
譲	-10.6337
丙辰	-10.6338
攷	-10.6338
而終	-10.6339
五世	-10.6341
十六年	-10.6343
為一	-10.6345
掾	-10.6351
裴	-10.6353
哉雖然	-10.6356
昂	-10.6361
暎	-10.6362
徐公	-10.6364
山河	-10.6367
之語	-10.6367
秀才	-10.6375
彬彬	-10.6383
哉故	-10.6384
丁未	-10.6384
想見	-10.6385
小兒	-10.6388
目前	-10.6389
娯	-10.6391
擔	-10.6393
超然	-10.6396
手書	-10.6397
教子	-10.6401
藜	-10.6403
無聞	-10.6405
落落	-10.6405
故有	-10.6407
狄	-10.6409
行省	-10.6414
轡	-10.6418
擕	-10.642
明府	-10.6423
而忘	-10.6425
縻	-10.6427
旌旗	-10.6428
盛時	-10.6428
迢迢	-10.643
翅	-10.6434
雲氣	-10.6435
數人	-10.6436
若干巻	-10.6436
闇	-10.6437
不解	-10.6437
刹	-10.6438
弗能	-10.6444
岫	-10.6449
諸人	-10.645
是日	-10.6451
之習	-10.6451
不平	-10.6453
□	-10.6457
而思	-10.646
艶	-10.6461
近日	-10.6466
最後	-10.6467
格物	-10.6468
謚	-10.6468
乎是	-10.647
瞿	-10.647
推官	-10.647
剽	-10.6474
長江	-10.6476
我欲	-10.6482
也耶	-10.6484
無由	-10.6484
物也	-10.6485
經營	-10.6488
禍福	-10.6489
善人	-10.6494
事理	-10.6494
賢才	-10.6496
璫	-10.6499
以言	-10.6502
孫子	-10.6503
帽	-10.6508
敢以	-10.6508
斾	-10.651
樂府	-10.6511
笏	-10.6511
縦	-10.6511
二親	-10.6513
絶句	-10.6515
藪	-10.6515
曰子	-10.6521
夜月	-10.6529
臬	-10.6532
天子之	-10.6532
豈徒	-10.6533
泠	-10.6537
縹緲	-10.6538
名之曰	-10.654
二字	-10.6544
從而	-10.6551
匆匆	-10.6552
在我	-10.6555
笥	-10.6558
有名	-10.6562
浩然	-10.6566
可不	-10.6568
忠臣	-10.6572
侑	-10.6574
不入	-10.658
潢	-10.6585
以明	-10.6585
天下之事	-10.6585
長生	-10.6586
之東	-10.6589
聖恩	-10.6591
譴	-10.6591
繄	-10.6592
然以	-10.6596
浹	-10.6596
蒿	-10.6598
於中	-10.6601
集序	-10.6607
庚戌	-10.6608
赤子	-10.6615
無言	-10.6616
徤	-10.6618
何年	-10.6619
泰山	-10.662
紗	-10.6623
大司馬	-10.6624
呌	-10.6624
也葢	-10.6625
豔	-10.6628
蒼茫	-10.6641
不敢以	-10.6643
也何	-10.6645
葦	-10.6645
覧	-10.6646
芸	-10.6646
豈其	-10.6655
黛	-10.6655
太倉	-10.6658
褐	-10.6659
樓臺	-10.6661
翰林院	-10.6661
嶂	-10.6672
學術	-10.6683
而行之	-10.6683
以疾	-10.6691
渇	-10.6691
訛	-10.6692
且以	-10.6692
天門	-10.6693
轄	-10.6693
按察使	-10.6693
善惡	-10.6695
諸賢	-10.6696
股	-10.6698
不加	-10.6699
液	-10.6701
不愧	-10.6705
事事	-10.6705
胡公	-10.6706
者今	-10.6708
懈	-10.671
駁	-10.671
也已	-10.6711
之㑹	-10.6712
邢	-10.6712
老去	-10.6713
書曰	-10.6714
也必	-10.6719
灼	-10.6721
浩蕩	-10.6721
士夫	-10.6722
逓	-10.6725
北山	-10.6726
者即	-10.6728
城東	-10.6733
醴	-10.6733
未聞	-10.6734
不可勝	-10.6735
叱	-10.6738
然有	-10.6738
其業	-10.6743
夜半	-10.6744
本無	-10.6744
不䏻	-10.6745
塋	-10.6745
究其	-10.6748
人多	-10.6749
鵷	-10.675
義理	-10.6751
丙子	-10.6752
蹶	-10.6754
用兵	-10.6757
天人	-10.676
數十年	-10.6761
公公	-10.6766
還家	-10.6768
太監	-10.6769
屹	-10.6769
請於	-10.6772
孔子之	-10.6772
與余	-10.6775
子與	-10.6775
難矣	-10.6777
以道	-10.6778
洋洋	-10.6784
夫人之	-10.6789
胡不	-10.6789
經綸	-10.679
螺	-10.6795
旄	-10.6796
之交	-10.68
有待	-10.6802
於君	-10.6802
轅	-10.6803
等項	-10.6804
霏	-10.6809
十有二	-10.6811
從來	-10.6811
菽	-10.6814
考其	-10.6818
焉故	-10.682
祠堂	-10.6823
夜雨	-10.6824
者吾	-10.6824
先卒	-10.6824
科目	-10.6826
欹	-10.6826
為天下	-10.6828
不通	-10.6838
篷	-10.6839
為之序	-10.684
上林	-10.6841
净	-10.6842
獨坐	-10.6843
中夜	-10.6844
媒	-10.6844
翕	-10.6846
丙戌	-10.6848
縉	-10.6849
女一	-10.685
百尺	-10.6851
賂	-10.6853
名士	-10.6856
鉛	-10.6857
百萬	-10.6858
迓	-10.686
聖朝	-10.6863
何須	-10.6863
瑛	-10.6864
此豈	-10.6865
斃	-10.6865
詩以	-10.6866
大事	-10.6867
盼	-10.6869
孜孜	-10.6878
卒以	-10.6878
瀕	-10.6878
紹興	-10.6882
後有	-10.6882
不食	-10.6884
慣	-10.689
虎豹	-10.689
豐城	-10.6893
二千	-10.6895
之門	-10.6899
祖父	-10.69
綜	-10.69
笳	-10.6902
氊	-10.6903
善者	-10.6903
孰能	-10.6905
徒以	-10.6906
漢唐	-10.6907
斤	-10.6908
在於	-10.6908
太息	-10.6909
者多矣	-10.6909
○	-10.6914
冉冉	-10.6915
不謂	-10.6916
嶠	-10.6917
之厚	-10.6918
閤	-10.6919
無聲	-10.692
天下後世	-10.6921
先儒	-10.6922
十數	-10.6922
白金	-10.6925
焉夫	-10.6927
竣	-10.6927
倖	-10.6928
人臣	-10.6936
幾時	-10.6936
鞅	-10.6939
燬	-10.6939
監司	-10.6943
乎天	-10.6948
葱	-10.695
綰	-10.6953
拳拳	-10.6954
璉	-10.6956
無子	-10.6957
杜門	-10.6962
有加	-10.6964
所言	-10.6964
仁人	-10.6964
像贊	-10.6965
獨立	-10.6965
里人	-10.6965
嶺南	-10.6966
也臣	-10.6966
和氣	-10.6967
之傳	-10.6967
如此則	-10.6969
扶桑	-10.6969
九州	-10.697
家世	-10.6974
瑄	-10.6976
翫	-10.6981
北風	-10.6981
騖	-10.6983
干戈	-10.6989
出其	-10.7001
世所	-10.7004
瀟湘	-10.7008
看花	-10.7009
衫	-10.7009
故舊	-10.7011
鑰	-10.7016
以奉	-10.7016
其性	-10.7018
滁	-10.7021
春坊	-10.7029
忱	-10.703
裹	-10.703
桑梓	-10.7036
未始	-10.7039
忠厚	-10.704
三四	-10.7042
祖考	-10.7044
該部	-10.7047
之要	-10.7049
十三年	-10.7049
中興	-10.7051
燈火	-10.7062
立言	-10.7065
山房	-10.7066
其徒	-10.7066
猜	-10.7073
授之	-10.7074
春水	-10.7078
魏公	-10.7079
平陽	-10.7086
大道	-10.7087
氣象	-10.7088
草草	-10.7091
耐	-10.7091
博學	-10.7093
橫	-10.7094
沂	-10.7095
癸丑	-10.7096
蘓	-10.7096
上天	-10.7097
淛	-10.7099
吏民	-10.7101
改元	-10.7102
肌	-10.7105
本體	-10.7111
察其	-10.7122
驢	-10.7125
揣	-10.7129
春草	-10.7132
棗	-10.7136
愜	-10.7137
樂也	-10.714
軼	-10.7141
枚	-10.7144
自足	-10.7146
入覲	-10.7147
後來	-10.7147
兒女	-10.7148
煌煌	-10.7154
書來	-10.7155
呵	-10.7156
泝	-10.7157
稍長	-10.716
沽	-10.7165
按察司	-10.7167
在位	-10.7169
學而	-10.717
甲辰	-10.7171
舅姑	-10.7171
人謂	-10.7173
今朝	-10.7184
大矣	-10.7185
不爲	-10.7186
性情	-10.7187
乃今	-10.7188
之費	-10.7193
依然	-10.7197
服闋	-10.7198
臨風	-10.72
剔	-10.7206
元季	-10.7208
無負	-10.7209
少傅	-10.7213
也曰	-10.7213
雌	-10.7215
舂	-10.7216
能盡	-10.7228
藩臬	-10.723
𣺌	-10.723
未嘗有	-10.7231
梢	-10.7233
而言	-10.7237
愼	-10.7237
必得	-10.7238
天風	-10.7238
壙	-10.724
丁丑	-10.7242
亡何	-10.7242
不息	-10.7244
皆得	-10.7249
亭亭	-10.7249
林泉	-10.7251
雖欲	-10.7251
之靈	-10.7259
至其	-10.7259
職方	-10.7259
汾	-10.7261
人知	-10.7263
吾鄉	-10.7264
古文	-10.7266
孔明	-10.7268
然哉	-10.7268
竝	-10.727
先朝	-10.7276
之言曰	-10.7277
篁	-10.7279
非吾	-10.7281
來請	-10.7281
只今	-10.7282
而莫	-10.7283
装	-10.7284
癖	-10.7285
安之	-10.7288
僖	-10.729
戊辰	-10.7293
武夷	-10.7295
之榮	-10.7299
封君	-10.7305
夢寐	-10.7308
雲霞	-10.7308
無疆	-10.7308
河東	-10.7313
甘泉	-10.7314
相看	-10.7315
踞	-10.7316
撼	-10.7318
通政	-10.7319
傷心	-10.732
以教	-10.7321
中秋	-10.7323
糜	-10.7323
以聞	-10.7328
乎吾	-10.7332
之南	-10.7333
又云	-10.7335
為主	-10.734
伏乞	-10.7343
禪師	-10.7343
某月某日	-10.7344
侍從	-10.7346
既成	-10.7348
大夫士	-10.7349
不敏	-10.7352
送王	-10.7355
故家	-10.736
艇	-10.7361
學官	-10.7361
年八十	-10.7364
著述	-10.7367
非獨	-10.7369
鄉黨	-10.7373
家有	-10.7374
之好	-10.7379
鰲	-10.7379
能無	-10.738
明時	-10.7381
一語	-10.7381
覬	-10.7385
問之	-10.739
三公	-10.7392
於物	-10.7399
施於	-10.74
杯酒	-10.7404
耽	-10.7409
拍	-10.7409
酉	-10.7414
亦不能	-10.7414
穰	-10.7415
主簿	-10.7415
者衆	-10.7415
能不	-10.7416
訥	-10.7418
人倫	-10.742
嘗聞	-10.7421
何當	-10.7421
古來	-10.7423
所學	-10.7427
衙	-10.7433
昨日	-10.7436
誠有	-10.7437
亦必	-10.7439
張子	-10.744
來者	-10.7444
洎	-10.7448
嗟嗟	-10.745
仆	-10.7452
江左	-10.7452
貴賤	-10.7452
及此	-10.7455
叅議	-10.7456
明徳	-10.7461
太公	-10.7463
何異	-10.7465
必能	-10.7468
抛	-10.7473
㑹同	-10.7476
唐人	-10.7479
舫	-10.748
瞽	-10.7481
徭	-10.7482
或者	-10.7484
竟以	-10.7484
公論	-10.7485
螢	-10.7487
滄	-10.7488
不甚	-10.7493
貂	-10.7493
扈	-10.7497
中天	-10.7499
蒼梧	-10.7499
聲色	-10.7502
矣余	-10.7502
庚辰	-10.7505
在兹	-10.7509
贓	-10.751
一章	-10.751
也况	-10.7511
宗社	-10.7511
不知所	-10.7515
不衰	-10.7519
江陵	-10.7519
甲戌	-10.7524
者莫不	-10.7527
恰	-10.7528
為誰	-10.7528
之福	-10.7542
偃蹇	-10.7544
僮	-10.7544
烝	-10.7548
下有	-10.7548
爲人	-10.7549
見寄	-10.755
松江	-10.7551
以正	-10.7553
春來	-10.7554
之所為	-10.7555
寂寥	-10.7555
請銘	-10.7559
安可	-10.7559
豎	-10.7562
吏部尚書	-10.7563
總督	-10.7564
桀	-10.7565
月色	-10.7568
浮屠	-10.7573
命也	-10.7573
手足	-10.7573
髦	-10.7581
太淑人	-10.7582
吾儒	-10.7584
吾所	-10.759
翕然	-10.7595
之師	-10.7595
他年	-10.7597
猶可	-10.7597
様	-10.7606
家事	-10.7607
相如	-10.7607
匣	-10.7609
潁	-10.7612
無非	-10.7617
以安	-10.7621
門户	-10.7621
國家之	-10.7621
九江	-10.7622
與世	-10.7624
鏗	-10.7627
人君	-10.763
之暇	-10.7631
歌舞	-10.7632
騐	-10.7634
孰與	-10.7636
之請	-10.7637
庚子	-10.7639
衣裳	-10.7641
奉使	-10.7642
椽	-10.7644
邂逅	-10.7644
有年	-10.7644
而吾	-10.7646
辭曰	-10.7649
親戚	-10.7651
簿書	-10.7654
一時之	-10.7659
之禍	-10.766
數萬	-10.766
安在	-10.7661
漂	-10.7662
翛然	-10.7662
談笑	-10.7664
於兹	-10.7665
釁	-10.7667
辛丑	-10.7667
嵗寒	-10.7669
縣知縣	-10.7669
斜陽	-10.7671
者葢	-10.7675
昔之	-10.7675
盛矣	-10.7675
烽	-10.7676
之孫	-10.7678
療	-10.7679
誚	-10.768
存乎	-10.7684
自立	-10.7684
南國	-10.7686
𣣔	-10.7687
窈窕	-10.7689
雖未	-10.769
余嘗	-10.7691
則是	-10.7694
左侍郎	-10.7697
蘭亭	-10.7703
本部	-10.7703
樗	-10.7707
古人之	-10.7708
事功	-10.7708
能言	-10.7709
騫	-10.7711
將來	-10.7711
尚可	-10.7714
滕	-10.7714
戊戌	-10.7715
追封	-10.7719
榛	-10.7724
賞罰	-10.7724
今為	-10.7725
别駕	-10.7731
少時	-10.7732
秦漢	-10.7732
不可無	-10.7732
落葉	-10.7732
柴門	-10.7732
無極	-10.7733
即事	-10.7734
自為	-10.7736
都察院	-10.7737
猾	-10.7737
閭里	-10.774
兵部尚書	-10.774
表裏	-10.7742
悵望	-10.7743
瓜	-10.7745
圖書	-10.7746
異端	-10.7752
於我	-10.7755
化為	-10.7758
後學	-10.7761
須臾	-10.7761
捨	-10.7764
蓮花	-10.7774
同時	-10.7774
殞	-10.7777
沖	-10.7778
囿	-10.778
好古	-10.7781
也彼	-10.7782
丁酉	-10.7783
之良	-10.7783
丙午	-10.7785
周禮	-10.7785
時事	-10.779
波濤	-10.7791
頃刻	-10.7793
之表	-10.7793
鏘	-10.7793
弧	-10.7794
堵	-10.7794
槁	-10.7795
夸	-10.7795
㤀	-10.7797
㤗	-10.78
黄氏	-10.7801
矣雖然	-10.7804
珊瑚	-10.7807
古道	-10.7812
不意	-10.7813
不以為	-10.7814
異之	-10.7814
贑	-10.7815
小大	-10.7816
未成	-10.7817
加以	-10.7817
周之	-10.7819
無足	-10.7819
古之君子	-10.782
晋	-10.7822
疫	-10.7822
極其	-10.7824
安於	-10.7824
唐宋	-10.7825
賦此	-10.7826
墓在	-10.7827
而天下	-10.7828
榭	-10.7829
君為	-10.7829
郤	-10.783
不違	-10.783
官吏	-10.7832
扼	-10.7833
又能	-10.7841
佇	-10.7842
故也	-10.7845
聖人之道	-10.7845
閣下	-10.7845
天官	-10.7846
歲月	-10.7847
壠	-10.7848
以進	-10.7849
當道	-10.7849
其私	-10.785
椎	-10.7851
閭閻	-10.7851
之始	-10.7854
其友	-10.7856
受其	-10.786
帑	-10.7867
歸田	-10.7867
愕	-10.7868
其次	-10.787
明主	-10.787
先師	-10.787
為樂	-10.787
懌	-10.7871
大用	-10.7871
公生	-10.7872
颯	-10.7875
武功	-10.788
心事	-10.7882
不離	-10.7882
以前	-10.7883
宋之	-10.7884
一月	-10.7886
萬餘	-10.789
四子	-10.7891
識其	-10.7893
甲午	-10.7893
聿	-10.7896
徐氏	-10.7897
一鄉	-10.7902
三十六	-10.7903
壬午	-10.7903
付之	-10.7904
庚午	-10.7904
不應	-10.7907
豈知	-10.7909
後進	-10.7909
河間	-10.7909
艷	-10.791
砌	-10.7915
邑人	-10.7917
芥	-10.7917
髫	-10.7918
冢	-10.7918
之澤	-10.7918
以贈	-10.7919
闕下	-10.7921
哉今	-10.7921
飄飄	-10.7921
春官	-10.7923
何如也	-10.7925
無敢	-10.7926
百官	-10.793
竅	-10.793
搏	-10.7932
存心	-10.7935
涸	-10.7935
子姓	-10.794
是謂	-10.7942
誦之	-10.7951
概	-10.7952
督學	-10.7957
太湖	-10.7958
之弗	-10.7959
窗	-10.7963
得無	-10.7967
至扵	-10.7968
儗	-10.7968
盪	-10.7968
非不	-10.7969
亦惟	-10.7969
吾民	-10.797
而起	-10.7975
造物	-10.7979
發之	-10.7982
吾黨	-10.7983
弟子員	-10.7984
戕	-10.7986
有五	-10.799
應天	-10.7993
史氏	-10.7995
猶存	-10.7997
之年	-10.7998
二君	-10.7998
瞑	-10.8
惜其	-10.8001
唾	-10.8001
竹林	-10.8003
婣	-10.8006
得意	-10.8007
公車	-10.8009
乃為	-10.8012
簇	-10.8014
盛徳	-10.8016
亦皆	-10.8016
民間	-10.8017
酒酣	-10.8018
龍虎	-10.8018
此書	-10.8021
者蓋	-10.8021
駟	-10.8027
所由	-10.8029
者如	-10.8029
錢糧	-10.803
檣	-10.8035
殄	-10.8037
肘	-10.8039
為世	-10.804
誰為	-10.8041
而進	-10.8045
寸心	-10.8046
和之	-10.8047
聲名	-10.8048
雨過	-10.8051
誰家	-10.8056
登樓	-10.8057
憊	-10.8057
凡三	-10.8058
蘄	-10.8062
謂公	-10.8062
為御史	-10.8062
乆而	-10.8067
伯子	-10.8071
壬子	-10.8072
畫圖	-10.8073
倅	-10.8073
昆弟	-10.8074
贄	-10.8074
狡	-10.8074
志於	-10.8074
餒	-10.8075
且曰	-10.8076
廬山	-10.8076
得罪	-10.8083
巔	-10.8085
宜其	-10.8087
司訓	-10.8087
五千	-10.809
者當	-10.8091
生意	-10.8098
相期	-10.8098
都指揮	-10.8099
癸未	-10.8102
一物	-10.8103
蟄	-10.8103
只在	-10.8103
聆	-10.8104
努力	-10.8105
臣聞	-10.8105
此事	-10.8108
有知	-10.811
以資	-10.811
起而	-10.8111
塵埃	-10.8111
無何	-10.8118
臣子	-10.8119
煉	-10.8122
窩	-10.8122
無乃	-10.8126
免於	-10.8127
稟	-10.8127
暇日	-10.8133
乙未	-10.8134
不任	-10.8134
貢士	-10.8135
茆	-10.8137
匡廬	-10.8137
男女	-10.8139
豸	-10.814
睨	-10.814
風霜	-10.8141
乎今	-10.8142
瀚	-10.8142
之辭	-10.8145
蔑	-10.8146
癸酉	-10.8148
古詩	-10.8149
傳曰	-10.8156
無論	-10.8156
愛民	-10.8156
使我	-10.816
璽	-10.8163
明珠	-10.8164
以昭	-10.8168
由此	-10.8169
施之	-10.8173
不妄	-10.8174
霆	-10.8175
拳	-10.8176
何用	-10.8177
矣是	-10.8178
濳	-10.8178
自少	-10.8181
牛羊	-10.8185
所不能	-10.8186
之聲	-10.8188
公在	-10.8189
紅塵	-10.8197
有常	-10.8198
根本	-10.8198
與公	-10.8201
屈指	-10.8202
翰林學士	-10.8204
諸弟	-10.8207
於無窮	-10.821
南康	-10.8211
對酒	-10.8214
脅	-10.8215
一郡	-10.8215
我亦	-10.8218
科舉	-10.8222
九原	-10.8225
一生	-10.8226
一心	-10.8232
自以為	-10.8232
遣人	-10.8232
即是	-10.8235
文明	-10.8236
多所	-10.8238
其成	-10.8239
笠	-10.8241
蹊	-10.8242
滄溟	-10.8244
港	-10.8247
開元	-10.8247
有作	-10.8247
公私	-10.8256
憩	-10.8257
如今	-10.8259
芽	-10.8261
鵝	-10.8263
長適	-10.8264
求諸	-10.8268
實録	-10.8274
無錫	-10.8275
致之	-10.8275
於其間	-10.8278
㝠㝠	-10.8278
藏之	-10.8279
寂寂	-10.8279
非徒	-10.828
胎	-10.828
報國	-10.828
不能以	-10.8281
支離	-10.8287
詘	-10.8289
德之	-10.829
兩廣	-10.8291
無心	-10.8292
吾弟	-10.8292
飡	-10.8295
翺翔	-10.8295
紀綱	-10.8296
乞歸	-10.8302
之甚	-10.8303
信之	-10.8304
諸葛	-10.8307
稽首	-10.831
東北	-10.831
巡按	-10.8311
重來	-10.8311
昔年	-10.8313
風波	-10.8314
有文	-10.8315
柱國	-10.8317
戊子	-10.8317
曵	-10.8317
吳興	-10.8318
裒	-10.8321
有無	-10.8327
不置	-10.8327
行狀	-10.8329
五六	-10.833
議者	-10.8331
六七	-10.8331
芹	-10.8332
你	-10.8335
為名	-10.8338
大雅	-10.8339
汰	-10.834
治天下	-10.8347
髙下	-10.8347
瓶	-10.8348
雨後	-10.835
兩京	-10.8351
頸	-10.8356
一篇	-10.836
細雨	-10.8362
不可得而	-10.8364
自持	-10.8364
蹉跎	-10.8366
霜露	-10.8366
先祖	-10.8367
十有八	-10.8367
冠帶	-10.8374
可以為	-10.8381
交游	-10.8385
所生	-10.8387
兒童	-10.8388
髓	-10.8391
又得	-10.8394
先君子	-10.8396
許之	-10.8398
終其身	-10.8401
隐	-10.8406
世為	-10.8407
紫氣	-10.8408
日與	-10.8409
碣	-10.8413
諸儒	-10.8422
嘗為	-10.8424
題名	-10.8424
纍纍	-10.8424
蠅	-10.8425
如玉	-10.8425
妥	-10.8426
經歴	-10.8427
無用	-10.8429
世居	-10.8429
有定	-10.8432
而樂	-10.8432
灾	-10.8434
不去	-10.8435
於古	-10.8438
八百	-10.8441
紱	-10.8444
悅	-10.8445
廹	-10.8447
窮理	-10.8449
其罪	-10.8452
相親	-10.8454
變而	-10.8456
于世	-10.8458
蝕	-10.846
覿	-10.8462
取諸	-10.8463
淵明	-10.8463
𥙷	-10.8463
蠱	-10.8464
而爲	-10.8464
紫陽	-10.8466
恂恂	-10.8467
池上	-10.8469
書生	-10.8472
軍門	-10.8472
東園	-10.8476
禮之	-10.8476
朶	-10.8477
拈	-10.8478
嶼	-10.8478
遒	-10.8481
孤城	-10.8482
齊魯	-10.8483
何似	-10.8487
光輝	-10.8491
前輩	-10.8496
徜徉	-10.8497
蘇州	-10.8497
不宣	-10.8497
黄公	-10.8498
大都	-10.8498
撫按	-10.8499
瑜	-10.8501
疾病	-10.8507
不孝	-10.8508
臨江	-10.8509
身後	-10.851
能使	-10.851
胡氏	-10.8513
少陵	-10.8513
便宜	-10.8514
月下	-10.8515
過於	-10.8516
既已	-10.8518
江淮	-10.8519
𠂻	-10.8519
趂	-10.8532
劔	-10.8532
嫉	-10.8535
人世	-10.8535
粒	-10.8538
無幾	-10.854
成王	-10.8541
難為	-10.8543
太和	-10.8549
易之	-10.855
本末	-10.855
之女	-10.8553
行矣	-10.8565
不屑	-10.8568
其位	-10.8568
不測	-10.857
何物	-10.857
懦	-10.8572
公墓誌銘	-10.8574
太傅	-10.8574
明堂	-10.8574
莖	-10.8574
而不為	-10.8575
薨	-10.8577
有懐	-10.8585
之德	-10.8589
風月	-10.8589
謝曰	-10.859
赫赫	-10.8592
球	-10.8593
中書舍人	-10.8594
另	-10.8594
之機	-10.8597
受之	-10.8598
不得其	-10.8599
嘶	-10.8599
之前	-10.8599
行道	-10.86
點	-10.86
天下之人	-10.8601
喬木	-10.8601
吾郡	-10.8601
不異	-10.8605
閥	-10.8608
愿	-10.8609
喉	-10.8612
圮	-10.8615
捍	-10.8615
幃	-10.8619
矣嗚呼	-10.862
所致	-10.8622
而猶	-10.8624
辛未	-10.8624
劬	-10.8626
夫以	-10.8627
紓	-10.8627
然若	-10.8628
丙	-10.8629
日新	-10.863
嘉興	-10.8632
乃有	-10.8634
一官	-10.8635
今已	-10.8636
而退	-10.864
嘅	-10.8642
悃	-10.8648
此言	-10.8648
不遺	-10.865
焉是	-10.865
伯玉	-10.865
離離	-10.865
以居	-10.865
南還	-10.8651
杪	-10.8652
也蓋	-10.8656
萬國	-10.8656
武陵	-10.8656
其大者	-10.8656
推恩	-10.8657
餌	-10.8659
之爲	-10.866
儘	-10.866
圜	-10.8664
乙酉	-10.8669
年四十	-10.8675
無意	-10.8675
羽翼	-10.8676
國士	-10.8677
惱	-10.8677
有志於	-10.8678
方寸	-10.868
出也	-10.8683
兾	-10.8684
戊午	-10.8686
未暇	-10.8689
祖妣	-10.8691
孔氏	-10.8691
罔不	-10.8692
稱為	-10.8693
鸚鵡	-10.8695
腥	-10.8696
風起	-10.8697
十有六	-10.8698
者三	-10.87
雨雪	-10.8703
送陳	-10.8703
通家	-10.8705
惜之	-10.8706
屯田	-10.8708
孰謂	-10.8708
天下事	-10.8712
攄	-10.8716
秋夜	-10.8716
如雲	-10.8717
黠	-10.8723
詞林	-10.8726
漾	-10.8727
皇明	-10.8733
逺而	-10.8736
幾度	-10.8736
砥	-10.8737
惜哉	-10.8737
言哉	-10.8739
艮	-10.8739
龍泉	-10.8741
㕔	-10.8742
教官	-10.8742
孰為	-10.8743
萬壑	-10.8744
者若	-10.8744
吾將	-10.8748
正學	-10.875
墅	-10.8751
敢忘	-10.8752
夜夜	-10.8753
萬石	-10.8753
能自	-10.8754
之狀	-10.8755
賡	-10.8756
翩	-10.8756
漠漠	-10.8757
五經	-10.8757
十有五	-10.8763
之詳	-10.8763
士民	-10.8766
秋霜	-10.8766
知我	-10.8767
踪	-10.8768
何幸	-10.877
爪	-10.8772
擴	-10.8774
者猶	-10.878
亦豈	-10.8784
眇	-10.8786
犢	-10.8787
與天	-10.8788
醪	-10.879
所願	-10.879
趍	-10.8791
寥	-10.8791
風景	-10.8792
溪山	-10.8792
縫	-10.8793
瞰	-10.8793
今天下	-10.8795
嘉定	-10.8796
長嘯	-10.8796
之具	-10.8798
敲	-10.8807
百餘年	-10.8807
陲	-10.8811
為治	-10.8811
部使者	-10.8813
官至	-10.8813
送張	-10.8815
以文學	-10.8815
乞休	-10.8817
又謂	-10.882
是宜	-10.882
經濟	-10.8821
驄	-10.8822
毅然	-10.8823
蕭氏	-10.8825
所存	-10.8826
流涕	-10.8827
也及	-10.883
㒺	-10.883
豚	-10.883
愛其	-10.8831
吾輩	-10.8837
公獨	-10.8841
田園	-10.8842
廸	-10.885
瘳	-10.8851
不茍	-10.8857
盜賊	-10.8859
空谷	-10.8859
螭	-10.886
顯者	-10.8863
茫然	-10.8864
瀉	-10.8865
光明	-10.8865
憔悴	-10.8866
不得而	-10.8868
其樂	-10.8869
鄉先生	-10.8872
丘壑	-10.8877
還鄉	-10.8879
叔父	-10.8881
誠意	-10.8884
鵞	-10.8884
坂	-10.8886
燼	-10.8887
北海	-10.8889
闥	-10.8889
鴻鴈	-10.8891
天意	-10.8892
燕山	-10.8896
吉安	-10.8897
雲林	-10.8899
如水	-10.8899
患難	-10.89
伊尹	-10.8901
悶	-10.8905
伯仲	-10.8905
毓	-10.8907
喜曰	-10.8908
城市	-10.8909
倉卒	-10.8913
旦暮	-10.8916
再三	-10.8919
不難	-10.892
詩成	-10.8922
有不可	-10.8926
願言	-10.8927
二十五	-10.893
迄今	-10.8931
甲寅	-10.8936
之不可	-10.8936
峩	-10.8939
煮	-10.894
滿地	-10.8941
自此	-10.8942
魚龍	-10.8943
頰	-10.8943
穉	-10.8943
汶	-10.8945
湖南	-10.8947
水流	-10.8949
如之何	-10.8951
固無	-10.8951
余與	-10.8952
方今	-10.8953
襄陽	-10.8955
有四	-10.8957
未央	-10.8957
可考	-10.8958
天下之大	-10.8961
諸士	-10.8961
鐫	-10.8962
矣若	-10.8963
穫	-10.8963
卒于	-10.8967
人以為	-10.8968
又明年	-10.8972
悵然	-10.8972
今觀	-10.8976
般	-10.8977
二十日	-10.8977
曼	-10.898
慕之	-10.8985
祭祀	-10.8985
無憾	-10.899
思所以	-10.8993
苕	-10.8997
發於	-10.8997
流光	-10.9003
著於	-10.9003
笞	-10.9004
書法	-10.9009
菱	-10.9014
鳶	-10.9015
瀑	-10.9016
旻	-10.9016
一舉	-10.9017
秋月	-10.9018
在乎	-10.9018
提舉	-10.902
殺之	-10.9023
又嘗	-10.9028
戊寅	-10.9029
教人	-10.9034
暮雲	-10.9035
奉㫖	-10.9036
師道	-10.9037
平章	-10.9038
前日	-10.9039
君曰	-10.9039
篤於	-10.9039
春光	-10.9039
弩	-10.904
金門	-10.9043
前項	-10.9043
送君	-10.9045
自適	-10.9045
文詞	-10.9048
予以	-10.9048
白鶴	-10.9055
無定	-10.9057
不思	-10.9057
卒業	-10.9058
發其	-10.9058
先生以	-10.9058
存焉	-10.9063
一千	-10.9063
翁之	-10.9065
青春	-10.9065
皆為	-10.9068
來京師	-10.9069
江河	-10.907
者如此	-10.9071
齋居	-10.9072
無私	-10.9074
欲其	-10.9075
楨	-10.9077
榦	-10.9078
酹	-10.9078
二十八	-10.9079
固非	-10.9082
不從	-10.9085
天際	-10.9087
布政	-10.9088
應之	-10.9089
王母	-10.9092
磴	-10.9094
不遑	-10.9095
所屬	-10.9095
𤨏	-10.9097
繳	-10.9097
員外	-10.9099
家庭	-10.9101
閎	-10.9102
是年	-10.9103
故能	-10.9104
至京師	-10.9106
六人	-10.911
墓銘	-10.9115
也雖	-10.9115
固宜	-10.9118
李子	-10.9119
老夫	-10.9119
為言	-10.9121
舟楫	-10.9122
更有	-10.9125
杏花	-10.9126
轂	-10.9129
梧桐	-10.9131
相過	-10.9132
以次	-10.9132
安危	-10.9135
佳人	-10.914
百五十	-10.9141
丁亥	-10.9141
世世	-10.9142
山之原	-10.9147
循良	-10.9152
堕	-10.9152
即今	-10.9153
徐君	-10.9153
紛紜	-10.9156
滛	-10.9158
宛轉	-10.9158
可無	-10.9162
父諱	-10.9165
予亦	-10.917
皋	-10.9173
樓船	-10.9174
成進士	-10.9177
一邑	-10.918
按察副使	-10.918
不惜	-10.9182
之衆	-10.9182
清江	-10.9182
之極	-10.9188
以疾卒	-10.9188
秋聲	-10.919
澆	-10.919
鉢	-10.919
稠	-10.9194
溷	-10.9194
覊	-10.9195
銀河	-10.9196
正是	-10.9199
宣德	-10.9199
雖無	-10.9204
儼然	-10.9205
中州	-10.9207
贈言	-10.9211
之失	-10.9211
公卒	-10.9211
聫	-10.9212
宜有	-10.9214
也故曰	-10.9214
慊	-10.9214
列聖	-10.9216
其字	-10.922
不變	-10.9222
力學	-10.9226
金馬	-10.9227
十三日	-10.923
亦可謂	-10.9235
五馬	-10.9241
石上	-10.9242
亦嘗	-10.9244
弗克	-10.9248
未艾	-10.9249
道德	-10.9251
鬰	-10.9253
建安	-10.9255
歎息	-10.9255
百嵗	-10.9256
氷雪	-10.9256
戊申	-10.9256
莫非	-10.926
相應	-10.9262
龍山	-10.9267
踰年	-10.9267
以病	-10.9271
濟南	-10.9273
渝	-10.9274
一門	-10.9275
物理	-10.9277
鎭	-10.9279
頓首	-10.928
可勝	-10.9283
東林	-10.9284
吾儕	-10.9285
不能不	-10.9285
百家	-10.9285
萬方	-10.9286
十六日	-10.9288
以書	-10.9289
惟我	-10.929
題曰	-10.9291
清溪	-10.9295
儕	-10.93
一書	-10.9302
食之	-10.9303
萬人	-10.9304
楊君	-10.9304
孤舟	-10.9305
舍人	-10.9306
苞	-10.9309
馬上	-10.9309
冡	-10.9312
遞	-10.9314
疵	-10.9315
之勞	-10.9319
有客	-10.9319
皆在	-10.9325
具奏	-10.9327
故里	-10.9328
城下	-10.9329
婢	-10.9331
凜	-10.9333
授以	-10.9333
鉉	-10.9335
浩浩	-10.9335
好惡	-10.9338
柟	-10.9338
事宜	-10.9342
出于	-10.9344
也凡	-10.9344
睇	-10.9345
按察	-10.9349
瞳	-10.9349
尤為	-10.935
父也	-10.9351
竊惟	-10.9351
棄之	-10.9353
到處	-10.9355
總兵	-10.9358
山澤	-10.9359
何如哉	-10.9362
不願	-10.9362
雞鳴	-10.9366
駸駸	-10.9369
命下	-10.937
琅	-10.937
廷臣	-10.9371
逵	-10.9371
卻	-10.9371
其首	-10.9372
十二日	-10.9373
肄	-10.9373
曽孫	-10.9377
無已	-10.9377
之域	-10.9381
行義	-10.9382
往事	-10.9383
在官	-10.9385
又聞	-10.9385
直道	-10.9387
顒	-10.9388
人欲	-10.9388
京華	-10.9389
風氣	-10.939
厠	-10.9392
儂	-10.9394
相承	-10.9394
刻之	-10.9397
後生	-10.9398
甚至	-10.94
并序	-10.94
欲為	-10.9402
左氏	-10.9405
入朝	-10.9407
去後	-10.9408
君墓誌銘	-10.9412
幾年	-10.9414
丙申	-10.9415
盛衰	-10.9417
然非	-10.9417
令子	-10.942
天心	-10.942
者以為	-10.9423
鬂	-10.9427
鄴	-10.9427
而反	-10.9429
士卒	-10.9433
程氏	-10.9433
十一日	-10.9436
今天子	-10.9438
吳公	-10.944
司冦	-10.9443
宗廟	-10.9445
有神	-10.9447
暄	-10.9448
諸友	-10.9449
閽	-10.945
曇	-10.9451
西江	-10.9455
廵按	-10.9455
一面	-10.9458
不稱	-10.9459
不便	-10.9462
店	-10.9468
鉤	-10.947
女二	-10.9473
代之	-10.9473
野老	-10.9474
十八日	-10.9474
不寐	-10.9475
毗	-10.9475
本官	-10.9478
千山	-10.9479
驅馳	-10.9479
世之人	-10.9479
于天	-10.9481
先塋	-10.9482
千人	-10.9483
綃	-10.9486
以副	-10.949
國子生	-10.9497
勤儉	-10.9499
長松	-10.9501
之效	-10.9501
不滿	-10.9504
茸	-10.9505
刺史	-10.9506
深處	-10.951
一節	-10.9511
江流	-10.9511
昊	-10.9513
江北	-10.9513
獨有	-10.9514
旬日	-10.9514
嗔	-10.9524
則雖	-10.9524
欲求	-10.9526
詠歌	-10.9528
召公	-10.953
躭	-10.9532
瑰	-10.9532
杲	-10.9533
孰知	-10.9538
睠	-10.9545
蘚	-10.9548
壬寅	-10.9553
也然而	-10.9555
貿	-10.9557
濟濟	-10.9558
鴛鴦	-10.956
之感	-10.956
不踰	-10.9565
功夫	-10.9565
亦已	-10.9568
偈	-10.9568
筍	-10.9569
禽獸	-10.9569
墩	-10.957
東流	-10.9572
不乏	-10.9573
嘻	-10.9576
亦然	-10.9576
祀之	-10.9578
成均	-10.9586
鳥獸	-10.9587
祕	-10.9588
荆棘	-10.9588
而用之	-10.9589
可觀	-10.9591
文嗚呼	-10.9591
遺書	-10.9593
謔	-10.9593
甄	-10.9595
即日	-10.96
主之	-10.9601
之宜	-10.9601
五行	-10.9603
固當	-10.9604
無端	-10.9605
居民	-10.9617
承平	-10.9617
五言	-10.9618
多寡	-10.9618
筴	-10.9619
公乃	-10.9625
嘲	-10.9628
推之	-10.9628
漁樵	-10.9634
躁	-10.9634
大將軍	-10.9635
子雲	-10.9636
乙丑	-10.9636
狩	-10.9637
兵馬	-10.9638
考之	-10.9641
都司	-10.9644
知名	-10.9644
亦既	-10.9648
憇	-10.965
留意	-10.9651
孑	-10.9655
白鹿	-10.9655
無情	-10.9656
緡	-10.9659
正直	-10.9662
如在	-10.9664
無涯	-10.9664
竟何	-10.9664
三品	-10.9666
大家	-10.9667
霰	-10.9667
炫	-10.967
筐	-10.967
學道	-10.9671
中心	-10.9672
易曰	-10.9673
僭	-10.9674
成都	-10.9678
用事	-10.968
西園	-10.9684
歌詩	-10.9687
湖海	-10.9689
帯	-10.9689
軍務	-10.9689
倩	-10.969
嗤	-10.969
躅	-10.9691
舊遊	-10.9695
片言	-10.9697
萬萬	-10.9698
莅	-10.9698
而遽	-10.9698
聖徳	-10.9703
皆能	-10.9704
天寒	-10.9706
不似	-10.9708
摶	-10.971
眼前	-10.971
和平	-10.9712
拏	-10.9713
之西	-10.9714
孱	-10.9715
蜚	-10.9716
殉	-10.9717
上方	-10.9718
侍讀	-10.9718
安石	-10.9727
孟子曰	-10.9727
成立	-10.973
庻幾	-10.9732
躬行	-10.9733
不但	-10.9735
而實	-10.9735
瘞	-10.9736
畊	-10.9737
鄊	-10.9737
七人	-10.9738
竟日	-10.974
其外	-10.9744
號令	-10.9744
其體	-10.9745
取士	-10.975
鎻	-10.9752
道義	-10.9753
五首	-10.9758
讞	-10.9761
皇皇	-10.9768
豈敢	-10.9769
非禮	-10.977
龍蛇	-10.9772
線	-10.9773
周君	-10.9773
經過	-10.9776
娱	-10.9777
查得	-10.978
淵源	-10.978
刑部主事	-10.9782
清秋	-10.979
諸司	-10.9796
繼母	-10.9796
皂	-10.9797
黄帝	-10.9797
圉	-10.9797
慝	-10.9797
吾師	-10.9798
摭	-10.98
海宇	-10.9801
一曰	-10.9801
重修	-10.9801
合而	-10.9802
告之	-10.9802
太平之	-10.9804
絶頂	-10.9808
但見	-10.9809
待之	-10.9812
養生	-10.9814
煌	-10.9815
於戲	-10.9815
挑	-10.9816
奏請	-10.9817
在外	-10.982
其祖	-10.9821
深入	-10.9827
於下	-10.9829
是皆	-10.9829
黄鶴	-10.9831
二三子	-10.9839
周子	-10.9842
疇昔	-10.9843
哉此	-10.9843
軾	-10.9843
開府	-10.9844
尺寸	-10.9846
蛾眉	-10.9852
淹留	-10.9853
可得而	-10.9856
向來	-10.9858
松風	-10.986
荆州	-10.9861
月照	-10.9861
鬱鬱	-10.9863
章句	-10.9864
三代之	-10.9865
一本	-10.987
而易	-10.9878
之分	-10.9879
有賢	-10.988
足為	-10.988
盗賊	-10.988
潞	-10.9882
閻	-10.9883
縣人	-10.9888
丈人	-10.989
同一	-10.9891
盖有	-10.9891
無忝	-10.9892
至誠	-10.9892
其教	-10.9895
請曰	-10.9896
何限	-10.9899
竦	-10.9902
九天	-10.9903
二十餘年	-10.9905
夫子之	-10.9906
乙亥	-10.9906
霜雪	-10.9914
二十二	-10.9914
子若孫	-10.9914
進士第	-10.9916
二千石	-10.9917
梨	-10.9919
牡丹	-10.9919
呂	-10.9922
屍	-10.9922
語曰	-10.9923
初度	-10.9923
菑	-10.9924
奉詔	-10.9925
秩滿	-10.9934
水旱	-10.9938
寤	-10.9939
骸	-10.994
學行	-10.9941
之子孫	-10.9941
夏日	-10.9942
子女	-10.9942
拂衣	-10.9949
日出	-10.9955
中道	-10.9956
一再	-10.9956
史官	-10.996
棋	-10.9962
莭	-10.9963
故國	-10.9966
厪	-10.9968
詹事	-10.9969
戰國	-10.9969
服其	-10.997
自天	-10.997
執筆	-10.9975
不可謂	-10.9975
鱸	-10.9979
尚饗祭	-10.9984
㒒	-10.9987
將歸	-10.9988
囘首	-10.9988
壬申	-10.9988
詡	-10.9988
經年	-10.9989
不可及	-10.9989
來歸	-10.999
亦是	-10.9994
一箇	-10.9994
江頭	-10.9995
依舊	-10.9998
湯藥	-11
薜蘿	-11
因循	-11.0001
母夫人	-11.0002
至元	-11.0003
趙氏	-11.0004
之異	-11.0005
嫂	-11.0006
清白	-11.0007
塵土	-11.0008
王父	-11.0009
眼中	-11.0012
大體	-11.0014
乃復	-11.0014
已成	-11.0014
厥後	-11.0017
司農	-11.0018
珍重	-11.0018
見聞	-11.0019
悲夫	-11.0019
相國	-11.002
裙	-11.0021
挿	-11.0022
叚	-11.0025
極目	-11.0025
頤	-11.0025
月滿	-11.0026
郡庠	-11.0027
壬戌	-11.0029
薦紳	-11.0031
齋先生	-11.0034
衆皆	-11.0036
文帝	-11.0038
所施	-11.0044
嘘	-11.0045
颺	-11.0046
同邑	-11.0046
尚在	-11.0049
辛酉	-11.0049
岷	-11.0049
公事	-11.0058
錢唐	-11.0059
大儒	-11.006
其德	-11.0063
治平	-11.0065
珂	-11.0065
至於今	-11.0066
不疑	-11.0068
髙宗	-11.007
兢	-11.0071
殃	-11.0072
蒼苔	-11.0074
觀察	-11.0074
太恭人	-11.0075
鄖	-11.0077
中貴人	-11.0077
瀛	-11.0082
深山	-11.0083
族之	-11.0083
不假	-11.0087
此去	-11.0089
械	-11.009
兩月	-11.009
諸郡	-11.0093
身心	-11.0099
其法	-11.0102
可愛	-11.0104
立身	-11.0108
次曰	-11.0109
文敏	-11.0109
以供	-11.0112
死矣	-11.0112
文物	-11.0114
僑	-11.0115
服之	-11.0117
致知	-11.0117
十七年	-11.0118
有才	-11.0124
無餘	-11.0125
節義	-11.0126
蕋	-11.0127
髙風	-11.013
一觴	-11.013
失所	-11.0133
逺遊	-11.0133
㤙	-11.0133
不輕	-11.0134
金玉	-11.0134
亦足	-11.0135
己丑	-11.0137
遼東	-11.0139
夀考	-11.014
嘗有	-11.0142
典刑	-11.0145
側室	-11.0147
遄	-11.0149
瀰	-11.0153
瀛洲	-11.0153
今又	-11.0157
雍容	-11.0158
嘗謂	-11.016
縣學	-11.0163
王事	-11.0164
十有一	-11.0165
重陽	-11.0165
實有	-11.0167
爻	-11.0168
服除	-11.017
則已	-11.0174
軟	-11.0174
滸	-11.0175
袠	-11.0178
讎	-11.0179
理也	-11.018
元美	-11.0182
可否	-11.0183
簟	-11.0191
縞	-11.0193
備矣	-11.0194
枝葉	-11.0194
不齊	-11.0194
梟	-11.0196
締	-11.0197
還朝	-11.0199
非特	-11.02
臨清	-11.0201
此巻	-11.0201
知音	-11.0202
萬象	-11.0205
矦	-11.0205
廣陵	-11.021
兀	-11.0212
論語	-11.0214
鬛	-11.0215
四五	-11.0215
既得	-11.0215
以貽	-11.0217
凛	-11.0218
寝	-11.0222
窶	-11.0224
軒記	-11.0224
告成	-11.0227
父母之	-11.0228
委曲	-11.023
髩	-11.0233
隠居	-11.0233
里之	-11.0237
雷霆	-11.024
孝敬	-11.024
乃得	-11.0241
瀝	-11.0241
治道	-11.0246
人等	-11.0247
忽忽	-11.0249
此圖	-11.0249
諸書	-11.0251
崔嵬	-11.0255
鄉閭	-11.0255
責之	-11.0257
阨	-11.0261
蠟	-11.0261
月十五日	-11.0264
豈必	-11.0265
稽古	-11.0265
淞	-11.0266
諸將	-11.0268
碧雲	-11.0269
庚申	-11.0269
把酒	-11.0273
倐忽	-11.0273
行李	-11.0274
都事	-11.0275
曾孫	-11.0277
而已哉	-11.0279
歸来	-11.028
嬴	-11.028
自幼	-11.0283
不避	-11.0284
過人	-11.0285
上命	-11.0288
孝思	-11.029
所司	-11.0294
圖畫	-11.0296
方外	-11.0299
斯世	-11.03
閶闔	-11.0301
明卿	-11.0303
斵	-11.0304
流行	-11.0305
漫漫	-11.0305
敖	-11.0307
之所在	-11.0308
不立	-11.031
新建	-11.0311
猶自	-11.0312
公嘗	-11.0316
宣府	-11.0318
通行	-11.0319
諸山	-11.0319
萎	-11.0321
匏	-11.0322
法度	-11.0323
數百年	-11.0324
予謂	-11.0324
孺人之	-11.0325
掉	-11.0325
複	-11.0325
而愈	-11.0326
然猶	-11.0329
磊落	-11.0332
可惜	-11.0333
崑	-11.0343
都城	-11.0344
軋	-11.0346
銀兩	-11.0347
固知	-11.0349
幽居	-11.0352
飛來	-11.0352
此生	-11.0353
懾	-11.0353
不治	-11.0353
夜宿	-11.036
别去	-11.0362
八九	-11.0363
其理	-11.0364
粱	-11.0368
巍巍	-11.0369
贈公	-11.037
宛然	-11.037
薊門	-11.0371
相接	-11.0373
天機	-11.0373
伯夷	-11.0378
之族	-11.0378
某年月日	-11.038
之裔	-11.0381
具題	-11.0383
過從	-11.0387
笋	-11.0391
者誰	-11.0393
䂓	-11.0394
絕	-11.0396
十有三	-11.0399
王府	-11.04
咸陽	-11.0401
甲第	-11.0401
仁宗	-11.0404
曰惟	-11.0408
老先生	-11.0408
十有四	-11.0408
拭	-11.0409
鼇	-11.041
羔	-11.0414
曲江	-11.0414
緋	-11.0414
囑	-11.0414
鄙人	-11.0416
繁華	-11.0419
慈母	-11.0426
名世	-11.0431
可喜	-11.0433
之化	-11.0433
居然	-11.0433
林壑	-11.0436
白鷗	-11.0436
四世	-11.0437
之權	-11.0438
庚寅	-11.0439
傭	-11.0443
小學	-11.0444
鞏	-11.0445
鄉薦	-11.0446
以私	-11.0448
損益	-11.0451
七尺	-11.0452
莫道	-11.0452
三軍	-11.0453
皇太子	-11.0455
之報	-11.0455
要之	-11.046
可用	-11.0462
諸家	-11.0463
寖	-11.0464
樹立	-11.0464
之懿	-11.0471
之操	-11.0474
論文	-11.0479
圎	-11.0479
亦難	-11.0482
直指	-11.0482
昉	-11.0483
述其	-11.0485
明經	-11.0487
我朝	-11.0493
十八年	-11.0494
児	-11.0495
朝廷之	-11.0497
霓	-11.0499
己巳	-11.05
燎	-11.05
質之	-11.05
吊	-11.0501
穏	-11.0501
吾親	-11.0505
憂患	-11.0509
聞人	-11.051
年正月	-11.0511
個	-11.0511
按狀	-11.0512
一聲	-11.0516
南渡	-11.0517
悴	-11.0522
盎	-11.0522
捫	-11.0523
哀毁	-11.0523
也歟	-11.0524
峩峩	-11.0524
蒐	-11.0525
相顧	-11.0526
鄂	-11.0527
事例	-11.0528
儆	-11.0529
予友	-11.053
勺	-11.0531
天地萬物	-11.0534
謂曰	-11.0538
子思	-11.0539
馥	-11.0542
滄江	-11.0542
甘心	-11.0543
駑	-11.0547
炭	-11.0547
月某日	-11.0548
以全	-11.0549
大海	-11.0549
氣質	-11.055
思親	-11.055
一介	-11.0551
扈從	-11.0552
十九日	-11.0553
甓	-11.0553
紂	-11.0554
飄然	-11.0554
車駕	-11.056
舊時	-11.0565
悲風	-11.0567
噬	-11.0567
搗	-11.057
友愛	-11.0571
牟	-11.0575
琦	-11.0576
甘露	-11.0577
贊曰	-11.0578
大計	-11.0578
若何	-11.0588
東宫	-11.0589
看得	-11.0592
殤	-11.0592
成就	-11.0595
天恩	-11.0597
待罪	-11.0599
重輕	-11.0599
樓閣	-11.0603
送别	-11.0604
浮生	-11.0607
誄	-11.0613
誰復	-11.0615
號為	-11.0616
賻	-11.0617
髙樓	-11.0618
今世	-11.062
先帝	-11.0621
孤雲	-11.0624
文忠公	-11.0625
石室	-11.0626
吸	-11.063
堂堂	-11.0631
猶能	-11.0637
揚雄	-11.0638
欲得	-11.0644
石門	-11.0644
人士	-11.0646
於後世	-11.0651
東歸	-11.0652
及時	-11.0653
賓客	-11.0656
其視	-11.0656
入門	-11.0656
隆慶	-11.066
彞	-11.066
人材	-11.0661
約束	-11.0664
字子	-11.0664
薦之	-11.0664
逢人	-11.0667
舉業	-11.0668
弑	-11.0668
龍飛	-11.067
不知何	-11.067
那得	-11.067
别墅	-11.0671
東門	-11.0671
一言以	-11.0672
禮法	-11.0673
必有所	-11.0674
十七日	-11.0679
杵	-11.068
彭蠡	-11.0682
䨇	-11.0683
乃能	-11.0683
奨	-11.0684
吳越	-11.0685
媵	-11.0685
吾兒	-11.0686
宗室	-11.0687
功徳	-11.0694
草色	-11.0695
閩中	-11.0695
朝陽	-11.0699
可畏	-11.0699
衣服	-11.07
徙居	-11.07
諄諄	-11.0707
公孫	-11.0708
此固	-11.0708
鬯	-11.0708
有諱	-11.071
辛苦	-11.0711
經世	-11.0718
果有	-11.0719
成敗	-11.0722
十有七	-11.0725
翦	-11.0725
笻	-11.0726
厰	-11.0726
山寺	-11.0728
物色	-11.0728
山海	-11.0729
一編	-11.073
三江	-11.0731
伯父	-11.0735
其初	-11.074
築室	-11.0741
男兒	-11.0742
邑庠	-11.0743
不使	-11.0743
力行	-11.0743
彭澤	-11.0747
屨	-11.075
不傳	-11.0752
婿	-11.0754
自處	-11.0756
州守	-11.0756
形容	-11.0763
君父	-11.0766
不煩	-11.0767
受知	-11.0768
拄	-11.0769
亥	-11.0769
如斯	-11.0769
浙東	-11.077
皦	-11.0772
威儀	-11.0772
逄	-11.0773
老病	-11.0776
千戸	-11.0777
藹然	-11.0779
河水	-11.0779
奪之	-11.0785
悲歌	-11.0789
離别	-11.0789
逶迤	-11.0789
序送	-11.0791
犬馬	-11.0792
非惟	-11.0793
在堂	-11.0793
九載	-11.0795
宼	-11.0803
吾身	-11.0806
歸路	-11.0806
鍾山	-11.0807
夜坐	-11.0809
伏望	-11.0817
之隆	-11.0818
延平	-11.0819
衡門	-11.082
太子太保	-11.0823
諉	-11.0824
到家	-11.0827
風紀	-11.0827
不然則	-11.0828
别來	-11.0828
萬頃	-11.083
非其人	-11.0831
譜牒	-11.0831
邯鄲	-11.0836
丹砂	-11.0836
噴	-11.0838
髻	-11.0839
頋	-11.0839
六百	-11.0841
幄	-11.0841
不安	-11.0842
惟謹	-11.0843
斜日	-11.0844
諗	-11.0845
用功	-11.0846
之大者	-11.0848
南風	-11.0852
正色	-11.0852
明故	-11.0853
相憶	-11.0853
一錢	-11.0857
曛	-11.086
與否	-11.086
諸老	-11.0867
殱	-11.0869
販	-11.087
不可復	-11.0872
白露	-11.0878
俎	-11.088
二十三	-11.088
孟氏	-11.0881
數行	-11.0881
怳	-11.0882
尊酒	-11.0882
史記	-11.0883
幔	-11.0884
雲霧	-11.0885
欽此	-11.0886
不可以不	-11.0886
加焉	-11.0888
先聖	-11.0889
諤	-11.089
第三	-11.0891
太保	-11.0891
子男三	-11.0893
醫藥	-11.0894
三徑	-11.0895
非所以	-11.0897
風雅	-11.0898
業已	-11.0899
南安	-11.0904
不禁	-11.0904
吏治	-11.0905
江浙	-11.0912
刻石	-11.0914
異乎	-11.0915
儷	-11.0915
順天	-11.0916
賊首	-11.0918
風日	-11.0918
明王	-11.0919
送李	-11.093
旂	-11.0931
送客	-11.0938
菊花	-11.095
病中	-11.0954
萬户	-11.0954
老母	-11.0958
以遺	-11.0958
尚存	-11.0959
撃	-11.0959
侔	-11.0959
木蘭	-11.0959
偹	-11.0959
勲業	-11.0964
文成	-11.0965
多情	-11.0967
玉山	-11.0969
榮名	-11.0971
弇	-11.0973
否則	-11.0973
紋	-11.0974
昬	-11.0975
四壁	-11.0975
平安	-11.0976
沅	-11.0976
二十一	-11.0979
為文章	-11.0979
才名	-11.0981
又將	-11.0986
昔在	-11.0988
皇天	-11.0988
風采	-11.0997
淋漓	-11.0998
賖	-11.0998
葬于	-11.0999
而無所	-11.0999
分守	-11.1
滓	-11.1001
劫	-11.1004
啖	-11.1005
慄	-11.1005
鎮守	-11.1006
涖	-11.1009
昔日	-11.1014
道傍	-11.1018
五更	-11.1024
橈	-11.1024
夢裏	-11.1024
肺	-11.1026
辛亥	-11.1029
鏞	-11.103
泠泠	-11.1041
不畏	-11.1041
亦將	-11.1043
甲科	-11.1044
逺道	-11.1047
喙	-11.105
達於	-11.1053
民生	-11.1054
南畿	-11.1056
其端	-11.1061
圖報	-11.1066
賢否	-11.1066
其材	-11.1069
朝來	-11.1071
其所為	-11.1072
沓	-11.1073
兢兢	-11.1074
其先世	-11.1074
今夜	-11.1075
婆	-11.1076
瑯	-11.1076
家法	-11.1079
幕府	-11.108
用力	-11.1081
兩人	-11.1084
有期	-11.1084
月出	-11.1085
湖水	-11.1088
擒斬	-11.1089
同郡	-11.1091
族譜	-11.1092
為諸生	-11.1094
亦云	-11.1095
凄凉	-11.1096
鼓舞	-11.1097
詩歌	-11.1098
斟酌	-11.1099
是豈	-11.11
立志	-11.11
慤	-11.1101
問曰	-11.1102
風雪	-11.1103
桂樹	-11.1108
南望	-11.1111
苓	-11.1113
風動	-11.1117
長風	-11.1117
𡨕	-11.1117
夲	-11.1122
看山	-11.1122
文林郎	-11.1124
赤城	-11.1129
得志	-11.1129
不愛	-11.1133
林氏	-11.1137
其孫	-11.1137
千尺	-11.1138
考滿	-11.1138
蹔	-11.1139
慵	-11.1139
便道	-11.114
司業	-11.1142
蘖	-11.1147
子之言	-11.1148
矯矯	-11.1148
梁園	-11.1148
南浦	-11.1148
籲	-11.1148
論議	-11.115
所述	-11.1151
榮辱	-11.1151
馬蹄	-11.1152
不至於	-11.1154
留别	-11.1154
民力	-11.1154
庠序	-11.1156
杭州	-11.1157
悄	-11.116
早卒	-11.116
苦心	-11.1164
其術	-11.1165
婦道	-11.1166
非常	-11.1167
卞	-11.1167
致政	-11.117
之材	-11.1171
韓公	-11.1173
伯兄	-11.118
日落	-11.118
朱公	-11.1181
大理寺	-11.1182
十人	-11.1182
辛巳	-11.1188
煎	-11.1188
儒生	-11.1188
慾	-11.119
聊以	-11.119
行藏	-11.1192
遂成	-11.1192
廣文	-11.1195
君恩	-11.1195
甘棠	-11.1197
戚戚	-11.1201
四書	-11.1202
封侯	-11.1203
建昌	-11.1205
漪	-11.1209
來往	-11.1212
之意也	-11.1212
合葬	-11.1213
貼	-11.1215
田里	-11.1216
櫛	-11.1217
齋記	-11.122
西來	-11.1223
難得	-11.1225
廷尉	-11.1226
北望	-11.1226
不具	-11.1228
何妨	-11.1228
相尋	-11.123
果何	-11.123
楊柳	-11.1232
常熟	-11.1234
出守	-11.1234
而逝	-11.1234
疚	-11.1238
守仁	-11.1239
攅	-11.1241
詞賦	-11.1242
雪中	-11.1243
亦宜	-11.1243
者悉	-11.1246
文選	-11.1247
大梁	-11.1248
柰	-11.125
有疾	-11.125
古木	-11.1251
與天地	-11.1253
執政	-11.1254
太古	-11.1262
深矣	-11.1265
窆	-11.1267
水部	-11.1272
㕘政	-11.1272
極矣	-11.1274
恨不	-11.1275
都尉	-11.1281
麋鹿	-11.1284
光景	-11.1284
羇	-11.1286
膴	-11.1286
水火	-11.1287
不可知	-11.1288
自守	-11.1288
桑麻	-11.1289
同里	-11.1291
令名	-11.1293
郡城	-11.1295
孝宗	-11.1299
門生	-11.1299
立朝	-11.1301
偶成	-11.1306
庭前	-11.1306
晞	-11.1307
清光	-11.1307
歴歴	-11.1307
絢	-11.1309
鼠	-11.1309
擾擾	-11.1309
吻	-11.131
河流	-11.131
抉	-11.1312
疋	-11.1314
扵此	-11.1315
李白	-11.1317
經義	-11.1318
哈	-11.1321
各該	-11.1323
白晝	-11.1325
衲	-11.1328
具本	-11.1328
砧	-11.1329
勳	-11.1335
長老	-11.1338
蹕	-11.1341
不懈	-11.1342
廨	-11.1342
弗及	-11.1343
曽子	-11.1346
文采	-11.1348
宋元	-11.1351
不特	-11.1352
之誼	-11.1353
泓	-11.1357
不足為	-11.1357
舸	-11.1358
嶷	-11.1359
閘	-11.136
存亡	-11.136
貴乎	-11.1361
即此	-11.1363
猝	-11.1363
竭力	-11.1363
訐	-11.1364
氏諱	-11.1367
借問	-11.1367
智者	-11.1368
者何也	-11.1368
吳氏	-11.137
玉壺	-11.1371
異同	-11.1371
文正公	-11.1372
孔門	-11.1377
顏	-11.1379
幡	-11.138
弋	-11.1382
丰	-11.1382
朝天	-11.1384
待制	-11.1394
宋人	-11.1395
海門	-11.1397
赤壁	-11.1398
年十二月	-11.1403
河漢	-11.1403
治亂	-11.1407
𦂳	-11.1407
大業	-11.1407
膝下	-11.1408
相忘	-11.1409
石田	-11.1411
箸	-11.1412
髙皇帝	-11.1413
懇乞	-11.1414
升堂	-11.1416
自喜	-11.1418
又豈	-11.1422
繭	-11.1428
留都	-11.1432
孕	-11.1433
修身	-11.1439
糴	-11.144
毫髪	-11.1441
享年六十	-11.1441
形勝	-11.1443
生員	-11.1445
蛩	-11.1451
爾等	-11.1452
名位	-11.1454
晷	-11.1455
戱	-11.1455
讌	-11.1457
莆田	-11.1458
玷	-11.1462
之兵	-11.1463
修撰	-11.1463
泣曰	-11.1463
世業	-11.1467
歌聲	-11.1468
肅肅	-11.1469
隱居	-11.1469
蓑	-11.1474
衿	-11.1475
别業	-11.1477
今兹	-11.1483
韙	-11.1484
譯	-11.1484
匍匐	-11.1485
古昔	-11.1488
遺文	-11.1502
凌雲	-11.1502
澁	-11.1503
聚散	-11.1504
塚	-11.1506
杖屨	-11.1507
只有	-11.1507
宸濠	-11.151
縣治	-11.1512
事體	-11.1518
潯	-11.152
登進士第	-11.1523
邑庠生	-11.1525
京口	-11.153
莫若	-11.1533
桑榆	-11.1535
翠微	-11.1536
豈特	-11.1536
或可	-11.1537
出納	-11.1541
其父母	-11.1542
使民	-11.1547
安南	-11.1549
爼	-11.1551
近體	-11.1552
蛙	-11.1552
蓬蒿	-11.1552
之辨	-11.1552
哦	-11.1554
詩禮	-11.1554
臣愚	-11.1555
溜	-11.1556
髙士	-11.1556
行樂	-11.1559
舶	-11.156
且夫	-11.1564
風光	-11.1566
卧病	-11.1568
比部	-11.1569
溪水	-11.157
所自出	-11.1571
下車	-11.1571
幸有	-11.1571
竽	-11.1573
君子之所	-11.1574
既歸	-11.1575
飱	-11.1575
扄	-11.1575
執法	-11.1578
田野	-11.1583
廕	-11.1585
濮	-11.1586
刑部尚書	-11.1588
知州	-11.1589
積善	-11.159
都督府	-11.1592
筋	-11.1598
鴨	-11.1599
四夷	-11.16
湄	-11.1601
發明	-11.1603
山僧	-11.1604
亹亹	-11.1607
黄鵠	-11.1608
各處	-11.1613
不可見	-11.1613
不休	-11.1614
莎	-11.1615
濛	-11.162
釵	-11.162
腹心	-11.1621
榴	-11.1622
伯氏	-11.1623
搔	-11.1624
先大夫	-11.1624
制作	-11.1626
始祖	-11.1627
入翰林	-11.1627
主上	-11.1628
拖	-11.1629
陬	-11.1629
五代	-11.1631
墉	-11.1632
諛	-11.1634
碧山	-11.1637
二氏	-11.1637
隨處	-11.1638
送劉	-11.1641
尤難	-11.1644
互相	-11.1644
華陽	-11.1645
家政	-11.1646
石刻	-11.1647
至京	-11.1649
黄昏	-11.165
歴官	-11.1652
封孺人	-11.1652
繋	-11.1652
三十餘年	-11.1654
勞苦	-11.1657
耋	-11.166
親友	-11.1662
十四日	-11.1666
髙帝	-11.1669
筮	-11.1671
竊謂	-11.1675
旃	-11.1677
贈别	-11.1677
滔滔	-11.1677
郎官	-11.168
詩集	-11.1681
自憐	-11.1681
衰病	-11.1681
有詔	-11.1686
痰	-11.1686
林間	-11.1687
司理	-11.1688
平地	-11.1689
貧者	-11.1695
不憚	-11.1699
行部	-11.17
驤	-11.1702
文昌	-11.1703
蕚	-11.1703
拆	-11.1703
嘆息	-11.1703
堞	-11.1703
松楸	-11.1706
南來	-11.1707
篤行	-11.1707
欲盡	-11.1716
髙第	-11.1717
長卿	-11.1718
哉余	-11.1721
逺邇	-11.1723
導之	-11.1727
僵	-11.1727
其妻	-11.1727
不窮	-11.1728
屣	-11.1728
琛	-11.1731
宜興	-11.1735
厚矣	-11.1736
秘書	-11.1737
起復	-11.1738
鄭公	-11.1744
是嵗	-11.1745
余聞	-11.1749
鏤	-11.1751
頷	-11.1751
與人交	-11.1751
安敢	-11.1753
擘	-11.1754
吿	-11.1756
舊業	-11.1756
喘	-11.1757
暈	-11.1758
今夕	-11.176
天下士	-11.176
鄱陽	-11.1761
壯士	-11.1764
庶人	-11.1766
有得於	-11.1768
其弊	-11.1768
席上	-11.1774
不聽	-11.1776
元日	-11.1778
碌碌	-11.1778
鶚	-11.1779
近代	-11.178
斗酒	-11.1781
于兹	-11.1784
赴京	-11.1785
外物	-11.1785
鄞	-11.1785
理學	-11.1788
儒臣	-11.1789
誥命	-11.1793
照得	-11.1798
師儒	-11.1799
親親	-11.1802
燿	-11.1802
百金	-11.1804
安得不	-11.1808
諱某	-11.1809
股肱	-11.181
昭昭	-11.1812
得請	-11.1814
趙公	-11.1822
漣	-11.1827
塜	-11.1828
春酒	-11.183
不幸而	-11.1833
夔	-11.1836
奉母	-11.1837
毀	-11.184
翼翼	-11.1843
燈前	-11.1844
胷	-11.1845
㪚	-11.1852
襍	-11.1854
婆娑	-11.1854
殽	-11.1855
笑語	-11.1859
登山	-11.1861
天開	-11.1863
其形	-11.1863
亦不敢	-11.1864
凟	-11.1864
十九年	-11.1865
佛氏	-11.1867
誌銘	-11.1867
絃歌	-11.1868
居家	-11.1868
所恃	-11.1869
西域	-11.1869
六朝	-11.187
闗中	-11.1872
驅車	-11.1874
不失其	-11.1875
軍中	-11.1877
王侯	-11.188
至于今	-11.1883
安民	-11.1883
搶	-11.1885
山靈	-11.1885
水利	-11.1888
乎雖然	-11.1891
數語	-11.1892
憲使	-11.1896
東望	-11.1901
相似	-11.1902
氣節	-11.1903
無際	-11.1903
㩀	-11.1908
不辱	-11.1909
未見其	-11.191
不偶	-11.191
癸亥	-11.1912
盛事	-11.1914
南州	-11.1918
二女	-11.1919
同遊	-11.1919
薄暮	-11.1921
信乎	-11.1921
行役	-11.1921
志士	-11.1924
脯	-11.1926
覓	-11.1926
當路	-11.1928
伊川	-11.193
揷	-11.1931
煑	-11.1932
行誼	-11.1935
琮	-11.1936
世系	-11.1939
所著有	-11.1942
其責	-11.1946
法司	-11.1947
善政	-11.1947
府知府	-11.195
動静	-11.1952
燠	-11.1955
罍	-11.1955
治民	-11.1956
顰	-11.1956
龕	-11.1957
秋雨	-11.1957
珥	-11.1958
酧	-11.1959
土官	-11.196
規矩	-11.1963
寥廓	-11.1969
成周	-11.197
先考	-11.1972
琵琶	-11.1976
三朝	-11.1978
長吏	-11.1978
淒	-11.1979
繚	-11.1979
弘	-11.198
緊	-11.198
不察	-11.1981
厦	-11.1981
閃	-11.1982
掬	-11.1982
景物	-11.1983
怍	-11.1984
崛	-11.1984
謐	-11.1988
侃侃	-11.1988
某月日	-11.1988
聶	-11.1989
尤甚	-11.199
不惑	-11.1991
館閣	-11.1994
年二十	-11.1996
甚多	-11.1999
城頭	-11.2001
啞	-11.2004
遭逢	-11.2005
伎	-11.2007
葆	-11.2008
棣	-11.2009
鄭君	-11.201
諍	-11.2012
押	-11.2012
殮	-11.2013
舉子業	-11.2014
制度	-11.2017
待詔	-11.2019
立功	-11.2019
世情	-11.2021
竺	-11.2021
風雷	-11.2021
燕子	-11.2022
不類	-11.2023
暁	-11.2028
矣然則	-11.2028
我國家	-11.2029
腦	-11.203
剰	-11.2031
公卿大夫	-11.2032
掀	-11.2036
吾志	-11.2038
先人之	-11.2041
盈盈	-11.2043
鄉邦	-11.2045
西京	-11.205
矗	-11.2056
之為人	-11.2057
扃	-11.2058
不能忘	-11.2062
頺	-11.2062
遲遲	-11.2062
糓	-11.2065
享年七十	-11.2069
都察院右副都御史	-11.207
耶抑	-11.2071
暮雨	-11.2073
治家	-11.2075
山頭	-11.2077
園林	-11.2079
白璧	-11.2082
熒	-11.2085
騎馬	-11.2088
烽火	-11.2089
準	-11.2089
圯	-11.209
軄	-11.209
恐懼	-11.2092
仕宦	-11.2092
毁譽	-11.2096
樂天	-11.2098
詞章	-11.2103
歌曰	-11.2104
女二人	-11.2108
痾	-11.2108
冥冥	-11.2109
豐年	-11.211
漢家	-11.2112
亦足以	-11.2113
丐	-11.2114
貎	-11.2115
歌詠	-11.2122
飛鳥	-11.2122
光祿	-11.2123
東平	-11.2135
磵	-11.2136
蕉	-11.2136
媪	-11.2139
程朱	-11.2139
知其為	-11.2139
置酒	-11.2139
䆳	-11.214
舛	-11.2142
徳業	-11.2143
譬如	-11.2144
吳江	-11.2144
紫芝	-11.2148
嘉禾	-11.2148
卜居	-11.2148
月夜	-11.2151
邦家	-11.2152
秋官	-11.2153
江城	-11.2155
湫	-11.2163
其任	-11.2164
蹴	-11.2165
捉	-11.2166
藐	-11.2166
飫	-11.2167
窒	-11.2169
鎮撫	-11.2172
稚子	-11.2176
千仞	-11.2176
却憶	-11.2177
端居	-11.2184
以明經	-11.2185
蠢	-11.2186
摇	-11.2187
神靈	-11.2187
乙巳	-11.2187
紈	-11.2188
一㸃	-11.2189
嵇	-11.219
二十餘	-11.2191
登第	-11.2192
之所能	-11.2196
此理	-11.2197
春深	-11.2197
詩巻	-11.2198
精舍	-11.2203
廊廟	-11.2203
今年春	-11.2205
尊前	-11.2205
受業	-11.2207
櫂	-11.2213
泳	-11.2213
天威	-11.2213
之區	-11.2216
况復	-11.2218
盂	-11.2219
郡國	-11.2219
太子少保	-11.2223
所遇	-11.2225
清夜	-11.2228
果能	-11.223
冨	-11.2231
入太學	-11.2233
逆旅	-11.2233
欣欣	-11.2235
歘	-11.2236
告之曰	-11.2237
年間	-11.2238
斟	-11.2238
宣慰	-11.2241
軺	-11.2244
斬獲	-11.225
己酉	-11.2251
人咸	-11.2252
河山	-11.2256
不給	-11.2259
元帥	-11.2262
賢良	-11.2263
象山	-11.2265
翥	-11.2269
水陸	-11.227
如一日	-11.2275
推轂	-11.2276
賈生	-11.2277
奕奕	-11.228
不減	-11.228
滿眼	-11.2281
之績	-11.2283
予既	-11.2288
服食	-11.2288
果然	-11.2293
四面	-11.2293
匝	-11.2297
謝恩	-11.2298
府縣	-11.2301
家聲	-11.2304
太宗皇帝	-11.2304
流傳	-11.2305
邑中	-11.2307
曰不然	-11.2309
聞訃	-11.2318
二十七	-11.2321
餘姚	-11.2323
七十二	-11.2323
柝	-11.2324
林木	-11.2324
嫗	-11.2327
雪滿	-11.233
自負	-11.2335
北極	-11.2339
香山	-11.2341
莫可	-11.2342
燧	-11.2349
蜃	-11.2349
雩	-11.235
亾	-11.2353
氏族譜序	-11.2353
分别	-11.2357
皇甫	-11.2361
䖏士	-11.2364
己未	-11.2364
不患	-11.2366
生涯	-11.2368
巘	-11.2369
綱常	-11.237
留連	-11.2373
百户	-11.2374
纍	-11.2374
凈	-11.2374
幢	-11.2375
潺湲	-11.2376
匈奴	-11.2376
氷霜	-11.2378
物外	-11.2378
㓗	-11.2379
揮毫	-11.238
按察僉事	-11.2383
遺跡	-11.2399
一般	-11.24
夐	-11.2401
㕓	-11.2402
鴟	-11.2403
匕	-11.2405
溉	-11.2406
朞	-11.2408
繡衣	-11.2408
廟學	-11.2409
醖	-11.2409
星斗	-11.2411
驄馬	-11.2411
以是為	-11.2413
豈易	-11.2413
數十人	-11.2418
世儒	-11.2423
遨	-11.2423
臺下	-11.2423
十分	-11.2427
不墜	-11.2427
抹	-11.2428
炬	-11.2429
碩人	-11.2429
可見矣	-11.243
嘗讀	-11.243
朱顔	-11.2431
科道	-11.2432
昭穆	-11.2432
兖	-11.2436
冉	-11.2437
一息	-11.2442
雲漢	-11.2446
隨風	-11.2446
本心	-11.2449
牡	-11.2452
淅	-11.2453
揚子	-11.2453
金銀	-11.2454
道學	-11.2455
流離	-11.2456
十首	-11.2456
供奉	-11.2457
杜陵	-11.2458
寒食	-11.2458
擯	-11.2462
者往往	-11.2462
吳門	-11.2462
壹	-11.2462
學政	-11.2464
僇	-11.2468
淮安	-11.2473
禾黍	-11.2479
杉	-11.2481
閶	-11.2483
厝	-11.2487
太祖髙皇帝	-11.2487
潼	-11.2491
煙霞	-11.2496
相視	-11.2497
優㳺	-11.2503
休致	-11.2506
蒹葭	-11.2509
歲時	-11.2509
轟	-11.2509
針	-11.251
飛花	-11.2515
刁	-11.2517
無奈	-11.252
是之謂	-11.252
愷	-11.2521
見素	-11.2522
不虞	-11.2524
黜陟	-11.2524
嵗暮	-11.2525
持節	-11.2528
功臣	-11.2532
彎	-11.2535
睫	-11.2538
不允	-11.2538
騶	-11.2538
暌	-11.2538
菴先生	-11.2539
鍳	-11.254
臨流	-11.2544
總管	-11.2544
家貧	-11.2546
承乏	-11.255
陰陽	-11.2551
若干人	-11.2554
精力	-11.2554
平江	-11.2555
黄葉	-11.2556
祀典	-11.2559
鏡中	-11.2561
綢繆	-11.2562
也至於	-11.2563
荼	-11.2563
燥	-11.2564
通州	-11.2564
五十年	-11.2564
沈氏	-11.2569
庶乎	-11.2569
覇	-11.2571
鄉貢進士	-11.2575
弟兄	-11.2577
予觀	-11.2577
宋儒	-11.2578
二十五日	-11.2579
往年	-11.2581
錦繡	-11.2582
屬余	-11.2586
保障	-11.2586
氤氲	-11.2588
涘	-11.2589
髣髴	-11.259
庄	-11.2594
何許	-11.2595
民物	-11.2595
蜿蜒	-11.2597
光華	-11.2598
之所以為	-11.2599
黄門	-11.2604
陸氏	-11.2604
几席	-11.2606
相依	-11.2607
而不知其	-11.2608
􁁊	-11.2611
妓	-11.2611
依稀	-11.2614
伶	-11.2617
牝	-11.2619
老氏	-11.2619
從兄	-11.2622
木葉	-11.2623
驍	-11.2625
怡然	-11.2628
賈誼	-11.2628
往還	-11.2628
語及	-11.2629
惜乎	-11.263
仰天	-11.2638
兒子	-11.2645
蓍	-11.2647
訃聞	-11.2648
貟	-11.265
矛	-11.2651
纊	-11.2651
嘿	-11.2653
野水	-11.2655
由是而	-11.2656
五嶽	-11.2656
工部尚書	-11.2659
一杯	-11.2664
飄零	-11.2665
世路	-11.2666
土木	-11.2666
春陽	-11.2671
斯堂	-11.2675
然後知	-11.2675
茂才	-11.2676
蒼翠	-11.2676
塹	-11.2677
西東	-11.2677
南征	-11.2679
閼	-11.268
搢紳	-11.268
非敢	-11.2681
郭氏	-11.2683
青松	-11.2688
同列	-11.269
庠生	-11.2691
平湖	-11.2695
古稱	-11.2696
隂隂	-11.2697
塤	-11.2702
債	-11.2702
唇	-11.2703
御史大夫	-11.2704
祖宗之	-11.2705
邕	-11.2707
殿下	-11.2708
婦女	-11.2708
夥	-11.271
臨岐	-11.271
祀事	-11.2715
巋然	-11.2715
咨嗟	-11.2716
永豐	-11.2716
尚友	-11.2721
仁厚	-11.2722
在昔	-11.2724
唯唯	-11.2725
容易	-11.2728
無虞	-11.2729
六藝	-11.2729
耦	-11.2733
旒	-11.2733
馳騁	-11.2736
乎抑	-11.2738
蹤跡	-11.2739
閨門	-11.2742
官司	-11.2743
湖州	-11.2746
不誣	-11.2747
而不可得	-11.2748
典史	-11.2749
隈	-11.2751
裊	-11.2752
眸	-11.2755
迤	-11.276
芳菲	-11.2762
西安	-11.2766
吉凶	-11.2766
客路	-11.2768
諜	-11.2769
那能	-11.2772
指揮使	-11.2774
近年	-11.2776
城外	-11.2781
皎皎	-11.2782
彭城	-11.2783
鮫	-11.2784
不返	-11.2787
斐	-11.2787
噪	-11.2788
姒	-11.279
沽酒	-11.2791
譙	-11.2794
抑亦	-11.2796
恚	-11.2797
太尉	-11.28
皇極	-11.2801
同鄉	-11.2804
𥿄	-11.2814
聖心	-11.2814
僞	-11.2815
展轉	-11.2817
檢討	-11.2817
嫓	-11.282
青燈	-11.2823
孫氏	-11.2825
北平	-11.2832
何謂	-11.2833
東湖	-11.2833
丁巳	-11.2834
傳聞	-11.2837
巻五	-11.2837
二十四日	-11.2839
五言律	-11.2842
詩句	-11.2843
悞	-11.2844
亰	-11.2845
遑	-11.285
好義	-11.2854
萬安	-11.2854
祖塋	-11.2858
赤松	-11.2861
老翁	-11.2861
霖雨	-11.2866
愍	-11.2866
魔	-11.2867
盻	-11.2868
蓴	-11.287
倡和	-11.2871
卯	-11.2871
闘	-11.2873
䙝	-11.2873
彥	-11.2873
我皇上	-11.2874
赫然	-11.2878
安慶	-11.288
吾祖	-11.2881
涕淚	-11.2883
玲瓏	-11.2892
十巻	-11.2894
颷	-11.2894
紅顔	-11.2898
昕	-11.2901
輅	-11.2902
年華	-11.2915
考亭	-11.2921
致身	-11.2921
冬至	-11.2923
鈴	-11.2924
其配	-11.2926
癯	-11.2926
怡怡	-11.2927
艘	-11.2929
鄉飲	-11.293
誡	-11.293
賫	-11.2931
埒	-11.2932
惴惴	-11.2933
松柏	-11.2933
雨晴	-11.2933
就養	-11.2935
堂前	-11.2935
汗漫	-11.2939
㡬何	-11.2941
累官	-11.2942
頫	-11.2953
㟁	-11.2953
縶	-11.2953
郎署	-11.2954
嚢	-11.2954
其平生	-11.2954
啜	-11.2958
仰止	-11.2961
婚嫁	-11.2961
荐	-11.2962
其黨	-11.2976
賴以	-11.2981
㡌	-11.2984
黽勉	-11.2986
脾	-11.2988
拮据	-11.2989
戎馬	-11.2992
壁間	-11.2994
鄒魯	-11.2996
物情	-11.2997
如是則	-11.3002
釋氏	-11.3005
幙	-11.3006
丹陽	-11.301
燁	-11.3015
絹	-11.3017
晟	-11.302
休戚	-11.3025
遺愛	-11.3032
穠	-11.3035
魚鳥	-11.3037
緜	-11.3038
三省	-11.3038
幟	-11.3042
裨	-11.3046
斌	-11.3046
丙寅	-11.3046
涕泣	-11.3048
欽此欽遵	-11.3051
青陽	-11.3053
七八	-11.3057
樂善	-11.3059
龍溪	-11.3061
用韻	-11.3062
邇來	-11.3064
錢氏	-11.3066
氏墓誌銘	-11.3067
好施	-11.3067
渺渺	-11.3067
甚厚	-11.3073
蝗	-11.3073
淆	-11.3073
積雪	-11.3075
一代之	-11.3077
痊	-11.3078
領鄉薦	-11.3079
莫知其	-11.3081
罔極	-11.3081
司主事	-11.3082
士習	-11.3084
清泉	-11.3084
而後已	-11.3091
孝亷	-11.3091
雞犬	-11.3097
鄉邑	-11.3099
烱	-11.31
遣官	-11.3103
九霄	-11.3103
淇	-11.3107
堰	-11.3108
之所存	-11.3109
請記	-11.3109
傷哉	-11.3109
秀色	-11.3111
縣學生	-11.3123
溘	-11.3125
任使	-11.3129
興化	-11.3131
淤	-11.3132
兩岸	-11.3139
固將	-11.3141
鶩	-11.3145
喟然	-11.3147
委任	-11.3151
特進	-11.3152
僚友	-11.3153
風露	-11.3156
乙卯	-11.3158
那知	-11.3159
賢士大夫	-11.3159
顙	-11.3159
花滿	-11.3161
不勝其	-11.3163
毋得	-11.3167
尚寳	-11.3167
二十一日	-11.3169
那堪	-11.3171
三司	-11.3174
翡翠	-11.3176
載籍	-11.3178
梳	-11.318
雝	-11.3181
泪	-11.3182
在京師	-11.3182
罏	-11.3185
孰非	-11.3186
武臣	-11.3187
侃	-11.3189
而求之	-11.319
睥睨	-11.3191
猺	-11.3192
儒術	-11.3194
震澤	-11.3198
碣石	-11.3199
以成其	-11.3203
月落	-11.3203
哀哉	-11.3209
莫大於	-11.3209
澌	-11.321
淙	-11.3211
進取	-11.3211
黼	-11.3214
䋲	-11.3214
形骸	-11.3215
曺	-11.3216
甃	-11.3217
四顧	-11.3217
㝎	-11.3219
禕	-11.3219
晶	-11.3221
家住	-11.3223
不見其	-11.3223
伐木	-11.3225
一統	-11.3226
對月	-11.3226
當代	-11.3227
猿鶴	-11.3227
聖皇	-11.3231
考諱	-11.3232
秦淮	-11.3234
帝王之	-11.3235
業儒	-11.3237
蜜	-11.3239
宗法	-11.3239
揺落	-11.3241
巉	-11.3241
淬	-11.3241
掄	-11.3243
無愧於	-11.3247
兵燹	-11.3248
五陵	-11.3248
櫬	-11.3249
短長	-11.3252
以贈之	-11.3258
數百里	-11.3262
窅	-11.3262
孝經	-11.3264
凭	-11.3269
突兀	-11.327
徬徨	-11.3271
笄	-11.3275
本司	-11.3275
見示	-11.3282
他鄉	-11.3283
矣况	-11.3286
累贈	-11.3288
雪後	-11.3289
憂國	-11.3292
谷口	-11.3294
璣	-11.3299
鞋	-11.33
袒	-11.3302
苴	-11.3304
洵	-11.3306
譔	-11.3306
紊	-11.3307
殆盡	-11.3311
直𨽻	-11.3311
離羣	-11.3316
無害	-11.332
蛾	-11.3321
北堂	-11.3323
宣城	-11.3323
官舍	-11.3324
韓子	-11.3325
耒	-11.3326
也銘曰	-11.3327
祭文	-11.3329
北闕	-11.3329
不腆	-11.3331
䆒	-11.3331
右布政使	-11.3333
冢宰	-11.3335
癸卯	-11.3336
里閈	-11.3345
交情	-11.3347
嘗從	-11.3347
考察	-11.3356
曽大父	-11.3357
釡	-11.3357
烏乎	-11.3358
甍	-11.3358
峴	-11.3358
璚	-11.3359
一段	-11.336
翺	-11.336
迸	-11.3361
瘡	-11.3363
離合	-11.3364
丁卯	-11.3365
歳月	-11.3366
聖賢之學	-11.3369
傾倒	-11.3376
要害	-11.3377
州刺史	-11.3377
分司	-11.3379
太后	-11.3381
星河	-11.3383
霏霏	-11.3383
桓公	-11.3389
始克	-11.339
紫宸	-11.3395
書屋	-11.3395
凡若干	-11.3397
木石	-11.3398
求賢	-11.3399
除夕	-11.3401
千峰	-11.3402
銓曹	-11.3405
天錫	-11.3413
餅	-11.3413
躑躅	-11.3415
恍惚	-11.3415
天下之士	-11.3418
致力	-11.3418
壬	-11.3422
琴書	-11.3423
職業	-11.3424
七百	-11.3426
典禮	-11.343
虎丘	-11.3431
總是	-11.3432
綱目	-11.3436
峨	-11.3438
軍士	-11.3438
血氣	-11.3438
先哲	-11.3442
之所由	-11.3443
攀龍	-11.3444
鬟	-11.3445
搴	-11.3446
涓	-11.3449
駝	-11.345
徙倚	-11.345
勤勞	-11.3451
甦	-11.3453
太乙	-11.3453
覘	-11.3458
進階	-11.3458
未識	-11.3458
自㓜	-11.3461
查照	-11.3465
大畧	-11.3466
肅然	-11.3473
筒	-11.3479
山之陽	-11.348
丘園	-11.3485
捄	-11.3486
秉燭	-11.3487
僅一	-11.349
鳴琴	-11.3494
筆硯	-11.3495
少宰	-11.35
廣平	-11.3502
孫男二	-11.3506
漓	-11.3507
萬物之	-11.3507
躓	-11.3509
隰	-11.351
珉	-11.3511
銖	-11.3515
國子監	-11.3518
臨池	-11.3519
光禄大夫	-11.3521
億萬	-11.3524
庶子	-11.3524
九卿	-11.3525
脩竹	-11.3526
自勵	-11.3527
珠玉	-11.3528
照舊	-11.3529
梨花	-11.353
府州縣	-11.3532
朱絃	-11.3534
薤	-11.3534
武林	-11.3536
肢	-11.3537
墳墓	-11.3538
參議	-11.3539
轉運	-11.354
肺腑	-11.354
公之子	-11.3543
跂	-11.3544
京國	-11.3553
朝暮	-11.3553
棄去	-11.3556
墨竹	-11.356
軻	-11.3565
累世	-11.3566
逗	-11.3567
連城	-11.3567
泚	-11.3567
肻	-11.3568
甘㫖	-11.3571
祛	-11.3571
避地	-11.3572
顛倒	-11.3573
軍旅	-11.3573
勉焉	-11.3573
不云乎	-11.3584
西昌	-11.3586
百戰	-11.3588
聲譽	-11.3589
以為何如	-11.359
萬巻	-11.359
不得已而	-11.3593
踟蹰	-11.3594
撑	-11.3595
聖賢之道	-11.3596
者以其	-11.3597
聖門	-11.3598
燄	-11.3599
籙	-11.36
豢	-11.3601
仰視	-11.3603
必須	-11.3604
千五百	-11.3606
年九月	-11.3611
户部尚書	-11.3611
芝蘭	-11.3612
元至正	-11.3616
一家之	-11.3616
娘	-11.362
宫闕	-11.3623
收拾	-11.3626
天下國家	-11.3628
溪流	-11.3628
臼	-11.363
廣信	-11.3631
禋	-11.3631
譎	-11.3632
駱	-11.3632
瑶池	-11.3633
考妣	-11.3639
漢魏	-11.3639
國計	-11.3641
毋論	-11.3642
沉沉	-11.3644
江隂	-11.3645
此之謂	-11.3645
漕運	-11.3646
紫霞	-11.3655
鷓鴣	-11.3656
箱	-11.3656
紉	-11.3657
攫	-11.3661
嫠	-11.3662
明王世貞撰	-11.3665
未許	-11.3665
滂	-11.3665
也若夫	-11.3666
訶	-11.3667
輝光	-11.3673
懐古	-11.368
飛鴻	-11.3684
瓠	-11.3685
窈	-11.3687
蘧	-11.3688
豺狼	-11.3688
尖	-11.3691
沔	-11.3691
芟	-11.3692
宫室	-11.3692
可笑	-11.3692
㵼	-11.3693
稼穡	-11.3694
焯	-11.3694
石橋	-11.3695
㺯	-11.3696
宣和	-11.3699
過訪	-11.3699
遺像	-11.3709
佳氣	-11.371
坐對	-11.3711
刷	-11.3714
賊巢	-11.3718
封疆	-11.3719
冬十月	-11.3722
建立	-11.3722
氏之先	-11.3723
獠	-11.3723
錮	-11.3723
燕趙	-11.3725
二十七日	-11.3726
黄鳥	-11.3726
洞天	-11.3727
供職	-11.3727
軒冕	-11.3728
吼	-11.3744
原任	-11.3751
枯槁	-11.3754
舉於鄉	-11.3755
古文辭	-11.3761
未了	-11.3763
萬夀	-11.3763
曾孫男	-11.3765
奏議	-11.3769
風烟	-11.377
者鮮矣	-11.3776
蠻夷	-11.3776
棧	-11.3777
毫釐	-11.3781
踊	-11.3787
當何如	-11.3787
母氏	-11.3788
餼	-11.379
塵世	-11.3793
倉皇	-11.3794
閹	-11.3794
無間言	-11.3794
軍餉	-11.3799
許氏	-11.3809
姥	-11.3809
未之有	-11.3812
飛揚	-11.3815
督府	-11.3815
六卿	-11.3816
禧	-11.3816
紏	-11.3816
塩	-11.3818
脆	-11.3819
規模	-11.3821
議處	-11.3822
莫向	-11.3824
像賛	-11.3826
遺孤	-11.3827
不爽	-11.3828
不怠	-11.3832
去住	-11.3834
左丞	-11.3837
禄養	-11.3837
琪	-11.3841
閬	-11.3844
汩	-11.3844
漬	-11.3845
煜	-11.3847
倜儻	-11.3849
先輩	-11.3849
晩節	-11.3852
酒杯	-11.3853
鎮江	-11.3858
羅氏	-11.386
先生諱	-11.386
弘治	-11.3862
昇平	-11.3866
方面	-11.3866
召還	-11.3868
問訊	-11.387
估	-11.3876
潦倒	-11.3877
詈	-11.3879
一區	-11.3879
筮仕	-11.3879
犒	-11.388
垂楊	-11.3885
岐路	-11.3886
玉帛	-11.3888
錦衣衛	-11.3892
務要	-11.3894
所撰	-11.3895
二十六日	-11.3897
鄉進士	-11.39
昊天	-11.3901
莘	-11.3905
年三十	-11.3909
夷狄	-11.3915
不自知	-11.3918
鳳陽	-11.3918
膓	-11.3937
皤	-11.3937
彪	-11.394
滙	-11.3943
膂	-11.3945
嚶	-11.3964
棊	-11.3968
洄	-11.3996
嚼	-11.3998
茁	-11.4006
蠡	-11.403
逖	-11.403
淩	-11.4032
恂	-11.4035
錐	-11.406
熖	-11.4065
祺	-11.4067
菁	-11.4091
櫓	-11.4097
竢	-11.4098
瀘	-11.4101
濺	-11.4123
莾	-11.4126
柘	-11.4126
芊	-11.4155
啇	-11.4157
壚	-11.4158
袵	-11.4163
逭	-11.4168
賙	-11.4169
芷	-11.4186
荔	-11.4188
鑠	-11.419
肴	-11.4194
耘	-11.4195
珎	-11.4195
鎬	-11.4196
唳	-11.4217
爍	-11.4218
叠	-11.4219
赭	-11.4221
熏	-11.4222
諦	-11.4223
珩	-11.4223
觚	-11.4224
謠	-11.4225
佃	-11.4226
夘	-11.4226
詬	-11.4229
襪	-11.4253
葭	-11.4255
旴	-11.426
玘	-11.426
隧	-11.4262
墾	-11.4266
曦	-11.4284
趺	-11.4286
兊	-11.4297
䰟	-11.4317
璇	-11.4318
錬	-11.4321
祲	-11.4323
崧	-11.4324
翎	-11.4348
卵	-11.4351
跽	-11.4356
茵	-11.438
槃	-11.4382
閴	-11.4383
圻	-11.4388
鰥	-11.439
駛	-11.4417
荻	-11.4417
穩	-11.4417
禰	-11.4417
璜	-11.4422
晳	-11.4424
渤	-11.4428
涙	-11.4448
漚	-11.4448
疴	-11.4451
曄	-11.4452
隷	-11.4462
丑	-11.4485
誑	-11.4485
鑱	-11.4485
笈	-11.4486
碁	-11.4486
沴	-11.4489
愠	-11.449
畹	-11.4517
脊	-11.4518
茨	-11.4519
灝	-11.4521
淄	-11.4522
僨	-11.4522
癸	-11.4538
嬾	-11.455
斫	-11.455
糞	-11.4552
鷙	-11.4555
蓼	-11.4584
鷁	-11.4584
掘	-11.4586
彫	-11.4616
邏	-11.4618
縳	-11.4621
瓌	-11.4621
瘵	-11.4621
諮	-11.4624
綉	-11.4647
浥	-11.4649
仄	-11.465
紵	-11.4655
醮	-11.4684
桴	-11.4687
磚	-11.4718
諼	-11.472
艤	-11.4722
馘	-11.4727
儁	-11.4728
潄	-11.4746
膾	-11.4749
惋	-11.4751
莱	-11.4751
缶	-11.4755
竪	-11.4755
聾	-11.4757
僃	-11.4759
眎	-11.4786
尅	-11.4788
縠	-11.4816
咄	-11.4819
藿	-11.482
匯	-11.4824
箠	-11.4824
孜	-11.4827
藕	-11.4848
昜	-11.4854
踣	-11.4858
幘	-11.4888
矚	-11.4889
產	-11.4896
鏊	-11.4896
燃	-11.492
𦕈	-11.4921
聒	-11.4923
冽	-11.4954
觥	-11.4956
嬪	-11.4959
璠	-11.496
愬	-11.4963
擣	-11.4964
擷	-11.4984
妝	-11.4985
涎	-11.4988
擎	-11.4988
扳	-11.4992
熹	-11.5
鋏	-11.5026
腕	-11.5026
菰	-11.5031
炯	-11.5058
麋	-11.5064
沁	-11.5065
咈	-11.5068
鸛	-11.5096
恫	-11.5097
秫	-11.5098
俚	-11.5099
楣	-11.51
僦	-11.5106
礦	-11.5107
芾	-11.5134
洮	-11.514
恙	-11.5154
皥	-11.5164
璵	-11.5168
縑	-11.5168
詮	-11.5169
蛻	-11.517
怖	-11.5173
垠	-11.5198
㱕	-11.5199
䄂	-11.5202
靚	-11.5203
琚	-11.5204
壼	-11.5205
璘	-11.5208
鏜	-11.5212
𣙜	-11.5214
潑	-11.5231
鵰	-11.5237
蚊	-11.5238
欒	-11.5241
黌	-11.5241
扆	-11.5243
昱	-11.5244
㐮	-11.5247
砂	-11.527
磧	-11.5273
摛	-11.5274
秖	-11.5275
㴱	-11.5277
盥	-11.528
拉	-11.528
藎	-11.5321
狷	-11.5346
簧	-11.5346
覯	-11.5348
孀	-11.5356
峒	-11.5356
萼	-11.5376
悰	-11.5381
顚	-11.5382
刈	-11.5384
諏	-11.5388
鍤	-11.5389
嘔	-11.5391
秃	-11.5414
衒	-11.5417
楠	-11.5418
抒	-11.5421
刮	-11.5423
参	-11.5425
斡	-11.5452
沫	-11.5453
賸	-11.5455
磔	-11.5455
堠	-11.546
擿	-11.5464
喫	-11.5481
黷	-11.5496
狃	-11.55
俛	-11.5514
撞	-11.5524
筌	-11.5525
纜	-11.5527
㸑	-11.5529
棼	-11.553
緫	-11.5563
咀	-11.5565
鍼	-11.5566
繒	-11.5567
壟	-11.5568
䛕	-11.557
忡	-11.5596
兠	-11.5598
虺	-11.5599
拚	-11.5601
幷	-11.5606
罅	-11.5637
麈	-11.564
躔	-11.5641
盱	-11.5642
纛	-11.5644
扞	-11.5645
埭	-11.5673
懵	-11.5677
鶻	-11.5677
疢	-11.5677
盲	-11.5679
筦	-11.568
証	-11.568
絀	-11.5684
濆	-11.5713
珊	-11.5715
鈐	-11.5716
怵	-11.5717
癘	-11.5717
汛	-11.5719
磊	-11.5747
胃	-11.5762
煒	-11.5792
敭	-11.5794
闐	-11.5824
祧	-11.5829
蹲	-11.5861
㳟	-11.5864
奐	-11.5866
蝟	-11.5866
剏	-11.5867
焰	-11.587
漉	-11.5897
鼉	-11.5897
飴	-11.5901
崕	-11.5907
舁	-11.5909
櫪	-11.5936
侶	-11.5937
媛	-11.5941
悒	-11.5942
屛	-11.5943
瀦	-11.5946
撻	-11.5947
揜	-11.598
禇	-11.5982
璿	-11.5987
蕨	-11.6012
隼	-11.6013
徊	-11.6014
蝦	-11.6014
関	-11.6014
蹌	-11.6016
熄	-11.6017
㽞	-11.6017
悌	-11.602
伉	-11.6023
稗	-11.6025
伽	-11.6028
綾	-11.6054
腔	-11.6055
犂	-11.6057
壌	-11.6063
剝	-11.6094
邳	-11.6096
届	-11.6097
遴	-11.61
澂	-11.6101
䧏	-11.6102
璟	-11.6104
腆	-11.6106
鐃	-11.6131
崦	-11.6131
籜	-11.6133
巗	-11.6134
燔	-11.6135
鎔	-11.6137
枳	-11.6167
艸	-11.6169
擠	-11.6173
綦	-11.6173
韞	-11.6174
荃	-11.6207
嫩	-11.6208
臾	-11.6209
値	-11.6211
讙	-11.6214
篚	-11.6215
鎰	-11.6215
讜	-11.6216
跣	-11.6218
劘	-11.6218
鞫	-11.6218
簒	-11.622
鎗	-11.6222
櫟	-11.6245
瀨	-11.6248
颸	-11.6249
揄	-11.6249
兕	-11.625
鼈	-11.625
豊	-11.6255
剗	-11.6257
飇	-11.6285
畬	-11.6291
篠	-11.6292
鏹	-11.6296
亶	-11.6328
宕	-11.6328
嵬	-11.6329
腋	-11.6331
票	-11.6338
榔	-11.6366
勩	-11.6373
纖	-11.6405
篙	-11.6409
坼	-11.6409
勗	-11.641
睂	-11.6411
孩	-11.6412
搨	-11.6414
缸	-11.6447
綘	-11.645
壩	-11.6451
簋	-11.6454
涔	-11.6454
瓚	-11.6456
霅	-11.6485
贛	-11.6487
瀼	-11.6489
砭	-11.6489
灔	-11.6493
畚	-11.6499
忒	-11.6529
翬	-11.6531
檝	-11.6532
麤	-11.6533
畸	-11.6534
戡	-11.6536
隲	-11.6538
謭	-11.6538
吠	-11.6565
肱	-11.6568
霾	-11.6572
袤	-11.6577
慳	-11.6614
䜛	-11.6615
■	-11.6615
諺	-11.6616
憸	-11.6616
廐	-11.662
斁	-11.6623
鄢	-11.6623
緱	-11.6652
詒	-11.6653
怛	-11.6691
跌	-11.6692
櫳	-11.6693
丱	-11.6694
餙	-11.6697
瀧	-11.6697
㨿	-11.6699
套	-11.67
雎	-11.67
忭	-11.6702
盾	-11.6703
㓙	-11.6704
坪	-11.6704
濩	-11.6735
鶉	-11.6736
攖	-11.674
霈	-11.6742
衘	-11.6742
艦	-11.6742
宄	-11.6745
窄	-11.6773
麽	-11.6773
莞	-11.6776
型	-11.6777
薜	-11.6779
尠	-11.6781
闖	-11.6782
鼐	-11.6784
醑	-11.6812
緗	-11.6818
綫	-11.6818
鷲	-11.682
㓛	-11.6821
廂	-11.6823
櫻	-11.686
舖	-11.686
鑣	-11.6861
奩	-11.6863
㫤	-11.6865
諄	-11.6866
脇	-11.6867
閧	-11.6868
戶	-11.6872
櫺	-11.6902
蟹	-11.6904
飜	-11.6905
縟	-11.6906
銕	-11.6906
祜	-11.6912
糠	-11.6942
毳	-11.6947
痼	-11.6947
糟	-11.6948
榱	-11.695
价	-11.6956
嗚	-11.6975
盞	-11.6983
臚	-11.6987
垓	-11.6987
泱	-11.6987
顥	-11.7027
醺	-11.7029
默	-11.703
筯	-11.7031
泐	-11.7032
燾	-11.7033
莒	-11.7034
俶	-11.7034
嚚	-11.7035
紿	-11.7036
繙	-11.7068
絺	-11.7069
爇	-11.7071
焜	-11.7073
勻	-11.7075
褎	-11.708
呶	-11.711
蝸	-11.7117
堊	-11.712
豳	-11.712
絰	-11.7122
𥙿	-11.7126
仞	-11.7142
闋	-11.7152
犧	-11.7158
礱	-11.7161
冤	-11.7162
媺	-11.7163
泌	-11.7164
苫	-11.7168
偵	-11.7168
埏	-11.7198
艫	-11.72
虀	-11.7203
纏	-11.7204
曝	-11.7204
佯	-11.7204
齗	-11.7206
葑	-11.7207
秣	-11.7238
雒	-11.7246
洊	-11.7251
棨	-11.7253
埜	-11.7288
琰	-11.7289
澈	-11.7289
箎	-11.7291
撮	-11.7297
貤	-11.7331
䧺	-11.7333
跬	-11.7334
詵	-11.7336
旺	-11.7342
崗	-11.7378
嶄	-11.7378
戌	-11.738
斆	-11.7385
騾	-11.7392
穗	-11.7415
𨗳	-11.7422
瞬	-11.7423
痺	-11.7428
煽	-11.7429
迯	-11.7463
暾	-11.7465
蒋	-11.7467
憒	-11.7469
庀	-11.747
媮	-11.7472
鯤	-11.751
簀	-11.7511
挟	-11.7511
柵	-11.7512
齧	-11.7513
杼	-11.7514
卭	-11.7514
彀	-11.7517
紘	-11.7518
𠞰	-11.7524
鐙	-11.7544
櫝	-11.7555
饕	-11.7556
渟	-11.7557
桷	-11.7559
槍	-11.7598
蔕	-11.7599
瑪	-11.7605
頎	-11.7606
韵	-11.7643
萋	-11.7644
沍	-11.7644
蕡	-11.7645
鯁	-11.7648
陡	-11.7649
頡	-11.765
筝	-11.7684
姢	-11.7686
嘈	-11.7688
紺	-11.7691
犁	-11.7692
隸	-11.7693
㷀	-11.7693
鋟	-11.7694
煇	-11.7697
噉	-11.7701
戊	-11.7714
晃	-11.7732
劃	-11.7733
杓	-11.7734
唶	-11.7736
薙	-11.7739
纉	-11.7741
凰	-11.7779
週	-11.7788
懟	-11.7788
槳	-11.7827
鴛	-11.7828
紬	-11.7828
臞	-11.7829
剸	-11.7831
緹	-11.7833
枵	-11.7836
竚	-11.787
嚙	-11.7879
泖	-11.7919
䜟	-11.7919
簸	-11.7923
暹	-11.7929
謇	-11.7956
叫	-11.7967
晡	-11.7972
郴	-11.7972
喝	-11.7973
毖	-11.7974
麒	-11.7978
膩	-11.801
㐫	-11.8016
赧	-11.8017
樛	-11.8018
蒔	-11.8019
无	-11.8021
戅	-11.8022
㝢	-11.8023
駙	-11.8023
迦	-11.8026
澘	-11.806
鼙	-11.8061
斚	-11.8061
褁	-11.8065
毉	-11.8067
忮	-11.8069
怦	-11.8106
梭	-11.8108
壷	-11.8109
㳙	-11.8112
涂	-11.8113
㩦	-11.8155
罟	-11.8155
涌	-11.8156
燮	-11.8158
鈿	-11.8199
猖	-11.8206
耨	-11.8206
猫	-11.8208
諂	-11.8211
輈	-11.8246
樾	-11.825
鷃	-11.825
惹	-11.825
內	-11.8251
檐	-11.8251
瀹	-11.8255
槀	-11.8256
夤	-11.8256
狙	-11.826
鹺	-11.826
悸	-11.8261
戦	-11.8262
仭	-11.8286
麄	-11.8297
闉	-11.8299
跛	-11.8302
尭	-11.8305
褥	-11.8305
刳	-11.8305
棐	-11.8306
蔭	-11.8346
粘	-11.835
藂	-11.8354
囀	-11.8397
騮	-11.8397
蜕	-11.8397
揉	-11.8399
硜	-11.8401
柑	-11.8403
禩	-11.8405
蓊	-11.8443
釃	-11.8446
栩	-11.8449
鏑	-11.845
跖	-11.8452
靦	-11.8452
㝡	-11.8453
砦	-11.8468
衎	-11.8494
爨	-11.8497
哥	-11.8498
髠	-11.8501
黝	-11.8501
糲	-11.8503
瓉	-11.8505
腑	-11.8545
栝	-11.8545
兌	-11.8548
紐	-11.855
翌	-11.8552
丼	-11.8555
嶧	-11.8592
昵	-11.8595
牋	-11.86
滔	-11.8601
娣	-11.8602
闓	-11.8602
飮	-11.8605
褰	-11.8639
蔗	-11.8645
毿	-11.8646
柁	-11.8646
蹂	-11.8646
髭	-11.8646
賽	-11.8647
蘂	-11.8647
釜	-11.8647
醅	-11.8648
蕞	-11.8653
灞	-11.8694
儋	-11.8698
寗	-11.8699
楩	-11.8699
款	-11.8699
絅	-11.87
髀	-11.87
騏	-11.8702
杰	-11.8704
曖	-11.873
襦	-11.8741
鍔	-11.8748
緻	-11.8748
珣	-11.8749
窳	-11.875
奭	-11.8757
籖	-11.8794
坰	-11.8795
籥	-11.8797
躐	-11.8798
券	-11.8804
璐	-11.8811
芋	-11.8845
袴	-11.8848
蜩	-11.8849
埽	-11.885
擄	-11.8855
脛	-11.8856
錚	-11.8857
𨳩	-11.889
撾	-11.8894
邨	-11.8899
醢	-11.8901
蓀	-11.8902
穽	-11.8903
殛	-11.8905
竁	-11.8905
廽	-11.8948
殻	-11.8948
皜	-11.895
撝	-11.895
筏	-11.8951
讋	-11.8951
义	-11.8952
褫	-11.8954
颶	-11.8959
禅	-11.8997
摸	-11.8998
咳	-11.9002
纘	-11.9003
唁	-11.9003
屡	-11.9005
旐	-11.9005
縹	-11.9007
郝	-11.9008
娃	-11.904
蒨	-11.9052
昶	-11.9054
剩	-11.9057
沗	-11.9057
撒	-11.9058
䬃	-11.9067
蚌	-11.9103
帚	-11.9108
訕	-11.9109
仔	-11.911
愾	-11.9111
腫	-11.9112
噤	-11.9113
糶	-11.9118
讃	-11.9119
姝	-11.9156
攢	-11.9158
榕	-11.9159
蹀	-11.916
昃	-11.916
仝	-11.916
綮	-11.9164
踔	-11.9168
贐	-11.9169
溽	-11.9209
羃	-11.921
蹋	-11.9211
玦	-11.9211
軿	-11.9212
閙	-11.9213
槊	-11.9215
昩	-11.9216
糊	-11.9216
偪	-11.9217
茘	-11.9218
齕	-11.9218
飼	-11.9218
弃	-11.9219
悛	-11.922
蛛	-11.9259
嶔	-11.9264
枻	-11.9266
楼	-11.9267
胙	-11.9271
雹	-11.9271
嬖	-11.9273
畛	-11.9273
珙	-11.9274
莩	-11.9277
幌	-11.9314
删	-11.9321
擺	-11.9321
摳	-11.9322
謖	-11.9324
瞭	-11.9325
汁	-11.9327
毆	-11.9327
敓	-11.9327
涿	-11.9331
毬	-11.9368
謄	-11.9376
聦	-11.9377
埸	-11.9379
嵌	-11.943
鑚	-11.9432
碍	-11.9433
曆	-11.9435
肫	-11.9437
縝	-11.944
軔	-11.9476
苧	-11.9479
缾	-11.9479
邅	-11.9481
褚	-11.9482
賒	-11.9484
饔	-11.9484
獷	-11.9488
恡	-11.949
弹	-11.9535
瞶	-11.9535
喁	-11.9538
竆	-11.9538
腎	-11.9538
晁	-11.9539
賾	-11.954
舠	-11.9542
徠	-11.9542
誾	-11.9543
禘	-11.9544
洸	-11.9544
炤	-11.9545
淘	-11.9586
遝	-11.9587
籃	-11.959
蒯	-11.9595
揀	-11.9595
窪	-11.9597
巇	-11.9645
粼	-11.9645
哽	-11.9645
壒	-11.9648
皁	-11.9651
恧	-11.9652
耉	-11.9654
灤	-11.9656
㦯	-11.9656
癢	-11.9702
蓐	-11.9704
疽	-11.9705
祟	-11.9706
猊	-11.9707
醯	-11.9707
瓛	-11.9709
儵	-11.9748
蕤	-11.9752
韭	-11.9754
榼	-11.9756
倨	-11.9759
槨	-11.9759
螟	-11.9761
寀	-11.9761
柢	-11.9761
剴	-11.9762
胞	-11.9762
囓	-11.9763
囷	-11.9767
喟	-11.9781
鶱	-11.9815
蓽	-11.9816
兑	-11.9819
瘧	-11.982
診	-11.982
玆	-11.982
箔	-11.9865
袪	-11.9868
槿	-11.987
瑭	-11.987
舡	-11.987
諶	-11.9872
媸	-11.9873
鍧	-11.9874
蒂	-11.9875
瑗	-11.9875
瑀	-11.9875
摠	-11.9876
椷	-11.9877
暱	-11.9878
謟	-11.988
鸎	-11.9923
枋	-11.9932
悪	-11.9934
盭	-11.9935
浰	-11.9936
漙	-11.9977
鷖	-11.9978
墊	-11.9979
舲	-11.9984
囙	-11.9985
刦	-11.9988
諠	-11.999
瑋	-11.9992
隃	-11.9998
獞	-11.9998
攪	-12.0037
痴	-12.0038
穡	-12.0041
盌	-12.0041
踽	-12.0041
描	-12.0042
湜	-12.0043
戛	-12.0044
檠	-12.0045
狠	-12.0047
痿	-12.0047
鉏	-12.0102
羶	-12.0102
晰	-12.0103
凑	-12.0104
㮣	-12.0107
隤	-12.0107
瞞	-12.0157
甑	-12.0157
酡	-12.0159
惬	-12.0161
窠	-12.0163
汜	-12.0164
敇	-12.0165
頳	-12.0216
秔	-12.0217
澣	-12.0217
愔	-12.0218
喆	-12.0221
瘝	-12.0223
簌	-12.0223
譟	-12.0224
躪	-12.0225
誹	-12.0225
迢	-12.0271
踉	-12.0274
綆	-12.0275
鶡	-12.0276
嘏	-12.0279
欿	-12.0283
刄	-12.0284
牐	-12.029
噭	-12.0327
綻	-12.033
舷	-12.0331
潏	-12.0331
曈	-12.0334
煨	-12.0334
樷	-12.0336
傚	-12.0337
砲	-12.0339
翀	-12.0341
鎧	-12.0342
銃	-12.0343
絆	-12.0388
蠖	-12.0391
荇	-12.0391
尔	-12.0392
澠	-12.0393
堙	-12.0395
嶢	-12.0398
苻	-12.04
珤	-12.0402
漱	-12.0449
鑪	-12.0452
沚	-12.0456
騑	-12.0457
箧	-12.046
抃	-12.0462
猱	-12.0505
佀	-12.0507
菌	-12.0509
戞	-12.0512
璲	-12.0513
哂	-12.0514
吭	-12.0515
糗	-12.0516
閾	-12.0516
么	-12.0517
絜	-12.0518
阼	-12.052
扺	-12.0525
撩	-12.0571
插	-12.0575
薌	-12.0585
惘	-12.061
鷟	-12.063
斸	-12.0635
螘	-12.0635
謌	-12.0637
瀬	-12.0637
貊	-12.0639
媾	-12.064
凂	-12.0642
縂	-12.0642
鉦	-12.0643
塑	-12.0646
𬗋	-12.0692
欎	-12.0693
邙	-12.0695
殳	-12.0698
楔	-12.0699
隗	-12.0701
簣	-12.0701
瑚	-12.0701
褊	-12.0702
禔	-12.0702
氐	-12.0703
庋	-12.0705
獅	-12.0732
怱	-12.0753
菅	-12.0756
煬	-12.0756
劭	-12.0757
廛	-12.0758
澒	-12.0759
彖	-12.0763
勣	-12.0764
屺	-12.0767
蚓	-12.0817
緼	-12.082
枰	-12.0822
涪	-12.0822
崐	-12.0824
祓	-12.0825
禊	-12.0825
刓	-12.0826
圩	-12.0833
魴	-12.0879
蘅	-12.088
麝	-12.0883
淖	-12.0885
㾗	-12.0885
单	-12.0888
喈	-12.094
磷	-12.0942
琯	-12.0945
琱	-12.0947
矱	-12.0947
鏃	-12.0947
汐	-12.0949
瓿	-12.0951
禳	-12.0951
酤	-12.0951
䔍	-12.0952
玻	-12.1006
鵾	-12.1007
咿	-12.1007
偲	-12.101
淼	-12.101
寍	-12.1011
悻	-12.1013
礴	-12.1013
壖	-12.1018
詿	-12.1018
屧	-12.1069
嵓	-12.1069
澧	-12.1069
倏	-12.107
塍	-12.1074
瀫	-12.1075
猴	-12.1075
䖝	-12.1078
羯	-12.1081
娠	-12.1084
乹	-12.1131
貰	-12.1135
噓	-12.1136
鱠	-12.1138
姆	-12.1139
淋	-12.114
蔀	-12.1141
澇	-12.1142
站	-12.1144
唫	-12.1144
檟	-12.1145
窽	-12.1149
摉	-12.1151
旛	-12.1195
丗	-12.1198
磽	-12.1202
臠	-12.1202
懣	-12.121
亳	-12.121
瀡	-12.121
庳	-12.1212
舩	-12.1258
㽔	-12.1259
术	-12.1266
訢	-12.1268
蹻	-12.1269
朘	-12.1277
孌	-12.1327
籀	-12.1331
滫	-12.1334
錠	-12.1336
郞	-12.1337
畯	-12.1339
芰	-12.1391
桒	-12.1395
斕	-12.1398
皈	-12.1398
硬	-12.1401
爕	-12.1402
嚇	-12.1403
鍵	-12.1405
賭	-12.1406
帔	-12.1406
嚕	-12.141
硎	-12.1462
岵	-12.1464
冏	-12.1468
禫	-12.1474
荄	-12.1525
秧	-12.1526
籩	-12.1528
餔	-12.1528
尓	-12.1529
逥	-12.1529
睽	-12.1531
炁	-12.1531
譌	-12.1536
眚	-12.1538
磁	-12.1543
喔	-12.1587
瞥	-12.1596
罾	-12.1596
祫	-12.1596
嶮	-12.1599
蘩	-12.1601
澦	-12.1602
驁	-12.1605
洙	-12.1609
酥	-12.1659
阪	-12.1662
櫜	-12.1666
宓	-12.1666
抆	-12.1667
珵	-12.1668
掊	-12.1669
贋	-12.167
壎	-12.167
輳	-12.1673
姱	-12.1727
婀	-12.173
肋	-12.1733
悮	-12.1735
綍	-12.1737
倬	-12.1738
尫	-12.1741
皚	-12.1791
楸	-12.1793
蘊	-12.1795
猪	-12.18
猩	-12.1801
个	-12.1805
禠	-12.1805
阽	-12.1806
遅	-12.1807
厮	-12.1808
螽	-12.1809
饜	-12.181
畮	-12.1811
喇	-12.1818
莪	-12.1865
獰	-12.1869
輾	-12.187
潸	-12.187
毘	-12.1871
舵	-12.1871
罌	-12.1871
郄	-12.1876
讚	-12.1876
䜿	-12.1879
郟	-12.1881
黻	-12.1882
譛	-12.1883
鸑	-12.1932
跟	-12.1935
沆	-12.1939
槽	-12.194
湔	-12.1945
症	-12.1945
澮	-12.1946
揑	-12.1948
隍	-12.1995
泬	-12.2002
豺	-12.2005
塌	-12.2007
萄	-12.2008
倥	-12.2009
瀏	-12.201
啚	-12.201
惸	-12.201
恝	-12.2016
俻	-12.2017
懊	-12.2074
𧺫	-12.2076
慱	-12.2076
唧	-12.2077
嚅	-12.2078
紡	-12.2078
屩	-12.2078
娟	-12.2079
睛	-12.2081
梏	-12.2082
苾	-12.2083
惴	-12.2083
枲	-12.2084
𠖇	-12.2086
礎	-12.2087
瘍	-12.2092
瓘	-12.2099
酪	-12.2152
攣	-12.2154
臈	-12.2154
涴	-12.2154
茀	-12.2155
刲	-12.2158
汊	-12.2158
衂	-12.2159
迕	-12.2159
箐	-12.2159
湢	-12.2165
崒	-12.2216
躚	-12.2218
漭	-12.2219
蘗	-12.2221
啣	-12.2224
汞	-12.2225
醲	-12.2227
銑	-12.2228
埴	-12.2228
帨	-12.223
㢲	-12.2232
爬	-12.2233
輀	-12.2233
溧	-12.2287
蕊	-12.2288
熠	-12.229
襯	-12.2291
嫣	-12.2293
臍	-12.2294
瞀	-12.2294
甬	-12.2295
蓂	-12.2297
昺	-12.2299
樟	-12.23
抜	-12.23
韡	-12.2301
愒	-12.2303
薈	-12.2306
嗾	-12.2309
甜	-12.2361
蜺	-12.2364
礫	-12.2365
誶	-12.2365
絞	-12.2366
罨	-12.2367
祼	-12.2367
魅	-12.2367
輶	-12.2368
佻	-12.2369
滉	-12.2369
彝	-12.2372
礲	-12.2375
掎	-12.2376
緦	-12.2379
琨	-12.2381
秇	-12.2382
鎩	-12.2436
蘢	-12.2438
澡	-12.2439
滃	-12.244
殂	-12.244
簞	-12.2442
𬞞	-12.2443
芮	-12.2445
鱣	-12.2445
遹	-12.2445
鞬	-12.2447
娑	-12.2451
岏	-12.2505
蠏	-12.2515
輊	-12.2515
枘	-12.2516
喑	-12.252
㦲	-12.252
縊	-12.2522
晻	-12.2581
𬈑	-12.2583
菉	-12.2586
惨	-12.2587
蹠	-12.2587
藺	-12.2588
蔥	-12.2589
溯	-12.2591
罇	-12.2592
帕	-12.2592
雇	-12.2594
甯	-12.2594
沱	-12.2595
㩁	-12.26
渦	-12.2655
螯	-12.2656
佗	-12.266
茱	-12.2661
凊	-12.2664
矍	-12.2667
瀋	-12.2668
𣏌	-12.2669
瓴	-12.267
彧	-12.267
珏	-12.2673
殍	-12.2673
罥	-12.2731
闚	-12.2732
簑	-12.2733
抔	-12.2736
椀	-12.2738
嘐	-12.274
歧	-12.274
牎	-12.2741
麯	-12.2745
齮	-12.2747
媕	-12.2747
慥	-12.2747
央	-12.2761
觜	-12.2813
攤	-12.2814
攙	-12.2815
彘	-12.2815
瞢	-12.2815
繻	-12.2816
簉	-12.2817
蹷	-12.2817
賕	-12.2817
玠	-12.2818
瞠	-12.2819
坏	-12.2819
鍚	-12.2819
坌	-12.282
蠭	-12.282
佘	-12.282
鱉	-12.2821
儌	-12.2823
眄	-12.2883
貔	-12.2885
箏	-12.2885
􁁜	-12.2886
啾	-12.2887
菟	-12.2888
琬	-12.2889
畞	-12.289
禺	-12.289
黟	-12.289
葷	-12.2891
摯	-12.2894
輜	-12.2894
佺	-12.2895
矇	-12.2897
崎	-12.2898
嫖	-12.2964
㬰	-12.2969
刖	-12.297
銛	-12.297
錡	-12.2972
塏	-12.2973
孳	-12.2976
峪	-12.2977
卬	-12.3039
皺	-12.304
骯	-12.3042
闍	-12.3046
噩	-12.3048
厖	-12.3048
襁	-12.3048
蓁	-12.3049
嚬	-12.3051
鈇	-12.3052
鴞	-12.3052
継	-12.3056
痩	-12.3118
菖	-12.312
俳	-12.3125
酈	-12.3125
癃	-12.3128
噱	-12.3128
殪	-12.3199
坻	-12.3199
臉	-12.32
鸇	-12.3202
湊	-12.3204
撿	-12.3205
粢	-12.3207
暦	-12.3207
䭾	-12.321
慼	-12.3214
捩	-12.3273
滲	-12.3277
眈	-12.3279
媧	-12.3281
鋸	-12.3281
哮	-12.3282
鑽	-12.3283
呀	-12.3284
陘	-12.3284
凾	-12.3284
劈	-12.3285
蓉	-12.3288
躞	-12.329
陕	-12.3294
薩	-12.3294
鍰	-12.3296
瓣	-12.3346
褭	-12.3356
莢	-12.3357
輻	-12.3358
鐺	-12.3359
町	-12.3359
犴	-12.336
頹	-12.3362
魃	-12.3364
鱷	-12.3364
覦	-12.3364
挨	-12.3365
郛	-12.3367
捜	-12.3367
咻	-12.3368
胝	-12.3369
婭	-12.3372
嗃	-12.3374
巋	-12.3414
筑	-12.3431
爺	-12.3437
囏	-12.3439
悁	-12.3442
氅	-12.3445
齔	-12.3446
蟒	-12.3448
洫	-12.3448
洟	-12.3453
烜	-12.3494
侏	-12.3519
狺	-12.3521
旎	-12.3521
驀	-12.3521
犖	-12.3523
拿	-12.3524
沕	-12.3524
鞶	-12.3525
骫	-12.3526
頊	-12.3526
襜	-12.3527
嗒	-12.3527
﨑	-12.3527
骼	-12.3527
羹	-12.3529
孶	-12.3529
㘭	-12.36
呦	-12.3604
䣊	-12.3605
蟊	-12.3606
砢	-12.3608
蚩	-12.3611
槥	-12.3613
貍	-12.3615
蛺	-12.3677
玖	-12.3685
颿	-12.3686
貉	-12.3688
脗	-12.3688
蕳	-12.3689
癰	-12.3689
涅	-12.3691
矮	-12.3692
薔	-12.3764
菀	-12.3766
鴿	-12.3766
稌	-12.3768
漶	-12.377
摽	-12.3771
啁	-12.3771
碗	-12.3775
噎	-12.3775
醵	-12.3779
鏖	-12.3781
憺	-12.3852
荑	-12.3854
虫	-12.3855
濊	-12.3856
茒	-12.3856
旰	-12.3856
腊	-12.3857
鍜	-12.3857
碭	-12.3857
脣	-12.3857
挐	-12.3858
瘥	-12.3859
趋	-12.3861
櫃	-12.3862
猨	-12.3927
柿	-12.3931
窣	-12.3933
桮	-12.3933
忉	-12.3934
㶚	-12.3936
断	-12.3936
淂	-12.3937
罝	-12.3939
泡	-12.394
鋋	-12.3941
嚥	-12.3941
簠	-12.3941
粃	-12.3942
皐	-12.3943
羿	-12.3943
庥	-12.3944
伻	-12.3944
蜿	-12.402
轢	-12.4022
薺	-12.4023
繐	-12.4023
弢	-12.4025
煤	-12.4026
舳	-12.4027
螫	-12.4028
莠	-12.4029
玅	-12.403
侗	-12.4032
戇	-12.4035
泫	-12.4075
寞	-12.4107
歊	-12.4107
鉗	-12.4111
篪	-12.4113
尙	-12.4113
叵	-12.4114
搦	-12.4115
醸	-12.4115
愊	-12.4115
橐	-12.4115
鯀	-12.4119
鄠	-12.4122
郃	-12.4124
廏	-12.4129
灧	-12.4195
囁	-12.4199
鬒	-12.4199
酲	-12.4199
吃	-12.4199
䌓	-12.4201
涊	-12.4201
疣	-12.4202
彗	-12.4203
渰	-12.4204
轕	-12.4204
衊	-12.4207
鈺	-12.4208
佹	-12.4213
摵	-12.4272
騕	-12.4278
盬	-12.4282
菓	-12.4283
膈	-12.4287
萸	-12.4288
卹	-12.4288
燐	-12.4289
筞	-12.4289
薾	-12.4289
呪	-12.4291
訌	-12.4292
媍	-12.4293
讁	-12.4296
煢	-12.4297
暍	-12.4369
豗	-12.437
妒	-12.4371
𫀆	-12.4371
蘺	-12.4371
嶻	-12.4372
㪺	-12.4374
鉄	-12.4378
憝	-12.438
繢	-12.438
鋩	-12.4382
榘	-12.4459
嵸	-12.4459
匆	-12.4463
蜮	-12.4467
鏌	-12.4468
糺	-12.4471
􁎍	-12.4471
咤	-12.4471
甎	-12.4471
犇	-12.4473
顱	-12.4542
鸂	-12.4542
鮒	-12.455
甿	-12.455
嬈	-12.4551
磐	-12.4551
咆	-12.4552
訏	-12.4552
乕	-12.4552
胚	-12.4553
掞	-12.4553
鄱	-12.4553
阯	-12.4554
纁	-12.4556
噦	-12.4556
畎	-12.4558
茭	-12.4561
詗	-12.457
腮	-12.4639
蹁	-12.4641
靠	-12.4641
蜍	-12.4641
薑	-12.4642
鼯	-12.4643
偬	-12.4643
澥	-12.4643
楯	-12.4645
劌	-12.4645
爝	-12.4645
畋	-12.4647
䀌	-12.4647
澍	-12.4648
縢	-12.465
眙	-12.4651
剋	-12.4653
釗	-12.4653
賠	-12.4655
昴	-12.4729
淦	-12.473
茯	-12.473
咫	-12.4731
駞	-12.4731
㶁	-12.4734
絓	-12.4734
虱	-12.4735
豋	-12.4735
卸	-12.4736
吮	-12.4739
䦧	-12.474
殀	-12.4741
剞	-12.4741
湎	-12.4821
烘	-12.4825
犍	-12.4827
沌	-12.4827
换	-12.4827
磻	-12.4828
峡	-12.4828
枌	-12.4829
釂	-12.483
哇	-12.4831
黏	-12.4832
醍	-12.4832
棍	-12.4836
据	-12.4837
鸘	-12.4917
蚪	-12.4922
圈	-12.4926
狸	-12.5004
蕕	-12.5015
澨	-12.5017
㶑	-12.5019
鏐	-12.502
岌	-12.502
𣑽	-12.5021
刅	-12.5022
僂	-12.5024
剜	-12.5024
愎	-12.5031
瀟	-12.508
蛤	-12.511
痒	-12.5112
羗	-12.5113
騘	-12.5113
渌	-12.5113
崤	-12.5114
憗	-12.5115
宷	-12.5116
詖	-12.5116
牣	-12.5117
晬	-12.512
慴	-12.512
朅	-12.5183
嘹	-12.5199
嫵	-12.5201
磈	-12.5205
秤	-12.5208
蝨	-12.5208
橙	-12.5209
搬	-12.5209
饟	-12.5209
鑛	-12.5213
㞐	-12.5213
劂	-12.5213
餗	-12.5215
辤	-12.5215
曁	-12.5217
娜	-12.5291
茝	-12.5299
牂	-12.5302
鷫	-12.5302
撚	-12.5303
䲭	-12.5306
牗	-12.5308
楞	-12.5313
陿	-12.5315
疹	-12.5317
痢	-12.5317
螿	-12.5397
狖	-12.5397
㳫	-12.5397
炷	-12.5398
塿	-12.5398
眯	-12.5401
塡	-12.5401
騄	-12.5401
蔔	-12.5401
旖	-12.5404
鍛	-12.5405
湼	-12.5405
簦	-12.5405
鳷	-12.5405
縲	-12.5408
溆	-12.5408
萑	-12.5412
抶	-12.5413
裵	-12.5498
茰	-12.5499
巃	-12.55
箑	-12.55
鶬	-12.5501
蒭	-12.5503
嘷	-12.5503
鵩	-12.5503
獺	-12.5504
剌	-12.5504
襮	-12.5505
邠	-12.5507
孥	-12.5507
噍	-12.5508
屭	-12.5508
嵒	-12.5509
擐	-12.5514
贔	-12.5517
擥	-12.5588
鴂	-12.5595
鷀	-12.5598
靴	-12.56
瑙	-12.5601
儇	-12.5601
嗅	-12.5603
澶	-12.5603
眥	-12.5603
皭	-12.5604
彂	-12.5604
娩	-12.5605
淟	-12.5605
鵒	-12.5605
勍	-12.5606
鎡	-12.5607
轇	-12.5608
仡	-12.5609
両	-12.5613
詛	-12.5614
戔	-12.569
呻	-12.5692
䳌	-12.5698
紲	-12.57
嵂	-12.5701
幬	-12.5703
䌫	-12.5703
獪	-12.5704
絍	-12.5704
沬	-12.5704
嘴	-12.5705
䑛	-12.5705
酢	-12.5706
焞	-12.5708
棚	-12.5708
跼	-12.5709
桁	-12.5709
鄆	-12.571
棫	-12.5711
㳂	-12.5712
衺	-12.572
惝	-12.5794
鬐	-12.5803
扛	-12.5804
偁	-12.5805
觔	-12.5806
辠	-12.5807
釘	-12.5809
擗	-12.5818
壕	-12.582
郕	-12.5822
顇	-12.5901
鸕	-12.5902
聃	-12.5904
愫	-12.5904
熨	-12.5906
飣	-12.5906
蠁	-12.5906
暵	-12.5908
衽	-12.5909
跑	-12.591
皴	-12.591
倔	-12.591
跗	-12.5911
垤	-12.5912
醐	-12.5912
胼	-12.5913
孛	-12.5915
㫄	-12.5921
轔	-12.6001
画	-12.6005
罘	-12.6007
琤	-12.601
䍦	-12.601
藳	-12.601
颭	-12.6012
絫	-12.6012
鐔	-12.6014
哩	-12.6017
嫺	-12.6018
琉	-12.6018
嶇	-12.6018
饁	-12.6019
髏	-12.6019
唘	-12.602
蠓	-12.6109
猋	-12.6111
跧	-12.6113
跏	-12.6114
趁	-12.6115
陔	-12.6115
崟	-12.6116
諐	-12.6116
硃	-12.6117
瓞	-12.6117
癭	-12.6118
襃	-12.612
撐	-12.6121
暠	-12.6121
愳	-12.6121
漑	-12.6125
盔	-12.6127
郿	-12.6129
鹹	-12.6219
糈	-12.6223
搭	-12.6223
棃	-12.6224
矰	-12.6226
紇	-12.6227
僰	-12.6227
䞇	-12.6227
徯	-12.6227
灋	-12.6229
籞	-12.623
卣	-12.6231
噲	-12.6233
囉	-12.6233
絙	-12.6324
欃	-12.6324
駘	-12.6326
鞮	-12.6328
礧	-12.633
畤	-12.633
媯	-12.6332
姨	-12.6334
怫	-12.6335
芘	-12.6336
鰓	-12.6336
臟	-12.6339
忖	-12.634
譖	-12.6342
洧	-12.6343
䘚	-12.6347
陴	-12.6433
葳	-12.6435
幀	-12.6437
竑	-12.6438
汭	-12.6439
朢	-12.644
璆	-12.6441
鴆	-12.6441
杌	-12.6442
敉	-12.6443
坳	-12.6445
耰	-12.6445
溱	-12.6445
眊	-12.6446
偘	-12.6446
杠	-12.6448
囤	-12.645
罸	-12.6452
蜻	-12.654
鶒	-12.6541
闞	-12.6547
瞋	-12.6549
确	-12.6551
澷	-12.6551
卄	-12.6553
滚	-12.6553
裸	-12.6553
贗	-12.6553
瓈	-12.6555
踧	-12.6555
捶	-12.6557
篡	-12.656
蝉	-12.6655
狴	-12.6657
稳	-12.6659
饞	-12.666
鴒	-12.666
箬	-12.666
鄺	-12.6661
彜	-12.6661
芡	-12.6662
霪	-12.6665
惓	-12.6666
邾	-12.6666
璁	-12.6667
鋼	-12.6668
勌	-12.6669
脞	-12.667
燉	-12.6675
冪	-12.6713
纈	-12.6765
虖	-12.6769
韁	-12.677
娼	-12.6771
輛	-12.6774
蹬	-12.6775
芭	-12.6775
壈	-12.6776
黿	-12.6776
罩	-12.6776
萇	-12.6777
懴	-12.6777
樣	-12.6778
騧	-12.6778
邜	-12.6778
烺	-12.6779
齓	-12.678
愞	-12.6781
埓	-12.6783
从	-12.6869
㠝	-12.6875
璃	-12.6877
幪	-12.6885
厫	-12.6888
鬖	-12.6889
裯	-12.6889
廌	-12.6889
沭	-12.6891
鑊	-12.6891
泒	-12.6893
髑	-12.6894
渫	-12.6894
詼	-12.6896
忞	-12.6897
牓	-12.6899
噶	-12.69
瀁	-12.6995
熇	-12.6996
羝	-12.6996
曨	-12.6997
嗈	-12.6998
鞚	-12.6998
酗	-12.6998
翽	-12.7
窹	-12.7
帘	-12.7002
涬	-12.7002
姤	-12.7003
鏟	-12.7003
凃	-12.7004
莵	-12.7005
蹏	-12.7008
澐	-12.7008
郯	-12.7009
蛄	-12.7106
蜓	-12.7108
炮	-12.7109
溼	-12.7111
綌	-12.7111
恁	-12.7112
隩	-12.7114
歈	-12.7115
隮	-12.7116
匀	-12.7116
嬋	-12.7117
皿	-12.7117
呐	-12.7118
澱	-12.7121
串	-12.7121
琇	-12.7123
羆	-12.7124
洑	-12.7124
纇	-12.7125
諝	-12.7125
敡	-12.7127
濙	-12.7128
汧	-12.7128
丒	-12.7129
鬲	-12.7133
蕐	-12.7229
韈	-12.7235
鬪	-12.7235
祊	-12.7235
螳	-12.7235
璨	-12.7237
淝	-12.7238
罣	-12.7239
毶	-12.724
鍥	-12.7243
醬	-12.7244
獮	-12.7246
絏	-12.7246
爱	-12.7246
箝	-12.7249
砍	-12.7249
蠛	-12.7346
喃	-12.7346
煞	-12.7346
醁	-12.7352
朓	-12.7353
憯	-12.7353
捭	-12.7354
躱	-12.7356
郅	-12.7357
曀	-12.7358
虵	-12.7358
呫	-12.7358
鄜	-12.736
筩	-12.7361
暐	-12.7362
夹	-12.7362
疥	-12.7362
鋐	-12.7363
鷂	-12.7363
䓁	-12.7365
戩	-12.7366
揲	-12.7368
浯	-12.7368
讟	-12.7374
閈	-12.7449
蹉	-12.7464
鞵	-12.7467
蕖	-12.7471
虯	-12.7471
郜	-12.7472
凹	-12.7472
怏	-12.7473
堇	-12.7474
菘	-12.7474
洶	-12.7475
㴠	-12.7475
惄	-12.7476
瓮	-12.7476
耜	-12.7476
鮓	-12.7477
􁃻	-12.7479
窖	-12.748
閠	-12.748
軏	-12.7482
雯	-12.7483
頖	-12.7483
跅	-12.7485
繽	-12.754
爆	-12.7586
黽	-12.759
釭	-12.7591
繅	-12.7592
嗽	-12.7593
閡	-12.7594
惚	-12.7596
狻	-12.7596
櫽	-12.7597
嶪	-12.7597
鐍	-12.7599
嘱	-12.76
稊	-12.7601
蝎	-12.7601
劎	-12.7601
嵎	-12.7601
勷	-12.7602
㡳	-12.7603
湟	-12.7605
喣	-12.7606
稡	-12.7612
箜	-12.7712
篌	-12.7713
㕑	-12.7714
戺	-12.7717
澀	-12.7718
畣	-12.7718
薝	-12.7719
蟣	-12.772
佪	-12.7721
殢	-12.7721
骳	-12.7721
鐶	-12.7721
肸	-12.7724
阱	-12.7724
嫚	-12.7724
旟	-12.7724
浡	-12.7724
劻	-12.7725
埤	-12.7726
觖	-12.7726
癉	-12.7727
霣	-12.773
扢	-12.7732
垕	-12.7737
曬	-12.784
傖	-12.7841
訇	-12.7842
溶	-12.7842
椰	-12.7843
赬	-12.7844
菼	-12.7844
伾	-12.7844
麴	-12.7845
瘉	-12.7846
坷	-12.7846
騃	-12.7848
忸	-12.7848
呑	-12.7853
綈	-12.7853
虢	-12.7856
埠	-12.7856
殲	-12.7856
覉	-12.796
蟇	-12.7962
嶰	-12.7964
怜	-12.7964
皛	-12.797
瑁	-12.7971
窑	-12.7971
撙	-12.7971
酎	-12.7972
膜	-12.7973
碓	-12.7975
譸	-12.7976
靨	-12.7976
饍	-12.7977
厎	-12.7978
蜡	-12.7979
唄	-12.798
枷	-12.7981
囅	-12.7982
胔	-12.7985
焱	-12.8091
璈	-12.8092
惺	-12.8093
颼	-12.8094
嘒	-12.8094
汍	-12.8095
睊	-12.8101
䆠	-12.8101
灕	-12.8101
畒	-12.8102
迍	-12.8103
邯	-12.8104
堧	-12.8105
㗖	-12.8105
雘	-12.8105
憖	-12.8107
匄	-12.8109
惲	-12.8226
髄	-12.8229
篴	-12.8231
瘢	-12.8232
䴡	-12.8233
称	-12.8235
琥	-12.8235
擡	-12.8235
枿	-12.8236
犄	-12.8236
饘	-12.8237
寬	-12.8238
㛰	-12.8242
种	-12.8246
蜷	-12.8351
肚	-12.8353
谺	-12.8355
揶	-12.8357
欷	-12.8358
聵	-12.836
瘖	-12.8361
坱	-12.8361
蚋	-12.8362
滎	-12.8362
霤	-12.8365
溲	-12.8367
侠	-12.8368
輗	-12.8368
餱	-12.8369
軆	-12.837
咋	-12.8371
伋	-12.8371
覼	-12.8371
垜	-12.8372
樁	-12.8372
刎	-12.8373
穣	-12.8375
咬	-12.8379
斿	-12.8483
脰	-12.8488
枸	-12.8491
䡖	-12.8491
胭	-12.8494
蓞	-12.8494
洌	-12.8495
鄼	-12.8495
鰕	-12.8496
蠕	-12.8497
憨	-12.8497
鷇	-12.8498
塈	-12.8498
葅	-12.8498
踆	-12.8501
怔	-12.8501
舴	-12.8501
丢	-12.8501
騙	-12.8503
􁅋	-12.8504
龐	-12.8504
皖	-12.8504
嵊	-12.851
蟪	-12.8615
皪	-12.8621
湓	-12.8627
𦦨	-12.8629
秬	-12.863
粳	-12.8631
飊	-12.8631
簽	-12.8631
湃	-12.8633
肎	-12.8634
媢	-12.8635
秕	-12.8636
賃	-12.8636
袋	-12.8636
􁂗	-12.8636
嗛	-12.8637
蘸	-12.8638
婪	-12.8639
襆	-12.8639
蹐	-12.864
啗	-12.864
㬥	-12.8641
碾	-12.8756
紞	-12.8757
傺	-12.8759
螣	-12.876
唼	-12.876
濞	-12.876
蠒	-12.876
觱	-12.8762
睞	-12.8765
緍	-12.8767
荳	-12.8767
跫	-12.8769
帡	-12.8769
痡	-12.8772
耔	-12.8772
梃	-12.8774
儈	-12.8775
朒	-12.8776
獒	-12.8778
抺	-12.8779
鄔	-12.8779
誖	-12.8783
𠻳	-12.8786
蚕	-12.8894
訒	-12.89
跕	-12.8902
裀	-12.8902
蕘	-12.8903
鷴	-12.8904
熬	-12.8904
篘	-12.8904
鍪	-12.8905
炰	-12.8905
㴻	-12.8906
鼂	-12.8906
萏	-12.8907
觶	-12.8908
嵫	-12.8908
椘	-12.8909
逡	-12.8909
譊	-12.8909
龢	-12.891
惮	-12.891
輭	-12.8913
呴	-12.8915
埧	-12.8916
溍	-12.8916
瞪	-12.8916
蹩	-12.8918
釴	-12.894
苒	-12.9032
韉	-12.9035
翾	-12.9039
叮	-12.9042
嶁	-12.9042
鄣	-12.9043
跚	-12.9044
撕	-12.9046
嫜	-12.9047
酖	-12.9047
偓	-12.9048
獬	-12.9049
哆	-12.9051
諟	-12.9051
仳	-12.9051
𤯝	-12.9052
轝	-12.9053
㣧	-12.9058
傘	-12.9062
岢	-12.9069
釧	-12.9181
姣	-12.9183
砰	-12.9185
蹰	-12.9187
篲	-12.9187
髹	-12.9187
鵜	-12.9189
総	-12.919
蠆	-12.9192
幰	-12.9192
佾	-12.9193
瞍	-12.9193
俑	-12.9194
晜	-12.9195
奫	-12.9196
顫	-12.9198
盩	-12.9201
覡	-12.9201
潨	-12.9203
僎	-12.9213
嵋	-12.9323
蹡	-12.9325
稲	-12.9328
楙	-12.9331
袞	-12.9333
葫	-12.9334
鞾	-12.9334
煆	-12.9335
虓	-12.9336
稹	-12.9336
紼	-12.9336
扑	-12.9338
殚	-12.934
茇	-12.9341
愓	-12.9342
逑	-12.9343
簏	-12.9344
餬	-12.9345
踖	-12.9346
䕷	-12.9472
楝	-12.9476
罳	-12.9476
顗	-12.9477
窬	-12.9478
棬	-12.9479
藋	-12.9479
鰐	-12.948
糝	-12.948
鳧	-12.948
䘖	-12.948
鼕	-12.9481
貙	-12.9482
濰	-12.9482
駰	-12.9483
緌	-12.9485
崙	-12.9488
楗	-12.9488
詧	-12.9488
剷	-12.9489
赱	-12.949
惙	-12.9491
壝	-12.9492
褘	-12.9494
鵑	-12.9624
臙	-12.9629
簔	-12.963
怩	-12.9631
唆	-12.9631
趄	-12.9631
伈	-12.9632
饉	-12.9632
籓	-12.9634
捴	-12.9634
幇	-12.9634
腯	-12.9634
悱	-12.9637
窿	-12.9639
亹	-12.964
栅	-12.9642
劖	-12.9642
洿	-12.9645
薿	-12.977
湾	-12.9774
嶓	-12.9775
獍	-12.9775
𬒮	-12.9776
臲	-12.9778
撇	-12.978
躊	-12.978
瓏	-12.9782
禜	-12.9783
抝	-12.9783
覷	-12.9784
邴	-12.9784
罽	-12.9784
晒	-12.9786
扎	-12.9786
嫻	-12.9786
淥	-12.9786
肪	-12.9787
麕	-12.9787
駮	-12.9789
摺	-12.979
揔	-12.9793
赳	-12.9794
桄	-12.9929
柞	-12.9935
妺	-12.9936
慫	-12.9936
拽	-12.9938
䘵	-12.9938
搤	-12.9939
顴	-12.994
黥	-12.9941
睱	-12.9942
裋	-12.9943
瀍	-12.9943
椅	-12.9945
亊	-12.9948
艴	-12.9954
靉	-13.0078
陁	-13.0079
葯	-13.0083
菶	-13.0083
魋	-13.0088
澳	-13.009
蛆	-13.0093
撡	-13.0095
轎	-13.0095
鳲	-13.0097
籛	-13.0098
蔦	-13.0101
冣	-13.0101
禴	-13.0101
郗	-13.0103
玳	-13.024
𦍑	-13.0241
谽	-13.0243
噏	-13.0244
傀	-13.0245
敺	-13.0246
痔	-13.0247
疃	-13.0247
懔	-13.0248
怎	-13.0249
𫐠	-13.0252
渣	-13.0254
猘	-13.0254
嚌	-13.0254
餮	-13.0255
瑱	-13.0257
捽	-13.0257
篳	-13.0258
匭	-13.0258
蕢	-13.0259
瞷	-13.0263
蛸	-13.0401
糅	-13.0408
爚	-13.0409
稾	-13.041
茟	-13.0411
韝	-13.0411
鶵	-13.0411
菹	-13.0412
鑕	-13.0412
侘	-13.0412
茜	-13.0413
睟	-13.0413
萹	-13.0413
鸜	-13.0414
濘	-13.0414
翶	-13.0415
錘	-13.0415
匙	-13.0416
党	-13.0418
卲	-13.0419
褻	-13.0419
澎	-13.0421
儺	-13.0421
侖	-13.0422
罡	-13.0422
鎪	-13.0423
駔	-13.0428
拷	-13.0429
鵓	-13.0565
鯖	-13.057
豬	-13.0574
雊	-13.0575
珞	-13.0575
蓺	-13.0576
献	-13.0577
茄	-13.0577
胤	-13.0579
侂	-13.0582
縗	-13.0583
袝	-13.0583
辞	-13.0584
嫕	-13.0584
屇	-13.0584
闒	-13.0585
轓	-13.0585
劓	-13.0587
籕	-13.0588
篝	-13.0723
崿	-13.0724
􁡾	-13.0726
瑑	-13.0729
籯	-13.074
帢	-13.0741
侁	-13.0742
仿	-13.0742
嵲	-13.0742
蝀	-13.0743
􁲍	-13.0743
頟	-13.0744
薅	-13.0745
漈	-13.0745
頀	-13.0746
檉	-13.0747
聱	-13.0747
芑	-13.0747
倂	-13.0748
纚	-13.0749
珈	-13.075
谼	-13.0751
姐	-13.0751
汸	-13.0752
􁛰	-13.0762
啻	-13.0833
营	-13.0894
耼	-13.0902
顦	-13.0905
怊	-13.0907
糚	-13.0908
繰	-13.0908
轗	-13.0909
馗	-13.0909
捎	-13.091
圽	-13.091
砉	-13.091
剉	-13.0911
狭	-13.0911
体	-13.0914
棖	-13.0914
氲	-13.0915
徕	-13.0915
焕	-13.0915
觝	-13.0919
㰱	-13.0922
匾	-13.1073
瘼	-13.1074
薋	-13.1077
藟	-13.1078
瀠	-13.1079
芲	-13.1081
蹭	-13.1082
鞲	-13.1082
欤	-13.1083
胾	-13.1083
酺	-13.1085
瓔	-13.1087
疉	-13.1087
攔	-13.1088
槌	-13.1088
俜	-13.109
鮭	-13.1091
痌	-13.1091
醋	-13.1091
搃	-13.1091
佽	-13.1092
帋	-13.1092
晢	-13.1095
焄	-13.1095
姙	-13.1096
涑	-13.1097
鍋	-13.1241
霂	-13.1251
溔	-13.1255
岧	-13.1255
逌	-13.1255
牁	-13.1257
蛉	-13.1257
砆	-13.1259
拗	-13.126
歕	-13.126
螻	-13.1261
橡	-13.1261
蒺	-13.1263
邐	-13.1264
餖	-13.1264
捃	-13.1266
縵	-13.1266
曕	-13.1267
觕	-13.1269
㮄	-13.1271
媼	-13.128
俺	-13.1284
慌	-13.1434
睍	-13.1435
柙	-13.1436
牿	-13.1437
鸚	-13.1437
涣	-13.1437
礬	-13.1438
搥	-13.1439
斲	-13.1442
枹	-13.1442
㯽	-13.1442
𢷬	-13.1443
趯	-13.1443
痞	-13.1443
忼	-13.1444
醻	-13.1445
𡵨	-13.1445
駃	-13.1447
鴇	-13.1447
絨	-13.1451
裭	-13.1452
􁈍	-13.1452
厔	-13.1453
躳	-13.146
圞	-13.1608
賺	-13.1614
窱	-13.1616
蹣	-13.1617
飀	-13.1617
徨	-13.1617
玭	-13.1618
妤	-13.1619
箒	-13.1621
宁	-13.1621
鎛	-13.1621
戬	-13.1621
屼	-13.1622
屆	-13.1623
趦	-13.1623
彷	-13.1623
嘑	-13.1624
棒	-13.1625
嵯	-13.1626
慆	-13.1626
齠	-13.1627
剚	-13.1627
飪	-13.1627
嚄	-13.1631
匵	-13.1633
驌	-13.1634
迁	-13.1646
嬿	-13.1795
縋	-13.1798
􁂰	-13.1799
觳	-13.18
桶	-13.18
姫	-13.1801
欸	-13.1802
碔	-13.1802
軛	-13.1802
灊	-13.1803
檮	-13.1804
蝌	-13.1806
綣	-13.1806
灸	-13.1806
摋	-13.1807
鬆	-13.1809
憬	-13.181
硏	-13.1812
苹	-13.1812
鼾	-13.1812
搒	-13.1812
喀	-13.1813
禡	-13.1814
鰣	-13.1816
趫	-13.1817
鼃	-13.1982
姍	-13.1987
渼	-13.1989
葹	-13.1989
梔	-13.1989
倕	-13.199
芼	-13.1991
豨	-13.1992
𣪚	-13.1992
蕆	-13.1994
騂	-13.1995
鮐	-13.1995
睆	-13.1995
蠣	-13.1996
辝	-13.1996
佔	-13.1996
聪	-13.1999
眡	-13.1999
姁	-13.1999
槱	-13.2
絛	-13.2001
穂	-13.2001
纆	-13.2002
蓆	-13.2002
僝	-13.2002
淶	-13.2002
黧	-13.2003
蔌	-13.2004
蝮	-13.2005
峝	-13.2005
酆	-13.2009
嚭	-13.2011
㙮	-13.2174
霡	-13.2176
瘏	-13.2176
麵	-13.2178
赩	-13.218
岣	-13.2183
􁉤	-13.2184
纑	-13.2185
痏	-13.2186
𧖟	-13.2187
兜	-13.2188
騋	-13.2189
槧	-13.2189
旤	-13.2189
褪	-13.219
飰	-13.2191
㗸	-13.2191
郇	-13.2193
欬	-13.2194
僥	-13.2194
肹	-13.2194
恇	-13.2194
尢	-13.2194
薶	-13.2195
眤	-13.2197
㫋	-13.2199
樅	-13.2201
珫	-13.2201
虩	-13.2204
悢	-13.2368
喋	-13.2373
蠨	-13.2373
郫	-13.2379
咍	-13.2381
炅	-13.2381
餳	-13.2383
齦	-13.2384
昪	-13.2384
鎦	-13.2385
洚	-13.2385
簴	-13.2387
糒	-13.2389
踘	-13.239
斮	-13.239
胠	-13.239
蜑	-13.2391
坍	-13.2396
檏	-13.2396
檗	-13.2398
蒜	-13.2552
濈	-13.2569
妁	-13.2571
鵶	-13.2571
鱖	-13.2574
穪	-13.2578
碪	-13.2578
岊	-13.2579
觫	-13.2579
甆	-13.2582
杙	-13.2582
唏	-13.2582
瘃	-13.2583
矞	-13.2585
栱	-13.2585
囦	-13.2586
夬	-13.2586
腠	-13.2587
醽	-13.2587
珦	-13.2588
痘	-13.2588
囯	-13.2589
糵	-13.2589
餕	-13.2592
訑	-13.2592
贒	-13.2592
傞	-13.2594
㳤	-13.2596
澚	-13.2611
鞦	-13.2777
捋	-13.2779
睎	-13.2779
痍	-13.2782
鯈	-13.2783
紃	-13.2783
徉	-13.2783
榾	-13.2784
騅	-13.2784
鯢	-13.2784
踴	-13.2786
鮪	-13.2788
祻	-13.2788
腓	-13.2788
攴	-13.2788
劳	-13.2788
玫	-13.2789
艎	-13.279
抨	-13.2791
輋	-13.2791
傒	-13.2791
侄	-13.2792
盒	-13.2793
醆	-13.2794
螗	-13.2794
敔	-13.2794
蓏	-13.2794
熺	-13.2798
璡	-13.2798
佶	-13.2799
􁇢	-13.28
适	-13.2801
泂	-13.2804
鞿	-13.2983
駬	-13.2984
㐲	-13.2989
鶖	-13.299
梦	-13.2991
雰	-13.2991
筥	-13.2992
礟	-13.2992
蕾	-13.2992
醎	-13.2993
鼪	-13.2995
礼	-13.2996
仐	-13.2997
餧	-13.2998
梲	-13.2998
琖	-13.2998
凸	-13.2999
鞘	-13.3001
笮	-13.3002
屫	-13.3002
朙	-13.3002
滹	-13.3004
闃	-13.3006
瘐	-13.301
嚳	-13.3011
鈕	-13.3196
惛	-13.3196
鉶	-13.3202
牾	-13.3202
譾	-13.3204
巑	-13.3204
醨	-13.3204
䓗	-13.3207
洏	-13.321
蜉	-13.3211
栻	-13.3213
笫	-13.3213
儤	-13.3213
鞞	-13.3214
甡	-13.3215
恆	-13.3215
唉	-13.3216
歜	-13.3216
趐	-13.3217
朏	-13.3218
頮	-13.3218
汳	-13.3222
蝝	-13.3228
鎌	-13.3417
𫾣	-13.3417
膊	-13.3419
灺	-13.342
朐	-13.342
彯	-13.3421
𢋫	-13.3422
澼	-13.3422
蓧	-13.3423
亍	-13.3424
憙	-13.3425
眵	-13.3425
甖	-13.3425
叄	-13.3425
筤	-13.3425
瀲	-13.3425
駪	-13.3426
騊	-13.3427
榷	-13.3427
駼	-13.3427
禬	-13.3428
暏	-13.3428
玁	-13.3429
驃	-13.3429
搰	-13.343
螙	-13.3431
􁒍	-13.3431
墁	-13.3432
圠	-13.3434
珷	-13.3435
洱	-13.3435
宂	-13.3436
蠋	-13.3633
摐	-13.3639
搪	-13.3639
坫	-13.3639
熛	-13.3641
抖	-13.3642
𪠘	-13.3643
洹	-13.3647
莧	-13.3647
紕	-13.3647
燹	-13.3648
縧	-13.3648
胖	-13.365
畇	-13.365
􁆒	-13.365
洢	-13.3652
氤	-13.3652
筲	-13.3654
羑	-13.3656
懃	-13.3656
訿	-13.3657
瑢	-13.3658
􁒽	-13.3658
俵	-13.3663
攟	-13.3667
珌	-13.3671
鷸	-13.3864
籹	-13.3867
圏	-13.3868
鰌	-13.3868
嬙	-13.387
蜾	-13.3871
烙	-13.3871
裼	-13.3873
唤	-13.3873
祏	-13.3875
䢴	-13.3875
酇	-13.3875
燀	-13.3877
粻	-13.3877
顕	-13.3877
鋌	-13.3877
􁃽	-13.3879
蒱	-13.3879
慓	-13.3879
𢥠	-13.388
齁	-13.3881
殣	-13.3883
<	-13.3884
t	-13.3884
煅	-13.3885
蜒	-13.3886
杇	-13.3886
趕	-13.3887
𥅆	-13.3887
珝	-13.389
賍	-13.3892
贇	-13.3895
双	-13.4094
甽	-13.4095
踟	-13.4095
匜	-13.41
臓	-13.41
芙	-13.4101
幛	-13.4101
彳	-13.4103
窔	-13.4104
廚	-13.4105
凴	-13.4105
􁈼	-13.4105
駸	-13.4105
哢	-13.4105
佖	-13.4106
窰	-13.4108
咮	-13.411
蚍	-13.411
嚦	-13.411
膻	-13.411
桅	-13.411
份	-13.4111
薖	-13.4112
臏	-13.4112
圬	-13.4112
幗	-13.4112
惧	-13.4113
㫪	-13.4114
䁀	-13.4114
􁃔	-13.4115
璹	-13.4115
櫨	-13.4115
驎	-13.4116
襞	-13.4116
喤	-13.4116
燖	-13.4117
蹮	-13.4117
囈	-13.4118
牷	-13.4118
籧	-13.4119
嘬	-13.4119
疼	-13.412
錞	-13.412
嘽	-13.4121
楘	-13.4123
硿	-13.4137
崘	-13.4332
懆	-13.4332
邛	-13.4334
僾	-13.434
褷	-13.434
漻	-13.4343
斨	-13.4344
㢮	-13.4344
戻	-13.4345
洴	-13.4345
韀	-13.4345
歗	-13.4346
頬	-13.4347
馹	-13.4348
皸	-13.435
隟	-13.435
箆	-13.4351
皡	-13.4352
慍	-13.4353
詁	-13.4353
浜	-13.4354
黮	-13.4355
阬	-13.4355
吚	-13.4358
畈	-13.436
尻	-13.436
漷	-13.437
豭	-13.4376
婕	-13.4577
囱	-13.4581
咒	-13.4582
褵	-13.4582
灂	-13.4584
蜼	-13.4585
鷥	-13.4586
獧	-13.4587
宙	-13.4587
􁁃	-13.4587
蓘	-13.4588
蟺	-13.4588
澉	-13.4589
玕	-13.459
肓	-13.459
倮	-13.459
鼒	-13.459
䔩	-13.4591
窞	-13.4591
朦	-13.4591
槭	-13.4591
氈	-13.4592
喊	-13.4592
􁈔	-13.4592
艨	-13.4592
櫩	-13.4594
􁄭	-13.4595
痁	-13.4596
傴	-13.4596
杗	-13.4597
廑	-13.4597
湩	-13.4597
醳	-13.4598
甪	-13.4598
艣	-13.4598
們	-13.4598
浃	-13.4599
偫	-13.4599
砑	-13.4602
煃	-13.4605
浟	-13.4828
瀺	-13.4828
鼷	-13.4828
榑	-13.4829
媳	-13.4829
曶	-13.483
𬋩	-13.4832
鴝	-13.4836
蝇	-13.4836
腳	-13.4837
閆	-13.4838
昈	-13.4838
怗	-13.4838
熯	-13.4839
吷	-13.4839
磥	-13.484
墠	-13.4841
惎	-13.4841
揵	-13.4842
貓	-13.4843
傔	-13.4843
艑	-13.4843
霛	-13.4843
髽	-13.4844
廱	-13.4845
异	-13.4846
琹	-13.4846
瑺	-13.4847
駉	-13.4847
嗸	-13.4847
揩	-13.4848
紝	-13.4848
槗	-13.4849
䀋	-13.4849
湞	-13.4851
鄮	-13.4852
奓	-13.4855
椉	-13.5066
纕	-13.5082
偭	-13.5084
倜	-13.5085
㺄	-13.5085
麐	-13.5086
琶	-13.5086
蜴	-13.5086
笱	-13.5087
霎	-13.5087
劚	-13.5089
䨴	-13.5089
磕	-13.509
棕	-13.5091
㴞	-13.5092
焫	-13.5092
茞	-13.5093
墦	-13.5093
㲲	-13.5093
崪	-13.5093
􁊍	-13.5093
硤	-13.5094
氾	-13.5094
㠯	-13.5095
彿	-13.5096
躧	-13.5096
垞	-13.5096
梱	-13.5097
襚	-13.5097
㠠	-13.5098
䠥	-13.51
姸	-13.51
穵	-13.51
䇲	-13.5101
爟	-13.5102
甔	-13.5102
匃	-13.5102
酳	-13.5103
鞴	-13.5103
哄	-13.5103
褉	-13.5103
璀	-13.5104
摴	-13.5104
霙	-13.5105
䆮	-13.5106
滀	-13.5106
倀	-13.5107
蚨	-13.5107
脤	-13.5109
埶	-13.5109
韎	-13.511
黶	-13.511
坯	-13.511
僴	-13.5111
薆	-13.534
忳	-13.5344
鈆	-13.5346
柅	-13.5349
鵂	-13.5351
鷦	-13.5351
僯	-13.5352
詶	-13.5353
糖	-13.5354
譍	-13.5354
翣	-13.5354
𥻘	-13.5356
蝥	-13.5357
叡	-13.5358
虔	-13.5358
碌	-13.5358
㻞	-13.5359
闤	-13.5359
軃	-13.5361
掦	-13.5363
逶	-13.5364
巓	-13.5365
潾	-13.5365
麇	-13.5366
虣	-13.5368
俌	-13.5368
鎣	-13.5368
謏	-13.5369
侫	-13.5369
咥	-13.537
崱	-13.5372
譓	-13.5393
鯿	-13.5612
鬘	-13.5616
蝠	-13.5619
漩	-13.562
靆	-13.5621
弸	-13.5622
駴	-13.5622
眶	-13.5622
逴	-13.5623
謪	-13.5625
蠃	-13.5626
卼	-13.5626
腿	-13.5628
稏	-13.5628
絇	-13.5628
柂	-13.5629
卅	-13.5629
戹	-13.563
臝	-13.563
㯶	-13.563
嘖	-13.563
幫	-13.5631
呷	-13.5632
嶕	-13.5632
庒	-13.5633
爹	-13.5633
椹	-13.5634
嶸	-13.5634
缷	-13.5634
呰	-13.5635
嚆	-13.5635
穟	-13.5635
􁎐	-13.5638
兗	-13.5638
轆	-13.5638
堨	-13.5639
㗳	-13.564
疁	-13.5641
岞	-13.5642
絿	-13.5643
娭	-13.5645
犛	-13.565
臛	-13.5894
袛	-13.5896
酴	-13.5896
碕	-13.5898
遟	-13.5899
翿	-13.5899
揠	-13.59
鵁	-13.59
朧	-13.59
荏	-13.5902
鯽	-13.5902
􁋥	-13.5902
慽	-13.5903
櫧	-13.5904
姹	-13.5905
獝	-13.5905
緤	-13.5905
蜘	-13.5905
汹	-13.5908
􁱝	-13.5908
櫚	-13.5908
䆅	-13.5909
睒	-13.5909
㕍	-13.5909
銍	-13.591
惔	-13.5911
篾	-13.5912
􁌫	-13.5912
佈	-13.5912
褕	-13.5913
荈	-13.5913
羾	-13.5913
晣	-13.5914
杆	-13.5914
騠	-13.5915
旼	-13.5917
听	-13.5918
魘	-13.5919
璩	-13.5921
紜	-13.6119
箾	-13.6173
縆	-13.6184
楛	-13.6184
篔	-13.6185
㬌	-13.6186
憍	-13.6186
泅	-13.6187
蠺	-13.6187
瑲	-13.6188
弈	-13.6191
襠	-13.6191
悝	-13.6192
圅	-13.6194
墐	-13.6195
隖	-13.6196
骭	-13.6196
珹	-13.6196
鄫	-13.6197
磋	-13.6198
寠	-13.62
􁂍	-13.62
䔥	-13.6202
窊	-13.6202
棉	-13.6203
袷	-13.6204
坵	-13.6205
剄	-13.6206
辮	-13.6207
龥	-13.6208
桺	-13.621
挻	-13.621
爌	-13.6214
嬛	-13.6474
湑	-13.6476
莉	-13.6478
鬅	-13.6478
茉	-13.6478
魈	-13.648
罻	-13.6481
緲	-13.6481
蠙	-13.6481
讖	-13.6482
鶄	-13.6482
驘	-13.6482
䄡	-13.6484
儡	-13.6485
硉	-13.6485
荣	-13.6485
烋	-13.6485
鸊	-13.6486
掔	-13.6487
鬵	-13.6487
鏁	-13.6487
靮	-13.6488
躄	-13.6488
孃	-13.6489
蹯	-13.6489
襖	-13.649
丏	-13.6491
嶐	-13.6491
杕	-13.6491
繂	-13.6491
螮	-13.6492
踶	-13.6492
泆	-13.6492
窵	-13.6492
脹	-13.6493
􁑮	-13.6493
蘐	-13.6494
勰	-13.6495
捱	-13.6496
躃	-13.6496
蛭	-13.6496
鐩	-13.6497
蚡	-13.6497
㵸	-13.6498
瀜	-13.6499
冔	-13.6499
頏	-13.6499
咯	-13.6499
扒	-13.65
惽	-13.6504
昫	-13.6505
埔	-13.6506
硝	-13.6507
柷	-13.6509
讇	-13.6513
𪷟	-13.6771
猰	-13.6776
矌	-13.6779
鏦	-13.678
鶹	-13.678
努	-13.6781
檳	-13.6782
嫫	-13.6782
焙	-13.6783
賵	-13.6784
䙀	-13.6786
褓	-13.6786
濼	-13.6786
炒	-13.6787
媟	-13.6788
鍠	-13.6788
䟤	-13.6789
釅	-13.6789
𤱔	-13.679
滏	-13.6791
冑	-13.6791
噀	-13.6791
艟	-13.6793
崍	-13.6795
襫	-13.6796
滻	-13.6797
嵕	-13.6798
岈	-13.6798
岝	-13.6798
襏	-13.6799
咷	-13.68
蜣	-13.68
𣆀	-13.68
􁔱	-13.6802
淰	-13.6802
蔞	-13.6804
䁥	-13.6804
冄	-13.6806
㙜	-13.6806
幨	-13.6807
剙	-13.6807
􁑭	-13.6808
悤	-13.6817
鸐	-13.7085
􁐝	-13.7086
緖	-13.7088
摻	-13.7093
橑	-13.7095
鵕	-13.7095
䓤	-13.7095
躰	-13.7095
膿	-13.7096
慅	-13.7096
靷	-13.7097
鸝	-13.7097
玲	-13.7097
滷	-13.7098
蘤	-13.7098
帟	-13.7099
䄄	-13.71
皞	-13.71
躇	-13.71
螂	-13.7101
慂	-13.7101
橛	-13.7101
籝	-13.7102
筓	-13.7102
崷	-13.7103
絖	-13.7105
𣸪	-13.7105
奘	-13.7105
瀵	-13.7105
禖	-13.7105
頦	-13.7107
𥚹	-13.7107
俁	-13.7108
􁈯	-13.7109
谹	-13.711
拇	-13.711
禭	-13.711
滾	-13.7111
艭	-13.7111
椔	-13.7112
㟧	-13.7112
嶒	-13.7112
馽	-13.7114
厘	-13.7114
偰	-13.7114
玹	-13.7115
綯	-13.7115
蜆	-13.7116
篩	-13.7117
耎	-13.7127
跱	-13.7404
蜥	-13.7405
㵾	-13.7408
醿	-13.7414
敧	-13.7416
鬙	-13.7417
麰	-13.7419
遰	-13.742
蒍	-13.742
邰	-13.7421
洺	-13.7422
𥜗	-13.7422
礽	-13.7423
桔	-13.7423
灃	-13.7423
廋	-13.7424
蕝	-13.7424
􁂶	-13.7424
卺	-13.7424
謼	-13.7425
歠	-13.7426
㜕	-13.7427
斒	-13.7428
賮	-13.7428
糕	-13.7428
㘴	-13.7428
鎚	-13.7428
噆	-13.7429
愸	-13.7429
揫	-13.7429
𬎼	-13.7429
狶	-13.743
鎏	-13.7431
袽	-13.7431
栲	-13.7431
繖	-13.7431
謩	-13.7433
㜻	-13.7435
蟆	-13.7435
茌	-13.7435
䨥	-13.7435
􁑋	-13.7436
懍	-13.7437
􁭤	-13.7437
莬	-13.7437
彠	-13.7438
𫝊	-13.7438
匍	-13.7439
迩	-13.7439
瑨	-13.744
懨	-13.7445
赶	-13.7447
敶	-13.7741
閗	-13.7744
旍	-13.7746
卋	-13.7746
毺	-13.7748
騤	-13.7749
霮	-13.775
鬃	-13.775
耑	-13.7751
􁇔	-13.7752
煴	-13.7752
獐	-13.7752
鏄	-13.7753
騣	-13.7753
錙	-13.7754
麛	-13.7754
偎	-13.7754
槪	-13.7754
蓓	-13.7755
灉	-13.7755
鯫	-13.7756
蕣	-13.7757
嫋	-13.7757
蹢	-13.7757
胯	-13.7757
癬	-13.7757
蝱	-13.7758
琲	-13.7758
慇	-13.7759
麫	-13.776
𥚑	-13.776
饈	-13.776
篥	-13.776
􁐾	-13.776
桕	-13.7761
痗	-13.7762
挍	-13.7763
鍇	-13.7763
餟	-13.7764
㮚	-13.7764
􁀬	-13.7764
䞉	-13.7764
変	-13.7764
弥	-13.7765
晹	-13.7765
􁪽	-13.7765
䇄	-13.7767
翏	-13.7768
玢	-13.7768
昡	-13.7769
卨	-13.7769
兟	-13.7769
嶙	-13.777
獎	-13.7775
嶴	-13.7776
醤	-13.7779
彍	-13.778
犨	-13.7786
翛	-13.8072
􁑴	-13.8082
鱔	-13.809
裛	-13.809
簁	-13.8091
蜎	-13.8091
僶	-13.8091
膰	-13.8093
堲	-13.8094
噂	-13.8096
鶼	-13.8098
沄	-13.8099
刧	-13.8099
炕	-13.81
獼	-13.81
岔	-13.81
吰	-13.8101
槲	-13.8103
妲	-13.8103
蜋	-13.8103
䮍	-13.8105
驔	-13.8105
麞	-13.8105
骩	-13.8105
葸	-13.8106
諲	-13.8106
遫	-13.8106
癈	-13.8107
氂	-13.8107
硫	-13.8107
陗	-13.8108
􁲕	-13.8108
惷	-13.8108
膋	-13.8109
軹	-13.811
逯	-13.811
儳	-13.811
贜	-13.8111
袐	-13.8111
娵	-13.8112
駏	-13.8113
鋹	-13.8113
鑼	-13.8113
扯	-13.8114
攰	-13.8116
誆	-13.8118
荂	-13.8118
咱	-13.8121
幞	-13.8121
􁂎	-13.8124
􁀊	-13.8441
􁈞	-13.8446
胹	-13.8446
􁐍	-13.8452
蝙	-13.8453
􁒬	-13.8453
搘	-13.8454
芴	-13.8455
檿	-13.8456
綁	-13.8457
沜	-13.8458
禨	-13.8458
芚	-13.8459
欻	-13.8459
訹	-13.8459
􁁪	-13.846
㗋	-13.846
嗑	-13.846
擫	-13.8461
魑	-13.8461
霦	-13.8461
鞳	-13.8461
漘	-13.8462
矻	-13.8462
頞	-13.8462
橜	-13.8462
穅	-13.8462
諴	-13.8463
齶	-13.8463
樕	-13.8463
踸	-13.8464
眢	-13.8465
踢	-13.8465
蟫	-13.8465
闑	-13.8465
溈	-13.8465
崚	-13.8466
湥	-13.8466
䙫	-13.8468
襴	-13.8468
顜	-13.8469
燋	-13.8469
袨	-13.8469
鬨	-13.847
柚	-13.847
乩	-13.847
􁰽	-13.847
籐	-13.847
鏬	-13.8474
眦	-13.8475
熲	-13.8476
詾	-13.8477
踦	-13.8478
嶲	-13.8479
搢	-13.8481
懥	-13.8805
媞	-13.881
鷰	-13.8815
􁂋	-13.8818
飂	-13.8819
蕺	-13.8821
呿	-13.8822
呢	-13.8822
踠	-13.8823
痂	-13.8823
􁄚	-13.8824
丫	-13.8824
𢡟	-13.8824
擭	-13.8824
穮	-13.8824
羖	-13.8825
頲	-13.8826
鑷	-13.8826
嶫	-13.8827
綖	-13.8827
嶃	-13.8828
宐	-13.8829
鱎	-13.883
㵳	-13.8831
􁋌	-13.8831
旾	-13.8831
讕	-13.8831
圑	-13.8831
睪	-13.8832
􁋚	-13.8832
噌	-13.8833
頩	-13.8833
秒	-13.8833
戳	-13.8834
薉	-13.8835
􁉒	-13.8835
蚿	-13.8835
旡	-13.8835
湴	-13.8835
鼗	-13.8836
仵	-13.8836
莛	-13.8837
褶	-13.8837
汔	-13.8838
皃	-13.8839
謎	-13.8839
圄	-13.884
笯	-13.8841
鱅	-13.8841
􁒐	-13.8842
荊	-13.8842
唔	-13.8843
羜	-13.8845
浼	-13.8845
􁌨	-13.8845
磑	-13.8847
曏	-13.8848
𤼵	-13.8848
瑒	-13.8855
􁜔	-13.919
麏	-13.9196
蝘	-13.9197
遌	-13.92
橅	-13.9203
势	-13.9203
貐	-13.9204
穜	-13.9205
獫	-13.9205
攺	-13.9206
餁	-13.9209
膬	-13.921
袿	-13.921
鐻	-13.921
躠	-13.921
漰	-13.9211
﨣	-13.9212
􁁂	-13.9213
嗉	-13.9213
諑	-13.9214
瞩	-13.9214
鐲	-13.9214
驊	-13.9215
噞	-13.9215
骴	-13.9216
蹜	-13.9216
駊	-13.9217
沇	-13.9218
㠋	-13.9219
䆫	-13.9219
饎	-13.922
郾	-13.922
烖	-13.922
掫	-13.9221
訽	-13.9221
珀	-13.9221
癎	-13.9222
逷	-13.9223
胗	-13.9223
韐	-13.9225
昞	-13.9226
􁀣	-13.9226
薯	-13.9226
噢	-13.9226
椁	-13.9227
棻	-13.9227
搊	-13.9227
耇	-13.9228
􁁷	-13.9228
秸	-13.9228
豉	-13.9228
餂	-13.9229
晲	-13.923
陊	-13.923
萟	-13.9231
鄘	-13.9231
儐	-13.9231
穸	-13.9233
𫉬	-13.9234
廥	-13.9235
頔	-13.9236
嶤	-13.924
亀	-13.9594
䝟	-13.9595
螬	-13.9601
諰	-13.9602
鵪	-13.9603
勔	-13.9606
趼	-13.9606
傫	-13.9607
芎	-13.9608
珓	-13.9609
㴑	-13.961
􁈡	-13.961
靺	-13.961
袚	-13.9611
靁	-13.9611
瑊	-13.9612
謷	-13.9612
𤏡	-13.9614
啐	-13.9614
咺	-13.9614
艅	-13.9615
肜	-13.9615
癥	-13.9615
􁋊	-13.9615
滽	-13.9615
􁭋	-13.9617
䆗	-13.962
氄	-13.962
􁱘	-13.9621
滬	-13.9622
埵	-13.9622
繯	-13.9622
霶	-13.9622
廳	-13.9622
覂	-13.9623
氳	-13.9624
撈	-13.9624
䍐	-13.9625
臊	-13.9625
䰄	-13.9625
钁	-13.9625
巙	-13.9626
慷	-13.9627
瀞	-13.9628
嬺	-13.9628
毌	-13.9628
篨	-13.9629
刊	-13.9629
苶	-13.963
珽	-13.9631
驦	-13.9633
剟	-13.9642
壐	-13.9643
儃	-14.0008
毸	-14.0018
鴰	-14.002
桱	-14.0021
㸌	-14.0021
麀	-14.0023
􁀉	-14.0023
禂	-14.0025
鵻	-14.0025
􁂮	-14.0026
艖	-14.0027
筸	-14.0027
僛	-14.0028
縕	-14.0028
玗	-14.0029
沲	-14.0029
挼	-14.0029
赮	-14.0029
㒹	-14.003
巂	-14.003
儧	-14.0031
迮	-14.0031
圳	-14.0031
罶	-14.0032
稂	-14.0032
焮	-14.0032
睩	-14.0032
䵝	-14.0033
鍈	-14.0033
嘵	-14.0033
麑	-14.0033
䖟	-14.0034
匑	-14.0034
璅	-14.0034
䠞	-14.0035
􁃞	-14.0035
臡	-14.0035
玞	-14.0036
俔	-14.0036
䱷	-14.0036
涷	-14.0036
毣	-14.0037
􁊘	-14.0037
捻	-14.0038
欞	-14.0039
㭱	-14.0039
牏	-14.0039
橦	-14.0041
辴	-14.0041
贉	-14.0042
襌	-14.0043
枅	-14.0044
傎	-14.0044
􁎗	-14.0044
吒	-14.0044
嬲	-14.0048
鄄	-14.0051
姧	-14.0054
樑	-14.0057
訔	-14.0067
淊	-14.0439
緐	-14.0442
嗌	-14.0447
辣	-14.045
縐	-14.0451
昝	-14.0452
躨	-14.0452
韔	-14.0453
䳱	-14.0453
眴	-14.0454
疻	-14.0456
骰	-14.0458
芩	-14.0459
擈	-14.0459
䆃	-14.0461
􁌣	-14.0462
嶅	-14.0462
􁚐	-14.0463
戄	-14.0463
碞	-14.0463
嚲	-14.0463
嚏	-14.0464
歹	-14.0465
鏝	-14.0466
旉	-14.0466
䫫	-14.0467
祍	-14.0467
蜈	-14.0468
屴	-14.0468
㨂	-14.0468
蚣	-14.0468
裠	-14.047
蔴	-14.047
䫉	-14.0471
嚘	-14.0471
柈	-14.0472
恌	-14.0472
焼	-14.0472
爥	-14.0472
𥪡	-14.0473
筳	-14.0473
弆	-14.0474
鞺	-14.0474
熥	-14.0475
泜	-14.0475
哳	-14.0476
􁈭	-14.0476
􁒷	-14.0476
憭	-14.0476
褧	-14.0478
醝	-14.0478
翯	-14.0479
岨	-14.0479
恟	-14.0479
澯	-14.0481
捌	-14.0481
紾	-14.0481
楂	-14.0482
貱	-14.0485
湣	-14.0487
琫	-14.0494
埡	-14.0504
鄸	-14.053
􁌁	-14.0884
嫮	-14.0889
笆	-14.0898
愀	-14.09
蚴	-14.0902
􁀾	-14.0904
䳵	-14.0904
垝	-14.0905
彴	-14.0905
磅	-14.0907
淠	-14.0909
杻	-14.0911
臀	-14.0912
晅	-14.0912
枒	-14.0916
跲	-14.0916
鬌	-14.0916
欱	-14.0917
䙰	-14.0917
橄	-14.0918
鞨	-14.0918
榿	-14.0918
騀	-14.0918
轘	-14.0919
㦄	-14.0919
棁	-14.0921
艗	-14.0921
塼	-14.0923
泲	-14.0923
牯	-14.0924
餫	-14.0924
嬝	-14.0925
􁇣	-14.0925
笭	-14.0926
蕷	-14.0926
胆	-14.0927
輼	-14.0927
尰	-14.0927
踝	-14.0928
羚	-14.0928
瀇	-14.0928
䫙	-14.0929
蓰	-14.0929
声	-14.0929
蝡	-14.0929
芣	-14.093
仃	-14.093
戽	-14.093
稇	-14.093
蠍	-14.093
凇	-14.0931
瑠	-14.0931
鮀	-14.0931
圌	-14.0932
搠	-14.0932
楳	-14.0933
鶠	-14.0934
潝	-14.0934
貭	-14.0937
衋	-14.0937
眘	-14.0937
棅	-14.094
㚄	-14.094
憮	-14.1351
崢	-14.1371
鰻	-14.1375
綷	-14.1376
菂	-14.1377
莓	-14.1378
椶	-14.1378
鵙	-14.1378
惪	-14.1379
猙	-14.138
鄷	-14.1383
䘲	-14.1385
􁯾	-14.1387
鵉	-14.139
蚶	-14.139
侐	-14.1391
摰	-14.1391
㽦	-14.1391
滮	-14.1391
裌	-14.1392
稑	-14.1393
縚	-14.1396
僱	-14.1397
鹻	-14.1397
胍	-14.1398
揕	-14.1398
阸	-14.1399
鰍	-14.14
儓	-14.14
冓	-14.14
蹵	-14.1401
灎	-14.1401
棱	-14.1402
躑	-14.1403
􁶎	-14.1403
聡	-14.1403
焴	-14.1403
雱	-14.1404
璺	-14.1404
㫺	-14.1404
蚺	-14.1404
呆	-14.1405
旹	-14.1405
姗	-14.1405
􁚠	-14.1406
瘟	-14.1406
妊	-14.1407
鮎	-14.1407
矼	-14.1407
邲	-14.1408
疪	-14.1408
璒	-14.1409
撘	-14.1409
肮	-14.141
甗	-14.1411
圊	-14.1411
秭	-14.1412
􁍑	-14.1412
楧	-14.1413
閿	-14.1414
捆	-14.1417
􁒝	-14.1417
俅	-14.1422
􁊫	-14.1422
蟉	-14.1868
蟁	-14.1875
􁊥	-14.1877
濾	-14.1879
跜	-14.1879
拲	-14.188
窕	-14.1881
霳	-14.1881
蘼	-14.1883
㫼	-14.1883
􁂚	-14.1884
晼	-14.1885
韺	-14.1886
簍	-14.1887
簜	-14.1887
捺	-14.1887
翃	-14.1887
毡	-14.1889
漇	-14.1889
靃	-14.1889
蓱	-14.189
谸	-14.189
蠔	-14.1891
礮	-14.1891
螾	-14.1893
峛	-14.1894
栟	-14.1894
篛	-14.1895
枤	-14.1895
塒	-14.1895
橊	-14.1896
顑	-14.1896
犠	-14.1896
魍	-14.1896
醞	-14.1896
峘	-14.1897
璊	-14.1897
劙	-14.1898
淜	-14.1898
堀	-14.1898
嵾	-14.1898
虆	-14.1898
喳	-14.1899
娬	-14.1899
喏	-14.19
熻	-14.19
与	-14.19
矟	-14.19
芄	-14.1901
褆	-14.1902
鐐	-14.1902
𣅿	-14.1902
欛	-14.1902
蠹	-14.1902
枮	-14.1903
蝻	-14.1903
齪	-14.1903
峍	-14.1903
峕	-14.1904
徘	-14.1904
韲	-14.1904
摟	-14.1904
麂	-14.1905
黕	-14.1905
綢	-14.1906
乱	-14.1906
倓	-14.1906
􁦏	-14.1907
磾	-14.1907
􁆣	-14.1908
鱻	-14.1908
栴	-14.1909
囮	-14.1909
廙	-14.191
闠	-14.1911
嵿	-14.1911
宧	-14.1912
竸	-14.1912
菆	-14.1913
観	-14.1913
嗷	-14.1914
鑌	-14.1914
㜈	-14.1916
橇	-14.1916
桎	-14.1916
箙	-14.1917
暕	-14.1919
珖	-14.1926
潺	-14.1993
禿	-14.2392
鱮	-14.2404
䂖	-14.2407
繮	-14.2407
輷	-14.2408
芍	-14.2411
馺	-14.2411
嶨	-14.2413
凘	-14.2413
覸	-14.2414
佼	-14.2417
䗶	-14.2418
墄	-14.2418
磶	-14.2418
紽	-14.2418
矹	-14.2418
稺	-14.2419
忺	-14.242
輞	-14.2421
袗	-14.2421
􁀁	-14.2421
洳	-14.2421
篸	-14.2422
酏	-14.2422
蘉	-14.2422
撟	-14.2422
鳦	-14.2423
鋃	-14.2423
漵	-14.2423
槮	-14.2423
怲	-14.2424
倧	-14.2424
垻	-14.2424
麦	-14.2424
撦	-14.2425
蝓	-14.2425
哷	-14.2426
䀻	-14.2427
欖	-14.2427
髿	-14.2428
旓	-14.2428
韮	-14.2429
歪	-14.2429
嗶	-14.2429
閦	-14.2429
奡	-14.2429
匊	-14.243
餦	-14.243
罿	-14.243
衵	-14.243
眂	-14.243
广	-14.2431
嬸	-14.2432
敻	-14.2432
欂	-14.2432
拶	-14.2434
樨	-14.2434
軨	-14.2434
扐	-14.2434
搉	-14.2437
瑇	-14.2437
㯭	-14.2438
哱	-14.2439
墪	-14.244
筰	-14.2441
垍	-14.2441
炘	-14.2444
繘	-14.2444
万	-14.2448
砒	-14.2448
戣	-14.2449
膀	-14.2452
灦	-14.2465
曌	-14.2468
蔆	-14.292
􁓈	-14.295
叉	-14.2959
憣	-14.2962
簵	-14.2963
缻	-14.2965
腷	-14.2965
髧	-14.2965
鸖	-14.2968
藼	-14.2969
綑	-14.2969
歾	-14.297
崺	-14.2971
煗	-14.2971
顋	-14.2972
瘕	-14.2972
飃	-14.2972
巣	-14.2972
髢	-14.2972
􁴦	-14.2973
𦵔	-14.2973
篿	-14.2973
磩	-14.2973
蔟	-14.2973
櫹	-14.2974
秊	-14.2974
逅	-14.2975
籊	-14.2975
􁃩	-14.2975
蔫	-14.2976
蘃	-14.2976
鮆	-14.2976
㒜	-14.2976
棾	-14.2976
􁂒	-14.2977
􁃛	-14.2977
婵	-14.2978
罭	-14.2978
剃	-14.2978
柎	-14.2979
歔	-14.2979
蔪	-14.298
㕙	-14.298
竞	-14.2981
浤	-14.2982
􁒏	-14.2982
謦	-14.2984
紖	-14.2985
碨	-14.2985
凳	-14.2985
嗢	-14.2985
痎	-14.2986
芈	-14.2986
匳	-14.2986
喓	-14.2986
韌	-14.2987
騭	-14.2987
豶	-14.2988
嶭	-14.2988
􁰞	-14.2989
稉	-14.2989
瞾	-14.299
閌	-14.299
橧	-14.299
攩	-14.299
嫭	-14.299
罃	-14.2992
艧	-14.2992
妆	-14.2992
辧	-14.2993
趿	-14.2994
瓖	-14.2994
劼	-14.2996
羠	-14.2997
儿	-14.2999
虒	-14.2999
犵	-14.2999
埕	-14.2999
笁	-14.3
􁈊	-14.3
瑘	-14.3001
鋆	-14.3002
薮	-14.3005
鑨	-14.3006
【	-14.3008
扮	-14.3538
鰋	-14.3547
澔	-14.3548
􁒓	-14.3548
䯻	-14.355
醥	-14.3551
咂	-14.3552
愡	-14.3552
懜	-14.3552
􁦛	-14.3553
􁁺	-14.3554
韅	-14.3556
匽	-14.3557
嵽	-14.3557
尨	-14.3558
􁑼	-14.3558
􁑵	-14.3558
㵎	-14.3558
蜨	-14.3559
竂	-14.356
蝤	-14.356
􁬸	-14.3561
瑳	-14.3561
蚳	-14.3561
􁅾	-14.3562
濚	-14.3563
飦	-14.3563
褌	-14.3563
鱨	-14.3564
脢	-14.3565
橚	-14.3565
穨	-14.3566
槔	-14.3566
瓷	-14.3567
晾	-14.3567
狌	-14.3567
鷽	-14.3567
牸	-14.3568
􁕀	-14.3568
尽	-14.3568
䯢	-14.3569
莝	-14.3569
臮	-14.3569
㟏	-14.357
灮	-14.357
匶	-14.357
癱	-14.357
凷	-14.357
􁇛	-14.357
􁀪	-14.3571
灶	-14.3571
絁	-14.3571
咢	-14.3571
嵁	-14.3572
蹛	-14.3572
㧙	-14.3572
儹	-14.3574
􁄂	-14.3574
灩	-14.3575
椑	-14.3575
弒	-14.3577
苽	-14.3577
鎸	-14.3578
歃	-14.3579
鄶	-14.3579
􁀒	-14.3579
潚	-14.3579
墝	-14.3581
鷞	-14.3581
菔	-14.3581
􁃜	-14.3584
璪	-14.3584
泔	-14.3584
阤	-14.3584
髳	-14.3585
䌟	-14.3586
惉	-14.3586
酅	-14.3587
㫒	-14.3588
玼	-14.3589
􁊞	-14.3589
綳	-14.3589
娖	-14.3591
晧	-14.3594
􁂳	-14.3594
隝	-14.3594
挏	-14.3594
痤	-14.3597
鮌	-14.3598
儸	-14.3633
麌	-14.4165
麃	-14.4169
􁄕	-14.4172
睘	-14.4172
輘	-14.4175
祸	-14.4175
狉	-14.4177
罙	-14.4177
鍮	-14.4178
簳	-14.4178
嫰	-14.4178
珧	-14.4179
蓻	-14.4179
􁂯	-14.418
鴦	-14.418
驑	-14.4182
鼢	-14.4182
朣	-14.4183
殈	-14.4183
淈	-14.4183
箘	-14.4185
撢	-14.4186
鶋	-14.4186
鼬	-14.4186
鰷	-14.4187
㺬	-14.4187
􁌀	-14.4187
鉸	-14.4187
秱	-14.4187
汯	-14.4188
擦	-14.4189
瞡	-14.4189
慸	-14.4189
䋣	-14.419
􁁅	-14.419
蚉	-14.419
睅	-14.419
駈	-14.4191
懺	-14.4191
嚱	-14.4191
儛	-14.4192
崞	-14.4192
瘯	-14.4192
恿	-14.4194
磢	-14.4194
黈	-14.4194
衹	-14.4194
薬	-14.4195
鴣	-14.4195
䓇	-14.4196
楽	-14.4196
躒	-14.4196
駵	-14.4196
殾	-14.4196
鷕	-14.4196
粛	-14.4196
􁔇	-14.4196
昒	-14.4197
鬽	-14.4197
􁎾	-14.4198
塐	-14.4198
硌	-14.4199
冇	-14.4199
􁎠	-14.4199
螃	-14.42
􁦚	-14.42
棓	-14.4202
窀	-14.4202
烻	-14.4202
􁁍	-14.4203
鶊	-14.4204
輹	-14.4204
縩	-14.4204
㷔	-14.4204
潬	-14.4204
􁉓	-14.4204
懘	-14.4205
懻	-14.4205
玃	-14.4205
屓	-14.4207
醄	-14.4207
芃	-14.4208
佟	-14.4208
晛	-14.4209
嚻	-14.421
梘	-14.4212
矉	-14.4212
蛋	-14.4213
郈	-14.4214
鏢	-14.4215
隉	-14.4217
􁐠	-14.4219
砫	-14.4246
檖	-14.482
嘍	-14.4827
鯸	-14.4829
䏰	-14.483
螀	-14.4834
靸	-14.4836
嬃	-14.4836
啅	-14.4838
澑	-14.484
㠑	-14.484
蕎	-14.4842
㹠	-14.4843
蘙	-14.4843
趠	-14.4844
诗	-14.4844
踳	-14.4844
狨	-14.4845
蟈	-14.4846
銚	-14.4846
褏	-14.4846
峞	-14.4846
憔	-14.4847
蔿	-14.4849
瓤	-14.4849
􁧐	-14.4851
綗	-14.4852
黤	-14.4852
硊	-14.4853
攏	-14.4854
帬	-14.4854
蒻	-14.4855
綀	-14.4856
疐	-14.4856
龠	-14.4856
昳	-14.4858
䘐	-14.4858
䝤	-14.4858
籋	-14.4858
鼛	-14.4858
縰	-14.4858
􁈠	-14.4858
䃺	-14.4859
浞	-14.4859
蟢	-14.4859
燻	-14.4859
萁	-14.4859
痱	-14.486
蟨	-14.486
豅	-14.486
𢾗	-14.486
靘	-14.4861
儽	-14.4861
茔	-14.4861
龡	-14.4862
􁋽	-14.4862
紒	-14.4862
鑴	-14.4862
㰖	-14.4862
厩	-14.4862
晀	-14.4862
蛮	-14.4863
𬗟	-14.4863
墖	-14.4863
碏	-14.4863
䟎	-14.4863
蝜	-14.4864
廰	-14.4864
笴	-14.4864
髖	-14.4864
貅	-14.4864
崆	-14.4864
駹	-14.4865
醼	-14.4866
陏	-14.4866
奰	-14.4867
齅	-14.4867
桉	-14.4867
齲	-14.4868
芁	-14.4868
酕	-14.4868
顣	-14.4868
胏	-14.4869
躶	-14.4869
机	-14.4869
黾	-14.487
椸	-14.487
岋	-14.4871
躩	-14.4871
啽	-14.4871
宝	-14.4872
薏	-14.4872
嬗	-14.4872
靛	-14.4872
鷔	-14.4873
芉	-14.4873
痬	-14.4873
塪	-14.4874
斝	-14.4874
㱔	-14.4875
櫸	-14.4876
蛀	-14.4876
䄖	-14.4877
剨	-14.4878
繦	-14.4879
卮	-14.488
漦	-14.488
罋	-14.4881
匈	-14.4882
谻	-14.4882
忬	-14.4884
膄	-14.4888
茴	-14.4888
哿	-14.4891
􁏁	-14.4891
鏻	-14.4892
􁇪	-14.5525
崋	-14.5527
渲	-14.553
鯊	-14.5535
駓	-14.5538
䨧	-14.5549
舕	-14.5551
歅	-14.5551
腪	-14.5551
蝂	-14.5552
煠	-14.5554
亝	-14.5557
魖	-14.5557
崝	-14.5558
楶	-14.5559
洼	-14.5559
餚	-14.556
訧	-14.5563
籺	-14.5564
譫	-14.5565
􁱷	-14.5565
熸	-14.5566
襺	-14.5566
萆	-14.5566
蘷	-14.5567
􁄑	-14.5569
㽜	-14.5569
㽘	-14.5569
䃍	-14.5569
豝	-14.557
椓	-14.557
訩	-14.557
罛	-14.557
裱	-14.5571
煚	-14.5571
垔	-14.5572
冋	-14.5572
毯	-14.5572
抏	-14.5572
慗	-14.5572
幖	-14.5573
旵	-14.5573
𨼆	-14.5573
满	-14.5574
鯶	-14.5574
嵣	-14.5574
缽	-14.5575
軥	-14.5575
愲	-14.5576
醟	-14.5576
艓	-14.5577
櫞	-14.5577
霹	-14.5577
袱	-14.5577
牴	-14.5578
攽	-14.5578
㵿	-14.5578
尒	-14.5578
滆	-14.5579
耡	-14.5579
岹	-14.558
癩	-14.558
攲	-14.5581
僬	-14.5581
澴	-14.5581
霿	-14.5581
㬜	-14.5581
寯	-14.5582
耴	-14.5582
衖	-14.5582
􁇶	-14.5583
㢠	-14.5583
祋	-14.5583
鄚	-14.5584
开	-14.5584
䦱	-14.5585
埛	-14.5585
㒞	-14.5585
鼍	-14.5585
玟	-14.5585
终	-14.5585
頍	-14.5586
葚	-14.5586
涒	-14.5586
很	-14.5586
庤	-14.5587
泇	-14.5587
肰	-14.5587
􁋑	-14.5588
奶	-14.5589
鄗	-14.5589
涍	-14.5589
􁊨	-14.559
找	-14.559
􁅳	-14.5591
捏	-14.5592
旆	-14.5592
瀅	-14.5592
窴	-14.5593
渶	-14.5593
鴃	-14.5593
鬍	-14.5593
亙	-14.5593
攂	-14.5595
銙	-14.5595
琡	-14.5595
堋	-14.5596
觹	-14.5596
窯	-14.5601
羼	-14.5604
諢	-14.5606
懬	-14.5625
蝁	-14.5629
湲	-14.6188
孅	-14.6308
轥	-14.6318
蜦	-14.6318
眹	-14.6319
偟	-14.6319
凓	-14.632
鷏	-14.6321
圡	-14.6322
憀	-14.6326
餵	-14.6326
洤	-14.6327
篦	-14.6328
觩	-14.6328
萝	-14.6329
踡	-14.6329
㹀	-14.6329
汋	-14.633
藨	-14.6331
崽	-14.6331
嚷	-14.6332
翱	-14.6333
揪	-14.6333
餤	-14.6333
轊	-14.6333
磎	-14.6334
鉥	-14.6335
絪	-14.6335
豵	-14.6335
麪	-14.6336
妷	-14.6336
撅	-14.6336
斈	-14.6337
姞	-14.6337
嗄	-14.6337
鰭	-14.6337
鞓	-14.6337
䀜	-14.6337
蓛	-14.6337
鷓	-14.6338
蕰	-14.6338
齬	-14.6338
坭	-14.6339
栫	-14.6339
洓	-14.634
穯	-14.634
栳	-14.634
谾	-14.634
喂	-14.634
屦	-14.634
晌	-14.6341
熂	-14.6342
觭	-14.6342
鬧	-14.6342
㬅	-14.6342
飶	-14.6342
瀌	-14.6342
哫	-14.6343
臿	-14.6343
鸒	-14.6343
笵	-14.6343
㝛	-14.6343
獃	-14.6343
􁆤	-14.6343
㜷	-14.6343
蜹	-14.6343
啙	-14.6344
慭	-14.6345
􁦹	-14.6345
罐	-14.6345
瞹	-14.6346
滳	-14.6346
瑮	-14.6346
冈	-14.6346
磜	-14.6346
㦧	-14.6347
縭	-14.6347
笪	-14.6347
蟜	-14.6347
鵯	-14.6348
陻	-14.6348
娿	-14.6348
蒹	-14.6348
􁁄	-14.6349
丌	-14.6349
鍬	-14.6349
黲	-14.6349
檃	-14.635
絣	-14.635
漯	-14.635
鰅	-14.6351
糯	-14.6351
􁅔	-14.6351
賨	-14.6352
唽	-14.6352
㳄	-14.6352
嫪	-14.6352
劀	-14.6353
跰	-14.6353
埇	-14.6353
輤	-14.6353
䥫	-14.6354
礡	-14.6355
嚞	-14.6355
􁔾	-14.6355
亯	-14.6355
羵	-14.6355
匐	-14.6356
悊	-14.6356
䃉	-14.6356
􁪼	-14.6357
蛜	-14.6358
苣	-14.6358
蝛	-14.6358
醊	-14.6358
崈	-14.6358
􁚗	-14.6358
埳	-14.636
鈜	-14.636
撏	-14.636
鞟	-14.6361
䫈	-14.6361
瞚	-14.6362
瘻	-14.6362
橒	-14.6363
􁁙	-14.6367
瀐	-14.6374
媫	-14.6382
罱	-14.64
笨	-14.709
茐	-14.7113
菸	-14.7126
蠐	-14.7135
憹	-14.7137
雧	-14.7138
峥	-14.7138
竫	-14.714
墯	-14.7148
俙	-14.715
錕	-14.7152
鬈	-14.7155
懭	-14.7157
鱍	-14.7157
匼	-14.716
蜧	-14.716
癙	-14.716
蝪	-14.7162
壄	-14.7162
鯪	-14.7163
蟀	-14.7163
罦	-14.7164
頄	-14.7165
娙	-14.7165
饅	-14.7166
􁰈	-14.7166
裎	-14.7166
饀	-14.7166
硩	-14.7166
瀔	-14.7167
䠱	-14.7168
翐	-14.7169
蟯	-14.7169
􁇆	-14.7169
虙	-14.7169
孿	-14.7169
靶	-14.7169
韃	-14.7169
琿	-14.7169
􁆸	-14.717
曅	-14.7171
㖟	-14.7171
蹺	-14.7171
齚	-14.7172
􁑈	-14.7172
淀	-14.7173
毾	-14.7173
銼	-14.7173
惆	-14.7173
繤	-14.7173
瀣	-14.7173
茷	-14.7174
襭	-14.7174
唬	-14.7175
涫	-14.7175
唲	-14.7175
曒	-14.7175
寱	-14.7175
扤	-14.7176
躕	-14.7176
迀	-14.7176
􁱲	-14.7176
掜	-14.7177
稃	-14.7177
擂	-14.7177
刜	-14.7177
慺	-14.7177
䥴	-14.7178
霫	-14.7178
􁃦	-14.718
􁀍	-14.718
齰	-14.718
鏇	-14.718
弮	-14.7181
鵊	-14.7182
砯	-14.7182
掯	-14.7182
玈	-14.7182
侜	-14.7183
彲	-14.7183
􁮺	-14.7183
蚖	-14.7184
𣗳	-14.7184
􁲣	-14.7184
臑	-14.7185
傋	-14.7185
喭	-14.7185
壂	-14.7185
㭬	-14.7185
梩	-14.7186
莨	-14.7186
眭	-14.7187
鉷	-14.7187
㠗	-14.7187
鋈	-14.7187
蓯	-14.7187
韠	-14.7188
鏕	-14.7188
砠	-14.7188
哤	-14.7189
慠	-14.7189
宬	-14.7189
挧	-14.719
峦	-14.7191
耏	-14.7191
鱐	-14.7191
妮	-14.7192
瑫	-14.7193
􁣸	-14.7193
碉	-14.7194
潗	-14.7194
驆	-14.7194
暟	-14.7195
􁀌	-14.7196
霚	-14.7197
斳	-14.7199
褾	-14.72
漼	-14.7203
碼	-14.7204
宔	-14.7205
嶍	-14.7207
湌	-14.8017
颮	-14.8043
􁅗	-14.8049
豻	-14.805
諓	-14.8051
潠	-14.806
䬙	-14.8061
㘅	-14.8062
臕	-14.8063
璥	-14.8063
鰩	-14.8063
滈	-14.8064
騞	-14.8064
觿	-14.8065
踁	-14.8066
􁍾	-14.8067
灯	-14.8067
婬	-14.8068
怐	-14.8068
蚑	-14.8069
霱	-14.8069
渀	-14.807
馡	-14.807
賅	-14.8071
㘽	-14.8071
拌	-14.8072
牉	-14.8073
囹	-14.8073
輴	-14.8073
鱭	-14.8073
耊	-14.8073
䏂	-14.8073
刴	-14.8074
崯	-14.8075
蔷	-14.8075
氿	-14.8075
睐	-14.8077
㷊	-14.8077
崌	-14.8077
齟	-14.8077
扭	-14.8077
藭	-14.8078
輠	-14.8079
樤	-14.8079
碇	-14.8079
鬋	-14.808
􁂦	-14.808
􁃊	-14.808
豼	-14.808
苪	-14.808
嗁	-14.8081
樲	-14.8081
䆿	-14.8081
疈	-14.8081
篐	-14.8081
蒓	-14.8081
擩	-14.8081
澟	-14.8081
􁏉	-14.8081
㛹	-14.8081
蟂	-14.8081
悐	-14.8082
齾	-14.8082
担	-14.8082
翆	-14.8082
㬋	-14.8082
苡	-14.8083
鄯	-14.8083
鷮	-14.8083
􁇸	-14.8083
鴽	-14.8083
筈	-14.8084
鎜	-14.8084
菩	-14.8085
憧	-14.8085
蘀	-14.8085
蟳	-14.8085
𣢾	-14.8085
邽	-14.8085
丧	-14.8085
渢	-14.8085
􁍒	-14.8086
晥	-14.8086
䘍	-14.8086
鈸	-14.8086
搯	-14.8087
捬	-14.8087
鐮	-14.8087
謊	-14.8087
㲼	-14.8087
湱	-14.8087
蟭	-14.8087
痀	-14.8088
篹	-14.8088
亁	-14.8088
栭	-14.8088
釦	-14.8089
惥	-14.8089
啍	-14.8089
㸅	-14.8089
敚	-14.8089
畷	-14.8089
􁡯	-14.8091
㕠	-14.8091
㦂	-14.8091
􁆓	-14.8091
鋙	-14.8091
椐	-14.8091
檥	-14.8091
鈁	-14.8091
矅	-14.8092
䯀	-14.8092
膞	-14.8093
蜇	-14.8093
䝿	-14.8093
吪	-14.8094
􁛦	-14.8094
杈	-14.8094
垚	-14.8094
埆	-14.8094
薳	-14.8095
雺	-14.8095
变	-14.8095
齘	-14.8097
撱	-14.8099
􁏠	-14.8099
鱘	-14.8099
抓	-14.8099
蒟	-14.8099
睥	-14.81
啑	-14.81
禓	-14.81
鱟	-14.81
砟	-14.81
􁪣	-14.81
琭	-14.81
㙱	-14.81
礨	-14.8101
􁖨	-14.8101
􁊋	-14.8102
傪	-14.8102
􁂣	-14.8102
蠪	-14.8102
褣	-14.8103
奧	-14.8103
繈	-14.8103
􁱵	-14.8104
礚	-14.8104
䍧	-14.8105
鮞	-14.8106
肈	-14.8107
拐	-14.8108
碯	-14.8109
􁇠	-14.811
鈹	-14.811
傐	-14.8111
芔	-14.8114
埈	-14.8116
􁐟	-14.8117
洭	-14.8122
㻍	-14.8131
邋	-14.9022
檦	-14.9029
㗊	-14.9034
繣	-14.9039
巄	-14.9041
􁚓	-14.9042
鬴	-14.9046
鮧	-14.9047
䄜	-14.9047
䋭	-14.905
嵤	-14.9051
苃	-14.9053
燑	-14.9054
垐	-14.9055
􁧥	-14.9056
鶂	-14.9059
脥	-14.9059
䪥	-14.9063
謈	-14.9063
􁶁	-14.9064
蜞	-14.9064
蚄	-14.9066
贙	-14.9066
虡	-14.9066
螓	-14.9066
骹	-14.9067
㠜	-14.9067
掐	-14.9067
瘤	-14.9067
㫚	-14.9069
蛑	-14.9069
㬉	-14.907
黹	-14.907
熭	-14.9071
輬	-14.9071
􁁶	-14.9071
鶢	-14.9072
悾	-14.9073
錧	-14.9074
譝	-14.9074
􁀯	-14.9075
衕	-14.9075
鈃	-14.9075
憃	-14.9076
轒	-14.9076
帣	-14.9076
岠	-14.9076
􁞘	-14.9076
蕈	-14.9077
鷩	-14.9078
鄽	-14.9078
㿃	-14.9078
扱	-14.9079
皬	-14.9079
􁌵	-14.9079
魉	-14.9079
?	-14.9079
猒	-14.908
妸	-14.908
弯	-14.9081
􁃇	-14.9081
衱	-14.9081
茋	-14.9082
箓	-14.9082
􁢤	-14.9082
瞎	-14.9082
傯	-14.9082
􁆖	-14.9084
礐	-14.9084
苙	-14.9084
鱓	-14.9085
㟙	-14.9085
喨	-14.9085
糙	-14.9085
綎	-14.9085
􁵏	-14.9085
􁀜	-14.9085
􁉔	-14.9086
猳	-14.9086
逍	-14.9086
荖	-14.9087
䲔	-14.9087
俲	-14.9087
蛱	-14.9087
挶	-14.9088
矝	-14.9088
􁂭	-14.9088
􁈎	-14.9088
酃	-14.9088
嘼	-14.9089
􁂟	-14.9089
䑸	-14.9089
璝	-14.9089
􁅘	-14.9089
􁔷	-14.9089
􁂜	-14.9089
暸	-14.9089
􁠴	-14.9089
曯	-14.909
秌	-14.909
醃	-14.909
蛣	-14.909
僽	-14.9091
蘹	-14.9092
􁥀	-14.9092
鋊	-14.9092
􁔿	-14.9092
冱	-14.9092
鋣	-14.9092
瀄	-14.9093
􁇡	-14.9093
殰	-14.9093
堮	-14.9093
鈫	-14.9093
􁚔	-14.9093
頁	-14.9094
騒	-14.9094
帰	-14.9094
唈	-14.9095
瘨	-14.9095
濴	-14.9095
娀	-14.9095
鞀	-14.9095
䴥	-14.9095
鏽	-14.9095
污	-14.9095
􁋆	-14.9095
䩨	-14.9096
稯	-14.9096
袓	-14.9096
蚵	-14.9096
鱦	-14.9097
揥	-14.9097
閷	-14.9097
嗥	-14.9097
􁄜	-14.9097
􁂝	-14.9098
啔	-14.9099
僿	-14.9099
牱	-14.9099
魦	-14.9099
嵉	-14.9099
􁲠	-14.9099
桌	-14.91
䃘	-14.91
㟪	-14.9101
糸	-14.9101
懙	-14.9101
熢	-14.9102
鈷	-14.9103
􁊭	-14.9103
疄	-14.9104
瑴	-14.9104
菇	-14.9104
饙	-14.9105
髴	-14.9105
慁	-14.9105
㻑	-14.9106
䂊	-14.9107
秈	-14.9107
蠎	-14.9107
浲	-14.9108
轣	-14.9109
􁥽	-14.9109
昄	-14.9111
馞	-14.9112
荗	-14.9112
瑬	-14.9115
睚	-14.9116
椲	-14.9117
堽	-14.912
佉	-14.9124
侲	-14.9125
舗	-14.913
芧	-14.9137
焭	-15.0127
爢	-15.0145
舑	-15.0145
㩜	-15.0146
秠	-15.0158
佌	-15.0159
㠐	-15.0161
暀	-15.0161
幂	-15.0162
婷	-15.0165
嵼	-15.0165
詄	-15.0166
溓	-15.0166
汃	-15.0167
薁	-15.0168
􁰓	-15.0168
􁂁	-15.017
貘	-15.0171
䫻	-15.0171
黴	-15.0172
婞	-15.0173
弰	-15.0173
檎	-15.0173
驏	-15.0174
㬢	-15.0174
筇	-15.0174
媌	-15.0175
玒	-15.0175
鼫	-15.0175
懞	-15.0176
㑭	-15.0176
欏	-15.0176
妳	-15.0177
惏	-15.0177
舔	-15.0177
粕	-15.0178
窫	-15.0178
矓	-15.0178
醾	-15.0178
淯	-15.0178
􁑶	-15.0178
伭	-15.0178
筀	-15.018
驒	-15.018
􁊇	-15.018
欐	-15.018
㲄	-15.0181
㒧	-15.0181
蜢	-15.0181
峋	-15.0181
蝼	-15.0181
舝	-15.0183
昋	-15.0183
痯	-15.0184
墺	-15.0184
鬉	-15.0184
蜊	-15.0184
恓	-15.0185
􁩉	-15.0185
縯	-15.0185
梴	-15.0185
㕮	-15.0185
㱆	-15.0185
伹	-15.0186
鏺	-15.0186
搓	-15.0187
滵	-15.0187
儶	-15.0187
硐	-15.0187
壃	-15.0188
蛚	-15.0188
㠁	-15.0188
崴	-15.0188
􁮑	-15.0189
𤇺	-15.019
􁐜	-15.019
枽	-15.0191
􁁉	-15.0191
讄	-15.0191
媖	-15.0191
憼	-15.0191
浠	-15.0192
㲪	-15.0192
叁	-15.0192
􁜄	-15.0193
癠	-15.0193
嵺	-15.0194
畟	-15.0194
倛	-15.0194
颾	-15.0195
􁐱	-15.0195
猢	-15.0195
>	-15.0195
塙	-15.0195
疝	-15.0195
嚨	-15.0195
􁱪	-15.0195
湙	-15.0196
䁆	-15.0196
蝢	-15.0196
䀨	-15.0196
闻	-15.0197
屝	-15.0197
𨕖	-15.0197
矤	-15.0197
􁠸	-15.0197
痟	-15.0198
摎	-15.0199
檆	-15.0199
峿	-15.0199
柤	-15.0199
鸃	-15.0199
鶤	-15.02
蘝	-15.02
剠	-15.02
􁀰	-15.02
迆	-15.0201
鄏	-15.0201
窋	-15.0201
􁇾	-15.0201
馯	-15.0201
莋	-15.0201
峉	-15.0202
砮	-15.0202
􁔝	-15.0202
漊	-15.0202
􁀋	-15.0203
犮	-15.0203
閜	-15.0203
㜑	-15.0204
粽	-15.0204
榝	-15.0204
邶	-15.0204
濲	-15.0204
砅	-15.0205
垾	-15.0205
鱧	-15.0205
陫	-15.0206
梹	-15.0206
蚾	-15.0206
􁆫	-15.0207
攛	-15.0207
㪟	-15.0207
樺	-15.0207
綋	-15.0208
雥	-15.0208
廞	-15.0208
􁫝	-15.0209
焻	-15.0209
餴	-15.0209
㷆	-15.021
恔	-15.021
􁆙	-15.021
靼	-15.021
䆡	-15.021
伷	-15.021
鋄	-15.021
籤	-15.0211
潴	-15.0211
穋	-15.0211
祅	-15.0212
㬊	-15.0212
捂	-15.0212
骾	-15.0212
􁆢	-15.0212
屮	-15.0213
俐	-15.0213
黭	-15.0213
㭿	-15.0213
慡	-15.0214
燫	-15.0215
樝	-15.0215
旙	-15.0215
􁁎	-15.0215
勠	-15.0216
狒	-15.0217
􁠭	-15.0218
僄	-15.0219
瘇	-15.0219
珇	-15.0219
倿	-15.0219
礁	-15.0219
髼	-15.0221
滺	-15.0221
㶏	-15.0221
鑐	-15.0223
錟	-15.0223
襼	-15.0223
鬷	-15.0224
暳	-15.0224
縀	-15.0224
侹	-15.0226
􁓒	-15.0239
􁞙	-15.0241
䧿	-15.0251
飧	-15.0273
㬣	-15.1358
㟼	-15.1403
㠎	-15.1413
㗨	-15.1416
妯	-15.1426
袈	-15.1442
拮	-15.1443
娉	-15.1454
嵳	-15.1454
翡	-15.1454
跎	-15.1458
鷯	-15.146
鵡	-15.1467
㪣	-15.1468
獗	-15.2834
橰	-15.2863
酩	-15.2868
苜	-15.2874
髣	-15.288
呱	-15.288
熳	-15.2884
狽	-15.4535
昀	-15.6509
轤	-15.6513
琵	-15.6521
徜	-15.654
娌	-15.654
杷	-15.6571
颻	-15.6607
葡	-15.9014
糢	-15.9046
齷	-15.9047
蓿	-15.905
酊	-15.9063
蟋	-15.9064
繾	-16.2343
蝴	-16.2366
娓	-16.2374
魎	-16.2378
枇	-16.2393
嫦	-16.7361
蝣	-16.7383
邂	-16.7409
簹	-16.7415
鄲	-16.7415
靂	-17.7271
倆	-17.7335
徬	-17.7367
鶺	-17.7367
贆	-17.7393
趵	-17.7394
㟝	-17.7395
粔	-17.7396
甋	-17.7397
餭	-17.7398
鎁	-17.7399
苢	-17.74
胱	-17.7401
䳇	-17.7402
䰐	-17.7403
臃	-17.7404
蔲	-17.7405
瀶	-17.7406
㷂	-17.7407
箵	-17.7408
裲	-17.7409
嫄	-17.741
毰	-17.7411
䴊	-17.7412
蚯	-17.7413
扊	-17.7414
扅	-17.7415
禝	-17.7416
郸	-17.7417
鴐	-17.7418
擻	-17.7419
䆉	-17.742
毹	-17.7421
韆	-17.7422
=	-17.7423
柮	-17.7424
鶗	-17.7425
襶	-17.7426
褦	-17.7427
狁	-17.7428
氍	-17.7429
嚀	-17.743
遛	-17.7431
艋	-17.7432
姮	-17.7433
3	-17.7434
"	-17.7435
髒	-17.7436
菡	-17.7437
檇	-17.7438
挲	-17.7439
琊	-17.744
裟	-17.744
