<unk>	0
<s>	0
</s>	0
。	-2.41215
,	-2.81869
、	-2.99281
!	-4.53286
者	-4.89454
故	-4.89545
若	-4.98548
?	-5.07279
;	-5.13655
也	-5.20761
是	-5.3514
為	-5.46272
。「	-5.46877
以	-5.48186
:「	-5.55432
有	-5.56021
何以故	-5.5636
不	-5.64376
之	-5.65855
無	-5.66264
行	-5.66553
法	-5.68786
世尊	-5.71516
善現	-5.76409
於	-5.77963
即	-5.80873
如	-5.84603
心	-5.84836
中	-5.85732
此	-5.87187
)	-5.90262
非	-5.9217
而	-5.92742
(	-5.93737
相	-5.94822
空	-5.95687
菩薩	-5.98121
說	-6.0013
二	-6.01452
等	-6.02562
如是	-6.02874
一	-6.08687
得	-6.10781
言	-6.13034
身	-6.13207
佛	-6.14771
須菩提	-6.15436
名	-6.15956
。」	-6.19037
時	-6.20155
生	-6.20903
▁	-6.2287
謂	-6.27425
人	-6.29691
無二	-6.30802
受	-6.33957
則	-6.36153
亦	-6.36382
無別	-6.37228
三	-6.38048
見	-6.39227
無二分	-6.41265
無斷故	-6.42694
經	-6.46248
想	-6.46469
色	-6.47016
及	-6.47659
我	-6.47945
復次	-6.49266
明	-6.51414
如來	-6.53796
觀	-6.55289
諸	-6.55363
識	-6.56439
應	-6.57925
:	-6.5864
皆	-6.58986
住	-6.59486
其	-6.59571
義	-6.60343
乃至	-6.60411
若一切智智清淨	-6.60752
?」	-6.62782
眾生	-6.62856
一切	-6.63089
滅	-6.65243
彼	-6.65795
▁*	-6.66064
自	-6.66981
離	-6.69511
大	-6.69908
。】「	-6.70372
云	-6.71558
。」【	-6.72307
所	-6.72938
」	-6.73395
能	-6.73402
下	-6.75215
至	-6.75536
與	-6.75799
四	-6.76749
起	-6.78086
入	-6.78929
後	-6.81454
?」「	-6.82494
性	-6.83092
無相	-6.84099
已	-6.84172
因	-6.86877
智	-6.86907
處	-6.87213
耳	-6.87879
上	-6.8899
道	-6.89741
知	-6.90359
:『	-6.9086
初	-6.90873
當	-6.90878
修	-6.92036
今	-6.92643
真如	-6.94356
從	-6.94533
又	-6.9515
前	-6.95614
作	-6.96025
般若	-6.9778
般若波羅蜜多	-6.97998
云何	-6.98276
欲	-6.99136
多	-6.99234
或	-6.998
舌	-7.00813
雖	-7.01468
不也	-7.01748
鼻	-7.0209
「	-7.02241
果	-7.03776
舍利子	-7.04067
成	-7.04536
然	-7.05681
由	-7.06423
問	-7.06448
佛言	-7.06779
解	-7.06835
意	-7.07529
菩薩摩訶薩	-7.08881
令	-7.09145
事	-7.09535
常	-7.10015
在	-7.10262
求	-7.10515
取	-7.11519
釋	-7.12256
依	-7.12391
五	-7.12636
般若波羅蜜	-7.13036
觸	-7.15454
曰	-7.15539
出	-7.1658
憍尸迦	-7.16654
清淨	-7.1934
教	-7.1942
分	-7.1961
苦	-7.20746
即是	-7.21168
耶	-7.21484
但	-7.21888
證	-7.22035
精進	-7.226
聲	-7.23087
念	-7.23134
所以者何	-7.23767
盡	-7.24164
法界	-7.25246
定	-7.25293
】	-7.26596
可	-7.27017
顯	-7.28053
爾時	-7.28574
論	-7.28645
地	-7.28689
淨	-7.28878
清淨故一切智智清淨	-7.29431
集	-7.29484
不見	-7.29568
本	-7.29689
善	-7.3007
正	-7.30151
!」「	-7.30903
香	-7.3116
隨	-7.31582
諸法	-7.31595
諸佛	-7.31973
斷	-7.32236
疏	-7.33156
法性	-7.3372
聞	-7.34439
勝	-7.3486
學	-7.35102
復	-7.35166
味	-7.35409
無量	-7.35924
眾	-7.36142
功德	-7.36378
同	-7.36398
來	-7.36459
答	-7.36729
水	-7.36893
是故	-7.37438
不可得	-7.37553
實	-7.37979
理	-7.38962
既	-7.38989
。』	-7.39102
天	-7.39345
乃	-7.3953
著	-7.39765
通	-7.41377
一切法	-7.41583
不能	-7.43898
樂	-7.43946
王	-7.43953
真	-7.44093
施	-7.44116
具	-7.44414
緣	-7.44632
名為	-7.44979
布施	-7.45306
是菩薩摩訶薩	-7.46169
慧	-7.46242
用	-7.46361
難	-7.46522
一切智	-7.46824
菩提	-7.47945
不得	-7.48424
破	-7.48556
火	-7.49358
故云	-7.49778
便	-7.50905
體	-7.51049
語	-7.51408
分別	-7.51509
。」「	-7.5226
修行	-7.52637
汝	-7.52862
六	-7.53091
文	-7.53687
矣	-7.53805
未	-7.54187
異	-7.54854
靜慮	-7.55517
現	-7.55736
三昧	-7.56028
具足	-7.5604
一切相智	-7.56758
先	-7.5681
何	-7.57507
有情	-7.58413
智慧	-7.58978
所謂	-7.59897
忍	-7.60002
執	-7.60639
無明	-7.60756
風	-7.60765
攝	-7.62018
轉	-7.62161
次	-7.62275
涅槃	-7.62403
安忍	-7.62695
供養	-7.62924
門	-7.63495
巳	-7.63645
化	-7.63775
世間	-7.63816
疑	-7.64249
持	-7.64264
別	-7.64779
因緣	-7.65205
是名	-7.65337
境	-7.66009
合	-7.66174
亦不	-7.66324
度	-7.6656
信	-7.66594
成就	-7.66918
無有	-7.66947
覺	-7.67084
淨戒	-7.67104
道相智	-7.67162
業	-7.67596
遠離	-7.68066
可得	-7.68487
外	-7.68621
若菩薩摩訶薩	-7.68757
餘	-7.69379
四無色定	-7.69801
捨	-7.70234
俱	-7.71259
亦無	-7.71629
力	-7.72625
.	-7.72693
唯	-7.72771
種種	-7.73496
廣	-7.73879
愛	-7.74014
五眼	-7.75666
位	-7.75711
福	-7.76348
方便	-7.76556
不可	-7.7684
於意云何	-7.76849
受持	-7.77074
引	-7.77199
九次第定	-7.77334
。【	-7.77763
所以	-7.77819
四無量	-7.77837
布施波羅蜜多	-7.77853
方	-7.77854
自性	-7.78062
字	-7.7829
除	-7.79234
聲聞	-7.79343
舉	-7.7944
十	-7.79889
過	-7.79904
界	-7.80112
喻	-7.80392
煩惱	-7.80525
示	-7.81354
法身	-7.81492
品	-7.81627
甚深般若波羅蜜多	-7.81714
▁|	-7.82252
妙	-7.82279
大悲	-7.8242
諸菩薩摩訶薩	-7.82422
戒	-7.8258
無願解脫門	-7.83286
善女人等	-7.84199
所有	-7.84819
七	-7.85005
深	-7.85746
當知	-7.85865
不生	-7.86435
第二	-7.86627
道聖諦	-7.86671
八	-7.8731
生死	-7.87393
發	-7.87758
六神通	-7.87877
會	-7.88212
願	-7.88713
世界	-7.89372
實際	-7.89564
去	-7.90185
平等	-7.90375
大乘	-7.909
不著	-7.91346
四靜慮	-7.91372
佛十力	-7.92519
解脫	-7.94041
寶	-7.94256
他	-7.94438
》	-7.95036
三摩地	-7.95185
舍利弗	-7.95548
金剛	-7.95573
實相	-7.9583
惡	-7.96109
福德	-7.9611
性空	-7.96392
重	-7.9653
立	-7.96593
四念住	-7.96852
結	-7.97513
。△	-7.97518
一切智智清淨故	-7.97677
總	-7.97998
數	-7.98049
物	-7.98341
此是	-7.98897
增語是菩薩摩訶薩不	-7.98972
一切智智	-7.99459
德	-7.99511
必	-8.00474
眼	-8.00634
是為	-8.00639
記	-8.00639
不應觀	-8.01823
自性空	-8.01838
故名	-8.02013
師	-8.02129
內空	-8.02297
第一	-8.02633
十遍處	-8.02955
本性空	-8.03408
第三	-8.03432
說法	-8.03525
不住	-8.03959
譬如	-8.04452
思惟	-8.04637
內	-8.04827
少	-8.05381
略	-8.0555
是菩薩	-8.05663
恒住捨性	-8.05775
照	-8.0583
八勝處	-8.0588
答曰	-8.06
大慈	-8.06176
小	-8.06247
此經	-8.06329
不還	-8.06437
了	-8.06658
四無所畏	-8.06747
不行	-8.06958
還	-8.07329
無我	-8.07345
根	-8.07374
無生	-8.07452
畢竟空	-8.07473
迴向一切智智	-8.076
乎	-8.07749
所說	-8.07873
不應	-8.08116
凡夫	-8.08616
無所	-8.08623
此中	-8.08794
悟	-8.08814
悉	-8.09049
八解脫	-8.09318
善女人	-8.09451
大喜	-8.09457
法處	-8.1084
!」	-8.1085
五根	-8.10855
約	-8.10857
大捨	-8.11016
兩	-8.11495
相應	-8.11857
無所得為方便	-8.11946
四無礙解	-8.12331
就	-8.12576
障	-8.12919
要	-8.13206
意處	-8.133
利	-8.13606
世	-8.13972
報	-8.14003
識界	-8.14045
對	-8.14051
無忘失法	-8.14132
正等覺	-8.14235
共	-8.14538
問曰	-8.14547
極	-8.14635
於此	-8.14669
意界	-8.14702
佛法	-8.15044
色界	-8.15392
須菩提言	-8.1553
無二為方便	-8.1593
無所有	-8.15999
聖	-8.165
宗	-8.16543
一切眾生	-8.16824
華	-8.17174
善根	-8.17394
無生為方便	-8.17454
各	-8.18006
亦如是	-8.18458
光	-8.18772
眼界	-8.18999
。○	-8.19341
善男子	-8.19526
空解脫門	-8.19605
子	-8.20174
十八佛不共法	-8.20313
開	-8.20679
滿	-8.2101
莊嚴	-8.21189
國	-8.2161
趣	-8.2162
五力	-8.21646
眼處	-8.21932
苦聖諦	-8.2224
無為	-8.22393
日	-8.2245
等者	-8.22674
究竟	-8.22754
過去	-8.2312
無邊	-8.23755
百	-8.24141
一切陀羅尼門	-8.24205
更	-8.24427
無常	-8.2479
阿羅漢	-8.24834
三界	-8.25007
四神足	-8.2504
塵	-8.25072
若善男子	-8.25076
圓滿	-8.25403
是善男子	-8.26219
自在	-8.26329
將	-8.26446
指	-8.26458
若常若無常	-8.26495
失	-8.26528
色處	-8.27076
現在	-8.27117
動	-8.27178
種	-8.27231
使	-8.2728
向	-8.27504
不可得故	-8.27638
乘	-8.27831
讀誦	-8.28116
安住	-8.28426
九	-8.28459
若樂若苦	-8.28533
而不	-8.28748
若我若無我	-8.28817
《	-8.28974
習	-8.29184
獨覺	-8.29422
若淨若不淨	-8.29881
佛告善現	-8.30271
平等性	-8.30519
一切法空	-8.31324
安	-8.31649
顛倒	-8.3169
食	-8.31717
七等覺支	-8.31732
巳下	-8.31926
稱	-8.32067
山	-8.32226
藏	-8.32837
妄	-8.32936
屬	-8.33104
終	-8.33229
不為	-8.33249
空空	-8.33275
壞	-8.33465
辨	-8.33915
一切三摩地門	-8.34279
順	-8.34429
自相空	-8.34491
斯	-8.3513
阿羅漢果	-8.3565
地界	-8.35777
由此	-8.36077
到	-8.3626
甚深	-8.36304
不知	-8.36578
句	-8.3741
差別	-8.37834
慶喜	-8.37882
諸佛無上正等菩提	-8.37923
不離	-8.38216
須	-8.3838
二乘	-8.38401
未來	-8.38524
八聖道支	-8.38568
無漏	-8.38759
好	-8.39233
之法	-8.39332
法住	-8.39345
歎	-8.39356
一來	-8.39398
凡	-8.39644
四正斷	-8.39723
內外空	-8.39845
若有	-8.40678
死	-8.41353
亦復如是	-8.41782
類	-8.41907
不同	-8.42122
甚多	-8.42295
大空	-8.42346
遍	-8.42753
月	-8.42859
是人	-8.42918
病	-8.43369
魔	-8.43518
圓	-8.43803
之心	-8.4384
二者	-8.43868
無為空	-8.44209
讚	-8.44305
家	-8.44704
遠	-8.45058
無所得	-8.45156
有為空	-8.4527
不可得空	-8.45334
豈	-8.45583
散	-8.45595
神	-8.46023
獨覺菩提	-8.46591
諸菩薩	-8.4663
始	-8.46784
足	-8.46803
假	-8.47223
諸天	-8.47249
勝義空	-8.47569
歸	-8.47608
不應住	-8.48334
外空	-8.48364
發心	-8.48619
一者	-8.48632
僧	-8.48949
主	-8.48985
劫	-8.49358
況	-8.49522
無際空	-8.49662
且	-8.49822
邪	-8.49892
無性空	-8.49939
皆不可得	-8.49984
佛告須菩提	-8.50035
散空	-8.50349
眼觸為緣所生諸受	-8.50885
設	-8.512
共相空	-8.51392
十方	-8.51529
名色	-8.51933
法定	-8.5195
真空	-8.51995
護	-8.52265
修習	-8.52276
須菩提白佛言	-8.52401
止	-8.52427
不變異性	-8.52491
虛空界	-8.53091
皆是	-8.53295
直	-8.53373
不虛妄性	-8.53606
。』「	-8.53737
離生性	-8.53957
?「	-8.54032
印	-8.54177
猶	-8.54372
持戒	-8.54451
思	-8.54595
坐	-8.54933
五陰	-8.55077
畢竟淨故	-8.55304
一切有情	-8.55481
無變異空	-8.55536
無住	-8.5557
益	-8.55689
亦不可得	-8.557
故言	-8.55794
罪	-8.55801
善法	-8.56003
高	-8.56006
諸天子	-8.56068
無上	-8.56114
以是故	-8.5616
達	-8.563
非離	-8.56459
阿難	-8.56467
果報	-8.57008
諦	-8.5705
因果	-8.57276
五蘊	-8.57393
善現當知	-8.57555
波羅蜜多	-8.57877
故說	-8.58078
流	-8.58603
迷	-8.58621
千	-8.58684
無著	-8.58708
真實	-8.58837
辟支佛	-8.5906
長	-8.59224
之人	-8.59346
論云	-8.5945
不可思議	-8.59676
夫	-8.59751
往	-8.60106
蓋	-8.6026
頭	-8.60608
一切菩薩摩訶薩行	-8.60906
普	-8.60947
哉	-8.60995
生滅	-8.61016
波羅蜜	-8.61126
近	-8.61273
喜	-8.61531
何故	-8.61536
於一切法	-8.617
勸	-8.62164
應求	-8.6227
不思議界	-8.62287
獨	-8.62391
偈	-8.62403
意觸為緣所生諸受	-8.62564
二合	-8.62643
卷	-8.62693
迴向	-8.62792
幻	-8.6302
阿耨多羅三藐三菩提	-8.63023
白	-8.63232
如是等	-8.63382
無性自性空	-8.63438
形	-8.6346
萬	-8.63755
尚	-8.63771
故曰	-8.63943
虛空	-8.63968
似	-8.64204
▁初	-8.64486
▁二	-8.64705
誰	-8.64929
惑	-8.65074
量	-8.65122
金	-8.65408
墮	-8.65408
不動	-8.65558
花	-8.6565
有為	-8.65865
請	-8.65918
亦非	-8.66085
是法	-8.66285
造	-8.66923
三世	-8.67034
受想行識	-8.67364
禪	-8.67528
情	-8.67545
土	-8.67837
超	-8.67949
遣	-8.68039
復有	-8.68547
次第	-8.68561
邊	-8.68578
名字	-8.68597
莫	-8.68607
離相	-8.68617
貪	-8.68702
寂靜	-8.69008
法門	-8.69144
預流果	-8.6919
得阿耨多羅三藐三菩提	-8.69293
大般若波羅蜜多經	-8.69462
六處	-8.7019
久	-8.7052
況有	-8.70953
何況	-8.70953
音	-8.71162
善哉	-8.71227
第四	-8.71382
神通	-8.71729
之義	-8.71749
歡喜	-8.71818
不異	-8.71843
正法	-8.71844
六波羅蜜	-8.71978
十地	-8.72126
微塵	-8.72324
於中	-8.72487
尊	-8.72694
佛說	-8.7308
命	-8.73601
何等	-8.73608
我當	-8.73884
爾	-8.74015
無礙	-8.74094
所作	-8.74265
一一	-8.74391
自然	-8.74938
寂	-8.7515
不起	-8.75498
離故	-8.75821
云何菩薩摩訶薩	-8.75822
口	-8.75869
有漏	-8.75942
經云	-8.76165
三乘	-8.76894
絕	-8.76994
恒	-8.77244
鼻界	-8.77396
不取	-8.77504
目	-8.77533
一念	-8.77693
舌界	-8.77698
身界	-8.77867
非有	-8.78024
攝受	-8.78447
年	-8.78483
之所	-8.78503
耳界	-8.78549
如此	-8.78949
全	-8.78968
無作	-8.79344
法中	-8.7937
欲界	-8.79592
波若	-8.79616
聚	-8.79683
有所	-8.79782
海	-8.79929
弟子	-8.80201
有所得	-8.80227
舍利子言	-8.8024
表	-8.80305
以為	-8.80411
頌	-8.80597
執著	-8.80868
夢	-8.81415
計	-8.81455
此云	-8.81946
以此	-8.82192
書寫	-8.82373
恐	-8.82604
光明	-8.82618
如幻	-8.82641
法相	-8.82785
如實知	-8.82957
部	-8.83054
本無	-8.83142
無得	-8.83148
比丘	-8.83193
標	-8.83432
是時	-8.83479
決定	-8.83768
無性	-8.83769
脫	-8.83989
境界	-8.84207
本性	-8.84361
樹	-8.84747
不淨	-8.85047
是為菩薩摩訶薩	-8.85054
空故	-8.85182
染	-8.85565
無願	-8.85629
竟	-8.858
和合	-8.85905
利益	-8.86103
意識界	-8.86197
之相	-8.8644
降伏	-8.86509
作是念	-8.86692
並	-8.86783
遂	-8.86822
易	-8.8685
虗	-8.86932
瞋	-8.87219
虗空	-8.87431
聽	-8.8752
文字	-8.88063
雙	-8.88133
方便善巧	-8.88465
不受	-8.88469
有相	-8.88575
經文	-8.88619
供養恭敬	-8.88665
十二	-8.8894
那	-8.89075
四句	-8.89187
三種	-8.89214
何以	-8.89241
加	-8.89293
阿	-8.89392
居	-8.89427
外道	-8.89451
羅	-8.89747
無生無滅	-8.89812
遮	-8.89863
增	-8.90091
中道	-8.90095
輪	-8.90146
存	-8.90157
如是般若波羅蜜多	-8.90226
兼	-8.90284
靜慮波羅蜜多	-8.90297
注	-8.9033
我等	-8.90374
書	-8.90615
若菩薩	-8.90692
女	-8.90822
惟	-8.90836
禪定	-8.91039
亦名	-8.91061
都	-8.91103
只	-8.91219
細	-8.9136
行般若波羅蜜	-8.9163
傳	-8.91668
最勝	-8.91795
之中	-8.91967
無所有故	-8.92056
反	-8.92101
一切如來	-8.92108
親	-8.92378
不生不滅	-8.92414
慈	-8.92509
則為	-8.92624
蘊	-8.92848
善現答言	-8.92932
彼岸	-8.93185
感	-8.93391
小乘	-8.93709
其心	-8.93832
一切種智	-8.94217
廣大	-8.94315
城	-8.94604
二種	-8.9463
手	-8.94718
色身	-8.94931
無盡	-8.94979
無色	-8.95302
信解	-8.95739
大王	-8.95888
恭敬	-8.963
機	-8.96402
龍	-8.96531
寂滅	-8.96552
諸有情類	-8.96561
應觀	-8.96723
不可說	-8.96778
即非	-8.96878
俗	-8.96924
被	-8.97025
悲	-8.97032
永	-8.97206
相故	-8.97474
誦	-8.97722
四正斷乃至八聖道支	-8.9779
三摩地門	-8.97958
希有	-8.98341
釋曰	-8.98681
顯示	-8.98716
癡	-8.9896
速	-8.99074
預流	-8.9922
▁後	-8.99281
一心	-8.99565
忍辱	-8.99637
宣說	-9.00148
外空乃至無性自性空	-9.00816
眼識界	-9.00977
可知	-9.01016
終不	-9.01028
列	-9.01062
根本	-9.01222
通達	-9.01519
於彼	-9.01672
十六	-9.01804
薩婆若	-9.01884
無法	-9.01911
所得	-9.01924
義也	-9.01971
漸	-9.02086
我今	-9.02287
輕	-9.02311
淨戒波羅蜜多	-9.02348
母	-9.02394
?』	-9.02521
尊重讚歎	-9.02649
法空	-9.027
意觸	-9.02729
無上正等菩提	-9.02948
聖人	-9.02949
以無所得而為方便	-9.02978
四相	-9.03229
邪見	-9.03296
息	-9.03451
堅	-9.0372
摩	-9.03735
真性	-9.0377
不說	-9.04084
陀羅尼門	-9.041
出家	-9.04155
發起	-9.04204
支	-9.04436
無數	-9.04464
雲	-9.04533
伏	-9.04605
中有	-9.05221
七寶	-9.05291
不二	-9.05406
佛告	-9.05434
十八	-9.05634
如何	-9.05939
修學	-9.06148
大眾	-9.06227
謂之	-9.06303
昔	-9.06328
云何以	-9.06342
亡	-9.06549
敬	-9.06576
不與	-9.06677
亦有	-9.06682
尚畢竟不可得	-9.06929
▁|(	-9.07024
路	-9.07106
行者	-9.07288
末	-9.07392
譯	-9.07395
退	-9.0743
三千大千世界	-9.07465
害	-9.07486
變	-9.075
獲	-9.0795
以是	-9.08161
財	-9.08165
對治	-9.08212
無分別	-9.08232
亂	-9.08262
不捨	-9.08482
三十二相	-9.08487
微	-9.08622
密	-9.08645
成佛	-9.08735
是般若波羅蜜	-9.08799
安忍波羅蜜多	-9.08819
故知	-9.09205
嚴淨佛土	-9.09346
得菩提	-9.09423
亦是	-9.0944
置	-9.09451
呪	-9.09789
而為	-9.09793
亦不見	-9.09933
眼觸	-9.10126
不退	-9.10177
據	-9.10306
國土	-9.10441
能生	-9.10505
比	-9.10613
見者	-9.10642
經中	-9.10703
是學一切智智不	-9.10756
無等等	-9.10812
第五	-9.11003
無二無二分故	-9.11063
甚	-9.11329
像	-9.11373
我所	-9.11545
▁「	-9.11708
不以	-9.11848
頂	-9.11949
頌曰	-9.12074
二諦	-9.12312
偏	-9.12318
最	-9.12413
述	-9.12487
空中	-9.12524
住處	-9.12554
摩訶衍	-9.12592
隨喜	-9.12597
有人	-9.12634
觀察	-9.12677
波	-9.12718
所行	-9.13223
而無	-9.13349
行乃至老死愁歎苦憂惱	-9.13511
法界乃至不思議界	-9.13537
如何可言	-9.13553
契	-9.13611
本來	-9.13844
進	-9.1391
沒	-9.14006
精進波羅蜜多	-9.14092
未得	-9.14111
告	-9.14196
無所有不可得	-9.14317
有二種	-9.14392
礙	-9.14678
有二	-9.14728
影	-9.14811
翻	-9.14975
堅固	-9.15086
諸有情	-9.15414
一時	-9.15525
衣	-9.1566
于	-9.15889
不空	-9.15902
如汝所說	-9.15961
清	-9.16026
畢竟	-9.16101
法故	-9.16205
嚴	-9.16343
白佛言	-9.16438
授	-9.16473
亦爾	-9.16519
若無	-9.16541
垢	-9.16593
周	-9.16765
實有	-9.16771
色相	-9.16883
具壽善現復白佛言	-9.16943
而生	-9.17007
取相	-9.17034
性非有故	-9.17068
空生	-9.17211
有三	-9.17223
隨順	-9.17329
內外	-9.17394
汝等	-9.17401
佛道	-9.17515
無不	-9.17715
有無	-9.17807
彰	-9.17871
度眾生	-9.17976
菩薩摩訶薩行般若波羅蜜	-9.18018
佛土	-9.18187
并	-9.18219
是諸菩薩	-9.1827
雖有	-9.18304
沙	-9.1857
所言	-9.18682
眼識界及眼觸	-9.18728
忘	-9.18876
善逝	-9.18882
善知	-9.18902
廣說	-9.18948
功	-9.18961
耳識界及耳觸	-9.19002
法師	-9.19114
身識界及身觸	-9.1928
首	-9.19286
言說	-9.19485
舌識界及舌觸	-9.19538
第六	-9.19572
意識界及意觸	-9.1967
鼻識界及鼻觸	-9.19683
遇	-9.19702
陰	-9.19759
不作	-9.20024
成熟有情	-9.20052
出世	-9.20052
受持讀誦	-9.20207
若不	-9.20349
而有	-9.20567
無異	-9.20572
間	-9.20788
五眾	-9.20821
地獄	-9.20961
讀	-9.21239
受者	-9.21337
是行般若波羅蜜多	-9.21454
而得	-9.21477
解曰	-9.21485
夜	-9.21514
縛	-9.21624
徵	-9.21637
亦復	-9.21665
不可以	-9.21665
佛所	-9.21947
雨	-9.22092
於諸	-9.22297
葢	-9.22326
則無	-9.22354
出生	-9.22395
焉	-9.22615
初地	-9.2262
無為法	-9.22647
非法	-9.22667
此法	-9.22708
宜	-9.22862
檀波羅蜜	-9.22867
現前	-9.22948
却	-9.22951
一句	-9.22999
旨	-9.23163
六度	-9.23193
覆	-9.23317
舍	-9.23354
釋提桓因	-9.23406
四無所畏乃至十八佛不共法	-9.23522
如來說	-9.23615
四諦	-9.23694
科	-9.24002
興	-9.24061
陀	-9.24356
故名為	-9.24405
須陀洹	-9.24691
觸界	-9.24699
雜	-9.24729
無量無邊	-9.24777
香界	-9.24948
如如	-9.2496
三者	-9.25062
最上	-9.25116
有菩薩摩訶薩	-9.25219
味界	-9.25232
聲界	-9.25329
倒	-9.25514
治	-9.25581
若人	-9.25594
面	-9.25646
微妙	-9.2569
有法	-9.25844
玄	-9.25908
惡魔	-9.25962
應知	-9.2607
示現	-9.26132
不信	-9.26469
云何名為	-9.26509
不如	-9.26648
慶喜當知	-9.26692
讚歎	-9.26848
云云	-9.26914
如虛空	-9.27051
藥	-9.27354
座	-9.27389
梵	-9.27614
各各	-9.27654
何所	-9.27672
老死愁歎苦憂惱	-9.27706
所修	-9.27721
不壞	-9.27758
辯	-9.27961
曾	-9.27965
劣	-9.27997
善勇猛	-9.28006
吾	-9.2805
此增語既非有	-9.28124
望	-9.28293
四念處	-9.28538
勿	-9.2858
又云	-9.28671
此二	-9.28688
懈怠	-9.28769
諸相	-9.28801
第一義	-9.28947
天眼	-9.29181
法者	-9.29418
當說	-9.29419
自性即非自性	-9.29468
梵語	-9.29497
何況有彼	-9.29633
欲得	-9.29699
殊勝	-9.29731
得道	-9.29817
六塵	-9.2982
頓	-9.29833
菩薩摩訶薩行般若波羅蜜多時	-9.29853
答言	-9.29874
父母	-9.30003
如理思惟	-9.3018
許	-9.30196
如實	-9.30215
老	-9.30304
皆空	-9.30316
無色界	-9.30465
證得	-9.30631
汝善男子應修	-9.30666
衣服	-9.31119
由此因緣	-9.31197
淨土	-9.31216
證得無上正等菩提	-9.31228
天中天	-9.31663
初明	-9.31667
詮	-9.31761
例	-9.31801
器	-9.31866
段	-9.32151
尋	-9.32441
愚	-9.32498
致	-9.32545
惱	-9.32594
疾	-9.32596
極喜地	-9.32625
奉	-9.33003
羅漢	-9.33213
沙門	-9.33281
半	-9.33335
違	-9.33396
」【	-9.33522
毀	-9.33567
章	-9.33695
復作是言	-9.33924
真諦	-9.34078
諸法實相	-9.34206
色等	-9.34231
八十隨好	-9.34234
殊	-9.34239
汝復觀何義言	-9.34326
如夢	-9.34343
序	-9.34459
施設	-9.34738
古	-9.34797
一切諸法	-9.34849
而修	-9.35005
於汝意云何	-9.35031
演說	-9.35134
精勤修學	-9.35239
厭	-9.35248
是故名為	-9.35489
皆悉	-9.3561
亦不以	-9.35668
珠	-9.35685
呼	-9.35759
佛果	-9.35781
囉	-9.35871
常住	-9.36152
齊	-9.36216
出世間	-9.36266
有為法	-9.36308
婆	-9.36356
視	-9.36429
因緣故	-9.36446
見佛	-9.36493
一切相智清淨	-9.36497
四種	-9.3652
棄	-9.36635
若諸菩薩	-9.36814
此中尚無	-9.36869
安立	-9.36878
可以	-9.37023
註	-9.37099
慢	-9.37115
及諸	-9.37125
增長	-9.37179
含	-9.37275
葉	-9.37276
而說	-9.37356
配	-9.37498
為說	-9.37499
相續	-9.37541
愚癡	-9.37609
)(	-9.37618
一法	-9.37664
講	-9.37664
元	-9.38044
聲聞乘	-9.38224
人天	-9.38347
行相	-9.38406
所證	-9.38448
窮	-9.38511
四禪	-9.38526
於法	-9.38674
平	-9.38732
靈	-9.38745
可說	-9.38766
勤	-9.38785
徧	-9.38824
其中	-9.38925
知見	-9.39194
此即	-9.393
三寶	-9.39395
到彼岸	-9.3944
是修般若波羅蜜多	-9.3947
法施	-9.39473
滅度	-9.39525
四大	-9.39685
作意	-9.39701
若行	-9.39851
和	-9.3986
石	-9.39938
則是	-9.40086
問答	-9.40135
隱	-9.40177
香界乃至鼻觸為緣所生諸受	-9.40304
令其	-9.40316
南	-9.40356
經言	-9.40445
我見	-9.40618
法界乃至意觸為緣所生諸受	-9.40839
聲界乃至耳觸為緣所生諸受	-9.40968
色空	-9.41193
降	-9.41223
依止	-9.41264
觸界乃至身觸為緣所生諸受	-9.41317
第七	-9.41376
不可稱量	-9.41384
自性亦非自性	-9.41432
底	-9.41584
譬	-9.41738
意云	-9.41821
十一	-9.41872
壽	-9.42067
尊重	-9.42105
故有	-9.4231
彌勒	-9.42473
河	-9.42486
號	-9.42672
容	-9.4271
相似	-9.42877
非是	-9.42986
勝義	-9.43107
而言	-9.43136
所依	-9.43158
第八	-9.43226
猶如	-9.43268
廣說乃至	-9.4335
虛妄	-9.4335
斷疑	-9.43362
欲令	-9.43585
所見	-9.43933
提	-9.43981
味界乃至舌觸為緣所生諸受	-9.44094
色界乃至眼觸為緣所生諸受	-9.44326
燈	-9.44415
源	-9.4454
不斷	-9.44566
舍利	-9.44609
亦能	-9.44654
三藏	-9.44726
其義	-9.44887
▁三	-9.44923
眷屬	-9.45127
尊者	-9.45127
原	-9.45154
當得	-9.45203
了知	-9.45399
毒	-9.45436
脩	-9.4545
三十七品	-9.45512
阿羅漢果清淨	-9.4559
十遍處清淨	-9.45613
道聖諦清淨	-9.4569
精	-9.45772
四無色定清淨	-9.46034
為欲	-9.4609
怖	-9.46093
無願解脫門清淨	-9.46123
能得	-9.46275
或有	-9.46399
象	-9.46421
佛眼	-9.46443
耳觸為緣所生諸受	-9.46662
身觸為緣所生諸受	-9.46673
菩薩十地	-9.46721
施設可得	-9.46773
假名	-9.46773
此明	-9.46978
十四	-9.47034
化身	-9.47231
談	-9.47269
觀照	-9.47295
尸羅波羅蜜	-9.47469
若欲	-9.47478
正覺	-9.47554
鼻觸為緣所生諸受	-9.47554
瞋恚	-9.4761
所緣	-9.47644
歷	-9.47689
汝若能修如是	-9.47747
薩云若	-9.47765
自他	-9.47822
慧眼	-9.47904
靜	-9.48009
恩	-9.48101
若非自性即是	-9.48182
佛性	-9.48199
皆得	-9.48226
不實	-9.48246
節	-9.48431
即為	-9.48448
然此	-9.48536
無想	-9.4854
則不	-9.4866
饒益	-9.4875
性空故	-9.48843
特	-9.48845
釋迦	-9.48908
守	-9.48949
謗	-9.48981
具壽善現白佛言	-9.48987
飲食	-9.49012
如佛	-9.4906
等可得	-9.49127
推	-9.4919
遊	-9.49331
悉皆	-9.49395
然後	-9.49446
賊	-9.49526
承	-9.49576
諸如來	-9.4979
解釋	-9.49853
鉢	-9.49866
中說	-9.49894
強	-9.49903
不爾	-9.49904
心不	-9.49915
轉法輪	-9.49919
自性空故	-9.49949
羼提波羅蜜	-9.49953
語言	-9.50264
熱	-9.50427
所生	-9.50428
力故	-9.50557
各有	-9.50571
舌觸為緣所生諸受	-9.50684
無上菩提	-9.50734
不失	-9.50786
不作是念	-9.50949
是事	-9.51176
歲	-9.51359
寧	-9.51443
薄	-9.51553
前後	-9.5158
是佛	-9.51674
辟支佛道	-9.51821
不念	-9.51822
簡	-9.51945
云何菩薩	-9.51962
不定	-9.52056
十五	-9.52085
所攝	-9.52226
調伏	-9.52495
增語	-9.5258
無所住	-9.52674
領	-9.52833
謂若住此三摩地時	-9.52983
實無有法	-9.53109
實無	-9.53122
應當	-9.53292
無實	-9.53427
減	-9.53476
度生	-9.53486
助	-9.53541
老死	-9.53545
三十二大士相	-9.53846
不出	-9.53885
□	-9.53907
而能	-9.53908
魔事	-9.53948
親近	-9.53998
亦空	-9.54018
我能	-9.54038
我於	-9.54082
瓔珞	-9.54181
檀	-9.5424
放	-9.54393
安隱	-9.54411
作佛	-9.54432
殺	-9.5458
毛	-9.54603
迦	-9.54673
無滅	-9.54754
內空乃至無性自性空	-9.54849
!「	-9.55072
如是乃至	-9.5526
無畏	-9.55321
於色	-9.55359
闇	-9.55391
是也	-9.5544
識清淨	-9.55449
詳	-9.55462
得聞	-9.5572
淨戒乃至般若波羅蜜多	-9.5585
狀	-9.55869
句義	-9.55958
安樂	-9.55986
五百	-9.5602
世間便有	-9.56037
婆羅門	-9.5612
亦無所有	-9.56186
校量	-9.5619
禪波羅蜜	-9.56304
等持	-9.56319
鏡	-9.56591
乞	-9.56641
不滅	-9.56844
鳥	-9.56916
西	-9.56978
看	-9.56997
言之	-9.57031
守護	-9.57203
持經	-9.57342
亦應	-9.57357
固	-9.57552
能所	-9.57583
阿那含	-9.57633
冥	-9.57638
落	-9.57678
發阿耨多羅三藐三菩提心	-9.57809
的	-9.5787
十三	-9.57879
四念住乃至八聖道支	-9.57888
之福	-9.57932
敘	-9.58076
無染無淨	-9.58118
今此	-9.58303
盛	-9.58382
及餘	-9.58383
不善	-9.58498
音聲	-9.58677
此人	-9.58678
阿素洛等	-9.58682
資	-9.58712
從此	-9.58753
身心	-9.58763
陳	-9.58822
緣起	-9.59092
信受	-9.59124
有異	-9.59153
而住	-9.5919
聞說	-9.59247
神力	-9.59282
無記	-9.59295
女人	-9.59328
福田	-9.59357
之時	-9.59375
為體	-9.59439
青	-9.59505
變化	-9.59529
懷	-9.59576
不盡	-9.59885
何等為	-9.59949
授記	-9.60065
無邊故	-9.60113
能令	-9.60208
即耳	-9.60228
權	-9.603
菩薩摩訶薩行	-9.60329
修行般若波羅蜜多	-9.60345
散亂	-9.60365
導	-9.6056
如是甚深般若波羅蜜多	-9.60577
攝受一切	-9.60645
依此	-9.60648
怖畏	-9.60807
禮	-9.60937
菩提心	-9.60976
徹	-9.60998
伽	-9.61
識界清淨	-9.61018
於佛	-9.61042
日月	-9.61178
燒	-9.61187
行深般若波羅蜜多	-9.61291
毘梨耶波羅蜜	-9.61327
判	-9.61439
慈悲	-9.6144
畏	-9.6146
之理	-9.61463
待	-9.61481
無自性	-9.61501
憂	-9.61503
誠	-9.61521
備	-9.61629
若遠離若不遠離	-9.61635
諸眾生	-9.61681
作是	-9.61774
聞法	-9.61809
人中	-9.61858
若能	-9.61865
菩薩行	-9.61886
切	-9.61977
皆從	-9.62024
譬喻	-9.62045
滿慈子	-9.62121
之處	-9.6214
有一	-9.62318
非色	-9.62321
菩薩摩訶薩眾	-9.62325
拘翼	-9.62329
世諦	-9.62418
增上緣	-9.62426
淺	-9.62528
智者	-9.62556
無所著	-9.62646
馬	-9.62669
差	-9.6271
非行般若波羅蜜多	-9.62784
所知	-9.62888
端	-9.62956
一日	-9.62962
種子	-9.62978
天親	-9.62998
氣	-9.63118
。」【【	-9.6313
新	-9.63288
佛答	-9.63317
是中	-9.6336
人法	-9.63414
相好	-9.63428
預流向預流果	-9.63447
解說	-9.63574
於是	-9.63603
真如清淨	-9.6368
露	-9.6373
無染	-9.63742
能斷	-9.63804
教化	-9.63811
正見	-9.6387
得果	-9.64124
志	-9.64277
虛	-9.6428
自相	-9.64394
令得	-9.6445
中間	-9.64469
諸有	-9.64637
法雲地	-9.64679
凡聖	-9.64705
貴	-9.64717
阿修羅	-9.64725
大德	-9.6489
斯陀含	-9.64933
斷滅	-9.64951
此文	-9.6496
義故	-9.64961
戲論	-9.65279
辭	-9.65329
法處清淨	-9.65335
審	-9.65354
為一	-9.65359
展轉	-9.65364
大士	-9.65392
能證	-9.65509
佛身	-9.65534
世俗	-9.65648
諸行	-9.65693
乃至一切種智	-9.65703
意處清淨	-9.65724
建立	-9.65751
以一切法	-9.6582
星	-9.65856
珍寶	-9.65866
申	-9.66002
東	-9.6608
可見	-9.66207
再	-9.66224
之意	-9.66356
妄想	-9.66424
善吉	-9.66424
作是言	-9.66462
疾證無上正等菩提	-9.66577
相者	-9.66641
空相	-9.6665
盖	-9.66687
相空	-9.66704
如人	-9.66822
若寂靜若不寂靜	-9.66842
有人言	-9.66853
皆有	-9.66995
云何名	-9.67019
臺	-9.67072
萬法	-9.67075
無數量	-9.67079
徒	-9.6716
修道	-9.67166
諸佛無上正等菩提清淨	-9.67212
儀	-9.67237
不復	-9.67381
內空清淨	-9.67488
一切世間	-9.6763
此言	-9.67647
林	-9.67683
漏	-9.67725
受用	-9.67764
之言	-9.67839
夢中	-9.67903
般若波羅蜜多清淨	-9.67912
萬行	-9.68004
不思議	-9.68076
預流果清淨	-9.68106
利樂	-9.68217
參	-9.68265
後際	-9.68301
名之為	-9.68347
五眼清淨	-9.68351
行施	-9.68365
者謂	-9.68474
幾	-9.68535
四念住清淨	-9.68543
當學般若波羅蜜	-9.68567
八解脫清淨	-9.68613
菩薩十地清淨	-9.6862
祖	-9.68652
收	-9.68676
准	-9.68692
清淨故	-9.68748
布施波羅蜜多清淨	-9.68806
善友	-9.68847
十力	-9.68941
佛十力清淨	-9.69082
四靜慮清淨	-9.69413
唯識	-9.69503
能知	-9.69516
為有	-9.69528
恒住捨性清淨	-9.69547
苦聖諦清淨	-9.69548
往來	-9.69591
相違	-9.6962
都無	-9.69623
獨覺菩提清淨	-9.69627
麁	-9.69642
無忘失法清淨	-9.69777
後世	-9.69898
一切陀羅尼門清淨	-9.69936
十二因緣	-9.70028
非實	-9.70156
大小	-9.70185
制	-9.70201
菩薩摩訶薩行深般若波羅蜜多時	-9.70212
身相	-9.70217
而起	-9.70234
六神通清淨	-9.7028
既無	-9.70313
無自性故	-9.70376
若復有人	-9.70378
一切菩薩摩訶薩行清淨	-9.70381
由是	-9.70406
一切三摩地門清淨	-9.70494
有此	-9.70567
運	-9.70593
不在	-9.70624
是空	-9.70626
二明	-9.70654
空解脫門清淨	-9.70713
名相	-9.70775
救	-9.70841
一相	-9.70864
無餘	-9.70944
無見	-9.70978
由此般若波羅蜜多祕密藏中所說法故	-9.70998
六道	-9.7101
由此故說	-9.71061
陀羅尼	-9.71127
隨喜迴向	-9.71136
心也	-9.7136
法眼	-9.71392
何緣	-9.71578
經曰	-9.7158
若見	-9.71759
諸煩惱	-9.71812
牛	-9.71831
畢	-9.71837
又復	-9.71972
諍	-9.72012
國王	-9.72102
知一切法	-9.7212
亦如	-9.72207
美	-9.72232
當知是人	-9.72328
釋云	-9.72423
化作	-9.72436
聽受	-9.72494
犯	-9.72534
消	-9.72667
獨覺乘	-9.72749
即是空	-9.72786
哩	-9.72863
關	-9.72904
鬼	-9.72922
破壞	-9.72941
際	-9.73081
其所	-9.73091
越	-9.73258
深般若波羅蜜	-9.73272
行六波羅蜜	-9.73285
能行	-9.73344
善知識	-9.73433
未曾	-9.73453
無說	-9.73487
如經	-9.73518
般若波羅蜜中	-9.73533
名曰	-9.73657
諸三昧	-9.73668
池	-9.73702
橫	-9.73709
謬	-9.73749
損	-9.73868
如前	-9.73887
帝	-9.73935
不解	-9.74038
骨	-9.74044
但以	-9.74055
發菩提心	-9.74125
無諍	-9.74152
能作	-9.74156
善惡	-9.74167
亦然	-9.74184
濟	-9.74259
無所從來	-9.74266
付囑	-9.74268
增益	-9.74417
是真	-9.74429
法也	-9.74468
當來	-9.74493
今明	-9.74508
【	-9.74548
此心	-9.74549
唯有	-9.74627
乃是	-9.7466
三業	-9.74726
無生忍	-9.74731
士	-9.74793
為離	-9.75036
念念	-9.75047
巧	-9.75162
不可戲論故不應戲論	-9.75196
互	-9.75333
說般若	-9.75359
宮	-9.75551
菩薩摩訶薩修行般若波羅蜜多時	-9.75571
等無間緣	-9.75777
不墮	-9.75805
總結	-9.75812
化眾生	-9.75828
下文	-9.75985
天上	-9.76173
專	-9.7632
以其	-9.76336
無漏法	-9.76405
一切法皆	-9.76531
弘	-9.76531
乞食	-9.76537
所緣緣	-9.76561
不共	-9.7666
菩薩行般若波羅蜜	-9.76708
逆	-9.76717
見如來	-9.76995
錯	-9.7702
如實了知	-9.77107
傍生	-9.77144
大海	-9.77152
無能	-9.77243
園	-9.77261
十七	-9.77289
布	-9.77413
付	-9.77422
離諸	-9.77505
棄捨	-9.77578
轉輪聖王	-9.77583
誡	-9.77695
補特伽羅	-9.78055
流轉	-9.78109
十九	-9.78232
無相解脫門	-9.78307
摩訶	-9.78331
寺	-9.78345
自身	-9.7835
二字	-9.78516
亦無所	-9.78638
緣覺	-9.78691
中無	-9.78788
否	-9.78854
鬼神	-9.78885
此則	-9.78923
如是如是	-9.78923
而行	-9.78948
代	-9.79022
得名	-9.79028
若有善男子	-9.79214
決	-9.7922
登	-9.79253
蓮華	-9.79262
二法	-9.79484
虗妄	-9.79563
常無常	-9.79639
離垢地	-9.79725
自行	-9.79781
背	-9.79829
天子	-9.79932
滿足	-9.79953
則有	-9.79983
於諸法	-9.80015
諸餘	-9.80101
非不	-9.80159
迴	-9.80162
成熟	-9.80163
今世	-9.80376
見有	-9.80392
所詮	-9.80399
無心	-9.80455
大師	-9.80746
護念	-9.8075
亦無有	-9.80846
積	-9.80855
。《	-9.80857
舊	-9.80889
證無上正等菩提	-9.80931
六根	-9.80935
縱	-9.81055
漏盡	-9.81181
所化	-9.81185
善慧地	-9.81196
而巳	-9.812
準	-9.81227
又如	-9.81232
四者	-9.81245
流通	-9.81361
金剛經	-9.8147
若離	-9.81504
亦不離	-9.81537
豈不	-9.81547
肉	-9.81572
十八界	-9.81574
少分	-9.81752
或說	-9.81767
是諸	-9.8186
異生	-9.81904
塔	-9.81955
偈云	-9.81997
咸	-9.8209
輪迴	-9.82144
說者	-9.82165
如彼	-9.82217
不應離	-9.82221
『	-9.82269
但有	-9.82328
東方	-9.82348
黃	-9.824
不見有	-9.82543
惡業	-9.82638
逐	-9.82649
染淨	-9.82683
辟支佛地	-9.82708
倍	-9.82743
福聚	-9.82834
薩芸若	-9.82845
發光地	-9.82955
現行	-9.82958
不及	-9.83015
十八不共法	-9.83035
諸佛世尊	-9.83039
不過	-9.831
不能得	-9.83112
濁	-9.83125
纏	-9.83136
如化	-9.83196
非住非不住	-9.83324
能信	-9.83399
二十	-9.8354
逮	-9.83593
留	-9.83593
肉眼	-9.83641
大身	-9.83668
患	-9.83705
玅	-9.83715
何處	-9.83743
則非	-9.83757
菩薩摩訶薩行般若波羅蜜時	-9.83778
百千	-9.83876
不久	-9.8388
宿	-9.84075
泥	-9.84238
威儀	-9.84248
天王	-9.84266
其身	-9.84273
有三種	-9.84307
有我	-9.84321
分明	-9.84327
尚不可得	-9.84336
現前地	-9.84348
奪	-9.84453
遠行地	-9.84482
由斯	-9.84534
亦得	-9.84599
如是菩薩	-9.84733
焰	-9.84792
不名	-9.84794
性故	-9.84869
麤	-9.84963
五欲	-9.8499
伎樂	-9.84991
天人	-9.85072
揀	-9.85081
不可取	-9.85171
空也	-9.85172
信心	-9.85181
相也	-9.85227
怨	-9.8526
勤修	-9.85428
生者	-9.85438
不退轉	-9.85439
空寂	-9.85485
入涅槃	-9.85541
開示	-9.85543
尼	-9.85679
亦不能	-9.85681
無量無數	-9.85838
不動地	-9.86004
更有	-9.86088
作如是言	-9.8612
無形	-9.86127
痛痒思想生死識	-9.86268
增上	-9.86303
檀那波羅蜜	-9.86344
色蘊	-9.86415
畢竟不生	-9.86483
淨故	-9.86556
若有人	-9.86621
姓	-9.8667
深心	-9.86751
○	-9.86783
諸菩薩摩訶薩修行般若波羅蜜多時	-9.86792
無差別	-9.86852
意識	-9.86875
其福	-9.8691
悔	-9.86947
住於	-9.87057
野	-9.87126
假使	-9.87167
出離	-9.87327
恒沙	-9.87327
怛薩阿竭	-9.87328
」?	-9.87353
質	-9.87373
短	-9.87531
不應於	-9.8756
真如乃至不思議界	-9.87713
遠離故	-9.8774
諸根	-9.87747
所說法	-9.87779
引發	-9.8779
應圓滿	-9.87844
不可見	-9.87884
四果	-9.87894
於此般若波羅蜜多	-9.8802
無智	-9.88276
若爾	-9.88383
二義	-9.884
字門	-9.88405
自心	-9.88406
先世	-9.88406
何等是	-9.88427
舍利弗言	-9.88445
五種	-9.88527
所起	-9.886
若空若不空	-9.88604
非無	-9.88622
飛	-9.88715
心生	-9.8873
次明	-9.88733
公	-9.88755
等法	-9.88806
解云	-9.88898
▁(	-9.89142
我相	-9.89145
便是	-9.89161
曉	-9.89167
微細	-9.89172
應如是	-9.89181
前際	-9.89201
已得	-9.8921
心中	-9.89242
六波羅蜜多	-9.8938
至心聽聞	-9.89452
心無	-9.8947
若言	-9.89476
拔	-9.89498
俗諦	-9.89535
胎	-9.89615
三明	-9.89638
賢聖	-9.89665
十方諸佛	-9.89748
該	-9.89761
雜染	-9.89874
為大	-9.89879
迹	-9.89913
持說	-9.89937
若一切法	-9.89962
災	-9.9016
心故	-9.90199
下第二	-9.90205
演	-9.90239
妄心	-9.90248
菩薩摩訶薩所行般若波羅蜜多	-9.90266
非真	-9.90357
略說	-9.90488
亦云	-9.90551
億	-9.90598
有何	-9.90631
法執	-9.90737
此義	-9.90756
不言	-9.90907
眾生相	-9.90929
具壽善現	-9.90934
有四	-9.90936
我法	-9.91233
繫	-9.9126
是則	-9.91314
無知	-9.91421
室	-9.91423
非相應非不相應	-9.91464
點	-9.91473
貪著	-9.91498
打	-9.91504
壽命	-9.91664
之體	-9.91726
華嚴	-9.91941
上來	-9.91979
說法者	-9.92001
一分	-9.92056
二句	-9.92084
緣生	-9.92208
不聞	-9.92243
諸佛法	-9.9228
何因緣故	-9.92438
三藏法師玄奘奉詔譯	-9.92467
三解脫門	-9.92552
覩	-9.92697
暗	-9.92854
諸菩薩摩訶薩行深般若波羅蜜多時	-9.93096
勢力	-9.93138
離欲	-9.93149
唐	-9.93167
生故	-9.93175
成就眾生	-9.93279
熟	-9.93292
何法	-9.93324
行人	-9.93335
二邊	-9.93349
單	-9.93355
是以	-9.93392
善業	-9.93448
索	-9.93505
此般若波羅蜜多	-9.93532
之名	-9.93568
休	-9.93752
能示諸佛	-9.93822
畜生	-9.93879
須菩提於意云何	-9.93909
二障	-9.93919
何者	-9.94037
至於	-9.94059
報身	-9.94139
非相	-9.94212
見道	-9.94227
色處清淨	-9.94293
二相	-9.94322
此等	-9.94363
初標	-9.94398
十善	-9.94494
嚩	-9.94494
無間	-9.94556
帝釋	-9.94599
說般若波羅蜜	-9.94643
菩薩道	-9.94648
天地	-9.94702
空有	-9.94726
為趣	-9.94735
說也	-9.94748
豈有	-9.94854
泯	-9.94953
笑	-9.95
五波羅蜜	-9.95012
眼處清淨	-9.95118
北	-9.95209
六種	-9.9521
地界清淨	-9.95264
真心	-9.95325
為因	-9.9538
或復	-9.95464
太	-9.95527
意界清淨	-9.9559
阿僧祇	-9.9563
此三	-9.95658
不執	-9.95673
布施波羅蜜多乃至般若波羅蜜多	-9.95746
耳界清淨	-9.95874
仙人	-9.95876
前說	-9.95884
純	-9.95941
生疑	-9.96001
一切諸佛	-9.96127
身界清淨	-9.9625
佛地	-9.96254
眼界清淨	-9.96273
惡趣	-9.96332
較量	-9.96358
化生	-9.9642
善巧	-9.96489
無明清淨	-9.9651
鼻界清淨	-9.96512
舌界清淨	-9.96514
正明	-9.96542
閻浮提	-9.96601
隨意	-9.96711
恒河	-9.9675
諸法空	-9.96836
於離	-9.96844
之因	-9.96865
受記	-9.96908
己	-9.97029
長者	-9.97067
色乃至識	-9.97071
不了	-9.97072
能破	-9.97119
薩	-9.97142
是心	-9.97159
能為	-9.97281
所成	-9.97292
知者	-9.97378
碎	-9.97379
愛樂	-9.97417
之事	-9.97463
苦行	-9.97581
響	-9.9759
題	-9.97614
焰慧地	-9.97629
護國	-9.97639
五神通	-9.97681
阿耨多羅三耶三菩	-9.97751
所執	-9.97832
如我	-9.97931
無邊際	-9.97931
不來	-9.98081
作者	-9.98095
形相	-9.98115
天帝釋言	-9.98117
皆無	-9.98161
能於	-9.9818
木	-9.98226
之身	-9.98231
麼	-9.98239
步	-9.98249
自有	-9.98383
依他	-9.98446
。」《	-9.98543
賢	-9.9856
汝今	-9.98561
施者	-9.98605
施與	-9.9863
他方	-9.98638
之行	-9.9865
瑜伽	-9.98671
威力	-9.98697
諸功德	-9.98799
遍知	-9.98867
太子	-9.99082
彌	-9.99125
九十	-9.99152
莫作是念	-9.99167
一切皆	-9.99217
能說	-9.99263
宣	-9.99303
是為菩薩	-9.99307
即此	-9.99399
車	-9.99414
性相	-9.99438
地前	-9.99448
何謂	-9.99468
驚	-9.99523
釋也	-9.99564
連	-9.99621
仙	-9.99644
不也世尊	-9.99732
潤	-9.99743
無生滅	-9.99759
於一切	-9.99854
十八佛不共法清淨	-9.99878
不思議界清淨	-9.9991
無學	-9.9998
二釋	-9.9998
般涅槃	-10.0001
八聖道支清淨	-10.0009
得解脫	-10.0026
般	-10.0029
仍	-10.0035
諸善根	-10.0039
衰	-10.0046
不求	-10.0047
此名	-10.0056
痛	-10.0058
若耳	-10.0058
淨佛國土	-10.0058
認	-10.006
能修	-10.0066
利他	-10.007
如理	-10.0071
諸菩薩摩訶薩眾	-10.0072
明度	-10.0072
此疑	-10.0081
如來十力乃至十八佛不共法	-10.0088
令彼	-10.0091
第一義諦	-10.01
教化眾生	-10.0102
聽聞	-10.0104
暫	-10.0109
無性自性空清淨	-10.011
仁	-10.0124
亦當	-10.013
累	-10.0139
慮	-10.0141
漸次	-10.0142
亦無所住	-10.0143
缺	-10.0144
若修	-10.0153
初禪	-10.0155
初發心	-10.0156
深般若波羅蜜多	-10.0163
諸惡	-10.0173
佛之	-10.0181
極難勝地	-10.0181
憶念	-10.0188
妙法	-10.0189
今言	-10.0192
不分別	-10.0199
上品	-10.0217
復以	-10.0224
亦為	-10.0229
仰	-10.0244
悅	-10.0244
真俗	-10.0244
父	-10.0248
一人	-10.025
菩薩摩訶薩無所有不可得	-10.0252
箇	-10.0255
無始	-10.0256
樂說	-10.0258
為眾生	-10.0261
是名菩薩摩訶薩	-10.0269
擇	-10.0275
與彼	-10.0279
招	-10.0281
供	-10.0282
茲	-10.0284
然燈	-10.0285
亦無所去	-10.0285
西方	-10.0286
破戒	-10.0291
我執	-10.0299
懸	-10.0306
當於	-10.0308
軍	-10.0309
波羅	-10.0321
所斷	-10.0328
皆為	-10.0334
期	-10.0334
以是因緣故	-10.0336
利益眾生	-10.0343
種性	-10.0346
無縛無解	-10.0349
三事	-10.0353
貫	-10.036
非但	-10.0375
師子	-10.0386
三十	-10.0388
箭	-10.039
稱量	-10.04
即有	-10.0402
無戲論	-10.0403
寔	-10.0403
故得	-10.0418
於般若波羅蜜多	-10.0419
般若波羅蜜者	-10.042
第十	-10.0434
誑	-10.0436
無斷	-10.0437
能見	-10.044
臨	-10.044
無垢	-10.0445
不和合	-10.045
過失	-10.0456
剎那	-10.0458
跡	-10.0458
若干	-10.0463
彼常無常亦不可得	-10.0466
彼我無我亦不可得	-10.0467
之曰	-10.0471
迴向阿耨多羅三藐三菩提	-10.0487
不增不減	-10.0494
不染	-10.0496
所住	-10.0496
彼淨不淨亦不可得	-10.0498
良	-10.0499
不依	-10.0514
但是	-10.0515
譬如有人	-10.0516
惠	-10.0517
佛以	-10.0542
苦惱	-10.0544
自利	-10.0548
融	-10.0552
不遠離	-10.0553
修多羅	-10.0563
無非	-10.0568
如上	-10.0575
如是法	-10.0577
田	-10.0578
三世諸佛	-10.0584
當釋	-10.0584
諸法相	-10.0589
或生	-10.0591
彼樂與苦亦不可得	-10.0592
知諸法	-10.0607
幻化	-10.0608
色心	-10.0611
若以	-10.0622
此為	-10.0623
誓	-10.0639
若依	-10.0643
若菩薩摩訶薩欲	-10.0646
得無上正等菩提	-10.0646
贊曰	-10.0653
若於	-10.0656
過去未來現在	-10.0664
無所生	-10.0668
事故	-10.0683
是色	-10.0684
毘	-10.0692
二空	-10.0697
今日	-10.0706
應修	-10.0721
釋上	-10.0722
草	-10.0723
大菩提	-10.0729
財施	-10.073
穢	-10.0736
返	-10.0738
任	-10.0741
善入	-10.0751
是故菩薩	-10.0752
三毒	-10.0762
具壽	-10.0773
之性	-10.0774
拘	-10.0779
赤	-10.0787
文義	-10.0791
出現世間	-10.0814
若菩薩摩訶薩修行般若波羅蜜多時	-10.0819
未盡	-10.0823
聖道	-10.0825
是謂	-10.0825
當知是為菩薩魔事	-10.0838
一切處	-10.0838
佛所說	-10.0848
能詮	-10.086
威德	-10.0861
令住	-10.0862
頌云	-10.0863
天帝釋	-10.0865
文殊師利	-10.0866
是故說	-10.0878
法華	-10.0884
所求	-10.0885
說名	-10.0891
六種波羅蜜多	-10.0902
一乘	-10.0905
說為	-10.0912
諸善男子	-10.0912
是經	-10.0914
調	-10.0935
即無	-10.0945
統	-10.095
雖復	-10.0951
闓士	-10.0954
留難	-10.0965
為二	-10.0977
第九	-10.0978
應以	-10.0982
臥具	-10.0988
八十	-10.0988
上下	-10.0989
滯	-10.0999
我為	-10.1003
刀	-10.1004
無人	-10.1007
障礙	-10.1011
畫	-10.1012
若相應若不相應	-10.1014
訖	-10.1016
或時	-10.1019
今初	-10.1028
善現對曰	-10.1032
執有	-10.1035
三義	-10.1036
可謂	-10.1037
正觀	-10.1037
岸	-10.1051
須彌	-10.1058
受生	-10.1059
有得	-10.106
如來所說	-10.1061
以明	-10.1063
行般若	-10.1064
供養諸佛	-10.1065
真理	-10.1069
八萬四千	-10.1075
不隨	-10.1076
色等法	-10.1078
希	-10.1082
數量	-10.1085
即是非相	-10.1094
是實	-10.1101
富	-10.1104
法王	-10.1107
幽	-10.1107
如如不動	-10.1108
隨所	-10.1119
正憶念	-10.1138
朝	-10.1154
佛意	-10.1171
本空	-10.1172
非人	-10.1172
知是	-10.1173
謂此是	-10.1176
我說	-10.1179
加行	-10.1186
幡蓋	-10.1195
憍慢	-10.1195
命者	-10.1201
中際	-10.1214
正釋	-10.1226
虛誑	-10.1226
真如相	-10.1226
他人	-10.1228
無取	-10.123
佛國	-10.1237
眾中	-10.1237
不入	-10.1238
妄念	-10.1244
載	-10.1247
見性	-10.1253
餓鬼	-10.1272
如來者	-10.1272
發阿耨多羅三藐三菩提心者	-10.1272
不證	-10.128
即空	-10.1284
覺知	-10.1301
船	-10.1306
是眾生	-10.1307
非心	-10.1309
改	-10.131
若一切智清淨	-10.1314
生心	-10.1315
世間空	-10.1316
寶施	-10.1327
之旨	-10.133
但說	-10.1337
能除	-10.134
一切法皆以	-10.1341
觀一切法	-10.1352
一切煩惱	-10.1353
多聞	-10.1363
度脫	-10.1364
所聞	-10.1372
男女	-10.1375
正說	-10.1381
此菩薩	-10.1395
身命	-10.1399
恚	-10.14
亦不得	-10.1403
勢	-10.1408
皆令	-10.1413
慳	-10.1419
無有是處	-10.1431
忽	-10.1445
灌頂	-10.1448
文二	-10.1449
勞	-10.1451
乖	-10.1451
又曰	-10.1451
一切善法	-10.1452
呵	-10.1452
有五	-10.1454
念處	-10.1455
經卷	-10.1458
之道	-10.1461
諸佛菩薩	-10.1463
造作	-10.1467
No	-10.1469
恐怖	-10.1473
無窮	-10.1477
怛	-10.1484
三句	-10.1492
贍部洲	-10.1495
即得	-10.1498
為他人說	-10.15
疑惑	-10.1514
狹	-10.1516
則知	-10.152
不怖	-10.1522
從初發心	-10.1522
寄	-10.1525
雖行	-10.1527
不從	-10.1533
無著云	-10.1536
一向	-10.1545
較	-10.1546
之智	-10.1546
續	-10.155
牒	-10.1551
禪那波羅蜜	-10.1556
意業	-10.1557
不樂	-10.1558
適	-10.1585
諸經	-10.1595
妙慧	-10.1597
乃至十八不共法	-10.1602
有其	-10.1603
佛教	-10.1618
世人	-10.1621
聞是	-10.1622
貪欲	-10.1623
最後	-10.1629
等諸	-10.1635
便有	-10.164
諸菩薩眾	-10.164
梵行	-10.1647
諸善法	-10.1648
皆以	-10.1649
得佛	-10.1655
初分	-10.1663
服	-10.1663
不成	-10.1672
等覺	-10.1674
妨	-10.1678
總持	-10.168
恭敬供養	-10.1683
。』」	-10.1686
不覺	-10.1687
多少	-10.1691
復說	-10.1693
飲	-10.1696
應學	-10.17
無念	-10.1708
摩訶薩	-10.1709
佛為	-10.171
勝解	-10.1719
未能	-10.172
無生法忍	-10.1735
極喜地乃至法雲地	-10.1735
何義	-10.1742
無緣	-10.1745
佛語	-10.1745
男	-10.1761
是有	-10.1765
大智	-10.1784
居士	-10.1802
聞者	-10.1805
無縛無脫	-10.1807
當機	-10.1812
而自	-10.1814
究	-10.1817
分中	-10.1818
用是	-10.182
四無量心	-10.1826
請問	-10.1827
遺	-10.183
訶	-10.183
永斷	-10.1834
熏	-10.1834
非謂	-10.1835
▁一	-10.1836
廢	-10.1838
投	-10.1842
空學	-10.1844
生信	-10.1855
不由	-10.1864
四句偈	-10.1868
作禮	-10.1875
清淨故般若波羅蜜多清淨	-10.188
天下	-10.188
二地	-10.1886
是謂般若波羅蜜多	-10.1889
苦樂	-10.1896
恐人	-10.1896
必有	-10.1902
種善根	-10.1902
盲	-10.1902
傷	-10.1907
等也	-10.1908
四生	-10.1909
法輪	-10.1917
得大	-10.1919
無來無去	-10.1923
自體	-10.1923
自修	-10.1932
注此	-10.1935
復問	-10.1945
修除遣	-10.1946
客	-10.1949
十住	-10.1953
隨其	-10.1955
長夜	-10.1966
至此	-10.1967
習氣	-10.1967
上文	-10.1974
悉知	-10.1978
結使	-10.1981
以顯	-10.1984
闕	-10.1987
四天王	-10.1987
不合不散	-10.1989
君	-10.1989
以無	-10.1996
須陀洹果	-10.201
攝取	-10.2011
菩薩地	-10.2011
行般若波羅蜜多	-10.2016
不須	-10.2016
髮	-10.2025
財物	-10.2025
於我	-10.2027
苾芻	-10.203
學者	-10.2031
】【	-10.2032
了達	-10.2044
師云	-10.2047
皆應	-10.2051
八地	-10.2052
爾時世尊	-10.2059
勇猛	-10.2059
偈言	-10.2065
纔	-10.2065
無二無別	-10.2067
貧	-10.2068
但有名	-10.2069
更無	-10.2071
所謂無相	-10.2071
或以	-10.2076
作是思惟	-10.2077
其人	-10.2078
之果	-10.2079
而非	-10.2092
借	-10.2094
』	-10.21
逢	-10.2102
所為	-10.2112
取著	-10.2115
即以	-10.212
法寶	-10.2125
▁四	-10.2126
證菩提	-10.2129
心者	-10.2138
觀諸法	-10.2138
奉持	-10.2142
舍利弗白佛言	-10.2146
所取	-10.215
諸佛如來	-10.2151
如來真如	-10.2154
下明	-10.2164
有情類	-10.2168
三千	-10.217
書持	-10.2172
菩薩摩訶薩欲	-10.2177
一來向一來果	-10.218
正知	-10.218
亦以	-10.2186
當學	-10.2187
著相	-10.2187
勤精進	-10.2191
法無我	-10.2197
於空	-10.2204
云何言	-10.2206
無取無捨	-10.221
士夫	-10.2212
為人	-10.222
說此	-10.2221
得是	-10.2224
順忍	-10.2224
生起	-10.2225
大地	-10.2227
祇	-10.2228
之本	-10.2231
文云	-10.2239
身子	-10.2241
阿鞞跋致	-10.2244
眾苦	-10.2252
演曰	-10.2252
恒河沙	-10.2255
詞	-10.2257
為實	-10.2262
得自在	-10.2269
無所有不可得故	-10.2272
人相	-10.2272
答云	-10.2276
甘露	-10.2277
法體	-10.228
是名為	-10.2285
人也	-10.2285
交	-10.2291
有善男子	-10.2293
阿羅漢向阿羅漢果	-10.2293
七地	-10.2297
如響	-10.2299
不有	-10.2303
之文	-10.2307
處處	-10.2308
臣	-10.232
何有	-10.2323
不驚	-10.2325
應住	-10.2327
為菩薩	-10.2336
蓮花	-10.2339
有為無為	-10.2345
血	-10.235
念佛	-10.2353
浮	-10.236
每	-10.236
非一	-10.2364
一切佛法	-10.2369
薄伽梵	-10.2377
次釋	-10.2384
乃至意觸為緣所生諸受	-10.2393
慳貪	-10.2398
變易	-10.2409
憶	-10.2412
金剛般若	-10.2412
勸助	-10.2423
無二分故	-10.2427
蔽	-10.2428
中生	-10.2432
諸聲聞	-10.2436
初問	-10.2445
廣釋	-10.2448
空者	-10.2462
皆不	-10.2469
故不	-10.2475
寒	-10.2475
曲	-10.2476
實智	-10.2481
第二明	-10.2491
無我相	-10.2492
三十三天	-10.2497
有實	-10.2501
應身	-10.2509
誐	-10.251
勝劣	-10.2518
於一切法如實了知略廣之相	-10.252
證法	-10.2524
不觀	-10.2524
作證	-10.2525
不行色	-10.2525
諸菩薩摩訶薩行深般若波羅蜜多	-10.2528
教人	-10.2533
實法	-10.2539
皆能	-10.2541
二事	-10.2544
於前	-10.2545
餘人	-10.2547
出世間法	-10.2547
而行布施	-10.2565
得一切種智	-10.2566
鐵	-10.2566
凡夫人	-10.2567
輩	-10.2572
但為	-10.2572
後五百歲	-10.2574
地中	-10.2574
詣	-10.2574
中際不可得	-10.2577
接	-10.259
即時	-10.2591
▁【	-10.2594
當知是	-10.2596
其實	-10.26
不自	-10.26
卷第五	-10.2608
學般若波羅蜜	-10.2611
為宗	-10.2611
然燈佛	-10.2619
慈心	-10.2626
真如求	-10.2626
一切聲聞	-10.2629
經說	-10.263
有菩薩	-10.2638
境智	-10.2641
於無上正等菩提	-10.265
無復	-10.2654
一合相	-10.2655
道中	-10.2664
初中	-10.2664
侍	-10.2669
如是說	-10.2671
淨心	-10.2672
十信	-10.2678
不應以	-10.2683
離色	-10.2683
。●	-10.2687
頗有	-10.269
愈	-10.2703
菩薩乘	-10.2703
尾	-10.2705
菩薩住	-10.2712
色處乃至法處	-10.2713
異熟	-10.2714
曼殊室利	-10.2714
不還向不還果	-10.2718
文中	-10.2718
蒙	-10.2718
皆名	-10.2719
謂此	-10.2725
不但	-10.2734
慈氏	-10.2736
瓶	-10.2736
法界乃至意觸為緣所生諸受清淨	-10.2742
放光	-10.2744
有大	-10.2745
防	-10.2745
不然	-10.275
眼觸乃至意觸	-10.2752
見聞	-10.2764
是非	-10.2767
修證	-10.2768
常行	-10.2768
如是諸法	-10.2771
一字	-10.2779
若受	-10.2783
聞說如是甚深般若波羅蜜多	-10.2789
世間法	-10.2801
相貌	-10.2802
事業	-10.281
非身	-10.2811
皆由	-10.2812
晝夜	-10.2813
得無生法忍	-10.2814
能度	-10.2822
能以	-10.2824
眼識界乃至意識界	-10.2831
卷第二	-10.2837
染著	-10.2848
得成	-10.2855
三十二	-10.2857
亦令	-10.2882
二執	-10.2883
未來世	-10.2886
臥	-10.2895
色界乃至眼觸為緣所生諸受清淨	-10.2898
如相	-10.2901
入菩薩正性離生	-10.2901
俱空	-10.2904
眼處乃至意處	-10.2911
又以	-10.2915
非我	-10.2916
真如可得	-10.292
此身	-10.292
雖無	-10.2923
不令	-10.2925
歡喜讚歎	-10.2925
輪王	-10.2925
經典	-10.2925
不畏	-10.2926
應學般若波羅蜜多	-10.293
無上乘	-10.2936
聲界乃至耳觸為緣所生諸受清淨	-10.2941
觸界乃至身觸為緣所生諸受清淨	-10.2942
格量	-10.2946
不現	-10.2946
這	-10.2949
於耳	-10.2952
攝受壞滅故學	-10.2953
為諸有情	-10.2954
能忍	-10.2959
圓成	-10.2959
不學	-10.2963
實性	-10.2963
所願	-10.2964
人見	-10.2965
雖多	-10.2967
非縛非解	-10.2971
寶幢	-10.2972
味界乃至舌觸為緣所生諸受清淨	-10.2979
說有	-10.2981
無為界	-10.2981
香界乃至鼻觸為緣所生諸受清淨	-10.2984
春	-10.2987
別釋	-10.2994
行乃至老死愁歎苦憂惱清淨	-10.2995
十種	-10.2997
是諸眾生	-10.3
以無相	-10.3002
薩埵	-10.3003
心境	-10.3006
以有所得為方便故	-10.3009
默	-10.301
貧窮	-10.3017
一劫	-10.3019
薩陀波崙	-10.3019
紙	-10.3022
有說	-10.3023
敷	-10.3023
不用	-10.3025
能與	-10.3043
外空乃至無性自性空清淨	-10.3046
不是	-10.3047
無眾生	-10.3052
如來地	-10.306
亦勸他	-10.306
嘆	-10.3068
共相	-10.3068
一來果	-10.3082
心念	-10.3087
稱讚	-10.309
然則	-10.3096
能行般若波羅蜜多不	-10.3103
黑	-10.3106
法性求	-10.311
白言	-10.3111
色界乃至法界	-10.3114
無可	-10.3126
便能	-10.3133
善現言	-10.3133
而成	-10.3134
免	-10.314
儒	-10.3141
頃	-10.3144
試	-10.3145
林子曰	-10.3147
眼界乃至意界	-10.3155
彼論	-10.3156
壽者相	-10.3156
是處	-10.3156
正智	-10.3157
般若之	-10.316
正是	-10.3161
種諸善根	-10.3165
能滅	-10.3172
常樂	-10.3172
此說	-10.3178
果也	-10.3179
合掌	-10.3182
酬	-10.3186
四無所畏乃至十八佛不共法清淨	-10.3196
若四無量	-10.3197
能取	-10.3197
正行	-10.3201
衍	-10.3204
觀空	-10.3205
乃至四句偈等	-10.3206
入菩薩位	-10.3218
所獲福聚	-10.3219
顯現	-10.3221
淨戒乃至般若波羅蜜多清淨	-10.3221
妙智	-10.3222
降心	-10.3226
識蘊	-10.3229
清涼	-10.323
獨覺地	-10.3232
某	-10.3233
五十	-10.3237
剎	-10.3237
不可計	-10.3238
辦	-10.3243
法界乃至不思議界清淨	-10.3248
以般若	-10.3248
四正斷乃至八聖道支清淨	-10.3254
而來	-10.3261
無疑	-10.3264
不相	-10.3265
住是三昧	-10.3268
卷第一	-10.327
驗	-10.3274
以應一切智智心	-10.3275
八解脫乃至十遍處	-10.3277
華言	-10.3282
由此因緣得福多不	-10.3285
俱胝	-10.3286
即色	-10.3288
有漏法	-10.3295
本有	-10.3298
互相	-10.3299
論釋	-10.3307
如前所說	-10.3307
迦葉	-10.3312
大慈大悲	-10.3326
如是般若波羅蜜多是	-10.3332
乃能	-10.3335
若諸有情	-10.3335
者即	-10.3339
諸法性	-10.3341
一異	-10.3348
燈明	-10.3349
亦不生	-10.3353
下二	-10.3355
勤苦	-10.3356
頗	-10.3367
正念	-10.3377
戲	-10.338
其意	-10.3385
懼	-10.3386
意樂	-10.3387
寂靜故	-10.3389
活	-10.3394
此地	-10.3397
自知	-10.3398
涉	-10.3399
亦不能修	-10.3406
利益安樂	-10.3407
知其	-10.3408
兩不和合	-10.3409
辯才	-10.3409
施福	-10.3418
資具	-10.342
真如平等	-10.3429
中有二	-10.3433
割	-10.3434
觀行	-10.3439
六識	-10.3441
無對	-10.3443
發趣無上正等菩提	-10.3444
得入	-10.3446
意謂	-10.345
也問	-10.3454
論主	-10.3459
若道相智	-10.3459
言無	-10.3463
如法	-10.3465
疏二	-10.347
深入	-10.3472
五忍	-10.3481
垂	-10.3481
本覺	-10.3482
蕩	-10.3485
心行	-10.3488
心經	-10.3489
菩薩法	-10.3491
大乘亦爾	-10.3492
速得圓滿	-10.3493
是畢竟淨	-10.3494
佛告舍利弗	-10.3495
說是	-10.3496
無所有性	-10.3518
行菩薩道	-10.3527
翳	-10.3527
空不空	-10.353
昧	-10.3533
是菩薩耶	-10.3534
由此緣故我作是說	-10.3536
豈非	-10.3539
誹謗	-10.3547
初句	-10.3548
三空	-10.3549
如說	-10.3554
亦可	-10.3557
啟	-10.3559
以無所得為方便	-10.3559
渡	-10.3563
無分別故	-10.3564
若聲	-10.357
前云	-10.3576
十善業道	-10.3579
中際菩薩摩訶薩不可得	-10.3581
也又	-10.3587
不見色	-10.3588
百億	-10.359
爾所	-10.3592
菩薩亦如是	-10.3594
堪	-10.3596
六十	-10.3597
勝前	-10.3598
責	-10.36
銷	-10.3608
持誦	-10.361
能觀	-10.3612
急	-10.3618
如我解佛所說義	-10.3619
而去	-10.3619
能如是	-10.3622
若八勝處	-10.3623
普照	-10.3623
符	-10.3625
一云	-10.3629
貌	-10.3638
化佛	-10.364
問佛	-10.3643
在家	-10.3644
諦聽	-10.3645
尸	-10.3648
狂	-10.3652
當知是菩薩	-10.3653
阿僧祇劫	-10.3653
負	-10.3655
折	-10.3656
忍辱波羅蜜	-10.3662
能具足	-10.3664
文殊	-10.367
可取	-10.3675
有願	-10.3675
驚怖	-10.3681
便得	-10.3683
一切種	-10.3683
以色	-10.3685
】「	-10.3688
捨身	-10.3693
當學般若波羅蜜多	-10.3693
二智	-10.3694
色起	-10.3699
一百	-10.3699
此乃	-10.3699
令速圓滿	-10.3703
白佛	-10.3705
利根	-10.3707
護持	-10.3709
滅故	-10.3714
等義	-10.3716
性中	-10.372
如來藏	-10.3721
不修	-10.3722
一偈	-10.3724
思議	-10.3733
隨緣	-10.3735
人心	-10.3744
道理	-10.3745
離於	-10.3747
不取相	-10.3751
論曰	-10.3753
但言	-10.3754
歡喜踊躍	-10.3758
同一	-10.376
鬼界	-10.3761
與佛	-10.3765
妄語	-10.3771
依法	-10.3771
顧	-10.3773
四眾	-10.3775
生時	-10.3776
得此	-10.378
能成辦	-10.3783
無法可說	-10.3785
官	-10.3786
梵天	-10.3793
途	-10.3795
智力	-10.3796
金剛般若波羅蜜經	-10.3797
亦遣此修	-10.3805
鈔	-10.3811
不沒	-10.3813
疏云	-10.3813
是無	-10.3814
之見	-10.3819
應如是住	-10.383
藉	-10.3833
玉	-10.3837
壽者	-10.3838
方便力	-10.3839
成道	-10.3844
天子當知	-10.3844
本自	-10.3846
前二	-10.3846
洲	-10.3849
菩薩於	-10.385
譬如虛空	-10.3864
惜	-10.3864
有色	-10.3868
十方世界	-10.3868
別有	-10.3873
後明	-10.3877
文三	-10.3881
即能	-10.3882
無有法	-10.389
是一	-10.3894
明了	-10.3896
有兩	-10.3896
不顛倒	-10.3902
皆依	-10.3912
證真	-10.3914
孤	-10.392
品中	-10.3925
測	-10.3926
何等法	-10.3929
為作	-10.393
寧為多不	-10.3931
陽	-10.3933
一義	-10.3939
萬物	-10.3943
如是我聞	-10.3946
掃	-10.395
得福	-10.3951
於深般若波羅蜜多	-10.3953
所護	-10.3954
炎	-10.3961
不可量	-10.3962
我聞	-10.3964
是我	-10.3971
無上道	-10.3979
佛十八法	-10.3981
故無	-10.3984
功德善根	-10.3984
禪師	-10.3989
比丘尼	-10.3995
大千	-10.3998
經者	-10.4001
波斯匿王	-10.4008
不還果	-10.4009
設有	-10.401
命終	-10.4013
廣令流布	-10.4015
所得功德	-10.4022
波羅蜜是般若波羅蜜	-10.4023
此下	-10.4023
發明	-10.4026
限	-10.4029
離一切相	-10.4031
別相	-10.4032
當以	-10.4032
亦能圓滿	-10.4036
不合	-10.4036
此岸	-10.404
深法	-10.4041
受苦	-10.4046
今經	-10.4047
口業	-10.4047
從此第二	-10.4051
增減	-10.4051
作如是念	-10.4059
四天下	-10.406
菩薩摩訶薩中有	-10.4065
別明	-10.4068
應供	-10.4073
所問	-10.4076
曼拏羅	-10.408
故以	-10.4081
因中	-10.4091
飾	-10.4093
善實	-10.4094
漚惒拘舍羅	-10.4096
無體	-10.4101
大菩薩	-10.4104
所應	-10.4109
五者	-10.4109
眾生見	-10.4115
菩薩摩訶薩住	-10.4116
都無自性	-10.4117
塗	-10.4119
有四種	-10.4126
故此	-10.4128
謂有	-10.413
僧寶	-10.4139
前三	-10.4139
角	-10.4145
倚	-10.4151
三藐三佛陀	-10.4157
淨信	-10.4157
為人解說	-10.4161
體性	-10.4161
右	-10.4162
歸依	-10.4166
身觸為緣所生諸受清淨	-10.4172
明菩薩	-10.4176
恨	-10.4176
我無我	-10.4178
章句	-10.418
總名	-10.4184
厚	-10.4189
堂	-10.4192
空性亦空	-10.4194
若一來	-10.4204
我身	-10.4205
一來向乃至阿羅漢果	-10.4205
眼觸為緣所生諸受清淨	-10.4208
毀謗	-10.421
一切法性	-10.4212
耳觸為緣所生諸受清淨	-10.4217
老死愁歎苦憂惱清淨	-10.422
意觸為緣所生諸受清淨	-10.422
)「	-10.4225
何得	-10.4228
曇無竭菩薩	-10.4231
三品	-10.4231
皆如	-10.4232
非常非無常	-10.4232
竭	-10.4233
於諸有情	-10.4234
一味	-10.4235
昇	-10.4237
遍滿	-10.4244
斷惑	-10.4245
現身	-10.4246
為本	-10.4248
聞此	-10.4249
是菩薩不能修	-10.4255
乃至無上正等菩提	-10.4257
能學	-10.4258
鼻觸為緣所生諸受清淨	-10.4264
何用	-10.4268
能成	-10.4271
即聲	-10.4281
錄	-10.4282
皮	-10.4283
無動	-10.4284
無來	-10.4285
性不可得故	-10.4287
我亦	-10.4287
背捨	-10.43
不取著	-10.4308
舌觸為緣所生諸受清淨	-10.4308
斯則	-10.4309
一切諸	-10.4313
種姓	-10.4316
佛世界	-10.4319
諸菩薩摩訶薩修行般若波羅蜜多	-10.4327
律	-10.433
百分不及一	-10.4332
道場	-10.4336
非法相	-10.4343
)。】「	-10.4347
濕	-10.4348
聽者	-10.4349
一切有為法	-10.4354
勝處	-10.4358
甚深法	-10.4358
此之	-10.4364
誤	-10.4367
。」【△	-10.4368
喪	-10.4372
是如來	-10.4373
省	-10.4376
如文	-10.4377
洞	-10.438
養育者清淨	-10.438
為喻	-10.438
覺悟	-10.4383
人非人等	-10.4383
為三	-10.4385
鎧	-10.4386
此事	-10.4386
實義	-10.439
身業	-10.4391
群	-10.4397
若住	-10.4399
如來應正等覺	-10.4404
如是等種種	-10.4406
謂於	-10.4409
業因緣	-10.4413
如來可得	-10.4417
云何為	-10.4419
尚不	-10.4422
亦無分別	-10.4424
州	-10.4425
成辦	-10.4425
有二義	-10.4426
既是	-10.443
一體	-10.4436
正答	-10.4437
有餘	-10.4438
勝於	-10.4443
一切獨覺菩提	-10.4443
亦復不	-10.4454
三性	-10.4457
寂然	-10.4461
生法	-10.4462
能圓滿	-10.4462
兵	-10.4464
柔軟	-10.4464
建	-10.4465
威神	-10.4466
回	-10.447
伏忍	-10.4473
不緣	-10.4483
因緣生	-10.4485
以是義故	-10.4491
位中	-10.4491
得福多不	-10.4492
之說	-10.4492
筏	-10.4493
奉行	-10.4497
祕密	-10.4504
之二	-10.4508
疑云	-10.4509
報恩	-10.4518
於受	-10.4524
吾我	-10.4524
文別有	-10.4524
前文	-10.4534
身中	-10.4536
不執著	-10.4537
豈可	-10.454
鈍	-10.4543
是知	-10.4543
報言	-10.4544
所現	-10.4544
他化自在天	-10.4547
所學	-10.4549
無量功德	-10.4551
八部	-10.4551
微塵眾	-10.4552
不於	-10.4554
即便	-10.4558
而於	-10.4562
是菩薩摩訶薩不	-10.4567
悟入	-10.4573
多有	-10.4574
意生	-10.4574
□□	-10.4575
大品	-10.4587
令人	-10.4595
異本性空	-10.4598
履	-10.4599
偽	-10.4602
行布施	-10.4608
之後	-10.4613
證得一切智智	-10.4613
讚說	-10.4614
自說	-10.4619
阿惟越致	-10.4628
因故	-10.4629
諸波羅蜜	-10.4631
若水	-10.4641
欲求	-10.4641
流出	-10.4647
條	-10.465
十二入	-10.4653
故須	-10.4657
則能	-10.4658
諸王	-10.4659
不可稱	-10.4661
之類	-10.4665
為方便	-10.4666
頌言	-10.4672
人間	-10.4673
養	-10.4673
謂如來	-10.4676
不具足	-10.4676
故能	-10.4679
過去諸佛	-10.4679
不名為	-10.468
退失	-10.4684
正道	-10.4685
遍計	-10.4685
不可思議故	-10.469
能照	-10.469
余	-10.4693
以下	-10.4695
非實有	-10.4712
入定	-10.4723
什	-10.4732
等事	-10.4733
無增無減	-10.4735
色即是空	-10.474
校	-10.4741
截	-10.4742
梁	-10.4744
菩提道	-10.4745
之義也	-10.4755
無法相	-10.4757
繇	-10.4762
釋成	-10.4775
難得	-10.478
欣	-10.4781
如來十力	-10.4781
無相故	-10.4781
所念	-10.4782
渴	-10.4784
聽法	-10.4787
妙覺	-10.4787
隔	-10.4788
苟	-10.4793
顯了	-10.4795
人身	-10.4796
未嘗	-10.4797
亦非相應非不相應	-10.4803
意也	-10.4804
作大	-10.4805
久住	-10.4808
舍利子問善現言	-10.4809
四義	-10.4811
菩提分法	-10.4811
有想	-10.4814
不生故	-10.4815
常不遠離	-10.4819
此初也	-10.4824
如來真如可得	-10.4829
世世	-10.483
精勤	-10.4831
者何	-10.4837
引證	-10.4845
避	-10.4851
若無相	-10.4854
地界乃至識界	-10.4862
我是	-10.4864
實相般若	-10.4868
非如來中	-10.4868
行也	-10.4873
觀色	-10.4877
離垢地乃至法雲地	-10.4884
亦不可	-10.4885
見眾生	-10.489
網	-10.4892
可度	-10.49
一佛	-10.4909
為他	-10.4912
色清淨	-10.4912
無明乃至老死	-10.4915
說經	-10.4916
其福勝彼	-10.4918
即真如	-10.4926
出現	-10.4928
轉輪王	-10.493
得見	-10.4935
遷	-10.4941
裏	-10.4946
法忍	-10.4947
昏	-10.4952
帶	-10.4953
所觀	-10.4958
此約	-10.496
無量無數無邊	-10.4963
為此	-10.4967
不垢不淨	-10.4967
清淨故一切智清淨	-10.4972
佛弟子	-10.4974
圓覺	-10.4976
何異	-10.4983
不識	-10.4987
眼見	-10.499
七寶布施	-10.4991
已下	-10.4992
煩	-10.4992
唱	-10.4995
繁	-10.4997
總相	-10.5005
煩惱障	-10.5005
諸佛所	-10.5011
垢淨	-10.5015
所度	-10.5015
定慧	-10.5021
不可施設	-10.503
散華	-10.503
遙	-10.5036
若集	-10.5037
色不異空	-10.5039
實無所有	-10.504
信解受持	-10.504
彼人	-10.504
最初	-10.5043
之念	-10.5049
如是名為	-10.5049
非菩薩摩訶薩	-10.5052
與諸有情平等共有迴向無上正等菩提	-10.5056
梵志	-10.5057
斷見	-10.5057
亦不可思議	-10.506
妙行	-10.506
而後	-10.5062
為我	-10.5063
得無生忍	-10.5066
無受	-10.5071
優婆塞	-10.5078
族	-10.5084
攝持	-10.5085
不住色	-10.5087
菩	-10.509
菩薩以	-10.51
而作	-10.5102
行檀波羅蜜	-10.5107
圓明	-10.5123
此理	-10.5127
下第三	-10.5137
所須	-10.514
乳	-10.5152
色聲	-10.5155
上言	-10.5157
理趣	-10.5158
只是	-10.5163
是深般若波羅蜜	-10.5164
號釋迦牟尼	-10.5166
復能	-10.5167
生於	-10.5169
若色清淨	-10.5181
一處	-10.5181
謝	-10.5191
敢	-10.5196
世親	-10.5197
超過	-10.5203
不立	-10.5203
如水	-10.5203
之妙	-10.5203
所施	-10.5205
述曰	-10.5208
不變	-10.5213
眼識	-10.5218
華香	-10.522
婬	-10.5223
今以	-10.5223
形像	-10.5229
不礙	-10.5229
乃至阿耨多羅三藐三菩提	-10.5231
無所見	-10.5234
附	-10.5236
教授	-10.5239
以是因緣	-10.5243
真法界	-10.5243
擊	-10.5244
毗	-10.5246
擁護	-10.5246
乾	-10.5249
無所得故	-10.5252
非有非無	-10.5253
三百	-10.5254
廣明	-10.5255
證道	-10.5258
罪業	-10.5269
佛剎	-10.5275
心住	-10.5275
會中	-10.5281
空即是色	-10.5282
殿	-10.5285
教令	-10.5288
張	-10.5299
委	-10.53
初心	-10.53
其性	-10.5301
法藏	-10.5302
其相	-10.5303
論議	-10.5309
常見	-10.531
若有人言	-10.5315
慧命	-10.5316
餘法	-10.5319
四十	-10.5321
不欲	-10.5321
今說	-10.5322
增上慢	-10.5324
無起	-10.5325
修慧	-10.5326
都無所有	-10.5327
此般若	-10.5328
亦離	-10.5335
後二	-10.5335
有法可得	-10.5338
按	-10.534
人所	-10.5344
大悲心	-10.5345
遍照	-10.5345
來者	-10.5349
為空	-10.5352
嚴淨	-10.5354
值	-10.5355
布施乃至般若波羅蜜多	-10.5355
念言	-10.5357
八聖道分	-10.5357
無所畏	-10.5357
若生若滅	-10.5369
蜜	-10.5371
應引發般若波羅蜜多	-10.5378
不見諸法	-10.5383
氏	-10.5388
里	-10.5389
御	-10.5392
既有	-10.5395
怒	-10.5396
安住苦	-10.5398
上妙	-10.54
魚	-10.5403
是有為	-10.5404
苦果	-10.5412
而觀	-10.5414
之也	-10.5423
佛菩提	-10.5425
不轉	-10.5426
聞已	-10.5431
此釋	-10.5436
議	-10.5437
現世	-10.5438
菩提薩埵	-10.5441
懃	-10.5442
無法可得	-10.5444
故佛	-10.5448
中住	-10.5448
安住真如	-10.5449
勝義諦	-10.5452
如先說	-10.5454
或云	-10.5464
三地	-10.5465
明此	-10.5466
如是一切皆無所有	-10.5468
故稱	-10.5476
人民	-10.5478
心所	-10.548
贊	-10.5482
塵勞	-10.5499
歌	-10.55
若菩薩摩訶薩行般若波羅蜜多時	-10.5505
無盡故	-10.5508
證果	-10.5511
非常	-10.5514
色中	-10.5515
報佛	-10.5516
此意	-10.5517
如上說	-10.5519
有智	-10.5526
若有願若無願	-10.5532
無餘涅槃	-10.5532
是諸法	-10.5535
時節	-10.5538
空性	-10.5539
唯佛	-10.5545
師子吼	-10.5549
所引	-10.5549
供養佛	-10.5553
毫	-10.5563
如是一切	-10.5563
清淨故法界	-10.5567
為真	-10.5568
迴向無上正等菩提	-10.5571
四無礙智	-10.5573
若有相若無相	-10.5574
無生故	-10.5577
無量劫	-10.5577
觀之	-10.5578
惡友	-10.5578
照見	-10.5579
等正覺	-10.558
觀自在	-10.5586
殊勝功德	-10.5594
勝故	-10.5595
磨	-10.5599
不達	-10.5601
左	-10.5601
生處	-10.5602
二禪	-10.5602
是般若	-10.5602
稍	-10.5603
常修	-10.5607
經意	-10.5608
三時	-10.561
不足	-10.5614
持此	-10.5621
佛智	-10.5623
故今	-10.563
空中空尚不	-10.563
為破	-10.5633
無央數	-10.5634
斯陀含果	-10.5639
即生	-10.564
之境	-10.564
給	-10.5645
實語	-10.5646
無生法	-10.5646
尚無	-10.5646
如意	-10.565
色受想行識	-10.5653
長行	-10.5654
川	-10.5654
勅	-10.5655
隨念	-10.5656
復言	-10.5656
從初	-10.566
衛	-10.5661
而無所	-10.5662
佛在	-10.5664
思量	-10.5668
漢	-10.5668
王舍城	-10.5671
天主	-10.5676
諸人	-10.568
作此	-10.5691
雪	-10.5697
於此經中	-10.5698
沈	-10.5701
畢竟離	-10.5702
床	-10.5704
析	-10.5709
一剎那	-10.571
利養	-10.5711
之教	-10.5714
淨不淨	-10.5715
虎	-10.5716
離我	-10.5717
最為	-10.5721
之辭	-10.5724
無佛	-10.573
應作是念	-10.5733
為行	-10.5743
相見	-10.5747
有漏無漏	-10.5748
秦	-10.5752
信者	-10.5752
若聞	-10.5754
寂靜不寂靜	-10.5754
無壞	-10.5756
勝行	-10.576
遠離不遠離	-10.5762
皆同	-10.5769
四法	-10.5769
犯戒	-10.577
菩薩摩訶薩如是學時	-10.5775
方能	-10.5776
願力	-10.578
菩薩心	-10.5784
三耶三佛	-10.5784
消滅	-10.5785
義趣	-10.5785
有佛	-10.5786
屈	-10.5788
藥叉	-10.5794
四事	-10.5796
下品	-10.58
以何	-10.5801
無等	-10.5806
湛然	-10.5808
須彌山	-10.5811
諸比丘	-10.5813
亦名甚深	-10.5822
為相	-10.5825
我以	-10.5828
亦同	-10.5831
此一	-10.5833
是故佛說	-10.5834
愚夫異生	-10.5834
不待	-10.5837
去來	-10.5844
男子	-10.5845
眾人	-10.5847
鈍根	-10.585
或見	-10.5851
分齊	-10.5851
亦無所得	-10.5854
以有	-10.5855
我清淨	-10.5856
汝當	-10.5858
因此	-10.586
令我	-10.5863
枝	-10.5866
揚	-10.5866
法界相	-10.5866
拈	-10.5875
佛語須菩提	-10.588
不必	-10.5887
生死苦	-10.5889
於其中間	-10.5891
釋之	-10.5894
名為菩薩	-10.5898
假立	-10.5899
有六	-10.5901
當知是菩薩摩訶薩	-10.5902
〔	-10.5909
阿那含果	-10.5909
二十五	-10.5915
言教	-10.5916
見之	-10.592
入於	-10.5928
一卷	-10.5928
闍	-10.5931
眾生心	-10.5931
諸世間	-10.5934
後時	-10.5935
有性	-10.5936
十八空	-10.5938
不見有法	-10.5939
但有假名	-10.5946
深妙	-10.5954
一明	-10.5956
遊戲	-10.5961
不住相	-10.5965
潔	-10.5969
以上	-10.5971
即法界	-10.5985
充滿	-10.599
及以	-10.5995
俱生	-10.5997
知有	-10.6
金色	-10.6002
方得	-10.6007
即真	-10.6011
輕賤	-10.6013
一如	-10.6013
須菩	-10.6017
非佛	-10.6018
乏	-10.6018
唯一	-10.6022
肩	-10.6031
庶	-10.6032
佛事	-10.6033
唯是	-10.6036
將欲	-10.6042
」;	-10.6042
說此經	-10.6046
大法	-10.6046
軌	-10.6046
論文	-10.6051
淺深	-10.6053
。」【(	-10.6053
太虗	-10.6056
為多	-10.6056
嘗	-10.6065
是名大身	-10.6066
十方佛	-10.6071
福勝	-10.6074
等故	-10.6076
三惡道	-10.6077
大意	-10.6078
修習甚深般若波羅蜜多	-10.608
讚曰	-10.608
聖者	-10.608
愚夫	-10.608
不攝受	-10.6083
遭	-10.6086
罵	-10.6086
冷	-10.6089
諸見	-10.609
十二處	-10.6092
以彼	-10.6093
作是說	-10.6096
已來	-10.6098
之多	-10.6108
釋提桓因白佛言	-10.6111
愛著	-10.6114
見者清淨	-10.6116
之大	-10.6116
究竟涅槃	-10.6121
俱不可得	-10.6126
有眾生	-10.6126
娑	-10.6127
賢者	-10.6127
優婆夷	-10.6128
正解	-10.6129
緒	-10.6134
聲聞法	-10.6135
一切菩薩	-10.6138
瑞	-10.6138
記云	-10.6139
住者	-10.614
發願	-10.614
伴	-10.614
解脫知見	-10.6141
非異	-10.6141
得度	-10.6143
於諸如來	-10.6145
軟	-10.6147
凡有	-10.6152
問也	-10.6156
如是求	-10.6158
南方	-10.6159
發無上正等覺心	-10.6167
非非法	-10.617
信樂	-10.6172
一切功德	-10.6174
分段	-10.6175
菩薩如是	-10.619
唵	-10.6194
福德聚	-10.6195
賣	-10.6196
個	-10.6196
其有	-10.6197
三心	-10.6201
有無量	-10.6202
正定	-10.6202
故名示	-10.6209
實際相	-10.6215
二人	-10.6216
三身	-10.6216
為性	-10.6218
影像	-10.6221
人空	-10.6221
是無為	-10.623
趣無上正等菩提	-10.6234
悟一切法	-10.6241
誓願	-10.6243
預	-10.6244
之有	-10.6246
所不	-10.6249
閑	-10.6251
於過去	-10.6252
殘	-10.6253
善巧方便	-10.6256
資糧	-10.6256
福慧	-10.6257
訓	-10.626
上明	-10.626
化人	-10.6261
地上	-10.6266
得涅槃	-10.6268
我之	-10.6274
成正覺	-10.6276
薩陀波崙菩薩	-10.6277
百千俱胝那庾多	-10.6277
攝心	-10.6277
速證無上正等菩提	-10.6278
都無所得	-10.6279
等相	-10.628
所有眾生	-10.6281
為彼	-10.6282
過去未來現在諸佛	-10.6282
度者	-10.6286
之德	-10.6288
大心	-10.6289
復作是說	-10.6292
了悟	-10.6294
聖賢	-10.6294
察	-10.6299
仁王	-10.6301
典	-10.6304
不明	-10.6309
二別	-10.6316
有情清淨	-10.6318
於其	-10.6318
鹿	-10.6322
天竺	-10.6326
能持	-10.6329
不可施設思議	-10.6329
知識	-10.633
教誡教授	-10.6332
為人演說	-10.6335
清淨故預流果清淨	-10.6337
非空	-10.6337
異相	-10.6338
無此	-10.6338
不忘	-10.6339
住心	-10.6339
我者	-10.6341
於一切智	-10.6345
未有	-10.6346
清淨故佛十力清淨	-10.6348
善現便白佛言	-10.6349
之力	-10.6355
宋	-10.636
聞佛所說	-10.6361
當生	-10.637
盜	-10.6371
清淨故六神通清淨	-10.6379
憐愍	-10.6386
平等不平等性	-10.6386
聖法	-10.6386
如虗空	-10.6386
恃	-10.6388
受樂	-10.6389
須知	-10.6392
諸法無	-10.6393
清淨故苦聖諦清淨	-10.6393
清淨故布施波羅蜜多清淨	-10.6396
以無所得故	-10.6396
此四	-10.6397
大明	-10.6399
清淨故一切陀羅尼門清淨	-10.64
名為佛	-10.6402
清淨故五眼清淨	-10.6402
廣說乃至一切相智	-10.6405
清淨故菩薩十地清淨	-10.6409
須達	-10.6411
先明	-10.6412
無縛	-10.6413
清淨故四念住清淨	-10.6414
為緣	-10.6415
草木	-10.6417
北方	-10.642
禮拜	-10.6421
任運	-10.6421
能化	-10.6423
空理	-10.6425
無定	-10.643
聞佛	-10.6431
兒	-10.6434
即是本性空	-10.6435
於諸法中	-10.6435
洗	-10.6436
自性清淨	-10.6436
當為	-10.6436
無名	-10.6437
於心	-10.6438
無方便	-10.6439
彼於是趣不可超越	-10.6443
如實了知所有	-10.6446
污	-10.6446
都不可得	-10.6447
有生	-10.6449
常與無常	-10.6453
若一切法真如	-10.6454
清淨故空解脫門清淨	-10.6455
如說修行	-10.6456
行處	-10.6458
天王當知	-10.6464
清淨故無忘失法清淨	-10.6466
清淨故真如清淨	-10.6473
菩薩所	-10.6475
同時	-10.6475
蛇	-10.6476
清淨故四靜慮清淨	-10.6479
經義	-10.648
顏	-10.6481
以喻	-10.6484
三昧者	-10.6485
本性空即是	-10.6486
清淨故恒住捨性清淨	-10.6486
及彼	-10.6489
心性	-10.6489
民	-10.6494
一身	-10.6496
經論	-10.6498
清淨故一切菩薩摩訶薩行清淨	-10.6502
在於	-10.6502
若增若減	-10.6505
如是諸	-10.6506
尸波羅蜜	-10.6507
無所住亦非不住	-10.6507
心常	-10.6509
以畢竟空	-10.6509
善女人等作此等說	-10.651
六入	-10.652
清淨故一切三摩地門清淨	-10.6521
猛	-10.6521
功用	-10.6526
雖不	-10.6526
最上乘	-10.6527
當得阿耨多羅三藐三菩提	-10.6533
即是一切智智	-10.6544
清淨故獨覺菩提清淨	-10.6545
妄見	-10.6545
泡	-10.6546
爭	-10.6547
教他	-10.6554
行道	-10.6558
之者	-10.6559
復能攝受	-10.656
道者	-10.6562
嗔	-10.6564
意生清淨	-10.6564
無方便善巧	-10.6565
清淨故內空清淨	-10.6568
清淨故諸佛無上正等菩提清淨	-10.6568
此問	-10.657
善女人等為發無上菩提心者	-10.657
種種因緣	-10.6573
心心數法	-10.6574
總明	-10.6574
初釋	-10.6574
所受	-10.6575
為令	-10.6575
秦言	-10.6576
弗	-10.6583
離此	-10.659
第	-10.6592
離障	-10.6592
不貪	-10.6592
聞般若波羅蜜	-10.6594
猶未	-10.6595
穀	-10.6596
取捨	-10.6597
有為界	-10.66
清淨故八解脫清淨	-10.6603
儒童	-10.6605
番	-10.661
能起	-10.6611
且道	-10.6612
甚大	-10.6617
淨觀地乃至如來地	-10.6619
於聲	-10.6622
無所分別	-10.6622
舍利子白佛言	-10.6625
醫藥	-10.6626
無所有處	-10.6628
佛與	-10.663
為佛	-10.663
具說	-10.663
不思惟分別	-10.663
謂佛	-10.6631
非我非無我	-10.6631
引發般若波羅蜜多	-10.6636
云何得	-10.6637
儒童清淨	-10.6637
始終	-10.6643
心數法	-10.6643
發菩提心者	-10.6643
別異	-10.6643
以空	-10.6647
鉢囉	-10.6651
結成	-10.6654
凡人	-10.6657
拏	-10.6657
一部	-10.6658
無法可	-10.6658
弟	-10.6661
聖教	-10.6667
亦不著	-10.6669
補特伽羅清淨	-10.6669
三菩提	-10.667
生者清淨	-10.6671
無倒	-10.6673
言語	-10.6676
善現白佛言	-10.6676
不退轉菩薩摩訶薩	-10.668
現觀	-10.6681
見其	-10.6684
則為欲令	-10.6684
淨與不淨	-10.6685
命者清淨	-10.6689
是名莊嚴	-10.6692
無生智	-10.6693
射	-10.6695
畢竟空故	-10.6696
能成就	-10.6697
中有三	-10.6699
又問	-10.67
乃至正憶念	-10.6703
受者清淨	-10.6705
大莊嚴	-10.6707
慶	-10.6707
竝	-10.6709
術	-10.6709
修行般若波羅蜜多時	-10.6711
覺性	-10.6713
勉	-10.6717
三德	-10.6718
川禪師云	-10.6718
士夫清淨	-10.672
如來如實覺為無相	-10.6723
是名菩薩	-10.6728
?』「	-10.6731
一經	-10.6735
所知障	-10.6738
三假	-10.674
唯然	-10.6743
當言與般若波羅蜜多相應	-10.6744
是為宣說真正	-10.6744
以一	-10.6744
我與無我	-10.6744
若有能求如是等法修行	-10.6747
我人眾生壽者	-10.6747
癡心	-10.6756
虛空界清淨	-10.6756
即非菩薩	-10.6757
此段	-10.6757
總是	-10.6761
云何應住	-10.6762
疎	-10.6765
當作是	-10.6774
沉	-10.6777
九地	-10.6777
福報	-10.6779
作者清淨	-10.6781
金剛三昧	-10.6782
是行	-10.6783
早	-10.6784
修習布施	-10.6785
佛心	-10.6786
婆沙	-10.6786
為行般若波羅蜜	-10.6787
見色	-10.6794
意者	-10.6799
亦無所有不可得	-10.68
發意	-10.68
樂之與苦	-10.6802
論說	-10.6803
若有能依如是等法修行	-10.6805
我說名為行有所得相似	-10.6805
當知皆是說有所得相似	-10.6805
不繫	-10.6809
初果	-10.6819
有十	-10.6819
予	-10.6824
當有	-10.6826
脩行	-10.6826
吉	-10.6829
出三界	-10.6831
壁	-10.6833
過去世	-10.6833
無分別智	-10.6835
有如是	-10.6835
體也	-10.6838
阿含	-10.6842
財寶	-10.6843
莊嚴佛土	-10.6845
天耳	-10.6845
今者	-10.685
知者清淨	-10.6854
薩云然	-10.6861
梵王	-10.6864
之所以	-10.6865
一生	-10.6865
瞋心	-10.687
如金剛	-10.687
能如實知	-10.6872
慚愧	-10.6883
刺	-10.6888
銀	-10.6889
能發	-10.6889
由彼	-10.6897
二約	-10.69
無礙智	-10.69
性不可得	-10.6904
若一切智智真如	-10.6908
得生	-10.6915
果故	-10.692
有差別	-10.692
化他	-10.6921
耶答	-10.6922
我想	-10.6928
生實相	-10.6934
契經	-10.6938
有是	-10.6938
齋	-10.6945
快樂	-10.6946
信忍	-10.6949
枯	-10.6949
六祖	-10.695
此即初也	-10.6951
梵音	-10.6956
無記法	-10.6957
囑累	-10.6957
為眾生故	-10.6961
即名	-10.6966
後釋	-10.6967
河沙	-10.697
六情	-10.697
以有所得為方便	-10.6975
不可盡	-10.6975
本末	-10.6982
欲知	-10.6986
與此	-10.6988
獸	-10.6988
摧	-10.699
故經云	-10.6999
體相	-10.7004
不虛	-10.701
伹	-10.7014
應有	-10.7015
乃至知者	-10.7016
空不異色	-10.702
大願	-10.7022
苦厄	-10.7026
之上	-10.7027
金剛手	-10.7029
重說	-10.7032
作是念言	-10.7035
心相	-10.7036
令眾生	-10.7038
之則	-10.7042
貪清淨	-10.7045
一行	-10.7046
當作	-10.7047
苦諦	-10.7054
即非莊嚴	-10.7055
不當	-10.7055
不敢	-10.7064
侵	-10.7065
由此般若波羅蜜多	-10.7065
牽	-10.7067
無罣礙	-10.7067
體用	-10.7071
如來法	-10.7072
菩薩得	-10.7072
真智	-10.7075
大道	-10.7078
此義云何	-10.7081
有見	-10.7087
富貴	-10.7088
皆一真如無二無別	-10.7089
下釋	-10.709
於無相	-10.7091
一種	-10.7096
人我	-10.7097
此方	-10.7098
內空乃至無法有法空	-10.7098
常應	-10.7099
是菩薩摩訶薩於	-10.7099
性無知即是清淨	-10.7099
眾生故	-10.7104
分別義趣令其易解	-10.7106
眾妙	-10.711
○)	-10.7116
得之	-10.7116
百千萬億	-10.7117
作用	-10.7118
住相	-10.7119
覓	-10.7122
神足	-10.7124
捨離	-10.7128
惡心	-10.7129
著心	-10.7129
崇	-10.7134
紅	-10.7135
第八地	-10.7135
學般若波羅蜜多	-10.7136
若作是念	-10.714
無行	-10.7143
手足	-10.7145
真佛	-10.7145
觀自在菩薩	-10.715
泥洹	-10.7167
斷絕	-10.7168
植	-10.7169
所不能	-10.7171
三千大千世界中	-10.7172
無染污故般若波羅蜜多清淨	-10.7178
此論	-10.7179
逮得	-10.7179
如佛所說	-10.7181
卒	-10.7186
第四禪	-10.7187
其名	-10.7188
集聖諦	-10.7191
於內	-10.7192
得圓滿	-10.7192
所造	-10.7195
般若波羅蜜多心經	-10.7196
朗	-10.7196
法喻	-10.7199
樓	-10.7199
孝	-10.7202
鼓	-10.7205
非眾生	-10.7207
又諸菩薩如實了知所有	-10.7211
如是學	-10.7212
滅聖諦	-10.7213
如有	-10.7221
如夢所見	-10.7225
趣向	-10.7225
而知	-10.723
世界中	-10.7231
非樂非苦	-10.7232
說言	-10.7233
住菩薩乘諸善男子	-10.7234
圍繞	-10.7239
作如是	-10.7241
金銀	-10.7241
儞	-10.7243
雖然	-10.7244
世尊告	-10.7246
他心智	-10.7251
憑	-10.7252
如所	-10.7255
二門	-10.726
忘失	-10.7261
人人	-10.7263
觀如來	-10.7263
由旬	-10.7264
今云	-10.7265
若有菩薩	-10.7265
現在前	-10.7267
十善道	-10.7268
若在	-10.7272
末世	-10.7277
塗散等香	-10.7278
能捨	-10.7281
夜摩天	-10.7284
先說	-10.7285
見諸有情	-10.729
以眾生	-10.7291
一切智智清淨故法界	-10.7291
見已	-10.7291
一段	-10.7294
應生	-10.7295
是即	-10.7297
遵	-10.7303
七日	-10.7305
應化	-10.7306
菩薩摩訶薩不見	-10.7308
無上正等覺	-10.7308
釋經	-10.7312
不起分別	-10.7314
本體	-10.7314
徵釋	-10.7315
法智	-10.7317
照明	-10.7318
色法	-10.7326
水中	-10.7328
般若波羅蜜經	-10.7329
預流果乃至獨覺菩提	-10.7344
修行布施波羅蜜多	-10.7345
難解	-10.7345
五戒	-10.7347
是大	-10.7348
墮地獄	-10.7349
非善法	-10.7354
。】「【	-10.7354
住持	-10.7356
無物	-10.7356
所著	-10.7358
四聖諦	-10.7359
為是	-10.736
疑也	-10.737
為學	-10.7373
依世俗	-10.7374
包	-10.7374
兩句	-10.7376
泉	-10.7382
透	-10.7382
莫不	-10.7383
則不能	-10.7383
又言	-10.7387
清淨故色清淨	-10.7388
無故	-10.7389
分別諸法	-10.7389
初二	-10.7392
意明	-10.7393
如是觀	-10.7393
是故須菩提	-10.7396
諸趣	-10.74
日出	-10.7401
俱舍	-10.7405
五道	-10.7405
得法	-10.7407
復作是念	-10.7408
猶豫	-10.7409
甚為希有	-10.7418
滅時	-10.742
三相	-10.7421
修行布施	-10.7423
亦不住	-10.7426
若菩薩摩訶薩能	-10.7427
不可思量	-10.7427
三賢	-10.7428
長者女	-10.7428
空三昧	-10.743
宣說般若波羅蜜多	-10.7431
聚落	-10.7432
更不	-10.744
圓教	-10.744
孰	-10.7442
名大	-10.7442
是名世界	-10.7444
不相違	-10.7444
方便力故	-10.7448
生天	-10.7451
道人	-10.7452
一切賢聖	-10.7454
有能	-10.7458
發趣	-10.7461
諸弟子	-10.7462
總標	-10.7463
現在諸佛	-10.7467
不違	-10.7468
持是	-10.747
三藏法師玄奘奉詔譯初分	-10.747
諸惡魔	-10.7477
見也	-10.7479
十行	-10.748
述成	-10.7486
彌陀	-10.7487
立名	-10.7491
不取於相	-10.7493
四蘊	-10.7495
釋經中	-10.7496
為難	-10.7498
琉璃	-10.7506
聞之	-10.751
積集	-10.751
是道	-10.7513
第四靜慮	-10.7515
江	-10.7515
欲為	-10.7518
最大	-10.7518
求佛道	-10.7522
之功	-10.7524
不退轉地	-10.7526
妙生	-10.7527
理事	-10.7529
如大	-10.7531
巳上	-10.7531
佛告天帝釋言	-10.7536
身見	-10.7537
修福	-10.7541
輪轉	-10.7546
流布	-10.7553
非菩薩	-10.7553
為實有	-10.7554
超越	-10.7557
護法	-10.756
盡智	-10.7564
所居	-10.7567
召	-10.7567
食時	-10.7567
寬	-10.7568
刻	-10.7572
秋	-10.7574
法無所有不可得	-10.7575
浪	-10.7575
又此	-10.7576
來去	-10.7576
想著	-10.7577
走	-10.7577
不及一	-10.7584
其事	-10.7587
亦不執	-10.7591
福業事	-10.76
而以	-10.7602
如次	-10.7606
不去	-10.7612
但見	-10.7614
未知	-10.7617
卷五百	-10.7617
云何降伏其心	-10.7617
初文	-10.762
百六十	-10.7624
蓮	-10.7624
掉	-10.7625
二十二	-10.7628
澤	-10.7631
即見如來	-10.7632
皆大歡喜	-10.7632
一合	-10.7633
隨逐	-10.7634
善男子善女人	-10.7641
卷四百	-10.7643
九種	-10.7647
之異	-10.7649
後二句	-10.7653
罪福	-10.7665
諷誦	-10.7668
不住於相	-10.7668
學人	-10.7671
生老病死	-10.7672
若合若散	-10.7673
六者	-10.7674
非淨非不淨	-10.7675
釋迦牟尼佛	-10.7677
2	-10.7677
獨覺向獨覺果	-10.7679
無上正等正覺	-10.7681
求無上正等菩提	-10.7691
所顯	-10.7692
無所執著	-10.7692
拂	-10.7694
大功德	-10.7695
於眾生	-10.7696
若能如是	-10.77
應云	-10.7701
不息	-10.7702
無諸	-10.7707
未曾有	-10.771
與前	-10.7715
婬欲	-10.7721
清淨心	-10.7729
大臣	-10.7734
百八	-10.7735
觀門	-10.7735
若爾者	-10.7742
下至	-10.7742
分別開示	-10.7742
傍	-10.7743
眾會	-10.7743
無文字	-10.7744
令生	-10.7745
倦	-10.7747
詰	-10.7748
古今	-10.7753
割截	-10.7753
地位	-10.7753
云何應於	-10.7756
諸漏	-10.7757
漸漸	-10.776
能行深般若波羅蜜多	-10.7762
於此經	-10.7763
修布施波羅蜜多	-10.7765
令諸有情	-10.7765
於此甚深般若波羅蜜多	-10.7765
以來	-10.7766
薄地	-10.7766
即無相	-10.7777
以成	-10.7777
起信	-10.7782
威	-10.7782
斷障	-10.7789
滿慈子言	-10.7791
於阿耨多羅三藐三菩提	-10.7791
非道	-10.7794
不妨	-10.7797
得失	-10.7797
釋疑	-10.7798
珍	-10.7801
無我法	-10.7802
我所說	-10.7802
由是因緣	-10.7807
後心	-10.7807
道也	-10.7809
妻子	-10.781
我不	-10.7811
添	-10.7816
理智	-10.7816
二分	-10.7818
闡	-10.782
佛法中	-10.7822
菩薩為	-10.7822
問言	-10.7824
大故	-10.7824
擬	-10.7824
甚奇	-10.7825
為正	-10.7827
戰	-10.7828
科家	-10.783
如影	-10.783
聽法者	-10.783
潛	-10.7832
若大乘	-10.7836
四攝	-10.7848
。】「○	-10.7857
惡道	-10.7858
正等正覺	-10.7858
珍奇	-10.7859
無去亦復不住	-10.7859
三結	-10.7863
令離	-10.7869
從初發意	-10.7869
殑伽沙	-10.7872
妄執	-10.7872
斷常	-10.7873
不能圓滿	-10.7873
不生則非	-10.7874
喜樂	-10.7875
幻有	-10.7881
後三	-10.7882
以一切智智相應作意	-10.7882
如尋香城	-10.7884
勝定	-10.7884
十種力	-10.7884
溺	-10.7885
巧便	-10.7888
上至	-10.7889
二果	-10.7891
信受奉行	-10.7892
能證得一切智智	-10.7892
此法門	-10.7893
若約	-10.7893
瘡	-10.7895
入無餘涅槃	-10.7896
丹	-10.7896
成阿耨多羅三耶三菩	-10.7903
覺支	-10.7905
其功德	-10.7908
獲得	-10.7909
佛自	-10.7912
熏習	-10.7914
終日	-10.7919
生死涅槃	-10.7919
獨覺等地	-10.7921
下劣	-10.7923
求佛	-10.7926
一千	-10.7927
教法	-10.7933
成就如是	-10.7933
何名	-10.7936
凡所有相	-10.7936
無相法	-10.7936
菩薩摩訶薩法	-10.7939
邊際	-10.794
良以	-10.7942
其言	-10.7943
荷擔	-10.7943
嫉	-10.7944
畢竟不可得故	-10.7945
所明	-10.7948
聲聞人	-10.795
斷諸	-10.7952
以諸	-10.7955
難可	-10.7957
雖說	-10.796
蘇	-10.7963
諸善	-10.7964
夏	-10.7964
抑	-10.7966
分二	-10.7969
卵生	-10.797
內心	-10.7971
即同	-10.7981
是學	-10.7983
發生	-10.7985
而復	-10.799
文字般若	-10.7991
諸法皆	-10.7994
色等諸法	-10.7997
自巳	-10.7997
修行六種波羅蜜多	-10.8
宣示開演顯了	-10.8001
是苦	-10.8005
算數	-10.8005
無減	-10.8006
了了	-10.8007
無有異	-10.8007
後有	-10.8007
舍利子復白佛言	-10.8008
何謂菩薩	-10.8012
以何義故	-10.8014
佛也	-10.802
拳	-10.8021
積聚	-10.8022
欲使	-10.8022
二十八	-10.8022
名號	-10.8023
廣略	-10.8027
佛號	-10.8029
迎	-10.8031
一切有情皆	-10.8031
欲以	-10.8031
我人	-10.8033
空即是	-10.8033
乃得	-10.8044
若菩薩摩訶薩於	-10.8046
七十	-10.8049
▁五	-10.8051
是為戲論	-10.8051
有種種	-10.8052
非常非壞	-10.8053
起如是想	-10.8059
修般若波羅蜜多	-10.8064
故問	-10.8066
從此第二明	-10.8069
將無	-10.807
曠野	-10.8071
以佛	-10.8075
無異分別	-10.8077
佛知	-10.8078
與我	-10.808
可解	-10.8081
寫	-10.8083
擔	-10.8083
無罪	-10.8084
本願	-10.8085
商	-10.8092
雖未	-10.8093
不疑	-10.8094
叉	-10.8094
之空	-10.8095
納	-10.8095
為世間	-10.8097
圓融	-10.8105
之真	-10.8106
我應	-10.8106
常隨	-10.8114
弊	-10.8116
如其	-10.8116
得預流果	-10.8117
等心	-10.8127
忿恚	-10.8127
善能	-10.8128
滅盡	-10.8132
無覺知故	-10.8133
斷除	-10.8134
今欲	-10.8137
聚集	-10.8143
滋	-10.8145
義理	-10.8146
於諸佛所	-10.8149
集散	-10.8152
信心清淨	-10.8157
託	-10.8161
何不	-10.8162
你	-10.8168
得成佛	-10.8169
卷第三	-10.8176
承事	-10.8178
退轉	-10.8179
於真如	-10.818
而此	-10.8181
三昧門	-10.8184
一切智清淨	-10.8184
舍衛國	-10.819
故修行般若波羅蜜多	-10.8192
本性空故	-10.8193
!』	-10.8195
相對	-10.8196
名聲	-10.8203
我見人見眾生見壽者見	-10.8203
為斷	-10.8205
本心	-10.8205
前明	-10.8207
真如甚深	-10.8209
心法	-10.8211
也次	-10.8212
歡	-10.8216
學道	-10.822
阿惟越致菩薩	-10.8221
髓	-10.8223
修習八解脫	-10.8224
無性為性	-10.8225
破之	-10.8226
飯	-10.823
修習四靜慮	-10.823
為勝	-10.823
徑	-10.8231
拔濟	-10.8236
不相應	-10.8239
於其中	-10.8242
不增	-10.8243
二十四	-10.8243
九品	-10.8246
電	-10.8248
佛神力故	-10.8251
即成	-10.8255
如是世尊	-10.8257
從緣所生諸法	-10.8263
下句	-10.8264
非有為	-10.8266
名真	-10.8274
明其	-10.8275
非有想非無想處	-10.8277
得聞是經	-10.8277
修習一切智	-10.8282
修習四念住	-10.8282
而白佛言	-10.8284
相待	-10.8285
應作	-10.8285
十年	-10.8286
無苦	-10.8286
修習佛十力	-10.8286
佛菩薩	-10.8291
為四	-10.8291
奇	-10.8291
禁	-10.8295
修習五眼	-10.8295
中之	-10.8296
修一切善法	-10.83
若善男子善女人	-10.8302
自下	-10.8302
旋	-10.8302
得是三昧	-10.8303
鑒	-10.8303
此顯	-10.8303
即前	-10.8308
素	-10.8308
即知	-10.8308
必須	-10.8318
精舍	-10.8319
安住內空	-10.8325
善女人等於此般若波羅蜜多	-10.8328
非餘	-10.8333
悲智	-10.8333
無失	-10.8336
勝也	-10.8339
魏	-10.8344
能信解	-10.8345
復次須菩提	-10.8345
由前	-10.8347
敗	-10.8347
非善	-10.8348
功能	-10.8349
行於布施	-10.8351
)『	-10.8354
無有定法	-10.8355
問意	-10.8355
飢渴	-10.8358
說之	-10.8358
王子	-10.8358
佛於	-10.8359
灑	-10.836
度一切苦厄	-10.836
修習一切陀羅尼門	-10.8361
掌	-10.8363
以智慧	-10.8369
均	-10.837
身口意	-10.8371
小兒	-10.8371
氷	-10.8371
能住	-10.8372
所獲功德甚多於前	-10.8375
自性皆空	-10.8378
之地	-10.8381
百千萬	-10.8381
為名	-10.8382
重言	-10.8385
淨名	-10.839
得阿羅漢果	-10.8396
常在	-10.8399
常無常相	-10.8405
所由	-10.8407
」。「	-10.8407
非有想非無想	-10.8409
當作佛	-10.841
修習菩薩摩訶薩行	-10.841
不滅則非	-10.841
我得阿羅漢道	-10.8411
修習無忘失法	-10.8413
說聽	-10.8416
而見	-10.8417
是有漏	-10.8423
令入	-10.8424
大經	-10.8426
正宗	-10.8427
速證	-10.8427
剛	-10.8429
竹	-10.843
從一	-10.8433
月光	-10.8434
能入	-10.8435
趣入	-10.8435
安置	-10.8436
於餘	-10.8437
三諦	-10.8438
豐	-10.844
睡	-10.844
自相空故	-10.8443
具足色身	-10.8443
凝	-10.8445
無處	-10.8447
利樂有情	-10.8447
無無明	-10.8448
騰	-10.8449
行菩薩行	-10.8449
所可	-10.8453
度人	-10.8456
無上覺	-10.8461
為用	-10.8464
懈	-10.8474
愍	-10.8478
依此等法	-10.8484
人皆	-10.8485
色如	-10.8486
如來之	-10.8486
為希有	-10.8487
斷故	-10.8492
當得作佛	-10.8494
貢高	-10.8495
羣	-10.8496
行布施波羅蜜多	-10.8497
前言	-10.8497
等至	-10.8502
應自	-10.8506
法及	-10.8507
以前	-10.8507
稟	-10.8507
塞	-10.851
受持般若波羅蜜	-10.851
三觀	-10.851
第一義中	-10.851
孔	-10.8512
須菩提問	-10.8513
俱無	-10.8514
無際	-10.8519
皆當	-10.852
震	-10.852
觀者	-10.8522
奧	-10.8527
即般若	-10.853
第一波羅蜜	-10.8531
超勝一切世間天	-10.8533
下界	-10.8534
以真如	-10.8534
是淨	-10.8536
聞經	-10.8536
之與	-10.8538
香華	-10.8542
充	-10.8547
法性可得	-10.8547
前世	-10.855
性空中	-10.8551
若見諸相非相	-10.8551
末後	-10.8552
無際空故	-10.8552
對曰	-10.8553
畢竟不可得	-10.8564
雖觀	-10.8566
亦無邊	-10.8566
不思惟	-10.8568
是虛妄	-10.857
本淨	-10.8571
劍	-10.8572
之用	-10.8573
追	-10.8576
如來真如平等	-10.8577
無有一法	-10.8577
混	-10.8578
祗	-10.858
穿	-10.8581
▁初正	-10.8582
愛敬	-10.8583
能護	-10.8585
鷲	-10.8587
第十一	-10.8589
識相	-10.8592
一切世間天	-10.8592
修安忍波羅蜜多	-10.8593
遠離一切	-10.8594
二初	-10.8594
▁次	-10.8596
無量故	-10.8597
功德勝利	-10.8607
我不欲令生	-10.8607
十方殑伽沙等諸佛世界	-10.8607
此品	-10.8613
因緣乃至增上緣	-10.8614
後一	-10.8616
山王	-10.8621
不能壞	-10.8623
損減	-10.8624
隨眠	-10.8627
何以不	-10.8628
5	-10.8629
著我	-10.8635
於三界	-10.8636
無比	-10.8637
善住	-10.8637
平等中	-10.8638
法爾	-10.8638
疲	-10.8639
於中有二	-10.8639
若色	-10.864
般涅槃後	-10.8641
之外	-10.8641
撥	-10.8642
自證	-10.8644
務	-10.8645
觀身	-10.8648
應受	-10.8649
買	-10.865
若生	-10.8652
階	-10.8653
無自性不可得	-10.8654
所獲功德	-10.8658
及所	-10.866
勿取	-10.8661
希求	-10.8661
六地	-10.8661
中分二	-10.8663
者即是	-10.8669
樂苦	-10.8669
而為方便	-10.8671
妙理	-10.8673
若得	-10.8675
諸天人	-10.8676
亦不取	-10.8676
一切法中	-10.8679
如言	-10.8679
窮盡	-10.868
即是如來	-10.8681
恒正稱揚	-10.8689
既不	-10.8692
謂我	-10.8695
唯假說故般若波羅蜜多清淨	-10.8698
長老	-10.8699
天眾	-10.8699
前際諸菩薩摩訶薩無所有不可得	-10.8699
乃至十八佛不共法	-10.87
深生	-10.8701
全經	-10.8704
補	-10.8705
娛樂	-10.8705
為義	-10.8705
亦不受	-10.8707
都無所	-10.8712
畢竟離故	-10.8715
真際	-10.8717
真淨	-10.8717
舍衛	-10.8717
常無	-10.8718
脚	-10.8724
杖	-10.8728
即於	-10.8734
能通達	-10.8739
而為說法	-10.8739
故隨如來生	-10.8744
修淨戒波羅蜜多	-10.8745
菩薩句義亦復如是實無所有	-10.8746
不當於中住	-10.8746
文也	-10.8747
當知菩薩摩訶薩亦無邊	-10.8751
黠	-10.8753
為諸	-10.8754
一二	-10.8755
得清淨	-10.8757
如是知	-10.8761
起者	-10.8763
以見	-10.8763
行乃至老死	-10.8766
無限	-10.877
修靜慮波羅蜜多	-10.8771
快	-10.8775
尚不能	-10.8775
大人	-10.8779
胎生	-10.8781
右膝著地	-10.8781
受持此經	-10.8782
作法	-10.8783
未生	-10.8788
稽首	-10.879
彼何謂	-10.879
舟	-10.879
在世	-10.8791
中來	-10.8794
不曾	-10.8795
非真實	-10.8797
故非	-10.8798
涌	-10.8802
龍王	-10.8803
。「『	-10.8806
或依	-10.8808
是誰	-10.881
何也	-10.8814
作念	-10.8816
送	-10.8816
正使	-10.8816
優	-10.8818
貪等	-10.8819
智故	-10.882
二見	-10.8828
有八	-10.8828
當云何	-10.883
常勤修學	-10.8831
非如來法性中	-10.8832
因緣和合	-10.8837
憎	-10.884
修習無上正等菩提	-10.8842
能治	-10.8842
直至	-10.8842
真如故隨如來生	-10.8844
其文	-10.8844
餘經	-10.8846
成立	-10.8849
自念	-10.885
尋思	-10.885
三千大千國土	-10.8851
卷第四	-10.8852
布施等	-10.8854
即受	-10.8855
紛	-10.8856
隨其所	-10.8857
寂靜不寂靜相	-10.8858
飢	-10.8859
空處	-10.886
囑	-10.8864
嚕	-10.8865
汝所	-10.8866
不悔	-10.887
宿命	-10.8872
即法身	-10.8881
真常	-10.8882
此智	-10.8882
若我	-10.8889
修精進波羅蜜多	-10.8891
不具	-10.8895
本性爾故	-10.8896
乘大乘者亦不	-10.8898
念住	-10.89
百萬	-10.8902
於是中	-10.8904
放逸	-10.8904
不應執著	-10.8906
般若乃至布施波羅蜜多	-10.8908
正理	-10.8908
其福甚多	-10.8913
所有功德	-10.8914
空虛	-10.8918
若有善男子善女人	-10.8919
滅法	-10.8919
令知	-10.892
百萬億	-10.892
粗	-10.8923
所在	-10.8925
無礙解	-10.8926
不應觀耳	-10.8928
雖是	-10.893
無一	-10.8933
領納	-10.8934
真如非相應非不相應	-10.8936
即滅	-10.8937
局	-10.8943
般若者	-10.8946
三門	-10.8949
住著	-10.895
多羅	-10.8951
於世	-10.8953
人得	-10.8956
一性	-10.8958
亦皆	-10.8959
無法有法空	-10.8962
八萬	-10.8963
聖果	-10.8964
若有為若無為	-10.8967
論中	-10.8967
▁○	-10.8968
行住	-10.8972
應作如是觀	-10.8974
覩史多天	-10.8975
有信	-10.8977
初正	-10.8978
若復	-10.898
非如來真如中	-10.898
如常	-10.8983
有少	-10.8983
宣說如是甚深般若波羅蜜多	-10.8984
令善通利	-10.8984
下第二明	-10.8987
以要言之	-10.8988
不見法	-10.8991
引攝	-10.8996
為第一	-10.8998
無量百千	-10.8999
勝彼	-10.8999
指示	-10.9
樹下	-10.9
破相	-10.9003
於人	-10.9003
修習空解脫門	-10.9006
競	-10.9007
壽者見	-10.9008
塵界	-10.9008
則能圓滿	-10.901
宮殿	-10.901
澄	-10.9014
之物	-10.9016
離一切	-10.9018
亦不見有	-10.9019
濫	-10.902
六趣	-10.902
實事	-10.9022
諸阿羅漢	-10.9022
此菩薩摩訶薩	-10.9025
我心	-10.9027
為顯	-10.9028
為他說	-10.9031
有所作	-10.9033
業果	-10.9034
不許	-10.9035
道法	-10.9044
初約	-10.9046
辱	-10.9048
其體	-10.9051
如來常說	-10.9051
隨順般若波羅蜜多	-10.9052
爾時須菩提白佛言	-10.9052
空法	-10.9054
般若也	-10.9055
戒蘊	-10.9059
而彼	-10.9066
那由他	-10.9066
於未來世	-10.9069
甚難	-10.907
宅	-10.9071
優劣	-10.9075
唯願	-10.9076
其餘	-10.9079
顯示涅槃	-10.9081
是輩	-10.9082
煖	-10.9085
瞋恨	-10.9085
彌勒菩薩	-10.9088
三千界	-10.9092
不行受	-10.9096
猶有	-10.9096
根塵	-10.9096
何事	-10.9098
勤求	-10.9098
何者是	-10.9098
道故	-10.9099
聖凡	-10.91
是其	-10.9101
能如實	-10.9104
是相	-10.9105
曇無竭	-10.9106
若有漏若無漏	-10.9107
如來法身	-10.9112
故名如來	-10.9113
云何住	-10.9113
在內	-10.9113
一切人	-10.9115
無邊際故	-10.9122
常有	-10.9129
非作非不作	-10.9129
是為住習	-10.9132
能緣	-10.9134
畜	-10.9135
幻師	-10.9136
非寂靜非不寂靜	-10.9136
麻	-10.914
大般若	-10.9142
應如是學	-10.9143
有所說	-10.9147
賀	-10.915
得受記	-10.915
所入	-10.915
錢	-10.9154
今依	-10.9155
二十七	-10.9156
行住坐臥	-10.9157
攝一切	-10.9158
時也	-10.9158
生長	-10.9166
識亦	-10.9168
勤修學	-10.9169
三千世界	-10.9169
所欲	-10.9173
苦海	-10.9173
彼此	-10.9178
計我	-10.918
諸大眾	-10.9183
佛告阿難	-10.919
二百	-10.9199
見此事已	-10.9202
隨機	-10.9202
見趣	-10.9203
雖修	-10.9204
有三昧名	-10.9205
出入	-10.9207
三慧	-10.9207
若菩薩摩訶薩修行般若波羅蜜多	-10.9207
翻為	-10.9208
真如是菩薩摩訶薩不	-10.9208
四門	-10.9208
以用布施	-10.921
尸羅	-10.9211
不恐	-10.9211
心地	-10.9213
佛母	-10.9214
有量	-10.922
動轉	-10.9221
妙用	-10.9222
利眾生	-10.9226
亦不行	-10.9226
二俱	-10.9227
百二十	-10.9228
荷	-10.923
無量眾生	-10.923
資生	-10.923
觀心	-10.9233
阿耨	-10.9233
重罪	-10.9235
無依	-10.9239
此亦	-10.9243
中如來可得	-10.9248
非不眾生	-10.9251
汝於	-10.9255
不亂	-10.9257
名利	-10.9261
初總	-10.9261
端正	-10.9262
天魔	-10.9265
無倒稱揚	-10.9269
便作是念	-10.9269
是無漏	-10.927
勝德	-10.9271
三千大千	-10.9271
雖得	-10.9271
我得	-10.9272
應行	-10.9272
知眾生	-10.9274
至一切智智中住	-10.9275
應薩婆若心	-10.9276
是真如	-10.9276
即說	-10.9277
相應作意	-10.9281
既云	-10.9282
隨喜心	-10.9283
非遠離非不遠離	-10.9288
佛設利羅	-10.9291
觀照般若	-10.9293
尊者須菩提	-10.9294
云何能	-10.9294
真如亦非相應非不相應	-10.9296
此句	-10.9296
指疑起處	-10.9298
所種善根	-10.9298
揭	-10.9299
勇	-10.9299
法性非相應非不相應	-10.93
隨其所應	-10.9303
初舉	-10.9306
遠離不遠離相	-10.9306
無量諸佛	-10.9306
』(	-10.9307
麁重	-10.9308
盧	-10.9308
頗有眾生	-10.9311
堅實	-10.9312
亦不為	-10.9314
分三	-10.9317
良由	-10.9323
或作	-10.933
異生地	-10.933
無量阿僧祇	-10.9333
五通	-10.9333
釋意云	-10.9336
佛及	-10.9339
斷煩惱	-10.9341
一切法真如	-10.9346
大乘者	-10.9347
四念處乃至八聖道分	-10.9348
非彼	-10.9349
三禪	-10.935
作集作散	-10.935
作廣作狹	-10.9351
是菩薩摩訶薩由起此想	-10.9353
內身	-10.9354
彼法	-10.9355
在外	-10.9355
果德	-10.9357
能引	-10.9357
作集散	-10.9359
諸心	-10.9365
如所說	-10.9367
修菩薩行	-10.937
無過	-10.9371
中如來法性可得	-10.9375
能成辦一切智智	-10.9378
不假	-10.9379
頑	-10.9381
大劫	-10.9382
智見	-10.9382
淨不淨相	-10.9383
丈	-10.9386
大千世界	-10.939
甲	-10.939
無因	-10.9393
旦	-10.9394
復何	-10.9395
怪	-10.9396
厭離	-10.9398
龜	-10.94
名中無	-10.9403
有疑	-10.9403
一切相	-10.9405
當知此	-10.9409
證智	-10.9411
說名為	-10.9415
別教	-10.9417
能引發	-10.9419
轉妙法輪	-10.9423
若作大小	-10.9424
不作大小	-10.9427
不為棄捨	-10.9428
咸同一相	-10.9429
深義	-10.9429
自覺	-10.9429
非有對非無對	-10.9429
言如來	-10.9429
非有見非無見	-10.943
不墮欲界	-10.9431
三釋	-10.9432
為求	-10.9436
不能知	-10.9437
是法平等	-10.9438
汝若作是念	-10.9439
微笑	-10.9442
循	-10.9444
法性亦非相應非不相應	-10.9445
菩薩也	-10.9446
為證	-10.9448
變異	-10.9448
味著	-10.9451
作是願言	-10.9452
鬪諍	-10.9454
饒益有情	-10.9456
吒	-10.9457
臂	-10.9458
格	-10.9459
哀	-10.9461
弱	-10.9462
甚多世尊	-10.9462
耀	-10.9462
功德施	-10.9462
自此	-10.9464
離言	-10.947
亂心	-10.947
得一切智智	-10.9471
或執	-10.9471
無情	-10.9472
四見	-10.9472
及一切法	-10.9486
理實	-10.9487
自住	-10.9487
結前	-10.9488
度之	-10.9489
勝妙	-10.9491
佛乘	-10.9494
覺觀	-10.9495
我無我相	-10.9497
解脫智見蘊	-10.95
福多	-10.9501
而取無上正等菩提	-10.9504
般若中	-10.9504
除遣	-10.9504
偈中	-10.9504
非有色非無色	-10.9507
當知是為魔事	-10.9509
分之	-10.9509
長時	-10.9512
則應	-10.9512
己身	-10.9513
次答	-10.9515
了義	-10.9515
枝葉	-10.9519
便白佛言	-10.952
輕慢	-10.9524
終無	-10.9531
撰	-10.9532
來世	-10.9532
四念處乃至十八不共法	-10.9534
尤	-10.9535
不作廣狹	-10.9536
謂彼	-10.9537
着	-10.9537
不作集散	-10.9538
把	-10.9542
大智度論	-10.9544
作廣狹	-10.9544
作是願	-10.955
悟解	-10.9552
因位	-10.9556
其理	-10.956
西域	-10.9562
法身也	-10.9567
復白佛言	-10.9568
生身	-10.9574
無虗	-10.9576
甚深故此法甚深	-10.9578
言其	-10.9579
不異法界	-10.9581
擐	-10.9585
餘者	-10.9586
而證	-10.9586
無聞	-10.9587
般泥洹	-10.9587
法義	-10.9587
此以	-10.9587
厄	-10.9589
觀菩薩句義無所有不可得亦	-10.959
大歡喜	-10.9594
坐道場	-10.9595
無極	-10.9598
嚩日囉	-10.9599
如來說法	-10.9599
火燒	-10.9601
離欲地	-10.9604
如是學者	-10.9604
幢幡	-10.9605
癡清淨	-10.9606
李文會	-10.9607
五度	-10.9608
若不攝受	-10.9609
第三明	-10.9612
初發意	-10.9613
此初	-10.9613
以布施	-10.9613
解了	-10.9616
竪	-10.9618
中無名	-10.9619
於生死	-10.9619
寸	-10.9619
灰	-10.9619
是福德	-10.962
繩	-10.9621
別說	-10.9621
入聖	-10.9625
曩	-10.9625
從前	-10.9631
修諸	-10.9634
極微	-10.9636
有情界	-10.9638
法非法	-10.9638
修定	-10.9644
具有	-10.9644
略明	-10.9645
聲色	-10.9648
於佛十力	-10.9651
修行甚深般若波羅蜜多	-10.9655
二十九	-10.9656
兄弟	-10.9658
作諸	-10.9666
增減故學	-10.9669
瞻	-10.9671
佛又	-10.9674
異處	-10.9674
何緣故說	-10.9676
乃至無	-10.9679
能自	-10.9681
攀緣	-10.9682
離垢	-10.9682
能證得	-10.9685
戀	-10.9686
界等	-10.969
若有若無	-10.9692
業障	-10.9694
伸	-10.9696
為五	-10.9696
惡知識	-10.9697
津	-10.9698
又解	-10.9703
即從座起	-10.9705
依教	-10.9709
菩薩摩訶薩以	-10.9711
人之	-10.9713
文句	-10.9714
異故	-10.9714
惡法	-10.9714
救護	-10.9716
已說	-10.9721
為眾生說法	-10.9722
如恒河沙等	-10.9724
慧蘊	-10.9726
復為	-10.9727
之門	-10.9727
云何知	-10.9727
讚佛	-10.973
於內空	-10.9731
四等	-10.9737
果位	-10.9739
無有少法	-10.974
能攝受	-10.9752
可名	-10.9754
諸外道	-10.9757
然而	-10.9757
擾	-10.976
之間	-10.976
惡人	-10.976
為供養	-10.9763
嚴土	-10.9763
二答	-10.9765
當知此處	-10.9768
斥	-10.977
□□□	-10.9773
問云	-10.9773
疊	-10.9773
所住處	-10.9774
此間	-10.9776
結集	-10.9778
併	-10.9779
無住處	-10.9779
何須	-10.978
渾	-10.978
勝天王	-10.9783
二引	-10.9789
中品	-10.9794
是念	-10.9795
散心	-10.9798
又何	-10.9802
各自	-10.9802
體即	-10.9804
得益	-10.9807
滅故學	-10.9812
受持讀誦此經	-10.9814
義非義	-10.982
三問	-10.982
雖知	-10.9822
眾德	-10.9823
得福甚多	-10.9824
一切皆非相應非不相應	-10.9826
如實觀察	-10.9827
而不得	-10.9829
寂滅忍	-10.9829
淨佛世界	-10.983
觀耳	-10.9831
三十六	-10.9831
真如即	-10.9832
緣故	-10.9833
敬禮	-10.9836
盡故學	-10.9839
法身故	-10.9839
緣所生法	-10.9841
解脫蘊	-10.9844
四天王天	-10.9844
尊貴	-10.9847
於佛無上正等菩提	-10.9847
無所不	-10.9847
照見五蘊皆空	-10.9849
換	-10.9849
長短	-10.9851
佛寶	-10.9852
嫌	-10.9852
博	-10.9853
惡不善法	-10.9853
傅大士	-10.9857
內有	-10.9858
四方	-10.9861
正等	-10.9862
利物	-10.9862
無增減	-10.9865
欲證無上正等菩提	-10.9867
王言	-10.9867
上中下	-10.9868
上句	-10.9871
亦不應	-10.9871
令不	-10.9872
今則	-10.988
大雲	-10.9881
同前	-10.9886
者明	-10.9887
不自在性	-10.9887
與人	-10.9889
久遠	-10.9893
皆因	-10.9895
發心者	-10.9896
有罪	-10.9899
諸定	-10.9899
能善	-10.9899
獲福	-10.99
空無	-10.9902
應無所住	-10.9902
作有力作無力	-10.9902
廣果天	-10.9903
阿耨多羅	-10.9907
此處	-10.9909
如是見	-10.9912
同事	-10.9913
空義	-10.9913
持經功德	-10.9916
預流向	-10.9921
名義	-10.9922
嬈	-10.9923
善學	-10.9925
或為	-10.9925
謙	-10.9926
義者	-10.9927
福業	-10.9927
乃名	-10.9927
空不壞	-10.9929
言我	-10.993
他心	-10.9931
聞慧	-10.9932
有對	-10.9933
是因	-10.9933
亦無性為性	-10.9934
無執著	-10.9934
以般若波羅蜜	-10.9934
肇	-10.9938
不減	-10.994
移	-10.9941
獻	-10.9941
是名說法	-10.9942
今既	-10.9946
無益	-10.9947
未來現在	-10.995
道品	-10.9951
令諸	-10.9952
迴向心	-10.9953
相應之法	-10.9953
為二初	-10.9956
無差	-10.9957
捉	-10.996
此翻	-10.9964
法華經	-10.9965
不生法相	-10.9966
不壞空	-10.9973
根性	-10.9976
法性清淨	-10.9976
非當可得	-10.9979
不能攝受	-10.9979
一合相者	-10.9981
見是	-10.9982
作有量作無量	-10.9984
清淨故眼界清淨	-10.9987
難量	-10.9987
清淨故身界清淨	-10.9989
能聽法者	-10.9992
憶想分別	-10.9992
清淨故舌界清淨	-10.9993
匝	-10.9995
行深般若波羅蜜多時	-10.9996
炬	-10.9996
咎	-10.9996
謂以	-10.9996
度一切眾生	-10.9997
若說	-10.9997
最尊	-10.9999
工	-10.9999
告言	-11
皆是虗妄	-11.0001
修遣	-11.0005
欲樂	-11.0006
善現復白佛言	-11.0007
四緣	-11.0008
若作	-11.0013
無邊功德	-11.0013
律儀	-11.0014
清淨故耳界清淨	-11.0016
無漏心	-11.0018
於外	-11.0021
馳	-11.0021
噉	-11.0022
清淨故意界清淨	-11.0025
一世界	-11.0025
諸所有	-11.0025
解者	-11.0026
以方便力	-11.0026
即非佛法	-11.0026
獲益	-11.0028
因也	-11.0036
清淨故無明清淨	-11.0037
福相	-11.0038
阿素洛	-11.0039
是故言	-11.0039
幻事	-11.0041
伽陀	-11.0047
寶藏	-11.0048
明之	-11.0048
是我是我所	-11.0058
想空為不二	-11.006
異名	-11.006
非現可得	-11.0061
若作有力無力	-11.0061
不作有力無力	-11.0061
上界	-11.0063
取證	-11.0063
此分	-11.0064
即無明	-11.0064
迷悟	-11.0066
莊	-11.0066
本性清淨	-11.0075
勸持	-11.0076
歸於	-11.0077
以方便力故	-11.0077
不應住色生心	-11.0077
我若	-11.0078
不當住	-11.0078
盡故	-11.0084
智也	-11.0089
准此	-11.0093
能轉	-11.0094
徵意云	-11.0095
恣	-11.0098
喚	-11.0098
阿惟越致菩薩摩訶薩	-11.0103
能現	-11.0108
復告	-11.0118
作業	-11.0126
虛妄分別	-11.0128
千萬	-11.0129
安住般若波羅蜜多	-11.0133
眾多	-11.0133
清淨故色處清淨	-11.0135
不還果清淨	-11.0137
靜慮波羅蜜多清淨	-11.0137
清淨故眼處清淨	-11.0144
滅聖諦清淨	-11.0144
安立第一義	-11.0145
魔軍	-11.0147
欲令眾生	-11.0147
復持如是	-11.0149
本際	-11.0153
忿	-11.0155
從初發心乃至	-11.0155
於五眼	-11.0156
生也	-11.0157
於四靜慮	-11.016
為他廣說	-11.0161
空無所有	-11.0166
」「	-11.017
正義	-11.0173
皆共	-11.0177
須臾	-11.0179
阿鞞	-11.018
自下第二	-11.0181
高下	-11.0181
此土	-11.0181
幻色	-11.0181
當一一釋	-11.0181
紫	-11.0184
雷	-11.0186
吼	-11.0187
峰	-11.0188
虫	-11.0191
想為二	-11.0191
淨名云	-11.0192
普賢	-11.0192
執取	-11.0194
逼	-11.0195
通教	-11.0197
入道	-11.0199
定蘊	-11.0201
離故學	-11.0205
尋香城	-11.0208
著於	-11.0212
染心	-11.0212
自性故	-11.0216
若世間若出世間	-11.0216
二十一	-11.0216
寂滅相	-11.0222
辟支佛法	-11.0223
世出世	-11.0227
故說為	-11.0229
牒前	-11.023
四大王眾天	-11.0232
梵眾天	-11.0233
少有	-11.0235
為他演說	-11.0238
清淨故地界清淨	-11.024
品竟	-11.0242
清淨故鼻界清淨	-11.0243
就此	-11.0244
六通	-11.0247
當依	-11.0248
之謂	-11.0249
前五	-11.025
熱惱	-11.0252
須彌山王	-11.0255
能盡	-11.0256
假說	-11.026
般若是	-11.026
在大眾中	-11.0261
牢固	-11.0261
不作有量無量	-11.0262
或可	-11.0262
能說法者	-11.0266
幸	-11.0267
受諸	-11.0269
世間出世間	-11.027
整	-11.0273
下三	-11.0273
無數劫	-11.0275
之極	-11.0276
作有量無量	-11.0276
不示現	-11.0278
佛說法	-11.0279
率	-11.0279
一來果清淨	-11.028
是身	-11.0283
集聖諦清淨	-11.0285
濟拔	-11.0288
來至	-11.0288
義中	-11.0289
但云	-11.029
如來所得	-11.0296
萬德	-11.0299
自高	-11.03
第一希有	-11.0301
中流	-11.0303
定相	-11.0304
生歡喜	-11.0306
二利	-11.0306
佛陀	-11.0308
識空	-11.0312
從一佛國至一佛國	-11.0313
疾能證得一切智智	-11.0314
從是	-11.0316
身命布施	-11.0316
不能從三界中出	-11.0316
諸聖	-11.0319
發趣大乘	-11.0324
法界清淨	-11.0324
以法	-11.0324
亦說	-11.0325
自作	-11.0327
勝義諦中	-11.0329
種姓地	-11.0331
幢	-11.0333
般若故	-11.0334
大捨清淨	-11.0337
在此	-11.0338
眠	-11.0339
餘處	-11.0339
故舉	-11.034
壽量	-11.0341
慕	-11.0343
諸菩薩摩訶薩亦復如是	-11.0343
即是佛	-11.0343
中起	-11.0344
仗	-11.0345
烏	-11.0348
妙有	-11.0348
於無明	-11.035
能滿	-11.0352
如來悉知	-11.0354
初一	-11.0355
須菩提至	-11.0356
如斯	-11.0356
頻	-11.0356
十二部經	-11.0358
見諦	-11.036
譬如人	-11.0363
處所	-11.0365
若魔	-11.0368
墮於	-11.0369
頓悟	-11.0372
諸法真如	-11.0373
應如是知	-11.0375
有盡	-11.0376
為除	-11.0376
山中	-11.0376
不見我	-11.0376
陽焰	-11.0378
實語者	-11.0387
顛倒故	-11.039
神變	-11.039
三法	-11.0391
能受持	-11.0393
二處	-11.0393
大慈悲	-11.0394
時分	-11.0399
謗毀	-11.0401
實信	-11.0402
問之	-11.0404
斷之	-11.0406
無相解脫門清淨	-11.0409
應無所住而生其心	-11.041
事理	-11.0412
諸菩薩摩訶薩於如是	-11.0413
若在內若在外若在兩間增語	-11.0413
八十種好	-11.0414
令修	-11.0415
三分	-11.0417
生天上	-11.0418
若菩薩摩訶薩行深般若波羅蜜多時	-11.0419
萬劫	-11.042
相成就	-11.0421
不善法	-11.0424
吽	-11.0426
道諦	-11.043
遍計所執	-11.043
我於爾時	-11.0431
▁初標	-11.0432
五千	-11.0433
危	-11.0435
梵云	-11.0436
非世界	-11.0437
各別	-11.0439
又說	-11.044
得阿耨菩提	-11.044
時眾	-11.0441
大樂	-11.0443
之內	-11.0443
不雜	-11.0445
初標章	-11.0445
苦集	-11.0445
因行	-11.0455
沙數	-11.0456
福德多	-11.0456
則不信	-11.0459
濡首	-11.0462
說是經	-11.0464
翻譯	-11.0464
難也	-11.0467
能伏	-11.0473
無住無不住	-11.0473
難思	-11.0477
所趣	-11.0478
無等等性	-11.0479
於須菩提意云何	-11.048
若虛空	-11.048
慈悲心	-11.048
既得	-11.0481
以無量門巧妙文義	-11.0483
非二	-11.0484
於世間	-11.0489
甚深般若	-11.0489
真如是謂無上正等菩提	-11.0492
答之	-11.0493
不可施設不可思議	-11.0493
今何以	-11.0497
國土中	-11.0497
養者	-11.05
正顯	-11.0501
是故如來	-11.0502
不誑	-11.0502
以內空	-11.0504
無有二	-11.0506
帝釋天主	-11.0507
燃燈佛	-11.0507
花香	-11.0508
五百歲	-11.0508
如變化事	-11.0509
用心	-11.051
熾盛	-11.0511
菩薩字	-11.0514
不虗	-11.0515
聲聞獨覺	-11.0516
層	-11.0516
坑	-11.0517
測量	-11.0519
便謂	-11.0521
捺	-11.0522
經初	-11.0522
斷三界	-11.0525
四正斷清淨	-11.0527
聖智	-11.0528
神呪	-11.0529
前來	-11.053
具足六波羅蜜	-11.053
白衣	-11.0531
和尚	-11.0534
智相	-11.0535
皆非	-11.0536
虛空無所有故	-11.0538
作是念已	-11.0539
生人中	-11.0539
何意	-11.0544
自悟	-11.0544
七難	-11.055
無四相	-11.0551
三塗	-11.0552
能解	-11.0553
現在世	-11.0554
不貴	-11.0554
末法	-11.0555
所修行	-11.0556
一切行	-11.0559
教體	-11.0559
得阿羅漢	-11.0564
往生	-11.0565
證知	-11.0565
出現世間能成辦事	-11.0567
如來得阿耨多羅三藐三菩提	-11.0567
即水	-11.0568
歡喜讚歎修	-11.0568
既不可得	-11.0568
能離	-11.0569
七等覺支清淨	-11.0569
欲顯	-11.0571
淨佛土	-11.0572
即菩提	-11.0572
不免	-11.0575
上說	-11.0578
無實無虗	-11.0579
頂禮佛足	-11.0579
不一	-11.0579
不觀一切智與	-11.058
稱譽	-11.0581
呼須菩提曰	-11.0582
求之	-11.0582
即入	-11.0585
不惜身命	-11.0586
擾亂	-11.0588
諸欲	-11.0589
明矣	-11.0589
放大光明	-11.059
不離散	-11.0591
便生	-11.0592
復生	-11.0592
其猶	-11.0592
當如	-11.0593
蟲	-11.0594
薩芸若慧	-11.0594
算	-11.0594
宗泐	-11.0595
種種方便	-11.0599
憍	-11.0606
王位	-11.061
第三句	-11.0611
禮敬	-11.0611
宗旨	-11.0616
為得	-11.0617
甚深故	-11.0622
非如	-11.0622
所治	-11.0624
瞋清淨	-11.0627
不作大不作小	-11.0631
城中	-11.0641
之一字	-11.0641
有二意	-11.0644
種種差別	-11.0647
之法也	-11.0651
作加行	-11.0652
前際不可得	-11.0654
門中	-11.0655
能攝	-11.0656
常為	-11.0656
不寂靜	-11.0657
亦名麁重	-11.0657
從此第三	-11.0658
佛因	-11.0659
以一切法皆	-11.0659
非智	-11.066
到此	-11.0661
乃至算數譬喻所不能及	-11.0661
十八法	-11.0662
遍淨天	-11.0662
依經	-11.0663
似有	-11.0664
色究竟天	-11.0664
持此善根	-11.0664
八十隨形好	-11.0666
淨戒波羅蜜多清淨	-11.0666
諸天子言	-11.0666
何能	-11.0667
不異本性空	-11.0667
眾寶莊嚴	-11.0669
丈夫	-11.0671
熾然	-11.0672
全體	-11.0672
五義	-11.0672
而求	-11.0673
出生死	-11.0674
悉見是人	-11.0676
永無	-11.0676
異也	-11.0677
合掌恭敬	-11.0677
若起	-11.0677
四無所畏清淨	-11.0678
曠	-11.068
而不能	-11.068
於法界	-11.0681
後際不可得	-11.0685
外空清淨	-11.0686
之別	-11.0687
聾	-11.0689
於此淨戒波羅蜜多	-11.069
無作三昧	-11.0693
稱歎	-11.0693
甘	-11.0695
百年	-11.0695
夷	-11.0698
三果	-11.0701
如是住	-11.0702
而又	-11.0703
自性空清淨	-11.0704
腹	-11.0704
依正	-11.0706
畢竟空清淨	-11.0706
及法	-11.0707
果者	-11.0707
覺心	-11.0709
總攝	-11.071
五塵	-11.071
文言	-11.0712
則曰	-11.0712
報化	-11.0714
若般若波羅蜜多	-11.0715
非為	-11.0715
諸菩薩摩訶薩應	-11.0717
▁初明	-11.0719
體故	-11.0722
▁二釋	-11.0723
無事	-11.0724
皆言	-11.0724
動搖	-11.0726
處故	-11.0727
長老須菩提	-11.0728
為行相	-11.0728
如來所	-11.0729
諸菩薩摩訶薩前	-11.073
則生	-11.073
有限	-11.0731
如實觀	-11.0732
不別	-11.0737
樂聞	-11.0738
不二法	-11.0738
三惡趣	-11.0748
為一切眾生	-11.075
二十三	-11.0751
欲明	-11.0752
慈氏菩薩	-11.0752
能聞	-11.0752
而今	-11.0752
第二句	-11.0753
佛者	-11.0753
如是人等	-11.0756
貪瞋癡	-11.0757
法尚應捨	-11.0758
下文云	-11.076
若菩薩摩訶薩以應一切智智心	-11.076
更說	-11.0761
九次第定清淨	-11.0762
諸佛世界	-11.0762
從緣	-11.0767
所在之處	-11.0768
三際	-11.0769
若菩薩摩訶薩如是學時	-11.0771
安立有情	-11.0773
答中	-11.0774
隨應	-11.0775
端嚴	-11.0776
饒	-11.0779
跋	-11.0783
吹	-11.0783
即一切智	-11.0785
若取	-11.0786
云何可	-11.0786
當如是	-11.0786
佛恐	-11.0786
陵	-11.0788
繫縛	-11.0788
染污	-11.079
假設	-11.0791
區	-11.0792
普明	-11.0793
能證無上正等菩提	-11.0793
色無色界	-11.0794
銅	-11.0794
無滅故	-11.0795
在前	-11.0798
大慈清淨	-11.0799
斑足	-11.0802
於四念住	-11.0802
安忍波羅蜜多清淨	-11.0804
心所法	-11.0807
易得	-11.0807
間斷	-11.0808
利生	-11.0808
證入	-11.081
忽然	-11.0813
常以	-11.0814
變現	-11.0824
▁淨	-11.0828
悲心	-11.0829
▁初釋	-11.0829
已辦地	-11.0832
第十二	-11.0833
趣菩提	-11.0834
一切法空清淨	-11.0838
八背捨	-11.0839
終不能	-11.0841
乃至無法有法空	-11.0842
分限	-11.0843
本性空不異	-11.0843
自性涅槃故學	-11.0845
實無眾生得滅度者	-11.0847
名句文	-11.0849
4	-11.085
生空	-11.0851
嚴飾	-11.0853
般若波羅蜜多亦	-11.0854
無生故學	-11.0855
於是處	-11.086
常應圓滿	-11.086
畢竟淨法	-11.0861
莊嚴佛土者	-11.0862
四無礙解清淨	-11.0864
諸法如	-11.0869
畢定	-11.0872
為眾生說	-11.0873
亦不應住	-11.0875
無變異空清淨	-11.0876
神通力	-11.0876
巨	-11.0876
忠	-11.0878
散空清淨	-11.0879
豈得	-11.088
佛告舍利子	-11.088
臭	-11.0881
萬億	-11.0882
非已	-11.0883
普為	-11.0887
陀羅	-11.0888
必當	-11.0889
不變異性清淨	-11.0892
無不皆	-11.0894
菩薩位	-11.0895
得無上菩提	-11.0896
有煩惱	-11.0896
蘊空	-11.0897
法華云	-11.0898
彼諸菩薩	-11.0899
內外空清淨	-11.09
無性空清淨	-11.0902
欲願	-11.0904
能壞	-11.0904
清淨故味界	-11.0904
是行般若波羅蜜	-11.0905
第一義空	-11.0906
大空清淨	-11.0906
為異	-11.0908
十八不共諸佛之法	-11.092
清淨故香界	-11.092
淨觀地	-11.0922
正信	-11.0923
深生信解	-11.0923
諸字	-11.0924
阿耨菩提	-11.0924
大梵天	-11.0927
空觀	-11.0931
無有高下	-11.0932
本來寂靜故學	-11.0932
五力清淨	-11.0932
無所取	-11.0936
世諦故	-11.0936
皆無所有	-11.0937
福德性	-11.0937
吉祥	-11.0938
所解	-11.0938
作如是說	-11.0939
前六	-11.0939
解脫道	-11.094
籌量	-11.0941
復有三昧名曰	-11.0942
無上法	-11.0945
愁	-11.0948
墮惡道	-11.0948
大喜清淨	-11.0956
諸色	-11.0957
羊	-11.0958
得無障礙	-11.0959
者此云	-11.0959
從他	-11.0961
漚	-11.0963
頭陀	-11.0966
是菩薩摩訶薩安住	-11.0971
精進波羅蜜多清淨	-11.0971
法定清淨	-11.0972
無際空清淨	-11.0972
不分	-11.0972
佛智慧	-11.0973
勝義空清淨	-11.0973
諸佛土	-11.0975
汝若能修如是般若	-11.0976
無滅故學	-11.0977
不可壞	-11.0981
無眾生相	-11.0981
嚴淨一切智	-11.0981
不可得空清淨	-11.0985
求法	-11.0985
如光影	-11.0986
非顛倒	-11.0986
終不離	-11.0986
已上	-11.0988
幡	-11.099
亦能學	-11.099
無為空清淨	-11.0991
不共法	-11.0992
五趣	-11.0992
菩薩摩訶薩摩訶衍	-11.0994
初正釋	-11.0994
諸三昧門	-11.0994
自相空清淨	-11.0996
法住清淨	-11.0998
即非眾生	-11.1002
法要	-11.1008
證得所求無上正等菩提	-11.1009
實際清淨	-11.1014
閡	-11.1016
無空過者	-11.1016
平等性清淨	-11.1016
大悲清淨	-11.1019
佛十力乃至十八佛不共法	-11.1022
若非自性即是精進波羅蜜多	-11.1025
當為汝說	-11.103
北藏作	-11.1031
無所從生	-11.1033
化一切眾生	-11.1033
清淨故觸界	-11.1035
今現在	-11.1038
憂愁	-11.1039
谷	-11.1041
清淨故聲界	-11.1041
福智	-11.1041
學不增不減	-11.1042
畢竟清淨	-11.1043
是實有	-11.1043
心體	-11.1044
云何有	-11.1045
斬	-11.1046
所感	-11.1047
童	-11.1048
來生	-11.1049
若干種心	-11.1049
當知是為	-11.1049
智母	-11.105
保	-11.105
智度論	-11.1052
樂受	-11.1052
為主	-11.1053
眾生可度	-11.1054
真如亦不可得	-11.1055
披	-11.1056
離生性清淨	-11.1058
不虛妄性清淨	-11.1061
本性空清淨	-11.1062
共相空清淨	-11.1063
復於	-11.1065
安住內空乃至無性自性空	-11.1065
大聖	-11.1068
常得	-11.1069
無去來	-11.1075
有為空清淨	-11.1076
作種種	-11.1079
忍者	-11.1081
問何故	-11.1082
諸法皆空	-11.1085
一切智智即是	-11.1087
菩薩摩訶薩不為引發	-11.1091
誰能	-11.1092
所獲	-11.1092
降伏其心	-11.1098
空空清淨	-11.11
是菩提	-11.1102
由如是義	-11.1104
惡世	-11.1104
普令	-11.1105
四神足清淨	-11.1107
如來不以具足相故	-11.1107
無實故	-11.1109
右繞	-11.1111
求趣無上正等菩提	-11.1112
反顯	-11.1112
直下	-11.1114
菩薩摩訶薩亦無所有不可得	-11.1114
況觀一切智與	-11.1114
於菩提	-11.1118
卷第十	-11.1129
不可得故般若波羅蜜多清淨	-11.1133
彼菩薩摩訶薩	-11.1134
啼	-11.1135
行時	-11.1136
天龍	-11.1136
師曰	-11.1138
亦不思惟	-11.1143
明般若	-11.1143
寧有	-11.1145
身體	-11.1146
賢首	-11.1146
相好身	-11.1149
才	-11.115
乃至一切相智	-11.1151
托	-11.1151
一切法相	-11.1152
法位	-11.1152
未斷	-11.1152
新注	-11.1153
呈	-11.1154
為說法	-11.1154
大菩提心	-11.1156
所致	-11.1156
賓	-11.1157
際自性故	-11.1157
以示	-11.1158
即指	-11.1158
真如中有菩薩摩訶薩	-11.1162
從來	-11.1163
同異	-11.1164
是名眾生	-11.1166
悉檀	-11.1166
干	-11.1167
有緣	-11.1169
何因	-11.1169
求阿耨多羅三藐三菩提	-11.1173
其法	-11.1176
華嚴云	-11.1179
名言	-11.118
善心	-11.1182
惡慧	-11.1187
未免	-11.119
第二十	-11.1193
及餘無量無邊佛法	-11.1195
以是故說	-11.1196
位也	-11.1196
不堪	-11.12
修因	-11.1202
尚畢竟無所有	-11.1202
以種種	-11.1204
滅定	-11.1204
佛知見	-11.1206
散佛上	-11.1209
不染不淨故般若波羅蜜多清淨	-11.1211
證時	-11.1211
大苦	-11.1212
亦常	-11.1217
第十地	-11.1219
墮落	-11.122
憂惱	-11.1222
於一切陀羅尼門	-11.1224
空相應故	-11.1224
於當來世	-11.1224
紹	-11.1224
倫	-11.1226
淚	-11.1227
修學般若波羅蜜多	-11.1231
修行般若波羅蜜多菩薩摩訶薩	-11.1232
先已	-11.1234
採	-11.1234
事相	-11.1237
者乎	-11.1238
與空相應	-11.1244
內外法	-11.1244
應無	-11.1246
凡夫之人	-11.1247
入位	-11.125
經也	-11.125
即非一切法	-11.125
鎮	-11.1251
達磨	-11.1251
無有實	-11.1254
諸魔	-11.1256
知已	-11.1257
總別	-11.1257
此定	-11.1258
雙照	-11.126
三摩	-11.1261
得真	-11.1263
於道相智	-11.1265
利行	-11.1265
仁者	-11.1265
親近供養	-11.1269
而出	-11.1271
則以	-11.1271
汝應	-11.1272
導師	-11.1272
過去佛	-11.1273
善付囑諸菩薩	-11.1274
但應	-11.1275
不名菩薩	-11.1275
甚深般若波羅蜜多方便善巧	-11.1276
前四	-11.1282
忉利天	-11.1283
般若波羅蜜亦如是	-11.1284
菩薩所行	-11.1284
其本	-11.1284
勿謂	-11.1285
亦無窮盡	-11.1285
施主	-11.1287
是命者清淨與	-11.1292
是我清淨與	-11.1292
是知者清淨與	-11.1293
是士夫清淨與	-11.1293
不可稱計	-11.1293
是有情清淨與	-11.1293
布施時	-11.1295
菩薩摩訶薩應引般若波羅蜜多	-11.1296
平等故	-11.1296
不住生死	-11.1299
空見	-11.1299
在在處處	-11.1299
心淨	-11.13
本性無縛無脫	-11.1301
大城	-11.1302
於大眾中	-11.1303
於此中	-11.1303
智證	-11.1305
前二句	-11.1306
不可說故般若波羅蜜多清淨	-11.1308
莖	-11.131
何況非法	-11.1311
業報	-11.1311
法身如來	-11.1312
不可見故	-11.1314
狐疑	-11.1314
傅大士頌	-11.1318
常寂	-11.1318
地水火風	-11.1322
摩賀	-11.1322
序分	-11.1322
維摩	-11.1323
諸苦	-11.1324
彼非眾生	-11.1324
是故如來說	-11.1325
大品云	-11.1325
天親論	-11.1326
令他	-11.1327
二行	-11.1328
淨天	-11.1328
佛出世	-11.1328
如像	-11.1329
俱是	-11.1332
教導	-11.1332
汝見	-11.1336
法不可得故	-11.1336
亦不念	-11.1336
即彼	-11.1337
香花	-11.1337
苦受	-11.134
善於	-11.1342
而未	-11.1344
非菩薩摩訶薩中有	-11.1346
十萬	-11.1347
一家	-11.1349
受身	-11.1349
心無罣礙	-11.1351
又如虛空	-11.1352
加持	-11.1354
是諸有情	-11.1355
無退	-11.1355
發問	-11.1356
量不可得	-11.1361
不淨觀	-11.1362
師子座	-11.1362
往昔	-11.1363
一切相智道	-11.1364
乃至無性自性空	-11.1365
於八解脫	-11.1366
勝事	-11.1367
說色	-11.1367
欲學	-11.1369
方是	-11.137
何故不	-11.1373
邪行	-11.1375
今佛	-11.1375
由此緣故	-11.138
惟逮波羅蜜	-11.138
有生滅	-11.1382
是受者清淨與	-11.1382
不住法	-11.1382
是作者清淨與	-11.1384
若五根清淨	-11.1385
見者清淨即	-11.1386
是生者清淨與	-11.1386
是養育者清淨與	-11.1386
空門	-11.1386
佛可	-11.1387
是補特伽羅清淨與	-11.1389
不生不滅故學	-11.139
卵	-11.1393
為首	-11.1394
從佛聞	-11.1399
可證	-11.14
正當	-11.14
稱揚	-11.14
一箇	-11.1401
且初第一	-11.1403
當體	-11.1403
天人師	-11.1404
真如非菩薩摩訶薩	-11.1407
諮	-11.1408
常自	-11.141
無方	-11.1412
謂菩薩摩訶薩	-11.1413
曳	-11.1414
墜	-11.1416
如陽焰	-11.1416
亦不有	-11.1416
鮮	-11.1417
如是功德	-11.1418
午	-11.1418
伊	-11.1419
說偈	-11.142
綱	-11.1421
謂諸菩薩	-11.1421
以智	-11.1425
赴	-11.1426
敷座而坐	-11.1427
英	-11.1429
求聲聞	-11.143
妻	-11.1434
不受福德	-11.1434
入流	-11.1441
發大心	-11.1445
度無極	-11.1445
滅諦	-11.1446
色清淨故一切智智清淨	-11.1447
佛得阿耨多羅三藐三菩提	-11.1447
是名阿耨多羅三藐三菩提	-11.1447
修治	-11.1455
現見	-11.1457
因生	-11.1457
一名	-11.1459
而言之	-11.1461
七者	-11.1461
實地	-11.1466
後人	-11.1468
真言	-11.147
所言菩薩摩訶薩者	-11.1471
無取無執	-11.1473
修善	-11.1476
是儒童清淨與	-11.1477
是見者清淨與	-11.1477
於後末世	-11.1477
具壽善現白言	-11.1478
是修般若波羅蜜	-11.148
如是所說	-11.148
真身	-11.1484
比智	-11.1484
出現於世	-11.1486
之語	-11.1487
無障礙	-11.1488
甞	-11.1489
不住涅槃	-11.149
為人輕賤	-11.1491
自性空中若	-11.1492
無煩惱	-11.1492
與眾生	-11.1493
皆從此經出	-11.1493
法假	-11.1494
鬪	-11.1496
於四無量	-11.1497
珊	-11.1501
三脫門	-11.1501
與之	-11.1512
愚人	-11.1513
先舉	-11.1514
能依	-11.1515
受報	-11.1517
破法	-11.1518
洗足	-11.1519
至于	-11.152
來也	-11.1521
樣	-11.1522
梨	-11.1523
」】「	-11.1523
我當云何	-11.1524
龍樹	-11.1528
百歲	-11.1529
不能自	-11.153
退屈	-11.1531
有我相	-11.1535
其數	-11.1535
當觀	-11.1536
於布施波羅蜜多	-11.1536
非所	-11.1537
住是三昧者	-11.1538
五法	-11.1543
若諸如來	-11.1551
皆具	-11.1553
不見耳	-11.1556
不堅實性能行般若波羅蜜多	-11.1557
假令	-11.1557
至誠	-11.1562
習種性	-11.1566
為上為無上	-11.1567
儒童清淨即	-11.1567
心外	-11.1568
三障	-11.157
貪心	-11.157
於無上正等菩提得不退轉	-11.1571
我不應行	-11.1571
天等	-11.1571
不墮聲聞及獨覺地	-11.1571
聲聞地	-11.1572
發弘誓願	-11.1573
難知	-11.1573
是意生清淨與	-11.1575
如是沙等恒河	-11.1575
此三千大千世界	-11.1577
即色界	-11.1578
答也	-11.1578
修般若波羅蜜	-11.1578
三有	-11.1581
能正	-11.1582
過於	-11.1586
而取	-11.159
釋迦牟尼	-11.1591
深般若	-11.1592
但有名字	-11.1593
入諸法	-11.1593
如說行	-11.1593
寒熱	-11.1594
大乘中	-11.1594
私	-11.1594
意生清淨即	-11.1597
即佛	-11.1598
初二句	-11.1598
無有邊	-11.16
從彼	-11.1601
奴	-11.1601
處也	-11.1601
士夫清淨即	-11.1602
初後	-11.1604
眼耳鼻舌身意	-11.1606
施物	-11.1608
案	-11.1608
梵天王	-11.1609
自致	-11.1611
命者清淨即	-11.1611
即名諸佛	-11.1611
劫數	-11.1614
云何菩薩摩訶薩行深般若波羅蜜多時	-11.1618
一切皆空	-11.1619
膝	-11.1619
曇	-11.1622
四智	-11.1625
在佛	-11.1625
正遍知	-11.1627
十地菩薩	-11.1627
無字	-11.1627
不問	-11.1628
一切相智清淨故一切智智清淨	-11.1629
作者清淨即	-11.1631
二千	-11.1631
但假名	-11.1633
養育者清淨即	-11.1633
知者清淨即	-11.1634
不唯	-11.1641
不應住色	-11.1641
百劫	-11.1643
即五眼	-11.1644
其所以	-11.1644
十迴向	-11.1647
諸法實性	-11.1648
希有世尊	-11.1648
謗佛	-11.165
致問	-11.1652
無與等	-11.1653
之功德	-11.1654
晝	-11.1655
依般若	-11.1655
變為	-11.1656
云何如來	-11.1659
幻人	-11.1661
濕生	-11.1662
為妙為微妙	-11.1662
普能	-11.1663
熾然精進	-11.1665
蘊等	-11.1666
無來去	-11.1668
日光	-11.1669
說大乘	-11.1671
第一明	-11.1673
非想非非想處定	-11.1674
此第二	-11.1674
豈不應於	-11.1675
我當精勤	-11.1675
常不離	-11.1676
城邑	-11.1676
殖	-11.168
內法	-11.168
汝當於此甚深般若波羅蜜多	-11.1681
支節	-11.1682
結勸	-11.1684
初總標	-11.1685
所云	-11.1685
彼善男子	-11.1688
此正	-11.1688
完	-11.1691
同體	-11.1693
蘊處界	-11.1696
湛	-11.1696
世事	-11.1698
勸修	-11.1699
所不能及	-11.17
獄	-11.17
二問	-11.1701
受者清淨即	-11.1704
咄	-11.1704
阿闍梨	-11.1704
未除	-11.1706
祖師	-11.1706
盤	-11.1707
昭	-11.1707
醫	-11.1707
定實	-11.1709
故不說	-11.1711
暢	-11.1711
說彼	-11.1716
大覺	-11.1719
偈曰	-11.1721
左右	-11.1722
沙彌	-11.1723
光影	-11.1724
▁初總	-11.1724
不容	-11.1725
三十七	-11.1725
受決	-11.1726
無染著	-11.1728
一也	-11.173
如來於離	-11.1733
供養般若波羅蜜	-11.1738
修行者	-11.1739
堪忍	-11.1742
群生	-11.1744
不作集不作散	-11.1746
不作廣不作狹	-11.1748
得記	-11.1749
了因	-11.175
無所作	-11.175
是則名為	-11.1753
語業	-11.1756
一一皆	-11.1765
生者清淨即	-11.1765
經旨	-11.1766
則非過去未來現在	-11.1766
種類	-11.1767
定有	-11.1767
無因緣	-11.1768
搖	-11.1769
不被	-11.1769
不貴重	-11.1772
置是	-11.1772
常無常相不可得	-11.1775
與解脫等	-11.1777
大同	-11.1779
欲入	-11.178
圍遶	-11.1783
此皆	-11.1785
健	-11.1788
又恐	-11.1789
經中說	-11.1789
證真如	-11.1793
自度	-11.1796
震動	-11.1796
體空	-11.1798
問訊	-11.1798
下賤	-11.1798
即眼處	-11.1799
最極	-11.1799
佛告舍利子言	-11.1802
勸學	-11.1808
比丘僧	-11.181
次句	-11.181
辰	-11.181
諸大菩薩	-11.1811
播	-11.1811
釋前	-11.1812
四明	-11.1814
復見	-11.1814
智慧力	-11.1815
聞聲	-11.1816
敷座	-11.1818
通名	-11.182
觀佛	-11.1823
諸有情故	-11.1825
佛讚	-11.1826
唯心	-11.1826
於眼界	-11.1827
大智慧	-11.1833
如來無所說	-11.1835
非有故	-11.1837
或現	-11.184
補特伽羅清淨即	-11.1841
有形	-11.1841
當知彼	-11.1843
諸菩薩行	-11.1843
無處所	-11.1844
般若波羅蜜亦	-11.1845
一往	-11.1845
三世平等	-11.1849
若雜染若清淨	-11.1853
巳得	-11.1859
住是定意	-11.1861
顯勝	-11.1862
不來不去	-11.1864
鬘	-11.187
道智	-11.1871
佛說般若波羅蜜	-11.1872
護念是菩薩摩訶薩	-11.1874
生如是心	-11.1876
蔭	-11.1877
湏菩提	-11.1886
既言	-11.1888
困	-11.1889
閻浮	-11.1889
不堅實	-11.189
我清淨即	-11.1891
即八勝處	-11.1892
無功用	-11.1892
名唯客所攝	-11.1893
聖諦	-11.1893
於他	-11.1894
即色處	-11.1895
無數無量無邊	-11.1895
逼迫	-11.1901
於眼處	-11.1902
即眼界	-11.1905
獵	-11.1907
其處	-11.1913
止觀	-11.1914
般若波羅蜜相	-11.1916
非凡夫	-11.1918
以證	-11.1922
婦	-11.1922
得阿耨多羅三耶三菩	-11.1923
解義	-11.1924
薩陀波倫菩薩	-11.1926
有情清淨即	-11.1927
佛問	-11.1928
何以言	-11.1929
善護念	-11.1931
恒河沙等世界	-11.1931
是名善法	-11.1935
始得	-11.1935
直指	-11.1937
化導	-11.1937
亦應於	-11.1939
二名	-11.1944
今當	-11.1945
千分不及一	-11.1949
永離	-11.195
正以	-11.1959
如是思惟	-11.1959
不二則非	-11.196
自相皆空	-11.1961
一切智人	-11.1962
文分為	-11.1964
入不二無妄法數	-11.1965
既思惟已	-11.1966
次下	-11.1967
刀杖	-11.1967
為有所得	-11.1969
不可盡故	-11.1969
樂具	-11.1971
決定不退	-11.1972
為斷此疑	-11.1979
諸天眾	-11.198
不屬	-11.1981
於水	-11.1984
彩	-11.1992
深廣	-11.1994
卿	-11.1995
吐	-11.1996
思念	-11.1997
遲	-11.1998
育	-11.1999
住此	-11.1999
深信	-11.1999
戶	-11.2
一品	-11.2002
安住真如乃至不思議界	-11.2002
壇	-11.2002
鈴	-11.2004
具此	-11.2004
胸	-11.2004
油	-11.2004
定無	-11.2005
牙	-11.2006
默然	-11.2012
悉見	-11.2014
諸法自性	-11.2017
羅什	-11.2018
所求無上正等菩提	-11.2023
即道相智	-11.2024
天女	-11.2029
不能見如來	-11.2031
菩薩乘善男子等	-11.2031
長大	-11.2031
所被	-11.2033
根熟	-11.2034
人無我	-11.2037
執持	-11.2038
無變異	-11.2038
以七寶	-11.2041
有時	-11.2044
是名微塵	-11.2044
從佛	-11.2045
清淨故色界	-11.2047
信根	-11.2049
尚不得	-11.2049
請佛	-11.205
身分	-11.2051
即集	-11.2052
以一切法自性空故	-11.2053
此偈	-11.2055
用之	-11.2058
於色處	-11.2063
正等覺依深般若波羅蜜多	-11.2065
乃至受持四句偈等	-11.2069
佛告釋提桓因	-11.207
非造非不造	-11.207
空華	-11.207
虛空中	-11.207
誰當	-11.2071
趣不可超越	-11.2073
果報亦不可思議	-11.2073
坐臥	-11.2074
是我所	-11.2074
能受	-11.2076
上上	-11.2076
此甚深般若波羅蜜多	-11.2076
若心有住	-11.2077
所作功德	-11.2079
權實	-11.208
無壽者相	-11.2082
說正法	-11.2083
不施設	-11.2083
夜叉	-11.2084
諸禪	-11.2085
未必	-11.2088
係	-11.2089
慇懃	-11.2093
閱	-11.2093
既空	-11.2097
諸教	-11.2098
井	-11.2099
非一非異	-11.2099
無量心	-11.21
如是降伏其心	-11.2101
此上	-11.2103
如來滅後	-11.2104
三輪	-11.2105
住相布施	-11.2106
十千	-11.2107
無上正真道	-11.2108
溪	-11.211
是假法	-11.211
禍	-11.2112
聲聞道	-11.2118
釋義	-11.2125
是諸法空相	-11.2126
羅剎	-11.213
道果	-11.2131
如是等無量	-11.2131
國中	-11.2133
不應取著	-11.2139
無閡	-11.2144
樂小	-11.2145
品類	-11.2145
所發	-11.215
名假	-11.2151
菩薩眾	-11.2154
於無忘失法	-11.2154
起心	-11.216
不獲教授	-11.216
不應住此是	-11.2161
修羅	-11.2161
無脫	-11.2162
其心不驚不恐不怖	-11.2162
金剛喻	-11.2163
無違	-11.2163
盡是	-11.2164
一事	-11.2171
無為性	-11.2172
亦無非法相	-11.2179
亦名為	-11.2181
壞故	-11.2182
即八解脫	-11.2182
善本	-11.2184
亦勝	-11.2185
爾許	-11.2186
燃燈	-11.2187
王日休曰	-11.2188
亦入於	-11.2188
無智亦無得	-11.2191
勿於	-11.2191
十號	-11.2191
扶	-11.2192
反覆	-11.2192
等名皆	-11.2193
即無忘失法	-11.2195
即眼識界	-11.2195
殷	-11.2195
為諸菩薩說	-11.2195
營	-11.2199
從上	-11.22
有為相	-11.2203
承上	-11.2203
法平等性	-11.2204
圖	-11.2204
府	-11.2204
奔	-11.2207
過患	-11.2209
不悟	-11.2211
甚麼	-11.2213
五蓋	-11.2215
甚深理趣	-11.2216
之慧	-11.2216
同於	-11.2217
而可	-11.2218
施諸有情	-11.2218
日用	-11.2221
無人相	-11.2223
已盡	-11.2223
空色	-11.2224
即四念住	-11.2227
龍首	-11.2228
捨身命	-11.223
我人等相	-11.223
即地界	-11.2231
合成	-11.2231
利鈍	-11.2232
五逆	-11.2237
淨法	-11.2238
無常相	-11.2239
皆不可取	-11.2244
大利益	-11.2248
之要	-11.2251
即四無量	-11.2251
三三昧	-11.2255
大經云	-11.2255
若畢竟不生則不名	-11.2258
無性故	-11.2263
雖在	-11.2268
即四靜慮	-11.2268
與如是法相應故	-11.2269
即著我人眾生壽者	-11.2271
四無所畏乃至一切相智	-11.2271
五取蘊	-11.2272
若集若散	-11.2272
怯弱	-11.2275
四無色	-11.2278
佛地論	-11.228
修得	-11.2281
釋論	-11.2282
非空非不空	-11.2282
實際為有異不	-11.2286
佛國土	-11.2288
得其便	-11.229
殊勝善根	-11.2291
〈	-11.2291
能到	-11.2291
有七	-11.2291
〉	-11.2292
無常等	-11.2293
供具	-11.2293
故論云	-11.2294
好醜	-11.2295
即內空	-11.2297
如幻士	-11.2298
可施設	-11.2299
天台	-11.2299
絲	-11.23
即六神通	-11.2301
大乘無所有故	-11.2302
嘉	-11.2303
道相智清淨	-11.2303
羯	-11.2306
唯除	-11.2309
色痛痒思想生死識	-11.231
僧祇	-11.231
竊	-11.231
便為	-11.2311
聞佛說	-11.2317
歸去來	-11.2319
無道	-11.2319
▁二明	-11.232
堅利	-11.232
作佛事	-11.2324
依之	-11.2324
合為一	-11.2327
此善男子	-11.2329
剎土	-11.2329
是名為心	-11.2336
即空解脫門	-11.2337
般若波羅蜜多甚深經典	-11.2339
得證	-11.234
十法	-11.2344
還生	-11.2345
此中說	-11.2347
即四無所畏	-11.2354
形色	-11.2358
照了	-11.2359
謂由	-11.2359
諸法鈍故	-11.2363
云何菩薩摩訶薩應遠離	-11.2363
是為菩薩摩訶薩應遠離	-11.2363
答曰巳下	-11.2365
無所行	-11.2365
清淨故外空	-11.2367
經意云	-11.2371
於無上正等菩提有退屈不	-11.2371
羼波羅蜜	-11.2372
見種種色	-11.2374
阿素洛等供養恭敬	-11.2376
▁初依	-11.2379
怨賊	-11.2379
領解	-11.2379
性都不可得	-11.2379
為發最上乘者說	-11.2381
化度	-11.2383
八者	-11.2385
可得不	-11.2386
合說	-11.2389
空慧	-11.239
我已	-11.239
一真	-11.2392
所能	-11.2394
是大神呪	-11.2396
隣	-11.2399
覽	-11.2399
踰	-11.2401
不如是善男子	-11.2402
脈	-11.2403
阿毘曇	-11.2403
皈	-11.2403
應捨	-11.2404
下第四	-11.2404
莫念	-11.2405
依報	-11.2406
奈	-11.2407
十八住	-11.2407
及諸弟子	-11.2412
自見	-11.2413
云何菩薩摩訶薩修行般若波羅蜜多時	-11.2413
印可	-11.2413
於中分三	-11.2413
引導	-11.2415
已滅	-11.2415
清淨故水	-11.2415
無忘失法清淨故一切智智清淨	-11.2416
延	-11.2417
離染	-11.2428
貪愛	-11.2432
隨眾生	-11.2436
目連	-11.2438
無厭	-11.2438
何等名為	-11.2449
般若波羅蜜經卷	-11.245
千佛	-11.2453
不忍	-11.2455
不作有力不作無力	-11.2456
不作有量不作無量	-11.2456
即布施波羅蜜多	-11.2457
以神通力	-11.2461
可住	-11.2462
那庾多	-11.2462
是假名	-11.2467
周遍	-11.247
當知大乘亦無所有	-11.247
意在	-11.2471
種智	-11.2472
徧計	-11.2475
所攝受故	-11.2476
巳來	-11.2476
梵輔天	-11.2477
哀愍	-11.2477
即眼觸	-11.2478
妙樂	-11.2479
清淨故受	-11.248
不應住聲香味觸法生心	-11.2481
無由	-11.2482
踰繕那	-11.2484
學般若	-11.2486
常啼菩薩摩訶薩	-11.2486
捨心	-11.2487
金剛手菩薩	-11.2491
賤	-11.2491
十惡	-11.2491
險	-11.2494
清淨故四正斷	-11.2495
道種智	-11.2496
多劫	-11.2496
捐	-11.2497
不可取說	-11.2498
方成	-11.2499
清淨故一來	-11.2499
於一切時	-11.25
何物	-11.2501
而不棄捨	-11.2503
卑	-11.251
昔日	-11.251
出過	-11.2511
佛功德	-11.2511
即一切菩薩摩訶薩行	-11.2511
孫	-11.2512
由此般若波羅蜜多清淨	-11.2513
無貪	-11.2513
閉	-11.2515
懺悔	-11.2516
宛然	-11.2516
鄉	-11.2516
變化事	-11.2516
冤	-11.2517
眉	-11.2519
著衣持鉢	-11.2521
光讚	-11.2523
不見受	-11.2525
畢竟淨	-11.2527
轉依	-11.253
世俗諦	-11.2531
相應善根	-11.2536
菩薩乘諸善男子	-11.2539
滅度者	-11.2539
此就	-11.254
善人	-11.2541
不應思惟	-11.2543
今得	-11.2543
十方界	-11.2544
動靜	-11.2544
生淨信	-11.2546
豈能	-11.2546
本源	-11.2547
世智	-11.2549
是諸菩薩摩訶薩	-11.255
空中過去	-11.255
何可	-11.2553
不知不見	-11.2556
彌勒云	-11.2558
是無常	-11.2558
持用布施	-11.2559
限量	-11.2559
心印	-11.256
惡行	-11.256
聞深般若波羅蜜	-11.2563
賢劫	-11.2563
價	-11.2563
菩提涅槃	-11.2566
即恒住捨性	-11.2569
為最為勝	-11.2572
即顯	-11.2574
難事	-11.2575
即佛十力	-11.2576
當知虛空亦無所有	-11.2577
剎帝利大族	-11.2577
空無邊處定	-11.2579
有方便善巧故	-11.2582
信般若波羅蜜多時	-11.2584
二十六	-11.2584
各異	-11.2585
廣為人說	-11.2585
為度	-11.2588
不應取非法	-11.2591
清淨故四無所畏	-11.2591
推求	-11.2593
塵沙	-11.2596
正報	-11.2597
於苦聖諦	-11.2598
願樂欲聞	-11.2598
大事	-11.2599
映	-11.2602
一切時	-11.2602
是菩薩摩訶薩行深般若波羅蜜多	-11.2603
上義	-11.2603
敗壞	-11.2603
本生	-11.2604
假施設	-11.2605
所以然者	-11.2607
閒	-11.2608
如來善護念諸菩薩	-11.2609
謹	-11.261
罔	-11.2611
既非	-11.2612
筆	-11.2612
彼諸有情	-11.2615
尺	-11.2616
周匝	-11.2618
低	-11.2619
真空實相	-11.2622
遠離般若波羅蜜	-11.2623
居家	-11.2627
修行般若波羅蜜多諸菩薩摩訶薩	-11.2627
即苦聖諦	-11.2627
酒	-11.2629
行位	-11.2631
成佛道	-11.2636
定性	-11.264
不墮聲聞	-11.264
得勝	-11.2646
多種	-11.2648
捨去	-11.2652
不觀色	-11.2652
最第一	-11.2653
願我	-11.2655
後說	-11.2655
八勝處清淨	-11.2657
後結	-11.2658
證成	-11.266
大海水	-11.2661
卷下	-11.2662
義利	-11.2662
使人	-11.2665
眾生根	-11.2668
隱顯	-11.2668
無所有法	-11.2668
惑業	-11.267
及諸菩薩	-11.2675
行十善	-11.2676
所起隨喜迴向	-11.2676
故不可說	-11.2677
亦不壞	-11.2686
當知一切法亦無所	-11.2688
生因	-11.2689
片	-11.269
即極喜地	-11.2692
況復	-11.2692
炷	-11.2692
發無上菩提心	-11.2693
無本	-11.2694
與名俱自性空故	-11.2695
諸蘊	-11.2695
即眼觸為緣所生諸受	-11.2696
一月	-11.2697
清淨故八勝處	-11.2698
劫中	-11.2698
一切法趣	-11.2699
諸結使	-11.27
取其	-11.2702
無為法身	-11.2706
惡口	-11.2708
智論	-11.2708
嫉妬	-11.2709
不除	-11.2709
即一來	-11.2709
醜	-11.271
云何有生	-11.2711
菩薩摩訶薩所行般若波羅蜜多亦無量	-11.2711
善男子等	-11.2712
不可數	-11.2716
今但	-11.2717
勘	-11.2721
爛	-11.2721
胡	-11.2724
塵垢	-11.2725
樂苦相	-11.2727
攝取眾生	-11.2728
一切聖人	-11.273
訛	-11.273
無明滅	-11.2732
圓寂	-11.2734
此諸菩薩	-11.2736
總說	-11.2736
何由	-11.2737
」、「	-11.2741
寶物	-11.2743
則不可	-11.2745
得須陀洹果	-11.2746
此顯示	-11.2748
深經	-11.2749
空不空相	-11.275
清淨故淨戒	-11.2754
文意	-11.2758
何如	-11.2758
無差別故	-11.2759
第四句	-11.276
離苦	-11.2761
過聲聞	-11.2762
西天	-11.2763
佛欲	-11.2766
求菩提	-11.2769
不著耳	-11.2769
不存	-11.2771
即淨戒	-11.2774
罣礙	-11.2776
始從	-11.2776
了不可得	-11.2776
凡夫二乘	-11.2777
般若波羅蜜多甚深	-11.2778
愛語	-11.2778
阿難陀	-11.2787
無願有願相	-11.2789
既爾	-11.279
何況有	-11.2791
乃至意	-11.2792
樂變化天	-11.2793
不異語者	-11.2793
色蘊乃至識蘊	-11.2794
天華	-11.2794
增長所種善根	-11.2795
四意止	-11.2796
於六神通	-11.2797
諸業	-11.2797
雜穢	-11.2797
證實際	-11.2799
我昔	-11.2804
慳悋	-11.2804
得成於忍	-11.2804
淨居天	-11.2806
向下	-11.2809
栴檀	-11.281
薩婆訶	-11.2816
於空解脫門	-11.2817
假實	-11.2817
虗名	-11.2818
〕	-11.2818
詐	-11.2818
金剛般若經	-11.2819
若菩薩摩訶薩如實了知	-11.282
由無所有不可得故	-11.282
六度萬行	-11.282
欲證	-11.282
當知般若波羅蜜多亦	-11.282
供佛	-11.2821
惹	-11.2824
曹	-11.2824
悉能	-11.2826
滅盡定	-11.2826
非化	-11.2827
俾	-11.2828
𦦨	-11.2829
及諸天	-11.2829
劒	-11.2831
霜	-11.2832
灌	-11.2835
之謂也	-11.2836
皇	-11.2838
二護	-11.2841
六十二見	-11.2842
即諸佛無上正等菩提	-11.2845
最妙	-11.2846
今生	-11.2846
和合故	-11.2847
度脫眾生	-11.2847
一邊	-11.2852
難見	-11.2854
亦通	-11.2855
三無性	-11.2855
開士大士	-11.2858
命根	-11.2859
恒河沙等	-11.286
施設有	-11.2864
之詞	-11.2872
但作是念	-11.2873
邪道	-11.2873
未聞	-11.2876
皆屬	-11.2879
巳竟	-11.2879
所讚	-11.288
兄	-11.288
不可知	-11.2884
一切智智清淨故聲	-11.2889
證涅槃	-11.289
斷想不	-11.2891
答前	-11.2892
為尊為導	-11.2894
示世間	-11.2894
地獄中	-11.2896
無相有相相	-11.2897
依彼	-11.2897
極光淨天	-11.2899
應儀	-11.2899
與幻有異不	-11.29
道行	-11.2902
菩薩乘補特伽羅	-11.2902
用是故	-11.2904
成滿	-11.291
法於無上正等菩提有退屈不	-11.2911
流通分	-11.2915
〕-【	-11.2916
無所說	-11.2917
應如是布施	-11.2918
非法非非法	-11.2918
稱性	-11.2918
有何差別	-11.2918
是真實	-11.292
如實智	-11.2922
有邊	-11.2923
汝今諦聽	-11.2924
疾得	-11.2925
牟尼	-11.2927
拜	-11.2929
幢相	-11.2931
清淨故集	-11.2931
諸相具足	-11.2933
歌利王	-11.2933
亦不作廣不作狹	-11.2934
外法	-11.2935
亦不作集不作散	-11.2937
如是事	-11.2939
束	-11.294
之勝	-11.294
不懈	-11.294
主宰	-11.2942
聰明	-11.2944
智照	-11.2945
淵	-11.2945
鳴	-11.2946
皆名為	-11.2946
此科	-11.2946
亦不作大不作小	-11.2946
還至本處	-11.2946
依義	-11.2946
成就法	-11.2948
回向	-11.2951
辟支佛心	-11.2954
派	-11.2956
方知	-11.2958
圓通	-11.2959
如來所得法	-11.296
難及	-11.296
亦不可見	-11.2961
復置	-11.2967
聞是深般若波羅蜜	-11.2969
有所住	-11.2973
即預流果	-11.2978
清淨故道相智	-11.298
當知般若波羅蜜多亦無邊	-11.2989
何曾	-11.299
何人	-11.299
亦不見空與	-11.2994
諸法平等	-11.2995
盡滅	-11.2998
受假	-11.2999
三字	-11.3003
寶珠	-11.3003
為尊為高	-11.3007
汝於來世	-11.3008
四分別辯	-11.3009
頂上	-11.3009
舍利弗問須菩提	-11.301
四字	-11.3012
百由旬	-11.3013
所作事	-11.3013
甚深義	-11.3017
不相捨離	-11.3017
不可得故說不可得	-11.3019
若諸菩薩能如是行	-11.302
而現	-11.3024
歡喜讚歎行	-11.3026
甫	-11.3026
而說偈言	-11.3029
維	-11.3029
大千界	-11.3032
有相無相	-11.3032
清淨故四無量	-11.3033
如來說非眾生	-11.3034
芥子	-11.3034
隨彼	-11.3035
須陀洹道	-11.3036
涕	-11.3037
誘	-11.3038
柔	-11.304
永盡	-11.3042
以此為實	-11.3044
庸	-11.3044
毛孔	-11.3045
探	-11.3047
未悟	-11.3049
克	-11.305
八種	-11.305
封	-11.3051
後得智	-11.3051
正教	-11.3052
達一切法	-11.3054
汝若	-11.3055
應云何住	-11.3057
齒	-11.3058
精進力	-11.3059
合云	-11.3061
四無量清淨	-11.3061
住世	-11.3066
亦非有	-11.3068
敬重	-11.3068
未證	-11.3069
現等覺	-11.307
知一切法無我	-11.3074
能信受	-11.3078
猶是	-11.3078
即八十隨好	-11.3082
不了知	-11.3086
少許	-11.3089
假合	-11.309
畢竟無所有	-11.3091
行深般若波羅蜜多方便善巧	-11.3092
慈恩	-11.3094
散花	-11.3098
是學一切智智	-11.3098
受戒	-11.3103
不喜	-11.3108
覺了	-11.3109
佛告文殊師利	-11.3115
雖殊	-11.3116
況有趣非趣	-11.3116
當知是為不退轉菩薩摩訶薩	-11.3119
識清淨故一切智智清淨	-11.3121
我慢	-11.3121
五識	-11.3124
授與	-11.3125
不久當	-11.3125
餘三	-11.3126
四如意足	-11.3131
知是不退轉菩薩摩訶薩	-11.3131
尋伺	-11.3133
著衣	-11.3135
摶取	-11.3135
如是種種	-11.3138
隙	-11.314
若人言	-11.3141
其量	-11.3143
四重	-11.3145
憎愛	-11.3145
行願	-11.3146
論師	-11.3147
於地界	-11.3147
義句	-11.3148
如是迴向	-11.3148
隱沒	-11.3148
通別	-11.3148
萌	-11.3149
即三十二大士相	-11.315
隨喜迴向無上正等菩提	-11.3151
敵	-11.3153
如雲	-11.3153
呪術	-11.3153
醒	-11.3154
括	-11.3154
無始空	-11.3156
根本智	-11.3157
慎	-11.3157
無覺	-11.3159
若我乃至見者	-11.316
即陀羅尼門	-11.316
薩哩嚩	-11.316
修集	-11.3169
開悟	-11.3171
裂	-11.3171
上首	-11.3178
七種	-11.3179
知根	-11.3179
亦勸他修	-11.318
自性離故	-11.3186
妙義	-11.3187
新發意菩薩	-11.3188
無底	-11.3188
無相無為	-11.3189
勝餘	-11.319
無願相	-11.3191
即大慈	-11.3191
知恩	-11.3192
而曰	-11.3192
坐禪	-11.3194
不惟	-11.3196
不善業	-11.3203
等無有異	-11.3204
皆入	-11.3205
亦知	-11.3207
與他人	-11.3208
當知般若波羅蜜亦	-11.3209
誨	-11.321
世間天	-11.3211
▁薩	-11.3213
依前	-11.3216
不肯	-11.3217
於諸法無所	-11.3217
勝法	-11.3219
是故菩薩摩訶薩	-11.322
邪正	-11.3221
)。【	-11.3221
此是諦實	-11.3222
唯客所攝	-11.3225
無相為方便	-11.3228
佛亦如是	-11.323
住地	-11.3233
於八勝處	-11.3233
居士大族	-11.3234
無壽者	-11.3234
護佛果	-11.3235
具見地	-11.3235
而於中學	-11.3238
具德	-11.3239
現起	-11.3239
若菩薩摩訶薩成就如是諸行	-11.3239
涕淚悲泣	-11.324
若取法相	-11.3242
直說	-11.3242
魔王	-11.3244
卷上	-11.3245
繒	-11.3253
有法可	-11.3253
句義無所有不可得	-11.3254
踊	-11.3254
歎般若	-11.3255
不可言	-11.3261
冀	-11.3262
亦不作有力不作無力	-11.3265
海中	-11.3266
非無想	-11.3267
禽獸	-11.3269
本云	-11.3271
慈氏菩薩摩訶薩	-11.3271
流轉生死	-11.3272
三教	-11.3274
想念	-11.3275
兔	-11.3276
現在法	-11.3276
鄣	-11.3276
有五種	-11.3276
諸妙	-11.3279
即緣所生法	-11.328
憂苦	-11.3281
無自性中	-11.3285
晉	-11.3287
諸異生	-11.3292
不行耳	-11.3293
千年	-11.3295
誰為	-11.3297
佛自說	-11.3297
獨覺法	-11.3299
異於	-11.3302
因般若波羅蜜	-11.3304
三十一	-11.3306
大地獄中	-11.3306
八百	-11.3307
因地	-11.3311
印三昧	-11.3312
若善若非善	-11.3312
無知者	-11.3313
大地獄	-11.3314
名句	-11.3315
八識	-11.3322
二段	-11.3327
今問	-11.3327
真體	-11.3333
亦除	-11.3335
於一切三摩地門	-11.3336
三根	-11.3336
初正明	-11.3337
不在兩間	-11.3341
日日	-11.3341
十億	-11.3343
行淨戒波羅蜜多	-11.3344
新學大乘	-11.3346
俱時	-11.3347
無住相	-11.3348
即非具足色身	-11.3349
如實了知當於中學	-11.3352
少光天	-11.3352
清淨法身	-11.3353
阿羅訶	-11.3354
之相也	-11.3356
說諸法斷滅	-11.3357
當來之世	-11.3357
如語者	-11.3359
都無和合自性	-11.336
清淨故無相	-11.3362
甚為	-11.3362
可比	-11.3363
恒作是念	-11.3364
非有相非無相	-11.3364
猗	-11.3367
即外空乃至無性自性空	-11.3368
大涅槃	-11.3371
秘密	-11.3375
繞	-11.3375
難信	-11.3375
恩德	-11.3375
以三十二相觀如來	-11.3376
杜	-11.3376
六百卷	-11.3378
辛	-11.3379
魏譯	-11.3381
得福多	-11.3383
匿王	-11.3383
無咎	-11.3386
佉	-11.3388
付屬	-11.3388
涅槃經	-11.3388
如大海	-11.3388
隋	-11.3389
五百世	-11.339
即獨覺菩提	-11.339
無所依	-11.3391
對法	-11.3392
識亦如是	-11.3394
是無記	-11.3397
大火	-11.3397
五百年	-11.3399
佛力	-11.3403
即三摩地門	-11.3407
實理	-11.3409
成就阿耨多羅三藐三菩提	-11.3411
如是信解	-11.3415
開合	-11.3417
下二句	-11.3417
住不退轉地	-11.3418
無少法	-11.3419
是名法相	-11.3421
大乘與虛空等	-11.3422
如病	-11.3424
苦相	-11.3426
章門	-11.3427
是般若波羅蜜中	-11.3429
我從	-11.3432
不順	-11.3438
無色定	-11.3441
或言	-11.3443
牒經	-11.3444
三千大千世界諸有情類	-11.3448
作是觀	-11.345
佛所說法	-11.345
即大悲	-11.3453
無漏智	-11.3454
摩尼寶	-11.3455
如是等種種因緣	-11.3458
善慧	-11.346
後方	-11.3461
我乃至見者無所有故	-11.3463
所樂	-11.3463
汝觀何義言	-11.3465
我作佛時	-11.3465
一標	-11.3466
降住	-11.3472
諸神通	-11.3472
以偈	-11.3472
解脫門	-11.3474
摩訶般若波羅蜜經	-11.3475
色不可得	-11.3475
離諸相	-11.3477
餘事	-11.3478
即非般若波羅蜜	-11.3479
苾芻當知	-11.3482
如來說非	-11.3483
篇	-11.3484
飄	-11.3484
同歸	-11.3485
諸菩薩摩訶薩如實了知	-11.3486
告之	-11.3487
迷真	-11.349
之意也	-11.349
賜	-11.3492
決擇	-11.3492
泣	-11.3493
自利利他	-11.3494
汎	-11.3498
用無所得為方便	-11.3499
非虛妄	-11.3501
逈	-11.3502
詔	-11.3504
楚	-11.3504
阿惟越致地	-11.3504
五蘊皆空	-11.3508
則無有	-11.351
虛空處	-11.3512
繼	-11.3512
圍	-11.3514
菩薩行六波羅蜜	-11.3515
疏主	-11.3515
光天	-11.3516
灾	-11.3517
苦智	-11.3519
無實體	-11.352
不惱	-11.352
真空無相	-11.3521
得佛道	-11.3521
風吹	-11.3522
不妄	-11.3523
佛隨念	-11.3524
聞正法	-11.3525
此福	-11.3526
如前說	-11.3528
內證	-11.353
何必	-11.3533
手持	-11.3534
住內空	-11.3535
云爾	-11.3538
除滅	-11.3541
常啼	-11.3544
諸賢聖	-11.3544
佛世	-11.3545
若據	-11.3546
即離垢地乃至法雲地	-11.3546
於一來	-11.3547
得薩婆若	-11.355
但能	-11.3551
即因緣	-11.3554
上云	-11.3556
前後際斷	-11.3557
以無所得為方便故	-11.3559
滿月	-11.3564
此喻	-11.3565
經文也	-11.3565
所變	-11.3566
深奧	-11.3568
多分	-11.3571
極大	-11.3573
普能容受無量無數無邊有情	-11.3579
大悲為上首	-11.358
所照	-11.3584
名為大	-11.3587
四大洲	-11.3588
於法實無所得	-11.3589
遠離不遠離相不可得	-11.359
如佛塔廟	-11.3591
勝進	-11.3592
百分	-11.3593
即非身相	-11.3594
親友	-11.3596
亦不與	-11.3597
是菩薩摩訶薩平等性	-11.3597
十二緣起	-11.3598
尚不見	-11.36
大智度論釋	-11.36
鴿	-11.3603
會要	-11.3604
隅	-11.3605
川禪師曰	-11.3606
澤香	-11.3608
即四正斷乃至八聖道支	-11.3609
住般若波羅蜜	-11.361
能施	-11.361
登彼岸	-11.3611
亦不作有量不作無量	-11.3612
真實不虗	-11.3612
止息	-11.3614
輝	-11.3614
馱	-11.3615
非多	-11.3616
非微塵	-11.3619
離一切諸相	-11.3621
狼	-11.3621
娑婆	-11.3622
未來世中	-11.3625
隆	-11.3625
京	-11.3627
屋	-11.3629
此義故	-11.3636
相攝	-11.3638
古德云	-11.3639
自念言	-11.364
諸法亦爾	-11.3644
名聞	-11.3645
分別執著	-11.3649
能如是行	-11.3653
增進	-11.3653
災難	-11.3655
捨無量	-11.3663
夢幻	-11.3664
常能	-11.3664
無定法	-11.3668
修般若	-11.3669
妄識	-11.367
停	-11.3672
知苦	-11.3675
諸佛國土	-11.3676
世間解	-11.3677
夢中見	-11.3678
或令	-11.3678
要由	-11.3685
出息	-11.3687
何況空中有過去	-11.3691
場	-11.3692
非趣非不趣	-11.3695
光照	-11.3698
諦觀	-11.3698
欲為有情宣說開示	-11.3698
最上最妙	-11.3699
平等性尚不可得	-11.3699
結上	-11.3699
如來所說法	-11.3701
婬怒癡	-11.3701
不超一切世間天	-11.3704
須菩提所說	-11.3704
上座	-11.3705
不到	-11.3709
經宗	-11.371
加害	-11.371
云何當有	-11.3711
眾事	-11.3712
此經之	-11.3713
勸導	-11.3713
晚	-11.3715
宛	-11.3715
僕	-11.3716
翅	-11.3718
擲	-11.3719
攝一切法	-11.3721
秪	-11.3721
函	-11.3722
成阿惟三佛	-11.3722
若念有	-11.3722
=	-11.3722
秤	-11.3725
世出世間	-11.3725
習行	-11.3727
狗	-11.3728
作阿耨多羅三耶三菩	-11.3729
以是名字	-11.3729
識亦復如是	-11.373
鑑	-11.3731
聞思修	-11.3732
有三義	-11.3732
偏袒右肩	-11.3733
菩薩摩訶薩遠離般若波羅蜜多	-11.3735
歟	-11.3735
欲界繫	-11.3735
收衣鉢	-11.3743
之福德	-11.3743
浴	-11.3744
乞士	-11.3747
今此中	-11.3749
祇陀	-11.375
大論	-11.3752
尚有	-11.3752
皆成就	-11.3754
別解	-11.3755
如佛說	-11.3758
既知	-11.3766
轉故名不退轉	-11.3767
其德	-11.3769
定當	-11.3769
一切三昧	-11.3773
憐愍眾生	-11.3774
原無	-11.3775
捨命	-11.3777
據此	-11.3777
真妄	-11.3778
之主	-11.3781
眼根	-11.3782
正語	-11.3783
能生諸佛	-11.3789
不著色	-11.3791
而發	-11.3793
信敬	-11.3803
行布施者	-11.3805
註解	-11.3805
但明	-11.3806
不住於	-11.3806
即法界乃至不思議界	-11.3809
色聲香味觸法	-11.3811
尊重讚歎諸佛世尊	-11.3815
無熱天	-11.3818
修四靜慮	-11.3818
其上	-11.3819
得安隱	-11.3821
當生如是心	-11.3822
心數	-11.3822
少淨天	-11.3822
無瞋	-11.3823
七覺分	-11.3824
易解	-11.3824
吾今	-11.3831
現成	-11.3832
是名第一波羅蜜	-11.3833
怨敵	-11.3836
幻作	-11.3838
疲乏	-11.384
不離般若波羅蜜多	-11.3842
江河	-11.3842
聲聞緣覺	-11.3844
亦無老死盡	-11.3845
亦無無明盡	-11.3846
蹉	-11.3846
無有邊際	-11.3848
觀世音	-11.3849
自已	-11.385
針	-11.385
但聞	-11.3851
宿世	-11.3853
武	-11.3853
升	-11.3853
云何為人演說	-11.3857
緩	-11.3858
不能見	-11.3859
乾坤	-11.3859
娜	-11.386
云何修行	-11.386
珍財	-11.386
妄生	-11.3861
正因	-11.3863
佛無上正等菩提	-11.3872
舍婆提	-11.3874
初學	-11.3875
無障	-11.3883
亦不取著	-11.3887
常啼菩薩	-11.3888
小品	-11.3891
如幻事	-11.3892
舉喻	-11.3902
唯說	-11.3902
近無上正等菩提	-11.3905
習應	-11.3906
常樂我淨	-11.3907
施等	-11.3909
所用	-11.3915
得不退轉	-11.392
巳盡	-11.3921
值佛	-11.3924
▁初引	-11.3927
而不知	-11.3927
不可思議功德	-11.3927
電光	-11.3928
非唯	-11.3931
聖位	-11.3931
十智	-11.3931
獲大	-11.3932
是菩薩摩訶薩雖	-11.3933
舍利弗語須菩提	-11.3936
經書	-11.3937
則墮	-11.3937
忍位	-11.3937
不落	-11.3939
修行般若波羅蜜多速得圓滿	-11.3939
俱行之心	-11.394
無我我所	-11.3941
若時若時	-11.3941
唐言	-11.3943
皆為非心	-11.3944
無量光天	-11.3945
餘皆	-11.3946
大力	-11.3947
無量淨天	-11.3948
皆是般若波羅蜜多所流出故	-11.3948
常念	-11.3955
初標章敘疑	-11.3955
纂	-11.3959
謨	-11.3959
於恒住捨性	-11.3959
造業	-11.396
祐	-11.3962
深重	-11.3965
當念	-11.3966
不及持經	-11.3966
耆	-11.3967
一切不退轉菩薩摩訶薩	-11.3969
乃至無老死	-11.3969
虧	-11.3971
廓	-11.3971
婆伽婆	-11.3973
護念付囑	-11.3974
蘭	-11.3975
市	-11.3978
佛滅度後	-11.3978
長養	-11.398
驅	-11.3982
三聚	-11.3986
善哉善哉	-11.3987
離般若波羅蜜	-11.399
即行乃至老死	-11.399
為可得不	-11.3991
現相	-11.3991
之流	-11.3995
一切波羅蜜多	-11.4001
方可	-11.4003
應墮惡道	-11.4007
融通	-11.4007
文有二	-11.4008
乃知	-11.4012
修行一切智	-11.4013
反問	-11.4017
外護	-11.4017
具念	-11.4018
如去	-11.402
可信	-11.4024
一切智智清淨故色界	-11.4025
其福德	-11.4025
古人	-11.4031
不殺	-11.4031
不應起	-11.4034
未至	-11.4036
行深般若	-11.4037
大部	-11.404
身住循身觀	-11.4042
無常增語是菩薩摩訶薩不	-11.4049
增彼對治	-11.405
得人身	-11.4051
極樂	-11.4051
無我人	-11.4053
亦不施設為	-11.4055
不樂觀察論說	-11.4055
三十七菩提分法	-11.4056
▁第二百	-11.4056
修諸菩薩摩訶薩行	-11.4056
隨所生處	-11.4057
如來說名真是菩薩	-11.4061
文有三	-11.4062
無憂	-11.4064
慈悲喜捨	-11.4065
稻	-11.4066
大悲為首	-11.4069
淨不淨相不可得	-11.4071
遠近	-11.4072
苾芻尼	-11.4073
死生	-11.4074
智斷	-11.4077
莫作是說	-11.4077
三疑	-11.4079
若有罪若無罪	-11.4079
一般	-11.4079
遍覆	-11.4081
不得言	-11.4083
能除一切苦	-11.4083
逮覺	-11.4085
囊	-11.4088
峯	-11.4088
慈愍	-11.4089
涯	-11.409
侶	-11.409
闊	-11.4091
雜染清淨	-11.4092
祕	-11.4093
柱	-11.4093
誦經	-11.4094
童子	-11.4095
綿	-11.4096
數數	-11.4097
性無故	-11.4097
引論	-11.4098
腦	-11.4099
其地	-11.4099
眼等	-11.41
聲聞或獨覺地	-11.4102
墨	-11.4104
景	-11.4104
我當圓滿	-11.4105
受五欲	-11.4107
不得菩提	-11.411
清淨故行	-11.4111
莫作	-11.4111
報應	-11.4111
非修般若波羅蜜多	-11.4112
並是	-11.4115
行檀那波羅蜜	-11.4115
雜毒	-11.4117
真珠	-11.4123
速疾	-11.4124
氣力	-11.4127
助道法	-11.4127
一切智智清淨故耳	-11.4128
重釋	-11.4128
大論云	-11.413
身口	-11.4133
一切智智清淨故道相智	-11.4137
一切智智相應作意	-11.4137
所得福德	-11.4139
共住	-11.4139
般若波羅蜜多方便善巧	-11.4141
非趣	-11.4143
是大明呪	-11.4143
四地	-11.4143
滅罪	-11.4144
常當	-11.4146
常增語是菩薩摩訶薩不	-11.415
能了	-11.4151
入初禪	-11.4151
善非善	-11.4154
如何是	-11.4157
厭捨	-11.4157
微塵世界	-11.416
不起作諸行若有若無故學	-11.4165
各得	-11.4166
不住相布施	-11.4174
餘皆愚妄	-11.4174
不可攝受故	-11.4175
得無礙	-11.4176
廣大心	-11.4178
一切智智清淨故四無量	-11.4178
於諸等持	-11.4181
無成無壞	-11.4183
實無所得	-11.4184
疾得圓滿	-11.4184
於十方三世無所從來	-11.4185
無所至去亦無所住	-11.4185
便成	-11.4185
際菩薩摩訶薩有異	-11.4186
十方無量	-11.4189
一切智智清淨故四正斷	-11.419
身如須彌山王	-11.4192
三科	-11.4192
如人有目	-11.4192
至極	-11.4192
若來若去	-11.4193
文二初	-11.4193
化有情	-11.4193
乃至老死	-11.4193
不驚不怖不畏	-11.4194
所染	-11.4194
我無我相不可得	-11.4194
寂靜不寂靜相不可得	-11.4195
應生無所住心	-11.4195
阿羅呵	-11.4199
天帝	-11.4199
汝當奉持	-11.4199
令勤修學	-11.4201
化樂天	-11.4201
睡眠	-11.4201
他性	-11.4206
順逆	-11.4206
陳雄	-11.4208
遶	-11.4209
是菩薩摩訶薩修行般若波羅蜜多	-11.4211
供給	-11.4211
一切智智清淨故八勝處	-11.4214
挍量	-11.4215
皎	-11.4216
洪	-11.4216
可斷	-11.4217
絕待	-11.4218
一切智智清淨故四無所畏	-11.4218
就初	-11.4221
一塵	-11.4221
持是功德	-11.4221
勸人	-11.4221
在其中	-11.4224
纂要	-11.4225
軀	-11.4225
無信	-11.4225
任持	-11.4226
如是乃至一切智	-11.4233
不聽	-11.4234
空行菩薩行	-11.4235
起信云	-11.4235
少欲	-11.4238
更求	-11.4239
除其	-11.424
燒香	-11.4246
班足	-11.4246
流支	-11.4247
眾寶	-11.4248
且初第一明	-11.4249
若有色	-11.4252
論云下	-11.4254
一切智智清淨故一來	-11.4254
非大身	-11.4256
二藏	-11.426
精勤修學甚深般若波羅蜜多	-11.4261
諸家	-11.4261
故說大乘	-11.4264
性地	-11.4268
能仁	-11.4268
十四忍	-11.4269
得作佛	-11.4272
魏本	-11.4273
一物	-11.4274
今文	-11.4275
等無異	-11.4275
自受用	-11.428
隨業	-11.4283
集諦	-11.4289
無能所	-11.4292
行漸次行	-11.4294
但約	-11.4294
疑曰	-11.4295
於此法門	-11.4295
真如無生無滅	-11.43
及弟子	-11.4301
不可取不可說	-11.4301
色起至	-11.4301
離文字	-11.4301
以何為	-11.4302
有菩薩摩訶薩不	-11.4302
方盡殑伽沙等世界	-11.4304
常不捨離	-11.4306
二依經斷疑	-11.4306
最尊最勝	-11.4308
譬如人身長大	-11.4308
曉了	-11.431
一切智智清淨故外空	-11.431
非合非離但假施	-11.431
天帝釋復白佛言	-11.4311
非過去非未來非現在	-11.4311
觀音	-11.4312
於法不說斷滅相	-11.4312
東勝身洲	-11.4316
思慧	-11.4318
若菩薩作是言	-11.4318
以無性為自性	-11.432
若屬生死若屬涅槃	-11.4321
般若波羅蜜清淨	-11.4323
聞般若	-11.4323
凌	-11.4324
一生補處	-11.4328
斫	-11.4329
一切智智清淨故淨戒	-11.4332
休息	-11.4335
愛重	-11.4336
此經中	-11.4337
覔	-11.4338
排	-11.4338
傾	-11.4338
逆順	-11.4339
檢	-11.434
忻	-11.4341
䟦	-11.4341
研	-11.4342
殃	-11.4342
有去來	-11.4342
壯	-11.4343
皆應供養	-11.4343
忿怒	-11.4344
肅	-11.4346
這箇	-11.4347
忙	-11.4348
雖現	-11.4352
窟	-11.4352
爐	-11.4358
像法	-11.436
有四相	-11.4363
此般若波羅蜜多法門	-11.4364
未明	-11.4364
波若波羅蜜	-11.4365
施設言說	-11.4366
平等心	-11.4367
善趣	-11.4368
或令安住	-11.4369
第二靜慮	-11.437
製	-11.437
我我所	-11.437
色界繫	-11.4371
天神	-11.4373
如是隨喜迴向	-11.4382
亦不能證	-11.4384
離有無	-11.4385
慧根	-11.4385
隨覺	-11.4386
綱要	-11.4389
本事	-11.439
釋所以	-11.4397
我無邊故	-11.4397
而實無	-11.44
第十四	-11.4401
外國	-11.4408
此二句	-11.442
如來法性可得	-11.4424
是趣不過	-11.4424
無諍三昧	-11.4426
無眼耳鼻舌身意	-11.4427
多百千	-11.4429
名為於界善巧	-11.443
亦如實知	-11.4433
法印	-11.4434
名俱無所有不可得故	-11.4436
善見天	-11.4438
最上第一希有之法	-11.444
破執	-11.4441
眾惡	-11.4446
心與語	-11.4448
明波若	-11.4454
涅槃樂	-11.4456
策	-11.446
編	-11.4465
筌	-11.4465
聽許	-11.4465
域	-11.4472
猶如虛空	-11.4472
復有二	-11.4473
是人以是因緣	-11.4476
臆	-11.4477
橋	-11.4477
四十二	-11.4477
盈	-11.4478
比邱	-11.4478
線	-11.448
古德	-11.4486
二世	-11.4489
斷證	-11.4489
廣天	-11.4492
若婆羅門	-11.4493
無量福德	-11.4493
業因緣故	-11.4494
阿難言	-11.4494
雖具	-11.4496
分為二	-11.4496
是名三十二相	-11.4497
通利	-11.4501
諸微塵	-11.4501
樂欲	-11.4506
更問	-11.4507
實不可得	-11.4508
若梵	-11.4508
而不住	-11.4511
威神力	-11.4514
眾生界	-11.4521
大圓	-11.4522
此語	-11.4526
歸命	-11.4527
一切智智清淨故集	-11.4527
雖聞	-11.4527
大迦葉	-11.4533
讚言	-11.4539
下半偈	-11.4543
法身佛	-11.4543
無定相	-11.4543
異類	-11.4545
學菩提道	-11.4546
修漸次學	-11.4548
▁初解	-11.4552
初門	-11.4553
若有眾生	-11.4553
曾無	-11.4557
七賢	-11.4559
三乘法	-11.4559
婆羅門大族	-11.456
離生喜樂	-11.4563
應如是生清淨心	-11.4563
真如有菩薩摩訶薩不	-11.4563
若染若淨	-11.4564
阿練若	-11.4564
日光明照	-11.4565
攝入	-11.4567
楞嚴云	-11.4568
若心取相	-11.4568
七重	-11.4568
三段	-11.4571
出體	-11.4571
如實知彼諸有情類	-11.4574
菩薩摩訶薩得阿耨多羅三藐三菩提時	-11.4574
無厭足	-11.4576
非有非空	-11.4579
如電	-11.458
若有煩惱若無煩惱	-11.4581
友	-11.4581
菩薩作是念	-11.4583
疑悔	-11.4587
諸地	-11.4587
更相	-11.4589
傾動	-11.4591
三摩提	-11.4591
復由	-11.4593
本來清淨	-11.4593
欲聞	-11.4594
纖毫	-11.4596
遷流	-11.4599
恭	-11.4599
話	-11.4601
愛欲	-11.4602
縱橫	-11.4604
貪嗔	-11.4606
不可破壞	-11.4607
雅	-11.4609
振	-11.461
最為第一	-11.4611
修習般若波羅蜜多	-11.4612
無高下	-11.4613
假有	-11.4617
皆如幻化	-11.4617
出家人	-11.462
由此善根	-11.462
無邊無所有故	-11.4627
幻法	-11.4631
品云	-11.4632
諸世界	-11.4635
如虛空無盡	-11.4645
第八識	-11.4646
有所得為方便	-11.465
入無餘	-11.4652
稱我	-11.4655
佛境界	-11.4657
能辦	-11.4658
無顛倒	-11.4658
一切智智清淨故無相	-11.4659
聞是法	-11.4663
如幻化	-11.4666
第十三	-11.4671
墮聲聞	-11.4673
四邊	-11.4674
從座起	-11.4674
▁後依	-11.4675
瑜伽論	-11.468
不相離	-11.468
佛法僧	-11.4681
可於中學	-11.4681
不可攝受則非	-11.4683
隨佛生	-11.4689
不驚不怖	-11.4692
亦教他人	-11.4694
阿須倫	-11.4694
過去當來今現在	-11.4695
入初靜慮	-11.4695
未來心不可得	-11.4697
是名具足色身	-11.4699
前所說	-11.4699
一切法皆是佛法	-11.47
題目	-11.47
不足為難	-11.47
毀呰	-11.4701
人相眾生相壽者相	-11.4701
分位	-11.4702
應現	-11.4704
品明	-11.4704
將來	-11.4708
若菩薩摩訶薩修遣	-11.4709
不應取法	-11.4709
妙高山	-11.4709
第四明	-11.471
性種性	-11.4711
夫人	-11.4712
迷心	-11.4712
▁後別	-11.4715
希望	-11.4716
生清淨心	-11.4719
有遣此修	-11.4722
苗	-11.4723
奚	-11.4726
哆	-11.4726
我能修行	-11.4726
菩薩聞是	-11.4728
作惡	-11.473
沙界	-11.4731
殺生	-11.4731
貪嗔癡	-11.4731
煩惱盡	-11.4732
飯食訖	-11.4733
當一一說	-11.4734
阿耨多羅三耶三菩阿惟三佛	-11.4734
轉增	-11.4734
不為引發	-11.4736
開士	-11.4737
而為上首	-11.4737
般若理趣	-11.4737
忍苦	-11.4738
亦無所見	-11.474
甚深微妙	-11.4741
諸相非相	-11.4741
如來悉知悉見	-11.4747
補處	-11.4748
一約	-11.475
普遍	-11.4759
得見如來	-11.4759
頭頭	-11.4761
菩薩摩訶薩安住布施波羅蜜多	-11.4762
般若波羅蜜多甚深義趣	-11.4765
所持	-11.4766
五地	-11.4767
證信	-11.4768
無上正等菩提不退轉記	-11.4768
講說	-11.4768
與汝	-11.4769
金剛寶	-11.477
入初地	-11.477
第十六	-11.4775
放光明	-11.4777
亦教他修	-11.478
所覆	-11.478
印三摩地	-11.4783
由畢竟空	-11.4789
思惑	-11.479
此一段	-11.4795
文四	-11.4802
四無畏	-11.4805
但取	-11.4807
二乘人	-11.4809
能使	-11.4815
列名	-11.4815
無量無邊阿僧祇	-11.4817
智度論云	-11.4819
無等無等等	-11.482
不為一切	-11.4821
諸國王	-11.4824
究竟通利	-11.4824
後學	-11.4826
七覺意	-11.4827
具壽舍利子言	-11.4828
用無所得而為方便	-11.4828
教授教誡	-11.4828
如來是真語者	-11.4831
難測	-11.4832
汝善男子	-11.4834
調和	-11.4834
云何習	-11.4834
無著下	-11.4839
本性皆空	-11.4839
善付囑	-11.484
罵詈	-11.484
疾疫	-11.4843
除障	-11.4843
無自相	-11.4843
使作者	-11.4843
不惜	-11.4844
大段	-11.4848
賴	-11.4849
一念淨信	-11.485
淪	-11.4852
恒河沙數	-11.4852
佛說非身	-11.4852
刊	-11.4853
依般若波羅蜜多故	-11.4853
饑	-11.4853
言詞	-11.4854
千億	-11.4855
縣	-11.4856
一類	-11.4857
類智	-11.4858
八千	-11.4858
占	-11.486
讚嘆	-11.4862
奏	-11.4863
漂	-11.4866
木石	-11.4866
弓	-11.4871
不厭	-11.4871
與虛空等	-11.4872
規	-11.4873
智淨	-11.4873
須菩提白佛	-11.4875
大小乘	-11.488
為他人	-11.4881
皆同一	-11.4883
皆無自性	-11.4886
如來於然燈佛所	-11.4887
從因緣生	-11.4892
假想	-11.4896
罪過	-11.4903
畢竟無	-11.4904
宿住	-11.4911
之稱	-11.4912
依真	-11.4913
遍學	-11.4916
不散	-11.4916
密意	-11.4924
有頂	-11.4929
何別	-11.4933
超出	-11.4942
人趣	-11.4949
不應觀聲	-11.4949
心不沈沒	-11.4953
迴向趣求一切智智	-11.4956
都無實事	-11.4957
若取若捨	-11.4957
金剛般若波羅蜜	-11.4957
還滅	-11.4959
過去心不可得	-11.4962
相應經典	-11.4962
輕蔑	-11.4965
阿毘跋致	-11.4966
而於其中	-11.4966
是名諸相具足	-11.4966
深解	-11.4974
是為菩薩摩訶薩修行般若波羅蜜多時	-11.4976
損害	-11.4977
錯解	-11.4977
高座	-11.498
勝出	-11.4982
徐	-11.4983
淳	-11.4983
阿耨多羅三藐三菩提心	-11.4984
欺	-11.4987
是菩薩摩訶薩修行般若波羅蜜多時	-11.4989
燭	-11.499
阿難白佛言	-11.4992
宰	-11.4993
做	-11.4993
泛	-11.4993
役	-11.4998
作是學	-11.4998
寤	-11.5
警	-11.5
榮	-11.5001
曜	-11.5002
口說	-11.5002
愧	-11.5003
雙結	-11.5004
飯食	-11.5004
範	-11.5005
我所執	-11.5007
華嚴經云	-11.5007
近阿耨多羅三藐三菩提	-11.5013
或令住	-11.5015
悲愍	-11.5015
衣食	-11.5022
復還	-11.5029
閻浮提人	-11.5029
方便智	-11.503
七歲	-11.5035
即是菩提	-11.5037
六萬	-11.5038
根器	-11.5039
清淨故一切相智清淨	-11.5046
如經云	-11.5046
使我	-11.5047
獨覺作意	-11.5048
悉得	-11.5051
此經文	-11.5053
菩提樹下	-11.5053
而有差別	-11.5054
為大事	-11.5059
菩提終	-11.5066
問曰巳下	-11.5067
肉眼見	-11.507
▁第	-11.5071
所說之法	-11.5073
堪受一切世間	-11.5075
半偈	-11.5079
放下	-11.5081
不苦不樂	-11.5081
隨喜俱行諸福業事	-11.5082
以有所得而為方便	-11.5083
斷集	-11.5083
習氣相續	-11.5084
應觀耳	-11.5087
能為難事	-11.5088
十方各如殑伽沙界	-11.509
明鏡	-11.509
疏文	-11.5091
合釋	-11.5093
滿三千大千世界	-11.5094
充足	-11.5094
却住一面	-11.5097
本業	-11.5097
弊魔	-11.5097
是不生法	-11.5097
信心不逆	-11.5097
以虛空為所趣	-11.5098
千萬億分	-11.5098
而得生故	-11.5099
是為多不	-11.5103
房舍	-11.5105
富樓那	-11.5106
置贍部洲	-11.5107
一切世間天人阿修羅	-11.5107
7	-11.5108
䟽	-11.5109
非有願非無願	-11.5109
欠	-11.5113
甚可愛樂	-11.5113
是實相者	-11.5113
調柔	-11.5116
摩尼珠	-11.5117
其國	-11.5119
不應貪著	-11.5119
識種	-11.512
廟	-11.5121
長壽天	-11.5121
般若波羅	-11.5123
巍巍	-11.5125
勇猛精進	-11.5127
式	-11.5128
䭾	-11.5129
欣樂	-11.5132
金剛杵	-11.5133
善達	-11.5135
滴	-11.5136
此四句	-11.5142
助道	-11.5144
利他行	-11.5145
祥	-11.5145
行靜慮波羅蜜多	-11.5149
不生執著	-11.515
亦無增無減	-11.5152
西北	-11.5152
山河	-11.5153
應如是降伏其心	-11.5153
金光明	-11.516
雪山	-11.5162
修行四靜慮	-11.5167
微塵數	-11.5168
斷滅相	-11.5168
甚深般若波羅蜜多亦復如是	-11.517
變動	-11.5173
得陀羅尼	-11.5174
眾善	-11.5185
更無別	-11.5194
轉變	-11.5196
一相無相	-11.5197
不見有法可	-11.5199
▁二引	-11.52
當來世	-11.5203
轉教	-11.5209
異耳	-11.5213
道種性	-11.5214
邊見	-11.5214
盡其形壽	-11.5222
正性離生	-11.5225
速能圓滿	-11.5225
與一切有情同共迴向	-11.5225
如夢乃至如化	-11.5226
入無二法數	-11.5226
此人以是因緣	-11.5227
由是菩薩摩訶薩故	-11.5228
長者大族	-11.5228
次第緣	-11.523
無得無捨	-11.523
不為攝取	-11.523
聲聞及獨覺地	-11.5231
深解義趣	-11.5232
般若波羅蜜多祕密藏中	-11.5233
性自爾	-11.5233
勝福	-11.5234
業緣	-11.5235
菩薩神通	-11.5236
即為謗佛	-11.5237
瞋忿	-11.5237
不二不別	-11.5238
深淺	-11.5239
無量有情	-11.524
分別空不空	-11.524
痛想行識	-11.5241
無有分別	-11.5242
非甚深非微細	-11.5243
断	-11.5243
僅	-11.5244
1	-11.5246
乃至廣說	-11.5247
菩提樹	-11.5249
諸戲論	-11.5252
粟	-11.5253
量等	-11.5253
嚮	-11.5256
藝	-11.5258
是故如來說名	-11.5259
護十地行	-11.526
便得無上正等菩提	-11.526
起信論	-11.5263
環	-11.5264
冠	-11.5264
泰	-11.5265
舒	-11.5266
不滯	-11.5269
非非有	-11.5269
結歎	-11.5269
於其城中	-11.5271
六祖曰	-11.5271
般若波羅蜜甚深	-11.5273
趺	-11.5274
菩薩藏	-11.5278
不離空	-11.5282
三衣	-11.5282
卷第六	-11.5282
兩忘	-11.5283
如經中說	-11.5285
死後	-11.5285
輔	-11.5287
老病死	-11.5289
不依止	-11.5292
無我所	-11.5296
餘文	-11.5297
為上首	-11.5301
我無所有故	-11.5301
顯理	-11.5306
無價	-11.5307
何因緣	-11.531
皆由般若波羅蜜多	-11.5312
於身界	-11.5312
於鼻界	-11.5312
略標	-11.5315
於耳界	-11.5318
彌勒菩薩偈	-11.5318
成佛時	-11.5322
科釋	-11.5329
善思	-11.5331
得須陀洹	-11.5337
黃金	-11.5338
出沒	-11.5339
五句	-11.5339
如燈	-11.5346
利益一切眾生	-11.5346
三十心	-11.535
餘本	-11.535
大仙	-11.535
為父為母	-11.5355
四魔	-11.5357
無聞無見	-11.5361
不相應行	-11.5362
住降	-11.5364
是故名一切法	-11.5364
無繁天	-11.5366
成就如是方便善巧	-11.5367
善利	-11.5367
得無所得	-11.5368
是菩薩摩訶薩由此六種波羅蜜多	-11.5371
沈沒	-11.5371
有菩薩摩訶薩具修六種波羅蜜	-11.5372
在內在外在兩間	-11.5373
饒益一切有情	-11.5374
我緣此意	-11.5375
四正勤	-11.5375
利益安樂一切有情	-11.5378
小乘人	-11.5379
障道	-11.538
是菩薩不能證	-11.5381
舍宅	-11.5381
來意	-11.5381
毘奈耶	-11.5382
菩薩摩訶薩所行般若波羅蜜多亦無邊	-11.5382
強名	-11.5382
器界	-11.5383
奢摩他	-11.5383
奉請	-11.5384
結跏趺坐	-11.5386
梵本	-11.5387
三災	-11.539
此二種	-11.5392
於舌界	-11.5395
萬里	-11.5396
菩薩前際不可得	-11.5396
塗香	-11.5399
色乃至法	-11.5399
寡	-11.54
青黃赤白	-11.54
貧賤	-11.54
耆闍崛山	-11.5401
勒	-11.5402
豪	-11.5402
纖	-11.5403
兔角	-11.5405
印證	-11.5405
南北	-11.5406
創	-11.5407
髻	-11.5408
功德智慧	-11.5409
筋	-11.5409
巳前	-11.541
牢	-11.5411
恁麼	-11.5411
亦不起作諸行若有若無故學	-11.5413
假名為	-11.5416
反釋	-11.5417
入城	-11.5417
修行精進波羅蜜多	-11.5419
雄	-11.5421
信力	-11.5421
翁	-11.5423
無苦集滅道	-11.5428
賴耶	-11.5428
隨喜福德	-11.5429
意根	-11.5431
不退轉記	-11.5433
千倍	-11.5434
即非具足	-11.5434
鈔云	-11.5435
淨穢	-11.5441
別顯	-11.5442
記別	-11.5449
上二句	-11.545
以三乘法	-11.545
無遺	-11.5451
欲得無上正等菩提	-11.5453
悟道	-11.5454
神我	-11.5458
行精進波羅蜜多	-11.5462
一切眾生皆	-11.5464
界外	-11.5466
亦不從	-11.5467
經題	-11.5468
無色聲香味觸法	-11.5468
不證實際	-11.5468
無不趣	-11.5474
頂禮	-11.5477
▁初約	-11.5477
所有善根	-11.5479
大光明	-11.5479
此章	-11.5483
惟其	-11.5487
慧光	-11.5491
不以滅不滅分別	-11.5502
不以有相無相分別	-11.5503
分別生不生	-11.5503
分別滅不滅	-11.5503
不以生不生分別	-11.5503
不以遠離不遠離分別	-11.5504
不以寂靜不寂靜分別	-11.5504
四句偈等	-11.5505
何緣而說我清淨故	-11.5506
菩薩摩訶薩行六波羅蜜時	-11.5509
分別有相無相	-11.551
有欲令無相之法有出住者	-11.5513
不可以身相得見如來	-11.5513
況能	-11.5513
尋常	-11.5514
如所有性	-11.5515
若坐若臥	-11.5515
我相即是非相	-11.5518
無相有相相不可得	-11.5518
空寂清淨句義是菩薩句義	-11.5518
空不空相不可得	-11.5518
狐疑不信	-11.5518
分別遠離不遠離	-11.5519
樂苦相不可得	-11.5519
如恒河中所有沙數	-11.5519
無退轉	-11.5523
先世罪業	-11.5523
法上菩薩摩訶薩	-11.5524
無去無來	-11.5525
幾時	-11.5527
六品	-11.5527
即為有佛	-11.5528
瑕	-11.5528
沮	-11.553
摩羅	-11.5531
如來所說身相	-11.5532
療	-11.5533
作者不可得故	-11.5533
而生其心	-11.5534
亘	-11.5535
無間道	-11.5537
常淨	-11.5537
鄙	-11.5537
使受者	-11.5544
能感	-11.5544
無有恐怖	-11.5546
偶	-11.5546
疏鈔	-11.5546
秋露子	-11.5548
將此	-11.5549
攝諸有情	-11.555
退轉故名不退轉	-11.5552
昌	-11.5552
苑	-11.5552
涼	-11.5553
尚不見有	-11.5555
▁初總標	-11.556
疾病	-11.556
淨潔	-11.5562
請問如來	-11.5564
不寂靜增語是菩薩摩訶薩	-11.5565
席	-11.5569
敬愛	-11.5575
解脫生死	-11.5579
秦本	-11.558
發光	-11.5582
師資	-11.5582
第十七	-11.5588
修行安忍波羅蜜多	-11.5589
所聞法	-11.5589
歸敬	-11.5589
八難	-11.5591
自性可得	-11.5591
表示	-11.5594
▁初舉	-11.5596
其間	-11.5599
雜香	-11.5603
分為三	-11.5611
失念	-11.5611
不應生	-11.5618
性本空	-11.5619
行安忍波羅蜜多	-11.5622
龍神	-11.5622
不增減	-11.5623
以一切種	-11.5626
正等覺甚深般若波羅蜜多	-11.563
戒定慧	-11.5632
在何處	-11.5634
不以有願無願分別	-11.5645
是已生法	-11.5647
空中無趣	-11.5649
梵會天	-11.565
正思惟	-11.565
分別有願無願	-11.565
到處	-11.5651
亦無所生	-11.5651
是名與般若波羅蜜相應	-11.5651
無所顧戀	-11.5652
是可攝受	-11.5652
不離一切智智心	-11.5652
亦不見有能攝受	-11.5653
及壞滅者	-11.5653
成就第一希有功德	-11.5653
實可得	-11.5653
若動若住不可得故	-11.5654
以恒河沙等身命布施	-11.5654
與我授記	-11.5656
音樂	-11.5656
無作解脫門	-11.5656
中有四	-11.5659
無願有願相不可得	-11.5661
相望	-11.5661
齊此	-11.5662
子真說	-11.5662
分別寂靜不寂靜	-11.5662
作忍辱仙人	-11.5665
深細性	-11.5668
給侍	-11.5668
塔廟	-11.5676
林中	-11.5676
申明	-11.5677
真金	-11.5678
佛種不斷	-11.5679
如幻如化	-11.568
欲往	-11.568
即諸法如義	-11.5682
覺分	-11.5682
調御	-11.5683
童真	-11.5683
駕	-11.5684
考	-11.5685
星宿	-11.5686
不能得一切智智	-11.5687
趨	-11.5687
蘆	-11.5687
以漚惒拘舍羅	-11.5689
無得無說	-11.569
所行處	-11.5691
翼	-11.5693
斯事	-11.5694
怕	-11.5694
初牒	-11.5695
慚	-11.5695
殺害	-11.5695
嗔恨	-11.5695
水月	-11.5697
羸	-11.5699
遙見	-11.5699
滅度眾生	-11.5702
不放逸	-11.5703
耳鼻舌身意	-11.5704
富樂	-11.5704
白雲	-11.5709
異熟果	-11.571
夢境	-11.5711
亦教人	-11.5712
摩訶般若	-11.5716
內護	-11.5717
為諸菩薩摩訶薩眾	-11.5719
令諸眾生	-11.5725
若當來世	-11.5731
說波若	-11.5732
甚深般若波羅蜜	-11.5735
退墮	-11.574
如師子	-11.5747
上半	-11.5748
故今明	-11.5752
菩薩摩訶薩如是行	-11.5754
要須	-11.5757
長安	-11.5759
於五陰	-11.5764
作大作小	-11.5767
歎德	-11.5769
第十八	-11.5769
自歸	-11.5769
不生滅	-11.5769
亦無戲論	-11.577
若行色	-11.5772
東南	-11.5774
增語非菩薩摩訶薩	-11.5781
為師為導	-11.5782
寶積	-11.5783
唯取	-11.5785
不依勝義	-11.579
古云	-11.5791
有尋有伺	-11.5791
雜心	-11.5792
若由此真如施設	-11.5793
變壞	-11.5794
誦持	-11.5794
伺	-11.5794
為過去未來現在諸佛護念	-11.5795
以身布施	-11.5803
有願無願	-11.5803
東北方	-11.5803
未成佛	-11.5805
四面	-11.5805
劫盡	-11.5805
是人行邪道	-11.5808
隨法行	-11.5808
若菩薩摩訶薩無方便善巧	-11.5808
告之曰	-11.581
若以色見我	-11.5811
小千世界	-11.5812
終歸	-11.5812
所有一切眾生之類	-11.5812
秦譯	-11.5813
所謂佛法者	-11.5814
不染不淨	-11.5814
是無上呪	-11.5814
車乘	-11.5816
匠	-11.5817
不以為	-11.5821
無明盡	-11.5823
一切法無我	-11.5823
分文	-11.5824
貴賤	-11.5826
產	-11.5827
異生法	-11.583
易知	-11.583
湯	-11.5832
麁惡	-11.5834
真如如來可得	-11.5834
政	-11.5836
秘	-11.5837
如意珠	-11.5838
入禪定	-11.584
從緣生	-11.5841
為二第一	-11.5845
踏	-11.5845
資粮	-11.5848
巳斷	-11.5849
為魔所	-11.585
威光	-11.5852
而反	-11.5852
四十四	-11.5853
宗趣	-11.5853
聞此法	-11.5856
僧問	-11.5856
教門	-11.5861
不苦不樂受	-11.5862
無量無所有故	-11.5862
菩薩摩訶薩名亦復如是	-11.5868
皆是佛法	-11.5868
求索	-11.5871
諸障	-11.5873
雖少	-11.5874
瞻禮	-11.5874
▁後釋	-11.5875
二別釋	-11.5877
增語是菩薩摩訶薩	-11.588
得大菩提	-11.5881
十八種	-11.5886
肯	-11.5892
上乘	-11.5895
五濁	-11.5898
聲香味觸法	-11.59
今且	-11.5901
下半	-11.5905
摩訶般若波羅蜜	-11.5906
善攝	-11.5906
□□□□□□□	-11.5912
如是展轉	-11.5912
能降伏	-11.5917
宣說正法	-11.592
得不還果	-11.5922
常共相應	-11.5932
苦難	-11.5934
世間不可思議相	-11.5934
我當滅度無量眾生	-11.5934
世間遠離相	-11.5935
世間畢竟空相	-11.5936
一切惡魔	-11.5936
世間寂靜相	-11.5936
得一來果	-11.5936
言辭	-11.5938
殑伽沙數世界	-11.5938
能了知	-11.5939
不在內不在外	-11.5939
心之所念	-11.594
不見少法	-11.5942
四意斷	-11.5942
世間純空相	-11.5943
清淨即果清淨	-11.5943
勿令	-11.5946
世間無性自性空相	-11.5946
少廣天	-11.5946
若取非法相	-11.5948
有生有滅	-11.5948
天帝釋白佛言	-11.5948
有罪無罪	-11.5949
東西	-11.5949
可以身相見如來不	-11.5949
慈無量	-11.595
世間無性空相	-11.595
無量廣天	-11.595
人中最為第一	-11.5951
如來說第一波羅蜜	-11.5952
菩薩應離一切相	-11.5953
伎	-11.5955
無相之理	-11.5955
從坐起	-11.596
安慰	-11.5961
聽聞正法	-11.5961
所作事業	-11.5962
聲聞法中	-11.5962
只在	-11.5962
癰	-11.5966
可信行者	-11.5968
真如中如來可得	-11.5968
都無所住	-11.5969
無色相	-11.5972
歡喜地	-11.5972
略舉	-11.5972
葛	-11.5974
哥	-11.5975
生法二空	-11.5977
妙吉祥	-11.5978
浩	-11.5979
妙果	-11.598
陷	-11.598
護正法	-11.598
歇	-11.5981
如夢幻泡影	-11.5982
六十二	-11.5986
枳	-11.5987
闓士大士	-11.5987
迦羅	-11.5987
進退	-11.5989
冬	-11.599
令眾生得	-11.5991
唐譯	-11.5991
到岸	-11.5994
示導	-11.5996
逾	-11.5997
無相之法	-11.5997
伐	-11.5999
方廣	-11.6001
房	-11.6002
靈光	-11.601
如來有肉眼不	-11.6013
皆爾	-11.6014
上根	-11.6019
為我說	-11.6022
之所攝受	-11.6028
八苦	-11.6029
生欲界	-11.6031
書般若波羅蜜	-11.6032
為人說	-11.6038
求大菩提	-11.604
審諦	-11.6043
真性中	-11.6047
旨趣	-11.6057
實無有	-11.6066
一切諸相	-11.6075
皆發無上正等覺心	-11.6075
為歸為趣	-11.6078
取相分別	-11.6079
故而現在前	-11.6079
識無邊處	-11.6082
何緣而說我無邊故	-11.6083
日夜	-11.6085
圓成實	-11.6087
即由此真如施設	-11.6089
無所取著	-11.609
所言善法者	-11.609
即為著我人眾生壽者	-11.6091
入無餘依般涅槃界	-11.6092
無我無人無眾生無壽者	-11.6093
菩薩為利益一切眾生	-11.6097
不應以三十二相觀如來	-11.6098
無垢無淨	-11.6098
況有趣非趣可得	-11.6098
聞此經典	-11.61
健達縛	-11.61
非習非不習	-11.6101
為遣此疑	-11.6102
變成	-11.6103
是故甚深	-11.6105
隨此法門應	-11.6107
聞是章句	-11.6107
躡	-11.6108
見聞覺知	-11.6111
異相為可得不	-11.6112
不離般若波羅蜜	-11.6115
遮遣	-11.6115
結歸	-11.6116
貪著其事	-11.6116
巳悟	-11.6123
變化身	-11.6124
扇	-11.6126
捷	-11.6127
嗟	-11.6128
練	-11.6128
某甲	-11.6129
顛	-11.6129
發阿耨多羅三耶三菩	-11.6135
無量阿僧祇劫	-11.6137
以此為	-11.6137
且初第一標	-11.6138
離散	-11.6138
叵	-11.6141
我不作是念	-11.6142
嶽	-11.6144
感得	-11.6144
聖胎	-11.6147
袒	-11.6148
是名一合相	-11.6148
聲聞眾	-11.6149
諸法空相	-11.6152
知諸法實相	-11.6152
道種	-11.6155
無邊是畢竟淨	-11.6157
摩尼	-11.6159
進修	-11.6161
悲願	-11.6161
俱泯	-11.6163
前中有二	-11.6164
未具足	-11.6168
道支	-11.6173
輕重	-11.6174
為此岸	-11.6175
亂意	-11.6179
是故汝等	-11.6184
不能動	-11.6184
七十二	-11.6187
師長	-11.6187
如經說	-11.6192
其有眾生	-11.6192
若有此經	-11.6194
如來有所說法不	-11.6196
諸法如義	-11.6198
亦教他	-11.6204
不殺生	-11.6207
千里	-11.6208
二百五十	-11.6216
周徧	-11.6218
重重	-11.6218
非實有性	-11.6221
為明為炬	-11.6229
為洲為渚	-11.623
智論云	-11.6234
之際	-11.6237
能摧	-11.6237
般若心經	-11.624
種種莊嚴	-11.624
世間自性空相	-11.6244
我應滅度一切眾生	-11.6246
如來說得福德多	-11.6247
能隨順	-11.6249
現在心不可得	-11.6249
肉身	-11.6249
若菩薩摩訶薩起如是想	-11.625
窣堵波	-11.625
菩薩摩訶薩如是學	-11.6251
不住不習	-11.6253
種種功德	-11.6253
加護	-11.6254
樂阿蘭那行	-11.6254
是空性不	-11.6257
如是觀察	-11.6258
纓絡	-11.6258
堅牢	-11.626
佛祖	-11.6261
智藏	-11.6263
是無等等呪	-11.6264
以無所住為方便故	-11.6265
魅	-11.6266
重擔	-11.6266
薰	-11.6267
佛告慶喜	-11.6269
形貌	-11.6269
怠	-11.627
邑	-11.6271
憂悔	-11.6271
瓦	-11.6271
綺	-11.6272
剎利	-11.6273
開演	-11.6274
隨說是經	-11.6276
折伏	-11.6277
妄計	-11.6278
四倒	-11.628
麗	-11.628
諾	-11.6282
金剛定	-11.6282
有幾	-11.6283
鞭	-11.6283
基	-11.6285
作是行	-11.6286
間雜	-11.6287
人壽	-11.629
形容	-11.6294
假號	-11.6296
不昧	-11.6299
薄福	-11.63
酥	-11.6303
科判	-11.6306
各隨	-11.631
金剛薩埵	-11.6311
設使	-11.6315
於虛空中	-11.6318
解悟	-11.6322
能作是念	-11.6323
佛像	-11.6325
諸佛無上正等菩提離	-11.6332
我亦不見	-11.6335
習忍	-11.6341
明度無極	-11.6342
無作無為	-11.6342
目前	-11.6346
說譬喻	-11.635
:「『	-11.6355
及弟子眾	-11.6355
終始	-11.6355
汝意云何	-11.6361
如來有佛眼	-11.6365
不得自在	-11.6372
王宮	-11.6373
無取著	-11.6374
於何法	-11.6382
為燈為照	-11.6383
為解為覺	-11.6383
□□□□	-11.6384
為救為護	-11.6384
為智為慧	-11.6384
善現隨如來生	-11.6387
未達	-11.6389
無所礙	-11.639
今時應學不應作證	-11.6391
忍波羅蜜	-11.6393
無造無作	-11.6393
內外空及有無空	-11.6394
則此大乘非尊非勝	-11.6396
若菩薩摩訶薩能如是行	-11.6396
為不退轉地菩薩摩訶薩遮遣	-11.6398
餘妄語	-11.6398
轉妙法輪度無量眾	-11.6399
我及我所	-11.6399
如汝所言	-11.64
轉正法輪	-11.6402
力用	-11.6402
屬生死屬涅槃	-11.6402
真如即如來真如	-11.6403
菩薩所作福德	-11.6404
起空想著	-11.6405
若樂小法者	-11.6405
若尊重弟子	-11.6406
不能聽受讀誦	-11.6406
有佛無佛	-11.6407
此云覺	-11.6407
實無有法名為菩薩	-11.6407
當知般若波羅蜜多亦無生	-11.6408
於真如如是學	-11.6409
如來因般若波羅蜜多故	-11.6409
別序	-11.641
或有人聞	-11.6412
具足檀波羅蜜	-11.6413
便能證得一切智智	-11.6413
精進波羅蜜	-11.6416
我行於	-11.6417
無雜	-11.6418
眾生眾生者	-11.6418
華嚴經	-11.6418
海水	-11.642
憙	-11.642
如來有所說法耶	-11.6422
黨	-11.6422
法性如來可得	-11.6423
毒蛇	-11.6423
慧命須菩提	-11.6424
悋	-11.6425
屬生死	-11.6428
見佛性	-11.6428
一切智智離	-11.6429
鈎	-11.643
愁憂	-11.643
管	-11.6431
▁後引	-11.6431
包含	-11.6433
能生信心	-11.6433
真如如來真如可得	-11.6435
六衰	-11.6435
乍	-11.6436
周圓	-11.6437
而於其中不	-11.6437
須菩提語舍利弗	-11.6439
康	-11.6439
便證無上正等菩提	-11.644
貝	-11.6441
綸	-11.6443
史	-11.6446
所得果	-11.6446
況有念	-11.6446
不復更	-11.6447
十卷	-11.645
領悟	-11.645
尚未	-11.6452
繫念	-11.6454
菩薩摩訶薩應如是	-11.6456
全彰	-11.6457
湛然清淨	-11.6458
并餘	-11.6459
常存	-11.6459
初品中	-11.646
發起序	-11.646
仁王經	-11.6462
了別	-11.6463
莫能	-11.6463
止遣	-11.6467
酪	-11.6469
如來有所說法	-11.647
則非菩薩	-11.648
學無學	-11.6482
不可思議性	-11.6483
如來有肉眼	-11.6485
今約	-11.6485
清淨故道相智清淨	-11.6491
新發意	-11.6491
一向無	-11.6502
種性地	-11.6511
通序	-11.6513
奇特	-11.6513
諍論	-11.6513
獨覺菩提離	-11.6519
三十五	-11.6527
無量無數無邊有情	-11.6536
如須彌山	-11.6538
善不善	-11.654
非想非非想處	-11.6545
大弟子	-11.6548
當知無數亦無所有	-11.655
當知無邊亦無所有	-11.655
從此以下	-11.655
真遠離行	-11.6551
為諸有情宣說開示	-11.6551
比量	-11.6552
我當有所說法	-11.6554
譬喻所不能及	-11.6554
一切菩薩摩訶薩行離	-11.6556
不誑語者	-11.6556
壞法界耶	-11.6557
及所壞滅	-11.6557
及彼因果	-11.6559
無見無得	-11.6559
是人不解我所說義	-11.656
性命	-11.6562
右遶	-11.6562
無染無淨故清淨	-11.6563
勝利	-11.6563
從本已來	-11.6566
矯	-11.6568
聞說是法	-11.6568
無數無所有故	-11.6569
不可分別	-11.6569
法性如來法性可得	-11.6569
於一切眾生中	-11.6569
菩薩摩訶薩學般若波羅蜜	-11.6569
并諸	-11.6571
不可取故無染污	-11.6571
乾闥婆	-11.6571
屢	-11.6572
細滑	-11.6573
常無常增語	-11.6573
恍忽	-11.6573
諂	-11.6576
板	-11.6577
堪任	-11.6577
更無餘	-11.6579
人法俱空	-11.6579
應爾	-11.6582
名摩訶薩	-11.6582
愍念	-11.6584
絲毫	-11.6586
效	-11.6586
別有法界	-11.6588
骸	-11.6589
怨家	-11.659
實無眾生	-11.6593
朱	-11.6594
螺	-11.6594
緣一覺	-11.6594
幼	-11.6595
勿動	-11.6598
寂默	-11.6599
四部弟子	-11.6599
如諸如來	-11.66
百千萬億分	-11.6603
惱害	-11.6604
未甞	-11.6605
求證無上正等菩提	-11.6607
不執受	-11.6609
亦不可取	-11.6614
心所念	-11.6615
身心精進	-11.6615
圓成實性	-11.6619
奉施	-11.662
有如是分別	-11.6624
猶存	-11.6624
誦念	-11.6624
無所依止	-11.6629
閻浮提中	-11.6634
羣生	-11.6637
與般若波羅蜜多清淨	-11.6642
眼目	-11.6648
無有量	-11.6649
無上菩提之	-11.6663
於此三千大千世界	-11.6667
信行地	-11.6668
外財	-11.6675
於一切處	-11.6681
四十八	-11.6685
第十五	-11.6691
即非世界	-11.6696
誰迴向	-11.6698
邊地	-11.6701
當知無量亦無所有	-11.6708
中無如是分別	-11.6709
流出何法	-11.671
不取不捨為方便故	-11.671
清淨即一切智智清淨	-11.6711
剎利大姓	-11.6711
當何名此經	-11.6713
問意云	-11.6714
百千億	-11.6715
初分校量功德品第三十之	-11.6717
不恐不怖	-11.6719
不證漏盡	-11.672
當知般若波羅蜜多亦無自性	-11.672
若時菩薩摩訶薩行深般若波羅蜜多	-11.672
我是離欲阿羅漢	-11.6721
摩訶薩般若波羅蜜多名大波羅蜜多	-11.6721
乃至無有少法可得	-11.6722
複	-11.6722
當知般若波羅蜜多亦不可思議	-11.6722
譽	-11.6723
迷謬	-11.6725
如來說非微塵	-11.6726
佛述	-11.6726
當知般若波羅蜜多亦遠離	-11.6726
宣揚	-11.6729
狐	-11.673
轉少分人	-11.6733
千分	-11.6733
往詣	-11.6734
此既不生則非	-11.6737
迅	-11.674
無有差別	-11.6741
象馬	-11.6741
釋迦文佛	-11.6742
祝	-11.6744
▁初問	-11.6744
穴	-11.6746
泥犁	-11.6746
渠	-11.6747
資財	-11.6748
於中有三	-11.6749
躍	-11.6749
都不見有	-11.6752
醉	-11.6752
是事實	-11.6753
殊妙	-11.6753
偈釋	-11.6755
是為不見	-11.6755
如偈說	-11.6755
茫	-11.6757
弭	-11.6757
戍	-11.6758
吞	-11.676
糞	-11.6761
未了	-11.6765
淨命	-11.6769
卷第九	-11.677
一貫	-11.6778
等諸煩惱	-11.678
都無所見	-11.6782
顯揚	-11.6783
百姓	-11.6784
汝等不能	-11.6785
隨信行	-11.6792
過去未來	-11.6796
養育	-11.6802
尊者舍利子	-11.6807
滿三千大千世界七寶	-11.6814
入胎	-11.6822
加行位	-11.6823
除去	-11.6827
設利羅	-11.6831
亦復然	-11.6833
可取可著	-11.6833
深遠	-11.6843
以為依附	-11.6851
本師	-11.6856
得菩提耶	-11.686
一切法平等性	-11.686
波羅蜜多是般若波羅蜜多	-11.6864
惑障	-11.6864
而生於識	-11.6867
相即非相	-11.6868
乃至安坐妙菩提座	-11.687
廣為有情宣說流布	-11.6871
與一切智智清淨	-11.6872
無上丈夫	-11.6872
隨喜迴向亦應如是	-11.6875
說彼甲冑不屬	-11.6876
儀軌	-11.6876
以福德無故	-11.6876
受阿耨多羅三藐三菩提記	-11.6877
施他讀誦	-11.6877
如來說有我者	-11.6878
十方如恒河沙等世界	-11.6878
樂苦增語	-11.688
疾近	-11.688
我當莊嚴佛土	-11.688
有情作大饒益	-11.6881
當知般若波羅蜜多亦無滅	-11.6881
菩薩但應如所教住	-11.6881
亦令解脫無	-11.6881
▁切	-11.6882
雜染清淨增語	-11.6882
得授記	-11.6882
有願無願增語	-11.6883
千萬億	-11.6884
依內依外依兩中間不可得故	-11.6884
我無我增語	-11.6885
當知般若波羅蜜多亦無所有	-11.6886
住菩薩不退轉地	-11.6889
淨不淨增語	-11.6889
後際無所有性	-11.689
空不空增語	-11.6892
燋	-11.6893
諸經法	-11.6895
和合故有	-11.6896
即說呪曰	-11.6897
兮	-11.69
水陸	-11.69
院	-11.6903
是故空中無色	-11.6903
斗	-11.6907
項	-11.6908
如是般若波羅蜜多甚深經典	-11.6909
阿脩羅	-11.6909
聖眾	-11.6912
非可貪	-11.6913
鑿	-11.6914
金剛喻定	-11.6915
靡不	-11.6915
閻	-11.6915
豐樂	-11.6916
樹木	-11.6916
抵	-11.6917
丈六	-11.6919
莎訶	-11.6919
悶	-11.6919
工夫	-11.692
菩薩應如是布施	-11.692
死苦	-11.6922
羅蜜	-11.6923
清淨即般若波羅蜜多清淨	-11.6925
於此般若波羅蜜多甚深經典	-11.6934
而行施	-11.6935
當作是知	-11.6935
能聽	-11.6944
普明王	-11.6944
其母	-11.6945
住無所住	-11.6945
大梵天王	-11.6952
遠離不遠離增語	-11.6953
修善法	-11.6954
七寶塔	-11.6965
次歎	-11.6965
淨心地	-11.6969
極喜	-11.6972
心心所法	-11.698
三十三	-11.6984
頓教	-11.6985
作饒益	-11.6986
堪受	-11.699
觀禮	-11.6991
大旨	-11.6999
過罪	-11.7002
華蓋	-11.701
離慢	-11.7011
縱廣	-11.7013
五品	-11.7021
不沈	-11.7022
結成疑	-11.7024
有為性	-11.7024
非我亦無散失	-11.7025
流轉苦	-11.7025
始覺	-11.7025
菩薩摩訶薩大乘相	-11.7026
作漸次業	-11.7027
化利	-11.7027
婆羅	-11.7027
之士	-11.7028
純淨	-11.7028
有增有減	-11.703
何況空中有未來	-11.7032
無為亦無散失	-11.7033
明行圓滿	-11.7033
復以種種上妙花鬘	-11.7034
非樂亦無散失	-11.7035
調御士	-11.7035
非常亦無散失	-11.7036
見由是法有取有著	-11.7037
由有菩薩摩訶薩故	-11.7037
萬歲	-11.7038
清淨與果清淨	-11.7038
非菩薩非甲冑	-11.704
無願亦無散失	-11.704
若新學大乘菩薩摩訶薩不依般若	-11.7041
中際無所有性	-11.7041
解脫智見	-11.7041
我今實言告汝	-11.7043
何況其沙	-11.7043
不縛不解	-11.7043
屬生死屬涅槃增語	-11.7043
如來昔在然燈佛所	-11.7044
在內若在外若在兩間	-11.7044
寂靜亦無散失	-11.7045
當知般若波羅蜜多亦無覺知	-11.7046
當知般若波羅蜜多亦無願	-11.7048
不以二故攝受	-11.7048
有相無相增語	-11.7048
如來為發大乘者說	-11.7049
當知般若波羅蜜多亦寂靜	-11.7049
玄妙	-11.7049
難信解	-11.705
]	-11.705
是故如來說福德多	-11.705
菩薩摩訶薩所行般若波羅蜜多亦大	-11.705
至薩云若	-11.7051
有覺有觀	-11.7051
空即色	-11.7054
疾得阿耨多羅三藐三菩提	-11.7055
如焰	-11.7055
有記法	-11.7055
不相屬	-11.7056
許多	-11.7058
發心修行	-11.7059
於此中學	-11.7059
品第三十	-11.7062
顏丙	-11.7063
此一節	-11.7066
迴向薩婆若	-11.7067
所應供養	-11.7067
猛利	-11.7068
促	-11.7068
亦作大作小	-11.707
涅	-11.707
衢	-11.707
▁蜜多	-11.7071
無量阿僧祇眾生	-11.7072
鄰	-11.7072
乃爾	-11.7072
彼何所	-11.7072
蕉	-11.7073
艱	-11.7074
譏	-11.7076
菴	-11.7077
芥	-11.7078
抱	-11.7079
離諸戲論	-11.7079
不壞假名	-11.708
村	-11.708
果清淨即	-11.7082
而無所入	-11.7083
當知般若波羅蜜多亦空	-11.7085
離邪見	-11.7086
天眼見	-11.7086
籍	-11.7086
給孤獨	-11.7089
學六波羅蜜	-11.7091
寂靜不寂靜增語	-11.7092
來至此	-11.7093
阿羅漢果離	-11.7094
菩薩摩訶薩大乘相者	-11.7096
有淺深	-11.7097
陰陽	-11.7098
證信序	-11.71
所傳	-11.7106
中際自性故	-11.7111
能令眾生	-11.7118
蒙佛	-11.712
俱胝分不及一	-11.7132
惠施	-11.7136
座上	-11.7147
其旨	-11.7149
正宗分	-11.7162
親見	-11.7163
教他修	-11.7165
金剛輪	-11.7169
菩提資糧	-11.7169
如來有天眼	-11.7171
善士	-11.7172
一毫	-11.7177
深密	-11.7177
行安忍者	-11.7183
有情離故	-11.7191
菩薩摩訶薩於色法中	-11.7193
善巧智	-11.7195
住大乘善男子等	-11.7195
皆不可行	-11.7196
離故一切智智亦離	-11.7198
經一晝夜	-11.7198
生信心不	-11.7199
雖於先世得聞	-11.72
色像	-11.72
在兩間增語是菩薩摩訶薩	-11.7201
遠離亦無散失	-11.7201
以恒河沙等身布施	-11.7201
非合非散	-11.7203
若樂若苦增語是菩薩摩訶薩	-11.7206
我等云何奉持	-11.7206
善女人等書寫如是甚深般若波羅蜜多	-11.7206
若我若無我增語非菩薩摩訶薩	-11.7207
空亦有出住	-11.7207
若樂若苦增語非菩薩摩訶薩	-11.7207
若新學大乘菩薩摩訶薩依般若	-11.7208
若常若無常增語是菩薩摩訶薩	-11.7208
若我若無我增語是菩薩摩訶薩	-11.7208
若雜染若清淨增語非菩薩摩訶薩	-11.7209
若可得若不可得增語是菩薩摩訶薩	-11.7209
含受	-11.7209
若屬生死若屬涅槃增語非菩薩摩訶薩	-11.721
九喻	-11.721
本性可能迴向	-11.721
端緒	-11.721
可得不可得增語	-11.7211
若世間若出世間增語是菩薩摩訶薩	-11.7211
若有相若無相增語是菩薩摩訶薩	-11.7211
若屬生死若屬涅槃增語是菩薩摩訶薩	-11.7211
若善若非善增語非菩薩摩訶薩	-11.7211
若生若滅增語非菩薩摩訶薩	-11.7211
若有漏若無漏增語非菩薩摩訶薩	-11.7212
若善若非善增語是菩薩摩訶薩	-11.7212
若有相若無相增語非菩薩摩訶薩	-11.7212
若空若不空增語是菩薩摩訶薩	-11.7212
若有煩惱若無煩惱增語非菩薩摩訶薩	-11.7212
若寂靜若不寂靜增語非菩薩摩訶薩	-11.7212
若有罪若無罪增語是菩薩摩訶薩	-11.7212
若寂靜若不寂靜增語是菩薩摩訶薩	-11.7212
若有為若無為增語是菩薩摩訶薩	-11.7213
退坐一面	-11.7213
勢力不成就故	-11.7213
若可得若不可得增語非菩薩摩訶薩	-11.7213
善非善增語	-11.7213
有罪無罪增語	-11.7213
當知般若波羅蜜多勢力亦不成就	-11.7213
當於一切有情起	-11.7213
坐菩提座	-11.7213
若世界實有者	-11.7214
有漏無漏增語	-11.7214
凡情	-11.7214
迷悶	-11.7214
若淨若不淨增語是菩薩摩訶薩	-11.7215
怯	-11.7215
若正信解	-11.7216
圓滿及不圓滿	-11.7216
有為無為增語	-11.7216
生實信不	-11.7217
以今世人輕賤故	-11.7217
見思	-11.7217
菩薩摩訶薩所行般若波羅蜜多亦說	-11.7218
當知般若波羅蜜多亦不可得	-11.7222
一經之	-11.7222
發勤精進	-11.7225
思業	-11.7227
無依處	-11.723
不思惟一切相	-11.7231
耽	-11.7231
豁	-11.7232
行精進者	-11.7233
初唱經	-11.7234
劇	-11.7235
債	-11.7236
內財	-11.7237
金花	-11.724
姑	-11.724
自性無故	-11.7241
皆有佛性	-11.7243
摩訶衍亦如是	-11.7243
少惱	-11.7243
裡	-11.7244
為所依止	-11.7244
揮	-11.7245
涅槃經云	-11.7245
所依止	-11.7246
欝	-11.7247
冰	-11.7247
槃	-11.7247
隨意所	-11.7247
鋒	-11.725
暫捨	-11.7251
無暇	-11.7251
桃	-11.7253
皆本性空故	-11.7254
中亦有	-11.7255
無量種	-11.7262
六欲天	-11.7263
喜足	-11.7266
流注	-11.7271
觀諸法空	-11.7273
面門	-11.7274
至菩薩所	-11.7274
承上文	-11.7277
諸禪定	-11.7285
於然燈佛所	-11.7285
誑惑	-11.7287
十二年	-11.7289
十二緣	-11.7291
成阿耨多羅三藐三菩提	-11.7294
須陀	-11.7296
右手	-11.7297
拔苦	-11.7298
可畏	-11.7303
所譯	-11.7304
作是語	-11.7305
大般若經	-11.731
明暗	-11.7325
自性無所有不可得	-11.7329
隨類	-11.7334
俱遣	-11.734
一切法不可得故	-11.734
釋迦如來	-11.734
▁二約	-11.7346
大品經	-11.7349
波羅密	-11.7355
而於此事無所取著	-11.7357
得無上正等覺時	-11.736
極為甚深	-11.7362
皆以無性而為自性	-11.7363
十界	-11.7366
執著有性	-11.7367
二乘地	-11.7369
而不請問甚深義趣	-11.737
不可得故作者不可得	-11.7375
眾緣和合	-11.7378
所稱讚	-11.7379
執我及世間	-11.7379
若雜染若清淨增語是菩薩摩訶薩	-11.7379
而實無往來	-11.7379
若常若無常增語非菩薩摩訶薩	-11.7379
阿鞞跋致菩薩	-11.738
若有煩惱若無煩惱增語是菩薩摩訶薩	-11.738
眼乃至意	-11.738
若世間若出世間增語非菩薩摩訶薩	-11.738
若淨若不淨增語非菩薩摩訶薩	-11.738
若有漏若無漏增語是菩薩摩訶薩	-11.738
有煩惱無煩惱	-11.7381
若有願若無願增語非菩薩摩訶薩	-11.7381
若生若滅增語是菩薩摩訶薩	-11.7381
若有願若無願增語是菩薩摩訶薩	-11.7381
有煩惱無煩惱增語	-11.7381
若復有人得聞是經	-11.7381
若空若不空增語非菩薩摩訶薩	-11.7382
若遠離若不遠離增語非菩薩摩訶薩	-11.7382
寂照	-11.7383
不入色聲香味觸法	-11.7383
屬涅槃增語是菩薩摩訶薩	-11.7383
若是經典所在之處	-11.7384
持說此經	-11.7384
甚多於彼無量無邊	-11.7385
甲冑	-11.7385
二別顯	-11.7387
其心不驚	-11.7387
漸次圓滿	-11.7388
藐	-11.7388
我當度眾生	-11.7388
阿閦佛	-11.7389
如實覺	-11.7389
前際無所有性	-11.7389
深生憐愍	-11.739
聞說是經	-11.7392
可得若不可得	-11.7394
不如有人	-11.7394
如來得阿耨多羅三藐三菩提耶	-11.7395
乏受用	-11.7396
修學此法	-11.7398
如來悉知是人	-11.7398
適悅	-11.7398
如露亦如電	-11.7398
多亦離	-11.7399
暴	-11.74
三賢十聖	-11.7403
人法二空	-11.7403
是為魔事	-11.7403
膽	-11.7403
迴向無上菩提	-11.7404
爍	-11.7406
游	-11.7406
米	-11.7408
色即是空空即是色	-11.7408
練磨	-11.7409
緊	-11.7409
四維	-11.741
仲	-11.741
李	-11.7413
刃	-11.7413
焚	-11.7413
顯經勝	-11.7413
究竟即非	-11.7414
稽	-11.7414
色界諸天子	-11.7414
司	-11.7415
餘殘	-11.7417
㸦	-11.7417
歷劫	-11.742
得阿羅漢道	-11.742
羯磨	-11.7421
逕	-11.7422
些	-11.7423
我人等見	-11.7426
蜜多	-11.7426
溫	-11.7429
三十四	-11.7432
未始	-11.7434
釋氏	-11.7436
習種	-11.7442
一切諸法皆	-11.7445
離故六波羅蜜	-11.7448
金剛藏	-11.7448
惡獸	-11.745
眾僧	-11.745
靈山	-11.7452
無現觀	-11.7456
是不名菩薩	-11.7458
一片	-11.7458
性尚無所有	-11.746
不墮惡趣	-11.7463
清淨故無相解脫門清淨	-11.7475
堪能	-11.7475
皆得自在	-11.7487
即生實相	-11.7488
寂光	-11.7491
夢見	-11.7493
以何因緣	-11.7499
如來真如即	-11.75
轉還	-11.7505
日輪	-11.7508
際是名	-11.7508
有為之法	-11.7511
如來有法眼	-11.7511
親近諸佛	-11.7512
常作是念	-11.752
清淨故四無量清淨	-11.7522
阿惟三佛	-11.7524
若菩薩摩訶薩不思惟	-11.7531
若法本性空則	-11.7531
畢竟都無所有	-11.7534
亦不行於	-11.7534
行於非處	-11.7534
還去	-11.7537
無常無恒	-11.754
佛可以具足色身見不	-11.7541
十方無邊世界	-11.7543
相非相	-11.7543
花鬘	-11.7544
如來說是沙	-11.7547
是故說不受福德	-11.7548
汝勿謂如來作是念	-11.7548
兜率陀天	-11.7548
轉妙法輪度有情眾	-11.7548
說是清淨本無雜染	-11.7549
說是清淨最為甚深	-11.755
令獲究竟常樂涅槃	-11.755
令其易了	-11.7551
說是清淨本性光潔	-11.7551
說是清淨不轉不續	-11.7551
阿蘭那	-11.7552
無作無止	-11.7552
乃能具足修諸菩薩摩訶薩行	-11.7553
世間出世間增語	-11.7554
若有罪若無罪增語非菩薩摩訶薩	-11.7554
如筏喻者	-11.7554
若有為若無為增語非菩薩摩訶薩	-11.7555
不起不思議想	-11.7555
如來說諸心	-11.7556
非所作故	-11.7557
而無二想	-11.7557
則能證得一切智法	-11.7557
若能證得一切智法	-11.7557
威勢	-11.7558
水劫	-11.7559
娛	-11.7559
西來	-11.7562
云何當學	-11.7562
階級	-11.7562
6	-11.7563
無可說事	-11.7564
幟	-11.7564
舍利子便白佛言	-11.7566
閣	-11.7566
憂悲苦惱	-11.7568
不自在故	-11.7571
嗅	-11.7571
當知般若波羅蜜多亦無相	-11.7572
亦不退失	-11.7573
槩	-11.7575
無可得事	-11.7576
巖	-11.7577
我人知見	-11.758
或一來果	-11.758
遍一切處	-11.7581
輒	-11.7581
廣長舌	-11.7583
煉	-11.7583
衰損	-11.7583
不一不異	-11.7584
薪	-11.7586
天宮	-11.7586
住菩薩乘善男子等	-11.7586
黎	-11.7587
費	-11.7588
悲泣	-11.7588
踐	-11.7588
豎	-11.759
掛	-11.759
爾所劫	-11.759
是名微塵眾	-11.7591
清淨故法界清淨	-11.7592
靡	-11.7592
暮	-11.7595
瞿	-11.7595
脇	-11.7596
五情	-11.7597
跛	-11.7598
行淨戒者	-11.7601
行布施時	-11.7601
持戒修福	-11.7602
拔出	-11.7603
我作是說	-11.7604
能如是學	-11.7606
墮三惡道	-11.7609
襲	-11.761
四十二字	-11.7614
三十二分	-11.7615
諸菩薩摩訶薩從初發心	-11.7619
修菩薩道	-11.7622
惡鬼	-11.7625
初文二	-11.7627
無一物	-11.7628
衣鉢	-11.7628
輪寶	-11.7631
無所執	-11.7643
墮聲聞或獨覺地	-11.7646
教誡	-11.7653
悟真空	-11.7661
無所罣礙	-11.7665
是菩薩摩訶薩能於	-11.7675
爾乃	-11.7675
得生長	-11.7685
世間純無相	-11.7687
持鉢	-11.7692
神通波羅蜜多	-11.7694
清淨故四無色定清淨	-11.7694
清淨故淨戒波羅蜜多清淨	-11.7698
清淨故一來果清淨	-11.7702
清淨故集聖諦清淨	-11.7705
雖能示現	-11.7705
如是般若波羅蜜多甚深理中	-11.7708
離貪欲	-11.7709
是菩薩摩訶薩能與六種波羅蜜多	-11.7711
發生隨喜迴向無上正等菩提	-11.7717
清淨故無願解脫門清淨	-11.7719
八由行	-11.7719
與諸有情作大饒益	-11.772
若福德有實	-11.7721
無文字是	-11.7722
三藏法師玄奘奉詔譯第二分	-11.7722
亦無住異而可施設	-11.7722
散無散空	-11.7722
居輕利	-11.7722
若轉書寫	-11.7727
異故性亦應異	-11.7728
所縛	-11.7729
無邊不可思議清淨佛法	-11.773
既不墮三界	-11.773
無性自性無動	-11.773
廣為他說	-11.7731
若遠離若不遠離增語是菩薩摩訶薩	-11.7731
在內在外在兩間增語	-11.7731
而生貪愛	-11.7731
當知如是住及作意亦無	-11.7731
離即一切智智離	-11.7732
若是所遍知若非所遍知	-11.7733
諷	-11.7733
杵	-11.7735
清淨故八勝處清淨	-11.7735
3	-11.7736
二十七疑	-11.7737
▁南無	-11.7739
勇健	-11.7741
是人先世罪業	-11.7741
四段	-11.7742
倪	-11.7742
清淨故四正斷清淨	-11.7743
清淨故四無所畏清淨	-11.7744
阿僧祗	-11.7744
難勝地	-11.7745
覺滿	-11.7745
渧	-11.7745
清淨故外空清淨	-11.7745
老病	-11.7746
敬信	-11.7747
珂	-11.7752
拾	-11.7752
聊	-11.7753
耐	-11.7754
掩	-11.7757
潭	-11.7757
本寂	-11.7758
一切如來應正等覺	-11.7758
一切智智清淨即	-11.7759
異畢竟不生	-11.7761
上二界	-11.7761
繫屬	-11.7761
逸	-11.7762
祀	-11.7764
名修般若波羅蜜多	-11.7768
下二明	-11.7769
祈	-11.777
乃至如來地	-11.7772
先尼	-11.7775
白淨	-11.7776
八正道	-11.7778
汝所問	-11.7779
檀越	-11.7782
新學	-11.7786
救度	-11.7787
自恃	-11.779
成實論	-11.7794
驚疑	-11.7799
大丈夫	-11.7802
兩字	-11.7803
結成疑也	-11.7807
摧伏	-11.7816
可以三十二相	-11.7818
此即第一	-11.7823
萬象	-11.7828
進趣	-11.7833
色無縛無解	-11.7837
益物	-11.784
正命	-11.7841
親承	-11.7843
所獲福	-11.7847
諸有為法	-11.7859
凡愚	-11.7869
佛說微塵眾	-11.7873
虛實	-11.7878
根未熟	-11.7881
文三初	-11.7887
悉知是人	-11.7892
如來說人身長大	-11.7895
四無礙慧	-11.7896
無相無狀無言無說	-11.7896
有實性者	-11.7897
永斷一切煩惱習氣相續	-11.7898
亦不思惟一切所緣	-11.7898
性輪故	-11.7899
都無實性	-11.7899
菩薩無住相布施	-11.7899
清淨故五根清淨	-11.79
南西北方四維上下	-11.79
修行般若波羅蜜多觀諸法時	-11.79
云何可言此是	-11.7905
所言法相者	-11.7905
蔑	-11.7905
造作諸業	-11.7907
相相應之心	-11.7908
而實無不來	-11.7909
以音聲求我	-11.791
造作增長	-11.7911
中千世界	-11.7913
名應知不應著	-11.7913
魏經	-11.7914
疲倦	-11.7914
受諸苦惱	-11.7916
甘蔗	-11.7916
與眾生共	-11.7916
生信心	-11.7918
即為非住	-11.7921
寂靜散亂	-11.7922
無所得而為方便	-11.7922
所護念	-11.7924
不離於法界	-11.7925
行靜慮者	-11.7925
刊定記	-11.7925
合掌恭敬而白佛言	-11.7926
洹	-11.7929
速圓滿	-11.793
悞	-11.7931
清淨故無為空清淨	-11.7932
清淨故自相空清淨	-11.7932
清淨故共相空清淨	-11.7933
清淨故四神足清淨	-11.7933
清淨故法定清淨	-11.7934
清淨故大空清淨	-11.7934
清淨故大慈清淨	-11.7934
清淨故平等性清淨	-11.7934
清淨故精進波羅蜜多清淨	-11.7935
鑁	-11.7935
清淨故無際空清淨	-11.7935
隣近	-11.7935
清淨故無變異空清淨	-11.7935
清淨故散空清淨	-11.7935
清淨故離生性清淨	-11.7936
清淨故空空清淨	-11.7936
清淨故大悲清淨	-11.7936
毗曇	-11.7936
清淨故自性空清淨	-11.7937
清淨故無性空清淨	-11.7937
清淨故有為空清淨	-11.7937
清淨故畢竟空清淨	-11.7938
清淨故不可得空清淨	-11.7938
清淨故四無礙解清淨	-11.7938
清淨故大捨清淨	-11.7938
清淨故不還果清淨	-11.7938
清淨故七等覺支清淨	-11.7939
料簡	-11.794
飽	-11.794
清淨故九次第定清淨	-11.794
清淨故靜慮波羅蜜多清淨	-11.7942
清淨故法性清淨	-11.7943
腰	-11.7943
鬱	-11.7945
下第三明	-11.7945
阿彌陀佛	-11.7945
滌	-11.7946
可取可著不	-11.7946
裸	-11.7947
廓然	-11.795
豆	-11.795
側	-11.7951
鞞	-11.7954
昭然	-11.7955
彼岸到	-11.7963
無量無邊有情	-11.7971
長壽	-11.7973
不住六塵	-11.7978
二乘之人	-11.798
能受持讀誦此經	-11.7983
邪命	-11.7985
對待	-11.7986
布施波羅蜜多乃至般若波羅蜜多離	-11.7988
四洲	-11.7989
菩薩句義無所有	-11.7995
有菩薩摩訶薩耶	-11.7996
宣說法要	-11.7997
應勤修學	-11.7997
無嗔	-11.7998
執情	-11.8003
支體	-11.8008
清淨故無性自性空清淨	-11.801
不隨他	-11.8012
清淨故八聖道支清淨	-11.8012
清淨故不思議界清淨	-11.8013
清淨故十八佛不共法清淨	-11.8017
若菩薩摩訶薩行深般若波羅蜜多	-11.802
根本無明	-11.8022
何容	-11.8027
無礙解脫	-11.803
開發	-11.8032
未熟	-11.8035
隨俗	-11.8036
為世間作	-11.8038
十里	-11.8038
入地獄	-11.805
復有無量	-11.8056
色即空	-11.806
未發心	-11.8066
三總結	-11.8067
三藐	-11.807
足迹不可得故	-11.8071
猶尚	-11.8072
出世間亦無散失	-11.8073
五十七	-11.8075
故名為大	-11.8076
有變有易	-11.8076
說是清淨無得無觀	-11.8077
我但廣稱讚般若波羅蜜多	-11.8079
無惑無疑	-11.8079
無染亦無散失	-11.808
布施等六波羅蜜多	-11.808
正等覺皆依般若波羅蜜多	-11.8081
說是清淨無生無顯	-11.8082
以無量種上妙	-11.8082
承佛威神	-11.8084
空亦無散失	-11.8085
當知作意亦非有	-11.8086
無相亦無散失	-11.8087
如恒河中所有沙	-11.8087
誠如所說	-11.8088
彈指頃	-11.8089
諸菩薩摩訶薩要不思惟	-11.8089
鄔波索迦	-11.8089
離故有情離	-11.8089
於然燈佛前	-11.809
富貴自在	-11.8091
無漏亦無散失	-11.8091
得如是無量福德	-11.8092
十方各如殑伽沙等世界諸有情類	-11.8092
來詣佛所	-11.8092
離間語	-11.8093
可以三十二相見如來不	-11.8094
清淨故十遍處清淨	-11.8095
應觀諸法自相皆空故學	-11.8097
歎未曾有	-11.8098
割截身體	-11.8098
碎為微塵	-11.8098
兜率天	-11.8099
教誡教授諸菩薩摩訶薩	-11.8099
想退轉故名不退轉	-11.8101
非一異	-11.8102
無所有處定	-11.8103
如來說為非	-11.8105
故說般若波羅蜜多呪	-11.8108
無明緣行	-11.8108
清淨故阿羅漢果清淨	-11.8109
棄捨去	-11.811
菩薩摩訶薩如是行般若波羅蜜多	-11.811
中有菩薩摩訶薩不	-11.811
噫	-11.8113
倘	-11.8113
撿	-11.8113
□□□□□□	-11.8113
清淨故實際清淨	-11.8113
豫	-11.8113
清淨故勝義空清淨	-11.8114
或不還果	-11.8114
山河大地	-11.8115
憫	-11.8116
清淨故道聖諦清淨	-11.8116
禁戒	-11.8117
清淨故內外空清淨	-11.8118
千二百五十人	-11.8118
虗空界	-11.8119
清淨故大喜清淨	-11.8119
清淨故本性空清淨	-11.8119
展	-11.8119
萬二千	-11.8119
清淨故安忍波羅蜜多清淨	-11.812
清淨故不變異性清淨	-11.812
懺	-11.8121
清淨故法住清淨	-11.8121
清淨故一切法空清淨	-11.8121
如是行是行般若波羅蜜多	-11.8121
癡清淨即	-11.8121
疑網	-11.8123
如是學時	-11.8125
搏取	-11.8126
同真際	-11.8127
驢	-11.813
如來說一合相	-11.8134
世第一法	-11.8135
力勢	-11.8137
魔民	-11.8141
是名須陀洹	-11.8155
真如中有菩薩摩訶薩不	-11.8157
皆非實有	-11.8168
甚深義趣	-11.8172
普光	-11.8174
山林	-11.8175
令我國土	-11.8186
罪重	-11.819
修四念處	-11.8193
第十九	-11.8197
十二種	-11.8202
能示如來	-11.8204
有退轉	-11.8213
梵世	-11.8214
手執	-11.8216
空中未來	-11.8217
恭敬尊重讚歎	-11.8217
隨宜	-11.8219
答三問	-11.8221
燈明而為供養	-11.8229
應行布施	-11.8229
無畏施	-11.8231
福德因緣	-11.8231
或執有	-11.8242
退沒	-11.8248
修諸善法	-11.8255
性常空	-11.8257
毒藥	-11.8257
大神呪王	-11.8257
善亦無散失	-11.8259
無變無易	-11.8262
而無有一眾生實滅度者	-11.8262
亦不執著	-11.8263
眾生易度	-11.8264
是貪清淨與	-11.8265
乘於大乘	-11.8265
是瞋清淨與	-11.8266
所言一切法者	-11.8266
修靜慮時	-11.8266
實無有眾生如來度者	-11.8267
佛說是沙不	-11.8267
為無所得耶	-11.8267
呼須菩提而	-11.8268
如泡	-11.8268
無罪亦無散失	-11.8268
清淨亦無散失	-11.8269
色聲香味細滑法	-11.8269
是菩薩摩訶薩所擐甲冑不屬	-11.827
若增若減不知不得	-11.827
文有四	-11.8271
真如無量故般若波羅蜜多無量	-11.8271
是癡清淨與	-11.8271
無所倚	-11.8272
未曾得聞如是之經	-11.8273
我人眾生壽者四相	-11.8273
窮未來際	-11.8273
善女人等所獲福聚甚多於前	-11.8274
須陀洹能作是念	-11.8276
不相屬即	-11.8276
是故如來說名實相	-11.8276
不墮三界	-11.8277
若寂靜若不寂靜是為戲論	-11.8277
若遠離若不遠離是為戲論	-11.8278
無有作者	-11.8278
著不著相是行般若波羅蜜多	-11.8279
甚深性是行般若波羅蜜多	-11.8279
甚深性則非	-11.8279
難測量性則非	-11.828
難測量性是行般若波羅蜜多	-11.828
圓滿及不圓滿俱不名	-11.8281
無量性則非	-11.8282
無量性是行般若波羅蜜多	-11.8282
今生人中	-11.8283
若我若無我是為戲論	-11.8283
若樂若苦是為戲論	-11.8284
非斷非常	-11.8284
如來所說三千大千世界	-11.8284
若常若無常是為戲論	-11.8284
遠離顛倒夢想	-11.8286
純熟	-11.8287
乾慧地	-11.8288
我都不見	-11.8288
詎	-11.829
毋	-11.8291
真如甚深故般若波羅蜜多甚深	-11.8292
毀罵	-11.8293
叢	-11.8296
不可說不可說	-11.83
絡	-11.83
無量無邊功德	-11.8301
仁王護國	-11.8301
這裏	-11.8301
依深般若波羅蜜多	-11.8303
五分法身	-11.8303
拙	-11.8305
鑛	-11.8305
清淨故五力清淨	-11.8305
如上所說	-11.8306
祇園	-11.8307
眉間	-11.8309
湖	-11.8309
蹈	-11.8309
寥	-11.8309
清淨故滅聖諦清淨	-11.831
喝	-11.831
是名斯陀含	-11.8311
如文可知	-11.8311
為他宣說	-11.8312
煙	-11.8313
▁二依經斷疑	-11.8314
程	-11.8315
若樂若苦是行般若波羅蜜多	-11.8315
若我若無我是行般若波羅蜜多	-11.8315
若淨若不淨是行般若波羅蜜多	-11.8315
》、《	-11.8322
諸菩薩摩訶薩住第	-11.8325
虔	-11.8325
佛問須菩提	-11.8332
漿	-11.8333
智慧愚癡	-11.8334
□□□□□□□□□□	-11.8335
邪婬	-11.8336
不起著不	-11.8348
變易生死	-11.835
如來度者	-11.8352
倍復	-11.8358
則無所見	-11.8358
小千	-11.8359
能入一切	-11.8361
殑伽河	-11.8363
少病	-11.8364
六十四	-11.8374
頗見	-11.8381
從此第三結	-11.8384
於一切法都無所	-11.8384
亦勸他行	-11.839
波羅蜜多得圓滿故	-11.8397
佛與眾生	-11.8399
言說法身	-11.8399
僧伽	-11.84
究其	-11.8404
卷第二十	-11.8405
若干種	-11.8407
未忘	-11.841
何以但說	-11.8412
不遠離增語是菩薩摩訶薩	-11.8418
阿鞞跋致相	-11.842
一番	-11.8425
佛滅後	-11.8425
我人等	-11.843
得安樂	-11.8435
兜率	-11.8439
菩薩摩訶薩於識法中	-11.8441
求佛果	-11.8447
諸宿住事	-11.845
有法得阿耨多羅三藐三菩提不	-11.8451
我亦應學	-11.8451
入滅想受定	-11.8453
如來不說得福德多	-11.8455
疾證得一切智智	-11.8455
不有不無	-11.8455
百千分不及一	-11.8456
汝於來世當得作佛	-11.8456
相而不執著	-11.8457
假使充滿	-11.8458
有人持用布施	-11.8459
鄔波斯迦	-11.8459
事多善友	-11.846
無知無見	-11.846
當知作意亦無實	-11.846
當知作意亦遠離	-11.8461
當知作意亦空	-11.8461
當知作意亦無覺知	-11.8461
當知作意亦寂靜	-11.8461
勤勇懈怠	-11.8463
識無邊處定	-11.8463
者龍樹造後秦龜茲國三藏鳩摩羅什譯	-11.8463
讚勵	-11.8464
菩薩莊嚴佛土不	-11.8464
如來說具足色身	-11.8464
序品	-11.8464
值遇	-11.8466
性無相故無縛無解	-11.8468
姊妹	-11.847
有持戒修福者	-11.847
不可思議故如來所說不可思議	-11.8471
若淨若不淨是為戲論	-11.8472
非有性故	-11.8473
承佛神力	-11.8475
罣	-11.8476
頭面禮	-11.8477
▁初隨章敘疑	-11.8483
不受不取	-11.8483
言語道斷	-11.8485
四十九年	-11.8487
漫	-11.8487
璃	-11.849
工巧	-11.8491
碧	-11.8491
蠢	-11.8493
祇樹給孤獨園	-11.8493
圭	-11.8493
隨世俗	-11.8494
清淨故不虛妄性清淨	-11.8494
焦	-11.8495
啼哭	-11.8496
楞伽經	-11.8497
晦	-11.8497
修諸善	-11.8498
扣	-11.8499
烟	-11.8499
姊	-11.8499
麁細	-11.8501
踪	-11.8501
而有可得	-11.8501
膚	-11.8504
四十里	-11.8504
嶺	-11.8504
航	-11.8504
躡前	-11.8506
洗足巳	-11.8509
解深密	-11.8511
名譽	-11.8511
返照	-11.8511
問後答	-11.8511
求阿耨多羅三耶三菩	-11.8514
徧照	-11.8519
出血	-11.8521
我若作是念	-11.8523
如是不思惟	-11.8523
作此念	-11.8523
俱白佛言	-11.8527
何況餘	-11.8529
活命	-11.8534
具足諸相	-11.8535
提婆	-11.8539
無忘失	-11.8553
供養恭敬尊重讚歎	-11.8557
記莂	-11.8568
不測	-11.8569
受苦樂	-11.8573
𠰥	-11.8596
不出三界	-11.8606
如來有慧眼	-11.8611
諸苾芻	-11.8618
般若波羅蜜多乃至布施波羅蜜多	-11.8621
徵問	-11.8629
能學無量	-11.863
不移	-11.8633
譬如大海	-11.8634
▁三結	-11.8635
魔怨	-11.8635
誼	-11.8639
於何處	-11.864
此深妙法不為攝取	-11.864
皆令安住十善業道	-11.8641
由加行故	-11.8642
以寄世尊而為	-11.8644
清淨句義是菩薩句義	-11.8644
住想勝解	-11.8644
心不清淨	-11.8645
【△	-11.8645
如是等七寶聚	-11.8647
論釋云	-11.8648
無量殑伽沙等世界	-11.8649
首陀	-11.8649
修淨戒時	-11.865
無斷無別而可施設	-11.865
不住聲香味觸法布施	-11.8651
凌辱	-11.8652
佛說我得無諍三昧	-11.8652
是身為大不	-11.8653
當知作意亦無自性	-11.8653
甚深故般若波羅蜜多甚深	-11.8653
非前非後皆得人身	-11.8654
合掌向佛	-11.8654
福寧多不	-11.8654
解我所說	-11.8655
若是所遍知若非所遍知是為戲論	-11.8656
供養承事	-11.8657
則為非住	-11.8657
慈悲忿恚	-11.8658
四維上下	-11.8658
性無生故無縛無解	-11.866
性無願故無縛無解	-11.866
此性空中無生無	-11.8661
性無所有故無縛無解	-11.8661
性遠離故無縛無解	-11.8661
性寂靜故無縛無解	-11.8662
性無淨故無縛無解	-11.8662
9	-11.8662
相空故學	-11.8663
又說一切眾生	-11.8664
狂亂	-11.8665
第二偈	-11.8666
聞已受持	-11.8667
若菩薩摩訶薩作如是念	-11.8667
真如難測量故般若波羅蜜多難可測量	-11.8668
不執不著	-11.8671
平等真法界	-11.8673
乃至一切種智亦如是	-11.8674
無所有處天	-11.8675
如來說三十二相	-11.8676
救濟	-11.8676
乙	-11.8676
則不然	-11.8678
藥草	-11.8679
陸	-11.868
躬	-11.8681
六根六塵	-11.8681
級	-11.8684
生貪愛	-11.8684
薩婆多宗	-11.8685
則不名菩薩	-11.8686
叫	-11.8687
欽	-11.8688
如來有佛眼不	-11.869
麟	-11.8691
丸	-11.8691
轍	-11.8693
宏	-11.8693
恥	-11.8693
茶	-11.8694
鳩摩羅什	-11.8694
比丘比丘尼	-11.8694
汗	-11.8695
終不取著	-11.8696
若常若無常是行般若波羅蜜多	-11.8698
抄	-11.8699
宴坐	-11.8705
彼內空乃至無性自性空無二無二分	-11.8712
大分有	-11.8713
虗假	-11.8716
逮薩云若	-11.8717
從此第四	-11.8719
佛言如是如是	-11.8724
入般若波羅蜜中	-11.8725
科文	-11.8728
從此第三明	-11.874
無量阿僧祇世界	-11.8758
聞是語	-11.8758
妙花	-11.8764
至菩提終	-11.8767
兩足	-11.8771
有增減	-11.8772
阿鞞跋致菩薩摩訶薩	-11.8778
決斷	-11.8784
得三菩提	-11.8786
耳鼻舌身	-11.8793
遣此修	-11.8796
依舊	-11.8802
』「『	-11.8803
善惡業	-11.8807
於般若波羅蜜多甚深經典	-11.8812
偈云下	-11.8815
一切法自性皆空	-11.882
由此業故施設	-11.8822
滅度一切眾生巳	-11.8832
涅盤	-11.8837
瞋清淨即	-11.8838
為欲饒益諸有情故	-11.884
修安忍時	-11.8841
離害生命	-11.8842
而於其中都無所住	-11.8845
法涌菩薩	-11.8845
可以三十二相觀如來不	-11.8846
知我說法	-11.8847
界虛空界是名	-11.8848
皆得成就無量無邊功德	-11.8849
觀於如來	-11.8849
三千大千世界所有微塵	-11.885
莫呼洛伽	-11.8851
四大天王	-11.8851
菩薩摩訶薩安住靜慮波羅蜜多	-11.8852
作此說	-11.8853
我若具說者	-11.8855
四空定	-11.8856
非想非非想處天	-11.8856
小千界	-11.8856
性無滅故無縛無解	-11.8856
性無染故無縛無解	-11.8858
滯礙	-11.8858
是名菩薩摩訶薩摩訶衍	-11.8859
篋	-11.8862
上界呼	-11.8863
於諸定	-11.8864
柔和	-11.8866
若菩薩摩訶薩作是思惟	-11.8866
佛於然燈佛所	-11.8867
穩	-11.8867
險難	-11.8867
裹	-11.8868
十方三世諸佛	-11.8869
不住於事	-11.887
持於此經	-11.8873
摩訶迦葉	-11.8875
依他起性	-11.8875
聰	-11.8875
殆	-11.8876
痴	-11.8876
丁	-11.8878
彈	-11.8879
勵	-11.8879
窺	-11.8879
愆	-11.8881
喧	-11.8882
永斷一切	-11.8882
不取不捨	-11.8883
宇	-11.8883
謀	-11.8883
欲得色身	-11.8885
荒	-11.8885
啟請	-11.8885
本來面目	-11.8885
郡	-11.8886
即是無生滅	-11.8889
團	-11.8889
具足而住	-11.8891
雙泯	-11.8894
離不與取	-11.8894
季	-11.8895
於爾所世	-11.8896
喚作	-11.8896
供養曇無竭菩薩	-11.8897
諸菩薩作是思惟	-11.8897
念佛三昧	-11.8898
選	-11.8898
十方虗空	-11.8899
火宅	-11.8899
復有人言	-11.8899
刑	-11.8901
虛妄不實	-11.8909
無非般若	-11.8916
相句義無所有不可得	-11.8919
斷三結	-11.8923
王城	-11.893
亦不減	-11.8933
我乃至見者	-11.8935
佛因般若波羅蜜	-11.8941
倍為勝	-11.8944
禪師云	-11.8952
未離欲	-11.8962
元來	-11.8964
當以何	-11.897
不停	-11.898
中際非縛非	-11.8989
歡喜讚歎住	-11.8996
菩薩義不	-11.9002
求教授	-11.9028
亦勿以	-11.9036
安樂住不	-11.9037
汝等勿謂如來作是念	-11.904
婆羅門大姓	-11.904
居士大家	-11.9041
為諸有情宣說正法	-11.9041
所依器故	-11.9042
不能解我所說故	-11.9042
佛說如是甚深經典	-11.9043
能於如是甚深般若波羅蜜多	-11.9043
勸勵	-11.9046
書是深般若波羅蜜	-11.9046
爾所國土中	-11.9048
若菩薩有我相人相眾生相壽者相	-11.9048
書深般若波羅蜜乃至正憶念	-11.9048
不異無生滅	-11.9048
如來說非忍辱波羅蜜	-11.9048
耗	-11.9049
如來所得阿耨多羅三藐三菩提	-11.9049
復名摩訶薩	-11.905
得聞如是言說章句	-11.905
當知是經義不可思議	-11.905
由是因緣所獲功德	-11.9051
是經名為金剛般若波羅蜜	-11.9051
於法有所得不	-11.9052
罵辱	-11.9052
佛不度眾生	-11.9053
雲峯說	-11.9053
若菩薩不住相布施	-11.9055
是故不應取法	-11.9057
c	-11.9061
五百侍女	-11.9063
性空故無縛無解	-11.9063
貧乏	-11.9063
是諸菩薩摩訶薩道	-11.9066
尊敬	-11.9067
云何不思惟	-11.9068
觸為緣所生	-11.907
去來今	-11.9071
兆	-11.9072
本來空寂	-11.9072
欺誑	-11.9073
黑闇	-11.9075
頗梨	-11.9075
剖	-11.9076
剩	-11.9076
什麼	-11.9077
呌	-11.9078
崖	-11.9081
芳	-11.9081
如來有慧眼不	-11.9082
玄奘	-11.9083
如來有法眼不	-11.9084
以是事故	-11.9085
猶如虗空	-11.9085
寢	-11.9085
善女人書般若波羅蜜	-11.9086
斷一切煩惱習	-11.9087
如來有天眼不	-11.9088
疲極	-11.9088
無生滅即是	-11.9089
剌	-11.9092
廣說乃至一切智智	-11.9092
籠	-11.9094
畔	-11.9095
訣	-11.9095
殊不知	-11.9096
大雲云	-11.9097
掃除	-11.9103
爪	-11.9104
進止	-11.9105
語默	-11.9105
久久	-11.911
法身非相	-11.9112
薩云若慧	-11.9113
毀壞	-11.9115
仁王般若	-11.9119
依怙	-11.9124
應行般若波羅蜜多	-11.9124
而巳矣	-11.9125
新學菩薩	-11.9126
無煩惱增語是菩薩摩訶薩	-11.9127
恒河沙世界	-11.9133
穢惡	-11.9134
金華	-11.9138
更無異	-11.9145
三藐三菩提	-11.9146
入曼拏羅	-11.9148
□□□□□	-11.9173
器世間	-11.9176
形迹	-11.9184
擁	-11.9184
識界性空	-11.9193
違順	-11.9201
無量無數有情	-11.9208
幻士	-11.9219
開導	-11.9227
貧富	-11.9227
開口	-11.9231
乃至鄔波尼殺曇分亦	-11.9231
不獲說聽	-11.9242
如來可以具足諸相見不	-11.9244
如彼應學	-11.9244
來生此間	-11.9244
性空無生滅故	-11.9244
難見難覺	-11.9246
晝夜精勤	-11.9246
如是一切皆無二	-11.9246
有染有淨	-11.9247
如來說即非法相	-11.9249
佛說佛母出生三法藏般若波羅蜜多	-11.9249
悉皆供養承事	-11.9252
無生滅不異	-11.9252
照曜	-11.9253
其心有驚有恐有怖	-11.9253
墮惡趣	-11.9253
緊捺洛	-11.9254
此法無實無虗	-11.9255
無能壞者	-11.9256
此人無我相	-11.9256
其福德不可思量	-11.9256
我得須陀洹果不	-11.9257
不復退轉	-11.9257
是人所得福德	-11.9257
若是微塵眾實有者	-11.9258
施設建立分別	-11.9258
三輪清淨	-11.9258
幻妄	-11.9258
來至其所	-11.9258
▁訶薩	-11.9259
乃至一念生淨信者	-11.9259
如幻如夢	-11.926
實性而得遠到	-11.9261
有所恃	-11.9262
▁薩摩訶薩	-11.9262
無眼界乃至無意識界	-11.9264
即非第一波羅蜜	-11.9265
頂禮雙足	-11.9265
▁羅蜜多	-11.9265
f	-11.9265
0	-11.9266
親近善友	-11.9267
顛倒夢想	-11.9268
陣	-11.9268
則為有佛	-11.9268
修行布施乃至般若波羅蜜多	-11.9269
諸佛說法時	-11.9273
玩	-11.9273
搗香	-11.9274
何所迴向	-11.9275
曼	-11.9277
朽	-11.9277
不退轉位	-11.9278
循環	-11.9279
吠	-11.9279
洛	-11.928
虛空無盡	-11.928
曷	-11.9282
跟	-11.9282
剃	-11.9284
用無所得故	-11.9284
鑽	-11.9285
相續不斷	-11.9286
芽	-11.9286
爛壞	-11.9287
鹽	-11.9289
戴	-11.9289
鉤	-11.929
壤	-11.929
革	-11.9291
詩	-11.9291
毘尼	-11.9292
決了	-11.9292
三藏法師	-11.9292
血肉	-11.9292
無自他相	-11.9295
貫穿	-11.9297
如別章	-11.9297
即非一合相	-11.9299
貞觀	-11.9302
空中無色	-11.9303
廬	-11.9304
闡提	-11.9304
夕	-11.9305
綠	-11.9305
惱亂	-11.9309
消息	-11.931
▁後辨	-11.9311
擯	-11.9312
此一段經	-11.9312
我於阿耨多羅三藐三菩提	-11.9315
所熏	-11.9315
菩薩摩訶薩欲行般若波羅蜜	-11.9316
神通變化	-11.9319
那含	-11.9321
五無間	-11.9325
妄情	-11.9327
集諸功德	-11.933
無我等相	-11.9337
得無諍三昧	-11.9345
持經之福	-11.9362
墮斷滅	-11.9371
虛假	-11.9382
此經典	-11.9387
徒眾	-11.9405
說經之	-11.9421
則此大乘非尊非妙	-11.944
非能住非所住	-11.9441
此大乘是尊是妙	-11.9443
三際平等中	-11.9447
一一世界無量菩薩	-11.9447
具念正知	-11.9449
喧雜	-11.9452
如來不應以具足色身見	-11.9452
非常非滅故	-11.9453
修精進時	-11.9454
若有眾生如來度者	-11.9454
滅受想定	-11.9454
若人欲使	-11.9454
具壽善現即白佛言	-11.9454
空無邊處	-11.9455
有出有至	-11.9455
其有欲令無相之法有出有至者	-11.9455
三十七助道法	-11.9456
若智若斷	-11.9456
不隨他教而	-11.9456
大誓莊嚴	-11.9458
若阿羅漢作是念	-11.9459
有來有去	-11.9459
與不生無二無二分	-11.9459
難行苦行	-11.9462
起高心	-11.9462
百倍	-11.9462
葦	-11.9463
此性空中無滅無	-11.9463
是第一離欲阿羅漢	-11.9464
燃	-11.9464
與不滅無二無二分	-11.9464
生憍逸	-11.9465
我今得聞如是經典	-11.9466
無有少法可得	-11.9467
師子遊戲	-11.9467
十二分教	-11.9468
已曾供養	-11.9468
非一非二	-11.9468
燈燭	-11.9469
若不出世	-11.947
則修般若波羅蜜多增益圓滿	-11.9471
善思念之	-11.9473
坦	-11.9473
皆以無為法而有差別	-11.9474
焚燒	-11.9474
自稱我	-11.9474
毀傷	-11.9476
實際作證	-11.9476
入滅受想定	-11.9477
阿蘭若	-11.9478
皆如化不	-11.9479
節節支解	-11.9479
野馬	-11.948
移轉	-11.9481
皆依般若波羅蜜多	-11.9483
夢中所見	-11.9484
惓	-11.9484
眷	-11.9485
甚希有	-11.9487
殊勝善法	-11.9487
貞	-11.9488
脉	-11.9488
􂏕	-11.9489
佛說是經巳	-11.9489
修般若時	-11.949
信等五根	-11.9491
相好莊嚴	-11.9491
夙	-11.9492
晨	-11.9492
慰	-11.9494
棲	-11.9494
寐	-11.9494
揵	-11.9494
不一不二	-11.9495
含容	-11.9498
模	-11.9501
梅	-11.9501
肇公	-11.9502
僻	-11.9502
徹底	-11.9503
次第乞巳	-11.9504
智緣滅	-11.9504
忌	-11.9506
給孤獨園	-11.9507
接引	-11.9508
麤重	-11.9509
猴	-11.951
梯	-11.9512
埋	-11.9513
莊嚴淨土	-11.9517
東土	-11.9519
亦無變異	-11.9521
五受眾	-11.9522
所化有情	-11.9523
丘	-11.9529
受諸苦	-11.9559
伽羅	-11.9559
若菩薩摩訶薩為色	-11.9563
不與不捨	-11.9565
字關	-11.9568
帝釋天主白	-11.9598
王臣	-11.9602
誦讀	-11.9607
離繫	-11.961
實無所行	-11.9613
其福多不	-11.9617
當作是學	-11.9618
亦令他	-11.962
般若波羅蜜多能示世間諸法實相	-11.9636
宿命智	-11.9644
千劫	-11.9646
面目	-11.965
埵	-11.9652
若天魔梵	-11.9657
或生異解	-11.9664
如是無量百千萬億劫	-11.9666
其心迷悶	-11.9666
種種色光	-11.9667
無益無損	-11.9668
當習行般若波羅蜜	-11.9669
調伏高心	-11.9669
與般若波羅蜜相應	-11.9669
書持讀誦	-11.9669
我得阿那含果不	-11.967
是人不解如來所說義	-11.9673
我於往昔節節支解時	-11.9675
擣	-11.9675
應生瞋恨	-11.9675
以有所得故	-11.9675
極難信解	-11.9676
筏喻	-11.9676
毀蔑	-11.9677
三千大千剎土	-11.9677
但有假名都無自性	-11.9677
偏袒右肩右膝著地	-11.9677
不習色	-11.9677
供養多佛	-11.9677
與一切有情同共迴向一切智智	-11.9679
於燃燈佛所	-11.968
摩睺羅伽	-11.968
無說無示	-11.9681
若修般若波羅蜜多增益圓滿	-11.9684
發阿耨	-11.9684
不以具足相	-11.9684
傷害	-11.9685
我皆令入無餘涅槃而滅度之	-11.9686
及諸眷屬	-11.9687
皆令安住	-11.9689
非學非無學	-11.969
迦旃延	-11.9691
天上天下	-11.9692
心行差別	-11.9692
牧	-11.9693
可以相成就	-11.9695
我佛土中得無如是	-11.9695
習近	-11.9698
鏡中像	-11.97
諸說不同	-11.9702
洒	-11.9703
制伏	-11.9704
愛憎	-11.9704
持業釋	-11.9704
剋	-11.9705
心不相應諸行	-11.9705
▁初敘	-11.9706
處非處	-11.9707
暴惡	-11.9707
瑟	-11.9707
為度眾生故	-11.9709
如所教住	-11.9709
!』「	-11.971
纖塵	-11.9711
俄	-11.9711
佛說我見	-11.9711
昭明太子	-11.9713
法性生身	-11.9714
恠	-11.9715
無住行施	-11.9716
菓	-11.9716
梵網	-11.9717
起七寶塔	-11.9718
右旋	-11.9719
攬	-11.9719
佛語舍利弗	-11.9721
非空非有	-11.9723
語言文字	-11.9723
綖	-11.9724
河中沙	-11.973
七寶持用布施	-11.9733
現瑞	-11.9735
諸有所作	-11.9736
假不生不滅	-11.9745
流傳	-11.9746
親屬	-11.9763
無我無人	-11.9771
廣說三乘	-11.9773
根源	-11.9775
方便善巧所攝受故	-11.9775
傳授	-11.9777
苦集滅道	-11.9788
影響	-11.979
他受用	-11.979
▁第二十	-11.9829
科家意	-11.9847
所逼	-11.9849
界不見法界	-11.987
為室為宅	-11.987
如是般若波羅蜜多最為甚深	-11.9878
轉施他	-11.9878
如來不應以具足諸相見	-11.9879
若法自性無	-11.988
乃至意觸因緣生受	-11.9885
樂無樂相	-11.9885
此諸假名	-11.9887
若以三十二相觀如來者	-11.9887
被大功德鎧	-11.9888
羼提	-11.9889
審諦觀察	-11.989
何況書寫受持讀誦	-11.989
我涅槃後	-11.9891
眾寶嚴飾	-11.9891
是故名阿那含	-11.9891
初標位	-11.9891
△	-11.9892
是諸佛母	-11.9892
輕弄	-11.9893
所謂不住色布施	-11.9893
阿羅漢能作是念	-11.9894
不可以三十二相得見如來	-11.9895
憒閙	-11.9897
渺	-11.9897
當得無上正等覺時	-11.9898
空無邊處天	-11.9899
則能修學如是般若波羅蜜多	-11.99
洛叉	-11.9901
虛誑不實	-11.9902
修布施時	-11.9903
疫	-11.9903
心行處滅	-11.9905
剎帝利	-11.9909
炤	-11.991
瘂	-11.9911
熾	-11.9911
於此經中受持	-11.9911
彚	-11.9912
由斯故說	-11.9914
樞	-11.9914
汝等比丘	-11.9914
臭穢	-11.9915
耨多羅	-11.9917
厭患	-11.9917
祠	-11.9918
摸	-11.9918
大本經	-11.9919
如應說法	-11.992
是事不然	-11.992
牆	-11.9921
沾	-11.9922
如應者言	-11.9924
末尼	-11.9924
行非處	-11.9924
亦非說法者	-11.9924
盛滿	-11.9924
咦	-11.9925
不能得其便	-11.9927
改變	-11.9928
堂堂	-11.9928
為菩薩乎	-11.993
爰	-11.9931
咸共	-11.9933
棒	-11.9935
獨露	-11.9936
憐	-11.9937
俯	-11.9938
孔子	-11.994
一切法皆無自性	-11.994
十二部	-11.9943
通達無礙	-11.9944
令得圓滿	-11.9949
有餘涅槃	-11.9954
朕	-11.9954
法華經云	-11.9967
現在十方諸佛	-11.9976
外道梵志	-11.9983
呂	-11.9983
貪瞋	-11.9991
厭生死	-12.0001
皆以無性為自性	-12.0004
分為四	-12.0005
毀犯	-12.0011
圓頓	-12.0011
千倍為勝	-12.0011
外別有	-12.0033
垢穢	-12.0038
三四五	-12.0039
得阿惟三佛	-12.0042
宣說開示	-12.0047
塵剎	-12.0068
當覺知是為魔事	-12.0095
除世貪憂	-12.0098
刀箭	-12.0102
盡諸所有供養恭敬	-12.0104
無來無去亦復不住	-12.0104
僧那僧涅	-12.0105
亦能具攝	-12.0105
若人以此般若波羅蜜經	-12.0105
文勢	-12.0106
譬如幻士	-12.0107
常無厭倦	-12.0107
我得斯陀含果不	-12.0107
如來在然燈佛所	-12.0109
如一恒河中所有沙	-12.0111
超諸聲聞	-12.0113
能持法者	-12.0113
偏覆左肩	-12.0114
說一切無漏之法	-12.0115
如我昔為歌利王割截身體	-12.0115
以須菩提實無所行	-12.0116
若有人能受持讀誦	-12.0117
曼殊室利童子	-12.0117
如人入闇	-12.0118
不顧身命	-12.0118
都非實有	-12.0119
色聲香味	-12.0119
若菩薩有我相	-12.0119
揵闥婆	-12.012
使起者	-12.0121
旬	-12.0121
咸作是念	-12.0121
若能修學如是般若波羅蜜多	-12.0123
如來所說不可思議	-12.0124
從座而起	-12.0125
識無邊處天	-12.0125
瓦石	-12.0126
為有情宣說	-12.0126
三輪體空	-12.0129
溼	-12.0129
耨	-12.0129
譬如大地	-12.0129
所薰	-12.0129
徵詰	-12.013
天隨念	-12.013
稍稍	-12.0131
修遠離行	-12.0131
繒綵	-12.0132
我人等四相	-12.0137
代歡喜	-12.014
所觀之境	-12.014
煞	-12.0141
四攝事	-12.0142
礫	-12.0142
䇿	-12.0143
劬	-12.0143
坦然	-12.0143
孟	-12.0144
所應住	-12.0144
安穩	-12.0145
屠	-12.0145
羽	-12.0146
荊	-12.0148
訪	-12.015
秤歎	-12.0151
長跪	-12.0151
亦無所倚	-12.0152
妙吉祥曰	-12.0154
提婆達	-12.0155
后	-12.0157
中央	-12.0158
寶冠	-12.0158
吳	-12.0159
錦	-12.016
毀辱	-12.0162
皆以無為法	-12.0164
捧	-12.0165
七十七	-12.0177
無有法得阿耨多羅三藐三菩提	-12.0177
分段生死	-12.0182
諸菩薩摩訶薩所學般若波羅蜜多	-12.019
三昧王三昧	-12.0197
忉利天上	-12.0201
無罪增語是菩薩摩訶薩	-12.021
緣慮	-12.0248
婆伽	-12.0261
能斷金剛	-12.0268
或令修行	-12.0271
遊戲神通	-12.0321
為諸有情宣說	-12.033
與諸有情平等共有	-12.0333
離欲惡不善法	-12.0333
若合若離	-12.0334
如實證知無量無數無邊有情	-12.0334
布施等五波羅蜜多	-12.0334
眼識乃至意識	-12.0334
與般若波羅蜜多相應	-12.0335
須陀洹果乃至阿羅漢果	-12.0336
遠塵離垢	-12.0336
來生是間	-12.0337
暇	-12.0338
若人言如來有所說法	-12.0338
於無上正等菩提有退轉	-12.0338
洲渚	-12.0341
是人解我所說義不	-12.0341
眼界乃至眼觸為緣所生諸受	-12.0344
亦應是真無漏不墮三界	-12.0344
得值八百四千萬億那由他諸佛	-12.0344
無盡法藏	-12.0344
如是滅度無量無數無邊眾生	-12.0347
四大洲諸有情類	-12.0347
展轉亦無所有	-12.0347
本性無來無去亦復不住	-12.0348
以諸華香而散其處	-12.0348
求佛道善男子	-12.0348
愁惱	-12.0348
無能及者	-12.0349
自性無來無去亦復不住	-12.0351
無我相無人相無眾生相無壽者相	-12.0351
從何所來	-12.0351
勤行精進	-12.0351
以為有我	-12.0351
而度脫之	-12.0353
▁後方解	-12.0354
入菩薩正性離生位	-12.0354
不可以相見	-12.0355
大事因緣	-12.0356
真如無來無去亦復不住	-12.0356
悕	-12.0356
得法眼淨	-12.0358
目揵連	-12.0358
乃至火劫	-12.0359
端坐	-12.0359
湧	-12.0359
梓	-12.0362
能與有情	-12.0363
佐	-12.0364
踊躍	-12.0365
嚴淨土	-12.0366
唯佛一人	-12.0366
意界乃至意觸為緣所生諸受	-12.0366
酉	-12.0367
穌	-12.0368
刀兵	-12.0368
一粒	-12.0368
發大莊嚴	-12.0368
蹤	-12.0369
叮嚀	-12.0371
沫	-12.0371
飜	-12.0372
拳印	-12.0374
勝空者言	-12.0375
鏡像	-12.0376
殞	-12.0376
腳	-12.0376
握	-12.0377
瞞	-12.0377
甄	-12.0379
應化非真佛	-12.038
怛囉	-12.038
膩	-12.038
秉	-12.0381
色心二法	-12.0381
宣示	-12.0383
為欲圓滿	-12.0383
總持門	-12.0383
如其次第	-12.0384
結加趺坐	-12.0385
璧	-12.0385
羞	-12.0385
秀	-12.0386
沸	-12.0386
六種震動	-12.0387
福資糧	-12.0388
伺求	-12.0388
不滅法非一	-12.0389
安詳	-12.039
効	-12.039
豁然	-12.039
摩訶波羅蜜	-12.0394
逆流	-12.0396
唯識論云	-12.0401
證所求無上正等菩提	-12.0412
行住淨	-12.0423
為有情說	-12.0431
兜率天上	-12.0439
今是初	-12.0461
段經文	-12.0464
生死大苦	-12.0483
非善增語是菩薩摩訶薩	-12.0494
魔波旬	-12.0518
承事供養	-12.052
超一切世間天	-12.0537
以無為法得名	-12.0549
啟咨世尊	-12.0551
不那中住	-12.0552
成就如是諸行	-12.0556
如心無變異	-12.0562
後日分	-12.0563
見是事已	-12.0563
初日分	-12.0563
相而無所執	-12.0565
是諸恒河所有沙數	-12.0567
治地業	-12.0567
作此事已	-12.0568
斷界乃至無為界	-12.0569
菩薩摩訶薩作如是行	-12.0569
勇猛正勤	-12.0569
遠離此彼岸是	-12.057
生成辦不可得	-12.0572
或勸修學	-12.0573
斯陀含名一往來	-12.0573
能於此經受持讀誦	-12.0573
唯有假名	-12.0576
捨隨念	-12.0576
緊那羅	-12.0576
皆來集會	-12.0577
能修學甚深般若波羅蜜多	-12.0577
實無有法名阿羅漢	-12.0578
毀訾	-12.0579
趣入菩薩正性離生	-12.0579
所變化者	-12.058
自相無來無去亦復不住	-12.058
心則狂亂	-12.0582
隨此般若波羅蜜多所說法門應正信	-12.0582
無實無虛	-12.0582
竅	-12.0584
所作已辦	-12.0584
甚深經典	-12.0585
拔出眾生	-12.0587
非合非散但假施設	-12.0588
東西南北	-12.0588
莎	-12.0588
輻	-12.0589
久種善根	-12.059
若菩薩摩訶薩欲證無上正等菩提	-12.0592
四種兵	-12.0593
綵	-12.0596
百千劫	-12.0597
刪	-12.0599
鎖	-12.0599
佗	-12.0599
良醫	-12.06
翔	-12.06
淫	-12.06
瑩	-12.0601
有何等異	-12.0601
縷	-12.0602
律儀戒	-12.0604
而滅度之	-12.0606
皆如幻故	-12.0608
晏	-12.0608
能悟入	-12.0609
自行化他	-12.0609
搜	-12.0609
十方恒沙	-12.061
四威儀中	-12.0612
君子	-12.0614
袈裟	-12.0614
軸	-12.0616
努	-12.0618
去來坐臥	-12.0618
歡欣	-12.0618
洋	-12.0618
庭	-12.0618
檀那	-12.0619
字某	-12.0621
薦	-12.0622
唾	-12.0623
雙忘	-12.0623
枉	-12.0624
怨親	-12.0624
五逆罪	-12.0624
利刀	-12.063
離言說相	-12.0635
此是科家	-12.0641
船筏	-12.0643
以生滅心	-12.0666
晝日	-12.0667
諸佛及弟子	-12.0686
令得須陀洹果	-12.0686
迴向大菩提	-12.0694
)』「	-12.0703
生住滅	-12.0706
佛又呼須菩提	-12.0751
乃至十八不共法亦如是	-12.076
無著無縛無脫	-12.0789
非有盡法	-12.0794
若法無自性	-12.0796
於四衢道	-12.0799
衰朽	-12.0803
菩薩殊勝神通	-12.0806
坐妙菩提座	-12.0806
後秦龜茲國三藏鳩摩羅什譯	-12.0807
勸有情類	-12.0808
由所造業或墮	-12.0808
久修令滿	-12.0808
代其歡喜	-12.0809
僧隨念	-12.0811
我從昔來所得慧眼	-12.0811
能學法者	-12.0811
有幾許人	-12.0812
耳界乃至耳觸為緣所生諸受	-12.0812
鼻界乃至鼻觸為緣所生諸受	-12.0812
云何菩薩不受福德	-12.0813
於我所供養諸佛功德	-12.0813
能學如是三解脫門	-12.0813
中千界	-12.0813
譬如幻師	-12.0814
檀波羅蜜乃至般若波羅蜜	-12.0815
當知是人甚為希有	-12.0815
善女人等教贍部洲	-12.0815
即非有我	-12.0817
此中佛自說因緣	-12.0818
或勸修行	-12.0818
驚惶	-12.0818
身界乃至身觸為緣所生諸受	-12.0819
汝頗見	-12.082
荼	-12.082
以佛眼見	-12.0821
盡未來際	-12.0821
華鬘	-12.0822
牢獄	-12.0824
儉	-12.0824
植善根	-12.0825
到菩薩所	-12.0826
嶮	-12.0829
懶惰	-12.083
逼切	-12.083
如來說一切諸相	-12.0832
享	-12.0832
阻	-12.0833
而不作證	-12.0834
瞻仰	-12.0835
骨髓	-12.0835
眴	-12.0839
有限量	-12.084
渴愛	-12.084
恰	-12.084
巷	-12.0842
我滅度後	-12.0842
應化非真	-12.0843
啻	-12.0843
能取所取	-12.0844
跪	-12.0844
誕	-12.0845
園林	-12.0846
臻	-12.0846
得大自在	-12.0848
楊	-12.0848
遏	-12.085
大圓鏡智	-12.0851
柳	-12.0851
兵奴	-12.0851
香味觸	-12.0853
紺青	-12.0853
劉	-12.0855
賢位	-12.0855
麥	-12.0855
攻	-12.0855
剝	-12.0857
激	-12.0858
炙	-12.086
獅子	-12.0861
鶴	-12.0863
每日	-12.0863
七寶施福	-12.0867
憂喜	-12.0869
箇箇	-12.0874
姚秦	-12.089
衍與空等	-12.0909
教誨	-12.0921
十歲	-12.0935
悉知悉見	-12.0941
入是三昧	-12.0997
多羅三藐	-12.1035
佛及僧	-12.1042
現集善根	-12.1044
如來說即非凡夫	-12.1045
若復餘眾	-12.1046
不可說義無增無減	-12.1046
不可計阿僧祇人	-12.1048
檀那波羅蜜乃至般若波羅蜜	-12.1048
為欲利樂諸有情故	-12.1048
佛設利羅是極圓滿	-12.1049
唯假施設	-12.1049
離斷生命	-12.1049
無厭倦	-12.105
須菩提語釋提桓因	-12.1051
阿素洛等最尊最勝	-12.1051
南西北方	-12.1051
唯有想等想	-12.1052
斯陀含能作是念	-12.1052
城邑聚落	-12.1052
難信難解	-12.1054
相續隨順趣向臨入一切智智	-12.1055
無限量故	-12.1057
何況有人盡能受持讀誦	-12.1058
愁毒	-12.1059
戒隨念	-12.1059
慼	-12.106
瞖	-12.106
中千界諸有情類	-12.106
非染非淨	-12.1062
畢竟淨相句義無所有不可得	-12.1062
發菩薩心者	-12.1063
僊	-12.1063
所緣無邊故	-12.1067
▁若波羅蜜多	-12.1069
所求一切智智	-12.1071
睺	-12.1071
耽著	-12.1071
蠲	-12.1071
躭	-12.1074
胞	-12.1074
串	-12.1074
亦勸他圓滿	-12.1075
不橫死	-12.1075
唎	-12.1076
徧一切處	-12.1077
贍	-12.1078
真語者	-12.1078
訥	-12.1079
黑白	-12.1079
損惱	-12.108
料揀	-12.1081
呬	-12.1082
厥	-12.1082
泊	-12.1083
藤	-12.1084
僧若訥	-12.1085
擬議	-12.1086
佛語阿難	-12.1087
鍊	-12.1087
煥	-12.1088
揭諦	-12.1089
如實通達	-12.1089
邃	-12.1089
十六大國王	-12.109
良藥	-12.1092
搆	-12.1092
娘	-12.1092
茂	-12.1093
護國土	-12.1097
罰	-12.1098
憍薩羅國	-12.11
隻	-12.1101
無障無礙	-12.1102
崩	-12.1104
曠劫	-12.1104
無生可度	-12.1104
與無量百千俱胝那庾多	-12.1105
頓漸	-12.1108
哭	-12.1108
娑婆世界	-12.1108
天上人間	-12.1108
允	-12.111
百千俱胝	-12.1111
捕	-12.1116
膏	-12.1117
十千劫	-12.1119
佛初成道	-12.1128
文復分	-12.1178
違逆	-12.1195
令易解	-12.1208
雜亂	-12.1224
若菩薩摩訶薩安住精進波羅蜜多	-12.1281
住無漏心而修	-12.1283
令諸等持	-12.1291
普能含受無數無量無邊有情	-12.1293
住修降伏	-12.1294
為能建立	-12.1294
尒	-12.1296
無尋無伺	-12.1296
而攝益之	-12.1297
惡魔不能留難	-12.1297
非有邊非無邊	-12.1297
等流果故	-12.1297
若菩薩通達無我法者	-12.1298
受諸劇苦	-12.1299
善修般若波羅蜜多故	-12.13
中趣非趣	-12.13
如來說諸相具足	-12.1301
從一地至一地	-12.1301
具大勢力	-12.1301
知恩報恩	-12.1302
十方無量無數無邊世界	-12.1303
菩薩摩訶薩作如是學	-12.1303
阿那含名為不來	-12.1304
毛道凡夫	-12.1305
及正安住一切智智相應作意	-12.1307
如夢乃至如尋香城	-12.1307
舌界乃至舌觸為緣所生諸受	-12.1309
踊躍歡喜	-12.1311
小千界諸有情類	-12.1311
有方便善巧修行般若波羅蜜多	-12.1311
法有所住故	-12.1311
空亦無自性不可得	-12.1312
況能圓滿	-12.1312
受無量無邊阿僧祇眾生	-12.1314
以諸菩薩不受福德故	-12.1314
塊	-12.1316
曼陀羅	-12.1316
盜賊	-12.1317
此神珠	-12.1318
廣博	-12.1322
無一法可得	-12.1323
風劫未起已來	-12.1324
百踰繕那	-12.1324
歡喜讚歎圓滿	-12.1325
渡河	-12.1326
捶	-12.1329
凶	-12.133
諫	-12.1331
帙	-12.1332
若依本記	-12.1332
名味句	-12.1334
歌舞	-12.1334
禰	-12.1335
何以知之	-12.1335
月八日	-12.1337
杲日	-12.1337
節節	-12.1338
此復云何	-12.1339
金輪王	-12.134
入正位	-12.1342
最上祕密	-12.1343
精勤修習	-12.1343
柰	-12.1344
邦	-12.1344
粘	-12.1345
給孤	-12.1346
讓	-12.1346
遐	-12.1346
恐懼	-12.1347
丑	-12.1349
仁王護國般若波羅蜜多經	-12.135
敏	-12.1352
惺	-12.1352
入城乞食	-12.1354
羅睺羅	-12.1354
法上菩薩	-12.1356
趙州	-12.1357
韻	-12.1357
恒河沙劫	-12.1382
波旬	-12.139
故有此文	-12.1394
千俱胝分不及一	-12.1403
空無相無願	-12.1406
樹林	-12.1409
生死苦海	-12.1423
祇樹	-12.1476
成辦一切智智不	-12.1487
竺	-12.1518
薩陀波倫	-12.1529
緣所生諸受自性空	-12.1534
非深非妙	-12.154
住有想者	-12.1546
應言與般若波羅蜜多相應	-12.1546
超諸聲聞及獨覺地	-12.1547
是人為欲使無相法出	-12.155
尊者善現所說法中	-12.155
隨所在處	-12.1551
殑伽沙等諸佛世界	-12.1553
以實無有法得阿耨多羅三藐三菩提	-12.1553
如諸愚夫異生執不	-12.1553
須食與食	-12.1553
當知菩薩摩訶薩亦無邊際	-12.1554
從初發意已來	-12.1554
令我土中諸有情類	-12.1554
於是中無實無虗	-12.1555
四念住廣說乃至十八佛不共法	-12.1556
若有法如來得阿耨多羅三藐三菩提者	-12.1557
羼	-12.1557
真淨善友	-12.1557
當勤修學甚深般若波羅蜜多	-12.1558
可思量不	-12.1558
阿那含能作是念	-12.1558
不為俱害	-12.1559
雖住般若波羅蜜多	-12.1559
相各異故性亦應異	-12.156
受大菩提記	-12.156
拒逆	-12.1561
非有想者能	-12.1561
而名須菩提是樂阿蘭那行	-12.1562
乃至無染無淨句義無所有不可得	-12.1562
依因菩薩摩訶薩	-12.1564
神境智證通	-12.1565
得福雖多	-12.1565
漚和拘舍羅	-12.1565
巳於無量千萬佛所	-12.1566
迦樓羅	-12.1566
又念過去於五百世	-12.1567
云何菩薩摩訶薩修遣	-12.1567
西牛貨洲諸有情類	-12.1568
本行菩薩道時	-12.157
東勝身洲諸有情類	-12.157
旃陀羅	-12.157
8	-12.1571
相學耶	-12.1576
身心安樂	-12.1581
娑嚩	-12.1583
頸	-12.1584
一體同觀	-12.1584
剎那剎那	-12.1584
篤	-12.1585
倣	-12.1585
虛空無量故	-12.1587
螢	-12.1587
逗	-12.1588
強弱	-12.1588
奉詔譯	-12.1588
儻	-12.1589
吉凶	-12.1589
陶	-12.159
荊棘	-12.1592
與大比丘眾	-12.1594
皮肉	-12.1594
帳	-12.1595
偃	-12.1596
當結金剛	-12.1596
勑	-12.1597
箇甚麼	-12.1597
聰慧	-12.1598
脊	-12.1598
喃	-12.16
心心寂滅	-12.1601
斷彼疑	-12.1601
綺語	-12.1602
劈	-12.1603
食噉	-12.1603
輸	-12.1604
十萬偈	-12.1605
第一義悉檀	-12.1606
作麼生	-12.1606
巧妙文義為其廣說	-12.1607
鳳	-12.1613
願與一切眾生	-12.1615
初地已上	-12.1615
奘	-12.1617
無淨故無縛無	-12.1622
髏	-12.1631
科儀	-12.1657
於識中	-12.1668
發大菩提心	-12.1672
藍	-12.1713
諸佛同說	-12.1777
無上正等菩提有退屈不	-12.1793
十方一切世界	-12.1805
能示諸佛世間實相	-12.1808
無示為無所得	-12.1811
隨諸有情所須	-12.1812
中日分	-12.1814
性等不可說故	-12.1815
如是一切合集稱量	-12.1815
與善知識相隨	-12.1815
如來說莊嚴佛土者	-12.1816
諸漏永盡	-12.1816
平等中過去未來現在	-12.1817
當覺知魔為	-12.1817
能示世間相	-12.1818
於此般若波羅蜜多甚深經中	-12.1819
我隨爾所時行	-12.1821
鄔波尼殺曇	-12.1822
上妙供具	-12.1822
爾時慧命須菩提白佛言	-12.1822
竊作是念	-12.1822
種種巧妙文義	-12.1822
陀隣尼門	-12.1822
不為自害	-12.1823
離虛誑語	-12.1823
不離薩婆若心	-12.1824
一相所謂無相	-12.1824
便為惡魔之所擾亂	-12.1825
首楞嚴三昧	-12.1827
復以般若波羅蜜多無量法門	-12.1828
是福德即非福德性	-12.1829
菩薩摩訶薩為菩提故	-12.1829
佛說非身是名大身	-12.1829
書寫經卷	-12.1829
醜陋	-12.183
餓	-12.1831
西天譯經三藏朝奉大夫試光祿卿	-12.1832
都無所有皆不可得	-12.1832
上求佛地	-12.1832
想空乃至	-12.1833
此中佛自說	-12.1833
品第七十	-12.1833
十不善道	-12.1835
戒禁取	-12.1836
朋黨	-12.1837
▁初勝空	-12.1838
忿恨	-12.1838
▁後如應	-12.1838
交涉	-12.1838
菩薩隨般若波羅蜜教	-12.1839
但凡夫之人貪著其事	-12.1841
無堅實故	-12.1842
鐘	-12.1844
嘿	-12.1846
牛羊	-12.1847
彈指	-12.1847
初中復二	-12.1849
時眾得益	-12.1851
辟	-12.1852
毘盧遮那	-12.1853
循身觀	-12.1854
鬚	-12.1855
蜂	-12.1861
崙	-12.1861
拱	-12.1862
技	-12.1865
暖	-12.1866
齎	-12.1866
初地以上	-12.1866
揀擇	-12.1868
一心三觀	-12.1869
照見五蘊	-12.187
騎	-12.1873
評	-12.1873
天人阿修羅	-12.1874
穆	-12.1874
呾	-12.1875
所至處	-12.1878
僧伽梨	-12.1879
皆應恭敬	-12.1906
大明呪	-12.1965
大自在天	-12.1971
㧗	-12.2064
種姓及諸功德	-12.2082
而攝益者	-12.2083
自然歡喜稱揚讚歎	-12.2083
不取故不著	-12.2084
有常有恒	-12.2084
安住大乘善男子等	-12.2086
復發願言	-12.2089
普為利樂諸有情故發趣大乘	-12.2089
離麁惡語	-12.2091
何況空中有現在	-12.2091
現斯瑞	-12.2092
學此般若波羅蜜多大呪王時	-12.2093
一切時求菩薩摩訶薩	-12.2093
須陀洹乃至佛	-12.2094
遠離二想	-12.2095
從一佛國	-12.2095
隣近無上正等菩提	-12.2095
我於如是諸法	-12.21
西牛貨洲	-12.21
不久定當圓滿	-12.21
品第五十	-12.2101
此中都無堅實	-12.2101
所歸趣	-12.2102
毘鉢舍那	-12.2103
快哉	-12.2105
諸有所為	-12.2106
確	-12.2109
從三昧起	-12.2109
自賣身	-12.2111
▁初別解	-12.2112
三摩鉢帝	-12.2112
與佛無異	-12.2114
裝	-12.2115
以是之故	-12.2116
菩薩摩訶薩安住安忍波羅蜜多	-12.2117
覲	-12.2117
色見聲求	-12.2118
離苦得樂	-12.2118
月十五日	-12.2118
從本以來	-12.2118
徑路	-12.2119
遽	-12.212
圭峯	-12.212
波羅揭諦	-12.212
城郭	-12.2122
鷲峯山	-12.2122
淡	-12.2123
則是一合相	-12.2123
飢餓	-12.2123
言說章句	-12.2124
嬰兒	-12.2125
邏	-12.2126
被服	-12.2126
癩	-12.2126
吸	-12.2128
肉團	-12.2129
偷	-12.2129
零	-12.2129
喫	-12.213
逃	-12.2131
公案	-12.2131
沐	-12.2132
優婆塞優婆夷	-12.2132
匪	-12.2132
無依無得	-12.2132
龍猛	-12.2132
入舍衛大城乞食	-12.2133
洞徹	-12.2133
啞	-12.2134
遞	-12.2135
蒼	-12.2135
弄	-12.2135
亢	-12.2136
從此經生	-12.2137
無邊有情於	-12.2137
步步	-12.2139
討	-12.2139
染汙	-12.214
餅	-12.2141
梁武帝	-12.2141
皷	-12.2141
千二百五十人俱	-12.2141
流浪	-12.2141
如水中月	-12.2143
鴈	-12.215
逝	-12.2151
屎	-12.2152
我法二執	-12.2153
囚	-12.2154
文殊師利白佛	-12.217
墮二乘地	-12.2186
弘誓	-12.2203
不及持說	-12.2208
眾生可化	-12.2303
是菩薩摩訶薩真勝善友	-12.2348
由如是法生	-12.2349
所獲功德甚多於彼	-12.2357
是見依色	-12.2362
終不忘失	-12.2363
終不以空不空分別	-12.2365
見此大光	-12.2365
超過一切聲聞	-12.2366
童男童女	-12.2366
來無所從	-12.2366
諷誦讀	-12.2367
乃至鄔波尼殺曇倍亦復為勝	-12.2367
及於此中無所執著	-12.2367
無受無取	-12.2367
佛所化人	-12.2367
世尊甚奇微妙方便	-12.2369
奉勅	-12.2369
云何能得一切智智	-12.2369
彼有菩薩名曰	-12.2369
是極清淨	-12.237
何況空中有過去未來現在	-12.2371
如來說即非善法	-12.2371
是則法性亦應各異	-12.2372
菩薩摩訶薩修行靜慮波羅蜜多時	-12.2373
亦應無增無減	-12.2373
難可測量	-12.2374
須陀洹名為入流	-12.2374
以七寶滿爾所恒河沙數三千大千世界	-12.2375
久修六波羅蜜多	-12.2377
離應一切智智心觀	-12.2377
法涌菩薩摩訶薩	-12.2379
尊者所問	-12.2379
況於其中有趣非趣	-12.2379
不可得而能修習	-12.238
佛涅槃後	-12.2381
亦由此真如施設	-12.2381
慶慰	-12.2382
受諸楚毒猛利大苦	-12.2383
塚間	-12.2384
校量顯勝	-12.2384
攀	-12.2385
六種變動	-12.2385
▁25	-12.2385
我念過去	-12.2386
若非有想	-12.2386
解空第一	-12.2386
流通本同	-12.2386
大乘正宗	-12.2389
能示世間諸法實相	-12.2389
業隨智慧行	-12.2391
訟	-12.2391
飽滿	-12.2393
生滅垢淨增減	-12.2394
旁	-12.2395
死此生彼	-12.2395
仁王護國般若經	-12.2395
戾	-12.2395
唯佛與佛	-12.2399
頂戴	-12.2399
皇帝	-12.2403
與畢竟不生無二無二	-12.2404
故唯識云	-12.2404
鹿苑	-12.2405
闢	-12.2405
斤	-12.2405
婢	-12.2406
湛寂	-12.2407
嗣	-12.2408
死屍	-12.2409
若不爾者	-12.241
賈	-12.241
鶖子	-12.2411
喫飯	-12.2413
戈	-12.2413
紺	-12.2413
抽	-12.2413
怛嚩	-12.2416
凉	-12.2417
鳩	-12.2418
職	-12.2419
侵害	-12.2419
瞬	-12.2423
孽	-12.2427
獄卒	-12.2442
報佛恩	-12.2445
厨	-12.2453
無數大劫	-12.248
以佛神力	-12.258
優波	-12.2607
如是一切皆非	-12.2642
若不退轉位菩薩摩訶薩	-12.2643
如是行施無所	-12.2645
由不見故不取	-12.2646
若有得聞如是	-12.2646
不以空不空分別	-12.2646
此大乘是尊是	-12.2646
心不沈沒亦不憂悔	-12.2648
何況平等中有過去未來現在	-12.2648
我不應隨	-12.2649
汙	-12.265
隨汝意往	-12.2651
即為非大身	-12.2652
今正是時	-12.2653
皆為般若波羅蜜多所攝受故	-12.2654
但由顛倒	-12.2654
一生所繫	-12.2654
皆為般若波羅蜜多之所攝受	-12.2656
而攝受之	-12.2657
不為害他	-12.2657
勝天王白佛言	-12.2659
尚多無數	-12.2659
初日分以恒河沙等身布施	-12.266
吠琉璃	-12.266
以無所學無所成辦為方便故	-12.266
卒暴	-12.266
不於一佛二佛三四五佛而種善根	-12.2661
應無所住行於布施	-12.2661
諸菩薩摩訶薩於中學故名平等學	-12.2662
是經有不可思議	-12.2662
是真無漏不墮三界	-12.2663
傲	-12.2663
是人則為第一希有	-12.2663
非行非不行	-12.2663
身壞命終	-12.2664
摩訶衍勝出一切世間及諸天	-12.2665
阿迦膩吒天	-12.2665
汝等今者應行	-12.2666
從此經出	-12.2666
恭敬圍繞	-12.267
s	-12.2671
騐	-12.2671
甯	-12.2673
谷響	-12.2676
諠	-12.2676
說是法時	-12.2678
迢	-12.268
週	-12.268
黑暗	-12.2682
竹林	-12.2683
非因非果	-12.2684
摘	-12.2685
蒭	-12.2685
生住異滅	-12.2687
俟	-12.2688
犢子	-12.2688
如車輪	-12.2688
削	-12.2689
與大比丘眾千二百五十人俱	-12.269
直下承當	-12.269
清信女	-12.269
屏	-12.2691
咨	-12.2693
諭	-12.2693
撮	-12.2693
霧	-12.2695
砂	-12.2696
監	-12.2696
庵	-12.2697
寅	-12.2697
衲	-12.2698
魂	-12.2699
金剛仙論	-12.27
聯	-12.2705
拯	-12.2705
成所作智	-12.2705
慾	-12.2706
覷	-12.2706
如恒邊沙	-12.2721
亦不言是	-12.2731
受無量苦	-12.2734
莂	-12.2807
提綱	-12.2835
塵埃	-12.2841
萬八千	-12.2892
不應分別我能修	-12.2931
宣說般若波羅蜜多相應之法	-12.2934
告金剛手菩薩等言	-12.2936
天眼智證通	-12.2937
求學二乘相應經典	-12.2937
與諸有情同共迴向一切智智	-12.2937
無和合自性故	-12.2939
若法無和合自性	-12.294
或安立彼令住	-12.2941
應知菩薩心定	-12.2941
請往堪忍世界	-12.2941
攝他有情	-12.2942
漏盡智證通	-12.2942
何因何緣而有此瑞	-12.2944
尋香城中所現物類	-12.2945
若法不生則無	-12.2946
為欲利樂諸有情故乘於大乘	-12.2946
不疑不悔	-12.2947
尊重讚歎佛菩薩已	-12.2947
不修不遣	-12.2949
宿住隨念智證通	-12.2949
須陀洹乃至阿羅漢	-12.2949
我佛土中諸有情類	-12.295
非有所得想能證無上正等菩提故	-12.295
為益為損	-12.2951
無救護者	-12.2951
必無是處	-12.2951
一切世間天及人	-12.2953
四大王眾天乃至色究竟天	-12.2953
皆令安住獨覺菩提	-12.2954
親近供養諸佛世尊	-12.2955
無合無散	-12.2955
乃至不見一切佛法	-12.2955
及彼施設亦不可得	-12.2956
雖知諸法如幻	-12.2957
色色自性空	-12.2957
生天人中	-12.2957
然勿恃此而	-12.296
無所至去	-12.296
樂無樂性	-12.296
發誠諦言	-12.2961
由彼大故	-12.2961
北俱盧洲	-12.2961
而此福德勝前福德	-12.2963
過去現在未來	-12.2965
佛則不說是微塵眾	-12.2967
理盡三昧	-12.2967
膠	-12.2968
諸漏已盡	-12.2968
四正懃	-12.2971
不可以身相見	-12.2972
身受心法	-12.2972
四部眾	-12.2973
怡	-12.2974
無覺無觀	-12.2974
故受之以	-12.2975
起行想著	-12.2975
生緣老死	-12.2976
戚	-12.2977
衡	-12.2978
栗	-12.2979
自覺覺他	-12.2982
能觀之智	-12.2982
汰	-12.2983
炭	-12.2984
肆	-12.2985
鷄	-12.2987
一時佛在舍衛國	-12.2988
涸	-12.299
紀	-12.299
憍陳如	-12.299
妃	-12.2991
瞥	-12.2991
無始以來	-12.2992
鎔	-12.2992
法同法性	-12.2992
松	-12.2992
諱	-12.2993
奢	-12.2998
腎	-12.3001
罽	-12.3008
澡	-12.3009
讖	-12.303
至下當	-12.3119
及諸佛阿耨多羅三藐三菩提法	-12.3141
以色身見	-12.3156
與空等	-12.3162
佛所頂禮雙足	-12.3228
諸是化者無不皆空	-12.3229
亦能隨學	-12.3231
於諸如來廣設供養	-12.3237
無自性不可修遣	-12.3239
法自性不生	-12.3241
示現勸導讚勵慶喜	-12.3241
法則以無性為性	-12.3242
菩薩摩訶薩眾說大般若波羅蜜多	-12.3244
我還問汝	-12.3245
此既非有	-12.3246
東方虗空可思量不	-12.3247
及佛身相	-12.3247
人身長大	-12.3247
大地變動	-12.3247
則不可以彼有相為方便	-12.3248
被功德鎧	-12.3249
三藏法師玄奘奉詔譯第三分	-12.325
无	-12.3251
離欲邪行	-12.3251
於阿耨多羅三藐三菩提退還	-12.3252
若菩薩摩訶薩依深般若波羅蜜多所說	-12.3252
施設言說謂為	-12.3253
資生所須	-12.3253
菩薩摩訶薩修行淨戒波羅蜜多時	-12.3254
他心智證通	-12.3254
從滅想受定起	-12.3255
齊此應知是菩薩摩訶薩	-12.3256
頭面作禮	-12.3257
善女人等教贍部洲諸有情類	-12.3257
來到其所	-12.3257
放光般若經	-12.3257
色色性空	-12.3259
為發無上菩提心者宣說般若波羅蜜多	-12.3259
普為利樂一切有情	-12.326
而引八十隨好	-12.326
當於一切有情以	-12.326
若菩薩摩訶薩相續隨順趣向臨入	-12.3261
是法平等無有高下	-12.3261
無不定心	-12.3262
一切賢聖皆以無為法而有差別	-12.3263
空寂清淨句義	-12.3264
於此章句能生信心	-12.3265
龍樹菩薩造後秦龜茲國三藏鳩摩羅什	-12.3265
非合非離	-12.3266
安立眾生於	-12.3267
檗	-12.3267
唯有假說	-12.3268
髀	-12.3269
痰	-12.3271
細末方便	-12.3272
盡形壽	-12.3272
一日一夜	-12.3272
一往天上	-12.3272
腨	-12.3274
非堅法故	-12.3277
寓	-12.3277
湯藥	-12.3278
鐵輪王	-12.3279
嗔恚	-12.3279
波羅僧揭諦	-12.3281
除世間貪憂	-12.3281
紇	-12.3282
拒	-12.3282
訂	-12.3282
沉淪	-12.3282
措	-12.3284
陋	-12.3284
缽	-12.3285
森羅	-12.3286
亥	-12.3288
星辰	-12.3288
瑜繕那	-12.3291
鏁	-12.3291
嗚	-12.3291
唯佛能知	-12.3293
飲酒	-12.3294
則非一合相	-12.3295
如意寶珠	-12.33
旱	-12.3301
暑	-12.3302
揣	-12.3302
緇	-12.3303
粉	-12.3304
巾	-12.3306
迭	-12.3307
二萬一千	-12.3307
室羅筏	-12.3308
初翻名	-12.3328
於汝之意	-12.3545
想心見倒	-12.3547
已善修學	-12.3547
若智以無所得而為方便	-12.3549
種種珍奇間雜嚴飾	-12.3555
般若波羅蜜多是清淨聚	-12.3555
能如法轉者	-12.3555
爾所有情不當安立	-12.3556
從初發意以來	-12.3557
無有菩薩之句誼也	-12.3559
名為菩薩摩訶薩菩提道	-12.356
空中空性尚不可得	-12.356
是故然燈佛與我授記	-12.356
說是清淨極為明了	-12.356
如來之心不住	-12.3561
四天王天乃至阿迦尼吒天	-12.3561
繞百千匝	-12.3561
不可以彼無所有法隨喜迴向無所有故	-12.3561
頗有真實修道	-12.3562
少所人	-12.3562
般若波羅蜜多大功德鎧	-12.3562
有遷動	-12.3562
由此方便善巧力故	-12.3562
為諸菩薩說大般若波羅蜜多	-12.3562
怛薩阿竭阿羅訶三耶三佛	-12.3562
等法性無壞無不壞	-12.3563
從一大地獄至一大地獄	-12.3563
不見離畢竟不生有	-12.3565
是故善現所說亦無壞無不壞	-12.3565
令所修習速得圓滿	-12.3565
天耳智證通	-12.3566
演說如是般若波羅蜜多甚深經時	-12.3567
而知菩提道無性為自性	-12.3569
不為惡魔之所擾亂	-12.3569
離故有情亦離	-12.357
後際菩薩摩訶薩不可得	-12.357
前際菩薩摩訶薩不可得	-12.357
本性無縛無脫則非	-12.3572
乃至由尋香城	-12.3572
乃至屬尋香城	-12.3572
俱盧舍	-12.3572
揭路茶	-12.3573
亦不執屬幻	-12.3574
是摩訶衍不能勝出一切世間及諸天	-12.3574
本性清淨不清淨	-12.3575
應生嗔恨	-12.3576
尚不見無堅實可得	-12.3577
云何如來知眾生	-12.3577
況見有堅實可得	-12.3577
光音天	-12.3577
不可以空而得空便	-12.3579
想有退轉故名不退轉	-12.358
諂曲	-12.358
亦無有定法如來可說	-12.358
離即有情離	-12.3581
奮迅	-12.3582
發引而	-12.3582
赫	-12.3582
忽然不現	-12.3583
瑕穢	-12.3583
三世諸佛依般若波羅蜜多故	-12.3583
蘊界處	-12.3583
離彼是如來	-12.3585
栰	-12.3586
而受化者	-12.3586
福不趣菩提	-12.3587
三十二大人相	-12.3587
肢	-12.3588
非相非無相	-12.3589
庠	-12.3591
輙	-12.3592
同真際等法性	-12.3592
濤	-12.3592
住不定心	-12.3594
件	-12.3594
軌範	-12.3595
膿血	-12.3595
瑪瑙	-12.3596
殄	-12.3596
搏	-12.3596
街	-12.3596
蓬	-12.3597
樓閣	-12.3598
生如來家	-12.3598
明心見性	-12.3599
嬰	-12.36
罕	-12.3601
舞	-12.3602
答第二問	-12.3603
武帝	-12.3605
庫	-12.3605
躶	-12.3607
霞	-12.3609
願得無願	-12.3611
賢愚經	-12.3613
妙觀察智	-12.3615
睛	-12.3615
不可以心思	-12.3615
雷電	-12.3617
詢	-12.3618
猿	-12.3619
韋	-12.3622
屍	-12.3623
見有眾生可度	-12.3639
諸佛之母	-12.3654
殑伽	-12.3691
菩薩摩訶薩所學般若波羅蜜多亦無邊	-12.3774
伽藍	-12.3793
辟支	-12.3805
清淨即色清淨	-12.3827
若不隨順修行	-12.3863
亦教他人令行	-12.3867
應當了知有	-12.387
亦不聞有	-12.3872
六欲諸天	-12.3872
應知不應著	-12.3874
摩訶僧那僧涅	-12.3874
無餘依般涅槃界	-12.3875
以妙七寶起窣堵波	-12.3877
正等覺及弟子等功德善根	-12.3877
釋提桓因語須菩提	-12.3879
汝至彼界應住正	-12.3879
見有法能取能著	-12.388
以大因緣而生彼	-12.3882
利益安樂無量有情	-12.3882
所有諸須彌山王	-12.3883
若此二名皆	-12.3883
四大王眾天乃至他化自在天	-12.3883
九次第禪	-12.3884
八惟無	-12.3884
擐大功德鎧	-12.3884
建立眾生於	-12.3884
此真如既非有	-12.3886
不起惠施慳貪	-12.3886
無染污故	-12.3886
頗有眾生於未來世	-12.3886
具壽善現不壞如是	-12.3886
云何圓滿波羅蜜多	-12.3887
若不圓滿波羅蜜多	-12.3887
捨念清淨	-12.3887
菩薩摩訶薩菩薩摩訶薩性空	-12.3887
若菩薩心住於法而行布施	-12.3889
天帝釋問善現言	-12.3889
初地乃至十地	-12.3889
若能若所內外	-12.389
若人滿三千大千世界七寶以用布施	-12.3891
驗知不退轉菩薩摩訶薩	-12.3891
險惡趣	-12.3891
心及心所	-12.3892
所種善根得增長故	-12.3893
名義既無所有	-12.3893
於汝意中	-12.3894
菩薩心不應住色布施	-12.3894
亦不發起執著	-12.3894
多陀阿伽度	-12.3895
不執依幻乃至依尋香城	-12.3895
不執是幻乃至是	-12.3895
由平等學	-12.3895
為不可思議事	-12.3896
去我遠	-12.3896
亦不執由幻	-12.3896
無著無縛亦無解脫	-12.3897
若中若邊皆不可得	-12.3898
由是因緣而無二想	-12.3898
捫	-12.3899
能知無量無數眾生如是	-12.3899
如實了知無量無數眾生	-12.3899
皆無自性可合	-12.39
即為是塔	-12.3901
及惱害事	-12.3902
四沙門果	-12.3902
是時菩薩摩訶薩便	-12.3903
甚深般若波羅蜜多尚無所有	-12.3904
法與非法	-12.3904
膿	-12.3905
共見正行	-12.3905
筭	-12.3907
腐	-12.3908
從是東行	-12.3909
汲	-12.3909
二能趣菩提	-12.3909
猶若金剛	-12.391
另	-12.3912
內無色相外觀色	-12.3914
矜	-12.3914
旹	-12.3914
打成一片	-12.3917
夭	-12.3917
亦無彼施設	-12.3917
從不定心	-12.3917
答第三問	-12.3918
天龍八部	-12.3918
膖脹	-12.3918
屈伸	-12.3919
貨	-12.392
肝	-12.3923
當爾之時	-12.3924
舜	-12.3924
人人本具	-12.3925
芬	-12.3925
閃	-12.3926
趙	-12.3926
佇	-12.3929
請百法師	-12.3931
惶	-12.3931
爆	-12.3932
笈	-12.3932
臍	-12.3932
無自無他	-12.3934
咽	-12.3936
雹	-12.3936
儼	-12.394
九百九十	-12.3941
淨飯王	-12.3943
判此一段經文	-12.3946
鷺	-12.3953
等亦如是量不	-12.3967
波羅蜜多相應法教	-12.3984
某開士	-12.4131
實有性者	-12.4197
觀所棄屍	-12.4203
自念我身有如是性	-12.4205
為欲調伏世貪憂故	-12.4207
毘梨耶	-12.4209
雖有所為而無	-12.4212
幢幡寶蓋	-12.4212
若隨彼力	-12.4212
則於是處佛無所有	-12.4213
為有實不	-12.4213
聲聞及諸獨覺亦	-12.4213
皆由如是甚深般若波羅蜜多而得生故	-12.4215
佛以甚奇微妙方便	-12.4217
鍵	-12.4218
為菩薩說大般若波羅蜜多	-12.4219
不可保信	-12.4219
等假名而說	-12.4219
依彼修道有離雜染得清淨不	-12.4219
求菩薩道善男子	-12.422
為欲利樂諸有情故發趣大乘	-12.4222
至圓滿位	-12.4222
常學菩薩摩訶薩眾所應學	-12.4222
不離於法身	-12.4223
中際菩薩摩訶薩皆不可得	-12.4223
不能具足修諸菩薩摩訶薩行	-12.4224
佛以五眼求	-12.4224
旃荼羅	-12.4224
同一真如無二無別	-12.4224
及脫有情生死眾苦	-12.4224
卷第八十	-12.4225
便能圓滿波羅蜜多	-12.4225
無有定法名阿耨多羅三藐三菩提	-12.4227
眼界眼界自性空	-12.4227
性等空無所有不可得	-12.4228
我得阿耨多羅三藐三菩提時	-12.4228
是菩薩摩訶薩如是學般若波羅蜜多	-12.4228
以所住習	-12.4228
如尊者所云	-12.4229
去我近	-12.4229
得波羅蜜名字	-12.4229
波羅蜜多是菩薩摩訶薩般若波羅蜜多	-12.4233
方便教導令住	-12.4233
菩薩摩訶薩若如是行	-12.4235
諍訟	-12.4235
此中自說因緣	-12.4236
不及其一	-12.4236
如來者即諸法如義	-12.4237
故說諸菩薩摩訶薩但有假名都無自性	-12.4238
鬬	-12.4239
杌	-12.4243
圈	-12.4243
屑	-12.4246
妬	-12.4248
撫	-12.4254
溈	-12.4255
旃	-12.4256
巢	-12.4257
淑	-12.4258
塹	-12.4259
詠	-12.4259
勃	-12.426
翹	-12.427
怎	-12.4271
鄭	-12.4272
叡	-12.4272
煎	-12.4274
鴦	-12.4274
欄	-12.4274
疣	-12.4275
鴻	-12.4278
恕	-12.4291
㝡	-12.4569
欻	-12.4574
沼	-12.4579
憨	-12.4582
牟	-12.4587
薜	-12.4591
楷	-12.4592
概	-12.4596
伯	-12.4597
卯	-12.4597
祿	-12.4599
淤	-12.4599
操	-12.46
唧	-12.4601
痕	-12.4602
炳	-12.4609
滑	-12.461
姚	-12.461
迫	-12.4611
裁	-12.4611
匿	-12.4611
垣	-12.4611
縮	-12.4612
墻	-12.4613
溢	-12.4614
龐	-12.4618
剪	-12.4626
哲	-12.4635
錫	-12.464
怙	-12.4803
佈	-12.4918
卻	-12.4945
巡	-12.4946
戌	-12.4947
蘗	-12.4948
曆	-12.4949
躁	-12.4951
咒	-12.4952
妓	-12.4952
朋	-12.4956
斛	-12.4957
魯	-12.4957
鷹	-12.4958
倐	-12.496
額	-12.496
償	-12.496
慨	-12.496
候	-12.4962
戊	-12.4964
鐸	-12.4964
羂	-12.4964
跳	-12.4968
迤	-12.497
昨	-12.4971
烈	-12.4971
社	-12.4971
豹	-12.4974
蔔	-12.4975
溥	-12.4977
岐	-12.4978
寰	-12.4992
歿	-12.5299
駭	-12.5309
袪	-12.5316
貼	-12.5318
銳	-12.5319
攞	-12.5319
沖	-12.5319
愕	-12.532
揆	-12.5322
敕	-12.5323
玻	-12.5325
憚	-12.5325
壬	-12.5326
兜	-12.5326
󲊛	-12.5329
卜	-12.533
蟻	-12.5331
栢	-12.5332
賞	-12.5332
郎	-12.5333
<	-12.5333
i	-12.5333
m	-12.5333
g	-12.5334
孕	-12.5335
爽	-12.5336
腋	-12.5336
𦘕	-12.5336
夾	-12.5337
譚	-12.5338
吃	-12.5338
鍾	-12.5341
突	-12.5342
桓	-12.5344
邐	-12.5344
壓	-12.5349
妖	-12.5356
誇	-12.536
癘	-12.5673
軛	-12.5689
㲉	-12.5696
拭	-12.5699
廁	-12.5701
蚊	-12.5703
恍	-12.5704
倉	-12.5704
屹	-12.5707
冲	-12.5708
貢	-12.5711
它	-12.5711
熈	-12.5712
饉	-12.5714
窒	-12.5714
煮	-12.5717
殻	-12.5717
恬	-12.5717
撒	-12.5718
膳	-12.5718
帛	-12.5723
鎻	-12.5725
滄	-12.5727
嬭	-12.573
尿	-12.5732
琴	-12.5732
汁	-12.5733
鶖	-12.5734
栽	-12.6086
-	-12.6093
觧	-12.6094
株	-12.6095
蝶	-12.6104
尠	-12.6104
賁	-12.6107
迄	-12.6107
冒	-12.6108
遜	-12.611
怜	-12.611
撞	-12.611
膊	-12.611
嬉	-12.611
猜	-12.6111
囇	-12.6112
壅	-12.6112
矧	-12.6112
跢	-12.6113
癈	-12.6114
肘	-12.6115
壑	-12.6119
綴	-12.6122
瑜	-12.6123
昆	-12.6125
勳	-12.613
濶	-12.6508
憤	-12.651
禱	-12.6512
濡	-12.6515
妹	-12.652
悖	-12.652
矛	-12.6525
贅	-12.6526
杳	-12.6526
堆	-12.6529
蹄	-12.6529
侯	-12.6531
霑	-12.6532
洎	-12.6536
晞	-12.6536
亮	-12.6538
迂	-12.6541
叩	-12.6541
輿	-12.6541
瓜	-12.6543
攘	-12.6545
替	-12.6545
醎	-12.6547
𤏙	-12.6547
陛	-12.655
釘	-12.6552
卓	-12.6552
橛	-12.6552
澁	-12.6553
坡	-12.6555
汩	-12.6557
挽	-12.6557
盂	-12.6557
囕	-12.6948
螫	-12.6953
舛	-12.6953
挑	-12.6956
晃	-12.6957
絃	-12.6957
溝	-12.6958
􂏔	-12.6958
熙	-12.6958
控	-12.6961
丙	-12.6962
頴	-12.6962
挍	-12.6963
踴	-12.6964
祛	-12.6964
瘦	-12.6965
懇	-12.6965
埽	-12.6967
禽	-12.6969
礦	-12.6971
淘	-12.6971
妍	-12.6973
冐	-12.6974
庚	-12.6974
柴	-12.6974
馨	-12.6975
態	-12.6975
楯	-12.6976
􂏓	-12.6976
泐	-12.6978
稠	-12.6978
旛	-12.6979
煗	-12.6981
岩	-12.6983
臟	-12.6987
琦	-12.6991
斧	-12.6999
苾	-12.7388
轅	-12.7395
輞	-12.7399
癸	-12.7401
腸	-12.7402
𤦲	-12.7402
厘	-12.7407
矚	-12.7408
讎	-12.7408
台	-12.741
擅	-12.7412
陂	-12.7413
宙	-12.7414
犍	-12.7415
漠	-12.7415
輟	-12.7416
旗	-12.7416
迸	-12.7417
拆	-12.7418
雕	-12.7419
坌	-12.7419
鵝	-12.742
燕	-12.742
枷	-12.7423
誣	-12.7423
掘	-12.7424
雞	-12.7425
奮	-12.7426
岳	-12.7427
胃	-12.7428
滓	-12.7428
堦	-12.743
沃	-12.7431
翠	-12.7432
燸	-12.7435
貶	-12.7437
鴛	-12.7437
霄	-12.7438
孃	-12.7438
裴	-12.744
懊	-12.7444
蒲	-12.7452
傅	-12.7498
幅	-12.7855
軒	-12.7874
懅	-12.7876
蝎	-12.7882
縹	-12.7883
竿	-12.7884
眩	-12.7886
捲	-12.7888
嗢	-12.7889
馥	-12.7889
尅	-12.789
稿	-12.7892
竇	-12.7892
膜	-12.7894
暉	-12.7896
洽	-12.7897
衫	-12.7897
𠺁	-12.7898
隸	-12.7898
迨	-12.7899
聻	-12.79
掇	-12.7902
疥	-12.7905
茅	-12.7906
緯	-12.7906
挾	-12.7907
熊	-12.7908
兢	-12.791
猪	-12.7913
誌	-12.7913
枕	-12.7919
鑊	-12.7933
碍	-12.8371
貯	-12.838
蹙	-12.838
昂	-12.8382
詶	-12.8382
榜	-12.8382
料	-12.8382
釐	-12.8384
農	-12.8385
膾	-12.8387
嚼	-12.8387
鎞	-12.8389
箱	-12.8389
糜	-12.8389
秖	-12.8393
鑰	-12.8393
掠	-12.8394
姪	-12.8394
蔓	-12.8395
諒	-12.8395
迥	-12.8395
陞	-12.8396
廿	-12.8398
喉	-12.8398
覈	-12.8398
涵	-12.8399
廼	-12.8401
駄	-12.8401
堯	-12.8401
褥	-12.8402
朵	-12.8403
織	-12.8404
穰	-12.8404
匹	-12.8405
罄	-12.8406
綜	-12.8407
儲	-12.8409
肥	-12.8409
恢	-12.841
疆	-12.8412
拿	-12.8413
征	-12.842
祭	-12.8421
抗	-12.8422
帖	-12.8428
郊	-12.8433
●	-12.8525
坏	-12.8901
穽	-12.8901
弁	-12.8903
介	-12.8903
柄	-12.8904
幹	-12.8906
飼	-12.8907
啄	-12.8911
瀑	-12.8913
惛	-12.8916
醯	-12.8916
詭	-12.8917
雀	-12.8917
畵	-12.8917
脆	-12.8918
驕	-12.892
衷	-12.892
咲	-12.8922
膺	-12.8922
譌	-12.8926
佑	-12.8927
脂	-12.8928
㲲	-12.8929
吏	-12.8929
嗜	-12.893
臼	-12.8931
凍	-12.8931
鶯	-12.8931
錐	-12.8933
棘	-12.8934
縵	-12.8935
臘	-12.8935
吟	-12.8936
稚	-12.8936
泄	-12.8937
澗	-12.8937
鼎	-12.8938
姝	-12.8939
墳	-12.8943
耕	-12.8944
碩	-12.8946
脹	-12.8946
邁	-12.8947
逞	-12.8951
韓	-12.8973
耄	-12.9435
囿	-12.945
谿	-12.9453
轂	-12.9457
蝕	-12.9465
翫	-12.9465
軆	-12.9466
嚬	-12.9466
惚	-12.9467
飡	-12.9467
吝	-12.9467
驀	-12.9469
貿	-12.9469
矩	-12.947
撾	-12.9471
翦	-12.9471
楫	-12.9471
諧	-12.9472
囂	-12.9475
鏤	-12.9477
援	-12.9477
頷	-12.9478
凜	-12.9479
硬	-12.948
肌	-12.9482
繭	-12.9482
侮	-12.9482
灼	-12.9483
惻	-12.9483
邇	-12.9484
嵩	-12.9485
敲	-12.9486
爹	-12.9487
鼠	-12.9488
漲	-12.9489
屣	-12.9489
脣	-12.949
朔	-12.949
棟	-12.949
蜀	-12.9492
悠	-12.9493
燼	-12.9493
儔	-12.9501
鱗	-12.9501
擎	-12.9502
媚	-12.9502
叨	-12.9503
辜	-12.9504
姿	-12.9505
掣	-12.9506
澹	-12.9507
抖	-12.9508
厲	-12.9523
蟾	-12.9527
邠	-13.0041
荅	-13.0044
聆	-13.0045
呿	-13.0049
喏	-13.0049
乩	-13.005
妾	-13.005
繕	-13.0054
釆	-13.0056
鐫	-13.0057
亟	-13.0058
瑣	-13.0059
慣	-13.006
􂏖	-13.0061
舡	-13.0061
潑	-13.0062
企	-13.0062
縫	-13.0063
肺	-13.0064
謾	-13.0064
鄔	-13.0064
鉄	-13.0065
睹	-13.0065
縈	-13.0065
脾	-13.0066
謁	-13.0066
挺	-13.0066
萎	-13.0067
慜	-13.0067
轆	-13.0067
禦	-13.0068
塑	-13.0068
胥	-13.0068
遼	-13.0068
邀	-13.007
拽	-13.007
頰	-13.0071
饍	-13.0071
婁	-13.0071
躄	-13.0071
盾	-13.0072
慟	-13.0072
雁	-13.0073
攢	-13.0073
揑	-13.0074
髑	-13.0075
班	-13.0075
陁	-13.0076
課	-13.0076
晴	-13.0077
坎	-13.0077
籌	-13.0078
歛	-13.0079
𦟛	-13.008
填	-13.0082
蕃	-13.0085
陟	-13.0085
鳧	-13.0086
宍	-13.0086
刮	-13.0087
佳	-13.009
耻	-13.0095
亭	-13.0101
蟒	-13.0128
絮	-13.0656
誹	-13.0667
筒	-13.0672
旅	-13.0673
惰	-13.0674
仔	-13.0676
湏	-13.0676
憾	-13.0678
况	-13.0678
抹	-13.0679
培	-13.068
徇	-13.0682
戮	-13.0682
繹	-13.0682
腫	-13.0682
㵎	-13.0682
拋	-13.0683
蜫	-13.0683
燎	-13.0684
蛾	-13.0686
疽	-13.0686
虞	-13.0687
桑	-13.0687
擴	-13.0689
駛	-13.0689
裘	-13.0691
跨	-13.0691
賾	-13.0691
杭	-13.0695
漁	-13.0695
蠶	-13.0696
恤	-13.0698
毅	-13.0699
毱	-13.0699
孩	-13.0701
僉	-13.0702
悴	-13.0704
液	-13.0704
催	-13.0705
賒	-13.0705
甜	-13.0707
罷	-13.0707
翰	-13.0708
玲	-13.0709
潰	-13.071
迯	-13.071
峻	-13.0711
溟	-13.0714
訴	-13.0725
澆	-13.0729
宴	-13.1279
胝	-13.1313
掖	-13.1328
輯	-13.1328
鋼	-13.1334
盟	-13.1338
碑	-13.134
榻	-13.1342
摶	-13.1344
撓	-13.1344
虻	-13.1345
雌	-13.1346
俞	-13.1348
坊	-13.1353
窠	-13.1353
桶	-13.1353
蠱	-13.1353
彗	-13.1354
忖	-13.1354
酧	-13.1355
械	-13.1357
皃	-13.1359
酸	-13.1359
拶	-13.1359
浸	-13.136
嚧	-13.136
靠	-13.136
澍	-13.1361
拍	-13.1363
矢	-13.1363
娶	-13.1364
讒	-13.1365
汪	-13.1365
尖	-13.1365
釵	-13.1366
暎	-13.1366
沽	-13.1367
閙	-13.1368
淮	-13.1368
廉	-13.1369
陌	-13.1369
罩	-13.137
鋪	-13.137
踝	-13.137
襟	-13.1371
狥	-13.1373
憩	-13.1374
築	-13.1375
凋	-13.1376
桎	-13.1377
踞	-13.1378
怱	-13.1385
臝	-13.1395
貽	-13.1399
卅	-13.14
踈	-13.2045
幔	-13.2047
酌	-13.2049
寇	-13.2051
劓	-13.2053
姟	-13.2054
惒	-13.2054
綽	-13.2056
劂	-13.2057
贈	-13.2058
晰	-13.2059
蠡	-13.2059
蹔	-13.2059
槁	-13.206
冊	-13.2061
獎	-13.2062
奕	-13.2062
籟	-13.2062
霈	-13.2064
覿	-13.2064
蠅	-13.2064
阜	-13.2065
犀	-13.2066
儗	-13.2067
齡	-13.2068
璨	-13.207
酤	-13.207
溉	-13.207
鸞	-13.2073
猷	-13.2073
顰	-13.2073
賦	-13.2076
郭	-13.2077
誅	-13.2078
涎	-13.2079
敦	-13.2079
搥	-13.208
禾	-13.2081
㝹	-13.2082
鑪	-13.2084
遑	-13.2084
蜾	-13.2085
黜	-13.2085
𨷂	-13.2085
聶	-13.2086
斑	-13.2087
描	-13.2088
募	-13.2088
敝	-13.2089
侔	-13.209
彫	-13.209
鸚	-13.209
唇	-13.209
巴	-13.2091
麵	-13.2091
睒	-13.2091
蒸	-13.2092
坤	-13.2093
葫	-13.2094
銜	-13.2094
叶	-13.2095
椽	-13.21
睫	-13.2106
慘	-13.211
勾	-13.2111
愽	-13.2118
棺	-13.2133
舋	-13.2804
署	-13.2814
恡	-13.2815
虱	-13.282
翛	-13.282
股	-13.2822
慌	-13.2823
蕭	-13.2826
糠	-13.2827
攣	-13.2827
譴	-13.2828
柯	-13.2829
澈	-13.283
胤	-13.2831
袋	-13.2831
􂏥	-13.2832
梗	-13.2832
隷	-13.2833
臚	-13.2835
僂	-13.2836
携	-13.2838
崛	-13.2838
渚	-13.2839
禎	-13.2839
擘	-13.2839
侈	-13.284
顆	-13.2841
詺	-13.2842
曝	-13.2842
沌	-13.2843
掀	-13.2844
攸	-13.2844
仕	-13.2845
琰	-13.2845
絆	-13.2845
懵	-13.2847
􂎶	-13.2847
挂	-13.2847
妊	-13.2847
𠰢	-13.2848
氛	-13.2848
涓	-13.285
員	-13.285
蘖	-13.285
綩	-13.2851
斂	-13.2851
瞎	-13.2851
琅	-13.2852
餚	-13.2853
燄	-13.2854
煬	-13.2854
峨	-13.2855
癢	-13.2859
跣	-13.2859
墓	-13.2861
刷	-13.2861
謚	-13.2865
副	-13.2868
嵐	-13.2872
黏	-13.2875
祚	-13.2877
頹	-13.2877
嗽	-13.2879
献	-13.2879
傑	-13.288
塚	-13.2882
赦	-13.2883
襄	-13.2919
呰	-13.3637
狎	-13.3643
蚤	-13.3648
鵲	-13.3652
瞑	-13.3652
慠	-13.3653
浙	-13.3654
孚	-13.3657
疋	-13.366
剏	-13.366
㗚	-13.366
憒	-13.3662
黍	-13.3663
鼈	-13.3664
秫	-13.3664
剜	-13.3664
卉	-13.3666
漆	-13.3666
輾	-13.3668
硨	-13.3668
慇	-13.3668
挈	-13.3668
蕪	-13.3669
瀉	-13.367
姤	-13.3672
衒	-13.3672
鋑	-13.3673
邈	-13.3674
稼	-13.3674
䥫	-13.3675
銘	-13.3675
湮	-13.3678
媸	-13.3678
弩	-13.3679
估	-13.368
猫	-13.3681
餌	-13.3682
淹	-13.3683
瘥	-13.3684
聳	-13.3684
卦	-13.3685
漉	-13.3685
肪	-13.3685
槌	-13.3686
庾	-13.3686
臧	-13.3687
憲	-13.3687
俠	-13.3688
髣	-13.3689
芻	-13.3689
艸	-13.3689
鱉	-13.369
緬	-13.369
仞	-13.369
虐	-13.3691
璞	-13.3691
菜	-13.3692
磧	-13.3693
偉	-13.3693
讐	-13.3694
俊	-13.3696
紐	-13.3699
睿	-13.3699
撤	-13.37
葬	-13.37
磕	-13.3702
軫	-13.3705
牀	-13.371
稀	-13.3712
嶷	-13.3713
萇	-13.3758
榍	-13.4521
舶	-13.4545
抉	-13.4548
粒	-13.4551
瞭	-13.4554
兇	-13.4556
蛆	-13.4558
朴	-13.4561
材	-13.4563
篌	-13.4566
詒	-13.4567
箜	-13.4567
癲	-13.4569
撩	-13.4569
燦	-13.457
粹	-13.457
傘	-13.457
𤚥	-13.457
◎	-13.4571
繆	-13.4572
駝	-13.4573
皂	-13.4575
懽	-13.4576
􂎹	-13.4576
磲	-13.4577
咤	-13.4578
磚	-13.4578
嘶	-13.4579
袍	-13.4579
沿	-13.4581
犢	-13.4582
婉	-13.4582
魄	-13.4583
匡	-13.4583
巘	-13.4584
蒂	-13.4584
㭊	-13.4584
韈	-13.4585
閔	-13.4585
肖	-13.4585
貳	-13.4586
踵	-13.4586
柁	-13.4587
暨	-13.4587
咬	-13.4587
犬	-13.4587
狸	-13.4588
稗	-13.4588
抳	-13.4588
収	-13.4588
盆	-13.4589
义	-13.4589
賑	-13.4589
館	-13.459
盞	-13.459
瞽	-13.459
䐡	-13.4591
簸	-13.4591
餐	-13.4591
懶	-13.4591
勁	-13.4592
戎	-13.4592
虵	-13.4593
奩	-13.4593
栖	-13.4593
稷	-13.4594
郁	-13.4596
媿	-13.4596
樵	-13.4597
鞋	-13.4598
㘞	-13.4598
疱	-13.4599
頞	-13.4599
森	-13.4599
齅	-13.46
窓	-13.46
薝	-13.46
弼	-13.4603
鉗	-13.4603
毬	-13.4603
馭	-13.4603
慙	-13.4606
彥	-13.4609
捍	-13.461
繡	-13.461
閭	-13.4611
霽	-13.4611
𠎝	-13.4612
儂	-13.4614
搬	-13.4637
㒵	-13.466
槽	-13.5541
棍	-13.5542
濠	-13.5544
劑	-13.5551
蜎	-13.5556
沓	-13.5556
碯	-13.5557
螻	-13.5557
瑙	-13.556
尉	-13.556
塘	-13.556
摽	-13.556
脛	-13.5561
洵	-13.5561
仝	-13.5561
翱	-13.5562
虜	-13.5562
拖	-13.5562
佷	-13.5563
糟	-13.5566
頤	-13.5566
壺	-13.5566
郝	-13.557
絹	-13.5572
粳	-13.5573
萃	-13.5574
浣	-13.5574
錎	-13.5574
軻	-13.5575
欵	-13.5576
坻	-13.5576
范	-13.5578
衝	-13.5578
需	-13.5579
誥	-13.5579
痆	-13.5581
􂎫	-13.5581
喘	-13.5583
霖	-13.5584
琢	-13.5585
霔	-13.5585
躋	-13.5586
淆	-13.5586
湊	-13.5589
鍼	-13.5589
酢	-13.5589
枚	-13.5589
杻	-13.5589
糧	-13.559
協	-13.5591
叔	-13.5591
靖	-13.5591
蝦	-13.5592
閇	-13.5593
毳	-13.5593
叱	-13.5594
鎚	-13.5595
濃	-13.5595
羨	-13.5598
胄	-13.5598
媒	-13.5598
迺	-13.5598
蚖	-13.5598
釧	-13.5598
菊	-13.5599
歘	-13.56
擡	-13.56
鍛	-13.5601
闐	-13.5602
捔	-13.5604
簇	-13.5604
烹	-13.5604
糊	-13.5607
揩	-13.5607
裕	-13.5611
裳	-13.5612
牖	-13.5613
挫	-13.5613
縠	-13.5613
丞	-13.5615
揖	-13.5616
䜝	-13.5616
卍	-13.5619
棗	-13.5621
寵	-13.5621
裙	-13.5623
袴	-13.5626
銕	-13.5631
潺	-13.5637
駐	-13.5637
蟹	-13.564
斆	-13.566
〡	-13.5662
埃	-13.6071
拄	-13.6628
鵄	-13.6644
謎	-13.6645
恂	-13.6654
凾	-13.6655
鹹	-13.6666
閩	-13.6669
剔	-13.6669
構	-13.6669
龔	-13.6674
随	-13.6675
㓔	-13.6676
泆	-13.6676
獅	-13.6678
蹇	-13.6679
晁	-13.6679
皰	-13.668
菽	-13.668
唄	-13.668
鉾	-13.6682
謟	-13.6682
猥	-13.6683
叟	-13.6683
躲	-13.6684
漱	-13.6685
苞	-13.6685
盥	-13.6687
襪	-13.6687
帽	-13.6688
跏	-13.6689
嚟	-13.6689
臰	-13.669
掬	-13.6691
来	-13.6693
邱	-13.6694
朅	-13.6695
驟	-13.6696
燥	-13.6696
蘿	-13.6697
僣	-13.6697
窗	-13.6698
𨄔	-13.6699
几	-13.6699
顇	-13.6699
迆	-13.67
𡱁	-13.6701
錘	-13.6702
垓	-13.6703
柏	-13.6704
焬	-13.6704
颺	-13.6706
𧹞	-13.6706
姹	-13.6707
叛	-13.6707
佩	-13.6707
崔	-13.6707
饌	-13.6708
鋤	-13.6708
轡	-13.6709
玷	-13.6711
蓐	-13.6711
駁	-13.6711
鵒	-13.6712
逶	-13.6713
浦	-13.6713
冶	-13.6714
犁	-13.6714
粧	-13.6714
羹	-13.6715
韜	-13.6715
拷	-13.6716
甦	-13.6716
曀	-13.6716
宵	-13.6716
諳	-13.6717
儜	-13.6717
誚	-13.6717
䬸	-13.6718
褒	-13.6718
黶	-13.672
熬	-13.6721
蓄	-13.6723
撲	-13.6725
屆	-13.6725
觜	-13.6726
徤	-13.6728
廚	-13.673
呀	-13.6735
擒	-13.6735
藪	-13.6738
蠟	-13.674
刼	-13.6744
穎	-13.6748
𩯭	-13.675
㮈	-13.6756
堵	-13.7892
徽	-13.7902
鹵	-13.7908
緘	-13.7908
襍	-13.7912
蟣	-13.7913
熄	-13.7913
婀	-13.7915
渙	-13.7915
剗	-13.7916
貲	-13.7922
牘	-13.7922
𨵗	-13.7925
稔	-13.7925
𠍴	-13.7925
詁	-13.7926
攷	-13.7926
匃	-13.7928
荻	-13.793
版	-13.793
抂	-13.7932
紆	-13.7933
痊	-13.7933
繳	-13.7933
窄	-13.7935
衿	-13.7935
驪	-13.7935
駟	-13.7936
吻	-13.7936
諄	-13.7936
摭	-13.7937
濂	-13.7937
覃	-13.794
鋟	-13.7941
遁	-13.7941
䖍	-13.7941
喇	-13.7941
泳	-13.7943
捻	-13.7943
悚	-13.7944
諛	-13.7945
盪	-13.7945
呆	-13.7945
糺	-13.7945
峙	-13.7946
芒	-13.7946
袖	-13.7946
𤸱	-13.7947
涘	-13.7948
潘	-13.7949
廝	-13.7949
駿	-13.7949
跌	-13.7949
撈	-13.7949
霆	-13.7949
羝	-13.795
諺	-13.795
插	-13.795
磔	-13.795
販	-13.7951
黯	-13.7951
滾	-13.7951
仇	-13.7951
賖	-13.7951
兀	-13.7952
䆳	-13.7953
殫	-13.7953
粵	-13.7953
慞	-13.7954
瘧	-13.7954
万	-13.7954
奸	-13.7954
沛	-13.7954
莽	-13.7954
肋	-13.7955
漬	-13.7955
疇	-13.7957
鍮	-13.7957
燿	-13.7958
稅	-13.7958
眸	-13.7958
蹲	-13.7959
葷	-13.7959
錠	-13.796
弑	-13.7961
埏	-13.7961
暝	-13.7961
闌	-13.7962
茹	-13.7962
禹	-13.7963
萄	-13.7963
婚	-13.7964
棃	-13.7967
系	-13.7968
堞	-13.7969
癬	-13.7971
奄	-13.7972
魑	-13.7972
埿	-13.7972
褁	-13.7973
潮	-13.7974
宸	-13.7976
彭	-13.7979
嘴	-13.7982
蟬	-13.7982
濯	-13.7987
爵	-13.7989
懿	-13.7992
麞	-13.7994
墀	-13.7998
龕	-13.7999
圻	-13.9328
泠	-13.9328
祁	-13.9331
梟	-13.9333
杲	-13.9339
殯	-13.9342
冉	-13.9343
廕	-13.9343
匙	-13.9345
璋	-13.9346
盎	-13.9347
耑	-13.9347
敞	-13.9347
僥	-13.9348
徼	-13.9348
擺	-13.935
傚	-13.9351
梢	-13.9353
r	-13.9353
查	-13.9355
慄	-13.9356
歐	-13.9356
璅	-13.9357
丐	-13.936
湻	-13.9361
嚝	-13.9362
侗	-13.9364
訾	-13.9365
簾	-13.9367
慊	-13.9367
竣	-13.9367
咩	-13.9368
櫱	-13.9368
妣	-13.9369
缾	-13.9369
羈	-13.9371
呻	-13.9372
筵	-13.9375
肚	-13.9375
樁	-13.9375
牌	-13.9376
溷	-13.9376
架	-13.9376
柝	-13.9376
墼	-13.9376
抒	-13.9376
皺	-13.9379
窈	-13.9379
秩	-13.938
渰	-13.938
咀	-13.9382
羆	-13.9382
幃	-13.9382
佞	-13.9382
劄	-13.9384
罹	-13.9384
寮	-13.9384
仆	-13.9384
勗	-13.9386
狩	-13.9387
狡	-13.9388
惕	-13.9388
圜	-13.9389
煌	-13.9391
憣	-13.9391
粥	-13.9391
笏	-13.9391
庖	-13.9392
寘	-13.9392
壍	-13.9394
俛	-13.9395
曬	-13.9399
燧	-13.9401
噵	-13.9404
粮	-13.9407
眵	-13.9408
攪	-13.941
扁	-13.9411
伶	-13.9411
垠	-13.9416
搦	-13.9422
島	-13.9423
娠	-13.9432
奠	-13.9432
炅	-13.9465
央	-14.0874
芸	-14.1006
o	-14.102
訊	-14.1023
帥	-14.1025
珞	-14.1027
瓔	-14.2998
纓	-14.3023
栴	-14.3038
叮	-14.3051
姻	-14.3082
緻	-14.552
䵻	-14.5542
搗	-14.5614
闥	-14.8848
詈	-14.8858
釣	-14.8865
恁	-14.887
售	-14.888
蔗	-14.8883
巍	-14.889
臾	-15.3846
殑	-15.3852
瑪	-15.3853
痒	-15.3875
膖	-15.39
冑	-15.3916
礰	-16.3824
礔	-16.3825
瞌	-16.3826
漕	-16.3827
斵	-16.3828
颯	-16.3829
聒	-16.383
碼	-16.3831
犲	-16.3832
䫂	-16.3833
魁	-16.3834
薔	-16.3835
薇	-16.3836
袈	-16.3837
繽	-16.3837
晡	-16.3838
憺	-16.3839
弶	-16.384
奬	-16.3841
茵	-16.3842
矻	-16.3843
癎	-16.3844
獃	-16.3845
滎	-16.3846
孜	-16.3847
圄	-16.3848
囹	-16.3849
唳	-16.385
倆	-16.3851
髴	-16.3852
閼	-16.3853
瓈	-16.3854
撕	-16.3855
拇	-16.3856
悍	-16.3857
鱍	-16.3858
萊	-16.3859
梏	-16.386
瘀	-16.386
裟	-16.3861
剞	-16.3861
鵡	-16.3862
璸	-16.3863
絺	-16.3864
刖	-16.3865
哮	-16.3866
蝴	-16.3867
紜	-16.3868
嚀	-16.3869
擻	-16.3869
惆	-16.387
悵	-16.3871
琥	-16.3872
蠕	-16.3873
靂	-16.3874
霹	-16.3875
螟	-16.3876
蛉	-16.3877
獼	-16.3878
骷	-16.3879
纜	-16.388
瘖	-16.3881
荔	-16.3882
珀	-16.3883
醐	-16.3884
醍	-16.3885
>	-16.3886
璿	-16.3887
幖	-16.3888
僮	-16.3889
崑	-16.389
婇	-16.3891
寞	-16.3892
芭	-16.3893
瑠	-16.3894
+	-16.3895
閦	-16.3896
[	-16.3897
瑚	-16.3898
逍	-16.3899
窣	-16.39
匱	-16.3901
琉	-16.3902
忉	-16.3903
N	-16.3904
闓	-16.3905
楞	-16.3906
—	-16.3907
|	-16.3908
*	-16.3909
港	-16.3909
