<unk>	0
<s>	0
</s>	0
之	-4.29043
(	-4.61251
書	-5.03329
/	-5.06653
而	-5.07915
有	-5.12877
為	-5.14051
以	-5.20921
也	-5.26553
/)	-5.27286
其	-5.29415
一	-5.31812
)	-5.33969
人	-5.38484
者	-5.43496
不	-5.485
於	-5.60983
畫	-5.66773
中	-5.69896
圖	-5.71076
字	-5.75033
無	-5.8591
王	-5.88657
如	-5.89744
在	-5.93469
自	-5.94483
作	-5.95088
此	-5.9603
與	-5.97743
山	-5.99212
文	-5.99397
子	-6.00189
得	-6.02912
則	-6.04208
大	-6.08294
時	-6.10732
公	-6.11228
云	-6.11908
上	-6.12566
行	-6.14404
又	-6.17603
三	-6.24333
二	-6.24336
亦	-6.25106
是	-6.26245
所	-6.28018
見	-6.28206
皆	-6.30628
後	-6.30731
詩	-6.32424
帖	-6.32829
道	-6.32844
然	-6.34795
筆	-6.35095
曰	-6.35684
唐	-6.37752
天	-6.38352
出	-6.38446
張	-6.38917
至	-6.39902
生	-6.41591
矣	-6.41805
長	-6.42487
家	-6.43744
石	-6.44018
故	-6.44527
元	-6.44658
若	-6.45674
日	-6.45934
下	-6.47104
相	-6.47285
▁	-6.47622
古	-6.47651
水	-6.47926
名	-6.48521
于	-6.48557
可	-6.48954
非	-6.49423
今	-6.49504
髙	-6.50677
)(	-6.50817
多	-6.50926
雲	-6.52085
清	-6.53259
明	-6.53674
世	-6.54017
李	-6.5447
題	-6.55343
學	-6.55593
重	-6.57703
本	-6.57738
知	-6.58942
乃	-6.59391
宋	-6.59906
心	-6.623
用	-6.62412
成	-6.62558
風	-6.62608
事	-6.63596
同	-6.63945
意	-6.64555
言	-6.64769
真	-6.65107
來	-6.66478
法	-6.6845
君	-6.68529
已	-6.69351
深	-6.69643
前	-6.70171
正	-6.70304
能	-6.71267
記	-6.71562
卷	-6.72366
四	-6.72754
小	-6.73102
及	-6.73473
傳	-6.73896
善	-6.75118
方	-6.75657
老	-6.76088
耳	-6.77201
碑	-6.77399
觀	-6.78753
復	-6.79115
玉	-6.79142
花	-6.80009
余	-6.80637
氏	-6.83507
入	-6.83808
金	-6.84206
陳	-6.84405
右	-6.85112
欲	-6.85269
師	-6.85531
經	-6.86685
或	-6.8705
春	-6.87204
間	-6.87336
五	-6.87888
當	-6.88178
雖	-6.88439
神	-6.90429
去	-6.90586
何	-6.90612
州	-6.91018
初	-6.91238
從	-6.91386
歸	-6.92397
未	-6.93857
處	-6.94424
龍	-6.94474
思	-6.95522
南	-6.96551
光	-6.96743
臣	-6.97773
月	-6.98385
竹	-6.98401
謂	-6.98915
林	-6.99171
逺	-6.99419
因	-6.99426
平	-7.00407
寫	-7.0123
集	-7.01693
居	-7.01743
手	-7.01938
白	-7.02489
兩	-7.03643
秋	-7.03684
年	-7.03703
乎	-7.04071
圖一	-7.04447
草	-7.05463
周	-7.05482
惟	-7.06872
馬	-7.0841
黄	-7.08625
使	-7.09062
景	-7.0923
劉	-7.09987
似	-7.10542
宗	-7.10573
安	-7.10716
東	-7.1135
志	-7.11386
印	-7.1264
獨	-7.12727
過	-7.12806
即	-7.13162
令	-7.13493
江	-7.13882
我	-7.14015
吾	-7.14152
墨	-7.14205
門	-7.1442
華	-7.14537
通	-7.1462
士	-7.14709
九	-7.15519
論	-7.162
工	-7.16405
盡	-7.16935
雪	-7.1743
數	-7.17651
諸	-7.18151
臨	-7.18224
六	-7.18279
少	-7.18921
體	-7.19584
焉	-7.19813
好	-7.20556
朝	-7.20802
先	-7.20941
稱	-7.2118
西	-7.21359
物	-7.21558
國	-7.22404
甚	-7.22481
遂	-7.2249
氣	-7.22851
識	-7.22922
異	-7.23191
予	-7.23809
絶	-7.23891
山水	-7.24071
妙	-7.24277
夫	-7.24376
合	-7.24744
聞	-7.25079
立	-7.25285
章	-7.25336
流	-7.25337
應	-7.25997
分	-7.26603
先生	-7.26935
尚	-7.27413
取	-7.27438
官	-7.27635
新	-7.2842
近	-7.28727
雨	-7.29077
楊	-7.29665
飛	-7.30114
起	-7.30158
常	-7.30851
精	-7.3102
色	-7.31034
陽	-7.31409
仲	-7.31709
徳	-7.31843
漢	-7.31882
伯	-7.32017
紙	-7.32022
嘗	-7.32036
將	-7.32225
松	-7.32501
寒	-7.32863
和	-7.3322
圗	-7.33244
樂	-7.34815
樹	-7.34922
堂	-7.3501
趙	-7.35667
語	-7.36066
猶	-7.36155
空	-7.36186
直	-7.36319
難	-7.36477
外	-7.36505
舊	-7.36666
仙	-7.36756
興	-7.36833
目	-7.37343
孫	-7.37606
定	-7.38342
藏	-7.38379
晉	-7.38627
凡	-7.38923
必	-7.3911
且	-7.39249
求	-7.39392
開	-7.39915
不可	-7.40097
極	-7.40431
聲	-7.40516
八	-7.40751
青	-7.4077
始	-7.40792
朱	-7.40873
問	-7.40958
不能	-7.41048
地	-7.41154
十	-7.41173
吳	-7.41204
别	-7.41333
既	-7.41384
史	-7.42313
父	-7.42363
哉	-7.42365
號	-7.43392
勝	-7.43403
等	-7.43893
豈	-7.44125
宜	-7.44259
餘	-7.44271
百	-7.44993
萬	-7.45032
高	-7.45815
信	-7.46426
並	-7.46596
客	-7.47516
形	-7.48139
命	-7.4824
易	-7.48322
齋	-7.48508
素	-7.48678
情	-7.48894
更	-7.49903
實	-7.49924
還	-7.50033
以為	-7.5065
銘	-7.50777
落	-7.51192
七	-7.51438
力	-7.51534
夜	-7.51573
寳	-7.51767
跋	-7.51776
兮	-7.5179
寺	-7.51823
香	-7.51868
武	-7.52025
節	-7.52204
頭	-7.53454
竒	-7.53497
葉	-7.53655
望	-7.5374
内	-7.53795
闕	-7.53831
著	-7.54401
徐	-7.54716
發	-7.548
爾	-7.55116
全	-7.55461
足	-7.55902
廣	-7.56238
海	-7.56636
幅	-7.58531
首	-7.58657
梁	-7.58754
許	-7.58853
顧	-7.58923
溪	-7.5905
刻	-7.5942
逸	-7.59585
僧	-7.59865
游	-7.59896
坐	-7.59913
祖	-7.60543
佳	-7.60695
酒	-7.60998
身	-7.6105
像	-7.61075
俱	-7.6132
但	-7.61376
千	-7.61457
翁	-7.61498
録	-7.61614
行書	-7.61732
尤	-7.61738
卿	-7.62697
左	-7.63016
鼎	-7.63527
次	-7.63618
致	-7.64128
載	-7.64273
謝	-7.64512
聖	-7.64743
兼	-7.649
賢	-7.64941
義	-7.65098
愛	-7.65103
賦	-7.65137
遺	-7.65175
奉	-7.65427
莫	-7.65576
陸	-7.65583
理	-7.65606
草書	-7.65853
類	-7.66113
進	-7.66282
簡	-7.66561
帝	-7.66812
畵	-7.66977
存	-7.67521
閒	-7.67673
𤣥	-7.67757
喜	-7.67895
便	-7.68056
齊	-7.68313
度	-7.68329
蓋	-7.69288
嵗	-7.69334
不知	-7.69656
向	-7.70189
要	-7.70428
叔	-7.70451
木	-7.70463
野	-7.71232
留	-7.71303
舉	-7.71522
須	-7.71663
泉	-7.71817
端	-7.71975
俗	-7.72025
/)(	-7.72132
沈	-7.72186
北	-7.7228
各	-7.72305
壁	-7.72482
圖二	-7.72494
禮	-7.72812
滿	-7.72837
具	-7.73498
變	-7.73588
半	-7.73722
永	-7.73758
葢	-7.73979
城	-7.74417
誰	-7.75212
美	-7.75287
秀	-7.75288
釋	-7.75888
表	-7.76121
容	-7.76136
横	-7.76586
篆	-7.76849
看	-7.76964
歌	-7.7758
每	-7.77745
敬	-7.77799
親	-7.77994
仁	-7.78173
貴	-7.78228
靈	-7.78557
對	-7.78639
轉	-7.78682
下有	-7.78812
亭	-7.78916
特	-7.78945
㑹	-7.79213
良	-7.79498
耶	-7.79549
幽	-7.79685
象	-7.79986
軸	-7.80012
友	-7.80268
宫	-7.80404
勢	-7.80639
都	-7.80833
比	-7.80849
隨	-7.8112
雅	-7.81308
夏	-7.81408
輕	-7.81626
細	-7.82022
共	-7.82386
益	-7.83379
閣	-7.84087
太	-7.84349
尊	-7.84383
并	-7.84393
呉	-7.84559
終	-7.84567
女	-7.84923
一卷	-7.85014
承	-7.85286
微	-7.856
遊	-7.85732
修	-7.85946
固	-7.86125
錢	-7.86375
止	-7.86518
盖	-7.86634
主	-7.8664
器	-7.86834
衣	-7.86867
秦	-7.87024
後有	-7.87044
古人	-7.87225
鶴	-7.87355
指	-7.8758
昔	-7.8828
右軍	-7.8848
按	-7.88741
夢	-7.88745
雙	-7.88797
功	-7.88884
人物	-7.88946
守	-7.89136
侯	-7.89297
魏	-7.8933
摹	-7.89391
寶	-7.8948
樓	-7.89588
到	-7.8977
撰	-7.89828
此卷	-7.89915
韓	-7.90217
才	-7.9052
羣	-7.90607
賜	-7.90827
斯	-7.91529
殊	-7.91597
民	-7.91703
臺	-7.92071
波	-7.92091
所謂	-7.92133
散	-7.92246
舟	-7.92331
蘇	-7.92648
衆	-7.92891
巖	-7.92892
贈	-7.93509
動	-7.9376
府	-7.93764
韻	-7.94094
枝	-7.94115
如此	-7.94165
面	-7.94706
露	-7.9481
幾	-7.94904
筆法	-7.9496
爲	-7.95312
路	-7.95322
寄	-7.95798
放	-7.95877
田	-7.96112
賞	-7.96133
杜	-7.96315
失	-7.96439
性	-7.96527
殿	-7.97325
孝	-7.97479
登	-7.97495
魚	-7.97561
真蹟	-7.97628
久	-7.97792
顔	-7.97808
解	-7.97885
烟	-7.97898
持	-7.98524
疑	-7.98717
教	-7.98725
季	-7.98767
梅	-7.98841
忠	-7.98919
懐	-7.99083
詞	-7.99094
胡	-7.99292
醉	-7.99475
軒	-7.99511
連	-8.0051
母	-8.00631
最	-8.00664
想	-8.00815
雜	-8.00827
宣	-8.01615
鄭	-8.01836
辭	-8.0195
誠	-8.02382
陵	-8.02485
隂	-8.02956
原	-8.02966
備	-8.0304
弟	-8.03101
篇	-8.03369
授	-8.03584
曹	-8.03619
蘭	-8.0366
末	-8.03868
而不	-8.03876
天下	-8.04023
翠	-8.04274
序	-8.04298
英	-8.04484
視	-8.04494
院	-8.046
考	-8.04695
任	-8.04724
化	-8.04799
送	-8.05136
得之	-8.05362
代	-8.05489
紅	-8.05596
佛	-8.05736
㸃	-8.0588
垂	-8.05971
書法	-8.06182
造	-8.06324
縣	-8.06344
收	-8.06453
照	-8.06957
斷	-8.06966
當時	-8.07006
碧	-8.07298
口	-8.07408
峰	-8.08104
孤	-8.08245
寧	-8.09232
封	-8.09342
適	-8.09354
虚	-8.09488
列	-8.09493
勁	-8.0955
骨	-8.09649
眼	-8.09658
品	-8.09803
影	-8.1003
請	-8.10955
河	-8.10982
書畫	-8.11018
德	-8.11225
驚	-8.11275
上等	-8.11495
感	-8.11996
湖	-8.12095
加	-8.12097
昌	-8.12216
昭	-8.1255
郎	-8.12729
曽	-8.12908
池	-8.13494
御	-8.13515
果	-8.1414
蕭	-8.14305
皇	-8.14669
政	-8.1473
隠	-8.14884
亂	-8.14944
忽	-8.15022
覺	-8.15031
紫	-8.15136
盛	-8.1526
塵	-8.15265
曲	-8.15676
恐	-8.15677
病	-8.15981
遇	-8.16059
謹	-8.16211
謂之	-8.1636
兄	-8.16665
孟	-8.16682
交	-8.16685
燕	-8.1674
改	-8.16825
往	-8.16835
服	-8.16902
次等	-8.17005
希	-8.17071
拜	-8.1733
彼	-8.17684
得其	-8.17687
虞	-8.17836
不得	-8.17871
鍾	-8.17982
幸	-8.18071
庭	-8.18153
習	-8.18191
計	-8.18353
牛	-8.18528
第一	-8.18584
丹	-8.1878
食	-8.18863
商	-8.18954
破	-8.19041
冩	-8.19897
郡	-8.19953
第	-8.20069
建	-8.20092
頗	-8.20176
再	-8.20368
趣	-8.20553
谷	-8.209
狀	-8.20944
忘	-8.21178
笑	-8.21266
鋒	-8.2149
羅	-8.21517
鳥	-8.21673
由	-8.21726
蒼	-8.22021
紀	-8.22137
句	-8.22277
虎	-8.22707
就	-8.22746
説	-8.22775
来	-8.22996
質	-8.23093
蘭亭	-8.23415
米	-8.23545
二年	-8.23572
結	-8.23675
藝	-8.24
里	-8.24162
楚	-8.24191
室	-8.24243
嘉	-8.24299
題云	-8.2444
郭	-8.24697
窮	-8.25477
休	-8.25507
芳	-8.25522
司	-8.25621
示	-8.25711
死	-8.25811
菴	-8.25832
徑	-8.25872
業	-8.25938
貞	-8.26023
一印	-8.26179
甫	-8.26291
縱	-8.26496
帶	-8.26701
川	-8.26975
蜀	-8.27037
圗一	-8.2719
種	-8.27263
冠	-8.27267
園	-8.27518
源	-8.27929
晴	-8.27986
嚴	-8.2807
迹	-8.2822
附	-8.28297
置	-8.28316
繼	-8.28337
曾	-8.28405
博	-8.28703
玩	-8.28738
浮	-8.28768
利	-8.28815
鄉	-8.28817
疎	-8.29045
制	-8.29256
受	-8.29662
巧	-8.29764
汝	-8.29932
延	-8.29932
背	-8.30048
辨	-8.30332
尋	-8.3059
贊	-8.30799
晚	-8.31079
八分	-8.31124
折	-8.31336
倣	-8.31481
軍	-8.31608
霜	-8.31678
隸	-8.31754
者也	-8.31911
冊	-8.32276
只	-8.32418
達	-8.32496
曉	-8.32756
格	-8.32797
戲	-8.33088
追	-8.33117
獻	-8.3323
舞	-8.33561
鳴	-8.33648
慶	-8.33919
册	-8.34251
省	-8.34393
治	-8.34494
離	-8.34673
兒	-8.34674
錦	-8.34813
仰	-8.34837
潤	-8.34983
屬	-8.35465
期	-8.35873
毛	-8.35891
車	-8.35895
珍	-8.35909
緑	-8.36182
越	-8.36218
儀	-8.36507
跡	-8.36655
范	-8.36686
儒	-8.36799
沙	-8.36861
索	-8.37043
厚	-8.37046
却	-8.37058
評	-8.37363
蔡	-8.37404
移	-8.37496
徒	-8.3795
唐人	-8.38043
淡	-8.38599
讀	-8.3862
雄	-8.38738
橋	-8.38792
三年	-8.38802
續	-8.3894
稍	-8.38954
補	-8.3896
奇	-8.38961
彦	-8.39107
試	-8.39151
圓	-8.39153
眞	-8.39306
元年	-8.39414
短	-8.3943
盧	-8.3944
宿	-8.39559
惜	-8.39572
栁	-8.39666
崇	-8.3971
音	-8.39785
十二	-8.39806
時人	-8.39991
星	-8.4013
可以	-8.40244
引	-8.40309
願	-8.40702
薄	-8.40707
歴	-8.40742
村	-8.40892
翰	-8.40949
邪	-8.41181
榮	-8.41206
古今	-8.41256
𨽻	-8.41502
顯	-8.41533
康	-8.41993
京	-8.42078
疾	-8.42117
所以	-8.42163
約	-8.42291
惠	-8.42437
福	-8.42505
珠	-8.4251
亡	-8.42524
而已	-8.42607
推	-8.42691
卒	-8.42865
詔	-8.42954
念	-8.43029
東坡	-8.43081
殆	-8.43574
屋	-8.44112
誤	-8.44297
告	-8.44449
澤	-8.44686
楷	-8.44868
口徑	-8.44871
悉	-8.44967
琴	-8.45076
兵	-8.45088
苦	-8.45228
所藏	-8.45325
陶	-8.45383
學士	-8.45433
注	-8.45435
濟	-8.45497
略	-8.45623
邊	-8.45668
訪	-8.459
君子	-8.4591
廟	-8.46027
蹟	-8.46036
裏	-8.46115
夀	-8.46179
羽	-8.46803
筆意	-8.46982
吟	-8.47194
用筆	-8.47508
翰墨	-8.47548
正書	-8.47657
䟦	-8.47756
述	-8.47775
智	-8.4794
孔	-8.4814
隱	-8.48314
差	-8.48401
小楷	-8.485
部	-8.48629
吉	-8.48659
采	-8.48903
展	-8.49004
魯	-8.4913
獲	-8.49273
豪	-8.49352
壽	-8.49371
官至	-8.49413
之所	-8.49457
寓	-8.49474
尚書	-8.49505
尾	-8.49697
行草	-8.4978
詳	-8.49783
側	-8.4979
角	-8.49895
執	-8.50038
恭	-8.50116
一日	-8.50205
土	-8.50503
騎	-8.50797
𫝊	-8.51013
絲	-8.51044
不及	-8.51072
偶	-8.51147
鑑	-8.51202
說	-8.51268
懷	-8.51468
養	-8.51744
一時	-8.52074
闗	-8.5211
程	-8.52156
為之	-8.52338
麗	-8.52561
悟	-8.52679
一軸	-8.52794
温	-8.52969
江南	-8.53355
懸	-8.5338
二印	-8.53417
運	-8.53577
子敬	-8.53601
紹興	-8.53655
兹	-8.53769
豐	-8.53808
待	-8.53933
恨	-8.53993
鑒	-8.54166
至正	-8.542
覽	-8.54254
依	-8.54273
前有	-8.54337
飲	-8.54361
崔	-8.54411
伏	-8.54486
鳯	-8.54514
峯	-8.54604
况	-8.54947
歎	-8.55085
怪	-8.55191
夫人	-8.55264
頌	-8.55303
金石録	-8.55344
總	-8.55394
至於	-8.55529
淵	-8.55702
煙	-8.55902
盤	-8.55934
宻	-8.55943
施	-8.55954
毫	-8.56082
他	-8.56105
之妙	-8.56203
漫	-8.56507
宣和	-8.5674
聽	-8.56833
借	-8.56919
袁	-8.56982
積	-8.57233
根	-8.57843
倚	-8.57869
莊	-8.57881
參	-8.58484
丁	-8.58646
冬	-8.58778
議	-8.58863
早	-8.5898
超	-8.5916
姓	-8.5931
火	-8.594
僕	-8.59578
輩	-8.59603
調	-8.59717
布	-8.59945
召	-8.60049
薛	-8.60279
墨竹	-8.60383
茂	-8.60582
烏	-8.60973
克	-8.61122
回	-8.61212
舍	-8.61596
姚	-8.61655
機	-8.61656
董	-8.61824
衛	-8.61885
不同	-8.6192
洞	-8.62287
凝	-8.62336
吴	-8.62376
遷	-8.62408
丘	-8.62629
道人	-8.62649
順	-8.62911
恩	-8.62949
善畫	-8.63009
含	-8.63037
侍	-8.63452
四年	-8.63637
靜	-8.63834
静	-8.63875
風雨	-8.64304
管	-8.64484
缺	-8.64609
資	-8.64806
位	-8.65038
報	-8.65047
典	-8.65072
繪	-8.65279
反	-8.65453
房	-8.65622
肅	-8.65631
翼	-8.65851
暮	-8.65964
咸	-8.65987
居士	-8.66353
不足	-8.66391
隔	-8.66516
竟	-8.66829
談	-8.66899
律	-8.66904
惡	-8.67101
敏	-8.67172
規	-8.67305
禪	-8.67361
保	-8.67365
漁	-8.67505
模	-8.67581
密	-8.67681
是也	-8.67726
楷書	-8.6781
揚	-8.67833
率	-8.67856
維	-8.67864
古文	-8.68233
慕	-8.68287
見之	-8.68313
館	-8.68611
署	-8.68688
馳	-8.6872
錄	-8.6872
殘	-8.68734
權	-8.68999
粉	-8.69149
韋	-8.69341
遣	-8.69371
自然	-8.69378
被	-8.69559
岳	-8.69701
洪	-8.69721
鳳	-8.6978
畢	-8.7008
製	-8.70112
段	-8.70153
文章	-8.70223
穆	-8.70333
拙	-8.70391
紙本	-8.70458
其後	-8.70627
荒	-8.7065
嗣	-8.70717
夷	-8.70933
息	-8.70939
之間	-8.71176
唯	-8.71466
丹青	-8.71539
卧	-8.71601
熟	-8.71722
子孫	-8.71832
㣲	-8.71836
純	-8.72041
蒙	-8.72156
除	-8.72356
此帖	-8.72397
味	-8.72511
衡	-8.7253
敢	-8.72541
牧	-8.72578
專	-8.72887
逸少	-8.72954
戴	-8.73013
肥	-8.73059
偏	-8.73205
憂	-8.73343
擬	-8.73449
閲	-8.73464
亦有	-8.7355
抱	-8.7356
接	-8.73742
編	-8.74124
二王	-8.74184
負	-8.74408
住	-8.74438
弗	-8.74519
筆墨	-8.74721
𢎞	-8.74832
愁	-8.74839
枯	-8.74951
態	-8.74955
繁	-8.74977
退	-8.75021
愈	-8.75034
翰林	-8.75342
潛	-8.75372
□	-8.75456
勞	-8.7579
允	-8.7584
後世	-8.75857
否	-8.76106
浪	-8.76238
呼	-8.7625
降	-8.76336
勤	-8.76447
憶	-8.76533
禽	-8.76574
僅	-8.76599
斜	-8.76624
鸞	-8.76638
旁	-8.76644
洗	-8.76712
晩	-8.76713
堪	-8.7673
切	-8.76917
祠	-8.77009
跋云	-8.77166
尹	-8.77225
符	-8.7725
淺	-8.77344
章草	-8.77362
書史㑹要	-8.7746
奏	-8.77557
環	-8.77588
小篆	-8.7786
乞	-8.77924
姿	-8.78012
鴻	-8.78211
此圖	-8.78234
勿	-8.78374
鐵	-8.78417
遲	-8.78578
勒	-8.78612
啟	-8.78649
監	-8.78658
急	-8.78805
後人	-8.78809
中有	-8.78934
慈	-8.78994
㫖	-8.79034
輒	-8.79078
狂	-8.7918
升	-8.79206
仍	-8.79342
山谷	-8.79358
履	-8.79417
累	-8.79513
畧	-8.79623
假	-8.7974
尺	-8.79792
文字	-8.79831
鎮	-8.79928
扇	-8.80029
所作	-8.80045
平生	-8.80057
斗	-8.80127
裝	-8.80136
岸	-8.80285
御書	-8.8035
瑞	-8.80368
茶	-8.80568
染	-8.8062
上有	-8.80662
屏	-8.80715
可謂	-8.81004
廷	-8.81196
仕	-8.81246
開元	-8.81332
市	-8.81405
聚	-8.81411
壺	-8.81445
幼	-8.81513
寛	-8.81571
翻	-8.81618
釣	-8.81766
腹	-8.81818
歲	-8.81831
吕	-8.81851
披	-8.82065
丈	-8.82143
藥	-8.82273
掌	-8.82375
啓	-8.82451
千里	-8.82535
款識云	-8.82624
太宗	-8.82647
眀	-8.82739
大夫	-8.82742
扵	-8.82787
五年	-8.82878
不復	-8.82947
乾	-8.83138
冷	-8.83161
羊	-8.83203
太史	-8.83278
闊	-8.83373
所書	-8.83431
强	-8.83464
婦	-8.83674
訓	-8.83839
人間	-8.84039
州刺史	-8.84222
堅	-8.84297
爭	-8.84334
敦	-8.84347
快	-8.84597
漸	-8.8471
船	-8.84716
境	-8.85173
步	-8.85448
霞	-8.85586
務	-8.85636
籍	-8.8565
其所	-8.85831
隋	-8.85838
將軍	-8.85881
據	-8.85882
棄	-8.85921
之後	-8.85993
詠	-8.86018
司馬	-8.86067
屈	-8.86093
聊	-8.86181
藻	-8.8643
白雲	-8.86443
字畫	-8.86687
裴	-8.87069
坡	-8.87278
又有	-8.87335
蓮	-8.87392
荷	-8.87433
觀其	-8.87525
鬼	-8.87645
道士	-8.8769
水墨	-8.87694
瞻	-8.87722
浦	-8.88061
偽	-8.88131
廢	-8.88182
傷	-8.88192
筆力	-8.88199
不見	-8.8821
圖一軸	-8.88239
濶	-8.88295
標	-8.88339
龜	-8.88429
走	-8.8845
雲林	-8.88566
桃	-8.88626
肉	-8.88684
振	-8.888
乗	-8.8925
廣一尺	-8.89253
馮	-8.89351
柳	-8.8937
脱	-8.89492
式	-8.89591
頓首	-8.89886
薦	-8.89977
不敢	-8.89997
慰	-8.90076
俊	-8.90109
乆	-8.90113
拂	-8.90143
徴	-8.90147
苑	-8.90159
鮮	-8.90329
巨	-8.90353
之意	-8.90385
叢	-8.90437
富	-8.90515
絹	-8.9061
謙	-8.90635
賈	-8.90638
第二	-8.90822
二十	-8.90866
付	-8.90905
映	-8.90911
澹	-8.91034
舒	-8.91358
飾	-8.9155
右髙	-8.91718
左右	-8.92392
十年	-8.92424
契	-8.92461
澄	-8.92495
於是	-8.92614
私	-8.92645
鴈	-8.92648
覆	-8.92811
一字	-8.92818
弱	-8.92842
鏡	-8.9286
媚	-8.92906
童	-8.92999
甲	-8.93001
大字	-8.93019
子昻	-8.93092
研	-8.93106
雷	-8.93245
於此	-8.93281
萬里	-8.93355
菊	-8.93492
赤	-8.93616
悲	-8.93873
䕶	-8.93908
條	-8.94207
再拜	-8.94383
澗	-8.94388
墓	-8.94473
泰	-8.94626
湘	-8.94863
夕	-8.94882
户	-8.94915
有餘	-8.94936
完	-8.95003
進士	-8.95131
損	-8.95542
㡬	-8.95565
掩	-8.95587
阿	-8.95587
見其	-8.95696
彞	-8.95701
風流	-8.95755
渡	-8.95757
縁	-8.95859
銀	-8.95862
二字	-8.95893
上下	-8.95923
疏	-8.95951
詩云	-8.96006
崖	-8.96075
太守	-8.96116
竹石	-8.96393
貫	-8.96494
花鳥	-8.96534
五代	-8.96572
避	-8.96625
候	-8.96653
植	-8.96671
江山	-8.97013
吏	-8.97023
壯	-8.97114
飛白	-8.97117
鼓	-8.97159
往往	-8.97163
哀	-8.97281
藁	-8.9732
丞相	-8.97414
充	-8.97519
遠	-8.97809
桂	-8.97821
傍	-8.98058
妍	-8.98461
之法	-8.98468
愧	-8.98507
梅花	-8.98525
法書	-8.9868
晦	-8.98767
逐	-8.98769
雍	-8.98779
譜	-8.98858
覩	-8.98912
祥	-8.98993
操	-8.99015
倒	-8.99185
鹿	-8.9925
父子	-8.99302
宅	-8.99357
竊	-8.99449
第三	-8.99539
山人	-8.99883
羲之	-8.9996
又云	-8.99963
歳	-8.99969
宋人	-9.00158
倫	-9.00296
讀書	-9.00336
爽	-9.00342
千文	-9.00426
陰	-9.00429
太子	-9.00475
家藏	-9.00541
貌	-9.00618
杖	-9.00798
長安	-9.00807
支	-9.00887
吹	-9.01224
憲	-9.01343
何如	-9.01345
會	-9.01503
駕	-9.01512
搨	-9.01552
凉	-9.01696
領	-9.01762
李成	-9.01784
危	-9.01805
秘	-9.01967
之子	-9.02279
逰	-9.02379
迴	-9.0242
㸃畫	-9.02513
逢	-9.02536
學者	-9.02607
然後	-9.02608
石刻	-9.03005
爵	-9.03117
干	-9.03141
㳺	-9.03252
牡丹	-9.03265
選	-9.033
圖三	-9.03377
硯	-9.03394
昇	-9.03401
将	-9.03405
四十	-9.03465
底	-9.03538
嗟	-9.03591
甘	-9.03671
寜	-9.03873
圖書	-9.03883
傅	-9.03886
劍	-9.03975
山中	-9.03995
恒	-9.04006
至今	-9.04019
三十	-9.04084
紋	-9.04111
烈	-9.0412
融	-9.04129
十八	-9.04494
射	-9.04566
戒	-9.04573
皆有	-9.04595
虛	-9.046
了	-9.04816
騰	-9.04889
傾	-9.04893
十一	-9.04913
嘉靖	-9.04964
關	-9.05058
○	-9.05109
諱	-9.0513
貧	-9.05177
誦	-9.05201
一人	-9.05264
字子	-9.0528
奕	-9.05494
草堂	-9.05737
鐘	-9.05741
殷	-9.05783
淳	-9.05809
廬	-9.05814
峻	-9.05921
井	-9.06132
董其昌	-9.06147
眉	-9.06195
獸	-9.06333
叙	-9.06398
歟	-9.06486
熙	-9.06557
老人	-9.06616
徵	-9.06654
璧	-9.06668
雞	-9.06694
邑	-9.06705
偉	-9.06735
雀	-9.06777
價	-9.06858
攜	-9.06899
頁	-9.06931
健	-9.06984
㑹稽	-9.07114
撫	-9.07204
威	-9.07453
孰	-9.07489
錫	-9.07507
筆勢	-9.07517
脚	-9.07595
霧	-9.07596
效	-9.07598
賛	-9.07795
滅	-9.07924
一璽	-9.07978
席	-9.07986
乏	-9.08221
待詔	-9.08525
鍾繇	-9.08556
叟	-9.08585
刀	-9.08691
罷	-9.08727
圖一卷	-9.08988
範	-9.08988
姓名	-9.09101
塔	-9.09147
輿	-9.09202
靄	-9.09436
察	-9.09481
消	-9.09504
揮	-9.09548
紹	-9.09693
盈	-9.09697
論書	-9.09713
購	-9.09804
鈎	-9.09942
險	-9.09958
渾	-9.09974
俞	-9.10066
欽	-9.10116
答	-9.10131
十五	-9.10181
麟	-9.10251
抑	-9.10257
河南	-9.10294
知其	-9.10329
欵識云	-9.10379
祝	-9.10435
某	-9.10452
繡	-9.10814
設	-9.10858
其書	-9.10862
隆	-9.10878
己	-9.1093
宇	-9.10971
幹	-9.11072
暗	-9.11112
嶺	-9.11172
圗二	-9.11187
宏	-9.1119
十六	-9.1125
真跡	-9.11255
濃	-9.11273
一冊	-9.11305
芝	-9.11324
此書	-9.1144
黃	-9.11613
其間	-9.11752
潭	-9.1177
淮	-9.11777
歩	-9.11805
曠	-9.11901
湯	-9.12049
旋	-9.12191
絹本	-9.12277
託	-9.12364
大令	-9.12441
人也	-9.12453
几	-9.12538
奔	-9.12538
弟子	-9.12587
慎	-9.12659
増	-9.12686
未嘗	-9.12766
彩	-9.12786
衍	-9.12872
未有	-9.12909
有銘	-9.13002
貞觀	-9.13127
善書	-9.13148
怒	-9.13167
書之	-9.13186
均	-9.1319
洛	-9.13287
祕	-9.13505
朔	-9.13551
供	-9.13842
奪	-9.13865
小字	-9.13939
喬	-9.13985
元章	-9.1412
荆	-9.14439
札	-9.14495
大小	-9.14535
妄	-9.14754
一尺	-9.1477
蔵	-9.14799
邵	-9.14841
何處	-9.15049
浩	-9.15091
弄	-9.15191
溪山	-9.15228
桑	-9.15326
粗	-9.15337
之類	-9.15481
柱	-9.15516
瘦	-9.15525
五十	-9.15604
吳興	-9.15781
趨	-9.15807
板	-9.15819
項	-9.15833
呈	-9.15849
衰	-9.1586
科	-9.16105
米芾	-9.16169
毎	-9.16184
馬圖	-9.16484
束	-9.16487
王氏	-9.16862
元祐	-9.16942
有所	-9.16956
整	-9.16991
招	-9.17226
十三	-9.17262
襲	-9.17363
神品	-9.17385
素絹本著色畫	-9.17441
三月	-9.17554
腕	-9.17644
靡	-9.17675
自有	-9.17764
亞	-9.17813
審	-9.17854
后	-9.17857
楷法	-9.17984
塞	-9.18027
各有	-9.18055
皇帝	-9.1806
畫山水	-9.18101
介	-9.18195
篤	-9.18216
停	-9.18233
公之	-9.18247
千載	-9.18309
錯	-9.18361
座	-9.18408
屢	-9.1842
天地	-9.1842
前後	-9.18466
廿	-9.18468
宛	-9.18517
拘	-9.18538
痛	-9.18571
褚	-9.18736
職	-9.18864
彌	-9.18879
嘆	-9.18908
把	-9.18911
耕	-9.18933
不為	-9.18933
庶	-9.19031
篆書	-9.19128
諸印	-9.19243
銅	-9.19261
出於	-9.19319
青山	-9.1938
祐	-9.19428
頂	-9.19447
十四	-9.19457
愚	-9.19572
量	-9.19641
像一	-9.19763
泥	-9.1979
之勢	-9.19855
賀	-9.19934
鬼神	-9.19947
一幅	-9.19947
一首	-9.20163
使人	-9.20231
六月	-9.20264
輔	-9.20265
獻之	-9.20327
璽	-9.20404
煩	-9.20446
令人	-9.20465
六年	-9.20485
猿	-9.20509
欣	-9.20788
纎	-9.20834
投	-9.20976
族	-9.20982
妻	-9.21003
術	-9.21111
芙蓉	-9.21118
遥	-9.21205
校	-9.21245
助	-9.21359
迷	-9.21416
十月	-9.21508
靖	-9.21535
瓊	-9.21595
御筆	-9.2164
濤	-9.21693
潮	-9.2181
人官至	-9.21832
片	-9.21849
拔	-9.21877
蓬	-9.22102
之外	-9.22139
茅	-9.22148
之士	-9.22166
佐	-9.22213
彭	-9.22249
䇿	-9.22251
濕	-9.22273
所見	-9.2229
較	-9.22475
所得	-9.22513
頃	-9.22578
一紙	-9.22692
今日	-9.22871
寸	-9.22879
旅	-9.2292
憐	-9.22926
委	-9.22944
磨	-9.23108
戰	-9.23145
輝	-9.23314
倪	-9.23327
氷	-9.23379
申	-9.23432
顛	-9.23467
四月	-9.23653
八月	-9.23885
姑	-9.24163
話	-9.2424
足以	-9.24249
沉	-9.24381
謀	-9.24392
墨蹟	-9.24476
凌	-9.24632
副	-9.2471
罪	-9.24753
剛	-9.24833
下筆	-9.2487
懐素	-9.24906
精神	-9.24952
洲	-9.24979
柔	-9.24991
王羲之	-9.25007
王維	-9.25015
低	-9.25186
畫之傳世者	-9.25238
暉	-9.25276
慮	-9.2533
佛像	-9.25445
而後	-9.25454
姜	-9.25461
班	-9.25462
淨	-9.25521
隸書	-9.25682
米元章	-9.25908
頓	-9.25963
嶽	-9.26058
者皆	-9.26059
綠	-9.26146
宰	-9.26149
四字	-9.26197
偃	-9.26213
勉	-9.26236
潔	-9.26246
飄	-9.26348
一本	-9.26617
堯	-9.2663
患	-9.26758
桃花	-9.26828
著色	-9.26996
扶	-9.27026
武帝	-9.27055
斤	-9.27065
戯	-9.27185
後漢	-9.27271
速	-9.27306
岡	-9.27422
提	-9.27452
長史	-9.27479
其人	-9.27594
宴	-9.27632
界	-9.27674
百年	-9.27702
閱	-9.27739
講	-9.27894
燈	-9.27962
庸	-9.28092
足下	-9.28123
輪	-9.28313
擊	-9.28319
劒	-9.28324
吐	-9.28325
辱	-9.28529
簾	-9.2878
無所	-9.2897
那	-9.29036
贊曰	-9.29048
層	-9.29088
納	-9.2911
亦不	-9.29335
學書	-9.29392
循	-9.29434
精妙	-9.29436
以此	-9.29443
譽	-9.29445
氣韻	-9.29451
晝	-9.29496
貢	-9.29813
徃	-9.2987
樵	-9.29871
渚	-9.2993
謬	-9.29979
勾	-9.30002
蛇	-9.3002
掃	-9.30102
蔡邕	-9.30233
兔	-9.30246
谿	-9.30268
閑	-9.30301
無不	-9.30311
緩	-9.30418
沒	-9.30445
刻石	-9.30482
日月	-9.3056
壑	-9.30625
苔	-9.30636
詩帖	-9.30743
也今	-9.30782
杯	-9.30865
欵云	-9.30898
單	-9.30979
繞	-9.31054
明皇	-9.31146
勅	-9.31197
之上	-9.31262
採	-9.31613
厯	-9.3184
擅	-9.31908
家傳	-9.31927
蓄	-9.31966
佩	-9.31997
世之	-9.3214
髙宗	-9.32219
顔魯公	-9.32228
潘	-9.32234
禄	-9.32283
蟲	-9.32438
襄	-9.32602
鬱	-9.32763
衞	-9.32768
競	-9.32779
雲山	-9.3279
古木	-9.32817
蕩	-9.32981
後學	-9.32986
殺	-9.32991
圖并題	-9.33017
寫生	-9.33076
材	-9.33136
冰	-9.3315
脫	-9.33155
元人	-9.33254
以來	-9.33259
禹	-9.33322
國公	-9.33343
傑	-9.33368
乘	-9.33378
之氣	-9.33463
輿地碑目	-9.33498
歐陽	-9.33539
係	-9.33584
謁	-9.33586
圖畫	-9.33586
罕	-9.33587
觀之	-9.33709
厥	-9.33754
而無	-9.33929
讓	-9.3397
涼	-9.34052
洪武	-9.34095
囘	-9.34206
千古	-9.34367
縱横	-9.34378
脩	-9.34483
農	-9.34555
冀	-9.34574
袖	-9.34603
迎	-9.348
鷹	-9.35007
倪瓚	-9.35064
際	-9.35088
所畫	-9.35352
士大夫	-9.3541
震	-9.35411
落筆	-9.3543
創	-9.35611
昏	-9.35628
昨	-9.35713
賔	-9.35795
徽	-9.35847
廟碑	-9.35851
仿	-9.35896
竿	-9.36024
伊	-9.36456
之印	-9.36522
二璽	-9.3654
兄弟	-9.36559
肆	-9.3662
亮	-9.36625
辛	-9.36652
棲	-9.36674
伯時	-9.36745
京師	-9.36782
詣	-9.36808
郊	-9.36855
魯公	-9.36881
買	-9.37075
旦	-9.37169
小景	-9.37293
二月	-9.37384
然則	-9.37444
山隂	-9.37844
張芝	-9.3787
馬逺	-9.38028
繪事	-9.38182
不如	-9.38236
松雪	-9.38276
可愛	-9.38392
姬	-9.38451
社	-9.38528
蒲	-9.38543
奴	-9.38611
暢	-9.38674
夲	-9.38822
案	-9.3891
巻	-9.38945
禁	-9.38951
造化	-9.3905
行草書	-9.39096
第四	-9.39126
觀者	-9.39157
汪	-9.39285
髪	-9.39291
寡	-9.39309
御府	-9.39314
擇	-9.39329
半印	-9.3943
七月	-9.3945
敗	-9.39761
欽定四庫全書	-9.39772
慧	-9.39793
樂毅論	-9.39842
法帖	-9.39848
梢	-9.39853
邈	-9.39961
款署	-9.40042
數十	-9.40141
葛	-9.4018
争	-9.40212
響	-9.40249
諸公	-9.40259
肯	-9.40353
識者	-9.40383
雁	-9.40501
歐	-9.40549
赴	-9.40647
如何	-9.40705
證	-9.4084
黙	-9.40851
繫	-9.40859
其一	-9.40878
踈	-9.40878
圃	-9.40881
舎	-9.40983
征	-9.41005
欵	-9.41061
蹤	-9.41068
寺碑	-9.41076
蔣	-9.41097
遒勁	-9.41098
得意	-9.41182
訣	-9.41217
獵	-9.41293
寂	-9.41295
九月	-9.41368
十七	-9.41387
楮	-9.41422
鄙	-9.41428
歐陽詢	-9.41509
歡	-9.41548
窓	-9.41552
乙	-9.41686
俾	-9.41732
今在	-9.41763
三寸	-9.41799
挺	-9.41903
邁	-9.4192
窺	-9.41937
之餘	-9.42124
巾	-9.42129
趙孟頫	-9.42492
祭	-9.42497
清風	-9.42512
朗	-9.4256
包	-9.42592
營	-9.42638
戈	-9.42659
巨然	-9.4281
墜	-9.4302
趯	-9.43023
哲	-9.43199
牽	-9.43237
侍郎	-9.43301
舜	-9.43437
羅漢	-9.43457
眠	-9.436
塘	-9.43616
春風	-9.43675
敵	-9.43677
究	-9.43869
以示	-9.43948
基	-9.44138
疊	-9.44192
圖卷	-9.44197
八年	-9.44349
柯	-9.44413
大篆	-9.44444
忩	-9.44638
裔	-9.44765
裂	-9.44808
法度	-9.44931
激	-9.45008
勸	-9.45014
鱗	-9.4502
況	-9.45024
阮	-9.45027
圖四	-9.45076
皮	-9.45215
摩	-9.45236
擢	-9.45237
黄庭	-9.45398
穿	-9.45702
八十	-9.45709
其名	-9.45716
畏	-9.45782
嗜	-9.4583
矩	-9.45872
巢	-9.45958
局	-9.46148
剪	-9.46215
芾	-9.46277
翔	-9.46374
内府	-9.46449
昔人	-9.46469
灑	-9.46534
春秋	-9.46584
沈周	-9.46679
京兆	-9.46697
霄	-9.46802
博士	-9.47099
翎毛	-9.47153
嗚呼	-9.47288
滯	-9.47291
探	-9.47305
枕	-9.47366
用之	-9.4746
恵	-9.47476
神仙	-9.47528
也其	-9.47722
森	-9.47742
暇	-9.47749
而有	-9.47797
牕	-9.47818
不過	-9.47871
十九	-9.48128
設色	-9.48134
痩	-9.48158
辰	-9.48163
庾	-9.48165
熊	-9.48217
莫不	-9.48218
不勝	-9.48248
不失	-9.4831
金石	-9.48377
𨽻書	-9.48541
六十	-9.48575
遵	-9.48661
畫史㑹要	-9.48688
書於	-9.48702
遒	-9.48705
者有	-9.48814
自是	-9.4883
番	-9.48894
逼	-9.48996
呉興	-9.49027
州人	-9.49069
李伯時	-9.49126
李唐	-9.49172
名畫	-9.49205
二帖	-9.49372
上人	-9.49376
石田	-9.49528
王右軍	-9.4954
變化	-9.49554
得此	-9.49563
之際	-9.49591
秋山	-9.49605
驅	-9.49623
卓	-9.49635
處士	-9.49681
書如	-9.49735
草木	-9.49765
集古録	-9.49798
虞世南	-9.49829
匠	-9.49839
敎	-9.4984
遜	-9.50039
辟	-9.50265
卣	-9.50326
名家	-9.50362
工畫	-9.50398
繇	-9.50437
何以	-9.50465
山林	-9.50769
戎	-9.50778
網	-9.50798
故人	-9.50869
優	-9.50936
今觀	-9.51022
敷	-9.51029
熈	-9.5103
啼	-9.51127
三日	-9.51223
之下	-9.51228
熱	-9.51338
吳郡	-9.51378
自號	-9.51435
鄧	-9.51533
一笑	-9.51543
泊	-9.51544
榻	-9.51546
藤	-9.5157
不在	-9.51597
洛陽	-9.51626
珊瑚網	-9.51728
尺牘	-9.51758
李斯	-9.51781
也然	-9.51806
額	-9.51933
然而	-9.51935
攷	-9.51954
藉	-9.51991
襟	-9.52025
箋	-9.52045
鈞	-9.52217
圍	-9.52253
形似	-9.52292
八分書	-9.52319
太平	-9.52338
流水	-9.52344
書史	-9.52351
琳	-9.52489
書學	-9.52505
寒林	-9.52581
印一	-9.52616
書家	-9.52649
泛	-9.52736
尉	-9.52793
而下	-9.5289
瀟湘	-9.5301
例	-9.53152
胸中	-9.5322
醒	-9.53243
幀	-9.5325
綺	-9.53257
前人	-9.53591
王氏跋一	-9.53606
未能	-9.53608
鼻	-9.53617
妃	-9.53757
裁	-9.53794
紛	-9.53929
輙	-9.53935
庫	-9.53939
逹	-9.53964
求之	-9.53989
何人	-9.54046
押	-9.54095
幻	-9.54123
練	-9.54199
侍中	-9.54224
五月	-9.5423
乳	-9.54252
以其	-9.54256
萬厯	-9.54274
一枝	-9.54281
違	-9.54457
邦	-9.54614
齒	-9.54713
尤工	-9.54726
七年	-9.54746
没	-9.54763
其家	-9.5491
如是	-9.54921
塗	-9.54922
免	-9.55116
緒	-9.55168
肇	-9.55396
嵐	-9.55401
爰	-9.55414
併	-9.55433
晨	-9.55465
題名	-9.55531
描	-9.55649
明月	-9.55661
収	-9.55661
十餘	-9.55744
攻	-9.55875
山川	-9.55968
著色畫	-9.55975
汀	-9.56002
以下	-9.56079
饒	-9.56166
渠	-9.56183
墮	-9.56197
題識	-9.56199
不然	-9.56279
檢	-9.5631
霽	-9.56322
蘆	-9.56377
諸印又	-9.56546
天台	-9.56603
碎	-9.56724
匪	-9.56939
憑	-9.56949
天子	-9.56984
帙	-9.57135
書也	-9.5716
墓誌	-9.57174
遭	-9.57183
鵞	-9.57211
鑄	-9.57233
能書	-9.57276
樹石	-9.57315
海棠	-9.57361
今見	-9.57378
其事	-9.57393
李氏	-9.57469
珍藏	-9.57502
當是	-9.57566
款云	-9.57628
活	-9.57685
無疑	-9.57707
駿	-9.57826
混	-9.57881
四時	-9.57924
津	-9.57932
悦	-9.57952
第十	-9.57961
褚遂良	-9.57969
亨	-9.57984
亦可	-9.58032
集賢	-9.58061
必有	-9.5817
山圖	-9.58301
判	-9.58554
暑	-9.58634
二人	-9.58668
觚	-9.58747
也又	-9.58823
孔子	-9.58879
奚	-9.58902
慨	-9.58974
遍	-9.58976
墨畫	-9.58997
麻	-9.59101
同時	-9.59159
鍾王	-9.59282
范寛	-9.59365
洞庭	-9.59394
苟	-9.59444
六寸	-9.59536
是以	-9.59644
世人	-9.59646
河東	-9.59713
之狀	-9.59737
削	-9.59745
筠	-9.59759
換	-9.59779
壇	-9.59875
繩	-9.59903
鄰	-9.60023
作字	-9.60039
之曰	-9.6019
涉	-9.60223
牙	-9.60251
昆	-9.60258
正月	-9.60338
詹	-9.6038
時有	-9.60404
者亦	-9.60433
晉人	-9.60441
寵	-9.60462
秉	-9.60524
裕	-9.60527
策	-9.60532
緣	-9.60555
壓	-9.60575
至元	-9.60787
勲	-9.60805
臥	-9.60833
役	-9.61027
燭	-9.61051
弼	-9.61056
字仲	-9.61159
誕	-9.6125
専	-9.6128
牀	-9.61333
賦詩	-9.61467
天王	-9.61525
互	-9.61564
躍	-9.61571
滋	-9.61571
博學	-9.6158
銘曰	-9.61709
御府所藏	-9.61787
而為	-9.61881
茍	-9.61888
松石	-9.61976
可觀	-9.62018
倦	-9.62056
齡	-9.62126
縫	-9.62142
團	-9.62147
豫章	-9.62176
金陵	-9.6235
四寸	-9.62357
汲	-9.62404
主人	-9.6242
秋風	-9.62541
煥	-9.62544
羊欣	-9.62609
仙人	-9.62619
添	-9.62686
畫者	-9.62819
閩	-9.62879
綱	-9.62895
弓	-9.62912
十日	-9.63064
惑	-9.63153
乍	-9.63153
儼	-9.6321
岐	-9.63365
耀	-9.6345
普	-9.63478
御題	-9.63656
蟠	-9.63722
旭	-9.63804
鵲	-9.63817
人家	-9.63834
西湖	-9.63877
預	-9.63958
皴	-9.63991
徙	-9.63996
桐	-9.63999
好事者	-9.64029
咏	-9.64055
不覺	-9.64064
雲間	-9.64169
永樂	-9.64197
也故	-9.64234
托	-9.64265
檀	-9.64297
逮	-9.6431
十二月	-9.64482
綴	-9.64494
統	-9.64502
菩薩像	-9.64511
喻	-9.64514
畫院	-9.64553
午	-9.64556
扁舟	-9.64677
織	-9.64749
其上	-9.64756
安得	-9.64798
五字	-9.64798
今人	-9.64852
此本	-9.64968
麓	-9.65134
平逺	-9.65246
給	-9.65262
婉	-9.65318
籠	-9.65371
擁	-9.65384
人之	-9.65437
董源	-9.65487
黄庭經	-9.65542
祀	-9.65585
藍	-9.65609
厭	-9.65637
沐	-9.65675
臨摹	-9.657
炎	-9.65897
御史	-9.65936
鑿	-9.65969
龍眠	-9.6602
之筆	-9.66065
牋	-9.66106
七十	-9.66112
纂	-9.66147
規矩	-9.66161
姪	-9.66175
綿	-9.66176
卜	-9.66206
彷彿	-9.66223
懶	-9.66237
畫史	-9.66324
碑在	-9.66333
成化	-9.66354
思陵	-9.66418
古之	-9.66487
誇	-9.66535
乾隆	-9.66603
三字	-9.66762
此碑	-9.6685
血	-9.67007
酬	-9.67036
費	-9.6705
書者	-9.67094
嵩	-9.67101
飛動	-9.67104
智永	-9.67106
自謂	-9.67204
曰此	-9.67219
素箋本	-9.67233
二日	-9.67282
其子	-9.67287
貽	-9.67318
䝉	-9.67329
臨池	-9.67344
不逮	-9.67504
嘯	-9.67556
痕	-9.67633
物也	-9.67676
周昉	-9.67721
減	-9.67776
瑶	-9.67808
戚	-9.67817
倍	-9.6789
歸來	-9.67928
踏	-9.68201
珪	-9.68385
本朝	-9.68406
鑒定	-9.68411
東海	-9.68416
害	-9.68449
郎中	-9.68467
中書	-9.68508
太常	-9.68536
九年	-9.68552
所能	-9.68586
鷄	-9.68599
字伯	-9.68701
俯	-9.68726
廉	-9.68733
桓	-9.68987
疇	-9.69011
峭	-9.69016
徹	-9.69017
江湖	-9.69097
玉堂	-9.69158
乃知	-9.69216
技	-9.69241
至于	-9.69264
過之	-9.69275
押縫有	-9.69333
未必	-9.69444
詩文	-9.695
陋	-9.69554
稿	-9.69583
敘	-9.69595
而成	-9.69709
髙士	-9.69745
奮	-9.69792
刑	-9.69807
其意	-9.69833
誌	-9.69835
㓜	-9.69841
頴	-9.69882
或云	-9.69933
相似	-9.69998
古雅	-9.70021
出入	-9.70046
尖	-9.70073
見於	-9.70145
廊	-9.70174
其中	-9.70191
栖	-9.70418
系	-9.70426
懿	-9.70668
槩	-9.70687
爛	-9.70804
定武	-9.70877
髮	-9.7091
家有	-9.70925
電	-9.70939
焦	-9.70947
諭	-9.71017
榖	-9.71025
一二	-9.71041
畔	-9.71079
風吹	-9.71111
髣髴	-9.7128
距	-9.71303
三百	-9.71308
障	-9.71335
簷	-9.71383
元趙孟頫書	-9.71475
仇	-9.71536
鄒	-9.71572
真書	-9.71607
增	-9.71611
俟	-9.71631
自書	-9.71718
美人	-9.71819
旣	-9.71889
駐	-9.71892
矜	-9.71895
眷	-9.71899
絃	-9.71901
二卷	-9.71915
汴	-9.71926
諸家	-9.71967
肩	-9.72004
不知何	-9.7219
祗	-9.7222
豆	-9.72229
犬	-9.7225
羙	-9.72439
晏	-9.72489
成都	-9.72495
逾	-9.72495
醫	-9.72508
聖人	-9.72538
無人	-9.72733
怡	-9.72789
三印	-9.72814
敬書	-9.72817
驗	-9.72824
筋	-9.72838
帆	-9.72865
稽	-9.73028
焚	-9.73037
浄	-9.73068
荅	-9.73088
揭	-9.73089
聴	-9.73103
途	-9.73104
様	-9.73121
十卷	-9.73181
眞蹟	-9.73216
嵗月	-9.73239
排	-9.73343
摇	-9.73384
滑	-9.73421
錢塘	-9.73479
位置	-9.73524
刺	-9.73602
取其	-9.73661
不必	-9.73701
右丞	-9.73743
老子	-9.73766
夾	-9.73779
一種	-9.73811
其文	-9.73844
可見	-9.73866
觸	-9.73945
階	-9.73981
不以	-9.74004
湛	-9.74005
後署	-9.74018
邱	-9.74028
瓚	-9.74033
墨林	-9.74082
元趙孟頫	-9.74088
當世	-9.74103
徽宗	-9.74194
草草	-9.74216
珊瑚	-9.7423
未見	-9.74233
猶有	-9.74238
不用	-9.74349
張旭	-9.74461
金華	-9.74635
徐浩	-9.74694
絹素	-9.74717
千年	-9.74803
不甚	-9.74823
褒	-9.74829
諫	-9.74873
枚	-9.7489
左方	-9.74957
於世	-9.74963
粲	-9.7498
孝經	-9.75015
之心	-9.75031
孟頫	-9.75049
配	-9.75167
王獻之	-9.75215
邉	-9.75263
遽	-9.75395
無窮	-9.75397
朋	-9.75448
誼	-9.75503
腰	-9.75505
菩薩	-9.75559
掛	-9.75566
荘	-9.75567
之態	-9.75661
嘗見	-9.7571
稜	-9.75789
夫子	-9.75814
陣	-9.75824
肖	-9.75853
其妙	-9.75871
渉	-9.7611
纔	-9.76111
返	-9.76163
三代	-9.76178
謂其	-9.7634
同上	-9.7634
也余	-9.76354
隅	-9.76384
靣	-9.76386
飯	-9.76408
炳	-9.7641
蘓	-9.76486
以自	-9.76499
少年	-9.7662
嘉定	-9.76642
流傳	-9.76658
詢	-9.76679
宮	-9.76704
值	-9.76705
宦	-9.76708
三昧	-9.76811
相與	-9.76816
太師	-9.76821
禽圖	-9.7696
彝	-9.76976
湏	-9.76996
題跋	-9.77054
不盡	-9.7709
癡	-9.77114
一印又	-9.77191
者如	-9.77191
襄陽	-9.77218
大抵	-9.77228
售	-9.77262
劣	-9.77285
丹陽	-9.77297
所載	-9.77317
太原	-9.77342
欵署	-9.77429
黄筌	-9.77458
蔽	-9.77605
毁	-9.77633
噫	-9.77643
遺墨	-9.77659
悠悠	-9.77685
題詩	-9.77695
伯英	-9.77721
衣冠	-9.77842
一册	-9.78021
一帖	-9.78043
隷	-9.78106
近世	-9.78174
踰	-9.78238
填	-9.78287
啄	-9.78318
棹	-9.78333
項氏	-9.78345
岑	-9.78571
頻	-9.78611
二十四	-9.78645
不宣	-9.7865
淳化	-9.78652
抵	-9.78675
蝶	-9.78682
状	-9.78712
春草	-9.78776
之孫	-9.78865
黨	-9.78889
竇	-9.78907
割	-9.78913
趙文敏	-9.78951
世傳	-9.7898
宗室	-9.79058
文帝	-9.79128
樞	-9.79136
奥	-9.79161
鵠	-9.7917
真人	-9.79226
睡	-9.7926
不減	-9.79288
不可以	-9.79317
不識	-9.79441
忌	-9.79457
的	-9.79532
此詩	-9.79546
零	-9.79569
杳	-9.79603
筆也	-9.79651
丞	-9.79685
起居	-9.79706
漆	-9.79824
隐	-9.79885
函	-9.79894
工書	-9.79919
知之	-9.7993
巒	-9.8011
遼	-9.80126
草聖	-9.80158
鼔	-9.80168
巴	-9.80175
觀音	-9.80214
劉松年	-9.80222
長洲	-9.80266
書于	-9.80324
柏	-9.80426
巳	-9.80435
子也	-9.80482
長沙	-9.80523
酌	-9.80526
卷中	-9.80603
者為	-9.80655
諡	-9.80662
臨本	-9.80695
懼	-9.80751
曜	-9.80794
綸	-9.80814
淑	-9.80815
米南宫	-9.80848
司徒	-9.80882
十一月	-9.80896
邨	-9.81193
者以	-9.81229
若此	-9.81387
渭	-9.81415
闌	-9.81455
記云	-9.81486
邕	-9.81567
中書令	-9.81607
也夫	-9.8163
求其	-9.81716
握	-9.81732
一筆	-9.81733
喪	-9.81734
導	-9.81746
彈	-9.81767
余家	-9.81795
匹	-9.81798
得名	-9.81963
得於	-9.82026
司空	-9.82036
髯	-9.82045
猷	-9.8206
濁	-9.82067
賴	-9.82087
吾家	-9.82096
蕭蕭	-9.82122
綬	-9.82129
王僧䖍	-9.82162
國朝	-9.82193
吳中	-9.82224
不可得	-9.82231
合作	-9.82307
大癡	-9.82316
他日	-9.82325
論畫	-9.82382
卑	-9.82431
𤓰	-9.82439
絶句	-9.82453
尤為	-9.82458
棘	-9.8248
生平	-9.82597
毅	-9.82622
躬	-9.82709
促	-9.82712
虹	-9.82729
禍	-9.82753
太尉	-9.82838
顔真卿	-9.82931
不知其	-9.82957
員	-9.82983
㸔	-9.83091
攀	-9.83128
故其	-9.83133
杏	-9.83199
朝廷	-9.83246
篆隸	-9.83305
稀	-9.83384
之作	-9.8339
倉	-9.83393
𢎞治	-9.83484
旬	-9.83502
自得	-9.83532
手書	-9.83535
於後	-9.83578
甲子	-9.83685
伸	-9.83714
卞	-9.83724
禪師	-9.83744
索靖	-9.83763
為人	-9.83871
書此	-9.8396
與此	-9.8398
醜	-9.83994
或有	-9.84
懋	-9.84015
溢	-9.84035
白描	-9.84038
可喜	-9.84077
崑山	-9.84132
不宜	-9.84134
者則	-9.84254
九日	-9.84317
與之	-9.84347
南唐	-9.84363
弊	-9.84364
聨	-9.84408
之學	-9.84414
掣	-9.84416
淚	-9.84446
箋本	-9.84473
水仙	-9.84529
鵝	-9.84541
者其	-9.84579
閻	-9.84658
囊	-9.84711
庚	-9.84747
真行	-9.84808
元和	-9.84856
觀於	-9.85027
裹	-9.85061
穴	-9.85073
太祖	-9.85078
窻	-9.85138
自成一家	-9.85157
逺近	-9.85367
陀	-9.85375
挂	-9.8538
閏	-9.85394
梵	-9.85398
享	-9.85398
絳	-9.85444
鵬	-9.85456
花卉	-9.85492
妙絶	-9.85527
世間	-9.85616
二印又	-9.85698
墨池編	-9.85698
雪景	-9.857
紳	-9.85723
㝠	-9.85725
迥	-9.8577
作此	-9.85779
雉	-9.85819
文學	-9.85887
富貴	-9.85894
謝安	-9.85958
鍾鼎款識	-9.85978
五寸	-9.86009
七日	-9.86016
媿	-9.86061
亷	-9.86088
折枝	-9.86089
尤精	-9.86118
其法	-9.86189
終日	-9.86246
毋	-9.86384
亦自	-9.86403
鉤	-9.86404
之事	-9.86416
六朝	-9.86508
相傳	-9.86545
前輩	-9.86552
者不	-9.86559
子昂	-9.8656
􁀙	-9.86678
延祐	-9.86777
暖	-9.86789
氣象	-9.86919
雖然	-9.86922
二百	-9.87035
軌	-9.8706
翩翩	-9.87103
誥	-9.87131
魂	-9.87142
四方	-9.87192
展玩	-9.87203
無復	-9.87249
種種	-9.87258
鳩	-9.87348
失其	-9.87364
黒	-9.87412
朴	-9.87424
石經	-9.87427
台	-9.87443
尚有	-9.8749
余嘗	-9.87534
竝	-9.87734
辯	-9.87743
言之	-9.87965
摘	-9.88135
賊	-9.88153
妙品	-9.88183
羲之頓首	-9.88217
尤善	-9.88225
韓幹	-9.88281
郭熙	-9.88295
二公	-9.8833
十五年	-9.88395
則有	-9.88406
貶	-9.88452
螭	-9.88461
杭	-9.88466
之趣	-9.88477
貝	-9.88493
生動	-9.88506
批	-9.88514
男	-9.88597
漏	-9.88621
其昌	-9.88719
芒	-9.88768
第五	-9.88773
綽	-9.88774
占	-9.88783
桞	-9.88804
軰	-9.88817
穎	-9.88829
宋史本傳	-9.88884
太學	-9.88903
之言	-9.89058
趙子昻	-9.89069
淪	-9.89147
飽	-9.8917
迅	-9.8919
涯	-9.89267
弩	-9.89488
唱	-9.89519
第二幅	-9.89536
泥金	-9.89555
廬陵	-9.89588
笛	-9.89594
未知	-9.89644
西山	-9.89673
畫圖	-9.89747
翫	-9.89825
沖	-9.89825
恬	-9.89868
徧	-9.89869
菜	-9.89895
之盛	-9.89935
宋元	-9.90039
知名	-9.90088
元常	-9.90117
岫	-9.90155
泣	-9.90221
滕	-9.90265
鬭	-9.903
稱其	-9.90363
貞元	-9.90434
出示	-9.90494
行楷書	-9.905
趙松雪	-9.90513
隣	-9.90608
江上	-9.9083
耆	-9.90965
灘	-9.90997
不録	-9.91119
一㸃	-9.91127
測	-9.91199
磔	-9.91267
參差	-9.91396
好事	-9.91407
第七	-9.91521
鷗	-9.91556
厲	-9.91594
張長史	-9.91608
刋	-9.91621
款	-9.91632
七寸	-9.91638
腹圍二尺	-9.917
林木	-9.91718
洛神賦	-9.9172
第二十	-9.91748
畫卷	-9.91839
者乎	-9.91935
諸人	-9.91957
區	-9.91989
蕭子雲	-9.9199
紙上	-9.91994
旌	-9.92001
晋	-9.92025
政和	-9.9203
郭忠恕	-9.92041
楓	-9.92052
敬題	-9.92106
學之	-9.92186
扁	-9.92309
當年	-9.92326
曰吾	-9.92328
朕	-9.92339
育	-9.92364
派	-9.92366
大徳	-9.92529
宣和書譜	-9.92693
童子	-9.92698
䕫	-9.92702
庵	-9.92728
梁武帝	-9.92771
中書舍人	-9.92782
公子	-9.92883
上方	-9.92955
者必	-9.9299
忍	-9.93042
畫家	-9.93046
藴	-9.93069
帥	-9.93072
逆	-9.93073
誓	-9.93076
蠶	-9.93079
柄	-9.93096
宛然	-9.93098
韶	-9.9311
怨	-9.93163
洽	-9.93175
八法	-9.93394
蜀人	-9.93422
五色	-9.93436
膏	-9.93455
轍	-9.9347
其為	-9.93552
一見	-9.93618
第三幅	-9.93624
困	-9.93651
最為	-9.93703
人皆	-9.93712
王叔明	-9.93737
縮	-9.93767
臂	-9.93797
其形	-9.93807
洒	-9.93843
鳬	-9.93882
幽人	-9.93919
畫繼	-9.93942
神妙	-9.93948
古法	-9.9395
六書	-9.94103
真草	-9.94103
文殊	-9.94147
賓	-9.94163
雕	-9.94197
卷前有	-9.94221
執筆	-9.94297
一作	-9.94328
而能	-9.94346
皆以	-9.94376
唐寅	-9.94395
蘇軾	-9.94437
八寸	-9.94452
駭	-9.94513
復有	-9.94556
鷺	-9.94591
名人	-9.94621
數百	-9.94799
硬	-9.9481
右高	-9.94834
決	-9.94877
縈	-9.94941
不類	-9.95104
乖	-9.95208
曇	-9.95244
酣	-9.95248
之流	-9.95258
禇	-9.95282
畫法	-9.95303
浸	-9.9531
携	-9.95341
株	-9.95359
小幅	-9.95408
山水人物	-9.95439
生意	-9.95565
槐	-9.95663
縷	-9.95705
天寳	-9.95737
二寸	-9.959
犯	-9.95978
銜	-9.9601
祁	-9.96011
神氣	-9.96043
矣然	-9.96055
明帝	-9.96075
斂	-9.96075
丘壑	-9.96108
一部	-9.96128
馬和之	-9.962
徴明	-9.96273
旨	-9.96341
宋徽宗	-9.96341
遐	-9.96372
貯	-9.9641
槎	-9.9643
觴	-9.96474
項元汴印	-9.96575
蟬	-9.96679
域	-9.9672
卷首	-9.96748
瓘	-9.96752
濯	-9.9676
掠	-9.96775
入神	-9.96782
不易	-9.9679
妹	-9.96825
茗	-9.9686
摩詰	-9.96865
蕃	-9.9688
圭	-9.96932
向背	-9.96997
冥	-9.97124
㧞	-9.97131
無一	-9.97131
癖	-9.97169
貨	-9.97198
御臨	-9.97211
瓶	-9.97216
堆	-9.97223
海内	-9.97235
以上	-9.97327
妙處	-9.97346
一百	-9.97358
不相	-9.97367
米氏	-9.9743
卷末	-9.97528
夙	-9.97535
好學	-9.9754
考之	-9.97546
伐	-9.97547
禧	-9.97549
故物	-9.97576
嫌	-9.97587
大觀	-9.97589
鋪	-9.97631
東南	-9.97696
已上	-9.97707
有此	-9.97727
南渡	-9.97816
之則	-9.97876
籬	-9.97901
爪	-9.97906
纖	-9.97939
豈非	-9.9802
葵	-9.98037
南山	-9.98041
永嘉	-9.98062
从	-9.9807
皓	-9.98097
篆籀	-9.9819
緊	-9.98255
聳	-9.98288
透	-9.98314
鬢	-9.98319
子固	-9.9832
太白	-9.98337
時為	-9.98385
杏花	-9.98399
子京	-9.9845
李邕	-9.98473
京口	-9.98483
字體	-9.98521
耳髙	-9.98523
賤	-9.98596
不朽	-9.9862
閉	-9.98641
明日	-9.98649
圜	-9.9865
彰	-9.98652
構	-9.98658
芬	-9.98661
駒	-9.98724
晚年	-9.98759
外史	-9.98834
存者	-9.9885
亦能	-9.98917
文公	-9.98963
之時	-9.9898
北海	-9.98995
一一	-9.99021
譬	-9.99032
坊	-9.99049
括	-9.99049
迨	-9.99064
羞	-9.99095
先君	-9.99163
一篇	-9.9919
筋骨	-9.99199
史籀	-9.99249
周公	-9.99277
運筆	-9.99296
甚多	-9.99302
草蟲	-9.99342
夕陽	-9.99378
甞	-9.99386
相類	-9.99428
龔	-9.99438
坦	-9.99452
淋漓	-9.9946
奎	-9.99461
涵	-9.99476
逕	-9.99485
蕪	-9.9949
装	-9.99495
右軍書	-9.996
第四幅	-9.99619
行筆	-9.99627
畫竹	-9.99678
湖州	-9.99705
米老	-9.99782
錢唐	-9.99813
𦂳	-9.99813
之名	-9.99855
伴	-9.999
第七幅	-9.99969
國初	-10.0001
自題	-10.0008
識云	-10.0011
愛之	-10.0012
無銘	-10.0017
禎	-10.0017
三尺	-10.0021
寢	-10.0024
荀	-10.0024
閭	-10.0025
逝	-10.0027
播	-10.0028
第六幅	-10.0037
南北	-10.0051
圖宋	-10.0052
大年	-10.0054
明董其昌	-10.0058
繹	-10.0058
牆	-10.0061
虞集	-10.0062
鬚	-10.0062
龍圖	-10.0064
蘿	-10.0066
瑩	-10.0066
東風	-10.0073
𤣥宗	-10.0076
莫能	-10.0077
春山	-10.0096
甥	-10.0098
區區	-10.0099
鐫	-10.01
詎	-10.0103
未易	-10.0104
南陽	-10.0108
晉唐	-10.0111
見書	-10.0112
東西	-10.0113
補之	-10.012
不自	-10.0132
二首	-10.0133
驟	-10.0133
築	-10.014
羲獻	-10.0142
挑	-10.0144
睂	-10.0144
帳	-10.0145
好古	-10.0146
嘉興	-10.0148
布置	-10.0151
吏部	-10.0152
蕉林	-10.0153
其畫	-10.0163
收藏	-10.0167
明年	-10.0172
勇	-10.0174
迺	-10.0175
榜	-10.0176
儉	-10.0177
㫁	-10.0178
衡山	-10.0182
薛稷	-10.0182
浙	-10.0184
宰相	-10.0185
故事	-10.0187
第五幅	-10.0188
至此	-10.0203
天真	-10.0208
廬山	-10.0215
臯	-10.0219
觀此	-10.0219
孺	-10.022
匀	-10.0223
得一	-10.0235
當以	-10.0238
書名	-10.025
花竹	-10.0259
酷	-10.0261
宸翰	-10.0263
未得	-10.0264
虬	-10.0265
筆端	-10.0268
第八幅	-10.0271
紙墨	-10.0282
入妙	-10.0288
天然	-10.0291
子瞻	-10.0293
麤	-10.0296
邇	-10.0298
此畫	-10.0299
突	-10.0299
臨川	-10.0301
橘	-10.0303
欄	-10.0306
秋水	-10.0309
山居	-10.031
姑蘇	-10.0311
可得	-10.0311
不忘	-10.0316
其餘	-10.0317
八字	-10.0337
此其	-10.0337
瀑	-10.0338
捨	-10.0338
諒	-10.0339
揖	-10.0339
版	-10.034
摧	-10.0342
欺	-10.0342
文敏	-10.0359
潜	-10.0373
羲	-10.0373
䖍	-10.0374
五日	-10.0376
罔	-10.0377
瓦	-10.0379
三絶	-10.0381
篁	-10.0382
浴	-10.0385
三人	-10.0391
顧陸	-10.0397
致仕	-10.0405
矢	-10.0415
君謨	-10.0418
五分	-10.0418
莽	-10.0421
阜	-10.0423
防	-10.0424
鎖	-10.0424
褚河南	-10.0425
張彦逺	-10.0428
傳世	-10.045
豫	-10.045
嵗在	-10.0457
圎	-10.0458
沙門	-10.0459
蕉	-10.046
協	-10.046
饕餮	-10.0461
裘	-10.0462
措	-10.0462
淹	-10.0463
鶯	-10.0469
十一年	-10.0469
架	-10.0473
不欲	-10.0476
陽人	-10.0477
昧	-10.048
碩	-10.0502
逵	-10.0504
籖	-10.0504
打	-10.0505
侵	-10.0506
責	-10.0507
次韻	-10.0508
昻	-10.0508
臻	-10.0514
今年	-10.0517
之迹	-10.0526
南宫	-10.0528
猛	-10.0539
挾	-10.0543
鶻	-10.0548
今之	-10.0552
海岳	-10.0559
畫像	-10.0563
當為	-10.057
瓣	-10.0571
石本	-10.0572
數日	-10.0573
圖繪寳鑑	-10.0574
也此	-10.0581
梧	-10.0585
倩	-10.0585
沾	-10.0585
瀟灑	-10.0589
李思訓	-10.0591
風神	-10.0596
舊藏	-10.0596
清勁	-10.0605
元豐	-10.0611
皇象	-10.0616
千金	-10.0618
竪	-10.062
捧	-10.0622
梓	-10.0626
長於	-10.0627
歴代	-10.063
三足	-10.0632
次之	-10.0633
百餘	-10.064
山色	-10.0644
睿	-10.0649
士女	-10.0654
拖尾有	-10.0662
王孫	-10.0666
諸賢	-10.0671
宣和畫譜	-10.0672
人馬	-10.0673
十二年	-10.0676
素絹本	-10.0678
兎	-10.0678
第六	-10.0687
元暉	-10.0693
藏之	-10.0695
帛	-10.07
俱有	-10.0701
蹈	-10.0703
不與	-10.0709
盟	-10.071
往來	-10.0713
閻立本	-10.0714
䦨	-10.0715
腸	-10.0716
翰林學士	-10.0718
款題云	-10.0722
唐太宗	-10.0725
雙鈎	-10.0726
他人	-10.0738
可與	-10.0743
重一百	-10.0749
吞	-10.0753
滴	-10.0755
參軍	-10.0762
蘇州	-10.0767
中興	-10.0785
旗	-10.0788
革	-10.0789
縑	-10.0791
耿	-10.0791
強	-10.0794
能詩	-10.0796
確	-10.0796
閨	-10.0797
分明	-10.0798
百世	-10.0799
文徴明	-10.0799
天下之	-10.0813
黄金	-10.0819
獄	-10.0821
一曰	-10.0822
欹	-10.0832
一代	-10.0833
叔明	-10.0833
程邈	-10.0835
擕	-10.0836
偕	-10.0837
是時	-10.0838
車馬	-10.0845
焚香	-10.0845
昂	-10.0846
凡十	-10.085
六字	-10.0852
别有	-10.0859
淵明	-10.0861
雲氣	-10.0869
拱	-10.087
之義	-10.0872
不是	-10.0874
傲	-10.0874
落花	-10.0876
友人	-10.0906
不堪	-10.0907
析	-10.0914
蹲	-10.0915
稚	-10.0917
碣	-10.0918
軾	-10.0922
衮	-10.0922
阻	-10.0923
遙	-10.0926
第九幅	-10.0929
謫	-10.093
三卷	-10.0937
不出	-10.0941
嘗為	-10.0953
抗	-10.0959
鐡	-10.0961
䟦云	-10.0961
瓌	-10.0961
娥	-10.0963
世俗	-10.0969
恕	-10.0969
不應	-10.0974
字元	-10.0976
題句	-10.0985
堵	-10.0988
何必	-10.0988
子弟	-10.099
江東	-10.0995
不成	-10.0997
魏晉	-10.1
賁	-10.1004
萬物	-10.1004
幕	-10.1008
儲	-10.101
一家	-10.1011
乾坤	-10.1011
視之	-10.1012
江西	-10.1016
二十八	-10.1018
二尺	-10.1024
畫品	-10.1025
白石	-10.1028
瑟	-10.1044
頓首再拜	-10.1051
十三年	-10.1053
所臨	-10.1053
髙祖	-10.106
豈不	-10.1063
刻之	-10.1072
也若	-10.1072
徐熙	-10.1073
三十年	-10.1077
仁宗	-10.1082
三帖	-10.1088
攸	-10.1088
萃	-10.1093
近代	-10.1093
春日	-10.1094
帝王	-10.1095
太清	-10.1095
箇	-10.1096
宵	-10.1099
作者	-10.1101
蕭散	-10.1112
籀	-10.1115
人所	-10.1117
卷後有	-10.1118
可考	-10.113
蔡君謨	-10.113
汗	-10.1132
藩	-10.1133
誨	-10.1133
企	-10.1133
碑隂	-10.1134
邸	-10.1137
嶠	-10.1137
辛丑	-10.1138
穀	-10.1141
一行	-10.1142
可為	-10.1146
正徳	-10.1169
績	-10.1176
亦善	-10.1177
黑	-10.1178
澀	-10.1178
産	-10.1181
所收	-10.1181
維摩	-10.1182
孫過庭	-10.1183
線	-10.1183
其下	-10.1186
神明	-10.1188
間有	-10.1192
夏珪	-10.1195
然其	-10.1196
金石略	-10.1213
亦以	-10.1214
蛟	-10.1214
箴	-10.122
救	-10.122
詩意	-10.1221
慢	-10.1225
牖	-10.1226
島	-10.1227
月望日	-10.1227
自古	-10.1232
太傅	-10.1236
出其	-10.1238
之變	-10.1245
即位	-10.1248
書斷	-10.1256
拾	-10.126
字法	-10.1262
人以	-10.1263
優劣	-10.1263
拈	-10.1267
古意	-10.1267
粧	-10.1271
之道	-10.1274
祝允明	-10.1274
纓	-10.1275
諡曰	-10.1283
太和	-10.1286
畫馬	-10.1288
鴨	-10.1293
今世	-10.1305
二十年	-10.1316
鞭	-10.1317
同觀	-10.1317
棠	-10.1317
綵	-10.1318
人生	-10.1331
柴	-10.1335
失之	-10.1338
三分	-10.1348
妖	-10.1349
縉	-10.1353
羡	-10.1358
厓	-10.1359
翟	-10.136
縣志	-10.1361
一片	-10.1363
一寸	-10.1373
中秋	-10.1382
寅	-10.1383
乃是	-10.1387
趙氏	-10.1389
其次	-10.1392
淮南	-10.1393
廓	-10.1396
亟	-10.1397
䕃	-10.1399
畜	-10.14
曷	-10.1403
饑	-10.1409
荆浩	-10.1411
髙一尺	-10.1412
之徒	-10.1413
宣徳	-10.1414
李北海	-10.1415
懷素	-10.1417
不免	-10.1418
定為	-10.1419
王詵	-10.142
秋色	-10.1423
于此	-10.1433
用意	-10.1435
蒼頡	-10.1436
冲	-10.1445
琦	-10.1448
黍	-10.1451
作詩	-10.1452
咫尺	-10.1455
徵明	-10.1467
蔚	-10.1479
泰山	-10.1486
絡	-10.1488
沛	-10.1491
盆	-10.1494
王子	-10.1494
主簿	-10.1496
杭州	-10.1501
春雨	-10.1506
張氏	-10.1507
雖不	-10.1513
所為	-10.1514
真賞	-10.1514
婁	-10.1517
兩耳	-10.1519
尼	-10.1524
亦非	-10.1524
見此	-10.1526
其父	-10.1527
師於	-10.1532
十有二	-10.1532
湍	-10.1538
十餘年	-10.1542
中楷	-10.1542
第十幅	-10.1548
北苑	-10.155
祕閣	-10.1554
如新	-10.1562
搜	-10.1572
截	-10.1574
張僧繇	-10.1577
溥	-10.1579
箕	-10.1581
笙	-10.1583
公書	-10.1587
淳熙	-10.1589
西域	-10.159
宋髙宗	-10.1595
未及	-10.162
科斗	-10.1624
詭	-10.1625
觧	-10.1625
暨	-10.1626
逍遥	-10.1628
賣	-10.1629
縑素	-10.1633
艶	-10.1633
師道	-10.1637
牛圖	-10.1639
則其	-10.1641
者非	-10.1646
寫真	-10.1662
跋語	-10.1666
彛	-10.167
瞿	-10.1671
誰能	-10.1673
葬	-10.1673
篋	-10.1675
斑	-10.1676
并題	-10.1677
拓	-10.1679
甲辰	-10.1681
寳之	-10.1682
卷後	-10.1683
門下	-10.1683
書譜	-10.1683
惟有	-10.1684
心經	-10.1692
者多	-10.1698
象形	-10.1698
筆畫	-10.1701
腹圍	-10.1703
記語	-10.171
咨	-10.1716
恥	-10.1719
壤	-10.1719
斧	-10.172
竭	-10.172
輦	-10.1722
變相	-10.1723
張公	-10.1724
神物	-10.1724
世祖	-10.1729
之美	-10.1732
時時	-10.174
皇后	-10.174
援	-10.1746
文嘉	-10.1751
相對	-10.1758
之屬	-10.1761
討	-10.1763
筵	-10.1765
可知	-10.1766
遮	-10.1768
膝	-10.1769
何時	-10.1771
未可	-10.1771
庶幾	-10.1773
圗三	-10.1775
巗	-10.1776
舘	-10.1776
有半	-10.178
不已	-10.1782
氏之	-10.1785
牋本	-10.1788
和尚	-10.1789
一段	-10.1798
小璽	-10.18
摹本	-10.1806
祈	-10.1806
屑	-10.1809
流落	-10.1811
驢	-10.1814
暎	-10.1816
顧愷之	-10.1817
王蒙	-10.1826
天一	-10.183
呉郡	-10.183
御製	-10.1832
從事	-10.1832
供奉	-10.1832
塲	-10.184
粟	-10.1841
史本傳	-10.1845
世所	-10.1849
識其	-10.1851
宸	-10.1851
衂	-10.1853
洋	-10.1855
遁	-10.1858
九十	-10.1859
倪雲林	-10.1865
四明	-10.1868
屏風	-10.187
諸帖	-10.1874
桃源	-10.1877
以見	-10.1883
之形	-10.1885
茅屋	-10.1893
又曰	-10.1895
未盡	-10.1895
山房	-10.1901
算	-10.1902
善草書	-10.1902
所傳	-10.1903
讚	-10.1904
以後	-10.1905
嘉禾	-10.1907
貪	-10.1908
湖山	-10.1909
䨇	-10.1911
邀	-10.1916
畫工	-10.1918
待制	-10.1919
何所	-10.1923
中間	-10.1937
結構	-10.1943
工拙	-10.1945
華陽	-10.1945
虧	-10.1949
少時	-10.1953
膠	-10.1954
催	-10.1955
明沈周	-10.1961
三十六	-10.1963
堂記	-10.1974
㦸	-10.1984
隠居	-10.1985
鬲	-10.1991
瑕	-10.1996
衝	-10.1998
璞	-10.1999
莖	-10.1999
該	-10.2
鉅	-10.2001
嬌	-10.2001
𦙍	-10.2001
華亭	-10.2001
綾	-10.2005
宣王	-10.2016
吁	-10.2016
石上	-10.2026
秀潤	-10.2033
故也	-10.2037
緯	-10.2043
於時	-10.2044
潁	-10.2044
甲寅	-10.2049
西風	-10.2051
蔬	-10.2052
𤣥宰	-10.2055
四大字	-10.2058
其言	-10.2062
有神	-10.2068
帖真蹟一卷	-10.2075
奈	-10.2078
書畵	-10.2083
不暇	-10.2085
張懐瓘	-10.2087
矯	-10.209
膚	-10.2093
俯仰	-10.2094
善山水	-10.2098
之至	-10.21
凍	-10.2101
由是	-10.2108
或曰	-10.2108
用墨	-10.2109
石室	-10.2113
而去	-10.2114
君臣	-10.2123
亦無	-10.2124
傳之	-10.2127
深得	-10.2127
秋日	-10.2129
則不	-10.213
二軸	-10.2132
拖尾	-10.2135
攝	-10.2138
刪	-10.2139
醇	-10.2142
抽	-10.2143
嬰	-10.2143
驛	-10.2144
栁公權	-10.2144
詩卷	-10.2144
陛下	-10.2144
祚	-10.2146
戱	-10.2149
唐書本傳	-10.2151
崇禎	-10.2152
文正	-10.2153
紫芝	-10.2158
人善畫	-10.2159
陳氏	-10.216
文獻	-10.2162
凡三	-10.2165
無以	-10.2165
落日	-10.2168
結字	-10.2168
獲觀	-10.2173
謨	-10.2177
十七帖	-10.2182
逃	-10.2187
海上	-10.219
叅	-10.219
形容	-10.219
戸	-10.2193
濡	-10.2193
溺	-10.2194
五百	-10.2195
作也	-10.2198
奕奕	-10.2202
李陽冰	-10.2206
其先	-10.2208
大學士	-10.2225
庚子	-10.2227
冕	-10.2232
恱	-10.2233
世家	-10.2234
儔	-10.2235
崩	-10.2236
筌	-10.2237
檜	-10.2238
韋誕	-10.224
警	-10.2241
乙丑	-10.2242
墻	-10.2242
冶	-10.2243
迂	-10.2244
長江	-10.225
皇甫	-10.2251
翰林待詔	-10.2251
神采	-10.2255
紹聖	-10.2256
鑒賞	-10.226
名蹟	-10.226
難得	-10.2264
五寸五分	-10.2274
般	-10.2274
房山	-10.228
昉	-10.2284
或謂	-10.2286
瑛	-10.2287
滄浪	-10.2297
大書	-10.2317
逺山	-10.2317
郡人	-10.2319
天機	-10.2322
年月	-10.2326
珍重	-10.2329
夏山	-10.2331
鈍	-10.2331
之故	-10.2332
相見	-10.2334
所存	-10.2335
訛	-10.2337
羨	-10.2338
或以	-10.2339
濠	-10.234
齊名	-10.234
珂	-10.234
岩	-10.234
僻	-10.2342
喚	-10.2343
改元	-10.2345
少卿	-10.2346
取之	-10.2356
輞川	-10.2376
貞居	-10.2379
之功	-10.2379
千萬	-10.238
者惟	-10.238
牘	-10.2383
嫩	-10.2384
輸	-10.2384
山下	-10.2386
見示	-10.2389
樊	-10.239
劇	-10.239
金剛經	-10.239
扉	-10.2394
安國	-10.2398
謹書	-10.24
十四年	-10.2412
泉石	-10.2412
彭城	-10.2413
又見	-10.2415
相國	-10.2421
家法	-10.2425
詞翰	-10.2426
跋尾	-10.2426
裳	-10.243
迪	-10.2432
隴	-10.2432
繆	-10.2432
慘	-10.2433
戊辰	-10.2435
騷	-10.2436
暫	-10.2436
垣	-10.2437
鄴	-10.2438
沂	-10.2439
衢	-10.244
暴	-10.244
艾	-10.2442
忙	-10.2443
府志	-10.2444
匜	-10.2446
書屋	-10.2456
不肯	-10.246
墨妙	-10.2472
所居	-10.2472
禮部	-10.2475
不獨	-10.2475
烟雲	-10.2476
李公	-10.2479
掲	-10.2481
現	-10.2482
跨	-10.2484
犀	-10.2485
料	-10.2485
廸	-10.2485
肌	-10.2487
舍人	-10.249
龍蛇	-10.2491
歐虞	-10.2499
顔色	-10.2505
雖有	-10.2517
吳生	-10.2518
言其	-10.2522
艱	-10.2523
此幅	-10.2532
笏	-10.2533
擲	-10.2533
悔	-10.2536
瑯琊	-10.2538
驥	-10.2539
灌	-10.2539
以歸	-10.2542
題其	-10.2543
挹	-10.2544
趙昌	-10.255
白日	-10.2559
物之	-10.256
無聲	-10.2565
秋江	-10.2565
王晉卿	-10.2567
猶未	-10.2568
月明	-10.2571
唐宋	-10.2575
脂	-10.2585
彬	-10.2585
十五日	-10.2587
清潤	-10.2588
什	-10.2588
縹緲	-10.2589
紛紛	-10.259
驪	-10.2592
棋	-10.2593
絶倫	-10.26
字印	-10.2601
廣二尺	-10.2604
不似	-10.2609
無此	-10.261
府君	-10.261
從容	-10.2619
偶然	-10.2625
自言	-10.2631
一兩	-10.2633
㕘	-10.2633
貎	-10.2634
寂寞	-10.2637
袍	-10.2638
不入	-10.2639
出于	-10.264
陟	-10.264
蔓	-10.2641
蹙	-10.2642
引首	-10.2643
覔	-10.2643
子母	-10.2646
名手	-10.265
方寸	-10.2667
多有	-10.2672
先後	-10.268
一體	-10.2683
郗	-10.2687
摸	-10.2688
汾	-10.2691
偈	-10.2691
慚	-10.2692
釋氏	-10.2695
滌	-10.2696
素箋本墨畫	-10.2697
不忍	-10.2698
渴	-10.27
歐陽公	-10.2704
亦猶	-10.2714
張雨	-10.2717
趙千里	-10.2723
披圖	-10.2732
譏	-10.2734
會稽	-10.2736
忠義	-10.2737
諡文	-10.2741
簪	-10.2741
揚州	-10.2741
潁川	-10.2742
頗有	-10.2742
晁	-10.2743
不作	-10.2749
松風	-10.275
不聞	-10.2754
甚佳	-10.2759
太保	-10.2759
不到	-10.2762
觀于	-10.2763
予嘗	-10.2767
知者	-10.2781
呉中	-10.2781
泯	-10.2782
嘗以	-10.2784
墳	-10.2786
梅竹	-10.2787
鏤	-10.2787
黎	-10.2788
長短	-10.2793
鍾馗	-10.2795
名士	-10.2797
此君	-10.2798
識之	-10.2803
雀圖	-10.2809
久之	-10.2816
人工	-10.2816
縣人	-10.2817
漁父	-10.2822
不須	-10.2823
作一	-10.2828
字叔	-10.2833
弇州山人	-10.2833
剥	-10.2838
今歸	-10.284
朶	-10.2842
捲	-10.2842
丙寅	-10.2845
将軍	-10.2848
南京	-10.2849
牒	-10.2851
吳道子	-10.2854
江左	-10.2857
王公	-10.2864
諸侯	-10.2865
萬古	-10.2869
中郎	-10.2873
二分	-10.2882
五寸二分	-10.2887
後來	-10.2889
粹	-10.2889
頤	-10.2889
護	-10.289
軟	-10.2896
稷	-10.2897
檻	-10.2899
喧	-10.2901
黄帝	-10.2902
重一十	-10.2912
聰	-10.2922
宗元	-10.2928
作畫	-10.2932
月既望	-10.2933
黄鶴	-10.2934
松江	-10.294
畫人物	-10.2942
恣	-10.2942
蹇	-10.2943
䘮	-10.2943
徃徃	-10.2944
王世貞	-10.2945
舟中	-10.2945
瓢	-10.295
大父	-10.2951
財	-10.2952
宋李公麟	-10.2952
若夫	-10.2953
盡其	-10.2953
樓閣	-10.2953
鳥獸	-10.2958
諸葛	-10.2964
又以	-10.2964
春色	-10.2966
杜甫	-10.2972
工於	-10.2979
孝子	-10.2981
白頭	-10.2982
明昌	-10.2987
平原	-10.2991
㝷	-10.2992
子雲	-10.2993
非也	-10.2994
翳	-10.2995
數年	-10.2996
誅	-10.2997
湧	-10.2999
認	-10.3
四人	-10.3
畆	-10.3005
清玩	-10.3006
九寸	-10.3007
豈可	-10.3009
展卷	-10.3009
公主	-10.3011
太僕	-10.3016
檢校	-10.3022
遂以	-10.3024
數字	-10.3033
不一	-10.3036
終不	-10.3042
弇州	-10.3048
賞鑒	-10.3048
哭	-10.3049
嵗寒	-10.305
峽	-10.3052
謹題	-10.3053
説文	-10.3055
溫	-10.3059
李白	-10.3061
聖祖仁皇帝	-10.3069
若是	-10.307
見者	-10.3072
吳寛	-10.3082
節婦	-10.3083
恍	-10.3086
也予	-10.3091
能品	-10.3092
始皇	-10.3093
琰	-10.3098
毒	-10.3099
遺跡	-10.3099
林泉	-10.3101
馨	-10.3104
煮	-10.3106
銷	-10.3107
䖏	-10.3107
素牋本	-10.3107
葦	-10.3108
二十五	-10.311
妝	-10.3111
琅玕	-10.3112
四海	-10.3119
乙未	-10.3132
有名	-10.3136
第一幅	-10.3136
吴興	-10.314
與可	-10.3149
所有	-10.3149
斥	-10.3153
脉	-10.3155
諧	-10.3156
畫師	-10.3164
壬子	-10.3164
己酉	-10.3164
不凡	-10.3173
今古	-10.3195
二幅	-10.3196
以前	-10.3202
涇	-10.3202
瀛	-10.3207
演	-10.3208
巷	-10.3209
苐	-10.3209
冢	-10.321
薰	-10.3211
愛其	-10.3213
方圓	-10.3213
長生	-10.3213
米友仁	-10.3215
柯九思	-10.3217
則知	-10.3227
秋林	-10.3231
之語	-10.3234
有二	-10.3238
副使	-10.3238
淡墨	-10.3242
逼真	-10.3249
以畫	-10.3252
元帝	-10.3252
樓臺	-10.3256
詩曰	-10.3258
一丈	-10.3263
纒	-10.3263
拳	-10.3264
歐陽率更	-10.3264
數行	-10.3266
灣	-10.3266
舫	-10.3267
胥	-10.3268
乙巳	-10.327
右唐	-10.3274
癸	-10.3284
之制	-10.3287
珍玩	-10.3288
蒼蒼	-10.3289
考其	-10.3292
卦	-10.3304
未嘗不	-10.3307
多矣	-10.3307
字彦	-10.3308
擾	-10.331
􁁊	-10.3312
歴代名畫記	-10.3315
檇李	-10.3318
尋常	-10.3322
其體	-10.3324
欣然	-10.3327
印一印	-10.3329
花開	-10.3331
避暑	-10.3333
擅名	-10.334
帖中	-10.3346
者又	-10.3351
者矣	-10.3351
人品	-10.3354
神彩	-10.3356
可也	-10.3358
鋭	-10.337
勃	-10.3372
紆	-10.3372
㑹要	-10.3372
怯	-10.3373
贅	-10.3373
祇	-10.3374
閟	-10.3375
不知何許人	-10.3375
倪元鎮	-10.3376
薫	-10.3376
大中	-10.3377
雪圖	-10.3388
率更	-10.3391
之文	-10.3396
中為	-10.34
七字	-10.3405
溪上	-10.3409
三兩	-10.341
舅	-10.3411
恢	-10.3424
燒	-10.3425
踐	-10.3426
鼠	-10.3427
㕔	-10.3427
丙辰	-10.3428
無事	-10.343
虞永興	-10.3431
蘋	-10.3434
後主	-10.3434
前署	-10.3444
之理	-10.3455
朝夕	-10.3463
不著	-10.3473
道子	-10.3474
名曰	-10.3477
笠	-10.3479
壊	-10.3482
之體	-10.3483
武陵	-10.3483
摺	-10.3484
歇	-10.3486
長松	-10.3486
魏公	-10.3487
圖五	-10.3488
陂	-10.3492
形勢	-10.3493
是其	-10.3495
故曰	-10.3498
矣今	-10.35
使君	-10.35
李公麟	-10.351
經史	-10.351
教授	-10.3518
易之	-10.3521
當代	-10.3524
羅漢像	-10.3529
骨氣	-10.3529
外録	-10.353
郁	-10.3533
上品	-10.3535
字形	-10.3536
之弟	-10.3538
貓圖	-10.3539
爐	-10.3539
艇	-10.3543
磯	-10.3546
項子京家珍藏	-10.3547
圗繪寳鑑	-10.3547
𣺌	-10.3547
者或	-10.3548
開元中	-10.3559
江村	-10.3564
隂陽	-10.3566
審定	-10.3568
宣示	-10.3571
人多	-10.3571
可憐	-10.3572
有意	-10.3587
蒸	-10.3593
丁丑	-10.3594
戀	-10.3597
比之	-10.3597
霖	-10.3599
倪迂	-10.36
不足以	-10.3619
胸	-10.3638
為第一	-10.3638
註	-10.3639
澁	-10.364
君之	-10.364
胄	-10.3642
法也	-10.3644
搆	-10.3648
簇	-10.365
圖畫見聞志	-10.3651
樓觀	-10.3651
眺	-10.3651
雛	-10.3654
不待	-10.3658
未詳	-10.3659
韓滉	-10.366
米元暉	-10.3661
後歸	-10.3661
天下金石志	-10.3663
第九	-10.3663
第八	-10.3666
雲烟	-10.3667
天府	-10.3674
少師	-10.3678
梨花	-10.3687
有異	-10.3687
功徳	-10.3689
少保	-10.3691
冩生	-10.3692
頡	-10.3696
竦	-10.3701
楊凝式	-10.3703
人工畫	-10.3704
撥	-10.3704
跳	-10.3705
魄	-10.3705
蓬萊	-10.3705
狼	-10.3708
瑜	-10.3708
凄	-10.3711
搖	-10.3712
一切	-10.372
烏絲	-10.3721
字文	-10.3729
書亦	-10.3729
十有一	-10.373
過於	-10.373
揮毫	-10.3732
五尺	-10.3733
清河	-10.3739
四幅	-10.3743
而復	-10.3744
翥	-10.3745
髙古	-10.3745
以俟	-10.375
昌黎	-10.3754
末幅	-10.3755
腴	-10.3757
有竒	-10.3759
鹽	-10.3759
複	-10.376
棗	-10.3762
叩	-10.3763
蕭然	-10.3763
第十一幅	-10.3764
悚	-10.3765
畦	-10.3766
善書者	-10.3769
感慨	-10.3769
髙下	-10.3773
故知	-10.3776
六分	-10.3778
筆札	-10.3778
名筆	-10.3789
先生之	-10.3791
多作	-10.3791
閣下	-10.3795
迄	-10.3798
九成	-10.381
不載	-10.3814
豁	-10.3814
兆	-10.3816
舉進士	-10.3816
示余	-10.3816
栢	-10.3817
仗	-10.3817
叚	-10.3818
暇日	-10.3818
柘	-10.3819
壬辰	-10.382
伏惟	-10.382
丙午	-10.3821
王原祁	-10.3823
諸生	-10.3824
浣	-10.3825
瑤	-10.3825
錢舜舉	-10.3828
文集	-10.3828
衛夫人	-10.3829
窠石	-10.383
唐書	-10.383
墨梅	-10.3834
亦是	-10.3835
烟霞	-10.3842
山鷓	-10.3842
遂為	-10.3842
二十六	-10.3856
題其後	-10.3856
為最	-10.3857
晩年	-10.3861
者耶	-10.3863
等字	-10.3864
久矣	-10.3866
石湖	-10.3871
脈	-10.3873
聖教序	-10.3873
輟	-10.3874
四分	-10.3876
凋	-10.3877
匣	-10.3878
繭	-10.3879
文彭	-10.388
題詠	-10.3884
豈無	-10.3887
有一	-10.3888
能畫	-10.3894
歸去	-10.3894
小兒	-10.3895
趙公	-10.3896
其他	-10.39
四寸五分	-10.3901
五言	-10.3908
山茶	-10.3917
敕	-10.3928
犧	-10.3928
禁中	-10.3929
廻	-10.393
壬午	-10.3931
不啻	-10.3932
訖	-10.3932
彥	-10.3933
髓	-10.3933
趙文敏公	-10.3934
畨	-10.3938
嘗謂	-10.394
拾遺	-10.394
黄子久	-10.3944
者謂	-10.3944
云是	-10.3946
見畫	-10.3948
間以	-10.3948
友仁	-10.3949
此則	-10.395
于是	-10.395
君家	-10.3951
永興	-10.3959
不傳	-10.3966
不審	-10.3969
悵	-10.3971
何也	-10.3977
善畫山水	-10.3981
陸柬之	-10.3983
今觀此	-10.3984
辦	-10.3987
釐	-10.3988
臧	-10.399
消息	-10.3991
壬戌	-10.3994
笈	-10.3995
癸丑	-10.3996
第十二幅	-10.3996
槃	-10.3996
渺	-10.3997
薛紹彭	-10.3999
嘉祐	-10.4
獅子	-10.4005
摹刻	-10.4014
故實	-10.4016
内史	-10.4021
四尺	-10.4024
天上	-10.4026
嘗作	-10.4033
六法	-10.4034
卷尾	-10.4035
無欵	-10.4038
慨然	-10.4039
峙	-10.4044
銳	-10.4045
準	-10.4046
及其	-10.4049
諷	-10.4052
椿	-10.4052
勵	-10.4053
臨安	-10.4054
栽	-10.4054
規模	-10.4056
者乃	-10.4056
岱	-10.406
然亦	-10.4067
空山	-10.4067
怪石	-10.4069
初學	-10.4069
祕書	-10.407
中人	-10.4076
東陽	-10.4082
修竹	-10.4084
書畫記	-10.4085
稱之	-10.4086
斯文	-10.409
後為	-10.4094
艸	-10.4095
陜	-10.4103
蚤	-10.4105
鐸	-10.4106
瀾	-10.4108
嬉	-10.4109
曳	-10.4109
効	-10.411
禾	-10.411
斛	-10.4111
暈	-10.4113
無異	-10.4128
限	-10.4131
逺矣	-10.4135
小異	-10.4137
風度	-10.4138
篆𨽻	-10.4139
所在	-10.4142
常熟	-10.4148
水石	-10.4148
王逸少	-10.4151
其心	-10.4152
四日	-10.4155
山樵	-10.4159
弔	-10.4163
概	-10.4165
随	-10.4165
鍾張	-10.4168
題曰	-10.4168
妾	-10.4171
穠	-10.4171
長卷	-10.4172
則又	-10.4172
書賦云	-10.4176
極其	-10.4177
直學士	-10.418
精絶	-10.4181
提舉	-10.4182
聞之	-10.4182
延陵	-10.4204
狐	-10.4213
凌雲	-10.4213
中山	-10.4214
大師	-10.4216
梗	-10.4218
鮑	-10.4219
燥	-10.4224
倉頡	-10.4225
嫁	-10.4225
捐	-10.4227
董北苑	-10.4227
士人	-10.4229
太古	-10.4229
印章	-10.4231
公碑	-10.4233
世南	-10.4235
山石	-10.4236
建安	-10.4238
留意	-10.4239
其能	-10.424
序云	-10.4245
斯人	-10.4254
齋集	-10.4258
是日	-10.4259
于世	-10.4261
無名氏	-10.4263
洛神	-10.4265
贋	-10.4267
宋米芾	-10.4277
二子	-10.4278
勝國	-10.428
箭	-10.4282
撆	-10.4282
禀	-10.4283
有時	-10.4287
華山	-10.4287
矣而	-10.4288
己巳	-10.4288
靳	-10.4289
不合	-10.4289
拍	-10.4289
甲午	-10.4289
𢃄	-10.429
乙酉	-10.4291
北齊	-10.4293
其實	-10.4298
不具	-10.4301
奉勅	-10.4304
二十一	-10.4306
二曰	-10.4308
二寸七分	-10.4308
四軸	-10.431
前代	-10.4312
墨池	-10.4316
此法	-10.4318
歎曰	-10.4322
圖明	-10.4322
亦然	-10.4324
有聲	-10.4325
諸子	-10.4326
不少	-10.4328
字學	-10.4329
李嵩	-10.433
五行	-10.4332
半印二	-10.4333
不言	-10.4334
博雅	-10.4336
挫	-10.4336
西京	-10.4336
寔	-10.4341
金碧	-10.4343
抄	-10.4344
風骨	-10.4344
兀	-10.4345
有法	-10.4346
柬	-10.4348
掾	-10.4348
淸	-10.4349
結體	-10.4355
熙寧	-10.4356
三寸五分	-10.4357
不受	-10.4362
首尾	-10.437
精於	-10.437
新安	-10.437
以詩	-10.4371
之風	-10.438
界畫	-10.4384
丑	-10.4384
想見	-10.4387
亦云	-10.4387
師法	-10.4388
寫竹	-10.4395
邢	-10.44
款書	-10.4402
綜	-10.4402
磵	-10.4404
佚	-10.4404
孔雀	-10.4405
耽	-10.4406
葩	-10.4406
儻	-10.4407
庚午	-10.4407
書品	-10.4408
闗仝	-10.4409
訣云	-10.4409
樽	-10.4412
甕	-10.4412
二寸五分	-10.4414
自為	-10.442
少陵	-10.4427
傳於世	-10.443
積雪	-10.4431
最後	-10.4433
藹	-10.4445
以至	-10.4448
二寸八分	-10.4449
馬圖一	-10.4455
崔瑗	-10.446
詩人	-10.4461
舌	-10.447
天竺	-10.4471
埋	-10.4471
次第	-10.4473
右方下有	-10.4474
剡	-10.4475
與人	-10.4477
得失	-10.4482
之説	-10.4485
論也	-10.4488
行楷	-10.4488
之勝	-10.4504
秘閣	-10.4508
之祖	-10.451
昭陵	-10.4511
也因	-10.4518
其筆	-10.452
訥	-10.4522
有道	-10.4522
秩	-10.4522
弁	-10.4523
殁	-10.4524
婺	-10.4525
欠	-10.4526
翅	-10.4526
笥	-10.4527
倘	-10.4528
汙	-10.4528
一分	-10.4529
翹	-10.453
褾	-10.4531
砥	-10.4531
丙申	-10.4532
筆下	-10.4532
之矣	-10.4536
七兩	-10.4539
文徵明	-10.4543
不多	-10.4543
僕射	-10.4544
矣其	-10.4544
節度	-10.4546
三千	-10.4552
遺意	-10.4554
赤壁	-10.4555
海嶽	-10.4558
之遺	-10.4564
之象	-10.4564
李龍眠	-10.4567
甬	-10.4573
五湖	-10.4575
凖	-10.4575
乎其	-10.4577
風韻	-10.4581
俄	-10.4584
牢	-10.4585
營丘	-10.4586
孚	-10.4588
佑	-10.4588
禮部尚書	-10.4588
迫	-10.4589
螺	-10.4591
皋	-10.4593
烟雨	-10.4594
蠻	-10.4595
珮	-10.4595
辛酉	-10.4595
兩右高	-10.4597
暝	-10.4598
以是	-10.4603
不仕	-10.4604
朽	-10.4604
不可不	-10.4604
真偽	-10.4605
康熙	-10.4606
之寶	-10.4609
縣令	-10.4613
金粟	-10.4614
南宋	-10.462
昶	-10.4628
題䟦	-10.4628
風致	-10.463
杜陵	-10.463
陳留	-10.4631
部郎中	-10.4631
所蔵	-10.4632
濃淡	-10.4632
蹄	-10.4639
無所不	-10.4641
吳門	-10.4643
此乃	-10.4645
蜂	-10.4645
畫史會要	-10.4649
耳目	-10.4651
叠	-10.4651
鮮于樞	-10.4653
黯	-10.4653
筆迹	-10.4655
竒古	-10.466
莫知	-10.4663
人物山水	-10.4663
多少	-10.4677
朱文	-10.4678
鄉里	-10.4678
小楷書	-10.4679
竹枝	-10.4682
奈何	-10.4685
景物	-10.4686
臨江	-10.4689
以遺	-10.4694
亂真	-10.4701
鍊	-10.4703
捺	-10.4703
九分	-10.4703
庾肩吾	-10.4704
墅	-10.4705
緝	-10.4706
針	-10.4709
前賢	-10.471
闢	-10.4711
决	-10.4711
王穉登	-10.4711
譚	-10.4713
冝	-10.4713
馭	-10.4713
鉛	-10.4713
散騎常侍	-10.4713
攬	-10.4715
瑣	-10.4715
壬寅	-10.4715
銕	-10.4716
不至	-10.4719
因以	-10.472
八體	-10.4723
筍	-10.4724
嚴氏	-10.4732
萬壑	-10.4736
二十二	-10.474
不容	-10.4748
無限	-10.4752
閣帖	-10.4757
文正公	-10.4765
深處	-10.4768
闔	-10.4769
本無	-10.477
詰	-10.4772
門外	-10.4772
王右丞	-10.4772
贍	-10.4772
棊	-10.4777
丸	-10.4777
則無	-10.4777
陪	-10.4778
顏	-10.478
御筆題籖籖上有乾隆宸翰一璽	-10.4781
髙僧	-10.4782
周文矩	-10.4783
橅	-10.4786
芍藥	-10.4789
曲盡	-10.4799
人心	-10.4802
書在	-10.4811
右方	-10.4813
庭堅	-10.4814
平日	-10.4819
林下	-10.4824
而得	-10.4824
名世	-10.4829
吏部尚書	-10.4833
陶𢎞景	-10.4834
團扇	-10.4835
寐	-10.4836
六寸五分	-10.4836
之論	-10.4837
閔	-10.4838
栗	-10.4838
濵	-10.4839
陸探微	-10.4839
陳繼儒	-10.4839
廼	-10.484
濛	-10.4841
墟	-10.4842
㸃染	-10.4859
圖繪	-10.487
武林	-10.487
著色山水	-10.4872
明董其昌書	-10.4872
變態	-10.4876
地一	-10.4882
右髙一尺	-10.4884
子久	-10.4888
私印	-10.489
四行	-10.4892
衷	-10.4893
博古圖	-10.4894
鬻	-10.4896
盜	-10.4896
顒	-10.4897
㪚	-10.4898
結搆	-10.4898
十有四	-10.4899
故有	-10.4901
窗	-10.4902
恭畫	-10.4902
艷	-10.4903
陽冰	-10.4903
樂毅	-10.4903
平安	-10.4904
敝	-10.4904
辛亥	-10.4905
元鎮	-10.4905
禊帖	-10.4907
臘	-10.4908
書云	-10.4908
一寸二分	-10.4915
王廙	-10.4916
朱子	-10.4916
文宗	-10.4916
枝山	-10.4924
僧繇	-10.4925
一旦	-10.4929
甘露	-10.4929
梅道人	-10.4931
始知	-10.4932
并書	-10.4932
月八日	-10.4938
七分	-10.4939
垂露	-10.4939
安知	-10.4939
七寸八分	-10.4941
撰并書	-10.4943
風雲	-10.4953
二十三	-10.4954
世稱	-10.4955
東坡先生	-10.4958
故能	-10.4961
鉢	-10.4964
固不	-10.4964
聯	-10.4965
油	-10.4966
逋	-10.4967
也昔	-10.4968
庚申	-10.4968
韵	-10.4969
衛恒	-10.4971
風塵	-10.4973
文曰	-10.4977
欵書	-10.4977
獨立	-10.4978
十七年	-10.4982
禽鳥	-10.4983
七言	-10.4985
然也	-10.4986
而又	-10.4995
出處	-10.4996
自稱	-10.4996
也哉	-10.5
印記	-10.5
厯代名畫記	-10.5019
本紀	-10.5022
萬年	-10.5024
臆	-10.5024
八卦	-10.5024
龎	-10.5024
捉	-10.5025
鉉	-10.5025
太湖	-10.5025
燦	-10.5025
矧	-10.5026
萊	-10.5026
簋	-10.5026
兩銑相距	-10.5027
宋史	-10.5029
鍳	-10.5031
黛	-10.5031
洎	-10.5031
丁巳	-10.5034
字季	-10.5034
累遷	-10.5035
千字文	-10.5035
巡	-10.5037
三寸八分	-10.5041
墨林秘玩	-10.5041
僊	-10.5042
之樂	-10.5048
凡二十	-10.5056
字景	-10.507
之極	-10.5075
與余	-10.5076
安道	-10.5078
芳草	-10.5082
卉	-10.5085
樸	-10.5086
歙	-10.5088
之精	-10.5088
眩	-10.509
胷	-10.5092
道徳經	-10.5092
鄱陽	-10.5092
失真	-10.5093
白玉	-10.5094
太上	-10.5094
廣陵	-10.5094
方外	-10.5096
鐙	-10.5096
而出	-10.5097
黔	-10.5097
輕重	-10.5097
眉山	-10.5098
鍾元常	-10.5099
徘徊	-10.51
侣	-10.51
東方朔	-10.5101
一寸五分	-10.5103
舜舉	-10.5106
林屋	-10.5106
飄逸	-10.5108
四寸二分	-10.5108
之末	-10.5114
中原	-10.5117
人意	-10.5118
是非	-10.512
項元汴	-10.5125
墨林山人	-10.5127
七賢	-10.5129
疑是	-10.5131
號為	-10.5136
如雲	-10.5139
咸通	-10.5143
婦人	-10.5146
汝南	-10.5148
拜觀	-10.5151
三曰	-10.5153
倡	-10.5154
它	-10.5154
戊寅	-10.5158
瑾	-10.5158
綃	-10.5161
呂	-10.5162
三寸四分	-10.5163
旻	-10.5165
韜	-10.5167
紗	-10.5167
工夫	-10.5175
加以	-10.5177
何足	-10.5182
稾	-10.5192
漢魏	-10.5192
中國	-10.5194
秘書	-10.5195
經營	-10.5198
評書	-10.5204
置之	-10.5209
宫殿	-10.5209
二本	-10.521
黄門	-10.5211
暮年	-10.5213
宗伯	-10.5217
牟	-10.522
戊申	-10.5222
晤	-10.5223
薇	-10.5223
黄庭堅	-10.5224
畱	-10.5224
冗	-10.5225
庚寅	-10.5225
姊	-10.5227
帷	-10.5228
殘缺	-10.5228
之竒	-10.5238
荆公	-10.5238
而不知	-10.5241
一十	-10.5244
畫龍	-10.5251
畫院待詔	-10.5253
三行	-10.5272
風格	-10.5277
王摩詰	-10.5279
明文徴明	-10.5281
二寸二分	-10.5282
液	-10.5282
努	-10.5284
金石文字記	-10.5286
埃	-10.5286
頑	-10.5286
樗	-10.5287
壻	-10.529
癸亥	-10.529
城南	-10.529
斫	-10.5291
沿	-10.5292
甗	-10.5292
驄	-10.5295
四寸三分	-10.5298
大雅	-10.5299
所用	-10.53
趙子固	-10.53
得見	-10.53
稱為	-10.5304
鸚鵡	-10.5304
留心	-10.5309
崇寧	-10.531
竹樹	-10.5316
名臣	-10.5319
三寸二分	-10.532
古者	-10.5321
竒絶	-10.5323
足稱	-10.5327
蓮花	-10.5334
遺蹟	-10.5334
此意	-10.5335
雪霽	-10.5337
至大	-10.534
大悲	-10.5341
以書名	-10.5341
喜作	-10.5341
之謂	-10.5342
北宋	-10.5342
能為	-10.5345
隻	-10.5352
敞	-10.5353
鶉	-10.5354
帽	-10.5354
簽	-10.5354
踪	-10.5354
隙	-10.5357
掩映	-10.5358
不下	-10.536
承㫖	-10.5361
戴嵩	-10.5365
判官	-10.537
也按	-10.5375
山居圖	-10.5377
御府所蔵	-10.5386
之家	-10.5388
不逺	-10.5388
君子之	-10.5397
數語	-10.5399
高宗	-10.5402
不俗	-10.5402
惇	-10.5416
頼	-10.5419
膺	-10.5419
噴	-10.542
挽	-10.542
郝	-10.5422
穏	-10.5423
紹彭	-10.5424
塢	-10.5424
疊嶂	-10.5426
典刑	-10.5427
題字	-10.5428
不易得	-10.5428
内外	-10.5434
以爲	-10.5435
聖賢	-10.5441
之所以	-10.5444
何日	-10.5445
晉宋	-10.5449
書又	-10.5455
執事	-10.546
寳藏	-10.546
花果	-10.5461
不求	-10.5463
晉王羲之	-10.5464
秦漢	-10.5464
三寸三分	-10.5473
斜陽	-10.5477
余以	-10.5477
巫	-10.5479
人少	-10.548
朙	-10.5482
疑其	-10.5483
弦	-10.5485
與夫	-10.5485
緘	-10.5485
以成	-10.5486
䏻	-10.549
簫	-10.5491
甲戌	-10.5491
楹	-10.5492
棟	-10.5495
戊午	-10.5496
酸	-10.5496
夭	-10.5496
素箋本著色畫	-10.5498
山谷集	-10.5503
𤣥度	-10.5506
猶存	-10.551
五人	-10.5513
造物	-10.5521
拜手	-10.5521
三寸一分	-10.5527
二寸九分	-10.5527
兼善	-10.553
亦佳	-10.5531
號曰	-10.5535
搨本	-10.5536
字皆	-10.5538
品題	-10.5543
書心經	-10.5543
石壁	-10.5548
霸	-10.5549
不幸	-10.5551
礙	-10.5555
懇	-10.5555
十三行	-10.5557
穢	-10.5558
插	-10.5558
汎	-10.5559
狎	-10.556
山陰	-10.5563
幷	-10.5563
董𤣥宰	-10.5564
節度使	-10.5569
青緑	-10.5573
上鈐	-10.5575
湖上	-10.5577
所云	-10.5579
人事	-10.5587
珉	-10.5591
侍御	-10.5593
故物也	-10.5595
辛未	-10.5595
夢中	-10.5597
用心	-10.5601
東山	-10.5614
素箋	-10.5617
罍	-10.5617
忝	-10.5617
伽	-10.5618
匾	-10.5619
勻	-10.562
藪	-10.5621
着	-10.5621
耿耿	-10.5622
慙	-10.5623
㢘	-10.5624
聼	-10.5625
羈	-10.5626
鴉	-10.5626
躡	-10.5626
雋	-10.5627
歛	-10.5627
言也	-10.5628
冒	-10.5629
今已	-10.5629
皎	-10.5631
魯直	-10.5631
稽首	-10.5631
名山	-10.5632
泗	-10.5632
髻	-10.5633
龍虎	-10.5634
八寸五分	-10.5638
相逢	-10.5641
名氏	-10.5647
之内	-10.5652
枯木	-10.5652
刻本	-10.5653
光禄	-10.5655
凡四	-10.5656
辨之	-10.5657
謹識	-10.5663
書金剛經	-10.5667
外國	-10.567
絶筆	-10.5672
坡翁	-10.5673
是器	-10.5674
王洽	-10.5679
九兩	-10.5681
吾友	-10.5681
藏鋒	-10.5686
伎	-10.5686
諦	-10.5687
苕	-10.5688
崔白	-10.5689
課	-10.569
豹	-10.569
揆	-10.5691
藜	-10.5692
刹	-10.5692
黻	-10.5693
曩	-10.5694
庠	-10.5694
椒	-10.5696
神龍	-10.5696
閤	-10.5696
怕	-10.5698
其説	-10.57
雨過	-10.5702
峰巒	-10.5703
浮雲	-10.5704
渡江	-10.5706
都下	-10.5709
鮮于	-10.5709
夏日	-10.571
之句	-10.5711
建中	-10.5712
田家	-10.5713
工畫山水	-10.5713
議郎	-10.5716
見聞	-10.5718
工山水	-10.5732
蜀中	-10.5732
白首	-10.5734
曲江	-10.5743
以贈	-10.5743
㨗	-10.5752
者謂之	-10.5752
今為	-10.5756
磬	-10.5757
器也	-10.5758
寘	-10.5758
夔	-10.5759
净	-10.5763
呉生	-10.5765
别號	-10.5767
李西臺	-10.5768
琴書	-10.5768
簡縁云	-10.5768
態度	-10.5769
能知	-10.5773
公卿	-10.5773
印二印	-10.5775
題署	-10.5782
所稱	-10.5784
淺深	-10.5786
遺法	-10.5786
五寸一分	-10.5786
四寸八分	-10.5788
不若	-10.5793
覽者	-10.5794
寶之	-10.5795
廟堂	-10.5795
雪竹	-10.5797
前隔水有	-10.5801
飲酒	-10.5806
手筆	-10.5807
此語	-10.5811
集古	-10.5812
可笑	-10.5812
而未	-10.5813
二三	-10.5821
墨色	-10.5823
捷	-10.5823
疲	-10.5825
至其	-10.5829
嵇	-10.5829
憲宗	-10.5831
銓	-10.5831
詩畫	-10.5832
𣲖	-10.5832
恃	-10.5833
甲申	-10.5833
霍	-10.5833
之器	-10.5834
瀆	-10.5835
涪翁	-10.5835
漠漠	-10.5836
培	-10.5838
欲雨	-10.5838
方丈	-10.5842
飄飄	-10.585
宜其	-10.5855
吳人	-10.5866
項子京	-10.5872
以傳	-10.5874
五寸八分	-10.5882
杜度	-10.589
五言律詩	-10.589
欲其	-10.5892
屠	-10.5894
宋蘇軾	-10.5894
荷花	-10.5895
霅	-10.5896
花草	-10.5897
不厭	-10.5898
億	-10.59
猗	-10.5901
軼	-10.5901
漿	-10.5904
憤	-10.5904
雷紋	-10.5904
祿	-10.5907
窟	-10.5907
者豈	-10.5907
姿態	-10.5909
髙人	-10.5911
原文	-10.5915
茅山	-10.5915
墨本	-10.5917
一寸八分	-10.5919
師古	-10.5919
晉卿	-10.592
者何	-10.592
李後主	-10.5923
大厯	-10.5927
雜畫	-10.5931
其為人	-10.5932
貓	-10.5934
禮樂	-10.5936
水中	-10.5937
米家	-10.5939
五寸三分	-10.594
列女	-10.5941
因題	-10.5942
見而	-10.5948
孝宗	-10.5949
二十七	-10.5952
鈕	-10.5952
二寸六分	-10.5953
横卷	-10.5954
四皓	-10.5956
議論	-10.5959
而此	-10.596
多用	-10.5963
琅	-10.5964
骨力	-10.5966
隊	-10.5969
闇	-10.5969
隨意	-10.5969
頽	-10.5969
張顛	-10.597
遞	-10.5971
雌	-10.5972
信然	-10.5974
七寸五分	-10.5975
丁亥	-10.5975
云云	-10.5976
漲	-10.5977
無恙	-10.5977
錢塘人	-10.598
彦逺	-10.5981
其志	-10.5982
超然	-10.5985
天成	-10.5988
給事中	-10.5989
十二幅	-10.5991
伯仲	-10.5994
楷書欵識云	-10.5998
也吾	-10.5998
一變	-10.5998
萬世	-10.6015
如意	-10.602
王君	-10.6026
未免	-10.6029
觀音像	-10.6031
松雪翁	-10.6032
未足	-10.6035
九歌	-10.6038
及此	-10.6038
𨼆	-10.6044
天王像	-10.6045
天籟閣	-10.6049
濮	-10.605
奄	-10.6051
寂寂	-10.6054
都督	-10.6055
悠然	-10.6056
君碑	-10.6059
參政	-10.6061
塔銘	-10.6064
各一	-10.6067
深一尺	-10.6069
張丑	-10.6073
一寸六分	-10.6079
飾以	-10.608
草𨽻	-10.6096
而不能	-10.6097
一時之	-10.6099
文待詔	-10.6103
其詩	-10.6103
三十二	-10.6107
大都	-10.6109
魁	-10.611
若干	-10.6111
狹	-10.6113
陳公	-10.6114
鬬	-10.6115
遶	-10.6116
匡	-10.6119
以謂	-10.6119
中書侍郎	-10.612
床	-10.612
㸃綴	-10.6122
庚辰	-10.6122
呉道子	-10.6124
政事	-10.6125
一斤	-10.6127
河陽	-10.6127
之跡	-10.613
文辭	-10.613
誣	-10.613
秋月	-10.6131
秘玩	-10.6134
楊氏	-10.6135
繩墨	-10.6138
所作也	-10.614
為文	-10.6141
鸂鶒	-10.616
玉山	-10.6164
入能	-10.6166
目録	-10.6173
刃	-10.6174
秀才	-10.6174
甚有	-10.6176
蕙	-10.6176
一名	-10.6178
今見具姓名	-10.6179
鄧文原	-10.6182
水村	-10.6185
當有	-10.6185
鄂	-10.6187
矣余	-10.6189
翊	-10.6189
巘	-10.6191
不當	-10.6191
道也	-10.6193
得其妙	-10.6199
大士像	-10.6206
武后	-10.6207
建康	-10.621
丙子	-10.6212
源流	-10.6219
歴官	-10.6224
桃李	-10.6225
劄	-10.6232
鸂鶒圖	-10.6238
之初	-10.6239
字公	-10.6246
蔡襄	-10.6248
曹喜	-10.6249
吳江	-10.625
史官	-10.6254
浩然	-10.6255
乙亥	-10.6256
犢	-10.6258
褐	-10.6258
自此	-10.6259
丁酉	-10.626
拆	-10.6261
貺	-10.6262
灰	-10.6264
項墨林父秘笈之印	-10.6265
風景	-10.6267
展子䖍	-10.6269
項墨林鑑賞章	-10.6269
都尉	-10.6272
論者	-10.6273
公家	-10.6275
四寸四分	-10.6276
進退	-10.6284
卷舒	-10.6289
曲折	-10.6289
四寸七分	-10.6289
得以	-10.6293
小學	-10.6295
東平	-10.6295
更無	-10.6297
松竹	-10.6298
雲西	-10.6301
集中	-10.6301
名賢	-10.6302
慶元	-10.6304
矣故	-10.6306
張翼	-10.6307
梨	-10.6308
復得	-10.6312
刺史	-10.6312
善寫	-10.6312
傳神	-10.6319
僖	-10.6323
字字	-10.6324
精工	-10.6325
三寸九分	-10.6328
邯鄲淳	-10.6329
簿	-10.6329
懸針	-10.6331
濺	-10.6331
羸	-10.6332
縛	-10.6332
同年	-10.6335
葡萄	-10.6338
無言	-10.6339
寄傲	-10.6341
何似	-10.6344
四寸六分	-10.6345
王著	-10.6348
丹丘	-10.6358
清江	-10.6361
能事	-10.637
白髪	-10.6374
魏國	-10.6375
貞節	-10.6378
扶風	-10.6383
於今	-10.6385
文湖州	-10.6389
款識	-10.6389
昨日	-10.6391
東都	-10.6394
拖	-10.6395
年三月	-10.6395
咒	-10.6396
大德	-10.6404
寰	-10.6404
古帖	-10.6405
仞	-10.6405
禱	-10.6405
侈	-10.6405
訝	-10.6407
拒	-10.6408
寥	-10.6408
袂	-10.6408
手澤	-10.6409
八日	-10.6413
丁未	-10.642
所著	-10.6421
讀之	-10.6423
沈石田	-10.6424
文璧	-10.6427
中丞	-10.6428
開皇	-10.6428
竹林	-10.6431
磊落	-10.6432
松下	-10.6433
不可識	-10.6438
篆法	-10.644
之情	-10.6442
何當	-10.6445
軸髙二尺	-10.6451
小人	-10.6451
原博	-10.6452
督	-10.6456
城人	-10.6459
此又	-10.6465
開卷	-10.6468
五兩	-10.6468
其本	-10.6471
尚存	-10.6471
啟南	-10.6473
垢	-10.6474
時稱	-10.6474
僚	-10.6475
真迹	-10.6475
三寸六分	-10.6475
斬	-10.6476
誚	-10.6479
凛	-10.648
従	-10.6481
七尺	-10.6481
傚	-10.6481
秋七月	-10.6481
層巒	-10.6482
之致	-10.6483
璚	-10.6483
春三月	-10.6485
屐	-10.6486
躋	-10.6487
歎息	-10.6489
姓氏	-10.6492
癸未	-10.6493
百餘年	-10.6495
畫譜	-10.6499
不能盡	-10.65
為佳	-10.65
中年	-10.6505
十有三	-10.6508
不佳	-10.6509
僅存	-10.6513
真卿	-10.6517
吾鄉	-10.652
之物	-10.6528
起伏	-10.6529
無錫	-10.6537
十六年	-10.6543
孜	-10.6547
寺僧	-10.6548
曙	-10.6549
己亥	-10.6549
幢	-10.6549
名流	-10.6549
東觀餘論	-10.6551
對曰	-10.6551
苞	-10.6553
膽	-10.6555
謾	-10.6555
咎	-10.6555
蘇長公	-10.6558
沈啓南	-10.6563
素絹本墨畫	-10.6565
文皇	-10.6566
矣此	-10.6569
字有	-10.657
恨不	-10.6573
乃其	-10.6576
侍書	-10.6579
十里	-10.6579
六行	-10.658
和靖	-10.6581
己未	-10.6582
龍門	-10.6585
六寸八分	-10.659
屋木	-10.6591
幸甚	-10.6592
秘府	-10.6592
何須	-10.6598
道釋	-10.6598
六日	-10.6603
乎此	-10.6604
毛詩	-10.6607
籀文	-10.6615
余曰	-10.6618
廣川書跋	-10.6618
沮	-10.662
自成	-10.6621
武功	-10.6622
父乙	-10.6622
凱	-10.6626
刷	-10.6626
偷	-10.6627
豈能	-10.6629
天池	-10.663
忠孝	-10.6631
庾翼	-10.6632
朱熹	-10.6632
更有	-10.6634
馴	-10.6634
暮春	-10.6644
購得	-10.6645
瓜	-10.6649
兩無銘	-10.665
心手	-10.6654
夜雨	-10.6658
知有	-10.6659
意態	-10.6659
而為之	-10.6682
二寸三分	-10.6682
欵識	-10.6684
隱居	-10.6686
八寸四分	-10.6689
昔年	-10.6692
麾	-10.6698
儋	-10.6699
蟄	-10.6701
勑	-10.6701
疆	-10.6702
劔	-10.6703
史記	-10.6703
草法	-10.6703
流俗	-10.6705
蟾	-10.6706
撲	-10.6706
者哉	-10.6708
妨	-10.6709
潞	-10.6709
家𫝊	-10.671
橫	-10.671
籟	-10.6711
杪	-10.6716
潑墨	-10.6716
枝葉	-10.6718
毫端	-10.6718
花落	-10.672
一寸四分	-10.672
法師	-10.6721
絶無	-10.6726
墓碑	-10.6727
國家	-10.6729
五星	-10.673
何其	-10.6731
李將軍	-10.6732
亦足	-10.6744
此豈	-10.6744
書評	-10.6745
王仲	-10.6751
卷髙一尺	-10.6766
飬	-10.6775
玉水	-10.6776
郢	-10.6777
者葢	-10.6778
剔	-10.6779
帚	-10.678
故以	-10.678
紈	-10.678
穹	-10.6781
千秋	-10.6781
翩	-10.6781
場	-10.6782
抹	-10.6783
溶	-10.6784
楊少師	-10.6786
蓑	-10.6786
蠟	-10.6787
七寸七分	-10.6789
趙魏公	-10.6789
磨滅	-10.6789
銖	-10.679
毫髪	-10.6791
文太史	-10.6791
水經注	-10.6791
鞍馬	-10.6795
四面	-10.6798
祕府	-10.6799
明唐寅	-10.68
父丁	-10.6801
之暇	-10.6801
五寸四分	-10.6802
嵗次	-10.6802
編修	-10.6807
行人	-10.6809
逺岫	-10.6809
青天	-10.681
逸品	-10.6813
文休承	-10.6814
左方下有	-10.6816
是為	-10.6818
不存	-10.6828
三寸七分	-10.6829
宋搨	-10.683
妙於	-10.683
述書賦	-10.6832
古松	-10.6835
所刻	-10.6836
鈐	-10.6844
五寸七分	-10.6845
望之	-10.6848
州志	-10.685
屯	-10.6853
華氏	-10.6853
龕	-10.6854
李嗣真	-10.6855
婆	-10.6855
與王	-10.6856
杲	-10.6856
筆鋒	-10.6857
掖	-10.6858
寫貌	-10.6858
秋聲	-10.686
殊不	-10.6861
渝	-10.6862
終身	-10.6863
蟹	-10.6867
宣徳箋本	-10.6869
文武	-10.6871
江水	-10.6875
花木	-10.6876
貴人	-10.6878
風俗	-10.6881
公孫	-10.6884
六幅	-10.6886
最多	-10.6889
思訓	-10.6903
真本	-10.6905
五寸六分	-10.6908
大幅	-10.6909
回首	-10.691
丙	-10.6911
有感	-10.6913
標題	-10.6917
永和	-10.6917
大將軍	-10.6918
諤	-10.6925
觀察	-10.6928
十字	-10.6929
讃	-10.6929
七行	-10.6938
惱	-10.6938
滄洲	-10.6938
亦工	-10.6939
淞	-10.6939
癸酉	-10.694
悼	-10.694
傳授	-10.694
徐鉉	-10.6941
泠	-10.6942
勝伯	-10.6943
六藝	-10.6945
爾雅	-10.6947
倪瓉	-10.6948
蛟龍	-10.6948
之類是也	-10.6949
㑹圖	-10.6951
日暮	-10.6953
長子	-10.6954
初為	-10.6955
不妄	-10.6955
渡水	-10.6959
曽見	-10.6966
中品	-10.6973
上元	-10.6977
𨽻釋	-10.6983
石鼓	-10.6989
踞	-10.6995
一曲	-10.6997
今復	-10.6999
勘	-10.7
霏	-10.7011
和之	-10.7011
四寸九分	-10.7014
月下	-10.7016
庚戌	-10.7019
漾	-10.7019
峨	-10.702
個	-10.702
絶少	-10.702
數本	-10.7021
尊師	-10.7022
疎林	-10.7023
桓𤣥	-10.7023
長春	-10.7024
梁鵠	-10.7026
碁	-10.7027
不知所	-10.7029
十八年	-10.7037
大業	-10.7037
廣三尺	-10.7037
鵓鴿	-10.7038
仲圭	-10.704
通判	-10.7041
文徵仲	-10.7043
四曰	-10.7045
唐顔真卿	-10.7047
一詩	-10.7048
正統	-10.7051
尚未	-10.7051
可辨	-10.7053
精熟	-10.7061
可不	-10.7062
真人像	-10.7064
江陵	-10.7066
右方上有	-10.7068
廣川	-10.7069
相望	-10.707
明仇英	-10.707
幅前有	-10.7072
不斷	-10.7073
豈有	-10.7079
搶	-10.7081
我欲	-10.7081
部員外郎	-10.7081
未幾	-10.7083
枉	-10.7086
不動	-10.7087
鈔	-10.7087
大理	-10.7087
上古	-10.709
想像	-10.709
伍	-10.709
寮	-10.7091
莆	-10.7093
萍	-10.7093
急就章	-10.7094
航	-10.7094
悅	-10.7095
溜	-10.7095
圉	-10.7096
鴛鴦	-10.7097
沼	-10.7097
餐	-10.7098
内有	-10.7099
古器	-10.7101
誰知	-10.7102
翛然	-10.7103
震澤	-10.7103
一世	-10.7103
酒酣	-10.7106
十二字	-10.711
欵題云	-10.7112
戊子	-10.7112
璽一	-10.7114
王寵	-10.7114
布衣	-10.712
者蓋	-10.712
公為	-10.7121
星像	-10.7127
尚可	-10.7131
後先	-10.7138
漢書	-10.7142
存焉	-10.7144
僧䖍	-10.7145
要之	-10.7146
仇英	-10.715
文與可	-10.7151
馬圗	-10.7163
楨	-10.7166
博古	-10.7166
董逌	-10.7168
煎	-10.7172
輅	-10.7174
瘞鶴銘	-10.7174
衲	-10.7177
鄭䖍	-10.7177
越州	-10.7177
茫茫	-10.7178
易元吉	-10.7179
森森	-10.7179
雖未	-10.7183
覽之	-10.7183
字勢	-10.7185
余見	-10.7187
錫山	-10.719
宫中	-10.7191
羲之報	-10.7193
凌波	-10.7195
萬象	-10.72
鼎銘	-10.7203
亭記	-10.7207
宋克	-10.7209
仲温	-10.7209
天涯	-10.7216
此名	-10.7228
猶可	-10.7229
飛泉	-10.7231
丈夫	-10.7231
二寸一分	-10.7231
秋八月	-10.7233
三幅	-10.7237
過人	-10.7238
十九年	-10.7243
騁	-10.7244
嬾	-10.7245
其身	-10.7246
重陽	-10.7247
舊本	-10.7247
茹	-10.7248
駝	-10.7248
丰	-10.725
裙	-10.725
上林	-10.7251
第十三幅	-10.7251
嶂	-10.7255
濱	-10.7256
富春	-10.7258
娯	-10.7258
建炎	-10.7258
逄	-10.726
胸次	-10.726
瀉	-10.726
詩一卷	-10.7262
不惟	-10.7262
法書名畫	-10.7263
於人	-10.7264
于後	-10.7265
徵仲	-10.7267
二十九	-10.727
喬木	-10.7271
靈芝	-10.7273
折枝花	-10.7273
刻於	-10.7276
廣平	-10.7279
誠懸	-10.7279
此紙	-10.7302
獨步	-10.7305
明文徵明	-10.7313
堂集	-10.7314
七寸六分	-10.7315
失於	-10.7316
据	-10.732
復何	-10.7324
麄	-10.7326
棺	-10.7327
覿	-10.7328
狄	-10.7328
梯	-10.7329
光禄大夫	-10.7331
薪	-10.7331
二寸四分	-10.7332
挍	-10.7333
驕	-10.7334
釵	-10.7338
北山	-10.7342
獐	-10.7343
治平	-10.7343
吳仲圭	-10.7346
張伯雨	-10.735
可惜	-10.735
不稱	-10.7351
七寸三分	-10.7351
者歟	-10.7353
靈帝	-10.7359
濟南	-10.736
敬仲	-10.7367
為慰	-10.7367
不可復	-10.7367
在乎	-10.7371
不可言	-10.7371
文忠	-10.7371
國史	-10.7376
俗氣	-10.7378
乃為	-10.7379
清逸	-10.7387
八尺	-10.7388
梁楷	-10.7391
萬歴	-10.7392
臻妙	-10.7392
西方	-10.7393
彚	-10.7405
者盖	-10.7406
腐	-10.7408
沃	-10.7409
大畧	-10.7412
湮	-10.7412
糧	-10.7412
聘	-10.7413
壮	-10.7414
希世	-10.7415
渥	-10.7415
畝	-10.7416
汚	-10.7417
瀟洒	-10.7418
子孫永保	-10.742
珏	-10.742
梁詩正	-10.7422
六寸三分	-10.7428
閒居	-10.7429
皆能	-10.7429
錢氏	-10.7432
蕭條	-10.7435
西臺	-10.7436
亦嘗	-10.7436
其勢	-10.7441
東方	-10.7443
顔栁	-10.7443
萬頃	-10.7443
飛白書	-10.7444
東坡集	-10.7449
相思	-10.7449
落落	-10.745
亭亭	-10.7451
詹事	-10.7455
游戲	-10.7456
寫此	-10.7458
乃以	-10.7466
又嘗	-10.7466
於斯	-10.7469
篆文	-10.7469
烟波	-10.7477
黄公望	-10.7486
豔	-10.749
壞	-10.7492
陷	-10.7492
善屬文	-10.7493
如生	-10.7493
鯨	-10.7495
庻	-10.7495
冊計	-10.7495
翮	-10.7496
楞伽	-10.7496
仲春	-10.7497
奩	-10.7497
所好	-10.7498
冠絶	-10.7499
丙戌	-10.75
菱	-10.75
巵	-10.7501
外録書畫舫云	-10.7501
蘇氏	-10.7503
華嚴	-10.7504
泳	-10.7504
貲	-10.7504
山莊	-10.7506
之工	-10.7511
圗一卷	-10.7517
明人書	-10.7519
長慶	-10.7519
貫休	-10.7519
南村	-10.752
隋朝官本	-10.7529
載酒	-10.753
青雲	-10.7531
相從	-10.7532
一寸七分	-10.7534
乾道	-10.754
彭年	-10.7543
齋中	-10.7546
百里	-10.7546
正如	-10.7559
說文	-10.7564
傳於代	-10.7565
門人	-10.7566
璘	-10.7571
始得	-10.7573
家學	-10.7573
毗	-10.7574
月十八日	-10.7576
復古	-10.7576
惲	-10.7576
烘	-10.7577
何事	-10.7578
股	-10.7579
幽居	-10.7579
出新意	-10.7582
瀑布	-10.7582
歐陽文忠公	-10.7582
有力	-10.7583
山水師	-10.7583
戊戌	-10.7583
絮	-10.7583
卷軸	-10.7584
絹上	-10.7584
穰	-10.7585
徽廟	-10.7595
固有	-10.7596
耕漁	-10.7597
功名	-10.7598
江海	-10.7599
風氣	-10.7602
碑刻	-10.7603
頗多	-10.7605
恍然	-10.7606
真君	-10.7607
珍秘	-10.7608
獨歩	-10.7613
無有	-10.7616
不錄	-10.7616
雲霞	-10.7617
澤民	-10.7622
猶在	-10.7622
議者	-10.7626
所摹	-10.7628
江都	-10.7631
至治	-10.7636
為我	-10.7639
八行	-10.7642
及見	-10.7644
七寸四分	-10.7648
木葉	-10.7651
耳然	-10.7652
羣臣	-10.7653
不肖	-10.7653
二千	-10.7655
鎭	-10.7657
睹	-10.766
家物	-10.7662
軒轅	-10.7663
楫	-10.7666
吸	-10.7668
張昶	-10.7687
劉涇	-10.7687
筆跡	-10.7689
如玉	-10.7691
清和	-10.7695
不解	-10.7696
八寸二分	-10.77
啓南	-10.7702
可勝	-10.7707
賦此	-10.7707
女子	-10.771
江南人	-10.7714
豈知	-10.7716
乎曰	-10.7718
書契	-10.772
常侍	-10.7725
相去	-10.7729
不離	-10.7731
録云	-10.7736
晃	-10.7742
父母	-10.7743
山寺	-10.7743
俠	-10.7745
修撰	-10.7746
即日	-10.7748
跋一	-10.775
鍾鼎	-10.7752
何為	-10.7754
之子也	-10.7756
乾隆御筆	-10.7757
筆硯	-10.7757
宗廟	-10.7757
盧鴻	-10.7762
契丹	-10.7763
大臣	-10.7766
六尺	-10.7771
當與	-10.7771
片紙	-10.7774
山東	-10.7775
引首有	-10.7777
八幅	-10.7779
觀碑	-10.7783
體勢	-10.7787
之状	-10.7793
滄	-10.7808
恕先	-10.7809
外錄	-10.7809
先子	-10.7812
當其	-10.7815
于時	-10.7815
一過	-10.7821
轡	-10.7822
捕	-10.7824
蠧	-10.7824
旱	-10.7824
苗	-10.7827
之能	-10.7827
宇宙	-10.7827
寕	-10.7828
踵	-10.7828
入神品	-10.7828
魔	-10.783
榦	-10.7831
萬事	-10.7831
寥寥	-10.7832
篠	-10.7832
金剛	-10.7833
釋道	-10.7833
清河書畫舫	-10.7834
神道碑	-10.7835
六寸七分	-10.7838
南史	-10.7838
信乎	-10.784
花竹翎毛	-10.7841
西園	-10.7843
靑	-10.7843
海鹽	-10.7844
沈荃	-10.7845
一寸一分	-10.7845
月十九日	-10.7847
寶藏	-10.7851
同知	-10.7854
休承	-10.7855
者多矣	-10.786
世事	-10.7865
范陽	-10.7868
臨寫	-10.7872
較之	-10.7878
文房	-10.7879
天趣	-10.7884
何異	-10.7887
知音	-10.789
動人	-10.7891
才子	-10.7892
先世	-10.7892
無他	-10.7897
八寸一分	-10.7899
方壺	-10.7899
恪	-10.79
長歌	-10.7906
譌	-10.7908
兢	-10.7909
不拘	-10.7909
必能	-10.7911
渙	-10.7911
慿	-10.7913
籕	-10.7915
閬	-10.7915
寶晉	-10.7917
第十四幅	-10.7918
茂林	-10.7918
軀	-10.7919
竈	-10.7919
璋	-10.7919
籜	-10.792
烹	-10.792
毘陵	-10.7921
以来	-10.7922
平生真賞	-10.7926
必先	-10.7927
詩句	-10.7929
胡瓌	-10.7933
硬黄	-10.7938
移居	-10.7944
文進	-10.795
六經	-10.795
不就	-10.7954
自適	-10.7954
著名	-10.7955
神宗	-10.7958
完好	-10.796
寓意	-10.796
與前	-10.7964
天資	-10.7968
何可	-10.797
書千文	-10.7971
溪集	-10.7973
形制	-10.7974
徳常	-10.7977
成都人	-10.7982
煜	-10.7985
歐陽修	-10.7991
乂	-10.7992
琢	-10.7993
奠	-10.7997
扣	-10.7997
薄紹之	-10.7999
一寸九分	-10.8
蜀郡	-10.8
馥	-10.8001
愍	-10.8001
漬	-10.8002
顆	-10.8002
晞	-10.8004
蔣廷錫	-10.8005
覲	-10.8005
三百年	-10.8006
炯	-10.8007
颺	-10.8009
靖康	-10.8014
蒼茫	-10.8014
絹畫	-10.8015
購之	-10.8016
慶厯	-10.8016
鶺鴒	-10.8017
之室	-10.8018
面目	-10.802
别本	-10.802
三體	-10.802
釋文	-10.8026
劄子	-10.8026
天性	-10.8027
諸王	-10.8028
月五日	-10.8031
又謂	-10.8031
粉本	-10.8032
洞天	-10.8033
萱	-10.8037
神駿	-10.8043
佳處	-10.8043
製作	-10.8056
四寸一分	-10.8061
城中	-10.8065
髙麗	-10.8067
七寸二分	-10.8077
峴	-10.8081
壁間	-10.8083
孔琳之	-10.8083
豎	-10.8084
衫	-10.8084
蝕	-10.8086
珣	-10.8086
榴	-10.8087
小米	-10.8087
錐	-10.8088
宣城	-10.8089
廟記	-10.8089
扈	-10.8089
熾	-10.8091
陌	-10.8093
惜其	-10.8094
駙馬都尉	-10.8094
亦復	-10.8094
翎	-10.8094
榭	-10.8095
癸卯	-10.8095
李昇	-10.8095
可知也	-10.8096
名公	-10.8096
燕文貴	-10.8099
不止	-10.8099
萬一	-10.81
零落	-10.811
太后	-10.8111
張萱	-10.8112
韓愈	-10.8112
指揮	-10.8114
不可得而	-10.8116
安能	-10.8117
其母	-10.8121
意氣	-10.8124
原蹟	-10.8126
漁舟	-10.8127
梁武	-10.8128
穆王	-10.8142
以賜	-10.8142
清臣	-10.8143
山頭	-10.8144
所重	-10.8148
九寸五分	-10.8156
無量	-10.8158
髙八寸	-10.8158
元符	-10.8158
世昌	-10.816
胷中	-10.8161
涕	-10.8167
灼	-10.8169
石門	-10.8169
覃	-10.8171
戾	-10.8171
綏	-10.8171
肅宗	-10.8171
鯉	-10.8173
狗	-10.8173
清溪	-10.8174
嵇康	-10.8176
妓	-10.8176
胎	-10.8176
白居易	-10.8176
寂寥	-10.8177
刼	-10.8178
償	-10.8178
希哲	-10.8183
磁青箋本泥金	-10.8184
告誓	-10.8184
字敬	-10.8187
右通葢髙	-10.8187
尤長於	-10.8191
沈啟南	-10.8192
諸體	-10.8196
梅花道人	-10.8197
不特	-10.8199
亦當	-10.8203
小大	-10.8203
藏真	-10.8207
十洲	-10.8208
呉寛	-10.8213
五卷	-10.8216
張伯英	-10.8218
從此	-10.8219
皴法	-10.8222
祖述	-10.823
荆溪	-10.8234
四百	-10.8241
四十年	-10.8243
他書	-10.8245
長三尺	-10.8246
惜乎	-10.8247
孤山	-10.8248
鞍	-10.825
虎頭	-10.8256
得意筆	-10.8257
右通蓋	-10.8257
穩	-10.8262
氊	-10.8262
溟	-10.8262
麈	-10.8263
不負	-10.8263
竄	-10.8264
數千	-10.8265
居寀	-10.8266
黄鶴山樵	-10.8267
沽	-10.8267
髙三尺	-10.8268
意趣	-10.8268
句曲外史	-10.8269
仝	-10.8269
子京父印	-10.8271
杞	-10.8272
易得	-10.8273
逃禪	-10.8276
董巨	-10.8277
張璪	-10.8278
祭酒	-10.8278
等帖	-10.8278
公權	-10.828
苕溪	-10.828
小印	-10.8281
稷子	-10.8283
著作	-10.8284
風雅	-10.8287
許慎	-10.829
為多	-10.829
六寸四分	-10.8292
雨後	-10.8294
郡王	-10.8295
絳州	-10.8304
兩行	-10.831
雪山	-10.8317
尚方	-10.8321
者固	-10.8323
重九	-10.8323
高士	-10.8325
笑曰	-10.8326
樹木	-10.8326
終始	-10.8327
自識云	-10.8332
角上	-10.8334
予家	-10.8337
老夫	-10.8344
潑	-10.8344
沈氏	-10.8347
尸	-10.835
邃	-10.835
洵	-10.8352
欒	-10.8353
翕	-10.8353
歿	-10.8353
悰	-10.8354
縦	-10.8355
惋	-10.8355
替	-10.8356
第十五幅	-10.8357
頰	-10.8357
衛瓘	-10.8357
炙	-10.8357
大士	-10.8358
埽	-10.8358
苖	-10.8358
抛	-10.8359
巔	-10.8359
曺	-10.8359
緇	-10.836
黄長睿	-10.8362
滉	-10.8363
永禪師	-10.8365
書畫舫	-10.8366
益州	-10.8369
六寸一分	-10.8369
芝蘭	-10.8371
千餘	-10.8373
挂幅	-10.8375
冬十月	-10.838
般若	-10.8382
極精	-10.8383
歴歴	-10.8388
天縱	-10.8392
娛	-10.8397
湖石	-10.8398
元氣	-10.8398
黄山谷	-10.8404
七十二	-10.8404
夏五	-10.8406
相連	-10.8407
詩一首	-10.8408
久而	-10.8409
不虚	-10.8413
允文	-10.8415
五寸九分	-10.8417
好事家	-10.8417
原本	-10.8418
窠	-10.8421
㑹昌	-10.8421
東吳	-10.8422
九寸二分	-10.8431
五經	-10.8434
吳越	-10.8434
嚮	-10.8434
在焉	-10.8437
簮	-10.8438
塑	-10.8438
司冦	-10.8442
蘧	-10.8443
譙	-10.8443
呵	-10.8443
駢	-10.8443
摭	-10.8446
惻	-10.8446
篷	-10.8446
僮	-10.8446
麥	-10.8448
趙承㫖	-10.8448
姻	-10.8449
辛巳	-10.845
米襄陽	-10.8451
子孫世昌	-10.8455
北方	-10.8455
墨花	-10.8455
承平	-10.846
七寸九分	-10.8466
王謝	-10.8467
安石	-10.8476
圗四	-10.848
佛道	-10.8482
下品	-10.8484
通志	-10.8487
可知矣	-10.8487
紅塵	-10.8495
煙雲	-10.8499
少監	-10.8502
精細	-10.8504
釋迦	-10.8505
天地間	-10.8509
秋九月	-10.8515
王子敬	-10.8517
曼	-10.8525
訂	-10.8527
黼	-10.8529
坤	-10.8531
者是也	-10.8531
頒	-10.8531
鐵網珊瑚	-10.8531
忱	-10.8532
謝靈運	-10.8533
顚	-10.8534
國子	-10.8534
漂	-10.8534
癸巳	-10.8534
球	-10.8534
頸	-10.8535
羮	-10.8535
貂	-10.8535
揮灑	-10.8535
因得	-10.8536
兖	-10.8536
擔	-10.8537
謝赫	-10.8537
蹔	-10.8537
滎陽	-10.8538
鬛	-10.8538
儼然	-10.8538
蒂	-10.854
墨跡	-10.854
天寶	-10.8541
遒媚	-10.8541
髩	-10.8541
蘇子瞻	-10.8542
猴	-10.8544
淫	-10.8545
地獄	-10.8545
浩蕩	-10.8547
赤壁賦	-10.8551
寒暑	-10.856
宛轉	-10.856
此器	-10.8561
趙雍	-10.8577
書七言律詩	-10.8582
年年	-10.8583
何由	-10.8587
無遺	-10.8588
相國寺	-10.8589
茫	-10.8593
工畫人物	-10.8601
論語	-10.8606
月十三日	-10.8607
古賢	-10.8612
文定	-10.8614
年五月	-10.8615
春水	-10.8615
結法	-10.8616
布景	-10.8618
怠	-10.8619
京師人	-10.8621
赫	-10.8623
監察御史	-10.8623
勛	-10.8626
汪砢玉	-10.8626
砂	-10.8626
厄	-10.8628
騫	-10.8628
十有五	-10.8628
八百	-10.8628
碧落	-10.8629
先臣	-10.8632
茆	-10.8633
漪	-10.8633
禇遂良	-10.8634
半印不可識	-10.8636
藂	-10.8637
皇祐	-10.8639
其迹	-10.864
花枝	-10.8641
王翬	-10.8641
為主	-10.8642
王安石	-10.8643
宜興	-10.8643
精緻	-10.8646
精微	-10.8647
受禪	-10.8648
兵火	-10.8649
城東	-10.8656
白描畫	-10.8659
李營丘	-10.866
月廿日	-10.8662
功臣	-10.8663
松雪齋	-10.8665
神情	-10.8667
輞川圖	-10.8671
草隸	-10.8671
宣德	-10.8685
辨才	-10.8688
文詞	-10.8693
天女	-10.8703
精舍	-10.8703
名重	-10.8708
不妨	-10.8711
甄	-10.8715
榆	-10.8715
侔	-10.8716
吝	-10.8719
摶	-10.8719
輯	-10.872
䑕	-10.872
呌	-10.872
咽	-10.872
良工	-10.872
匆匆	-10.8721
醴泉	-10.8723
廵	-10.8724
覧	-10.8724
卻	-10.8726
一寸三分	-10.8727
蟻	-10.8728
神像	-10.8732
周官	-10.8732
紙筆	-10.8733
敬美	-10.8735
錢唐人	-10.8737
山陽	-10.8737
季子	-10.8738
王府	-10.8743
閉門	-10.8744
賔客	-10.8744
野人	-10.8751
烟樹	-10.8751
藏經	-10.8771
賢者	-10.8772
開成	-10.8772
武夷	-10.8774
長洲人	-10.8775
南昌	-10.8775
而卒	-10.8778
竹圖二	-10.8782
歌詩	-10.8783
馬麟	-10.8785
老成	-10.8787
徳宗	-10.8787
安定	-10.8798
可比	-10.8799
舊物	-10.88
墨林子	-10.8802
天際	-10.8804
無論	-10.8806
趺	-10.8807
套	-10.8807
耐	-10.8807
葵花	-10.8808
睦	-10.881
相近	-10.881
兩耳有提梁	-10.8811
容臺集	-10.8811
潄	-10.8812
兩兩耳有珥	-10.8812
韓擇木	-10.8812
穉	-10.8813
浚	-10.8815
幡	-10.8815
横披	-10.8815
百代	-10.8817
知制誥	-10.8817
舊唐書	-10.8817
己丑	-10.8817
宋蘇軾書	-10.8817
薛道祖	-10.8818
娘	-10.8819
倐	-10.882
鴨圖	-10.882
性情	-10.8822
蓼	-10.8823
趙大年	-10.8829
無足	-10.8831
子美	-10.8831
尤妙	-10.8832
名畫記	-10.8835
真蹟一卷	-10.884
貞白	-10.8845
太息	-10.8849
道釋人物	-10.8849
之謂也	-10.8856
麻紙	-10.8858
二十餘	-10.8863
華亭人	-10.8865
宋人畫	-10.8867
沈著	-10.887
玉女	-10.8877
余嘗見	-10.8879
八寸六分	-10.888
字孟	-10.8883
杭人	-10.8884
像碑	-10.8886
□□	-10.8898
燕山	-10.8899
不可及	-10.89
取諸	-10.89
蕭思話	-10.8901
六合	-10.8901
寳晉	-10.8902
砌	-10.8902
萬卷	-10.8904
敖	-10.8904
擘	-10.8904
汁	-10.8906
噐	-10.8906
諌	-10.8909
旃	-10.891
仙去	-10.8912
玲瓏	-10.8913
庾亮	-10.8914
項叔子	-10.8915
青青	-10.8919
曼卿	-10.892
彌勒	-10.8931
八寸八分	-10.8932
内翰	-10.8933
署名	-10.8937
所及	-10.8938
轉運	-10.8941
泰定	-10.895
不可辨	-10.8951
范公	-10.8971
愔	-10.8972
大節	-10.8978
行於世	-10.8981
停雲	-10.8987
當自	-10.8994
縉紳	-10.8997
綰	-10.8997
不得其	-10.8998
撇	-10.9
騐	-10.9
諮	-10.9
囂	-10.9
恰	-10.9002
籌	-10.9003
盗	-10.9003
攢	-10.9004
趙伯駒	-10.9005
瀟	-10.9006
紱	-10.9006
賀知章	-10.9006
樣	-10.9007
訟	-10.9007
媒	-10.9008
薨	-10.901
拄	-10.9012
效之	-10.9013
外録珊瑚網云	-10.9013
廿五日	-10.9015
宇一	-10.9016
姿媚	-10.9017
飄然	-10.9019
牧牛圖	-10.9024
羲之白	-10.9025
嗜酒	-10.9026
二紙	-10.9029
鷹圖	-10.9032
知其為	-10.9034
歸去來	-10.9035
六寸二分	-10.9035
遺恨	-10.9036
氏家藏	-10.9036
月十一日	-10.9037
以此為	-10.9038
竒偉	-10.9041
王珉	-10.9044
㑹稽人	-10.9044
宇文	-10.9044
代宗	-10.9045
乃能	-10.9062
年八十	-10.9066
荆州	-10.9073
善丹青	-10.9074
臨風	-10.9075
年少	-10.9079
真筆	-10.9081
稽古	-10.9087
劉氏	-10.9087
余因	-10.9088
竒怪	-10.9089
出沒	-10.9092
廹	-10.9094
肝	-10.9096
昊	-10.9097
郗愔	-10.9098
貳	-10.9099
剖	-10.91
匏	-10.91
鼇	-10.91
廡	-10.91
傅朋	-10.9101
未敢	-10.9101
裱	-10.9101
坐位帖	-10.9101
可寳也	-10.9103
鍾紹京	-10.9104
特進	-10.9104
餅	-10.9104
釀	-10.9105
周禮	-10.9107
蒲萄	-10.9109
深逺	-10.9112
躑躅	-10.9112
鷗波	-10.9112
素牋本墨畫	-10.9114
太倉	-10.9114
口徑五寸	-10.9116
夏五月	-10.9117
損益	-10.9118
李煜	-10.9121
門前	-10.9124
余言	-10.9126
吾師	-10.9127
李東陽	-10.9128
夏四月	-10.9129
翰林院	-10.9133
斯言	-10.9137
過此	-10.9141
遂成	-10.9141
秋塘	-10.9151
不獲	-10.9151
獨坐	-10.9152
死生	-10.9159
即是	-10.9165
得右軍	-10.9166
無一筆	-10.9169
不得不	-10.917
筒	-10.917
寳鑑	-10.9171
能書者	-10.9174
蚊	-10.9176
庶子	-10.9182
子京所藏	-10.9185
凜	-10.9186
伯夷頌	-10.9186
茲	-10.919
繕	-10.9191
漠	-10.9191
漕	-10.9192
拭	-10.9194
朂	-10.9194
鷂	-10.9194
鷙	-10.9194
王濛	-10.9195
粒	-10.9196
家蔵	-10.9196
另	-10.9196
憾	-10.9197
冠冕	-10.9197
咄	-10.9197
琵琶	-10.9199
㤗	-10.9199
衣裳	-10.9199
月六日	-10.92
珊	-10.92
緬	-10.9201
禦	-10.9201
悴	-10.9202
茸	-10.9203
列朝人	-10.9206
蘂	-10.9207
雨露	-10.9208
堂印	-10.9208
既望	-10.9209
梳	-10.9209
不一一	-10.9212
無款	-10.9216
相承	-10.9224
兼工	-10.9227
進士第	-10.9229
凡五	-10.9229
湘江	-10.9235
援筆	-10.9237
開封	-10.9238
郎官	-10.9243
仲穆	-10.925
凡六	-10.9262
黄素	-10.9264
磊	-10.9267
諸孫	-10.9268
開封人	-10.9268
節義	-10.9271
遣使	-10.9272
墓銘	-10.9272
罕見	-10.9277
盉	-10.9283
虢	-10.9288
黄伯思	-10.9288
挈	-10.9289
窘	-10.929
臭	-10.929
黜	-10.929
鑾	-10.9291
法書要録	-10.9291
刮	-10.9291
糢糊	-10.9292
饗	-10.9292
周天球	-10.9292
陶隠居	-10.9293
憩	-10.9293
覓	-10.9293
張從申	-10.9294
便是	-10.9295
颯	-10.9299
何哉	-10.9303
彩鸞	-10.9304
云爾	-10.9304
尺餘	-10.9307
塵埃	-10.9307
嘗聞	-10.9313
何年	-10.9317
徴仲	-10.9317
處見	-10.9322
精舎	-10.9327
仕女	-10.9332
風月	-10.9343
不復見	-10.9344
非常	-10.9345
氏所藏	-10.9345
或問	-10.9348
登臨	-10.9351
秀色	-10.9357
染翰	-10.9357
陸治	-10.936
制度	-10.9363
二印前有	-10.9365
骨肉	-10.9373
觶	-10.9374
王導	-10.9375
子厚	-10.9375
酉	-10.9383
盤礴	-10.939
誡	-10.9392
釘	-10.9393
詮	-10.9394
廷美	-10.9394
攘	-10.9394
瘠	-10.9395
槁	-10.9395
芸	-10.9396
鬟	-10.9397
街	-10.9397
祝京兆	-10.9397
驤	-10.9399
第十六幅	-10.9399
鏘	-10.9399
笋	-10.9399
無愧	-10.94
㤀	-10.94
軸髙一尺	-10.9402
武徳	-10.9403
日夕	-10.9404
二十日	-10.9404
漢武	-10.9407
一洗	-10.9407
彼此	-10.9408
滄海	-10.9409
軍節度使	-10.9409
蜂蝶	-10.9411
文賦	-10.9418
雲霧	-10.942
鐘鼎	-10.9421
張仲	-10.9422
文徴仲	-10.9422
筆底	-10.9425
徐熈	-10.9429
摹搨	-10.9436
小像	-10.9437
爛然	-10.9459
至寳	-10.9464
未始	-10.9465
父癸	-10.9472
天地之	-10.9478
而藏之	-10.9478
畫山水人物	-10.9479
蘇公	-10.948
迦	-10.9485
譯	-10.9486
已久	-10.9486
佞	-10.9488
碧山	-10.9488
蒨	-10.9488
十有六	-10.9489
彪	-10.949
戍	-10.9491
慤	-10.9491
臼	-10.9493
三品	-10.9493
棣	-10.9493
豈獨	-10.9494
張懷瓘	-10.9494
䟽	-10.9494
九寸三分	-10.9496
瑰	-10.9497
後隔水有	-10.9499
飢	-10.95
爛漫	-10.95
樞密	-10.9501
對題	-10.9501
則失	-10.9501
依稀	-10.9501
一巻	-10.9503
過庭	-10.9516
趙子昂	-10.9517
塵俗	-10.9517
蘇文忠公	-10.9519
長睿	-10.9521
優游	-10.9521
貞觀中	-10.9541
潤州	-10.9542
隔水	-10.9542
宙一	-10.9544
定武本	-10.9547
各自	-10.9552
水邊	-10.9563
菊花	-10.9567
長安人	-10.9569
世所傳	-10.9571
寳玩	-10.9577
其狀	-10.9585
罄	-10.959
裾	-10.959
婚	-10.9591
躭	-10.9591
阮研	-10.9592
崛	-10.9592
僉	-10.9594
諸老	-10.9594
縝	-10.9595
顔平原	-10.9595
落照	-10.9598
濬	-10.9598
鑰	-10.9598
憎	-10.9598
雜詩	-10.9598
鏁	-10.9599
礬	-10.96
外録書畵舫云	-10.96
窈窕	-10.96
勁健	-10.9602
疋	-10.9603
周旋	-10.9604
生死	-10.9604
唐末	-10.9605
隴西	-10.9606
㑹心	-10.9608
一人而已	-10.9608
彚考	-10.961
永年	-10.9624
心目	-10.9627
文忠公	-10.9633
雅好	-10.9644
光和	-10.9648
押字	-10.9649
出塵	-10.9653
思致	-10.9658
不誣	-10.9667
諸跋	-10.9669
太公	-10.9671
月十二日	-10.9673
家所藏	-10.9674
絶塵	-10.9676
簠	-10.9679
夏侯	-10.9683
蒙古字	-10.9683
元人畫	-10.9684
湜	-10.9685
盎	-10.9686
塊	-10.9687
拏	-10.9688
伯虎	-10.9689
遘	-10.9691
玠	-10.9692
吏部侍郎	-10.9693
閶	-10.9694
禮部侍郎	-10.9695
遑	-10.9695
萌	-10.9695
簡易	-10.9695
聶	-10.9697
御定佩文齋書畫譜卷	-10.97
斵	-10.97
晶	-10.9701
笠澤	-10.9703
等印	-10.9705
哥	-10.9705
不死	-10.9706
乾隆宸翰二璽	-10.9706
偏旁	-10.9709
渾厚	-10.971
盛時	-10.9711
子畏	-10.9712
堂帖	-10.9713
斌	-10.9713
仲尼	-10.9713
嵩山	-10.9717
三璽	-10.9717
仕至	-10.972
朱氏	-10.9721
楚江	-10.9723
品第	-10.9728
池上	-10.9729
相過	-10.9729
彦敬	-10.9731
趙吳興	-10.9732
購得之	-10.9737
嘗觀	-10.9739
夏六月	-10.974
古篆	-10.9744
六寸六分	-10.9744
宋箋本	-10.9746
鍾法	-10.9748
購求	-10.9753
縱逸	-10.9769
東漢	-10.977
崑崙	-10.9774
三十五	-10.9785
雲雷	-10.9788
由此	-10.9791
壘	-10.9792
往還	-10.9793
弇州續藁	-10.9793
欽定四庫全書御定佩文齋書畫譜卷	-10.9793
兕	-10.9793
城郭	-10.9795
由來	-10.9795
叶	-10.9795
武昌	-10.9796
淳熈	-10.9797
宕	-10.9799
羌	-10.9799
渤海	-10.98
圈	-10.98
徳政碑	-10.9801
愴	-10.9801
亦可謂	-10.9803
隄	-10.9803
國子監	-10.9803
筆陣圖	-10.9804
停雲館	-10.9805
舂	-10.9806
部主事	-10.9806
夢寐	-10.9806
聮	-10.9807
周越	-10.9807
固知	-10.981
鴿	-10.981
裡	-10.9811
假借	-10.9815
映帶	-10.9816
墓誌銘	-10.9821
嗟乎	-10.9822
老僧	-10.9833
惜哉	-10.9848
困學	-10.9852
眉公	-10.9858
過眼	-10.9862
數百年	-10.9862
立本	-10.9864
但見	-10.9875
萬福	-10.9879
左丞	-10.9881
撫卷	-10.9884
幣	-10.9893
畿	-10.9893
菩提	-10.9895
奸	-10.9901
冦	-10.9901
匿	-10.9902
蕊	-10.9902
麒麟	-10.9902
洪武中	-10.9903
御史中丞	-10.9903
煉	-10.9903
刁	-10.9903
瑗	-10.9903
暘	-10.9904
曄	-10.9904
蠡	-10.9907
郄	-10.9908
范氏	-10.9908
荇	-10.9908
湫	-10.9908
廿三日	-10.991
嘶	-10.9913
陞	-10.9914
康熈	-10.9914
員外	-10.9916
事業	-10.9919
依然	-10.992
初一日敬書一洋箋本墨書欵識云康	-10.9922
遲遲	-10.993
金陵人	-10.9933
每見	-10.9934
依依	-10.9936
江夏	-10.9942
皇上	-10.9944
院體	-10.9944
唐文皇	-10.9949
器銘	-10.9954
百六十	-10.9957
陸機	-10.996
乗興	-10.9962
宗皇帝	-10.9964
入蜀	-10.9965
忽見	-10.9965
浙江	-10.9967
清麗	-10.9975
出没	-10.9986
潤色	-10.9987
精彩	-10.9994
宣宗	-10.9997
譔	-11
荔	-11
玅	-11.0001
隋唐	-11.0002
舛	-11.0005
宗師	-11.0005
什襲	-11.0006
逈	-11.0007
募	-11.0007
瀨	-11.0007
敲	-11.0007
槖	-11.0009
組	-11.001
腥	-11.0011
餓	-11.0011
上柱國	-11.0011
徐季海	-11.0012
看雲	-11.0012
煑	-11.0017
急就	-11.0018
頭陀	-11.0023
篆額	-11.0024
最佳	-11.003
下有乾隆宸翰	-11.0033
紹興間	-11.004
離離	-11.0047
官奴	-11.0053
隷書	-11.0054
珍賞	-11.006
蘆花	-11.0061
原父	-11.0061
至正二十	-11.0064
孤雲	-11.0076
運用	-11.0078
十數	-11.0081
虞山	-11.0083
陸氏	-11.0083
丈餘	-11.0087
茘	-11.009
悠	-11.0093
茟	-11.0098
潦	-11.0106
絶妙	-11.0106
一時名	-11.0107
所以為	-11.0107
鞏	-11.0108
楊維楨	-11.0111
誘	-11.0113
庖	-11.0113
璲	-11.0114
愿	-11.0114
裝潢	-11.0115
丁卯	-11.0116
妬	-11.0116
蛾	-11.0117
店	-11.0117
掬	-11.0117
昱	-11.0117
愷	-11.0117
吳興趙孟頫	-11.0118
盂	-11.0119
亘	-11.0121
銀鈎	-11.0122
儒學	-11.0122
忠恕	-11.0122
陶宗儀	-11.0122
昨夜	-11.0123
王齊翰	-11.0124
惆悵	-11.0124
件	-11.0124
兩耳連環	-11.0126
郡齋	-11.0126
一印漫漶不可識	-11.0126
洛陽人	-11.0127
肥瘦	-11.0128
朝陽	-11.0132
文采	-11.0136
聊以	-11.014
李建中	-11.014
忠獻	-11.0148
幅第一幅	-11.0156
甫里	-11.0157
制作	-11.0157
頗得	-11.017
佛寺	-11.0171
南海	-11.0178
可歎	-11.0178
滿地	-11.0181
筆蹟	-11.0182
刻意	-11.0184
平江	-11.0201
書苑菁華	-11.0212
氣骨	-11.0214
卓然	-11.0215
白鶴	-11.0215
所撰	-11.0219
晉書本傳	-11.022
氛	-11.022
檄	-11.022
凶	-11.0221
泐	-11.0221
李日華	-11.0221
倅	-11.0222
絢	-11.0224
寤	-11.0224
餉	-11.0226
廿四日	-11.0227
翌	-11.0228
君不見	-11.0234
菲	-11.0239
竹木	-11.0239
八寸九分	-11.0241
隆慶	-11.0243
藍田	-11.0244
舍利	-11.025
工書畫	-11.0251
千百	-11.0255
楊補之	-11.0258
垂釣	-11.0259
草樹	-11.0263
髙四尺	-11.0264
天錫	-11.0271
田園	-11.0273
甚工	-11.0289
京兆人	-11.0296
鍾㑹	-11.0296
六寸九分	-11.0297
神韻	-11.0297
其文曰	-11.03
天順	-11.0307
盛年	-11.0312
爻	-11.0316
淄	-11.0317
塵土	-11.0317
世宗憲皇帝	-11.0318
未聞	-11.0318
善書畫	-11.0323
履吉	-11.0324
稠	-11.0326
凢	-11.0326
蔑	-11.0328
貴賤	-11.0328
何幸	-11.0329
溝	-11.0331
叱	-11.0331
愛重	-11.0332
棧	-11.0332
丈人	-11.0333
栁誠懸	-11.0333
磴	-11.0334
虺	-11.0334
不羈	-11.0335
搜訪	-11.0337
撮	-11.0338
煌	-11.0338
必須	-11.0338
笻	-11.0339
芾頓首	-11.034
鴛	-11.0342
桓温	-11.0343
員外郎	-11.0344
總管	-11.0347
瑶池	-11.0352
七寸一分	-11.0355
松江志	-11.0358
風味	-11.036
年六十	-11.0366
伏羲	-11.0382
柴門	-11.0394
入室	-11.0397
粲然	-11.0399
羣峰	-11.04
太虚	-11.0404
了無	-11.0406
前隔水	-11.0407
自叙	-11.0413
幾何	-11.0415
禊	-11.0417
士女圖	-11.0423
崑	-11.0426
二印後有	-11.0428
闡	-11.0432
計四十	-11.0432
遯	-11.0434
牓	-11.0437
蘄	-11.0437
空谷	-11.0439
捜	-11.044
翡翠	-11.044
諾	-11.044
愉	-11.0441
浹	-11.0441
乙卯	-11.0442
琛	-11.0443
䑓	-11.0444
失去	-11.0445
冬日	-11.0446
鄞	-11.0447
盃	-11.0448
椽	-11.0448
英宗	-11.0448
釋智永	-11.045
匡廬	-11.0452
澂	-11.0453
畫佛像	-11.0455
松年	-11.0457
存良	-11.0459
委曲	-11.046
伯喈	-11.0461
蕭疎	-11.0462
屋宇	-11.0462
微茫	-11.0469
仲夏	-11.0471
江浙	-11.0476
蘇黄	-11.0481
那得	-11.0481
柘竹	-11.0494
宙	-11.0501
尚書郎	-11.0505
不完	-11.0516
秋山圖	-11.0532
丨	-11.0534
淛	-11.0536
本末	-11.0537
别業	-11.054
推官	-11.054
借觀	-11.0544
琚	-11.0545
才翁	-11.0546
寓意編	-11.0547
蒼古	-11.0548
棃	-11.0548
芭蕉	-11.0551
廿六日	-11.0553
鶚	-11.0553
箱	-11.0553
櫂	-11.0556
襪	-11.0557
嫗	-11.0558
書畫史	-11.0559
泠泠	-11.0559
絶品	-11.056
娟娟	-11.0561
凭	-11.0562
寓居	-11.0562
紫陽	-11.0563
知己	-11.0565
龍眠居士	-11.0566
筋力	-11.0568
不倦	-11.0569
鼓琴	-11.057
内侍	-11.0574
番部	-11.0576
仲蔚	-11.0577
鳥跡	-11.0579
董其昌題	-11.0586
牛馬	-11.0591
白髮	-11.0593
禪師碑	-11.0595
摹寫	-11.0595
在人間	-11.0595
樂府	-11.0596
而歸之	-11.0602
青城	-11.0603
元王蒙	-11.0607
圖一寫生	-11.0608
公麟	-11.0625
定武蘭亭	-11.0635
歲月	-11.064
蜜	-11.0649
或疑	-11.0651
書史會要	-11.0657
僭	-11.0659
夸	-11.0659
裒	-11.066
义	-11.066
不乏	-11.0661
韞	-11.0661
愜	-11.0662
樞宻	-11.0664
右方上	-11.0665
辛卯	-11.0665
瘞	-11.0666
峩	-11.0666
欽定四庫全書御定佩文齋書畫譜目録	-11.0666
睿宗	-11.0667
同中書門下平章事	-11.0667
度人經	-11.0667
蹊徑	-11.0668
巽	-11.0668
邠	-11.0669
掉	-11.0669
罨	-11.0669
琪	-11.0671
曹霸	-11.0671
嘲	-11.0673
芥	-11.0673
㺯	-11.0673
離騷	-11.0676
黄魯直	-11.0678
莊子	-11.0679
渲	-11.068
集賢院	-11.0684
氣力	-11.0688
并序	-11.0689
聰明	-11.0689
太宰	-11.0691
䟦尾	-11.0695
淮海	-11.0701
孟端	-11.0704
宋文帝	-11.0712
餘慶	-11.0712
善畵	-11.0713
鴻都	-11.0726
叢竹	-11.0726
物外	-11.0738
豈徒	-11.0739
再三	-11.074
趙模	-11.0744
看花	-11.0746
勒石	-11.0748
福州	-11.0754
經一册	-11.076
雪霽圖	-11.0762
義興	-11.0763
瓿	-11.0765
所収	-11.0766
槀	-11.0767
早年	-11.077
璟	-11.077
筍竹	-11.0771
擎	-11.0772
丁夘	-11.0774
㡌	-11.0775
掀	-11.0775
眇	-11.0775
竅	-11.0776
緜	-11.0776
曽孫	-11.0777
臨右軍	-11.0777
掇	-11.0781
葺	-11.0782
王元美	-11.0782
鬰	-11.0783
俸	-11.0783
姥	-11.0784
萼	-11.0785
許道寧	-11.0786
模寫	-11.0791
泓	-11.0792
潺湲	-11.0796
有生意	-11.0804
洛中	-11.0809
咸陽	-11.082
俞和	-11.0826
寫照	-11.0827
蒼龍	-11.0833
甚富	-11.0837
秋壑	-11.0839
盛徳	-11.0839
蘭竹	-11.0845
息齋	-11.0848
盈尺	-11.0851
百尺	-11.0855
計三十	-11.0865
落葉	-11.0866
蔡京	-11.0867
唇	-11.088
逞	-11.0888
臻其妙	-11.0889
鈿	-11.0889
稼	-11.0889
黄門侍郎	-11.0891
迸	-11.0891
每幅	-11.0892
頓挫	-11.0892
燧	-11.0892
璣	-11.0892
琮	-11.0895
師宜官	-11.0895
冺	-11.0895
炊	-11.0897
竇臮	-11.0897
飛鳥	-11.0898
畹	-11.0898
躅	-11.0899
王次仲	-11.0899
想見其	-11.0899
祥符	-11.09
清曉	-11.0901
猫	-11.0902
法華經	-11.0903
妍媚	-11.0904
蟠䕫	-11.0905
渭川	-11.0905
素絹本著色畫款云	-11.0908
晴巒	-11.0909
噪	-11.0909
十八學士	-11.0919
波濤	-11.092
以字行	-11.092
雍容	-11.0926
飲食	-11.0927
四十三	-11.0928
字廷	-11.0941
先賢	-11.0945
所造	-11.0948
相忘	-11.0958
成一家	-11.0962
進士授	-11.0963
翠竹	-11.0968
歳月	-11.0974
品格	-11.0976
御容	-11.0978
佳趣	-11.0985
歸田	-11.0997
年七十	-11.1001
尚書令	-11.1001
之謂乎	-11.1003
冨	-11.1003
蠅	-11.1003
憚	-11.1004
駸駸	-11.1008
撿	-11.1008
淙	-11.1008
礪	-11.1008
悶	-11.1008
彤	-11.1009
鍇	-11.101
潼	-11.1013
佇	-11.1013
校官	-11.1013
流泉	-11.1013
錢惟善	-11.1015
甌	-11.1015
横斜	-11.1016
㟁	-11.1016
元錢選	-11.1017
徂	-11.1017
登進士第	-11.1017
第十八幅	-11.1017
厯代	-11.1019
愼	-11.102
永和九年	-11.102
蒹葭	-11.1022
萋	-11.1022
不能辨	-11.1023
尉遲	-11.1025
承旨	-11.1026
左方上有	-11.1026
累官	-11.1029
弱冠	-11.1029
峯巒	-11.103
評曰	-11.1048
禪院	-11.1049
五十五	-11.1058
餘杭	-11.1063
率意	-11.1069
亦善書	-11.1071
江隂	-11.1072
滿目	-11.1078
吁嗟	-11.1083
好竒	-11.1085
頃刻	-11.1087
應接	-11.1087
蕃馬	-11.1089
溪橋	-11.1089
分布	-11.1099
堂堂	-11.1104
忠簡	-11.1107
畫并題	-11.1108
矛	-11.1114
閫	-11.1115
敬觀	-11.1117
考古圖	-11.112
南豐	-11.1121
聖祖仁皇帝御書	-11.1121
甚詳	-11.1122
窺其	-11.1123
顓	-11.1124
吳道𤣥	-11.1125
囿	-11.1127
璜	-11.1127
不多見	-11.1128
甲乙	-11.1128
三十九	-11.1129
蘇子美	-11.113
諫議大夫	-11.113
戴逵	-11.113
樾	-11.1133
蕋	-11.1134
乾卦	-11.1134
堦	-11.1136
榛	-11.1136
二十八宿	-11.1141
郭熈	-11.1146
蘭亭序	-11.115
文定公	-11.115
未之見	-11.115
善草隸	-11.1153
灑落	-11.1155
普賢	-11.116
晦翁	-11.117
尤佳	-11.1174
避地	-11.1181
禽圗一	-11.1189
楮紙	-11.1189
墨戲	-11.1199
孫位	-11.12
遂良	-11.1203
臺閣	-11.1216
鑑定	-11.1219
忠臣	-11.122
竺	-11.1225
東宫	-11.1228
伯機	-11.123
九寸六分	-11.1237
至京師	-11.1238
髦	-11.1239
婢	-11.1239
沓	-11.124
范文正公	-11.124
渇	-11.1241
天厯	-11.1241
撝	-11.1243
隂符經	-11.1243
圖書印	-11.1244
瀚	-11.1245
醪	-11.1246
悽	-11.1247
醉翁	-11.1248
贖	-11.1248
堤	-11.1248
嶧山	-11.1249
校書郎	-11.1249
𢎞農	-11.125
娶	-11.125
馮承素	-11.125
坐對	-11.125
駟	-11.125
壽平	-11.1252
旦夕	-11.1253
昃	-11.1253
尉遲乙僧	-11.1256
吟咏	-11.1262
偶得	-11.1269
雙幅	-11.1269
十有八	-11.1271
府君碑	-11.1273
徐賁	-11.1275
具姓名	-11.1279
瀟湘圖	-11.128
開府	-11.128
藹然	-11.128
王孟端	-11.1281
實録	-11.1284
士女圖一	-11.129
卷髙九寸	-11.1299
戲墨	-11.1304
焦墨	-11.1307
傅色	-11.1308
五十六	-11.131
太極	-11.1319
伯雨	-11.1322
善畫人物	-11.1325
搏	-11.1352
書本傳	-11.1356
嗤	-11.1359
紐	-11.136
遺迹	-11.136
銘一字	-11.136
鈴	-11.1361
十有七	-11.1362
堯舜	-11.1363
廣川畫跋	-11.1364
為時所	-11.1364
参	-11.1365
曝	-11.1366
廿八日	-11.1367
蝦	-11.1367
咄咄逼	-11.1368
侃	-11.1368
蛺蝶	-11.1368
漫漶不可識	-11.1368
翦	-11.1369
岷	-11.1371
澄心	-11.1372
澣	-11.1373
粘	-11.1374
快雪時晴	-11.1374
運思	-11.1374
淺絳色	-11.1375
衞夫人	-11.1378
把玩	-11.1379
推重	-11.1379
紛披	-11.1381
竟日	-11.1381
成就	-11.1384
無量夀	-11.1386
列仙	-11.1387
白石翁	-11.1387
荆闗	-11.1391
珍蔵	-11.1393
超越	-11.1394
唐伯虎	-11.1394
唐子畏	-11.1399
西北	-11.1402
䕶持	-11.1404
虎丘	-11.1409
曾見	-11.1425
捕魚圖	-11.1428
超逸	-11.143
善隸書	-11.1432
宋高宗	-11.145
萱草	-11.1463
鷂圖	-11.1465
累日	-11.147
點	-11.1475
奎章閣	-11.1483
駁	-11.1483
亢	-11.1483
錞	-11.1485
周必大	-11.1485
五言古詩	-11.1485
游魚	-11.1486
參知政事	-11.1488
怳	-11.1488
潢	-11.1488
擒	-11.1488
須臾	-11.1488
白衣	-11.1488
九寸四分	-11.1488
掘	-11.1488
書畫印	-11.1489
賢母	-11.1489
霑	-11.1493
璠	-11.1493
聫	-11.1495
蘚	-11.1495
平章事	-11.1495
罏	-11.1496
星辰	-11.1499
枇杷	-11.1499
工緻	-11.1501
圓勁	-11.1502
有父風	-11.1505
周宣王	-11.1506
揚雄	-11.1512
伯温	-11.1512
畫評	-11.1518
邊鸞	-11.1519
二百年	-11.152
無錫人	-11.1521
只今	-11.1521
十有九	-11.1523
真贋	-11.1524
北史	-11.1533
尺許	-11.1538
明人畫	-11.1544
青城山	-11.1544
一堵	-11.1546
羅浮	-11.1548
宫室	-11.1559
刻絲	-11.1563
董元	-11.1567
一璽又	-11.1571
先輩	-11.1572
文衡山	-11.1582
效顰	-11.1597
知足下	-11.1598
肘	-11.1599
盼	-11.1603
彎	-11.1604
厥後	-11.1604
証	-11.1606
稻	-11.1607
鶩	-11.1607
聿	-11.1609
蝴蝶	-11.1609
顰	-11.161
八寸三分	-11.161
好古博雅	-11.161
流芳	-11.1611
驂	-11.1612
盥	-11.1612
厨	-11.1613
需	-11.1613
寺壁	-11.1614
煬帝	-11.1614
斟酌	-11.1614
茒	-11.1615
惕	-11.1616
藝苑巵言	-11.1616
文伯仁	-11.1618
麻姑	-11.1619
瞰	-11.1619
陳道復	-11.162
緋	-11.162
職貢圖	-11.162
腹圍三尺	-11.1621
優孟	-11.1621
蕭寺	-11.1624
蕭瑟	-11.1624
烹茶	-11.1626
尊彞	-11.1627
左僕射	-11.1627
乾隆甲子	-11.1629
貴戚	-11.1634
晝夜	-11.1635
懸崖	-11.1637
廿又	-11.1639
春正月	-11.1641
太宗皇帝	-11.1643
時年七十	-11.1643
王愔	-11.1644
禽圖二	-11.1645
淵源	-11.1648
坡公	-11.1649
白鷗	-11.1658
城市	-11.1661
林壑	-11.1666
補遺	-11.1673
鷺鷥圖	-11.1675
夏禹	-11.1677
評者謂	-11.168
快雪	-11.1683
未見其	-11.1683
月晦日	-11.1686
其所長	-11.1693
首幅	-11.1693
壬	-11.1699
五嶽	-11.1707
士衡	-11.1708
妙入神	-11.1715
始終	-11.1719
估	-11.1724
捫	-11.1727
天閑	-11.1729
災	-11.173
沈傳師	-11.1733
贗	-11.1734
嵓	-11.1738
奈何奈何	-11.1738
訊	-11.1738
西清古鑑卷	-11.1739
鵰	-11.1739
杵	-11.1741
蠅頭	-11.1742
滸	-11.1742
伶	-11.1743
隼	-11.1743
蘭蕙	-11.1743
不經意	-11.1744
咸淳	-11.1744
颼	-11.1745
四大家	-11.1746
第十七幅	-11.1746
寒食	-11.1746
飈	-11.1746
顛倒	-11.1747
梁元帝	-11.1749
余所見	-11.1749
具存	-11.1749
奔走	-11.1749
紙本水墨	-11.1755
梁溪	-11.1759
羲之死罪	-11.1763
黄麻紙	-11.1768
九寸八分	-11.1773
眞跡	-11.1773
時年八十	-11.1777
黄大癡	-11.178
桃竹	-11.1782
鐵石	-11.1789
侍讀	-11.1791
冊計十	-11.1793
悵然	-11.1797
月十六日	-11.18
胡昭	-11.18
絳帖	-11.1806
重二百	-11.1809
九寸七分	-11.1812
徃來	-11.1823
男子	-11.1824
脩竹	-11.1824
孝友	-11.1838
五十年	-11.1845
兒女	-11.1846
超絶	-11.1848
在京師	-11.1856
核	-11.1856
寇	-11.1857
鮮于伯機	-11.186
濫	-11.1861
坰	-11.1862
沸	-11.1862
世界	-11.1863
銀青光禄大夫	-11.1863
詫	-11.1864
稟	-11.1864
亰	-11.1865
唾	-11.1866
庇	-11.1866
娑	-11.1867
嶼	-11.1867
瞬	-11.1867
昔人謂	-11.1868
揷	-11.1868
矗	-11.187
九歌圖	-11.1871
圖幷題	-11.1872
曹娥碑	-11.1873
薊丘	-11.1873
張即之	-11.1877
毫髮	-11.1878
司農	-11.1881
重三斤	-11.1883
藝術	-11.1883
召入	-11.1884
春二月	-11.1885
原係	-11.1887
永徽	-11.1887
西涯	-11.1894
口徑一尺	-11.1898
蘭亭叙	-11.1901
題識云	-11.1903
動静	-11.1908
建業	-11.191
皇恐	-11.1912
英雄	-11.1913
歎賞	-11.1914
僧舍	-11.1917
法師碑	-11.1919
泰和	-11.1923
千尺	-11.1929
元統	-11.1929
為世所	-11.1933
秃	-11.1934
翠微	-11.194
之祖也	-11.1941
江干	-11.1941
㬌	-11.1942
郡守	-11.1956
髙閑	-11.1965
架上	-11.1971
舒卷	-11.1979
戡	-11.1983
霓裳	-11.1985
骸	-11.1986
娱	-11.1986
醮	-11.1986
乾隆宸翰一璽	-11.1986
盪	-11.1987
忻	-11.1987
五十三	-11.1987
浮屠	-11.1987
仆	-11.1988
倜	-11.1988
雒	-11.1989
枯樹賦	-11.199
猜	-11.199
屨	-11.1991
諳	-11.1991
級	-11.1991
鳯凰	-11.1992
荔枝	-11.1992
侍讀學士	-11.1993
虗	-11.1994
關仝	-11.1994
瑋	-11.1994
葱	-11.1994
壬申	-11.1995
陁	-11.1996
十六羅漢	-11.1998
芽	-11.1998
聽雨樓	-11.1999
趾	-11.2
藕	-11.2
史惟則	-11.2
長一尺	-11.2004
戩	-11.2006
淳祐	-11.2007
文敏公	-11.2008
奏事	-11.201
宋濓	-11.201
令狐	-11.2015
蒼苔	-11.2017
春山圖	-11.2021
奚官	-11.2031
征西	-11.2031
趙郡	-11.2036
迄今	-11.2037
石鼓文	-11.2045
石榴	-11.2046
歐公	-11.2052
音律	-11.2056
鑒藏	-11.208
霆	-11.211
平淡	-11.2111
郵	-11.2113
丕	-11.2115
兵部尚書	-11.2119
棐	-11.212
悞	-11.212
侍從	-11.212
東京	-11.2121
匱	-11.2122
可想見	-11.2123
閒雅	-11.2123
圖繪寳鑑續纂	-11.2124
刑部尚書	-11.2126
己卯	-11.2126
恤	-11.2126
赭	-11.2127
兵部	-11.2128
豳風	-11.2129
稚恭	-11.2129
鍾太傅	-11.213
褉	-11.213
月十七日	-11.2132
闋	-11.2132
貯乾清宫	-11.2132
興化	-11.2134
碧梧	-11.2137
偃仰	-11.2139
薔薇	-11.2142
賓客	-11.2143
韋偃	-11.2144
濯足	-11.2144
仲冬	-11.2145
銘三字	-11.2145
殷勤	-11.2145
九寸一分	-11.2146
入能品	-11.2146
跋云右	-11.2155
撰并	-11.2158
可畏	-11.2164
題句云	-11.2188
一百二十	-11.2192
奉詔	-11.2197
歌舞	-11.22
臨倣	-11.2205
中秋日	-11.221
史館	-11.2222
燈下	-11.2233
唐明皇	-11.2238
俎	-11.2241
雷雨	-11.2243
顥	-11.2243
緑樹	-11.2244
一㸃一畫	-11.2245
錐畫沙	-11.2246
蠆	-11.2248
弛	-11.225
鏊	-11.225
屛	-11.2251
跂	-11.2251
扆	-11.2251
尚書左僕射	-11.2253
奬	-11.2253
餞	-11.2254
逍遙	-11.2254
霅川	-11.2254
鴟	-11.2255
仲珩	-11.2256
柳公權	-11.2256
弋	-11.2257
梧桐	-11.2258
膩	-11.2258
墀	-11.2258
王士元	-11.2259
紉	-11.2259
鋤	-11.2259
李昭道	-11.226
濃墨	-11.2262
絶藝	-11.2263
仙山樓閣	-11.2264
闈	-11.2264
鞋	-11.2264
敬書前後經名下俱有貝葉文一	-11.2273
圓熟	-11.2276
太上像	-11.2279
洪崖	-11.2279
蘆鴈	-11.228
石恪	-11.2281
寓舍	-11.2281
雄偉	-11.2283
字上鈐	-11.2285
僧巨然	-11.2289
金帛	-11.2291
不减	-11.2298
句曲	-11.2302
夢裏	-11.2317
純素	-11.232
壯士	-11.2328
荆南	-11.234
小李將軍	-11.236
髙低	-11.2362
其形似	-11.2363
碑碑隂	-11.2364
桓公	-11.2371
詩塘	-11.2372
濓	-11.2374
詛	-11.2375
豕	-11.2376
懌	-11.238
剝	-11.2384
漳	-11.2384
黄溍	-11.2385
洶	-11.2386
奢	-11.2386
眸	-11.2389
字㸃去	-11.2389
惶	-11.239
懲	-11.2391
鉦	-11.2393
毬	-11.2393
屹	-11.2395
隈	-11.2396
玫	-11.2396
朋友	-11.24
世不多見	-11.2405
畢宏	-11.2408
摹勒	-11.2409
淳古	-11.241
辯才	-11.2417
蟲魚	-11.2417
維揚	-11.2417
集序	-11.2425
孝祥	-11.243
台州	-11.2442
精密	-11.2449
建寧	-11.2456
草書千文	-11.2457
伯夷	-11.2464
雙禽圖	-11.2471
洪武初	-11.2477
官舍	-11.2484
端勁	-11.2489
御題詩云	-11.25
濂	-11.2506
熹	-11.2506
虞褚	-11.2507
亥	-11.2508
奐	-11.2511
慟	-11.2514
盞	-11.2515
姦	-11.2515
硃	-11.2517
宋黄庭堅書	-11.2519
嚼	-11.2521
燼	-11.2521
彫	-11.2521
躁	-11.2522
泚	-11.2522
畋	-11.2523
喙	-11.2523
丐	-11.2523
絶交書	-11.2524
𦵏	-11.2524
叠嶂	-11.2524
未央	-11.2525
溷	-11.2525
肱	-11.2526
後一器	-11.2526
裊	-11.2527
瞳	-11.2527
澄心堂紙	-11.2529
遨	-11.2529
哈	-11.2529
訴	-11.253
僞	-11.2531
潯陽	-11.2531
鰲	-11.2532
剰	-11.2533
鳳翔	-11.2536
夏圭	-11.2538
吹簫	-11.2538
方方壺	-11.2543
北斗	-11.2549
給事	-11.2549
温潤	-11.255
蕭寺圖	-11.2552
惠崇	-11.2561
汪氏	-11.2565
張翥	-11.2565
禽魚	-11.257
萬夀	-11.2571
織成	-11.2588
衣食	-11.2598
肺	-11.2644
郷	-11.2646
五百年	-11.2649
海陵	-11.2649
俶	-11.2649
詆	-11.2652
鴻臚	-11.2653
腫	-11.2653
迭	-11.2654
擺	-11.2656
軫	-11.2657
袁桷	-11.2659
國子祭酒	-11.2659
夐	-11.266
瑯	-11.2661
漁艇	-11.2662
蒿	-11.2662
逓	-11.2663
澆	-11.2663
邯鄲	-11.2663
前一器	-11.2663
迢迢	-11.2664
曲盡其妙	-11.2664
熒	-11.2664
刦	-11.2665
幄	-11.2666
祝希哲	-11.2666
竇蒙	-11.2666
秦檜	-11.2667
冉冉	-11.2668
砢玉	-11.2668
遏	-11.2668
廖	-11.2669
突兀	-11.2671
陳閎	-11.2671
賡	-11.2672
耘	-11.2673
海虞	-11.2677
感激	-11.2677
拒霜	-11.269
収藏	-11.2692
變幻	-11.2695
鄭元祐	-11.2696
八寸七分	-11.2709
每作一	-11.2709
宣和殿	-11.2713
陰陽	-11.2718
蒼翠	-11.2728
金壇	-11.273
□□□	-11.2731
表裏	-11.2733
比肩	-11.2736
一尺一寸	-11.2738
無銘是器	-11.2742
圖并題卷	-11.2746
謫仙	-11.2759
鷺鷥	-11.2767
轅	-11.2786
餗	-11.2789
頁頁髙	-11.2794
祕書監	-11.2794
緫	-11.2794
讐	-11.2794
未暇	-11.2794
卽	-11.2795
慣	-11.2797
嶷	-11.2798
縹	-11.2799
項聖謨	-11.2799
璨	-11.2799
猥	-11.2799
盛子昭	-11.2799
袵	-11.28
囬	-11.28
嬰兒	-11.28
戢	-11.2801
薊	-11.2801
詡	-11.2801
淳化閣帖	-11.2802
矮	-11.2802
鍼	-11.2802
盍	-11.2802
儘	-11.2804
筐	-11.2804
杉	-11.2805
鱸	-11.2806
延熹	-11.2806
反覆	-11.2808
嗜古	-11.2809
杜預	-11.2811
太常卿	-11.2815
歴代名	-11.2818
扶疎	-11.2819
退密	-11.2827
春曉圖	-11.2829
李迪	-11.2845
工花鳥	-11.2851
翻刻	-11.2854
仁夀	-11.2871
衣服	-11.2875
手札	-11.2884
體裁	-11.2894
廙	-11.2899
戊	-11.2903
二十卷	-11.2908
穗	-11.2924
妥	-11.2925
石鼔	-11.2927
鉞	-11.2927
襍	-11.2928
韓退之	-11.293
鐡網珊瑚	-11.2932
金陵瑣事	-11.2933
幔	-11.2934
籙	-11.2934
毘	-11.2935
刓	-11.2935
袐	-11.2938
升堂	-11.2938
嬪	-11.2938
控	-11.2939
冡	-11.2939
崧	-11.2939
僖宗	-11.294
缾	-11.294
詁	-11.294
偁	-11.294
僵	-11.2941
鷓鴣	-11.2941
衙	-11.2941
罅	-11.2942
黄鶴山人	-11.2942
益州名畫録	-11.2942
驊騮	-11.2942
干戈	-11.2943
遂昌鄭元祐	-11.2943
㠶	-11.2944
檇李項氏世家寶玩	-11.2946
坎	-11.2946
校尉	-11.2947
幛	-11.2948
遡	-11.2948
法口訣云	-11.2948
臨王羲之	-11.2971
遒逸	-11.2972
立戈	-11.2974
孟夏	-11.2975
茫然	-11.2977
仇逺	-11.2984
銘二字	-11.2994
都穆	-11.2996
江淮	-11.3003
道塲	-11.3006
所能及	-11.302
佛殿	-11.3025
姜堯章	-11.3073
粤	-11.3073
旂	-11.3073
銛	-11.3075
宥	-11.3077
蚓	-11.3079
藴藉	-11.3079
飡	-11.308
衛協	-11.308
讌	-11.3081
恠	-11.3082
覬	-11.3083
豪傑	-11.3084
歷	-11.3085
凹	-11.3085
凸	-11.3085
娟	-11.3086
檣	-11.3087
貼	-11.3087
婆娑	-11.3087
糊	-11.3088
西園雅集	-11.3088
查	-11.3088
巉	-11.3089
紈扇	-11.3089
㝠㝠	-11.3089
鋒芒	-11.309
訓導	-11.3092
御筆題籖籖上有	-11.3092
長洲沈周	-11.3093
唐希雅	-11.3093
彦亷	-11.3094
郡開國	-11.3094
畊	-11.3096
盛懋	-11.3105
班固	-11.3105
艱難	-11.311
熹平	-11.3113
右軍父子	-11.3121
屈曲	-11.3124
蕭翼	-11.3133
嶺南	-11.3167
善𨽻書	-11.317
捕魚	-11.3172
一尺二寸	-11.3182
晟	-11.3209
范曄	-11.3218
六研齋	-11.3221
服膺	-11.3221
殫	-11.3221
譲	-11.3222
吠	-11.3222
贄	-11.3223
頥	-11.3223
陀羅尼	-11.3225
稹	-11.3225
賚	-11.3226
聖朝名畫評	-11.3226
椎	-11.3227
熏	-11.3227
著作郎	-11.3227
檐	-11.3227
襯	-11.3228
社稷	-11.3228
偃蹇	-11.3228
赫奕	-11.3228
荻	-11.3229
煖	-11.3231
宋犖審定	-11.3232
晴嵐	-11.3232
洄	-11.3232
垂拱	-11.3232
喇	-11.3233
杜子美	-11.3233
朱長文	-11.3234
蓮社圖	-11.3236
歸去來辭	-11.324
惶恐	-11.3248
縣尉	-11.3248
知書者	-11.3251
兒童	-11.3252
管夫人	-11.3253
王履吉	-11.3266
閻令	-11.3268
詠歌	-11.3277
智永千文	-11.329
隠隠	-11.3298
孔子廟	-11.3306
自娛	-11.3316
太原王	-11.3332
懐瓘	-11.3358
禹功	-11.336
欝	-11.3364
罵	-11.3365
臞	-11.3366
收拾	-11.3367
緗	-11.3367
悌	-11.3367
糟	-11.3367
嬋娟	-11.3369
寺丞	-11.3369
徤	-11.337
龔璛	-11.3371
袒	-11.3371
漢王元昌	-11.3372
太常少卿	-11.3372
忿	-11.3372
舷	-11.3372
駱	-11.3373
煤	-11.3373
七言律詩一首	-11.3373
擫	-11.3373
賈似道	-11.3374
康昕	-11.3375
珽	-11.3375
薈	-11.3375
薤	-11.3376
窩	-11.3376
寥廓	-11.3379
仇實父	-11.338
垂虹	-11.3381
第十九幅	-11.3381
貧賤	-11.3383
侍講	-11.3383
荆州刺史	-11.3386
一璽左方詩云	-11.3387
宋蔡襄	-11.3394
蟬蝶	-11.3396
瑶臺	-11.3398
董羽	-11.3409
館閣	-11.3424
釣魚	-11.3429
晉武帝	-11.343
追封	-11.3448
婁江	-11.3449
描寫	-11.3498
御府所藏行書一	-11.3502
十六幅	-11.3507
陛	-11.3507
平園集	-11.3509
鉏	-11.3515
獐猿	-11.3517
坑	-11.3518
瓠	-11.3518
虜	-11.3518
囚	-11.3519
夥	-11.3519
劭	-11.352
齎	-11.352
鞠	-11.3521
巋	-11.3521
澈	-11.3522
􁁜	-11.3522
㴱	-11.3522
璵	-11.3522
膳	-11.3523
莘	-11.3523
梁清標印	-11.3523
筭	-11.3523
工部尚書	-11.3524
髭	-11.3524
弟子趙孟頫	-11.3525
外錄書畵舫云	-11.3525
斲	-11.3526
吼	-11.3526
吴郡	-11.3528
鳳凰	-11.3528
唳	-11.3529
袠	-11.3529
撼	-11.3529
稔	-11.353
崦	-11.3531
太子少師	-11.3532
霏霏	-11.3533
畤	-11.3534
箸	-11.3534
枿	-11.3535
米海岳	-11.3539
墨箋本泥金書	-11.354
匏菴	-11.3542
像贊	-11.3542
髙郵	-11.3542
月十四日	-11.3548
舅氏	-11.355
東籬	-11.3554
岐陽	-11.3554
髙九寸	-11.3559
松柏	-11.356
髙士竒	-11.3562
提梁	-11.3564
莊嚴	-11.3565
霄漢	-11.3567
盤谷	-11.3572
楚楚	-11.3575
諸名家	-11.3579
秃筆	-11.3581
七夕	-11.3586
憶昔	-11.3595
屋漏	-11.3608
蘇黄米	-11.3621
孟堅	-11.3622
僧智永	-11.3641
刀銘	-11.366
卯	-11.366
矚	-11.3661
疵	-11.3663
蘇才翁	-11.3668
蜿蜒	-11.3668
懦	-11.3669
斾	-11.3669
偹	-11.367
无	-11.367
造其極	-11.3671
流落人間	-11.3671
侮	-11.3672
耒	-11.3672
硏	-11.3674
褫	-11.3674
苓	-11.3675
畫院祗候	-11.3675
蕚	-11.3676
謡	-11.3676
開府儀同三司	-11.3676
吻	-11.3676
中書舎人	-11.3677
郤	-11.3678
可寶也	-11.3678
淇	-11.3679
鷗鷺	-11.368
卜築	-11.3681
俛	-11.3682
拱璧	-11.3682
沈宗敬	-11.3684
張若靄	-11.3686
嶧山碑	-11.3687
趙仲穆	-11.3687
浩浩	-11.3688
番族	-11.3688
典籍	-11.3688
辛苦	-11.3693
御臨董其昌	-11.3693
莫測	-11.3694
却憶	-11.3699
勘書圖	-11.37
咸熙	-11.3701
疎密	-11.3703
松栢	-11.3706
談笑	-11.3712
月廿二日	-11.3713
慶歴	-11.3714
抱琴	-11.3714
皇太子	-11.3759
銘四字	-11.3767
烟靄	-11.3767
窄	-11.381
睨	-11.3817
滓	-11.3821
敧	-11.3821
戮	-11.3822
戛	-11.3823
伺	-11.3823
騖	-11.3825
爛熳	-11.3826
子子孫孫	-11.3826
罹	-11.3827
脊	-11.3828
琉璃	-11.3829
隕	-11.383
隘	-11.3831
浥	-11.3832
顧盼	-11.3833
邊幅有	-11.3834
氣韻生動	-11.3834
建中靖國	-11.3834
鵪鶉	-11.3835
宣德箋本	-11.3836
慘淡	-11.3838
禇河南	-11.3839
簟	-11.3839
數十百	-11.3839
鄆	-11.3839
軒冕	-11.3841
待渡圖	-11.3842
一印不可識	-11.3843
漁樵	-11.3843
廣四尺	-11.3845
禽獸	-11.3845
活動	-11.3851
幽篁	-11.3852
錢選	-11.3861
横塘	-11.3866
漫漫	-11.3867
鷂子	-11.3868
吕紀	-11.3868
陸錫	-11.3877
宋黄庭堅	-11.3883
雨霽	-11.3884
山水樹石	-11.3951
右僕射	-11.3959
貓圗一	-11.397
睛	-11.3973
御府所藏草書一	-11.3974
盧藏用	-11.3975
愽	-11.3976
潰	-11.3976
姨	-11.3976
甸	-11.3977
嶮	-11.3977
石墨鐫華	-11.3978
蔡忠惠	-11.3979
蘇舜欽	-11.3979
莒	-11.3981
燾	-11.3981
斁	-11.3982
惓	-11.3983
衾	-11.3983
霹	-11.3984
垕	-11.3984
等謹案	-11.3984
刊	-11.3985
繚	-11.3985
䂓	-11.3985
謚	-11.3985
紡	-11.3985
范仲淹	-11.3986
茂苑文嘉	-11.3986
忤	-11.3986
駛	-11.3986
暄	-11.3986
璹	-11.3987
賖	-11.3987
檢討	-11.3987
嬴	-11.3988
蛻	-11.399
諶	-11.399
璫	-11.3991
几案	-11.3992
尺五寸	-11.3993
御史大夫	-11.3993
泄	-11.3993
汗漫	-11.3994
東丹王	-11.3995
圏	-11.3995
崕	-11.3995
米顛	-11.4002
錦囊	-11.4002
偏傍	-11.4003
旁注	-11.4022
諸印後有	-11.4028
布政	-11.4032
庭堅頓首	-11.4057
二印拖尾	-11.4101
獅	-11.4123
擘窠	-11.4132
斐	-11.4133
扎	-11.4135
蚩	-11.4136
周伯琦	-11.4137
殷仲容	-11.4139
卄	-11.414
恂	-11.4141
囑	-11.4141
鮓	-11.4141
郭若虚	-11.4141
饒介	-11.4142
叛	-11.4142
两	-11.4143
劫	-11.4143
浚儀	-11.4144
璇	-11.4146
沔	-11.4146
髙克明	-11.4146
儂	-11.4147
今見帶名	-11.4147
漚	-11.4148
娃	-11.4149
嵌	-11.415
大聖慈寺	-11.415
惡札	-11.4152
窅	-11.4152
籀篆	-11.4152
醖	-11.4154
肥痩	-11.4154
盤桓	-11.4154
荆關	-11.4155
鐵崖	-11.4155
蘆雁	-11.4158
瀛洲	-11.4159
馬蹄	-11.416
寒鴉	-11.4168
蓮社	-11.4168
浙東	-11.4169
嘉泰	-11.417
池塘	-11.4174
第二十幅	-11.4178
拜覆	-11.4178
元黄公望	-11.4184
分口縱	-11.4196
明宣宗	-11.4198
項墨林	-11.4263
焞	-11.4282
圗一寫生	-11.4285
俓	-11.4288
糾	-11.4289
容二升	-11.4293
曵	-11.4294
治平元年	-11.4295
劉禹錫	-11.4295
列卿紀	-11.4296
睢	-11.4297
媪	-11.4301
壹	-11.4302
兵部侍郎	-11.4302
匏翁家藏集	-11.4303
炫	-11.4304
祕書省	-11.4305
徐僧權	-11.4305
牌	-11.4306
驃騎	-11.4306
彊	-11.4306
葆	-11.4306
琬	-11.4307
鳶	-11.4307
嘔	-11.4307
鏞	-11.4308
繋	-11.4308
麝	-11.4308
嵒	-11.4308
庶吉士	-11.4308
虞伯生	-11.4309
扃	-11.4309
殖	-11.4309
述書賦注	-11.4309
晝錦堂	-11.4311
僉憲	-11.4314
莎	-11.4315
波瀾	-11.4317
惘然	-11.4319
諸名公	-11.432
女史箴	-11.4321
秦始皇	-11.4324
煙霞	-11.4329
善草𨽻	-11.4334
羽翼	-11.4338
太乙	-11.434
煥發	-11.4344
求售	-11.435
今御府所藏一	-11.4391
詵	-11.4436
郭天錫	-11.4436
縟	-11.4458
顧野王	-11.4459
祭祀	-11.4461
御府所藏正書一	-11.4461
傭	-11.4461
褊	-11.4462
饋	-11.4463
衛覬	-11.4464
翺翔	-11.4465
聾	-11.4465
芻	-11.4467
巙	-11.4467
滚	-11.4468
暹	-11.4469
鞅	-11.4469
佺	-11.4469
昀	-11.4469
迢	-11.4469
湊	-11.4469
意在筆先	-11.447
飜	-11.447
攅	-11.4471
淒	-11.4471
詐	-11.4472
艮	-11.4473
蹊	-11.4474
馮子振	-11.4474
剛柔	-11.4474
哦	-11.4474
堇	-11.4475
篔簹	-11.4475
鑄一鼎	-11.4476
宋濂	-11.4476
管道昇	-11.4476
朝奉郎	-11.4477
趙孟堅	-11.4477
屈伸	-11.4478
趂	-11.4479
錡	-11.4479
滄溟	-11.4479
懃	-11.448
吹笛	-11.4481
盈盈	-11.4485
築室	-11.4485
流涕	-11.4486
蹤跡	-11.4486
陳居中	-11.4488
衛將軍	-11.4491
蕭森	-11.4492
泛舟	-11.4498
陶潛	-11.4499
藝苑	-11.4508
戲貓圖一	-11.4515
减	-11.4558
書七言絶句	-11.4572
芾頓首再拜	-11.4586
弇	-11.4621
畀	-11.4623
厎	-11.4626
薜	-11.4628
耗	-11.4628
七言律詩款識云	-11.4629
皂	-11.4629
丿	-11.463
朏	-11.463
修禊	-11.463
裴行儉	-11.4631
璆	-11.4631
厠	-11.4631
狩	-11.4631
郭畀	-11.4632
碌碌	-11.4634
清閟閣	-11.4634
盲	-11.4634
陶隱居	-11.4634
孫士毅	-11.4635
瓉	-11.4636
旄	-11.4636
䟐	-11.4636
璿	-11.4636
韭	-11.4636
祜	-11.4636
芷	-11.4637
猊	-11.4637
閎	-11.4637
䆳	-11.4639
駙馬	-11.4639
膾	-11.4639
姝	-11.464
妮古	-11.4644
貍	-11.4646
真草千文	-11.4647
蠒	-11.4648
維摩詰	-11.4649
彈琴	-11.4651
海粟	-11.4651
鐵鑑	-11.4654
率更令	-11.4655
職貢	-11.4657
侍御史	-11.4659
巨濟	-11.4668
工畫佛道	-11.4674
文靖公	-11.474
官至侍中	-11.4742
一印左方下有	-11.4772
朱子文集	-11.4788
闐	-11.479
孫知微	-11.4792
懈	-11.4794
楊維禎	-11.4799
虞龢	-11.4799
驍	-11.4799
埜	-11.48
尅	-11.48
佻	-11.4801
瀋	-11.4803
轄	-11.4803
乀	-11.4803
能屬文	-11.4803
揺	-11.4804
月恭校上	-11.4805
蕭子良	-11.4805
閴	-11.4807
出師頌	-11.4807
史道碩	-11.4807
柿	-11.4808
鑱	-11.4808
巍	-11.4808
徐崇嗣	-11.4809
翀	-11.4809
蓴	-11.481
橈	-11.481
葛洪	-11.4811
稜角	-11.4811
李徳裕	-11.4812
諸印押縫有	-11.4813
樞密院	-11.4814
嚴分宜	-11.4814
江貫道	-11.4815
緡	-11.4816
顫	-11.4819
姚綬	-11.4819
金石畧	-11.4823
紹熙	-11.4827
着色	-11.483
白麻紙	-11.4831
批答	-11.4835
滄江	-11.4836
羲皇	-11.4847
如來像	-11.4868
工草隸	-11.4937
鄭法士	-11.4962
皇帝諱	-11.4967
塗抹	-11.4968
正書無書撰人姓名	-11.4971
錠	-11.4971
菰	-11.4972
讎	-11.4972
杜工部	-11.4972
擣	-11.4975
王庭筠	-11.4975
唐朝名畫録	-11.4975
凛凛	-11.4976
僑	-11.4976
張九齡	-11.4976
皁	-11.4976
偓	-11.4976
逖	-11.4977
崔寔	-11.4977
將仕郎	-11.4977
前有佛像後有韋䭾像	-11.4978
瀘	-11.4979
仿彿	-11.4979
禪師塔銘	-11.4979
叅軍	-11.498
齊髙帝	-11.498
贏	-11.4981
粥	-11.4981
襃	-11.4981
淩	-11.4981
嫂	-11.4982
素綾本	-11.4982
籃	-11.4983
駑	-11.4984
蹉	-11.4984
泖	-11.4985
秉燭	-11.4985
庶㡬	-11.4986
太樸	-11.4986
赦	-11.4986
耄	-11.4987
卓歇	-11.499
贈太師	-11.499
廷珪	-11.4994
遒麗	-11.4996
有生氣	-11.4996
月初吉	-11.5006
姑射	-11.5015
月廿七日	-11.5024
楞	-11.5124
跪	-11.5135
顗	-11.5141
𧦬光	-11.5142
央	-11.5144
廨	-11.5144
鑪	-11.5144
蒐	-11.5145
四體千文	-11.5146
李陽氷	-11.5146
瓦礫	-11.5147
沁	-11.5148
儁	-11.5149
墩	-11.5149
袤	-11.5149
孳	-11.5149
𤼵	-11.515
泌	-11.515
博雅好古	-11.5151
珥	-11.5151
汶	-11.5152
冐	-11.5153
縈紆	-11.5154
汨	-11.5154
騏驥	-11.5154
超軼	-11.5154
廏	-11.5155
縠	-11.5155
磧	-11.5155
霓	-11.5155
天下碑録	-11.5157
旌旗	-11.5157
瀰	-11.516
㸃睛	-11.516
畸	-11.5161
仇英實父	-11.5161
未署欵	-11.5161
嚶	-11.5161
筆精墨妙	-11.5162
虎豹	-11.5162
滕昌祐	-11.5163
凈	-11.5164
渥洼	-11.5164
櫻	-11.5164
陳邦彦	-11.5166
檇李項氏	-11.5168
何啻	-11.5169
李衎	-11.5174
虎踞	-11.5177
月廿一日	-11.5211
行旅圖	-11.5259
冬十一月	-11.5267
缶	-11.5308
肚	-11.5321
璉	-11.5322
擡	-11.5324
筯	-11.5325
覈	-11.5325
飭	-11.5326
第五十	-11.5326
朢	-11.5326
抉	-11.5326
蔭	-11.5327
後副頁	-11.5328
塚	-11.5328
餌	-11.5328
大中祥符	-11.5329
轂	-11.5329
洪谷子	-11.533
㐮	-11.5332
糜	-11.5332
勾龍爽	-11.5332
濛濛	-11.5332
濫觴	-11.5333
芹	-11.5333
蘸	-11.5334
遺教經	-11.5334
將軍㑹稽内史	-11.5334
大長公主	-11.5334
洙	-11.5335
杼	-11.5336
燬	-11.5337
术	-11.5337
嵯峨	-11.5338
漢𨽻字原	-11.5339
堊	-11.5339
勵宗萬	-11.5339
昬	-11.534
梭	-11.534
蓀	-11.5342
綽約	-11.5342
撞	-11.5343
今御府所藏二	-11.5346
素牋本著色畫	-11.5349
薦季直表	-11.535
青緑山水	-11.535
博古圗	-11.5351
淨土	-11.5353
維摩像	-11.5389
九寸九分	-11.5413
一百五十	-11.5438
廣二丈	-11.5456
鏗	-11.55
燄	-11.5501
箧	-11.5503
嗔	-11.5504
蜼	-11.5505
邜	-11.5506
憒	-11.5506
跌宕	-11.5507
謗	-11.5507
汗血	-11.5507
秣陵	-11.5508
稅	-11.5508
甫田集	-11.5509
蔡有鄰	-11.551
翰林學士承㫖	-11.5511
幃	-11.5511
王知敬	-11.5511
廌	-11.5512
廞	-11.5512
攫	-11.5512
准	-11.5512
鑠	-11.5512
仄	-11.5513
猗歟	-11.5513
棨	-11.5515
无咎	-11.5515
張志和	-11.5515
荼	-11.5515
啜	-11.5516
窈	-11.5516
陸叔平	-11.5517
𡨕	-11.5517
蔡中郎	-11.5518
箋烏絲闌本	-11.5518
纍纍	-11.5518
閃	-11.5519
賺	-11.5519
琨	-11.552
属	-11.5521
嫋	-11.5521
袁昻	-11.5521
汩	-11.5521
外錄珊瑚網云	-11.5521
少林寺	-11.5522
咀	-11.5522
有感於斯文	-11.5524
修國史	-11.5524
嚢	-11.5524
一百一十	-11.5526
鬱鬱	-11.5529
呉仲圭	-11.5529
引雛	-11.5531
遐想	-11.5536
素絹本著色畫欵云	-11.5538
辟邪	-11.5538
漁樂圖	-11.5542
楷書款識云	-11.5604
墨林快事	-11.5683
攻媿集	-11.5688
曦	-11.5688
櫛	-11.5689
諄	-11.569
欽定四庫全書子部八	-11.569
薛尚功	-11.569
藿	-11.5692
斡	-11.5692
重修宣和博古圖卷	-11.5693
睫	-11.5693
䭾	-11.5694
蟠螭	-11.5694
撓	-11.5694
舄	-11.5695
烜赫	-11.5695
紛紜	-11.5696
呉道𤣥	-11.5696
㾗	-11.5698
些	-11.5698
若水軒	-11.5698
塋	-11.5699
圭角	-11.5699
攄	-11.5699
羇	-11.57
鏐	-11.57
中興頌	-11.57
頷	-11.5702
拳拳	-11.5703
㵼	-11.5703
張南本	-11.5703
唐書藝文志	-11.5704
淇澳	-11.5704
丁雲鵬	-11.5705
毗陵	-11.5706
水晶宫	-11.5707
税	-11.5707
傾倒	-11.5708
觜	-11.5709
厲歸真	-11.5709
周之冕	-11.5709
孫克𢎞	-11.571
月十五日敬書一洋箋本墨書欵識云康	-11.571
之亞也	-11.5713
禊序	-11.5742
腹圍一尺六寸	-11.5824
蘇文忠	-11.5859
数	-11.587
儒學提舉	-11.5872
罰	-11.5874
斝	-11.5875
悍	-11.5876
滂	-11.5876
粱	-11.588
荃	-11.5881
俛仰	-11.5883
惰	-11.5883
紺	-11.5884
笪	-11.5884
撃	-11.5885
畛	-11.5885
書小史	-11.5885
曹不興	-11.5885
涿	-11.5886
高宗皇帝	-11.5887
瀝	-11.5887
婉媚	-11.5887
租	-11.5888
繄	-11.5888
歆	-11.5888
尚書右僕射	-11.5889
申屠	-11.589
綘	-11.589
蓊	-11.5891
鎻	-11.5891
明陳淳	-11.5891
歘	-11.5891
箔	-11.5891
阡	-11.5891
謖	-11.5891
涸	-11.5892
黄鸝	-11.5895
梵隆	-11.5895
扄	-11.5895
僦	-11.5897
陳仲醇	-11.5897
歸田賦	-11.5898
漓	-11.5899
﨑	-11.5899
廿九日	-11.5899
玻	-11.59
白陽山人	-11.59
孔彰	-11.5902
重四斤	-11.591
藥師經	-11.5911
採芝	-11.5923
蟬雀	-11.5962
噉	-11.606
道園學古録	-11.6068
菁	-11.6071
揣	-11.6072
容一斗	-11.6072
簞	-11.6073
齪	-11.6073
意在筆前	-11.6074
弃	-11.6074
圯	-11.6074
拊	-11.6074
庖丁	-11.6075
詹氏小辨	-11.6075
鎬	-11.6075
容一升	-11.6076
嫡	-11.6076
藥苖	-11.6077
儕	-11.6077
秘書監	-11.6078
皎皎	-11.6078
太平興國	-11.6078
蹴	-11.6079
癯	-11.6079
勺	-11.608
范成大	-11.608
虵	-11.608
嘏	-11.6081
颯颯	-11.6081
張擇端	-11.6081
孫䖍禮	-11.6081
綦	-11.6081
氤氲	-11.6082
謝時臣	-11.6082
醴	-11.6083
煒	-11.6083
後隔水押縫有	-11.6083
龍興寺	-11.6083
頫	-11.6084
趙令穰	-11.6084
娜	-11.6084
艤	-11.6085
筆端造化	-11.6085
西昇經	-11.6085
媛	-11.6086
戴文進	-11.6086
孫尚子	-11.6086
殉	-11.6087
琅邪	-11.6088
矯矯	-11.6089
明王紱	-11.6092
盧楞伽	-11.6093
舶	-11.6093
漣漪	-11.6096
欽定四庫全書石渠寶笈卷	-11.6098
雷電	-11.61
睢陽	-11.612
七言律	-11.6168
二印軸髙	-11.6213
國公諡	-11.6232
軻	-11.6264
卅	-11.6264
雷霆	-11.6265
慵	-11.6268
觔	-11.6269
殳	-11.6271
爼	-11.6272
燎	-11.6272
房𤣥齡	-11.6272
朝散大夫	-11.6272
洪适	-11.6272
蹕	-11.6273
渺渺	-11.6274
崔嵬	-11.6274
懽	-11.6274
𢎞文館	-11.6275
玄	-11.6275
夏㫤	-11.6275
嗚	-11.6276
清明上河圖	-11.6277
磐	-11.6277
鎰	-11.6277
勗	-11.6277
憫	-11.6278
腆	-11.6278
汝南公主	-11.6279
吮	-11.6279
昺	-11.628
璩	-11.628
太平公主	-11.6283
搗	-11.6283
擷	-11.6283
餘姚人	-11.6283
紹興小璽	-11.6285
倐忽	-11.6286
下有乾隆宸翰幾暇臨池二璽	-11.6288
項又新	-11.6289
茄菜	-11.6291
米芾畫史	-11.6292
東林寺	-11.6296
雞犬	-11.6298
天尊像	-11.6299
虯	-11.6458
腦	-11.6461
宀	-11.6463
撰正書無姓名	-11.6463
惘	-11.6463
趙榮禄	-11.6465
霈	-11.6467
翺	-11.6467
愕	-11.6468
秦少游	-11.6468
崔子玉	-11.6469
楊循吉	-11.6469
靚	-11.6469
哂	-11.6469
茅茨	-11.647
羃	-11.647
逡	-11.6472
狸	-11.6472
療	-11.6472
搔	-11.6472
推篷	-11.6473
兵燹	-11.6474
䄂	-11.6475
嫵媚	-11.6475
祉	-11.6476
煨	-11.6476
怏	-11.6477
折釵股	-11.6477
豚	-11.6481
䂖	-11.6481
鱸魚	-11.6481
枯木竹石	-11.6482
愆	-11.6482
抗衡	-11.6482
泮	-11.6484
喬簣成	-11.6484
賒	-11.6485
王振鵬	-11.6485
詒	-11.6486
鄧椿	-11.6489
董元宰	-11.649
麋鹿	-11.6491
賜金帶	-11.6498
徽宗皇帝	-11.6498
斚	-11.6506
緻	-11.663
一印拖尾	-11.6636
鷯	-11.6657
澥	-11.6666
鄔	-11.6667
崢嶸	-11.6668
騶	-11.6669
徐嶠之	-11.6672
工畫佛道人物	-11.6675
藐	-11.6675
遥岑	-11.6675
坂	-11.6676
俚	-11.6676
帯	-11.6677
赫赫	-11.6677
磅礴	-11.6677
垓	-11.6678
楞嚴經	-11.6678
騾	-11.6678
蘅	-11.6679
漢章帝	-11.6679
䧟	-11.6679
前副頁	-11.668
邳	-11.668
耦	-11.668
涎	-11.668
厦	-11.668
卭	-11.6681
提刑	-11.6681
匝	-11.6681
溆	-11.6681
牝	-11.6682
工部侍郎	-11.6683
酉室	-11.6683
臉	-11.6683
㓂	-11.6684
緱	-11.6684
倭	-11.6685
牝牡	-11.6685
巍巍	-11.6686
章友直	-11.6687
溧陽	-11.6687
一印軸髙三尺	-11.6688
駘	-11.6689
宋箋本墨畫	-11.6689
珙	-11.669
孩	-11.6693
鹿脯帖	-11.6693
藥苗	-11.6727
腹圍一尺八寸	-11.6834
搭	-11.6853
邢侗	-11.6869
喉	-11.6878
鑛	-11.6878
擢進士第	-11.6878
宋宣獻	-11.6879
王紹宗	-11.6881
孕	-11.6881
劃	-11.6881
弧	-11.6882
亳	-11.6883
蒼巖子	-11.6884
伋	-11.6884
褰	-11.6885
儗	-11.6885
外錄書畫舫云	-11.6885
諸葛亮	-11.6885
名賢遺墨	-11.6886
䛒	-11.6887
昕	-11.6888
楊士竒	-11.6889
啖	-11.6889
藺	-11.6891
夘	-11.6892
顧凱之	-11.6892
魑魅	-11.6892
脯	-11.6892
迤	-11.6892
畫羅漢圖一卷	-11.6894
頎	-11.6894
孫承澤	-11.6894
湄	-11.6895
汰	-11.6895
夣	-11.6896
月二十七日	-11.6897
焯	-11.6897
淇園	-11.6897
繙	-11.6898
閩畫記	-11.6899
曹知白	-11.6901
八駿圖	-11.6904
鶠	-11.6905
蓼岸	-11.6916
月二十八日	-11.6952
引首御題	-11.6965
墨林項元汴	-11.6976
翬	-11.7065
塾	-11.7083
儆	-11.7086
鄜	-11.7087
謔	-11.7091
雲麾將軍	-11.7092
殿中侍御史	-11.7093
嫓	-11.7093
脅	-11.7094
姜白石	-11.7095
聆	-11.7096
搦	-11.7096
玊	-11.7096
典型	-11.7097
曛	-11.7097
狥	-11.7097
唐書宰相世系表	-11.7097
胸臆	-11.7097
溯	-11.7098
瑚	-11.7098
盱	-11.7099
不可勝數	-11.7099
袋	-11.7099
縳	-11.71
寃	-11.71
异	-11.7101
踴	-11.7101
方絹本著色	-11.7102
項墨林鑒賞章	-11.7102
廐	-11.7102
抜	-11.7102
劾	-11.7103
蹊逕	-11.7104
瀼	-11.7104
撚	-11.7104
金銀錯	-11.7105
攲	-11.7105
饌	-11.7106
鎏	-11.7107
模糊	-11.7108
薌	-11.7108
悄	-11.7109
陳文東	-11.7109
神品上上	-11.711
墨箋本泥金書欵識云康	-11.711
灞	-11.711
有流有鋬	-11.711
茒屋	-11.711
鵒	-11.7111
閻次平	-11.7113
秧	-11.7113
子知之乎曰豈不謂	-11.7114
喀	-11.7114
欽定四庫全書秘殿珠林卷	-11.7115
楊妹子	-11.7115
鈐縫	-11.7117
薜荔	-11.7119
裊裊	-11.7122
牧羊圖	-11.7123
釋迦佛	-11.7213
剏	-11.7301
磚	-11.7301
匕	-11.7305
中散大夫	-11.7307
蕕	-11.7308
陬	-11.7308
巫峽	-11.7311
江寧府志	-11.7311
曹弗興	-11.7312
櫟	-11.7313
書畫題跋記	-11.7314
鋩	-11.7315
帑	-11.7315
簸	-11.7315
瞭	-11.7316
一丈二尺	-11.7316
苧	-11.7317
歉	-11.7319
瑪瑙	-11.732
王方慶	-11.732
拂拭	-11.732
瘁	-11.7321
韋䭾像	-11.7321
暕	-11.7322
繢	-11.7323
柑	-11.7323
照夜白	-11.7323
砧	-11.7324
趁	-11.7325
駞	-11.7325
炭	-11.7326
彷	-11.7327
王時敏	-11.7328
陳善杭州	-11.7328
癸夘	-11.7329
侍講學士	-11.7329
蘇漢臣	-11.7331
初一日敬書一墨箋本泥金書欵識云康	-11.7336
李含光	-11.7343
斤四兩	-11.7416
印軸髙四尺	-11.7436
歐陽文忠	-11.7506
榘	-11.7527
跛	-11.7527
濩	-11.7528
睥睨	-11.7528
賸	-11.7529
洩	-11.7533
桷	-11.7534
逶迤	-11.7534
㷀	-11.7534
淋	-11.7534
幘	-11.7534
㫤	-11.7535
宓	-11.7535
菽	-11.7536
蠲	-11.7536
斟	-11.7536
漣	-11.7536
埒	-11.7538
蔡端明	-11.7538
悒	-11.754
按此條已	-11.754
瞥	-11.754
貟外郎	-11.754
不忍釋手	-11.7542
虚朗齋	-11.7543
槳	-11.7544
倒薤	-11.7544
晰	-11.7544
群	-11.7545
撩	-11.7545
撐	-11.7546
址	-11.7546
叫	-11.7546
䘚	-11.7546
散落人間	-11.7546
葑	-11.7547
嗇	-11.7548
嫣	-11.7548
蔔	-11.7548
雲烟過眼録	-11.755
金粟箋本	-11.7551
誄	-11.7552
張鳯翼	-11.7553
琯	-11.7555
茄	-11.7561
鷯子圖	-11.7615
藳	-11.7748
鐃	-11.775
獰	-11.7751
東里續集	-11.7752
簣	-11.7755
讜	-11.7756
屋漏痕	-11.7757
漱	-11.7757
劉徳昇	-11.7759
訶	-11.7759
己夘	-11.7759
轟	-11.776
國子博士	-11.7761
塡	-11.7762
李懐琳	-11.7762
隲	-11.7763
文天祥	-11.7764
卓犖	-11.7764
瞑	-11.7764
𦕈	-11.7765
糞	-11.7765
薩	-11.7766
彴	-11.7766
素箋本墨畫款題云	-11.7766
耻	-11.7767
枋	-11.7767
趙明誠	-11.7767
蒼巗子	-11.7768
髫	-11.7768
豊	-11.7769
睇	-11.7769
个	-11.777
雝	-11.777
天馬賦	-11.7771
陸行直	-11.7772
丹丘柯九思	-11.7772
虐	-11.7772
喫	-11.7772
憇	-11.7773
竚	-11.7773
淅	-11.7773
黏	-11.7774
者甚衆	-11.7775
㽔	-11.7775
莫雲卿	-11.7776
拉	-11.7777
書畵舫云	-11.7777
甜	-11.7777
陳白陽	-11.7778
楚山清曉圖	-11.778
州别駕	-11.7781
溉	-11.7785
仙君像	-11.7786
霰	-11.7786
四分腹圍一尺	-11.7815
三分腹圍一尺	-11.7867
豳	-11.7972
馗	-11.7983
䋲	-11.7989
歐陽永叔	-11.7989
慄	-11.799
月二十二日	-11.799
譎	-11.7991
頋	-11.7991
疴	-11.7993
劈	-11.7993
董伯仁	-11.7994
竢	-11.7994
玘	-11.7994
陡	-11.7994
慾	-11.7995
陶靖節	-11.7995
朱存理	-11.7996
褁	-11.7997
魴	-11.7998
鄔彤	-11.7998
黄子乆	-11.7998
濳	-11.7999
鱠	-11.7999
泫	-11.7999
月二十五日	-11.7999
楸	-11.8
罟	-11.8
未署款	-11.8001
齊郡張紳	-11.8001
燮	-11.8001
冽	-11.8002
睠	-11.8002
韋仲將	-11.8002
卵	-11.8002
千巖萬壑	-11.8003
𤨏	-11.8003
惟精惟一	-11.8003
陸費墀欽定四庫全書	-11.8004
過海羅漢	-11.8005
痼	-11.8005
貯御書房	-11.8005
髙克恭	-11.8006
畫禪室	-11.8008
蒋	-11.8009
颷	-11.8009
曼倩	-11.801
文夀承	-11.801
簧	-11.801
蜃	-11.8013
㳟	-11.8013
瀟湘八景	-11.8017
盤車圖	-11.802
山行旅	-11.8153
釁	-11.8212
酈	-11.822
雲煙過眼録	-11.8223
璪	-11.8223
矦	-11.8225
苾	-11.8227
涪	-11.8227
謳	-11.8227
周興嗣	-11.8227
等圖傳扵丗	-11.8227
豬	-11.8228
諲	-11.8228
昩	-11.8229
孽	-11.823
荀朂	-11.8232
芟	-11.8232
錢良右	-11.8232
磁	-11.8232
做	-11.8233
造像記	-11.8233
燉煌	-11.8234
秪	-11.8234
金錯刀	-11.8235
臨川危素	-11.8236
縞	-11.8236
劉中使帖	-11.8237
鬯	-11.8237
李晞古	-11.8238
怖	-11.8238
王文恪	-11.8239
清徳頌	-11.8239
螢	-11.824
榔	-11.824
王汝玉	-11.824
漶	-11.8241
黄文節公	-11.8241
焜	-11.8241
悤	-11.8242
韓晉公	-11.8242
澶	-11.8242
右通蓋高六寸	-11.8242
袁安卧雪	-11.8242
辛夘	-11.8242
牡	-11.8242
右通盖髙	-11.8243
隰	-11.8243
頹	-11.8244
玷	-11.8245
躚	-11.8246
鵲華秋色	-11.8248
宫保世家	-11.8248
汧	-11.8248
蹶	-11.8248
普門品	-11.8249
丘文播	-11.8249
湯普徹	-11.8251
長江萬里圖	-11.8253
町	-11.8253
槲	-11.8255
㛐	-11.8259
瑞應圖	-11.8259
錦鷄圖	-11.8335
腹圍一尺七寸	-11.8335
子京珍秘	-11.8457
祺	-11.8466
恬致堂集	-11.8466
殻	-11.8468
團扇絹本著色	-11.8468
沉著痛快	-11.8471
賾	-11.8473
檝	-11.8473
脆	-11.8474
驩	-11.8474
顧阿瑛	-11.8475
謐	-11.8475
扺	-11.8476
箋烏絲䦨本	-11.8477
恍惚	-11.8477
噱	-11.8478
傖	-11.8478
徇	-11.8478
蕺	-11.8479
締	-11.848
嶙峋	-11.848
鯤	-11.8481
覊	-11.8481
猗猗	-11.8481
碾	-11.8482
瘡	-11.8482
䰅	-11.8482
郜	-11.8482
少府監	-11.8482
皇明書畫史	-11.8483
僃	-11.8483
麽	-11.8484
御筆題籖籖上有乾隆宸翰小璽	-11.8485
孔子廟堂碑	-11.8485
劵	-11.8485
炤	-11.8486
揩	-11.8486
拯	-11.8487
莢	-11.8487
鹵簿	-11.8487
贉	-11.8488
呵呵	-11.8488
鼒	-11.8488
楯	-11.8489
謩	-11.8491
陸探㣲	-11.8491
支仲元	-11.8492
口徑長三寸	-11.8519
忠宣公	-11.8615
分重七十	-11.865
㝡	-11.8719
脾	-11.872
訾	-11.8722
坼	-11.8722
宋學士集	-11.8722
劎	-11.8723
丗	-11.8723
陳郡陽夏人	-11.8724
賂	-11.8725
蔡明逺	-11.8726
賜緋魚袋	-11.8726
毓	-11.8726
堕	-11.8726
儷	-11.8726
䆒	-11.8726
澌	-11.8727
孫叔敖	-11.8728
國子司業	-11.8728
揉	-11.8728
怛	-11.8729
嘻	-11.8729
畎	-11.8729
寖	-11.8729
姸	-11.873
金紫光禄大夫	-11.8731
瑱	-11.8731
嶤	-11.8731
滃	-11.8732
孫知㣲	-11.8732
烝	-11.8732
裨	-11.8732
鵑	-11.8733
隳	-11.8733
涓	-11.8733
張孝師	-11.8733
膊	-11.8734
祼	-11.8734
簏	-11.8734
隍	-11.8734
孀	-11.8734
部左侍郎	-11.8734
懐麓堂	-11.8735
闥	-11.8735
靴	-11.8736
篝燈	-11.8737
蛙	-11.8737
貸	-11.8738
麋	-11.8738
幙	-11.8738
賜紫金魚袋	-11.8739
跑	-11.8741
胃	-11.8741
耜	-11.8742
狡獪	-11.8742
驎	-11.8744
弈	-11.8747
誅蚊賦	-11.8962
鋸	-11.8977
觥	-11.898
媸	-11.898
凑	-11.8981
諛	-11.8981
琬琰	-11.8981
摠	-11.8981
瑄	-11.8983
户部尚書	-11.8983
眎	-11.8983
容五升	-11.8984
摛	-11.8985
皺	-11.8985
滔滔	-11.8985
閻立徳	-11.8985
覯	-11.8985
譴	-11.8986
沌	-11.8986
寶真齋法書贊卷	-11.8987
仭	-11.8987
叨	-11.8988
李林甫	-11.8988
販	-11.8989
惹	-11.8989
鷴	-11.8989
飫	-11.899
羯	-11.899
秣	-11.899
滁	-11.8991
金章宗	-11.8991
囷	-11.8992
麴	-11.8994
禺	-11.8994
犍	-11.8995
礴	-11.8995
騏	-11.8996
赫奕恭畫	-11.9001
王穀祥	-11.9007
秋霽圖	-11.9019
圖并賦	-11.9024
重六斤	-11.914
髙八寸三分廣	-11.9167
重五斤	-11.921
黠	-11.9234
囗	-11.9237
潯	-11.9238
覇	-11.9239
拽	-11.924
諺	-11.9244
擦	-11.9245
鹵	-11.9245
魅	-11.9246
頊	-11.9246
忭	-11.9246
永字八法	-11.9247
耕織圖	-11.9247
謇	-11.9248
禁經云	-11.9249
窑	-11.925
裟	-11.9251
讒	-11.9251
懊	-11.9252
嶁	-11.9252
鮫	-11.9252
甑	-11.9252
潺潺	-11.9252
八世孫	-11.9252
綻	-11.9252
季直表	-11.9253
黝	-11.9253
剽	-11.9253
灔	-11.9253
羔	-11.9253
册計二十	-11.9253
薑	-11.9254
懵	-11.9254
温日觀	-11.9254
萎	-11.9255
盧稜伽	-11.9256
爍	-11.9256
棠村審定	-11.9256
㕓	-11.9257
膜	-11.9257
肻	-11.9258
蛛	-11.9258
价	-11.9258
唐書夲傳	-11.9259
扛	-11.9259
楠	-11.9259
櫓	-11.9261
峩峩	-11.9261
式古堂書畫	-11.9261
嶰	-11.9262
婿	-11.9263
蜕	-11.9264
玦	-11.9265
鴝鵒	-11.9268
腳	-11.9268
璃	-11.9269
獸環壺	-11.927
今御府所藏三	-11.927
石渠寶笈卷	-11.9274
繪事備考	-11.9279
口縱四寸	-11.9361
六分腹圍一尺	-11.9436
嶧	-11.9494
踢	-11.9505
珩	-11.9507
瑯琊臨沂人	-11.9509
鍔	-11.9509
虞邵菴	-11.9509
斃	-11.951
冏	-11.9512
紊	-11.9512
纍	-11.9513
賽	-11.9514
唐釋懐素	-11.9514
暾	-11.9514
泱	-11.9515
攣	-11.9515
䘏	-11.9516
刑部侍郎	-11.9516
鄉貢進士	-11.9516
沱	-11.9517
脗	-11.9517
竟陵王	-11.9517
栝	-11.9517
糓	-11.9518
涴	-11.9518
錮	-11.9519
祛	-11.9519
莫廷韓	-11.952
斆	-11.952
猪	-11.952
宷	-11.952
夢奠帖	-11.9521
蠢	-11.9521
貟	-11.9522
廂	-11.9522
塜	-11.9523
幞	-11.9523
姚廣孝	-11.9523
樛	-11.9523
希世之寳	-11.9524
徨	-11.9524
枰	-11.9524
沜	-11.9524
徼	-11.9525
朱徳潤	-11.9525
曖	-11.9525
卷中幅押縫有	-11.9526
箑	-11.9526
紘	-11.9527
頺	-11.9527
扳	-11.9527
脣	-11.9528
搢紳	-11.9528
栻	-11.9529
滔	-11.9529
咫	-11.953
褙	-11.953
涓涓	-11.953
竽	-11.9533
六如居士	-11.9533
張受益	-11.9534
孱	-11.9535
醉僧圖	-11.9537
十五日敬書一墨箋本泥金書欵識云康	-11.9541
蕭翼賺蘭亭圖	-11.9545
遊魚圖	-11.9551
七言絶句一首	-11.9555
鳩子圖	-11.9656
深四寸一分口	-11.9729
倖	-11.9787
公孫大娘	-11.9787
腑	-11.9789
痴	-11.9789
禆	-11.9789
𠂻	-11.9789
郯	-11.9791
緼	-11.9791
哽	-11.9791
罌	-11.9791
郛	-11.9792
廩	-11.9793
彧	-11.9793
揀	-11.9794
雪江歸棹	-11.9796
蚌	-11.9796
􁎻	-11.9796
不能釋手	-11.9797
両	-11.9797
舉於鄉	-11.9799
犖	-11.9799
騣	-11.9799
阿房宫	-11.9799
鋬	-11.9799
玳瑁	-11.98
人那得知	-11.9801
嘘	-11.9801
酢	-11.9801
琅琊	-11.9801
筝	-11.9801
繽	-11.9802
鼉	-11.9802
㩦	-11.9802
徊	-11.9802
糠	-11.9803
徜徉	-11.9803
隧	-11.9804
蝌	-11.9804
憔	-11.9804
鳧	-11.9804
包山陸治	-11.9804
燿	-11.9804
纚	-11.9805
法帖刊誤	-11.9805
睢陽五老	-11.9805
凝霞閣	-11.9806
明張丑撰	-11.9807
薝	-11.9807
舸	-11.9808
班惟志	-11.9808
垞	-11.9808
兩兩耳三足	-11.9809
酤	-11.9809
亶	-11.9813
㒺	-11.9813
陸包山	-11.9814
醉道士圖	-11.9815
州觀察使	-11.9815
雎	-11.982
雙鷺圖	-11.9849
幅高一尺	-11.9888
髙七寸五分廣	-12.0017
喈	-12.0044
懴	-12.0049
鎛	-12.005
侗	-12.0059
廣三丈	-12.006
如印印泥	-12.0061
歸去来辭	-12.007
抃	-12.0072
容四升	-12.0072
寀	-12.0073
枻	-12.0074
聦	-12.0075
户部侍郎	-12.0076
閘	-12.0078
尠	-12.0079
丱	-12.0079
莓	-12.008
垠	-12.008
河北棠村	-12.008
蜨	-12.0081
禕	-12.0081
騮	-12.0083
寝	-12.0083
蕉林梁氏書畫之印	-12.0084
殞	-12.0084
忒	-12.0084
桀	-12.0084
猨	-12.0085
岣	-12.0085
書畫合璧	-12.0086
汪由敦	-12.0086
韓侂胄	-12.0086
許道寜	-12.0087
鎔	-12.0087
弭	-12.0087
光祿大夫	-12.0088
褚登善	-12.0089
櫳	-12.0089
瞽	-12.0089
耑	-12.0089
沅	-12.0089
閻立夲	-12.009
縣開國男	-12.009
亹亹	-12.009
燁	-12.0091
無書撰人名氏	-12.0091
蚪	-12.0092
栩	-12.0092
霾	-12.0093
崆峒	-12.0094
翟院深	-12.0094
稼穡	-12.0095
䑛	-12.0096
軋	-12.0098
法帖譜系	-12.0098
江山萬里圖	-12.0098
邊景昭	-12.0099
瀹	-12.01
慳	-12.0102
秀野軒	-12.0107
水月觀音	-12.0122
恙	-12.0353
灋	-12.0364
圓覺經	-12.0365
娉	-12.0365
删	-12.0367
尹繼昭	-12.0368
壼	-12.0368
盻	-12.0368
暌	-12.0368
彀	-12.037
闍	-12.0371
金題玉躞	-12.0371
歐虞褚薛	-12.0371
衒	-12.0371
哺	-12.0372
廪	-12.0372
猩猩	-12.0372
檠	-12.0374
䬃	-12.0374
悖	-12.0375
刀劍録	-12.0375
錬	-12.0375
茵	-12.0375
唐詩紀事	-12.0375
貿	-12.0376
撤	-12.0376
尢	-12.0376
進士及第	-12.0376
汝陽袁華	-12.0376
兩三足無銘	-12.0377
憨	-12.0377
坌	-12.0377
莱	-12.0377
鬆	-12.0379
鋼	-12.0379
椅	-12.0379
筮	-12.0379
鑣	-12.0379
抒	-12.0379
徐希秀	-12.0379
僣	-12.038
蠱	-12.038
債	-12.038
侑	-12.038
稳	-12.038
乾隆四十六年	-12.038
犇	-12.0381
驌	-12.0381
飱	-12.0381
雩	-12.0381
槽	-12.0381
大姚村	-12.0381
國史院編修官	-12.0382
竣	-12.0383
挐	-12.0383
紹定戊子	-12.0384
譁	-12.0384
涘	-12.0384
諂	-12.0384
搥	-12.0385
雲東逸史	-12.0385
灾	-12.0386
㬋	-12.0386
倓	-12.0389
等圖傳於世	-12.039
辜	-12.039
瘴	-12.039
逗	-12.039
蒯	-12.0391
本磁青箋泥金書西域字無量夀智經	-12.0391
下有文徴明印	-12.0391
稽古右文之	-12.0393
顧閎中	-12.04
腔	-12.04
宋刻法華經	-12.0401
絜	-12.0653
茨	-12.0666
牴	-12.0669
丶	-12.0669
酧	-12.0669
狡	-12.0669
閙	-12.0674
炬	-12.0674
蓺	-12.0674
牲	-12.0675
李肇亨	-12.0676
多才藝	-12.0676
希世之珍	-12.0677
嵬	-12.0677
㢲	-12.0677
攖	-12.0678
田僧亮	-12.0678
党	-12.0678
庾元威	-12.0678
沍	-12.0678
沆瀣	-12.0678
纘	-12.0678
㤙	-12.0679
剩	-12.0679
蠏	-12.068
覘	-12.068
胡長孺	-12.068
嘅	-12.068
戲鴻堂帖	-12.068
上谷王次仲	-12.0681
閥	-12.0681
芋	-12.0682
籒	-12.0683
邾	-12.0683
嘈	-12.0683
𥿄	-12.0683
勰	-12.0683
篴	-12.0684
蜻	-12.0684
虢國夫人	-12.0684
寗	-12.0685
稗	-12.0685
陳洪綬	-12.0685
邐	-12.0686
孥	-12.0686
蓍	-12.0687
劑	-12.0687
凂	-12.0687
櫪	-12.0688
苒	-12.0688
右謹具呈	-12.0688
浯	-12.0688
巴西鄧文原	-12.0689
深三寸二分口徑	-12.0689
罩	-12.069
嘖嘖	-12.069
侶	-12.069
琹	-12.069
王圖炳書	-12.0691
頵	-12.0691
劬	-12.0691
幾暇怡情	-12.0691
篙	-12.0692
頓還舊觀	-12.0693
聒	-12.0693
文宣王廟	-12.0694
髙八寸八分廣	-12.0694
疉	-12.0695
幾暇臨池	-12.0695
顙	-12.0699
兩兩耳連環右髙一尺	-12.0708
腹徑五寸	-12.0926
萹	-12.0964
貞觀公私畫史	-12.0977
蝨	-12.0981
容六升	-12.0981
五代名畫補遺	-12.0981
䜌	-12.0982
喆	-12.0982
蒼潤軒碑跋	-12.0982
晻	-12.0983
勍	-12.0984
絛	-12.0984
閽	-12.0984
趙氏鐵網珊瑚卷	-12.0984
鯁	-12.0985
宋陳思撰	-12.0985
頳	-12.0986
兾	-12.0987
司馬温公	-12.0987
牎	-12.0987
左中郎將	-12.0987
跌	-12.0987
遹	-12.0987
亾	-12.0988
狻	-12.0988
涅	-12.0989
顔眞卿	-12.0989
髀	-12.099
燠	-12.099
遄	-12.099
邵亨貞	-12.0991
叡	-12.0991
蜚	-12.0993
紓	-12.0993
泝	-12.0993
恡	-12.0994
虖	-12.0994
千變萬化	-12.0995
酋	-12.0995
王氏法書苑	-12.0996
青出於藍	-12.0996
䜿	-12.0997
宋本五色織	-12.0997
肓	-12.0997
晳	-12.0997
淆	-12.0998
櫝	-12.0999
車騎將軍	-12.0999
衎	-12.0999
錙	-12.0999
劉次莊	-12.1
苻	-12.1001
王羲之字逸少	-12.1001
籥	-12.1001
釡	-12.1002
晉右將軍王羲之	-12.1002
謠	-12.1003
駮	-12.1003
吳興錢選舜舉	-12.1005
渌	-12.1005
跎	-12.1005
梔	-12.1009
堯民擊壤	-12.1011
獒	-12.1011
無銘右二器	-12.1015
鐓	-12.1274
絨	-12.1294
灬	-12.1296
翾	-12.1299
怱	-12.13
奘	-12.1301
盾	-12.1301
涌	-12.1303
皦	-12.1304
長孫無忌	-12.1304
餙	-12.1305
胡母敬	-12.1305
孑	-12.1306
蠖	-12.1306
夹	-12.1307
縻	-12.1307
瑀	-12.1307
羝	-12.1308
崙	-12.1308
濆	-12.1309
媺	-12.1309
媵	-12.1309
猖	-12.1311
芮	-12.1312
屣	-12.1312
煦	-12.1312
錢穆父	-12.1312
姜立綱	-12.1312
宇文公諒	-12.1312
弡	-12.1313
滛	-12.1313
蹋	-12.1313
璀	-12.1313
週	-12.1313
笳	-12.1314
酥	-12.1314
分省人物考	-12.1314
沫	-12.1315
磻	-12.1315
筩	-12.1315
頲	-12.1316
穫	-12.1316
菡	-12.1317
秖	-12.1318
慊	-12.1319
暁	-12.1319
颸	-12.1319
械	-12.1319
壒	-12.1319
蘖	-12.1319
蜓	-12.132
箏	-12.1321
愠	-12.1321
禿	-12.1322
韓熙載	-12.1322
承務郎	-12.1322
綢	-12.1323
鮮于伯幾	-12.1324
瀬	-12.1325
錚	-12.1326
槌	-12.1326
郭乾暉	-12.1327
州防禦使	-12.1327
漙	-12.1327
右通蓋高七寸	-12.1327
澧	-12.1328
惲夀平	-12.1329
啾	-12.1332
淥	-12.1333
鍤	-12.1334
蹁	-12.1334
徠	-12.135
髙八寸七分廣	-12.1412
虞文靖	-12.1441
六分腹徑	-12.1443
渤	-12.1626
語録一部	-12.163
扼	-12.1632
戔	-12.1634
旡	-12.1638
偪	-12.1638
傳扵丗	-12.1638
捩	-12.164
撑	-12.164
鼈	-12.1641
深自口至隔	-12.1642
碍	-12.1642
菘	-12.1643
璅	-12.1644
破邪論	-12.1644
瘳	-12.1644
深三寸七分口徑	-12.1647
徳政頌	-12.1647
撥鐙法	-12.1647
阿育王	-12.1648
珵	-12.1648
翛	-12.1648
鼐	-12.1648
蝸	-12.1648
啞	-12.1648
臙	-12.1649
蜍	-12.1649
苴	-12.1649
鎗	-12.165
綫	-12.165
蜡	-12.165
么	-12.165
嶸	-12.165
擴	-12.165
琥	-12.165
爇	-12.165
倬	-12.1651
匍	-12.1651
刑部左侍郎卞永譽撰書	-12.1651
纉	-12.1651
䜟	-12.1651
集賢校理	-12.1651
琤	-12.1652
端明殿學士	-12.1652
粼	-12.1652
蕨	-12.1653
嶔	-12.1653
跗	-12.1653
荏	-12.1653
宼	-12.1653
饞	-12.1654
綯	-12.1654
臠	-12.1654
諸跋中押縫有	-12.1655
搴	-12.1656
坳	-12.1657
明汪砢玉撰	-12.1658
蒲師訓	-12.1658
朝議大夫	-12.1659
冉	-12.166
燃	-12.166
曬	-12.166
今御府所藏十	-12.1661
中幅押縫	-12.1661
趙孟籲	-12.1661
肴	-12.1661
綉	-12.1661
淼	-12.1662
甯	-12.1667
破羌帖	-12.1667
鸎	-12.1669
禹治水	-12.167
磁青箋	-12.1675
孔雀明王像	-12.1685
轆	-12.1971
瞞	-12.1978
粕	-12.198
糅	-12.198
䧺	-12.1981
岵	-12.1983
醺	-12.1984
紙本小挂幅	-12.1985
鞾	-12.1986
旴	-12.1986
甓	-12.1986
米南宮	-12.1987
椀	-12.1987
姚曇度	-12.1987
硎	-12.1988
嫠	-12.1989
㸑	-12.199
芊	-12.199
干禄字書	-12.199
児	-12.199
六研齋筆記	-12.199
團扇絹本淡色	-12.1991
鵷	-12.1991
心正則筆正	-12.1992
櫺	-12.1992
毳	-12.1993
冶溪漁隠	-12.1993
訢	-12.1993
諗	-12.1993
徯	-12.1995
娓	-12.1996
􁯳	-12.1996
章閣待制	-12.1997
𥘉	-12.1997
朦	-12.1997
大理評事	-12.1997
桃花源裏人家	-12.1998
宧	-12.1998
秦丞相李斯	-12.1998
攙	-12.1998
嶄	-12.1999
梅沙彌	-12.2
庄	-12.2
兠	-12.2
沚	-12.2
黄居宷	-12.2001
銑	-12.2001
瓈	-12.2001
海獸蒲萄鑑	-12.2001
憊	-12.2002
李廷珪墨	-12.2002
窪	-12.2002
颿	-12.2003
槊	-12.2004
刁光𦙍	-12.2006
泪	-12.2006
烟江疊嶂圖	-12.2006
􁃶	-12.2007
鷖	-12.2011
柰	-12.2011
瀕	-12.2012
荆蠻民	-12.2014
托塔天王	-12.2023
十五日敬書一洋箋本墨書欵識云康熈	-12.2025
鈕髙一寸	-12.2043
范忠宣	-12.2133
擯	-12.2328
竑	-12.2332
嘴	-12.2334
瞠	-12.2336
鍑	-12.2338
聖敎序	-12.234
芙	-12.2341
肢	-12.2341
齧	-12.2342
絪	-12.2342
耳髙一寸二分濶一寸	-12.2345
謌	-12.2346
攪	-12.2346
郇	-12.2346
肋	-12.2346
颻	-12.2347
四十二章經	-12.2347
盖與器銘共	-12.2347
萬幾之暇	-12.2347
深三寸五分口徑	-12.2348
嬈	-12.2348
啇	-12.2349
𣙜	-12.2349
柁	-12.235
陕	-12.235
渟	-12.2351
齕	-12.2352
諸葛武侯	-12.2353
袴	-12.2353
烽	-12.2354
礱	-12.2354
碗	-12.2354
趙伯驌	-12.2354
蹰	-12.2354
玉筯篆	-12.2354
种	-12.2354
渾然天成	-12.2355
橐	-12.2356
豸	-12.2356
揭鉢圖	-12.2356
匈	-12.2357
司徒左長史	-12.2357
掞	-12.2357
董邦逹	-12.2358
崐	-12.2358
􁷺	-12.2358
峡	-12.2359
妣	-12.2359
鞵	-12.2359
簒	-12.236
杠	-12.236
韋續九品書人論	-12.2361
喝	-12.2361
諍	-12.2362
壌	-12.2362
晷	-12.2363
綳	-12.2363
跣	-12.2363
湼	-12.2364
姐	-12.2364
鷲	-12.2364
頁第六十	-12.2364
袁安臥雪圖	-12.2366
自書詩帖一卷	-12.2366
胝	-12.2366
磷	-12.2369
岧	-12.237
莞	-12.2706
抺	-12.2707
黄文獻公集	-12.2709
筞	-12.2709
鐵門限	-12.2712
你	-12.2713
眙	-12.2716
𨗳	-12.2717
倕	-12.2717
㢧	-12.2717
別	-12.2718
僂	-12.2719
爱	-12.2719
掄	-12.272
㩁	-12.272
剜	-12.272
騧	-12.272
脛	-12.2721
毖	-12.2721
輟耕録	-12.2721
宁	-12.2721
摯	-12.2722
傒	-12.2722
豈易得哉	-12.2723
豢	-12.2723
躞	-12.2723
冇	-12.2723
内合同印	-12.2724
皇帝青宫時題詩云	-12.2725
揜	-12.2726
釜	-12.2726
茁	-12.2726
篔	-12.2727
瘍	-12.2727
袪	-12.2727
弆	-12.2727
騅	-12.2727
朧	-12.2728
著作佐郎	-12.2728
垔	-12.2728
瓛	-12.2729
惺	-12.2729
躊	-12.273
鶱	-12.273
趙叔盎	-12.2733
欽定四庫全書石渠寳笈卷	-12.2734
皷	-12.2734
狄仁傑	-12.2737
灝	-12.2737
檇李項氏世家寳玩	-12.2738
餽	-12.2738
兩有流有鋬四足	-12.2739
盌	-12.2741
菑	-12.2741
鈕髙二寸	-12.2777
漢書藝文志	-12.3072
曈	-12.3087
禅	-12.3088
金薤琳琅	-12.3089
拚	-12.3091
房彦謙	-12.3092
琱	-12.3093
東武亭侯	-12.3093
隋書經籍志	-12.3093
轤	-12.3095
枚三十六各長一寸	-12.3097
這	-12.3097
縢	-12.3097
噬	-12.3098
榱	-12.3099
􁗩	-12.31
閼	-12.31
右通蓋高九寸	-12.31
湎	-12.3101
蟇	-12.3102
怵	-12.3102
喟	-12.3102
淘	-12.3102
紂	-12.3102
紹興古器評	-12.3102
唫	-12.3103
脰	-12.3103
蔡希綜	-12.3104
一丘一壑	-12.3104
橙	-12.3104
祭姪季明文	-12.3105
戕	-12.3105
墉	-12.3106
踣	-12.3107
㶚	-12.3107
纈	-12.3108
溽	-12.3108
罇	-12.3108
釴	-12.3109
罘	-12.3109
賢良方正	-12.3109
髹	-12.3109
㠖	-12.3109
綮	-12.3109
尊候萬福	-12.311
耿嘉祚	-12.311
犁	-12.3111
麻姑壇記	-12.3111
轢	-12.3111
焰	-12.3112
佯	-12.3113
跚	-12.3113
襦	-12.3113
豺	-12.3113
神遊心賞	-12.3113
撒	-12.3113
怙	-12.3114
兩柱三足有鋬	-12.3114
醯	-12.3114
枚三十六各長三分重	-12.3114
翽	-12.3114
寒山拾得	-12.3115
䶵	-12.3116
戶	-12.3118
墨林項季子章	-12.3119
茂實府君	-12.312
漉	-12.312
呦	-12.3121
窣	-12.3122
摛藻為春	-12.3122
檉	-12.3125
甎	-12.3128
韓熙載夜宴圖	-12.313
甬長四寸	-12.3161
九分腹圍一尺	-12.3178
揔	-12.3484
銍	-12.3487
墁	-12.349
埏	-12.3492
盦	-12.3493
禩	-12.3494
汸	-12.3494
霤	-12.3494
㽞	-12.3495
氵	-12.3495
亝	-12.3496
文苑英華	-12.3497
鬐	-12.3497
箠	-12.3497
葭	-12.3498
菟	-12.3498
妤	-12.3499
四體書勢	-12.35
帘	-12.35
絕	-12.35
黄庭外景經	-12.35
蕖	-12.35
崎	-12.3501
碓	-12.3503
袞	-12.3504
牋烏絲闌本	-12.3504
衽	-12.3505
恊	-12.3505
禋	-12.3505
自隔至底	-12.3506
欽定四庫全書書畫彚考卷	-12.3506
飼	-12.3507
潾	-12.3507
罽	-12.3507
隤	-12.3508
睿思東閣	-12.3508
埶	-12.3508
邛	-12.3508
爨	-12.3508
蔕	-12.3508
嘿	-12.3509
汜	-12.3509
港	-12.3509
惬	-12.351
昜	-12.351
泂	-12.3511
嫵	-12.3512
柢	-12.3512
縶	-12.3512
棚	-12.3512
墖	-12.3512
敇	-12.3512
漢宫春曉	-12.3513
膾炙人口	-12.3513
萬幾餘暇	-12.3513
弁陽老人	-12.3513
榜進士題名碑	-12.3514
杓	-12.3514
御筆題籖籖上有御賞乾隆宸翰二璽	-12.3514
靨	-12.3514
貯養心殿	-12.3515
祓	-12.3515
鞦	-12.3515
菓	-12.3516
槿	-12.3517
迓	-12.3517
啣	-12.3517
熈五十二年嵗次癸巳	-12.3517
筴	-12.3518
鰕	-12.3518
熠	-12.352
碕	-12.3521
蹏	-12.3521
後有乾隆宸翰	-12.3522
栱	-12.3523
襁	-12.3526
鐶	-12.3528
芘	-12.3529
礎	-12.3898
刄	-12.3898
嬙	-12.3904
槧	-12.3905
褭	-12.3906
靁	-12.3907
陲	-12.3909
磋	-12.391
煬	-12.391
萟	-12.391
箬	-12.3911
羅暉趙襲	-12.3911
皿	-12.3912
帋	-12.3914
洸	-12.3915
睍	-12.3916
湔	-12.3916
灤	-12.3916
賭	-12.3916
嚙	-12.3918
詧	-12.3918
桮	-12.3919
溍	-12.3919
蹀	-12.3919
礫	-12.3919
腋	-12.3919
旹	-12.3919
湌	-12.3919
鑽	-12.3919
刈	-12.392
隗	-12.3921
虫	-12.3921
枃	-12.3921
殽	-12.3922
膴	-12.3923
羹	-12.3923
韁	-12.3923
檇李李氏鶴夢軒珍藏記	-12.3923
獺	-12.3923
奨	-12.3923
駉	-12.3923
茱	-12.3924
窆	-12.3926
刳	-12.3927
囀	-12.3927
氓	-12.3927
胡笳十八拍	-12.3927
七言截句	-12.3928
糺	-12.3928
紵	-12.393
壙	-12.3931
都尉耿信公書畫之章	-12.3931
喘	-12.3931
輓	-12.3932
鷃	-12.3932
眄	-12.3933
蛩	-12.3933
媮	-12.3933
匐	-12.3934
暐	-12.3934
𣗳	-12.3936
涔	-12.3937
内府圖書之印	-12.3939
貯重華宫	-12.3941
吿	-12.3942
五十七年嵗在戊戌	-12.3943
穪	-12.3943
熈五十八年嵗在己亥	-12.3943
屧	-12.3954
寸一分腹圍	-12.406
漈	-12.4323
訐	-12.4339
擠	-12.434
挿	-12.4344
滇	-12.4344
絆	-12.4344
惎	-12.4344
輭	-12.4346
眈	-12.4346
鉗	-12.4348
麻皮皴	-12.4348
宰相世系表	-12.4349
肄	-12.4349
玉清昭應宫	-12.4349
嫉	-12.435
㢤	-12.4351
窊	-12.4352
踊	-12.4352
㝢	-12.4352
侁	-12.4353
殯	-12.4353
荐	-12.4354
帔	-12.4354
阼	-12.4354
磈	-12.4355
鄠	-12.4355
怫	-12.4355
䪫	-12.4356
賑	-12.4356
等字是也夫言	-12.4357
熬	-12.4357
萏	-12.4357
犂	-12.4358
怍	-12.4358
珦	-12.4358
堰	-12.4358
辵	-12.4358
寳章待訪錄	-12.4359
下有㑹心不逺	-12.4359
躓	-12.4359
瓮	-12.4359
菌	-12.436
格古要論	-12.436
鷁	-12.4361
棼	-12.4361
雅宜山人王寵	-12.4361
艘	-12.4362
跼	-12.4362
抖	-12.4362
甍	-12.4363
乚	-12.4364
醬	-12.4364
龢	-12.4364
怪怪竒竒	-12.4365
彜	-12.4365
籲	-12.4365
蘩	-12.4365
躇	-12.4366
繒	-12.4366
媼	-12.4368
野望憫言	-12.4368
摩利支天	-12.4369
蔗	-12.4369
忖	-12.4369
麯	-12.4369
榼	-12.437
皤	-12.437
纜	-12.437
䲭	-12.4371
阿彌陀經	-12.4371
饕	-12.4371
朱巨川誥	-12.4372
苛	-12.4372
鄢	-12.4373
台候萬福	-12.4373
螻	-12.4375
口徑六寸五分腹圍	-12.4376
唐粉蠟紙	-12.4379
斧劈皴	-12.4788
駰	-12.4793
糝	-12.4794
􁅋	-12.4795
荄	-12.4797
嬖	-12.4798
蘼	-12.4798
弘	-12.4798
靠	-12.4802
狭	-12.4803
齔	-12.4803
坪	-12.4803
髙貴鄉公	-12.4804
摽	-12.4804
傴	-12.4805
黿	-12.4806
唘	-12.4806
長夏江寺	-12.4806
猊抉石渴驥奔泉	-12.4807
莭	-12.4807
慝	-12.4808
穟	-12.4808
癰	-12.4809
􁧠	-12.4809
鎦	-12.4811
壅	-12.4811
素箋本餘俱金箋本第一幅	-12.4811
顱	-12.4812
串	-12.4812
莾	-12.4813
猝	-12.4813
叉	-12.4813
葳	-12.4813
瓔	-12.4814
觀世音菩薩	-12.4814
升三合重	-12.4814
裸	-12.4814
壚	-12.4814
兜	-12.4815
眘	-12.4815
藎	-12.4815
珀	-12.4815
龐	-12.4815
呪	-12.4816
聃	-12.4816
清心抒妙理	-12.4816
蝉	-12.4816
肎	-12.4817
朓	-12.4817
鋗	-12.4818
摩利攴天	-12.4818
飇	-12.4819
曁	-12.4819
褧	-12.4819
羗	-12.4819
楣	-12.4819
頮	-12.482
塤	-12.482
賄	-12.4821
酆	-12.4821
燔	-12.4821
石渠寳笈	-12.4821
韆	-12.4821
踟	-12.4822
朱謀垔云	-12.4822
塟	-12.4822
儵	-12.4823
亹	-12.4823
缸	-12.4823
拇	-12.4823
穜	-12.4824
亊	-12.4824
下有康熙稽古右文二璽	-12.4825
揭傒斯	-12.4826
晙	-12.4826
罾	-12.4826
甃	-12.4831
熈六十年嵗在辛丑	-12.4831
檟	-12.4831
甪	-12.4833
虀	-12.4834
如意輪菩薩像	-12.484
軸髙三尺七寸	-12.4861
鄕	-12.5265
鷓	-12.5269
騘	-12.5272
散僧入聖	-12.5272
笄	-12.5274
䙝	-12.5275
滙	-12.5277
帨	-12.5278
矱	-12.5279
癢	-12.5279
衘	-12.5279
孃	-12.528
嵩陽石刻記	-12.528
潏	-12.528
羶	-12.5281
酲	-12.5281
絅	-12.5282
皈	-12.5282
頔	-12.5282
痊	-12.5282
蒔	-12.5283
雹	-12.5283
絺	-12.5284
世說新語	-12.5284
繅	-12.5284
輾	-12.5285
啗	-12.5285
屍	-12.5286
耨	-12.5286
蛤	-12.5287
橛	-12.5287
劖	-12.5287
明汪砢玉撰法書題跋	-12.5288
勣	-12.5289
王世貞國朝名賢遺墨有	-12.5289
洊	-12.5289
訃	-12.5289
邯	-12.5289
愬	-12.529
秫	-12.5291
趍	-12.5291
崿	-12.5291
㫺	-12.5291
蕾	-12.5291
苫	-12.5292
嶒	-12.5292
岱嶽觀造像記	-12.5292
醅	-12.5292
渰	-12.5293
柩	-12.5293
阿爾喜普之印	-12.5294
韈	-12.5294
崒	-12.5295
洺	-12.5295
狷	-12.5295
璐	-12.5296
剋	-12.5297
飰	-12.5297
簑	-12.5298
詘	-12.53
廚	-12.5302
狖	-12.5303
田疇耕耨	-12.5303
旎	-12.5303
矍	-12.5303
噓	-12.5304
熈五十六年嵗在丁酉	-12.5305
耋	-12.5305
耿㑹侯鑒定書畫之章	-12.5306
熨	-12.5307
踘	-12.5307
惨	-12.5308
殂	-12.5309
冤	-12.5311
崗	-12.5312
单	-12.5312
唼	-12.5313
熈五十九年嵗在庚子	-12.5313
碌	-12.5313
厝	-12.5316
熈五十三年嵗在甲午	-12.5319
蚋	-12.5734
啻	-12.5734
齍	-12.5755
鑚	-12.5768
㓕	-12.577
辠	-12.5775
澡	-12.5775
悸	-12.5777
輈	-12.5779
鍜	-12.5779
跧	-12.578
奭	-12.578
糲	-12.5781
眶	-12.5782
鬃	-12.5782
堞	-12.5783
埤	-12.5785
伉	-12.5785
籛	-12.5785
緹	-12.5785
氲	-12.5786
渢	-12.5786
蝗	-12.5786
寳章待訪録	-12.5786
兩舞相距六寸	-12.5786
沆	-12.5787
覼	-12.5787
鏜	-12.5787
贑	-12.5788
蓽	-12.5788
邍	-12.5788
吊	-12.5788
酹	-12.5788
滲	-12.5789
簴	-12.5789
擅豪翰其蹟雜見	-12.5789
㝎	-12.579
獷	-12.579
噀	-12.5791
㦂	-12.5791
跏	-12.5791
筏	-12.5791
殄	-12.5792
鞚	-12.5793
鑊	-12.5794
㢠	-12.5794
謄	-12.5794
窖	-12.5795
鉄	-12.5797
咲	-12.5798
躐	-12.5798
嵂	-12.5798
前有佩文齋一璽	-12.5798
纇	-12.5799
瑊	-12.58
巃	-12.5801
蘊	-12.5801
刑部左侍郎卞永譽撰畵	-12.5801
阪	-12.5802
黌	-12.5803
磜	-12.5803
鸛	-12.5804
柟	-12.5808
褓	-12.5813
熈五十四年嵗在乙未	-12.5814
塍	-12.5815
樷	-12.5835
匙	-12.6264
臬	-12.6288
滎	-12.6291
闓	-12.6294
堙	-12.6294
捽	-12.6295
跱	-12.6296
㺅	-12.6297
咤	-12.6297
莪	-12.6297
畺	-12.6297
儓	-12.6298
佗	-12.6298
睎	-12.6298
葷	-12.6299
俳	-12.6299
仔	-12.6299
車府令趙髙	-12.6299
􁉡	-12.63
闘	-12.6301
應奉翰林文字	-12.6304
弹	-12.6304
幟	-12.6305
鋟	-12.6306
狙	-12.6307
猱	-12.6307
挟	-12.6307
妒	-12.6308
琅邪臨沂人	-12.6308
漭	-12.6308
筦	-12.6309
彡	-12.631
戌	-12.6311
鎩	-12.6311
𧺫	-12.6312
玭	-12.6312
㱃	-12.6312
滏	-12.6312
厮	-12.6312
踠	-12.6313
籤	-12.6313
韡	-12.6314
焙	-12.6314
欷	-12.6314
齬	-12.6315
疚	-12.6316
書畵彚考卷四十	-12.6316
臮	-12.6316
枒	-12.6317
繳	-12.6317
拗	-12.6317
埀	-12.6317
嗅	-12.6318
秬	-12.6318
直仁智殿	-12.6318
琇	-12.6319
書法離鈎卷	-12.6319
盩	-12.6319
蕉林玉立氏圖書	-12.6319
橡	-12.6319
巇	-12.632
剰水殘山	-12.6321
窿	-12.6321
厪	-12.6322
鐺	-12.6322
憬	-12.6323
晉文公復國圖	-12.6323
杰	-12.6323
鷟	-12.6323
阬	-12.6325
嵸	-12.6326
鹹	-12.6326
壎	-12.6326
喁	-12.6327
墨畫餘俱著色畫第一幅	-12.6327
褶	-12.6327
朅	-12.6327
霎	-12.6327
桔	-12.6327
撾	-12.6328
罥	-12.6328
嚥	-12.6328
鐍	-12.6329
澘	-12.633
汯	-12.633
熈五十一年嵗次壬辰	-12.6331
㒳	-12.6332
欬	-12.6333
紇	-12.6333
右寳晉米公	-12.6335
瘧	-12.634
兩兩耳有提梁右通蓋高	-12.6342
􁄰	-12.6826
芉	-12.6841
蜿	-12.6845
吃	-12.6847
唶	-12.685
餳	-12.6851
㬰	-12.6851
躔	-12.6853
郃	-12.6853
悢	-12.6854
兩兩柱三足有流有鋬	-12.6855
衺	-12.6856
慥	-12.6856
蝟	-12.6856
僎	-12.6857
鵾	-12.6858
妺	-12.6859
瀁	-12.6859
蹻	-12.6859
諜	-12.686
腹徑長五寸	-12.686
贇	-12.6861
徭	-12.6862
楩	-12.6862
屡	-12.6863
燋	-12.6863
爚	-12.6863
氐	-12.6864
倔	-12.6864
闖	-12.6864
淬	-12.6865
憙	-12.6865
買王得羊不失所望	-12.6865
台哈布哈	-12.6866
册計十七頁	-12.6866
灸	-12.6866
漼	-12.6866
愻	-12.6867
塹	-12.6867
齠	-12.6868
黟	-12.6868
籋	-12.6868
壠	-12.6869
豋	-12.6869
南極老人像一軸	-12.6869
塏	-12.6869
耳髙一寸濶一寸	-12.6869
捄	-12.687
翏	-12.687
凟	-12.687
簀	-12.687
糸	-12.6871
婣	-12.6871
素絹夲著色畫	-12.6871
澒	-12.6872
䜛	-12.6872
蕤	-12.6872
寶章待訪録	-12.6872
帕	-12.6873
腎	-12.6873
蕞	-12.6873
斿	-12.6873
㟧	-12.6874
貰	-12.6874
珞	-12.6875
捻	-12.6876
菀	-12.6876
澍	-12.6876
芑	-12.6876
黽	-12.6877
淤	-12.6877
齟	-12.6877
煕	-12.6877
萸	-12.6877
岌	-12.6877
莧	-12.6877
宋岳珂撰宋名人真蹟	-12.6878
鄣	-12.6878
按察僉事	-12.6879
廛	-12.6879
蹣	-12.6879
菉	-12.6879
崟	-12.6879
鴂	-12.6879
體元主人萬幾餘暇二璽	-12.6879
舖	-12.6879
多力豐筋者聖無力無筋者病	-12.688
𣑽	-12.6881
贛	-12.6881
巑	-12.6882
涂	-12.6882
邅	-12.6882
篩	-12.6882
褥	-12.6882
邏	-12.6882
筑	-12.6884
嫰	-12.6884
夗	-12.6884
槍	-12.6885
哇	-12.6888
岏	-12.6889
佛青箋本泥金書欵識云康熙歲次甲申	-12.6889
凴	-12.6889
寨	-12.689
冋	-12.6893
熈五十年嵗次辛夘	-12.6897
凊	-12.6899
寸五分重一百	-12.695
鬖	-12.7421
换	-12.7437
煞	-12.7438
輞	-12.7442
鍵	-12.7443
晒	-12.7443
㠯	-12.7444
卸	-12.7445
呻	-12.7446
蜩	-12.7446
抝	-12.7446
磾	-12.7446
秤	-12.7448
􁁵	-12.7449
蠕	-12.7449
醢	-12.745
耳髙一寸三分濶一寸	-12.745
噞	-12.7451
齗	-12.7451
寞	-12.7451
璡	-12.7451
㳫	-12.7451
肜	-12.7451
六十一年嵗在壬寅	-12.7453
瓏	-12.7453
汐	-12.7453
梟	-12.7453
悃	-12.7453
曕	-12.7453
麻姑仙壇記	-12.7454
篾	-12.7454
駃	-12.7454
姒	-12.7454
痺	-12.7454
鐔	-12.7455
妆	-12.7455
湓	-12.7456
烱	-12.7456
捍	-12.7457
遝	-12.7457
惙	-12.7458
瑒	-12.7458
旒	-12.7458
叵	-12.7458
蹬	-12.7458
兇	-12.7458
颶	-12.7459
茝	-12.7459
砭	-12.7459
咳	-12.7459
攤	-12.7459
冫	-12.746
瑁	-12.746
紿	-12.7461
懾	-12.7461
舠	-12.7461
幌	-12.7461
闠	-12.7462
有奉三無私	-12.7462
闤	-12.7462
炷	-12.7462
縵	-12.7462
公字信公珍賞	-12.7463
廕	-12.7463
佃	-12.7464
寳親王長春居士題	-12.7464
疥	-12.7464
郴	-12.7465
㫋	-12.7466
員嶠真逸	-12.7466
𦍑	-12.7466
貉	-12.7466
跫	-12.7467
上鈐廣運之寶	-12.7467
臈	-12.7467
酪	-12.7468
舲	-12.7469
擻	-12.7469
漑	-12.747
麒	-12.747
墊	-12.7471
屩	-12.7471
囓	-12.7472
葯	-12.7473
橰	-12.7473
裵	-12.7473
卬	-12.7473
嚬	-12.7474
韉	-12.7474
煇	-12.7476
𠖇	-12.7477
欵識云康熙四十五年歲次丙戌	-12.7479
茉	-12.7479
莉	-12.748
並行書第一帖十	-12.7481
刲	-12.7485
眵	-12.7487
㜏	-12.8059
掦	-12.8062
工筆札其蹟雜見	-12.8063
氈	-12.8063
褘	-12.8064
画	-12.8065
槨	-12.8065
御定佩文齋書畫譜	-12.8066
甡	-12.8068
芾皇恐頓首再拜上覆	-12.8068
眥	-12.8069
天下之能事畢矣	-12.8069
儺	-12.8069
闚	-12.8069
鄊	-12.807
鄖	-12.807
麫	-12.807
穂	-12.807
麀	-12.8071
舁	-12.8071
媧	-12.8072
明趙琦美編	-12.8072
窒	-12.8073
睪	-12.8074
倨	-12.8074
薺	-12.8075
腯	-12.8076
虔	-12.8076
庋	-12.8076
顴	-12.8077
恁	-12.8079
挼	-12.8079
苶	-12.808
㕑	-12.808
㡳	-12.808
齷	-12.8081
大字促令小小字	-12.8081
產	-12.8081
璺	-12.8081
􁊈	-12.8081
鎸	-12.8081
洮	-12.8082
匊	-12.8083
京洛寺塔記	-12.8083
酡	-12.8083
旰	-12.8083
痍	-12.8083
殤	-12.8084
㡬暇臨池二璽	-12.8084
蓐	-12.8084
枚三十六各長二分重	-12.8085
廖瑜杭州府志碑碣	-12.8085
䵼	-12.8086
蒜	-12.8086
下有康熙宸翰保合太和二璽	-12.8086
偘	-12.8086
剗	-12.8086
褎	-12.8086
澷	-12.8087
姧	-12.8087
赧	-12.8087
譖	-12.8087
誑	-12.8087
傘	-12.8087
清夜游西園圖	-12.8088
悮	-12.8088
𠫭	-12.8088
䥴	-12.809
漵	-12.809
窰	-12.809
㿃	-12.8092
庚子銷夏記卷	-12.8092
毶	-12.8092
揾	-12.8093
贐	-12.8093
戹	-12.8093
驀	-12.8093
礲	-12.8094
相連意在筆前然後作字若平直相似	-12.8094
鸚	-12.8095
癘	-12.8095
涙	-12.8095
疢	-12.8095
枲	-12.8096
剌	-12.8096
伾	-12.8096
疫	-12.8096
睞	-12.8097
櫃	-12.8097
籧	-12.8097
薿	-12.8098
垤	-12.8099
廽	-12.81
惸	-12.8101
熙四十八年歲次己丑	-12.8101
㘭	-12.8102
熈四十九年嵗次庚寅	-12.8106
經一本磁青箋泥金書西域字	-12.8106
容八合重一斤	-12.8109
憧	-12.811
􁉧	-12.8114
天地水三官像三	-12.8123
沈周下有啟南石田二印	-12.8124
安能免參學之	-12.8124
日敬書一洋箋本墨書欵識云康	-12.8364
餒	-12.8723
誾	-12.8727
倏	-12.873
逌	-12.873
珎	-12.8731
昵	-12.8733
樨	-12.8734
薳	-12.8734
炁	-12.8735
無欵姓名見跋中	-12.8735
玢	-12.8736
徽猷閣待制	-12.8737
磎	-12.8737
亻	-12.8738
唐林藻深慰帖	-12.8739
樁	-12.8739
磽	-12.874
蓉	-12.8741
圻	-12.8742
篝	-12.8742
鬘	-12.8742
鏹	-12.8743
恧	-12.8743
簌	-12.8743
鬂	-12.8744
乾隆宸翰幾暇臨池二璽	-12.8745
蓓	-12.8745
焕	-12.8746
襌	-12.8746
萇	-12.8747
羆	-12.8747
踶	-12.8747
揠	-12.8748
纊	-12.8748
諠	-12.8748
瀧	-12.8748
驁	-12.8749
㞼	-12.8749
襆	-12.8749
嵎	-12.875
唁	-12.875
尭	-12.875
惚	-12.875
獬	-12.875
蜉	-12.875
枌	-12.875
册計十九頁第	-12.8751
蘺	-12.8751
不及張天然過之天然不及鍾	-12.8751
峕	-12.8751
孌	-12.8752
掊	-12.8752
亅	-12.8753
􁨹	-12.8753
榕	-12.8753
凾	-12.8753
瞪	-12.8753
禰	-12.8754
漢水耿㑹侯書畫之章	-12.8754
胤	-12.8754
旼	-12.8754
柎	-12.8754
醑	-12.8755
濰	-12.8756
囏	-12.8756
嵳	-12.8757
蔥	-12.8757
鵶	-12.8757
禙	-12.8758
飀	-12.8758
𥻘	-12.8758
擗	-12.8758
斸	-12.8758
侄	-12.8759
膓	-12.8759
薾	-12.876
濊	-12.876
堡	-12.876
狠	-12.8761
厔	-12.8761
如春蠶吐絲	-12.8761
阨	-12.8762
鱖	-12.8763
斕	-12.8764
綆	-12.8764
氅	-12.8764
郫	-12.8764
玖	-12.8765
忡	-12.8767
憺	-12.8767
瓞	-12.8767
熙四十七年歲次戊子	-12.8768
醸	-12.8768
瀠	-12.8768
肪	-12.8769
芃	-12.8769
嶪	-12.877
諝	-12.877
嵯	-12.877
嚱	-12.877
橊	-12.8772
癭	-12.8773
凰	-12.8773
陔	-12.8783
一洋箋本墨書欵識云康熈	-12.9188
􁎽	-12.9426
渻	-12.9427
惴	-12.9428
洹	-12.943
􁄗	-12.943
鶡	-12.9431
溧	-12.9442
份	-12.9443
騕	-12.9444
禠	-12.9444
遴	-12.9445
杙	-12.9446
讋	-12.9448
楼	-12.9449
欎	-12.9449
殢	-12.9449
旛	-12.945
中峰和上老師侍者	-12.9453
墪	-12.9454
棻	-12.9454
鈇	-12.9454
尗	-12.9455
饜	-12.9455
揵	-12.9455
鼯	-12.9455
云上比崔杜不足下方	-12.9455
靸	-12.9455
縊	-12.9457
陊	-12.9457
愾	-12.9457
适	-12.9457
菹	-12.9458
寶章待訪錄	-12.9458
㶁	-12.9459
茰	-12.9459
骼	-12.9459
腮	-12.9459
工欲善其事必先利其器	-12.9459
輊	-12.9461
胆	-12.9461
勌	-12.9461
殪	-12.9461
棒	-12.9462
淦	-12.9462
冄	-12.9462
閹	-12.9462
牣	-12.9462
舩	-12.9462
爬	-12.9463
瘵	-12.9463
嶻	-12.9465
前無古人後無來者	-12.9465
喓	-12.9465
瀏	-12.9465
臝	-12.9466
麵	-12.9466
蹭	-12.9466
粮	-12.9467
牂	-12.9467
椘	-12.9467
鏃	-12.9467
阯	-12.9467
礦	-12.9468
噤	-12.9468
瑠	-12.9468
泡	-12.9468
劂	-12.9468
艦	-12.9469
砢	-12.9469
懺	-12.9469
塼	-12.947
䖝	-12.947
飪	-12.947
脇	-12.947
箆	-12.947
枵	-12.947
娼	-12.9471
素邉素鼻無銘徑	-12.9471
灧	-12.9471
梈	-12.9472
茜	-12.9472
跕	-12.9472
嘹	-12.9472
敔	-12.9472
脁	-12.9473
諉	-12.9474
佶	-12.9474
蕳	-12.9474
台候動止萬福	-12.9474
􁦝	-12.9474
酩	-12.9476
䙀	-12.9477
喃	-12.9478
鑲	-12.948
蘐	-12.9481
炅	-12.9481
鎚	-12.9482
澎	-12.9482
蒭	-12.9484
軿	-12.9487
颭	-12.9488
鸝	-12.9488
枤	-12.9489
榾	-12.949
螯	-12.9491
殱	-12.9493
芰	-12.9497
兩柱三足有流有鋬銘二字	-12.9508
扞	-13.0188
鄦	-13.0189
彠	-13.0202
蠙	-13.0202
􁞝	-13.0203
姢	-13.0203
祅	-13.0205
鴞	-13.0206
僥	-13.0207
縂	-13.0208
箄	-13.021
劘	-13.021
寏	-13.0213
䞇	-13.0214
之理極草縱之致不若	-13.0214
輳	-13.0215
酎	-13.0215
鄱	-13.0216
橄	-13.0217
螫	-13.0218
皥	-13.0218
八分書無書撰人姓名	-13.0219
灊	-13.0219
隟	-13.0219
齓	-13.0219
偎	-13.0219
痒	-13.022
鎪	-13.022
籞	-13.0221
禘	-13.0221
俘	-13.0222
絫	-13.0222
毆	-13.0223
捃	-13.0224
薙	-13.0224
綈	-13.0225
世謬詞客前身應	-13.0225
煟	-13.0225
祧	-13.0225
毿	-13.0226
歔	-13.0226
磕	-13.0227
蟉	-13.0227
㳂	-13.0227
洧	-13.0227
溲	-13.0227
骳	-13.0228
踔	-13.0228
曨	-13.0229
得罪始皇幽繫雲陽	-13.0229
昞	-13.0229
輻	-13.0229
萄	-13.023
畣	-13.023
鏖	-13.023
桯	-13.0231
閈	-13.0231
哩	-13.0231
鍚	-13.0231
籯	-13.0232
􁚗	-13.0232
値	-13.0232
枚三十六各長五分重	-13.0232
裓	-13.0232
鶗	-13.0232
赳	-13.0232
下有石谷子王翬之印二印	-13.0232
娣	-13.0233
鞲	-13.0233
澠	-13.0233
鍛	-13.0233
袗	-13.0233
姹	-13.0234
卹	-13.0234
㨿	-13.0234
㓙	-13.0234
䙫	-13.0235
杅	-13.0235
鱷	-13.0236
慱	-13.0236
朐	-13.0236
腊	-13.0236
貔	-13.0236
埴	-13.0237
斮	-13.0237
意足不求顔色似前身相馬九方	-13.0237
疣	-13.0238
瀲	-13.0238
鴆	-13.024
臣米友仁鑒定恭跋	-13.024
顇	-13.024
則古而不今字則長而	-13.0241
砑	-13.0241
窶	-13.0241
莠	-13.0242
襠	-13.0242
俁	-13.0242
侠	-13.0242
橚	-13.0242
埓	-13.0243
燐	-13.0243
淖	-13.0243
送劉太冲序	-13.0243
澦	-13.0244
牸	-13.0244
邲	-13.0244
閡	-13.0244
覷	-13.0245
敓	-13.0247
杌	-13.0248
鷦	-13.0249
鼙	-13.025
机	-13.025
跖	-13.0251
擥	-13.0252
壟	-13.0252
咿	-13.0252
寉	-13.0256
㭊	-13.0256
郾	-13.0257
胼	-13.026
惔	-13.0263
樑	-13.0265
焱	-13.0267
􁪑	-13.0271
耤	-13.1022
厰	-13.1034
昴	-13.1035
笨	-13.104
純骨無媚純肉無力少墨浮	-13.1043
蔌	-13.1044
渦	-13.1044
鈺	-13.1044
屭	-13.1047
愎	-13.1048
妮	-13.1049
旐	-13.1049
髽	-13.1049
駔	-13.1049
縐	-13.105
骩	-13.105
歕	-13.1052
􁏢	-13.1052
饘	-13.1053
擿	-13.1053
錘	-13.1054
閿	-13.1054
紬	-13.1055
梏	-13.1056
踉	-13.1056
經一本素箋䝉古字	-13.1056
鍮	-13.1056
蟋	-13.1057
慼	-13.1057
圮	-13.1057
澱	-13.1057
蟀	-13.1057
分枚三十六各長七分重	-13.1057
襖	-13.1058
姱	-13.1058
耽之若此未必謝之	-13.1058
鸇	-13.1058
厖	-13.1059
窬	-13.1059
喑	-13.1059
隩	-13.106
砰	-13.106
縧	-13.106
瞋	-13.106
醋	-13.1061
黷	-13.1061
敭	-13.1061
㮄	-13.1061
辶	-13.1063
𤾉	-13.1063
熖	-13.1063
騂	-13.1063
禔	-13.1064
鰌	-13.1065
仲舒欲言災異	-13.1065
嫘	-13.1065
鞘	-13.1066
噶	-13.1066
蕢	-13.1066
胞	-13.1066
鎡	-13.1067
僰	-13.1067
珝	-13.1067
岊	-13.1067
濼	-13.1067
浟	-13.1068
􁎐	-13.1068
櫚	-13.1068
乩	-13.1068
芭	-13.1068
􁪘	-13.1069
枮	-13.1069
靦	-13.1069
泒	-13.1069
柵	-13.1069
殹	-13.1069
汭	-13.1069
醁	-13.1071
奎章閣學士院鑒書博士柯九思	-13.1071
躑	-13.1071
縗	-13.1071
膂	-13.1072
桴	-13.1072
嚦	-13.1072
出入者號令也屈折者殺戮也	-13.1072
㤅	-13.1072
豓	-13.1072
𬒳	-13.1073
阮孚蠟屐圖	-13.1073
如右牒到奉行	-13.1073
峒	-13.1073
蕡	-13.1073
甆	-13.1074
匆	-13.1074
鋐	-13.1074
甿	-13.1075
敻	-13.1075
椶	-13.1076
獾	-13.1076
㴠	-13.1076
艅	-13.1077
棅	-13.1078
筀	-13.1078
椷	-13.1078
口縱三寸七分横四寸	-13.1078
獼	-13.1079
羿	-13.1079
闉	-13.1079
篘	-13.1079
浼	-13.108
衿	-13.1081
踽	-13.1081
垍	-13.1082
窳	-13.1082
澨	-13.1082
㛰	-13.1083
确	-13.1084
諴	-13.1084
􁏦	-13.1085
篚	-13.1085
鴒	-13.1088
咬	-13.1089
𥚹	-13.1089
乾隆宸翰攜筆流雲藻	-13.1089
愒	-13.1089
嫚	-13.109
艫	-13.109
沬	-13.1091
欵識云康熙四十四年歲次乙酉	-13.1091
幾暇鑑賞之璽	-13.1092
幵	-13.1094
泬	-13.1095
摳	-13.1097
蹐	-13.1098
鄽	-13.1103
笞	-13.1945
俅	-13.1946
晢	-13.1946
㳄	-13.1949
妘	-13.1949
柈	-13.1951
莅	-13.1954
鏌	-13.1955
娵	-13.1955
􁚳	-13.1956
䍐	-13.1956
礧	-13.1958
靉	-13.1958
悊	-13.1958
椉	-13.1959
溱	-13.1959
忼	-13.1961
纏	-13.1962
秔	-13.1962
醲	-13.1963
臚	-13.1963
坏	-13.1963
玞	-13.1964
爆	-13.1964
糖	-13.1965
𬒮	-13.1965
旟	-13.1966
裼	-13.1966
􁩉	-13.1966
賫	-13.1966
􁄏	-13.1967
鬳	-13.1967
弑	-13.1967
蓰	-13.1967
憸	-13.1968
醨	-13.1968
行間茂密實亦難過	-13.1968
夤	-13.1969
知二合也時和氣潤三合也	-13.1969
慇	-13.1969
􁠸	-13.1969
鵪	-13.1969
有八體一曰大篆二曰小篆三曰刻符	-13.197
珷	-13.197
壷	-13.197
棱	-13.197
邴	-13.197
溼	-13.197
撻	-13.197
裠	-13.197
鞫	-13.197
歗	-13.1971
烺	-13.1971
螳	-13.1971
彘	-13.1971
皇朝事實類苑	-13.1971
䓁	-13.1971
熲	-13.1971
聵	-13.1971
戞	-13.1971
紕	-13.1972
翨	-13.1972
澮	-13.1972
佟	-13.1972
罐	-13.1973
暠	-13.1973
囉	-13.1973
蹌	-13.1973
妳	-13.1973
頞	-13.1973
一代祖導十代祖洽九代祖珣八代祖曇	-13.1973
臾	-13.1974
譍	-13.1974
韝	-13.1975
嫻	-13.1975
箎	-13.1975
爕	-13.1975
曅	-13.1975
鶵	-13.1975
緄	-13.1975
蝣	-13.1975
葅	-13.1976
學士承㫖榮禄大夫知制誥兼修國史	-13.1976
篌	-13.1976
辣	-13.1977
云頃尋諸名書鍾張信為絶倫其餘不足	-13.1977
暍	-13.1978
甦	-13.1978
圑	-13.1978
烜	-13.1979
也園索氏收藏書畫	-13.1979
褷	-13.1979
夫紙者陣也筆者刀矟也墨者	-13.198
濙	-13.198
刅	-13.198
餬	-13.198
犒	-13.198
垝	-13.198
韋誕書如龍威虎振	-13.198
券	-13.1981
𣪚	-13.1981
旺	-13.1981
黔寧王子子孫孫永保之	-13.1981
穽	-13.1981
㓗	-13.1982
籹	-13.1982
雯	-13.1982
朞	-13.1983
㮚	-13.1984
澑	-13.1984
稺	-13.1985
麏	-13.1985
曌	-13.1985
忉	-13.1985
晧	-13.1985
孛	-13.1986
圬	-13.1986
羜	-13.1986
繖	-13.1986
佀	-13.1986
雊	-13.1986
儿	-13.1988
䌫	-13.1989
諼	-13.1989
鬉	-13.1989
蚨	-13.1989
嬬	-13.1991
鏟	-13.1991
饁	-13.1991
沕	-13.1992
蘗	-13.1993
􁎾	-13.1993
堈	-13.1993
鏑	-13.1995
囦	-13.1995
毣	-13.1995
湃	-13.1996
痾	-13.1996
獠	-13.1996
届	-13.1997
寬	-13.1998
蛱	-13.1998
揮霍如蓴菜條	-13.1998
瀦	-13.1999
纛	-13.1999
熺	-13.2
胙	-13.2
欵識云康熙四十六年歲次丁亥	-13.2001
􁁪	-13.2002
喋	-13.2006
酺	-13.2006
綍	-13.2014
鼂	-13.2016
坾	-13.204
碟	-13.2925
皃	-13.2936
禳	-13.2941
麌	-13.2942
汞	-13.2943
胛	-13.2949
髠	-13.2951
戣	-13.2953
箒	-13.2953
診	-13.2953
骯	-13.2954
鼾	-13.2954
咊	-13.2956
娩	-13.2957
搘	-13.2958
饙	-13.296
桎	-13.2961
鍪	-13.2961
姜詡梁宣田彦和	-13.2961
鉶	-13.2963
侹	-13.2964
􁷽	-13.2964
特進上卿𤣥教大宗師	-13.2964
蕭子雲書如上林春花逺近瞻望無處不	-13.2964
媯	-13.2965
珤	-13.2965
氤	-13.2966
􁡯	-13.2966
臍	-13.2967
騄	-13.2967
秭	-13.2967
字叔夜譙國銍人	-13.2967
㬥	-13.2968
煢	-13.2969
家兄書煥若神明頓還舊觀	-13.2969
紲	-13.2969
歜	-13.2969
詬	-13.297
匄	-13.297
妷	-13.297
箝	-13.297
鄘	-13.297
屈二乖也風燥日炎三乖也	-13.297
磑	-13.2971
心遽體留一乖也意違勢	-13.2971
蝀	-13.2971
羊真孔草蕭行范篆各一時	-13.2971
雇	-13.2971
辮	-13.2972
蒼巖子梁清標玉立氏印章	-13.2972
緐	-13.2972
紙墨相發四合也偶然欲書五合也	-13.2972
馹	-13.2973
嶭	-13.2973
荑	-13.2973
𧦬	-13.2973
嘵	-13.2973
紙墨不稱四乖也情怠手	-13.2973
蔀	-13.2974
獎	-13.2974
兟	-13.2974
沇	-13.2975
浡	-13.2975
昫	-13.2975
枹	-13.2975
詼	-13.2975
佈	-13.2975
故當勝安云物論殊不爾子敬	-13.2976
􁇾	-13.2976
葡	-13.2977
絙	-13.2977
䍦	-13.2977
尫	-13.2977
深則伯度第一若章則勁骨天縱	-13.2977
型	-13.2977
徉	-13.2977
蚿	-13.2977
彳	-13.2977
僨	-13.2977
剙	-13.2977
氍	-13.2978
趞	-13.2978
殃	-13.2978
郙	-13.2978
庥	-13.298
懟	-13.298
跬	-13.298
紏	-13.298
頙	-13.298
飴	-13.298
真以㸃畫為形質使轉為	-13.298
㩗	-13.2981
韙	-13.2981
鬴	-13.2981
𤇺	-13.2981
沭	-13.2982
哆	-13.2982
􁐓	-13.2982
閆	-13.2982
髥	-13.2983
殛	-13.2983
􁋺	-13.2984
筆愈簡而氣愈壯景愈少而意愈長	-13.2984
嫮	-13.2984
謟	-13.2984
㵸	-13.2985
嚕	-13.2985
索靖書如飄風忽舉鷙鳥乍飛	-13.2985
螘	-13.2985
茀	-13.2985
鼕	-13.2985
迕	-13.2986
皖	-13.2987
霣	-13.2987
藟	-13.2988
噩	-13.2989
畯	-13.2989
曲之勢俯察龜文鳥跡之象	-13.2989
窕	-13.2989
荗	-13.2989
瘼	-13.299
䊵	-13.299
自非通靈感物不可與談斯道	-13.2992
哢	-13.2992
棫	-13.2993
醻	-13.2993
蜷	-13.2994
柮	-13.2994
眯	-13.2994
劚	-13.2996
担	-13.2997
㕍	-13.2999
入鴻都觀碣十旬不	-13.3
冑	-13.3
坻	-13.3
袛	-13.3001
酴	-13.3001
鈎筆轉角折鋒輕過	-13.3006
惪	-13.3008
穣	-13.3008
裀	-13.3008
湖廣按察使王毓賢撰	-13.3009
篪	-13.3009
垂拱御扆夾竹海棠鶴圖	-13.3011
蒞	-13.3017
蒓	-13.3018
斒	-13.3023
幇	-13.404
獧	-13.4047
僇	-13.4052
尨	-13.4052
鋏	-13.4052
趋	-13.4055
陘	-13.4057
廱	-13.4058
盒	-13.4058
憿	-13.4059
㪟	-13.4059
菻	-13.406
讖	-13.4061
蚶	-13.4062
嘐	-13.4062
頟	-13.4063
瀜	-13.4064
噎	-13.4064
弫	-13.4066
釧	-13.4066
砲	-13.4067
坿	-13.4067
上比崔杜不足下方羅趙有餘河間張超	-13.4068
筆而成偶有不連而血	-13.4069
螣	-13.4069
儈	-13.4069
勦	-13.407
炮	-13.407
犉	-13.407
燀	-13.407
縆	-13.4071
蟲書五曰摹印六曰署書七曰殳書八曰	-13.4071
頬	-13.4071
鞬	-13.4072
靆	-13.4072
𥙷	-13.4073
骫	-13.4073
孶	-13.4073
蕫	-13.4073
禴	-13.4073
姞	-13.4074
懍	-13.4075
宂	-13.4075
鄷	-13.4075
􁦁	-13.4075
瞀	-13.4075
櫜	-13.4075
賨	-13.4075
默	-13.4075
擄	-13.4076
蹡	-13.4076
枘	-13.4076
驃	-13.4076
舐	-13.4076
拐	-13.4077
蜑	-13.4077
摻	-13.4077
硤	-13.4077
似崇臺重宇層雲冠山	-13.4077
趵	-13.4077
嘛	-13.4077
兩有流有提梁三足右通蓋高	-13.4077
趕	-13.4078
𠡠	-13.4078
呆	-13.4078
釗	-13.4078
矇	-13.4079
嚅	-13.4079
㴶	-13.4079
問何不逐節分曰竹生時何	-13.4079
輶	-13.4079
栲	-13.4079
嚞	-13.408
怎	-13.408
抔	-13.408
虎兒筆力能扛鼎教字元暉繼阿章	-13.408
贔	-13.408
夫鷹隼乏彩而翰飛戾天骨勁而氣	-13.408
𬎼	-13.4081
逺而望之若飛龍在天近而	-13.4081
鯖	-13.4082
賅	-13.4082
淯	-13.4082
韍	-13.4083
蕝	-13.4083
隮	-13.4083
螟	-13.4083
熄	-13.4083
齮	-13.4083
畚	-13.4083
螙	-13.4084
吾之所為皆先作意是以果能成	-13.4084
痿	-13.4085
諏	-13.4085
喏	-13.4085
莩	-13.4085
楝	-13.4085
􁰳	-13.4085
真行妍美粉黛無施則逸少第一	-13.4085
畫如鐵石字若飛動作楷	-13.4086
㪍	-13.4086
褪	-13.4087
攠	-13.4087
而永保先業從人欲而不顧兼金	-13.4087
䙰	-13.4087
搰	-13.4087
始變古文或同或異謂之	-13.4087
㮣	-13.4087
􁌫	-13.4088
㬠	-13.4088
煽	-13.4089
軹	-13.4089
李韞陳基傅廷堅張紹	-13.4089
子敬可謂武盡美矣未盡善也逸少可謂	-13.4089
蓂	-13.4089
屺	-13.409
曀	-13.409
鷰	-13.409
下有宗伯學士董氏元宰二印	-13.409
刧	-13.409
哮	-13.4091
㹀	-13.4092
㻮	-13.4092
賙	-13.4092
灕	-13.4092
筥	-13.4092
襴	-13.4092
倥	-13.4093
縲	-13.4093
襕	-13.4093
咸有生意溪橋漁浦洲渚掩映一片江南	-13.4093
唄	-13.4093
絸	-13.4093
㪺	-13.4094
佘	-13.4094
詗	-13.4094
鸂	-13.4094
耔	-13.4095
䧏	-13.4095
晼	-13.4095
分枚三十六各長四分重	-13.4095
飣	-13.4095
𢋫	-13.4095
歊	-13.4095
琖	-13.4095
蜺	-13.4096
狨	-13.4096
碭	-13.4097
麞	-13.4098
嚲	-13.4098
􁴱	-13.4098
淡墨為之而水天空處全用粉填	-13.4098
􁒷	-13.4099
籓	-13.4099
有心急而執筆緩者有心緩而執筆急者	-13.4099
戅	-13.41
哄	-13.4101
綷	-13.4102
㝛	-13.4102
鬅	-13.4102
檳	-13.4102
偰	-13.4102
胐	-13.4103
刑部左侍郎卞永譽撰畫	-13.4103
橢	-13.4103
匯	-13.4103
軔	-13.4104
抨	-13.4105
歧	-13.4105
夬	-13.4106
染翰二璽前有樂善堂一璽	-13.4106
楂	-13.4107
啁	-13.4107
嵲	-13.4107
詶	-13.4107
溘	-13.4108
名山比見李斯曹喜等書又之許	-13.411
執之在手手不主運運之在腕腕不	-13.411
帬	-13.411
醿	-13.411
下有寳親王寳長春居士二璽	-13.4111
鯈	-13.4111
嶢	-13.4111
願從今日盡未來世不復	-13.4112
䢴	-13.4112
早年行筆差細中年行筆	-13.4114
摰	-13.4114
之間多有異趣可謂幽深無際古雅有餘	-13.4115
應受苦報我皆代受	-13.4116
敺	-13.4117
㬅	-13.4118
瀞	-13.412
㯶	-13.412
湯叔雅霜入千林圖	-13.412
經一本磁青箋泥金書蒙古字	-13.412
背作海獸四外輪列	-13.4121
蚯	-13.5296
淂	-13.5297
龠	-13.53
毚	-13.53
冂	-13.5301
劌	-13.5302
𥚑	-13.5307
桺	-13.5308
縋	-13.5308
嚨	-13.5309
蝎	-13.5309
峪	-13.531
氾	-13.531
蹷	-13.5311
陗	-13.5311
鍠	-13.5311
虡	-13.5312
􁥾	-13.5312
炡	-13.5313
桄	-13.5314
皪	-13.5315
敡	-13.5315
襜	-13.5315
𥪡	-13.5315
郟	-13.5316
鐻	-13.5317
桶	-13.5317
挖	-13.5318
屮	-13.5318
綂	-13.5318
櫬	-13.5319
屓	-13.5319
而變之以成今草轉精其妙字之體勢一	-13.532
丼	-13.532
鸐	-13.532
儇	-13.5321
㬉	-13.5321
氳	-13.5321
丷	-13.5321
嘑	-13.5322
十四卷又紙書玳瑁軸五	-13.5322
觕	-13.5322
漷	-13.5322
嫫	-13.5322
卮	-13.5322
紞	-13.5323
餔	-13.5323
屼	-13.5323
匚	-13.5324
御史以奏事繁多篆字難成乃用	-13.5324
猾	-13.5324
凘	-13.5324
汛	-13.5325
帝姓蕭氏諱道成字紹伯	-13.5325
都山仙都觀朝金殿西壁有天成	-13.5325
􁇛	-13.5325
搢	-13.5325
淝	-13.5326
猛也翬翟備色而翺翔	-13.5326
撘	-13.5326
吭	-13.5326
籐	-13.5326
踧	-13.5326
杆	-13.5326
躪	-13.5327
䴡	-13.5327
務從簡易相間流行故謂之行書	-13.5327
惛	-13.5327
澇	-13.5328
閾	-13.5328
彂	-13.5329
裛	-13.5329
鋈	-13.5329
㐰	-13.5329
貞觀六年正月八日命整理御府古今	-13.5329
稊	-13.5329
㫄	-13.533
㭿	-13.533
蔴	-13.5331
鵊	-13.5331
書代多稱習良可據為宗匠取立	-13.5331
塌	-13.5332
橒	-13.5332
虱	-13.5332
得時不如得器得器不如得志	-13.5332
卩	-13.5332
嘗謂朝臣曰書學小道初非急	-13.5332
胚	-13.5332
詈	-13.5333
而忙行筆勢莫以字大難而	-13.5333
絞	-13.5334
轝	-13.5334
刾	-13.5334
蝇	-13.5334
見離居情知海上三年别不寄雲間一	-13.5334
椑	-13.5334
柷	-13.5335
濘	-13.5335
跅	-13.5335
王儀同書如晉安帝非不處尊位而都	-13.5335
分而為義則文者祖父字者子孫	-13.5335
始作書契紀綱萬事垂法立制	-13.5335
䔩	-13.5335
悛	-13.5335
蟆	-13.5336
觳	-13.5336
㷆	-13.5336
江河是也四曰㑹意武信是也五曰轉注	-13.5336
兊	-13.5336
矼	-13.5336
為波必磔貴三折而遣毫	-13.5337
闒	-13.5337
礭	-13.5337
瑇	-13.5337
㴞	-13.5337
笱	-13.5337
騤	-13.5337
巓	-13.5337
開府儀同三司上柱國梁國公臣姚崇	-13.5337
枸	-13.5337
舡	-13.5337
則變化無方則伯英第一其間備精諸體	-13.5337
潤鼓之以枯勁和之以	-13.5337
馘	-13.5337
燉	-13.5338
籩	-13.5338
乾夕惕雍正宸翰二璽前有為君難一璽	-13.5338
再從伯祖羲之書先有四十餘	-13.5338
者非具頂門上慧眼者不足以	-13.5338
之縫有元章戲筆字印中間筆氣甚有如	-13.5339
潸	-13.5339
桼	-13.5339
偬	-13.5339
善筆力者多骨不善筆力者多肉多骨	-13.5339
理深也今吾臨古人之書殊不學其形勢	-13.5339
劻	-13.5339
其中本六朝妙處醖釀風骨自然超逸	-13.534
琲	-13.534
奧	-13.5341
㐲	-13.5341
幪	-13.5341
撡	-13.5341
攴	-13.5341
嵋	-13.5341
𫐠	-13.5341
饔	-13.5341
弢	-13.5341
玲	-13.5341
毌	-13.5341
㨂	-13.5341
襞	-13.5342
𬞞	-13.5342
睱	-13.5342
槮	-13.5342
得素書八角垂芒頗似篆	-13.5343
怤	-13.5343
闞	-13.5343
黥	-13.5343
樅	-13.5343
名為體共習分區豈知情動形言取	-13.5343
䨴	-13.5343
持入秀州崇徳邑中	-13.5343
霮	-13.5343
卷餘並墜失元悌等又	-13.5343
菅	-13.5344
轎	-13.5344
捎	-13.5344
黓	-13.5344
黧	-13.5344
亦有是梁隋官本者梁則滿騫徐僧權沈	-13.5344
蔞	-13.5344
然張精熟池水盡墨假令寡人	-13.5344
曲直乍顯乍晦若行若	-13.5345
逸少兼之擬草則餘真比真則	-13.5345
覦	-13.5345
楷則自可背羲獻而無失	-13.5345
䰟	-13.5345
蜆	-13.5345
􁱝	-13.5345
散漫此山谷幸乏霖雨姿何妨媚幽獨	-13.5346
飃	-13.5346
穸	-13.5346
坯	-13.5346
帀	-13.5346
異衆㸃齊列為體互乖一㸃成一字之	-13.5346
螽	-13.5346
恚	-13.5346
祟	-13.5347
逑	-13.5347
以中指頓筆然後以大指遣至盡處	-13.5347
桁	-13.5347
花蝶邉素鼻無銘徑	-13.5347
仰筆趯鋒輕擡而進	-13.5348
霞舒雲卷無所間然但其體	-13.5348
𨫼	-13.5348
皛	-13.5348
嶬	-13.5349
誹	-13.5349
心手不齊意後筆前者敗	-13.5349
憕	-13.5349
逥	-13.5349
湥	-13.535
軺	-13.535
剴	-13.535
四目通於神明仰觀奎星	-13.535
楚音習夏不能無楚過言不悒未為篤論	-13.535
篆篆者傳也傳其物理施之無窮	-13.535
硾	-13.535
吒	-13.535
澼	-13.535
䘖	-13.5351
司空許州都督趙國公臣無忌	-13.5351
是知偏工易就盡善難求雖	-13.5352
空照灼而無依蘭沼漂萍徒青翠而奚	-13.5352
沲	-13.5352
煓	-13.5352
諵	-13.5353
俜	-13.5354
桿	-13.5354
癩	-13.5354
獮	-13.5356
爝	-13.5357
呱	-13.5358
運之欲活不可以指運筆當以腕運筆	-13.5358
前後經名下俱有貝葉文	-13.5358
攔	-13.5358
捶	-13.5359
舳	-13.5359
鬙	-13.5359
楔	-13.5359
鳲	-13.536
耖	-13.536
㙮	-13.536
枷	-13.536
翿	-13.5361
莵	-13.5361
經一本磁青箋泥金書䝉古字	-13.5362
亦不得急令墨不入紙若急作意思淺薄	-13.5363
狀如算子上下方整前後齊平	-13.5364
嬋	-13.5365
楛	-13.5365
臟	-13.5365
鸓	-13.5366
學分布但求平正既知平正務追險絶既	-13.5367
皜	-13.5368
濲	-13.5368
所得至正四年十月來溪上足其意時年	-13.537
此是僕數年前寓平江光孝	-13.5371
鶼	-13.5371
僴	-13.5373
醞	-13.5373
畫皆有筋骨字體自然雄媚	-13.5374
坵	-13.5376
流雲邉獸鼻無銘徑	-13.5379
剳	-13.5384
兗	-13.5387
广	-13.539
肈	-13.6662
蝱	-13.6703
鬒	-13.6711
咍	-13.6716
与	-13.672
生數紀之内識解不能周流天壤區區惟	-13.6725
湟	-13.6727
䪥	-13.6728
雱	-13.6728
牯	-13.6728
惝	-13.6728
医	-13.6728
蝙	-13.6729
蝠	-13.6729
夌	-13.673
侏	-13.673
坱	-13.6732
蟣	-13.6733
匧	-13.6734
㪉	-13.6734
䣛	-13.6734
䛕	-13.6734
髒	-13.6736
狶	-13.6737
􁮖	-13.6737
形慢拘則乏勢放又少則	-13.6737
延安君則快速不滯若懸流得勢	-13.6737
餱	-13.6737
密而無間小字難於寛綽而有餘	-13.6737
袓	-13.6738
覡	-13.6739
皞	-13.674
􁊸	-13.6741
崺	-13.6742
霶	-13.6742
潺	-13.6742
沗	-13.6743
礽	-13.6743
瑑	-13.6743
荳	-13.6745
嫺	-13.6746
繶	-13.6746
㦲	-13.6746
沴	-13.6746
灩	-13.6747
瑪	-13.6747
兪	-13.6749
郅	-13.6749
䰞	-13.6749
摵	-13.675
尻	-13.675
譛	-13.675
掎	-13.6751
觝	-13.6751
皚	-13.6752
鬪	-13.6752
餮	-13.6753
􁐠	-13.6753
㠭	-13.6753
玕	-13.6753
撕	-13.6754
醽	-13.6755
鍧	-13.6755
鞶	-13.6755
囁	-13.6755
漴	-13.6755
佹	-13.6756
琊	-13.6757
栟	-13.6757
穡	-13.6757
炒	-13.6757
毹	-13.6757
矉	-13.6757
皐	-13.6758
蠍	-13.6758
襮	-13.6758
丫	-13.6758
怗	-13.6758
魑	-13.6759
釂	-13.676
忺	-13.676
暱	-13.676
迮	-13.676
抅	-13.676
蜒	-13.676
鉊	-13.676
耍	-13.676
蓁	-13.6761
滫	-13.6761
琟	-13.6761
廋	-13.6762
郿	-13.6762
霪	-13.6763
緍	-13.6764
鰥	-13.6764
丏	-13.6764
齅	-13.6764
杇	-13.6764
麐	-13.6764
玟	-13.6765
痰	-13.6765
㐫	-13.6765
􁅔	-13.6765
屎	-13.6765
蕘	-13.6765
綌	-13.6766
槭	-13.6766
媳	-13.6766
兌	-13.6766
鏄	-13.6766
罣	-13.6766
岀	-13.6767
媫	-13.6767
恉	-13.6767
閠	-13.6767
洌	-13.6767
頀	-13.6767
㓨	-13.6768
堠	-13.6768
訏	-13.6769
潨	-13.6769
􁕓	-13.677
􁦍	-13.677
稂	-13.677
茭	-13.677
纁	-13.6771
􁂧	-13.6771
嘒	-13.6771
鄲	-13.6772
眦	-13.6772
跽	-13.6772
靿	-13.6772
渼	-13.6773
霡	-13.6773
緲	-13.6773
聪	-13.6773
騑	-13.6773
潇	-13.6774
畬	-13.6774
愞	-13.6774
砦	-13.6774
閧	-13.6774
霂	-13.6774
鷕	-13.6774
榿	-13.6775
饉	-13.6775
鐲	-13.6775
鷀	-13.6776
􁂫	-13.6776
墼	-13.6776
驔	-13.6776
糿	-13.6777
叮	-13.6777
貙	-13.6777
㰎	-13.6778
媞	-13.6779
菔	-13.6779
嚇	-13.6779
睽	-13.6779
籭	-13.6779
鞓	-13.6779
郳	-13.678
灺	-13.6781
圅	-13.6781
逯	-13.6781
懂	-13.6781
嵊	-13.6782
畮	-13.6782
鸕	-13.6784
蛆	-13.6784
㬇	-13.6784
㶏	-13.6784
蜘	-13.6784
悁	-13.6784
嵽	-13.6785
鞮	-13.6785
𣢾	-13.6785
艎	-13.6785
澉	-13.6786
輜	-13.6786
弮	-13.6786
毀	-13.6787
珫	-13.6787
駪	-13.6788
睒	-13.6789
愳	-13.6789
楶	-13.679
婭	-13.6791
洚	-13.6791
屆	-13.6791
􁓸	-13.6792
𥜗	-13.6793
徕	-13.6793
嗒	-13.6794
搓	-13.6794
旓	-13.6794
媍	-13.6798
驦	-13.6799
縚	-13.68
偲	-13.6806
姣	-13.6813
觗	-13.6815
漰	-13.8373
輗	-13.8376
佉	-13.838
趐	-13.8383
畞	-13.8387
㴸	-13.839
晊	-13.839
嗷	-13.8392
瓤	-13.8392
磥	-13.8393
􁬾	-13.8394
圠	-13.8394
􁝟	-13.8394
胖	-13.8395
钁	-13.8395
涏	-13.8395
蒻	-13.8397
嘬	-13.8397
鋋	-13.8398
􁀊	-13.8398
瞍	-13.8399
鎧	-13.8401
甔	-13.8402
浃	-13.8403
圞	-13.8404
娀	-13.8404
柂	-13.8405
嬛	-13.8405
嫖	-13.8405
媠	-13.8405
騭	-13.8405
􁃻	-13.8407
猙	-13.8407
琉	-13.8408
忸	-13.8408
怩	-13.8408
窯	-13.8408
棬	-13.8408
詖	-13.8408
趄	-13.8409
詿	-13.8409
䖟	-13.8409
葹	-13.841
軛	-13.841
敉	-13.841
篡	-13.8411
缿	-13.8411
鮊	-13.8412
􁃚	-13.8414
黶	-13.8414
鱉	-13.8414
笇	-13.8414
儤	-13.8414
鋌	-13.8414
逍	-13.8414
攽	-13.8415
旉	-13.8415
楙	-13.8416
疽	-13.8417
糴	-13.8417
矟	-13.8417
齁	-13.8417
脽	-13.8417
谹	-13.8417
槻	-13.8417
晥	-13.8418
脞	-13.8418
􁒬	-13.8418
㵚	-13.8418
𬗟	-13.8419
慴	-13.8419
呿	-13.8419
􁘡	-13.842
磓	-13.842
􁑋	-13.842
􁂥	-13.842
鼊	-13.842
鷫	-13.842
洫	-13.8421
􁎼	-13.8421
蒢	-13.8421
悳	-13.8422
衕	-13.8422
􁦃	-13.8422
痔	-13.8422
駬	-13.8422
逭	-13.8423
遅	-13.8424
讞	-13.8424
窽	-13.8424
勷	-13.8424
峿	-13.8424
僶	-13.8425
栧	-13.8425
蒱	-13.8425
孏	-13.8425
搯	-13.8425
硜	-13.8425
佋	-13.8425
㗳	-13.8426
柞	-13.8426
轇	-13.8426
轕	-13.8426
澐	-13.8426
顦	-13.8426
觱	-13.8426
裭	-13.8426
淰	-13.8426
馣	-13.8426
戺	-13.8426
欻	-13.8427
粦	-13.8427
壖	-13.8427
洑	-13.8427
噆	-13.8427
菫	-13.8428
埭	-13.8428
戬	-13.8428
懆	-13.8429
戟	-13.8429
罝	-13.8429
䢱	-13.843
檗	-13.843
骱	-13.843
鈜	-13.8431
恆	-13.8431
珈	-13.8431
韮	-13.8431
瑮	-13.8431
崋	-13.8432
嘷	-13.8432
琶	-13.8432
洴	-13.8432
謭	-13.8432
窀	-13.8432
􁁷	-13.8432
瞢	-13.8433
脹	-13.8433
眊	-13.8433
棕	-13.8433
晡	-13.8433
噦	-13.8433
崞	-13.8433
蚱	-13.8433
蜢	-13.8433
鞞	-13.8433
狁	-13.8434
献	-13.8435
濚	-13.8435
蓻	-13.8435
苯	-13.8435
咂	-13.8435
溈	-13.8435
璕	-13.8435
鄺	-13.8436
䠱	-13.8436
咮	-13.8436
邋	-13.8436
􁵃	-13.8436
楳	-13.8436
筤	-13.8437
蓞	-13.8437
聓	-13.8437
餖	-13.8437
瘖	-13.8438
騃	-13.8438
瞩	-13.8438
蘢	-13.8438
䖃	-13.8438
傞	-13.8439
葊	-13.8439
肸	-13.8439
嵕	-13.844
繻	-13.844
𧖟	-13.844
瘢	-13.844
砆	-13.844
袷	-13.844
訽	-13.844
鄄	-13.8441
梴	-13.8441
阝	-13.8441
碏	-13.8441
鞿	-13.8441
蜮	-13.8442
瀍	-13.8442
咈	-13.8442
鵂	-13.8442
􁌹	-13.8443
鎌	-13.8443
礿	-13.8444
滹	-13.8444
㗖	-13.8444
膞	-13.8444
忞	-13.8444
岋	-13.8444
庳	-13.8445
嗈	-13.8445
﨣	-13.8445
痁	-13.8446
慍	-13.8447
梃	-13.8447
瑫	-13.8447
幨	-13.8447
􁇣	-13.8448
尒	-13.8448
摴	-13.8448
枳	-13.8448
楀	-13.8448
壈	-13.8449
𤯝	-13.8449
襫	-13.845
鯢	-13.845
墾	-13.845
碡	-13.845
篨	-13.8451
椁	-13.8451
駸	-13.8451
旤	-13.8452
軨	-13.8452
唤	-13.8452
鯔	-13.8452
􁁍	-13.8452
|	-13.8452
韤	-13.8452
襏	-13.8453
𤏡	-13.8453
邶	-13.8454
梦	-13.8454
堧	-13.8455
獪	-13.8455
哳	-13.8455
鄯	-13.8457
胠	-13.8459
粳	-13.846
洓	-13.8461
洿	-13.8461
耎	-13.8462
傀	-13.8463
樟	-13.8463
㢸	-13.8464
倂	-13.8466
㷊	-13.8467
縕	-13.8467
彗	-13.8467
䉀	-13.8467
焄	-13.8467
遫	-13.8469
姉	-13.847
㜷	-13.8473
繰	-13.8487
􁇹	-13.8496
冘	-14.0321
礥	-14.0345
樠	-14.0352
釃	-14.0372
薲	-14.0373
嬲	-14.0375
􁃸	-14.0376
攧	-14.0376
枅	-14.0377
鷏	-14.0378
􁃒	-14.0379
柹	-14.0381
駈	-14.0381
􁚈	-14.0382
疼	-14.0387
詥	-14.0387
螂	-14.0388
㒒	-14.0388
嵠	-14.0389
噍	-14.0389
醼	-14.0392
螗	-14.0392
踝	-14.0392
􁰔	-14.0393
懨	-14.0394
匵	-14.0394
眚	-14.0394
腓	-14.0395
筲	-14.0397
襐	-14.0397
鴇	-14.04
縯	-14.04
踦	-14.04
黭	-14.04
􁤷	-14.04
瀯	-14.04
缽	-14.0401
苹	-14.0401
皵	-14.0401
煅	-14.0402
熀	-14.0402
蠉	-14.0402
卲	-14.0403
瞎	-14.0403
鋣	-14.0403
酖	-14.0403
隃	-14.0404
霝	-14.0404
榷	-14.0405
璈	-14.0405
畷	-14.0405
覻	-14.0405
嬸	-14.0405
晹	-14.0405
菼	-14.0405
扑	-14.0405
􁤈	-14.0405
勹	-14.0406
寯	-14.0406
騋	-14.0406
璛	-14.0407
拿	-14.0407
栳	-14.0407
桒	-14.0407
𪷟	-14.0407
欈	-14.0407
爹	-14.0407
疁	-14.0408
艣	-14.0408
鋁	-14.0408
紃	-14.041
愐	-14.041
幐	-14.041
儫	-14.0411
驊	-14.0411
椏	-14.0411
豗	-14.0411
簉	-14.0411
㲲	-14.0412
袿	-14.0412
􁁺	-14.0412
犴	-14.0413
􁉤	-14.0413
怦	-14.0413
龑	-14.0413
哨	-14.0413
狰	-14.0414
嬭	-14.0414
膋	-14.0414
炱	-14.0414
靼	-14.0414
釭	-14.0414
厶	-14.0415
搕	-14.0415
趠	-14.0415
婬	-14.0415
刎	-14.0416
柲	-14.0416
婑	-14.0416
䗶	-14.0416
礜	-14.0416
蛋	-14.0416
漇	-14.0417
妁	-14.0417
阽	-14.0417
醊	-14.0417
􁇀	-14.0417
㑓	-14.0417
褀	-14.0417
蚕	-14.0418
􁊔	-14.0418
􁐍	-14.0418
媢	-14.0418
晛	-14.0418
鑴	-14.0418
䓗	-14.0419
汹	-14.0419
驑	-14.0419
趡	-14.0419
裦	-14.042
綖	-14.042
轗	-14.042
靧	-14.0421
韃	-14.0421
欿	-14.0421
桉	-14.0421
蓏	-14.0421
繂	-14.0422
靶	-14.0422
􁄭	-14.0422
壩	-14.0423
怊	-14.0423
箊	-14.0423
砯	-14.0423
獗	-14.0423
纕	-14.0424
貅	-14.0424
薋	-14.0424
鼛	-14.0424
呷	-14.0424
騀	-14.0424
俲	-14.0424
祊	-14.0424
霦	-14.0424
瑭	-14.0424
𣙗	-14.0424
􁢈	-14.0424
卨	-14.0424
捋	-14.0425
纆	-14.0425
坫	-14.0425
煴	-14.0425
蝴	-14.0425
矞	-14.0426
􁊒	-14.0426
釬	-14.0426
郸	-14.0426
􁁃	-14.0426
誖	-14.0426
鄩	-14.0426
􁒽	-14.0426
馽	-14.0426
薆	-14.0427
濉	-14.0427
垜	-14.0427
爟	-14.0427
飤	-14.0427
𢷬	-14.0427
旞	-14.0427
騠	-14.0428
桫	-14.0428
謷	-14.0428
𫀆	-14.0428
喔	-14.0428
􁒍	-14.0428
僛	-14.0429
蛹	-14.0429
濞	-14.0429
鷇	-14.0429
婪	-14.0429
曑	-14.0429
獍	-14.0429
紼	-14.0429
觫	-14.043
鵩	-14.043
匳	-14.043
昪	-14.043
褦	-14.043
襶	-14.043
靛	-14.043
䳵	-14.043
稧	-14.043
唅	-14.0431
髗	-14.0431
魃	-14.0431
鏇	-14.0431
冱	-14.0431
壜	-14.0431
絖	-14.0431
軃	-14.0431
讙	-14.0432
櫨	-14.0432
痀	-14.0432
鵕	-14.0432
皭	-14.0432
䔿	-14.0432
銙	-14.0432
佪	-14.0433
堽	-14.0433
鮪	-14.0433
鰐	-14.0433
􁆨	-14.0433
鈷	-14.0433
嶨	-14.0434
羾	-14.0434
䴊	-14.0434
渣	-14.0434
骭	-14.0434
暦	-14.0434
酗	-14.0435
呑	-14.0435
瞶	-14.0436
酇	-14.0436
啚	-14.0436
􁘕	-14.0436
陿	-14.0437
瀣	-14.0437
赬	-14.0437
鍰	-14.0437
霙	-14.0437
糗	-14.0437
飦	-14.0437
愭	-14.0437
牗	-14.0437
晜	-14.0437
囤	-14.0437
裋	-14.0438
戦	-14.0438
醤	-14.0438
恝	-14.0438
瘤	-14.0438
彿	-14.0438
鈆	-14.0439
瑘	-14.0439
嗽	-14.0439
鱣	-14.0439
苽	-14.044
瘟	-14.044
􁢒	-14.044
㒞	-14.0441
𨳩	-14.0441
尰	-14.0441
橑	-14.0442
􁰭	-14.0442
㠋	-14.0442
埿	-14.0442
􁊥	-14.0442
臡	-14.0442
絀	-14.0442
𠻳	-14.0443
彖	-14.0443
驝	-14.0443
尌	-14.0443
䧹	-14.0443
耉	-14.0444
妗	-14.0444
揫	-14.0444
餵	-14.0444
嚀	-14.0444
殲	-14.0444
耼	-14.0445
罋	-14.0445
懣	-14.0445
崘	-14.0445
醄	-14.0445
帡	-14.0445
莂	-14.0445
嚏	-14.0446
􁄴	-14.0446
洳	-14.0446
毉	-14.0446
犠	-14.0446
酕	-14.0446
彯	-14.0446
隺	-14.0446
㳙	-14.0446
鈁	-14.0447
櫩	-14.0447
帟	-14.0447
鬵	-14.0447
媆	-14.0447
𫉬	-14.0448
网	-14.0448
芍	-14.0449
稌	-14.045
𣅿	-14.045
􁀾	-14.045
醎	-14.045
醐	-14.0451
麚	-14.0451
罭	-14.0452
醍	-14.0452
焴	-14.0452
䠶	-14.0452
蓧	-14.0452
􁀨	-14.0452
倧	-14.0452
緖	-14.0452
鶹	-14.0452
們	-14.0453
㯽	-14.0453
噂	-14.0453
㪷	-14.0453
櫸	-14.0454
袚	-14.0454
貘	-14.0454
拕	-14.0455
濋	-14.0455
駵	-14.0455
迍	-14.0455
儡	-14.0456
糚	-14.0456
罛	-14.0457
鴦	-14.0458
崈	-14.0458
涖	-14.0459
壕	-14.0459
姆	-14.0461
痢	-14.0461
荽	-14.0461
毯	-14.0462
淶	-14.0462
岞	-14.0462
杻	-14.0464
槔	-14.0465
瑨	-14.0465
邰	-14.0465
蜇	-14.0466
媻	-14.0466
菶	-14.0466
霉	-14.0466
靃	-14.0467
嶲	-14.0468
蚣	-14.0472
蜈	-14.0472
夆	-14.0474
崳	-14.0474
贓	-14.0477
􁫫	-14.0478
滻	-14.0481
抆	-14.0482
闃	-14.0488
麛	-14.0499
蛂	-14.2813
澩	-14.2835
欱	-14.2843
岍	-14.2848
奝	-14.285
𢮓	-14.2856
􁷼	-14.286
鋚	-14.2861
䆞	-14.2864
鷆	-14.2867
􁂚	-14.2874
虓	-14.2874
饟	-14.2879
僩	-14.2882
㝹	-14.2886
逨	-14.2888
㰖	-14.2888
媾	-14.2888
瑍	-14.2888
悪	-14.2889
冔	-14.289
䓤	-14.2892
极	-14.2894
怔	-14.2895
耰	-14.2895
鼏	-14.2895
豨	-14.2896
簦	-14.2897
劼	-14.2897
飂	-14.2898
㷔	-14.2899
􁇟	-14.2899
仡	-14.29
鞄	-14.29
嫽	-14.29
厩	-14.2901
􁗫	-14.2902
糵	-14.2902
痟	-14.2903
墺	-14.2903
廾	-14.2903
簁	-14.2903
榧	-14.2903
赩	-14.2903
跔	-14.2903
澟	-14.2903
鬍	-14.2904
磹	-14.2904
趼	-14.2904
㢮	-14.2904
疹	-14.2904
㦯	-14.2904
𡷗	-14.2904
愊	-14.2904
騊	-14.2904
鯫	-14.2904
俣	-14.2906
􁜜	-14.2906
瘉	-14.2906
瀵	-14.2906
盄	-14.2906
甀	-14.2907
冈	-14.2907
廄	-14.2907
賃	-14.2907
蓨	-14.2907
雘	-14.2907
狴	-14.2908
囱	-14.2908
偵	-14.2908
偊	-14.2908
蠔	-14.2908
伈	-14.2908
箖	-14.2908
䥈	-14.2908
蚴	-14.291
蕣	-14.291
咆	-14.291
齲	-14.291
撅	-14.2911
鉼	-14.2911
呶	-14.2911
痂	-14.2911
尔	-14.2912
詄	-14.2912
銹	-14.2913
賻	-14.2913
鸘	-14.2913
篲	-14.2913
塺	-14.2913
濈	-14.2913
囅	-14.2914
貊	-14.2914
絍	-14.2915
膬	-14.2915
魫	-14.2915
倈	-14.2915
囙	-14.2915
沠	-14.2916
疃	-14.2916
噰	-14.2917
堲	-14.2917
搃	-14.2917
顕	-14.2917
挨	-14.2917
􁈍	-14.2917
蹂	-14.2917
岈	-14.2917
磅	-14.2918
䳌	-14.2918
砠	-14.2918
唧	-14.2918
剉	-14.2918
䫜	-14.2918
柅	-14.2918
眂	-14.2918
桅	-14.2919
祫	-14.2919
鄼	-14.2919
猒	-14.2919
䃺	-14.292
􁂜	-14.292
戇	-14.292
裰	-14.292
踳	-14.292
烙	-14.2921
弸	-14.2921
浲	-14.2921
晲	-14.2921
猢	-14.2921
􁊞	-14.2921
􁁣	-14.2921
洍	-14.2921
鍗	-14.2921
稃	-14.2922
扢	-14.2922
魋	-14.2922
㴻	-14.2922
笴	-14.2922
㜑	-14.2922
㵎	-14.2922
竁	-14.2922
鏵	-14.2922
䨓	-14.2923
歬	-14.2924
竻	-14.2924
􁏁	-14.2924
訹	-14.2924
篛	-14.2924
絰	-14.2924
裯	-14.2924
怜	-14.2924
庀	-14.2925
墱	-14.2925
嚚	-14.2925
搪	-14.2925
暵	-14.2925
奰	-14.2925
瞹	-14.2925
粢	-14.2926
笮	-14.2926
灶	-14.2926
駊	-14.2926
㶘	-14.2926
芎	-14.2926
壵	-14.2926
籊	-14.2926
棙	-14.2927
澳	-14.2928
蚍	-14.2928
謎	-14.2928
􁢊	-14.2928
开	-14.2928
嬝	-14.2928
緌	-14.2928
褌	-14.2928
掐	-14.2928
埵	-14.2929
㓿	-14.2929
㠝	-14.2929
蠨	-14.2929
暏	-14.2929
韅	-14.293
筇	-14.2931
罡	-14.2931
羢	-14.2931
裌	-14.2931
蹢	-14.2931
伻	-14.2931
蛸	-14.2931
壡	-14.2931
茇	-14.2931
𡵨	-14.2931
峛	-14.2932
攏	-14.2932
勔	-14.2932
摐	-14.2932
蜊	-14.2932
􁀪	-14.2932
朌	-14.2932
軄	-14.2932
淊	-14.2932
衊	-14.2932
靷	-14.2933
稡	-14.2933
媟	-14.2933
甁	-14.2933
儛	-14.2933
蟫	-14.2933
慠	-14.2933
緦	-14.2933
𢡟	-14.2933
乕	-14.2933
躶	-14.2933
夅	-14.2935
㸦	-14.2935
欏	-14.2935
祲	-14.2935
㧗	-14.2935
喦	-14.2935
妵	-14.2935
薉	-14.2935
􁷾	-14.2936
􁑱	-14.2936
檆	-14.2936
懕	-14.2936
朤	-14.2936
栒	-14.2936
萑	-14.2936
圄	-14.2936
揞	-14.2936
麁	-14.2936
𤦺	-14.2936
櫋	-14.2937
荣	-14.2938
杷	-14.2938
茌	-14.2938
稏	-14.2938
巣	-14.2938
羖	-14.2938
崷	-14.2938
斨	-14.2939
驘	-14.2939
禖	-14.2939
斳	-14.2939
豉	-14.2939
柙	-14.2939
殍	-14.2939
禫	-14.2939
毺	-14.2939
蹺	-14.294
万	-14.294
咋	-14.294
猩	-14.294
袱	-14.294
埸	-14.294
侒	-14.294
鬈	-14.294
擧	-14.294
稈	-14.294
紩	-14.294
漯	-14.294
糢	-14.2941
蜎	-14.2942
姙	-14.2942
螿	-14.2942
啅	-14.2942
葠	-14.2942
剟	-14.2943
轥	-14.2943
攵	-14.2943
咩	-14.2943
鱓	-14.2943
􁅾	-14.2943
􁟆	-14.2943
􁃍	-14.2944
䝿	-14.2944
滽	-14.2944
撈	-14.2944
鐮	-14.2945
蠭	-14.2946
珌	-14.2946
駙	-14.2946
搵	-14.2946
嶙	-14.2946
檮	-14.2946
苪	-14.2946
鉸	-14.2946
衚	-14.2946
􁈞	-14.2946
檇	-14.2947
􁄕	-14.2947
跁	-14.2947
跒	-14.2947
蛀	-14.2947
捱	-14.2947
􁃊	-14.2947
􁈡	-14.2947
隹	-14.2948
秕	-14.2949
笵	-14.2949
谺	-14.2949
䪻	-14.2949
尿	-14.2949
弜	-14.2949
􁪕	-14.2949
渫	-14.295
呤	-14.295
跟	-14.295
酏	-14.295
􁚐	-14.295
鰻	-14.2951
犮	-14.2951
鐄	-14.2951
􁋆	-14.2953
巂	-14.2953
碔	-14.2953
鮚	-14.2953
栅	-14.2953
噭	-14.2953
迒	-14.2953
盙	-14.2953
鱨	-14.2953
瓴	-14.2954
㗋	-14.2954
嗥	-14.2954
勩	-14.2954
厷	-14.2954
奡	-14.2954
􁂁	-14.2954
椰	-14.2955
紾	-14.2955
傋	-14.2956
蘤	-14.2956
唆	-14.2956
餕	-14.2957
圩	-14.2957
埬	-14.2957
憀	-14.2957
鵯	-14.2957
􁄪	-14.2957
㟝	-14.2957
䯝	-14.2957
􁔷	-14.2957
蛭	-14.2958
䄡	-14.2958
僝	-14.2958
濾	-14.2958
湻	-14.2959
蓆	-14.296
𪠘	-14.296
蟈	-14.2961
灃	-14.2961
椹	-14.2961
髄	-14.2961
戠	-14.2962
痗	-14.2964
􁓒	-14.2964
􁓙	-14.2964
餡	-14.2967
穮	-14.2967
桱	-14.2967
樺	-14.2967
癃	-14.2968
蓘	-14.2968
嗄	-14.2968
鎕	-14.2968
煗	-14.2969
兑	-14.2973
捥	-14.2974
䋭	-14.2974
鷥	-14.2976
蠓	-14.2976
丢	-14.2976
蜴	-14.2976
䦧	-14.2978
逴	-14.2978
倞	-14.2978
餧	-14.2981
縡	-14.2981
纑	-14.2982
蜥	-14.2982
挱	-14.2987
窱	-14.2992
灂	-14.6159
湙	-14.6163
榽	-14.6169
橀	-14.6169
紜	-14.6179
㡡	-14.618
櫰	-14.6188
㸌	-14.6188
烻	-14.6188
磝	-14.6191
剸	-14.6191
崱	-14.6192
曯	-14.6194
堌	-14.6194
熇	-14.6195
睩	-14.6198
嶉	-14.6198
碨	-14.6203
凵	-14.6205
臩	-14.6205
匃	-14.6207
㡘	-14.6207
寍	-14.6209
俑	-14.6209
匸	-14.6209
癎	-14.6211
䀌	-14.6213
㕁	-14.6213
窾	-14.6215
㟏	-14.6215
倢	-14.6215
埩	-14.6215
臿	-14.6217
芼	-14.6217
笁	-14.6221
熁	-14.6223
卋	-14.6223
勥	-14.6224
湆	-14.6224
滀	-14.6224
櫑	-14.6226
佽	-14.6226
㵳	-14.6228
芤	-14.6228
䣊	-14.6228
惢	-14.6228
楗	-14.623
槱	-14.623
䨲	-14.623
茷	-14.623
旜	-14.6231
徔	-14.6232
曚	-14.6232
嘫	-14.6232
戵	-14.6232
丌	-14.6232
嚄	-14.6232
矰	-14.6232
䆫	-14.6232
莬	-14.6232
䎀	-14.6234
泆	-14.6234
㙱	-14.6234
姁	-14.6234
臛	-14.6234
薱	-14.6234
灎	-14.6236
梲	-14.6236
艴	-14.6236
弅	-14.6236
臕	-14.6236
晣	-14.6238
毵	-14.6238
狌	-14.6238
竆	-14.624
棸	-14.624
癉	-14.624
伭	-14.6242
崆	-14.6242
嚻	-14.6242
卍	-14.6242
扭	-14.6242
窹	-14.6242
㚟	-14.6242
処	-14.6242
很	-14.6242
捏	-14.6244
柝	-14.6244
毡	-14.6244
敳	-14.6244
櫽	-14.6244
䇲	-14.6244
玁	-14.6244
喛	-14.6244
庣	-14.6244
枇	-14.6244
竗	-14.6246
岓	-14.6246
卝	-14.6246
撣	-14.6246
涳	-14.6246
痱	-14.6246
盭	-14.6247
慗	-14.6248
凃	-14.6248
㻣	-14.6248
悕	-14.6248
焬	-14.6248
惮	-14.625
梣	-14.625
櫏	-14.625
崍	-14.625
扯	-14.6251
祍	-14.6251
丅	-14.6251
毨	-14.6251
湢	-14.6251
㹱	-14.6251
倗	-14.6251
熂	-14.6251
瞷	-14.6251
蔾	-14.6251
㻛	-14.6253
瀔	-14.6253
嵿	-14.6253
羑	-14.6253
丄	-14.6253
嶅	-14.6253
湞	-14.6255
糁	-14.6255
戻	-14.6255
蔲	-14.6255
碙	-14.6255
撏	-14.6255
楅	-14.6255
犄	-14.6255
䯳	-14.6255
妲	-14.6255
棵	-14.6255
墯	-14.6257
巎	-14.6257
烕	-14.6257
爫	-14.6257
獃	-14.6257
苡	-14.6257
儞	-14.6257
絏	-14.6257
恇	-14.6259
䀨	-14.6259
曏	-14.6259
慁	-14.6259
汕	-14.6259
䈥	-14.6259
匭	-14.6259
洏	-14.6259
緅	-14.6259
胊	-14.6259
炕	-14.6259
稘	-14.6259
鄶	-14.6259
箾	-14.6261
洼	-14.6261
荂	-14.6261
昡	-14.6261
烇	-14.6261
㒜	-14.6261
簨	-14.6261
竮	-14.6261
熳	-14.6262
糕	-14.6263
䘵	-14.6263
㩀	-14.6263
症	-14.6263
㼧	-14.6263
䙷	-14.6263
竛	-14.6263
犨	-14.6264
幬	-14.6265
湲	-14.6265
癬	-14.6265
秝	-14.6265
胏	-14.6265
哿	-14.6265
摎	-14.6265
眡	-14.6265
䀻	-14.6265
峘	-14.6265
㞳	-14.6265
廰	-14.6265
翍	-14.6265
愓	-14.6265
叜	-14.6267
呺	-14.6267
枓	-14.6267
䂬	-14.6267
幺	-14.6267
涣	-14.6267
敀	-14.6267
瓽	-14.6269
摉	-14.6269
穄	-14.627
呀	-14.6271
睟	-14.6271
祔	-14.6271
摑	-14.6271
菂	-14.6271
䄷	-14.6271
楕	-14.6271
祴	-14.6271
亖	-14.6272
䁑	-14.6272
筳	-14.6272
棡	-14.6273
犛	-14.6273
䔒	-14.6273
昰	-14.6273
芴	-14.6273
欸	-14.6273
㦃	-14.6273
罳	-14.6273
綀	-14.6274
咦	-14.6275
痣	-14.6275
㜻	-14.6275
堮	-14.6275
嬀	-14.6276
戃	-14.6276
揑	-14.6276
肫	-14.6276
䆉	-14.6277
娖	-14.6277
棉	-14.6277
嶕	-14.6278
瘻	-14.6278
凳	-14.6278
仳	-14.6278
熯	-14.6278
耏	-14.6278
欃	-14.628
崝	-14.628
舵	-14.628
慲	-14.628
粺	-14.628
䇢	-14.6281
䀝	-14.6282
玳	-14.6282
耙	-14.6282
忪	-14.6282
晸	-14.6282
蒺	-14.6282
瑎	-14.6282
盋	-14.6282
晅	-14.6283
窔	-14.6284
槪	-14.6284
俌	-14.6284
棁	-14.6284
綎	-14.6284
?	-14.6284
涬	-14.6284
瓷	-14.6284
髣	-14.6284
晌	-14.6286
櫹	-14.6286
岔	-14.6286
籣	-14.6286
侫	-14.6286
焲	-14.6286
獫	-14.6288
䆋	-14.6288
奫	-14.6288
㫒	-14.629
翃	-14.629
䣸	-14.629
姤	-14.629
嘱	-14.629
矙	-14.629
媽	-14.629
寎	-14.629
柜	-14.629
惄	-14.6292
爺	-14.6292
奓	-14.6292
咷	-14.6294
紝	-14.6294
逶	-14.6296
䤔	-14.6296
惣	-14.6296
䄄	-14.6296
淟	-14.6296
瑽	-14.6296
姍	-14.6296
攃	-14.6298
匼	-14.6298
戳	-14.6298
珸	-14.6299
刖	-14.63
晾	-14.63
稑	-14.63
緤	-14.63
篸	-14.63
宄	-14.6301
桚	-14.6302
满	-14.6302
劓	-14.6303
歠	-14.6303
歈	-14.6304
瞇	-14.6304
傃	-14.6305
塩	-14.6305
痞	-14.6307
票	-14.6307
祦	-14.6307
嫕	-14.6307
憭	-14.6309
䟱	-14.6309
冖	-14.6313
䤋	-14.6313
傔	-14.6315
嚘	-14.6317
盬	-14.632
弍	-14.6321
响	-14.6321
狺	-14.6325
咻	-14.6332
薖	-14.6346
瑙	-15.1204
惆	-15.1223
嚌	-15.1223
蛄	-15.1229
噲	-15.1242
鶒	-15.1245
菩	-15.1257
徜	-15.1264
芡	-15.1264
嘖	-15.1264
睥	-15.127
繐	-15.1274
蛺	-15.1279
鶺	-15.1283
鴣	-15.1289
崢	-15.1299
翡	-16.1139
薔	-16.115
鴝	-16.1206
徘	-16.123
薎	-16.1235
葧	-16.1236
莝	-16.1237
繜	-16.1238
秌	-16.1239
碐	-16.124
瑝	-16.1241
獦	-16.1242
燻	-16.1243
漘	-16.1244
滭	-16.1245
櫧	-16.1246
峋	-16.1246
梡	-16.1247
擉	-16.1248
掙	-16.1249
㥏	-16.125
遬	-16.1251
躒	-16.1252
躃	-16.1253
蚛	-16.1254
鵡	-16.1254
臊	-16.1254
蘦	-16.1255
胾	-16.1256
皝	-16.1257
狒	-16.1258
浛	-16.1259
榠	-16.126
撱	-16.1261
墦	-16.1262
咱	-16.1263
叐	-16.1264
䰩	-16.1265
䧢	-16.1266
䟎	-16.1267
㡠	-16.1268
閂	-16.1269
摤	-16.127
挶	-16.1271
愫	-16.1272
嫳	-16.1273
囈	-16.1274
㕙	-16.1275
鱻	-16.1276
騝	-16.1277
腿	-16.1278
簹	-16.1278
礌	-16.1279
璥	-16.128
湝	-16.1281
涀	-16.1282
柤	-16.1283
崪	-16.1284
咥	-16.1285
䧕	-16.1286
雰	-16.1287
爌	-16.1288
曮	-16.1289
鰿	-16.129
鯚	-16.1291
轔	-16.1292
畇	-16.1293
嘽	-16.1294
欖	-16.1295
嵫	-16.1296
鳷	-16.1297
饅	-16.1298
飁	-16.1299
酊	-16.13
邡	-16.1301
臃	-16.1302
箜	-16.1303
毸	-16.1304
毰	-16.1305
𩕳	-16.1306
騵	-16.1307
觿	-16.1308
蟪	-16.1309
涒	-16.131
楧	-16.1311
徬	-16.1312
嫄	-16.1313
䕷	-16.1314
魎	-16.1315
魍	-16.1316
歅	-16.1317
栴	-16.1318
蒹	-16.1318
拮	-16.1319
嗢	-16.132
剞	-16.1321
仃	-16.1322
㙔	-16.1323
鸑	-16.1324
揶	-16.1325
儃	-16.1326
謦	-16.1327
硫	-16.1328
涑	-16.1329
鶄	-16.133
鵁	-16.1331
邙	-16.1332
崡	-16.1333
崚	-16.1334
侖	-16.1335
愀	-16.1336
塿	-16.1337
䊸	-16.1338
艋	-16.1339
舴	-16.134
旖	-16.1341
繾	-16.1342
綣	-16.1343
姮	-16.1344
蓿	-16.1345
茴	-16.1346
苜	-16.1347
娬	-16.1348
燹	-16.1348
嚳	-16.1349
㶑	-16.135
婕	-16.1351
倀	-16.1352
䃲	-16.1353
柚	-16.1354
骷	-16.1355
鐎	-16.1356
嫦	-16.1357
葒	-16.1358
菖	-16.1359
檎	-16.136
粃	-16.1361
峥	-16.1362
倆	-16.1363
齯	-16.1364
葫	-16.1365
狽	-16.1366
牾	-16.1367
憮	-16.1368
髑	-16.1369
揄	-16.137
婷	-16.1371
袈	-16.1372
茯	-16.1373
邽	-16.1374
矻	-16.1375
婀	-16.1376
鸜	-16.1377
嶇	-16.1378
侂	-16.1379
胭	-16.138
沄	-16.1381
髏	-16.1382
靂	-16.1383
邂	-16.1384
逅	-16.1385
挲	-16.1386
頏	-16.1387
琵	-16.1388
慷	-16.1389
鵓	-16.139
膀	-16.1391
髴	-16.1391
