<unk>	0
<s>	0
</s>	0
之	-3.78047
也	-3.9083
而	-4.17419
者	-4.48802
以	-4.5489
則	-4.60558
為	-4.77951
其	-4.84295
(	-4.90913
有	-4.91119
)	-4.96274
不	-4.9753
是	-5.02781
於	-5.08443
言	-5.15328
曰	-5.17813
人	-5.36673
矣	-5.44759
此	-5.46524
無	-5.47116
故	-5.51313
與	-5.52833
然	-5.65764
一	-5.66786
○	-5.72207
自	-5.7294
如	-5.72948
非	-5.75901
亦	-5.78066
乎	-5.79046
謂	-5.79196
皆	-5.93688
事	-5.96841
知	-5.9731
得	-5.97889
在	-5.98561
行	-6.0214
見	-6.02535
至	-6.06999
所	-6.09583
若	-6.10568
又	-6.11201
大	-6.14162
道	-6.15997
字	-6.16288
子	-6.16475
必	-6.16682
處	-6.17558
心	-6.20058
已	-6.21605
云	-6.22929
上	-6.22994
説	-6.25802
能	-6.25877
當	-6.29356
所以	-6.29419
問	-6.31259
中	-6.32279
正	-6.327
雖	-6.35108
時	-6.35521
欲	-6.35918
孟子	-6.36495
孔子	-6.38003
用	-6.38176
下	-6.3858
可	-6.39856
聖人	-6.41513
反	-6.4297
耳	-6.43191
所謂	-6.43558
禮	-6.44432
焉	-6.44695
即	-6.46665
意	-6.47499
明	-6.49009
乃	-6.49367
仁	-6.49802
爲	-6.51029
使	-6.51848
▁	-6.52439
學	-6.52794
民	-6.53293
王	-6.55535
哉	-6.56195
義	-6.56809
本	-6.57295
不可	-6.57658
而不	-6.58687
同	-6.58839
君	-6.59314
以為	-6.61806
猶	-6.6399
樂	-6.64552
不能	-6.64579
我	-6.64796
君子	-6.65612
出	-6.67436
如此	-6.68245
夫子	-6.68818
文	-6.68993
善	-6.70884
三	-6.71225
生	-6.71725
天	-6.72407
夫	-6.72832
相	-6.72975
作	-6.74284
或	-6.74304
章	-6.74819
去	-6.754
從	-6.75865
名	-6.76101
之意	-6.76537
蓋	-6.76614
既	-6.77184
何	-6.77305
未	-6.77484
便	-6.79306
先	-6.81575
今	-6.82684
盡	-6.83882
成	-6.83903
說	-6.8424
後	-6.84284
者也	-6.84326
方	-6.84797
但	-6.85605
而已	-6.85888
國	-6.86811
理	-6.87289
吾	-6.88088
立	-6.88263
易	-6.88682
實	-6.88907
公	-6.90306
小	-6.90799
惟	-6.91693
物	-6.92028
及	-6.93724
惡	-6.94458
固	-6.94752
己	-6.96871
天下	-6.97394
安	-6.97523
來	-6.97849
音	-6.97858
敬	-6.99064
食	-6.99624
因	-6.9998
求	-7.0017
二	-7.00384
子曰	-7.00628
氣	-7.01298
分	-7.01696
論	-7.01864
徳	-7.01989
多	-7.02035
通	-7.02057
信	-7.0229
世	-7.02413
要	-7.02965
不知	-7.02972
取	-7.03057
盖	-7.03319
于	-7.05797
性	-7.05999
)○	-7.06615
節	-7.06846
將	-7.07143
居	-7.07269
且	-7.07328
難	-7.0738
命	-7.07572
好	-7.10091
齊	-7.10421
常	-7.10744
書	-7.11051
身	-7.11438
過	-7.13047
臣	-7.1329
思	-7.13324
周	-7.13327
士	-7.13781
重	-7.13794
語	-7.14486
之事	-7.15048
,	-7.15165
死	-7.15626
長	-7.15724
合	-7.15944
外	-7.16167
五	-7.16688
/	-7.16816
不得	-7.17338
志	-7.17708
四	-7.179
誠	-7.18196
直	-7.18214
治	-7.18755
深	-7.19251
聖	-7.20927
只	-7.21114
動	-7.2113
賢	-7.2124
他	-7.21437
學者	-7.21476
豈	-7.22186
只是	-7.23234
師	-7.23243
法	-7.23543
始	-7.23805
就	-7.24104
聞	-7.24116
稱	-7.24702
可以	-7.24793
入	-7.25079
發	-7.25234
舜	-7.25512
舉	-7.2591
指	-7.27527
日	-7.27909
之心	-7.28051
親	-7.28111
人之	-7.28238
由	-7.28372
了	-7.28377
利	-7.28415
凡	-7.2945
至於	-7.30002
地	-7.30583
切	-7.31288
又曰	-7.31494
德	-7.31663
教	-7.3232
復	-7.32719
獨	-7.32727
傳	-7.33578
疑	-7.34097
此章	-7.34565
魯	-7.35316
之道	-7.36071
亂	-7.36537
而後	-7.3724
内	-7.37277
止	-7.37512
甚	-7.39583
似	-7.39602
主	-7.39607
觀	-7.40417
致	-7.40522
諸侯	-7.41175
謂之	-7.41306
注	-7.41675
諸	-7.41892
終	-7.41935
力	-7.41996
前	-7.42663
經	-7.43316
極	-7.44241
兩	-7.44439
註	-7.44612
和	-7.4512
逺	-7.45156
祭	-7.45199
便是	-7.45555
家	-7.4606
服	-7.46086
辭	-7.46439
兼	-7.46874
體	-7.47418
不同	-7.47795
彼	-7.48137
中庸	-7.4931
養	-7.49489
異	-7.49564
進	-7.49693
解	-7.51116
守	-7.51133
故曰	-7.51222
愛	-7.51491
數	-7.51829
失	-7.51979
去聲	-7.52148
葢	-7.52438
近	-7.52472
受	-7.52536
爾	-7.52637
詩	-7.52677
子路	-7.53024
宜	-7.53385
少	-7.53397
衆	-7.53923
政	-7.53968
其所	-7.54459
全	-7.54832
位	-7.5508
存	-7.55302
著	-7.55697
父	-7.56095
朝	-7.56587
大夫	-7.57719
對	-7.57754
推	-7.58073
歸	-7.58123
言之	-7.5818
孟子曰	-7.58461
視	-7.59209
而言	-7.59222
色	-7.59257
變	-7.59395
定	-7.59511
有所	-7.60217
遂	-7.60478
古	-7.60679
制	-7.61628
之間	-7.61974
之説	-7.62185
水	-7.62745
氏	-7.6276
之所	-7.62849
看	-7.64117
無所	-7.64507
不足	-7.64912
各	-7.65636
九	-7.65903
加	-7.66064
足	-7.66133
之言	-7.66286
平	-7.66452
益	-7.67355
尚	-7.6759
孝	-7.67723
引	-7.68264
髙	-7.68428
喪	-7.68962
智	-7.69019
容	-7.69482
才	-7.69706
却	-7.70345
尊	-7.70429
然後	-7.70943
執	-7.71226
順	-7.71601
斯	-7.72272
而無	-7.72724
於此	-7.73166
化	-7.73524
子貢	-7.74215
勝	-7.74699
或問	-7.75652
程子	-7.75795
須	-7.7592
門	-7.76287
起	-7.76512
小人	-7.76541
忠	-7.76553
美	-7.76669
達	-7.7686
情	-7.772
六	-7.77785
亡	-7.77983
殺	-7.78222
年	-7.79243
朱子	-7.80284
嘗	-7.8031
天子	-7.80502
文王	-7.80782
山	-7.80932
精	-7.81117
自然	-7.81149
篇	-7.8125
原	-7.82045
也故	-7.82316
衣	-7.82408
莫	-7.83068
末	-7.84078
質	-7.84178
集註	-7.84258
告	-7.84569
之時	-7.84823
比	-7.85232
朱子曰	-7.85234
是以	-7.85521
陳	-7.8556
害	-7.85864
形	-7.85874
神	-7.86257
厚	-7.86258
間	-7.87224
病	-7.8725
之中	-7.87375
勇	-7.876
仁者	-7.88442
恐	-7.88722
唯	-7.88808
天理	-7.88891
初	-7.88954
仕	-7.89162
是也	-7.89439
如何	-7.89505
别	-7.89696
交	-7.89742
憂	-7.89882
東	-7.90141
工夫	-7.90897
疏	-7.90955
詳	-7.91446
真	-7.91669
私	-7.92048
等	-7.92138
任	-7.92142
之理	-7.92253
察	-7.9267
權	-7.92922
友	-7.93014
更	-7.93083
窮	-7.93102
興	-7.93237
其心	-7.93362
田	-7.9384
都	-7.9459
往	-7.94674
官	-7.95024
仁義	-7.95039
程子曰	-7.95307
應	-7.95462
這	-7.95737
必有	-7.9579
流	-7.95958
識	-7.96095
備	-7.96784
屬	-7.96882
論語	-7.97256
度	-7.97483
疾	-7.97509
廣	-7.97676
)(	-7.97691
習	-7.98005
苟	-7.98086
按	-7.98109
宋	-7.9851
器	-7.98551
老	-7.99255
尤	-7.99314
徒	-7.99377
射	-7.99504
做	-7.99849
不必	-7.99895
輕	-7.99974
辨	-8.00051
百	-8.00089
强	-8.00128
放	-8.00314
到	-8.00665
絶	-8.01226
天地	-8.01249
以其	-8.0176
次	-8.02002
天下之	-8.02019
釋	-8.02462
不是	-8.02522
夏	-8.02756
功	-8.02805
邪	-8.0286
伐	-8.03141
據	-8.03164
適	-8.03595
顔子	-8.03921
南	-8.04035
予	-8.04224
何以	-8.0426
二字	-8.05267
大學	-8.05559
室	-8.05756
輔氏曰	-8.05985
足以	-8.06049
聲	-8.06174
施	-8.06228
愚	-8.06516
楚	-8.0658
商	-8.07087
讀	-8.07508
特	-8.07601
不敢	-8.07666
記	-8.07843
春秋	-8.08032
的	-8.08288
車	-8.08417
之義	-8.08436
考	-8.08528
怨	-8.0881
之說	-8.08864
改	-8.08901
恕	-8.0893
聖賢	-8.09408
謹	-8.09511
微	-8.10313
無不	-8.10773
修	-8.10942
知其	-8.10968
虚	-8.11134
令	-8.11217
禄	-8.11243
簡	-8.11351
愈	-8.11392
可見	-8.11438
之功	-8.11659
堯舜	-8.11864
盛	-8.11928
俱	-8.12054
果	-8.12107
不及	-8.12119
辟	-8.12226
木	-8.12463
富	-8.12473
則是	-8.12486
元	-8.12602
未嘗	-8.12745
亦有	-8.12891
卒	-8.13037
向	-8.13288
類	-8.13586
克	-8.1365
專	-8.13803
周公	-8.13999
待	-8.14203
十	-8.14331
最	-8.14426
七	-8.14456
不以	-8.14514
聽	-8.14594
可謂	-8.15382
勉	-8.15399
太	-8.15552
風	-8.15617
之人	-8.1569
為之	-8.15781
也然	-8.15886
右	-8.16014
馬	-8.16153
具	-8.16271
貴	-8.1639
而已矣	-8.16446
當時	-8.1649
口	-8.16616
請	-8.16865
傷	-8.16884
則其	-8.17013
不可以	-8.17267
人心	-8.1732
底	-8.17536
萬	-8.17574
勿	-8.17608
不為	-8.17777
㑹	-8.18311
子思	-8.18382
禮樂	-8.18908
。	-8.19264
並	-8.19655
約	-8.19673
責	-8.19717
章句	-8.19791
見其	-8.21025
伯	-8.21118
開	-8.21326
序	-8.2145
目	-8.21728
廟	-8.221
扵	-8.22818
務	-8.22973
久	-8.23174
聖人之	-8.2401
餘	-8.24028
隠	-8.24326
設	-8.24546
月	-8.24623
象	-8.24627
舊	-8.25527
講	-8.25863
行之	-8.26267
偏	-8.26287
陽	-8.26343
依	-8.26404
畏	-8.26433
廢	-8.26567
八	-8.26765
下文	-8.26862
西	-8.2713
邑	-8.27286
之後	-8.27773
知之	-8.27997
有以	-8.28066
首	-8.28191
患	-8.28271
素	-8.28417
武	-8.28417
隱	-8.28439
弟	-8.28601
之類	-8.28728
以下	-8.28965
道之	-8.28975
兵	-8.2921
見得	-8.29429
漢	-8.29516
舍	-8.29557
幾	-8.29658
斷	-8.29674
帝	-8.29769
喜	-8.29932
季氏	-8.30008
此心	-8.302
言其	-8.30304
張	-8.30563
之謂	-8.30645
喻	-8.30665
路	-8.30836
玉	-8.30981
上下	-8.31081
感	-8.31786
勞	-8.31889
離	-8.32177
句	-8.32345
謀	-8.3244
弟子	-8.32735
熟	-8.32811
也若	-8.32954
共	-8.33085
宗	-8.33165
戒	-8.33216
味	-8.33236
以此	-8.33323
父母	-8.33722
皆是	-8.34217
堯	-8.34259
然則	-8.34499
恭	-8.35025
隨	-8.35342
此言	-8.35456
卷	-8.355
不仁	-8.35507
未有	-8.3558
助	-8.35643
矣然	-8.35734
衰	-8.3575
讓	-8.35846
耶	-8.35984
者亦	-8.3606
里	-8.36292
否	-8.36422
高	-8.36504
望	-8.36735
得之	-8.36963
顯	-8.37052
賦	-8.3706
弗	-8.37178
哀	-8.37199
白	-8.37212
端	-8.37241
武王	-8.37273
戰	-8.37284
薄	-8.37496
出於	-8.37776
條	-8.37816
晉	-8.37848
衛	-8.38012
清	-8.38057
湯	-8.38268
卑	-8.384
載	-8.38576
况	-8.38618
土	-8.391
孰	-8.39133
財	-8.39473
不待	-8.39819
:「	-8.39954
卿	-8.39963
擇	-8.4008
秦	-8.4011
暴	-8.40288
旣	-8.40416
於人	-8.40447
計	-8.40492
使之	-8.40672
其言	-8.40875
曽子	-8.40976
退	-8.40976
遺	-8.419
答	-8.42113
封	-8.42198
充	-8.42314
箇	-8.42363
也云	-8.42566
積	-8.42622
金	-8.4269
之實	-8.42691
罪	-8.42858
道理	-8.42886
一事	-8.4292
息	-8.43047
逆	-8.431
禹	-8.43107
敎	-8.43178
繼	-8.43332
孫	-8.4334
量	-8.43536
違	-8.43591
来	-8.43828
冠	-8.4402
之禮	-8.44272
女	-8.44631
費	-8.44685
博	-8.44722
耕	-8.44812
道也	-8.44914
承	-8.44973
三年	-8.45144
北	-8.45575
後世	-8.46083
之學	-8.46268
覺	-8.46343
人也	-8.46441
為仁	-8.46474
之地	-8.46683
夷	-8.46757
一句	-8.46954
怒	-8.47125
亦不	-8.47166
審	-8.47323
嚴	-8.47777
其事	-8.48017
慮	-8.48019
持	-8.48185
勢	-8.48264
新	-8.48354
也言	-8.48373
賢者	-8.48507
鬼神	-8.48567
管仲	-8.48635
總	-8.48966
曲	-8.49028
儀	-8.4919
訓	-8.49632
萬物	-8.49671
賤	-8.49699
新安陳氏曰	-8.49989
徃	-8.50098
細	-8.50258
述	-8.50324
藏	-8.50375
差	-8.50458
恥	-8.50589
殷	-8.50657
不如	-8.51016
顧	-8.51102
得其	-8.51151
蔽	-8.51155
告子	-8.51199
鄭	-8.51321
急	-8.51322
不見	-8.51427
祖	-8.51502
巳	-8.51606
不然	-8.5172
坐	-8.51734
不過	-8.51786
牛	-8.51836
者皆	-8.51939
也夫	-8.51943
脩	-8.52539
而不知	-8.5259
惑	-8.52591
俗	-8.52598
其身	-8.52614
為政	-8.52683
忘	-8.52715
為人	-8.52877
仲	-8.52905
之所以	-8.52958
手	-8.53132
自有	-8.53274
周禮	-8.53338
也此	-8.53603
賊	-8.53665
可也	-8.53795
姓	-8.53947
其實	-8.5423
㣲	-8.54294
子夏	-8.54592
井	-8.54671
悦	-8.54777
危	-8.54821
史	-8.54938
則不	-8.55143
曾子	-8.55155
率	-8.55169
叔	-8.55252
至誠	-8.55592
所以為	-8.55626
古人	-8.55803
民之	-8.55858
則有	-8.56071
門人	-8.5609
懼	-8.56207
賜	-8.56222
雖有	-8.56307
濟	-8.56575
而不能	-8.56592
敢	-8.56642
梁	-8.56789
未能	-8.56822
誤	-8.56863
亦是	-8.56911
包	-8.57228
為善	-8.57403
惠	-8.57455
虞	-8.57491
専	-8.57514
格	-8.57545
鄉	-8.57569
兄弟	-8.57586
不足以	-8.57962
歎	-8.58079
君臣	-8.58177
於是	-8.58472
而有	-8.58503
那	-8.5879
舎	-8.58801
邦	-8.58803
肉	-8.59063
召	-8.5926
忠信	-8.59414
孔	-8.59433
兄	-8.59529
逹	-8.59615
寡	-8.59877
之際	-8.60368
君子之	-8.60458
剛	-8.60465
避	-8.60532
之法	-8.60542
刑	-8.61014
闕	-8.61139
期	-8.6117
其意	-8.61463
慎	-8.6154
使人	-8.62033
造	-8.623
仲尼	-8.623
上文	-8.62484
千	-8.62916
統	-8.63104
天命	-8.63173
嵗	-8.63175
散	-8.63571
奪	-8.63702
之辭	-8.63791
即是	-8.64258
妄	-8.64276
趨	-8.64323
竊	-8.64493
侯	-8.64712
面	-8.64746
歟	-8.64773
則又	-8.64817
見於	-8.64871
救	-8.64916
昭	-8.65124
接	-8.65268
代	-8.65326
爵	-8.65454
将	-8.65763
如是	-8.65851
氏曰	-8.65875
貧	-8.65964
假	-8.65991
棄	-8.66167
義理	-8.66216
業	-8.66255
之外	-8.66404
尺	-8.66573
純	-8.66583
滅	-8.66587
貫	-8.66704
省	-8.66768
遷	-8.66838
忽	-8.66931
拜	-8.67087
子張	-8.67226
孝弟	-8.67241
良	-8.67341
徹	-8.67458
證	-8.67751
胡氏曰	-8.67771
列	-8.67827
有餘	-8.68248
不善	-8.68503
夫子之	-8.68622
二者	-8.68622
頭	-8.68691
乆	-8.68916
許	-8.68983
用之	-8.69018
參	-8.69137
未必	-8.69274
移	-8.69347
遇	-8.69463
澤	-8.69611
再	-8.6968
諫	-8.6997
偽	-8.7019
申	-8.70533
孔子曰	-8.7059
速	-8.70653
庸	-8.70658
好惡	-8.71037
富貴	-8.71042
與之	-8.71575
升	-8.71616
職	-8.71767
孟	-8.71787
故夫子	-8.71869
強	-8.71945
臨	-8.71975
空	-8.7201
州	-8.72078
誠意	-8.72249
可知	-8.72253
介	-8.7236
置	-8.72371
其所以	-8.72398
補	-8.72433
失之	-8.7251
篤	-8.72595
乎曰	-8.7291
略	-8.73031
通曰	-8.73196
左	-8.73447
宫	-8.74137
以爲	-8.74415
伊尹	-8.74421
寛	-8.74438
布	-8.74566
豈不	-8.7468
附	-8.74748
者必	-8.748
修身	-8.74815
不當	-8.74839
念	-8.74882
纔	-8.74907
此是	-8.74967
又有	-8.7505
顔淵	-8.75221
殊	-8.75366
及其	-8.75434
古之	-8.75697
氣質	-8.75746
史記	-8.75993
石	-8.76259
求之	-8.76259
無以	-8.76343
乘	-8.76382
抑	-8.76628
征	-8.76638
則無	-8.76736
之於	-8.7684
人君	-8.76903
何如	-8.76956
妻	-8.76985
不行	-8.77063
黨	-8.77083
乗	-8.77255
朋友	-8.77296
城	-8.77637
歌	-8.77647
而又	-8.77664
飾	-8.77669
保	-8.77725
降	-8.7774
勸	-8.77916
矣故	-8.78282
春	-8.78328
燕	-8.78517
忍	-8.78989
覆	-8.79107
不忍	-8.79107
誰	-8.79299
知者	-8.7932
何也曰	-8.79321
被	-8.79366
循	-8.794
堂	-8.79445
厲	-8.79478
授	-8.79517
教人	-8.79657
之本	-8.79719
而能	-8.79924
不容	-8.80092
曉	-8.80138
母	-8.8034
河	-8.80377
至此	-8.80414
願	-8.80431
君之	-8.80654
案	-8.8075
皆有	-8.81013
該	-8.81062
一日	-8.81074
忠恕	-8.81176
語録曰	-8.8136
人之所	-8.81685
其本	-8.81713
不在	-8.81787
縣	-8.82118
貌	-8.82345
享	-8.82465
奉	-8.82618
欲其	-8.82822
眀	-8.82923
淺	-8.82952
則亦	-8.82972
告之	-8.83127
祀	-8.83242
氣象	-8.83279
於心	-8.83279
爭	-8.83331
此意	-8.83336
典	-8.83376
敗	-8.83481
一節	-8.83692
不欲	-8.83699
羣	-8.83955
也蓋	-8.84033
二句	-8.84104
各有	-8.84129
是非	-8.84257
内外	-8.84445
百姓	-8.84463
荅	-8.84487
屈	-8.84617
齊王	-8.84673
二十	-8.84686
均	-8.84815
丘	-8.85157
如此則	-8.85211
事君	-8.85278
報	-8.85468
決	-8.85714
此理	-8.85717
妙	-8.8579
火	-8.85817
温	-8.85881
之分	-8.85921
議	-8.86059
魏	-8.8607
飲	-8.86074
野	-8.86241
市	-8.86285
楊氏	-8.86314
先生	-8.86439
欺	-8.86638
把	-8.86949
畧	-8.86979
儒	-8.87184
半	-8.87189
亦非	-8.8722
恩	-8.87253
者非	-8.87318
驕	-8.87523
其君	-8.87552
轉	-8.87631
學問	-8.87634
雜	-8.8767
不正	-8.87692
學之	-8.87737
除	-8.87783
莊	-8.87801
一人	-8.87908
衞	-8.88008
冕	-8.88129
藝	-8.88146
固有	-8.88179
辯	-8.88252
乎此	-8.88456
運	-8.88463
衆人	-8.88488
須是	-8.89171
語録	-8.8936
終身	-8.89451
而行	-8.89462
上聲	-8.89576
術	-8.89768
借	-8.89861
所當	-8.89937
連	-8.89978
效	-8.90078
則必	-8.90144
不言	-8.90248
𤼵	-8.90297
慶源輔氏曰	-8.9031
根	-8.90318
攻	-8.90369
奚	-8.90428
其理	-8.90609
免	-8.90769
余	-8.90794
倫	-8.91125
或曰	-8.91162
謙	-8.91189
性之	-8.91193
莫不	-8.91341
紂	-8.91384
禍	-8.91384
輕重	-8.91393
䘮	-8.91462
威	-8.9148
也今	-8.91491
示	-8.91502
肆	-8.91562
遜	-8.9164
然而	-8.91671
漸	-8.91737
還	-8.91756
父子	-8.9176
每	-8.91763
先王	-8.91799
善惡	-8.91882
見之	-8.91959
困	-8.91992
所言	-8.92031
堅	-8.92101
錯	-8.92114
愚謂	-8.92121
昔	-8.92142
大抵	-8.92152
隂	-8.92216
犯	-8.92307
仁也	-8.92526
季	-8.9258
子之	-8.92637
掌	-8.92742
無窮	-8.92762
畢	-8.92764
魚	-8.92858
而為	-8.92887
庶	-8.92941
遠	-8.9297
工	-8.93208
集	-8.93333
第	-8.93393
閒	-8.93521
靈	-8.93525
私意	-8.93592
迹	-8.93608
回	-8.93723
驗	-8.9374
此則	-8.93746
表	-8.93841
歴	-8.93842
役	-8.93845
潔	-8.93939
今之	-8.94132
觀之	-8.94224
陳氏曰	-8.94311
姑	-8.94404
何也	-8.94621
於天下	-8.94664
者言	-8.949
拘	-8.94909
警	-8.94928
光	-8.94957
五十	-8.95006
譏	-8.95073
越	-8.95156
賓	-8.95199
誅	-8.95515
源	-8.95515
不相	-8.95588
悟	-8.95645
不復	-8.9569
恱	-8.95696
與人	-8.95811
聚	-8.95824
之事也	-8.95876
之名	-8.95937
故云	-8.95984
主於	-8.96021
左傳	-8.96065
人所	-8.96112
倍	-8.96204
自是	-8.96265
在我	-8.96881
三者	-8.96925
祿	-8.96995
儉	-8.97351
種	-8.97354
畫	-8.9755
事親	-8.97595
建	-8.97656
御	-8.97657
焉則	-8.97898
孟子言	-8.97901
損	-8.97944
推之	-8.98165
之大	-8.98258
不明	-8.98447
材	-8.98618
大人	-8.98743
古者	-8.98754
貪	-8.98855
玩	-8.98935
陵	-8.98958
懐	-8.99012
淫	-8.9907
較	-8.9908
聘	-8.9915
蔡	-8.99267
以禮	-8.99309
慕	-8.99333
酒	-8.99487
飲食	-8.99505
華	-8.99515
葬	-8.99595
海	-8.99619
皆以	-8.99622
無所不	-8.99824
四者	-8.99844
禽獸	-8.99904
淵	-8.99963
結	-9.00145
唐	-9.00505
天之	-9.00683
苦	-9.00698
鮮	-9.00748
非謂	-9.00759
賈	-9.0091
豈有	-9.01114
輔	-9.01209
翼註曰	-9.01317
郊	-9.01346
徳之	-9.01349
於我	-9.01359
寧	-9.01459
人皆	-9.01589
破	-9.01696
言也	-9.02009
農	-9.02021
他人	-9.02102
取之	-9.02139
其道	-9.02169
狂	-9.0226
也曰	-9.02295
況	-9.02379
而非	-9.02495
若是	-9.02546
不可不	-9.02668
汝	-9.02846
慈	-9.02868
窮理	-9.02869
之士	-9.0293
者則	-9.0296
二子	-9.03119
靜	-9.03214
有此	-9.03266
其志	-9.03302
自家	-9.03314
佞	-9.03461
之至	-9.03546
之道也	-9.03639
草	-9.03702
言之則	-9.03714
留	-9.03733
發明	-9.03793
之徒	-9.03847
一箇	-9.04129
舜之	-9.04203
矜	-9.04245
好學	-9.04278
禘	-9.04284
善人	-9.04375
其中	-9.04415
天道	-9.04506
昏	-9.04548
毁	-9.04678
不肯	-9.04834
干	-9.04868
以求	-9.05071
辱	-9.05164
關	-9.05493
相似	-9.05599
先後	-9.05647
司	-9.05664
使民	-9.05759
曽	-9.05853
配	-9.05887
受之	-9.05889
伯夷	-9.05956
孔子之	-9.06019
分明	-9.06135
賔	-9.06221
追	-9.06241
宰	-9.06259
文公	-9.06436
不用	-9.06598
以明	-9.06805
討	-9.06845
用力	-9.06864
游	-9.0696
操	-9.06967
説得	-9.06993
殆	-9.07011
負	-9.07026
本末	-9.07034
在其中	-9.07327
正是	-9.07341
泰	-9.07343
滕	-9.07558
羊	-9.07597
三十	-9.07631
全體	-9.07834
失其	-9.07961
人欲	-9.07995
背	-9.08004
秋	-9.08029
巧	-9.08198
在於	-9.08255
虛	-9.08273
新民	-9.08563
於己	-9.08738
有天下	-9.08752
資	-9.0885
力行	-9.0892
無非	-9.09128
矣此	-9.09179
逐	-9.09258
譽	-9.09268
之徳	-9.09283
李	-9.0933
静	-9.09435
社	-9.09642
悔	-9.09683
鄙	-9.09746
其為	-9.09747
三子	-9.09939
致知	-9.09987
教之	-9.10043
密	-9.10076
如之何	-9.10101
夫人	-9.1011
累	-9.10198
不若	-9.10245
禮義	-9.10293
言語	-9.10306
眞	-9.10385
之志	-9.10449
有道	-9.10509
茍	-9.10553
格物	-9.10633
號	-9.10672
亦可	-9.10738
一章	-9.10758
故以	-9.10905
之失	-9.10906
㸃	-9.11021
履	-9.11031
觀其	-9.11164
曾	-9.11212
平聲	-9.11224
安得	-9.1123
也盖	-9.11298
則為	-9.11405
蒙引	-9.11437
於外	-9.11469
人倫	-9.11473
縱	-9.11531
黄	-9.11531
不與	-9.11712
胡	-9.11807
踐	-9.1182
而自	-9.1185
平日	-9.11878
收	-9.1188
因其	-9.11923
四十	-9.11951
會	-9.12237
懷	-9.12298
掩	-9.12608
塞	-9.12626
今日	-9.12633
吕	-9.12703
并	-9.12766
親親	-9.12782
物之	-9.12965
圖	-9.13045
粟	-9.13076
王者	-9.13245
取其	-9.13324
註云	-9.13357
龍	-9.13397
本文	-9.13533
不至	-9.13597
曰吾	-9.13715
尹氏曰	-9.13843
程	-9.13898
而不可	-9.14029
故其	-9.14037
紀	-9.14063
機	-9.14076
譬	-9.14257
則知	-9.14318
人情	-9.14423
敵	-9.14694
帶	-9.14739
心之	-9.14956
然其	-9.15038
衡	-9.15415
敏	-9.15427
於民	-9.15533
柔	-9.15583
滿	-9.15682
先生曰	-9.15684
階	-9.15726
幽	-9.15763
己之	-9.16303
王道	-9.1632
飯	-9.16417
天地之	-9.16518
從之	-9.16535
幸	-9.16574
亦無	-9.16604
粗	-9.1662
弱	-9.16644
國之	-9.16817
决	-9.16975
不失	-9.1699
則非	-9.16997
其親	-9.1713
未嘗不	-9.1725
夫音扶	-9.1734
者又	-9.17413
四書	-9.17414
遊	-9.17434
無道	-9.17468
照	-9.17573
可知矣	-9.17584
之謂也	-9.17588
一時	-9.17644
襲	-9.17659
以道	-9.17669
冬	-9.17678
百里	-9.17893
理之	-9.17967
闗	-9.18035
凶	-9.18095
皮	-9.18114
下同	-9.1816
獻	-9.18271
防	-9.18327
也孟子曰	-9.18338
倚	-9.18357
七十	-9.1848
踰	-9.185
形容	-9.18529
仁之	-9.18796
桀	-9.18824
故也	-9.18941
盈	-9.19007
泛	-9.19163
朱	-9.19178
崇	-9.1924
者其	-9.19338
稍	-9.19477
詞	-9.19528
桓公	-9.19547
者有	-9.19561
寒	-9.19645
世之	-9.19807
段	-9.19829
之性	-9.19925
義也	-9.20054
一貫	-9.20228
非禮	-9.20322
至善	-9.20426
萌	-9.20606
毎	-9.20771
徐	-9.20775
獲	-9.20898
謝氏	-9.20919
孟子之	-9.2092
仁義禮智	-9.20929
惜	-9.20943
豫	-9.2102
之私	-9.21125
迎	-9.21222
僭	-9.21224
毋	-9.214
不合	-9.21429
䟽	-9.21544
仲弓	-9.21667
是亦	-9.21692
遽	-9.21753
所能	-9.21774
横	-9.21861
冉有	-9.21906
尋	-9.21954
則民	-9.21986
未發	-9.22034
角	-9.22038
文王之	-9.22178
哀公	-9.22211
以至	-9.22257
者是	-9.22282
脩身	-9.22321
左右	-9.22433
也故曰	-9.22553
私欲	-9.22574
究	-9.22646
甲	-9.22668
裘	-9.22686
音義	-9.22735
禁	-9.22785
君子之道	-9.22793
也孟子	-9.22926
短	-9.22954
一般	-9.22959
索	-9.23125
其餘	-9.23222
消	-9.23236
畜	-9.23389
一言	-9.23421
故孔子	-9.23502
宻	-9.23825
禮也	-9.23932
丁	-9.23957
之妙	-9.24018
毛	-9.24028
后	-9.24041
在外	-9.24062
有司	-9.24123
管	-9.2415
虎	-9.24182
揚	-9.24203
;	-9.24277
之論	-9.24285
惡之	-9.24502
否曰	-9.24548
在人	-9.24635
盡其	-9.24659
者謂	-9.24694
對曰	-9.24907
所行	-9.24992
存心	-9.25079
者蓋	-9.25135
張子	-9.2514
如何曰	-9.25247
猶有	-9.25338
至矣	-9.25436
雅	-9.25452
㡬	-9.25489
畝	-9.25609
乾	-9.25688
皇	-9.25693
事之	-9.25788
性善	-9.25798
席	-9.25996
。」	-9.25999
者乎	-9.26005
謬	-9.26007
以自	-9.2604
悅	-9.2605
宗廟	-9.26127
聞之	-9.26206
又何	-9.26207
顔	-9.26309
異端	-9.26515
悖	-9.2652
故孟子	-9.26526
止於	-9.26745
事物	-9.26895
厭	-9.26968
莫非	-9.27057
詩云	-9.27061
無可	-9.27089
所欲	-9.27092
之過	-9.27107
貧賤	-9.27213
試	-9.27366
啓	-9.27575
孟子之言	-9.27635
育	-9.27706
慢	-9.27714
以見	-9.27728
冝	-9.27886
惟其	-9.27898
如字	-9.27919
意思	-9.28018
孤	-9.28224
必先	-9.28231
為主	-9.28342
戚	-9.28452
萬世	-9.28453
認	-9.28453
塗	-9.28584
丗	-9.28708
枉	-9.29031
詐	-9.29114
休	-9.29135
鼓	-9.29255
境	-9.29401
國家	-9.29408
在此	-9.29428
云云	-9.29478
是就	-9.29548
痛	-9.29562
穀	-9.29566
㸔	-9.29597
夫子之言	-9.29601
笑	-9.29615
吉	-9.29647
盡心	-9.29696
其義	-9.2972
則曰	-9.29787
鳥	-9.29788
勤	-9.29808
逸	-9.2991
與平聲	-9.29915
舞	-9.30137
側	-9.30152
也如	-9.3016
先儒	-9.30172
天子之	-9.30281
羽	-9.30354
重在	-9.30367
所為	-9.30482
納	-9.305
於天	-9.30508
之體	-9.30679
寢	-9.30719
又以	-9.30886
學而	-9.3089
赤	-9.30916
楊氏曰	-9.30935
例	-9.30943
范	-9.30944
欽定四庫全書	-9.31172
委	-9.31183
聴	-9.31184
沒	-9.31191
之故	-9.31247
此節	-9.31501
仰	-9.31574
愛人	-9.3172
之制	-9.3177
此説	-9.31782
當然	-9.31838
元按	-9.31948
注孔曰	-9.31986
裏	-9.32005
有過	-9.32018
體用	-9.32022
也君子	-9.32029
饒氏曰	-9.32106
四方	-9.32109
不成	-9.32119
人者	-9.32119
韓	-9.32126
於中	-9.32247
其説	-9.32471
不義	-9.32608
采	-9.32727
恁地	-9.32788
只在	-9.32793
題	-9.32805
道者	-9.32817
未見	-9.32877
此所謂	-9.32936
乃是	-9.32949
楊	-9.32978
使其	-9.33072
今人	-9.33132
旅	-9.33397
尹氏	-9.33402
不信	-9.33404
徴	-9.33421
軍	-9.33446
僅	-9.33534
范氏	-9.33632
故謂之	-9.33632
帥	-9.33737
者以其	-9.33774
不盡	-9.33936
縁	-9.33944
這箇	-9.33955
减	-9.34102
若不	-9.3414
渾然	-9.34188
溺	-9.34228
聖人之道	-9.3428
以上	-9.3428
不息	-9.34292
尊賢	-9.34307
一物	-9.34322
分别	-9.34417
上章	-9.34418
客	-9.34444
大小	-9.34497
仁人	-9.3452
耳目	-9.34571
折	-9.34612
尸	-9.34656
吳	-9.34696
反覆	-9.34766
而言之	-9.3484
宰我	-9.3484
宿	-9.3484
自得	-9.34843
利害	-9.34994
託	-9.35002
樹	-9.35032
社稷	-9.35048
則雖	-9.35235
也又	-9.35259
樊遲	-9.35336
此亦	-9.35365
徇	-9.3539
之國	-9.35447
故君子	-9.357
萬章	-9.35907
發見	-9.35943
出入	-9.36004
日用	-9.36071
罔	-9.3618
禦	-9.36325
優	-9.36464
文武	-9.36486
闢	-9.36513
仁則	-9.36554
矣夫	-9.36591
之屬	-9.36623
故不	-9.36718
之語	-9.36724
賢人	-9.36736
仲子	-9.36798
此又	-9.36804
也又曰	-9.36838
子産	-9.3685
者此	-9.36917
行道	-9.37005
雖不	-9.37015
古今	-9.37026
刻	-9.37044
便有	-9.37221
景	-9.37272
政事	-9.37472
之極	-9.37625
其性	-9.37635
之問	-9.37665
所得	-9.37803
黙	-9.3782
鄒	-9.37822
未至	-9.37909
繫	-9.37924
之意也	-9.37931
江	-9.3799
性也	-9.38006
也子曰	-9.38061
誦	-9.38111
泰伯	-9.38111
也疏	-9.38136
府	-9.38148
存疑	-9.38177
𢎞	-9.38384
旁	-9.38385
欲以	-9.38424
也然則	-9.38431
穆	-9.38598
何為	-9.38762
貨	-9.3877
恒	-9.38771
揖	-9.38891
為己	-9.39003
絜矩	-9.39022
吝	-9.39126
祭祀	-9.39267
一也	-9.39313
不食	-9.39335
者矣	-9.39393
大全	-9.39406
自欺	-9.39415
為本	-9.39495
仍	-9.39514
完	-9.39538
而民	-9.39819
方是	-9.39894
為一	-9.39965
呉	-9.40107
不易	-9.40177
三月	-9.40254
明徳	-9.40278
雙峯饒氏曰	-9.40289
書曰	-9.4031
貼	-9.40328
三代	-9.40418
露	-9.40489
鬼	-9.40668
十二	-9.40671
霸	-9.40709
争	-9.40713
蒙	-9.40724
齋	-9.40729
之序	-9.40879
撰	-9.40899
其人	-9.40902
甘	-9.40911
律	-9.41034
則當	-9.41039
不去	-9.41068
而言也	-9.41084
攝	-9.4129
去之	-9.41358
小學	-9.41403
迫	-9.41527
夜	-9.41563
首章	-9.41614
不從	-9.41668
進退	-9.41696
怪	-9.41746
註孔安國曰	-9.41776
是故	-9.41781
何所	-9.41797
其徳	-9.41826
飢	-9.41911
豈可	-9.41992
人物	-9.42036
没	-9.42088
齒	-9.42088
戾	-9.4209
必以	-9.42213
户	-9.42273
則可	-9.42327
禮記	-9.42423
汙	-9.42495
測	-9.42496
垂	-9.42537
未知	-9.42555
四字	-9.42709
嘆	-9.42881
而立	-9.42918
輿	-9.43098
極其	-9.4319
不忘	-9.43191
子孫	-9.43206
之可	-9.43418
想	-9.43604
未可	-9.4363
治國	-9.43746
尹	-9.43806
誨	-9.43863
活	-9.43874
者乃	-9.43916
援	-9.44043
入於	-9.44195
公孫丑	-9.44236
君子小人	-9.44282
楊墨	-9.44334
在上	-9.44394
革	-9.44512
四海	-9.446
遲	-9.44685
飽	-9.44733
登	-9.44733
之美	-9.4474
聖人之心	-9.44797
尹曰	-9.44834
贊	-9.44886
事也	-9.44899
雲峯胡氏曰	-9.44919
可使	-9.44966
范氏曰	-9.45154
守之	-9.45246
有不	-9.45285
王之	-9.45322
㫖	-9.45342
齊人	-9.45367
言者	-9.45391
1	-9.45418
何哉	-9.45471
上説	-9.45626
榖	-9.45928
云云者	-9.45945
激	-9.45952
不免	-9.45989
彊	-9.4613
歲	-9.46157
誘	-9.46165
之行	-9.46177
三句	-9.46239
福	-9.4631
趙	-9.46334
日月	-9.46407
滯	-9.46554
之所為	-9.46561
之善	-9.46581
不動心	-9.46629
言行	-9.46762
物欲	-9.46898
隂陽	-9.46982
悉	-9.46985
則可以	-9.46987
雍	-9.47014
又言	-9.47071
此所以	-9.47073
亦曰	-9.47258
或有	-9.47258
其可	-9.47278
大國	-9.47398
歸於	-9.47503
融	-9.47511
於其	-9.47665
有所不	-9.47781
也孔子	-9.47807
然亦	-9.47895
振	-9.48017
却是	-9.48062
竭	-9.48149
未盡	-9.48189
得以	-9.48297
前後	-9.4846
之所在	-9.48586
康	-9.4861
以成	-9.48668
之樂	-9.48771
?」	-9.48816
又云	-9.48839
不求	-9.48888
不動	-9.48913
係	-9.48941
輒	-9.49003
子游	-9.49009
可以為	-9.49031
族	-9.49064
昧	-9.49069
流行	-9.49093
夫婦	-9.49101
躬	-9.49185
知人	-9.49271
知言	-9.49335
而反	-9.49354
豐	-9.49533
樂之	-9.49602
落	-9.49671
諒	-9.49699
之㫖	-9.49723
朔	-9.49779
生於	-9.49814
無有	-9.49826
呼	-9.49929
逃	-9.49944
臺	-9.4996
有三	-9.49981
着	-9.50064
莫之	-9.50103
寸	-9.50117
恐其	-9.50122
養之	-9.50147
恃	-9.50148
不止	-9.50202
羞	-9.50232
甚矣	-9.50239
行事	-9.50296
而得	-9.50297
貢	-9.50308
某	-9.50367
不敬	-9.50382
宣王	-9.50391
不可以不	-9.50443
聖門	-9.5046
人有	-9.50502
湯武	-9.50572
續	-9.50585
語錄曰	-9.50639
亦不可	-9.50679
裳	-9.50679
許多	-9.50714
第二	-9.50741
丑	-9.50772
羿	-9.50799
殺之	-9.50893
畔	-9.50989
草木	-9.51038
南軒張氏曰	-9.51223
舒	-9.51237
文章	-9.51364
亷	-9.51411
求其	-9.51521
豈非	-9.51631
也注	-9.5169
屏	-9.51797
所見	-9.51897
先王之	-9.51917
曰此	-9.51947
與其	-9.52013
變化	-9.52025
之病	-9.5212
考之	-9.52133
次第	-9.52158
矯	-9.52334
其次	-9.52347
綱	-9.52385
吕氏	-9.52394
毅	-9.52456
契	-9.52492
諌	-9.52561
固是	-9.52608
克己	-9.52626
而實	-9.52697
忿	-9.52721
諡	-9.52744
薦	-9.52774
弔	-9.52786
為君	-9.52802
太王	-9.52802
治天下	-9.52853
胡氏	-9.52854
此皆	-9.52911
聖賢之	-9.52911
希	-9.52957
限	-9.52981
之子	-9.53112
韶	-9.53192
然後可以	-9.53333
在内	-9.53346
侵	-9.53412
析	-9.53426
非有	-9.53474
法度	-9.53682
劉	-9.53694
玄	-9.53728
莊子	-9.53749
理㑹	-9.53847
善而	-9.54076
庶人	-9.54112
者盖	-9.54153
大本	-9.54256
以至於	-9.54269
集曰	-9.54274
圭	-9.54343
藉	-9.54363
未得	-9.54379
地位	-9.54382
若夫	-9.54407
之内	-9.54538
楊曰	-9.54561
謂其	-9.54643
陶	-9.54773
泥	-9.54775
衍	-9.54959
歩	-9.55029
此語	-9.5507
永	-9.55183
其民	-9.55196
怠	-9.55196
沈	-9.55198
文子	-9.55206
卿大夫	-9.55229
禮之	-9.55285
不得已	-9.55338
人事	-9.55342
千里	-9.55347
不違	-9.55425
故能	-9.55581
川	-9.55586
之政	-9.55591
之説曰	-9.5561
傳之	-9.55613
歳	-9.5565
緩	-9.55655
步	-9.55907
若此	-9.55965
烏	-9.56057
一理	-9.56203
其位	-9.56211
以行	-9.56269
牆	-9.56372
之要	-9.56409
前章	-9.56479
厯	-9.56549
缺	-9.56583
此章言	-9.56665
之臣	-9.56698
而欲	-9.56728
以告	-9.56762
父兄	-9.56775
繹	-9.56794
名也	-9.56898
其後	-9.56955
之情	-9.56955
品	-9.56958
伊川	-9.56988
貞	-9.57043
荒	-9.57045
雨	-9.57054
大徳	-9.57073
語意	-9.57074
子弟	-9.57083
庶幾	-9.57105
此句	-9.57127
冉求	-9.57128
為學	-9.57152
中和	-9.57179
鄉黨	-9.57264
一段	-9.57311
司馬	-9.57369
始終	-9.57405
惟恐	-9.57407
德之	-9.57437
招	-9.57499
於齊	-9.57544
件	-9.57604
朝廷	-9.57757
恭敬	-9.57798
屋	-9.578
不厭	-9.57844
俟	-9.57854
稽	-9.57886
此等	-9.57943
之篇	-9.57944
走	-9.5795
得失	-9.57956
奥	-9.57958
偶	-9.5804
實理	-9.58105
性命	-9.58153
致其	-9.58184
斂	-9.58203
有二	-9.58243
竟	-9.58404
公子	-9.58417
盡性	-9.58493
之氣	-9.58572
問曰	-9.58587
殘	-9.58636
一身	-9.58665
互	-9.58712
周之	-9.5875
其間	-9.5879
不已	-9.58853
星	-9.58858
殺人	-9.58918
在其中矣	-9.58922
之異	-9.58936
都是	-9.58946
而為之	-9.5899
之君	-9.59031
無一	-9.59044
自謂	-9.59054
曰然則	-9.59056
送	-9.59129
裁	-9.59132
榮	-9.59153
宣	-9.59227
禱	-9.59253
耻	-9.59392
奔	-9.59476
五者	-9.59569
咸	-9.59585
盜	-9.59605
血氣	-9.5961
也但	-9.5971
注云	-9.59761
歸之	-9.59827
在下	-9.60031
未免	-9.60087
何必	-9.60131
以及	-9.60155
命也	-9.6021
成徳	-9.60319
鄉原	-9.60389
個	-9.60405
集義	-9.60419
幼	-9.60426
謝	-9.6047
兩句	-9.60485
則能	-9.6051
近於	-9.60526
相反	-9.60548
二章	-9.6055
良心	-9.60604
校	-9.60645
讀書	-9.60653
聖人之言	-9.60688
世子	-9.60786
惰	-9.60793
矢	-9.60891
嗜	-9.61019
治人	-9.61042
奢	-9.61102
吏	-9.61129
譬如	-9.61148
則不可	-9.61267
無他	-9.61282
省察	-9.61291
人道	-9.61325
以天下	-9.61333
一條	-9.61393
知也	-9.61398
而可	-9.61403
截	-9.61404
亦何	-9.61446
猶言	-9.61491
責之	-9.61545
可得而	-9.61686
定公	-9.6171
為大	-9.6176
無異	-9.61787
明矣	-9.61839
是為	-9.61907
已矣	-9.61991
牧	-9.62033
做得	-9.62041
之詩	-9.62123
可為	-9.62168
於孔子	-9.6225
受命	-9.62302
而行之	-9.62328
水火	-9.62367
暗	-9.62444
陋	-9.62477
三百	-9.62549
於上	-9.62673
煩	-9.62687
者故	-9.62692
凡人	-9.62694
伸	-9.62701
拒	-9.62715
亦然	-9.62734
其能	-9.62747
六十	-9.62785
混	-9.62951
祥	-9.6296
不能無	-9.62994
以仁	-9.63083
廉	-9.63216
挾	-9.63233
堯舜之道	-9.63307
格物致知	-9.63314
知所	-9.6334
正心	-9.63382
其子	-9.63399
髙明	-9.63401
烈	-9.63429
用心	-9.6348
之用	-9.63554
之前	-9.63636
節文	-9.63638
不受	-9.63656
圍	-9.63769
於仁	-9.63855
無一毫	-9.63904
之難	-9.63944
異於	-9.63956
又問	-9.63964
行也	-9.63973
為先	-9.64121
昬	-9.64142
天下國家	-9.64145
様	-9.64218
知止	-9.64278
本無	-9.64288
吾之	-9.64313
擯	-9.64343
不知其	-9.64348
飬	-9.64423
疎	-9.64445
日新	-9.64587
侍	-9.64686
以徳	-9.64747
稅	-9.64755
含	-9.64907
囿	-9.64959
而復	-9.65034
太子	-9.65064
土地	-9.65168
以致	-9.65217
其功	-9.65388
預	-9.65396
此一章書是	-9.65438
税	-9.65469
之弊	-9.65504
行者	-9.65541
不聞	-9.65643
嗚呼	-9.65682
道而	-9.65724
威儀	-9.65788
未及	-9.65902
賛	-9.65913
泉	-9.6615
彌	-9.66182
雖欲	-9.66193
林	-9.66226
不孝	-9.66226
耳若	-9.66251
三家	-9.66303
欲使	-9.66373
妻子	-9.66552
當以	-9.66608
之位	-9.6662
稱之	-9.66634
黄氏曰	-9.66645
郷	-9.66652
也惟	-9.66656
能盡	-9.66674
墨	-9.66708
是心	-9.66748
所惡	-9.66771
心之所	-9.66793
戎	-9.6691
十五	-9.66918
下章	-9.66932
不安	-9.66943
邇	-9.66975
給	-9.66982
之始	-9.6719
以正	-9.67226
中國	-9.67264
害於	-9.6727
之盛	-9.67293
兩端	-9.67335
廣大	-9.67388
夢	-9.6739
其辭	-9.67422
忌	-9.67467
佩	-9.67489
慎獨	-9.67625
視之	-9.67669
恵	-9.67726
謹獨	-9.67826
誠者	-9.67926
倒	-9.67935
不誠	-9.67955
媚	-9.67957
小者	-9.67966
徑	-9.67968
博學	-9.67978
蕩	-9.67984
時中	-9.67997
蹈	-9.68007
興起	-9.68027
論之	-9.68031
不自	-9.68101
之效	-9.68113
事而	-9.68183
諂	-9.68183
單	-9.68202
徵	-9.68219
所知	-9.68244
嘉	-9.68251
之正	-9.68307
亦可以	-9.6832
之甚	-9.6836
之至也	-9.68381
不但	-9.68398
中節	-9.68443
知覺	-9.68446
正義曰此章言	-9.68467
治之	-9.68467
濫	-9.68505
言則	-9.6853
明白	-9.68532
盟	-9.68704
不可得而	-9.68725
死生	-9.68743
過於	-9.68804
不勝	-9.69015
從容	-9.69118
家語	-9.6915
他日	-9.69167
饑	-9.69242
我之	-9.69286
事理	-9.69339
非是	-9.69363
孔安國曰	-9.69368
為我	-9.69379
邊	-9.69435
則不能	-9.69466
三字	-9.69481
確	-9.69509
可見矣	-9.69634
信之	-9.69682
是時	-9.6973
孝子	-9.69744
岐	-9.6977
餒	-9.69789
貎	-9.69789
哭	-9.69796
知天	-9.69805
不得不	-9.69819
皆非	-9.69971
雙峰	-9.70021
之文	-9.70022
成功	-9.70065
.	-9.70119
不出	-9.70195
傾	-9.70315
大意	-9.70399
性情	-9.7041
無事	-9.70426
成物	-9.70456
淺深	-9.70469
理也	-9.70521
憤	-9.7054
驅	-9.70589
人能	-9.70651
則心	-9.70684
終始	-9.70796
渾	-9.70985
斗	-9.71099
不好	-9.71134
䖏	-9.71148
於道	-9.71222
進於	-9.71235
之下	-9.71237
之貌	-9.71237
諸侯之	-9.71245
觸	-9.71328
禀	-9.71354
南軒曰	-9.71384
是説	-9.71394
獸	-9.71395
精粗	-9.71415
好善	-9.71458
不惑	-9.715
體之	-9.71535
牲	-9.7161
夷狄	-9.71611
磨	-9.71617
娶	-9.71659
顔色	-9.71686
之民	-9.71733
隅	-9.71831
即此	-9.71833
快	-9.71899
亟	-9.71915
要之	-9.71924
之使	-9.7198
孟子所謂	-9.72031
貴賤	-9.72115
狹	-9.72132
事事	-9.72159
此處	-9.72222
小大	-9.72407
誣	-9.7241
瞽瞍	-9.72424
曰君子	-9.72649
寓	-9.72673
羙	-9.72733
莫能	-9.7274
達道	-9.72921
襄	-9.72927
好之	-9.73178
鳴	-9.73203
匡	-9.73223
之教	-9.73288
亦未	-9.73306
稱其	-9.73333
為臣	-9.73336
而成	-9.7334
知此	-9.73397
終日	-9.73427
項	-9.73497
兮	-9.7351
恤	-9.73521
班	-9.73543
理而	-9.73576
科	-9.736
式	-9.73601
厚薄	-9.73647
用功	-9.73734
四端	-9.73762
叛	-9.73768
之才	-9.73793
𤼵明	-9.73849
有箇	-9.7397
奏	-9.74028
耳非	-9.74129
叚	-9.74132
為國	-9.74148
敢問	-9.74203
而求	-9.74241
齊宣王	-9.74253
之初	-9.74267
養氣	-9.74326
趣	-9.74337
庭	-9.74339
提	-9.7435
存焉	-9.74374
大王	-9.74434
也至於	-9.74434
夷齊	-9.74461
靣	-9.74562
鑿	-9.74601
昌	-9.74611
隆	-9.74615
經文	-9.74689
此乃	-9.7472
録	-9.74753
范曰	-9.74756
制度	-9.74781
本心	-9.74786
出來	-9.74794
景公	-9.748
陸	-9.74804
周公之	-9.74829
精神	-9.74832
浮	-9.74834
規	-9.74884
厥	-9.74888
施於	-9.74893
子貢曰	-9.74901
云爾	-9.74922
不至於	-9.74948
謝氏曰	-9.74948
而未	-9.74963
魯之	-9.74989
屢	-9.74998
主人	-9.75008
王制	-9.75008
存養	-9.75088
不可得	-9.75121
刺	-9.75128
其大	-9.75144
壞	-9.75189
之罪	-9.75226
可與	-9.75227
智者	-9.75257
徳行	-9.75258
而言則	-9.75272
鐘	-9.75424
者正	-9.75456
居之	-9.75469
於物	-9.75565
鄉人	-9.75665
骨	-9.75695
苗	-9.75699
矣而	-9.75713
公田	-9.758
下學	-9.759
不察	-9.75919
於義	-9.75964
之常	-9.75983
濁	-9.76014
無過不及	-9.76016
基	-9.76017
者固	-9.76144
桑	-9.76264
故有	-9.76341
知得	-9.76383
亦以	-9.76456
稷	-9.76464
之長	-9.76498
藥	-9.76517
曰我	-9.76561
以義	-9.76565
小人之	-9.76609
中道	-9.76828
成人	-9.76908
在我者	-9.76943
所引	-9.76961
第一	-9.76964
旦	-9.77016
措	-9.77042
何嘗	-9.77146
從而	-9.77188
之深	-9.77296
弑	-9.77318
窺	-9.77347
雲	-9.77351
寄	-9.77365
誓	-9.77368
見孟子	-9.77392
者也故	-9.77439
僕	-9.77467
恐懼	-9.77493
崩	-9.77656
旨	-9.77671
先王之道	-9.77677
樂正子	-9.77687
此篇	-9.77724
䇿	-9.77742
皆可	-9.77753
文義	-9.77766
於事	-9.77874
檢	-9.77896
黒	-9.77966
當作	-9.77967
戒懼	-9.77991
道義	-9.78081
下句	-9.78113
由也	-9.78158
泄	-9.78187
堯之	-9.78216
編	-9.78224
不肖	-9.78237
相去	-9.78255
而止	-9.78314
有徳	-9.78419
之家	-9.78441
去聲下同	-9.78465
導	-9.78467
險	-9.78521
行而	-9.78528
畆	-9.78569
愛之	-9.78627
不識	-9.78633
稟	-9.78695
亦必	-9.78716
矩	-9.78743
帛	-9.78768
供	-9.78831
人人	-9.78916
於君	-9.78932
為惡	-9.78948
家臣	-9.78991
牽	-9.79077
語錄	-9.7909
不得其	-9.79103
艾	-9.79116
間斷	-9.7926
未有不	-9.7936
臭	-9.79385
禹稷	-9.79394
陽貨	-9.794
四句	-9.79401
顔子之	-9.79462
人心之	-9.79482
知有	-9.79567
杜	-9.79612
世家	-9.79663
葛	-9.79693
宮	-9.79702
國人	-9.79702
善者	-9.79831
礼	-9.79941
四時	-9.79942
思之	-9.79956
遵	-9.79966
閑	-9.80012
但以	-9.80042
至于	-9.80057
存之	-9.80095
之末	-9.80133
不齊	-9.80145
監	-9.80177
、	-9.80228
嫌	-9.80265
士之	-9.80274
一體	-9.80298
不暇	-9.80327
大道	-9.80337
成王	-9.80417
堯舜之	-9.80454
何謂	-9.80475
弊	-9.80512
伏	-9.80538
瞽	-9.80562
條理	-9.80566
即所謂	-9.80576
壊	-9.80576
引詩	-9.80585
不順	-9.80592
於理	-9.80597
之不可	-9.8071
此以	-9.80744
而不敢	-9.80929
有異	-9.80965
本於	-9.80997
於内	-9.81063
愧	-9.81074
頌	-9.81107
諱	-9.81129
且如	-9.81199
兩節	-9.81237
齊家	-9.81237
一字	-9.81282
閉	-9.81403
讀者	-9.81404
𤣥	-9.81413
傅	-9.81458
於世	-9.81479
婦	-9.815
有為	-9.81551
而發	-9.81569
其才	-9.81574
大臣	-9.81616
云者	-9.81666
侮	-9.81724
寳	-9.81744
季孫	-9.81766
多聞	-9.81788
趙氏曰	-9.81935
従	-9.81965
十分	-9.82007
而遂	-9.8203
性者	-9.8211
表裏	-9.82156
自知	-9.82222
有一	-9.82257
攷	-9.82281
戴	-9.82283
止於至善	-9.823
庻	-9.82303
道則	-9.82346
盗	-9.82362
青	-9.82381
然後能	-9.82388
二節	-9.82417
氣之	-9.82432
不怨	-9.82436
造化	-9.82482
慾	-9.82524
囘	-9.82593
隔	-9.82602
而至於	-9.82755
七年	-9.82774
不中	-9.82793
潤	-9.82849
維	-9.8288
孔子之言	-9.8292
用也	-9.82928
非聖人	-9.82929
自以為	-9.82991
第十	-9.83033
而進	-9.8308
一篇	-9.83105
正義曰此章	-9.83116
不能盡	-9.83123
看來	-9.83139
規矩	-9.8318
者即	-9.83192
中間	-9.833
其說	-9.83349
貫通	-9.83357
之所以為	-9.83388
晝	-9.83392
此說	-9.8342
愼	-9.83422
則自	-9.83428
括	-9.83454
緒	-9.83467
涵養	-9.83486
談	-9.83504
慊	-9.8355
其失	-9.83595
而無所	-9.836
以利	-9.83605
死者	-9.83671
好仁	-9.83689
學也	-9.83704
一端	-9.83715
不改	-9.83735
其有	-9.83851
匹夫	-9.83864
子曰君子	-9.83913
而知	-9.83999
之節	-9.84054
發於	-9.84061
之不同	-9.84212
自明	-9.84213
潛	-9.84342
精微	-9.84342
臯陶	-9.84373
僣	-9.8441
以後	-9.84469
訟	-9.84481
不通	-9.84491
其情	-9.84508
不離	-9.84561
而死	-9.84587
十六	-9.84596
魯人	-9.84599
不逺	-9.84605
飛	-9.84622
之門	-9.84634
實有	-9.8465
張彦陵曰	-9.84662
併	-9.84678
鄰	-9.84685
禪	-9.84692
鬼神之	-9.84771
陷	-9.84773
不思	-9.84831
凡事	-9.84847
乎其	-9.8485
諸人	-9.84964
虐	-9.84981
憚	-9.84982
物而	-9.84989
餽	-9.85003
臧	-9.85034
幣	-9.85049
無疑	-9.85085
此事	-9.85128
指其	-9.85222
為義	-9.85255
叙	-9.85294
𫝊	-9.85309
甞	-9.85312
距	-9.85337
祝	-9.85347
舉其	-9.85374
為貴	-9.8542
知禮	-9.85424
其行	-9.85513
束	-9.85548
知所以	-9.85553
安於	-9.85553
佐	-9.85587
躍	-9.85612
中有	-9.85613
隙	-9.8565
之仁	-9.85664
此一節	-9.85686
義之	-9.8569
字與	-9.85762
此之謂	-9.85792
勉强	-9.85798
吾身	-9.8582
饒氏	-9.85852
好勇	-9.85922
弓	-9.85944
丈	-9.85986
憲	-9.86026
肅	-9.86099
有序	-9.86146
兆	-9.86193
詩曰	-9.86212
外物	-9.86231
所宜	-9.86262
若有	-9.863
蘇	-9.86444
總是	-9.86448
可乎	-9.86489
能知	-9.86571
小國	-9.8664
而不為	-9.86643
之賢	-9.86704
不應	-9.86748
之書	-9.86758
兹	-9.86792
鼎	-9.86826
求仁	-9.86831
阿	-9.86847
梁惠王	-9.8686
所聞	-9.87012
孔氏	-9.87068
符	-9.87104
之方	-9.87161
些	-9.87204
之害	-9.8721
常人	-9.87296
中之	-9.87297
己者	-9.87357
理義	-9.87369
人不	-9.87385
薛	-9.8745
朝服	-9.87451
咎	-9.87466
其用	-9.87485
天命之性	-9.87537
徧	-9.87669
克己復禮	-9.87711
貶	-9.87762
龜	-9.87781
字是	-9.8783
而去	-9.87835
存乎	-9.87949
也葢	-9.87951
有罪	-9.87974
三章	-9.87983
論其	-9.88014
全在	-9.88029
在位	-9.88056
晦	-9.8808
人之心	-9.88086
斈	-9.88094
増	-9.881
無益	-9.88112
遭	-9.88116
啟	-9.88135
有功	-9.88135
出處	-9.8814
觀之則	-9.88144
中也	-9.88156
化之	-9.88173
一則	-9.88221
齊之	-9.88273
損益	-9.88303
者言之	-9.88305
不倦	-9.88323
昔者	-9.88379
墮	-9.88392
正義曰	-9.884
也孔子曰	-9.88409
五人	-9.88433
晦菴朱氏	-9.88448
許行	-9.88459
自反	-9.88489
也夫子	-9.885
所守	-9.88523
非其	-9.88534
於魯	-9.88549
中庸之	-9.88572
事上	-9.88586
孔子弟子	-9.88611
矣若	-9.88724
豆	-9.88764
染	-9.88825
宅	-9.88905
而下	-9.8891
於禮	-9.88933
不顧	-9.88936
夭	-9.89039
可行	-9.89079
一心	-9.89096
猶未	-9.89104
二人	-9.89107
秉	-9.8912
竹	-9.89334
迂	-9.8936
不失其	-9.89381
生知	-9.89417
合於	-9.89436
三王	-9.89488
初無	-9.89501
手足	-9.89508
之德	-9.89515
為天子	-9.8958
後人	-9.89588
?	-9.89623
百畝	-9.89641
豈能	-9.89663
命之	-9.89683
狀	-9.89759
須要	-9.89763
知至	-9.89821
者如	-9.89829
裼	-9.8987
無間	-9.89885
上達	-9.89932
同而	-9.89951
告以	-9.89957
不可為	-9.90006
之迹	-9.90045
在己	-9.90169
以事	-9.90179
何有	-9.90191
其善	-9.90192
翼	-9.90241
不學	-9.90273
一邊	-9.90407
義者	-9.90421
雉	-9.90582
義理之	-9.90585
可不	-9.90613
侈	-9.90663
饋	-9.90669
偃	-9.90698
為不善	-9.90772
吾心	-9.9079
謝曰	-9.90822
能行	-9.90851
身上	-9.90899
一百	-9.90902
峻	-9.90948
馳	-9.90954
浩然之氣	-9.90964
擊	-9.90974
久矣	-9.90987
只就	-9.91082
中者	-9.91114
矣又	-9.91167
而不及	-9.91193
寜	-9.91299
話	-9.91349
以來	-9.91405
未聞	-9.91434
領	-9.91476
夀	-9.91589
若以	-9.9159
尚書	-9.91594
桓	-9.91619
築	-9.91634
惡惡	-9.91698
三代之	-9.91724
之閒	-9.91754
逺矣	-9.91773
公孫	-9.91794
亦當	-9.91846
小徳	-9.91846
後來	-9.91914
問於	-9.91924
父母之	-9.91938
此道	-9.91941
也且	-9.91947
誠身	-9.91965
斬	-9.91975
明道	-9.92011
一本	-9.92099
小子	-9.92142
長者	-9.92145
子路之	-9.92163
旋	-9.92193
不特	-9.92218
詔	-9.92221
懸	-9.92234
支	-9.92238
為君子	-9.92243
則無以	-9.92273
言君子	-9.92285
曰子	-9.92317
井田	-9.92468
野人	-9.9252
一件	-9.92568
猛	-9.92593
男	-9.92597
凝	-9.92611
衣服	-9.92719
故必	-9.92721
說得	-9.92754
血	-9.92805
曲禮	-9.92855
壽	-9.92902
秀	-9.92951
好色	-9.92969
禮者	-9.93115
是乃	-9.93138
國君	-9.93204
物也	-9.93224
犬	-9.93236
五年	-9.93265
多少	-9.933
必至於	-9.93348
之别	-9.93375
容貌	-9.93381
或人	-9.9346
不入	-9.93468
削	-9.93625
牖	-9.93643
是知	-9.93671
由此	-9.93679
之患	-9.93691
肯	-9.93696
人之性	-9.93704
其國	-9.93732
知行	-9.93841
曹	-9.93854
涉	-9.93868
巻	-9.93891
物事	-9.93957
志於	-9.93972
承上章	-9.93993
者所以	-9.9406
先覺	-9.94061
於彼	-9.94088
過也	-9.94113
看得	-9.94177
不顯	-9.94202
盤	-9.94267
所當然	-9.94267
筆	-9.94297
其父	-9.94351
於前	-9.94427
亦自	-9.94498
相近	-9.94507
疆	-9.94531
早	-9.9457
至聖	-9.9468
之命	-9.94697
不然則	-9.94765
童子	-9.94804
而入	-9.94818
所在	-9.94828
一毫	-9.94844
之端	-9.94877
是謂	-9.94907
及物	-9.94921
琴	-9.94929
滕文公	-9.94931
有常	-9.9495
張子曰	-9.94966
生之	-9.95002
誠之	-9.95033
皆同	-9.95063
也或問	-9.95079
此便是	-9.95182
規模	-9.95215
告之以	-9.95225
有命	-9.95267
養其	-9.95299
與此	-9.95319
一分	-9.95325
以生	-9.95376
百官	-9.95471
若無	-9.95489
九經	-9.95505
明明徳	-9.95533
恨	-9.95595
王曰	-9.956
一以貫之	-9.9562
所云	-9.95653
樂音洛	-9.95661
不亦	-9.95666
昭公	-9.95676
所由	-9.95727
鄭氏	-9.95798
也按	-9.95811
住	-9.9584
救之	-9.95876
必欲	-9.95906
此三者	-9.95929
乎哉	-9.95944
歛	-9.95945
芟	-9.95953
改過	-9.9599
相應	-9.96056
道體	-9.96209
餓	-9.96275
聞見	-9.96278
館	-9.96306
躬行	-9.96383
之物	-9.96395
不由	-9.96445
人之道	-9.96459
之上	-9.96483
神明	-9.96496
卦	-9.96584
成就	-9.96592
胥	-9.96605
過不及	-9.96621
調	-9.96622
不貳	-9.96927
人亦	-9.96961
誠也	-9.96969
生物	-9.96993
者何	-9.97062
自古	-9.97087
箕子	-9.97115
此與	-9.97178
道心	-9.97187
食之	-9.97218
自為	-9.97219
渉	-9.97237
所好	-9.97251
賞	-9.97262
億	-9.97267
杞	-9.97279
與夫	-9.97365
而生	-9.97383
司徒	-9.97416
游氏	-9.9747
不患	-9.97512
明堂	-9.97551
雖然	-9.97551
圓	-9.976
也聖人	-9.97691
身之	-9.97764
人皆有	-9.97795
大事	-9.97827
知道	-9.97875
莫如	-9.97875
求諸	-9.97898
弘	-9.97967
吳因之曰	-9.97972
若曰	-9.97976
災	-9.9799
靡	-9.97993
之稱	-9.98003
無禮	-9.98018
侯氏	-9.98101
趙氏	-9.98171
為去聲	-9.98221
什一	-9.98251
明之	-9.98319
脱	-9.98329
斥	-9.98333
雞	-9.98383
戰國	-9.98458
天理之	-9.98498
並去聲	-9.98525
輩	-9.98593
甫	-9.98604
繁	-9.98668
藴	-9.98678
其罪	-9.98702
愠	-9.98806
心也	-9.9881
春秋傳	-9.98828
疑其	-9.98854
毫	-9.98955
滋	-9.98995
逢	-9.99013
以理言	-9.99061
人知	-9.99072
綏	-9.99104
太甲	-9.99113
只説	-9.99197
而歸	-9.99242
乙	-9.99351
禽	-9.99388
其時	-9.99392
拂	-9.99399
竈	-9.99406
可畏	-9.99436
或以	-9.99443
稼	-9.99444
能使	-9.99485
愚案	-9.99496
更無	-9.99502
用人	-9.99578
八十	-9.99642
敬也	-9.99649
頓	-9.99691
在乎	-9.997
姦	-9.99742
徳者	-9.99773
喜怒哀樂	-9.99776
扶	-9.99789
徙	-9.99835
無私	-9.9992
無怨	-9.99938
其仁	-9.99961
君命	-9.99996
辰	-10.0001
人自	-10.0006
之本然	-10.0012
綱領	-10.0013
一家	-10.0015
天性	-10.0016
亦可謂	-10.0017
至徳	-10.0026
君臣父子	-10.0028
不爲	-10.0034
其效	-10.0039
之誠	-10.0042
廬	-10.0045
籍	-10.0049
資質	-10.0054
其他	-10.0064
齊國	-10.0068
暇	-10.0071
觚	-10.0074
之辨	-10.0074
去其	-10.0074
洞	-10.0079
畢竟	-10.0079
何事	-10.008
語之	-10.008
其體	-10.0086
惡而	-10.0095
死而	-10.0095
陳氏	-10.0099
亦不能	-10.0102
而弗	-10.0105
諸説	-10.0106
矣曰	-10.0107
界	-10.011
微子	-10.0111
既曰	-10.0114
誠則	-10.0116
古之人	-10.0121
之勢	-10.0131
之本也	-10.0132
者豈	-10.0136
平天下	-10.0142
沮	-10.0151
之明	-10.0151
慶	-10.0154
君子不	-10.0154
嗣	-10.0155
親切	-10.0158
水之	-10.0162
推而	-10.0165
各有所	-10.0167
無罪	-10.0171
文質	-10.0171
匿	-10.0184
播	-10.0189
皆當	-10.0189
本體	-10.0196
一旦	-10.0198
執中	-10.0198
焉者	-10.0208
相對	-10.0211
是箇	-10.0212
是其	-10.0213
寡人	-10.0215
問孟子	-10.0219
鍾	-10.022
雖是	-10.0222
此正	-10.0222
不得已而	-10.0222
及於	-10.0222
隘	-10.0226
康子	-10.0228
又謂	-10.023
由是	-10.0231
徳也	-10.0234
義則	-10.0255
灌	-10.0256
許之	-10.0257
乞	-10.0258
所居	-10.0261
竒	-10.0262
以善	-10.0262
而况	-10.0264
佚	-10.0268
而后	-10.0269
程子所謂	-10.0272
則固	-10.0276
先進	-10.0281
多能	-10.029
樂也	-10.0296
賴	-10.0299
博厚	-10.0318
天下之理	-10.0328
欠	-10.033
壬	-10.033
而不失	-10.0332
舟	-10.0333
絲	-10.0334
明善	-10.0334
與天地	-10.0338
人為	-10.0342
詩書	-10.0343
者不能	-10.0348
雖曰	-10.0356
以此為	-10.0357
添	-10.0365
植	-10.0365
言人	-10.0365
名之	-10.0367
法也	-10.0369
之心也	-10.0372
孔門	-10.0374
之禍	-10.0376
牛羊	-10.0377
合乎	-10.0378
米	-10.038
一説	-10.0393
言性	-10.0398
安能	-10.0399
相為	-10.04
汚	-10.0407
溢	-10.0409
環	-10.0411
惠王	-10.0425
於身	-10.0428
百年	-10.0433
區	-10.044
為難	-10.044
未易	-10.0443
擴充	-10.0445
其上	-10.0446
異乎	-10.0447
其名	-10.0447
人性	-10.0453
及人	-10.046
庶乎	-10.0463
之一字	-10.0464
伐之	-10.0464
耳故	-10.0476
之勇	-10.0478
栁	-10.0481
伊川曰	-10.0484
栁下惠	-10.0486
不得而	-10.049
流於	-10.0493
引之	-10.0494
非義	-10.0496
正與	-10.0497
教民	-10.0499
馮氏曰	-10.0516
創	-10.0516
天下之事	-10.0518
探	-10.0518
太公	-10.0524
得罪於	-10.0525
2	-10.0531
食色	-10.0543
記者	-10.0545
文也	-10.0552
貉	-10.0557
絶之	-10.0558
不難	-10.0562
聰明	-10.0571
則天下	-10.0573
之服	-10.0578
有時而	-10.0584
之變	-10.0589
責人	-10.059
循理	-10.0594
減	-10.0595
為天下	-10.0596
英	-10.0596
一意	-10.0597
晏子	-10.0602
所載	-10.0603
去就	-10.0616
一念	-10.0616
伊	-10.0621
以身	-10.0622
遏	-10.0627
孚	-10.063
然非	-10.0636
南子	-10.064
愚按	-10.0642
而終	-10.0644
之憂	-10.0645
而必	-10.065
所止	-10.0652
為能	-10.0653
矣故曰	-10.0653
臣之	-10.0661
諸子	-10.0662
此三	-10.0663
檀弓	-10.0667
者葢	-10.0672
終不	-10.0674
之心而	-10.0677
芟一條	-10.068
氣禀	-10.0682
為心	-10.0683
專以	-10.0684
正也	-10.0688
做工夫	-10.0698
揆	-10.07
凖	-10.0702
營	-10.0703
兼愛	-10.0708
溝	-10.0711
漢書	-10.0713
子謂	-10.0716
三軍	-10.0735
不覺	-10.0737
非特	-10.0741
而出	-10.0744
子張問	-10.0744
者或	-10.0745
是以君子	-10.0745
其極	-10.0749
三年之喪	-10.0753
猶可	-10.0757
得人	-10.076
以示	-10.0761
本然之	-10.0762
而不得	-10.0774
淳	-10.0779
獄	-10.078
而食	-10.0787
紫	-10.0799
:『	-10.0807
固不	-10.0808
仁矣	-10.0813
妨	-10.0815
在天	-10.0816
靈公	-10.0817
一定	-10.0819
莫不有	-10.0824
者雖	-10.0827
所當為	-10.0831
有定	-10.0835
治民	-10.0838
其德	-10.0839
不能行	-10.084
由之	-10.0847
當如此	-10.0847
栗	-10.0849
第三	-10.0851
相與	-10.0851
舜禹	-10.0854
慝	-10.0854
瑟	-10.0855
膚	-10.0858
付	-10.0859
在彼	-10.0861
夾	-10.0864
道徳	-10.0866
平常	-10.0875
離婁	-10.089
聼	-10.0891
邾	-10.0895
别有	-10.0896
一偏	-10.0901
杖	-10.0902
鹿	-10.0902
太極	-10.0905
而不知其	-10.0907
黙識	-10.0908
不實	-10.0913
如有	-10.0914
雖未	-10.0916
陷於	-10.0917
婦人	-10.0917
狂者	-10.0917
倦	-10.0917
不屑	-10.0919
不使	-10.0919
而猶	-10.0919
夕	-10.0931
罷	-10.0937
比干	-10.0947
貧富	-10.0951
明德	-10.0961
随	-10.0974
帝王	-10.0975
文字	-10.0978
三節	-10.0985
十年	-10.0988
此其	-10.0992
大學之	-10.0993
惡人	-10.0994
之詞	-10.0996
房	-10.0999
未至於	-10.1003
之耳	-10.1004
諸家	-10.1004
自新	-10.1006
麻	-10.1011
禍福	-10.1018
立言	-10.1024
行仁	-10.1025
玉藻	-10.1026
以是為	-10.1031
自修	-10.1043
但言	-10.1045
不修	-10.1045
戮	-10.1052
而夫子	-10.1055
固非	-10.1056
此二	-10.1056
所記	-10.1058
叔孫	-10.106
三日	-10.1066
推己	-10.1067
則吾	-10.107
而推之	-10.1072
所存	-10.1073
上帝	-10.1073
時人	-10.1099
者是也	-10.1101
君子之所	-10.1102
以俟	-10.1103
究其	-10.1106
有不同	-10.1108
乃能	-10.1108
是皆	-10.1113
遁	-10.1128
頗	-10.1133
虧	-10.1135
三分	-10.1136
於此而	-10.1138
大體	-10.1141
爾雅	-10.115
馮	-10.1162
之力	-10.1168
反之	-10.1172
方可	-10.1177
用其	-10.118
之術	-10.1181
其地	-10.1191
葉	-10.1192
二事	-10.1192
耳然	-10.1199
姬	-10.1202
子貢問	-10.1207
之大者	-10.121
蒲	-10.1211
一切	-10.1211
譬之	-10.1217
此一	-10.1218
問政	-10.1218
狎	-10.1222
以待	-10.1232
辨之	-10.1232
所學	-10.1235
親之	-10.1236
在所	-10.1244
如今	-10.1245
觧	-10.1246
途	-10.1248
卜	-10.125
曠	-10.125
韻	-10.1251
所論	-10.1251
之理也	-10.1251
明其	-10.1253
吉凶	-10.1254
以德	-10.1256
無復	-10.1262
動静	-10.1268
暫	-10.1286
繼之	-10.1287
僻	-10.1292
跡	-10.1293
夷子	-10.1295
迷	-10.1296
深矣	-10.1296
人欲之私	-10.1297
言仁	-10.1298
之主	-10.1299
仁知	-10.1299
亦猶	-10.1303
和而	-10.1307
無過	-10.131
動靜	-10.1311
字子	-10.1314
將以	-10.1316
際	-10.1318
未達	-10.1319
方百里	-10.1321
之人也	-10.1322
刪	-10.1325
而心	-10.1327
酌	-10.1328
爲之	-10.1329
雷	-10.1332
亦豈	-10.1336
乎外	-10.1337
清濁	-10.1338
其氣	-10.1344
不重	-10.1355
欲人	-10.1358
裏面	-10.1359
止也	-10.1361
真知	-10.1362
也以其	-10.1367
廹	-10.1368
此書	-10.1369
矣今	-10.1369
好去聲	-10.137
知仁	-10.137
而後能	-10.1378
特以	-10.1391
其所以然	-10.1404
淮	-10.1404
二十五	-10.1405
準	-10.1407
須知	-10.1409
其文	-10.1412
展	-10.1418
公都子	-10.1419
泰山	-10.1436
曾子曰	-10.1441
不恭	-10.1443
位而	-10.1443
而孟子	-10.1445
髙下	-10.1447
康誥	-10.1448
而取	-10.145
不變	-10.145
乖	-10.145
繩	-10.1457
緣	-10.1457
自治	-10.1461
閔	-10.1462
其所謂	-10.147
根本	-10.1471
民心	-10.1471
為重	-10.1481
於國	-10.1486
自成	-10.1489
苖	-10.1495
敦	-10.1497
進而	-10.1497
壯	-10.1498
唐虞	-10.15
而卒	-10.1503
孟子謂	-10.1503
四體	-10.1505
不能自	-10.1508
之説則	-10.1511
不仁者	-10.1518
愛之理	-10.1519
何如曰	-10.1525
知命	-10.1528
往往	-10.1529
其樂	-10.153
透	-10.1532
人之善	-10.1533
於其間	-10.1535
闇	-10.1537
孔孟	-10.1538
必得	-10.1539
墻	-10.1541
無惡	-10.1542
又如	-10.1545
天下之人	-10.1553
異也	-10.1555
上句	-10.1561
淺説	-10.1565
待之	-10.1571
之偏	-10.1572
此類	-10.1573
治也	-10.1573
而忘	-10.1575
却不	-10.1581
不仕	-10.1584
為士	-10.1584
亦只是	-10.1585
而可以	-10.1597
者多矣	-10.1609
㫁	-10.1611
不存	-10.1614
萬事	-10.1614
善道	-10.1615
擾	-10.1617
一夫	-10.1618
割	-10.1621
睹	-10.1622
施之	-10.1622
輪	-10.1625
動而	-10.1625
醬	-10.1627
之殊	-10.1632
言外	-10.164
承上文	-10.1641
或謂	-10.1642
閔子	-10.1644
則已	-10.1645
山川	-10.1647
一語	-10.165
無常	-10.165
善之	-10.1658
入徳	-10.1659
鄰國	-10.1659
全是	-10.1664
功利	-10.1667
一國	-10.167
是理	-10.1671
上說	-10.1673
於下	-10.1685
人不知	-10.1689
饒	-10.169
自此	-10.169
便見	-10.1695
踈	-10.17
故又	-10.1703
三人	-10.1708
百工	-10.1718
問仁	-10.1728
五霸	-10.173
善言	-10.1731
墓	-10.1735
其一	-10.1735
不惟	-10.1735
人臣	-10.1739
眼	-10.1739
不同然	-10.1742
天下之大	-10.1747
桀紂	-10.1751
五行	-10.1752
禹之	-10.1753
言此	-10.1754
而天下	-10.1758
大而	-10.1758
始得	-10.1762
東西	-10.1764
者然	-10.1767
侯曰	-10.1769
尾	-10.177
之數	-10.1771
功夫	-10.1781
瞻	-10.1785
易曰	-10.1787
泣	-10.1789
曲折	-10.179
其㫖	-10.1794
繆公	-10.1795
只是一	-10.1796
識其	-10.1797
就其	-10.1799
理則	-10.1804
其大者	-10.1805
不立	-10.1814
此時	-10.1818
枝	-10.1823
之類是也	-10.1826
攘	-10.1829
次序	-10.1831
而作	-10.1838
專指	-10.1842
節張彦陵曰	-10.1849
為正	-10.186
之資	-10.1861
是性	-10.1866
愿	-10.1866
驚	-10.1867
次之	-10.1869
憎	-10.1872
章指言	-10.1872
觀人	-10.1872
知仁勇	-10.1874
思慮	-10.1874
為大夫	-10.1883
敝	-10.1884
宫室	-10.1892
辭氣	-10.1895
事業	-10.1902
惟聖人	-10.1914
逺之	-10.1915
而用之	-10.1918
集注	-10.1918
百里奚	-10.192
作亂	-10.192
居敬	-10.1922
璧	-10.1924
其下	-10.195
察之	-10.1951
儒者	-10.1952
脚	-10.1953
天也	-10.1953
不可及	-10.1956
彼此	-10.1958
傳曰	-10.196
耆	-10.1962
禮則	-10.1964
誠實	-10.1964
有事	-10.1968
已發	-10.1971
二説	-10.1985
其生	-10.1985
勇也	-10.1989
學者之	-10.1991
皆然	-10.1993
醫	-10.1995
䧟	-10.1996
於其所	-10.1998
豪	-10.2
肥	-10.2
裕	-10.2002
陽虎	-10.2007
人主	-10.2017
風俗	-10.2018
一等	-10.2018
征伐	-10.2019
孰能	-10.2027
内則	-10.2028
隨時	-10.2031
復有	-10.2032
心之徳	-10.2036
受其	-10.2036
妾	-10.2038
是指	-10.2038
懲	-10.2038
天下無	-10.2042
方能	-10.2042
外面	-10.2045
鳥獸	-10.2046
亞	-10.2046
京	-10.2046
豚	-10.2048
所蔽	-10.2052
光明	-10.2056
乃為	-10.2059
斯民	-10.206
聞而	-10.2062
所同	-10.2063
君子所	-10.2064
常存	-10.207
萬物之	-10.2072
及此	-10.2079
狄	-10.2084
詩大雅	-10.2088
魯大夫	-10.209
有可	-10.2091
軌	-10.2092
十章	-10.2098
而後可	-10.2103
之誤	-10.2103
親愛	-10.2105
大賢	-10.2118
而不言	-10.2119
逺而	-10.2121
是之謂	-10.2122
退而	-10.2125
而知之	-10.2125
五百	-10.2126
産	-10.2127
其政	-10.2127
紛	-10.2128
影	-10.2129
刑罰	-10.2129
庚	-10.213
委曲	-10.2131
鼻	-10.2134
拔	-10.2134
無適	-10.2137
吾心之	-10.214
正名	-10.214
品節	-10.2152
者多	-10.2153
言之也	-10.2153
也或曰	-10.2158
不取	-10.2166
只是一箇	-10.2167
昭穆	-10.2176
釋之	-10.2182
荀子	-10.2213
哲	-10.2215
而已故	-10.2215
然有	-10.2218
陰	-10.2219
閭	-10.222
季康子	-10.2221
十二章	-10.2221
註苞氏曰	-10.2226
音扶	-10.2227
之義也	-10.223
羞惡	-10.2236
不死	-10.2241
清明	-10.2242
上面	-10.2243
蔡氏曰	-10.2252
祗	-10.226
許子	-10.226
之意而	-10.2261
屨	-10.2265
仁政	-10.2266
無形	-10.2266
憾	-10.2267
本意	-10.2269
濯	-10.2271
氣稟	-10.2281
不悦	-10.2284
公室	-10.2284
辭也	-10.2288
具於	-10.2297
高明	-10.2298
如此説	-10.23
生死	-10.2301
士師	-10.2301
反復	-10.2303
但知	-10.2306
至誠無息	-10.2308
王季	-10.2315
皆得	-10.2315
率性	-10.2327
盡其道	-10.2332
齊景公	-10.2335
翼註	-10.2336
有善	-10.2337
善也	-10.2342
朋	-10.2344
而見	-10.2346
則所謂	-10.2346
周流	-10.2349
天之所	-10.2354
二三子	-10.2359
自言	-10.2359
孰為	-10.2366
引此	-10.2366
天爵	-10.2369
此非	-10.2374
固不可	-10.2381
而後可以	-10.2383
紂之	-10.2385
之職	-10.2395
汎	-10.2397
下愚	-10.2399
般	-10.2401
這裏	-10.2409
是仁	-10.2413
信乎	-10.2417
。』	-10.242
自得之	-10.2422
固無	-10.2423
免於	-10.243
答之	-10.2431
繆	-10.2436
讎	-10.2437
牙	-10.2441
局	-10.2443
占	-10.2443
萬鍾	-10.2448
注包曰	-10.2449
文集曰	-10.2451
不曽	-10.2451
䙝	-10.2451
心術	-10.2457
久而	-10.2465
以取	-10.2469
其勢	-10.2476
十一年	-10.2478
更不	-10.2479
卻	-10.2485
郭	-10.2486
暢	-10.2486
貧而	-10.2487
此數	-10.2487
輅	-10.2488
樂天	-10.249
始於	-10.2494
豈得	-10.25
教化	-10.2504
洪	-10.2513
無意	-10.2513
以及人	-10.2513
㓜	-10.2519
南面	-10.2527
不憂	-10.2528
酬	-10.2529
厎	-10.2533
饗	-10.2534
奈何	-10.2548
襄公	-10.255
自盡	-10.2557
逺近	-10.2561
祭之	-10.2565
由其	-10.2568
生民	-10.257
十一	-10.2571
直是	-10.2572
貳	-10.2575
穿	-10.2576
整	-10.2577
顓臾	-10.2579
前日	-10.258
捨	-10.2584
闑	-10.2584
即其	-10.2596
乃以	-10.2597
何歟	-10.2601
者如此	-10.2603
不智	-10.2606
無違	-10.261
如天	-10.2612
天下之民	-10.2613
得天下	-10.2618
礙	-10.262
合而	-10.262
溪	-10.2621
魄	-10.2622
既有	-10.2624
冇	-10.2625
讒	-10.2626
駕	-10.2632
師也	-10.2632
氣質之性	-10.2633
仁而	-10.2634
其過	-10.2645
槩	-10.2645
五世	-10.265
有恒	-10.2652
太廟	-10.2654
不以為	-10.266
徳性	-10.2662
聞其	-10.2664
苟且	-10.2668
辛	-10.2668
巍巍	-10.2671
之流	-10.2674
化育	-10.2677
炙	-10.2678
者但	-10.2678
勉人	-10.2679
大綱	-10.2679
爲政	-10.2679
理會	-10.2683
不謹	-10.2691
貴於	-10.2702
子夏曰	-10.2703
儀禮	-10.2703
但當	-10.2709
詖	-10.271
柳下惠	-10.2713
圃	-10.2717
而使之	-10.2717
不睹不聞	-10.272
無少	-10.2721
下面	-10.2724
之目	-10.2731
立於	-10.2738
充滿	-10.2741
魯論	-10.2741
著力	-10.2744
今乃	-10.2751
詭	-10.2759
俯	-10.2763
必待	-10.2767
存亡	-10.2774
可知也	-10.2778
其始	-10.279
天地萬物	-10.2791
孟子之意	-10.28
之實也	-10.2802
在心	-10.2802
之官	-10.2803
議論	-10.2804
者惟	-10.2806
柳	-10.2809
者何曰	-10.2811
而致	-10.2814
傳云	-10.2814
只有	-10.2816
些子	-10.2817
字上	-10.2822
有德	-10.2825
拱	-10.2825
揜	-10.2827
賢才	-10.2828
庶民	-10.2829
子糾	-10.2835
大矣	-10.2841
生而	-10.2841
也吾	-10.2841
夫子所以	-10.2842
緊	-10.2847
所及	-10.2852
無知	-10.2853
別	-10.2853
倉	-10.2858
大節	-10.2861
盛徳	-10.2862
賽合註曰	-10.2873
者當	-10.2878
又是	-10.2881
於人者	-10.2884
得志	-10.289
芟一條减	-10.2892
非所以	-10.2892
武子	-10.2894
宗廟之	-10.2895
過而	-10.2897
寅	-10.29
則失	-10.2901
斯道	-10.2901
逺者	-10.2902
盍	-10.2903
副	-10.2904
赴	-10.2904
伐燕	-10.2909
惡其	-10.2916
易之	-10.2917
與之言	-10.2917
誠能	-10.2919
升堂	-10.292
視其	-10.2922
季子	-10.2923
生者	-10.293
不直	-10.2932
必自	-10.2939
切於	-10.2939
而求之	-10.294
又當	-10.2941
胷中	-10.2946
出而	-10.2946
竝	-10.2946
傲	-10.2951
刀	-10.2953
立而	-10.2954
交際	-10.2957
節目	-10.2958
大學之道	-10.2961
文意	-10.2963
大槩	-10.2978
孟氏	-10.2979
只要	-10.298
推廣	-10.2982
道不行	-10.2986
惻隱	-10.2986
是故君子	-10.2987
之所存	-10.2991
而去之	-10.2993
郡	-10.2997
未安	-10.2999
擬	-10.3001
所受	-10.3004
焚	-10.3005
不可以為	-10.3007
未足	-10.3007
以前	-10.301
作為	-10.3016
無為	-10.3021
仁字	-10.3022
止至善	-10.3025
湯之	-10.3026
曽子之	-10.3028
不要	-10.3033
之辭也	-10.3033
錄	-10.3035
用其力	-10.3038
莒	-10.3039
墜	-10.3043
寂	-10.3043
匹	-10.3043
保其	-10.3046
頑	-10.3047
鄭玄	-10.3052
飲酒	-10.3053
之事而	-10.3063
中正	-10.3064
君臣之義	-10.3071
然自	-10.3076
於親	-10.3076
乎夫	-10.3079
七人	-10.3082
已有	-10.3088
衛靈公	-10.3088
只為	-10.3091
此二句	-10.3091
行其道	-10.3091
健	-10.3093
浴	-10.3094
一書	-10.31
戸	-10.3101
從政	-10.3104
與我	-10.3105
斯言	-10.311
如此而	-10.3113
亦將	-10.3113
山之	-10.3116
乃可	-10.312
心體	-10.3125
莫知	-10.3129
正而	-10.3137
從周	-10.314
舌	-10.314
躁	-10.3143
伍	-10.3148
應之	-10.3149
盡善	-10.315
邦有道	-10.3151
之次	-10.3151
可疑	-10.3166
發之	-10.3167
甚於	-10.3168
亦皆	-10.3168
得於心	-10.3168
正意	-10.3169
此其所以	-10.317
未詳	-10.317
猶云	-10.3173
之事則	-10.3174
有疾	-10.3176
川流	-10.3176
從事於	-10.3178
元年	-10.3179
其家	-10.3182
小異	-10.3188
自己	-10.3188
十八	-10.3191
欲速	-10.3191
性與天道	-10.3191
緫	-10.3191
伯魚	-10.3192
見聖人	-10.3194
奕	-10.3198
其類	-10.3203
不獨	-10.3206
同一	-10.3206
一一	-10.3206
謂之仁	-10.3216
於已	-10.3219
可以見	-10.322
也所謂	-10.3223
然後知	-10.3227
此謂	-10.3229
也凡	-10.3234
武城	-10.3237
所養	-10.3239
為物	-10.3241
充塞	-10.3247
由於	-10.3249
陳蔡	-10.3251
愛親	-10.3258
縫	-10.3258
父之	-10.3259
所施	-10.3262
之域	-10.3267
非仁	-10.3271
如在	-10.3275
黜	-10.3278
達徳	-10.328
惻隠	-10.3282
两	-10.3284
嬖	-10.3288
僖	-10.3289
聚斂	-10.3289
譎	-10.329
亮	-10.3294
犬馬	-10.3294
己之心	-10.3298
令尹	-10.3298
不苟	-10.3307
二年	-10.3314
天人	-10.332
蓋有	-10.3324
人雖	-10.3325
而遽	-10.3327
䝉引	-10.3337
得其正	-10.3343
日用之間	-10.3346
非惟	-10.3348
不和	-10.3353
止是	-10.3354
子路問	-10.3357
成德	-10.3363
此即	-10.3368
功效	-10.3373
心存	-10.3378
柯	-10.3379
經綸	-10.3381
直以	-10.3384
托	-10.3385
阻	-10.3389
好禮	-10.3389
鬭	-10.339
董	-10.339
而安	-10.3391
則一	-10.3392
救民	-10.3395
伯子	-10.3396
培	-10.3397
當為	-10.3398
德行	-10.3398
而樂	-10.3399
神農	-10.34
時習	-10.34
能如此	-10.3407
不親	-10.3408
十四年	-10.3409
而後有	-10.3409
中行	-10.3413
人爵	-10.3415
行仁政	-10.3416
冉	-10.3419
仁心	-10.3419
十二年	-10.3422
為美	-10.3426
舊説	-10.3426
諭	-10.3432
信也	-10.3432
之世	-10.3434
模	-10.3434
德者	-10.3434
天資	-10.3436
之言也	-10.344
敎人	-10.344
講學	-10.3444
有得	-10.3445
故雖	-10.3446
必須	-10.3446
中庸之道	-10.3447
穆公	-10.3447
詠	-10.3447
好樂	-10.3448
孺子	-10.3449
王政	-10.3453
皆在	-10.3453
天下之物	-10.3453
望之	-10.3454
相因	-10.3455
乎天	-10.3458
二百	-10.346
子曰至	-10.3462
邪說	-10.3463
善矣	-10.3466
上言	-10.3466
大德	-10.3472
其初	-10.3472
所固有	-10.3473
之聲	-10.3473
鳯	-10.3476
行乎	-10.3482
脫	-10.3482
而巳	-10.3483
殖	-10.3484
抱	-10.3485
魯君	-10.3486
熱	-10.3488
黍	-10.3489
之微	-10.3489
之田	-10.3492
值	-10.3493
焉故	-10.3494
無實	-10.3495
能守	-10.3497
則謂之	-10.35
國政	-10.3505
誠其意	-10.3505
必不能	-10.3507
無不盡	-10.351
所指	-10.3511
王者之	-10.3514
自棄	-10.3515
長短	-10.3518
近而	-10.3518
固當	-10.3519
農夫	-10.3527
而何	-10.3534
嗟	-10.3535
本是	-10.3536
習於	-10.3536
逮	-10.3538
刃	-10.3539
牢	-10.3541
后稷	-10.3542
其私	-10.3542
未嘗有	-10.3542
緇	-10.3544
必由	-10.3545
之本體	-10.3553
荘	-10.3561
不外	-10.3565
大哉	-10.3565
之路	-10.3569
必然	-10.3573
往而不	-10.3574
吳氏曰	-10.3576
不為也	-10.3579
孔安國	-10.358
有不善	-10.3582
為性	-10.3583
孝弟慈	-10.3586
易見	-10.3586
管叔	-10.3587
羅	-10.3588
囚	-10.3588
卓	-10.3591
其惡	-10.3594
篤實	-10.3597
何故	-10.3602
有是心	-10.3611
則凡	-10.3614
物格	-10.3616
者哉	-10.3633
姜	-10.3637
駁	-10.3639
蜡	-10.364
髙逺	-10.3641
祫	-10.3646
協	-10.3647
天地之間	-10.3653
之日	-10.3653
章首	-10.3657
於諸侯	-10.3659
何等	-10.3659
敬之	-10.3669
至大	-10.3669
言我	-10.367
以證	-10.3672
衽	-10.3673
於人也	-10.368
自處	-10.3681
輯	-10.3681
延	-10.3682
也謝曰	-10.3682
以心言	-10.3682
但其	-10.3683
柱	-10.3684
專言	-10.3685
琢	-10.3685
僖公	-10.3686
概	-10.3687
子路曰	-10.3687
允	-10.3688
便自	-10.3689
濶	-10.369
者能之	-10.3696
逸民	-10.3697
敎之	-10.3698
宴	-10.3699
而得之	-10.3699
非以	-10.3699
不可知	-10.37
庠	-10.37
所以爲	-10.3701
於斯	-10.3701
作用	-10.3704
故集註	-10.3707
不窮	-10.3711
條目	-10.3714
士大夫	-10.3714
故為	-10.3719
秦楚	-10.3719
學者當	-10.3721
可得	-10.3725
其終	-10.3726
明日	-10.3735
而獨	-10.3737
標	-10.3738
自任	-10.3739
斟酌	-10.3739
其序	-10.3742
織	-10.3744
哉故	-10.3746
説到	-10.375
茅	-10.3751
菜	-10.3754
誠之者	-10.3756
不得為	-10.3757
有子	-10.3758
蓋以	-10.3759
公曰	-10.3761
與孟子	-10.3766
更有	-10.3768
取諸	-10.3769
皆所以	-10.3774
論性	-10.3775
在前	-10.3776
七篇	-10.3778
實而	-10.3783
矣蓋	-10.3787
將去	-10.379
柄	-10.379
未甞	-10.3791
見孔子	-10.3792
欣	-10.3793
似乎	-10.3795
謟	-10.3795
者猶	-10.3797
雪	-10.3799
顛	-10.38
熊	-10.38
有成	-10.3801
若能	-10.3801
之機	-10.3802
樂道	-10.3809
於後	-10.3812
一朝	-10.3813
匠	-10.3825
接物	-10.3826
不可謂	-10.3828
已甚	-10.383
乎故	-10.383
不同也	-10.3838
邱	-10.384
識之	-10.3842
接輿	-10.3843
叔子	-10.3843
谷	-10.3844
敷	-10.3844
粹	-10.3845
茂	-10.3845
季桓子	-10.3846
池	-10.3846
箋	-10.3849
也若夫	-10.385
計較	-10.3853
幅	-10.3854
邪正	-10.3857
之累	-10.3859
所發	-10.3859
註文	-10.386
童	-10.3863
不可曉	-10.3865
也孟子言	-10.3866
之全體	-10.3868
丈人	-10.387
中心	-10.3872
疾病	-10.3873
遷善	-10.3876
兵車	-10.3876
之風	-10.3877
之哉	-10.3877
在後	-10.3881
順理	-10.3886
此一章書見	-10.3895
懈	-10.3895
諷	-10.3896
奴	-10.3897
蓄	-10.3898
叩	-10.3899
其末	-10.3908
意在	-10.3909
上節	-10.3913
子賤	-10.3916
底道理	-10.3918
相類	-10.392
可以無	-10.392
充之	-10.393
彼之	-10.393
非道	-10.3933
爲善	-10.3937
人子	-10.3938
過矣	-10.3941
不可勝	-10.3941
不獲	-10.3942
洒掃應對	-10.3948
俊	-10.3949
乏	-10.3951
不移	-10.3952
按此	-10.3953
技	-10.3954
多矣	-10.3956
不如是	-10.3957
同姓	-10.3959
之心則	-10.3963
不假	-10.3966
不幸	-10.3968
亦不是	-10.397
吿	-10.3976
服人	-10.3978
財用	-10.3979
非徒	-10.3982
可與言	-10.3984
謙辭	-10.3986
天地間	-10.3987
不外乎	-10.3987
止之	-10.3991
物我	-10.3992
有人	-10.3994
夫子之道	-10.3998
以見其	-10.4001
暮	-10.4001
狥	-10.4002
章總㫖	-10.4002
湏	-10.4002
狂狷	-10.4005
逝	-10.4005
邉	-10.4009
矣又曰	-10.4016
萬殊	-10.4021
何其	-10.4025
固已	-10.4027
天時	-10.4027
至極	-10.4029
志於仁	-10.4031
只管	-10.4035
子西	-10.4035
王天下	-10.4035
與道	-10.4035
佛	-10.4038
桓子	-10.4043
九年	-10.4045
罰	-10.4049
䝉	-10.405
寫	-10.405
坤	-10.4051
視聽	-10.4051
雖若	-10.4053
荆	-10.4055
鈞	-10.4057
不遺	-10.4057
溺於	-10.4061
愚不肖	-10.4061
有諸	-10.4061
人之情	-10.4061
賜也	-10.4062
前篇	-10.4067
有一毫	-10.4067
當世	-10.4071
羞惡之心	-10.4072
萬章曰	-10.4077
此論	-10.409
大孝	-10.4094
不可易	-10.4097
程子之言	-10.4099
蒼	-10.41
將有	-10.4104
桮棬	-10.4108
各得其	-10.4109
扶又反	-10.4109
若使	-10.411
女子	-10.4111
分曉	-10.4115
費隠	-10.4116
黄帝	-10.4117
殊不知	-10.4117
公私	-10.4121
矣但	-10.4121
命者	-10.4126
禁止	-10.4134
發而	-10.4137
意誠	-10.4143
而與之	-10.4145
悲	-10.416
闊	-10.4161
優劣	-10.4161
萊	-10.4162
百世之	-10.4167
鵠	-10.4167
性分	-10.4172
約而	-10.4173
之為言	-10.4175
天理人欲	-10.4175
十三	-10.4175
不可無	-10.418
知性	-10.4181
為可	-10.4189
大倫	-10.419
如彼	-10.419
有若	-10.4201
之差	-10.4209
旱	-10.421
鼔	-10.421
擴	-10.4212
燭	-10.4213
窒	-10.4213
髪	-10.4214
篤信	-10.4215
大舜	-10.4215
不可行	-10.4224
皮弁	-10.4229
知其所	-10.4233
邦無道	-10.4234
者既	-10.4236
不免於	-10.4241
其利	-10.4241
十五年	-10.4242
如孔子	-10.425
文之	-10.4255
執一	-10.4257
㳺	-10.426
主忠信	-10.4261
為害	-10.4262
不害	-10.4264
惻怛	-10.4265
太宰	-10.4268
善則	-10.427
子男	-10.427
枉道	-10.427
而推	-10.4274
顔回	-10.4274
方其	-10.4276
慧	-10.4278
乆矣	-10.4279
大經	-10.4285
功業	-10.4286
先言	-10.4287
皆由	-10.4287
不曰	-10.4293
之和	-10.4295
為孝	-10.4299
不加	-10.4303
與物	-10.4304
理之當然	-10.4306
學文	-10.4306
陳相	-10.4312
也是以	-10.4314
遂以	-10.4315
入門	-10.4316
殉	-10.4316
弁	-10.4323
丹	-10.4326
難知	-10.4327
女樂	-10.4327
玩味	-10.4328
在已	-10.4335
曽子曰	-10.4336
不同而	-10.4341
衛君	-10.4342
相承	-10.4342
之所能	-10.4347
聖人之所	-10.4352
鄙夫	-10.4352
孔子言	-10.4355
其進	-10.4357
赤子	-10.4359
之宜	-10.4364
之君子	-10.4364
第四	-10.437
急於	-10.4373
所以能	-10.4374
片	-10.4379
人力	-10.4382
功用	-10.4385
所以明	-10.4385
志氣	-10.4385
也既	-10.4388
聖人所	-10.4391
從心	-10.4394
無時不	-10.4395
到得	-10.4395
隨事	-10.4396
必有所	-10.4402
從來	-10.4402
置之	-10.4407
底人	-10.4408
患難	-10.4409
蔽於	-10.4414
為利	-10.4415
不服	-10.4419
深切	-10.4422
不懼	-10.4424
畿	-10.4424
盖以	-10.4429
人之惡	-10.4436
狼	-10.4437
覇	-10.4437
制禮	-10.4438
未始	-10.4439
近者	-10.4439
棄之	-10.444
膏	-10.444
右師	-10.4445
吕氏曰	-10.4447
不願	-10.4447
然後可	-10.445
判	-10.4451
皆為	-10.4454
皆曰	-10.4464
自無	-10.4465
於善	-10.4467
憂患	-10.4468
六章	-10.447
一時之	-10.4476
養老	-10.4478
末節	-10.448
人才	-10.4481
其所以為	-10.4483
銘	-10.4488
極言	-10.4488
儘	-10.4489
纓	-10.449
罕言	-10.449
四章	-10.449
撫	-10.4491
縮	-10.4491
其常	-10.4492
此詩	-10.4495
經傳	-10.4497
練	-10.45
左氏	-10.4502
不專	-10.4504
周旋	-10.4504
無妄	-10.4505
非獨	-10.451
域	-10.4513
矣孟子	-10.4517
平公	-10.4519
故聖人	-10.4525
教以	-10.453
誠心	-10.4531
動其心	-10.4533
又引	-10.4533
前言	-10.4535
亦須	-10.4535
涵	-10.4536
當是時	-10.4536
汲汲	-10.4544
戲	-10.4547
不能用	-10.4553
成章	-10.4554
為賢	-10.4554
偏倚	-10.4556
昭昭	-10.4556
獻子	-10.4557
之首	-10.456
下節	-10.4562
所以行	-10.4563
世俗	-10.4564
五穀	-10.4566
焉此	-10.4569
六經	-10.4574
可否	-10.4574
聰	-10.4574
事物之	-10.4577
何不	-10.4581
識得	-10.4583
器也	-10.4585
為邦	-10.4588
体	-10.4591
躐等	-10.4592
聲色	-10.4592
亦未嘗	-10.4592
輙	-10.4594
艱	-10.4595
勉齋黄氏曰	-10.4595
選	-10.4596
是氣	-10.4597
有淺深	-10.4597
収	-10.4598
冀	-10.4599
孟子又	-10.46
區區	-10.4602
棖	-10.4604
宇	-10.4604
釁	-10.4604
聽訟	-10.4604
黻	-10.4605
三桓	-10.4608
超	-10.4614
以仁義	-10.4615
隨其	-10.4616
形體	-10.4618
五章	-10.4621
耶曰	-10.4625
不如此	-10.4626
最為	-10.463
結之	-10.4642
使者	-10.4645
㕓	-10.4646
繼之以	-10.4646
郢	-10.4647
爲人	-10.4649
寇	-10.4651
打	-10.4653
雄	-10.4655
故言	-10.4655
人多	-10.4656
郤	-10.4659
有意於	-10.4662
桴	-10.4662
賔客	-10.4663
於夫子	-10.4667
此四者	-10.4672
節翼註曰	-10.4682
則皆	-10.4683
萬理	-10.4687
學於	-10.4687
不備	-10.469
尊卑	-10.4692
無訟	-10.4693
有物	-10.4693
所以養	-10.4696
呂	-10.4701
能改	-10.4701
禮而	-10.4705
六年	-10.4708
其兄	-10.4708
箴	-10.4709
幹	-10.4709
錢	-10.471
守身	-10.471
睿	-10.4711
洋洋	-10.4712
道問學	-10.4713
純粹	-10.4714
候	-10.4716
齊侯	-10.4722
伊川解曰	-10.4724
不能知	-10.4724
厚葬	-10.4724
斯二者	-10.4727
死於	-10.4728
所樂	-10.4733
苟不	-10.4734
當在	-10.4737
以敬	-10.4738
也然而	-10.4743
體認	-10.4746
仕者	-10.4746
大過	-10.4756
一二	-10.4757
尤為	-10.4762
果能	-10.4767
寵	-10.4769
蕭	-10.4771
陷溺	-10.4776
鬻	-10.4777
真實	-10.4782
而知其	-10.4786
未足以	-10.479
復禮	-10.4793
小而	-10.4802
徳而	-10.4803
焉得	-10.4803
而易	-10.4804
有才	-10.4806
有心	-10.4812
君子之於	-10.4818
南軒張氏	-10.4819
齊大夫	-10.4819
拒之	-10.4823
亥	-10.4825
謗	-10.4826
評	-10.4826
騐	-10.4827
皆出於	-10.4835
曾㸃	-10.4839
南北	-10.484
到此	-10.4841
人之身	-10.4842
擇善	-10.4845
志於道	-10.4848
一世	-10.4848
得乎	-10.4851
有意	-10.4853
卷十	-10.4853
相接	-10.4854
臣也	-10.4855
助長	-10.4856
一生	-10.4858
九章	-10.486
言必	-10.4867
欲學者	-10.4867
明明德	-10.4875
能充	-10.4877
醒	-10.4879
荀	-10.4879
致曲	-10.4881
天下皆	-10.4884
四子	-10.4886
不妨	-10.4887
導之	-10.4887
安排	-10.489
歡	-10.4892
結上文	-10.4893
不知也	-10.4894
奪之	-10.4904
不平	-10.4905
無所不至	-10.4912
道之大	-10.4914
義利	-10.4914
新安	-10.4921
當行	-10.4924
其職	-10.4929
亦多	-10.4937
属	-10.4937
策	-10.4938
務本	-10.4938
壤	-10.4939
愬	-10.4939
棺	-10.494
而益	-10.494
南容	-10.4943
有許多	-10.4944
赤子之心	-10.4945
八佾	-10.4945
橫	-10.4946
蓋亦	-10.4947
行王政	-10.4949
殯	-10.4951
有諸己	-10.4953
一層	-10.4958
之本意	-10.496
問答	-10.4963
得之矣	-10.4965
未見其	-10.497
氣也	-10.497
凡有	-10.4974
八年	-10.4974
俱是	-10.4977
焉耳	-10.4979
安得不	-10.498
蒯聵	-10.4989
宗建曰	-10.4989
心上	-10.4992
夫子以	-10.4992
朱子謂	-10.4994
伯夷叔齊	-10.4995
瀆	-10.4996
須臾	-10.4996
相逺	-10.4997
朝音潮	-10.5
天命之謂性	-10.5
樂天齋翼註曰	-10.5001
沽	-10.5001
莫大於	-10.5004
壁	-10.5006
圉	-10.5006
積累	-10.5007
首尾	-10.5009
3	-10.5014
七十里	-10.5015
是從	-10.5018
不忠	-10.5023
不知禮	-10.5031
與仁	-10.5037
周室	-10.504
夜氣	-10.504
之中而	-10.5041
不論	-10.5042
合而言之	-10.5043
出奔	-10.5048
於家	-10.5049
改之	-10.505
反求	-10.5054
勵	-10.5055
滛	-10.5056
字指	-10.5056
曾晳	-10.5059
搏	-10.506
三千	-10.5062
其力	-10.5063
盡矣	-10.5067
體也	-10.5069
記之	-10.5072
得民	-10.5076
可觀	-10.5079
臨事	-10.5087
聖學	-10.5093
學校	-10.5096
正理	-10.5099
道字	-10.51
此一章書是孔子	-10.5102
王子	-10.5104
所傳	-10.5105
周制	-10.5108
排	-10.511
慨	-10.5116
蘇氏	-10.5117
投	-10.5118
歉	-10.5119
算	-10.5121
勇於	-10.5121
為聖人	-10.5122
學詩	-10.5122
責善	-10.5126
豕	-10.5128
齊其家	-10.5129
從其	-10.513
此段	-10.513
人生	-10.5138
助法	-10.5147
而未能	-10.5149
公劉	-10.5155
則有以	-10.5157
精義	-10.5162
奮	-10.5163
又從而	-10.5165
車馬	-10.5165
同也	-10.5168
豈以	-10.5169
説文	-10.5171
為二	-10.5173
進徳	-10.5173
恰好	-10.5175
緝	-10.5176
生知安行	-10.5177
為體	-10.5177
教之以	-10.5177
慟	-10.5178
記孔子	-10.5178
勃	-10.5178
註馬融曰	-10.5184
注馬曰	-10.5185
一有	-10.5187
以其所	-10.5188
而不自知	-10.519
乃所以	-10.5198
目之	-10.52
而徒	-10.5201
明道曰	-10.5204
今夫	-10.5205
相傳	-10.5207
老者	-10.521
國中	-10.5222
或作	-10.5227
徙義	-10.5227
哀公問	-10.5232
寐	-10.5233
雖無	-10.5234
津	-10.5234
理之所	-10.5235
亡矣	-10.5236
韋	-10.5238
兢	-10.5238
守約	-10.524
亦云	-10.524
無能	-10.5253
先有	-10.5253
與民	-10.5254
北面	-10.5259
恥之	-10.5259
各得其所	-10.5262
而不見	-10.5264
求也	-10.5265
見前篇	-10.5271
以明之	-10.5273
千萬	-10.528
果何	-10.528
憂懼	-10.5283
不告	-10.5284
效驗	-10.5284
狷者	-10.5285
比之	-10.5288
事親從兄	-10.5289
形甸反	-10.5291
仁民	-10.5292
冰	-10.5292
曷	-10.5292
掃	-10.5295
故先	-10.5296
轍	-10.5298
饒氏謂	-10.5301
使我	-10.5302
作春秋	-10.5307
率性之道	-10.5309
葉公	-10.531
而廢	-10.5312
也音義	-10.5314
喜怒	-10.5315
正月	-10.5319
皆無	-10.5323
太祖	-10.5324
正大	-10.5329
待人	-10.5332
而後已	-10.5335
斯文	-10.5337
其長	-10.5345
赦	-10.5347
深造	-10.5348
不多	-10.5348
孟軻	-10.5349
終於	-10.5349
之蔽	-10.5354
愚者	-10.5354
廛	-10.5355
詘	-10.5357
若只	-10.5359
沐浴	-10.5362
恣	-10.5362
毁譽	-10.5367
報怨	-10.5371
邪曰	-10.5373
然後為	-10.5376
成己	-10.5388
氣化	-10.5389
也尹曰	-10.5394
苞氏曰	-10.5398
人之有	-10.5403
即位	-10.5405
洛	-10.5406
專為	-10.5408
誇	-10.5416
戒之	-10.5417
錦	-10.5419
舉之	-10.542
當其可	-10.5423
孟子答	-10.5424
足矣	-10.5426
西北	-10.5428
往者	-10.5432
可見其	-10.5432
過之	-10.5436
天所	-10.5436
道路	-10.5438
孟子引	-10.5438
誠明	-10.5438
方見	-10.5441
持守	-10.5445
其端	-10.5446
未有能	-10.5449
立心	-10.5449
雍也	-10.5454
惜乎	-10.5458
與天	-10.5465
聲音	-10.5469
謨	-10.5474
之神	-10.5475
秩	-10.5476
芥	-10.5477
戈	-10.5477
知之者	-10.5478
洗	-10.5479
用力於	-10.5481
便可	-10.5481
巖	-10.5481
胸中	-10.5482
恐人	-10.5483
民無	-10.5489
下手	-10.5491
誤矣	-10.5491
!	-10.5491
仁智	-10.5496
六藝	-10.5499
無二	-10.5501
所生	-10.5501
此五者	-10.5502
近之	-10.5503
告朔	-10.5506
可言	-10.5507
此一章	-10.5508
後章	-10.551
備矣	-10.5511
發出	-10.5519
夏商	-10.552
不徒	-10.552
主宰	-10.5526
以時	-10.5527
何處	-10.5528
而今	-10.5532
餼	-10.5533
何足	-10.5534
焉於䖍反	-10.5536
棘	-10.5537
周書	-10.5538
堪	-10.5539
其言而	-10.554
陪臣	-10.554
鬬	-10.554
巽	-10.5541
枝葉	-10.5542
太師	-10.5542
抑揚	-10.5543
未可以	-10.5546
一善	-10.5547
所稱	-10.5549
此所以為	-10.555
幾希	-10.5552
見於外	-10.5555
必能	-10.5556
異於人	-10.5558
必求	-10.556
之甚也	-10.5561
也子路	-10.5561
無定	-10.5562
承上	-10.5565
注同	-10.5566
有甚於	-10.5566
物物	-10.5566
真氏曰	-10.5567
君子所以	-10.557
浩然	-10.5571
欲往	-10.5572
國名	-10.5576
六尺	-10.5577
二子之	-10.5577
所遇	-10.5578
之權	-10.5579
書云	-10.5589
玉帛	-10.5597
見聞	-10.5597
几	-10.56
在中	-10.5601
緩急	-10.5601
尊徳性	-10.5602
擅	-10.5602
黃	-10.5603
合當	-10.5603
版	-10.5604
亦足以	-10.5607
方得	-10.5607
鎰	-10.5607
附庸	-10.5612
有力	-10.5612
烝	-10.5613
所處	-10.5617
在這裏	-10.5622
尋常	-10.5622
釋氏	-10.5626
形氣	-10.5627
不達	-10.5628
可恥	-10.563
直道	-10.5633
方千里	-10.5633
何謂也	-10.5638
既得	-10.5638
達於	-10.564
九十	-10.5648
不得其正	-10.5656
集疏曰	-10.5661
天下有道	-10.5661
生意	-10.5663
欽定四庫全書論語	-10.5667
寶	-10.5668
各自	-10.5669
不務	-10.5669
可取	-10.5671
一個	-10.5672
非常	-10.5673
盡其心	-10.5676
自足	-10.5683
言此以	-10.5685
伯玉	-10.569
邪説	-10.5694
與人同	-10.57
不遷	-10.5703
平生	-10.5704
十一章	-10.5711
哂	-10.5717
凡言	-10.5718
天下歸仁	-10.5719
返	-10.5721
弛	-10.5722
博施濟衆	-10.5722
蘧伯玉	-10.5722
無聲無臭	-10.5724
壇	-10.5724
珠	-10.5726
也註	-10.5727
所以然者	-10.5727
倣	-10.5729
軍旅	-10.5731
夫子嘗	-10.5733
無不善	-10.5734
不差	-10.5738
糾	-10.5738
與民同樂	-10.5743
兩事	-10.5744
來者	-10.5746
與天地同	-10.575
亦不過	-10.5759
小註	-10.5761
吾道	-10.5762
首節	-10.5764
大者	-10.5764
回也	-10.5771
楹	-10.5772
天子諸侯	-10.5773
旒	-10.5774
者可以	-10.5777
婉	-10.5782
噫	-10.5782
南軒	-10.5784
勲	-10.5784
幾於	-10.5786
五常	-10.5787
佛肸	-10.5787
諸儒	-10.5787
失其本心	-10.5788
仞	-10.5788
樞	-10.5788
彦	-10.579
沂	-10.579
也况	-10.579
紹	-10.5791
貴者	-10.5792
萬章問曰	-10.5794
濡	-10.5794
昆弟	-10.5799
十六年	-10.5806
應物	-10.581
者何也	-10.5815
取友	-10.5816
正道	-10.582
門外	-10.583
未知其	-10.5837
麟	-10.584
封人	-10.5841
料	-10.5844
髮	-10.5849
羣臣	-10.585
之所由	-10.5852
邵	-10.5852
司馬牛	-10.5853
毫釐	-10.5853
庶㡬	-10.5857
愛敬	-10.5858
合義	-10.586
天生	-10.5863
病痛	-10.5863
十四	-10.5865
人之言	-10.5876
考證	-10.5877
世人	-10.588
至公	-10.5886
往來	-10.5888
得於天	-10.5888
兩字	-10.5891
不遇	-10.5896
其論	-10.5897
噐	-10.5907
可通	-10.591
鯉	-10.5911
田獵	-10.5911
朴	-10.5913
臧文仲	-10.5914
漏	-10.5914
賣	-10.5915
固執	-10.5918
以事言	-10.592
尊者	-10.5922
目前	-10.5924
章諸生	-10.5925
羔裘	-10.5926
大義	-10.5929
魯國	-10.5933
如是則	-10.5934
長幼	-10.594
雖多	-10.5941
不敢以	-10.5945
何可	-10.5953
惡平聲	-10.5955
説話	-10.5955
生而知之	-10.5958
驩	-10.5968
其所為	-10.5969
欲得	-10.5972
乍	-10.5975
彰	-10.5975
鐘鼓	-10.5975
塵	-10.5976
居處	-10.5978
奈何曰	-10.5978
汨	-10.5979
壅	-10.598
殿	-10.5983
意味	-10.5983
蟲	-10.5984
所問	-10.5985
此義	-10.5986
偏於	-10.5989
如何先生曰	-10.5991
誅之	-10.5992
不治	-10.5993
重於	-10.5995
分之	-10.5996
魯公	-10.5998
者謂之	-10.6011
異者	-10.6011
先祖	-10.6012
害其	-10.6019
敬長	-10.6022
讀為	-10.6024
如云	-10.6024
何以異	-10.6027
八字	-10.6034
或者	-10.6037
釐	-10.6039
觀於	-10.6039
亳	-10.6042
亦作	-10.6043
此二者	-10.6043
曽晳	-10.6043
何用	-10.6045
邦國	-10.6045
聖人所以	-10.6046
芻	-10.6046
頒	-10.6046
價	-10.6046
告之曰	-10.6046
為小人	-10.6047
翦	-10.6048
自其	-10.6048
5	-10.605
事父母	-10.6056
仁之方	-10.6061
大註	-10.6062
五十里	-10.6065
不幸而	-10.6068
召之	-10.6071
責其	-10.6072
處事	-10.6074
匡人	-10.6079
合下	-10.6079
千古	-10.6079
正義曰云	-10.6084
正其心	-10.6086
墨子	-10.609
聞道	-10.609
本自	-10.6093
不居	-10.6101
脉	-10.6105
懇	-10.6106
不善者	-10.6108
宏	-10.611
弼	-10.6111
為諸侯	-10.6111
初不	-10.6114
他人之	-10.6114
醯	-10.6114
於父母	-10.6115
知新	-10.6122
無足	-10.6129
喪禮	-10.6131
欲立	-10.6133
善政	-10.6134
緅	-10.6134
三子之	-10.6135
底事	-10.6138
盛德	-10.6138
門弟子	-10.6139
忘其	-10.614
如此其	-10.6149
正命	-10.615
一國之	-10.6152
不著	-10.6155
之得失	-10.6161
未定	-10.6163
增	-10.6168
謂之性	-10.617
錫	-10.617
盧	-10.6171
無害	-10.6172
耘	-10.6172
亦不得	-10.6173
藐	-10.6174
誠字	-10.6176
匪	-10.6177
四年	-10.6179
哀矜	-10.6185
夏時	-10.6187
黑	-10.6188
只言	-10.6199
自立	-10.6202
時君	-10.6203
告之以此	-10.6205
昭著	-10.6205
人之所以	-10.6208
不分	-10.6215
死亡	-10.6219
事功	-10.6222
列國	-10.6225
無私心	-10.6226
擔	-10.6234
所以深	-10.6235
麥	-10.6235
故特	-10.6236
範	-10.6237
悠久	-10.6238
孟子弟子	-10.6239
貨殖	-10.6241
饌	-10.6242
縷	-10.6243
緯	-10.6244
故以為	-10.6245
庾	-10.6246
知其為	-10.6248
反身	-10.6249
絞	-10.6249
不足以為	-10.625
一曰	-10.6254
王驩	-10.6256
其本心	-10.6257
貴乎	-10.6262
聖道	-10.6263
林氏	-10.6273
一說	-10.6283
自責	-10.6285
天徳	-10.6288
相合	-10.6288
不足於	-10.6291
三事	-10.6295
名實	-10.63
周人	-10.6303
横渠曰	-10.6303
天下後世	-10.6305
純亦不已	-10.6305
千乗之國	-10.6306
不可須臾離	-10.6306
去也	-10.6306
庠序	-10.6307
淪	-10.6308
何也曰此	-10.6308
甸	-10.6309
迭	-10.6309
晝夜	-10.631
誠敬	-10.631
未必能	-10.631
醜	-10.6311
當理	-10.6313
循其	-10.6315
平時	-10.6315
孔子對曰	-10.6317
自能	-10.6318
公孫丑曰	-10.6319
非但	-10.6319
失於	-10.6321
千乘	-10.6322
之訓	-10.6323
仁道	-10.6331
事物之理	-10.6339
愛民	-10.634
桓文	-10.6341
方始	-10.6342
念慮	-10.6348
感動	-10.6348
應事	-10.6351
放心	-10.6351
自道	-10.6352
修己	-10.6368
自慊	-10.6369
事事物物	-10.6369
摩	-10.637
治亂	-10.6371
有所不為	-10.6373
膠	-10.6375
畒	-10.6376
惕	-10.6378
忠厚	-10.6379
踵	-10.6381
孝悌	-10.6382
少有	-10.6383
對言	-10.639
期於	-10.6391
周官	-10.6391
夫豈	-10.6392
七章	-10.6393
而言之則	-10.6394
孟子對曰	-10.6395
嘗謂	-10.6403
大凡	-10.6414
不廢	-10.6421
衣食	-10.6427
者若	-10.6428
大㫖	-10.643
但有	-10.6434
夲	-10.6435
之學也	-10.6435
溫	-10.6439
不見諸侯	-10.6441
抑之	-10.6444
百畆	-10.6444
孔顔	-10.6446
今王	-10.6447
起於	-10.645
司敗	-10.6454
亦不必	-10.6457
之流行	-10.6462
立志	-10.6466
知天命	-10.6471
居室	-10.6482
而改	-10.6487
行行	-10.6492
十七	-10.6492
氏云	-10.6495
此一句	-10.6498
醉	-10.6502
諾	-10.6503
好義	-10.6504
思無邪	-10.6505
博文約禮	-10.6505
知我	-10.6506
熙	-10.6506
翕	-10.6506
菴	-10.6507
此條	-10.6509
口腹	-10.6509
陰陽	-10.651
三山陳氏曰	-10.651
二物	-10.6513
仲雍	-10.6514
自信	-10.6514
學力	-10.6517
耦	-10.6519
不害其為	-10.652
逺人	-10.6523
曾子之	-10.6525
不作	-10.653
不以禮	-10.6533
所主	-10.6535
章張彦陵曰	-10.654
二者皆	-10.6548
東南	-10.6553
晚	-10.6568
鄭注	-10.6568
淡	-10.6571
絜	-10.6571
詣	-10.6571
遍	-10.6572
圈外	-10.6574
尚有	-10.6575
至道	-10.6575
十三年	-10.6576
杜預	-10.6579
懦	-10.6579
周子	-10.658
睦	-10.6582
憑	-10.6582
个	-10.6582
十人	-10.6583
無不在	-10.6583
民之所	-10.6593
楚人	-10.6602
也雖然	-10.6607
推本	-10.6608
自我	-10.6609
惡去聲	-10.6612
犯上	-10.6613
輔氏	-10.6616
辭命	-10.6621
訥	-10.6633
立命	-10.6634
用工	-10.6637
膺	-10.6638
怕	-10.6638
則一也	-10.6639
泯	-10.664
磬	-10.6641
魂	-10.6647
之以禮	-10.6648
壹	-10.6649
悼	-10.6651
不忍之心	-10.6652
者何也曰	-10.6654
墨氏	-10.6657
當日	-10.6657
亦可見	-10.6658
醢	-10.6659
皆從	-10.6663
紺	-10.6666
賢否	-10.6669
則可謂	-10.667
不許	-10.6671
又須	-10.6672
地名	-10.6674
二條	-10.6674
斷之	-10.6682
以成其	-10.6684
此特	-10.6686
語類	-10.6687
修道	-10.6692
不輕	-10.6695
字對	-10.6699
冉子	-10.6704
仇	-10.6705
世道	-10.6706
子華	-10.6709
驟	-10.6711
奄	-10.6711
嫡	-10.6714
詰	-10.6716
寗	-10.6716
喟然	-10.6718
公侯	-10.6725
兩章	-10.6727
鞭	-10.6728
每事	-10.6729
註中	-10.673
而巳矣	-10.6731
詳矣	-10.6732
這便是	-10.6733
第五	-10.674
因之	-10.6744
國之君	-10.6746
之驗	-10.6749
於衛	-10.6749
黄氏	-10.6758
所不及	-10.6759
篤志	-10.6771
道統	-10.6774
父子之	-10.6775
㤗	-10.6776
何爲	-10.6776
欲去	-10.6777
鏡	-10.6777
普	-10.678
誥	-10.6781
敖	-10.6782
張敬夫	-10.6783
洽	-10.6785
正義曰案	-10.6786
底意思	-10.6788
徼	-10.6788
不到	-10.6793
所用	-10.6798
不偏	-10.6799
雖非	-10.6802
狐	-10.6805
微生	-10.6809
西南	-10.681
爲仁	-10.6818
羮	-10.6819
政教	-10.682
則易	-10.6822
失之矣	-10.6824
又豈	-10.6824
小節	-10.6827
無餘	-10.6829
二女	-10.6829
喜怒哀樂未發	-10.6833
思誠	-10.6833
詩人	-10.6836
於外者	-10.6837
便能	-10.6837
王文憲曰	-10.6846
魋	-10.6853
卧	-10.6854
示之	-10.6857
麟士	-10.6861
一言而	-10.6863
上之人	-10.6867
因其所	-10.6868
通章	-10.687
純乎	-10.6872
之於身	-10.6872
及之	-10.6874
袒	-10.6875
儲子	-10.6876
近世	-10.6882
不須	-10.6885
受業	-10.6894
而失其	-10.6896
聘禮	-10.69
語黙	-10.69
惻	-10.6909
安百姓	-10.6919
宛	-10.6921
軒	-10.6922
註鄭𤣥曰	-10.6923
道之所以	-10.6926
大夫士	-10.693
弑其君	-10.6932
既已	-10.6948
都鄙	-10.6951
所當止	-10.6952
鄭聲	-10.6952
實心	-10.6953
不可考	-10.6953
注疏	-10.6959
也古者	-10.6968
初非	-10.697
專主	-10.6978
直指	-10.6982
楊子	-10.6982
不恱	-10.6984
桐	-10.6992
苑	-10.6992
嗇	-10.6993
嫁	-10.6993
雲峰	-10.6993
複	-10.6995
一而已矣	-10.6996
要人	-10.6997
邠	-10.6997
將來	-10.6998
皇皇	-10.6999
互相發	-10.7003
根於	-10.7006
體物	-10.7008
深逺	-10.7012
得他	-10.7013
里仁	-10.7014
無遺	-10.702
亦只	-10.7022
身之所	-10.703
處便是	-10.7039
思量	-10.7055
愛物	-10.7058
鉤	-10.7062
鈍	-10.7062
兒	-10.7065
不答	-10.7068
何以言	-10.707
敦化	-10.7073
郎	-10.7074
最難	-10.7074
恭儉	-10.7077
天下之善	-10.7078
天下平	-10.7079
情性	-10.708
之法也	-10.7081
武仲	-10.7081
居上	-10.7082
罪人	-10.7084
之所及	-10.7086
者不過	-10.7095
匡章	-10.7096
學易	-10.71
後學	-10.7101
為政者	-10.7101
之類皆	-10.7108
之本心	-10.711
顏	-10.711
徒知	-10.7121
難易	-10.7124
無愧	-10.7129
莭	-10.7131
惟知	-10.7131
祖考	-10.7131
辭受	-10.7132
大率	-10.7132
本原	-10.7134
食音嗣	-10.7134
不能守	-10.7136
何以為	-10.7137
陋巷	-10.7137
視朝	-10.714
儺	-10.714
志學	-10.7144
柴	-10.7144
惻隠之心	-10.7148
孟子論	-10.7148
以義為	-10.7148
沼	-10.7149
簞食	-10.7152
悠逺	-10.7153
宰予	-10.7155
天之生	-10.7156
以致其	-10.7157
賔主	-10.717
失其正	-10.7171
的人	-10.7173
此孟子所以	-10.7179
之正也	-10.7184
取舍	-10.7187
大宰	-10.7188
弑君	-10.7199
崔	-10.7201
有大小	-10.7207
藻	-10.7209
停	-10.721
桓魋	-10.721
十三章	-10.7211
北辰	-10.7212
紐	-10.7213
狷	-10.7214
難言	-10.7221
豈可以	-10.7226
凡民	-10.7229
去魯	-10.7237
一年	-10.7241
李氏	-10.7246
貢法	-10.7246
行禮	-10.7246
為亂	-10.7249
芟二條减	-10.7249
令人	-10.7253
謂性	-10.7255
王氏曰	-10.7257
不以其道	-10.7259
去做	-10.7259
前説	-10.726
記曰	-10.726
一様	-10.7266
其弊	-10.7272
巧言	-10.7274
許其	-10.7274
還是	-10.7274
又按	-10.7276
撓	-10.728
霄	-10.7281
制作	-10.7284
蚓	-10.7285
薪	-10.7285
敦厚	-10.7286
所執	-10.7289
知本	-10.729
斛	-10.729
本作	-10.7291
再言	-10.7291
季路	-10.7293
學者所當	-10.7296
陽明	-10.7308
沛然	-10.7312
作樂	-10.7312
不可勝用	-10.7323
爾汝	-10.7327
而不復	-10.7338
亨	-10.7347
鳳	-10.7349
闔	-10.7349
不過如此	-10.7354
疇	-10.7354
獨知	-10.7354
欽	-10.7356
褐	-10.7356
穿窬	-10.7357
儻	-10.7358
八章	-10.7363
東周	-10.7371
箕	-10.739
而孔子	-10.7399
不脩	-10.7399
只說	-10.7411
五祀	-10.7412
自然之理	-10.7418
𦂳	-10.7419
沓	-10.742
酉	-10.7423
咨	-10.7425
或疑	-10.7425
自覺	-10.7425
荷蕢	-10.7426
悪	-10.7427
致敬	-10.7428
保赤子	-10.743
四書脉曰	-10.743
莫先於	-10.7431
正所謂	-10.7431
水土	-10.7432
獵較	-10.7434
其流	-10.7434
捐	-10.7436
霸者	-10.7441
其母	-10.7442
鄭𤣥	-10.7443
白圭	-10.7444
後面	-10.7451
孟子所以	-10.7454
無所用	-10.7454
正謂	-10.746
主君	-10.7467
口氣	-10.7471
一鄉	-10.7471
文勢	-10.7472
精㣲	-10.7472
不宜	-10.748
絜矩之道	-10.7484
便見得	-10.7486
子禽	-10.7491
鑑	-10.7492
爰	-10.75
有所未	-10.7503
亂臣賊子	-10.7503
眩	-10.7504
不忍人之心	-10.7506
百世	-10.7507
未免於	-10.751
4	-10.7514
東陽許氏曰	-10.7519
不止於	-10.7523
道之不行	-10.7534
血氣之	-10.7536
下大夫	-10.7537
疏云	-10.7547
不均	-10.7551
世間	-10.7559
無息	-10.7561
成湯	-10.7567
不可離	-10.7576
當然之則	-10.7577
駟	-10.7578
涵泳	-10.7578
忿懥	-10.7579
瓜	-10.7579
跖	-10.7579
諛	-10.758
正義曰此	-10.758
誼	-10.758
篤恭而天下平	-10.758
無忌憚	-10.7581
証	-10.7584
敘	-10.7587
麗	-10.7587
尚何	-10.7589
修徳	-10.7594
寡欲	-10.7596
勉強	-10.7601
篤行	-10.7603
五榖	-10.7607
武帝	-10.7607
想見	-10.761
無恥	-10.7613
襄王	-10.7616
執圭	-10.7617
聖人之意	-10.7621
大人者	-10.7622
主敬	-10.7625
懿	-10.7625
官名	-10.7625
也言人	-10.7632
欲求	-10.7633
善不善	-10.7634
安仁	-10.764
太過	-10.7642
也范曰	-10.7647
贄	-10.7649
軻	-10.765
尼	-10.7651
不改其樂	-10.7653
一息	-10.7653
皆指	-10.7654
吐	-10.7656
拾	-10.7657
五字	-10.7658
淺近	-10.7661
斤	-10.7662
孽	-10.7663
卷二	-10.7663
6	-10.7665
佛氏	-10.7665
一截	-10.7668
宣公	-10.767
也楊曰	-10.767
三者皆	-10.7672
曉得	-10.7672
由是而	-10.7678
之頃	-10.768
操存	-10.7692
有是理	-10.7694
夫子之意	-10.7705
一種	-10.7705
薨	-10.7706
知其非	-10.7709
保民	-10.7712
憲問	-10.772
三公	-10.772
吁	-10.7727
圗	-10.7727
厚齋馮氏曰	-10.7728
物格知至	-10.7728
潜	-10.7732
亦可見矣	-10.7732
郁	-10.7734
關雎	-10.7735
巨室	-10.7737
叟	-10.7737
朱註	-10.7737
諸生	-10.774
聖人之事	-10.7741
十七章	-10.7743
明徳新民	-10.7744
太宗	-10.7752
道德	-10.7753
其孰能	-10.7754
論孟	-10.7755
恐非	-10.7757
多寡	-10.7758
漢儒	-10.776
經界	-10.7764
子文	-10.7772
竊意	-10.778
丁音	-10.7786
深思	-10.7798
不好學	-10.7801
十四章	-10.7802
腹	-10.7806
癰	-10.7806
撥	-10.7806
誕	-10.7806
戀	-10.7806
廓	-10.7807
肩	-10.781
績	-10.781
豪傑	-10.781
李氏曰	-10.7811
帷	-10.7812
麤	-10.7813
他國	-10.7814
譖	-10.7815
瑞	-10.7816
生之謂性	-10.7816
伯夷伊尹	-10.7816
學禮	-10.7818
繅	-10.7818
召忽	-10.7823
西伯	-10.784
其迹	-10.7843
温故	-10.7849
好貨	-10.7856
此之謂也	-10.7857
便不是	-10.7859
相通	-10.786
其所當	-10.786
偶然	-10.786
夫婦之	-10.7867
父子兄弟	-10.7871
之端也	-10.7872
之説曰程子	-10.7874
未到	-10.7876
長上聲	-10.7879
挽	-10.7885
不逮	-10.7885
碎	-10.7887
暴慢	-10.7888
天道人道	-10.789
黝	-10.7891
巢	-10.7892
天下之人皆	-10.7893
暑	-10.7894
祈	-10.7896
私淑	-10.7898
7	-10.7899
得其所	-10.7903
祭服	-10.7903
二說	-10.7906
仲孫	-10.7909
千乗	-10.791
責己	-10.7911
申言	-10.7912
武成	-10.7917
視朔	-10.7919
吾聞	-10.7931
相須	-10.7943
正義	-10.7943
無所不在	-10.7946
泛言	-10.795
所貴	-10.7952
篇首	-10.7952
功名	-10.7953
輔相	-10.7956
主乎	-10.796
朕	-10.796
沉	-10.7961
見音現	-10.7963
千乘之國	-10.7963
淺說	-10.7963
注鄭曰	-10.7964
滑	-10.7966
而已哉	-10.797
能擇	-10.797
得力	-10.7971
只重	-10.7973
惻隱之心	-10.7974
只得	-10.7975
朝夕	-10.7978
輔氏曰此	-10.7984
妄作	-10.7987
世俗之	-10.799
有限	-10.7993
未善	-10.7994
知去聲	-10.7995
流俗	-10.7997
不可復	-10.7999
八音	-10.8001
養生	-10.8007
人品	-10.8017
天地之心	-10.8021
一㸃	-10.8028
君父	-10.8028
沈無回曰	-10.8036
氣數	-10.8039
紊	-10.804
昭王	-10.804
梏	-10.8041
彀	-10.8044
嚮	-10.8047
而不已	-10.8055
袂	-10.8056
雅頌	-10.8056
衆理	-10.8065
求放心	-10.8065
尚未	-10.8068
伯牛	-10.807
十六章	-10.8071
自省	-10.8075
而不受	-10.8076
芟二條	-10.8077
不曾	-10.8079
以全其	-10.8087
河東	-10.8091
充實	-10.8094
感發	-10.8111
足以知	-10.8113
為主而	-10.8116
䕶	-10.8116
其害	-10.8117
原憲	-10.8117
心廣體胖	-10.8119
生生	-10.8119
蚤	-10.8119
戒謹恐懼	-10.8121
震	-10.8121
隐	-10.8121
公西華	-10.8123
厄	-10.8123
音洛	-10.8124
武丁	-10.8128
踐履	-10.8134
二意	-10.8136
學而知	-10.8137
齊衰	-10.8138
北方	-10.8145
權衡	-10.8151
可及	-10.8154
自取	-10.8161
日進	-10.817
邦家	-10.8172
自脩	-10.8175
尊親	-10.8185
以仁為	-10.8187
持其志	-10.8188
國語	-10.8189
授受	-10.819
驥	-10.819
其為人也	-10.8191
有功於	-10.8192
公綽	-10.8201
二代	-10.8203
氓	-10.8203
以下皆	-10.8203
態	-10.8204
凡物	-10.8205
蹙	-10.8206
匏	-10.8206
富貴貧賤	-10.8207
古語	-10.8209
揖遜	-10.8212
膳	-10.8213
祖述	-10.8215
循序	-10.8217
此以下	-10.8229
學術	-10.824
二氣	-10.8242
二十章	-10.8242
字之義	-10.8247
帝王之	-10.825
利欲	-10.825
甚明	-10.8254
與上文	-10.8266
周氏	-10.8266
曰吾聞	-10.8267
拈	-10.8271
苟無	-10.8272
公卿	-10.8272
蠻	-10.8276
屈伸	-10.8276
不驕	-10.8277
門之外	-10.8278
翁	-10.8278
穿鑿	-10.8281
並行	-10.8282
競	-10.8282
無弊	-10.8283
袁	-10.8283
遣	-10.8284
支離	-10.8289
髠	-10.8289
却又	-10.8289
偷	-10.8289
政刑	-10.8293
貨財	-10.8301
不欺	-10.8304
之大者也	-10.8312
小弁	-10.8313
不可廢	-10.8317
莊公	-10.832
禮貌	-10.8325
人倫之至	-10.8331
和樂	-10.8331
便要	-10.8333
頃	-10.8341
也其曰	-10.8342
老子	-10.8344
悠	-10.8344
之罪也	-10.8346
有諸已	-10.8348
何耶	-10.8348
脩道	-10.8352
後漢	-10.8359
捉	-10.8359
摇	-10.836
樣	-10.8361
丙	-10.8364
頼	-10.8365
羊棗	-10.8367
龜山	-10.8368
未之有也	-10.8369
裁之	-10.8371
紳	-10.8372
臣子	-10.8372
天下之達道	-10.8374
何晏	-10.8378
十二月	-10.8379
甚大	-10.8379
儼然	-10.8379
與民同	-10.8379
一家之	-10.8386
不自知其	-10.8393
下民	-10.8395
三省	-10.8404
什	-10.8407
二十八	-10.8408
趙註	-10.8421
攷證	-10.8434
譲	-10.8436
治國平天下	-10.844
熈	-10.844
輟	-10.8442
咈	-10.8443
臆	-10.8443
疵	-10.8445
率性之謂道	-10.8446
花	-10.8447
利仁	-10.8448
鬱	-10.8448
鑒	-10.8448
屋廬子	-10.8449
顛倒	-10.8449
攸	-10.8451
洒	-10.8451
冒	-10.8451
褒	-10.8451
古之君子	-10.8453
史魚	-10.8455
再拜	-10.846
天理流行	-10.846
良知	-10.8463
嘗聞	-10.8467
程子之説	-10.8467
無倦	-10.8479
吾之所	-10.8483
文理	-10.8499
適齊	-10.8503
語録曰問	-10.8504
兼言	-10.8505
齊氏曰	-10.8515
数	-10.8525
佞人	-10.8526
治水	-10.8527
萬民	-10.8527
菑	-10.8528
頂	-10.8529
不知其仁	-10.8529
致其知	-10.8529
儆	-10.853
臂	-10.853
曽㸃	-10.8532
旌	-10.8532
渴	-10.8533
毫髪	-10.8533
豳	-10.8536
行去聲	-10.8537
洪水	-10.8544
不仁之人	-10.8547
小白	-10.8557
所安	-10.8564
浩	-10.8564
喪服	-10.8586
揚子	-10.8587
志士	-10.8588
兩箇	-10.8594
筵	-10.86
何足以	-10.86
時雨	-10.86
事父	-10.8603
丈夫	-10.8604
鬯	-10.8606
輸	-10.8606
突	-10.8608
學問思辨	-10.8608
湛	-10.8609
裔	-10.8609
奸	-10.8609
木鐸	-10.861
糧	-10.861
四書家訓曰	-10.8611
淳于髠	-10.8612
形而上者	-10.8613
奠	-10.8614
剖	-10.8615
何待	-10.8616
彫	-10.8622
組	-10.8624
求諸人	-10.8625
南方	-10.8633
立身	-10.8633
是則所謂	-10.8635
一例	-10.8636
紅	-10.8641
以實之	-10.8642
馬融曰	-10.8648
不能絜矩	-10.8649
詳見	-10.8657
屢空	-10.8663
四時之	-10.8666
以示人	-10.8671
博文	-10.8672
禮之本	-10.8677
上智	-10.8679
致中和	-10.8683
郵	-10.8685
日月至焉	-10.8691
畎	-10.8694
光輝	-10.8695
漫	-10.8695
歆	-10.8697
甚麽	-10.8697
具衆理	-10.8697
前聖	-10.8697
無可無不可	-10.8697
慙	-10.8697
低	-10.8698
遏人欲	-10.87
不遜	-10.87
應萬事	-10.8701
朽	-10.8702
失禮	-10.8702
仲由	-10.8702
巷	-10.8703
之大小	-10.8703
體道	-10.8708
理㑹得	-10.8709
横渠	-10.8709
蘇氏曰	-10.8715
後進	-10.8726
於其中	-10.8744
差等	-10.8759
叢	-10.8759
可得聞	-10.8767
心之德	-10.8769
亢	-10.8774
井地	-10.8774
視聽言動	-10.8776
為季氏宰	-10.8777
卞	-10.8777
椁	-10.8777
顓	-10.878
嬰	-10.8781
貽	-10.8781
簒	-10.8781
穴	-10.8782
八百	-10.8782
人道之	-10.8783
漆	-10.8786
愆	-10.8788
粥	-10.8789
不敢自	-10.8792
脯	-10.8793
身心	-10.8795
三黜	-10.8795
二十四	-10.8803
不勝其	-10.8812
乃所以為	-10.8816
月令	-10.8822
不可移	-10.8822
互相	-10.8823
姓名	-10.8825
晏	-10.8828
詳味	-10.8832
一念之	-10.8855
韓子	-10.8858
公冶長	-10.8861
之當然	-10.8862
橋	-10.8862
齊桓	-10.8862
粉	-10.8862
簞	-10.8863
女音汝	-10.8863
另	-10.8864
槁	-10.8864
抗	-10.8866
企	-10.8866
匱	-10.8866
枯	-10.8866
股	-10.8867
忮	-10.8868
脈	-10.8868
鑽	-10.8869
揭	-10.8872
長㓜	-10.8878
鮀	-10.888
妾婦	-10.8883
並耕	-10.89
君子之學	-10.8902
師摯	-10.8911
無一物	-10.8919
不讓	-10.8926
磋	-10.8935
所損益	-10.8939
廷	-10.8943
章這一章	-10.8945
㧞	-10.8946
旗	-10.8948
如顔子	-10.8949
尭	-10.895
亦在其中	-10.8951
荀卿	-10.8952
永嘉陳氏曰	-10.8952
臯	-10.8952
矯揉	-10.8952
隣	-10.8953
詆	-10.8953
冶	-10.8954
䕫	-10.8954
㝠	-10.8955
觶	-10.8955
烹	-10.8955
篡	-10.8957
男女	-10.8958
溝洫	-10.8959
驕吝	-10.8961
不能忘	-10.8961
和順	-10.8961
幽厲	-10.8963
如日月	-10.8963
古文	-10.8964
各以其	-10.8971
仁義之道	-10.8972
冨	-10.8978
辨惑	-10.8986
圭田	-10.899
子罕	-10.8991
隱微	-10.8995
三樂	-10.9003
係於	-10.9007
成公	-10.9014
鄉遂	-10.9021
程子之意	-10.9024
前面	-10.9028
明辨	-10.9032
難得	-10.9035
荷	-10.9037
寤	-10.9038
㡳	-10.9039
倪	-10.904
級	-10.904
毒	-10.9041
坦	-10.9041
戕賊	-10.9041
絢	-10.9042
蒙引存疑	-10.9042
天地之道	-10.9043
須看	-10.9043
器小	-10.9046
暴虐	-10.9046
章集註	-10.9046
一身之	-10.9047
張氏曰	-10.9051
适	-10.9051
叢説	-10.9055
夏后氏	-10.9057
能盡其性	-10.9057
本領	-10.9058
舊說	-10.9065
語辭	-10.9067
天地之性	-10.9068
苟能	-10.9072
請問	-10.9079
所向	-10.9088
何由	-10.9089
可與權	-10.909
二書	-10.9092
身體	-10.9095
用舍	-10.9098
同類	-10.9101
受田	-10.9114
擯者	-10.9116
燕居	-10.9116
學道	-10.9119
樊	-10.9119
辭讓	-10.9121
覩	-10.9121
繪	-10.9123
無暴其氣	-10.9126
籩豆	-10.9128
府庫	-10.9128
四肢	-10.9129
司冦	-10.9131
極其至	-10.9131
庳	-10.9132
宗族	-10.9133
立教	-10.9134
顔路	-10.9136
念念	-10.9138
大全朱子	-10.9147
》	-10.9149
《	-10.9149
孟孫	-10.9149
祧	-10.9149
美惡	-10.9155
聖人之徳	-10.9161
造次	-10.9164
正位	-10.9175
中和之	-10.9187
不見其	-10.9196
只是要	-10.9199
吾儒	-10.92
所不欲	-10.9203
怵惕	-10.9206
恰	-10.9211
反身而誠	-10.9213
靖	-10.9214
克伐怨欲	-10.9214
零	-10.9214
字更定次序	-10.9215
氷	-10.9215
倘	-10.9216
閔子騫	-10.9218
履祥	-10.922
霤	-10.922
倉廩	-10.9221
勾	-10.9222
愉	-10.9222
園	-10.9223
三歸	-10.9223
弦	-10.9227
孺悲	-10.9229
祔	-10.923
之極功	-10.9237
干禄	-10.9237
近道	-10.9239
公卿大夫	-10.9249
未敢	-10.925
不違仁	-10.9252
畏天	-10.9254
理財	-10.9255
致知格物	-10.9267
附於	-10.9267
不離乎	-10.9273
八家	-10.9277
當務	-10.9279
洪氏曰	-10.9281
討論	-10.9292
親戚	-10.9298
纎	-10.93
子羔	-10.93
赫	-10.9302
怡怡	-10.9302
詩小雅	-10.9304
網	-10.9305
季歴	-10.9306
無不通	-10.9306
束脩	-10.931
軫	-10.9317
「	-10.9324
能絜矩	-10.9331
怨慕	-10.9337
八尺	-10.9341
各因其	-10.9343
敬信	-10.9364
力量	-10.9368
害人	-10.9369
心之用	-10.938
約禮	-10.9383
答問	-10.9387
巫	-10.9389
讐	-10.9392
禮樂征伐	-10.9393
大而化之	-10.9394
如惡惡臭	-10.9394
燔	-10.9395
商鞅	-10.9396
頃刻	-10.9396
擴而充之	-10.9398
子聞之曰	-10.94
釡	-10.9401
涖	-10.9401
障	-10.9403
二義	-10.9409
揖讓	-10.9409
前定	-10.941
叔齊	-10.9412
按史記	-10.9412
與人為善	-10.9416
不在於	-10.9417
夷惠	-10.9419
配天	-10.942
知之矣	-10.9424
深衣	-10.9436
聖賢之心	-10.9439
誦詩	-10.9439
道不可離	-10.9441
不愠	-10.9446
未盡善	-10.9446
空空	-10.9458
河南	-10.9464
難能	-10.9469
七十二	-10.9472
可不慎	-10.9478
莽	-10.9479
赧	-10.9481
衣裳	-10.9481
𦵏	-10.9485
㳟	-10.9489
驕泰	-10.9489
庖	-10.9489
巧言令色	-10.9491
彬彬	-10.9491
涕	-10.9493
偕	-10.9495
衮	-10.9496
羔	-10.95
所共由	-10.9507
號令	-10.9509
道之體	-10.9512
緇衣	-10.952
亦未必	-10.9526
天吏	-10.9527
權度	-10.9528
這道理	-10.9528
同歸	-10.953
本㫖	-10.9535
得民心	-10.9538
不可謂之	-10.9541
一叚	-10.9543
崇禮	-10.956
言之耳	-10.9561
卓然	-10.9562
坫	-10.9564
須先	-10.9567
訒	-10.957
夫如是	-10.9572
文之以禮樂	-10.9572
無所容	-10.9573
先務	-10.9573
疚	-10.9573
謚	-10.9574
矣而又	-10.9574
繡	-10.9575
掘	-10.9576
研	-10.9577
敬以直内	-10.9577
叅	-10.9578
不忍人之政	-10.9578
晚年	-10.9579
紇	-10.958
腥	-10.9581
截然	-10.9582
訪	-10.9582
不越	-10.9585
緊要	-10.959
利口	-10.9597
孝友	-10.9605
三卿	-10.9607
周家	-10.9611
爵禄	-10.9616
以是而	-10.9639
有得於	-10.9644
本根	-10.9645
學不厭	-10.9646
申明	-10.9647
仁聖	-10.9648
然後有以	-10.9649
貴貴	-10.965
由求	-10.9653
包得	-10.9653
無失	-10.9656
亭	-10.9665
油	-10.9668
闡	-10.967
眷	-10.9673
佑	-10.9674
透徹	-10.9674
逞	-10.9677
口之於味	-10.9679
麋	-10.9679
漸進	-10.9681
阼階	-10.9682
弈	-10.9685
山林	-10.969
虚靈	-10.9703
王肅	-10.9712
丁云	-10.9719
改本	-10.9719
之功用	-10.9721
衛侯	-10.9721
未之見	-10.9726
超然	-10.9732
判然	-10.9732
程氏	-10.9734
史記云	-10.9744
五月	-10.9746
勿施	-10.9746
誾誾	-10.9758
公明儀	-10.9759
沙	-10.9762
卽	-10.9762
冥	-10.9762
教他	-10.9763
如好好色	-10.9763
趙岐	-10.9764
虎豹	-10.9764
老彭	-10.9767
殃	-10.9768
捷	-10.9768
原壤	-10.9769
雕	-10.9769
四海之内	-10.9772
黎民	-10.9772
知及之	-10.9775
度量	-10.9776
孔文子	-10.9777
妙用	-10.9781
兩件	-10.9785
抑亦	-10.9787
篤恭	-10.9788
所共	-10.9789
不能改	-10.9794
第二節	-10.9801
匠人	-10.9803
真箇	-10.9812
邢氏	-10.9815
三十年	-10.9819
天地之氣	-10.9826
獻公	-10.9829
不可揜	-10.9831
齊桓公	-10.9843
為仁之本	-10.9849
霍	-10.985
諸弟子	-10.985
半塗而廢	-10.9851
輯釋亦引	-10.9852
軰	-10.9852
溥	-10.9853
㢘	-10.9853
界限	-10.9854
憫	-10.9855
事之宜	-10.9856
彝	-10.9857
西山真氏曰	-10.9858
良知良能	-10.986
轂	-10.9862
絺	-10.9862
灼	-10.9863
茫	-10.9863
舅	-10.9863
廩	-10.9864
折衷	-10.9864
旦晝	-10.9865
曹交	-10.9868
尺二寸	-10.9871
欺人	-10.9871
何患	-10.9881
復其初	-10.989
南宫	-10.9892
采地	-10.99
吿子	-10.9902
改作	-10.9906
顏子	-10.9911
今之諸侯	-10.9912
己之所	-10.9914
師友	-10.992
上聲下同	-10.9933
相連	-10.9934
妻妾	-10.9934
恁	-10.9943
裂	-10.9945
被其澤	-10.9947
匹夫匹婦	-10.995
採	-10.9952
等級	-10.9953
郊社	-10.9953
逰	-10.9954
國之政	-10.9954
孝經	-10.9955
豈容	-10.9956
紛紛	-10.9957
明明徳於天下	-10.9957
豹	-10.9963
知所先後	-10.9963
書傳	-10.9971
恥辱	-10.9975
踐形	-10.9985
近仁	-10.9988
朱氏	-11.0002
門人記	-11.0006
四寸	-11.001
博施	-11.001
亦未嘗不	-11.0028
無憾	-11.0035
仁者人也	-11.0036
願學	-11.0044
醇	-11.0045
梓	-11.0046
侃侃	-11.0048
犧牲	-11.0048
骸	-11.0049
棠	-11.0049
脅	-11.0049
道不逺人	-11.0051
肺	-11.0051
孳孳	-11.0052
戊	-11.0053
莘	-11.0054
禹貢	-11.0056
浪	-11.0057
盻	-11.0058
廪	-11.0059
性之所有	-11.006
伐顓臾	-11.0061
敬叔	-11.0063
板	-11.0065
前輩	-11.0069
新安陳氏	-11.0074
治其國	-11.0078
大段	-11.0079
有是言	-11.008
蔡氏	-11.0087
集解	-11.0093
張氏	-11.0108
位育	-11.0118
性之善	-11.012
於此可見	-11.0125
所謂道者	-11.0137
宼	-11.0137
轅	-11.014
喫	-11.0141
棣	-11.0143
正相反	-11.0143
繋	-11.0143
姚	-11.0144
鼓瑟	-11.0144
徂	-11.0145
萃	-11.0145
諧	-11.0146
囂囂	-11.0146
李毅侯曰	-11.0147
愛無差等	-11.0147
張彥陵曰	-11.0147
必有事焉	-11.0148
浸	-11.015
牡	-11.015
戌	-11.0151
現	-11.0151
餂	-11.0152
多學而識	-11.0152
獧	-11.0153
唐棣	-11.0153
有待於	-11.0155
聖人之教	-11.0163
上二句	-11.0167
九百	-11.0175
呂氏	-11.0176
人皆知	-11.0178
未發之中	-11.018
如水之	-11.0182
形於外	-11.0184
限量	-11.0191
如矢	-11.0195
不敢當	-11.0201
侯伯	-11.0202
六十四	-11.0205
摯	-11.0207
首篇	-11.0207
己私	-11.021
行怪	-11.021
硬	-11.0239
本諸身	-11.024
渠	-11.024
天地之化育	-11.0241
札	-11.0241
饔	-11.0242
疽	-11.0243
彘	-11.0244
琴瑟	-11.0244
不亦宜乎	-11.0246
蕩蕩	-11.0248
未𤼵	-11.0251
堯舜禹	-11.0251
糞	-11.0252
穆穆	-11.0253
楊朱	-11.0254
到底	-11.0254
十七年	-11.0256
中央	-11.0261
賢不肖	-11.0283
五寸	-11.0289
寡過	-11.0295
之極致	-11.0298
沛	-11.0303
應之曰	-11.0308
合於義	-11.0309
只看	-11.0318
務外	-11.0327
養志	-11.0328
四者皆	-11.0335
煞	-11.0335
状	-11.0337
中人以上	-11.0338
丕	-11.034
欲罷不能	-11.034
䏻	-11.0341
親其親	-11.0341
夸	-11.0341
真實無妄	-11.0341
黙而識之	-11.0343
吴	-11.0343
祇	-11.0344
形而下者	-11.0344
精義入神	-11.0345
溝壑	-11.0345
函	-11.0345
詭遇	-11.0346
鴻	-11.0346
此其所以為	-11.0346
靠	-11.0346
無以加	-11.0346
械	-11.0351
依舊	-11.0351
紾	-11.0353
子敖	-11.0354
明堂位	-11.0362
假借	-11.0363
何益	-11.0373
屑	-11.0375
無待於	-11.0385
所禀	-11.0386
馬融	-11.0403
推原	-11.0407
禹湯文武	-11.0427
賀孫	-11.0432
不偏不倚	-11.0435
狗	-11.0439
弑父與君	-11.044
君子之所以	-11.044
蒸	-11.0441
督	-11.0442
云子曰云云者	-11.0442
無父無君	-11.0442
天地生物之心	-11.0442
紀綱	-11.0443
訕	-11.0444
渡	-11.0445
汶	-11.0448
㦸	-11.0451
延平	-11.0452
考工記	-11.0452
澮	-11.0452
戚戚	-11.0452
提起	-11.0455
分量	-11.0457
晉侯	-11.0468
陳良	-11.0482
不雜	-11.0491
務實	-11.0499
武王周公	-11.0502
所以異於	-11.0511
樂記	-11.0513
性相近	-11.0516
髙宗	-11.0519
夫子答	-11.0528
莊周	-11.0535
欒	-11.0539
噲	-11.054
所稟	-11.054
饜	-11.0542
旬	-11.0543
自暴自棄	-11.0543
獵	-11.0543
中人以下	-11.0544
殀	-11.0544
覽	-11.0545
僥倖	-11.0547
俞	-11.0547
倡	-11.0548
蹶	-11.0548
佛老	-11.0552
當於理	-11.0556
畿内	-11.056
竭力	-11.0572
齊宣	-11.0573
懿子	-11.0576
三月不違仁	-11.0576
惡不仁者	-11.0586
音烏	-11.0595
黎	-11.0622
肱	-11.0633
屋漏	-11.0634
主皮	-11.0638
時措之宜	-11.064
所不當	-11.0641
蘓	-11.0641
錮	-11.0643
祠	-11.0643
瑩	-11.0644
□	-11.0645
妖	-11.0647
冢宰	-11.0647
通鑑	-11.0648
嶽	-11.0649
怠惰	-11.0649
卯	-11.065
有國者	-11.0653
觳觫	-11.0653
敺	-11.0653
牟	-11.0656
皥	-11.0659
賓客	-11.066
舍上聲	-11.0668
驂	-11.067
司空	-11.0671
萬古	-11.0677
致廣大	-11.0677
文武之道	-11.068
夏殷	-11.0693
天下之大本	-11.0703
各異	-11.071
人所易	-11.0712
賓主	-11.0714
先王之法	-11.0717
萬變	-11.0718
崇徳	-11.072
吳氏	-11.0724
出来	-11.0732
政令	-11.0734
彭	-11.0737
傑	-11.0739
僩	-11.0743
誨人不倦	-11.0743
淇澳	-11.0746
印	-11.0746
鼓舞	-11.0747
啻	-11.0747
妥	-11.0748
釜	-11.0749
衞靈公	-11.075
究竟	-11.075
距心	-11.075
傍	-11.0751
簣	-11.0751
慚	-11.0751
怯	-11.0753
何異	-11.0755
軀	-11.0755
南宫适	-11.0755
蔬	-11.0756
人之常情	-11.0757
彭更	-11.0757
人所同	-11.0758
可以語上	-11.0764
愼獨	-11.0764
亦猶是也	-11.0773
陳恒	-11.0777
三十六	-11.078
有所未盡	-11.0798
罕	-11.0799
荘子	-11.0811
斯須	-11.0814
提出	-11.0815
馬氏	-11.0825
衛大夫	-11.0836
駢	-11.0839
塾	-11.0845
知覺運動	-11.085
膰	-11.085
効	-11.0852
恪	-11.0854
鎮	-11.0855
從容中道	-11.0855
發政施仁	-11.0855
佾	-11.0856
彛	-11.0857
切磋	-11.0857
揚雄	-11.0858
武王伐紂	-11.0858
闗雎	-11.0858
毋自欺	-11.0859
太公望	-11.086
梏亡	-11.0861
能如是	-11.0862
泰誓	-11.0862
卓爾	-11.0863
漠	-11.0864
䖍	-11.0864
誄	-11.0865
邑宰	-11.0868
悠乆	-11.0869
費隱	-11.0873
俟命	-11.0875
衆人之所	-11.0882
武伯	-11.0894
太平	-11.0904
不出乎	-11.0916
文仲	-11.0916
田里	-11.0926
場	-11.0948
贈	-11.0949
十月	-11.0951
切磋琢磨	-11.0953
不踰矩	-11.0953
干戈	-11.0956
欠缺	-11.0958
助祭	-11.0959
坎	-11.0959
熄	-11.096
爼	-11.096
奭	-11.096
逼	-11.0961
揣	-11.0961
郊特牲	-11.0961
稼穡	-11.0962
嫉	-11.0962
陳亢	-11.0966
臼	-11.0967
收斂	-11.097
甲兵	-11.098
自然而然	-11.0981
纁	-11.0984
文集	-11.0984
林放	-11.0989
安宅	-11.0991
天理之公	-11.0997
上擯	-11.101
豈特	-11.1013
大人之事	-11.1017
部	-11.1029
三月不違	-11.1029
綽	-11.1057
諍	-11.1059
銖	-11.1059
删	-11.106
鶴	-11.1061
媢	-11.1061
翔	-11.1063
勿忘勿助	-11.1063
戒慎恐懼	-11.1065
歠	-11.1065
伏羲	-11.1066
司寇	-11.1066
拙	-11.1066
巨	-11.1067
蛇	-11.1067
串	-11.1068
封疆	-11.1069
與物接	-11.107
盎	-11.107
剛毅	-11.1071
威而不猛	-11.1072
濱	-11.1072
毫髮	-11.1072
奉養	-11.1072
𤓰	-11.1073
葉氏曰	-11.1073
栽	-11.1077
轉移	-11.1077
曾西	-11.1079
升降	-11.1082
由此觀之	-11.1084
隨其所	-11.1086
千載	-11.1095
五句	-11.1098
伐紂	-11.1102
天下歸之	-11.1107
追王	-11.112
只是箇	-11.1121
格致	-11.1136
戰國時	-11.1146
恒心	-11.1153
偲	-11.1158
不誠無物	-11.1161
纂	-11.1163
弋	-11.1164
鮑	-11.1166
員	-11.1168
泗	-11.1168
丒	-11.1168
淑	-11.1169
阜	-11.1169
心之體	-11.117
四夷	-11.1172
公叔文子	-11.1172
扉	-11.1172
樸	-11.1172
替	-11.1172
鑄	-11.1173
季文子	-11.1173
硜硜	-11.1174
揠	-11.1175
拯	-11.1175
蹴	-11.1175
持志	-11.1177
慰	-11.1177
癸	-11.1177
正心誠意	-11.1178
蠡	-11.118
訐	-11.1181
陳臻	-11.1181
繳	-11.1181
纂疏	-11.1183
循循	-11.1186
施之於	-11.1192
仁人心也	-11.1193
堂堂	-11.1196
相表裏	-11.1224
七月	-11.1225
未逹	-11.1231
象山	-11.1254
騂	-11.1271
下學上達	-11.1278
旂	-11.1278
悱	-11.1278
頴	-11.1279
碩	-11.1279
依乎中庸	-11.128
肝	-11.128
釣	-11.1281
孟懿子	-11.1281
辦	-11.1281
粲	-11.1281
壺	-11.1283
此謂知本	-11.1283
喬	-11.1284
凢	-11.1284
冺	-11.1284
浮海	-11.1285
孟施舍	-11.1285
眸子	-11.1286
不告而娶	-11.1286
俎	-11.1287
渇	-11.1288
勉齋	-11.1291
城郭	-11.1291
丹朱	-11.1291
胷	-11.1291
乎其間	-11.1293
索隠	-11.1295
者鮮矣	-11.1297
聦明	-11.1301
句踐	-11.1301
太史	-11.1303
興邦	-11.1306
孝弟忠信	-11.1309
特舉	-11.1316
誠者物之終始	-11.1379
僴	-11.1381
聲容	-11.1382
劣	-11.1383
活潑潑地	-11.1388
恝	-11.1388
喚做	-11.1389
問之曰	-11.1389
刋	-11.139
公羊傳	-11.139
倩	-11.1391
蠶	-11.1391
誠者天之道	-11.1393
浼	-11.1393
僞	-11.1394
波	-11.1395
錘	-11.1395
稻	-11.1395
循環	-11.1396
十一月	-11.1398
贅	-11.1398
你	-11.1399
斧	-11.14
丘陵	-11.1402
雍容	-11.141
陸氏	-11.1411
芟三條减	-11.1417
周徧	-11.1419
覆載	-11.1424
何者為	-11.1435
十九章	-11.1443
所繫	-11.1462
盛衰	-11.1471
情狀	-11.1472
章尹曰	-11.1476
十九年	-11.1489
天下無道	-11.1493
其言也訒	-11.1494
拳拳	-11.1496
恂慄	-11.1496
呉因之曰	-11.15
嬴	-11.15
凍	-11.15
穎	-11.1503
明德新民	-11.1503
墨翟	-11.1503
阨	-11.1503
弗措	-11.1503
呈	-11.1504
顚	-11.1505
樓	-11.1505
𦂳要	-11.1507
三綱五常	-11.1507
綿	-11.151
秉彛	-11.151
所過者化	-11.1511
湍水	-11.1512
轡	-11.1513
瀾	-11.1514
絳	-11.1515
緼	-11.1521
譬喻	-11.1529
執御	-11.1542
謂何曰	-11.1545
二十六章	-11.1555
九州	-11.156
賊害	-11.159
那裏	-11.1594
圈	-11.1605
詢	-11.1609
動容周旋	-11.1612
二千五百	-11.1614
寗武子	-11.1614
蔵	-11.1614
炎	-11.1615
塊	-11.1615
聰明睿知	-11.1615
由仁義行	-11.1615
蠻貊	-11.1616
巡	-11.1616
濵	-11.1617
俑	-11.162
涼	-11.1621
慎其獨	-11.1621
朝覲	-11.1623
陳仲子	-11.1635
夏后	-11.1638
七寸	-11.1645
合為一	-11.1648
期月	-11.1653
適衛	-11.1653
通曰集註	-11.1659
六月	-11.1691
句句	-11.1709
遯	-11.1715
侗	-11.1718
喚	-11.1723
内省不疚	-11.1726
飱	-11.1726
換	-11.1727
栁下恵	-11.1727
乖戾	-11.1728
管晏	-11.1728
賁	-11.1729
枕	-11.1729
優優	-11.173
盡心知性	-11.1731
鐵	-11.1731
教誨之	-11.1731
垢	-11.1732
幣帛	-11.1733
弗擾	-11.1733
穢	-11.1734
騶	-11.1734
擊磬	-11.1735
蹠	-11.1736
膾	-11.1737
為民父母	-11.174
貫革	-11.1741
戰國之時	-11.1742
兼知行	-11.1743
為人臣者	-11.1744
六律	-11.1747
十有二	-11.175
以氣言	-11.1758
形迹	-11.1758
困窮	-11.1764
博約	-11.1768
不得其死	-11.1783
習俗	-11.1785
勿忘	-11.1786
北海	-11.1788
雜記	-11.1789
性之徳	-11.1789
所自出	-11.179
减二十	-11.1801
有言曰	-11.182
怍	-11.182
抵	-11.1823
未暇	-11.1827
以此觀之	-11.1828
澆	-11.1834
鳶飛魚躍	-11.1835
誠意正心	-11.1837
奇	-11.1841
酬酢	-11.1842
俾	-11.1845
至大至剛	-11.1846
促	-11.1847
榮辱	-11.1847
鳶魚	-11.1847
曰諸説如何曰	-11.1847
掖	-11.1848
牀	-11.1848
斧斤	-11.1849
優游	-11.1851
耜	-11.1852
頻	-11.1853
帝堯	-11.1862
六寸	-11.188
顔氏	-11.1899
路門	-11.1903
不能自已	-11.1915
奔齊	-11.1915
孔悝	-11.195
勘	-11.1954
渭按	-11.1954
柰	-11.1955
爛	-11.1955
樊遲問仁	-11.1956
遮	-11.1956
㓗	-11.1957
午	-11.1957
粢	-11.1959
雙峯	-11.1959
絶糧	-11.196
諺	-11.196
扞	-11.196
陟	-11.1961
奡	-11.1962
磷	-11.1962
無敵於天下	-11.1963
忠信篤敬	-11.1964
祐	-11.1964
莩	-11.1964
邢昺	-11.1964
璋	-11.1965
洫	-11.1966
康叔	-11.1968
這般	-11.197
內	-11.197
宁	-11.1978
曽西	-11.198
的意思	-11.1981
私覿	-11.1987
一部	-11.2002
章甫	-11.2004
仁之體	-11.2019
方寸	-11.202
引孔子之言	-11.2023
盡其性	-11.2032
四科	-11.2042
復扶又反	-11.2064
鞅	-11.2065
鳶	-11.2068
均平	-11.2069
父不得而子	-11.2072
從心所欲不踰矩	-11.2073
苞	-11.2074
仔細	-11.2074
袗	-11.2074
籥	-11.2075
忤	-11.2075
隋	-11.2075
岳	-11.2075
䆒	-11.2076
慍	-11.2078
踞	-11.2079
和而不流	-11.2079
梁恵王	-11.208
十八章	-11.208
衷	-11.208
公孫丑問曰	-11.208
父兄百官	-11.208
弄	-11.2081
駭	-11.2083
逄	-11.2083
鑚	-11.2084
無適而非	-11.2084
棲	-11.2087
這個	-11.2087
疢	-11.2088
念頭	-11.2095
路寢	-11.21
有人於此	-11.2101
袍	-11.2102
縓	-11.2102
天理之自然	-11.2103
未可知也	-11.2108
宗伯	-11.213
畏天命	-11.2136
挈	-11.2193
虧欠	-11.2193
先後之序	-11.2194
諉	-11.2195
抽	-11.2195
孟武伯	-11.2195
晨門	-11.2197
黍稷	-11.2198
肇	-11.2198
嘐嘐	-11.2198
霜	-11.2199
額	-11.2199
孟施舎	-11.2201
順乎親	-11.2201
孩提	-11.2203
薑	-11.2204
家國天下	-11.2204
飢餓	-11.2205
雨露	-11.2212
直道而行	-11.222
第三節	-11.2224
萬乗	-11.2228
果敢	-11.2237
縱横	-11.2247
消長	-11.226
奈	-11.2269
不可不察	-11.2291
文武周公	-11.2296
趙魏	-11.2311
騎	-11.2311
騖	-11.2311
晋	-11.2311
寒暑	-11.2312
白虎通	-11.2312
齊家治國平天下	-11.2314
汪	-11.2315
贍	-11.2316
憮	-11.2317
籠	-11.2317
坊	-11.2317
番	-11.2318
矦	-11.2319
以人治人	-11.232
王孫賈	-11.2322
殄	-11.2322
煥	-11.2322
管蔡	-11.2323
旄	-11.2324
產	-11.2325
反坫	-11.2349
先之以	-11.2354
光景	-11.2366
凡此皆	-11.2385
諶	-11.2427
賚	-11.2431
腔	-11.2431
冡宰	-11.2436
苛	-11.2437
艮	-11.2437
群	-11.2438
凌	-11.2438
簿	-11.2438
慤	-11.244
珍	-11.244
輯釋	-11.2441
泚	-11.2443
陶冶	-11.2443
斯可矣	-11.2443
辜	-11.2444
爽	-11.2444
物有本末	-11.2446
孟之反	-11.2447
明其明徳	-11.2448
三百篇	-11.2448
廣狹	-11.2449
為人子者	-11.2455
方員	-11.2458
放逸	-11.2459
姑息	-11.2459
無一息之	-11.2462
脩其身	-11.2477
許多道理	-11.2486
大丈夫	-11.2493
漸漸	-11.2509
應接	-11.2534
不勉而中	-11.2534
遯世	-11.2558
臧倉	-11.2559
鶃	-11.2559
吾道一以貫之	-11.256
憤悱	-11.256
易地則皆然	-11.256
違道不逺	-11.2561
喭	-11.2562
天地位萬物育	-11.2562
誠意正心修身	-11.2562
生民以來	-11.2565
浸潤	-11.2565
慘	-11.2567
配義與道	-11.2567
禰	-11.2568
惴	-11.2568
筮	-11.2569
黼	-11.2571
隂陽五行	-11.2571
人物之生	-11.2572
蓼	-11.2573
以位言	-11.2578
鹽	-11.2579
韠	-11.2583
着力	-11.2585
公薨	-11.2593
天地之化	-11.2606
細微	-11.261
靈公問陳	-11.2612
為己任	-11.2614
由是觀之	-11.2622
邢	-11.2626
横逆	-11.2658
至善之所在	-11.2674
今改正	-11.2678
湖	-11.268
凛	-11.268
監本訛	-11.2681
潘	-11.2681
翻	-11.2682
不憂不懼	-11.2682
犂	-11.2683
芳	-11.2683
汗	-11.2684
犯而不校	-11.2684
好善惡惡	-11.2686
毀	-11.2686
遥	-11.2686
此謂知之至也	-11.2686
興於詩	-11.2687
皦	-11.2689
鄭康成	-11.2691
仆	-11.2692
簋	-11.2694
能知能行	-11.2694
彈	-11.2697
維持	-11.2698
筭	-11.2699
詩書禮樂	-11.2702
互鄉	-11.2703
雩	-11.2704
8	-11.2706
閒暇	-11.2707
『	-11.2707
父母之喪	-11.2714
私恩	-11.2734
豈肯	-11.2737
浞	-11.2803
㓂	-11.2805
妃	-11.2809
境界	-11.2809
漆雕開	-11.2809
勞而不怨	-11.281
睨	-11.281
義以方外	-11.2811
尓	-11.2811
鯀	-11.2812
碍	-11.2812
浹洽	-11.2812
八條目	-11.2813
學知利行	-11.2814
銳	-11.2815
鴈	-11.2815
臻	-11.2816
造次顛沛	-11.2817
壓	-11.2817
宇宙	-11.2819
瓢	-11.2821
寖	-11.2821
漬	-11.2821
本然之性	-11.2822
蕢	-11.2823
千駟	-11.2824
鳩	-11.2824
郷黨	-11.2827
源頭	-11.2832
依於仁	-11.2833
平陸	-11.2835
太史公	-11.2842
人而不仁	-11.2867
雖聖人亦	-11.2874
發揮	-11.2876
素位而行	-11.2931
軏	-11.2935
乂	-11.2935
蒯瞶	-11.2936
勺	-11.2937
含蓄	-11.2937
允執厥中	-11.2938
約之以禮	-11.294
齊治平	-11.294
訓詁	-11.2941
元亨利貞	-11.2941
澄	-11.2942
修己以敬	-11.2943
蕃	-11.2943
不思而得	-11.2944
閣	-11.2944
不相干	-11.2945
綱紀	-11.2945
撮	-11.2946
壑	-11.2946
過與不及	-11.2947
躩	-11.2947
鋭	-11.2947
亶	-11.2948
熊氏曰	-11.2949
侍坐	-11.2949
折獄	-11.2949
龜山楊氏曰	-11.2951
不由其道	-11.2952
典籍	-11.2954
聚歛	-11.2955
靈臺	-11.2962
閾	-11.2963
0	-11.2966
精密	-11.2974
善與人同	-11.2975
否先生曰	-11.2975
明乎善	-11.2978
洪氏	-11.3004
這些	-11.301
仁民愛物	-11.3065
棗	-11.3065
恍惚	-11.3068
俛	-11.3068
吸	-11.3068
忒	-11.3068
甯	-11.3068
鏗	-11.3069
填	-11.3069
覺軒蔡氏曰	-11.307
章總㫖張彦陵曰	-11.307
伺	-11.3072
撻	-11.3072
委吏	-11.3072
漁	-11.3073
綴	-11.3074
楷	-11.3074
臘	-11.3074
瑚璉	-11.3075
紏	-11.3075
義以為質	-11.3076
何必曰利	-11.3077
緦	-11.3078
怡	-11.308
無為而治	-11.308
庶人在官者	-11.3081
小事大	-11.3085
廐	-11.3094
鞠躬	-11.3096
奮發	-11.31
强弱	-11.3103
扶持	-11.3136
冨貴	-11.3158
㓕	-11.3184
各當其	-11.3193
嗅	-11.3194
象先問	-11.3196
日用常行	-11.3197
先事後得	-11.3197
泰而不驕	-11.3198
悉井反	-11.3199
滔滔	-11.32
竦	-11.3201
尉	-11.3202
制民之産	-11.3203
寮	-11.3204
祼	-11.3205
宋朱子撰	-11.3206
狩	-11.3206
三分天下有其二	-11.3207
漿	-11.3207
踧踖	-11.3208
氣質之偏	-11.3208
夜之所息	-11.321
心之所同然	-11.321
褻	-11.3213
動以天	-11.3215
丁寧	-11.3219
狂簡	-11.3235
伯禽	-11.3238
左氏傳	-11.327
澹	-11.3323
洩	-11.3327
格致誠正	-11.3328
新安倪氏曰	-11.3329
渾淪	-11.3333
菽	-11.3333
尊德性	-11.3334
想像	-11.3334
沮溺	-11.3334
佳	-11.3335
冡	-11.3335
反求諸己	-11.3336
徐儆弦曰	-11.3337
衾	-11.3337
四書脈曰	-11.3339
公子荆	-11.3339
恬	-11.3341
造其極	-11.3341
阱	-11.3341
香	-11.3343
動容周旋中禮	-11.3343
蔑	-11.3343
萬物各得其所	-11.3345
纊	-11.3348
:	-11.3349
剛柔	-11.3351
人之所以為人	-11.3358
為人君者	-11.3372
晁氏	-11.3437
無所不用其極	-11.3458
未知孰是	-11.3467
子畏於匡	-11.3468
縛	-11.3468
扣	-11.3469
子桑伯子	-11.3469
擇乎中庸	-11.3469
玉溪盧氏曰	-11.3469
舛	-11.347
二十九	-11.347
竄	-11.3471
葵丘	-11.3471
捍	-11.3472
搆	-11.3472
可使南面	-11.3472
冦	-11.3473
熾	-11.3473
摘	-11.3474
弓矢	-11.3474
俯仰	-11.3475
雙峰饒氏曰	-11.3477
照管	-11.3478
惟義所在	-11.3479
絃	-11.3479
瘠	-11.3479
俎豆	-11.3479
恆	-11.3481
查滓	-11.3481
動心忍性	-11.3483
無時而不	-11.3491
似是而非	-11.3603
博學於文	-11.3603
馴致	-11.3604
舞雩	-11.3604
朞月	-11.3605
晏嬰	-11.3606
柏	-11.3606
覲	-11.361
巨細	-11.361
屠	-11.3611
存心養性	-11.3612
恂恂	-11.3612
居天下之廣居	-11.3612
緜	-11.3613
行其所無事	-11.3614
斐	-11.3614
憐	-11.3614
北宫黝	-11.3618
烏獲	-11.3619
可與適道	-11.3619
柔逺人	-11.3622
劉向	-11.3625
凱風	-11.3628
自不能已	-11.3631
狐裘	-11.3638
無二致	-11.3639
出門使民	-11.3731
鐸	-11.3734
徐氏	-11.3739
圎	-11.3741
齊桓晉文	-11.3741
濳	-11.3742
周南召南	-11.3742
鄧	-11.3744
訂	-11.3744
㨗	-11.3745
湣王	-11.3745
為仁由己	-11.3746
倨	-11.3747
咏	-11.3747
過猶不及	-11.3748
不念舊惡	-11.3748
杞栁	-11.3749
淨	-11.3749
潮	-11.3749
剥	-11.3751
沃	-11.3751
性之本善	-11.3752
荆蠻	-11.3752
䘏	-11.3752
可與共學	-11.3753
顔閔	-11.3754
自衛反魯	-11.3755
然而不王者未之有也	-11.3755
聊	-11.3755
燧	-11.3758
致知力行	-11.3759
兕	-11.3759
魚鼈	-11.3761
不得於言	-11.3772
虢	-11.3885
寂然不動	-11.3886
仁義禮知	-11.3886
北溪陳氏曰	-11.3886
槨	-11.3888
潦	-11.3889
棘子成	-11.389
愁	-11.3891
困知勉行	-11.3892
兩層	-11.3892
薛居州	-11.3892
非人之所能	-11.3892
知言養氣	-11.3892
平旦之氣	-11.3893
昨	-11.3893
黄鍾	-11.3895
芸	-11.3895
膝	-11.3895
乳	-11.3897
曷嘗	-11.3899
庾公之斯	-11.3902
玄端	-11.3908
八寸	-11.3911
可以有為	-11.3964
無諂無驕	-11.4023
輗	-11.4024
桃	-11.4026
佯	-11.4027
萬物皆備於我	-11.4028
大哉聖人之道	-11.4028
悴	-11.4029
莫大乎	-11.403
切問近思	-11.403
予欲無言	-11.4032
戒懼慎獨	-11.4032
江熙曰	-11.4032
簞食豆羮	-11.4033
孟賁	-11.4034
禆	-11.4036
胄	-11.4036
乾坤	-11.4036
秉彞	-11.4036
與天為一	-11.4037
煖	-11.4037
奔走	-11.4037
跪	-11.4039
浚	-11.4039
江河	-11.404
集疏曰或問	-11.4041
正心脩身	-11.4053
譜	-11.4169
爻	-11.417
腦	-11.4171
意必固我	-11.4172
訛	-11.4172
左丘明	-11.4173
仲虺	-11.4173
凂	-11.4174
淹	-11.4175
㬰	-11.4175
僇	-11.4175
埋	-11.4176
不遷怒	-11.4176
睡	-11.4178
諄諄	-11.4178
三千三百	-11.4179
天理之節文	-11.418
不可則止	-11.418
鉞	-11.418
瞷	-11.418
廵	-11.418
鄹	-11.4182
葸	-11.4185
迨	-11.4189
9	-11.4196
𤣥端	-11.4196
禮儀三百威儀三千	-11.4314
兖	-11.4315
沿	-11.4315
提醒	-11.4315
富而無驕	-11.4316
學者讀這章書	-11.4316
掲	-11.4317
畨	-11.4318
杵	-11.4318
它	-11.432
歐	-11.4321
薰	-11.4321
粱	-11.4324
瑕	-11.4324
施由親始	-11.4324
纎悉	-11.4324
婢	-11.4327
蠻夷	-11.4328
司城貞子	-11.4328
易簀	-11.4328
百乗之家	-11.4329
古字通用	-11.433
程朱	-11.4331
膾炙	-11.4332
恭而安	-11.4343
必以其道	-11.4344
千二百	-11.444
松	-11.4465
蚳鼃	-11.4466
纎毫	-11.4467
裹	-11.4469
裨	-11.447
應事接物	-11.447
夔	-11.447
反諸身	-11.447
浩浩	-11.447
悌	-11.447
洪範	-11.447
狃	-11.4471
徹上徹下	-11.4472
垣	-11.4472
芻豢	-11.4472
憶	-11.4472
羡	-11.4473
畦	-11.4474
棺椁	-11.4475
侃	-11.4475
縦	-11.4476
以三隅反	-11.4476
彞	-11.448
姒	-11.448
一鄉之善士	-11.4483
賞罰	-11.4483
有物有則	-11.4485
也註孔安國曰至	-11.4487
資禀	-11.4493
庫門	-11.4509
心與理	-11.4541
碑	-11.4595
盤銘	-11.4616
裡	-11.4618
惓惓	-11.4619
絅	-11.4619
己所不欲勿施於人	-11.4621
敖惰	-11.4621
耰	-11.4622
叫	-11.4623
峯	-11.4623
琅邪	-11.4623
舉一隅	-11.4624
篤信好學	-11.4624
盼	-11.4624
蹊	-11.4624
存焉者寡	-11.4624
擁	-11.4626
諟	-11.4627
孟敬子	-11.4627
閎	-11.4628
蘖	-11.4628
巡狩	-11.4628
倖	-11.4629
淮南子	-11.4631
星辰	-11.4631
大音泰	-11.4631
洚	-11.4632
笙	-11.4634
宋牼	-11.4635
成於樂	-11.4638
恒産	-11.4675
樂與好禮	-11.4769
純一無偽	-11.4769
剛毅木訥	-11.4771
焉用佞	-11.4772
禮樂刑政	-11.4774
罅	-11.4774
全體大用	-11.4774
昊	-11.4774
詖淫邪遁	-11.4775
吟	-11.4776
君君臣臣父父子子	-11.4777
令尹子文	-11.4778
嘑	-11.4778
必有事焉而勿正	-11.4778
毫釐之差	-11.4778
招虞人	-11.4779
莫不皆然	-11.4779
心不在焉	-11.4779
廋	-11.4779
胎	-11.478
偹	-11.478
隕	-11.478
衣錦尚絅	-11.4781
矙	-11.4781
畎畝之中	-11.4781
人皆可以為堯舜	-11.4781
朞	-11.4782
貿	-11.4783
桃應	-11.4783
集義所生	-11.4785
頽	-11.4787
潤澤	-11.4788
三復白圭	-11.479
孤竹	-11.479
孟獻子	-11.4792
梅	-11.4795
視聴言動	-11.4797
靳	-11.4799
芒	-11.4808
此孔子所以	-11.4825
儲	-11.489
瞽瞍底豫	-11.4924
誠之不可揜	-11.4925
睢	-11.4925
摹	-11.4927
繪事後素	-11.4928
豁	-11.4928
甑	-11.4932
蕭牆	-11.4933
炭	-11.4934
囬	-11.4934
戕	-11.4935
舉而措之	-11.4936
鬲	-11.4936
虗	-11.4937
孜孜	-11.4937
獨善其身	-11.4938
岑	-11.4939
如有所立卓爾	-11.4939
二帝三王	-11.494
筲	-11.494
藍田吕氏	-11.494
扈	-11.4942
頤	-11.4944
丞	-11.4946
桎梏	-11.495
荼	-11.4958
愧怍	-11.4967
堯舜其猶病諸	-11.5085
請事斯語	-11.5086
宦	-11.5087
覿	-11.5087
瓦	-11.5087
晨	-11.5087
默	-11.5088
學而時習之	-11.5088
好貨好色	-11.5088
𥘉	-11.509
虞仲夷逸	-11.509
惺惺	-11.509
行夏之時	-11.509
一怒而安天下之民	-11.509
耒	-11.509
参	-11.509
意誠心正	-11.509
貴戚之卿	-11.509
麻冕	-11.5091
搜	-11.5092
抄	-11.5092
滄浪	-11.5092
炳	-11.5093
稜	-11.5094
婚	-11.5094
買	-11.5094
殻	-11.5094
荷蓧	-11.5095
先難後獲	-11.5095
親親而仁民仁民而愛物	-11.5095
核	-11.5096
疫	-11.5096
廵狩	-11.5097
絺綌	-11.5098
畱	-11.5098
袁了凡曰	-11.5098
粒	-11.5099
斃	-11.51
趙簡子	-11.51
蒐	-11.5103
瓠	-11.5108
緇布冠	-11.5108
驩虞	-11.5111
亦此意也	-11.5114
而不可易者	-11.5115
論語注疏卷	-11.5118
性情之正	-11.5123
閏	-11.524
大徳之敦化	-11.5241
悻悻	-11.5244
血脉	-11.5245
遯世不見知而不悔	-11.5245
彼列反	-11.5246
聶	-11.5246
點	-11.5248
銜	-11.5249
凑	-11.5249
冊	-11.5249
嚭	-11.525
鎬	-11.5251
㪯	-11.5251
遑	-11.5251
盥	-11.5252
騫	-11.5252
𨽻	-11.5252
吞	-11.5252
矛盾	-11.5253
冷	-11.5253
耳目口鼻	-11.5253
訖	-11.5253
雲峯	-11.5253
孫臏	-11.5253
肌膚	-11.5253
濮	-11.5253
飫	-11.5254
致知在格物	-11.5254
潜室陳氏曰	-11.5255
涸	-11.5255
羞惡辭讓是非	-11.5255
鉏	-11.5255
降衷	-11.5256
臧武仲	-11.5258
昜	-11.5258
十室之邑	-11.5258
百乘之家	-11.526
正謂此也	-11.526
三年之䘮	-11.5261
麑	-11.5265
盛徳之至	-11.5298
達之天下	-11.5345
驛	-11.5382
勝殘去殺	-11.5407
反求諸身	-11.5409
喙	-11.541
腐	-11.5411
天之所以為天	-11.5411
歇	-11.5411
自强不息	-11.5412
賂	-11.5414
邀	-11.5415
熹	-11.5415
自始至終	-11.5415
董仲舒	-11.5417
呌	-11.5417
伋	-11.5417
亘	-11.5417
寝	-11.5418
陽貨欲見孔子	-11.5418
莫我知	-11.5418
反求諸已	-11.5419
聃	-11.5419
唱	-11.5419
温故知新	-11.5419
柝	-11.542
終身誦之	-11.542
塲	-11.5421
子臣弟友	-11.5421
主一無適	-11.5421
不言而信	-11.5421
外本内末	-11.5422
顛沛	-11.5423
偪	-11.5423
蒲盧	-11.5425
鴟	-11.5428
自外至	-11.5428
衮冕	-11.5428
坦蕩蕩	-11.5428
繭	-11.5428
錯綜	-11.5432
。」13.	-11.5436
磯	-11.5442
齊側皆反	-11.5572
㐮	-11.5573
小徳之川流	-11.5574
體物而不可遺	-11.5577
使於四方	-11.5577
守死善道	-11.5578
孺子入井	-11.5579
微之顯	-11.5579
筋	-11.5579
擇善固執	-11.5579
需	-11.558
疊	-11.558
性即理也	-11.558
礪	-11.558
盡人物之性	-11.5581
幡	-11.5581
枉尺直尋	-11.5582
天之所以與我	-11.5582
六尺之孤	-11.5582
影響	-11.5582
侔	-11.5583
刼	-11.5584
心誠求之	-11.5585
率獸食人	-11.5586
后妃	-11.5586
睟	-11.5586
無所忌憚	-11.5586
梓匠輪輿	-11.5587
戎狄	-11.5587
君子哉若人	-11.5587
萌芽	-11.5587
不得於言勿求於心	-11.5589
引而不發	-11.559
毗	-11.5591
貸	-11.5591
深造之以道	-11.5592
湼	-11.5595
禾	-11.5595
昆夷	-11.5597
笏	-11.5628
胸	-11.5739
於從政乎何有	-11.5739
所自來	-11.5744
五十而知天命	-11.5747
迸	-11.5749
若合符節	-11.5749
㪚	-11.5749
驪	-11.5749
響	-11.575
鼗	-11.5751
欲居九夷	-11.5751
阡陌	-11.5752
絃歌	-11.5752
不嗜殺人	-11.5753
㮣	-11.5753
薫	-11.5753
倉廪	-11.5753
明善誠身	-11.5754
性道教	-11.5754
簞瓢陋巷	-11.5754
發憤忘食	-11.5755
温故而知新	-11.5755
長沮桀溺	-11.5755
發而中節	-11.5757
察其所安	-11.5757
人焉廋哉	-11.5759
輈	-11.5759
醴	-11.5759
此一節書是	-11.576
賢於堯舜	-11.576
忠恕違道不逺	-11.576
反經合道	-11.576
鹵	-11.576
陸費墀	-11.5761
售	-11.5761
賑	-11.5761
費而隠	-11.5761
絹	-11.5761
總纂官	-11.5762
月恭校上	-11.5762
翅	-11.5762
女安則為之	-11.5764
温而厲	-11.5768
狐貉	-11.5768
沐	-11.5768
絰	-11.577
束帛	-11.5771
中流出	-11.5816
層	-11.5855
皷	-11.5912
酢	-11.5919
色斯舉矣	-11.5919
㝢	-11.592
使枉者直	-11.592
人皆有不忍人之心	-11.5921
瞭	-11.5921
顙	-11.5922
箭	-11.5922
晏平仲	-11.5922
禎	-11.5924
姻	-11.5924
脛	-11.5925
見賢遍反	-11.5925
夙	-11.5925
發育萬物	-11.5925
樂以忘憂	-11.5927
徐自溟曰	-11.5927
孥	-11.5927
墟	-11.5927
公明賈	-11.5927
格君心之非	-11.5927
獺	-11.5928
蔚	-11.5928
飭	-11.5928
不屑之教誨	-11.5929
灑	-11.593
皎	-11.5931
王子比干	-11.5932
巫醫	-11.5933
孫士毅總校官	-11.5934
日月星辰	-11.5935
順受其正	-11.5936
操則存	-11.5938
圜	-11.5942
方十里	-11.5942
僎	-11.6088
脉絡	-11.6091
溱洧	-11.6091
渭	-11.6091
咸丘蒙	-11.6095
畮	-11.6096
蜀	-11.6097
藝文志	-11.6097
鋪	-11.6098
屛	-11.6098
翳	-11.6098
不出家而成教於國	-11.6099
王觀濤曰	-11.6099
暖	-11.6099
覸	-11.6099
羈	-11.61
䛕	-11.61
羲	-11.61
遡	-11.61
遞	-11.6103
過化存神	-11.6103
日知其所亡	-11.6105
欿	-11.6106
馭	-11.6107
事君盡禮	-11.6107
無善無不善	-11.6107
大戴禮	-11.6107
取之而燕民	-11.6108
亦可以為成人矣	-11.6108
溥博淵泉	-11.6109
賢賢易色	-11.6109
涓	-11.6118
櫝	-11.6121
枲	-11.6124
?』	-11.6132
賽合註	-11.6205
鲁	-11.6267
團	-11.627
盡事親之道	-11.6273
明季講家	-11.6275
欽定四庫全書經部八	-11.6276
以辭害意	-11.6277
製	-11.6278
等謹案	-11.6279
松栢	-11.6279
架	-11.6279
愽	-11.628
隨感而應	-11.628
栖栖	-11.6281
掇	-11.6281
汲	-11.6281
握	-11.6282
潰	-11.6283
腸	-11.6284
森	-11.6285
煦	-11.6286
以幣交	-11.6287
𣏌	-11.6288
膠鬲	-11.6288
楯	-11.6289
莞	-11.6291
入公門	-11.6292
揮	-11.6363
芟三條	-11.6412
佗	-11.6448
雌	-11.6454
四書集義精要	-11.6454
一言以蔽之	-11.6455
漯	-11.6455
何難之有	-11.6456
躐	-11.6456
不足與有為	-11.6457
説音悦	-11.646
下學而上達	-11.646
狭	-11.6461
巾	-11.6461
瀹	-11.6461
胖	-11.6462
杠	-11.6462
沾	-11.6462
不怨不尤	-11.6462
邁	-11.6462
炊	-11.6463
禮樂射御書數	-11.6464
悠悠	-11.6464
鋒	-11.6464
鹵莽	-11.6464
郭璞	-11.6465
合内外之道	-11.6465
喧	-11.6465
自誠而明	-11.6465
節釋曰	-11.6466
躓	-11.6467
灰	-11.6467
子濯孺子	-11.6467
義精仁熟	-11.6467
成都范氏	-11.6469
隄	-11.6469
閲	-11.647
灑掃應對	-11.647
無穿窬之心	-11.6471
牝	-11.6472
摟	-11.6473
篚	-11.6474
褊	-11.6474
屑屑	-11.6478
檮杌	-11.648
楣	-11.6614
再拜稽首	-11.6634
四十而不惑	-11.6636
肫肫	-11.6638
戒愼恐懼	-11.6638
冢	-11.6639
到極處	-11.6639
翔而後集	-11.664
嚳	-11.664
篆	-11.6641
所以行之者一也	-11.6641
恠	-11.6641
㴱	-11.6641
克已復禮	-11.6642
鸞	-11.6642
躋	-11.6643
彼善於此	-11.6644
砥	-11.6645
殽	-11.6645
咺	-11.6645
拓	-11.6645
瑣	-11.6645
窒礙	-11.6646
七到反	-11.6647
甥	-11.6647
待洛反	-11.6648
眉	-11.6648
縝	-11.6648
鑠	-11.6649
隘與不恭	-11.665
斁	-11.665
菲	-11.665
無宿諾	-11.6651
飪	-11.6651
淅	-11.6652
齡	-11.6654
所存者神	-11.6655
陸錫熊	-11.6655
啜	-11.6656
大中至正	-11.6657
遼	-11.6657
弭	-11.6658
射不主皮	-11.666
羨	-11.6663
』	-11.6669
不思不勉	-11.6696
聦	-11.6802
譛	-11.682
使民戰栗	-11.6822
三王之罪人	-11.6826
三月無君則弔	-11.6828
仁也者人也	-11.6829
崔杼	-11.6829
榦	-11.6829
不踐迹	-11.6829
三過其門而不入	-11.683
淆	-11.6831
亹	-11.6832
嫂溺	-11.6832
糊	-11.6832
孟子曰否不然	-11.6832
荑稗	-11.6834
墦	-11.6834
比必二反	-11.6834
閹	-11.6834
淇	-11.6835
見善如不及	-11.6835
枉尺而直尋	-11.6835
劒	-11.6835
掊	-11.6836
附蒙引曰	-11.6836
恍	-11.6836
洙泗	-11.6836
鶩	-11.6837
駸	-11.6837
杇	-11.6837
派	-11.6837
詎	-11.6837
理無大小	-11.6838
樂而不淫	-11.6838
燾	-11.6838
虜	-11.6839
斿	-11.6839
厨	-11.6839
祚	-11.684
人之生也直	-11.684
騁	-11.6841
迅	-11.6841
眇	-11.6841
曰何如斯可	-11.6842
餔	-11.6843
李衷一曰	-11.6843
老佛之	-11.6843
茹	-11.6843
表而出之	-11.6843
歷	-11.6844
千四百	-11.6845
羹	-11.6846
可離非道	-11.6846
陛	-11.6846
蠱	-11.685
杏	-11.6855
餙	-11.6866
」8.	-11.6867
儼	-11.6969
夫里之布	-11.702
泊	-11.702
不遷怒不貳過	-11.7021
匝	-11.7021
可以仕則仕可以止則止	-11.7024
暨	-11.7025
維天之命於穆不已	-11.7026
述而不作	-11.7026
大禹謨	-11.7027
所厚者薄	-11.7027
洲	-11.7027
昆蟲	-11.7028
逺人以為道	-11.7028
能近取譬	-11.7028
滓	-11.7029
祁	-11.7029
不患人之不已知	-11.7029
人不知而不愠	-11.7029
中庸不可能	-11.7029
藹	-11.703
五畝之宅	-11.7031
麰	-11.7031
有始有卒	-11.7031
盲	-11.7031
涯	-11.7032
松柏	-11.7032
行可之仕	-11.7032
盪	-11.7033
斲	-11.7033
自反而縮	-11.7034
不在其位不謀其政	-11.7034
齊明盛服	-11.7036
為善去惡	-11.7036
見小利	-11.7036
租	-11.7037
莫大焉	-11.7038
皋	-11.7045
昆	-11.7198
怎麽	-11.721
䨇峯饒氏曰	-11.7214
公山弗擾	-11.7218
妍	-11.7219
諮	-11.722
寃	-11.722
寕	-11.7221
譚	-11.7221
脗	-11.7222
信道不篤	-11.7222
拳拳服膺	-11.7222
湊	-11.7222
仁敬孝慈信	-11.7223
夫子之道忠恕而已矣	-11.7223
凰	-11.7223
麄	-11.7223
鈎	-11.7224
雙	-11.7225
可欲之善	-11.7225
見賢思齊	-11.7226
悍	-11.7226
從大夫之後	-11.7227
豺	-11.7227
邕	-11.7227
羸	-11.7228
喫緊	-11.7228
謳	-11.7228
撃	-11.7228
輝	-11.7229
竇	-11.723
焉於虔反	-11.723
欲其自得之也	-11.723
皜	-11.7233
懵	-11.7233
條凑合	-11.7234
琮	-11.7235
!」	-11.7236
阮	-11.7413
事君事長使衆	-11.7415
鄰里鄉黨	-11.7419
盍何不也	-11.742
譌	-11.7421
閨	-11.7421
緡	-11.7421
仕止久速	-11.7421
演	-11.7421
貞而不諒	-11.7421
冐	-11.7422
無入而不自得	-11.7423
勁	-11.7423
糗	-11.7423
凟	-11.7424
畀	-11.7425
曰古之人古之人	-11.7426
怎	-11.7426
盾	-11.7426
輻	-11.7426
内自訟	-11.7426
鰥	-11.7426
瞑	-11.7427
剪	-11.7427
秤	-11.7427
大哉堯之為君	-11.7428
涅	-11.7428
饐	-11.7428
齧	-11.7428
百世以俟聖人而不惑	-11.7429
形諸外	-11.7429
博我以文約我以禮	-11.7429
掠	-11.743
揉	-11.743
衒	-11.7431
行法以俟命	-11.7431
聨	-11.7432
繞	-11.7433
凉	-11.7434
耨	-11.7435
繚	-11.7438
麛	-11.744
葵	-11.7442
庫	-11.7584
縲絏	-11.7614
出門如見大賔使民如承大祭	-11.7618
樲	-11.7619
浹	-11.7619
糴	-11.762
非爾所及	-11.7621
吾斯之未能信	-11.7622
岌	-11.7622
潛室陳氏曰	-11.7623
罟	-11.7624
素其位而行	-11.7624
挺	-11.7625
殺身成仁	-11.7625
坑	-11.7625
舉直錯諸枉能使枉者直	-11.7625
囊	-11.7625
滹	-11.7626
雖欲從之末由也已	-11.7626
趾	-11.7626
蕘	-11.7626
不可偏廢	-11.7627
公伯寮	-11.7628
洋	-11.7628
崖	-11.7629
蹲	-11.7629
天何言哉	-11.7629
餐	-11.763
以善養人	-11.763
豁然貫通	-11.7631
湖南講曰	-11.7631
劄	-11.7631
跳	-11.7632
浄	-11.7632
徽	-11.7632
粘	-11.7632
聞之師曰	-11.7633
脊	-11.7634
尊君親上	-11.7635
梃	-11.7637
軾	-11.7637
墉	-11.7637
牛山之木	-11.7637
專心致志	-11.7639
裴	-11.7639
曳	-11.7639
有虞氏	-11.764
餉	-11.764
襜	-11.764
曵	-11.7641
非禮勿視	-11.78
胙	-11.7808
切切偲偲	-11.7824
允執其中	-11.7825
脈絡	-11.7827
酷	-11.7829
幬	-11.7829
可欲之謂善	-11.7829
範我馳驅	-11.783
衢	-11.7831
艴	-11.7831
日講四書解義	-11.7831
好古敏求	-11.7831
侑	-11.7832
榱	-11.7833
過則勿憚改	-11.7833
安於小成	-11.7833
𩔖	-11.7834
蓍	-11.7834
尊徳性而道問學	-11.7834
僚	-11.7836
張狀元孟子傳卷第	-11.7836
辟與闢同	-11.7836
不忮不求	-11.7837
志至焉氣次焉	-11.7837
世衰道微	-11.7837
聞一知十	-11.7838
肎	-11.7839
贈内閣學士陸隴其撰	-11.7839
濕	-11.7839
無終食之間違仁	-11.7839
壝	-11.7839
踊	-11.784
顔讎由	-11.784
扺	-11.784
仗	-11.7841
雀	-11.7841
食菜羮	-11.7841
埀	-11.7841
為貧而仕	-11.7841
臨事而懼	-11.7841
盆成括	-11.7842
兢兢業業	-11.7842
秘	-11.7842
上天之載無聲無臭	-11.7842
月無忘其所能	-11.7843
嚚	-11.7843
散宜生	-11.7843
自明而誠	-11.7843
及其成功一也	-11.7843
徳輶如毛	-11.7844
食稻衣錦	-11.7845
居仁由義	-11.7845
古之人有行之者	-11.7846
涂	-11.7847
莫之致而至	-11.7848
纒	-11.7852
冉牛閔子顔淵	-11.804
唯天下至誠	-11.804
不見諸侯何義	-11.8041
銷	-11.8042
梧	-11.8043
温良恭儉讓	-11.8043
摸	-11.8043
碌	-11.8044
周禮春官	-11.8044
蘭	-11.8046
跂	-11.8046
湍	-11.8047
魏文侯	-11.8047
四書或問卷	-11.8047
感而遂通	-11.8048
晳	-11.8048
墳	-11.8048
見幾而作	-11.8049
孑	-11.8049
濬	-11.8049
殛	-11.805
赦小過	-11.805
擘	-11.8051
有為者亦若是	-11.8051
公西赤	-11.8051
不素餐兮	-11.8052
僑	-11.8053
忖	-11.8053
訑訑	-11.8054
擇不處仁	-11.8054
可耕且為	-11.8054
閻	-11.8055
雞鳴而起	-11.8056
並行而不相悖	-11.8056
武王克商	-11.8056
民無得而稱	-11.8057
取瑟而歌	-11.8058
見危致命	-11.8058
虆	-11.8058
在邦必聞在家必聞	-11.8058
不為己甚	-11.8058
四書講義困勉録卷	-11.806
誰毁誰譽	-11.8062
帖	-11.8066
十餘年	-11.8073
畞	-11.8073
肖	-11.8167
並育並行	-11.8252
逵	-11.8256
冩	-11.8259
蟻	-11.8261
悶	-11.8262
敬事而信	-11.8262
觚哉觚哉	-11.8262
襁	-11.8262
夫子之得邦家	-11.8262
逈	-11.8263
不受命而貨殖	-11.8264
人性皆善	-11.8264
犀	-11.8264
殁	-11.8265
耿	-11.8266
焦	-11.8266
天未欲平治天下	-11.8266
跌	-11.8267
像	-11.8267
隳	-11.8268
不以三公易其介	-11.8268
施諸己而不願亦勿施於人	-11.8269
不知老之將至	-11.8269
閽	-11.8269
紘	-11.827
行一不義殺一不辜而得天下	-11.827
不亦君子乎	-11.827
肻	-11.827
賀	-11.8271
不負戴於道路	-11.8271
紜	-11.8271
仁内義外	-11.8271
獲罪於天	-11.8272
峰	-11.8273
懟	-11.8273
吹	-11.8273
懽	-11.8274
見危授命	-11.8274
蘊	-11.8274
錡	-11.8274
二畝半	-11.8276
襯	-11.8277
皡	-11.8278
以其兄之子妻之	-11.828
尅	-11.8281
贐	-11.8282
五十而慕	-11.8282
軛	-11.8479
罟擭陷阱	-11.8479
僨	-11.8479
而由人乎哉	-11.848
悾悾	-11.8481
槖	-11.8482
割烹要湯	-11.8483
盡物之性	-11.8484
竅	-11.8485
隊	-11.8485
陪	-11.8486
加毫末	-11.8486
祖之所自出	-11.8486
无	-11.8487
猖	-11.8487
心不外馳	-11.8487
質諸鬼神而無疑	-11.8488
誑	-11.8488
四書類提要	-11.8488
謁	-11.8488
宥	-11.8489
毳	-11.8489
齊梁之君	-11.8489
觚不觚	-11.8489
泛應曲當	-11.849
蹄	-11.849
宫之竒	-11.849
先立乎誠	-11.8491
行有餘力則以學文	-11.8492
護	-11.8492
狠	-11.8492
蛟	-11.8493
穫	-11.8493
腰	-11.8493
不言不笑不取	-11.8493
我欲仁斯仁至矣	-11.8494
没世而名不稱	-11.8494
以羊易牛	-11.8495
勿軒熊氏曰	-11.8495
巧言令色鮮矣仁	-11.8495
好徳如好色	-11.8497
顣	-11.8498
通功易事	-11.8499
恢	-11.8502
禓	-11.8503
臥	-11.8503
彪	-11.8505
撞	-11.8506
縕	-11.8507
袪	-11.8513
摳	-11.8517
足與議	-11.8525
湣	-11.8701
綸	-11.8701
不辱君命	-11.8703
祓	-11.8703
苐	-11.8707
猗	-11.8707
絡	-11.8709
不知命無以為君子	-11.871
凱	-11.871
媵	-11.871
惇	-11.8711
周生烈	-11.8712
勑	-11.8713
霓	-11.8714
不占而已矣	-11.8716
鬰	-11.8716
窈	-11.8716
陳善閉邪	-11.8717
好惡與人相近	-11.8717
象憂亦憂象喜亦喜	-11.8717
販	-11.8717
致堂胡氏	-11.8717
偉	-11.8717
註王肅曰	-11.8718
繇	-11.8718
竿	-11.872
鞟	-11.872
挫	-11.872
凋	-11.8721
蠢	-11.8721
噬	-11.8721
庵	-11.8721
彖	-11.8722
子莫執中	-11.8725
陣	-11.8725
卵	-11.8726
不俟駕	-11.8728
義之與比	-11.8731
頸	-11.8732
緑	-11.8743
馴	-11.8934
燦	-11.8936
公山不狃	-11.8937
得志行乎中國	-11.8937
游於藝	-11.8939
定静安	-11.8939
顧諟天之明命	-11.894
議禮制度考文	-11.8941
可與入堯舜之道	-11.8941
上無道揆	-11.8942
心之全徳	-11.8944
舍生取義	-11.8945
如琢如磨	-11.8947
刁蒙吉	-11.8947
衝	-11.8947
無一物不得其所	-11.8947
戍	-11.8947
闞	-11.8947
尊徳樂義	-11.8947
不動而敬不言而信	-11.8948
斜	-11.8948
鍼	-11.8948
窮理盡性以至於命	-11.8948
史記弟子傳	-11.8949
四時行百物生	-11.8949
滲	-11.8949
不願乎其外	-11.8949
抹	-11.895
非禮之禮非義之義	-11.8951
燒	-11.8951
紆	-11.8952
明日遂行	-11.8952
鰥寡孤獨	-11.8953
郯	-11.8954
熏	-11.8954
疲	-11.8954
登東山	-11.8954
巫馬期	-11.8955
割不正不食	-11.8955
鄒肇敏曰	-11.8955
所識窮乏者得我	-11.8956
匐	-11.8957
匍	-11.8957
瑗	-11.8957
取諸人以為善	-11.8959
莠	-11.8959
軔	-11.8964
袖	-11.8985
嗛	-11.9161
摰	-11.9172
㩀	-11.9178
不復夢見周公	-11.9178
彌子瑕	-11.918
耽	-11.9181
蹉	-11.9182
片言可以折獄	-11.9182
徹頭徹尾	-11.9182
巧言令色足恭	-11.9182
聰明聖知	-11.9183
仁逺乎哉	-11.9183
夏禮吾能言之	-11.9184
恊	-11.9185
世希不失矣	-11.9185
俟再定	-11.9186
睟面盎背	-11.9186
異乎三子者之撰	-11.9187
衣敝緼袍	-11.9187
濩	-11.9187
滌	-11.9187
放於利而行	-11.9189
春夏秋冬	-11.9189
藩	-11.919
懾	-11.919
罵	-11.919
簠	-11.919
不舍晝夜	-11.9191
斵	-11.9191
鄉為身死而不受	-11.9192
紙	-11.9193
夘	-11.9194
撤	-11.9194
壮	-11.9195
爨	-11.9195
以力假仁	-11.9198
蹝	-11.9199
莫見乎隱莫顯乎微	-11.92
昵	-11.92
榆	-11.9203
更定次序	-11.9205
鴞	-11.9208
棟	-11.941
酸	-11.9419
有恥且格	-11.9419
民無所措手足	-11.942
鶻	-11.9421
痺	-11.9424
杯	-11.9424
啇	-11.9425
行已有恥	-11.9425
居處恭執事敬與人忠	-11.9426
食貨志	-11.9426
段干木	-11.9427
翟	-11.9427
學如不及猶恐失之	-11.9428
垤	-11.9428
莅	-11.9429
天子不能以天下與人	-11.9429
菹	-11.943
言近而指逺	-11.9431
尚書大傳	-11.9431
蘇秦張儀	-11.9431
贖	-11.9431
韓詩外傳	-11.9431
求仁而得仁	-11.9431
好謀而成	-11.9432
鈔	-11.9432
駒	-11.9432
聞斯行之	-11.9433
慄	-11.9433
藪	-11.9433
隷	-11.9434
鉅	-11.9434
翰林院	-11.9435
咻	-11.9435
媒	-11.9436
文王之囿方七十里	-11.9436
俄	-11.9437
有不可勝言者	-11.9437
君子思不出其位	-11.9437
幻	-11.9437
禹吾無間然矣	-11.9438
慿	-11.9438
脩己以敬	-11.9438
茁	-11.9438
旺	-11.9439
逓	-11.9439
徐行後長	-11.9439
既竭吾才	-11.9439
賢者而後樂此	-11.9439
宵	-11.9439
吾末如之何也已矣	-11.944
絮	-11.944
獯	-11.9441
不愧屋漏	-11.9441
脂	-11.9442
纑	-11.9442
躬自厚而薄責於人	-11.9444
虚靈不昧	-11.9444
柙	-11.9447
分田制禄	-11.9447
幕	-11.9447
席不正不坐	-11.9447
腊	-11.9448
闈	-11.9465
晁	-11.9486
靷	-11.9487
犁	-11.9664
覬	-11.9672
套	-11.9672
貧而樂富而好禮	-11.9673
宓	-11.9674
塟	-11.9674
掉	-11.9674
降志辱身	-11.9675
鑑空衡平	-11.9676
自天子以至於庶人	-11.9676
下無法守	-11.9676
十目所視十手所指	-11.9676
孝者所以事君	-11.9677
蚩	-11.9677
湮	-11.9677
三年無改於父之道可謂孝矣	-11.9677
癢	-11.9677
陘	-11.9678
麾	-11.9678
顔師古	-11.9678
待其人而後行	-11.9678
悞	-11.9679
子張學干禄	-11.9679
蒯	-11.9679
樂則韶舞	-11.9679
縲	-11.968
襞	-11.968
修己以安百姓	-11.968
舂	-11.968
㓙	-11.9681
聲音笑貌	-11.9682
山節藻梲	-11.9682
不怨天不尤人	-11.9682
博學而篤志切問而近思	-11.9682
奬	-11.9682
無所取材	-11.9682
首陽山	-11.9683
旻	-11.9683
服周之冕	-11.9683
縚	-11.9683
窮不失義	-11.9683
梯	-11.9684
嫂	-11.9685
桞	-11.9685
曲能有誠	-11.9685
鷩	-11.9685
覈	-11.9686
祭神如神在	-11.9686
劑	-11.9686
儛	-11.9687
湯放桀	-11.9687
生財有大道	-11.9687
吾不與祭如不祭	-11.9688
天生蒸民	-11.9689
夜氣不足以存	-11.9689
是心足以王矣	-11.9689
槃	-11.969
磽	-11.969
猜	-11.969
軸	-11.9692
朝聞道夕死可矣	-11.9692
賄	-11.9692
瘁	-11.9693
劍	-11.9693
援而止之而止	-11.9695
笥	-11.9697
舊染之汚	-11.992
墊	-11.9925
鳶飛戾天魚躍于淵	-11.9929
戰戰兢兢	-11.993
栢	-11.993
蹇	-11.993
若聖與仁則吾豈敢	-11.993
憒	-11.9931
信而好古	-11.9932
蕪	-11.9932
禮樂征伐自諸侯出	-11.9933
具體而微	-11.9934
泳	-11.9934
穩	-11.9934
危邦不入亂邦不居	-11.9935
古之學者為己	-11.9936
籩	-11.9936
課	-11.9936
鴃	-11.9937
揺	-11.9938
狙	-11.9939
糲	-11.9939
瑚	-11.9939
構	-11.994
蜚	-11.994
富貴利達	-11.994
膚受之愬	-11.9941
槐	-11.9942
袵	-11.9942
六言六蔽	-11.9942
不愧不怍	-11.9942
橐	-11.9943
訣	-11.9944
綬	-11.9944
仁山金氏	-11.9946
捄	-11.9946
各有攸當	-11.9947
髙堅前後	-11.9948
絀	-11.9948
萇	-11.9948
宰予晝寢	-11.9949
渺	-11.995
棊	-11.9951
拖	-11.9963
縞	-12.0003
麽	-12.0185
廿	-12.019
彷	-12.0191
揀	-12.0191
色厲而内荏	-12.0192
迄	-12.0192
四書鏡曰	-12.0192
彿	-12.0192
䂓	-12.0192
􁈭	-12.0192
言不必信行不必果	-12.0193
論語集註大全卷	-12.0193
法制禁令	-12.0193
晰	-12.0193
猷	-12.0194
滄	-12.0196
芮	-12.0196
彩	-12.0196
穏	-12.0196
常目在之	-12.0197
誡	-12.0197
邦君之妻	-12.0197
簫	-12.0198
黔	-12.0198
谿	-12.0198
反身而誠樂莫大焉	-12.0199
荏	-12.0199
臾	-12.0199
心之全德	-12.02
戯	-12.02
有不期然而然者	-12.0201
堯舜之道孝弟而已矣	-12.0201
鎡	-12.0202
渙	-12.0202
避兄離母	-12.0203
璞	-12.0203
𫝑	-12.0204
不使不仁者加乎其身	-12.0205
無餘藴矣	-12.0205
遐	-12.0206
林放問禮之本	-12.0206
聞一知二	-12.0207
頞	-12.0208
與衣狐貉者立	-12.0208
攙	-12.0209
樂正雅頌各得其所	-12.0209
飦	-12.0209
絕	-12.021
聰明睿智	-12.021
麀	-12.0212
知及仁守	-12.0212
屯	-12.0216
韍	-12.0226
分崩離析	-12.0447
不害不悖	-12.045
頎	-12.0458
洒埽應對	-12.0459
襟	-12.0459
肢	-12.0459
淄	-12.0461
饉	-12.0463
色取仁而行違	-12.0465
舉直錯諸枉	-12.0466
栻	-12.0466
庇	-12.0466
豎	-12.0466
内省不疚夫何憂何懼	-12.0467
侏	-12.0468
峻極于天	-12.0468
恒胡登反	-12.0468
左丘明恥之丘亦恥之	-12.0469
胞	-12.0469
四書近指卷	-12.0469
知愚賢不肖	-12.0469
座	-12.0469
巍	-12.0469
踏	-12.047
仰事俯育	-12.047
灾	-12.0471
賊夫人之子	-12.0471
洵	-12.0472
博學審問慎思明辨	-12.0472
汜	-12.0472
先立乎其大者	-12.0472
號泣于旻天	-12.0472
閫	-12.0473
擇善而固執之	-12.0473
尺寸之膚	-12.0473
千變萬化	-12.0473
鈇	-12.0473
棁	-12.0474
璉	-12.0474
非其義也非其道也	-12.0475
簟	-12.0477
地利不如人和	-12.0478
窟	-12.0478
義襲而取	-12.0479
仁政必自經界始	-12.048
觽	-12.048
見利思義	-12.048
不違農時	-12.0481
放辟邪侈	-12.0481
用之則行舍之則藏	-12.0481
孫叔敖	-12.0481
烏路切	-12.0492
尹公之他	-12.0498
廱	-12.0526
一統志云	-12.0734
犧	-12.0737
唯聖者能之	-12.0738
彼哉彼哉	-12.0738
齊必變食	-12.0738
変	-12.074
舉直錯枉	-12.0741
孔子曰以吾從大夫之後不敢不告也	-12.0742
造端乎夫婦	-12.0744
子游為武城宰	-12.0745
物之所以自成	-12.0745
珪	-12.0745
寔	-12.0745
浡	-12.0745
見不賢而内自省	-12.0746
血流漂杵	-12.0746
不逆不億	-12.0747
真積力久	-12.0747
捆	-12.0748
猾	-12.0748
摧	-12.0748
継	-12.0749
先慎乎徳	-12.075
綺	-12.075
造次必於是顛沛必於是	-12.0751
麓	-12.0752
纉	-12.0753
騷	-12.0753
何莫學夫詩	-12.0753
逝者如斯	-12.0754
倍上士上士倍中士中士倍下士下士與	-12.0754
事死如事生	-12.0754
大畏民志	-12.0754
有朋自逺方來	-12.0754
子罕言利與命與仁	-12.0756
子貢欲去告朔之餼羊	-12.0756
蘧	-12.0756
際可之仕	-12.0756
非其君不事	-12.0756
讙	-12.0756
出入無時莫知其鄉	-12.0757
跟	-12.0757
妬	-12.0758
賻	-12.0761
繒	-12.0765
剰	-12.0765
鮮能知味	-12.0765
球	-12.0766
知徳者鮮	-12.0766
色勃如也	-12.0772
觳	-12.0774
」9.	-12.0798
曼	-12.101
不可階而升	-12.1026
檟	-12.1027
自天子至於庶人	-12.1027
堯舜帥天下以仁	-12.1027
彦昇按	-12.1028
惠而不知為政	-12.1028
春服既成	-12.1029
昩	-12.103
耐	-12.103
放鄭聲逺佞人	-12.1031
鷹	-12.1031
手舞足蹈	-12.1031
周雖舊邦其命維新	-12.1032
聲聞過情	-12.1032
以直養而無害	-12.1032
吾聞西伯善養老者	-12.1032
君仁莫不仁君義莫不義	-12.1033
徒法不能以自行	-12.1033
弩	-12.1033
天地之道可一言而盡	-12.1034
何文定曰	-12.1034
修道之謂教	-12.1035
百家衆技	-12.1035
無友不如己者	-12.1035
惟精惟一	-12.1035
雛	-12.1035
杼	-12.1036
主癰疽與侍人瘠環	-12.1037
八佾舞於庭	-12.1037
稠	-12.1037
麒	-12.1037
訾	-12.1038
涇	-12.1038
耄	-12.1038
申申夭夭	-12.1039
籩豆之事則有司存	-12.1039
帑	-12.1039
裸	-12.1039
因時制宜	-12.1039
断	-12.104
大而化之之謂聖	-12.104
蝕	-12.104
非天之降才爾殊	-12.1041
迴	-12.1041
莧	-12.1042
質勝文則野	-12.1042
冗	-12.1043
王者之迹熄	-12.1044
犢	-12.1044
貯	-12.1044
非其有而取之	-12.1044
孶	-12.1046
檀	-12.1047
兔	-12.1048
桂	-12.105
吾猶及史之闕文	-12.1055
汁	-12.108
東陽許氏	-12.1261
錯行代明	-12.1311
戒愼不睹恐懼不聞	-12.1314
在邦無怨在家無怨	-12.1315
饕	-12.1319
臨大節而不可奪	-12.132
桷	-12.132
循循善誘	-12.132
痿	-12.1321
繼志述事	-12.1321
灑埽應對	-12.1322
徐岩泉曰	-12.1322
系	-12.1322
貟	-12.1323
罃	-12.1323
蜂	-12.1323
叔梁紇	-12.1324
𬒳	-12.1324
羖	-12.1324
言必信行必果	-12.1325
滸	-12.1326
達巷黨人	-12.1326
剔	-12.1327
凡為天下國家有九經	-12.1327
滚	-12.1327
如切如磋	-12.1327
焄	-12.1327
力役之征	-12.1328
立則見其參	-12.1328
子行三軍則誰與	-12.1329
徐子以告夷子	-12.1329
管登之曰	-12.1329
天與賢則與賢天與子則與子	-12.1329
自天子達於庶人	-12.1329
纘	-12.133
迤	-12.133
乃若其情則可以為善	-12.133
漂	-12.1331
嫂溺援之以手	-12.1331
四體不言而喻	-12.1332
畜許六反	-12.1332
孕	-12.1333
曰未之思也夫何逺之有	-12.1333
不撤薑食	-12.1333
天時不如地利	-12.1334
苴	-12.1334
舜何人也予何人也	-12.1334
諦	-12.1334
訢	-12.1334
窶	-12.1334
喜怒哀樂之未發謂之中	-12.1335
君子去仁惡乎成名	-12.1335
韜	-12.1335
放僻邪侈	-12.1336
鏤	-12.1336
閟	-12.1337
玷	-12.1337
窄	-12.1337
潑	-12.1338
綯	-12.1338
周有八士	-12.1339
稚	-12.1342
寥	-12.1343
而不足以解憂	-12.1344
乱	-12.1621
此二節書是	-12.1623
剡	-12.1623
舉斯心加諸彼	-12.1623
悝	-12.1625
公山弗擾以費畔	-12.1626
蔟	-12.1628
所令反其所好	-12.1628
猥	-12.1629
陂	-12.1629
博學於文約之以禮亦可以弗畔矣夫	-12.1629
璿	-12.1629
子服景伯	-12.1629
有教無類	-12.163
糓	-12.163
裝	-12.163
非徒無益而又害之	-12.1631
男女授受不親	-12.1631
正其衣冠尊其瞻視	-12.1631
哺	-12.1631
以友輔仁	-12.1632
聳	-12.1632
桓公殺公子糾	-12.1632
秬	-12.1632
任重而道逺	-12.1633
能好人能惡人	-12.1633
乾道變化各正性命	-12.1633
規矩準繩	-12.1633
用我者吾其為東周乎	-12.1633
正己而物正	-12.1633
當仁不讓於師	-12.1634
吾老矣不能用也	-12.1634
鸇	-12.1634
敕	-12.1635
葦	-12.1635
莊以涖之	-12.1635
仁之至義之盡	-12.1635
盍歸乎來	-12.1635
邈	-12.1636
徯我后	-12.1636
得之為有財	-12.1636
彼長而我長之	-12.1637
廣平游氏曰	-12.1637
曰王之好樂甚則齊	-12.1637
迅雷風烈必變	-12.1638
非其鬼而祭之	-12.1638
容光必照	-12.1639
檻	-12.1639
鄕	-12.1639
參前倚衡	-12.1639
家貧親老	-12.1639
不賢者雖有此不樂	-12.1639
很	-12.1639
彎	-12.164
衿	-12.1641
訝	-12.1641
鴻鴈麋鹿	-12.1642
人之所以異於禽獸者	-12.1643
好是懿徳	-12.1643
墁	-12.1644
韎	-12.1646
寘	-12.1647
縐	-12.1648
君子不以紺緅飾	-12.1655
7.1	-12.1666
檐	-12.1671
孔子對曰言不可以若是其幾也	-12.1931
非禮勿視聽言動	-12.1934
閱	-12.1934
加我數年	-12.1935
居必遷坐	-12.1935
上行下效	-12.1935
甚矣吾衰也	-12.1937
攖	-12.1937
泆	-12.1937
祕	-12.1938
叶	-12.1938
釀	-12.1939
婁	-12.1939
攝行相事	-12.194
恂	-12.194
陳成子弑簡公	-12.1941
䢵	-12.1941
痒	-12.1941
知我者其天乎	-12.1941
雖之夷狄不可棄也	-12.1941
公伯竂	-12.1942
怵	-12.1942
蒞	-12.1942
五畆之宅	-12.1943
不明乎善不誠乎身	-12.1943
君子道者三我無能焉	-12.1943
鰌	-12.1944
知之為知之不知為不知	-12.1944
已所不欲勿施於人	-12.1944
脅肩諂笑	-12.1944
蹵	-12.1945
謾	-12.1945
𠂻	-12.1945
仭	-12.1946
幷	-12.1946
瞽瞍亦允若	-12.1946
髓	-12.1946
彥	-12.1946
矧	-12.1946
君子有三樂而王天下不與存焉	-12.1946
民徳歸厚	-12.1946
址	-12.1947
凊	-12.1947
袒裼裸裎	-12.1948
終亦必亡而已矣	-12.1949
莖	-12.1949
燥	-12.1949
察言觀色	-12.195
耗	-12.195
軟	-12.195
炫	-12.195
簞食瓢飲	-12.195
墾	-12.195
民事不可緩	-12.1953
倐	-12.1953
鎛	-12.1953
訴	-12.1953
行下孟反	-12.1953
我善養吾浩然之氣	-12.1955
餲	-12.1955
為力不同科	-12.1955
蕤	-12.1963
貍	-12.1966
孺	-12.2219
斟	-12.224
車中不内顧	-12.2256
蘆	-12.2257
冲	-12.2257
松陽講義	-12.2257
妣	-12.2258
壹是皆以修身為本	-12.2258
天下可運於掌	-12.2258
㤀	-12.2259
原思為之宰	-12.2259
癩	-12.2259
翺	-12.226
𥙷	-12.226
旃	-12.2261
嘿	-12.2261
隴	-12.2261
子路使子羔為費宰	-12.2261
郝	-12.2262
一草一木	-12.2263
糜	-12.2264
子使漆雕開仕	-12.2264
充類至義之盡	-12.2264
忝	-12.2264
不以天下儉其親	-12.2265
若由也不得其死然	-12.2265
逡	-12.2265
鷄	-12.2266
攜	-12.2266
汩	-12.2266
國不以利為利以義為利	-12.2267
功烈如彼其卑	-12.2267
俚	-12.2267
移風易俗	-12.2268
糜爛其民	-12.2268
㝷	-12.2269
屺	-12.2269
文莫吾猶人也	-12.2269
瞻之在前忽焉在後	-12.2269
壙	-12.2269
罹	-12.227
戹	-12.227
整齊嚴肅	-12.227
蓧	-12.227
瓘	-12.2272
皿	-12.2272
剝	-12.2273
鼈	-12.2274
韞	-12.2274
殍	-12.2274
称	-12.2275
以財發身	-12.2275
据	-12.2275
慎終追逺	-12.2276
畛	-12.2277
舜有臣五人而天下治	-12.2277
丘之禱久矣	-12.2278
埤	-12.2278
寬	-12.2279
」	-12.2282
皁	-12.2283
眂	-12.2284
綢	-12.2287
狐貉之厚以居	-12.229
勅	-12.2583
燼	-12.2585
翩	-12.2586
瞶	-12.2587
矛	-12.2588
三人行必有我師	-12.2588
君不君臣不臣父不父子不子	-12.2591
陌	-12.2591
䋲	-12.2592
天下有道則政不在大夫	-12.2592
孔子曰殷有三仁焉	-12.2592
靮	-12.2592
伎	-12.2593
邃	-12.2594
株	-12.2594
船	-12.2595
人不足與適也	-12.2596
見志不從又敬	-12.2596
蔣	-12.2596
㢤	-12.2596
挑	-12.2596
魁	-12.2597
子曰聽訟吾猶人也必也使無訟乎	-12.2598
習與性成	-12.2598
郉	-12.2599
願無伐善無施勞	-12.2599
鍵	-12.2599
璜	-12.2599
劫	-12.2599
銅	-12.2599
筏	-12.26
物各付物	-12.2601
夫何使我至於此極也	-12.2601
街	-12.2601
體信達順	-12.2601
足食足兵	-12.2601
。」4.	-12.2601
以能問於不能	-12.2602
葷	-12.2602
惡紫之奪朱	-12.2603
壟	-12.2603
山節藻棁	-12.2603
敬鬼神而逺之	-12.2603
蠧	-12.2603
謫	-12.2604
瞞	-12.2604
兜	-12.2604
関	-12.2604
詩云永言配命自求多福	-12.2604
岸	-12.2605
鐡	-12.2606
齕	-12.2607
勒	-12.2607
闌	-12.2607
豢	-12.2607
餱	-12.2607
鵝	-12.2608
管仲之器小哉	-12.2609
浙	-12.2609
無欲害人之心	-12.2609
堕	-12.2609
府史胥徒	-12.261
仰不愧俯不怍	-12.261
搖	-12.261
黄衣狐裘	-12.261
。」11.	-12.2611
觴	-12.2611
機變之巧	-12.2612
茨	-12.2613
何莫由斯	-12.2614
上知與下愚不移	-12.2614
袷	-12.2614
澤梁無禁	-12.2615
邶	-12.2615
刄	-12.2617
䳘	-12.262
栘	-12.2623
嬉	-12.2923
先發後聞	-12.2932
耑	-12.2932
赫兮喧兮	-12.2934
竪	-12.2934
杳	-12.2935
公孫衍張儀	-12.2936
元劉因撰	-12.2936
以是心至斯受之	-12.2937
事其大夫之賢者友其士之仁者	-12.2937
綂	-12.2938
孟子對曰於傳有之	-12.2939
殺身以成仁	-12.2939
格庵趙氏曰	-12.2939
曰否以粟易之	-12.2939
鼃	-12.294
攻其惡無攻人之惡	-12.294
辟土地朝秦楚	-12.294
憧	-12.294
諸葛武侯	-12.2941
禹稷顔回同道	-12.2941
兀	-12.2942
孩提之童無不知愛其親	-12.2942
鋸	-12.2942
翰	-12.2942
兾	-12.2942
如用之則吾從先進	-12.2943
雎	-12.2944
老安少懐	-12.2944
齊景公田招虞人以旌不至將殺之	-12.2944
拔本塞源	-12.2945
跛	-12.2945
三宿出晝	-12.2945
父在觀其志	-12.2945
蒿	-12.2945
詁	-12.2946
與朋友交言而有信	-12.2946
仕止乆速	-12.2947
三家者以雍徹	-12.2947
扁	-12.2947
自任以天下之重	-12.2947
苙	-12.2947
逾	-12.2948
罔之生也幸而免	-12.2948
見不善如探湯	-12.2948
雖曰未學吾必謂之學矣	-12.2949
以其所愛及其所不愛	-12.2949
洋洋乎盈耳哉	-12.2949
三年無改於父之道	-12.2949
攣	-12.2949
。」2.	-12.2949
煬	-12.2949
疋	-12.2949
宋趙順孫撰	-12.295
辭尊居卑辭富居貧	-12.295
龎	-12.295
吉月必朝服而朝	-12.295
亾	-12.2951
豈若匹夫匹婦之為諒也	-12.2951
性相近也習相逺也	-12.2951
曰得其所哉得其所哉	-12.2952
忸	-12.2952
利者義之和	-12.2953
六斗四升	-12.2953
不下帶而道存	-12.2953
芑	-12.2954
流風餘韻	-12.2955
㢲	-12.2955
牼	-12.2959
蒍	-12.2961
謂泰山不如林放乎	-12.2961
斑	-12.2963
慱	-12.2976
駑	-12.2977
跲	-12.3284
四書辨疑卷	-12.3286
舜亦以命禹	-12.3288
可以寄百里之命	-12.3292
四時行焉百物生焉	-12.3292
芬	-12.3294
殀壽不貳	-12.3294
黶	-12.3294
焦漪園曰	-12.3295
求生以害仁	-12.3295
也使先知覺後知使先覺覺後覺	-12.3295
踴	-12.3296
耀	-12.3296
盆	-12.3296
子曰無欲速無見小利	-12.3297
肘	-12.3298
子張問十世可知也	-12.3298
矇	-12.3298
梢	-12.3299
溥博淵泉而時出之	-12.3299
果於忘世	-12.3299
頰	-12.3299
田獵於此百姓聞王車馬之音見羽旄之	-12.3299
緘	-12.3299
大徳不踰閑	-12.33
踖	-12.33
蓁	-12.33
剽	-12.33
君子所貴乎道者三	-12.3301
而不繹從而不改	-12.3301
扇	-12.3302
阼	-12.3302
村	-12.3302
仁之實事親是也	-12.3302
叠	-12.3303
抱闗擊柝	-12.3303
摽	-12.3304
鋤	-12.3304
有不善未嘗不知知之未嘗復行	-12.3304
廣土衆民	-12.3304
紬	-12.3304
無忠做恕不出	-12.3304
隧	-12.3305
氣壹則動志	-12.3305
詩書六藝之文	-12.3305
不逆詐不億不信	-12.3305
翣	-12.3305
仰之彌高	-12.3305
爭民施奪	-12.3305
蕩蕩乎民無能名焉	-12.3306
齊景公有馬千駟	-12.3306
必有事焉而勿正心勿忘勿助長也	-12.3306
理一而分殊	-12.3306
雁	-12.3306
摶	-12.3306
妁	-12.3306
姣	-12.3307
齊必有明衣布	-12.3307
不忮不求何用不臧	-12.3307
煢	-12.3308
謐	-12.3308
好呼報反	-12.3308
寺	-12.3308
姊	-12.3309
敬大臣體羣臣	-12.3309
不如丘之好學也	-12.3309
疾沒世而名不稱	-12.3309
戢	-12.3309
守約而施博	-12.331
子産有君子之道四焉	-12.3311
天將以夫子為木鐸	-12.3311
余氏辨曰	-12.3312
人告之以有過則喜	-12.3312
泄栁申詳	-12.3313
予也有三年之愛於其父母乎	-12.3313
吕侍講曰	-12.3313
周監於二代郁郁乎文哉	-12.3314
薇	-12.3315
㒺	-12.3317
其義則丘竊取之矣	-12.3317
椎	-12.3322
繢	-12.3323
養心莫善於寡欲	-12.3324
享禮有容色	-12.3327
深耕易耨	-12.3328
箱	-12.3329
山梁雌雉	-12.3657
壻	-12.3657
潁	-12.3658
䑛	-12.3658
疏食飲水	-12.3661
嵩	-12.3662
趍	-12.3662
伹	-12.3664
濱聞文王作興曰盍歸乎	-12.3665
莾	-12.3665
其大者不賢者識其小者莫不有文	-12.3666
夫子之言性與天道不可得而聞也	-12.3666
寛裕温柔	-12.3667
硜	-12.3667
不見是而無悶	-12.3667
如其禮樂以俟君子	-12.3667
某在斯某在斯	-12.3667
子貢曰文武之道未墜於地在人賢者識	-12.3667
物有本末事有終始知所先後則近道矣	-12.3668
肸	-12.3668
孝弟也者其為仁之本與	-12.3668
崇國文忠公臨安府鹽官張九成子韶	-12.3669
是可忍也孰不可忍也	-12.3669
天生徳於予	-12.3669
匿怨而友其人	-12.367
悽	-12.367
儔	-12.3671
葱	-12.3671
余氏辯曰	-12.3671
父子不相見兄弟妻子離散	-12.3671
孟子集編卷	-12.3671
子張問政子曰居之無倦行之以忠	-12.3672
滔	-12.3672
合性與知覺有心之名	-12.3672
黨之小子狂簡斐然成章不知所以裁之	-12.3672
愴	-12.3672
霆	-12.3672
庶人在官者同禄禄足以代其耕也	-12.3672
劈	-12.3672
郈	-12.3672
可以取可以無取	-12.3673
伶	-12.3673
窬	-12.3673
牾	-12.3673
岀	-12.3673
學問之道無他求其放心而已矣	-12.3673
徒善不足以為政	-12.3673
陳司敗問昭公知禮乎	-12.3674
蘄	-12.3675
以不賢人之招招賢人	-12.3675
輶	-12.3676
慣	-12.3676
富有四海之内宗廟饗之子孫保之	-12.3677
殫	-12.3677
出疆必載質	-12.3677
天作孽猶可違自作孽不可活此之謂也	-12.3677
生而知之者上也學而知之者次也	-12.3677
如不可求從吾所好	-12.3677
有如時雨化之者	-12.3677
悛	-12.3677
卹	-12.3678
頫	-12.3679
君子固窮小人窮斯濫矣	-12.3679
怩	-12.3679
夫子循循然善誘人	-12.368
漓	-12.368
上祀先公以天子之禮	-12.368
死生有命富貴在天	-12.3681
三分天下有其二以服事殷	-12.3681
誰能出不由户	-12.3681
挟	-12.3681
惟順於父母可以解憂	-12.3682
紓	-12.3682
豉	-12.3682
無或乎王之不智	-12.3682
摭	-12.3683
綌	-12.3686
邦有道不廢邦無道免於刑戮	-12.3686
好是懿德	-12.3687
虔	-12.3687
賢者在位能者在職	-12.3687
不幸短命死矣	-12.3688
柞	-12.3688
請野九一而助國中什一使自賦	-12.3688
眾	-12.3688
綦	-12.3689
蹯	-12.3692
不患無位患所以立	-12.4042
子不語怪力亂神	-12.4043
痔	-12.4043
傒	-12.4043
隻	-12.4045
濓	-12.4046
其本亂而末治者否矣	-12.4046
斆	-12.4047
灸	-12.4047
今之大夫今之諸侯之罪人也	-12.4048
姚承菴曰	-12.4048
懌	-12.4048
麥丘邑人	-12.4049
𥙿	-12.405
以能問於不能以多問於寡有若無實若	-12.405
凜	-12.405
暘	-12.405
必也使無訟乎	-12.4051
請益曰無倦	-12.4051
聞一善言見一善行	-12.4051
跋	-12.4051
子曰必也正名乎	-12.4052
閤	-12.4052
興於詩立於禮成於樂	-12.4052
杭	-12.4052
朋友切切偲偲兄弟怡怡	-12.4052
摺	-12.4053
鏃	-12.4053
子張書諸紳	-12.4053
沽酒市脯不食	-12.4053
多識於鳥獸草木之名	-12.4054
老者安之朋友信之少者懷之	-12.4054
吠	-12.4054
酈	-12.4054
周因於殷禮所損益可知也	-12.4055
詈	-12.4055
食饐而餲	-12.4055
乗殷之輅	-12.4055
志士不忘在溝壑勇士不忘喪其元	-12.4056
台	-12.4056
閹然媚於世	-12.4056
鱉	-12.4056
糟	-12.4057
如有周公之才之美	-12.4057
一隂一陽之謂道	-12.4058
蔽陷離窮	-12.4058
可須㬰離	-12.4058
山徑之蹊	-12.4058
躬行君子則吾未之有得	-12.4058
膽	-12.4059
彼白而我白之	-12.4059
紲	-12.4059
面而征西夷怨南面而征北狄怨曰奚	-12.4059
公伯寮其如命何	-12.4059
張侗初曰	-12.4059
我則異於是無可無不可	-12.4059
明睿所照	-12.4059
孟氏使陽膚為士師	-12.4059
刖	-12.4059
脾	-12.4059
聖人復起不易吾言	-12.4059
鎧	-12.406
人莫不飲食也鮮能知味也	-12.406
雞豚狗彘之畜無失其時	-12.406
梗	-12.406
嚶	-12.406
建諸天地而不悖	-12.406
渝	-12.4061
覜	-12.4061
岱	-12.4061
錐	-12.4061
跬	-12.4062
東溪劉氏	-12.4062
匵	-12.4062
憂勤惕厲	-12.4063
闘	-12.4063
白石錢氏	-12.4064
殞	-12.4064
昂	-12.4064
徯	-12.4065
䟽食飲水	-12.4067
兠	-12.4069
軓	-12.4069
帯	-12.407
仁孝誠敬之至	-12.4071
燎	-12.4071
蜃	-12.4073
呼報切下	-12.4077
瓊	-12.4078
鞠	-12.4082
籔	-12.4084
為政在人取人以身	-12.4444
啄	-12.4445
蔡虚齋曰	-12.4446
儕	-12.4446
廸	-12.4447
鵞	-12.4447
老吾老以及人之老幼吾幼以及人之幼	-12.4448
有斐君子終不可諠兮	-12.4448
劵	-12.4448
拆	-12.4448
斷髪文身	-12.4449
菑必逮夫身	-12.4449
升車必正立執綏	-12.4449
知止而后有定定而后能	-12.445
君子賢其賢而親其親	-12.445
埽	-12.4451
天覆地載	-12.4452
由堯舜至於湯	-12.4453
鏘	-12.4453
天之未喪斯文也匡人其如予何	-12.4453
蔓	-12.4453
隨事精察而力行之	-12.4453
道不同不相為謀	-12.4453
果哉末之難矣	-12.4454
君召使擯	-12.4455
描	-12.4455
鄭聲淫佞人殆	-12.4455
黈	-12.4455
以杖叩其脛	-12.4455
伯夷叔齊孤竹君之二子	-12.4455
仁者安仁知者利仁	-12.4456
籌	-12.4456
非其君不事非其民不使治則進亂則退	-12.4456
先正其心欲正其心者先誠其意	-12.4456
老者衣帛食肉黎民不飢不寒	-12.4456
揔	-12.4457
來朝走馬	-12.4457
尢	-12.4457
顧涇陽曰	-12.4458
自經於溝瀆而莫之知也	-12.4458
道二仁與不仁而已	-12.4458
王宇泰曰	-12.4458
雖日撻而求其	-12.4458
由之瑟奚為於丘之門	-12.4458
明陳士元撰	-12.4459
非存心無以致知	-12.4459
愕	-12.4459
聒	-12.4459
傚	-12.446
雖有粟吾得而食諸	-12.446
齊人伐燕勝之	-12.446
哇	-12.446
仰鑚瞻忽	-12.446
刮	-12.446
騰	-12.4461
仙	-12.4461
子貢曰管仲非仁者與	-12.4461
有言者不必有徳	-12.4461
取之左右逢其原	-12.4462
王者之迹熄而詩亡詩亡然後春秋作	-12.4462
饘	-12.4463
禘自既灌而往	-12.4464
朝服而立於阼階	-12.4464
禹聞善言則拜	-12.4465
侍於君子有三愆	-12.4465
氾	-12.4466
菟	-12.4466
一日用其力於仁矣乎我未見力不足者	-12.4466
致中和天地位焉萬物育焉	-12.4466
劭	-12.4467
地方百里而可以王	-12.4467
局量褊淺	-12.4467
蜼	-12.4467
富與貴是人之所欲也	-12.4467
盂	-12.4468
斯民也三代之所以直道而行也	-12.4468
獮	-12.4468
徳慧術知	-12.4468
斯人也而有斯疾也	-12.4468
有一言而可以終身行之者乎	-12.4468
忙	-12.4469
可以為善可以為不善	-12.4469
盡其道而死者正命也	-12.447
蟄	-12.4471
虚無寂滅	-12.4472
龠	-12.4475
㨿	-12.4476
割雞焉用牛刀	-12.4476
妹	-12.4491
喟	-12.4834
衎	-12.4846
陜	-12.4855
惬	-12.4857
陬	-12.4857
􁂯	-12.4859
生事之以禮死葬之以禮祭之以禮	-12.4859
刑于寡妻至于兄弟以御于家邦	-12.486
其所厚者薄而其所薄者厚未之有也	-12.486
名不正則言不順言不順則事不成	-12.4862
墠	-12.4862
孔子沐浴而朝告於哀公	-12.4863
躱	-12.4863
君子欲訥於言而敏於行	-12.4863
䑕	-12.4864
君子喻於義小人喻於利	-12.4864
不圖為樂之至於斯	-12.4865
恙	-12.4866
昻	-12.4867
居是邦不非其大夫	-12.4867
穪	-12.4867
以約失之者鮮	-12.4868
此章入要畧一之	-12.4868
庸徳之行庸言之謹	-12.4868
彜	-12.4868
銀	-12.4868
溷	-12.4868
思知人不可以不知天	-12.4868
唇	-12.4869
可欺也不可罔也	-12.4869
們	-12.4869
濂	-12.4869
責難於君謂之恭	-12.4869
大全辨芑山張氏曰	-12.487
季氏使閔子騫為費宰	-12.487
猝	-12.487
虹	-12.487
慢令致期謂之賊	-12.487
孟子纂箋卷	-12.4871
道之將行也與命也道之將廢也與命也	-12.4871
泌	-12.4871
瞰	-12.4871
上老老而民興孝上長長而民興弟	-12.4871
催	-12.4871
及其長也無不知敬其兄	-12.4871
所求乎子以事父未能	-12.4872
所謂平天下在治其國者	-12.4872
考證欽定四庫全書孟子注疏卷	-12.4872
冉子與之粟五秉	-12.4872
湯霍林曰	-12.4873
胡炳文撰朱子集註	-12.4873
飯扶晚反	-12.4873
誌	-12.4873
無行而不與二三子	-12.4873
披	-12.4874
欲誠其意者先致其知致知在格物	-12.4874
事父母能竭其力事君能致其身	-12.4874
魯無君子者斯焉取斯	-12.4874
千條萬緒	-12.4875
瞿	-12.4875
修身以道修道以仁	-12.4875
好仁不好學其蔽也愚	-12.4875
吾未見能見其過而内自訟	-12.4875
酖	-12.4875
亞於浴沂	-12.4875
螻	-12.4875
擇其善者而從之多見而識之知之次也	-12.4875
誚	-12.4876
子路有聞未之能行唯恐有聞	-12.4876
俠	-12.4876
弃	-12.4876
朗	-12.4876
天何言哉四時行焉百物生焉天何言哉	-12.4877
陥	-12.4877
老者安之朋友信之少者懐之	-12.4877
咽	-12.4877
道於虞以伐虢	-12.4877
曰今日我疾作不可以執弓	-12.4877
莆	-12.4878
學而不思則罔思而不學則殆	-12.4878
杌	-12.4879
莊忠甫曰	-12.4879
鄒與魯閧	-12.488
芝	-12.488
曾子曰吾聞諸夫子	-12.488
不泄邇不忘逺	-12.488
出則事公卿入則事父兄	-12.488
邸	-12.488
賾	-12.4881
酧	-12.4881
阨窮而不憫	-12.4881
駿	-12.4881
湎	-12.4881
簇	-12.4882
原泉混混	-12.4882
濤	-12.4883
抔	-12.4883
珩	-12.4883
良人出則必饜酒肉而後反	-12.4883
恫	-12.4884
子夏之門人問交於子張	-12.4884
私覿愉愉如也	-12.4885
許子必種粟而後食乎	-12.4885
窳	-12.4885
贏	-12.4887
輢	-12.4888
臟	-12.4889
卬	-12.489
難乎免於今之世矣	-12.489
堊	-12.489
舘	-12.4891
徭	-12.4891
佃	-12.4893
碧	-12.4917
剋	-12.4932
」19.	-12.4939
緌	-12.4948
洧	-12.5279
襃	-12.5283
从	-12.529
蹟	-12.5292
擇其善者而從之	-12.5296
不患人之不己知	-12.5296
烖	-12.5298
縂	-12.5299
攀	-12.53
暴虎馮河	-12.53
吾十有五而志于學	-12.53
惻隱羞惡恭敬是非	-12.5301
鎔	-12.5302
父母之不我愛於我何哉	-12.5302
三宿而後出晝	-12.5302
道之以徳齊之以禮	-12.5302
忿懥恐懼好樂憂患	-12.5302
十目十手	-12.5302
勞之來之匡之直之輔之翼之	-12.5302
車馬衣輕裘與朋友共敝之而無憾	-12.5303
孟子曰伯夷辟紂居北海之	-12.5303
拳	-12.5304
先進於禮樂野人也後進於禮樂君子也	-12.5304
泝	-12.5304
黯	-12.5304
茶	-12.5305
岩	-12.5305
吾未見好德如好色者也	-12.5305
食不語寢不言	-12.5305
好好之民之所惡惡之此之謂民之父母	-12.5305
元詹道傳撰	-12.5305
勞於王事而不得養	-12.5306
惲	-12.5306
人而不仁如禮何人而不仁如樂何	-12.5306
由氣化有道之名	-12.5306
能近取譬可謂仁之方也已	-12.5306
忠信行不篤敬雖州里行乎哉	-12.5307
后國治國治而后天下平	-12.5307
嶺	-12.5307
譈	-12.5307
廚	-12.5307
燖	-12.5307
則民莫敢不用情	-12.5308
舜相堯二十有八載	-12.5308
針	-12.5308
戒謹不睹恐懼不聞	-12.5308
君子恥其言而過其行	-12.5308
公叔文子之臣大夫僎與文子同升諸公	-12.5308
淡而不厭簡而文温而理	-12.5308
䜟	-12.5309
耼	-12.5309
食飲水曲肱而枕之樂亦在其中矣	-12.5309
而后知至知至而后意誠意誠而后心正	-12.5309
五就湯五就桀	-12.5309
古者民有三疾今也或是之亡也	-12.5309
誾	-12.531
武王曰予有亂臣十人	-12.531
如有政雖不吾以吾其與聞之	-12.531
疾首蹙頞而相告曰吾王之好	-12.531
欲治其國者先齊其家欲齊其家者先	-12.531
以善及人而信從者衆	-12.531
植其杖而芸	-12.531
成己仁也成物知也	-12.5311
岡	-12.5311
嘬	-12.5311
蹌	-12.5311
悚	-12.5311
迥	-12.5311
堂堂乎張也難與並為仁矣	-12.5312
唤	-12.5312
餕	-12.5312
不至阿其所好	-12.5312
蟠	-12.5312
居之似忠信行之似	-12.5313
色厲内荏	-12.5313
眊	-12.5314
寡人願安承教	-12.5314
好直不好學其蔽也絞	-12.5314
伊尹耕於有莘之野	-12.5314
學射於尹公之他尹公之他學射於	-12.5314
言忠信行篤敬	-12.5314
掾	-12.5315
上智與下愚不移	-12.5316
侍食於君君祭先飯	-12.5316
筐	-12.5317
蚔	-12.5317
寰	-12.5317
恚	-12.5317
非帷裳必殺之	-12.5318
箸	-12.5318
撙	-12.5318
年然後免於父母之懐	-12.5319
篤於親則民興於仁故舊不遺則民不偷	-12.5319
煌	-12.5321
鴆	-12.5321
堆	-12.5322
小人學道則易使也	-12.5323
泮	-12.5324
甄	-12.5324
數罟不入洿池	-12.5325
皞	-12.5325
君命召不俟駕行矣	-12.5325
如有所譽者其有所試矣	-12.5326
褎	-12.5327
狸	-12.533
胾	-12.5351
豷	-12.5738
脤	-12.5739
霧	-12.5742
欲潔其身而亂大倫	-12.5748
斉	-12.5748
久則久可以速則速	-12.5749
黽	-12.5749
鬨	-12.575
周有大賚善人是富	-12.575
安見方六七十如五六十而非邦也者	-12.575
有事弟子服其勞有酒食先生饌	-12.575
人受天地之中以生	-12.575
畷	-12.5751
煑	-12.5752
杓	-12.5753
十一月徒杠成十二月輿梁成	-12.5753
之斯行綏之斯來動之斯和	-12.5754
聿	-12.5754
有道則見無道則隠	-12.5754
歃	-12.5755
所藏乎身不恕而能喻諸人者未之有也	-12.5755
我不欲人之加諸我也吾亦欲無加諸人	-12.5755
天下之本在國國之本在家家之本在身	-12.5756
詹	-12.5756
父頑母嚚	-12.5756
肄	-12.5756
狡	-12.5756
非公事未嘗至於偃之室	-12.5757
之將喪斯文也後死者不得與於斯文也	-12.5757
惟大人為能格君心之非	-12.5757
子見齊衰者冕衣裳者與瞽者	-12.5757
言忠信行篤敬雖蠻貊之邦行矣言不	-12.5757
所惡於上毋以使下所惡於下毋以事上	-12.5757
祛	-12.5758
無情者不得盡其辭大畏民志此謂知本	-12.5758
昔者吾友嘗從事於斯矣	-12.5758
媸	-12.5758
見之雖少必作過之必趨	-12.5758
非禮勿視非禮勿聽非禮勿言非禮勿動	-12.5758
孟子對曰昔者大王居邠狄人侵之	-12.5758
猶之與人也出納之吝謂之有司	-12.5759
吾無行而不與二三子者是丘也	-12.5759
忠信之人可以學禮	-12.5759
拱把之桐梓	-12.5759
遙	-12.576
有大人之事有小人之事	-12.576
帨	-12.5761
厩	-12.5761
子曰不得中行而與之必也狂狷乎	-12.5761
君子有大道必忠信以得之驕泰以失之	-12.5761
廏	-12.5761
幾無疾病與何以能	-12.5761
見賢而不能舉舉而不能先	-12.5761
為人父止於慈與國人交止於信	-12.5761
先行其言而後從之	-12.5761
吾無隠乎爾	-12.5762
絏	-12.5763
滕文公問曰滕小國也	-12.5763
今之從政者殆而	-12.5763
瓚	-12.5763
仁者以天地萬物為一體	-12.5763
鑊	-12.5764
以其所不愛及其所愛也	-12.5764
惶	-12.5764
與上大夫言誾誾如也	-12.5764
貊	-12.5764
有盛饌必變色而作	-12.5765
姪	-12.5765
王如改諸則必反予	-12.5765
慷	-12.5765
在陳曰歸與歸與	-12.5765
予不得視猶子也非我也夫二三子也	-12.5766
矢人豈不仁於函人哉	-12.5766
行有不慊於心則餒矣	-12.5766
逃墨必歸於楊	-12.5766
身中清廢中權	-12.5766
抑王興甲兵	-12.5766
醤	-12.5766
牘	-12.5767
单	-12.5767
於予與何誅	-12.5767
囂	-12.5767
貝	-12.5767
不講聞義不能徙不善不能改是吾憂也	-12.5767
棬	-12.5768
署	-12.5768
不知足之蹈之手之舞之	-12.5768
言未及之而言謂之躁	-12.5768
子問公叔文子於公明賈曰	-12.5768
不啻若自其口出	-12.5769
邦人稱之曰君夫人	-12.5769
曰可者與之其不可者拒之	-12.577
槀	-12.577
恔	-12.577
親長其長而天下平	-12.577
暱	-12.5771
煎	-12.5771
毛猶有倫上天之載無聲無臭至矣	-12.5771
無政事則財用不足	-12.5771
恭而無禮則勞	-12.5771
我非生而知之者好古敏以求之者也	-12.5771
怛	-12.5772
亦悖而入貨悖而入者亦悖而出	-12.5772
可與適道未可與立可與立未可與權	-12.5772
徴招角招	-12.5773
金聲而玉振之	-12.5773
挨	-12.5773
子曰是聞也非達也	-12.5773
璟	-12.5773
綠	-12.5773
拗	-12.5773
四書講義困勉錄卷	-12.5774
克伐怨欲不行焉可以為仁矣	-12.5774
見齊衰者雖狎必變	-12.5776
詮	-12.5777
躡	-12.5777
。10.	-12.5778
久要不忘平生之言	-12.5778
净	-12.5779
隰	-12.5781
軹	-12.5787
立不中門行不履閾	-12.5792
賸	-12.622
纍	-12.622
瘍	-12.6221
馹	-12.6221
君子於其言無所苟而已矣	-12.6223
帝臣不蔽簡在帝心	-12.6224
子在齊聞韶三月不知肉味	-12.6224
上無禮下無學	-12.6225
梲	-12.6225
帙	-12.6225
逕	-12.6226
欝	-12.6226
壹是皆以脩身為本	-12.6226
立天下之正位行天下之大道	-12.6227
天下有道則庶人不議	-12.6227
四海困窮天禄永終	-12.6227
植桑種田育雞豚畜狗彘	-12.6228
哉抑亦可以為次矣	-12.6228
别長幼有序朋友有信	-12.6228
曰詩云如切如磋如琢如磨其斯之謂與	-12.6228
牛多言而躁	-12.6228
於前也在輿則見其倚於衡也夫然後行	-12.6228
元金履祥撰	-12.6229
唯求則非邦也與	-12.623
學不厭智也教不倦仁也	-12.623
霽	-12.623
厭然揜其不善而著其善	-12.623
春省耕而補不足秋省斂而助不給	-12.623
燠	-12.623
聵	-12.6231
抑為之不厭誨人不倦則可謂云爾已矣	-12.6231
一家仁一國興仁一家讓一國興讓	-12.6232
儼然人望而畏之斯不亦威而不猛乎	-12.6232
巴	-12.6232
斡	-12.6232
樊遲從遊於舞雩之下	-12.6232
㰱	-12.6233
在下位不獲乎上民不可得而治矣	-12.6233
線	-12.6233
愾	-12.6234
竂	-12.6234
太山以超北海	-12.6234
不義而富且貴於我如浮雲	-12.6234
瞬	-12.6234
子曰弗如也吾與女弗如也	-12.6234
祭於公不宿肉	-12.6235
事不成則禮樂不興禮樂不興則	-12.6235
嶲	-12.6235
子張曰何謂四惡	-12.6235
志士仁人無求生以害仁有殺身以成仁	-12.6235
臝	-12.6235
季路問事鬼神子曰未能事人焉能事鬼	-12.6235
鈃	-12.6236
子出門人問曰何謂也	-12.6236
君止於仁為人臣止於敬為人子止於孝	-12.6236
行有不得者皆反求諸	-12.6236
頥	-12.6236
衆物之表裏精粗無不到	-12.6236
糒	-12.6237
葛伯仇餉	-12.6237
子謂公冶長可妻也	-12.6237
巍巍乎舜禹之有天下也而不與焉	-12.6237
予未得為孔子徒也予私淑諸人也	-12.6238
今之諸侯五霸之罪人也	-12.6238
儗	-12.6238
曰陳恒弑其君請討之	-12.6238
毋以交於左	-12.6238
以吾從大夫之後不可徒行也	-12.6239
好犯上而好作亂者未之有也	-12.6239
枉道而事人何必去父母之邦	-12.6239
朝與下大夫言侃侃如也	-12.6239
夫仁天之尊爵也人之安宅也	-12.6239
事之云乎豈曰友之云乎	-12.6239
諠	-12.6239
㤙	-12.6239
毁瓦畫墁	-12.6239
由誨女知之乎	-12.6239
飢色野有餓莩此率獸而食人也	-12.6239
不以四方之食供簿正	-12.624
今不取後世必為子孫憂	-12.624
帝使其子九男二女	-12.6241
莫敢不敬上好義則民莫敢不服上好信	-12.6241
充實而有光輝之謂大	-12.6241
過我門而不入我室	-12.6241
域民不以封疆之界	-12.6241
鄉人之善者好之其不善者惡之	-12.6242
之心仁之端也羞惡之心義之端也	-12.6242
是集義所生者非義襲而取之也	-12.6242
廀	-12.6242
償	-12.6242
皙	-12.6242
豭	-12.6242
拜下禮也今拜乎上泰也雖違衆吾從下	-12.6242
子貢曰子如不言則小子何述焉	-12.6242
循物無違謂信	-12.6243
畋	-12.6243
使吏治其國而納其貢	-12.6243
劔	-12.6243
駮	-12.6243
孟莊子之孝也其他可能也其不	-12.6243
穡	-12.6243
鄄	-12.6244
人少則慕父母	-12.6244
撇	-12.6245
不賴勇而裕如	-12.6245
君子之道四丘未能一焉	-12.6245
鄙夫可與事君也與哉	-12.6245
子貢問君子子曰先行其言而後從之	-12.6245
怙	-12.6245
灋	-12.6245
改父之臣與父之政是難能也	-12.6246
惟送死可以當大事	-12.6246
紾兄之臂而奪之食	-12.6246
之夜以繼日幸而得之坐以待旦	-12.6246
無憂者其惟文王乎	-12.6246
異邦人稱之亦曰君夫人	-12.6246
終日不食終夜不寢	-12.6246
不行知和而和不以禮節之亦不可行也	-12.6247
敢問夫子惡乎長	-12.6247
其事則齊桓晉文其文則史	-12.6247
仁者必有勇勇者不必有仁	-12.6247
方里而井井九百	-12.6247
而不仁者有矣夫未有小人而仁者也	-12.6247
彚	-12.6247
迪	-12.6248
唯天為大唯堯則之	-12.6248
萬二千五百人為軍	-12.6248
鵲	-12.6249
脡	-12.6249
惟我與爾有是夫	-12.6249
凶服者式之式負版者	-12.625
怖	-12.6251
惡濕而居下	-12.6251
秦誓曰若有一个臣	-12.6251
溟	-12.6252
蛙	-12.6253
」14.3	-12.6253
執圭鞠躬如也如不勝	-12.6254
子曰可與共學未可與適道	-12.6254
雝	-12.6254
子曰可以為難矣仁則吾不知也	-12.6255
人無有不善水無有不下	-12.6256
藁	-12.6257
娣	-12.6258
棋	-12.6261
嬪	-12.6262
入公門鞠躬如也如不容	-12.6263
毓	-12.6265
肹	-12.627
搢	-12.6272
芾	-12.6273
告於王而私與之吾子之	-12.6722
仲弓曰雍雖不敏請事斯語矣	-12.6723
子噲不得與人燕子之不得受燕於子噲	-12.6723
鞶	-12.6725
焉擇其善者而從之其不善者而改之	-12.6725
扼	-12.6726
子貢問曰何如斯可謂之士矣子曰行	-12.6726
鍊	-12.6727
子夏問孝子曰色難	-12.6727
峙	-12.6728
擭	-12.6729
劇	-12.6729
一怒而諸侯懼安居而天下熄	-12.673
論語纂箋卷	-12.673
加之以師旅因之以饑饉	-12.6731
在國曰市井之臣	-12.6731
子貢曰夫子之文章可得而聞也	-12.6731
敢問其次曰言必信行必果硜硜然小人	-12.6731
其生也榮其死也哀如之何其可及也	-12.6732
鄫	-12.6732
為法於天下可傳於後世	-12.6733
凡有四端於我者知皆擴而充之	-12.6733
天地變化草木蕃	-12.6733
吾學周禮今用之吾從周	-12.6733
孟子道性善言必稱堯舜	-12.6733
之節不可廢也君臣之義如之何其廢之	-12.6734
欬	-12.6734
故君子名之必可言也言之必可行也	-12.6734
閃	-12.6734
鹹	-12.6734
子夏為莒父宰問政	-12.6734
聖人復起必從吾言矣	-12.6735
濵聞文王作興	-12.6735
澡	-12.6735
禦人以口給	-12.6735
覷	-12.6735
少也賤故多能鄙事君子多乎哉不多也	-12.6735
孟武伯問子路仁乎子曰不知也	-12.6736
不幸短命死矣今也則亡未聞好學者也	-12.6736
君在踧踖如也與與如也	-12.6736
鄘	-12.6736
努	-12.6736
因其所發而遂明之	-12.6736
禮之實節文斯二者是也	-12.6736
必也臨事而懼好謀而成者也	-12.6736
從流下而忘反謂之流	-12.6736
祭肉不出三日出三日不食之矣	-12.6737
待孔子曰若季氏則吾不能以季孟之	-12.6737
敢問死曰未知生焉知死	-12.6737
以及禽獸而功不至於百姓者獨何與	-12.6737
堵	-12.6737
强恕而行求仁莫近焉	-12.6737
宋真徳秀撰	-12.6737
祝鮀治宗廟王孫賈治軍旅夫如是奚其	-12.6737
牴	-12.6737
好人之所惡惡人之所好是謂拂人之性	-12.6737
肉雖多不使勝食氣	-12.6738
容城孫竒逢撰	-12.6738
詩云樂只君子民之父母	-12.6738
先聖後聖其揆一也	-12.6738
回也聞一以知十賜也聞一以知二	-12.6738
他日又獨立鯉趨而過庭曰學禮乎	-12.6738
胼	-12.6738
非有我之得私也	-12.6738
於我空空如也我叩其兩端而竭焉	-12.6738
有人此有土有土此有財有財此有用	-12.6738
惡得有其一以慢其二哉	-12.6739
䨇	-12.6739
已欲立而立人已欲達而達人	-12.6739
瘳	-12.6739
仄	-12.6739
迁	-12.6739
不患貧而患不安	-12.6739
其或繼周者雖百世可知也	-12.6739
公伯寮愬子路於季孫	-12.674
學而不厭誨人不倦何有於我哉	-12.674
孔子豈不欲中道哉不可必得故思其次	-12.674
擺	-12.674
焉能為有焉能為亡	-12.674
莫之禦而不仁是不智也	-12.6741
臧氏之子焉能使予不遇哉	-12.6741
公西華曰正唯弟子不能學也	-12.6741
不以兵車管仲之力也如其仁如其仁	-12.6741
所謂大臣者以道事君不可則止	-12.6741
吾之不遇魯侯天也	-12.6742
㸑	-12.6742
五畝之宅樹之以桑五十者可以衣帛矣	-12.6742
邐	-12.6742
勦	-12.6742
黎民於變時雍	-12.6742
之於天下也無適也無莫也義之與比	-12.6742
簞食壺漿以迎王師	-12.6742
廖	-12.6742
夫聞也者色取仁而行違居之不疑	-12.6743
聾	-12.6743
百姓足君孰與不足百姓不足君孰與足	-12.6743
吾不得而見之矣得見君子者斯可矣	-12.6743
姑舍女所學而從我	-12.6743
彤	-12.6743
不好學其蔽也亂好剛不好學其蔽也狂	-12.6743
富而可求也雖執鞭之士吾亦為之	-12.6743
子曰才不才亦各言其子也鯉	-12.6743
仰不愧於天俯不怍於人	-12.6744
誠不以富亦祗以異	-12.6744
卑宫室而盡力乎溝洫	-12.6744
䰟	-12.6744
逆詐億不信	-12.6744
君子有三戒少之時血氣未定	-12.6744
子曰有父兄在如之何其聞斯行之	-12.6744
徵招角招	-12.6744
謹庠序之教申之以孝悌之義頒白者	-12.6744
有若對曰盍徹乎	-12.6745
火吾見蹈而死者矣未見蹈仁而死者也	-12.6745
逍	-12.6745
逭	-12.6745
問聞斯行諸子曰聞斯行之赤也惑敢問	-12.6745
大雅桑柔之篇	-12.6745
子曰求也退故進之由也兼人故退之	-12.6745
冉有問聞斯行諸子曰聞斯行之	-12.6745
尙	-12.6746
炯	-12.6746
賤是人之所惡也不以其道得之不去也	-12.6746
愍	-12.6746
曰二吾猶不足如之何其徹也	-12.6746
君子病無能焉不病人之不已知也	-12.6746
熬	-12.6746
文勝質則史文質彬彬然後君子	-12.6747
面盎於背施於四體四體不言而喻	-12.6747
閔子侍側誾誾如也	-12.6747
善反之則天地之性存焉	-12.6747
或學而知之或困而知之及其知之一也	-12.6747
稱諸異邦曰寡小君	-12.6748
栖	-12.6748
仁言不如仁聲之入人深也	-12.6749
出降一等逞顔色怡怡如也	-12.6749
父之臣與父之政	-12.6749
孔子曰諾吾將仕矣	-12.6749
夫子之求之也其諸異乎人之求之與	-12.6749
正已而物正者也	-12.675
有臣吾誰欺欺天乎	-12.675
公事畢然後敢治私事	-12.675
必有寢衣長一身有半	-12.675
而今而後吾知免夫小子	-12.675
猶質也質猶文也虎豹之鞟猶犬羊之鞟	-12.6752
茲	-12.6752
峭	-12.6752
羶	-12.6752
壘	-12.6753
洿	-12.6753
厮	-12.6753
㐫	-12.6753
子張問士何如斯可謂之達矣	-12.6753
掬	-12.6754
閼	-12.6756
疾君視之東首加朝服拖紳	-12.6758
兌	-12.6759
捕	-12.6759
賜也女以予為多學而識之者與	-12.676
揷	-12.676
攝齊升堂鞠躬如也屏氣似不息者	-12.6761
謂武盡美矣未盡善也	-12.6761
舄	-12.6762
埸	-12.6766
蔥	-12.6769
献	-12.7244
髡	-12.7244
朕躬有罪無以萬方萬方有罪罪在朕躬	-12.7245
炮	-12.7245
如其善而莫之違也	-12.7247
御子告之曰孟孫問孝於我我對曰無違	-12.7248
老老長長恤孤	-12.7252
生於其心害於其政發於其政害於其事	-12.7252
孔門傳授心法	-12.7252
祜	-12.7253
仁者愛人有禮者敬人	-12.7254
孩	-12.7254
子曰吾與回言終日不違如愚	-12.7254
翯	-12.7255
退而省其私亦足以發回也不愚	-12.7255
季康子問仲由可使從政也與	-12.7256
舉爾所知爾所不知人其舍諸	-12.7256
人之言曰為君難為臣不易	-12.7256
師冕出子張問曰與師言之道與	-12.7256
瞍	-12.7257
耕稼陶漁	-12.7257
子曰禮云禮云玉帛云乎哉	-12.7257
一人貪戾一國作亂	-12.7257
燈	-12.7257
子曰然固相師之道也	-12.7257
悵	-12.7257
子在回何敢死	-12.7258
樂云樂云鐘鼓云乎哉	-12.7258
子路曽晳冉有公西華侍坐	-12.7258
夫子之得邦家者所謂立之斯立道	-12.7258
覊	-12.7258
舜之飯糗茹草也	-12.7258
未聞以道殉乎人者也	-12.7259
􁂒	-12.7259
子路曰願聞子之志	-12.7259
矣彼為善之小人之使為國家	-12.7259
興孝興弟不倍	-12.7259
子曰敏而好學不恥下問是以謂之文也	-12.7259
子路曰有是哉子之迂也奚其正	-12.7259
肌	-12.7259
子曰何傷乎亦各言其志也	-12.7259
欲速則不達見小利則大事不成	-12.7259
始條理者智之事也終條理者聖之事也	-12.726
籬	-12.726
則四方之民襁負其子而至矣焉用稼	-12.726
互鄉難與言童子見門人惑	-12.726
稔	-12.7261
子與人歌而善必使反之而後和之	-12.7261
椒	-12.7261
寇或曰寇至盍去諸	-12.7261
煮	-12.7261
輦	-12.7261
子貢曰固天縱之將聖又多能也	-12.7261
司馬牛問君子子曰君子不憂不懼	-12.7261
君子謀道不謀食耕也餒在其中矣學也	-12.7261
所惡於前毋以先後所惡於後毋以從前	-12.7261
洋洋乎如在其上如在其左右	-12.7261
其何傷於日月乎多見其不知量也	-12.7261
自大夫出五世希不失矣	-12.7261
餌	-12.7262
子曰夫人不言言必有中	-12.7262
長國家而務財用者必自小人	-12.7262
他人之賢者丘陵也猶可踰也仲尼	-12.7262
子曰切切偲偲怡怡如也可謂士矣	-12.7262
廻	-12.7262
睫	-12.7262
子之燕居申申如也夭夭如也	-12.7262
子曰棖也慾焉得剛	-12.7262
正其誼不謀其利明其道不計其功	-12.7262
璣	-12.7263
櫟	-12.7263
孔子曰求無乃爾是過與	-12.7263
恤孤而民不倍是以君子有絜矩之道也	-12.7263
嚼	-12.7263
求也何如子曰求也千室之邑百	-12.7263
抱關擊柝	-12.7263
王庶幾改之予日望之	-12.7263
溉	-12.7263
赤也何如子曰赤也束帶立於朝可使與	-12.7264
孔子退揖巫馬期而進	-12.7264
懋	-12.7264
季文子三思而後行子聞之曰再斯可矣	-12.7264
孔子曰才難不其然乎唐虞之際於斯	-12.7264
恩足以及禽獸而功不至於百姓	-12.7264
非夫人之為慟而誰為	-12.7264
舜有天下選於衆舉臯陶不仁者	-12.7264
鏝	-12.7264
路問曰子見夫子乎丈人曰四體不勤五	-12.7264
吃	-12.7265
巍巍乎其有成功也煥乎其有文章	-12.7265
節彼南山維石巖巖赫赫師尹民具爾瞻	-12.7265
以萬乗之國伐萬乗之國	-12.7265
㷀	-12.7265
七十者可以食肉矣百畝之田勿奪其時	-12.7265
哭死而哀非為生	-12.7265
塹	-12.7265
映	-12.7266
喝	-12.7266
丘也聞有國有家者不患寡而患不均	-12.7266
事思敬疑思問忿思難見得思義	-12.7266
八口之家可以無飢矣	-12.7266
大車無輗小車無軏其何以行之哉	-12.7266
君賜食必正席先嘗之	-12.7266
怨天不尤人下學而上達知我者其天乎	-12.7266
然而無有乎爾則亦無有乎爾	-12.7267
相維辟公天子穆穆奚取於三家之堂	-12.7267
恭寛信敏惠	-12.7267
君子哉蘧伯玉邦有道則仕邦無道則可	-12.7267
尖	-12.7267
農圃醫卜	-12.7267
孔子曰唐虞禪夏后殷周繼其義一也	-12.7267
孔子對曰君使臣以禮臣事君以忠	-12.7267
所惡於智者為其鑿也	-12.7267
黷	-12.7267
言寡尤行寡悔禄在其中矣	-12.7267
謡	-12.7267
冉有曰夫子欲之吾二臣者皆不欲也	-12.7267
沮桀溺耦而耕孔子過之使子路問津焉	-12.7267
斷斷兮無他技其心休休焉其如有容焉	-12.7267
而學之又其次也困而不學民斯為下矣	-12.7268
中天下而立定四海之民君子樂之	-12.7268
眠	-12.7268
腎	-12.7268
今由與求也可謂具臣矣	-12.7268
爐	-12.7268
仲弓曰居敬而行簡以臨其民不亦可乎	-12.7269
雞豚狗彘	-12.7269
人之其所親愛而辟焉	-12.7269
縈	-12.7269
狂者又不可得欲得不屑不	-12.727
召忽死之管仲不死曰未仁乎	-12.727
翫	-12.727
謂孔子曰來予與爾言	-12.727
莅中國而撫四夷	-12.727
且予與其死於臣之手也無	-12.727
人歸女樂季桓子受之三日不朝孔子行	-12.727
或乞醯焉乞諸其鄰而與之	-12.7271
拚	-12.7271
絆	-12.7271
人吾不得而見之矣得見有恒者斯可矣	-12.7271
軋	-12.7271
禮與其奢也寧儉喪與其易也寧戚	-12.7271
有子曰信近於義言可復也	-12.7271
鄉人飲酒杖者出斯出矣	-12.7272
粃	-12.7272
子路曰昔者由也聞諸夫子曰親於其	-12.7272
不恒其徳或承之羞	-12.7272
得天下英才而教育之	-12.7272
孺悲欲見孔子孔子辭以疾	-12.7272
不揣其本而齊其末	-12.7272
未有上好仁而下不好義者也未有好義	-12.7273
蹤	-12.7273
液	-12.7273
滄浪之水清兮	-12.7273
鬴	-12.7273
出則弟謹而信汎愛衆而親仁	-12.7273
寧死於二三子之手乎	-12.7273
榜	-12.7273
塡	-12.7273
是故言悖而出者	-12.7273
子曰夫召我者而豈徒哉如有	-12.7273
子為政焉用殺子欲善而民善矣	-12.7274
樂然後笑人不厭其笑	-12.7274
士志於道而恥惡衣惡食者未足與議也	-12.7274
知所以治人則知所以治天下國家矣	-12.7275
我未見好仁者惡不仁者	-12.7275
曰牛羊茁壯長而已	-12.7275
子張曰子夏云何對曰子夏	-12.7275
或安而行之或利而行之	-12.7275
胝	-12.7275
友直友諒友多聞益矣	-12.7275
找	-12.7276
子曰管仲相桓公霸諸侯一匡天下	-12.7276
弟子曰吾何執執御乎執射乎吾執御矣	-12.7277
勇而無禮則亂直而無禮則絞	-12.7277
顔淵閔子騫冉伯牛仲弓言語	-12.7277
小役大弱役强	-12.7277
張問善人之道子曰不踐迹亦不入於室	-12.7278
焉有仁人在位罔民而可為也	-12.7278
苟志於仁矣無惡也	-12.7278
羔裘𤣥冠不以弔	-12.7278
褘	-12.7279
深則厲淺則揭	-12.7279
若夫為不善非才之罪也	-12.7279
昔者偃也聞諸夫子曰君子學道則愛人	-12.7282
裎	-12.7282
姞	-12.7282
莬	-12.7283
婣	-12.7283
覘	-12.7284
今此下民或敢侮予	-12.7286
豻	-12.7286
有馬者借人乗之	-12.7286
閧	-12.7288
父母全而生之子全而歸之	-12.7289
刈	-12.729
。」14.1	-12.731
礿	-12.7311
珽	-12.7327
徤	-12.7801
不亦善乎如不善而莫之違也不	-12.7802
道庸者天下之定理	-12.7805
誠以心言本也道以理言用也	-12.7806
子服景伯以告子貢子貢曰譬	-12.7807
使老者衣帛食肉不負戴於道路	-12.7807
人之視己如見其肺肝然	-12.7808
駘	-12.7808
蓬	-12.7808
赤也為之小孰能為之大	-12.7808
有道則見無道則隱	-12.7809
云瞻彼淇澳菉竹猗猗有斐君子如切如	-12.7809
求爾何如對曰方六七十如五六十	-12.781
葉公語孔子曰吾黨有直躬者	-12.781
肚	-12.7811
顔淵曰回雖不敏請事斯語矣	-12.7811
定公問一言而可以興邦有諸	-12.7812
子曰民可使由之不可使知之	-12.7812
子之仕也行其義也道之不行已知之矣	-12.7812
嵎	-12.7812
瘡	-12.7812
放之則彌六合	-12.7812
袤	-12.7812
雋	-12.7813
好樂則不得其正有所憂患則不得其正	-12.7814
一朝之忿忘其身以及其親非惑與	-12.7814
我非堯舜之道不敢以陳於王前	-12.7814
居則曰不吾知也如或知爾則何以哉	-12.7814
路曰自孔氏曰是知其不可而為之者與	-12.7814
進退則可矣抑末也本之則無如之何	-12.7814
嘻	-12.7815
其機如此此謂一言僨事一人定國	-12.7815
磔	-12.7815
魅	-12.7815
日月也無得而踰焉人雖欲自絶	-12.7815
莫見乎隠莫顯乎微	-12.7815
赤爾何如對曰非曰能之	-12.7815
身有所忿懥則不得其正有所	-12.7815
臣弑其君者有之子弑其父者有之	-12.7815
邦無道則愚其知可及也其愚不可及也	-12.7815
食不厭精膾不厭細	-12.7816
不敬子路子曰由也升堂矣未入於室也	-12.7816
宫商角徴羽	-12.7816
丸	-12.7816
之謂集大成集大成也者金聲而玉振之	-12.7816
狂者進取狷者有所不為也	-12.7816
忻	-12.7816
御者且羞與射者比	-12.7816
繆公無人乎子思之側則不能安子思	-12.7816
殺其麋鹿者如殺人之罪	-12.7817
不以舜之所以事堯事君	-12.7817
厠	-12.7817
内無怨女外無曠夫	-12.7817
之何矣此謂國不以利為利以義為利也	-12.7817
子路問曰何如斯可謂之士矣	-12.7817
」12.1	-12.7818
所惡於左毋以交於右此之謂絜矩之道	-12.7818
民惟恐王之不好勇也	-12.7818
愷	-12.7818
子曰人而無信不知其可也	-12.7818
䑓	-12.7818
民無職事者出夫家之征	-12.7818
養至於犬馬皆能有養不敬何以别乎	-12.7818
公綽為趙魏老則優不可以為滕薛大夫	-12.7818
曰去食自古皆有死民無信不立	-12.7818
對曰賜也何敢望回	-12.7818
盡去其文而獨存其質	-12.7818
曰盡信書則不如無書	-12.7819
仁而遺其親者也未有義而後其君者也	-12.7819
子曰是故惡夫佞者	-12.7819
孔子於鄉黨恂恂如也似不能言者	-12.7819
定公問君使臣臣事君如之何	-12.7819
禦人以口給屢憎於人不知其仁焉用佞	-12.7819
智之實知斯二者弗去是也	-12.7819
邦有道危言危行邦無道危行言孫	-12.7819
􁃦	-12.7819
不見而章不動而變無為而成	-12.7819
言知者不失人亦不失言	-12.7819
琥	-12.782
子曰不教而殺謂之虐不戒視成謂之暴	-12.782
夫子矢之曰予所否者天厭之天厭之	-12.782
子路終身誦之子曰是道也何足以臧	-12.782
對曰未也不學禮無以立鯉退而學禮	-12.782
子曰暴虎馮河死而無悔者吾不與也	-12.782
柜	-12.782
豊	-12.782
牢曰子云吾不試故藝	-12.782
云其儀不忒正是四國	-12.782
韙	-12.782
對曰有政子曰其事也	-12.7821
曰吾宗國魯先君莫之行	-12.7821
搬	-12.7821
將胥天下而遷之焉	-12.7821
閔子騫曰仍舊貫如之何何必改作	-12.7821
誠其意者毋自欺也如惡惡臭如好好色	-12.7821
陳亢退而喜曰問一得三	-12.7821
之言失人不可與言而與之言失	-12.7821
子所雅言詩書執禮皆雅言也	-12.7821
也小人不可大受而可小知也	-12.7822
憝	-12.7822
子路問事君子曰勿欺也而犯之	-12.7822
曰求周任有言曰陳力就列不能者止	-12.7822
辭讓之心禮之端也是非之心智之端也	-12.7822
金石絲竹匏土革木	-12.7822
於言勿求於心不得於心勿求於氣	-12.7822
也弟者所以事長也慈者所以使衆也	-12.7822
司馬牛憂曰人皆有兄弟我獨亡	-12.7822
子謂子貢曰女與回也孰愈	-12.7822
夫子何為對曰夫子欲寡其過而未能也	-12.7822
嘖	-12.7822
夷考其行而不掩焉者也	-12.7823
必誠必信勿之有悔	-12.7823
桮	-12.7823
莱	-12.7823
焞	-12.7823
至於是邦也必聞其政求之與抑與之與	-12.7823
蕢而過孔氏之門者曰有心哉擊磬乎	-12.7823
之者寡為之者疾用之者舒則財恒足矣	-12.7823
㳂	-12.7823
兄弟也君子何患乎無兄弟也	-12.7823
子曰不然獲罪於天無所禱也	-12.7823
子曰回也其庶乎屢空	-12.7823
殷峻命不易道得衆則得國失衆則失國	-12.7823
季子然問仲由冉求可謂大臣與	-12.7824
使者出子曰使乎使乎	-12.7824
敬而無失與人恭而有禮四海之内皆	-12.7824
要其有酒食黍稻者奪	-12.7824
詩云殷之未喪師克配上帝儀監	-12.7824
王勃然變乎色	-12.7824
少連降志辱身矣言中倫行中慮其斯而	-12.7825
霸者之民驩虞如也	-12.7825
不失其身而能事其親者	-12.7825
子曰清矣曰仁矣乎曰未知焉得仁	-12.7825
己欲立而立人己欲達而達人	-12.7825
檜	-12.7825
騧	-12.7825
好從事而亟失時可謂知乎曰不可	-12.7825
古之愚也直今之愚也詐而已矣	-12.7825
子於是日哭則不歌	-12.7826
子曰忠矣曰仁矣乎曰未知焉得仁	-12.7826
一邦則又曰猶吾大夫崔子也違之何如	-12.7826
至於他邦則曰猶吾大夫崔子也違之之	-12.7826
子曰麻冕禮也今也純儉吾從衆	-12.7827
不信不信民弗從	-12.7827
食膾炙而不食羊棗	-12.7827
𥚹	-12.7827
問政於孔子曰如殺無道以就有道何如	-12.7827
君稱之曰夫人夫人自稱曰小童	-12.7827
醋	-12.7827
問於孔子曰羿善射奡盪舟	-12.7827
曰何器也曰瑚璉也	-12.7827
仁之勝不仁也猶水勝火	-12.7827
螬	-12.7828
其事不終者也未有府庫財非其財者也	-12.7828
皂	-12.7828
無情者不得盡其辭	-12.7829
葉公問孔子於子路子路不對	-12.7829
與先生並行也非求益者也欲速成者也	-12.7829
。」14.2	-12.7829
思兼三王以施四事其有不合者仰而思	-12.7829
臣固知王之不忍也	-12.7829
身為不善者君子不入也	-12.7829
聯	-12.783
孔子曰益者三友損者三友	-12.783
白雪之白猶白玉之白	-12.7831
天子之卿受地視侯	-12.7831
張問仁於孔子孔子曰能行五者於天下	-12.7831
子曰吾見其居於位也	-12.7832
吻	-12.7833
桓公殺公子糾不能死又相之	-12.7833
痼	-12.7834
宰我子貢政事冉有季路文學子游子夏	-12.7834
沖	-12.7834
俸	-12.7835
民到于今受其賜	-12.7835
子曰書云孝乎惟孝友	-12.7835
敬事而信節用而愛人使民以時	-12.7836
季康子問弟子孰為好學孔子對曰	-12.7836
栭	-12.7837
高叟之為詩也	-12.7839
襌	-12.7842
曰百工居肆以成其事君子學以致其道	-12.7846
郕	-12.7848
使畢戰問井地	-12.7849
葅	-12.7854
冠者五六人童子六七人浴乎沂風乎舞	-12.7938
郰	-12.8367
椅	-12.8379
鈴	-12.8384
姍	-12.8389
沈同以其私問曰燕可伐與	-12.8391
虎豹之鞟猶犬羊之鞟	-12.8391
両	-12.8394
撼	-12.8394
軼	-12.8394
幾乎一言而喪邦乎	-12.8396
縳	-12.8396
立之斯立道之斯行綏之斯來動之斯和	-12.8396
婺	-12.8397
曰為國以禮其言不讓是故哂之	-12.8397
臨大節而不可奪也君子人與君子人也	-12.8397
爱	-12.8397
則何益矣此謂誠於中形於外故君子必	-12.8397
周公使管叔監殷管叔以殷畔	-12.8397
如有博施於民而能濟衆何如可謂仁乎	-12.8398
卑禮厚幣以招賢者	-12.8398
宄	-12.8398
陳善閉邪謂之敬吾君不能謂之賊	-12.8399
帚	-12.8399
症	-12.84
子謂仲弓曰犂牛之子騂且角	-12.84
子曰三軍可奪帥也匹夫不可奪志也	-12.84
敬其所尊愛其所親	-12.84
吮	-12.84
雖有周親不如仁人百姓有過在予一人	-12.8401
子貢問曰孔文子何以謂之文也	-12.8401
夫如是故逺人不服則	-12.8401
子謂伯魚曰女為周南召南矣乎	-12.8401
子貢曰君子之過也如日月之	-12.8401
赫兮喧兮者威儀也有斐君子終不可	-12.8401
唯仁人放流之迸諸四夷不與同中國	-12.8401
當暑袗絺綌必表而出之	-12.8402
人之有道也飽食煖衣逸居而無	-12.8402
顔淵曰請問其目子曰非禮勿視非禮勿	-12.8402
也是以君子惡居下流天下之惡皆歸焉	-12.8402
揖所與立左右手衣前後襜如也	-12.8402
窠	-12.8402
澳	-12.8402
曰然曰滔滔者天下皆是也而誰以易之	-12.8402
子夏子游子張皆有聖人之一體	-12.8403
此謂唯仁人為能愛人能惡人	-12.8403
我知之矣知者過之愚者不及也道之不	-12.8403
徒取諸彼以與此	-12.8403
於從政乎何有曰求也可使從政也與	-12.8403
子曰君子不重則不威學則不固	-12.8403
子貢曰無以為也仲尼不可毁也	-12.8403
不患莫已知求為可知也	-12.8403
樂正子從於子敖之齊	-12.8403
人之有是四端也猶其有四體也	-12.8403
嫗	-12.8403
曰有澹臺滅明者行不由徑	-12.8404
詩云邦畿千里惟民所止	-12.8404
子曰與其進也不與其退也唯何甚	-12.8404
夫子之不可及也猶天之不可階而升也	-12.8404
遵先王之法而過者未之有也	-12.8404
聲也者始條理也玉振之也者終條理也	-12.8404
孔子進以禮退以義得之不得曰有命	-12.8404
興滅國繼絶世舉逸民天下之民歸心焉	-12.8405
嘗之義治國其如示諸掌乎	-12.8405
行仁政而王莫之能禦也	-12.8405
夫有賜於士不得受於其家則往拜其門	-12.8405
子曰善人為邦百年亦可以勝殘去殺矣	-12.8405
仁義禮智根於心其生色也睟然見於	-12.8405
母之年不可不知也一則以喜一則以懼	-12.8405
子曰事君敬其事而後其食	-12.8405
雖不中不逺矣未有學養子而后嫁者也	-12.8405
螟	-12.8405
册	-12.8406
屍	-12.8406
汰	-12.8406
戎狄是膺荆舒是懲	-12.8406
父子主恩君臣主敬	-12.8406
狗彘食人食而不知檢塗有餓莩而不知	-12.8406
從政乎何有不能正其身如正人何	-12.8406
吾聞之也君子周急不繼富	-12.8406
擇可勞而勞之又誰怨欲仁而得仁	-12.8406
歸市者不止耕者不變誅其君而弔其民	-12.8406
菑害並至雖有善者亦	-12.8406
筴	-12.8406
天開於子地闢於丑人生於寅	-12.8406
子曰不降其志不辱其身伯夷叔齊與	-12.8406
廼	-12.8407
其在宗廟朝廷便便言唯謹爾	-12.8407
聪	-12.8407
其為父子兄弟足法而后民法之也	-12.8407
夫志氣之帥也氣體之充也	-12.8407
顔淵死顔路請子之車以為之椁	-12.8407
子路宿於石門晨門曰奚自	-12.8407
也死有棺而無椁吾不徒行以為之椁	-12.8408
子曰務民之義敬鬼神而逺之可謂知矣	-12.8408
子葬其親厚則是以所賤事親也	-12.8408
子貢曰必不得已而去於斯二者何先	-12.8408
有見行可之仕有際可之仕有公養之仕	-12.8408
曰行或使之止或尼之行止非人所能也	-12.8408
子路從而後遇丈人以杖荷蓧	-12.8408
曰以齊王由反手也	-12.8408
對曰未也不學詩無以言鯉退而學詩	-12.8408
顰	-12.8408
先天而天弗違	-12.8409
子貢問曰鄉人皆好之何如	-12.8409
曰非敢為佞也疾固也	-12.8409
萬取千焉千取百焉	-12.8409
子曰述而不作信而好古竊比於我老彭	-12.8409
或曰陋如之何子曰君子居之何陋之有	-12.8409
曰禮後乎子曰起予者商也始可與言詩	-12.8409
綰	-12.8409
曰於止知其所止可以人而不如鳥乎	-12.8409
坂	-12.8409
伊尹相湯以王於天下	-12.8409
僂	-12.8409
唐棣之華偏其反而豈不爾思室是逺而	-12.8409
子夏曰君子信而後勞其民未信則以	-12.8409
日月逝矣嵗不我與	-12.8409
不好學其蔽也蕩好信不好學其蔽也賊	-12.841
戒之在色及其壯也血氣方剛戒之在	-12.841
百里之地而君之皆能以朝諸侯有天下	-12.841
禹避舜之子於陽城	-12.841
長沮曰夫執輿者為誰	-12.841
銓	-12.841
諸枉則民服舉枉錯諸直則民不服	-12.841
人莫大焉亡親戚君臣上下	-12.8411
孔子曰益者三樂損者三樂樂節禮樂	-12.8411
子曰誦詩三百授之以政不	-12.8411
曰其身正不令而行其身不正雖令不從	-12.8411
充仲子之操則蚓而後可者	-12.8411
翰林院檢討毛竒齡撰	-12.8411
子釣而不綱弋不射宿	-12.8411
今王與百姓同樂則王矣	-12.8411
哀公問於有若曰年饑用不足如之何	-12.8411
之其所賤惡而辟焉	-12.8412
時子因陳子而以告孟子	-12.8412
曰必不得已而去於斯三者何先曰去兵	-12.8412
若火之始然泉之始達	-12.8412
變乎色曰寡人非能好先王之樂也直好	-12.8412
詩云桃之夭夭其葉蓁蓁之子于歸	-12.8412
寔不能容以不能保我子孫黎民亦曰殆	-12.8412
樂正裘牧仲	-12.8412
蚋	-12.8412
豔	-12.8412
藍	-12.8412
尊賢而容衆嘉善而矜不能我之大賢與	-12.8412
彦聖而違之俾不通	-12.8412
是猶執熱而不以濯也	-12.8412
之其所敖惰而辟焉	-12.8412
曰管氏有三歸官事不攝焉得儉	-12.8413
制其田里教之樹畜	-12.8413
煉	-12.8413
孔子奚取焉取非其招不往也	-12.8413
捶	-12.8413
趕	-12.8413
猶以一杯水救一車薪之火	-12.8414
鳥之將死其鳴也哀人之將死其言也善	-12.8414
天下之善士斯友天下之善士	-12.8414
孔子豚孔子時其亡也而往拜之遇諸塗	-12.8414
一國之善士斯友一國之善士	-12.8414
齊人有一妻一妾而處室者	-12.8414
膜	-12.8414
恭敬之心禮也是非之心智也	-12.8414
畸	-12.8414
寛則得衆信則人任焉敏則有功	-12.8414
介然用之而成路	-12.8415
礱	-12.8415
抒	-12.8415
有美玉於斯韞匵而藏諸求善賈而沽諸	-12.8415
子産鄭大夫公孫僑	-12.8415
文王視民如傷望道而未之見	-12.8415
治天下可運之掌上	-12.8415
是故財聚則民散財散則民聚	-12.8415
今也小國師大國而恥受命焉	-12.8416
五十而慕者予於大舜見之矣	-12.8416
不以其道得之不處也貧	-12.8416
喘	-12.8416
子曰沽之哉沽之哉我待賈者也	-12.8416
故諺有之曰人莫知其子之惡莫知其	-12.8416
衘	-12.8416
禹吾無閒然矣	-12.8417
苟得其養無物不長苟失其養無物不消	-12.8417
子曰夷狄之有君不如諸夏之亡也	-12.8417
問使民敬忠以勸如之何子曰臨之以	-12.8417
子張曰異乎吾所聞君子	-12.8417
後車數十乗從者數百人	-12.8417
僧	-12.8417
子曰賜也爾愛其羊我愛其禮	-12.8418
弒	-12.8418
夏曰校殷曰序周曰庠學則三代共之	-12.8418
一日暴之十日寒之	-12.8418
子絶四毋意毋必毋固毋我	-12.8418
以告者過也夫子時然後言人不厭其言	-12.8418
褰	-12.8418
賙	-12.8418
惟命不于常道善則得之不善則失之矣	-12.8418
埴	-12.8419
鬪	-12.8419
宰我出子曰予之不仁也子生三	-12.8419
謂顔淵曰惜乎吾見其進也未見其止也	-12.8419
行年六十而六十化	-12.8419
惡勇而無禮者惡果敢而窒者	-12.8419
子曰何哉爾所謂達者	-12.8421
差之毫釐繆以千里	-12.8421
君子之志於道也不成章不達	-12.8422
能言距楊墨者聖人之徒也	-12.8422
子曰飽食終日無所用心難矣哉	-12.8423
曰亡之命矣夫斯人也而有斯疾也	-12.8423
子曰過而不改是謂過矣	-12.8423
質禮以行之孫以出之信以成之君子哉	-12.8423
瓶	-12.8425
圻	-12.8426
朋友之饋雖車馬非祭肉不拜	-12.8426
喪不哀吾何以觀之哉	-12.8427
而不信乎傳不習乎	-12.8427
夣	-12.8428
子曰不有祝鮀之佞而有宋朝之	-12.8428
夏后氏五十而貢殷人七十而助周人百	-12.8428
牣	-12.8428
存其心養其性所以事天也	-12.8428
郄	-12.8429
齎	-12.8431
朋友死無所歸曰於我殯	-12.8431
澗	-12.8433
子謂韶盡美矣又盡善也	-12.8433
藿	-12.8434
禴	-12.8442
止子路宿殺雞為黍而食之見其二子焉	-12.8592
樴	-12.8998
其父攘羊而子證之	-12.9014
羯	-12.9014
上下四旁均齊方正	-12.9016
而私受之於子則可乎何以異於是	-12.9017
蕕	-12.9018
使天下之人齊明盛服以承祭祀	-12.9019
禮與其奢也寜儉	-12.9019
院	-12.902
舜其大知也與舜好問而好察邇言	-12.902
呆	-12.9021
痕	-12.9021
天之方蹶無然泄泄	-12.9021
君行仁政斯民親其上死其長矣	-12.9022
𬒮	-12.9022
其大無外其小無内	-12.9022
由今之道無變今之俗	-12.9022
子貢曰紂之不善不如是之甚	-12.9022
懥	-12.9022
邯	-12.9022
居下流而訕上	-12.9022
而不為周南召南其猶正牆面而立也與	-12.9022
聖人之憂民如此而暇耕乎	-12.9023
求也為之比及三年可使足民	-12.9023
顕	-12.9023
昇	-12.9023
小人閒居為不善無所不至見君子而后	-12.9024
裾	-12.9024
璽	-12.9025
馬期以告子曰丘也幸苟有過人必知之	-12.9025
古之人所以大過人者無他焉善推其所	-12.9025
神之格思不可度思矧可射思	-12.9025
隸	-12.9025
爪	-12.9025
腯	-12.9025
大全辨卓菴張氏曰	-12.9026
逺之近知風之自知微之顯	-12.9026
地不改辟矣民不改聚矣	-12.9026
王子墊問曰士何事	-12.9026
五者廢其一非學也	-12.9026
前以士後以大夫前以三鼎而後以五鼎	-12.9026
不嗜殺人者則天下之民皆引領而望	-12.9027
子曰工欲善其事必先利其器居是邦也	-12.9027
明也我知之矣賢者過之不肖者不及也	-12.9027
從政者何如子曰噫斗筲之人何足算也	-12.9027
筓	-12.9027
繆公亟見於子思曰古千	-12.9028
無有失也則口腹豈適為尺寸之膚哉	-12.9028
子游問孝子曰今之孝者是謂能	-12.9028
兄弟既翕和樂且耽	-12.9028
詩云不愆不忘率由舊章	-12.9028
我不欲人之加諸我吾亦欲無加諸人	-12.9028
漾	-12.9028
夫章子豈不欲有夫妻子母之屬哉	-12.9028
者其惟春秋乎罪我者其惟春秋乎	-12.9029
聫	-12.9029
酳	-12.9029
作於其心害於其事作於其事害於其政	-12.9029
子曰吾未見剛者或對曰申棖	-12.9029
得侍同朝甚喜	-12.9029
當是時陽貨先豈得不見	-12.9029
子曰齊一變至於魯魯一變至於道	-12.9029
聞詩聞禮又聞君子之逺其子也	-12.9029
君召使擯色勃如也足躩如也	-12.903
立則見其參於前在輿則見其倚於衡	-12.903
禽謂子貢曰子為恭也仲尼豈賢於子乎	-12.903
曰如斯而已乎曰修己以安	-12.903
齊人無以仁義與王言者	-12.903
樊遲請學稼子曰吾不如老農請學為圃	-12.903
山梁雌雉時哉時哉子路共之三嗅而作	-12.903
不以堯之所以治民治民賊其民者也	-12.903
不誅則疾視其長上之死而不救	-12.903
子曰伯夷叔齊不念舊惡怨是用希	-12.903
浩生不害問曰樂正子何人也	-12.903
掦	-12.903
㽦	-12.903
不教民而用之謂之殃民	-12.903
問師與商也孰賢子曰師也過商也不及	-12.903
盡其心者知其性也知其性則知天矣	-12.903
故士窮不失義達不離道	-12.903
孟子曰大人者不失其赤子之心者也	-12.9031
夏后殷周之盛地未有過千里	-12.9031
公綽之不欲卞莊子之勇冉求之藝	-12.9031
吾學殷禮有宋存焉	-12.9031
焉貪君子無衆寡無小大無敢慢斯不亦	-12.9031
多見闕殆慎行其餘則寡悔	-12.9032
有民人焉有社稷焉何必讀書然後為學	-12.9032
曰諸君子皆與驩言	-12.9032
殘賊之人謂之一夫聞誅一夫紂	-12.9032
詩云於戲前王不忘	-12.9032
曰其取諸民之不義也	-12.9032
矣乎子曰為之難言之得無訒乎	-12.9032
天子父尊之至也以天下養養之至也	-12.9032
宜與夫禮若不相似然	-12.9032
以母則不食以妻則食之以兄之室則	-12.9032
曰焉知賢才而舉之	-12.9032
子為長者慮而不及子思	-12.9032
昔者趙簡子使王良與嬖奚	-12.9032
楫	-12.9032
君正莫不正一正君而國定矣	-12.9032
見不善如探湯吾見其人矣吾聞其語矣	-12.9032
圯	-12.9033
􁎠	-12.9033
勛	-12.9033
為誰曰為仲由曰是魯孔丘之徒與	-12.9033
故齊人莫如我敬王也	-12.9033
貧且賤焉恥也邦無道富且貴焉恥也	-12.9033
今也南蠻鴃舌之人	-12.9033
周公兼夷狄驅猛獸而百姓	-12.9033
子貢問政子曰足食足兵民信之矣	-12.9033
所欲與聚所惡勿施	-12.9034
降下民作之君作之師惟曰其助上帝寵	-12.9034
今夫蹶者趨者是氣也而反動其心	-12.9034
菁	-12.9034
嘗獨立鯉趨而過庭曰學詩乎	-12.9034
國之所以廢興存亡者亦然	-12.9034
侯多謀伐寡人者何以待之	-12.9034
菲飲食而致孝乎鬼神惡衣服而致美乎	-12.9034
毁於櫝中是誰之過與	-12.9034
巵	-12.9034
社於宰我宰我對曰夏后氏以松殷人以	-12.9034
勞心者治人勞力者治於人治	-12.9034
墨者夷之因徐辟而求見孟子	-12.9035
奨	-12.9035
子曰加我數年五十以學易可以無大過	-12.9035
江漢以濯之秋陽以暴之皜皜乎不可尚	-12.9035
則身弑國亡不甚則身危國削	-12.9035
藜	-12.9035
曰不逆詐不億不信抑亦先覺者是賢乎	-12.9035
詩者不以文害辭不以辭害志以意逆志	-12.9035
莫見乎隠莫顯乎㣲	-12.9035
人未有自致者也必也親喪乎	-12.9036
古之狂也肆今之狂也蕩古之矜也	-12.9036
為盛有婦人焉九人而已	-12.9036
仁者人也親親為大義者宜也尊賢為大	-12.9036
牿	-12.9036
得道者多助失道者寡助	-12.9036
且爾言過矣虎兕出於柙龜玉	-12.9036
聽於無聲視於無形	-12.9036
右師言者有就右師之位而與右師言者	-12.9036
樂道人之善樂多賢友益矣樂驕樂	-12.9036
之其所畏敬而辟焉之其所哀矜而辟焉	-12.9036
子夏曰小人之過也必文	-12.9036
武王周公其達孝矣乎	-12.9036
曰是魯孔丘與曰是也曰是知津矣	-12.9037
陳子曰古之君子何如則仕	-12.9037
冉有曰今夫顓臾固而近於費	-12.9037
行義以達其道吾聞其語矣未見其人也	-12.9037
諄	-12.9037
雖小道必有可觀者焉致逺恐泥	-12.9037
焰	-12.9037
然而不勝者是天時不如地利也	-12.9037
中食七人中次食六人下食五人	-12.9037
丐	-12.9037
天之生物也使之一本而夷子二本故也	-12.9037
今則可以見矣不直則道不見我且直之	-12.9038
微子去之箕子為之奴比干諫而死	-12.9038
子路行行如也冉有子貢侃侃如也子樂	-12.9038
覃	-12.9038
讜	-12.9038
文獻不足故也足則吾能徴之矣	-12.9038
樂正子二之中四之下也	-12.9038
寔能容之以能保我子孫黎民尚亦有利	-12.9038
皆惡之何如子曰未可也不如	-12.9038
子曰女奚不曰其為人也	-12.9038
也夫國君好仁天下無敵	-12.9038
人有言曰人而無恒不可以作巫醫善夫	-12.9039
四十五十而無聞焉斯亦不足畏也已	-12.9039
鄊	-12.9039
窘	-12.9039
䜛	-12.9039
夷子曰儒者之道古之人若保赤子	-12.9039
子曰賢哉回也一簞食一瓢飲	-12.9039
不飲酒不茹葷	-12.9039
啼	-12.9039
問人於他邦再拜而送之	-12.9039
攬	-12.9039
人不堪其憂回也不改其樂賢哉回也	-12.9039
知虞公之將亡而先去之	-12.9039
惽	-12.9039
療	-12.9039
不行王政云爾苟行王政	-12.904
書曰湯一征自葛始天下信之東	-12.904
子曰愛之能勿勞乎忠焉能勿誨乎	-12.904
孟子曰待文王而後興者	-12.904
一介不以與人一介不以取諸人	-12.904
翼如也復其位踧踖如也	-12.904
鷙	-12.904
吾聞夷子墨者墨之治喪也以薄	-12.904
肌膚之㑹筋骸之束	-12.904
子曰君子坦蕩蕩小人長戚戚	-12.9041
不羞汙君不卑小官	-12.9041
宣王問曰或謂寡人勿取或謂寡人取之	-12.9041
生不忍見其死聞其聲不忍食其肉	-12.9041
㕘	-12.9041
澀	-12.9041
彄	-12.9041
白羽之白也猶白雪之白	-12.9042
穰	-12.9042
體膚空乏其身行拂亂其所	-12.9042
孔子對曰苟子之不欲雖賞之不竊	-12.9042
簾	-12.9042
俱不得其死然禹稷躬稼而有天下	-12.9042
國有道其言足以興國無道其黙足以容	-12.9042
掛	-12.9042
昔者禹抑洪水而天下平	-12.9042
居下位不以賢事不肖者伯夷也	-12.9042
如恥之莫若師文王	-12.9042
伯牛有疾子問之自牖執其手	-12.9042
若藥不瞑眩厥疾不瘳	-12.9042
昔者齊景公問於晏子曰	-12.9043
如以朝衣朝冠坐於塗炭	-12.9043
夏曰瑚商曰璉	-12.9044
䜴	-12.9044
裒	-12.9044
戰戰兢兢如臨深淵如履薄氷	-12.9045
達巷黨人曰大哉孔子博學而無所成名	-12.9045
惡之欲其死既欲其生又欲其死是惑也	-12.9045
其下朝不食夕不食	-12.9045
笄	-12.9045
子曰論篤是與君子者乎色莊者乎	-12.9045
子路曰君子尚勇乎子曰君子義以為	-12.9045
發而皆中節謂之和中也者	-12.9046
穽	-12.9046
孔子對曰俎豆之事則嘗聞之矣	-12.9046
汭	-12.9047
禫	-12.9047
苫	-12.9047
水信無分於東西	-12.9048
都鄙有章上下有服田有封洫廬井有伍	-12.9048
在陳絶糧從者病莫能興	-12.9049
故舊無大故則不棄也無求備於一人	-12.9049
咄	-12.9049
稗	-12.905
鈕	-12.905
用圭璧有庭實	-12.905
子曰從我於陳蔡者皆不及門也	-12.9051
曰羣居終日言不及義好行小慧難矣哉	-12.9051
曰凱風親之過小者也	-12.9051
柘	-12.9052
譁	-12.9052
拭	-12.9053
見冕者與瞽者雖䙝必以貌	-12.9053
上如揖下如授勃如戰色足蹜蹜如有循	-12.9054
腴	-12.9054
弧	-12.9054
非其道則一簞食不可受於人如其道則	-12.9055
弤	-12.9056
罘	-12.9057
有為者辟若掘井	-12.9058
此詩者其知道乎能治其國家誰敢侮之	-12.9059
插	-12.9059
韐	-12.9071
齗	-12.9675
萑	-12.9677
問燕可伐與吾應之曰可彼然而伐之也	-12.9679
查	-12.968
䐑	-12.968
丈夫之冠也父命之女子之嫁也母命之	-12.9681
志與民由之不得志獨行其道富貴不能	-12.9681
貧賤不能移威武不能屈此之謂大丈夫	-12.9681
躭	-12.9684
陳賈曰王無患焉王自以	-12.9684
万	-12.9685
今有殺人者或問之曰人可殺與則	-12.9685
燕人畔王曰吾甚慙於孟子	-12.9686
一息尚存此志不容少懈	-12.9686
應之曰可彼如曰孰可以殺之則	-12.9686
宰我問曰仁者雖告之曰井有仁焉其	-12.9686
戞	-12.9686
之道造端乎夫婦及其至也察乎天地	-12.9686
知而使之是不仁也不知而使之是不	-12.9687
五家為鄰五鄰為里	-12.9687
櫽	-12.9687
堯舜之道不以仁政不能平治天下	-12.9687
曰射有似乎君子失諸正鵠反求諸其身	-12.9688
愛人者人恒愛之敬人者人恒敬之	-12.9689
聖人之行不同也或逺或近或去或不去	-12.9689
嘘	-12.9689
推恩足以保四海不推恩無以保妻子	-12.9689
曰貧而無諂富而無驕何如子曰可也	-12.9689
施諸已而不願亦勿施於人	-12.969
創業垂統為可繼也若夫成功則天也	-12.969
今魯方百里者五子以	-12.969
魯欲使慎子為將軍	-12.969
有王者作則魯在所損乎在所益乎	-12.9691
食焉過也人皆見之更也人皆仰之	-12.9691
千里而見王是予所欲也	-12.9691
聽非禮勿言非禮勿動	-12.9691
問仁曰仁者先難而後獲可謂仁矣	-12.9691
逋	-12.9692
不偏之謂中不易之謂庸中者天下之正	-12.9692
曰使管叔監殷管叔以殷畔也有諸	-12.9693
嬖人臧倉者請曰	-12.9693
父母愛之喜而不忘父母惡之勞而不怨	-12.9693
衫	-12.9693
丹朱之不肖舜之子亦不肖	-12.9693
尹士聞之曰士誠小人也	-12.9693
矣以其數則過矣以其時考之則可矣	-12.9693
已知之理而益窮之以求至乎其極	-12.9694
比及三年可使有勇且知方也夫子哂之	-12.9694
菉	-12.9694
貓	-12.9694
傳焉孰後倦焉譬諸草木區以别矣	-12.9694
苟能充之足以保四海苟不充之	-12.9694
覦	-12.9694
曰吾有司死者三十三人而民莫之死也	-12.9694
欵	-12.9695
夫子當路於齊管仲晏子之功可復許乎	-12.9695
己而后求諸人無諸己而后非諸人	-12.9695
搭	-12.9695
孟子不與右師言右師不	-12.9695
與木石居與鹿豕遊	-12.9695
吾聞用夏變夷者未聞變於夷者也	-12.9695
王如用予則豈徒齊民安天下之民舉安	-12.9695
故曰或勞心或勞力	-12.9695
春秋天子之事也是故孔子曰知我	-12.9695
正其義不謀其利明其道不計其功	-12.9695
雖大行不加焉雖窮居不損焉分定故也	-12.9695
玦	-12.9696
罥	-12.9696
子曰人無逺慮必有近憂	-12.9696
非天子不議禮不制度不考文	-12.9696
曰嫂溺則援之以手乎	-12.9696
所令反其所好而民不從是故君子有諸	-12.9696
子曰古者言之不出恥躬之不逮也	-12.9696
惹	-12.9696
決江河沛然莫之能禦	-12.9696
稿	-12.9696
闋	-12.9696
仲弓為季氏宰問政子曰先有司	-12.9696
也與之食之其兄自外至曰是	-12.9696
膓	-12.9696
尽	-12.9696
白圭曰吾欲二十而取一何如	-12.9696
治天下豈無所用其心哉亦不用於耕耳	-12.9696
蛇龍而放之菹	-12.9696
吾聞西伯善養老者太公辟紂居東海之	-12.9696
去志不欲變故不受也	-12.9697
子思曰如伋去君誰與守	-12.9697
夫子加齊之卿相得行道焉	-12.9697
及紂之身天下又大亂	-12.9697
吾未能有行焉乃所願則學孔子也	-12.9697
子之所慎齊戰疾	-12.9697
類也乎若仲子者蚓而後充其操者也	-12.9697
也是何異於刺人而殺之曰非我也兵也	-12.9697
僮	-12.9697
雲漢之詩曰周餘黎民靡有	-12.9697
交也以道其接也以禮斯孔子受之矣	-12.9697
也禮門也惟君子能由是路出入是門也	-12.9697
夫婦之愚可以與知焉及其至也雖聖人	-12.9697
羇	-12.9698
鶂	-12.9698
在邦域之中矣是社稷之臣也何以伐為	-12.9698
此之謂自謙故君子必慎其獨也	-12.9698
子曰攻乎異端斯害也已	-12.9698
湧	-12.9698
人之徒與而誰與天下有道丘不與易也	-12.9698
顔淵問仁子曰克己復禮為仁一日克	-12.9698
知焉夫婦之不肖可以能行焉	-12.9698
有官守者不得其職則去有言責者不得	-12.9698
謂人皆有不忍人之心者今人乍見孺子	-12.9698
仁且智夫子既聖矣	-12.9698
則是方四十里為阱於國中	-12.9698
可以濯我纓滄浪之水濁兮可以濯我足	-12.9698
則吾進退豈不綽綽然有餘裕哉	-12.9699
子曰唯女子與小人為難養也	-12.9699
得淑女以配君子	-12.9699
佔	-12.9699
曰内則父子外則君臣人之大倫也	-12.9699
苟為善後世子孫必有王者矣	-12.9699
天地之大也人猶有所憾	-12.9699
天子不仁不保四海諸侯不仁不保社稷	-12.9699
用下敬上謂之貴貴	-12.9699
惟酒無量不及亂	-12.9699
其親死則舉而委之於壑	-12.9699
曰賜也可使從政也與曰賜也	-12.9699
以大夫之招招虞人虞人死不敢	-12.9699
緇衣羔裘素衣麑裘黄衣狐裘	-12.9699
邑有先君之廟曰都	-12.9699
子曰以吾一日長乎爾毋吾以也	-12.9699
苽	-12.9699
泓	-12.9699
嚬	-12.9699
必察乎此而敬以直之	-12.9699
苻	-12.9699
思曰睿睿作聖	-12.9699
王色定然後請問異姓之卿	-12.9699
惡鄭聲之亂雅樂也惡利口之覆邦家者	-12.9699
晃	-12.97
宰問於子貢曰夫子聖者與何其多能也	-12.97
朝覲訟獄謳歌	-12.97
如智者若禹之行水也則無惡	-12.97
脆	-12.97
周公弟也管叔兄也周公之過不亦宜乎	-12.97
好勇疾貧亂也人而不仁疾之已甚亂也	-12.97
子曰君子泰而不驕小人驕而不泰	-12.97
無聞目無見也井上有李螬食實者過半	-12.97
也所求乎臣以事君未能也	-12.97
季氏旅於泰山子謂冉有曰女弗能救與	-12.97
乎親不可以為人不順乎親不可以為子	-12.97
其言則去我無官守我無言責	-12.97
子曰多聞闕疑慎言其餘則寡尤	-12.97
不我足也恐其不能盡於大事	-12.97
今將行王政齊楚惡而伐之則如之何	-12.97
予豈若是小丈夫然哉	-12.97
莫大乎尊親尊親之至莫大乎以天下養	-12.97
子在川上曰逝者如斯夫不舍晝夜	-12.9701
苟為後義而先利不奪不饜	-12.9701
子曰天生徳於予桓魋其如予何	-12.9701
以去乎曰直道而事人焉往而不三黜	-12.9701
子路問成人子曰若臧武仲之知	-12.9701
方寸之木可使髙於岑樓	-12.9701
是也則孝子仁人之掩其親亦必有道矣	-12.9701
煙	-12.9701
腋	-12.9701
知及之仁能守之不莊以涖之則民不敬	-12.9701
趋	-12.9701
子服景伯以告曰夫子固有惑志	-12.9701
襍	-12.9701
今之諸侯皆犯此五禁	-12.9701
値	-12.9701
子曰君子食無求飽居無求安敏於事而	-12.9701
繕	-12.9701
頡	-12.9701
子曰其言之不怍則為之也難	-12.9701
疾視曰彼惡敢當我哉	-12.9701
有諸己而後求諸人無諸己而後非諸人	-12.9701
或相什伯或相千萬	-12.9701
儷	-12.9702
擲	-12.9702
子曰回也視予猶父也	-12.9702
子貢問曰賜也何如子曰女器也	-12.9702
子曰非吾徒也小子鳴鼓而攻之可也	-12.9702
有所不足不敢不勉有餘不敢盡	-12.9702
湯有天下選於衆舉伊尹不仁者逺矣	-12.9702
孟子曰於齊國之士吾必以仲子	-12.9702
夫孝者善繼人之志善述人之事者也	-12.9702
子曰詩三百一言以蔽之曰思無邪	-12.9702
𫉬	-12.9702
去齊接淅而行去魯曰遲遲吾行	-12.9702
仁能守之莊以涖之動之不以禮未善也	-12.9702
取食之重者與禮之輕者而比之	-12.9702
惟自暴者拒之以不信自棄者絶之以不	-12.9702
瞀	-12.9702
枚	-12.9702
其行已也恭其事上也敬	-12.9702
而不動者未之有也不誠未有能動者也	-12.9702
王使人問疾醫來	-12.9702
轕	-12.9703
孟子見齊宣王曰所謂故國者	-12.9703
白圭曰丹之治水也愈於禹	-12.9703
危而不持顛而不扶則將焉用彼相矣	-12.9703
陳子以時子之言告孟子	-12.9703
無法家拂士出則無敵國外患者國恒亡	-12.9703
曰是何傷哉彼身織屨妻辟纑以易之也	-12.9703
餔啜也我不意子學古之道而以餔啜也	-12.9703
小人之中庸也小人而無忌憚也	-12.9703
孟子謂樂正子曰子之從於子敖來	-12.9703
陽貨矙孔子之亡也而饋孔子蒸豚	-12.9703
仁者以財發身不仁者以身發財	-12.9703
仁人之安宅也義人之正路也	-12.9703
雖使五尺之童適市	-12.9703
吾於人也聽其言而觀其行於予與改是	-12.9703
昔者有王命有采薪之憂	-12.9703
樵	-12.9704
禮與其奢也寧儉	-12.9704
綻	-12.9704
駰	-12.9704
如智者亦行其所無事則智亦大矣	-12.9704
於智矣禹之行水也行其所無事也	-12.9704
非之無舉也刺之無刺也同乎流俗合乎	-12.9704
未可以言而言是以言餂之	-12.9704
名之曰幽厲雖孝子慈孫百世不能改也	-12.9704
魯自文公始不視朔	-12.9704
今也欲無敵於天下而不以仁	-12.9704
曰昔者疾今日愈如之何不弔	-12.9704
之矣失其身而能事其親者吾未之聞也	-12.9704
猶未洽於天下武王周公繼之然後大行	-12.9704
自能尋向上去下學而上達	-12.9704
子曰君子無所爭必也射乎	-12.9705
不仁者以其所不愛及其所愛	-12.9705
鳯鳥不至河不出圖	-12.9705
椘	-12.9705
是猶弟子而恥受命於先師也	-12.9705
使之主事而事治百姓安之是	-12.9705
瀠	-12.9705
孟子曰言人之不善當如後患何	-12.9705
譙	-12.9705
夫達也者質直而好義察言而	-12.9705
皐	-12.9705
出曰二三子何患於喪乎天下之無道也	-12.9705
殺一無罪非仁也非其有而取之非義也	-12.9705
君子之澤五世而斬小人之澤五世而斬	-12.9705
侵于之疆則取于殘殺伐用張于湯有光	-12.9706
嘗不得見也從者見之	-12.9706
子貢方人子曰賜也賢乎哉夫我則不暇	-12.9706
子曰朽木不可雕也糞土之牆不可杇也	-12.9706
火益熱亦運而已矣	-12.9706
五旬而舉之人力不至於此	-12.9706
近聖人之居若此其甚也	-12.9706
所欲有甚於生者所惡有甚於死者	-12.9706
父母干戈朕琴朕弤朕二嫂使治朕棲	-12.9706
仁而何其血之流杵也	-12.9706
如之何其使斯民飢而死也	-12.9707
曰尊者賜之曰其所取之者義乎	-12.9707
子曰知者不惑仁者不憂勇者不懼	-12.9707
兎	-12.9707
孫弟長而無述焉老而不死是為賊	-12.9707
悌守先王之道以待後之學者	-12.9707
夜氣不足以存則其違禽獸不逺矣	-12.9707
湯之於伊尹學焉而後臣之	-12.9707
屡	-12.9708
必先苦其心志勞其筋骨餓其	-12.9708
君子之徳風小人之徳草草上之風必偃	-12.9708
棱	-12.9708
則犬之性猶牛之性牛之性猶人之性與	-12.9708
詩云誰能執熱逝不以濯	-12.9708
天下之大本也和也者天下之達道也	-12.9708
曰無恒産而有恒心者惟士	-12.9708
自得之則居之安居之安則資之深	-12.9709
𨗳	-12.9709
然後取人不厭其取子曰其然豈其然乎	-12.9709
伯達伯适仲突仲忽叔夜叔夏季隨季騧	-12.9709
子曰君子周而不比小人比而不周	-12.9709
子食於有喪者之側未嘗飽也	-12.9709
曰君子成人之美不成人之惡小人反是	-12.9709
異於白馬之白也無以異於白人之白也	-12.9709
有惡惡稱人之惡者惡居下流而訕上者	-12.971
詒	-12.971
我之不賢與人將拒我如之何其拒人也	-12.971
君賜腥必熟而薦之君賜生必畜之	-12.971
匈	-12.971
從之純如也皦如也繹如也以成	-12.971
不有博奕者乎為之猶賢乎已	-12.971
子曰不仁者不可以久處約	-12.971
然後知生於憂患而死於安樂也	-12.971
懶	-12.9711
歴位而相與言不踰階而相揖	-12.9711
前日之不受是則今日之受非也	-12.9711
君子有三畏畏天命畏大人畏聖人之言	-12.9711
王天下有三重焉其寡過矣乎	-12.9711
謔	-12.9711
芽	-12.9711
恭敬者幣之未將者也	-12.9711
曰梓匠輪輿其志將以求食也君子之	-12.9711
令聞廣譽施於身所以不願人之文繡也	-12.9711
曰賜也亦有惡乎惡徼以為知者	-12.9711
小賢役大賢天下無道小役大弱役	-12.9711
行逺自邇登髙自卑	-12.9712
不知天命而不畏也狎大人侮聖人之言	-12.9712
有田則祭無田則薦	-12.9712
吾豈匏𤓰也哉焉能繫而不食	-12.9712
則農有餘粟女有餘布	-12.9712
故天將降大任於是人也	-12.9712
今日之受是則前日之不受非	-12.9712
是故諸侯雖有善其辭命	-12.9713
黿	-12.9713
啐	-12.9713
寡取之凶年糞其田而不足則必取盈焉	-12.9713
唾	-12.9713
詩云雨我公田遂及我私	-12.9713
從流上而忘反謂之連	-12.9714
好仁者無以尚之惡不仁者其為仁矣	-12.9714
盟之後言歸于好	-12.9714
飧	-12.9714
曰君子不施其親不使大臣怨乎不以	-12.9714
於利以罷三軍之師	-12.9715
人性之善也猶水之就下也	-12.9715
仁内也非外也義外也非内也	-12.9715
葺	-12.9715
終身由之而不知其道者衆也	-12.9715
媿	-12.9716
其為氣也配義與道無是餒也	-12.9716
仁則榮不仁則辱今惡辱而居不仁是猶	-12.9717
故凡同類者舉相似也	-12.9717
博學而詳説之將以反説約也	-12.9717
縊	-12.9718
可使過顙激而行之可	-12.9719
悾	-12.9719
楢	-12.9719
擎	-12.9719
流水之為物也不盈科不行	-12.972
親之過小而怨是不可磯也	-12.9721
無君子莫治野人無野人莫養君子	-12.9721
日三省吾身為人謀而不忠乎與朋友交	-12.9722
綉	-12.9724
有馬者借人乘之	-12.9727
扃	-12.9733
翬	-12.9735
事非君何使非民治亦進亂亦進伊尹也	-12.9748
鉶	-12.977
何事非君何使非民治亦進亂亦進	-13.0361
扄	-13.0388
之民哉吾豈若於吾身親見之哉	-13.0397
之中由是以樂堯舜之道吾豈若使是君	-13.0397
食無求飽居無求安	-13.0398
齊宣王問曰湯放桀武王伐紂有諸	-13.0398
淘	-13.0398
堯舜之君哉吾豈若使是民	-13.0399
溱	-13.0399
怨乎曰求仁而得仁又何怨出曰夫子不	-13.0399
智也仁智周公未之盡也而	-13.0399
萬物並育而不相害道並行而不相悖	-13.04
子曰道之以政齊之以刑民免而無恥	-13.04
椀	-13.04
曰夫尹士惡知予哉	-13.0401
恧	-13.0401
㦯	-13.0401
儱	-13.0402
果能此道矣雖愚必明雖柔必强	-13.0402
曰公孫衍張儀豈不誠大丈夫哉	-13.0402
貨財不聚非國之害	-13.0403
所以考其善不善者豈有他哉於	-13.0403
得其門者或寡矣夫子之云不亦宜乎	-13.0403
子曰力不足者中道而廢今女畫	-13.0403
曰士之失位也猶諸侯之失國家也	-13.0403
簀	-13.0403
如知為君之難也不幾乎一言而興邦乎	-13.0404
畏天者也樂天者保天下畏天者保其國	-13.0404
他日君出則必命有司所之今	-13.0404
妻子好合如鼓瑟琴	-13.0404
孔子曰夫子聖矣乎孔子曰聖	-13.0404
孺子之父母也非所以要譽於	-13.0404
在野曰草莽之臣皆謂庶人	-13.0404
天下有道以道殉身天下無道以身殉道	-13.0405
有蹙孔子曰於斯時也天下殆哉岌岌乎	-13.0405
島	-13.0405
此非君子之言齊東野人之語也	-13.0405
昺	-13.0405
一戰勝齊遂有南陽然且不可	-13.0406
以其小者信其大者奚可哉	-13.0406
静静而后能安安而后能慮慮而后能得	-13.0406
天之所覆地之所載日月所照霜露所	-13.0406
諸大夫皆曰賢未可也國人皆曰賢然	-13.0406
不百里不足以守宗廟之典籍	-13.0406
吾聞其以堯舜之道要湯未聞以割烹也	-13.0406
天之所與我者先立乎其大者則其小者	-13.0406
雖與之天下不能一朝居也	-13.0406
王曰大哉言矣寡人有疾寡人好勇	-13.0406
言則非先王之道者猶沓沓也	-13.0406
砭	-13.0407
譴	-13.0407
對曰王請無好小勇夫撫	-13.0407
銑	-13.0407
何哉君所為輕身以先於匹夫者	-13.0407
反左右曰待先生如此其忠且敬也	-13.0407
子曰吾有知乎哉無知也有鄙夫問	-13.0408
語不能顯黙不能藏	-13.0408
瑑	-13.0408
謹權量審法度修廢官四方之政行焉	-13.0408
暌	-13.0408
不足以待諸侯諸侯之地方百里	-13.0408
國不以山谿之險威天下不以兵革之利	-13.0408
也曰非所謂踰也貧富不同也	-13.0408
踐其位行其禮奏其樂	-13.0408
今有仁心仁聞而民不被其澤	-13.0408
樂正子入見曰君奚為不見孟軻也	-13.0408
邠人曰仁人也不可失也從之者如歸市	-13.0408
執柯以伐柯睨而視之猶以為逺	-13.0408
以遏徂莒以篤周祜以對于天下	-13.0408
紛紛然與百工交易何許子之不憚煩	-13.0409
曰君餽之則受之不識可常繼乎	-13.0409
善事父母為孝善事兄長	-13.0409
孟子曰以善服人者未有能服人者也	-13.0409
王就見孟子曰前日願見而不可得	-13.0409
周公相武王誅紂伐奄三年討其君	-13.0409
孟子曰不仁而得國者有之矣	-13.0409
之徒陳相與其弟辛負耒耜而自宋之滕	-13.0409
稀	-13.0409
以其所有易其所無者有司者治之耳	-13.0409
沈猶行曰是非汝所知也昔	-13.0409
且而與其從辟人之士也	-13.041
不得免焉事之以犬馬不得免焉事之以	-13.041
且古之君子過則改之今之君	-13.041
平其政行辟人可也焉得人人而濟之	-13.041
武之道焉夫子焉不學而亦何常師之有	-13.041
抉	-13.041
嫂溺援之以手子欲手援天下乎	-13.041
語大天下莫能載焉語小天下莫能破焉	-13.041
湯居亳與葛為鄰	-13.041
鶃鶃之肉也出而哇之	-13.041
為知一言以為不知言不可不慎也	-13.041
萬章曰士之不託諸侯何也	-13.041
王速出令反其旄倪止其重	-13.041
謀於燕衆置君而後去之則猶可及止也	-13.041
得天下有道得其民斯得天下	-13.0411
孟子獨不與驩言是簡驩也	-13.0411
君哉舜也巍巍乎有天下而不與焉	-13.0411
也嬖人有臧倉者沮君君是以不果來也	-13.0411
樂正子見孟子曰克告於君君為	-13.0411
滕君則誠賢君也雖然未聞道也	-13.0411
今夫天下之人牧未有不嗜殺人者也	-13.0411
他日王謂時子曰我欲中國而授孟子室	-13.0411
無若宋人然宋人有閔其	-13.0411
人皆曰予知擇乎中庸而不能期月守也	-13.0411
去齊充虞路問曰夫子若有不豫色然	-13.0411
𬞞	-13.0411
萬章曰堯以天下與舜有諸	-13.0411
也欲重之於堯舜之道者大桀小桀也	-13.0411
甲悔過自怨自艾於桐處仁	-13.0411
無畏寧爾也非敵百姓也若崩厥角稽首	-13.0412
欲者吾土地也吾聞之也君子不以其所	-13.0412
矣正顔色斯近信矣出辭氣斯逺鄙倍矣	-13.0412
且志曰喪祭從先祖曰吾有所受之也	-13.0412
曰然則吾子與管仲孰賢	-13.0412
曰非也於崇吾得見王退而有	-13.0412
之聲管籥之音舉欣欣然有喜色而相	-13.0412
及其至也雖聖人亦有所不能焉	-13.0412
如此則與禽獸奚擇哉於禽獸又何難焉	-13.0412
子曰以不教民戰是謂棄之	-13.0412
吾聞出於幽谷遷	-13.0412
心不若人則不知惡此之謂不知類也	-13.0412
竭力以事大國則不得免焉如之何則可	-13.0412
當堯之時天下猶未平洪水	-13.0412
祖述堯舜憲章文武上律天時下襲水土	-13.0412
耳目之官不思而蔽於物	-13.0413
難變也武丁朝諸侯有天下猶運之掌也	-13.0413
仲尼亟稱於水曰水哉水哉何取於水也	-13.0413
孟獻子魯之賢大夫仲孫蔑	-13.0413
人曰何以利吾身上下交征利而國危矣	-13.0413
君之視臣如手足則臣視君如腹心	-13.0413
喪畢舜避堯之子	-13.0413
於卒也摽使者出諸大門	-13.0413
漿以迎王師若殺其父兄係累其子弟	-13.0413
陳相見孟子道許行之言曰	-13.0413
曰周之則受賜之則不受何也	-13.0413
景子曰否非此之謂也禮曰父召無諾	-13.0413
王曰何以利吾國大夫曰何以利吾家士	-13.0413
武王之伐殷也革車三百兩虎賁三千人	-13.0413
彼丈夫也我丈夫也吾何畏彼哉	-13.0414
命也見不善而不能退退而不能逺過也	-13.0414
子曰人之過也各於其黨觀過斯知仁矣	-13.0414
人病不求耳子歸而求之有餘師	-13.0414
㕔	-13.0414
然也雖小國之君亦有之費	-13.0414
譬諸小人其猶穿窬之盜也與	-13.0414
孟子之平陸謂其大夫曰子之持	-13.0414
智譬則巧也聖譬則力也由射於百	-13.0414
詩曰永言孝思孝思維則此之謂也	-13.0414
今日格一物明日格一物	-13.0414
由文王至於孔子五百有餘	-13.0414
為巨室則必使工師求大木	-13.0414
繆公之於子思也亟問亟餽鼎肉子思不	-13.0414
子曰自行束脩以上吾未嘗無誨焉	-13.0414
今又倍地而不行仁政是動天下之兵也	-13.0414
未同而言觀其色赧赧然非由之所知也	-13.0414
子曰臧武仲以防求為後於	-13.0414
其自反而仁矣自反而有禮矣其	-13.0414
不仁不保宗廟士庶人不仁不保四體	-13.0414
於齊主侍人瘠環	-13.0414
其顙有泚睨而不視夫泚也非	-13.0414
子曰年四十而見惡焉其終也已	-13.0415
導其妻子使養其老	-13.0415
是國也其君用之則安富尊榮其子弟從	-13.0415
遰	-13.0415
也吾身不能居仁由義謂之自棄也	-13.0415
者不之堯之子而之舜訟獄者不之堯之	-13.0415
孟子對曰王何必曰利亦有仁義而已矣	-13.0415
居惡在仁是也路惡在義是也	-13.0415
而不勝夫環而攻之必有得天時者矣	-13.0415
孔子君命召不俟駕而行然則孔子非與	-13.0415
讓之心非人也無是非之心非人也	-13.0415
戱	-13.0416
百世之下聞者莫不興起也	-13.0416
古之人得志澤加於民不得志	-13.0416
孔子下欲與之言趨而辟之不得與之言	-13.0416
曰不憂不懼斯謂之君子矣乎	-13.0416
曰保民而王莫之能禦也	-13.0416
者不仁而可與言則何亡國敗家之有	-13.0416
非先王之道子倍子之師而學之	-13.0416
不能三年之喪而緦小功之察	-13.0416
其所以異於深山之野人者幾希	-13.0416
所以不願人之膏粱之味也	-13.0416
而不獲一禽嬖奚反命曰天下之賤工也	-13.0416
孟子對曰是謀非吾所能及也無	-13.0416
使數人要於路曰請必無歸而造於朝	-13.0416
刁	-13.0416
季路見於孔子曰季氏將有事於顓臾	-13.0416
人知之亦囂囂人不知亦囂囂	-13.0416
不勞而王桓公之於管仲	-13.0416
知者不惑勇者不懼子貢曰夫子自道也	-13.0416
王欲行之則盍反其本矣	-13.0416
人之親其兄之子為若親其鄰之赤子乎	-13.0417
公都子曰冬日則飲湯	-13.0417
曰孔子當仕有官職而以其官召之也	-13.0417
吾欲使子問於孟子然後行事	-13.0417
對曰不幸而有疾不能造朝	-13.0417
明日出弔於東郭氏公孫丑曰昔者辭以	-13.0417
子夏曰君子有三變望之儼然即之也温	-13.0417
訑訑之聲音顔色距人於千里之外	-13.0417
三里之城七里之郭環而攻之	-13.0417
古之欲明明德於天下者先治其國	-13.0417
昔者堯薦舜於天而天受之	-13.0417
若大旱之望雨也	-13.0417
事兄未能也所求乎朋友先施之未能也	-13.0417
爟	-13.0417
型	-13.0417
慎於言就有道而正焉可謂好學也已	-13.0417
為政於天下者湯是也未聞以千里畏人	-13.0417
由湯至於文王五百有餘	-13.0417
諸侯朝於天子曰述職	-13.0417
今病小愈趨造於朝我不識能至否乎	-13.0417
子曰吾以女為死矣曰子在回何敢死	-13.0417
水逆行謂之洚水洚水者洪水也仁人之	-13.0417
心之官則思思則得之不思則不得也	-13.0417
集溝澮皆盈其涸也可立而待也	-13.0417
故好而知其惡惡而知其美者天下鮮矣	-13.0417
孟子曰自暴者不可與有言也	-13.0417
非全體而不息者不足以當之	-13.0417
微生畝謂孔子曰丘何為是栖栖者與	-13.0417
治國必先齊其家者其家不可教而能	-13.0418
者不勉而中不思而得從容中道聖人也	-13.0418
見得思義祭思敬喪思哀其可已矣	-13.0418
祍	-13.0418
仲弓問子桑伯子子曰可也簡	-13.0418
斫	-13.0418
曰獨樂樂與人樂樂孰樂	-13.0418
人有言至於禹而徳衰	-13.0418
者棺椁無度中古棺七寸椁稱之自天子	-13.0418
且予縱不得大葬予死於道路乎	-13.0418
父母俱存兄弟無故一樂也	-13.0418
反諸其人乎抑亦立而視其死與	-13.0418
湯始征自葛載十一征而無敵於天下東	-13.0418
使虞敦匠事嚴虞不敢請今	-13.0418
天視自我民視天聽自我民聽	-13.0418
儀封人請見曰君子之至於斯也吾未	-13.0418
古之人與民偕樂故能樂也	-13.0418
亞飯干適楚三飯繚適蔡四飯缺適秦	-13.0419
駉	-13.0419
詩云其何能淑載胥及溺此之謂也	-13.0419
詩云自西自東自南自北無思不服此	-13.0419
今有璞玉於此雖萬鎰必使玉人彫琢之	-13.0419
然則管仲知禮乎曰邦君樹塞門管	-13.0419
率其子弟攻其父母自	-13.0419
出門如見大賓使民如承大祭	-13.0419
自耕稼陶漁以至為帝無非取於人者	-13.0419
王在靈沼於牣魚躍	-13.0419
若無罪而就死地故以羊易之也	-13.0419
稊	-13.0419
仁義禮智非由外鑠我也我固有之也	-13.0419
今之成人者何必然見利思義見危授命	-13.0419
於南河之南天下諸侯朝覲	-13.0419
曰王無異於百姓之以王	-13.0419
願竊有請也木若以美然	-13.0419
孟子曰養生者不足以當大事	-13.0419
才也養不才故人樂有賢父兄也	-13.042
子曰善人教民七年亦可以即戎矣	-13.042
孟子自齊葬於魯反於齊止於嬴	-13.042
推廣仁術則仁民易而愛物難	-13.042
觀色慮以下人在邦必達在家必達	-13.042
仁矣請問之曰恭寛信敏惠恭則不侮	-13.042
㦸之士一日而三失伍則去之否乎	-13.042
不得吾心夫子言之於我心有戚戚焉	-13.042
由鄒之任見季子由平陸之齊不見儲子	-13.042
子曰法語之言能無從乎改之為貴	-13.042
天與之者諄諄然命之乎	-13.042
泭	-13.042
如使人之所欲莫甚於生	-13.042
下焉者雖善不尊不尊不信不信民弗從	-13.042
豈無仁義之心哉其所以放其良心者	-13.0421
終日不食終夜不寢以思無益不如學也	-13.0421
不識長馬之長也無以異	-13.0421
行後長者謂之弟疾行先長者謂之不弟	-13.0421
由是則生而有不用也由是則可以	-13.0421
雖在縲絏之中非其罪也以其子妻之	-13.0421
於公伯寮吾力猶能肆諸市朝	-13.0421
曰使之主祭而百神享之是天受之	-13.0421
不得已而之景丑氏宿焉	-13.0421
若是乎賢者之無益於國也	-13.0421
不取必有天殃取之何如	-13.0421
曰伯夷聖之清者也伊尹聖之任者也	-13.0421
南面而征北狄怨東面而征西夷怨曰奚	-13.0421
文王以民力為臺為沼	-13.0421
有天民者達可行於天下而後行之者也	-13.0422
豈有他哉避水火也如水益深如	-13.0422
今也不然師行而糧食	-13.0422
譬如平地雖覆一簣進吾往也	-13.0422
宜若小然今一見之大則以王小則	-13.0422
孟子曰生之謂性也猶白之謂白與	-13.0422
用其二而民有殍用其三而父子離	-13.0422
耕者之所獲一夫百	-13.0422
色則慕少艾有妻子則慕妻子仕則慕君	-13.0422
曰以行與事示之者如之何	-13.0422
僃	-13.0423
子夏曰仕而優則學學而優則仕	-13.0423
斯二者天也順天者存逆天者亡	-13.0423
蹷	-13.0423
困而不學民斯為下	-13.0423
莊則敬孝慈則忠舉善而教不能則勸	-13.0423
臑	-13.0423
敬之心人皆有之是非之心人皆有之惻	-13.0423
舅犯曰亡人無以為寳仁親以為寳	-13.0423
於宋餽七十鎰而受於薛餽五十鎰而受	-13.0423
欲為君盡君道欲為臣盡臣道	-13.0423
友便辟友善柔友便佞損矣	-13.0423
何以是嘐嘐也言不顧行行不顧言	-13.0423
曰有復於王者曰吾力足以舉百鈞	-13.0423
凡民也若夫豪傑之士雖無文王猶興	-13.0423
欲與之偕亡雖有臺池鳥獸豈能獨樂哉	-13.0423
熄則謂之水不勝火此又與於不仁之甚	-13.0424
謂理也義也聖人先得我心之所同然	-13.0424
孟子曰君子不亮惡乎執	-13.0424
使人之所惡莫甚於死者	-13.0424
如不待其招而往何哉	-13.0424
夫蚓上食槁壤下飲黄泉	-13.0424
鷺	-13.0424
獻子之與此五人者友也	-13.0424
坫管氏亦有反坫管氏而知禮孰不知禮	-13.0424
人恒過然後能改困於心衡於慮而後作	-13.0424
物我一理纔明彼即曉此	-13.0424
孫叔敖舉於海百里奚舉於市	-13.0425
恥辱也因不失其親亦可宗也	-13.0425
其友不友不立於惡人之朝不與惡人言	-13.0425
立於惡人之朝與惡人言	-13.0425
惡不孫以為勇者惡訐以為直者	-13.0425
跽	-13.0425
人能無以飢渴之害為心害	-13.0426
薄乎云爾惡得無罪	-13.0426
得之有命是求無益於得也求在外者也	-13.0426
民父母行政不免於率獸而食人惡在其	-13.0426
愜	-13.0426
以己及物仁也推己及物恕也	-13.0426
浡然而生至於日至之時皆熟矣	-13.0426
正則眸子瞭焉胷中不正則眸子眊焉	-13.0426
㫖不甘聞樂不樂居處不安故不為也今	-13.0426
子曰食夫稻衣夫錦於女安乎曰安	-13.0427
湯之於伊尹桓公之於管仲則不敢召	-13.0427
剩	-13.0427
布帛長短同則賈相若	-13.0427
楚書曰楚國無以為寳惟善以為寳	-13.0427
夫麰麥播種而耰之其地同樹之時又同	-13.0427
子路愠見曰君子亦有窮乎	-13.0427
耆秦人之炙無以異於耆吾炙	-13.0427
穹	-13.0427
生亦我所欲也義亦我所欲也	-13.0427
當在薛也予有戒心辭曰聞戒故	-13.0427
餽之是貨之也焉有君子而可以貨取乎	-13.0427
斧斤以時入山林材木不可勝用也	-13.0427
由百世之後等百世之王	-13.0428
小弁之怨親親也親親仁也固矣夫	-13.0428
行之而不著焉習矣而不察焉	-13.0428
闕黨童子將命或問之曰益者與	-13.0429
逗	-13.0429
若犬馬之與我不同類也	-13.0429
小弁小人之詩也孟子曰何以言之曰怨	-13.0429
曰尊賢使能俊傑在位	-13.043
小弁親之過大者也親之過大而	-13.043
擗	-13.043
易牙先得我口之所耆者也	-13.043
黠	-13.0431
曰否士無事而食不可也	-13.0431
明於庶物察於人倫由仁義行非行仁義	-13.0431
上下與天地同流豈曰小補之哉	-13.0432
子曰人能𢎞道非道𢎞人	-13.0432
使在山是豈水之性哉其勢則然也	-13.0433
設為庠序學校以教之	-13.0434
彼奪其民時使不得耕耨以養	-13.0434
可使制梃以撻秦楚之堅甲利兵矣	-13.0435
悌忠信入以事其父兄出以事其長上	-13.0435
行一不義殺一不辜	-13.0436
孟子對曰有人不得則非其上矣	-13.0436
歧	-13.0436
廊	-13.0439
榛	-13.044
娛	-13.0442
閒暇及是時明其政刑雖大國必畏之矣	-13.0443
頍	-13.0471
出晝而王不予追也予然後浩然有歸志	-13.0573
枙	-13.1153
文猶質也質猶文也	-13.1164
成王以周公有大勲勞	-13.1164
居於陋巷一簞食一瓢飲人不堪其憂	-13.1165
藤	-13.1166
與周公孰仁且智王曰惡是何言也	-13.1166
孔子三月無君則皇皇如也出疆必載質	-13.1166
路聞之喜子曰由也好勇過我無所取材	-13.1167
甘受和白受采	-13.1167
辟如天地之無不持載無不覆幬	-13.1167
浦	-13.1167
曰文王既沒文不在兹乎	-13.1168
龔	-13.1168
則大夫可以去無罪而戮民則士可以徙	-13.1168
而不求於人則無怨上不怨天下不尤人	-13.1168
伊訓曰天誅造攻自牧宫朕載自亳	-13.1169
有弗思思之弗得弗措也有弗辨辨之弗	-13.1169
倅	-13.1169
叱	-13.1169
言曰予無樂乎為君唯其言而莫予違也	-13.117
􁀣	-13.117
諫於其君而不受則怒悻悻然	-13.117
唯赤則非邦也與宗廟㑹同非諸侯而何	-13.1171
以位則子君也我臣也何敢與君友也以	-13.1171
將以斯道覺斯民也非予覺之而誰也	-13.1172
尺寸之膚不愛焉則無尺寸之膚不養也	-13.1172
城郭不完兵甲不多非國之災也田野不	-13.1173
順乎親有道反諸身不誠不順乎親矣	-13.1173
不遇故去豈予所欲哉予不得已也	-13.1173
王之臣有託其妻子於其友而之楚遊者	-13.1173
雖欲勿用山川其舍諸	-13.1173
無以小害大無以賤害貴養其小者	-13.1174
孟子去齊尹士語人曰不識王之不可以	-13.1174
君使人導之出疆又先於其所	-13.1174
賜也始可與言詩已矣告諸往而知來者	-13.1174
曰敢問國君欲養君子如何斯可謂養矣	-13.1174
淵泉如淵見而民莫不敬言而民莫不信	-13.1174
之妻與子路之妻兄弟也彌子	-13.1174
孔子之仕於魯也魯人獵較	-13.1174
器皿衣服不備不敢以祭	-13.1174
決汝漢排淮泗而注之江	-13.1174
之言盈天下天下之言不歸楊則歸墨楊	-13.1174
之又不以祀湯又使人問之曰	-13.1175
乃若所憂則有之舜人也我亦人也舜	-13.1175
或之先也彼所謂豪傑之士也子	-13.1175
者豈愛身不若桐梓哉弗思甚也	-13.1175
鞹	-13.1175
殃民者不容於堯舜之世	-13.1175
堯老而舜攝也堯典曰二十有八載放	-13.1175
以為賢乎禮義由賢者出而孟子之後	-13.1175
曰以君命將之再拜稽首而受其後	-13.1175
墨氏兼愛是無父也無父無君是禽獸也	-13.1175
後察之見賢焉然後用之	-13.1175
公仲尼之道北學於中國北方之學者未	-13.1175
禮無行也如有一朝之患則君子不患矣	-13.1176
之道焉可誣也有始有卒者其惟聖人乎	-13.1176
有負芻之禍從先生者七十人未有與焉	-13.1176
渊	-13.1176
樂善不倦此天爵也公卿大夫此人爵也	-13.1176
叔孫武叔語大夫於朝曰子貢賢於仲尼	-13.1176
將曰敬弟子曰惡在其敬叔父也彼將曰	-13.1176
而賦粟倍他日孔子曰求非	-13.1176
舜使益掌火益烈山澤而焚之禽獸逃匿	-13.1176
詩云王赫斯怒爰整其旅	-13.1176
䕃	-13.1177
文王生於岐周卒於畢郢西夷之人也	-13.1177
皆曰不可然後察之見不可焉然後去之	-13.1177
膚受之愬不行焉可謂明也已矣浸潤之	-13.1177
出語人曰望之不似人君	-13.1177
之於天道也命也有性焉君子不謂命也	-13.1177
子曰能以禮讓為國乎何有	-13.1177
無妻曰鰥老而無夫曰寡老而無子曰獨	-13.1177
鳥獸之害人者消然後人得平土而居之	-13.1177
叔父乎敬弟乎彼將曰敬叔父曰弟	-13.1177
邰	-13.1177
則不敢以宴亦不足弔乎	-13.1177
晢	-13.1177
輜	-13.1178
昱	-13.1178
連諸侯者次之辟草萊任土地者次之	-13.1178
所謂率土地而食人肉罪不容於死	-13.1178
今居中國去人倫無君子如之何其可也	-13.1178
然後中國可得而食也當是時也禹	-13.1178
子夏聞之曰噫言游過矣君子之道孰先	-13.1178
酆	-13.1178
不備不敢以祭惟士無田則亦不祭牲殺	-13.1178
前日虞聞諸夫子曰君子不怨天不尤人	-13.1178
嗤	-13.1178
率天下之人而禍仁義者必子之言夫	-13.1178
神農之言者許行自楚之滕踵門而	-13.1179
臣始至於境問國之大禁然後敢入	-13.1179
養其一指而失其肩背而不知也	-13.1179
之矣誠如是也民歸之由水之就下	-13.1179
使禹治之禹掘地而注之海驅	-13.1179
栰	-13.1179
公都子曰滕更之在門也若在所禮而不	-13.1179
子游曰子夏之門人小子當洒掃應對	-13.1179
鈞是人也或從其大體或從其小體何也	-13.1179
子曰吾以子為異之問曽由與求之問	-13.1179
阡	-13.1179
一位卿一位大夫一位	-13.1179
夫人幼而學之壯而欲行之王	-13.1179
夫民今而後得反之也君無尤焉	-13.1179
曰以皮冠庶人以旃士以旂大夫以旌	-13.1179
窻	-13.1179
閩	-13.118
以生道殺民雖死不怨殺者	-13.118
湯使人以幣聘之囂囂然曰	-13.118
魑	-13.118
之道交於中國堯獨憂之舉舜而敷治焉	-13.118
謂其君不能者賊其君者也	-13.118
定則不困行前定則不疚道前定則不窮	-13.118
者殺之有童子以黍肉餉殺而奪之書曰	-13.118
夫人必自侮然後人侮之家必自	-13.118
齊䟽之服飦粥之食	-13.118
對曰不敢請耳固所願也	-13.118
耳力焉繼之以六律正五音不可勝用也	-13.118
之岐山之下居焉非擇而取之不得已也	-13.118
不以禮食則得食必以禮乎親迎則	-13.118
萹	-13.118
孟子曰舜生於諸馮遷於負夏卒於鳴條	-13.118
五百年必有王者興其間必有名世者	-13.118
嚮而哭皆失聲然後歸子貢反築室於	-13.118
殤	-13.118
惟天為大惟堯則之蕩蕩乎民無能名焉	-13.118
曰夫道若大路然豈難知哉	-13.118
園囿汙池沛澤多而禽獸至	-13.118
今王鼓樂於此百姓聞王鐘	-13.1181
悻	-13.1181
非疾痛害事也如有能信之者則不	-13.1181
穆穆文王於緝熙敬止	-13.1181
誥曰殺越人于貨閔不畏死凡民罔不譈	-13.1181
將視朝不識可使寡人得見乎	-13.1181
然友復之鄒問孟子孟子曰然不可以	-13.1181
其未得之也患得之既得之患失之	-13.1181
引而不發躍如也中道而立能者從之	-13.1181
有鎡基不如待時今時則易然也	-13.1181
以養人者害人二三子何患乎無君我	-13.1181
君之視臣如犬馬則臣視君如國人	-13.1181
曰宰我子貢有若智足以知聖人汙	-13.1181
弗與共天位也弗與治天職也弗與食天	-13.1181
電	-13.1181
撲	-13.1181
棘子成曰君子質而已矣何以文為	-13.1181
人者食人治人者食於人天下之通義也	-13.1181
孑遺信斯言也是周無遺民也	-13.1181
衡行於天下武王恥之此武王之勇也	-13.1181
猶欲其入而閉之門也夫義路	-13.1181
八年於外三過其門而不入雖欲耕得乎	-13.1181
雖由此霸王不異矣如此則動心否乎	-13.1181
享多儀儀不及物曰不享惟不役志于享	-13.1181
曰王勿異也王問臣臣不敢不以正對	-13.1181
則是父子相夷也父子相夷則惡矣	-13.1182
啓賢能敬承繼禹之道	-13.1182
夫顓臾昔者先王以為東蒙主	-13.1182
齊人伐燕取之諸侯將謀救燕宣王曰諸	-13.1182
非謂有喬木之謂也有世臣之謂也	-13.1182
之於安佚也性也有命焉君子不謂性也	-13.1182
龍斷而登之以左右望而罔市利人皆以	-13.1182
孟子曰然夫時子惡知其不可也	-13.1182
征者上伐下也敵國不相征也	-13.1182
萬章曰君餽之粟則受之乎	-13.1182
僥	-13.1182
棫	-13.1182
吾先君亦莫之行也至於子之身而反	-13.1182
睽	-13.1182
曰否天不言以行與事示之而已矣	-13.1182
季子聞之曰敬叔父則敬	-13.1182
杉	-13.1182
上有好者下必有甚焉者矣君子之	-13.1182
屋廬子不能對明日之鄒以告孟子	-13.1182
謂蚳鼃曰子之辭靈丘而請士師似也	-13.1183
湯之盤銘曰苟日新日日新又日新	-13.1183
普天之下莫非王土率土之濵莫非王臣	-13.1183
定天下之邪正為百王之大法	-13.1183
攪	-13.1183
不得舜為己憂舜以不得禹臯陶為己憂	-13.1183
為不順於父母如窮人無所歸	-13.1183
肫	-13.1183
佛肸以中牟畔子之往也如之何	-13.1183
怒繼之以怒則反夷矣夫子	-13.1183
溯	-13.1183
皆當思其作為如何乃有益	-13.1183
富貴不能淫貧賤不能移威武不能屈	-13.1183
予天民之先覺者也予將以	-13.1183
以粟易械器者不為厲陶冶	-13.1183
毁其宗廟遷其重器如之何其可也	-13.1183
見於其面去則窮日之力而後宿哉	-13.1183
樂佚遊樂宴樂損矣	-13.1183
夫子憮然曰鳥獸不可與同羣吾非斯	-13.1183
之外北面稽首再拜而不受	-13.1183
也夫然後之中國踐天子位焉而居堯之	-13.1183
用上敬下謂之尊賢貴貴尊賢其義一也	-13.1183
孳	-13.1183
故驅其所愛子弟以殉之	-13.1184
我必不仁也必無禮也此物奚宜至哉	-13.1184
顔淵死門人欲厚葬之子曰不可	-13.1184
於亥唐也入云則入坐云則坐食云	-13.1184
則王怒以為不勝其任矣	-13.1184
工師得大木則王喜以為能勝其任也	-13.1184
人之有技若已有之人之彦聖其心好之	-13.1184
徐子以告孟子孟子曰夫夷子信以	-13.1184
纇	-13.1184
三年之外門人治任將歸入揖於子貢相	-13.1184
是故誠者天之道也思誠者人之道也	-13.1184
朝而獲十禽嬖奚反命曰天下之良工也	-13.1184
將朝王王使人來曰寡人如就見者也	-13.1184
為小矣齊滕之路不為近矣反之而未	-13.1184
曰寡人之囿方四十里民猶以為大何也	-13.1184
此五人者亦有獻子之家則不與之友矣	-13.1184
詩云戎狄是膺荆舒是懲則莫我敢承	-13.1184
堯舜之知而不徧物急先	-13.1184
對曰昔者文王之治岐也耕者九一仕者	-13.1184
進取不忘其初孔子在陳何思魯之狂士	-13.1184
一國慕之一國之所慕天下慕之故沛然	-13.1185
而之舜謳歌者不謳歌堯之子而謳歌舜	-13.1185
何足與言仁義也云爾則不敬莫大乎是	-13.1185
倆	-13.1185
堤	-13.1185
民之歸仁也猶水之就下獸之走壙也	-13.1185
必也狂獧乎狂者進取獧者有所不	-13.1185
芸者不變誅其君弔其民如時雨降民大	-13.1185
禄之以天下弗顧也繫馬千駟弗視也	-13.1185
追我者誰也其僕曰	-13.1185
公明儀曰文王我師也周公豈欺我哉	-13.1185
曰文王何可當也由湯至	-13.1185
鞀	-13.1185
兆也兆足以行矣而不行而後去是以未	-13.1185
世無傳焉臣未之聞也	-13.1185
我竭力耕田共為子職而已矣	-13.1185
曰靈臺謂其沼曰靈沼樂其有麋鹿魚	-13.1185
澁	-13.1185
公侯皆方百里伯七十里子男五十里	-13.1185
矰	-13.1185
莫非其有也一民莫非其臣也然而文王	-13.1185
滴	-13.1186
惟於理有未窮故其知有不盡	-13.1186
也日月星辰繫焉萬物覆焉	-13.1186
曰夫舜惡得而禁之夫有所受之也	-13.1186
為後我民望之若大旱之望雲霓也	-13.1186
疾病子路請禱子曰有諸子路對曰有之	-13.1186
丑見王之敬子也未見所以敬王也	-13.1186
之胡齕曰王坐於堂上有牽牛而過堂下	-13.1186
者獨何與然則一羽之不舉	-13.1186
娱	-13.1186
不顯惟徳百辟其刑之	-13.1186
也去父母國之道也可以速而速可以	-13.1186
以其存心也君子以仁存心以禮存心	-13.1186
達使於四方不能專對雖多亦奚以為	-13.1186
擊柝者皆有常職以食於上	-13.1186
為不用力焉輿薪之不見為不用	-13.1186
之於色也耳之於聲也鼻之於臭也四肢	-13.1186
壷	-13.1186
天子一位公一位侯一位	-13.1186
民之憔悴於虐政未有甚於此時者也	-13.1186
苟合矣少有曰苟完矣富有曰苟美矣	-13.1186
瑱	-13.1187
則有一焉鑿斯池也築斯城也與民守之	-13.1187
詩周頌烈文之篇	-13.1187
不可謂不智也時舉於秦知	-13.1187
萊朱則見而知之若文王則聞而知之	-13.1187
𦙍	-13.1187
其故家遺俗流風善政猶有存者又有	-13.1187
智乎相秦而顯其君於天下可	-13.1187
人能充無欲害人之心而仁不可勝用也	-13.1187
者臣知五人焉知其罪者惟孔距心	-13.1187
琊	-13.1187
我故曰告子未嘗知義以其外之也	-13.1187
王曰寡人有疾寡人好貨	-13.1187
之不有天下猶益之於夏伊尹之於殷也	-13.1187
使天下仕者皆欲立於王之朝	-13.1187
又棄寡人而歸不識可以繼此而得見乎	-13.1187
故君子可欺以其方難罔以非其道	-13.1187
使校人畜之池校人烹之反命曰始	-13.1187
放乎四海有本者如是是之取爾	-13.1187
仁人無敵於天下以至仁伐至不	-13.1187
集有其一以一服八何以異於鄒敵楚哉	-13.1187
踣	-13.1187
膩	-13.1187
行道之人弗受蹴爾而與之乞人不屑也	-13.1187
子華使於齊冉子為其母請粟子曰與之	-13.1188
賢者有是心也人皆有之賢者能勿喪耳	-13.1188
姑舎女所學而從我	-13.1188
曰昔者王豹處於淇而河西善謳	-13.1188
齊宣王問曰交鄰國有道乎	-13.1188
然後驅而之善故民之從之也輕	-13.1188
養牲者五羊之皮食牛以要秦	-13.1188
曰夫物之不齊物之情也或相倍蓰	-13.1188
取爾也赤子匍匐將入井非赤子之罪也	-13.1188
梁之妻善哭其夫而變國俗有諸	-13.1188
燮	-13.1188
子曰父在觀其志父沒觀其行	-13.1188
厝	-13.1188
苗而不秀者有矣夫秀而不實者有矣夫	-13.1188
者伊尹也不惡汙君不辭小官者	-13.1188
子張曰書云髙宗諒隂三年不言何謂也	-13.1188
子比而同之是亂天下也	-13.1189
之去魯曰遲遲吾行也去父母國之道	-13.1189
王如好色與百姓同之於王何有	-13.1189
五月居廬未有命戒百官族人可謂曰知	-13.1189
是誠何心哉我非愛其財而易之以羊也	-13.1189
大夫受地視伯元士受地視子男	-13.1189
于周服侯服于周天命靡常殷士膚敏	-13.1189
責善朋友之道也父子責善賊恩之大者	-13.1189
覺此民也思天下之民匹夫匹婦有不與	-13.1189
曰詩云他人有心予忖度之夫子之謂也	-13.1189
姿	-13.1189
食而弗愛豕交之也愛而不敬獸畜之也	-13.1189
妒	-13.1189
惡鄭聲恐其亂樂也惡紫恐其亂朱也惡	-13.1189
信於友弗獲於上矣信於友有道事親弗	-13.1189
故王公不致敬盡禮則不得亟見之見且	-13.1189
或以告王良良曰請復之	-13.1189
思援弓繳而射之雖與之俱學弗若之矣	-13.1189
詩云經始靈臺經之營之庶民攻之	-13.1189
息邪說距詖行放淫辭	-13.119
心正而后身脩身脩而后家齊家齊而	-13.119
必有酒肉將徹必請所與問有餘必曰有	-13.119
木求魚雖不得魚無後災以若所	-13.119
滂	-13.119
妻帝之二女而不足以解憂富人之所欲	-13.119
迎之致敬以有禮則就之禮貌衰則去之	-13.119
迎之致敬以有禮言將行其言也則就之	-13.119
子曰孟之反不伐奔而殿將入門	-13.119
王如好貨與百姓同之於王何有	-13.119
人有雞犬放則知求之有放心而不知求	-13.119
所獨也諱名不諱姓姓所同也名所獨也	-13.119
曰居下位而不獲於上民不可得而治也	-13.119
人固如是乎在他人則誅之在弟則封之	-13.119
故天之生物必因其材而篤焉故栽者培	-13.119
禮貌未衰言弗行也則去之	-13.119
久矣哉由之行詐也無臣而	-13.1191
夫章子子父責善而不相遇也	-13.1191
不曰堅乎磨而不磷不曰白乎涅而不緇	-13.1191
縗	-13.1191
從許子之道則市賈不貳國中無	-13.1191
或曰有性善有性不善是故以堯	-13.1191
矣親之欲其貴也愛之欲其富也封之有	-13.1191
從獸無厭謂之荒樂酒無厭謂之亡	-13.1191
粧	-13.1191
孟子曰吾今而後知殺人親之重也	-13.1191
由孔子而來至於今百有餘	-13.1191
曰無傷也是乃仁術也	-13.1191
騑	-13.1191
朝於天子曰述職述職者述所職	-13.1192
不用則茅塞之矣今茅塞子之心矣	-13.1192
乎是其日夜之所息雨露之所潤非無萌	-13.1192
綜	-13.1192
身則道立尊賢則不惑親親則諸父	-13.1192
乃孔子則欲以微罪行	-13.1192
吾欲觀於轉附朝儛遵海而南放	-13.1192
子曰晉文公譎而不正齊桓公正而不譎	-13.1192
褊小吾何愛一牛	-13.1192
誅不仁也象至不仁封之有	-13.1192
從其白於外也故謂之外也	-13.1192
墐	-13.1192
故氣質之性君子有弗性者焉	-13.1192
以朝衣朝冠坐於塗炭推惡惡之心思與	-13.1192
暴見於王王語暴以好樂暴未有以對也	-13.1192
晏子對曰善哉問也天子適諸侯曰	-13.1193
詩云商之孫子其麗不億上帝	-13.1193
鉛	-13.1193
子何尊梓匠輪輿而輕為仁義者哉	-13.1193
和為貴先王之道斯為美小大由之	-13.1193
縟	-13.1193
粕	-13.1193
則不得娶男女居室人之大倫也如	-13.1193
而不足以舉一羽明足以察秋	-13.1193
吾見亦罕矣吾退而寒之者至矣吾	-13.1193
長人之長與且謂長者義乎長之者義乎	-13.1193
熊掌亦我所欲也二者不可得兼	-13.1194
今曰性善然則彼皆非與	-13.1194
子如通之則梓匠輪輿皆得食於子	-13.1194
語魯大師樂曰樂其可知也始作翕如也	-13.1194
又稱貸而益之使老稚轉乎溝壑惡在其	-13.1194
者王王不待大湯以七十里文王以百里	-13.1194
宐	-13.1194
鄰國之民不加少寡人之民不加多何也	-13.1194
仁義以事其兄是君臣父子兄弟去利	-13.1194
膠鬲舉於魚鹽之中管夷吾舉於士	-13.1194
􁈘	-13.1194
今言王若易然則文王不足法與	-13.1195
鄂	-13.1195
則天下何耆皆從易牙之於味也	-13.1195
利以事其兄是君臣父子兄弟終去仁義	-13.1195
耳之於聲也有同聽焉目之於色也有同	-13.1195
民為貴社稷次之君為輕	-13.1195
聽其言也觀其眸子人焉廋哉	-13.1195
利以相接然而不亡者未之有也	-13.1195
吾大者不能行其道又不能從其言也使	-13.1195
曰帝亦知告焉則不得妻也	-13.1195
又不受命是絶物也涕出而女於	-13.1195
人亦殺其父殺人之兄	-13.1195
王欲行王政則勿毁之矣	-13.1196
便嬖不足使令於前與	-13.1196
鳬	-13.1196
每事問或曰孰謂鄹人之子知禮乎入	-13.1196
貴者非良貴也趙孟之所貴趙孟能賤之	-13.1196
夫物則亦有然者也然則耆炙亦有外與	-13.1196
孟子對曰夫明堂者王者之堂也	-13.1196
無分於善不善也猶水之無分於東西也	-13.1196
文王之謂也子力行之亦以新子之國	-13.1196
於此有人焉入則孝出則	-13.1196
雖然欲常常而見之故源源而	-13.1197
侗而不愿悾悾而不信吾不知之矣	-13.1197
隱賢必以其道遺佚而不怨阨窮而不憫	-13.1197
頮	-13.1197
子曰後生可畏焉知來者之不如今也	-13.1197
瑜	-13.1197
吾弟則愛之秦人之弟則不愛也是以我	-13.1197
揖讓而升下而飲其爭也君子	-13.1197
我不忍以夫子之道反害夫子	-13.1198
者民亦樂其樂憂民之憂者民亦憂其憂	-13.1198
子曰巧言亂徳小不忍則亂大謀	-13.1198
不恒其德或承之羞	-13.1198
曰末之也已何必公山氏之之也	-13.1199
訑	-13.1199
萎	-13.1199
子曰回也非助我者也於吾言無所不	-13.1199
及寡人之身東敗於齊長子死焉西	-13.1199
子曰居上不寛為禮不敬臨	-13.12
於味天下期於易牙是天下之口相似也	-13.12
以紂為兄之子且以為君而有	-13.12
龍子曰治地莫善於助莫不善於貢貢者	-13.12
天下期於師曠是天下之耳相似也	-13.12
故曰仁者無敵王請勿疑	-13.12
曰好學近乎知力行近乎仁知恥近乎勇	-13.1201
丢	-13.1202
曰是猶或紾其兄之臂	-13.1202
仁義而罷三軍之師是三軍之士	-13.1202
伯夷叔齊虞仲夷逸朱張栁下惠少連	-13.1205
何獨至於人而疑之聖人與我同類者	-13.1205
蔕	-13.1206
瀕	-13.1208
子曰二三子偃之言是也前言戲之耳	-13.1208
之君將行仁政選擇而使子子必勉之夫	-13.121
扆	-13.121
徊	-13.121
笠	-13.1212
夫滕壤地褊小	-13.1213
紕	-13.1217
覓	-13.1217
甿	-13.1226
肓	-13.1227
央	-13.1976
杙	-13.198
孟子曰是焉得為大丈夫乎子未學禮乎	-13.199
撒	-13.1994
飯糗茹草若將終身	-13.1995
伐燕或問曰勸齊伐燕有諸曰未也沈同	-13.1998
胤	-13.1998
箾	-13.2
觿	-13.2
在上位不陵下在下位不援上正	-13.2001
陷邪辭知其所離遁辭知其所窮	-13.2001
㽔	-13.2001
予小子履敢用𤣥牡敢昭告于皇皇后帝	-13.2001
曰今之諸侯取之於民也猶禦也	-13.2002
滎	-13.2002
檾	-13.2003
堯曰咨爾舜天之厯數在爾躬允執其中	-13.2003
栁申詳無人乎繆公之側則不能安其身	-13.2003
刳	-13.2004
之兄弟事之數十年師死而遂倍之	-13.2004
不改而後誅之乎夫謂非其有而取之者	-13.2004
天下之父歸之也天下之父歸之其子焉	-13.2005
髙位是播其惡於衆也	-13.2005
曰敢問其次曰宗族稱孝焉鄉黨稱弟焉	-13.2005
後舉而加諸上位故曰王公之尊賢者也	-13.2005
瑟兮僴兮者恂慄也	-13.2005
足以有執也齊莊中正足以有敬也文理	-13.2005
檮	-13.2005
或曰世守也非身之所能為也效死勿去	-13.2005
罄	-13.2005
則吾不能我學不厭而教不倦也	-13.2006
明弗措也有弗行行之弗篤弗措也	-13.2006
牂	-13.2006
不為也非不能也故王之不王非挾	-13.2006
縵	-13.2006
豈若從辟世之士哉耰而不輟	-13.2007
寛則得衆信則民任焉敏則有功公則説	-13.2007
兗	-13.2007
如欲平治天下當今之世舍我其誰	-13.2007
奚冠曰冠素曰自織之與	-13.2007
之見可殺焉然後殺之故曰國人殺之也	-13.2007
也仁義充塞則率獸食人人將相食	-13.2007
詩云伐柯伐柯其則不逺	-13.2007
度然後知長短物皆然心為甚王請度之	-13.2007
詬	-13.2007
長而問挾有勲勞而問挾故而問皆所不	-13.2007
長君之惡其罪小逢君之惡其罪大今	-13.2008
曰無寓人於我室毁傷其薪木	-13.2008
噓	-13.2008
堯之於舜也使其子九男事之	-13.2008
素患難行乎患難君子無入而不自得焉	-13.2008
篠	-13.2008
之相去也千有餘里世之相後也千有餘	-13.2008
曰若是則夫子過孟賁逺矣	-13.2008
睪	-13.2009
物格者物理之極處無不到	-13.2009
懣	-13.2009
不識此語誠然乎哉孟子曰否	-13.2009
君之仁臣之敬子之孝父之慈	-13.2009
烝烝乂不格姦	-13.201
美舉欣欣然有喜色而相告曰吾王庶	-13.201
禄爵夫士也亦無王命	-13.201
鼠	-13.201
有慶慶以地入其疆土地荒蕪遺老失賢	-13.201
之性則能盡物之性能盡物之性則可以	-13.201
郛	-13.201
仲子齊之世家也兄戴蓋禄萬鍾	-13.201
茀	-13.2011
聞郊關之内有囿方四十里	-13.2011
曰惡是何言也昔者子貢問於	-13.2011
美目盼兮素以為絢兮何謂也	-13.2011
曰然曰周公知其將畔而使之與	-13.2011
子絶長者乎長者絶子乎	-13.2011
侁	-13.2011
遭宋桓司馬將要而殺之	-13.2011
失其民也失其民者失其心也	-13.2011
珠玉不得免焉乃屬其耆老而告之曰狄	-13.2011
者與民並耕而食饔飱而治今也滕有倉	-13.2011
孟子曰子誠齊人也知管仲晏子而已矣	-13.2011
禮曰諸侯耕助以供粢盛夫人蠶繅以	-13.2012
凍餒文王之民無凍餒之老者此之謂也	-13.2012
不仁不智無禮無義人役也人役而恥	-13.2012
焉繼之以不忍人之政而仁覆天下矣	-13.2012
曰吾君之子也謳歌者不謳歌益而謳歌	-13.2012
語人曰我不能是誠不能也為長者折枝	-13.2012
䇿其馬曰非敢後也馬不進也	-13.2012
擒	-13.2012
治人不治反其智禮人不答反其敬	-13.2012
汙池民無所安息棄田以	-13.2013
梟	-13.2013
而獨於富貴之中有私龍斷焉	-13.2013
孟子曰今有無名之指屈而不信	-13.2013
赦小過舉賢才曰焉知賢才而	-13.2013
閴	-13.2013
凡事豫則立不豫則廢言前定則不跲	-13.2013
不得妻不親迎則得妻必親迎乎	-13.2013
上士一位中士一位下士一位凡六等	-13.2013
之宫牆賜之牆也及肩窺見室家之好	-13.2013
問曰齊人將築薛吾甚恐如之何則可	-13.2013
紩	-13.2014
序詩書述仲尼之意作孟子七篇	-13.2014
其心有道所欲與之聚之所惡勿施爾也	-13.2014
髴	-13.2014
清斯濯纓濁斯濯足矣自取之也	-13.2014
若禹臯陶則見而知之若湯則聞而知之	-13.2014
託於諸侯禮也士之託於諸侯非禮也	-13.2014
擇乎中庸得一善則拳拳服膺而弗失	-13.2014
簜	-13.2014
類也聖人之於民亦類也出於其類	-13.2014
不受於褐寛博亦不受於萬	-13.2014
即位而哭百官有司莫敢不哀先之也	-13.2014
艶	-13.2014
言而不得其所以言故夫子發此以警之	-13.2014
肫肫其仁淵淵其淵浩浩其天	-13.2015
蝗	-13.2015
諳	-13.2015
子曰晏平仲善與人交久而敬之	-13.2015
不傳於賢而傳於子有諸	-13.2015
天下之民從之若堯崩之後不從堯之子	-13.2015
歸謂其人曰今日病矣予助	-13.2015
面而立堯帥諸侯北面而朝之	-13.2015
毁而後人毁之國必自伐而後人伐之	-13.2015
兊	-13.2015
其次致曲曲能有誠誠則形形則著著則	-13.2015
知虞公之不可諫而去之秦年已七十矣	-13.2015
顛覆湯之典刑伊尹放之於桐三年	-13.2015
無嚴諸侯惡聲至必反之	-13.2015
子謂子夏曰女為君子儒無為小人儒	-13.2016
彼以其爵我以吾義吾何慊乎哉	-13.2016
瑀	-13.2016
蚳鼃則善矣所以自為則吾不知也	-13.2016
滅國者五十驅虎豹犀象而逺之天下大	-13.2016
昴	-13.2016
忠者無妄恕者所以行乎忠	-13.2016
説者之於天下也其如示諸斯乎指其掌	-13.2016
為其可以言也今既數月矣未可以言與	-13.2016
之民老羸轉於溝壑壯者散而之四方者	-13.2016
命召不俟駕固將朝也聞王命而遂不果	-13.2016
声	-13.2016
之道闇然而日章小人之道的然而日亡	-13.2016
色惡不食臭惡不食失飪不食不時不食	-13.2016
不熟不如荑稗夫仁亦在乎熟之而已矣	-13.2016
曰庖有肥肉廏有肥馬民有	-13.2016
萬室之國一人陶則可乎曰不可	-13.2016
百里奚虞人也晉人以垂棘之璧與屈	-13.2017
妻再命曰尊賢育才以彰有	-13.2017
孟子曰春秋無義戰彼善於此則有之矣	-13.2017
寡助之至親戚畔之多助之至天下順之	-13.2017
任人有問屋廬子曰禮與食孰重	-13.2017
朝暮見反齊滕之路未嘗與之言行事也	-13.2017
王無親臣矣昔者所進今日不知其亡也	-13.2017
相往來雞豚黍稷酒醴牛羊相宴樂	-13.2017
子曰其為人也孝弟而好犯上者鮮矣不	-13.2017
君子犯義小人犯刑國之所存者幸也	-13.2017
攻親戚之所畔故君子有不戰戰必勝矣	-13.2017
癡	-13.2017
孟子曰君子之於物也愛之而弗仁	-13.2017
望見馮婦趨而迎之馮婦攘臂下車衆皆	-13.2017
嫂溺不援是豺狼也男女授受不親禮也	-13.2017
當今之時萬乗之國行仁政民之	-13.2017
必若桀紂者也故益伊尹周公不有天下	-13.2017
不大聲以色子曰聲色之於以化民末也	-13.2017
塗天下之欲疾其君者皆欲赴愬於王	-13.2017
富不可及也彼以其富我以吾仁	-13.2017
色之重者與禮之輕者而比之奚翅色重	-13.2017
明焉百姓之不見保為不用恩焉	-13.2018
今之欲王者猶七年之病求三年之艾也	-13.2018
為巨擘焉雖然仲子惡能	-13.2018
十非帛不煖七十非肉不飽不煖不飽謂	-13.2018
穉	-13.2018
兄離母處於於陵他日歸則有饋其兄生	-13.2018
挾長不挾貴不挾兄弟而友友也者友其	-13.2018
人所敬在此所長在彼果在外非由内也	-13.2018
齊宣王問曰齊桓晉文之事可得聞乎	-13.2018
務也堯舜之仁不徧愛人急親賢也	-13.2018
横政之所出横民之所止不忍居也	-13.2018
耕者皆欲耕於王之野商賈皆欲	-13.2018
危士臣構怨於諸侯然後快於心與	-13.2018
强哉矯中立而不倚强哉矯國有道不	-13.2018
食之矣且子食志乎食功乎曰食志	-13.2018
久矣如得其情則哀矜而勿喜	-13.2018
以承三聖者豈好辯哉予不得已也	-13.2018
其良能也所不慮而知者其良知也	-13.2018
此惟救死而恐不贍奚暇治禮義哉	-13.2018
且比化者無使土親膚於人心獨無恔乎	-13.2018
子曰未能事人焉能事鬼	-13.2018
於武丁賢聖之君六七作天下歸殷	-13.2018
池非不深也兵革非不堅利也米粟非不	-13.2018
他日過之狐狸食之蠅蚋姑嘬之	-13.2018
孟子曰以佚道使民雖勞不怨	-13.2018
蘗	-13.2019
㧻	-13.2019
敔	-13.2019
仁者無不愛也急親賢之為務	-13.2019
夏日則飲水然則飲食亦在外也	-13.2019
孟子曰不仁者可與言哉安其危而利其	-13.2019
父母也曰此莫非王事我獨賢勞也故	-13.2019
眡	-13.2019
毁瓦畫墁其志將以求食也則子食之乎	-13.2019
人道敏政地道敏樹夫政也者蒲盧也	-13.2019
學焉而後臣之故不勞而霸	-13.2019
大匠誨人必以規矩學者亦必以規矩	-13.2019
變塞焉强哉矯國無道至死不變强哉矯	-13.2019
公都子曰外人皆稱夫子好辯敢問何也	-13.2019
藏於王之市行旅皆欲出於王之	-13.2019
芧	-13.2019
也去齊接淅而行去他國之道也	-13.202
茸	-13.202
其為氣也至大至剛以直養而無害則塞	-13.202
俘	-13.202
孟子曰子過矣禹之治水水之道也	-13.202
仰不足以事父母俯不足以畜妻子樂	-13.202
於親矣誠身有道不明乎善不誠其身矣	-13.202
必若舜禹而又有天子薦之者	-13.202
詛	-13.202
求水火無弗與者至足矣	-13.202
聖人治天下使有菽粟如水火	-13.202
豆羮得之則生弗得則死嘑爾而與之	-13.202
顧父母之養三不孝也從耳目之欲以	-13.202
曰鄒人與楚人戰則王以為孰勝	-13.202
敬弟則敬果在外非由内也	-13.202
及其廣厚載華嶽而不重振河海而不洩	-13.202
吾王不遊吾何以休吾王不豫吾何以助	-13.202
孟季子問公都子曰何以謂義内也	-13.202
如使予欲富辭十萬而受萬是為欲富乎	-13.202
孟子曰附之以韓魏之家	-13.202
王在靈囿麀鹿攸伏麀鹿濯濯白鳥鶴鶴	-13.202
齊景公有馬千駟死之日民無徳而稱焉	-13.202
愛也以小易大彼惡知之王若	-13.2021
籓	-13.2021
萬章問曰人有言伊尹以割烹要湯有諸	-13.2021
出弔於滕王使蓋大夫王驩為輔行王	-13.2021
于三危殛鯀于羽山四罪而天下咸服	-13.2021
氏亦樹塞門邦君為兩君之好有	-13.2021
屋廬子曰季子不得之鄒儲子得之平陸	-13.2021
必使仰足以事父母俯足以畜妻子樂	-13.2021
麫	-13.2022
刅	-13.2022
驗風俗之盛衰見政治	-13.2022
萬章問曰詩云娶妻如之何必	-13.2022
於罪然後從而刑之是罔民也	-13.2022
曰為肥甘不足於口與輕煖不足於體與	-13.2022
上世嘗有不葬其親者	-13.2022
事孰為大事親為大守孰為大守身為大	-13.2022
曰否昔者有饋生魚於鄭子産	-13.2022
哉人之有技媢疾以惡之人之	-13.2022
鮒	-13.2022
孼	-13.2022
公孫丑問曰膾炙與羊棗孰美	-13.2022
蘧伯玉使人於孔子孔子與之坐而問焉	-13.2022
伯夷叔齊餓于首陽之下民到于今稱之	-13.2022
闚	-13.2022
上所以逮賤也燕毛所以序齒也	-13.2022
去聖人之世若此其未逺也	-13.2022
彼濯濯也人見其濯濯也以	-13.2022
蒿悽愴此百物之精也神之著也	-13.2022
今若此與其妾訕其良人而相泣於中庭	-13.2022
所以辨貴賤也序事所以辨賢也旅酬下	-13.2022
款	-13.2022
為之牧之者則必為之求牧與芻矣求牧	-13.2022
若無罪而就死地對曰然則廢釁	-13.2022
子貢曰見其禮而知其政聞其樂而知其	-13.2023
盆成括仕於齊孟子曰死矣盆成括	-13.2023
必有所不召之臣欲有謀焉則就之其尊	-13.2023
然則子之失伍也亦多矣凶年饑	-13.2023
政矣子曰尊五美屏四惡斯可以從政矣	-13.2023
飢者甘食渴者甘飲	-13.2023
孟子曰今有人日攘其鄰之雞者或	-13.2023
舉爾所知爾所不知人其舎諸	-13.2023
躰	-13.2023
公都子曰匡章通國皆稱不孝焉夫子與	-13.2023
方命虐民飲食若流流連荒亡為諸侯憂	-13.2023
子曰由也女聞六言六蔽矣乎對曰未也	-13.2023
夫徐行者豈人所不能哉所不為也	-13.2023
子曰語之而不惰者其回也與	-13.2023
為求若所欲盡心力而為之後必有災	-13.2023
罸	-13.2023
王之諸臣皆足以供之而王豈為是哉	-13.2024
王曰然誠有百姓者齊國雖	-13.2024
亦猶斧斤之於木也旦旦而伐之可以	-13.2024
曰若是則弟子之惑滋甚且以文王之	-13.2024
之於弟也不藏怒焉不宿怨焉親愛之而	-13.2024
孔子曰惡似而非者惡莠恐其亂	-13.2024
伯玉行年五十而知四十九年之非	-13.2024
適宋與弟子習禮大樹	-13.2024
啖	-13.2024
言顧行行顧言君子胡不慥慥爾	-13.2024
下之言性也則故而已矣故者以利為本	-13.2024
曰堯舜性之也湯武身之也五霸假之也	-13.2024
糳	-13.2025
能行此五者則鄰國之民仰之若父母矣	-13.2025
氂	-13.2025
雖然今日之事君事也我不敢廢抽矢	-13.2025
禕	-13.2025
大國五年小國七年必為政於天下矣	-13.2025
孟子曰古之賢王好善而忘勢	-13.2025
也其為物不貳則其生物不測	-13.2025
酣	-13.2025
不得而非其上者非也為民上而不與	-13.2025
子曰君子矜而不爭羣而不黨	-13.2025
惡者可以懲創人之逸志	-13.2025
必有酒肉將徹不請所與問有餘曰亡矣	-13.2025
苟得也死亦我所惡所惡有甚於死者	-13.2026
霑	-13.2026
麻縷絲絮輕重同則賈相若五	-13.2026
禇	-13.2026
聞君子之大道也則足以殺其軀而已矣	-13.2027
為能若民則無恒産因無恒心	-13.2027
綵	-13.2027
子曰譬如為山未成一簣止吾止也	-13.2027
稲	-13.2027
悮	-13.2027
其妻問所與飲食者則盡富貴也	-13.2027
昆弟不怨敬大臣則不眩體	-13.2028
問其與飲食者盡富貴也而未	-13.2028
張問崇徳辨惑子曰主忠信徙義崇徳也	-13.2028
上下一於恭敬則天地自位萬物自育	-13.2028
菽粟如水火而民焉有不仁者乎	-13.2028
所求於人者重而所以自任者輕	-13.2028
孫賈問曰與其媚於奥寧媚於竈何謂也	-13.2028
為是其智弗若與曰非然也	-13.2028
孟子曰身不行道不行於妻子使	-13.2028
戦	-13.2028
循天理則不求利而自無不利	-13.2029
陸㙄經世驪珠曰	-13.2029
觯	-13.2029
為為肉也其知者以為為無禮也	-13.2029
名實未加於上下而去之仁者固如此乎	-13.2029
與魚鼈不可勝食材木不可勝用	-13.2029
腑	-13.203
鄆	-13.203
非以干禄也言語必信非以正行也	-13.203
矻	-13.203
喋	-13.203
臻問曰前日於齊王餽兼金一百而不受	-13.203
抑為采色不足視於目與	-13.2031
縠	-13.2031
存乎人者莫良於眸子眸子不能掩其惡	-13.2031
吾非斯人之徒與而誰與	-13.2032
飢餓不能出門户君聞之曰	-13.2032
凶則移其民於河東移其粟於河	-13.2033
國家閒暇及是時般樂怠敖是自求禍也	-13.2033
曰是欲終之而不可得也雖加一日愈於	-13.2033
不知其姣也不知子都之姣者無目者也	-13.2033
是故賢君必恭儉禮下取於民有制	-13.2033
人人有貴於己者弗思耳	-13.2033
曰是奚足哉城門之軌兩馬之力與	-13.2034
身也尊賢也親親也敬大臣也體羣臣也	-13.2034
刷	-13.2034
居簡而行簡無乃大簡乎	-13.2034
盡夫天理之極而無一毫人欲之私	-13.2034
曰先生之志則大矣先生之號則不可	-13.2034
罍	-13.2035
其詩曰畜君何尤畜君者好君也	-13.2035
白圭之玷尚可磨也斯言之玷不可為也	-13.2035
氐	-13.2036
魯君之宋呼於垤澤之門	-13.2036
地於秦七百里南辱於楚寡人	-13.2036
美在其中而暢於四支	-13.2036
同則地有肥磽雨露之養人事之不齊也	-13.2036
璠	-13.2037
而徹其實皆什一也徹者徹也助者藉也	-13.2037
蜉	-13.2038
褚	-13.2038
子之武城聞弦歌之聲	-13.2039
擩	-13.204
椇	-13.2041
轐	-13.2043
腒	-13.2046
旜	-13.2051
繂	-13.2052
頖	-13.2059
罳	-13.206
僬	-13.2068
缶	-13.2077
芹	-13.2883
䝿	-13.2886
禮以恭敬辭遜為本而有節文度數之詳	-13.2894
頷	-13.2898
藎	-13.29
厦	-13.29
曰有伊尹之志則可無伊尹之志則篡	-13.2901
之也子曰何為其然也君子可逝也不可	-13.2902
子曰父母在不逺遊遊必有方	-13.2905
黏	-13.2907
搔	-13.2907
則可以殺之今以燕伐燕何為勸之哉	-13.2907
乿	-13.2908
臰	-13.2908
如切如磋者道學也如琢如磨者自脩也	-13.2909
絇	-13.2909
拏	-13.291
天下之大本知天地之化育夫焉有所倚	-13.291
撑	-13.2911
恐季孫之憂不在顓臾而在蕭牆之内也	-13.2911
雊	-13.2911
糠	-13.2912
磊	-13.2912
鯁	-13.2912
遅	-13.2914
箅	-13.2914
諸侯放恣處士横議楊朱墨翟	-13.2914
視之而弗見聽之而弗聞體物而不可遺	-13.2914
㨂	-13.2915
執其兩端用其中於民其斯以為舜乎	-13.2915
君子未有不如此而蚤有譽於天下者也	-13.2915
眚	-13.2915
澌	-13.2915
始言一理中散為萬事末復合為一理	-13.2915
反古之道如此者烖及其身者也	-13.2915
寡小君願見孔子辭謝不得已而見之	-13.2915
棒	-13.2916
之間不責善責善則離離則不祥莫大焉	-13.2916
是以聲名洋溢乎中國施及蠻貊	-13.2916
教以人倫父子有親君臣有義夫婦有	-13.2916
若已推而内之溝中其自任以天下之重	-13.2917
崛	-13.2917
儋	-13.2917
貲	-13.2917
天油然作雲沛然下雨則苗浡然興之矣	-13.2917
匜	-13.2917
聮	-13.2917
苗之不長而揠之者芒芒然	-13.2917
諸侯有行文王之政者七年之内必	-13.2917
去三年不反然後收其田里	-13.2917
請勿復敢見矣曰坐我明語子昔者魯	-13.2917
大夫皆曰可殺勿聽國人皆曰可殺然後	-13.2918
曰諫行言聽膏澤下於民有故而去則	-13.2918
萬章問曰舜往于田號泣于旻天何	-13.2918
惨	-13.2918
沍	-13.2918
漳	-13.2918
或告寡人曰孟子之後喪踰前喪是以不	-13.2918
蕺	-13.2918
牗	-13.2918
如此故就湯而說之以伐夏救民	-13.2918
摟諸侯以伐諸侯者也故曰五	-13.2919
圏	-13.2919
之禮所以祀乎其先也明乎郊社之禮禘	-13.2919
舜為天子臯陶為士瞽瞍殺人則如之何	-13.2919
説之雖不以道説也及其使人也求備焉	-13.2919
許子必織布而後衣乎	-13.2919
葛伯放而不祀湯使人問之曰何為不祀	-13.2919
告文公曰逺方之人聞君行仁政願受一	-13.2919
為也在我者皆古之制也吾何畏彼哉	-13.2919
逃楊必歸於儒歸斯受之而已矣	-13.2919
故天子討而不伐諸侯伐而不討五霸者	-13.2919
敞	-13.2919
獲乎上有道不信乎朋友不獲乎上矣	-13.2919
子曰三年學不至於穀不易得也	-13.292
予三宿而出晝於予心猶以為速	-13.292
諫則不行言則不聽膏澤不下於民	-13.292
珮	-13.292
僵	-13.292
孟子對曰有惟仁者為能以大事小是故	-13.292
飱無百官有司故二十取一而足也	-13.292
實府庫充有司莫以告是上慢而殘下也	-13.292
合乎天理之正而即乎人心之安	-13.292
重於羽者豈謂一鉤金與一輿羽之謂哉	-13.292
將去之去邠踰梁山邑于岐山之下居焉	-13.292
賢者識其大者不賢者識其小者	-13.292
啓我後人咸以正無缺	-13.2921
孟子曰予豈好辯哉予不得已也	-13.2921
齊也不可得矣引而置之莊嶽之	-13.2921
今天下車同軌書同文行同倫	-13.2921
親親也官盛任使所以勸大臣也忠信重	-13.2921
擕	-13.2921
禜	-13.2921
曰言無實不祥不祥之實蔽賢者當之	-13.2921
罪無罪惟我在天下曷敢有越厥志一人	-13.2921
鏞	-13.2921
辝	-13.2921
所惡執一者為其賊道也舉一而廢百也	-13.2922
曰無以供犧牲也湯使遺之牛羊葛伯食	-13.2922
虫	-13.2922
豬	-13.2922
昔者舜薦禹於天十有七年舜崩三年之	-13.2922
不知其人可乎是以論其世也是尚友也	-13.2922
宰我曰以予觀於夫子賢於堯舜逺矣	-13.2922
驕者吝之枝葉吝者驕之本根	-13.2923
子曰亦各言其志也已矣曰夫子何哂	-13.2923
瞽瞍亦北面而朝之舜見瞽瞍其	-13.2923
聞大勇於夫子矣自反而不縮雖褐寛	-13.2923
為其殺是童子而征之四海之内皆	-13.2923
舜視棄天下猶棄敝蹝也竊負而逃遵海	-13.2923
齊宣王問卿孟子曰王何卿之問也	-13.2923
來百工則財用足柔逺人則四方歸之	-13.2923
湯事葛文王事昆夷惟	-13.2923
惠公曰吾於子思則師之矣吾於	-13.2923
而從舜也禹薦益於天七年禹崩三年之	-13.2923
飢者易為食渴者易為飲	-13.2923
髣	-13.2923
子游曰事君數斯辱矣朋友數斯疏矣	-13.2923
康子饋藥拜而受之曰丘未達不敢嘗	-13.2923
喪畢益避禹之子於箕山之	-13.2923
嘉樂君子憲憲令徳	-13.2923
萬章問曰孔子在陳曰盍歸乎來吾黨之	-13.2923
歩之外也其至爾力也其中非爾力也	-13.2924
禋	-13.2924
其性則皆善也語其才則有下愚之不移	-13.2924
哀公問曰何為則民服孔子對曰舉直錯	-13.2924
綆	-13.2924
樊遲問仁子曰愛人問知子曰知人	-13.2924
顔般則友之矣王順長息則事我者也	-13.2924
有是四端而自謂不能者自賊者也	-13.2924
霸晏子以其君顯管仲晏子猶不足為與	-13.2924
莫之為而為者天也莫之致而至者命也	-13.2924
蚳鼃諫於王而不用致為臣而去	-13.2924
者其交也以道其餽也以禮斯可受禦與	-13.2925
卿為上擯大夫為承擯士為紹擯	-13.2925
拍	-13.2925
皓	-13.2925
命曰誅不孝無易樹子無以妾	-13.2925
戛	-13.2925
思以一毫挫於人若撻之於市朝	-13.2925
柟	-13.2925
孟子曰知者無不知也當務之為急	-13.2925
管仲得君如彼其專也行乎國政如彼其	-13.2925
縻	-13.2925
達乎四境而齊有其民矣	-13.2925
之類也王之不王是折枝之類也	-13.2925
小人樂其樂而利其利此以沒世不忘也	-13.2925
嶧	-13.2926
此其大略也若夫潤澤之則在君與子矣	-13.2926
軄	-13.2926
犒	-13.2926
纖	-13.2926
必志於彀學者亦必志於彀	-13.2926
今燕虐其民王往而征之民以為	-13.2926
匍匐往將食之三咽然後耳有聞目有見	-13.2926
上漢趙氏注宋孫奭音義并疏	-13.2926
崑	-13.2926
則誰敬曰敬兄酌則誰先曰先酌	-13.2926
曰吾聞君子不黨君子亦黨乎君取於吳	-13.2926
奪伯氏駢邑三百飯疏食没齒無怨言	-13.2926
曰求君子疾夫舍曰欲之而必為之辭	-13.2926
次國地方七十里君十卿禄	-13.2926
又問子曰由也千乗之國可使治其賦也	-13.2927
柷	-13.2927
成公無道至於失國而武子周旋其	-13.2927
而無父曰孤此四者天下之窮民而無	-13.2927
乗之君視刺萬乗之君若刺褐夫	-13.2927
顔淵季路侍子曰盍各言爾志子路曰願	-13.2927
日矣曰昔者曰昔者則我出此言也不亦	-13.2927
身見於世窮則獨善其身達則兼善天下	-13.2927
殂	-13.2927
曰莫我知也夫子貢曰何為其莫知子也	-13.2927
恐傷人巫匠亦然故術不可不慎也	-13.2927
下氣怡色柔聲以諫	-13.2928
婐	-13.2928
若識得中則手動足履	-13.2928
驅飛廉於海隅而戮之	-13.2928
也故聞伯夷之風者頑夫亷懦夫有立志	-13.2928
黄紹我周王見休惟臣附于大邑周	-13.2928
士止於千里之外則讒諂面	-13.2928
莵	-13.2928
人之心能無不實乃為有以自成	-13.2928
拄	-13.2928
孟子曰無傷也士憎兹多口	-13.2928
下漢趙氏注宋孫奭音義并疏	-13.2928
事道也事道奚獵較也曰孔子先簿正祭	-13.2928
修飾之東里子産潤色之	-13.2928
曰庖有肥肉廐有肥馬民有	-13.2928
子游曰吾友張也為難能也然而未仁	-13.2928
孟子曰其詳不可得聞也諸侯惡其害	-13.2928
為我辭焉如有復我者則吾必在汶上矣	-13.2928
鞔	-13.2928
朐	-13.2928
筩	-13.2928
淸	-13.2928
然人當勉其難而不可忽其易也	-13.2928
受之受之何義也曰君之於氓也固周之	-13.2928
始作俑者其無後乎為其象人而用之也	-13.2928
心之靈莫不有知而天下之物莫不有理	-13.2928
畝百畝之糞上農夫食九人上次食八人	-13.2928
事親事之本也孰不為守守身守之本也	-13.2929
之齊語也則使齊人傅諸使楚人傅諸	-13.2929
國人皆有所矜式子盍為我言之	-13.2929
問於曾子曾子曰上失其道民散	-13.2929
如其自視欿然則過人逺矣	-13.2929
與言行事何也曰夫既或治之予何言哉	-13.2929
章内三言得失而語益加切	-13.2929
聞文王十尺湯九尺今交九尺四寸以長	-13.2929
也故聞伯夷之風者頑夫廉懦夫有立志	-13.2929
之道可以前知國家將興必有禎祥國家	-13.293
善必先知之不善必先知之故至誠如神	-13.293
和順積中英華發外	-13.293
亡必有妖孽見乎蓍龜動乎四體禍福	-13.293
志動氣者什九氣動志者什一	-13.293
塤	-13.293
咀	-13.293
由君子觀之則人之所以求富貴利	-13.293
然則舜有天下也孰與之曰天與之	-13.293
豈惟口腹有飢渴之害人心亦皆有害	-13.293
顔淵死子曰噫天喪予天喪予	-13.293
有人於此力不能勝一匹雛則	-13.293
然友反命世子曰然是誠在我	-13.293
琚	-13.293
卷石之多及其廣大草木生之禽獸居之	-13.2931
詩云殷鑒不逺在夏后之世此之謂也	-13.2931
曰與少樂樂與衆樂樂孰樂曰不若與衆	-13.2931
戡	-13.2931
蠭	-13.2931
富於周公而求也為之聚斂而附益之	-13.2931
令尹子文三仕為令尹無喜色三已之無	-13.2931
不知手之舞之足之蹈之	-13.2931
樽	-13.2931
為王誦之王曰此則寡人之罪也	-13.2931
滕定公薨世子謂然友曰昔者孟子	-13.2932
踧	-13.2932
蕞	-13.2932
舍館定然後求見長者乎	-13.2932
迅雷甚雨則必變雖夜必興衣服冠而坐	-13.2932
食之以時用之以禮財不可勝用也	-13.2932
是未得飲食之正也飢渴害之也	-13.2932
與傷惠可以死可以無死死傷勇	-13.2932
轝	-13.2932
二母彘無失其時老者足以無失肉矣百	-13.2932
所以明人倫也人倫明於上小民親於下	-13.2932
摟其處子則得妻不摟則不得妻則將摟	-13.2932
櫨	-13.2932
然友之鄒問於孟子孟子曰不亦善乎親	-13.2932
怠於政事子路曰夫子可以行矣	-13.2932
人見其禽獸也而以為未嘗有才焉者	-13.2932
行而世為天下法言而世為天下則	-13.2932
㦲	-13.2933
譖膚受之愬不行焉可謂逺也已矣	-13.2933
己任不亦重乎死而後已不亦逺乎	-13.2933
欂	-13.2933
富有天下而不足以解憂貴人之所欲貴	-13.2933
堯舜治天下夫子又推其道以垂教萬世	-13.2933
崔子弑齊君陳文子有馬十乗棄而違之	-13.2933
曰子何以其志為哉其有功於子可食而	-13.2933
擢	-13.2933
曩	-13.2934
莝	-13.2934
告則廢人之大倫以懟父母是以不告也	-13.2934
徧國中無與立談者卒之東郭墦	-13.2934
遫	-13.2934
孟子自范之齊望見齊王之子喟然	-13.2934
曰人皆有所不忍達之於其所忍仁也	-13.2934
壹戎衣而有天下身不失天下之顯名尊	-13.2934
爾而求諸逺事在易而求諸難人人親其	-13.2934
孟子曰以力假仁者霸霸必有大國以	-13.2935
澧	-13.2935
移氣養移體大哉居乎夫非盡人之子與	-13.2935
養生喪死無憾王道之始也	-13.2935
褓	-13.2935
繼而有師命不可以請久於齊非我志也	-13.2935
飢者弗食勞者弗息睊睊胥讒民乃作慝	-13.2935
校人出曰孰謂子産智予	-13.2935
學問之事固非一端然其道則在於求	-13.2935
庳有庳之人奚罪焉仁	-13.2935
惛	-13.2935
拊	-13.2935
其急也君子之難仕何也曰丈夫生而願	-13.2935
廐焚子退朝曰傷人乎不問馬	-13.2935
敢問或曰放者何謂也曰象不得有	-13.2935
理義之悦我心猶芻豢之悦我口	-13.2935
今滕絶長補短將五十里也猶可以	-13.2936
吾恥之周之亦可受也免死而已矣	-13.2936
懃	-13.2936
教我我雖不敏請嘗試之	-13.2936
孟子曰有布縷之征粟米之征力役之征	-13.2936
于囊思戢用光弓矢斯張干戈戚揚爰方	-13.2936
孔子亦矙其亡也而往拜之	-13.2936
曰爾為爾我為我雖袒裼裸裎於我側	-13.2936
者公劉好貨詩云乃積乃倉乃裹餱糧于	-13.2936
孟子對曰王好戰請以戰喻	-13.2936
將命者出户取瑟而歌使之聞之	-13.2936
經正則庶民興庶民興斯無邪慝矣	-13.2937
有勇而無義為亂小人有勇而無義為盜	-13.2937
夹	-13.2937
決諸西方則西流人性之	-13.2937
兑	-13.2937
將以復進也此所謂養口體者也若	-13.2937
茵	-13.2937
跗	-13.2937
而王子若彼者其居使之然也	-13.2938
守者曰此非吾君也何其聲之似	-13.2938
於其所然後迎尸而祭於奥	-13.2938
子曰君子惠而不費勞而不怨欲而不貪	-13.2938
舍則失之是求有益於得也求在我者也	-13.2938
自戒懼而約之以至於至靜之中	-13.2938
能決死生於危迫之際	-13.2938
年然後免於父母之懷夫三年之喪	-13.2938
曰恭者不侮人儉者不奪人侮奪人之君	-13.2938
蠅	-13.2938
寧亡己之財而不忍傷民之力	-13.2938
人病舍其田而芸人之田	-13.2939
孟子曰周于利者凶年不能殺周于	-13.2939
因民之所利而利之斯不亦惠而不費乎	-13.2939
者何也曰仁也君子亦仁而已矣何必同	-13.2939
人亦殺其兄然則非自殺之也一間耳	-13.2939
匙	-13.2939
可飲而飲不可飲而不飲皆在其中	-13.2939
郿	-13.294
乎孟子曰何以異於人哉堯舜與人同耳	-13.294
塋	-13.294
獨孤臣孽子其操心也危其慮患也深故	-13.294
退必復命曰賔不顧矣	-13.2941
碣	-13.2941
子曰恭而無禮則勞慎而無禮則葸	-13.2941
琱	-13.2941
筍	-13.2941
曽子有疾召門弟子曰啓予足啓予手	-13.2941
蠃	-13.2942
也不娶無子絶先祖祀	-13.2943
孝哉閔子騫人不間於其父母昆弟之言	-13.2943
埶	-13.2943
三萬四千六百八十五字	-13.2943
則何以異於教玉人彫琢玉哉	-13.2944
麕	-13.2944
魚膾芥醬麋腥醢醬	-13.2944
曰魯繆公之時公儀子為政子	-13.2944
訃	-13.2945
宋牼將之楚孟子遇於石丘	-13.2945
瘧	-13.2945
讚	-13.2945
恥之願比死者一洒之如之何則可	-13.2945
子思為臣魯之削也滋甚	-13.2945
賵	-13.2946
詩云迨天之未隂雨徹彼桑土綢繆牖	-13.2946
瑶	-13.2946
古之人未嘗不欲仕也又惡不由其道	-13.2947
牆相從則父母國人皆賤之	-13.2947
界謂治地分田經畫其溝塗封植之界也	-13.2948
臊	-13.2948
古者四時之田皆於農隙以講武事	-13.2948
琅	-13.2949
笞	-13.2952
隤	-13.2954
溼	-13.2955
是故暴君汙吏必慢其經界經界	-13.2955
鱐	-13.2959
鱻	-13.2963
杅	-13.2963
櫛	-13.2968
胇	-13.2977
翰林院八品筆帖式	-13.2979
鐲	-13.3867
鐃	-13.3882
兇	-13.3895
往之女家必敬必戒無違夫子以順	-13.3899
儐	-13.39
嘔	-13.3901
碏	-13.3904
禹思天下有溺者由已溺之	-13.3906
站	-13.3907
熒	-13.3907
駔	-13.3907
蒭	-13.3909
矧是樞機興戎出好	-13.3909
潤屋德潤身心廣體胖故君子必誠其意	-13.3909
冉有曰夫子為衛君乎子貢曰諾吾	-13.391
境之内不治則如之何王顧左右而言他	-13.391
法於天下可傳於後世我由未免	-13.3913
粮	-13.3913
故君子居易以俟命小人行險以徼幸	-13.3913
子曰愚而好自用賤而好自	-13.3914
以仁禮存心言以是存於心而不忘也	-13.3914
為拙工改廢繩墨羿不為拙射變其彀率	-13.3914
此匹夫之勇敵一人者也王請大之	-13.3914
䆫	-13.3914
王曰禮為舊君有服何如斯可為服矣	-13.3915
喪踰前喪君無見焉公曰諾	-13.3915
宫室宗廟祭祀之禮無諸侯幣帛饔	-13.3915
靜靜而后能安安而后能慮慮而后能得	-13.3915
喉	-13.3915
嘲	-13.3915
咤	-13.3915
讃	-13.3916
秫	-13.3916
於父子也義之於君臣也禮之於賔主也	-13.3917
何為不祀曰無以供粢盛也湯使亳衆	-13.3917
鄼	-13.3917
銜物也然則慊亦但為心有所銜之	-13.3917
謂孔子曰四方之君子不辱欲與寡君為	-13.3918
已有恥使於四方不辱君命可謂士矣	-13.3918
伯夷伯夷曰父命也遂逃去叔齊亦不	-13.3918
恡	-13.3918
魏何晏集解梁皇侃義疏論語	-13.3918
子曰赤之適齊也乗肥馬衣輕裘	-13.3918
骼	-13.3918
如切如磋者道學也如琢如磨者自修也	-13.3918
期之喪達乎大夫三年之喪達乎天子	-13.3918
二女女焉百官牛羊倉廩備以養舜於畎	-13.3918
廩人繼粟庖人繼肉不以君命將之	-13.3918
瞳	-13.3919
犇	-13.3919
天地以生物為心而所生之物因各得夫	-13.3919
也食前方丈侍妾數百人我得志弗為也	-13.3919
今惡死亡而樂不仁是猶惡醉而强酒	-13.3919
曰從其大體為大人從其小體為小人	-13.3919
為賤故從而征之征商自此賤丈夫始矣	-13.3919
人潔已以進與其潔也不保其往也	-13.3919
則吾不知也公明髙曰是非爾所知也	-13.392
子貢曰惜乎夫子之説君子也駟不及舌	-13.392
誠者非自成己而已也所以成物也	-13.392
譊	-13.392
袞	-13.392
叮	-13.392
孟子曰有不虞之譽有求全之毁	-13.392
待我以横逆則君子必自反也	-13.392
非不足而儉於百里太公之封於齊也亦	-13.392
沫	-13.3921
錙	-13.3921
是以惟仁者宜在髙位不仁而在	-13.3921
侈用則傷財傷財必至於害民	-13.3921
曰非富天下也為匹夫匹婦復讎也	-13.3921
須從性偏難克處克將去	-13.3921
瞽瞍不能以不善及其子而反見化於其	-13.3921
曰長息問於公明髙曰舜往于田則吾	-13.3921
舉首而望之欲以為君齊楚雖大何畏焉	-13.3921
故士得已焉達不離道故民不失望焉	-13.3921
謂然友曰吾他日未嘗學問好馳馬試	-13.3921
䢴	-13.3921
𣲖	-13.3921
宜若登天然似不可及也何不使彼為可	-13.3921
携	-13.3921
王誰與為善一薛居州獨如宋王何	-13.3921
褁	-13.3922
水由地中行江淮河漢是也險阻既	-13.3922
彬	-13.3922
抝	-13.3922
沱	-13.3922
博吾不惴焉自反而縮雖千萬人吾往矣	-13.3922
使齊人傅之曰一齊人傅之衆楚人咻之	-13.3922
其寳而迷其邦可謂仁乎曰不可	-13.3922
守死者篤信之效善道者好學之功	-13.3923
卒然問曰天下惡乎定吾對曰定于一	-13.3923
陶冶亦以其械器易粟者豈為厲農夫哉	-13.3923
食之人則人賤之矣為其養小以失大也	-13.3923
或問之曰若是乎從者之廀也	-13.3923
孟子曰教亦多術矣予不屑之教	-13.3923
也庸敬在兄斯須之敬在鄉人	-13.3923
子思以為鼎肉使已僕僕爾亟拜也	-13.3923
苟不固聰明聖知達天徳者其孰能知之	-13.3923
君行聖人之政是亦聖人也願為聖人氓	-13.3923
易天下豈以為非是而不貴也然而夷	-13.3923
當紂之時居北海之濵以待天下之清	-13.3923
湘	-13.3924
闒	-13.3924
以理言之謂之天自人言之謂之命其實	-13.3924
子産聽鄭國之政以其乗輿濟人於溱洧	-13.3924
踶	-13.3924
弗居以於陵則居之是尚為能充其	-13.3924
則動動則變變則化唯天下至誠為能化	-13.3924
與告子之不動心可得聞與告子曰不得	-13.3924
君子之心常存敬畏雖不見聞亦不敢忽	-13.3924
知所止矣意誠以下則皆得所止之序也	-13.3924
衛公孫朝問於子貢曰仲尼焉學	-13.3924
忱	-13.3925
子曰隠者也使子路反見之至則行矣	-13.3925
吾為此懼閑先聖之道距楊墨放淫辭邪	-13.3925
子貢曰惜乎夫子之說君子也駟不及舌	-13.3925
隂朝覲訟獄者不之益而之	-13.3925
眺	-13.3925
鱗	-13.3925
翹	-13.3925
勲乃徂落百姓如喪考妣三年四海遏	-13.3925
湯崩太丁未立外丙二年仲壬四年太甲	-13.3925
郅	-13.3925
也及其使人也器之小人難事而易説也	-13.3925
孟獻子曰畜馬乘不察於雞豚	-13.3925
捧	-13.3926
有用我者期月而已可也三年有成	-13.3926
如目視而耳聽手持而足	-13.3926
居休公孫丑問曰仕而不受禄古之道乎	-13.3926
有業屨於牖上館人求之弗得	-13.3926
也以兄之室為不義之室而不居也辟	-13.3926
為方百里也地非不足也而儉於百里	-13.3926
蚯	-13.3926
昃	-13.3926
笛	-13.3926
鑰	-13.3926
良心之發最為切近而精實者	-13.3926
也我欲行禮子敖以我為簡不亦異乎	-13.3926
嶇	-13.3927
顒	-13.3927
誦堯之言行堯之行是堯而已矣子服	-13.3927
禄也士之尊賢者也非王公之尊賢也	-13.3927
樂於此百姓聞王鐘鼓之聲管籥之音	-13.3927
氣化盛衰人事得失反覆相尋	-13.3927
曰梓匠輪輿能與人規矩不能使人巧	-13.3927
綘	-13.3927
陳亢問於伯魚曰子亦有異聞乎	-13.3927
孟子曰廣土衆民君子欲之所樂不存焉	-13.3927
曰君子之戹於陳蔡之間無上下之交也	-13.3927
者非心服也力不贍也以德服人者中心	-13.3927
有伊尹之志則可無伊尹之志則簒	-13.3928
者王見之曰牛何之對曰將以釁	-13.3928
儳	-13.3928
甬	-13.3928
王曰否吾何快於是將以求吾所大欲也	-13.3928
一朝廷莫如爵鄉黨莫如齒輔世長民莫	-13.3928
夫人豈以不勝為患哉弗為耳	-13.3928
弣	-13.3928
悃	-13.3929
瘦	-13.393
鼉	-13.3931
伴	-13.3931
飴	-13.3931
荑	-13.3932
洙	-13.3932
禳	-13.3933
遨	-13.3933
呱	-13.3933
斍	-13.3933
碁	-13.3935
㛰	-13.3936
阪	-13.3936
觫	-13.3937
魴	-13.3938
趲	-13.3938
鵙	-13.3938
貺	-13.3939
嫄	-13.3939
覧	-13.3939
变	-13.3939
庀	-13.3939
酤	-13.3941
縶	-13.3941
韭	-13.3942
餅	-13.3942
蝦	-13.3942
蟹	-13.3943
鶉	-13.3943
戶	-13.3943
咡	-13.3944
蚍	-13.3945
鴨	-13.3945
龞	-13.3946
璀	-13.3946
橈	-13.3946
綮	-13.3946
媯	-13.3949
椽	-13.3949
琬	-13.3951
欹	-13.3952
鷃	-13.3952
薤	-13.3953
扱	-13.3953
徘	-13.3955
堁	-13.3958
朏	-13.3958
蚳	-13.3963
駵	-13.3967
异	-13.3981
煇	-13.3988
宧	-13.4996
虙	-13.5002
帳	-13.5007
痬	-13.5008
紞	-13.5013
汾	-13.5015
呵	-13.5015
儈	-13.5017
罩	-13.5018
欄	-13.5018
噎	-13.5018
薌	-13.502
枹	-13.5022
暵	-13.5023
曖	-13.5024
綃	-13.5024
諜	-13.5024
乚	-13.5025
呶	-13.5026
讖	-13.5027
泲	-13.5027
顥	-13.5028
𡨕	-13.5028
晤	-13.5028
竽	-13.5029
諼	-13.5029
眹	-13.5029
𣸪	-13.503
暁	-13.5031
控	-13.5031
飄	-13.5031
枵	-13.5032
栝	-13.5032
抜	-13.5032
裙	-13.5032
粤	-13.5032
稌	-13.5033
闥	-13.5034
䀻	-13.5034
涘	-13.5034
􁂰	-13.5035
顗	-13.5035
丧	-13.5035
瞢	-13.5035
𧖟	-13.5035
箝	-13.5036
鞞	-13.5036
濃	-13.5036
擣	-13.5036
攫	-13.5036
瑄	-13.5037
卅	-13.5037
眄	-13.5037
氛	-13.5037
蛄	-13.5037
晩	-13.5038
鄠	-13.5038
攔	-13.5038
虺	-13.5038
篲	-13.5039
伉	-13.5039
厓	-13.5039
櫜	-13.5039
芰	-13.504
床	-13.504
抛	-13.504
港	-13.504
捩	-13.504
炰	-13.504
岷	-13.504
蛉	-13.5041
鄱	-13.5042
鼂	-13.5042
頺	-13.5042
篋	-13.5042
扯	-13.5043
飼	-13.5043
沸	-13.5043
晞	-13.5043
卄	-13.5043
臠	-13.5044
烱	-13.5044
屣	-13.5044
擿	-13.5044
押	-13.5044
倂	-13.5045
臲	-13.5045
劬	-13.5045
燉	-13.5046
菓	-13.5046
旰	-13.5046
麇	-13.5046
疴	-13.5046
嘐	-13.5046
禬	-13.5047
弇	-13.5047
衙	-13.5047
𥅆	-13.5047
瑯	-13.5047
髦	-13.5047
飡	-13.5047
畣	-13.5047
疄	-13.5047
䧏	-13.5048
駾	-13.5048
廄	-13.5048
窊	-13.5049
彧	-13.505
葭	-13.505
喩	-13.505
霖	-13.505
批	-13.505
蒧	-13.505
窗	-13.5051
剗	-13.5051
筠	-13.5052
贛	-13.5052
砆	-13.5052
碔	-13.5052
呫	-13.5052
瞋	-13.5053
醮	-13.5053
暉	-13.5053
苓	-13.5054
娯	-13.5054
膊	-13.5054
枌	-13.5054
耔	-13.5055
凄	-13.5057
惸	-13.5058
倞	-13.5059
汛	-13.5059
䡄	-13.5059
俻	-13.506
讄	-13.506
鞕	-13.5061
𫀆	-13.5063
顆	-13.5065
禨	-13.5065
鯤	-13.5068
酋	-13.507
滰	-13.5071
梜	-13.5072
蟬	-13.5073
跨	-13.5076
頟	-13.5082
芼	-13.5089
筥	-13.5104
箠	-13.5114
鄪	-13.6212
咫	-13.6256
溈	-13.6259
犠	-13.6261
傞	-13.6263
犨	-13.6264
雒	-13.6265
稾	-13.6266
僛	-13.6266
籙	-13.6268
埃	-13.627
显	-13.627
躇	-13.6271
荄	-13.6271
䜿	-13.6272
傴	-13.6272
壌	-13.6273
塜	-13.6274
晴	-13.6276
頁	-13.6277
匕	-13.6278
廂	-13.6278
牒	-13.6278
隈	-13.6278
罋	-13.6279
戅	-13.6279
躔	-13.6279
瓉	-13.628
届	-13.6281
臬	-13.6281
浃	-13.6281
鄴	-13.6281
𣆀	-13.6282
鍳	-13.6282
晶	-13.6282
駙	-13.6282
秣	-13.6282
矝	-13.6282
嘏	-13.6283
𤨏	-13.6283
僾	-13.6284
㴻	-13.6284
埏	-13.6284
戻	-13.6285
栱	-13.6285
惱	-13.6286
跼	-13.6286
蠐	-13.6287
蹐	-13.6287
蚊	-13.6287
嚀	-13.6288
㝡	-13.6288
臚	-13.6289
跣	-13.6289
睛	-13.629
䟎	-13.6291
烜	-13.6291
􁁥	-13.6292
覔	-13.6293
厪	-13.6293
驀	-13.6293
迺	-13.6293
邂	-13.6294
慇	-13.6294
逅	-13.6294
慳	-13.6295
齰	-13.6295
揩	-13.6295
梡	-13.6296
邳	-13.6296
藺	-13.6296
坯	-13.6296
呻	-13.6296
爍	-13.6297
禅	-13.6297
蓊	-13.6297
嶡	-13.6297
萍	-13.6297
蛤	-13.6298
匭	-13.6298
酺	-13.6299
泠	-13.6299
䏂	-13.63
琳	-13.6301
餮	-13.6301
縉	-13.6301
㳙	-13.6301
愎	-13.6302
朂	-13.6303
勳	-13.6304
曄	-13.6305
隮	-13.6305
鴄	-13.6306
胃	-13.6306
鍚	-13.6307
挹	-13.6307
琰	-13.6308
姫	-13.6308
㽞	-13.6309
媟	-13.6309
曜	-13.6313
璵	-13.6313
瀌	-13.6313
饎	-13.6314
遄	-13.6314
剏	-13.6314
楬	-13.6315
樁	-13.6315
袢	-13.6315
蒨	-13.6316
衺	-13.6316
菫	-13.6323
􁊪	-13.6325
䗜	-13.6325
襢	-13.6329
瑳	-13.633
冔	-13.6332
頳	-13.6333
杲	-13.6345
緎	-13.6363
萭	-13.6369
䔍	-13.7671
▫	-13.7682
幄	-13.7687
醖	-13.7689
盞	-13.7689
購	-13.769
轢	-13.7692
蓺	-13.7692
閡	-13.7693
窣	-13.7693
叨	-13.7693
橛	-13.7696
炬	-13.7696
厘	-13.7696
餬	-13.7697
勻	-13.7699
怫	-13.77
甜	-13.7701
傃	-13.7702
筦	-13.7702
尔	-13.7704
[...]
