<unk>	0
<s>	0
</s>	0
之	-3.63013
也	-3.8889
而	-4.23451
/	-4.46428
以	-4.48647
者	-4.52702
)	-4.75489
(	-4.76547
則	-4.82387
其	-4.90522
不	-4.92794
爲	-4.94399
於	-5.0213
有	-5.08375
人	-5.27904
故	-5.34788
無	-5.43191
一	-5.44695
曰	-5.52271
大	-5.75888
)(	-5.79155
言	-5.79477
行	-5.86065
中	-5.87211
與	-5.87499
為	-5.91961
矣	-5.9235
自	-5.97052
此	-5.97779
上	-5.98016
生	-5.98798
乎	-5.99207
非	-5.99529
至	-6.02867
天	-6.03452
所	-6.03984
是	-6.05906
得	-6.07359
道	-6.08013
子	-6.10893
見	-6.11615
皆	-6.12013
必	-6.15312
如	-6.17677
在	-6.18263
事	-6.20733
下	-6.25264
三	-6.2771
若	-6.27956
知	-6.28223
用	-6.30685
可	-6.32162
日	-6.32501
心	-6.32568
使	-6.35358
水	-6.35438
時	-6.3619
能	-6.36576
陽	-6.36994
亦	-6.41129
將	-6.41308
乃	-6.41906
君	-6.42176
出	-6.42843
地	-6.42941
相	-6.43189
成	-6.44711
或	-6.45914
當	-6.46352
作	-6.474
然	-6.47508
謂	-6.4799
明	-6.49582
氣	-6.50851
正	-6.5117
欲	-6.51756
二	-6.53091
不能	-6.54429
數	-6.54868
夫	-6.55704
主	-6.56193
雖	-6.56198
我	-6.57067
又	-6.61136
四	-6.61337
國	-6.62295
不可	-6.62557
多	-6.62794
同	-6.63514
五	-6.63703
物	-6.63752
神	-6.6469
令	-6.64838
法	-6.65693
因	-6.65803
名	-6.65964
兵	-6.67446
公	-6.67971
猶	-6.68088
王	-6.6938
入	-6.69565
▁	-6.69994
死	-6.70095
已	-6.70548
焉	-6.70826
善	-6.71952
民	-6.7323
而不	-6.73739
利	-6.7428
今	-6.75174
臣	-6.75642
于	-6.76426
分	-6.77634
方	-6.78117
及	-6.78579
○	-6.78778
從	-6.8066
易	-6.8074
合	-6.80783
故曰	-6.81902
衆	-6.82267
治	-6.82663
處	-6.82837
小	-6.8333
長	-6.83723
先	-6.84084
去	-6.854
陰	-6.85911
所以	-6.86056
吾	-6.86225
九	-6.86881
重	-6.8845
居	-6.89234
六	-6.89266
身	-6.9134
德	-6.91433
後	-6.92512
立	-6.94248
復	-6.94849
敵	-6.95617
耳	-6.96608
即	-6.96618
天下	-6.96907
守	-6.97075
士	-6.97667
内	-6.98107
食	-6.98532
戰	-6.98687
馬	-6.99179
亂	-7.0055
來	-7.00676
文	-7.01081
形	-7.01174
難	-7.01882
未	-7.0196
取	-7.0204
惡	-7.02044
高	-7.02171
常	-7.02251
月	-7.03061
盡	-7.03183
金	-7.04099
火	-7.0466
說	-7.04832
何	-7.0497
山	-7.05175
失	-7.05524
過	-7.05624
舉	-7.06242
外	-7.07167
世	-7.09082
以爲	-7.09614
義	-7.0992
始	-7.10403
本	-7.10769
聞	-7.11188
哉	-7.11727
實	-7.12134
彼	-7.12549
命	-7.12668
軍	-7.12668
木	-7.12857
遠	-7.12872
安	-7.1289
理	-7.13332
測曰	-7.1432
變	-7.14674
動	-7.16762
白	-7.17008
反	-7.17303
既	-7.17379
勝	-7.18541
力	-7.18782
石	-7.18981
家	-7.19377
者也	-7.20655
極	-7.20672
經	-7.20709
不得	-7.20756
少	-7.20947
信	-7.21979
發	-7.22595
齊	-7.22771
書	-7.22996
通	-7.23933
官	-7.2407
求	-7.2537
可以	-7.25711
服	-7.26336
星	-7.27305
和	-7.27459
離	-7.28211
樂	-7.28318
貴	-7.28433
門	-7.28576
殺	-7.2881
前	-7.28826
師	-7.28925
風	-7.28957
意	-7.29342
周	-7.2976
止	-7.30668
且	-7.31618
智	-7.31713
足	-7.32325
受	-7.3251
應	-7.32587
起	-7.33073
遂	-7.3361
度	-7.33746
進	-7.33866
七	-7.34372
交	-7.34761
車	-7.3508
亡	-7.35417
虚	-7.36187
八	-7.36294
之所	-7.37123
好	-7.3761
節	-7.37615
異	-7.37783
不知	-7.37877
玄	-7.37949
平	-7.38376
百	-7.38771
十	-7.38905
化	-7.39533
兩	-7.39721
土	-7.40054
歸	-7.40349
親	-7.41085
體	-7.41219
天地	-7.4161
近	-7.41951
北	-7.42196
象	-7.42248
蓋	-7.42296
積	-7.4255
絶	-7.42933
害	-7.4296
功	-7.43422
是以	-7.43491
終	-7.43819
强	-7.43916
萬	-7.43946
精	-7.43948
南	-7.44169
凡	-7.44841
輕	-7.44875
視	-7.44966
賢	-7.45787
直	-7.45883
城	-7.46026
陳	-7.46238
仁	-7.46517
固	-7.46656
疾	-7.468
女	-7.47274
流	-7.47497
敗	-7.47591
便	-7.4782
諸	-7.48168
萬物	-7.488
勢	-7.49221
音	-7.49757
制	-7.4995
任	-7.50616
禍	-7.51383
目	-7.51862
乘	-7.52083
東	-7.52121
謀	-7.5231
位	-7.52549
黄	-7.52796
年	-7.5368
計	-7.53734
攻	-7.54217
也故	-7.543
賞	-7.54305
莫	-7.5511
西	-7.55575
定	-7.56089
聲	-7.56809
危	-7.56996
志	-7.57337
所謂	-7.58433
秦	-7.58742
卒	-7.58894
人之	-7.59197
情	-7.59496
愛	-7.59509
獨	-7.59657
問	-7.60087
謂之	-7.60312
云	-7.60344
君子	-7.60411
解	-7.60639
深	-7.61266
間	-7.61504
窮	-7.61628
論	-7.61657
微	-7.62305
禮	-7.62438
思	-7.62544
各	-7.62898
施	-7.63077
宜	-7.63449
但	-7.64293
其所	-7.64385
宫	-7.64552
致	-7.64591
觀	-7.64601
益	-7.64663
教	-7.65095
性	-7.65223
玉	-7.65327
口	-7.65505
龍	-7.66142
是也	-7.66792
巳	-7.66996
刑	-7.67404
稱	-7.67874
豈	-7.67987
隨	-7.68122
尚	-7.68627
厚	-7.68955
邪	-7.69218
傳	-7.69228
指	-7.69723
散	-7.6983
聽	-7.6999
元	-7.69994
疑	-7.70383
備	-7.706
適	-7.70791
光	-7.70887
伐	-7.71264
學	-7.71267
甚	-7.71388
隂	-7.71455
陰陽	-7.715
罪	-7.71952
武	-7.72054
果	-7.72146
夏	-7.72165
盛	-7.7289
乾	-7.72943
藏	-7.732
初	-7.73396
清	-7.7342
請	-7.73755
歲	-7.74367
之道	-7.74411
退	-7.74664
由	-7.748
養	-7.75423
聖人	-7.75513
色	-7.75588
望	-7.75876
政	-7.7606
美	-7.76566
華	-7.77202
斷	-7.77298
也夫	-7.77311
夜	-7.77316
聖	-7.77444
字	-7.77968
執	-7.78356
私	-7.78641
飛	-7.79162
或作	-7.79775
急	-7.80271
舍	-7.80356
引	-7.80512
惟	-7.80794
要	-7.81684
擊	-7.81899
辭	-7.82535
老	-7.82553
楚	-7.8262
修	-7.82752
是故	-7.82874
首	-7.83049
傷	-7.83547
棄	-7.83589
屬	-7.83788
爾	-7.84742
趙	-7.85124
會	-7.85287
權	-7.85673
滅	-7.85727
不可以	-7.85791
帝	-7.85944
卦	-7.86255
切	-7.86305
更	-7.86341
鬼	-7.86431
威	-7.8657
尊	-7.86691
隱	-7.86732
次	-7.86851
衣	-7.8688
福	-7.87037
牛	-7.87319
堅	-7.87659
加	-7.88177
往	-7.88192
破	-7.88401
不足	-7.88702
還	-7.88797
讀	-7.88829
無所	-7.88885
州	-7.8898
日月	-7.89065
右	-7.89283
張	-7.89379
順	-7.89556
禁	-7.89764
語	-7.89778
弗	-7.89976
田	-7.9012
父	-7.90203
廣	-7.90325
誠	-7.90382
存	-7.90595
如此	-7.90779
己	-7.9081
十二	-7.9106
務	-7.9149
坤	-7.91569
靈	-7.91578
持	-7.91645
病	-7.91647
左	-7.91684
之中	-7.91775
久	-7.92208
遇	-7.92453
勞	-7.93283
雲	-7.93357
吏	-7.936
全	-7.93748
魚	-7.93757
室	-7.93804
越	-7.94329
然則	-7.94623
兼	-7.94632
聚	-7.94712
薄	-7.94884
類	-7.95401
氏	-7.95425
曲	-7.95989
辰	-7.96009
暴	-7.96246
廢	-7.96517
賊	-7.96706
而後	-7.97502
晋	-7.97647
須	-7.97672
天下之	-7.97815
降	-7.9812
角	-7.98697
符	-7.98704
弱	-7.98813
著	-7.98946
容	-7.99278
古	-7.9937
開	-7.99594
息	-7.9987
財	-8.00201
太	-8.0048
術	-8.00543
愚	-8.00981
怨	-8.01554
左右	-8.01732
臨	-8.01816
怒	-8.01966
而無	-8.02063
於是	-8.02297
朝	-8.02693
一日	-8.02949
素	-8.02954
鳥	-8.02957
辯	-8.03008
比	-8.03289
結	-8.03712
脩	-8.03808
澤	-8.04284
伏	-8.04621
救	-8.05091
坐	-8.05171
共	-8.05194
射	-8.05441
鼓	-8.05659
誅	-8.0622
傳曰	-8.06483
走	-8.06532
御	-8.06878
患	-8.0695
俱	-8.06994
别	-8.07316
飾	-8.07375
恐	-8.07526
魏	-8.07729
告	-8.07863
寒	-8.07971
富	-8.08041
載	-8.08223
待	-8.08342
苦	-8.08423
具	-8.08634
半	-8.08991
河	-8.09034
登	-8.09158
業	-8.09467
推	-8.10112
甲	-8.10174
轉	-8.1035
置	-8.10456
景	-8.11112
之事	-8.11294
就	-8.1132
器	-8.11486
冬	-8.11751
懷	-8.12135
餘	-8.1218
設	-8.12208
虎	-8.12571
憂	-8.1259
才	-8.12654
徒	-8.12671
勿	-8.12824
李	-8.13011
機	-8.13198
喜	-8.13303
覆	-8.13318
争	-8.13543
雨	-8.13584
滿	-8.13688
寡	-8.14176
報	-8.1454
建	-8.14587
專	-8.14596
而已	-8.14779
塞	-8.14783
遺	-8.14843
然後	-8.14964
敬	-8.14976
曹操曰	-8.14991
識	-8.15016
險	-8.15038
小人	-8.15105
達	-8.1527
不敢	-8.15792
勇	-8.15829
赤	-8.15919
昔	-8.15933
春	-8.16172
酒	-8.16309
對	-8.16468
罰	-8.16577
都	-8.16618
損	-8.16723
察	-8.17067
逆	-8.17204
仙	-8.17351
忠	-8.1756
也今	-8.17751
運	-8.17939
俗	-8.18098
章	-8.1835
圖	-8.18555
魯	-8.18757
吴	-8.18873
濟	-8.19124
藥	-8.1944
諸侯	-8.19639
不爲	-8.19675
草	-8.19898
背	-8.20096
有所	-8.20365
游	-8.209
姦	-8.21188
伯	-8.21498
向	-8.21605
千	-8.21661
斯	-8.21861
奪	-8.21872
賤	-8.22186
速	-8.22216
之地	-8.22311
律	-8.22337
幽	-8.2266
興	-8.22874
青	-8.2296
縣	-8.22996
真	-8.23111
眞	-8.23255
宋	-8.23525
禹	-8.23558
愈	-8.23873
除	-8.23977
原	-8.24074
面	-8.24142
〇	-8.24333
他	-8.24653
巧	-8.24717
等	-8.24764
禄	-8.24771
母	-8.24794
願	-8.248
鬼神	-8.25008
丹	-8.25021
犯	-8.25192
惑	-8.25371
頭	-8.25426
營	-8.25775
列	-8.2591
里	-8.25983
良	-8.26006
漢	-8.26014
手	-8.26084
客	-8.26227
奉	-8.26238
之間	-8.26393
期	-8.2669
四時	-8.26908
貪	-8.26937
忽	-8.27012
貌	-8.27055
端	-8.271
質	-8.271
閉	-8.27106
百姓	-8.27158
戒	-8.27162
至於	-8.27162
到	-8.27168
升	-8.27232
抱朴子曰	-8.27322
寳	-8.27632
斗	-8.27919
路	-8.28106
生於	-8.2811
壽	-8.28347
收	-8.28502
申	-8.28531
莫不	-8.28637
唯	-8.28688
短	-8.28778
嘗	-8.28844
者必	-8.28987
參	-8.28994
被	-8.29132
召	-8.29476
懼	-8.29544
之數	-8.29793
宿	-8.29905
慮	-8.2994
關	-8.30381
秋	-8.30589
又曰	-8.30736
圍	-8.31083
毁	-8.31158
感	-8.31445
人也	-8.31538
静	-8.31591
貞	-8.31682
使人	-8.32215
表	-8.32643
商	-8.33095
貧	-8.33825
足以	-8.34198
折	-8.34239
累	-8.34251
釋	-8.3443
量	-8.34543
之士	-8.34571
天之	-8.34581
盈	-8.34822
衰	-8.34841
爲之	-8.34951
鄭	-8.35064
辟	-8.35109
穴	-8.35339
夷	-8.35373
負	-8.35607
卑	-8.36139
密	-8.36189
之時	-8.36345
海	-8.36405
篇	-8.36494
毋	-8.36592
自然	-8.36663
不以	-8.36779
韓	-8.36862
□	-8.37188
審	-8.37353
卷	-8.37474
步	-8.37505
苟	-8.37842
忘	-8.38048
舟	-8.38081
井	-8.38122
張預曰	-8.38136
布	-8.3819
雜	-8.38277
不及	-8.38471
堯	-8.38596
衛	-8.3863
責	-8.38759
博	-8.3877
保	-8.38809
得其	-8.39
燕	-8.39004
爭	-8.39032
困	-8.39173
畏	-8.392
念	-8.39281
一人	-8.39402
之法	-8.39749
畢	-8.398
宗	-8.39859
妄	-8.40182
震	-8.40318
太極	-8.40384
放	-8.40797
細	-8.40846
淫	-8.40854
鄉	-8.41387
丘	-8.42218
約	-8.42235
野	-8.42695
移	-8.4278
黑	-8.42856
集	-8.42962
嚴	-8.43113
林	-8.43215
敵人	-8.43252
消	-8.43322
代	-8.43655
空	-8.43655
人主	-8.4386
履	-8.43892
議	-8.4397
末	-8.44066
喪	-8.44211
並	-8.44564
譽	-8.44704
歷	-8.45093
穀	-8.45361
率	-8.45705
之所以	-8.45723
者非	-8.4596
榮	-8.46078
候	-8.46658
〇張預曰	-8.46693
羽	-8.46723
陽氣	-8.46849
連	-8.46916
塗	-8.47217
凶	-8.47221
顯	-8.47291
留	-8.47295
屈	-8.4772
逐	-8.47813
汝	-8.47819
況	-8.47903
知其	-8.48193
侯	-8.48201
蛇	-8.48314
司	-8.48324
謹	-8.48343
剛	-8.48406
也光謂	-8.48475
淵	-8.4868
大夫	-8.48825
似	-8.48866
習	-8.48896
索	-8.49103
否	-8.49165
避	-8.49182
違	-8.49236
决	-8.49381
不如	-8.49466
助	-8.49573
上下	-8.4963
以此	-8.49817
坎	-8.50011
敢	-8.50386
妻	-8.5039
根	-8.50452
舜	-8.50685
造	-8.50954
仁義	-8.51318
午	-8.51457
封	-8.51703
竭	-8.51754
不見	-8.51982
資	-8.52048
許	-8.52318
操	-8.52418
胡	-8.52452
梁	-8.5251
擇	-8.52803
委	-8.52913
蒙	-8.52962
冠	-8.53527
獲	-8.5358
浮	-8.53616
者不	-8.5368
予	-8.54149
照	-8.5417
縱	-8.54193
文王	-8.54351
樹	-8.54463
孰	-8.54636
羊	-8.54725
柔	-8.5476
陵	-8.54769
不用	-8.55101
調	-8.55194
孔子	-8.55266
梅堯臣曰	-8.55296
誰	-8.55362
傾	-8.55376
漸	-8.55377
紀	-8.55934
五行	-8.5623
弊	-8.56618
恩	-8.56643
蔽	-8.56648
之人	-8.57186
悉	-8.57245
孝	-8.57354
湯	-8.57517
天子	-8.57656
揚	-8.57699
虛	-8.57704
新	-8.57842
偶	-8.57846
畫	-8.57878
遊	-8.57961
趨	-8.58044
循	-8.5837
策	-8.58375
彊	-8.5839
殊	-8.58399
谷	-8.58481
拔	-8.5865
甘	-8.5882
魄	-8.58899
記	-8.59026
荆	-8.59084
惠	-8.5917
驚	-8.59372
奚	-8.59858
户	-8.60188
徃	-8.60269
也若	-8.60327
蟲	-8.60382
假	-8.6043
侵	-8.60884
味	-8.60892
附	-8.60955
役	-8.61063
李筌曰	-8.61322
血	-8.61356
靜	-8.61469
呼	-8.61591
奇	-8.61736
市	-8.61787
者皆	-8.61795
飲	-8.61972
故能	-8.62213
朱	-8.62223
純	-8.62253
千里	-8.6231
先生	-8.62714
效	-8.62847
每	-8.6288
祭	-8.62918
差	-8.63066
而不能	-8.6315
冥	-8.63469
杜牧曰	-8.63593
曰吾	-8.63701
而不可	-8.64033
不足以	-8.64038
幾	-8.64124
免	-8.64209
却	-8.64301
覺	-8.64471
余	-8.64482
而行	-8.64709
廉	-8.64877
垂	-8.64878
恃	-8.64896
隂陽	-8.65054
克	-8.65075
雖有	-8.65104
冬至	-8.6512
皇	-8.6529
肉	-8.65344
寧	-8.65403
也〇梅堯臣曰	-8.65431
獸	-8.65522
神仙	-8.65583
士卒	-8.65627
干	-8.65765
迹	-8.66085
群	-8.66113
有餘	-8.66178
然而	-8.66504
充	-8.66963
晝	-8.67158
昌	-8.67564
并	-8.67634
崇	-8.67649
示	-8.67684
無形	-8.67763
笑	-8.67967
其身	-8.67971
不同	-8.67977
僞	-8.67984
改	-8.68034
以為	-8.68062
龜	-8.68106
倍	-8.68225
不相	-8.68311
儀	-8.68583
雷	-8.68609
之氣	-8.68639
飢	-8.68923
號	-8.68936
闕	-8.68937
繩	-8.68958
承	-8.68982
之言	-8.69318
而爲	-8.69564
襲	-8.69629
潜	-8.69632
鳴	-8.6964
勸	-8.69709
如是	-8.69958
府	-8.69964
簡	-8.7013
費	-8.70245
桓公	-8.70367
含	-8.70376
爲人	-8.70533
哀	-8.70674
祖	-8.70707
變化	-8.70972
必有	-8.71019
吉	-8.71052
授	-8.71137
有一	-8.71297
孤	-8.71708
悔	-8.71714
唐	-8.71721
王曰	-8.71761
辱	-8.72251
賜	-8.72313
抱	-8.72458
紂	-8.72491
羅	-8.72509
吕	-8.72553
四方	-8.73006
醜	-8.73128
史	-8.73146
錯	-8.73296
魂	-8.73306
三十	-8.73613
驗	-8.73696
卿	-8.73713
詩	-8.73766
據	-8.73838
詐	-8.73911
銳	-8.73953
包	-8.74002
遣	-8.74042
種	-8.7437
顧	-8.74527
掩	-8.74637
臺	-8.74645
王皙曰	-8.75323
無不	-8.75328
依	-8.75362
屋	-8.75395
投	-8.75553
妙	-8.7585
圓	-8.75925
毒	-8.76109
輔	-8.76116
割	-8.76166
邑	-8.76406
之說	-8.76454
統	-8.76577
勤	-8.76721
籍	-8.76817
用之	-8.7685
没	-8.76869
均	-8.76911
旁	-8.76947
晦	-8.77292
筭	-8.77518
泰	-8.77584
之後	-8.77953
儒	-8.78146
炁	-8.78295
婦	-8.78385
徐	-8.78413
喻	-8.78533
偏	-8.78582
此言	-8.78975
沈	-8.79094
毛	-8.79108
典	-8.79156
錢	-8.79164
言之	-8.79391
追	-8.7983
仰	-8.79908
略	-8.7993
慕	-8.79941
規	-8.79944
耕	-8.7996
天地之	-8.80469
古之	-8.80503
管	-8.80608
驕	-8.80727
諫	-8.80768
之理	-8.80954
延	-8.81118
斬	-8.81238
也王曰	-8.81293
矢	-8.81381
骨	-8.81429
帶	-8.81467
族	-8.8147
之心	-8.81837
迎	-8.81866
之外	-8.81951
仲	-8.82005
刻	-8.82254
枝	-8.82263
涉	-8.82287
減	-8.82304
試	-8.82316
竊	-8.82318
徵	-8.82324
知之	-8.82581
國之	-8.82788
最	-8.82955
爵	-8.82967
接	-8.83027
託	-8.83348
二十	-8.83578
仲尼	-8.83671
黨	-8.83718
〇王皙曰	-8.83729
騎	-8.83772
逃	-8.83774
馳	-8.8381
寅	-8.83838
衡	-8.83871
各有	-8.83891
精神	-8.84033
宣	-8.84207
維	-8.84476
刃	-8.84591
增	-8.84624
濁	-8.84664
不過	-8.84696
墮	-8.84698
昏	-8.84699
於外	-8.84911
材	-8.85106
狗	-8.85441
罷	-8.85454
劫	-8.85534
無有	-8.85575
了	-8.85593
其中	-8.86095
淺	-8.86112
人有	-8.86118
英	-8.86231
道也	-8.86254
歌	-8.8626
熱	-8.86272
於此	-8.86284
之象	-8.86291
未有	-8.86638
〇梅堯臣曰	-8.8667
對曰	-8.86885
此皆	-8.8701
羣	-8.87025
夢	-8.87112
肆	-8.87145
特	-8.87146
第	-8.87379
誘	-8.87416
悲	-8.87759
露	-8.87776
兆	-8.87868
讓	-8.87915
壯	-8.87961
尾	-8.88078
與之	-8.88224
陸	-8.8829
煩	-8.88333
工	-8.88469
長生	-8.8849
曹	-8.88561
者所以	-8.88626
草木	-8.88633
塵	-8.88743
側	-8.88768
振	-8.88814
舊	-8.88848
光謂	-8.89013
虞	-8.89226
尺	-8.89346
池	-8.89552
逸	-8.89592
刺	-8.8968
得之	-8.8991
之謂	-8.90128
劉	-8.90128
孟	-8.90195
削	-8.90257
而不知	-8.90338
杜	-8.90485
禽	-8.9049
省	-8.90506
尤	-8.90539
怪	-8.9056
先天	-8.90643
殷	-8.90765
神明	-8.91102
鍾	-8.91201
后	-8.91312
祀	-8.91373
招	-8.91397
徑	-8.91423
不聞	-8.91498
於人	-8.91753
出於	-8.91784
服之	-8.91811
庸	-8.91837
獄	-8.91992
之功	-8.92072
竒	-8.92197
遷	-8.92202
抑	-8.92206
欺	-8.92212
豐	-8.92221
援	-8.92222
翼	-8.92233
沉	-8.92257
竈	-8.92262
旣	-8.9227
腹	-8.92311
羣臣	-8.92399
中有	-8.92497
昔者	-8.92507
三十六	-8.92651
一曰	-8.92673
子墨子曰	-8.92778
厲	-8.93023
考	-8.931
輪	-8.9311
悟	-8.93136
不然	-8.93399
序	-8.93516
是謂	-8.93726
一年	-8.9375
之日	-8.93754
不復	-8.93821
幸	-8.93879
遁	-8.9388
狂	-8.9398
温	-8.93982
枯	-8.94001
耶	-8.94055
庶	-8.94123
不失	-8.94583
十六	-8.94674
繼	-8.94784
三年	-8.94804
赴	-8.94829
鼎	-8.94853
盜	-8.94855
其事	-8.94863
永	-8.94867
決	-8.94892
壞	-8.94898
奏	-8.949
選	-8.94913
父母	-8.94914
落	-8.94919
其道	-8.95245
江	-8.95389
子曰	-8.95506
獻	-8.9552
靡	-8.95792
乏	-8.95793
再	-8.95843
未嘗	-8.96085
丈	-8.96527
萌	-8.96531
虜	-8.96628
廟	-8.9663
尋	-8.96641
虧	-8.96688
䟽	-8.96717
謝	-8.96722
卯	-8.96754
黄帝	-8.96898
堂	-8.97382
吐	-8.97549
之上	-8.97562
測	-8.97598
貫	-8.97623
旗	-8.97672
燒	-8.97677
巽	-8.97689
畜	-8.97901
可謂	-8.97944
之變	-8.97975
佐	-8.98074
只	-8.98125
聞之	-8.98144
尸	-8.98242
而成	-8.98349
天道	-8.98477
其上	-8.98493
奔	-8.98499
格	-8.98542
將軍	-8.98786
季	-8.98837
夏至	-8.98838
進退	-8.98888
也〇張預曰	-8.99298
管仲	-8.99348
職	-8.99379
髮	-8.99452
繁	-8.99453
葬	-8.99516
咸	-8.99632
防	-8.99637
丁	-9.00256
刀	-9.00397
扶	-9.00398
注	-9.00406
介	-9.00419
革	-9.00674
糧	-9.00985
朔	-9.01061
農	-9.01169
休	-9.01229
彌	-9.01364
納	-9.01381
疏	-9.01403
懸	-9.01406
無爲	-9.01458
而有	-9.01528
之下	-9.01573
人皆	-9.01744
孫	-9.01782
腎	-9.02177
憎	-9.02223
弟	-9.02367
於上	-9.02486
子之	-9.02499
賢者	-9.02567
也是故	-9.02768
境	-9.02909
而得	-9.03021
霸	-9.03118
校	-9.03129
而求	-9.03162
横	-9.03174
亦有	-9.03179
醫	-9.03185
征	-9.03194
芝	-9.03204
世之	-9.03276
訓	-9.03295
雞	-9.03316
遲	-9.03332
隆	-9.03369
亥	-9.03388
不勝	-9.03448
之徒	-9.03458
宰	-9.03609
矣夫	-9.03621
也故曰	-9.03842
昭	-9.03996
録	-9.04165
驅	-9.04258
洞	-9.04271
齒	-9.04317
賞罰	-9.04424
太一	-9.04664
其心	-9.04766
旦	-9.04788
未必	-9.04978
三百六十	-9.05103
古者	-9.05123
庭	-9.05251
阿	-9.05279
其後	-9.05602
春秋	-9.05833
不動	-9.06122
脫	-9.0614
宅	-9.06247
迷	-9.06286
枉	-9.0629
閑	-9.063
麗	-9.06331
繫	-9.06367
八卦	-9.06379
出入	-9.06627
是非	-9.06896
諭	-9.06925
伍	-9.07067
巢	-9.07281
艮	-9.07303
峻	-9.07315
植	-9.07355
不信	-9.07699
姓	-9.07847
竟	-9.0785
君臣	-9.07916
矜	-9.07954
道者	-9.08069
恭	-9.08086
拜	-9.08293
訟	-9.08329
曆	-9.08471
者有	-9.08479
也然	-9.08502
不若	-9.08516
弗能	-9.08848
弦	-9.08862
利害	-9.09106
東方	-9.09221
耳目	-9.09221
今從諸家	-9.09345
之類	-9.09349
友	-9.09361
輙	-9.09368
嗚呼	-9.09369
回	-9.09372
鑿	-9.09399
道之	-9.09754
一作	-9.10064
珠	-9.10118
而生	-9.10319
激	-9.10355
隙	-9.10355
柱	-9.10356
言其	-9.10419
殘	-9.10453
兌	-9.10523
子孫	-9.10681
給	-9.10695
北方	-9.11038
希	-9.11313
緩	-9.11365
競	-9.11382
早	-9.11477
鹿	-9.11492
紫	-9.11503
後世	-9.1162
悅	-9.11641
造化	-9.11675
陷	-9.11795
談	-9.11928
武王	-9.11945
也〇李筌曰	-9.12003
不欲	-9.12217
以待	-9.12253
孔	-9.12397
慎	-9.12404
之勢	-9.12416
鮮	-9.12476
禦	-9.12483
趣	-9.12485
葉	-9.1252
鐵	-9.1253
準	-9.12548
弓	-9.12551
國家	-9.12598
婦人	-9.1275
之利	-9.12808
佛	-9.13343
牧	-9.13469
燭	-9.13521
之情	-9.13526
部	-9.13534
觸	-9.13552
肅	-9.13568
契	-9.13573
世人	-9.13903
令人	-9.14308
者爲	-9.1434
粟	-9.14563
鼻	-9.1461
巨	-9.14653
蔡	-9.14656
闇	-9.14661
君之	-9.14666
侮	-9.14695
補	-9.14733
洪	-9.14735
焚	-9.14839
見其	-9.14887
曾	-9.1512
西北	-9.15668
叔	-9.15684
弩	-9.15731
桑	-9.15772
范	-9.15774
楊	-9.15803
郡	-9.15806
不行	-9.15928
不與	-9.16016
晝夜	-9.16057
戮	-9.16714
慈	-9.16729
昧	-9.16806
其子	-9.16824
慢	-9.16824
嘉	-9.16842
狀	-9.16875
駕	-9.16879
烈	-9.16884
戎	-9.16901
何以	-9.16919
一月	-9.16961
其國	-9.17066
詳	-9.17146
用兵	-9.17207
失其	-9.17224
爻	-9.17303
句	-9.17494
不死	-9.17551
在於	-9.17644
珍	-9.17942
樓	-9.17965
戴	-9.17971
哭	-9.17972
鈞	-9.17997
南方	-9.18001
杖	-9.18027
忍	-9.18034
熟	-9.18067
寸	-9.18104
墨	-9.18483
之道也	-9.18508
三軍	-9.18518
按	-9.18558
聖王	-9.18614
使之	-9.1882
泉	-9.18866
二十四	-9.19093
狐	-9.19109
酉	-9.19112
溺	-9.19136
衝	-9.19147
災	-9.19158
其所以	-9.19504
寒暑	-9.19702
以成	-9.19738
曰我	-9.19831
不受	-9.19901
說在	-9.19929
環	-9.19942
寵	-9.20191
忌	-9.20217
郭	-9.20218
卧	-9.20235
肥	-9.2025
烏	-9.20255
三日	-9.20266
眀	-9.20302
慶	-9.20325
寢	-9.2037
矣故	-9.2043
水火	-9.20514
咎	-9.20608
朱子曰	-9.20626
〇杜牧曰	-9.20628
皆有	-9.208
川	-9.20898
擊之	-9.21031
導	-9.2136
匿	-9.21377
荒	-9.21388
墜	-9.21393
采	-9.21396
猛	-9.21432
暗	-9.21436
築	-9.21439
遭	-9.21475
名曰	-9.21482
堯舜	-9.21513
則不	-9.21546
而自	-9.21639
不食	-9.21775
爲政	-9.21893
萬民	-9.22036
而欲	-9.22043
房	-9.22154
智者	-9.22161
或曰	-9.22277
公子	-9.22293
擒	-9.22499
源	-9.22507
牙	-9.22524
鬭	-9.2253
壁	-9.22536
潔	-9.22549
姑	-9.22557
犬	-9.22562
倉	-9.22588
乖	-9.22592
鑒	-9.22601
迫	-9.22636
倚	-9.22659
漏	-9.22665
薦	-9.22673
无	-9.22699
惜	-9.22711
東南	-9.2287
况	-9.22889
便是	-9.22937
死生	-9.22967
祥	-9.23008
於天	-9.2314
太上	-9.23205
之術	-9.23301
不聽	-9.23361
也又	-9.23373
之物	-9.23522
雄	-9.23539
貨	-9.23661
勁	-9.23763
劍	-9.23772
儉	-9.2378
提	-9.23789
影	-9.23807
厥	-9.23861
謙	-9.23911
寡人	-9.23975
也言	-9.2431
不出	-9.24388
無以	-9.24412
又有	-9.24483
無窮	-9.24583
而言	-9.24716
男	-9.24739
液	-9.24912
頓	-9.24966
邊	-9.24973
鴻	-9.24979
賦	-9.25053
擅	-9.25075
治國	-9.2527
是為	-9.25464
鋒	-9.25469
於天下	-9.25734
名也	-9.2584
之意	-9.25842
從事	-9.25891
安得	-9.26042
波	-9.26145
而能	-9.26178
值	-9.26182
辛	-9.26183
胎	-9.26205
淪	-9.26214
竹	-9.26237
凌	-9.2624
攝	-9.26268
物之	-9.26587
大道	-9.26754
曰此	-9.26823
西方	-9.27004
殺之	-9.27308
超	-9.27381
墻	-9.27406
宇	-9.27414
凝	-9.27465
人之所	-9.27489
恨	-9.27518
不肯	-9.27607
人君	-9.27863
五十	-9.27927
與人	-9.2821
輕重	-9.28212
大抵	-9.28402
死者	-9.28408
邦	-9.28642
㓂	-9.28697
彈	-9.287
底	-9.2872
何氏曰	-9.28723
冰	-9.28725
社稷	-9.28764
或以	-9.2885
之患	-9.28955
則有	-9.29353
未可	-9.29839
奮	-9.2984
伸	-9.2987
辨	-9.29987
痛	-9.29991
偃	-9.29994
撫	-9.29997
徙	-9.3
拘	-9.301
則無	-9.30186
不肖	-9.30876
其德	-9.31138
桀	-9.31195
賈	-9.31195
拒	-9.312
沙	-9.31204
叛	-9.31205
賣	-9.3125
總	-9.31256
匪	-9.31258
郊	-9.31259
跡	-9.3126
紛	-9.31264
基	-9.31292
在上	-9.31325
毎	-9.31331
不必	-9.31364
則是	-9.31371
僧	-9.31402
▁(	-9.31528
撓	-9.31593
其君	-9.31844
大臣	-9.31958
於下	-9.32187
卵	-9.32216
而死	-9.32462
疲	-9.32496
傅	-9.32506
活	-9.32534
窺	-9.32553
社	-9.32572
穿	-9.32584
山川	-9.32709
乾坤	-9.32907
以其	-9.33099
賛曰	-9.33275
中央	-9.33359
或有	-9.33378
民之	-9.3338
不當	-9.33414
仕	-9.33416
雪	-9.33482
七日	-9.33701
罔	-9.33717
買	-9.33796
混	-9.33804
咽	-9.33824
乙	-9.33846
壘	-9.33846
戾	-9.33846
陶	-9.33856
謗	-9.3386
耗	-9.33883
薪	-9.33894
捨	-9.33896
逢	-9.33902
界	-9.33906
占	-9.3393
由是	-9.33952
泣	-9.33952
配	-9.33953
不利	-9.34015
其數	-9.34155
閏	-9.34201
不言	-9.34266
飲食	-9.34297
十五	-9.34308
是月	-9.34425
其功	-9.34541
之内	-9.34653
三月	-9.34834
祝	-9.34851
地形	-9.34924
肯	-9.35051
舞	-9.35152
究	-9.35159
之義	-9.35183
舒	-9.35197
領	-9.35197
覽	-9.35198
賴	-9.35217
棲	-9.35277
誤	-9.35286
乎賛曰	-9.35695
不成	-9.35737
王者	-9.35902
公曰	-9.35918
兄	-9.36066
動静	-9.36277
之初	-9.36294
非其	-9.36415
黃	-9.36448
而為	-9.36465
蕩	-9.36493
蘇	-9.36532
缺	-9.36545
戲	-9.36569
有功	-9.36586
剥	-9.36587
遽	-9.36619
寬	-9.36635
殃	-9.36689
後天	-9.36897
司馬	-9.36928
善惡	-9.36953
周公	-9.3698
人心	-9.37184
也〇杜牧曰	-9.37389
攻之	-9.37528
侍	-9.3761
稽	-9.37666
條	-9.37743
豫	-9.37748
百里	-9.37819
料	-9.37826
聖人之	-9.37842
逺	-9.37869
丑	-9.37877
盗	-9.37902
爲善	-9.37928
穢	-9.37941
溢	-9.37945
一歲	-9.37946
躁	-9.37958
鱗	-9.37966
丙	-9.37973
古人	-9.37988
見之	-9.38049
也王本	-9.38241
之國	-9.38618
泄	-9.38652
道德	-9.38982
舌	-9.39201
殆	-9.39228
秀	-9.39239
子墨子	-9.39245
矯	-9.39282
沮	-9.39285
肺	-9.39321
默	-9.39324
寄	-9.3933
夕	-9.39332
監	-9.39348
灌	-9.39368
之屬	-9.39373
者謂之	-9.39553
禍福	-9.3964
丸	-9.39742
成功	-9.3976
者亦	-9.39848
限	-9.40154
之君	-9.40332
不知其	-9.40572
必死	-9.40583
上帝	-9.40618
距	-9.40661
霜	-9.40674
醉	-9.40677
弘	-9.40696
視之	-9.40718
幹	-9.40721
握	-9.40726
掌	-9.40735
牢	-9.40745
討	-9.40761
括	-9.408
證	-9.40814
十二月	-9.40839
之極	-9.40937
鄙	-9.41062
也昔	-9.41839
萬物之	-9.41841
之名	-9.41958
富貴	-9.41998
西南	-9.4205
階	-9.42143
盧	-9.42144
香	-9.42148
網	-9.42166
肝	-9.42173
起於	-9.4218
借	-9.42186
鼠	-9.42188
頗	-9.42202
戌	-9.42232
也是以	-9.4266
如此則	-9.42687
虚實	-9.42898
顔	-9.43255
求之	-9.43332
箕	-9.43386
至于	-9.43522
怯	-9.43532
育	-9.43544
忿	-9.43555
隘	-9.43575
單	-9.43604
整	-9.43623
妾	-9.43649
綱	-9.43651
俟	-9.43651
妖	-9.43655
湯武	-9.43664
癸	-9.43665
啓	-9.43672
隊	-9.43736
可得	-9.43816
敵之	-9.43858
治也	-9.4392
明日	-9.44078
不通	-9.44302
莫能	-9.44606
歳	-9.44762
康	-9.4504
兹	-9.45049
鳳	-9.45064
送	-9.4507
壤	-9.451
飽	-9.45124
乞	-9.45135
讎	-9.45142
爵禄	-9.45163
生物	-9.45352
四海	-9.45454
而已矣	-9.45618
之計	-9.45848
有道	-9.45884
四十	-9.45891
用也	-9.46042
曉	-9.46106
豈不	-9.46123
父子	-9.46178
弟子	-9.46268
也此	-9.46414
曠	-9.4643
嗣	-9.46445
潤	-9.46517
旋	-9.46525
璧	-9.46539
皮	-9.46549
毫	-9.46566
住	-9.4661
翟	-9.4664
故聖人	-9.46756
人者	-9.46919
不識	-9.46924
五穀	-9.46979
往來	-9.47075
之本	-9.47113
道士	-9.47175
以自	-9.47258
其神	-9.47373
流行	-9.4747
童	-9.47878
而民	-9.47946
誦	-9.47955
六十	-9.48011
滯	-9.48047
庚	-9.48057
覩	-9.48058
篤	-9.48066
看	-9.48068
茂	-9.48081
軌	-9.48081
佚	-9.48083
狹	-9.48089
席	-9.4809
脾	-9.48099
巫	-9.48149
泥	-9.48171
嫁	-9.48175
兄弟	-9.48176
絲	-9.48186
衍	-9.48199
之用	-9.48219
今日	-9.4827
無常	-9.48278
學者	-9.48314
黄鍾	-9.48369
法也	-9.48583
有形	-9.48666
不在	-9.48773
亦不	-9.48789
金玉	-9.48869
其言	-9.48877
不待	-9.48894
於内	-9.48932
禀	-9.4901
杜佑曰	-9.49208
享	-9.49536
詭	-9.4954
踐	-9.49552
輿	-9.49579
徹	-9.49604
太子	-9.49633
恥	-9.49651
搏	-9.49701
欲以	-9.49898
相與	-9.49962
曰夫	-9.50002
不明	-9.5003
不能自	-9.5025
七十	-9.50291
某	-9.50293
産	-9.50511
而弗	-9.50541
其次	-9.50551
宋曰	-9.50704
五色	-9.5091
渡	-9.50949
可知	-9.50976
擾	-9.50984
不免	-9.51138
蠶	-9.51168
渠	-9.51197
鈎	-9.51251
護	-9.51256
誓	-9.5127
若此	-9.51284
誣	-9.51288
嬰	-9.51339
人臣	-9.51439
不善	-9.51902
始於	-9.51933
得道	-9.52079
之禍	-9.522
三百	-9.52266
暑	-9.52321
地之	-9.52425
程	-9.5243
十月	-9.52482
治之	-9.52543
夭	-9.52676
織	-9.52687
人所	-9.52691
其志	-9.52719
蜀	-9.52727
顛	-9.52745
完	-9.52761
閭	-9.52766
炎	-9.52783
日中	-9.52785
禱	-9.52792
響	-9.52792
躬	-9.528
倒	-9.52804
陰氣	-9.52941
者其	-9.53058
何謂	-9.53102
人主之	-9.53164
者不可	-9.53505
抱朴子外篇卷之	-9.53548
也凡	-9.53612
濕	-9.5367
之形	-9.53741
元氣	-9.53967
賛	-9.53988
冨	-9.5416
其實	-9.54179
冒	-9.54322
而天下	-9.54337
鎮	-9.54351
吹	-9.54363
蹈	-9.54365
戊	-9.54392
佯	-9.54405
恒	-9.54454
而反	-9.54476
害也	-9.54794
無功	-9.54953
安能	-9.54957
初一	-9.55277
以上	-9.55417
有罪	-9.55441
怠	-9.55736
鄰	-9.55752
尉	-9.55902
賔	-9.55953
騰	-9.55964
芒	-9.55981
掠	-9.55986
無益	-9.56004
預	-9.56007
勉	-9.56023
摇	-9.56026
愼	-9.56036
叙	-9.56045
暮	-9.56047
挾	-9.56057
伊尹	-9.56071
謁	-9.56087
快	-9.56088
支	-9.56093
踰	-9.56139
返	-9.56419
古今	-9.5667
倫	-9.56718
不正	-9.56832
夫人	-9.56884
也曹操曰	-9.56918
者衆	-9.5704
柄	-9.57097
之精	-9.57114
孫子	-9.57258
因其	-9.57258
爲一	-9.57353
仙人	-9.57362
北極	-9.57439
去之	-9.57443
之民	-9.57464
為天	-9.57489
旅	-9.5751
捷	-9.57638
樞	-9.57656
絃	-9.57681
餌	-9.57683
途	-9.57696
焦	-9.57697
臭	-9.577
百日	-9.57717
闘	-9.57735
盖	-9.57782
縮	-9.57799
而知	-9.57873
其意	-9.58172
十日	-9.58173
二人	-9.58241
及其	-9.58325
衆人	-9.58327
者多	-9.58405
刑罰	-9.58442
故有	-9.58478
十萬	-9.5849
旣而	-9.58753
日行	-9.58821
也范曰	-9.58825
范曰	-9.5884
答	-9.58883
終始	-9.59017
不至	-9.5906
耀	-9.59138
北斗	-9.59184
箇	-9.5921
帛	-9.59233
而立	-9.59237
旱	-9.59279
捐	-9.59279
治亂	-9.59289
㝠	-9.5929
裘	-9.5931
文公	-9.59319
翔	-9.59324
虐	-9.59327
恣	-9.59369
裏	-9.59397
芳	-9.59427
拂	-9.59525
然也	-9.59577
牽牛	-9.5981
不義	-9.59912
若夫	-9.59999
其形	-9.60265
從之	-9.60328
染	-9.6047
一切	-9.60574
瞻	-9.6097
必以	-9.60985
津	-9.60999
澄	-9.61031
剖	-9.6109
播	-9.61123
蕃	-9.61127
齋	-9.61142
之性	-9.61147
品	-9.61168
船	-9.61185
膏	-9.61221
以求	-9.61289
燥	-9.6129
其氣	-9.61447
而去	-9.61452
而下	-9.61542
不從	-9.61605
取之	-9.61647
之臣	-9.61831
白馬	-9.61886
有三	-9.62074
法令	-9.62088
三十二	-9.62458
動而	-9.6256
鏡	-9.62726
賈林曰	-9.6273
拙	-9.6274
樸	-9.62765
兒	-9.62782
饑	-9.62817
崩	-9.6282
晨	-9.62825
冀	-9.62834
雀	-9.6285
漁	-9.62869
烹	-9.62873
乆	-9.62874
先王	-9.62874
鉤	-9.62884
汙	-9.62921
詣	-9.62928
伏羲	-9.62959
其人	-9.63128
坎離	-9.63289
而止	-9.63298
也〇王皙曰	-9.63315
穆	-9.63538
故不	-9.63555
以利	-9.63634
夫子	-9.63684
甲子	-9.63701
其父	-9.63929
終身	-9.64043
其行	-9.6406
必先	-9.64115
一名	-9.64328
城上	-9.64464
攸	-9.64571
甞	-9.64604
効	-9.64618
冝	-9.64618
雍	-9.64626
束	-9.64653
之令	-9.64654
吞	-9.64666
屯	-9.64678
炭	-9.64685
悖	-9.6469
摩	-9.64712
者謂	-9.64742
藉	-9.64794
銅	-9.64802
智伯	-9.64819
斤	-9.6486
河圖	-9.64952
或問	-9.65065
一度	-9.65072
一陽	-9.65155
大小	-9.65203
風雨	-9.65271
也且	-9.65311
域	-9.65352
楚人	-9.65594
皆以	-9.65655
者是	-9.65748
不求	-9.65933
前後	-9.6609
牽	-9.66102
十一	-9.66134
蒼	-9.66148
者無	-9.6617
得一	-9.66206
羸	-9.66281
在天	-9.66284
也范本	-9.66343
卜	-9.66381
二者	-9.66395
灰	-9.66403
崑崙	-9.66406
曹公	-9.66413
蒸	-9.66426
緫	-9.66439
兔	-9.66439
班	-9.66457
殿	-9.66474
誕	-9.66483
髙	-9.66487
亭	-9.66509
雅	-9.6651
飯	-9.66528
千歲	-9.66545
禾	-9.66551
人情	-9.66556
聦明	-9.66654
之世	-9.66874
自此	-9.66993
中國	-9.67086
吉凶	-9.67245
何故	-9.67426
四象	-9.67542
于天	-9.67568
其可	-9.6757
則民	-9.67619
不變	-9.67648
厭	-9.67698
所欲	-9.67823
不仁	-9.67826
曰子	-9.67904
裂	-9.68245
踈	-9.68249
獵	-9.68252
為陰	-9.68256
聾	-9.68279
羞	-9.68285
花	-9.68287
溝	-9.68289
亢	-9.68296
優	-9.68301
像	-9.68301
檢	-9.68326
歡	-9.68334
無道	-9.68361
淮南鴻烈解卷之	-9.68371
誑	-9.68381
則必	-9.68433
書曰	-9.68509
人間	-9.68557
三十日	-9.68658
法度	-9.68762
太玄	-9.68803
真人	-9.68855
取其	-9.68921
東北	-9.68921
也或曰	-9.6895
者也故	-9.68975
而進	-9.69022
以示	-9.69071
子華子曰	-9.69095
所生	-9.69187
人事	-9.69237
可見	-9.69262
南北	-9.69265
何也	-9.69267
不容	-9.69395
不覺	-9.69507
子華子	-9.69523
所得	-9.69558
遏	-9.69773
其家	-9.69851
莊	-9.69872
使者	-9.69936
京	-9.70066
縁	-9.70083
捕	-9.70088
豪	-9.70147
釣	-9.70154
壅	-9.70198
俊	-9.702
晩	-9.70215
斧	-9.70218
擬	-9.70224
藻	-9.70231
𩔖	-9.70234
囚	-9.70261
彭	-9.70287
男女	-9.70321
脂	-9.70342
桀紂	-9.70363
化爲	-9.70419
次四	-9.70582
所在	-9.70689
遠近	-9.71135
世間	-9.7118
匠	-9.71245
不亦	-9.71296
變而	-9.71343
有過	-9.71346
而用	-9.71654
易曰	-9.71789
碎	-9.72063
科	-9.72074
劇	-9.72081
多少	-9.72083
明也	-9.72093
析	-9.72094
係	-9.72097
恤	-9.72098
如何	-9.72124
麥	-9.7215
陋	-9.72162
渾	-9.72199
屠	-9.72202
督	-9.72232
取勝	-9.72264
行也	-9.72413
無所不	-9.72609
而不得	-9.72616
曰天	-9.72701
者以其	-9.72722
居中	-9.7277
數也	-9.72928
未能	-9.73069
陸曰	-9.7324
無間	-9.73323
奈何	-9.73733
乃可	-9.7376
也然則	-9.73848
晚	-9.74017
朋黨	-9.74062
瞽	-9.74077
馮	-9.74107
徇	-9.74123
註	-9.74129
臂	-9.7414
隋	-9.74155
明主	-9.7416
之位	-9.74167
日月星辰	-9.74226
升降	-9.74227
不顧	-9.74315
際	-9.74417
吴起	-9.74481
日在	-9.74488
實也	-9.74614
也〇賈林曰	-9.74666
而當晝	-9.74738
禮樂	-9.74824
之器	-9.74847
春分	-9.7492
而入	-9.74931
故老子曰	-9.74975
只是	-9.7501
一物	-9.75023
朱子	-9.75083
生也	-9.75107
之罪	-9.75218
不止	-9.75546
供	-9.75625
用事	-9.75781
之際	-9.75782
之主	-9.75866
不備	-9.75909
郎	-9.75938
兮	-9.7599
僕	-9.75998
壬	-9.76001
翕	-9.76052
桃	-9.76063
㫖	-9.76068
鷹	-9.76081
為陽	-9.76092
滋	-9.76098
蒲	-9.76107
邈	-9.76117
滑	-9.7612
麟	-9.76149
練	-9.76174
蚤	-9.7619
園	-9.76201
言曰	-9.76283
道而	-9.76325
通於	-9.76379
譬	-9.76424
之門	-9.76483
度量	-9.7653
之謂也	-9.76576
百官	-9.76884
得失	-9.77018
老子	-9.77029
不中	-9.77065
其說	-9.77066
者雖	-9.77212
也抱朴子曰	-9.77287
亦然	-9.77502
孔子曰	-9.77757
一時	-9.77763
也上九	-9.77793
賢人	-9.77807
十年	-9.7794
判	-9.77942
歛	-9.78063
創	-9.78083
區	-9.78085
採	-9.78088
匡	-9.78108
濫	-9.78122
敦	-9.78131
頃	-9.78134
矣今	-9.78135
詩曰	-9.78162
不忍	-9.78164
譬猶	-9.78202
所爲	-9.78228
恕	-9.78228
軫	-9.78242
十三	-9.78248
朝廷	-9.78249
儒者	-9.78284
竇	-9.78319
之本也	-9.78367
五月	-9.78506
延年	-9.7855
者何也	-9.78674
法者	-9.78686
一箇	-9.78718
牛馬	-9.78786
而非	-9.78808
一國	-9.78961
一分	-9.79018
於中	-9.79146
其本	-9.792
禮義	-9.79313
道理	-9.79349
亦可	-9.79474
秋分	-9.79632
相應	-9.79665
若以	-9.79721
而動	-9.79749
救之	-9.79871
六日	-9.79892
不易	-9.79895
越人	-9.80015
在乎	-9.80021
闔	-9.80128
以相	-9.80146
謬	-9.80151
得位當晝	-9.80165
蕭	-9.80185
淩	-9.80202
曰汝	-9.80206
鷄	-9.80207
於民	-9.80208
盟	-9.80222
轡	-9.80233
詔	-9.80249
轂	-9.8025
寇	-9.8026
麻	-9.80281
祭祀	-9.80284
眞人	-9.80353
不入	-9.80436
貞測曰	-9.80509
將來	-9.80515
曰善	-9.80626
妻子	-9.80662
百步	-9.80815
所不	-9.80857
之禮	-9.80919
魁	-9.81016
三尺	-9.81033
以致	-9.81061
物也	-9.81082
東西	-9.81122
之聲	-9.81159
隅	-9.8119
臣也	-9.81196
之才	-9.81251
殺人	-9.8135
帥	-9.81421
不得已	-9.81555
不生	-9.81613
必勝	-9.81742
常以	-9.81864
旬	-9.81872
而出	-9.81908
言不	-9.82139
規矩	-9.82166
臧	-9.82177
霄	-9.82193
右行	-9.82213
斂	-9.82223
樂也	-9.82238
銜	-9.82243
奢	-9.82243
掘	-9.82295
賓	-9.82303
箭	-9.8231
緯	-9.82318
隔	-9.82323
磨	-9.82358
洽	-9.82389
愚者	-9.82389
劔	-9.8239
續	-9.82393
挈	-9.82398
輜重	-9.82401
魂魄	-9.82481
剛柔	-9.82488
思慮	-9.82494
二十八	-9.82541
奇正	-9.82598
洛書	-9.82623
五星	-9.82687
地有	-9.82742
太白	-9.8297
在我	-9.82996
答曰	-9.83003
亂也	-9.83072
十一月	-9.83107
不知所	-9.83126
則國	-9.83162
不愛	-9.83196
萬里	-9.83222
死地	-9.83268
使民	-9.83319
何必	-9.83634
今夫	-9.83703
善者	-9.83705
此則	-9.83748
襄	-9.83997
利也	-9.84129
饗	-9.84168
凍	-9.84203
推之	-9.84299
輸	-9.84366
慧	-9.84366
普	-9.84441
且夫	-9.84445
案	-9.84464
圉	-9.84466
挫	-9.84467
而又	-9.84478
蓬	-9.8448
裁	-9.84486
式	-9.84497
函	-9.84502
譏	-9.84516
鶴	-9.84519
佞	-9.84522
愧	-9.84522
酷	-9.84529
彰	-9.8453
矩	-9.84551
侈	-9.84555
宇宙	-9.84561
蟄	-9.84574
突	-9.84591
稷	-9.84597
姬	-9.84603
告之	-9.84611
印	-9.84629
也次八	-9.84663
不可謂	-9.84712
者可亡也	-9.84746
喜怒	-9.84825
之失	-9.84857
明堂	-9.84922
其餘	-9.85078
十八	-9.85159
此是	-9.85286
一百	-9.85318
其情	-9.85319
以治	-9.8532
司命	-9.85356
不已	-9.85518
也宋陸本	-9.85576
其勢	-9.85622
諸將	-9.85712
相去	-9.85936
明於	-9.85979
一氣	-9.86004
不祥	-9.86008
則能	-9.86015
地而	-9.86123
萬人	-9.86194
愛之	-9.86276
者乎	-9.86394
攻其	-9.864
次六	-9.86425
合於	-9.86474
聦	-9.86488
次七	-9.86492
遼	-9.86572
講	-9.86586
戚	-9.86604
有五	-9.86635
秉	-9.86681
軒	-9.86686
廬	-9.86694
價	-9.86694
夾	-9.86706
稍	-9.8673
憤	-9.86734
之子	-9.86735
頂	-9.86738
宵	-9.86739
逼	-9.86751
詞	-9.86752
構	-9.86765
椎	-9.86768
腐	-9.86783
漆	-9.86805
水中	-9.86825
徧	-9.86829
圜	-9.86832
艾	-9.86848
旌旗	-9.86861
枚	-9.86916
頤	-9.86935
其妻	-9.86944
次五	-9.86967
康節	-9.86981
韓信	-9.87032
則不然	-9.87097
身死	-9.87167
玉女	-9.8723
則亂	-9.87297
歲星	-9.87353
九天	-9.87472
之末	-9.87487
之端	-9.87579
以知	-9.87726
死而	-9.87804
數十	-9.8784
所見	-9.87888
形也	-9.8798
三人	-9.88097
見於	-9.88104
則為	-9.8825
事者	-9.88557
王本	-9.88882
膽	-9.8892
斥	-9.88922
人不	-9.88926
憚	-9.88927
琴	-9.88928
鴈	-9.88936
俯	-9.88947
霧	-9.88951
匹	-9.88956
廓	-9.88959
屢	-9.88982
羿	-9.88988
鍊	-9.88992
盤	-9.88993
宴	-9.88999
濡	-9.89005
筆	-9.89024
問曰	-9.8903
雌	-9.89031
諸侯之	-9.89039
歟	-9.89044
皆是	-9.89053
守之	-9.89065
腸	-9.89083
於世	-9.89175
逮	-9.89334
而用之	-9.89347
必不	-9.89391
貴賤	-9.89427
利而	-9.89435
第四	-9.89494
乃至	-9.89706
此乃	-9.89716
襄子	-9.89742
女子	-9.89777
地中	-9.89848
衆生	-9.89942
入山	-9.90022
之至也	-9.90029
次二	-9.90041
於物	-9.9005
之體	-9.90161
觀之	-9.90164
而歸	-9.90274
伺	-9.90313
之美	-9.90333
〇又曰	-9.90473
不畏	-9.90547
是猶	-9.90555
〇李筌曰	-9.90619
行者	-9.9065
於君	-9.90664
所以爲	-9.90712
性命	-9.90731
以告	-9.90794
説	-9.90977
桓	-9.91003
生死	-9.91013
其間	-9.91053
以一	-9.91078
至矣	-9.91184
五百	-9.91197
幼	-9.91214
圭	-9.91243
浸	-9.91249
狼	-9.91253
鐘	-9.91253
也然而	-9.91259
寫	-9.91275
雉	-9.91277
饒	-9.91279
鬱	-9.91297
玩	-9.91302
貶	-9.91304
緣	-9.91309
尹	-9.91333
𢖍	-9.91336
探	-9.91341
由此觀之	-9.91344
軸	-9.91352
老君	-9.91357
粹	-9.9136
明君	-9.91387
宗廟	-9.91392
旨	-9.91401
乎昔	-9.91439
次三	-9.91445
骨肉	-9.91466
熒惑	-9.91504
韓魏	-9.91507
城郭	-9.91515
詩云	-9.91527
十人	-9.91555
勝負	-9.9166
爲天下	-9.91696
有司	-9.91729
無極	-9.91955
卦氣	-9.92017
動也	-9.92075
治天下	-9.92276
而當晝君子	-9.92298
晏子	-9.92305
治者	-9.92314
一事	-9.92407
其名	-9.92447
終日	-9.92502
終不	-9.92504
何如	-9.92537
五帝	-9.92653
八十	-9.92745
能知	-9.92824
晋陽	-9.92832
也〇陳皥曰	-9.93115
墨子	-9.93222
君子之	-9.93282
貢	-9.93293
毅	-9.93472
耻	-9.9354
又云	-9.93564
〇杜佑曰	-9.93587
瓦	-9.93605
伎	-9.93617
曷	-9.93645
弑	-9.93653
鳩	-9.93654
傲	-9.93656
銀	-9.93665
生者	-9.93669
朽	-9.93669
股	-9.93674
唱	-9.93684
弋	-9.93689
蘭	-9.93691
填	-9.93695
讒	-9.93704
眉	-9.93713
再拜	-9.93739
三者	-9.93752
抗	-9.93757
董	-9.93773
偷	-9.93774
貳	-9.93777
鹽	-9.93815
千人	-9.93818
羹	-9.93858
其主	-9.9387
無害	-9.93895
次八	-9.94056
山林	-9.94089
也〇杜佑曰	-9.94108
十二辰	-9.94284
文章	-9.94286
與其	-9.94308
上九	-9.94343
五味	-9.94444
之節	-9.94453
不離	-9.94471
於心	-9.94507
夜半	-9.94519
也次七	-9.94566
凡此	-9.94568
用其	-9.94591
日月之	-9.94906
不失其	-9.94978
白公	-9.95063
為主	-9.95102
吴王	-9.95209
在下	-9.9525
無私	-9.95492
而復	-9.95524
方圓	-9.9569
鄭君	-9.9579
互	-9.95832
百人	-9.95836
餓	-9.95851
儲	-9.96075
也次三	-9.96075
趍	-9.96115
仞	-9.96118
迅	-9.96119
胷	-9.96121
錫	-9.96126
胃	-9.96128
黍	-9.96145
賀	-9.96146
敖	-9.96157
囊	-9.96165
渴	-9.96175
銷	-9.96185
眼	-9.96195
述	-9.96196
柳	-9.96201
可與	-9.96203
閣	-9.96206
禽獸	-9.9622
佩	-9.96226
虎豹	-9.96232
險阻	-9.96232
披	-9.96236
祈	-9.96241
切王曰	-9.9627
脉	-9.9627
駟	-9.96299
問於	-9.96331
豆	-9.96366
何可	-9.96459
自有	-9.96616
其性	-9.96638
而當夜	-9.96737
所出	-9.96745
則天下	-9.96768
之妙	-9.96792
長短	-9.96805
仁者	-9.96912
少陽	-9.97049
此之謂	-9.97141
不忘	-9.97202
所愛	-9.97241
也蓋	-9.97352
亦何	-9.97573
不得其	-9.97689
千金	-9.97841
使敵	-9.98137
易也	-9.98153
傷也	-9.98157
輩	-9.98224
在人	-9.98353
其法	-9.98362
其罪	-9.98368
之難	-9.9837
凡人	-9.98507
淮	-9.98522
崖	-9.98537
鞭	-9.98547
今從范本	-9.9861
電	-9.98622
於道	-9.98641
橋	-9.98647
的	-9.98652
籠	-9.98658
哉夫	-9.98663
闢	-9.98669
沃	-9.98673
駭	-9.98679
揆	-9.98696
想	-9.98698
棺	-9.98703
煙	-9.98704
豕	-9.98707
則知	-9.98757
繆	-9.98814
則不可	-9.98893
太清	-9.98947
造父	-9.98956
休息	-9.98977
思之	-9.99032
金液	-9.9905
而易	-9.99108
疾病	-9.99152
而走	-9.99362
於地	-9.99364
對待	-9.99369
未知	-9.99423
忠臣	-9.99578
無復	-9.99637
也次六	-9.99812
久而	-9.999
者蓋	-9.99907
嘆	-9.99942
者不能	-10.0004
此亦	-10.0006
從而	-10.0007
金石	-10.0013
七星	-10.0015
可使	-10.0039
以備	-10.005
第十	-10.006
鬻	-10.0065
天有	-10.0086
二十五	-10.009
況於	-10.0097
匱	-10.0105
其義	-10.0105
形而	-10.0109
排	-10.0109
擢	-10.0114
寤	-10.0115
逾	-10.0117
而忘	-10.0118
偉	-10.0119
黎	-10.0119
湛	-10.012
米	-10.0122
訾	-10.0122
狄	-10.0122
汗	-10.0123
也一曰	-10.0123
乳	-10.0123
盆	-10.0123
敷	-10.0124
譎	-10.0124
二氣	-10.0124
溪	-10.0125
訪	-10.0126
逝	-10.0126
眩	-10.0126
姤	-10.0126
陳皥曰	-10.0127
其利	-10.0128
祕	-10.013
壺	-10.013
内外	-10.013
無事	-10.0132
以明	-10.0134
岳	-10.0135
之貌	-10.0138
動則	-10.0142
譬如	-10.0146
先王之	-10.0147
歎	-10.0151
其位	-10.0155
强弱	-10.0156
一身	-10.0157
知此	-10.0159
存亡	-10.0167
宫室	-10.0184
非所	-10.0186
形勢	-10.0188
消長	-10.019
何爲	-10.0199
不自	-10.02
敵國	-10.0201
皆得	-10.0202
愛人	-10.0212
遠矣	-10.0213
曰君	-10.0218
也次五	-10.0218
善人	-10.0229
子産	-10.0237
豈有	-10.0244
衛君	-10.0246
鬼神之	-10.0254
車馬	-10.0264
者何	-10.0266
至此	-10.028
乎曰	-10.0283
事君	-10.0303
以應	-10.0306
問之	-10.0311
相反	-10.0317
受命	-10.0319
必敗	-10.0327
者言	-10.0338
度數	-10.0338
小大	-10.0341
天文	-10.035
未得	-10.0359
首尾	-10.0363
生而	-10.0372
其用	-10.0376
員	-10.0377
今從宋陸王本	-10.0379
所知	-10.0382
攘	-10.0382
竦	-10.0382
今從宋陸范本	-10.0383
庫	-10.0383
粗	-10.0385
岸	-10.0386
牀	-10.0387
挺	-10.0388
灼	-10.0388
巖	-10.0388
輒	-10.0389
掇	-10.0392
牲	-10.0395
羨	-10.0395
有常	-10.0396
那	-10.0397
十七	-10.0397
二十八宿	-10.0399
以正	-10.04
殺其	-10.0406
手足	-10.0426
亦不可	-10.0434
霸王	-10.0445
將欲	-10.045
在外	-10.0454
乎其	-10.0458
聖賢	-10.0463
中山	-10.0466
四面	-10.047
堪	-10.0472
止也	-10.0474
名實	-10.0475
敗也	-10.0491
而未	-10.0502
先後	-10.0505
愚謂	-10.0512
楚王	-10.0535
難也	-10.0538
事也	-10.0539
無一	-10.0545
上有	-10.0547
若是	-10.0565
不加	-10.0565
苗	-10.0574
可得而	-10.0575
攻城	-10.0576
若無	-10.058
也雖	-10.0585
吾所	-10.0593
邵子	-10.06
太公	-10.0604
北辰	-10.061
其親	-10.0614
豈能	-10.0616
鮑	-10.0619
不能使	-10.0621
大國	-10.0625
城下	-10.0639
項	-10.0643
眇	-10.0646
相對	-10.0646
甫	-10.0647
乗	-10.0649
題	-10.0649
棘	-10.065
付	-10.065
仇	-10.065
擁	-10.065
瑕	-10.0651
做	-10.0652
道路	-10.0653
慾	-10.0653
唫	-10.0653
僻	-10.0654
躍	-10.0654
器械	-10.0654
脅	-10.0655
垣	-10.0655
寺	-10.0656
曽	-10.0656
釜	-10.0657
戈	-10.0657
扁	-10.0659
淳	-10.066
詰	-10.0661
今從宋陸本	-10.0661
霍	-10.0661
恬	-10.0663
疵	-10.0665
贊	-10.0665
脚	-10.0667
譬若	-10.0672
之學	-10.0674
神農	-10.0695
地獄	-10.0695
不解	-10.0702
無用	-10.0717
金丹	-10.0718
忠信	-10.0718
不盡	-10.0731
他人	-10.0732
不立	-10.076
一本	-10.0762
則謂之	-10.0763
不亂	-10.0763
一家	-10.0772
木也	-10.0785
氣也	-10.0793
宣王	-10.0794
第二	-10.0795
之志	-10.0809
之業	-10.0812
也〇	-10.0815
歸之	-10.0828
也所謂	-10.0841
欲得	-10.0852
非一	-10.0854
好惡	-10.0854
人物	-10.0871
人無	-10.0879
陰陽之	-10.0883
之力	-10.0891
五事	-10.0895
抵	-10.0899
不可得	-10.0905
洛	-10.0908
晏	-10.0911
牛羊	-10.0914
衢	-10.0915
非不	-10.0915
朋	-10.0918
嗜	-10.0919
氷	-10.0922
九十	-10.0924
勒	-10.0924
六合	-10.0926
截	-10.0927
寓	-10.0928
潰	-10.0928
禪	-10.0929
竅	-10.0929
揮	-10.093
垢	-10.0931
沸	-10.0932
當此之時	-10.0933
範	-10.0933
秘	-10.0934
墓	-10.0936
暫	-10.0936
妨	-10.0936
嬰兒	-10.0939
呪	-10.0939
五行之	-10.0939
爛	-10.094
娶	-10.094
粉	-10.094
腦	-10.094
范本	-10.0941
燧	-10.0945
貧賤	-10.0951
若使	-10.0955
之神	-10.0956
三公	-10.0961
君也	-10.0962
示以	-10.0969
也次四	-10.0971
為用	-10.0983
此之謂也	-10.0983
利者	-10.0986
矣又	-10.0989
氏之	-10.099
兵法	-10.0992
筋	-10.0997
在前	-10.0999
地利	-10.1002
不可勝	-10.1004
所居	-10.1005
理也	-10.1013
六十四	-10.1032
十五日	-10.1035
若有	-10.1038
分為	-10.1044
其地	-10.1046
之分	-10.1062
大功	-10.1063
非所以	-10.1064
之數也	-10.1078
盡其	-10.1081
不獲	-10.1084
億	-10.1087
亡者	-10.1092
師曠	-10.1105
其力	-10.1115
七十二	-10.1117
戰勝	-10.1119
天下無	-10.1125
觀其	-10.1128
則可以	-10.1137
養之	-10.1139
五音	-10.114
乎夫	-10.1153
以至	-10.1157
其色	-10.1164
亦無	-10.117
可勝	-10.1174
可以爲	-10.1174
胥	-10.1179
彼此	-10.1179
孚	-10.1193
有命	-10.1194
無罪	-10.1196
拱	-10.1203
隨之	-10.1203
竄	-10.1205
之鬼	-10.1206
性也	-10.1208
此二	-10.121
不使	-10.1211
迂	-10.1211
鳳凰	-10.1213
冶	-10.1214
貸	-10.1217
察其	-10.1218
遐	-10.1219
焉故	-10.1219
寐	-10.122
䘮	-10.122
訣	-10.1221
遍	-10.1223
赦	-10.1225
什	-10.1225
邀	-10.1225
傍	-10.1226
翰	-10.1227
鳥獸	-10.1229
切范曰	-10.1229
虎狼	-10.123
郢	-10.123
則不能	-10.123
無方	-10.1235
先天圖	-10.124
為一	-10.1241
失之	-10.1259
伯夷	-10.1261
第一	-10.1262
或無	-10.1264
此所謂	-10.1267
福禄	-10.1267
簡公	-10.1273
故云	-10.1274
二曰	-10.1274
吾子	-10.1278
男子	-10.1283
白虎	-10.1284
莫之	-10.1285
先知	-10.1289
一變	-10.1294
海内	-10.1295
其母	-10.13
爲君	-10.1301
之盛	-10.1313
孰謂	-10.1317
勝之	-10.132
亦猶	-10.1326
之制	-10.133
六甲	-10.1333
而卒	-10.1333
法而	-10.1335
未及	-10.1336
山之	-10.1345
中間	-10.1347
未見	-10.1354
與天地	-10.1358
知伯	-10.1359
文子	-10.1363
死也	-10.1366
非有	-10.1372
不得不	-10.1384
勝敵	-10.1406
俗人	-10.1408
之書	-10.1414
也〇何氏曰	-10.1415
明年	-10.1419
有大	-10.1421
義者	-10.1442
昇	-10.1447
〇賈林曰	-10.1447
不欺	-10.1454
可用	-10.1467
國君	-10.1468
代之	-10.1475
無益於	-10.1477
立而	-10.148
以德	-10.1484
其民	-10.1484
大怒	-10.1485
小宋本作	-10.1489
氏曰	-10.1498
蹇	-10.1498
避之	-10.1499
茅	-10.1499
朕	-10.1503
苛	-10.1504
懦	-10.1504
論之	-10.1506
廷	-10.1507
憲	-10.1511
騁	-10.1512
鑄	-10.1513
措	-10.1513
轅	-10.1514
枕	-10.1514
副	-10.1515
伊	-10.1517
嗇	-10.1517
孕	-10.1517
芻	-10.1517
則我	-10.1518
耦	-10.152
父兄	-10.1522
萬事	-10.1529
大人	-10.153
剋	-10.1536
而當夜小人	-10.1548
爲上	-10.1549
德也	-10.155
有九	-10.1552
辜	-10.1555
十餘	-10.1559
易之	-10.1562
其外	-10.1569
七月	-10.1571
不修	-10.1572
十四	-10.1574
天地之間	-10.1587
數百	-10.1596
門户	-10.1596
之實	-10.1603
六陰	-10.1604
德之	-10.1614
乃得	-10.1627
萬世	-10.1627
不惑	-10.1636
其變	-10.1637
而利	-10.1639
故人	-10.1644
之高	-10.1645
氣之	-10.1649
也賛曰	-10.165
生焉	-10.1661
百二十	-10.1662
民無	-10.1666
爲物	-10.1668
而退	-10.1677
存乎	-10.1681
八月	-10.1687
日用	-10.1703
之類也	-10.1715
貴於	-10.1722
所用	-10.1727
藝	-10.1734
黄金	-10.1737
不窮	-10.1742
而無所	-10.1744
生人	-10.1747
而來	-10.1762
不息	-10.1766
則可	-10.1769
之始	-10.1772
家人	-10.1776
嶽	-10.178
非常	-10.1788
九地	-10.179
婁	-10.1792
數日	-10.1793
嵩	-10.1796
亦曰	-10.1797
五聲	-10.1797
弛	-10.1798
撲	-10.1805
奥	-10.1807
絳	-10.1808
鵲	-10.181
鄕	-10.181
湖	-10.181
弃	-10.181
縛	-10.1811
匈奴	-10.1812
反間	-10.1812
繡	-10.1813
迭	-10.1814
瘁	-10.1815
噬	-10.1815
松	-10.1816
漠	-10.1817
斛	-10.1817
㑹	-10.1818
戟	-10.1818
褒	-10.1819
遵	-10.1819
翳	-10.1819
嬴	-10.1819
罵	-10.182
犀	-10.182
礙	-10.1823
撰	-10.1824
巷	-10.1825
嗜欲	-10.1826
聞之曰	-10.1828
之宜	-10.1829
丹砂	-10.1833
子罕	-10.1835
〇朱子曰	-10.1835
正月	-10.1838
白黑	-10.1843
至德	-10.1847
見利	-10.1861
怒而	-10.1868
失道	-10.1873
太隂	-10.1873
無知	-10.1879
境内	-10.1879
號令	-10.1882
二子	-10.1883
一一	-10.1886
有能	-10.1894
其體	-10.1902
不虞	-10.1913
君人者	-10.192
陰生	-10.1921
陽中	-10.1929
賢而	-10.1934
齊王	-10.1943
於國	-10.1955
俄	-10.1957
不治	-10.1962
於我	-10.1966
己者	-10.1977
之官	-10.198
南極	-10.1997
乘之	-10.2003
地則	-10.2004
誘之	-10.2004
之資	-10.2004
三代	-10.2004
隂氣	-10.2005
六月	-10.2008
功成	-10.2013
一言	-10.2016
五日	-10.202
不堪	-10.202
之政	-10.2039
齊人	-10.2043
能令	-10.2058
少陰	-10.206
之兵	-10.2062
守其	-10.2064
也李筌曰	-10.2068
景公	-10.2069
乎天	-10.2083
則雖	-10.2094
不周	-10.2102
也初一	-10.2104
有數	-10.2107
紹	-10.2112
受之	-10.2113
鑑	-10.2113
地上	-10.2114
無術	-10.2117
麋	-10.2118
奴	-10.2119
水也	-10.212
郷	-10.2121
葛	-10.2122
馴	-10.2123
涸	-10.2123
䧟	-10.2125
警	-10.2125
汜	-10.2125
豹	-10.2125
榦	-10.2126
吝	-10.2127
揣	-10.2127
績	-10.2128
署	-10.2129
煞	-10.2129
者為	-10.2129
零	-10.2129
障	-10.213
當日之晝	-10.2131
雷霆	-10.2132
牝	-10.2132
熊	-10.2133
替	-10.2134
瀆	-10.2135
須臾	-10.2135
而治	-10.2136
愆	-10.2136
祠	-10.2137
扇	-10.2138
雙	-10.214
太宗	-10.2141
踵	-10.2141
灾	-10.2141
稅	-10.2142
匹夫	-10.2144
爲大	-10.2146
周孔	-10.2147
杪	-10.2149
林鍾	-10.2155
其下	-10.2158
死矣	-10.2169
其有	-10.2175
不免於	-10.2178
又如	-10.2179
曲直	-10.2185
堅白	-10.2188
莫如	-10.2194
死亡	-10.2201
能得	-10.221
在内	-10.2217
三寸	-10.2219
相生	-10.222
知人	-10.2224
將何	-10.2233
曰何	-10.2233
高而	-10.2241
九州	-10.2242
知也	-10.2258
於無形	-10.2265
無欲	-10.2267
九變	-10.227
皆爲	-10.2275
在地	-10.2279
久矣	-10.228
所作	-10.2285
故謂之	-10.2293
不可以爲	-10.2295
山中	-10.2304
度世	-10.2305
曰某	-10.2307
將以	-10.231
矣故曰	-10.2314
乎此	-10.2326
今以	-10.2331
也又曰	-10.2339
轉而	-10.2342
暇	-10.2342
勞而	-10.2352
而不以	-10.2357
五者	-10.2362
舉事	-10.2369
日夜	-10.2387
勇者	-10.2395
此謂	-10.2401
亡國	-10.2404
曰臣	-10.241
此其	-10.241
地下	-10.2411
廪	-10.2411
下有	-10.2413
止於	-10.2413
十九	-10.2413
莽	-10.2416
有天下	-10.2421
寂	-10.2429
熙	-10.2437
不測	-10.2437
高下	-10.2437
贖	-10.2437
羲	-10.2439
岐	-10.2439
左行	-10.2441
晷	-10.2441
人自	-10.2442
祐	-10.2444
失位當夜	-10.2445
繞	-10.2448
阜	-10.2448
立功	-10.2448
這	-10.2449
仍	-10.2449
促	-10.2451
爪	-10.2451
俠	-10.2452
級	-10.2452
柯	-10.2453
打	-10.2454
裝	-10.2455
楯	-10.2455
曼	-10.2456
臻	-10.2456
燎	-10.2457
償	-10.2458
飢寒	-10.2458
板	-10.2459
冷	-10.2459
融	-10.2459
贏	-10.2461
柴	-10.2461
江河	-10.2462
陽生	-10.2463
赫	-10.2465
之德	-10.247
而不敢	-10.2473
比干	-10.2475
一陰	-10.2484
類也	-10.2488
以下	-10.2495
鄰國	-10.2502
徃來	-10.2502
狀如	-10.2503
太初	-10.2503
有二	-10.2517
死於	-10.2521
制勝	-10.2521
也所以	-10.2522
不樂	-10.2524
自以爲	-10.2525
之甚	-10.2536
相愛	-10.2537
邵子曰	-10.254
何以知	-10.2544
在其	-10.2548
文武	-10.2555
一斤	-10.2556
太陰	-10.2566
見一	-10.2571
莫知	-10.2575
倦	-10.2583
無聲	-10.2589
三分	-10.2593
四月	-10.2597
夫婦	-10.2597
三百六十日	-10.2604
以攻	-10.2604
刑德	-10.2607
於身	-10.2609
安可	-10.2628
日出	-10.2634
二月	-10.2644
名山	-10.2646
少而	-10.265
所貴	-10.2661
之方	-10.2663
即日	-10.2664
千萬	-10.2665
不服	-10.2667
者也夫	-10.2676
異也	-10.2681
與物	-10.2686
不疑	-10.2703
二君	-10.271
不絶	-10.2713
十里	-10.2717
衆而	-10.2722
而見	-10.2725
之精也	-10.2728
不能得	-10.2737
制也	-10.274
致遠	-10.2742
因以	-10.2749
不能以	-10.275
士也	-10.2758
鈍	-10.276
藍	-10.2764
炳	-10.2768
可知也	-10.277
凉	-10.2771
荀	-10.2771
薛	-10.2775
惰	-10.2776
不合	-10.2776
俾	-10.2778
媚	-10.2779
蹠	-10.2779
健	-10.278
墨子卷之	-10.278
洗	-10.2782
瘡	-10.2782
汲	-10.2782
牡	-10.2784
瑞	-10.2785
吸	-10.2785
戍	-10.2785
酋	-10.2785
老子曰	-10.2786
閔	-10.2786
蟬	-10.2787
汁	-10.2787
較	-10.2788
璞	-10.2789
大破之	-10.279
演	-10.2791
㓜	-10.2791
庶幾	-10.2791
聘	-10.2792
會稽	-10.2792
宻	-10.2793
翁	-10.2793
場	-10.2795
煖	-10.2799
子貢	-10.2803
愚按	-10.2803
終於	-10.2805
子弟	-10.2811
又況	-10.2819
不幸	-10.2826
必欲	-10.2828
子胥	-10.2837
星辰	-10.2837
聞而	-10.2838
同也	-10.284
中孚	-10.2846
乎若	-10.285
而巳	-10.2855
小過	-10.2858
立春	-10.2871
成形	-10.2872
本於	-10.2875
則當	-10.2877
四者	-10.2877
太守	-10.2885
主人	-10.2889
太山	-10.2891
不肖者	-10.2897
糧道	-10.2898
恃其	-10.2904
形者	-10.2907
也次二	-10.2915
命之	-10.2918
與天	-10.2918
何足	-10.2919
有四	-10.2921
無異	-10.2938
語曰	-10.2944
未若	-10.295
當時	-10.2959
尚同	-10.2974
若不	-10.2975
號曰	-10.2978
勝也	-10.2992
賞之	-10.3008
於齊	-10.3012
者乃	-10.3017
軍士	-10.3021
未發	-10.3024
不應	-10.3029
天神	-10.3041
下降	-10.3041
能自	-10.3044
六陽	-10.3049
在此	-10.305
勢利	-10.3061
為正	-10.3069
而擊之	-10.3076
一說	-10.3082
左旋	-10.3088
而任	-10.3091
其大	-10.3094
王公大人	-10.3104
盡力	-10.3105
不遠	-10.3108
其臣	-10.3109
衣食	-10.3109
碧	-10.311
鄧	-10.3116
叅	-10.3116
株	-10.3117
以濟	-10.3119
佳	-10.312
慨	-10.3123
躡	-10.3123
售	-10.3124
而至	-10.3126
孟氏曰	-10.3126
稼	-10.3127
隣	-10.3127
奪之	-10.3128
誡	-10.3128
弄	-10.3128
懈	-10.3129
驥	-10.3129
詘	-10.3129
纔	-10.313
天理	-10.313
蟻	-10.3131
繳	-10.3131
簿	-10.3132
韜	-10.3132
賁	-10.3132
幣	-10.3132
丈夫	-10.3132
氐	-10.3133
丘陵	-10.3134
炊	-10.3135
肩	-10.3135
顓頊	-10.3136
亟	-10.3136
滔	-10.3137
屈伸	-10.3137
傑	-10.3138
循環	-10.3138
又以	-10.3138
料敵	-10.314
然後可以	-10.3142
銖	-10.3142
微妙	-10.3143
令尹	-10.3144
欽	-10.3146
盜賊	-10.3149
亂世	-10.315
故有是象	-10.3151
珠玉	-10.3151
好憎	-10.3152
順天	-10.3159
己之	-10.3173
上下相	-10.318
秦王	-10.3185
以來	-10.3191
盛衰	-10.3197
其根	-10.3202
智能	-10.3225
物而	-10.3233
姦臣	-10.3235
之所由	-10.3237
日日	-10.3238
〇陳皥曰	-10.3239
之智	-10.3275
諸家	-10.3278
不改	-10.3284
大將	-10.3297
皆不	-10.3303
在後	-10.3303
一元	-10.3304
人道	-10.3304
八極	-10.3317
在南	-10.3321
無物	-10.3323
五藏	-10.3325
主之	-10.3371
在其中	-10.3378
食之	-10.3381
三州	-10.3384
大敗	-10.3388
之義也	-10.3392
不去	-10.3401
便有	-10.3405
此所以	-10.3421
教之	-10.3435
以五	-10.3441
入於	-10.3447
法則	-10.3447
潦	-10.3453
復生	-10.3459
進而	-10.3461
之術也	-10.3464
四尺	-10.3466
子墨子言曰	-10.347
日以	-10.347
遠者	-10.3471
非爲	-10.3472
瑶	-10.3474
運行	-10.3475
雖多	-10.3475
阻	-10.3476
葆	-10.3476
曜	-10.3477
誨	-10.3477
跂	-10.3477
朴	-10.348
蓄	-10.3481
翠	-10.3482
季孫	-10.3483
酸	-10.3484
亮	-10.3487
刖	-10.3488
曩	-10.3488
沖	-10.3489
壇	-10.3489
亡也	-10.349
局	-10.3491
踦	-10.3491
煎	-10.3491
熾	-10.3491
秒	-10.3492
臯	-10.3492
輻	-10.3492
唐虞	-10.3492
而誅	-10.3493
鄒	-10.3494
飲酒	-10.3495
大王	-10.3496
睡	-10.3497
纍	-10.3498
憑	-10.3499
喙	-10.35
般	-10.35
技	-10.3501
不忠	-10.3501
之源	-10.3503
得仙	-10.3503
正直	-10.3505
死戰	-10.3507
之野	-10.3509
汞	-10.351
親戚	-10.351
莫敢	-10.3511
月行	-10.3512
之月	-10.3514
置之	-10.3516
故明主	-10.3519
已成	-10.3524
待之	-10.3525
舟車	-10.3528
於朝	-10.3529
官府	-10.3529
土地	-10.353
國有	-10.353
未易	-10.3537
未幾	-10.3539
孟子	-10.354
王本作	-10.3547
二十四氣	-10.3547
之迹	-10.3549
盡也	-10.3562
之色	-10.3566
四維	-10.3566
比周	-10.3566
八尺	-10.3567
之處	-10.3569
數千	-10.3574
故無	-10.3576
天命	-10.3577
曹公曰	-10.359
之所在	-10.3592
不暇	-10.3595
神丹	-10.3604
輟	-10.3608
矣若	-10.3608
陽升	-10.3612
術也	-10.3614
姓名	-10.3618
真氣	-10.3621
不曉	-10.3624
能以	-10.3625
與道	-10.3639
之序	-10.3643
兵者	-10.3645
於前	-10.3645
三家	-10.3648
三千	-10.3655
必得	-10.366
三曰	-10.3668
一二	-10.3679
二十七	-10.3688
九月	-10.3692
穆公	-10.3697
以救	-10.3701
此理	-10.3707
故君子	-10.3707
之論	-10.3716
者也故曰	-10.3718
治病	-10.372
道家	-10.3722
豈非	-10.3723
多矣	-10.3724
者少	-10.3736
未足	-10.3738
政事	-10.3739
未嘗不	-10.375
不傷	-10.3751
間者	-10.3759
何所	-10.377
當以	-10.3772
屬陽	-10.3773
相持	-10.3778
無可	-10.3781
與敵	-10.3786
一世	-10.3787
所以能	-10.3789
自是	-10.3792
用此	-10.3793
而行之	-10.3795
雖然	-10.3806
骸	-10.381
以類	-10.3813
知者	-10.3819
經世	-10.3821
故言	-10.3824
者天之	-10.3824
其光	-10.3826
韋	-10.3831
皆在	-10.3838
去其	-10.3842
所惡	-10.3844
編	-10.3845
其理	-10.3847
嫌	-10.3848
哲	-10.3848
神也	-10.3848
梯	-10.385
當知	-10.385
綿	-10.3851
諫曰	-10.3851
闊	-10.3851
畔	-10.3852
敏	-10.3852
拊	-10.3854
污	-10.3854
所由	-10.3854
藪	-10.3854
蹻	-10.3855
攫	-10.3855
斲	-10.3856
叢	-10.3856
膠	-10.3856
梓	-10.3856
拾	-10.3857
圃	-10.3857
當日之夜	-10.3857
谿	-10.3858
冢	-10.3859
畝	-10.3859
組	-10.386
畧	-10.386
皓	-10.386
丹法	-10.386
几	-10.3861
桂	-10.3862
部二家	-10.3864
所不能	-10.3864
爐	-10.3865
爽	-10.3865
摧	-10.3865
橐	-10.3866
停	-10.3866
即是	-10.3866
叔孫	-10.3868
頌	-10.3871
以養	-10.3876
甲乙	-10.3877
熏	-10.3877
故民	-10.3878
經云	-10.388
功也	-10.3881
清濁	-10.3882
之策	-10.3886
不孝	-10.389
未甞	-10.3892
毁譽	-10.3892
以勸	-10.3899
也或問	-10.3901
月建	-10.3901
不宜	-10.3903
程子曰	-10.3903
在北	-10.3908
動靜	-10.3909
齊桓公	-10.3913
而終	-10.3921
於子	-10.3923
不可爲	-10.3939
廣大	-10.3947
惠王	-10.3948
〇何氏曰	-10.3949
是故聖人	-10.3949
之元	-10.3954
養性	-10.3961
許由	-10.3967
二百	-10.3968
十尺	-10.3973
既已	-10.398
尚書	-10.3984
黄道	-10.3991
孰能	-10.3991
爲臣	-10.4001
養生	-10.4002
魏王	-10.4004
而實	-10.4014
盛德	-10.4018
平生	-10.4019
之害	-10.4022
神字	-10.4025
其内	-10.4032
立冬	-10.4036
天時	-10.4047
之要	-10.4057
則止	-10.406
喪其	-10.406
仙道	-10.4062
燕王	-10.4072
光明	-10.4084
非無	-10.4086
譬之	-10.4086
之師	-10.4088
争利	-10.4094
也子墨子曰	-10.4099
盲	-10.4121
而食	-10.4125
禮之	-10.4133
有備	-10.4137
五六	-10.4137
四為	-10.4152
天子之	-10.4152
莫知其	-10.4161
此書	-10.4162
以身	-10.4163
賂	-10.4166
二物	-10.4171
一云	-10.4175
下生	-10.4181
姦邪	-10.4181
之役	-10.4189
明矣	-10.4189
無禮	-10.4191
今從	-10.4192
浩	-10.4199
也若夫	-10.4211
驪	-10.4214
以制	-10.422
當晝	-10.422
水上	-10.422
鏤	-10.4229
善言	-10.4229
孔丘	-10.423
綴	-10.4231
缶	-10.4231
聽之	-10.4232
頸	-10.4233
彘	-10.4234
訴	-10.4237
澗	-10.4238
蝕	-10.4238
又不	-10.4239
觴	-10.4239
嚮	-10.424
峭	-10.424
搆	-10.4242
睟	-10.4242
版	-10.4242
屏	-10.4243
鸞	-10.4243
攺	-10.4243
咨	-10.4243
喉	-10.4244
尉繚子曰	-10.4245
酌	-10.4245
陛下	-10.4245
時有	-10.4245
隸	-10.4247
諾	-10.4247
櫓	-10.4248
墳	-10.4248
比於	-10.4249
難知	-10.425
菜	-10.425
燔	-10.4251
鶡冠子曰	-10.4253
桐	-10.4254
羈	-10.4255
周旋	-10.4255
而惡	-10.4256
朝夕	-10.4259
此說	-10.426
府庫	-10.4266
變者	-10.427
應之	-10.4272
彗	-10.4275
而制	-10.4284
近習	-10.4284
小宋	-10.4286
過於	-10.4294
疑惑	-10.4299
若乃	-10.43
之費	-10.4301
天一	-10.4303
人人	-10.4303
行其	-10.4309
南面	-10.4312
爲禍	-10.4312
之大者	-10.4313
信之	-10.4318
圖書	-10.4322
登第	-10.4327
之言也	-10.4332
知己	-10.4336
非馬	-10.4336
不急	-10.4347
無備	-10.435
以諭	-10.4358
教人	-10.4366
得罪	-10.4367
由乎	-10.437
本末	-10.4375
此道	-10.4377
衣服	-10.4395
安危	-10.4401
皆然	-10.4405
無名	-10.4406
哀公	-10.4406
一體	-10.441
趙王	-10.4418
人臣之	-10.4431
非能	-10.4437
不妄	-10.4439
固守	-10.4441
爲非	-10.4442
之前	-10.4444
不任	-10.445
為奇	-10.4457
自爲	-10.4459
難以	-10.4465
二千	-10.447
皆可	-10.4471
音聲	-10.4473
之交	-10.4479
不務	-10.4484
敵人之	-10.4491
清明	-10.4495
伐之	-10.45
者能	-10.45
亦得	-10.4506
奇兵	-10.4508
患也	-10.4513
矣是故	-10.4517
已上	-10.4525
也謂	-10.4528
始生	-10.4535
甚於	-10.4539
日舍	-10.4544
必無	-10.4549
與我	-10.4549
五千	-10.4549
舉兵	-10.455
獨見	-10.4552
曰今	-10.4554
從此	-10.4555
而難	-10.4556
爲義	-10.4566
而輕	-10.4579
何異	-10.4588
不見其	-10.4605
有德	-10.4612
麤	-10.4615
刋	-10.4615
使其	-10.4617
各自	-10.4621
勝則	-10.4622
精氣	-10.4628
荷	-10.463
雕	-10.463
遜	-10.4631
蛟	-10.4631
老陽	-10.4632
牖	-10.4632
脛	-10.4633
請以	-10.4633
忤	-10.4634
悍	-10.4634
揜	-10.4634
浴	-10.4636
掃	-10.4636
艱	-10.4636
槁	-10.4637
閼	-10.4638
暢	-10.4638
拯	-10.464
龐	-10.464
緒	-10.4641
岀	-10.4641
洲	-10.4642
雛	-10.4642
隕	-10.4643
慘	-10.4645
酣	-10.4645
倡	-10.4645
壓	-10.4646
仗	-10.4646
乍	-10.4646
扁鵲	-10.4647
次之	-10.4647
彭祖	-10.4647
杯	-10.4648
婚	-10.4648
膚	-10.4649
今從二宋陸王本	-10.4649
灑	-10.465
减	-10.465
勃	-10.465
鑪	-10.465
懲	-10.465
睹	-10.4651
炙	-10.4652
瓊	-10.4652
秩	-10.4654
䘏	-10.4654
水火土石	-10.4654
砥	-10.4654
大矣	-10.4654
訖	-10.4654
儒墨	-10.4655
不休	-10.4658
顔色	-10.4658
經緯	-10.4659
古者聖王	-10.466
以威	-10.466
所守	-10.4666
脩短	-10.4667
莫大於	-10.4667
以法	-10.4679
本一	-10.4681
者得	-10.4682
兩儀	-10.4685
土也	-10.4688
止之	-10.4688
無何	-10.4689
則無以	-10.4694
封之	-10.4697
施之	-10.4697
損益	-10.4699
乃能	-10.4699
太陽	-10.4699
先據	-10.47
人不能	-10.4706
趙氏	-10.4706
又復	-10.4707
何也曰	-10.4709
不避	-10.4712
於己	-10.4714
箕子	-10.4721
形名	-10.4723
黄白	-10.4723
之象也	-10.4724
部一家	-10.4728
其智	-10.473
之表	-10.4734
吾將	-10.4735
來者	-10.4736
求其	-10.4739
至精	-10.474
至乾	-10.4762
平公	-10.4764
生數	-10.4774
堅固	-10.4775
歸於	-10.4777
必待	-10.4779
說之	-10.4779
進則	-10.4782
屬陰	-10.4785
則下	-10.4809
以觀	-10.4813
能有	-10.4814
攻者	-10.4816
主者	-10.4817
事無	-10.4818
者常	-10.4826
退而	-10.4833
二分	-10.4837
之文	-10.4839
故得	-10.4845
大吕	-10.4845
三五	-10.4846
人必	-10.4858
所說	-10.486
當夜	-10.486
重人	-10.4862
於敵	-10.4867
不學	-10.4872
長者	-10.4875
生萬物	-10.4879
待敵	-10.4886
第三十	-10.4887
以和	-10.4887
子夏	-10.4888
魯人	-10.4893
不察	-10.4894
極則	-10.4899
行則	-10.4903
得意	-10.491
有六	-10.4911
勝者	-10.4915
者不以	-10.4917
生成	-10.4917
君曰	-10.4919
上黨	-10.4922
勝敗	-10.4928
六十四卦	-10.4929
隨時	-10.493
不齊	-10.4934
救火	-10.4936
與同	-10.4938
不克	-10.4938
而勿	-10.4945
也昔者	-10.4945
自謂	-10.4948
六爻	-10.4952
抱朴子答曰	-10.4955
事有	-10.4964
投之	-10.497
太虚	-10.4978
上生	-10.4978
便可	-10.4981
當作	-10.4982
可不	-10.4999
之所爲	-10.5
之山	-10.5004
之機	-10.5009
矣然	-10.501
攻戰	-10.5011
之具	-10.5015
不救	-10.5021
生氣	-10.5022
先至	-10.5032
誹	-10.5032
非其人	-10.5033
未形	-10.5036
情欲	-10.5037
疇	-10.5038
本無	-10.5038
致其	-10.5041
台	-10.5043
緑	-10.5048
絞	-10.5049
挑	-10.505
殖	-10.505
冕	-10.505
叟	-10.505
一方	-10.5051
欒	-10.5051
攷	-10.5052
加十五日指	-10.5052
錦	-10.5053
磬	-10.5053
崔	-10.5053
恢	-10.5053
婆	-10.5053
鑽	-10.5055
鑠	-10.5056
諱	-10.5057
蔚	-10.5057
沐	-10.5058
煑	-10.5058
弼	-10.5058
脯	-10.5058
菽	-10.5059
黜	-10.506
軀	-10.506
贍	-10.5061
卓	-10.5062
跪	-10.5062
貨財	-10.5063
陂	-10.5063
漿	-10.5064
僅	-10.5064
燿	-10.5065
潤澤	-10.5066
以取	-10.5066
濯	-10.5066
於事	-10.5066
例	-10.5067
針	-10.5067
段	-10.5067
晦朔	-10.5067
睦	-10.5067
辦	-10.5067
研	-10.5068
爲天子	-10.5069
貟	-10.5069
一爻	-10.507
鐸	-10.507
也易曰	-10.507
善戰者	-10.5071
鈆	-10.5072
譴	-10.5075
后稷	-10.5078
諂	-10.5078
夾鍾	-10.5082
布衣	-10.5084
也小宋本	-10.5086
范王本	-10.5088
消息	-10.5092
之深	-10.5096
尊卑	-10.5097
足以知	-10.5098
公孫	-10.51
不能相	-10.5102
無量	-10.5107
飛鳥	-10.5107
者如	-10.5107
節按	-10.5113
南吕	-10.5114
應鍾	-10.5114
不移	-10.5117
無法	-10.5117
以義	-10.5118
文侯	-10.5121
襄王	-10.5128
此三	-10.5129
弗知	-10.5136
之候	-10.5156
之辭	-10.5158
百餘	-10.5166
之命	-10.5166
或問曰	-10.517
木之	-10.5176
血氣	-10.5179
百歲	-10.5182
田常	-10.5182
之憂	-10.519
能使	-10.5194
太平	-10.5207
陽虎	-10.5208
得其宜	-10.5218
染於	-10.522
入于	-10.5221
也余	-10.5224
則勝	-10.5226
著於	-10.5227
夜光	-10.5227
又何	-10.5229
以道	-10.5231
以象	-10.5232
備之	-10.5233
而使	-10.5233
但凡	-10.5235
文學	-10.5236
刑政	-10.5236
水草	-10.5244
未生	-10.5251
始終	-10.5257
言語	-10.5258
愛其	-10.5285
曾子	-10.5288
木石	-10.529
官至	-10.529
乃是	-10.5308
不便	-10.5313
盡則	-10.5314
其類	-10.532
之藥	-10.5321
之巧	-10.5325
以事	-10.5331
不可使	-10.5337
不拔	-10.5337
魯君	-10.5338
相爲	-10.534
中氣	-10.5341
以火	-10.5342
猶有	-10.5348
死後	-10.5349
物物	-10.5349
乃曰	-10.535
人能	-10.5351
未聞	-10.5365
也且夫	-10.5365
便利	-10.5378
保其	-10.5389
曰寡人	-10.5389
得以	-10.5398
人身	-10.5398
而失	-10.5402
六律	-10.5407
非獨	-10.5412
而使之	-10.5412
今有	-10.542
槩	-10.5423
知彼	-10.5424
道術	-10.5426
軍争	-10.5431
必爲	-10.5432
久則	-10.5436
已定	-10.5436
昆	-10.5453
貴者	-10.5455
數年	-10.5459
其衆	-10.546
有術	-10.546
有一人	-10.5461
八十一	-10.5465
飄	-10.5465
其門	-10.547
自取	-10.5472
慚	-10.5475
逍遥	-10.5477
盜跖	-10.5478
綺	-10.5479
褐	-10.548
蹶	-10.548
僚	-10.5481
諌	-10.5482
釁	-10.5483
模	-10.5484
慝	-10.5486
孫叔敖	-10.5487
兕	-10.5487
滌	-10.5487
沛	-10.5488
允	-10.5488
謾	-10.5488
妬	-10.5488
隳	-10.5488
窕	-10.549
橫	-10.5491
尅	-10.5491
朱雀	-10.5492
臍	-10.5492
靖	-10.5492
劑	-10.5492
漬	-10.5493
藴	-10.5493
諧	-10.5493
淮南	-10.5494
繩墨	-10.5494
幟	-10.5494
太尉祭酒臣許愼記上	-10.5495
坑	-10.5496
勝於	-10.5496
旌	-10.5496
宦	-10.5497
邇	-10.5497
黿	-10.5497
怖	-10.5497
叩	-10.5498
鬪	-10.5499
抽	-10.5499
臞	-10.5499
毀	-10.55
蕪	-10.55
淨	-10.55
潭	-10.5502
庖	-10.5503
紙	-10.5503
有聲	-10.5504
浪	-10.5505
戰於	-10.5505
狸	-10.5505
贅	-10.5507
餐	-10.5508
裔	-10.5508
而外	-10.5515
備矣	-10.5516
一本作	-10.5516
王道	-10.5521
榖	-10.5523
〇邵子曰	-10.5523
昭侯	-10.5523
晋文公	-10.5526
太公曰	-10.5541
而明	-10.5547
賢不肖	-10.5548
衆寡	-10.5552
昭王	-10.5553
之首	-10.5555
其政	-10.5556
城中	-10.5556
群臣	-10.5561
積聚	-10.5562
先儒	-10.5564
文正	-10.557
小宋曰	-10.5571
不敬	-10.5573
大明	-10.5573
者先	-10.5579
立秋	-10.5579
其高	-10.56
病也	-10.5605
長也	-10.5609
不强	-10.5611
相救	-10.5611
百事	-10.5614
雄黄	-10.562
曰若	-10.5621
齊之	-10.5622
常在	-10.5624
不勞	-10.5626
而强	-10.5631
於秦	-10.5631
出而	-10.5632
德行	-10.5632
譽之	-10.5635
有異	-10.5661
守一	-10.5671
無過	-10.5671
恐其	-10.5672
讀書	-10.568
小宋本	-10.5681
而不用	-10.5693
遂得	-10.5705
伐楚	-10.5708
如一	-10.571
有間	-10.571
五尺	-10.5715
易其	-10.5731
下弦	-10.5736
必能	-10.5748
貴之	-10.5753
所利	-10.576
不取	-10.576
貴其	-10.576
服食	-10.576
獨立	-10.5763
明主之	-10.5765
其禍	-10.5768
而取	-10.5772
脩其	-10.5772
二三	-10.5774
精微	-10.5778
孝子	-10.5784
之所能	-10.5786
八節	-10.5795
分數	-10.5795
三光	-10.5799
明其	-10.5802
内無	-10.5802
師曰	-10.5807
不喜	-10.5818
故為	-10.5819
將有	-10.5819
不殺	-10.5823
家之	-10.5823
老陰	-10.5825
盡矣	-10.5845
焚其	-10.5847
晋人	-10.5849
以喻	-10.5854
所敗	-10.5866
變為	-10.5882
不逮	-10.5882
疆	-10.5885
亡國之	-10.5887
生明	-10.5889
於淵	-10.589
極而	-10.589
君之所	-10.5902
非義	-10.5904
相似	-10.5904
而取之	-10.5911
近者	-10.5912
所能	-10.5913
然後能	-10.5917
用力	-10.592
二公	-10.5921
之樂	-10.5923
莒	-10.5925
喬	-10.5928
帝王	-10.5929
四十九	-10.5929
以兵	-10.5932
愁	-10.5933
故雖	-10.5936
昭昭	-10.5937
漂	-10.5938
疫	-10.5938
頽	-10.5938
七尺	-10.5938
莖	-10.594
愚曰	-10.5941
聰	-10.5942
把	-10.5942
駑	-10.5943
厨	-10.5943
館	-10.5944
禳	-10.5944
跋	-10.5945
絳宫	-10.5946
餉	-10.5946
狡	-10.5946
街	-10.5947
圈	-10.5947
奕	-10.5948
撥	-10.5949
徽	-10.595
徴	-10.595
用心	-10.5951
妃	-10.5951
璽	-10.5951
滄海	-10.5951
秋毫	-10.5951
僇	-10.5951
摶	-10.5951
忒	-10.5952
不獨	-10.5952
虹	-10.5952
憐	-10.5953
羙	-10.5954
呼吸	-10.5955
款	-10.5955
朗	-10.5955
洪範	-10.5956
寜	-10.5956
妍	-10.5956
尼	-10.5957
扣	-10.5957
該	-10.5957
濮	-10.5958
而起	-10.5958
募	-10.5959
綸	-10.5959
劒	-10.596
栗	-10.596
能爲	-10.5962
不貴	-10.5963
亦如	-10.5963
耽	-10.5964
畜生	-10.5964
外内	-10.5964
挑戰	-10.5965
衰也	-10.5965
孫臏	-10.5968
衣冠	-10.5971
其所欲	-10.5971
司空	-10.5971
律吕	-10.5973
丙丁	-10.5975
不進	-10.5981
甲兵	-10.5981
其精	-10.5983
絶其	-10.5985
不戰	-10.5986
六六	-10.5989
說者	-10.5989
營室	-10.5997
不可復	-10.5997
空虚	-10.5997
河東	-10.5997
授之	-10.5998
車騎	-10.5999
不令	-10.6003
九地之	-10.6003
五人	-10.6003
春夏	-10.6005
乃始	-10.6006
和氣	-10.601
鼓之	-10.6014
人之有	-10.602
四季	-10.6023
流血	-10.6024
郎中	-10.6035
名爲	-10.6037
奪其	-10.6039
用六	-10.6039
揚子	-10.604
遠而	-10.6042
此法	-10.6046
者豈	-10.6047
而況	-10.6049
不戰而	-10.606
三尸	-10.606
小利	-10.6063
玄武	-10.6065
而可	-10.6067
一升	-10.6067
子發	-10.6072
四九	-10.6072
其辭	-10.6074
賢聖	-10.6075
也君子	-10.6075
暴亂	-10.6082
之路	-10.6085
天地間	-10.6088
王良	-10.6088
山在	-10.6088
為水	-10.6104
是時	-10.6106
必將	-10.611
人亦有	-10.6111
西施	-10.6114
之運	-10.6117
無他	-10.6119
斬之	-10.6121
以計	-10.6124
衆也	-10.6128
越王	-10.6133
八風	-10.6136
二尺	-10.614
以三	-10.6141
亦自	-10.6143
六畜	-10.6144
敗之	-10.6146
之力也	-10.617
自來	-10.6172
一念	-10.6186
愚人	-10.6186
免於	-10.6189
深入	-10.6202
而務	-10.6205
三星	-10.6205
無足	-10.6206
人曰	-10.6219
情也	-10.6219
兼愛	-10.622
而後能	-10.6224
中心	-10.6227
化也	-10.6227
相連	-10.6232
名者	-10.6232
為火	-10.6237
世而	-10.624
善於	-10.6241
也〇孟氏曰	-10.6251
不須	-10.6257
善則	-10.6263
安知	-10.6264
不辜	-10.6266
猶不	-10.6275
夫差	-10.6281
雖欲	-10.6283
能勝	-10.6285
皇帝	-10.6288
小而	-10.6291
而居	-10.6293
何足以	-10.6298
受其	-10.6311
然其	-10.6314
不安	-10.6317
人民	-10.6324
後有	-10.6325
不可得也	-10.6325
識者	-10.6331
曰吾聞	-10.6333
之狀	-10.6334
千餘	-10.6338
成敗	-10.6339
學之	-10.634
下者	-10.6345
何不	-10.6356
利在	-10.636
不和	-10.6362
民力	-10.6365
者必有	-10.6367
善用兵者	-10.6367
言無	-10.6371
不拘	-10.6371
相見	-10.6376
敵若	-10.6384
欲求	-10.6392
不敗	-10.6397
二年	-10.6404
蓐	-10.6408
瑟	-10.641
鼈	-10.6411
繕	-10.6412
踞	-10.6414
昊	-10.6414
劣	-10.6415
梟	-10.6416
蛤	-10.6418
婢	-10.6418
孫子註解卷之	-10.6418
萊	-10.6418
懈怠	-10.6418
則難	-10.6419
纏	-10.6419
跳	-10.6419
粲	-10.6419
簫	-10.642
睢	-10.642
殄	-10.642
奎	-10.642
蠹	-10.642
貯	-10.642
輯	-10.642
械	-10.642
澹	-10.6421
勳	-10.6421
糞	-10.6422
從其	-10.6422
旺	-10.6422
何則	-10.6423
所長	-10.6423
菑	-10.6423
淡	-10.6423
衮	-10.6424
算	-10.6424
羌	-10.6424
雒	-10.6424
曰諾	-10.6425
陟	-10.6426
宛	-10.6426
捉	-10.6427
夷狄	-10.6428
膳	-10.6428
鬲	-10.6428
誥	-10.6428
七年	-10.6428
巾	-10.6429
太上感應篇卷之	-10.6429
洿	-10.6429
十二萬九千六百	-10.643
萃	-10.643
惜其不知	-10.6431
膝	-10.6431
療	-10.6431
昴	-10.6431
月令	-10.6432
嫗	-10.6432
撞	-10.6433
卯酉	-10.6433
五臟	-10.6434
祇	-10.6434
戀	-10.6434
不意	-10.6435
神化	-10.6435
叔向	-10.6435
而責	-10.6436
嶺	-10.6436
及於	-10.6437
虚也	-10.6438
張孟談	-10.6439
愠	-10.644
低	-10.6441
姑洗	-10.6443
聰明	-10.6443
涕	-10.6446
者或	-10.6448
太祖	-10.6448
爲法	-10.645
至誠	-10.6456
共工	-10.6458
地仙	-10.646
智也	-10.6462
聖人之所	-10.647
隂降	-10.6473
不慈	-10.6474
布施	-10.6476
入水	-10.6476
加之以	-10.6479
冬夏	-10.6485
童子	-10.6485
不能制	-10.6488
埋	-10.6498
未至	-10.6498
命而	-10.6498
曰凡	-10.6504
泰山	-10.6505
以御	-10.6507
在位	-10.6508
請問	-10.6509
大如	-10.6511
腎氣	-10.6513
既濟	-10.6513
互相	-10.6522
合戰	-10.6523
舍之	-10.6524
豈可	-10.6525
無以異	-10.6525
使不得	-10.6526
乎地	-10.6529
過也	-10.6533
金水	-10.6533
良馬	-10.6542
論其	-10.655
視聽	-10.6557
易以	-10.6558
變易	-10.6562
根本	-10.6568
世主	-10.6569
辰為	-10.6569
之事也	-10.6572
玄黄	-10.6576
分别	-10.6578
仙經	-10.6582
退則	-10.6588
然後可	-10.6588
虚無	-10.659
兵强	-10.6598
六為	-10.6602
感應	-10.6602
無德	-10.6604
我能	-10.6604
達者	-10.6605
得見	-10.661
之氣也	-10.661
應變	-10.6611
元始	-10.6612
所求	-10.6616
不爭	-10.6619
無怨	-10.6621
彼我之	-10.6625
圓圖	-10.6629
矣抱朴子曰	-10.6629
學士	-10.6629
自知	-10.6631
死生之	-10.6632
其首	-10.6633
引兵	-10.6634
可乎	-10.6635
至則	-10.6636
攻取	-10.6638
親也	-10.6643
財物	-10.6643
便於	-10.6644
權變	-10.6644
藏於	-10.6645
戒之	-10.6648
要在	-10.6649
外物	-10.6655
人力	-10.6655
節制	-10.6658
宋君	-10.6659
丹田	-10.666
異日	-10.666
軍中	-10.6661
愛利	-10.6662
雨水	-10.6667
真君	-10.6667
大藥	-10.6667
不誅	-10.6672
迎之	-10.6674
多力	-10.6677
無非	-10.6702
一旦	-10.6703
有變	-10.6703
上升	-10.6707
矣是以	-10.6707
無已	-10.6714
也〇又曰	-10.6718
四六	-10.6719
圍之	-10.672
各得	-10.6727
不起	-10.673
輕兵	-10.6731
月在	-10.6732
誅之	-10.6733
但以	-10.6733
託於	-10.6738
日入	-10.674
藏之	-10.6746
必知	-10.6746
天地人	-10.6747
不勝其	-10.6747
危矣	-10.675
亦不能	-10.6751
不戒	-10.6753
宰相	-10.6754
得之以	-10.6759
及至	-10.6759
未成	-10.6765
欲令	-10.6775
其聲	-10.6775
罪人	-10.6778
於後	-10.678
或云	-10.678
輕舉	-10.6781
無遺	-10.6783
不下	-10.6785
子亦	-10.6787
自守	-10.6802
此即	-10.6803
九日	-10.681
周子	-10.6812
發於	-10.6814
明者	-10.682
大喜	-10.6824
死力	-10.6824
法術	-10.6826
許之	-10.6828
之餘	-10.6829
待其	-10.683
夷則	-10.6832
皆自	-10.6856
四星	-10.6857
曰不可	-10.6858
而亡	-10.6861
乾卦	-10.6865
皆能	-10.6868
備也	-10.6868
千里之	-10.687
體道	-10.6874
出奇	-10.6874
辰星	-10.6878
復有	-10.688
伐齊	-10.6882
日有	-10.6883
盡於	-10.6886
𤕠	-10.69
不重	-10.6901
恚	-10.6902
高山	-10.6902
遥	-10.6908
罕	-10.691
漫	-10.6911
疽	-10.6912
今從范王本	-10.6914
牒	-10.6914
恠	-10.6914
棋	-10.6914
吴曰	-10.6915
曰公	-10.6917
蓮	-10.6918
仲父	-10.6918
縻	-10.6919
三軍之衆	-10.6919
殽	-10.6919
矛	-10.692
肌膚	-10.692
豺狼	-10.692
公孫龍	-10.692
汎	-10.692
裹	-10.6921
五寸	-10.6921
狎	-10.6921
饋	-10.6921
駒	-10.6922
恍	-10.6922
伏兵	-10.6923
蟠	-10.6923
諛	-10.6923
枝葉	-10.6924
股肱	-10.6924
醇	-10.6924
標	-10.6924
肴	-10.6925
殫	-10.6927
纖	-10.6927
太簇	-10.6928
跌	-10.6928
龐涓	-10.6929
揭	-10.6929
至微	-10.693
東西南北	-10.6931
旄	-10.6931
呈	-10.6931
龐子曰	-10.6932
蹊	-10.6932
輝	-10.6933
弭	-10.6933
蓍	-10.6933
芬	-10.6933
第六	-10.6935
蜂	-10.6936
蟄蟲	-10.6937
奔走	-10.6938
筴	-10.6941
點	-10.6941
篡	-10.6942
先王之書	-10.6943
民之所	-10.6943
以爲治	-10.6944
堞	-10.6944
説在	-10.6944
其故何也	-10.6945
林宗	-10.6946
衆人之	-10.6952
山名也	-10.6952
吏卒	-10.6953
自當	-10.6953
不許	-10.6954
聖王之	-10.6956
朱鳥	-10.6959
恐懼	-10.6962
水銀	-10.6962
而去之	-10.6963
權衡	-10.6964
三十里	-10.6964
艮卦	-10.6965
長丈	-10.6965
莫見其	-10.6967
是何	-10.6968
官爵	-10.6972
不可輕	-10.6982
身中	-10.6987
不問	-10.6988
而獨	-10.6989
正道	-10.6991
命也	-10.6992
為本	-10.6995
三苗	-10.6996
成王	-10.6999
農夫	-10.7
昇天	-10.7
十二會	-10.7006
武帝	-10.7007
興師	-10.7008
太微	-10.7009
爲人臣者	-10.7014
之報	-10.7014
鬻子	-10.702
權勢	-10.703
者道之	-10.7034
其威	-10.7034
必取	-10.7037
勇力	-10.7041
相交	-10.7041
地方	-10.7043
華蓋	-10.7043
有苗	-10.7043
東井	-10.7045
其方	-10.7051
若敵	-10.7051
言之則	-10.7051
聲色	-10.7051
君命	-10.7054
也一說	-10.7056
害之	-10.7064
卿相	-10.7066
周禮	-10.707
楚人謂	-10.7074
爲本	-10.7075
尚有	-10.7077
宋人	-10.7077
大川	-10.7082
祝曰	-10.7083
雖在	-10.7084
周天	-10.7085
可知矣	-10.7094
庶人	-10.7098
福德	-10.7102
異於	-10.7106
忽然	-10.7106
甚矣	-10.7108
愈於	-10.7111
哉故	-10.7112
城門	-10.7114
五五	-10.7114
爲下	-10.7119
先聖	-10.7121
君子不	-10.7121
〇天	-10.7126
者固	-10.7126
則治	-10.7126
兊	-10.7134
陽數	-10.7138
乘馬	-10.714
者勝	-10.7145
不達	-10.7152
動作	-10.7155
亦當	-10.7158
勵	-10.7166
匠人	-10.7169
百家	-10.7172
而聽	-10.7174
月之	-10.7174
使我	-10.7179
又為	-10.7183
其口	-10.7187
一寸	-10.7191
相親	-10.7191
之俗	-10.7193
之任	-10.7194
後漢	-10.7196
其前	-10.7196
得位	-10.7197
三王	-10.7206
傳之	-10.721
夫唯	-10.7211
不作	-10.7215
乎故	-10.7215
甚多	-10.7217
二字	-10.722
無得	-10.7221
太上感應篇卷之二十	-10.7222
至大	-10.7226
二爲思中	-10.7226
勿令	-10.7227
彼我	-10.7229
十二陰	-10.7233
此非	-10.7244
是夕	-10.7245
不廢	-10.7247
身體	-10.7249
未盡	-10.7254
信也	-10.7256
八方	-10.7257
不精	-10.7261
赤子	-10.7262
不可得而	-10.7263
諸神	-10.7264
爲惡	-10.7265
石也	-10.7265
而爲之	-10.7266
術者	-10.7273
之木	-10.7281
大水	-10.7283
居處	-10.7284
亡其	-10.7286
不接	-10.729
以見	-10.729
攻守	-10.7291
從者	-10.7291
天帝	-10.7295
疾也	-10.7296
心者	-10.7305
一丸	-10.7306
無外	-10.7307
大過	-10.7312
智士	-10.7313
鄭人	-10.7316
欲與	-10.732
必危	-10.7323
以入	-10.7323
各異	-10.733
行列	-10.7335
室中	-10.7335
有定	-10.7344
未定	-10.7352
相乘	-10.7353
法制	-10.7361
其足	-10.7368
罰之	-10.738
其職	-10.7383
七八	-10.7386
離散	-10.7386
於彼	-10.7387
抱朴子外篇卷之三十	-10.7388
徯	-10.7393
二星	-10.7393
所至	-10.7405
立夏	-10.7409
犀首	-10.7411
片	-10.7411
之材	-10.7414
不能成	-10.7416
治民	-10.7418
不能救	-10.742
事事	-10.7422
于時	-10.7424
渭	-10.7424
守者	-10.7424
獺	-10.7427
簡子	-10.7427
嗟	-10.7427
高者	-10.7428
爲亂	-10.743
而從	-10.7431
在東	-10.7435
第五	-10.7435
悶	-10.7436
揖	-10.7437
巡	-10.7437
缾	-10.7439
不以爲	-10.7439
巴	-10.744
自得	-10.744
戢	-10.744
齊桓	-10.744
煉	-10.744
兵家	-10.7441
煬	-10.7442
方一州	-10.7442
眄	-10.7443
遑	-10.7444
葦	-10.7445
申子	-10.7445
苑	-10.7446
懾	-10.7447
斃	-10.7447
帷	-10.7447
舛	-10.7448
歐	-10.7449
訐	-10.7449
之患也	-10.7449
認	-10.745
干戈	-10.745
擣	-10.745
侏儒	-10.745
寶	-10.745
稻	-10.7451
夬	-10.7451
詠	-10.7451
煉形	-10.7451
頑	-10.7452
虬	-10.7452
失於	-10.7452
餒	-10.7452
携	-10.7452
壑	-10.7452
蘆	-10.7452
埃	-10.7453
娱	-10.7453
小子	-10.7453
凋	-10.7454
腰	-10.7454
而受	-10.7454
展	-10.7454
甕	-10.7454
朋友	-10.7455
確	-10.7455
抱朴子内篇卷之十	-10.7457
韓非子卷之十	-10.7458
浚	-10.7458
麾	-10.7459
攝提	-10.7459
燈	-10.7459
商鞅	-10.746
飢渴	-10.746
萬乘之	-10.746
爾雅	-10.7461
熒	-10.7462
四千三百二十	-10.7462
生木	-10.7462
呉	-10.7462
姿	-10.7463
麋鹿	-10.7463
壬癸	-10.7463
脊	-10.7463
庚辛	-10.7464
齊國	-10.7465
梅	-10.7465
筐	-10.7466
瑣	-10.7467
艷	-10.7468
盈縮	-10.7471
表裏	-10.7472
座	-10.7473
而還	-10.7473
第三	-10.7473
萬一	-10.7474
用兵之法	-10.7475
知敵情	-10.7475
玉帛	-10.7478
之家	-10.7478
秤	-10.7486
不可用	-10.7488
九竅	-10.7488
淑	-10.749
擊其	-10.7493
黄庭	-10.7493
尋常	-10.7498
呼之	-10.75
吴越	-10.75
昭公	-10.7504
青龍	-10.7506
死人	-10.7509
星紀	-10.7512
矣光謂	-10.7515
不稱	-10.7516
飲之	-10.7517
之卦	-10.7517
賢良	-10.7524
賢於	-10.7525
有國	-10.7527
而神	-10.7531
我者	-10.7533
火之	-10.7538
獲罪	-10.7543
黄老	-10.7544
天地之中	-10.7544
之吏	-10.7546
除之	-10.7549
危亡	-10.7558
之勞	-10.7558
假令	-10.7561
生水	-10.7565
大利	-10.7567
皆當	-10.7569
賢愚	-10.757
斗杓	-10.7571
人生	-10.7573
風俗	-10.7579
弗敢	-10.7582
精誠	-10.7585
簡主	-10.7587
欲使	-10.7589
莊王	-10.7591
管仲曰	-10.7597
先君	-10.7599
大雪	-10.7602
三國	-10.7603
自稱	-10.7605
經曰	-10.7606
乃使	-10.761
天尊	-10.7613
勇士	-10.7613
上文	-10.7615
所載	-10.7624
諸軍	-10.7624
其角	-10.7627
各有所	-10.7629
惑也	-10.763
無射	-10.7631
修身	-10.7632
有力	-10.7636
明師	-10.7637
文字	-10.7646
以我之	-10.7647
之所欲	-10.7649
金也	-10.7651
不苟	-10.7653
獲其	-10.7654
詐僞	-10.7654
靈王	-10.7655
神靈	-10.7657
察於	-10.7658
出乎	-10.7659
小國	-10.7659
入室	-10.766
堅守	-10.7665
又爲	-10.7673
不事	-10.7675
近也	-10.7676
必使	-10.7682
太上感應篇卷之十	-10.7684
知有	-10.7685
不平	-10.7691
王小宋本	-10.7691
惠子	-10.7702
化為	-10.7702
非指	-10.7714
分明	-10.7715
貴乎	-10.7716
一語	-10.7719
失時	-10.7723
則萬物	-10.7726
常法	-10.7728
知之者	-10.773
眞君	-10.7736
中藏	-10.7738
存焉	-10.7739
子午	-10.7741
畏死	-10.7753
刑名	-10.7757
言談	-10.7764
得志	-10.777
不倦	-10.7773
令其	-10.7773
必須	-10.7781
則失	-10.7785
於口	-10.779
抱朴子外篇卷之二十	-10.779
不以其	-10.7792
陷於	-10.7793
六氣	-10.7795
釋之	-10.7801
情性	-10.7805
之威	-10.7806
或謂	-10.7811
六星	-10.7817
之淵	-10.7818
其謀	-10.7824
形之	-10.7826
不恃	-10.7826
上聖	-10.7829
以安	-10.783
三代之	-10.7837
日為	-10.7839
楚國	-10.7839
尚賢	-10.7841
有八	-10.7848
和合	-10.7848
功而	-10.7849
而得之	-10.7869
之所生	-10.7881
在焉	-10.7881
形於	-10.7882
離卦	-10.7884
而觀	-10.7885
便當	-10.7885
者不必	-10.7888
猶未	-10.7892
於水	-10.7894
不親	-10.7898
嚴刑	-10.7906
韓子	-10.7909
大寒	-10.7924
聲也	-10.7925
王天下	-10.793
賢士	-10.794
天體	-10.7945
外無	-10.7949
觀其所	-10.795
二陰	-10.7956
丞	-10.796
畏之	-10.7966
在心	-10.7967
斯言	-10.797
而待	-10.7978
臘	-10.7978
等也	-10.7979
塞其	-10.7981
則得	-10.7982
翮	-10.7984
熈	-10.7986
駿	-10.7987
闡	-10.7988
脆	-10.7988
邵	-10.7989
鵬	-10.799
臣臣	-10.7991
沽	-10.7992
準繩	-10.7992
紅	-10.7994
蔑	-10.7994
此爲	-10.7994
在中	-10.7994
蹤	-10.7994
栢	-10.7995
鉛	-10.7995
踊	-10.7995
庳	-10.7996
起兵	-10.7996
兢	-10.7996
増	-10.7996
方二州	-10.7997
不踰	-10.7997
用法	-10.7997
悴	-10.7997
窈	-10.7999
畛	-10.7999
之賢	-10.7999
病者	-10.7999
逮至	-10.8
萍	-10.8
鴟	-10.8
遮	-10.8
夫豈	-10.8001
托	-10.8001
倨	-10.8001
恪	-10.8001
今從王本	-10.8001
奄	-10.8002
峙	-10.8002
豚	-10.8002
柰何	-10.8003
司馬法曰	-10.8003
迴	-10.8003
咫尺	-10.8003
駮	-10.8004
蔭	-10.8004
漉	-10.8004
鷙	-10.8005
塊	-10.8005
縷	-10.8005
顓	-10.8006
釐	-10.8006
倕	-10.8006
頻	-10.8006
廟堂	-10.8006
袒	-10.8007
瘠	-10.8007
沾	-10.8007
埒	-10.8007
嶮	-10.8007
祼	-10.8007
純粹	-10.8008
泊	-10.8008
閱	-10.8009
匝	-10.801
孳	-10.801
珪	-10.801
黔	-10.8011
李靖	-10.8011
丈人	-10.8011
怛	-10.8011
阨	-10.8012
所以然者	-10.8012
斫	-10.8013
勇怯	-10.8013
六日七分	-10.8013
夔	-10.8013
酬	-10.8014
祟	-10.8014
絡	-10.8014
琴瑟	-10.8014
壼	-10.8015
堙	-10.8015
軒轅	-10.8015
姚	-10.8016
被髮	-10.8016
垠	-10.8017
欠	-10.8017
躓	-10.8018
可行	-10.8018
孽	-10.8018
鑚	-10.8018
天原發微卷之十	-10.8018
而好	-10.8019
江海	-10.802
岫	-10.802
犢	-10.8021
供養	-10.8021
幕	-10.8023
䂓	-10.8024
課	-10.8025
左右前後	-10.8025
倉卒	-10.8027
南陽	-10.8027
不美	-10.8035
之良	-10.8037
盗賊	-10.8038
吕尚	-10.8038
所從	-10.8039
九疇	-10.8039
斷穀	-10.8042
亦可以	-10.8043
學道	-10.8044
不守	-10.8049
次序	-10.8053
白刃	-10.8057
奇伏	-10.8057
官職	-10.8063
守職	-10.8063
大亂	-10.8064
下無	-10.8065
五年	-10.8073
美人	-10.8075
所當	-10.8075
空中	-10.8077
復歸	-10.8078
方術	-10.8078
兩端	-10.8079
離朱	-10.8082
至今	-10.8083
平陸	-10.8086
不可見	-10.8086
四十八	-10.8087
有言	-10.8087
星主	-10.8088
今世	-10.809
北面	-10.8091
明察	-10.8096
程子	-10.8097
十二次	-10.8098
所不知	-10.8098
皆由	-10.8099
得其所	-10.8101
而萬物	-10.8103
姦人	-10.8104
一周天	-10.8106
反爲	-10.8107
其業	-10.8108
用兵之	-10.811
如是則	-10.811
書以	-10.8111
軍旅	-10.8114
工夫	-10.8115
氣多	-10.8116
無所用	-10.8117
勞苦	-10.8117
所好	-10.8128
政教	-10.8128
遠也	-10.8129
則多	-10.8131
千二百	-10.8131
目視	-10.8132
白也	-10.814
樹木	-10.8143
范小宋本	-10.8144
已有	-10.8145
天下之大	-10.8148
不得已而	-10.8149
人主之所	-10.8151
存亡之	-10.8153
在天為	-10.816
之所以爲	-10.8162
餘分	-10.8164
辰在	-10.8167
一千	-10.8168
佛言	-10.8176
皆如	-10.8181
以報	-10.8185
不可不察也	-10.819
上之所	-10.8192
盲者	-10.8193
縣令	-10.8196
三卷	-10.8196
約而	-10.8203
百萬	-10.8205
乃爲	-10.8207
無餘	-10.8212
一夕	-10.8218
内守	-10.8218
以玉	-10.822
微言	-10.8233
修道	-10.8236
二十六	-10.8238
老人	-10.8238
晦日	-10.8243
山名	-10.8248
是神	-10.825
守備	-10.8267
不違	-10.8268
攻伐	-10.827
無限	-10.8272
四變	-10.8275
命曰	-10.8286
反覆	-10.829
懷其	-10.8293
四十五	-10.8294
無端	-10.8299
第七	-10.8307
不滿	-10.8317
不煩	-10.8334
篇中	-10.8335
以廣	-10.8336
近之	-10.8343
不懼	-10.8346
始皇	-10.8347
識之	-10.8354
窮則	-10.8355
相通	-10.8357
氣力	-10.8361
能致	-10.8366
不施	-10.8367
長久	-10.8372
生火	-10.8372
君上	-10.838
器用	-10.838
窟	-10.838
以定	-10.8382
以通	-10.8383
兵弱	-10.8392
上古	-10.8397
於善	-10.8405
四曰	-10.8406
治世	-10.8408
必行	-10.8409
此五者	-10.8411
之難也	-10.8412
積善	-10.8412
之疾	-10.8416
聽治	-10.8418
知識	-10.8418
是以聖人	-10.8419
不憂	-10.8426
志曰	-10.8435
不定	-10.8437
而身	-10.8437
失火	-10.8443
雖未	-10.8444
帝王之	-10.8452
數萬	-10.8454
不悅	-10.8455
不怨	-10.8456
月光	-10.8461
失其所	-10.8465
萬變	-10.8466
韓非	-10.8467
是爲	-10.8473
民有	-10.8474
五間	-10.8478
杓	-10.8481
亦必	-10.8489
不可知	-10.8489
宋陸本	-10.8489
一尺	-10.8494
有益	-10.8499
弱而	-10.8502
赤道	-10.8505
財貨	-10.8509
莫若	-10.851
五官	-10.8511
必至	-10.8512
三方	-10.8514
其計	-10.8514
乃知	-10.8519
何以知其然也	-10.852
四分	-10.8524
子之言	-10.8528
亦復	-10.8532
乃以	-10.8536
告曰	-10.8552
哇	-10.8559
作爲	-10.8563
惕	-10.8565
軾	-10.8571
珥	-10.8574
諮	-10.8575
其他	-10.8578
謟	-10.858
用數	-10.858
裳	-10.8581
明白	-10.8581
卉	-10.8582
贛	-10.8582
法禁	-10.8582
犧	-10.8582
紐	-10.8583
宙	-10.8584
甄	-10.8584
遯	-10.8585
毫釐	-10.8585
可畏	-10.8585
楹	-10.8585
巵	-10.8586
嘔	-10.8586
瑩	-10.8587
逹	-10.8587
俛	-10.8588
茹	-10.8588
槃	-10.8588
詢	-10.8588
闚	-10.8588
霜雪	-10.8588
喑	-10.8589
暖	-10.8589
縞	-10.8589
魚鼈	-10.859
禆	-10.859
醴	-10.859
現	-10.8591
繭	-10.8591
壹	-10.8592
桎梏	-10.8592
聊	-10.8592
棟	-10.8593
翦	-10.8593
閎	-10.8594
乹	-10.8594
嘘	-10.8594
昩	-10.8594
粒	-10.8595
勒陽關	-10.8595
敝	-10.8596
揖讓	-10.8596
袖	-10.8596
一畫	-10.8596
譁	-10.8596
闔閭	-10.8596
輦	-10.8597
碩	-10.8597
爰	-10.8597
殉	-10.8597
士民	-10.8597
涯	-10.8598
記曰	-10.8598
蘇秦	-10.8598
稼穡	-10.8598
惶	-10.8598
奸	-10.8598
七十二候	-10.8599
貺	-10.8599
謳	-10.8599
隧	-10.86
涓	-10.86
肌	-10.86
黒	-10.8601
趙襄子	-10.8601
棗	-10.8601
賁育	-10.8601
二百一十六	-10.8601
抄	-10.8602
淹	-10.8602
泥丸	-10.8603
穽	-10.8603
齋鮑雲龍景翔編著虚谷方回萬里校正	-10.8603
拓	-10.8604
翻	-10.8605
哭泣	-10.8606
厄	-10.8607
妓	-10.8608
憫	-10.8608
泛	-10.8608
子至巳	-10.8608
覘	-10.8609
縱横	-10.861
塹	-10.861
導引	-10.861
堯舜禹湯文武	-10.861
觜	-10.8611
項羽	-10.8611
蛟龍	-10.8612
瓜	-10.8613
庸人	-10.8613
孰知其	-10.8613
千里之外	-10.8616
鶉火	-10.8616
易有	-10.8616
卑賤	-10.8617
商君	-10.8618
蟹	-10.8618
六七八九	-10.8618
雖大	-10.8619
雨露	-10.862
陣	-10.8621
四鄰	-10.8623
十餘年	-10.8624
戊己	-10.8625
刑戮	-10.8625
為體	-10.8628
相得	-10.8628
六卦	-10.8629
舅犯	-10.8631
八百	-10.8631
清靜	-10.8633
一舉而	-10.8635
處於	-10.8636
人主不	-10.8637
有道者	-10.8637
仁人	-10.8639
己而	-10.8641
河伯	-10.8642
陽故	-10.8643
吏民	-10.8645
六十卦	-10.865
孟子曰	-10.8653
方寸	-10.8658
嵩山	-10.8659
獻之	-10.8663
眞武	-10.8667
易牙	-10.8672
江南	-10.8675
順其	-10.868
太歲	-10.8682
兩軍	-10.8683
於俗	-10.8687
若非	-10.8689
大驚	-10.8689
重地	-10.8691
根於	-10.8691
其日	-10.8696
千乘	-10.8701
此心	-10.8701
不審	-10.8704
若能	-10.8706
所親	-10.8707
之主也	-10.8709
雖無	-10.871
百病	-10.8711
也大抵	-10.8712
先王之道	-10.8716
能盡	-10.8717
直言	-10.8723
又當	-10.8726
東海	-10.8728
也杜牧曰	-10.8728
功名	-10.8728
之間而	-10.873
林木	-10.8731
乎抱朴子答曰	-10.8737
千歳	-10.8742
七政	-10.8744
危國	-10.8748
山澤	-10.8751
一朝	-10.8752
則生	-10.8752
於韓	-10.8753
唯聖人	-10.8754
事上	-10.8759
荆山	-10.8761
不害	-10.8761
東流	-10.8764
發其	-10.8771
父毋	-10.8772
遣使	-10.878
辱之	-10.8782
使之然	-10.8783
日冬至	-10.8785
復得	-10.8788
非正	-10.8792
不能治	-10.8799
專任	-10.8806
王公	-10.881
不擇	-10.8811
之法也	-10.8825
成都	-10.8839
天門	-10.8841
先須	-10.8842
危難	-10.8846
不然則	-10.8847
高祖	-10.8854
毁之	-10.8854
無患	-10.8861
無失	-10.8869
取諸	-10.8875
欣	-10.8876
者猶	-10.8876
即位	-10.8877
乎抱朴子曰	-10.8883
勝故	-10.8884
而可以	-10.8887
其半	-10.8891
之佐	-10.8891
三才	-10.8895
人之國	-10.8903
勢重	-10.8907
守城	-10.8909
所重	-10.8911
行義	-10.8914
不全	-10.8915
積德	-10.8915
欲治	-10.8917
之柄	-10.892
俄而	-10.8923
修行	-10.8928
無功而	-10.893
子路	-10.8936
民皆	-10.8938
世有	-10.8939
出處	-10.8939
俗之	-10.8941
十斤	-10.8941
一同	-10.8941
用故	-10.8946
大梁	-10.8947
者斷	-10.895
多有	-10.8955
相合	-10.896
人之善	-10.8961
相望	-10.8962
地理	-10.8963
行軍	-10.8965
耳目之	-10.8966
無敢	-10.8967
三百日	-10.8968
之所生也	-10.8968
高陽	-10.8972
之域	-10.8976
月為	-10.8977
之臣也	-10.898
以奇	-10.8982
以成其	-10.8984
耳若	-10.8986
氣質	-10.8986
乃自	-10.8988
還丹	-10.899
一時之	-10.8991
可食	-10.8996
無以自	-10.9
王孫	-10.9003
巧詐	-10.9005
愛民	-10.9005
皆所以	-10.9006
疑之	-10.9009
失所	-10.9011
開物	-10.9013
相從	-10.9013
中宫	-10.9016
其美	-10.9022
讀如	-10.9028
出門	-10.903
楚之	-10.9032
亂政	-10.9033
不給	-10.9033
人之用	-10.9034
於市	-10.9035
患於	-10.9036
而食之	-10.9039
者多矣	-10.904
五百歲	-10.904
成就	-10.9049
處高	-10.905
不假	-10.905
人之所以	-10.9052
明王	-10.9059
一周	-10.9072
何益	-10.9074
先人	-10.9079
此數	-10.9079
愚智	-10.9083
莊子	-10.909
得賢	-10.9094
是鬼	-10.9098
必多	-10.9098
頭上	-10.91
而朝	-10.9105
形體	-10.9106
則利	-10.9108
哉昔	-10.9109
但能	-10.912
以分	-10.9127
爲不善	-10.9127
正長	-10.9128
可見也	-10.9135
楚師	-10.9159
神聖	-10.9162
之備	-10.9163
更生	-10.9166
一二三四	-10.9174
其所以爲	-10.9178
詹	-10.9185
南至	-10.9194
蚩	-10.9196
亶	-10.9198
不設	-10.9198
掣	-10.9199
者唯	-10.9199
閨	-10.9201
榆	-10.9202
堁	-10.9204
烽	-10.9205
餌之	-10.9207
扃	-10.9207
蠱	-10.9207
紫房	-10.9208
叱	-10.9209
飈	-10.9209
厠	-10.921
碑	-10.921
跖	-10.9211
籌	-10.9211
荼	-10.9212
騖	-10.9212
蚑	-10.9213
樞宻	-10.9213
鵠	-10.9214
堤	-10.9214
法術之士	-10.9215
餓死	-10.9215
嵗	-10.9215
爪牙	-10.9215
胸	-10.9215
芥	-10.9216
籥	-10.9216
巿	-10.9216
恍惚	-10.9216
剪	-10.9216
吿	-10.9216
剡	-10.9217
驂	-10.9217
汾	-10.9217
焕	-10.9217
菌	-10.9218
醮	-10.9218
勛	-10.9218
偕	-10.9218
驟	-10.9218
偪	-10.9219
浹	-10.922
惻隱	-10.922
劾	-10.9221
楚莊王	-10.9221
囹圄	-10.9221
雷電	-10.9222
今若	-10.9222
臧獲	-10.9223
醴泉	-10.9223
猿	-10.9223
透	-10.9224
墟	-10.9224
凉風	-10.9224
粮	-10.9224
䕶	-10.9224
偽	-10.9224
彦	-10.9225
故下文云	-10.9225
彩	-10.9225
分兵	-10.9225
諸葛	-10.9226
衣裳	-10.9226
涵	-10.9227
竪	-10.9227
黙	-10.9228
潞	-10.9228
悼	-10.9229
主君之	-10.9229
嫉	-10.9229
㝠㝠	-10.923
銘	-10.923
不能知	-10.923
擲	-10.9231
捶	-10.9231
之容	-10.9232
不可勝計	-10.9232
收歛	-10.9232
覿	-10.9234
苓	-10.9234
袁	-10.9234
黄石公	-10.9235
羽翼	-10.9236
迷惑	-10.9238
犠	-10.9239
周公旦	-10.924
剌	-10.924
二百四十	-10.9241
吴子	-10.9242
復姤	-10.9242
漸漸	-10.9242
冥冥	-10.9244
齋戒	-10.9245
下流	-10.9246
無度	-10.9247
鎮星	-10.9253
十二時	-10.9253
二百五十六	-10.9254
嗟乎	-10.9256
季氏	-10.9259
專一	-10.9259
榮華	-10.9259
革車	-10.9261
斬首	-10.9264
方便	-10.9269
長幼	-10.9269
使間	-10.927
萬殊	-10.9271
向背	-10.9271
也范本作	-10.9272
輕地	-10.9272
右轉	-10.9272
論語曰	-10.9272
則進	-10.9272
五嶽	-10.9272
世俗之	-10.9274
糧食	-10.9277
長生之道	-10.9279
矢石	-10.9281
之類是也	-10.9284
獨知	-10.9287
之貌也	-10.9291
張子曰	-10.9291
適足以	-10.9293
道德之	-10.9298
不節	-10.9299
務光	-10.9301
期年	-10.9303
同氣	-10.9303
賞也	-10.9303
恩信	-10.9304
獻公	-10.9305
之治天下也	-10.9317
夫子之	-10.9318
治矣	-10.9319
百一十	-10.932
不犯	-10.932
水土	-10.9322
萬物皆	-10.9324
王莽	-10.933
悲夫	-10.934
對曰臣	-10.934
神龜	-10.9346
一半	-10.9354
不可測	-10.9365
著書	-10.9366
坎卦	-10.9374
有功者	-10.9376
四夷	-10.9385
萬八千	-10.9395
賞賜	-10.9398
六尺	-10.94
勢位	-10.94
無赦	-10.94
人之性	-10.9406
出軍	-10.9406
吾言	-10.9408
平地	-10.941
異人	-10.9411
人倫	-10.9412
陳平	-10.9415
爲賢	-10.9417
但知	-10.9422
莫之能	-10.9424
行私	-10.9424
不傳	-10.9424
使敵人	-10.9426
者不可勝數	-10.9427
以聽	-10.9427
出來	-10.943
足矣	-10.9436
旣至	-10.9436
又况	-10.944
而弗能	-10.944
定位	-10.9441
諸子	-10.9448
終不可	-10.9454
度也	-10.9454
而笑	-10.9458
我何	-10.946
生乎	-10.9464
荆王	-10.9466
一句	-10.9469
天地之心	-10.947
其末	-10.9471
學問	-10.9481
無憂	-10.9482
其樹	-10.9491
天下之所	-10.9493
居上	-10.9494
於人也	-10.9494
之府	-10.9496
而望	-10.9497
無慮	-10.9497
制之	-10.9502
先以	-10.9506
三皇	-10.9507
十有二	-10.9511
五兵	-10.9515
而發	-10.9516
之中而	-10.9518
由此	-10.9518
貪利	-10.9519
便謂	-10.9524
爲變	-10.9525
人之心	-10.9526
之利也	-10.9535
苟得	-10.9543
不可攻	-10.9548
良將	-10.9556
皆作	-10.9556
當先	-10.9564
不泄	-10.9564
示之以	-10.9566
我欲	-10.9568
天地之氣	-10.957
變爲	-10.9578
安也	-10.9586
其材	-10.9593
所存	-10.9601
今世之	-10.9605
遂至	-10.9614
患之	-10.9617
知天	-10.9622
下文	-10.9626
不在於	-10.963
為土	-10.963
財用	-10.9632
而示之	-10.9636
求諸	-10.9637
不輟	-10.9644
必見	-10.9648
十八日	-10.9651
小者	-10.9671
不同而	-10.9675
七分	-10.968
況乎	-10.9681
有箇	-10.9688
敢問	-10.969
晏子曰	-10.97
一會	-10.9701
交相	-10.9708
為善	-10.9725
即爲	-10.9732
邪正	-10.9736
不病	-10.9737
勝己	-10.9739
善用	-10.9739
之恩	-10.974
元陽	-10.974
生地	-10.9751
大運	-10.9751
授以	-10.9752
荆人	-10.9755
其目	-10.9767
三辰	-10.9769
之說乎	-10.977
始得	-10.9771
静則	-10.9772
無爲而	-10.9793
歎曰	-10.9794
中外	-10.9794
往者	-10.9797
末世	-10.9803
厚者	-10.9806
輕敵	-10.9811
是可	-10.9823
之行也	-10.9825
遂成	-10.9828
了不	-10.9828
同歸	-10.9831
之始也	-10.9832
物咸	-10.9834
公家	-10.9837
九年	-10.9838
亂則	-10.9839
牟	-10.9839
八八	-10.984
也〇杜牧曰言	-10.9841
兵勢	-10.9841
三爲成意	-10.9842
桀紂之	-10.9844
澆	-10.9853
其腹	-10.9862
金木	-10.9863
耿	-10.9864
陰數	-10.9866
翅	-10.9866
無極而太極	-10.9867
衆人之所	-10.9868
舉動	-10.987
榛	-10.9871
絜	-10.9871
也詩云	-10.9871
囿	-10.9871
璋	-10.9872
蜜	-10.9872
元凱	-10.9872
脣	-10.9873
囂	-10.9873
纓	-10.9875
賦歛	-10.9875
侣	-10.9876
蚊	-10.9876
摽	-10.9876
伉	-10.9877
韶	-10.9877
礥	-10.9877
架	-10.9877
刻鏤	-10.9877
褊	-10.9878
屨	-10.9878
鍛	-10.9879
褻	-10.9879
儼	-10.988
僥	-10.988
二爲思中而當晝君子	-10.988
頰	-10.988
其旁	-10.9882
澒	-10.9882
矧	-10.9882
大火	-10.9882
勑	-10.9882
雁	-10.9883
優劣	-10.9883
老聃	-10.9883
螘	-10.9883
洩	-10.9884
溟	-10.9884
矰	-10.9884
撻	-10.9885
瞑	-10.9885
為將	-10.9885
虺	-10.9885
昬	-10.9886
殻	-10.9886
瞢	-10.9886
番	-10.9886
吳	-10.9886
狐狸	-10.9887
猛獸	-10.9887
潘	-10.9887
鹹	-10.9887
餓鬼	-10.9887
暉	-10.9887
窾	-10.9887
犧牲	-10.9888
挂	-10.9888
錘	-10.9889
騏	-10.989
添	-10.989
伊川	-10.989
鉅	-10.989
凑	-10.989
竿	-10.989
挹	-10.989
雲梯	-10.989
蠅	-10.9891
慙	-10.9891
癡	-10.9891
霞	-10.9892
態	-10.9892
忠孝	-10.9892
其才	-10.9893
鮑叔	-10.9893
嘲	-10.9893
糾	-10.9893
需	-10.9893
轍	-10.9893
岡	-10.9894
自上而下	-10.9894
額	-10.9894
冲	-10.9894
併	-10.9895
暝	-10.9895
無差	-10.9896
企	-10.9896
孔墨	-10.9896
清淨	-10.9896
某甲	-10.9897
贄	-10.9897
不化	-10.9897
樵	-10.9898
恂	-10.9898
四海之内	-10.9898
評	-10.9899
幅	-10.9902
殯	-10.9902
張氏曰	-10.9903
採藥	-10.9904
冀州	-10.9905
富人	-10.9905
小運	-10.9905
戸	-10.9906
口訣	-10.9907
控	-10.9907
而賤	-10.9907
各守	-10.9908
傳曰按	-10.9909
此又	-10.991
烏獲	-10.9911
璣	-10.9912
以至於	-10.9914
劉向	-10.9914
下至	-10.9915
二百五十二	-10.9916
很	-10.9916
太廟	-10.9917
畜積	-10.9918
乃命	-10.992
張儀	-10.992
欲知	-10.9921
之民也	-10.9921
欲攻	-10.9923
吾所以	-10.9923
凡物	-10.9924
柔弱	-10.9926
黄泉	-10.9926
孫武	-10.993
御史	-10.993
婿	-10.9931
隂司	-10.9933
殺戮	-10.9934
然皆	-10.9935
秋冬	-10.9937
仲春	-10.9938
小兒	-10.994
彊弱	-10.9941
乎當知	-10.9943
龍蛇	-10.9943
李斯	-10.9944
鮑生	-10.9944
四正卦	-10.9944
因縁	-10.9945
武侯	-10.9947
問之曰	-10.9947
十二律	-10.9956
傅說	-10.9958
圖之	-10.9959
後生	-10.9973
之數而	-10.9978
〇何氏曰如	-10.9978
兩手	-10.9981
竭力	-10.9986
誅罰	-10.9987
無疆	-10.9996
力不足	-10.9998
則衆	-11.0005
二萬	-11.0006
良久	-11.0007
大國之	-11.0013
尊位	-11.0014
也以其	-11.0016
舉也	-11.0016
相繼	-11.0018
雲氣	-11.0019
修德	-11.0021
乎大抵	-11.0021
伯樂	-11.0025
惟其	-11.0027
出于	-11.003
率衆	-11.0033
四卦	-11.0035
諸夏	-11.0037
周室	-11.0037
晋文	-11.0039
流俗	-11.0041
子房	-11.0043
之具也	-11.0044
李氏	-11.0048
未濟	-11.005
天左旋	-11.0052
疾風	-11.0059
然後有	-11.0066
臨敵	-11.0069
非我	-11.008
有似	-11.0087
五才	-11.0088
興兵	-11.0088
彼必	-11.0091
其兄	-11.0092
龍門	-11.0094
冬日	-11.0095
天下皆	-11.0096
已死	-11.0099
而不明	-11.0099
庶子	-11.01
險易	-11.0102
讀曰	-11.0108
子雲	-11.0114
不測之	-11.0119
虚空	-11.013
也雖然	-11.013
而不見	-11.0131
問其故	-11.0132
而應之	-11.0138
大將軍	-11.0145
玉石	-11.0147
矣然而	-11.0148
又按	-11.0149
生子	-11.0149
分財	-11.0149
老氏	-11.0151
田成	-11.0151
達於	-11.0151
不争	-11.0152
治身	-11.0153
無定	-11.0153
趨利	-11.0154
黨與	-11.0155
不經	-11.0156
積石	-11.0167
民多	-11.0171
西山	-11.0174
伐木	-11.0193
民間	-11.0205
極星	-11.021
不為	-11.0211
得道者	-11.0212
八爲禍中	-11.0214
時日	-11.0216
先見	-11.0219
應時	-11.0221
公私	-11.0222
而不言	-11.0224
要害	-11.0226
上士	-11.023
撓之	-11.0234
可得而知	-11.0244
之過也	-11.0246
名位	-11.0246
養生之	-11.0247
貴人	-11.0247
生魄	-11.0249
嘆曰	-11.0258
受敵	-11.0281
周人	-11.0286
不敢不	-11.0299
下愚	-11.0303
利用	-11.0308
之宗	-11.0309
方來	-11.0332
高也	-11.0334
反復	-11.0339
而滅	-11.0344
乎對曰	-11.0352
三元	-11.0354
起火	-11.036
用間	-11.0363
百六十	-11.0366
怒則	-11.0367
一爲思始而當夜	-11.0367
不盈	-11.0369
足用	-11.0375
聖人之道	-11.0378
異類	-11.0381
不遇	-11.0384
陳兵	-11.0393
象天	-11.0393
虚名	-11.0403
而勸	-11.0409
之所及	-11.0411
大賢	-11.0414
遠乎	-11.0414
人之情	-11.0415
處官	-11.0416
不嚴	-11.0417
郄	-11.0427
臣請	-11.0427
不可不察	-11.0432
鄙人	-11.0438
常存	-11.044
仙藥	-11.0443
為變	-11.0453
取人	-11.0463
又曰天	-11.0467
埋之	-11.047
物者也	-11.0472
更相	-11.0473
大風	-11.0478
太行	-11.0486
木爲	-11.0494
肖	-11.0506
遊於	-11.0507
楚子	-11.0509
而不止	-11.0513
其國家	-11.0534
列子	-11.0549
之音	-11.0554
於庭	-11.0557
日暮	-11.056
不異	-11.0561
長子	-11.0563
於諸侯	-11.0564
軼	-11.0568
弇	-11.0575
鄴	-11.0575
其卦為	-11.0576
懇	-11.0581
登高	-11.0581
奈	-11.0581
耎	-11.0582
虱	-11.0582
悌	-11.0582
君道	-11.0583
溶	-11.0584
蠃	-11.0584
沫	-11.0585
膠漆	-11.0587
紈	-11.0587
虢	-11.0588
漢末	-11.0589
雕琢	-11.0589
曄	-11.0589
躋	-11.0589
凖	-11.0589
酤	-11.059
鼃	-11.059
居高	-11.0591
杼	-11.0591
豺	-11.0591
諷	-11.0591
猜	-11.0591
猪	-11.0592
彫	-11.0592
㦸	-11.0592
謌	-11.0592
蹙	-11.0592
爨	-11.0592
扈	-11.0593
巍巍	-11.0593
鉞	-11.0593
袴	-11.0593
亨	-11.0593
黼黻	-11.0595
湘	-11.0595
檀	-11.0595
坂	-11.0595
鬚	-11.0595
璜	-11.0595
筮	-11.0595
曳	-11.0596
涅	-11.0596
趾	-11.0596
魅	-11.0597
搜	-11.0597
燼	-11.0597
貝	-11.0597
粟米	-11.0598
踴	-11.0599
妹	-11.0599
心術	-11.0599
隴	-11.0599
猾	-11.0599
𠮷	-11.0601
馳騁	-11.0601
弔	-11.0601
村	-11.0601
媒	-11.0601
夏后氏	-11.0602
殁	-11.0602
臧否	-11.0603
壻	-11.0603
邃	-11.0604
瘖	-11.0604
軰	-11.0604
玄光玉女	-11.0604
晋平公	-11.0604
蹏	-11.0605
鍵	-11.0605
駢	-11.0605
吟	-11.0605
廐	-11.0605
未始有	-11.0605
挽	-11.0605
檻	-11.0605
啗	-11.0605
罟	-11.0606
祚	-11.0606
郞	-11.0606
薛公	-11.0607
歩	-11.0607
縫	-11.0607
鷙鳥	-11.0607
迂直	-11.0608
瓠	-11.0608
莫大焉	-11.0608
齧	-11.0608
塵埃	-11.0609
蔬	-11.0609
徼	-11.061
芻豢	-11.061
為敵所	-11.061
今天下之士君子	-11.061
臯陶	-11.061
咸池	-11.0612
良醫	-11.0612
巽離兌	-11.0612
沐浴	-11.0613
螮	-11.0613
庚申	-11.0614
鯀	-11.0614
突厥	-11.0614
幻	-11.0614
穰	-11.0615
所養	-11.0616
愎	-11.0616
歐陽	-11.0616
厚葬久喪	-11.0617
謫	-11.0617
八十一首	-11.0618
七八九六	-11.0619
顚	-11.0619
杭	-11.0619
伊吕	-11.062
日月五星	-11.0621
教導	-11.0621
郯	-11.0621
迦	-11.0622
關梁	-11.0623
輼	-11.0623
豫章	-11.0623
咎犯	-11.0624
不能禁	-11.0625
儀表	-11.0627
鍊形	-11.0627
川谷	-11.0628
辤	-11.0629
六藝	-11.0629
忿爭	-11.063
項王	-11.063
部曲	-11.063
虧盈	-11.0631
寂然	-11.0632
絹	-11.0632
萬乘之主	-11.0633
征伐	-11.0633
金銀	-11.0634
梗	-11.0634
罔極	-11.0634
勤苦	-11.0635
斥澤	-11.0636
十步一	-11.0636
跀	-11.0636
知之故	-11.0639
以此觀之	-11.0641
何獨	-11.0642
兩箇	-11.0645
渾沌	-11.0647
孜	-11.0651
轉運	-11.0654
太史	-11.0655
委曲	-11.0656
四隅	-11.0656
太半	-11.0658
莫測	-11.0658
朱子謂	-11.0661
六丁	-11.0665
不足以爲	-11.0667
伐吴	-11.0668
形骸	-11.0668
逆順	-11.0669
由余	-11.0669
亦明矣	-11.0669
成鳩	-11.0672
神二人	-11.0678
示人	-11.0679
水旱	-11.0687
三部	-11.0691
往往	-11.0695
而終於	-11.0698
生金	-11.0699
十干	-11.07
此輩	-11.0703
量敵	-11.0704
一陽生	-11.0708
而問之	-11.0718
天地之道	-11.0722
晋師	-11.0723
暴卒	-11.0724
九鼎	-11.0724
最爲	-11.0725
兩用	-11.0727
而不窮	-11.0728
自安	-11.073
光武	-11.0737
其象	-11.0739
無親	-11.074
漢王	-11.0741
以供	-11.0742
常念	-11.0744
愛子	-11.0746
未嘗有	-11.075
善否	-11.0756
也孔子曰	-11.0763
環中	-11.0763
火火	-11.0766
壽星	-11.0768
固已	-11.077
鶉首	-11.0773
河内	-11.0775
教化	-11.0784
名號	-11.079
是可爲乎	-11.0791
愛人也	-11.0791
不時	-11.0794
名譽	-11.0797
同志	-11.0798
造物	-11.08
殺傷	-11.08
玄天	-11.0801
軍吏	-11.0804
願聞	-11.0804
五城	-11.0806
當塗	-11.0809
吾聞	-11.081
合諸侯	-11.0821
中旦	-11.0821
未見其	-11.0822
同類	-11.0833
故次	-11.0837
十數	-11.0843
其所由	-11.085
無厭	-11.085
所向	-11.0859
禍害	-11.0861
感動	-11.0865
隱居	-11.0865
衣食之	-11.0871
立法	-11.0872
世俗	-11.0873
年命	-11.0876
富貴者	-11.0877
流通	-11.0886
夫聖人	-11.0901
成湯	-11.0903
矣昔	-11.0906
審矣	-11.0911
會于	-11.0911
爲之長	-11.0912
上下同	-11.0912
稱之	-11.0914
魏將	-11.0915
有時而	-11.0924
門人	-11.0951
師曠曰	-11.0961
用之則	-11.0967
進士	-11.097
漢武	-11.0981
國亡	-11.0983
草木之	-11.0984
不可謂無	-11.0989
皇天	-11.0991
齊荆	-11.0999
勿用	-11.1001
藥物	-11.1003
二升	-11.1006
夏日	-11.1013
二宋陸	-11.1021
李筌曰夫	-11.1021
利器	-11.1023
正色	-11.103
未有不	-11.1031
賢能	-11.1031
一曰天	-11.1049
務在	-11.1051
今王公大人	-11.1061
黄精	-11.1074
其鋒	-11.1078
噲	-11.1088
其中有	-11.1096
於海	-11.1098
行仁義	-11.1109
吉凶之	-11.111
不能盡	-11.1113
腹心	-11.1114
萬國	-11.1117
渝	-11.1118
須是	-11.1133
臣主	-11.1138
五居盛位	-11.1143
無咎	-11.1159
亦如此	-11.1165
河水	-11.1165
此等	-11.1168
所殺	-11.1186
不滅	-11.1192
氣候	-11.1194
亦如之	-11.1205
而說之	-11.1216
爲人臣	-11.1226
山東	-11.1228
定矣	-11.1228
然且	-11.1228
斗柄	-11.1234
萬民之	-11.1245
君子之道	-11.1252
正赤	-11.1262
政令	-11.1272
赤氣	-11.1277
防其	-11.1277
欲人之	-11.1285
十六日	-11.1289
又能	-11.1296
持久	-11.1305
侏	-11.1313
爲子	-11.1317
飴	-11.1334
挐	-11.1334
老矣	-11.1334
攖	-11.1335
之所加	-11.1344
迪	-11.1346
鶩	-11.1349
邁	-11.1349
霤	-11.1349
求長生	-11.1351
協	-11.1352
逵	-11.1352
纂	-11.1352
漕	-11.1353
洋	-11.1354
鱣	-11.1354
箴	-11.1356
九爲禍極	-11.1357
亦隨	-11.1357
茫	-11.1357
聯	-11.1357
賑	-11.1358
閶闔	-11.1358
卞	-11.1359
緬	-11.1359
羡	-11.1359
北宫子	-11.136
䰟	-11.1361
鮪	-11.1361
彝倫	-11.1361
朞	-11.1361
今從二宋陸本	-11.1362
沼	-11.1362
橑	-11.1363
夸	-11.1363
欲學	-11.1363
油	-11.1364
沂	-11.1364
稚	-11.1364
侔	-11.1364
六過中而當夜	-11.1365
蒼頡	-11.1365
舅姑	-11.1365
誇	-11.1366
埴	-11.1366
裕	-11.1366
武王伐紂	-11.1366
賓客	-11.1366
舟楫	-11.1366
俸	-11.1366
漣	-11.1366
扞	-11.1366
出其不意	-11.1366
鳶	-11.1367
换	-11.1367
蹲	-11.1367
綏	-11.1367
阪	-11.1368
埵	-11.1368
恬愉	-11.1368
讃	-11.1368
螟	-11.1369
逞	-11.1369
崑	-11.137
傴	-11.137
姜	-11.137
費仲	-11.137
窘	-11.137
捍	-11.137
六爲上禄	-11.137
淚	-11.137
比肩	-11.137
錮	-11.137
五帝三王	-11.137
樊	-11.1371
玄枵	-11.1371
顙	-11.1371
卜筮	-11.1371
金液還丹	-11.1371
混沌	-11.1371
橈	-11.1372
揲	-11.1372
榜	-11.1373
瞋	-11.1373
畋	-11.1373
准	-11.1373
蹉	-11.1373
概	-11.1373
驛	-11.1374
幣帛	-11.1374
元會運世	-11.1374
坦	-11.1374
黷	-11.1374
殞	-11.1375
㣲	-11.1375
昨	-11.1375
魔	-11.1375
菊	-11.1375
趙奢	-11.1375
自下而上	-11.1375
雌雄	-11.1376
俛仰	-11.1376
一刀圭	-11.1376
翺翔	-11.1376
葱	-11.1376
寖	-11.1376
滓	-11.1376
昵	-11.1377
逋	-11.1377
雹	-11.1377
今從諸家王曰	-11.1377
鞅	-11.1377
𥘉	-11.1377
核	-11.1378
昆蟲	-11.1378
䦯	-11.1378
菟	-11.1378
韻	-11.1378
押	-11.1378
集註太玄經卷之	-11.1378
啄	-11.1379
齡	-11.1379
恱	-11.1379
丘園	-11.138
毗	-11.138
日之光	-11.138
國亂	-11.138
嘗試	-11.138
庇	-11.138
春夏秋冬	-11.1381
詬	-11.1382
濱	-11.1382
躔	-11.1382
希夷	-11.1382
者也所謂	-11.1382
慎勿	-11.1382
菩薩	-11.1383
火攻	-11.1383
貍	-11.1383
昆弟	-11.1383
干戚	-11.1384
鬼魅	-11.1385
遞	-11.1385
降婁	-11.1385
蠢	-11.1386
攪	-11.1388
流沙	-11.1388
別	-11.1389
蚓	-11.1389
與我戰	-11.1392
蕤賓	-11.1392
齊景公	-11.1393
秦穆公	-11.1393
毛羽	-11.1393
否泰	-11.1394
公輸盤	-11.1394
瞿	-11.1394
公孫鞅	-11.1395
千鈞	-11.1395
營壘	-11.1395
内觀	-11.1396
雲夢	-11.1396
紀綱	-11.1396
參差	-11.1396
樽	-11.1397
餅	-11.1397
智慧	-11.1398
乾坤坎離	-11.1399
禪師	-11.1399
臍中	-11.14
太尉	-11.14
傳曰太上	-11.14
軻	-11.14
未可以	-11.1401
由是觀之	-11.1401
九九八十一	-11.1402
角亢	-11.1402
勤勞	-11.1402
中丞	-11.1404
鍾鼓	-11.1405
口舌	-11.1405
危殆	-11.1405
中牟	-11.1406
椽	-11.1406
卿大夫	-11.1406
太宰	-11.1407
而聽之	-11.1408
司徒	-11.141
季春	-11.141
車裂	-11.1411
廣狹	-11.1414
十二支	-11.1414
注云	-11.1417
關市	-11.1418
五緯	-11.1418
平旦	-11.1418
貧富	-11.1426
口鼻	-11.1429
凡人之	-11.143
鄕長	-11.1431
七十二日	-11.1432
東壁	-11.1432
流遁	-11.1433
卑辭	-11.1436
晋國之	-11.1436
青衣	-11.1439
銳卒	-11.1441
絶穀	-11.1441
百工	-11.1442
白露	-11.1447
太素	-11.1447
莊公	-11.1449
能如是乎	-11.1449
居中央	-11.145
論語	-11.1451
哀樂	-11.1452
厲測曰	-11.1453
知覺	-11.1454
雲雨	-11.1454
擊鼓	-11.1456
然後知	-11.1457
聲音	-11.1458
幽隱	-11.1461
苟免	-11.1461
則其義也	-11.1466
孔氏	-11.1466
其類在	-11.147
不怠	-11.147
三危	-11.147
吾恐	-11.1473
序卦	-11.1475
四寸	-11.1476
南斗	-11.1477
命有司	-11.1484
以至于	-11.1486
杜佑曰言	-11.1489
樂羊	-11.1493
一丈	-11.1495
求福	-11.1505
每月	-11.1512
天圓	-11.1512
郄子	-11.1521
無是非	-11.1527
謂子墨子曰	-11.1531
受賞	-11.1532
顔子	-11.1537
不侵	-11.1537
賞有功	-11.1541
將奈何	-11.1541
以饗	-11.1542
竟不	-11.1551
六十日	-11.1552
聖智	-11.1552
丘山	-11.1552
和調	-11.1556
三十年	-11.1564
夷吾	-11.1569
見疑	-11.1574
各以其	-11.1576
若苟	-11.1577
人莫之	-11.1579
百年	-11.158
而不知其	-11.1586
好色	-11.1589
尺五寸	-11.1592
聽從	-11.1599
〇杜牧曰言	-11.16
遇敵	-11.1601
四爲下禄	-11.1613
堯夫	-11.1618
滅亡	-11.1625
輕車	-11.1627
是也〇張預曰	-11.1635
中庸	-11.1643
齊晋	-11.1645
不撓	-11.1645
苟或	-11.1646
必有所	-11.1652
禁姦	-11.1659
不可欺	-11.1664
五代	-11.1677
金鼓	-11.1678
耳聽	-11.168
全勝	-11.1684
威德	-11.1692
謀攻	-11.1695
丹書	-11.1696
千載	-11.1697
率多	-11.1699
死傷	-11.1705
乎子墨子曰	-11.1706
哉蓋	-11.1714
半日	-11.1714
在中央	-11.1715
五經	-11.1718
為陳	-11.1721
莫不皆	-11.1722
主父	-11.174
者也次二	-11.1749
無一物	-11.1751
之分野	-11.1754
秦師	-11.1761
不相離	-11.1763
有病	-11.1796
言敵人	-11.1797
心志	-11.1808
刑法	-11.181
天地之大	-11.1813
萬餘	-11.1814
雷同	-11.1815
觀之則	-11.1817
親近	-11.1823
其質	-11.183
遣將	-11.1835
原道	-11.1837
尚猶	-11.1838
五十五	-11.1846
知道者	-11.185
古之人	-11.1854
在朝	-11.187
任重	-11.187
自傷	-11.1874
已具	-11.1878
交合	-11.1888
二十三	-11.1893
不差	-11.19
衰世	-11.1901
平易	-11.1903
二十二	-11.1909
五伯	-11.1912
邪氣	-11.1917
長養	-11.1917
美名	-11.1918
不可奪	-11.1926
張子	-11.1933
物類	-11.1941
二部	-11.1954
一百二十	-11.1955
有力者	-11.1964
第五十	-11.1965
不偏	-11.1966
四體	-11.1971
體數	-11.1973
於人者	-11.1975
不赦	-11.1978
之寳也	-11.1981
家貧	-11.1981
兵革	-11.1998
殷人	-11.2002
失禮	-11.2008
奚足	-11.201
此篇	-11.2012
處家	-11.2014
術數	-11.2016
五變	-11.2019
者無不	-11.2021
于淵	-11.2025
可致	-11.2025
分野	-11.2026
公曰寡人	-11.2035
至於此	-11.2037
禍亂	-11.2038
而不改	-11.2057
從何	-11.2066
蒼龍	-11.2086
聖人之治	-11.2087
中有一	-11.2102
智勇	-11.212
六年	-11.2123
伐鄭	-11.2126
九丹	-11.2129
進德	-11.2146
形容	-11.2146
十餘萬	-11.215
太上感應篇	-11.2155
豫讓	-11.2168
菲	-11.2172
怳	-11.2179
僣	-11.2181
拭	-11.2181
甯	-11.2182
鉗	-11.2182
紾	-11.2183
𥙷	-11.2183
伯陽	-11.2184
濛	-11.2185
蝯	-11.2186
剔	-11.2186
鼎俎	-11.2187
於是乃	-11.2187
塚	-11.2187
色赤	-11.2187
廟堂之上	-11.2188
媪	-11.2188
筩	-11.2188
晉	-11.2189
渚	-11.2189
蒞	-11.2189
个	-11.219
笄	-11.2191
嚼	-11.2191
懿	-11.2191
瓶	-11.2191
跛	-11.2192
紘	-11.2192
竽	-11.2192
兕虎	-11.2193
槐	-11.2193
琢	-11.2193
但當	-11.2193
衽	-11.2194
恊	-11.2194
軔	-11.2194
影響	-11.2194
刳	-11.2194
葅	-11.2195
唾	-11.2195
鴛	-11.2195
帑	-11.2196
一夕夢	-11.2196
錐	-11.2197
墾	-11.2197
家性爲	-11.2198
郤	-11.2198
千仞	-11.2198
蕩蕩	-11.2199
豪傑	-11.2199
藜藿	-11.2199
轄	-11.2199
袂	-11.2199
裴	-11.2199
剖判	-11.2199
羔	-11.2199
淖	-11.22
苴	-11.22
亞	-11.22
嗤	-11.22
夫是之謂	-11.22
萇弘	-11.2201
輅	-11.2201
之情狀	-11.2201
盤旋	-11.2201
券	-11.2201
茵	-11.2202
愴	-11.2202
莢	-11.2202
楊子	-11.2203
穗	-11.2203
鸞鳳	-11.2203
㸃	-11.2203
盂	-11.2204
佻	-11.2204
吮	-11.2204
窒	-11.2204
忮	-11.2204
揺	-11.2204
疋	-11.2205
憾	-11.2205
嘿	-11.2205
位律中	-11.2205
弓矢	-11.2205
鉢	-11.2205
鹵	-11.2205
勾	-11.2205
壟	-11.2206
曇	-11.2206
龜鶴	-11.2206
詹何	-11.2207
斗斛	-11.2207
怙	-11.2207
唐太宗	-11.2207
蛙	-11.2207
勘	-11.2207
八紘	-11.2208
縵	-11.2208
苞	-11.2209
芸	-11.2209
何以明之	-11.2209
罝	-11.2209
罘	-11.2209
鴻鵠	-11.2209
湎	-11.2209
甲冑	-11.2209
隄	-11.221
堅刁	-11.221
色白	-11.221
繇	-11.2211
横渠	-11.2211
歆	-11.2211
慈惠	-11.2211
馳逐	-11.2211
耨	-11.2211
蒿	-11.2211
之事乎昔	-11.2211
騏驥	-11.2211
嬖	-11.2211
芻狗	-11.2212
趙簡子	-11.2212
錣	-11.2212
驍	-11.2212
江淮	-11.2212
驚蟄	-11.2212
潢	-11.2212
鍼	-11.2213
弑其君	-11.2213
謨	-11.2213
閲	-11.2213
校定	-11.2213
穎	-11.2213
螾	-11.2213
緼	-11.2213
詎	-11.2214
跨	-11.2214
紆	-11.2214
鎰	-11.2214
猥	-11.2214
田獵	-11.2215
一百八十	-11.2215
笞	-11.2215
垤	-11.2216
刈	-11.2216
穫	-11.2216
隻	-11.2216
諄諄	-11.2216
綽	-11.2216
堂堂	-11.2217
諺曰	-11.2218
焚香	-11.2219
秃	-11.2219
彭蠡	-11.2219
叫	-11.2219
鶉尾	-11.222
贈	-11.2221
𨱆	-11.2221
曾青	-11.2222
涿	-11.2222
京房	-11.2222
長生不死	-11.2222
布帛	-11.2224
殺不辜	-11.2224
不悟	-11.2224
帶甲	-11.2225
胏	-11.2225
吕梁	-11.2225
暴虐	-11.2226
班固	-11.2226
京師	-11.2227
前輩	-11.2227
疾疫	-11.2227
天一生水	-11.2229
成列	-11.2231
六翮	-11.2231
推移	-11.2231
遲速	-11.2233
季秋	-11.2234
昻	-11.2235
治隂官右	-11.2235
親踈	-11.2235
變通	-11.2238
孟春	-11.2241
田成子	-11.2241
爲對太隂在	-11.2242
月與之晨出東方	-11.2242
稽留	-11.2243
患在	-11.2243
五十有五	-11.2244
伏尸	-11.2244
通判	-11.2244
榮辱	-11.2244
太后	-11.2244
雍季	-11.2245
賞罰不	-11.2245
則見以爲	-11.2245
百川	-11.2246
壽命	-11.2247
甲寅	-11.2247
條風	-11.2248
文采	-11.2251
月失政	-11.2254
十三度	-11.2256
究其	-11.2257
有所至而	-11.2257
不可不審	-11.2257
歲星舍	-11.2259
甲午	-11.2259
靈寳	-11.2259
丑未	-11.2259
凶器	-11.226
析木	-11.2262
襄主	-11.2264
魏武	-11.2267
畫卦	-11.2267
田忌	-11.2269
水潦	-11.227
焚身	-11.2277
甘苦	-11.228
筩中	-11.2281
奮擊	-11.2281
可得乎	-11.2282
困窮	-11.2283
應之曰	-11.2284
各得其所	-11.2284
血流	-11.2285
十倍	-11.2285
浩然	-11.2287
晝日	-11.229
審察	-11.229
淺近	-11.2295
羊牛	-11.2296
委積	-11.2299
賞譽	-11.2299
衆之所	-11.2303
宋陸范本	-11.2304
之心而	-11.2305
丹田中	-11.2306
南海	-11.2307
藏器	-11.2307
從横	-11.2309
明主之道	-11.2312
二十年	-11.2313
厚薄	-11.2313
青黄	-11.2315
九寸	-11.2317
之道抱朴子曰	-11.2317
威儀	-11.2322
舉錯	-11.2322
忠良	-11.2324
循理	-11.2325
孔明	-11.2326
相感	-11.2328
不過五	-11.233
出境	-11.2331
堅牛	-11.2334
明珠	-11.2336
其父母	-11.2336
風伯	-11.2344
西河	-11.2345
此四者	-11.2346
犯禁	-11.2352
符節	-11.2353
水泉	-11.2357
哉抱朴子曰	-11.2368
河北	-11.2372
安寧	-11.2373
全體	-11.2378
江水	-11.2379
惠公	-11.2382
隂謀	-11.2385
月半	-11.2385
當世之	-11.2392
百鬼	-11.2392
二儀	-11.2394
侯王	-11.2403
庶事	-11.2403
率兵	-11.2407
至今不	-11.2407
接物	-11.2416
少室	-11.2418
交錯	-11.2419
心腹	-11.2426
私門	-11.2431
竟至	-11.2432
夫妻	-11.2434
詩書	-11.2447
季子	-11.2447
兩間	-11.2453
刑賞	-11.2455
行伍	-11.2466
德薄	-11.2477
萬化	-11.2482
仲尼曰	-11.2483
見驗	-11.2484
私家	-11.2485
孰若	-11.2489
之爲道	-11.249
劉氏	-11.2497
未免	-11.25
周流	-11.251
美食	-11.2512
秦軍	-11.2514
財利	-11.2514
〇孟氏曰	-11.2531
不仕	-11.2533
自矜	-11.2535
受光	-11.254
甘心	-11.2541
盛極	-11.2545
重罪	-11.2555
曰臣聞	-11.2566
一隅	-11.2568
所禀	-11.2578
過差	-11.2579
三統	-11.2582
此三者	-11.2582
十九年	-11.2592
動動	-11.2593
百戰	-11.2603
通達	-11.2604
治世之	-11.2613
曰敢問	-11.2618
仁智	-11.2626
乘雲	-11.2632
常思	-11.2646
王氏	-11.2646
所以爲治	-11.265
危身	-11.2672
之正也	-11.2678
安樂	-11.2686
等事	-11.2713
得失之	-11.2731
有所不能	-11.2737
鄭氏	-11.2739
妄發	-11.2773
被甲	-11.2773
藏形	-11.2779
天根	-11.2785
車服	-11.2787
蓋聞	-11.2797
杜牧曰言	-11.2798
里中	-11.2821
衛人	-11.283
官吏	-11.2831
人之家	-11.2849
豈可以	-11.2853
數十人	-11.2862
襄公	-11.2864
者何也曰	-11.2874
功業	-11.2878
鶉	-11.2905
不返	-11.2922
不詳	-11.2924
得仙者	-11.2937
一爲思始	-11.2941
日月之所	-11.2942
其所愛	-11.2942
者有矣	-11.3006
加焉	-11.3008
梅堯臣	-11.3051
必誅	-11.3052
純陽	-11.3055
圯	-11.3071
過度	-11.3072
礪	-11.3073
菱	-11.3077
靖郭君	-11.3079
章甫	-11.3083
暍	-11.3085
霖	-11.3085
皆自然	-11.3085
一動一静	-11.3086
觚	-11.3086
白馬非馬	-11.3086
販	-11.3087
膊	-11.3088
岷山	-11.3089
尫	-11.309
所活者	-11.3092
凢	-11.3092
垓	-11.3093
楮	-11.3094
叚	-11.3095
攀	-11.3095
隰	-11.3095
僮	-11.3097
段干木	-11.3097
筌	-11.3097
碣石	-11.3099
怡	-11.3099
慊	-11.3099
倖	-11.3099
蜃	-11.31
湣	-11.31
嶷	-11.3101
仇由	-11.3101
錞	-11.3101
裨	-11.3101
蔣	-11.3101
啖	-11.3101
三百六十五度四分度之一	-11.3101
螫	-11.3102
曹操	-11.3102
隄防	-11.3103
脱	-11.3103
卦變	-11.3103
耒	-11.3104
涔	-11.3104
眷	-11.3104
汰	-11.3105
譯	-11.3105
釘	-11.3105
酆	-11.3105
歙	-11.3105
憒	-11.3105
氣質之性	-11.3105
泮	-11.3105
午至亥	-11.3106
讙	-11.3106
翫	-11.3106
皎	-11.3106
扼	-11.3106
粥	-11.3106
祗	-11.3107
絓	-11.3107
執有命者	-11.3107
虹霓	-11.3107
惻	-11.3108
智謀	-11.3108
匕	-11.3108
撤	-11.3108
惱	-11.3108
稀	-11.3108
皂	-11.3108
礫	-11.3108
札	-11.3108
南華曰	-11.3108
栖	-11.3108
砥礪	-11.3108
懽	-11.3109
衞	-11.3109
攻守之	-11.3109
遨	-11.3109
泥濘	-11.311
恁	-11.311
兎	-11.311
薺	-11.311
帳	-11.311
腑	-11.311
入敵境	-11.311
一日一夜	-11.3111
騃	-11.3111
泳	-11.3111
吠	-11.3111
擿	-11.3112
蠭	-11.3112
拾遺	-11.3112
麽	-11.3112
屍	-11.3112
溼	-11.3112
誌	-11.3112
鶡	-11.3112
脇	-11.3113
慶賞	-11.3114
籙	-11.3114
漚	-11.3114
租	-11.3114
孟嘗君	-11.3115
曹操李筌曰	-11.3115
骭	-11.3115
灘	-11.3116
戇	-11.3116
鋸	-11.3117
婉	-11.3117
氣應斗建	-11.3117
魏文侯	-11.3117
臼	-11.3118
孟賁	-11.3118
蜩	-11.3118
顔淵	-11.3118
見驗方止	-11.3118
浣	-11.3118
醒	-11.3119
區區	-11.3119
髀	-11.3119
廉恥	-11.3119
宥	-11.3119
賔客	-11.3119
甌	-11.312
儻	-11.312
管子曰	-11.312
蹷	-11.312
陬	-11.312
譙	-11.3121
啞	-11.3121
則如之何武曰	-11.3121
懴	-11.3121
雨風露雷	-11.3121
受其殃	-11.3122
牧野	-11.3122
罄	-11.3122
公孟子曰	-11.3122
紹興	-11.3122
勺	-11.3123
駐	-11.3123
壚	-11.3123
一陰一陽	-11.3123
阮	-11.3124
埶	-11.3124
朔旦	-11.3124
泯	-11.3124
㡬	-11.3125
吻	-11.3125
沬	-11.3125
皇極經世	-11.3125
奎婁	-11.3125
孺子	-11.3126
以厚利	-11.3126
璇	-11.3126
爍	-11.3126
溉	-11.3126
隰朋	-11.3126
債	-11.3126
朝菌	-11.3127
洫	-11.3127
墨翟	-11.3127
驢	-11.3127
奠	-11.3127
噪	-11.3128
昂	-11.3128
百餘年	-11.3128
謡	-11.3128
薰	-11.3128
曾史	-11.3129
訕	-11.313
受日光	-11.313
折衝	-11.313
括囊	-11.3131
者爲如何	-11.3131
開闢	-11.3131
槀	-11.3131
七曜	-11.3131
夙興夜寐	-11.3131
穿井	-11.3131
冐頓	-11.3132
君臣相	-11.3132
約束	-11.3132
攻小國	-11.3132
金木水火土	-11.3132
昆吾	-11.3132
彊梁	-11.3132
梁柱	-11.3133
呪詛	-11.3134
姓字	-11.3134
丞相	-11.3135
掛	-11.3135
聚歛	-11.3136
百骸	-11.3136
皇帝王伯	-11.3137
今有人於此	-11.3138
慼	-11.3139
壽夭	-11.3139
極則反	-11.314
慈母	-11.314
雲霧	-11.3141
未戰而	-11.3141
春秋傳曰	-11.3141
眞僞	-11.3141
清潔	-11.3141
蕤賔	-11.3144
貢舉	-11.3144
次第	-11.3144
明哲	-11.3144
太公望	-11.3145
淮南王	-11.3145
淊	-11.3148
莊周	-11.3149
傾覆	-11.3149
上帝鬼神	-11.315
壅塞	-11.315
玉液	-11.3151
風波	-11.3155
爻為	-11.3155
禹步	-11.3162
化育	-11.3163
幽都	-11.3164
勇敢	-11.3164
好事者	-11.3165
愛憎	-11.3165
朱草	-11.3169
三台	-11.3171
尸解	-11.3175
趨舍	-11.3176
仲秋	-11.3179
城池	-11.3183
俊民	-11.3183
斗建	-11.3186
楚大夫	-11.319
深淵	-11.319
都廣	-11.3191
之宿有	-11.3193
歲名曰	-11.3194
嗣公	-11.3195
諸候	-11.3195
以天下爲	-11.3204
乘舟	-11.3205
閉藏	-11.3205
猶豫	-11.321
連城	-11.3212
弗爲也	-11.3218
一二三四五	-11.3223
符堅	-11.3227
謀慮	-11.3235
恭王	-11.3239
民萌	-11.324
抱朴子曰余	-11.3241
念慮	-11.3244
范氏	-11.3249
元炁	-11.325
終不能	-11.325
力屈	-11.3251
若然者	-11.3255
無辜	-11.3257
運轉	-11.3259
七宿	-11.3264
房心	-11.3276
輕薄	-11.3278
公仲	-11.3278
飛龍	-11.3289
景星	-11.3289
太一君	-11.3291
地削	-11.3298
陰陽之氣	-11.3298
干木	-11.3299
太和	-11.33
漢高	-11.3301
卦之風	-11.3304
大倫	-11.3304
大暑	-11.331
延壽	-11.3311
〇張預曰凡	-11.3314
侍中	-11.3317
而萬物生	-11.3323
財力	-11.3325
積隂	-11.3326
相干	-11.3327
盡忠	-11.3327
短長	-11.3328
過滿	-11.333
百斤	-11.333
之人也	-11.3333
食肉	-11.3341
商臣	-11.3346
使然也	-11.3355
八石	-11.3356
辟兵	-11.3366
屬土	-11.337
建德	-11.3381
諸己	-11.3384
力有餘	-11.3384
不渝	-11.3386
誠信	-11.3391
卵生	-11.3395
一十八	-11.3397
吏士	-11.34
厚賞	-11.3401
惟恐	-11.3409
之原也	-11.341
明夷	-11.3415
弗聽	-11.342
八音	-11.3431
九尺	-11.3437
服藥	-11.344
三千人	-11.3454
求仙	-11.3468
將帥	-11.3472
數里	-11.3476
失之於	-11.3483
天地四時	-11.349
五種	-11.3499
分為二	-11.3503
攻韓	-11.3505
好學	-11.3514
形器	-11.3521
况於	-11.3533
十有三	-11.3539
知之矣	-11.3543
攻宋	-11.3544
可否	-11.3558
相錯	-11.3589
應侯	-11.3598
威勢	-11.3627
之可也	-11.3647
後患	-11.3662
公旦	-11.3669
生生之	-11.369
意思	-11.3714
者天也	-11.3723
求索	-11.3801
孫子曰	-11.3804
失其所以	-11.381
和丹	-11.3827
不可勝數	-11.3839
髓	-11.3851
氣衰	-11.3886
不可擊	-11.3919
矣或曰	-11.3966
物無不	-11.3978
四支	-11.3995
弗受	-11.4027
汲汲	-11.4039
五十步	-11.4055
衒	-11.4067
彼衆我寡	-11.4082
蠬	-11.4082
懟	-11.4085
詮	-11.4087
詈	-11.4088
盾	-11.4088
芟	-11.409
斧鉞	-11.4092
讐	-11.4094
▲	-11.4096
翣	-11.4096
恬淡	-11.4096
貲	-11.4096
佃	-11.4096
慶忌	-11.4096
檝	-11.4096
悒	-11.4098
堰	-11.4098
鼉	-11.4098
坼	-11.4099
掊	-11.4099
鞠	-11.4099
飡	-11.4099
閭里	-11.41
谿谷	-11.41
恢廓	-11.41
縠	-11.41
兑	-11.4101
騶	-11.4101
飛金晶	-11.4101
韯	-11.4101
盃	-11.4101
江湖	-11.4101
筦	-11.4102
涌	-11.4102
感應篇	-11.4103
咀	-11.4103
俞	-11.4103
也宋陸王本	-11.4103
者矣或有	-11.4104
摯	-11.4104
菽麥	-11.4104
樗	-11.4104
煦	-11.4104
三十六卦	-11.4105
慄	-11.4105
陶冶	-11.4105
五爲中和	-11.4105
恡	-11.4105
蠻	-11.4105
薨	-11.4106
眯	-11.4106
呵	-11.4106
殪	-11.4106
艘	-11.4106
是可爲乎賛曰	-11.4106
也二宋陸本	-11.4106
漢高祖	-11.4107
杵	-11.4107
廊	-11.4107
航	-11.4107
蝡	-11.4107
蟾	-11.4107
幄	-11.4108
行冬令則	-11.4108
冡	-11.4108
縶	-11.4109
旃	-11.4109
於未萌	-11.4109
鞀	-11.4109
坡	-11.411
弓弩	-11.411
蹇叔	-11.411
祛	-11.411
湊	-11.4111
錙銖	-11.4111
擔	-11.4111
鎬	-11.4111
劓	-11.4111
豁	-11.4111
攓	-11.4112
潮	-11.4112
䝉	-11.4112
司馬宣王	-11.4112
齕	-11.4112
罩	-11.4113
霆	-11.4113
洎	-11.4114
磔	-11.4115
妻妾	-11.4115
包裹	-11.4116
鈴	-11.4116
臺榭	-11.4116
它	-11.4116
紏	-11.4116
駁	-11.4116
銓衡	-11.4116
籬	-11.4117
盪	-11.4117
穡	-11.4117
蒯	-11.4117
擯	-11.4117
童蒙	-11.4117
鄧林	-11.4117
俄頃	-11.4118
監司	-11.4118
乎人知	-11.4118
身死國亡	-11.4118
塘	-11.4118
仇讎	-11.4118
動而生陽	-11.4118
騄	-11.4118
波濤	-11.4119
雋	-11.4119
若二公者	-11.4119
一部三	-11.4119
泣血	-11.4119
蝱	-11.4119
弁	-11.412
蓏	-11.412
葵	-11.412
緇	-11.412
恰	-11.412
九地之變	-11.412
𡨚	-11.412
昔張	-11.4121
笙	-11.4121
吴王問孫武曰	-11.4121
衷	-11.4121
豢	-11.4121
不亦可乎	-11.4121
恚怒	-11.4121
晋人程本著	-11.4121
牝牡	-11.4121
掖	-11.4122
舂	-11.4122
伴	-11.4123
鯉魚	-11.4123
百里奚	-11.4123
陜	-11.4123
玩好	-11.4123
顔回	-11.4123
饜	-11.4124
嘯	-11.4124
彌綸	-11.4124
著述	-11.4124
轉輸	-11.4124
稠	-11.4124
胼	-11.4125
汶	-11.4125
優游	-11.4125
冤	-11.4126
瀕	-11.4126
天尊願我	-11.4126
周天之度	-11.4126
廉頗	-11.4127
猨	-11.4128
七爲禍始而當夜	-11.4128
簪	-11.4128
㪷	-11.4129
慤	-11.4129
𨓜	-11.4129
三萬六千	-11.4129
尺寸	-11.4129
勾陳	-11.413
廉潔	-11.413
杏	-11.413
惛	-11.413
蓍龜	-11.4131
蔡氏曰	-11.4131
憶	-11.4131
教誨	-11.4131
㮣	-11.4131
魯哀公	-11.4132
滋味	-11.4132
系	-11.4133
螻	-11.4133
圃池	-11.4134
黃帝	-11.4134
不亦宜乎	-11.4135
宰予	-11.4135
善攻者	-11.4136
李牧	-11.4136
嘻	-11.4137
鳯	-11.4137
仆	-11.4137
綵	-11.4138
執圭	-11.4138
部伍	-11.4138
申不害	-11.4138
切宋曰	-11.4139
旦暮	-11.4139
巖穴	-11.4139
些	-11.414
太乙	-11.414
孟孫	-11.414
大厦	-11.414
絲竹	-11.414
衣裘	-11.414
飄風	-11.414
善射者	-11.4141
郵	-11.4143
步騎	-11.4143
收録	-11.4143
焉得無	-11.4144
祁	-11.4144
蔓	-11.4144
長六尺	-11.4145
治隂官左	-11.4145
劉備	-11.4149
蹪	-11.415
頡	-11.4151
自衒	-11.4151
入名山	-11.4152
孤寡	-11.4153
江漢	-11.4153
緩急	-11.4157
横圖	-11.4159
之所致也	-11.416
判官	-11.4162
大夫種	-11.4163
靈龜	-11.4163
淺薄	-11.4165
七百二十	-11.4166
奔北	-11.4167
汲汲於	-11.4168
織女	-11.417
季夏	-11.4171
玉池	-11.4173
震兌	-11.4173
故善用兵者	-11.4175
當是時	-11.4176
知禍福	-11.4177
追風	-11.4178
是故子墨子言曰	-11.4181
后土	-11.4186
絶倫	-11.4186
金帛	-11.4188
洛陽	-11.4188
交接	-11.419
也律受	-11.419
田野	-11.4191
淺深	-11.4192
財寳	-11.4194
偶俗	-11.4194
條達	-11.4195
即墨	-11.4197
孟諸	-11.4197
諸儒	-11.4201
光耀	-11.4205
静静	-11.4207
上昇	-11.4208
不猒	-11.4212
豈唯	-11.4218
參政	-11.4218
好醜	-11.422
明鏡	-11.422
玄妙	-11.4221
五十步一	-11.4222
奇偶	-11.4223
左手	-11.4223
哉子墨子曰	-11.4228
行此法	-11.423
衢地	-11.4231
六寸	-11.4232
秦韓	-11.4234
面目	-11.4239
小畜	-11.4243
在其間	-11.4244
調和	-11.4247
君子小人	-11.4248
左氏	-11.4253
皇極	-11.4256
壬子	-11.4256
左轉	-11.4258
一槩	-11.426
興亡	-11.4264
智慮	-11.4267
進趨	-11.4267
君臣上下	-11.4268
齊侯	-11.4268
勤求	-11.4269
柱國	-11.4271
虞公	-11.4282
流轉	-11.4284
天地之性	-11.4287
决戰	-11.4288
虛實	-11.4295
午後	-11.43
治國家	-11.4304
因敵之	-11.4305
庸夫	-11.4308
苟且	-11.4316
不離乎	-11.4323
藝文	-11.4334
獨往	-11.4338
致千里	-11.4364
正朔	-11.441
如此豈	-11.4419
罪福	-11.4422
之聖也	-11.4422
合於道	-11.4462
者此也	-11.4487
久視	-11.4502
光謂八爲禍中	-11.4536
二爲思中而當夜	-11.456
驚亂	-11.4653
三十分	-11.4655
在地下	-11.4658
八寸	-11.471
兊卦	-11.4744
任賢	-11.4761
城邑	-11.4808
臣聞之	-11.4873
央	-11.5113
抱朴子	-11.516
天時地利	-11.5173
臨淄	-11.5186
礛	-11.5191
西王母	-11.5193
嬈	-11.5197
㕔	-11.5198
越王句踐	-11.52
燥濕	-11.5201
笥	-11.5201
倪	-11.5202
巔	-11.5202
公輸	-11.5202
鸚	-11.5204
驩	-11.5204
砂	-11.5204
拯溺	-11.5205
夀	-11.5205
螭	-11.5205
揉	-11.5205
勲	-11.5206
岱	-11.5206
僖	-11.5206
寂漠	-11.5206
抮	-11.5206
嵩岱	-11.5207
崔杼	-11.5207
齊神武	-11.5207
三百有六十	-11.5207
吁	-11.5208
螣	-11.5208
攄	-11.5208
田成氏	-11.5208
蛛	-11.5209
醯	-11.5209
紊	-11.5209
夙	-11.5209
這裏	-11.5209
棊	-11.521
蚤虱	-11.521
柏	-11.521
陋巷	-11.521
狷	-11.521
瓮	-11.5211
行春令則	-11.5211
紿	-11.5211
浩浩	-11.5212
翹	-11.5212
厝	-11.5212
熊羆	-11.5212
玦	-11.5212
繹	-11.5212
謐	-11.5213
愍	-11.5213
賈誼	-11.5213
覈	-11.5213
棠	-11.5214
迂闊	-11.5214
膺	-11.5214
嗜慾	-11.5214
汪濊	-11.5214
件	-11.5214
謚	-11.5215
愉	-11.5215
鞫	-11.5215
腐鼠	-11.5216
茫茫	-11.5216
隗	-11.5216
蓋難分之	-11.5216
百戰百勝	-11.5217
棺槨	-11.5217
梧	-11.5217
寛	-11.5217
竺	-11.5217
宂	-11.5217
𦆵	-11.5217
忻	-11.5217
猗	-11.5217
齎	-11.5217
棧	-11.5218
斜	-11.5218
耆	-11.5218
培	-11.5218
汨	-11.5218
嬪	-11.5218
瑰	-11.5218
畿	-11.5218
糅	-11.5219
網罟	-11.5219
猴	-11.5219
衍之為	-11.5219
輜	-11.5219
越王勾踐	-11.5219
徭役	-11.5219
服八風水爨	-11.5219
哺	-11.522
吊	-11.522
畒	-11.522
貽	-11.522
兖州	-11.522
飆	-11.522
燠	-11.5221
誹謗	-11.5221
蝗	-11.5222
倮	-11.5222
娥	-11.5222
敕	-11.5222
瑗	-11.5222
易有太極	-11.5223
頴	-11.5223
掉	-11.5223
樵採	-11.5223
蚌	-11.5224
捧	-11.5224
細腰	-11.5224
賄	-11.5224
樞機	-11.5224
未之聞也	-11.5224
詭詐	-11.5224
謂諸將曰	-11.5224
欬	-11.5224
縈	-11.5225
扎	-11.5225
緡	-11.5225
斟酌	-11.5225
貂	-11.5225
絺	-11.5225
悠悠	-11.5226
歐冶	-11.5226
嘈	-11.5227
茅茨	-11.5227
勣	-11.5227
按如佛說	-11.5227
柝	-11.5227
製	-11.5227
婬	-11.5227
行秋令則	-11.5227
一晝一夜	-11.5227
蛻	-11.5227
濤	-11.5227
劌	-11.5228
玉液還丹	-11.5228
比喻曰	-11.5228
衂	-11.5228
藐	-11.5228
中來爲人	-11.5228
封疆	-11.5228
沿	-11.5228
獄訟	-11.5228
句踐	-11.5229
糟	-11.5229
傭	-11.5229
彬	-11.5229
舄	-11.5229
糟粕	-11.5229
院	-11.5229
令行禁止	-11.5229
鴆	-11.523
誹譽	-11.523
泓	-11.523
三年之喪	-11.5231
間諜	-11.5231
蟒	-11.5231
汩	-11.5231
終而復始	-11.5231
頃刻	-11.5231
魯陽文君	-11.5231
歧	-11.5231
捲	-11.5231
龐子曰願聞	-11.5231
命終之後	-11.5231
郷里	-11.5232
姻	-11.5232
梵	-11.5232
諸葛亮	-11.5232
彤	-11.5232
河洛	-11.5232
霑	-11.5233
碩儒	-11.5233
孩	-11.5233
軄	-11.5233
芝草	-11.5233
淖齒	-11.5233
黂	-11.5233
河圖洛書	-11.5234
短褐	-11.5234
震坎艮	-11.5234
蛡	-11.5234
淄	-11.5234
懦弱	-11.5235
辰戌丑未	-11.5235
箎	-11.5235
呌	-11.5235
兆汝	-11.5235
腊	-11.5235
熯	-11.5235
桀紂幽厲	-11.5235
鏑	-11.5236
庶績	-11.5236
钁	-11.5236
囷	-11.5236
摛	-11.5236
甑	-11.5236
蚩尤	-11.5236
閹	-11.5237
黍稷	-11.5237
戌亥	-11.5237
松栢	-11.5237
扛	-11.5237
走飛草木	-11.5237
九韶	-11.5237
酈	-11.5237
宓	-11.5238
錯綜	-11.5238
晉公	-11.5238
鴦	-11.5239
儔	-11.5239
歎息	-11.5239
綬	-11.5239
鋪	-11.5239
樛	-11.524
刻削	-11.524
赫赫	-11.524
屑	-11.524
先天之學	-11.524
弧矢	-11.5241
三軍之士	-11.5241
榻	-11.5241
三百八十四	-11.5241
勾踐	-11.5242
胎仙	-11.5242
憂悲	-11.5242
善之善者也	-11.5243
於此益知	-11.5243
樂毅	-11.5243
翕翕	-11.5243
范蠡	-11.5243
鐘鼓	-11.5244
夙夜	-11.5244
四鄰諸侯	-11.5244
伐蜀	-11.5244
強	-11.5244
毆	-11.5245
香餌	-11.5245
仲舒	-11.5245
絆	-11.5247
奪筭	-11.5247
燒香	-11.5248
七日有風名	-11.5248
工匠	-11.5248
可不謹	-11.5248
駿馬	-11.5249
弟兄	-11.5249
西門豹	-11.5249
俯仰	-11.525
齦	-11.525
碎首	-11.525
貧困	-11.5251
金匱	-11.5251
澠	-11.5251
酒肉	-11.5251
礬	-11.5251
輔佐	-11.5252
怯弱	-11.5252
立爲天子	-11.5253
勞佚	-11.5254
陁	-11.5254
霜降	-11.5255
砭	-11.5255
光謂一爲思始	-11.5255
弸	-11.5256
在這裏	-11.5256
筠	-11.5257
清澄	-11.5258
藪澤	-11.526
孰敢	-11.526
游宴	-11.526
范昭	-11.526
三日念	-11.5261
在上位	-11.5263
少昊	-11.5263
恭敬	-11.5264
自午至亥	-11.5264
毒藥	-11.5265
祖宗	-11.5266
驚擾	-11.5266
良工	-11.5268
前後左右	-11.5268
善守者	-11.5269
以利動	-11.5269
炎帝	-11.527
知敵之情	-11.527
寒熱	-11.5272
律曆	-11.5272
鳴鼓	-11.5272
誦經	-11.5272
鑿井	-11.5274
澹然	-11.5274
冠履	-11.5274
玉堂	-11.5275
五步一	-11.5277
刑獄	-11.5278
責之以	-11.5279
孝基	-11.5284
延州	-11.5285
離叛	-11.5285
穀雨	-11.5286
轉之丹服之	-11.5286
瞻視	-11.5286
支體	-11.5287
河圖之數	-11.5288
唯毋	-11.5289
律歷	-11.529
强弩	-11.5291
勸沮	-11.5292
忠貞	-11.5293
麤氣	-11.5293
子韋	-11.5299
宗族	-11.5299
冨貴	-11.53
先生之言	-11.5301
忿怒	-11.5301
東嶽	-11.5301
斷割	-11.5302
反舌	-11.5305
未可知也	-11.5313
入山林	-11.5314
片言	-11.5318
覆載	-11.5319
衰老	-11.5319
旣歸	-11.532
不失其正	-11.5322
太原	-11.5322
成黄金	-11.5324
愚嘗	-11.5324
遼水	-11.5325
逸樂	-11.5327
六六三十六	-11.5335
梅堯臣曰彼	-11.5345
此世之所	-11.5345
利鈍	-11.5346
雲漢	-11.5346
之丹名	-11.5347
憂懼	-11.5348
醫家	-11.535
又從而	-11.5357
解脫	-11.5364
吏卒民	-11.5371
有意於	-11.5371
擾亂	-11.5378
六十年	-11.5386
昔三代	-11.541
蒼蒼	-11.5418
清静	-11.5422
稽古	-11.5425
以我爲	-11.5478
旬日	-11.548
不可遏	-11.5484
殺生之	-11.5514
年七十	-11.5533
以應敵	-11.5536
百歲之人	-11.5606
吕氏	-11.5616
八八六十四	-11.5655
子噲	-11.566
者神之	-11.5724
設伏	-11.5769
寡婦	-11.5777
伺敵	-11.5803
億萬	-11.5805
所以備	-11.5836
筋骨	-11.616
唯恐	-11.6164
當夜故有是象次	-11.6371
渾渾	-11.6393
吹竽	-11.641
甘茂	-11.6426
摹	-11.6428
而後可以見	-11.6431
七十萬家	-11.6432
盻	-11.6441
冉	-11.6442
瓴	-11.6442
喋	-11.6443
琳琅	-11.6444
糵	-11.6445
三爲思終	-11.6446
蘖	-11.6448
餔	-11.6448
耿弇	-11.6448
窴	-11.6449
惇	-11.645
鋭	-11.645
萬二千里	-11.6451
愷	-11.6452
田子方	-11.6452
溥	-11.6452
娉	-11.6452
其常也	-11.6452
怵	-11.6453
旒	-11.6454
潼	-11.6454
竇建德	-11.6454
陽家金準	-11.6454
鷹隼	-11.6454
坊	-11.6454
批	-11.6455
無聲無臭	-11.6455
如彈丸	-11.6456
菽粟	-11.6456
緘	-11.6457
楨	-11.6457
藜	-11.6457
緝	-11.6457
蒺	-11.6457
百善則後代	-11.6458
諒	-11.6458
躄	-11.6458
千變萬化	-11.6459
逄	-11.6459
蔡嫗	-11.646
部侍郎	-11.6461
醪	-11.6461
凌霄	-11.6461
呴	-11.6461
湍	-11.6461
這箇	-11.6461
輻凑	-11.6461
煗	-11.6461
鯉	-11.6461
軵	-11.6462
仿	-11.6463
刎	-11.6463
罡	-11.6463
冬至日在	-11.6463
倍道兼行	-11.6463
太一遁甲	-11.6463
鼓譟	-11.6464
酒醴粢盛	-11.6464
陽家水準	-11.6464
況於人乎	-11.6464
王曰七居過滿	-11.6464
弧	-11.6464
蠧	-11.6465
顫	-11.6465
甸	-11.6465
三百六十五日四分日之一	-11.6465
箸	-11.6465
癘	-11.6465
饉	-11.6465
躬耕	-11.6465
晞	-11.6465
篋	-11.6465
綃	-11.6466
日行一度	-11.6466
祝融	-11.6466
歇	-11.6467
長九分	-11.6467
洋洋	-11.6467
鞶	-11.6467
周亞夫	-11.6467
釐負羈	-11.6467
麛	-11.6467
爲罪遇	-11.6467
㗖	-11.6468
從中御	-11.6468
邅	-11.6468
刮	-11.6468
裊	-11.6468
盧敖	-11.6468
册	-11.6469
穹	-11.6469
錦繡	-11.6469
恛	-11.6469
磐	-11.6469
真訣曰	-11.6469
四爲下禄而當晝君子	-11.6469
隈	-11.6469
鋤	-11.6469
紡績織絍	-11.6469
冐	-11.6469
幃	-11.647
羑里	-11.647
徐偃王	-11.647
耕稼樹藝	-11.647
晋獻公	-11.647
臠	-11.647
靳	-11.647
窳	-11.647
蛾	-11.6471
凝滯	-11.6471
請以一二	-11.6471
俎	-11.6472
忝	-11.6472
只管	-11.6472
僦	-11.6472
詆	-11.6472
只是一箇	-11.6472
女媧	-11.6472
陽家木準	-11.6472
黥	-11.6473
艾陵	-11.6473
庾	-11.6473
自古及今	-11.6473
爲之柰何	-11.6474
𤓰	-11.6474
叔獻	-11.6474
子午卯酉	-11.6474
术	-11.6474
跼	-11.6474
弃灰	-11.6474
簋	-11.6474
眷屬	-11.6474
招摇	-11.6474
漱	-11.6474
昏時中於南方	-11.6474
夸父	-11.6474
鬢	-11.6474
縑	-11.6475
拆	-11.6475
刊	-11.6475
機械	-11.6475
根荄	-11.6475
覬	-11.6475
廵	-11.6476
今從范王小宋本	-11.6476
浦	-11.6476
箱	-11.6476
扢	-11.6476
頑嚚	-11.6476
禹湯文武	-11.6476
肘後	-11.6476
蕙	-11.6476
檄	-11.6476
醮祭	-11.6476
瑾	-11.6476
以尚賢使能爲政	-11.6476
堂谿公	-11.6476
尠	-11.6477
斥鷃	-11.6477
耒耜	-11.6477
椿	-11.6477
千仞之谿	-11.6477
蛾傅	-11.6477
罌	-11.6478
巨里	-11.6478
洮	-11.6478
報盡多爲	-11.6478
彝	-11.6478
金誥曰	-11.6478
不言而信	-11.6478
麓	-11.6478
𨽻	-11.6478
莘	-11.6478
胞	-11.6478
剽	-11.6479
一三五七九	-11.6479
巫祝	-11.6479
言之庶幾	-11.6479
暑寒晝夜	-11.6479
擐	-11.648
昱	-11.648
种	-11.648
閡	-11.648
萎	-11.648
鱓	-11.648
彗孛	-11.6481
州刺史	-11.6481
炮	-11.6481
猫	-11.6481
簞	-11.6481
衘	-11.6481
諦	-11.6481
儺	-11.6481
窮巷	-11.6481
儕	-11.6482
小童子	-11.6482
范文正公	-11.6482
赤松子	-11.6482
哆	-11.6483
抵罪	-11.6483
塜	-11.6483
芒種	-11.6483
駔	-11.6483
衣衾	-11.6483
到那	-11.6483
陽家火準	-11.6483
其大略	-11.6484
束帛	-11.6484
弦望晦朔	-11.6484
晏嬰	-11.6484
十二辟卦	-11.6484
歉	-11.6484
無往而不	-11.6484
亦復如是	-11.6485
曝	-11.6485
併力	-11.6485
薶	-11.6485
致行厨	-11.6485
唐孔氏曰	-11.6485
鼓琴	-11.6485
深谿	-11.6485
丑寅	-11.6486
蹄	-11.6487
驎	-11.6487
水火木金土	-11.6487
亞父	-11.6487
閻	-11.6487
螢	-11.6487
巽坎艮坤	-11.6487
魏宣子	-11.6487
須㬰	-11.6488
髪	-11.6488
柘	-11.6488
徂	-11.6488
血脉	-11.6488
顛倒	-11.6488
朓朒	-11.6488
洞庭	-11.6488
嗚	-11.6488
廖	-11.6488
束縛	-11.6489
管絃	-11.6489
田疇	-11.6489
赤眉	-11.6489
冗	-11.6489
僂	-11.6489
萬八千歲	-11.649
長生久視	-11.649
墝	-11.6491
為不可勝之	-11.6491
皮膚	-11.6491
清明風	-11.6491
袁紹	-11.6491
胥靡	-11.6491
社鼠	-11.6491
床	-11.6492
蠻夷	-11.6492
坎離震兌	-11.6492
老翁	-11.6493
閩	-11.6493
貴爲天子富有天下	-11.6493
如小豆	-11.6494
物固有	-11.6494
景行道受仙	-11.6494
楝	-11.6494
嫌疑	-11.6495
袍	-11.6495
犂	-11.6495
錙	-11.6495
峰	-11.6495
慰	-11.6495
揚雄	-11.6496
朱紫	-11.6496
九星在	-11.6496
韱	-11.6496
風縱火	-11.6496
鉦	-11.6496
饕	-11.6497
扶桑	-11.6497
狠	-11.6497
三百六十五日	-11.6498
磐石	-11.6498
玄圃	-11.6498
韓昭侯	-11.6499
有道之君	-11.6499
侍郎	-11.6499
暈	-11.65
二方二州	-11.65
决獄	-11.65
權𢖍	-11.65
二方一州	-11.65
顓帝	-11.65
〇程子曰	-11.6501
輪回	-11.6501
宏	-11.6503
十二萬九千六百年	-11.6504
甘露	-11.6504
純樸	-11.6505
缻	-11.6505
荀息	-11.6505
君臣父子	-11.6507
流涕	-11.6507
開闔	-11.6507
錬	-11.6508
厚賂	-11.651
磁石	-11.6511
有道之士	-11.6511
太初曆	-11.6512
臏	-11.6512
黄裳子	-11.6513
蓄積	-11.6513
巧拙	-11.6515
破軍殺將	-11.6515
蔡州	-11.6515
徵羽	-11.6517
唐堯	-11.6517
令人長生	-11.6518
晚年	-11.6519
辛苦	-11.6519
襲鄭	-11.652
堅壁	-11.6521
首之主	-11.6522
舉措	-11.6522
浙	-11.6523
狀似	-11.6523
海隅	-11.6524
仲達	-11.6524
禁忌	-11.6529
參驗	-11.6529
安排	-11.6533
圯地	-11.6535
各從其	-11.6537
而不自知	-11.6539
巧工	-11.6539
封侯	-11.6541
治鄴	-11.6545
遁甲	-11.6549
所自出	-11.655
致太平	-11.6554
二百二十八	-11.6558
同異之	-11.6559
如之何	-11.6562
豈不然乎	-11.6564
根源	-11.6565
公輸子	-11.657
萬七千	-11.6578
丈五尺	-11.6585
輪轉	-11.6593
所不智	-11.6646
八爲禍中而當晝	-11.665
貨賂	-11.6705
爲思始而當夜小人	-11.6772
何也對曰	-11.6792
後數年	-11.6799
以是故不	-11.694
有分於	-11.6957
月窟	-11.6985
於其所不	-11.712
暑濕	-11.715
勵士	-11.7168
欣然	-11.7252
明主弗	-11.7269
中和之	-11.7536
陛	-11.7831
輴	-11.7857
李筌	-11.7858
搜索	-11.786
申包胥	-11.7861
𢙅	-11.7864
嫚	-11.7866
軛	-11.7866
檐	-11.7867
誖	-11.7867
蓆	-11.7869
燋	-11.7872
惽	-11.7875
平等智力	-11.7875
酪	-11.7876
不量其力	-11.7877
涇	-11.7877
狖	-11.7878
諺	-11.7879
榭	-11.7881
杠	-11.7881
瑜	-11.7882
藏於九地之下	-11.7882
閒	-11.7882
㧞	-11.7882
軍争之法	-11.7882
賾	-11.7883
紳	-11.7883
滕	-11.7883
竹箭	-11.7883
垂拱	-11.7884
仁義禮智	-11.7884
孟軻	-11.7885
茍	-11.7885
震霆	-11.7885
戕	-11.7885
邠	-11.7886
瘗	-11.7886
饌	-11.7886
頷	-11.7887
繘	-11.7887
㪍	-11.7887
銛	-11.7887
螻蟻	-11.7887
扶摇	-11.7888
迓	-11.7888
彍	-11.7888
倉廪	-11.7889
睨	-11.7889
天地萬物之理	-11.7889
淇	-11.7889
耐	-11.789
廊廟	-11.789
蟯	-11.789
汗漫	-11.789
羶	-11.789
閫	-11.789
墳墓	-11.789
斐	-11.789
鷇	-11.789
橘柚	-11.789
知彼知己	-11.789
宼	-11.7891
枳棘	-11.7891
僭	-11.7892
蜉	-11.7892
插	-11.7892
歃血	-11.7892
麴	-11.7892
䇿	-11.7892
真人子丹	-11.7893
翡翠	-11.7893
絀	-11.7893
跰	-11.7893
蜚	-11.7893
品藻	-11.7893
梢	-11.7893
纁	-11.7893
銓	-11.7893
不可不慎	-11.7893
堵	-11.7894
眥	-11.7894
草萊	-11.7894
尊天事鬼	-11.7894
霰	-11.7894
韈	-11.7894
婁敬	-11.7894
二至二分	-11.7894
者衆生聞法	-11.7894
犀兕	-11.7895
長九分思之亦長三寸	-11.7895
推而上之	-11.7895
傚	-11.7895
撮	-11.7896
𥹋	-11.7896
垂棘之璧	-11.7896
寘	-11.7896
偏裨	-11.7896
蝮蛇	-11.7896
黎庶	-11.7896
穉	-11.7896
四分日之一	-11.7896
王曰八居	-11.7896
衿	-11.7896
嬉	-11.7896
歐陽文忠	-11.7896
性命之情	-11.7896
摻	-11.7896
烟	-11.7896
輓	-11.7896
慟	-11.7897
暘谷	-11.7897
盱	-11.7897
笏	-11.7898
勗	-11.7898
姒	-11.7898
㝷	-11.7898
王鈇	-11.7898
吴王夫差	-11.7898
梨	-11.7898
百仞之	-11.7898
梅堯臣同杜牧註	-11.7899
疫癘	-11.7899
孫子曰凡	-11.7899
杞	-11.7899
荆棘	-11.7899
忽怳	-11.7899
渾淪	-11.7899
有生地一	-11.7899
翊	-11.7899
孝悌	-11.7899
柢	-11.7899
鏌	-11.7899
下五事也	-11.7899
知杭州	-11.7899
查滓	-11.7899
刁	-11.79
楫	-11.79
矜誇	-11.79
櫟	-11.79
姊	-11.79
渥	-11.79
葭	-11.7901
被攝至	-11.7901
君命有所不受	-11.7901
浸潤	-11.7901
深溝高壘	-11.7901
糲	-11.7901
隍	-11.7901
俎豆	-11.7901
颺	-11.7902
斤斧	-11.7902
𦔳	-11.7902
笠	-11.7902
鯁	-11.7902
纚	-11.7902
人自為戰	-11.7902
靜漠	-11.7902
舉成數	-11.7902
胡氏曰	-11.7902
嚚	-11.7903
瞳	-11.7903
涣	-11.7903
裸	-11.7903
涪	-11.7903
太宰嚭	-11.7903
惶懼	-11.7903
倫叅於	-11.7903
京兆	-11.7904
膏肓	-11.7904
休咎	-11.7904
徤	-11.7904
耘	-11.7904
兇	-11.7904
霽	-11.7904
百四十有四	-11.7904
竊甞	-11.7904
安能愛君	-11.7904
邸	-11.7905
六爲極大	-11.7905
枯槁	-11.7905
歌舞	-11.7905
纎	-11.7905
姝	-11.7905
湧	-11.7905
鄢	-11.7905
朱漢上曰	-11.7905
滎	-11.7905
陪	-11.7905
物莫非指	-11.7905
千善則爲	-11.7905
也光謂九爲	-11.7905
訥	-11.7905
鶻	-11.7905
㹠	-11.7905
儋	-11.7905
轔	-11.7905
坏	-11.7906
二四六八十	-11.7906
悔吝	-11.7906
梧桐	-11.7906
僚屬	-11.7906
溝瀆	-11.7906
滂	-11.7906
坐在立亡	-11.7906
綜	-11.7907
戒哉賛曰	-11.7907
陌	-11.7907
鷦	-11.7907
蘧	-11.7907
呱	-11.7907
鯤	-11.7907
糠	-11.7908
皮幣	-11.7908
悵	-11.7908
有是理	-11.7908
璨	-11.7908
桑梓	-11.7908
紲	-11.7908
夕惕	-11.7908
烏得無	-11.7908
銅鐵	-11.7908
瓦器	-11.7908
亦猶此也	-11.7908
律令敕右法	-11.7908
此筌以	-11.7908
纊	-11.7908
蝮	-11.7908
訓練	-11.7909
廣莫風	-11.7909
團	-11.7909
籟	-11.7909
真原曰	-11.7909
蔈	-11.7909
遏惡揚善	-11.7909
風至四十五日	-11.7909
金木水火	-11.791
遄	-11.791
魏武帝	-11.791
按經所說	-11.791
斲削	-11.791
繒	-11.791
溷	-11.791
燄	-11.791
瓢	-11.791
蚈	-11.791
役使鬼神	-11.7911
刷	-11.7911
螳蜋	-11.7911
財殫	-11.7911
朓	-11.7911
百萬之衆	-11.7911
英俊	-11.7911
七百二十九賛	-11.7911
一百九十二	-11.7911
蠲	-11.7911
永歎	-11.7911
乂	-11.7911
嫫母	-11.7911
性情形體	-11.7911
李悝	-11.7911
紗	-11.7911
靈憲曰	-11.7911
四境之内	-11.7911
諍	-11.7912
糊	-11.7912
自投於	-11.7912
跣	-11.7912
厮養	-11.7912
嬾	-11.7913
白日昇天	-11.7913
四海之外	-11.7913
苗賁皇	-11.7913
兀	-11.7913
清凈	-11.7913
噫嘻	-11.7913
莠	-11.7913
孑	-11.7913
荀子曰	-11.7914
麑	-11.7914
乾兌離震	-11.7914
娘	-11.7914
税	-11.7914
軋	-11.7914
冰炭	-11.7914
搔	-11.7914
譛	-11.7914
象箸	-11.7915
嘷	-11.7915
倅	-11.7915
陰中之陽	-11.7915
也王曰得位當晝	-11.7915
邊境	-11.7915
螺	-11.7916
也吴王曰	-11.7916
三日三夜	-11.7916
北而南	-11.7916
鴻烈	-11.7916
彖	-11.7917
瀁	-11.7917
南溟	-11.7917
蠆	-11.7917
萇	-11.7917
涂	-11.7917
陰家火準	-11.7917
松喬	-11.7918
廬江	-11.7918
耶賛曰	-11.7918
詛	-11.7918
亘	-11.7919
孰謂爲不然乎	-11.7919
桓侯	-11.7919
摭	-11.792
洒	-11.792
真武真君	-11.792
肘	-11.792
蒂	-11.792
板築	-11.792
卜皮	-11.792
欺誑	-11.792
苛虐	-11.792
蟁	-11.792
檠	-11.792
嚬	-11.792
恭儉	-11.792
譟	-11.7921
翼軫	-11.7921
縗	-11.7921
勁弩	-11.7921
皺	-11.7921
爲天下笑	-11.7922
昇仙	-11.7923
轡策	-11.7923
剛毅	-11.7923
故上文云	-11.7923
叅政	-11.7923
峯	-11.7923
燃	-11.7923
醫卜	-11.7923
妄想	-11.7923
貉	-11.7924
三百八十四爻	-11.7924
殛	-11.7924
啜	-11.7924
慈悲	-11.7925
大衍五十	-11.7925
稔	-11.7926
磑	-11.7926
嗜酒	-11.7926
鰥寡	-11.7926
一年三百六十日	-11.7926
之爲度也	-11.7926
乖戾	-11.7927
婺女	-11.7927
墮地獄	-11.7927
或可爲	-11.7927
訶	-11.7929
鳴條	-11.7929
曰吾平生	-11.7929
指麾	-11.7929
兼相愛交相利	-11.7929
茝	-11.7929
凶饑	-11.7929
步行水上	-11.793
三三而九	-11.7932
四九三十六	-11.7933
悚	-11.7934
煎熬	-11.7935
公尚過	-11.7935
障蔽	-11.7935
一日十二時	-11.7937
喈	-11.7938
一元之數	-11.7938
有道之主	-11.7939
嚇	-11.794
暴骸	-11.7941
為我用	-11.7941
肪	-11.7941
五與十	-11.7941
君臣之義	-11.7942
者有間其	-11.7942
惜人不知	-11.7942
蝠	-11.7943
武靈王	-11.7944
羊腸	-11.7947
太蔟	-11.7948
而未可謂	-11.795
得民心	-11.7953
輆	-11.7954
後天八卦	-11.7956
陽中之陰	-11.7958
爲進人	-11.7965
窯	-11.7971
名山大川	-11.7973
陰中陰	-11.7986
范中行	-11.799
極之山	-11.809
月與日	-11.8105
舉兵伐	-11.8197
光謂一爲思始而當晝	-11.8267
骨髓	-11.8302
十善則	-11.8304
戰而勝	-11.8995
斗魁	-11.9064
乎又不聞	-11.9153
猒	-11.9423
沌	-11.9459
中行氏	-11.9463
鷺	-11.9504
尹文曰	-11.9506
經十卷	-11.951
篙	-11.9515
漳	-11.9516
綣	-11.9518
無爲曰吾知道	-11.9521
松柏	-11.9522
鄆	-11.9524
糴	-11.9525
簮	-11.9529
所以然者何也	-11.9533
瀷	-11.9533
噫	-11.9534
天人之際	-11.9534
侃	-11.9535
次則石	-11.9536
迄	-11.9536
泗	-11.9536
閈	-11.9536
枅	-11.9536
帷幕	-11.9537
殤	-11.9537
址	-11.9538
諜	-11.9539
敞	-11.9539
闞	-11.954
初而失位當夜	-11.954
蔀	-11.954
聆	-11.9541
動於九天之上	-11.9541
踤	-11.9541
皇天上帝太上道君	-11.9541
蝨	-11.9541
胞胎	-11.9542
喧	-11.9542
悾	-11.9542
車十乘已上	-11.9543
隽	-11.9543
黄黑馬	-11.9544
蛩	-11.9545
椒	-11.9545
雲炁之車	-11.9545
𨃨	-11.9546
極而失位當夜	-11.9546
姑置勿論	-11.9547
飭	-11.9547
蝦蟇	-11.9547
㩣	-11.9547
滄	-11.9547
驪姬	-11.9548
低眉	-11.9548
祧	-11.9548
騷	-11.9548
春木王	-11.9548
劬	-11.9549
虞虢	-11.955
腫	-11.955
雩	-11.955
剱	-11.955
摸	-11.955
郈	-11.955
複	-11.9551
鄶	-11.9551
涼	-11.9551
胝	-11.9551
莎	-11.9551
穿窬	-11.9551
棓	-11.9551
鄭縣人	-11.9551
太極本無極	-11.9552
雝	-11.9552
繪	-11.9552
譚	-11.9552
秋毫之末	-11.9552
或人難曰	-11.9553
撮壤	-11.9553
剃	-11.9553
龔	-11.9553
蕘	-11.9553
衰絰	-11.9553
攢	-11.9554
騮	-11.9554
上爲真人	-11.9555
馭	-11.9555
因糧於敵	-11.9555
之極逢禍之窮	-11.9555
搶	-11.9555
苑囿	-11.9555
〇王皙同曹操註〇	-11.9555
讜	-11.9556
揵	-11.9556
嘬	-11.9556
匣	-11.9556
寔	-11.9556
粢	-11.9556
殳	-11.9556
潢洿	-11.9557
奬	-11.9557
死託祀於	-11.9557
禺	-11.9557
萬五千里	-11.9557
亡者神識	-11.9557
無所往則	-11.9557
倏忽	-11.9558
遶	-11.9558
斥鹵	-11.9558
聿	-11.9558
斁	-11.9558
一人之身	-11.9558
閤	-11.9558
胔	-11.9558
廅	-11.9558
絫	-11.9559
剄	-11.9559
夷貉	-11.9559
厮	-11.9559
洪濤	-11.9559
慿	-11.9559
喪息浪切	-11.956
島	-11.956
懈惰	-11.956
潛	-11.956
吾以此知	-11.9561
翰林學士	-11.9561
忌諱	-11.9561
攜	-11.9561
僵	-11.9561
蘿	-11.9561
屩	-11.9561
以患為利	-11.9561
剗	-11.9561
炫	-11.9562
憯	-11.9562
嫉妬	-11.9562
邢	-11.9562
成形名爲	-11.9562
纑	-11.9563
咄	-11.9563
撚	-11.9563
蚋	-11.9563
今從范小宋本	-11.9563
撝	-11.9563
拜樞宻	-11.9563
歲而周天	-11.9563
銑	-11.9563
簇	-11.9563
茨	-11.9563
堯舜禹湯	-11.9564
映	-11.9564
倩	-11.9564
層	-11.9564
陽侯之波	-11.9564
夾脊	-11.9564
緊	-11.9564
藿	-11.9565
甬	-11.9565
瘦	-11.9565
葺	-11.9565
悦	-11.9565
迸	-11.9565
揀	-11.9565
澀	-11.9565
玷	-11.9565
腕	-11.9565
欵	-11.9566
掎角	-11.9566
不旋踵	-11.9566
茸	-11.9566
菖蒲	-11.9566
訛	-11.9566
扆	-11.9566
齊威王	-11.9566
字之誤	-11.9567
陀	-11.9567
巍	-11.9567
鬯	-11.9567
張忠定	-11.9567
媾	-11.9567
五絃之琴	-11.9567
𦊙	-11.9567
焰	-11.9567
相加而爲	-11.9567
於胷中	-11.9568
熲	-11.9568
不能與之爭	-11.9568
媿	-11.9568
慰諭	-11.9568
良馬固車	-11.9568
珮	-11.9568
栝	-11.9568
盎	-11.9568
阼	-11.9568
鸛	-11.9568
豈不悖哉	-11.9568
樽俎	-11.9569
庠	-11.9569
歲月日時	-11.9569
於胸中	-11.9569
糝	-11.9569
間其君臣	-11.9569
劵	-11.9569
耕柱子	-11.9569
沔	-11.957
鍜	-11.957
叡	-11.957
黄石公素書	-11.957
騶虞	-11.957
沅	-11.957
糺	-11.957
斟	-11.9571
倣	-11.9571
顛頡	-11.9571
萬有一千五百二十	-11.9571
𢡖	-11.9571
隠	-11.9571
漲	-11.9571
鰥	-11.9571
不量力	-11.9572
三陽三陰	-11.9572
以僞雜眞	-11.9572
濞	-11.9572
師聖眞仙	-11.9572
犒	-11.9572
霓	-11.9573
伊摯	-11.9573
狡兔	-11.9573
唇	-11.9573
明庶風	-11.9573
負笈	-11.9573
自外來	-11.9573
杳	-11.9573
坫	-11.9573
埏	-11.9573
無所措其	-11.9574
陽之盛也	-11.9574
爲炮烙	-11.9574
姧	-11.9574
攻其所必救	-11.9574
蠕	-11.9574
陳安世	-11.9574
衛嗣君	-11.9574
鉒	-11.9574
㳙	-11.9574
篨	-11.9575
栅	-11.9575
氷雪	-11.9575
絭	-11.9575
離卦採藥	-11.9575
濘	-11.9575
剞	-11.9575
愽	-11.9575
畎	-11.9575
仲虺	-11.9575
物之初生	-11.9576
穩	-11.9576
如此者身危	-11.9576
邵康節	-11.9576
房中之術	-11.9576
端起乎此	-11.9576
窮理盡性	-11.9576
鑊	-11.9577
霹	-11.9577
痾	-11.9577
忉	-11.9577
烝	-11.9577
螫毒	-11.9577
㐜	-11.9577
犴	-11.9577
以三二因	-11.9577
百四十四	-11.9577
抒	-11.9578
和氏之璧	-11.9578
寂然不動	-11.9578
橘	-11.9578
狩	-11.9578
蔂	-11.9578
自南而北	-11.9578
田單守即墨	-11.9578
腥穢	-11.9578
虹蜺	-11.9578
有虞氏	-11.9578
蕤	-11.9579
啼	-11.9579
奈何鶡冠子曰	-11.9579
〇何氏同杜牧註〇張預曰	-11.9579
破之必矣	-11.9579
天包地外	-11.958
鴞	-11.958
栽	-11.958
而折之者乎	-11.958
先薦寢廟	-11.958
軟	-11.9581
陽以陰為	-11.9581
互藏其宅	-11.9581
肇	-11.9581
莧	-11.9581
餱	-11.9581
者生於庶	-11.9582
嶢	-11.9582
嗑	-11.9582
狶	-11.9582
以炁禁	-11.9582
根勘	-11.9582
喘	-11.9582
圎	-11.9583
鎭	-11.9583
韓康子	-11.9583
斧斤	-11.9583
椀	-11.9583
惜其莫悟	-11.9583
擠	-11.9583
蝦	-11.9583
孔安國	-11.9583
興利除害	-11.9583
翺	-11.9584
𣗳	-11.9584
心不專	-11.9584
十九分度之七	-11.9584
諏訾	-11.9584
怡顔	-11.9584
劃	-11.9584
怕	-11.9585
吴蚣	-11.9585
擘	-11.9586
牘	-11.9586
吴王闔閭	-11.9586
六陰六陽	-11.9586
必有奇伏	-11.9586
橢	-11.9587
泣涕	-11.9587
鉏	-11.9587
陰陽老少	-11.9587
赨	-11.9587
誚	-11.9588
枋	-11.9588
故能成其	-11.9588
儆	-11.9588
狠戾自用	-11.9588
六一泥	-11.9589
暐	-11.9589
瓦礫	-11.9589
迭為消長	-11.9589
所行之事	-11.959
二千五百	-11.959
血塗一丸	-11.9591
胃管中	-11.9591
腥	-11.9591
𥚑	-11.9591
秦西巴	-11.9591
佼	-11.9591
薈	-11.9591
狂矞	-11.9591
胃昴畢	-11.9591
誾	-11.9591
居四正	-11.9592
鄭司農	-11.9592
尟	-11.9594
孥	-11.9594
鋌	-11.9595
頼	-11.9595
振翅	-11.9596
搗	-11.9596
從間道	-11.9597
孜孜	-11.9597
黄鍾之律	-11.9598
㛰	-11.9598
𥿄	-11.9598
蕢	-11.9599
𡻕	-11.9602
躆	-11.9603
有許多	-11.9604
功炁君奏事	-11.9605
蒼梧	-11.9606
疊	-11.9606
秆	-11.9606
肚	-11.9608
楞嚴	-11.9609
王子閭	-11.9609
眉睫	-11.9611
嫡	-11.9612
朏	-11.9613
也其得道以	-11.9614
㬆	-11.9615
火炊之	-11.9618
嶁	-11.9621
得五便成	-11.9621
葬埋	-11.9629
篆	-11.963
吾之宗君	-11.9631
亦所以生	-11.9633
各居其	-11.9643
各當其	-11.9656
陽生於子	-11.9684
二百七十	-11.9716
凍餓	-11.9757
也何以知其然	-11.9781
知所避	-12.0572
𥢕	-12.1494
㓪	-12.1497
梲	-12.1503
墠	-12.151
殥	-12.151
怱	-12.1513
狧	-12.1513
聆聆	-12.1517
蛆	-12.152
𡛖	-12.1521
吐谷渾	-12.1521
淢	-12.1523
柰	-12.1523
沓	-12.1524
摐	-12.1525
敺	-12.1525
臾駢	-12.1525
樗里疾	-12.1528
鏏	-12.1528
佴	-12.1529
南極老人元光	-12.1529
故王子曰	-12.153
唤	-12.1532
亂之所由生	-12.1533
糟糠	-12.1533
晽	-12.1533
嗔	-12.1534
舩	-12.1534
因暝目念	-12.1534
穀不收謂之	-12.1535
諄	-12.1536
㓂萊公	-12.1536
荔	-12.1536
髯	-12.1536
曰若何而	-12.1536
柳下惠	-12.1537
西益宅	-12.1537
𣯛	-12.1538
觡	-12.1538
聵	-12.1539
泠	-12.1539
琬琰	-12.1539
幘	-12.1539
左右執事之臣	-12.154
孫子註觧卷之	-12.154
從官三千六百人	-12.154
滉	-12.1541
綰	-12.1541
先人有奪人之心	-12.1541
噉	-12.1541
桅	-12.1541
汚	-12.1542
也二爲思中而當夜小人	-12.1542
癰	-12.1542
瞥	-12.1542
豨	-12.1542
所受於天	-12.1543
寰	-12.1545
𥚹	-12.1545
陰家木準	-12.1546
鬬	-12.1546
暨	-12.1546
洶	-12.1546
迂其途	-12.1546
喁	-12.1546
罦	-12.1546
仮	-12.1547
陞	-12.1547
娠	-12.1547
詡	-12.1547
鞍	-12.1547
脣吻	-12.1548
錡	-12.1549
不失敵之敗	-12.1549
夫槩王	-12.1549
鼷	-12.1549
么	-12.155
轉禍爲福	-12.155
爲虚誕	-12.155
斑	-12.155
之爪角害之	-12.155
鞼	-12.155
蝸	-12.1551
鯨	-12.1551
酗	-12.1551
傒	-12.1551
之别名也	-12.1551
七爲敗損而當夜	-12.1551
櫨	-12.1551
筵	-12.1551
紱	-12.1551
壃	-12.1551
袀	-12.1551
覦	-12.1551
緜	-12.1551
厦	-12.1552
聒	-12.1552
饟	-12.1552
鷹鸇之	-12.1552
悮	-12.1552
明月之珠	-12.1552
潁	-12.1552
雊	-12.1552
後人發先人至	-12.1552
儡	-12.1552
夏桀殷紂	-12.1553
環堵之	-12.1554
與此異矣	-12.1554
馮翊	-12.1554
蹋	-12.1554
柩	-12.1554
德王天下號	-12.1554
癩	-12.1555
腯	-12.1555
也一爲思始而當晝君子	-12.1555
佗	-12.1555
當如何哉賛曰	-12.1555
以曲爲直	-12.1555
枘	-12.1555
知制誥	-12.1555
以迂為直	-12.1555
五色珠衣	-12.1556
籩	-12.1556
抱朴子詰曰	-12.1556
燐	-12.1556
線	-12.1556
睽	-12.1556
𢙢	-12.1556
用事火煙	-12.1557
氏同杜牧註	-12.1557
六爲盛多	-12.1557
睿	-12.1557
挻	-12.1558
欄	-12.1558
觟	-12.1558
凡有幾	-12.1558
鷁	-12.1558
元亨利貞	-12.1558
盧多遜	-12.1558
鼇	-12.1558
此吾所以知	-12.1558
也光謂七爲	-12.1558
蹇驢	-12.1559
炬	-12.1559
玉液煉形	-12.1559
鴟梟	-12.1559
蹐	-12.1559
郁	-12.1559
寅申巳亥	-12.1559
切又音	-12.1559
擏	-12.1559
險阨遠近	-12.1559
鏩	-12.1559
肘後飛金晶	-12.1559
褚	-12.156
氣上騰	-12.156
𩲸	-12.156
位且當夜	-12.156
蹎	-12.156
滿而不溢	-12.156
綆	-12.156
堆	-12.156
礜	-12.156
偈	-12.156
莙	-12.156
鷃	-12.156
匈	-12.156
雚	-12.1561
嵇	-12.1561
麋角解	-12.1561
黻	-12.1561
背水陳	-12.1561
來攻我	-12.1561
坰	-12.1561
生生不窮	-12.1561
甥	-12.1561
雿	-12.1561
時中於南方	-12.1561
尚爾况	-12.1562
逅	-12.1562
老莊之	-12.1562
禰	-12.1562
聶	-12.1562
先據北山	-12.1562
故古聖王	-12.1562
泉之埃上爲	-12.1562
以取禍者	-12.1562
其數不勝也	-12.1562
蜺	-12.1563
搢	-12.1563
頏	-12.1563
政令不一	-12.1563
狢	-12.1563
鷰	-12.1563
出其所必趨	-12.1563
周而復始	-12.1563
噣	-12.1563
楗	-12.1563
抈	-12.1563
龍入藏生	-12.1563
蘢	-12.1563
螟蛉	-12.1563
鷂	-12.1564
八萬四千	-12.1564
可勝言哉	-12.1564
棄法受賂	-12.1564
淡泊	-12.1564
冽	-12.1564
訽	-12.1564
蜾蠃	-12.1564
黯	-12.1564
卹	-12.1565
與天地相畢	-12.1565
迨	-12.1565
磋	-12.1565
磧	-12.1565
今皆從范本	-12.1565
蓽	-12.1565
跬	-12.1565
診	-12.1565
遡	-12.1565
之民也而世少之曰	-12.1565
雲隂陽相薄爲	-12.1565
雷激揚爲電上者就下流水就通而合于	-12.1565
桎	-12.1566
似是而非	-12.1566
壍	-12.1566
三千六百	-12.1566
懌	-12.1566
湍瀨	-12.1566
閙	-12.1566
抃	-12.1566
巫馬期	-12.1566
駱	-12.1566
孺	-12.1567
臾	-12.1567
讟	-12.1567
悸	-12.1567
俞跗	-12.1567
怵惕	-12.1567
凊	-12.1567
摘	-12.1567
燾	-12.1567
其竅上通於	-12.1567
嗄	-12.1567
堊	-12.1568
孰大焉	-12.1568
紫微宫	-12.1568
勇者不得獨進怯者不得獨退	-12.1568
司馬温公	-12.1568
蒐	-12.1568
百三十五分	-12.1568
茶	-12.1568
不欺暗室	-12.1568
光謂四爲下禄而當夜小人	-12.1569
愕	-12.1569
目耳鼻口	-12.1569
穰苴	-12.1569
杲	-12.1569
甲盾五兵	-12.1569
繦	-12.1569
蜓	-12.1569
諝	-12.1569
雪霜雨露	-12.157
獫	-12.157
韋孝寬	-12.1571
絝	-12.1571
醲	-12.1571
鑱	-12.1571
瘧	-12.1571
赤奮若	-12.1571
瀾	-12.1571
三代暴王桀紂幽厲	-12.1571
因以題篇	-12.1572
殲	-12.1572
頟	-12.1572
媵	-12.1572
受恩不感	-12.1572
是月平旦時中於南方	-12.1572
木火土金水	-12.1572
炁周徧一身	-12.1572
施所得福報世世	-12.1572
瘟疫	-12.1572
謂人乏食	-12.1572
殮	-12.1573
醖釀	-12.1573
天皇大帝	-12.1573
師問道	-12.1573
幽冀謂之	-12.1573
徳	-12.1573
民衣食之財	-12.1573
墉	-12.1573
逞志作威	-12.1573
不得次已而爲正有	-12.1573
瘳	-12.1574
日月交會	-12.1574
搢笏	-12.1574
袤	-12.1574
行住坐卧	-12.1574
趙康靖	-12.1574
黠	-12.1574
蜂蠆	-12.1574
四四一十六	-12.1574
時拊心祝	-12.1574
燧取火	-12.1574
神仙常以六	-12.1574
阬	-12.1575
猝	-12.1575
有自來矣	-12.1575
正月建寅	-12.1575
貊	-12.1575
拔萃之	-12.1575
櫓大楯也	-12.1575
崤	-12.1575
毈	-12.1576
受之天真	-12.1576
歳月日時上三命刑害之災	-12.1576
蹴	-12.1576
陰家水準	-12.1576
着	-12.1577
終南山	-12.1577
龐子問鶡冠子曰	-12.1577
儷	-12.1577
兾	-12.1577
鳧	-12.1577
七宿君主攝者可解	-12.1577
嚘	-12.1578
其虚懈	-12.1579
昳	-12.1579
姙	-12.1579
杚	-12.1579
痊	-12.1579
一陰一陽之謂道	-12.1579
害之炁可以辟斥	-12.1579
痺	-12.1579
屈人之兵	-12.158
自姤至坤	-12.158
三令五申	-12.158
飫	-12.158
年月日時	-12.158
剟	-12.158
北斗七真	-12.158
塉	-12.158
荻	-12.158
噎	-12.158
㘩	-12.158
摺	-12.158
大二圍	-12.1581
縳	-12.1581
籧	-12.1581
晡	-12.1581
洙	-12.1581
痕	-12.1581
其鋒不可當	-12.1581
蹔	-12.1581
老而無妻	-12.1581
沲	-12.1581
筥	-12.1582
噞	-12.1582
梳	-12.1582
發號施令	-12.1582
藁	-12.1582
⬤	-12.1582
壠	-12.1582
薏	-12.1582
殂	-12.1583
儈	-12.1583
麞	-12.1583
仳	-12.1583
人民之衆	-12.1583
晦朔弦望	-12.1583
一三七九	-12.1583
澮	-12.1583
餗	-12.1583
之氣與液也	-12.1584
葈	-12.1584
赭	-12.1585
㩖㩖	-12.1585
嗃	-12.1585
䟎	-12.1585
方州部家	-12.1585
琅	-12.1586
換	-12.1586
菅	-12.1586
天一地二	-12.1586
灸	-12.1586
𪃿	-12.1586
迥	-12.1587
合軍聚衆	-12.1587
黽	-12.1587
黧	-12.1587
洹	-12.1587
賞賢而罰暴	-12.1587
爲隂比	-12.1587
諤	-12.1587
嫫	-12.1587
騏騄	-12.1588
消息盈虚	-12.1588
箒	-12.1588
書之竹帛	-12.1588
笛	-12.1588
胄	-12.1588
臟	-12.1588
愛人利人順天之意得天之賞者	-12.1588
飛金晶入腦	-12.1589
作佛事	-12.1589
鷄鳴時	-12.1589
四爲福始而當晝	-12.1589
牂	-12.1589
猨狖	-12.1589
跙跙	-12.1589
周天三百六十五度四分度之一	-12.159
膂	-12.159
令吾間	-12.159
終則有始	-12.159
俳	-12.159
東井輿鬼	-12.159
櫛	-12.159
餕	-12.159
翩	-12.1591
陰家金亦準	-12.1591
蠟	-12.1591
揫	-12.1591
與秦人戰	-12.1591
鎖	-12.1592
盍	-12.1592
七日來復	-12.1592
非其難者也	-12.1592
莅	-12.1593
伯夷叔齊	-12.1593
頒	-12.1593
舉兵而伐	-12.1593
讙兜	-12.1593
溱	-12.1594
忣	-12.1594
葭葦	-12.1594
財自足	-12.1594
拳	-12.1595
乃下令曰	-12.1595
蘧伯玉	-12.1595
窠	-12.1595
氏之儒有	-12.1595
孀	-12.1596
煇	-12.1596
孱	-12.1596
窖	-12.1598
𧇊	-12.1598
綺紈	-12.1599
軀殻	-12.1599
坱埤	-12.1599
襟	-12.16
兩儀四象八卦	-12.16
筌蹄	-12.1601
匏	-12.1601
山石室中	-12.1602
上第二十	-12.1602
俓	-12.1602
王曰六居盛位	-12.1602
賕	-12.1602
虵	-12.1603
邳	-12.1603
碬	-12.1605
迵	-12.1605
灌民田	-12.1606
鴽	-12.1606
聖人知其所	-12.1607
設留形而遁	-12.1607
贓	-12.1611
奰	-12.1611
鏻	-12.1611
嚌	-12.164
眞淨明妙虚徹靈通	-12.1642
擸	-12.1647
得道之聖	-12.1726
光謂三爲成意而	-12.1732
敵而取勝	-12.1734
光謂七爲禍始而當晝	-12.2286
静而生陰	-12.2695
四爲下禄而當	-12.3255
虚誣詐僞	-12.3989
榱	-12.3996
鍪	-12.4001
𩥡	-12.4003
宸	-12.4007
笈	-12.4008
晋厲公	-12.401
䖏	-12.4011
若數君者	-12.4012
臘集於	-12.4012
穀失䟽數	-12.4012
傠	-12.4013
芙蓉	-12.4014
菆	-12.4017
衊	-12.4019
問左右左右	-12.402
氣弱咽法日用	-12.402
憍	-12.4021
渙	-12.4021
倏	-12.4023
棒	-12.4023
𢜔	-12.4023
不徃不來	-12.4023
峽	-12.4024
興師動衆	-12.4024
以白馬爲有馬	-12.4025
𠑩	-12.4025
方馬埋輪	-12.4027
球	-12.4027
眺	-12.4028
錢師愈	-12.4028
撩	-12.403
旣而得還	-12.403
牷	-12.4031
字今從二宋陸范本	-12.4031
朶	-12.4031
用藥殺樹	-12.4031
癢	-12.4032
覃	-12.4032
鮒	-12.4032
色藥屬	-12.4032
睫	-12.4033
芰	-12.4034
枷	-12.4034
三皇内文	-12.4034
鼔	-12.4034
迍	-12.4034
㧓	-12.4034
然則我不可不爲義	-12.4034
觥	-12.4035
尖	-12.4035
後發而先至	-12.4035
方之神名曰	-12.4035
戁	-12.4036
𣈆	-12.4037
屈于根	-12.4037
敬以直内	-12.4037
月建焉而辰在	-12.4037
由此觀之則聖人之	-12.4037
今上舉義不辟	-12.4037
蠖	-12.4038
威加於敵	-12.4038
爝	-12.4038
欶	-12.4038
臣愚以爲國不足爲也事不足治也	-12.4038
陰家金準	-12.4039
魋	-12.4039
盼	-12.4039
冑	-12.404
以直爲曲	-12.4041
鱉	-12.4041
後天而奉天時	-12.4041
餼	-12.4041
以形貌命者	-12.4041
嘖	-12.4041
鞞	-12.4041
䧺	-12.4042
銳卒勿攻	-12.4042
餽	-12.4042
樠	-12.4042
鷞	-12.4042
查	-12.4043
銅器中	-12.4043
埋蠱厭人	-12.4043
瞰	-12.4043
耳目鼻口	-12.4043
舋	-12.4043
氂	-12.4043
前後俱起	-12.4043
綉	-12.4045
沍	-12.4045
𤦺	-12.4045
以實而無愧於	-12.4045
日費千金	-12.4045
羂	-12.4045
道二出黄道	-12.4045
糜	-12.4046
桷	-12.4046
後發先至	-12.4046
柴揚塵	-12.4046
攅	-12.4048
勅	-12.4048
吴公子光	-12.4048
耄	-12.4048
瀟	-12.4048
紃	-12.4048
而又奚以善爲	-12.4048
魃	-12.4048
鼛	-12.4048
所眩惑	-12.4048
躅	-12.4048
能收萬物之	-12.4048
踆	-12.4048
椓	-12.4049
澳	-12.4049
二李昌齡傳鄭清之賛	-12.4049
短褐不完	-12.4049
受聞不悉以告	-12.4049
唁	-12.4049
逑	-12.4049
兜	-12.405
敘	-12.405
淋	-12.405
汭	-12.405
慣	-12.405
俘	-12.405
謔	-12.405
滒	-12.405
陰家水亦準	-12.405
密密不罅	-12.405
瘉	-12.405
隮	-12.405
滴	-12.4052
𠜾	-12.4052
劗	-12.4052
置之危地	-12.4052
信與伸同	-12.4052
曾孫小兆王甲好道願得長生	-12.4052
三陰三陽	-12.4052
其來尚矣	-12.4052
芮	-12.4052
邾	-12.4052
麥昌民食	-12.4052
攬	-12.4053
生長收藏	-12.4053
樾	-12.4053
靡靡之樂	-12.4053
崇侯惡來	-12.4053
庶皆知戒	-12.4053
鑛	-12.4053
褰	-12.4053
阡	-12.4053
湯放桀	-12.4053
秪	-12.4053
篲	-12.4053
綌	-12.4053
坽	-12.4053
埻	-12.4053
天地生物之心	-12.4053
猰	-12.4053
貐	-12.4053
建子之月	-12.4054
諳	-12.4054
延陵季子	-12.4054
安上治民	-12.4054
巇	-12.4055
廡	-12.4055
荅	-12.4055
困獸猶鬭	-12.4055
跱	-12.4055
飼	-12.4055
圯地無舍	-12.4055
王皙同曹操註	-12.4056
玃	-12.4056
邂	-12.4056
逸倫之士	-12.4056
韓非子卷之二	-12.4056
使敵視之為	-12.4056
光謂二爲思中而當夜小人	-12.4056
館穀於敵	-12.4056
塤	-12.4056
此所謂善治	-12.4056
韞	-12.4056
烏號之弓	-12.4056
報招引惡果此	-12.4056
捻	-12.4056
鈍兵挫銳	-12.4056
槨	-12.4057
耜	-12.4057
奏于朝	-12.4057
虓	-12.4057
之日天子親率三公九卿大夫以迎	-12.4057
吒	-12.4057
囑	-12.4057
徊	-12.4057
闉	-12.4057
彎	-12.4057
剸	-12.4057
我於來世得	-12.4057
泫	-12.4057
知遠近之計	-12.4057
八百歲生青	-12.4057
此其分事也	-12.4057
見者人爲之	-12.4057
頊	-12.4058
箋	-12.4059
仰觀俯察	-12.4059
蜴	-12.4059
醬	-12.4059
噐	-12.4059
㳅	-12.4059
薔	-12.4059
敲	-12.4059
髫	-12.4059
𥅠	-12.4059
周穆王	-12.4059
今惟毋在乎	-12.4059
傰	-12.4059
隤	-12.4059
鬼神之有豈可疑哉非惟若書之說爲然	-12.4059
聮	-12.406
禋	-12.406
撿	-12.406
陰家木亦準	-12.406
漻	-12.406
穌	-12.406
晁	-12.406
波濤如山	-12.406
浼	-12.406
稜	-12.406
以私廢公	-12.406
夏后氏之璜	-12.406
义	-12.406
業交則臨終時先見	-12.406
縊	-12.406
考靈曜	-12.406
者則曰唯	-12.406
者能曉此乎	-12.4061
艶	-12.4061
磕	-12.4061
衛公李靖曰	-12.4061
䡖	-12.4061
熠	-12.4061
䪻	-12.4061
傳曰按道藏	-12.4061
百歲而一化	-12.4061
青腰玉女	-12.4061
不能至於其所欲至	-12.4061
荄	-12.4062
嫂	-12.4063
瀨	-12.4063
肋	-12.4063
楛	-12.4063
弦歌鼓舞	-12.4063
大布之衣	-12.4063
豈偶然哉	-12.4063
申叔時	-12.4063
屣	-12.4063
焜	-12.4063
衺	-12.4063
跟	-12.4063
瘕	-12.4063
四分度之一	-12.4063
曹武惠	-12.4063
有扈氏	-12.4063
樂天知命	-12.4063
色聲氣味	-12.4063
人從者莫不見遠者莫不聞著在	-12.4063
千五百三十九歲	-12.4063
椁	-12.4063
荐	-12.4063
酢	-12.4063
曰若此人者	-12.4063
竭股肱之力	-12.4063
相守數年	-12.4064
惡人賊人	-12.4064
渟	-12.4064
造書契	-12.4064
眠	-12.4064
弈	-12.4064
尾閭穴	-12.4064
薑	-12.4064
駡	-12.4064
强取强求	-12.4064
陰以陽為	-12.4064
分吾良卒密有所伏敵	-12.4064
勦	-12.4064
却走馬以糞	-12.4064
檟	-12.4064
沆	-12.4064
渉	-12.4064
跚	-12.4064
儵	-12.4064
憀	-12.4064
方也於易爲	-12.4064
碁	-12.4064
蔏	-12.4064
𠯒	-12.4064
鸇	-12.4066
能終其天年	-12.4066
湫	-12.4066
襌	-12.4066
鎗	-12.4066
揄	-12.4066
湔	-12.4066
朝晏退聽獄治政	-12.4066
次九日舍	-12.4066
𣎅	-12.4066
嚖	-12.4066
宕	-12.4066
攋	-12.4066
故不敢怠倦今	-12.4066
纆	-12.4066
鎸	-12.4066
接天下之政治天下之民	-12.4066
蠡	-12.4067
好侵好奪	-12.4067
朒	-12.4067
櫂	-12.4067
睚	-12.4067
藹	-12.4067
蠋	-12.4067
棼	-12.4067
鈐	-12.4067
方之神女名曰	-12.4067
蓲	-12.4067
躟	-12.4067
九合諸侯一匡天下	-12.4068
伐無罪之國	-12.4068
五嶽四瀆	-12.4068
涒	-12.4068
百八十二度	-12.4068
閫外之事將軍	-12.4068
兼也雖子墨子之所謂兼者於	-12.4068
姪	-12.4068
易牙蒸其首子而進之	-12.4068
無故剪裁	-12.4068
距闉者	-12.4068
㕹	-12.4068
不足以治則用	-12.4068
是夕復夢	-12.4068
歸妹六五	-12.4068
螽	-12.4068
諶	-12.4068
靻	-12.4068
誼	-12.4069
子墨子言曰今天下之	-12.4069
涖	-12.407
其鬼不神	-12.407
以八節之日	-12.407
虔	-12.407
唼	-12.407
致人而不致於人	-12.407
同舟而濟	-12.407
嶇	-12.407
禁外徙	-12.407
封比干之墓	-12.407
狃	-12.407
紵	-12.407
宋曰謂是時	-12.407
日就月將	-12.407
我能施之使復	-12.407
燁	-12.407
王文正公旦	-12.407
𣏌	-12.407
可立而待	-12.4071
去彼取此	-12.4071
象著明莫大乎日月	-12.4071
也公孟子謂子墨子曰	-12.4071
踏	-12.4071
一念起處	-12.4071
損人器物以窮人用	-12.4071
趹	-12.4071
辱人求勝	-12.4071
醎	-12.4071
怠倦者何也曰彼以爲强必	-12.4071
故莫弗以爲	-12.4071
言訖不見	-12.4071
超凡入聖	-12.4071
黈	-12.4071
蝟	-12.4072
剉	-12.4073
採取姦利	-12.4073
四陰四陽	-12.4073
夢見竈	-12.4073
蝎	-12.4073
將奈何哉子墨子言曰	-12.4073
授以道要	-12.4073
有功者必賞	-12.4073
䏶	-12.4073
兩軍相當	-12.4073
剩	-12.4073
垝	-12.4073
慈心於物	-12.4073
捽	-12.4073
斡	-12.4073
浄	-12.4073
矇	-12.4073
碌	-12.4073
虫	-12.4073
軏	-12.4073
瀏	-12.4073
酖	-12.4074
之軍也梅堯臣曰處	-12.4074
三百六旬有六	-12.4074
箠	-12.4074
陰極陽生	-12.4074
三百五十四日	-12.4074
口是心非	-12.4074
坯	-12.4074
扶陽抑陰	-12.4074
瀝	-12.4074
炤炤	-12.4074
茭	-12.4074
五日一候	-12.4074
蒢	-12.4074
西山真氏曰	-12.4074
即太上所謂	-12.4074
四千六百六十五萬六千	-12.4074
躊	-12.4074
鵝	-12.4074
傳遺後世子孫	-12.4074
嚭	-12.4075
你	-12.4075
侖	-12.4075
氣液相生	-12.4075
凡言凡動	-12.4075
大鍾鳴鼓琴瑟竽笙之聲	-12.4075
惴	-12.4075
毳	-12.4075
符十卷	-12.4075
簴	-12.4075
虻	-12.4075
觝	-12.4075
踖	-12.4075
鑣	-12.4075
肱	-12.4076
鈔	-12.4077
存亡繼絶	-12.4077
不亦無術乎	-12.4077
中和莫盛乎五	-12.4077
忼	-12.4077
未始出其宗	-12.4077
八百四十里	-12.4077
彀	-12.4077
須依前行持止於定息爲法而終日靜坐	-12.4077
髠	-12.4077
在地成形為	-12.4077
在天成象為	-12.4077
温厚之氣	-12.4077
能射御之士	-12.4077
萬歩中五災九厄	-12.4077
輗	-12.4077
爲盛多爲極大	-12.4078
制禮作樂	-12.4078
僨	-12.4078
舳	-12.4078
艫	-12.4078
日月居中五星緯外	-12.4078
以軍為家	-12.4078
慷	-12.4078
旂	-12.4078
之日復存之第三十	-12.4078
日為陽精	-12.4078
絮	-12.4078
自下而升	-12.4078
跐	-12.4078
乾卦進火	-12.4078
塔	-12.4078
方宿也其次曰	-12.4078
朼	-12.4078
柔勝彊	-12.4078
老帝君下降	-12.4078
袷	-12.4078
得善人而賞之得暴人而罰之	-12.4079
麫	-12.4079
狁	-12.4079
不從令者斬	-12.4079
貿	-12.4079
迒	-12.4079
鐃	-12.4079
鼙	-12.4079
毬	-12.4079
驁	-12.4079
孛	-12.4081
伽	-12.4081
綦	-12.4081
分陰分陽	-12.4081
叶	-12.4081
忍作殘害	-12.4081
投之無所往	-12.4081
怍	-12.4081
之中而有太	-12.4081
飱	-12.4081
騾	-12.4081
天之愛百姓	-12.4081
彭氏之子	-12.4081
𧋒	-12.4081
訊	-12.4082
𦵏	-12.4082
鎧	-12.4082
開發收閉	-12.4082
陰變為陽	-12.4082
瑋	-12.4082
也〇梅堯臣同杜牧註〇王皙	-12.4082
何以知其兼而	-12.4082
簀	-12.4082
倜	-12.4082
參同契	-12.4082
寃	-12.4082
葉公子高	-12.4082
費無忌	-12.4082
駟馬跙跙	-12.4082
葷	-12.4084
如連珠	-12.4084
渺	-12.4084
矞	-12.4084
旛	-12.4084
踣	-12.4084
阤	-12.4084
賞厚而信	-12.4084
堀	-12.4084
破璧毁圭	-12.4084
伍子奢	-12.4084
壇壇高	-12.4084
尺堂密	-12.4084
服方寸匕日三	-12.4084
發而止將服必	-12.4084
醠	-12.4084
橡	-12.4085
三軍之衆百萬之師	-12.4085
四千九十六	-12.4085
字書無之	-12.4085
飪	-12.4085
藩	-12.4085
聃	-12.4085
棄順効逆	-12.4085
氣是時不可下功也	-12.4085
趙宣孟	-12.4085
退盡本數	-12.4085
垁	-12.4085
真氣隨天度運而在	-12.4085
禽滑釐	-12.4085
蔟	-12.4086
齲	-12.4086
腴	-12.4086
從裏面	-12.4086
魚不可脫	-12.4086
㨿	-12.4086
睒	-12.4086
儃	-12.4086
甘谷水	-12.4086
色自見漸漸升身以入泥丸自	-12.4086
延年益壽	-12.4088
祓	-12.4088
下面便生	-12.4088
亥子丑三	-12.4088
鴨	-12.4088
䚦	-12.4088
必不幾矣	-12.4088
槽	-12.4088
𤤽	-12.4088
膲	-12.4089
也謂是時陰氣	-12.4089
巒	-12.4089
酇	-12.4089
司天考	-12.4089
李筌曰量力	-12.4089
田連成竅	-12.4089
囓	-12.4089
皋	-12.4089
桴	-12.4089
樣	-12.4089
剛強之剛	-12.4089
㒧	-12.4089
纉	-12.4089
除天下之害	-12.409
疚	-12.4091
紋	-12.4091
軺	-12.4091
藺	-12.4091
湏	-12.4091
箑	-12.4091
醢	-12.4092
簾	-12.4092
稟	-12.4092
籃	-12.4092
吐故納新	-12.4092
龢	-12.4092
埆	-12.4092
而成數却在	-12.4092
蛉	-12.4093
神仙矣第	-12.4093
虆	-12.4093
龍虎鶉龜	-12.4093
槍	-12.4093
憃	-12.4093
訬	-12.4093
否音鄙	-12.4095
發五苑	-12.4095
也三爲思終而當夜	-12.4095
苣	-12.4095
五間俱起	-12.4095
俶	-12.4095
道路之迂直	-12.4095
鉿	-12.4095
鎛	-12.4095
則夫好攻伐之君	-12.4096
估	-12.4096
濊	-12.4096
讖	-12.4096
月闕其摶	-12.4096
丹服一刀圭百日仙也	-12.4097
馨	-12.4097
𤑔	-12.4098
倠	-12.4098
僑	-12.4099
乾坤艮巽	-12.4099
催	-12.4099
仲尼不知善賞	-12.4099
四并之則為	-12.4099
惠忠父子	-12.4099
嗷	-12.41
婪	-12.41
堡	-12.41
杌	-12.41
粱	-12.41
專諸曹劌之勇	-12.41
帝以玄纁玉帛聘	-12.41
煒	-12.41
首而復初如中	-12.41
詩不云乎	-12.4102
犁	-12.4102
認恩推過	-12.4103
坱	-12.4103
胾	-12.4103
共成三百六十	-12.4103
湮	-12.4103
蠰	-12.4103
縟	-12.4103
暘	-12.4104
覡	-12.4104
鉉	-12.4104
芴	-12.4104
𦮼	-12.4104
禽子再拜再拜曰敢問	-12.4106
髣髴	-12.4106
察炁君奏事	-12.4106
硥	-12.4106
蟈	-12.4106
司馬景王	-12.4107
裾	-12.4109
蓑	-12.4109
子干甲子	-12.411
龎	-12.4111
牆	-12.4111
秦漢以來	-12.4111
子干丙子	-12.4111
當自作一類看	-12.4111
岑	-12.4113
子干庚子	-12.4113
不厭詐僞	-12.4114
方八天七宿屬	-12.4114
壓良爲賤	-12.4116
子干壬子	-12.4117
閻遏公孫衍	-12.4117
子干戊子	-12.4118
廻	-12.4121
二十九日半	-12.4121
三六一百八	-12.4125
則精散於	-12.4125
變之盡為	-12.4128
通天犀	-12.4131
鋩	-12.4134
搉	-12.4135
參天兩地	-12.4145
灟	-12.4145
坷	-12.4153
居盛位而當晝	-12.4894
公大人骨肉之親無故富貴面目美好者	-12.5581
七爲禍始而當晝君子	-12.6243
釂	-12.7309
虜掠至冨	-12.7317
見侮而不鬭	-12.7317
猋	-12.7319
争干及矛	-12.7325
童麋觸犀	-12.7325
五色並具而多	-12.7329
大王亶父	-12.7331
膎	-12.7331
灖	-12.7332
苽	-12.7334
十里而争利則	-12.7336
處軍當在高	-12.7336
不可以應有白馬	-12.734
後乃克飛	-12.734
唶	-12.7342
瞢瞢之離	-12.7342
南方之美者有	-12.7342
有智焉有不智焉	-12.7342
𡵯	-12.7342
犇	-12.7344
孝悌忠順之道	-12.7344
睥	-12.7344
胤	-12.7344
鵂	-12.7346
戴威滿頭	-12.7346
鰕	-12.7348
慱	-12.7348
䫏	-12.7348
將能而君不御者勝	-12.7348
戈矛徃來	-12.7348
裒	-12.735
藕	-12.735
琪	-12.735
甂	-12.735
逯	-12.735
手足胼胝面目黧黑	-12.7352
寑	-12.7352
掞	-12.7352
夤	-12.7352
煥	-12.7353
莩	-12.7353
桐栢山	-12.7353
汪	-12.7354
躣	-12.7354
當自苦耳	-12.7354
𨂜通之維	-12.7354
之形而實為萬物之	-12.7354
正在兆頭上	-12.7356
枵	-12.7357
𥨸	-12.7357
遘	-12.7357
曊	-12.7357
沱	-12.7359
左社右稷	-12.7359
躑	-12.7359
䋚	-12.7359
樂正子春	-12.7359
門冬或名	-12.7359
薇	-12.7361
藎	-12.7361
白馬爲非馬者	-12.7361
傉	-12.7361
取敵之利者貨	-12.7361
忿悁之心	-12.7361
侗	-12.7361
嘻君之及此言也齊其殆矣乎	-12.7361
瑱	-12.7361
隨侯之珠	-12.7363
蹶猶挫也	-12.7363
四爲外佗而當夜	-12.7363
爲魯司寇	-12.7363
稹	-12.7363
趙人公孫龍著	-12.7363
縢	-12.7363
墯	-12.7363
左史倚相謂	-12.7363
晃	-12.7365
之利器不可以示人	-12.7365
則損五分之	-12.7365
宰折睢	-12.7365
銋	-12.7365
廼	-12.7367
自東北方曰	-12.7367
㩌	-12.7367
巓	-12.7367
㸑	-12.7367
一李昌齡傳鄭清之賛	-12.7367
倘	-12.7367
泝	-12.7367
推多取少	-12.7367
湡	-12.7367
衣絳單衣	-12.7367
収	-12.7369
陰乾末服	-12.7369
懊	-12.7369
入聖超凡	-12.7369
舉軍而争利	-12.7369
楷	-12.7369
渾然太極之	-12.7369
隂中陽半	-12.7369
哿	-12.7369
琬	-12.7369
上謁上皇	-12.7369
恐溉我也	-12.7369
蒻	-12.7369
蛷	-12.7369
𥅡	-12.7369
硝	-12.7371
以移風易俗	-12.7371
霏	-12.7371
真隂真陽	-12.7371
不貴難得之貨	-12.7371
出見富貴之樂	-12.7371
姦險狠愎	-12.7371
以佚待勞	-12.7371
儇	-12.7371
即吉山中見	-12.7371
士步曰卒	-12.7371
郈昭伯	-12.7371
躐	-12.7373
皈	-12.7373
諸惡莫作衆善奉行	-12.7373
琳	-12.7373
小敵之堅大敵之擒也	-12.7373
踹	-12.7373
中咽之三五而止	-12.7373
者視此得無愧乎	-12.7373
河間王孝恭	-12.7373
媕婀脂韋	-12.7373
攴	-12.7373
畀	-12.7373
綫	-12.7373
銀亦可餌	-12.7373
摋	-12.7373
杝	-12.7373
白舌于于	-12.7373
紬	-12.7373
鷫	-12.7373
鼦	-12.7373
鬛	-12.7375
𢈔	-12.7375
芙	-12.7375
𡖖	-12.7375
分盡故曰有四十六日而立	-12.7375
㒵	-12.7375
稸	-12.7375
荆王弟在秦秦不出也	-12.7375
讌	-12.7375
夷關折符	-12.7375
未戰而廟筭	-12.7375
深思遠慮	-12.7375
縹	-12.7375
并之皆六十四	-12.7375
熬	-12.7376
五以小人而居盛位	-12.7377
騕	-12.7377
長洲之林	-12.7377
千枝萬葉	-12.7377
懵	-12.7377
禍福無門唯人自召	-12.7377
丈人播船	-12.7377
索國之富强不可得也	-12.7377
蜀將姜維	-12.7377
衆之耳目之請	-12.7377
逈	-12.7377
鏃	-12.7377
密于腥臊	-12.7377
攉	-12.7377
沈耳于閨	-12.7377
翌	-12.7377
顒	-12.7377
鮫	-12.7377
國之所以存者	-12.7379
蹯	-12.7379
聳	-12.7379
炯	-12.7379
騑	-12.7379
佇	-12.7379
匪降自天	-12.7379
歴	-12.7379
敗人苗稼	-12.7379
塗有所不由	-12.7379
蕎	-12.7379
鄠	-12.7379
鼽	-12.7379
歌南風之詩	-12.738
琮	-12.7381
要其會歸	-12.7381
革車三百乘	-12.7381
妾不衣帛	-12.7381
覲	-12.7381
賙	-12.7381
王文康公	-12.7381
可道非常道	-12.7381
朝于玄堂	-12.7381
骼	-12.7381
以手摩送之	-12.7381
利之中取大	-12.7381
害之中取小也	-12.7381
蹛	-12.7381
傅謂之得天	-12.7382
禧	-12.7382
家籍于官	-12.7382
𢹂	-12.7382
帽	-12.7382
利貞誠之復	-12.7382
蜋	-12.7382
葩	-12.7382
日移其志以速厥	-12.7382
溲	-12.7382
蜄	-12.7382
東風解凍	-12.7383
王曰得位當晝善於	-12.7383
百將一心三軍同力	-12.7383
豈可謂有命哉	-12.7383
曙	-12.7383
罔直蒙酋	-12.7383
胃爲太倉	-12.7383
蓂	-12.7383
㷭	-12.7383
䁲	-12.7383
其味鹹其臭腐	-12.7383
其祀井祭先腎	-12.7383
其蟲介其音羽	-12.7383
冬之月招摇指	-12.7383
晋公子重耳出亡過	-12.7383
松燧火北宫御女黑色衣黑采擊磬石	-12.7383
瀍	-12.7383
爲其難爲也然後爲	-12.7383
法令滋彰盜賊多有	-12.7384
一物各具一太極	-12.7384
厚作歛於百姓	-12.7384
斃於雷斧	-12.7384
䟾	-12.7384
蜥	-12.7384
嗅	-12.7384
地形者兵之助	-12.7384
將之至任不可不察也	-12.7384
念起于中	-12.7384
視之不見其形聽之不聞其聲	-12.7384
爲條暢而當	-12.7384
禓	-12.7384
人情之常理	-12.7384
方蒼龍之宿	-12.7384
狴	-12.7384
緂	-12.7384
陽城胥渠	-12.7384
非枉殺乎	-12.7384
咫	-12.7385
左个以出	-12.7386
光謂六爲上禄爲盛多爲極大而當	-12.7386
天統乎體	-12.7386
流於動而無静	-12.7386
甚矣世之好譎怪也	-12.7386
懶	-12.7386
不忘于欲利	-12.7386
直指襄平	-12.7386
䃺	-12.7386
之自國其穴爲	-12.7386
則助之胥車	-12.7386
四通八達	-12.7386
忖	-12.7386
欲流之於海	-12.7386
瓌	-12.7386
盲征否	-12.7386
軍中有則其罪射	-12.7386
過生於上罪死於下	-12.7386
瞀	-12.7388
孌	-12.7388
也豈爲小哉	-12.7388
喝	-12.7388
陸佃解	-12.7388
㥄	-12.7388
明賞必罰	-12.7388
剛太柔少剛少柔	-12.7388
妳	-12.7388
爲友留爲	-12.7388
七百歲生赤	-12.7388
尪	-12.7388
晰	-12.7388
朂	-12.7388
比頻寐切	-12.7388
潯	-12.7388
畼	-12.7388
難成而易敗	-12.7388
飢寒凍餒	-12.7388
𧩻	-12.7388
悠	-12.739
先忤而後合	-12.739
簷	-12.739
皇甫嵩	-12.739
丹朱商均	-12.739
千里饋糧則	-12.739
程叔子曰	-12.739
事無巨細皆	-12.739
儛	-12.739
為越所滅	-12.739
彧	-12.739
琱	-12.739
仵	-12.739
其味辛其臭腥	-12.739
其祀門祭先肝	-12.739
舉賢良方正	-12.739
幽谷遷于喬木	-12.739
昫	-12.739
紇	-12.739
履霜堅氷至	-12.739
愚夫惷婦皆	-12.739
王公大人骨肉之親	-12.739
絙	-12.739
自古以及今生民以來者亦	-12.739
蹍	-12.739
鴟夷子皮	-12.739
㘈	-12.739
庸主之所易	-12.739
篅	-12.739
者芉䱉不加者去之其爲	-12.739
齅	-12.739
醻	-12.739
釀	-12.7392
他人處此能如是	-12.7392
弱衆不暴寡	-12.7392
炷	-12.7392
六萬四千	-12.7392
曬	-12.7392
胴	-12.7392
帖	-12.7392
撾	-12.7392
柙	-12.7392
蛺	-12.7392
行無人之地七百餘里	-12.7392
九變之利者雖知地形不能得地之利矣	-12.7392
徘	-12.7392
曰廵乘六甲與斗相逢	-12.7392
湄	-12.7392
瓏	-12.7392
齊將卑是求夫何懼而不獲	-12.7392
伯父叔父	-12.7392
擇人而任勢	-12.7392
旋踵破敗	-12.7392
爲下禄爲外它	-12.7392
瘣	-12.7392
矍	-12.7392
蜯	-12.7392
豈欺我哉	-12.7392
鎌	-12.7392
霸王之名可成	-12.7392
𤵜	-12.7392
㤰	-12.7392
入于酋冥	-12.7392
唭	-12.7392
山林澤谷之利	-12.7392
盬	-12.7392
過其枯城	-12.7392
父母妻子同産	-12.7394
塡	-12.7394
緻	-12.7394
捫	-12.7394
乾一兌二	-12.7394
服蒼玉建青旗	-12.7394
桄	-12.7394
中立表太	-12.7394
其祀户祭先脾	-12.7394
嶼	-12.7394
恫	-12.7394
無父曰孤	-12.7394
𡨋	-12.7394
内治官府外	-12.7394
惷	-12.7394
抎	-12.7394
橐籥子曰天	-12.7394
異路而同歸	-12.7394
纒	-12.7394
翊聖真君	-12.7394
舘	-12.7394
蚉	-12.7394
不可極深不可測	-12.7394
人也丘弗如也	-12.7394
作威作福	-12.7394
蘄	-12.7394
諏	-12.7396
畦	-12.7396
褥	-12.7396
天子衣青衣乘蒼龍	-12.7396
服八風水爨萁燧火	-12.7396
棖	-12.7396
食麥與羊	-12.7396
簡兵練卒	-12.7396
㓻	-12.7396
娣	-12.7396
慥	-12.7396
揳	-12.7396
朝成湯之廟	-12.7396
泏	-12.7396
爲疾瘀爲耗爲剥落	-12.7396
與陽俱開	-12.7396
利而中中鬼之利而下中人之利故譽之	-12.7396
呬	-12.7396
唈	-12.7396
明腹睒天	-12.7396
春木夏火秋金冬	-12.7396
歾	-12.7396
準繩䂓矩	-12.7396
無他故異物	-12.7396
踳	-12.7396
簣	-12.7398
一般人專要就	-12.7398
曹説是也〇	-12.7398
鏗	-12.7398
窅	-12.7398
東宫御女青色衣青采鼓琴瑟	-12.7398
秋之月招摇指	-12.7398
醋	-12.7398
柘燧火西宫御女白色衣白采撞白鍾	-12.7398
錐刀之末	-12.7398
鞈	-12.7398
信足以一異	-12.7398
圍師必闕	-12.7398
庚子受制	-12.7398
澣	-12.7398
瀉	-12.7398
之氓社稷也而	-12.7398
伋	-12.7398
司馬子反渴而求飲	-12.7398
圄	-12.7398
在天成象在地成形	-12.7398
宫商角徵羽也	-12.7398
形圓者出入有道齊整也	-12.7398
爾彼其視	-12.7398
者行此節則	-12.7398
車軔俟	-12.7398
鰓	-12.7398
絶念忘情	-12.74
耑	-12.74
吞舟之魚	-12.74
曰海大魚	-12.74
旦晝暮夜	-12.74
閭大搜客	-12.74
抜	-12.74
斷罰刑殺當罪	-12.74
絶嗜禁欲所以除累	-12.74
聖王不識也君子不道也治世所無有也	-12.74
大衍之數五十其用四十有九	-12.74
天子衣白衣乘白駱服白玉建白旗	-12.74
失位當夜乖於其宜	-12.74
甽	-12.74
者何故之以也曰唯以其能一同	-12.74
話	-12.74
軔而振切	-12.74
郛	-12.74
則幾於道矣	-12.74
日望月則月食月掩日則日食	-12.74
清靜自居味道爲樂	-12.74
芃	-12.74
表商容之閭	-12.74
㤥	-12.74
咡	-12.74
型	-12.74
外象外數	-12.74
子反辭以心	-12.74
席不暇温	-12.74
櫪	-12.74
狟	-12.74
甀	-12.74
睄	-12.74
軍雖可擊	-12.74
𨄍	-12.74
衾	-12.7402
設官分職	-12.7402
甜	-12.7402
用所勝也一	-12.7402
去殘除賊	-12.7402
堯爲匹夫不能	-12.7402
烜	-12.7402
射時亦切	-12.7402
拊樂如此多也是故子墨子曰爲樂非也	-12.7402
春之月招摇指	-12.7402
無柰之何	-12.7402
譖	-12.7402
九百歲生白	-12.7402
力上施設	-12.7402
受寵若驚	-12.7402
圂	-12.7402
子爲施不祥言者也	-12.7402
彪	-12.7402
擊其空虚襲其懈怠	-12.7402
日者支干	-12.7402
有罪而益信	-12.7402
朔旦冬至無餘分又千五百三十九歲	-12.7402
王天下正諸侯者	-12.7402
王皙同梅堯臣註	-12.7402
甲子朔旦冬至無餘分	-12.7402
轢	-12.7402
部員外郎	-12.7402
駬	-12.7402
𣆺	-12.7402
濬	-12.7402
癭	-12.7404
氛	-12.7404
眚	-12.7404
動極復静	-12.7404
琦	-12.7404
二居下體之中	-12.7404
帕	-12.7404
常後而不先	-12.7404
秉國之鈞	-12.7404
則禁令不行	-12.7404
先天方圓二圖	-12.7404
天三地四天	-12.7404
妬而好内	-12.7404
愬	-12.7404
槖	-12.7404
爲震霆所擊	-12.7404
窈窈㝠㝠	-12.7404
銚	-12.7404
闓	-12.7404
不可不節古之民未知爲	-12.7404
信有定分雖	-12.7404
北極出地上三十六度	-12.7404
居高陽以待敵	-12.7404
淳于髠	-12.7404
鷗	-12.7404
不替不爽	-12.7404
中所以藏了	-12.7404
八極八方之極	-12.7404
十息止呼其神曰	-12.7404
撣	-12.7404
翎	-12.7404
臊	-12.7404
載馳載驅周爰	-12.7404
郄始窮初	-12.7404
是故子墨子曰今天下之君子中實將欲	-12.7405
窬	-12.7405
祅	-12.7405
崛	-12.7405
羊豢犬	-12.7406
芊	-12.7406
兖	-12.7406
刄	-12.7406
父子兄弟夫婦	-12.7406
家火亦準	-12.7406
魄死明生	-12.7406
蛣	-12.7406
麃	-12.7406
急急如高上神霄	-12.7406
築室反耕	-12.7406
土之氣御于	-12.7406
小蠭營營	-12.7406
撙	-12.7406
此固以失霸王之道	-12.7406
養煉如前乃可坎卦時起火如前	-12.7406
人言市有虎王信之乎	-12.7406
叠	-12.7406
嘗有入此者乎對曰無有	-12.7406
如是一𩔖名	-12.7406
如膠柱鼓瑟	-12.7406
子墨子謂魯陽文君曰	-12.7406
數披其木毋使	-12.7406
腋	-12.7406
虧四十八銖存者其應乎	-12.7406
蹵	-12.7406
尚爾況餘人乎	-12.7407
七李昌齡傳鄭清之賛	-12.7408
卨	-12.7408
弘恭石顯	-12.7408
守則不足攻則有餘	-12.7408
襦	-12.7408
三爲思上而當晝君子	-12.7408
塞其闕示	-12.7408
矟	-12.7408
九八七六	-12.7408
剔孕婦	-12.7408
罏	-12.7408
視履考祥	-12.7408
哮	-12.7408
慴	-12.7408
潔爲粢盛酒醴以	-12.7408
緍	-12.7408
䖍	-12.7408
也巫馬子謂子墨子	-12.7408
分陰分陽兩儀立焉	-12.7408
吟詠及哭	-12.7408
地初昏之時	-12.7408
平陽君之目	-12.7408
急急如高上	-12.7408
抱鼓爲小	-12.7408
百五十五萬五千二百	-12.7408
緺	-12.7408
霸王之名不成	-12.7408
鈇	-12.7408
廋	-12.7409
庖犧氏	-12.7409
五李昌齡傳鄭清之賛	-12.7409
瑘	-12.7409
媸	-12.7409
逕	-12.7409
抉	-12.7409
曾不血刃	-12.7409
福善禍淫	-12.7409
保城備險	-12.7409
薊	-12.7409
世間萬事轉頭即空	-12.741
凡人居山林及暫入	-12.741
咆	-12.741
慠	-12.741
榘	-12.741
𠔃	-12.741
今惟無以厚葬久喪者爲政	-12.741
珉	-12.741
礎	-12.741
羃	-12.741
見侮不辱	-12.741
詫	-12.741
雖昔也三代	-12.741
雞藎穀	-12.741
驊	-12.741
鵙	-12.741
芩	-12.7411
䕃	-12.7411
布德施惠	-12.7411
伏犧神農	-12.7411
狀元及第	-12.7411
若以爲不然昔	-12.7411
拄	-12.7411
陊	-12.7411
徠	-12.7411
非有非指者物莫非	-12.7411
九百四十分日之	-12.7411
内懷替爽	-12.7411
厚措歛乎萬民以爲	-12.7411
噴	-12.7411
帔	-12.7411
旌旗亂也示敵若亂以金鼓齊之	-12.7411
歸師勿遏	-12.7411
澶	-12.7411
無常儀的	-12.7411
熺	-12.7411
瓾	-12.7411
與民期於下	-12.7411
蒔	-12.7411
蕕	-12.7411
言日月而必曰	-12.7411
蹟	-12.7411
逜下蔽上	-12.7411
闥	-12.7411
雞鳴而起	-12.7411
之所是必亦是之	-12.7412
䖟	-12.7413
殍	-12.7413
上謁道君	-12.7413
乾陽坤陰	-12.7413
䍧羊之裘韋以帶	-12.7413
爲仁義求爲上士	-12.7413
弔死問疾	-12.7413
忽聞空中有聲曰	-12.7413
陔	-12.7413
之所非必亦非之去而不善言學	-12.7413
溽	-12.7413
詖	-12.7413
陽來則生陽去則死	-12.7413
窶	-12.7413
刓	-12.7413
尊君卑臣	-12.7413
意者可邪其說又不可矣	-12.7413
明足以照下	-12.7413
衛公子開方	-12.7413
删	-12.7413
半盈半縮	-12.7413
哾	-12.7413
孝子之爲親度也	-12.7413
廞	-12.7413
捭	-12.7413
掾	-12.7413
者衆而仁者寡若皆法其	-12.7413
誋	-12.7413
鐡	-12.7413
飂	-12.7413
鶴山要義	-12.7413
蜾	-12.7415
埳	-12.7415
屈産之乘	-12.7415
珧	-12.7415
鑿龍門闢伊闕	-12.7415
其可不戒賛曰	-12.7415
尉屠睢	-12.7415
碓	-12.7415
隋侯之珠	-12.7415
偓	-12.7415
自寅至戌	-12.7415
乾道成男	-12.7415
唯能壹同	-12.7415
六百歲生玄	-12.7415
外障距内比周	-12.7415
子犯曰民未知	-12.7415
孟嘗芒卯	-12.7415
枲	-12.7415
簠	-12.7415
蛭	-12.7415
過而不聽於忠臣	-12.7415
隟	-12.7415
凰	-12.7416
枳	-12.7417
杜正獻衍	-12.7417
㩖	-12.7417
煮	-12.7417
咋	-12.7417
體魄降于地	-12.7417
甲乙寅卯	-12.7417
三李昌齡傳鄭清之賛	-12.7417
誂	-12.7417
內	-12.7417
韋編三絶	-12.7417
魘	-12.7417
昃	-12.7417
禁止大國之攻小國也	-12.7417
軍門為和門	-12.7417
𣵡	-12.7417
㑺	-12.7417
䂦	-12.7417
叁	-12.7417
嘉熈戊戌	-12.7417
大夫之相亂家諸侯之相攻國者	-12.7417
娀	-12.7417
拶	-12.7417
眦	-12.7417
繢	-12.7417
罥	-12.7417
騵	-12.7417
焚林而獵	-12.7419
一奇一偶	-12.7419
原始見終	-12.7419
夏之月招摇指	-12.7419
六李昌齡傳鄭清之賛	-12.7419
嶲	-12.7419
所以皆聞兼而非	-12.7419
蹀	-12.7419
此用衆之法	-12.7419
視之不見聽之不聞	-12.7419
礱	-12.7419
侫	-12.7419
忙	-12.7419
上棟下宇	-12.7419
卦時依法起火鍊	-12.7419
䗓	-12.7419
一會三十運	-12.7419
五億五千九百八十七萬二千	-12.7419
塼	-12.7419
惟曰余有所不	-12.7419
皬	-12.7419
祉	-12.7419
緰	-12.7419
門鬼吏名	-12.7419
老師費財	-12.7421
眹	-12.7421
懋	-12.7421
絪	-12.7421
潄	-12.7421
𦤺	-12.7421
羗	-12.7421
葛覃之覃	-12.7421
〇梅堯臣同曹操註〇	-12.7421
九爲禍終而當晝君子	-12.7421
君子之道闇然而日	-12.7421
嬌	-12.7421
膻	-12.7421
貛	-12.7421
上詣天曹言人罪過	-12.7421
司録六丁玉女削去某甲死籍	-12.7421
幨	-12.7421
槎	-12.7421
泌	-12.7421
㹎	-12.7421
巛	-12.7421
笱	-12.7421
𤠔	-12.7421
𥧲	-12.7421
店	-12.7423
埤	-12.7423
四爲條暢而當晝君子	-12.7423
當夜無君之德	-12.7423
臿	-12.7423
〇西山蔡氏	-12.7423
亟肄以疲之多方以誤之	-12.7423
於是乎始病吴	-12.7423
貞於未而右行	-12.7423
𦕅	-12.7423
熨	-12.7423
燻	-12.7423
聖人以治天下爲事者	-12.7423
一唱一和	-12.7423
卦時入室依前行持	-12.7423
奭	-12.7423
嫭	-12.7423
展退十年降爲第	-12.7423
杘	-12.7423
猘	-12.7423
蟪	-12.7423
五城十二樓	-12.7425
乾坤為大父母	-12.7425
懐	-12.7425
有義則治無義則亂	-12.7425
委軍而争利	-12.7425
褓	-12.7425
襁	-12.7425
不彰人短	-12.7425
偏憎偏愛	-12.7425
志厲青雲	-12.7425
抱朴子内篇卷之二	-12.7425
施與後悔	-12.7425
民之所惡也臣請當之	-12.7425
璿	-12.7425
者也上得且罰之衆聞則非之是以禍	-12.7425
興雲致雨	-12.7425
頥	-12.7425
一運十二世一	-12.7425
丰	-12.7425
全性保眞	-12.7425
子服厲伯	-12.7425
蔡九峰曰	-12.7425
釋心爲性	-12.7425
玲	-12.7427
梏	-12.7427
熛	-12.7427
駻	-12.7427
〇王皙同梅堯臣註〇張預曰	-12.7427
因敵而制勝	-12.7427
椅	-12.7427
鎋	-12.7427
鰥寡孤獨	-12.7427
化坐自端	-12.7427
子之所立也而	-12.7427
濩	-12.7427
自呪呪他	-12.7427
茠	-12.7427
虵伏于泥	-12.7427
離内遠遊	-12.7427
者必以告若見惡賊	-12.7428
絰	-12.7428
求興天下之利除天下之害當	-12.7428
儠	-12.7429
善男子善女人	-12.7429
䙝	-12.7429
也意亦使法其言用其謀	-12.7429
仁也義也孝子之事	-12.7429
有游於子墨子之門者	-12.7429
王曰六居盛滿而失位當夜	-12.7429
訢	-12.7429
迷腹達目	-12.7429
天君下降立	-12.7429
牝貞常慈	-12.7429
舳艫調安	-12.7429
螚	-12.7429
駤	-12.7429
𢆶	-12.7429
反為我間也	-12.7431
心境自除	-12.7431
呿	-12.7431
盥	-12.7431
邵伯温	-12.7431
靨	-12.7431
縉	-12.7431
恙	-12.7431
陽進陰退	-12.7431
交姤龍虎	-12.7433
慳	-12.7433
汔	-12.7433
〇梅堯臣同陳皥註〇	-12.7433
櫝	-12.7433
爟	-12.7433
獬	-12.7433
者猶以爲不足不知	-12.7433
莫三人而迷	-12.7433
蔶	-12.7433
諂上希㫖	-12.7433
反天之意謂之不善	-12.7434
一生二二生四四	-12.7435
幸灾樂禍	-12.7435
余從祖仙公	-12.7435
首準一卦	-12.7435
匙	-12.7435
爼	-12.7435
不臣天子不友諸侯	-12.7435
世主必從而禮之	-12.7435
子房用之嘗	-12.7435
子房用之嘗勸高帝	-12.7435
所生上十六卦	-12.7435
是以不憚舉其	-12.7435
氣沮而志奪	-12.7435
汗脚韈	-12.7435
耕作而食之掘井而飲之	-12.7435
聴	-12.7435
蛄	-12.7435
蛩蛩駏驉	-12.7435
愜	-12.7436
逖	-12.7436
鏹	-12.7436
捔	-12.7436
賫	-12.7436
一闢一翕	-12.7437
伯州犁	-12.7437
負他貨財願他身死	-12.7437
匹夫徒步之士	-12.7437
爲而不已操而不擇	-12.7437
罹	-12.7437
詁	-12.7437
姑好伐人	-12.7437
此所謂便其習而義其俗者也	-12.7437
俿	-12.7438
臛	-12.7438
離東坎西	-12.7438
蘋	-12.7438
兼天上地下	-12.7438
恐嚇於他	-12.7438
漓	-12.7438
王子於期爲	-12.7438
甓	-12.7438
骨纍其肉	-12.7438
得次已而爲政有天	-12.7439
今天下之王公大人士君子中實將欲	-12.744
設變致權所以解結	-12.744
旋踵及禍	-12.744
蕳	-12.744
今從小宋本小宋本	-12.744
羮	-12.744
之極遇禍之窮	-12.744
去地可六丈大而	-12.744
大達無畛	-12.744
曆冬至日在斗	-12.744
此足以喪天下又	-12.744
論必蓋世	-12.744
柳七星張	-12.7442
髦	-12.7444
吉莫吉於知足	-12.7444
嘰	-12.7444
民之爲淫暴㓂	-12.7444
盗賊以兵刃毒藥水火退無罪人乎道路	-12.7444
鑰	-12.7446
暱	-12.7446
何欲何惡	-12.7446
免於相雖嗜魚	-12.7446
將以量度天下之	-12.7446
淵潢洋	-12.7446
矞矞皇皇	-12.7446
袃	-12.7446
𨲠	-12.7448
帙	-12.7448
天之爲政於天子	-12.7448
有㡬人耶	-12.7448
岷	-12.7449
仔	-12.745
屎	-12.745
翾	-12.745
施式豉切	-12.745
圻	-12.745
焚其隊仗	-12.745
養成自性	-12.745
夫人之常情	-12.7452
櫃	-12.7452
竭力從事未得次已而爲政有	-12.7452
者不知其伐吾	-12.7452
破人婚姻	-12.7454
氓	-12.7454
之說而告之哉	-12.7458
在紫微者	-12.7458
夫誰獨舉其	-12.7458
丹經一卷	-12.746
撦	-12.746
芋	-12.746
穸	-12.746
人求之不移日而得之	-12.7461
欲義而惡不義	-12.7462
范且虞慶	-12.7462
讚	-12.7463
液中有真氣	-12.7464
𠹑呱啞咋	-12.7464
乘威迫脅	-12.7467
煄	-12.7467
不知此爲不仁不義也	-12.7469
桃李瓜薑者	-12.7469
纗	-12.7471
蕡	-12.7477
傂	-12.7483
䀹	-12.7487
砋	-12.7487
因是而知之故	-12.7491
張預曰因是反間知彼	-12.7494
鄉間内間	-12.75
七爲消爲敗損	-13.1915
惶懼惶懼頓首頓首	-13.2264
胥僮長魚矯	-13.2286
兵甲戰具取用國中糧食因敵也	-13.2289
攺竄春州	-13.2289
令工施鈎梯而	-13.2292
君明而嚴則羣臣忠	-13.2292
設而不犯犯而必誅	-13.2292
叨	-13.2295
菼	-13.2295
閶	-13.2298
講亦悔不講亦悔王	-13.2298
㢘	-13.2301
趙紹韓沓	-13.2304
𣍘	-13.2304
侮而終不敢鬭	-13.2308
曹操李筌並曰	-13.2311
不滅謂之白而爲青所染	-13.2311
也謂之青而白猶	-13.2311
力牧太山稽	-13.2311
惟無爲可以規之	-13.2311
臂膊脛如	-13.2311
鶤鷄於姑餘	-13.2311
䐜	-13.2314
寅功曹為九	-13.2314
得利焉猶謂之非行	-13.2314
逺渉鯨波	-13.2314
䩜	-13.2317
師者貪財皆貴賣	-13.2317
正陽眞人鍾離權雲房	-13.2317
用亨于王前行	-13.2317
申傳送為九	-13.2317
禨	-13.2317
以城爲外謀者	-13.232
决水放火以害居民	-13.232
請有寑之丘	-13.232
𧩆	-13.232
隼	-13.2323
佷	-13.2323
兩虎相牙知	-13.2323
其城可拔其國可隳	-13.2323
多田不婁費	-13.2323
有一箇恁地道理	-13.2323
近水迎敵恐	-13.2323
非人皆敬之能如是乎	-13.2323
𩉇	-13.2323
子墨子曰今天下之王公大人士君子	-13.2324
實將欲求興天下之利除天下之害	-13.2324
人之相愛相利而不欲人之相惡相賊也	-13.2326
王國圍陳倉	-13.2326
琛	-13.2326
蚘	-13.2326
𧨜	-13.233
螳	-13.233
白得堅其舉也二	-13.233
人曰是何也對曰書言之固然	-13.233
天權神曲五音術兵逸	-13.233
於石一也堅白二也而在	-13.233
晻	-13.233
皰	-13.233
紫雲之中華蓋之下住兆見之言曰	-13.233
若祕於地若邃於天	-13.233
馬與白復名白馬	-13.233
子丹者吾也吾	-13.2333
堅得白其舉也二	-13.2333
仲尼異楚人於所謂人	-13.2333
兼而愛之兼而利之也	-13.2333
和丘曰荒土	-13.2333
熒𤕠狧狧	-13.2333
衣五色珠衣冠九德之冠	-13.2333
過喪錫九矢	-13.2333
剌為謁曰昨	-13.2336
彈琴詠詩	-13.2336
𥬇	-13.2336
道畢此矣第	-13.2336
兼而有之兼而食之	-13.2336
大爵集于宫庸	-13.2336
摇消掉捎仁義禮樂	-13.2336
有知焉有不知焉	-13.2336
某里某子家食口	-13.2336
消亡結轍以趨之而猶恐其弗及也悲夫	-13.2336
薆	-13.2336
頃之陂可以灌四	-13.2336
𢶊	-13.2336
𥿉	-13.2336
令民與上同意	-13.2339
兵臨晋而渡於夏陽	-13.2339
曾孫小兆某甲好道願得長生	-13.2339
者爲陽自上而下四萬二千里乃曰陽位	-13.2339
貁	-13.2339
醵	-13.2339
姽	-13.2339
七千里三氣爲一節一節四十五日	-13.2339
七雖過滿而得位當晝	-13.2339
何種也對曰此車軛也	-13.2339
共二萬一千里二節爲一時一時九十日	-13.2339
去殷而遷于周也	-13.2339
壁魚三蝕神仙字	-13.2339
抱朴子内篇卷之五	-13.2339
櫚	-13.2339
馮夷大丙之御	-13.2339
粃	-13.2342
漾	-13.2342
袁紹相持官渡	-13.2342
齊王無以應尹文曰今有人	-13.2342
曰六居過滿失位當夜	-13.2342
亦如前四十五日立	-13.2342
不田而穀毅于揀禄	-13.2342
也七爲禍始而當晝	-13.2342
亦只是這箇圈子	-13.2342
卜陽潘鴻	-13.2342
均難以挑戰戰	-13.2342
毅于棟柱	-13.2342
洼	-13.2342
烱	-13.2342
用也故言多方殊類異故則不可偏觀也	-13.2342
萬物統體一太極	-13.2342
衍於淫荒之陂	-13.2342
𩃎	-13.2342
遠近險易廣狹死生也	-13.2345
抱朴子内篇卷之一	-13.2345
死焉不得士人盡力諸家	-13.2345
黼	-13.2345
陳以五行戰以五音	-13.2345
蜻	-13.2345
不能正其身如正人何	-13.2345
怯也入吾境	-13.2345
窈可以明可以包裹天地可以應待無方	-13.2345
謂巧能成事者	-13.2345
錄	-13.2345
不燒香睡起晚	-13.2345
斧刃蛾蛾	-13.2345
是夜風雨暴至前設營所水深丈餘將	-13.2345
是黑牛也而白	-13.2345
淌	-13.2345
潢洋終不得食	-13.2345
畫象成形孚無成	-13.2345
罻	-13.2345
耳目清聽視達	-13.2345
蒙柴求兕	-13.2345
𦭼	-13.2345
之百姓言曰聞善而不善	-13.2346
連挺長斧長椎	-13.2348
閨門兩扇令	-13.2348
穰苴斬莊賈	-13.2348
糟丘酒池	-13.2348
虋	-13.2348
裘而雜不若狐裘	-13.2348
不宜熒且𡛖	-13.2348
人自大書版著之其署	-13.2348
通前計八萬四千里以到	-13.2348
一死之後便當墮入	-13.2348
上與下争爲善	-13.2348
在紫房宫中華蓋之下	-13.2348
太乙禹餘粮	-13.2348
寅月起數未甞改也秦	-13.2348
曰若之何而善於予之事	-13.2348
有象之後陽分陰也	-13.2348
柑	-13.2348
無極之前陰含陽也	-13.2348
爲瑞氣祥煙	-13.2348
環天下自立以爲王事成功立無大後患	-13.2348
穆穆肅肅	-13.2348
自坤反姤是無極之前	-13.2348
葴	-13.2348
衝衝兒遇不	-13.2348
趄	-13.2348
逜	-13.2348
金玉之氣凝於空	-13.2348
銶	-13.2348
渇	-13.2351
百二十種自有圖也	-13.2351
割還庶㡬	-13.2352
跗	-13.2352
千仞之山者勢也	-13.2352
其於五音無所比	-13.2352
𦒿	-13.2352
佪	-13.2352
致數輿無輿也	-13.2352
事上帝聿懷多福	-13.2352
夫鉗且大丙	-13.2352
獸四面陳之世謂	-13.2352
詔褒賞旌表門閭	-13.2352
詩云惟此文王小心翼翼昭	-13.2352
問政於師曠曰太師	-13.2352
密網離于淵不利于鱗	-13.2352
曰有白馬不可謂無馬	-13.2352
枻	-13.2352
移就崇岡	-13.2352
胷腹充而嗜慾省	-13.2352
舜無置錐之地	-13.2352
邊一百八十日為十八宫	-13.2352
調以五音正以六律	-13.2355
與張先隣居	-13.2355
何氏同梅堯臣註	-13.2355
剬	-13.2355
先教而後師之也先教而後師之	-13.2355
秃髮傉檀	-13.2355
曰元亨誠之通	-13.2355
之尋常而不塞布之天下而不窕	-13.2355
倦於聽治息於	-13.2355
優波伽吒	-13.2355
八家為鄰一家從軍七家奉之	-13.2355
其精金其味辛其名白十	-13.2355
則貧耗多逢憂患	-13.2355
功不待時若衣裘	-13.2355
嬗	-13.2355
得之將終方以示	-13.2355
從之遂破吴軍	-13.2355
必其行也其言之忻	-13.2355
悢	-13.2355
是也愛人利人以得福者	-13.2355
曰君必惠民而已矣景公	-13.2355
水上亦當處其高	-13.2355
筭故未戰而廟謀	-13.2355
見他才能可稱而抑之	-13.2355
豨毅其牙	-13.2355
赴谿而掇金	-13.2355
金榦玉楨	-13.2355
鞏	-13.2355
食我行三十里擊之必	-13.2355
養二人主炊家子一人主	-13.2355
黑牛而以布裹其角	-13.2355
𠏄	-13.2355
說而太息左右	-13.2358
咺	-13.2358
旆	-13.2358
爲耗而當夜故有是象上九	-13.2358
者爲隂自下而上四萬二千里乃曰隂位	-13.2358
卭	-13.2358
嚾	-13.2358
曰使天地三年而成一葉則	-13.2358
纘	-13.2358
千鍾百觚	-13.2358
為將智勇等而兵利鈍均也若	-13.2358
白起為上將軍	-13.2358
見他榮貴願他流貶	-13.2358
䑕	-13.2358
晏子與崔杼盟臨死地	-13.2358
沴	-13.2358
礛諸治玉之石詩云他山之石	-13.2358
鐏	-13.2358
以小善爲無益而	-13.2358
卒慎無使顧	-13.2358
墨子言曰古者王公大人爲政於國家者	-13.2358
形燥則地不生火	-13.2358
民心百倍多執數	-13.2358
神濕則天不生水	-13.2358
鶡冠子卷下	-13.2358
鶡冠子卷中	-13.2358
𡌡	-13.2358
先天而天弗違	-13.2358
兵聚吴人必至不如備之乃	-13.2358
凍閉不密地氣	-13.2358
反覆六十里其君子	-13.2358
子益柔官至龍圖	-13.2358
將郭淮在漢中蜀主劉備欲渡漢水來攻	-13.2358
故莫能宰而不夭	-13.2358
櫻	-13.2358
氣壹之動志也	-13.2358
浯	-13.2358
照海内存萬方	-13.2358
爾冝自擇賛曰	-13.2358
福不可請禍不可諱敬無益暴無傷者乎	-13.2358
精神盛而氣不散	-13.2358
衆寡不敵欲依水為陳以拒之淮曰此	-13.2358
趑	-13.2358
遞互伸縮	-13.2358
兩舌罵詈	-13.2361
日一周而過一度	-13.2361
王冀公欽若	-13.2361
乎其所不睹恐懼乎其所不聞	-13.2361
大腸小腸爲元梁使者	-13.2361
權勢者人主之車輿	-13.2361
澧	-13.2361
若晋楚争鄭	-13.2361
亦以其景知氣至	-13.2361
勢均以一擊十曰走	-13.2361
探索勝負之情狀	-13.2361
撅	-13.2361
義而富且貴於	-13.2361
與金同法服此二物	-13.2361
〇何氏曰下篇亦云	-13.2361
乃密出盧龍塞直指單于庭	-13.2361
其精木其味酸其名青	-13.2361
於一切物不遺微細一切護念	-13.2361
淪於静而無動	-13.2361
腐肉朽骨弃	-13.2361
見義而行不待命	-13.2361
不能養捨與西寺僧爲童	-13.2361
之半也此三十二卦屬	-13.2361
也交淺而言深是	-13.2361
也王道衰微暴	-13.2361
人君曾不是察	-13.2361
伐陳吴救之軍	-13.2361
内之赤章曼枝	-13.2361
冥駮冒睟	-13.2361
去一則一在四十	-13.2361
問立身行巳之要	-13.2361
國以功授官與爵	-13.2361
堨	-13.2361
士馬百萬投鞭可	-13.2361
宫室臺榭陂池	-13.2361
小人之始至於齊也	-13.2361
後約曰見火燃皆當鳴鼓大呼餘人悉持	-13.2361
志壹之動氣也	-13.2361
撰吏五帝三王傳政乙第	-13.2361
濕迎牀足	-13.2361
爲芬而能能利	-13.2361
珠玉之車驂駕	-13.2361
瓘	-13.2361
瞂	-13.2361
美宫室臺池	-13.2361
翕食嘬嘬	-13.2361
萁	-13.2361
鏦	-13.2361
雖自有實然是石之	-13.2361
顊	-13.2361
飾子女狗馬以娱其	-13.2361
鬋	-13.2361
𢷘	-13.2361
名大將軍參星主之	-13.2364
信非得素拊循士大夫	-13.2364
决江濬河	-13.2364
諸神常令魂魄安寧無離某甲身	-13.2364
性之情者不務性之所無以爲	-13.2364
以白馬爲非馬耳請去	-13.2364
匵	-13.2364
曳柴從之齊人登山	-13.2364
一李昌齡傳鄭淸之賛	-13.2364
是與不肖論賢也	-13.2364
王壽負書而行見徐馮於周	-13.2364
綯	-13.2364
去閼與五十里而軍	-13.2364
治而得亂則是本失其所欲得其所惡是	-13.2364
下面第一層生起	-13.2364
中百入百出苦酒亦	-13.2364
令可丸服如麻子	-13.2364
十丸未一年髮白	-13.2364
取黄金五兩置器中煎之	-13.2364
指間令如泥若不沸及握之不出指間即	-13.2364
方用眞丹三斤白蜜	-13.2364
煎之令可丸旦服如麻子	-13.2364
重賞之下必有勇夫	-13.2364
三合成德以應道數	-13.2364
不是討箇陰來	-13.2364
小所以就大積一所以	-13.2364
弩夾門而伏超順風縱火	-13.2364
急急如律令	-13.2364
捬迎中庭	-13.2364
易刀兵而相殺	-13.2364
是本來物事陰	-13.2364
極之馬時乘六	-13.2364
深壘固軍以待之秦	-13.2364
為姤姤是偶然相遇	-13.2364
瑁	-13.2364
謝安桓沖江表偉	-13.2364
輕兵兼道以出掩其不意	-13.2364
陽消處便是陰故陽來為復	-13.2364
隃	-13.2364
上至天者將軍制之	-13.2364
世有彼而不自非也墨者有此而	-13.2364
主君之亡臣不佞	-13.2364
勝兵先勝而後求戰敗兵先戰而後求勝	-13.2364
孫氏相與謀曰	-13.2364
所由者事之所以相因也理之所以相然	-13.2364
昔者三代聖王足以爲法	-13.2364
欄廐取人馬牛	-13.2364
水木陽也火金陰也	-13.2364
為陳引而致之半濟而後擊備可破也既	-13.2364
無難矣此與彼同	-13.2364
疱	-13.2364
知此爲將之道者戰則必	-13.2364
翕繳惻惻	-13.2364
者其不義又甚入人	-13.2364
而國日削矣當	-13.2364
鍒	-13.2364
閉與心毋空乎内膠而不解也此乃是而	-13.2364
陳備疑不敢渡	-13.2364
駭然汗洽	-13.2364
刀名大房虚星主之	-13.2367
剽竊公帑	-13.2367
劒名失傷角星主之	-13.2367
按玉策記及	-13.2367
如破竹數節之後	-13.2367
龍曰先生之言悖龍之	-13.2367
炤	-13.2367
不可勝以待敵之可勝	-13.2367
其不欲爲吏而欲	-13.2367
蜷	-13.2367
也東魏高歡	-13.2367
窄	-13.2367
策於愚人賢士程行於不肖則賢智之士	-13.2367
褒貶以彰勸沮	-13.2367
霣	-13.2367
也身以生爲常富貴其	-13.2367
其來久矣豈獨今哉	-13.2367
十日腹中百病愈三尸去服之百日肌骨	-13.2367
地仙勿妄傳也兩	-13.2367
壽二千歲五兩	-13.2367
嶵	-13.2367
物合令相得微火上煎	-13.2367
黄金法猪負革	-13.2367
所以吉也不知此而悖之	-13.2367
所通莫不爲郡縣然	-13.2367
五人廐養五人樵汲五人	-13.2367
人之禮其社用	-13.2367
使由之而不使知之	-13.2367
入口中咽之三七而止	-13.2367
同李筌註〇何氏曰	-13.2367
報地德祀四	-13.2367
士有二心私學	-13.2367
昔周用肉刑	-13.2367
椊	-13.2367
此八者匹夫之私	-13.2367
然則卵可破乎	-13.2367
爲禮者事通人之樸心	-13.2367
用於古不用於今也故曰	-13.2367
知孰是孰非	-13.2367
筯	-13.2367
罰上報下之罪也	-13.2367
世同居聚口	-13.2367
也諸以居運命者	-13.2367
亡彼瓏玲	-13.2367
人主所甚親愛也	-13.2367
以其虧人愈多苟虧人愈多其不仁兹甚	-13.2367
以所疑止所欲也	-13.2367
妯	-13.2367
孔子慱於詩書察於禮樂詳於萬物	-13.2367
季孫養孔子之徒所朝服	-13.2367
徯禍介介	-13.2367
投之即死也山中	-13.2367
撌	-13.2367
撢	-13.2367
曰水陰根陽火陽根陰	-13.2367
曰頭容要直	-13.2367
柄長八尺十步一	-13.2367
爲太極朱子曰此指	-13.2367
皆知而非之謂之不義今至大爲	-13.2367
目上于天耳下于淵	-13.2367
睟于内清無穢	-13.2367
羣臣百姓之所善則君	-13.2367
而民爲之者曰可得以	-13.2367
能見夢元王而不能	-13.2367
臣能有所不爲然後	-13.2367
與坐者以十數而	-13.2367
醫家能善用心而	-13.2367
陽氣袀睟清明	-13.2367
隂匿闇昧伏姦藏欺不義不仁	-13.2367
𤷡	-13.2367
盛位而處陰當夜	-13.237
唳	-13.237
思過半矣豈	-13.237
惔	-13.237
有不測之禍起乎其間	-13.237
啁	-13.237
固非局量𥚹淺者之所	-13.237
多少便可餌之當以王相	-13.237
蠭與蜂同范	-13.237
仁與信和與道	-13.2371
槿	-13.2371
二至是陰陽之始終二分是陰陽之交會	-13.2371
刲	-13.2371
此故左右象之是以	-13.2371
花殘葉落深秋	-13.2371
鄣	-13.2371
主八節日上計	-13.2371
兊卦勒陽關至乾卦方止	-13.2371
奔鹿懷鼷	-13.2371
左取三口炁	-13.2371
曰鬼神之明智於聖人	-13.2371
曲部曲也制節	-13.2371
櫛風沐雨	-13.2371
為陳而吴人至見	-13.2371
猶聰耳明目之與聾瞽也	-13.2371
璠	-13.2371
禽獸麋鹿蜚鳥貞蟲	-13.2371
竒材佻長	-13.2371
精神馳騁於外而不守	-13.2371
繼短方地百里與其百姓兼相愛交相利	-13.2371
自出漁者之籠	-13.2371
舉事因資而立功	-13.2371
行刑重其輕者輕者不至	-13.2371
言傾動朝野	-13.2371
非從而譽之謂之義	-13.2371
頭授將軍其柄曰從此	-13.2371
顔色不變絃歌不	-13.2371
下至淵者將軍制之	-13.2371
光謂三爲思上而當夜小人	-13.2371
哉故曰其出彌遠者其	-13.2371
孔子誅少正卯	-13.2371
迹各立其表	-13.2371
惚	-13.2373
桶	-13.2373
青白不相與而相與	-13.2373
餬	-13.2373
弗躬弗親庶民弗信	-13.2374
近而示之遠遠而示之近	-13.2374
太上老君中經卷上	-13.2374
嫁其子而教之曰	-13.2374
故弛坼壞散也	-13.2374
言卒伍豪强將	-13.2374
風頽教沮抑	-13.2374
不得入而秦奇兵二萬五千	-13.2374
二奇兵以劫之趙軍逐勝追造秦壁壁堅	-13.2374
善動敵者形之敵必從之	-13.2374
戰戰慄慄日愼一日	-13.2374
未祭獸罝罦不得	-13.2374
鏁	-13.2374
非微妙不能得間之實	-13.2374
鶚	-13.2374
三言而已過三言	-13.2374
不能盡其學當年不能	-13.2374
以迂爲直以患爲利	-13.2374
先戰而後求勝	-13.2374
幬	-13.2374
廣陽王元深	-13.2374
抱朴子内篇卷之四	-13.2374
窴作冥今從	-13.2374
行罰以静爲故從之以急	-13.2374
靖郭君謂謁者曰	-13.2374
齊人有請見者曰臣請	-13.2374
官至大理寺丞	-13.2374
惝	-13.2374
日藥力全二百日聖胎堅三百日真氣生	-13.2374
自其異者視之肝	-13.2374
人量腹而食度形而衣	-13.2374
七情耗散元陽	-13.2374
不過一年奪功以一並三百日爲期旬日	-13.2374
乃偃兵輟不攻	-13.2374
之價美人萬計而威施有超世之	-13.2374
以義名立於天下以德	-13.2374
以翻然改圖篤意教子其	-13.2374
伐吴吴將陸遜拒之	-13.2374
何罪所致佛言	-13.2374
内水向黄武	-13.2374
冬至隂降到地而	-13.2374
分𣲖條理	-13.2374
則是國家失卒而百姓易務也	-13.2374
前後言之肚腹爲坤	-13.2374
午前燒乾午後燒坤	-13.2374
城上以麾指之	-13.2374
如雷霆疾如風雨	-13.2374
宛雛沈視	-13.2374
將通於九變之地利者知用兵矣	-13.2374
岌	-13.2374
差論其分牙之士皆列	-13.2374
捬	-13.2374
揍	-13.2374
於從心不踰矩之地	-13.2374
日中則昃月盈則蝕	-13.2374
曰形而後有氣質之性	-13.2374
有所爲而我爲之陳執	-13.2374
朔氣前三日也	-13.2374
櫜	-13.2374
澖	-13.2374
焚舟破釜	-13.2374
牓	-13.2374
猷	-13.2374
簑	-13.2374
累世義聚不分	-13.2374
者也而說之以名高則	-13.2374
胚	-13.2374
臣戇而不知方始而至於朝也竊有疑焉	-13.2374
興衰起廢者也故曰	-13.2374
蛁鳴喁喁	-13.2374
行猶十尺之與一丈謂之餘事未之前聞	-13.2374
言無追如抑亦	-13.2374
謂知義與不義之	-13.2374
赤卉方鋭	-13.2374
起後終宵閉耳	-13.2374
踽	-13.2374
進不臣君退不爲家	-13.2374
閎夭泰顛	-13.2374
闒茸駔儈	-13.2374
隨時對飲金波	-13.2374
雕鷹高翔	-13.2374
高臺層榭	-13.2374
𥁞	-13.2374
民不見德唯戮是聞	-13.2377
從夏陽襲安邑而	-13.2377
隨時變易以從道	-13.2377
三川涇渭汧也	-13.2377
于畢俾滂	-13.2377
預交不知山林險阻沮澤之形	-13.2377
威克厥愛允濟	-13.2377
知一鑊之味	-13.2377
請身爲臣妻爲妾	-13.2377
𨂜	-13.2377
五千騎絶趙壁間趙	-13.2377
太上老君清静心經	-13.2377
絶趙軍後又	-13.2377
出冥入冥新故更代	-13.2377
曰晋之從政者新未能行令	-13.2377
石沙炭以雨之薪火水湯以濟之	-13.2377
西魏將周文帝	-13.2377
辛毗仗節	-13.2377
人因此若執函敗	-13.2377
司命君司録君	-13.2377
夢一神叱曰汝	-13.2377
甘露下竹實滿流黄出	-13.2377
秦行人夜戒晋師曰	-13.2377
粈	-13.2377
緫章左个	-13.2377
驤	-13.2377
三十分之一一月方	-13.2377
三里之城七里之郭	-13.2377
上之爲政得下之情則	-13.2377
不及和鵲之所合也雖有	-13.2377
不及歐冶之所鑄也雖有	-13.2377
不鬼則未足以爲法也然則姑嘗止觀乎	-13.2377
也以臧爲其親也而	-13.2377
也自然之君也常侍道君在	-13.2377
也飲罷終宵火起	-13.2377
以利動以分合爲變	-13.2377
係解因自結	-13.2377
其精土其味甘其名	-13.2377
其首以爲飲器故	-13.2377
善反之則天地之性存	-13.2377
天人同文地人	-13.2377
太卜曰子之道何能對曰能動地	-13.2377
小童子衣絳衣	-13.2377
慶避之其福德淺薄自不能與吉慶㑹也	-13.2377
我為主彼為客	-13.2377
掀	-13.2377
擴	-13.2377
文王即位復獻之	-13.2377
曰子未察吾言之類未明其故者也	-13.2377
此腐儒之所守而汙俗之所以相欺者也	-13.2377
燕將慕容恪	-13.2377
牛有齒馬有尾	-13.2377
甚矣世之人注其目於視也目奚足信	-13.2377
眇一目盲也	-13.2377
睆	-13.2377
聽吾所陳之計而用兵則必	-13.2377
聽吾計用之必	-13.2377
若昔者三代聖王堯舜禹湯文武者	-13.2377
血氣滔蕩而不休	-13.2377
購賞猶在外	-13.2377
足以爲百人酸一梅不足	-13.2377
進不求名退不避罪	-13.2377
陰陽各得八位之	-13.2377
靈囊大包不敢自盛也	-13.2377
顗	-13.2377
𠫤	-13.2377
凌雲汗血緩步呼吸	-13.2377
夫好攻伐之君又飾其說以非子墨子曰	-13.2377
封豨脩蛇	-13.2377
應龍徐舉顧	-13.2377
爲不義非利物與昔者	-13.2377
畸	-13.2377
愷悌君子求福不回	-13.238
光謂五爲中禄而當	-13.238
樅	-13.238
飛鳥鍛翼走獸	-13.238
𠜾讀詩蹶角	-13.238
後玄武左青龍而右白虎招摇在上急繕	-13.238
吴伐楚楚師敗	-13.238
抱朴子内篇卷之六	-13.238
菹	-13.238
君實欲天下之治而惡其亂	-13.238
噍	-13.238
太上老君中經卷下	-13.238
僉	-13.238
公曰使子有三歸之家	-13.238
其遼邈其相傾也雖三光熠	-13.238
凡春三月肝氣旺	-13.238
凡秋三月肺氣旺	-13.238
曰臣富矣然而臣	-13.238
曰臣貴矣然而臣貧	-13.238
淼	-13.238
濯裘布被	-13.238
然而今天下之士君子或以命爲有	-13.238
盖竹山括蒼山	-13.238
蜆	-13.238
鄭安晚丞相	-13.238
之均也僇於社者何也	-13.238
也荄古哀切	-13.238
即發萬人趨之秦兵後至争山不得上	-13.238
奢縱兵擊之大破秦軍	-13.238
暖無霜雪則來	-13.238
有經紀條貫	-13.238
氣盛將軍必厚集其陳以待之不然必敗	-13.238
汋	-13.238
治兵不知九變之術	-13.238
輕車也駕駟馬	-13.238
人在上天下必治上帝山川鬼神必有幹	-13.238
侻	-13.238
合如雷電解如風雨	-13.238
咽氣搐外腎	-13.238
履霜堅冰至	-13.238
月淑清而揚光	-13.238
當舜之時有苗不服	-13.238
處其厚不處其薄	-13.238
軍之衆可使必受敵而無敗者奇正是也	-13.238
一尺之帛一篇之書語數鬼神之有	-13.238
上不利於天中不利於鬼下不利於人	-13.238
不逐奔揜函弗射	-13.238
世猶疑爲賣直	-13.238
之中而權輕重之謂	-13.238
之賢士歸之未殁其世而王天下政諸侯	-13.238
也否方乆切	-13.238
五藏摇動而不定	-13.238
仙跪拜稽首	-13.238
仡	-13.238
以樂爲利其子而爲其子	-13.238
伃	-13.238
何以爲冬以圉	-13.238
其兵鍛其畜彘	-13.238
其違禽獸不遠矣	-13.238
出家證阿羅漢	-13.238
北方玄武之宿是月昏	-13.238
司馬法曰上死不勝言	-13.238
司馬法曰見敵作誓瞻功行賞	-13.238
吉者百福所歸凶者百禍所攻	-13.238
呼吸吐故内新	-13.238
坎艮震之二十	-13.238
子至辰自辰至申	-13.238
寒夏以圉暑	-13.238
左爲司徒公右爲司空公	-13.238
帝在東宫時從	-13.238
幎	-13.238
干辛推哆	-13.238
必十倍然後圍之	-13.238
恢其門户用圉	-13.238
摩蜃而耨	-13.238
於上木直於下非有事焉	-13.238
旌旗絓羅干鉞蛾蛾	-13.238
晭	-13.238
欲動情勝利害相攻	-13.238
求人之志章第三	-13.238
淬	-13.238
深計遠慮所以不窮	-13.238
游士無所植其足	-13.238
王曰九居亢極而失位當夜	-13.238
當其言則賞功不當其事事不當其言則	-13.238
相遇其氣絶矣	-13.238
聞命矣築室不輟公宣子復見曰	-13.238
能分人之兵疑人之心則	-13.238
膓	-13.238
菽麥不爲禾蟲民食	-13.238
衣五彩朱衣	-13.238
贕	-13.238
趹船跋車	-13.238
避嫌遠疑所以不	-13.238
關梁之難盗賊之危	-13.238
雖在農與工肆之人	-13.238
雚蔰炫煌	-13.238
韓非子卷之四	-13.238
類類生成用一不窮	-13.238
黄菌不誕俟	-13.238
齊王之謂尹文	-13.238
凈	-13.2382
治而國亂者也未嘗聞身亂而國治者也	-13.2383
斥山澤之險雖所不至必斾而	-13.2383
佚而勞之親而離之	-13.2383
苙	-13.2383
悱	-13.2383
卦凡冬三月腎氣旺	-13.2383
湯征葛伯放	-13.2383
物不然無時不然	-13.2383
言之庶幾皆知則效昔韓	-13.2383
不足以方其巨細龍淵	-13.2383
惸	-13.2383
憩	-13.2383
有未始有夫未始有有無者	-13.2383
李兑之用趙也餓	-13.2383
無以則有一焉而願因以有獻也	-13.2383
發鉅橋之粟散鹿臺之錢	-13.2383
萬物之自然而不敢爲也	-13.2383
門城門也閭里門也	-13.2383
之地與敵相持須用奇險詭	-13.2383
之孤者也自立如是非能養成大器者	-13.2383
太上書以爲戒者	-13.2383
山大小天台山	-13.2383
所以永思鍾子郢人所以格斤不運也	-13.2383
掔	-13.2383
晝則旌旗相續	-13.2383
燕人畏鄭三軍而不虞制人	-13.2383
爻變者十有五卦皆自	-13.2383
子華子曰異乎吾所聞夫	-13.2383
搐	-13.2383
於社賞於祖者何也	-13.2383
一箇横一箇直	-13.2383
天門無上地户無下	-13.2383
富之貴之敬之譽之然	-13.2383
左有黄裳子右有中	-13.2383
疕	-13.2383
瘢	-13.2383
破之必矣遂整陳而過賊見兵出其後果	-13.2383
衣冠九德之冠	-13.2383
身死蟲流出尸不葬	-13.2383
雖縛馬埋輪未足恃	-13.2383
顣	-13.2383
不以時循行教誨	-13.2383
不明於民之善非	-13.2383
不漏可以盛酒	-13.2383
中自分陰陽要之	-13.2383
之以政令齊之以禮教	-13.2383
以其力爲未足又選擇	-13.2383
以疑爲能相萬乘	-13.2383
六十四卦氣皆中起	-13.2383
其位北方其日壬癸	-13.2383
則濁濁則無知	-13.2383
又分為小象者七星家名	-13.2383
報招引業果此	-13.2383
天門大開恢堂之階	-13.2383
如還營荀攸曰此所以餌敵也安可去之	-13.2383
對待之陰陽則其用均	-13.2383
幾事不密則害成	-13.2383
恭儉謙約所以自守	-13.2383
所以不改更始逾新之道	-13.2383
抑非損惡所以	-13.2383
時徃時來間不容𣯛	-13.2383
曖	-13.2383
朔氣後三日也	-13.2383
業交臨命終時先見	-13.2383
樐	-13.2383
歷以紀歲而百	-13.2383
源其源甚真	-13.2383
爭如少女燒天	-13.2383
牗	-13.2383
獨𤕠逝逝	-13.2383
用妻妾語違父母訓	-13.2383
矯鄭伯之命以十二牛勞	-13.2383
米而炊可以治	-13.2383
而善禁者以炁禁之	-13.2383
脣亡則齒寒	-13.2383
讁	-13.2383
貌合心離者孤	-13.2383
赤黄精炁光明照	-13.2383
軔而兵可迭也	-13.2383
遫	-13.2383
陽無可盡之理變於上則生於下	-13.2383
難之地所不當從	-13.2383
麈	-13.2383
德中世逐於智	-13.2383
慈母之於弱子也	-13.2383
普天之下莫非王土率土之濱莫非王臣	-13.2383
櫬	-13.2383
氣爲水水勝故夏至	-13.2383
莿	-13.2383
螻螘怪其無階而高致駑蹇	-13.2383
過己之不漸也若夫馳驟	-13.2383
顱	-13.2383
覇	-13.2386
含珠鱗施綸組	-13.2386
意吾以爾爲可	-13.2386
戰於涿鹿之野	-13.2386
況人乎若知不免而致死必敗我若使	-13.2386
爇	-13.2386
驚悸遂寤	-13.2386
人誰無過過而能改	-13.2386
凡夏三月心氣旺	-13.2386
及其應事却七顛八倒又牽動他寂然	-13.2386
忘言也而猶有萌焉夫	-13.2386
於根本上全無工夫須是徹上徹下表裏	-13.2386
綢	-13.2386
繄	-13.2386
而俗士唯見能染毫畫紙	-13.2386
鋌未足譬其銳鈍鴻羽積金未足	-13.2386
馘	-13.2386
上無常操下多疑心	-13.2386
九百四十分分為	-13.2386
人兩眉間却	-13.2386
和睦略無間言	-13.2386
廐馬千駟而騏	-13.2386
搦	-13.2386
無天於上無地於下無敵於前無主於後	-13.2386
猶以卵投石	-13.2386
璹	-13.2386
笮	-13.2386
約和旁國交親結恩兵雖後至衆已屬矣	-13.2386
虚以待不伐之言不奪之事	-13.2386
陽太陰少陽少陰	-13.2386
陽常盈陰常	-13.2386
顰	-13.2386
姬王肇迹	-13.2386
曰内不量力外恃諸侯	-13.2386
本活作治今從諸家	-13.2386
淤	-13.2386
爻變者十卦皆自	-13.2386
發後雖馳車驟馬至不	-13.2386
箔	-13.2386
臣輻凑並進無愚智賢不肖莫不盡其能	-13.2386
諸神皆就太倉中飲食	-13.2386
通我與敵相當而旁有他國所謂先者必	-13.2386
三百六十五日四分日之一至舊星之處	-13.2386
不已至於禍極故	-13.2386
不設備九月靖	-13.2386
也太公曰必勝之道器械為寳	-13.2386
也曰其爲政乎天下也兼而	-13.2386
也鄭君答余曰	-13.2386
争利非也三將軍皆	-13.2386
以度量知空虚會戰之日	-13.2386
以知尚賢之爲政本也	-13.2386
傳曰按涅槃經	-13.2386
六者十分四之餘	-13.2386
兵貴神速機不可失今兵始集銑尚未知	-13.2386
凡殺不辜者其得不祥鬼神之	-13.2386
出暮入耕稼樹藝多聚升粟	-13.2386
則思慮熟思慮熟則得事理	-13.2386
北不勝以數千人委之單于	-13.2386
升身頻過三關貪向楊州聚會	-13.2386
半曰不若朝於	-13.2386
博學切問所以廣	-13.2386
右過左左就右	-13.2386
司寇行刑君爲	-13.2386
司隸校尉	-13.2386
名可名非常名	-13.2386
在國安土懷生	-13.2386
夔州銑以時屬秋潦江水泛漲三峽路	-13.2386
多治麻絲葛緒細布縿	-13.2386
天下之士君子之去義	-13.2386
天子衣黑衣乘鐵驪服玄玉建玄旗食	-13.2386
夫牛蹏之涔	-13.2386
姮	-13.2386
子墨子置立天之以爲儀法	-13.2386
孝子之爲親度者	-13.2386
已所不欲勿施於人	-13.2386
幔	-13.2386
後果無成而卒	-13.2386
得意賢士不可不舉	-13.2386
復隔坤一卦	-13.2386
必謂靖不能進遂	-13.2386
所愛惜倚恃	-13.2386
搤	-13.2386
摲	-13.2386
收歛關巿山林澤梁之利以實倉廪府庫	-13.2386
故曰萬物静觀皆自得	-13.2386
敵若先居此地	-13.2386
於規矩之方圓旁通不	-13.2386
東南射兕西北其矢	-13.2386
欲富貴全壽而	-13.2386
此言何謂也若予所學	-13.2386
殺黑龍於北方	-13.2386
深入徐州得十四縣也	-13.2386
漑	-13.2386
漲之勢倏忽至城下所謂疾雷不及掩耳	-13.2386
激昻喜事之言其可	-13.2386
無以應敵此必成擒也	-13.2386
用思有限者不	-13.2386
縋	-13.2386
艮卦飛金晶至巽卦方	-13.2386
茅門廷理曰	-13.2386
莫之與則傷之者至焉	-13.2386
行夏令則其國乃旱	-13.2386
論性不論氣不	-13.2386
蹮	-13.2386
車脚供㸑	-13.2386
退無濡尾之	-13.2386
鄭賈人弦高	-13.2386
陽推五福以類升陰幽六極以類降	-13.2386
靣	-13.2386
駢曰使者目動而言肆懼我也秦果	-13.2386
高行微言所以修身	-13.2386
鴻文無范恣	-13.2386
𠟣	-13.2386
以尚同一義爲政故也	-13.2388
凱	-13.2388
舅	-13.2389
拉	-13.2389
師佐武王伐紂成王封	-13.2389
一守某甲身形五藏	-13.2389
於旣死之後者也	-13.2389
氏以亡昔先大夫	-13.2389
甲願得長生太玄	-13.2389
祝曰天靈節榮真人	-13.2389
糟粕煨燼無非教也	-13.2389
見他體相不具	-13.2389
離卦罷採藥坤卦	-13.2389
十李昌齡傳鄭清之賛	-13.2389
於衛國侏儒有見公者曰臣之夢	-13.2389
正日景以求地中	-13.2389
淖齒之用齊也擢	-13.2389
衛靈公之時彌子瑕有寵	-13.2389
觳	-13.2389
餞	-13.2389
黏	-13.2389
䕫	-13.2389
嚙	-13.2389
宣王曰賊堅營高壘	-13.2389
應之物有之足以備其數無之不缺於治	-13.2389
挿	-13.2389
敵雖高壘不得不與我戰者攻其所必救	-13.2389
爲見公也公怒曰吾聞	-13.2389
竟平遼東〇	-13.2389
義者人之所宜賞善罰惡以	-13.2389
伷	-13.2389
十息頓止心	-13.2389
天師門下科令	-13.2389
左青右黄上白	-13.2389
我有衆助彼失其黨諸國	-13.2389
欲野戰則必因勢依險設伏無險則隱於	-13.2389
譌	-13.2389
飛金晶一撞三關	-13.2389
之事父弟之事兄若手臂之捍頭目而覆	-13.2389
之利矣意將以爲利	-13.2389
之地不可令敵人知之	-13.2389
之者至然後覺其	-13.2389
之賢可者置立之以爲	-13.2389
九爲禍終而當晝能	-13.2389
也私人以官者浮	-13.2389
云地盖厚三萬里	-13.2389
云正月立春節雨水中二	-13.2389
亞父鍾離昩龍且周殷之屬不過數人	-13.2389
人聞曰有君如彼其信也可無	-13.2389
以得其罰者誰也曰若昔者	-13.2389
何足以識之請以嘗試言之而子亦嘗試	-13.2389
來下在目前入口中咽之三七而止	-13.2389
兵至夷陵銑	-13.2389
其專精之名曰太	-13.2389
名而加之是其故何也則	-13.2389
吾所以知天之貴且知於天子者	-13.2389
吾田野禁吾樵採塞吾要道待吾空虚而	-13.2389
噆	-13.2389
嚂	-13.2389
大都攻其小都大家伐其小家	-13.2389
天原發微卷之一	-13.2389
專志輕鬭吾兵	-13.2389
左旋右行天日之交	-13.2389
或求之陰或求之陽	-13.2389
所恃者司馬也而司馬又	-13.2389
指諸星運轉以為天	-13.2389
攻則如之何武曰敵人深入	-13.2389
政令不斷則民不畏	-13.2389
曰爵位不高則民	-13.2389
曰門内之垣謂之樹	-13.2389
木味酸酸	-13.2389
未可智而必人之可盡	-13.2389
李牧大縱畜牧人衆滿野匈奴小入	-13.2389
楺	-13.2389
欲利之而反害之	-13.2389
此是亡楚國之社稷而不	-13.2389
河圖括地象云	-13.2389
爲成意思慮既成	-13.2389
爲政乎愚且賤者	-13.2389
爵關内侯食邑	-13.2389
王至今不已則此富貴爲	-13.2389
目以火見而火不見	-13.2389
粢盛酒醴	-13.2389
繼之是為巽元之	-13.2389
者上書論事且	-13.2389
者霸無一焉者亡	-13.2389
而食洗爵而飲	-13.2389
膿	-13.2389
薾	-13.2389
蜯石雲雨生於膚寸江河始於咫尺	-13.2389
行蟯動之蟲	-13.2389
說樂而聽之即必不能蚤	-13.2389
識向上根源矣	-13.2389
起來走損車牛	-13.2389
轒輼四輪車	-13.2389
邊一百九十二爻本都是	-13.2389
錦繡之因素地珠玉之	-13.2389
闔扇通障塞	-13.2389
項王骨鯁之臣	-13.2389
高予之爵重予之禄任之以事斷予之令	-13.2389
麄	-13.2389
黄精炁填滿	-13.2389
不知三軍之權而同三軍之任	-13.2389
以常情覽巨異以褊量測無涯	-13.2389
入水不霑入火不灼	-13.2389
八爲耗爲剥落	-13.2389
其餘六十卦每卦	-13.2389
刈其禾稼斬其樹木	-13.2389
如其不遇没身而已	-13.2389
後漢班超使西域到鄯善	-13.2389
得事理則必成功	-13.2389
是以其道足高而名	-13.2389
致中和以位天地	-13.2389
嗛	-13.2392
平公晋悼公之子彪	-13.2392
柚	-13.2392
之鴈從北漠中來	-13.2392
國數易君人以其位	-13.2392
恐姦釁之不虞故嚴城	-13.2392
殱	-13.2392
皆一時知名之士	-13.2392
𥙿	-13.2392
半濟而後可擊也從之又敗之	-13.2393
圃而隨文學者	-13.2393
圮	-13.2393
被攝至冥司冥官	-13.2393
鸑	-13.2393
㕮	-13.2393
曰五行質具於地而氣行於天	-13.2393
禮者人之所履夙興夜寐以成人倫之序	-13.2393
脣亡而齒寒	-13.2393
蓉	-13.2393
也若决積水於	-13.2393
人主者夢見日奚爲見寡人而夢見竈	-13.2393
僈	-13.2393
土龍以求雨芻狗	-13.2393
淪入三惡其速如箭	-13.2393
淮南鴻烈要畧間詁卷之二十八	-13.2393
蜮	-13.2393
鬼非人也兄之鬼兄也	-13.2393
七爲失志而當夜	-13.2393
也戮辱所任者危	-13.2393
人五臟諸星如人	-13.2393
厚親不稱行而	-13.2393
宫后妃之府	-13.2393
少長有禮其可用也	-13.2393
庾氏之職業	-13.2393
捐數萬斤金	-13.2393
曰國小無禮不用諫臣則絶世之勢也	-13.2393
曰失道而後德失德而後仁	-13.2393
王亶父處邠狄人攻之	-13.2393
罅	-13.2393
臑不收於前	-13.2393
至震卦方止	-13.2393
蔟地而生故曰太蔟	-13.2393
薄拘羅尊者	-13.2393
輕車先出居其側者陳也	-13.2393
闃	-13.2393
饑在賤農寒在	-13.2393
黄道經其中七曜之所行也	-13.2393
九者十分一之餘八者十分二之餘	-13.2393
何福滿肩提禍撣撣	-13.2393
八十一首歲事咸貞	-13.2393
則我利敵凶〇	-13.2393
牌	-13.2393
觶	-13.2393
𦍙	-13.2393
㓨	-13.2393
㘖	-13.2393
㹖	-13.2393
倔	-13.2393
塪	-13.2393
欷	-13.2393
睛	-13.2393
簵	-13.2393
繽	-13.2393
𤏟	-13.2393
歃	-13.2394
篩	-13.2396
墽	-13.2396
𧦽	-13.2396
吼	-13.2396
甃	-13.2396
禇	-13.2396
鱠	-13.2396
䍧	-13.2396
慆	-13.2396
腆	-13.2396
豬	-13.2396
㯶	-13.2396
倭	-13.2396
耰	-13.2396
蓯	-13.2396
訇	-13.2396
𠝜	-13.2396
𪖣	-13.2396
駈	-13.2399
拚	-13.2399
獐	-13.2399
氈	-13.2399
迕	-13.2399
㳺	-13.2399
蠏	-13.2399
訞	-13.2399
㳏	-13.2399
汴	-13.2399
鵾	-13.2399
卬	-13.2399
潏	-13.2399
羯	-13.2399
擕	-13.2399
擥	-13.2399
杻	-13.2399
焄	-13.2399
劘	-13.2399
幀	-13.2399
憧	-13.2399
抆	-13.2399
擗	-13.2399
梱	-13.2399
滲	-13.2399
碭	-13.2399
繶	-13.2399
膩	-13.2399
芠	-13.2399
苕	-13.2399
蛔	-13.2399
袨	-13.2399
騤	-13.2399
𢪬	-13.2399
莚	-13.2402
藂	-13.2402
毚	-13.2402
訂	-13.2402
嶠	-13.2402
怫	-13.2402
拏	-13.2402
畤	-13.2402
芫	-13.2402
桒	-13.2402
鵰	-13.2402
亳	-13.2402
偁	-13.2402
剜	-13.2402
唲	-13.2402
曈	-13.2402
焯	-13.2402
瞠	-13.2402
砰	-13.2402
硬	-13.2402
蓁	-13.2402
袵	-13.2402
鍥	-13.2402
幢	-13.2405
盭	-13.2405
舁	-13.2405
濃	-13.2405
秬	-13.2405
郫	-13.2405
陝	-13.2405
䎚	-13.2405
䴸	-13.2405
份	-13.2405
咐	-13.2405
嗁	-13.2405
墅	-13.2405
姶	-13.2405
惓	-13.2405
擮	-13.2405
敠	-13.2405
杕	-13.2405
汀	-13.2405
潑	-13.2405
潝	-13.2405
澁	-13.2405
澈	-13.2405
瀅	-13.2405
猱	-13.2405
筳	-13.2405
綈	-13.2405
薬	-13.2405
趫	-13.2405
跔	-13.2405
軥	-13.2405
𣐀	-13.2405
𦯶	-13.2405
𧈳	-13.2405
俻	-13.2408
烕	-13.2408
賭	-13.2408
鱔	-13.2408
鶬	-13.2408
剰	-13.2408
啇	-13.2408
憺	-13.2408
朦	-13.2408
枹	-13.2408
榴	-13.2408
濺	-13.2408
犞	-13.2408
疈	-13.2408
睘	-13.2408
禘	-13.2408
篾	-13.2408
衹	-13.2408
踝	-13.2408
𤍂	-13.2408
𦙴	-13.2408
闌	-13.2411
牾	-13.2411
葶	-13.2411
伶	-13.2411
咼	-13.2411
啑	-13.2411
堦	-13.2411
岠	-13.2411
擎	-13.2411
晴	-13.2411
毇	-13.2411
浡	-13.2411
淅	-13.2411
獍	-13.2411
竘	-13.2411
轙	-13.2411
釤	-13.2411
陴	-13.2411
齏	-13.2411
𢅏	-13.2411
祑	-13.2415
荏	-13.2415
郅	-13.2415
兠	-13.2415
拗	-13.2415
㳂	-13.2415
厖	-13.2415
嘶	-13.2415
虣	-13.2415
謇	-13.2415
𨤲	-13.2415
丗	-13.2415
稗	-13.2415
终	-13.2415
藟	-13.2415
讋	-13.2415
𢚢	-13.2415
𥲫	-13.2415
醼	-13.2418
糶	-13.2418
髡	-13.2418
氊	-13.2418
浟	-13.2418
漶	-13.2418
㼜	-13.2418
侳	-13.2418
哈	-13.2418
愿	-13.2418
慬	-13.2418
憢	-13.2418
曵	-13.2418
椹	-13.2418
湟	-13.2418
烑	-13.2418
痔	-13.2418
稊	-13.2418
窐	-13.2418
耇	-13.2418
薜	-13.2418
褶	-13.2418
購	-13.2418
陲	-13.2418
𡫴	-13.2418
𪔛	-13.2418
黶	-13.2421
鼬	-13.2421
葪	-13.2421
邙	-13.2421
悁	-13.2421
椘	-13.2421
產	-13.2421
絻	-13.2421
㡳	-13.2421
彚	-13.2421
彠	-13.2421
栁	-13.2421
殼	-13.2421
璆	-13.2421
甦	-13.2421
篸	-13.2421
臬	-13.2421
蔘	-13.2421
賃	-13.2421
鎚	-13.2421
駎	-13.2421
𦴑	-13.2421
掎	-13.2424
羆	-13.2424
焱	-13.2424
䜛	-13.2424
䥶	-13.2424
噩	-13.2424
彷	-13.2424
肬	-13.2424
飊	-13.2424
𨼥	-13.2424
圪	-13.2424
妣	-13.2424
暒	-13.2424
緌	-13.2424
茄	-13.2424
蹗	-13.2424
躪	-13.2424
鄛	-13.2424
随	-13.2424
𠟂	-13.2424
𡵨	-13.2424
粕	-13.2427
跙	-13.2427
虙	-13.2427
棿	-13.2427
鐍	-13.2427
闠	-13.2427
飜	-13.2427
𦊨	-13.2427
侶	-13.2427
啳	-13.2427
捃	-13.2427
欱	-13.2427
駙	-13.2427
趎	-13.243
疢	-13.243
澍	-13.243
厈	-13.243
鸙	-13.243
俚	-13.243
盞	-13.243
踔	-13.243
呫	-13.243
垸	-13.243
椔	-13.243
欋	-13.243
蘀	-13.243
螬	-13.243
𦝢	-13.243
𨴗	-13.243
痿	-13.2433
蠍	-13.2433
媮	-13.2433
爆	-13.2433
僰	-13.2433
絿	-13.2433
蹰	-13.2437
硯	-13.2437
鎻	-13.2437
紺	-13.2437
壙	-13.2437
慹	-13.2437
閥	-13.2437
茲	-13.2437
菁	-13.2437
髴	-13.2437
噅	-13.2437
恲	-13.2437
硜	-13.2437
誄	-13.2437
𤛛	-13.2437
𧍃	-13.2437
垀	-13.244
塏	-13.244
黣	-13.244
𢺡	-13.244
哂	-13.2443
琨	-13.2443
崝	-13.2443
轘	-13.2443
鬺	-13.2443
塢	-13.2443
撟	-13.2443
詨	-13.2443
蹹	-13.2443
鏵	-13.2443
𢡚	-13.2443
芼	-13.2446
尃	-13.2446
鷖	-13.2446
攏	-13.2446
隲	-13.2446
鞮	-13.2449
呻	-13.2449
𦉾	-13.2449
瀛	-13.2449
觧	-13.2449
棹	-13.2449
悄	-13.2449
捆	-13.2449
滫	-13.2449
稉	-13.2449
蕈	-13.2449
咈	-13.2452
蒭	-13.2452
姆	-13.2452
燮	-13.2452
蕁	-13.2452
嘹	-13.2455
荇	-13.2455
𨥲	-13.2456
煅	-13.2456
紟	-13.2456
撜	-13.2459
螈	-13.2459
酹	-13.2459
噭	-13.2462
栞	-13.2462
虯	-13.2465
眭	-13.2468
斆	-13.2468
謲	-13.2468
暦	-13.2471
拖	-13.2471
觖	-13.2471
霪	-13.2471
骫	-13.2478
岟	-13.2487
舲	-13.2487
糈	-13.2493
𣖂	-13.2503
菰	-13.2519
𩓣	-14.2179
𥼴	-14.218
𥫱	-14.2181
𤸇	-14.2182
𣵀	-14.2183
𣛰	-14.2184
𢿛	-14.2185
𢮎	-14.2186
𢦙	-14.2187
𡨽	-14.2188
𡙻	-14.2189
𡒄	-14.219
𡁕	-14.2191
𠲮	-14.2192
龠	-14.2193
齷	-14.2194
齪	-14.2195
廆	-14.2195
齓	-14.2196
鼾	-14.2197
鼫	-14.2198
黓	-14.2199
鸎	-14.22
鵻	-14.2201
鵞	-14.2202
鵜	-14.2203
猳	-14.2203
鵀	-14.2204
鴡	-14.2205
鳲	-14.2206
鳱	-14.2207
鮋	-14.2208
鬴	-14.2209
髑	-14.221
髏	-14.2211
髊	-14.2212
驌	-14.2213
騻	-14.2214
騊	-14.2215
駼	-14.2216
駃	-14.2217
馯	-14.2218
饘	-14.2219
廕	-14.2219
饅	-14.222
餚	-14.2221
颻	-14.2222
韙	-14.2223
霩	-14.2224
阯	-14.2225
鐔	-14.2226
鏘	-14.2227
鍱	-14.2228
鉶	-14.2229
鈚	-14.223
醨	-14.2231
酺	-14.2232
鄖	-14.2233
輳	-14.2234
豸	-14.2235
㓕	-14.2235
楓	-14.2235
灧	-14.2235
謦	-14.2236
謖	-14.2237
諞	-14.2238
誶	-14.2239
覸	-14.224
裟	-14.2241
袈	-14.2242
蠳	-14.2243
柅	-14.2243
蠩	-14.2244
蠛	-14.2245
蠓	-14.2246
蟭	-14.2247
蝶	-14.2248
蝪	-14.2249
蜲	-14.225
蜧	-14.2251
蜣	-14.2252
蜎	-14.2253
蚙	-14.2254
藳	-14.2255
薠	-14.2256
薉	-14.2257
蔵	-14.2258
蒹	-14.2259
糂	-14.2259
缿	-14.2259
蒱	-14.226
莞	-14.2261
荑	-14.2262
茇	-14.2263
苫	-14.2264
苨	-14.2265
苔	-14.2266
臀	-14.2267
斵	-14.2267
渃	-14.2267
爺	-14.2267
翽	-14.2267
膴	-14.2268
腔	-14.2269
腄	-14.227
脁	-14.2271
緆	-14.2272
悝	-14.2272
紞	-14.2273
籯	-14.2274
箘	-14.2275
崏	-14.2275
溜	-14.2275
濼	-14.2275
穟	-14.2275
肹	-14.2275
窫	-14.2276
窔	-14.2277
禎	-14.2278
碔	-14.2279
砆	-14.228
矬	-14.2281
瞪	-14.2282
瞎	-14.2283
俲	-14.2283
尿	-14.2283
庒	-14.2283
榰	-14.2283
甖	-14.2283
瘇	-14.2283
瞍	-14.2284
盩	-14.2285
癥	-14.2286
癖	-14.2287
痰	-14.2288
畮	-14.2289
璃	-14.229
琥	-14.2291
㧊	-14.2291
䣓	-14.2291
埑	-14.2291
塩	-14.2291
慜	-14.2291
瓚	-14.2291
琉	-14.2292
珣	-14.2293
珊	-14.2294
珀	-14.2295
玗	-14.2296
獧	-14.2297
猵	-14.2298
煆	-14.2299
嘸	-14.2299
戯	-14.2299
瓔	-14.2299
眛	-14.2299
翶	-14.2299
灂	-14.23
瀺	-14.2301
濠	-14.2302
澥	-14.2303
澡	-14.2304
滛	-14.2305
溓	-14.2306
洧	-14.2307
䔧	-14.2307
呢	-14.2307
喃	-14.2307
嫓	-14.2307
嶕	-14.2307
様	-14.2307
槢	-14.2307
淘	-14.2307
濆	-14.2307
瀧	-14.2307
玊	-14.2307
眕	-14.2307
篚	-14.2307
簽	-14.2307
粻	-14.2307
糓	-14.2307
紩	-14.2307
絽	-14.2307
肎	-14.2307
泜	-14.2308
汧	-14.2309
欂	-14.231
橉	-14.2311
楬	-14.2312
楩	-14.2313
梣	-14.2314
桔	-14.2315
㐫	-14.2315
䪥	-14.2315
偵	-14.2315
壩	-14.2315
娜	-14.2315
婀	-14.2315
徟	-14.2315
扉	-14.2315
抅	-14.2315
掬	-14.2315
樁	-14.2315
欝	-14.2315
毕	-14.2315
獾	-14.2315
磷	-14.2315
禊	-14.2315
筒	-14.2315
糗	-14.2315
繾	-14.2315
柸	-14.2316
柈	-14.2317
斿	-14.2318
斾	-14.2319
斮	-14.232
攔	-14.2321
羑	-14.2321
撠	-14.2322
撒	-14.2323
㟭	-14.2323
㩷	-14.2323
䊇	-14.2323
䠳	-14.2323
呤	-14.2323
呸	-14.2323
啥	-14.2323
奩	-14.2323
廛	-14.2323
澇	-14.2323
濵	-14.2323
畨	-14.2323
畲	-14.2323
癃	-14.2323
癬	-14.2323
瞬	-14.2323
秕	-14.2323
窋	-14.2323
粧	-14.2323
捖	-14.2324
捎	-14.2325
抯	-14.2326
悃	-14.2327
怎	-14.2328
徨	-14.2329
庄	-14.233
幗	-14.2331
㑷	-14.2331
㩴	-14.2331
䋴	-14.2331
䌫	-14.2331
亲	-14.2331
儱	-14.2331
刍	-14.2331
崞	-14.2331
愡	-14.2331
扡	-14.2331
撼	-14.2331
樑	-14.2331
沘	-14.2331
漪	-14.2331
犖	-14.2331
瑇	-14.2331
禠	-14.2331
笨	-14.2331
糩	-14.2331
胘	-14.2331
蔰	-14.2331
嶧	-14.2332
崎	-14.2333
崆	-14.2334
峒	-14.2335
岍	-14.2336
孋	-14.2337
嬛	-14.2338
嫥	-14.2339
吡	-14.2339
姗	-14.2339
张	-14.2339
捥	-14.2339
揩	-14.2339
擄	-14.2339
旻	-14.2339
晢	-14.2339
棣	-14.2339
淆	-14.2339
熀	-14.2339
狙	-14.2339
猬	-14.2339
眙	-14.2339
筝	-14.2339
縝	-14.2339
媳	-14.234
娵	-14.2341
娟	-14.2342
奯	-14.2343
塲	-14.2344
堮	-14.2345
嘄	-14.2346
喏	-14.2347
㤗	-14.2347
䄇	-14.2347
夌	-14.2347
庀	-14.2347
忲	-14.2347
恧	-14.2347
惎	-14.2347
愒	-14.2347
慔	-14.2347
憗	-14.2347
憸	-14.2347
抖	-14.2347
挃	-14.2347
搓	-14.2347
暾	-14.2347
柞	-14.2347
楘	-14.2347
橄	-14.2347
氤	-14.2347
氲	-14.2347
滸	-14.2347
濰	-14.2347
獱	-14.2347
琯	-14.2347
畹	-14.2347
瘍	-14.2347
瘵	-14.2347
祏	-14.2347
簟	-14.2347
胈	-14.2347
呶	-14.2348
厔	-14.2349
匷	-14.235
勍	-14.2351
劂	-14.2352
剿	-14.2353
凛	-14.2354
冊	-14.2355
㧀	-14.2355
䀨	-14.2355
劈	-14.2355
壕	-14.2355
奫	-14.2355
娌	-14.2355
嫩	-14.2355
巋	-14.2355
廧	-14.2355
怜	-14.2355
恔	-14.2355
悗	-14.2355
憊	-14.2355
揗	-14.2355
撕	-14.2355
擻	-14.2355
攣	-14.2355
昉	-14.2355
梜	-14.2355
槧	-14.2355
檽	-14.2355
泚	-14.2355
涽	-14.2355
澘	-14.2355
瀋	-14.2355
烘	-14.2355
畯	-14.2355
痒	-14.2355
睞	-14.2355
稈	-14.2355
稙	-14.2355
稭	-14.2355
簦	-14.2355
缷	-14.2355
罋	-14.2355
儌	-14.2356
傜	-14.2357
倆	-14.2358
侑	-14.2359
佾	-14.236
佺	-14.2361
䧿	-14.2362
䛕	-14.2363
㕑	-14.2363
㤙	-14.2363
䅶	-14.2363
䦧	-14.2363
亷	-14.2363
倛	-14.2363
傺	-14.2363
冼	-14.2363
叮	-14.2363
呀	-14.2363
嚀	-14.2363
宁	-14.2363
嵎	-14.2363
嶔	-14.2363
幡	-14.2363
惄	-14.2363
慺	-14.2363
挬	-14.2363
楑	-14.2363
沁	-14.2363
瀇	-14.2363
瀣	-14.2363
熹	-14.2363
璪	-14.2363
璲	-14.2363
瓿	-14.2363
疼	-14.2363
癲	-14.2363
眎	-14.2363
睎	-14.2363
磻	-14.2363
礦	-14.2363
窿	-14.2363
筞	-14.2363
紕	-14.2363
羝	-14.2363
耋	-14.2363
臑	-14.2363
蛁	-14.2363
䇺	-14.2364
㨽	-14.2365
𩥵	-14.2366
𧋈	-14.2367
𦾑	-14.2368
𦋯	-14.2369
𥌓	-14.237
𣗥	-14.2371
㝝	-14.2371
㱕	-14.2371
䌓	-14.2371
䠙	-14.2371
䲷	-14.2371
伔	-14.2371
娛	-14.2371
嫰	-14.2371
屐	-14.2371
徉	-14.2371
拈	-14.2371
捌	-14.2371
描	-14.2371
攧	-14.2371
曀	-14.2371
杙	-14.2371
橜	-14.2371
橝	-14.2371
櫽	-14.2371
毓	-14.2371
涙	-14.2371
獗	-14.2371
獘	-14.2371
玳	-14.2371
珈	-14.2371
瑧	-14.2371
畡	-14.2371
痏	-14.2371
祩	-14.2371
祰	-14.2371
粺	-14.2371
縦	-14.2371
翛	-14.2371
胅	-14.2371
黴	-14.2372
鵒	-14.2373
鴝	-14.2374
驉	-14.2375
鑕	-14.2376
醽	-14.2377
醟	-14.2378
醁	-14.2379
㗸	-14.2379
㝗	-14.2379
㢭	-14.2379
䂄	-14.2379
䄂	-14.2379
䈥	-14.2379
剒	-14.2379
嗺	-14.2379
囘	-14.2379
墊	-14.2379
墣	-14.2379
尙	-14.2379
嵬	-14.2379
庵	-14.2379
怚	-14.2379
戛	-14.2379
抓	-14.2379
捂	-14.2379
搬	-14.2379
曁	-14.2379
梌	-14.2379
殀	-14.2379
殗	-14.2379
殜	-14.2379
滃	-14.2379
爁	-14.2379
璵	-14.2379
硎	-14.2379
筡	-14.2379
篬	-14.2379
綪	-14.2379
綻	-14.2379
鄯	-14.238
磁	-14.238
躇	-14.2381
賌	-14.2382
觿	-14.2383
蠉	-14.2384
蝘	-14.2385
蝍	-14.2386
蓰	-14.2387
㒒	-14.2387
㢮	-14.2387
㧢	-14.2387
㨂	-14.2387
䃘	-14.2387
䄤	-14.2387
䖻	-14.2387
万	-14.2387
伹	-14.2387
俔	-14.2387
偟	-14.2387
僬	-14.2387
劦	-14.2387
吪	-14.2387
唧	-14.2387
啐	-14.2387
嗽	-14.2387
噓	-14.2387
墌	-14.2387
孿	-14.2387
帬	-14.2387
幌	-14.2387
幙	-14.2387
彙	-14.2387
怬	-14.2387
愝	-14.2387
愶	-14.2387
憿	-14.2387
扚	-14.2387
抬	-14.2387
揠	-14.2387
晵	-14.2387
柵	-14.2387
棳	-14.2387
楔	-14.2387
欿	-14.2387
歔	-14.2387
沚	-14.2387
淸	-14.2387
溯	-14.2387
滀	-14.2387
牿	-14.2387
犗	-14.2387
瓉	-14.2387
甒	-14.2387
畾	-14.2387
瞶	-14.2387
砦	-14.2387
磅	-14.2387
磏	-14.2387
礉	-14.2387
礴	-14.2387
簌	-14.2387
胜	-14.2387
臚	-14.2388
碣	-14.2388
繿	-14.2389
簨	-14.239
稃	-14.2391
傐	-14.2391
瘤	-14.2392
痼	-14.2393
琶	-14.2394
徭	-14.2394
琵	-14.2395
㓵	-14.2395
㩁	-14.2395
䛟	-14.2395
丕	-14.2395
佹	-14.2395
傖	-14.2395
儓	-14.2395
劄	-14.2395
匭	-14.2395
厓	-14.2395
啾	-14.2395
坳	-14.2395
埇	-14.2395
夥	-14.2395
妥	-14.2395
婭	-14.2395
惈	-14.2395
扑	-14.2395
搴	-14.2395
昺	-14.2395
晬	-14.2395
暄	-14.2395
曮	-14.2395
杆	-14.2395
椑	-14.2395
楄	-14.2395
楪	-14.2395
欀	-14.2395
沺	-14.2395
泡	-14.2395
淙	-14.2395
瀹	-14.2395
矔	-14.2395
砌	-14.2395
磊	-14.2395
祫	-14.2395
稌	-14.2395
窗	-14.2395
筏	-14.2395
簒	-14.2395
絛	-14.2395
絢	-14.2395
纛	-14.2395
翿	-14.2395
腓	-14.2395
琊	-14.2396
猖	-14.2397
歍	-14.2398
榼	-14.2399
棁	-14.24
栒	-14.2401
挏	-14.2402
悇	-14.2403
㠀	-14.2403
䈕	-14.2403
䊸	-14.2403
䶧	-14.2403
伾	-14.2403
匄	-14.2403
厩	-14.2403
唏	-14.2403
喨	-14.2403
嗈	-14.2403
嚏	-14.2403
圌	-14.2403
妝	-14.2403
妲	-14.2403
帆	-14.2403
庻	-14.2403
彿	-14.2403
怓	-14.2403
戹	-14.2403
拇	-14.2403
挨	-14.2403
揷	-14.2403
摜	-14.2403
攎	-14.2403
斨	-14.2403
晲	-14.2403
朁	-14.2403
柷	-14.2403
棰	-14.2403
樟	-14.2403
樴	-14.2403
檖	-14.2403
檳	-14.2403
汐	-14.2403
洄	-14.2403
洑	-14.2403
渌	-14.2403
滇	-14.2403
熳	-14.2403
燬	-14.2403
獮	-14.2403
獼	-14.2403
瘄	-14.2403
瘙	-14.2403
砳	-14.2403
礩	-14.2403
票	-14.2403
秫	-14.2403
秭	-14.2403
筈	-14.2403
絣	-14.2403
緶	-14.2403
罃	-14.2403
嶸	-14.2404
嵯	-14.2405
嵒	-14.2406
媧	-14.2406
崘	-14.2407
峴	-14.2408
屹	-14.2409
寨	-14.241
媕	-14.2411
瘟	-14.2411
㢓	-14.2411
㦤	-14.2411
䗐	-14.2411
䥢	-14.2411
䨥	-14.2411
䰢	-14.2411
䱇	-14.2411
仭	-14.2411
佈	-14.2411
俵	-14.2411
净	-14.2411
凭	-14.2411
匀	-14.2411
卸	-14.2411
参	-14.2411
听	-14.2411
吽	-14.2411
咵	-14.2411
哥	-14.2411
喫	-14.2411
囐	-14.2411
囬	-14.2411
塋	-14.2411
塯	-14.2411
奐	-14.2411
奓	-14.2411
妁	-14.2411
媛	-14.2411
嫠	-14.2411
寗	-14.2411
尒	-14.2411
庬	-14.2411
廑	-14.2411
异	-14.2411
徦	-14.2411
惣	-14.2411
愊	-14.2411
憮	-14.2411
戡	-14.2411
拍	-14.2411
旡	-14.2411
昕	-14.2411
枱	-14.2411
柁	-14.2411
柎	-14.2411
柺	-14.2411
桿	-14.2411
梔	-14.2411
椯	-14.2411
槱	-14.2411
橿	-14.2411
泪	-14.2411
淒	-14.2411
猎	-14.2411
獒	-14.2411
珤	-14.2411
畆	-14.2411
睇	-14.2411
砮	-14.2411
礓	-14.2411
祔	-14.2411
祜	-14.2411
祺	-14.2411
禔	-14.2411
禜	-14.2411
窊	-14.2411
箄	-14.2411
箤	-14.2411
籜	-14.2411
籲	-14.2411
粰	-14.2411
絅	-14.2411
緅	-14.2411
繺	-14.2411
罽	-14.2411
薩	-14.2411
駏	-14.2411
姐	-14.2412
塿	-14.2413
咤	-14.2414
侁	-14.2415
仾	-14.2416
䝤	-14.2417
齶	-14.2418
齬	-14.2419
㺄	-14.2419
䆳	-14.2419
䋶	-14.2419
䕠	-14.2419
䧎	-14.2419
侜	-14.2419
儗	-14.2419
匯	-14.2419
卻	-14.2419
厘	-14.2419
厶	-14.2419
咳	-14.2419
唆	-14.2419
唵	-14.2419
嚈	-14.2419
嚥	-14.2419
屚	-14.2419
廥	-14.2419
惺	-14.2419
摝	-14.2419
数	-14.2419
朅	-14.2419
朧	-14.2419
机	-14.2419
棞	-14.2419
樀	-14.2419
牱	-14.2419
璩	-14.2419
疪	-14.2419
痍	-14.2419
癉	-14.2419
皷	-14.2419
盌	-14.2419
眸	-14.2419
硤	-14.2419
窻	-14.2419
籖	-14.2419
緱	-14.2419
翥	-14.2419
齟	-14.242
鵔	-14.2421
髻	-14.2422
婺	-14.2422
骾	-14.2423
驀	-14.2424
馥	-14.2425
蚣	-14.2425
餧	-14.2426
闍	-14.2427
肓	-14.2427
菖	-14.2427
㢡	-14.2428
㽵	-14.2428
䏻	-14.2428
凄	-14.2428
凟	-14.2428
凸	-14.2428
凹	-14.2428
呑	-14.2428
哽	-14.2428
喚	-14.2428
噤	-14.2428
娋	-14.2428
媐	-14.2428
嫘	-14.2428
嫪	-14.2428
尻	-14.2428
嵐	-14.2428
找	-14.2428
拕	-14.2428
据	-14.2428
摙	-14.2428
柠	-14.2428
檦	-14.2428
檮	-14.2428
欛	-14.2428
歗	-14.2428
歫	-14.2428
沒	-14.2428
渣	-14.2428
渦	-14.2428
熄	-14.2428
獷	-14.2428
玠	-14.2428
璅	-14.2428
碾	-14.2428
磚	-14.2428
磛	-14.2428
窚	-14.2428
篕	-14.2428
篷	-14.2428
簉	-14.2428
糒	-14.2428
綎	-14.2428
緉	-14.2428
蔕	-14.2428
𣲖	-14.2428
閽	-14.2428
鄂	-14.2429
邕	-14.243
逡	-14.2431
躭	-14.2432
豉	-14.2433
楞	-14.2433
諠	-14.2434
詻	-14.2435
翡	-14.2435
㫁	-14.2436
䗫	-14.2436
仄	-14.2436
伇	-14.2436
佁	-14.2436
儁	-14.2436
刼	-14.2436
吃	-14.2436
呷	-14.2436
塟	-14.2436
夣	-14.2436
姹	-14.2436
惘	-14.2436
憝	-14.2436
懔	-14.2436
懣	-14.2436
摎	-14.2436
撬	-14.2436
柂	-14.2436
楽	-14.2436
榡	-14.2436
橦	-14.2436
淥	-14.2436
獖	-14.2436
玫	-14.2436
瘥	-14.2436
皯	-14.2436
碍	-14.2436
禡	-14.2436
籤	-14.2436
綳	-14.2436
緦	-14.2436
罣	-14.2436
訿	-14.2436
蝀	-14.2437
蚯	-14.2438
蘙	-14.2439
薎	-14.244
芉	-14.2441
羇	-14.2442
繀	-14.2443
髣	-14.2444
㬋	-14.2444
䃴	-14.2444
䤄	-14.2444
丄	-14.2444
偞	-14.2444
偩	-14.2444
努	-14.2444
呂	-14.2444
墀	-14.2444
姣	-14.2444
宮	-14.2444
幰	-14.2444
廩	-14.2444
廳	-14.2444
廿	-14.2444
忸	-14.2444
怏	-14.2444
怩	-14.2444
恇	-14.2444
惋	-14.2444
慇	-14.2444
憇	-14.2444
懃	-14.2444
敍	-14.2444
昞	-14.2444
栭	-14.2444
榣	-14.2444
槔	-14.2444
溧	-14.2444
漩	-14.2444
濓	-14.2444
濳	-14.2444
灈	-14.2444
煢	-14.2444
犍	-14.2444
犐	-14.2444
珂	-14.2444
皿	-14.2444
簸	-14.2444
粘	-14.2444
粤	-14.2444
絯	-14.2444
縿	-14.2444
罛	-14.2444
耔	-14.2444
簧	-14.2445
筲	-14.2446
碕	-14.2447
碏	-14.2448
皛	-14.2449
瑊	-14.245
獎	-14.2451
獅	-14.2452
䦕	-14.2452
䲭	-14.2452
佝	-14.2452
僊	-14.2452
呡	-14.2452
嗴	-14.2452
嘑	-14.2452
帀	-14.2452
愓	-14.2452
沭	-14.2452
濜	-14.2452
瀸	-14.2452
燦	-14.2452
牋	-14.2452
璝	-14.2452
痡	-14.2452
癈	-14.2452
瞭	-14.2452
篠	-14.2452
羵	-14.2452
瀚	-14.2453
泱	-14.2454
毱	-14.2455
棚	-14.2456
㬰	-14.2456
柟	-14.2457
攡	-14.2458
攙	-14.2459
摿	-14.246
蟇	-14.246
䠧	-14.246
唬	-14.246
寥	-14.246
峿	-14.246
楴	-14.246
檸	-14.246
櫩	-14.246
欃	-14.246
歘	-14.246
泒	-14.246
洌	-14.246
渫	-14.246
濇	-14.246
狪	-14.246
玘	-14.246
皤	-14.246
窀	-14.246
絕	-14.246
縲	-14.246
掜	-14.2461
扺	-14.2462
愀	-14.2463
惙	-14.2464
恓	-14.2465
峩	-14.2466
宄	-14.2467
堇	-14.2468
㭘	-14.2468
㱙	-14.2468
䁟	-14.2468
卮	-14.2468
叉	-14.2468
崗	-14.2468
惹	-14.2468
拃	-14.2468
拑	-14.2468
檛	-14.2468
瀦	-14.2468
獠	-14.2468
紓	-14.2468
坌	-14.2469
嚶	-14.247
咷	-14.2471
䱉	-14.2472
䏔	-14.2473
㒁	-14.2474
鷯	-14.2475
魎	-14.2476
㟝	-14.2476
噏	-14.2476
崥	-14.2476
崧	-14.2476
彛	-14.2476
攵	-14.2476
欹	-14.2476
汱	-14.2476
涎	-14.2476
瀬	-14.2476
綋	-14.2476
羖	-14.2476
魍	-14.2477
騠	-14.2478
靂	-14.2479
閃	-14.248
邲	-14.2481
蟋	-14.2482
蟆	-14.2483
蟀	-14.2484
醖	-14.2484
䑓	-14.2484
姫	-14.2484
擪	-14.2484
筑	-14.2484
輈	-14.2484
膀	-14.2485
胱	-14.2486
翱	-14.2487
祲	-14.2488
睺	-14.2489
瘞	-14.249
瑯	-14.2491
瑚	-14.2492
塒	-14.2492
捩	-14.2492
殑	-14.2492
璀	-14.2492
礭	-14.2492
綖	-14.2492
罾	-14.2492
肐	-14.2492
玕	-14.2493
煨	-14.2494
渤	-14.2495
斌	-14.2496
巂	-14.2497
娑	-14.2498
佽	-14.2499
黛	-14.25
嶰	-14.25
殣	-14.25
湜	-14.25
瘻	-14.25
綛	-14.25
𠹑	-14.25
鵡	-14.2501
髹	-14.2502
闒	-14.2503
闐	-14.2504
蟣	-14.2505
蝣	-14.2506
蝙	-14.2507
蜍	-14.2508
埓	-14.2508
扐	-14.2508
暎	-14.2508
硟	-14.2508
芽	-14.2509
瘀	-14.251
狽	-14.2511
淝	-14.2512
泆	-14.2513
氾	-14.2514
旰	-14.2515
忞	-14.2516
厫	-14.2516
厽	-14.2516
皴	-14.2516
嶓	-14.2517
峥	-14.2518
啻	-14.2519
刹	-14.252
亹	-14.2521
乜	-14.2522
㵱	-14.2523
𠾱	-14.2524
琰	-14.2524
㐲	-14.2524
㩘	-14.2524
瀿	-14.2524
胣	-14.2524
鶤	-14.2525
餮	-14.2526
蜘	-14.2527
茯	-14.2528
肄	-14.2529
犓	-14.253
煴	-14.2531
濂	-14.2532
呐	-14.2532
墐	-14.2532
抨	-14.2532
擡	-14.2532
涬	-14.2533
橛	-14.2534
榑	-14.2535
悛	-14.2536
峨	-14.2537
寞	-14.2538
嬙	-14.2539
嚳	-14.254
籕	-14.254
丐	-14.2541
䚩	-14.2542
𢛅	-14.2543
麝	-14.2544
驃	-14.2545
閬	-14.2546
腠	-14.2547
疣	-14.2548
䁝	-14.2548
粳	-14.2548
洳	-14.2549
森	-14.255
旭	-14.2551
悽	-14.2552
嘍	-14.2553
厀	-14.2554
㝱	-14.2555
蓼	-14.2556
硫	-14.2557
皡	-14.2558
憔	-14.2559
吭	-14.256
麒	-14.2561
煌	-14.2562
騫	-14.2563
陘	-14.2564
絍	-14.2565
痤	-14.2566
喟	-14.2567
匐	-14.2568
匍	-14.2569
秣	-14.257
猩	-14.2571
紡	-14.2572
曏	-14.2573
轒	-14.2574
臆	-14.2575
烙	-14.2576
囹	-14.2577
紜	-14.2578
鄲	-14.2579
邯	-14.258
菩	-14.2581
逍	-14.2582
肢	-14.2583
晶	-14.2584
繚	-14.2585
崙	-14.2586
皥	-14.2587
佑	-14.2588
扄	-14.2589
皙	-14.2589
