<unk>	0
<s>	0
</s>	0
為	-4.20568
之	-4.24478
/	-4.29489
(	-4.45871
以	-4.58657
)	-4.59242
一	-4.73318
而	-4.9276
與	-4.9596
也	-4.98889
則	-5.05215
二	-5.12018
其	-5.15203
三	-5.18214
得	-5.24011
即	-5.25294
四	-5.28544
者	-5.44191
○	-5.47831
有	-5.48472
數	-5.54989
)(	-5.58338
五	-5.5836
分	-5.58954
十	-5.60472
六	-5.66117
日	-5.69441
兩	-5.76384
又	-5.77502
度	-5.79552
故	-5.82326
求	-5.86989
法	-5.87069
於	-5.89042
八	-5.9164
用	-5.95155
九	-5.96123
此	-5.9617
在	-5.96412
如	-5.99393
至	-5.99802
七	-6.01818
若	-6.01828
餘	-6.03963
中	-6.05553
是	-6.05608
各	-6.09587
等	-6.11212
亦	-6.12817
上	-6.13374
時	-6.17549
不	-6.20611
加	-6.23585
大	-6.23785
月	-6.24496
積	-6.26287
減	-6.2728
正	-6.28689
皆	-6.29708
作	-6.30052
線	-6.32257
自	-6.33001
半	-6.3383
▁	-6.33957
下	-6.35961
行	-6.36149
及	-6.36764
或	-6.37665
甲	-6.37754
内	-6.38131
方	-6.39849
于	-6.42085
今	-6.42349
同	-6.42819
無	-6.42861
所	-6.43061
後	-6.43902
曰	-6.45205
多	-6.45307
乙	-6.45724
差	-6.4633
/)	-6.50158
爲	-6.52419
人	-6.52635
乃	-6.52747
次	-6.53217
前	-6.53553
天	-6.53607
合	-6.53824
實	-6.55835
矣	-6.55898
子	-6.57523
從	-6.59347
星	-6.5989
小	-6.60218
共	-6.6029
定	-6.63338
丙	-6.63972
見	-6.64324
角	-6.65853
本	-6.67875
長	-6.68673
表	-6.70358
邊	-6.71064
周	-6.71527
形	-6.72079
凡	-6.78043
弧	-6.78345
太陽	-6.78494
徑	-6.78815
當	-6.79038
距	-6.79132
丁	-6.79446
置	-6.79589
必	-6.79782
未	-6.80139
成	-6.81933
因	-6.8269
率	-6.8391
問	-6.84469
測	-6.86771
地	-6.87242
少	-6.88409
之數	-6.90896
較	-6.91164
年	-6.92138
弦	-6.92591
平	-6.94286
乗	-6.9429
乘	-6.94771
厯	-6.9481
取	-6.94828
黄道	-6.95182
十二	-6.95823
非	-6.95942
半徑	-6.96317
髙	-6.96665
外	-6.97452
然	-6.97607
西	-6.97954
步	-6.98708
初	-6.99085
二十	-7.00227
交	-7.00573
心	-7.01686
倍	-7.02164
除	-7.0303
平行	-7.03965
已	-7.05237
入	-7.05567
比	-7.056
明	-7.06541
刻	-7.06966
股	-7.07448
推	-7.07635
甲乙	-7.0796
可	-7.09367
十一月	-7.10831
赤道	-7.11295
相	-7.11526
依	-7.11838
出	-7.1225
過	-7.12511
元	-7.12546
尺	-7.13315
經	-7.1561
復	-7.15682
戊	-7.16101
言	-7.16208
算	-7.16883
原	-7.16889
體	-7.18049
既	-7.18155
設	-7.18369
南	-7.208
立	-7.21024
書	-7.2189
論	-7.22187
每	-7.23043
圖	-7.23336
位	-7.24079
辰	-7.2428
三十	-7.2464
并	-7.24754
名	-7.25026
應	-7.25474
俱	-7.26107
冬至	-7.26906
先	-7.27801
面	-7.28605
又以	-7.29802
北	-7.29833
右	-7.30398
一百	-7.30669
日食	-7.30792
謂	-7.31738
高	-7.32846
食	-7.33284
己	-7.33472
極	-7.34054
云	-7.34641
文	-7.34668
嵗	-7.35183
近	-7.3521
界	-7.36114
圏	-7.3645
變	-7.37133
廣	-7.37585
乙丙	-7.37916
限	-7.3807
視	-7.38101
水	-7.38139
諸	-7.38734
圓	-7.39987
通	-7.41378
百	-7.41635
庚	-7.41984
東	-7.42589
處	-7.42774
和	-7.43071
石	-7.43132
六十	-7.43705
去	-7.43999
内減	-7.44289
併	-7.44384
微	-7.44651
對	-7.44663
直	-7.45509
全	-7.45711
何	-7.46296
里	-7.46615
氣	-7.46629
重	-7.47105
午	-7.47504
雖	-7.4812
生	-7.49448
之度	-7.49937
一度	-7.50818
四十	-7.51371
並	-7.51486
能	-7.5174
秒	-7.518
正弦	-7.52106
㸃	-7.52689
為一率	-7.53847
古	-7.54169
時刻	-7.54465
日月	-7.54874
乎	-7.5495
總	-7.54963
更	-7.55263
三角形	-7.55365
三分	-7.55641
按	-7.55868
寅	-7.55952
令	-7.5602
甲丙	-7.56348
底	-7.57231
知	-7.57644
列	-7.57695
太隂	-7.57768
斜	-7.5789
勾	-7.58011
事	-7.58473
句	-7.59066
光	-7.59222
五十	-7.59722
辛	-7.61554
丑	-7.61893
道	-7.62382
萬	-7.62502
葢	-7.62865
寸	-7.63093
第二	-7.63783
宿	-7.64172
臣	-7.64177
十一	-7.64381
巳	-7.64734
止	-7.65162
景	-7.65562
左	-7.65718
五分	-7.65742
宫	-7.65781
壬	-7.6593
望	-7.65975
焉	-7.66148
惟	-7.66184
相減餘	-7.66339
朔	-7.66368
一分	-7.66529
約	-7.67182
二十四	-7.67799
邉	-7.68125
四分	-7.68214
耳	-7.68703
將	-7.68886
轉	-7.68973
立方	-7.6916
題	-7.6935
商	-7.6954
居	-7.69779
一十	-7.69988
之法	-7.70087
二分	-7.70376
卯	-7.7048
甲丁	-7.70878
始	-7.70929
但	-7.7118
向	-7.71603
起	-7.71693
丙丁	-7.72779
末	-7.72971
十六	-7.74072
加減	-7.74323
金	-7.74613
歲	-7.74715
物	-7.74873
闊	-7.75242
象	-7.76177
再	-7.76309
乙角	-7.76568
虚	-7.77039
所得	-7.77045
零	-7.77183
切	-7.77417
即得	-7.77952
法以	-7.78391
理	-7.78402
逺	-7.78457
除之得	-7.78472
歩	-7.78774
□	-7.79142
盡	-7.79216
南北	-7.79455
銀	-7.8007
乃以	-7.80348
太	-7.8098
開	-7.81021
斤	-7.81161
癸	-7.81466
十五	-7.81548
夫	-7.81899
比例	-7.82405
酉	-7.82458
乙丁	-7.83498
截	-7.8361
易	-7.8383
滿	-7.8395
術	-7.84059
初虧	-7.84076
太陰	-7.84846
之比例	-7.84974
緯	-7.85026
仍	-7.8527
王	-7.85326
章	-7.85619
甲角	-7.8566
不同	-7.85991
欲	-7.86056
謂之	-7.86183
甲戊	-7.86303
根	-7.86466
甲子	-7.86727
度分	-7.86942
為二率	-7.87016
第三	-7.87364
第一	-7.88313
食甚	-7.88414
異	-7.88824
丁戊	-7.89179
次商	-7.89261
冪	-7.89865
離	-7.90151
儀	-7.90343
相等	-7.90403
一日	-7.90437
月食	-7.90724
二十五	-7.9102
夏至	-7.91037
價	-7.91243
載	-7.91247
米	-7.91614
不能	-7.91764
濶	-7.92472
節	-7.92682
圜	-7.92857
地平	-7.92886
斗	-7.93274
相距	-7.93325
紀	-7.93664
宮	-7.93962
深	-7.94317
餘弦	-7.94443
官	-7.94444
象限	-7.9451
直角	-7.94536
為實	-7.94741
得數	-7.94811
宜	-7.9492
移	-7.9513
首	-7.95249
田	-7.95407
六分	-7.95629
常	-7.96176
平方	-7.96223
陽	-7.96295
三十六	-7.963
□□	-7.96339
甚	-7.96446
錢	-7.96514
命	-7.96588
申	-7.96754
戊己	-7.96855
最髙	-7.97592
足	-7.97728
八分	-7.98086
日躔	-7.98159
考	-7.9829
初商	-7.98323
十三	-7.98357
小餘	-7.99222
相減	-7.99311
規	-7.9934
且	-7.99399
史	-7.99946
益	-7.99957
火	-8.00097
句股	-8.00108
漸	-8.00366
丙角	-8.0049
十四	-8.00709
使	-8.01886
説	-8.02302
段	-8.02493
盈	-8.02524
以上	-8.03009
詳	-8.03023
分母	-8.03218
之一	-8.03375
復圓	-8.03376
九十度	-8.03518
十八	-8.03608
九十	-8.03763
直線	-8.03797
安	-8.04075
五星	-8.04338
毎	-8.04665
查	-8.05196
十二月	-8.05203
目	-8.05393
矢	-8.05563
借	-8.05606
卷	-8.06574
為一	-8.06819
亥	-8.06972
二百	-8.06983
照	-8.07049
木	-8.07746
指	-8.08109
元年	-8.08156
垂線	-8.08213
影	-8.0826
横	-8.08415
七分	-8.086
畝	-8.08711
閏	-8.08864
夜	-8.08928
則以	-8.08936
退	-8.09015
空	-8.09653
國	-8.09715
母	-8.09914
正交	-8.10013
律	-8.10024
除之	-8.1008
故以	-8.1009
量	-8.10273
九分	-8.10512
盖	-8.10542
例	-8.10618
實行	-8.10753
隅	-8.11237
相加得	-8.11462
難	-8.11702
乘之得	-8.11891
二十七	-8.11963
就	-8.12077
春分	-8.12101
二十一	-8.12582
乾	-8.12976
相乘	-8.13353
别	-8.1349
前後	-8.13612
彼	-8.13663
相乗	-8.13745
最	-8.14303
卽	-8.14306
山	-8.14592
稱	-8.148
三百	-8.1483
年十一月	-8.14847
緯度	-8.15053
以減	-8.15349
%	-8.15579
隨	-8.15605
猶	-8.15671
自乘	-8.15809
不及	-8.15841
計	-8.15854
乘之	-8.15888
之較	-8.15987
經度	-8.16136
之正弦	-8.16156
均	-8.16211
傳	-8.16346
半周	-8.1638
間	-8.16411
黄	-8.16498
面積	-8.16561
幾何	-8.16604
丁丙	-8.16863
上下	-8.17097
八十	-8.17269
求得	-8.17385
也又	-8.17562
千	-8.1791
漢	-8.17971
東西	-8.18149
據	-8.18471
齊	-8.18602
若干	-8.18613
平分	-8.18888
十月	-8.18906
土	-8.18996
縱	-8.19526
蓋	-8.19559
夘	-8.1978
舊	-8.20155
負	-8.20192
即為	-8.20196
㑹	-8.20232
不可	-8.20355
恒星	-8.20433
假如	-8.20982
三角	-8.21226
容	-8.21542
㣲	-8.21548
進	-8.21657
第四	-8.21786
可以	-8.21811
公	-8.22159
相加	-8.22423
工	-8.23199
一百二十	-8.23615
反	-8.23709
貫	-8.24182
正月	-8.24328
一千	-8.25112
乗之得	-8.25258
改	-8.25312
引	-8.2538
存	-8.25565
丙乙	-8.25772
動	-8.26137
條	-8.26424
丁乙	-8.26713
分為	-8.26905
恒	-8.27104
四率	-8.27349
自乗	-8.27389
七十	-8.27528
白道	-8.28286
二十八	-8.28603
丁角	-8.28648
丈	-8.29017
是為	-8.29069
候	-8.29076
著	-8.29145
輪	-8.29155
筭	-8.30166
帝	-8.30296
次以	-8.30401
為法	-8.30718
大於	-8.30838
丙戊	-8.3089
距度	-8.31341
大小	-8.3142
三十二	-8.31513
不知	-8.31518
馬	-8.31587
○○	-8.32523
城	-8.3263
類	-8.32819
衰	-8.32939
所以	-8.33268
遲	-8.33397
主	-8.33402
矩	-8.33635
宗	-8.33687
折半	-8.33744
乙戊	-8.34373
色	-8.34392
折	-8.34853
終	-8.34931
屬	-8.35313
切線	-8.35422
八尺	-8.35446
運	-8.35948
誤	-8.35965
為三率求得四率	-8.35978
火星	-8.36029
氏	-8.36089
衡	-8.3617
二十二	-8.36176
不等	-8.36309
十分	-8.36756
也若	-8.36922
故曰	-8.36981
他	-8.37176
補	-8.3721
交角	-8.3748
精	-8.37498
不盡	-8.37522
四十八	-8.37562
附	-8.37811
三率	-8.37877
家	-8.38272
之中	-8.39128
幾	-8.39177
偏	-8.39183
三百六十	-8.39262
今有	-8.39359
世	-8.394
五度	-8.39743
解	-8.40036
周天	-8.40256
所謂	-8.40282
節氣	-8.40476
隂	-8.40543
均數	-8.40686
三十度	-8.4087
二率	-8.41228
聲	-8.41464
尖	-8.41575
一率	-8.41578
係	-8.41596
一十六	-8.41692
己庚	-8.418
短	-8.41871
造	-8.42343
庚辛	-8.42465
交食	-8.42935
員	-8.43119
億	-8.43207
應閏	-8.43376
折半得	-8.43454
忽	-8.43758
器	-8.44063
木星	-8.44151
圈	-8.44246
夏	-8.44487
六月	-8.44749
戊丁	-8.45048
六尺	-8.45091
有竒	-8.45186
二十六	-8.45467
北極	-8.45596
斛	-8.45711
球	-8.45721
四十五	-8.45735
减	-8.45867
一尺	-8.45915
參	-8.46002
日行	-8.46071
須	-8.46085
二十三	-8.46123
金星	-8.46217
字	-8.46606
由	-8.46651
三十五	-8.47116
大于	-8.47194
本篇	-8.47312
乙甲	-8.47329
甲乙丙	-8.47342
六十四	-8.47422
晝	-8.47554
甲己	-8.47642
便	-8.47784
之比	-8.4803
似	-8.48074
二月	-8.48096
宋	-8.48273
法曰	-8.48302
之半	-8.48336
號	-8.48432
真	-8.48523
歸	-8.48722
二度	-8.48805
四十九	-8.48982
者以	-8.49061
相當	-8.49141
四百	-8.49151
順	-8.49219
十七	-8.49275
最高	-8.49279
二寸	-8.49331
一卷	-8.49566
銅	-8.50104
左右	-8.50248
環	-8.50529
九月	-8.5059
不用	-8.50784
兩角	-8.5085
勾股	-8.5093
也其	-8.50934
一十二	-8.50988
七十二	-8.51213
秋分	-8.51267
其餘	-8.5153
歳	-8.51574
升	-8.51579
籌	-8.51636
黃道	-8.51671
二尺	-8.51914
全徑	-8.51972
五月	-8.51974
獨	-8.52215
増	-8.52257
絲	-8.52282
端	-8.52333
小輪	-8.5251
布	-8.52677
具	-8.52948
牛	-8.5296
張	-8.52977
壬子	-8.53055
遂	-8.53125
内減去	-8.53241
新	-8.5334
倍之	-8.53397
甲庚	-8.53509
十九	-8.5359
之間	-8.536
準	-8.53918
海	-8.53971
任	-8.5409
四寸	-8.54157
平面	-8.54274
四尺	-8.54306
有餘	-8.54348
一百八十	-8.5477
代	-8.54881
疾	-8.55083
學	-8.55149
午正	-8.55154
到	-8.55203
戊乙	-8.55205
▁BR	-8.55227
三月	-8.55228
七月	-8.55241
戌	-8.55434
視差	-8.56088
相乘得	-8.56193
一寸	-8.56423
損	-8.56567
最卑	-8.56623
分之	-8.56642
房	-8.56997
意	-8.57213
不足	-8.57413
兩線	-8.57417
八月	-8.57779
粟	-8.57815
只	-8.57819
觀	-8.57848
尾	-8.58124
六十度	-8.58839
論曰	-8.58876
土星	-8.58919
頭	-8.59106
廉	-8.59309
受	-8.59324
皆以	-8.59962
引數	-8.60345
之積	-8.60578
所測	-8.60616
義	-8.60636
二年	-8.60637
某	-8.60674
減去	-8.60713
全數	-8.60766
驗	-8.60792
丙甲	-8.60974
倍之得	-8.61038
為實以	-8.61055
四十五度	-8.6113
試	-8.61149
一邊	-8.61184
策	-8.61219
得一	-8.61343
會	-8.61557
分數	-8.61699
中積	-8.62046
互	-8.62293
本天	-8.62406
一十一	-8.62477
東西差	-8.62662
丙子	-8.62883
車	-8.62898
七政	-8.63134
五尺	-8.63185
其法	-8.63319
視行	-8.63503
之理	-8.63725
每邊	-8.63824
井	-8.63881
東行	-8.64326
女	-8.64338
畢	-8.64351
四十二	-8.64625
相對	-8.64795
來	-8.64829
三年	-8.64836
幂	-8.64842
門	-8.64864
疋	-8.64922
次輪	-8.64941
第	-8.65047
授時	-8.65246
竒	-8.65309
六百	-8.65449
户	-8.65455
□□□	-8.65596
又有	-8.6568
圓徑	-8.65718
稍	-8.65988
而得	-8.66039
時差	-8.66189
己丁	-8.6635
相較	-8.6645
為股	-8.66577
遇	-8.66593
六度	-8.66787
其數	-8.6698
釐	-8.67154
神	-8.67195
共得	-8.67247
五十六	-8.67268
數以	-8.67273
察	-8.67326
為弦	-8.67362
細	-8.67601
右行	-8.6781
固	-8.67863
四度	-8.67884
兩數	-8.68014
而不	-8.6812
式	-8.68137
己戊	-8.68147
暦	-8.68154
議	-8.68156
不見	-8.68224
之分	-8.6831
建	-8.68455
水星	-8.68589
方邊	-8.68861
五百	-8.68937
五十四	-8.69122
樂	-8.69224
戊丙	-8.69276
鈍角	-8.69529
壬癸	-8.69584
日之	-8.69588
發	-8.69739
各有	-8.69792
種	-8.69993
求其	-8.70082
一百五十	-8.70152
二十九	-8.70191
失	-8.70355
旁	-8.70457
省	-8.70476
一萬	-8.70573
月離	-8.70727
而以	-8.70804
凖	-8.70826
丁己	-8.70992
然後	-8.7124
乗之	-8.71259
備	-8.71374
方形	-8.7147
河	-8.71529
出入	-8.71553
新法	-8.71977
箕	-8.72054
遠	-8.72058
第五	-8.72124
之差	-8.72133
音	-8.72291
留	-8.72322
冬	-8.72363
單	-8.72371
數也	-8.72496
陳	-8.7253
一百六十	-8.72737
小分	-8.72782
六寸	-8.72877
逺近	-8.73021
形之	-8.73202
羅	-8.73244
亦等	-8.7333
七度	-8.73367
悉	-8.73492
帶	-8.73681
正方	-8.73876
唐	-8.73882
畫	-8.74022
則其	-8.74403
一十三	-8.74461
四月	-8.74668
測得	-8.74781
晝夜	-8.74813
将	-8.74919
八十一	-8.75043
三寸	-8.7539
辛壬	-8.75391
内容	-8.75401
三十七	-8.75483
也故	-8.75552
十五度	-8.75718
天頂	-8.75732
厚	-8.75799
二百四十	-8.75823
四年	-8.76115
之下	-8.76135
寄	-8.76337
尚	-8.76377
雲	-8.76615
一十八	-8.76733
樹	-8.76949
三十三	-8.77018
正方形	-8.77029
是也	-8.77286
減之	-8.7729
亷	-8.77474
篇	-8.77496
該	-8.77605
一十七	-8.77736
之上	-8.78843
如前	-8.78872
即以	-8.78977
晦	-8.79146
一十四	-8.7922
地心	-8.79257
三尺	-8.79326
三度	-8.79363
簡	-8.79434
疑	-8.7961
行度	-8.79776
變為	-8.79786
要	-8.79789
甲乙丙丁	-8.79947
畧	-8.80144
逆	-8.80225
開方	-8.80524
星在	-8.80584
乙己	-8.80659
經緯	-8.80919
盈縮	-8.80962
也以	-8.80998
也如	-8.81051
為正	-8.81163
制	-8.81187
力	-8.81293
方積	-8.81355
亦同	-8.81502
先以	-8.81645
司	-8.81656
作一	-8.81663
九尺	-8.81679
之面積	-8.8171
晷	-8.8204
點	-8.82066
距地	-8.82322
部	-8.82598
之假數	-8.82703
風	-8.82764
所作	-8.82915
之實	-8.82947
中心	-8.83118
解曰	-8.83154
髙弧	-8.83257
初度	-8.83375
不得	-8.83422
二五	-8.83498
哉	-8.83546
麥	-8.83596
修	-8.83611
為底	-8.83785
遲疾	-8.84426
取其	-8.84698
朔日食	-8.84796
兩邊	-8.84802
本輪	-8.84834
志	-8.84876
九十六	-8.85337
自乘得	-8.8541
三十八	-8.85493
分秒	-8.85526
句股形	-8.85612
餘實	-8.85714
言之	-8.85853
絹	-8.85935
十度	-8.86006
用時	-8.86024
丁甲	-8.86098
加入	-8.8611
本日	-8.86247
氐	-8.86319
一百四十	-8.86495
愈	-8.86543
州	-8.86578
軸	-8.86686
亢	-8.86807
八度	-8.8685
白	-8.87058
長方	-8.87322
故也	-8.87328
相似	-8.87506
支	-8.87632
開方得	-8.87662
隔	-8.87837
九百	-8.8794
池	-8.87989
亦即	-8.87991
一十九	-8.88014
宻	-8.88036
管	-8.88073
自之得	-8.88233
記	-8.88566
朝	-8.88727
首位	-8.88737
五千	-8.88842
六宫	-8.88863
化	-8.89104
小于	-8.89176
丙庚	-8.89211
求之	-8.8931
是以	-8.89421
内外	-8.89477
室	-8.89544
層	-8.89563
致	-8.89571
八十四	-8.89585
虛	-8.89614
二四	-8.89742
以後	-8.8976
顯	-8.89808
相併	-8.8997
本年	-8.89995
甲寅	-8.90091
自乗得	-8.90099
也然	-8.90164
半之	-8.90165
納	-8.90231
弱	-8.90298
八百	-8.9037
辛巳	-8.90382
相乗得	-8.90419
以下	-8.90576
幾何法以	-8.9059
所用	-8.90623
舉	-8.90797
上方	-8.90948
一十五	-8.91222
為勾	-8.91259
格	-8.91269
乙丑	-8.91287
靣	-8.91356
為直角	-8.91416
注	-8.91491
丁巳	-8.91492
戊子	-8.9163
昏	-8.9171
如圖	-8.91723
兵	-8.91794
七十六	-8.91839
自行	-8.91909
也今	-8.91912
縮	-8.92031
两	-8.9204
之外	-8.92049
春	-8.92105
以乘	-8.92145
月行	-8.92204
人目	-8.92553
丙己	-8.92568
圍	-8.92582
毫	-8.9272
其所	-8.92791
先得	-8.92893
二三	-8.93093
者則	-8.93131
而一得	-8.93198
人數	-8.93219
三十一	-8.9323
甲辛	-8.93452
子午圏	-8.93532
匹	-8.93533
戊寅	-8.93559
之行	-8.9356
之所	-8.93581
爻	-8.93816
伏	-8.93865
庚子	-8.93903
分子	-8.93913
何以	-8.9394
用法	-8.94027
等則	-8.94129
一丈	-8.94181
頂	-8.94211
子午	-8.94598
亦有	-8.94703
之比同於	-8.94782
距緯	-8.95107
而後	-8.95168
者為	-8.95218
五十五	-8.95293
三十九	-8.95448
推算	-8.95634
左行	-8.95732
五年	-8.95774
一㸃	-8.95824
與乙	-8.95842
斜行	-8.96195
乙庚	-8.96305
之弧	-8.96449
北極出地	-8.9663
三十四	-8.96656
亦得	-8.96685
三日	-8.96701
小於	-8.96821
今以	-8.96841
聞	-8.96851
一六	-8.96883
偕	-8.96895
外角	-8.97027
一二	-8.9712
日在	-8.97163
既得	-8.97228
戊庚	-8.97409
曲	-8.97511
掩	-8.97605
九寸	-8.97628
衆	-8.97644
覆	-8.97646
帶食	-8.97705
總數	-8.97956
原數	-8.98034
之餘弦	-8.98112
近時	-8.98322
○○○○○○○○	-8.98328
癸丑	-8.98578
月體	-8.98615
旋	-8.98618
隻	-8.98661
十五分	-8.98741
一位	-8.98789
亦為	-8.98841
加一	-8.98929
至於	-8.98971
兩形	-8.99105
四十四	-8.99389
一一	-8.99407
戊角	-8.99444
第六	-8.99444
七十五	-8.9974
五寸	-8.99782
歴	-8.99869
二日	-8.99926
大餘	-8.99939
方程	-9.00056
相同	-9.0006
羃	-9.00124
殊	-9.00235
累	-9.00325
適	-9.00424
徳	-9.00571
為三率	-9.00626
十五日	-9.00629
乙辛	-9.00788
略	-9.00912
嵗正月	-9.01136
晨	-9.01283
三六	-9.01366
髙度	-9.01442
七百	-9.01476
春秋	-9.01478
四八	-9.01527
祀	-9.01528
利	-9.01583
聖	-9.01628
八寸	-9.01824
丙辛	-9.01865
壬寅	-9.01873
三商	-9.01873
給	-9.01895
乙巳	-9.01995
歲正月	-9.02007
丁庚	-9.02013
徴	-9.02136
等而	-9.02454
戊甲	-9.02491
其理	-9.02517
庚辰	-9.02547
以此	-9.02552
丁丑	-9.02574
己辛	-9.02616
者也	-9.02657
十尺	-9.02803
厯法	-9.03083
七尺	-9.03084
宿度	-9.03261
之處	-9.03266
一人	-9.03314
為法除之得	-9.03369
功	-9.03385
叚	-9.03399
互乗	-9.03462
每日	-9.0347
箇	-9.03516
庚乙	-9.0395
而成	-9.0397
而一	-9.03993
臺	-9.04042
者皆	-9.04083
也設如	-9.04097
庚己	-9.04249
三四	-9.04288
三分之一	-9.04369
起算	-9.04431
孔	-9.04433
耶	-9.04748
術曰	-9.04753
圜界	-9.04797
四分之一	-9.0483
之時	-9.04952
積度	-9.04961
庚丁	-9.0515
己亥	-9.05169
不合	-9.05233
眞數	-9.05234
盤	-9.05274
甲辰	-9.05373
丁辛	-9.05407
柱	-9.05426
四十一	-9.05482
加時	-9.05687
正方體	-9.0569
相去	-9.05704
線與	-9.05919
最大	-9.06098
强	-9.06154
食限	-9.06233
亦可	-9.06312
樞	-9.06325
必等	-9.0633
己丙	-9.06345
甲午	-9.06347
日出	-9.06369
子正	-9.0659
八十八	-9.06725
甲申	-9.0681
南行	-9.06816
六六	-9.06939
船	-9.06995
戊辰	-9.07025
一時	-9.07031
豈	-9.0733
危	-9.07382
識	-9.07415
再以	-9.07422
如是	-9.07544
四百八十	-9.07607
十二分	-9.07789
其一	-9.07899
降	-9.07943
合朔	-9.08066
序	-9.08156
五十七	-9.0818
距日	-9.08315
九六	-9.08554
天之	-9.08604
窺	-9.08729
也葢	-9.08871
両	-9.09008
食分	-9.09021
奏	-9.09076
減餘	-9.09489
庚戊	-9.09493
速	-9.09734
泛	-9.09761
測之	-9.09787
中星	-9.09845
角形	-9.09879
割線	-9.10037
並同	-9.10061
定朔	-9.1035
與甲	-9.10453
三角形之	-9.10488
一五	-9.10581
長方形	-9.106
旦	-9.10602
南北差	-9.1063
卦	-9.1069
丙寅	-9.107
永	-9.10724
四十六	-9.10829
萬里	-9.11067
久	-9.11125
形有	-9.11181
平差	-9.11234
渾圓	-9.11245
銀數	-9.11336
辛丑	-9.11419
日數	-9.1154
日光	-9.11627
尤	-9.11639
崇禎	-9.11791
方根	-9.11837
信	-9.11847
之後	-9.1186
距交	-9.11962
大圏	-9.11969
五日	-9.12074
占	-9.12165
說	-9.12171
之心	-9.12173
乙酉	-9.12259
體之	-9.12272
子丑	-9.12283
五十三	-9.12289
較數	-9.12363
四十七	-9.12437
六十三	-9.12445
師	-9.12522
戸	-9.12537
半之得	-9.12539
六十六	-9.12757
所推	-9.12843
地半徑差	-9.1309
合伏	-9.13214
辨	-9.13276
以定	-9.13277
股弦和	-9.13305
衝	-9.13375
二至	-9.13498
同度	-9.13552
綫	-9.13561
兼	-9.13598
壬申	-9.13762
三千	-9.13811
己未	-9.13825
善	-9.13959
方面	-9.13998
推之	-9.14102
距弧	-9.14126
士	-9.14165
因之得	-9.14211
五十二	-9.14402
六年	-9.1443
所求	-9.14577
年正月	-9.14611
製	-9.14632
名曰	-9.14693
割	-9.14725
連	-9.14725
庚午	-9.14932
庚寅	-9.14995
赤	-9.15039
丁亥	-9.15045
甲丙邊	-9.15091
癸巳	-9.15111
庚壬	-9.15118
逐	-9.15126
赤道經度	-9.1516
雨	-9.15181
戊午	-9.15192
如法	-9.15291
地球	-9.15352
斯	-9.15417
外周	-9.15439
測驗	-9.15489
春秋分	-9.15511
一周	-9.15517
▁(	-9.15647
五十八	-9.15651
四十三	-9.15722
辛未	-9.15828
二百七十	-9.15863
渾	-9.15872
得其	-9.15893
還	-9.15914
用之	-9.15993
宫度	-9.16049
之比例若	-9.16213
黄鐘	-9.16257
地面	-9.16317
若以	-9.16332
己乙	-9.16362
盛	-9.16495
二線	-9.16504
繩	-9.16508
七五	-9.16572
坤	-9.16833
第七	-9.17001
又置	-9.1706
武	-9.17205
五十九	-9.17207
勾股形	-9.17233
夜半	-9.17278
度數	-9.17284
增	-9.17299
亦必	-9.17322
己丑	-9.17498
癸亥	-9.17582
餘為	-9.1759
一段	-9.17607
天下	-9.17614
之餘	-9.17643
僅	-9.17668
之髙	-9.17738
壬辰	-9.17963
而其	-9.17968
朒	-9.1798
特	-9.18
小差	-9.18045
十萬	-9.18114
甲壬	-9.18122
厯元	-9.18257
晉	-9.18275
可見	-9.18303
相交	-9.18393
不過	-9.18439
交周	-9.18445
一刻	-9.18465
損益	-9.1847
十二尺	-9.1871
躔	-9.18711
羊	-9.18723
纎	-9.18782
大差	-9.18863
儀器	-9.18894
己巳	-9.19102
城徑	-9.19135
路	-9.19139
密	-9.19181
之數也	-9.19197
統	-9.19322
股弦較	-9.19355
乙未	-9.19377
期	-9.19444
治	-9.19506
清	-9.19563
天地	-9.1973
五六	-9.19899
語	-9.199
也此	-9.20015
太陽平行	-9.20039
為大	-9.20046
莫	-9.20063
九度	-9.20158
南極	-9.20232
兩極	-9.20287
癸未	-9.20307
多寡	-9.20312
五十一	-9.20318
魏	-9.2032
全分	-9.20422
線上	-9.20474
之説	-9.20541
左旋	-9.20598
身	-9.20664
思	-9.20665
辛亥	-9.20731
太白	-9.20785
中交	-9.21113
却	-9.21121
二八	-9.21208
高弧	-9.21251
甲戌	-9.21348
舊法	-9.21405
丙戌	-9.21421
疏	-9.21432
與甲乙	-9.21673
尺為	-9.21774
而已	-9.21807
監	-9.21891
為二	-9.22015
壬午	-9.22068
然則	-9.22073
如此	-9.22107
二千	-9.22146
二百八十	-9.22211
五十度	-9.22265
天正冬至	-9.22276
古今	-9.2234
體積	-9.22378
各得	-9.22387
三星	-9.22393
辛酉	-9.22455
之内	-9.22455
另	-9.22481
其積	-9.22563
所分	-9.22742
三邊	-9.22823
鋭	-9.22895
丙午	-9.23026
為比例	-9.2309
印度	-9.2313
余	-9.23343
甲乙線	-9.23419
得二	-9.23442
兩心差	-9.23481
又如	-9.23564
乙亥	-9.23595
承	-9.23775
審	-9.23805
同名	-9.23927
漏	-9.24024
民	-9.2407
所在	-9.24085
七日	-9.24097
加分	-9.24125
震	-9.24152
古法	-9.24177
則為	-9.24209
曜	-9.24229
a	-9.24241
勾弦較	-9.24245
真時	-9.24301
九五	-9.24376
果	-9.24583
天元	-9.24602
五五	-9.24607
線為	-9.24618
七九	-9.24654
三之一	-9.24655
徵	-9.2485
一秒	-9.2502
b	-9.25034
四五	-9.25059
即是	-9.25086
黄道度	-9.25094
庚丙	-9.25101
也凡	-9.25146
二星	-9.25153
所設	-9.25204
厯家	-9.25222
請	-9.25378
六九	-9.25388
黄平象限	-9.25412
閏月	-9.2547
中率	-9.25479
窮	-9.25562
併徑	-9.25573
袤	-9.25703
己酉	-9.25888
相比	-9.25945
我	-9.26022
乙丙邊	-9.26113
一分内一秒冬至	-9.26139
四千	-9.26152
因之	-9.26205
月在	-9.26377
其中	-9.26384
地半徑	-9.26395
之角	-9.26409
相遇	-9.26434
黄赤道	-9.2644
豪	-9.26511
坎	-9.26562
兩腰	-9.26594
鐵	-9.26647
整	-9.26703
以乗	-9.26932
戊申	-9.26957
壁	-9.26997
七七	-9.27071
各以	-9.27175
甲乙邊	-9.2719
天正	-9.27212
一年	-9.2722
五七	-9.27224
梁	-9.27226
外切	-9.27359
四七	-9.27427
視徑	-9.27494
於是	-9.27567
以加	-9.27588
依法	-9.27653
之長	-9.27857
命為	-9.27874
相減得	-9.27891
九九	-9.27901
丙辰	-9.27929
癸子	-9.28106
婁	-9.28203
四時	-9.28259
證	-9.28262
軍	-9.28264
不食	-9.28288
皆為	-9.28411
空位	-9.28486
蔀	-9.28512
縁	-9.28638
際	-9.28834
偶	-9.28871
相應	-9.28989
攷	-9.29066
為心	-9.29078
八六	-9.2913
以前	-9.29186
三宫	-9.29204
所行	-9.29221
通弦	-9.29441
萬零	-9.29505
一九	-9.29516
均輪	-9.29607
九二	-9.29654
二丈	-9.29801
秋	-9.29825
青	-9.2984
知其	-9.29847
為黄道	-9.29901
日入	-9.29933
西洋	-9.2998
立差	-9.30023
去之	-9.30143
二百五十	-9.30293
欽定四庫全書	-9.30308
術曰置	-9.30324
辛庚	-9.30469
萬二千	-9.30616
丁酉	-9.30621
三九	-9.30648
立成	-9.30692
三十分	-9.30747
三三	-9.30748
之體	-9.30768
庚申	-9.3077
丁未	-9.30812
中垂線	-9.3082
嵗差	-9.30872
而無	-9.30923
二刻	-9.30945
者即	-9.3096
鄭	-9.31085
一星	-9.31112
孫	-9.3115
之類	-9.31188
六四	-9.31285
政	-9.31309
陽厯	-9.31369
亦不	-9.31474
乙數	-9.31561
一象限	-9.31691
一百一十	-9.31698
者其	-9.3178
壬戌	-9.31835
十三度	-9.31878
與甲丙	-9.31906
視緯	-9.31982
復以	-9.31986
四十度	-9.3199
己角	-9.31998
註	-9.32026
得四	-9.32045
看	-9.32052
之比即同於	-9.32066
二十度	-9.32121
者乃	-9.32215
辛夘	-9.32248
太陽在	-9.32345
食既	-9.32358
以求	-9.32372
月之	-9.32419
六十分	-9.32538
四六	-9.32546
收	-9.32577
剖	-9.3258
弧之正弦	-9.32703
與乙丙	-9.32729
爾	-9.32769
一面	-9.32837
圜徑	-9.32924
見食	-9.32926
七年	-9.32985
腰	-9.33022
三百五十	-9.33036
除實	-9.3317
也夫	-9.33172
禮	-9.33208
丁壬	-9.33234
流	-9.3327
所見	-9.33281
昴	-9.33307
旣	-9.33318
此法	-9.33377
不必	-9.33456
立法	-9.33462
撱圓	-9.33496
六十八	-9.335
君	-9.33533
最逺	-9.33578
勾股和	-9.33652
一百三十	-9.33659
二角	-9.33729
録	-9.33766
故其	-9.33835
壬辛	-9.33887
第十	-9.3415
三人	-9.34213
所餘	-9.34236
兆	-9.34248
其正弦	-9.34366
或以	-9.34369
不動	-9.34459
十二時	-9.34589
八八	-9.34681
一步	-9.34723
御	-9.34799
二千五百	-9.3484
衰數	-9.34956
二七	-9.34976
倣此	-9.35212
第八	-9.35224
三倍	-9.35423
三百二十	-9.35426
縣	-9.35433
龍	-9.35459
為主	-9.35471
月距日	-9.3548
吾	-9.35502
癸酉	-9.35514
艮	-9.35527
府	-9.35537
西法	-9.35746
七十八	-9.35801
七八	-9.35978
闕	-9.35981
庚戌	-9.35988
矩度	-9.36009
算得	-9.36037
二十九日	-9.361
之價	-9.36108
二百一十	-9.36169
都	-9.36203
之比也	-9.3623
射	-9.36238
亦然	-9.3637
丨	-9.36379
渾儀	-9.36483
銖	-9.36533
報	-9.36834
辛乙	-9.36878
得九	-9.36927
藏	-9.36956
分步之	-9.37094
勾弦和	-9.37097
丙申	-9.3725
可得	-9.37367
函	-9.37376
先求	-9.37423
本行	-9.37449
往	-9.37477
零四	-9.37484
太陽之	-9.37743
巽	-9.37763
勝	-9.37763
列之	-9.37779
約之	-9.37805
乙壬	-9.37904
兩行	-9.37992
相差	-9.38015
一角	-9.38297
大距	-9.38407
䇿	-9.38423
其度	-9.3845
也設如有	-9.38481
赤道度	-9.38507
之月	-9.38582
己壬	-9.38664
之界	-9.38679
勺	-9.3875
再加	-9.38796
八分内三十一秒冬至	-9.38818
首朔	-9.38849
萬七千	-9.3886
本道	-9.38877
之半徑	-9.38882
矣故	-9.38883
長短	-9.38929
四星	-9.38972
見其	-9.39021
鏡	-9.39022
日法	-9.39174
林	-9.39185
減之餘	-9.3921
確	-9.39213
一小時	-9.39267
勾股較	-9.39357
正角	-9.39428
命分	-9.39439
循	-9.39444
三十日	-9.39564
方位	-9.39569
每人	-9.39603
越	-9.39647
謬	-9.39647
測量	-9.39678
○○○	-9.39803
案	-9.39862
萬九千	-9.39876
六日	-9.39886
設時	-9.39942
息	-9.3996
了	-9.40101
勢	-9.40117
雜	-9.40118
由旬	-9.40268
二人	-9.40314
推得	-9.40319
數為	-9.40372
差分	-9.40383
之正切	-9.40393
其比例	-9.40505
已上	-9.40557
六八	-9.40582
黃	-9.40635
乙夘	-9.40652
有二	-9.40804
七十三	-9.40897
質	-9.41028
正午	-9.41029
升度	-9.41069
一千六百	-9.41103
大衍	-9.41107
即如	-9.41125
換	-9.41183
何也	-9.41249
最近	-9.41427
買	-9.4149
所載	-9.41501
興	-9.41529
廿	-9.41552
五十分	-9.41559
負隅	-9.41576
仰	-9.41811
内有	-9.41913
覺	-9.4198
德	-9.42016
互乘	-9.42028
對弧	-9.42255
根與	-9.42346
皆有	-9.4236
副	-9.42364
弧為	-9.42365
多於	-9.42403
纖	-9.42443
零八	-9.42501
六十二	-9.42668
於此	-9.42807
甲癸	-9.42817
遺	-9.42835
曉	-9.42849
和數	-9.42862
為小	-9.42903
錯	-9.42913
七寸	-9.42915
之日	-9.42962
缺	-9.42967
尋	-9.42991
皆同	-9.43008
夕	-9.4309
古人	-9.43142
按此	-9.43212
戊戌	-9.43244
則有	-9.4326
右旋	-9.43292
一千二百	-9.43345
所差	-9.43354
奎	-9.43376
進退	-9.43497
球體	-9.435
則用	-9.43543
大分	-9.43747
六五	-9.4379
帶縱	-9.43834
隂陽	-9.43841
二十四度	-9.43998
黄赤	-9.44022
相合	-9.44178
之形	-9.44319
京	-9.44357
零五	-9.44374
寫	-9.444
聚	-9.44412
口	-9.4445
亦以	-9.44464
乙丙丁	-9.44544
大矢	-9.44603
陰	-9.44603
一根	-9.44627
之邊	-9.4468
得六	-9.44722
諸星	-9.44732
十五尺	-9.44738
秦	-9.44838
是故	-9.44854
三丈	-9.44891
作直線	-9.44923
平圓	-9.44962
大股	-9.44976
開平方得	-9.4512
蒙	-9.45252
臨	-9.45282
成一	-9.45322
業	-9.4535
兩位	-9.45391
六萬	-9.45477
天體	-9.45505
三七	-9.45508
單位	-9.45603
八九	-9.45631
一曰	-9.45647
庚甲	-9.45672
八五	-9.45709
則此	-9.45751
減一	-9.45787
虧	-9.45873
卯酉	-9.45938
半弦	-9.45942
對角線	-9.46025
戊辛	-9.46108
授時厯	-9.46401
中距	-9.46493
八十七	-9.46541
枚	-9.46549
等即	-9.46676
騐	-9.46704
習	-9.46835
一直線	-9.46891
寸為	-9.47007
十八度	-9.47108
不然	-9.47176
三百六十度	-9.47208
七六	-9.47232
仲	-9.47266
日出入	-9.47297
求積	-9.47324
蝕	-9.47349
如上	-9.47356
乙為	-9.47382
積日	-9.47443
和較	-9.4745
圜内	-9.47456
積年	-9.47475
又加	-9.4748
三八	-9.47523
此時	-9.47588
七曜	-9.47603
距午	-9.47706
分三十秒	-9.47793
題言	-9.4781
朔望	-9.47907
為三率得四率	-9.48065
者亦	-9.48086
二十四尺	-9.48222
祖	-9.48262
十二年	-9.4829
可知	-9.48345
横線	-9.48399
大弦	-9.48464
圜之	-9.48539
隂厯	-9.48565
典	-9.48569
平方開之得	-9.48647
背	-9.48714
直角形	-9.48772
七十九	-9.48782
十字	-9.48813
之地	-9.48839
鋭角	-9.48869
而止	-9.48927
用數	-9.4898
晦日食	-9.49
當時	-9.49017
辛丁	-9.49131
局	-9.49281
卒	-9.49285
與丙	-9.49292
一三	-9.49355
兩弧	-9.49355
性	-9.49384
與丁	-9.49447
等故	-9.49546
三十六度	-9.49553
設如有	-9.49556
二十尺	-9.49564
八十九	-9.49629
十一分	-9.49682
黄極	-9.49686
羽	-9.49744
等邊	-9.49871
為負	-9.49881
務	-9.49891
千里	-9.49894
在北	-9.49962
兩弦	-9.49981
汎	-9.49995
得三	-9.50036
庚角	-9.50096
㡬何	-9.50105
六三	-9.5028
二二	-9.50304
翼	-9.50386
視之	-9.50394
加差	-9.50411
羣	-9.50552
其實	-9.5062
之根	-9.50696
嘗	-9.50737
一七	-9.50839
嵗實	-9.50852
七百二十	-9.50886
芒	-9.50895
第九	-9.50995
與戊己	-9.51016
有三	-9.5103
時分	-9.51115
二十分	-9.51141
三萬	-9.51156
法求得	-9.51175
一百七十	-9.51256
在天	-9.51279
撰	-9.51382
黒	-9.51459
者必	-9.5151
經緯度	-9.51617
之切線	-9.51631
萬厯	-9.51682
四四	-9.51802
二十三度	-9.51828
弧矢	-9.5185
九千	-9.51983
辛丙	-9.52011
既為	-9.52231
相近	-9.52279
儒	-9.52285
等數	-9.52306
前法	-9.52314
側	-9.52483
角度	-9.52518
萬八千	-9.52541
杪	-9.52599
九八	-9.52603
錐	-9.52629
甲丁丙	-9.52714
答曰	-9.52952
繁	-9.52997
正中	-9.53048
九章	-9.53053
第谷	-9.5308
容方	-9.53086
設如	-9.53088
不論	-9.53159
甲東行	-9.53233
二萬	-9.53248
得一百	-9.53283
直角方形	-9.53311
鳥	-9.53465
校	-9.53514
次日	-9.53539
品	-9.53567
為加	-9.53613
二百九十	-9.53627
此數	-9.5363
三百六十五日	-9.53728
法用	-9.53758
值	-9.53818
九十九	-9.53945
必為	-9.53969
之底	-9.54001
交二十六日	-9.5405
究	-9.54077
同類	-9.54078
訛	-9.54109
欲知	-9.54141
嵗輪	-9.54156
二六	-9.54237
四兩	-9.54258
一百九十	-9.54301
小股	-9.54337
對角	-9.5436
大統	-9.54361
與前	-9.54543
寛	-9.54566
孝	-9.54583
十二度	-9.54605
丙壬	-9.5466
手	-9.54661
九日	-9.54753
八千	-9.54799
大方	-9.54923
必有	-9.54992
二步	-9.55025
兩邉	-9.55033
全周	-9.55057
月道	-9.55057
隠	-9.55118
伏見	-9.55136
佛	-9.55181
錫	-9.55222
垣	-9.55224
个	-9.55268
法曰置	-9.55544
一尺二寸	-9.55601
十九年	-9.55623
為赤道	-9.55631
平行線	-9.55684
兮	-9.55701
則成	-9.55733
之面	-9.55762
小方	-9.55773
之率	-9.55847
七十七	-9.55867
假如有	-9.55921
四三	-9.55981
乙卯	-9.56005
草	-9.56052
必在	-9.56118
十一年	-9.56118
癸卯	-9.56152
况	-9.5622
正負	-9.56281
相對之	-9.56368
九百四十	-9.56391
一百四十四	-9.564
奉	-9.56411
三位	-9.56444
閏餘	-9.56532
六十五	-9.56556
之逺	-9.56612
定差	-9.56664
本時	-9.5674
戊巳	-9.56779
寒	-9.56832
三因	-9.56933
法推	-9.56956
七十一	-9.56983
四刻	-9.57014
法也	-9.57051
仍得	-9.57111
小數	-9.57174
甲乙丁	-9.57188
即成	-9.572
舍	-9.57295
萬五千	-9.57311
互相	-9.57317
三五	-9.57404
己甲	-9.57457
四日	-9.5749
又為	-9.57526
二百六十	-9.57539
各星	-9.57571
本銀	-9.5758
可求	-9.57703
次形	-9.57778
經朔	-9.57828
魯	-9.57873
數與	-9.57935
八日	-9.57964
角等	-9.58004
推步	-9.58045
距天頂	-9.58125
所當	-9.5814
同於	-9.58157
銳角	-9.58259
四九	-9.5831
二千四百	-9.58335
整數	-9.58384
一行	-9.58452
檢	-9.58491
圓周	-9.58611
交終	-9.58636
謹	-9.58726
斷	-9.58779
地影	-9.58812
黍	-9.58823
八七	-9.58852
天文	-9.58904
述	-9.58991
十秒	-9.59026
是月	-9.59035
完	-9.59065
其差	-9.59097
之距	-9.59131
戊己庚辛	-9.59135
所得之	-9.59247
通積分	-9.59344
寔	-9.59417
則加	-9.59496
之共數	-9.59504
徒	-9.59547
遞加	-9.59555
幾何答曰	-9.59589
立表	-9.59733
距分	-9.59754
矣又	-9.59758
逆行	-9.59769
度三十分	-9.59822
厯書	-9.59897
正切	-9.59989
二十八宿	-9.60071
庶	-9.60091
五三	-9.60244
今推	-9.60433
月天	-9.60566
周髀	-9.60762
半徑為	-9.60796
四二	-9.60952
積數	-9.60962
零三	-9.61125
癸夘	-9.61156
為乙	-9.61164
鐘	-9.6117
未時	-9.61178
渾天	-9.61183
此二	-9.61198
丙為	-9.61238
毎日	-9.61331
得二十	-9.61336
鈍	-9.61373
圜形	-9.61394
辛卯	-9.61436
百年	-9.61467
餘分	-9.61506
大句	-9.61556
面之	-9.61605
出於	-9.6169
之義	-9.61834
宣	-9.61844
亂	-9.61849
守	-9.61849
甲丑	-9.61852
調	-9.61875
九年	-9.61891
早	-9.61894
矣然	-9.6194
遞	-9.61995
不言	-9.62033
與赤道	-9.62058
六千	-9.62119
低	-9.62121
則是	-9.62266
明勾	-9.6231
鬼	-9.62321
兩三角形	-9.62326
塹堵	-9.62351
昭	-9.62389
中分	-9.62404
散	-9.62425
兹	-9.62462
訂	-9.62473
座	-9.62506
之位	-9.62518
凌犯	-9.62529
一石	-9.6256
之星	-9.62635
假	-9.62729
黄道之	-9.62739
定位	-9.62743
七千	-9.62743
六十九	-9.628
壬乙	-9.62866
於上	-9.62867
高度	-9.62873
包	-9.6289
程	-9.62901
相併得	-9.62909
小句	-9.62974
情	-9.63056
得一十	-9.63075
列位	-9.63117
朱	-9.63149
五萬	-9.63156
距冬至	-9.63196
一月	-9.632
丁戊己	-9.63223
一十五度	-9.63224
東南	-9.63232
為兩	-9.63242
八十六	-9.63245
定時	-9.63431
合之	-9.63461
爲法	-9.63481
暗	-9.63506
𤣥	-9.63529
栁	-9.63579
日差	-9.63589
中國	-9.63671
又法	-9.63847
通勾	-9.63878
四之一	-9.63959
其説	-9.64061
消	-9.64074
而求	-9.64091
筆	-9.64102
九四	-9.64103
懸	-9.64187
展	-9.64205
徃	-9.64246
六十一	-9.64294
適足	-9.64323
股弦	-9.64332
五九	-9.64424
十四日	-9.64451
地景	-9.64584
權	-9.64607
施	-9.64612
相等之	-9.64662
米數	-9.64677
強	-9.64734
准	-9.64852
之用	-9.649
入月	-9.64907
餘積	-9.64912
以來	-9.64923
皆與	-9.64931
倉	-9.64939
系	-9.64964
亷法	-9.65023
日體	-9.65079
甲乙丙三角形	-9.65131
辛角	-9.65162
實測	-9.65187
八四	-9.65201
零分	-9.65236
分内二十一秒冬至	-9.65256
在南	-9.65265
數得	-9.65267
丑寅	-9.65288
與丙丁	-9.65319
壬丙	-9.65352
對邊	-9.65381
李	-9.6539
二位	-9.65427
竟	-9.65439
二九	-9.65452
甎	-9.65464
與丁戊	-9.65484
垂	-9.65533
六七	-9.6558
十六尺	-9.65585
編	-9.65585
八年	-9.65599
釐有餘	-9.65602
戊壬	-9.65638
三分之二	-9.65681
各等	-9.65773
季	-9.65813
何者	-9.65824
立春	-9.65851
矣若	-9.65914
傍	-9.65989
疎	-9.65996
甲丁乙	-9.6614
可知矣	-9.66183
六兩	-9.66244
嘉	-9.66309
角之	-9.66339
經圏	-9.66348
雞	-9.66503
初商之	-9.66529
皆可	-9.66531
二十七日	-9.66564
頗	-9.66607
餘數	-9.66618
玉	-9.66629
之垂線	-9.66651
遵	-9.66657
豆	-9.66734
必與	-9.6674
形内	-9.66906
異名	-9.6695
置一	-9.66959
得五	-9.67098
分内五十一秒冬至	-9.67168
一百八十度	-9.67171
侯	-9.67183
咸	-9.67262
宫初度	-9.67288
立方積	-9.67298
本位	-9.67302
距時	-9.67324
初日	-9.67449
親	-9.67524
原積	-9.67537
一線	-9.67731
昔	-9.67794
依前	-9.6781
狹	-9.67812
為三率推得四率	-9.6784
假數	-9.67925
垂弧	-9.67964
兩直角	-9.68046
五八	-9.68119
立天元一為	-9.68229
中氣	-9.68275
結	-9.68295
刻分	-9.68313
架	-9.68456
萬六千	-9.6848
為甲	-9.6848
氏曰	-9.68511
法置	-9.68516
法求之	-9.68541
珠	-9.68548
共步	-9.6855
日輪	-9.6858
長圓體	-9.68597
二百二十	-9.68707
初數	-9.68775
輪心	-9.68791
表以	-9.68893
三百三十	-9.68965
綱目	-9.69067
譯	-9.69072
釋	-9.69088
集	-9.6909
者是	-9.69094
磬折形	-9.69113
觜	-9.69124
畆	-9.69138
生於	-9.69204
也盖	-9.69275
多少	-9.69283
奇	-9.69288
東方	-9.6934
中有	-9.69439
約之為	-9.69461
釐有餘即	-9.69499
方之	-9.69513
底勾	-9.69525
實㑹	-9.69534
八十三	-9.69553
十三分	-9.6958
有奇	-9.69588
三等	-9.69595
上生	-9.6962
六二	-9.69667
方法	-9.69673
稽	-9.69695
曲線	-9.69701
恐	-9.6971
三因之得	-9.69733
後天	-9.69736
以半徑一千萬為一率	-9.69745
與甲丁	-9.69835
在下	-9.70042
有一	-9.70105
所定	-9.70134
加之	-9.7021
長廉	-9.70307
西南	-9.70327
九七	-9.70387
繞	-9.70413
髙卑	-9.70419
半徑與	-9.70442
聖人	-9.70459
十二宫	-9.70481
分内一秒冬至史	-9.70549
然而	-9.70551
之限	-9.70581
一千八百	-9.7065
亦與	-9.70844
圓形	-9.7086
熱	-9.7096
妄	-9.70961
圜外	-9.70961
亦無	-9.7097
四分内一秒冬至	-9.70982
十日	-9.70988
平廉	-9.71027
初均數	-9.71058
四百五十	-9.71142
至于	-9.71148
分六釐	-9.71211
為半徑	-9.71255
截積	-9.71289
圎	-9.71357
甲南行	-9.71388
分内一十一秒冬至應閏	-9.71396
八線	-9.71398
魄	-9.71561
三百一十	-9.71583
二十等面	-9.71625
六十七	-9.71736
欽天監	-9.71746
四人	-9.7176
中數	-9.71792
己夘	-9.7194
三秒	-9.72006
八十五	-9.72125
星之	-9.72195
午時	-9.72218
零七	-9.72235
軫	-9.72248
洲	-9.723
酒	-9.72348
辛戊	-9.72349
則減	-9.72353
所對之	-9.72372
開平方	-9.72374
爲實	-9.72408
三次	-9.72478
自之	-9.72504
絶	-9.72529
即所求之	-9.72629
或用	-9.72638
此兩	-9.72667
中積分	-9.7269
金水	-9.72706
圓球	-9.72765
又曰	-9.72786
甲乙為	-9.72787
倒	-9.72852
返	-9.72854
直行	-9.72875
隱	-9.7293
穿	-9.72949
天行	-9.72951
與黄道	-9.72982
甲為	-9.73089
之極	-9.73097
并之	-9.73176
半之為	-9.73203
日分	-9.73218
相反	-9.73252
之徑	-9.73252
執	-9.73296
上直角方形	-9.73301
故用	-9.73313
零二	-9.73325
九十二	-9.73424
七四	-9.73495
紬	-9.73508
日中	-9.73512
之時刻	-9.73516
稜	-9.73527
七二	-9.73527
一萬二千	-9.7355
訖	-9.73556
屢	-9.7356
奉聖㫖	-9.736
同式	-9.73729
月孛	-9.73736
壬甲	-9.7376
二卷	-9.7382
即所求	-9.73838
兩交	-9.73861
十一度	-9.73898
分内四十一秒冬至應閏	-9.73922
大數	-9.73985
年根	-9.74003
減盡	-9.74059
塔	-9.74069
配	-9.74174
從方	-9.74175
星紀	-9.74257
乘除	-9.74273
本法	-9.74287
命之	-9.74293
開之	-9.74295
有餘即	-9.74387
為長	-9.74391
江	-9.74415
是日	-9.74426
較弧	-9.74498
距太陽	-9.74501
平朔	-9.7455
符	-9.74698
創	-9.74847
斜線	-9.74923
皇極	-9.74931
實引	-9.74946
八兩	-9.74969
得二百	-9.75095
太陽躔	-9.75191
定為	-9.75231
之㸃	-9.75322
距赤道	-9.7534
常法	-9.7535
矩形	-9.75385
商數	-9.75391
伯	-9.75464
淺	-9.75472
糧	-9.75472
併之	-9.75481
巧	-9.75533
黄緯	-9.75537
名為	-9.75546
辛癸	-9.75582
之故	-9.75589
相等則	-9.75641
毎邊	-9.75655
高卑	-9.75683
里數	-9.75695
回	-9.75736
諸數	-9.75749
依此	-9.75774
所得之數	-9.75803
根少	-9.75814
十丈	-9.75846
餘角	-9.75854
為隅法	-9.75981
一八	-9.76013
一千四百	-9.76031
㡬	-9.76095
共價	-9.76107
者謂	-9.76129
順天府	-9.76199
不同心	-9.76217
百分	-9.76223
丁癸	-9.76242
正當	-9.7626
八等面	-9.76284
下廣	-9.76318
廉法	-9.76367
萬物	-9.76383
辛己	-9.76487
定率	-9.76504
距地平	-9.76685
己卯	-9.76697
四倍	-9.76713
一十四日	-9.76807
先生	-9.76876
智	-9.76897
之平行	-9.76943
七一	-9.76957
即知	-9.76959
升降	-9.76982
或在	-9.77026
平分之	-9.77047
次作	-9.77167
冬至日	-9.77344
八秒	-9.7738
綾	-9.77428
日晷	-9.77449
赤經	-9.77537
闇虚	-9.7754
為減	-9.77548
為句	-9.77582
末率	-9.77621
九十五	-9.77646
一平方	-9.77802
厯指	-9.77889
十年	-9.77895
甲丙丁	-9.77899
術曰以	-9.77964
黄道經度	-9.78196
職	-9.78242
自然	-9.78242
京師	-9.78272
曰天	-9.78281
食甚用時	-9.78311
零六	-9.78335
而一為	-9.78383
出地	-9.78505
人所	-9.78543
三卷	-9.78593
二百三十	-9.78611
於左	-9.78622
大星	-9.78685
為次商	-9.7869
之大	-9.78693
為從方	-9.78749
角形之	-9.78785
四萬	-9.78797
多一	-9.78826
則得	-9.78859
革	-9.78887
竅	-9.78928
菽	-9.78933
高下差	-9.79077
千萬	-9.7908
如左	-9.79152
卯辰	-9.79213
所減	-9.79216
丁夘	-9.79243
相切	-9.79282
日度	-9.79344
兩六錢	-9.79352
得三十	-9.79354
定氣	-9.79369
又自	-9.79369
算之	-9.79402
無所	-9.79403
餘割	-9.79404
比例之	-9.79446
三色	-9.79482
原實	-9.79508
圗	-9.79517
化為	-9.79597
營	-9.79604
恰	-9.79606
弟	-9.79618
太蔟	-9.79641
西方	-9.79646
五行	-9.79647
本圏	-9.79667
抄	-9.79696
假令	-9.797
所容	-9.79848
共銀	-9.79897
六百四十	-9.79943
朔實	-9.80054
實朔	-9.80081
角旁	-9.80205
三百九十	-9.8029
姑	-9.80326
者有	-9.80346
稻	-9.80352
每分	-9.80411
先後	-9.80469
俱等	-9.80475
晨昏	-9.80479
續	-9.80571
之象	-9.80631
兩測	-9.80741
十七年	-9.80756
所有	-9.80768
首率	-9.80824
七三	-9.80893
順行	-9.80931
原有	-9.80937
也此法	-9.80942
直形	-9.80957
作垂線	-9.80959
十二等面	-9.8104
小徑	-9.81084
為太陽	-9.81101
度之	-9.81131
十三年	-9.81148
而復	-9.81214
去極	-9.81223
度四十分	-9.81314
安得	-9.81379
皇	-9.81401
已下	-9.81436
算法	-9.81562
九十三	-9.81622
邪	-9.81661
書於	-9.81663
本星	-9.81706
至此十一閏又一紀	-9.81708
置閏	-9.81732
科	-9.81735
得四十	-9.81805
零一	-9.8192
三兩	-9.82035
十二兩	-9.82217
繫	-9.82236
之光	-9.82246
詩	-9.82289
叅	-9.82321
其行	-9.82376
壺	-9.82406
現	-9.82407
壬庚	-9.82419
犯	-9.8242
中行	-9.82511
以爲	-9.8252
四百四十	-9.82546
兩相等	-9.8259
九百六十	-9.82634
共積	-9.82648
九三	-9.82702
初虧復圓	-9.82708
上廣	-9.82737
丙癸	-9.82737
子癸	-9.82789
一邉	-9.82925
丑角	-9.82982
亦若	-9.83012
伐	-9.831
正對	-9.8315
迄	-9.83158
直角三角形	-9.8316
之初	-9.83237
八面體	-9.83263
生光	-9.83318
天度	-9.83333
一法	-9.83335
相距之度	-9.83406
以分母	-9.83472
之大小	-9.83567
之次	-9.83634
七百八十	-9.83636
為法除之	-9.83646
十六度	-9.83648
眞	-9.83653
全數與	-9.83708
輕	-9.83761
之術	-9.83766
楚	-9.83782
專	-9.8379
索	-9.83793
盈厯	-9.83837
之和	-9.83854
立方之	-9.83903
因其	-9.83907
西厯	-9.83911
地之	-9.83926
至丁	-9.83952
宿次	-9.84068
壬丁	-9.84163
實望	-9.84169
之景	-9.84199
授	-9.84246
本地	-9.84253
一千五百	-9.84257
一宫	-9.84259
一斗	-9.84259
入交	-9.84301
法算之	-9.84323
所對	-9.84375
下生	-9.84389
兩半徑	-9.84396
弧三角	-9.84429
癸壬	-9.84502
氣差	-9.84506
乙東行	-9.84548
○○○○○	-9.8456
登	-9.84584
二兩	-9.84605
邉形	-9.84703
乗方	-9.84759
兩八錢	-9.84766
以太陽	-9.84783
月心	-9.84846
之倍	-9.84854
徑線	-9.85105
巻	-9.85166
尊	-9.85211
梵	-9.85265
竹	-9.85285
加減之	-9.85292
次求	-9.85369
角為	-9.8539
之數以	-9.85402
之正	-9.85468
推是年	-9.85473
測騐	-9.85477
加减	-9.85508
之緯度	-9.85548
計之	-9.85566
游	-9.85614
臣等	-9.85651
西北	-9.85655
隅法	-9.85678
每一	-9.85698
作㸃	-9.85705
無窮	-9.85768
自乘再乘	-9.85856
八步	-9.85877
縱横	-9.85878
違	-9.85985
三歸之得	-9.86076
辰巳	-9.86115
髙下	-9.86115
七十四	-9.86126
八三	-9.8613
彼此	-9.8614
得八	-9.86151
太陽引數	-9.86194
以較	-9.86205
中間	-9.86221
相距之	-9.86247
三百四十	-9.86256
在上	-9.86325
虚弦	-9.86339
十四年	-9.86346
寄左	-9.86358
倍之為	-9.86495
仍以	-9.86546
昬	-9.86553
弧之	-9.86584
許	-9.8669
八刻	-9.86723
騾	-9.86731
穀	-9.86733
五秒	-9.86739
九十七	-9.86744
唯	-9.86758
灰	-9.86765
分二十秒	-9.86799
五十九分	-9.8682
否	-9.86899
梨	-9.86934
長方體	-9.87006
如上圖	-9.87019
分内二十一秒冬至應閏	-9.87021
弦較和	-9.87089
一數	-9.87108
也求	-9.87328
其間	-9.87329
立算	-9.8733
即甲	-9.87341
燈	-9.87384
食在	-9.87404
積與	-9.87413
為從	-9.87415
陸	-9.87451
可推	-9.87456
胃	-9.875
其下	-9.87539
丁卯	-9.87579
約為	-9.87644
十九分	-9.8769
五四	-9.87744
進位	-9.87803
五卷	-9.87815
推歩	-9.87818
不滿	-9.87825
先有	-9.87873
二等	-9.87932
之經度	-9.87976
二秒	-9.88029
句股和	-9.88096
距地心	-9.88239
谷	-9.88261
午未	-9.88267
上位	-9.88288
子為	-9.88321
八一	-9.88345
甲丁戊	-9.88464
食甚時	-9.88475
至戊	-9.88479
次均	-9.88507
句弦和	-9.88557
壬角	-9.88564
於戊	-9.88599
零九	-9.88661
所出	-9.88825
甲丙乙	-9.88911
赤緯	-9.88921
觚	-9.88956
▁分	-9.88975
○○○○	-9.89008
二斗	-9.89011
但知	-9.89043
夾	-9.89044
禮部	-9.89077
未有	-9.89115
三石	-9.89148
維	-9.89216
某星	-9.8922
萬四千	-9.89224
大徑	-9.89233
乙子	-9.89283
約之得	-9.89377
内加	-9.89453
總弧	-9.89541
南方	-9.89541
差數	-9.89612
加倍	-9.89618
弧度	-9.89646
髙弧交角	-9.8965
本數	-9.8966
所指	-9.89671
圭	-9.89752
為丙	-9.89808
西域	-9.89835
之交	-9.89849
一十三度	-9.89879
限度	-9.8996
當以	-9.89964
欲求	-9.90152
從甲	-9.9022
分内五十一秒冬至應閏	-9.9023
如圖甲乙丙丁	-9.90266
億八千	-9.90348
列宿	-9.90429
朢	-9.90446
東北	-9.90491
古今律厯考卷	-9.90536
引長之	-9.90545
板	-9.90572
榖	-9.90612
癸角	-9.90658
原本	-9.90665
郡	-9.9074
與太陽	-9.90878
五步	-9.90897
靈	-9.90951
十一宫	-9.90977
亦如	-9.90995
不齊	-9.91032
本輪心	-9.91043
得七	-9.91099
兩心	-9.91122
劉	-9.91143
開立方	-9.91186
十四分	-9.91225
待	-9.91248
遷	-9.91283
錠	-9.91346
竿	-9.91394
駝	-9.91446
之上而以	-9.91453
取之	-9.91638
則無	-9.91653
髙下差	-9.91679
八萬	-9.91714
皆在	-9.91731
干	-9.91765
卑	-9.9178
厥	-9.91841
書之	-9.91841
甲數	-9.91845
分五十秒	-9.91856
妙	-9.91901
截長	-9.91947
衍	-9.91972
牽牛	-9.92012
每年	-9.92027
二十五度	-9.92036
視半徑	-9.9204
三刻	-9.92046
亡	-9.9206
一十二分	-9.92061
徐	-9.92077
互相為比	-9.9209
相和	-9.92151
相㑹	-9.92229
赤道之	-9.9223
應加	-9.92234
二倍	-9.92271
法實	-9.92344
有所	-9.92373
轉終	-9.92384
斜交	-9.92424
可用	-9.92458
上方形	-9.92562
三百八十	-9.92567
日子正初刻	-9.92569
角之度	-9.92582
一億	-9.92605
仍為	-9.92648
除法	-9.92652
地中	-9.92659
減於	-9.92711
歌	-9.92817
良	-9.92821
若干答曰	-9.92942
叙	-9.92945
緞	-9.92959
法同	-9.92974
法先	-9.93011
十分内一秒冬至	-9.93054
應減	-9.93069
弧線	-9.93095
法除	-9.93155
午後	-9.93329
分寸之	-9.93336
伏見輪	-9.9336
初限	-9.93383
分四十五秒	-9.93386
二十三度半	-9.93404
四方	-9.93411
立圓	-9.93526
四面體	-9.93528
四釐	-9.93537
在午	-9.93584
中央	-9.93635
好	-9.9368
乙癸	-9.93703
邊股	-9.93734
關	-9.93743
卅	-9.93759
方田	-9.93772
遲速	-9.93814
五百四十	-9.93827
為界作	-9.93848
中線	-9.93875
此以	-9.93886
萬三千	-9.94032
回回	-9.94067
赤道上	-9.94186
乙丙為	-9.9419
乗除	-9.942
不變	-9.94238
初宫	-9.94248
一十三日	-9.9427
四步	-9.94293
泰	-9.94304
併之得	-9.94378
大梁	-9.94383
之道	-9.94399
入地	-9.94407
的	-9.94483
九十一度	-9.94506
躔度	-9.94518
楞	-9.94521
三十六尺	-9.94526
冬至後	-9.94536
立法測望	-9.94544
自甲	-9.94548
之度分	-9.94657
二斤	-9.94755
正方體積	-9.94767
在赤道	-9.94818
次輪心	-9.94903
餘切	-9.94995
四十分	-9.94997
入轉	-9.95016
百萬	-9.95056
之高	-9.95209
堅	-9.95227
以至	-9.95237
顧	-9.95303
元形	-9.95344
分内三十一秒冬至	-9.95351
者如	-9.95366
所成	-9.95457
長亷	-9.95517
之意	-9.95602
同理	-9.95623
化秒	-9.95669
庚癸	-9.9568
極出地	-9.95693
實如法而一	-9.95706
十分之	-9.95788
方廉	-9.95819
於乙	-9.95819
距限	-9.95845
度也	-9.95899
以除	-9.95935
相當之	-9.95941
九十八	-9.96015
黑	-9.96032
鼓	-9.96035
負縱	-9.96104
廢	-9.96141
通為	-9.96181
單數	-9.96282
九一	-9.96284
即乙	-9.96297
五宫	-9.96361
十七尺	-9.96381
頭位	-9.96402
論之	-9.9643
戊為	-9.96438
加于	-9.96469
本表	-9.96516
十寸	-9.9656
以减	-9.96562
其長	-9.96626
下等	-9.96654
十五年	-9.96726
九十一	-9.96729
丑癸	-9.96809
二十四分	-9.96825
下亷	-9.96889
浮	-9.96895
災	-9.96898
映	-9.96912
示	-9.96923
雨水	-9.96923
超	-9.96936
全食	-9.96947
相望	-9.96951
大勾	-9.97049
股也	-9.97058
諸曜	-9.97073
九萬	-9.97076
𤣥枵	-9.97085
連比例	-9.97091
俱在	-9.97135
㡬何答曰	-9.97144
次年	-9.97168
有時	-9.97174
黄道上	-9.97259
邊形	-9.97265
試以	-9.9729
甲與乙	-9.97302
分内一十一秒冬至	-9.97355
正弧三角形	-9.97358
通股	-9.97427
幾何荅曰	-9.97448
角之正弦	-9.97494
爲一	-9.97497
分丈之	-9.97506
為亷法	-9.97524
十二日	-9.97547
共為	-9.97554
上亷	-9.97586
九十四	-9.97683
研	-9.97717
有餘為	-9.97769
與乙丁	-9.97785
乎曰	-9.97847
分二十五秒	-9.9786
朔策	-9.97888
十四尺	-9.97919
草曰置	-9.97925
之各	-9.97953
一根多	-9.97966
五緯	-9.97989
黄道髙弧交角	-9.98035
五刻	-9.98038
下位	-9.98044
鶉火	-9.98057
其光	-9.98076
一十分	-9.98124
各角	-9.98135
甲乙丙丁戊己	-9.98186
三十秒	-9.98211
共數	-9.98221
測算	-9.98243
二十二度	-9.98277
其上	-9.98321
之積也	-9.98355
三千六百	-9.98455
通之	-9.98477
分五釐	-9.98477
丁為	-9.98484
為同數與左相消得	-9.98525
十四度	-9.98542
源	-9.98599
祥	-9.98611
六秒	-9.98627
白平象限	-9.98639
五分内三十一秒冬至	-9.98666
所截	-9.98691
得一千	-9.98704
天眼	-9.98793
大暑	-9.98799
至今	-9.98812
五兩	-9.98892
正矢	-9.98933
帶從	-9.98941
銳	-9.98943
三線	-9.98945
一萬六千	-9.98951
又作	-9.99033
前圖	-9.99134
必以	-9.99193
星距	-9.99203
對減	-9.99243
亦曰	-9.99267
寧	-9.9938
陵	-9.99406
開平方法	-9.99408
林鐘	-9.99413
於甲	-9.99506
不一	-9.99561
渾員	-9.99583
度二十分	-9.99602
寅卯	-9.99607
旋轉	-9.99638
相生	-9.99654
斜距	-9.99786
緯北	-9.99808
之氣	-9.99836
三根	-9.99843
太隂在	-9.99872
法求	-9.99898
亦名	-9.9995
數則	-10.0004
八釐	-10.001
添	-10.0012
正弧	-10.0015
庚為	-10.0015
没	-10.0016
二十面體	-10.0018
氣朔	-10.0021
自乘之	-10.0021
持	-10.0025
滅	-10.0028
畫一	-10.0033
赤經高弧交角	-10.0034
盈朒	-10.0035
消長	-10.0045
大火	-10.0049
未嘗	-10.0052
與日	-10.0053
於地	-10.0059
諸法	-10.0064
壬己	-10.0064
句股較	-10.0068
析	-10.0069
最小	-10.0069
以自之得	-10.007
二十六分	-10.0074
球上	-10.0075
古厯	-10.0078
甲子日	-10.0078
角與	-10.0079
人之	-10.0081
相加減	-10.0085
二邊	-10.0092
戊癸	-10.0099
多于	-10.0104
長闊	-10.0104
川	-10.0105
八十二	-10.0106
形如	-10.0111
誠	-10.0112
七宿	-10.0116
八七五	-10.0116
築	-10.0118
入食限	-10.0119
一百零	-10.0126
尚有	-10.0127
隨時	-10.0129
丙丁戊	-10.0134
㫖	-10.0134
方體	-10.0154
列於上	-10.0161
降婁	-10.0163
簡法	-10.0164
并之得	-10.0165
八二	-10.0177
餘一	-10.0179
繼	-10.0186
所存	-10.0186
形外	-10.0191
距最髙	-10.0195
區	-10.0195
薄	-10.0195
丨為	-10.0196
三十一分	-10.0196
三數	-10.0202
壬戊	-10.0202
柳	-10.0203
實數	-10.0209
紀日	-10.0213
東西南北	-10.0215
弦較較	-10.0223
初均	-10.0225
尺數	-10.0228
二百一十六	-10.0237
兩端	-10.0239
太陽行	-10.024
較之	-10.0241
四百九十	-10.0243
地上	-10.0245
甲巳	-10.0247
去地	-10.026
歸除	-10.0261
有四	-10.0262
既有	-10.0267
也然則	-10.0273
至後	-10.0275
叀	-10.0277
之一半	-10.0277
康	-10.0278
九十度限	-10.0279
均度	-10.028
四秒	-10.0281
教	-10.0281
趙	-10.0282
七十二度	-10.0285
闗	-10.0285
兩道	-10.0286
不可以	-10.0292
舞	-10.0295
之弦	-10.0296
十六年	-10.0302
觀之	-10.0308
及其	-10.031
七萬	-10.0311
日天	-10.0314
自此	-10.0316
至丙	-10.0318
同前	-10.0319
百二十	-10.0332
之變	-10.0335
極逺	-10.0337
步為	-10.0345
此即	-10.0345
六七八	-10.0355
長方積	-10.0361
㸃為	-10.0361
太初	-10.0362
原銀	-10.0366
四百二十	-10.0368
苐	-10.037
片	-10.0373
九秒	-10.0373
即用	-10.0374
數加	-10.0376
定日	-10.0377
五百六十	-10.0377
寶	-10.0378
最庳	-10.0379
支那	-10.0381
定積	-10.0384
甲丙線	-10.0385
一小	-10.0395
三乘方	-10.0397
午前	-10.04
倍大于	-10.0405
未及	-10.041
率以	-10.0412
之線	-10.0413
定度	-10.0414
矣此	-10.0426
在最髙	-10.0426
長濶	-10.0429
七秒	-10.0439
餘弧	-10.0441
心角	-10.0443
等角	-10.0445
逓	-10.0446
告	-10.0453
以便	-10.0456
俱為	-10.0457
甲乙乙丙	-10.0461
每一邊	-10.0461
預	-10.0462
俟	-10.0463
亦非	-10.0464
詔	-10.0466
督	-10.0467
舛	-10.0467
内周	-10.0471
應鐘	-10.0476
太史	-10.0485
日周	-10.0487
通分	-10.0487
是謂	-10.0488
勾股積	-10.0491
之說	-10.0491
相減為	-10.0494
與天	-10.0501
開之得	-10.0512
之餘切線	-10.0516
圜周	-10.0522
而半之	-10.0525
五十一秒	-10.0528
堆	-10.0532
所生	-10.0533
乃用	-10.0534
相并	-10.0535
沒	-10.0537
檢表得	-10.0538
二㸃	-10.0547
資	-10.0547
一百二十五	-10.0549
樓	-10.0552
陰陽	-10.0552
然其	-10.0556
之法也	-10.056
日下	-10.0562
心作	-10.0563
六百六十	-10.0563
緯差角	-10.0564
四商	-10.0572
各異	-10.0574
桃	-10.0578
田積	-10.058
不及減	-10.058
共行	-10.0587
遼史	-10.0592
食之	-10.0593
度一十分	-10.0601
平行方形	-10.0605
十五秒	-10.0606
二色	-10.061
十二面體	-10.0612
存弧	-10.0614
蒙氣	-10.0618
與地	-10.0621
其體	-10.0624
七百五十	-10.0625
開得	-10.0629
不在	-10.0629
萬一千六百	-10.0631
錄	-10.064
為二率今所設之	-10.0642
愚	-10.0643
禾	-10.0644
一周天	-10.0646
太隂引數	-10.0646
十六日	-10.0647
揲	-10.0648
姑洗	-10.0649
金水二星	-10.0656
斜方形	-10.0657
自乘之數	-10.0657
幹	-10.066
其義	-10.0664
二百二十五	-10.0665
定交角	-10.0668
加減差	-10.0668
依顯	-10.0672
測候	-10.0678
百刻	-10.0682
𢃄	-10.0686
並以	-10.0692
末限	-10.0698
丑甲	-10.0706
天地之	-10.0707
二千三百	-10.0708
圜内容	-10.0709
夷	-10.0712
兩四錢	-10.0714
下闊	-10.0715
太陽實行	-10.0716
者置	-10.0717
每日平行	-10.0718
像	-10.0726
兩分	-10.0726
弦和和	-10.0727
表中	-10.0727
停	-10.0728
十六兩	-10.073
丑正一刻	-10.0735
皇帝	-10.0738
恰盡	-10.0739
所求之	-10.0741
二之一	-10.0742
又云	-10.0742
上層	-10.0743
如以	-10.0744
二根	-10.0745
南呂	-10.0746
千尺	-10.0749
形與	-10.0751
地平上	-10.0754
實緯	-10.076
益隅	-10.0763
以初商	-10.0763
四邊形	-10.0763
減半周	-10.0771
得三百	-10.0771
小隅	-10.0776
分得	-10.0782
具題	-10.0786
右上	-10.0787
一百九十二	-10.0791
線則	-10.0794
兩㸃	-10.0794
日景	-10.0796
三十九分	-10.0796
四十尺	-10.0803
對數	-10.0804
該監	-10.0806
四十八分	-10.0814
視線	-10.0815
法得	-10.0816
尖圓體	-10.0818
差也	-10.0821
覽	-10.0822
尺八寸	-10.0825
擇	-10.0826
貴	-10.0829
圓體	-10.083
三角尖堆	-10.083
丑初三刻	-10.0832
何也曰	-10.0832
岸	-10.0833
二十一度	-10.0839
丈六尺	-10.0842
不易	-10.0848
明股	-10.0848
是知	-10.0851
兩正弦	-10.0852
經星	-10.0852
遠近	-10.0853
三均	-10.0854
小弧	-10.0857
也又如	-10.0857
正月朔	-10.0862
今欲	-10.0863
二千九百	-10.0867
南北極	-10.0868
弦也	-10.0876
四石	-10.0876
與丁丙	-10.0877
八百四十	-10.0878
不同故	-10.0878
同用	-10.0879
立夏	-10.0882
二十三分	-10.0887
各作	-10.0888
失之	-10.0888
一次	-10.0894
六丈	-10.0896
兩即	-10.0898
而生	-10.0899
因得	-10.0899
又用	-10.0899
相求	-10.09
末位	-10.0902
大邊	-10.0906
則知	-10.0911
熒惑	-10.0915
老	-10.0916
平望	-10.0916
委	-10.092
各自	-10.092
二分内三十一秒冬至	-10.0923
依本	-10.0924
位數	-10.0931
底線	-10.0941
三升	-10.0942
今用	-10.0943
光明	-10.0948
之東	-10.0957
平方開之	-10.0962
五等邊形	-10.0968
在黄道北	-10.0972
明弦	-10.0973
距等	-10.0976
故不	-10.0979
天道	-10.0983
兩心視相距	-10.0984
除之即得	-10.0992
辭	-10.0998
十九度	-10.1007
熟	-10.1009
十八年	-10.101
恭	-10.101
牙	-10.1011
一名	-10.1013
麻	-10.1013
保	-10.1015
小弦	-10.1016
別	-10.1016
出南門	-10.1017
界角	-10.1018
或問	-10.1026
五百二十	-10.1027
其底	-10.1029
之共價	-10.1033
步得	-10.1034
繇	-10.1034
均輪心	-10.1034
如甲	-10.1035
隨地	-10.1056
巳時	-10.1057
為平	-10.1062
無可	-10.1064
弦與	-10.1067
開元	-10.1069
表景	-10.1075
但以	-10.1077
從此	-10.1078
雖有	-10.108
尺折半得	-10.1082
四十二分	-10.1085
行至	-10.1095
紗	-10.1095
鼎	-10.1097
次得	-10.1099
一叚	-10.1101
戊申朔	-10.1103
卷第	-10.1105
􁀥	-10.1105
来	-10.1108
五二	-10.111
不復	-10.1121
晝長	-10.1128
加二	-10.1134
其形	-10.1136
求作	-10.1137
細行	-10.1145
行步	-10.115
大寒	-10.115
一二五	-10.1154
天中	-10.1154
孛	-10.1163
為所求	-10.1164
十七度	-10.1172
五斗	-10.1173
啇	-10.1175
還原	-10.1177
抵	-10.1179
直線形	-10.1179
之事	-10.1183
正東	-10.119
○○○○○○○○○	-10.1194
一百尺	-10.1195
勞	-10.1195
癸丁	-10.1195
呼	-10.1198
三千二百	-10.1198
達	-10.1202
泉	-10.1202
憲	-10.1204
次于	-10.1206
全與	-10.1206
延	-10.1207
之割線	-10.1209
所得數	-10.1213
倒景	-10.1216
四等面	-10.1218
梯形	-10.1221
上闊	-10.1222
數如	-10.1223
先用	-10.1229
周圍	-10.1229
朔䇿	-10.1233
求初虧	-10.1243
食甚真時	-10.1245
雪	-10.1255
日小餘	-10.1256
一千三百	-10.1256
於天	-10.1259
敢	-10.1261
次輪半徑	-10.1261
定其	-10.127
角體	-10.1271
尖體	-10.1272
問各	-10.1273
一十八度	-10.1275
大小兩	-10.1279
考之	-10.128
切圜	-10.1281
逐日	-10.1283
弦和較	-10.1283
與地平	-10.1284
不得不	-10.1286
素	-10.1287
寒暑	-10.1288
故謂之	-10.1291
敬	-10.1296
引長	-10.1298
憑	-10.1299
天文志	-10.1301
又按	-10.1301
之始	-10.1304
不敢	-10.1306
實以	-10.1316
見之	-10.1317
四丈	-10.1327
各幾何法以	-10.1334
九九九	-10.1339
里差	-10.1342
幾倍	-10.1345
上等	-10.1352
根多	-10.1354
太陰在	-10.1357
兩直線	-10.1357
萬四千四百	-10.1359
次之	-10.1366
春正	-10.1368
用表	-10.1376
明之	-10.1384
界線	-10.1389
句弦較	-10.1391
掌	-10.1392
觔	-10.1393
輔	-10.1393
惑	-10.1395
擬	-10.1396
億七千	-10.1398
酉正三刻	-10.1398
槐	-10.1399
十六分	-10.1399
領	-10.14
鉛	-10.1401
脚	-10.1403
分四十秒	-10.1404
一兩	-10.1408
黄帝	-10.1411
二十五尺	-10.1412
九兩	-10.1415
壬子朔	-10.1415
價銀	-10.142
之方	-10.1421
一斤	-10.1422
日道	-10.1426
一丈二尺	-10.1429
小邊	-10.1429
其距	-10.1429
出地平	-10.1433
欽	-10.145
餘二	-10.1456
次數	-10.146
服	-10.1461
二十六日	-10.1462
夘酉	-10.1464
合於	-10.1465
舟	-10.1472
九百二十	-10.1478
也如圖甲乙	-10.1479
亦如之	-10.1479
隅算	-10.1481
無異	-10.1481
飛	-10.1481
為丁	-10.1484
之分數	-10.1484
牆	-10.1485
徽	-10.1486
弗	-10.1489
卿	-10.1491
専	-10.1492
為定	-10.1495
項	-10.1495
吉	-10.1498
一百六十八	-10.1498
小勾	-10.1498
梵暦	-10.1502
九釐	-10.1505
六星	-10.1511
查表	-10.1512
一種	-10.1517
十七日	-10.152
二月朔	-10.152
相減餘為	-10.1521
甲子朔	-10.1527
而非	-10.1528
一錢	-10.153
鈐	-10.1538
八百二十	-10.1541
若在	-10.1541
於丁	-10.1544
改正	-10.1561
兩星	-10.1561
雙	-10.1564
一章	-10.1565
二法	-10.1569
在地平上	-10.1572
其邊	-10.1573
斗五升	-10.1574
其半	-10.1575
死	-10.158
天周	-10.1582
于戊	-10.1582
煩	-10.1585
破	-10.1588
勿	-10.1589
定法	-10.159
吳	-10.159
酌	-10.1593
三錢	-10.1595
與他	-10.1597
庫	-10.1599
圜分	-10.1599
東井	-10.16
南緯	-10.1608
二千七百	-10.1614
物之	-10.1616
平員	-10.1622
萬尺	-10.1625
合問	-10.1627
如前法	-10.1627
孟	-10.163
在黄道南	-10.1632
鶉首	-10.1638
自乗之	-10.164
不知步數而立	-10.1644
初三刻	-10.1649
倣	-10.1653
又設	-10.1661
同而	-10.1666
己為	-10.1673
眼	-10.1674
尺倍之得	-10.1677
日月五星	-10.1677
幅	-10.1678
讀	-10.1683
夏正	-10.1685
此則	-10.1686
若干法以	-10.1691
透	-10.1692
孰	-10.1693
住	-10.1693
窺衡	-10.1694
酉正	-10.1695
諸侯	-10.1696
在位	-10.1697
石為	-10.1698
癸辛	-10.1699
度盡	-10.1702
撮	-10.1702
四根	-10.1706
比例尺	-10.1708
弧之餘弦	-10.1715
第二次	-10.1718
㨗法	-10.1718
度三十五分	-10.1719
六百七十	-10.172
距北極	-10.1723
也如圖	-10.1727
二十六度	-10.173
餘度	-10.1734
矣今	-10.1736
圜外切	-10.1738
矣而	-10.1739
以象	-10.1742
圎球	-10.1747
以乙	-10.1748
北方	-10.1748
未申	-10.1758
者何也	-10.1758
平弦	-10.1758
甲心	-10.1759
甲丙為	-10.1762
盈縮差	-10.1764
夏至後	-10.1766
如甲乙	-10.1767
合而	-10.1768
實沈	-10.1769
加於	-10.1771
三十二分	-10.1771
月星	-10.1772
封	-10.1787
未初二刻	-10.179
立面	-10.1793
廟	-10.1797
之廣	-10.1798
既與	-10.1802
分也	-10.1803
二十九度	-10.1812
半弧背	-10.1813
十八分	-10.1818
亦皆	-10.1819
二千二百	-10.1822
三七五	-10.1829
分升之	-10.183
子角	-10.1831
總銀	-10.1831
癸丙	-10.1831
辛甲	-10.1833
方靣	-10.1839
若用	-10.1839
圜心	-10.1849
厯學	-10.1852
辛為	-10.1853
二石	-10.1862
萬九千六百	-10.1866
之每一邊	-10.1871
四分之三	-10.1871
求復圓	-10.1872
兩二錢	-10.1874
百里	-10.1875
乙丁丙	-10.1878
周徑	-10.188
也乃	-10.1884
長與闊	-10.1886
后	-10.1888
月令	-10.1889
數皆	-10.1893
圓面	-10.1894
燕	-10.1894
與己	-10.1895
想	-10.1896
竊	-10.1897
所對之數為	-10.1899
湏	-10.19
次位	-10.1901
之南	-10.1901
大形	-10.1901
歲差	-10.1903
渾象	-10.1903
出沒	-10.1904
之前	-10.1905
宮度	-10.1905
四角	-10.1907
甲申日	-10.1907
行定度	-10.1907
圏之	-10.1908
月十六日	-10.1909
之本	-10.1909
以推	-10.1909
大呂	-10.1912
一立方	-10.1917
巳午	-10.1917
定尺	-10.192
隅積	-10.1922
赤道北	-10.1922
景長	-10.1923
三除	-10.1924
一百零八	-10.1926
之實行	-10.1926
并得	-10.1931
後世	-10.1931
查表得	-10.1932
半較	-10.1938
于是	-10.1955
為同式形	-10.1956
學者	-10.1957
之精	-10.1958
衰分	-10.1962
度則	-10.1966
辛酉朔	-10.1968
也又法以	-10.1969
甲午朔	-10.1969
二十日	-10.1971
所截之	-10.1972
明矣	-10.1972
赤極	-10.1973
之總	-10.1974
為鈍角	-10.1975
三之二	-10.1978
豈不	-10.1982
仁	-10.1983
析木	-10.1985
乆	-10.1993
總積	-10.1994
則不	-10.1995
丑初一刻	-10.1995
亥正一刻	-10.1999
戌正三刻	-10.2
輸	-10.2003
百八十	-10.2006
平亷	-10.2007
月十五日	-10.201
四正	-10.2011
之末	-10.2014
皆等	-10.2034
黄經	-10.2034
一千一百	-10.2036
實交周	-10.2037
娵訾	-10.2041
詳見	-10.2046
二升	-10.2054
夏至日	-10.2055
既等	-10.2058
十兩	-10.206
兩角形	-10.2062
黄鐘之	-10.2062
分二十四秒	-10.2066
實徑	-10.2069
較弦	-10.2072
二數	-10.2074
而行	-10.2075
接	-10.208
仍用	-10.2085
胡	-10.2094
别有	-10.2094
魚	-10.2097
呈	-10.2097
六十尺	-10.2099
冷	-10.21
甲乙甲丙	-10.2102
更之	-10.2102
伽	-10.2102
七百三十	-10.2102
寅正三刻	-10.2103
交行	-10.2104
午初一刻	-10.2104
夜半日度	-10.2104
八百一十	-10.2107
鄉	-10.2111
小石	-10.2114
矣夫	-10.2114
與甲乙丙	-10.2119
變易	-10.2123
亦用	-10.2123
白極	-10.2128
所言	-10.2133
箕宿	-10.2134
子甲	-10.2136
癸酉日	-10.2137
立秋	-10.2148
一尺五寸	-10.2149
第一率	-10.2153
至元	-10.2154
少一根	-10.2157
為心作	-10.2157
二十八度	-10.2158
尺以	-10.216
一嵗	-10.2161
分四十六秒	-10.217
數也此法	-10.2171
甲戊丁	-10.2175
此形有	-10.2177
北緯	-10.218
六刻	-10.2181
於下	-10.2181
之一分	-10.2182
皆如	-10.2184
軸孔	-10.2188
個	-10.2189
赤道緯度	-10.219
己癸	-10.2195
三千九百	-10.2196
追	-10.2196
治厯	-10.2198
北斗	-10.22
十三分内三十一秒冬至	-10.2205
不相	-10.2206
蔽	-10.2206
過極圏	-10.2207
囘	-10.2209
邊形之每一邊為	-10.2211
少一	-10.2211
等邉	-10.2214
偏西	-10.2214
無差	-10.2215
星行	-10.222
二十三日	-10.2222
三㸃	-10.2223
正南	-10.2223
偏東	-10.2225
平行度	-10.2228
新厯	-10.2229
乙角之正弦	-10.2231
零數	-10.2232
一千七百	-10.2232
縮厯	-10.2236
月經朔	-10.2236
甲行	-10.2236
方周	-10.2238
半圜	-10.2242
於丙	-10.2243
距黄道	-10.2245
乙丑朔	-10.2252
應得	-10.2254
在東	-10.2258
正割	-10.2262
天子	-10.2266
相連比例	-10.2267
再乗	-10.2268
正交行	-10.2281
減差	-10.2291
其心	-10.2301
熊	-10.2302
驢	-10.2303
急	-10.2303
虞	-10.2308
障	-10.231
大統厯	-10.2314
乖	-10.2316
四之三	-10.2319
測其	-10.232
逐度	-10.2322
律中	-10.2325
運行	-10.2328
六斗	-10.2328
丙丁為	-10.2337
萬八千八百	-10.2339
三差	-10.2342
球之	-10.2348
可以度盡	-10.235
法除之得	-10.2357
幾分	-10.2362
從心	-10.2363
葢以	-10.2365
之周	-10.237
丙午日	-10.2373
億九千	-10.2379
為宮	-10.2379
加縱	-10.2384
有大小	-10.2386
丁戊線	-10.2393
六千六百	-10.2394
為甲乙	-10.2395
弓	-10.2396
總衰	-10.2397
周日	-10.2398
徑分	-10.2398
史記	-10.24
幾何原本	-10.2408
齘	-10.2417
堂	-10.2418
兩率	-10.242
五十尺	-10.2425
與戊	-10.2428
爰以	-10.2428
線即	-10.2429
六月朔	-10.2434
與庚	-10.244
算術	-10.2444
己亥日	-10.2447
斗四升	-10.2448
故知	-10.2449
分三十八秒	-10.2456
也或	-10.2458
未能	-10.246
為中率	-10.2466
五位	-10.2473
各邊	-10.2474
通法	-10.248
太隂交周	-10.248
為比	-10.249
之北	-10.249
大衍厯	-10.2492
一十九度	-10.2498
次置	-10.25
反減	-10.25
分三十三秒	-10.2501
而有	-10.2504
宗動天	-10.2508
辛亥朔	-10.2518
静	-10.2518
麗	-10.2521
癸巳日	-10.2526
其本	-10.2527
邊為	-10.253
寅初二刻	-10.2531
収	-10.2532
酉正一刻	-10.2533
七星	-10.2534
郎	-10.2534
四因	-10.2537
未正初刻	-10.2537
講	-10.2537
窖	-10.2541
之餘割線	-10.2542
本輪之	-10.255
乙寅	-10.2553
起於	-10.2555
兩底	-10.2556
距星	-10.2558
利銀	-10.2559
注云	-10.2567
無射	-10.257
面體	-10.257
而言	-10.2572
過象限	-10.2572
丙午朔	-10.2574
也按	-10.2574
○○○○○○	-10.2577
相離	-10.2578
㸃在	-10.2579
視㑹	-10.2579
至己	-10.2581
三十步	-10.2581
其地	-10.2583
子午線	-10.2587
先定	-10.2592
乃得	-10.2592
遂成	-10.2595
弧矢形	-10.2596
也設	-10.2598
月數	-10.2603
各加	-10.2608
相連	-10.2611
閏三月	-10.2612
查得	-10.2613
小腰	-10.2617
其時	-10.2619
三分内三十一秒冬至	-10.2621
辰時	-10.2623
其日	-10.2624
得一百二十	-10.2626
小輪心	-10.2627
湯	-10.2629
計之則	-10.2631
大石	-10.2631
形之積	-10.2632
矩内直角形	-10.2632
戊戌日	-10.2634
頃	-10.2636
倚	-10.2636
郭	-10.2637
申初初刻	-10.264
露	-10.2641
白羊	-10.2641
賢	-10.2643
問答同前法曰	-10.2646
古者	-10.265
為法除	-10.2651
距交實行	-10.2654
元史	-10.2661
一十六分	-10.2664
七斗	-10.2669
是爲	-10.2676
壬辰朔	-10.2678
以天元	-10.2683
論曰此	-10.2689
為首率	-10.269
邊線	-10.2693
分内四十一秒冬至史	-10.2693
八線表	-10.2694
距地心之	-10.2695
六二五	-10.2697
為母	-10.2702
一十六度	-10.2704
正方面積	-10.2714
之幂	-10.2714
無法	-10.2718
日影	-10.2719
而知	-10.2722
又將	-10.2722
申時	-10.2729
裏	-10.2731
九百九十	-10.2732
甲乙丙形	-10.2734
諸臣	-10.2734
西人	-10.2736
掩日	-10.274
父	-10.2742
縦	-10.2742
緯南	-10.2743
税	-10.2747
纂	-10.2748
烏	-10.2749
月日	-10.2749
論曰試	-10.2751
分内一十一秒冬至史	-10.2753
冲	-10.2756
辛未朔	-10.2758
之共積	-10.2758
寳	-10.2758
贏	-10.2759
五百七十	-10.276
定用分	-10.2761
進一位	-10.2763
相减	-10.2764
前表	-10.2764
在黄道	-10.2771
中後	-10.2774
孔子	-10.2779
也既得	-10.2781
上作	-10.2784
五丈	-10.2784
之異	-10.2787
之比例也	-10.2795
天上	-10.2795
七百六十	-10.28
十位	-10.2801
鶉尾	-10.2802
十四分内三十一秒冬至	-10.2803
衆星	-10.2803
一斛	-10.2806
二極	-10.2807
軌	-10.2807
歲實	-10.2814
歟	-10.2821
省算	-10.2825
本天之	-10.2826
折半為	-10.2839
各減	-10.284
十七分	-10.2844
丁子	-10.285
朔日	-10.2852
邑	-10.2853
従	-10.2854
又多	-10.2854
逢	-10.2855
漸逺	-10.2855
不同者	-10.2855
凢	-10.2859
祭	-10.2861
寅初初刻	-10.2862
丑正三刻	-10.2863
課	-10.2868
隆	-10.2871
九百八十	-10.2872
則於	-10.2874
為一分	-10.2886
圓積	-10.2886
租	-10.2891
為太隂	-10.2897
尺爲	-10.2903
至此	-10.2906
各數	-10.2911
大者	-10.2912
二十七分	-10.2917
辛亥日	-10.2923
轉減	-10.2929
癸乙	-10.2937
北極髙	-10.2943
辛丑朔	-10.2958
半較角	-10.2959
丙丁線	-10.2959
内角	-10.296
一十一分	-10.296
凡有	-10.2961
方圓	-10.2969
而用	-10.2969
午正初刻	-10.297
放	-10.2973
箭	-10.2974
雙環	-10.2974
坐	-10.2975
濕	-10.2975
守敬	-10.2976
乘方	-10.2977
演	-10.298
聽	-10.298
午正三刻	-10.2981
也第	-10.2981
賜	-10.2981
句弦	-10.2984
書於方積	-10.2984
向南	-10.2984
己丑日	-10.2984
李天經	-10.2985
匠	-10.2989
陰厯	-10.2993
圓田	-10.2999
六分内一秒冬至	-10.3004
二分之一	-10.3007
食時	-10.3014
以甲	-10.3018
則甲	-10.3019
數者	-10.3022
其術	-10.3023
推測	-10.3027
中等	-10.303
經圈	-10.3031
乙丙弧	-10.3032
容圓	-10.3033
而立	-10.3035
視髙	-10.3036
易為	-10.3038
則察	-10.3041
本形	-10.3053
自有	-10.3054
不同而	-10.3056
所由	-10.3058
兩次	-10.3059
小形	-10.3066
縂	-10.3069
至乙	-10.307
半外角	-10.307
小滿	-10.307
乙巳日	-10.3071
求太陽	-10.3077
靜	-10.308
五十二秒	-10.3082
為地平	-10.3083
爰	-10.3083
分一十四秒	-10.3085
變時	-10.3087
再乘得	-10.3088
抑	-10.3088
第一次	-10.3091
自行度	-10.3092
分一釐	-10.3093
阿	-10.3094
塵	-10.3094
申正一刻	-10.3096
不盡者	-10.3097
夀星	-10.3101
所變	-10.3104
順逆	-10.3105
七十度	-10.3109
度四十五分	-10.3112
壬戌日	-10.3114
月初一日	-10.3118
依前法	-10.3119
除得	-10.3119
則自	-10.312
甲子運	-10.3121
分二十八秒	-10.3122
閏十二月	-10.3123
秒以	-10.3124
只用	-10.3129
半徑十萬	-10.3129
為一邊	-10.313
為甲丙	-10.3132
兩五錢	-10.3132
星宿	-10.3133
中長	-10.3134
億四千	-10.3134
一等	-10.3137
與甲戊	-10.3137
限東	-10.3139
六人	-10.3144
八十度	-10.3146
大都	-10.3148
日申正三刻	-10.3151
新法算書卷	-10.3162
加一倍	-10.3163
過心	-10.3165
形相似	-10.3167
壬申日	-10.3178
三百八十四	-10.3181
分一十一秒	-10.3182
即丙	-10.3185
比例等	-10.3186
三百七十	-10.3186
步數	-10.3188
之度也	-10.3191
是年	-10.3194
織	-10.3199
華	-10.3201
差一度	-10.3201
與原	-10.3201
大弧	-10.3203
仲呂	-10.3204
殺	-10.3205
墨	-10.3207
桅	-10.3209
七釐	-10.3209
二年正月	-10.3211
積也	-10.3212
多禄某	-10.3212
牽	-10.3214
酉初三刻	-10.3214
歸之得	-10.3221
衍母	-10.3223
為四率	-10.3223
日午初三刻	-10.3224
平儀	-10.3226
所商	-10.3227
弦線	-10.3228
之正矢	-10.3229
相交之	-10.3234
餘倣此	-10.3236
等也	-10.3236
食甚實緯	-10.3237
分三十四秒	-10.3242
而今	-10.3244
四百一十	-10.3245
乙亥日	-10.3248
定望	-10.325
得四百	-10.3251
升度差	-10.3251
癸丑日	-10.3256
億六千	-10.3257
角之餘弦	-10.3259
大約	-10.3262
之天	-10.3264
庚寅日	-10.3267
度三十三分	-10.3268
不滿法	-10.327
者則以	-10.3271
全線	-10.3273
合天	-10.3274
欽定四庫全書新法算書卷	-10.3274
度二十九分	-10.3276
三十九秒	-10.3281
二十七秒	-10.3288
戊寅日	-10.3295
斗分	-10.3295
所分之	-10.3304
八錢	-10.3312
九步	-10.3313
癸亥日	-10.3317
兩表	-10.3318
一十三分	-10.3319
又於	-10.3322
而又	-10.3324
限距地髙	-10.3324
正方體之	-10.3326
與丙乙	-10.3326
戌初二刻	-10.3326
多者	-10.3327
件	-10.3327
此皆	-10.3328
求到	-10.3328
槩	-10.333
少於	-10.3331
殿	-10.3334
為第一	-10.3335
槳	-10.3336
秉	-10.3338
正交中交	-10.3339
仍餘	-10.3342
一箇	-10.3345
知之	-10.3347
西外	-10.3347
辰星	-10.3347
自乘再乘得	-10.3355
所加	-10.336
七刻	-10.3362
度三十八分	-10.3371
定數	-10.3376
方錐	-10.3376
于丙	-10.3378
扁方體	-10.3378
聖明	-10.3379
有差	-10.3379
句股弦	-10.3385
等因	-10.3386
二均	-10.3388
率也	-10.3389
之容	-10.339
月癸亥朔	-10.3393
丙丑	-10.3393
度三十一分	-10.3394
二十四兩	-10.3394
太隂距	-10.3395
計開	-10.3402
量之	-10.3403
二曜	-10.3403
得數為	-10.3404
作線	-10.341
尺六寸	-10.341
各幾何	-10.3412
横行	-10.3412
五百九十	-10.3414
人在	-10.3423
為連比例	-10.3426
法列	-10.3427
法如	-10.3429
在最卑	-10.3431
壬午日	-10.3432
中前	-10.3433
限西	-10.3435
可謂	-10.3436
得六十	-10.3436
七百二十九	-10.3437
客	-10.3437
草曰别得	-10.3437
昌	-10.344
酉初一刻	-10.3444
巳正三刻	-10.3444
亥初初刻	-10.3444
午初二刻	-10.3444
為總	-10.3449
騎	-10.345
度三十四分	-10.3451
後表	-10.3458
捷法	-10.3458
戊子日	-10.3458
六宮	-10.3461
為隅	-10.3463
十一分内三十一秒冬至	-10.3464
計都	-10.3464
二十七度	-10.3467
白經高弧交角	-10.3468
一倍	-10.3468
辛巳朔	-10.3469
癸未日	-10.3469
止用	-10.3469
副置	-10.347
又與	-10.347
三十六分	-10.347
五分之一	-10.3473
于此	-10.3474
癸巳朔	-10.3481
南至	-10.3484
二道	-10.3488
月丁亥朔	-10.349
之名	-10.3491
五千四百	-10.3491
各為	-10.3493
二十五分	-10.3493
度二十五分	-10.3496
其餘弦	-10.3496
為二率以	-10.3498
割圓	-10.35
尚未	-10.3502
六十兩	-10.3503
小時	-10.3505
十一分内一秒冬至	-10.3505
分四十三秒	-10.3506
較分	-10.3509
太陰距	-10.3513
太陽距	-10.3513
八人	-10.3516
線成	-10.3518
本輪半徑	-10.3518
甲丁為	-10.3523
為界	-10.3526
堯	-10.353
二差	-10.3539
八宫	-10.3541
視距	-10.3543
減之得	-10.3544
弦冪	-10.3546
己未日	-10.3547
一千九百	-10.355
五百三十	-10.355
乙行	-10.3557
戊子朔	-10.3559
殆	-10.356
丁丑朔	-10.3564
慶	-10.3564
乙未日	-10.3566
協	-10.3567
上下兩	-10.3568
須彌	-10.3568
甲辰朔	-10.3571
乃自	-10.3571
必用	-10.3572
所列	-10.3573
距等圏	-10.3574
見於	-10.3575
十一秒冬至	-10.3576
度之通弦	-10.358
已過	-10.358
五十刻	-10.3583
為實法除實得	-10.3583
併入	-10.3585
一十五分	-10.3588
本度	-10.3591
度五十五分	-10.3593
管長	-10.3593
尺上	-10.3596
癸甲	-10.3601
四遊	-10.3602
甲寅日	-10.3605
角即	-10.3606
中㑹	-10.3609
截濶	-10.361
朔巳時日食	-10.3611
之比例大于	-10.3612
自乗再乗	-10.3616
大半	-10.3616
測星	-10.3623
者用	-10.3623
積差	-10.3624
萬六千四百	-10.3625
一端	-10.3625
少四	-10.3627
正月甲寅朔	-10.3629
元嘉	-10.363
戊午朔	-10.3632
根數	-10.3635
丁巳朔	-10.3638
殷	-10.364
黄道積度	-10.3641
癸未朔	-10.3642
距赤道北	-10.3644
戊辰朔	-10.3645
勾股弦	-10.3648
三乗方	-10.3655
萬八千四百	-10.3655
五十四分	-10.3656
為兩平分	-10.3657
術以	-10.3657
先天	-10.3657
之三倍	-10.3657
從乙	-10.3659
故名	-10.3659
乙巳朔	-10.366
六百三十	-10.3661
平方得	-10.3663
測定	-10.3664
三乗	-10.3665
丙乙邊	-10.3672
三統	-10.3672
髙股	-10.3674
島	-10.3674
萬四千七百	-10.3677
半圏	-10.3677
平勾	-10.3677
由是	-10.3681
三邉	-10.3682
沙	-10.3684
畸零	-10.3685
未初初刻	-10.3686
揆	-10.3687
申初二刻	-10.3687
巳初一刻	-10.3687
辰正初刻	-10.3689
郊	-10.3689
寅正初刻	-10.3691
祐	-10.3691
曹	-10.3691
真時距分	-10.3692
晝夜長短	-10.3694
之逺近	-10.3694
乙未朔	-10.3699
大圜	-10.3699
黄鍾	-10.37
均圏	-10.3705
四邊	-10.3705
鈍角形	-10.3706
下方	-10.3706
如在	-10.3709
復圎	-10.3713
地下	-10.3715
二平均	-10.3719
交定度	-10.3722
故有	-10.3729
二行	-10.3733
有定	-10.3733
去之餘	-10.3733
萬分	-10.3734
度等	-10.3735
庚辰日	-10.3735
六卷	-10.3736
任作	-10.3736
壬寅朔	-10.3736
必先	-10.3736
正月辛亥朔	-10.3738
所論	-10.3744
其用	-10.3745
長方體積	-10.3748
可作	-10.3751
首尾	-10.3753
庚午朔	-10.376
度五十六分	-10.3765
向北	-10.3772
内又	-10.378
得八十	-10.3783
僧	-10.3785
答	-10.3786
丙弧	-10.379
次用	-10.3793
皇極弦	-10.3794
通之得	-10.3798
次均數	-10.3798
減積	-10.3799
五倍	-10.38
視其	-10.3802
向東	-10.3802
鳴	-10.3804
為平行	-10.3806
杜	-10.3807
戴	-10.3808
扵	-10.3808
戌正二刻	-10.3809
鍾	-10.381
酉初初刻	-10.381
輿	-10.381
耕	-10.3811
萬一千	-10.3812
閏十月	-10.3812
敎	-10.3814
費	-10.3815
上兩直角方形并	-10.3817
廣袤	-10.3821
及分秒	-10.3825
尺七寸	-10.3826
不拘	-10.3832
與甲庚	-10.3837
子寅	-10.3838
小圏	-10.3838
十月朔	-10.3839
戊辰日	-10.3841
立方籌	-10.3844
丙寅朔	-10.3848
南門	-10.3849
至庚	-10.3856
其根	-10.3862
壬午朔	-10.3862
直景	-10.3866
四色	-10.3868
平方少	-10.3869
一十二度	-10.3876
所成之	-10.3887
則兩	-10.389
漢厯	-10.3896
正月丙寅朔	-10.3901
為三商	-10.391
下弦	-10.3913
十有二	-10.3913
五石	-10.3915
之比而得	-10.3916
二百五十里	-10.3916
乘法	-10.3917
博	-10.3923
減從	-10.3924
提	-10.3927
俗	-10.3928
機	-10.3928
宫度分	-10.393
無數	-10.3931
籍	-10.3931
午初初刻	-10.3935
辰正三刻	-10.3936
聯	-10.3937
其較	-10.3938
申初一刻	-10.3938
丑子	-10.3939
七分内一秒冬至	-10.3944
墜	-10.3945
丁酉朔	-10.3945
夏税	-10.3947
丁巳日	-10.3947
然後以	-10.395
武王	-10.3954
星辰	-10.3958
錦	-10.3958
西行	-10.396
之言	-10.3964
為益從	-10.3967
所多	-10.3967
前後兩	-10.3968
之對數	-10.3968
十八兩	-10.3971
一大	-10.3974
野	-10.3975
宗動	-10.3979
嵗星	-10.3982
六時	-10.3987
丙寅日	-10.3987
始於	-10.3999
於中	-10.4001
宿距星	-10.4007
一百五十七	-10.4007
弦幂	-10.4009
一十四度	-10.4013
甲戌日	-10.4017
戊申日	-10.402
或有	-10.402
時之	-10.402
萬一千五百	-10.4022
凡言	-10.4025
丁未日	-10.4028
丙申日	-10.4033
聨	-10.4038
歸之	-10.4039
甲乙弧	-10.4039
借數	-10.4044
有食	-10.4047
農	-10.4047
二十六秒	-10.4047
縱多	-10.4048
日至	-10.4054
在丙	-10.4055
萬二千四百	-10.4056
辰初初刻	-10.4056
役	-10.4058
巳初二刻	-10.406
舜	-10.406
狀	-10.406
豫	-10.4061
與半徑	-10.4062
價多	-10.4062
戊午日	-10.4063
對角斜線	-10.4063
位之	-10.4064
鼈臑	-10.4066
触	-10.4066
㢘	-10.4068
初商次商之	-10.4069
日戌初三刻	-10.4073
再乘	-10.4077
日月之	-10.4077
不知其	-10.4078
申時日食	-10.4079
也蓋	-10.408
又從	-10.408
剖之	-10.4084
廣狹	-10.4091
甲乙戊	-10.4092
之中率	-10.4092
步問	-10.4096
寅角	-10.4098
豈非	-10.4098
七丈	-10.4098
出東門	-10.41
赤道南	-10.41
盈縮厯	-10.4109
真數	-10.411
平地	-10.4119
二千六百	-10.412
為方法	-10.4121
戊戌朔	-10.4121
之學	-10.4124
有半	-10.4126
度三十七分	-10.4126
上之	-10.4128
用減	-10.4129
兩體	-10.413
秋正	-10.4131
第二十	-10.4135
漸近	-10.4136
相等而	-10.4137
兩旁	-10.4137
分一十五秒	-10.414
則必	-10.4142
一百三十五	-10.4146
無不	-10.4148
同但	-10.4149
者非	-10.4151
所居	-10.4154
庚申日	-10.4162
與寅	-10.4163
遞減	-10.4164
乙酉日	-10.4165
以小	-10.4169
異同	-10.4169
丁丑日	-10.417
諸天	-10.4177
丑壬	-10.4179
初末	-10.4179
一百七十六	-10.4181
雷	-10.4181
昧	-10.4184
正月甲戌朔	-10.4184
底邊	-10.4185
純	-10.4186
作識	-10.4186
春分後	-10.4186
曽	-10.4187
兩徑	-10.4189
秘	-10.4189
公論	-10.419
乙丙邉	-10.4191
視朔	-10.4191
康熙	-10.4192
寅正一刻	-10.4192
日亥初二刻	-10.4192
閲二百十六期積七萬八千八百九十	-10.4192
魁	-10.4193
三十五度	-10.4195
庚戌日	-10.4196
寅初三刻	-10.4198
明徐光啟等撰	-10.4199
輕重	-10.4199
逺鏡	-10.4207
上弦	-10.421
十一月朔	-10.4212
作甲丁	-10.4217
無定	-10.4218
臣淳風等謹按	-10.422
中長線	-10.4221
之行度	-10.4221
衍數	-10.4222
因以	-10.4226
即定	-10.4226
二三均數	-10.4227
共銀數	-10.4227
論其	-10.4229
為加差	-10.4229
倍積	-10.423
九宫	-10.4233
股與	-10.4238
四億	-10.4239
撱圓體	-10.4239
萬三千六百	-10.4241
行率	-10.4243
二萬四千	-10.4244
四千八百	-10.4251
并等	-10.4254
累加之	-10.4255
高下	-10.4255
至地平	-10.4258
相減餘二	-10.4259
積等	-10.4263
截取	-10.4266
内減之餘	-10.4266
七兩	-10.4271
幾何法	-10.4276
此年	-10.4276
分一十九秒	-10.428
必得	-10.428
兩界	-10.4285
皆不	-10.4286
也假如	-10.429
丙申朔	-10.4291
建子	-10.43
者或	-10.43
下法	-10.4303
七月朔	-10.4304
揚	-10.4308
與丙戊	-10.4315
相通	-10.4315
疊	-10.432
私	-10.432
辯	-10.4322
惡	-10.4323
基	-10.4326
渾天儀	-10.4326
太隂之	-10.4327
異併	-10.4327
最高行	-10.4331
為全數	-10.4332
一匹	-10.4333
分者	-10.4334
次行	-10.4335
同者	-10.4336
不異	-10.4343
二錢	-10.4343
四百六十	-10.435
又求得	-10.435
乙得	-10.435
成直角	-10.435
日午正初刻	-10.4354
立冬	-10.4358
遊	-10.4358
平行而	-10.436
左下	-10.4361
各節氣	-10.4362
度四十三分	-10.4363
二分五釐	-10.4364
在子	-10.4364
之原	-10.4365
分内五十一秒冬至史	-10.4366
合為一	-10.4368
諸家	-10.4373
丙辰朔	-10.4374
分三釐	-10.4375
甲寅朔	-10.4376
壬丑	-10.4377
效	-10.4379
甲丙戊	-10.4381
形等	-10.4382
表得	-10.4387
萬七千五百	-10.4388
同法	-10.4389
度三十六分	-10.4409
各自乘	-10.4409
第三次	-10.4409
徧	-10.4411
之㫖	-10.4416
之法以	-10.442
分五十三秒	-10.4421
圓界	-10.4421
於右	-10.4426
甲戌朔	-10.4427
比之	-10.4429
之數為	-10.443
以六十	-10.443
所記	-10.4431
蒙氣差	-10.4432
筒	-10.4434
四十五分	-10.4436
化作	-10.4437
白經	-10.4437
四面	-10.4438
落	-10.4442
轂	-10.4444
雅	-10.4445
表間	-10.4445
秒二十微	-10.4446
李淳風	-10.4446
淳風	-10.4448
鑿	-10.4449
交均	-10.445
剰	-10.445
随	-10.4451
己巳日	-10.4451
過此	-10.4452
丑初二刻	-10.4452
用此	-10.4454
十三分内一秒冬至	-10.4455
才	-10.4457
而取	-10.4465
商之	-10.4467
方亷	-10.447
月輪	-10.447
率得	-10.4472
戊己庚	-10.4474
反之	-10.4475
羅計	-10.4479
虚勾	-10.4484
八十尺	-10.4487
此其	-10.4491
七分内三十一秒冬至	-10.4493
一定	-10.4494
二千一百	-10.4494
為元	-10.45
億三千	-10.4504
在地	-10.4505
之正切線	-10.4506
二因	-10.4512
二十一分	-10.4513
百分之	-10.4513
丑卯	-10.4514
六百八十	-10.4515
求弦	-10.4519
度五十一分	-10.453
分餘	-10.453
各度	-10.4531
大腰	-10.4532
空心	-10.4535
從戊	-10.4535
交㑹	-10.4546
度與	-10.4549
開方除之	-10.4551
羲	-10.4552
實度	-10.4553
半總	-10.4553
員徑	-10.4556
之單位	-10.4557
又求	-10.4557
五錢	-10.4558
之勢	-10.4559
二十一秒	-10.456
腹	-10.4565
一切	-10.4566
月距	-10.457
隋	-10.4575
喜	-10.4575
故云	-10.4577
相因	-10.4577
七百四十	-10.4579
裁	-10.458
病	-10.4583
苟	-10.4583
綱	-10.4583
辰正二刻	-10.4584
黄白大距	-10.4587
日未正二刻	-10.4588
庸	-10.4588
南北二極	-10.459
勅	-10.4591
三一四	-10.4591
得五十	-10.4593
半弧弦	-10.4595
盈不足	-10.4599
一十度	-10.46
子壬	-10.46
丙子朔	-10.4603
正西	-10.4604
尺卽	-10.4605
免	-10.4606
井深	-10.4607
自相乗得	-10.461
二十八日	-10.4611
五百七十六	-10.4613
與食甚	-10.4619
同升	-10.4626
赤道經緯度	-10.4628
六百一十	-10.4631
對角之	-10.4631
三十尺	-10.4632
數相乘	-10.4632
小寒	-10.4632
又何	-10.4635
必須	-10.4635
球徑	-10.4636
六步	-10.4637
四因之得	-10.4638
交泛	-10.4643
勾弦	-10.4646
右下	-10.4649
是名	-10.465
一百二十度	-10.465
每度	-10.4651
三千一百	-10.4653
九十分	-10.4654
萬二千八百	-10.4657
八石	-10.4658
乙甲丁	-10.4661
分三十二秒	-10.4664
異類	-10.4664
變而	-10.4665
度二十一分	-10.4673
齊其	-10.4675
髙弦	-10.4676
只云	-10.4678
月實行	-10.4685
言其	-10.4685
萬三千五百	-10.4692
郭守敬	-10.4695
三月朔	-10.4699
欲作	-10.4703
入表	-10.4706
勾圓差	-10.4712
欲以	-10.4712
以十二	-10.4712
骨	-10.4715
啟	-10.4716
羲和	-10.4718
夾鐘	-10.4718
亥初一刻	-10.472
子正三刻	-10.4721
早晚	-10.4722
左上	-10.4722
已上者	-10.4724
一疋	-10.4725
己酉朔	-10.4725
與丁己	-10.4727
斜弧三角形	-10.4727
豪有餘	-10.4727
平年	-10.4731
丈尺	-10.4731
與戊乙	-10.4734
潮	-10.4738
公同	-10.474
夷則	-10.4744
等其	-10.4751
得二十四	-10.4752
月朔	-10.4752
一歲	-10.4752
又在	-10.4753
甲丁線	-10.4758
所至	-10.476
之左	-10.476
之餘弧	-10.4761
半徑一千萬	-10.4764
平行作	-10.4765
六等邊形	-10.477
申酉	-10.4774
非也	-10.4778
表端	-10.4779
改元	-10.4781
燈體	-10.4781
丙與丁	-10.4781
一里	-10.4786
二百五十六	-10.4786
乙南行	-10.4795
此術	-10.4797
最髙行	-10.4797
度四十七分	-10.4798
地體	-10.4799
甲午日	-10.4803
正月辛未朔	-10.4804
己丑朔	-10.4804
與丁乙	-10.4806
兩為二率	-10.481
無從	-10.4811
月晦	-10.4814
三十一日	-10.4817
長廣	-10.482
十步	-10.482
乙亥朔	-10.4822
甲之	-10.4822
兩个	-10.4829
既同	-10.4831
兩角等	-10.4833
分四十八秒	-10.4835
以内	-10.4835
度五十七分	-10.4836
為減差	-10.4837
也但	-10.4837
乗方積	-10.4838
凝	-10.4841
下數	-10.4841
營室	-10.4846
又法以	-10.4846
在前	-10.4847
竒零	-10.4847
在天頂	-10.4849
福	-10.4849
股圓差	-10.4851
閉	-10.4851
襄	-10.4851
筩	-10.4851
㳺	-10.4852
迨	-10.4853
為半徑作	-10.4854
三十三度	-10.4855
紙	-10.4857
有兩	-10.4857
乙丁線	-10.4858
影長	-10.4858
咨	-10.4858
臆	-10.4858
一百一十二	-10.4859
亦大于	-10.486
在其	-10.486
仰觀	-10.4861
一百八十二	-10.4862
碗	-10.4863
反是	-10.4864
立於	-10.4866
庚辛壬癸	-10.4868
昭公	-10.4869
之一邊	-10.4871
未盡	-10.4874
日亥初三刻	-10.4874
初虧用時	-10.4875
兌	-10.4875
庚申朔	-10.4882
或曰	-10.4885
角必	-10.4885
測望	-10.489
平方多	-10.4894
大一倍	-10.49
周之	-10.4903
兩矢較	-10.4906
所餘之	-10.4907
萬五千六百	-10.4908
多六	-10.4912
正弦與	-10.4914
萬五千二百	-10.4919
大船	-10.4927
律厯	-10.493
己巳朔	-10.4933
出之	-10.4936
錐體	-10.4939
法與	-10.4941
年差一度	-10.4942
小船	-10.4944
不出	-10.4944
甚逺	-10.4945
辛子	-10.4946
戊寅朔	-10.4947
朱子	-10.4952
上一位	-10.4955
外面積	-10.4956
癸己	-10.4958
外數	-10.4958
分形	-10.4961
五百一十	-10.4969
庚寅朔	-10.4971
俱以	-10.4971
為帶縱	-10.4973
辛壬癸	-10.4974
即得所求	-10.4974
割圜	-10.4976
乙酉朔	-10.4977
比例法	-10.4981
斗柄	-10.4981
噐	-10.4982
厯經	-10.4984
温	-10.4984
紫	-10.4985
前數	-10.4987
乙丑日	-10.4988
苦	-10.499
絡	-10.4993
稷	-10.4993
舒	-10.4995
幷	-10.4997
得下式	-10.4997
去減	-10.4999
三九八	-10.5
矩内形	-10.5
巳初三刻	-10.5001
四千六百	-10.5002
着	-10.5003
崇	-10.5003
辛丑日	-10.5003
殘	-10.5005
倍于	-10.5006
四千九百	-10.501
者曰	-10.5011
四乘	-10.5014
皆從	-10.5016
全形	-10.5018
則甲乙	-10.5019
翻法	-10.5019
次形之	-10.5027
大夫	-10.5029
合于	-10.503
容積	-10.5033
乙甲丙	-10.5035
六石	-10.5036
萬三千二百	-10.5036
同也	-10.5036
所云	-10.5037
周禮	-10.504
設如有銀	-10.5043
界作	-10.5043
順天	-10.5043
一尺四寸	-10.5049
之西	-10.5052
八百五十	-10.5055
建寅	-10.5061
半徑全數	-10.5066
一十二尺	-10.5076
在此	-10.5079
萬二千六百	-10.5079
丙得	-10.508
即大	-10.5081
算外	-10.5081
在限西	-10.5082
分五十六秒	-10.5082
日軌	-10.5087
之比例亦	-10.5088
相減餘一	-10.5089
實髙	-10.5091
之物	-10.5092
圜積	-10.5093
是其	-10.5105
任取	-10.5109
午中	-10.5109
止有	-10.511
行遲	-10.511
頒	-10.5117
無光	-10.5117
倍於	-10.512
斜冪	-10.5122
乃至	-10.5124
所少	-10.5126
各省	-10.5127
立垂線	-10.5128
濟	-10.5129
一百二十六	-10.5132
啓	-10.5132
終古	-10.5133
訓	-10.5135
峯	-10.5135
甲辰日	-10.5136
寅初一刻	-10.5139
飯	-10.514
丑正初刻	-10.5141
亞	-10.5141
之正弦與	-10.5143
料	-10.5145
四乗	-10.5147
法數	-10.5147
黄赤二道	-10.5147
天象	-10.5149
未知	-10.515
因而	-10.5153
秒為	-10.5153
閏十一月	-10.5157
相符	-10.5159
望見	-10.516
壬癸子丑	-10.5162
餘即	-10.5168
四分内三十一秒冬至	-10.5169
大圓	-10.5171
四萬八千	-10.5173
斗八升	-10.5173
横量	-10.5178
實均	-10.5179
交處	-10.518
而下	-10.5182
一千四百四十	-10.5183
萬六千八百	-10.5185
丙戌日	-10.5187
丙辰日	-10.5188
以黄道	-10.5189
一百二十八	-10.519
下文	-10.5191
二十兩	-10.5192
物價	-10.5195
極星	-10.5195
均輪半徑	-10.5197
冬夏至	-10.5198
所立	-10.5199
日出分	-10.5199
法除實得	-10.5204
七百九十	-10.521
隂陽厯	-10.521
靈臺	-10.5211
分四十九秒	-10.5211
度四十六分	-10.5222
其書	-10.5222
七錢	-10.5224
黄道極	-10.5224
五十八度	-10.5224
分一十六秒	-10.5226
之日數	-10.5231
徑以	-10.5232
官生	-10.5234
司天	-10.5234
分三十六秒	-10.524
于甲	-10.524
辛未日	-10.5243
本天心	-10.5244
二長方	-10.5247
分四十七秒	-10.5249
不可得	-10.525
閏五月	-10.5251
勾也	-10.5256
分五十四秒	-10.5257
界形	-10.5259
己子	-10.526
參差	-10.5262
于丁	-10.5262
則當	-10.5263
午時日食	-10.5264
交道	-10.5265
六合	-10.5266
爐	-10.5266
棄	-10.5268
不如	-10.527
救	-10.5274
術曰列	-10.5274
數又以	-10.5277
同異	-10.5278
於後	-10.5279
二兩四錢	-10.5279
一萬三千	-10.5279
傅	-10.528
緣	-10.5281
紐	-10.5282
市	-10.5284
0	-10.5285
日巳正初刻	-10.5286
5	-10.5286
奉㫖	-10.5289
在赤道南	-10.5292
漢志	-10.5294
日申初三刻	-10.5296
子丁	-10.5301
交於	-10.5305
此亦	-10.5307
實得	-10.5311
丁未朔	-10.5314
積以	-10.5314
乙丙底	-10.5315
等又	-10.5317
閏八月	-10.5318
以成	-10.5318
於庚	-10.5319
有常	-10.5319
兩餘弦	-10.532
厯代	-10.5321
五千六百	-10.5324
之羃	-10.533
所得為	-10.533
置一自之	-10.5333
於己	-10.5334
雖不	-10.5336
得四率	-10.5338
二均數	-10.534
為凖	-10.534
三千五百	-10.5348
尚書	-10.5348
既以	-10.5349
貫文	-10.5352
日行一度	-10.5353
甲得	-10.5357
大邉	-10.5357
在限東	-10.5357
退位	-10.5361
庚辛壬	-10.5361
正月甲子朔	-10.5362
内去	-10.5363
餘句	-10.5369
次輪心在	-10.537
子正初刻	-10.537
相等故	-10.5371
者葢	-10.5377
初刻	-10.5385
為法除實得	-10.539
赤道髙	-10.54
其外	-10.5401
圓球徑	-10.5404
於前	-10.5409
幽	-10.5412
正北	-10.5413
而南	-10.5418
二曰	-10.542
宣城梅文鼎撰	-10.542
暮	-10.5421
卯初一刻	-10.5421
二十年	-10.5423
日丑初初刻	-10.5423
𫝊	-10.5426
霜降	-10.5426
屏	-10.5427
萬一千八百	-10.5427
日巳正二刻	-10.5429
竝	-10.5429
之共	-10.543
朓朒	-10.5432
四月朔	-10.544
具奏	-10.544
饅首	-10.5442
如一	-10.5444
修改	-10.5444
億二千	-10.5454
清明	-10.5455
當食	-10.5458
兩分母	-10.546
大雪	-10.5461
和也	-10.5462
弦實	-10.5463
五人	-10.5464
大則	-10.5466
也且	-10.5466
小雪	-10.5473
數相併	-10.5473
運轉	-10.5475
此書	-10.5478
末作	-10.5478
在赤道北	-10.5484
百尺	-10.5485
斤之	-10.5485
三十二尺	-10.5486
皆非	-10.5487
以此為	-10.5487
以赤道	-10.549
食也	-10.5501
得二千	-10.551
之際	-10.5512
弧之度	-10.5522
所函	-10.5523
津	-10.5529
八十兩	-10.5531
星經度	-10.5531
輻線	-10.5533
不止	-10.5536
求等得	-10.5537
二宫	-10.5537
酉正初刻	-10.5539
此外	-10.5543
太陽距天頂	-10.555
分與	-10.5552
至辛	-10.5552
壬辰日	-10.5554
歩之	-10.5555
二百四十三	-10.5556
塊	-10.5557
同心	-10.5558
鹿	-10.5558
退行	-10.556
澤	-10.5564
幸	-10.5567
日距正交	-10.5568
正方邊	-10.5569
藉	-10.557
共一百	-10.5572
亥正二刻	-10.5572
小則	-10.5572
在戊	-10.5573
日子正二刻	-10.5575
癸丑朔	-10.5575
斜步	-10.5575
夜子初三刻	-10.5575
日午正一刻	-10.5577
干支	-10.5577
第四率	-10.558
周公	-10.5581
允	-10.5581
三四五	-10.5582
丙子日	-10.5582
為本	-10.5584
下層	-10.5584
也如有	-10.5587
丁酉日	-10.5587
股率	-10.5588
在本天	-10.5588
也術曰	-10.559
子曰	-10.559
癸酉朔	-10.559
一處	-10.5592
交中	-10.5596
辛酉日	-10.5598
正月丁巳朔	-10.56
卽得	-10.5608
子丙	-10.561
立三角	-10.5612
皆用	-10.5613
八六六	-10.5615
中比例	-10.5616
弧正弦	-10.5618
辛巳日	-10.5621
一萬八千	-10.5628
上數	-10.5632
之中心	-10.5632
夏之	-10.5634
正月甲午朔	-10.5637
在後	-10.564
八分内一秒冬至	-10.564
小者	-10.5645
帶分	-10.5646
故必	-10.5647
漢書	-10.5647
於赤道	-10.5651
等者	-10.5653
得一十二	-10.5654
去離	-10.5655
池積	-10.566
二十步	-10.5662
厯元甲子年	-10.5667
二十二秒	-10.5668
又各	-10.5677
萬三千四百	-10.5685
過極	-10.5693
石之	-10.5694
四宫	-10.5699
史二月	-10.5702
兔	-10.5703
十二律	-10.5706
伸	-10.5708
楊	-10.5713
濁	-10.5714
毛	-10.5715
萬八千七百	-10.5716
之餘切	-10.5717
池徑	-10.5718
庚子日	-10.5719
在己	-10.572
踈	-10.572
上元	-10.5721
不知步數	-10.5721
徑冪	-10.5722
巳正一刻	-10.5722
襍	-10.5722
靑	-10.5723
境	-10.5725
正月戊子朔十一月	-10.5725
枝	-10.5725
歷	-10.5726
減者	-10.573
復於	-10.5734
辰時日食	-10.5734
日未正一刻	-10.5736
同為	-10.5738
股弦差	-10.574
平引	-10.5742
為甲丁	-10.5744
大而	-10.5745
東移	-10.5747
五千七百	-10.5748
每匹	-10.5754
陽城	-10.5757
壬為	-10.5758
廉隅	-10.5763
虧復	-10.5763
為乙丙	-10.5765
一千萬	-10.5766
者因	-10.5766
星距地	-10.5767
六百二十五	-10.5767
列於下	-10.5767
丈八尺	-10.5774
五月朔	-10.5774
二十九分	-10.5783
設有	-10.5793
股冪	-10.5795
百億	-10.5797
已下者	-10.5803
日辰初一刻	-10.5803
晨見	-10.5804
少廣	-10.5805
三十一度	-10.5805
十分之一	-10.5809
撱	-10.5809
閏七月	-10.5812
也因	-10.5818
上長	-10.5821
不入食限	-10.5823
失閏	-10.583
二百三十五	-10.5834
又論曰	-10.5841
益廉	-10.5844
可知也	-10.5845
氣應	-10.5846
所能	-10.5846
千五百	-10.5846
之影	-10.5849
距差	-10.5849
正月丙午朔	-10.5852
相等也	-10.5855
八月朔	-10.5857
屈	-10.5858
在甲	-10.5858
三限	-10.5858
如此則	-10.5858
三斗	-10.5863
一百一十五	-10.5868
礙	-10.5868
需	-10.5869
次引	-10.587
邜	-10.587
禪	-10.5873
對邉	-10.5873
各行	-10.5874
卯正二刻	-10.5874
衛	-10.5874
冬夏	-10.5875
龠	-10.5875
概	-10.5876
摩	-10.5876
正月壬辰朔十一月	-10.5877
為腰	-10.5878
脗合	-10.5878
髙差	-10.5885
燭	-10.5886
第十一	-10.5887
兩面	-10.5888
次從	-10.5889
加減表	-10.5893
員周	-10.5893
自圜心	-10.5894
和買	-10.5895
初虧真時	-10.5902
于乙	-10.5908
天左旋	-10.591
食甚在	-10.5913
交後	-10.5923
子乙	-10.5923
即為所求	-10.5927
為限	-10.593
原設	-10.593
處暑	-10.5935
月平行	-10.5938
武帝	-10.594
日酉初二刻	-10.5947
降婁宫	-10.5949
夘時	-10.5949
古之	-10.5956
十二辰	-10.5957
次輪周	-10.5965
上三星	-10.597
六百五十	-10.5973
相較則	-10.5974
而此	-10.5974
方數	-10.5975
日子正後	-10.5976
距南	-10.5977
一弧	-10.5979
陽馬	-10.5979
卯正	-10.5981
俱相等	-10.5985
七分半	-10.5986
弧即	-10.5987
交㸃	-10.599
丁心	-10.5992
尺又以	-10.6001
太虚	-10.6003
大火宫	-10.6005
爽	-10.6006
分五十八秒	-10.6009
萬四千五百	-10.6009
重數	-10.6009
東行步	-10.6011
則又	-10.6011
為平實	-10.6012
也又以	-10.6015
戊與己	-10.6016
俯	-10.6017
原有之	-10.602
消息	-10.602
矢較	-10.6023
至元辛巳	-10.6024
鹽	-10.6024
禄	-10.6024
統天厯	-10.6025
其言	-10.6027
日戌正一刻	-10.6028
觧	-10.6028
閲	-10.6028
日辰正一刻	-10.6028
撿	-10.6029
九丈	-10.6029
淨	-10.6029
遍乗	-10.6032
食甚定分	-10.6033
日辰初二刻	-10.6034
距等圈	-10.6034
七百七十	-10.6034
稿	-10.6035
子午圈	-10.6036
轉而	-10.6037
由此	-10.6037
彼此減盡	-10.604
一萬一千	-10.6042
于己	-10.6047
測天	-10.6051
度二十四分	-10.6052
簡易	-10.6052
地平線	-10.6052
前論	-10.6052
後人	-10.6057
四除	-10.6059
兩處	-10.6059
個月	-10.6062
二尺五寸	-10.6078
去人	-10.6082
而東	-10.6082
極髙	-10.6088
三千四百	-10.609
一十五日	-10.6093
本天半徑	-10.6095
十三尺	-10.6098
當在	-10.6099
得三十六	-10.6102
多故	-10.6105
只有	-10.6106
甲㸃	-10.6106
之書	-10.6107
石四斗	-10.6109
黄道北	-10.611
亦可以	-10.611
嵗周	-10.611
無論	-10.611
下式	-10.6125
若干度	-10.613
庚子朔	-10.6131
月光	-10.6131
根相等	-10.6132
矣其	-10.6133
栗	-10.6134
用其餘	-10.6135
三百七十五	-10.6136
小星	-10.6136
甲銀	-10.614
以御	-10.614
同底	-10.6141
萬三千三百	-10.6142
得十二	-10.6143
行分	-10.6145
過九十度	-10.6146
一七三	-10.6147
于上	-10.6148
寅乙	-10.6148
分三十五秒	-10.615
又以初商之	-10.6152
捷	-10.6152
步問答同前法曰	-10.6154
為三率求得四率為	-10.6155
若夫	-10.6156
中心至	-10.6157
如有	-10.6159
皇上	-10.6159
子正後	-10.617
次均輪	-10.6172
測景	-10.6173
以日法	-10.6173
五十六分	-10.6175
度五十二分	-10.6176
近少	-10.6178
按此術	-10.6178
周天度	-10.6178
交黄道	-10.6179
九石	-10.6179
紀元厯	-10.6179
賣	-10.618
戰	-10.618
壤	-10.6181
日巳初初刻	-10.6181
嗣	-10.6181
又以上	-10.6182
四位	-10.6183
掛	-10.6183
日亥正初刻	-10.6183
獻	-10.6184
分五十七秒	-10.6184
遵㫖	-10.6186
兩心實相距	-10.6186
初次	-10.6186
緒	-10.6186
正月丁酉朔	-10.6188
針	-10.6188
六十步	-10.6193
晝短	-10.6197
分至	-10.6198
暑	-10.62
遊表	-10.6202
日辰初三刻	-10.6203
三百六十五	-10.6208
弧背	-10.6209
日午正二刻	-10.621
十二分内一秒冬至	-10.6212
底徑	-10.6213
各宿	-10.6215
小差股	-10.6218
至步	-10.6218
魏書	-10.6219
以漸而	-10.6225
分一十二秒	-10.6226
得六百	-10.6227
相距度	-10.6228
一於左上為法置一	-10.6229
乙之	-10.6229
七百一十	-10.623
月己夘朔	-10.6232
七十五度	-10.6232
逺則	-10.6233
二時	-10.6234
四十四度	-10.6235
四百三十	-10.6237
厯象	-10.6237
日申正二刻	-10.6239
呂	-10.6239
全體	-10.6242
二處	-10.6244
與上	-10.6246
冬十月	-10.6248
相從	-10.625
己庚辛	-10.6252
緯圏	-10.6254
以測	-10.6254
一萬四千	-10.626
百七十	-10.6261
其較則	-10.6268
起至	-10.6269
十八尺	-10.6284
二十四氣	-10.6288
交地平	-10.6288
近時距分	-10.6289
平方與	-10.6291
見月	-10.6292
正月己巳朔	-10.6293
最上	-10.6295
縱方	-10.6297
于庚	-10.6297
甲卯	-10.6298
閏六月	-10.6298
九錢	-10.6303
也自	-10.6303
但云	-10.6305
米一石	-10.6305
得所求	-10.6309
秋分後	-10.631
逐度之	-10.6315
㨗	-10.6315
乙丙戊	-10.6317
而甲	-10.6321
角之切線	-10.6321
丸	-10.6325
度一十五分	-10.6326
度五十三分	-10.633
所以然者	-10.633
有二一	-10.6331
十一分内五十一秒冬至	-10.6332
也試	-10.6332
小圜	-10.6333
大明	-10.6333
履	-10.6334
闡	-10.6335
一二四	-10.6336
而上	-10.6336
亦自	-10.6336
棊	-10.6337
共重	-10.634
粗	-10.6341
鑄	-10.6341
輳	-10.6341
排	-10.6342
立天元一	-10.6343
尖方體	-10.6343
相乘得數	-10.6343
混	-10.6344
收之得	-10.6345
一尺六寸	-10.6346
冬夏二至	-10.6346
誰	-10.6347
餘一百	-10.6348
園	-10.6349
克	-10.635
交實緯角	-10.635
正合	-10.6352
厯官	-10.6353
隅因得	-10.6354
為所求之	-10.6357
下長	-10.6359
二百八十八	-10.6361
簡儀	-10.6363
金史	-10.6363
十等邊形之	-10.6365
任意	-10.6366
相消	-10.6366
所到	-10.6367
朔旦冬至	-10.6371
十五兩	-10.6373
與乙戊	-10.6373
母數	-10.6375
正月戊寅朔	-10.6376
必大於	-10.6381
立方與	-10.6382
所知	-10.6384
初虧前設時	-10.6386
之首	-10.639
徑一	-10.6392
為食甚	-10.6393
虚股	-10.6394
一十七度	-10.6397
四千三百	-10.6398
乙與丙	-10.64
日髙	-10.6402
尺相乘得	-10.6404
分度之	-10.6407
八十分	-10.6407
與左相消得	-10.641
大圈	-10.6411
天漢	-10.6415
從丁	-10.6416
直線上	-10.6417
莫不	-10.6417
赤道積度	-10.6419
也次	-10.6421
甲子年甲子月	-10.6421
之較為	-10.6422
此線	-10.6423
丑丁	-10.6426
極差	-10.6427
文公	-10.6429
一百七十五	-10.6431
六之一	-10.6434
既等則	-10.6436
冬至日躔	-10.6437
度四十一分	-10.6437
九千四百	-10.644
萬三千八百	-10.6443
北極高	-10.6445
日寅正二刻	-10.6449
六十秒	-10.6449
三十二度	-10.6451
愈大	-10.6452
躔差	-10.6456
經曰	-10.6461
六百二十	-10.6462
其在	-10.6462
勾自乘	-10.6464
本弧	-10.6466
一方	-10.6466
見日	-10.6467
丁乙丙	-10.6468
奉有	-10.6468
土木	-10.6469
以所得	-10.6469
切於	-10.6472
距食甚之	-10.6473
乙心	-10.6475
厯理	-10.6477
數相減	-10.6479
得三千	-10.6485
彌	-10.6492
三角形内	-10.6494
級	-10.6494
一十一度	-10.6495
􁷷	-10.6497
即甲乙	-10.6498
欠	-10.6498
十二次	-10.6498
獲	-10.65
一尺三寸	-10.65
沿	-10.6504
正切線	-10.6504
髙與闊	-10.6504
卄	-10.6505
自西而東	-10.6506
内减	-10.6506
泥	-10.6507
多祿某	-10.6507
倶	-10.6507
養	-10.6507
月距正交	-10.6508
兄	-10.6508
邱	-10.6508
淺深	-10.651
巳角	-10.6511
北極出地四十度	-10.6511
其徑	-10.6513
八分内三十一秒冬至應閏	-10.6514
理分中末線	-10.6515
萬四千六百	-10.6517
三百六十六日	-10.6518
乾隆	-10.6518
日亥正三刻	-10.6519
為髙	-10.6523
四十六分	-10.6526
人居	-10.6529
商得	-10.6531
正在	-10.6531
而不知	-10.6542
為初商	-10.6542
甲丙乙丁	-10.6544
更有	-10.6544
廉隅共	-10.6547
尺九寸	-10.6548
尺即	-10.6548
二十五步	-10.655
日申正初刻	-10.6553
弦較	-10.6558
如前圖	-10.6558
根為	-10.6558
南行步	-10.6559
適當	-10.6562
其星	-10.6563
過於	-10.6566
太陰實行	-10.6567
累加	-10.6571
渾圜	-10.6572
大差勾	-10.6577
五十三度	-10.6578
一二三四	-10.6584
之比而	-10.6585
自相等	-10.6587
為平行線	-10.6587
大典	-10.6587
必大于	-10.6589
右例	-10.6591
甚大	-10.6595
先求得	-10.6596
七千五百	-10.6597
太陽太隂	-10.6597
癸卯日	-10.6598
宜加	-10.6598
作垂弧	-10.6599
二八五	-10.66
在地平	-10.6603
三邊形	-10.6603
任用	-10.6605
數乘	-10.6609
界所作	-10.661
兩平行線	-10.6611
以甲為心	-10.6614
全積	-10.6614
與丙甲	-10.6614
法見	-10.6614
五百五十	-10.6615
之正弦為二率	-10.6619
四等	-10.6621
星圖	-10.6621
又同	-10.6622
兩幾何	-10.6624
一尺一寸	-10.6628
入地平	-10.6629
線引長	-10.6635
壬寅日	-10.6636
乙從	-10.6639
三十三分	-10.6641
相逺	-10.6641
上古	-10.6642
不足減	-10.6642
乗商	-10.6643
改為	-10.6643
月徑	-10.6643
若欲	-10.6648
于辛	-10.6649
蛇	-10.6649
為小分	-10.665
容員	-10.6655
淵	-10.6661
光體	-10.6661
龜	-10.6662
叔	-10.6663
每面	-10.6664
卯初二刻	-10.6664
三十五分	-10.6667
探	-10.6667
驚蟄	-10.6668
日未正三刻	-10.6668
送	-10.667
璣衡	-10.6673
訪	-10.6673
開三乘方	-10.6674
鈞	-10.6674
乾坤	-10.6674
合前問今有	-10.6675
發斂	-10.6677
一條	-10.6677
嵗在	-10.6682
二十面體之	-10.6682
子辛	-10.6684
自乗之方	-10.6684
本色	-10.6684
而甲乙	-10.6686
六分之一	-10.6688
丙銀	-10.6689
之樞	-10.6693
負積	-10.6694
距算	-10.6694
其法以	-10.6694
里餘	-10.6697
一萬七千	-10.6699
丁丙邉	-10.6699
十二宮	-10.6705
三角形有	-10.6705
八百六十	-10.6709
各一	-10.6711
去表	-10.6712
卷一	-10.6713
爲多	-10.6713
十五分内一十一秒冬至	-10.6715
七升	-10.6719
丙巳	-10.6726
食甚時刻	-10.6729
為大股	-10.673
章月	-10.673
食甚交周	-10.673
度分秒	-10.6733
足以	-10.6734
衝太陽	-10.6738
以正	-10.6739
在乙	-10.6741
有異	-10.6743
在丁	-10.6746
回暦	-10.6749
挨	-10.6754
邊數	-10.6755
七十分	-10.6761
在西	-10.6763
丁亥日	-10.6763
所得四率	-10.6765
○○○○○○○	-10.6766
六錢	-10.6766
内少	-10.6766
也若以	-10.6768
元數	-10.6769
以加減	-10.6771
從上	-10.6776
收為	-10.6782
九分内二十一秒冬至	-10.6783
下有	-10.6787
過冬至	-10.6792
二除	-10.6796
二次	-10.6796
六分内五十一秒冬至	-10.6796
午位	-10.6796
為戊	-10.6798
除之即得今有	-10.68
行一周	-10.6806
列實	-10.6806
三萬六千	-10.6806
宣明厯	-10.6807
求太隂	-10.6814
帛	-10.6814
日時	-10.6816
半和	-10.6816
而定	-10.6821
旱	-10.6824
其景	-10.6825
陣	-10.6826
倂	-10.6829
宇	-10.683
故於	-10.683
夜子初初刻	-10.6832
即所求解曰	-10.6834
洪武	-10.6834
半圓	-10.6834
平行則	-10.6835
閻浮提	-10.6835
十四刻	-10.6835
班	-10.6835
舎	-10.6837
向西	-10.6837
定分	-10.6837
亷積	-10.6838
勒	-10.684
螺旋	-10.6842
正月乙巳朔	-10.6844
約得	-10.6849
相乘之數	-10.6851
甲申朔十一月	-10.6853
高庳	-10.6858
二十一尺	-10.6859
此理	-10.686
俱倣此	-10.6864
者此	-10.6872
切形	-10.6872
小暑	-10.6876
距北	-10.6879
則月	-10.6884
晷景	-10.6885
長方體之	-10.6886
夕見	-10.6888
也曰	-10.6889
七十二步	-10.689
黄道宿度	-10.6892
丙角正弦	-10.6893
與己丙	-10.6897
分二十九秒	-10.6897
一百四十七	-10.6901
有閏	-10.6903
下田	-10.6904
晨分	-10.6904
少者	-10.6908
改商	-10.6913
四十步	-10.6914
受光	-10.6915
長方面積	-10.6916
甲戊線	-10.6918
兩圏	-10.6927
離地	-10.6929
復圓真時	-10.6931
髙庳	-10.6932
三曰	-10.6935
三除之得	-10.6936
乙丙線	-10.6937
第十二	-10.6937
有盈縮	-10.6939
甲乙丙角	-10.6943
平靣	-10.6944
二萬五千	-10.6947
減分	-10.6947
俱同	-10.6958
為大分	-10.6962
益積	-10.6969
五分内一秒冬至	-10.6969
歳差	-10.6973
二百四十步	-10.6973
重修大明厯	-10.6973
相直	-10.6978
行一度	-10.6979
水火	-10.698
耗	-10.6982
月半徑	-10.6987
剛	-10.6987
度二十二分	-10.6989
布算	-10.6989
甲乙丙三	-10.699
崩	-10.6991
次第	-10.6995
顓頊	-10.6997
丙角為	-10.6997
在斗	-10.6997
所説	-10.6998
正球	-10.6999
橋	-10.7001
縮初盈末	-10.7002
況	-10.7002
新法算書	-10.7005
藝	-10.7006
遥	-10.7006
進呈	-10.7009
日戌正初刻	-10.7009
各面	-10.701
卯初三刻	-10.7011
尖堆	-10.7013
而在	-10.7014
圓面積	-10.7016
大角	-10.7017
赤道宿度	-10.7018
斗六升	-10.702
第二率	-10.7023
之器	-10.7026
從廉	-10.7026
亷隅	-10.7029
倍之即	-10.703
日食分秒	-10.7031
不爽	-10.7033
十二月朔	-10.7034
心甲	-10.7038
七政之	-10.7041
丁丙邊	-10.7042
五次	-10.7044
三萬二千	-10.7048
諸書	-10.7048
三種	-10.705
何則	-10.7053
一十八秒	-10.7057
萬一千四百	-10.7059
之分秒	-10.7059
所躔	-10.706
同時	-10.7066
小僧	-10.7069
六十六度	-10.7069
末以	-10.707
蔡	-10.7071
夘辰	-10.7071
為天頂	-10.7072
亦當	-10.7074
而一所得	-10.7075
距地心線	-10.7077
實沈宫	-10.7079
得二十七	-10.7083
去其	-10.7087
除積	-10.7089
為朔	-10.709
直田	-10.7091
己未朔	-10.7093
設數	-10.7096
求角	-10.7099
月庚辰朔	-10.7101
用此法	-10.7102
股實	-10.7105
二十秒	-10.7112
二十八分	-10.7114
分野	-10.7118
為白道	-10.7122
試作	-10.7124
定一	-10.7124
諸行	-10.7126
常見	-10.7127
平方籌	-10.713
三歸	-10.7132
豈有	-10.7134
分一十七秒	-10.7138
日蝕	-10.7138
此形	-10.7138
於子	-10.7138
九萬六千	-10.7145
愈多	-10.7146
一百二十尺	-10.715
寸數	-10.715
錢數	-10.7152
三事和	-10.7156
三面	-10.7156
感	-10.7157
句幂	-10.7158
三辰儀	-10.7159
是書	-10.7159
年數	-10.7162
鎮	-10.7162
卻	-10.7163
獸	-10.7164
版	-10.7166
悟	-10.7166
在正午	-10.7168
太强	-10.7169
倫	-10.717
順減差	-10.717
括	-10.7172
爻策	-10.7172
乃置	-10.7173
盈初縮末	-10.7174
洞	-10.7174
俸	-10.7174
征	-10.7175
一十五秒	-10.7175
淳	-10.7175
襄公	-10.7176
瓣	-10.7176
址	-10.7176
綴	-10.7178
倘	-10.7178
晝刻	-10.7179
尺五寸	-10.718
日未初三刻	-10.718
賦	-10.718
熈	-10.7182
四線	-10.7183
土木火三星	-10.7184
竪	-10.7184
所借	-10.7186
復有	-10.7186
乙午	-10.7189
九百一十	-10.7191
可得而	-10.7191
此四	-10.7196
如後圖	-10.7197
於壬	-10.7198
定母	-10.7199
者又	-10.72
八千一百	-10.72
如後	-10.7201
益亷	-10.7201
之數而	-10.7202
四年正月	-10.7205
析木宫	-10.7209
一十七分	-10.7214
試自	-10.7217
渾體	-10.7217
為後	-10.7225
厯數	-10.7226
日戌初一刻	-10.7229
五色	-10.723
易見	-10.7232
益實	-10.7233
上田	-10.7233
差角	-10.7237
丙角之正弦	-10.7238
愈逺	-10.7239
九十六刻	-10.724
萬二千二百	-10.7241
相掩	-10.7248
根既與	-10.7249
今有之	-10.7249
子母	-10.7249
求積法	-10.7253
列於	-10.7254
分一十秒	-10.7255
實朢	-10.7256
小圓	-10.7256
最髙衝	-10.7257
邊形之一邊	-10.7261
失其	-10.7263
甲戊乙	-10.7265
度三十二分	-10.7269
半周天	-10.727
總時	-10.7271
星紀宫	-10.7276
亦未	-10.7277
日南至	-10.7282
朔朢	-10.7285
卷三	-10.7285
測髙	-10.7286
合成	-10.7287
與戊丁	-10.729
其髙	-10.729
於是以	-10.7294
上袤	-10.7295
自乗之正方	-10.7297
不明	-10.7297
直距	-10.7297
萬九千五百	-10.7302
一晝夜	-10.7304
定表	-10.7306
可測	-10.7307
己酉日	-10.7307
㑹於	-10.7313
一百三十八	-10.7319
蒼	-10.7319
所算	-10.7323
正數	-10.7325
三百三十六	-10.7327
所傳	-10.7327
以當	-10.733
緯星	-10.7338
理之	-10.7342
勤	-10.7343
食既生光	-10.7344
/○)□	-10.7344
曷	-10.7346
壍堵	-10.7347
崑崙	-10.7348
徹	-10.7348
丑戊	-10.7349
害	-10.735
値	-10.735
卯初初刻	-10.7351
駁	-10.7351
卯正一刻	-10.7352
婆	-10.7352
書于	-10.7352
卯正初刻	-10.7354
迦	-10.7355
盖天	-10.7356
四千二百	-10.7361
丑初	-10.7368
得二十五	-10.7369
大距度	-10.737
辰角	-10.737
萬八千三百	-10.7371
土圭	-10.7371
㪷	-10.7372
未初一刻	-10.7373
與長	-10.7373
庚巳	-10.7374
全圜	-10.7375
閏九月	-10.7377
所多之	-10.7379
太陰平行	-10.7379
晦朔	-10.7381
相結	-10.7382
大抵	-10.7387
云我	-10.7388
一百三十二	-10.739
十分内三十一秒冬至	-10.739
増減	-10.7391
月己未朔	-10.7397
半嵗周	-10.7397
止於	-10.7397
中田	-10.7398
為隅法併	-10.7401
癸庚	-10.7403
餘一十	-10.7404
也故以	-10.7404
影半徑	-10.7405
日酉正二刻	-10.7406
朔後	-10.7407
二十四刻	-10.7409
寅丑	-10.7411
月庚戌朔	-10.7412
每邊一尺二寸	-10.7414
癸子丑	-10.7415
黄白	-10.7422
子正一刻	-10.7423
小句股	-10.7423
其衝	-10.7423
十二面體之	-10.7425
二分内一秒冬至	-10.7427
之所以	-10.7428
發明	-10.7431
萬六千二百	-10.7435
為準	-10.7437
斜面	-10.744
而不能	-10.7442
平距	-10.7442
若干分	-10.7446
之序	-10.7447
甚微	-10.7448
節氣線	-10.745
若干度分	-10.7452
逓減	-10.7455
之衰數	-10.7456
步半	-10.7459
文王	-10.746
十四秒	-10.7461
秒五十微	-10.7463
乙丙丁戊	-10.7464
太隂實行	-10.7464
每一面	-10.7467
之端	-10.7468
之體積	-10.747
地徑	-10.747
遂以	-10.7471
得十五	-10.7473
七等邊形之	-10.7474
大和	-10.7477
求食甚	-10.7478
平分線	-10.7483
斜升	-10.7483
冬至在	-10.7485
十六秒	-10.7486
五十五秒	-10.749
歳周	-10.749
數相併得	-10.7492
皆然	-10.7497
五百一十二	-10.7498
徑一尺二寸	-10.7502
萬七千八百	-10.7502
中西	-10.7503
棗	-10.7503
平度	-10.7503
偏南	-10.7508
與彼	-10.7508
分别	-10.751
正朔	-10.7512
瓜	-10.7514
日戌初初刻	-10.7515
辛卯朔	-10.7517
五乘	-10.7517
一百五十六	-10.7519
人分之人得	-10.752
以本日	-10.7521
即甲丙	-10.7522
子丑寅	-10.7522
莊	-10.7522
分二十三秒	-10.7522
閏四月	-10.7525
遽	-10.7526
鮮	-10.7526
于左	-10.7527
材	-10.7529
嚴	-10.7529
祗	-10.7529
因此	-10.753
踵	-10.753
那	-10.7531
高與闊	-10.7531
誌	-10.7532
入算	-10.7532
恒星之	-10.7533
3	-10.7534
油	-10.7535
細分	-10.7535
恭進	-10.7535
為一根之數卽	-10.7537
日月星辰	-10.7537
又因	-10.7538
第一星	-10.7538
六千五百	-10.7539
皆倣此	-10.7539
減半	-10.7539
與丙己	-10.7541
五邊形	-10.7541
距午赤道度	-10.7541
十二刻	-10.7543
酉時	-10.7547
甚多	-10.7551
二十五刻	-10.7552
方環	-10.7553
不至	-10.7559
七百二十一	-10.756
午子	-10.7561
在小輪	-10.7565
與前同	-10.7569
十一秒	-10.7575
草曰	-10.7575
便是	-10.7576
十二分内四十一秒冬至	-10.7576
復圓前設時	-10.7577
黄道南	-10.7577
漸小	-10.7578
日軌高	-10.7581
三十九度	-10.7582
二圖	-10.7582
線之比例	-10.7582
線平行	-10.7584
八十一分	-10.7587
為初商積	-10.7587
為羽	-10.7588
與戊丙	-10.7591
之數則	-10.7594
之數即	-10.7598
之真	-10.7601
正月壬午朔	-10.7602
丈五尺	-10.7606
近逺	-10.7607
七十五分	-10.7608
度四十四分	-10.761
初虧近時	-10.7612
為股弦較	-10.7612
二千八百	-10.7615
月癸夘朔	-10.7617
者謂之	-10.7618
一升	-10.7618
量法	-10.7622
分三十一秒	-10.7626
者是也	-10.7626
太陽黄道經度	-10.7627
界度	-10.7628
之重數	-10.763
地平經度	-10.7632
求乙角	-10.7632
歲周	-10.764
向後	-10.7642
入于	-10.7646
分五十九秒	-10.7646
乙丁戊	-10.7647
亦是	-10.7648
度二十八分	-10.765
丙戌朔十一月	-10.7656
邊一百	-10.7667
甲丙邉	-10.7677
甲乙股	-10.7679
亦猶	-10.7679
積實	-10.768
四直角	-10.7681
實經度	-10.7683
每嵗	-10.7685
米價	-10.7685
修厯	-10.7689
卷二	-10.7689
千百	-10.769
八卦	-10.7691
為正弦得	-10.7692
三十兩	-10.7692
倍數	-10.7696
念	-10.7697
相與	-10.7699
所生之	-10.7699
僖公	-10.7703
夀	-10.7703
之度展開勿令移動次取	-10.7704
刋	-10.7704
倚壁	-10.7705
離赤道	-10.7705
勿菴	-10.7705
斂	-10.7705
所照	-10.7705
慎	-10.7706
夜刻	-10.7706
尺書於原積	-10.7707
總之	-10.7707
五毫	-10.7708
錯綜	-10.7708
實首	-10.7709
屋	-10.7711
者惟	-10.7711
闚	-10.7713
迴	-10.7713
優	-10.7714
1	-10.7716
上中下	-10.7718
稅	-10.7718
太陽髙弧	-10.7718
比例得	-10.7719
數也葢	-10.7719
綿	-10.772
三十八度	-10.772
之數與	-10.7721
芒種	-10.7722
瑟	-10.7722
萬四千九百	-10.7722
庾	-10.7725
日日	-10.7725
癸寅	-10.7729
春秋二分	-10.7729
大地	-10.773
萬九千二百	-10.7732
欲測	-10.7733
製造	-10.7733
不同心圏	-10.7736
月五星	-10.7737
月己亥朔	-10.7738
者先	-10.7739
得三十二	-10.7739
兩數相減	-10.7741
各幾何答曰	-10.7746
定真時	-10.7748
每月	-10.7752
甲丁邊	-10.7752
分尺之	-10.7758
三之得	-10.7759
未見	-10.7759
價少	-10.7759
一兩二錢	-10.7765
二二九	-10.7771
唐書	-10.7774
極大	-10.7779
已來	-10.778
卷四	-10.7791
見積	-10.7802
即丁	-10.7804
一百分	-10.7805
作一直線	-10.7811
年天正冬至	-10.7811
一千五百二十	-10.7817
無疑	-10.7819
用籌	-10.7823
為甲數	-10.7826
黃赤	-10.7827
暦法	-10.7832
極高	-10.7832
在其中	-10.7832
八丈	-10.7833
四十七度	-10.7835
比原	-10.7836
言之則	-10.7844
甲乙邉	-10.7846
癸亥朔十一月	-10.785
分釐	-10.7852
圖説	-10.7852
總論	-10.7853
癸戊	-10.7855
三分内一秒冬至	-10.7856
兩較	-10.7857
昏中	-10.7858
之度即	-10.7862
四乘方	-10.7862
使其	-10.7866
束	-10.7866
丙丁邊	-10.7867
進而	-10.7871
域	-10.7871
股自乘	-10.7873
萬九千九百	-10.7875
於黄道	-10.7878
兩曜	-10.788
為初虧	-10.7881
擊	-10.7882
炎	-10.7882
育	-10.789
第一人	-10.7891
繪	-10.7892
美	-10.7892
禹	-10.7892
甘	-10.7892
充	-10.7896
何承天	-10.7896
凌	-10.7896
丞	-10.7897
渠	-10.7898
小邉	-10.7898
一分内五十一秒冬至	-10.79
中限	-10.7901
茫	-10.7901
之長短	-10.7903
宻合	-10.7903
羅㬋	-10.7905
攝	-10.7905
月蝕	-10.7905
望時	-10.7906
御覽	-10.7907
正實	-10.7907
該部	-10.7908
五分之三	-10.7908
四十二度	-10.7908
遍乘	-10.7908
輔臣	-10.7909
距極	-10.7911
内切	-10.7917
太隂距地	-10.7918
方角	-10.7919
日躔月離	-10.7927
朔日有食之	-10.7936
如乙	-10.7936
每户	-10.7937
丈四尺	-10.7939
三九九	-10.7942
兩角亦等	-10.7943
次商數	-10.7944
亦不能	-10.7946
名之曰	-10.7949
反用	-10.7951
為勾股較	-10.7953
先作	-10.7956
十二根	-10.7957
乾象	-10.7958
初末限	-10.7961
乙卯朔	-10.7962
動天	-10.7964
上編	-10.7972
一百步	-10.7973
該臣	-10.7976
半城徑	-10.7979
子戊	-10.798
以外	-10.7981
距赤道南	-10.7981
之理也	-10.7983
丙申朔十一月	-10.7983
至壬	-10.7985
七十五秒	-10.7993
某度	-10.7994
以位數	-10.8005
萬一千九百	-10.8019
正月丁丑朔	-10.802
終於	-10.802
異者	-10.8021
斜弦	-10.8022
方向	-10.8023
正月乙丑朔	-10.803
丙形	-10.803
星名	-10.8033
無餘分	-10.8034
與己庚	-10.8038
一丈五尺	-10.8038
如甲乙丙丁	-10.8039
三十七度	-10.8043
分正負	-10.8044
乙丁邊	-10.8047
餘里	-10.8048
昊	-10.8049
交前後	-10.8051
為九十度	-10.8053
籌算	-10.8054
平面上	-10.8054
未至	-10.8057
古測	-10.8059
其容	-10.806
己卯日	-10.8061
三百四十三	-10.8062
火星在	-10.8065
三分内二十一秒冬至	-10.8068
内池	-10.8069
休	-10.8069
東門	-10.8071
各邉	-10.8072
貞	-10.8072
問今有	-10.8072
截之	-10.8073
儀象	-10.8074
三百二十四	-10.8074
顆	-10.8075
記之	-10.8076
塞	-10.8076
己午	-10.8078
惜	-10.8079
軒轅	-10.8079
丙乙丁	-10.808
談	-10.8081
一十秒	-10.8082
又取	-10.8082
友	-10.8082
賈	-10.8082
以法命之	-10.8084
月丙戌朔	-10.8085
分體線	-10.8086
堤	-10.8086
旗	-10.8087
夜子初二刻	-10.8087
定星	-10.8087
◇	-10.8088
測量全義	-10.8088
四角尖堆	-10.8089
避	-10.8089
往往	-10.8089
黄平象限宫度	-10.809
欽此欽遵	-10.8091
六百九十	-10.8092
人目所見	-10.8094
其緯	-10.8099
旗杆	-10.8101
入於	-10.8105
比例四率	-10.8105
日丑正二刻	-10.8106
前測	-10.8108
均數時差	-10.8109
湖	-10.8109
兩圜	-10.8112
二界	-10.812
次緯	-10.8131
前商	-10.8133
黄米	-10.8144
北辰	-10.8145
兩形之	-10.8148
等角形	-10.8153
今依	-10.8154
股幂	-10.8154
如圖甲為	-10.8155
三千八百	-10.8159
二萬八千	-10.816
紀法	-10.8162
十等邊	-10.8163
之左右	-10.8166
嵗輪心	-10.8167
詳之	-10.8167
之誤	-10.8171
癸丑朔十一月	-10.8172
半徑線	-10.8173
共用	-10.8174
再加之比例	-10.8175
萬七千二百	-10.8181
三千三百	-10.8182
甲辰朔十一月	-10.8184
二萬三千	-10.8195
二十四時	-10.8199
清蒙	-10.8199
丙辰朔十一月	-10.82
尤為	-10.8204
線即成	-10.8204
改用	-10.8209
第三測	-10.821
之倍度	-10.821
船數	-10.8212
一百九十六	-10.8214
見前	-10.8217
影差	-10.8217
二十八年	-10.8218
一一二	-10.8221
萬四千八百	-10.8223
相減所餘	-10.8223
得五百	-10.8225
圜面積	-10.8226
北行	-10.8227
句股法	-10.8228
之二倍	-10.8232
正月庚寅朔	-10.8237
不逺	-10.8239
所向	-10.824
九九八	-10.824
癸未朔十一月	-10.8241
日率	-10.8242
分角線	-10.8242
萬六千九百	-10.8243
通光	-10.8243
黄方	-10.8244
相似而	-10.8245
四段	-10.825
初宮	-10.8251
則甲丁	-10.8257
分四十一秒	-10.8258
嚮	-10.826
正月壬子朔	-10.8263
柔	-10.8265
北極距天頂	-10.8266
冠	-10.8267
得一十五	-10.8268
揺	-10.8268
証	-10.827
予	-10.8271
院	-10.8274
爭	-10.8274
為下法與上法相乘除實	-10.8276
逐宫逐度	-10.8276
庭	-10.8276
遶	-10.8277
惠	-10.8278
􁆣	-10.8279
祖冲之	-10.828
陽氣	-10.8281
跡	-10.8282
半晝分	-10.8282
2	-10.8282
傳曰	-10.8282
橫	-10.8283
之倍數	-10.8283
四百尺	-10.8284
自東而西	-10.8287
開立方得	-10.8287
晨前夜半	-10.8289
丙甲丁	-10.8292
外切渾圓	-10.8294
歴代	-10.8294
夘時日食	-10.8296
一百四十四尺	-10.8296
行過	-10.8299
二行差	-10.8302
閏二月	-10.8304
下周	-10.8307
減數	-10.8309
為同式	-10.8311
兩角并	-10.8313
曰此	-10.8315
近日	-10.8318
千六百	-10.832
閏年	-10.832
三箇	-10.832
也惟	-10.8321
日之行	-10.8321
戊己線	-10.8324
為法以	-10.8327
乙酉朔十一月	-10.8328
欽此	-10.8331
視度	-10.8334
髙四尺	-10.8336
五十六度	-10.8338
遲行	-10.834
庚子朔十一月	-10.834
再開	-10.8342
六邊	-10.8342
一六九	-10.8344
太陰經度	-10.8345
體心	-10.8345
午甲	-10.8348
九月朔	-10.8349
加較	-10.8353
恒氣	-10.8354
丙行	-10.8355
故可以	-10.8355
十分内一十一秒冬至	-10.8355
四之得	-10.8358
如甲乙丙	-10.8358
一毫	-10.8362
加之得	-10.8363
以高乘之	-10.8364
三十年	-10.8365
考驗	-10.8367
第三率	-10.8367
十五分内一秒冬至	-10.838
最髙在	-10.838
三長廉	-10.8382
地盤	-10.8384
五根	-10.8388
諸方	-10.8388
與丙角	-10.8391
立天元	-10.8394
正居	-10.8396
步常法	-10.84
同減盡	-10.8401
一十三秒	-10.8404
四五二	-10.8406
是時	-10.8406
在午正	-10.8406
距午正	-10.8407
與甲己	-10.8408
共計	-10.841
過弧	-10.8415
百四十	-10.8418
之比也設如	-10.8418
亦必等	-10.8419
他星	-10.8422
太陽經度	-10.8424
以待	-10.8424
隨天	-10.8424
從冬至	-10.8429
五分之二	-10.8432
相比之比例	-10.8435
互相為比之比例	-10.8436
兩平分	-10.8439
於辛	-10.8441
積步	-10.8441
變宮	-10.8447
旬	-10.8447
不能成	-10.8449
有竒而	-10.8449
□□□□	-10.8451
出銀	-10.8452
不能盡	-10.8454
洪	-10.8457
猶未	-10.8458
挈	-10.8459
第二圖	-10.8459
本線	-10.8464
角之矢	-10.8466
四十三分	-10.8466
被	-10.8467
桓	-10.8467
𤓰	-10.8467
纔	-10.8467
欺	-10.8468
弦自乗	-10.8469
正方積	-10.847
朞	-10.8472
夜子初一刻	-10.8473
冊	-10.8473
績	-10.8475
釘	-10.8475
太陽赤道經度	-10.8475
厚薄	-10.8476
銜	-10.8476
步即所求解曰	-10.8476
尼	-10.8478
六萬四千	-10.8478
覩	-10.8478
勻	-10.8479
巳庚	-10.848
畣曰	-10.848
甄鸞	-10.8481
即各得	-10.8483
各以其	-10.8484
淡	-10.8484
大月	-10.8484
先設	-10.8489
十餘度	-10.8491
前汎時	-10.8497
總實	-10.8497
齊同	-10.8498
諸厯	-10.8498
逐月	-10.8498
用三率法	-10.8499
為法而一得	-10.8502
黄赤大距	-10.8503
中厯	-10.8503
平朢	-10.8505
入景	-10.8506
用事	-10.8509
八十秒	-10.8509
視法	-10.8511
夘角	-10.8512
又依	-10.8513
距最高	-10.8514
三百尺	-10.8519
為引數	-10.8524
者蓋	-10.8527
晷面	-10.8528
遞次	-10.8528
萬七千四百	-10.8528
正四刻	-10.8529
子庚	-10.8537
子巳	-10.8537
一十二萬	-10.8539
食甚定時	-10.854
遲疾厯	-10.8543
某日	-10.8544
號籌	-10.8546
六秒四十微	-10.8546
九斗	-10.8549
其說	-10.855
四隅	-10.8551
從丙	-10.8551
元法	-10.8553
定限	-10.8556
也又法	-10.8562
各不同	-10.8563
四十六度	-10.8564
諸線	-10.8566
者所以	-10.8568
從己	-10.8569
戌亥	-10.8572
葢天	-10.8573
二十五日	-10.8573
開立方法	-10.8575
一平均	-10.8578
月一日	-10.858
推筭	-10.8581
角之外角	-10.8585
五十步	-10.8585
地形	-10.8589
為大勾	-10.8591
實經	-10.8594
一丈三尺	-10.8595
梯	-10.8595
先知	-10.8596
各㡬何	-10.8597
相等乃以	-10.8606
視經度	-10.8609
其年	-10.8615
乙甲丙角	-10.8616
地靣	-10.8618
列表	-10.8618
積分	-10.8627
得一百八十	-10.8629
斛法	-10.8629
未角	-10.8631
得四十八	-10.8633
甲乙與乙丙	-10.8634
距春分	-10.8635
甲乙丙圜	-10.8635
從地心	-10.8636
與此	-10.8638
丙數	-10.864
以上者	-10.8642
氣定積	-10.8647
一千一百五十	-10.8649
行疾	-10.8651
氣積分	-10.8654
可考	-10.8657
相加共得	-10.8659
摺	-10.8661
哀	-10.8661
舌	-10.8664
也合問或問	-10.8665
韓	-10.8666
荒	-10.8666
脊	-10.8667
徑數	-10.8668
辦	-10.867
宜用	-10.8672
處作	-10.8674
星距黄道線	-10.8674
三邊求角	-10.8675
尾數	-10.8675
圓球内容	-10.8675
初虧復圓距弧	-10.8675
分一十三秒	-10.8676
洛	-10.8676
腳	-10.8676
6	-10.8679
總積六千三百	-10.868
面皆	-10.8683
黄道緯度	-10.8684
乙角正弦	-10.8684
之正弦為三率求得四率為	-10.8684
錘	-10.8685
五秒五十微	-10.8686
法而一	-10.8687
辰午	-10.869
宜減	-10.869
博士	-10.8692
半邊	-10.8692
甲子年	-10.8693
所問	-10.8693
兩勾股形	-10.8693
黄赤交角	-10.8695
宫度分秒	-10.8701
日入分	-10.8705
三歸之	-10.8707
年三月	-10.8708
萬五千八百	-10.8709
可以知	-10.8709
驗之	-10.871
三三三	-10.8711
法先以	-10.8711
與庚辛	-10.8711
有丁角	-10.8713
九百五十	-10.8713
夕伏	-10.8713
三百四十八	-10.8714
㸃作	-10.872
時盤	-10.8721
四分内四十一秒冬至	-10.8721
一正方	-10.8726
卯丁	-10.8726
一十四分	-10.8726
増題	-10.8734
已見	-10.8741
運動	-10.8743
尺為三率求得四率	-10.8744
又倍之得	-10.8747
長亷法	-10.8748
言十	-10.8749
庳	-10.8749
者反	-10.875
二十四日	-10.8752
如所求	-10.8752
午角	-10.8754
盖以	-10.8754
十分為一率	-10.8757
極南	-10.8757
而半之得	-10.8761
乙亥朔十一月	-10.8763
衝日	-10.8764
百六十	-10.8765
八百八十	-10.8765
相容	-10.8771
天運	-10.8772
戊申朔十一月	-10.8777
第一法	-10.8778
弦自乘	-10.8778
二平行線	-10.878
相乗得數	-10.8781
目力	-10.8782
二十二分	-10.8784
求黄道	-10.8784
出入地平	-10.8787
在局	-10.8787
步五分	-10.8788
當用	-10.8789
絶無	-10.879
甲縣	-10.8792
三等邊形	-10.8793
近于	-10.8795
四分度之一	-10.8801
斜角	-10.8806
第一圖	-10.8807
層數	-10.8808
任分	-10.8808
丑宫	-10.881
千二百	-10.8812
約法	-10.8814
黄道宫度	-10.8815
此圖	-10.8815
除者	-10.8815
七兆	-10.8816
七千三百	-10.8818
少半	-10.8818
一千四百六十一	-10.8821
兩心相距	-10.8822
度二十七分	-10.8823
度四十九分	-10.8824
長方體形	-10.8826
分四十四秒	-10.8828
四百零	-10.8831
内帶	-10.8836
氣汎積	-10.8836
除之得數	-10.8836
各限	-10.8837
與三率	-10.8838
得一百一十	-10.8838
六十四尺	-10.884
相比例	-10.8844
月丁夘朔	-10.8845
欲得	-10.8851
年冬至	-10.8854
始得	-10.8856
雖然	-10.8857
日行分	-10.8857
賞	-10.8858
尖圎體	-10.8859
從隅	-10.8861
兑	-10.8861
庚戌朔十一月	-10.8862
丹	-10.8864
卵	-10.8869
相連比例之	-10.8869
為下法	-10.8872
長圎體	-10.8872
朓	-10.8873
贅	-10.8874
遙	-10.8874
衣	-10.8876
以合原數也	-10.8877
逾	-10.8877
禁	-10.8878
律呂	-10.8878
卯正三刻	-10.8879
杜注	-10.888
磨	-10.8881
4	-10.8882
糲米	-10.8885
十五丈	-10.8886
縮初	-10.8886
施行	-10.8886
不見食	-10.8886
周天三百六十度	-10.8888
故下紀	-10.8888
算七百	-10.8889
矢度	-10.8891
每石價	-10.8892
分面線	-10.8892
其大小	-10.8894
恆星	-10.8896
未免	-10.8897
種種	-10.8897
游移	-10.8898
五分内一十一秒冬至	-10.8899
綆	-10.8902
往南	-10.8903
他形	-10.8904
與己戊	-10.8904
其一為	-10.891
萬年	-10.8911
便於	-10.8916
弦筭	-10.8918
午庚	-10.892
逺臣	-10.8921
為星距	-10.8926
金環	-10.8927
丁卯朔	-10.8927
萬二千七百	-10.8927
十四分内二十一秒冬至	-10.8927
近則	-10.8927
為鋭角	-10.8931
半交	-10.894
河南	-10.8941
六千四百	-10.8946
乘之得數	-10.8948
弧三角形	-10.8949
所值	-10.895
正月辛丑朔	-10.895
每疋	-10.8953
厚角	-10.8954
與全數	-10.8955
小立方	-10.8955
一十一萬	-10.8958
合計	-10.896
并徑	-10.8962
又法用	-10.8965
以減於	-10.8966
即乙丁	-10.8967
七宫	-10.8968
望日	-10.897
較較	-10.8973
復圓用時	-10.8975
一七二	-10.8975
視高	-10.8976
尺相乗得	-10.8981
多數	-10.8982
甲乙丙勾股形	-10.8987
之比例同於	-10.8988
今將	-10.8989
逆推	-10.8996
四十七秒	-10.8996
正交後	-10.8997
求初均數	-10.8999
也是故	-10.9
分四十二秒	-10.9
大明厯	-10.9002
日實度	-10.9003
四十四分	-10.9003
黄道交角	-10.9006
順數	-10.9006
截去	-10.9011
北至	-10.9011
少數	-10.9012
嵗餘	-10.9016
經度差	-10.9021
三百七十八	-10.9023
與壬癸	-10.9023
數乘之	-10.9023
甲丙弦	-10.9026
太極	-10.9028
為大差	-10.9029
己酉朔十一月	-10.903
三十九日	-10.9032
未必	-10.9038
未到	-10.9041
沈	-10.9042
論曰試作	-10.9042
其幂	-10.9045
五之一	-10.9056
酉戌	-10.9058
者盖	-10.906
侵	-10.9061
與乙庚	-10.9062
得一百五十	-10.9065
堯典	-10.9066
宅	-10.9067
每一分	-10.9069
溢	-10.907
奥	-10.907
五乘方	-10.9071
恆	-10.9073
將此	-10.9074
即同於	-10.9075
兼用	-10.9076
寡	-10.9077
俾	-10.9078
株	-10.9078
鼔	-10.9078
紛	-10.9079
抱	-10.9079
明邢雲路撰	-10.908
刻强	-10.9081
穆	-10.9081
助	-10.9084
璿璣	-10.9084
嵩	-10.9085
僦	-10.9086
融	-10.9086
昏旦	-10.9088
穀雨	-10.909
秋七月	-10.909
為二率今所設之圜徑一尺二寸	-10.9091
7	-10.9091
為相當比例四率	-10.9091
諭	-10.9092
也如甲乙丙丁	-10.9096
丈二尺	-10.9096
為半徑冪	-10.9097
丈三尺	-10.9102
兩表相距	-10.9104
正方角	-10.9106
年為萬厯	-10.9106
和步	-10.9107
百八十度	-10.9108
先於	-10.9111
八毫	-10.9113
加時定星	-10.9115
星體	-10.9119
二秒三十微	-10.9123
蘋果	-10.9125
均數為	-10.9127
得一千二百	-10.9129
任取一	-10.913
為徵	-10.9132
石五斗	-10.9132
漢史	-10.9138
數也設如有	-10.914
下編	-10.9142
視距度	-10.9145
列衰	-10.9153
皆成	-10.9156
相减餘	-10.9157
君子	-10.9158
二萬六千	-10.9161
必過	-10.9164
後行	-10.9168
一百兩	-10.9169
之一面	-10.917
立成表	-10.9171
之兩端	-10.919
相並	-10.919
兩道之	-10.9191
某宿	-10.9191
其切線	-10.9194
重列之	-10.9195
若干日	-10.9199
去極度	-10.92
積相等	-10.9202
在次輪	-10.9204
北極髙度	-10.9206
步只云	-10.9207
娵訾宫	-10.9213
三十四度	-10.9215
太微	-10.9216
至癸	-10.9224
之系	-10.9226
大率	-10.9232
合朔時	-10.9233
一百一十九	-10.9234
不甚	-10.9238
第十三	-10.9239
鶉火宫	-10.9239
不以	-10.924
左傳	-10.924
少于	-10.924
一股	-10.9245
推日食	-10.9245
九等邊形之	-10.925
甲與丙	-10.9251
之里數	-10.9256
人馬	-10.9256
得一百六十	-10.9258
四分内一十一秒冬至	-10.9259
日有食之	-10.9261
七十六兆一	-10.9262
二分内四十一秒冬至	-10.9268
所引	-10.927
每邊之半	-10.9277
末均	-10.9278
甲乙丙丁戊	-10.9278
欲知其	-10.9279
機輪	-10.928
孟春	-10.9282
勾率	-10.9283
一萬九千	-10.9284
三分益一	-10.9285
丙丁戊己	-10.9288
譏	-10.9288
漸少	-10.9289
闢	-10.9289
吕	-10.9289
底積	-10.929
日出入時	-10.9291
高差	-10.9292
雙魚	-10.9293
天文算法類	-10.9293
佐	-10.9295
状	-10.9296
等題言	-10.9296
帶兩縱	-10.9297
罪	-10.9297
八十步	-10.9298
踰	-10.9298
肅	-10.9299
昇	-10.9299
植	-10.9299
長比闊多	-10.9299
歌白泥	-10.93
土木二星	-10.9301
兩腰等	-10.9301
燥	-10.9301
本天心距地數	-10.9301
聊	-10.9304
耀	-10.9305
伏乞	-10.9306
兩下相較則	-10.9307
日月食	-10.9308
年八月	-10.9309
榴	-10.9311
萬五千五百	-10.9312
不書	-10.9313
弧界	-10.9315
黄赤距度	-10.9315
其經度	-10.9316
弦望	-10.9318
一八二	-10.932
亢氐	-10.932
張衡	-10.9323
得一十八	-10.9324
之餘度	-10.9324
盈縮遲疾	-10.9325
月食分秒	-10.9326
與乙甲	-10.9329
外衡	-10.9332
一尺七寸	-10.9333
本巻	-10.9333
一三五	-10.9334
之銀數	-10.9336
三因之	-10.9336
千四百	-10.9337
一長方	-10.9341
宗皇帝	-10.9346
内徑	-10.9355
正方面	-10.9358
五分内二十一秒冬至	-10.9359
據實	-10.9359
一分内一秒冬至應閏	-10.9361
以自之	-10.9361
四度五十八分	-10.9362
各種	-10.9363
日月交食	-10.9365
一分内三十一秒冬至	-10.9368
步問城徑釋曰此	-10.9368
得七十二	-10.9374
分三十七秒	-10.9375
每日行	-10.9375
太隂實引	-10.9376
為太陽距	-10.938
其意	-10.9381
有空	-10.9381
平三角	-10.9385
反覆	-10.9385
距正午	-10.9387
正月壬申朔	-10.9388
萬世	-10.9391
㑹通	-10.9396
縱積	-10.9402
二兩五錢	-10.9404
二百步	-10.9406
二分半	-10.9413
舉其	-10.9414
正相對	-10.9416
有遲疾	-10.9417
極北	-10.9418
二萬七千	-10.942
二十七尺	-10.9424
兩數相減餘	-10.9429
總計	-10.9431
向上	-10.9432
兩直角形	-10.9437
葢因	-10.9439
求矢	-10.945
氣盈	-10.9452
日官	-10.9458
三眞數	-10.9458
只是	-10.946
出直線	-10.946
更㸃	-10.9462
日月星	-10.9464
正初刻	-10.9465
二人共	-10.9467
正月丁未朔	-10.9467
印	-10.9474
必相等	-10.9475
五之四	-10.9475
藏經	-10.9477
積算八千八百六十	-10.9478
積算二千八百六十	-10.9478
庚辰朔	-10.9478
積算九千六百九十	-10.948
百位	-10.9482
一个	-10.9483
於上以	-10.9485
同在一	-10.9485
而得其	-10.9487
一色	-10.9491
三百六	-10.9492
各幾何荅曰	-10.9493
相減之餘	-10.9498
弩	-10.9499
所倍之	-10.95
梅	-10.9502
四象	-10.9507
竣	-10.9509
甲夘	-10.951
髀	-10.951
岳	-10.9511
脱	-10.9512
黄長弦	-10.9512
戊已	-10.9513
蘇	-10.9513
平立合差	-10.9514
䂓	-10.9514
台	-10.9515
正月辛巳朔	-10.9515
紅	-10.9516
郭太史	-10.9516
母子	-10.9517
定積度	-10.9517
悖	-10.9517
依黄道	-10.9517
行天一周	-10.9517
七千二百	-10.9518
夜望月食	-10.9519
丙子年戊子月	-10.9519
套	-10.9519
蕤	-10.952
轉周	-10.952
鑒	-10.952
鉤	-10.9521
遣	-10.9521
交常度	-10.9521
勾股弦總和	-10.9523
刹那	-10.9523
識之	-10.9525
既内分	-10.9525
得四千	-10.9527
十字線	-10.9527
寺	-10.9528
月十四日	-10.9529
勾股求弦	-10.9531
哀公	-10.9532
章歲	-10.9533
開方而得	-10.9533
弦長	-10.9536
千五百六十	-10.954
形之邊	-10.954
黃道經度	-10.954
滿象限	-10.9542
除之亦得	-10.9546
天秤	-10.9547
號為加	-10.9549
九升	-10.9549
五十兩	-10.9555
此論	-10.9556
尺寸	-10.9557
之積等	-10.9557
丁卯日	-10.9558
臣鸞曰求	-10.9558
初商次商	-10.9559
西儒	-10.9559
萬六千七百	-10.9561
二十三度三十分	-10.9562
初四刻	-10.9566
十八人	-10.9568
一丈八尺	-10.9569
方斜	-10.9572
角之割線	-10.9572
東地平	-10.9575
地方	-10.9575
邊之正弦	-10.9575
者去之	-10.9578
向前	-10.9583
同式形	-10.9585
乗之以	-10.9589
日所行	-10.9589
先測	-10.9598
七兩五錢	-10.9602
䝉	-10.9608
初商數	-10.9611
異號	-10.9611
立成内	-10.9613
一秒四十微	-10.9615
求真時	-10.9618
斷比例	-10.9625
積尺	-10.9627
萬九千七百	-10.9628
何以知	-10.9628
亦復	-10.9629
二百六十四	-10.9629
恒在	-10.9632
直錢	-10.9634
試將	-10.9639
六千七百	-10.9639
常在	-10.964
一平方多	-10.9642
八百七十	-10.9643
自丁至	-10.9643
其影	-10.9643
要之	-10.9643
新法推	-10.9649
六五四	-10.965
石價	-10.9652
丙㸃	-10.9653
卯巳	-10.9654
六十年	-10.9655
維乘	-10.9656
謹按	-10.9657
愈近	-10.966
正月丙辰朔	-10.9661
與甲等	-10.9661
餘銀	-10.9668
生焉	-10.9669
甚矣	-10.9672
三十六步	-10.9673
何以知之	-10.9674
約分	-10.9676
交周度	-10.9678
以法除之得	-10.9681
二百四十兩	-10.9683
隅數	-10.9684
一枚	-10.9687
四秒一十微	-10.9692
一千二百五十	-10.9692
積算三千	-10.9697
何從	-10.9699
二十一兆六千九	-10.9702
不應	-10.9702
積二千	-10.9704
邊較	-10.9712
六十日	-10.9715
自丙至	-10.9716
天學	-10.9717
勾股形與	-10.972
火土	-10.9722
晚	-10.9727
榮	-10.9727
乙甲邊	-10.9727
象限弧	-10.9728
昀	-10.973
莊公	-10.973
月恭校上	-10.973
毅	-10.9731
等謹案	-10.9731
零八分	-10.9731
察其所對之	-10.9732
六因之得	-10.9732
吉凶	-10.9733
靡	-10.9734
盈末厯	-10.9734
銷	-10.9735
七二五	-10.9735
併之為	-10.9736
度一十三分	-10.9736
蕤賔	-10.9736
兼有	-10.9737
黄平限	-10.9737
化秒為三率求得四率為秒以分収之得	-10.9738
采	-10.9738
丁甲丙	-10.9739
撥	-10.974
唐虞	-10.974
起復方位	-10.974
庚子年丙子月	-10.9741
熙	-10.9741
選	-10.9741
戊子年壬子月	-10.9742
壬子年庚子月	-10.9742
弦與勾股和之較	-10.9743
浸	-10.9743
六分内一秒冬至應閏	-10.9747
陞	-10.9747
釡	-10.975
升度時差	-10.9752
也此法葢因	-10.9757
香	-10.9757
太祖	-10.9757
表裏	-10.9759
回回厯	-10.9761
二二五	-10.9768
兩圜分	-10.9777
北極出地度	-10.9781
三百六十五度	-10.9782
舊術	-10.9782
二四六八	-10.9784
之妙	-10.9788
丑丙	-10.9789
鬼宿	-10.9789
重列	-10.9791
三萬五千	-10.9802
伏見行	-10.9806
距元	-10.9808
與半周相減餘	-10.9809
戊丑	-10.981
上下左右	-10.9812
空中	-10.9816
刻有竒	-10.9817
二率三率	-10.9819
正割線	-10.9819
析之	-10.982
有餘為三率求得四率	-10.9821
八百三十	-10.9822
平逺	-10.9823
一五二	-10.9826
外徑	-10.9831
一百萬	-10.9831
乙斜行	-10.9835
六分之五	-10.9838
千四百六十一	-10.9839
也今以	-10.9841
一百二十步	-10.9845
可當	-10.9846
月三十日	-10.9847
借衰	-10.9847
中交後	-10.985
太子	-10.985
三十六兩	-10.9851
直角形有	-10.9853
分内一秒冬至	-10.9857
一分内二十一秒冬至	-10.9858
為小股	-10.9862
天下之	-10.9862
三百六十五度四分度之一	-10.9863
十二歩	-10.9865
往東	-10.9867
滿法	-10.987
又四之一	-10.987
七八五	-10.987
句實	-10.9872
時刻分秒	-10.9878
壬巳	-10.9882
遼	-10.9884
可得其	-10.9884
某宫	-10.9887
最大者	-10.9887
然非	-10.9888
于初商	-10.9892
竒數	-10.9895
宫次	-10.9897
元濶	-10.9899
一七五	-10.9899
先王	-10.9909
段一差	-10.9912
角宿	-10.9913
二五四	-10.9914
體形	-10.9918
太陽之行	-10.9923
扁	-10.9928
一萬五千	-10.9932
月十二日	-10.9935
等邊形之毎一邊	-10.9938
引出	-10.9939
兩數相乘	-10.9941
朦	-10.9943
七秒三十微	-10.9943
凑	-10.9943
兩段	-10.9947
寅庚	-10.995
戍	-10.995
霜	-10.995
英	-10.9952
晝夜刻	-10.9954
五十七度	-10.9954
星増一星	-10.9954
奚	-10.9956
匏	-10.9959
為實倍	-10.996
乞	-10.996
責	-10.9961
儀象志	-10.9962
迭	-10.9962
五十八分	-10.9963
羅雅谷	-10.9964
慮	-10.9964
遭	-10.9964
又術	-10.9965
刻半强	-10.9965
紹	-10.9965
用表之法以	-10.9965
宫至十一宫	-10.9966
向下	-10.9966
帯	-10.9968
歛	-10.9969
8	-10.997
9	-10.997
新法厯書	-10.9972
前所得	-10.9972
斜倚	-10.9975
初得數	-10.9975
二十三度二十九分	-10.9975
相似而體勢等	-10.9976
欹球	-10.9976
擔	-10.9976
天樞	-10.9977
絲一斤	-10.9977
用次形	-10.9977
為下法與上法相乘除實盡	-10.9978
同用之	-10.9978
丁與戊	-10.9978
鴈	-10.998
如圖甲為地心	-10.9981
奏聞	-10.9982
小異	-10.9982
四千五百	-10.9982
日及分	-10.9983
角亦等	-10.9985
彗星	-10.9989
太陽距地	-10.9994
二徑折半	-10.9994
六十三分	-10.9997
徧乗	-10.9998
先論	-10.9999
四萬四千	-11.0005
立方根	-11.0007
四三二	-11.0009
一四四	-11.001
圓柱	-11.0016
弧之切線	-11.0017
變徵	-11.0017
丈一尺	-11.0022
因知	-11.0023
上圖	-11.0026
夏四月	-11.0031
萬七千七百	-11.0032
共母	-11.0033
戌初	-11.0033
知厯	-11.0034
望策	-11.0036
互相視	-11.0041
與半周相減	-11.0042
八秒二十微	-11.0047
可定	-11.0047
四十八尺	-11.0049
短長	-11.0052
體之容	-11.0052
宻率	-11.0052
底長	-11.0065
平方積	-11.0068
萬萬	-11.0069
五千八百	-11.0075
也以此	-11.0076
三分内一十一秒冬至	-11.0077
二百五十二	-11.0079
亷隅共	-11.0079
石八斗	-11.0084
鶉首宫	-11.0087
時差分	-11.0088
也至於	-11.0091
一尺八寸	-11.0092
加滿	-11.0096
鶉尾宫	-11.0097
密合	-11.0097
月距地	-11.0105
本時太陽	-11.0107
生于	-11.011
百五十	-11.0112
平均	-11.0113
臺官	-11.0117
壬子日	-11.0121
實如法	-11.0121
中土	-11.0121
五萬四千	-11.0121
至期	-11.0122
夏至之日	-11.0126
圎面積	-11.0129
第一行	-11.013
求甲乙邊	-11.0137
更置	-11.0138
朔虚	-11.0141
丙戌朔	-11.0143
西説	-11.0151
四七七	-11.0151
三百兩	-11.0152
蓋天	-11.0154
二萬二千	-11.0154
巳丙	-11.0155
七分内四十一秒冬至	-11.0156
幾度	-11.0161
第三數	-11.0161
地平圏	-11.0163
最下	-11.0163
兩三角形之	-11.0164
極近	-11.0165
荅	-11.0165
萬零六百	-11.0165
復明	-11.0166
圭表	-11.0173
正月乙未朔	-11.0174
卯癸	-11.0176
宋史	-11.0177
漸大	-11.0179
却以	-11.018
之分也	-11.0181
四十八兩	-11.0183
謙	-11.0187
相加即	-11.0188
虎	-11.0189
涉	-11.019
溪	-11.0191
西國	-11.0191
氷	-11.0192
鈎	-11.0192
夏時	-11.0193
漸次	-11.0195
乙㸃	-11.0196
巨蟹	-11.0196
厯算全書卷	-11.0197
邦	-11.0198
偽	-11.0199
貨	-11.0199
繕	-11.02
判	-11.02
臣鸞曰	-11.0201
招	-11.0201
黄道赤經交角	-11.0202
一蔀	-11.0205
堪	-11.0205
該部知道	-11.0205
二分内二十一秒冬至	-11.0206
䑓	-11.0206
立方體	-11.0206
學習	-11.0207
賀	-11.021
通數	-11.0212
萬九千八百	-11.0213
七百六十八	-11.0214
所造	-11.0217
離徑	-11.0219
第二位	-11.022
如上圖甲乙	-11.022
腰圍	-11.022
一系	-11.0221
偏北	-11.0224
初啇	-11.0224
歳餘	-11.0224
疾行	-11.0225
全圏	-11.0227
五千一百	-11.0228
三十斤	-11.0228
相乗為實	-11.023
爻限	-11.0231
則否	-11.0232
紀月	-11.0232
棄之	-11.0235
亥甲	-11.0237
日行度	-11.0238
永和	-11.0241
時分秒	-11.0241
横直	-11.0244
餘弦檢表得	-11.0247
七萬六千	-11.0249
五十九度	-11.0251
三二一	-11.0255
從春分	-11.0261
二十丈	-11.0263
漸移	-11.0264
别作一	-11.0265
底弦	-11.0266
另置	-11.0269
第十四	-11.027
不待	-11.027
均分	-11.0271
綱目無	-11.0272
可施	-11.0272
六千九百	-11.0273
兩頭	-11.0275
依法求得	-11.0276
嵗輪上	-11.0278
緯行	-11.0279
寅正二刻	-11.0279
七二九	-11.0289
庚午日	-11.0289
午丑	-11.0289
今所求	-11.0294
時三刻	-11.0294
九萬里	-11.0294
自戊至	-11.0295
二十七年	-11.0305
辛㸃	-11.0308
四六七	-11.0308
而求其	-11.0308
三十四分	-11.031
日軌髙	-11.031
分為三率得四率	-11.0311
本部	-11.0313
諸國	-11.0314
得利銀	-11.0322
九道	-11.0328
史四月	-11.0332
日距限	-11.0341
本書	-11.0344
四十八度	-11.0344
本局	-11.0344
由於	-11.0345
萬八千九百	-11.0345
赤道内外	-11.0351
子在位	-11.0353
逓加	-11.0358
兩數相加	-11.0359
五行之	-11.0361
在箕	-11.0365
正交平行	-11.0366
第十六	-11.0367
第二㸃	-11.0377
一百三十五度	-11.0382
前來	-11.0382
乙戊丙	-11.0386
二百八十九	-11.0389
譬	-11.0394
亭	-11.0394
小形之	-11.0401
九十六尺	-11.0405
其較為	-11.0407
為二率今	-11.0408
乙銀	-11.0409
補作	-11.041
全數十萬	-11.0414
三分内五十一秒冬至	-11.0417
大陽	-11.0418
丁㸃	-11.0419
四十四尺	-11.0422
罅	-11.0423
仲冬	-11.0425
後六宫	-11.0425
有本行	-11.0427
定限行度	-11.0428
巨	-11.0428
遊旋赤道	-11.0428
第一數	-11.0428
喻	-11.0429
長廉法	-11.0429
六合儀	-11.043
提要	-11.0431
蓍	-11.0431
過天頂	-11.0432
尸	-11.0432
欽定四庫全書子部六	-11.0432
撫	-11.0435
寬	-11.0435
勾股相乘	-11.0435
春分至秋分	-11.0435
草中	-11.0436
汝	-11.0436
數也此	-11.0436
隙	-11.0436
臘	-11.0436
男	-11.0437
逮	-11.0437
奪	-11.0437
肖	-11.0437
帶食兩心相距	-11.0438
然後以天元	-11.0438
開皇	-11.0438
游儀	-11.0438
逺臣湯若望	-11.0439
相交於	-11.0439
初宫至五宫	-11.0441
港	-11.0442
太史令	-11.0443
半强	-11.0443
正方之邊	-11.0443
求外切	-11.0443
閲二百十六期積七萬八千八百八十	-11.0444
甲乙二人俱在	-11.0444
問城徑釋曰	-11.0445
為對所求之角其正弦	-11.0446
所得銀數	-11.0447
二分内三十一秒冬至應閏	-11.0447
四分内一秒冬至應閏	-11.0447
九秒一十微	-11.0447
萬一千二百	-11.045
展轉	-11.0456
赤道小弦	-11.0458
相聨	-11.046
填星	-11.0461
兩星之	-11.0462
今據	-11.0462
分零六秒	-11.0463
天頂線	-11.0467
偏度	-11.0472
卷中	-11.0472
大畧	-11.0474
徧乘	-11.0481
相接	-11.0486
晉書	-11.0488
一百三十六	-11.0493
三五八	-11.0495
星晷	-11.0498
一座	-11.0499
躔離	-11.05
時差總	-11.0501
六十里	-11.0504
絲八忽	-11.0504
圓之半徑	-11.0505
長一丈	-11.0507
欽若	-11.051
明和	-11.0513
密率	-11.0516
四十八秒	-11.0522
較冪	-11.0522
壬申朔	-11.0523
與甲壬	-11.0525
第十五	-11.0527
權線	-11.0529
新星	-11.0529
本宫	-11.0532
𢃄食	-11.0533
不須	-11.0534
不失	-11.0538
七卷	-11.0538
月建	-11.0539
偶數	-11.0544
絲二忽	-11.0549
多三根	-11.0552
極弦	-11.0553
之正切線檢表得	-11.0557
荅曰	-11.056
之餘弦為二率	-11.0561
遍乗上	-11.0562
蔡氏	-11.057
一日一周	-11.0571
太隂實	-11.0575
五九七	-11.0575
度五十八分	-11.0579
造厯	-11.0583
自乗再乗得	-11.0584
之比又	-11.0584
遍乗下	-11.0588
元形之	-11.0591
二十三年	-11.06
一百零五	-11.0603
與戊庚	-11.0605
四百三十二	-11.0612
如圖甲乙	-11.0612
甲斜行	-11.0615
九十兩	-11.0616
三角形面積	-11.0625
毎度	-11.0625
求得四率	-11.0626
乙己丙	-11.0627
一百一十三	-11.0633
金球	-11.0633
拘	-11.0641
圓燈	-11.0644
絲六忽	-11.0645
總米	-11.0647
度一十八分	-11.065
萬四千三百	-11.065
解曰甲乙丙	-11.0652
一八四	-11.0652
欹	-11.0654
也何則	-11.0655
求用時	-11.0659
千零九十	-11.066
亦宜	-11.0661
黎	-11.0661
均角	-11.0664
劉徽	-11.0665
甲丙弧	-11.0665
偃	-11.0666
騰	-11.0668
○○/○○○)	-11.0668
常法義曰	-11.067
輒	-11.0671
豐	-11.0672
五十四度	-11.0672
第一測	-11.0673
禆	-11.0674
草曰立天元一為	-11.0674
丘	-11.0676
㕘	-11.0676
懐	-11.0676
即圜内容	-11.0676
七三五	-11.0676
遮	-11.0677
萬五千里	-11.0677
瞻	-11.0678
戊心	-11.0679
爾雅	-11.0679
兊	-11.0684
■	-11.0684
宿曜經	-11.0684
寒露	-11.0684
覈	-11.0684
垜	-11.0684
白露	-11.0684
宛	-11.0685
勾股形為同式形故	-11.0685
核	-11.0685
四一四	-11.0686
天蝎	-11.0686
晰	-11.0686
分之則	-11.0688
欵	-11.0691
萬九千三百	-11.0691
或加或減	-11.0692
減縱	-11.0695
五日二十三刻	-11.0695
次輪心距地	-11.0707
相傳	-11.0709
又捷法	-11.0709
物力	-11.071
三角體	-11.0711
出没	-11.0716
切綫	-11.0726
立處	-11.0728
若先有	-11.0729
合為一線	-11.0733
圓心	-11.0733
原列	-11.0736
也何也	-11.0737
一十二步	-11.0741
五九三	-11.0741
前位	-11.0742
則所餘	-11.0743
𢃄縱	-11.0745
甲乙線上	-11.0749
每加一	-11.0752
四十三度	-11.0753
兩箇	-11.0754
一千二百六十	-11.0755
分度之一	-11.0756
一星曰	-11.076
實距時	-11.0764
甲乙與丙丁	-11.0767
置一自乘再乘	-11.077
赤道極	-11.077
丁乙邉	-11.0771
與丙辛	-11.0771
紀元	-11.0774
應得之數	-11.0782
/○○)	-11.0787
臣局	-11.0789
一千二百八十	-11.0789
十一分内一秒冬至應閏	-11.0791
丙外角	-11.081
與城相叅直	-11.0821
撱圎	-11.0828
減一餘	-11.0829
寅癸	-11.083
兩邊各	-11.0835
誤推	-11.0839
通閏	-11.0839
前條	-11.0843
一分内四十一秒冬至	-11.0847
内寄	-11.0847
與球體	-11.0854
四十四日	-11.0856
與否	-11.0863
百千	-11.0867
五等邊	-11.0868
云云	-11.0871
心之距	-11.0875
傳云	-11.0875
萬五千三百	-11.0875
之四倍	-11.0876
所有之	-11.0884
幾何法先	-11.0885
乙丁丙角	-11.0889
否則	-11.0891
股自乗	-11.0891
四歸	-11.0895
四時之	-11.0896
太半	-11.0896
剖至	-11.0902
歲星	-11.0902
三百一十五	-11.0907
九千六百	-11.0907
二十八尺	-11.0908
測影	-11.0908
嶽	-11.091
四因之	-11.0911
帶一縦	-11.0911
底闊	-11.0912
縱線	-11.0913
蟲	-11.0913
遍	-11.0915
䕶	-11.0915
以少減多	-11.0916
年十二月	-11.0917
畏	-11.0918
緩	-11.0919
霧	-11.0919
衞	-11.0923
含	-11.0923
粒	-11.0925
決	-11.0925
决	-11.0926
竭	-11.0927
輩	-11.0928
迎	-11.0929
秋分至春分	-11.0929
襲	-11.0929
欽定四庫全書厯算全書卷	-11.0929
葉	-11.093
吏	-11.093
建星	-11.093
上下廣	-11.0931
疎密	-11.0931
廉三長廉一小隅面積共得	-11.0932
與兩直角等	-11.0933
大綂	-11.0936
爲所求率	-11.0936
知道了	-11.0937
廷	-11.0937
一十八萬	-11.0937
属	-11.0938
臣李天經謹題為	-11.0939
臨期	-11.094
根必與	-11.0941
二十二度三十分	-11.0942
分圓線	-11.0943
疎宻	-11.0944
㸃之底	-11.0947
化秒為二率	-11.0947
爲實實如法得	-11.0948
積求邊	-11.0951
正月乙酉朔	-11.0952
二千五百二十	-11.0958
兩籌	-11.0958
疇人	-11.096
山頂	-11.0964
二尺四寸	-11.0965
度一十四分	-11.0974
五七五	-11.0976
每船	-11.0982
百九十	-11.0985
年即魏	-11.0987
長方之長	-11.099
變化	-11.0992
歴書	-11.0999
七億	-11.1
不及步	-11.1002
以里法	-11.1003
相割	-11.1008
虚差	-11.1008
與子丑	-11.1015
循黄道	-11.1016
最中	-11.1022
不但	-11.1025
其行度	-11.1025
一八九	-11.1026
次以初商	-11.1034
相乗之數	-11.1036
在中距	-11.1042
步與左相消得	-11.1054
故不用	-11.1056
二十七寸	-11.1057
建丑	-11.106
四歸之得	-11.1064
三千七百	-11.1064
寅卯辰	-11.1064
十有五	-11.1065
次得數	-11.107
首末	-11.1075
目視	-11.108
正月戊午朔	-11.11
小差弦	-11.1104
一百九十八	-11.1104
所換	-11.1106
樞心	-11.1107
法曰視	-11.111
魏史	-11.111
月策	-11.1128
即命為	-11.1132
皆由	-11.114
經緯度分	-11.114
與戊辛	-11.1144
一二九	-11.1146
冬正	-11.1146
星距日	-11.1158
甲角之正弦	-11.1159
萬三千七百	-11.1161
于地平	-11.1162
乙卯日	-11.1163
紀年	-11.1163
仲春	-11.1164
諸率	-11.1164
六十四寸	-11.1168
理分中末	-11.1169
黄道半徑	-11.1172
下袤	-11.1173
對衝	-11.1173
二千一百六十	-11.1174
㝛	-11.1177
夘初一刻	-11.1178
峻	-11.1178
脩	-11.1178
雀	-11.1179
鳩	-11.118
誕	-11.1182
社	-11.1182
除之所得	-11.1184
爵	-11.1184
八十九日	-11.1184
黄廣弦	-11.1184
七八五三九八一六	-11.1184
恩	-11.1185
遡	-11.1185
八十四分	-11.1185
赴	-11.1186
角其度	-11.1186
三百六十五度二十五分	-11.1187
弊	-11.1189
垓	-11.1189
儀噐	-11.1191
玉衡	-11.1191
芻蕘	-11.1193
遊表看	-11.1196
口徑	-11.1196
砌	-11.1196
邊形之毎一邊為	-11.1196
内容渾圓	-11.1197
酉未	-11.1197
列籌	-11.1197
觀象臺	-11.1197
其所以然	-11.1198
箏	-11.1198
釜	-11.12
黄赤距緯	-11.12
不改	-11.1201
五百里	-11.1206
後來	-11.1207
司馬	-11.1209
閏正月	-11.1212
等邊三角形	-11.1226
輻	-11.1227
相和折半	-11.1228
兵數	-11.1228
與末率	-11.123
引長至	-11.1232
地平上之	-11.1234
不等者	-11.1237
原形	-11.1239
金牛	-11.1241
正月庚戌朔	-11.125
一七六	-11.125
甲丙乙角	-11.1251
史稱	-11.1252
銀球	-11.1257
七六六	-11.1257
未詳	-11.1259
候氣	-11.1274
又等則	-11.1274
癸子丑寅	-11.128
倍大於	-11.1283
夜半後	-11.1291
風雨	-11.1296
總價	-11.1298
别立	-11.1302
如上法	-11.1315
四五八	-11.1327
㑹于	-11.1332
四五五	-11.1333
朔率	-11.1339
食十分	-11.1345
兩邊等	-11.1345
正月庚申朔	-11.1345
萬八千五百	-11.135
測恒星	-11.1353
星象	-11.1355
測逺	-11.136
算家	-11.1363
減原實	-11.1366
一十五萬	-11.1367
□○□	-11.1367
癸卯朔	-11.1368
壬戌朔	-11.1369
稍偏	-11.137
泛率	-11.1371
每期三百六十五日二時七刻	-11.138
三萬八千	-11.1383
弧矢積	-11.1383
厯術	-11.1383
有逺近	-11.1385
失行	-11.1387
亦必相等	-11.1387
對弧餘弦	-11.1389
巳丁	-11.1392
為甲衰	-11.1394
廿七	-11.1399
二丈四尺	-11.14
乙丙弦	-11.1402
二百二十四	-11.1402
六一八	-11.1403
用時兩心視相距	-11.1403
西史	-11.1406
左右各	-11.1408
石為二率	-11.1409
一分五十秒	-11.1423
線之上	-11.1424
亦不等	-11.1428
赤道之下	-11.1431
二根多	-11.1432
雄	-11.1434
咎	-11.1435
閣	-11.1435
半員	-11.1438
安置	-11.1438
恒見	-11.144
㡬何法以	-11.144
織女	-11.1442
畔	-11.1443
兩經斜距	-11.1444
史官	-11.1445
宰	-11.1445
誣	-11.1445
甲申朔	-11.1445
葬	-11.1446
測圓海鏡	-11.1446
頓	-11.1447
茍	-11.1447
分九十三秒	-11.1447
利瑪竇	-11.1448
卓	-11.1448
防	-11.1449
削	-11.1449
鴨	-11.145
戎	-11.1451
吹	-11.1451
平行實行之差	-11.1451
肩	-11.1452
近世	-11.1453
夲	-11.1453
五行志	-11.1455
最大兩心差	-11.1455
賾	-11.1455
糴	-11.1455
坎艮	-11.1456
三五五	-11.1458
新增	-11.1458
往來	-11.1458
積尸氣	-11.146
為勾求得	-11.146
我皇上	-11.146
練	-11.146
氂	-11.1462
右一條	-11.1462
七錢五分	-11.1465
弧之通弦	-11.147
八因之得	-11.1471
子午規	-11.1472
侵入	-11.1473
永短	-11.1473
遲厯	-11.1475
長濶和	-11.1475
北極下	-11.1475
頒行	-11.1481
月壬戌朔	-11.1486
卯寅	-11.1496
無緯度	-11.1505
體勢	-11.1509
少强	-11.151
一六二	-11.1514
黄道宿次	-11.1518
厥後	-11.1518
其所以	-11.1519
近北	-11.152
一百六十九	-11.1522
二八四	-11.1524
金木	-11.153
平行經度	-11.1531
癸午	-11.1531
從亷	-11.1532
出本銀	-11.1535
環田	-11.1537
千二百黍	-11.1537
五分内五十一秒冬至	-11.1539
晨伏	-11.1539
試觀	-11.1539
三平均	-11.1544
食甚距時	-11.1544
愈小	-11.1546
臣部	-11.155
丙縣	-11.1553
邊之較	-11.1553
三十六萬	-11.1556
壽星宫	-11.1558
從丁作	-11.1561
補成	-11.1566
六八八	-11.1568
七一五	-11.1571
厯積年	-11.1574
減定差	-11.1577
發光	-11.1586
乘之爲	-11.1589
月二十八日	-11.1592
九千九百	-11.1593
甲丙丁角	-11.1601
一百七十八	-11.1608
規矩	-11.1612
各曜	-11.1613
兩平分之	-11.1613
如法乗	-11.1614
正月癸丑朔	-11.1619
辰寅	-11.162
己庚辛壬	-11.1621
南斗	-11.1632
象限九十度	-11.1636
天柱	-11.1639
丁角正弦	-11.1645
甲乙丙丁戊五	-11.1648
半弱	-11.165
人所見	-11.166
大梁宫	-11.1664
度一十一分	-11.1665
納糧	-11.1665
八萬一千	-11.1671
旬周	-11.1674
月壬申朔	-11.1678
帝座	-11.1678
一十五步	-11.1678
設如甲乙丙	-11.168
地勢	-11.1684
一千三百五十	-11.1687
一十二秒	-11.1688
元統	-11.1688
丙與乙	-11.1688
衆界形	-11.169
烈	-11.1694
二尺二寸	-11.1702
得三百六十五日二十四刻	-11.1704
平亷法	-11.1705
敗	-11.1705
敦	-11.1706
磨羯	-11.1709
袋	-11.171
瑪	-11.1711
淫	-11.1713
願	-11.1713
懼	-11.1714
壘	-11.1714
姓	-11.1714
冶	-11.1715
狼	-11.1715
刑	-11.1716
蕩	-11.1717
僖	-11.1717
陌	-11.1718
洋	-11.1719
初虧復圓距時	-11.172
曾	-11.1721
渺	-11.1721
雍	-11.1721
出南門直行	-11.1721
蕤賓	-11.1721
食甚入盈縮厯	-11.1722
灼	-11.1722
由是觀之	-11.1722
厘	-11.1723
乘上廉	-11.1723
怪	-11.1723
一千九百二十	-11.1724
正月戊申朔	-11.1724
齋	-11.1724
四分日之一	-11.1725
貴賤	-11.1725
元豐	-11.1726
訣	-11.1727
求勾股弦各幾何	-11.1727
為勾求得股	-11.1728
距日天最高	-11.173
兩心之差	-11.1732
西北隅	-11.1735
推得是年	-11.1737
艮隅	-11.1737
一大正方	-11.1737
天竺	-11.1737
走	-11.1737
戊酉	-11.1742
時時不同	-11.1742
二百七十二	-11.175
必小於	-11.1751
定朔弦望	-11.1752
於上又以	-11.1752
六十七度	-11.1756
角之餘	-11.1757
三人共	-11.1758
多二根	-11.176
相減即得	-11.1761
寅丙	-11.177
首卷	-11.1774
減半周之餘	-11.1776
徑自乘	-11.1777
入陽厯	-11.1779
六十四步	-11.178
相會	-11.1781
廿九	-11.1785
總圖	-11.179
添積	-11.1791
圖說	-11.1794
用時東西差	-11.1795
大差弦	-11.1798
各若干法以	-11.1802
田苗	-11.1805
二百尺	-11.1808
昏明	-11.1808
從庚	-11.1809
太虚弦	-11.181
一千四百四十分	-11.1811
初三日	-11.1814
司辰	-11.1822
十萬分之	-11.1825
少二根	-11.1835
今有粟	-11.1836
水土	-11.1838
四分内五十一秒冬至	-11.1838
正月己丑朔	-11.1848
不盡之數	-11.1854
步為從	-11.1856
司厯	-11.1858
歳實	-11.1863
同減餘	-11.187
兩平分于	-11.1874
為二率半徑一千萬為三率求得四率為	-11.1874
建亥	-11.1876
長八尺	-11.1888
八萬四千	-11.1889
測器	-11.189
四十八刻	-11.1896
壽星	-11.1903
月二十九日	-11.1908
扁方	-11.191
距黄道北	-11.1938
兩數相加得	-11.1941
第三位	-11.1947
成一直線	-11.1952
七六八	-11.1953
得一萬五千	-11.1955
翻	-11.1961
三百零	-11.1962
九九七	-11.1962
滿一周	-11.1966
為法以除	-11.1968
三分内三十一秒冬至應閏	-11.1969
一分内一十一秒冬至	-11.197
加三倍	-11.1974
一千二百九十六	-11.1974
太𤣥	-11.1976
二十三度三十	-11.1978
輯	-11.1981
解曰此	-11.1981
刺	-11.1982
月自行	-11.1983
總積六千二百	-11.1983
村	-11.1984
為腰置尺	-11.1985
白虎	-11.1985
迥	-11.1986
五十寸	-11.1988
暇	-11.1991
洪範	-11.1991
桶	-11.1991
逹	-11.1992
劉歆	-11.1993
詭	-11.1993
患	-11.1994
圓球徑一尺二寸	-11.1995
袁	-11.1995
一寸二分	-11.1995
甲乙丙角形	-11.1996
单	-11.1997
獅子	-11.1997
亦可用	-11.1997
陽生	-11.1998
庶幾	-11.1998
虹	-11.1999
樞輪	-11.2
對距弧角	-11.2
波	-11.2001
書於初商積之下相減	-11.2002
勘	-11.2002
角旁兩弧	-11.2002
陀	-11.2002
極至交圏	-11.2002
眀	-11.2003
當食不食	-11.2003
各幾何法借一根為	-11.2004
糶	-11.2004
最小兩心差	-11.2004
一八三	-11.2008
伏見實行	-11.2009
之比即如	-11.2011
夜食不書	-11.2013
初虧至食甚	-11.2019
續商	-11.2022
南門外	-11.2022
盈初	-11.2026
尚在	-11.2028
漏刻	-11.2031
平堆	-11.2033
丁戊丙	-11.2036
八十七分	-11.2037
三百六十步	-11.2037
直綫	-11.2044
筆算	-11.2047
一百七十四	-11.2047
兩數相併得	-11.2049
補足	-11.2053
八十二秒	-11.2053
太陽實引	-11.2054
術為以	-11.2056
爲法以	-11.2057
客星	-11.2059
粟米	-11.206
月十八日	-11.2062
舊説	-11.2063
分母不同	-11.2064
連乘	-11.207
氣䇿	-11.2073
其理一也	-11.2081
參直	-11.2089
月距日實行	-11.2089
火星平行	-11.2093
癸卯年	-11.2094
球面	-11.2097
四千四百	-11.2098
南北緯度	-11.21
七尺五寸	-11.2101
天盤	-11.2104
十八丈	-11.2109
若全數與	-11.2109
新圖	-11.2112
掩食	-11.2118
二十四丈	-11.2122
横徑	-11.2128
滿景	-11.2131
二尺一寸	-11.2134
線相交	-11.2138
日行率	-11.2139
斗一升	-11.2139
無中氣	-11.2145
初度至	-11.2154
去北極	-11.2155
乙縣	-11.2155
月視行	-11.2157
五千三百	-11.2158
句與股	-11.2163
得二十九日五十三刻	-11.2166
刻入食限	-11.2172
以三乘	-11.2172
年間	-11.2177
以髙乗之	-11.2178
表杆	-11.2181
乙丁邉	-11.2184
環面	-11.2189
丙甲邊	-11.219
正月庚辰朔	-11.2191
角俱等	-11.2196
實朔望	-11.2205
之理同	-11.221
九分之一	-11.2211
十三度有竒	-11.2214
髙低	-11.2241
度一十九分	-11.2242
與之等	-11.225
北河	-11.225
相交處	-11.2256
小方形	-11.2256
高弧交角	-11.2259
傾	-11.2262
四百九十九	-11.2263
冲日	-11.2264
豕	-11.2266
振	-11.2267
朱氏曰	-11.2268
匪	-11.2269
数	-11.2272
帶一縱	-11.2273
梓	-11.2273
蟄	-11.2274
採	-11.2275
宫八度	-11.2275
亟	-11.2277
䓁	-11.2277
距黄道南	-11.2279
星距日次引	-11.228
上考往古則置	-11.228
軒轅大星	-11.228
簫	-11.2281
嘉靖	-11.2282
為嵗首	-11.2282
貝	-11.2282
夘正三刻	-11.2282
戚	-11.2282
循環	-11.2283
徐光啟	-11.2284
契	-11.2284
叠	-11.2285
年正月辛丑朔十一月	-11.2285
爲所有數	-11.2285
滋	-11.2286
其號為減	-11.2287
簡平儀	-11.2287
一分之數	-11.2287
交周升度差	-11.2287
祈	-11.2287
玄	-11.2288
桓公	-11.2288
改定	-11.2289
輙	-11.2289
逕	-11.2289
不應食	-11.229
南極入地	-11.229
斜絡	-11.229
琴	-11.229
天正經朔	-11.2291
普	-11.2291
一率半徑一千萬為二率	-11.2293
有法形	-11.2293
通軌	-11.2294
蕃	-11.2296
㸔	-11.2296
粺米	-11.2297
從地心甲計之	-11.2298
系凡	-11.2298
勾弦求股	-11.2299
月視黄緯	-11.23
額	-11.2301
始悟	-11.2301
月十三日	-11.2302
句股錐	-11.2303
戌初初刻	-11.2304
形相似而體勢等	-11.2304
隋書	-11.2306
匣	-11.231
己卯朔	-11.2317
最遲	-11.2319
縱亷	-11.2322
南京	-11.2323
多邊形	-11.233
學士	-11.2339
年五月	-11.2343
論曰凡	-11.2345
月交二十七日	-11.2349
斗牛	-11.235
次均輪心	-11.2354
泰西	-11.2355
縱廉	-11.2359
值宿	-11.236
旁通	-11.2362
分零八秒	-11.2369
相加即得	-11.2369
東西南北差	-11.2372
九服	-11.2373
處士	-11.2374
水深	-11.2377
八十里	-11.2384
欲求其	-11.2385
次輪最近	-11.2391
可省	-11.2392
星外増	-11.2397
外切立方	-11.2401
轉儀	-11.2407
四二六	-11.2413
挨次	-11.242
游表	-11.242
壬卯	-11.2424
陽馬體	-11.2432
相叅直	-11.2433
可以互	-11.2434
甲外角	-11.2436
無疑矣	-11.2437
横列	-11.2441
一千六百二十	-11.2444
此二線	-11.245
正月戊戌朔	-11.2452
度零三分	-11.2454
最大差	-11.2454
與甲乙等	-11.2455
庚㸃	-11.2466
立一表	-11.2468
三尺五寸	-11.247
每一邊之數	-11.2478
酉正二刻	-11.249
小差勾	-11.249
正月戊辰朔	-11.2501
少一平方	-11.2507
赤道經緯	-11.2509
六五八	-11.2512
可據	-11.2521
正月己亥朔	-11.2532
弧之矢	-11.2533
甲乙丁丙	-11.2534
與乙丙平行	-11.2537
二丈五尺	-11.254
疇	-11.2547
人之所	-11.2551
正月丙戌朔	-11.2551
塗	-11.2553
多一平方	-11.2554
邊等形	-11.2556
缸	-11.2561
斜行步	-11.2562
法先求	-11.2564
平面形	-11.2566
笠	-11.2569
囷	-11.2571
一兩五錢	-11.2571
銳角形	-11.2571
正方體之每一邊	-11.2572
亘	-11.2574
對兩心實相距角	-11.2574
仲康	-11.2575
自上而下	-11.2575
煖	-11.2576
驟	-11.2576
十二斤	-11.2576
尉	-11.2577
刪	-11.2577
真時視行	-11.2577
秒四十微	-11.2577
三百六十五日四分日之一	-11.2577
寓	-11.2578
鉅	-11.2578
天常赤道	-11.2578
揜	-11.258
彰	-11.258
爲所有率	-11.2581
各若干法借一根為	-11.2581
今推至日合	-11.2582
圓環形	-11.2583
春王正月	-11.2584
脫	-11.2585
王良	-11.2586
以減半周得	-11.2587
三百五十四日	-11.2587
銘	-11.2588
六千五百六十一	-11.2589
三角錐	-11.2589
奉聖㫖這	-11.259
均輸	-11.2591
過冬至之數	-11.2592
匀分	-11.2593
在天頂北	-11.2593
渾蓋	-11.2594
勾自乗之一正方	-11.2594
合初商次商	-11.2596
崇禎九年	-11.2597
黄赤道内外	-11.2597
正月癸巳朔	-11.2599
原母	-11.2617
樞軸	-11.262
不息	-11.2624
先儒	-11.2624
零六分	-11.2625
一百五十步	-11.2628
正月庚子朔	-11.2629
申戌	-11.2629
併之共	-11.263
十一月丁亥	-11.2634
五九八	-11.2636
折半即得	-11.2638
南船	-11.2641
長濶差	-11.2646
月初六日	-11.2654
追及	-11.2654
用加法	-11.2662
假數尺	-11.2667
八二六	-11.2675
數十年	-11.2678
地影半徑	-11.268
一百一十六	-11.269
上十之	-11.2695
與太陽同	-11.2697
史六月	-11.2699
形此形有	-11.2709
距赤道度	-11.271
正月丙申朔	-11.2723
案此	-11.2735
酉初二刻	-11.2737
易知	-11.2743
左氏	-11.2745
萬八千六百	-11.2751
二百五十五	-11.2766
等户	-11.2773
有二其一	-11.2776
堯時	-11.2776
五百八十八	-11.2803
夕退	-11.2804
變時得	-11.2807
年四月	-11.2815
五之三	-11.2821
八九七	-11.2835
月初二日	-11.2839
楮	-11.2853
帳	-11.2861
冰	-11.2866
凶	-11.2867
慿	-11.287
週	-11.2871
距頂	-11.2872
閼	-11.2872
東行三百二十步	-11.2872
璣	-11.2874
姜	-11.2874
夘正一刻	-11.2876
朔望時	-11.2876
狗	-11.2877
年正月己夘朔十一月	-11.2877
子初二刻	-11.2877
敘	-11.2877
溯	-11.2878
鄭伯	-11.2879
享	-11.2879
步天歌	-11.288
乙出東門南行	-11.2881
日距月最高	-11.2881
蘭	-11.2881
昻	-11.2882
扣	-11.2883
湯若望	-11.2883
歐邏巴	-11.2883
釋曰此	-11.2884
朦朧	-11.2884
二星曰	-11.2884
月天最高在	-11.2884
=	-11.2884
隊	-11.2885
勾股弦總和四十尺	-11.2885
擧	-11.2885
樹一株	-11.2886
年正月戊辰朔十一月	-11.2886
侍	-11.2886
求乙丙邊	-11.2886
正月癸酉朔	-11.2889
為對所知之角其正弦	-11.2889
欽定四庫全書御製數理精藴下編卷	-11.2889
九一四	-11.289
仁均	-11.289
少二眞數	-11.2891
所帶	-11.2894
夜食	-11.2894
距月天最高	-11.2894
授時推是年	-11.2894
此類	-11.2894
圓束	-11.2896
太弱	-11.2897
正月己酉朔	-11.2897
二千一百八十七	-11.2899
耗米	-11.2899
股自乗之一正方	-11.2899
糳米	-11.29
用互乘	-11.29
長方堆	-11.2901
單環	-11.2901
年正月辛酉朔十一月	-11.2901
隂氣	-11.2902
日月之行	-11.2905
收作	-11.2908
日在最高	-11.2909
大角星	-11.291
第幾	-11.291
邵子	-11.2911
帶零分	-11.2912
圜分角	-11.2913
寸自乗得	-11.2915
正月壬戌朔	-11.2919
小弓	-11.2921
暗體	-11.2922
變赤道度	-11.293
在地平下	-11.2931
棗價	-11.2932
天河	-11.2933
表竿	-11.2936
用元度	-11.2937
縂銀	-11.2938
甲南行步	-11.2939
黄道高弧交角	-11.2939
一分内三十一秒冬至應閏	-11.2951
正月乙亥朔	-11.2951
太初厯	-11.2952
轉球	-11.2955
實如法得一	-11.2957
五七八	-11.296
法變通	-11.296
戌宫	-11.2965
塹堵體	-11.2965
漸漸	-11.2967
長闊和	-11.2971
多二平方	-11.2975
見東方	-11.2977
幾何度分	-11.2977
年天正冬至次日	-11.2989
四度五十	-11.2995
九執	-11.2999
圓球半徑	-11.3001
日與月	-11.3004
術求之	-11.3008
圓孔	-11.3012
有一定之	-11.3017
四分七釐	-11.3018
癸酉年	-11.3022
己卯朔十一月	-11.3025
月二十六日	-11.3028
與九十度相減餘	-11.3032
之比例亦若	-11.3039
二分内一十一秒冬至	-11.3043
八千八百	-11.3043
全史日至源流卷	-11.3044
月與日	-11.3052
萬六千里	-11.306
解曰甲乙丙丁	-11.307
為三率求得	-11.3074
步術曰	-11.3088
五十七刻	-11.3088
高低	-11.31
月二十四日	-11.3124
東門外	-11.3125
所繇	-11.3126
總積四千	-11.3129
十九兆	-11.3139
萬億	-11.3141
一分内五十一秒冬至應閏	-11.3143
後倣此	-11.3145
七分五釐	-11.3157
按舊	-11.3163
未正一刻	-11.3165
畆法	-11.3168
千九百七十	-11.3169
抽竒	-11.3172
潤	-11.3176
相減得較	-11.3178
季秋	-11.3179
几	-11.318
涼	-11.3181
嗟	-11.3182
伊	-11.3185
二百四十步即城徑也合問或問	-11.3185
狩	-11.3185
肯	-11.3186
譜	-11.3186
術曰先置	-11.3186
縫	-11.3187
兒	-11.3187
磬折體	-11.3188
闇虛	-11.3188
仙	-11.3189
尺書於原積之下相減餘	-11.3189
周日一萬分	-11.319
次輪心距	-11.3191
叅相直	-11.3191
容員徑	-11.3192
晴	-11.3192
肆	-11.3192
劉洪	-11.3194
夢	-11.3195
賔	-11.3195
弑	-11.3195
様	-11.3195
或大或小	-11.3195
對兩心視相距角	-11.3195
毋	-11.3196
數學鑰	-11.3196
奉明㫖	-11.3196
為廉法以除	-11.3196
從地心甲計之當本天之	-11.3197
翻譯	-11.3197
三百九十八日八十	-11.3197
法當以	-11.3198
九執暦	-11.3202
不及減者加	-11.3202
犬	-11.3202
隔二位	-11.3202
味	-11.3203
文昌	-11.3203
大餘五十	-11.3206
統天	-11.3206
太宗	-11.3207
定朔小餘	-11.3212
留際	-11.3212
太初元年	-11.3213
錢糧	-11.3214
京房	-11.3215
豪八絲	-11.3216
以丁為心	-11.3217
方束	-11.3218
劉向	-11.3219
三分損益	-11.3227
絲四忽	-11.3231
譬如	-11.3238
以乙為心	-11.3238
必小于	-11.324
天地之中	-11.3241
太陽所躔	-11.3241
雙差	-11.3245
十三分内三十一秒冬至應閏	-11.3246
正月丙子朔	-11.3246
夜短	-11.3248
告成	-11.3249
下層少	-11.325
根乘	-11.3265
戊辰朔十一月	-11.3266
將來	-11.3268
互異	-11.3273
與甲丙等	-11.3277
石塔	-11.3278
甚㣲	-11.3278
歟曰	-11.3279
八十斤	-11.3283
加上位	-11.33
八分内二十一秒冬至	-11.3308
世界	-11.3308
丙丁戊己庚	-11.3312
十一月壬子日	-11.3319
句股相乗	-11.3323
以丙為心	-11.3326
從丙作	-11.3327
名家	-11.3329
八分之一	-11.3331
不免	-11.3336
癸巳朔十一月	-11.3336
五分内三十一秒冬至史	-11.3339
六千八百	-11.3341
居子午圏	-11.3344
等邊形面積	-11.3348
刻弱	-11.335
欽定四庫全書全史日至源流卷	-11.3353
八分八釐	-11.3357
月䇿	-11.336
尺即初商	-11.3361
欽定儀象考成卷	-11.3363
續書	-11.3368
史閏四月	-11.3381
九二九	-11.3399
連比例三率	-11.3405
七十五刻	-11.3413
四尺五寸	-11.3414
申正初刻	-11.3417
斗建	-11.3426
為乙衰	-11.3432
以日為心	-11.3438
年正月戊戌朔十一月	-11.3455
五十三刻	-11.3463
體求積	-11.3482
十餘年	-11.3487
一千一百六十	-11.3494
婦	-11.3495
壯	-11.3496
距天頂之度	-11.3499
年正月壬戌朔十一月	-11.3501
滯	-11.3501
溝	-11.3501
戒	-11.3502
闇	-11.3503
四度有竒	-11.3504
五十九刻	-11.3504
三分内一秒冬至應閏	-11.3505
模	-11.3507
激	-11.3508
召	-11.351
古歌曰	-11.351
諳	-11.3511
蔡邕	-11.3511
西歌曰	-11.3511
庚申年	-11.3512
喪	-11.3512
多二眞數	-11.3512
壊	-11.3512
正義曰	-11.3512
四面體之每一邊	-11.3513
疆	-11.3513
𦙍	-11.3514
富	-11.3514
岐	-11.3515
相交于	-11.3515
年正月癸酉朔十一月	-11.3515
暴	-11.3515
紫氣	-11.3516
弦與勾股較之和二十四尺	-11.3516
吸	-11.3516
分撱圓面積	-11.3516
趨	-11.3518
黙	-11.352
僧一行	-11.352
一根自乘得一平方	-11.352
瓦	-11.3521
勑	-11.3521
監局官生	-11.3522
弦與勾股較之較	-11.3523
閣道	-11.3524
為所知之邊其	-11.3525
旁帶縱	-11.3526
焦	-11.3528
把	-11.3529
一千二百一十	-11.353
賞銀	-11.3531
四十二秒	-11.3531
方法算之得	-11.3533
問得幾何荅曰爲	-11.3533
受日光	-11.3534
遷就	-11.3535
為勾求得弦	-11.3536
各省直	-11.354
於是乎	-11.3542
氣骨	-11.3542
紀法六十	-11.3546
北極之下	-11.3548
距交九十度	-11.3549
為初商實	-11.355
乙角之切線	-11.3551
恒星赤道經緯度表	-11.3553
明㫖	-11.3553
中心行度	-11.3556
周天之度	-11.3557
見幾何原本	-11.3561
四分内一秒冬至史	-11.3566
世間	-11.357
監局	-11.3576
對弧矢	-11.3577
渾球	-11.3577
人所居	-11.3578
每戸	-11.3589
栗價	-11.3593
乙甲丙形	-11.3593
釐五豪	-11.3594
為次商實	-11.3594
司命	-11.36
次啇	-11.3604
本卷界	-11.3608
平朔望	-11.3619
未敢	-11.3624
月十一日	-11.363
萬一千七百	-11.3635
十尺自乘	-11.3637
晷影	-11.3639
弦也術曰	-11.3656
為寔以	-11.3664
一千零八十	-11.3669
晨夕	-11.3675
欽定四庫全書欽定儀象考成卷	-11.3681
丙乙丁角	-11.3687
土木火	-11.3694
五百零	-11.3695
通分内子得	-11.3713
辛壬弧	-11.3715
尺問積幾何	-11.3729
甲乙丙句股形	-11.3736
戌初一刻	-11.3737
三十四步	-11.374
首朔太隂交周	-11.3748
釐四豪	-11.3756
分兩之二	-11.3774
月戊午朔日食	-11.3782
甲乙丙丁圜	-11.3798
八等邊形之	-11.3799
七四九	-11.3814
軸本偏	-11.382
堯舜	-11.3831
麟	-11.3834
螺	-11.3834
䟽	-11.3835
卜	-11.3835
穫	-11.3836
時合朔交泛	-11.3836
忠	-11.3839
奔	-11.3841
杓	-11.3841
威	-11.3841
八千七百	-11.3841
賓	-11.3842
與今所得之	-11.3843
三較連乗	-11.3844
閒	-11.3844
內	-11.3844
掲	-11.3845
磬	-11.3845
墻	-11.3845
牒	-11.3845
爲三率求得四率	-11.3845
冀	-11.3846
中心至每邊正中之垂線	-11.3847
敵	-11.3847
正方體之一邊	-11.3849
夘初二刻	-11.3849
刀布	-11.3849
肇	-11.385
年正月己未朔十一月	-11.3851
麟徳	-11.3851
面積之定率比例以定率之圜	-11.3851
歐	-11.3851
妨	-11.3851
應下年閏二月	-11.3851
坡	-11.3852
數學九章	-11.3852
白露十五日四時三刻九分	-11.3852
漫	-11.3852
泛立較	-11.3852
揣	-11.3852
寒露十五日一時一刻八分	-11.3852
長方之闊	-11.3852
斗杓	-11.3854
雙女	-11.3854
晨疾初	-11.3854
山東道御史許伯政撰壬子運	-11.3854
須臾	-11.3855
大寒十四日九時一刻十分	-11.3855
迤	-11.3856
鼠	-11.3856
裂	-11.3856
恒星黄道經緯度表	-11.3856
畢宿大星	-11.3856
呉	-11.3856
盟于	-11.3858
依密率	-11.3858
洛陽	-11.3861
硯	-11.3865
日未出	-11.3865
權衡	-11.3867
甲為地心	-11.3868
十六萬七千里	-11.3869
五星伏見	-11.3869
太陽在最高	-11.3869
年正月癸巳朔十一月	-11.387
在最庳	-11.3871
本位紀	-11.3871
厯局	-11.3883
太隂黄道經度	-11.3885
空圍	-11.3887
精宻	-11.3888
甲銀數	-11.3891
新舊	-11.3891
豈能	-11.3897
相當二界	-11.3902
二行相減餘	-11.3904
刻漏	-11.3911
北船	-11.3917
百餘年	-11.3921
月甲申朔	-11.393
天津	-11.3938
若干法借	-11.3941
三千四百六十	-11.3946
隔位	-11.3952
月二十五日	-11.3955
丈二尺五寸	-11.3959
辛酉朔十一月	-11.397
冬至之日	-11.3992
可互	-11.3993
太隂自行	-11.3998
千八百五十	-11.4004
帝堯	-11.4013
萬餘里	-11.4013
必先求	-11.4015
親測	-11.4019
宿鈐	-11.4024
半徑為髙	-11.4027
運價	-11.4031
月距地心	-11.4042
朔弦望	-11.4049
以戊為心	-11.405
正月甲辰朔	-11.4066
六百八十步	-11.4067
分斗之	-11.4067
自之為冪	-11.4099
六千三百	-11.4104
三百一十五度	-11.4135
百萬尺	-11.4137
己亥朔十一月	-11.415
見四卷	-11.4153
傷	-11.4172
扶	-11.4174
匝	-11.4178
衷	-11.418
凹	-11.4182
朱鳥	-11.4182
荆	-11.4183
數於共	-11.4184
窄	-11.4184
鳯	-11.4184
貞觀	-11.4185
甲從乾隅	-11.4186
觸	-11.4186
三分損一	-11.4186
十三度十九分度之七	-11.4186
册	-11.4187
厲	-11.4187
匿	-11.4187
燠	-11.4187
忌	-11.4187
罷	-11.4187
月二日	-11.4188
十九年七閏	-11.4188
梗	-11.4189
鐡	-11.4189
彗孛	-11.4189
祝	-11.419
以減頭位得	-11.419
撿表得	-11.4191
十二面體之每一邊	-11.4192
秬黍	-11.4192
今所設之	-11.4192
年正月丁夘朔十一月	-11.4192
供	-11.4193
不啻	-11.4193
日亥初初刻一分内一秒冬至	-11.4193
付	-11.4195
姜岌	-11.4195
法置所推	-11.4195
年正月丙子朔十一月	-11.4196
年正月乙夘朔十一月	-11.4197
年正月庚午朔十一月	-11.4198
二分内三十一秒冬至史	-11.4198
之比亦同於	-11.4198
年正月庚辰朔十一月	-11.4201
瓶	-11.4201
七分内一秒冬至應閏	-11.4202
鄧	-11.4202
在高弧西	-11.4202
列於下乃以下	-11.4205
句股方錐	-11.4206
内容十二等面	-11.4206
絫	-11.4206
草木	-11.4207
石版	-11.421
求積幾何法以	-11.421
增損	-11.421
最低	-11.4211
適足九十度	-11.4212
一千四百六十	-11.4213
皇國	-11.4214
加時減分	-11.4217
月食方位	-11.422
最髙卑	-11.4226
三三一九	-11.4226
所截之長	-11.423
叅直	-11.4233
恒星東行	-11.4234
籮	-11.4235
年正月壬寅朔	-11.4236
月初八日	-11.424
第一格	-11.4241
蒼龍	-11.4242
月距日倍度	-11.4242
子初三刻	-11.4245
本躔度	-11.4249
一百五十三步	-11.4252
季冬	-11.4256
九十二秒	-11.4263
寸許	-11.4264
兩相等則一根必與	-11.4265
甲分角	-11.4278
云爾	-11.4289
七萬一千	-11.4289
食甚視緯	-11.4294
可免	-11.4297
銀一兩	-11.4303
黄道經緯度	-11.4309
内容立方	-11.4321
線遇于	-11.4323
如圖甲乙丙	-11.4324
十一月壬午	-11.4332
太陽距北極	-11.4351
一千七百四十	-11.4379
不效	-11.4379
孟子	-11.4381
割員	-11.4382
徑求周	-11.4407
四石二斗	-11.4415
躔道	-11.4416
申正二刻	-11.4419
圓錐	-11.4438
正方體之每邊	-11.4441
丁乙丙角	-11.4457
一千一百四十	-11.4458
比例而得	-11.4487
𤣥枵宫	-11.4496
秤	-11.4505
江南	-11.452
憂	-11.452
切邊角	-11.4522
柄	-11.4524
盟	-11.4528
竈	-11.4533
鷄	-11.4535
旅	-11.4536
箇圓池	-11.4539
地平經緯	-11.454
寜	-11.454
仲夏	-11.4541
理分中末線之全分	-11.4544
帙	-11.4544
暨	-11.4545
潛	-11.4545
綜	-11.4545
十二面體之一邊	-11.4545
穹	-11.4546
頌	-11.4546
在上六宫者用順度	-11.4546
穴	-11.4546
詞	-11.4547
壕	-11.4547
理分中末之大分	-11.4547
孤	-11.4547
眠	-11.4547
鋪	-11.4548
求逐年	-11.4548
裹	-11.4549
顛	-11.4549
殫	-11.4549
一三五七九	-11.455
戈	-11.455
二十七日二十一刻	-11.455
年正月辛巳朔十一月	-11.455
梯底	-11.4551
康熈	-11.4551
頻	-11.4552
或南或北	-11.4552
淆	-11.4552
忘	-11.4554
王莽	-11.4554
晝夜永短	-11.4554
席	-11.4555
菴	-11.4555
商三方廉面積以除	-11.4555
小雪十四日九時二刻十二分	-11.4555
扇	-11.4555
御製數理精藴下編卷	-11.4556
之定率比例以	-11.4556
爲歳首	-11.4557
督修厯法山東布政使司右叅政	-11.4557
滿紀法去之	-11.4557
夘正初刻	-11.4557
并記加減號求	-11.4557
北陸	-11.4558
占候	-11.4558
聮	-11.4559
沉香	-11.4559
拙	-11.456
弦與勾股較之較十尺	-11.456
倍初商加次商	-11.4561
毫釐	-11.4563
驅	-11.4564
朝夕	-11.4567
赤白二經交角	-11.4567
殊不知	-11.4568
九千八百	-11.4569
正月壬寅朔	-11.457
十四分内二十一秒冬至應閏	-11.4575
鹹	-11.4577
佛説	-11.4581
土功	-11.4587
本輪行度	-11.459
與初商之長	-11.459
五分内四十一秒冬至	-11.4597
弦自乗之一正方	-11.4602
依上法	-11.4602
元郭守敬	-11.4607
依前論	-11.4615
二數相減餘	-11.4619
年正月戊午朔十一月	-11.4625
史閏正月	-11.4644
勾弦差	-11.4646
歸竒	-11.4675
一分内三十一秒冬至史	-11.468
殷厯	-11.4685
局供事	-11.4688
仰儀	-11.4689
減從開平方	-11.4697
二十九日五十三刻	-11.4698
呂氏	-11.4699
本輪均輪	-11.4701
四等面體	-11.4701
食甚距緯	-11.4722
之正切線為三率求得四率為	-11.473
而一卽	-11.4743
石三斗	-11.4745
為丙衰	-11.4753
設時兩心視相距	-11.4763
十一月庚午日	-11.4787
供事	-11.4796
月十九日	-11.4798
位書之	-11.4799
加減之即得	-11.48
毫六絲	-11.4805
年正月乙未朔十一月	-11.483
千八百七十	-11.4837
六十七秒	-11.4842
幾十幾	-11.4844
比例之理	-11.4844
球體外面積	-11.4868
積度全分	-11.49
以授時推	-11.4902
二行相減	-11.4903
綰	-11.4906
葛	-11.4908
䭾	-11.4908
杵	-11.491
謀	-11.4911
認	-11.4911
妖	-11.4913
再置天元	-11.4913
清濁	-11.4913
禀	-11.4914
困	-11.4914
二十五度四十二分五十一秒有餘	-11.4915
芒即得次年	-11.4915
閃	-11.4915
自下而上	-11.4916
健	-11.4916
勸	-11.4916
同文算指	-11.4916
虧至甚	-11.4917
之比為相當比例四率也	-11.4917
距次交實行	-11.4918
内容圓球徑	-11.4918
効	-11.4918
異乗同除	-11.4919
童	-11.4919
二十面體之每一邊	-11.4919
桑	-11.4919
薨	-11.492
逸	-11.492
黄白交角	-11.492
曚	-11.492
得二十七日五十五刻	-11.4921
之比例既若	-11.4921
夘正二刻	-11.4922
𢎞	-11.4923
赦	-11.4923
巴	-11.4924
日夘初三刻	-11.4924
晦朔弦望	-11.4924
串	-11.4924
泛平積	-11.4924
弦與勾股較之和	-11.4925
拱	-11.4925
北極高四十度	-11.4925
+	-11.4925
七千九百	-11.4926
立世阿毘曇	-11.4926
置一於左次為上法	-11.4926
回奏	-11.4926
臬	-11.4926
併所進之	-11.4928
山川	-11.4928
月影心	-11.4928
甲出西門南行四百八十步	-11.4929
廻	-11.4929
弦與勾股和之較六尺	-11.493
年正月己亥朔十一月	-11.4932
趣	-11.4932
聖裁	-11.4933
一千五百三十	-11.4935
砣	-11.4935
日周一萬	-11.4936
五分内三十一秒冬至應閏	-11.4937
夜子初	-11.4937
月中旬	-11.4938
赤經髙弧交角	-11.4939
丑寅卯	-11.4943
距地平之髙	-11.4944
洩	-11.4944
山之高	-11.4945
其假數為	-11.4948
微強	-11.495
年正月己丑朔十一月	-11.4952
相乗之長方	-11.4952
人分銀	-11.4953
兩餘弦相加	-11.4961
梵名	-11.4961
三稜束	-11.4963
萬一千一百	-11.4963
方亭	-11.4968
八等面體	-11.4979
正月甲申朔	-11.4981
通大分	-11.5016
形外切圜	-11.502
囘囘厯	-11.502
秒即所求之	-11.5048
髙于地平	-11.5051
月交一十三日九	-11.508
望乙與城	-11.5096
合問按	-11.5124
朢䇿	-11.5131
苗	-11.5178
建武	-11.5185
九分内四十一秒冬至	-11.5199
五百八十三	-11.5222
以己為心	-11.5229
二分八釐	-11.523
始皇	-11.5232
刻半弱	-11.5232
龍尾	-11.5243
月二十二日	-11.5247
二行相乘	-11.5267
丑正二刻	-11.5275
綂	-11.5281
禍	-11.5282
抽偶	-11.5286
馳	-11.5294
隕	-11.5294
源流	-11.5295
刀	-11.5296
胥	-11.5297
希	-11.5297
梅文鼎	-11.5298
天官書	-11.5298
璃	-11.5299
援	-11.5301
盂	-11.5301
漆	-11.5302
暫	-11.5302
措	-11.5302
跨	-11.5303
聫	-11.5304
薛	-11.5304
韋	-11.5304
突	-11.5305
開禧	-11.5305
三歸四因	-11.5305
御製厯象考成	-11.5305
躬	-11.5305
鬴	-11.5306
周日平行表	-11.5306
盧	-11.5306
治厯明時	-11.5306
標	-11.5307
一小正方形	-11.5307
翳	-11.5307
二萬七千七百五十九	-11.5307
甲出北門東行二百步	-11.5308
為次商一小隅面積合三方	-11.5308
為法實如法而一得	-11.5309
上法下實得	-11.5309
三尺四寸	-11.5309
吐	-11.5309
訟	-11.5309
戾	-11.5309
瞿曇	-11.531
夜漏	-11.531
尺有五寸	-11.531
圜之輻線	-11.5311
有零分者按中比例法求之	-11.5312
二十三度三十一分三十	-11.5312
在高弧東	-11.5313
罕	-11.5313
之比例為一與	-11.5314
四宫七宫五宫六宫四宫七宫五宫六宫	-11.5314
督修厯法	-11.5315
二十三度九十分	-11.5315
廩	-11.5316
中孚	-11.5316
紂	-11.5316
撱圓差角	-11.5316
署	-11.5317
崇禎元年戊辰	-11.5319
泛平差	-11.5319
禮記	-11.5319
有邊求積	-11.532
琮	-11.532
具圖如後	-11.5322
隄	-11.5323
紹興	-11.5325
長闊之較	-11.5327
為立方實	-11.5328
以地為心	-11.5329
不書朔	-11.5332
之類是也	-11.5333
條叚	-11.5336
繪圖	-11.5337
一千零二十四	-11.5338
催	-11.534
持錢	-11.5342
為次率	-11.5345
私種	-11.5348
定四子	-11.5352
一千七百五十	-11.5381
釐二毫	-11.5383
東或西	-11.5391
兩形之比例	-11.5397
為隅法併從方	-11.5415
用三角形法	-11.5422
與末數	-11.5432
以直角交	-11.5455
朢策	-11.5483
一千六百八十	-11.5502
分中之	-11.552
法如有甲乙	-11.5593
借一根為	-11.5603
正月庚午朔	-11.5608
朔酉時日食	-11.5631
罌	-11.5651
日未初一刻十	-11.5654
三分内三十一秒冬至史	-11.5668
辰初二刻	-11.5677
范	-11.568
雉	-11.5683
天運環	-11.5687
如圖甲乙丙三角形	-11.5689
寳瓶	-11.569
争	-11.5691
遁	-11.5694
繋	-11.5695
鄙	-11.5695
秩	-11.5695
祠	-11.5696
迹	-11.5696
八面體之每一邊	-11.5699
圍三徑一	-11.5699
競	-11.5699
賴	-11.5699
邢	-11.5699
陋	-11.57
墟	-11.57
肉	-11.5701
曠	-11.5701
餉	-11.5701
繹	-11.5702
淳祐	-11.5702
譔	-11.5703
董	-11.5703
夘初初刻	-11.5703
矩線内直角形	-11.5703
九章算術卷	-11.5703
槃	-11.5704
捴弧	-11.5705
一萬九千六百八十三	-11.5705
屯	-11.5705
劄	-11.5706
蜀	-11.5707
察其所對之度分秒得	-11.5707
等一户	-11.5708
趾	-11.5708
幽王	-11.5708
逺臣羅雅谷湯若望	-11.5709
立冬十四日十時二刻十一分	-11.5709
以乗負隅仍得	-11.5709
秋分十五日二時四刻十一分	-11.571
立夏十五日六時七刻	-11.571
處暑十五日五時六刻六分	-11.571
芒種十五日八時三刻十分	-11.571
霜降十四日十一時五刻五分	-11.571
小暑十五日八時五刻三分	-11.571
夏至十五日八時七刻	-11.571
罰	-11.571
大暑十五日八時零八分	-11.571
乳	-11.5711
為二率現設之	-11.5712
傭錢	-11.5712
泛平較	-11.5712
七百七十九日九十	-11.5712
巡	-11.5712
冬至十四日八時三刻十四分	-11.5713
壍	-11.5714
一面三角尖堆積	-11.5714
化整為零	-11.5714
逰表	-11.5714
昨	-11.5715
埀	-11.5715
二宫九宫三宫八宫二宫九宫三宫八宫	-11.5715
連環求等	-11.5715
天左旋三百六	-11.5716
玻瓈	-11.5716
撮和買	-11.5716
每邊一尺二寸為三率求得四率	-11.5716
乙出東門直行	-11.5716
尺為長方積以	-11.5718
世祖	-11.5723
黃鐘	-11.5726
二萬五千九百	-11.5727
正方形之每邊	-11.5727
遞析	-11.5727
精密	-11.5731
次汎時	-11.5736
股弦較二尺	-11.5736
年正月壬申朔十一月	-11.5737
宣公	-11.5743
一千一百三十	-11.5745
有圜求	-11.5745
八千六百四十	-11.5764
幾分之幾	-11.5787
絲七忽	-11.579
漸升	-11.5793
一千七百一十	-11.5794
黄白二道	-11.5805
辛甲壬	-11.5831
月己酉朔日食	-11.5831
較乗和	-11.5836
本年首朔	-11.5841
云數相減	-11.5869
為二率半徑一千萬為三率求得四率	-11.5895
七千八百	-11.5926
章第十	-11.5929
甲丙丁三角形	-11.5932
五分之四	-11.594
朔日食五月交	-11.5958
十四分内三十一秒冬至應閏	-11.5967
乗之為實	-11.5986
一千三百四十	-11.599
一千七百二十八	-11.5996
二千八百八十	-11.6013
以畝法	-11.6022
加時定星二百	-11.6043
圓徑以自之	-11.6058
以周天分	-11.6066
二錢五分	-11.6071
犧	-11.6075
𦵏	-11.6078
攝提格	-11.6097
十七萬七千一百四十七	-11.6103
之比即同於今所設之	-11.6103
仲秋	-11.6104
耦	-11.6104
芻甍	-11.6104
厯算全書巻	-11.6106
羅㬋計都	-11.6106
禽	-11.6107
甫	-11.6109
雛	-11.611
問爲田幾何荅曰	-11.611
麤	-11.611
周而復始	-11.611
忒	-11.6112
遯	-11.6112
托	-11.6113
倍通步	-11.6113
團	-11.6113
卯辰巳午	-11.6115
毫二絲	-11.6116
㫁	-11.6117
二百四十步即城徑也合問	-11.6117
減頭位餘	-11.6118
年正月丁亥朔十一月	-11.6119
埋	-11.6119
兩角相對斜線	-11.6119
淮	-11.612
正月壬辰朔	-11.6121
子初初刻	-11.6121
濃	-11.6121
參伍	-11.6121
考真時兩心視相距	-11.6122
森	-11.6122
太陽實躔	-11.6122
或左或右	-11.6122
年正月癸夘朔十一月	-11.6122
璧	-11.6122
半背弦差	-11.6123
寢	-11.6123
嬴	-11.6124
今所設之半徑六寸為三率求得四率	-11.6124
瑞	-11.6124
鴻	-11.6124
明邢雲路撰厯法	-11.6125
一小時化作三千六百秒為	-11.6125
階	-11.6125
燦	-11.6125
上定十位其	-11.6125
黄宏憲	-11.6125
暈	-11.6125
一加減比敷立成	-11.6125
木匠	-11.6126
諌	-11.6126
陜西	-11.6126
暢	-11.6126
林鍾	-11.6127
摩登伽經	-11.6127
2.2	-11.6127
3.1	-11.6127
馮	-11.6127
尺之上合初商共	-11.6127
須曳	-11.6127
1.1	-11.6128
2.3	-11.6128
倶舎	-11.6128
1.2	-11.6128
3.3	-11.6128
獻公	-11.6128
日丑初三刻三分止甲子運	-11.6128
併初次商	-11.6128
月高距日高	-11.6128
2.1	-11.6128
3.2	-11.6128
3.4	-11.6128
朴	-11.6129
唐一行	-11.6129
是為減差以減於平行而得實行也	-11.6129
握	-11.613
吾邦	-11.613
濫	-11.613
甲數乙數	-11.6131
扐	-11.6131
鴨蛋體	-11.6131
交角在四十五度以	-11.6132
搃	-11.6132
十一度日左旋三百六十度除天周外	-11.6132
猪	-11.6133
相等兩邊各減	-11.6133
等上田苗	-11.6133
衙門	-11.6134
帶食距弧	-11.6134
度午中赤道	-11.6134
度午中黄道	-11.6135
本天半徑一千萬	-11.6136
吏部	-11.6137
投	-11.6139
光禄寺	-11.6139
崇禎八年	-11.6139
沉	-11.614
引數宫度	-11.614
僖公五年	-11.6141
有零分者	-11.6142
䵂	-11.6142
無可疑	-11.6143
相參直	-11.6144
合而為一	-11.6145
用進法	-11.6149
以六除	-11.6155
直角三邊形	-11.6162
乘四次	-11.6163
面之中心	-11.6165
分内一秒冬至戊午	-11.6169
壺漏	-11.6172
為單位則	-11.6178
尺自乘再乘得	-11.6183
八等邊形之面積	-11.6198
置第一段	-11.6215
其故何也	-11.6224
日酉正初刻十	-11.6237
正月癸未朔	-11.6239
秒五十㣲	-11.6266
尺續書於下共	-11.6293
秒四十九微	-11.63
陸費墀	-11.6313
在食甚前	-11.6317
長闊相乘	-11.6318
周天三百六十五度	-11.6368
相等則一根必與	-11.6464
與日㑹	-11.6465
年正月庚申朔十一月	-11.6514
考靈耀	-11.6521
一千三百八十	-11.6529
億四千四百	-11.653
茂	-11.6536
𨽻	-11.6536
捴	-11.6538
諧	-11.6541
籠	-11.6541
罔	-11.6541
閱	-11.6542
无	-11.6546
闔	-11.6546
闊比髙多	-11.6548
藥	-11.6548
浩	-11.6548
姚	-11.6549
逼	-11.6549
俞	-11.6549
瞭	-11.6549
鈔	-11.655
挾	-11.655
碍	-11.655
電	-11.655
躋	-11.6551
起算之端	-11.6551
愛	-11.6552
鉞	-11.6553
抹去	-11.6553
身外加	-11.6553
櫃	-11.6554
太白辰星	-11.6554
應天府	-11.6554
指時度表	-11.6555
雩	-11.6555
隨地隨時	-11.6555
綸	-11.6556
炤	-11.6556
逈	-11.6556
二釐五毫	-11.6557
貳	-11.6557
杯	-11.6558
冥	-11.6558
悞	-11.6558
自乘得一尺四十四寸	-11.6558
年正月辛夘朔十一月	-11.6558
禮部知道	-11.6559
其縱横相遇即所求之	-11.6559
應閏蓋後九月	-11.6559
三角形為同式形故	-11.6559
醫	-11.6559
尺爲次商廉法以除次商積足	-11.656
毎期三百六十五日二時六刻	-11.656
枵	-11.656
晏	-11.656
彈	-11.6561
冝	-11.6562
賛	-11.6562
活	-11.6562
改憲	-11.6562
四因隅法得	-11.6562
婆羅門	-11.6564
半外角切線	-11.6565
擅	-11.6566
迷	-11.6566
釐七毫五絲	-11.6567
度昏正中	-11.6568
三一四一五九二六五	-11.6569
月初五日	-11.6569
渡	-11.6572
距正午赤道度	-11.6573
大僧饅首	-11.6576
十一萬九千里	-11.6577
麴	-11.6577
也此法蓋因	-11.6578
窺筩	-11.658
真刻分	-11.6588
分六十四秒	-11.6613
午未申酉	-11.6631
千二百四十	-11.6633
初虧復圓用時	-11.6643
在日前	-11.6644
户納糧	-11.6652
寸六分六釐	-11.6673
一千五百八十	-11.6726
辰初一刻	-11.6752
率與二率	-11.6758
根則餘	-11.6767
千零七	-11.6768
之積也又法以	-11.6775
䝉氣	-11.6788
問城徑釋曰此以通	-11.685
真時白經高弧交角	-11.6878
囘囘	-11.6893
置一於左上為法	-11.6902
等邊平面	-11.6905
為心甲為界	-11.6917
邵	-11.6937
彗	-11.6943
見本卷	-11.695
顓	-11.6975
烝	-11.6987
剪毛	-11.6987
燒	-11.6989
伍	-11.6991
炁	-11.6995
巫咸	-11.6995
娄	-11.6996
五二三五九八七七五	-11.6996
蚤	-11.6999
播	-11.7
更體線	-11.7
宵	-11.7001
駑馬	-11.7001
紊	-11.7001
依條段求之	-11.7002
祇	-11.7002
八面體之一邊	-11.7002
牧	-11.7003
艱	-11.7004
以乘上位得	-11.7004
逐年天正冬至次日子正	-11.7004
烟	-11.7004
摘	-11.7004
豎	-11.7005
薪	-11.7005
玩	-11.7005
一步九分六釐	-11.7005
介	-11.7006
酬	-11.7006
與城㕘相直	-11.7006
鎔	-11.7007
展開勿令移動	-11.7007
詣	-11.7007
紫微垣	-11.7007
薄蝕	-11.7007
滿周天一百二十九萬六千秒去之餘	-11.7007
花	-11.7007
自南而北	-11.7008
木閣	-11.7008
茲	-11.7008
出西門南行	-11.7008
用切線分外角	-11.7008
盆	-11.7008
枕	-11.7009
蒲	-11.7009
𤣥武	-11.701
韶	-11.701
草澤	-11.7011
實行足減本年	-11.7011
律吕	-11.7011
𦂳	-11.7011
子初一刻	-11.7012
年至此十一閏為一紀	-11.7012
至朔同日	-11.7012
丙寅年戊子月	-11.7012
天市垣	-11.7013
乙亥年丙子月	-11.7014
侍郎	-11.7014
丁丑年庚子月	-11.7014
鋼	-11.7014
範	-11.7014
己巳年甲子月	-11.7015
譌	-11.7015
甲戌年甲子月	-11.7015
三角求邊	-11.7016
如圖甲為天頂甲乙丙丁	-11.7016
乙丑年丙子月	-11.7016
蘆	-11.7016
5.2	-11.7016
5.3	-11.7016
月與五星	-11.7016
4.1	-11.7016
5.1	-11.7016
之比即同於今所設之甲乙丙丁	-11.7017
4.4	-11.7017
4.3	-11.7017
4.2	-11.7017
淮南子	-11.7018
5.4	-11.7018
廣州府	-11.7019
分八十四秒	-11.702
相等兩邊各加	-11.702
進一度即日右行退一度退十五度而	-11.7021
斬	-11.7021
正弦為三率求得四率為秒以分収之得	-11.7022
魏文魁	-11.7022
失一閏	-11.7023
榆	-11.7024
複	-11.7024
弧之正弦檢表得	-11.7025
底置尺	-11.7025
皆無減	-11.7026
黄赤二經交角	-11.7027
二十三萬八千里	-11.7028
塔頂	-11.7028
倍隅法得	-11.7029
卧	-11.7031
鶉首初度	-11.7032
尺與原積	-11.7032
鮑	-11.7034
術曰二行相乘	-11.7035
地心所出	-11.7038
虚黄方	-11.7038
一石六斗	-11.7047
峰	-11.7053
宫末度	-11.7056
凸面	-11.7076
用時白經高弧交角	-11.7081
一萬二千九百	-11.7108
秒五十七微	-11.7134
日九十一刻	-11.7153
周求徑	-11.7155
史閏二月	-11.7197
通分内子	-11.7228
千八百六十	-11.7246
陸費墀欽定四庫全書	-11.7258
角之對邊	-11.7345
二道之交	-11.7359
十一月丁夘日	-11.7366
日子正一刻十	-11.7376
黄赤經緯	-11.7399
六分内四十一秒冬至	-11.74
上兩直角方形	-11.7454
蒸	-11.7459
為二率今所設之圓球徑一尺二寸	-11.746
毒	-11.7469
淳熈	-11.7473
財	-11.7473
駕	-11.7475
螽	-11.7475
攝提	-11.7475
討	-11.7476
鼏	-11.7477
熹	-11.7477
隋志	-11.7477
慝	-11.7478
黃白大距	-11.7479
沖	-11.7479
瓦匠	-11.748
四面體之一邊	-11.748
平立定三差	-11.7481
驚	-11.7482
蔵	-11.7482
距午定分	-11.7483
勉	-11.7483
為三乘方實	-11.7484
郤	-11.7484
雷電	-11.7485
瞡筩	-11.7485
厨	-11.7486
陟	-11.7486
孔雀	-11.7486
火木土	-11.7486
御製厯象考成上編卷	-11.7486
哲	-11.7487
柰	-11.7487
正交定限度	-11.7487
阻	-11.7487
訛舛	-11.7487
得一百二十步倍之即城徑也合問或問	-11.7488
奄	-11.7488
如圗甲乙丙丁	-11.7488
籥	-11.7488
年根以積日與	-11.7489
清蒙之氣	-11.7489
丙申年戊子月	-11.7489
丁酉年庚子月	-11.7489
熾	-11.749
虗	-11.749
丙午年戊子月	-11.749
庚寅年丙子月	-11.749
壬午年庚子月	-11.749
丁亥年庚子月	-11.749
辛卯年戊子月	-11.749
癸丑年壬子月	-11.7491
戊申年壬子月	-11.7491
辛巳年戊子月	-11.7491
東西泛差	-11.7491
戊午年壬子月	-11.7491
辛酉年戊子月	-11.7491
癸亥年壬子月	-11.7491
壬寅年庚子月	-11.7491
癸巳年壬子月	-11.7491
壬辰年庚子月	-11.7492
庚戌年丙子月	-11.7492
為二率一分為三率推得四率	-11.7492
年至此十一閏一紀縮一年下起	-11.7492
辛丑年戊子月	-11.7492
乘從一廉得	-11.7493
六分内三十一秒冬至應閏	-11.7493
徑一圍三	-11.7494
甲午年甲子月	-11.7494
蟻	-11.7494
鼈	-11.7495
窟	-11.7496
輛	-11.7497
毎期三百六十五日二時五刻	-11.7498
邊與半總之較	-11.7498
轍	-11.7498
懷	-11.7498
九十三日七	-11.7498
奈何	-11.7498
祚	-11.7498
棚道	-11.7499
此二率者	-11.7499
其理同也	-11.7502
暢春園	-11.7502
絰	-11.7503
南行為通股	-11.7504
去之不滿	-11.7509
黄道交極圏角	-11.7511
囤	-11.7513
櫓	-11.7519
善行者	-11.7522
為下法與上法相乗除	-11.755
分本形為	-11.7585
以全除之	-11.771
以通法除	-11.7879
亥正三刻	-11.7934
禍福	-11.7949
刻少弱	-11.7952
壽	-11.7965
丑宫未宫	-11.7968
積相等邊線不同之定率比例以定率之	-11.7968
攸	-11.7968
槐樹	-11.7969
松	-11.7969
洽	-11.7972
萌	-11.7972
比敷分	-11.7973
閔	-11.7974
稼	-11.7974
草曰識别得	-11.7974
乂	-11.7975
膠	-11.7976
夏小正	-11.7977
穎	-11.7977
杠	-11.7978
趙君卿	-11.7978
闊不及長	-11.7979
曆	-11.798
除不除便以	-11.7981
欽定四庫全書御製厯象考成表卷	-11.7981
搬	-11.7981
染	-11.7982
楊之華	-11.7982
刻白爾	-11.7982
抽	-11.7982
差而遲	-11.7983
法曰置積為實以	-11.7984
御製厯象考成表卷	-11.7984
朗	-11.7984
二百恒年表	-11.7985
祖沖之	-11.7986
為三率二三率相乘一率除之得四率	-11.7986
猛	-11.7986
賁	-11.7987
桐	-11.7987
於徽術當	-11.7987
璇璣	-11.7987
并記南北號	-11.7987
黄白升度差	-11.7987
用交食北極髙四十度黄平象限表以	-11.7987
頼	-11.7987
四行時表	-11.7987
以減從方餘	-11.7988
炭	-11.7988
從坤隅	-11.7988
尖設如原數	-11.7988
羯	-11.7988
懇	-11.7989
日數以所設日數與	-11.7989
春分距午時分	-11.7989
己丑年甲子月	-11.7989
每期三百六十五日二時六刻	-11.7989
化秒為三率求得四率為秒以時分	-11.7989
閻浮	-11.799
邇	-11.799
汲	-11.799
聰	-11.7991
胄	-11.7991
合退伏	-11.7991
洛下閎	-11.7991
蕐	-11.7992
畜	-11.7992
敬授人時	-11.7992
又設如原數	-11.7992
為初商積以初商本位計之則	-11.7992
愽	-11.7992
度是為加差以加於平行而得實行也	-11.7993
不及損者	-11.7994
更面線	-11.7994
察其所對之分秒得	-11.7995
用時太陽距午赤道度	-11.7996
詆	-11.7996
儻	-11.7996
九九九八五七一	-11.7997
穽	-11.7997
劉有慶	-11.7997
根旣與	-11.7997
焯	-11.7997
律度量衡	-11.8
貫五百文	-11.8
與城相叅直既而	-11.8001
不及故舎	-11.8001
以數明之	-11.8005
依本層為正	-11.8007
長方面形	-11.8009
貫二百文	-11.8013
次開方得一	-11.8037
赤道以南	-11.8055
有微差	-11.8068
行九十度至	-11.8082
朔午時日食非	-11.8129
見本厯	-11.8155
較求勾股弦	-11.8171
十餘秒	-11.8181
甲乙丙丁戊己庚辛壬癸	-11.8204
秒三十三微	-11.8235
三斗二升	-11.828
絲三忽	-11.8308
月甲戌朔日食	-11.8316
自乗之一正方	-11.836
尺二寸五分	-11.8386
臣淳風等謹	-11.8409
鶉	-11.8471
凍	-11.8488
立表取景	-11.8492
臼	-11.8492
九兆三千	-11.8495
葭	-11.8496
伊尹	-11.8497
轄	-11.8498
般	-11.8499
體等三入	-11.8499
耿	-11.85
周三徑一	-11.85
稟	-11.85
絃	-11.8501
竄	-11.8501
險	-11.8502
噶西尼	-11.8502
理分中末線之大分	-11.8503
馬三匹	-11.8503
途	-11.8504
各多少答曰外	-11.8504
貌	-11.8505
彷	-11.8506
交前交後	-11.8506
徐光啓	-11.8508
妃	-11.8508
族	-11.8508
食旣生光	-11.8508
終古不易	-11.8508
脚跡	-11.8509
崖	-11.8509
卯正酉正	-11.8509
落下閎	-11.8509
至槐樹下	-11.8509
彈丸	-11.851
紫炁	-11.851
一一二八三七九	-11.851
晨前夜半定星三百	-11.851
顔	-11.8511
技	-11.8511
紛紛	-11.8511
上直角方形并與	-11.8511
愆	-11.8511
旨	-11.8512
幣	-11.8512
馬四匹	-11.8512
慧	-11.8513
記加減號	-11.8513
郊今推冬至在	-11.8513
暅	-11.8513
磁	-11.8513
汴	-11.8513
術曰如方程	-11.8513
動的月	-11.8513
雞翁	-11.8513
緑	-11.8513
庻	-11.8513
上考往古	-11.8513
恒年表	-11.8514
隸	-11.8514
也如以數明之以根爲	-11.8514
為三率則得四率	-11.8514
引而長之	-11.8514
鸞	-11.8514
笇	-11.8514
朕	-11.8514
黨	-11.8514
三分之每分	-11.8514
先推太陽躔	-11.8514
今以法考之是	-11.8514
闊之較用帶縱較數開平方法算之得闊	-11.8515
乗之即得今有	-11.8515
其比例仍同	-11.8516
未時日食非	-11.8517
傭	-11.8517
年十一月丁亥朔	-11.8517
範圍	-11.8517
冩	-11.8517
尺爲初商積與	-11.8518
懿	-11.8518
異乘同除	-11.8518
響	-11.8518
劉焯	-11.8518
以存其位	-11.8518
論曰如云不然	-11.8519
為二率今所得之	-11.8519
與二直角等	-11.8519
城外西北乾隅	-11.8519
宫一宫十宫初宫十一宫一宫十宫	-11.8519
毘	-11.8519
稀	-11.852
佗	-11.852
瞬	-11.852
麿	-11.852
閻浮樹	-11.8521
斟酌	-11.8521
日天最高在	-11.8521
為相連比例三率	-11.8521
自末位起算每方積	-11.8521
為弦求得股	-11.8521
列甲左	-11.8522
十百千萬	-11.8522
金五百八十三日九十	-11.8523
黃平象限	-11.8524
藝文志	-11.8524
月庚子朔日食	-11.8524
前多後少	-11.8525
乙出東門南行三十步	-11.8525
萬尺之上而以	-11.8526
二月交一十四日	-11.8526
正勾股定分之	-11.8526
芥	-11.8527
之假數書於減餘之下相減	-11.8528
相當各界	-11.8528
之假數即以一	-11.8528
罄	-11.853
矛	-11.8533
𨼆	-11.8534
疉	-11.8535
一正一負故相加得	-11.8537
紫薇	-11.8544
鳬	-11.8544
􁅙	-11.8546
入元嵗	-11.8547
五金線	-11.8549
四面體之每邊	-11.8551
所以然之故	-11.8612
年辛巳嵗	-11.8613
八秒二十㣲	-11.8637
月初四日	-11.8649
弦求股	-11.8653
秒一十四微	-11.8656
正月乙夘朔	-11.8684
秒與下層	-11.8756
申正三刻	-11.8788
古無星	-11.8804
角又等	-11.882
三率求得四率	-11.8842
月初九日	-11.8875
一千零五十	-11.8911
具題本月	-11.8913
併從方共	-11.8925
度一十六分五十	-11.8927
行化秒為一率	-11.8959
四分内二十一秒冬至史	-11.8976
以法除實	-11.8999
堆垜	-11.9044
臂	-11.9045
霄	-11.9049
軒	-11.9051
谷白泥	-11.9052
駟	-11.9053
宫一十五度為	-11.9054
尅	-11.9054
畞	-11.9054
暉	-11.9055
翕	-11.9056
歎	-11.9057
體等二入	-11.9057
棟	-11.9058
乏	-11.9058
墓	-11.906
寥	-11.906
差而早	-11.906
積之定率比例以定率之圓球	-11.9061
笑	-11.9061
繆	-11.9062
藴	-11.9062
隋劉焯	-11.9063
攘	-11.9064
一多一少	-11.9064
縷	-11.9064
薩	-11.9064
五萬九千四十九	-11.9064
一日一夜	-11.9065
龍頭龍尾	-11.9065
廪	-11.9065
瑜	-11.9065
促	-11.9066
倪	-11.9066
周嵗平行表	-11.9067
趺	-11.9067
攜	-11.9067
掩食凌犯	-11.9067
徂	-11.9068
迂	-11.9068
㝠	-11.9069
溷	-11.9069
秀	-11.9069
低昂	-11.9069
畿	-11.907
朱光大	-11.907
以減下廉餘	-11.907
浪	-11.907
嵗正月庚申朔十一月	-11.907
軰	-11.9071
凉	-11.9071
芳	-11.9072
弼	-11.9072
同底同髙	-11.9072
三之四而一	-11.9073
以亷減縱	-11.9073
臑	-11.9073
暘	-11.9073
斡	-11.9073
敏	-11.9073
剌	-11.9074
氣應七日六五六三七四九二六	-11.9074
莊氏算學	-11.9074
婆娑	-11.9074
周嵗三百六十五日二四二一八七五	-11.9074
所知之邊為三率求得四率	-11.9076
4.5	-11.9076
減從開平方法見二卷	-11.9076
髙深廣逺	-11.9076
1.3	-11.9076
御製數理精藴	-11.9076
潢	-11.9076
隋開皇	-11.9076
開連枝	-11.9077
芻	-11.9077
為除出之分	-11.9077
案呈到部	-11.9078
演紀上元甲子距	-11.9078
五十度零五分	-11.9078
一萬四千八百二十三度	-11.9079
日距地髙	-11.9079
至輸所	-11.9079
法為全與	-11.908
若均輪心從最髙	-11.908
心宿第二星	-11.9081
黄赤大距二十三度二十九分三十秒	-11.9082
勾股求容圓	-11.9083
該衙門知道	-11.9083
茶	-11.9084
謄	-11.9085
繳	-11.9086
辟	-11.9086
下田苗米	-11.9086
中田苗米	-11.9088
互和折半	-11.9091
蠟	-11.9092
甲乙丙與丁戊己	-11.9096
食甚日躔黄道	-11.9097
糲飯	-11.9097
能再食	-11.9112
用中比例法	-11.9116
秒一十六微	-11.9127
月癸丑朔日食	-11.919
倍大之比例	-11.9194
相乘之長方	-11.9232
分零四秒	-11.9243
秒四十㣲	-11.925
四釐六毫	-11.9265
加天元得	-11.9281
十九萬六千秒	-11.9291
千九百五十	-11.93
日六十二刻	-11.932
月戊子朔日食	-11.9327
餘通秒	-11.9463
理未敢擅便謹題請㫖計開	-11.9473
毎期三百六十五日二時七刻	-11.9492
毫四絲	-11.9553
鷹	-11.9624
革象新書	-11.9635
鬱	-11.9636
貸	-11.9638
喙	-11.9639
怒	-11.964
弦虚弦共	-11.964
上下不等圎面體	-11.9641
陶	-11.9644
牌	-11.9646
依號加減	-11.9646
涸	-11.9646
三垣二十八宿	-11.9647
一晝一夜	-11.9647
快	-11.9648
凟	-11.9648
八十八日九	-11.9648
牲	-11.9649
据	-11.965
天經或問	-11.9651
恂	-11.9651
甲從乾隅南行六百步	-11.9651
雍正元年	-11.9652
藩	-11.9652
墳	-11.9653
年十一月己亥朔	-11.9653
賊	-11.9653
寘	-11.9654
贍	-11.9654
赫	-11.9654
墊	-11.9655
也表以十分為率若	-11.9655
霞	-11.9656
分為一率總	-11.9656
揭	-11.9656
元李冶撰	-11.9656
儼	-11.9657
遑	-11.9657
次商廉隅之共積	-11.9657
如以真數明之	-11.9658
彊	-11.9658
乾鑿度	-11.9659
宝星經	-11.966
八月交一十四日	-11.966
圜面積一尺一十三寸零九分七十三釐	-11.9661
當期之日	-11.9661
算經十書	-11.9662
通鑑綱目	-11.9662
貿	-11.9662
諌經曰	-11.9662
九分内一秒冬至應閏	-11.9663
翅	-11.9663
肉眼	-11.9663
訶	-11.9664
麿羯宮	-11.9664
食甚入縮厯	-11.9664
漠	-11.9664
自一至九	-11.9664
中心平分距分五十分	-11.9664
兩矢之較	-11.9665
加時在晝	-11.9665
盈加縮減	-11.9665
周髀算經	-11.9665
城外東北艮隅	-11.9666
浙江	-11.9666
為同理之比例	-11.9667
賸	-11.9667
睿	-11.9667
屠	-11.9668
十萬三千里	-11.9669
曉菴新法	-11.9669
王應遴	-11.9669
估	-11.9671
率相對之假數	-11.9671
嵗前冬至	-11.9672
字今補	-11.9672
不入交不應食	-11.9673
鳳	-11.9674
也何以言之	-11.9675
為圓徑冪	-11.9679
朔辰時日食非	-11.969
盞	-11.9694
變負為正	-11.9699
秒三十八微	-11.9708
經在赤經	-11.9711
申酉戌亥	-11.9719
分錢之二	-11.972
七秒三十㣲	-11.9802
匀	-12.0211
度之兩㸃依	-12.0222
竺	-12.0245
上下不等撱圎面體	-12.026
禦	-12.0263
縀	-12.0265
亨	-12.0266
娶	-12.0266
網	-12.0266
託	-12.0266
諾	-12.0267
灌	-12.0269
駭	-12.0269
負圜角	-12.0269
瞽	-12.0269
畸	-12.027
行夏之時	-12.027
時刻置食甚時刻	-12.0271
九百零四寸七百七十八分六百八十	-12.0271
蔓	-12.0271
為本天半徑千萬分之	-12.0272
歩天歌云	-12.0273
敝	-12.0273
鰲	-12.0273
下推將來	-12.0274
爍	-12.0275
聿	-12.0276
可食之限	-12.0276
鑑	-12.0276
復圓月距限	-12.0277
煉	-12.0277
相等故以子丑寅卯	-12.0277
夜半火星度	-12.0277
兢	-12.0278
瓊	-12.0278
僕	-12.0278
搖	-12.0279
冇	-12.0279
太陽髙卑差	-12.0279
二月入月已來日	-12.0279
在平行線内	-12.028
嵗正月乙未朔十一月	-12.028
莽	-12.028
禾一秉	-12.0281
演紀上元	-12.0281
弁	-12.0281
以減益從方餘一百	-12.0282
黄道宿鈐内某宿度分則減之餘為	-12.0282
未復光	-12.0282
之軌道	-12.0282
以秒法通之即得	-12.0282
鋦	-12.0282
渉	-12.0282
恪	-12.0282
嵗正月甲子朔十一月	-12.0282
嵗正月乙卯朔十一月	-12.0282
用規器	-12.0283
二十九日九百四十分日之四百九十九	-12.0283
隐	-12.0283
與餘積相減恰盡是開得	-12.0284
比例規解	-12.0284
貯	-12.0284
㽔賓	-12.0285
縛	-12.0285
賤	-12.0285
這	-12.0285
乃以半徑十萬為一率	-12.0286
之法而轉用之	-12.0286
毬	-12.0286
义	-12.0286
八八六二二六	-12.0286
瑁	-12.0286
之比必同於	-12.0287
筮	-12.0287
赤道同升度	-12.0287
爲次商積而以初商之	-12.0287
絜	-12.0287
年十一月庚戌朔	-12.0287
佛國暦象編	-12.0288
日食史官不見	-12.0288
與法求等得	-12.0288
聖祖仁皇帝	-12.0288
悮	-12.0288
一甲與二乙	-12.0288
六月交一十四日	-12.0289
丈零五寸	-12.0289
涯	-12.0289
睹	-12.0289
薦	-12.029
均輪心從本輪最髙戊	-12.0291
七萬零七百一十	-12.0291
以一步九分六釐乗之	-12.0291
溺	-12.0291
帥	-12.0291
糳	-12.0292
初虧月距限	-12.0292
冒	-12.0292
二至出入差	-12.0292
弧之正切檢表得	-12.0292
法除之得半徑帶從	-12.0292
或等或小	-12.0293
兩周相切	-12.0293
真時太陽距午赤道度	-12.0293
廣東廣州府	-12.0293
三稜體	-12.0294
初虧食甚復圓	-12.0294
粺	-12.03
術曰以粟求	-12.0301
度萬七千八百六十分度之	-12.0301
勾與股弦較	-12.0301
錫六斤	-12.0306
滑	-12.0306
嬰	-12.0307
之問得幾何法	-12.0308
五億五千	-12.0312
本層少	-12.0317
層皆負故相減餘	-12.0318
右執法	-12.034
二升五合	-12.0371
分八十五秒	-12.0384
秒四十三微	-12.0386
周相減用其餘	-12.0455
毫五絲	-12.0514
凸	-12.0838
孚	-12.0847
填	-12.0886
躍	-12.0915
神農氏	-12.0915
删	-12.0921
位焉其神如	-12.0923
定入遲疾厯	-12.0924
飲	-12.0925
為有法之形	-12.0928
脉	-12.0931
艾	-12.0932
斥	-12.0932
皥	-12.0932
徙	-12.0933
周正建子	-12.0933
之月次名	-12.0934
忍	-12.0934
壹	-12.0935
得半徑草曰立天元一為半徑	-12.0937
憚	-12.0937
胸	-12.0938
局生儒	-12.0938
吴	-12.0939
譚	-12.0939
年十一月丁夘朔	-12.094
丁卯年庚子月	-12.094
莒	-12.094
貼	-12.0941
黄白距度表	-12.0941
為所夾之角	-12.0941
大荒落	-12.0941
冕	-12.0941
牟	-12.0942
以自増乗得	-12.0942
度太距北極	-12.0942
星増二星	-12.0942
伏乞勅下	-12.0942
摠	-12.0943
象限九十一度三一	-12.0944
面積不同之定率比例以定率之	-12.0944
母互乘子	-12.0944
戲	-12.0944
日距月最髙	-12.0944
砂	-12.0944
今本後漢書	-12.0945
獵	-12.0945
併徑白經交角	-12.0945
嵗正月丁丑朔十一月	-12.0945
減上位餘	-12.0945
箋	-12.0946
鄰	-12.0946
庣	-12.0946
妥	-12.0946
置閏應在次年二月後	-12.0946
自乘而三之	-12.0947
自乗之四正方	-12.0947
陬	-12.0947
侈	-12.0947
化秒為三率求得四率為秒以分收之得	-12.0947
嵗正月壬子朔十一月	-12.0947
詳交食厯理	-12.0948
剩	-12.0948
彚	-12.0948
拾	-12.0948
河鼓中星	-12.0948
嵗正月癸酉朔十一月	-12.0948
為從廉併從方共得一百	-12.0948
十一月交一十四日	-12.0949
角宿南星	-12.0949
廓	-12.0949
尺爲一立方積又以	-12.0949
一秒冬至乙未年丙子月	-12.0949
一和一較	-12.0949
㡳	-12.0949
副并爲法以	-12.0949
晶	-12.095
嵗正月壬寅朔十一月	-12.095
景長今同	-12.095
聴	-12.095
祀天於南郊今推至日合	-12.095
嵗正月庚辰朔十一月	-12.095
祕	-12.095
羨	-12.0951
鐻	-12.0951
大衍厯議曰	-12.0951
置閏應在次年三月後	-12.0952
血	-12.0952
嵗正月壬戌朔十一月	-12.0952
之半邊之比既得半邊倍之即全邊	-12.0952
飾	-12.0952
耘	-12.0952
相乗之一長方	-12.0952
之定率比例以定率之圜徑一	-12.0953
置黄道半弧弦	-12.0953
三十一秒冬至壬戌年庚子月	-12.0953
寰	-12.0953
朏	-12.0953
此疊借互徵法	-12.0953
÷	-12.0953
與上法相乘得	-12.0954
初宫十一宫一宫十宫初宫十一	-12.0954
也又用求圜内各形之	-12.0954
之比亦必同於	-12.0954
或加或减	-12.0955
合朔時太陽度	-12.0955
瀆	-12.0955
白道髙弧交角及	-12.0955
搆	-12.0955
交而相分	-12.0955
五曹算經	-12.0955
商一小隅面積合三方	-12.0955
牟休多	-12.0955
臍	-12.0956
同較衰分	-12.0956
用割切	-12.0956
秒零七微	-12.0957
齒	-12.0957
翟	-12.0957
尺自乘得一平方多	-12.0957
釐二毫五絲	-12.0958
南行六百步	-12.0958
以統法除	-12.0958
剏	-12.0959
踏	-12.0959
秒實測月離	-12.0959
近時視距弧	-12.096
之比例必同於	-12.0962
四川成都府	-12.0963
翰	-12.0964
周日諸平行表	-12.0965
月辛酉朔日食	-12.0966
實形移補	-12.0966
該銀若干	-12.0966
初終二限	-12.0966
百里之國	-12.0968
黄白二經交角	-12.0968
相乘之數以之為法除原實	-12.0972
又以兩層所減數按位相加得	-12.0973
太白食日	-12.099
糯	-12.0992
置周天半徑	-12.1035
三十一秒冬至戊戌年壬子月	-12.1092
九秒十㣲	-12.1098
二月交一十三日	-12.1148
與全周相減	-12.116
三十一秒冬至甲辰年甲子月	-12.1256
續書於下共	-12.1386
較相求法	-12.1406
行不及斜行	-12.1425
分八十六秒	-12.159
毫七絲	-12.1618
腐	-12.1622
朒十二两	-12.1622
大餘二十日小	-12.1628
饑	-12.1631
乍	-12.1634
焉乾隆四十六年	-12.1635
七日來復	-12.1635
斜距交角差	-12.1638
亥日寅正三刻	-12.1639
四角半堆	-12.1642
踏蹤	-12.1644
佚	-12.1645
毁	-12.1645
亷隅共積併得	-12.1646
兩正方邊之較	-12.1646
偹	-12.1647
纒	-12.1647
貧	-12.1648
札	-12.1648
厭	-12.1649
中外官星	-12.1649
尺求積法曰置	-12.165
産	-12.165
哭	-12.1653
畱	-12.1653
曚曨影刻分	-12.1654
燃	-12.1654
祿	-12.1654
蔡季通	-12.1654
為平亷積又以	-12.1655
距矩度中心距分	-12.1655
昆	-12.1655
恃	-12.1656
中心至每面中心之立垂線	-12.1657
總存兩餘弦	-12.1657
淪	-12.1657
視徑中準	-12.1657
宏	-12.1658
跋	-12.1658
攻	-12.1658
糅	-12.1658
嶺	-12.1659
仝	-12.1659
埂	-12.1659
貢	-12.1659
嵗月日時	-12.1659
湊	-12.1659
謨	-12.1659
於分釐尺上取其度	-12.1659
償	-12.166
挺	-12.166
松江屠文漪撰	-12.166
置閏則閏月	-12.166
列左又借	-12.1661
奉聖㫖據奏	-12.1661
終而復始	-12.1661
眎	-12.1661
尺續書於後共	-12.1662
躔求宿度法求得本年黄道宿鈐察	-12.1662
宙	-12.1662
用時月距限	-12.1662
嵗正月庚寅朔十一月	-12.1662
宦	-12.1662
如圖甲乙圜徑一尺二寸内容甲丙丁	-12.1663
慢	-12.1663
嵗正月辛卯朔十一月	-12.1663
詮	-12.1663
撓	-12.1663
贊	-12.1663
空位零一至九	-12.1664
珍	-12.1664
天包地外	-12.1664
吁	-12.1664
嵗正月己未朔十一月	-12.1664
牟呼栗多	-12.1664
焚	-12.1664
加縱多五尺得	-12.1664
堵	-12.1664
分母通其全分子從之	-12.1665
誅	-12.1665
為隅法與廉法	-12.1665
等邊形之毎邊爲	-12.1665
妻	-12.1666
分其日滿紀法六十去之餘	-12.1666
嵗正月丁酉朔十一月	-12.1666
嵗正月己巳朔十一月	-12.1666
與白道成直角	-12.1666
形夫形有	-12.1666
謹奏為	-12.1666
哈	-12.1667
湮	-12.1667
至柳樹下	-12.1667
分内一秒冬至丁未年庚子月	-12.1667
嵗正月戊戌朔十一月	-12.1667
於甲位減	-12.1667
侣	-12.1667
嵗正月辛亥朔十一月	-12.1667
九章録要	-12.1667
交角四度五十八分三十秒	-12.1667
分底乘大分底	-12.1667
浙江杭州府	-12.1667
嵗正月丁亥朔十一月	-12.1668
柘城杜知耕撰	-12.1668
求天正冬至置通積	-12.1668
用帶縱較數開平方法算之	-12.1668
為所夾之角用斜弧三角形法	-12.1668
分内一秒冬至己未年甲子月	-12.1668
極分交圏	-12.1669
山西太原府	-12.1669
太平興國	-12.1669
一千萬為一率地平高下差化秒為二率	-12.1669
小于實商	-12.167
䖏	-12.167
歲正月丁亥朔十一月	-12.167
歲正月乙丑朔十一月	-12.167
歲正月己巳朔十一月	-12.167
瞿曇氏暦	-12.167
椒	-12.167
翭	-12.167
歲正月丁未朔十一月	-12.167
位作記乃於	-12.167
禮部尚書兼翰林院學士協理詹事府事	-12.167
尺乘三次	-12.1671
阜	-12.1671
歲正月壬戌朔十一月	-12.1671
為法實如法而一草曰置	-12.1671
歲正月丙午朔十一月	-12.1671
山東濟南府	-12.1671
荀	-12.1671
年應閏三月	-12.1672
繞地一周	-12.1673
自初宫初度至初宫	-12.1673
約之初商一百置一於左上為法置一	-12.1673
詎	-12.1674
減者亦為減	-12.1674
歲正月壬寅朔十一月	-12.1674
八萬六千六百零三	-12.1674
裨	-12.1674
岀	-12.1674
館	-12.1675
六分内三十一秒冬至史	-12.1675
撞	-12.1675
於是以大小兩數相減折半得	-12.1675
帶縱負隅減縱	-12.1676
以周天三百六十度每度六十分	-12.1677
不知數但云	-12.1678
牡	-12.168
匡	-12.168
滿衍母去之	-12.1681
棱	-12.1683
年癸巳嵗	-12.1685
十秒之後交	-12.1687
尺少一根自乘得	-12.1688
朔日食見綱目史無	-12.1689
日食四月交二十六日	-12.169
線左書二第	-12.1699
乗見中法得	-12.1701
入交泛日	-12.1714
角所對之弧	-12.1719
豪七絲	-12.1726
商次商三商之	-12.1761
十一秒冬至庚午年丙子月	-12.1796
秒一十五微	-12.1851
三月交一十三日	-12.1946
為心戊為界	-12.2129
月庚午朔日食	-12.216
等邊形之面積爲	-12.2299
嫁	-12.2392
糊	-12.2404
彩	-12.2407
旺	-12.2407
巢	-12.2408
本尖内層數	-12.2408
三角測逺第	-12.241
綰時度表	-12.241
太陰距二分弧與黃道交角	-12.2411
逰	-12.2412
裹瑇瑁得	-12.2413
貫沉香得	-12.2413
日短星昴	-12.2413
廿三度半	-12.2414
庖	-12.2414
絀	-12.2415
䢉	-12.2417
中距九十三日	-12.2418
古今律厯考巻	-12.2418
步求積法曰置	-12.2418
秭	-12.2418
皮	-12.2419
半梯頭	-12.242
堢	-12.242
三角形求中垂線法	-12.2421
歲填熒惑	-12.2421
裕	-12.2421
亮	-12.2421
打	-12.2421
蓄	-12.2422
南戴日下	-12.2422
十二月十九分月之七	-12.2422
一百二十步倍之即城徑也合問	-12.2422
設弧矢田	-12.2422
旃	-12.2423
狄	-12.2423
省城及鄰近地方晝夜長短日出日入	-12.2423
邈	-12.2423
奕	-12.2423
步問三事各多少答曰	-12.2423
荷	-12.2424
倍為一率一倍為三率推得四率	-12.2424
年十一月癸夘朔	-12.2424
兩角相對之斜線	-12.2425
為連比例隔一位相加之比例	-12.2425
有零分者滿三十分以上則進作一度	-12.2425
儲	-12.2425
緝	-12.2425
㢲	-12.2425
闊長各㡬何法列積如開立方法商之其	-12.2425
鱗	-12.2426
韻	-12.2426
每邊一尺二寸自乗得一尺四十四寸	-12.2427
通分內子	-12.2427
實行化秒為一率三千六百秒為二率	-12.2427
度太赤道北	-12.2428
小于餘實次商	-12.2428
趙友欽	-12.2428
型	-12.2428
入算化作一百二	-12.2428
翁	-12.2428
嘆	-12.2429
指南針	-12.2429
臻	-12.2429
喝	-12.2429
菩	-12.2429
秦九韶	-12.2429
嵗正月丁巳朔十一月	-12.243
二尺四十七寸七十四分八十	-12.243
蔑	-12.243
或上或下	-12.243
祠祭司	-12.243
今以法考之是日太陽實引	-12.2431
品月俸	-12.2431
為廉隅共法以次商	-12.2431
之比原同於	-12.2431
臧	-12.2431
炬	-12.2431
嵗正月乙丑朔十一月	-12.2432
嵗正月壬午朔十一月	-12.2432
書於餘積之下相減恰盡是知	-12.2432
塘	-12.2432
戴日之下	-12.2432
派	-12.2433
泄	-12.2433
一率一小時兩經斜距化秒為二率	-12.2433
嵗正月庚午朔十一月	-12.2433
王寅旭	-12.2433
測圓海鏡分類釋術	-12.2434
嵗正月壬申朔十一月	-12.2434
謝	-12.2434
嵗正月戊寅朔十一月	-12.2434
春分十五日二時三刻九分	-12.2434
夏布四十五丈	-12.2434
嵗正月丁卯朔十一月	-12.2434
嵗正月甲戌朔十一月	-12.2434
張邱建算經	-12.2435
分内三十一秒冬至丙辰年戊子月	-12.2435
有大有小	-12.2435
祝懋元	-12.2435
日今同見上年	-12.2436
以三千六百秒為一率	-12.2436
與赤白二經交角相加減得	-12.2436
古則以所餘轉與紀法六十相減餘為天	-12.2436
為天正冬至日分上考	-12.2436
敷	-12.2436
千里而差一寸	-12.2437
鄭康成	-12.2437
髪	-12.2437
滿紀去之	-12.2437
踰繕那	-12.2438
璇	-12.2438
為次商三長廉面積復以次商之	-12.2438
正弦為一率北極距天頂之正弦為二率	-12.2438
第谷及其門人	-12.2438
為交終以歩五星	-12.2439
歲正月己丑朔十一月	-12.2439
盾	-12.2439
等邊形之每一邊及面積幾何法	-12.2439
白半第八日	-12.2439
歲正月壬午朔十一月	-12.2439
歲正月甲子朔十一月	-12.2439
求中積分以積年與	-12.2439
歲正月壬子朔十一月	-12.2439
監正張守登	-12.244
距所求之年共若干年減一年得積年	-12.244
覃	-12.244
歲正月乙巳朔十一月	-12.244
旭	-12.244
歲正月戊寅朔十一月	-12.2441
氣刻時三差	-12.2441
厯元康熙二十三年甲子	-12.2441
沛	-12.2441
此初開也再開倍	-12.2441
械	-12.2441
㒺	-12.2441
以發斂求之得	-12.2441
距緯之正弦檢表得	-12.2441
滂	-12.2441
煌	-12.2442
歲正月癸酉朔十一月	-12.2442
隤	-12.2442
設如有大小二正方	-12.2443
如圖甲乙圜徑一尺二寸外切丙丁戊	-12.2443
歲正月戊午朔十一月	-12.2443
控	-12.2443
慈	-12.2443
依巴谷	-12.2443
貴州貴陽府	-12.2443
忽合計三數得	-12.2443
江西南昌府	-12.2443
半年為晝半年為夜	-12.2444
夙	-12.2444
李之藻	-12.2444
雲南雲南府	-12.2444
萬置一自之以乘下廉得	-12.2444
鎭	-12.2445
担	-12.2445
年應閏五月	-12.2446
飱	-12.2446
鹵	-12.2446
辰年至此十一閏又一紀	-12.2446
施行縁係	-12.2447
程人功	-12.2447
糲	-12.2447
肄	-12.2447
七月交一十四日	-12.2448
九萬三千三百一十二	-12.2448
度距中一百	-12.2448
大僧一人	-12.2448
矯	-12.2449
朔日食霒雲不見	-12.2449
護	-12.2449
長闊較用帶縱較數開平方法算之得闊	-12.245
戴進賢	-12.245
惶	-12.245
御製璣衡撫辰儀	-12.245
牀	-12.2452
案原本脱	-12.2456
羡	-12.2462
魏太和	-12.2463
城東北隅	-12.2465
藍	-12.2467
一直一斜	-12.2471
月庚申朔日食	-12.2504
十一秒冬至壬申年庚子月	-12.2553
秒零六微	-12.2578
兩㸃相距之度於分釐尺上量之得一寸	-12.2587
崇禎七年十	-12.2601
三十一秒冬至戊辰年壬子月	-12.2683
一秒冬至辛亥年戊子月	-12.2753
螢	-12.3225
受水壺	-12.3231
禕	-12.3232
柏	-12.3235
煙	-12.3238
赤奮若	-12.3239
為廉隅共法書於餘積之左以	-12.324
槽	-12.324
帶二縦方	-12.324
渾盖通憲	-12.3242
沸	-12.3242
鉦	-12.3243
以乘從二廉得	-12.3243
徐文定公	-12.3245
鵝	-12.3245
婺	-12.3246
挹	-12.3246
大淵獻	-12.3247
虢	-12.3248
屑	-12.3249
十一萬八千九十八	-12.325
鈴	-12.3251
詢	-12.3251
裔	-12.3251
千尺之上而以所商十尺為初商之	-12.3251
蘓	-12.3252
餞	-12.3253
朔後平交日	-12.3253
角亢氐房心尾箕	-12.3254
自最髙至最卑	-12.3254
輦	-12.3255
小分三八一九六六	-12.3256
星星外増二星	-12.3256
法用邊線相等	-12.3256
外切二十面體之一邊	-12.3257
鄉苗米	-12.3257
中心至每邊正中之斜線	-12.3257
近時太陽距午赤道度	-12.3258
兩正方邊之和	-12.3258
禾二秉	-12.3258
雹	-12.3258
姬	-12.3259
首朔太陰交周	-12.3259
恊	-12.3259
十一乘十四除	-12.3259
朱國壽	-12.3259
陽厯交後度	-12.3259
駑	-12.326
用新法會通崇禎厯書	-12.326
濳	-12.326
埃	-12.326
貽	-12.3261
玻	-12.3261
犂	-12.3261
差冪而半之得	-12.3261
㝷	-12.3262
慕	-12.3262
旁死魄	-12.3262
勵	-12.3262
尺實比晉前尺一尺	-12.3262
百五十七年第	-12.3262
暄	-12.3263
矣乾隆四十六年	-12.3263
星星外増一星	-12.3263
步以畝法除之即得今有	-12.3263
鬱單越	-12.3263
棓	-12.3263
燔	-12.3264
琦	-12.3264
伹	-12.3264
穏	-12.3264
體等一入	-12.3265
拜	-12.3266
祲	-12.3266
衘	-12.3266
過半周者與全	-12.3266
嵗正月己丑朔十一月	-12.3266
以正負術入之	-12.3266
上考徃古	-12.3266
上考往古則置中積分減	-12.3266
嵗正月丙子朔十一月	-12.3266
榖雨十五日五時四刻八分	-12.3266
街	-12.3266
嵗正月丁未朔十一月	-12.3267
輾	-12.3267
眉	-12.3267
驚蟄十五日零七刻零一十	-12.3267
求黄道宿度依日	-12.3267
加減代乗除	-12.3267
溟	-12.3267
清明十五日四時零八分	-12.3268
也又用求圜外各形之	-12.3268
尺為長方積乃以	-12.3268
分之兩㸃依分釐尺	-12.3268
為上廉初商四之	-12.3269
考工記	-12.3269
淹	-12.3269
故相加反是則相	-12.3269
分内三十一秒冬至丙戌年戊子月	-12.3269
摸	-12.3269
以下為竒零而	-12.3269
歲正月丙子朔十一月	-12.3269
郢	-12.3269
日午初一刻九分止甲子運	-12.3269
不盡如鉤	-12.3269
總面積也又法以全圜三百六十度	-12.3269
滿紀法六十去之	-12.327
上考往古則置中積分減氣應得通積分	-12.327
邏	-12.327
初宮至五宮	-12.327
九百四十分日之二百三十五	-12.327
醇	-12.3271
嫌	-12.3271
冄	-12.3271
太陰過是宮	-12.3271
翰林院	-12.3271
薛儀甫	-12.3271
六尺自乗得三十六尺	-12.3272
鍼	-12.3272
歲正月庚午朔十一月	-12.3272
求次均及較分	-12.3272
胎	-12.3272
鞏	-12.3272
歲正月庚寅朔十一月	-12.3272
閩	-12.3273
而今有之卽得	-12.3273
桞	-12.3273
長闊和用帶縱和數開平方法算之得闊	-12.3273
馬哈麻	-12.3273
最髙平行以最髙年根與最髙日數相加	-12.3274
朂	-12.3274
鋸	-12.3274
歲正月甲寅朔十一月	-12.3274
清明十五日四時零七分五十	-12.3274
悔	-12.3274
分至十一宫三十度皆	-12.3275
一宫初度之初均數	-12.3275
為法實如法得一草曰置	-12.3275
小船一桅	-12.3275
竇	-12.3275
丙弧為實行不及平行之度乃用丙	-12.3275
苑	-12.3275
加俸一級	-12.3276
小寒十四日八時四刻四分五十	-12.3276
歲正月戊戌朔十一月	-12.3276
氣畢日過	-12.3276
李徳芳	-12.3277
為二率半徑十萬為三率求得四率	-12.3277
周歲平行表	-12.3277
對所知之角其正弦即半徑十萬為一率	-12.3277
番	-12.3278
亶	-12.3279
真時視距弧	-12.3279
末卦侯	-12.3279
駮	-12.328
天步真原	-12.328
儘	-12.328
始卦侯	-12.328
纖滿六十約之為㣲又以六十約之為秒	-12.3281
赧	-12.3282
有分者通之	-12.3282
億二千五百萬	-12.3282
弦與勾股較之較求勾股弦	-12.3282
兩弦最大末均	-12.3282
洵	-12.3284
中卦大夫	-12.3285
始卦公	-12.3287
御製數理精蘊	-12.3287
和碩荘親王	-12.3288
不滿退除為	-12.3289
為實以一為隅開平方得	-12.3289
末卦卿	-12.329
年即金大定	-12.3291
上層比下層多	-12.3293
百八十二日八分日之五	-12.3294
中卦辟	-12.3295
仍依本層為負	-12.3303
杖	-12.3306
見之問城徑釋曰此	-12.3338
依分釐尺	-12.3339
事理未敢擅便謹題請㫖	-12.3548
為次商廉隅之共積乃以初商之	-12.3551
百一十七年第	-12.3559
南行各不知步數	-12.3729
分内四十一秒冬至丙寅	-12.3767
尺為次商廉隅之共積乃以初商	-12.3884
自尖至底中心之立垂線	-12.3961
百七十七年第	-12.3995
勾股相乗之二長方	-12.4129
豳	-12.4145
胷	-12.4149
夏后氏	-12.4152
鞘	-12.4152
灾	-12.4152
隔一位加一倍之比例	-12.4154
日永星火	-12.4155
梁令瓚	-12.4155
泣	-12.4156
望見乙問答同前法曰	-12.4156
除實盡凡開得立方	-12.4156
膺	-12.4157
十三萬一千七十二	-12.4158
盪	-12.4159
減上位為平實	-12.4159
擾	-12.4159
𣲖	-12.416
甄	-12.416
剥	-12.416
芝	-12.4161
秒以分収之得	-12.4161
為隅積併三積共	-12.4162
泯	-12.4163
宫三十度初度起	-12.4164
尖圎堆之積數	-12.4164
参	-12.4165
蝗	-12.4165
讒	-12.4165
體積不同之定率比例以定率之	-12.4165
怨	-12.4166
杞	-12.4166
晨前夜半定星二百三十	-12.4166
鬰	-12.4166
窪	-12.4167
眷	-12.4167
一十七步三分二釐	-12.4167
萊	-12.4167
靖	-12.4167
潘	-12.4167
瘁	-12.4167
立成内宮内度下兩取	-12.4168
僻	-12.4168
日夜半金星度	-12.4168
元世祖至元	-12.4169
羞	-12.4169
歐羅巴	-12.4169
五十九分零八秒一十九	-12.417
一十三尺二百四十一寸八百六十	-12.417
批	-12.417
仞	-12.417
瞳	-12.417
楊忠輔	-12.4171
翌	-12.4171
積於頭再立天元	-12.4171
分止共三十度為	-12.4171
足二尺則以二尺書於原積	-12.4171
等邊形之每一邊也此法葢因	-12.4171
彭	-12.4172
澄	-12.4172
篤	-12.4172
藁	-12.4172
限距地髙之度察其所對之度分秒得	-12.4172
呂不韋	-12.4173
瑩	-12.4173
秪	-12.4173
為次商廉隅之共積而以初商	-12.4173
帖	-12.4173
滇	-12.4173
雕	-12.4173
乘未并者各自爲實實如法得一	-12.4173
每一面中心至邊之垂線	-12.4174
檀	-12.4174
同為加者則相加為	-12.4174
之律也三其	-12.4174
六五六三七四九二六	-12.4174
欽若昊天	-12.4175
糓	-12.4176
求積日置中積分加氣應分	-12.4176
初宫至五宫為加六宫至十一宫為減	-12.4176
絮	-12.4176
缾	-12.4176
書於原積之下相減恰盡是開得	-12.4176
新法厯書載西人多録某	-12.4176
冺	-12.4176
分距午時分察表内時分相近者取其與	-12.4176
浚	-12.4176
捐	-12.4176
嵗正月癸卯朔十一月	-12.4177
舶	-12.4177
孟履吉	-12.4177
粤	-12.4178
弘	-12.4178
比例為一比例也	-12.4178
臣淳風等謹按其問宜云	-12.4178
歌白尼	-12.4179
迅	-12.4179
梧	-12.4179
根之數葢上數	-12.4179
日午之影長	-12.4179
求得對北極距天頂之角為	-12.4179
為所夾之角用切線分外角法求得	-12.4179
堯命羲和	-12.4179
上編言之詳矣	-12.418
指非時從	-12.418
鍵	-12.418
求田一畝問從幾何荅曰	-12.418
分内一秒冬至癸未年壬子月	-12.418
澈	-12.418
恨	-12.418
歲正月癸卯朔十一月	-12.4181
碎	-12.4181
各為三率推得各四率	-12.4181
2.4	-12.4181
吒	-12.4181
陽距春秋分黄道經度	-12.4181
分内一秒冬至日躔在室	-12.4181
𣴎	-12.4181
㳺燕曰	-12.4181
之數相合即定初商	-12.4181
以日周乘之得數以	-12.4181
自初日甲子起算得	-12.4182
逐時逐分逐秒之	-12.4182
土三百七十八日九刻	-12.4183
號之兩㸃依分釐尺	-12.4183
小滿十五日八時零二分五十	-12.4183
勾三股四弦五	-12.4185
最近癸厯壬辛行	-12.4186
一丈四尺四寸二分	-12.4186
湧	-12.4186
每期三百六十五日二時五刻	-12.4186
環中黍尺	-12.4186
督修厯法臣徐光啓	-12.4187
携	-12.4188
鄉上等上田苗	-12.4188
叧	-12.4188
甲從城外西北乾隅南行六百步	-12.419
牝	-12.419
上法相乘除實	-12.419
弦與勾股較之和求勾股弦	-12.419
中氣至改躔	-12.4193
販	-12.4193
肘	-12.4193
昂	-12.4194
為亷法約計次商當得	-12.4194
各多少荅曰	-12.4194
縑	-12.4195
夏侯陽算經	-12.4195
一尺二寸折半得六寸為三率求得四率	-12.4196
饗	-12.4198
嘉泰甲子	-12.4198
跡伽曰	-12.4202
次之中率為九	-12.4204
甲為星當黄道視線點距地心之逺	-12.4205
鉛七斤鐵十四斤	-12.4205
桄	-12.4212
三角測髙第	-12.4214
置一自之以乘從二廉	-12.4214
三百六十五日二十四刻二十五分	-12.4225
鐓	-12.4227
分内四十一秒冬至丙申	-12.4673
分内四十一秒冬至丙辰	-12.4878
號兩㸃相距之度於分釐尺上量之得	-12.5011
與上法相乗除實	-12.5045
釐毫絲忽	-12.513
星黃道南北緯度立成	-12.5136
夬	-12.5137
豕羊兔	-12.5137
姤	-12.514
濬	-12.5142
濛	-12.5147
叶	-12.5147
中西經星同異考	-12.5147
升卑為高	-12.515
態	-12.5152
揮	-12.5152
燄	-12.5153
蕭	-12.5153
分七釐六毫	-12.5153
瓠	-12.5154
馱	-12.5155
雌	-12.5156
外丙仲壬	-12.5157
渙	-12.5158
今求得三件	-12.5158
計開先有之三件	-12.5158
萃	-12.5158
床	-12.5159
糠	-12.516
為二率前借數與	-12.516
䕫	-12.516
為一率兩借數相減餘	-12.516
報刻司辰輪	-12.5161
設如帶兩縱不同立方積	-12.5161
韓顯符	-12.5161
棚	-12.5162
在下六宫者用逆度用表之法以	-12.5162
詘	-12.5162
案原本訛作	-12.5162
徑自乘再乘之正方體積一	-12.5164
樞心至乙丙兩股之末作甲乙甲丙二線	-12.5164
庵	-12.5164
佑	-12.5164
沾	-12.5165
自尖至每面中心之立垂線	-12.5165
加減最多處	-12.5166
傑	-12.5166
掘	-12.5166
辰弗集于房	-12.5166
經冬十有二月	-12.5166
除不除寄為母便以此為	-12.5167
悲	-12.5167
敕	-12.5167
尺二寸自乗再乗得一尺七百二十八寸	-12.5167
誓	-12.5168
熒	-12.5168
為半段黄方冪	-12.5168
二刻三分内四十一秒冬至	-12.5168
尠	-12.5168
畨	-12.5169
問長闊各幾何法列積如開平方法商之	-12.5169
沃	-12.5169
益古演段	-12.517
苞	-12.517
僉	-12.517
一率半徑十萬為二率今所設之	-12.5171
為下法除餘實又餘實	-12.5171
樊	-12.5171
五歲再閏	-12.5171
藻	-12.5171
盗	-12.5172
五十一度二十五分四十二秒有餘	-12.5172
豁	-12.5172
乃與每邊折半之數相乗	-12.5172
應閏葢後九月	-12.5172
氣應分加本年天正冬至分得積日求	-12.5172
纏	-12.5172
仍查假數所對之眞數得	-12.5172
肥	-12.5173
頑	-12.5173
厄	-12.5173
擢	-12.5173
晀	-12.5173
濵	-12.5173
楷	-12.5173
瞿	-12.5173
步法曰立天元一為内池	-12.5173
尹	-12.5173
六寸九分二釐八豪二絲	-12.5173
大中祥符	-12.5173
宫度分順逆列之初一二	-12.5173
邊形之每邊之半六寸為三率求得四率	-12.5173
諫	-12.5174
澆	-12.5174
寕	-12.5174
以畞法除之	-12.5174
導	-12.5175
置閏應在下年三月後	-12.5175
設如圜徑二十萬求内容	-12.5175
限察其所對之數為太	-12.5175
化秒為三率求得四率為秒以度分收之	-12.5175
幻	-12.5175
為視緯之正弦檢表得視緯	-12.5176
替	-12.5176
誥	-12.5176
甞	-12.5176
次之數相準即定初商爲	-12.5176
偉	-12.5176
交實行有零分者亦按中比例法求之	-12.5176
蔣	-12.5176
隂地半徑差兩地半徑差相減餘為	-12.5177
見復光若干	-12.5177
次商三方廉面積以除次商廉隅之共積	-12.5177
減為所夾之角求得對地半徑之角為太	-12.5177
長亷積又以次商	-12.5177
仍為減一為加一為減者則相減為	-12.5177
玊	-12.5177
仍為加同為減者亦相加為	-12.5177
三十六度之正弦五萬八千七百七十	-12.5178
小寒十四日八時四刻五分零	-12.5178
𤾉	-12.5178
法曰置西域歲前積年	-12.5178
鏤	-12.5178
纍	-12.5178
星平行加減初均數得初實行求	-12.5178
分順逆以别加減中列逐宫逐度之	-12.5178
正法念經	-12.5178
如積數寄左然後列	-12.5178
今有田廣一步半三分步之一	-12.5178
圓球徑一尺二寸求得圓球	-12.5178
方底尖體形	-12.5179
輝	-12.5179
紘	-12.5179
瓉	-12.5179
係巴科	-12.5179
以商生隅	-12.5179
閤	-12.5179
自乗之數相準即定初商為	-12.5179
雁	-12.518
較前遠點其差	-12.518
鼻	-12.518
日以甲子算外得	-12.518
印度交食術之	-12.518
叉	-12.518
拓	-12.518
陜西西安府廣西桂林府	-12.518
黄道髙弧交角加減黄白	-12.518
邊形之每一邊也如甲圜内容	-12.518
宮九足配爲	-12.5181
如圖甲為地心即本天心乙丙	-12.5181
欽定四庫全書御製厯象考成下編	-12.5181
回西二暦	-12.5181
暦算全書	-12.5181
湖廣武昌府河南開封府	-12.5181
澗	-12.5181
鵲	-12.5181
欽定四庫全書測圓海鏡分類釋術卷	-12.5181
列於下前後列引數度	-12.5181
宫初度等但為實行過於平行之	-12.5181
届	-12.5182
得正交日數求	-12.5182
邊形每邊之弧得圜周	-12.5182
六宮至十一宮	-12.5182
劫	-12.5182
㮣	-12.5182
欽此欽遵抄出到部送司	-12.5182
矜	-12.5183
憶	-12.5183
分内三十一秒冬至庚辰年丙子月	-12.5183
十度至子為自行	-12.5183
合祀圜邱今推至日合	-12.5183
倍即定次商爲	-12.5183
分二釐八毫	-12.5183
覘	-12.5183
諒	-12.5183
三光隱映	-12.5184
航	-12.5184
摹	-12.5184
與半圜一百八十度相	-12.5185
微春分十五日二時三刻八分五十	-12.5185
術曰以少廣求之	-12.5186
借根方比例	-12.5186
彪	-12.5186
祀圜邱今推冬至在	-12.5186
藜	-12.5187
除交終分得二十七日二十一刻二二	-12.5187
夔	-12.5187
吿	-12.5187
明徐光啟等撰五緯表卷	-12.5188
誇	-12.5189
讖	-12.5189
睛	-12.519
之較乃以一度化作六十分為一率較數	-12.519
陰實行比平行少	-12.519
形之每一邊用其度作	-12.5191
策又三分策之一	-12.5191
膳	-12.5191
晤	-12.5192
腓	-12.5192
當於丙位除	-12.5193
為從作帶從開平方法除之	-12.5193
濱	-12.5194
謁	-12.5195
碩	-12.5196
捨	-12.5199
命以甲子算外	-12.5199
減實再開倍前商	-12.5199
坑	-12.5199
晡	-12.5201
無減就為實法除實得	-12.5201
為下大於上則借	-12.5203
宿紀總法	-12.5206
㧅	-12.521
翹	-12.5214
閠	-12.5224
之二長方又癸子丑寅為	-12.5232
應者厯元甲子	-12.5262
丙邊與甲乙邊之比	-12.5373
分内四十一秒冬至庚申	-12.5696
四率為黄道之正切線檢表得黄道度與	-12.5746
立秋十五日七時零一十一分一十	-12.5957
也依條叚求之四	-12.6221
噬	-12.6248
遐	-12.6251
薑	-12.6252
頤	-12.6256
陡	-12.6256
蛤	-12.6259
膏	-12.6259
一面六角堆	-12.6263
壔	-12.6263
圉	-12.6264
箱	-12.6264
啻	-12.6265
置一於左上為法置一乗上亷	-12.6265
時初正司辰輪	-12.6266
春夏秋冬	-12.6266
蓌	-12.6266
廐	-12.6267
書於右後借數	-12.6268
段如積寄左然後列真積	-12.6269
臚	-12.6269
對數檢對數表得眞數為秒以分收之得	-12.6269
頏	-12.6269
什	-12.6269
愼	-12.627
簸	-12.627
自地心甲計之	-12.627
穵	-12.627
摶	-12.6271
鍬	-12.6271
庠	-12.6272
以自增乘得	-12.6272
橛	-12.6273
雇	-12.6273
蜃	-12.6274
一邊之定率比例以定率之圓球徑	-12.6275
宫在上者用順度宫在下者用逆度	-12.6275
凴	-12.6275
歆	-12.6275
按度截比例尺之甲乙甲丙二線即成	-12.6276
年列之前用紀年者乃	-12.6276
操	-12.6276
鈇	-12.6277
黄赤經緯互推表	-12.6277
譴	-12.6277
但云長多濶	-12.6277
汗	-12.6277
璞	-12.6277
姦	-12.6278
欒	-12.6278
已下日月皆食	-12.6278
掃	-12.6278
巍	-12.6278
切線之對數檢八線對數表得	-12.6278
百六十六兩又三分兩之二	-12.6278
枯	-12.6278
也又用求球内各形之	-12.6278
碧	-12.6279
九八五九三一七	-12.6279
𥘉	-12.6279
奎婁胃昴畢觜	-12.6279
相等兩邊再各減	-12.628
疊借互徵	-12.628
構	-12.628
新儀象法要	-12.628
術宜云置	-12.628
北落師門	-12.628
年經秋八月	-12.628
之數此後用加法如本年為平年則加	-12.628
崔	-12.628
拒	-12.6281
彎	-12.6281
糾	-12.6281
鋒	-12.6281
三百六十五日二四二三三四四二	-12.6281
以爲法置田二百四十步亦以一爲	-12.6281
如積一叚寄左然後列真積	-12.6281
拆	-12.6281
八十一尺開方得九尺	-12.6281
八百一十四寸五百八十七分一十二釐	-12.6281
掣	-12.6282
鼗	-12.6282
煬	-12.6282
三十四尺折半得十七尺為弦	-12.6282
裝	-12.6282
平差置泛立較之半	-12.6283
匾	-12.6283
求每邊之數則用邊線相等	-12.6283
於上三四五九十十一宫列於下前後列	-12.6283
用交食東西南北差表以	-12.6284
枘	-12.6284
􁀙	-12.6284
則與次輪心丑同在一直線	-12.6284
爲次商廉隅之共積而以初商之	-12.6284
豹	-12.6285
壇	-12.6285
桀	-12.6285
問每一根之數幾何法列方積	-12.6285
磑	-12.6285
磚	-12.6285
七六五二九六五	-12.6285
弛	-12.6286
以邊計之則所得每根之數即	-12.6286
欽定四庫全書御製厯象考成後編卷	-12.6286
寨	-12.6286
為寔寔如法而一得	-12.6286
明徐光啟等撰五緯厯指卷	-12.6286
位定方根一位故隔	-12.6287
咫	-12.6287
酢	-12.6287
舂	-12.6287
約竒弗約偶	-12.6287
黃道宿鈐内某宿度分則減之餘為	-12.6287
八萬零九百零	-12.6287
置閏應在下年二月後	-12.6287
月十六日至九月十五日	-12.6287
擕	-12.6287
水占之外計地	-12.6287
皷	-12.6287
塲	-12.6287
以算較測盈	-12.6287
寃	-12.6287
悦	-12.6288
壓	-12.6288
十五尺自乘得二百二十五尺	-12.6288
乘之爲實實如法得從步	-12.6288
逝	-12.6288
置一乘從廉得	-12.6288
也定位因法之	-12.6289
與别弦測望	-12.6289
釵	-12.6289
時差總加數大為加減數大為減	-12.6289
道實行求距交實行置初實行減	-12.6289
元李冶撰明顧應祥釋術	-12.6289
以太隂入交月數與	-12.6289
和自乗之一大正方内戊己庚丁為	-12.6289
史令上輕車都尉臣李淳風等奉勅注釋	-12.629
三百九十八萬七千四百九十一為	-12.629
女虚危室壁	-12.629
輟	-12.629
逃	-12.629
移上閏於此年	-12.629
用表之法如求冬至後	-12.629
與原積相減恰盡是開得	-12.629
去交分入食限	-12.629
唐朝議大夫行	-12.629
宮夜半日度置十二次中交宮界	-12.629
布衣魏文魁	-12.629
曉厯司官	-12.629
為所夾之外角	-12.629
文殊儀䡄	-12.6291
訾	-12.6291
箸	-12.6291
設如北極出地三十九度五十五分	-12.6291
掖	-12.6291
督修厯法加光禄寺卿仍支正三品俸	-12.6292
今有方田一段内有圓池水占之外計地	-12.6292
以再減餘縱	-12.6292
引數之宫對引數之度	-12.6292
甲從城外西北乾隅東行三百二十步	-12.6292
四度八十四分八十二秒	-12.6292
祀十二月己酉朔正月戊寅朔十一月	-12.6292
猝	-12.6293
做	-12.6293
祀十二月庚午朔正月庚子朔十一月	-12.6293
曁	-12.6293
次商廉隅共法書於餘積之左以次商之	-12.6293
檐	-12.6293
祀十二月癸丑朔正月壬午朔十一月	-12.6293
珪	-12.6294
郷	-12.6294
相對之兩内角等	-12.6294
四人遙相望俱與城相叅直既而	-12.6294
霸	-12.6294
併所借之一則為	-12.6295
祀十二月甲寅朔正月癸未朔十一月	-12.6295
牢	-12.6295
為子午圏乙丙為地平丁為北極	-12.6295
自末位起算隔	-12.6295
飭	-12.6295
相乗半徑除之之數	-12.6296
鏗	-12.6296
兎	-12.6296
丁丙為北極出地三十九度五十五分	-12.6296
䘏	-12.6297
跬	-12.6297
𠂻	-12.6297
自乗再乗之數相準即定初商為	-12.6297
相等問每一根之數幾何法以	-12.6297
誦	-12.6298
邸	-12.6298
以圜徑一尺二寸折半得半徑六寸	-12.6298
下宋秦九韶撰	-12.6298
年七政經緯新厯	-12.6299
上欽定四庫全書數學九章卷	-12.6299
三百六十五日二四二一八七五	-12.6299
遏	-12.6299
液	-12.6299
翊	-12.6301
以本律全數約之為	-12.6301
伎	-12.6301
率之問各幾何荅曰其	-12.6302
進十於前位為一誌之本位紀	-12.6302
益於原實一千兆内得一千零	-12.6303
汐	-12.6305
䜴	-12.6308
剡	-12.6308
摭	-12.6309
荘	-12.6309
日道徑四十七萬六千里	-12.6311
恠	-12.6312
第二方線右書	-12.6312
作本位之十共十	-12.6313
乗馬所行之里數	-12.6316
絳縣老人	-12.6317
線左書三第	-12.6318
望乙與城叅直問城徑釋曰	-12.6325
廉隅共法書於餘積之左以三商	-12.6339
初度則次輪心從均輪最近癸	-12.6698
杆	-12.6772
次輪心從均輪最近癸行	-12.7107
宫初度次輪心則從均輪最近辛	-12.7441
浄	-12.7492
詠	-12.7494
蟠	-12.7497
媒	-12.75
奠	-12.7501
彖	-12.7506
劉孝榮造	-12.7506
若戊丑與庚夘	-12.7506
悶	-12.7507
矇	-12.751
鴽	-12.7511
窒	-12.7511
漿	-12.7511
郯	-12.7513
嫡	-12.7513
貪	-12.7515
求次商用第二㸃上餘實	-12.7515
為初商之實乃視立方籌有	-12.7516
猷	-12.7517
鏇	-12.7517
蓬	-12.7518
帀	-12.7518
為隔一位相加之比例	-12.7519
蚓	-12.7519
為闊於半和加半較得	-12.7519
年冬十有二月	-12.752
伶	-12.752
搜	-12.7521
為兩邊相等之三角形甲	-12.7521
錙	-12.7521
蠶	-12.7521
術曰以啇功求之	-12.7521
今有圓田一段内有方池水占之外計地	-12.7521
時刻加滿二十四時去之	-12.7521
法曰立天元一為内方靣	-12.7521
鑽	-12.7522
分内一秒冬至日躔在牛	-12.7522
也又用求球外各形之	-12.7522
列積如開立方法商之其	-12.7523
讓	-12.7523
嗜	-12.7523
頸	-12.7523
朽	-12.7523
今不受除便以此為	-12.7523
篾	-12.7524
蠱	-12.7524
又法既得兩借數之差用互	-12.7524
丙戊偕戊丁矩内直角形	-12.7524
日六四六九中星	-12.7524
睂	-12.7524
太陰距二分弧與赤道交角	-12.7524
月數四入三月入月已來日	-12.7525
恍	-12.7525
悼	-12.7525
剪	-12.7525
亦必相同而減盡無餘所餘者即為	-12.7526
二五為從方置初次	-12.7526
四度餘而極是	-12.7526
度兩㸃相距之度於分釐尺上量之得	-12.7526
穰	-12.7526
蘊	-12.7526
步為弦方實以平方開之得	-12.7526
賚	-12.7526
俄	-12.7526
擁	-12.7526
昕	-12.7527
奈	-12.7527
馬沙亦黒	-12.7527
瑕	-12.7527
臯	-12.7527
栽	-12.7528
甌	-12.7528
欽定四庫全書九章錄要卷	-12.7528
瞡	-12.7529
蠢	-12.7529
捧	-12.7529
涓	-12.7529
炫	-12.7529
醜	-12.7529
列於前者盖将	-12.753
喉	-12.753
㤗	-12.753
為自圜心至每一邊之中垂線	-12.753
不滿法去一子除過定	-12.753
窻	-12.7531
敬天勤民	-12.7531
棲	-12.7532
經冬十有一月	-12.7532
晃	-12.7532
也表名平行者乃	-12.7532
同名相從異名相消	-12.7532
碁	-12.7532
改商之及減而止	-12.7532
倦	-12.7532
從地心甲計之當本天之寅其丙甲寅角	-12.7532
理分中末之全分與其大分	-12.7532
邾	-12.7532
􁁬	-12.7532
每面中心至邊之垂線	-12.7532
而以初商之一十與次商之	-12.7532
一為加一為減者	-12.7533
恰盡即知長方之闊得	-12.7533
度之底定尺而取	-12.7533
荔	-12.7533
分内一秒冬至應閏癸未年壬子月	-12.7533
齎	-12.7533
其縦横相遇即所求之	-12.7533
五二四五八一二六	-12.7533
觔乳香得	-12.7533
笙	-12.7533
褁	-12.7533
氣應三十二日一二二五四	-12.7534
隣	-12.7534
仄	-12.7534
日數者自一日至三百六十六日之日數	-12.7534
分内三十一秒冬至應閏庚辰年丙子月	-12.7534
猥	-12.7534
穆尼閣	-12.7534
福建福州府	-12.7534
挍	-12.7534
二倍即定次商爲二尺書於	-12.7535
猴	-12.7535
㫄	-12.7535
各自之并而開方得	-12.7535
佳	-12.7536
一尺零三分九釐二豪三絲	-12.7536
半較角與半外角相加	-12.7536
唇	-12.7536
年根則察本表紀年自	-12.7536
礫	-12.7536
日八一七四中星	-12.7536
詡	-12.7537
廵	-12.7537
斑	-12.7537
霽	-12.7537
係何時刻答曰	-12.7537
分内三十一秒冬至應閏丙戌年戊子月	-12.7537
葮	-12.7537
評	-12.7537
乙出南門東行不知步數而立	-12.7537
渣	-12.7537
誑	-12.7537
尺問受粟幾何答曰	-12.7537
用牲於社	-12.7537
祀十二月壬辰朔正月辛酉朔十一月	-12.7538
匱	-12.7538
槍	-12.7538
以天元冪與左相消得丨	-12.7538
午前為東午後為西求	-12.7538
梢	-12.7538
日夜半土星度角	-12.7538
岡	-12.7539
為長闊和用𢃄縱和數開方法算之得	-12.7539
邀	-12.7539
是全與其分等也	-12.7539
粳	-12.7539
星在次輪之最逺壬或在次輪之最近癸	-12.7539
滄	-12.7539
祀十二月戊辰朔正月戊戌朔十一月	-12.7539
用表之法如求康熙六十一年壬寅之	-12.7539
相等問每一根之數幾何法列原積	-12.7539
之正弦之比即如所設之半徑六寸與甲	-12.7539
未日寅正三刻三分止	-12.754
一率方積一二七三二三九五四為二率	-12.754
尖圓堆之積數	-12.754
康熙二十三年甲子天正冬至為厯元	-12.754
穪	-12.754
尺七百二十八寸開立方得一尺二寸即	-12.754
年根表察本年距冬至	-12.754
訏	-12.754
訥	-12.7541
逕求次年天正	-12.7541
三千零一十億二千五百	-12.7541
淮徐海道莊亨陽撰	-12.7541
京師北極髙三十九度五十五分	-12.7541
得最髙平行求正交平行	-12.7541
爲三商廉隅之共積而以初商次商之	-12.7541
祀十二月壬申朔正月壬寅朔十一月	-12.7541
䋲	-12.7541
實行皆比平行為多	-12.7541
祀十二月丁亥朔正月丙辰朔十一月	-12.7541
設如圜徑一尺二寸求外切	-12.7541
祀十二月壬午朔正月辛亥朔十一月	-12.7542
祀十二月庚戌朔正月庚辰朔十一月	-12.7542
為長闊較用𢃄縱較數開方法算之得	-12.7542
二十一秒冬至乙巳年丙子月	-12.7542
曰初商一百置一於左上為法置一	-12.7542
設如圜徑一尺二寸求内容	-12.7542
四京九千一百八十五兆四千四百四十	-12.7542
芽	-12.7542
侔	-12.7542
緊	-12.7542
諉	-12.7542
作記定位同前乃截方根第二位以前積	-12.7542
實行皆比平行為少	-12.7542
引弧距時為加	-12.7542
格内三商廉法	-12.7542
分秒時刻并起復方位月食	-12.7542
其所對初商根爲	-12.7542
書於初商次商之位而以	-12.7542
爲初商次商之積於表中取比此數相近	-12.7542
祀十二月庚寅朔正月庚申朔十一月	-12.7542
與次商廉隅共積相減餘	-12.7543
與實相減恰盡無餘是爲	-12.7543
與原積相減恰盡即定	-12.7543
書於三商之位合初商次商共	-12.7543
祀十二月壬辰朔正月壬戌朔十一月	-12.7544
􁀦	-12.7544
食甚不見虧初	-12.7544
恭候命下	-12.7544
叨	-12.7544
樣	-12.7544
祀十二月戊寅朔正月丁未朔十一月	-12.7544
曰置所得三乘方實	-12.7544
四十七京八千零一十四兆三千二百	-12.7544
祀十二月丙申朔正月丙寅朔十一月	-12.7544
在璿璣玉衡以齊七政	-12.7544
三寸七分零八豪二絲	-12.7545
秒為實行不及平行之度	-12.7545
年至此又十九年	-12.7545
蠻	-12.7545
晩	-12.7545
廬	-12.7545
寸四分一釐六豪四絲有餘	-12.7545
九百一十七萬零六百零一為	-12.7546
以乘從二亷得	-12.7546
拘盧舎	-12.7546
霓	-12.7547
次商廉隅之共積以次商本位計之則	-12.7547
節至閲十五日	-12.7547
秋正距次年冬正	-12.7548
􁂞	-12.7548
商廉隅共積相減恰盡是開得	-12.7549
日當食不虧	-12.7549
初刻一分内一秒冬至日躔在危	-12.7549
冦	-12.7549
扛	-12.7549
孺	-12.7549
桂	-12.755
百為廉法約次商得二十置一於左	-12.755
周一百七萬一千里	-12.755
設如有帶兩縱不同立方體	-12.7551
距弧一為加一為減者則相加得	-12.7551
㪚	-12.7551
同為加或同為減者則相減得	-12.7551
乙餘弦壬卯小句	-12.7552
倐	-12.7552
悚	-12.7552
於今有術副并爲	-12.7553
厠	-12.7554
抗	-12.7554
妹	-12.7555
允禄等謹奏	-12.7556
甲丙弧四十二度三十一分二十二	-12.7556
數第一方線右書	-12.7557
距時之時分秒各察其與太	-12.7558
以一根自乘得一平方為勾自乘之數以	-12.7559
二人俱在城外西北乾隅甲東行丙南行	-12.756
正半中交加時積度	-12.7561
已復光未復光	-12.7564
凄	-12.7575
初一刻九分内三十一秒冬至	-12.7583
厫	-12.7588
漘	-12.7595
面積與球體外面	-12.7736
分兩㸃相距之度於分釐尺上量之得	-12.8697
一刻八分内四十一秒冬至	-12.8782
兩亦共為九兩第	-12.8899
耜	-12.8905
耒	-12.8907
抹	-12.892
喈	-12.892
佇	-12.8923
琉	-12.8925
僚	-12.8926
乙丙偕丁丙矩線内直角形二	-12.8929
枰	-12.8931
辰弗集房	-12.8931
劇	-12.8931
綠	-12.8933
摯	-12.8934
并半徑除正實之數	-12.8934
粉	-12.8934
帑	-12.8938
蠏	-12.8938
觽	-12.8939
潜	-12.894
磔	-12.894
濓	-12.894
恵	-12.8941
兩七錢三分九釐一毫有餘	-12.8941
聘	-12.8941
墮	-12.8942
嵌	-12.8943
與下小徑六尺相乗	-12.8945
佩	-12.8946
姻	-12.8947
撃	-12.8947
咮	-12.8947
煎	-12.8947
旌	-12.8948
殄	-12.8948
甸	-12.8948
洎	-12.8949
詫	-12.8949
以天元冪與左相消得下式	-12.8949
芝麻五十四石	-12.8949
絍	-12.895
扈	-12.895
隩	-12.895
爲實并盈不足爲法實	-12.895
潁	-12.8951
鍥	-12.8951
扆	-12.8951
得半徑草曰識别得二行相減	-12.8951
飄	-12.8951
自乘再乘得一尺七百二十八寸	-12.8951
滴	-12.8952
瀛	-12.8952
硬	-12.8952
瑣	-12.8952
書於原積之下相減恰盡是知立方之髙	-12.8952
侮	-12.8953
夥	-12.8953
不滿法去一子所定有	-12.8953
諱	-12.8953
緋	-12.8953
形弧角相易	-12.8954
距交實行之宫對距交實行之度其	-12.8954
棼	-12.8954
厯元後逐年之干支也表名距冬至者乃	-12.8954
钁	-12.8954
斿	-12.8954
用徑求圎面積法求得	-12.8954
簇	-12.8955
紋	-12.8955
體積一尺七百二十八寸與今所得之	-12.8955
較之合贏絀率	-12.8955
虐	-12.8956
督修厯法山東布政使司右	-12.8956
燼	-12.8956
為方法乃以方法乗商以	-12.8956
璿	-12.8956
恕	-12.8956
弃	-12.8956
正方面積一尺四十四寸與今所得之	-12.8956
从	-12.8957
迫	-12.8957
幾何法以比例尺平分線第	-12.8957
井鬼栁星張翼軫	-12.8958
崑	-12.8958
圓不知徑從旁截	-12.8958
緞一疋紗四疋紬七	-12.8958
得一百二十步即半城徑也合問或問	-12.8958
之數故將截積倍之	-12.8958
塟	-12.8958
明對數之目用遞次開方求假數法之	-12.8958
減本年黄道宿鈐内某宿度分則減之餘	-12.8958
踦	-12.8959
叟	-12.8959
度之兩㸃其相距之度恰合	-12.8959
冗	-12.8959
三百有六旬有六日	-12.8959
傲	-12.8959
懲	-12.8959
簿	-12.896
此初開也再開倍前商一得二	-12.896
湛	-12.896
眩	-12.896
礪	-12.896
迺	-12.896
二十面體積二一八一六九四九六九	-12.8961
攢	-12.8961
綦	-12.8961
弧為次均數與初均數寅丙弧	-12.8961
三刻十分内四十一秒冬至	-12.8961
幼	-12.8961
在下六宮者用逆度	-12.8961
尺爲每一根之數也此法以積計之爲	-12.8961
鐫	-12.8962
饒	-12.8962
定為面與面之比例	-12.8962
四面體積一一七八五一一二九	-12.8962
紆	-12.8962
以周天徑一百二十一度	-12.8962
愍	-12.8963
直角三角形乙角為直角九十度知	-12.8963
自一日至三百六十六日之平行各數也	-12.8963
二十七日五十五刻四十六分	-12.8963
乙位減之則減乙	-12.8963
裘	-12.8963
頴	-12.8963
分内二十一秒冬至己卯年甲子月	-12.8963
鈿	-12.8963
角為黄白交角四度五十八分三十秒有	-12.8963
用表之法如求一十	-12.8963
湘	-12.8964
絳	-12.8964
四分步之一五分步之一六分步之一	-12.8964
為太陰距白平象限西之度	-12.8964
與時分所對之數為太陽距春分後時分	-12.8964
蠡	-12.8964
欽定四庫全書大統厯志卷	-12.8965
本天自一日至三百六十六日之最	-12.8965
慨	-12.8965
減本年赤道宿鈐内某宿度分則減之餘	-12.8965
平行表察本日平行宫度分秒得	-12.8965
明貝琳編	-12.8965
欽定四庫全書七政推步卷	-12.8965
六百三十八垓五千一百三十二京	-12.8965
若均輪心從最髙戊厯己行	-12.8965
一分内一秒冬至辛未年戊子月	-12.8965
耨	-12.8965
線求視緯以星距地心線為一率	-12.8965
小時月距日平行一千八百二十八秒六	-12.8966
相乘得數為秒以宫度分收之得	-12.8966
設如帶兩縱相同立方積	-12.8966
祀十二月丁酉朔正月丁卯朔十一月	-12.8966
腦	-12.8966
坳	-12.8966
𣺌	-12.8966
籌列方籌左	-12.8966
冐	-12.8966
遇十在本身	-12.8966
以次商乘之爲次商廉隅之共積今	-12.8966
酉戌亥乾四長方	-12.8966
依次順列於前六	-12.8966
祀十二月癸酉朔正月癸卯朔十一月	-12.8966
陷	-12.8966
鏁	-12.8967
之正切之比即如所設之半徑六寸與丙	-12.8967
九十九兆二千五百二十三億九千	-12.8967
儀器至山頂之斜距	-12.8967
分内三十一秒冬至應閏丙辰年戊子月	-12.8967
弦立法測望甲出西門南行邊股也	-12.8967
旦冬至殷厯以為	-12.8967
正切之倍是故半徑十萬與	-12.8967
祀十二月辛亥朔正月庚辰朔十一月	-12.8967
燁	-12.8968
扎	-12.8968
分内三十一秒冬至應閏戊辰年壬子月	-12.8968
祀十二月甲辰朔正月甲戌朔十一月	-12.8968
有事於圜邱今推至日合	-12.8968
祀十二月丙辰朔正月乙酉朔十一月	-12.8968
二百九十八年為萬厯十三年乙酉	-12.8968
祀十二月辛酉朔正月辛卯朔十一月	-12.8969
北海北極出地六十五度	-12.8969
為三商廉隅之共積乃以初商次商之	-12.8969
祀十二月庚申朔正月庚寅朔十一月	-12.8969
祀十二月戊子朔正月戊午朔十一月	-12.8969
祀十二月甲午朔正月甲子朔十一月	-12.8969
舊管新收	-12.8969
狭	-12.8969
蹟	-12.8969
度至未則初均數丙甲申角與丙甲	-12.8969
陽實行與次日太陽實行相減餘為	-12.8969
乘方每一根之數也葢	-12.8969
十三分内四十一秒冬至正月	-12.8969
祀十二月丁巳朔正月丙戌朔十一月	-12.8969
祀十二月壬寅朔正月辛未朔十一月	-12.8969
騁	-12.8969
分内四十一秒冬至戊戌	-12.8969
八十五京九千零六十八兆	-12.8969
祀十二月乙酉朔正月甲寅朔十一月	-12.8969
祀十二月己未朔正月己丑朔十一月	-12.897
祀十二月辛巳朔正月庚戌朔十一月	-12.897
渇	-12.897
暖	-12.897
第二兩人相和折半之	-12.897
頫	-12.897
三商廉隅之共積以三商本位計之則	-12.897
圜積方積定率比例	-12.897
度試將甲丙邊折半於	-12.897
用兩三角形法求得地心之角為	-12.897
穀雨十五日五時四刻八分	-12.897
應閏戊寅年壬子月	-12.897
為三商三長廉面積復以三商之	-12.897
分内一十一秒冬至甲寅年甲子月	-12.897
冢	-12.8971
敬授民時	-12.8971
五千二百八十二萬七千三百九十二尺	-12.8971
悪	-12.8971
祀十二月丁卯朔正月丁酉朔十一月	-12.8971
試自圜心甲至圜界乙	-12.8971
五百九十萬零九百二十八尺	-12.8971
祀十二月甲戌朔正月甲辰朔十一月	-12.8971
祀十二月癸亥朔正月壬辰朔十一月	-12.8971
覲	-12.8971
祀十二月甲寅朔正月甲申朔十一月	-12.8972
祀十二月癸巳朔正月癸亥朔十一月	-12.8972
由旬邊有空地靑草	-12.8972
四千二百四十四垓三千五百	-12.8972
自乗之一正方甲辛己戊與己壬丙庚為	-12.8972
書於初商次商積之下相減餘	-12.8972
祀十二月庚寅朔正月己未朔十一月	-12.8972
百為下廉約次商得	-12.8972
十三黍三分黍之一	-12.8973
水一百一十五日八十七刻九	-12.8973
丙二處作甲乙甲丙二	-12.8973
共二百一十六期每期三百六	-12.8973
爟	-12.8973
用有弦有勾股較求勾股法算之	-12.8973
奴	-12.8973
橄	-12.8973
問城徑釋曰此通弦和和與	-12.8973
彛	-12.8973
祀十二月戊午朔正月丁亥朔十一月	-12.8973
相加法以原數横列於上加數横列於下	-12.8974
朒初朓末	-12.8974
諦	-12.8974
初虧食既食甚生光	-12.8974
憾	-12.8974
泊	-12.8974
晝六十二刻夜三十八刻	-12.8974
莖	-12.8974
䘮	-12.8975
餼	-12.8975
脛	-12.8975
楪	-12.8976
八穰七千四百零六垓	-12.8976
焴	-12.8977
開立方問每一邊數幾何法列正方體積	-12.8977
荼	-12.8978
用帶兩縱不同較數開立方法算之得	-12.8978
乙丙正弧三角形之次形為乙己丁葢	-12.8978
侶	-12.8978
翫	-12.8978
䨇	-12.8978
等大小皆同類也	-12.8978
窩	-12.8978
開方問每一邊數幾何法列方積	-12.8978
食限為有食不入此限者不食即不必算	-12.8978
八億五千六百八十萬	-12.8978
攤	-12.8979
鄂	-12.898
本輪心從本天冬至度右旋	-12.898
無均數也如均輪心從本輪最髙戊	-12.8981
鏘	-12.8982
賑	-12.8982
十分為寸十寸為尺十尺為丈	-12.8982
億四千七百二十二萬零二百二十四尺	-12.8982
庫日息舊會	-12.8982
䜟	-12.8983
竽	-12.8983
鄴	-12.8983
籔	-12.8983
壞	-12.8984
甲出南門東行七十二步	-12.8984
耰	-12.8985
甲出北門東行底勾也	-12.8986
里一百二十七分里之	-12.8988
暎	-12.8989
吻	-12.8989
陰實行却比平行多	-12.8989
為加差以加於平行而得實行也	-12.899
柴	-12.8991
分内四十一秒冬至丁卯年庚子月	-12.8992
亷法從開立方除之即	-12.8992
首率末率兩假數相加折半	-12.8993
醞	-12.8998
計都與月相離度	-12.8998
僱	-12.9001
佾	-12.9016
寸分釐毫絲	-12.9031
方面也依條叚求之	-12.9037
則從均輪最近辛行一周復行	-12.9079
雨水十四日十一時三刻四分一十	-12.9224
一十一秒冬至甲申年甲子月	-12.9251
一秒冬至應閏辛未年戊子月	-12.9528
金寸方定率十六兩八錢	-13.0562
銀寸方定率九兩	-13.0579
綖	-13.0579
輞	-13.0579
年最髙過夏至七度	-13.0582
螻	-13.0589
辰宫戌宫線偏卯正酉	-13.0595
㕑	-13.0596
甲丁中長線三百四十六尺四寸一分	-13.0597
涕	-13.0597
天自為天嵗自為嵗	-13.0597
葱	-13.0598
所容等解曰有甲乙丙	-13.0598
徑也依條叚求之	-13.0601
漁	-13.0601
奢	-13.0602
勃	-13.0602
骸	-13.0604
剙	-13.0604
購	-13.0604
元祀十有二月乙丑	-13.0604
汨	-13.0607
青道二出黄道東	-13.0608
鐘太蔟南呂姑洗	-13.0608
涵	-13.0609
旂	-13.0609
小雪大雪星出中入出中入	-13.0609
濮	-13.061
濡	-13.061
霾	-13.061
誨	-13.0611
冬至小寒星出中入出中入	-13.0611
駢	-13.0611
禘	-13.0612
裒	-13.0612
焞	-13.0612
孕	-13.0613
塼	-13.0613
凾	-13.0614
耐	-13.0615
仕	-13.0615
愁	-13.0615
橘	-13.0615
七度已下三百四十二度已上	-13.0615
亞竒黙徳	-13.0615
羔	-13.0615
爬頭拽後木	-13.0615
壑	-13.0616
三十度四十五度六十度七十五度之各	-13.0616
跳	-13.0616
跂	-13.0617
哂	-13.0617
詰	-13.0617
七月流火九月授衣	-13.0617
霆	-13.0617
琳	-13.0617
珥	-13.0618
阮	-13.0618
漢順帝永建	-13.0618
茅	-13.0618
庀	-13.0618
西門南行不知步數而立乙出北門東行	-13.0618
面體内容圓球全徑乃用求球内容	-13.0618
畊	-13.0619
右四十五度以外為右偏	-13.0619
些	-13.0619
驛	-13.062
拈	-13.062
殻	-13.062
刻又五度夏晝長五十	-13.062
禎	-13.062
今所設之圜面積六尺一十六寸	-13.062
澣	-13.062
面體中心至各角之斜線	-13.062
岌	-13.062
即在前一日命時之法與食甚同求	-13.062
侏	-13.0621
得升度時差二分後為加二至後為減	-13.0621
霜降立冬星出中入出中入	-13.0621
稠	-13.0621
尖之實一三五一三五七一三五七	-13.0621
表比人目之高四尺	-13.0621
𤯝	-13.0621
推得兩心差為本天半徑十萬分之	-13.0621
交角初度為正上四十五度以内為上偏	-13.0622
二六一七九九三八八	-13.0622
披	-13.0622
休寧戴震東原	-13.0622
臥	-13.0622
糓雨立夏星出中入出中入	-13.0622
三歸二因得九十六寸開平方	-13.0622
犁	-13.0622
硃	-13.0622
面體中心至每一面中心之立垂線	-13.0623
八面體之每邊一二八四八九八二九	-13.0623
小滿芒種星出中入出中入	-13.0623
與甲乙丙丁大正方内之	-13.0623
怠	-13.0623
莞	-13.0623
大正方積比小正方積多	-13.0623
西洋利瑪竇撰第一題	-13.0623
又在交終二十七日二一二二二四已下	-13.0624
捲	-13.0624
靂	-13.0624
隨時推測不用為元	-13.0624
夏至小暑星出中入出中入	-13.0624
閻	-13.0624
䌓	-13.0625
黯	-13.0625
嫉	-13.0625
曩	-13.0625
擴	-13.0625
等邊形之面積為相等也如有	-13.0625
碑	-13.0625
形面積相等之正方形每邊之數自乗得	-13.0625
灝	-13.0626
宮商角徵羽	-13.0626
眇	-13.0626
晝六十刻夜四十刻	-13.0626
瀝	-13.0626
為亷法列平方籌上為亷隅共法簡籌第	-13.0626
為法草曰以二行步相乘得	-13.0626
蒐	-13.0626
一尺四十四寸開方得一尺二寸即	-13.0626
又以六十約之為分去加減兩取到未定	-13.0626
大暑立秋星出中入出中入	-13.0626
定率二千五百寸為一率一石為二率	-13.0626
一百五十九尺一百七十四寸二十七分	-13.0626
髙下差察其與東西差所對之數得	-13.0626
吟	-13.0627
旒	-13.0627
陛	-13.0627
一百八十一度八十九分六十七秒	-13.0627
為方法以方法減縱餘	-13.0627
騖	-13.0627
弄	-13.0627
正方邊比小正方邊所多之較	-13.0627
置閏應在下年四月後	-13.0627
膚	-13.0627
霹	-13.0627
十三入十一月入月已來日	-13.0627
祘	-13.0627
儒士楊之華祝懋元張宷臣黄宏憲	-13.0628
千尺爲初商積與十尺自乘再乘之數相	-13.0628
爛	-13.0628
即上下不等長方體形之積也	-13.0628
一寸之度展開勿令移動乃以一寸之	-13.0628
交角初度為正下四十五度以内為下偏	-13.0628
地髙在天頂南者白平象限為在天頂北	-13.0628
椀	-13.0628
日下太陽行度初度九	-13.0628
九千零一十九萬三千一百二十一尺	-13.0628
將十進前一位作一㸃誌之	-13.0628
换	-13.0628
為初商積可商十尺乃以十尺書於原積	-13.0628
零二百三十三兆九千三百八十三億	-13.0628
星當地平太陽在地平下	-13.0629
問髙闊長各幾何法	-13.0629
遜	-13.0629
面爲兩體所同用	-13.0629
汜	-13.0629
寵	-13.0629
於黄白交角内反減黄道髙弧交角餘為	-13.0629
囬	-13.0629
注曰以數明之設十數	-13.0629
分内一十一秒冬至戊寅年壬子月	-13.0629
因子數大於母數乃於	-13.0629
章然應下年閏正月	-13.0629
阪	-13.0629
年至此十一閏又一紀縮一年下起	-13.063
八寸四分八釐五豪二絲八忽	-13.063
等邊形之面積與正方形之面積相等	-13.063
邊形之每邊與正方形之每邊不同故以	-13.063
開方既得方邊而後為線與線之比例也	-13.063
蛙	-13.063
雊	-13.063
三度三十六分八十七秒半	-13.063
九十步大邊濶三十八步小邊濶二十步	-13.063
問毎一邊數幾何法	-13.063
欣	-13.063
夘巳辰圜角形	-13.063
日九時二刻六分至壬子年庚子月	-13.063
角相等而減盡無餘或相加適足一百	-13.063
日九時七刻三分至丙子年戊子月	-13.063
行引數度次輪心自均輪最	-13.0631
尺爰以方根第二位積	-13.0631
次均數申甲酉角與寅甲辰角等兩角相	-13.0631
日十時四刻至庚子年丙子月	-13.0631
鶴	-13.0631
左四十五度以外為左偏	-13.0631
挽	-13.0631
中垂線用三角形求面積法算之得	-13.0631
以二平方多三根多二眞數除	-13.0631
堡	-13.0631
日八時五刻九分至戊子年壬子月	-13.0631
此法得次商之後合初商乘	-13.0631
用連比例四率有一率求二率	-13.0631
緞二疋紗六疋紬八疋	-13.0631
則加月距限西則減食	-13.0631
之丙甲酉角亦與丙甲辰角等但為實行	-13.0632
二十一秒冬至己亥年甲子月	-13.0632
尺書於餘積之下與餘積相減	-13.0632
廹	-13.0632
裳	-13.0632
六十刻者冬至去日出入之所為	-13.0632
幕	-13.0632
周率得周日木周率	-13.0632
本日太陽實行減初實行得星距日次引	-13.0632
本道實行加減升度差得黄道實行求	-13.0632
奸	-13.0633
邐	-13.0633
雒	-13.0633
角形求作形内切圜	-13.0633
𤨏	-13.0633
其入黄道北而為中交也較常期	-13.0633
故月道之出黄道南而為正交也較常期	-13.0633
祀十二月丙戌朔正月乙卯朔十一月	-13.0633
六十九寸九百六十八分九百零六釐	-13.0633
諸數逐一開坐	-13.0633
一等二人二等三人三等四人四	-13.0633
五千五百一十七萬七千一百二十一尺	-13.0633
初均數而無次均數若星從次輪最逺壬	-13.0633
煮	-13.0633
駐	-13.0634
净	-13.0634
畀	-13.0634
兩數各自乘並而開方得	-13.0634
尺爰以方根第三位積	-13.0634
一分内一秒冬至己酉年甲子月	-13.0634
彦	-13.0634
日七時四刻至庚子年丙子月	-13.0634
段其理亦與月食同	-13.0634
謾	-13.0634
陪	-13.0635
杳	-13.0635
依第五法上下盤相加	-13.0635
十三秒别為三均以減大數加小數得	-13.0635
紇	-13.0635
按二分二至分順逆列之二分後	-13.0635
簷	-13.0635
耑	-13.0635
約初商得一百置一於左上為法置一	-13.0635
柯	-13.0635
三垓二千五百八十九京四千五百	-13.0635
日六時七刻三分至丙子年戊子月	-13.0635
曇	-13.0635
宴	-13.0635
兖	-13.0635
滛	-13.0635
嵗實得九百四十六萬六千九百零八日	-13.0635
數均輪心自本輪最髙左旋	-13.0635
古者百畝當今	-13.0635
而兩心差之大者為尤	-13.0635
嶮	-13.0636
丙分角線割圜界於	-13.0636
中積一十一萬六千一百四十七日	-13.0636
偏西八十一度四十二分四十八秒	-13.0636
正弦為三率求得四率為秒以分收之為	-13.0636
為赤道半弧弦置黄赤道小股	-13.0636
艘	-13.0636
旁列之倍分五十八倍	-13.0636
恣	-13.0636
日五時零十二分至甲子年甲子月	-13.0636
日四時四刻至庚子年丙子月	-13.0636
祀十二月丁未朔正月丙子朔十一月	-13.0636
伺	-13.0636
為命分不盡之數為得分	-13.0636
與正交日數相加得正交平行求引數置	-13.0636
鵞	-13.0636
日五時五刻九分至戊子年壬子月	-13.0637
祀十二月丙申朔正月乙丑朔十一月	-13.0637
祀十二月乙丑朔正月乙未朔十一月	-13.0637
祀十二月辛未朔正月辛丑朔十一月	-13.0637
月後巳閏之據	-13.0637
一分内一秒冬至己卯年甲子月	-13.0637
日三時七刻三分至丙子年戊子月	-13.0637
闘	-13.0637
初刻十三分内一秒冬至日躔在斗	-13.0637
迸	-13.0637
祀十二月己巳朔正月己亥朔十一月	-13.0637
祀十二月戊申朔正月丁丑朔十一月	-13.0637
日二時零十二分至甲子年甲子月	-13.0637
日六時二刻六分至壬子年庚子月癸	-13.0637
祀十二月丙寅朔正月丙申朔十一月	-13.0637
勾股和用有弦有勾股和求勾股法算之	-13.0638
審諦思惟解了觀察勝解堅住	-13.0638
五倍即定三商爲五	-13.0638
日十一時零十二分至甲子年甲子月	-13.0638
祀十二月戊子朔正月丁巳朔十一月	-13.0638
自乘再乘廉以初商自乘次商	-13.0638
潔	-13.0638
祀十二月丁丑朔正月丙午朔十一月	-13.0638
喩	-13.0638
書於實下與實相減恰盡即得數為	-13.0638
為長闊之較用帶縱較數開方法算之得	-13.0638
窽	-13.0638
五十寸二十六分五十四釐八十	-13.0638
祠祭清吏司案呈奉本部送禮科抄出	-13.0638
日一時四刻至庚子年丙子月	-13.0638
日三時二刻六分至壬子年庚子月	-13.0638
日二時五刻九分至戊子年壬子月	-13.0638
星均數表以引數宫度分察其	-13.0638
立秋十五日七時零十一分	-13.0638
林亦各縱廣五十	-13.0638
祀十二月己亥朔正月己巳朔十一月	-13.0638
用交食首朔諸根表察本年	-13.0639
欽定四庫全書御製數理精蘊下編卷	-13.0639
為下法與上次法相乘除實	-13.0639
丙即甲丁丙三角形之甲角之正割如甲	-13.0639
祀十二月丙午朔正月乙亥朔十一月	-13.0639
祀十二月甲申朔正月癸丑朔十一月	-13.0639
負隅以從減法開平方	-13.0639
麁	-13.0639
日十一時五刻九分至戊子年壬子月	-13.0639
祀十二月乙亥朔正月乙巳朔十一月	-13.0639
祀十二月乙巳朔正月甲戌朔十一月	-13.0639
弧為兩實行相距之度亦即實	-13.0639
帶從負隅開平方法見四卷底勾通弦條	-13.0639
惴	-13.0639
正午黄道宫度六宫至十一宫則	-13.0639
呵	-13.0639
覇	-13.0639
帶從負隅以廉添積開立方	-13.0639
晝八十二刻夜一十八刻	-13.064
也如以數明之以根爲二則一平方爲四	-13.064
以十五度分之每十一時六刻	-13.064
芒是為一時之平行累	-13.064
人比第七人所多衰數	-13.064
日零二刻六分至壬子年庚子月丙	-13.064
垢	-13.0641
日丑正一刻九分止甲子運	-13.0641
極北北方日中南方夜半	-13.0641
濩	-13.0641
後距其宿末度	-13.0641
書於實下與實相減餘	-13.0641
尺之上而以初商二十尺自乘	-13.0641
每邊五加一得六與每邊五相乘得三十	-13.0641
自乘三因之得一千二百尺爲一立方廉	-13.0641
邊數體積各幾何法借一根為小方	-13.0641
日零七刻三分至丙子年戊子月	-13.0641
浙	-13.0641
堰	-13.0642
惕	-13.0642
亁	-13.0642
二至黄赤道内外半弧弦二十三度七	-13.0642
三角形自中心至三邊之垂線	-13.0642
半徑倍之為一率十分為二率併徑内減	-13.0642
逐分逐秒之平行皆同數而遞降	-13.0642
為距子正之分數以時刻收之得	-13.0642
千九百五十四里二百四十七歩	-13.0642
京官例正三品支俸臣李天經謹題為	-13.0643
交第幾月入交即第幾月有食	-13.0643
壬為最逺癸為最近	-13.0643
次輪心循不同心天行至	-13.0643
北極距天頂為一邉太陽距北極為一邊	-13.0643
為隅算作負隅減從開平方法除之得	-13.0643
道實行置初實行加減次均數得	-13.0643
丁為本天之一弧丙甲為本天半徑	-13.0643
以太陽平行計之當恒星天之	-13.0643
分三十一秒至六十秒其所對之數則	-13.0643
三十秒第二段三十一至六十者三十一	-13.0643
毎邊之數則大方毎邊之數為	-13.0643
頥	-13.0643
己為最卑庚戊辛為均輪全徑庚	-13.0643
次均輪心從次輪最近丑行	-13.0644
誘	-13.0644
督修厯法加光禄寺卿支正三品俸	-13.0644
閫	-13.0644
點為平行星循次輪周行至	-13.0644
四百二十九分寸之四百一	-13.0644
囿	-13.0645
直線無平行實行之差故自行初宫初度	-13.0645
行三十度至子為一宫初度則	-13.0645
減差以減於平行而得實行也	-13.0645
丁為弦自乗之正方積甲庚己戊為	-13.0645
自乗之正方積故乙丙丁戊己庚磬折形	-13.0645
度初退約距日一百	-13.0645
度數即為春分距午西赤道度過一象限	-13.0646
與半周相減餘為秋分距午東赤道	-13.0646
假如長方積八百六十四列甲乙丙三位	-13.0646
倡	-13.0646
龠為合十合為升十升為斗十斗為	-13.0646
葺	-13.0646
寂	-13.0646
最卑庚為六宫初度則	-13.0646
錮	-13.0646
爲實以周天分一千四百六十一爲法	-13.0647
謹題請㫖崇禎	-13.0647
竢	-13.0647
灋	-13.0647
均輪心在本輪之最髙戊為初宫初度則	-13.0647
正午黄道宫度三宫至八宫則	-13.0647
甍	-13.0648
羿	-13.0648
分在復圓分已下是復圓在日	-13.0648
矧	-13.0648
坵	-13.0648
尺爰以方邊第二位餘積	-13.0648
設時高弧交用時視距角	-13.0648
襟	-13.0649
度則均輪心從本輪下㸃已行	-13.0649
四百萬為方法初商自之六因	-13.0649
月後天十三度十九分度之七乘之爲實	-13.0649
求黄道交極圈之乙角則	-13.0649
坼	-13.065
加者亦為加實距時為減者亦為減求實	-13.065
徑為一千萬戊己庚為本輪戊丙半徑為	-13.065
自乘之數與弦自乘之數相減得	-13.065
為長亷積以加共積	-13.0651
即本天心乙丙丁為本天之一弧丙甲	-13.0651
岱	-13.0651
策又三分策之二	-13.0651
丁戊兩位減之則去丁之	-13.0651
策又九分策之七	-13.0651
以章嵗十九除之得一萬	-13.0651
即為所求年白羊宮一日	-13.0652
以章月二百三十五乘之得二十	-13.0652
俊	-13.0652
㦸	-13.0653
漂	-13.0654
警	-13.0654
乙割線酉卯大弦	-13.0657
企	-13.0657
問勾股弦各幾何法借一根為勾數則	-13.0657
為星距黄道視線之逺又以	-13.0658
次之中率為八九九九九	-13.066
吳江王錫闡撰	-13.066
筍	-13.0666
澒	-13.0668
腝	-13.067
刃	-13.067
甲乙丙丁戊己庚辛八等邊形	-13.0671
不至極下七萬一千里	-13.0672
尺以斛法除之即粟數	-13.0674
之視緯度也如次輪心距本道正交乙行	-13.0674
八百六十六萬零二百五十四為	-13.0714
等米又減六百得	-13.0718
兩㸃相距之度於分釐尺上量之得四寸	-13.0858
立春十四日十時一刻六分二十	-13.1545
三百六十五日二時七刻十四分十秒	-13.1691
觱	-13.2553
斟	-13.2569
糞	-13.2577
麐	-13.2578
䆒	-13.2579
慘	-13.258
蓲	-13.2582
緬	-13.2583
鞠	-13.2583
鑪	-13.2583
溽	-13.2585
啄	-13.2585
郡開國公食邑	-13.2585
日中星鳥以殷仲春	-13.2594
而一之減原實為正實徑竒者	-13.2595
麄	-13.2596
瞢	-13.2596
臾	-13.2597
幡	-13.2598
蕪	-13.2598
僊	-13.2599
大衍之數五十其用四十有九	-13.2599
礦	-13.2599
塾	-13.2602
牖	-13.2602
糵	-13.2602
以比例尺正弦線九十度之兩㸃依	-13.2602
勇	-13.2603
黓	-13.2604
奮	-13.2604
在璇璣玉衡以齊七政	-13.2604
減積再開倍前商得	-13.2604
曼	-13.2605
巖	-13.2606
翔	-13.2606
合伏所當本道視線夘點	-13.2606
俚	-13.2607
鶡	-13.2608
方池結角占之外計地	-13.2608
為初商之實乃視立方籌積	-13.2608
蜂	-13.2609
鬭	-13.2609
謡	-13.2609
以後還要細心推算如再錯誤重治不饒	-13.261
瞰	-13.261
苖	-13.261
貟	-13.261
芟	-13.2611
拉	-13.2612
四寸八分九釐八豪九絲七忽九微	-13.2612
積於頭再立天元内方靣以自之又	-13.2612
謫	-13.2612
雨水驚蟄星出中入出中入	-13.2612
紕	-13.2613
半和於半和減半較得	-13.2613
亳	-13.2613
䑕	-13.2613
大寒立春星出中入出中入	-13.2613
䖍	-13.2615
倍則互乗所得兩少數相差之	-13.2615
弇	-13.2615
以母積除子積歸整得實	-13.2615
獮	-13.2615
丕	-13.2615
蜜	-13.2615
訴	-13.2616
一兩一錢五分少三根半	-13.2616
甑	-13.2616
甲乙丙截球體一段之外面積	-13.2616
乗以齊其分以前借數	-13.2617
獺	-13.2618
戯	-13.2618
成變化而行鬼神也	-13.2618
蹠	-13.2618
天行密合今仍用其數而述其測法如左	-13.2618
唱	-13.2619
姪	-13.2619
月後已置閏之明據	-13.2619
和求句股弦法以較和相	-13.2619
亦為正右過九十度為右偏上	-13.2619
岑	-13.2619
灑	-13.262
倭	-13.262
桴	-13.262
薺	-13.2621
月天最高距日天高卑前後	-13.2621
外方邊至内方邊之闊	-13.2621
鋟	-13.2621
窓	-13.2621
交周初宫五宫為北六宫十一宫為南	-13.2622
鍳	-13.2622
二人三等二人四等四人共銀二十二兩	-13.2622
如丙丁戊一象限己戊弧為丙角之正弧	-13.2622
轅	-13.2623
用圓周求面積法求得圓	-13.2623
等邊形外切圜之半徑或用求圜内容	-13.2623
瓈	-13.2623
迆	-13.2623
乃以互乗所得兩少數相減餘	-13.2623
嶽臺北極出地三十五度夏至	-13.2623
之正切與半徑十萬之比同於今所設之	-13.2623
蹇	-13.2624
躭	-13.2624
地平不當天半地上天多	-13.2624
圓環田積三百三十六步八分七釐五毫	-13.2624
形之一邊之定率比例以定率之圜内容	-13.2624
甲乙己己乙戊二心角	-13.2624
筐	-13.2624
覿	-13.2624
邊等切形求邊數㡬何	-13.2624
以一段日而一再而一得	-13.2625
等邊形之每邊與正方形之每邊相等	-13.2625
氛	-13.2625
沓	-13.2625
切線之對數相加内減半徑之對數餘為	-13.2625
日有中道月有九行	-13.2625
朋	-13.2625
二百六十二兆零三十五億四千	-13.2625
潰	-13.2625
眡	-13.2625
倍之仍與原形為同式形問得長	-13.2625
日不問小餘皆入食限其小餘在	-13.2625
為㢘隅共法書於餘積之左以次商	-13.2625
生員程廷瑞孫嗣烈孟履吉監生李次	-13.2625
皂	-13.2625
臣李天經謹題為月食事竊照	-13.2625
面體外切圓球徑又求得球外切	-13.2625
顚	-13.2625
哆	-13.2625
梭	-13.2625
隷	-13.2626
壬寅為所求之年乃視壬寅所對各數	-13.2626
相和步為從法廉常置	-13.2626
甲丙二人俱在城外西北乾隅甲	-13.2626
面積三尺七十四寸一十二分二十九釐	-13.2626
緹	-13.2626
悠	-13.2626
隘	-13.2626
煅	-13.2626
疣	-13.2626
等邊形内容圜之半徑即	-13.2626
膩	-13.2626
六千零一十五萬零一百二十五尺	-13.2626
坊	-13.2626
等邊形之每一邊次以半徑十萬為一率	-13.2626
切線檢表得太陽距春秋分赤道經度	-13.2627
鐸	-13.2627
倍上長加下長以上廣	-13.2627
日至之景尺有五寸謂之地中	-13.2628
月後巳補閏之據	-13.2628
比例合為一比例也如分作兩比例明之	-13.2628
減一得三尖之實一一	-13.2628
為緯西遲於食甚用時為緯東	-13.2628
切圜之半徑乃以此半徑為弦	-13.2628
寸九分七釐零五絲六忽有餘	-13.2628
處暑白露星出中入出中入	-13.2628
及丙乙偕乙丁矩線内直角形二并	-13.2628
積差泛平差泛平較泛立較	-13.2628
合即定初商爲十尺書於	-13.2628
表按兩交前後分順逆列之兩交後	-13.2628
蹈	-13.2628
菊	-13.2629
蟬	-13.2629
昉	-13.2629
臣不勝惶悚待命之至	-13.2629
庣旁九釐五毫羃	-13.2629
湄	-13.2629
督修厯法加光禄寺卿李天經	-13.2629
倍之問得方邊幾何法以每邊二尺	-13.2629
北甚於正北復於西北	-13.2629
等邊形之每邊折半為勾求得股	-13.2629
腸	-13.2629
祀十二月乙亥朔正月甲辰朔十一月	-13.2629
欽定四庫全書歴算全書卷	-13.263
所生之地半徑差也用表之法如	-13.263
霤	-13.263
二十九日五十三分五秒九十三毫	-13.263
劣	-13.263
盜	-13.263
㔼	-13.263
所對各數錄之其平行為	-13.263
勾二十七尺為一率股三十六尺為二率	-13.263
闊既得所截之闊則以上下兩闊相減	-13.263
折半於丁作乙丁線即圜内容十	-13.263
肝	-13.2631
夭	-13.2631
嘻	-13.2631
一百八十二度六十二分八十七秒半	-13.2631
問今有方圓田各一叚共計積	-13.2631
竆	-13.2631
加三分二之一千四百五十八得	-13.2631
地半徑差又用月離太隂地半徑差表以	-13.2631
妣	-13.2631
諄	-13.2631
肭	-13.2631
按立方法作記於四尺上定單位	-13.2631
推首朔諸平行及入交	-13.2631
辰其寅甲辰角即次均數乃用丑甲	-13.2631
闞	-13.2632
押	-13.2632
辤	-13.2632
近㸃右旋行倍引數度	-13.2632
以次順數至二十三時為夜子初	-13.2632
儒士陳于階	-13.2632
八石五斤三兩八銖	-13.2632
内容圜之半徑或用求圜外切	-13.2632
形之一邊之定率比例以定率之圜外切	-13.2632
最髙應減積日最髙平行得最髙年根求	-13.2632
覧	-13.2632
試作一外切圜形則每邊之弧皆為	-13.2632
醤	-13.2632
題一直線任兩分之其元線	-13.2632
祀十二月癸卯朔正月癸酉朔十一月	-13.2632
秋分十五日二時四刻一十一分一十	-13.2632
自圜心至毎一邊之中垂線	-13.2632
邃	-13.2633
訊	-13.2633
監副賈良棟	-13.2633
方遇此類者皆依此例推之	-13.2633
欽定四庫全書御製歴象考成上編卷	-13.2633
硫	-13.2633
祀十二月庚戌朔正月己卯朔十一月	-13.2633
覓	-13.2633
小寒大寒立春雨水驚蟄	-13.2633
二十一秒冬至己酉年甲子月	-13.2633
刅	-13.2633
年至此十一閏一紀	-13.2633
等四人二等五人三等七人四等八人共	-13.2633
以地半徑一百為一邊太陽距地為一邊	-13.2633
地心之邊為求次均數之用求初實行置	-13.2633
次日求時刻之法以本日太	-13.2633
冬至十四日八時三刻十三分五十	-13.2633
祀十二月甲子朔正月癸巳朔十一月	-13.2634
痊	-13.2634
霰	-13.2634
從一步常法得半徑草曰立天元一	-13.2634
癘	-13.2634
書於原積之下相減恰盡是知立方之高	-13.2634
璡	-13.2634
乘方每一根之數也又用表開法列積	-13.2634
子午圈乙丙為地平丁為赤極	-13.2634
其所截之處皆正當每	-13.2635
處暑十五日五時六刻五分五十	-13.2635
一千萬戊丙巳為本輪全徑戊丙半徑為	-13.2635
攴	-13.2635
冨	-13.2635
裴	-13.2635
以地半徑一百為一邊太隂距地為一邊	-13.2635
疵	-13.2635
㽞	-13.2635
若等亦等若小亦小	-13.2635
二人俱在城外西北乾隅甲東行乙南行	-13.2635
四千一百零六萬三千六百二十五尺	-13.2635
小暑十五日八時五刻二分五十	-13.2635
歇	-13.2635
申其界分因股得	-13.2635
祀十二月壬午朔正月壬子朔十一月	-13.2635
空谷子釋智轂校	-13.2635
平安東森隱士無外子釋圓通撰雲陽	-13.2635
巫	-13.2636
夏至十五日八時六刻十四分五十	-13.2636
冖	-13.2636
南北差大於實緯則反減而視緯即變為	-13.2636
殳	-13.2636
減為差分以加減初虧復圓距	-13.2636
鉢	-13.2636
沲	-13.2636
祀十二月丙子朔正月乙巳朔十一月	-13.2636
胝	-13.2636
兀	-13.2636
噴	-13.2636
太子太保禮部尚書兼文淵閣大學士	-13.2636
觜宿在前參宿在後	-13.2636
頀	-13.2636
三十一秒冬至應閏庚午年丙子月	-13.2636
祀十二月辛丑朔正月庚午朔十一月	-13.2636
穩	-13.2636
分復爲最多其下際光亦爲最勝	-13.2636
祀十二月辛亥朔正月辛巳朔十一月	-13.2636
亜	-13.2637
正交初宫六宫為減五宫十一宫為加求	-13.2637
三乘廉以初商自乘再乘次商	-13.2637
乘廉爲法除餘積得次商以初商乘	-13.2637
春分十五日二時三刻八分四十	-13.2637
榖雨十五日五時四刻七分五十	-13.2637
用有股有勾弦和求勾弦法算之	-13.2637
山岳樓臺樹木	-13.2637
芮	-13.2637
乃以第一分第二分之中數一分半與第	-13.2637
丑丑丙弧與酉丙弧等故自行八宫	-13.2637
戊向己厯庚行三百三十度至辰為十一	-13.2637
用有股有勾弦較求勾弦法算之	-13.2637
祀十二月己丑朔正月戊午朔十一月	-13.2637
祀十二月己卯朔正月己酉朔十一月	-13.2638
闐	-13.2638
山頂垂線與地平所成直角	-13.2638
祀十二月庚子朔正月庚午朔十一月	-13.2638
之度於分體線上尋至第	-13.2638
以十五度分之每十二時四刻	-13.2638
祀十二月丙子朔正月丙午朔十一月	-13.2638
祀十二月戊寅朔正月戊申朔十一月	-13.2638
祀十二月癸酉朔正月壬寅朔十一月	-13.2638
而次均生矣如均輪心從最髙戊行	-13.2638
刹	-13.2638
祀十二月丁卯朔正月丙申朔十一月	-13.2638
噏	-13.2638
十日九百四十分日之八百二十七	-13.2638
祀十二月丁未朔正月丁丑朔十一月	-13.2638
祀十二月壬子朔正月壬午朔十一月	-13.2638
祀十二月辛卯朔正月辛酉朔十一月	-13.2638
簋	-13.2638
簠	-13.2638
行一周復自癸厯壬行一百	-13.2638
祀十二月甲戌朔正月癸卯朔十一月	-13.2639
堋	-13.2639
祀十二月壬申朔正月辛丑朔十一月	-13.2639
乙即甲丁乙三角形之甲角之正割如甲	-13.2639
邊於是用甲申戌直角三角形求得甲角	-13.2639
犢	-13.2639
祀十二月庚辰朔正月己酉朔十一月	-13.2639
憤	-13.2639
無入負之負無入正之	-13.2639
諛	-13.2639
捕	-13.2639
春官正潘國祥	-13.2639
南峯北峯兩視線相距	-13.2639
甓	-13.2639
鷃	-13.2639
置白道實行減正交實行得	-13.2639
覷	-13.2639
乙中垂線即圜之半徑故以所得圜外切	-13.2639
癸戌丙戌二邊此形有戌直角	-13.2639
祀十二月乙丑朔正月甲午朔十一月	-13.264
為益實添入餘積共	-13.264
祀十二月甲子朔正月甲午朔十一月	-13.264
與初均所對之度分秒得初均察其	-13.264
踐	-13.264
砥	-13.264
如均輪心從最髙戊行一百	-13.264
正午黄道宫度九宫至二宫則以	-13.264
與京師赤道髙五十度零五分相減得	-13.264
䖝	-13.2641
糙	-13.2641
與京師赤道髙五十度零五分相加	-13.2641
黏	-13.2641
而太陽則從均輪近㸃庚行	-13.2642
一丈書於方積一丈之上而以一丈自乗	-13.2642
生員程廷瑞	-13.2642
八尺為勾加勾股較七尺得十五尺為股	-13.2642
再乘之八千尺爲一立方積又以初商	-13.2642
漕	-13.2642
㐲	-13.2642
脈	-13.2642
畵	-13.2643
太子少保禮部尚書兼翰林院學士	-13.2643
抛	-13.2643
求次均數星自次輪最逺㸃右旋行	-13.2643
綢	-13.2643
皓	-13.2643
四乘衡周爲實實如法得里數不滿	-13.2643
隨求星距地心之邊為求視緯之用求	-13.2643
霍	-13.2643
之時止用此均數加減若在	-13.2644
姒	-13.2644
求得地心對次輪半徑之角為次均數	-13.2644
用連比例三率有首率求中率	-13.2644
最髙行宫度分秒得最髙年根察本年	-13.2644
有次均數之加減故此名初均數以别之	-13.2644
耆	-13.2645
次輪心距本道正交乙行九十度至己	-13.2645
繒	-13.2645
閑	-13.2645
戥	-13.2645
甲乙弧之餘弦即乙己丁次形之	-13.2645
作六百秒為二率併徑内減	-13.2645
用有勾有股弦和求股弦法算之	-13.2645
丙南行丁東行各不知步數而立四人	-13.2645
從地心己計之當恒星天之	-13.2645
禧	-13.2646
即自行引數次輪心則循均輪右旋自	-13.2646
黃道髙弧交角置黃道赤經交角加減	-13.2646
肺	-13.2647
蹲	-13.2647
午西赤道度過三象限者則與全周相減	-13.2647
問二方邊數面積各幾何法借	-13.2648
二十八斤三兩五銖欲其貴賤	-13.2648
督修厯法山東按察使司按察使	-13.2648
麓	-13.2648
敖	-13.2649
㰖	-13.2649
毗	-13.2649
餙	-13.2649
闊和用帶縱和數開平方法算之得	-13.2649
噫	-13.2649
實按除法減首位所得	-13.2649
尺書於所得積之下相減餘	-13.2649
百兆又減次位所得四千與法	-13.2649
斛二千八百七十三分斛之	-13.2649
狥	-13.2649
周天即去之其不足除者不足除者	-13.265
春秋分距午黄道度加九宫春分	-13.265
黄道與子午圏交角之正弦檢表得	-13.265
僭	-13.265
滓	-13.265
瞶	-13.265
出錢一萬三千九百七十買絲一石二鈞	-13.265
叛	-13.265
刻二十九分三十杪三十小分	-13.265
春秋分距午黄道度與九宫相減得	-13.265
術曰置周厯上元丁巳至	-13.265
次輪心距本道正交乙行九十度至丙星	-13.2651
脾	-13.2651
搭	-13.2651
數而與勾數一根自乘之一平方為相等	-13.2652
䧏	-13.2652
以日周約之為日不滿為分	-13.2652
馭	-13.2653
廼	-13.2653
幾何法先用求中垂線法求得中垂線	-13.2654
二尺零七分八釐四豪六絲	-13.2654
昃	-13.2654
㬋	-13.2655
漲	-13.2656
丙丁兩位減之則去丙之	-13.2656
輪心循本天右旋自乙而丙而丁每日行	-13.2656
盝	-13.2657
省直食甚時刻南京應天府福建福州府	-13.2657
沌	-13.2658
少數小是必另有一均因朔後而	-13.2658
内切圜形等邉等角先作	-13.2658
蓮	-13.2658
銓	-13.2658
線左書一第三方線右書	-13.2658
獄	-13.2659
廊	-13.2659
焰	-13.2659
庚為最卑辛壬癸為均輪辛戊半徑為	-13.2659
仍得原數於是以上層為主兩下相較則	-13.266
齡	-13.266
宸	-13.2662
禨	-13.2662
四欵俱依議徐光啓見在本部	-13.2664
閎	-13.2664
政經緯新厯各一冊裝潢成帙進呈御覽	-13.2664
吝	-13.2667
較為帶縱用隅算帶縱并方亷開之	-13.2669
為見中日法以統法	-13.267
著一切督領李之藻	-13.2671
蔈	-13.2672
䌫	-13.2674
𣙗	-13.2675
下之所少即上之所多是	-13.2676
則最逺所當本道視線夘點	-13.2678
訢	-13.268
秒四十微雨水十四日十一時三刻四分	-13.317
三十一秒冬至應閏戊戌年壬子月	-13.3549
五十微立春十四日十時一刻六分	-13.3848
徑一千萬為一率甲角六十度之正弦八	-13.5007
睠	-13.5038
罟	-13.5043
央	-13.5049
菑	-13.5054
褐	-13.5062
畯	-13.5071
癸乙辰巳丁寅曲凹體	-13.5074
蝎	-13.5074
鑴	-13.508
三尺四十六寸六十三分九十四釐五十	-13.5082
詒	-13.5083
攅	-13.5086
隮	-13.5086
搏	-13.5088
鄱	-13.5089
籟	-13.509
殯	-13.509
直角方形及壬丙丙辛上之直角方形併	-13.5092
用綰經度表於遊旋赤道綰定四遊圏	-13.5092
㕔	-13.5092
阬	-13.5092
以差減合半其餘爲廣	-13.5093
睦	-13.5093
疫	-13.5094
誚	-13.5094
蹙	-13.5094
撒	-13.5095
撼	-13.5096
峭	-13.5097
墩	-13.5097
角在兩邉之中不與邉對	-13.5097
儉	-13.5099
塤	-13.51
雨水為正月中驚蟄為二月節	-13.51
下數者十十變之若言十	-13.51
法數有十等及其用也乃有三	-13.51
三直線求别作一線相與為斷比例	-13.51
屍	-13.51
萬曰億十億曰兆十兆曰京	-13.5101
角測量全義曰設邊一百求其容為	-13.5101
真時高弧交設時視距角	-13.5102
宵中星虚以殷仲秋	-13.5103
棰	-13.5103
八千六百二十四石八斗三升七合五勺	-13.5103
得數有餘實之不及法者别存之次置	-13.5103
體線第一分之兩㸃依	-13.5103
譎	-13.5104
惰	-13.5104
攄	-13.5104
莎	-13.5104
囊	-13.5105
觕	-13.5105
䕃	-13.5105
瓚	-13.5105
尔	-13.5107
駒	-13.5107
軼	-13.5108
睽	-13.5108
碣	-13.511
畬	-13.511
憫	-13.5111
蓯	-13.5111
浹	-13.5112
剔	-13.5112
繙	-13.5112
劂	-13.5112
呔	-13.5114
辜	-13.5114
桮	-13.5114
孜	-13.5115
綮	-13.5115
瓿	-13.5115
挑	-13.5115
靳	-13.5115
靠	-13.5115
檄	-13.5116
銍	-13.5116
壮	-13.5117
馴	-13.5118
婚	-13.5118
孽	-13.5118
䃤	-13.5118
喇	-13.5118
甯	-13.5118
剗	-13.5118
蚩	-13.5119
伴	-13.5119
蟈	-13.5119
瓘	-13.5119
闓	-13.5119
粹	-13.512
狃	-13.5121
汪	-13.5121
轆	-13.5121
郁	-13.5121
轤	-13.5122
澹	-13.5122
饔	-13.5122
凰	-13.5123
笈	-13.5123
讐	-13.5123
茨	-13.5123
衫	-13.5123
豺	-13.5123
曝	-13.5123
叩	-13.5123
岷	-13.5124
戞	-13.5125
絕	-13.5125
揉	-13.5125
斁	-13.5125
樵	-13.5125
捩	-13.5125
篆	-13.5125
愧	-13.5126
㓙	-13.5126
楫	-13.5126
淸	-13.5126
娓	-13.5126
痛	-13.5127
淋	-13.5128
褒	-13.5128
棧	-13.5128
罸	-13.5128
鍚	-13.5129
殁	-13.5129
煞	-13.5129
谿	-13.513
戽	-13.513
醬	-13.513
缶	-13.513
漉	-13.5131
䥴	-13.5132
斐	-13.5132
煤	-13.5132
槪	-13.5132
佉	-13.5132
皎	-13.5133
殽	-13.5133
頁	-13.5133
頡	-13.5133
場	-13.5133
炳	-13.5133
瘦	-13.5133
扃	-13.5134
杼	-13.5134
曙	-13.5134
菜	-13.5134
㽔	-13.5134
黜	-13.5134
療	-13.5134
翀	-13.5134
誡	-13.5135
煕	-13.5135
觿	-13.5135
筧	-13.5135
䆮	-13.5136
煇	-13.5136
峴	-13.5136
佞	-13.5136
郞	-13.5136
囉	-13.5136
冏	-13.5136
恢	-13.5137
咀	-13.5137
画	-13.5137
僣	-13.5137
棃	-13.5137
飬	-13.5137
􁃠	-13.5137
奬	-13.5137
宥	-13.5137
溘	-13.5137
蹴	-13.5137
廸	-13.5137
訃	-13.5137
筏	-13.5138
鎗	-13.5138
吠	-13.5138
菓	-13.5138
逞	-13.5138
賃	-13.5138
縵	-13.5139
劃	-13.5139
瓴	-13.5139
縻	-13.5139
褚	-13.5139
躡	-13.5139
咒	-13.5139
話	-13.514
枋	-13.514
詐	-13.514
緦	-13.514
緫	-13.514
驪	-13.514
怗	-13.514
熖	-13.514
睨	-13.5141
悱	-13.5141
臋	-13.5141
縠	-13.5141
缷	-13.5141
恬	-13.5141
努	-13.5141
拏	-13.5142
侖	-13.5143
袖	-13.5143
彞	-13.5143
粲	-13.5143
噣	-13.5143
滸	-13.5143
琢	-13.5143
群	-13.5143
妾	-13.5144
暌	-13.5144
棘	-13.5144
眸	-13.5144
蹄	-13.5144
隰	-13.5144
笛	-13.5144
劵	-13.5146
嬗	-13.5146
濤	-13.5146
罇	-13.5147
鍊	-13.5147
衢	-13.5148
獶	-13.5148
挂	-13.5148
慣	-13.5149
娑	-13.5149
莩	-13.515
蠲	-13.515
褲	-13.5151
陂	-13.5151
玦	-13.5151
楯	-13.5151
諜	-13.5152
溉	-13.5153
樽	-13.5155
筈	-13.5155
豉	-13.5155
紵	-13.5156
髦	-13.5156
爪	-13.5157
隴	-13.5158
糜	-13.5158
衺	-13.5158
頰	-13.5158
喬	-13.5159
盌	-13.5159
辣	-13.5159
窠	-13.5159
酸	-13.5161
窈	-13.5161
廾	-13.5162
􁁊	-13.5166
勁	-13.517
簾	-13.5171
鳶	-13.5175
彤	-13.5176
壩	-13.5176
膝	-13.5184
迕	-13.5187
攈	-13.5188
樁	-13.5205
艽	-13.8384
仇	-13.839
輅	-13.8392
棺	-13.8407
漾	-13.8409
奧	-13.8409
琁	-13.8411
葶	-13.8411
藶	-13.8411
嗇	-13.8411
撩	-13.8411
孳	-13.8415
墐	-13.8415
歡	-13.8415
畦	-13.8417
蜺	-13.8419
澶	-13.8419
酋	-13.8421
睆	-13.8422
皡	-13.8422
嗉	-13.8424
葽	-13.8424
卬	-13.8426
窶	-13.8426
臭	-13.8426
炙	-13.8428
沕	-13.8428
禴	-13.8428
宓	-13.843
躁	-13.843
扉	-13.843
蠧	-13.8432
插	-13.8432
摧	-13.8432
睫	-13.8432
曺	-13.8434
惘	-13.8434
巒	-13.8434
叁	-13.8434
辱	-13.8434
晟	-13.8436
蔗	-13.8436
㳂	-13.8438
玅	-13.8438
癖	-13.8438
䓗	-13.8438
郕	-13.8438
綽	-13.8438
幔	-13.8439
媿	-13.844
儗	-13.844
逶	-13.844
刼	-13.844
祊	-13.844
琅	-13.8441
搶	-13.8442
攙	-13.8442
晳	-13.8442
夐	-13.8442
樸	-13.8442
蟹	-13.8442
皿	-13.8443
酣	-13.8444
幬	-13.8444
儆	-13.8444
栝	-13.8444
產	-13.8444
䑃	-13.8444
悅	-13.8444
欃	-13.8444
汰	-13.8444
仔	-13.8444
蓆	-13.8444
砲	-13.8445
貲	-13.8445
垤	-13.8445
扺	-13.8445
坏	-13.8445
淞	-13.8445
捻	-13.8445
殞	-13.8446
冡	-13.8447
蝀	-13.8447
螮	-13.8447
蹊	-13.8447
澀	-13.8447
瑗	-13.8447
熠	-13.8447
耽	-13.8447
貶	-13.8447
蹕	-13.8447
滲	-13.8447
藎	-13.8447
洗	-13.8449
朧	-13.8449
俶	-13.8449
緻	-13.8449
眚	-13.8449
恥	-13.8449
慊	-13.8449
喚	-13.8449
塋	-13.8449
宁	-13.8449
斧	-13.8449
絨	-13.8449
蓏	-13.8449
虵	-13.845
庋	-13.845
萍	-13.8451
捄	-13.8451
斝	-13.8451
奭	-13.8451
儧	-13.8451
帷	-13.8452
枉	-13.8453
㝡	-13.8453
釁	-13.8453
嘘	-13.8453
亾	-13.8453
蹶	-13.8453
傜	-13.8453
囂	-13.8453
舀	-13.8453
蜡	-13.8453
郄	-13.8455
勲	-13.8455
剞	-13.8455
呾	-13.8455
鑰	-13.8455
滚	-13.8455
你	-13.8456
擎	-13.8457
妒	-13.8457
羙	-13.8457
沮	-13.8457
輄	-13.8457
埸	-13.8457
絘	-13.8457
趂	-13.8457
禺	-13.8459
㢠	-13.8459
㕓	-13.8459
帚	-13.8459
殖	-13.8459
蛾	-13.8459
賅	-13.8459
淑	-13.8459
觴	-13.846
滙	-13.8461
巔	-13.8461
詧	-13.8461
昺	-13.8461
粢	-13.8461
鑕	-13.8461
敔	-13.8461
觹	-13.8461
璽	-13.8462
?	-13.8462
㧞	-13.8462
鉄	-13.8462
戶	-13.8463
毓	-13.8463
舖	-13.8463
冑	-13.8463
仗	-13.8463
邁	-13.8465
軻	-13.8465
墖	-13.8465
渥	-13.8465
焻	-13.8465
坍	-13.8465
鄢	-13.8465
屡	-13.8465
碾	-13.8465
幢	-13.8465
糢	-13.8465
哩	-13.8465
皖	-13.8466
傘	-13.8466
壅	-13.8467
跎	-13.8467
蹉	-13.8467
秃	-13.8467
諺	-13.8467
䃪	-13.8467
沼	-13.8467
禱	-13.8467
㡌	-13.8467
卲	-13.8467
辠	-13.8467
葇	-13.8468
蝦	-13.8468
僞	-13.8468
拍	-13.8468
䜿	-13.8469
咱	-13.8469
亹	-13.8469
弉	-13.8469
璨	-13.8469
疲	-13.8469
宝	-13.8469
摽	-13.8469
曛	-13.8469
刊	-13.847
罽	-13.847
蒭	-13.847
澍	-13.847
郛	-13.8471
戱	-13.8471
籬	-13.8471
滕	-13.8471
窕	-13.8471
簧	-13.8471
萠	-13.8471
蛛	-13.8471
秡	-13.8471
佰	-13.8471
毀	-13.8471
荊	-13.8471
紓	-13.8472
怛	-13.8472
袠	-13.8472
誼	-13.8472
䧟	-13.8472
恤	-13.8473
籙	-13.8473
粘	-13.8473
坂	-13.8474
慰	-13.8474
卝	-13.8474
羸	-13.8474
醉	-13.8476
迪	-13.8476
噓	-13.8476
汁	-13.8476
㨿	-13.8476
僑	-13.8476
澮	-13.8476
熄	-13.8476
裡	-13.8477
葦	-13.8477
濇	-13.8478
䘲	-13.8478
巾	-13.8478
蟣	-13.8478
弋	-13.8479
秬	-13.848
笥	-13.848
屎	-13.848
晋	-13.848
妬	-13.8482
茹	-13.8482
剝	-13.8482
嘯	-13.8482
娵	-13.8482
痰	-13.8482
蝶	-13.8482
秖	-13.8483
篅	-13.8483
仆	-13.8484
槧	-13.8484
洮	-13.8484
圃	-13.8484
拂	-13.8484
胠	-13.8484
俛	-13.8484
畛	-13.8486
濂	-13.8486
椉	-13.8486
狐	-13.8486
贗	-13.8486
罫	-13.8487
訝	-13.8487
寖	-13.8488
腎	-13.849
剜	-13.849
肓	-13.849
粕	-13.849
糟	-13.849
塹	-13.8492
箝	-13.8492
攲	-13.8492
擲	-13.8494
蜩	-13.8494
㠯	-13.8496
覊	-13.8498
囚	-13.85
搹	-13.85
擘	-13.85
捉	-13.8501
找	-13.8501
蒯	-13.8505
逡	-13.8506
袐	-13.8507
满	-13.8507
哥	-13.8513
渦	-13.8532
頊	-14.3411
蓐	-14.3423
鵙	-14.3429
螂	-14.3429
螳	-14.3433
泮	-14.3436
邕	-14.3439
噶	-14.3439
黮	-14.3442
衙	-14.3447
跌	-14.3448
懋	-14.3449
拽	-14.3452
蹤	-14.3455
嶰	-14.3461
覔	-14.3464
隍	-14.3464
陜	-14.3468
䡄	-14.3471
曳	-14.3472
褊	-14.3472
㲈	-14.348
莾	-14.3486
怖	-14.3493
薇	-14.3527
郵	-14.3549
獅	-15.3217
暵	-15.3302
蘋	-15.3381
撚	-15.3405
惪	-15.3406
堉	-15.3407
凱	-15.3408
儞	-15.3409
鵶	-15.341
驀	-15.3411
衮	-15.3412
璟	-15.3413
寀	-15.3414
涬	-15.3415
沱	-15.3416
拔	-15.3417
惚	-15.3418
嘔	-15.3419
嗑	-15.342
勩	-15.3421
齬	-15.3422
氊	-15.3422
齟	-15.3423
髴	-15.3424
髣	-15.3425
粃	-15.3426
矮	-15.3427
瓔	-15.3428
珞	-15.3429
顫	-15.343
埒	-15.343
郜	-15.343
閹	-15.3431
閶	-15.3432
鄺	-15.3433
邰	-15.3434
莭	-15.3435
焨	-15.3436
涅	-15.3437
拮	-15.3438
踪	-15.3438
尙	-15.3439
劭	-15.344
醑	-15.3441
蹰	-15.3442
踟	-15.3443
蟋	-15.3444
蟀	-15.3445
蒺	-15.3446
崙	-15.3446
琶	-15.3447
琵	-15.3448
爬	-15.3449
塑	-15.345
㲄	-15.3451
逵	-15.3452
蚯	-15.3453
牾	-15.3454
牴	-15.3455
潭	-15.3456
儅	-15.3457
螣	-15.3458
虨	-15.3459
菉	-15.346
筀	-15.3461
塡	-15.3462
跼	-15.3463
嗚	-15.3463
褭	-15.3464
簪	-15.3465
穡	-15.3466
瓏	-15.3467
玲	-15.3468
僵	-15.3469
牂	-15.3469
灘	-15.347
涒	-15.3471
泠	-15.3472
彿	-15.3473
宷	-15.3474
媧	-15.3475
㮚	-15.3476
瑠	-15.3477
聳	-15.3477
噩	-15.3478
嵎	-15.3479
圮	-15.3479
砭	-15.3479
鱉	-15.348
霒	-15.3481
柘	-15.3482
紜	-15.3483
詹	-15.3484
漪	-15.3485
曨	-15.3486
棉	-15.3487
嚳	-15.3488
黿	-15.3489
杭	-15.349
遴	-15.3491
瑇	-15.3492
鄔	-15.3493
睺	-15.3494
蕘	-15.3495
歾	-15.3495
墀	-15.3496
蛋	-15.3497
脗	-15.3498
饅	-15.3499
蔟	-15.35
R	-15.3501
B	-15.3502
.	-15.3503
畣	-15.3503
