<unk>	0
<s>	0
</s>	0
(	-3.73567
/)	-4.17787
/	-4.69166
)	-4.91832
韻	-4.95454
句	-5.10365
人	-5.43236
花	-5.52986
一	-5.61688
又	-5.6309
不	-5.6467
有	-5.68342
春	-5.686
之	-5.78383
雲	-5.85461
香	-5.87965
)(	-5.92869
風	-5.9313
詞	-5.96712
無	-5.97734
玉	-5.99288
上	-6.03238
為	-6.03969
月	-6.05838
也	-6.06815
紅	-6.07594
中	-6.09512
字	-6.1055
山	-6.11926
天	-6.12262
前調	-6.15181
愁	-6.15927
作	-6.17253
如	-6.18717
是	-6.19245
下	-6.19379
空	-6.19537
時	-6.24405
去	-6.29635
自	-6.30343
水	-6.31844
得	-6.31912
與	-6.32351
小	-6.32969
似	-6.35047
雨	-6.35739
更	-6.36365
酒	-6.36463
清	-6.36615
寒	-6.36708
長	-6.38592
▁	-6.38961
讀	-6.40058
見	-6.40435
處	-6.40627
子	-6.41309
我	-6.42062
心	-6.42145
秋	-6.43608
來	-6.44072
正	-6.44156
金	-6.44448
未	-6.48305
新	-6.50135
前	-6.51495
難	-6.52537
飛	-6.52933
聲	-6.53402
情	-6.53459
日	-6.53718
醉	-6.553
三	-6.55646
後	-6.55742
夢	-6.56056
同	-6.5621
盡	-6.56236
相	-6.56843
在	-6.57558
成	-6.58837
恨	-6.59077
其	-6.59261
輕	-6.59365
以	-6.59691
歌	-6.60643
兒	-6.62769
雪	-6.63435
了	-6.63553
重	-6.6371
生	-6.64051
歸	-6.64887
好	-6.64946
看	-6.66349
此	-6.67673
初	-6.68598
行	-6.68649
夜	-6.69622
曲	-6.69793
入	-6.69901
翠	-6.69967
向	-6.70767
還	-6.72759
老	-6.73018
和	-6.73351
半	-6.73716
者	-6.74313
事	-6.74508
名	-6.75194
煙	-6.75367
路	-6.75442
滿	-6.75633
逺	-6.76435
過	-6.76606
誰	-6.76898
的	-6.77
意	-6.77309
道	-6.77498
多	-6.77525
深	-6.7766
栁	-6.77842
来	-6.78439
家	-6.79231
欲	-6.801
而	-6.80285
閒	-6.80954
云	-6.80983
開	-6.81169
起	-6.81329
髙	-6.81457
到	-6.81583
把	-6.81987
問	-6.82338
明	-6.8244
他	-6.83401
詩	-6.84447
平	-6.84463
知	-6.84498
客	-6.85585
語	-6.85615
梅	-6.85996
落	-6.87154
又一體	-6.87612
休	-6.87733
青	-6.87885
笑	-6.88162
裏	-6.8825
對	-6.90904
影	-6.90975
江	-6.91205
都	-6.9122
别	-6.91686
頭	-6.93082
書	-6.93536
調	-6.93595
碧	-6.95863
可	-6.96168
分	-6.96286
王	-6.97105
却	-6.97259
暗	-6.97897
黄	-6.98318
烟	-7.01215
大	-7.01286
出	-7.01419
兩	-7.02404
冷	-7.02507
舞	-7.02713
着	-7.02876
君	-7.03046
便	-7.03073
共	-7.03979
舊	-7.04558
應	-7.04892
緑	-7.0553
西	-7.05728
莫	-7.06072
殘	-7.0681
則	-7.07462
南	-7.07577
望	-7.07758
露	-7.08409
何	-7.08596
四	-7.08945
想	-7.09206
曉	-7.09381
用	-7.09852
雙	-7.10058
衣	-7.12042
光	-7.12556
東	-7.12755
外	-7.13349
宫	-7.13485
思	-7.14098
霜	-7.14795
千	-7.15228
但	-7.15628
樂	-7.15922
倚	-7.15969
嬌	-7.16396
燕	-7.16399
白	-7.16551
間	-7.16813
東風	-7.17023
萬	-7.17834
傳	-7.18301
仙	-7.18796
然	-7.18918
待	-7.18939
故	-7.19948
今	-7.20047
斷	-7.20215
錦	-7.2068
記	-7.20832
送	-7.21223
吹	-7.21301
葉	-7.21409
猶	-7.21648
淚	-7.22053
且	-7.22224
已	-7.22329
地	-7.22578
寄	-7.22701
亦	-7.22738
波	-7.22871
那	-7.2332
文	-7.24762
樹	-7.2517
二	-7.25484
賦	-7.25505
芳	-7.25726
馬	-7.26037
驚	-7.26296
方	-7.26493
至	-7.26631
門	-7.26683
流	-7.26926
公	-7.26997
竹	-7.27804
草	-7.27831
元	-7.28224
你	-7.28594
早	-7.29926
五	-7.30258
近	-7.30269
怨	-7.30408
溪	-7.31659
只	-7.32029
留	-7.33337
細	-7.34187
朝	-7.34314
憶	-7.34441
聽	-7.34635
相思	-7.35614
照	-7.35689
先	-7.35745
手	-7.35913
將	-7.35925
邊	-7.35993
塵	-7.36011
張	-7.36019
非	-7.36221
帶	-7.37108
轉	-7.37387
晚	-7.37482
怕	-7.37666
龍	-7.37941
眼	-7.37943
因	-7.38005
色	-7.38343
喜	-7.38787
吟	-7.38897
枝	-7.39006
堪	-7.39018
少	-7.39039
孤	-7.39076
綠	-7.3956
暮	-7.39877
樓	-7.39975
城	-7.39979
漸	-7.40059
柳	-7.40402
六	-7.40477
何處	-7.40542
将	-7.40567
粉	-7.40608
甚	-7.40918
於	-7.4106
令	-7.41076
林	-7.411
年	-7.41195
児	-7.41264
女	-7.41764
皆	-7.43518
所	-7.43919
破	-7.4404
散	-7.44424
景	-7.44662
李	-7.44835
鴈	-7.44891
華	-7.44978
亂	-7.45099
㑹	-7.45126
當	-7.4514
異	-7.45385
真	-7.45883
題	-7.46189
氣	-7.46576
淺	-7.47051
遊	-7.472
斜	-7.47208
若	-7.47224
這	-7.47414
低	-7.47644
微	-7.48385
晴	-7.48632
海	-7.487
餘	-7.48965
身	-7.49192
古	-7.4931
暖	-7.4956
幾	-7.49596
郎	-7.49673
風流	-7.49856
回	-7.50634
世	-7.51364
催	-7.5137
○	-7.51533
隔	-7.51585
獨	-7.51618
能	-7.51693
曰	-7.52091
歡	-7.52303
幽	-7.52311
集	-7.52347
合	-7.52626
度	-7.52811
面	-7.52983
畫	-7.53214
著	-7.53381
聞	-7.53428
動	-7.53498
信	-7.54152
枕	-7.54179
須	-7.54397
約	-7.5452
垂	-7.54931
數	-7.55021
本	-7.55119
石	-7.555
素	-7.55725
愛	-7.55753
定	-7.55813
亭	-7.56553
折	-7.56792
楚	-7.5733
官	-7.57513
誤	-7.58045
燈	-7.587
結	-7.5877
坐	-7.59453
北	-7.59501
尋	-7.59751
巻	-7.59975
州	-7.60106
珠	-7.60406
絲	-7.60924
試	-7.61243
百	-7.61458
簾	-7.61875
安	-7.6225
臺	-7.62447
離	-7.6253
言	-7.62536
于	-7.62658
勝	-7.63007
魚	-7.63642
横	-7.63848
俱	-7.64332
春風	-7.64699
念	-7.65286
星	-7.65411
從	-7.6542
取	-7.65526
薄	-7.65603
浪	-7.65739
短	-7.65998
晩	-7.66173
苦	-7.66203
高	-7.66323
引	-7.66664
巳	-7.67287
飲	-7.67441
曽	-7.67527
粧	-7.67751
蘭	-7.67844
矣	-7.68551
常	-7.68563
添	-7.68792
陽	-7.68873
即	-7.68907
濃	-7.69443
消	-7.69515
沙	-7.69925
住	-7.70138
教	-7.70394
唱	-7.70893
繡	-7.70973
被	-7.71001
梅花	-7.71268
江南	-7.71318
要	-7.71323
解	-7.71496
絶	-7.71665
九	-7.71717
箇	-7.71726
閑	-7.7186
體	-7.72037
西風	-7.72306
睡	-7.72559
淡	-7.72686
迷	-7.73564
羅	-7.7379
偏	-7.73908
學	-7.74255
弄	-7.74303
紫	-7.74373
按	-7.74457
興	-7.74588
翻	-7.74816
橋	-7.75031
做	-7.75266
吳	-7.75545
説	-7.75777
鶯	-7.75854
庭	-7.75955
閣	-7.76149
人間	-7.76191
最	-7.76455
收	-7.76479
放	-7.76693
池	-7.77524
國	-7.77542
此詞	-7.77678
野	-7.77878
乍	-7.78236
音	-7.78452
曾	-7.78504
神	-7.78631
凝	-7.79356
觀	-7.79366
㸔	-7.79473
鳳	-7.79825
移	-7.80362
隨	-7.80713
管	-7.80757
眉	-7.80902
浮	-7.81233
鳯	-7.81315
比	-7.81322
七	-7.81559
任	-7.81917
妝	-7.82376
千里	-7.82626
凉	-7.82732
使	-7.82839
鸞	-7.83274
頻	-7.8346
羞	-7.83831
鏡	-7.84136
霧	-7.84224
尚	-7.84278
天涯	-7.84575
伴	-7.85154
太	-7.85351
耳	-7.85758
臨	-7.86096
說	-7.86285
爭	-7.87579
寫	-7.87777
易	-7.87903
芳草	-7.88045
乃	-7.88082
懐	-7.88498
松	-7.88759
映	-7.88861
覺	-7.89239
宜	-7.8926
容	-7.89313
八	-7.89334
明月	-7.89456
透	-7.89525
謝	-7.89601
連	-7.89669
啼	-7.89767
銀	-7.898
罷	-7.9026
岸	-7.90286
賞	-7.90376
歸去	-7.905
通	-7.9074
芲	-7.91025
鴛鴦	-7.91042
多少	-7.91531
霞	-7.91674
隂	-7.91716
宴	-7.91935
漫	-7.92037
英	-7.92094
二首	-7.9225
首	-7.92366
慢	-7.92677
瓊	-7.92829
惜	-7.92832
再	-7.92942
宋	-7.93968
角	-7.94471
才	-7.94755
經	-7.9493
佳	-7.95592
籠	-7.95892
舉	-7.9599
沈	-7.9606
劉	-7.96309
堂	-7.96526
船	-7.96553
寳	-7.96654
朱	-7.96814
期	-7.96964
病	-7.97187
怎	-7.97297
喚	-7.97651
齊	-7.97763
歸來	-7.97802
鳴	-7.97819
内	-7.97881
陳	-7.97904
黄昏	-7.98291
瘦	-7.98515
尾	-7.98797
㡬	-7.99085
換	-7.99116
交	-7.99144
舟	-7.99171
掩	-7.99514
居	-7.99534
及	-7.99644
立	-7.99756
漢	-7.99871
醒	-7.99949
聴	-8.00047
臣	-8.00089
節	-8.00155
飄	-8.00538
相逢	-8.00563
指	-8.0108
惟	-8.01448
萬里	-8.01696
疎	-8.01853
宿	-8.01881
口	-8.01888
静	-8.02227
字平聲	-8.02274
傍	-8.02369
湖	-8.0237
載	-8.02444
就	-8.02727
氷	-8.03333
字仄聲	-8.03585
畔	-8.03747
或	-8.03915
鬢	-8.04123
倒	-8.04487
㸃	-8.04789
不知	-8.04893
雁	-8.05008
復	-8.05142
爲	-8.05151
魂	-8.05303
吾	-8.05398
伊	-8.05803
贈	-8.07008
多情	-8.07267
染	-8.07425
十	-8.07426
眠	-8.07451
登	-8.07819
巧	-8.08114
歎	-8.08316
村	-8.08756
當時	-8.08795
全	-8.08877
蝶	-8.0892
越	-8.09147
趙	-8.09241
剪	-8.09564
直	-8.09596
總	-8.09628
痕	-8.0972
周	-8.09945
火	-8.10401
許	-8.10407
憐	-8.10566
河	-8.11012
些	-8.11084
遍	-8.11109
㫁	-8.11248
稱	-8.11457
改	-8.11461
狂	-8.11671
感	-8.11746
話	-8.1218
論	-8.12358
桃	-8.12562
筆	-8.1283
泛	-8.1306
倦	-8.13164
拂	-8.13237
碎	-8.13292
悲	-8.13644
墜	-8.13701
杯	-8.13814
久	-8.14088
譜	-8.14104
故人	-8.14226
呉	-8.14516
窗	-8.1453
纔	-8.14603
凨	-8.14763
算	-8.15032
傷	-8.15247
叶	-8.15267
慵	-8.15941
秀	-8.16114
車	-8.16277
鶴	-8.16437
謂	-8.16479
偷	-8.16597
殿	-8.16786
底	-8.16821
等	-8.17197
荷	-8.17214
秦	-8.17215
願	-8.17304
虚	-8.17356
臉	-8.17391
風雨	-8.17523
涼	-8.17564
擁	-8.17731
索	-8.18046
鎖	-8.18255
雖	-8.18415
命	-8.18554
足	-8.18557
遺	-8.18654
夀	-8.18683
卿	-8.18726
揺	-8.1876
芙蓉	-8.18978
嫩	-8.18987
雅	-8.19047
蓮	-8.19109
逰	-8.19124
依舊	-8.19244
燭	-8.19265
争	-8.19536
回首	-8.19743
終	-8.20027
沉	-8.2009
步	-8.20101
㣲	-8.20213
楊	-8.20231
平仄	-8.20267
濕	-8.20441
年年	-8.20678
豔	-8.21356
十二	-8.21363
注	-8.2138
恰	-8.21494
屏	-8.21671
痩	-8.21725
湘	-8.2174
友	-8.21971
睂	-8.22094
唐	-8.22245
如今	-8.22417
徧	-8.22508
流水	-8.22655
親	-8.22915
院	-8.22988
逢	-8.22997
軟	-8.23107
時節	-8.23242
奈	-8.23331
裡	-8.23459
画	-8.23489
物	-8.2373
理	-8.23794
鼓	-8.23803
疑	-8.23862
占	-8.24029
丹	-8.24102
扇	-8.24107
孫	-8.24118
詠	-8.24192
謾	-8.24317
士	-8.24465
斜陽	-8.24712
困	-8.24871
腰	-8.24876
永	-8.25061
妙	-8.25179
鄉	-8.25239
忽	-8.25758
游	-8.25801
桃花	-8.25815
各	-8.26018
不見	-8.26038
靜	-8.26039
遲	-8.26339
春色	-8.26459
仄	-8.26524
窓	-8.26836
齋	-8.26968
袖	-8.27081
目	-8.27152
逐	-8.27346
竒	-8.27444
歩	-8.27736
西湖	-8.27863
無限	-8.27865
遥	-8.28052
洗	-8.28215
疊	-8.28241
扶	-8.28804
捲	-8.28841
此調	-8.28877
呼	-8.28932
梁	-8.29103
遶	-8.2919
盤	-8.29208
漏	-8.29426
忍	-8.29515
懷	-8.29922
觴	-8.29951
原	-8.30069
迎	-8.30523
號	-8.30585
次	-8.30613
琴	-8.30613
田	-8.30637
穿	-8.30735
發	-8.30805
泉	-8.30877
打	-8.31105
絃	-8.31176
宗	-8.31247
蒼	-8.31307
園	-8.31368
守	-8.31478
佳人	-8.31528
諸	-8.31646
主	-8.31711
刻	-8.31775
慶	-8.3196
種	-8.32091
寂寞	-8.32251
桂	-8.32306
圍	-8.32461
里	-8.32492
第	-8.32944
恁	-8.33001
柔	-8.33051
無人	-8.33307
列	-8.33925
海棠	-8.3426
並	-8.34297
翁	-8.34342
楼	-8.3442
嘆	-8.34427
急	-8.34497
峰	-8.34646
鴻	-8.34685
端	-8.34824
恐	-8.35
戲	-8.35125
遮	-8.35392
茶	-8.35429
傾	-8.35522
一枝	-8.35673
菊	-8.35858
俺	-8.35926
一片	-8.36003
失	-8.36125
徑	-8.36202
靈	-8.36261
侵	-8.36313
煞	-8.36332
志	-8.36378
仲	-8.36389
負	-8.36781
麗	-8.36848
變	-8.36923
報	-8.37017
錢	-8.3707
極	-8.37186
態	-8.3729
遇	-8.37333
繞	-8.37855
滴	-8.37879
笛	-8.38011
壓	-8.38226
一箇	-8.38532
章	-8.38597
浦	-8.38667
荒	-8.38812
展	-8.38815
縈	-8.38954
燕子	-8.38987
識	-8.38995
禁	-8.39271
前段	-8.39351
悄	-8.39364
夫	-8.39566
點	-8.39585
羽	-8.39592
顧	-8.39625
泥	-8.3967
圖	-8.39699
招	-8.39746
懶	-8.39812
絮	-8.39876
當年	-8.40112
繫	-8.40129
背	-8.40213
帳	-8.40326
虎	-8.40414
趂	-8.40475
鳥	-8.40886
一首	-8.41045
嵗	-8.41045
美	-8.41259
牕	-8.41439
囘	-8.41445
渾	-8.41706
追	-8.41758
拍	-8.41829
前後	-8.4185
衾	-8.42063
銷	-8.42369
停	-8.42423
縱	-8.42535
踈	-8.42568
必	-8.42615
木	-8.43193
苑	-8.43249
儘	-8.43507
青山	-8.43547
註	-8.43754
伯	-8.43817
牎	-8.44089
韓	-8.44132
少年	-8.44258
藏	-8.4443
二字	-8.44493
整	-8.44561
闕	-8.44599
氏	-8.44611
憔悴	-8.44643
深處	-8.44768
叢	-8.45194
死	-8.45392
圓	-8.45544
随	-8.45691
悶	-8.45879
今日	-8.46233
潮	-8.46336
怯	-8.46417
遂	-8.46572
豈	-8.46641
余	-8.46717
後段	-8.46813
惹	-8.46911
艶	-8.46977
嘗	-8.47057
渡	-8.47121
工	-8.47247
良	-8.47487
聖	-8.47598
邉	-8.47778
無情	-8.48002
勸	-8.48308
市	-8.48488
武	-8.48552
歇	-8.48752
史	-8.48823
釵	-8.4886
叔	-8.48897
旋	-8.491
寛	-8.49242
塞	-8.49288
一聲	-8.49295
蕩	-8.49444
修	-8.49605
一笑	-8.49963
翦	-8.49967
垂楊	-8.50008
落花	-8.50181
堆	-8.50362
封	-8.50452
不可	-8.50529
歲	-8.50559
户	-8.50677
忙	-8.50684
彈	-8.50777
况	-8.50876
房	-8.50896
簷	-8.50904
條	-8.5094
風月	-8.51092
買	-8.5139
媚	-8.51554
呵	-8.51712
止	-8.51927
側	-8.5203
響	-8.52729
恩	-8.52814
乆	-8.53157
綵	-8.53161
壁	-8.5321
棹	-8.5336
館	-8.53365
憑	-8.5342
屬	-8.53537
樂府	-8.53572
午	-8.53574
倩	-8.53605
一曲	-8.53632
機	-8.53639
夏	-8.5367
關	-8.53689
殺	-8.53739
尊前	-8.53783
釣	-8.53875
除	-8.53878
清明	-8.54181
盃	-8.54243
段	-8.54277
扁舟	-8.54362
陵	-8.54412
杏	-8.54438
娘	-8.54614
骨	-8.54897
綉	-8.55002
掃	-8.55314
如此	-8.55354
寶	-8.55394
稀	-8.55446
匆匆	-8.55483
遠	-8.55605
咲	-8.55651
漁	-8.55652
陰	-8.55766
䦨干	-8.55843
奏	-8.55854
斷腸	-8.55952
依	-8.55973
瑶	-8.56008
受	-8.56021
楊栁	-8.56291
凄凉	-8.56413
烏	-8.56497
冰	-8.56648
温	-8.56719
昏	-8.56871
實	-8.56885
壽	-8.56929
別	-8.56993
川	-8.57432
怪	-8.5744
思量	-8.57555
㱕	-8.57884
江上	-8.58205
六字	-8.58536
忘	-8.58597
抱	-8.58622
腸斷	-8.58705
偶	-8.58761
胡	-8.58863
盈盈	-8.58891
勞	-8.59023
功名	-8.59048
蘇	-8.59104
省	-8.59115
減	-8.59132
杜	-8.59309
𬒳	-8.59569
顔	-8.59625
相見	-8.59713
認	-8.59776
尾聲	-8.59978
今夜	-8.6013
予	-8.60147
瑞	-8.6023
夕	-8.60264
程	-8.60296
尊	-8.60391
心事	-8.60526
帝	-8.60624
每	-8.60723
選	-8.60752
雞	-8.60763
澹	-8.6091
味	-8.60936
賢	-8.61011
始	-8.61049
席	-8.61094
慣	-8.61433
聚	-8.61529
擬	-8.61718
不是	-8.61894
往	-8.61949
桞	-8.62
四字	-8.62063
翆	-8.62162
東坡	-8.62187
鬟	-8.62527
嗟	-8.62545
月明	-8.6255
無語	-8.62595
序	-8.62682
遣	-8.62702
訴	-8.62732
冠	-8.62745
乎	-8.62816
風吹	-8.62906
腸	-8.62995
様	-8.6302
蜂	-8.63029
鞭	-8.63241
求	-8.63334
軒	-8.63515
潤	-8.6354
平生	-8.63622
裙	-8.63628
一體	-8.63953
何事	-8.64035
羙	-8.64265
而今	-8.64361
牽	-8.64392
法	-8.64399
料	-8.6453
惆悵	-8.64563
徐	-8.64653
綺	-8.6475
東君	-8.64809
斗	-8.64918
時候	-8.64976
屋	-8.65045
損	-8.65073
䖏	-8.65118
持	-8.65122
妓	-8.65285
牛	-8.65352
長安	-8.65553
筵	-8.6585
記得	-8.66041
徳	-8.66063
踏	-8.66393
不似	-8.66398
借	-8.66401
仍	-8.66562
又名	-8.66578
徹	-8.66756
笙歌	-8.66777
去年	-8.66843
拜	-8.66849
髻	-8.66912
進	-8.66971
惟有	-8.67089
雙調	-8.67111
蕊	-8.67121
酔	-8.67184
牆	-8.67352
燒	-8.67441
吐	-8.67626
苔	-8.67642
蟬	-8.67679
否	-8.67727
洲	-8.67789
行人	-8.6781
般	-8.67934
宮	-8.68094
梨花	-8.68408
堤	-8.68424
晝	-8.68426
代	-8.68566
嬾	-8.68646
悠悠	-8.68646
杳	-8.6875
天氣	-8.68941
嚴	-8.68957
三字	-8.68991
善	-8.69071
牀	-8.69159
俗	-8.69318
窺	-8.6934
窮	-8.69592
皇	-8.69639
蓋	-8.69673
十里	-8.69724
襟	-8.69962
切	-8.70016
為誰	-8.70098
征	-8.70163
冬	-8.70191
簇	-8.70394
寒食	-8.70406
采	-8.70721
夕陽	-8.70825
暑	-8.70946
根	-8.70952
隠	-8.71042
么	-8.71199
推	-8.71243
黄花	-8.7129
琵琶	-8.71638
黛	-8.71649
可憐	-8.71728
盛	-8.71828
彩	-8.71865
十年	-8.71991
裁	-8.72346
接	-8.72354
闌干	-8.72355
渚	-8.72366
表	-8.72546
先生	-8.72691
駕	-8.72742
觧	-8.72879
闌	-8.73033
昨夜	-8.73152
壺	-8.73223
投	-8.73301
神仙	-8.73331
縷	-8.73524
檻	-8.73662
走	-8.73759
無數	-8.73872
犯	-8.73874
㝷	-8.74217
惡	-8.74499
盈	-8.74572
庭院	-8.74729
春光	-8.74769
井	-8.74791
鴉	-8.74853
盖	-8.74891
府	-8.75118
何時	-8.75272
梧桐	-8.75322
蜀	-8.75444
塘	-8.75459
力	-8.76157
不堪	-8.76216
年少	-8.76331
甘	-8.76401
民	-8.76428
人生	-8.76625
悵	-8.76892
計	-8.76902
尤	-8.76904
紗	-8.76962
鍾	-8.77015
侍	-8.77055
奴	-8.77181
卧	-8.77185
七字	-8.7719
敲	-8.77206
暈	-8.77207
父	-8.77343
肯	-8.77363
詞云	-8.77378
撲	-8.77556
毛	-8.77799
佩	-8.77977
片	-8.78077
輪	-8.78096
牡丹	-8.7813
隱	-8.78289
漲	-8.78348
娥	-8.78681
鈎	-8.78707
商	-8.78815
酒醒	-8.78939
辭	-8.79015
箋	-8.79133
俊	-8.79135
司	-8.79332
鼎	-8.7941
乾	-8.79473
戀	-8.79505
裊	-8.79507
如何	-8.79546
承	-8.79677
頓	-8.79733
由	-8.79807
强	-8.80085
纎	-8.80104
含	-8.80277
攜	-8.80285
遙	-8.80314
師	-8.80324
峯	-8.80385
校	-8.80416
挂	-8.80498
騎	-8.80633
無名氏	-8.80643
無言	-8.80683
坡	-8.80717
兵	-8.80825
環	-8.80988
御	-8.81054
京	-8.8107
消息	-8.81184
杏花	-8.81313
化	-8.81325
床	-8.8145
致	-8.81556
談	-8.81662
鋪	-8.81742
熏	-8.8177
凡	-8.81803
社	-8.81831
桃李	-8.81881
淮	-8.81945
密	-8.81973
甲	-8.82059
洞	-8.82322
砌	-8.82353
賀	-8.82425
玊	-8.82491
陸	-8.82578
熟	-8.82861
珠簾	-8.82937
鐘	-8.83199
咱	-8.83323
張炎	-8.83356
篇	-8.83447
酌	-8.83525
今宵	-8.83539
三首	-8.83744
功	-8.83744
楊花	-8.8375
嘉	-8.83784
秋風	-8.83894
軍	-8.83898
凭	-8.84047
墮	-8.84266
五字	-8.84439
聊	-8.84601
顰	-8.84645
不如	-8.84843
鵲	-8.84863
際	-8.85013
姬	-8.85047
福	-8.85085
煖	-8.851
爐	-8.8519
編	-8.85219
兼	-8.85264
厮	-8.8555
蕭	-8.85559
帆	-8.85675
掛	-8.85732
斂	-8.8575
黃	-8.85944
堦	-8.86022
丁	-8.86049
續	-8.86166
寺	-8.8632
闗	-8.86365
泪	-8.8639
蟾	-8.86416
惱	-8.86428
一夜	-8.86558
金縷	-8.86572
欄	-8.86634
既	-8.86889
存	-8.871
衰	-8.87103
末	-8.87125
䑓	-8.87182
蕋	-8.8742
人在	-8.87465
縁	-8.87758
行雲	-8.87862
池塘	-8.87985
據	-8.88316
敎	-8.88446
採	-8.8852
又是	-8.8875
䦨	-8.88761
宻	-8.88825
訪	-8.88855
搖	-8.88889
付	-8.88944
深院	-8.89063
蕭蕭	-8.89132
格	-8.89181
一名	-8.89189
離愁	-8.89356
寧	-8.89426
憂	-8.89435
快	-8.89502
缺	-8.8969
土	-8.89849
不同	-8.89902
錯	-8.89918
暫	-8.89974
何人	-8.9018
沒	-8.90367
拚	-8.90382
摘	-8.90387
敢	-8.90497
第一	-8.90547
細雨	-8.90575
吳文英	-8.90636
無奈	-8.90645
豪	-8.90933
梦	-8.91043
録	-8.91098
江山	-8.91186
只有	-8.9133
鎮	-8.91336
靄	-8.91378
梢	-8.91383
曹	-8.91523
竟	-8.91643
閙	-8.91716
宣	-8.91733
褪	-8.91735
阻	-8.91804
盟	-8.91851
一㸃	-8.92187
排	-8.92326
弱	-8.92554
緩	-8.92561
拈	-8.92573
睡起	-8.92622
品	-8.92716
往事	-8.92778
膩	-8.9279
嶺	-8.92892
南浦	-8.92929
門外	-8.93088
促	-8.93215
咽	-8.93222
月下	-8.93318
姿	-8.93404
枉	-8.9343
藥	-8.93445
昔	-8.93466
不得	-8.93569
義	-8.9361
囬	-8.93676
不到	-8.9385
陣	-8.93966
貴	-8.94055
脚	-8.94155
舊時	-8.94296
印	-8.9434
二句	-8.94365
誰家	-8.94389
退	-8.94579
供	-8.94584
四仄韻	-8.94666
中秋	-8.94781
獻	-8.94973
律	-8.95067
精	-8.95143
風光	-8.95157
千古	-8.95189
避	-8.95208
賜	-8.95217
加	-8.95228
團	-8.95242
朩	-8.95245
喧	-8.95295
十分	-8.95303
飛絮	-8.95338
鷗	-8.95434
不成	-8.95454
蝴蝶	-8.95499
繁	-8.95523
闋	-8.95681
甫	-8.95848
象	-8.95947
徘徊	-8.95949
刀	-8.95963
懸	-8.95966
浸	-8.96022
此與	-8.96072
果	-8.96125
姑	-8.96132
尺	-8.96255
濤	-8.96378
袂	-8.96394
鈿	-8.96553
容易	-8.96598
羣	-8.96625
閉	-8.96637
會	-8.9664
一時	-8.96716
僧	-8.96803
鴛	-8.96832
鬂	-8.96919
乗	-8.97121
驛	-8.97279
五仄韻	-8.97313
棲	-8.97325
抛	-8.97346
饒	-8.97358
捧	-8.97366
䄂	-8.97453
梁州	-8.97535
母	-8.97538
夢魂	-8.97577
傷心	-8.97589
無計	-8.97648
宵	-8.9781
巾	-8.97959
迴	-8.98003
凍	-8.98156
競	-8.98253
人家	-8.98297
街	-8.9849
滿地	-8.98531
幕	-8.98621
眞	-8.9871
織	-8.98831
秋千	-8.98907
蒲	-8.98958
貪	-8.98967
𥘉	-8.99108
汀	-8.99165
澄	-8.99212
禽	-8.99216
性	-8.99227
陌	-8.99419
暝	-8.99446
施	-8.99624
趁	-8.99688
花枝	-8.99816
禮	-8.99832
夷	-8.99938
勻	-8.99938
帽	-9.00121
舍	-9.00129
參差	-9.00346
差	-9.00383
霽	-9.00597
巢	-9.00628
一字	-9.00827
虛	-9.00868
旅	-9.00874
臥	-9.00875
飄零	-9.00928
天上	-9.0115
栁永	-9.01175
碧雲	-9.01264
布	-9.01277
融	-9.01344
斟	-9.01375
花前	-9.01427
蓬	-9.01555
谷	-9.01831
嫌	-9.01851
舒	-9.01852
又一體雙調	-9.01883
稍	-9.02011
蛾	-9.0202
艷	-9.02066
第二句	-9.02118
古今	-9.02268
兮	-9.02288
秋水	-9.02304
況	-9.02341
花開	-9.02537
酬	-9.02563
廣	-9.02564
鎻	-9.0261
妾	-9.03017
揚州	-9.03151
歌舞	-9.03328
正是	-9.03346
明朝	-9.03383
▁(	-9.0352
赴	-9.03528
数	-9.03582
危	-9.03596
佳期	-9.03691
羊	-9.03746
雕	-9.03747
别後	-9.03775
不盡	-9.03814
撥	-9.03817
辛棄疾	-9.03831
覓	-9.03832
洪	-9.04024
哀	-9.0417
綃	-9.04172
侯	-9.04178
夜深	-9.04405
殊	-9.04471
柱	-9.04506
寂	-9.04656
塲	-9.04762
零	-9.04816
侣	-9.05
層	-9.05198
覔	-9.05306
相對	-9.05308
縹緲	-9.05308
奉	-9.05464
重重	-9.05497
㺯	-9.05586
灑	-9.05595
怎生	-9.05722
葢	-9.05768
人去	-9.05965
芳菲	-9.06085
駐	-9.06254
樓上	-9.06435
幸	-9.06457
簟	-9.06506
泣	-9.06549
祝	-9.06786
支	-9.06803
紛紛	-9.06833
欺	-9.06864
墨	-9.06921
仁	-9.0696
戯	-9.07134
教人	-9.07197
窻	-9.07288
阿	-9.07376
綻	-9.07377
暮雲	-9.074
玉人	-9.07638
黄金	-9.07674
簾櫳	-9.07685
凌	-9.07706
夢裏	-9.07784
蠟	-9.07861
強	-9.07944
牙	-9.08102
階	-9.08104
富貴	-9.08105
皺	-9.08121
花影	-9.08203
進士	-9.08242
射	-9.08331
紋	-9.08358
食	-9.08384
樽	-9.08396
陶	-9.08526
不管	-9.0854
菴	-9.08577
降	-9.08614
幾度	-9.08619
夣	-9.08654
没	-9.08665
血	-9.08863
緊	-9.08932
干	-9.09002
只恐	-9.09056
丘	-9.09073
領	-9.09081
簫	-9.09215
断	-9.09256
周邦彦	-9.09274
量	-9.09321
别離	-9.09352
衆	-9.09354
妍	-9.09381
製	-9.09385
瀟湘	-9.0942
較	-9.09434
湏	-9.09436
美人	-9.09465
席上	-9.09561
何日	-9.09604
牋	-9.09704
獨自	-9.09722
髪	-9.09797
建	-9.09846
霓裳	-9.099
赤	-9.09902
標	-9.0994
重陽	-9.0999
考	-9.101
跡	-9.10145
夜來	-9.10205
四句	-9.10256
旗	-9.10269
凌波	-9.10315
衫	-9.10337
銅	-9.1038
祖	-9.10385
沾	-9.1039
爾	-9.10393
津	-9.10444
應是	-9.10696
妻	-9.10717
癡	-9.10722
剛	-9.10776
幾時	-9.10858
芳心	-9.1091
虹	-9.10935
歳	-9.10985
畵	-9.1102
撰	-9.11148
利	-9.11152
請	-9.11183
枝上	-9.11273
依然	-9.11411
參	-9.11436
薦	-9.11461
今古	-9.11662
明日	-9.11695
誇	-9.11787
風前	-9.11806
鬼	-9.11874
蠻	-9.12024
有人	-9.12073
攜手	-9.12183
酥	-9.12316
依依	-9.12417
羅衣	-9.12428
延	-9.12524
如許	-9.12534
枯	-9.12575
雷	-9.126
梳	-9.12719
楊柳	-9.12759
簡	-9.12845
収	-9.12881
紙	-9.12884
春寒	-9.12889
杖	-9.12891
厭	-9.12958
揚	-9.13112
西樓	-9.1336
今朝	-9.13435
樽前	-9.1359
分付	-9.13621
紅塵	-9.13746
囱	-9.13913
探	-9.13938
暗香	-9.13951
檀	-9.14018
座	-9.14081
句法	-9.14198
蓬萊	-9.14405
春水	-9.14447
揮	-9.14495
熱	-9.14524
精神	-9.14581
部	-9.14673
携	-9.14759
肩	-9.14831
悔	-9.14841
忩	-9.14852
金釵	-9.14911
徒	-9.15014
闊	-9.15096
閨	-9.15125
離恨	-9.15125
吕	-9.1518
徃	-9.15216
榮	-9.15258
雄	-9.15296
婦	-9.15387
磨	-9.15586
靑	-9.15613
數聲	-9.15693
年華	-9.15752
不住	-9.1578
巖	-9.16065
忠	-9.16119
鄭	-9.16134
落日	-9.16198
浴	-9.16203
今年	-9.16371
簾幙	-9.16411
欹	-9.16418
絳	-9.16421
歌聲	-9.16422
翼	-9.16472
障	-9.16487
綿	-9.16724
質	-9.1674
呀	-9.16863
雙燕	-9.16988
分明	-9.17064
試問	-9.17109
小樓	-9.17112
哉	-9.17252
妃	-9.17513
咏	-9.17517
等閒	-9.17624
填	-9.17699
辛	-9.17775
覷	-9.17944
纖	-9.18108
吴	-9.18375
汝	-9.18417
春來	-9.18692
脱	-9.18757
减	-9.18782
殘紅	-9.18909
昌	-9.1895
鬬	-9.19234
綴	-9.19247
眀	-9.19282
渺	-9.19313
幾許	-9.1963
盻	-9.19641
詞之	-9.19681
豆	-9.19807
康	-9.19839
一句	-9.19846
枝頭	-9.19872
假	-9.19898
長亭	-9.19994
文章	-9.20044
登臨	-9.20065
魏	-9.20179
并	-9.20422
盡日	-9.20502
蕙	-9.20504
仗	-9.20509
迢迢	-9.20521
霄	-9.20642
漾	-9.20789
簪	-9.20799
輝	-9.20848
花落	-9.20891
個	-9.21055
胭脂	-9.21072
鐙	-9.2116
政	-9.21174
囘首	-9.21185
使君	-9.2129
畫堂	-9.21313
靣	-9.21399
園林	-9.21449
春歸	-9.21566
臘	-9.21666
無端	-9.21709
押	-9.21844
板	-9.21862
右	-9.21893
辨	-9.21923
練	-9.22036
襯	-9.22045
爛	-9.22183
情緒	-9.22326
英雄	-9.22346
此情	-9.22443
離别	-9.22582
江梅	-9.22671
穏	-9.22874
息	-9.22982
無力	-9.22983
藍	-9.23125
埋	-9.23133
鮮	-9.23164
當日	-9.23194
沉沉	-9.2321
無處	-9.23225
冷落	-9.23281
候	-9.23325
䕶	-9.23438
厭厭	-9.2349
叅	-9.23544
費	-9.23624
類	-9.23656
声	-9.23736
掌	-9.23786
辰	-9.23942
叶韻	-9.23979
俏	-9.24085
腔	-9.24146
戸	-9.24215
遷	-9.24262
五句	-9.24264
畧	-9.24356
第三句	-9.24362
不能	-9.24365
三月	-9.24391
束	-9.24607
紀	-9.24617
慘	-9.24656
積	-9.24658
麻	-9.24667
夢中	-9.24715
繁華	-9.24767
豐	-9.24789
明年	-9.24812
縣	-9.24889
盧	-9.24922
儂	-9.2493
一葉	-9.25079
零落	-9.25083
殷勤	-9.2528
銷魂	-9.2533
南北	-9.25449
簮	-9.25516
雜	-9.25526
穩	-9.25564
過了	-9.25603
趙長卿	-9.25658
一百	-9.2581
孟	-9.25834
班	-9.25875
朋	-9.25903
魄	-9.25916
歛	-9.2593
煩	-9.26204
肥	-9.26214
淨	-9.26231
童	-9.26396
滅	-9.26402
炎	-9.26478
澤	-9.26502
毎	-9.26541
召	-9.26651
清香	-9.26681
瑤	-9.2672
濟	-9.26778
西園	-9.26784
威	-9.26862
墻	-9.26893
蘇軾	-9.26937
以為	-9.26984
晉	-9.27022
緣	-9.27062
夫人	-9.27118
呌	-9.27202
一日	-9.27291
都是	-9.27292
歸期	-9.27347
篆	-9.27388
張先	-9.27536
燈火	-9.27618
特	-9.27648
竿	-9.27785
鐵	-9.27789
汗	-9.27795
何妨	-9.27809
朱顔	-9.27836
殘月	-9.27841
弓	-9.27908
秋色	-9.2803
疾	-9.28032
歸路	-9.28088
固	-9.28293
春愁	-9.28306
來時	-9.28312
卷	-9.28376
窄	-9.28457
賣	-9.28701
另	-9.28702
喬	-9.2872
芭蕉	-9.28723
一枝花	-9.28752
天地	-9.2884
百年	-9.28894
額	-9.29038
緒	-9.29132
肌	-9.29153
逸	-9.29255
呈	-9.29315
槐	-9.29342
玲瓏	-9.29368
新愁	-9.29487
南枝	-9.29565
廟	-9.2962
結句	-9.29626
拖	-9.29678
埽	-9.29693
害	-9.29697
重來	-9.29699
太平	-9.29853
鴨	-9.29856
還是	-9.29939
寓	-9.29943
晨	-9.2998
境	-9.30001
晁補之	-9.30031
畫樓	-9.30171
茅	-9.30263
江湖	-9.30274
途	-9.30347
的是	-9.30452
㳺	-9.30637
桑	-9.30667
萼	-9.30685
江頭	-9.30784
頗	-9.30879
别來	-9.30902
季	-9.30933
銜	-9.30965
賔	-9.30971
蘋	-9.30981
鬆	-9.31021
雙調一百	-9.31084
授	-9.3118
慿	-9.31217
㬉	-9.31339
免	-9.3135
冶	-9.3146
羡	-9.31499
郊	-9.31502
浣溪沙	-9.31621
鷺	-9.31671
安排	-9.31734
此時	-9.3177
湯	-9.31881
室	-9.31883
榭	-9.31903
樓臺	-9.31931
順	-9.31936
鼔	-9.31971
邀	-9.31985
花間	-9.3199
乾坤	-9.31991
贏得	-9.32017
調見	-9.32093
到如今	-9.32104
線	-9.32124
郡	-9.32175
耶	-9.32211
誠	-9.32244
千金	-9.32367
平韻	-9.3238
可惜	-9.3255
運	-9.32587
附	-9.32598
斑	-9.32599
貌	-9.32623
桐	-9.32629
猛	-9.3264
業	-9.32657
仄韻	-9.32754
猜	-9.32948
夢斷	-9.3297
堅	-9.33248
盞	-9.33269
蘂	-9.33304
付與	-9.33357
偎	-9.33515
溼	-9.33568
凄	-9.33615
麝	-9.33683
髮	-9.33784
提	-9.33857
笙	-9.33878
瑩	-9.3393
從今	-9.33963
忒	-9.34004
四平韻	-9.34014
花飛	-9.34126
把酒	-9.34261
青青	-9.34484
撚	-9.34531
二十	-9.34582
值	-9.34672
鶯聲	-9.34693
知音	-9.34775
行樂	-9.3479
飛去	-9.34818
荷花	-9.34859
珮	-9.34877
壯	-9.34932
第四句	-9.34938
劍	-9.34959
閒愁	-9.35007
履	-9.35208
犀	-9.35229
龜	-9.35247
諧	-9.35248
擊	-9.35263
逺山	-9.35272
脫	-9.35308
箭	-9.35312
左	-9.35316
殢	-9.35338
幃	-9.35608
嬋娟	-9.35636
劉郎	-9.35857
趣	-9.35962
銀河	-9.36155
宅	-9.36281
挽	-9.36291
澗	-9.36308
擲	-9.36333
厎	-9.36344
隊	-9.36361
風露	-9.36372
湖上	-9.36408
披	-9.36472
獨倚	-9.36523
詔	-9.36569
雲雨	-9.36572
描	-9.36574
増	-9.36615
刺	-9.36672
日暮	-9.3687
雙雙	-9.36892
王孫	-9.36917
朶	-9.36936
彦	-9.36947
何在	-9.36989
栽	-9.37022
翠袖	-9.37049
鸚鵡	-9.37352
勢	-9.37358
溜	-9.37376
萍	-9.37615
擎	-9.3771
輕寒	-9.37937
卜	-9.38011
懽	-9.3804
冉冉	-9.38042
漠漠	-9.38044
圖譜	-9.38153
雨過	-9.38224
陌上	-9.3826
黯	-9.3835
紅葉	-9.38356
酸	-9.38417
□	-9.38583
平聲	-9.38629
何如	-9.38664
十四字	-9.38707
棄	-9.38726
幅	-9.38749
春去	-9.38765
光隂	-9.3884
巫山	-9.38884
㸃㸃	-9.38886
春夢	-9.38894
蘭舟	-9.38932
簾外	-9.38953
訛	-9.39036
鞋	-9.39082
滑	-9.39109
設	-9.39124
棃花	-9.39376
秦樓	-9.39408
鄰	-9.39734
舌	-9.39782
托	-9.39825
陪	-9.39834
不須	-9.39864
東籬	-9.39901
同心	-9.39933
年時	-9.39935
無聊	-9.39951
德	-9.40052
不禁	-9.40053
日日	-9.40081
富	-9.40091
叠	-9.40121
怒	-9.40171
裳	-9.40315
陳允平	-9.40373
新月	-9.40377
淡月	-9.40407
不覺	-9.4046
第五句	-9.40694
鞍	-9.40726
焉	-9.40732
銀燭	-9.40749
白雲	-9.40828
蔡	-9.4085
芝	-9.40853
攀	-9.40856
念奴嬌	-9.40858
丹青	-9.40936
妬	-9.40948
青春	-9.40954
飛來	-9.41159
界	-9.41182
蕚	-9.41228
釀	-9.41254
自有	-9.4129
敗	-9.41516
詞一巻	-9.41554
主人	-9.41565
一枕	-9.41817
潘	-9.41862
不勝	-9.41895
双	-9.41924
㡌	-9.41973
架	-9.42
以下	-9.42121
荆	-9.422
凨流	-9.42234
清風	-9.42408
天香	-9.42497
淸	-9.42694
蹙	-9.42707
鞦韆	-9.42709
舊遊	-9.4278
叟	-9.42993
貧	-9.42998
儀	-9.43045
灰	-9.4305
查	-9.43105
淒涼	-9.43105
籬	-9.43112
踏青	-9.43121
花下	-9.43242
判	-9.43297
鱗	-9.43315
滿庭芳	-9.43394
雀	-9.4343
春意	-9.43444
尋芳	-9.43607
秋光	-9.43627
春山	-9.43655
營	-9.43761
拆	-9.438
喚起	-9.43916
三十	-9.44012
馮	-9.44093
委	-9.44158
厚	-9.44168
圗	-9.44204
不道	-9.44234
一番	-9.44263
悽	-9.44507
飯	-9.44513
依稀	-9.44608
誰知	-9.4489
捱	-9.44952
薄倖	-9.44966
誰與	-9.45018
傷春	-9.4506
夜雨	-9.4512
薰	-9.45186
孝	-9.45196
學士	-9.45271
宇	-9.45297
相憶	-9.45445
洒	-9.45553
莊	-9.45604
挑	-9.45605
箏	-9.45613
權	-9.45622
告	-9.45625
鬚	-9.45631
鑑	-9.45635
悞	-9.4567
噴	-9.45675
蛩	-9.45838
尖	-9.45878
目斷	-9.45914
隴	-9.45966
覆	-9.46023
髙樓	-9.46064
妖	-9.46073
中有	-9.46085
萬事	-9.46159
岳	-9.46302
適	-9.46319
淒	-9.46376
廻	-9.46403
嫁	-9.46414
濶	-9.46422
奩	-9.46436
換頭	-9.46442
此際	-9.46561
老去	-9.46601
歴	-9.46704
筭	-9.46785
驚起	-9.46791
黒	-9.46797
單	-9.4691
新聲	-9.46934
知道	-9.46947
詞名	-9.47078
賓	-9.47137
撫	-9.47169
岫	-9.47171
腮	-9.47208
無心	-9.47311
千萬	-9.47325
煙雨	-9.47422
四首	-9.47437
雲山	-9.47457
廬	-9.47502
巷	-9.47504
不斷	-9.47513
符	-9.47521
毛滂	-9.47615
陽臺	-9.4763
兩句	-9.47653
風味	-9.47774
郭	-9.47856
起句	-9.47876
乘	-9.47901
助	-9.47929
依約	-9.4811
落紅	-9.48157
無窮	-9.48177
詞有	-9.48248
去聲	-9.48311
戴	-9.48316
章臺	-9.485
泊	-9.4859
笑語	-9.486
迥	-9.48714
弟	-9.48796
錄	-9.49005
廊	-9.49049
金蓮	-9.49051
反	-9.49055
謀	-9.49094
痛	-9.49094
猶在	-9.49099
水龍吟	-9.49102
妒	-9.4913
世間	-9.49169
零亂	-9.49248
源	-9.49255
酣	-9.49303
小院	-9.49324
十三	-9.49335
亡	-9.49376
悄悄	-9.49436
洛	-9.49461
顯	-9.49489
皮	-9.49497
朦朧	-9.49539
綰	-9.49549
蒼苔	-9.49603
總是	-9.49918
咫尺	-9.49919
斜日	-9.50007
劒	-9.50289
鸎	-9.50301
山中	-9.50421
飛花	-9.50473
有情	-9.50508
故園	-9.50564
廢	-9.50565
三仄韻	-9.50618
健	-9.50647
㠶	-9.50688
深深	-9.50781
夜月	-9.50903
形	-9.50975
五更	-9.51014
輕盈	-9.51018
裘	-9.51062
臨江仙	-9.51084
㡬時	-9.51098
橫	-9.51103
腰肢	-9.51131
雲鬟	-9.51207
蕪	-9.51294
那堪	-9.51328
黄鸝	-9.51446
首句	-9.51455
潛	-9.51457
耕	-9.51463
卒	-9.51492
祥	-9.51563
留連	-9.51613
姓	-9.51664
猿	-9.51867
鶯啼	-9.51873
嗔	-9.5188
跨	-9.51908
夾	-9.51921
八字	-9.52162
風景	-9.52176
日月	-9.52204
梧	-9.52233
吹簫	-9.5224
匀	-9.5226
芽	-9.52301
逞	-9.52321
青樓	-9.52401
好夢	-9.52443
作者	-9.52461
私	-9.52551
觸	-9.52646
烘	-9.52676
用平	-9.52722
茫茫	-9.52768
院落	-9.5288
第七句	-9.52928
臂	-9.5306
閤	-9.53101
緑楊	-9.53465
梅苑	-9.53469
寵	-9.53482
鷓鴣天	-9.53512
何似	-9.5356
不用	-9.53564
樵	-9.53573
勾	-9.53832
一年	-9.53838
詳	-9.53861
荅	-9.53943
恰便似	-9.53961
離情	-9.53993
舊日	-9.54008
東西	-9.54016
枕上	-9.5402
黄庭堅	-9.54319
螺	-9.54321
秋聲	-9.5446
賀新郎	-9.54665
三平韻	-9.5469
山谷	-9.54775
潜	-9.54776
韶華	-9.54781
相識	-9.54841
白髪	-9.54842
憑誰	-9.54932
例	-9.55056
鹿	-9.55113
欠	-9.55128
網	-9.55148
璧	-9.55179
十七字	-9.55195
六仄韻	-9.55281
心情	-9.55343
乞	-9.55484
後起	-9.55567
厯	-9.5582
范	-9.55875
又一	-9.55889
羨	-9.55916
籌	-9.55968
玉簫	-9.55993
腹	-9.55994
猶有	-9.56064
望斷	-9.56087
櫻桃	-9.5623
稼軒	-9.56232
天下	-9.56349
補	-9.56362
便是	-9.56491
悵望	-9.56493
如水	-9.56546
滿眼	-9.56662
落梅	-9.56677
兩三	-9.56698
南山	-9.56823
插	-9.56827
它	-9.56857
特地	-9.56943
又還	-9.5696
用韻	-9.57068
臯	-9.57134
鬭	-9.57141
針	-9.57215
㾗	-9.57229
窈窕	-9.57231
煩惱	-9.57261
翫	-9.57291
羅綺	-9.57346
紅樓	-9.57366
獨立	-9.57507
珍	-9.57526
悉	-9.57632
圃	-9.57635
一醉	-9.57665
騰	-9.57671
挿	-9.57676
蔵	-9.57683
天然	-9.57724
滿院	-9.57767
視	-9.57994
瀟灑	-9.58015
輿	-9.58025
評	-9.58048
錢塘	-9.58086
係	-9.58089
島	-9.58105
夜寒	-9.58222
春衫	-9.58234
月華	-9.58247
驟	-9.58301
瑟	-9.58361
辜負	-9.5838
菱花	-9.58408
治	-9.5841
靨	-9.58445
凋	-9.58513
繡簾	-9.58675
抵	-9.58864
瓶	-9.58913
清平樂	-9.58921
居士	-9.58975
猶自	-9.59109
盼	-9.59335
蓑	-9.59338
效	-9.59346
䡖	-9.59349
剰	-9.59362
擔	-9.59379
杜宇	-9.59395
▁按	-9.5949
舊事	-9.59543
玉樓	-9.59663
壘	-9.5974
十字	-9.59765
保	-9.59777
麥	-9.59798
第六句	-9.59805
壷	-9.5985
淚眼	-9.59855
何許	-9.5987
屏山	-9.60087
斯	-9.60156
帥	-9.60162
繼	-9.60172
南樓	-9.60299
草堂	-9.60305
煙水	-9.60402
其詞	-9.60404
清歌	-9.60524
崖	-9.60621
灘	-9.6067
尚書	-9.60674
傲	-9.60678
夢回	-9.60682
嘯	-9.60889
婉	-9.6104
敬	-9.61081
養	-9.61107
抹	-9.61133
艇	-9.61356
香消	-9.61404
輩	-9.61425
渠	-9.6149
欵	-9.61524
帷	-9.61585
帯	-9.61587
香霧	-9.61642
無際	-9.61643
洞庭	-9.61666
三更	-9.61765
脂	-9.61915
庵	-9.61947
醉裏	-9.62008
茵	-9.62024
字俱仄聲	-9.6212
一春	-9.6212
西山	-9.6216
一作	-9.62245
三句	-9.62288
温柔	-9.62289
螢	-9.6234
筝	-9.62343
用仄	-9.62367
服	-9.62398
天際	-9.62398
頂	-9.62447
粘	-9.62453
十五	-9.62559
公子	-9.62564
日長	-9.62622
小橋	-9.62651
韋	-9.62833
韵	-9.62837
齒	-9.62869
鷗鷺	-9.63141
蛾眉	-9.63156
沼	-9.63279
新詞	-9.63299
蟻	-9.63304
淚痕	-9.63331
梭	-9.63339
難忘	-9.63501
扵	-9.63655
益	-9.63655
眼前	-9.63704
詞别首	-9.6376
樣	-9.63773
舘	-9.63783
妖嬈	-9.63816
暮雨	-9.63897
月上	-9.64107
虞	-9.64152
終日	-9.64158
祠	-9.64182
邦	-9.64232
牢	-9.64249
當初	-9.6427
𥿄	-9.64315
瞻	-9.64379
恩情	-9.64415
周密	-9.64422
道是	-9.64462
為我	-9.64608
紛	-9.64639
極目	-9.64661
春思	-9.64786
陽關	-9.64962
向人	-9.64989
前腔	-9.64992
崇	-9.65051
一任	-9.65072
疑是	-9.65084
灣	-9.65132
燼	-9.65153
九字	-9.65161
翡翠	-9.65179
故國	-9.65196
價	-9.65244
猶未	-9.65264
簾捲	-9.65312
也不	-9.65422
畫船	-9.65425
瑣	-9.65554
看花	-9.65566
載酒	-9.65584
吞	-9.65591
蟲	-9.65628
斷魂	-9.65763
不語	-9.65773
乳	-9.65853
浮雲	-9.65945
瓦	-9.65946
别有	-9.65964
藤	-9.66039
賽	-9.66081
晏	-9.66325
吉	-9.66466
可平	-9.66475
魯	-9.66485
膽	-9.66524
桃源	-9.66535
未了	-9.66554
鮫綃	-9.6656
弹	-9.66625
嘶	-9.66675
許多	-9.66687
宋人	-9.66696
十二字	-9.66706
畨	-9.66821
門前	-9.66837
一簾	-9.66926
彭	-9.6693
圎	-9.66981
藻	-9.66991
䇿	-9.67
翅	-9.67005
畱	-9.67043
寂寂	-9.67053
造	-9.67066
楊无咎	-9.67076
畫橋	-9.67146
一半	-9.67153
疎影	-9.67196
昭	-9.67234
誦	-9.67344
馳	-9.67454
冩	-9.67457
習	-9.67459
䨇	-9.67486
第八句	-9.67559
不忍	-9.67615
自古	-9.67702
翰	-9.67773
議	-9.6779
段九句	-9.67859
十八字	-9.67886
略	-9.67889
槎	-9.67921
䏻	-9.67929
清曉	-9.67969
護	-9.67994
雕鞍	-9.68009
瑶池	-9.68169
了些	-9.68248
佛	-9.6832
逕	-9.68425
戦	-9.68451
淹	-9.68589
秦觀	-9.68627
第二	-9.68706
仕	-9.6873
題詩	-9.68733
世事	-9.68737
毫	-9.68802
薫	-9.68803
戰	-9.68827
聼	-9.68847
一縷	-9.68854
覩	-9.68892
滿江紅	-9.68895
娉婷	-9.68897
史達祖	-9.68938
孤山	-9.68974
瑶臺	-9.69048
何須	-9.69116
緑隂	-9.69185
希	-9.69303
篷	-9.69343
翩翩	-9.69344
邨	-9.69359
颺	-9.69373
撇	-9.69395
張翥	-9.69404
疎雨	-9.69482
置	-9.69524
獸	-9.69588
人歸	-9.69634
一點	-9.69654
輦	-9.69701
鶯花	-9.69704
周詞	-9.69723
花底	-9.69784
玩	-9.698
森	-9.69812
潭	-9.69835
薔薇	-9.69868
聳	-9.69871
流鶯	-9.69979
凝竚	-9.70082
紅粉	-9.70109
衡	-9.70212
殘照	-9.70269
隣	-9.70274
晁	-9.70297
蘆	-9.70552
賴	-9.70565
春心	-9.7057
歸来	-9.70606
㡬度	-9.70622
屈	-9.70709
遭	-9.70773
蘸	-9.70814
萬頃	-9.70892
影裏	-9.70914
燈前	-9.70954
餘香	-9.71021
臨風	-9.71087
人静	-9.71162
麽	-9.71162
九十	-9.71236
霏	-9.71245
巴	-9.71257
浄	-9.71266
東風吹	-9.71272
驅	-9.71273
彩雲	-9.71423
與前	-9.7144
顔色	-9.71523
新詩	-9.71548
銀屏	-9.71552
菩薩蠻	-9.71687
監	-9.71699
泰	-9.71723
郷	-9.71731
納	-9.71739
科	-9.71758
鷄	-9.71788
瓜	-9.71812
仄聲	-9.71814
香風	-9.72178
次韻	-9.72205
託	-9.72226
仰	-9.72234
情懐	-9.72245
多時	-9.72279
方千里	-9.72282
花隂	-9.72313
知他	-9.72355
楚天	-9.72377
君王	-9.72454
不拘	-9.72468
騷	-9.72471
藕	-9.72513
宛	-9.72594
愚	-9.7269
塗	-9.72719
伏	-9.72727
程垓	-9.72774
蕭索	-9.72853
拘	-9.72878
那更	-9.7301
露冷	-9.73118
多病	-9.73161
油	-9.73208
顆	-9.73248
速	-9.73265
元宵	-9.73385
長生	-9.73474
十一字	-9.73687
㟁	-9.73772
喫	-9.73776
此亦	-9.73877
處處	-9.73887
百花	-9.73888
今夕	-9.73971
彎	-9.74058
翹	-9.74096
九日	-9.7411
詞話	-9.7412
勒	-9.74123
袍	-9.74212
貼	-9.7423
飽	-9.74233
硯	-9.74246
水雲	-9.7425
敵	-9.74254
從來	-9.7426
捨	-9.74263
汀洲	-9.74281
蝶戀花	-9.74294
聲聲	-9.74303
一般	-9.74335
藍橋	-9.74356
陽春	-9.74464
春事	-9.74532
三千	-9.74559
雙飛	-9.74614
橘	-9.74759
夢窗	-9.74761
宛轉	-9.74785
博	-9.74856
前後段	-9.75036
覽	-9.75196
屢	-9.75205
西江月	-9.75227
幽香	-9.7526
擺	-9.75281
関	-9.75288
不肯	-9.753
和氣	-9.75547
歸時	-9.75612
千載	-9.75718
亭亭	-9.75746
岩	-9.75763
两	-9.75802
逼	-9.75812
胸	-9.75819
良宵	-9.75835
不解	-9.75947
徃事	-9.75984
欲去	-9.76042
好景	-9.76055
七十	-9.76128
音信	-9.76138
后	-9.76161
錦字	-9.76192
幙	-9.76206
鉛	-9.76212
嬉	-9.76213
奪	-9.76236
雙調四十	-9.76245
汪	-9.76255
掠	-9.76306
滿目	-9.76336
端的是	-9.76594
從前	-9.76597
輸	-9.76615
案	-9.76687
藉	-9.76748
誓	-9.76798
葱	-9.76817
縦	-9.76828
水邊	-9.7683
為君	-9.76832
自是	-9.76931
烟雨	-9.77075
甌	-9.77136
壑	-9.77183
四時	-9.77223
此意	-9.77227
謳	-9.7724
聞道	-9.77255
髩	-9.77272
滋味	-9.77274
暇	-9.77294
債	-9.77322
重門	-9.77331
嫦娥	-9.77338
撒	-9.77356
四海	-9.774
寸	-9.77424
囊	-9.77454
耐	-9.7746
一夢	-9.77615
和淚	-9.77663
亂紅	-9.77695
兀	-9.77765
𤣥	-9.77775
奇	-9.77776
千年	-9.77806
現	-9.77808
沁園春	-9.77811
炷	-9.77823
宋玉	-9.77828
倦客	-9.77835
濛濛	-9.77866
水流	-9.77885
白雪	-9.77997
所謂	-9.78197
筠	-9.78306
笠	-9.7833
従	-9.78333
返	-9.78334
唾	-9.78346
隻	-9.78349
活	-9.78379
溪山	-9.78459
朱户	-9.78461
有誰	-9.78485
醉鄉	-9.78561
蹤	-9.78568
答	-9.78746
端的	-9.78756
燈花	-9.78769
門掩	-9.7877
局	-9.78853
荼䕷	-9.78854
娃	-9.78864
蒙	-9.78864
險	-9.78876
五湖	-9.78884
焦	-9.78897
見了	-9.78951
臨水	-9.7897
字俱平聲	-9.79007
未老	-9.79076
南陌	-9.7908
塵土	-9.79083
簾幕	-9.79165
數㸃	-9.79166
一畨	-9.79254
蘆花	-9.79275
樂事	-9.79277
至今	-9.79324
沁	-9.79371
恣	-9.79386
塢	-9.79394
宋詞	-9.79409
甜	-9.79435
流年	-9.79464
韶光	-9.79505
飛燕	-9.79551
月色	-9.79589
經年	-9.79791
籍	-9.79803
旁	-9.79858
哭	-9.79905
揾	-9.79944
驄	-9.79957
一巻	-9.79968
夜夜	-9.79971
譜内	-9.80056
衰草	-9.80109
滿城	-9.8018
小山	-9.80382
春草	-9.80388
舎	-9.80406
貫	-9.80421
配	-9.80469
梯	-9.80483
顫	-9.80497
逗	-9.80509
無事	-9.80523
新來	-9.80558
管絃	-9.80651
懨懨	-9.80737
江水	-9.8085
落盡	-9.80862
消得	-9.80883
湧	-9.80971
檐	-9.80973
一段	-9.80987
䰟	-9.80992
漁父	-9.80994
裝	-9.81
第三	-9.81152
春暮	-9.81187
前村	-9.81287
十八	-9.81459
人心	-9.81516
後結	-9.81534
周美成	-9.81562
玉堂	-9.81608
樓前	-9.81768
幾番	-9.81837
風輕	-9.81858
堯	-9.81988
誰念	-9.81997
纒	-9.82042
辦	-9.82052
言語	-9.82055
埀	-9.82103
如夢	-9.82106
塵埃	-9.82142
不定	-9.82164
陽闗	-9.82207
五平韻	-9.82237
三年	-9.82266
旌	-9.82284
祐	-9.82368
柳永	-9.82396
露華	-9.82451
洛陽	-9.82527
無憑	-9.82545
朝雲	-9.82559
回頭	-9.82586
真箇	-9.82609
相看	-9.82653
嫰	-9.82657
兎	-9.82659
心腸	-9.82663
金屋	-9.82672
樓外	-9.82677
惱人	-9.82742
重見	-9.82782
一天	-9.82809
囀	-9.82847
青衫	-9.82926
春恨	-9.82952
農	-9.83097
暉	-9.831
奔	-9.83106
涙	-9.83138
無定	-9.83181
淡淡	-9.83181
離人	-9.83207
似水	-9.83229
一杯	-9.83355
微雨	-9.83395
笋	-9.83483
青鸞	-9.83545
更有	-9.83559
錫	-9.83606
香塵	-9.83624
儒	-9.83627
錦帳	-9.83662
流光	-9.83664
屐	-9.83722
迤邐	-9.83733
後段起句	-9.83776
寒梅	-9.83816
携手	-9.83856
或作	-9.83878
畫角	-9.83908
曉來	-9.83972
老子	-9.84009
恰似	-9.84082
賈	-9.84152
尉	-9.84173
忘了	-9.84222
洞仙歌	-9.84263
與此	-9.84277
快活	-9.84312
天外	-9.84463
何必	-9.84581
舊家	-9.84603
紅杏	-9.84699
述	-9.84717
月滿	-9.84718
人情	-9.84724
虞美人	-9.84753
衝	-9.84792
米	-9.84796
摧	-9.8482
祗	-9.84826
燦	-9.84841
淵明	-9.84841
叚	-9.84881
征鴻	-9.84887
懐抱	-9.84979
愁腸	-9.85127
有時	-9.85283
傅	-9.85299
坊	-9.85324
鳯凰	-9.85366
消磨	-9.85465
消魂	-9.85675
春情	-9.85715
楓	-9.85751
一詞	-9.85791
夜永	-9.85827
水調歌頭	-9.85857
藝	-9.85884
𣺌	-9.85886
肉	-9.8589
狀	-9.85913
謬	-9.85924
鶯鶯	-9.8596
姮娥	-9.85983
七夕	-9.86041
草草	-9.8621
醉倒	-9.86304
皓月	-9.8637
可平可仄	-9.86392
十三字	-9.86392
升	-9.86435
帰	-9.86438
夢覺	-9.86451
篝	-9.86475
噪	-9.86478
芍藥	-9.86479
琉璃	-9.86483
鵉	-9.86499
巷陌	-9.86509
閗	-9.8652
院宇	-9.86531
景物	-9.86575
淚珠	-9.86631
旦	-9.86681
底事	-9.86781
膏	-9.86852
青天	-9.86911
具	-9.86962
長是	-9.86962
金陵	-9.8705
餞	-9.8705
栖	-9.87053
潔	-9.87057
㕘	-9.87071
鐡	-9.87083
轡	-9.87087
此恨	-9.87104
毬	-9.87107
屈指	-9.87115
遅	-9.87116
白髮	-9.87133
峭	-9.87402
些兒	-9.87444
顛	-9.87561
穠	-9.87567
磯	-9.87595
𤓰	-9.87606
講	-9.87633
留得	-9.87642
玉樹	-9.87643
颭	-9.87672
寄與	-9.87819
十六字	-9.8785
年來	-9.87909
玉鈎	-9.87934
西子	-9.87975
飛瓊	-9.88063
人意	-9.88152
張元幹	-9.88191
五首	-9.88196
兔	-9.88203
超	-9.88204
个	-9.88205
一生	-9.88205
馥	-9.88239
孫光憲	-9.88242
愁絶	-9.88316
玉樓春	-9.88518
尋常	-9.88615
山色	-9.8866
庚	-9.88701
乙	-9.8874
痴	-9.88818
天公	-9.88881
昇平	-9.88882
来時	-9.88904
司馬	-9.88936
畫屏	-9.89024
不足	-9.89031
一闋	-9.89062
累	-9.89256
跳	-9.89277
優	-9.89283
惠	-9.8932
猶記	-9.8936
壇	-9.89365
窩	-9.89434
工夫	-9.89462
溪橋	-9.89467
紅日	-9.8952
江東	-9.89583
燕語	-9.89729
送春	-9.89795
碧天	-9.89798
柯	-9.89816
煙波	-9.89824
兄	-9.89857
卓	-9.89938
蔣	-9.89946
榻	-9.8996
酴醿	-9.89963
苞	-9.8997
壮	-9.89986
西廂	-9.9002
兩兩	-9.9007
無聲	-9.90343
僕	-9.9046
店	-9.90479
蕉	-9.90523
浪淘沙	-9.90524
亞	-9.90526
婆娑	-9.90535
瀉	-9.90544
眺	-9.90554
人物	-9.90572
杳杳	-9.90604
後段第二句	-9.90666
後段第	-9.90686
纎手	-9.90747
二體	-9.90882
與君	-9.90972
作平	-9.91025
横斜	-9.91037
申	-9.91047
茂	-9.91072
慮	-9.91138
玄	-9.91168
趙彦端	-9.91176
遊人	-9.91186
洞房	-9.91202
鏡裏	-9.91217
自號	-9.91296
)○	-9.91303
人逺	-9.91315
大夫	-9.91366
典	-9.91604
尹	-9.91625
維	-9.91672
畢竟	-9.917
謁金門	-9.91707
醑	-9.9171
耀	-9.91723
麟	-9.91754
去後	-9.91761
人靜	-9.91814
如畫	-9.91869
平沙	-9.9201
湖山	-9.92046
馬嘶	-9.9219
檢	-9.92215
稿	-9.92217
唇	-9.92297
檣	-9.92298
閃	-9.92302
役	-9.92311
雛	-9.92325
混	-9.92328
不敢	-9.92333
杜安世	-9.92352
何限	-9.92359
浥	-9.92359
閬苑	-9.9236
青門	-9.92383
生涯	-9.92394
欽定四庫全書	-9.92406
錦瑟	-9.92464
昨	-9.92507
片片	-9.92675
愁人	-9.92696
賺	-9.92841
禪	-9.92854
驪	-9.92885
蓬莱	-9.92915
几	-9.92916
眷	-9.92926
早是	-9.92964
休問	-9.92971
良辰	-9.92989
春雨	-9.93
亦有	-9.93005
段各四句	-9.93037
甚麽	-9.93051
仙子	-9.93098
去也	-9.93187
未成	-9.93205
倚樓	-9.93294
前結	-9.93422
築	-9.93459
四十	-9.93491
汚	-9.93506
好事	-9.93517
乖	-9.93528
翰林	-9.93532
白玉	-9.93533
暢	-9.93534
臙脂	-9.93563
無恙	-9.93565
歡娛	-9.9367
時時	-9.93782
韶	-9.93783
武陵	-9.93853
迹	-9.93856
清夜	-9.9387
重九	-9.93874
執	-9.94056
絡	-9.9409
爽	-9.94095
皋	-9.94103
倍	-9.94125
腦	-9.94133
欣	-9.94135
葩	-9.94139
揉	-9.94151
金盞	-9.94166
瓢	-9.94168
欹枕	-9.94281
有意	-9.94395
風波	-9.94454
甚時	-9.9449
十四	-9.94499
備	-9.94524
教我	-9.94547
羅帶	-9.94553
凝望	-9.94568
陸游	-9.94639
斷雲	-9.94658
悟	-9.94667
示	-9.94676
舊恨	-9.94712
攪	-9.94755
鳬	-9.94757
姜	-9.94762
鳩	-9.94767
珊瑚	-9.94778
嚲	-9.94781
柰	-9.94788
拗	-9.94799
皎	-9.948
如雪	-9.94801
好事近	-9.94829
兩行	-9.94833
沈沈	-9.95034
釵頭	-9.95045
秋月	-9.95067
老矣	-9.95083
詞同惟	-9.95117
鷓鴣	-9.95127
一朶	-9.95162
八十	-9.9521
歐陽修	-9.95217
沉醉	-9.95238
丙	-9.95284
葛	-9.95296
顦顇	-9.95354
弦	-9.95443
客裏	-9.95478
月照	-9.95645
不必	-9.95661
朝來	-9.95763
么篇	-9.95789
萬種	-9.95817
鏡中	-9.95822
從容	-9.95865
連環	-9.95923
繩	-9.9594
相如	-9.9597
寄語	-9.95976
十載	-9.95983
斧	-9.95988
寢	-9.95989
歌之	-9.96011
紅袖	-9.96019
踪	-9.96025
碾	-9.96039
冷清清	-9.9604
留住	-9.96151
浩	-9.96276
幽恨	-9.96338
調名	-9.96391
登髙	-9.96405
禄	-9.96566
摩	-9.96569
蘓	-9.96607
脉脉	-9.96616
菜	-9.9662
单	-9.96648
脈脈	-9.96649
竹枝	-9.96654
𫾣	-9.96661
人世	-9.96756
團扇	-9.96759
隨風	-9.96868
更那堪	-9.96963
留春	-9.97014
金風	-9.97048
與後	-9.97149
紈	-9.97183
棠	-9.97193
嘲	-9.97205
帖	-9.97215
山川	-9.97249
因此上	-9.97312
幾回	-9.97408
傷情	-9.97446
一調	-9.97448
河漢	-9.97456
何䖏	-9.97493
音書	-9.97566
記取	-9.97729
阮	-9.97775
幾多	-9.97781
他年	-9.9784
長江	-9.97873
宦	-9.97883
生香	-9.97896
風清	-9.97968
黄菊	-9.97974
醉中	-9.9798
翠被	-9.98025
清淺	-9.9808
春睡	-9.98082
誰能	-9.98102
不動	-9.98123
千丈	-9.98158
孤負	-9.98185
不識	-9.98201
芳信	-9.98334
呂	-9.98372
風情	-9.98383
罪	-9.98427
頰	-9.98443
綠楊	-9.98484
离	-9.98504
詩云	-9.98504
倚䦨干	-9.98553
合歡	-9.98583
靠	-9.98583
小園	-9.98616
半掩	-9.98672
啼鳥	-9.98702
添一字	-9.98706
無多	-9.98758
㡬許	-9.98768
重簾	-9.98795
曉風	-9.98965
清秋	-9.98967
相同	-9.99034
舜	-9.99107
違	-9.99141
婆	-9.99165
包	-9.99173
渺渺	-9.99177
𫀆	-9.99218
幌	-9.9922
番	-9.9927
皓	-9.99284
黃昏	-9.99315
平蕪	-9.99349
一寸	-9.99419
鶯語	-9.99463
連天	-9.99521
眉黛	-9.99525
眸	-9.99553
不妨	-9.99599
車馬	-9.99607
花梢	-9.99607
賀鑄	-9.99615
晩來	-9.99637
熊	-9.99722
千秋	-9.99723
弔	-9.99724
對酒	-9.99727
欄干	-9.99741
栁絮	-9.99752
重到	-9.99762
寜	-9.99774
黍	-9.99787
遼	-9.99787
舫	-9.99796
魂夢	-9.99808
潑	-9.99809
蜜	-9.99821
彫	-9.99859
新水令	-9.9992
不起	-9.99963
江城	-10.0001
天寒	-10.0003
小桃	-10.0008
羅幃	-10.0017
是處	-10.0022
削	-10.0023
桃葉	-10.0025
惜花	-10.0026
香車	-10.0027
有恨	-10.0029
周紫芝	-10.0029
小桃紅	-10.003
晦	-10.004
務	-10.0042
張詞	-10.0042
黏	-10.0042
詩話	-10.0042
萋萋	-10.0045
尋思	-10.0046
入聲	-10.0047
髙觀國	-10.0047
百尺	-10.0078
溶溶	-10.0079
柔腸	-10.0082
烟水	-10.0086
池上	-10.0096
紹興	-10.0098
雨餘	-10.0099
丈	-10.0103
併	-10.0104
笳	-10.0109
秋波	-10.0109
㦸	-10.011
幔	-10.0113
淑	-10.0114
陳迹	-10.0115
郞	-10.0116
雨後	-10.0119
溪上	-10.0124
素娥	-10.0129
心頭	-10.0134
萬㸃	-10.0135
聲斷	-10.0142
江天	-10.0145
得意	-10.0155
粉面	-10.0155
杜詩	-10.0161
簾影	-10.0164
勿	-10.0166
慰	-10.0171
踏莎行	-10.0171
庾	-10.0173
互	-10.0174
㝎	-10.0176
二十四	-10.0176
巵	-10.0176
觥	-10.0176
靚	-10.0179
收拾	-10.0182
花謝	-10.0183
長記	-10.0184
玉容	-10.0189
細細	-10.0193
朱門	-10.0193
生日	-10.0197
凭䦨	-10.0208
凭欄	-10.0213
月影	-10.0217
春信	-10.0219
上元	-10.0229
誰共	-10.0233
振	-10.0237
幹	-10.0238
徽	-10.0239
心期	-10.024
扉	-10.024
秪	-10.0247
漁家傲	-10.0247
洞天	-10.0251
白石	-10.0258
老人	-10.0258
梨	-10.0265
一雙	-10.0271
相望	-10.028
月夜	-10.028
謫	-10.0284
做了	-10.0293
望中	-10.0297
星星	-10.0299
熙	-10.0299
還又	-10.0302
長空	-10.0304
須信	-10.0305
崔	-10.0305
可以	-10.0306
替	-10.0306
感皇恩	-10.0307
戎	-10.0309
漁樵	-10.0311
淂	-10.0311
碩	-10.0313
次第	-10.0316
雲間	-10.0316
斜暉	-10.0317
蟹	-10.0318
鉛華	-10.032
白鷺	-10.0322
千山	-10.0325
醉眼	-10.0344
為主	-10.0344
孤鴻	-10.0344
後段第三句	-10.0345
斷橋	-10.0353
飄飄	-10.0354
煙樹	-10.0368
横笛	-10.037
乱	-10.037
粟	-10.0371
著意	-10.0372
啓	-10.0372
茸	-10.0379
喜遷鶯	-10.0379
行客	-10.0381
那里	-10.0385
隱隱	-10.0386
夭桃	-10.039
幽夢	-10.0391
夜半	-10.0394
人知	-10.0401
黄鍾	-10.0414
空自	-10.0421
馬上	-10.0429
縱有	-10.0431
千縷	-10.0431
姚	-10.0432
幾日	-10.0434
裂	-10.0435
孔	-10.0435
禹	-10.044
袁	-10.0445
蔡伸	-10.0447
頃	-10.0448
的我	-10.0452
一庭	-10.0462
起舞	-10.0464
兒女	-10.0464
不怕	-10.0466
生怕	-10.0471
不來	-10.0474
可仄	-10.0476
唐人	-10.0483
風細	-10.0487
説與	-10.0488
萬縷	-10.0491
後人	-10.0494
晏殊	-10.0496
所作	-10.0497
兹	-10.0504
不合	-10.0507
證	-10.051
薄情	-10.051
握	-10.0512
董	-10.0513
恠	-10.0513
鳳凰	-10.0513
篁	-10.0514
橙	-10.0516
新妝	-10.0517
趙師俠	-10.0517
攅	-10.0518
單調	-10.0518
緑水	-10.0519
晝永	-10.052
採蓮	-10.0522
兩平韻	-10.0523
銀蟾	-10.0526
伴侣	-10.0527
無據	-10.0529
不的	-10.0532
關山	-10.0548
看看	-10.0554
說與	-10.0555
幾㸃	-10.0555
簫鼓	-10.0561
只在	-10.057
一霎	-10.0571
金尊	-10.0571
操	-10.0576
濺	-10.0577
劇	-10.0578
榆	-10.0579
三山	-10.0579
勤	-10.058
拭	-10.0581
醜	-10.0581
鄊	-10.0582
冤家	-10.0585
覺來	-10.0588
東流	-10.0591
沽酒	-10.0596
奈何	-10.0596
上林	-10.0598
絃管	-10.0607
落葉	-10.0608
依前	-10.0611
三十六	-10.062
是也	-10.0621
月底	-10.0628
懐古	-10.0629
楽	-10.0641
電	-10.0644
審	-10.0644
涵	-10.0644
衢	-10.0644
盆	-10.0647
烈	-10.0648
菊花	-10.065
香銷	-10.065
杪	-10.0651
蘿	-10.0651
攬	-10.0651
慳	-10.0652
未知	-10.0657
瑶琴	-10.0661
起來	-10.0664
流霞	-10.0665
是非	-10.0666
拾	-10.0668
有感	-10.0669
栁絲	-10.0669
前歡	-10.0673
心上	-10.0673
又云	-10.0673
遺恨	-10.0674
最苦	-10.0675
對景	-10.0686
也是	-10.0693
心兒	-10.0698
長短句	-10.0704
歐	-10.0705
知否	-10.0709
拙	-10.0715
花信	-10.0722
凝眸	-10.0724
開時	-10.0724
罩	-10.0725
樓頭	-10.0727
蟠桃	-10.0727
認得	-10.0728
别恨	-10.0733
何用	-10.0744
人道	-10.0744
佳節	-10.0747
花外	-10.0748
不曽	-10.0749
寸心	-10.0752
千頃	-10.0755
二月	-10.0763
只是	-10.0763
古人	-10.0767
子野	-10.0772
簫聲	-10.0777
好在	-10.0778
山水	-10.078
職	-10.0781
纓	-10.0785
漏聲	-10.0786
簿	-10.0788
璫	-10.0788
紅粧	-10.0789
亂山	-10.0797
隠隠	-10.0797
荷葉	-10.0804
梅子	-10.0806
斜月	-10.0806
箔	-10.0806
清淚	-10.0807
横塘	-10.0808
照人	-10.0813
十一	-10.0813
向晚	-10.0813
因甚	-10.0814
過雨	-10.0817
山河	-10.0817
五雲	-10.0817
宣和	-10.082
三五	-10.0823
雪裏	-10.0824
白蘋	-10.0827
詞中	-10.0837
段八句	-10.0849
羅裙	-10.0853
激	-10.0853
修竹	-10.0853
橈	-10.0854
鈴	-10.0854
鼻	-10.0855
濯	-10.0855
温庭筠	-10.0856
材	-10.0856
綸	-10.0857
魔	-10.0859
肅	-10.0859
儔	-10.0859
滄浪	-10.086
撼	-10.0861
闗山	-10.0861
棊	-10.0861
脆	-10.0862
朗	-10.0864
興亡	-10.087
難留	-10.0874
字平	-10.0878
音律	-10.0879
待得	-10.088
消遣	-10.0882
自然	-10.0906
病酒	-10.0915
清絶	-10.0918
愈	-10.0918
幄	-10.0919
牧	-10.092
逍遥	-10.0921
那人	-10.0924
竊	-10.0925
晴空	-10.0928
抽	-10.0928
溫	-10.0933
搔首	-10.0934
痛飲	-10.0938
羅袖	-10.0946
妨	-10.0948
旗亭	-10.0958
春晚	-10.0959
此去	-10.0981
玉骨	-10.0982
一去	-10.0982
晏幾道	-10.0983
未必	-10.0986
飛過	-10.0989
春来	-10.0989
字句	-10.0992
各家	-10.0995
鵞	-10.0998
慈	-10.0998
香閨	-10.0998
葦	-10.1
綢繆	-10.1
煎	-10.1001
無緒	-10.1002
脣	-10.1003
蠶	-10.1003
蘚	-10.1004
呉文英	-10.1006
增	-10.1009
徵	-10.1011
撩亂	-10.1013
遲遲	-10.1015
莫教	-10.1017
太守	-10.1019
沉香	-10.1025
仙家	-10.1027
遊絲	-10.1036
字俱	-10.1042
五十字	-10.1043
吏	-10.1044
從此	-10.1047
朔	-10.1048
難禁	-10.1048
梅香	-10.1054
砧	-10.1064
樓閣	-10.1068
浣	-10.1071
荘	-10.1074
沐	-10.1074
𬗋	-10.1076
五十	-10.1077
耿耿	-10.1079
閒情	-10.1081
吕渭老	-10.1084
初試	-10.1086
一川	-10.1095
丁香	-10.1098
小小	-10.1099
換頭句	-10.1103
仙人	-10.1104
此亦與	-10.1106
為之	-10.1107
吹笛	-10.1108
小令	-10.1116
腕	-10.1125
上聲	-10.1136
隆	-10.114
時有	-10.114
玉壺	-10.114
瀾	-10.1144
漿	-10.1145
生查子	-10.1146
躭	-10.1146
張子野	-10.1146
擡	-10.1148
譙	-10.1148
緘	-10.1155
前段第二句	-10.1176
見他	-10.1184
兩結	-10.1185
第九句	-10.1185
在否	-10.1187
看取	-10.1189
不去	-10.1195
六十	-10.1199
粉香	-10.1202
山下	-10.1205
樞	-10.121
此體	-10.1211
夭	-10.1211
襪	-10.1211
攤破	-10.1213
餘音	-10.1214
鼇	-10.1218
卸	-10.1221
軆	-10.1222
良夜	-10.1222
遥山	-10.1222
一百十	-10.1222
第四	-10.1229
詩酒	-10.1229
滿庭	-10.1232
薰風	-10.124
留不住	-10.1241
蹤跡	-10.1243
小雨	-10.1248
押韻	-10.1249
風絮	-10.1257
莫惜	-10.1258
詩人	-10.1263
情懷	-10.1264
其餘	-10.1267
帶雨	-10.1269
新晴	-10.1275
毅	-10.1276
達	-10.1281
字仄	-10.1281
株	-10.1281
遵	-10.1285
蚤	-10.1288
場	-10.1293
墙	-10.1297
海上	-10.1299
攘	-10.1301
誰是	-10.1301
梅梢	-10.1302
絲絲	-10.1303
髙歌	-10.1305
怎禁	-10.1306
相遇	-10.1308
橋邊	-10.1309
詞律	-10.131
舊曲	-10.1312
不比	-10.1312
爐香	-10.1313
尚有	-10.1316
今生	-10.1318
掩映	-10.1324
三體	-10.1324
此地	-10.1332
頭上	-10.1333
小閣	-10.1335
高樓	-10.1338
竚立	-10.134
制	-10.134
早梅	-10.1341
一尊	-10.1345
不叶	-10.1348
雲散	-10.1348
人何處	-10.1349
不相	-10.1355
六么	-10.1356
三分	-10.1358
渾似	-10.1359
樊	-10.1359
敧	-10.1366
曳	-10.1366
之類	-10.1367
扣	-10.1367
霏霏	-10.1369
净	-10.137
摇	-10.1371
夜長	-10.1373
榴花	-10.1375
清光	-10.138
蜂蝶	-10.1382
人散	-10.1394
月冷	-10.1395
光景	-10.1396
望極	-10.1399
之句	-10.14
西東	-10.1401
十九	-10.1401
隋	-10.1411
不放	-10.1419
金谷	-10.142
阿誰	-10.1424
浮生	-10.1427
炊	-10.1433
慕	-10.1438
南鄉子	-10.144
寡	-10.1441
旌旗	-10.1442
點絳唇	-10.1443
椒	-10.1445
鑪	-10.1446
知何處	-10.1446
羅襪	-10.1448
棋	-10.1449
相將	-10.145
廣寒	-10.145
層樓	-10.1459
本是	-10.146
天逺	-10.1482
丞	-10.1484
白頭	-10.1486
統	-10.1487
衍	-10.15
春日	-10.1502
鹽	-10.1505
才子	-10.1509
位	-10.151
也應	-10.151
俯	-10.1512
礙	-10.1515
截	-10.1515
馬蹄	-10.1518
翔	-10.152
蜨	-10.1522
救	-10.1522
若是	-10.1523
飛上	-10.1527
二詞	-10.1546
啼痕	-10.1547
新粧	-10.1548
化作	-10.1551
誰道	-10.1562
一陣	-10.1564
中原	-10.1565
宰	-10.1568
詩句	-10.1574
齡	-10.1576
長恨	-10.158
佐	-10.1585
漪	-10.1587
髯	-10.1589
卜算子	-10.159
域	-10.159
耗	-10.1592
溝	-10.1595
貯	-10.1596
數枝	-10.1599
封侯	-10.1601
楊澤民	-10.1601
素手	-10.1604
文君	-10.1607
模様	-10.1609
夢到	-10.162
聚散	-10.1622
巳刻	-10.1623
來去	-10.1624
明珠	-10.1625
銀漢	-10.1629
讀書	-10.1632
孤舟	-10.1646
道中	-10.1648
柴門	-10.1652
前事	-10.1653
杭	-10.1654
李白	-10.166
賸	-10.1666
宸	-10.1666
串	-10.1668
揷	-10.1668
一帶	-10.1669
王沂孫	-10.167
頼	-10.1671
灯	-10.1671
身在	-10.1671
鏤	-10.1672
控	-10.1673
菱	-10.1677
氊	-10.1678
孤城	-10.1689
金井	-10.1691
鶯燕	-10.1696
解語	-10.1716
則是	-10.1721
欽定四庫全書御選歴代詩餘巻	-10.1728
之詞	-10.1728
脩	-10.1735
不應	-10.1737
渭	-10.1737
蛇	-10.1739
澆	-10.1742
餅	-10.1744
是箇	-10.1747
曙	-10.1747
虧	-10.1749
蔣捷	-10.175
詞可校	-10.1751
到處	-10.1752
雙調九	-10.1753
忘却	-10.1757
歡笑	-10.176
畫閣	-10.1761
只為	-10.1764
東山	-10.1765
㫁腸	-10.1765
西風吹	-10.1765
香雪	-10.1781
雙調七	-10.1784
秋思	-10.1796
長相思	-10.1796
深夜	-10.1799
心緒	-10.1807
詞同惟前段	-10.1811
綺羅	-10.1815
器	-10.1815
茫	-10.1817
如舊	-10.1818
佳處	-10.1818
鬱	-10.1819
演	-10.182
顏	-10.182
軸	-10.1821
劣	-10.1821
隙	-10.1822
賊	-10.1822
醖	-10.1823
姝	-10.1823
嶂	-10.1824
韋莊	-10.1827
花草粹編	-10.1828
冲	-10.1833
名利	-10.1836
想見	-10.1865
雲外	-10.1865
廣寒宫	-10.1871
一似	-10.1881
詞前段	-10.1884
男	-10.1884
秋夜	-10.1886
央	-10.1888
鱸	-10.1891
昨日	-10.1892
䕃	-10.1896
青玉案	-10.1897
雙調六	-10.1897
此曲	-10.1898
紅綃	-10.1898
僊	-10.1898
歐陽	-10.1899
霓	-10.19
鞵	-10.1902
魚龍	-10.1903
錦繡	-10.1903
峽	-10.1904
驢	-10.1905
蝉	-10.1907
葵	-10.1908
正好	-10.1909
兩岸	-10.191
裊裊	-10.1911
有酒	-10.1912
水晶	-10.1915
氷肌	-10.1917
瀟瀟	-10.1942
屏風	-10.1956
髙唐	-10.1962
有誰知	-10.1962
未足	-10.1963
㫖	-10.1973
浙	-10.1973
𦂳	-10.1973
粲	-10.1975
對花	-10.1976
戚	-10.1981
蛟	-10.1981
訴衷情	-10.1983
瓊花	-10.1988
藕花	-10.199
耍	-10.1991
紈扇	-10.1994
再不	-10.1998
人語	-10.1999
翠羽	-10.2
斜照	-10.2012
道人	-10.2013
水調	-10.2018
清溪	-10.2022
玉肌	-10.2023
可堪	-10.2024
多一字	-10.2026
未有	-10.2026
惜春	-10.2033
風急	-10.2036
漸覺	-10.2039
未醒	-10.204
淵	-10.2045
紅牙	-10.2046
訂	-10.2049
亮	-10.2052
翠屏	-10.2053
月落	-10.2054
專	-10.2055
撩	-10.2056
汴	-10.2057
叙	-10.2057
竝	-10.2058
谿	-10.2059
笻	-10.206
留戀	-10.206
甕	-10.2062
暎	-10.2062
羈	-10.2063
沸	-10.2063
鯉	-10.2063
不及	-10.2065
凉生	-10.2067
猶是	-10.2068
一派	-10.2076
探春	-10.2077
池館	-10.209
只愁	-10.2091
櫻	-10.2094
捲簾	-10.2095
漫漫	-10.2095
錦堂	-10.2095
沉吟	-10.2108
家山	-10.2111
何處是	-10.2112
風起	-10.2118
和風	-10.2122
箇人	-10.2129
歌扇	-10.2129
畫圖	-10.2129
擅	-10.213
斛	-10.2131
多才	-10.2131
驕	-10.2131
纎纎	-10.2133
櫓	-10.2133
岡	-10.2137
隐	-10.2137
綱	-10.2138
鉄	-10.2139
千般	-10.2139
山林	-10.214
剔	-10.214
留取	-10.2144
啇	-10.2144
晚來	-10.2145
段七句	-10.2146
減一字	-10.2151
堪憐	-10.2152
兩箇	-10.2153
蘭麝	-10.2155
私語	-10.2159
歸鴻	-10.2162
烟波	-10.2164
次句	-10.2168
賞心	-10.2178
莫問	-10.2181
歸舟	-10.2186
蘭堂	-10.2187
明皇	-10.2188
日髙	-10.2188
年光	-10.219
丞相	-10.2191
莫不是	-10.2196
中酒	-10.2198
别是	-10.2201
寳釵	-10.2206
屑	-10.2209
衛	-10.2211
金波	-10.2214
上下	-10.2217
左右	-10.2219
詩餘	-10.2221
窟	-10.2221
策	-10.2222
雲屏	-10.2223
暗想	-10.2223
嗅	-10.2223
縠	-10.2224
媒	-10.2224
滚綉毬	-10.2227
十句	-10.2228
雙蛾	-10.2228
過盡	-10.2236
江城子	-10.2239
瘦損	-10.2244
簾垂	-10.2244
無寐	-10.2247
又有	-10.2247
隂隂	-10.225
不歸	-10.2266
不許	-10.2273
飄香	-10.2277
舊約	-10.2283
輕風	-10.2283
殘花	-10.2291
傑	-10.2293
天教	-10.2295
舡	-10.2297
棟	-10.2297
從頭	-10.2299
香肌	-10.2299
簌簌	-10.23
鵲橋仙	-10.2301
凝佇	-10.2302
毛文錫	-10.2306
天台	-10.231
無塵	-10.2311
歸夢	-10.232
到此	-10.2322
一塲	-10.2324
聲裏	-10.2328
人人	-10.2331
二年	-10.2333
歌罷	-10.2336
不在	-10.2338
幽人	-10.2339
傾城	-10.2342
倚䦨	-10.2352
孤村	-10.2354
榴	-10.2356
孤眠	-10.2358
想着	-10.2364
六句	-10.2368
勁	-10.2376
忺	-10.2377
沿	-10.2378
按此調	-10.2378
茗	-10.2378
殷	-10.2379
鯨	-10.2379
嗚咽	-10.2379
筍	-10.238
智	-10.2382
蒹葭	-10.2382
躍	-10.2384
綘	-10.2386
赤壁	-10.2386
新恨	-10.2386
罵	-10.2388
錦屏	-10.2394
撞	-10.2394
柴	-10.2399
人面	-10.2412
芳意	-10.242
春又	-10.2425
好花	-10.2427
重疊	-10.2428
舊歡	-10.2429
花月	-10.2429
偏宜	-10.2437
謂之	-10.2439
香羅	-10.2444
談笑	-10.2446
此句	-10.2451
焚	-10.2457
尽	-10.246
克	-10.246
播	-10.2463
丸	-10.2464
叮嚀	-10.2464
彷彿	-10.2465
悲秋	-10.2468
三徑	-10.247
懊惱	-10.2471
無别首可校	-10.2473
㡬畨	-10.2475
嬉遊	-10.2479
月中	-10.248
前調晏幾道	-10.2492
相宜	-10.2495
殘陽	-10.2498
只怕	-10.2501
詞亦	-10.2503
易老	-10.2505
酒旗	-10.2505
鸞鏡	-10.251
一江	-10.2515
諸公	-10.2516
十五字	-10.2528
着這	-10.253
黄鶴	-10.2538
邪	-10.254
晋	-10.2541
介	-10.2541
碑	-10.2543
元好問	-10.2543
套	-10.2544
模	-10.2545
離思	-10.2545
檜	-10.2545
閲	-10.2546
狐	-10.2547
鄧	-10.2547
禍	-10.2547
闘	-10.2548
湖光	-10.2548
經局洗馬掌局事兼翰林院修撰加二級	-10.2549
丰	-10.255
憶秦娥	-10.2551
鍼	-10.2552
醫	-10.2552
榜	-10.2552
旖旎	-10.2555
膓	-10.2557
蘭橈	-10.256
梢頭	-10.2562
臺榭	-10.2565
攀折	-10.2567
殺人	-10.2577
一様	-10.2577
碧玉	-10.2577
情味	-10.2591
不載	-10.2596
蓼	-10.261
咸	-10.2611
畫簾	-10.2617
萬古	-10.262
情多	-10.2621
晚風	-10.2623
燕燕	-10.2625
賤	-10.2626
財	-10.2628
熈	-10.2629
南歌子	-10.263
遐	-10.263
餐	-10.263
稠	-10.2632
葉夢得	-10.2633
綾	-10.264
烟樹	-10.2648
千樹	-10.2651
瓊枝	-10.2655
角聲	-10.2658
羣芳	-10.2662
此日	-10.268
畫眉	-10.2681
東南	-10.2686
襟袖	-10.2687
殘燈	-10.2693
近日	-10.2694
某	-10.27
淳	-10.2704
人未	-10.2704
俞	-10.2706
張孝祥	-10.2713
齊天樂	-10.2714
妄	-10.2715
謹	-10.2716
膝	-10.2717
己	-10.2717
逹	-10.2718
爇	-10.2719
字字	-10.272
掉	-10.272
葫蘆	-10.2721
醺醺	-10.2723
詞同惟前	-10.2725
蕭條	-10.2726
照影	-10.2727
懷抱	-10.2732
感舊	-10.2739
問誰	-10.2752
十六	-10.2757
千尺	-10.276
化工	-10.2763
天生	-10.2764
勸君	-10.2767
醪	-10.2768
香滿	-10.2769
巫	-10.2772
斜倚	-10.2776
玉山	-10.2781
殘雪	-10.2782
清影	-10.2784
愁緒	-10.2784
雨聲	-10.2787
金盤	-10.279
不負	-10.2793
愧	-10.2796
輔	-10.2796
薛	-10.2797
衮	-10.2799
搗	-10.2804
貂裘	-10.2805
茅屋	-10.2805
顧夐	-10.2806
緫	-10.2807
嫋嫋	-10.2807
中興	-10.2809
醸	-10.2811
誰信	-10.2811
好是	-10.2827
欲寄	-10.2832
雲收	-10.2833
流蘇	-10.2836
河橋	-10.2843
不為	-10.2845
作六字	-10.2847
真珠	-10.2849
彼	-10.2858
成陣	-10.2859
人不見	-10.2864
又見	-10.2867
暮天	-10.2869
細看	-10.2876
何曽	-10.2877
嚼	-10.2886
摸魚兒	-10.2886
飾	-10.2887
檀板	-10.2894
不與	-10.2897
阮亭	-10.2898
綽約	-10.29
方寸	-10.2904
遲留	-10.2905
芳樹	-10.2912
趙詞	-10.2913
凭闌	-10.2915
隴頭	-10.2917
殘粧	-10.2924
漏永	-10.2933
莫放	-10.2936
唯	-10.2943
沙鷗	-10.295
華堂	-10.2954
相伴	-10.2959
像	-10.2961
閨情	-10.2966
玉露	-10.297
清商	-10.2971
芳容	-10.2974
逝	-10.2974
醅	-10.2975
肝	-10.2975
李清照	-10.2975
向誰	-10.2975
向子諲	-10.2976
壚	-10.2977
汎	-10.2979
件	-10.298
縞	-10.298
苗	-10.2982
剩	-10.2983
連雲	-10.2984
天邊	-10.2988
此篇	-10.2989
團圓	-10.2991
飛鴻	-10.2992
淒凉	-10.2994
金錢	-10.3001
俺這	-10.3005
漸老	-10.301
滿路	-10.3033
知我	-10.3035
危樓	-10.3043
靖	-10.3047
小異	-10.3051
千門	-10.3053
相送	-10.3058
資	-10.3058
最是	-10.3061
吳子孝	-10.3061
絆	-10.3062
㓕	-10.3063
戍	-10.3064
鵬	-10.3065
還似	-10.3065
醉後	-10.3065
目送	-10.3066
殘春	-10.3066
簧	-10.3068
嬌羞	-10.3072
倘秀才	-10.3072
南柯	-10.3079
我則見	-10.3081
幽怨	-10.3086
牆頭	-10.3087
送君	-10.3091
應難	-10.3101
此詞前後段	-10.3101
兒童	-10.3102
天風	-10.3105
拾翠	-10.311
為伊	-10.3121
貞	-10.3142
淡烟	-10.3144
釋	-10.3146
軰	-10.3147
清江	-10.3148
岑	-10.315
勇	-10.3151
冝	-10.3153
准	-10.3155
華胥	-10.3158
三弄	-10.3165
敗葉	-10.3171
前段起句	-10.3182
青絲	-10.3182
風度	-10.3182
此生	-10.3188
除是	-10.3189
秋意	-10.319
深閉	-10.3191
三四	-10.3193
葉葉	-10.3194
此即	-10.3202
寂寥	-10.3206
對月	-10.321
段六句	-10.3213
雲飛	-10.3218
不記	-10.3225
人不	-10.3226
一盃	-10.3227
聴的	-10.323
鑿	-10.3234
割	-10.3237
寅	-10.3237
粗	-10.3237
槳	-10.3238
飢	-10.3238
啟	-10.324
充	-10.324
消瘦	-10.324
侶	-10.3243
更漏	-10.3243
纏	-10.3244
嚢	-10.3246
寒輕	-10.3246
標格	-10.325
漬	-10.325
深意	-10.3251
笙簫	-10.3253
句七字	-10.3254
横波	-10.3256
相随	-10.3258
空山	-10.3258
難尋	-10.326
單衣	-10.3264
近來	-10.3265
曲名	-10.3266
疎狂	-10.3272
竒絶	-10.3277
青雲	-10.3282
平安	-10.3284
笑我	-10.3284
金鴨	-10.3286
一身	-10.3292
登樓	-10.3296
紅雨	-10.3302
繡被	-10.3306
倩誰	-10.3308
塵世	-10.3312
舊愁	-10.3317
紅妝	-10.3318
未歸	-10.3319
彌	-10.332
葉底	-10.3322
庶	-10.3324
髣髴	-10.3325
黑	-10.3328
垂垂	-10.3328
廣陵	-10.3328
掬	-10.333
彤	-10.3332
此夜	-10.3333
縫	-10.3334
李珣	-10.3334
飬	-10.3334
兠	-10.3335
掲	-10.3336
少游	-10.3337
画堂	-10.334
爛漫	-10.3346
朱戸	-10.3346
星斗	-10.335
春晩	-10.3353
無意	-10.3364
春宵	-10.3374
紅衣	-10.3374
溪邊	-10.3377
怎得	-10.3379
籟	-10.3387
作四字	-10.339
兩仄韻	-10.3393
也曽	-10.3394
春深	-10.3399
漢宫	-10.3403
除非	-10.3403
清真	-10.3404
大家	-10.3406
綽	-10.341
兄弟	-10.3411
幼	-10.3412
埃	-10.3412
巨	-10.3413
一樹	-10.3413
書生	-10.3413
墓	-10.3415
甃	-10.342
擘	-10.342
麓	-10.3421
麈	-10.3422
小重山	-10.3422
迅	-10.3423
李之儀	-10.3424
陂	-10.3424
股	-10.3424
滯	-10.3425
肚	-10.3427
辜	-10.3428
新凉	-10.3428
無路	-10.3429
桂花	-10.3429
不信	-10.3431
姑射	-10.3432
浩然	-10.3433
雨中花	-10.3433
曉寒	-10.3439
可知	-10.344
之曰	-10.3448
明滅	-10.3453
風塵	-10.3465
情意	-10.3467
乳燕	-10.3468
子弟	-10.3469
竹外	-10.3473
行處	-10.3482
和凝	-10.3484
無此	-10.3485
沉水	-10.3489
滄	-10.3495
石孝友	-10.35
諸家	-10.3502
人有	-10.3505
鬢雲	-10.3505
集中	-10.3509
賖	-10.351
廂	-10.351
率	-10.351
淚滴	-10.351
挼	-10.3511
訝	-10.3511
幻	-10.3511
糢糊	-10.3512
往來	-10.3513
謙	-10.3513
集賢賔	-10.3517
馭	-10.3519
驀山溪	-10.3519
騰騰	-10.352
一襟	-10.3521
栁耆卿	-10.3523
紅燭	-10.3523
萬斛	-10.3525
楊妃	-10.3527
且住	-10.3527
於此	-10.3529
銀瓶	-10.353
無消息	-10.3532
坐中	-10.3539
魂銷	-10.3547
壽陽	-10.3549
凝碧	-10.3557
殘夢	-10.3559
老來	-10.3566
句名	-10.3568
羅衫	-10.3572
珠箔	-10.3579
金爐	-10.358
春景	-10.358
襯字	-10.3585
花發	-10.3585
長安道	-10.3589
風物	-10.3592
斷送	-10.3596
壬	-10.3597
㪚	-10.3602
炙	-10.3604
陡	-10.3605
袁去華	-10.3608
煮	-10.3608
柔情	-10.3608
軃	-10.3609
曠	-10.3609
露濕	-10.3613
􁱷	-10.3613
一線	-10.3614
幾畨	-10.3615
朱扉	-10.3616
芰荷	-10.3619
春歸去	-10.3621
昭陽	-10.3624
與此同	-10.3626
有餘	-10.3628
佳麗	-10.363
天真	-10.3634
成隂	-10.3639
綠隂	-10.3645
宫殿	-10.3647
來往	-10.3654
最好	-10.3656
細草	-10.3658
同醉	-10.3659
州人	-10.3667
春到	-10.3676
魂消	-10.3683
開元	-10.3689
均	-10.3696
預	-10.3696
準	-10.3697
貢	-10.3697
邁	-10.3697
栁枝	-10.3699
巒	-10.3699
孃	-10.3699
幽獨	-10.37
僝僽	-10.3701
屛	-10.3702
揭	-10.3703
揺落	-10.3704
涴	-10.3704
山頭	-10.3705
顛倒	-10.3706
香腮	-10.3706
珂	-10.3707
黄鶯	-10.3712
那裡	-10.3717
餘寒	-10.372
紫陌	-10.3722
沾衣	-10.3726
使人	-10.3728
渡江	-10.3733
尋春	-10.3734
玉纎	-10.3737
濃香	-10.3748
踈狂	-10.375
天與	-10.3753
栁外	-10.3756
應有	-10.3756
時見	-10.3757
倚欄	-10.3762
南園	-10.3767
暗度	-10.3769
人來	-10.3769
字亦	-10.3778
香濃	-10.3779
歸後	-10.378
龍山	-10.378
流落	-10.3782
衙	-10.3788
尊酒	-10.3788
中書	-10.3793
蒸	-10.3793
瑞鶴仙	-10.3794
諳	-10.3794
楫	-10.3795
頑	-10.3796
琅玕	-10.3796
危欄	-10.3797
這些時	-10.3801
飛雪	-10.3804
倚闌	-10.3805
直到	-10.3812
與誰同	-10.3816
㸃綴	-10.3821
孤另	-10.3826
飄泊	-10.383
不待	-10.3832
今日箇	-10.3834
元夕	-10.3841
于飛	-10.3848
雙調五	-10.3862
愁眉	-10.3862
占斷	-10.3865
珍珠	-10.387
那時	-10.387
妙舞	-10.387
韓淲	-10.3872
是誰	-10.3876
圖畫	-10.3877
屠	-10.3879
楚江	-10.3882
裹	-10.3883
雙鬢	-10.3885
蓴	-10.3886
畢	-10.3887
柄	-10.3887
珠翠	-10.3888
斾	-10.3888
麒麟	-10.3888
教坊	-10.3888
一種	-10.3889
玉宇	-10.3891
夜凉	-10.3891
魁	-10.3891
凖	-10.3892
霑	-10.3892
娟娟	-10.3895
姻縁	-10.3899
團圎	-10.3901
目録	-10.3901
斷續	-10.3902
徙	-10.3904
何曾	-10.3907
肌膚	-10.3911
香冷	-10.3914
誰似	-10.3919
庭户	-10.3919
驚覺	-10.3921
髙處	-10.3924
閒却	-10.3924
山隂	-10.3925
雲鬢	-10.3927
瀟洒	-10.3929
博山	-10.393
莫待	-10.3934
弄影	-10.3936
輕衫	-10.3941
爭奈	-10.3944
雙眉	-10.3945
閉門	-10.3945
晝長	-10.3949
照水	-10.3949
餉	-10.3951
沽	-10.3972
閭	-10.3974
自憐	-10.3975
秋雨	-10.3978
西去	-10.3979
犬	-10.398
珠淚	-10.3982
滕	-10.3982
擇	-10.3983
范成大	-10.3984
誰識	-10.3986
侯寘	-10.3987
狼	-10.3987
侍兒	-10.3988
謡	-10.3988
偃	-10.3989
段各十句	-10.3991
銀缸	-10.3996
凄涼	-10.3996
倚闌干	-10.3996
雲水	-10.3998
如夢令	-10.3999
仄韻後段十一句	-10.4
段十一句	-10.4
吹落	-10.4011
以備	-10.4012
陽䑓	-10.4017
一樽	-10.4017
縱横	-10.4018
之後	-10.4018
羣仙	-10.4019
上去	-10.4025
淚濕	-10.4025
游絲	-10.4025
烏衣	-10.4032
衣裳	-10.4038
簾鈎	-10.4042
古來	-10.4043
金杯	-10.4053
從教	-10.4057
□□□□□	-10.4059
故不	-10.4061
青鳥	-10.4062
相映	-10.4064
跋	-10.4068
舊譜	-10.4068
借問	-10.4071
九重	-10.4073
半夜	-10.4074
烹	-10.4074
閩	-10.4074
頽	-10.4077
何年	-10.4077
馮延已	-10.4079
受用	-10.4079
飛入	-10.4082
曵	-10.4086
駒	-10.4087
暗塵	-10.4088
片帆	-10.409
垂虹	-10.4094
傍人	-10.4097
囬首	-10.4097
露滴	-10.4099
八句	-10.4101
纖手	-10.4104
華髪	-10.4104
謫仙	-10.411
愁來	-10.4111
春在	-10.4113
不過	-10.4115
紅蓼	-10.4116
紅淚	-10.4124
五十四字	-10.4126
諸詞	-10.4127
城頭	-10.4133
而不	-10.4136
清波	-10.4136
周郎	-10.414
林下	-10.4142
衣冠	-10.4144
行色	-10.4146
寒生	-10.4153
樓下	-10.4155
舞袖	-10.4157
相倚	-10.4157
間阻	-10.4159
瓊樓	-10.4159
為他	-10.416
青梅	-10.4161
擢	-10.4161
更無	-10.4166
肆	-10.4169
萊	-10.4172
防	-10.4175
戒	-10.4176
甞	-10.4176
吸	-10.4179
美成	-10.4179
也麽哥	-10.418
逈	-10.418
莎	-10.418
歸心	-10.418
膠	-10.4181
鱠	-10.4182
字子	-10.4182
卉	-10.4182
也有	-10.4183
慇懃	-10.4183
灩	-10.4185
苕溪	-10.4187
休休	-10.4188
潮生	-10.4188
紺	-10.4189
朱樓	-10.4191
栁色	-10.4193
傅粉	-10.4194
詞同	-10.4199
却是	-10.42
弄晴	-10.4202
雙調八	-10.4207
不老	-10.4207
不減	-10.4208
南唐	-10.4214
㱕去	-10.4218
白鷗	-10.4218
望江南	-10.422
紅豆	-10.4223
淹留	-10.4225
秋來	-10.4227
疎疎	-10.4229
臺上	-10.4232
同歡	-10.4234
纎腰	-10.4235
小池	-10.4236
眉尖	-10.4236
酒病	-10.4248
堦前	-10.4252
空有	-10.4254
怎不	-10.4259
東凨	-10.4262
難得	-10.4264
恍	-10.4268
戈	-10.4269
苕	-10.4271
正與此同	-10.4272
勲	-10.4274
奚	-10.4275
曽覿	-10.4278
通用	-10.4279
醜奴兒	-10.4279
肻	-10.428
項	-10.4281
醺	-10.4284
姜夔	-10.4284
朧	-10.4284
不由人	-10.4287
羙人	-10.4287
針線	-10.4289
雙槳	-10.429
送客	-10.429
輕别	-10.4295
梅溪	-10.4297
十七	-10.4298
三生	-10.43
如晝	-10.4301
三百	-10.4303
行行	-10.4306
南飛	-10.431
前調歐陽修	-10.4321
長笛	-10.4322
輕輕	-10.4322
太白	-10.4323
前詞	-10.4331
紅梅	-10.4333
孤燈	-10.4336
蘇小	-10.4339
見説	-10.434
夜色	-10.4343
長門	-10.4344
故鄉	-10.4347
和月	-10.4347
眼底	-10.4364
胸中	-10.4364
末句	-10.4368
晩風	-10.4369
荔	-10.4373
疏	-10.4374
歟	-10.4375
祿	-10.4376
羇	-10.4376
硬	-10.4379
綬	-10.438
如雲	-10.4381
風入松	-10.4381
迢遞	-10.4383
㝠	-10.4384
後段第四句	-10.4385
花氣	-10.4386
鸂鶒	-10.4387
兩處	-10.4388
待月	-10.4397
得似	-10.4397
將軍	-10.4402
三疊	-10.4407
十九字	-10.4408
愁多	-10.4409
無由	-10.441
誰知道	-10.441
小庭	-10.4411
隨分	-10.4412
春曉	-10.4414
此身	-10.442
堂前	-10.4421
薄命	-10.4422
展轉	-10.4429
五陵	-10.443
作五字	-10.4435
兩眉	-10.4436
離了	-10.4437
那裏	-10.4439
一色	-10.4444
池閣	-10.4444
惜别	-10.4445
啼鶯	-10.4446
以此	-10.4448
驚回	-10.4454
紫燕	-10.4458
須知	-10.4459
丹桂	-10.4461
証	-10.4462
無盡	-10.4462
笛聲	-10.4464
各自	-10.4466
倚遍	-10.4466
警	-10.4467
来到	-10.4468
刑	-10.447
芬	-10.447
芳塵	-10.4475
暁	-10.4475
遜	-10.4475
繡衾	-10.4476
􁀙	-10.4479
身世	-10.448
慚	-10.448
疉	-10.4481
山前	-10.4484
趙以夫	-10.4484
廵	-10.4484
阮郎歸	-10.4485
丹楓	-10.4485
端正好	-10.4486
倒影	-10.4488
玉釵	-10.4488
離騷	-10.4489
丁寧	-10.449
碧梧	-10.4493
長嘯	-10.4493
秋娘	-10.4499
瑤臺	-10.4501
又早	-10.4503
恁時	-10.4504
逢迎	-10.4504
者如	-10.4505
踈影	-10.4508
新緑	-10.4523
楚山	-10.4526
比前	-10.4526
俱作	-10.4529
向晩	-10.4533
一望	-10.4536
夜䦨	-10.455
輕隂	-10.4552
舟中	-10.4553
雨細	-10.4559
雨晴	-10.456
紹	-10.457
襲	-10.457
徴	-10.4572
燃	-10.4578
基	-10.4578
倫	-10.4578
驂	-10.4578
無那	-10.458
藜	-10.4581
賣花聲	-10.4581
昻	-10.4582
冥	-10.4582
飛下	-10.4583
叩	-10.4584
哥	-10.4584
豹	-10.4584
有箇	-10.4586
前度	-10.4586
欲暮	-10.4587
低垂	-10.4588
群	-10.4589
逓	-10.4589
椘	-10.459
錦綉	-10.459
秦淮	-10.4592
牌	-10.4594
中年	-10.4594
春閨	-10.4595
不押韻	-10.4596
謝逸	-10.4598
華髮	-10.4601
整頓	-10.4603
天下樂	-10.4604
玉漏	-10.4604
草色	-10.4605
金殿	-10.4609
燕飛	-10.4612
翠幙	-10.4613
繫馬	-10.4615
誰憐	-10.4615
羅帕	-10.4618
繡幃	-10.4619
走馬	-10.4619
西施	-10.462
未盡	-10.4625
歌吹	-10.4626
雨洗	-10.4627
孤館	-10.4629
家住	-10.4634
珍重	-10.4639
何况	-10.4646
金盃	-10.4648
勾引	-10.4652
添字	-10.4652
應笑	-10.4654
亦可	-10.4657
蘭亭	-10.466
規	-10.4665
立馬	-10.4667
聲中	-10.4669
于此	-10.4673
結子	-10.4674
還有	-10.4677
音塵	-10.4677
黄葉	-10.4679
汲	-10.468
暮景	-10.468
㡬箇	-10.4681
伸	-10.4681
偉	-10.4682
繋	-10.4682
創	-10.4682
重尋	-10.4684
倉	-10.4684
艤	-10.4685
菰	-10.4685
京師	-10.4686
歐陽炯	-10.4686
毒	-10.4686
垣	-10.4687
歴歴	-10.4687
淋漓	-10.4689
碧桃	-10.4689
混江龍	-10.4689
紅綉鞋	-10.469
呆	-10.4691
詞俱	-10.4693
桒	-10.4693
朱唇	-10.4695
松江	-10.4698
雕梁	-10.4698
山青	-10.4699
得勝令	-10.4699
鴛衾	-10.4702
盡是	-10.4704
銀鈎	-10.4709
瓊瑶	-10.471
有此	-10.4714
者也	-10.4719
二煞	-10.472
嘯餘	-10.4729
霎時	-10.473
芳叢	-10.474
我這	-10.4744
歡樂	-10.4749
故山	-10.4749
淡煙	-10.4749
文園	-10.475
七言	-10.4751
秀色	-10.4752
詞注	-10.4753
僅	-10.4753
芳徑	-10.4762
短亭	-10.4769
醉眠	-10.4771
粉淚	-10.4771
嬌紅	-10.4771
相從	-10.4773
劉基	-10.4776
謁	-10.4781
馨	-10.4783
驀	-10.4783
協	-10.4783
瞿	-10.4784
冤	-10.4784
允	-10.4785
相隨	-10.4786
朝朝	-10.4788
糝	-10.479
誕	-10.479
眉頭	-10.4791
耿	-10.4793
往往	-10.4793
畝	-10.4794
可喜	-10.4794
繚繞	-10.4795
搔頭	-10.4796
釵横	-10.4796
秋容	-10.4797
洛浦	-10.4797
聒	-10.4797
段各五句	-10.4802
莫道	-10.4808
兩鬢	-10.4808
歌者	-10.4811
洗盡	-10.4813
留客	-10.4818
甘州	-10.4818
曲水	-10.4819
翠竹	-10.482
如織	-10.4823
霜月	-10.4825
恩愛	-10.4827
百媚	-10.4836
詞體	-10.4837
金鞍	-10.4838
痩損	-10.4842
平仄仄	-10.4843
未許	-10.4852
題情	-10.4859
相催	-10.4862
平章	-10.4866
九十九字	-10.4866
遥想	-10.4866
從他	-10.4867
三臺	-10.4873
人似	-10.4878
廷	-10.4886
函	-10.4887
婢	-10.4887
倅	-10.4888
妥	-10.4889
累官	-10.4889
艾	-10.4891
寰	-10.4891
炬	-10.4894
完	-10.4895
后庭花	-10.4896
惶	-10.4897
剖	-10.4897
芸	-10.4898
小舟	-10.4899
填詞	-10.4899
鵠	-10.4899
猩	-10.4899
椽	-10.49
紅藥	-10.4901
狂歌	-10.4909
離緒	-10.4915
羅幕	-10.4919
利名	-10.4923
寐	-10.4924
爭似	-10.4926
全無	-10.4933
亦名	-10.4936
千騎	-10.4938
唯有	-10.4941
侍郎	-10.4943
等閑	-10.4945
水面	-10.4946
都在	-10.4961
知是	-10.4964
濁	-10.4977
紅蓮	-10.4979
小詞	-10.4979
閑愁	-10.498
髙低	-10.4982
煙草	-10.4982
襄	-10.4989
純	-10.4989
畏	-10.499
夢繞	-10.4993
榖	-10.4993
嵐	-10.4994
成雙	-10.4998
滋	-10.5001
緜	-10.5001
幢	-10.5003
芙蕖	-10.5003
听	-10.5006
抛擲	-10.5006
烏夜啼	-10.5006
褰	-10.5006
郵亭	-10.5007
悠揚	-10.5007
浩蕩	-10.5008
紅雲	-10.5009
臨岐	-10.501
疼	-10.501
滄波	-10.5011
吾廬	-10.5011
次周	-10.5012
殘霞	-10.5013
紅顔	-10.5013
和羮	-10.5013
鬢影	-10.5015
花草	-10.5018
你箇	-10.5019
君家	-10.5021
酒杯	-10.5021
兩字	-10.5024
乗興	-10.5027
江樓	-10.5028
渡口	-10.5028
檀郎	-10.5029
逺水	-10.5033
環珮	-10.5041
定格	-10.5042
琴心	-10.5044
滴滴	-10.5045
甚處	-10.5047
郎中	-10.5049
鵝	-10.5049
嵗華	-10.505
偶然	-10.5051
煙霞	-10.5051
波光	-10.5057
烟霞	-10.5064
宿酒	-10.5066
與我	-10.5067
金樽	-10.5069
作此	-10.5071
一團	-10.5074
古道	-10.5077
冷淡	-10.5077
鰲	-10.5089
循	-10.509
三尺	-10.5091
睡覺	-10.5091
刋	-10.5096
恭	-10.5099
閱	-10.51
殢酒	-10.5104
岐	-10.5104
夜闌	-10.5105
研	-10.5109
皓齒	-10.511
歌金縷	-10.511
沈醉	-10.511
行香子	-10.5111
迢逓	-10.5112
鮫	-10.5112
嫣然	-10.5112
姑蘇	-10.5114
人也	-10.5115
姜䕫	-10.5115
椿	-10.5116
卦	-10.5116
閨怨	-10.5117
㴱	-10.5118
征鞍	-10.5121
定風波	-10.5124
東陽	-10.5137
這的是	-10.5139
歡娱	-10.5141
香飄	-10.5144
朱絃	-10.5145
啼紅	-10.5145
紅英	-10.5147
百般	-10.5148
桂子	-10.5149
一見	-10.5152
千鍾	-10.5153
諡文	-10.5155
莫把	-10.516
風和	-10.5162
成行	-10.5167
何處去	-10.5169
萬重	-10.5171
光陰	-10.5171
月轉	-10.5177
平湖	-10.5178
黄機	-10.5179
向來	-10.518
應念	-10.5181
一分	-10.5183
不用韻	-10.5186
其所	-10.5191
再三	-10.5192
蜂兒	-10.5195
氷雪	-10.5198
花朝	-10.5205
蟠	-10.5207
路杳	-10.5209
飛雲	-10.5209
趨	-10.5212
航	-10.5212
啄	-10.5212
溢	-10.5213
媛	-10.5214
鮑	-10.5214
芒	-10.5215
綸巾	-10.5215
察	-10.5216
瀛	-10.5217
享	-10.5217
翳	-10.5219
寄生草	-10.5219
敞	-10.5221
煗	-10.5221
菖蒲	-10.5222
窣	-10.5222
荔枝	-10.5223
一㑹	-10.5225
後庭花	-10.5227
温存	-10.5228
喜孜孜	-10.523
㕠	-10.5231
先到	-10.5236
纖纖	-10.5236
花間集	-10.5237
醉翁	-10.5239
萬年	-10.524
氷輪	-10.524
點點	-10.5252
半空	-10.5253
月斜	-10.5254
飄然	-10.5262
自笑	-10.5262
小字	-10.5265
花陰	-10.5267
香醪	-10.5267
飄蕩	-10.5268
望眼	-10.5268
其二	-10.5272
取次	-10.528
吳山	-10.5282
滿酌	-10.5284
東城	-10.529
吹盡	-10.5291
詞選	-10.5291
整齊	-10.5291
相連	-10.5296
繡閣	-10.5297
對此	-10.5305
穆	-10.5311
烏雲	-10.5314
孤鸞	-10.5314
征衫	-10.5315
春工	-10.5315
琴書	-10.5316
體也	-10.5316
黛眉	-10.5316
稼	-10.532
刪	-10.5322
獨坐	-10.5322
墅	-10.5323
彊	-10.5323
暄	-10.5323
城南	-10.5324
鬧	-10.5325
勉	-10.5328
蹴	-10.533
家家	-10.533
奸	-10.533
銅壺	-10.5333
花鈿	-10.5333
宋媛	-10.5333
菩薩鬘	-10.5334
張泌	-10.5336
一晌	-10.5336
曽見	-10.5337
拌	-10.5337
薫風	-10.5338
玉笛	-10.5339
空翠	-10.5339
伊家	-10.5349
此則	-10.535
柔條	-10.5351
闗河	-10.5351
元人	-10.5352
枕簟	-10.5356
潮平	-10.5359
何郎	-10.5369
信息	-10.5371
江西	-10.5372
如醉	-10.5373
追思	-10.5375
江邊	-10.5383
霜天	-10.5389
朱簾	-10.539
酒䦨	-10.5401
東園	-10.5406
作七字	-10.5408
吁	-10.5422
河傳	-10.5422
水上	-10.5428
詞同惟後段	-10.5429
式	-10.5433
癸	-10.5433
亭上	-10.5433
白首	-10.5435
誰見	-10.5436
鳳樓	-10.5436
遽	-10.5436
玻璃	-10.5436
籖	-10.5436
山翁	-10.5436
揣	-10.5439
聮	-10.5439
酩酊	-10.544
該	-10.544
譽	-10.5441
蹊	-10.5442
一聲聲	-10.5442
暘	-10.5442
狠	-10.5443
今從	-10.5443
子規啼	-10.5444
篩	-10.5444
岑寂	-10.5445
裀	-10.5445
邵	-10.5446
金粟	-10.5447
想像	-10.5448
目錄	-10.5448
昨宵	-10.5449
消受	-10.5449
只今	-10.5454
駐馬聴	-10.5455
或云	-10.5461
棃	-10.5464
夢囘	-10.5468
相照	-10.547
杜鵑	-10.5475
美酒	-10.5476
将軍	-10.5478
隂晴	-10.5479
眼波	-10.5485
獨占	-10.5486
分飛	-10.5486
醉太平	-10.5491
女兒	-10.5492
翠蛾	-10.5492
畫梁	-10.5493
豈不	-10.5494
自在	-10.5498
多嬌	-10.5501
好處	-10.5504
月淡	-10.5504
紅紫	-10.5507
仙翁	-10.551
清霜	-10.5511
占得	-10.5517
三兩	-10.5521
一百四字	-10.5527
牽情	-10.5531
伴我	-10.5533
冷浸	-10.5539
殆	-10.5539
清和	-10.554
風送	-10.5541
濫	-10.5546
俄	-10.5546
行路	-10.5547
聨	-10.5547
廉	-10.5549
蠅	-10.5549
靴	-10.5551
瘴	-10.5551
虬	-10.5551
嘴	-10.5552
緯	-10.5553
蔥	-10.5553
霖	-10.5554
讓	-10.5555
普天樂	-10.5556
王奕清奉㫖校刋	-10.5556
五十一字	-10.5557
𣺌𣺌	-10.5557
或曰	-10.5558
凝睇	-10.5558
綿綿	-10.5559
滄海	-10.5559
皆變格也	-10.5561
我這里	-10.5562
雲氣	-10.5562
欽	-10.5563
羅幙	-10.5564
此詞前段	-10.5565
烏紗	-10.5565
絲竹	-10.5565
玉京	-10.5567
桃杏	-10.5568
王謝	-10.5574
西池	-10.5577
春早	-10.5586
一箇箇	-10.5598
才郎	-10.5599
隨流水	-10.5602
滿身	-10.5615
霜華	-10.5616
詩書	-10.5617
不下	-10.5619
舊刻	-10.562
五言	-10.5624
醉醒	-10.5625
七仄韻	-10.5626
漸漸	-10.563
東風裏	-10.5632
離歌	-10.5636
無復	-10.5637
鸞鳳	-10.5642
樓中	-10.5645
抑	-10.5653
日斜	-10.5656
竈	-10.5657
震	-10.5659
四十六字	-10.566
罥	-10.5662
蔓	-10.5662
栢	-10.5662
塊	-10.5662
一篇	-10.5663
我亦	-10.5663
龎	-10.5666
扄	-10.5666
蒼茫	-10.5668
巍巍	-10.5668
呢喃	-10.5669
畫欄	-10.5676
清尊	-10.5676
消痩	-10.5679
㡬回	-10.5679
粉蝶兒	-10.5679
欲問	-10.5681
天意	-10.5684
夫妻	-10.5687
潘郎	-10.5691
海棠花	-10.5693
京華	-10.5697
㣲雨	-10.5702
裙腰	-10.5712
喚醒	-10.5713
湖邊	-10.5713
幾處	-10.5713
之間	-10.5717
從今後	-10.5725
暮寒	-10.5729
二三	-10.5731
輕舟	-10.5736
如昨	-10.5736
可謂	-10.5738
吳興	-10.5738
少年遊	-10.5738
君恩	-10.5742
似雪	-10.5745
不思量	-10.5748
歸計	-10.5748
相思病	-10.5757
昇	-10.5759
填者	-10.5761
千㸃	-10.5766
稽	-10.5769
婚	-10.5771
邯鄲	-10.5777
不復	-10.5777
木蘭花	-10.5777
背人	-10.5778
開宴	-10.5779
棗	-10.5779
羌笛	-10.5781
吹斷	-10.5781
鋤	-10.5783
瞞	-10.5783
哨	-10.5784
佯	-10.5784
江海	-10.5784
别時	-10.5786
荳	-10.5787
滄洲	-10.5787
本意	-10.5791
不受	-10.5791
梳洗	-10.5792
子規	-10.5794
第四五句	-10.5797
折得	-10.5798
嵗嵗	-10.58
楓葉	-10.5801
将那	-10.5801
前段第	-10.5807
新添	-10.5809
柳絲	-10.5811
陳詞	-10.5814
葉落	-10.5815
繡户	-10.5817
過眼	-10.5828
夢想	-10.5829
生寒	-10.5832
關情	-10.5833
一世	-10.5834
傾國	-10.5845
天髙	-10.5848
穿花	-10.585
只恁	-10.585
莫遣	-10.5858
人憔悴	-10.5863
緑暗	-10.5867
新荷	-10.5878
且休	-10.5882
燭花	-10.5883
祭	-10.5884
塵暗	-10.5887
翩	-10.5887
緑鬢	-10.5888
倡	-10.5889
殘雨	-10.5889
立春	-10.589
辱	-10.5891
挾	-10.5893
愁悶	-10.5893
鎭	-10.5894
帝城	-10.5895
匳	-10.5896
拱	-10.5896
姊	-10.5897
感慨	-10.5897
窈	-10.5898
詞綜	-10.5899
體惟	-10.59
拏	-10.5902
油葫蘆	-10.5904
風力	-10.5904
梨園	-10.5905
怜	-10.5906
朱敦儒	-10.5908
謊	-10.5909
黄昇	-10.5909
曉日	-10.5912
仔細	-10.5914
天街	-10.5916
平地	-10.5921
一㑹家	-10.5926
流螢	-10.5928
驚飛	-10.593
香浮	-10.5932
置酒	-10.5932
烏絲	-10.5937
照眼	-10.5943
幽情	-10.5944
南州	-10.5946
清泉	-10.5948
藕絲	-10.595
紗窓	-10.5954
萬家	-10.5958
無價	-10.5961
三煞	-10.5964
斚	-10.5966
女子	-10.5966
常記	-10.5974
郎君	-10.5975
翠眉	-10.5976
疎簾	-10.5976
翠鬟	-10.5989
曉色	-10.5989
皆同	-10.5991
前調辛棄疾	-10.5997
伎	-10.5997
晴晝	-10.5997
囉	-10.5999
憲	-10.6
初見	-10.6002
膺	-10.6005
且莫	-10.6007
孤雲	-10.6007
人千里	-10.6008
羅帳	-10.6009
夢醒	-10.601
蓬瀛	-10.601
邂逅	-10.6011
李易安	-10.6011
漂	-10.6013
綵雲	-10.6013
他日	-10.6014
匝	-10.6015
而已	-10.6015
黎	-10.6015
鋒	-10.6015
還家	-10.6021
寒鴉	-10.6023
嬌滴滴	-10.6024
浮名	-10.6025
無雙	-10.6025
未識	-10.6026
單調二	-10.6027
緑樹	-10.6031
門巷	-10.6034
南渡	-10.6035
蒼蒼	-10.6037
銀箏	-10.6038
五十二字	-10.6041
江流	-10.6043
舞衣	-10.6043
紅裙	-10.6044
中流	-10.6056
絶妙	-10.6058
十日	-10.6063
闗情	-10.6065
何計	-10.6069
幽歡	-10.607
星河	-10.6075
漸逺	-10.6076
塵生	-10.6081
滿園	-10.6083
平平仄	-10.6091
第十	-10.6094
沉酔	-10.6096
霜風	-10.6096
心中	-10.6096
離腸	-10.6098
女伴	-10.6106
有客	-10.6106
明媚	-10.6109
與誰	-10.6115
永日	-10.6116
誰在	-10.6116
濛	-10.6117
黙	-10.6118
熬	-10.6118
薌林	-10.6121
確	-10.6122
更好	-10.6125
西畔	-10.6126
悠然	-10.6127
早晚	-10.6127
嵩	-10.6128
翠微	-10.6128
坎	-10.6129
塔	-10.613
丑	-10.6131
馮延巳	-10.6132
桓	-10.6132
櫂	-10.6132
蔽	-10.6133
愴	-10.6133
杜牧	-10.6133
摸	-10.6134
騎鯨	-10.6134
薇	-10.6136
畫舸	-10.6136
隄	-10.6136
仄韻後段八句	-10.6137
洋	-10.6139
闘鵪鶉	-10.614
活計	-10.6141
段各九句	-10.6144
換仄	-10.6147
後叚	-10.6147
喉	-10.615
驛使	-10.6152
相守	-10.6155
漁翁	-10.6155
料得	-10.6156
金鳳	-10.6157
可意	-10.6158
一百三字	-10.6163
國公	-10.6163
髙城	-10.6165
雲遮	-10.6166
華屋	-10.6168
人皆	-10.6173
漁歌	-10.6176
莫愁	-10.6176
平分	-10.6179
白日	-10.6184
後主	-10.6187
堂上	-10.6188
無賴	-10.6193
九十八字	-10.6197
消盡	-10.6197
更深	-10.62
寥	-10.6202
可是	-10.6203
嫵	-10.6211
石湖	-10.6213
閨思	-10.6214
前調蘇軾	-10.6217
子瞻	-10.6219
帕	-10.6224
清露	-10.6224
春晝	-10.6224
元龍	-10.6225
吹徹	-10.6229
諡	-10.623
異按	-10.6233
隨人	-10.6233
後段第一句	-10.6235
非是	-10.6238
輯	-10.6238
憎	-10.6239
孰	-10.6243
搜	-10.6247
渉	-10.6248
眼兒媚	-10.6248
植	-10.6249
頌	-10.6249
巫峽	-10.6251
汪莘	-10.6253
狗	-10.6254
躡	-10.6254
酹	-10.6255
坼	-10.6255
晁詞	-10.6256
龍涎	-10.6256
翡翆	-10.6256
名園	-10.6257
胎	-10.6259
六首	-10.626
自家	-10.6263
鱸魚	-10.6264
凝情	-10.6264
簾半捲	-10.6266
樂章集	-10.6269
志誠	-10.6269
誰解	-10.627
玉笙	-10.6271
絃索	-10.6274
曲屏	-10.6274
萬疊	-10.6275
方岳	-10.6279
小窗	-10.628
手撚	-10.6281
重省	-10.6281
問訊	-10.6281
柳絮	-10.6283
四十九字	-10.6285
蘋洲	-10.6287
醉魂	-10.6295
曰此	-10.6296
芳洲	-10.6298
幸有	-10.6302
四十八字	-10.6311
懷古	-10.6312
相偎	-10.6312
驟雨	-10.6318
中間	-10.6318
蟾宫	-10.6319
西陵	-10.632
驚鴻	-10.6322
相似	-10.6322
行到	-10.6326
立盡	-10.6327
不曾	-10.6331
春隂	-10.6337
清愁	-10.6344
絶句	-10.6349
蓬山	-10.6349
此景	-10.6349
清晝	-10.6356
一抹	-10.6358
辟	-10.6365
耆	-10.6365
猷	-10.6367
酉	-10.6368
偕	-10.6368
䝉	-10.6369
匹	-10.637
長在	-10.6372
槽	-10.6372
待制	-10.6374
敷	-10.6376
牛嶠	-10.6378
轂	-10.6378
掀	-10.6378
白苧	-10.6378
風流子	-10.6379
東去	-10.638
榆錢	-10.638
黯黯	-10.638
罇	-10.6384
浮萍	-10.6384
低低	-10.6387
金猊	-10.6389
段各六句	-10.6389
鎗	-10.6391
前程	-10.6398
一半児	-10.6405
六朝	-10.6416
無涉	-10.6418
限	-10.6423
狂風	-10.6423
劉過	-10.643
春已	-10.6432
醉花隂	-10.6435
長調	-10.6438
疎星	-10.6439
驚秋	-10.644
豐年	-10.6441
送别	-10.6441
見說	-10.6446
猶帶	-10.6447
羅浮	-10.645
秀才	-10.6455
莫負	-10.6455
已是	-10.646
出門	-10.6464
瓊林	-10.6471
到頭	-10.6472
衾寒	-10.6472
憶得	-10.6473
堪惜	-10.6474
貶	-10.6485
鄙	-10.649
慧	-10.649
風動	-10.6491
皂	-10.6495
秘	-10.6496
㸃絳唇	-10.6498
姨	-10.6498
涎	-10.6499
琅	-10.6499
颼颼	-10.6499
憨	-10.65
拽	-10.65
羌管	-10.65
豊	-10.6501
絕	-10.6502
丹砂	-10.6502
逃	-10.6503
曉鶯	-10.6504
剗地	-10.6504
第一體	-10.6504
絳蠟	-10.6504
咨	-10.6511
芬芳	-10.6513
醒來	-10.6515
深淺	-10.6521
中州	-10.6522
湖海	-10.6522
長吁	-10.6525
楊桞	-10.6528
栁隂	-10.6529
雨歇	-10.6532
香徑	-10.6532
五十六字	-10.6538
一對	-10.6541
誰問	-10.6541
少一字	-10.6542
六十字	-10.6544
前題	-10.6545
宰相	-10.6546
翠隂	-10.655
行舟	-10.6551
十月	-10.6552
光中	-10.6552
吹散	-10.6554
樂章	-10.6557
文字	-10.6557
所載	-10.6569
影轉	-10.6573
此心	-10.6575
難成	-10.6578
凉州	-10.6583
青苔	-10.6586
吳江	-10.6588
魂斷	-10.6589
古詩	-10.659
雖然	-10.6591
在何處	-10.6592
宫闕	-10.6596
自從	-10.6598
為問	-10.6606
又一首	-10.6611
虚名	-10.6611
紗窗	-10.6613
可見	-10.6614
繭	-10.6615
獵	-10.6618
氤氲	-10.662
宝	-10.6623
斍	-10.6623
蛙	-10.6623
饑	-10.6623
挨	-10.6627
房櫳	-10.6627
荻	-10.6627
茆	-10.6628
八聲甘州	-10.6628
翻成	-10.6629
金釧	-10.663
覻	-10.6631
塩	-10.6631
半晌	-10.6631
嬌小	-10.6632
猿鶴	-10.6633
商量	-10.6635
抵多少	-10.6637
凄凄	-10.6637
蕩漾	-10.6637
知心	-10.6639
東閣	-10.6643
月明中	-10.6643
第二體	-10.6646
相逄	-10.6646
待要	-10.6647
烏鵲	-10.6648
從来	-10.665
蕭郎	-10.6651
到底	-10.6652
織女	-10.6652
翠翹	-10.6656
非也	-10.6657
羅巾	-10.6662
爲誰	-10.6662
倚徧	-10.6662
悲歌	-10.6666
費盡	-10.6666
放翁	-10.6667
無名氏詞	-10.6667
浩歌	-10.6668
水沉	-10.6669
逺近	-10.6671
知多少	-10.6671
眉嫵	-10.6674
長堤	-10.6674
征衣	-10.6683
離索	-10.6685
喚取	-10.6693
皆然	-10.6697
共誰	-10.6703
怕見	-10.6715
傳語	-10.6718
閒倚	-10.6728
黄昏後	-10.6728
那知	-10.6732
宜春	-10.6733
金鈎	-10.6734
歲月	-10.6738
穴	-10.674
繇	-10.6742
毛晉	-10.6743
讌	-10.6743
飲散	-10.6744
契	-10.6745
越調	-10.6747
茉莉	-10.6747
旣	-10.6747
餌	-10.6747
槩	-10.6747
嶼	-10.6748
掣	-10.6748
陋	-10.675
紗籠	-10.675
茱茰	-10.675
蔕	-10.6751
檥	-10.6755
妹	-10.6755
搭	-10.6755
鵲踏枝	-10.6756
両	-10.6758
野水	-10.676
世界	-10.6767
斗帳	-10.677
榮華	-10.6777
鴛被	-10.6778
姓名	-10.6783
有限	-10.6785
夜来	-10.6787
如洗	-10.6789
無憂	-10.679
如故	-10.6795
騷人	-10.6796
一叚	-10.6798
花徑	-10.6801
雨霽	-10.6803
中庭	-10.681
歸燕	-10.6811
兩意	-10.6815
誰敢	-10.6821
江南好	-10.6824
凨月	-10.6825
亂雲	-10.6839
一百字	-10.684
玉林	-10.6841
歡㑹	-10.6846
含情	-10.6849
涉	-10.685
未肯	-10.6853
隔簾	-10.6858
白酒	-10.6859
就中	-10.686
情濃	-10.6863
邑	-10.6864
黯淡	-10.6865
折腰	-10.6866
矜	-10.6867
鼓吹	-10.6868
複	-10.687
别首	-10.687
舊游	-10.687
幡	-10.6871
湛	-10.6872
討	-10.6873
嗚	-10.6875
空堦	-10.6876
擕	-10.6876
宫中	-10.6876
盧炳	-10.6876
湘江	-10.6876
奢	-10.6878
祇	-10.6878
箕	-10.688
永夜	-10.688
未嘗	-10.6881
咎	-10.6881
款	-10.6882
古今詞話	-10.6883
珠璣	-10.6883
鑄	-10.6883
歡聲	-10.6883
賭	-10.6884
蓬島	-10.6886
蕭瑟	-10.6886
寒燈	-10.6886
誰承望	-10.6887
玳筵	-10.6889
悶懨懨	-10.6889
聲聲慢	-10.6891
欽定四庫全書御定詞譜巻	-10.6893
酒邊	-10.6893
喬木	-10.6894
曲終	-10.69
水晶簾	-10.6904
片玉	-10.6906
羽扇	-10.6906
漁舟	-10.6908
紅橋	-10.6916
蘭房	-10.6922
海棠開	-10.6923
粉牆	-10.6924
在手	-10.6937
新燕	-10.6938
西北	-10.6941
井梧	-10.6941
連理	-10.6945
今畨	-10.6949
第十句	-10.6952
水仙	-10.6954
醉墨	-10.6954
造化	-10.6956
杯酒	-10.6959
未放	-10.6968
春去也	-10.6971
這般	-10.6972
爭如	-10.6975
遥望	-10.6976
君知否	-10.6982
上苑	-10.6982
鈞	-10.6987
那些	-10.6989
相向	-10.6991
伶	-10.6994
見如今	-10.7004
潄	-10.7004
蓮花	-10.7005
朩蘭花	-10.7006
軋	-10.7007
裛	-10.7008
蒨	-10.7009
悪	-10.7009
康與之	-10.701
攏	-10.701
匣	-10.701
劉克莊	-10.701
飈	-10.7011
煉	-10.7011
𨳩	-10.7011
祝英臺近	-10.7012
杵	-10.7012
梳掠	-10.7012
􁗠	-10.7013
甚日	-10.7013
抺	-10.7019
微茫	-10.702
征帆	-10.7021
十萬	-10.7022
驀地	-10.7022
張輯	-10.7022
您	-10.7025
類列	-10.7028
殘妝	-10.703
塞鴻	-10.7032
湘裙	-10.7035
必有	-10.7037
江左	-10.7038
鬬草	-10.7042
豪氣	-10.7043
庭前	-10.7047
蕭然	-10.7049
遊蜂	-10.7054
驚破	-10.7065
那堪更	-10.7065
海燕	-10.7071
作此詞	-10.7075
雨打	-10.7076
別離	-10.7082
落霞	-10.7084
渾如	-10.7086
寒光	-10.709
南來	-10.709
愛惜	-10.7098
楚雲	-10.7101
堤上	-10.7109
紅爐	-10.7111
舞腰	-10.7117
四十字	-10.7117
征塵	-10.7121
椀	-10.7128
涕	-10.7131
扃	-10.7133
重城	-10.7134
閬	-10.7135
斬	-10.7135
峻	-10.7136
洽	-10.7136
疆	-10.7137
灌	-10.7138
慷慨	-10.7138
蛛	-10.7143
雨初晴	-10.7143
斗酒	-10.7143
永遇樂	-10.7144
小梁州	-10.7144
區區	-10.7145
突	-10.7147
句法異	-10.7148
忘憂	-10.7152
周宻	-10.7161
娜	-10.7161
自度曲	-10.7171
其實	-10.7173
雙溪	-10.7176
拘束	-10.7177
寳馬	-10.7178
當𥘉	-10.7184
押韻異	-10.7194
歲華	-10.7199
料應	-10.721
悲歡	-10.7212
妙手	-10.7214
林泉	-10.7214
北山	-10.7234
愁思	-10.7235
笑指	-10.7239
吳詞	-10.7241
水茫茫	-10.7244
那得	-10.725
銷凝	-10.7251
致仕	-10.7254
謔	-10.7261
綠水	-10.7261
瀲	-10.7264
亥	-10.7264
臆	-10.7267
胷	-10.727
渇	-10.727
寃	-10.727
芷	-10.7271
微笑	-10.7271
昧	-10.7272
摺	-10.7272
雌	-10.7273
牖	-10.7273
奕	-10.7273
姹	-10.7274
啞	-10.7275
上三下四	-10.7275
眉山	-10.7275
覇	-10.7279
磧	-10.728
庄	-10.7281
因循	-10.7281
三字兩句	-10.7282
秉燭	-10.7282
斷人腸	-10.7285
伴人	-10.7285
脩竹	-10.7285
魂飛	-10.7291
連宵	-10.7292
怎肯	-10.7299
聖主	-10.7299
第三四句	-10.7299
仙吕	-10.7301
憶王孫	-10.7302
天仙	-10.7304
莫辭	-10.7305
翠簾	-10.7305
攤破句法	-10.7306
不奈	-10.7307
安得	-10.7316
玉腕	-10.732
天如水	-10.7324
百歲	-10.7325
不寐	-10.7338
疎籬	-10.7342
遊冶	-10.7345
小窓	-10.7347
荷香	-10.7357
分外	-10.7358
沙頭	-10.7362
二巻	-10.7363
武陵溪	-10.7366
鬢邊	-10.7369
膚	-10.7382
液	-10.7385
前調周邦彦	-10.7385
誰伴	-10.7389
耆卿	-10.739
酒闌	-10.7393
玉龍	-10.7393
一年春	-10.7394
黨	-10.7396
鄒	-10.7398
分散	-10.7399
酒力	-10.74
荀	-10.7403
黄金縷	-10.7404
竹山	-10.7404
篋	-10.7405
柘	-10.7405
竭	-10.7405
吊	-10.7407
缸	-10.7407
鷹	-10.7407
阜	-10.7407
虗	-10.7408
範	-10.7408
寮	-10.7408
稳	-10.7409
拳	-10.7409
輕羅	-10.741
霰	-10.7411
乏	-10.7413
坑	-10.7414
慘慘	-10.7414
罍	-10.7414
蹇	-10.7414
雲髻	-10.7415
泠泠	-10.7417
繊	-10.742
熖	-10.742
珮環	-10.7421
深閨	-10.7426
烟草	-10.7432
金碧	-10.7433
有一日	-10.7437
尺素	-10.7441
千重	-10.7443
田園	-10.7445
政和	-10.7454
離亭	-10.7456
海山	-10.7456
追念	-10.7459
急雨	-10.746
詞統	-10.7462
桂影	-10.7462
五色	-10.7468
醉倚	-10.747
長橋	-10.7477
商調	-10.7482
松風	-10.7492
唐詞	-10.75
佳景	-10.7512
君不見	-10.7513
如此填	-10.7518
芳酒	-10.7519
翰林學士	-10.7524
贏	-10.7524
神州	-10.7526
誚	-10.7528
暫時	-10.753
又恐	-10.7532
御史	-10.7535
侑	-10.7536
鬢絲	-10.7537
膾	-10.7539
括	-10.754
圭	-10.7541
唳	-10.7542
懊	-10.7543
遞	-10.7543
形骸	-10.7545
迤逗	-10.7546
翎	-10.7547
閏	-10.7547
秦少游	-10.7548
聽得	-10.7548
㓜	-10.7548
瞥	-10.7548
堕	-10.7548
俎	-10.7549
棘	-10.7549
磬	-10.755
鷁	-10.755
挹	-10.755
紆	-10.7551
長沙	-10.7552
張埜	-10.7552
因念	-10.7552
佀	-10.7553
凉月	-10.7553
状	-10.7553
夜行船	-10.7554
金蕉葉	-10.7555
相應	-10.7555
綺陌	-10.7559
無涯	-10.756
小立	-10.7561
渭城	-10.7561
折桂令	-10.7561
解連環	-10.7564
樓髙	-10.7568
明眸	-10.7571
鈿車	-10.7572
開遍	-10.7573
容與	-10.7582
腰圍	-10.7583
稍異	-10.7585
第五	-10.7585
未解	-10.7591
遥天	-10.7591
泛舟	-10.7595
麗日	-10.7602
東風惡	-10.7607
幽徑	-10.7609
縷金	-10.7611
九月	-10.7617
思君	-10.7617
碧波	-10.7625
高唐	-10.7627
九十七字	-10.763
燕泥	-10.7633
佳氣	-10.7635
渡頭	-10.7638
紫雲	-10.7646
璧月	-10.7647
青燈	-10.7653
賦詩	-10.7656
万	-10.7656
等謹案	-10.766
只見	-10.766
逄	-10.7664
譜内可平可仄據此	-10.7664
離魂	-10.7666
心性	-10.7666
滿頭	-10.7667
詢	-10.7674
援	-10.7674
八月	-10.7674
葆	-10.7674
佇	-10.7675
姐姐	-10.7676
灧	-10.7676
煥	-10.7677
石榴	-10.7679
一鈎	-10.7679
狎	-10.7679
逋	-10.768
枚	-10.768
逆	-10.7681
渴	-10.7681
悮	-10.7681
提舉	-10.7682
踞	-10.7682
煑	-10.7684
寨	-10.7686
霜天曉角	-10.7687
瓣	-10.7687
瀛洲	-10.7687
腥	-10.7688
撮	-10.7688
畫舫	-10.7688
絨	-10.7688
朝中措	-10.7688
箱	-10.7689
揀	-10.7689
无	-10.769
啼鴂	-10.7691
白露	-10.7691
鸞凰	-10.7692
闌珊	-10.7695
燈影	-10.7697
避暑	-10.7697
􁂼	-10.77
石城	-10.7702
落花飛絮	-10.7702
衰翁	-10.7702
一舸	-10.7707
能幾	-10.7711
相呼	-10.7714
常是	-10.7714
關河	-10.7718
金泥	-10.7718
賦此	-10.7722
石榴花	-10.7723
碧樹	-10.7725
自度	-10.7727
再休	-10.7729
酔春風	-10.773
因他	-10.7733
初夏	-10.7735
青霄	-10.7739
芳姿	-10.7739
五年	-10.7741
怎知	-10.7753
臨安	-10.7755
寒蛩	-10.7759
驚心	-10.7763
能勾	-10.7763
年紀	-10.7766
句五字	-10.7771
俱用	-10.7773
清閑	-10.7782
情薄	-10.7787
不耐	-10.7787
金鋪	-10.7788
歌喉	-10.7795
江亭	-10.7795
五十八字	-10.7797
事業	-10.7798
歸程	-10.7801
詞前段起句	-10.7806
着箇	-10.7812
蝦	-10.7817
直學士	-10.7817
塡	-10.7818
属	-10.7818
野草	-10.7819
秉	-10.782
禮部	-10.7821
字數	-10.7822
换	-10.7822
歐陽永叔	-10.7823
酷	-10.7824
孤枕	-10.7824
狼藉	-10.7825
淅淅	-10.7827
狼籍	-10.7827
垓	-10.7827
釧	-10.7828
禊	-10.7828
桂枝香	-10.7829
龍蛇	-10.7829
濵	-10.783
韈	-10.7832
塵寰	-10.7833
水驛	-10.7833
樂府雅詞	-10.7833
刺刺	-10.7839
凌雲	-10.7841
朱欄	-10.7846
忘機	-10.7846
漫録	-10.7846
梳粧	-10.785
未央	-10.7852
黯然	-10.7852
凄然	-10.7853
晚来	-10.7855
神京	-10.7857
溪頭	-10.7859
煞尾	-10.7861
彼此	-10.7861
無蹤	-10.7866
釣魚	-10.7866
度曲	-10.7866
横空	-10.7873
後段第五句	-10.7879
塞北	-10.7884
倦遊	-10.7885
夀陽	-10.7889
金絲	-10.7892
眉峯	-10.7894
綺羅香	-10.7897
宫調	-10.7902
不知何處	-10.7908
金鳯	-10.7909
金獸	-10.7911
父老	-10.7912
林外	-10.7913
夏日	-10.7914
綠鬢	-10.7916
無主	-10.7921
㡬多	-10.7925
日暖	-10.7928
清宵	-10.7938
幾囘	-10.7939
四面	-10.7949
憑髙	-10.7954
庸	-10.7958
俚	-10.7959
▁此詞	-10.7961
戊	-10.7961
白衣	-10.7962
剥	-10.7963
琢	-10.7964
曼	-10.7964
勘	-10.7964
俯仰	-10.7966
晏叔原	-10.7966
煤	-10.7967
祁	-10.7967
禾	-10.7967
蕤	-10.7967
吟詩	-10.7968
拴	-10.7969
憔	-10.7969
斜風細雨	-10.7969
収拾	-10.797
醉落魄	-10.797
渭水	-10.797
兆	-10.7971
飇	-10.7972
川撥棹	-10.7975
鄕	-10.7976
聖藥王	-10.7977
焚香	-10.7977
留春住	-10.7977
那其間	-10.7977
無尋處	-10.7978
簔	-10.7978
功成	-10.798
融融	-10.798
爽氣	-10.7982
樂章集注	-10.7983
滿袖	-10.7985
㱕来	-10.7991
氷壺	-10.7992
䦨珊	-10.7995
鬭草	-10.7997
譜圖	-10.7997
人間天上	-10.7998
欄杆	-10.7998
謝娘	-10.8008
□□□	-10.8009
一捻	-10.8013
隨處	-10.8015
西凨	-10.8021
堂深	-10.8021
雙調一	-10.8025
相思淚	-10.8027
墻頭	-10.803
東皇	-10.8036
□□	-10.8037
歸思	-10.8038
拍手	-10.8038
傳書	-10.8047
黃花	-10.805
隨意	-10.8051
峭寒	-10.8064
遇着	-10.8067
後期	-10.8069
一百一字	-10.8069
陣陣	-10.8076
如霧	-10.8076
訊	-10.8082
嵗月	-10.8083
囘頭	-10.8086
燕子樓	-10.8092
羮	-10.8094
鑾	-10.8097
郵	-10.8098
亷	-10.8098
梧葉	-10.8104
仇	-10.8104
篙	-10.8105
裾	-10.8109
新年	-10.8109
暴	-10.811
碧紗	-10.811
漆	-10.8111
舩	-10.8111
葛勝仲	-10.8111
搓	-10.8114
篘	-10.8114
籹	-10.8114
姢	-10.8115
㢤	-10.8115
荼	-10.8116
喝	-10.8116
檠	-10.8117
譏	-10.8117
江村	-10.8117
翠樓	-10.8118
丢	-10.8119
嚮	-10.8121
鏘	-10.8122
耍孩兒	-10.8122
張榘	-10.8123
一枝春	-10.8127
參横	-10.8136
彩筆	-10.8136
端午	-10.8139
新綠	-10.814
似這般	-10.814
更漏子	-10.8142
詞二巻	-10.8143
我将這	-10.8145
陶令	-10.8151
駐馬	-10.8153
前調晏殊	-10.8155
玉簮	-10.8155
想起	-10.8162
一百二字	-10.8164
有箇人	-10.8169
不知何	-10.8172
都付	-10.8172
未能	-10.8193
翠䄂	-10.8195
頻頻	-10.8197
紗囱	-10.8204
婦人	-10.8206
未免	-10.8218
無眠	-10.8219
用去聲	-10.8225
白馬	-10.8237
減字	-10.8238
瑞雪	-10.8239
惹起	-10.8241
鑰	-10.8242
憤	-10.8243
署	-10.8244
老樹	-10.8247
減字木蘭花	-10.8254
燭影揺紅	-10.8255
烽	-10.8256
皱	-10.8256
轆轤	-10.8257
攔	-10.8257
昵	-10.8257
翰墨	-10.8257
區	-10.8258
䕫	-10.8258
飡	-10.8258
邱	-10.8258
桃腮	-10.8258
蠧	-10.8259
滚	-10.8259
劃	-10.8259
璚	-10.826
豪傑	-10.8261
悴	-10.8263
旬	-10.8263
簌	-10.8264
塹	-10.8265
酧	-10.8266
搬	-10.8267
冗	-10.8268
秦箏	-10.8269
晃	-10.827
万俟雅言	-10.827
多押一韻	-10.827
史逹祖	-10.827
錯認	-10.8271
以入作平	-10.8272
仙音	-10.8274
雕欄	-10.8275
身軀	-10.8275
綺席	-10.8279
遲暮	-10.828
辛苦	-10.828
蕭疎	-10.828
疎梅	-10.828
佳辰	-10.8281
落絮	-10.8281
五十五字	-10.8283
堪笑	-10.8283
簾巻	-10.8284
分離	-10.8285
朝暮	-10.8289
料峭	-10.8289
都做了	-10.829
相逐	-10.8293
兩地	-10.8298
臨川	-10.8299
小牎	-10.8305
浮動	-10.8306
桞永	-10.8311
畫簷	-10.8314
水仙子	-10.8325
吾皇	-10.833
許多愁	-10.8332
曽記	-10.8334
白鳥	-10.8342
一旦	-10.8346
千林	-10.8347
香篆	-10.8353
幾年	-10.8357
鳳簫	-10.8357
徙倚	-10.8361
水東流	-10.8368
怎當	-10.8369
情性	-10.8374
休教	-10.8374
玉纖	-10.8375
一疊韻	-10.8378
亦然	-10.8378
捻	-10.838
与	-10.8388
嗣	-10.839
籬落	-10.8391
栁梢青	-10.84
濱	-10.84
挺	-10.8401
豫章	-10.8402
吹笙	-10.8403
腴	-10.8404
楊慎	-10.8405
麾	-10.8405
邸	-10.8405
不辭	-10.8406
鵷	-10.8407
娟	-10.8408
攲	-10.8408
貨	-10.8409
建康	-10.841
窠	-10.8411
襖	-10.8411
莽	-10.8412
春光好	-10.8412
幘	-10.8412
干戈	-10.8413
蛛絲	-10.8414
踐	-10.8415
蹉跎	-10.8417
穿簾	-10.8418
淘	-10.8418
孩	-10.8419
踈雨	-10.8419
啼鵑	-10.8421
将這	-10.8425
殘英	-10.8426
送春歸	-10.843
者亦	-10.8432
疎鐘	-10.8434
鈞天	-10.8435
和靖	-10.8437
啼鴉	-10.8441
涼生	-10.8442
瑤池	-10.8447
思悠悠	-10.8449
前調石孝友	-10.845
傾倒	-10.8455
未刻	-10.8455
怕的是	-10.846
杜若	-10.8463
皇都	-10.8465
字仄聲譜内	-10.8466
西窗	-10.847
西州	-10.8472
堂堂	-10.8473
仙姿	-10.8474
一餉	-10.8479
六年	-10.848
四仄韻後段十句	-10.8487
虚度	-10.8494
四壁	-10.8495
燭影	-10.8507
思憶	-10.8509
又還是	-10.8509
翠黛	-10.8511
幃屏	-10.8516
身外	-10.8524
整整	-10.8527
更䦨	-10.8534
何夕	-10.8539
秋宵	-10.8541
舊逰	-10.8542
无咎	-10.8542
嶽	-10.8547
給	-10.8549
滿懐	-10.855
嶠	-10.8551
天孫	-10.8553
敝	-10.8554
藴	-10.8555
鵲橋	-10.8558
杜䳌	-10.8558
倘	-10.8558
稔	-10.8559
訟	-10.8561
大石調	-10.8561
姻	-10.8561
摶	-10.8561
爼	-10.8561
禱	-10.8561
㐮	-10.8562
每日家	-10.8562
糊	-10.8563
犢	-10.8564
柑	-10.8564
一輪	-10.8565
詵	-10.8567
銖	-10.8569
羇旅	-10.8569
我和他	-10.857
踪跡	-10.8571
寕	-10.8571
秖	-10.8572
紗㡡	-10.8572
笙簧	-10.8574
執手	-10.8581
報道	-10.8582
歡意	-10.8583
勸我	-10.8584
曾見	-10.8588
天上人間	-10.8588
終是	-10.8589
唐詩	-10.86
開口	-10.8603
金鼎	-10.8603
杏花天	-10.8603
惱亂	-10.8607
松菊	-10.8611
芳樽	-10.8612
如削	-10.8617
陽和	-10.8621
雙鴛	-10.8623
獨歩	-10.863
簾旌	-10.8636
河陽	-10.864
妝樓	-10.8643
睡足	-10.865
千種	-10.8669
勸酒	-10.8673
傳杯	-10.8684
四體	-10.869
廬山	-10.8696
八首	-10.8698
晏㡬道	-10.8702
汾	-10.8705
䟦	-10.8707
遏	-10.8708
枕邊	-10.8708
𣣔	-10.8708
記當年	-10.8708
康伯可	-10.871
責	-10.871
李後主	-10.871
矮	-10.8711
梗	-10.8712
睛	-10.8713
㩦	-10.8713
纈	-10.8713
措	-10.8713
刼	-10.8714
甸	-10.8714
韜	-10.8716
筒	-10.8717
銅駝	-10.8717
嫋	-10.8718
嘹	-10.8718
榔	-10.8718
女冠子	-10.872
姻緣	-10.872
歹	-10.872
鶼	-10.872
呪	-10.8721
苒苒	-10.8721
爵	-10.8721
宇宙	-10.8723
我這裡	-10.8724
咸陽	-10.8725
酒盃	-10.8729
押仄韻	-10.8729
遊戲	-10.873
詞品	-10.873
茅舍	-10.8731
南國	-10.8734
梧葉兒	-10.8737
集詞一巻	-10.8739
昭君	-10.8741
含羞	-10.8748
沈氏	-10.875
隋堤	-10.8753
千巖	-10.8756
好教我	-10.876
恰纔	-10.8764
萬千	-10.8765
傷悲	-10.8771
人去後	-10.8772
駿馬	-10.8775
着那	-10.8782
細數	-10.8785
雨瀟瀟	-10.8789
轉眼	-10.8791
太學	-10.8794
空悵望	-10.8796
千片	-10.8797
直須	-10.88
醉蓬萊	-10.8801
緑陰	-10.8802
天仙子	-10.8804
鶯囀	-10.8804
自製	-10.8816
春消息	-10.8818
幽期	-10.8821
争奈	-10.8825
千歲	-10.883
稱其	-10.8836
六十六字	-10.8841
孫士	-10.8842
祕	-10.8851
敏	-10.8855
裴	-10.8857
伐	-10.8858
尼	-10.8861
熨	-10.8861
僚	-10.8862
禅	-10.8863
萬般	-10.8864
卒贈	-10.8864
処	-10.8865
闈	-10.8866
樞密	-10.8866
毋	-10.8866
攙	-10.8867
缾	-10.8868
瞳	-10.8869
褒	-10.887
週	-10.887
塜	-10.887
鏁	-10.887
葡萄	-10.8874
忖	-10.8874
迸	-10.8874
搊	-10.8875
庾嶺	-10.8875
臨流	-10.8876
搦	-10.8876
朝天子	-10.8877
唧	-10.8878
昭君怨	-10.8878
水村	-10.888
詞為正體	-10.888
扯	-10.888
武昌	-10.8881
團團	-10.8881
堪愛	-10.8886
狂客	-10.8887
香噴	-10.8889
標致	-10.8889
腰身	-10.889
㡬番	-10.889
應制	-10.8892
清真集	-10.8893
鴈児落	-10.8893
朱䦨	-10.8897
寳鼎	-10.8899
吏部	-10.89
管領	-10.89
春酲	-10.8901
仙源	-10.8906
淡黄	-10.891
貂蟬	-10.8913
華筵	-10.8919
觀音	-10.892
羣花	-10.8924
遲日	-10.8948
共賞	-10.8953
遥指	-10.8953
些箇	-10.8956
芳草路	-10.8963
寸腸	-10.8964
寒峭	-10.8969
梁間	-10.8978
如練	-10.8978
勝賞	-10.8978
沈郎	-10.8979
上小樓	-10.8982
白蓮	-10.8985
台	-10.8987
洞府	-10.8996
莖	-10.9009
宴賞	-10.9009
亭臺	-10.901
纂官	-10.9017
獄	-10.9018
泠	-10.9019
患	-10.902
㕔	-10.9021
歲歲	-10.9021
攻	-10.9023
衷	-10.9024
蕖	-10.9024
普	-10.9024
樷	-10.9025
繡帶	-10.9025
墳	-10.9026
他生的	-10.9026
擾擾	-10.9026
抄	-10.9026
元祐	-10.9027
娶	-10.9028
穗	-10.9028
怡	-10.903
簑	-10.903
隅	-10.903
術	-10.903
南唐李煜	-10.9031
那吒令	-10.9031
江南江北	-10.9032
挫	-10.9033
澌	-10.9033
纜	-10.9034
愚謂	-10.9037
賀聖朝	-10.9037
蔣㨗	-10.9038
燕鶯	-10.9039
玻瓈	-10.9039
象板	-10.9041
恍然	-10.9041
第五六句	-10.9043
池沼	-10.9045
濁酒	-10.905
分付與	-10.905
衡陽	-10.905
錦囊	-10.9053
司空	-10.9055
畫燭	-10.9055
第二三句	-10.9057
空濛	-10.9063
江淹	-10.9065
兩㸃	-10.9068
孤鴈	-10.907
步步	-10.9075
盟言	-10.9075
前調賀鑄	-10.9076
哀怨	-10.9078
氷絃	-10.9084
亂鴉	-10.9085
柳外	-10.9089
波浪	-10.9113
晏詞	-10.9114
憶昔	-10.9125
玉砌	-10.9126
霎	-10.9126
人如玉	-10.9129
不湏	-10.9132
南極	-10.9138
雙鸞	-10.915
拂面	-10.9151
别浦	-10.9158
鬼病	-10.916
老夫	-10.9166
欽定四庫全書集部十	-10.9166
成就	-10.9174
昀	-10.9174
杼	-10.9181
卯	-10.9182
眄	-10.9184
坦	-10.9184
戌	-10.9185
醇	-10.9185
飜	-10.9186
無人問	-10.9187
皷	-10.9187
兩結句	-10.9188
舒亶	-10.919
蹋	-10.919
䄄	-10.9192
凢	-10.9192
劔	-10.9192
荏苒	-10.9192
緗	-10.9192
炯	-10.9192
攛	-10.9193
棲鴉	-10.9194
藹	-10.9194
銀釭	-10.9194
李彭老	-10.9194
二郎神	-10.9195
渰	-10.9195
披襟	-10.9196
前段第一句	-10.9197
唐教坊曲名	-10.9197
應天長	-10.9198
二百	-10.9198
獅	-10.9199
羅韤	-10.9199
㝡	-10.9199
黄昬	-10.9199
可奈	-10.9199
􁁊	-10.92
蹅	-10.92
木蘭花慢	-10.92
砧杵	-10.92
粉蝶児	-10.9201
二十年	-10.9204
柳耆卿	-10.9205
經綸	-10.9205
押平韻	-10.9207
乘興	-10.921
㡬日	-10.9213
陰陰	-10.9213
繡衣	-10.9215
東鄰	-10.9228
瑞鷓鴣	-10.923
意中人	-10.9231
翠鈿	-10.9231
桐花	-10.9237
蟬鬢	-10.9242
怎忍	-10.9246
紗牎	-10.9249
追尋	-10.9256
㡬㸃	-10.9256
兒曹	-10.9263
斗轉	-10.9271
凍雲	-10.9282
輕鷗	-10.9283
有此體	-10.9288
惹得	-10.9294
鳥啼	-10.9303
斜陽外	-10.9305
淡薄	-10.9313
此夕	-10.9328
栁條	-10.9328
扶頭	-10.933
神女	-10.9335
午夢	-10.934
淫	-10.9342
多麗	-10.9342
如箭	-10.9343
訣	-10.9345
隘	-10.9351
瓮	-10.9352
椉	-10.9353
㶚	-10.9353
鉤	-10.9354
頋	-10.9354
霸	-10.9355
栗	-10.9356
迭	-10.9357
茜	-10.9357
誅	-10.9358
清潤	-10.9358
諕	-10.9358
陳三聘	-10.9359
佇立	-10.9359
灼灼	-10.9359
迴廊	-10.9359
蓉	-10.9359
準擬	-10.9359
脾	-10.9359
㸃絳脣	-10.9361
曹組	-10.9361
玎璫	-10.9364
暗香浮動	-10.9364
曹勛	-10.9366
何夢桂	-10.9366
五仄韻後段十句	-10.9366
我這裏	-10.9375
綉簾	-10.9376
攜酒	-10.9377
氷姿	-10.938
男兒	-10.9382
城郭	-10.9386
字仄聲第四句	-10.9387
後段結句	-10.9388
凝酥	-10.9391
四十五字	-10.9391
蘋花	-10.9392
五侯	-10.9402
彩鳳	-10.9404
扇底	-10.9408
相親	-10.9409
輕絮	-10.9409
歡娯	-10.9412
滿座	-10.9422
悲凉	-10.9424
詞體惟前段	-10.9426
夢遶	-10.9428
分攜	-10.9437
字入聲	-10.9444
鎮日	-10.9448
韻後段十句	-10.945
終朝	-10.9459
玉珮	-10.9469
鵝黄	-10.9469
五字一句	-10.9483
光輝	-10.9489
栁腰	-10.949
金勒	-10.9491
向尊前	-10.9493
冰雪	-10.9494
娛	-10.9495
連枝	-10.9498
無慿	-10.9502
俟	-10.9507
銘	-10.9508
餓	-10.9516
晞	-10.9517
丗	-10.9517
提要	-10.9517
靡	-10.9517
欸乃	-10.9518
蓴鱸	-10.9518
朝朝暮暮	-10.9519
壻	-10.9519
雲霄	-10.9519
鈔	-10.952
鴟夷	-10.952
捉	-10.952
㢘	-10.9521
萬歲	-10.9521
沈端節	-10.9522
峨	-10.9522
籃	-10.9522
片時	-10.9523
道士	-10.9523
昆	-10.9524
頃刻	-10.9524
㒷	-10.9527
祈	-10.9527
凛	-10.9528
衷腸	-10.9529
灞橋	-10.9529
舞罷	-10.9533
觸目	-10.9535
杜陵	-10.9537
巫陽	-10.9538
㸃檢	-10.9539
輕負	-10.9539
紀聞	-10.9539
永晝	-10.9549
帝里	-10.9552
銀塘	-10.9555
落花流水	-10.9558
前調韓淲	-10.9559
怨王孫	-10.956
霽色	-10.9574
誰料	-10.9575
梳頭	-10.9576
三十三字	-10.9578
聲價	-10.9581
酒酣	-10.959
難描	-10.9599
獨守	-10.9605
畫堂春	-10.9606
香囊	-10.9613
前叚	-10.9614
兩段	-10.9628
漢宫春	-10.963
鴛帳	-10.9637
國色	-10.9638
相續	-10.9639
波面	-10.9639
西樵	-10.9643
頓成	-10.9644
斜陽暮	-10.9645
珊	-10.9646
白鶴	-10.9654
俺那	-10.9655
補之	-10.9664
羅襟	-10.967
鳳城	-10.9671
輒	-10.9672
毛詞	-10.9676
囑	-10.9676
徽宗	-10.9678
回顧	-10.9681
韤	-10.9681
淋	-10.9682
窗外	-10.9682
皇甫松	-10.9682
用前韻	-10.9683
奠	-10.9685
東堂	-10.9686
耒	-10.9686
睫	-10.9686
鼉	-10.9687
旧	-10.9688
䴡	-10.969
褭	-10.9691
剡	-10.9693
組	-10.9693
丈夫	-10.9693
瞰	-10.9693
屯	-10.9693
仄韻後段九句	-10.9694
青帘	-10.9694
寥廓	-10.9694
壊	-10.9694
亊	-10.9697
禾黍	-10.9698
騁	-10.9698
砑	-10.9699
珊珊	-10.9699
赤緊的	-10.97
半篙	-10.97
調咲令	-10.9702
雙調一百三字前	-10.9702
四十一字	-10.9704
埸	-10.9705
西泠	-10.9707
哀絃	-10.9708
蕪城	-10.9709
明月清風	-10.9709
杜鵑啼	-10.971
前後同	-10.9715
玉筯	-10.9717
前調劉基	-10.9719
百草	-10.972
字平聲第四句	-10.9724
彈指	-10.9726
卿卿	-10.973
東郊	-10.9731
鳯樓	-10.9733
豈知	-10.9734
爐烟	-10.9736
唱徹	-10.9736
笑靨	-10.9743
時莭	-10.9744
枕畔	-10.975
淮南	-10.9752
艇子	-10.9755
追遊	-10.9766
金線	-10.9773
桃源洞	-10.9784
豈非	-10.9788
用仄聲	-10.9796
更有那	-10.9801
祥雲	-10.9806
絲管	-10.9807
全異	-10.9808
仙鄉	-10.9812
㡬曽	-10.9821
志云	-10.9831
筯	-10.9836
詞集之	-10.9841
澄江	-10.9842
陛	-10.985
磊	-10.9852
珀	-10.9853
導	-10.9853
柬	-10.9856
悦	-10.9859
盌	-10.9861
婵姢	-10.9861
䖍	-10.9862
帊	-10.9863
装	-10.9863
秋霽	-10.9863
蹄	-10.9864
欝	-10.9864
四十二字	-10.9865
尹鶚	-10.9866
宿酲	-10.9867
姊妹	-10.9867
瞧	-10.9867
毛幵	-10.9868
騘	-10.9868
驂鸞	-10.987
褥	-10.9875
探梅	-10.988
霎時間	-10.9881
形容	-10.9881
三台	-10.9882
眉峰	-10.9883
切切	-10.9888
盃酒	-10.9888
蘇堤	-10.989
一瞬	-10.989
王千秋	-10.9892
跳出	-10.9894
披衣	-10.9906
簫韶	-10.9908
集賢	-10.9908
八九	-10.9913
直待	-10.9922
漁燈	-10.9924
昔日	-10.9926
夏景	-10.9928
追隨	-10.9928
青銅	-10.9932
慿誰	-10.9932
蘭膏	-10.9939
玉笋	-10.9946
繡屏	-10.9947
柳梢	-10.9953
臨鏡	-10.9954
莫厭	-10.9955
朱閣	-10.9955
故里	-10.9971
檀心	-10.9973
前調陳允平	-10.9974
獨醒	-10.9975
序云	-10.9978
歸騎	-10.9982
用平聲	-10.9989
但願	-11
低迷	-11.0009
噫	-11.0012
西河	-11.0014
瓊樹	-11.0018
艸	-11.0023
斷霞	-11.0027
褁	-11.0028
副使	-11.003
蘭陵王	-11.0033
本集	-11.0034
繾綣	-11.0034
啜	-11.0035
能改齋	-11.0036
跌	-11.0037
浣溪紗	-11.0038
攢	-11.0038
孜孜	-11.004
償	-11.004
一剪梅	-11.0041
程正伯	-11.0041
䑕	-11.0041
搯	-11.0041
躱	-11.0042
杭州	-11.0042
范蠡	-11.0043
潺潺	-11.0043
億	-11.0044
目録欽定四庫全書御選歴代詩餘巻	-11.0044
澁	-11.0045
仄平平仄	-11.0045
朱雍	-11.0046
雕䦨	-11.0048
綉幃	-11.0049
厯官	-11.0049
指望	-11.005
太液	-11.005
䏻勾	-11.005
蓬壺	-11.0051
金菊香	-11.0051
瑶堦	-11.0055
澄澄	-11.0055
丁香結	-11.0057
瑶䑓	-11.006
捲珠簾	-11.0061
萬壑	-11.0062
澹澹	-11.0062
九霄	-11.0064
稚子	-11.0065
錦鱗	-11.0078
江臯	-11.0081
輦路	-11.0082
紫府	-11.0082
梁園	-11.0082
皇州	-11.0083
金甌	-11.0094
或謂	-11.0094
短棹	-11.0103
無迹	-11.0121
玉勒	-11.0133
玉斚	-11.0135
水溶溶	-11.0139
生綃	-11.0143
強如	-11.0163
厨	-11.0178
信音	-11.0178
腸㫁	-11.0181
昔年	-11.0189
七首	-11.0192
趙文	-11.0201
族	-11.0204
帙	-11.0207
鶗鴂	-11.0211
帛	-11.0212
罕	-11.0212
凱	-11.0212
珥	-11.0214
嵓	-11.0214
湖州	-11.0214
金巵	-11.0214
轍	-11.0215
酡	-11.0215
團圞	-11.0215
漕	-11.0215
蝸角	-11.0216
㵼	-11.0216
琳	-11.0216
刮	-11.0216
琪	-11.0218
兀的不	-11.0219
蕃	-11.022
蘇子瞻	-11.022
酒初醒	-11.022
吿	-11.022
貔貅	-11.022
羲	-11.0221
羊羔	-11.0222
畫棟	-11.0222
爆	-11.0223
檀槽	-11.0223
咄	-11.0223
揮毫	-11.0223
恬	-11.0225
字仄聲第	-11.0225
數十	-11.0225
擷	-11.0225
鸚	-11.0226
京洛	-11.0226
出隊子	-11.0226
縹	-11.0228
段各八句	-11.0228
宋元人	-11.0234
汲古	-11.0235
羙滿	-11.0236
銀筝	-11.0236
蹙損	-11.0238
蘇卿	-11.0241
碧瓦	-11.0243
指㸃	-11.0243
桐隂	-11.0245
畫䦨	-11.0252
字仄聲第三句	-11.0254
仄仄平平	-11.0256
後段第六句	-11.0263
芳草渡	-11.0268
飄蓬	-11.0278
染就	-11.0279
前調陸游	-11.0283
添二字	-11.0291
可仄據此	-11.0292
記年時	-11.031
帝王	-11.033
嬝娜	-11.0377
貂	-11.038
漳	-11.0384
梓	-11.0391
髭	-11.0391
斤	-11.0392
胥	-11.0392
轟	-11.0395
漉	-11.0396
㧞	-11.0397
惺惺	-11.0397
疇昔	-11.0398
淩波	-11.0399
畦	-11.04
桺	-11.0401
賡	-11.0402
此調秪有	-11.0403
捷	-11.0403
蒲萄	-11.0403
𦍑	-11.0404
舉進士	-11.0404
䔩	-11.0405
扮	-11.0405
大江東去	-11.0405
洩	-11.0405
儒冠	-11.0406
冽	-11.0408
蚕	-11.041
拂拂	-11.0411
冰輪	-11.0415
弔古	-11.0417
嚴仁	-11.0421
俊俏	-11.0421
采蓮	-11.0423
羅裳	-11.0423
興廢	-11.0427
形勝	-11.0429
解珮	-11.0432
蘭湯	-11.0434
贈妓	-11.0434
憶舊遊	-11.0436
竹籬	-11.0437
綵筆	-11.044
孤幃	-11.0443
南吕	-11.0455
漁唱	-11.0456
何湏	-11.0459
粉墻	-11.0461
所採	-11.0463
銀燈	-11.0468
竹屋	-11.0476
寶釵	-11.0477
吳越	-11.0477
隂陽	-11.0489
斷腸聲	-11.0492
梧桐影	-11.0495
萬丈	-11.0497
信杳	-11.0501
粉蝶	-11.0502
夢難成	-11.0507
児裡	-11.051
豈可	-11.051
涯	-11.0514
盛事	-11.0518
與君同	-11.0519
詞前段第三句	-11.0527
酲	-11.0533
獲	-11.0567
俠	-11.0568
諾	-11.0572
裔	-11.0573
字平聲第	-11.0575
髓	-11.0577
京兆	-11.0577
鵶	-11.0578
螯	-11.0579
港	-11.0579
茰	-11.058
羲皇	-11.0581
㽞	-11.0581
儲	-11.0582
灔	-11.0582
譚	-11.0582
擾	-11.0583
泓	-11.0583
白居易	-11.0583
巘	-11.0583
詞體惟前	-11.0583
筦	-11.0584
嚬	-11.0585
休辭	-11.0585
楊愼	-11.0586
黄魯直	-11.0586
祅	-11.0586
千秋嵗	-11.0586
巉	-11.0586
油壁	-11.0587
御選歴代詩餘	-11.0587
爪	-11.0587
粹	-11.0588
王安中	-11.0588
培	-11.0588
滌	-11.0588
無憀	-11.0588
酹江月	-11.0589
愔愔	-11.0589
淪	-11.0589
凋零	-11.0589
棧	-11.059
萱草	-11.0591
菰蒲	-11.0591
堆積	-11.0591
荑	-11.0591
蹬	-11.0591
胭	-11.0593
第六七句	-11.0593
粉黛	-11.0593
促織	-11.0594
一落索	-11.0596
秃厮児	-11.0596
醄	-11.0598
凄楚	-11.0598
仙呂	-11.06
牽牛	-11.0601
九衢	-11.0601
金鑾	-11.0601
翩然	-11.0602
章䑓	-11.0604
京口	-11.0608
四仄韻後段八句	-11.0609
錢唐	-11.0609
嘆息	-11.0609
簾幃	-11.061
繡戸	-11.061
離披	-11.0612
縈牽	-11.0616
凄迷	-11.0617
裁剪	-11.0624
千秋歲	-11.0629
直恁	-11.0637
辜負了	-11.0646
前調周紫芝	-11.065
窗紗	-11.0652
從别後	-11.0653
名韁	-11.0658
嶺頭	-11.0677
悄無人	-11.0686
樓䑓	-11.0687
翠幕	-11.0688
篆烟	-11.0701
水晶宫	-11.0703
雪霽	-11.0705
碧桃花	-11.0707
嗏	-11.0756
醆	-11.0759
亟	-11.0766
揖	-11.0767
劉禹錫	-11.0767
淼	-11.0768
卑	-11.0769
悅	-11.077
旛	-11.077
昉	-11.077
驗	-11.0771
維揚	-11.0771
後段第七句	-11.0772
准備	-11.0773
漂泊	-11.0773
杓	-11.0773
恢	-11.0775
縛	-11.0775
狹	-11.0776
江神子	-11.0776
昂	-11.0776
檝	-11.0776
趕	-11.0776
糟	-11.0776
笏	-11.0777
絛	-11.0777
穹	-11.0778
醋葫蘆	-11.0779
趙孟頫	-11.0779
鑒	-11.0779
不由我	-11.078
驥	-11.0781
葛立方	-11.0783
首可校	-11.0783
薺	-11.0785
讃	-11.0785
瑞靄	-11.0785
榮枯	-11.0786
义	-11.079
穠李	-11.0793
在心頭	-11.0795
蕭娘	-11.0796
鐘鼓	-11.0797
騎鶴	-11.0799
荆州	-11.0799
單于	-11.0801
仕女	-11.0802
難熬	-11.0806
雙眸	-11.0807
鸞簫	-11.081
短長亭	-11.081
砧聲	-11.0814
歩歩	-11.0816
容顔	-11.0821
二十五	-11.0822
繁枝	-11.0831
最苦是	-11.0838
蘭棹	-11.0838
斜川	-11.084
妝㸃	-11.0843
帳底	-11.0853
病懨懨	-11.0858
杯盤	-11.0859
鳳釵	-11.0872
四十三字	-11.0877
諌	-11.0952
爱	-11.0953
聘	-11.0953
刷	-11.0955
陀	-11.0956
罰	-11.0961
遨	-11.0962
稻	-11.0964
閗鵪鶉	-11.0964
澀	-11.0964
掇	-11.0964
韀	-11.0966
滚滚	-11.0966
誥	-11.0967
酒泉子	-11.0967
柴扉	-11.0968
畹	-11.0968
遡	-11.0969
勲業	-11.097
虀	-11.097
􁈯	-11.097
賀方回	-11.097
歪	-11.0971
此調以此詞為正體	-11.0971
盒	-11.0972
颯颯	-11.0973
㕍	-11.0973
莓	-11.0974
斑斑	-11.0974
江楓	-11.0975
驕馬	-11.0976
這其間	-11.0978
咲吟吟	-11.0978
断腸	-11.0979
鱗鴻	-11.098
員	-11.0984
珠簾捲	-11.0984
驀然	-11.0984
蛾睂	-11.0985
嬴得	-11.0986
則我這	-11.0986
匹馬	-11.0987
唐宋	-11.099
姚黄	-11.099
太平樂府	-11.0991
回廊	-11.0995
與前異	-11.0995
鰲山	-11.0998
挑燈	-11.0999
字平聲第三句	-11.1001
減二字	-11.1001
獨自箇	-11.1001
一任教	-11.1008
比翼	-11.101
天籟	-11.1019
今嵗	-11.102
荒凉	-11.1029
離別	-11.103
因縁	-11.1034
嵗晩	-11.1039
不勝情	-11.1039
眉顰	-11.1046
禁持	-11.1062
送行人	-11.1071
九十六字	-11.1072
落一字	-11.1085
疊疊	-11.1086
杜鵑聲	-11.1093
桃源路	-11.1099
櫳	-11.1124
翥	-11.1125
菱歌	-11.1128
鴛枕	-11.1136
衫袖	-11.1143
蟋蟀	-11.1145
讐	-11.1149
弁	-11.1149
攷	-11.1151
疇	-11.1152
崔嵬	-11.1152
朝廷	-11.1156
溟	-11.1159
醁	-11.1159
娼	-11.1159
陳師道	-11.1161
聡	-11.1161
蘅	-11.1162
奔走	-11.1163
顚	-11.1163
姐	-11.1163
畆	-11.1163
摹	-11.1163
炒	-11.1164
斗柄	-11.1164
棚	-11.1164
望逺行	-11.1164
怱怱	-11.1164
社稷	-11.1165
灺	-11.1168
刮地風	-11.1168
葛長庚	-11.1169
𬒮	-11.117
憑仗	-11.1171
晴嵐	-11.1172
襄王	-11.1172
籜	-11.1173
詹正	-11.1173
冰肌	-11.1174
九十五字	-11.1176
踈籬	-11.1177
師師	-11.1178
撲撲	-11.1183
四仄韻後段九句	-11.1183
簇簇	-11.1188
半霎	-11.119
一闋云	-11.119
簾不捲	-11.1198
翠幄	-11.12
霜毫	-11.1201
蕭踈	-11.1204
太平令	-11.1205
佳致	-11.1206
忍教	-11.1207
李白詩	-11.1207
輸與	-11.1231
繁杏	-11.1232
體態	-11.1237
嬌姿	-11.124
暮靄	-11.1245
不押韻異	-11.1317
九十四字	-11.1332
連理枝	-11.1343
恵	-11.1347
撐	-11.1347
柏	-11.1348
淳熙	-11.1352
艱	-11.1352
躬	-11.1353
惻	-11.1354
謨	-11.1354
槃	-11.1355
叫	-11.1355
葬	-11.1357
碍	-11.1357
僻	-11.1357
豚	-11.136
麄	-11.136
泮	-11.136
灞	-11.1361
棐	-11.1362
楞	-11.1362
涓涓	-11.1363
䌫	-11.1365
御街行	-11.1365
黄粱	-11.1365
譁	-11.1365
葛郯	-11.1367
採茶歌	-11.1367
炭	-11.1368
普天下	-11.1368
啣	-11.1369
爛熳	-11.1369
前度劉郎	-11.1369
往常時	-11.137
羈旅	-11.1372
婆羅門	-11.1373
此調以此詞為正體若	-11.1377
七弟兄	-11.1379
槐隂	-11.1379
瓊漿	-11.1379
東甌令	-11.1384
太師	-11.1392
罨畫	-11.1395
吳姬	-11.1397
荆公	-11.1399
杏臉	-11.1401
因緣	-11.1404
彩鸞	-11.1407
脂粉	-11.1408
一百五字	-11.1415
他道是	-11.1418
急管	-11.142
詞正與此同	-11.1426
布衣	-11.1434
不覺的	-11.1435
堪羡	-11.1452
前段第三句	-11.151
莭	-11.1519
麝蘭	-11.1528
弗	-11.1532
芰	-11.1536
中原音韻	-11.1542
金貂	-11.1549
技	-11.1553
竚	-11.1553
忌	-11.1556
餳	-11.1556
究	-11.1556
崢嶸	-11.1558
紉	-11.1558
恱	-11.1559
贊	-11.156
悼	-11.156
恊	-11.156
軿	-11.1561
六十二字	-11.1562
漣	-11.1563
櫺	-11.1564
魏承班	-11.1564
蒜	-11.1564
釭	-11.1565
陳子龍	-11.1565
墀	-11.1565
樁	-11.1566
嵬	-11.1567
搗練子	-11.1567
茸茸	-11.1567
呂渭老	-11.1567
倣	-11.1568
觜	-11.1569
通判	-11.1569
邈	-11.1569
楊基	-11.1569
宋史樂志	-11.1569
銀潢	-11.157
㳙	-11.1571
花菴詞選	-11.1573
粒	-11.1573
溶	-11.1574
綺羅叢	-11.1575
孤鶩	-11.1576
秦筝	-11.1576
眷戀	-11.1576
囗	-11.1577
愽	-11.1577
鴛幃	-11.1586
乞巧	-11.1586
陽関	-11.159
蛩吟	-11.1597
縈繫	-11.1605
容貌	-11.1609
掩重門	-11.1611
寳髻	-11.1614
逍遥樂	-11.1616
太史	-11.1618
即席	-11.1621
思前事	-11.1697
倚危樓	-11.1724
昏昏	-11.1726
舸	-11.1726
𢎞	-11.1751
娉	-11.1759
兢	-11.1762
須臾	-11.1762
蘄	-11.1763
詞詞曲類	-11.1764
裕	-11.1765
瀑	-11.1766
課	-11.1766
㤀	-11.1767
惑	-11.1768
熒熒	-11.1768
唐多令	-11.1769
前段結句	-11.1769
衲	-11.177
冕	-11.1771
邅	-11.1772
巡	-11.1772
歸去來兮	-11.1773
盧祖皋	-11.1773
愜	-11.1773
雉	-11.1775
馥郁	-11.1775
茱萸	-11.1775
謠	-11.1776
採桑子	-11.1776
宴清都	-11.1776
並蒂	-11.1776
凹	-11.1776
朱淑真	-11.1776
蔻	-11.1776
淋浪	-11.1777
徤	-11.1777
萸	-11.1778
淒淒	-11.1778
茘	-11.1779
㽔	-11.178
羸	-11.1782
縷金衣	-11.1782
鶴冲天	-11.1782
摩挲	-11.1782
穣	-11.1782
廻廊	-11.1783
卽	-11.1783
并刀	-11.1783
𥙷	-11.1784
上一下四	-11.1784
銷金帳	-11.1784
段各七句	-11.1784
顛狂	-11.1784
罵玉郎	-11.1785
惜分飛	-11.1786
絳都春	-11.1786
鼕鼕	-11.1786
聰明	-11.1789
喬牌児	-11.1789
一句四字一句	-11.1791
無瑕	-11.1792
郊原	-11.1794
最難忘	-11.1795
夫婦	-11.1795
珠履	-11.1798
成就了	-11.1807
梁苑	-11.1809
不如歸去	-11.1815
玉液	-11.1821
危亭	-11.1822
一百六字	-11.1834
日遲遲	-11.1876
矯	-11.1973
漠	-11.1977
炉	-11.1978
郢	-11.1978
稜	-11.1978
砂	-11.198
蒂	-11.198
濃如酒	-11.1981
雍	-11.1981
屧	-11.1981
諱	-11.1981
剔銀燈	-11.1982
麯	-11.1982
潯陽	-11.1983
虜	-11.1984
篌	-11.1984
花草稡編巻	-11.1984
儼	-11.1985
藩	-11.1985
絳紗	-11.1985
拓	-11.1986
馮魁	-11.1987
陶陶	-11.1987
碁	-11.1988
鉢	-11.1988
貟	-11.1988
戶	-11.1989
氛	-11.1989
囂	-11.199
丘壑	-11.199
撾	-11.199
交頸	-11.199
杖屨	-11.199
瑰	-11.1991
烹茶	-11.1992
夕陽西下	-11.1993
迓	-11.1994
平山堂	-11.1995
四門子	-11.1996
驅馳	-11.1997
鴛瓦	-11.1998
梨芲	-11.1999
簟紋	-11.1999
各添一字	-11.2002
危䦨	-11.2003
牙床	-11.2003
金莖	-11.2003
絳闕	-11.2004
烏帽	-11.2005
簷牙	-11.2006
楊炎	-11.2008
另列	-11.201
冰壺	-11.2011
僅見	-11.2019
仄平平	-11.2028
揺蕩	-11.2033
鳯簫	-11.2056
韻後段四句	-11.2094
乗鸞	-11.2101
黄蘆	-11.2135
二十七	-11.2152
襦	-11.2154
鶚	-11.2189
凰	-11.219
六州歌頭	-11.219
累遷	-11.2191
佑	-11.2191
蔬	-11.2192
剗	-11.2193
駁	-11.2194
羯鼓	-11.2195
伍	-11.2196
蓴羮	-11.2196
葺	-11.2197
掖	-11.2197
峩	-11.2198
䘮	-11.2198
六字一句	-11.2199
蔌蔌	-11.22
隄防	-11.22
啚	-11.22
恕	-11.2201
磚	-11.2201
奎	-11.2201
錐	-11.2203
躊躇	-11.2205
惲	-11.2205
法曲獻仙音	-11.2206
花心動	-11.2206
鵰	-11.2206
蜻蜓	-11.2206
瓏璁	-11.2207
彭澤	-11.2208
張大烈	-11.2208
舅	-11.2209
顧敻	-11.2209
香馥馥	-11.2209
饞	-11.221
江兒水	-11.221
沈㑹宗	-11.221
我子見	-11.2211
上馬嬌	-11.2212
菩薩	-11.2213
鸞膠	-11.2215
玎	-11.2215
鵾	-11.2215
配偶	-11.2216
尊罍	-11.2217
宜男	-11.2217
止不過	-11.2218
𬗋花児序	-11.2218
雙調一百一字前	-11.2219
紫薇	-11.222
五仄韻後段九句	-11.222
甜水令	-11.2221
阮郎	-11.2223
歎息	-11.2227
潘鬢	-11.2227
錦袍	-11.2238
管鑑	-11.224
擬倩	-11.2242
可証	-11.225
朱闌	-11.225
四字三句	-11.2255
羅䄂	-11.2266
朔風	-11.2281
詰	-11.2407
員外郎	-11.2407
竄	-11.241
蹈	-11.2411
楸	-11.2413
慎	-11.2413
冦	-11.2417
孺	-11.2417
譌	-11.2418
諫	-11.2418
帘	-11.2418
瞑	-11.2418
牒	-11.2419
彥	-11.2419
倖	-11.242
崑	-11.2421
屯田	-11.2421
葉小鸞	-11.2421
吼	-11.2421
槿	-11.2422
賒	-11.2422
草堂詩餘	-11.2423
婺	-11.2423
汪元量	-11.2423
㗋	-11.2423
挈	-11.2423
焰	-11.2423
霅	-11.2423
晏同叔	-11.2424
翰林院檢討	-11.2424
卮	-11.2425
李煜	-11.2427
御溝	-11.2427
撑	-11.2428
不自由	-11.2428
翛然	-11.2428
搔	-11.243
烱	-11.2431
踟蹰	-11.2432
梁少白	-11.2432
􁬸	-11.2434
拾遺	-11.2434
瀰	-11.2435
並頭蓮	-11.2435
幕府	-11.2436
元和令	-11.2437
晁端禮	-11.2438
詞之添字	-11.2438
皆變體也	-11.2438
人生行樂	-11.2441
層層	-11.2441
此與周詞同惟	-11.2443
歐公	-11.2443
樂陶陶	-11.245
倦尋芳	-11.2452
庭戸	-11.2454
百姓	-11.2455
可憎	-11.2458
字平聲第五句	-11.2467
想着那	-11.2467
恁般	-11.2468
紗厨	-11.2473
鵑	-11.2615
稚	-11.2626
博士	-11.2642
嬰	-11.2644
咳	-11.2645
斫	-11.2645
七言絶句	-11.2647
决	-11.2647
繪	-11.2647
檄	-11.2648
産	-11.2649
眩	-11.2649
慌	-11.2649
夲	-11.265
氅	-11.265
紵	-11.265
詫	-11.265
潺湲	-11.2652
諸葛	-11.2653
淥	-11.2653
釅	-11.2653
矗	-11.2653
猿啼	-11.2654
砕	-11.2654
逃禪	-11.2655
䟎	-11.2655
麴塵	-11.2655
瑟瑟	-11.2656
慙	-11.2656
欵欵	-11.2656
采桑子	-11.2658
朱希真	-11.2659
灾	-11.2659
李昴英	-11.2659
体	-11.266
挑菜	-11.266
墟	-11.266
袴	-11.266
林鍾商	-11.266
靈犀	-11.2661
句取以為名	-11.2661
芹	-11.2662
孔雀	-11.2662
哽咽	-11.2662
仄韻後段十二句	-11.2663
丕	-11.2664
以此詞為正體	-11.2665
追陪	-11.267
揺曳	-11.267
瑣窗	-11.2672
瀟	-11.2675
唐虞	-11.2675
寳瑟	-11.2683
仙吕調	-11.2684
樵夫	-11.2688
星辰	-11.2698
後段十句四平韻	-11.2785
弓彎	-11.28
七十五字	-11.2809
昏鴉	-11.2828
蛺蝶	-11.2861
周羙成	-11.2865
藁	-11.287
喻	-11.2872
蛻	-11.2875
哥哥	-11.2875
旨	-11.2877
督	-11.2878
蝸	-11.2879
王安石	-11.2881
貝	-11.2882
昬	-11.2883
儕	-11.2883
惺	-11.2884
哦	-11.2884
皎皎	-11.2885
緋	-11.2885
洶	-11.2885
㑹稽	-11.2886
金人捧露盤	-11.2886
轅	-11.2887
鴈兒落	-11.2887
尊俎	-11.2888
弟兄	-11.2888
燕歸梁	-11.2888
濡	-11.2889
無覓處	-11.2889
仁宗	-11.2889
宏	-11.289
晁無咎	-11.2891
雜録	-11.2891
紫騮	-11.2891
鞚	-11.2893
陳亮	-11.2893
駝	-11.2893
餘酲	-11.2893
沖	-11.2894
螿	-11.2894
􁒭	-11.2899
照此填	-11.2901
榮辱	-11.2902
古水仙子	-11.2906
湘妃	-11.291
曹冠	-11.2913
春將暮	-11.2915
牽掛	-11.2921
雙雙燕	-11.2974
字平聲譜内可平可仄據此	-11.2984
紗牕	-11.2991
熏爐	-11.3017
九十三字	-11.3023
詞句讀	-11.3062
鉉	-11.3078
銓	-11.3104
萬年歡	-11.3104
曇	-11.3105
朕	-11.3109
版	-11.3111
昼	-11.3112
慨	-11.3113
軀	-11.3113
糾	-11.3113
泫	-11.3114
湄	-11.3116
媿	-11.3116
冒	-11.3117
􁑴	-11.3117
釘	-11.3119
漣漪	-11.3119
羔	-11.3119
賛	-11.3119
批	-11.3119
潁	-11.3119
缷	-11.3119
駭	-11.312
緱	-11.3122
哄	-11.3122
効	-11.3122
闐	-11.3123
醴	-11.3123
祓	-11.3124
清平調	-11.3124
碌	-11.3124
薛昭藴	-11.3125
䧟	-11.3125
芙	-11.3126
白樸	-11.3126
擺列着	-11.3126
嵌	-11.3126
箆	-11.3128
杜甫	-11.3128
毛熙震	-11.3128
軫	-11.3128
儉	-11.3128
史邦卿	-11.3129
馬莊父	-11.3129
無重數	-11.3129
淡泞	-11.3129
糧	-11.313
抖擻	-11.313
漏泄	-11.313
揑	-11.3131
睁	-11.3132
雍容	-11.3132
攸攸	-11.3132
㨂	-11.3135
雞犬	-11.3136
怎能勾	-11.3136
濟翁	-11.3137
陡覺	-11.3137
嚥	-11.3137
木犀	-11.3138
漁蓑	-11.314
呈瑞	-11.3144
性格	-11.3173
八十九字	-11.3181
腸断	-11.3208
採菱	-11.3218
彎彎	-11.3228
段起句	-11.3245
六字折腰	-11.327
駿	-11.328
萬朶	-11.33
雙調九十六字前	-11.3308
調詞一百	-11.3312
瞬	-11.3331
悠	-11.3335
詣	-11.3344
輙	-11.335
聰	-11.3351
白樂天	-11.3352
𣲖	-11.3353
觀察	-11.3354
哈	-11.3354
貽	-11.3355
績	-11.3356
廬陵人	-11.3358
泗	-11.336
筋	-11.336
欒	-11.336
帚	-11.336
颯	-11.3361
陸費墀欽定四庫全書	-11.3362
䟽	-11.3362
黔	-11.3362
潦倒	-11.3362
﨑嶇	-11.3363
鎡	-11.3363
􁋑	-11.3363
穉	-11.3363
覊	-11.3363
糖	-11.3363
姪	-11.3363
蘆川	-11.3364
掄	-11.3364
只落得	-11.3365
掂	-11.3365
廽	-11.3365
吴文英	-11.3366
纍纍	-11.3366
吠	-11.3366
儗	-11.3367
矩	-11.3367
犂	-11.3367
濺濺	-11.3368
揪	-11.3368
怎奈向	-11.3369
𤨏	-11.3369
蔡松年	-11.3369
囚	-11.3369
頸	-11.3369
廖	-11.337
撅	-11.337
決	-11.337
朝雲暮雨	-11.337
胡浩然	-11.337
嘱付	-11.3371
雙調一百四字前	-11.3371
鑚	-11.3371
林正大	-11.3372
蹁	-11.3372
拐	-11.3372
斕	-11.3372
謎	-11.3372
湮	-11.3372
功業	-11.3372
纒綿	-11.3373
矦	-11.3373
作七字一句	-11.3374
陸務觀	-11.3374
劉伶	-11.3375
睂嫵	-11.3375
釃	-11.3375
麋鹿	-11.3376
喒	-11.3376
蔲	-11.3377
沽羙酒	-11.3377
抛棄	-11.3378
律吕	-11.3379
造物	-11.338
㕘校	-11.3383
詞之減字	-11.3385
寸寸	-11.3385
玉漏遲	-11.3389
清江引	-11.339
屏幃	-11.3492
部侍郎	-11.3534
嬴	-11.3587
悠颺	-11.3595
詹	-11.36
掾	-11.36
諭	-11.3601
囪	-11.3602
苧	-11.3606
萱	-11.3607
榛	-11.3608
霓裳羽衣	-11.3608
耘	-11.3609
販	-11.3609
竇	-11.3611
㶑灔	-11.3611
恥	-11.3611
彞	-11.3612
鶩	-11.3613
啻	-11.3613
臞	-11.3613
上小楼	-11.3614
琚	-11.3615
岀	-11.3615
掀髯	-11.3615
峙	-11.3615
褐	-11.3615
常言道	-11.3616
粼粼	-11.3616
朦	-11.3617
夙	-11.3617
譲	-11.3617
袋	-11.3617
瞢騰	-11.3618
諷	-11.3618
㤙	-11.362
對酒當歌	-11.362
迎仙客	-11.362
榆莢	-11.362
望海潮	-11.3621
洪瑹	-11.3621
黙黙	-11.3621
堞	-11.3622
駟	-11.3622
一輪明月	-11.3623
豁	-11.3623
閃閃	-11.3623
叱	-11.3623
戴復古	-11.3624
喘	-11.3625
嚦嚦	-11.3625
雙調九十八字前	-11.3626
雍熈	-11.3626
喬牌兒	-11.3626
林逋	-11.3626
扭	-11.3627
供奉	-11.3627
御定詞譜巻	-11.3627
脫布衫	-11.3627
曾覿	-11.3628
㪅	-11.3628
汲古刻	-11.3628
酥胸	-11.363
他他他	-11.363
㨿	-11.363
平韻後段十一句	-11.3631
淡竚	-11.3631
包蔵	-11.3632
第七八句	-11.3632
凄切	-11.3636
庭院深深	-11.3639
賞花時	-11.383
簸	-11.3855
亨	-11.386
舛	-11.3861
猊	-11.3862
菲	-11.3864
鶯啼序	-11.3865
十五家詞巻	-11.3865
州刺史	-11.3866
趙令畤	-11.3867
拄	-11.3867
拒	-11.3867
柴桑	-11.3868
鎔	-11.387
蝶恋花	-11.3871
絮叨叨	-11.3871
髄	-11.3872
勺	-11.3872
鞓	-11.3873
〇	-11.3875
逡巡	-11.3876
厦	-11.3877
凈	-11.3878
濠	-11.3879
殢人嬌	-11.388
歷	-11.388
一壁廂	-11.388
陶潜	-11.388
倪	-11.3881
鼙	-11.3881
罏	-11.3882
蹀躞	-11.3883
帔	-11.3883
丫	-11.3884
扳	-11.3884
桃源憶故人	-11.3885
穀	-11.3888
蠻牋	-11.3889
牧童	-11.3889
我則待	-11.3891
茂陵	-11.3896
枉費	-11.3921
後段第一二句	-11.3923
百二十	-11.393
一百八字	-11.393
五十九字	-11.4079
派	-11.4099
鑠	-11.4123
佚	-11.4125
壤	-11.4127
菩薩蛮	-11.4127
泳	-11.4128
瑯	-11.4128
捕	-11.4129
祀	-11.4129
羗	-11.4131
汙	-11.4132
姜堯章	-11.4132
焙	-11.4132
楹	-11.4132
孚	-11.4133
鏝	-11.4133
葭	-11.4133
崑崙	-11.4133
盂	-11.4133
牛希濟	-11.4133
綫	-11.4134
匈	-11.4134
璇	-11.4134
厖	-11.4135
維摩	-11.4135
鬖	-11.4135
耍孩児	-11.4136
蜕	-11.4137
江北江南	-11.4137
紇	-11.4137
覧	-11.4138
皎潔	-11.4138
用尤侯韻	-11.4138
浣紗	-11.4139
冥冥	-11.4139
天長地乆	-11.414
京鏜	-11.414
朽	-11.4141
搽	-11.4141
㬠	-11.4141
嬈	-11.4141
八六子	-11.4143
曛	-11.4143
嘹喨	-11.4145
橊	-11.4147
字之訛	-11.4147
杜䳌啼	-11.4149
夗	-11.415
我我我	-11.4151
羙甘甘	-11.4152
不注可仄	-11.4152
赶	-11.4153
真乃是	-11.4153
紏	-11.4154
囑付	-11.416
字一句六字一句	-11.4217
左丞	-11.4223
仄仄平	-11.4279
衫䄂	-11.4348
月恭校上	-11.4389
鄂	-11.4392
庫	-11.4396
王介甫	-11.4398
厲	-11.4398
胄	-11.4399
嗽	-11.44
霍	-11.44
忻	-11.4401
登山臨水	-11.4402
栩	-11.4402
睇	-11.4403
元遺山	-11.4404
党	-11.4404
揩	-11.4404
泄	-11.4404
靈均	-11.4405
伶俐	-11.4405
撏	-11.4405
抗	-11.4405
御選厯代詩餘巻	-11.4406
傳言玉女	-11.4406
徊	-11.4406
罅	-11.4406
閻選	-11.4406
頴	-11.4406
迂	-11.4407
䓁	-11.4407
舞裙歌扇	-11.4407
敦	-11.4407
恋	-11.4408
冊	-11.4408
􁡾	-11.4408
乾荷葉	-11.4408
李元膺	-11.4409
冨貴	-11.441
捐	-11.441
鳷	-11.441
熹	-11.441
寇	-11.441
□□□□□□□□□□□□□□□□	-11.4411
隈	-11.4411
怏	-11.4412
颿	-11.4412
蘇庠	-11.4412
凖擬	-11.4412
㝠㝠	-11.4412
山長水	-11.4412
秃	-11.4413
疎影横斜	-11.4413
更和這	-11.4413
溟濛	-11.4413
與前詞異	-11.4415
宋徽宗	-11.4416
秣	-11.4416
丹墀	-11.4416
急煎煎	-11.4416
銕	-11.4416
羃	-11.4417
崔徽	-11.4417
腿	-11.4418
减字木蘭花	-11.4419
磕	-11.4419
人月圓	-11.4423
鴛甃	-11.4423
各減一字	-11.4429
句讀參差	-11.4468
羅襦	-11.4479
賺煞	-11.4482
恒	-11.4657
鏗	-11.4665
夘	-11.4668
減字朩蘭花	-11.4671
沃	-11.4672
跪	-11.4672
雋	-11.4674
嫣	-11.4676
竦	-11.4676
灼	-11.4676
輾	-11.4676
衞	-11.4678
肖	-11.4679
湔	-11.4679
搴	-11.468
猗	-11.468
篤	-11.468
惜香樂府	-11.4681
䭾	-11.4681
癯	-11.4681
涇	-11.4682
璞	-11.4682
蓬蒿	-11.4682
繚	-11.4683
竹西歌吹	-11.4683
鱗鱗	-11.4683
簞	-11.4684
叨叨令	-11.4684
黃鶯兒	-11.4685
秦少㳺	-11.4686
臨卭	-11.4686
萍梗	-11.4686
拄杖	-11.4686
臍	-11.4686
愠	-11.4687
劫	-11.4687
凛凛	-11.4687
頒	-11.469
輟	-11.469
忿	-11.4691
鼠	-11.4691
一鈎新月	-11.4691
你㸔這	-11.4692
㸔了這	-11.4693
迢遥	-11.4693
李萊老	-11.4693
倪瓚	-11.4694
馳驟	-11.4695
芙容	-11.4695
匹配	-11.4697
盟誓	-11.4699
惜餘春	-11.4703
日初長	-11.4707
字起韻	-11.4746
想着俺	-11.482
據此餘叅	-11.4915
雙調九十四字前	-11.4931
俾	-11.4944
独	-11.4954
訓	-11.4957
知制誥	-11.4957
欽定四庫全書十五家詞巻	-11.4957
枰	-11.4959
鐸	-11.4961
唤	-11.4962
雜劇	-11.4962
絹	-11.4962
曺	-11.4963
輞川	-11.4964
踰	-11.4965
矢	-11.4966
琶	-11.4966
睢	-11.4967
竹籬茅舍	-11.4967
災	-11.4967
獵獵	-11.4968
漚	-11.4969
臭	-11.4969
籤	-11.497
常子是	-11.497
濁醪	-11.4971
玳	-11.4971
苐	-11.4971
療	-11.4972
㡳	-11.4972
抛毬樂	-11.4972
輭	-11.4973
琤	-11.4973
笔	-11.4973
我和你	-11.4974
滔滔	-11.4975
芦	-11.4975
膽瓶	-11.4975
揔	-11.4977
謝無逸	-11.4977
輳	-11.4977
謝懋	-11.4978
瓏	-11.4978
東風第一枝	-11.4978
黄梅雨	-11.4978
蠟炬	-11.498
颸	-11.4981
参差	-11.4981
衠	-11.4981
脯	-11.4982
腸欲斷	-11.4984
鋼	-11.4985
詞同惟前段起句	-11.4985
無别首宋詞可校	-11.4986
三聲叶	-11.499
簮纓	-11.4998
到天明	-11.4998
字領句	-11.5005
寥寥	-11.5088
卒諡	-11.5096
雙調九十七字前	-11.5202
所著有	-11.5239
摭	-11.5243
薪	-11.5244
惋	-11.5245
崩	-11.5246
厥	-11.5246
系	-11.5248
太常引	-11.5249
駢	-11.525
吻	-11.525
懼	-11.5254
櫽括	-11.5254
弇	-11.5254
莆	-11.5255
堯舜	-11.5255
琱	-11.5258
淞	-11.5258
苕溪漁隱	-11.526
閻	-11.526
匡	-11.526
忡忡	-11.5261
悰	-11.5261
称	-11.5261
繒	-11.5261
冨	-11.5261
觚	-11.5261
鬲	-11.5262
玉交枝	-11.5262
垢	-11.5262
弩	-11.5262
玲瓏四犯	-11.5263
筑	-11.5263
肺腑	-11.5263
騃	-11.5263
程珌	-11.5263
傒	-11.5263
辛㓜安	-11.5264
樨	-11.5264
邙	-11.5264
不枉了	-11.5264
籙	-11.5265
崦	-11.5265
鼎鼐	-11.5266
衮衮	-11.5266
槁	-11.5267
婿	-11.5267
緜緜	-11.5268
紫花児序	-11.5268
浩浩	-11.5268
三十六陂	-11.527
堵	-11.527
撃	-11.527
突兀	-11.5271
乂	-11.5271
寍	-11.5272
劈	-11.5272
劉一止	-11.5272
燭影搖紅	-11.5272
毛澤民	-11.5274
選冠子	-11.5274
不校注	-11.5276
吕聖求	-11.5277
雙調一百二字前段十句	-11.5277
総	-11.5279
則他那	-11.528
瓦盆	-11.5283
嬝嬝	-11.5319
逮	-11.5536
瑕	-11.5542
蹟	-11.5552
醽醁	-11.5552
仝	-11.5553
梵	-11.5554
䋲	-11.5554
頥	-11.5555
飮	-11.5557
赭	-11.5558
竅	-11.5558
蠏	-11.556
奮	-11.556
箬笠	-11.5561
廿	-11.5561
仞	-11.5561
皤	-11.5562
妳	-11.5563
鈍	-11.5563
册	-11.5564
滳	-11.5564
副	-11.5564
呉子孝	-11.5564
酺	-11.5565
址	-11.5565
樾	-11.5565
稜稜	-11.5566
丧	-11.5566
鬱鬱	-11.5567
革	-11.5569
韭	-11.5569
比目魚	-11.5571
雨乍晴	-11.5572
尙	-11.5572
旺	-11.5572
段克已	-11.5572
漱	-11.5573
雙調八十二字前	-11.5573
㸔了他	-11.5574
雙頭蓮	-11.5574
脃	-11.5574
琹	-11.5574
玳瑁	-11.5575
儧	-11.5575
溽	-11.5575
哎	-11.5576
芒鞋	-11.5576
轆轤金井	-11.5577
霜葉飛	-11.5577
平韻後段四句三平韻	-11.5577
篱	-11.5577
摔	-11.5578
中吕調	-11.5578
跟	-11.5578
直喫的	-11.5578
敕	-11.5579
伶仃	-11.5579
淺斟低唱	-11.558
多管是	-11.5583
腌	-11.5585
擂	-11.559
玳瑁筵	-11.5591
􁈼	-11.5593
十餘年	-11.5598
山横翠	-11.5603
聲譜内可平可仄據此餘㕘	-11.5645
韻後段八句	-11.5712
娯	-11.5789
淩	-11.586
詞㫖警句	-11.5865
溺	-11.5866
騶	-11.5867
苫	-11.5868
螭	-11.587
冐	-11.5871
刘	-11.5871
珎	-11.5872
聯	-11.5873
卞	-11.5873
錚	-11.5873
騐	-11.5874
忤	-11.5874
艋	-11.5874
婁	-11.5875
蒿	-11.5875
蔗	-11.5875
桃花流水鱖魚肥	-11.5875
巫山一段雲	-11.5875
嘈	-11.5875
舄	-11.5875
哩	-11.5875
鞏	-11.5875
霓裳中序第一	-11.5876
皪	-11.5876
羃羃	-11.5876
趄	-11.5876
三萬六千	-11.5876
噎	-11.5876
燄	-11.5876
珏	-11.5876
思越人	-11.5876
俳	-11.5877
篛	-11.5877
我子待	-11.5877
曈	-11.5877
饌	-11.5878
鳶	-11.5878
百宜嬌	-11.5879
蘇幕遮	-11.588
䓻	-11.588
豓	-11.588
禎祥	-11.5881
㶑	-11.5881
縮	-11.5881
穎	-11.5881
傀儡	-11.5882
無覔處	-11.5882
熬煎	-11.5882
凴	-11.5883
噀	-11.5883
掘	-11.5883
淙	-11.5884
屨	-11.5884
磻	-11.5885
惻惻	-11.5885
懵	-11.5885
僃	-11.5886
謝池春	-11.5887
可平可仄悉㕘	-11.5887
侭	-11.5887
薜	-11.5887
菡蓞	-11.5888
貎	-11.5888
彭元遜	-11.5888
黃鸝	-11.5889
婷婷	-11.5891
蘼	-11.5892
暢好是	-11.5892
脉	-11.5892
襴	-11.5893
擣	-11.5894
慶春澤	-11.5894
􁅘	-11.5894
湛湛	-11.5895
卟	-11.5896
八十七字	-11.5912
娱	-11.6137
扁	-11.6178
懿	-11.6182
鉗	-11.6191
芊	-11.6191
禎	-11.6191
諒	-11.6191
撋	-11.6191
鋏	-11.6192
磴	-11.6192
瘞	-11.6192
盗	-11.6193
憩	-11.6194
杉	-11.6194
摟	-11.6195
粥	-11.6195
腐	-11.6195
拔	-11.6195
堯民歌	-11.6196
鶻	-11.6197
肘	-11.6197
贍	-11.6197
搆	-11.6197
踅	-11.6198
輅	-11.6198
耽	-11.6198
珞	-11.6199
嫂	-11.6199
捫	-11.62
辯	-11.62
喪	-11.6201
𬋩	-11.6202
嬪	-11.6202
搶	-11.6202
矛	-11.6202
寝	-11.6203
笄	-11.6203
邯郸	-11.6203
腋	-11.6203
溆	-11.6204
菡萏	-11.6204
敘	-11.6204
芋	-11.6205
圈	-11.6205
躋攀	-11.6205
高觀國	-11.6206
周邦彥	-11.6206
百字令	-11.6207
甍	-11.6207
赫	-11.6207
剜	-11.6207
陟	-11.6207
梅子黄時雨	-11.6208
棒	-11.6208
裯	-11.6208
駸駸	-11.6208
顋	-11.6209
壠	-11.6209
齅	-11.621
匏	-11.6211
隔浦蓮	-11.6213
子夜歌	-11.6213
齊臻臻	-11.6213
瑞龍吟	-11.6213
甆	-11.6214
傾國傾城	-11.6214
悒怏	-11.6217
雙調五十字前後	-11.6217
縐	-11.6218
句讀小異	-11.6218
担	-11.6219
蹴踘	-11.622
元来是	-11.622
吃	-11.6222
雙調五十三字	-11.6226
能消幾	-11.63
能有幾	-11.6367
憾	-11.6512
眇	-11.6513
甥	-11.6515
瑜	-11.6515
酪	-11.6517
莱	-11.6519
誌	-11.652
囯	-11.6522
朙	-11.6524
張志和	-11.6524
蘓軾	-11.6525
椎	-11.6525
献	-11.6526
辛幼安	-11.6527
九張機	-11.6528
哲	-11.6529
岳陽樓	-11.653
婉娩	-11.653
斥	-11.653
竺	-11.653
迫	-11.6531
闢	-11.6531
采菱拾翠	-11.6532
舷	-11.6532
澡	-11.6532
禧	-11.6532
覃	-11.6532
閶	-11.6532
裵	-11.6533
塟	-11.6534
楷	-11.6534
驊騮	-11.6534
慇勤	-11.6534
肺	-11.6535
紐	-11.6535
懋	-11.6536
脱布衫	-11.6536
䯳	-11.6536
蒋	-11.6537
燠	-11.6537
紳	-11.6537
俛仰	-11.6537
惮	-11.6537
汞	-11.6538
暌	-11.6538
扎	-11.6538
䗶	-11.6539
河滿子	-11.6539
渌	-11.6539
黄公度	-11.654
緇	-11.654
俻	-11.654
欽定四庫全書詞綜巻	-11.6541
颻	-11.6543
踢	-11.6543
捜	-11.6543
儆	-11.6544
緖	-11.6544
雏	-11.6545
用先天韻	-11.6545
勛	-11.6546
碧雞漫志	-11.6546
挐	-11.6547
闔	-11.6547
無半點	-11.6548
雙調五十六字前後	-11.6549
盪	-11.6551
擦	-11.6558
平康巷	-11.6562
字前段十二句	-11.6807
詞曲類	-11.683
晶	-11.6852
纂	-11.6857
核	-11.686
灝	-11.686
傚	-11.6866
吝	-11.6866
聶	-11.6867
誣	-11.6868
涪	-11.6868
玦	-11.6871
沂	-11.6871
彛	-11.6872
詐	-11.6873
冀	-11.6873
簽	-11.6873
邃	-11.6874
皁	-11.6874
繹	-11.6874
箑	-11.6874
肱	-11.6874
咿	-11.6874
祚	-11.6875
夜行舡	-11.6875
寞	-11.6876
煨	-11.6876
褶	-11.6876
䳌	-11.6877
帶圍寛	-11.6877
淅瀝	-11.6877
槊	-11.6878
僮	-11.6878
蚨	-11.6878
王世貞	-11.6878
煦	-11.6879
岷峨	-11.688
頤	-11.688
臾	-11.688
珪	-11.6881
睨	-11.6881
一刻千金	-11.6882
盎	-11.6882
参	-11.6883
䌓	-11.6883
石州慢	-11.6884
鞘	-11.6884
邵亨貞	-11.6884
解三酲	-11.6884
鍬	-11.6885
水光山色	-11.6885
苧蘿	-11.6885
壞	-11.6885
彚	-11.6885
叵	-11.6886
小石調	-11.6886
髙山流水	-11.6886
彬	-11.6886
叨	-11.6887
琲	-11.6887
劉圻父	-11.6887
狻猊	-11.6887
噤	-11.6888
蕾	-11.6888
蠢	-11.6888
斈	-11.6889
徨	-11.6889
窅	-11.6889
少押一韻	-11.689
逰四門	-11.6891
篠	-11.6892
紅日三竿	-11.6892
爍	-11.6893
雙調五十五字前	-11.6896
燕侣鶯儔	-11.6896
良辰美景	-11.6898
一翦梅	-11.6899
雨初收	-11.6907
𨽻	-11.7201
概	-11.7211
鯖	-11.7215
䆫	-11.7216
稹	-11.7223
贅	-11.7226
郁	-11.7226
詞苑叢談	-11.7226
菁	-11.7227
蕨	-11.7227
掙	-11.7228
逾	-11.7228
豫	-11.723
摩訶池	-11.7232
鬰	-11.7232
炫	-11.7232
醉扶歸	-11.7233
臈	-11.7233
構	-11.7233
凨入松	-11.7233
鐺	-11.7234
憇	-11.7235
㨗	-11.7235
笥	-11.7236
罄	-11.7236
刁	-11.7236
衿	-11.7236
啖	-11.7236
幰	-11.7236
眼睜睜	-11.7237
物是人非	-11.7237
猫	-11.7237
宕	-11.7238
無可考	-11.7238
水逺山長	-11.7238
疋	-11.7239
㬰	-11.7239
遯	-11.7239
衘	-11.7239
尔	-11.7239
槍	-11.724
滙	-11.724
􁋍	-11.724
躔	-11.724
褉	-11.724
幛	-11.7241
困人天氣	-11.7241
晧	-11.7241
餚	-11.7242
顱	-11.7242
青哥兒	-11.7243
撈	-11.7243
熒煌	-11.7243
湓	-11.7244
娑	-11.7244
尉遲杯	-11.7244
鞾	-11.7245
唐敎坊	-11.7246
閶闔	-11.7247
一句七字一句	-11.7249
雙調五十二字前段	-11.725
寉	-11.725
㘽	-11.7251
駞	-11.7251
蓀	-11.7251
碗	-11.7251
雙調一百二字前段十一句	-11.7253
呀呀呀	-11.7257
肇	-11.7584
莘	-11.7587
磵	-11.7591
攸	-11.7591
齁	-11.7594
偽	-11.7595
弊	-11.7596
訖	-11.7596
謗	-11.7597
僉	-11.7598
䆒	-11.7598
阡	-11.7598
詎	-11.7599
咬	-11.7599
趙徳麟	-11.76
夥	-11.76
滴溜溜	-11.76
沫	-11.7601
王庭筠	-11.7601
張仲宗	-11.7602
廓	-11.7602
秩	-11.7602
穰	-11.7602
無氣力	-11.7603
攤	-11.7604
琖	-11.7604
魚遊春水	-11.7604
値	-11.7604
圜	-11.7605
朱彛尊	-11.7605
攧	-11.7606
急管繁絃	-11.7607
苕溪漁隠	-11.7607
潼	-11.7607
毁	-11.7607
戛	-11.7607
匆	-11.7608
擒	-11.7608
韉	-11.7608
騅	-11.7609
蛮	-11.7609
辞	-11.7609
戱	-11.761
張安國	-11.761
後段七句三仄韻	-11.761
艣	-11.761
搏	-11.761
覲	-11.7611
喊	-11.7611
搧	-11.7611
睿	-11.7611
霞散綺	-11.7612
紬	-11.7612
裠	-11.7612
鈆	-11.7612
匠	-11.7614
䔥	-11.7614
好天良夜	-11.7615
離亭宴煞	-11.7616
破陣子	-11.7616
萬水千山	-11.7616
篔	-11.7616
峡	-11.7616
段各十一句	-11.7617
托頼着	-11.7617
四平韻後段九句	-11.7618
郤	-11.7618
耨	-11.7619
醋	-11.7622
此與栁詞同惟	-11.7623
煌	-11.7623
迎春樂	-11.7624
蘇武慢	-11.7624
瑛	-11.7962
測	-11.7962
陳振孫書録解題	-11.7963
缶	-11.7967
鉅	-11.7968
軾	-11.7973
緝	-11.7975
襍	-11.7978
鶉	-11.7979
鐃	-11.7981
鏖	-11.7982
拊	-11.7983
璨	-11.7983
渥	-11.7983
愿	-11.7985
偓	-11.7985
疵	-11.7985
猱	-11.7986
荇	-11.7986
畿	-11.7987
紜	-11.7988
閧	-11.7989
姚雲文	-11.799
札	-11.799
糞	-11.799
尸	-11.799
菩	-11.7991
庻	-11.7991
隕	-11.7991
逡	-11.7993
儻	-11.7993
伽	-11.7993
薬	-11.7993
被花惱	-11.7994
揎	-11.7994
樗	-11.7994
向伯恭	-11.7994
巍	-11.7995
搵	-11.7995
滲	-11.7996
抃	-11.7996
謟	-11.7996
山色有無中	-11.7996
明晃晃	-11.7996
炕	-11.7996
趙善扛	-11.7998
繍	-11.7998
沆瀣	-11.7998
恍惚	-11.7998
璈	-11.7999
或加慢字	-11.7999
徉	-11.7999
抖	-11.7999
馮取洽	-11.7999
安樂窩	-11.8
汐	-11.8
颩	-11.8001
高麗史樂志	-11.8001
拜星月慢	-11.8001
滉	-11.8002
汲古閣本	-11.8002
小樓連苑	-11.8002
雙調九十九字前	-11.8003
袞	-11.8005
翮	-11.8005
與諸家不同	-11.8005
崕	-11.8005
此調始自	-11.8007
喃喃	-11.8008
􁦷	-11.8009
尤雲殢雨	-11.8013
胖	-11.8013
李俊民	-11.8014
氣昻昻	-11.8016
奈情何	-11.8019
簾髙捲	-11.8037
韁	-11.8242
綜	-11.8348
萌	-11.8366
椅	-11.8366
龔	-11.8375
鄱	-11.8377
釐	-11.8382
浯	-11.8384
旭	-11.8384
倐	-11.8385
葉少藴	-11.8385
頺	-11.8386
筩	-11.8386
一觴一詠	-11.8386
􁑶	-11.8387
撿	-11.8388
蓄	-11.8389
閫	-11.8389
趙君舉	-11.8389
哂	-11.839
腆	-11.839
轎	-11.839
誼	-11.8391
峥嶸	-11.8391
冶葉倡條	-11.8392
張𢎞範	-11.8394
上五下四	-11.8394
滁	-11.8394
上三下六	-11.8395
啾啾	-11.8395
舂	-11.8395
雙調一百字前段十句	-11.8396
鉏	-11.8396
醮	-11.8396
䂓	-11.8396
贖	-11.8396
桶	-11.8397
龕	-11.8398
狨	-11.8398
上六下四	-11.8398
春從天上來	-11.8398
璃	-11.8398
禀	-11.8399
牧羊関	-11.8399
癖	-11.8399
雙調六十字前後	-11.8399
嫉	-11.8399
鮹	-11.8399
臼	-11.84
皐	-11.84
錦纒道	-11.84
旡	-11.8401
筐	-11.8402
􁊨	-11.8402
箸	-11.8402
搂	-11.8403
幺	-11.8404
傘	-11.8404
孫道絢	-11.8404
淅零零	-11.8405
瀝	-11.8406
雙調五十二字前後	-11.8406
三段一百	-11.8407
後段四句兩平韻	-11.8408
霹靂	-11.8409
雙調四十八字前後	-11.841
匙	-11.841
無是無非	-11.8411
仄韻後段五句三仄韻	-11.8414
字平聲譜内可平可	-11.8699
嗜	-11.8779
爺	-11.8784
蒻	-11.8787
屍	-11.8793
煬	-11.8797
匿	-11.8797
山坡羊	-11.8798
肢	-11.8799
鍊	-11.88
邴	-11.88
貰	-11.8801
蝨	-11.8801
茨	-11.8801
􁍇	-11.8801
瀨	-11.8802
琯	-11.8802
王易簡	-11.8803
陜	-11.8803
駛	-11.8803
甄	-11.8803
旱	-11.8804
琮	-11.8804
厓	-11.8804
旂	-11.8804
訕	-11.8804
讎	-11.8805
騫	-11.8805
瑾	-11.8806
俸	-11.8806
雪獅兒	-11.8806
捎	-11.8807
仿	-11.8807
赦	-11.8807
趙秉文	-11.8807
鱖	-11.8808
礬	-11.8808
呆荅孩	-11.881
參知政事	-11.881
糚	-11.881
湍	-11.881
沱	-11.881
們	-11.8811
僧仲殊	-11.8811
妺	-11.8811
虯	-11.8811
迢	-11.8811
澘	-11.8811
撓	-11.8812
嵇	-11.8812
蕐	-11.8812
冉	-11.8812
脊	-11.8813
蔭	-11.8813
王庭珪	-11.8813
椰	-11.8813
羹	-11.8813
絡絲娘	-11.8813
渲	-11.8814
泝	-11.8814
上四下六	-11.8814
蜃	-11.8815
填此調者	-11.8815
漙	-11.8815
雙調一百二字前	-11.8815
秫	-11.8815
宼	-11.8816
後段六句三仄韻	-11.8816
引駕行	-11.8816
唼	-11.8818
劉光祖	-11.8818
馬嵬坡	-11.8818
塑	-11.8818
間入仄韻	-11.8818
毛熈震	-11.882
噐	-11.8821
江州司馬	-11.8821
惜奴嬌	-11.8821
馮鼎位	-11.8821
厺	-11.8821
坤	-11.8823
杷	-11.8824
磣可可	-11.8824
蝶使蜂媒	-11.8825
圵	-11.8825
雙調五十八字前後	-11.8826
牟	-11.9224
韞	-11.9225
恃	-11.9226
中書舎人	-11.9228
曷	-11.9228
攝	-11.9228
兜	-11.923
璣	-11.923
析	-11.923
鄴	-11.9231
白石道人歌曲	-11.9232
咤	-11.9232
陞	-11.9233
鍋	-11.9233
牡	-11.9233
薌	-11.9234
弼	-11.9235
槖	-11.9235
皁羅袍	-11.9235
什	-11.9236
鑷	-11.9236
曩	-11.9236
揄	-11.9237
馴	-11.9237
磁	-11.9237
錬	-11.9238
韓元吉	-11.9239
嬋	-11.9239
揆	-11.924
犁	-11.924
一江春水向東流	-11.9241
鑼	-11.9242
遁	-11.9242
𥚑	-11.9242
迪	-11.9243
㓗	-11.9243
聫	-11.9244
姥	-11.9244
蹔	-11.9244
彀	-11.9245
爕	-11.9245
婭	-11.9245
滂	-11.9245
罳	-11.9245
青梅如豆	-11.9246
史樂志	-11.9246
鈐	-11.9246
卜筭子	-11.9247
渦	-11.9247
􁢡	-11.9247
劉叔安	-11.9247
陳與義	-11.9247
剝	-11.9249
平韻後段五句兩平韻	-11.9249
懂	-11.9249
鸘	-11.9249
玷	-11.925
菽	-11.925
适	-11.925
楝	-11.9251
蓓	-11.9251
馮艾子	-11.9251
燎	-11.9252
桃葉桃根	-11.9252
颷	-11.9252
曦	-11.9253
海誓山盟	-11.9253
撧	-11.9253
蔫	-11.9254
孫惟信	-11.9256
葓	-11.9256
無他首可校	-11.9257
摻	-11.9258
嚦	-11.9258
闥	-11.9259
泣顔回	-11.9259
雙調八十四字前	-11.9263
雙調八十三字前	-11.9264
前段第一二句	-11.9265
霆	-11.966
渝	-11.9664
蠡	-11.9681
鉞	-11.9684
孕	-11.9684
勃	-11.9684
佞	-11.9685
再休将凨月擔兒	-11.9686
瓔	-11.9687
偢	-11.9689
徐昌圖	-11.9689
曬	-11.969
厄	-11.9691
小樓吹徹玉笙寒	-11.9691
壼	-11.9691
㮣	-11.9692
樺	-11.9693
纛	-11.9693
陷	-11.9694
溯	-11.9694
晁冲之	-11.9695
綖	-11.9695
麤	-11.9695
琴趣外篇	-11.9696
詞人姓氏	-11.9696
縑	-11.9696
扈	-11.9697
蘧	-11.9697
嵯	-11.9698
用蕭豪韻	-11.9698
楮	-11.9698
賀方囘	-11.9698
膁	-11.9698
鴦	-11.9698
夔	-11.9699
靆	-11.9699
邇	-11.9699
郴	-11.9699
燧	-11.9699
踵	-11.9699
頷	-11.97
淆	-11.97
呷	-11.9701
若耶溪	-11.9701
草芊芊	-11.9701
李彌遜	-11.9701
瑠	-11.9701
絢	-11.9702
还	-11.9702
躊	-11.9702
雙調九十七字前段十句	-11.9703
䖝	-11.9703
鹿䖍扆	-11.9703
泚	-11.9704
晤	-11.9704
蹰	-11.9704
礪	-11.9704
辤	-11.9705
徂	-11.9706
窨	-11.9707
辝	-11.9707
堠	-11.9709
䕷	-11.9709
雙調一百八字前段十	-11.9709
鳴鶴餘音	-11.9709
砍	-11.9709
河瀆神	-11.9709
遟	-11.9709
一百三十九字	-11.9709
忪	-11.971
症	-11.9711
雙調九十九字前段十句	-11.9711
爻	-11.9711
􁬙	-11.9711
租	-11.9712
枕痕一線	-11.9712
韻後段十一句六平韻	-11.9713
鬒	-11.9714
螳	-11.9714
御選歴代詩餘巻六十	-12.0007
陸費墀	-12.014
御選歴代詩餘巻五十	-12.014
髠	-12.0144
戮	-12.0155
茍	-12.0155
藳	-12.0157
軍節度使	-12.0158
孏	-12.0158
禦	-12.0158
鐫	-12.0158
税	-12.0159
譬	-12.0161
榕	-12.0161
短嘆長吁	-12.0161
萃	-12.0163
㪯	-12.0164
狄	-12.0164
舵	-12.0165
棣	-12.0166
躅	-12.0166
蠒	-12.0166
懨	-12.0166
頦	-12.0166
迄	-12.0167
三姝媚	-12.0168
孌	-12.0169
縝	-12.017
釂	-12.017
旒	-12.0171
咒	-12.0171
変	-12.0172
槌	-12.0172
桁	-12.0172
沈宜修	-12.0172
肴	-12.0174
卵	-12.0174
雍熈樂府卷之	-12.0174
彝	-12.0175
金菊對芙蓉	-12.0175
䑃	-12.0175
􁎐	-12.0176
纍	-12.0176
僵	-12.0176
淇	-12.0176
狡	-12.0176
陳繼儒	-12.0177
𥜗	-12.0177
岧	-12.0177
尓	-12.0177
帬	-12.0177
蹺	-12.0177
毹	-12.0179
昴	-12.0179
芍	-12.018
馿	-12.018
罌	-12.018
蕣	-12.0182
惨	-12.0182
秧	-12.0183
六仄韻後段十句	-12.0184
逥	-12.0184
平可仄即叅	-12.0184
喑	-12.0184
臚	-12.0184
站	-12.0185
塞垣春	-12.0185
此調有兩體	-12.0185
幇	-12.0188
茶瓶兒	-12.0188
蘺	-12.0188
晒	-12.0188
後段七句四仄韻	-12.0189
馬頻嘶	-12.0191
喂	-12.0192
髙麗史樂志	-12.0194
雙調七十五字前段	-12.0194
薑	-12.0195
揜	-12.0197
後段四句兩仄韻	-12.0226
御選歴代詩餘巻九十	-12.0592
餘㕘下	-12.0617
御選歴代詩餘巻七	-12.0617
㫤	-12.0632
凮	-12.0642
専	-12.0645
湿	-12.0648
䙝	-12.065
圏	-12.0654
邢	-12.0655
登進士第	-12.0657
碣	-12.0658
骰	-12.0658
嘔	-12.066
捍	-12.066
姦	-12.0662
羯	-12.0662
錠	-12.0662
麴	-12.0662
章質夫	-12.0663
嚇	-12.0667
掐	-12.0667
汨	-12.0667
饈	-12.0667
璉	-12.0667
竽	-12.0667
殻	-12.0668
畣	-12.0669
嗊	-12.0669
畜	-12.067
攄	-12.067
揶	-12.067
薊	-12.067
曨	-12.0671
响	-12.0671
跎	-12.0671
薩都拉	-12.0671
脗	-12.0671
曜	-12.0672
瓘	-12.0673
熒	-12.0673
迤	-12.0673
黠	-12.0673
劉潜夫	-12.0674
劉仲尹	-12.0675
稷	-12.0675
榼	-12.0676
琥珀猫兒墜	-12.0676
砥	-12.0677
宻匝匝	-12.0677
凑	-12.0677
兔葵燕麥	-12.0677
趋	-12.0678
錢繼章	-12.0678
􁊢	-12.0679
闉	-12.0679
䆳	-12.068
鼂	-12.068
第四五六句	-12.0681
貺	-12.0681
摠	-12.0681
妆	-12.0681
紞	-12.0681
粮	-12.0682
王錫爵	-12.0683
弃	-12.0683
䦰	-12.0683
鰕	-12.0684
刃	-12.0684
柁	-12.0684
雨霖鈴	-12.0685
乃變格也	-12.0686
鸂	-12.0686
玉繩低轉	-12.0688
蕙蘭芳引	-12.0688
燕約鶯期	-12.0689
螂	-12.0689
崗	-12.069
篴	-12.0691
僝	-12.0693
庠	-12.0693
􁞤	-12.0695
雙調七十七字前	-12.0695
雙調七十六字前	-12.0697
雙調九十三字前段	-12.0699
御選歴代詩餘巻四十	-12.0803
御選歴代詩餘巻八十	-12.0934
葯	-12.1171
薨	-12.1172
璟	-12.1178
劎	-12.1181
牘	-12.1181
廕	-12.1182
窘	-12.1183
湜	-12.1184
莢	-12.1184
溥	-12.1186
嘻	-12.1188
騖	-12.1189
啾	-12.1189
哽	-12.119
劉秉忠	-12.119
粱	-12.1191
縉	-12.1191
杲	-12.1192
凜	-12.1192
粤	-12.1193
㗸	-12.1193
蹉	-12.1193
石曼卿	-12.1194
瀼	-12.1194
劳	-12.1194
侍香金童	-12.1196
甎	-12.1196
法駕導引	-12.1197
睃	-12.1197
瘁	-12.1197
瓌	-12.1197
粳	-12.1197
觔	-12.1198
琦	-12.1199
戞	-12.1199
陶宗儀	-12.1199
翬	-12.1199
芻	-12.12
鐶	-12.12
天機餘錦	-12.12
草萋迷	-12.1201
磐	-12.1201
媽	-12.1202
平仄互叶	-12.1202
㓂	-12.1202
欷	-12.1202
尢	-12.1203
魯逸仲	-12.1204
傖	-12.1204
雲破月來花弄影	-12.1204
瀟湘逢故人慢	-12.1204
澑	-12.1204
地乆天長	-12.1205
􁁅	-12.1205
觱	-12.1205
雙調五十七字前	-12.1205
幟	-12.1206
軺	-12.1206
纘	-12.1206
洪咨夔	-12.1206
盧祖臯	-12.1207
雙調九十一字前	-12.1207
闇	-12.1208
雙調九十八字前段十句	-12.121
􁵨	-12.121
欽定四庫全書詞律巻	-12.1211
唫	-12.1211
胡搗練	-12.1211
酴	-12.1211
雙調四十八字前段	-12.1211
鳯凰臺上憶吹簫	-12.1211
叧	-12.1211
睜	-12.1211
沉李浮瓜	-12.1212
鼕	-12.1212
山明水秀	-12.1212
吕居仁	-12.1212
崎	-12.1212
鬪	-12.1213
杜韋娘	-12.1213
誑	-12.1214
赱	-12.1214
壌	-12.1215
雙調一百四字前段十句	-12.1215
􁂨	-12.1216
雙調六十八字前	-12.1217
雙調四十六字前後	-12.1217
聦	-12.1219
雙調一百一字前段十句	-12.122
􁳊	-12.1221
僽	-12.1223
仄韻後段五句四仄韻	-12.1223
皚	-12.1225
俫	-12.123
猪	-12.1231
万俟詞	-12.1257
御選歴代詩餘巻三十	-12.1482
翰林學士承㫖	-12.1709
監察御史	-12.1719
琊	-12.1724
繆	-12.1726
頳	-12.1729
叛	-12.1732
穢	-12.1733
渙	-12.1739
裒	-12.1739
姫	-12.174
撤	-12.1741
骸	-12.1741
媪	-12.1742
鸝	-12.1743
烛	-12.1744
㕑	-12.1746
䜟	-12.1747
寘	-12.1748
芥	-12.1748
籐	-12.1749
䪨	-12.175
憫	-12.175
訶	-12.1751
蒱	-12.1751
閟	-12.1751
蟄	-12.1751
巗	-12.1751
旄	-12.1752
璵	-12.1752
惆	-12.1752
寤	-12.1752
僥	-12.1753
蓛	-12.1753
砲	-12.1753
雱	-12.1753
􁈍	-12.1754
忔	-12.1754
豸	-12.1754
駱	-12.1754
崧	-12.1754
鞲	-12.1754
蓂	-12.1755
哏	-12.1755
恙	-12.1756
廸	-12.1756
蚓	-12.1756
刎	-12.1756
孽	-12.1756
毘	-12.1757
搥	-12.1757
呆骨朶	-12.1757
內	-12.1757
侮	-12.1757
鷥	-12.1758
閽	-12.1758
赸	-12.1758
歔	-12.1758
桃根桃葉	-12.1759
山盟海誓	-12.1759
寬	-12.1759
醥	-12.1759
嘘	-12.176
甑	-12.176
趺	-12.176
牥	-12.176
摑	-12.176
緲	-12.176
猧	-12.176
轆	-12.1761
髫	-12.1761
惇	-12.1762
泱	-12.1762
躁	-12.1762
舠	-12.1762
栂	-12.1763
隹	-12.1763
鬯	-12.1763
尭	-12.1764
咭	-12.1764
鏃	-12.1765
盹	-12.1765
鍪	-12.1765
藂	-12.1765
級	-12.1765
穂	-12.1766
凶	-12.1766
灵	-12.1766
舀	-12.1768
胆	-12.1769
亝	-12.1769
紅林檎近	-12.1769
汁	-12.1769
譜内可平可仄據之	-12.177
可平可仄悉叅	-12.177
謌	-12.1771
怊	-12.1771
􁁉	-12.1771
炮	-12.1772
雙調六十六字前後	-12.1772
仄韻後段六句四仄韻	-12.1774
心猿意馬	-12.1774
諠	-12.1776
崙	-12.1777
此與史詞同惟	-12.178
御選歴代詩餘巻二十	-12.2131
詆	-12.2297
秤	-12.2321
吹皺一池春水	-12.2321
絞	-12.2328
翃	-12.2328
憚	-12.233
蓺	-12.2331
坵	-12.2331
奥	-12.2332
弋	-12.2332
鵪	-12.2332
殃	-12.2332
肋	-12.2332
蹕	-12.2332
荃	-12.2334
鞠	-12.2335
姸	-12.2335
程鉅夫	-12.2336
盍	-12.2337
躰	-12.2337
䧺	-12.2337
爨	-12.2337
膊	-12.2338
捺	-12.2338
􁚐	-12.2339
隼	-12.2339
王奕清奉旨校刋	-12.2339
端明殿學士	-12.234
忝	-12.234
爹	-12.2341
􁁶	-12.2341
牗	-12.2342
儷	-12.2342
琰	-12.2343
嬙	-12.2343
輻	-12.2343
僥僥令	-12.2343
朝野新聲太平樂府卷之	-12.2343
犇	-12.2344
柝	-12.2344
􁅳	-12.2344
後唐莊宗	-12.2345
酢	-12.2345
完顔璹	-12.2345
亳	-12.2346
巔	-12.2346
弯	-12.2346
㱔	-12.2346
伬	-12.2347
衩	-12.2347
天津橋上	-12.2347
搃	-12.2347
紂	-12.2348
萋	-12.2348
鯽	-12.2348
抝	-12.2348
軼	-12.2349
橛	-12.2349
摵	-12.2349
篥	-12.2349
雙調一百五字前段十	-12.2351
篸	-12.2351
奶	-12.2351
氐州第一	-12.2352
浪萍風梗	-12.2352
踼	-12.2352
糠	-12.2353
本部三聲叶	-12.2353
歈	-12.2353
潞	-12.2353
浹	-12.2354
覰	-12.2354
似酔如痴	-12.2355
􁢒	-12.2356
五福降中天	-12.2356
㩀	-12.2357
猾	-12.2357
叮	-12.2357
琴調相思引	-12.2358
庒	-12.2359
澠	-12.2359
翺	-12.236
湾	-12.236
殢雨尤雲	-12.2361
無他作可校	-12.2361
蔌	-12.2362
哢	-12.2362
蔣氏九宫譜	-12.2366
村里迓古	-12.2366
万俟咏	-12.2367
鬻	-12.2935
盜	-12.294
朴	-12.2946
襜	-12.2946
洙	-12.2946
緡	-12.2947
迦	-12.2949
邕	-12.2949
緻	-12.2951
乾隆四十四年	-12.2953
墩	-12.2953
罔	-12.2953
坰	-12.2953
睦	-12.2953
猥	-12.2954
泖	-12.2954
袜	-12.2954
埜	-12.2956
鴆	-12.2956
畊	-12.2957
縳	-12.2957
澈	-12.2957
豕	-12.2958
螻	-12.2959
屣	-12.2959
冢	-12.2959
滹	-12.296
盾	-12.296
釡	-12.296
汜	-12.2961
齊東野語	-12.2961
釚	-12.2961
黼	-12.2963
肓	-12.2963
霾	-12.2963
峴	-12.2964
邏	-12.2964
膾炙人口	-12.2964
慟	-12.2964
繳	-12.2965
歊	-12.2965
楨	-12.2965
潢	-12.2966
岷	-12.2966
昊	-12.2966
蜺	-12.2966
畞	-12.2966
垜	-12.2967
别時容易見時難	-12.2968
羌	-12.2968
頹	-12.2969
飛雪滿羣山	-12.297
蚊	-12.297
雙調八十五字前段	-12.297
雹	-12.297
頡	-12.297
奄	-12.2971
冇	-12.2971
躋	-12.2971
滇	-12.2971
謖	-12.2971
􁳼	-12.2971
潇	-12.2971
􁑰	-12.2971
輈	-12.2972
狩	-12.2972
江月晃重山	-12.2972
慾	-12.2973
𪷟	-12.2973
沛	-12.2974
稅	-12.2974
亢	-12.2974
盔	-12.2974
燻	-12.2975
􁢤	-12.2975
輥	-12.2975
翌	-12.2976
𡵨	-12.2976
𦵏	-12.2976
葳	-12.2977
簘	-12.2977
𧺫	-12.2978
莾	-12.2978
百紫千紅	-12.2978
耻	-12.2978
寔	-12.2979
槅	-12.2979
貍	-12.2979
攪箏琶	-12.298
􁮻	-12.2981
平韻後段十二句	-12.2982
鷫	-12.2983
奨	-12.2983
盱	-12.2983
淅	-12.2986
䳵	-12.2986
萧	-12.2986
蘢	-12.2987
偎紅倚翠	-12.2987
或加令字	-12.2987
諢	-12.2987
䰅	-12.2987
㙜	-12.2988
蝶粉蜂黄	-12.2988
鎧	-12.299
此調有平韻仄韻	-12.2991
廢寢忘飡	-12.2991
皃	-12.2991
罾	-12.3604
脞	-12.3606
侃	-12.361
爰	-12.3611
瓠	-12.3614
芡	-12.3614
膳	-12.3615
閔	-12.3615
璠	-12.3615
花庵詞客云	-12.3619
鎚	-12.3619
豳	-12.3619
資政殿學士	-12.3619
儺	-12.362
全芳備祖	-12.362
瘢	-12.3621
艦	-12.3621
𢷬	-12.3622
呸	-12.3622
蔚	-12.3623
恤	-12.3623
弧	-12.3623
貔	-12.3623
蜘	-12.3624
疲	-12.3624
乾隆四十六年十月恭校上	-12.3625
企	-12.3625
繙	-12.3625
剏	-12.3626
糓	-12.3626
郜	-12.3626
猴	-12.3627
柚	-12.3627
筞	-12.3627
鬛	-12.3628
塚	-12.3628
馗	-12.3628
飣	-12.3629
暨	-12.3629
斉	-12.3629
亾	-12.3629
哺	-12.363
晻	-12.363
倀	-12.3631
茟	-12.3631
蜍	-12.3632
沍	-12.3632
鷲	-12.3632
羶	-12.3632
酩	-12.3632
窖	-12.3633
弭	-12.3633
雩	-12.3633
瀚	-12.3633
苓	-12.3634
􁄑	-12.3634
滔	-12.3634
逶	-12.3634
􁂬	-12.3635
瀹	-12.3636
駘	-12.3636
醲	-12.3636
墊	-12.3636
豺	-12.3636
獺	-12.3637
呑	-12.3637
挣	-12.3638
讒	-12.3638
緬	-12.3639
蜂媒蝶使	-12.364
瀘	-12.364
糯	-12.364
斐	-12.364
棉	-12.364
茱	-12.364
胯	-12.3641
荣	-12.3641
沅	-12.3641
㝢	-12.3642
澱	-12.3642
洧	-12.3642
摛	-12.3642
丼	-12.3643
送入我門來	-12.3643
梔	-12.3644
蹀	-12.3644
雙調九十五字前段九句	-12.3644
􁂗	-12.3644
籞	-12.3645
凌波不過横塘路	-12.3645
昶	-12.3645
迯	-12.3645
礴	-12.3645
榦	-12.3645
鉦	-12.3646
寒食清明都過	-12.3646
沮	-12.3646
愡	-12.3646
妮	-12.3646
鋸	-12.3647
題余氏女子	-12.3647
慥	-12.3647
濩	-12.3647
徭	-12.3647
宋黄昇撰宋詞	-12.3648
㷼	-12.3648
陲	-12.3648
胞	-12.3648
𠂻	-12.3649
拿	-12.3649
八節長歡	-12.365
幕天席地	-12.365
獬	-12.3651
嗷	-12.3651
胃	-12.3651
苖	-12.3652
蛆	-12.3652
肎	-12.3652
廡	-12.3653
嶮	-12.3654
雙調一百六字前段十	-12.3656
枻	-12.3656
噥	-12.3658
幬	-12.3659
聾	-12.3659
实	-12.3661
晌	-12.4297
俶	-12.4307
甓	-12.4316
􁁜	-12.4318
釁	-12.4323
凸	-12.4324
嫺	-12.4324
開府儀同三司	-12.4324
懇	-12.4325
据	-12.4326
燥	-12.4326
譯	-12.4328
詭	-12.4329
鷃	-12.433
虐	-12.433
劾	-12.4331
耆舊續聞云	-12.4332
泡	-12.4332
珉	-12.4332
濮	-12.4333
諄	-12.4333
匪	-12.4335
臻	-12.4337
靳	-12.4337
癭	-12.4338
咍	-12.4338
冣	-12.4339
鎬	-12.4339
嚶	-12.4339
瀬	-12.4339
麋	-12.4339
袒	-12.434
迁	-12.4341
芾	-12.4342
袢	-12.4342
酤	-12.4343
薤	-12.4344
藐	-12.4345
桴	-12.4345
襞	-12.4345
平仄當遵之	-12.4346
亹	-12.4346
估	-12.4347
嵳	-12.4347
偌	-12.4347
蘃	-12.4347
飼	-12.4348
鼯	-12.4349
璋	-12.435
菟	-12.435
覈	-12.4351
鍔	-12.4351
倬	-12.4352
閴	-12.4353
勍	-12.4353
漵	-12.4353
亰	-12.4354
咂	-12.4354
祜	-12.4354
雙調四十九字前段四句	-12.4354
蜚	-12.4354
酎	-12.4354
燔	-12.4355
狸	-12.4355
屡	-12.4355
𬎼	-12.4355
劵	-12.4356
鳧	-12.4356
紱	-12.4356
糜	-12.4356
縂	-12.4356
籀	-12.4357
偁	-12.4357
鯢	-12.4357
俛	-12.4358
雙調一百十字前段十	-12.4359
此調秪此一詞	-12.4359
鸕	-12.4359
祟	-12.436
捴	-12.436
玫	-12.4361
覉	-12.4361
曝	-12.4362
婪	-12.4362
舖	-12.4362
扆	-12.4363
縧	-12.4364
摽	-12.4364
㤗	-12.4366
变	-12.4367
諦	-12.4369
遑	-12.437
杞	-12.437
嶇	-12.4371
􂀞	-12.4376
矁	-12.438
璽	-12.5086
譍	-12.5088
兊	-12.5092
删	-12.5095
喔	-12.5098
購	-12.5099
距	-12.51
育	-12.51
鰥	-12.5102
颼	-12.5103
蝕	-12.5103
猒	-12.5104
扛	-12.5104
戢	-12.5105
滛	-12.5106
唆	-12.5106
剉	-12.5107
凘	-12.5108
傭	-12.5108
涓	-12.5109
蝎	-12.5109
殽	-12.511
圉	-12.511
刹	-12.511
顒	-12.5111
棺	-12.5111
薲洲漁笛譜	-12.5112
夤	-12.5113
鷖	-12.5113
摯	-12.5113
僛	-12.5113
兇	-12.5113
騏	-12.5113
茒	-12.5114
礎	-12.5114
矧	-12.5114
騙	-12.5114
嫗	-12.5115
軌	-12.5115
劬	-12.5115
荄	-12.5115
攫	-12.5116
濳	-12.5116
屹	-12.5116
闖	-12.5116
彰	-12.5116
痒	-12.5116
飱	-12.5116
缺月挂疎桐	-12.5116
扺	-12.5116
瀏	-12.5117
柂	-12.5118
鶒	-12.5118
臊	-12.512
懃	-12.512
轔	-12.512
䁀	-12.5121
氲	-12.5121
琬	-12.5122
驃	-12.5122
屩	-12.5122
匾	-12.5122
黦	-12.5123
奬	-12.5123
努	-12.5124
僑	-12.5124
牓	-12.5124
醍	-12.5125
心痒難揉	-12.5125
鵓	-12.5125
皴	-12.5126
磣	-12.5126
号	-12.5126
麥秀兩岐	-12.5126
騮	-12.5126
醐	-12.5126
嚙	-12.5126
潦	-12.5127
嶰	-12.5127
謅	-12.5127
彷	-12.5127
􁩉	-12.5127
硃	-12.5128
翕	-12.5128
金盞倒垂蓮	-12.5129
郝	-12.513
鳳凰臺上憶吹簫	-12.5131
尫	-12.5132
例作上一下四句法	-12.5133
疃	-12.5134
蹲	-12.5138
繅	-12.5138
此調秖此一詞	-12.514
塌	-12.5143
雙調一百七字前段十	-12.5144
賄	-12.5154
仔	-12.586
睹	-12.5921
炳	-12.5921
渊	-12.5924
湫	-12.5925
夹	-12.5926
囷	-12.5927
乩	-12.5928
侈	-12.5929
樸	-12.5929
靶	-12.593
筌	-12.5931
譴	-12.5931
殉	-12.5933
琵	-12.5933
刊	-12.5933
雲破月来花弄影	-12.5933
䍦	-12.5934
鍚	-12.5934
遹	-12.5936
𡨕	-12.5937
勅	-12.5937
鸛	-12.5938
薩	-12.5939
茹	-12.5939
蝣	-12.5939
蒯	-12.5939
誘	-12.594
艮	-12.594
菂	-12.5941
㸑	-12.5941
蛤	-12.5941
艘	-12.5942
鬌	-12.5942
懴	-12.5943
締	-12.5943
愆	-12.5943
櫪	-12.5944
届	-12.5944
盲	-12.5944
怳	-12.5944
墖	-12.5945
囿	-12.5945
摴	-12.5946
艫	-12.5946
崆	-12.5947
澧	-12.5947
䜛	-12.5947
圑	-12.5948
尀	-12.5948
噱	-12.5948
銑	-12.5948
楶	-12.5948
翛	-12.5948
茁	-12.5949
虢	-12.5949
攴	-12.5949
嚐	-12.595
祉	-12.595
嶔	-12.595
媸	-12.5951
翊	-12.5951
匕	-12.5951
廨	-12.5951
晡	-12.5951
訢	-12.5951
沔	-12.5951
蓍	-12.5951
饅	-12.5952
轄	-12.5952
鍳	-12.5952
峒	-12.5952
翟	-12.5952
磔	-12.5953
豉	-12.5953
箧	-12.5953
趾	-12.5953
罟	-12.5953
殄	-12.5954
耦	-12.5954
㕓	-12.5954
夸	-12.5955
箒	-12.5955
需	-12.5956
熾	-12.5956
棍	-12.5957
搠	-12.5957
天若有情天亦老	-12.5958
蠆	-12.5958
嶷	-12.5958
沌	-12.5958
圯	-12.5958
珙	-12.5959
顇	-12.5959
博學宏詞科	-12.596
妤	-12.596
買陂塘旋栽楊柳	-12.596
枒	-12.5961
遒	-12.5961
瘡	-12.5962
頬	-12.5962
蝗	-12.5962
跖	-12.5962
禂	-12.5962
尿	-12.5962
毳	-12.5963
嵋	-12.5963
鴣	-12.5963
曖	-12.5963
閎	-12.5964
礫	-12.5965
徬	-12.5965
倡條冶葉	-12.5966
惬	-12.5966
􁏫	-12.5966
嚨	-12.5967
滾	-12.5967
媧	-12.5968
廢寢忘食	-12.5971
鏟	-12.5972
斡	-12.5972
桄	-12.5972
雙調九十五字前段十	-12.5973
怱	-12.5975
术	-12.5979
十面埋伏	-12.5981
褃	-12.5982
喇	-12.6819
筲	-12.6831
偹	-12.6832
楠	-12.6833
詼	-12.6833
墉	-12.6834
迺	-12.6834
僣	-12.6835
佃	-12.6835
【	-12.6835
栞	-12.6836
洵	-12.6836
叡	-12.6836
澂	-12.6836
綆	-12.6837
邠	-12.6837
逩	-12.6838
侔	-12.684
撕	-12.684
圻	-12.684
籛	-12.684
擗	-12.6841
脛	-12.6842
俘	-12.6843
螓	-12.6843
軻	-12.6843
殁	-12.6843
捋	-12.6844
袤	-12.6844
睠	-12.6844
鈚	-12.6844
醞	-12.6844
涸	-12.6845
堰	-12.6847
笈	-12.6847
苟	-12.6847
搘	-12.6847
覘	-12.6848
旃	-12.6848
迨	-12.6848
彪	-12.6849
峥	-12.6849
溷	-12.6849
袪	-12.6849
喏	-12.685
􁒷	-12.685
擫	-12.6851
㢲	-12.6852
遛	-12.6852
籮	-12.6852
搢	-12.6852
菖	-12.6852
暾	-12.6853
趲	-12.6853
雒	-12.6854
􁦸	-12.6854
逵	-12.6854
洄	-12.6855
陬	-12.6855
瓈	-12.6855
驑	-12.6855
嘱	-12.6856
欎	-12.6856
綢	-12.6856
兕	-12.6856
驊	-12.6856
刈	-12.6856
檎	-12.6857
袈	-12.6857
麖	-12.6857
茲	-12.6857
边	-12.6857
毯	-12.6858
竪	-12.6858
裟	-12.6859
毶	-12.6859
䲭	-12.686
孛	-12.686
娣	-12.686
忭	-12.686
􁬁	-12.686
籪	-12.686
蒭	-12.6861
泞	-12.6861
渤	-12.6861
猖	-12.6861
氐	-12.6862
孥	-12.6862
迱	-12.6862
蜿	-12.6862
驤	-12.6862
潯	-12.6863
笞	-12.6863
鯤	-12.6863
糴	-12.6863
愬	-12.6863
蜉	-12.6863
𬞞	-12.6864
盥	-12.6864
宥	-12.6865
蛄	-12.6865
裌	-12.6866
麪	-12.6866
矻	-12.6866
碪	-12.6866
弥	-12.6867
貸	-12.6867
惘	-12.6867
笆	-12.6867
痼	-12.6868
宋黄大輿編	-12.6869
䁔	-12.6869
窑	-12.6869
驩	-12.687
残	-12.687
濬	-12.6871
幀	-12.6871
塤	-12.6872
䓤	-12.6872
惓	-12.6873
刳	-12.6873
獐	-12.6873
葫	-12.6874
嗓	-12.6875
嵒	-12.6875
眶	-12.6875
撁	-12.6875
腫	-12.6877
媾	-12.6877
薖	-12.6878
幷	-12.688
扒	-12.6882
𬈑	-12.6882
艖	-12.6882
酕	-12.689
喋	-12.782
庖	-12.7826
櫛	-12.7827
内可平可仄據此餘㕘	-12.7828
䧏	-12.7831
蛉	-12.7832
哇	-12.7833
拉	-12.7834
嬷	-12.7836
鶄	-12.7838
掿	-12.7839
啁	-12.7839
筮	-12.784
歕	-12.7841
殞	-12.7842
竆	-12.7843
玠	-12.7843
舶	-12.7844
垤	-12.7844
儋	-12.7844
琛	-12.7845
嗑	-12.7845
乾隆四十六年九月恭校上	-12.7846
烝	-12.7846
鞦	-12.7848
蘖	-12.7848
燁	-12.7849
埒	-12.7849
枵	-12.7849
翀	-12.7849
贑	-12.7849
萁	-12.7849
雰	-12.7849
嵎	-12.785
泌	-12.785
菅	-12.785
雇	-12.7851
坂	-12.7852
隲	-12.7852
厠	-12.7853
笊	-12.7853
澷	-12.7853
糲	-12.7854
郯	-12.7854
丐	-12.7854
煇	-12.7854
庇	-12.7854
潸	-12.7855
葷	-12.7855
鄞	-12.7855
袷	-12.7855
偈	-12.7855
嗤	-12.7856
醯	-12.7857
趍	-12.7857
噲	-12.7858
弘	-12.7858
嗹	-12.7859
蜒	-12.7859
嬢	-12.7859
㷔	-12.7859
詮	-12.7859
眨	-12.786
廹	-12.786
壕	-12.786
滓	-12.786
崈	-12.786
稲	-12.786
鞅	-12.786
黜	-12.7861
燾	-12.7861
闡	-12.7861
跧	-12.7861
賁	-12.7862
卭	-12.7862
蘊	-12.7863
駈	-12.7863
躧	-12.7863
蝟	-12.7863
軛	-12.7864
孜	-12.7864
俙	-12.7864
琨	-12.7864
騕	-12.7864
頏	-12.7864
㫄	-12.7865
茭	-12.7865
磈	-12.7865
灕	-12.7865
􁊬	-12.7866
侠	-12.7866
愫	-12.7866
䢴	-12.7866
间	-12.7866
􁅔	-12.7867
鞴	-12.7867
鴇	-12.7867
簹	-12.7867
維舟試望故	-12.7867
歧	-12.7868
愷	-12.7868
悌	-12.7868
合成愁離人心上秋縱芭蕉不雨也颼颼	-12.7868
蚌	-12.7868
皈	-12.7869
跑	-12.7869
沬	-12.7869
千金縱買相如賦	-12.7869
紅藕香殘玉簟秋	-12.7869
癢	-12.7869
脈	-12.7869
明陳耀文輯小令	-12.7869
灎	-12.787
憶昔午橋橋上飲坐中	-12.787
蔔	-12.787
花自飄零水自流一種相思	-12.7871
廢寝忘飡	-12.7872
毡	-12.7872
鮓	-12.7873
鏑	-12.7874
问	-12.7874
蟒	-12.7874
蝇	-12.7875
蝠	-12.7875
崚	-12.7875
蝀	-12.7875
緉	-12.7875
藎	-12.7875
贛	-12.7875
欽定四庫全書花菴詞選續集巻	-12.7876
咷	-12.7878
艎	-12.7879
旻	-12.7879
愰	-12.7879
蹌	-12.7883
殤	-12.7884
帢	-12.7885
糕	-12.7885
箎	-12.7886
黟	-12.7889
貲	-12.7896
嬝	-12.8794
臠	-12.8926
譔	-12.8929
廼	-12.8931
鴂	-12.8932
苛	-12.8935
蜾	-12.8936
螟	-12.8936
戾	-12.8939
洺	-12.8941
辣	-12.8942
殫	-12.8942
􁏏	-12.8945
縢	-12.8947
鼈	-12.8948
跛	-12.8948
剽	-12.8948
綠蓑衣斜風細雨不須歸	-12.8948
旎	-12.8949
晰	-12.8949
亘	-12.8949
謄	-12.8949
惰	-12.895
矟	-12.895
孱	-12.8951
甬	-12.8953
抓	-12.8953
饗	-12.8954
庐	-12.8954
齎	-12.8955
懣	-12.8955
蘆葉滿汀洲寒沙帶淺流二十年重	-12.8956
塍	-12.8956
跚	-12.8956
𧖟	-12.8956
祺	-12.8956
涌	-12.8957
伉	-12.8957
难	-12.8957
􁸲	-12.8958
諍	-12.8959
捏	-12.8959
幞	-12.8959
噉	-12.8959
勵	-12.896
懾	-12.896
輛	-12.8961
柵	-12.8961
髏	-12.8961
蓽	-12.8961
沓	-12.8961
萎	-12.8962
韝	-12.8962
殂	-12.8962
褓	-12.8962
孀	-12.8962
鵒	-12.8963
劑	-12.8963
䰗	-12.8964
庾郎先自吟愁賦	-12.8964
瀣	-12.8964
賂	-12.8964
鋭	-12.8964
壟	-12.8964
抒	-12.8965
咀	-12.8965
璜	-12.8966
擄	-12.8966
靸	-12.8966
别後寡信輕諾	-12.8966
瓷	-12.8966
伊處哀音似訴正思婦無眠起	-12.8966
吭	-12.8967
廩	-12.8967
滸	-12.8967
昜	-12.8968
犖	-12.8968
􁈋	-12.8968
絺	-12.8968
穟	-12.8969
綂	-12.897
营	-12.897
賃	-12.8971
悸	-12.8971
愇	-12.8971
紕	-12.8971
窪	-12.8972
睚	-12.8972
燐	-12.8972
敖	-12.8973
趙晉臣敷文	-12.8973
􁐻	-12.8973
烬	-12.8973
身在天涯亂山孤壘危樓飛觀歎春	-12.8973
袱	-12.8974
槲	-12.8974
鹵	-12.8974
白雪齋選訂樂府吳騷合編	-12.8974
玲	-12.8974
琉	-12.8974
醃	-12.8974
䣃	-12.8974
䟱	-12.8974
腳	-12.8974
懦	-12.8975
篪	-12.8975
鏦	-12.8975
瓓	-12.8975
羆	-12.8975
圇	-12.8976
歗	-12.8976
小池塘風簾動碎影舞斜陽	-12.8976
鍤	-12.8976
此恨平分取更無言語空相	-12.8976
鼪	-12.8977
炧	-12.8977
訴君莫舞君不見玉環飛燕皆塵土	-12.8977
悒	-12.8977
藪	-12.8978
新晴古今多少事漁唱起三更	-12.8978
闗河冷落殘照當樓	-12.8979
晷	-12.8979
楊金淺遲日催花淡雲閣雨	-12.8979
𦕈	-12.8979
姒	-12.8979
稗	-12.8979
欸	-12.898
箵	-12.898
罡	-12.898
鋩	-12.898
枷	-12.898
剮	-12.898
方定庭軒寂寞近清明殘花中酒又是	-12.898
蜩	-12.898
鈕	-12.8981
惧	-12.8981
捩	-12.8981
薲	-12.8982
枋	-12.8983
沙逺但暗憶江南江北想	-12.8983
含羞整翠鬟得意頻相	-12.8983
雕梁藻井又軟語商量不定飄然快拂花	-12.8984
亀	-12.8984
濂	-12.8984
芟	-12.8984
笭	-12.8985
湟	-12.8986
玉有翠禽小小枝上同宿客裏相逢籬角	-12.8986
騾	-12.8986
幈	-12.8987
蕢	-12.8987
袵	-12.8989
念多情但有當時皓月照人依舊	-12.8989
􁫣	-12.899
箫	-12.899
亜	-12.899
淛	-12.8991
型	-12.8991
繖	-12.8993
忑	-12.8994
餙	-12.8994
齧	-12.8995
祬	-12.8995
桔	-12.8996
䯻	-12.8996
湊	-12.8997
拶	-12.9005
哮	-12.9007
构	-12.901
僞	-13.0158
黥	-13.0169
硎	-13.0176
坷	-13.0177
醽	-13.0179
鋟	-13.0182
亶	-13.0184
俜	-13.0184
殯	-13.0186
凂	-13.0186
縆	-13.0188
煜	-13.0188
聃	-13.0189
紓	-13.019
楣	-13.0191
濘	-13.0191
蠃	-13.0192
箬	-13.0193
罹	-13.0193
僖	-13.0195
擐	-13.0195
𢾗	-13.0196
剌	-13.0196
黝	-13.0197
灤	-13.0197
吚	-13.0197
默	-13.0197
靛	-13.0198
眊	-13.0198
宋史藝文志載	-13.0198
鴟	-13.0199
鴒	-13.0201
嚏	-13.0201
鱉	-13.0202
丨	-13.0203
骷	-13.0205
澇	-13.0206
餽	-13.0206
蠲	-13.0206
禺	-13.0207
王奕清奉㫖校刊	-13.0207
箠	-13.0207
畛	-13.0207
鉸	-13.0207
媵	-13.0207
苣	-13.0207
珣	-13.0208
嶢	-13.0209
桅	-13.0209
了忘則怎生便忘得又還問鱗鴻試重	-13.021
矰	-13.021
侗	-13.021
■	-13.0211
淝	-13.0211
覿	-13.0211
苍	-13.0212
悶來彈鵲又攪碎一簾花影	-13.0212
螘	-13.0212
拯	-13.0213
紅杏枝頭春意閙尚書	-13.0213
鑊	-13.0213
憮	-13.0213
波無雙鯉雲山萬重寸心千里	-13.0213
摰	-13.0213
螀	-13.0213
石榴半吐紅巾蹙	-13.0214
龍樓兩觀見銀燭星毬	-13.0214
刦	-13.0214
棨	-13.0215
遘	-13.0215
鼾	-13.0216
今夜山深處斷魂分付潮回去	-13.0216
貊	-13.0216
劖	-13.0217
㘅	-13.0217
譙門暫停征棹聊共	-13.0217
蒐	-13.0218
茉	-13.0218
噹	-13.0218
秔	-13.0218
眉語不知舞錯伊州	-13.0218
嵘	-13.0218
媻	-13.0218
枳	-13.0219
鯿	-13.0219
自許平生意氣衣冠人笑抵死塵埃意倦	-13.0219
戴花君莫笑六么催拍盞頻傳	-13.0219
漸困倚孤眠清熟簾外誰	-13.0219
􁏳	-13.022
埭	-13.022
明陳耀文輯長調	-13.022
璘	-13.0221
中興以來絶妙詞選卷之	-13.0221
􁩊	-13.0221
慍	-13.0222
歙	-13.0222
糁	-13.0222
記當時送君南浦萬里乾坤百年身世	-13.0223
窵	-13.0223
醒明月下夢逐潮聲去文章信美知何用	-13.0223
闍	-13.0224
舲	-13.0224
倭	-13.0224
閘	-13.0224
祛	-13.0224
想公瑾當年小喬	-13.0224
澦	-13.0224
㦲	-13.0225
斁	-13.0225
瞋	-13.0226
初透東籬把酒黄昏後有暗香盈	-13.0226
事知多少小樓昨夜又東風	-13.0226
嶒	-13.0226
鏞	-13.0226
豎	-13.0227
洮	-13.0227
銚	-13.0227
闲	-13.0227
㵄	-13.0227
細困無力忍分散彩雲歸後何處更	-13.0227
綈	-13.0227
姆	-13.0227
孳	-13.0228
醤	-13.0228
𠻳	-13.0228
􁑭	-13.0228
眵	-13.0229
跂	-13.0229
冺	-13.0229
袚	-13.0229
跗	-13.0229
宫舊事那人正睡裏飛近蛾	-13.0229
瑚	-13.023
征轡離愁漸逺漸無窮迢迢不	-13.023
􁎘	-13.023
卻	-13.023
波間還與韶光共憔悴不堪看細雨夢	-13.023
茯	-13.0231
桿	-13.0231
蓿	-13.0231
歸來化作此花幽獨猶記深	-13.0231
箴	-13.0231
蹶	-13.0232
惟有樓前流水應念我終日凝眸凝眸	-13.0232
髼	-13.0232
而今漸老都忘却春風詞筆但怪得竹外	-13.0232
是豪英長溝流月去無聲	-13.0233
咫	-13.0233
汶	-13.0233
蚪	-13.0233
背西風酒旗斜矗綵舟雲淡	-13.0233
褦	-13.0233
襶	-13.0233
抬	-13.0234
蟣	-13.0234
抅	-13.0234
趷	-13.0234
獪	-13.0234
势	-13.0234
鬔	-13.0235
刅	-13.0235
望人在天北悽惻恨堆積漸别浦縈	-13.0235
鼍	-13.0237
睞	-13.0237
溍	-13.0237
吒	-13.0238
離亭宴帶歇拍煞	-13.0238
璁	-13.0238
㢠	-13.0239
藿	-13.0239
問當時遺譜有絶藝	-13.024
碧波新漲小池塘雙雙蹴水忙	-13.024
霙	-13.024
送人猶未苦苦送春	-13.0241
魅	-13.0241
麵	-13.0241
慘結秋隂西風送絲絲雨	-13.0241
嬌雲容易飛夢斷知何處	-13.0241
嚎	-13.0242
疁	-13.0242
怠	-13.0242
馬窺江去後廢池喬	-13.0242
􁋆	-13.0246
銀字笙調心字香燒	-13.0246
樓夢好難賦深情二十四橋仍在波心蕩	-13.0246
怯瓊梳容銷金鏡	-13.0248
落又匆匆過了清明時節剗地東風欺客	-13.0248
涘	-13.0248
瞎	-13.0249
􁕖	-13.0254
杆	-13.1324
罨	-13.1468
翡	-13.153
氓	-13.1586
撦	-13.1594
甖	-13.1601
藺	-13.1603
岏	-13.1605
堊	-13.1606
譎	-13.1608
懲	-13.1609
球	-13.161
曄	-13.1612
夐	-13.1612
疚	-13.1613
份	-13.1615
窰	-13.1616
飫	-13.1616
棼	-13.1616
蔑	-13.1618
耰	-13.1618
媟	-13.1618
烙	-13.1619
撗	-13.1619
棖	-13.1621
隧	-13.1621
袄	-13.1621
槧	-13.1622
鯫	-13.1622
潰	-13.1622
轓	-13.1623
鈎簾借月染雲為幌	-13.1626
劄	-13.1626
淄	-13.1626
覯	-13.1627
歆	-13.1627
柿	-13.1628
鰾	-13.1628
冡	-13.1628
饋	-13.1628
鬘	-13.163
誨	-13.1631
起舞弄清影何似在人間轉朱閣低綺	-13.1632
鴿	-13.1632
岱	-13.1632
􁭤	-13.1632
揲	-13.1633
時圓人有悲歡離合月有	-13.1633
髀	-13.1633
泛商流羽一聲雲杪	-13.1634
聱	-13.1634
眎	-13.1634
垞	-13.1634
鶘	-13.1634
虵	-13.1635
䔧	-13.1635
獰	-13.1635
刄	-13.1635
閠	-13.1635
終日望君君不至舉頭聞鵲喜	-13.1635
汰	-13.1635
愍	-13.1636
沲	-13.1636
名王宵獵騎火一川明笳	-13.1636
望彭城清泗與淮通寄我相思千	-13.1636
子還來尋舊壘餘寒猶峭紅日薄侵羅綺	-13.1637
篦	-13.1637
鎪	-13.1637
陌人家相對如説興亡斜陽	-13.1637
桷	-13.1637
愁旋釋還似織淚暗拭又偷滴	-13.1637
罽	-13.1637
脰	-13.1637
礼	-13.1637
處付與漁翁釣叟又恰是題詩時候猛拍	-13.1638
歉	-13.1638
春風惡劣把數枝香錦和鶯吹折	-13.1638
􁋚	-13.1638
觀草木欣榮幽人自感	-13.1639
樅	-13.1639
鷓	-13.1639
婕	-13.164
爬	-13.164
梟	-13.164
匆匆春又歸去惜春長怕花開早何	-13.164
縟	-13.164
瞭	-13.164
上馬誰扶醒眠朱閣驚飈動	-13.164
簏	-13.164
伺	-13.1641
醿	-13.1641
暝色入髙樓有人樓上愁	-13.1641
為使君洗盡蠻風瘴雨作霜天	-13.1641
斜陽映山落斂餘紅猶戀孤城欄角	-13.1641
首江海平生漂流容易散佳	-13.1641
𠺕	-13.1641
巽	-13.1642
毗	-13.1642
园	-13.1642
殖	-13.1642
剷	-13.1642
鄜	-13.1643
吹月一簾花碎芳意婆娑	-13.1643
午睡香銷餘篆一枕湖山千里夢正白蘋	-13.1643
鮫綃透桃花落閒池閣山盟雖在錦書難	-13.1643
隔花啼鳥喚行人日斜歸去奈何春	-13.1644
窊	-13.1644
遶郴山為誰流下瀟湘去	-13.1644
魚傳尺素砌成此恨無重數郴江幸自	-13.1644
泒	-13.1645
彜	-13.1645
瞥眼飛紅日長不放春醪困立盡海棠風	-13.1645
斵	-13.1645
炤	-13.1646
萬里尋郎去處又還被鶯呼起不恨	-13.1646
斷無尋處可堪孤館閉春寒杜	-13.1646
鷴	-13.1646
春訊飛瓊管風日薄度	-13.1646
甦	-13.1646
闋長亭暮王孫去萋萋無數南北東西路	-13.1647
剙	-13.1647
死催人去上馬苦匆匆琵琶曲未終	-13.1647
閆	-13.1647
餔	-13.1647
似花還似非花也無人惜從	-13.1647
無情有思縈損柔腸困酣嬌眼	-13.1647
想人生美景良辰堪惜向其間賞心樂事	-13.1647
矱	-13.1647
聞一霎清明雨雨後却斜陽杏花零落香	-13.1647
騑	-13.1647
徇	-13.1648
浚	-13.1648
喟	-13.1648
礶	-13.1648
薗	-13.1648
䛏	-13.1648
月冷龍沙塵清虎落今年漢酺初賜新翻	-13.1648
贋	-13.1648
虚閣籠寒小簾通月暮色偏	-13.1649
燮	-13.1649
裨	-13.1649
筴	-13.1649
瀕	-13.1649
昃	-13.1649
初成鶴怨猿驚稼軒未	-13.165
初試騰騰春思前度桃花去年人	-13.165
誰念我重見冷楓紅舞喚起淡	-13.165
縹緲孤鴻影驚起却回頭有恨無人省	-13.165
姍	-13.165
顕	-13.1651
脹	-13.1651
幫	-13.1651
僭	-13.1652
豌	-13.1652
痊	-13.1652
戧	-13.1652
瀆	-13.1652
轉喜皇都舊日風光太平再見	-13.1652
焦琴紈扇莫鼓琵琶江上曲怕荻花	-13.1652
􁔡	-13.1652
砭	-13.1653
飲無緒方留戀處蘭舟催發執手相看	-13.1653
钁	-13.1653
㼭	-13.1653
耙	-13.1653
錡	-13.1653
虹梁水陌魚浪吹香紅衣半狼	-13.1653
滿長安髙却旗亭酒價	-13.1653
斗酒彘肩風雨渡江豈不快哉被香山居	-13.1653
三十六陂人未到水佩風裳無數翠葉吹	-13.1653
隸	-13.1654
湲	-13.1654
主惆悵後期空有鱗鴻寄紈素枕前淚	-13.1654
萹	-13.1655
一縷宿酒醒遲惱破春情緒	-13.1655
鏇	-13.1655
魲	-13.1655
勑	-13.1655
睥	-13.1655
飛還住驚粉重蝶宿西園	-13.1655
低聲問向誰行宿城上	-13.1656
莉	-13.1656
㖔	-13.1656
蕯	-13.1656
染處空有香紅尚軟料彼此魂	-13.1656
繫歸舟碧野朱橋當日事人不見水空流	-13.1656
玉砌空餘三十六離宫塞笳驚起	-13.1656
起卧沙禽野老林泉故王臺榭呼喚登臨	-13.1656
猻	-13.1658
瞢	-13.1658
照我梅邊吹笛喚起玉人不管清寒	-13.1658
咮	-13.1658
鎰	-13.1658
滎	-13.1658
毀	-13.1658
來向此花前對酒不忍觸共粉淚	-13.1659
人未賞都付與鶯和燕寂寞	-13.1659
憑髙念逺向南樓一聲歸	-13.1659
鴛鴦翡翠小小思珍偶	-13.1659
古道音塵絶音塵絶西風殘照漢家陵闕	-13.1659
風老鶯雛雨肥梅子	-13.1659
曉雲空不與梨花同夢	-13.1659
悠悠嵗月天涯醉一分秋一分憔悴	-13.166
撻	-13.166
杴	-13.166
秦鏡偷換韓香天便教人霎時厮見何妨	-13.166
舞徹中原塵飛滄海風雪萬里龍庭寫	-13.166
度簾幕中間去年塵冷差池	-13.166
襇	-13.166
登臨送目正故國晚秋天氣	-13.166
偲	-13.1661
扢	-13.1661
不知天待雪惱江梅東郊寒色尚徘徊雙	-13.1661
喜泥潤燕歸南浦最妨	-13.1661
㮚	-13.1661
􁰽	-13.1661
最苦夢魂今宵不到伊行問甚時	-13.1661
沚	-13.1661
􁊭	-13.1661
青絲勒馬風流雲散羅綬分香翠綃封淚	-13.1662
㳽	-13.1662
㛰	-13.1662
鶺	-13.1662
一陣狂風和驟雨碧油紅斾錦障泥斜日	-13.1663
㴞	-13.1663
郎去也怎忘得玉環分付第一是早早	-13.1663
禇	-13.1663
彘	-13.1664
舊香頓歇怨歌永瓊	-13.1664
暪	-13.1664
城不見只見亂山無數韋	-13.1664
便忘了天涯芳信愁損翠黛雙蛾日日畫	-13.1664
但莫管春寒醉紅自暖	-13.1664
榆火催寒食愁一箭風快	-13.1664
晝景方永重簾花影好夢猶酣	-13.1665
愁情到不堪言處分付東流	-13.1665
麐	-13.1665
玉漏穿花銀河垂地月上	-13.1665
欲住試入舊巢相並還相	-13.1665
初帶夜月海棠半含朝雨	-13.1666
㠯	-13.1667
搨	-13.1667
劲	-13.1667
内苑春不禁過青門御溝漲	-13.1667
爭飛競誇輕俊紅樓	-13.1667
栱	-13.1667
麩	-13.1667
椶	-13.1667
雅須知此景古今無價運巧思穿	-13.1667
梢翠尾分開紅影芳徑芹泥雨潤愛貼地	-13.1667
畸	-13.1668
􁄪	-13.1668
韮	-13.1668
樓上女擡粉面雲鬟相亞鈿	-13.1668
羝	-13.1668
䀨	-13.1669
樓上晴天碧四垂樓前芳草接天涯	-13.1669
㳟	-13.167
楊依舊欹斜葵麥迷	-13.1671
駐初程過春風十里盡薺麥青青自	-13.1671
􁐨	-13.1671
樓上愁登臨愁登臨海棠開後望到如今	-13.1671
天上金屋銀屏歌吹競舉青	-13.1672
鼓瑟湘靈促哀彈似林鶯嚦嚦山	-13.1672
蔾	-13.1672
唏	-13.1672
赬	-13.1673
饀	-13.1673
橇	-13.1673
淮左名都竹西佳處解鞍少	-13.1674
膘	-13.1674
休一丘一壑也風流不知筋力衰多少但	-13.1674
倏	-13.1675
騒	-13.1675
啅	-13.1676
蝤	-13.1676
鍍	-13.1677
𦦨	-13.1679
鰣	-13.1679
坳	-13.1682
看玉做人間素秋千頃	-13.1683
篭	-13.1683
鬃	-13.1684
盏	-13.1687
􁗒	-13.1696
慊	-13.1696
的兵校每正雄威上應着	-13.1713
潺	-13.3255
忱	-13.3256
鯁	-13.3257
甯	-13.3258
愐	-13.3264
袙	-13.3268
􁁻	-13.3271
徼	-13.3271
稡	-13.3272
踽	-13.3277
虽	-13.328
歿	-13.328
凳	-13.328
瘳	-13.328
飴	-13.328
柩	-13.3283
穽	-13.3284
瓴	-13.3284
仭	-13.3284
還海道願謝公雅志莫相違西州路不應	-13.3287
譟	-13.3287
狷	-13.3287
佻	-13.3288
諺	-13.3289
今古俯仰昔人非誰似東坡老白首忘機	-13.3289
懆	-13.3292
磋	-13.3292
平林漠漠煙如織寒山一帶傷心碧	-13.3293
夢裏不知身是客一晌貪歡	-13.3293
頥堂先生文集卷第	-13.3293
綏	-13.3293
硜	-13.3293
蠱	-13.3294
桀	-13.3294
洤	-13.3294
臧	-13.3295
誡	-13.3295
矍	-13.3295
笑我閉門愁寂亂花過隔院芸香滿地狼	-13.3295
桯	-13.3295
堂瓊榭兩地不同栽一般開	-13.3295
瘠	-13.3295
售	-13.3296
照無眠不應有恨何事長向	-13.3296
嬖	-13.3296
稊	-13.3297
檏	-13.3297
濾	-13.3297
摳	-13.3298
絰	-13.3298
倥	-13.3298
此事古難全但願人長久千里共嬋娟	-13.3298
常南望翠葆霓旌使行人到此忠憤氣	-13.3298
滏	-13.3298
動飛花和雨著輕綃歸路碧迢迢	-13.3298
蕕	-13.3299
䬃	-13.3299
明月幾時有把酒問青天不知天上	-13.3299
麼	-13.3299
婵	-13.33
斌	-13.33
継	-13.33
谺	-13.33
鼓悲鳴遣人驚念腰間	-13.33
黿	-13.3301
銛	-13.3301
波聲拍枕長淮曉隙月窺人小無情	-13.3301
戡	-13.3301
芳如許軟紅塵裏鳴鞭鐙拾翠叢中勾伴	-13.3301
纚	-13.3302
知辜負秋多少聞道嶺南太守後堂深	-13.3302
絍	-13.3302
漾暖紋波颭颭吹晴絲雨	-13.3302
鑱	-13.3302
倸	-13.3302
閹	-13.3302
霧失樓臺月迷津渡桃源望	-13.3303
恪	-13.3303
歸路怨春不語算只有殷勤畫簷	-13.3303
㮄	-13.3303
顗	-13.3303
擋	-13.3303
㟳	-13.3303
淰	-13.3303
蚩	-13.3303
眤	-13.3303
天涯流落思無窮既相逢却匆匆	-13.3303
燈縱博雕鞍馳射誰記當年豪舉酒徒一	-13.3303
鰍	-13.3304
髹	-13.3304
屎	-13.3304
何事又惡任流光過却猶喜洞天自樂	-13.3304
未信與鶯兒燕子俱黄土千秋萬古	-13.3304
期驚倦旅遥知樓倚東風凝顰暗數	-13.3305
􁝴	-13.3305
馬端臨經籍考載	-13.3305
解繡鞍緩引春酌不記歸時早	-13.3305
悱	-13.3305
颶	-13.3305
沆	-13.3305
綯	-13.3305
䦘	-13.3306
菉	-13.3306
蚿	-13.3306
輜	-13.3306
飩	-13.3306
征夫指予歸路門前笑語喧童稚嗟	-13.3306
物直教生死相許天南地北雙飛客老翅	-13.3306
涿	-13.3307
热	-13.3307
仆	-13.3307
􁸠	-13.3307
爭先占新亭館惆悵年華暗換黯	-13.3307
眯	-13.3307
去盡酒徒無人問惟有玉山自倒	-13.3307
抉	-13.3307
簥	-13.3307
金井嘶騎不來銀燭暗枉	-13.3308
宓	-13.3308
綳	-13.3308
蓧	-13.3308
但知臨水登山嘯詠自引壺觴自醉	-13.3308
瞤	-13.3308
帝遣阜安宗社人仰雍容廊廟盡	-13.3308
影無計重見啼春細雨籠愁	-13.3308
淮楚曠望極千里火雲燒空	-13.3308
銳	-13.3309
􁯤	-13.3309
朂	-13.3309
䨓	-13.3309
此花飛盡恨西園落紅難綴曉來雨過遺	-13.3309
樟	-13.3309
稭	-13.3309
樹隔離宫水平馳道湖山盡入	-13.3309
倚危亭恨如芳草萋萋剗盡還生	-13.3309
更潘岳儀容子建才	-13.331
狽	-13.331
華如許野梅弄眉嫵屐齒印蒼蘚漸	-13.331
趖	-13.331
知否抱幽恨難語何時共漁艇莫負滄浪	-13.331
與笑籬落呼燈世間兒女	-13.331
陔	-13.331
晫	-13.331
嘷	-13.331
虫	-13.331
馬嘶人去船逐清波東注後夜最髙樓還	-13.331
冄	-13.331
嬸	-13.331
隷	-13.3311
冷雲迷浦倩誰喚玉妃起舞	-13.3311
瀋	-13.3311
龐	-13.3311
颸動翠葆露脚斜飛雲表因嗟念	-13.3311
了明肌雪春殿嬪娥魚貫列	-13.3311
春將半清歌妙舞從頭按等芳時開宴	-13.3311
熳	-13.3311
思量人否無緒無緒生怕黄昏疎雨	-13.3311
秋漸老蛩聲正苦夜將	-13.3311
搔首更醉君家酒吟詩日日待春風及至	-13.3311
擁雙旌歸去海棠也似别君難一	-13.3311
拷	-13.3311
缕	-13.3311
念寓形宇内復幾時不自覺皇皇欲何之	-13.3311
手還重執鎮日相看未足時	-13.3311
唓	-13.3311
自是仙姿清無暑月影空垂素扇	-13.3311
皥	-13.3312
經年底事長負清景暝入西山漸喚我一	-13.3312
枣	-13.3312
落紅鋪徑水平池弄晴小雨霏霏	-13.3312
先指花梢教看却把心期細	-13.3312
情緒蕭索一片閒愁想丹青難	-13.3312
楙	-13.3312
褵	-13.3312
明朝酒醒大江流滿載一船離恨向衡州	-13.3312
五更心欲折角聲吹落梅花月	-13.3312
兖	-13.3312
匱	-13.3312
委吾心去留誰計神仙知在何	-13.3312
輓	-13.3313
投宿駸駸征騎飛雪滿孤村酒市漸	-13.3313
杜若吹沙愁損未歸眼信馬青樓去	-13.3313
忘我兼忘世親戚無浪語琴書中有真味	-13.3313
悖	-13.3313
覡	-13.3313
不賈種豆種桃之禍	-13.3313
同中書門下平章事兼樞	-13.3314
紡	-13.3314
玉枕拂金徽謫仙何處無人伴我白螺	-13.3314
洎	-13.3314
祠誰繼風流後今古恨一搔首	-13.3314
蛬	-13.3314
接雄蜂雌蝶豈是無情知受了多少	-13.3314
蛸	-13.3314
咫尺醉中歸夢直前度蘭舟送客雙鯉	-13.3314
遥夜孤光難曉多少碎人腸處空	-13.3314
君知東溪春近好同歸	-13.3314
旋平野拂雪金鞭欺寒茸	-13.3314
脇	-13.3314
倦梳頭物是人非事事休欲語淚先流聞	-13.3315
㷱	-13.3315
娠	-13.3315
楯	-13.3315
𦙍	-13.3315
亂生春色誰為主餘花落處滿地和	-13.3315
􁑱	-13.3316
春蘭可佩留待先生手自栽	-13.3316
為米折腰因酒棄家口體交相累	-13.3316
猨	-13.3316
菌	-13.3316
蘭非一笑千秋事浮世危機	-13.3316
出花枝紅裊怎禁他孟婆合	-13.3316
他佳約風流鈿車不到杜陵路	-13.3316
辮	-13.3317
訥	-13.3317
齊開秋水太守無限行歌意擁麾幢光動	-13.3317
魘	-13.3317
不夜團團月上雲霄太平官府民物共逍	-13.3317
腷	-13.3317
薿	-13.3317
嘏	-13.3317
更那堪冷落清秋節今宵酒醒何處楊	-13.3317
怕喚起魚龍三更噴作前山雨	-13.3318
驄歸去長亭路芳塵起十二屏	-13.3318
破殘寒結伴踏青去好平頭鞋子小雙鸞	-13.3318
許幽情只愁歌罷月侵廊欲歸時司空笑	-13.3318
浦等行人醉擁重衾載	-13.3318
莬	-13.3318
膨	-13.3318
􁁺	-13.3318
誰空自倚清香未減風流不在人知	-13.3318
咆	-13.3318
㝛	-13.3318
瘐	-13.3318
鶵	-13.3318
去年時正愁絶過却紅杏飛沉吟杏子	-13.3319
翩然引去浮雲安在我自愛緑香紅	-13.3319
騌	-13.3319
禽時度月上汀洲冷中流容與	-13.3319
暗藏弓履偷寄香翰明	-13.3319
幾聲啼鴂十里揚州三生杜牧前事休	-13.332
風皓月相與忘形任人笑生涯泛梗飄萍	-13.332
曉醉西湖兩峰日日買花	-13.332
氤	-13.332
䜴	-13.332
驟驚春在眼借問何時委曲到山家	-13.332
淡天花落天花落千林瓊玖滿空	-13.332
説到得再相逢恰經年離别	-13.332
跣	-13.332
轝	-13.332
鷰	-13.332
睡起流鶯語掩蒼苔房櫳向	-13.332
休文頓覺春衫褪清明近杏花吹盡薄暮	-13.332
瀠	-13.332
遊誰信盛狂中有離情忽到心頭向	-13.332
罐	-13.332
魂當此際香囊暗解羅帶輕分謾	-13.332
懌	-13.332
南去北來何事蕩湘雲楚水目極傷心朱	-13.3321
夜寒垂燈春淺匆匆時事如許倦	-13.3321
談風月醉則恣眠芳草醒後亦佳	-13.3321
髽	-13.3321
㳤	-13.3321
唵	-13.3321
囙	-13.3321
􁗀	-13.3321
葑	-13.3321
此身雖在堪驚閒登小閣	-13.3321
蓴鱸依舊可是功名從來誤撫荒	-13.3322
想都開不惜春衣典盡只怕春光	-13.3322
理還亂是離愁别是一般滋味在心頭	-13.3322
斸	-13.3322
圚	-13.3322
爉	-13.3322
斷雨殘雲無意緒寂寞朝朝暮	-13.3322
賫	-13.3322
香泥斜沁幾行斑東風巧盡	-13.3322
清明時序料理春酲情緒憶	-13.3322
絮風頭寒欲盡墜粉飄	-13.3322
院宇獨自行來行去花片無聲簾外雨	-13.3322
緼	-13.3322
臉人道愁來須殢酒無奈愁	-13.3322
峯翠琴書倦鷓鴣喚起南	-13.3322
紛紛墜葉飄香砌夜寂	-13.3322
夢草池塘青漸滿海棠軒檻紅相亞	-13.3322
㽜	-13.3322
厭鶯聲到枕花氣動簾醉魂愁夢相半	-13.3322
花氣清婉望中迤邐城隂度河	-13.3322
薏	-13.3323
㳂	-13.3323
鍜	-13.3323
城人隔罨畫園林溪紺碧算重	-13.3323
琵琶誰撥最可惜一片江山	-13.3323
芘	-13.3323
勸酒昵昵琵琶恩怨語春	-13.3323
薝	-13.3324
餻	-13.3324
􁉤	-13.3324
三之一官裏事何時畢風雨外無多日相	-13.3324
沙堤香軟正宿雨初	-13.3324
劚	-13.3324
宜訪戴泛小棹越溪瀟	-13.3324
桐吹緑庭院暗雨乍歇無端抱影銷	-13.3324
迤邐漸迷鴛瓦好是漁人披得一	-13.3324
風蕭瑟邯鄲古道傷行客傷行客	-13.3324
勳	-13.3324
處東風不動照花影一天春聚	-13.3324
照野瀰瀰淺浪横空曖曖	-13.3324
樓畫簾半捲東風軟春歸翠陌平莎茸嫩	-13.3324
笴	-13.3325
纎雲弄巧飛星傳恨銀漢迢迢暗度	-13.3325
處悠然寒光亭下水連天飛起沙鷗一片	-13.3325
柔笑顰俱有風流貪與蕭郎	-13.3325
絳綵嬌春鉛華掩晝占	-13.3325
不許愁人不起清露晨流新桐初引多少	-13.3325
問沉香亭北何時召心未愜鬢先老	-13.3325
皓鶴奪鮮白鷴失素千里廣鋪寒野須信	-13.3325
雙盤金縷鳯憶得前春有箇人人共花裏	-13.3325
儍	-13.3325
笑聲喧似簫鼓太平京國多歡大酺綺羅	-13.3325
空在紈素待花前月下見了不教歸去	-13.3325
燈火漸人行天外一鈎殘月帶三星	-13.3325
眙	-13.3326
巇	-13.3326
􁵉	-13.3326
攖	-13.3326
來只有楊花和恨向東風滿	-13.3326
而今何事又對西風離别渚寒	-13.3326
蘄州簟展雙紋浪	-13.3326
年年今夜月華如練長是人千里愁腸	-13.3326
旹	-13.3326
欤	-13.3326
恨開遲早又飄零近今	-13.3326
跐	-13.3326
屇	-13.3327
䗫	-13.3327
瓤	-13.3327
穠李夭桃是舊日潘郎親試春	-13.3327
酃	-13.3327
饕	-13.3328
捶	-13.3328
瀁	-13.3328
似水佳期如夢忍顧鵲橋歸路兩情若是	-13.3328
滋味征鴻過盡萬千心事難寄樓上	-13.3328
膂	-13.3328
問江路梅花開也未春到也須頻寄人	-13.3328
宫腰束素只怕能輕舉好築避風臺	-13.3328
蟾低下林表素娥青女	-13.3328
佳麗地南朝盛事誰記山圍故國	-13.3329
芰荷池小長夏清暑燕引雛還鳩呼婦	-13.3329
渭水西風長安亂葉空憶詩情宛轉凭	-13.3329
行人歸意速最先念流潦妨車轂怎奈向	-13.3329
哿	-13.3329
外雨絲絲將恨和愁都織玉骨西風添痩	-13.3329
平生行處墜鞭京洛解佩瀟湘此夕何年	-13.3329
􁏠	-13.3329
信知暮寒較淺行天入鏡做弄出輕	-13.3329
耍江城人悄初更打問繁華誰解再向天	-13.3329
簫聲咽秦娥夢斷秦樓月秦樓月年年	-13.333
枮	-13.333
西湖寒碧又片片吹盡也幾時見得	-13.333
噭	-13.333
幾時來又不道流年暗中偷換	-13.333
無處問愁到而今未盡分明都是	-13.333
桃根桃葉一樹芳相接春到江南	-13.333
解羅裳獨上蘭舟雲中誰寄錦書	-13.333
障泥未解玉驄驕我	-13.333
俐	-13.3331
香最嬌軟到清明時候百紫千紅花正亂	-13.3331
兒閉紅紅白白簇花枝恰稱	-13.3331
見開時清淺小溪如練問玉堂何似	-13.3331
初嫁了雄姿英發羽扇綸巾談笑間	-13.3331
毉	-13.3331
霜送曉寒侵被無寐無寐門外馬嘶人起	-13.3331
簍	-13.3332
幽恨盡是愁邊新句倦登	-13.3332
醉月小紅樓錦瑟箜篌夜來風雨	-13.3332
失春風一半早占取韶光共追	-13.3333
乍雨乍晴輕暖輕寒漸近賞花時節	-13.3333
津堠岑寂斜陽冉冉春無極念月榭	-13.3333
匣哀絃閉了無心重理相思調念故人牽	-13.3333
殘夜長衾枕寒梧桐樹三更雨不道離情	-13.3334
閉想見東風暗消肌雪辜負枕前雲雨	-13.3334
浮向風前懊惱芳心一㸃寸眉兩葉禁甚	-13.3334
犒	-13.3334
縚	-13.3334
絣	-13.3334
廊影下願天上人間占得歡娛年年今夜	-13.3334
蘩	-13.3334
陌上清明近行人難借問風流何	-13.3334
抹忽覺天風吹海立好似春霆初發白馬	-13.3334
燈火烘春樓臺浸月良宵一刻千金錦	-13.3335
外蛛絲網落花也要留春住	-13.3335
東山歌酒待他年整頓乾坤事了為先生	-13.3335
芭蕉寒雨聲碎鏡華翳	-13.3335
西園夜飲鳴笳有華燈礙月飛	-13.3335
伴須信鸞絃易斷奈雲和再鼓曲終人逺	-13.3335
湘天濃暖記小江風月佳時屢約非	-13.3335
藕花相向野塘中暗傷亡國清露泣香紅	-13.3335
明月窺人人未寢欹枕釵横	-13.3336
踉	-13.3336
隃	-13.3336
釵至今冷落輕棄望極藍橋但暮雲千里	-13.3336
澌溶洩東風暗換年華金谷俊	-13.3336
咶	-13.3336
徧九陌太平簫鼓乍鶯兒百囀	-13.3336
翠冷搔頭燕那能語恩怨紫簫逺記桃枝	-13.3337
金環皓腕雪藕清泉瑩誰	-13.3337
馬雕鞍醉襟惹亂花飛絮正輕寒輕	-13.3337
東君消息還自南枝得素衣	-13.3337
筆猶記燕臺句知誰伴名園露飲東城	-13.3337
龍池澄碧芳意鱗鱗清時酒聖花神	-13.3337
水風輕蘋花漸老月露冷梧葉飄	-13.3337
氣嫩菊黄深拒霜紅淺近	-13.3337
㯭	-13.3337
芳思交加栁下桃蹊	-13.3337
應也恨冷落瓊樓金闕禁漏迢迢	-13.3338
霪	-13.3338
醎	-13.3338
春去不與人期弄夜色空餘滿地梨花雪	-13.3338
春翠偷聚淺約挼香深盟搗月誰是	-13.3338
漭	-13.3338
罍良宵勝景語邦人莫惜徘徊休	-13.3338
煙處問離巢孤燕飛過誰家故人	-13.3338
嫩梢相觸潤逼琴絲寒侵枕障蟲網吹	-13.3339
冷月無聲念橋邊紅藥年年知為誰生	-13.3339
夜鶴歎當時花竹今如此枝上露濺清淚	-13.3339
烟盡處紅蓼水邊頭芳草有情夕陽無語	-13.3339
猶厭言兵漸黄昏清角吹寒都在空城	-13.3339
大江東去浪淘盡千古風流人物故壘西	-13.3339
纇	-13.3339
萬事茫茫宇宙但獨對西風搔首巧拙豈	-13.3339
縁生别情銷鬢霜千	-13.334
䄡	-13.334
道池亭多宴掩庭花長是驚落秦謳膩粉	-13.334
矯矯千年鶴茫茫萬里風	-13.334
朣	-13.334
曚	-13.3341
霜欺無情燕子怕春寒輕失花	-13.3341
橰	-13.3341
阑	-13.3341
噆	-13.3341
靦	-13.3342
此恨無人共説還立盡黄昏寸心空切	-13.3342
太液波翻披香簾捲月明風細	-13.3342
春風不管盈盈早與安排金屋還	-13.3343
􁶋	-13.3343
涅	-13.3344
障風映袖盈盈笑語前度劉郎重到訪	-13.3344
看梅開未重唱梅邊新度曲催發寒梢凍	-13.3344
閒依露井笑撲流螢惹破	-13.3344
此心與東君同意後不如今	-13.3345
橋倚風融漢粉坐月怨秦簫相思因甚到	-13.3345
棱	-13.3346
􁄀	-13.3346
翠陌蘭橈雙槳急欲訪莫愁何處旗亭在	-13.3346
憂愁風雨樹猶如此倩何人喚取紅巾翠	-13.3347
年時去處年時春色清明又近也却天涯	-13.3347
馬出都門正潮平洲渚	-13.3349
清野人語漸無聞空帶愁歸何意重	-13.3349
無汗水殿風來暗香滿繡簾開一	-13.3353
鄔	-13.3353
庿	-13.3353
重見鏡裏花難折也應驚問近來多少華	-13.3353
調有平韻仄韻兩體平韻者	-13.3355
􁦲	-13.3357
寛春無限仙郎驕馬瓊林宴待捲上珠簾	-13.3358
揝	-13.3362
施逞英鋭最當先展	-13.3384
鑛	-13.5254
泐	-13.5254
瘤	-13.5258
种	-13.526
塋	-13.5262
腎	-13.5262
銼	-13.5265
邯	-13.5266
耄	-13.5268
蕈	-13.527
產	-13.527
􁞬	-13.5272
嶸	-13.5272
冋	-13.5275
囓	-13.5275
讖	-13.5275
玻	-13.528
牝	-13.5281
晀	-13.5282
鞶	-13.5282
耑	-13.5283
鰐	-13.5284
噍	-13.5284
佗	-13.5284
赧	-13.5284
灸	-13.5284
垂下簾旌凉波不動簟紋平	-13.5284
椷	-13.5284
景物因人成勝槩滿目更無塵可礙等	-13.5284
丱	-13.5285
崛	-13.5285
先快明月清風如有待誰信門前車馬隘	-13.5285
褘	-13.5285
晝永稱瀟湘竿叟爛柯仙客	-13.5285
斗帳春寒起未忺天氣困人梳洗	-13.5286
儇	-13.5286
芭	-13.5287
襕	-13.5287
泯	-13.5288
􁩰	-13.5288
朓	-13.5288
􁀿	-13.5289
齦	-13.529
悍	-13.529
崐	-13.529
諵	-13.529
狥	-13.5291
迍	-13.5291
一道士道士驚曰此赤城韓夫人所	-13.5291
髥	-13.5291
凊	-13.5291
綣	-13.5292
重逢處詩翁感遇把江北江南風嘹月唳	-13.5292
昩	-13.5292
汛	-13.5292
窯	-13.5292
邊兩兩三三浣紗遊女避行客含羞	-13.5292
又還有此時歡否臨岐把酒莫惜十分斟	-13.5293
麗句聲聲字字酸楚拍江秋影今何在	-13.5293
岌	-13.5293
日下漁人鳴榔歸去敗荷零落衰楊掩映	-13.5293
胾	-13.5294
吹玉笙曲終却從仙官去萬	-13.5294
􁎒	-13.5294
祼	-13.5295
宫闕今夕是何年我欲乗風歸去	-13.5295
道長空龍艘古渡馬耳淚如雨	-13.5295
微映是空舟歌罷海西流	-13.5295
愁客少月明多被雲妨中秋誰與共	-13.5295
立宿鳥歸飛急何處是歸程長亭更短亭	-13.5295
意匆匆惜年華今與誰同碧雲零落數字	-13.5295
歡樂趣離别苦就中更有癡兒	-13.5295
鷁翩翩過南浦望中酒斾閃閃一簇	-13.5295
䥏	-13.5296
讜	-13.5296
多情和天也老不應情遽如許請君試	-13.5296
柟	-13.5296
東西水遶兩山南北髙下雲堆逋	-13.5296
亸	-13.5296
汴水自東流只載一船離恨向西州	-13.5296
牲	-13.5297
郊外駐油壁又見漢宫傳燭飛	-13.5297
詩情掇送醉裏卧花心擁紅衾	-13.5297
萬里如虎元嘉草草封狼居胥	-13.5297
贏得倉皇北顧四十三年望中猶記	-13.5297
離恨無窮試將前事閒倚梧桐有銷	-13.5297
斜陽天接水芳草無情更在斜陽外黯鄉	-13.5297
悃	-13.5298
褌	-13.5298
網盡日惹飛絮長門事凖擬佳期又誤	-13.5298
􁂍	-13.5298
尚書右僕射兼中書侍郎	-13.5298
扇舊怨秋風流波墜葉佳期何在想天	-13.5298
訃	-13.5298
頫	-13.5298
簾外雨潺潺春意闌珊羅衾不	-13.5299
鄆	-13.5299
楂	-13.5299
虹亭下一枕眠秋雨虚名相	-13.5299
隨風忽報秋縱使君來豈堪折	-13.5299
晴景初升風細細雲收天淡如洗望外	-13.5299
癡銅舊畫興亡事道人知否見了也華	-13.5299
萬花覆千官盡醉内家傳詔重開宴未央	-13.5299
詩人老去鶯鶯在公子歸来燕燕忙	-13.5299
城寒食到今來海角逢春天涯	-13.5299
被雨打風吹去斜陽草樹尋常巷陌人道	-13.5299
無情緒都不管渡頭行客欲去猶依	-13.5299
歌筵畔先安枕簟容我醉時眠	-13.5299
東還杏花風數里響鳴鞭望長安路依稀	-13.5299
秌	-13.53
照影長相聚秋風不住悵寂寞芳魂輕	-13.53
城倦眼無緒更看桃李當時醉魄算依舊	-13.53
罶	-13.53
波似染山如削遶嚴陵灘畔鷺飛魚躍	-13.53
暗喜春紅依舊歸來紫陌東頭金釵換酒	-13.53
開後春酣花外青帘迷酒思陌上	-13.53
靧	-13.53
處小立背秋千空悵望娉婷韻度	-13.53
手躡屐上崔嵬放目蒼崖萬仞雲	-13.53
曆	-13.53
賑	-13.5301
香雲為約甚時向幽閨深處按新	-13.5301
指十三絃細將幽恨傳當筵秋水慢	-13.5301
清泚君王夀與天齊馨香動上穹頻	-13.5302
獻金鼎藥固大椿年縹緲飛瓊妙舞命	-13.5302
穪	-13.5302
賚	-13.5303
曲溪流水潺潺塞上清秋早寒一聲新	-13.5303
相從薊門仙客蕭然林下秋葉對雲淡星	-13.5303
秋空下臨江渚漠漠孤雲未成雨數聲新	-13.5303
開府莫怕功名欠人做如今熟計只有故	-13.5303
鞬	-13.5303
葢使紛馳騖若為情聞道中原遺老	-13.5303
塞下秋來風景異衡陽鴈去無留意四	-13.5303
芉	-13.5303
面邊聲連角起千嶂裏長	-13.5303
神仙班裏舊日王喬出奉	-13.5303
􁩘	-13.5303
髙望眼更那堪芳草連天飛梅弄晚	-13.5303
圞	-13.5303
擠	-13.5304
愀	-13.5304
蕘	-13.5304
寗	-13.5304
跼	-13.5304
㑹難尋縹緲髙城風露爽獨倚危	-13.5304
幽谷暄和黄鸝翩翩乍遷芳樹觀露	-13.5304
取湖山共語便可能無意同傾一尊露醑	-13.5304
日三雍奏樂送君雲路别情未抵遺愛試	-13.5304
涯雨好風如扇雨如簾時見岸花汀草漲	-13.5304
賣小院重簾燕飛礙昨宵風雨	-13.5305
一規古蟾魄瞥過宣和	-13.5305
逺送瀟湘客蘆花千里霜月白傷行色	-13.5305
人遥和羮心在忍使芳塵歇東風寂寞可	-13.5305
君行定憶南池歌筵舞地花晨月午八	-13.5305
家萬里燕然未勒歸無計羌	-13.5305
熄	-13.5305
㪷	-13.5305
鍵	-13.5305
褫	-13.5306
㓙	-13.5306
鈿重上風鬟不禁月冷霜寒	-13.5306
鸇	-13.5306
留春不住醉裏春歸西樓半簾斜日怪銜	-13.5306
短亭有情歌酒莫催行看取無情花草也	-13.5306
髅	-13.5306
鱼	-13.5306
㕙	-13.5306
沉沉人不到伴清幽時有流鶯囀凝思	-13.5306
燬	-13.5306
玉團香塗雲抹月龍章	-13.5306
跕	-13.5306
执	-13.5306
愕	-13.5307
儸	-13.5307
鷂	-13.5307
顙	-13.5307
仗東風盡力一齊吹送入此門	-13.5307
縱使長條似舊垂也應攀折他人手	-13.5307
䜿	-13.5307
櫃	-13.5307
砉	-13.5307
京人去秋蕭索畫簷鵲起梧桐落	-13.5307
渡口啼紅一春又負西湖醉離恨雨聲中	-13.5307
客觀裏栽桃仙家種杏到處成	-13.5307
知何處惟有楊花糝徑漸玉枕騰騰	-13.5307
沭	-13.5307
飄薄鶯花謝清和院落樹隂	-13.5308
餱	-13.5308
靿	-13.5308
罣	-13.5308
露晞向曉簾幙風輕小院閒晝翠	-13.5308
蓞	-13.5308
成含笑出簾月香滿袖天霧縈身	-13.5308
雲鬢亂未忺整江南舊事休重省	-13.5308
寄書何處覔新睡覺來無力不忍	-13.5309
壅	-13.5309
謐	-13.5309
釤	-13.5309
娬	-13.5309
又移星漢蓮炬重芳人海盡勾引徧嬉遊	-13.5309
花期消息定只愁風雨無憑凖	-13.5309
惟有流鶯語碧雲欲暮空惆悵韶華一時	-13.5309
人悄蛩吟苦漸漏永丁丁箭壺催曉引	-13.5309
桮	-13.5309
褚	-13.5309
薄倖名存此去何時見也襟袖上空染啼	-13.5309
側又是東君暗遣花神先報南	-13.531
􁮺	-13.531
綦	-13.531
餘香仍在待歸也便相期明日踏青挑菜	-13.531
圓蠶房香煖笑挽羅衫須少留隔院蘭馨	-13.531
駕淚浥西風不盡明朝烏鵲到人間試	-13.531
廋	-13.531
舊日心情記題葉西樓吹花南浦老去覺	-13.531
鄖	-13.531
捽	-13.531
元宵風流賢太守青雲志氣玉樹丰標是	-13.531
氊幕元戎歌吹層樓髙峙	-13.531
霧惟見廣寒門外青無重數不知是水	-13.531
筓	-13.5311
凄凄更聞私語露濕銅鋪苔侵石井都是	-13.5311
嬿	-13.5311
襠	-13.5311
嫻	-13.5311
嘅	-13.5311
􁁬	-13.5311
玉芳英嫩故把春心輕漏前村昨夜想	-13.5311
懈	-13.5311
剪蓴絲江頭一陣鳴蓑雨孤	-13.5311
軟是將春揉做撩亂隨風到何處自	-13.5311
楓葉濃於染秋正老江上征衫寒淺又是	-13.5311
翠水瀛壺人不到比似世間秋	-13.5311
春來倍覺傷心念故國情多新年愁苦縱	-13.5312
留住佳人唱金衣莫惜才子倒玉山休訴	-13.5312
喙	-13.5312
當年望湖樓下水與雲寛窄醉中休問	-13.5312
鴃	-13.5312
夢覺但有舊歡新怨異時對南樓夜景為	-13.5312
琴難托合造一襟幽怨雲	-13.5312
邳	-13.5312
燕掠晴絲裊裊魚吹水葉	-13.5312
處處聞啼鴂咫尺江山分楚越目斷	-13.5312
闚	-13.5312
􂀧	-13.5312
歌淺笑拜嫣然願郎宜此酒行樂駐華年	-13.5312
瑤臺曲又却是風敲竹石榴半吐紅	-13.5312
輕粉魚吞池水望章臺路杳金鞍	-13.5312
恝	-13.5312
花成陣春心困寸寸别腸多少愁悶無人	-13.5312
可憐無數山青山遮不住畢竟東流去江	-13.5312
孤臺下清江水中間多少行人淚西北	-13.5312
捥	-13.5312
有人偷記新闋當日誰幻銀橋阿瞞兒	-13.5312
青如滴問江南池館有誰來江南客	-13.5312
翠屏深香篆裊流水落花不管劉郎到	-13.5312
是酒香痕凝處唾碧啼紅相半只恐梅花	-13.5313
澶	-13.5313
減占人間丰神蕭散攀條	-13.5313
風與月侵枕簟冷簾櫳剛能小睡還驚覺	-13.5313
不恨殘春破只恨流光一年一度	-13.5313
時落銀燈香灺女伴莫話孤眠六	-13.5313
蔟	-13.5313
如霜好風如水清景無限曲港跳魚圓荷	-13.5313
霧閣事茫茫試與問杏梁雙燕	-13.5313
鈸	-13.5313
啉	-13.5313
虺	-13.5313
汊	-13.5313
狂竊香俊雅無計拘管青絲絆馬紅	-13.5313
玉龜山東皇靈嫓統羣仙	-13.5313
頻耳畔低語知多少他日深盟平生丹素	-13.5313
丳	-13.5313
璿	-13.5314
人間欲避風波險一日風波十二時	-13.5314
里青山一溪流水都做許多情	-13.5314
雨去休休戲馬臺南金絡頭催酒莫遲留	-13.5314
從今夜數相㑹幾多時淺酒欲邀誰	-13.5314
當初謾留華表語而今誤我秦樓約	-13.5314
秋聲入寥廓東歸燕從海上去南來	-13.5314
問問因循過了青春怎生意穏	-13.5314
憊	-13.5314
臉長嘯亦何為醉舞下山去明月逐人歸	-13.5314
得同題粉壁而今壁破無蹤蘭	-13.5314
中雪添頭上甚矣吾衰矣酒徒相問	-13.5314
咊	-13.5314
肄	-13.5314
吹香雪何勞玉斧金甌千古無缺	-13.5314
哉秋江上看驚弦鴈避駭浪	-13.5314
年華今日笙歌叢裏特地咨嗟席上青衫	-13.5314
斝	-13.5314
明星有爛相看淚如霰問而今去也何時	-13.5314
闕雲海塵清山河影滿桂	-13.5314
鷯	-13.5314
鑑此中看幽壑魚龍悲嘯倒影星辰	-13.5314
蕰	-13.5315
新啼痕間舊啼痕一春魚鳥無消息千里	-13.5315
淚珠彈粉堂深晝永燕交飛風簾露井	-13.5315
菑	-13.5316
客裏風光又過清明節小院黄昏人憶	-13.5316
惝	-13.5316
淺風流天付與精神全在嬌波	-13.5316
馳隙流年恍如一瞬星霜	-13.5316
念利名憔悴長縈絆追往事空慘愁	-13.5316
春到南樓雪盡驚動燈期花信小雨一	-13.5316
送目鳴琴裁詩挑錦此恨此情無盡	-13.5316
浪起掀舞一葉白頭翁堪笑蘭臺公子未	-13.5316
濯雪眇視萬里一毫端	-13.5316
疥	-13.5316
闃	-13.5316
檻曲縈紅簷牙飛翠人姝麗	-13.5316
空惆悵巫陽館况船頭一轉三千餘里	-13.5316
手燈夜初過早共約又爭信漂泊	-13.5316
又吹暗雨為誰頻斷續相和砧杵候館	-13.5316
恨春易去甚春却向揚州住	-13.5316
杰	-13.5316
􁋊	-13.5317
種種惱人天氣險韻詩成扶頭酒醒别是	-13.5317
綍	-13.5317
髦	-13.5317
踠	-13.5317
奈短笛喚起天涯情逺雙屐行春扁舟嘯	-13.5317
牢掩惆悵明朝何處故人相望但碧雲半	-13.5317
送盡去雲成獨立酒醒愁又入	-13.5317
髙巫山低暮雨瀟瀟郎不歸空房獨守時	-13.5317
換翠苦相催人生行樂且須痛	-13.5317
癩	-13.5317
許憂愁風雨一半相妨又何	-13.5317
禁宿酒天涯寒食歸期莫數芳辰誤幾度	-13.5317
似春塘水一片縠紋愁溶溶	-13.5317
深院芰荷中香冉冉繡重重玉人共倚	-13.5317
鑑新怨單衣欲試寒猶淺羞衾	-13.5317
鹹	-13.5318
洼	-13.5318
尋機杼曲曲屏山夜凉獨自甚情緒西	-13.5318
䰀	-13.5318
醬	-13.5318
夜永對景那堪屈指暗想從前未名未	-13.5318
酋	-13.5318
坌	-13.5318
寒似水纎雨如塵一陣東風縠紋	-13.5318
涼新浴手弄生綃白團扇扇手一時似	-13.5318
花桃樹愔愔坊陌人家定巢燕子歸	-13.5318
􁐍	-13.5318
得提壺沽美酒人道杏花深處有杏花狼	-13.5318
菲易老故人難聚到此翻成輕誤閬苑仙	-13.5318
誰與細傾春碧舊情拘未定猶自學當年	-13.5318
度春風文章太守揮毫萬字一飲千	-13.5318
􁱗	-13.5318
驚人困教人恨待到平明海棠應盡	-13.5319
還裊萬絲金待得歸鞍到時只怕春深	-13.5319
獠	-13.5319
飰	-13.5319
㧓	-13.5319
凝竚臺榭好鶯燕語正是和風麗日	-13.5319
淚眼問花花不語亂紅飛過秋千去	-13.5319
栁岸曉風殘月此去經年應是良辰好景	-13.5319
理絲簧欲説又休慮乖芳信未歌先咽愁	-13.5319
聞津鼓湘江上催人還解春䌫亂紅萬	-13.5319
解語念後約頓成輕負緩雕轡獨自歸	-13.5319
鳥啼風十分春色今無九麝煤銷永晝青	-13.5319
歸興千里露侵宿酒疎簾淡月照人無寐	-13.5319
千古興亡百年悲笑一時登覽問何人又	-13.532
江對起過危樓欲飛還歛元龍老矣不妨	-13.532
世界夜氣清如許劃然長嘯起來秋滿庭	-13.532
東崗更葺茅齋好都把軒	-13.532
浪浸斜陽千里溶溶臨風想佳麗别後愁	-13.532
憐花可可夢依依九疑雲杳	-13.532
挍	-13.532
蹤跡又酒趂哀絃燈照離席	-13.532
難得傾國花下見無期一雙愁黛逺山	-13.532
况落紅無數春且住見説道天涯芳草	-13.532
為君持酒勸斜陽且向花間留晚照	-13.532
真珠滴破小槽紅香肌縮盡纎羅	-13.532
邽	-13.532
困無奈堆金縷誰家巧縱青樓絃管惹起	-13.532
色燕燕飛來問春何在唯有池塘自碧	-13.532
驛路侵斜月溪橋度曉霜短籬殘菊一枝	-13.532
休辭醉明月好花莫謾輕擲	-13.532
撩客恨甚貂裘重擁愁無數霜月白照離	-13.532
横歡情對佳麗地任金罍罄竭玉山傾	-13.532
寒色戰菰蒲舊信江南好景一萬里輕	-13.5321
盡潘妃却酒昭君乍起雪浪翻空粉裳縞	-13.5321
漸細細香風滿院一枝折寄故人雖逺	-13.5321
見春歸路風急桃花也似愁㸃㸃飛紅雨	-13.5321
苡	-13.5321
饜	-13.5321
諛	-13.5321
􁰵	-13.5321
尅	-13.5321
聲驚愁攪夢更不管庾郎心	-13.5321
依舊生芳草忙處人多閒處少閒處光	-13.5321
禊事當時座上皆豪逸到如今	-13.5321
竸	-13.5321
裁春衫尋芳記金刀素手同在晴	-13.5321
幮	-13.5321
酒易成間阻縹緲玉京人想依然京兆	-13.5321
瓊苑金池青門紫陌似雪楊花滿路雲日	-13.5321
輊	-13.5322
一寸還成千萬縷天涯地角有窮時	-13.5322
塵滿日上簾鈎生怕離懐别苦多少事欲	-13.5322
迢迢巴楚山水相連朝雲暮雨依舊十二	-13.5322
斷送一生惟有破除萬事無過	-13.5322
相問怕相問相問還添恨春水滿塘生鸂	-13.5322
怖	-13.5322
事奈癡兒騃女流傳謬添話柄	-13.5322
夜色催更清塵收露小曲幽坊月暗竹檻	-13.5322
落日繡簾捲亭下水連空知君為我新作	-13.5322
鋙	-13.5322
消得東風喚醒青杏單衣楊花小扇	-13.5322
冮	-13.5322
凾	-13.5322
混一過唐之數不為難陳橋驛孤兒寡婦	-13.5322
玼	-13.5322
春柔動離憂淚難收猶記多情	-13.5322
恨悠悠恨到歸時方始休月明人倚樓	-13.5322
獸鐶半掩鴛甃無塵庭院瀟	-13.5322
深淺入時無弄筆偎人久描花試手初等	-13.5323
帶人不見碧雲暮合空相對憶昔西池	-13.5323
時到送孤鴻目斷千山阻誰為我唱金縷	-13.5323
亂紅中香塵滿路十千斗酒相與買春	-13.5323
畢竟春誰主東郊拾翠襟袖霑飛絮寳馬	-13.5323
櫩	-13.5323
金屋去來舊時巢燕土花繚繞前度莓	-13.5323
悴遺恨傳千古作賦吟詩空自好不直一	-13.5323
譛	-13.5323
塵侵鏡還省香痕碧唾春衫都凝悄一似	-13.5323
稀是來時夢中行路時節正思家逺道仍	-13.5323
曉空暗想衆裏飛瓊餘香冷猶在小	-13.5323
汩	-13.5323
迎空有千行流淚寄幽貞舞罷魚龍雲海	-13.5323
屜	-13.5323
貳	-13.5323
邊沙外不共美人遊歴問甚時同賦三	-13.5323
汀蕙半凋滿目敗紅衰翠楚客登臨正是	-13.5324
雲盡處都是平蕪問故鄉何日重見吾廬	-13.5324
梅金猊夜煖羅衣暗裛香煤洞府人歸	-13.5324
嘗寂寞經春小橋依舊燕飛忙玉鈎	-13.5324
河漢無聲光練練湧出銀蟾孤絶	-13.5324
楓葉落荻花乾醉宿漁舟不覺寒	-13.5324
纎雨謾道玉為堂玉堂今夜長	-13.5324
䛕	-13.5324
嗟清江東注畫舸西流指長安日下愁宴	-13.5324
時休飛絮落花時候一登樓便做春江都	-13.5324
臉鮮霞透櫻小杏青寒食後衣換縷金輕	-13.5324
勦	-13.5324
手旗亭酒香梅小向登臨長是傷春滋味	-13.5324
月波凝滴望玉壺天近了無塵隔翠眼	-13.5324
東風絲管滿長安移下十洲三島在人間	-13.5324
此景天下應無東南形勝偉觀真竒絶好	-13.5324
仍慣見珠歌翠舞如今向漁村水驛夜如	-13.5325
悄暗數流光細拾芳英黯	-13.5325
西風起邊城一片離索馬嘶漸逺人	-13.5325
躇	-13.5325
賍	-13.5325
籢	-13.5325
艟	-13.5325
絲千縷池上曉光分宿霧日近羣芳易吐	-13.5325
百葉桃花樹紅紅樹紅樹燕語鶯啼日暮	-13.5325
禳	-13.5325
諞	-13.5325
廳	-13.5325
我醉明日落花寒食得且住為佳耳	-13.5325
望斷江南山色逺人不見草連空夕陽樓	-13.5325
溪月堪羞損山桃如血直饒更	-13.5325
空倚斜陽帶舊愁多少還是清明過了任	-13.5325
先報陽和信息更雪月交光一色因追念	-13.5325
把酒祝東風且共從容垂楊紫陌洛城東	-13.5325
濛輕衫短㡌西湖路花氣撲春	-13.5325
秋風顫燈暈冷記初見樓低不放珠簾捲	-13.5325
菰影秋到露汀煙浦試省喚	-13.5325
無窮路岐天若有情和天須老念髙唐歸	-13.5325
簺	-13.5325
青時追悔負好花枝今年又春到傍小	-13.5325
扼	-13.5326
冷落長門又是羊車過也月明花落黄昏	-13.5326
唉	-13.5326
南逺人何處鷓鴣啼破春愁長記曽陪燕	-13.5326
畤	-13.5326
見要相逢得相逢須信靈犀中自有心通	-13.5326
雪殘風信悠颺春消息天涯倚樓新恨楊	-13.5326
蟫	-13.5326
墻啼鳥聲亂江城次第笙歌翠合綺羅香	-13.5326
嘿	-13.5326
處把酒聽歌金縷斜風輕度濃香	-13.5326
昝	-13.5326
想空山桂香懸樹三年夢冷孤吟意短屢	-13.5326
解移宫換羽未怕周郎長顰知有恨貪	-13.5326
殘雷夕陽却照庭槐莫把	-13.5326
相推千古幕天席地一春翠繞珠圍彩雲	-13.5326
便指數燒燈時節非逺陌上	-13.5326
去年病樓頭畫角風吹醒入夜重門	-13.5326
唖	-13.5326
帋	-13.5326
絶壁直下江千尺天際兩蛾	-13.5326
越溪閬苑繁華地傍禁垣珠翠烟霞紅粉	-13.5326
驀地刺桐枝上有一聲春喚任酒帘飛動	-13.5326
信海棠開了還又參差料此際笑隨花便	-13.5326
斷碧雲無際凝淚眼出重城隔溪羌笛聲	-13.5326
星河鷺起圖畫難足念自昔豪華競逐	-13.5326
欄玉砌應猶在只是朱顔改問君	-13.5326
天上傳新火人間試裌衣定巢新燕	-13.5326
虚度未應信此度相思寸腸千縷	-13.5326
鱗初躍愔愔門巷桃樹紅纔約	-13.5326
喞	-13.5326
與蕭郎别後事事俱嫌短歌新曲無心理	-13.5327
易傷心目未怪平陽客雙淚落笛中哀曲	-13.5327
俑	-13.5327
處記當日門掩梨花剪燈深夜語	-13.5327
裏紫葳枝上數㸃幽花垂露東里催	-13.5327
㔩	-13.5327
淑景遲遲難度年少傅粉依前醉眠何處	-13.5327
鶿	-13.5327
卯酒一杯徑醉又别君南浦	-13.5327
無蹤跡誰知除非問取黄鸝百囀無人能	-13.5327
今年元夜時月與燈依舊不見去年人淚	-13.5327
誰記盡道錦里繁華歎官	-13.5327
一聲鶯小細雨輕塵建章初閉	-13.5327
元豐間為翰苑與李端愿太	-13.5327
愁自醉念此際付與何人心事縱有楚柁	-13.5327
榔四起沙鷗未落怕愁沾詩句碧袖一聲	-13.5327
畎	-13.5327
􁱘	-13.5327
天氣嚴凝乍寒梅數枝嶺上開	-13.5327
成陣飛鴛甃玉佩丁東别後悵佳期參差	-13.5327
翠當是時河朔飛觴避炎蒸想風流堪繼	-13.5327
競拾翠湖邊路落花蕩漾怨空樹曉山	-13.5327
萄	-13.5328
擬把名花比恐傍人笑我談何容易細思	-13.5328
欄手撚花枝放花無語對斜暉此恨誰知	-13.5328
可飲且須同醉溪魚堪鱠切莫論錢笠澤	-13.5328
紅糝鋪地門外荆桃如菽夜遊共誰秉燭	-13.5328
雲浪魚鱗小見皓月相看又透入清輝半	-13.5328
春又去忍把歸期負此情此恨此際擬	-13.5328
來鷗聚堪愛處最好是一川夜月光流	-13.5328
佾	-13.5328
虱	-13.5328
啀	-13.5328
春江如席照晴空大舶夾雙櫓腸	-13.5328
隰	-13.5329
問凄風愁露剗地東西留鞭換佩怕匆匆	-13.5329
飛觀不解寄一字相思幸有歸來雙燕	-13.5329
消盡當年豪氣夢斷故國山川隔重重	-13.5329
飛鷗浴愛嬌雲蘸色媚日挼藍逺迷心目	-13.5329
贄	-13.5329
隨人去天涯片紅都飛盡隂隂潤	-13.5329
溪山掩映斜陽裏樓臺影動鴛鴦起隔	-13.5329
蘭媚一曲夕陽西下沉醉罷君試	-13.5329
人藹和氣春融日煦故宫池	-13.5329
問音信道徑底花隂時認鳴鑣也擬臨朱	-13.5329
短雨新歡寧似舊歡長此	-13.5329
燈照夜萬井禁城行樂春	-13.5329
天悠悠水悠悠月印金樞曉未	-13.5329
動翠葆曲徑通深窈夏果收新	-13.5329
驟雨鳴池沼水亭小浮萍破處	-13.5329
燕臺句老難道離别小徑吹衣	-13.5329
翩若驚鴻體態暮為行雨標格	-13.5329
郊原趣麥天已過薄衣輕扇試起遶園徐	-13.5329
鳫	-13.533
汭	-13.533
看日近長安近玉帳同時英俊合離無	-13.533
麦	-13.533
故園信息愛渠入眼南山碧念上國誰是	-13.533
椹	-13.533
偷憐不成憐傷春玉瘦慵梳掠抛擲琵琶	-13.533
恨湘雲人散楚蘭魂傷身是客愁為鄉	-13.533
朏	-13.533
此情無計可消除纔下眉頭却上心頭	-13.533
脆金丸落驚飛鳥濃靄迷岸草蛙聲閙	-13.533
隂老魚吹浪留我花間住田田多少	-13.533
暖酥凝念逺愁腸傷春病思自怪平生殊	-13.533
繫日長繩况倦客飄零少舊朋但江郊	-13.533
髑	-13.533
飛瓊伴侣偶别珠宫未返神仙行綴	-13.533
楊風送小鶯聲殘夢不成離玉枕堪愛	-13.533
歸髙陽人散寂寞狂蹤跡望京國空目	-13.533
樝	-13.533
嶄	-13.5331
後三千珠履十二金釵雅俗熙熙下車成	-13.5331
盡春臺好雍容東山妓女堪笑傲北海	-13.5331
餘光是處散離思最憐香靄霏霏牽衣	-13.5331
山扛鼎俱烏有英雄骨朽問	-13.5331
蘭棹舉相趂落紅飛去一隙輕簾凝睇處	-13.5331
媚臉籠霞芳心泣露不肯為雲雨金波影	-13.5331
忍輕諾别館清閒避炎蒸豈須河朔但	-13.5331
據誤我碧桃花下語誰將消息問劉郎	-13.5331
秋聲被風驚碎潤逼衣篝線裊蕙爐	-13.5331
花春復秋啼猿何必近孤舟行客自多愁	-13.5331
楓半篙寒日傍橋繫船愛洞門深	-13.5331
橈兩兩舟人語道去程今夜	-13.5331
桃溪不作從容住秋藕絶來無續處當時	-13.5331
長是傍清明天氣正魏紫衣染天香蜀	-13.5331
夜寒江静山銜斗起來搔首梅影横	-13.5331
日照玉樓花似錦樓上醉和春色寢	-13.5331
闋管絃清脆人生適意流轉共風光遊	-13.5331
光芒十五年間真夢裏何事長庚對月獨	-13.5332
寵難禁筵上笑歌間發舄履交侵	-13.5332
廢沼荒丘疇昔明月清風此夜人世幾	-13.5332
對春閒也應似舊盈盈秋水淡淡	-13.5332
春易老細葉舒眉輕花吐絮漸覺	-13.5332
壳	-13.5332
顦	-13.5332
鯈	-13.5332
潤梅雪印苔絮春意如人易散苦難聚	-13.5332
要人先醉問道明朝行也未猶自記	-13.5332
過施粉多媚生輕笑鬬色鮮衣薄碾玉雙	-13.5332
色未春深湘月牽情入苦吟翠	-13.5332
長安故人問我道愁腸殢酒只依然目	-13.5332
何人月下臨風處起一聲羌笛離	-13.5332
蘭心蕙性枕前言下表余深意為盟誓	-13.5332
霞垂地都城池苑誇桃李問東風何似不	-13.5332
是欲住也留無計欲去也來無計馬上離	-13.5332
菰蒲雨嫣然揺動冷香飛上詩句日暮青	-13.5332
到遇景取次成歡怎教良夜休醉	-13.5332
汀棹歌聲春水無風無浪春	-13.5333
破青萍排翠藻立蒼苔窺魚笑汝癡計不	-13.5333
玉瑩月枕横釵雲墜領有情無物不雙	-13.5333
銀燭分行暗端相燕羞鶯妬蝶	-13.5333
難忘芳樽頻勸峭寒新退玉漏猶長	-13.5333
相照塵香拂馬逢謝女城南道秀	-13.5333
曉鶯啼紅樹又一雙飛去日髙花氣撲人	-13.5333
瘴雨過海棠開春色又添多少社甕釀成	-13.5333
鎩	-13.5333
傾國釵鈿墮處遺香澤亂	-13.5333
初陽射林表亂愁迷逺覽苦語縈	-13.5333
别秦樓轉眼新春又近放燈憶盈盈倩笑	-13.5333
絃索想移根換葉盡是舊時手種紅	-13.5333
膈	-13.5333
喈	-13.5334
腑	-13.5334
那忍驟花驄望斷斜陽人不見滿袖啼紅	-13.5334
衣初試安榴半吐千里江山滿川	-13.5334
冷落秋光借取春風一笑狂夫到老猶狂	-13.5334
寛金縷倩誰傳語一春不忍上髙樓	-13.5334
霜林寒欲墜正門外催人起奈離别如今	-13.5334
塢村村暗溪流處處通此間何似玉霄峰	-13.5334
時候在天涯白露收殘月清風散曉霞	-13.5334
池秀句明日動探花芳緒寄聲沽酒人家	-13.5334
西風揚子江頭路扁舟雨晴呼渡岸隔	-13.5334
何處年年惟見春絮非不豪似周瑜壯如	-13.5334
窓愁對秋空翠華一去寂無蹤	-13.5334
是經年杳杳音塵都絶欲知方寸共有	-13.5334
靈鵲橋初就記迢迢重湖風浪去年時候	-13.5334
祲	-13.5335
􁒽	-13.5335
朶花新片時歡笑且相親明日隂晴未定	-13.5335
粧泣露嬌啼色佳夢入仙城風流石曼卿	-13.5335
草春光依舊湖邊道玉勒錦障泥少年	-13.5335
瀧	-13.5335
灰飛煙滅故國神遊多情應	-13.5335
街酥雨待過了一月燈期日日醉扶歸去	-13.5335
聚散苦匆匆此恨無窮今年花勝去年紅	-13.5335
花心夢醒鞭香拂散牛土舊歌空憶珠簾	-13.5335
弈	-13.5335
收笛聲人倚樓蘆花秋蓼花秋催得	-13.5335
噷	-13.5336
暝酒旗斜但倚樓極目時見棲	-13.5336
朝小圃花開自歌自舞自開懐且喜無拘	-13.5336
迤邐御香飄滿人間聞嬉笑	-13.5336
醉裏了忘身世吟邊自負風流	-13.5336
觶	-13.5336
閬苑賣薪買酒立馬傳觴昇平重見誰識	-13.5336
人赤烏年事江漢亭前路浮萍無據水天	-13.5336
弛	-13.5336
後盡日空疑風竹塞北氍毹江南圖	-13.5337
可惜年華婉娩西風初弄庭菊	-13.5337
蕳	-13.5337
金鞍美少年去躍青驄馬牽繫玉樓人	-13.5337
耎	-13.5337
風光又新一部仙韶九重鸞仗天上長春	-13.5337
酒西樓東風翠紅圍繞把功名一笑付糟	-13.5337
手前歡記渾似夢裏揚州誰念斷腸南陌	-13.5337
蘭舟十分端是載離愁練波送逺屏山遮	-13.5337
堂前應到化工不管朱門閉也暗傳音耗	-13.5337
宜城酒美昨日新醅熟輕鑣相逐衝泥	-13.5338
㺅	-13.5338
爁	-13.5338
榨	-13.5338
膄	-13.5338
䏊	-13.5338
一襟芳思與空階榆莢千萬縷藏鴉細栁	-13.5338
寒瑩晩空㸃青鏡斷霞孤鶩對客館深	-13.5338
痾	-13.5338
荒斷霞斜照新夢黯微月疎砧總難禁盡	-13.5338
嚼勒金銜響衝破飛花一道紅	-13.5338
篓	-13.5338
杜郎俊賞算如今重到須驚縱荳	-13.5338
珥拂菱花如水學妝皆道稱時	-13.5338
陽近又是搗衣秋奈愁入庾腸老侵潘鬢	-13.5338
起新愁無限記年時偷擲春心花間隔霧	-13.5338
透青羅薄檣燕低飛人去後依舊湘城簾	-13.5338
離愁一枕暗尋思舊追遊神京風物如錦	-13.5338
躞	-13.5338
偑	-13.5339
陽儔侣想東園桃李自春小	-13.5339
黯然情緒未飲先如醉愁無際	-13.5339
雲過了秋風老盡故人千里竟日空凝睇	-13.5339
疎簾裏歌餘塵拂扇舞罷風掀袂人	-13.5339
釦	-13.5339
莫問鶯老花謝萬里相依千金	-13.5339
妁	-13.5339
一葉扁舟誰念我今日天涯飄泊平楚南	-13.5339
亂北隨雲黯黯東逐水悠悠斜日半山暝	-13.5339
戰艦東風慳借便夢斷神州故里旋小築	-13.5339
邊人道是三國周郎赤壁亂石穿	-13.534
消息當時烏絲夜語約桃花時候同醉	-13.534
送人處良夜何其斜月逺墮餘輝銅盤燭	-13.534
顆顆真珠雨雨過月華生冷徹鴛鴦浦	-13.534
帳飲乍闋正拂面垂楊堪攬結掩紅淚	-13.534
矚	-13.534
遥未知何處是瀟湘念雙燕難憑逺信指	-13.534
慽	-13.534
竹杖更芒鞋朱朱粉粉野蒿開誰家寒食	-13.5341
座上琴心機中錦字覺最縈	-13.5341
海角飄零嘆漢苑秦宫墜露飛	-13.5341
巧結同心雙縷尚有經年離别恨一絲絲	-13.5341
鴨晩香寒人在洞房深處無語無語葉上	-13.5341
􁄞	-13.5341
昭陽飛燕亦成塵惟有空梁落月至今能	-13.5342
藤橋養魚盆沼是亦經綸耳伊周安在且	-13.5342
人意勿謂時平無事也便以言兵	-13.5342
州何處是雉堞連雲天際叔子殘碑	-13.5342
徹金猊燼冷動是愁端如何	-13.5342
江上買取扁舟排雲湧浪直過金	-13.5342
盡一片瀟湘清泚酒病驚秋詩愁入鬢對	-13.5342
卧桂影露凉時零亂多少寒螿神京逺	-13.5342
二分酒病味濃香永醉鄉路	-13.5342
縊	-13.5343
盡江南路苦恨斜陽冉冉催人去空	-13.5343
餵	-13.5343
竚立庭柯影裏好風襟袖先知夜何其江	-13.5343
散響驚詩思還被亂鷗飛去	-13.5343
蟬短景歸秋吟思又接愁	-13.5343
初長夢魂難禁人漸老風月俱寒想幽歡	-13.5343
干無端啼蛄攪夜恨隨團扇苦近秋蓮一	-13.5343
㫒	-13.5344
惆悵阻佳期人在天涯東風頻動小桃枝	-13.5344
寒食新晴馬蹄只向南山去長橋愛花	-13.5344
寄西江題葉字流不到五亭前東池始有	-13.5345
暦	-13.5345
械	-13.5345
浪裏但夢想一枝瀟灑黄昏斜照水	-13.5345
門外樓頭悲恨相續千古憑髙對此謾嗟	-13.5345
噓	-13.5345
好酒能消光景春風不染髭鬚	-13.5345
半夜驚羅扇蛩聲入夢傳幽怨碧藕試初	-13.5345
芃	-13.5345
楚天千里清秋水隨天去秋無際	-13.5346
叭	-13.5346
雲月溪頭玉環一曲筆力千鈞人間不堪	-13.5346
短夢今宵還到否葦村四望知何處	-13.5346
勌	-13.5346
敲象板勝讀離騷章句荷香暗度漸引入	-13.5347
嗈	-13.5347
暮帆挂雨氷岸飛梅春思零亂送客將	-13.5347
道春衣猶未整過禁烟寒食但記取角枕	-13.5348
燈昏哽咽夢中語是他春帶愁	-13.5349
來對影口不能言心下快活自省	-13.5349
麌	-13.535
終不似一朶釵頭顫裊向人欹側漂流	-13.535
勸花長好願公更健便揉春	-13.5351
緹	-13.5351
幸有意中人堪尋訪且恁偎紅	-13.5351
明代暫遺賢如何向未遂風雲便	-13.5351
顓	-13.5353
金勒狨鞍西城嫩寒春曉路漸入	-13.5353
便添起寒潮捲長江又恐是離人	-13.5354
煙草晴花沙潤香軟爛錦年華誰念故人	-13.5354
聲啼鳥是處裏誰家杏花臨水依約靚	-13.5354
行行又入笙歌裏人在珠簾第幾重	-13.5354
猶恨侵堦芳草天念王昌忒多情換巢鸞	-13.5355
滋吳苑臨池羞落梅花片弄水月初	-13.5357
鵊	-13.5358
尻	-13.5359
喳	-13.536
丶	-13.5361
天氣好有明月怕登樓年事夢中休花空	-13.5365
竜	-13.5386
蛺	-13.5504
聆	-13.7728
緩歌妖麗似聽流鶯亂花隔慢舞縈	-13.7729
吖	-13.7743
珩	-13.7745
玕	-13.7747
㡡	-13.775
鋹	-13.7751
鐝	-13.7754
嫪	-13.776
穷	-13.7761
糶	-13.7761
淲	-13.7763
蚰	-13.7764
廛	-13.7764
俲	-13.7765
窕	-13.7768
瓚	-13.7768
齶	-13.7768
刴	-13.7769
憒	-13.7771
榱	-13.7772
皖	-13.7772
鎖人生䏻㡬何問道朱顔去了還再来麽	-13.7774
綁	-13.7774
裸	-13.7775
霈	-13.7775
哀箏一弄湘江曲聲聲寫盡湘波綠	-13.7775
輦待歸雲外聞絃管認得宫花影轉	-13.7775
記出塞黄雲堆雪馬上離愁三萬里	-13.7776
㳫	-13.7776
澳	-13.7779
獾	-13.7779
魋	-13.7779
門外月寒風惡迤邐慵雲半掠笑盈盈閒	-13.778
覬	-13.778
喃	-13.778
淬	-13.778
碀	-13.7781
蠺	-13.7781
鍮	-13.7781
噬	-13.7782
不是藏春處玉笛曉霜空江南處處黄垂	-13.7782
嵊	-13.7782
最好是戴綵幡春勝釵頭雙結	-13.7782
轇	-13.7782
幵	-13.7783
鐲	-13.7783
半簾花影一溪寒水悵飛鳬路杳行雲夢	-13.7783
萤	-13.7783
相思債何似眼前俱去摧勁羽倘萬一幽	-13.7783
捃	-13.7783
刖	-13.7784
簳	-13.7785
一寸柔情料峭春寒中酒交加曉夢啼	-13.7785
堁	-13.7785
有司空見慣應謂尋常坐中有狂客惱	-13.7785
﨑	-13.7786
呶	-13.7786
古今朝暮雲雨六郎夫婦三生夢幽恨從	-13.7786
種秦人路夾仙溪不待夭桃客自迷	-13.7786
葉葉離情此後錦書休寄畫樓雲雨無憑	-13.7786
㡌垂楊裏花是去年紅吹開一夜風	-13.7786
䓗	-13.7786
十九年都盡非任紆朱拖紫圍金	-13.7786
犗	-13.7786
涔	-13.7786
下臨世間素娥襟韻蕭閒不與羣芳並看	-13.7786
矬	-13.7787
婇	-13.7787
偏多風雨絶憐此日暄明問秋香濃未待	-13.7787
奐	-13.7787
燿	-13.7787
墾	-13.7789
更有誰磻溪未遇傅巖未起國事如今誰	-13.7789
櫟	-13.7789
筵樂天詩句香山裏杜陵酒債曲江	-13.7789
嫚	-13.7789
晴春欲竟愁未醒池面杏花紅透影一	-13.7789
㦯	-13.7789
憀	-13.779
欏	-13.779
堝	-13.779
擅漁人之窟宅以供詩境也	-13.779
萏	-13.779
鶮	-13.779
含羞倚醉不成歌纎手掩香羅偎花映	-13.779
酒病煞如昨簾捲日長人静任楊花飄泊	-13.7791
衰草前驅風觸鳴珂過霜林漸覺驚棲鳥	-13.7792
颾	-13.7792
身名零露事事無心歸便歸秋風動正	-13.7792
未道是雪來香異水外一枝斜野人家	-13.7792
帶減衣寛誰念我難忍重城離别轉枕褰	-13.7792
兩蛾愁淺消息不知郎近逺一春長夢見	-13.7792
趂早占通宵醉緩引笙歌妓任	-13.7793
瘥	-13.7793
㮶	-13.7793
澣	-13.7793
轉紅陽昇平歌管隨天仗祥瑞封章滿御	-13.7793
淚眼零秋雨過了别離時還解相思否	-13.7793
昨夜裏又再宿桃源醉邀仙侣聽碧	-13.7793
莄	-13.7793
纉	-13.7793
騎尋芳城南城北别有西村斷港	-13.7793
輪少誰把青錢襯落紅滿地無人掃何時	-13.7793
虚思量起總不如山林間盖一座草菴兒	-13.7793
㜮	-13.7794
瘂	-13.7794
荒城頽壁銅雀春情金人秋淚此恨憑誰	-13.7794
風月不是怨極愁濃只愁重見了相思難	-13.7794
離江渚渡萬壑千巖越溪深處怒濤漸息	-13.7795
瘸	-13.7795
風吹上釵頭燕一笑繞花身小桃先報春	-13.7796
舁	-13.7796
吹問分香舊事劉郎去後知誰伴風前醉	-13.7796
刓	-13.7796
徠	-13.7796
把酒勸君閒愁莫訴留取笙歌住休去	-13.7796
喜銀屏小語私分麝月春心一㸃	-13.7796
應悲但茫茫暮靄目斷武陵溪往事難追	-13.7796
休寧孫黙編陳維崧烏絲詞	-13.7796
鬐	-13.7796
濓	-13.7796
釄	-13.7796
把酒聽歌且勸酬萬事拚悠悠只有情親	-13.7796
雞啼破西樓月酒腸寛酒腸寛家在	-13.7796
誰向説三弄處龍吟休咽大家留取時倚	-13.7796
栲	-13.7796
凝追想當年事殆天數非人力洙泗上	-13.7796
偶作小紅桃杏色閒雅尚餘孤	-13.7796
雪霜姿休把閒心隨物態何事酒生	-13.7796
仙去若逢海上白頭翁共一訪癡牛騃女	-13.7797
駑	-13.7797
天心眷臨聖日殿宇分明敞嘉瑞弄香	-13.7797
堤新路禁林賜宴賞花時還憶著西樓否	-13.7797
成襟畔濕愁多擁就心頭結倚東風搔首	-13.7797
鞔	-13.7797
栁外輕雷池上雨雨聲滴碎荷聲小	-13.7797
櫜	-13.7797
湘雲天長夢短問甚時重見桃根這次第	-13.7797
語殘月當門翠玉樓前惟是有一波湘水	-13.7797
傷春念楚鄉旅宿柔情别緒誰與温存空	-13.7797
筇	-13.7797
動倚雲層殿彤車載花一色醉盡碧桃清	-13.7797
東野亡來無麗句于君去後少交親	-13.7797
珠翠傾萬井歌臺舞榭瞻望朱輪	-13.7797
眼杳杳神京路斷鴻聲逺長天暮	-13.7797
頭王建在猶見詠詩人學道深山空自老	-13.7798
喨	-13.7798
逍遥不自在閒世界無利害何必向世間	-13.7798
粃	-13.7798
瑄	-13.7798
處覺來小園行遍天涯倦客山中歸路望	-13.7798
夯	-13.7799
眦	-13.7799
向花前醉愁無際武陵凝睇人逺波空翠	-13.7799
是新愁欲買桂花重載酒終不似少年遊	-13.7799
鎖骨連環南樓不恨吹横笛恨曉風千里	-13.7799
館花深處此際海燕偏饒都把韶光與	-13.7799
名千載不干身酒筵歌席莫辭頻	-13.7799
成引觴愁緩今夕樓中繼阿連清玩	-13.7799
踭	-13.7799
頭錦衾斑復斑架上朱衣殷復殷空庭	-13.7799
就東溟鯨鱠圉人呈罷西極龍媒天下英	-13.7799
眉心倩郎貼教洗金罍共看西堂醉花	-13.7799
陘	-13.7799
收綸了漁童拍手樵青笑明月太	-13.78
想淵明停雲詩就此時風味江左沉酣求	-13.78
淮猶二千里縱有英心誰寄近新來又報	-13.78
鮮歡夢破小樓風馬響珊珊缺月無情轉	-13.78
蟢	-13.78
黲	-13.78
拍斷便乞與媧皇化成精衛填不盡遺	-13.78
晚發驪駒應亦解人情欲出重城嘶不歇	-13.78
祥瑞大晟奏功六樂初調宫徴合殿	-13.78
速問春無語笑劉郎不道無桃可種苦	-13.78
栻	-13.78
詡	-13.78
又是急槳投村店認去程將近舟子相呼	-13.78
扅	-13.78
歩弱過短亭何用素約有流鶯勸我重	-13.78
酥花鬚吐繡園林翠紅排比見乳燕	-13.78
雨歇洗出碧羅天正溶溶養花天氣一霎	-13.78
問天怎忍如此陵圖誰把獻君王結愁未	-13.78
狃	-13.7801
下人家似織此際凭欄愁脉脉滿目江山	-13.7801
萬事問何物能令公喜我見青山多嫵媚	-13.7801
早惆悵香閨暗老羅帶悔結同心獨凭朱	-13.7801
邐	-13.7801
微綻不似秋光只照離人腸斷恨無奈利	-13.7801
兾	-13.7801
葅	-13.7801
募	-13.7801
盡錦屏空紅葉新裝綴時放清杯泛水暗	-13.7801
粼粼禁街微雨灑芳塵寒食清明相近	-13.7801
東郊向曉星杓亞報帝里春來也	-13.7801
晴波淺照金碧露洗華桐烟霏絲	-13.7801
縱在與誰同隋堤三月水溶溶背歸鴻去	-13.7801
邊漁父輕舟八尺低篷三扇占斷蘋洲	-13.7801
漢節千里秋風淮浦鑑逺江山竹西歌吹	-13.7801
風迴芳草榮光浮動巻皺銀塘水方杏靨	-13.7801
念一瞬韶光堪重惜還是去年同醉日客	-13.7802
師唱誰家曲宗風嗣阿誰借君拍板與門	-13.7803
旗尾潮濺烏紗今朝正對初弦月	-13.7803
睡起情無著曉雨盡春寒弱酒盞飄零	-13.7803
若為誰開為誰落正愁却不是花情薄花	-13.7803
先尋宿怕凍損三花兩蕊寒泉幽谷	-13.7803
楚山修竹如雲異材秀出千林表龍鬚半	-13.7803
秀骨青松不老新詞玉佩相磨靈槎	-13.7803
孤山無限春寒離魂難倩招清些夢縞衣	-13.7803
晴家在吳頭楚尾數㸃雪花亂委撲	-13.7803
信念平生多少情條恨葉鎮長使芳心困	-13.7803
採菱渡口日將沉飛鴻樓上人空立	-13.7803
為渡江淚墨銀鈎相憶字成行滴損雲	-13.7803
頭眼尾萬千事欲說還休薔薇露牡丹毬	-13.7803
􁂁	-13.7803
墯	-13.7803
悠悠霜滿地人不寐將軍白髮征夫淚	-13.7803
更吹起裌衣寒正莽莽叢林潭潭伐	-13.7803
卲	-13.7803
圮	-13.7803
畫船煙浦㑹寫相思尊前為我重翻新句	-13.7803
空餘白骨黄葦千古恨吾老矣東	-13.7803
迷無路風光有主想倚杖西阡停	-13.7803
花外記得同朝退飛騎軋鳴珂碎齊歌雲	-13.7803
愼	-13.7803
開幾度中秋見月來前年江外兒女傳	-13.7804
墁	-13.7804
與此中端的道向我轉覺厭厭夢役	-13.7804
㜞	-13.7804
畀	-13.7804
半簷花落弄粉調朱柔素手問何時重握	-13.7804
寃家何處貪歡樂引得我心兒惡	-13.7804
笑靨宫黄額試紅鸞小扇丁香雙結團鳳	-13.7804
驚身老大看花應念人離索但十分	-13.7804
河馬頭星月西去一程程逺但願此	-13.7804
疎紅零亂冒征塵匹馬區區愁見水	-13.7804
萬頃孤光雲陣巻長笛吹破層	-13.7804
门	-13.7804
紈金縷暝堤空輕把斜陽總還鷗鷺幽蘭	-13.7804
若還生水鄉尚寄旅别後訪六橋無信事	-13.7804
闤	-13.7805
寫春風數聲思君憶君魂牽夢縈翠	-13.7805
知最有風前月下心事始終難得但願我	-13.7805
窮遊宴談笑裏金風吹折桃花扇翠華天	-13.7805
此生天命更何疑且乘流遇坎還止	-13.7805
間應未有疑是經春雪未消今日是何朝	-13.7805
故惹蝶憐蜂惱多情遊賞處留戀向	-13.7805
蒻莫唱江南古調怨抑難招楚江	-13.7805
魄薰風燕乳暗雨梅黄午鏡澡蘭簾	-13.7805
蟇	-13.7805
入洞庭深碧極目水天無際正白蘋風急	-13.7805
樓人睡銀屏十二歎塵滿絲簧暗	-13.7805
碧有坡栁風情逋梅月色畫鼓	-13.7805
留待騷人狂歌痛飲來訪鴈丘處	-13.7805
載酒花邊去唱我舊歌金縷行樂處正蝶	-13.7805
含章春欲暮落日千山雨一㸃著枝酸	-13.7805
漸招入仙溪錦兒偷寄幽素倚銀屏春	-13.7805
鷦	-13.7805
牆頭礙月低花年年春事闗心事腸斷欲	-13.7806
孤村芳草逺斜日杏花飛江南春盡離腸	-13.7806
情絶妙誇能賦惆悵相思遲暮記當日朱	-13.7806
榆錢聞道城西長廊古寺甲第名園有國	-13.7806
筏	-13.7807
覌	-13.7807
茄	-13.7807
𣸪	-13.7807
䑛	-13.7807
蘭渚網羅驚破雙棲夢孤影亂翻波素還	-13.7807
􁶁	-13.7807
十萬拈起詩人舊公案看山看水此去勝	-13.7807
禿	-13.7807
杠	-13.7807
漁浦今日瓊川銀渚山色捲簾看老	-13.7807
毆	-13.7807
目傷離緒此情向阿誰分訴那裏思量	-13.7807
胝	-13.7807
出離愁幾㸃年來嵗去朝生暮落人似	-13.7807
安否一春一到成虚約不道樹猶如此煩	-13.7807
廐	-13.7807
苦樂事賞心磨滅盡忽見飛書傳羽	-13.7807
遊慣又豈知前歡雲雨分散此際空勞	-13.7807
酒凝紅綃粉涴瑶玦鏡盟鸞影缺	-13.7807
宙	-13.7807
紺紗睡覺銀瓶露井彩箑雲	-13.7807
似佳人兼合明光只憂長笛吹花落除是	-13.7808
郛	-13.7808
淦	-13.7808
蒺	-13.7808
太平無事荷君恩荷君恩齊唱望仙門	-13.7808
韆	-13.7808
閥	-13.7808
褡	-13.7808
撡	-13.7808
差正寥廓自歎勞生經年何事京華信	-13.7808
襭	-13.7808
吮	-13.7808
年光還少味開殘檻菊落盡溪桐謾留得	-13.7808
鬟燕趙共舞雪歌塵醉裏談笑花色枝枝	-13.7808
池把碎玉零珠抛擲林巒望中髙下瓊	-13.7808
滿頭歸風景今朝是身世昔人非酬佳節	-13.7808
腮重洗胭脂暗試便無限芳穠氣味向黄	-13.7808
隔千林無伴淡然獨傲霜雪且與管領春	-13.7808
生離恨紅日長時添酒困未知心在阿誰	-13.7808
么絃寫意意密絃聲碎書得	-13.7808
再拜索新詩老夫慚愧鬢成絲羅袖染將	-13.7808
殘星流電未滅閃閃隔林梢又是曉	-13.7808
磨為近日愁多頓老衛娘何在宋玉歸	-13.7808
奈楚客淹留久砧聲帶愁去屢	-13.7808
袛	-13.7809
紿	-13.7809
斜日明霞殘虹分雨軟風淺掠蘋波聲冷	-13.7809
逺山横黛蘸秋波不飲傍人笑我花病等	-13.7809
聲裏春光謝最是無情零落盡薔薇一架	-13.7809
桂影扶疎誰便道今夕清輝不足萬里	-13.7809
别院笙歌㑹早試問海棠花昨夜開多少	-13.7809
不見江東路思量只有夢來去更不怕江	-13.7809
勗	-13.7809
鬚窣地重門悄認繡履頻移洞房	-13.781
釜	-13.781
二月三月行色苦愁人謝家池上江淹浦	-13.781
隖	-13.781
夾蒼崖下枕江山是城郭望海霞接日紅	-13.781
入江南煙水路行盡江南不與離人遇睡	-13.781
􁱀	-13.781
撙	-13.781
人逺桃源無路惆悵夜乆星繁碧雲望	-13.781
彂	-13.781
惷	-13.781
骨相只合持竿坐釣磯都休也對西風無	-13.781
客裏風霜詩鬢空如許江南去岸花迎	-13.781
月華猶在吹簫處曉愁情緒忘却匆匆語	-13.781
自簫聲吹落雲東再數故園花信誰問	-13.781
與沙鷗語休歸去玉龍嘶處邀月過南浦	-13.781
舊家輕俊芳心一寸相思後總灰盡	-13.781
頭翠樓近指鴛鴦沙上暗藏春恨歸鞭	-13.781
嶲	-13.781
成粉君細認花共酒古來二事天	-13.781
檮	-13.781
粽	-13.781
綿蠻似把芳心深意低訴無據乍出	-13.781
流賢太守能籠翠羽宜醉金釵且留取垂	-13.781
紫金山表獨立飛玉佩整雲冠	-13.781
老去待有日重來同君一笑拈起看花句	-13.781
蓆	-13.781
高不見章臺路雨横風狂三月暮門掩	-13.781
不見翠鸞逺但清溪如鏡野花留	-13.781
千古同時君知我平生心事相契古來稀	-13.781
帶綰同心釵分一股斷魂空草	-13.781
綵衣紈扇午風清暑兒女紛紛新結束	-13.781
下人盡怪詩酒消聲價向藥爐經	-13.781
岸草毶毶記得黄鸝語畫簷喚狂	-13.781
聿	-13.7811
光動綺羅香陌行到紫薇花下悟身非凡	-13.7811
到龍山馬足輕使君莫忘霅溪女時作陽	-13.7811
城上風光鶯語亂城下煙波春拍岸	-13.7811
損又燕子來無芳信小桃也自知人恨滿	-13.7811
結雨中愁回首緑波三峽暮接天流	-13.7811
矑	-13.7811
樓外青山逺望到斜陽欲盡時不見西飛	-13.7811
都是江南舊相識正岑寂明朝又寒食强	-13.7811
久意何限玉釵墜枕風鬟顫湛	-13.7811
事落花啼鳥多年盟好白石清泉家近宫	-13.7811
分山路迢迢驅驅行役苒苒光隂蠅頭利	-13.7811
千里橋上酸風射眸子立多時看	-13.7811
帷自掩無人見羅衣寛一半羅衣寛一半	-13.7811
彈舊怨還敲繡屏面清歌自送西風	-13.7811
無限今宵又依前寄宿甚處葦村山	-13.7811
禰	-13.7811
勸春住薄倖楊花無端杜宇抵死催	-13.7811
支光爛人在霧綃鮫館小鬟頓成雲散羅	-13.7811
桃花玉人細細酌流霞醉裏將春留下	-13.7811
菜鱸魚都棄了只換得青衫塵土休顧早	-13.7811
道如今都罷空憶前身便面章臺馬因自	-13.7812
多處少停蘭槳雪邊花際平蕪疊嶂這一	-13.7812
正似殘春風絮掠地穿簾知是竟歸何	-13.7812
羅綺三千一笑皆生百媚宸遊教在誰邊	-13.7812
雪天塹無涯市列珠璣户盈羅綺競豪奢	-13.7812
妲	-13.7812
乍入霓裳促遍逞盈盈漸催檀板慢	-13.7812
雨碧沿蒼蘚雲根路尚追想凌波	-13.7812
春色重來又是三年東風吹我過湖船楊	-13.7812
留不住勸君莫作獨醒人爛醉花間應有	-13.7812
釣臺漁父褐為裘兩兩三三舴艋舟能	-13.7812
侍瑶池宴玉殿珠簾盡捲擁羣仙蓬	-13.7812
旅滿目風塵冉冉如飛霧是何人惹愁來	-13.7812
膜	-13.7812
衣冠似雪正壯士悲歌未徹啼鳥還知如	-13.7812
凌波步弱過短亭何用素約有流	-13.7812
又還無計禁當小院呼盧夜當時醉倒殘	-13.7812
嗡	-13.7812
悶已縈損那堪多病幾曲屏山伴人	-13.7812
明珠萬斛須邀檀郎幸有凌雲詞賦擲果	-13.7812
短明日南堂宴宴罷小樓臺春風來不來	-13.7812
一片晴光畫舫相將盈盈紅粉清商紫薇	-13.7812
念少年齒怯梅酸病疎霞盞正青錢遮路	-13.7812
枝雲縷鮫綃露淺淺塗黄漢宫嬌額	-13.7812
棕	-13.7812
甲琱戈記當日轅門初立磨盾鼻一揮千	-13.7812
道牆外行人牆裏佳人笑笑漸不聞聲漸	-13.7812
奈情緒春色尚堪描畫在萬紫千紅塵土	-13.7812
整棹還落花寂寂水潺潺重尋此路難	-13.7812
歴歴猶寄斜陽掩冉玉妃芳袂擁出靈	-13.7812
羅衣香殘蕙炷天長不禁迢迢路垂楊只	-13.7812
茶經香傳時時温習生怕客談榆塞事且	-13.7812
向人深處當時枉道無情闗心近日啼紅	-13.7812
張之堂妖冶如攬嬙施之	-13.7812
衣瑞雲芝草伴我語時同語笑時同	-13.7812
衣試酒滿眼芳草斜暉故人老經年賦别	-13.7812
誶	-13.7812
馟	-13.7812
素絃聲斷翠綃香減那堪片片飛花弄	-13.7813
枲	-13.7813
曲迤邐度沙漠追念西湖上小舫攜歌	-13.7813
時得到杜鵑只解怨殘春也不管人煩惱	-13.7813
鸞絲鳯竹長生調裏迎得翠輿歸雕鞍	-13.7813
耔	-13.7814
屭	-13.7814
贔	-13.7814
橐	-13.7814
雊	-13.7814
偪	-13.7814
梆	-13.7815
愉	-13.7815
錕	-13.7815
楖	-13.7815
瘵	-13.7815
嬭	-13.7815
鶬	-13.7815
嘍	-13.7815
潾	-13.7815
茀	-13.7816
踟	-13.7816
漓	-13.7816
岔	-13.7817
玖	-13.7817
蘗	-13.7817
詈	-13.7817
郍	-13.7817
旖	-13.7817
㞘	-13.7818
禆	-13.7818
犴	-13.7818
蹡	-13.7818
槀	-13.7818
隳	-13.7818
宁	-13.7818
㲲	-13.7818
荊	-13.7818
骳	-13.7818
肐	-13.7818
闠	-13.7819
鬮	-13.7819
帀	-13.7819
旓	-13.7819
䲧	-13.7819
芮	-13.7819
姉	-13.7819
褏	-13.7819
搐	-13.782
惛	-13.7821
闒	-13.7821
韔	-13.7821
湥	-13.7822
雎	-13.7822
穫	-13.7822
歘	-13.7822
莩	-13.7822
歜	-13.7822
徯	-13.7823
􁛮	-13.7823
鎞	-13.7823
𥙿	-13.7823
膛	-13.7823
澟	-13.7823
郄	-13.7823
劓	-13.7825
綮	-13.7825
􁨇	-13.7825
䥷	-13.7825
刚	-13.7825
屦	-13.7825
􁗷	-13.7825
萦	-13.7825
詬	-13.7826
廚	-13.7826
帨	-13.7826
畒	-13.7826
蒔	-13.7826
􁚣	-13.7826
暱	-13.7826
复	-13.7828
彿	-13.7828
菓	-13.7828
餂	-13.7829
烮	-13.7829
谁	-13.7829
姤	-13.7829
􁉥	-13.7829
券	-13.783
峦	-13.783
恂	-13.783
玨	-13.7831
蔴	-13.7832
􁤪	-13.7832
𣑽	-13.7832
𣙜	-13.7832
暐	-13.7832
􁁂	-13.7832
叉	-13.7832
嵿	-13.7832
毓	-13.7832
噙	-13.7833
礲	-13.7833
驍	-13.7833
􁈔	-13.7833
䩞	-13.7833
􁐾	-13.7833
矇	-13.7833
􁽩	-13.7833
鮭	-13.7833
㹸	-13.7834
籓	-13.7834
鮦	-13.7835
麂	-13.7835
匯	-13.7835
輞	-13.7835
囈	-13.7836
恡	-13.7836
录	-13.7836
螽	-13.7837
禋	-13.7837
翾	-13.7837
偬	-13.7837
淤	-13.7837
髒	-13.7837
槨	-13.7837
遄	-13.7837
𩮰	-13.7837
硏	-13.7838
煿	-13.7839
籥	-13.7839
㧾	-13.784
駃	-13.784
壄	-13.7841
璆	-13.7841
臙	-13.7842
詁	-13.7842
麞	-13.7842
飥	-13.7842
珽	-13.7843
鉊	-13.7843
幣	-13.7843
孑	-13.7844
娄	-13.7844
膿	-13.7844
𢋫	-13.7844
􁆒	-13.7844
艢	-13.7846
呻	-13.7846
鞽	-13.7846
搀	-13.785
莞	-13.785
􁉓	-13.785
挟	-13.7851
爊	-13.7855
报	-13.7855
稟	-13.7856
栾	-13.7857
􁨔	-13.7857
醾	-13.7859
韲	-13.7861
炁	-13.7861
枸	-13.7862
牸	-13.7862
貉	-13.7862
鍧	-13.7867
玞	-13.7869
圅	-13.787
煠	-13.7871
螃	-13.7871
鵯	-13.7873
娓	-13.7882
䌥	-13.7905
溲	-14.0978
騂	-14.1007
癉	-14.1034
鑞	-14.1035
謦	-14.1045
賙	-14.1055
簦	-14.1063
瑱	-14.1065
檗	-14.1065
餮	-14.1066
翿	-14.1067
煽	-14.1069
瑮	-14.1071
哆	-14.1072
愔	-14.1074
餤	-14.1074
昪	-14.1075
魴	-14.1076
罝	-14.1078
亍	-14.1078
諏	-14.1084
躓	-14.1084
奡	-14.1088
艑	-14.1088
蘞	-14.1088
惸	-14.1089
牁	-14.109
鶹	-14.1092
碯	-14.1092
鍇	-14.1092
㿱	-14.1093
銍	-14.1094
濆	-14.1094
韙	-14.1095
唄	-14.1098
臏	-14.1099
庙	-14.11
戔	-14.11
怙	-14.11
諜	-14.1101
軏	-14.1103
擯	-14.1103
苒	-14.1103
欞	-14.1105
寀	-14.1105
茝	-14.1105
嶓	-14.1107
窹	-14.1107
囤	-14.1109
芼	-14.1109
謩	-14.1109
憕	-14.111
廌	-14.1111
慼	-14.1111
讙	-14.1111
諂	-14.1111
抔	-14.1112
菔	-14.1113
豢	-14.1113
挱	-14.1113
餡	-14.1113
丄	-14.1113
仃	-14.1114
磽	-14.1115
紊	-14.1115
划	-14.1115
楪	-14.1115
挪	-14.1115
葊	-14.1115
儡	-14.1115
巃	-14.1115
㰏	-14.1117
􁈡	-14.1117
籩	-14.1117
耋	-14.1117
踊	-14.1117
􁈲	-14.1117
郾	-14.1117
逑	-14.1119
陁	-14.1119
蛱	-14.1119
厶	-14.1121
畋	-14.1121
鄠	-14.1121
馣	-14.1121
頟	-14.1121
欖	-14.1121
厰	-14.1121
㬅	-14.1121
卄	-14.1121
帟	-14.1121
阽	-14.1121
妸	-14.1122
黻	-14.1123
疽	-14.1123
氈	-14.1123
醨	-14.1123
枌	-14.1123
椾	-14.1123
殍	-14.1124
嬲	-14.1125
櫬	-14.1125
鱣	-14.1125
朞	-14.1125
峕	-14.1125
坻	-14.1125
櫕	-14.1125
轃	-14.1125
轢	-14.1125
焕	-14.1125
齔	-14.1126
磷	-14.1126
珈	-14.1126
聣	-14.1126
跏	-14.1126
嫡	-14.1126
敇	-14.1127
灋	-14.1127
醢	-14.1127
鐮	-14.1127
鶗	-14.1127
甿	-14.1127
剿	-14.1127
莒	-14.1127
徘	-14.1128
贐	-14.1128
碭	-14.1128
襻	-14.1128
􁇨	-14.1128
条	-14.1128
綹	-14.1128
鐔	-14.1128
螙	-14.1128
狙	-14.1128
郗	-14.113
嵸	-14.113
謷	-14.113
奼	-14.113
胼	-14.113
閼	-14.113
儓	-14.113
妣	-14.113
袐	-14.113
醵	-14.113
满	-14.113
麒	-14.1132
弰	-14.1132
齟	-14.1132
纊	-14.1132
桩	-14.1132
殮	-14.1132
縻	-14.1132
詛	-14.1132
璹	-14.1132
𤱔	-14.1132
􁬃	-14.1132
坯	-14.1132
􁌫	-14.1132
显	-14.1132
茇	-14.1134
􂀭	-14.1134
橡	-14.1134
殱	-14.1134
蹣	-14.1134
韂	-14.1134
誹	-14.1134
橤	-14.1134
譊	-14.1134
躲	-14.1134
鈒	-14.1134
狻	-14.1136
旰	-14.1136
繐	-14.1136
覂	-14.1136
㒒	-14.1136
犧	-14.1136
鰜	-14.1136
憧	-14.1136
􁪽	-14.1136
蕎	-14.1136
骼	-14.1136
疴	-14.1138
薔	-14.1138
逭	-14.1138
柮	-14.1138
缻	-14.1138
顴	-14.1138
㐫	-14.1138
㻬	-14.1138
矉	-14.1138
栀	-14.1138
狰	-14.1138
塼	-14.1138
眢	-14.1138
彧	-14.1139
槮	-14.114
剞	-14.114
劂	-14.114
璡	-14.114
闞	-14.114
嫱	-14.114
輗	-14.114
憁	-14.114
鍖	-14.114
楦	-14.114
榰	-14.114
鴞	-14.114
䑀	-14.114
圄	-14.114
􁵞	-14.1141
烜	-14.1142
豨	-14.1142
㗖	-14.1142
誄	-14.1142
厫	-14.1142
􁋱	-14.1142
儛	-14.1142
𣅿	-14.1142
􁁣	-14.1142
媼	-14.1142
碓	-14.1142
儈	-14.1142
屁	-14.1142
艼	-14.1142
莚	-14.1142
頔	-14.1142
駔	-14.1142
衹	-14.1143
艭	-14.1144
图	-14.1144
齬	-14.1144
䁱	-14.1144
杻	-14.1144
癬	-14.1144
瑎	-14.1144
箝	-14.1144
扊	-14.1144
邍	-14.1144
仵	-14.1144
禕	-14.1144
樛	-14.1146
憸	-14.1146
鉋	-14.1146
唦	-14.1146
喽	-14.1146
洌	-14.1146
煴	-14.1146
磅	-14.1148
􁃇	-14.1148
邛	-14.1148
鳺	-14.1148
牯	-14.1148
骫	-14.1148
羿	-14.115
臀	-14.115
㜑	-14.115
衎	-14.115
攣	-14.115
楔	-14.115
肪	-14.115
蕡	-14.115
棑	-14.115
􁩑	-14.115
呤	-14.115
隍	-14.115
􁕙	-14.115
僂	-14.115
簉	-14.115
计	-14.115
𨫼	-14.115
㛃	-14.115
掞	-14.115
渢	-14.115
踔	-14.115
蠖	-14.1151
猙	-14.1152
坨	-14.1152
㐅	-14.1152
鞞	-14.1152
岕	-14.1152
隗	-14.1152
笱	-14.1152
霹	-14.1152
㫺	-14.1152
傴	-14.1152
蔞	-14.1152
仚	-14.1152
謪	-14.1152
頩	-14.1152
畮	-14.1153
逖	-14.1153
㩲	-14.1153
䔍	-14.1154
孿	-14.1154
􁓈	-14.1154
屝	-14.1154
髿	-14.1154
㢝	-14.1154
懟	-14.1154
㸐	-14.1154
杌	-14.1154
壙	-14.1154
碜	-14.1154
嚻	-14.1155
穡	-14.1155
栳	-14.1155
倴	-14.1155
誆	-14.1155
菘	-14.1155
􁋌	-14.1155
燉	-14.1155
嗥	-14.1155
讋	-14.1155
𣆀	-14.1155
墦	-14.1157
峪	-14.1157
鎊	-14.1157
獮	-14.1159
贓	-14.1159
膴	-14.1159
苴	-14.1159
跹	-14.1159
䔒	-14.1159
䕨	-14.1159
䡎	-14.1159
阯	-14.1159
靘	-14.1159
䋈	-14.116
趜	-14.1161
衒	-14.1161
邰	-14.1161
澥	-14.1161
㒺	-14.1161
闺	-14.1161
斲	-14.1161
湎	-14.1161
芎	-14.1161
蠭	-14.1161
唘	-14.1161
屆	-14.1161
襃	-14.1161
輧	-14.1161
籧	-14.1161
綀	-14.1161
踄	-14.1161
鈄	-14.1161
笨	-14.1162
踮	-14.1163
掦	-14.1163
徍	-14.1163
蓊	-14.1163
麑	-14.1163
狖	-14.1163
甪	-14.1163
尶	-14.1163
蹻	-14.1163
开	-14.1164
棬	-14.1164
鵡	-14.1164
炰	-14.1165
湃	-14.1165
䰐	-14.1165
悾	-14.1165
灊	-14.1165
榘	-14.1165
揬	-14.1167
惚	-14.1167
荐	-14.1167
蠎	-14.1167
􁃹	-14.1167
弑	-14.1167
倂	-14.1167
磉	-14.1167
􁕰	-14.1167
􂀯	-14.1167
●	-14.1168
蹮	-14.1169
慷	-14.1169
蝥	-14.1169
禡	-14.1169
􁯣	-14.1169
洊	-14.1169
髸	-14.1169
㪸	-14.1169
糨	-14.1169
詾	-14.1169
􁩐	-14.117
侄	-14.1171
澮	-14.1171
㫫	-14.1171
䘵	-14.1171
呢	-14.1171
駸	-14.1171
寖	-14.1171
抜	-14.1171
祧	-14.1171
鄣	-14.1171
馹	-14.1171
柈	-14.1173
􁕗	-14.1173
鋌	-14.1173
澍	-14.1173
䞉	-14.1173
儁	-14.1173
斃	-14.1173
煅	-14.1173
耜	-14.1173
趐	-14.1173
驔	-14.1174
餒	-14.1174
儵	-14.1175
兌	-14.1175
袿	-14.1175
􁑬	-14.1175
焼	-14.1175
豅	-14.1175
抧	-14.1175
瞹	-14.1177
㫪	-14.1177
绳	-14.1177
黮	-14.1177
䍡	-14.1177
匵	-14.1179
掺	-14.1179
蜻	-14.1179
螮	-14.1179
􁂫	-14.1179
􁐟	-14.118
枹	-14.118
媳	-14.118
􁊥	-14.118
媱	-14.1181
臓	-14.1181
偻	-14.1181
獧	-14.1181
擛	-14.1181
魈	-14.1182
勔	-14.1182
謚	-14.1182
艓	-14.1184
胍	-14.1185
槹	-14.1186
畬	-14.1186
过	-14.1186
嬛	-14.1188
霂	-14.119
咚	-14.119
躐	-14.1192
舃	-14.1192
袠	-14.1192
瑽	-14.1192
蛑	-14.1194
珷	-14.1194
銮	-14.1196
䘖	-14.1198
惥	-14.1198
慫	-14.1198
頊	-14.1198
幪	-14.12
鬣	-14.1201
鴝	-14.1202
蓐	-14.1202
皜	-14.1202
终	-14.1204
覥	-14.1206
帡	-14.1207
喓	-14.1208
饁	-14.1209
槭	-14.1215
𣏌	-14.1223
皦	-14.1225
餺	-14.1226
碻	-14.1231
磝	-14.1231
駌	-14.1235
衱	-14.1254
礦	-14.5892
疝	-14.5951
瞠	-14.5967
紘	-14.5976
庥	-14.5976
婷	-14.5989
檉	-14.6004
䩠	-14.6017
戩	-14.602
獍	-14.6023
繃	-14.6026
檾	-14.6032
貅	-14.6033
壩	-14.6037
蜓	-14.6038
畚	-14.6039
喭	-14.6039
瞽	-14.6045
紲	-14.6045
倈	-14.6048
疣	-14.6048
佘	-14.605
悋	-14.6052
綄	-14.6052
狺	-14.6058
淖	-14.6061
傯	-14.6061
慺	-14.6061
瑳	-14.6064
憋	-14.6064
慱	-14.6064
彇	-14.6064
咻	-14.6067
侻	-14.6071
悛	-14.6071
狚	-14.6071
擪	-14.6071
碟	-14.6071
戽	-14.6077
傻	-14.6077
姙	-14.6077
刌	-14.608
攽	-14.608
挲	-14.6081
㦬	-14.6083
旐	-14.6083
瓿	-14.6083
捞	-14.6083
埏	-14.6083
痯	-14.6083
㬒	-14.6083
洿	-14.6083
窒	-14.6086
旙	-14.6086
晛	-14.6086
焷	-14.609
戳	-14.6092
嘑	-14.6093
彖	-14.6093
朘	-14.6093
痂	-14.6093
姣	-14.6093
娌	-14.6093
垠	-14.6096
毚	-14.6096
䅧	-14.6096
惕	-14.6096
憺	-14.6096
揵	-14.6096
璮	-14.6096
怫	-14.6099
掜	-14.6099
价	-14.6102
斎	-14.6102
汕	-14.6102
尨	-14.6102
嘌	-14.6105
敉	-14.6105
䰉	-14.6105
嫭	-14.6105
篡	-14.6105
壈	-14.6105
槞	-14.6105
浼	-14.6105
緌	-14.6108
傪	-14.6108
櫝	-14.6108
羜	-14.6108
瓛	-14.6111
卬	-14.6112
匍	-14.6112
岢	-14.6112
㪣	-14.6112
筅	-14.6113
憹	-14.6115
痳	-14.6115
䥴	-14.6115
惔	-14.6115
旴	-14.6115
燖	-14.6115
獒	-14.6115
䋔	-14.6115
䂖	-14.6115
嫠	-14.6115
岹	-14.6115
碼	-14.6115
䁑	-14.6118
瘮	-14.6118
犮	-14.6118
嚞	-14.6118
菡	-14.6118
忛	-14.6118
䓑	-14.6118
匄	-14.6118
塏	-14.6118
栴	-14.6121
呾	-14.6121
牂	-14.6121
兪	-14.6121
胙	-14.6121
傀	-14.6121
䐁	-14.6121
尠	-14.6124
泅	-14.6124
柦	-14.6124
哴	-14.6124
廪	-14.6124
橅	-14.6124
肸	-14.6124
籨	-14.6124
筧	-14.6124
牾	-14.6124
棻	-14.6124
滬	-14.6124
冑	-14.6126
鄲	-14.6127
疤	-14.6127
庬	-14.6127
掗	-14.6127
荏	-14.6127
㐲	-14.6127
䘲	-14.6127
伈	-14.6127
疙	-14.6127
宄	-14.6127
癘	-14.6127
牴	-14.6127
煢	-14.6127
緃	-14.6127
掤	-14.613
桹	-14.613
幨	-14.613
䁠	-14.613
玒	-14.613
篳	-14.613
坱	-14.613
梏	-14.613
熠	-14.613
磲	-14.613
㶁	-14.613
滷	-14.613
胊	-14.613
踘	-14.6133
䋎	-14.6133
嚆	-14.6134
櫑	-14.6134
禓	-14.6134
瘖	-14.6134
拠	-14.6134
籯	-14.6134
㓛	-14.6134
樯	-14.6134
縲	-14.6134
䘏	-14.6134
僜	-14.6134
啕	-14.6134
椁	-14.6134
歀	-14.6135
侏	-14.6137
䙚	-14.6137
䴊	-14.6137
砦	-14.6137
婹	-14.6137
栝	-14.6137
絟	-14.6137
枽	-14.6137
懞	-14.6137
疪	-14.6137
囹	-14.6137
氁	-14.6137
揞	-14.614
繢	-14.614
嚭	-14.614
済	-14.614
嫓	-14.614
丣	-14.614
壹	-14.614
㵾	-14.614
临	-14.614
呫	-14.614
炘	-14.614
簀	-14.614
糢	-14.6143
懔	-14.6143
岵	-14.6143
戕	-14.6143
晬	-14.6143
䞇	-14.6143
剸	-14.6143
屖	-14.6143
曀	-14.6143
汅	-14.6143
漘	-14.6143
璐	-14.6143
籭	-14.6143
倨	-14.6143
棤	-14.6143
粛	-14.6143
氳	-14.6145
斆	-14.6146
嚅	-14.6146
璅	-14.6146
嗇	-14.6146
廈	-14.6146
慔	-14.6146
眂	-14.6146
廜	-14.6146
脅	-14.6146
剣	-14.6146
哳	-14.6146
逅	-14.6146
纁	-14.6146
槯	-14.6147
檑	-14.6149
瑋	-14.6149
噾	-14.6149
孅	-14.6149
䦱	-14.6149
佼	-14.6149
撘	-14.6149
琇	-14.6149
窌	-14.6149
竛	-14.6149
竮	-14.6149
絖	-14.6149
纕	-14.6149
髴	-14.6149
䳄	-14.6152
劌	-14.6152
慇	-14.6152
筤	-14.6152
䈴	-14.6152
剃	-14.6153
帑	-14.6153
澼	-14.6153
亱	-14.6153
噩	-14.6153
婣	-14.6153
漻	-14.6153
蟋	-14.6154
縵	-14.6155
儥	-14.6156
燹	-14.6156
蟀	-14.6156
崢	-14.6156
旉	-14.6156
穵	-14.6156
䀤	-14.6156
偸	-14.6156
刲	-14.6156
嘖	-14.6156
怍	-14.6156
椊	-14.6156
槗	-14.6156
剠	-14.6159
壜	-14.6159
癱	-14.6159
俩	-14.6159
奍	-14.6159
妩	-14.6159
懢	-14.6159
檳	-14.6159
溉	-14.6159
㠋	-14.6159
吷	-14.6159
嗄	-14.6159
巂	-14.6159
玘	-14.6159
眚	-14.6159
緍	-14.6159
繮	-14.6159
幗	-14.6162
曡	-14.6162
昱	-14.6162
孄	-14.6162
巓	-14.6162
稌	-14.6162
繄	-14.6162
㡠	-14.6162
嘨	-14.6162
塾	-14.6162
嶧	-14.6162
歠	-14.6162
鏜	-14.6162
媆	-14.6164
緦	-14.6164
焬	-14.6164
笫	-14.6164
奧	-14.6165
柢	-14.6165
㬥	-14.6165
暸	-14.6165
瓞	-14.6165
㒟	-14.6165
㒰	-14.6165
䳱	-14.6165
惴	-14.6165
挷	-14.6165
摏	-14.6165
涰	-14.6165
玅	-14.6165
瑀	-14.6165
瑢	-14.6165
畇	-14.6165
礱	-14.6165
娩	-14.6168
櫽	-14.6168
㘭	-14.6168
栅	-14.6168
䁐	-14.6168
忼	-14.6168
柤	-14.6168
㧕	-14.6168
儿	-14.6168
堐	-14.6168
抆	-14.6168
嘵	-14.6168
戅	-14.6168
捖	-14.6168
桉	-14.6168
洏	-14.6168
狵	-14.6168
劭	-14.6171
罗	-14.6171
檛	-14.6171
䕺	-14.6171
䘭	-14.6171
仳	-14.6171
旤	-14.6171
朢	-14.6171
繰	-14.6171
祡	-14.6174
橂	-14.6174
絁	-14.6175
轤	-14.6175
窿	-14.6175
彗	-14.6175
嘒	-14.6175
很	-14.6175
榾	-14.6175
縀	-14.6175
瀫	-14.6176
嗒	-14.6178
幖	-14.6178
籝	-14.6178
濼	-14.6178
佟	-14.6178
瞷	-14.6178
洫	-14.6178
㗛	-14.6178
䯀	-14.6178
昫	-14.6178
杀	-14.6178
絇	-14.6181
櫨	-14.6181
璩	-14.6181
聧	-14.6181
䰄	-14.6181
柸	-14.6181
囏	-14.6184
翱	-14.6184
朳	-14.6184
曍	-14.6184
坏	-14.6187
兗	-14.6187
㘘	-14.6187
縋	-14.6187
䀻	-14.6189
矕	-14.619
罸	-14.619
㰱	-14.619
夌	-14.619
嚄	-14.619
惙	-14.619
愾	-14.619
玃	-14.619
楺	-14.6193
穑	-14.6193
梩	-14.6193
兑	-14.6193
瘟	-14.6193
庽	-14.6196
乹	-14.6197
潏	-14.62
潬	-14.62
聁	-14.6203
氂	-14.6203
珢	-14.6203
㺄	-14.6206
纑	-14.6206
僦	-14.6206
楉	-14.6206
嫖	-14.6209
掏	-14.6212
搪	-14.6215
匃	-14.6215
瑇	-14.6215
撆	-14.6215
皡	-14.6216
3	-14.6216
摝	-14.6219
"	-14.6219
埓	-14.6222
傞	-14.6234
埴	-14.6234
烋	-14.6244
巣	-14.6256
吵	-14.626
磑	-14.6278
酊	-15.5813
繶	-15.5989
絀	-15.599
籲	-15.5991
簴	-15.5992
筈	-15.5993
禬	-15.5994
礰	-15.5995
礕	-15.5996
磹	-15.5997
碔	-15.5998
砆	-15.5999
睐	-15.6
痎	-15.6001
痁	-15.6002
疔	-15.6003
珫	-15.6004
熲	-15.6005
洑	-15.6006
殭	-15.6007
桌	-15.6008
枿	-15.6009
杇	-15.601
捚	-15.6011
扑	-15.6012
惏	-15.6013
彔	-15.6014
嶴	-15.6015
嵜	-15.6016
嫫	-15.6017
媂	-15.6018
埿	-15.6019
嚷	-15.602
唽	-15.6021
咧	-15.6022
匜	-15.6023
剳	-15.6024
剨	-15.6025
凃	-15.6026
仡	-15.6027
䲴	-15.6028
䰒	-15.6029
䙀	-15.603
䓿	-15.6031
䄌	-15.6032
㡧	-15.6033
㟢	-15.6034
㟓	-15.6035
㜻	-15.6036
逤	-15.6037
蝃	-15.6038
紼	-15.6039
糈	-15.604
矶	-15.6041
玥	-15.6042
櫚	-15.6043
栟	-15.6044
葡	-15.6045
扐	-15.6045
嵫	-15.6046
堧	-15.6047
堢	-15.6048
嚌	-15.6049
鶂	-15.605
馚	-15.6051
鄏	-15.6052
郟	-15.6053
賮	-15.6054
蠨	-15.6055
蚯	-15.6056
虔	-15.6057
艨	-15.6058
簨	-15.6059
窴	-15.606
瘧	-15.6061
瀍	-15.6062
欃	-15.6063
檇	-15.6064
曕	-15.6065
斒	-15.6066
恚	-15.6067
巑	-15.6068
崞	-15.6069
媫	-15.607
媓	-15.6071
嘐	-15.6072
嗾	-15.6073
嗻	-15.6074
匼	-15.6075
倜	-15.6076
㯽	-15.6077
㞧	-15.6078
黌	-15.6079
餛	-15.608
鞨	-15.6081
靺	-15.6082
錙	-15.6083
谽	-15.6084
諝	-15.6085
蚡	-15.6086
艅	-15.6087
膻	-15.6088
竑	-15.6089
稏	-15.609
睩	-15.6091
獗	-15.6092
煆	-15.6093
洹	-15.6094
泬	-15.6095
槱	-15.6096
墄	-15.6097
塙	-15.6098
堍	-15.6099
䆉	-15.61
㫹	-15.6101
㦷	-15.6102
齷	-15.6103
齪	-15.6104
鸜	-15.6105
鞿	-15.6106
趦	-15.6107
趔	-15.6108
谹	-15.6109
袨	-15.611
蝙	-15.6111
舳	-15.6112
笪	-15.6113
猢	-15.6114
忉	-15.6115
巋	-15.6116
郸	-15.6117
􁕭	-15.6117
𡺸	-15.6118
鸑	-15.6119
鷟	-15.612
迕	-15.6121
褧	-15.6122
蟪	-15.6123
苜	-15.6124
珝	-15.6125
渼	-15.6126
泂	-15.6127
桕	-15.6128
坫	-15.6129
呐	-15.613
卺	-15.6131
䍥	-15.6132
髧	-15.6133
軔	-15.6134
躑	-15.6135
蹭	-15.6136
蠙	-15.6137
囫	-15.6138
嘩	-15.6139
瑹	-15.614
佺	-15.614
㓦	-15.6141
蠐	-15.6142
腼	-15.6143
緺	-15.6144
瞪	-15.6145
睍	-15.6146
敻	-15.6147
睆	-15.6147
鼐	-15.6148
瓉	-15.6148
繾	-15.6149
澒	-15.6149
涂	-15.615
摐	-15.6151
姗	-15.6152
䯼	-15.6153
鞮	-15.6154
轣	-15.6155
嫦	-15.6156
荎	-15.6156
茪	-15.6157
溱	-15.6158
鵜	-15.6159
鬙	-15.616
鈉	-15.6161
擞	-15.6162
呦	-15.6163
鷀	-15.6164
廱	-15.6165
忡	-15.6165
粼	-15.6165
鵁	-15.6165
珌	-15.6165
蔷	-15.6166
嶤	-15.6167
􁕱	-15.6168
雝	-15.6169
籕	-15.617
朅	-15.6171
忰	-15.6172
擻	-15.6173
餖	-15.6173
彴	-15.6174
侂	-15.6175
喁	-15.6176
璀	-15.6177
倆	-15.6178
𥻘	-15.6179
枇	-15.618
蒹	-15.6181
䏑	-15.6181
靂	-15.6181
晼	-15.6181
嶙	-15.6182
峋	-15.6183
駙	-15.6184
髣	-15.6185
馡	-15.6185
毿	-15.6186
徜	-15.6187
溧	-15.6188
毺	-15.6189
旟	-15.619
乜	-15.6191
罘	-15.6192
瑪	-15.6193
瑙	-15.6194
繽	-15.6195
鬅	-15.6196
靉	-15.6197
舴	-15.6198
婀	-15.6199
氍	-15.62
箜	-15.6201
躚	-15.6202
鑣	-15.6203
晟	-15.6204
琥	-15.6205
恓	-15.6206
邂	-15.6207
悤	-15.6208
嚀	-15.6209
諲	-15.621
姮	-15.6211
逍	-15.6212
瑁	-15.6213
蝴	-15.6213
