<unk>	0
<s>	0
</s>	0
之	-4.27549
(	-4.69665
)	-4.70859
/	-5.05656
以	-5.17256
於	-5.36619
一	-5.40329
爲	-5.42279
有	-5.42339
不	-5.43438
上	-5.46685
神	-5.47729
也	-5.51095
者	-5.5377
天	-5.54443
而	-5.54727
中	-5.60647
人	-5.66905
生	-5.72715
其	-5.7857
符	-5.81078
大	-5.85691
三	-5.89718
無	-5.90479
行	-5.91729
下	-5.92133
道	-5.92268
則	-5.95796
心	-5.99785
日	-6.0124
如	-6.0385
法	-6.06151
靈	-6.06758
)(	-6.07076
自	-6.08177
此	-6.12236
用	-6.14846
在	-6.19417
某	-6.2059
至	-6.20666
五	-6.21486
入	-6.22772
炁	-6.23451
明	-6.2436
眞	-6.2459
子	-6.25232
玄	-6.25904
身	-6.27046
令	-6.28404
水	-6.28685
得	-6.2877
出	-6.33015
或	-6.33419
臣	-6.33465
所	-6.35614
九	-6.3567
時	-6.37527
君	-6.37656
經	-6.38454
文	-6.38828
氣	-6.41983
見	-6.42578
名	-6.43742
四	-6.45626
金	-6.45816
方	-6.462
當	-6.46205
二	-6.46805
地	-6.4727
與	-6.47313
書	-6.47784
曰	-6.47999
元	-6.48482
火	-6.48774
精	-6.50757
合	-6.51215
事	-6.51274
真	-6.54091
同	-6.54724
存	-6.5486
内	-6.55187
成	-6.5666
山	-6.57835
諸	-6.58276
玉	-6.58529
皆	-6.58751
右	-6.58826
▁	-6.59161
乃	-6.60272
即	-6.60352
是	-6.61471
若	-6.61695
師	-6.62062
宫	-6.62293
言	-6.62351
後	-6.62619
光	-6.64324
非	-6.65656
仙	-6.6586
及	-6.65946
又	-6.66408
受	-6.66713
命	-6.67769
相	-6.6809
雲	-6.69154
從	-6.70029
來	-6.70272
字	-6.70914
通	-6.71089
六	-6.71256
陽	-6.71684
鬼	-6.71817
將	-6.7201
分	-6.72024
風	-6.72672
故	-6.72934
化	-6.73457
形	-6.73495
先	-6.75407
主	-6.75419
飛	-6.76178
七	-6.76227
前	-6.76574
未	-6.76618
降	-6.76857
呪	-6.76926
正	-6.77038
立	-6.77209
星	-6.78981
作	-6.79047
可	-6.80211
章	-6.80992
我	-6.81085
次	-6.81319
八	-6.81539
念	-6.82747
應	-6.83283
度	-6.83314
治	-6.83597
各	-6.83628
使	-6.84464
龍	-6.84922
王	-6.85131
攝	-6.85185
亦	-6.85782
今	-6.86647
太上	-6.86906
開	-6.87219
雷	-6.87259
萬	-6.87413
召	-6.87499
取	-6.87776
常	-6.88263
帝	-6.88743
知	-6.89153
起	-6.90067
矣	-6.91117
白	-6.9114
清	-6.91984
發	-6.93724
長	-6.94041
安	-6.95336
月	-6.95804
黄	-6.9592
去	-6.96156
外	-6.97759
凡	-6.97832
傳	-6.98598
門	-6.99699
華	-7.00091
本	-7.01559
左	-7.01727
青	-7.02031
能	-7.02901
丹	-7.03096
流	-7.03311
年	-7.04066
訣	-7.04345
死	-7.04645
物	-7.04983
運	-7.05999
使者	-7.06358
官	-7.08554
重	-7.08852
云	-7.09141
九天	-7.09202
定	-7.09305
吾	-7.1048
聖	-7.1087
請	-7.11023
欲	-7.11134
等	-7.11328
世	-7.11362
服	-7.11457
上清	-7.12655
壇	-7.12755
邪	-7.13288
空	-7.13389
隨	-7.13606
處	-7.13658
何	-7.13992
過	-7.14604
和	-7.15774
復	-7.16303
十	-7.16581
結	-7.16863
居	-7.17124
歸	-7.18084
无	-7.18432
品	-7.18438
景	-7.18821
巳	-7.19507
不得	-7.20634
散	-7.21295
德	-7.21578
寳	-7.21613
天地	-7.21628
頭	-7.22163
善	-7.222
公	-7.22601
斗	-7.22737
聞	-7.22803
罪	-7.22818
畢	-7.22962
司	-7.23207
魂	-7.23363
然	-7.23736
卷	-7.24298
口	-7.24853
隂	-7.2488
並	-7.24964
解	-7.25498
妙	-7.25615
已	-7.26362
多	-7.273
衆	-7.27752
食	-7.27827
天尊	-7.27938
虚	-7.28026
印	-7.28183
洞	-7.29119
告	-7.29711
香	-7.30577
陰	-7.31124
難	-7.31303
府	-7.3153
乎	-7.32486
紫	-7.32499
自然	-7.32801
修	-7.32944
求	-7.33229
目	-7.33363
惡	-7.33678
願	-7.33897
因	-7.34158
數	-7.34185
奏	-7.34218
赤	-7.35024
滅	-7.35175
家	-7.35229
福	-7.35771
動	-7.35774
位	-7.35925
眞人	-7.36064
盡	-7.362
雨	-7.36355
病	-7.36736
奉	-7.37135
土	-7.37891
木	-7.38075
百	-7.38092
石	-7.38191
體	-7.38274
依	-7.38567
除	-7.39364
小	-7.39527
功	-7.39849
觀	-7.40249
關	-7.40881
朝	-7.41389
圖	-7.42002
向	-7.42032
都	-7.42686
交	-7.42709
不可	-7.42808
便	-7.43248
南	-7.43472
止	-7.44529
意	-7.45037
變	-7.45179
離	-7.45519
致	-7.46002
還	-7.46072
信	-7.4616
布	-7.46626
思	-7.4675
色	-7.46766
必	-7.4684
照	-7.47023
須	-7.47124
守	-7.47714
教	-7.47813
始	-7.47928
太一	-7.4794
號	-7.48514
録	-7.48527
急	-7.48775
千	-7.49103
儀	-7.49671
仰	-7.50709
更	-7.50852
執	-7.51257
理	-7.5126
張	-7.51279
北	-7.51305
保	-7.51381
收	-7.51568
根	-7.5211
坐	-7.52273
將軍	-7.52468
宣	-7.5259
幽	-7.52794
面	-7.52965
速	-7.53232
高	-7.5349
隱	-7.53682
列	-7.53863
遊	-7.55257
太	-7.55411
衣	-7.55613
威	-7.55865
玉清	-7.56001
申	-7.56076
遂	-7.56096
耳	-7.56106
加	-7.56123
節	-7.56798
東	-7.57057
宜	-7.57224
于	-7.57338
蓋	-7.5735
西	-7.57435
遇	-7.57592
極	-7.57705
周	-7.57912
聲	-7.58035
伏	-7.58758
女	-7.5936
絶	-7.59872
一切	-7.59886
部	-7.6046
平	-7.60772
轉	-7.60802
齋	-7.60921
俱	-7.61855
要	-7.61948
籙	-7.62108
易	-7.62475
惟	-7.62523
却	-7.62842
授	-7.62857
兩	-7.62962
三界	-7.6323
之中	-7.63495
為	-7.63635
夫	-7.63845
帝君	-7.6413
素	-7.64373
引	-7.64408
禮	-7.64505
黑	-7.64509
玉女	-7.64994
疾	-7.65271
姓	-7.65882
敕	-7.66124
宿	-7.66156
深	-7.66163
持	-7.6624
失	-7.66613
異	-7.6663
勑	-7.67125
十二	-7.67684
具	-7.67977
感	-7.6825
宗	-7.68352
備	-7.68732
再	-7.68756
微	-7.68766
指	-7.68941
朱	-7.69457
集	-7.69578
科	-7.69619
實	-7.69732
汝	-7.69735
初	-7.69773
直	-7.69787
日月	-7.69798
不能	-7.69899
兵	-7.69982
雖	-7.70123
焉	-7.70188
狀	-7.7027
雷霆	-7.70579
性	-7.70582
十方	-7.70682
大神	-7.70888
牒	-7.71237
陳	-7.71308
國	-7.71467
到	-7.71858
但	-7.71928
啓	-7.72159
簡	-7.72266
莫	-7.72332
夜	-7.72342
煞	-7.72502
眞君	-7.72553
真人	-7.7259
式	-7.72902
苦	-7.73028
首	-7.73623
靈寳	-7.73737
謹	-7.73939
志	-7.74012
舉	-7.74443
羅	-7.74508
□	-7.74509
辰	-7.74629
問	-7.74679
音	-7.7478
樂	-7.74816
注	-7.74948
全	-7.75184
誦	-7.75629
吉	-7.76048
著	-7.7614
進	-7.76295
廣	-7.76314
謂	-7.76497
手	-7.76791
息	-7.77361
說	-7.77926
乗	-7.77997
皇	-7.78079
馬	-7.78476
少	-7.78918
破	-7.79179
考	-7.79289
利	-7.79706
室	-7.79851
對	-7.80009
民	-7.80145
上帝	-7.80246
藏	-7.8047
冠	-7.80704
稱	-7.8079
藥	-7.80863
元始	-7.80992
兆	-7.81059
想	-7.81254
回	-7.81284
承	-7.81712
戒	-7.82046
望	-7.82239
永	-7.82668
登	-7.82756
語	-7.82966
海	-7.83148
乾	-7.83361
共	-7.83634
學	-7.83735
論	-7.83739
之道	-7.84255
諱	-7.84563
會	-7.84883
神仙	-7.84898
領	-7.85483
斷	-7.85567
禁	-7.85862
象	-7.85975
鬼神	-7.86098
臨	-7.86458
髙	-7.86584
魔	-7.87124
積	-7.87378
消	-7.87405
老	-7.87574
制	-7.87575
吏	-7.87809
塵	-7.88818
毒	-7.88864
庭	-7.88979
殺	-7.89153
間	-7.89383
情	-7.89443
升	-7.8956
建	-7.8962
震	-7.89675
遣	-7.89909
逆	-7.89935
林	-7.90116
聽	-7.90712
星君	-7.90879
酒	-7.90986
齊	-7.9101
穢	-7.91144
筆	-7.91196
滿	-7.91273
好	-7.91412
足	-7.91451
獄	-7.91664
三元	-7.92104
靜	-7.92265
呪曰	-7.9232
犯	-7.92497
力	-7.92952
悉	-7.9311
濟	-7.93978
乘	-7.94527
尊	-7.94569
祝	-7.94591
施	-7.94694
誠	-7.94738
差	-7.95188
職	-7.95255
旣	-7.9628
大道	-7.96386
順	-7.96449
切	-7.96459
北斗	-7.96474
臺	-7.96483
篇	-7.96563
恩	-7.96663
晨	-7.96708
午	-7.96718
佩	-7.96723
劫	-7.96862
左右	-7.96864
急急如	-7.96908
掌	-7.97006
落	-7.97048
養	-7.97049
終	-7.97156
咸	-7.97292
罡	-7.97354
胎	-7.97363
亡	-7.97384
勿	-7.97422
拜	-7.97468
屬	-7.97521
付	-7.97627
盟	-7.9806
甲	-7.9848
霹靂	-7.98635
災	-7.98765
/)(	-7.99007
輕	-7.99976
血	-8.00526
親	-8.00546
延	-8.00791
御	-8.00996
由	-8.0112
興	-8.01189
呼	-8.01228
崇	-8.01266
諸天	-8.01413
五帝	-8.01443
㑹	-8.01824
功曹	-8.01824
之炁	-8.01905
士	-8.02236
詞	-8.0252
妄	-8.02607
義	-8.02913
弟子	-8.03026
冥	-8.03042
五方	-8.03199
祖	-8.03507
顯	-8.03792
禍	-8.04028
古	-8.04214
律令	-8.04563
駕	-8.04904
封	-8.05007
燒	-8.05318
瓊	-8.05342
害	-8.05344
急急如律令	-8.05951
昇	-8.06015
天下	-8.06419
房	-8.06429
傷	-8.06621
造	-8.06727
專	-8.0674
投	-8.06909
帶	-8.07122
并	-8.07192
奉行	-8.07534
謝	-8.07693
遍	-8.07826
識	-8.0798
母	-8.0798
堂	-8.08505
就	-8.087
車	-8.09109
了	-8.09134
典	-8.09179
按	-8.09227
㫖	-8.09239
道士	-8.09535
容	-8.09626
達	-8.09819
被	-8.10365
别	-8.10484
甚	-8.10662
凶	-8.10737
雷神	-8.10828
期	-8.1083
記	-8.10966
花	-8.1105
虎	-8.11143
久	-8.11204
燈	-8.11335
慶	-8.11369
仍	-8.11555
萬神	-8.11906
祕	-8.11988
淨	-8.12117
乞	-8.12165
違	-8.12491
浮	-8.12961
爾	-8.12997
童	-8.1303
哉	-8.13387
五嶽	-8.1346
侍	-8.13494
曜	-8.13671
路	-8.13672
嚴	-8.1395
聚	-8.14141
垂	-8.14144
之法	-8.14361
斬	-8.14397
詣	-8.14618
且	-8.14651
元帥	-8.1471
長生	-8.14805
住	-8.15273
休	-8.1546
唵	-8.15534
金闕	-8.15639
羽	-8.15707
靈官	-8.15924
然後	-8.15973
曲	-8.16071
鎮	-8.16118
太極	-8.1613
卯	-8.16394
慈	-8.16405
果	-8.16419
許	-8.16683
紅	-8.16706
境	-8.16743
童子	-8.16831
籍	-8.17067
源	-8.17192
鍊	-8.17298
凝	-8.17328
三天	-8.17415
反	-8.17612
報	-8.17739
覺	-8.17821
焚	-8.17879
醮	-8.18601
恐	-8.18605
救	-8.18686
州	-8.18797
春	-8.18912
步	-8.18928
朗	-8.18974
鐵	-8.19138
酆都	-8.19169
普	-8.19221
錬	-8.19583
而不	-8.19667
總	-8.19671
己	-8.19778
露	-8.20355
輪	-8.20397
可以	-8.20673
益	-8.20786
豈	-8.20809
中有	-8.20874
寒	-8.21189
獲	-8.21398
放	-8.21406
辭	-8.21595
三十六	-8.21657
縁	-8.21733
亂	-8.21857
固	-8.21943
業	-8.22089
霞	-8.22238
視	-8.22714
尚	-8.22742
謂之	-8.22918
河	-8.2293
留	-8.22948
猶	-8.23079
虛	-8.23363
報應	-8.23636
吐	-8.23901
法師	-8.23955
賜	-8.2396
妖	-8.24267
尸	-8.24272
坤	-8.24305
餘	-8.24378
二十四	-8.24461
不知	-8.24491
誓	-8.24744
蒙	-8.2518
驅	-8.2522
超	-8.25306
天門	-8.25461
泉	-8.25466
每	-8.25537
神將	-8.25779
覆	-8.25811
北方	-8.2604
賢	-8.26416
紀	-8.26623
格	-8.26625
送	-8.26751
煙	-8.26811
祈	-8.26979
輔	-8.27035
先生	-8.27123
連	-8.27148
吒	-8.27752
太清	-8.27756
歌	-8.28171
衛	-8.28222
大將軍	-8.28234
李	-8.2828
壽	-8.28385
如此	-8.28431
驗	-8.28495
内外	-8.28524
貴	-8.28582
元君	-8.28682
眼	-8.28758
返	-8.29115
遠	-8.29211
奔	-8.29241
東方	-8.29488
良	-8.29565
機	-8.29611
耀	-8.29617
城	-8.29743
既	-8.29749
骨	-8.29814
混	-8.29856
變化	-8.29873
驚	-8.29936
表	-8.30161
質	-8.30389
監	-8.30495
南方	-8.30589
吹	-8.30664
患	-8.3074
所以	-8.30762
寅	-8.30774
悟	-8.31007
累	-8.31208
徒	-8.3155
契	-8.32037
種	-8.32071
獨	-8.3257
魄	-8.32719
役	-8.32762
五行	-8.32792
映	-8.32863
新	-8.32946
昭	-8.33027
澤	-8.33149
末	-8.33284
條	-8.3336
五雷	-8.33455
右符	-8.33514
䰟	-8.33648
斯	-8.3369
敬	-8.33724
遷	-8.3374
設	-8.33793
雷公	-8.33887
端	-8.33917
勝	-8.33983
符命	-8.34029
芝	-8.34233
北帝	-8.3435
鳴	-8.34436
忘	-8.34943
騎	-8.35022
勤	-8.35163
界	-8.35442
代	-8.35598
光明	-8.3585
之所	-8.35855
逐	-8.35952
敢	-8.35966
只	-8.36047
水火	-8.36148
金光	-8.36447
披	-8.36505
昔	-8.36617
負	-8.36648
俗	-8.36751
退	-8.36877
盛	-8.36893
津	-8.37068
迷	-8.37152
大將	-8.3719
玉帝	-8.37345
夢	-8.37366
隂陽	-8.37567
任	-8.37572
之時	-8.37696
鎭	-8.37761
近	-8.37787
司命	-8.37808
招	-8.37894
候	-8.37901
飲	-8.37989
五色	-8.38019
宅	-8.38086
捉	-8.3825
劉	-8.38886
一卷	-8.38935
他	-8.39125
干	-8.3918
騰	-8.39252
待	-8.39386
英	-8.39514
坎	-8.39594
圓	-8.39609
尺	-8.3963
尋	-8.39704
歩	-8.39711
亥	-8.39713
之上	-8.39861
沉	-8.40039
巽	-8.40214
律	-8.40241
第二	-8.40252
恭	-8.40382
刑	-8.40387
之後	-8.40919
太陽	-8.40964
廻	-8.41043
陰陽	-8.41368
忽	-8.41491
電	-8.41541
半	-8.41622
示	-8.41923
證	-8.42038
吸	-8.42044
伯	-8.42082
三官	-8.42087
歲	-8.42334
資	-8.424
現	-8.427
武	-8.43052
霄	-8.43143
護	-8.4318
北極	-8.43274
愛	-8.43482
天罡	-8.43632
察	-8.43649
宻	-8.43693
中央	-8.44122
含	-8.44301
曹	-8.44391
真君	-8.44446
釋	-8.44677
火鈴	-8.44768
寧	-8.44864
參	-8.44916
珠	-8.45226
詳	-8.45251
神霄	-8.45273
喜	-8.4549
漢	-8.45614
停	-8.45647
限	-8.45901
施行	-8.45939
萬物	-8.46
移	-8.4602
追	-8.46164
揚	-8.46266
憂	-8.46637
背	-8.46669
田	-8.46955
劒	-8.4705
正一	-8.47383
闕	-8.47414
緫	-8.47421
緑	-8.47567
廟	-8.47591
昌	-8.47697
置	-8.48064
烈	-8.48185
育	-8.48196
江	-8.48244
案	-8.48343
塗	-8.48431
勞	-8.48813
西方	-8.48885
太玄	-8.4903
座	-8.49054
一日	-8.49189
財	-8.4921
閉	-8.49292
統	-8.49355
鳳	-8.49501
角	-8.49515
彼	-8.49562
遺	-8.49812
第一	-8.49968
將吏	-8.50099
上元	-8.50663
履	-8.50792
丁	-8.5082
助	-8.50841
三五	-8.50849
衝	-8.50898
扶	-8.50914
滯	-8.50932
唯	-8.50933
魁	-8.51099
草	-8.51251
朱書	-8.51256
掐	-8.51308
似	-8.51323
父	-8.51342
夫人	-8.51647
迎	-8.51734
以爲	-8.51876
之日	-8.51903
損	-8.51966
炎	-8.5204
混合	-8.52064
接	-8.52215
一炁	-8.5241
身中	-8.52462
第三	-8.52495
天帝	-8.52616
徹	-8.52627
行持	-8.52695
暉	-8.52783
帥	-8.53004
訖	-8.53015
殃	-8.53079
原	-8.53339
窮	-8.53354
押	-8.53402
雜	-8.53489
逺	-8.53624
禄	-8.53735
愈	-8.5384
篆	-8.53925
碧	-8.53971
温	-8.53986
泰	-8.54101
之人	-8.54319
具位	-8.5442
氏	-8.54427
谷	-8.5444
書符	-8.54702
調	-8.54921
腎	-8.54975
乾坤	-8.55065
波	-8.55162
舊	-8.55304
充	-8.55318
於是	-8.55322
愆	-8.55354
往	-8.5555
行道	-8.55758
黃	-8.55856
秋	-8.55968
赦	-8.56158
卿	-8.5635
梵	-8.56416
跡	-8.56656
細	-8.56772
里	-8.57003
營	-8.57364
道君	-8.57417
希	-8.57438
肝	-8.57462
郷	-8.57535
禀	-8.57768
大帝	-8.58021
左手	-8.58022
傾	-8.58073
計	-8.58223
敷	-8.58279
三洞	-8.58343
雪	-8.58407
泥丸	-8.58441
疑	-8.58475
術	-8.58495
演	-8.58517
熱	-8.58546
推	-8.58625
之精	-8.58728
夏	-8.58869
魚	-8.5887
昏	-8.5898
載	-8.59243
男女	-8.59559
係	-8.59571
歷	-8.5967
煉	-8.59698
懷	-8.59706
看	-8.59904
酉	-8.60115
逢	-8.60119
慮	-8.60347
横	-8.60356
赴	-8.60409
殿	-8.60622
省	-8.60672
附	-8.60766
輝	-8.60813
痛	-8.61004
讀	-8.61182
伐	-8.61335
嘗	-8.61704
管	-8.61895
祭	-8.61999
智	-8.62159
刀	-8.62529
吏兵	-8.62667
玉皇	-8.6303
納	-8.63178
祖師	-8.63187
漸	-8.6337
大聖	-8.6363
唐	-8.63907
鼓	-8.63918
上下	-8.63923
絳	-8.64209
丑	-8.64227
天師	-8.64246
再拜	-8.64323
洞玄	-8.64515
仙官	-8.64707
又方	-8.64752
愚	-8.64799
淵	-8.64915
髙上	-8.65157
鼻	-8.65309
庶	-8.65449
榮	-8.65672
仁	-8.65781
吞	-8.66057
禳	-8.66057
三清	-8.66065
地獄	-8.66084
走	-8.66204
擊	-8.6642
祥	-8.66428
灾	-8.66536
蟲	-8.66661
鑒	-8.66672
服之	-8.67049
不敢	-8.67105
井	-8.67134
下降	-8.67277
生死	-8.67279
野	-8.6735
蕩	-8.67574
疾速	-8.67978
肺	-8.68193
煥	-8.68204
蒼	-8.68279
遵	-8.68443
危	-8.68491
摧	-8.68542
貪	-8.68568
之内	-8.68632
旛	-8.68682
序	-8.68766
惠	-8.68853
檄	-8.69053
檢	-8.69464
階	-8.69488
早	-8.69968
艮	-8.70535
之間	-8.70542
越	-8.70676
得道	-8.70707
肉	-8.7078
群	-8.70937
卧	-8.71092
卦	-8.7123
兹	-8.71239
告下	-8.71248
洪	-8.71399
本命	-8.71566
耶	-8.71699
潜	-8.71879
寂	-8.71954
幸	-8.72079
怪	-8.72275
天蓬	-8.72307
神虎	-8.72395
牛	-8.72535
之士	-8.72636
主者	-8.72734
剔	-8.72767
稽首	-8.72894
綱	-8.7306
行之	-8.73087
潔	-8.73126
哀	-8.7328
濁	-8.73567
黒	-8.73879
湯	-8.73944
髮	-8.74303
毋	-8.74305
三日	-8.74472
院	-8.74504
丘	-8.74515
太乙	-8.74599
三炁	-8.74674
户	-8.74698
四方	-8.74721
師曰	-8.74788
瘟	-8.74808
姓名	-8.74847
八景	-8.74921
塞	-8.74972
紙	-8.75116
辛	-8.75266
蛇	-8.75326
大法	-8.75344
/)	-8.75636
一名	-8.7572
强	-8.75784
怒	-8.75786
萬里	-8.76138
秀	-8.76374
據	-8.76375
伸	-8.76395
嶽	-8.76402
一人	-8.76482
孫	-8.76728
巨	-8.76993
紫微	-8.771
上昇	-8.77233
趙	-8.77468
味	-8.77545
邊	-8.77642
修行	-8.7765
徑	-8.77909
徧	-8.77963
錢	-8.78017
卒	-8.78073
旋	-8.78093
假	-8.78102
客	-8.78159
習	-8.78285
天丁	-8.78321
兊	-8.78337
拔	-8.78386
鬱	-8.78441
急急	-8.78478
三光	-8.78481
獻	-8.78492
仙人	-8.78557
俾	-8.78726
比	-8.7878
刻	-8.78837
錦	-8.79104
暗	-8.79122
舍	-8.7915
免	-8.79164
灌	-8.79447
人間	-8.79472
衆生	-8.79504
冀	-8.79581
補	-8.79662
功德	-8.80012
父母	-8.8007
之神	-8.80071
羣	-8.80074
萬靈	-8.80171
約	-8.80338
丸	-8.80343
盈	-8.80552
殊	-8.80662
若有	-8.80838
寶	-8.81104
像	-8.81191
寫	-8.8121
樹	-8.81347
誅	-8.81366
堅	-8.81428
遲	-8.81477
冬	-8.81682
今日	-8.81685
謹請	-8.8171
畫	-8.81712
入意	-8.81857
效	-8.8195
出入	-8.82033
兼	-8.82077
生人	-8.82303
池	-8.82365
二十	-8.82399
靖	-8.82426
天君	-8.82538
縛	-8.82565
咽	-8.82876
無窮	-8.83238
天中	-8.83254
響	-8.83345
七星	-8.83356
委	-8.83437
烏	-8.83473
葉	-8.83487
分明	-8.83669
梁	-8.83684
提	-8.83836
改	-8.83909
泄	-8.83927
供養	-8.83937
宇	-8.84066
土地	-8.84187
頂	-8.84338
幾	-8.84453
澄	-8.84606
薦	-8.84818
速降	-8.84851
墨	-8.85009
厄	-8.85148
唱	-8.85505
戌	-8.85509
器	-8.8553
詩	-8.85654
編	-8.85742
男	-8.85843
秘	-8.85959
無極	-8.86078
又曰	-8.86117
仲	-8.86153
脫	-8.86525
訟	-8.86549
清微	-8.86698
竹	-8.86913
三年	-8.87002
化爲	-8.87019
法官	-8.87124
厚	-8.87146
謁	-8.87194
務	-8.8737
晴	-8.87568
顧	-8.87622
述	-8.87855
裏	-8.87876
霧	-8.87886
沐浴	-8.88127
七祖	-8.88164
給	-8.88321
罰	-8.88602
辟	-8.88842
一身	-8.88853
試	-8.88909
十四	-8.89198
脚	-8.89205
夷	-8.89269
翼	-8.89486
三十	-8.89635
玄都	-8.89736
盤	-8.898
神君	-8.89874
風雨	-8.89876
忠	-8.89941
笑	-8.90005
亦可	-8.9031
句	-8.90352
六甲	-8.90575
特	-8.90581
美	-8.90699
史	-8.90884
振	-8.90994
徃	-8.9102
鶴	-8.91133
拘	-8.91226
敗	-8.91233
灰	-8.91405
克	-8.91409
尤	-8.91432
竟	-8.91438
九宫	-8.91536
慧	-8.91627
所謂	-8.91706
髙功	-8.91724
盖	-8.91888
造化	-8.92126
誤	-8.92161
默	-8.92181
逹	-8.92191
直符	-8.92414
校	-8.92424
燭	-8.92464
治病	-8.92531
大洞	-8.92618
康	-8.92699
逸	-8.9271
曾	-8.92731
眞文	-8.92734
洗	-8.92902
下元	-8.92987
剛	-8.93003
是也	-8.93046
爾時	-8.9305
飛仙	-8.93081
催	-8.9317
昧	-8.93178
謀	-8.9318
我身	-8.9319
第五	-8.93363
軒	-8.93721
開度	-8.93834
夕	-8.9393
五炁	-8.94115
衰	-8.9418
縱	-8.94229
脾	-8.94321
呵	-8.94566
類	-8.94641
官將	-8.94648
神王	-8.94788
芒	-8.95227
班	-8.95242
魔王	-8.95295
劵	-8.95586
罩	-8.95603
阿	-8.95722
用之	-8.95924
伏願	-8.95933
權	-8.95976
五十	-8.96151
楊	-8.96196
導	-8.96234
倒	-8.96283
九幽	-8.96283
手執	-8.96357
行事	-8.96523
舌	-8.96638
神明	-8.96646
川	-8.96787
貫	-8.97002
之氣	-8.97322
鏡	-8.97367
抱	-8.97448
陵	-8.97502
覩	-8.97556
十一	-8.9757
適	-8.97766
激	-8.97791
摩	-8.97858
兮	-8.97946
十六	-8.97958
汁	-8.98254
禱	-8.98449
五星	-8.98609
巾	-8.98753
雷火	-8.988
第四	-8.98922
億	-8.99009
竒	-8.99158
丹田	-8.99477
名曰	-8.99509
九炁	-8.99558
撰	-8.99671
閑	-8.99697
那	-8.99764
縣	-8.99856
眞炁	-8.99859
皮	-8.99874
孝	-9.00073
八卦	-9.00076
上眞	-9.00175
瘡	-9.00238
侯	-9.00244
俯	-9.00525
炁吹	-9.00805
懸	-9.01017
太虚	-9.01256
馳	-9.01257
號令	-9.01291
鼎	-9.01306
預	-9.01447
迴	-9.01456
鳥	-9.01525
雄	-9.01816
宋	-9.02052
老君	-9.0212
兵馬	-9.02173
豐	-9.02309
燒香	-9.0233
煎	-9.02507
是以	-9.02601
鳯	-9.02702
準	-9.02721
席	-9.02762
爽	-9.02784
之下	-9.03014
腹	-9.03095
佐	-9.03127
先天	-9.03193
七元	-9.03202
舟	-9.03476
翳	-9.03493
冷	-9.03601
獸	-9.03718
打	-9.03766
無上	-9.03819
𤣥	-9.03981
十五	-9.04022
防	-9.0412
道德	-9.04177
化生	-9.0436
肅	-9.04478
採	-9.04518
度人	-9.04571
松	-9.04585
搯	-9.04889
右手	-9.049
枝	-9.04924
例	-9.04952
瑞	-9.05133
薄	-9.05144
責	-9.05174
上天	-9.05226
忌	-9.05257
南極	-9.0538
悲	-9.05456
西北	-9.05648
當以	-9.05654
局	-9.0571
六天	-9.05797
雙	-9.05917
齎	-9.05943
毎	-9.06065
之妙	-9.06096
輿	-9.06115
門下	-9.06156
一時	-9.06207
搗	-9.0644
魂魄	-9.06498
嬰	-9.06584
太素	-9.06765
杖	-9.06874
雷電	-9.0701
判	-9.07023
際	-9.07084
究	-9.07122
怨	-9.07151
甘	-9.07292
令人	-9.07312
第六	-9.07383
上有	-9.07557
掃	-9.07576
彰	-9.07693
竅	-9.07717
捧	-9.07765
賊	-9.07779
焚香	-9.08006
玉京	-9.08126
佳	-9.08158
上聖	-9.08421
東南	-9.08458
⬤	-9.08492
棄	-9.08599
才	-9.08642
筭	-9.08645
旬	-9.08679
甲子	-9.08806
火急	-9.0894
无上	-9.08954
丈人	-9.09019
着	-9.09229
各有	-9.09283
桃	-9.09432
祝曰	-9.09618
折	-9.09769
量	-9.09779
樓	-9.09824
天關	-9.09886
影	-9.09896
千里	-9.09933
孔	-9.09982
學道	-9.09992
溪	-9.10045
五藏	-9.1008
沙	-9.10114
六合	-9.10143
黄帝	-9.10252
享	-9.10358
依法	-9.10421
世間	-9.10542
續	-9.10635
叩	-9.10835
御前	-9.10996
把	-9.11079
臣某	-9.11142
洞天	-9.11171
七日	-9.11177
之鬼	-9.11224
陶	-9.1124
歳	-9.11336
兇	-9.11415
沈	-9.11598
一如	-9.11684
祐	-9.11692
邪鬼	-9.11759
山川	-9.11821
乆	-9.11831
毛	-9.11878
熟	-9.11982
長存	-9.12029
飛行	-9.1204
不見	-9.12048
液	-9.12185
旨	-9.12185
兩手	-9.122
索	-9.12202
狂	-9.12207
環	-9.12459
況	-9.12749
某人	-9.12944
苟	-9.13086
東嶽	-9.13163
純	-9.13211
否	-9.13384
中元	-9.13439
水府	-9.13527
叅	-9.13692
射	-9.137
五老	-9.13701
顔	-9.13844
龍虎	-9.13893
函	-9.1415
四十	-9.14296
尅	-9.1433
批	-9.14379
飛天	-9.1446
旦	-9.1448
而爲	-9.14508
隆	-9.1457
説	-9.146
供	-9.1461
無所	-9.14824
略	-9.14959
沖	-9.15028
上香	-9.1505
憑	-9.15234
誥	-9.15236
療	-9.15292
仗	-9.15617
觸	-9.15845
産	-9.15981
束	-9.16053
至眞	-9.16107
徐	-9.16134
旺	-9.16162
二人	-9.16196
龜	-9.16268
九色	-9.16323
懼	-9.1644
夀	-9.16448
咎	-9.16505
之事	-9.16509
太空	-9.16572
道法	-9.16585
握	-9.16767
妃	-9.16778
三寳	-9.16814
曉	-9.16845
途	-9.17114
樞	-9.17119
無爲	-9.17254
霜	-9.17289
厭	-9.17377
嗣	-9.17428
俟	-9.17442
穴	-9.17456
遥	-9.1747
作用	-9.1767
弘	-9.17786
膽	-9.17813
眞靈	-9.17838
宫中	-9.17863
衞	-9.18058
祠	-9.18369
慢	-9.18428
最	-9.18592
翠	-9.18669
太平	-9.18709
點	-9.18722
胡	-9.18819
頌	-9.18915
學者	-9.19034
侵	-9.19045
嚥	-9.19053
埋	-9.19096
祈禱	-9.19199
翁	-9.19205
友	-9.19233
太微	-9.19377
潤	-9.19413
静	-9.1945
黙	-9.19676
翻	-9.19713
眞符	-9.19773
第	-9.19803
増	-9.20009
丈	-9.20035
併	-9.20049
繞	-9.20049
指揮	-9.20084
人身	-9.20178
上奏	-9.20205
存思	-9.20213
白虎	-9.20285
天人	-9.20306
遭	-9.20343
九年	-9.20399
元始天尊	-9.20429
斗中	-9.20469
名山	-9.20544
詔	-9.20563
軍	-9.20571
威靈	-9.20634
精神	-9.20827
城隍	-9.20969
彌	-9.2098
繫	-9.21012
冝	-9.21019
眉	-9.21043
題	-9.21054
混沌	-9.21065
不祥	-9.21249
密	-9.21256
聖人	-9.21353
副	-9.21434
威神	-9.21482
風火	-9.215
病人	-9.2153
寸	-9.21544
生於	-9.21583
戴	-9.21585
逍遥	-9.21622
懇	-9.21633
瞻	-9.21656
十八	-9.22023
太上老君	-9.22079
也若	-9.22168
東華	-9.2219
操	-9.22331
嘉	-9.22374
如是	-9.22399
誦經	-9.2248
烟	-9.22552
九霄	-9.22728
暎	-9.22729
弟子某	-9.22823
壁	-9.2303
戰	-9.23039
没	-9.23039
叩齒	-9.23078
裂	-9.23081
庚	-9.23083
腦	-9.23129
胃	-9.23342
占	-9.23375
二十八宿	-9.234
醫	-9.23408
金甲	-9.23602
爐	-9.23622
□□	-9.23669
𩔖	-9.23701
宴	-9.23993
蘇	-9.23998
淫	-9.24009
蘭	-9.24009
荷	-9.2403
貼	-9.24088
稽	-9.24254
杜	-9.24328
入室	-9.24387
竈	-9.24419
九玄	-9.24558
旗	-9.24568
無不	-9.24576
芳	-9.24703
欽	-9.24709
泥	-9.24782
羊	-9.24784
捨	-9.24793
頓	-9.24804
設醮	-9.24898
吾奉	-9.24898
率	-9.2506
犬	-9.25138
有所	-9.25284
唎	-9.25301
侍衛	-9.25303
漏	-9.25349
世界	-9.25387
牙	-9.25433
壯	-9.25438
轟	-9.25439
齒	-9.25456
煑	-9.25492
依科	-9.2555
玉晨	-9.25575
祈晴	-9.25585
毫	-9.25608
神光	-9.25698
慕	-9.25752
余	-9.25757
於此	-9.25829
之至	-9.26038
三台	-9.26113
浩	-9.2614
蹤	-9.26167
萬鬼	-9.26207
虚皇	-9.26216
呪畢	-9.26254
雷部	-9.26388
玉童	-9.26394
之功	-9.26433
无極	-9.26521
避	-9.26548
智慧	-9.26553
政	-9.26605
聖前	-9.2663
第七	-9.26635
玉文	-9.26662
染	-9.26806
支	-9.2681
兆身	-9.26875
百神	-9.26927
一百	-9.26948
私	-9.27015
天曹	-9.27109
單	-9.27176
迹	-9.27198
祈雨	-9.27226
火輪	-9.27346
洞神	-9.27372
㧞	-9.27387
八方	-9.27409
正炁	-9.27422
力士	-9.27482
秦	-9.27518
神吏	-9.27769
郭	-9.27789
遐	-9.27858
一升	-9.27878
註	-9.27919
戸	-9.28063
吽	-9.28129
劄	-9.28173
壞	-9.28542
奪	-9.28593
邪精	-9.28722
人之	-9.28912
京	-9.28973
六十	-9.29044
天皇	-9.29189
均	-9.29232
勢	-9.29283
吟	-9.29298
項	-9.29352
上詣	-9.29412
策	-9.29512
皇君	-9.29623
孟	-9.29639
浪	-9.29664
太隂	-9.29713
天上	-9.29716
混元	-9.2972
所在	-9.29737
層	-9.29789
陸	-9.29817
祛	-9.3003
擇	-9.30046
融	-9.30319
詠	-9.30352
字號計十卷	-9.30356
寢	-9.30382
麻	-9.30426
黄庭	-9.309
亦不	-9.30928
季	-9.30937
審	-9.30941
經云	-9.30962
鍾	-9.31052
臻	-9.3108
欺	-9.3113
莫不	-9.3117
至道	-9.31374
洞眞	-9.31409
屋	-9.31411
逰	-9.31488
南斗	-9.31516
須至	-9.31642
玉符	-9.31737
北向	-9.31781
亡魂	-9.31822
本司	-9.31851
纏	-9.3187
常以	-9.32081
銀	-9.32157
瑶	-9.32166
喪	-9.32203
銅	-9.32215
維	-9.32385
爲之	-9.3254
淺	-9.32546
沐	-9.32582
讃	-9.32586
姓某	-9.32595
活	-9.32632
内有	-9.32641
錯	-9.32663
懴	-9.32837
魏	-9.32941
圎	-9.33013
救苦	-9.33098
四時	-9.33115
域	-9.33191
上真	-9.33206
風雷	-9.33242
念呪	-9.33251
上皇	-9.33277
因縁	-9.3358
穹	-9.33659
而後	-9.33707
食之	-9.33733
傍	-9.33741
靈文	-9.33857
七寳	-9.33871
是時	-9.33937
葛	-9.34039
暮	-9.34052
和合	-9.34423
訓	-9.34452
鄧	-9.34452
后	-9.34545
萬劫	-9.34635
威儀	-9.34767
神呪	-9.3486
十三	-9.34883
五神	-9.35031
無量	-9.35051
神祇	-9.35109
勒	-9.35161
郡	-9.35162
祀	-9.35186
膏	-9.35203
亨	-9.35242
社令	-9.35404
乙	-9.35456
㣲	-9.35491
託	-9.35555
徳	-9.35556
𡨚	-9.35583
辯	-9.35594
心中	-9.35603
網	-9.3596
纒	-9.35998
通靈	-9.35998
促	-9.36015
以今	-9.36081
頭戴	-9.36129
法中	-9.36228
囊	-9.3634
整	-9.36362
之門	-9.36408
第十	-9.36486
三十二天	-9.36605
神靈	-9.36628
火車	-9.36651
不同	-9.36676
墮	-9.36722
嘯	-9.36771
截	-9.36774
範	-9.3687
妙經	-9.36887
世人	-9.36899
役使	-9.36983
至於	-9.37054
尾	-9.37076
韓	-9.37144
陣	-9.37158
慈悲	-9.37159
畏	-9.37176
如法	-9.37253
簿	-9.37414
基	-9.37459
吿	-9.37499
答	-9.37782
凌	-9.37879
殘	-9.37928
决	-9.37957
米	-9.37986
正神	-9.38142
箇	-9.38172
火光	-9.38259
黄籙	-9.38379
研	-9.38392
棗	-9.38423
風雲	-9.38432
兒	-9.38637
市	-9.38665
輙	-9.3869
三千	-9.38848
削	-9.38974
此法	-9.39046
崑崙	-9.39113
誰	-9.39137
傳授	-9.39212
而成	-9.39257
此符	-9.3928
南宫	-9.39299
紫雲	-9.39325
程	-9.39369
准	-9.39456
同卷	-9.39462
社	-9.39473
䇿	-9.39476
金丹	-9.39511
旱	-9.39555
疾病	-9.396
一兩	-9.3964
貧	-9.39839
晶	-9.39935
如何	-9.39954
晝夜	-9.39958
台	-9.39982
袍	-9.40136
裙	-9.40145
未能	-9.40176
某等	-9.4018
孤	-9.40199
吴	-9.40225
值	-9.4028
汗	-9.40289
腫	-9.40328
隔	-9.40349
年月日時	-9.40428
罔	-9.40631
善惡	-9.40641
上仙	-9.40662
五道	-9.40665
玄元	-9.40673
右法	-9.40807
眞形	-9.40879
不用	-9.40973
炁入	-9.41116
而去	-9.41148
同前	-9.41358
惑	-9.41414
妻	-9.41453
號曰	-9.41468
繼	-9.41468
舒	-9.41468
鸞	-9.41486
逃	-9.41514
暢	-9.41517
者也	-9.416
口中	-9.41655
受度	-9.41736
已上	-9.41838
鑑	-9.41843
增	-9.4189
六丁	-9.42137
高上	-9.42211
金剛	-9.4222
晦	-9.42281
練	-9.42304
包	-9.42311
空洞	-9.42581
攝召	-9.42704
君召	-9.42718
允	-9.42727
配	-9.4274
囉	-9.42895
東北	-9.42978
絳宫	-9.43039
一年	-9.43079
趣	-9.43081
)□(	-9.43109
僞	-9.43118
煩	-9.43127
欣	-9.43185
如前	-9.43261
驛	-9.43531
繁	-9.43544
銜	-9.43552
胞	-9.43556
抑	-9.43558
掩	-9.43573
工	-9.43893
翔	-9.43931
躬	-9.43954
寄	-9.43985
凈	-9.43995
尊神	-9.44018
保命	-9.44086
斧	-9.44222
十七	-9.44244
議	-9.44326
竭	-9.44425
正法	-9.44473
後學	-9.44696
効	-9.44803
剪	-9.44819
竊	-9.44824
攻	-9.4483
某處	-9.4485
正月	-9.44904
出於	-9.45027
一寸	-9.45092
悃	-9.45168
館	-9.45196
上宫	-9.45205
天官	-9.45353
赫	-9.45416
神符	-9.45424
霆	-9.4564
貌	-9.45864
彩	-9.45878
躡	-9.4591
橋	-9.45997
不死	-9.46054
日中	-9.46056
遁	-9.46064
稍	-9.46095
腰	-9.46119
梵炁	-9.46496
而生	-9.46534
祖炁	-9.46609
而行	-9.4664
神兵	-9.46686
其中	-9.46714
鷄	-9.46831
博	-9.4691
絡	-9.46924
呈	-9.46944
度師	-9.46972
存神	-9.47027
悔	-9.47246
太眞	-9.47261
孰	-9.47268
乖	-9.4732
雷雨	-9.47336
岀	-9.47348
桂	-9.47408
洒	-9.47413
碎	-9.47433
一道	-9.47436
大小	-9.47449
三境	-9.47499
皓	-9.47525
枚	-9.47529
排	-9.47772
暫	-9.47815
天眞	-9.47826
郎	-9.48036
慾	-9.48177
第八	-9.48184
枯	-9.48193
蔽	-9.48279
上相	-9.48295
青帝	-9.48317
猛	-9.48344
四海	-9.48373
七十	-9.48617
錫	-9.48634
其所	-9.48848
穀	-9.48958
又有	-9.49
不生	-9.49015
䟽	-9.49043
勘	-9.49045
賔	-9.49063
訪	-9.49068
側	-9.49079
醉	-9.49083
飢	-9.49118
妙道	-9.49119
𥘉	-9.49119
空中	-9.49196
剋	-9.49202
主宰	-9.49296
滅形	-9.49373
故曰	-9.49397
賛	-9.49433
三十二	-9.49436
乳	-9.49529
地祇	-9.49742
滌	-9.49885
不必	-9.49901
逮	-9.49933
憲	-9.49945
巳上	-9.50032
妖精	-9.50051
部領	-9.50195
丙丁	-9.50234
爲一	-9.50238
茂	-9.50324
脉	-9.50348
宸	-9.50464
天地之	-9.50613
幽冥	-9.50761
上聞	-9.50797
偶	-9.50851
三宫	-9.50865
須臾	-9.50932
三師	-9.50965
障	-9.51004
佑	-9.51116
而已	-9.51148
鮮	-9.51252
阻	-9.51305
䖏	-9.51316
金華	-9.51329
登壇	-9.51423
安寧	-9.51525
玄壇	-9.51589
擲	-9.51675
蕭	-9.51703
擁	-9.51724
淳	-9.51729
元炁	-9.51819
生神	-9.51841
亦有	-9.51911
經曰	-9.51917
十月	-9.51922
赤書	-9.51924
人民	-9.51954
此是	-9.51979
道場	-9.52019
水中	-9.52023
山林	-9.52033
生炁	-9.52069
鍊度	-9.52114
流光	-9.52146
感通	-9.52151
底	-9.52196
氷	-9.52197
天雷	-9.52201
攺	-9.52202
規	-9.52214
生民	-9.52298
萬丈	-9.52311
二炁	-9.52314
天醫	-9.52332
貞	-9.52506
傅	-9.52537
短	-9.52542
爭	-9.52599
▲	-9.52654
訶	-9.52714
員	-9.52806
清齋	-9.52865
濟度	-9.52926
娑訶	-9.52943
也其	-9.53172
凡有	-9.53302
度命	-9.53338
晝	-9.53442
劔	-9.53487
奇	-9.53493
桑	-9.535
穿	-9.53517
喝	-9.53555
符右符	-9.53601
宰	-9.53622
自有	-9.5365
缺	-9.5396
者不	-9.54038
叩齒九通	-9.54038
𡨋	-9.54051
緣	-9.54062
玉虚	-9.54171
亡人	-9.54362
馭	-9.54449
焦	-9.5447
減	-9.5449
柳	-9.54556
之宫	-9.54604
瀆	-9.54685
無形	-9.5479
牢	-9.54928
軀	-9.54981
箕	-9.55005
元皇	-9.55012
十二人	-9.55029
身心	-9.55039
頒	-9.55049
衡	-9.55246
以來	-9.55257
夙	-9.55349
所有	-9.55373
淪	-9.55394
撫	-9.55395
地户	-9.55692
冲	-9.55736
或有	-9.55745
次存	-9.55806
變形	-9.55818
曰吾	-9.55855
愼	-9.55863
太陰	-9.55866
闊	-9.55872
弱	-9.55882
借	-9.55902
中宫	-9.55906
上啓	-9.55952
嬰兒	-9.56005
吉凶	-9.56058
皂	-9.5619
符使	-9.56208
頃	-9.56294
恠	-9.56331
虧	-9.56332
閣	-9.56345
一念	-9.56347
三月	-9.56374
生成	-9.56597
龍神	-9.56612
也故	-9.56633
生靈	-9.56794
上清靈寳大法卷之	-9.56796
青龍	-9.56801
扇	-9.56811
姑	-9.56829
徘徊	-9.56836
度厄	-9.57041
黑雲	-9.57086
法籙	-9.57127
蜀	-9.57325
奥	-9.57349
之外	-9.57394
婆	-9.57416
龍王	-9.57491
精思	-9.57509
柱	-9.57511
臣等	-9.57728
請降	-9.57736
天之	-9.57743
墜	-9.57764
飄	-9.57776
轄	-9.57791
之文	-9.57827
七十二	-9.57827
的	-9.57832
地府	-9.58001
有一	-9.58028
普度	-9.58151
幕	-9.58166
鹿	-9.58195
敢有	-9.58281
緊	-9.58322
萬人	-9.5833
中指	-9.58445
修齋	-9.58449
洞真	-9.58505
箋	-9.5862
吕	-9.58624
柔	-9.58691
符呪	-9.58708
困	-9.58719
暴	-9.58776
墓	-9.58785
癸	-9.58794
丙	-9.58812
牌	-9.58818
考召	-9.58943
而無	-9.58945
𩲸	-9.59055
黄素	-9.5908
歡	-9.59108
以此	-9.59111
寥	-9.59152
棲	-9.59167
者皆	-9.59171
謬	-9.59187
眞官	-9.59201
齡	-9.59201
清淨	-9.59221
八十一	-9.5924
性命	-9.59282
蒸	-9.59303
亡䰟	-9.59426
飲食	-9.59575
中黄	-9.59632
拱	-9.59647
荒	-9.59685
磨	-9.59711
眞王	-9.59953
老子	-9.59974
祟	-9.60081
青炁	-9.60114
亭	-9.60135
以聞	-9.60163
踈	-9.60207
官屬	-9.60278
除已	-9.60298
去處	-9.60412
三魂	-9.60491
十二月	-9.60507
百日	-9.60509
三卷	-9.60526
㸃	-9.60546
紫庭	-9.60555
西南	-9.60608
額	-9.60613
肇	-9.60652
年月日	-9.60658
諸司	-9.60699
道法會元卷之	-9.60875
八節	-9.61014
人也	-9.61149
白炁	-9.61287
茅	-9.61293
分别	-9.61321
朔	-9.61492
知其	-9.61499
凝神	-9.61576
琅	-9.61608
三皇	-9.61623
肆	-9.61637
廢	-9.61637
洞明	-9.6167
臭	-9.61681
胷	-9.61737
金書	-9.61819
判官	-9.61865
解曰	-9.61946
虞	-9.62098
標	-9.62143
長夜	-9.62215
无量	-9.62306
好生	-9.62348
告行	-9.62529
照應	-9.62536
弗	-9.62537
馘	-9.62569
楚	-9.62609
粉	-9.62648
叔	-9.6268
五臟	-9.62732
之際	-9.62741
不利	-9.6285
章奏	-9.62868
慎	-9.62921
皈	-9.62939
圍	-9.62943
中天	-9.63084
熏	-9.63132
𨽻	-9.63228
赴壇	-9.63265
玉札	-9.63271
三景	-9.63331
前後	-9.6339
邪魔	-9.6344
三素	-9.63469
髙眞	-9.63482
從官	-9.63537
富	-9.63564
秉	-9.63619
游	-9.63636
文昌	-9.63714
靈寶	-9.63716
九十	-9.63925
冒	-9.63995
赤帝	-9.64147
拂	-9.64148
叱	-9.64176
莊	-9.64217
召將	-9.64217
壓	-9.64225
片	-9.64254
雷局	-9.64295
自己	-9.64358
捕	-9.64492
此經	-9.64623
文字	-9.64635
滋	-9.64683
談	-9.64731
鞭	-9.64732
帝王	-9.64764
透	-9.64778
不動	-9.64829
洞淵	-9.64836
答曰	-9.64861
則有	-9.64871
曰此	-9.64876
所屬	-9.65028
香火	-9.65058
患人	-9.65059
屍	-9.65067
爰	-9.65091
峯	-9.65144
璧	-9.65145
輒	-9.65153
禽	-9.65172
叨	-9.65174
板	-9.65181
其人	-9.65224
眞仙	-9.65304
飛雲	-9.65324
再念	-9.65456
上道	-9.65545
玉字	-9.65594
儒	-9.65661
爛	-9.65664
道法會元卷之一百	-9.6567
第九	-9.65698
礙	-9.6577
速起	-9.65885
前去	-9.65918
一百二十人	-9.65961
若不	-9.65975
敕命	-9.65996
此道	-9.66034
玉華	-9.66157
辨	-9.66195
庸	-9.66207
巡	-9.66303
魁罡	-9.66375
子孫	-9.66422
九靈	-9.66484
生天	-9.66541
佩之	-9.66549
不復	-9.66617
紫炁	-9.66632
矜	-9.66715
髪	-9.66745
莖	-9.6675
溺	-9.66751
叩齒三通	-9.66854
之始	-9.67068
陛下	-9.67192
長跪	-9.67198
之境	-9.67262
帛	-9.6727
堪	-9.67311
来	-9.67329
戎	-9.67352
猪	-9.67364
元降	-9.67368
君官將一百二十人治	-9.67403
繒	-9.67462
九眞	-9.67613
云云	-9.67635
揮	-9.67678
疫	-9.67758
謹召	-9.67813
汝等	-9.68
人家	-9.68006
神化	-9.68039
宗師	-9.68107
之數	-9.68184
絲	-9.68218
添	-9.68247
漿	-9.68259
覽	-9.68305
珍	-9.68324
名爲	-9.68334
巖	-9.68336
五靈	-9.68354
彈	-9.68355
毀	-9.68363
書之	-9.6839
嗔	-9.68396
甘露	-9.68635
赤炁	-9.68693
濯	-9.68789
降臨	-9.68816
傳度	-9.68849
方可	-9.68858
商	-9.68867
鋒	-9.6887
僧	-9.68889
輕泄	-9.68956
欻火	-9.69053
保舉	-9.6924
孕	-9.6935
舞	-9.69368
是故	-9.69399
上生	-9.69417
良乆	-9.69479
蜜	-9.69483
玄武	-9.69596
現形	-9.69614
上上	-9.69666
,	-9.69678
互	-9.69722
之謂	-9.69728
分形	-9.69782
賤	-9.69793
垢	-9.69857
主之	-9.69947
真文	-9.69964
又存	-9.70004
飯	-9.70046
上登	-9.70123
爲禍	-9.7025
具位姓	-9.70266
搜	-9.7029
字號計九卷	-9.7032
紫虚	-9.7034
感應	-9.70438
之府	-9.70442
祗	-9.70449
飛昇	-9.70469
宮	-9.70579
律令敕	-9.70609
白日	-9.70612
更生	-9.70674
東向	-9.70794
寡	-9.70926
漠	-9.70949
恊	-9.70976
厥	-9.70985
賦	-9.70986
七玄	-9.70998
戮	-9.7102
偏	-9.71077
超度	-9.71254
鈴	-9.71352
是爲	-9.71367
此文	-9.71411
九地	-9.71462
勾	-9.71495
叉	-9.71507
頭上	-9.71515
叙	-9.71545
勸	-9.71566
油	-9.71613
此乃	-9.71647
拔度	-9.71906
大慈	-9.71922
紛	-9.72009
帔	-9.72036
鑪	-9.7211
虹	-9.72156
延生	-9.72219
錬度	-9.72303
經法	-9.72356
測	-9.72359
斷絶	-9.72469
中平	-9.72513
賞	-9.72577
宥	-9.7259
壇場	-9.72729
君子	-9.72867
之宗	-9.72915
屈	-9.73181
得此	-9.73211
盧	-9.73218
皆是	-9.73371
三百	-9.73422
一枚	-9.73446
開明	-9.73477
擒	-9.73579
齋法	-9.73627
化形	-9.73697
麗	-9.73726
三寸	-9.73747
軿	-9.73766
之前	-9.73774
托	-9.7378
禹	-9.73831
浴	-9.73873
皇帝	-9.73922
解脫	-9.73984
一分	-9.7406
在前	-9.74154
之初	-9.74193
太歲	-9.74249
丐	-9.74253
憫	-9.74264
之心	-9.74439
無有	-9.74453
之地	-9.74471
洞玄靈寳	-9.74497
呼吸	-9.74525
不正	-9.74534
後世	-9.74565
七月	-9.74593
官吏	-9.74637
東極	-9.74704
成就	-9.74739
修之	-9.74754
得其	-9.74839
况	-9.74872
使人	-9.74874
清虚	-9.74883
元神	-9.74885
刺	-9.74911
黑炁	-9.74912
盗	-9.74937
良久	-9.75073
二字	-9.75093
者乃	-9.75155
七魄	-9.75208
齋戒	-9.75336
怠	-9.75378
消災	-9.75436
伺	-9.75443
憐	-9.75451
擾	-9.75486
符呪曰	-9.75523
上品	-9.75758
四聖	-9.75821
伏魔	-9.75826
後聖	-9.75869
寳經	-9.75883
畜	-9.75946
闡	-9.75959
之章	-9.76004
競	-9.76027
十日	-9.76029
道之	-9.76133
割	-9.76145
裳	-9.76249
八極	-9.76279
真炁	-9.76352
閉目	-9.76362
二十五	-9.76536
齋壇	-9.76544
延年	-9.76611
雞	-9.76636
壘	-9.76696
斬鬼	-9.76803
神人	-9.76863
其道	-9.76991
億萬	-9.77054
飾	-9.77123
鄭	-9.7714
岸	-9.77198
歎	-9.77227
経	-9.77229
山嶽	-9.77239
朱陵	-9.77272
纂	-9.77273
朱雀	-9.77292
閉炁	-9.77519
元陽	-9.7756
玄科	-9.77593
虔	-9.77698
追攝	-9.77712
十九	-9.77722
篤	-9.77785
下下	-9.7779
洲	-9.77824
盞	-9.77862
道者	-9.78015
虚無	-9.7803
其心	-9.78051
十天	-9.78114
三塗	-9.78139
而出	-9.78158
之罪	-9.78218
聖衆	-9.78249
韻	-9.78294
迅	-9.78322
忍	-9.78373
遏	-9.78374
白帝	-9.78464
其神	-9.78466
弟	-9.78729
素靈	-9.78733
醜	-9.78772
二百	-9.78788
存想	-9.78805
洞陽	-9.78843
曠	-9.78863
咒	-9.78868
流精	-9.78869
拜章	-9.78901
壬	-9.78902
歴	-9.78925
宏	-9.78929
牀	-9.78997
𡻕	-9.79006
焰	-9.79032
昇天	-9.79275
二兩	-9.79296
速至	-9.79301
神通	-9.79387
囚	-9.79497
族	-9.79509
園	-9.79515
天宫	-9.79525
不過	-9.7953
白雲	-9.79536
靈光	-9.79536
㝠	-9.79556
無所不	-9.79565
大指	-9.79593
以水	-9.7968
在天	-9.79728
遊行	-9.79835
九祖	-9.79836
世之	-9.79843
四字	-9.79892
結成	-9.79893
植	-9.80086
喉	-9.80134
彭	-9.80146
藉	-9.80179
旁	-9.80196
豋	-9.80223
潭	-9.80236
微祝曰	-9.80365
廬	-9.80566
上升	-9.80657
倉	-9.80684
晉	-9.80687
姚	-9.80693
電光	-9.80811
上章	-9.80836
壇前	-9.80879
皆得	-9.80973
金液	-9.80991
存亡	-9.80992
之言	-9.81155
不須	-9.81194
昊天	-9.81231
劍	-9.81252
農	-9.81256
玄冥	-9.81269
腸	-9.81294
天寳	-9.81302
婦	-9.81322
綵	-9.81323
牽	-9.81396
道化	-9.81485
元始符命	-9.8151
衆聖	-9.81526
某日	-9.81587
河圖	-9.81728
隱書	-9.81771
神炁	-9.81777
辱	-9.81873
大羅	-9.81877
輦	-9.81893
耗	-9.81958
溢	-9.81965
夭	-9.82001
鎖	-9.82016
萬民	-9.82026
真靈	-9.82052
之恩	-9.82071
言功	-9.82107
入靖	-9.82119
行雨	-9.82277
二升	-9.82284
微妙	-9.82299
紫房	-9.82327
臍	-9.82356
幽顯	-9.82389
卑	-9.82525
蔵	-9.82526
循	-9.82533
予	-9.82558
則爲	-9.82563
絹	-9.82579
卓	-9.82589
八門	-9.8265
衆眞	-9.827
流火	-9.82823
道人	-9.82872
頂門	-9.82951
仙道	-9.8297
執法	-9.83
當知	-9.83007
告文	-9.83018
枷	-9.83052
大夫	-9.83106
道門科範大全集卷之	-9.83136
枉	-9.83165
屏	-9.83185
虚空	-9.83207
▁(	-9.8321
陽明	-9.83238
星辰	-9.83253
等神	-9.83263
齋官	-9.833
至真	-9.83317
真仙	-9.83349
消魔	-9.83411
九州	-9.83444
之者	-9.83464
如意	-9.8353
崖	-9.83561
合屬	-9.8362
尹	-9.83677
之則	-9.83709
也又	-9.83721
次第	-9.83727
上法	-9.8374
大梵	-9.83762
盻	-9.83802
倚	-9.83807
撼	-9.83849
迸	-9.83866
一一	-9.84055
清靜	-9.84098
合同	-9.84118
茶	-9.84119
斤	-9.84134
奏聞	-9.84151
緯	-9.84168
大有	-9.84185
四大	-9.84223
之方	-9.84328
幻	-9.84358
餌	-9.84361
賴	-9.84371
括	-9.8439
駐	-9.8439
泛	-9.84396
也夫	-9.84468
甲乙	-9.84468
爲我	-9.84522
未嘗	-9.84769
湖	-9.84798
陽光	-9.84834
事畢	-9.84859
婁	-9.84869
解厄	-9.84909
札	-9.84913
大衆	-9.84943
不足	-9.84962
盜	-9.84974
口訣	-9.84986
飈	-9.84987
奴	-9.85024
妨	-9.85083
倍	-9.85154
必有	-9.85154
明堂	-9.8518
都天	-9.85278
消滅	-9.85353
唵吽吽	-9.85398
以致	-9.85498
溟	-9.85543
天機	-9.85573
冰	-9.8562
禦	-9.85628
璇璣	-9.85649
萌	-9.85651
眀	-9.85656
展	-9.85665
帳	-9.8568
建壇	-9.8573
針	-9.85741
使我	-9.85805
不行	-9.85813
符檄	-9.85828
靈章	-9.85855
三升	-9.85924
功成	-9.85924
周天	-9.86012
法事	-9.86042
向來	-9.86043
伏以	-9.86139
眷	-9.86219
等衆	-9.8626
霑	-9.86277
署	-9.8628
冤	-9.86298
姦	-9.86316
皆有	-9.86316
靈符	-9.86416
漬	-9.86444
投詞	-9.86522
玉光	-9.86556
元氣	-9.86571
上玄	-9.86672
散花	-9.8669
蓬	-9.86716
九日	-9.86741
歛	-9.86896
宛	-9.86947
誡	-9.86954
四天	-9.87
華蓋	-9.87046
而有	-9.87137
安鎮	-9.87161
草木	-9.87203
金龍	-9.87335
不成	-9.874
左足	-9.87429
誕	-9.8753
葬	-9.87534
洞房	-9.87534
而巳	-9.87542
師父	-9.87572
不應	-9.87575
若能	-9.87608
天真	-9.87641
小兒	-9.87723
之本	-9.87735
靈飛	-9.87752
右符治	-9.8776
天道	-9.8778
之要	-9.87786
煑取	-9.8793
變神	-9.88041
吾今	-9.8808
卜	-9.88091
邑	-9.88183
用此	-9.88206
繩	-9.8824
屯	-9.88262
皈依	-9.88263
纔	-9.88264
功曹使者	-9.8827
沸	-9.88304
科曰	-9.88358
下有	-9.884
守一	-9.88462
冠衣	-9.88564
一聲	-9.88582
三途	-9.88711
也今	-9.88725
三一	-9.88756
女子	-9.88791
銘	-9.88802
玉皇上帝	-9.88843
幽魂	-9.88896
豁落	-9.88903
紋	-9.88915
隨事	-9.8903
玄天	-9.89034
行人	-9.89073
功行	-9.89099
之理	-9.89143
前來	-9.89158
急速	-9.89224
行用	-9.8928
中間	-9.89391
雷王	-9.8941
崔	-9.89427
浄	-9.89506
又云	-9.89526
飽	-9.8954
蓬萊	-9.89547
燕	-9.89582
八十	-9.896
剌	-9.89643
斬邪	-9.89678
天仙	-9.89747
焚之	-9.89758
應感	-9.89761
六畜	-9.89878
得之	-9.89911
者是	-9.89937
三遍	-9.89937
太歳	-9.89955
臣聞	-9.90075
有符	-9.90076
道炁	-9.901
解釋	-9.90104
之根	-9.90187
淡	-9.90193
完	-9.90207
以成	-9.9033
二十七	-9.90356
叩頭	-9.90394
之名	-9.90459
可得	-9.90588
上朝	-9.90599
之狀	-9.90644
問曰	-9.90653
有功	-9.90695
也此	-9.90777
緋	-9.90781
元始一炁萬神雷司	-9.90785
廓	-9.90786
鉛	-9.90805
沾	-9.90839
船	-9.90842
火急奉行	-9.90872
猛吏	-9.90889
起雷	-9.90951
大魔王	-9.90975
之術	-9.91089
言之	-9.91093
無邊	-9.91141
團	-9.91143
符籙	-9.91227
立功	-9.91374
旌	-9.91454
之類	-9.91462
灑	-9.9149
魯	-9.91501
勉	-9.91504
官君	-9.91505
帀	-9.91555
啼	-9.9156
太上道君	-9.91584
宣告	-9.91586
靡	-9.91709
夜半	-9.91733
爲人	-9.91749
七轉	-9.91753
跪	-9.91827
太帝	-9.9184
口舌	-9.91868
之誠	-9.91889
殺鬼	-9.919
老人	-9.92029
飛龍	-9.92029
不勝	-9.92098
脩	-9.92141
栖	-9.92147
榜	-9.92219
曆	-9.92306
膝	-9.92312
不受	-9.92357
四十九	-9.92437
幽明	-9.92524
某甲	-9.92532
亡者	-9.92589
太和	-9.92615
二月	-9.92616
手把	-9.92658
主帥	-9.92768
灸	-9.92792
泰山	-9.92807
巧	-9.92821
版	-9.92854
中出	-9.9288
壺	-9.92887
朝禮	-9.92902
戒者	-9.92951
入符	-9.92984
天心	-9.92989
三拜	-9.93074
三過	-9.93199
青宫	-9.93208
度世	-9.93251
某乙	-9.93271
善功	-9.93287
講	-9.93469
逝	-9.93488
罷	-9.93496
婦人	-9.9351
綿	-9.9353
天闕	-9.93591
枕	-9.93604
幡	-9.93618
具法位	-9.93636
真經	-9.93685
玄靈	-9.93749
肅清	-9.93767
金簡	-9.939
不爲	-9.93929
飛空	-9.94068
快	-9.9412
三兩	-9.9418
鄉	-9.94194
譴	-9.94228
諸法	-9.94228
𩀱	-9.94247
睡	-9.94251
圭	-9.94251
興雲	-9.94304
丹天	-9.94407
事理	-9.94408
神名	-9.94569
所受	-9.94591
五符	-9.94744
赤子	-9.94764
眷屬	-9.94973
惡鬼	-9.9512
元命	-9.95126
之儀	-9.95137
玉樞	-9.95216
歩虚	-9.95227
吞之	-9.95291
二卷	-9.95382
鐘	-9.95474
二十八	-9.95531
欝	-9.95585
橫	-9.95585
戊	-9.95587
子時	-9.95598
選	-9.956
陀	-9.95601
肩	-9.95657
飛騰	-9.95689
浸	-9.95699
天兵	-9.95727
雷聲	-9.95741
與吾	-9.95803
上方	-9.95808
陽日	-9.95857
消除	-9.96088
受生	-9.96102
奏狀	-9.96136
三百六十	-9.96153
眞司	-9.96165
清旦	-9.9618
爻	-9.96191
真符	-9.96194
至誠	-9.96209
厲	-9.9624
督	-9.96248
荆	-9.96257
千萬	-9.96279
九壘	-9.96284
之祖	-9.96297
而至	-9.96317
瓦	-9.96319
頑	-9.96321
幢	-9.96331
渡	-9.96334
徴	-9.96345
形神	-9.96354
其文	-9.96404
所啓	-9.96531
人皆	-9.96534
九月	-9.96597
未有	-9.96609
十年	-9.96669
之意	-9.96694
六月	-9.96703
次念	-9.96718
黄炁	-9.96911
元辰	-9.96948
携	-9.96951
寃	-9.96955
寓	-9.96962
瑩	-9.96999
軫	-9.97003
爵	-9.97012
家書	-9.97024
扶桑	-9.97025
䕶	-9.97025
以傳	-9.97031
富貴	-9.97077
派	-9.97081
雹	-9.9735
太皇	-9.97452
五苦	-9.97466
身形	-9.97586
其身	-9.97606
三分	-9.9762
名書	-9.97661
賈	-9.97678
蠲	-9.97714
恨	-9.97729
擎	-9.97755
其法	-9.97772
靑	-9.97774
里域	-9.97776
靈寳大法司	-9.97783
於世	-9.97801
五日	-9.97811
方函	-9.97836
魅	-9.97901
出離	-9.98059
不出	-9.98105
以左手	-9.9811
即是	-9.98285
神功	-9.98287
告盟	-9.98288
眞經	-9.98315
峰	-9.98327
殷	-9.98353
梅	-9.98361
玉童玉女	-9.98366
刼	-9.9839
惶	-9.9842
諧	-9.9844
奸	-9.98447
禪	-9.98458
朽	-9.98464
天丁力士	-9.98513
星宿	-9.98527
道言	-9.9855
者則	-9.98553
心拜	-9.9856
古今	-9.98602
與我	-9.98613
君吏	-9.98658
存見	-9.98691
所居	-9.98697
啓告	-9.98705
六府	-9.98736
通天	-9.98863
若干	-9.98896
又請	-9.98969
眞火	-9.99011
入道	-9.99018
風伯	-9.9904
神威	-9.99047
雅	-9.99075
尼	-9.99097
妙用	-9.99114
合干	-9.99117
刃	-9.99121
侍宸	-9.99129
天獄	-9.99136
恬	-9.99137
與天	-9.99159
上帝敕	-9.99199
流金	-9.99293
帥將	-9.99644
至尊	-9.99674
八月	-9.99674
湛	-9.99742
下情無任	-9.99783
三尸	-9.99834
洞章	-9.99843
輩	-9.99852
惜	-9.99863
藴	-9.99879
呪詛	-9.99923
邪神	-10.0001
泉曲	-10.001
者當	-10.0012
九轉	-10.0019
得見	-10.0023
捉鬼	-10.0026
復有	-10.0027
天元	-10.0028
蓮	-10.0031
當先	-10.0031
皆可	-10.0032
之冠	-10.0043
地司	-10.0043
豈不	-10.0048
勿令	-10.005
琴	-10.0056
流金火鈴	-10.0056
齋功	-10.0062
聾	-10.0065
億劫	-10.0069
丹書	-10.0074
流行	-10.0081
行下	-10.0083
南昌	-10.0086
玉簡	-10.01
收捉	-10.0101
所行	-10.0105
是非	-10.0105
二寸	-10.0105
爲吾	-10.0112
道法會元卷之二百	-10.0118
㧞度	-10.0119
人道	-10.0133
嶺	-10.0134
耳目	-10.0139
磬	-10.014
贈	-10.0141
壬癸	-10.0143
閉氣	-10.0144
也凡	-10.0145
一點	-10.0157
廣成	-10.017
經同卷	-10.0171
塗之	-10.0177
某家	-10.0177
收攝	-10.0179
以手	-10.0182
威光	-10.0184
洛	-10.0191
之先	-10.0195
䖍	-10.0198
儲	-10.0199
魒	-10.0201
帖	-10.0206
戾	-10.0208
黨	-10.021
𨼆	-10.0211
太上大道君	-10.0212
一如告命	-10.0213
震動	-10.0214
午時	-10.0215
合行	-10.0217
經中	-10.0219
歘火	-10.0219
四極	-10.022
兵士	-10.0221
心不	-10.0229
通神	-10.0242
之義	-10.0243
之靈	-10.0254
巫	-10.0259
之厄	-10.0265
之音	-10.0266
存念	-10.027
躍	-10.0278
貺	-10.0279
俓	-10.0279
渾	-10.0284
自在	-10.0285
山中	-10.0286
愍	-10.0287
灼	-10.0288
昇度	-10.0289
王母	-10.0293
禁忌	-10.0299
司馬	-10.03
玄妙	-10.0301
炙	-10.0301
玉訣	-10.0305
統領	-10.031
病者	-10.0312
受命	-10.0316
骸	-10.0319
者必	-10.032
修眞	-10.032
各各	-10.0321
無道	-10.0331
萬衆	-10.0332
十萬人	-10.0333
之身	-10.0334
萬化	-10.0336
一字	-10.0345
冶	-10.0348
探	-10.035
奮	-10.0352
臘	-10.0353
護身	-10.0353
爪	-10.0354
青華	-10.0356
七遍	-10.0357
險	-10.0358
瓶	-10.0361
庵	-10.0362
元精	-10.0362
出行	-10.0373
之尊	-10.0377
寳籙	-10.039
所治	-10.0391
五斗	-10.0392
星斗	-10.0397
罪福	-10.0402
分野	-10.0402
青書	-10.0402
入符中	-10.0403
北極大帝	-10.0408
帝庭	-10.041
拯	-10.0412
北酆	-10.0413
曽	-10.0419
上靈官	-10.0424
繡	-10.0426
邦	-10.0426
窺	-10.0427
鴻	-10.0428
酌	-10.0429
曷	-10.043
恒	-10.0431
○	-10.0432
騫	-10.0433
愁	-10.0434
頗	-10.0434
之曰	-10.0437
一百二十	-10.0437
須㬰	-10.0438
帝敕	-10.0439
太白	-10.0439
道學不得	-10.0441
時刻	-10.0442
獅子	-10.0442
開通	-10.0444
濃	-10.0446
驅邪	-10.0452
筵	-10.0461
九府	-10.0471
千人	-10.0473
奉道	-10.0479
與之	-10.0483
水官	-10.0485
悉皆	-10.0489
衆真	-10.0492
字號計八卷	-10.0496
七炁	-10.0497
湧	-10.05
九寸	-10.0502
軄	-10.0504
勃	-10.0508
伽	-10.0509
一月	-10.051
臂	-10.0512
喻	-10.0513
恍惚	-10.0515
直日	-10.0519
午文	-10.052
墨書	-10.0526
口吐	-10.0526
然燈	-10.0535
玉陛下	-10.054
符中	-10.0562
蠻雷	-10.0569
丹陽	-10.0574
森	-10.0576
何以	-10.0579
膺	-10.0579
朝元	-10.058
悅	-10.0587
巽方	-10.059
強	-10.0594
玉府	-10.0595
南嶽	-10.06
煞文	-10.06
九龍	-10.0607
妖魔	-10.0608
不及	-10.0608
於人	-10.0619
不容	-10.0621
七年	-10.0622
八天	-10.0626
寳珠	-10.0631
百年	-10.0633
天樞院	-10.0637
各一	-10.0641
隨意	-10.0647
天王	-10.0648
炁一口	-10.0652
還丹	-10.0655
琳	-10.0657
鼠	-10.0657
特賜	-10.0658
衆神	-10.0661
廉	-10.0661
零	-10.0663
五月	-10.0665
戀	-10.0669
建齋	-10.067
五百	-10.0671
叩齒三十六通	-10.0673
緩	-10.0675
致雨	-10.0676
工夫	-10.0677
真王	-10.0683
道衆	-10.069
官使者	-10.0699
三界十方	-10.0701
之機	-10.0709
風刀	-10.0715
子文	-10.0716
下界	-10.072
者右	-10.0724
多少	-10.0726
奎	-10.0732
氛	-10.0732
三氣	-10.0736
東西	-10.0737
汞	-10.0737
懴悔	-10.0738
拒	-10.0738
挺	-10.0742
諭	-10.0743
生化	-10.0743
八威	-10.0744
雨師	-10.0747
開天	-10.0749
元年	-10.0753
青衣	-10.0756
流鈴	-10.0756
而下	-10.0758
其間	-10.076
一十二	-10.0761
四指	-10.0764
誦之	-10.0772
者以	-10.0775
心存	-10.0778
山神	-10.0784
二景	-10.0786
金精	-10.079
十二時	-10.0795
龜山	-10.0799
儻	-10.0813
仕	-10.0815
蘂	-10.0817
虚无	-10.0817
貨	-10.0819
今有	-10.0821
毁	-10.0821
謹據	-10.0822
謙	-10.0822
濕	-10.0823
三關	-10.0823
不許	-10.0825
化成	-10.0834
逐一	-10.0835
雨澤	-10.0838
下令	-10.0844
今據	-10.0851
九皇	-10.0851
坎離	-10.0854
來臨	-10.0856
祈恩	-10.086
甲午	-10.0861
曹僊官	-10.0873
仙靈	-10.0882
子午	-10.0883
翊	-10.0886
上三天	-10.0889
孚	-10.0896
倫	-10.0896
革	-10.0901
𥙷	-10.0901
自生	-10.0901
亢	-10.0907
詐	-10.0907
杏	-10.0915
可謂	-10.0919
聖位	-10.0923
天河	-10.0928
附體	-10.0936
應時	-10.0938
金門	-10.0938
有違	-10.0946
六道	-10.096
永保	-10.0969
轡	-10.0978
攀	-10.0979
四司	-10.0979
漱	-10.0981
逕	-10.0982
四明	-10.0984
皈命	-10.0987
卯文	-10.0991
天子	-10.0994
萬象	-10.0997
玉宸	-10.0999
日月星辰	-10.1009
貢	-10.1011
所見	-10.1031
不欲	-10.1034
九州社令	-10.1036
勇	-10.1038
下丹田	-10.104
本無	-10.1054
介	-10.1059
三才	-10.1059
與道	-10.1059
天帝君	-10.1061
巍巍	-10.1061
債	-10.1063
覃	-10.1066
上經	-10.1069
替	-10.107
丹元	-10.107
祕訣	-10.1082
他人	-10.1085
非人	-10.109
髓	-10.1097
治卒	-10.1103
萬法	-10.1113
九重	-10.1114
太真	-10.1117
壇中	-10.1123
大師	-10.1129
捲	-10.1131
受事	-10.1131
其事	-10.1135
動靜	-10.1135
晚	-10.1138
晩	-10.1142
寬	-10.1143
濛	-10.1145
費	-10.1145
奉爲	-10.1147
臨壇	-10.1153
翅	-10.1154
一合	-10.1154
呼召	-10.1156
玄虚	-10.1156
甲寅	-10.1161
掣電	-10.1165
百病	-10.1165
衣服	-10.1173
明科	-10.1177
大吉	-10.118
輪轉	-10.1187
視之	-10.119
真形	-10.1191
雷君	-10.1197
甲申	-10.1198
上仙都	-10.1212
日夜	-10.1214
煞炁	-10.1215
昨	-10.1217
錦帔	-10.122
今月	-10.122
警	-10.1222
九元	-10.1222
命魔	-10.1226
火候	-10.1228
三色	-10.123
嘘	-10.1232
死生	-10.1233
兩目	-10.1234
學仙	-10.1234
揺	-10.1236
昊	-10.1239
之光	-10.1239
謝恩	-10.1242
日時	-10.1251
破獄	-10.1251
金虎	-10.1257
咽液	-10.1265
端坐	-10.1267
奉命	-10.1267
天將	-10.1271
之衆	-10.1272
一遍	-10.1275
岳	-10.1282
祇	-10.1285
雷霆都司	-10.1288
壤	-10.1294
恢	-10.1297
九陽	-10.1297
董	-10.1298
秩	-10.1304
豁	-10.1304
趨	-10.1304
堯	-10.1305
羅列	-10.1307
與道合眞	-10.1307
二十一	-10.1308
寺	-10.1309
渉	-10.1311
認	-10.1312
噀	-10.1316
今則	-10.1317
者亦	-10.1318
右足	-10.1319
十極	-10.1323
二分	-10.1324
注生	-10.1325
一旦	-10.134
見其	-10.135
不傳	-10.1359
化身	-10.1364
急急奉	-10.1366
具法位姓	-10.1371
砂	-10.1372
炁合	-10.1372
愧	-10.138
裘	-10.1382
旡	-10.1389
天魔	-10.139
偃	-10.139
喧	-10.1392
低	-10.1393
受經	-10.1394
熬	-10.1406
朝謁	-10.142
四季	-10.1421
宣行	-10.1429
鬼官	-10.1433
出家	-10.1434
諸仙	-10.1434
消息	-10.1435
雙手	-10.1436
天文	-10.1446
建立	-10.1453
天樞	-10.146
咒曰	-10.1466
巢	-10.1469
鬼賊	-10.1469
床	-10.147
翹	-10.1472
仇	-10.1473
及諸	-10.1473
郊	-10.1475
脂	-10.1479
默念	-10.1483
嗚	-10.1485
天神	-10.1488
山魈	-10.1489
噉	-10.1491
得仙	-10.1494
二年	-10.1497
千二百人	-10.1504
五通	-10.1508
九氣	-10.1509
三字	-10.1509
正道	-10.1511
求仙	-10.1511
百姓	-10.1516
爲末	-10.1516
人物	-10.1522
見之	-10.1529
寳章	-10.1534
三尊	-10.1541
所奏	-10.1543
不然	-10.1543
捷	-10.1543
二符	-10.1544
諸神	-10.1545
栢	-10.1548
五寸	-10.1548
雷令	-10.1549
大力	-10.1551
脱	-10.1554
戲	-10.1554
五人	-10.1555
遮	-10.1557
衍	-10.1558
奠	-10.1559
昇入	-10.1563
成眞	-10.1564
四月	-10.1565
𩓑	-10.1569
聞之	-10.157
百二十	-10.1576
玄關	-10.1578
一條	-10.1582
身長	-10.1586
黄書	-10.159
自非	-10.1591
亦無	-10.1597
合形	-10.1602
无窮	-10.1604
教主	-10.1604
忽然	-10.1606
即時	-10.1613
東海	-10.1619
無礙	-10.1636
黄金	-10.1637
狼	-10.1645
榖	-10.1646
薩	-10.1646
嶽瀆	-10.1647
城隍社令	-10.1649
縳	-10.1651
袋	-10.1653
天台	-10.1654
上中下	-10.1657
庚申	-10.1661
玉經	-10.1661
去滓	-10.1667
蓮花	-10.1675
便是	-10.1677
三人	-10.1679
南向	-10.1687
方便	-10.1687
承誥奉行	-10.169
伏乞	-10.1693
不得妄	-10.1697
治在	-10.1698
上告	-10.1704
乃是	-10.1706
未得	-10.1716
呪唵	-10.1716
洞靈	-10.1718
控	-10.172
精誠	-10.172
室主	-10.1723
該	-10.1725
邈	-10.1726
佛	-10.1727
一斤	-10.1727
𠃔中	-10.1729
紫光	-10.1731
元始天王	-10.1736
狗	-10.1737
將來	-10.1737
噴	-10.1739
徃來	-10.175
妖氛	-10.1751
人有	-10.1754
皇上	-10.1756
治之	-10.1758
升降	-10.1766
不識	-10.1766
依前	-10.1769
二日	-10.1769
勑命	-10.1776
諷	-10.1783
黒帝	-10.1785
八字	-10.1791
疊	-10.1791
吾身	-10.1797
其形	-10.1798
學士	-10.1803
洞徹	-10.1803
冬至	-10.181
上達	-10.1811
過度	-10.1815
衢	-10.1819
雖有	-10.1823
白玉	-10.1823
贖	-10.1823
太華	-10.183
下部	-10.1838
雲霧	-10.1846
帝勑	-10.1857
紫清	-10.1861
不明	-10.1865
不從	-10.1874
以是	-10.1875
太元	-10.188
十一月	-10.1884
聖賢	-10.1888
一二	-10.1889
神丹	-10.1891
煩惱	-10.1895
香爐	-10.1895
而得	-10.1898
紹	-10.19
心章	-10.1904
鑄	-10.1906
痊	-10.1906
暖	-10.1908
腥	-10.1908
撥	-10.191
䘮	-10.1912
陽精	-10.1912
取炁	-10.1912
發遣	-10.192
志心	-10.1921
祭酒	-10.1927
我今	-10.1929
孔子	-10.1929
雌一	-10.1942
行法	-10.1942
方寸	-10.1945
死者	-10.1946
白素	-10.1949
由是	-10.1953
主法	-10.1955
終不	-10.1957
關告	-10.1958
苦爽	-10.196
帝命	-10.1967
芽	-10.1971
又名	-10.1979
闔	-10.1982
)(/)	-10.1983
一通	-10.1985
其餘	-10.1986
律令勑	-10.1986
蔣	-10.1987
㐫	-10.1993
銷	-10.1995
之位	-10.1995
冠帶	-10.1998
嘆	-10.1998
鱗	-10.2
道前	-10.2003
三天門下	-10.2003
樞機	-10.2008
火燒	-10.2008
符召	-10.2022
謹狀	-10.2022
場	-10.2024
生身	-10.2033
靈應	-10.204
布炁	-10.2046
伏望	-10.2055
下方	-10.2056
赤天	-10.2056
吞服	-10.2057
仙都	-10.2063
二十四人	-10.2065
輕重	-10.2068
具奏	-10.2068
萬魔	-10.207
玉眞	-10.2076
符文	-10.2078
靄	-10.2078
褐	-10.2078
斥	-10.2079
廕	-10.2079
朱衣	-10.208
群生	-10.2082
厨	-10.2088
中部	-10.209
婚	-10.2094
所至	-10.2096
泠	-10.2097
請進	-10.2099
卷一	-10.2101
自然之	-10.2102
甘草	-10.2107
與人	-10.2108
事意	-10.2119
上請	-10.2132
凡人	-10.2142
追魂	-10.2142
受持	-10.2154
貴人	-10.2158
憎	-10.2162
朴	-10.2168
魂神	-10.2168
愼之	-10.2169
拷	-10.2169
泯	-10.2169
廉貞	-10.217
三十六天	-10.2172
咽之	-10.2173
來迎	-10.2173
聖母	-10.2177
級	-10.2177
不在	-10.2178
匠	-10.2178
逼	-10.2178
不如	-10.218
捷疾	-10.2183
玉清訣	-10.2185
无所	-10.2185
不以	-10.2185
不離	-10.219
熒惑	-10.2191
不信	-10.2191
關啓	-10.2192
種種	-10.2194
赤明	-10.2196
右手執	-10.2202
河海	-10.2205
上靈	-10.2209
曰子	-10.221
皆當	-10.2217
盆	-10.2225
九億萬	-10.2235
四象	-10.2243
孽	-10.2245
禍福	-10.2248
各三	-10.2251
受法	-10.2252
行壇	-10.2253
懺	-10.2255
敵	-10.2258
炭	-10.2261
陋	-10.2261
祚	-10.2261
蠻	-10.2267
方位	-10.2267
蟾	-10.2269
跨	-10.2269
婚姻	-10.2269
飛玄	-10.2271
召呪	-10.2272
垣	-10.2273
賀	-10.2273
上界	-10.2274
日用	-10.2275
則不	-10.2282
慈尊	-10.2285
仗劒	-10.2286
炎帝	-10.2288
之象	-10.229
其日	-10.2293
死魂	-10.2295
宻呪	-10.2298
伏聞	-10.23
到壇	-10.2305
即日	-10.2305
任意	-10.2309
散形	-10.2312
玉章	-10.2318
兄	-10.232
土皇	-10.2322
入山	-10.2323
作一	-10.2329
書名	-10.2334
崩	-10.2341
玉籙	-10.2348
熾	-10.2352
區	-10.2353
涉	-10.2356
乏	-10.2357
觧	-10.236
哭	-10.2361
呢	-10.2365
哪	-10.2365
以自	-10.2369
杵	-10.2371
洞照	-10.2371
召請	-10.2374
日光	-10.2375
之若	-10.2379
下入	-10.2383
方治	-10.2386
火雷	-10.2389
猷	-10.2397
制魔	-10.2397
出筆	-10.2398
般	-10.2402
光芒	-10.2402
仙翁	-10.2408
雷祖大帝	-10.2426
玉闕	-10.2427
玉司	-10.2438
淸	-10.2438
髻	-10.244
酬	-10.244
歟	-10.2442
黎	-10.2444
蔚	-10.2445
鄕	-10.2445
圓光	-10.2446
逥	-10.2447
摇	-10.2449
正眞	-10.2449
薪	-10.245
幼	-10.2451
西王母	-10.2453
御史	-10.2453
三萬六千	-10.2454
貯	-10.2463
公子	-10.2463
敢不	-10.2464
仙童	-10.2467
歡喜	-10.247
符上	-10.2477
咭	-10.248
碧玉	-10.2482
靈書	-10.2484
謹具	-10.2491
玄母	-10.2495
天恩	-10.2499
華池	-10.2501
隨吾	-10.2506
周流	-10.2512
匝	-10.2512
九江	-10.2517
河源	-10.252
九星	-10.2521
百萬	-10.2523
丁巳	-10.2523
晏	-10.2532
弊	-10.2532
諸將	-10.2534
斑	-10.2535
不覺	-10.2536
纓	-10.2537
鈞	-10.2537
藹	-10.2539
上應	-10.254
嵗	-10.2543
汲	-10.2545
照耀	-10.2546
修真	-10.2546
雲中	-10.2548
攪	-10.255
北斗七元	-10.2551
常存	-10.2554
服符	-10.2554
安鎭	-10.2564
鬼名	-10.2574
普告	-10.258
四維	-10.2584
有餘	-10.2585
妖邪	-10.2594
召雷	-10.2599
之處	-10.26
道成	-10.2601
八素	-10.2601
九道	-10.2615
萬炁	-10.2615
月華	-10.2617
暑	-10.2625
太保	-10.2625
功過	-10.2626
東方青	-10.2627
玄眞	-10.2627
鉞	-10.2633
亡過某等	-10.2633
謫	-10.2636
伊	-10.2636
又以	-10.2637
買	-10.2638
懽	-10.264
軌	-10.2641
益筭	-10.2643
章表	-10.2645
武曲	-10.2646
自此	-10.2649
一心	-10.265
丹砂	-10.2651
修奉	-10.2652
鹽	-10.2653
不相	-10.2653
譬如	-10.2657
萬邪	-10.2658
六宫	-10.2658
奏告	-10.2659
陽雷	-10.2663
東井	-10.2666
門户	-10.2671
昊天玉皇上帝	-10.268
佩帶	-10.2682
人所	-10.2684
主收	-10.2686
弼	-10.2687
有三	-10.2693
七宿	-10.2701
之源	-10.2704
九隂	-10.2706
踏	-10.2706
三道	-10.271
笈	-10.271
黄衣	-10.2718
隅	-10.2719
五年	-10.2721
阜	-10.2725
陞	-10.2725
上通	-10.2728
古人	-10.2729
五氣	-10.2731
敎	-10.2732
漫	-10.2732
晃	-10.2732
征	-10.2732
不通	-10.2734
擬	-10.2734
争	-10.2734
恃	-10.2734
有道	-10.2735
五嶽四瀆	-10.2736
减	-10.2736
尖	-10.2736
淹	-10.2737
𢘆	-10.2737
文書	-10.2737
然而	-10.2737
醋	-10.2737
鬚	-10.2738
急急如上帝律令	-10.2738
不止	-10.2739
雷祖	-10.2744
倦	-10.2745
天魔王	-10.2767
五分	-10.2777
之科	-10.2785
立至	-10.2786
神力	-10.279
二儀	-10.279
謹奏	-10.2792
而立	-10.2793
不可以	-10.2795
四面	-10.2795
水雷	-10.2798
猛將	-10.2798
延壽	-10.2799
天章	-10.2804
之說	-10.2804
謹具狀	-10.2805
過止	-10.2812
陟	-10.2817
製	-10.2824
恣	-10.2824
轅	-10.2825
恪	-10.2826
紐	-10.2827
僕	-10.2829
寒暑	-10.2832
禮拜	-10.2832
稽首再拜	-10.2832
巳身	-10.2833
焚符	-10.2834
光照	-10.2834
盲	-10.2838
血湖	-10.2838
符法	-10.2843
服色	-10.2851
百里	-10.2854
具位姓某	-10.2855
别有	-10.2862
保生	-10.2863
原赦	-10.2864
不問	-10.2867
寳光	-10.2868
一曰	-10.2881
告命	-10.2886
經太上	-10.2888
庶使	-10.2888
陽神	-10.2891
飛符	-10.2893
更相	-10.2895
外道	-10.2903
雷兵	-10.2905
通眞	-10.2908
北炁	-10.2914
之家	-10.2917
嗜	-10.2917
之物	-10.2918
惱	-10.2919
帬	-10.2922
之主	-10.2923
薰	-10.2926
雍	-10.2927
匡	-10.2927
不聞	-10.293
鋪	-10.293
大魔	-10.2931
統兵	-10.2932
靈寳大法	-10.2934
之道也	-10.2935
齋主	-10.2941
隨時	-10.2942
月孛	-10.2943
佑聖	-10.2943
殺伐	-10.2943
巽户	-10.2944
玄中	-10.2948
子曰	-10.2949
謹爲	-10.295
上帝勑	-10.2952
靈寳天尊	-10.296
不宜	-10.296
符於	-10.2961
火獄	-10.2963
清明	-10.2965
祕法	-10.2965
而來	-10.298
始生	-10.2986
其炁	-10.2987
紫陽	-10.2988
施用	-10.299
福地	-10.2993
眞一	-10.2993
成仙	-10.2994
得一	-10.2994
西華	-10.2995
地雷	-10.2996
普濟	-10.3001
入水	-10.3007
畢又	-10.3012
奚	-10.3013
人心	-10.3014
鑿	-10.3016
袖	-10.3018
青詞	-10.3019
妙化	-10.302
澗	-10.302
地上	-10.3022
雷震	-10.3023
斛	-10.3024
𡄦	-10.3025
㝷	-10.3027
鄙	-10.3028
急捉	-10.303
別	-10.3033
念呪曰	-10.3033
頓首	-10.3034
受錬	-10.3036
□□□	-10.3037
帝一	-10.304
掃除	-10.304
庚辛	-10.3044
有命	-10.3046
到處	-10.3049
掃蕩	-10.3059
每日	-10.306
九泉	-10.3061
生魂	-10.3064
雷轟	-10.3065
錢馬	-10.3069
筋	-10.3071
飲之	-10.3073
驅除	-10.3074
皆以	-10.3075
青童	-10.3076
上至	-10.3077
金童	-10.3083
三部	-10.3086
者有	-10.309
領兵	-10.3091
應干	-10.3094
尸解	-10.3101
是謂	-10.3101
聽令	-10.3106
敕煞攝	-10.3109
淮	-10.311
修造	-10.311
匪	-10.3112
寵	-10.3113
焕	-10.3115
金木	-10.3116
芬	-10.3117
戟	-10.3117
耕	-10.3118
青雲	-10.3125
頻	-10.3126
眠	-10.3127
拭	-10.3132
如雲	-10.3137
慎之	-10.3141
破軍	-10.3141
壇所	-10.3145
綬	-10.3145
國土	-10.3151
青童君	-10.3153
九真	-10.3154
以至	-10.3155
境界	-10.3157
九過	-10.3158
三合	-10.3165
靈神	-10.3168
來降	-10.3172
之教	-10.3196
在乎	-10.3201
景霄	-10.3203
几	-10.3203
祕呪	-10.3207
僣	-10.3212
魔鬼	-10.3214
匿	-10.3216
材	-10.3217
梓	-10.3217
做	-10.322
不停	-10.3221
頃刻	-10.3222
曰我	-10.3223
思之	-10.3224
月中	-10.3225
扣	-10.3227
僊	-10.3227
足以	-10.3229
在吾	-10.323
香花	-10.3231
火雲	-10.3238
人能	-10.324
玄玄	-10.3241
敕呪	-10.3245
水帝	-10.3245
甲戌	-10.3249
玉堂	-10.3251
朱履	-10.3254
飲酒	-10.3256
名字	-10.3259
四瀆	-10.3262
幽關	-10.3262
真官	-10.3264
斗訣	-10.3265
昇玄	-10.3266
衆等	-10.3268
如有	-10.3286
應化	-10.3289
仙公	-10.3291
明皇	-10.33
白元	-10.3304
燥	-10.3304
玉音	-10.3305
字號計十一卷	-10.3312
與神	-10.3321
牧	-10.3321
徽	-10.3322
怖	-10.3322
醴	-10.3323
抽	-10.3323
箭	-10.3324
頂上	-10.3324
疰	-10.3325
雄黄	-10.3327
咄	-10.3328
文曲	-10.3334
父毋	-10.3335
誦呪	-10.3335
侍衞	-10.3337
至人	-10.3338
開化	-10.334
天皇大帝	-10.3342
麽	-10.3344
通玄	-10.335
謝過	-10.3351
進退	-10.3352
九清	-10.3356
虛無	-10.3356
不忘	-10.3357
追䰟	-10.3358
爲先	-10.3362
萬福	-10.3364
公公	-10.3369
至此	-10.3372
五千	-10.3372
□(	-10.3375
中嶽	-10.3377
一丈	-10.3383
煉度	-10.3386
唵吽	-10.3389
真誥	-10.339
啓奏	-10.3398
往來	-10.3401
在人	-10.3401
甲辰	-10.3412
解穢	-10.3413
甫	-10.3414
高眞	-10.3417
泰玄都省	-10.342
明日	-10.3421
喬	-10.3423
籤	-10.3426
遶	-10.343
讓	-10.3431
吁	-10.3433
記名	-10.3433
掛	-10.3433
勑召	-10.3435
流布	-10.3435
哺	-10.3437
瞑目	-10.3437
聦明	-10.3438
大仙	-10.3439
法服	-10.344
地官	-10.3443
遊宴	-10.3444
豉	-10.3445
上願	-10.3453
金籙	-10.3453
兄弟	-10.3454
神鬼	-10.3455
大德	-10.3459
當境	-10.3461
仙眞	-10.3464
白鶴	-10.3466
月朔	-10.3471
室中	-10.3475
能知	-10.3475
爲某	-10.3476
方諸	-10.3479
乃得	-10.3481
七徧	-10.3483
之徒	-10.3483
求財	-10.3488
之信	-10.3493
無間	-10.3496
不拘	-10.35
地戸	-10.3502
忱	-10.3516
幘	-10.3521
雀	-10.3522
馮	-10.3527
赫奕	-10.3534
泣	-10.3535
悶	-10.3536
二指	-10.3543
劈	-10.3545
表裏	-10.3545
天一	-10.3546
廣成先生	-10.3558
七過	-10.3558
聖君	-10.356
罡風	-10.3562
急召	-10.3567
黄紙	-10.3574
國王	-10.3574
先亡	-10.358
有人	-10.3581
接引	-10.3584
亡過某	-10.3586
如干	-10.3587
黄華	-10.3597
太虛	-10.3603
統攝	-10.3605
勑攝	-10.3608
降靈	-10.3612
玄黄	-10.3622
禮謝	-10.3624
豫	-10.3627
蝗	-10.3629
嗟	-10.3633
即賜	-10.3633
藍	-10.3633
太上洞玄靈寳	-10.3635
傅之	-10.3636
而退	-10.3636
祅	-10.3638
离	-10.3638
三昧	-10.364
䂓	-10.3641
速出	-10.3641
狄	-10.3642
年月日具位	-10.3647
天堂	-10.3648
云何	-10.3648
烈火	-10.365
哩	-10.3651
大王	-10.3652
法信	-10.3652
申狀	-10.3657
三十九	-10.3661
四兩	-10.3663
大如	-10.3664
某年	-10.3671
朝眞	-10.3673
敕㫖	-10.3676
之書	-10.3677
催生	-10.3679
神氣	-10.3683
之路	-10.3685
帝尊	-10.3685
炎炎	-10.3693
微塵	-10.3695
直上	-10.3696
服食	-10.3697
通明	-10.3702
九拜	-10.3704
於天	-10.3705
者死	-10.3709
申時	-10.3711
魈	-10.3714
三品	-10.3722
霖	-10.3724
闢	-10.3725
三田	-10.3725
隨方	-10.3726
內	-10.3731
人世	-10.3733
粟	-10.3736
艱	-10.3736
其上	-10.3738
遽	-10.3738
迫	-10.374
塡	-10.3742
忿	-10.3743
三尺	-10.3744
本壇	-10.3744
渴	-10.3745
本法	-10.3747
翊聖	-10.3749
關奏	-10.375
辦	-10.3752
北斗七星	-10.3754
皆由	-10.3755
心無	-10.3756
吐納	-10.3756
驅雷	-10.3757
天威	-10.3758
上部	-10.3763
西山	-10.3764
利貞	-10.3765
之聲	-10.3768
中央黄	-10.3778
所求	-10.378
左手掐	-10.3783
離宫	-10.3803
主人	-10.3817
都畢	-10.3817
此爲	-10.3819
生氣	-10.3824
浮空	-10.3826
江河	-10.3829
玄師	-10.3831
訴	-10.3834
醮官某	-10.3835
襲	-10.3838
亞	-10.3838
冐	-10.3842
顚	-10.3843
羣生	-10.3845
白日昇天	-10.3846
弓	-10.3847
謗	-10.3849
在我	-10.3849
綿綿	-10.385
居中	-10.3851
鎻	-10.3854
紫書	-10.3856
㗶	-10.3858
神眞	-10.386
人鬼	-10.3863
廬山	-10.3863
碧落	-10.3865
赫赫	-10.3867
呬	-10.3867
甘雨	-10.3867
刀兵	-10.3871
救度	-10.3871
神仙傳	-10.3872
一切衆生	-10.3872
禹步	-10.3877
守真	-10.3878
飛升	-10.388
一口	-10.3889
授以	-10.3891
符用	-10.3895
行此	-10.3898
所願	-10.3899
無復	-10.39
降下	-10.3904
祈求	-10.3911
紫晨	-10.3912
符一道	-10.3923
黄雲	-10.3925
斗口	-10.3927
玄中大法師	-10.394
姿	-10.3942
畧	-10.3943
俄	-10.3946
珮	-10.3947
邁	-10.3948
屠	-10.3948
弄	-10.3949
臣某承誥奉行	-10.395
霐	-10.395
蓋之	-10.3952
偉	-10.3953
匣	-10.3954
宵	-10.3954
粗	-10.3955
痾	-10.3956
魍魎	-10.3956
𩳐	-10.3959
腰帶	-10.3959
經師	-10.3964
百餘	-10.3964
皇天	-10.3968
夏至	-10.3971
在此	-10.3974
元洞	-10.3977
慧光	-10.3984
學之士	-10.3984
亦得	-10.3987
玉房	-10.3992
解除	-10.3992
紫府	-10.3994
神咒	-10.3996
害人	-10.4
年月日時告下具位	-10.4002
可用	-10.4009
命門	-10.4017
我之	-10.4024
見形	-10.4024
胎息	-10.4028
之𩔖	-10.4029
流霞	-10.403
自稱	-10.4035
於道	-10.4036
無任	-10.4037
一尺	-10.4037
白衣	-10.4039
三十六人	-10.404
監生	-10.4041
册	-10.4047
依式	-10.4048
今月某日	-10.405
耿	-10.405
之官	-10.4051
罄	-10.4052
何處	-10.4054
幹	-10.4055
霽	-10.4056
苗	-10.4056
空五寸篆符	-10.4057
搏	-10.4057
駭	-10.4057
謹按	-10.4057
九光	-10.4059
諒	-10.406
急急如高上神霄玉清眞王律令	-10.4061
瓜	-10.4061
摽	-10.4061
倘	-10.4061
換	-10.4062
寳文	-10.4062
北極紫微大帝	-10.4062
靈靈	-10.4063
故能	-10.4063
扃	-10.4065
魓	-10.4066
奉請	-10.4067
讎	-10.4069
祀典	-10.407
扵	-10.4072
立便	-10.4072
上卿	-10.4075
孤䰟	-10.4075
身體	-10.4079
羽衣	-10.4079
縱横	-10.4079
無心	-10.4081
運用	-10.4087
救濟	-10.4098
有此	-10.4099
有心	-10.41
巨門	-10.4101
下臨	-10.4102
真一	-10.4103
百關	-10.411
已身	-10.4113
粒	-10.4119
化作	-10.4124
副將	-10.4137
金玉	-10.4141
一斗	-10.4144
眞武	-10.4147
之㫖	-10.4152
天府	-10.4154
戈	-10.4156
夜光	-10.4158
捻	-10.4159
不絶	-10.416
邀	-10.4166
青玄	-10.4166
勵	-10.4166
南方火	-10.4166
五府	-10.417
屢	-10.4171
兔	-10.4172
槌	-10.4173
醒	-10.4175
捕盗	-10.4176
莫測	-10.4177
忤	-10.4178
請命	-10.4182
悔過	-10.4194
齋事	-10.4194
騎吏	-10.4195
黄紙朱書	-10.4195
好道	-10.4197
飛奏	-10.4199
右呪	-10.4203
如式	-10.4204
滅魔	-10.4205
金水	-10.421
世俗	-10.4213
四直	-10.4216
即得	-10.4225
行遣	-10.4225
即與	-10.4234
步罡	-10.4235
在心	-10.4235
色如	-10.4254
成真	-10.4259
禄存	-10.4259
呪塗	-10.426
雲篆	-10.4264
若是	-10.427
目前	-10.4272
社稷	-10.4275
歸命	-10.4275
壑	-10.4276
踐	-10.4277
碑	-10.4277
徵	-10.4278
左手執	-10.4279
剥	-10.428
慰	-10.4281
幅	-10.4284
畔	-10.4286
大煞	-10.4289
至今	-10.4295
帽	-10.4297
戊己	-10.4301
入地	-10.4302
乾薑	-10.4306
懴謝	-10.4306
惡人	-10.4311
青紙	-10.4315
符章	-10.4316
非常	-10.4316
不干	-10.433
青面	-10.4335
爾時天尊	-10.4345
道路	-10.4346
先存	-10.4346
此二	-10.4349
十方三界	-10.435
所得	-10.4352
不息	-10.4359
符吏	-10.436
有無	-10.4362
其方	-10.4366
家宅	-10.4369
手足	-10.4369
之司	-10.4369
大元帥	-10.4369
所向	-10.4371
法位	-10.4372
勑呪	-10.4377
猶如	-10.4383
舜	-10.4385
手持	-10.4386
寛	-10.4388
采	-10.4389
年月	-10.439
麟	-10.439
緒	-10.439
瀝	-10.4391
貽	-10.4394
析	-10.4396
魁𩲃𩵄䰢魓𩳐魒	-10.4396
漆	-10.4397
噐	-10.4399
桐	-10.4399
朱砂	-10.4401
陞壇	-10.4402
杳冥	-10.4402
上宰	-10.4406
臣妾	-10.441
諸靈官	-10.4411
破廟	-10.4414
所請	-10.4426
忽見	-10.4429
七政	-10.4432
丁卯	-10.4433
宿啓	-10.444
典者	-10.4445
奏申	-10.4449
於心	-10.445
爲害	-10.445
主治	-10.4451
養生	-10.4456
涯	-10.4465
醮儀	-10.4471
願得	-10.4473
或爲	-10.4475
歩綱	-10.4478
先師	-10.4479
並同	-10.4479
神水	-10.4481
出官	-10.4483
髙真	-10.4484
里社	-10.4484
各七	-10.4484
言語	-10.4488
爲始	-10.449
飛歩	-10.4492
三十五	-10.4494
霍	-10.45
奕	-10.4502
緘	-10.4503
甦	-10.4504
叩齒十二通	-10.4504
築	-10.4505
濫	-10.4505
北極驅邪院	-10.4506
罹	-10.4506
赦宥	-10.4506
家國	-10.4506
熊	-10.4508
换	-10.4509
賫	-10.4511
㓕	-10.4514
唾	-10.4516
從此	-10.4516
蠱	-10.4517
九千	-10.4521
卯酉	-10.4523
之郷	-10.4525
菜	-10.4525
靈壇	-10.4527
握固	-10.4527
七眞	-10.4527
四肢	-10.4528
乘雲	-10.4529
上徹	-10.4529
者可	-10.4534
十惡	-10.4536
河魁	-10.4544
雲炁	-10.4546
酉文	-10.4551
承受	-10.4552
仙階	-10.4552
羽蓋	-10.4554
付度	-10.4559
百靈	-10.456
白蛇	-10.4563
說經	-10.4564
雲雨	-10.4565
成道	-10.457
陽炁	-10.4573
降眞	-10.4574
斬妖	-10.4576
曰汝	-10.4578
龍漢	-10.4585
此時	-10.4586
令行	-10.4586
之極	-10.4588
紫微大帝	-10.4592
辰星	-10.4595
豆	-10.4595
八道	-10.4597
開悟	-10.4597
二十三	-10.4599
奉受	-10.4604
巻	-10.4605
青靈	-10.4611
柄	-10.4616
熙	-10.4616
馥	-10.4617
之雲	-10.4617
百鬼	-10.4618
燃	-10.4618
疏	-10.462
古者	-10.462
平旦	-10.4621
一室	-10.4622
焦枯	-10.4626
係薦	-10.4627
鄰	-10.4627
開天門	-10.4627
即便	-10.4627
抛	-10.4628
希夷	-10.4629
青絲	-10.4631
如常	-10.4634
得長生	-10.4635
時有	-10.4636
嚥液	-10.4637
擲火	-10.4637
骨肉	-10.4639
附子	-10.4641
開光	-10.4641
洞眞太上	-10.4642
誦詠	-10.4645
蕩蕩	-10.4647
符篆	-10.4648
夫妻	-10.4649
字上	-10.465
大定	-10.4654
飛步	-10.4656
州縣	-10.466
女人	-10.4661
不言	-10.4668
爲此	-10.4671
卷一之十	-10.4677
天廷	-10.4677
辰文	-10.4678
酆都大帝	-10.4679
鐵面	-10.4682
頒行	-10.4684
無方	-10.4685
隨符	-10.4686
某事	-10.4692
人事	-10.4693
長齋	-10.4694
遵依	-10.4695
未生	-10.4699
衆官	-10.4703
上造	-10.4704
西向	-10.4706
四寸	-10.4708
萬萬	-10.4711
白簡	-10.4711
精光	-10.4719
萬變	-10.4724
罪業	-10.4724
洞中	-10.4725
殟	-10.4731
十餘	-10.4731
七世	-10.4734
此則	-10.4736
淩	-10.4737
鴈	-10.4738
文章	-10.4739
中文	-10.4739
酸	-10.474
釁	-10.474
肥	-10.4741
洽	-10.4741
六洞	-10.4742
太山	-10.4743
賣	-10.4744
城隍主者	-10.4744
一氣	-10.4745
闇	-10.4748
杯	-10.4748
都督	-10.4751
北海	-10.4751
申奏	-10.4753
天蓬元帥	-10.4753
九獄	-10.4754
衆妙	-10.4757
俯仰	-10.4757
降伏	-10.4758
丑時	-10.4763
吉日	-10.4763
未至	-10.4778
六寸	-10.4779
金眞	-10.478
不知其	-10.4783
和氣	-10.4787
或以	-10.4789
邪崇	-10.4791
男子	-10.4791
嗣法	-10.4796
嶽府	-10.4797
萬遍	-10.4798
與諸	-10.4802
始青	-10.4803
相合	-10.4806
少陽	-10.4812
密呪	-10.4814
陛	-10.4815
發生	-10.4815
卷一之	-10.4817
近世	-10.4817
滅亡	-10.4824
陰雷	-10.4826
金色	-10.4826
嵩	-10.4829
江水帝	-10.483
祕之	-10.4832
聞吾	-10.4837
洞元	-10.4841
教法	-10.4842
姓某承誥奉行	-10.4844
仙曹	-10.4845
萬道	-10.4846
掠	-10.4847
憶	-10.4848
炳	-10.4849
踰	-10.4851
饑	-10.4852
夾	-10.4855
蠶	-10.4858
紛紛	-10.4858
拳	-10.4861
快樂	-10.4861
狂風	-10.4861
七祖父母	-10.4863
侍從	-10.487
宿命	-10.4876
侵害	-10.4881
有五	-10.4888
尚書	-10.4893
天書	-10.4902
玄丹	-10.4916
受鍊	-10.4918
雲輿	-10.4921
引進	-10.4927
洞府	-10.4928
帝前	-10.4933
爲天	-10.4936
並用	-10.4936
鬼魅	-10.4939
无爲	-10.4943
復連	-10.4948
妾	-10.4949
生門	-10.495
欲求	-10.4953
至心	-10.4956
與天地	-10.4956
聦	-10.4958
睿	-10.496
簡文	-10.4961
召役	-10.4963
所說	-10.4963
道學當念	-10.4964
璽	-10.4965
司命君	-10.4966
風吹	-10.4967
伍	-10.4969
棺	-10.4971
遞	-10.4973
金石	-10.4973
馨	-10.4973
瓢	-10.4976
渺	-10.4978
勅	-10.4979
東方青帝	-10.4979
挑	-10.4985
左目	-10.4985
關召	-10.4986
今爲	-10.4986
百二十人	-10.4988
此理	-10.4988
披髮	-10.4992
漸漸	-10.4994
之形	-10.4994
生生	-10.4998
聖帝	-10.5
通達	-10.5
徹視	-10.5002
色界	-10.5003
拜上	-10.5003
一體	-10.5009
九天之上	-10.501
後人	-10.5014
足躡	-10.5019
神室	-10.5019
心火	-10.5023
而行之	-10.5023
面前	-10.5027
常行	-10.5029
玉篇	-10.503
冥冥	-10.5033
兩腎	-10.5036
一物	-10.5037
世世	-10.5038
差又方	-10.5039
攝赴	-10.504
罪魂	-10.504
明師	-10.5043
急急如律令右	-10.5046
大丹	-10.5046
日精	-10.5051
西北方	-10.5052
升天	-10.5053
一吸	-10.5059
亦如	-10.5069
天剛	-10.5069
五體	-10.5072
牒請	-10.5075
符右	-10.5078
范	-10.5079
穆	-10.5081
湘	-10.5082
具狀	-10.5085
播	-10.5085
弦	-10.5087
磚	-10.5088
禱雨	-10.509
沼	-10.509
紫極	-10.5091
麾	-10.5091
僚	-10.5091
潰	-10.5092
亘	-10.5093
迍	-10.5095
終身	-10.5095
鈎	-10.5095
凉	-10.5096
狐	-10.5096
溥	-10.5096
籠	-10.5096
䑓	-10.5096
漂	-10.5097
縈	-10.5097
衘	-10.5098
甞	-10.5099
今來	-10.51
且如	-10.51
刋	-10.51
烹	-10.51
而不知	-10.5102
者多	-10.5102
風雲雷雨電	-10.5103
矢	-10.5103
虎狼	-10.5103
是何	-10.5105
公曰	-10.5109
修道	-10.5112
居之	-10.5123
復爐	-10.5128
六通	-10.5135
九宸	-10.5138
五穀	-10.5143
妙法	-10.5149
者爲	-10.5156
不解	-10.516
立壇	-10.516
苦酒	-10.5161
火府	-10.5162
速去	-10.5163
赤色	-10.517
寅卯	-10.5174
靜坐	-10.5176
謹封	-10.5181
而自	-10.5183
鬼門	-10.5185
數十	-10.519
東南方	-10.5193
六神	-10.5194
移文	-10.5196
八年	-10.5201
超生	-10.5204
都天大	-10.5205
天符	-10.5207
膠	-10.5211
暇	-10.5213
𢹂	-10.5214
萬事	-10.5214
坦	-10.5216
者不得	-10.5216
其功	-10.5217
仁義	-10.5217
塊	-10.5219
人天	-10.522
監齋	-10.5221
飛捷	-10.5221
皇夫人	-10.5223
葷	-10.5224
氐	-10.5227
餅	-10.5232
必須	-10.5233
孤魂	-10.5233
火速	-10.5234
考校	-10.5236
所犯	-10.5237
靈仙	-10.5237
黃帝	-10.5239
太上靈寳	-10.524
元景	-10.5243
聚形	-10.5243
頒降	-10.5246
七百年	-10.5247
策役	-10.5248
雲宫	-10.525
道塲	-10.5253
災厄	-10.5253
不測	-10.5257
星宫	-10.527
召龍	-10.5271
不審	-10.5274
洞清	-10.5277
登眞	-10.528
陰日	-10.528
衆魂	-10.5282
書一	-10.5294
在後	-10.5294
不自	-10.5298
太初	-10.5299
當時	-10.53
酆	-10.5302
急奉	-10.5304
四十二	-10.5305
在上	-10.5311
邵	-10.5312
昴	-10.5315
鬼道	-10.5316
水池	-10.5322
而入	-10.5326
神公	-10.5328
畢乃	-10.5334
三晨	-10.5336
見一	-10.5337
炷	-10.5338
丞	-10.5339
餐	-10.534
謾	-10.5341
觜	-10.5342
妬	-10.5342
黄老	-10.5343
遵奉	-10.5343
較	-10.5344
閱	-10.5344
經文	-10.5344
䧟	-10.5344
道也	-10.5345
無事	-10.5346
釜	-10.5347
長生不死	-10.5354
日宫	-10.5358
上士	-10.5359
明月	-10.5363
天罡大聖	-10.5366
太一眞君	-10.5367
要訣	-10.5371
疫癘	-10.5377
飛裙	-10.5378
服氣	-10.5388
普天	-10.5398
東北方	-10.5399
書畢	-10.5402
故也	-10.5403
下鬼	-10.541
福慶	-10.5412
其有	-10.5414
醮筵	-10.5414
自知	-10.5418
乗雲	-10.5421
生産	-10.5427
冥司	-10.5428
符圖	-10.543
有犯	-10.5432
死籍	-10.544
善男子	-10.5445
昭報	-10.5449
所用	-10.545
八難	-10.5454
衷	-10.5457
之愆	-10.5457
偈	-10.5458
䕃	-10.5459
頼	-10.5459
矧	-10.5461
檀	-10.5461
汪	-10.5462
驂	-10.5462
度人經	-10.5463
梯	-10.5463
飮	-10.5464
者處斬	-10.5465
拾	-10.5466
賓	-10.5466
殁	-10.5466
健	-10.5468
壬寅	-10.5468
郁	-10.547
咬	-10.547
下世	-10.5474
伺候	-10.5476
千年	-10.5477
則無	-10.5478
地下	-10.548
古法	-10.5482
廣大	-10.5483
九華	-10.5487
吽吽	-10.549
黑煞	-10.549
玉曆	-10.5492
三獻	-10.5492
章師曰	-10.5494
斗星	-10.55
八將	-10.55
不可不	-10.5501
周旋	-10.5502
專行	-10.5504
邪巫	-10.5508
國家	-10.5516
日直	-10.5522
豈能	-10.5525
降眞炁	-10.5527
兆民	-10.553
無名	-10.5532
天猷	-10.5532
雌	-10.5538
星帥	-10.5542
百八十	-10.5545
色之光	-10.5546
癘	-10.5554
其本	-10.5556
今以	-10.5558
小人	-10.5559
上品妙經	-10.556
玄真	-10.557
申牒	-10.5571
六十四	-10.5574
星光	-10.5574
丹靈	-10.5579
中品	-10.5581
簫	-10.5583
譽	-10.5583
彦	-10.5583
丕	-10.5585
平坐	-10.5586
眇	-10.5589
儉	-10.5589
訛	-10.559
𡖖	-10.5593
大明	-10.5594
光映	-10.5595
柯	-10.5595
縛鬼	-10.5595
㦸	-10.5596
掣	-10.5596
𠔃	-10.5597
勑煞攝	-10.5601
玉仙	-10.5601
脊	-10.5601
饒	-10.5602
太𡻕	-10.5605
衮	-10.5605
邵陽	-10.5608
難可	-10.5609
九品	-10.5609
十里	-10.5609
成形	-10.5609
哆	-10.561
滴	-10.561
之災	-10.561
三十九章	-10.561
掌握	-10.5611
蛟龍	-10.5612
火星	-10.5621
行移	-10.5621
後有	-10.5622
導引	-10.5622
和平	-10.5623
靈君	-10.5626
言曰	-10.5628
師眞	-10.5629
羅酆	-10.5629
諸方	-10.563
隱居	-10.5634
伏地	-10.5638
以次	-10.5639
之師	-10.564
貪狼	-10.5642
内文	-10.5646
書篆	-10.5648
自得	-10.5653
莫知	-10.5658
形體	-10.5659
妄傳	-10.566
兇惡	-10.5667
衝天	-10.5672
雲車	-10.5674
日月之	-10.568
有敕	-10.568
急降	-10.5685
之學	-10.5687
所部	-10.5687
不至	-10.569
黑霧	-10.5693
驅邪院	-10.5699
允中	-10.5701
師尊	-10.5703
追捉	-10.5703
十卷	-10.5704
威猛	-10.5706
魔精	-10.5711
三四	-10.5712
庫	-10.5716
優	-10.5716
吼	-10.5716
籟	-10.5719
祭祀	-10.572
薛	-10.5721
不順	-10.5722
怡	-10.5725
飄飄	-10.5726
之化	-10.5726
壇上	-10.5727
八千	-10.5727
數也	-10.5729
靈寳大法司牒上	-10.5729
釣	-10.5729
朝廷	-10.5729
萬聖	-10.5729
噓	-10.573
七曜	-10.5732
高上神霄	-10.5735
大劫	-10.5741
豈可	-10.5742
以其	-10.5744
牛馬	-10.5745
炁入符	-10.5747
日出	-10.5754
二十二	-10.576
眞道	-10.576
太霄	-10.5762
虛空	-10.5767
隂精	-10.5768
不安	-10.5775
而作	-10.578
神雷	-10.5781
者即	-10.5782
有二	-10.5785
君字	-10.579
星君天	-10.579
騰空	-10.5791
謹言	-10.5799
宫室	-10.5801
本宫	-10.5802
却以	-10.5808
相傳	-10.5812
十五日	-10.5812
只今	-10.5817
道力	-10.582
兩足	-10.5821
不負	-10.5822
頭建	-10.5827
罪咎	-10.5831
召之	-10.5831
火部	-10.5837
申聞	-10.5841
粹	-10.5842
價	-10.5842
採訪	-10.5843
圈	-10.5843
而傳	-10.5843
驕	-10.5844
至期	-10.5845
島	-10.5847
羲	-10.5847
結璘	-10.5847
濤	-10.5847
抗	-10.5847
玊	-10.5847
三轉	-10.5848
剖	-10.5849
請稱法位具位	-10.5849
俞	-10.5849
卵	-10.5851
三司	-10.5851
七色	-10.5851
瑕	-10.5851
僕射	-10.5852
萬年	-10.5852
話	-10.5852
匹	-10.5854
誘	-10.5855
上將	-10.5855
癡	-10.5856
段	-10.5856
𧇊	-10.5857
移徙	-10.5858
前驅	-10.5862
即爲	-10.5865
裹	-10.5865
愼勿	-10.5866
通名	-10.5868
恠異	-10.5871
晨夕	-10.5872
在内	-10.5875
中篇	-10.5875
白書	-10.5875
蕩除	-10.5876
灌注	-10.5879
所出	-10.5885
次以	-10.5894
土府	-10.5895
長三寸	-10.5898
東炁	-10.5901
無常	-10.5902
蕃	-10.5903
火龍	-10.5903
衆仙	-10.5905
吉利	-10.5906
知之	-10.5909
師友	-10.591
千二百	-10.5912
法主	-10.5914
諦	-10.5914
玉液	-10.5916
法職	-10.5917
治病功曹	-10.5919
金錢	-10.5925
七千	-10.5933
太丹	-10.5933
下至	-10.5934
劒訣	-10.5936
某身	-10.5938
流水	-10.5941
隂陽之	-10.5956
科法	-10.5957
九晨	-10.5959
元始上帝	-10.596
超昇	-10.5961
宫主	-10.5961
三華	-10.5963
謄	-10.5965
六根	-10.5966
浮雲	-10.5966
歘	-10.5974
髣髴	-10.5976
鷹	-10.5976
𫝊	-10.5977
孩	-10.5979
牘	-10.598
縫	-10.5981
燒鬼	-10.5981
綺	-10.5983
鵝	-10.5983
歆	-10.5983
飡	-10.5984
敦	-10.5984
若無	-10.5987
謹牒年月日牒牒	-10.5988
駐劄	-10.5988
湏	-10.5988
貴賤	-10.5989
霹	-10.599
絞	-10.599
釘	-10.5992
瘟疫	-10.5993
疾疾	-10.5994
長七寸	-10.5997
誅斬	-10.5997
喫	-10.5999
眞師	-10.6
閉塞	-10.6001
二十九	-10.6001
斗柄	-10.6006
湛然	-10.6006
牓	-10.6008
腹中	-10.6008
小兆	-10.6017
一方	-10.6019
財物	-10.6024
向北	-10.6024
重隂	-10.6024
生薑	-10.6026
降真	-10.6028
血食	-10.603
西方白	-10.6034
黒書	-10.6038
救苦天尊	-10.6041
神龍	-10.6042
闕下	-10.6045
南方赤	-10.6046
大風	-10.6047
運動	-10.6051
无英	-10.6056
投簡	-10.6058
巳午	-10.6058
幽䰟	-10.6068
二十六	-10.6072
眞宰	-10.6073
救治	-10.6077
敷奏	-10.6078
其實	-10.6079
莫能	-10.6082
雷帝	-10.6084
古之	-10.6091
傳言	-10.6094
臨目	-10.6094
頓服	-10.6097
未時	-10.6099
煞鬼	-10.61
紫皇	-10.61
矯	-10.6106
宫觀	-10.6107
者非	-10.6107
無上黄籙大齋	-10.6108
皁	-10.6109
道經	-10.6111
侣	-10.6111
蹈	-10.6112
苑	-10.6113
涼	-10.6113
丹霄	-10.6113
雷府	-10.6113
偷	-10.6114
龍雷	-10.6117
五方蠻雷	-10.6118
鑚	-10.612
而作是言	-10.6121
雷法	-10.6122
矣若	-10.6123
誇	-10.6123
玉室	-10.6124
猫	-10.6126
而起	-10.6126
太㣲	-10.6131
椒	-10.6132
歇	-10.6132
太上正一	-10.6142
先須	-10.6146
閃電	-10.6147
某州	-10.6149
不合	-10.6149
一下	-10.615
速召	-10.6152
則是	-10.6152
玉名	-10.6156
所召	-10.6159
除邪	-10.6163
平安	-10.6163
正中	-10.6166
不盡	-10.6167
火師	-10.6169
朝奏	-10.6175
掌獄靈官	-10.6177
一丸	-10.6178
一箇	-10.618
流傳	-10.6184
皓靈	-10.6186
僊官	-10.619
正音	-10.6197
仙矣	-10.6202
山水	-10.6202
凶惡	-10.6206
獄中	-10.6215
咽氣	-10.6219
修身	-10.6222
雲氣	-10.623
號爲	-10.623
凡遇	-10.6232
滄	-10.6232
袁	-10.6233
戌時	-10.6233
下土	-10.6235
即愈	-10.6237
竇	-10.6238
太始	-10.6238
莽	-10.624
大力天丁	-10.6241
紏	-10.6241
肘	-10.6242
擣	-10.6242
譯	-10.6243
合用	-10.6243
神變	-10.6244
迂	-10.6248
揖	-10.6248
裁	-10.6249
黄籙院	-10.6249
襟	-10.6251
鬼王	-10.6251
千萬丈	-10.6254
皎	-10.6258
縮	-10.626
勑符呪	-10.626
玉樓	-10.6261
緑靴	-10.6264
雷司	-10.6267
先天一炁	-10.627
保安	-10.6275
冬三月	-10.6276
故以	-10.6276
雲霞	-10.6277
長九寸	-10.6277
常當	-10.6279
有形	-10.6279
將兵	-10.628
小豆	-10.6285
疊書	-10.6294
天目	-10.6294
羅天	-10.6299
乗空	-10.6299
金銀	-10.6309
福德	-10.631
法界	-10.6313
南方赤帝	-10.632
凡受	-10.6321
傷人	-10.633
所載	-10.6336
如違	-10.6336
符到	-10.6336
群仙	-10.6338
三省	-10.6339
散壇	-10.634
吾道	-10.6344
火令	-10.6348
飛神	-10.6352
月光	-10.6352
符誥	-10.6353
中皇	-10.6353
回向	-10.6353
雷將	-10.6356
相生	-10.636
五雷使者	-10.6363
特與	-10.6368
窟	-10.6371
女青	-10.6376
敕召	-10.6377
癰	-10.6379
其名	-10.6381
簪	-10.6381
霓	-10.6382
鼔	-10.6384
昆	-10.6385
擔	-10.6387
星火奉行	-10.6388
鉢	-10.6389
核	-10.639
汙	-10.6393
決	-10.6393
斬滅	-10.6395
义	-10.6396
違者	-10.6397
内諱	-10.6399
鬱鬱	-10.6399
此皆	-10.6399
一片	-10.6399
匕	-10.64
帝晨	-10.64
叩齒七通	-10.6401
舌拄上腭	-10.6402
當日	-10.6402
南北	-10.6408
煥爛	-10.6409
相應	-10.6409
滅度	-10.641
營衛	-10.641
神真	-10.6414
之首	-10.6417
侍經	-10.642
五常	-10.6424
猛獸	-10.6424
畢引	-10.6427
五岳	-10.6428
並與	-10.6432
安樂	-10.6432
九醜	-10.6435
慎勿	-10.6439
制伏	-10.6442
純陽	-10.6444
自身	-10.6444
丹臺	-10.6444
不食	-10.6445
令得	-10.6446
即以	-10.6446
金闕帝君	-10.6448
收捕	-10.645
伏念	-10.6452
一面	-10.6453
同學	-10.6454
調和	-10.6456
考官	-10.6463
靡不	-10.6467
爲主	-10.6471
凡夫	-10.6471
法門	-10.6472
本將	-10.6479
狀申	-10.6479
二斗	-10.6482
助吾	-10.6485
不肯	-10.6489
開張	-10.6493
人多	-10.6494
護命	-10.65
面北	-10.6509
玄雲	-10.6511
所指	-10.6512
是名	-10.6512
靈驗	-10.6514
杳	-10.6514
道家	-10.6515
翰	-10.6517
便宜	-10.6518
眞皇	-10.6518
閭	-10.6524
欵	-10.6524
郞	-10.6525
用黄紙	-10.6526
謡	-10.6526
洎	-10.6527
符到奉行	-10.6527
而言	-10.6527
至聖	-10.6527
攅	-10.6527
叟	-10.6528
風伯雨師	-10.6529
娑	-10.6529
蝕	-10.6532
木郞	-10.6533
滛	-10.6534
梨	-10.6534
君一人官將一百二十人治	-10.6534
下民	-10.6537
忠孝	-10.6537
脇	-10.6537
𩲃	-10.6538
輕慢	-10.6545
十過	-10.6546
幽爽	-10.6549
特降	-10.6549
掾吏	-10.6554
羣魔	-10.6554
喝云	-10.6555
欲得	-10.6563
幽夜	-10.6565
祝畢	-10.6566
證明	-10.6568
公訟	-10.6575
下情不勝	-10.6576
壬子	-10.6576
内音	-10.6576
俯垂	-10.6581
伐惡	-10.6581
太霞	-10.6583
二將	-10.6588
謝罪	-10.6589
靜夜	-10.66
終始	-10.6602
内觀	-10.6613
髙仙	-10.6614
天靈	-10.6614
燒之	-10.6616
師子	-10.6617
照臨	-10.6626
亡靈	-10.6627
丹霞	-10.6627
其色	-10.6634
永不	-10.6639
仍乞	-10.6643
鬼精	-10.6643
流星	-10.665
陰炁	-10.665
吸入	-10.6651
不可得	-10.6651
運化	-10.6653
隱隱	-10.6657
濟物	-10.6662
墟	-10.6663
辜	-10.6664
措	-10.6665
凋	-10.6666
太微天帝君	-10.6667
吊	-10.6667
乍	-10.6667
麄	-10.6668
恍	-10.6674
俠	-10.6674
戊辰	-10.6674
啖	-10.6675
僃	-10.6677
入口	-10.6679
祈禳	-10.6679
無私	-10.6681
津液	-10.6683
紫㣲	-10.6685
疼	-10.6686
故炁	-10.6686
削除	-10.6689
玄珠	-10.6692
星中	-10.6693
鬱儀	-10.6699
玄宫	-10.6702
服藥	-10.6708
大豆	-10.6712
上御	-10.6719
之力	-10.6721
九尺	-10.6722
爍	-10.6722
丹誠	-10.6732
香上	-10.6732
若非	-10.6733
虚書	-10.6741
成官事	-10.6741
蕩穢	-10.6742
都統	-10.6747
五升	-10.6749
齋醮	-10.6756
九竅	-10.6761
二尺	-10.6764
列宿	-10.6771
飛華	-10.678
青色	-10.6783
禾	-10.6791
萬仙	-10.6792
太守	-10.6795
謹重誠上啓	-10.6802
軸	-10.6802
寔	-10.6804
巽宫	-10.6804
白紙	-10.6804
顛	-10.6809
使者符	-10.6809
挹	-10.681
屑	-10.6811
渠	-10.6811
列位	-10.6812
裝	-10.6813
戍	-10.6813
十萬	-10.6816
不可思議	-10.6816
七百	-10.6816
大洞眞經	-10.6818
面目	-10.6818
虛皇	-10.682
其言	-10.682
瞬	-10.6821
授之	-10.6822
嚤	-10.6824
歷代	-10.6824
九老	-10.6824
圈内	-10.6824
仙卿	-10.6825
䰢	-10.6826
胞胎	-10.6828
首謝	-10.6829
央	-10.683
仗劔	-10.683
黄道	-10.6833
從官十四人	-10.6833
流入	-10.6837
二曰	-10.6838
江州	-10.6839
爲國	-10.6839
洞經	-10.6843
寅時	-10.6844
玉書	-10.6845
不孝	-10.6852
噀水	-10.6855
十五人	-10.6856
丙子	-10.6859
面東	-10.6862
凡修	-10.6862
法輪	-10.6864
五兩	-10.6867
而能	-10.6869
不違	-10.6869
斗罡	-10.6872
之性	-10.6873
監度	-10.6874
赤文	-10.6878
宣詞	-10.6879
罪愆	-10.6879
受者	-10.6884
紫元	-10.6887
之綬	-10.6893
酉時	-10.6894
神霄玉清	-10.6894
姓某狀	-10.6895
福堂	-10.6897
仙王	-10.6899
有情	-10.69
作禮	-10.6906
所薦亡	-10.6909
太靈	-10.6912
違科	-10.6913
運轉	-10.6917
祖宗	-10.6918
玉真	-10.692
無由	-10.6925
文牒	-10.6929
黄色	-10.6929
又方治	-10.6931
奉道某	-10.6932
明鏡	-10.6935
患家	-10.6937
我形	-10.6941
后土	-10.6943
案判官地府管	-10.6944
靈童	-10.6945
蔡	-10.6945
圃	-10.6945
閬	-10.6945
勳	-10.6946
章從事	-10.6947
金火天丁	-10.6948
豪	-10.6949
慚	-10.695
村	-10.695
滓	-10.695
蹇	-10.695
聊	-10.6952
又呪	-10.6952
抜	-10.6952
之君	-10.6952
討	-10.6952
荀	-10.6957
丁丑	-10.6958
之訣	-10.696
諸行法官	-10.6961
壬辰	-10.6963
十枚	-10.6963
無極大道	-10.6964
巴	-10.6964
於前	-10.6964
宗㫖曰	-10.6964
撚	-10.6964
主雷	-10.6967
淋	-10.6968
在地	-10.6968
睛	-10.6968
北辰	-10.6969
祭之	-10.6969
五臓	-10.697
勾陳	-10.6971
昭示	-10.6974
高明	-10.6979
真道	-10.698
春秋	-10.6985
雷光	-10.6986
天庭	-10.699
恭望	-10.6991
四生	-10.6991
香煙	-10.6992
水盂	-10.6993
無量度人	-10.6997
符牒	-10.7003
通用	-10.7003
等事	-10.7006
門人	-10.7008
相見	-10.7008
臣謹	-10.7009
雷使者	-10.7012
主將	-10.7021
太子	-10.7022
求之	-10.7026
不伏	-10.7027
金房	-10.703
至妙	-10.7032
執符	-10.7034
正直	-10.704
次思	-10.7041
自新	-10.7043
押赴	-10.7046
降雨	-10.7049
急準	-10.7059
追取	-10.7062
攝唵	-10.7062
長春	-10.7064
皇老	-10.7073
禳災	-10.7085
之號	-10.7091
三朝	-10.7095
啓白	-10.7095
閼伯	-10.7097
獵	-10.7097
齋修	-10.7099
伏藏	-10.71
捧香驛龍騎吏侍香金童傳言散花	-10.7101
丙午	-10.7101
饌	-10.7102
道徳真經	-10.7102
謹具狀上申	-10.7104
熒	-10.7104
无極大道	-10.7106
瀉	-10.7107
又何	-10.7107
變爲	-10.7108
嚧	-10.7108
舘	-10.7109
邇	-10.7109
擅	-10.711
污	-10.7111
三時	-10.7111
玄牝	-10.7112
不堪	-10.7112
有司	-10.7114
光耀	-10.7116
精邪	-10.7116
玄微	-10.7118
劔訣	-10.712
可見	-10.7123
巴豆	-10.7124
火池	-10.7128
辰時	-10.7128
二氣	-10.7129
威德	-10.7132
信香	-10.7134
天經	-10.714
瓊宫	-10.7141
昇仙	-10.7143
非有	-10.7152
無他	-10.7154
若欲	-10.7158
三業	-10.7162
官君將吏	-10.7165
運雷	-10.7166
清都	-10.7167
官將吏兵	-10.7172
真師	-10.7172
未免	-10.7173
念念	-10.7175
轉經	-10.7178
靈風	-10.7181
䰟𩲸	-10.7182
二十四炁	-10.7182
開壇	-10.7183
中國	-10.7183
人知	-10.7188
武帝	-10.7193
速爲	-10.7198
三十日	-10.7206
一竅	-10.7206
玉寳	-10.7207
可乎	-10.721
華山	-10.721
形影	-10.7212
本家	-10.7213
末學	-10.7214
行年	-10.7215
曹局	-10.7224
髙聖	-10.7228
攝捉	-10.7229
洞觀	-10.7232
大使	-10.7234
有異	-10.7237
守之	-10.7238
啞	-10.7241
玄機	-10.7242
人情	-10.7243
擢	-10.7244
謹奉請	-10.7246
系	-10.7247
至理	-10.7247
拜表	-10.7247
杓	-10.7248
勲	-10.7248
沉淪	-10.7249
宇宙	-10.725
橘	-10.725
趙公明	-10.7251
遨	-10.7251
僻	-10.7251
粮	-10.7252
鑊湯	-10.7253
溟泠	-10.7254
叢	-10.7254
旱魃	-10.7256
麥	-10.7256
酷	-10.7256
澡	-10.7257
艾	-10.7258
元父	-10.7258
也然	-10.726
呪書	-10.7261
朋	-10.7262
青天	-10.7265
八㑹	-10.727
地軸	-10.7274
景雲	-10.7281
坎宫	-10.7283
於内	-10.7293
清炁	-10.7294
戊子	-10.7294
帝君律令	-10.7299
隱文	-10.73
自當	-10.7307
傷寒	-10.7307
當令	-10.7309
筆書之	-10.731
香湯	-10.731
歸依	-10.7311
之餘	-10.7312
經典	-10.7317
无不	-10.7317
圓成	-10.7317
隨其	-10.7319
卿從官十	-10.732
諸鬼	-10.7321
江海	-10.7321
公文	-10.7324
未見	-10.7326
太歲年月日	-10.7328
地仙	-10.7333
庚子	-10.7335
内景	-10.7337
右呪畢	-10.7345
五色雲	-10.735
立教	-10.735
科儀	-10.7351
亥時	-10.7356
幽靈	-10.7357
正氣	-10.7359
刻書	-10.7359
神霄玉清眞王	-10.7364
九天採訪	-10.7364
如左	-10.7367
餓	-10.7368
刀山	-10.7368
應有	-10.737
羣仙	-10.7371
受煉	-10.7372
直至	-10.7373
混化	-10.7374
速行	-10.7376
非道	-10.7378
夫婦	-10.7381
干犯	-10.7381
師曰凡	-10.7381
▲▲▲	-10.7382
先生曰	-10.7382
殆	-10.7387
蛟	-10.7387
善人	-10.7388
糞	-10.739
涵	-10.7391
師傳	-10.7392
豹	-10.7392
戚	-10.7393
狀如	-10.7394
須要	-10.7395
騁	-10.7395
揆	-10.7395
謹當宣	-10.7396
霸	-10.7396
仙傳拾遺	-10.7397
六日	-10.7397
洞天福地	-10.7397
顛倒	-10.7398
韋	-10.7398
叛	-10.7399
思之還反真形	-10.74
與道合真	-10.7401
瘥	-10.7406
慘	-10.7407
齋官某	-10.7407
亮	-10.7407
逓	-10.7407
撒	-10.7407
肌	-10.7407
戯	-10.7407
太上無極大道	-10.7408
青黄白	-10.7409
輔佐	-10.7415
髙上玉皇	-10.7419
撞	-10.742
丁酉	-10.7422
變成	-10.7424
者處斬諸	-10.7425
玉芝	-10.7427
興隆	-10.7427
殺害	-10.7428
四分	-10.7429
朱宫	-10.7431
威力	-10.7432
也蓋	-10.7435
扶持	-10.7439
金輪	-10.7441
垂慈	-10.7444
真宰	-10.7446
飛火	-10.7453
玄光	-10.7464
三十六部	-10.7464
法曰	-10.7466
救護	-10.7467
但以	-10.7469
列聖	-10.7472
鷄子	-10.7478
所言	-10.7481
激切	-10.7486
所主	-10.7486
玄元始	-10.7488
華陽	-10.7488
主管	-10.7489
壇下	-10.7493
通真	-10.7502
離合	-10.7504
侍香	-10.7509
永離	-10.751
節度	-10.7514
升度	-10.7516
沉滯	-10.7518
抵	-10.7526
持戒	-10.7527
登仙	-10.7529
來生	-10.753
之命	-10.7533
之職	-10.7535
曹治	-10.7535
聖意	-10.7535
萬眞	-10.7537
之格	-10.7539
攸	-10.7539
穩	-10.754
雷車	-10.7543
各還	-10.7543
咸令	-10.7544
君將吏	-10.7545
貸	-10.7545
誠惶誠恐稽首頓首再拜	-10.7545
虬	-10.7546
姻	-10.7547
濡	-10.7549
萬神咸聽	-10.7549
庇	-10.7551
清濁	-10.7553
忽有	-10.7553
啓請	-10.7554
背書	-10.7555
刊	-10.7555
藝	-10.7556
泊	-10.7556
呪訣	-10.7557
輸	-10.7557
合明	-10.7559
舎	-10.7559
順行	-10.756
炬	-10.756
模	-10.756
黄籙大齋	-10.7562
膿	-10.7562
一合來下	-10.7562
有令	-10.7563
某郡縣郷里	-10.7565
秋三月	-10.7565
一合下降	-10.7568
上相青童君	-10.7569
三陽	-10.757
紅袍	-10.7571
五老上帝	-10.7573
石室	-10.7576
教化	-10.7578
堅固	-10.7579
嗣教	-10.7584
謹以	-10.7589
消灾	-10.759
猛烈	-10.7591
衛靈	-10.7592
照明	-10.7599
眞科	-10.7599
狀式	-10.7604
四溟	-10.7606
修習	-10.7608
必先	-10.761
不寧	-10.7611
差降	-10.7618
斗府	-10.7619
流通	-10.762
以酒	-10.7622
玉臺	-10.7629
即使	-10.7633
仙籍	-10.7638
頒下	-10.7639
得神仙	-10.7646
黑書	-10.7648
无有	-10.7649
經註	-10.765
泥丸宫	-10.7651
無英	-10.7651
君諱	-10.7651
第四十	-10.7652
太歳年月日	-10.7653
香燈	-10.7653
或曰	-10.7657
電母	-10.7657
此等	-10.7661
佩服	-10.7662
解結	-10.7662
無停	-10.767
一應	-10.7673
馘魔	-10.7674
學人	-10.7677
鬼妖	-10.7678
急急如律令符召	-10.7679
乞降	-10.768
玄臺	-10.7688
億萬衆	-10.7691
萬億	-10.7691
西方白帝	-10.7695
滿散	-10.7696
中和	-10.7696
信香符	-10.7697
四年	-10.7697
恩光	-10.7698
俊	-10.7699
遜	-10.7701
熖	-10.7704
薫	-10.7705
積功	-10.7705
務在	-10.7706
沓	-10.7706
佩身	-10.7706
贊	-10.7707
汚	-10.7707
藻	-10.7707
鈔	-10.7708
纖	-10.7708
準此	-10.7709
躋	-10.771
鳩	-10.771
叶	-10.7711
躁	-10.7712
蒲	-10.7713
十戒	-10.7713
掘	-10.7714
溟涬	-10.7714
蓊	-10.7715
償	-10.7715
諾	-10.7715
萬病	-10.7715
之魂	-10.7715
柏	-10.7716
竿	-10.7717
券	-10.7717
城隍里社	-10.7718
線	-10.7719
葱	-10.772
死亡	-10.772
藏之	-10.7721
覓	-10.7722
陷	-10.7723
庶幾	-10.7728
定志	-10.7731
雌雄	-10.7733
洪恩	-10.7733
厄大聖北斗七元君能解	-10.7733
二道	-10.7737
爲善	-10.7737
徒勞	-10.774
三曰	-10.7746
内視	-10.7747
群魔	-10.7748
戒律	-10.7751
正令	-10.7753
大赤天	-10.7754
煞伐	-10.7758
月建	-10.7758
玉清眞王	-10.7759
飛行上清	-10.7761
急攝	-10.7761
紫氣	-10.7762
玄老	-10.7763
特爲	-10.7763
之澤	-10.7763
玉郎	-10.7765
右目	-10.7768
二星	-10.7769
玄章	-10.7772
太極真人	-10.7773
金容	-10.7776
奉迎	-10.7778
數日	-10.779
使其	-10.7797
紫煙	-10.78
臍下	-10.7801
請福	-10.7802
以為	-10.7805
青城	-10.7805
香官	-10.7821
九人	-10.7822
鼻中	-10.7823
敕令	-10.7826
焚修	-10.7831
仰惟	-10.7838
故有	-10.7841
合道	-10.7848
大化	-10.7853
靜定	-10.7855
郷里	-10.7857
數百	-10.7858
開關	-10.7859
不差	-10.7861
經籙	-10.7861
字號計七卷	-10.7861
岡	-10.7865
蕆	-10.7866
傑	-10.7867
桓	-10.7867
璣	-10.7867
蠟	-10.7867
逞	-10.7867
宸廷	-10.7869
潭洞	-10.7869
霈	-10.787
五指	-10.787
涓	-10.7871
挾	-10.7871
未敢自專	-10.7872
緑軿	-10.7872
聳	-10.7872
𥝠	-10.7873
掇	-10.7875
▲▲	-10.7875
戊戌	-10.7875
蘆	-10.7877
填	-10.7878
呌	-10.788
烜赫	-10.7883
速赴	-10.7886
癸亥	-10.7886
跣足	-10.7888
以示	-10.7888
祭鍊	-10.7888
黄籙齋	-10.7888
郷貫	-10.7892
乾元	-10.7898
靈旛	-10.7904
月十五日	-10.7905
足下	-10.7906
九天生神	-10.7906
遵承	-10.7906
冥曹	-10.7908
行司	-10.7911
靈音	-10.7912
坐卧	-10.7917
黑面	-10.7917
功徳	-10.7918
抱一	-10.792
發爐	-10.7921
師資	-10.7922
帝眞	-10.7924
骨節	-10.793
保護	-10.793
元和	-10.7931
轟雷	-10.7933
三將軍	-10.7935
駕龍	-10.7938
速降臨	-10.7943
消亡	-10.7946
訣曰	-10.7947
永無	-10.7949
藏於	-10.7949
大乘	-10.795
毒龍	-10.795
盟誓	-10.795
幽獄	-10.7957
五尺	-10.7957
衣食	-10.7962
字子	-10.7962
召靈	-10.7963
經教	-10.7965
乙丑	-10.797
精炁	-10.7971
變景	-10.7987
仙吏	-10.7988
所陳	-10.7995
功滿	-10.7998
不免	-10.7999
嚩	-10.8008
南炁	-10.8013
内院	-10.8015
將佐	-10.8016
附身	-10.8017
水部	-10.8018
譚	-10.802
章文	-10.8022
葩	-10.8023
仞	-10.8026
附方	-10.8028
一轉	-10.8029
恕	-10.8029
矣其	-10.8031
潮	-10.8031
詰	-10.8033
泓	-10.8033
漁	-10.8034
三十萬兵	-10.8035
貟	-10.8036
燄	-10.8036
耆	-10.8037
粥	-10.8039
六丁六甲	-10.8039
魑	-10.8042
一半	-10.8043
懈	-10.8043
保奏	-10.8045
扶桑大帝	-10.8047
禱祈	-10.8049
戊癸	-10.8057
件	-10.8058
玄化	-10.806
海嶽	-10.8064
乞賜	-10.8068
節次	-10.8071
妄想	-10.8073
案上	-10.8073
黑帝	-10.8074
寳誥	-10.8077
利益	-10.8096
右符用	-10.8098
運行	-10.8099
具位臣姓某	-10.8099
慶雲	-10.8104
入室燒香	-10.8104
奏章	-10.8106
起居	-10.8107
玉精	-10.8107
希恩	-10.8112
通逹	-10.8116
同志	-10.8117
罡炁	-10.8118
去皮	-10.8119
微呪曰	-10.8124
都官	-10.8125
流珠	-10.8126
亦非	-10.8128
雲路	-10.813
患身	-10.8133
位爲	-10.8136
以兩手	-10.8141
救民	-10.8149
秋分	-10.815
始終	-10.8156
本境	-10.8159
神州	-10.8161
十分	-10.8164
掐辰文	-10.8168
千日	-10.8169
說戒	-10.817
罪根	-10.8173
復歸	-10.8176
生萬物	-10.8177
道祖	-10.8179
聰	-10.8181
進拜	-10.8181
搆	-10.8185
上帝律令	-10.8185
峙	-10.8188
南昌上宫	-10.819
𥿄	-10.8193
躔	-10.8193
具法位臣姓某	-10.8194
須至申聞者右謹具狀申	-10.8195
嫌	-10.8197
峨	-10.8198
速達	-10.8198
儔	-10.8198
尉	-10.8199
紫虚元君	-10.8199
腴	-10.82
圓明	-10.8201
昩	-10.8201
誅伐	-10.8204
痢	-10.8206
當司	-10.8208
壅	-10.821
𩵄	-10.821
圍繞	-10.821
尊卑	-10.8211
邪源	-10.8212
凢	-10.8213
唇	-10.8214
肘後	-10.8216
春三月	-10.8219
子午斗	-10.8221
給付	-10.8223
普告三界	-10.8229
監察	-10.8229
真氣	-10.8233
山精	-10.8234
酆都山	-10.8239
塵勞	-10.8239
九天丈人	-10.824
恭惟	-10.8243
走失	-10.8245
沖和	-10.8248
正心	-10.8248
其家	-10.825
歷劫	-10.8252
聽吾	-10.8253
遍滿	-10.8256
未可	-10.8257
福禄	-10.8261
三禮	-10.8261
制御	-10.8264
髙尊	-10.8271
利濟	-10.8271
北都	-10.8271
不可得而	-10.8272
邪師	-10.8275
本方	-10.8281
丁壬	-10.8282
炎火	-10.8284
雷威	-10.8289
即差	-10.829
明燈	-10.8292
對齋	-10.8305
立秋	-10.8313
主火	-10.8318
雷門	-10.8326
牒至	-10.8326
北帝曰	-10.8327
不畏	-10.8339
織	-10.8345
殄	-10.8348
埃	-10.8349
帝皇	-10.8351
燈燭	-10.8354
太乙救苦天尊	-10.8355
躭	-10.8357
裴	-10.836
驟	-10.8361
千金	-10.8362
顓	-10.8362
空三行	-10.8362
浹	-10.8363
茫	-10.8363
協	-10.8365
坊	-10.8366
天尊告曰	-10.8367
四極明科	-10.8367
癸丑	-10.8369
嫉	-10.837
徊	-10.837
思存	-10.837
各三十二人	-10.8372
喘	-10.8373
粘	-10.8374
緋衣	-10.8374
闘	-10.8375
聻	-10.8376
十二河源	-10.8377
肚	-10.8377
皂袍	-10.8378
搗篩	-10.8378
呼風	-10.8379
開目	-10.838
日鬼名	-10.838
聰明	-10.8383
殿下	-10.8389
壇庭	-10.8391
恭敬	-10.8391
洞微	-10.8393
成功	-10.8398
浩劫	-10.8399
惶懼	-10.8405
平等	-10.8405
早朝	-10.8409
黃籙	-10.8411
官事	-10.8414
己身	-10.8415
香官使者左右龍虎君侍香諸靈官當令	-10.8417
氣君召	-10.8418
年命	-10.8425
受書	-10.8427
皂衣	-10.8429
廷	-10.8432
天尊說	-10.8438
未應	-10.8443
誓願	-10.8446
恭準	-10.8447
鬼魔	-10.8447
千眞	-10.8448
馘滅	-10.8456
教門	-10.8457
三指	-10.8457
紫虛	-10.8464
都功	-10.8465
高下	-10.8465
救人	-10.8475
如上法	-10.8476
亦然	-10.8484
謁見	-10.8486
月日時	-10.8487
四將	-10.8487
淨明	-10.8488
也又曰	-10.8489
司録	-10.8497
百事	-10.8502
畢次	-10.8507
通幽	-10.8509
玄景	-10.8512
孛	-10.8512
字號計六卷	-10.8515
各五	-10.8515
字號計十二卷	-10.8519
謹依	-10.8521
齋科	-10.8521
再三	-10.8524
蟻	-10.8525
嚮	-10.8525
衆靈	-10.8527
寰	-10.8528
行道之所自然生金液丹碧芝	-10.8528
䙱	-10.8529
曇	-10.8529
頰	-10.8529
相對	-10.8531
扉	-10.8532
心印	-10.8532
料	-10.8533
昨據	-10.8534
都講舉	-10.8535
辤	-10.8536
綉	-10.8536
迦	-10.8536
藥物	-10.8536
繪	-10.8536
一盞	-10.8537
頽	-10.8538
䢖	-10.8538
叩齒二十四通	-10.8538
倐	-10.8538
六甲六丁	-10.8538
㖿	-10.8539
敕下	-10.8539
禱祀	-10.8539
罕	-10.854
一卷有符	-10.8542
庚寅	-10.8542
謹謹	-10.8543
煥明	-10.8543
太无	-10.8546
畢即	-10.8547
喚	-10.8548
叫	-10.8549
又方取	-10.855
雖然	-10.8553
衛我	-10.8555
齎持	-10.8557
噠	-10.856
不仁	-10.856
請問	-10.8563
二使者	-10.8568
願垂	-10.8568
樹木	-10.8574
澄清	-10.8574
長短	-10.8577
蒙恩	-10.8578
五芽	-10.8579
上件	-10.8579
修鍊	-10.8583
勿以	-10.8586
九夜	-10.8586
四門	-10.8592
種民	-10.8593
轟天	-10.8593
顔色	-10.8593
殊不知	-10.8594
小吏	-10.8599
招眞	-10.8602
各執	-10.861
張使者	-10.8613
訣取	-10.8617
領仙	-10.8619
大雨	-10.862
萬氣	-10.862
守衛	-10.8628
八風	-10.8628
光童子	-10.8634
本師	-10.8636
諦聽	-10.8639
横天	-10.8639
丁未	-10.8644
无形	-10.8644
好事	-10.8645
一句	-10.8647
祕要	-10.8647
五方五帝	-10.8649
味甘	-10.8653
相逢	-10.8658
文移	-10.8666
本命日	-10.8667
運度	-10.8669
中有一	-10.867
二象	-10.8672
各一兩	-10.8685
廣度	-10.8687
十二願	-10.869
誣	-10.869
黄房	-10.8694
娥	-10.8695
丁亥	-10.8697
菴	-10.8699
椿	-10.8699
猿	-10.8699
鄷	-10.8699
殺人	-10.87
胥	-10.8701
佞	-10.8701
天地水三官	-10.8701
劃	-10.8702
神明君姓	-10.8703
二帥	-10.8703
存焉	-10.8703
凍	-10.8703
篩	-10.8704
干冒聖威	-10.8704
行道法事陞壇如式	-10.8704
干冒天威	-10.8705
兌	-10.8705
腐	-10.8708
金木水火土	-10.8708
此則反	-10.8708
稀	-10.8709
天界	-10.8709
顫	-10.8709
轉輪	-10.8711
本來	-10.8712
隊	-10.8713
誑	-10.8713
二十四神	-10.8714
得失	-10.8714
些	-10.8715
刀圭	-10.8715
人倫	-10.8716
目光	-10.8716
盪	-10.8717
讚	-10.872
都講	-10.8722
鼓舞	-10.8722
萬劫不原	-10.8722
降魔	-10.8723
混合百神	-10.8723
萬歲	-10.8725
碧霞	-10.8731
自古	-10.8732
者斬	-10.8734
庚午	-10.8735
丞相	-10.8736
謀望	-10.8737
不假	-10.8738
燥火	-10.874
未盡	-10.8742
如此則	-10.8743
存身爲	-10.8746
道德天尊	-10.8747
黑暗	-10.8751
神霄眞王	-10.8752
六星	-10.8754
先當	-10.8756
男女生	-10.8757
申酉	-10.8759
投誠	-10.876
日夜半	-10.8762
凡欲	-10.877
五湖	-10.8773
九百	-10.8773
必獲	-10.8776
聖㫖	-10.878
千妖	-10.8781
事竟	-10.8784
有災	-10.8785
投於	-10.8786
投龍	-10.8788
斗一座	-10.879
直符使者	-10.8795
終日	-10.8799
取罡炁	-10.8801
赤衣	-10.8803
衣青	-10.8803
十六字	-10.8805
答云	-10.8807
解散	-10.8808
入我	-10.881
奏請	-10.8817
散景	-10.8826
一階	-10.8827
欻	-10.8827
皇極	-10.8829
善果	-10.8831
右腎	-10.8833
三元君	-10.8837
十遍	-10.8841
家門	-10.8846
當院	-10.8847
秋冬	-10.8848
密念	-10.8848
災殃	-10.885
道徳	-10.8858
對曰	-10.8861
祈福	-10.8861
洞景	-10.8865
中指中	-10.887
嘔	-10.887
總攝	-10.887
茭	-10.8872
忝	-10.8872
蜂	-10.8872
七月七日	-10.8874
腋	-10.8874
無數	-10.8875
猖	-10.8876
綸	-10.8877
樵	-10.8877
大悲	-10.8877
遼	-10.8878
相隨	-10.8878
不可思議功德	-10.8878
黍米	-10.8879
弃	-10.8879
傲	-10.8879
升入	-10.888
荅	-10.8881
遯	-10.8881
交媾	-10.8882
棒	-10.8882
道門	-10.8882
科車赤符吏	-10.8883
援	-10.8883
長生久視	-10.8884
丙寅	-10.8884
揭	-10.8885
倣	-10.8885
摶	-10.8886
宗親	-10.8888
山澤	-10.8888
你	-10.8889
直齋功曹百二十人出	-10.889
三千六百	-10.8893
枯骨	-10.8894
長一尺二寸	-10.8894
幽隂	-10.8901
唤	-10.8904
封皮	-10.8905
請頒	-10.8905
桃康	-10.8906
臣今	-10.8906
中央黄帝	-10.8907
奏啓	-10.8911
一函	-10.8914
髙玄	-10.8914
鬼兵	-10.8915
西嶽	-10.8915
上逹	-10.8918
進奏	-10.8923
以舌	-10.8923
赦罪	-10.8924
風霆	-10.8925
依律	-10.8932
宣揚	-10.8935
百千萬	-10.8936
邪祟	-10.8937
答言	-10.8941
小便	-10.8944
威震	-10.8948
我等	-10.8952
猛火	-10.8953
今年	-10.8955
雷霹靂	-10.8955
野道	-10.8957
速速	-10.8958
飛輿	-10.8958
顯幽	-10.8959
青繒	-10.8959
閃	-10.8966
泉源	-10.8966
壽命	-10.8967
差將	-10.8968
大道君	-10.8968
劫運	-10.8968
遵行	-10.8974
何必	-10.8977
玉童玉女各	-10.8978
無象	-10.8979
召雷神	-10.8979
狀奏	-10.8979
謹牒	-10.8982
十八日	-10.8985
靈臺	-10.8993
見聞	-10.8999
隱諱	-10.9003
輔弼	-10.9003
吉祥	-10.9006
梵行	-10.9011
要在	-10.9019
會合	-10.9023
詩曰	-10.9024
十二萬人	-10.9024
精勤	-10.9025
立應	-10.9029
亦能	-10.9033
年月日時告下	-10.9034
于前	-10.9035
太一帝君	-10.9038
九孔	-10.9039
僉	-10.9042
妙訣	-10.9044
說法	-10.9048
飛霞	-10.9049
奢	-10.9049
呪三遍	-10.9049
文檄	-10.905
滅鬼	-10.9053
暨	-10.9054
潛	-10.9055
玉陛	-10.9055
飛龍騎吏	-10.9055
原宥	-10.9057
哲	-10.9058
朕	-10.9059
鬰	-10.9059
嘿	-10.906
颺	-10.906
銖	-10.9061
丹皇	-10.9062
謹牒年月日牒	-10.9062
皷	-10.9062
懇禱	-10.9062
道德真經	-10.9063
糺	-10.9063
辟除	-10.9063
芙蓉	-10.9063
番	-10.9064
邪正	-10.9065
輔星	-10.9066
四轉	-10.9068
蟄	-10.9068
玉格	-10.9068
如嬰兒	-10.907
狹	-10.907
珏	-10.9074
脯	-10.9074
芥	-10.9075
嵩山	-10.9076
上古	-10.9077
劍訣	-10.9078
柴	-10.9079
卷一之四	-10.908
勑令	-10.9081
祈雪	-10.9081
特賜聖㫖	-10.9088
印文	-10.9092
動則	-10.9093
妖孽	-10.9099
七十五	-10.9106
茅山	-10.9108
萬𩔖	-10.9109
其理	-10.911
七變	-10.9112
立獄	-10.9116
詔命	-10.9122
星星君	-10.9122
瓊林	-10.9123
伏尸	-10.9133
福田	-10.9139
日三服	-10.9144
寂然	-10.9144
一粒	-10.9147
西南方	-10.9148
符吏天	-10.9149
精怪	-10.9149
應運	-10.915
玄樞	-10.9152
將帥	-10.9153
啓壇	-10.9154
所欲	-10.9157
出乎	-10.916
爲下鬼	-10.9171
父子	-10.9172
泰清	-10.9179
一員	-10.9187
保仙	-10.9188
三帥	-10.9195
敕符呪	-10.9196
三呼	-10.9197
恩命	-10.92
除巳	-10.9204
雷城	-10.9206
清静	-10.9208
千餘	-10.9211
興雷	-10.9217
鴉	-10.9222
震宫	-10.9223
甲子日	-10.9225
告齋	-10.9226
衣冠	-10.9226
剔出	-10.9228
浙	-10.9228
悠	-10.9229
兢	-10.9232
以右手	-10.9233
三十六部尊經玄中大法師	-10.9233
腑	-10.9233
不得違	-10.9233
晋	-10.9234
渚	-10.9234
妙行眞人	-10.9235
攄	-10.9237
好生之德	-10.9238
亶	-10.9238
臨軒	-10.9238
除已具奏	-10.9239
燦	-10.9239
謹外封	-10.9239
五轉	-10.9239
洩	-10.924
太尉	-10.9241
冩	-10.9242
膚	-10.9242
奏事	-10.9243
鍊形	-10.9243
壬午	-10.9243
閻	-10.9243
拙	-10.9244
燮	-10.9244
出户	-10.9244
戊寅	-10.9245
弭	-10.9246
寐	-10.9246
萬二千	-10.9246
茹	-10.9247
暝	-10.9247
塜	-10.9248
眄	-10.9248
恩惟太上	-10.9248
豁落七元	-10.9248
九天上帝	-10.9248
啄齒	-10.9249
國祚	-10.925
罷對	-10.9251
軒轅	-10.9251
贍	-10.9251
抄	-10.9252
直下	-10.9252
必得	-10.9253
冢	-10.9253
乞丐	-10.9254
术	-10.9255
瘧	-10.9255
道學不得教人	-10.9255
念云	-10.9256
苦惱	-10.9257
赦原	-10.9257
侍郎	-10.9259
㔶	-10.9259
鳥獸	-10.926
麵	-10.926
嗽	-10.926
急急如上帝敕	-10.9269
束帶	-10.9272
某日某時	-10.9272
北嶽	-10.9272
紙上	-10.9273
痰	-10.9277
黑律	-10.9278
愆尤	-10.9279
師授	-10.9282
置於	-10.9283
無上大道	-10.9286
大震	-10.929
肯	-10.9301
一徧	-10.9306
木公	-10.9307
道學	-10.9312
威制	-10.9319
燈儀	-10.932
直壇	-10.9322
仙仗	-10.9325
一十八	-10.9326
暘	-10.9333
心意	-10.9338
民間	-10.9339
願賜	-10.9342
太極眞人	-10.9343
病患	-10.9349
至申	-10.9357
隻	-10.9363
交通	-10.9368
通傳	-10.9378
宻念	-10.9379
寳祕	-10.9379
以鼻引	-10.938
盂	-10.939
却用	-10.9407
宫殿	-10.9409
迨	-10.9412
亟	-10.9415
疋	-10.9415
光輝	-10.9415
誨	-10.9417
崇奉	-10.9417
算	-10.942
祉	-10.942
精進	-10.9421
太素三元君	-10.9422
虐	-10.9422
天騶甲卒	-10.9422
筌	-10.9423
氤氲	-10.9423
墳	-10.9424
度人上品妙經	-10.9424
韶	-10.9425
出出者嚴裝顯服冠帶垂纓關啓玄壇	-10.9426
澆	-10.9426
向東	-10.9427
咸令照應	-10.9427
乙亥	-10.9429
忙	-10.943
睿㫖	-10.943
留人門	-10.9431
暘谷	-10.9431
塞鬼路	-10.9432
循環	-10.9432
依應施行	-10.9432
秘法	-10.9432
罵	-10.9433
突	-10.9435
頸	-10.9436
吒唎	-10.9437
受籙	-10.9437
火犀	-10.9438
虚无自然	-10.9438
辛天君	-10.944
天蓬天蓬	-10.9443
瘵	-10.9443
無疆	-10.9447
冥關	-10.9448
干冒	-10.9449
髙下	-10.9449
属	-10.9449
四百	-10.9454
朝修	-10.9454
東斗	-10.9454
子丑	-10.9456
癸巳	-10.9459
衛護	-10.9461
祕文	-10.9462
所佩	-10.9462
丙辛	-10.9463
正一功曹	-10.9464
方隅	-10.9466
髙明	-10.9468
大神王	-10.9468
六轉	-10.9469
枯木	-10.947
癸未	-10.947
奉戒	-10.9473
凡書符	-10.9482
位登	-10.9484
召䰟	-10.9486
混成	-10.9487
功名	-10.9487
矣然	-10.9488
心腹	-10.9489
速離	-10.949
廣記	-10.9492
謹狀年月日具位	-10.9498
千載	-10.951
禁戒	-10.9511
束形	-10.9512
不敬	-10.9513
洞虚	-10.9516
一合下	-10.9517
玉輿	-10.9518
侍女	-10.9519
與道合	-10.9522
七寸	-10.9525
三清上聖	-10.9533
關報	-10.9537
家親	-10.9538
急急如律令敕	-10.9539
金城	-10.954
亥子	-10.9541
黄河	-10.9544
道術	-10.9545
出戸	-10.9553
紙朱書	-10.9555
寳冠	-10.9557
聞見	-10.9558
直齋	-10.9558
精微	-10.9565
混洞	-10.9566
絳雲	-10.9567
指中節	-10.9573
斗印	-10.9577
立誓	-10.9581
妖怪	-10.9581
平地	-10.9584
朗然	-10.9589
大指掐	-10.9595
攝魂	-10.9596
濟度金書	-10.9598
滅邪精	-10.9599
創	-10.9599
辟邪	-10.9599
火焰	-10.96
七枚	-10.9604
呵出	-10.9605
所傳	-10.9605
沛	-10.9607
鬢	-10.9608
章一通	-10.9609
之氣更受錬	-10.961
殻	-10.9611
茯苓	-10.9612
沃	-10.9612
牖	-10.9612
具申聞謹狀年月日具位姓某狀申	-10.9613
潘	-10.9613
一夕	-10.9613
養性	-10.9613
箱	-10.9613
撓	-10.9613
迪	-10.9614
驛馬上章吏	-10.9614
霹靂攝	-10.9614
只是	-10.9614
可漏式	-10.9615
根本	-10.9615
墻	-10.9616
洗心	-10.9617
稚	-10.9617
江湖	-10.9617
清微天	-10.9619
劣	-10.962
恱	-10.9621
伎	-10.9621
顆	-10.9621
涕	-10.9622
九龍符命	-10.9623
這	-10.9624
噀水一口	-10.9625
太上三尊	-10.9628
几前	-10.9628
聖號	-10.963
目録	-10.9635
上淸	-10.9635
歩罡	-10.9637
飴	-10.9638
五月五日	-10.9638
大羅天	-10.964
稽延	-10.964
六害	-10.9644
戊午	-10.9647
兩耳	-10.9653
降致	-10.9653
九過止	-10.9656
□□□□	-10.9657
帝鐘	-10.9659
水盆	-10.9663
祖天師	-10.9664
地皇	-10.9669
四十五	-10.967
人身中	-10.9673
鐵甲	-10.9674
無情	-10.9681
虛妄	-10.9681
須是	-10.9682
互相	-10.9685
等皈身皈神皈命	-10.9685
前件	-10.9685
黄巾	-10.9691
雷斧	-10.9694
黑虎	-10.9695
幽微	-10.9704
陰精	-10.9704
方圓	-10.9708
臨午	-10.9711
預告	-10.9712
唵嚩	-10.9713
復位	-10.9715
天柱	-10.9718
源流	-10.9724
未聞	-10.9728
雷鳴	-10.973
次序	-10.9736
靈篇	-10.9742
水銀	-10.9745
九芒	-10.9752
雲錦	-10.9758
只用	-10.9766
左右手	-10.9773
水噀	-10.9776
醮謝	-10.9782
痒	-10.9787
諸階	-10.9788
臣某承誥	-10.9793
斬馘	-10.9795
飛輪	-10.9796
衣九色	-10.9797
粲	-10.9797
道法會元	-10.9798
千乘萬騎	-10.98
詮	-10.9801
鎗	-10.9802
雕	-10.9802
吸炁	-10.9804
擲火萬里	-10.9804
伴	-10.9804
凛	-10.9805
恚	-10.9805
宫府	-10.9806
囂	-10.9807
錄	-10.9808
中央黄老君	-10.9808
執斧	-10.9811
產	-10.9811
滑	-10.9811
渺渺	-10.9811
褒	-10.9811
凖	-10.9811
撲	-10.9812
硃	-10.9812
佇	-10.9813
鎚	-10.9815
先凶後吉	-10.9815
羽裙	-10.9815
兵馬九億萬騎出	-10.9815
動植	-10.9816
蠱毒	-10.9816
語録	-10.9817
血刃	-10.9817
箋狀	-10.9819
竪	-10.982
嚼	-10.9821
水潦	-10.9822
主司	-10.9825
彌羅	-10.9829
疼痛	-10.983
元老	-10.9834
少時	-10.9834
鬼崇	-10.9834
禮師	-10.9837
畢便	-10.9839
將軍五人	-10.9856
百邪	-10.9856
青華大帝	-10.9861
長保	-10.9867
雲臺	-10.987
總領	-10.9872
三十七	-10.9881
又問	-10.9885
宫闕	-10.9886
少許	-10.9886
唯願	-10.9887
惡根	-10.9888
不足以	-10.989
入户	-10.9891
大帝律令	-10.9891
嗣師	-10.9893
科條	-10.9902
香烟	-10.9904
紫色	-10.9906
太帝君	-10.9907
茅君	-10.9912
乙庚	-10.9916
玉庭	-10.9925
召汝	-10.9926
開泰	-10.9927
命籍	-10.9928
黄寧	-10.9931
洞視	-10.9932
周回	-10.9932
執對	-10.9943
修建	-10.9949
得之者	-10.9949
臣姓某	-10.9955
表白	-10.9959
付授	-10.9973
俗人	-10.9976
艮宫	-10.9983
聖胎	-10.9984
立春	-10.9988
鐶	-10.9992
四目老翁	-10.9993
名利	-10.9996
鬼祟	-10.9996
笙	-10.9998
正一法文	-10.9999
樸	-11
龍潭	-11
翦	-11
収	-11
跳	-11.0001
請照驗	-11.0002
璇	-11.0002
碗	-11.0005
虔誠	-11.0006
殞	-11.0007
侮	-11.0007
婬	-11.0008
悮	-11.0008
廽	-11.0008
尊星	-11.0009
凝結	-11.0009
廵	-11.0009
㣲祝曰	-11.0009
應干合屬去處	-11.001
菲	-11.001
都部	-11.0011
翫	-11.0012
三官九府	-11.0013
夏三月	-11.0013
摺	-11.0013
插	-11.0013
魁星	-11.0013
具法位姓某今	-11.0014
庚辰	-11.0016
丙申	-11.0018
延夀	-11.0019
焚化	-11.0019
徐徐	-11.0021
嘍	-11.0022
省府	-11.0025
司額	-11.0029
膈	-11.0029
九玄七祖	-11.003
單衣	-11.0037
公私	-11.004
辰戌	-11.0046
大洞真經	-11.0046
黙念	-11.0047
驅役	-11.0047
圓通	-11.0047
酉丑	-11.0053
豈非	-11.0055
印印	-11.006
無涯	-11.006
都司	-11.0068
感格	-11.0078
黑衣	-11.008
取炁吹	-11.0083
一錢	-11.0093
王甲	-11.0096
二百四十	-11.0098
揈天	-11.0099
剛風	-11.0101
最爲	-11.0113
修誦	-11.0118
河伯	-11.0119
午朝	-11.012
微微	-11.013
少女	-11.0131
每服	-11.0132
疾苦	-11.0134
深重	-11.0135
華盖	-11.0138
豈無	-11.0138
濟世	-11.0139
炎光	-11.0139
丁甲	-11.014
斗牛	-11.014
召集	-11.0142
謹遣	-11.0144
傳送	-11.015
紙筆	-11.0151
不避	-11.0153
穢濁	-11.016
日新	-11.0161
錬形	-11.017
乙卯	-11.0173
齋意	-11.0174
畫一	-11.0175
轟轟	-11.0178
主領	-11.018
專心	-11.018
鎮星	-11.0182
黜	-11.0187
扁	-11.0192
所宜	-11.0192
狩	-11.0193
槁	-11.0194
毋令	-11.0196
敢不上聞	-11.0196
煥赫	-11.0196
綴	-11.0196
異香	-11.0197
岑	-11.02
冒瀆	-11.02
四角	-11.0201
干冒聖威某下情無任惶懼之至謹	-11.0201
𨗳	-11.0202
銀牙	-11.0203
隣	-11.0203
直符直事	-11.0203
朱陵火府	-11.0205
三十三	-11.0206
隙	-11.0208
飛天神王	-11.0208
收墳葬	-11.0209
副帥	-11.0211
蒿	-11.0211
辛酉	-11.0214
赤書玉字	-11.0214
十餘年	-11.0216
斜	-11.0217
誹謗	-11.0218
交接	-11.0218
炓	-11.0219
捻香	-11.022
鎭宅	-11.022
六腑	-11.022
日月星宿	-11.0222
蒜	-11.0224
開闢	-11.0225
森羅	-11.0229
百拜	-11.0229
咳嗽	-11.023
十二宫	-11.0236
覆護	-11.0238
落死	-11.0239
玉漿	-11.0246
從官十三人	-11.0247
醮祭	-11.0248
洞煥	-11.0256
急急如北帝	-11.0256
六幕	-11.026
紫户	-11.0264
今古	-11.0265
顯現	-11.0265
朝夕	-11.0268
閉口	-11.0269
久久	-11.0271
霹靂震	-11.0271
再服	-11.0273
直使功曹	-11.0277
黒炁	-11.0282
投進	-11.0283
邪妖	-11.0289
水旱	-11.0298
紫霄	-11.0298
提起	-11.0299
仰視	-11.0302
山河	-11.0304
紫霞	-11.0307
根源	-11.032
都省	-11.0321
祥光	-11.0322
一般	-11.0322
謹奉	-11.033
欲界	-11.0335
辛未	-11.034
表奏	-11.034
咽液九過	-11.0341
澄心	-11.0346
急急如太上	-11.0346
北方黑	-11.0347
羽服	-11.0348
九千萬人	-11.0351
本位	-11.0354
某身中	-11.0365
熒惑星	-11.0368
印印之	-11.0368
不可妄	-11.0377
驅龍	-11.0379
詣師	-11.038
律令攝	-11.0383
岱	-11.0386
毋得	-11.0389
七尺	-11.039
匱	-11.0394
帝座	-11.0394
㓂	-11.0396
戰慄	-11.0401
啓聞	-11.0401
澹	-11.0401
匀	-11.0401
宦	-11.0402
蔭	-11.0403
郡縣	-11.0405
裔	-11.0405
絃	-11.0406
毬	-11.0406
弔	-11.0406
扄	-11.0407
頥	-11.0407
構	-11.0408
軻	-11.0408
伏望聖慈	-11.0409
紏察	-11.0409
三魂七魄	-11.041
矩	-11.041
拍	-11.0411
績	-11.0413
祼	-11.0413
架	-11.0413
雲軿	-11.0414
苐	-11.0414
嚙	-11.0414
逾	-11.0415
飢渴	-11.0415
玉匱	-11.0417
靣	-11.042
寒熱	-11.0421
三天正法	-11.0421
冒犯	-11.0422
玉册	-11.0422
聖意云	-11.0423
殗	-11.0423
劑	-11.0425
剉	-11.0425
等無任	-11.0425
巽炁	-11.0432
傾心	-11.0438
六親	-11.044
於某處	-11.044
急急如律令右符	-11.0442
二百四十人	-11.0443
遷拔	-11.0444
觸犯	-11.0444
破地獄	-11.0446
冥目	-11.0452
敷陳	-11.0463
無上道	-11.0469
忘形	-11.048
靜室	-11.0482
閃爍	-11.0485
守護	-11.0493
三匝	-11.05
忽聞	-11.0503
形骸	-11.0506
一毫	-11.0509
何須	-11.0527
右奉	-11.0532
脾中	-11.0536
品格	-11.0548
三塗五苦	-11.055
帝闕	-11.0555
玉清上帝	-11.056
何由	-11.0571
一如律令	-11.0572
香案	-11.0573
從官十二人	-11.0577
硯	-11.0581
爽靈	-11.059
普召	-11.0592
登齋	-11.0594
扁鵲	-11.0598
輪廻	-11.0599
水調	-11.06
五瘟	-11.0601
合同符	-11.0605
廼	-11.0606
唎吽	-11.0607
臨事	-11.0607
助國	-11.0608
靈書紫文	-11.0609
重稱法位具位	-11.061
奄	-11.0611
彬	-11.0611
玄元始三炁	-11.0611
混元上德皇帝	-11.0612
蹄	-11.0612
明彰報應	-11.0614
韓君丈人	-11.0615
螫	-11.0615
領詞虔切	-11.0617
鞋	-11.0617
疲	-11.0618
知磬舉	-11.0618
雌黄	-11.0618
一如玄科律令	-11.0618
奴婢	-11.0618
弩	-11.0619
脱貨	-11.062
遵元降	-11.0621
韜	-11.0621
化作微塵	-11.0621
鉛汞	-11.0621
從官十五人	-11.0622
恰	-11.0622
𧵥	-11.0622
興雲致雨	-11.0622
坑	-11.0622
煮	-11.0623
覔	-11.0624
噏	-11.0625
盗賊	-11.0625
敢有拒逆	-11.0625
亡過某等䰟	-11.0625
五帝大魔	-11.0626
影響	-11.0626
涌	-11.0627
千萬重	-11.0628
咽液三過	-11.063
䑕	-11.063
閉地户	-11.0632
拷鬼	-11.0636
摧傾	-11.0636
蜜丸	-11.0638
伯温	-11.0641
不得有違	-11.0645
玉笈	-11.0645
天丁冠	-11.0652
伐廟	-11.0653
化育	-11.0655
各二兩	-11.0659
丙乙	-11.0662
謹録狀上奏	-11.0662
靖室	-11.0663
乙未	-11.0667
太上洞𤣥靈寶	-11.0667
聽候	-11.0667
逍遥上清	-11.0671
瓊輪	-11.0671
要妙	-11.0673
經緯	-11.0677
瓊臺	-11.0678
奉勑	-11.068
錦衣	-11.0683
天地日月	-11.0686
傷亡	-11.0686
二十四氣	-11.0693
朱表	-11.0693
彼此	-11.0699
善男子汝	-11.07
一隻	-11.0713
耳聞	-11.0714
破穢	-11.0717
榮華	-11.0718
都監	-11.072
相連	-11.0721
垂光	-11.0724
罪䰟	-11.0732
青玄上帝	-11.0732
隨機	-11.0741
飛走	-11.0747
護國	-11.0747
戌亥	-11.075
甚多	-11.0753
洞達	-11.0756
求乞	-11.0765
王侯	-11.077
一通上詣	-11.0771
齋直	-11.0774
再加	-11.0777
殃及	-11.0782
腎水	-11.0784
咭唎	-11.0785
四直功曹	-11.0795
上層	-11.0798
乘空	-11.08
字號計十	-11.0811
報對	-11.0812
誅滅	-11.0813
聯	-11.0815
銳	-11.0815
三洞四輔	-11.0816
一尺二寸	-11.0818
翮	-11.082
慨	-11.0822
青腰玉女	-11.0822
航	-11.0822
列仙傳	-11.0823
日平旦	-11.0825
剛風騎置	-11.0825
峻	-11.0826
禽獸	-11.0826
随	-11.0826
金鈕	-11.0826
閒	-11.0826
沌	-11.0826
菩	-11.0826
汎	-11.0827
煉形	-11.0827
倏	-11.0828
蟬	-11.0828
穿鬼心	-11.0832
若夫	-11.0832
簇	-11.0832
九州分野	-11.0832
應元保運	-11.0833
禹餘天	-11.0833
傳非其人	-11.0834
晚朝	-11.0835
遏截	-11.0835
者杖一百	-11.0837
玉清隱書	-11.0839
釡	-11.0839
浮黎	-11.084
丙辰	-11.0841
長生靈符	-11.0841
駕景	-11.0843
小童	-11.0849
壇墠	-11.0852
一切威靈	-11.0859
所管	-11.0859
上清大洞	-11.0864
在其中	-11.0865
鬱羅	-11.0868
紫微宫	-11.0869
法橋	-11.0876
半夏	-11.0877
水洗	-11.0879
厄難	-11.0885
枷鬼	-11.0893
齊臨	-11.0896
受戒	-11.0896
主吏	-11.0897
五苦八難	-11.09
京師	-11.0904
右手劒訣	-11.0917
本院	-11.0924
呪七遍	-11.0926
永斷	-11.0927
度脫	-11.0935
歩斗	-11.0939
響應	-11.0942
電火	-11.0943
水陸	-11.0949
焚燒	-11.0955
急急奉行	-11.0969
急急如律令呪畢	-11.097
玄綱	-11.0972
三枚	-11.0985
天蓬呪	-11.0989
丹房	-11.1005
弼星	-11.1006
關牒	-11.1009
酆山	-11.1012
文檢	-11.1013
庶得	-11.1015
修設	-11.1015
服方寸七	-11.1017
炁一口吹	-11.1018
入意臣	-11.1021
稱善	-11.1027
靈寳度人	-11.1031
蕩滌	-11.1034
靴	-11.1035
和與道合眞	-11.1036
誠惶誠恐稽首頓首再拜上言	-11.1039
洋	-11.104
攘	-11.1042
鵠	-11.1042
槩	-11.1042
甕	-11.1042
高道傳	-11.1042
合屬眞司	-11.1043
鄧天君	-11.1043
𠂻	-11.1044
窒	-11.1044
隸	-11.1045
吳	-11.1045
禎祥	-11.1046
恭望聖慈允	-11.1048
浩浩	-11.1048
捍	-11.1048
世以來	-11.1048
帙	-11.1049
癸酉	-11.1049
冕	-11.1049
魓𩳐魒	-11.1049
霏	-11.1049
濱	-11.105
叚	-11.105
踵	-11.105
兀	-11.1051
沴	-11.1051
南極上元君	-11.1051
悖	-11.1052
厠	-11.1052
䏻	-11.1052
熨	-11.1052
懃	-11.1053
諮	-11.1053
北方黒帝	-11.1053
驅使	-11.1054
夾脊	-11.1055
照應施行	-11.1055
北陰酆都	-11.1055
撤	-11.1055
喗	-11.1055
壬申	-11.1055
當司據	-11.1056
羸	-11.1059
縷	-11.1059
屋宇	-11.1059
叉腰	-11.1062
赤天三五混沌	-11.1063
陁	-11.1063
喜怒	-11.1065
塩	-11.107
苦趣	-11.1071
尚慮	-11.1071
勿使	-11.1073
逺近	-11.1075
妙理	-11.1078
誠意	-11.1079
念天蓬呪	-11.1081
監臨	-11.1081
初獻	-11.1089
倒海	-11.109
速現	-11.1091
桃木	-11.1093
金鐘	-11.1095
兩儀	-11.1097
第二指	-11.11
幽暗	-11.1101
城隍司	-11.1103
妖魅	-11.1105
餓鬼	-11.1111
玄毋	-11.1111
圓象	-11.1112
唵吽吒唎	-11.1114
燒灰	-11.1115
寒庭	-11.1125
詩云	-11.1125
誥命	-11.113
不過三	-11.1133
霜雪	-11.1134
擒捉	-11.1134
滅跡	-11.1135
進士	-11.114
拘留	-11.1145
建獄	-11.1147
左手搯	-11.1149
輕舉	-11.115
口吹	-11.1173
左腎	-11.1173
入腹	-11.1175
魔試	-11.1187
莊子	-11.119
門庭	-11.1196
一團	-11.1204
珠玉	-11.1205
傳付	-11.1209
交會	-11.1212
九厄	-11.1215
祖考	-11.1217
行此道	-11.122
髙妙	-11.1228
五帝直符	-11.1228
金刀	-11.1233
積善	-11.1236
某年月日時	-11.1239
天王姓	-11.1241
呪一遍	-11.1242
半兩	-11.1245
臣某承誥奉召	-11.1251
聲色	-11.1251
啄	-11.1251
常住	-11.1254
惕	-11.1254
譜	-11.1255
儛	-11.126
亞獻	-11.126
旅	-11.1261
鄒	-11.1261
屠割	-11.1262
𣲖	-11.1262
渥	-11.1263
瓮	-11.1264
龔	-11.1264
激切之至	-11.1264
琉璃	-11.1266
和與道合真	-11.1266
咀	-11.1267
羅㬋	-11.1267
姬	-11.1267
㓜	-11.1268
翟	-11.1269
嗣法弟子	-11.127
紫微上宫	-11.127
風輪	-11.127
上帝有勑	-11.127
節制	-11.1271
曝	-11.1271
猪脂	-11.1272
相似	-11.1272
破鬼肚	-11.1272
鵲	-11.1274
岐	-11.1275
整肅	-11.1275
塚	-11.1275
甯	-11.1276
握雷局	-11.1277
戊申	-11.1277
淚	-11.1278
鯉	-11.1281
癸卯	-11.1281
怛	-11.1285
鼻孔	-11.1285
魘	-11.1287
金光炁	-11.1289
潤澤	-11.1291
儼然	-11.1292
入中宫	-11.1292
長一尺	-11.1294
斬勘	-11.1295
三五七九	-11.1295
五雷大法	-11.1299
不怠	-11.13
護送	-11.1303
結尾	-11.1309
長五寸	-11.1318
何以故	-11.1319
拜奏	-11.132
湧出	-11.1323
刻石	-11.1333
百二十曹	-11.1333
輪迴	-11.134
醮禮	-11.1342
太上丈人	-11.1349
一㸃	-11.137
頌曰	-11.1374
一千二百	-11.1375
總監	-11.1387
一萬人	-11.1392
苦海	-11.1395
鼻引	-11.1399
齋主某	-11.1412
今據入意	-11.1422
十斤	-11.1427
鬼户	-11.1428
電掣	-11.1436
刻名	-11.1438
髙皇	-11.1443
素女	-11.1456
大將軍眞符	-11.1463
未悟	-11.147
慙愧	-11.1473
精魅	-11.1477
隍	-11.1482
南斗六司	-11.1487
九老仙都	-11.1488
款	-11.1488
憚	-11.1489
捐	-11.1489
秤	-11.149
后土皇地祇	-11.149
呉	-11.1491
貧賤	-11.1491
糧	-11.1493
塗炭	-11.1493
今故燒香	-11.1494
誠惶誠恐稽首頓首	-11.1495
奕奕	-11.1496
不得留停	-11.1497
呪畢存	-11.1497
廣濟	-11.1497
畢仰嚥	-11.1497
斡旋	-11.1497
䆫	-11.1499
南極長生大帝	-11.1499
謄奏	-11.1499
寤	-11.1499
邉	-11.1501
咈	-11.1502
脅	-11.1502
乙酉	-11.1502
麒麟	-11.1502
壬戌	-11.1503
葛氏	-11.1503
斫	-11.1503
古科	-11.1504
潑	-11.1504
仙童玉女	-11.1505
脹	-11.1505
上清靈寳大法	-11.1505
礬石	-11.1506
虎賁	-11.1506
修學	-11.1507
蘿	-11.1508
吻	-11.1509
嘻	-11.151
金鐶	-11.1511
青城山	-11.1517
魂攝魄	-11.152
角亢	-11.1521
指上節	-11.1522
太倉	-11.1525
滯魄	-11.1529
春夏	-11.1531
沖虚	-11.1534
伏冀	-11.1547
庶可	-11.1554
魒星	-11.1555
受之於	-11.1557
咽止	-11.1561
紙錢	-11.1561
辛巳	-11.1566
可漏	-11.1566
聚魂	-11.1568
主簿	-11.1571
四圍	-11.1583
祕籙	-11.1584
婦女	-11.1587
萬類	-11.1594
未幾	-11.1596
眞君律令	-11.1605
十丸	-11.1608
玉池	-11.1618
西臺	-11.1622
罪犯	-11.1622
引領	-11.163
勤苦	-11.1631
保胎	-11.1633
善縁	-11.1655
謹上啓	-11.1667
玄奥	-11.167
譬	-11.1673
酒果	-11.1691
左手持	-11.1694
所𨽻	-11.1709
尋常	-11.171
右符鎭	-11.1711
嫁	-11.1712
煖	-11.1712
謹同誠上啓	-11.1716
峩	-11.172
巵	-11.172
洞玄靈寶	-11.1721
三十六部尊經	-11.1721
以是功德歸流	-11.1721
合屬去處	-11.1722
勦	-11.1722
猥	-11.1724
亦復如是	-11.1724
出堂頌	-11.1724
玩	-11.1725
嚴裝	-11.1725
虎豹	-11.1726
曩	-11.1726
彚	-11.1726
霍亂	-11.1726
鳳凰	-11.1727
取北炁吹	-11.1727
稔	-11.1727
詢	-11.1727
鏤	-11.1729
衿	-11.173
株	-11.173
翊衛	-11.173
洋洋	-11.1731
天牢地獄	-11.1731
娘	-11.1732
合干去處	-11.1732
太白星	-11.1732
齎捧	-11.1733
纒綿	-11.1733
靉	-11.1733
炮	-11.1734
昬	-11.1735
渭	-11.1736
奈何	-11.1738
干戈	-11.1739
三部八景	-11.1742
昏昏	-11.1744
撮	-11.1744
炒	-11.1744
筒	-11.1745
漏泄	-11.1747
謹上詣	-11.1752
伏念臣	-11.1757
朱彦	-11.1758
行持之士	-11.1761
死䰟	-11.1763
本身符	-11.1764
安穩	-11.1766
小腸	-11.1772
乙巳	-11.1775
兩邊	-11.18
三百六十五	-11.1801
迷魂	-11.181
足踏	-11.1814
右手持	-11.1825
金鈴	-11.1827
服又方	-11.1845
士庶	-11.1845
頭痛	-11.1849
㧞出	-11.1849
魂爽	-11.1851
入水中	-11.186
廟貌	-11.1861
第十二	-11.1867
業報	-11.1882
疾厄	-11.1884
本命之日	-11.1893
衣裳	-11.1912
薑	-11.1933
品第十	-11.1934
抱朴子	-11.1952
禧	-11.1953
猴	-11.1953
趍	-11.1958
咨	-11.196
騎各九億萬衆	-11.1961
鷹犬	-11.1962
襄	-11.1962
懐	-11.1962
黍	-11.1963
蠢	-11.1963
龐	-11.1963
蓄	-11.1963
太㣲天帝君	-11.1964
鮑	-11.1965
袂	-11.1965
牒合屬真司外	-11.1965
蟲蝗	-11.1965
七十二候	-11.1965
謹謹上詣	-11.1966
同日宫狀	-11.1966
胤	-11.1967
燁	-11.1967
五臟六腑	-11.1968
稟	-11.1968
咫尺	-11.1968
椎	-11.1968
紋繒	-11.1969
璈	-11.1969
媱	-11.1969
監生大神	-11.197
菊	-11.197
二人上靈官	-11.1971
下元水官	-11.1971
碍	-11.1971
稻	-11.1971
欎	-11.1971
丙戌	-11.1972
占陰晴晴田蠶	-11.1972
洞神三皇	-11.1972
鎔	-11.1973
不得拘留	-11.1973
歷關諸天	-11.1973
庚戌	-11.1973
紗	-11.1974
開天門閉地户留人門	-11.1976
拯濟	-11.1976
天心正法	-11.1977
祝融	-11.1983
滯爽	-11.1984
飛天神人	-11.1985
康寧	-11.1991
宜快	-11.1998
舌尖	-11.2
奔走	-11.2
中指中文	-11.2007
外合行	-11.2008
昇遷	-11.2009
室主治	-11.2012
捲水	-11.2017
救旱	-11.2022
檢會	-11.2023
勇猛	-11.2032
玉衡	-11.2032
雙目	-11.2034
玄天上帝	-11.2036
冲和	-11.2036
滅爽	-11.2037
將軍吏兵	-11.2045
雲程	-11.205
護持	-11.2053
當司今據	-11.2054
南方蠻雷	-11.2055
雨暘	-11.2067
書此符	-11.2069
旦夕	-11.2078
玄範	-11.2092
母元君	-11.2094
具足	-11.2099
災害	-11.21
請祈	-11.21
霄漢	-11.2113
長生大帝	-11.2136
禹歩	-11.214
鳯文	-11.2165
室主收	-11.2172
恭依	-11.2174
仲尼	-11.2189
使者十二人仙靈官	-11.2189
元始一炁	-11.2192
正一盟威	-11.2202
誰能	-11.2202
舄	-11.2203
化應聲天	-11.2204
洞玄靈寳法師南曹執法典者	-11.2205
蕪	-11.2206
敏	-11.2207
千變萬化	-11.2207
荐	-11.2209
戢	-11.2209
慇懃	-11.221
飜	-11.221
敘	-11.2211
耽	-11.2211
綜	-11.2211
不驕樂天	-11.2212
岩	-11.2212
暦	-11.2212
東西南北	-11.2213
魁𩲃𩵄䰢	-11.2214
劇	-11.2214
萬劫一傳	-11.2214
銅柱	-11.2216
飬	-11.2216
臼	-11.2216
塘	-11.2216
學道之士	-11.2217
輟	-11.2218
兩眉間	-11.2218
玄都玉京	-11.2218
𦍙	-11.2218
焚燎	-11.2219
吟詠	-11.222
障礙	-11.222
申子辰	-11.2221
上元天官	-11.2221
叱咤	-11.2223
濛濛	-11.2225
帝廷	-11.2225
營衞	-11.2227
南方火德	-11.2228
唏	-11.2228
驢	-11.2229
戊已	-11.2231
蓬頭	-11.2234
奇羅	-11.2235
喜慶	-11.2236
覩光明	-11.2236
寂寂	-11.2238
保佑	-11.2239
鴨	-11.224
彈指	-11.224
正一天師	-11.2242
鐵索	-11.2244
淺深	-11.2245
栢木	-11.2247
卷一之五	-11.2248
芝草	-11.2249
種田	-11.225
法官道士	-11.225
諸神吏符使	-11.2251
遠近	-11.2252
遷移	-11.2254
黄繒	-11.2258
金磚	-11.2259
大抵	-11.2259
騰騰	-11.226
錦袍	-11.2281
調理	-11.2281
宣示	-11.2294
各九人	-11.2296
反胎	-11.2297
祕諱	-11.2301
齊并	-11.2303
章第十	-11.2309
散髮	-11.2311
齋堂	-11.2315
炁三口	-11.2326
奉送	-11.2333
黃素	-11.2337
死之訟	-11.2337
金蓮	-11.2356
抺額	-11.2356
茶酒	-11.2359
雷公電母	-11.236
老子曰	-11.2363
普照	-11.2377
解禳	-11.2382
安康	-11.2385
向本命	-11.2387
方丈	-11.2396
來赴	-11.2398
照徹	-11.2403
敢有違	-11.2409
方無極飛天神王	-11.2413
月八日	-11.2419
設教	-11.2424
儼	-11.2427
普救	-11.2441
辛卯	-11.2443
迭	-11.2445
醮主某	-11.2447
奈	-11.245
届	-11.2452
羞	-11.2452
頴	-11.2452
圗	-11.2454
五雷使院	-11.2455
蕭蕭	-11.2456
當此之時	-11.2457
三天大法師	-11.2458
符到處	-11.2458
提携	-11.2458
須至申聞者右	-11.2459
鞫	-11.246
瑟	-11.246
鐡	-11.246
菖蒲	-11.2461
盜賊	-11.2461
煒	-11.2462
太一救苦天尊	-11.2462
浣	-11.2462
瘦	-11.2462
眩	-11.2465
考掠	-11.2465
包巾	-11.2465
犀	-11.2465
孤爽	-11.2465
晴雨	-11.2467
誌	-11.2468
攸司	-11.2468
拆	-11.2469
黏	-11.2469
𥼶	-11.247
癢	-11.247
輕泄漏慢	-11.247
激剥	-11.2472
飛行太空	-11.2472
何鬼敢	-11.2473
土地等神	-11.2473
半斤	-11.2475
地獄主者	-11.2476
聖惠方治	-11.2476
分爲三	-11.2477
飛行羽	-11.2478
直衝	-11.2479
契勘	-11.248
指甲下	-11.248
百骸	-11.248
火鴉	-11.2481
上帝有敕	-11.2486
昭昭	-11.2489
行之九年	-11.2492
百脉	-11.2493
聖㫖下	-11.2507
煥落	-11.251
反覆	-11.2515
州社令	-11.2517
參差	-11.2521
佐助	-11.2522
削罪	-11.2524
適意	-11.2527
無色界	-11.2528
具載	-11.2534
徃徃	-11.2539
採藥	-11.2546
醫治	-11.2547
慈仁	-11.2583
宅舍	-11.2585
千歲	-11.2594
文彩	-11.26
鎮宅	-11.2617
掾	-11.2622
壇席	-11.2623
字號計十卷太上	-11.2625
右符鎮	-11.2629
萬歳	-11.2643
降臨醮席	-11.2678
死之訟訴其	-11.2681
曲垂	-11.2682
海瓊	-11.2698
九州都仙太史	-11.27
庥	-11.2704
蝶	-11.2704
曦	-11.2704
捻香功德歸流	-11.2705
萃	-11.2708
侈	-11.2708
駢	-11.2709
賞罰	-11.2709
千乗萬騎	-11.2713
玉女五帝直符直日香官各三十六人	-11.2715
稱法位	-11.2716
不得久停	-11.2716
玉眸	-11.2716
八萬四千	-11.2716
落滅惡根	-11.2717
寜	-11.2718
鬱勃	-11.2718
置貨	-11.2718
璞	-11.2719
拽	-11.272
欠	-11.272
占陰晴半陰半晴田蠶	-11.272
紫綬	-11.2722
某嶽先生	-11.2722
占陰晴雨田蠶	-11.2723
叩齒五通	-11.2727
燧	-11.2728
麝	-11.2729
男左女右	-11.273
辛丑	-11.2731
默默	-11.2732
悠悠	-11.2735
又一鬼王姓	-11.274
拱手	-11.2741
伏屍	-11.2746
俯伏	-11.2747
八節之日	-11.2749
虚無自然	-11.275
搗末	-11.275
考勘	-11.2751
碧霄	-11.2752
切慮	-11.2765
二十七日	-11.2765
總統	-11.2772
取巽炁	-11.2776
太清大帝	-11.2782
洞逹	-11.2785
取東南炁	-11.2785
閉息	-11.2794
計都	-11.2799
洛書	-11.2805
紅塵	-11.2806
搜捉	-11.2808
雷揈	-11.281
兩半	-11.2815
敢忘	-11.2854
進賢	-11.2857
日月五星	-11.2861
君居之	-11.2887
毒害	-11.289
釋放	-11.2925
等伏聞	-11.2939
斡	-11.2948
肖	-11.2969
二捻上香	-11.2969
曳	-11.2973
栗	-11.2974
蛻	-11.2975
廣成先生杜光庭刪定	-11.2976
十方靈寳天尊	-11.2976
茫茫	-11.2977
愚癡	-11.2977
評	-11.2978
吞魔食鬼	-11.2978
恥	-11.2979
得道之後昇入無形	-11.2979
𥨸	-11.2979
雷公電母風伯雨師	-11.298
剛柔	-11.2981
六戊	-11.2981
課	-11.2982
钁	-11.2983
金龍驛傳	-11.2983
鞠	-11.2983
法銜姓九天掌雷採訪使應元保運眞君	-11.2984
咽喉	-11.2984
煌	-11.2984
攷	-11.2985
瑛	-11.2985
伏羲	-11.2985
黍珠	-11.2985
䇿杖	-11.2986
塵埃	-11.2986
汨	-11.2986
慾界	-11.2986
塞鬼路穿鬼心破鬼肚	-11.2988
椀	-11.2989
北方蠻雷	-11.299
様	-11.2991
阻滯	-11.2991
盥	-11.2992
迷惑	-11.2997
太上无極大道	-11.2998
道經當思	-11.2999
嫁娶	-11.2999
擁護	-11.3
惠澤	-11.3001
龜蛇	-11.3001
斛食	-11.3002
塵垢	-11.3005
漢天師	-11.3006
究竟	-11.3007
收擒	-11.3008
億千	-11.301
十一曜	-11.3011
急急準	-11.3011
罔極	-11.3016
閉眼	-11.3022
統御	-11.3031
未曽	-11.3032
寅午	-11.3034
仰祝曰	-11.3034
洗滌	-11.3034
務要	-11.304
充滿	-11.3042
如此之人	-11.3043
打坐	-11.3046
太玄玉女	-11.3049
半升	-11.3051
社廟	-11.3064
離卦	-11.3073
日月之光	-11.3098
蓮華	-11.3113
神霄玉府	-11.3136
某年某月某日	-11.3139
諸司官將	-11.3158
羅列左右	-11.32
不知何許人	-11.3237
辛亥	-11.3237
簾	-11.3239
葺	-11.324
彫	-11.3243
帷	-11.3244
隠	-11.3245
奧	-11.3245
燿	-11.3245
懲	-11.3246
陽神决吏	-11.3246
稼	-11.3247
濟生度死	-11.3247
悼	-11.3247
酣	-11.3249
九眞妙戒	-11.3249
領詞䖍切	-11.3249
元亨利貞	-11.325
倏忽	-11.325
中元地官	-11.325
大梵隱語	-11.325
事干利濟	-11.3251
三洞羣仙録卷之	-11.3251
十二人上靈官右	-11.3251
舛	-11.3251
昇入無形	-11.3251
繕	-11.3251
中斗大魁	-11.3251
身有光明	-11.3252
竄	-11.3252
膜	-11.3252
天蓬都元帥	-11.3253
南華真經	-11.3253
岫	-11.3253
饗	-11.3254
暘谷神王	-11.3254
身中三五功曹左右官使者左右	-11.3255
天上地下	-11.3255
拘囚	-11.3256
瘴	-11.3256
皮膚	-11.3256
入室東向	-11.3256
天齊仁聖帝	-11.3257
太乙火府	-11.3257
捜	-11.3257
東方蠻雷	-11.3257
張元伯	-11.3257
稷	-11.3258
行住坐卧	-11.3259
天清地	-11.3259
某州郡縣郷里	-11.3259
尾閭	-11.326
雞犬	-11.326
嬰孩	-11.3262
右法掐辰文取巽炁	-11.3262
夢寐	-11.3263
者徒三年	-11.3263
君五人官將一百二十人治	-11.3264
鐵板	-11.3266
拒逆	-11.3267
庠	-11.3267
萬神朝禮	-11.3267
就某處	-11.3268
金童玉女	-11.3271
九幽地獄	-11.3272
賢愚	-11.3273
鱉	-11.3273
北斗九皇	-11.3274
涎	-11.3275
翼軫	-11.3277
進呈	-11.3281
無幽不	-11.3285
厭穢	-11.3288
黄芽	-11.3288
儀範	-11.3292
紫戸	-11.3311
三洞法師	-11.3315
取煞炁	-11.3336
无崖	-11.3343
左右前後	-11.3343
度亡䰟	-11.3349
金籙齋	-11.3458
唵吽吒	-11.3461
彗	-11.3511
杳杳冥冥	-11.3513
破軍星	-11.3514
瀛	-11.3514
繆	-11.3517
激切屏營之至	-11.3519
魑魅	-11.352
陞壇行道請法衆等運兹	-11.352
浦	-11.3521
眞之德得道之後昇入無形	-11.3521
辛漢臣	-11.3521
睦	-11.3522
某月某日	-11.3522
楹	-11.3522
街	-11.3523
速達徑御至真無極大道昊天玉皇上帝	-11.3523
吏十二人	-11.3523
三境伏魔心章	-11.3524
立俟昭報	-11.3524
無形無名	-11.3524
慙	-11.3524
冑	-11.3525
隴	-11.3525
囚徒苦爽	-11.3526
巔	-11.3527
二人天靈赤官	-11.3527
葵	-11.3527
聞吾呼召	-11.3527
壼	-11.3527
形神俱妙	-11.3528
長生大君	-11.3528
梟	-11.3529
十二人上靈官左	-11.3529
穰	-11.3529
臨壇所	-11.3529
劾	-11.3529
寥廓	-11.353
敞	-11.353
軰	-11.353
品九億萬諸靈官飛龍騎吏	-11.3531
元綱流演	-11.3531
金錢甲馬	-11.3531
籌	-11.3531
嫉妬	-11.3532
淮南	-11.3533
姥	-11.3533
女青詔書	-11.3534
獲禱祀	-11.3535
聿	-11.3536
靈飛六甲	-11.3536
餞	-11.3536
股	-11.3536
㫁	-11.3537
土溽	-11.3537
驛吏	-11.3538
紳	-11.3538
七真曰	-11.3538
二寸四分	-11.3538
瑞雪	-11.3539
高道傳道士	-11.3539
喑	-11.3539
瞳	-11.354
赤幘	-11.3542
牢獄	-11.3543
丈夫	-11.3546
囑	-11.3546
鐵棒	-11.3548
藥叉	-11.3549
𠰢	-11.3552
遇出行	-11.3552
霹靂轟轟	-11.3554
酥	-11.3555
特垂	-11.3556
無鞅	-11.356
豐登	-11.356
土皇姓	-11.3561
岱嶽	-11.3561
覆載	-11.3562
血脉	-11.3563
檢察	-11.3565
總管	-11.3573
長三尺	-11.3575
斡運	-11.3577
太微帝君	-11.3579
无上三天	-11.358
右件	-11.3601
山崩	-11.3602
貪狼星	-11.3689
苗稼	-11.3696
等身中	-11.3704
律令右法	-11.3726
元始天尊說	-11.3727
北方黑帝	-11.3746
救苦眞符	-11.3776
謹啓以聞	-11.3785
靈寳領教	-11.3793
澤地土皇君	-11.3794
煥煥	-11.3795
轍	-11.3796
據詞難抑	-11.3799
殫	-11.38
態	-11.3801
碌	-11.3802
黄帝隂符經	-11.3803
渟	-11.3803
棘	-11.3803
沿	-11.3803
邅	-11.3805
媚	-11.3805
童初府	-11.3805
貝	-11.3807
昂	-11.3807
丹臺新録	-11.3808
邵陽雷公	-11.3808
茲	-11.3809
徤	-11.3809
億曽萬祖	-11.3809
急急如丹霄流金火鈴律令	-11.3809
鳴法鼓二十四通	-11.381
姜	-11.381
薤	-11.3811
𡵯	-11.3811
𡜍	-11.3811
素車白馬	-11.3811
鄧伯温	-11.3812
烜	-11.3813
赤松子	-11.3813
哥	-11.3814
督勒	-11.3814
吝	-11.3815
軟	-11.3815
急急如元始上帝敕	-11.3816
㐲	-11.3816
三河四海	-11.3816
滄海	-11.3817
中央蠻雷	-11.3817
悟微子	-11.3817
玉清聖境	-11.3818
簷	-11.3819
諂	-11.3819
鉤	-11.382
名山大川	-11.382
蠢動	-11.3821
篋	-11.3822
仗劍	-11.3822
噫	-11.3823
刄	-11.3823
個	-11.3824
貧窮	-11.3824
中理五炁	-11.3824
抹	-11.3824
普掠	-11.3824
王功曹僕射使者百二十人出	-11.3825
須㬰之頃	-11.3826
𠻗	-11.3826
蟠	-11.3826
三素元君	-11.3827
忍辱	-11.3827
鉞斧	-11.3827
猖狂	-11.3827
吃	-11.3828
吠	-11.3828
𡄼	-11.3828
司命司録	-11.3829
自縊	-11.3829
疑惑	-11.3829
販	-11.3832
鐵圍	-11.3834
灾厄	-11.3834
解寃	-11.3836
桃花	-11.3839
卷一之六	-11.3842
周匝	-11.3842
右符佩服	-11.3844
歡樂	-11.3846
皂紙	-11.3846
神者請	-11.3848
諸人死鬼	-11.385
𡨚對	-11.3851
緫監	-11.3854
混雜	-11.3858
按摩	-11.386
朗徹	-11.3869
衆諷	-11.3899
捉邪精	-11.393
告之曰	-11.3953
具位小兆	-11.3959
筋骨	-11.3973
姓某謹封	-11.4031
疫毒	-11.405
佳又方	-11.4059
閩	-11.4087
哮吼	-11.4093
神功妙濟眞君	-11.4094
轝	-11.4094
幃	-11.4095
恤	-11.4095
蔓	-11.4096
肢	-11.4097
癩	-11.4097
三捻上香	-11.4097
朋友	-11.4098
碩	-11.4098
悛	-11.4099
慿	-11.4099
阮	-11.4102
樽	-11.4105
澍	-11.4105
速現形	-11.4105
謹牒年月日時牒	-11.4106
霾	-11.4106
須至奏聞者右	-11.4106
恭望天慈	-11.4107
東嶽泰山	-11.4107
萊	-11.4107
㡬	-11.4108
忻	-11.4109
陪	-11.411
乾坎艮震	-11.411
斡旋造化	-11.411
諍	-11.4111
西方蠻雷	-11.4111
區區	-11.4112
救民疾苦	-11.4113
蹉	-11.4113
旭	-11.4114
金璫	-11.4115
懈怠	-11.4117
慜	-11.4117
辰戌丑未	-11.4118
企	-11.4118
癆	-11.4119
驥	-11.4119
淘	-11.4119
右符訣在	-11.412
翌日	-11.412
娑婆	-11.4122
娱	-11.4122
廊	-11.4122
交姤	-11.4124
扶衰	-11.4124
遊奕	-11.4125
追薦	-11.4126
紫微垣	-11.4127
金槍	-11.4127
昭彰	-11.4128
取北炁	-11.4131
靈寳官屬	-11.4133
欽承	-11.4134
昭鑒	-11.4135
支干	-11.4136
錢財	-11.414
隱韻	-11.4141
集註	-11.4143
東方九炁	-11.4149
營護	-11.4153
左手雷局	-11.424
千丈	-11.4248
魔障	-11.4282
皈身皈神皈命	-11.4286
浩蕩	-11.4287
念後呪	-11.4292
跪奏	-11.4302
經一部	-11.4388
騶	-11.4394
等皈身皈神皈命首體投地以是	-11.4398
糾	-11.4398
葆	-11.4399
墉	-11.4399
籖	-11.4401
徙	-11.4402
英百靈衆真交㑹在此香火爐前當願	-11.4405
禾稼	-11.4405
十苦八難	-11.4406
操捧上達	-11.4407
臟腑	-11.4407
牋	-11.4407
向來所啓之誠	-11.4407
領詞難抑	-11.4408
瀾	-11.4408
流火之庭	-11.4408
仙化成人	-11.4409
臯	-11.4409
漓	-11.4409
鈍	-11.4409
耐	-11.441
闊三寸	-11.441
眇眇	-11.4411
悴	-11.4411
瑣	-11.4411
辟斥	-11.4411
沫	-11.4412
噬	-11.4412
陶鎔	-11.4412
三天玉童	-11.4412
天蓬大元帥	-11.4413
䖍誠	-11.4413
翩	-11.4413
覬	-11.4413
受化更生	-11.4413
五色綉衣玉女五伯人	-11.4413
脚踏	-11.4413
寮	-11.4413
体	-11.4413
挽	-11.4413
獰	-11.4414
姹女	-11.4414
本命元辰	-11.4414
珎	-11.4414
蚓	-11.4414
臰	-11.4414
瞽	-11.4415
暐曄	-11.4415
杜光庭	-11.4416
懿	-11.4416
疇	-11.4417
堆	-11.4417
敢有干試	-11.4418
聴	-11.4418
踢	-11.4418
菌	-11.4418
顚倒	-11.4419
俓詣	-11.4419
謨	-11.442
上清三洞弟子靈寳領教嗣師王契眞纂	-11.442
靈書中篇	-11.4421
喗吒唎	-11.4422
兎	-11.4422
燦爛	-11.4423
雞鳴	-11.4425
千二百官	-11.4426
蒂	-11.4427
霖雨	-11.4428
六十甲子	-11.4428
正月一日	-11.4429
殄滅	-11.443
真君聖前	-11.4431
墮落	-11.4434
前後左右	-11.4435
青紙朱書	-11.4435
飛捷使者	-11.4435
庶俾	-11.4436
松脂	-11.4437
驅馳	-11.4437
乾元亨利貞	-11.4438
睿號	-11.444
薦拔	-11.444
細辛	-11.4441
卓劒	-11.4441
謹上請	-11.4441
午文南炁	-11.4441
輔翼	-11.4449
吉疾病	-11.445
丸如梧子大	-11.4453
几案	-11.4454
奉北帝敕	-11.4478
獲感通	-11.4519
爍爍	-11.4621
疆	-11.4678
𠃔	-11.4689
給玉童玉女	-11.4696
衆等至心皈命	-11.4701
茭龍驛吏	-11.4704
許旌陽	-11.4707
天赦寳章	-11.4707
址	-11.4709
此天中人壽	-11.471
今故燒香自皈依師尊大聖衆至	-11.471
兜鍪	-11.471
洞𤣥靈寳	-11.4711
擦	-11.4713
飭	-11.4713
妍	-11.4714
須至録狀申聞者右謹具申	-11.4715
太清仙境	-11.4715
北帝曰下元生人	-11.4715
囿	-11.4716
𣗳	-11.4717
天眞皇人	-11.4718
鍚	-11.4718
君官將一百二十人	-11.4719
飛鷹走犬	-11.4719
陽神決吏	-11.472
憾	-11.4721
𦤺	-11.4721
惰	-11.4721
踞	-11.4722
妹	-11.4722
根刷	-11.4723
時刻昇遷	-11.4723
硤	-11.4723
土地方域神眞臣今	-11.4724
鯨	-11.4724
嬌	-11.4724
衫	-11.4724
栲	-11.4725
真道炁靈寳瑞光下降流入	-11.4725
墀	-11.4725
閟	-11.4725
十方無極世界	-11.4726
天民壽數	-11.4727
隊仗	-11.4727
胄	-11.4727
貪巨禄文	-11.4727
刮	-11.4728
怕	-11.4728
煌煌	-11.4728
七日七夜	-11.4728
糜	-11.4728
蹔	-11.4728
托人用事	-11.4729
庾	-11.4729
風刀之考	-11.473
南斗上生	-11.473
六十四卦	-11.473
慊	-11.473
求官陞職	-11.473
娶	-11.4732
天圓地方	-11.4733
瑶池	-11.4733
拄	-11.4734
玉女二十四人	-11.4735
栽	-11.4736
綱維	-11.4736
滔	-11.4736
大悲天尊	-11.4737
器械	-11.4737
天神地祇	-11.4738
轟雷掣電	-11.4738
燦然	-11.4738
鼈	-11.4738
太上三五正一盟威	-11.474
猜	-11.4742
菓	-11.4743
巿	-11.4748
森列	-11.4754
分三服	-11.4763
□□□□□□	-11.4765
念前呪	-11.4792
一百四十	-11.4817
掐煞文	-11.4857
承誥奉行宗師金闕昭凝妙道保仙元君	-11.4926
惶懼之至謹	-11.4931
金籙白簡	-11.5002
上相青童	-11.5025
南華眞經	-11.5026
此間土地	-11.5027
翌	-11.5027
真之德得道之後	-11.5031
不思議	-11.5036
閏	-11.5037
僅	-11.5037
太上大道君太上老君昊天玉皇上帝	-11.5037
六道四生	-11.5038
掃蕩妖氛	-11.5039
璋	-11.504
翕	-11.504
㝱	-11.504
蚊	-11.5041
羙	-11.5041
金眞玉光	-11.5041
冒犯天威	-11.5041
嵓	-11.5041
生天寳籙	-11.5042
謹内封方函式	-11.5042
初捻上香	-11.5042
熈	-11.5042
矜允	-11.5043
淑	-11.5043
之精思之還反眞形修行	-11.5044
五丁都司	-11.5044
之精思之還反真形修行	-11.5044
浮空而來	-11.5046
棟	-11.5047
靂	-11.5047
坐在立亡	-11.5047
戹	-11.5047
太平興國宫	-11.5047
里域眞官	-11.5048
瑩徹	-11.5048
琢	-11.5048
叮嚀	-11.5048
土地方域神真	-11.5049
窈	-11.5049
經籍度三師	-11.5049
蜚	-11.5049
刦	-11.5049
謀事成事	-11.5049
上官典者	-11.505
提挈	-11.505
擺	-11.5051
寰宇	-11.5051
卉	-11.5051
窄	-11.5052
諳	-11.5052
魁𩲃	-11.5052
灌溉	-11.5052
釀	-11.5053
誠惶誠恐稽首再拜	-11.5054
甑	-11.5054
誅戮	-11.5055
鋤	-11.5057
詭	-11.5057
橋梁	-11.5058
帝君元始洞空自然髙上王炁金闕上聖	-11.5058
如車輪	-11.5059
詎	-11.5059
彝	-11.5062
朒	-11.5063
妓	-11.5063
㗭	-11.5064
伏匿	-11.5065
室主收天下	-11.5071
莊嚴	-11.5075
監勒	-11.5075
拯救	-11.5122
掐午文	-11.521
骨髓	-11.5249
唎娑訶	-11.5253
劒訣虚書	-11.5285
瞤	-11.5346
魔魅	-11.535
姤	-11.536
臟	-11.5364
歐	-11.5365
暈	-11.537
迢	-11.537
粤	-11.537
譜録	-11.537
無鞅數衆	-11.5371
立成儀	-11.5371
上明天尊大慈之澤下副	-11.5371
樊	-11.5372
紊	-11.5373
祖師金闕上保清眞紫虚元君魏	-11.5373
鐺	-11.5374
筮	-11.5375
貳	-11.5375
巍	-11.5375
駡	-11.5375
恭望洪慈	-11.5375
𠮷	-11.5376
汩	-11.5376
禾苗	-11.5377
君解謝之若犯	-11.5377
咸令照應特爲	-11.5378
蔕	-11.5378
謹重封	-11.5378
燎	-11.5378
狐狸	-11.5379
譏	-11.5379
邃	-11.5379
重封印全	-11.538
罣	-11.538
廉武破	-11.538
懋	-11.538
玉女五帝直符直日香官合三十六人	-11.538
牲	-11.5381
侍香金童	-11.5381
悚	-11.5381
絞取汁	-11.5382
眥	-11.5382
風火無停	-11.5382
玃	-11.5382
洞微髙士開光救苦眞人𡩋全眞授	-11.5383
混洞赤文	-11.5383
入將名	-11.5383
北斗落死	-11.5384
北都羅酆	-11.5384
夾脊雙關	-11.5384
樣	-11.5384
諸君丈人	-11.5384
疾除罪簿落滅惡根	-11.5384
冡	-11.5384
二人天靈赤官斬邪	-11.5384
屎	-11.5385
四司五帝	-11.5386
迓	-11.5387
撿	-11.5387
惹	-11.5388
虫	-11.5388
北帝伏魔	-11.5389
塚訟	-11.5389
敲	-11.539
畢仰咽	-11.539
跛	-11.539
天動地	-11.5393
問訊	-11.5393
兵戈	-11.5394
遷賞	-11.5395
梧桐	-11.5396
鬱單	-11.5396
請詳事理	-11.5396
非智慧也	-11.5397
東方朔	-11.5398
章詞表	-11.5399
闡揚	-11.5401
潄	-11.5402
捺	-11.5403
湧泉	-11.5411
月五日	-11.542
轟天霹靂	-11.5461
掐子文	-11.5463
卷有圖	-11.5486
是名眞人觀諸法性得决定心	-11.57
鞅	-11.5701
毓	-11.5704
庖	-11.5705
闗	-11.5708
將九億萬騎出无上	-11.5708
榛	-11.5708
堯舜	-11.5711
䘖	-11.5712
笛	-11.5712
藩	-11.5712
灝	-11.5712
太霄琅書	-11.5713
躅	-11.5714
鵬	-11.5715
真之德得道之後昇入無形	-11.5715
巒	-11.5715
大慈大悲	-11.5715
惻	-11.5715
東極青宫	-11.5716
諸天諸地	-11.5716
聮	-11.5716
窗	-11.5717
干冒師嚴	-11.5717
紂	-11.5717
超凡入聖	-11.5718
笏	-11.5718
鬻	-11.5719
葛仙翁	-11.5719
續仙傳	-11.5719
蜃	-11.5719
眞道炁靈寳瑞光下降流入臣	-11.572
唐葛周	-11.572
不得稽停	-11.5721
纎	-11.5722
各二十四人出	-11.5722
胡粉	-11.5723
俺	-11.5723
沒	-11.5723
彷彿	-11.5723
𦔳	-11.5724
千六百	-11.5724
金馬驛	-11.5724
須至關者右關	-11.5724
烘	-11.5724
扎	-11.5725
天真皇人	-11.5725
身中令臣所啓	-11.5725
睹	-11.5726
譴責	-11.5726
上部洞天八景自然靈寳神仙	-11.5726
速現眞形	-11.5726
棹	-11.5727
謄詞	-11.5727
飛沙走石	-11.5727
兵士十萬人	-11.5728
閼	-11.5728
毗	-11.5729
璇璣玉衡	-11.573
策杖	-11.573
拈	-11.573
溝	-11.5731
者針决	-11.5731
中部洞玄八景自然靈寳神仙	-11.5731
滂	-11.5731
笥	-11.5731
下部洞靈八景自然靈寳神仙	-11.5731
合明天帝日	-11.5732
麓	-11.5732
馮夷	-11.5732
三洞經籙	-11.5733
九月九日	-11.5733
犒	-11.5733
何神不伏	-11.5733
太一十神	-11.5734
掀	-11.5734
寂寞	-11.5735
踴躍	-11.5735
闌	-11.5735
錐	-11.5736
閤	-11.5736
南嶽夫人	-11.5736
催督	-11.5736
誠惶誠恐	-11.5737
蓊鬱	-11.5737
十方飛天神王	-11.5738
癖	-11.574
嘯命風雷	-11.5741
産孕	-11.5741
皂靴	-11.5745
乆乆	-11.5747
服三丸	-11.5749
皂莢	-11.5757
癥	-11.5763
筆硯	-11.5789
一百一十	-11.5789
兵三十萬	-11.5843
利六畜	-11.5996
羈	-11.6051
眞人告童子言善見童子若諸眞人	-11.6057
詛	-11.6061
徇	-11.6061
槍	-11.6062
矛	-11.6064
藜	-11.6067
何喬二	-11.607
玷	-11.6071
彪	-11.6072
扈	-11.6072
宿天華雷	-11.6073
叱咄	-11.6073
宿生今世	-11.6074
珪	-11.6074
在上清之上	-11.6075
恭望聖慈允俞所	-11.6075
神烈陽雷神君苟留吉陰雷神君畢宗逺	-11.6075
悦	-11.6076
燔	-11.6076
羡	-11.6076
須至牒者右牒上	-11.6077
恭望道慈	-11.6077
千年仙矣	-11.6077
湮	-11.6077
倶	-11.6078
驅雷役電	-11.6078
駿	-11.6079
嚴駕夔龍	-11.6079
伏須告報	-11.6079
泒	-11.6079
縻	-11.608
廖	-11.608
懶	-11.608
漲	-11.6081
各禮師存念如法宣衛靈呪	-11.6081
㳺	-11.6081
甲子庚申	-11.6082
崑	-11.6082
青龍白虎	-11.6083
牡	-11.6083
㳙	-11.6084
王氏神仙傳王	-11.6084
貧富	-11.6084
趺	-11.6084
左右龍虎君	-11.6085
奬	-11.6085
角亢氐房心尾箕	-11.6085
興販	-11.6085
蛟蜃	-11.6085
兠	-11.6086
叩齒三十二通	-11.6086
無動無作	-11.6086
揣	-11.6086
嚤呢	-11.6087
貪巨禄文廉武破	-11.6088
緋袍	-11.6088
蚕	-11.6088
芟	-11.6089
窠	-11.609
謟	-11.6092
彤	-11.6093
宿炁名	-11.6093
混元玉札	-11.6093
大指搯	-11.6094
舋	-11.6095
蔬	-11.6095
頊	-11.6095
上生天堂	-11.6096
七祖充責	-11.6096
惺	-11.6096
疵	-11.6096
周而復始	-11.6096
怳	-11.6096
匙	-11.6096
樞紐	-11.6097
以是因縁	-11.6099
文又言敕	-11.6099
稍稍	-11.6099
𡆄	-11.6101
聖意訟	-11.6105
人惡星當滅復連當絶	-11.6106
立春之日	-11.6115
右手劔訣	-11.6118
寅午戌	-11.6126
採訪真君	-11.6198
宗師金闕昭凝妙道保仙元君	-11.6204
潦	-11.6422
外合行元降	-11.6428
橐籥	-11.6429
太平興國	-11.6437
殖	-11.6437
孤魂滯魄	-11.644
南曹執法	-11.644
大將軍百二十人北極神呪勑	-11.6441
竦	-11.6442
裕	-11.6442
癰疽	-11.6442
寇	-11.6442
綾	-11.6442
憤	-11.6442
保舉監度度師	-11.6443
斟	-11.6443
諶	-11.6444
兖	-11.6444
蠁	-11.6444
鳧	-11.6444
掖	-11.6445
衛我九重	-11.6446
倡	-11.6446
淆	-11.6446
㰱	-11.6446
廡	-11.6447
臆	-11.6447
灌漑	-11.6447
漢武帝	-11.6447
悵	-11.6448
普掃不祥	-11.6448
願此香煙騰空俓上供養	-11.6448
黄華蕩形	-11.6449
西斗記名	-11.6449
盼	-11.6449
天羅地網	-11.645
蛛	-11.645
宋無忌	-11.645
啗	-11.6451
枳	-11.6451
不忠不孝	-11.6451
雷霆九司	-11.6451
井鬼柳星張翼軫	-11.6452
薈	-11.6452
终	-11.6452
痘	-11.6453
夔	-11.6453
遟	-11.6454
褥	-11.6455
君之道常以	-11.6455
五靈玄老	-11.6455
亢旱	-11.6455
治太上中氣	-11.6455
羹	-11.6455
下台三青	-11.6455
闓	-11.6455
羌	-11.6456
祈求雨澤	-11.6456
閽	-11.6456
榆	-11.6456
開明三景	-11.6456
急急如太上老君律令	-11.6456
欄	-11.6456
天一生水	-11.6457
螣蛇	-11.6457
麤	-11.6458
王文卿	-11.6458
破地召雷	-11.646
灰燼	-11.646
餉	-11.646
旋遶	-11.6462
空玄之中	-11.6462
澇	-11.6463
茱	-11.6463
善哉善哉	-11.6464
彊	-11.6464
鈐	-11.6464
國安民	-11.6465
寂然不動	-11.6467
狐疑	-11.6467
蚣	-11.6468
觜參	-11.6469
癲	-11.6469
凝神定息	-11.647
澁	-11.6472
者分形諸邪神	-11.6482
獄符呪曰神霄眞王勑下九天	-11.6482
合而爲一	-11.6485
奎婁胃昴畢觜參	-11.6528
上白天尊	-11.6576
雪雹	-11.6704
從官十七人	-11.6705
侍香金童傳言玉女	-11.6773
邪食邪吏	-11.6792
谿	-11.6802
鳴天鼓	-11.6817
顙	-11.6818
禬	-11.6823
㭒	-11.6823
嬪	-11.6824
故作誤爲	-11.6824
觴	-11.6824
濟物利人	-11.6825
𤑔	-11.6825
䝉	-11.6826
肌膚	-11.6826
三界應感一切真靈	-11.6827
肴	-11.6827
紘	-11.6828
紫素元君	-11.6828
醇	-11.6829
卞	-11.6829
高上神霄玉清王	-11.6829
葢	-11.683
恭望眞慈	-11.683
髭	-11.6831
元始天尊太上道君太上老君	-11.6831
查	-11.6831
投詞伏爲	-11.6832
杳杳	-11.6832
挈	-11.6833
悌	-11.6833
者徒二年	-11.6834
媒	-11.6834
畝	-11.6835
旂	-11.6835
繳	-11.6836
冉冉	-11.6836
孜孜	-11.6836
行雨龍王	-11.6837
婉	-11.6837
夤	-11.6837
緬	-11.6838
琪	-11.6838
頤	-11.6838
終南山	-11.6838
巷	-11.6839
輅	-11.6839
盃	-11.6839
無拘天門	-11.6839
元應太皇府	-11.6839
咖	-11.6839
五星列照煥明五方水星却	-11.6839
蠡	-11.6839
張道陵	-11.684
礪	-11.6841
伏候昭報	-11.6841
虵	-11.6841
邙	-11.6842
拖	-11.6842
鴻濛	-11.6842
錦之囊	-11.6842
爇	-11.6842
抽添	-11.6842
狡	-11.6843
眞君度南昌上生	-11.6844
飊	-11.6844
上十方香	-11.6845
燼	-11.6845
田疇	-11.6845
噤	-11.6846
洞微髙士開光救苦真人𡩋全	-11.6847
宂	-11.6848
殃及九祖	-11.6849
讒	-11.6849
炊	-11.6851
竺	-11.6851
回紇	-11.6854
𩲓	-11.6854
琳琅	-11.6854
陌	-11.6856
如梧子	-11.6856
稠	-11.6858
糓	-11.686
痹	-11.6861
州社令雷神	-11.7009
交脚幞頭	-11.7071
功曹一十五人	-11.7076
者分形諸	-11.7173
纛	-11.7211
彌綸	-11.7216
晻	-11.7218
咀嚼	-11.722
曖	-11.7222
青木香	-11.7222
罪由不	-11.7222
冨貴	-11.7223
占財買賣	-11.7223
甄	-11.7224
三啓三禮	-11.7224
霶	-11.7224
迄	-11.7225
官各二人出	-11.7225
窈窕	-11.7225
週	-11.7225
耦	-11.7226
𨇠	-11.7227
十一大曜	-11.7228
溷	-11.7228
空三寸篆符	-11.7228
霶𩃱	-11.7228
蹟	-11.7229
北魁玄範府	-11.7229
秃	-11.7229
瞋	-11.7229
高上神霄玉清眞王長生大帝	-11.7229
故關年月日關	-11.723
四明破骸	-11.7231
徼	-11.7231
紫度炎光	-11.7231
槐	-11.7231
如彈丸	-11.7231
鋸	-11.7231
自然而然	-11.7232
苔	-11.7232
降眞召靈	-11.7232
㓗	-11.7232
簮	-11.7232
符章經道	-11.7232
朵	-11.7233
控轡	-11.7233
幄	-11.7233
籥	-11.7233
碧落空歌	-11.7234
螟	-11.7234
黷	-11.7234
當司得此	-11.7234
恭望聖慈允今所申	-11.7234
君隨四時形影在上清	-11.7234
疸	-11.7234
聞師省	-11.7234
大將軍十萬人玄老	-11.7234
恭望師慈允	-11.7235
訾	-11.7236
五道四生	-11.7236
俄頃	-11.7236
綏	-11.7236
怱	-11.7237
荼	-11.7237
鏗	-11.7237
璨	-11.7237
膊	-11.7238
痕	-11.7238
疥	-11.7238
殂	-11.7239
踊	-11.7239
缸	-11.724
憇	-11.724
買賣	-11.724
吾今召汝	-11.724
封山破洞	-11.7241
直齋僕射百二十人出	-11.7241
狸	-11.7241
芍藥	-11.7241
迯	-11.7242
詈	-11.7242
濳	-11.7242
雙手雷局	-11.7242
一丈二尺	-11.7243
廬山太平興國宫	-11.7243
炅	-11.7244
峽	-11.7244
𠷈	-11.7244
釐	-11.7245
名山洞府	-11.7246
踊躍	-11.7246
弁	-11.7246
壟	-11.7246
閫	-11.7247
恡	-11.7247
焜	-11.7247
木郎呪	-11.7247
嶁	-11.7248
繿	-11.7249
蹙	-11.7249
喏	-11.725
九九八十一	-11.7251
四炁朗清	-11.7252
櫛	-11.7253
晅	-11.7253
從上第	-11.7253
哼	-11.7253
柈	-11.7266
峴泉集卷之	-11.7626
芻	-11.7633
流鈴八衝	-11.7633
閔	-11.7634
經爲司舉	-11.7634
怨道咎師	-11.7635
隋	-11.7637
硬	-11.7638
綽	-11.764
炁食炁吏	-11.764
稽首頓首再拜	-11.7641
髯	-11.7641
昱	-11.7641
具狀奏聞者右	-11.7641
登道岸	-11.7642
钁天大斧	-11.7642
矅	-11.7642
玉晨君北斗	-11.7643
狼吏虎賁	-11.7643
一如元降律令	-11.7643
贅	-11.7643
謐	-11.7644
𩔗	-11.7644
培	-11.7644
金龍驛吏	-11.7645
儵	-11.7646
嶷	-11.7646
旄	-11.7646
優游	-11.7646
旻	-11.7646
緝	-11.7647
霓旌	-11.7647
立夏之日	-11.7647
鳯凰	-11.7647
寰區	-11.7647
蛾	-11.7647
白日登晨	-11.7647
劬	-11.7648
梧	-11.7648
挼	-11.7648
高元宸照宫	-11.7649
上景玉仙飛行	-11.7649
虚無自然元始天尊	-11.765
請頒恩命	-11.765
萎	-11.765
姧	-11.765
聘	-11.765
俯垂省覽	-11.765
依應奉行	-11.7651
南北二斗	-11.7651
夣	-11.7651
鐘磬	-11.7652
宴十方五雲浮蓋招神攝風	-11.7652
長生乆視	-11.7652
埜	-11.7653
陸簡寂	-11.7653
逡巡	-11.7653
脣	-11.7653
旙	-11.7653
陂	-11.7654
綿裹	-11.7654
嚴裝顯服	-11.7654
以爲効信	-11.7654
謹内封	-11.7654
睫	-11.7654
依律治罪	-11.7655
勁	-11.7655
通章印	-11.7655
蘋蘩	-11.7655
涸	-11.7655
癬	-11.7656
尿	-11.7657
獠	-11.7657
身中五體眞官	-11.7658
建大齋	-11.7658
蚩尤	-11.7658
迤	-11.7658
急急如元始上帝命	-11.7659
者徒九年	-11.7659
渇	-11.7659
五湖四海	-11.7659
御風註曰	-11.7659
筯	-11.766
冗	-11.7661
曵	-11.7662
獬	-11.7662
檻	-11.7663
滂沱	-11.7665
三日三夜	-11.7665
橐	-11.7665
擕	-11.7665
䑛	-11.7666
技	-11.7667
咒詛	-11.7667
唫	-11.7669
晡	-11.7669
胸	-11.767
苓	-11.7671
攣	-11.7671
從兆泥丸中入下布	-11.7674
𡀎	-11.7677
梳	-11.768
飛天神王長生大聖	-11.7685
厄符右符謹請	-11.7689
◍	-11.7737
某年某月	-11.7785
念金光呪	-11.7908
白天尊言	-11.7965
收神食神吏	-11.8025
身中所佩太上	-11.8034
之訟訴其	-11.805
死魂符解	-11.8068
豕	-11.807
天火地火	-11.8073
挫	-11.8073
偕	-11.8073
㨿	-11.8074
據家國利亨名刋玉簡字録帝房乗	-11.8074
臧	-11.8075
上清紫微碧玉宫太一大天帝	-11.8075
藪	-11.8075
塑	-11.8075
一炁都統大將軍	-11.8077
瓊文帝章	-11.8077
恭望天慈允	-11.8077
高刁北翁	-11.8077
春夏秋冬	-11.8078
瞿	-11.8078
劎	-11.8079
三篇同卷	-11.8079
今故燒香自皈依經尊大聖衆至	-11.8079
旃	-11.8079
絕	-11.808
斕	-11.808
二千四百	-11.808
二千石	-11.808
霙	-11.8081
幣	-11.8082
今故燒香自皈依道尊大聖衆至	-11.8082
祛却不祥	-11.8082
嶮	-11.8082
峩峩	-11.8082
𩵄䰢	-11.8082
萍	-11.8082
咤	-11.8082
今日今時	-11.8082
監齋直事	-11.8083
膩	-11.8083
乹	-11.8084
九鳳破穢	-11.8084
輔正除邪	-11.8084
素梟三神	-11.8084
巽離坤兊	-11.8084
芩	-11.8084
仔細	-11.8084
艷	-11.8085
胚	-11.8085
王屋山	-11.8085
梗	-11.8085
羨	-11.8085
哭泣	-11.8085
暘谷神君張	-11.8086
一如故事	-11.8086
元始一炁萬神雷司本司今據	-11.8086
妙行真人	-11.8087
敕制地祇	-11.8087
七星移度	-11.8087
俯仰之格	-11.8088
軽	-11.8088
恭望師慈	-11.8088
隄	-11.8088
弓箭	-11.8089
騾	-11.8089
正一道士陳葆光撰集	-11.809
千和萬合自然成眞	-11.809
稅	-11.809
法天象地	-11.809
當處土地	-11.809
天一北祚	-11.8091
上消天灾	-11.8092
廚	-11.8093
籬	-11.8093
無施不可	-11.8094
便驚人	-11.8094
檗	-11.8094
摧山倒嶽	-11.8094
天一北獄	-11.8095
一如吿命	-11.8095
萬不得仙	-11.8095
憩	-11.8095
鍔	-11.8096
皺	-11.8096
希恩照應外	-11.8096
拓	-11.8096
生貴子	-11.8097
挂	-11.8098
葫	-11.8098
魁至魒	-11.8098
召龍負水	-11.8099
玉清上元飛行混沌紫虚華景	-11.81
𠰂	-11.81
墳墓	-11.8102
嘟	-11.8103
急急如北陰玄天酆都鬱絶大帝律令	-11.8103
糊	-11.8103
嗗	-11.8103
蒼天上帝	-11.8103
呷	-11.8104
𤓰	-11.8105
櫃	-11.8106
捩	-11.8106
叩齒二七	-11.8107
道賢者神名	-11.8108
飼	-11.8111
法十種	-11.8114
楓	-11.8119
降炁入符解	-11.8124
可不慎	-11.8188
揈	-11.8216
三五功曹左右官使者	-11.848
使清微洞	-11.8506
仙靈官右	-11.8507
簽	-11.8517
祿	-11.8524
曁	-11.8525
顱	-11.8525
豺	-11.8527
南嶽衡山	-11.8528
出臣等身中三五功曹左右官使者左右	-11.8528
蘧	-11.8528
眸	-11.8528
天猷滅類	-11.8529
以今清旦行道請法衆等運兹	-11.853
太極左宫	-11.853
慄	-11.853
嚏	-11.853
倪	-11.8531
九元煞童	-11.8531
袴	-11.8531
臣某與合壇官衆等謹同誠上啓	-11.8531
萬鬼自潰	-11.8532
蹕	-11.8532
赤帝養炁	-11.8532
祖師高元宸照法王清眞紫虚元君	-11.8533
領兵三十萬人北極	-11.8533
萬年仙矣	-11.8533
亡過某等及下元苦爽	-11.8533
以今臨午行道請法衆等運兹	-11.8533
馴	-11.8534
刁	-11.8534
乂	-11.8535
遑	-11.8535
槨	-11.8535
窿	-11.8535
敝	-11.8536
浚	-11.8536
諫	-11.8536
行神布炁	-11.8536
西嶽華山	-11.8536
湫	-11.8537
𧷤	-11.8537
蔣氏立成儀	-11.8537
歸根復命	-11.8537
巳録告聞願得太上十方至	-11.8538
鳴法皷二十四通髙功發爐	-11.8538
殯	-11.8538
疽	-11.8538
嵎	-11.8539
昊天至尊玉皇上帝	-11.8539
右謹具申	-11.854
刪	-11.854
𦋇	-11.854
曲素訣辭	-11.854
敷落五篇	-11.854
常能行之	-11.8541
艶	-11.8541
麈	-11.8541
誠惶誠恐稽首頓首百拜上言	-11.8541
槿	-11.8541
真武靈應真君	-11.8541
繡衣使者玉童玉女各九億萬人	-11.8542
篹	-11.8542
殺鬼萬千	-11.8542
㬰	-11.8542
冊	-11.8542
首體投地	-11.8542
論别本	-11.8542
事干濟衆	-11.8543
欻火律令大神	-11.8543
褻	-11.8543
烱	-11.8544
鑰	-11.8544
嗶	-11.8544
二官直使	-11.8544
斟酌	-11.8545
無極神郷	-11.8545
感而遂通	-11.8545
察命童子	-11.8545
驪	-11.8545
出有入無	-11.8545
坡	-11.8545
靈官馬元帥	-11.8545
巴元醜伯	-11.8545
願神願仙	-11.8545
踪	-11.8546
棊	-11.8546
陽九百六	-11.8546
醪	-11.8547
毅	-11.8547
磊	-11.8547
雉	-11.8547
有幸得	-11.8547
玄之又玄	-11.8547
者處斬諸神吏符使	-11.8548
魁𩲃𩵄䰢魓	-11.8548
郝	-11.8548
膳	-11.8549
鐄	-11.8549
食鬼吞精	-11.8549
鹵	-11.8549
杞	-11.8549
中山神呪	-11.855
千金方治	-11.855
田宅人口頭疋	-11.8551
命魔靈幡	-11.8551
漑	-11.8551
慳	-11.8553
鵰	-11.8553
囬	-11.8555
戶	-11.8555
藜蘆	-11.8556
上清三洞弟子靈寳領教嗣師王契真纂	-11.8556
外臺祕要	-11.8556
亨轟滑辣	-11.8557
龎	-11.8557
亥卯未	-11.8559
以鼻吸	-11.856
槃	-11.856
九億萬重上眞九老上清皇眞玉帝	-11.856
虹蜺	-11.8561
牡蠣	-11.8563
榻	-11.8564
襪	-11.8565
㖟	-11.8569
吴茱萸	-11.8572
喃	-11.8573
梵寳天	-11.8592
服方寸七日三	-11.8602
三天玄元始三炁太上道君太上老君召	-11.8749
上三天玄元始三炁太上道君太上老君	-11.8804
録狀上奏	-11.8899
鬼食鬼吏	-11.8935
洪恩靈濟真君	-11.8943
褚	-11.8954
師尊大聖衆至眞之德得道之後	-11.8966
牝	-11.8984
炁呵入	-11.8989
雲笈七籖	-11.8991
郷神仙諸靈官	-11.8993
旴	-11.8993
鏁	-11.8994
從官一百二十人與吾	-11.8994
濮	-11.8997
西王毋	-11.9
遘	-11.9
佯	-11.9001
綂	-11.9004
磐	-11.9004
伏候敕㫖	-11.9004
堵	-11.9004
瑤	-11.9005
臓	-11.9005
承天效法后土皇地祇	-11.9005
掬	-11.9005
不避誅夷	-11.9006
彙	-11.9006
琅玕	-11.9006
門下拜受	-11.9006
儗	-11.9006
蘋	-11.9006
沿路土地	-11.9006
璫	-11.9007
朦朧	-11.9007
赭	-11.9009
蚌	-11.9009
筠	-11.9009
凄	-11.9009
天騶激戾	-11.901
厖	-11.9011
俛	-11.9012
犢	-11.9012
譔	-11.9012
地司猛吏殷郊	-11.9012
媾	-11.9012
泮	-11.9013
巳得道大聖衆至眞諸君丈人	-11.9013
彂	-11.9014
亹	-11.9014
洿	-11.9014
如逆上清	-11.9015
瀨	-11.9015
臊	-11.9015
峭	-11.9015
干冒威嚴	-11.9015
縹	-11.9015
列言上清	-11.9016
饑饉	-11.9016
臉	-11.9017
冨	-11.9017
須至專牒者右牒	-11.9017
亦當修齋行香誦經	-11.9017
卽	-11.9017
都講舉各禮師存念如法髙功宣衞靈呪	-11.9017
虜	-11.9017
顏	-11.9017
佗	-11.9018
駁	-11.9018
誚	-11.9018
玲	-11.9018
緲	-11.9018
仰依太上三尊十方衆聖願以是	-11.9018
始勤終怠	-11.9018
涇	-11.9019
凟	-11.9019
速達徑御太上無極大道昊天玉皇上帝	-11.9019
瑚	-11.9019
與道合真鳴法鼓二十四通無上三天玄	-11.9019
黯	-11.902
長八寸	-11.902
䙝	-11.902
醖	-11.9021
思之還反真形夏三月	-11.9021
各禮師存念如法	-11.9021
以今靜夜行道請法衆等運兹	-11.9021
一如告命風火驛傳	-11.9021
悽	-11.9021
窻	-11.9022
一五七數及亥卯未年月日時方位正東	-11.9022
當司今據入意同前須至牒者牒	-11.9022
脛	-11.9022
摘	-11.9022
鶉	-11.9022
莾	-11.9023
猒	-11.9023
霰	-11.9023
灘	-11.9023
章次讀	-11.9024
禎	-11.9024
延年益壽	-11.9024
天昏地黑	-11.9024
魂神澄正	-11.9025
㖂	-11.9026
㓨	-11.9026
一如告命太歳年月日時告下法位	-11.9026
穎	-11.9027
粧	-11.9027
生老病死	-11.9027
葛仙翁肘後備急方	-11.9027
苞	-11.9028
賞善罰惡	-11.9028
咳	-11.9028
玉淸訣	-11.9029
確	-11.9029
鹹	-11.9032
威劒神王	-11.9033
昻	-11.9035
尓	-11.9036
鬽	-11.9042
啹	-11.9043
桔梗	-11.9052
某月某日某時	-11.9107
仙童玉女接侍蘭煙傳臣向來所啓之誠	-11.9261
瘻	-11.9483
鈕	-11.9494
蟬蛻	-11.9497
訪使清微	-11.9499
周易參同契	-11.9499
楮	-11.95
書竹膜	-11.9501
嬴	-11.9502
歸身歸神歸命	-11.9502
茆	-11.9503
垠	-11.9503
圜	-11.9503
惒	-11.9504
州刺史	-11.9505
邢	-11.9505
峴	-11.9506
日布地支中	-11.9507
斂	-11.9508
械	-11.9509
黔	-11.9509
之誠謹啓以聞十二願復爐	-11.9509
劫亡苦爽	-11.951
消災散禍	-11.951
謹遵元降進呈	-11.951
九天捷疾焚炎楊符使	-11.951
頽雲髻	-11.9511
蜒	-11.9511
翥	-11.9512
隷	-11.9512
陽雷神君苟	-11.9512
𨺚	-11.9512
三天扶教輔元大法師	-11.9512
三界應感一切眞靈	-11.9513
邸	-11.9513
行道謹奏爲入意其諸忱悃	-11.9513
刳	-11.9514
沖和妙道心章	-11.9514
清微宗主眞元妙化上帝	-11.9514
北斗尊帝七元輔弼星君南極大帝	-11.9514
吩	-11.9514
天猷副元帥	-11.9514
方太上頌曰	-11.9514
廻骸起死	-11.9515
白玉龜臺	-11.9515
英百靈衆眞交㑹在此香火爐前當願	-11.9515
右章泄自太虚流布三界	-11.9515
本命元辰洞天海嶽三界官屬一切真靈	-11.9515
賚	-11.9516
風雲雷電雨	-11.9516
筞	-11.9516
道門定制卷之	-11.9516
悟真篇	-11.9517
九萬九千九百九	-11.9517
雷霆主令大神鄧	-11.9517
覧	-11.9517
瘞	-11.9518
翛	-11.9518
十轉回靈	-11.9518
庻	-11.9518
井花水	-11.9518
長顱巨獸	-11.9519
桉	-11.9519
揀	-11.9519
如雞子	-11.9519
榴	-11.9519
新出老君	-11.9519
娠	-11.9519
賾	-11.9519
諌	-11.952
黄神烈露臺	-11.952
紙粉書	-11.952
太一天章陽雷霹靂大法	-11.952
柰	-11.952
燌	-11.9521
老祖天師六合無窮高明大帝律令	-11.9521
欒	-11.9521
需	-11.9521
孺	-11.9521
玉清上清太清	-11.9521
召出臣身中三五功曹左右官使者	-11.9521
揩	-11.9522
礫	-11.9522
歃	-11.9522
二四八數及寅午戌年月日時方位西南	-11.9523
婢	-11.9523
雲行雨施	-11.9524
釵	-11.9524
師友命過	-11.9524
太上大道玉清經卷之	-11.9524
某郡縣鄉里	-11.9524
怎	-11.9524
㓙	-11.9525
螻蟻	-11.9525
旒	-11.9526
五七數及亥卯未年月日時方位東北第	-11.9526
蒞	-11.9527
梅師方治	-11.9527
訂	-11.9527
詵	-11.9528
日後如遇	-11.9528
西城王君	-11.9529
牒具如前	-11.9531
趕	-11.9531
磁	-11.9531
鍼	-11.9531
嚕	-11.9532
千罪萬過	-11.9532
訣法未降	-11.9533
炁三嚥止便讀玉經經畢又祝曰	-11.9533
攔	-11.9533
斃	-11.9534
卻	-11.9535
净	-11.9535
楫	-11.9535
机	-11.9536
痼	-11.9536
剡	-11.9537
九千萬億人上元自然洞眞玉帝虚靈	-11.9537
喎	-11.9537
外臺秘要	-11.9542
水三升煑取一升	-11.9543
糠	-11.9545
嘧	-11.9546
𢊍	-11.9557
病可醫	-11.9558
雷速發	-11.9685
室燒香北向	-11.9834
濵	-12.002
疎	-12.0021
轂	-12.0021
峨嵋	-12.0022
怙	-12.0025
八威吐毒	-12.0025
琰	-12.0028
賁	-12.0028
求字公書	-12.0029
屐	-12.003
三十代天師	-12.003
悰	-12.0031
肹	-12.0032
正一靜應顯佑眞君	-12.0033
煜	-12.0033
瀟	-12.0033
栝	-12.0033
髏	-12.0034
長生保命天尊	-12.0035
攬	-12.0035
靈寳監齋大法師	-12.0036
什	-12.0036
漚	-12.0036
睇	-12.0036
局中天星地煞	-12.0036
紆	-12.0036
至眞無極大道昊天玉皇上帝	-12.0038
白帝侍魄	-12.0038
姪	-12.0039
騐	-12.0039
匆	-12.0039
苕	-12.004
英百靈衆眞交㑹在此香火	-12.004
鍳	-12.004
神烈陰陽苟畢二雷君	-12.004
螭	-12.004
丹景道精	-12.004
韭	-12.004
駟	-12.004
願此香烟騰空徑上供養	-12.0041
狠	-12.0041
極進賢之冠	-12.0041
鏘	-12.0041
蔑	-12.0041
趁	-12.0041
玄至眞自然靈飛隱書玉清	-12.0042
十方無極太上靈寳天尊	-12.0042
躬承開度	-12.0042
南辰北斗	-12.0042
須至專牒者牒	-12.0042
棋	-12.0042
茗	-12.0043
閶	-12.0044
求謀大	-12.0045
秪	-12.0045
酢	-12.0046
鬥	-12.0046
非比泛常	-12.0046
詵詵	-12.0046
忒	-12.0046
樗	-12.0046
九天採訪應元保運真君	-12.0046
元始三炁太上道君太上老君召出	-12.0046
售	-12.0047
下官故炁	-12.0047
沽	-12.0047
俵	-12.0047
𣑽	-12.0047
今上皇帝	-12.0047
㘞	-12.0047
依教奉行	-12.0048
两	-12.0048
左日右月	-12.0048
摭	-12.0048
髠	-12.0048
杪	-12.0049
郵	-12.0049
二四八數及寅午戌年月日時方位正南	-12.005
僥	-12.005
呻	-12.005
聞呼即至	-12.005
某州縣郷里	-12.0051
急急如元始上帝律令	-12.0051
泔	-12.0051
奉行年月日時批行具法位姓	-12.0052
允臣所奏	-12.0053
功滿德就	-12.0053
惚	-12.0053
壹	-12.0054
粳	-12.0055
恁	-12.0055
鞶	-12.0055
颯	-12.0056
積功累行	-12.0056
保制劫運使天長存	-12.0056
媿	-12.0056
磕	-12.0056
瓠	-12.0057
𥬇	-12.0058
杭	-12.0059
岷	-12.0059
蕙	-12.0059
恙	-12.006
者加一等	-12.0061
堤	-12.0062
辣	-12.0062
䄂	-12.0063
縑	-12.0065
訝	-12.0066
虺	-12.0074
急急宻呪唵	-12.0079
糖	-12.0083
毒食毒吏	-12.0469
洞𤣥靈寶	-12.0474
道祖鳴雷大帝	-12.0494
塲	-12.0518
拾遺記	-12.0574
礴	-12.0574
誼	-12.0577
背負火瓢	-12.0579
祓	-12.0582
組	-12.0584
聽得三傳	-12.0585
愫	-12.0585
普同供養	-12.0586
攢	-12.0586
伏候勑㫖	-12.0587
者流三千里	-12.0587
負天擔石	-12.0587
貶	-12.0587
吏三百六十人度文昌三五	-12.0587
禆	-12.0588
負風猛吏	-12.0588
畢還北向平坐	-12.0588
袐	-12.0589
帚	-12.059
朱陵度命天尊	-12.059
通事舍人	-12.0591
沬	-12.0591
某與合壇	-12.0591
九斗陽芒流金火鈴大將	-12.0592
監眞度生	-12.0592
四溟四丁大神當季行雨龍雷主者紫堂	-12.0592
依草附木	-12.0593
鬛	-12.0593
萼	-12.0593
吾奉玉清敕速降元炁成發符呪	-12.0593
大將軍十萬人太上	-12.0593
聖前伏望聖慈俯垂省覽	-12.0594
鄱	-12.0594
聃	-12.0594
溪源潭洞	-12.0594
屇	-12.0594
絮	-12.0594
斿	-12.0595
俚	-12.0595
羯	-12.0595
笠	-12.0595
瞞	-12.0595
湊	-12.0595
元天大聖后	-12.0595
蓼	-12.0595
通天徹地	-12.0596
九皇上真十方巳得道大聖衆至真諸君	-12.0596
兩口訣是	-12.0596
理難抑違	-12.0596
萬始先生	-12.0597
前生今世	-12.0597
綃	-12.0597
稼穡	-12.0597
君隨四時形影在玉清	-12.0597
禇伯秀	-12.0598
明檢鬼營	-12.0598
蓆	-12.0598
白日昇晨	-12.0598
正一靜應眞君	-12.0599
三官五帝九府四司	-12.0599
三天門下上清天樞院	-12.0599
赤天曆旗剛風	-12.0599
雲雷雨部	-12.0599
瀑	-12.0599
頡	-12.06
餚	-12.06
垓	-12.06
黄泉蒿里	-12.06
六畜有損行人阻滯求謀不成求財	-12.06
無益恠異興災移徙見凶家宅不吉文書	-12.06
出行不順修造不利疾病難瘥走失難見	-12.06
炫	-12.0601
清醮三百六十分位	-12.0601
不收墳葬敗家六畜災損行人不	-12.0601
不遂求財	-12.0601
崐	-12.0601
千和萬合	-12.0601
不宜修造不利疾病危篤走失不見生	-12.0602
茵	-12.0602
某法籙弟子某乙命屬北斗某星君	-12.0602
鰲	-12.0602
度品南宫	-12.0602
大將軍九人治	-12.0602
解形遁變	-12.0602
官非家宅大不安文書不遂已上全凶應	-12.0603
左將軍九人治	-12.0603
右將軍九人治	-12.0603
不得容情	-12.0603
驎	-12.0603
門丞户尉	-12.0603
失望墳葬不吉	-12.0603
利婚姻大	-12.0603
泗	-12.0604
上張天羅下布地網	-12.0604
竚	-12.0604
𠾬	-12.0604
凶家宅不寧文書難得已上先吉後凶應	-12.0604
走失難見生産難	-12.0605
耗失行人有阻求謀不遂求財不利婚姻	-12.0605
上台一黄	-12.0605
芸	-12.0605
猾	-12.0605
求謀遂意	-12.0605
梢	-12.0606
與天齊年	-12.0606
䖝	-12.0606
横金梁	-12.0606
崎	-12.0607
齋法符篆門	-12.0607
青靈始老	-12.0607
熛	-12.0607
前進作禮	-12.0607
匃	-12.0608
嚇	-12.0608
天官地官水官	-12.0608
利婚姻有	-12.0609
旋斗歷箕	-12.0609
甜	-12.061
三頭六臂	-12.061
口口相傳	-12.0611
知而故犯者	-12.0611
溉	-12.0612
孝道明王	-12.0612
匐	-12.0612
真君降言曰	-12.0613
㩀	-12.0613
覆取汗	-12.0615
裾	-12.0615
嫗	-12.0615
𠎝	-12.0617
蹊	-12.0618
搐	-12.0618
嗏	-12.0621
雷火速發	-12.0622
土地里域正神	-12.0623
蟹	-12.0623
䥫	-12.0623
碎如微塵	-12.0626
思之還反眞形春三月	-12.063
諸天曹案吏	-12.0633
衣大袖	-12.0641
籙白簡救苦眞符	-12.0675
曆旗將軍十二人	-12.0909
恭準元降道㫖玉符所至	-12.1122
刑厄乞解	-12.1153
桀	-12.1154
灣	-12.1156
十回度人	-12.1166
𣸸	-12.1166
精食精吏	-12.1166
渙	-12.117
𠳤	-12.117
太上敕赦生天寳籙	-12.117
璿	-12.1172
帯	-12.1172
以今焚香攝召	-12.1174
抃	-12.1175
今故燒香自歸依師尊大聖衆至	-12.1176
愕	-12.1177
永爲身寳	-12.1177
晟	-12.1179
皓庭霄度天	-12.1179
燾	-12.1179
捫	-12.1179
將帶風雲電雷雨前來本	-12.118
近境各處山源溪谷潭湫行雨龍	-12.1181
盍	-12.1181
店	-12.1182
青龍白虎朱雀玄武	-12.1182
二官直使正一功曹左右官使者	-12.1183
謹䖍誠上啓	-12.1183
保制劫運	-12.1183
孳	-12.1183
槎	-12.1183
珊	-12.1183
呮	-12.1183
闈	-12.1183
除邪輔正	-12.1183
叩左齒三十六通	-12.1183
哂	-12.1184
頷	-12.1184
官使者八十萬億衆洞清虚	-12.1184
砥	-12.1184
身被風刀之考	-12.1184
爆	-12.1185
經籍度師	-12.1185
建生上屬北斗某星君	-12.1185
琚	-12.1185
咸使知聞	-12.1185
嗃	-12.1186
南方丹天世界	-12.1186
笞	-12.1186
啾	-12.1186
藤	-12.1186
謹遣九天捷疾符使楊傑操捧	-12.1186
疾除罪簿	-12.1187
柩	-12.1187
杻	-12.1187
殮	-12.1187
㢤	-12.1188
徨	-12.1188
無利婚姻有破官事累後謁見	-12.1188
金晨玉童	-12.1188
身没鬼官	-12.1189
思之還反眞形秋三月	-12.1189
暄	-12.1189
摙	-12.1189
寅申巳亥	-12.1189
歘火律令大神	-12.119
跋	-12.119
天煞地煞年煞月煞日煞時煞	-12.119
刷	-12.119
覡	-12.119
仰速遵承	-12.119
梵摩迦夷天	-12.119
徑御太上無極大道昊天	-12.119
羶	-12.1191
嶸	-12.1191
攙	-12.1191
犧	-12.1191
嬉	-12.1192
聖前伏望聖慈特賜	-12.1192
紂絶隂天	-12.1193
瑠璃	-12.1193
須至申聞者右謹具申	-12.1193
芎	-12.1193
萬神敬聽	-12.1193
紫文丹章	-12.1193
渤	-12.1193
十大星帥	-12.1194
煅	-12.1194
鷄子白和	-12.1194
台光幽精爽靈	-12.1194
𦆵	-12.1194
家宅終吉文書見遲已上中凶始末吉應	-12.1195
豎	-12.1195
半吉行人在路求謀半遂求財半利婚姻	-12.1195
成官事先凶後吉謁見小阻	-12.1195
有望墳葬小吉六畜無損行人將至求謀	-12.1196
無事謁見可許出行宜出修造宜動疾病	-12.1196
穩墳葬平穩	-12.1196
蓐	-12.1196
六畜平常	-12.1196
恠異將散移徙動遲家宅向安文書遲滯	-12.1196
走失可尋生産安好捕盗得獲禱祀無應	-12.1196
削死上生	-12.1197
八王猛將	-12.1197
巘	-12.1197
倖	-12.1197
敖	-12.1198
努	-12.1198
嘶	-12.1198
咜	-12.1198
觀諸法性	-12.1199
楷	-12.12
聞天尊所說	-12.12
衒	-12.12
波梨答惒天	-12.1201
升煎取	-12.1201
萬炁齊仙	-12.1201
唵嚙𡄦	-12.1202
𥠖	-12.1202
啒	-12.1204
芋	-12.1205
科儀立成品	-12.1206
太一天章陽雷霹靂專司	-12.1206
郤	-12.1207
焙	-12.1209
塔	-12.121
噪	-12.1211
脈	-12.1212
堰	-12.1213
太上助國救民緫真祕要卷之	-12.1215
拊	-12.1215
問名爲正問若人見	-12.122
吏三十六人中元地府定	-12.1222
。	-12.1224
元始一炁開天通三界玉符	-12.1411
者左右龍虎君侍香諸靈官當令臣向來	-12.1586
鯁	-12.1774
邏	-12.1776
潯	-12.1785
藁	-12.1785
屣	-12.179
書符燒召呼云	-12.179
急急如靈寳大法律令	-12.1794
緜	-12.1795
書刀一口	-12.1796
九天應元雷聲普化天尊	-12.1796
隲	-12.1796
駑	-12.1796
刧	-12.1797
趾	-12.1798
道門通教必用集卷之	-12.1798
太初天君紫宸太華天帝	-12.1799
删	-12.1799
菽	-12.1799
紫微碧玉宫	-12.18
太上三尊十方衆聖	-12.18
麋	-12.18
猛馬四張	-12.1801
璘	-12.1802
嚳	-12.1802
執法仙宰上仙真宰	-12.1802
舉存神燒香髙功復爐香官使	-12.1802
潼	-12.1804
勾陳星宫天皇大帝	-12.1804
蹠	-12.1804
蹻	-12.1804
元上侍宸金闕昭凝妙道保仙	-12.1804
天神龍水社諸部雷神三山木郎大神	-12.1804
簞	-12.1804
溶	-12.1804
畒	-12.1805
鬭	-12.1805
卷十一之二十	-12.1805
刹	-12.1805
嵯	-12.1806
鐸	-12.1806
狎	-12.1806
厯	-12.1807
愽	-12.1807
今日欣慶受度	-12.1807
本佩法籙中	-12.1807
代天行化	-12.1808
執符把籙	-12.1808
某與臨壇官衆謹同誠上啓	-12.1808
劫劫長存隨劫輪轉與天齊年永度三	-12.1809
下情無任惶懼之至謹具狀	-12.1809
各禮師存念如法宣衞靈呪	-12.181
押宗師金闕昭凝妙道保仙元君祖	-12.181
仙化成人生身受	-12.181
畿	-12.181
攜	-12.1811
瀬	-12.1811
九天應元雷聲普化天尊九天雷祖大帝	-12.1811
仆	-12.1811
蝎	-12.1812
丈人三十六部尊經玄中大法師圓穹	-12.1812
上元始天尊說北帝伏魔神咒妙經卷第	-12.1812
三天扶教輔元大法天師	-12.1812
神刀一下萬鬼自潰	-12.1812
滕	-12.1812
瀰	-12.1813
以聞謹狀年月日具法位臣姓某狀奏奏	-12.1813
蘸	-12.1813
埏	-12.1814
癎	-12.1814
役使萬靈上衛仙翁	-12.1814
俎	-12.1814
吾奉玉清敕速降元炁成攝	-12.1814
謹遣九天捷疾焚炎符使楊傑操捧上達	-12.1815
癧	-12.1815
天皇伽耶霹靂攝	-12.1815
𡻕次月日	-12.1815
𡅗	-12.1815
絳章單衣	-12.1816
邐	-12.1816
鑊	-12.1816
禰	-12.1816
迮	-12.1816
里中廻真下映入兆	-12.1816
領詞䖍切恪爲奉行	-12.1816
天開化主宰	-12.1817
曼	-12.1817
玉女五帝直符直日香官	-12.1817
府真神道	-12.1817
譎	-12.1817
黑雲靉靆	-12.1818
飛神謁帝	-12.1818
𡨚仇和釋	-12.1818
上部八景洞天飛行自然靈寳神仙	-12.1818
僕射百二十人出	-12.1818
譁	-12.1818
姊	-12.1819
鄂	-12.1819
慵	-12.1819
覷	-12.182
諸天諸地諸水諸山	-12.182
匈	-12.182
窘	-12.182
咸望洪慈	-12.182
神風靜黙	-12.182
徙守舊家宅平安文書宜求已上中平應	-12.1821
寘	-12.1821
二丈四尺	-12.1821
南北二院	-12.1821
厄童子十二人上仙官解	-12.1821
急急如玉皇上帝律令	-12.1822
悞	-12.1823
湍	-12.1824
左右二仙龍王	-12.1826
篁	-12.1826
夬	-12.1826
拏	-12.1827
妊	-12.1827
泳	-12.1828
溜	-12.1828
天煞地煞年煞月煞	-12.1828
天章陽雷霹靂專司令本司	-12.1829
腿	-12.1829
萬靈振伏	-12.183
上消天災	-12.1833
走火行風	-12.1834
姙	-12.1838
六合無窮高明大	-12.1839
酪	-12.1843
太上神明中官	-12.1843
𠿼	-12.1845
吽喗噠唎	-12.1846
飛捷報應使者張	-12.1847
相故見諸	-12.1863
痛不可忍	-12.1865
眞之德得道之後保天長存和與道合眞	-12.1962
眞之德得道之後永保長存和與道合眞	-12.2382
兵士各十萬人太无上元九天眞靈	-12.2429
蠅	-12.2457
急急如酆都大帝律令	-12.2458
訊	-12.2458
石景水毋	-12.2459
十方仙童玉女接侍蘭烟傳	-12.246
字號計四卷	-12.246
丗	-12.2463
太極左仙公	-12.2464
𠾑	-12.2465
赤天歷旗剛風	-12.2466
繚	-12.2467
中天大聖北斗九皇	-12.2469
閻世衝	-12.2469
今故燒香自歸依經尊大聖衆至	-12.2469
赤明和陽天	-12.2469
堦	-12.247
奉爲孤魂上資往生仙界念	-12.247
殉	-12.2471
地二生火	-12.2471
建節監功大將軍	-12.2471
鷗	-12.2471
黛	-12.2471
菁	-12.2472
鎧	-12.2472
伏望聖慈允兹申懇	-12.2472
回骸起死	-12.2472
權童𥘉府右翊治金	-12.2473
廪	-12.2474
五福十神太一眞君	-12.2474
霪	-12.2475
思之還反眞形夏三月	-12.2475
琥	-12.2475
積夜之河	-12.2475
搥	-12.2475
申牒眞司外	-12.2476
輯	-12.2476
牆	-12.2476
笳	-12.2476
迥	-12.2477
飈散景飛騰太空出入冥無遊	-12.2477
北嶽恒山	-12.2477
繹	-12.2477
蠆	-12.2477
隳	-12.2477
右章泄自太虚流降三界	-12.2477
鬍	-12.2479
訥	-12.2479
䡖	-12.2479
丈人司馬六司星君	-12.2479
安魂定魄	-12.2479
䌝	-12.2479
喙	-12.248
剛騎吏十億萬衆洞天	-12.248
溽	-12.248
腮	-12.2481
熠	-12.2481
駒	-12.2481
侍仙玉郎	-12.2482
東靈上相瑞光仙師	-12.2482
擘	-12.2482
㳟	-12.2482
神公受命普掃不祥	-12.2482
臈	-12.2483
某宫觀受某法籙	-12.2483
斷地逮役	-12.2483
者針决充替	-12.2483
功曹官各二人出上元九天	-12.2483
七聖玄紀	-12.2483
太上高皇帝王神氣在身不能自分别	-12.2484
竢	-12.2484
絣	-12.2484
銀牙耀目	-12.2484
開天執符御曆含眞體道昊天玉皇上帝	-12.2484
諠	-12.2484
覿	-12.2484
𢍆	-12.2485
侍靖素女	-12.2486
阿里鮮	-12.2486
肓	-12.2486
晁	-12.2486
唧	-12.2486
吉家宅大安文書有就已上大吉應	-12.2486
喜捕盗便獲禱祀獲福恠異無咎移徙獲	-12.2487
大成官事大吉謁見	-12.2487
鑽	-12.2487
膂	-12.2487
違者杖一百諸	-12.2487
關靈寳大法司當司	-12.2487
大旺行人立至求謀大遂求財大利婚姻	-12.2487
轆	-12.2488
眺	-12.2488
科曰出家之人	-12.2488
腭	-12.2488
泡	-12.2488
𤔵	-12.2488
不妨走失宜尋生産有驚	-12.2488
皛	-12.2489
騏	-12.2489
逼合鬼群	-12.249
騰天倒地	-12.249
逋	-12.2491
蝦	-12.2492
飛砂走石	-12.2492
窩	-12.2492
嶇	-12.2492
輻	-12.2493
係天師某治炁	-12.2494
剩	-12.2494
萬無一失	-12.2494
石景水母	-12.2495
鬱單无量天	-12.2495
㗸	-12.2495
娩	-12.2496
晷	-12.2496
萄	-12.2497
囉㗶囉娑婆薩訶	-12.2497
一轉天地動二	-12.2497
大逞威靈	-12.2498
鍵	-12.2499
眞玉童龜山洞眞人各七千萬乗	-12.25
天黑地黑	-12.2504
某月某朔某日某	-12.2507
下部八景洞靈飛行自然靈寳神仙	-12.2512
經驗後方治	-12.2515
故問名爲邪問不見	-12.2515
撩	-12.2516
思之還反眞形冬三月	-12.2534
俓御至眞无極大道三清上聖昊天	-12.2818
下情不勝激切俟命之至	-12.2879
年月日牒具位姓	-12.2988
太一天章陽雷霹靂專司令照應本司	-12.3136
二百四十萬人上仙都中官	-12.3146
暹	-12.3152
鉅	-12.3155
跖	-12.316
道道宇道	-12.3163
紋四十尺	-12.3163
獅	-12.3168
迴骸起死	-12.317
蜿	-12.3171
兵馬九億萬騎	-12.3173
悄	-12.3174
迺	-12.3174
駸	-12.3174
檄至星火奉行一如元降律令年月日時	-12.3175
𢌿	-12.3175
逭	-12.3176
緱	-12.3177
須至關發者右關	-12.3178
躊	-12.3179
苛	-12.3179
瑰	-12.3179
藿	-12.318
諄	-12.318
鍋	-12.318
隘	-12.3181
罇	-12.3181
蠹	-12.3182
魃	-12.3182
叮	-12.3183
呤	-12.3183
黄神越章	-12.3183
雨澤愆期亢陽爲虐	-12.3184
磴	-12.3184
隂神決吏	-12.3184
梭	-12.3185
寨	-12.3185
侔	-12.3185
驤	-12.3185
蔣剛輪	-12.3186
九億萬重九玄緑暉丹曜洞靈自然龜山	-12.3186
躑	-12.3186
嘰	-12.3186
烝	-12.3186
愡	-12.3186
𠑽	-12.3187
當司今據入意同前須至專牒者牒	-12.3187
隕	-12.3187
鍛	-12.3187
獺	-12.3187
颷	-12.3187
一如告命太歳年月日時告下	-12.3187
地祇上將温元帥	-12.3188
二捻上香願此香煙騰空	-12.3188
恭望天慈允臣所奏特	-12.3188
山川竹木水石精靈壇社祠廟鬼神	-12.3189
辟尸千里	-12.3189
死罪死罪	-12.3189
等身中令臣所啓之誠速達	-12.3189
符文所至三界咸遵萬神侍衛奏入天門	-12.3189
杉	-12.319
初捻上香願此香煙騰空	-12.319
愔	-12.319
叠	-12.319
度世司馬大神	-12.319
㮣	-12.3191
七千萬人虚清	-12.3192
匏	-12.3192
速達帝廷立俟昭報一如	-12.3192
壊	-12.3192
綦	-12.3192
一道告聞天闕掌關諸君三界主者	-12.3192
雰	-12.3193
畢仰嚥九氣止	-12.3193
裸	-12.3193
天立上精化生	-12.3193
綠	-12.3194
鴛	-12.3194
哽	-12.3194
苧	-12.3195
元始一炁都督雷府	-12.3195
淵通元洞天	-12.3195
崇明金元心章	-12.3195
氈	-12.3195
拉	-12.3195
朂	-12.3195
君一人官將百二十人	-12.3195
上清天蓬伏魔大法	-12.3196
興利除害	-12.3196
高元宸照法王清	-12.3196
敢司連宛屢天宫	-12.3196
三官北酆明檢鬼營不得容隱金馬驛程	-12.3196
圄	-12.3197
艱得已上中吉始末凶應	-12.3197
帆	-12.3197
𠕂	-12.3198
㳂	-12.3198
椹	-12.3198
琮	-12.3198
訕	-12.3198
隨願徃生	-12.3198
撻	-12.3199
諺	-12.3199
璝	-12.3199
膓	-12.3199
瓫	-12.3199
災木德致昌熒惑消禍太白辟兵鎮星四	-12.32
真炁注筆成符可以	-12.32
洞眞太上太霄琅書卷之	-12.32
𠒋	-12.32
踝	-12.32
晞	-12.32
躶	-12.32
東斗注筭	-12.3201
嚦	-12.3201
賽	-12.3202
讁	-12.3202
昉	-12.3203
台星到處大賜	-12.3203
状	-12.3203
逼合鬼羣	-12.3204
姨	-12.3205
覲	-12.3205
嵐	-12.3205
四時失度隂陽不調	-12.3205
𤺋	-12.3205
江河淮濟	-12.3205
爨	-12.3206
耘	-12.3207
它	-12.3208
螻	-12.3209
連天鐵障	-12.321
潺	-12.3211
帊	-12.3211
中部八景洞玄飛行自然靈寳	-12.3211
神州玉章曰	-12.3212
痺	-12.3213
齒落更生	-12.3213
燋	-12.3215
十五日二十五日	-12.3215
剱	-12.3216
咦	-12.3216
𤚥	-12.3216
人首蛇身	-12.322
化元聿白	-12.3223
是男是女	-12.3224
食醫心鏡	-12.3226
踏翻斗柄	-12.3228
褵	-12.3228
將軍十二人仙靈官左	-12.3497
弟子歸命願得長生	-12.3916
兵士千億萬人十方	-12.3917
大將軍百千萬人赤天三五行印	-12.3921
豬	-12.3923
赤天三五行印	-12.393
槖	-12.3933
大聖北斗七元君能解	-12.3936
奉爲亡靈上資往生仙界念	-12.3937
消愆滅罪	-12.3938
部各一十二萬人度地皇眞仙太上神明	-12.3938
堕	-12.3941
壝	-12.3943
雩	-12.3943
三九素語	-12.3943
祈禱芟禳之際	-12.3944
縊	-12.3945
苾	-12.3946
遡	-12.3946
威南禦兇	-12.3946
衾	-12.3947
瘤	-12.3947
南方無極太上靈寳天尊	-12.3947
睠	-12.3949
靚	-12.3949
卭	-12.3949
鑛	-12.3949
齧	-12.3949
母秀文英	-12.395
捉縛枷拷	-12.3951
銓	-12.3952
臣某與臨壇官衆等謹同誠上啓	-12.3952
色真炁注筆成符	-12.3952
蕤	-12.3952
明眞科曰无極世界男女之人生世	-12.3952
珉	-12.3953
糟	-12.3953
解壇散席	-12.3953
神烈陽雷苟神君陰雷畢神君	-12.3953
飇	-12.3954
龍光道明姚元君	-12.3954
金闕上保高元宸照法王	-12.3954
所屬城隍祀典里域社令諸廟英烈神祇	-12.3955
奏宣詞按如詞言	-12.3955
十方仙童玉女接侍蘭煙傳	-12.3955
補充法職請給司額印令	-12.3956
鄽	-12.3956
兜	-12.3956
正一延生保命籙	-12.3956
太上黄素四十四方	-12.3957
須至專牒者牒候到請	-12.3957
清明何童天	-12.3957
蛤	-12.3957
籲	-12.3957
君官將百二十人治	-12.3957
弛	-12.3957
難以抑違	-12.3957
捻香功德上祝當今皇帝	-12.3958
檐	-12.3958
讖	-12.3958
酒陳終獻	-12.3958
元明文舉天	-12.3958
䜛	-12.3958
丹霞赫衝	-12.3958
嗢	-12.3958
鶡	-12.3958
掲	-12.3959
權童初府右翊治金允中	-12.3959
嵬	-12.3959
道法師父母尊親	-12.396
千千截首萬萬剪形	-12.396
今故燒香自歸依道尊大聖衆至	-12.396
童初府右翊治金𠃔中編	-12.396
鼇	-12.396
杲	-12.396
之所自然生金液丹碧芝	-12.396
下文武考校一切曹僚三界應感一切眞	-12.3961
揉	-12.3961
左青龍右白虎	-12.3961
袪	-12.3961
褰	-12.3961
吞火食炭	-12.3961
高上紫虚空洞玉清自然更生	-12.3962
紫皇上道心章	-12.3962
閲	-12.3962
魚玉龍各一枚	-12.3962
渌	-12.3963
㤗	-12.3963
今齎信詣三洞法師臣某請受	-12.3963
代師眞東嶽泰山天齊仁聖帝淑明皇后	-12.3963
覈	-12.3963
偽	-12.3963
嗼	-12.3963
不避風刀冒干天	-12.3963
顯定極風天	-12.3963
天君正令大神辛天君行令大神張天君	-12.3963
疫毒流行兆民死傷	-12.3964
篷	-12.3964
怯	-12.3964
鋟	-12.3964
𤨏	-12.3964
垚	-12.3964
更相纒繞	-12.3964
蓍	-12.3965
娛	-12.3965
牛頭獄卒	-12.3965
裊	-12.3965
瘳	-12.3966
啟	-12.3966
煆	-12.3966
圊	-12.3966
鉗	-12.3966
羆	-12.3966
捶	-12.3966
棠	-12.3966
刢	-12.3966
龍變梵度天	-12.3967
斌	-12.3967
星宿錯度日月失昏	-12.3968
隱地八術	-12.3968
㡌	-12.3968
跌	-12.3968
碁	-12.3968
枸	-12.3969
参	-12.3969
廳	-12.3969
砌	-12.397
逍	-12.397
織女四哥	-12.397
凱	-12.397
𡂑	-12.3971
欹	-12.3971
長充鬼役	-12.3971
斗牛女虚危室壁	-12.3971
據入意當司據詞難抑恭伺至期依	-12.3971
謹取今月某日先颺寳旛上聞齋意除	-12.3972
抺	-12.3972
僵	-12.3972
袿	-12.3973
畨	-12.3973
億萬劫次昇	-12.3973
巳上聖號各持一十遍各轉太上	-12.3973
僮	-12.3973
金鉞前戮巨天後刑屠割鬼爽	-12.3974
㖮	-12.3974
螚	-12.3974
捧香驛龍騎吏	-12.3975
牟	-12.3975
搨	-12.3975
焱	-12.3975
罡風騎置吏驛馬上章吏飛龍騎吏	-12.3975
鉏	-12.3975
笻	-12.3976
碭	-12.3976
者克勤忠於君主	-12.3976
七曜上清洞眞玄景玉皇青華	-12.3977
聾兵啞將	-12.3977
匄	-12.3977
先難後易	-12.3977
牎	-12.3978
白骨成人	-12.3978
搬	-12.3978
悸	-12.3978
𨾏	-12.398
物我兩忘	-12.3981
九千萬騎清虚玉京上靈丹檢赤符龜山	-12.3981
診	-12.3982
摸	-12.3983
颻	-12.3983
藕	-12.3983
栁	-12.3984
兑	-12.3985
急急如黃籙度生律令	-12.3985
駍	-12.3986
茸	-12.3988
龍頭書刀	-12.399
祜	-12.3992
請恩施行外	-12.3995
大將軍四十萬人太上	-12.3996
髙聖帝君曰欲書名	-12.3998
媪	-12.4
疝	-12.4006
生世何縁死	-12.4061
俟命之至謹奏年月日具位	-12.4269
幞頭黄抺額	-12.4314
等䰟及五道三途四生萬𩔖	-12.4758
嗇	-12.476
耆山無爲天師張宇初撰	-12.4763
瀹	-12.4763
碓	-12.4764
賑	-12.4764
圕	-12.4766
屨	-12.4766
時生筭延年久視保身護命	-12.4767
琯	-12.4768
左耳旦鳴	-12.4769
礀	-12.4771
沆	-12.4772
澶	-12.4772
宼	-12.4775
囘	-12.4775
皈依䖍誠讃詠信禮髙上紫微垣北斗第	-12.4777
而悟者第	-12.4777
君北極四聖眞君	-12.4778
皿	-12.4778
襦	-12.4779
𥙿	-12.4779
殽	-12.4781
羽綉衣玉童五伯人	-12.4781
瞰	-12.4782
代天行化助國救民	-12.4782
逈	-12.4782
濂	-12.4782
鬲	-12.4782
婺	-12.4783
渝	-12.4783
閙	-12.4783
極左宫仙公沖應孚佑眞君	-12.4784
嶂	-12.4784
孫眞人千金方	-12.4785
太安皇崖天	-12.4785
螺	-12.4785
縉	-12.4785
上廣清微之化	-12.4785
茨	-12.4785
黼	-12.4786
琁	-12.4786
上清司命玉府右卿	-12.4786
咸使聞知	-12.4786
方道都大主者	-12.4786
翶	-12.4787
玄明恭慶天	-12.4787
蹶	-12.4787
囄	-12.4787
君五人官將一百二十人	-12.4787
窮理盡性	-12.4787
布降霖雨蘇救禾苗恊成大有之年以慰	-12.4787
泝	-12.4788
愜	-12.4788
允今所申	-12.4788
鋤旱魃翦滅妖霓	-12.4788
玄胎平育天	-12.4788
十洲三島	-12.4788
恍恍惚惚	-12.4788
稽首靈觀五聖尊願得	-12.4789
蒼舌緑齒	-12.4789
𢖍	-12.4789
余心傳録云	-12.4789
神功妙濟真君	-12.4789
開天符誥元始一炁開天通三界	-12.4789
甖	-12.479
横天擔力	-12.479
舅	-12.479
賂	-12.479
元載孔昇天	-12.479
再拜長跪具位小兆	-12.4791
縶	-12.4791
蛙	-12.4791
𣢾	-12.4791
𩲨	-12.4791
上加戌亥起子	-12.4791
同學門人隱居山林學眞道士諸賢者	-12.4791
屛	-12.4791
募	-12.4791
萬不得仙玄都上品第	-12.4791
者敬讓孝養父母	-12.4792
隨四時形影在	-12.4792
普告無窮萬神咸聽三界五帝列言上清	-12.4792
年歲次月日	-12.4793
複	-12.4793
刎	-12.4793
啜	-12.4794
紱	-12.4794
塢	-12.4794
三天金闕九宸玉陛	-12.4794
上揲阮樂天	-12.4794
金樓玉殿	-12.4795
釗	-12.4795
畢還北向叩齒九通思	-12.4795
十方仙童玉女接侍	-12.4796
檜	-12.4796
跂	-12.4796
蜎	-12.4796
紺	-12.4796
一之炁而成天境	-12.4796
鳴法鼔二十四通	-12.4796
今正爾燒香	-12.4796
怏	-12.4796
沅	-12.4797
蜋	-12.4797
威北銜鋒	-12.4797
故牒年月日時牒	-12.4797
無奈著處	-12.4797
箸	-12.4798
泆	-12.4798
跏	-12.4798
方無極飛天神王長生大聖無量度人君	-12.4798
梏	-12.4799
滚	-12.4799
无上上元九天上靈飛	-12.4799
保國寧家	-12.4799
檎	-12.48
擎羊陀羅	-12.48
君隨四時形像在上清	-12.48
禺	-12.48
|	-12.4801
東極宫中大慈仁者	-12.4801
告聞願得太上十方至	-12.4801
煇	-12.4801
𦚾	-12.4801
三者不殺慈救衆生四者不	-12.4801
燈七盞奉爲	-12.4801
百五十將軍籙	-12.4801
㕘	-12.4802
㘅	-12.4802
正身處物五者不	-12.4802
鷺	-12.4802
内想不出外想不入	-12.4802
上清太上開天龍蹻經	-12.4802
啡	-12.4803
呴	-12.4803
𠯐	-12.4803
帡	-12.4803
太明玉完天	-12.4803
被無下九老	-12.4804
嚨	-12.4804
元置品第	-12.4805
駱	-12.4805
𠺕	-12.4805
猋	-12.4805
噎	-12.4806
関	-12.4806
霳	-12.4806
壻	-12.4806
熳	-12.4806
罟	-12.4807
租	-12.4807
瘖	-12.4807
愴	-12.4808
歉	-12.4808
搬運神水	-12.4808
當司今據入意同前須至專牒者右牒請	-12.4808
清微肇慶宫	-12.4808
套	-12.4809
咏	-12.481
翻天覆地	-12.481
弧	-12.481
牗	-12.481
鑠	-12.481
汾	-12.4811
雲之色從兆泥丸中入下布兆	-12.4811
鋩	-12.4811
䕫	-12.4813
子辛子寅子惠子	-12.4813
賒	-12.4813
馺	-12.4814
鱠	-12.4814
玄元始三炁太上老君召出	-12.4814
穗	-12.4814
先服陽符奪	-12.4814
傖	-12.4816
○○○	-12.4816
痞	-12.4816
陽耀通關	-12.4818
丈人五靈老君祖大帝	-12.4818
唳	-12.482
秖	-12.4822
各八千九億萬人洞清皇虚眞景	-12.4823
𠰹	-12.4824
距	-12.4828
哨	-12.483
主之不得復連後生人	-12.4839
三十代天師虚靖真君語録卷之	-12.4841
三五功曹左右官使者侍香金童傳言	-12.4919
吏百二十人度收	-12.5362
墠	-12.5583
贛	-12.5662
執籙把籍	-12.5672
妒	-12.5673
蕖	-12.5677
含元太虛天蓬都元帥眞君	-12.5679
遄	-12.568
萱	-12.5682
謹奏年月日髙功銜宣	-12.5683
淛	-12.5685
伶	-12.5685
祲	-12.5686
北方無極太上靈寳天尊	-12.5686
蘚	-12.5686
彛	-12.5687
湔	-12.5688
臣某言臣今月某日爲某人	-12.5688
芝生於名山之陰	-12.5689
嘈	-12.569
麯	-12.5691
懾	-12.5691
𣗥	-12.5691
鞏	-12.5691
荻	-12.5693
𣡡	-12.5693
三捻上香願此香煙騰空	-12.5693
慱	-12.5693
嫂	-12.5694
旍	-12.5694
酌水獻花	-12.5694
罙	-12.5694
嘯歌邕邕	-12.5695
凑	-12.5695
尔	-12.5695
驅龍捲水閃電興雲流布天河灌通斗極	-12.5696
恭望道慈允臣所奏特	-12.5696
濠	-12.5696
廛	-12.5697
箴	-12.5697
書白繒髙聖帝君曰	-12.5697
身百邪摧落	-12.5697
雷霆一府二院三司	-12.5698
錮	-12.5698
撃	-12.5698
挿	-12.5698
寗	-12.5698
絆	-12.5698
昇玄消災護命妙經	-12.5698
慟	-12.5698
入舍求嗣	-12.5698
鑾	-12.5698
慝	-12.5699
懴方命魔三啓三禮重稱法位具位	-12.5699
道正明宫殿整肅三景齊并道合自然飛	-12.5699
字號計五卷	-12.5699
妥	-12.5699
邪門閉塞正道明開映照我身三光同輝	-12.5699
失物難尋	-12.57
魍	-12.57
耻	-12.57
謬誤語句無倫行列不端不合玄範就乞	-12.57
腕	-12.57
薇	-12.57
𦕈	-12.57
懌	-12.5701
葦	-12.5701
威奸凶無留萬魔振伏紛葩却消摧	-12.5701
俯伏俟命之至	-12.5701
除已拜上章書奏聞	-12.5701
爲帝王國主君官吏民	-12.5701
𢎞	-12.5701
耀明宗飄天	-12.5701
水五升煑取二升	-12.5701
誹	-12.5701
玄明恭華天	-12.5702
芙	-12.5702
上言謹案文書	-12.5702
𡍼	-12.5702
畊	-12.5703
賺	-12.5703
嘷	-12.5703
毆	-12.5703
膞	-12.5703
奉承正道赤書玉文九	-12.5704
疣	-12.5704
等謹同誠上啓虚无自然元始天尊	-12.5704
炁祭酒屬水在	-12.5704
榔	-12.5705
昊天至尊金闕玉皇上帝	-12.5705
正一法文經章官品	-12.5705
某與合壇衆官等謹同誠上啓	-12.5705
太極濛翳天	-12.5705
謚	-12.5705
莎	-12.5706
馬郭方鄧田	-12.5706
三官九府百二十曹五帝考官	-12.5706
七政八靈太上皓兇長顱	-12.5706
潢	-12.5706
鬟	-12.5707
六丁七轉八合周旋天經聖化巍巍大道	-12.5707
虚無自然金闕七寳上帝東宫	-12.5707
前朱雀後玄武	-12.5707
飆	-12.5707
鑪前當願十方仙童玉女接侍	-12.5707
沁	-12.5708
牕	-12.5708
喥	-12.5708
憊	-12.5708
闥	-12.5708
帝通血黄帝中主萬神無越	-12.5709
十將軍兵士各十萬人	-12.5709
䀎	-12.5709
凊	-12.5709
謳	-12.571
啓科之初伏	-12.571
縟	-12.571
長九千萬丈春三月	-12.571
徂	-12.5711
明晨耐犯武城天宫	-12.5711
三元都會府	-12.5711
髀	-12.5711
憧	-12.5711
燠	-12.5711
元始一炁萬梵洞章	-12.5711
娟	-12.5712
朞	-12.5712
薊	-12.5712
里中廻眞下映入兆	-12.5712
誠惶誠恐稽首頓首百拜上奏	-12.5712
爲國爲民祈晴禱雨伐惡驅邪	-12.5712
五億五萬五千五百五十五	-12.5713
衹	-12.5713
衲	-12.5713
缶	-12.5714
太極平育賈奕天	-12.5714
蒭	-12.5714
上言謹按文書	-12.5714
𡩋	-12.5714
褁	-12.5714
耜	-12.5714
峥	-12.5714
遙	-12.5715
癇	-12.5716
罏	-12.5716
禪善无量壽天	-12.5716
願得太上十方正眞生炁	-12.5716
蛀	-12.5717
九天採訪應元保運妙化真君	-12.5717
泰殺諒事宗天宫	-12.5717
坼	-12.5717
鼉	-12.5717
𥁞	-12.5718
氅	-12.5718
傭	-12.5718
賊害善八者不驕傲	-12.5718
䪃	-12.5719
萬億劫次昇入	-12.5719
聖意名與利	-12.5719
狴	-12.5719
慣	-12.572
搖	-12.5721
犴	-12.5723
𠿗	-12.5723
𦤀	-12.5724
萇	-12.5725
仭	-12.5725
唵唎吽唵唎吽唎吽唵唵唎唵唵唎吽吽	-12.5725
闋	-12.5725
一生始祖五炁眞皇雷	-12.5725
眞中有神長生大君	-12.5726
緇	-12.5726
蠕	-12.5726
串	-12.5727
慎之玄都中品第	-12.5727
亰	-12.5728
礬	-12.5728
急急如玉清上帝敕唵	-12.5732
痿	-12.5733
囁	-12.5739
䰟及五道三途四生萬𩔖一切沉靈滯爽	-12.5745
獎	-12.5748
𩬊	-12.575
攴	-12.5759
玉符恭準元降道㫖	-12.6325
𠸎	-12.6606
下臉夕瞤	-12.6652
盱	-12.6653
違者准前律諸法官職列	-12.6664
誠惶誠懼	-12.6669
恂	-12.6676
元始洞眞天赦寶章	-12.6676
一切沉靈滯爽	-12.6676
汜	-12.6677
慤	-12.668
攬姿運容	-12.668
芝生於名山之陽	-12.668
繄	-12.6682
今謹有佩籙道士某等	-12.6682
愬	-12.6683
撑	-12.6683
躇	-12.6683
繽	-12.6684
金鉞前戮	-12.6685
耨	-12.6685
宙	-12.6685
夐	-12.6687
蝸	-12.6688
跬	-12.6688
耒	-12.6688
佚	-12.6688
勗	-12.6688
貿	-12.6688
嗅	-12.6688
鬧	-12.6689
邯	-12.6689
皈身皈神皈命首體投地以是捻香功德	-12.6689
琬	-12.6689
統天元聖天尊	-12.669
鋭	-12.669
澳	-12.669
茫茫酆都中重重金剛山靈寳	-12.669
邴	-12.6691
草芥微生	-12.6691
中有度人不死之神	-12.6691
椽	-12.6691
瞑	-12.6691
買田宅人口	-12.6693
笋	-12.6693
蒺	-12.6693
尙	-12.6693
蠧	-12.6694
魂神澄正萬炁長存不經苦惱身有光明	-12.6694
佪	-12.6694
咆	-12.6694
醺	-12.6695
鄴	-12.6695
上陽子金丹大要	-12.6695
孑	-12.6696
嫩	-12.6696
綰	-12.6696
鞍	-12.6696
斬頭截足	-12.6696
砭	-12.6696
𤌿	-12.6697
昨據齋主某投詞乞就	-12.6697
漾	-12.6697
貪狼巨門禄存文曲廉貞武曲破軍	-12.6697
闍	-12.6697
和眞人北遊語録	-12.6697
草芥微生雷霆小吏上叨接引	-12.6698
曄	-12.6698
虚无越衡天	-12.6698
奩	-12.6698
某處崇建無上黄籙大齋追	-12.6698
喋	-12.6698
堊	-12.6699
㵼	-12.6699
泉曲之府北都羅酆三官九署十二河源	-12.6699
搶	-12.6699
某與闔壇衆官	-12.6699
準此證應毋得稽	-12.6699
鳶	-12.6699
爀	-12.6699
昇紫庭靈寳符命普惠萬生	-12.6699
鶩	-12.67
清微靈寳道德正一	-12.67
蠍	-12.67
縞	-12.67
干冒眞威不勝惶懼謹狀	-12.6701
么	-12.6701
爼	-12.6701
儕	-12.6701
虚无自然元始天尊无極大道太上	-12.6701
滅惡道炁周流神光照夜隂翳	-12.6701
高上大洞文昌司禄紫陽寳籙	-12.6701
檳	-12.6701
始皇孝芒天	-12.6701
五星髙耀瑞氣飛浮元始集神天地交	-12.6701
竺落皇笳天	-12.6701
聶	-12.6702
西蜀道士樸庵吕元素	-12.6702
剛乗騎十億萬衆兵士洞仙赤天	-12.6702
哦	-12.6703
元始一炁萬神雷司本司欽奉道㫖	-12.6703
蹷	-12.6703
𠱀	-12.6703
知磬舉出堂頌出戸引至六幕堂	-12.6703
攫	-12.6704
謹當宣奏宣詞諦詳詞語	-12.6704
洞映九門轉燭陽光掃穢除氛開明童子	-12.6704
蠢飛蠕動	-12.6704
祁	-12.6704
德致昌熒惑消禍太白辟兵鎭星四	-12.6704
天流鈴摧奸滅	-12.6704
星轉燭洞照太陽上有赤精	-12.6704
淒	-12.6705
丹靈朱火炎霞激風赤輪剛運天光	-12.6705
紈	-12.6705
佐天行化助國救民	-12.6705
君畢還北向叩齒十二通思	-12.6705
梵監須延天	-12.6705
貲	-12.6705
烽	-12.6706
蜕	-12.6706
里中迴眞下映入兆	-12.6706
超陵三界逍遥上清	-12.6706
帝内經素問	-12.6706
晹	-12.6706
笄	-12.6706
興行慶雲流布合景黄庭	-12.6707
請頒符命專行㧞度外須至奏聞者右	-12.6707
餒	-12.6707
榭	-12.6707
昺	-12.6707
須至牒者牒請	-12.6707
降臨壇所修齋行道奉請	-12.6707
氐房心尾	-12.6708
黻	-12.6708
閨	-12.6708
荄	-12.6708
錯綜以告不祥國土擾亂兵病並行帝王	-12.6708
用雷祖玉帝元始金書	-12.6709
青陽虚映耀日回靈神虎辟邪飛	-12.6709
一生二二生三	-12.6709
𣈆	-12.6709
穽	-12.6709
等奉爲齋官某仰謝	-12.6709
烕	-12.6709
螢	-12.671
襯	-12.671
忽至眞九者不二奉戒專一	-12.671
戛	-12.671
莭	-12.671
兵士三十萬人上請北帝神呪	-12.671
装	-12.6711
中九幽之府開諸光明願以是功德爲帝	-12.6711
却患三景復位五行順常兵止病愈國祚	-12.6711
汰	-12.6711
六轉山鬼死七轉收	-12.6711
中斗大魁緫監衆靈	-12.6711
左社右稷	-12.6711
披心露形引求自剋爲國謝殃燒香	-12.6711
已得道大聖衆至眞諸君丈人	-12.6711
直齋使者百二十人出	-12.6711
纍	-12.6711
須至具狀申聞者右	-12.6711
癤	-12.6712
億曾萬祖	-12.6712
脆	-12.6712
耴	-12.6713
澈	-12.6713
三洞經籙弟子仲勵編	-12.6713
爓	-12.6713
臥	-12.6713
唵嚩𠯲囉	-12.6713
螣	-12.6713
苖	-12.6713
唵喗吒唎喗吒唎速	-12.6713
怜	-12.6714
疪	-12.6714
竝	-12.6714
㢘	-12.6714
岌	-12.6714
罰功墮事	-12.6714
眞飛華七景龜山領眞	-12.6714
顒	-12.6714
府主生太陽火官	-12.6714
鮓	-12.6714
上元唐將軍中元葛將軍	-12.6714
𥹋	-12.6714
瓣	-12.6714
揔	-12.6714
使者張珏副帥張雲張亞	-12.6715
荑	-12.6715
太素秀樂禁上天	-12.6716
儘	-12.6716
從官十三人從官各千乘萬騎治在	-12.6717
官使者各九千九萬人	-12.6717
碾	-12.6719
衙	-12.6719
視之不見聽之不聞	-12.672
中理五炁混合百神十轉回靈萬炁齊仙	-12.672
砧	-12.672
坵	-12.672
岧	-12.672
箒	-12.6722
闚	-12.6722
叵	-12.6722
日夜半之時於寢室牀上平坐北向接手	-12.6723
赤明開圖運度自然	-12.6723
䦨	-12.6724
從日光中來在我	-12.6724
甌	-12.6724
巨天力士執罰神兵	-12.6724
乃仰存七星使煥明於北方良乆微	-12.6724
䏶	-12.6724
侃	-12.6725
今批上令者	-12.6725
啵	-12.6726
凹	-12.6726
𠻣	-12.6726
捏	-12.6726
陲	-12.6727
具髙功全銜	-12.6727
搔	-12.6727
𡪹	-12.6728
兵四十萬人主收	-12.6728
螘	-12.6728
鷰	-12.673
𡆀	-12.673
簡要濟衆治	-12.6732
耄	-12.6732
蝠	-12.6732
本身飛撞符	-12.6732
洞幽法師元妙宗編	-12.6735
㸦	-12.6736
𠼳	-12.6737
霤	-12.6738
嘙	-12.6738
蕉	-12.674
嗒	-12.6742
禹步三前還王上吞十二炁	-12.6747
下情不勝惶懼俟命之至謹	-12.6764
慼	-12.6765
詞難抑恭伺至期依科關奏預取今	-12.6843
无上洞靈混沌自然玉清飛仙玉虚	-12.7514
霄霹靂雷眞神君	-12.7754
蘅	-12.7771
鴟	-12.7782
金火天丁火鈴妙帥	-12.7783
緼	-12.7785
玉郞門下某帝先生王甲再拜謁	-12.7786
恭望睿慈允	-12.7786
閥	-12.7789
倬	-12.7789
睢	-12.779
謹齎香花法信供養之儀至心歸命	-12.7791
鰥	-12.7793
㤙	-12.7793
剛騎三十五萬衆兵士太上隂陽收	-12.7793
旆	-12.7793
剛加君吏官將百億萬衆无上三天飛仙	-12.7795
飫	-12.7796
壽同四天之人九年飛行	-12.7796
穢君五人官將百二十人謹請	-12.7796
珞	-12.7797
僭	-12.7797
榼	-12.7799
龍天飛元攝魂徐符使	-12.7799
速來救劫護天民	-12.7799
凾	-12.7799
碣	-12.7799
按如詞言丹誠懇切	-12.7799
睨	-12.7799
栩	-12.7799
聆	-12.7799
將軍兵士天官將吏	-12.78
部各九千萬人度天皇	-12.78
鶴林道士吕太古集	-12.7801
嚚	-12.7802
倩	-12.7802
苴	-12.7802
羮	-12.7802
洙	-12.7803
嗷	-12.7803
幙	-12.7803
司禄主者職貢舉眞君	-12.7803
炁天君一切神仙諸靈官䖍誠懴謝伏聞	-12.7803
跼	-12.7804
若能持此戒者獲	-12.7804
慾斬尸變景流光玉符	-12.7805
䵟	-12.7805
嶠	-12.7806
襌	-12.7806
夸	-12.7806
粢	-12.7807
溫	-12.7807
屹	-12.7807
剏	-12.7807
覊	-12.7807
招靈致眞攝魔之符	-12.7807
軋	-12.7807
急急如含元太虛天蓬	-12.7808
盎	-12.7808
太上玄天眞武無上將軍籙	-12.7808
大天尊玄穹高上帝	-12.7808
饉	-12.7808
法衆䖍誠稱揚讃詠衆諷中篇旋遶	-12.7808
清微三炁九霄符章經道雷帝天君	-12.7809
擯	-12.7809
㩗	-12.7809
弇	-12.7809
吾在壇前卓劒相待	-12.7809
絨	-12.7809
下爲亡者攝炁聚神一如告命	-12.7809
觀明端靖天	-12.7809
照太冥中有素皇號曰帝靈保神安	-12.7809
上明七曜摩夷天	-12.7809
使者散花玉女主雪將軍回風結雲使者	-12.7809
巳録奏聞願得太上十方至	-12.7809
狙	-12.7809
西方七炁素天太白流精光耀金門洞	-12.7809
地獄符臣某告行通幽破	-12.781
諸天天尊諸天上帝上清日月星斗河漢	-12.781
濬	-12.781
東嶽天齊大生仁聖帝	-12.781
忖	-12.781
太上北極伏魔神呪殺鬼籙	-12.781
王太霄琅書瓊文第	-12.7811
出堂頌出戸道門科範大全集卷之六十	-12.7811
境土當使兵寢刑措國泰民安絶寇	-12.7811
侍衞佩者身得佩	-12.7811
屑雲雕雪	-12.7811
難長居無爲普	-12.7811
饋	-12.7811
直符使者中界直符使者下界直符使者	-12.7811
昊天玉皇上帝九皇至尊十方	-12.7811
上帝東極救苦青玄上帝	-12.7812
心肝脾肺腎	-12.7812
寂然兜術天	-12.7812
今故立齋燒香然燈願以是功德照曜	-12.7812
昊天金闕玉皇大天尊玄穹高上帝	-12.7812
哀憐削治正定必使上合天心毋令遣	-12.7812
急急如赤天吒龍都藥叉飛天歘火律令	-12.7812
曙	-12.7812
玉皇大天尊玄穹髙上帝	-12.7812
五師三省眞君九天天曹諸位眞君歷	-12.7813
之罪自從多生以至今生	-12.7813
靈化梵輔天	-12.7813
真三光通靈八騎司馬龜山	-12.7813
兵馬九騎使者八十二人	-12.7813
府主生死罪録官	-12.7813
汀	-12.7813
嵉	-12.7814
弑	-12.7814
道生一一生二二生三三生	-12.7814
年月日時告下謹遣九天捷疾符使楊傑	-12.7814
幷	-12.7814
敢有小鬼欲來見狀钁天大斧斬鬼五形	-12.7814
獲侍班行夙夜兢惶無由	-12.7814
地祇陰雷主者温瓊酆都朗靈元帥關羽	-12.7814
沾足田疇恊成大有之年以慰下民之望	-12.7814
煦	-12.7815
滅蹤辟奸破妖明耀元功金符召制躡雲	-12.7815
惶懼之至謹狀年月日具位姓某狀申申	-12.7815
某與合壇官衆等謹重誠上啓	-12.7815
遹	-12.7815
甍	-12.7815
鯽	-12.7815
風伯方道彰雨師陳	-12.7815
交付泰山神吏	-12.7815
使多稼之復生庶烝民之蒙惠	-12.7816
太煥極瑶天	-12.7816
兕	-12.7816
刀採之陰乾百日食	-12.7816
火兵備守玉堂	-12.7816
諸廟英烈神祇	-12.7816
怍	-12.7816
炯	-12.7816
運四極安隆伏御帝前罔有不恭	-12.7816
太霄琅書瓊文一遍則	-12.7816
衝迸威包羅交變萬方流金豁落	-12.7817
毘	-12.7817
球	-12.7817
嗌	-12.7817
崱	-12.7817
贏	-12.7817
無思江由天	-12.7817
周玉符寳節嘯命微幽擲火	-12.7817
湎	-12.7818
腧	-12.7818
東方九炁青天明星大神煥照東	-12.7818
駈	-12.7818
九千萬騎清虚上眞靈仙玉官	-12.7818
鵶	-12.7818
囹	-12.7818
醯	-12.7818
𠺗	-12.7818
毳	-12.7818
煨	-12.7819
各九千萬騎清虚上真靈仙玉官	-12.7819
靠	-12.7819
我愛山居好	-12.7819
蕳	-12.7819
瘍	-12.782
桶	-12.782
驛騎將軍五人上靈官	-12.782
正音行音遊音梵音	-12.782
亳	-12.782
其諸情悃巳録告聞願得太上十方至	-12.782
斬邪束妖剪截魔王北帝所承風火	-12.782
淼	-12.782
飇散景飛騰太空出入冥無遊	-12.7821
𩃱	-12.7821
糅	-12.7821
胇	-12.7821
仿	-12.7821
搭	-12.7821
上清五元玉册九靈飛步章奏祕法	-12.7821
肸	-12.7822
兆民懽泰人神安	-12.7822
昇入無形與道合眞叩頭自搏	-12.7822
行兵府雷祖大帝第	-12.7822
大道君太上老君太上昊天玉皇上帝	-12.7822
漙	-12.7822
謦	-12.7823
瑯	-12.7823
擡	-12.7823
俸	-12.7823
痂	-12.7824
焴	-12.7824
領將一萬人度第	-12.7824
丹青腰玉女各三千萬衆九玄上	-12.7825
唦	-12.7825
綳	-12.7825
𡀖	-12.7825
雇	-12.7826
白羽黒翮	-12.7826
黄天魔王横天擔力五帝大魔萬神之宗	-12.7826
𢌜	-12.7826
綉衣使者玉童玉女九九億億萬人	-12.7826
今靜夜行道謹奏爲	-12.7826
陬	-12.7827
漉	-12.7827
饕	-12.7827
尢	-12.7827
啇	-12.7827
蓉	-12.7827
囀	-12.7827
情不勝惶懼俟命之至謹狀年月日具位	-12.7827
豚	-12.7828
懊	-12.7828
赤天魔王負天擔石白天魔王反山六目	-12.7828
𣳚	-12.7828
沮	-12.7828
黿	-12.7828
芹	-12.7829
腪	-12.7829
膾	-12.783
嶼	-12.783
府主死太隂水官	-12.783
驍	-12.7831
八威吐毒猛馬四張天丁前驅大帥仗	-12.7831
仰慮居宅之所犯觸	-12.7831
巳生未生皆得生成	-12.7831
嬋	-12.7831
杇	-12.7831
懵	-12.7831
今故燒香歸命靈寳天尊修齋行道謝過	-12.7832
昃	-12.7832
功曹一人吏六人大洞天騶甲卒兵萬人	-12.7832
太文翰寵妙成天	-12.7832
太釋玉隆騰勝天	-12.7832
舌柱上腭	-12.7833
喼	-12.7834
桴	-12.7834
霄主宰文昌大洞紫陽玉章第	-12.7834
禋	-12.7835
明眞科曰生世	-12.7835
哈	-12.7835
𠾐	-12.7835
上台一黄祛却不祥中台二白	-12.7838
𨗿	-12.7838
仙都君九炁丈人	-12.7838
天無氛穢地絶妖塵冥慧洞清大量玄玄	-12.7839
菰	-12.7839
雛	-12.784
各二人出上元九天	-12.7841
太玄都省行壇牒	-12.7841
濜	-12.7842
而至祝曰吾奉玉清眞王勑召	-12.7842
䧺	-12.7842
柘	-12.7843
嘽	-12.7843
鑼	-12.7843
噂	-12.7845
蚰	-12.7846
肱	-12.7847
章右謹上請帝真	-12.7849
䘙	-12.785
量品至眞大神無鞅之衆浮空而至說經	-12.785
水五升煑取三升	-12.7854
天開化主宰定貴眞君	-12.7855
瘕	-12.7856
精兵十萬衆都天霹靂	-12.7869
左上右下繞一宫	-12.7875
𠯐囉喗𠸎唎	-12.7964
急急奉道祖鳴雷	-12.8006
唵嚩𠯐囉喗	-12.8921
奕諸天齊功上天度人嚴攝北酆	-12.893
嚲雲髻第	-12.9007
茍	-12.9023
急急如正一老祖天師律令	-12.9028
東靈上相瑞光之家	-12.903
帝明晨道君下降醮位賜甲神仙得乗	-12.9031
滉	-12.9032
邕	-12.9035
奭	-12.9035
玭	-12.9037
楠	-12.9038
石深九尺此帝君玉文鎮神上法文如左	-12.9038
日右耳旦鳴有	-12.9038
當精嚴入室燒香存思	-12.9038
麴	-12.904
真君侍從仙衆伏以	-12.904
滸	-12.9041
皥	-12.9041
磑	-12.9042
烟香雲宻羅	-12.9042
天靈節榮願保長生太玄之	-12.9042
櫟	-12.9043
蝮	-12.9044
羅育邈眇炁合雲	-12.9044
薨	-12.9044
揲	-12.9044
思極則止止又思差乃巳如上法罪由	-12.9044
騷	-12.9045
今則所伸丹禱願賜鑒觀遵太上之真	-12.9046
嫡	-12.9047
玉誕長桑栢空度仙	-12.9048
磲	-12.9048
謔	-12.9048
硨	-12.9048
勛	-12.9049
宄	-12.9049
䰟制魔保舉度品南宫死䰟受	-12.9049
人身黒衣持鑲	-12.9049
本將頭戴天丁冠身穿	-12.9049
𠵇	-12.9049
冦	-12.905
瑀	-12.905
諦詳詞語灼見	-12.9051
直符吏各二十四億萬人	-12.9051
畋	-12.9051
咷	-12.9051
蟊	-12.9052
東華上相木公青童道君	-12.9052
檝	-12.9053
人身赤衣持㦸	-12.9053
君張亞苟留吉畢宗逺	-12.9053
涣	-12.9053
巓	-12.9053
悒	-12.9053
青城山通慧朱眞人	-12.9053
降三炁九霄符章經道雷帝天君	-12.9053
㮈	-12.9053
真人龜山飛靈將軍七千萬重	-12.9053
顖	-12.9054
供養十方無上師寳天尊	-12.9054
擴	-12.9055
之司輾轉幽關無由解脫今日至心皈命	-12.9055
里中迴真下映入兆	-12.9055
貂	-12.9055
㹠	-12.9055
湄	-12.9055
輪羽車飛行雲中遊宴	-12.9056
奉爲亡靈上資徃生仙界念	-12.9056
楗	-12.9056
願依凡悃不負天	-12.9056
候到請詳備去事理	-12.9057
真授上清三洞弟子靈寳領教嗣師王	-12.9057
各三千萬人皇真下清玉王仙都	-12.9057
之獄有諸罪人	-12.9057
筏	-12.9057
鶯	-12.9058
西北九拜朝元父東南三拜朝玄母還向	-12.9058
筍	-12.9058
今歲自某月以來	-12.9058
元皇正炁來合我身功加一切天地咸寧	-12.9058
五雷院使眞君雷霆都司元命眞君	-12.9059
詳事施行謹牒年月日牒具位姓	-12.9059
本命玄曹太歲煞局	-12.9059
槲	-12.9059
鏹	-12.906
吱	-12.906
冉	-12.906
膻	-12.906
椅	-12.906
巋	-12.9061
霅	-12.9061
郴	-12.9061
崗	-12.9062
囦	-12.9062
洌	-12.9062
詹	-12.9062
檠	-12.9062
鱔	-12.9062
鸚	-12.9062
舡	-12.9062
斾	-12.9063
𧆺	-12.9063
蓽	-12.9064
鴆	-12.9064
鯤	-12.9064
惛	-12.9064
囷	-12.9064
蘖	-12.9064
窖	-12.9064
僖	-12.9064
漳	-12.9065
瑾	-12.9065
睽	-12.9065
𤢟	-12.9066
驀	-12.9066
咁	-12.9067
蛆	-12.9067
蚤	-12.9067
閡	-12.9067
寖	-12.9067
彷	-12.9067
沭	-12.9067
䓁	-12.9068
鏳	-12.9068
矇	-12.9068
缾	-12.9068
圮	-12.907
靁	-12.907
蚩	-12.907
飱	-12.907
肧	-12.9071
蝣	-12.9071
綘	-12.9071
璹	-12.9072
褖	-12.9072
瘢	-12.9073
蒨	-12.9073
壷	-12.9073
茄	-12.9073
賄	-12.9073
踖	-12.9074
潁	-12.9074
喨	-12.9075
幟	-12.9075
鬬	-12.9075
剜	-12.9075
躰	-12.9075
汋	-12.9075
顴	-12.9076
飃	-12.9077
舂	-12.9077
吙	-12.9077
呂	-12.9078
拌	-12.9078
肋	-12.9079
瞥	-12.9079
㖵	-12.9079
揜	-12.908
酋	-12.9081
𠻳	-12.9081
筶	-12.9081
扞	-12.9081
呶	-12.9081
朶	-12.9081
柸	-12.9082
藋	-12.9082
哃	-12.9082
縦	-12.9083
𠿞	-12.9084
蹲	-12.9085
咍	-12.9085
㒒	-12.9085
曬	-12.9085
珂	-12.9085
勺	-12.9085
埴	-12.9086
吔	-12.9086
簧	-12.9091
哳	-12.9092
𡅵	-12.9092
絰	-12.9094
醬	-12.9095
磺	-12.9095
烙	-12.9096
氲	-12.9097
痔	-12.9098
姹	-12.9099
𠸩	-12.9099
逵	-12.91
㸔	-12.9103
䕡	-12.9103
沔	-12.9105
畚	-12.9107
瑋	-12.9107
𠰳	-12.9109
哄	-12.9112
甥	-13.0444
嗄	-13.0448
芴	-13.0454
漕	-13.0457
蘄	-13.0458
閎	-13.0458
禜	-13.0459
侖	-13.046
軾	-13.0463
𩲕	-13.0466
頋	-13.0467
鈆	-13.0468
倅	-13.0468
縢	-13.0468
沍	-13.0469
疹	-13.0469
籛	-13.0469
阨	-13.0472
偓	-13.0472
楝	-13.0474
襁	-13.0474
嘲	-13.0474
瘁	-13.0475
洄	-13.0475
豔	-13.0475
唬	-13.0475
撈	-13.0476
燻	-13.0477
騖	-13.0478
幔	-13.0478
芘	-13.0478
数	-13.0478
囌	-13.048
繇	-13.048
軼	-13.048
狻	-13.0481
傚	-13.0481
骼	-13.0481
嵇	-13.0483
斲	-13.0483
洊	-13.0483
窓	-13.0484
瞪	-13.0484
氓	-13.0484
𢡖	-13.0484
笁	-13.0484
杰	-13.0484
緡	-13.0484
犂	-13.0486
咇	-13.0486
𧟌	-13.0487
𡼳	-13.0487
哮	-13.0487
蛩	-13.0487
翎	-13.0487
啘	-13.0488
徉	-13.0488
譖	-13.0488
緗	-13.0488
輊	-13.0488
鍍	-13.0489
茁	-13.049
賖	-13.049
尻	-13.049
淬	-13.0491
扭	-13.0491
藂	-13.0491
𨔡	-13.0491
輜	-13.0492
噦	-13.0492
愷	-13.0492
騭	-13.0492
稜	-13.0492
爕	-13.0492
荏	-13.0493
粱	-13.0493
賷	-13.0493
闤	-13.0493
琊	-13.0493
嘹	-13.0493
屩	-13.0493
牃	-13.0493
嵌	-13.0494
狽	-13.0495
犮	-13.0495
懀	-13.0496
徯	-13.0496
茟	-13.0496
銚	-13.0496
苒	-13.0496
鋌	-13.0496
鱸	-13.0496
嗤	-13.0497
憣	-13.0497
祺	-13.0497
壙	-13.0498
壠	-13.0499
𥘵	-13.0499
穫	-13.0499
塹	-13.05
愉	-13.05
箍	-13.05
舫	-13.05
鵾	-13.0501
禴	-13.0501
仝	-13.0501
喊	-13.0501
剽	-13.0502
另	-13.0502
恵	-13.0502
偁	-13.0502
憒	-13.0502
崿	-13.0503
脘	-13.0504
餳	-13.0505
矚	-13.0505
㕑	-13.0507
疱	-13.0507
将	-13.0507
佃	-13.0508
噃	-13.0508
嘏	-13.0508
鋼	-13.0508
䨩	-13.0508
嗑	-13.0509
蟒	-13.0509
啝	-13.051
厝	-13.0511
鎰	-13.0511
唌	-13.0511
唓	-13.0511
蝀	-13.0513
泌	-13.0513
諤	-13.0514
瓷	-13.0514
蓑	-13.0515
躄	-13.0515
楔	-13.0516
㗖	-13.052
噇	-13.052
襈	-13.0521
鄞	-13.0523
刈	-13.0525
虱	-13.0526
趂	-13.0526
萋	-13.0526
啌	-13.0528
㝡	-13.0529
摯	-13.0529
阡	-13.0529
臠	-13.053
擂	-13.053
矮	-13.0535
㕧	-13.0543
𡄳	-13.0562
豢	-13.21
呀	-13.2108
掊	-13.2109
吮	-13.2118
搓	-13.2124
窪	-13.2124
繭	-13.2124
糵	-13.2127
綻	-13.2128
郄	-13.2133
鴿	-13.2133
讟	-13.2134
夥	-13.2134
𤤠	-13.2135
潞	-13.2136
彥	-13.2136
磯	-13.2136
艇	-13.2137
茯	-13.2137
㨂	-13.2139
謢	-13.2139
沗	-13.214
𧇖	-13.214
瘑	-13.2141
杼	-13.2141
飰	-13.2141
佺	-13.2144
襴	-13.2144
咮	-13.2146
㔌	-13.2146
獼	-13.2147
㔹	-13.2147
䛕	-13.2147
攤	-13.2147
𤤽	-13.2148
菑	-13.2148
篠	-13.2149
秧	-13.2149
甃	-13.2149
㨗	-13.215
彀	-13.215
瑜	-13.2151
簣	-13.2151
揵	-13.2151
玕	-13.2151
黶	-13.2152
汶	-13.2152
塏	-13.2153
𠋣	-13.2153
疚	-13.2153
篦	-13.2154
讐	-13.2154
闐	-13.2154
鐫	-13.2154
𣏌	-13.2154
隤	-13.2154
𨯂	-13.2155
煬	-13.2155
扛	-13.2155
䆒	-13.2155
种	-13.2155
𥜗	-13.2155
裀	-13.2156
饍	-13.2156
蕊	-13.2156
𩳀	-13.2157
唆	-13.2157
乕	-13.2157
姮	-13.2158
廐	-13.2158
臚	-13.2158
斁	-13.2158
蝢	-13.2158
踴	-13.2158
䯻	-13.2159
蚋	-13.2159
魎	-13.2161
鶻	-13.2161
妳	-13.2161
纸	-13.2161
綢	-13.2162
𠯲	-13.2162
圑	-13.2162
樟	-13.2162
咣	-13.2162
贓	-13.2162
殤	-13.2162
歧	-13.2162
聒	-13.2162
羔	-13.2163
饈	-13.2163
摹	-13.2163
羇	-13.2163
斵	-13.2163
糴	-13.2163
墯	-13.2163
髫	-13.2163
玅	-13.2164
舶	-13.2164
紬	-13.2164
眚	-13.2164
晰	-13.2165
桎	-13.2165
衽	-13.2165
榦	-13.2165
㝢	-13.2166
瓤	-13.2166
蜩	-13.2166
邠	-13.2166
酹	-13.2167
殛	-13.2167
隰	-13.2167
壍	-13.2168
喭	-13.2168
詬	-13.2168
吅	-13.2168
顇	-13.2168
瘀	-13.2169
畦	-13.2169
㦲	-13.2169
髼	-13.2169
楪	-13.2169
吚	-13.217
灧	-13.217
癃	-13.217
咥	-13.217
舩	-13.217
㖤	-13.217
扳	-13.217
輾	-13.2171
丫	-13.2171
鑲	-13.2172
洶	-13.2172
泪	-13.2173
𢦙	-13.2174
癱	-13.2174
圯	-13.2175
𠷯	-13.2175
蜺	-13.2175
従	-13.2176
凳	-13.2176
簉	-13.2176
迃	-13.2177
隼	-13.2177
靳	-13.2177
枰	-13.2177
唔	-13.2178
掉	-13.2178
駮	-13.2178
𢇁	-13.218
淤	-13.2181
筝	-13.2181
閘	-13.2181
詆	-13.2184
澥	-13.2184
駞	-13.2185
璜	-13.2185
殍	-13.2185
惔	-13.2187
𧪵	-13.2187
釅	-13.2188
鷙	-13.219
𨦟	-13.2191
㭊	-13.2192
塋	-13.2193
㖅	-13.2193
妣	-13.2193
炤	-13.2194
鷯	-13.2194
薺	-13.2195
舐	-13.2196
莢	-13.22
臛	-13.2211
叻	-13.2212
𠳿	-13.2212
麩	-13.2212
枲	-13.222
漭	-13.409
詘	-13.409
絪	-13.4111
礎	-13.4114
贙	-13.4117
町	-13.4118
羿	-13.4119
塼	-13.4123
猩	-13.4123
猗	-13.4126
踟	-13.4127
从	-13.4127
苻	-13.4128
礼	-13.4129
輶	-13.413
淄	-13.4131
輈	-13.4131
嚢	-13.4131
櫻	-13.4132
紉	-13.4133
幨	-13.4135
藐	-13.4135
澱	-13.4136
䈥	-13.4136
罅	-13.4136
熄	-13.4137
叄	-13.4137
蔻	-13.4137
娯	-13.4138
崧	-13.4138
唘	-13.4138
娉	-13.4139
亷	-13.4139
黠	-13.4139
嫣	-13.414
禊	-13.414
韞	-13.414
攖	-13.414
睟	-13.414
擿	-13.4141
値	-13.4141
褔	-13.4142
詒	-13.4142
頁	-13.4142
隈	-13.4142
濶	-13.4143
鍪	-13.4143
菷	-13.4144
肄	-13.4144
涂	-13.4145
徜	-13.4145
璵	-13.4146
昶	-13.4146
锦	-13.4146
抉	-13.4148
惣	-13.4149
墊	-13.4149
焼	-13.4149
恫	-13.4149
畬	-13.4149
鐃	-13.4149
剳	-13.4149
喈	-13.415
泚	-13.415
尫	-13.415
裒	-13.415
曡	-13.415
悍	-13.4151
屝	-13.4151
搢	-13.4151
𨥨	-13.4151
柟	-13.4152
薙	-13.4152
斚	-13.4152
㥽	-13.4152
剞	-13.4152
兾	-13.4153
釆	-13.4153
𠻜	-13.4154
愿	-13.4154
賃	-13.4155
郢	-13.4156
咯	-13.4156
菱	-13.4156
砲	-13.4156
藺	-13.4156
謎	-13.4156
㵎	-13.4157
猨	-13.4157
叹	-13.4157
姆	-13.4157
莅	-13.4157
蔗	-13.4158
𡺿	-13.4158
愓	-13.4158
戩	-13.4158
崟	-13.4158
棃	-13.4159
隗	-13.4159
啊	-13.4159
樺	-13.4159
暵	-13.4159
捽	-13.4159
𢢽	-13.4159
弈	-13.416
婪	-13.416
餔	-13.416
瓉	-13.416
鵷	-13.4161
壐	-13.4161
諏	-13.4161
烋	-13.4161
汴	-13.4161
糝	-13.4162
皦	-13.4162
㧓	-13.4162
㪚	-13.4162
懟	-13.4163
葳	-13.4163
詗	-13.4163
刾	-13.4163
蚑	-13.4163
揷	-13.4164
𦊙	-13.4164
嶢	-13.4164
麪	-13.4165
裨	-13.4165
臬	-13.4165
嗎	-13.4165
殢	-13.4166
𠼦	-13.4166
噒	-13.4166
𠸺	-13.4166
𩛙	-13.4166
荘	-13.4166
塤	-13.4166
弋	-13.4166
苽	-13.4167
梃	-13.4167
黥	-13.4167
覘	-13.4167
烓	-13.4167
盒	-13.4167
抖	-13.4167
𠕋	-13.4167
徘	-13.4167
霂	-13.4168
憘	-13.4168
坂	-13.4168
𠺌	-13.4168
㕔	-13.4168
弒	-13.4168
薜	-13.4168
玠	-13.4168
雱	-13.4169
撇	-13.4169
囓	-13.4169
葭	-13.4169
傒	-13.417
罌	-13.417
旖	-13.417
踧	-13.417
惋	-13.417
苡	-13.417
誷	-13.417
璠	-13.4171
巇	-13.4171
輥	-13.4171
䨔	-13.4171
估	-13.4171
毉	-13.4171
濰	-13.4171
簟	-13.4172
歙	-13.4172
澣	-13.4172
髦	-13.4172
墾	-13.4173
嚛	-13.4173
劊	-13.4174
甆	-13.4174
崦	-13.4174
逗	-13.4175
昜	-13.4176
襖	-13.4176
棧	-13.4176
滲	-13.4177
嬾	-13.4177
俶	-13.4178
鼐	-13.4178
嘱	-13.4178
㖡	-13.4178
軺	-13.4178
薏	-13.4178
赶	-13.4178
羗	-13.4179
浡	-13.4179
蟯	-13.418
硎	-13.418
繋	-13.418
謪	-13.418
歠	-13.4181
鬨	-13.4181
𠴲	-13.4181
咻	-13.4181
縲	-13.4183
訐	-13.4183
胴	-13.4184
箬	-13.4184
蒐	-13.4184
厓	-13.4184
娼	-13.4184
僂	-13.4185
緻	-13.4185
虗	-13.4186
㘂	-13.4186
瞎	-13.4186
崙	-13.4187
璉	-13.4188
茜	-13.4188
偵	-13.419
蒔	-13.419
蠖	-13.4191
礦	-13.4191
廁	-13.4191
臃	-13.4192
薯	-13.4192
菀	-13.4193
簸	-13.4194
挍	-13.4194
䡩	-13.4195
𧢻	-13.4195
紡	-13.4196
詶	-13.4198
嗵	-13.4198
覇	-13.4198
㺄	-13.4205
雁	-13.4207
顥	-13.4208
蚛	-13.4209
誾	-13.4209
●	-13.4209
楸	-13.4211
蹋	-13.4219
鉉	-13.4222
𨊧	-13.4222
𨌩	-13.4222
澒	-13.4223
剗	-13.4226
旰	-13.4227
濾	-13.4228
肪	-13.4235
喤	-13.4251
圠	-13.6602
騮	-13.6602
蔾	-13.6607
奶	-13.661
箚	-13.6612
橈	-13.6612
𡖉	-13.6612
堥	-13.6616
汧	-13.6617
蝡	-13.6617
堠	-13.6618
咺	-13.6619
猱	-13.6619
慓	-13.6621
羝	-13.6623
咫	-13.6624
倨	-13.6625
䡼	-13.6625
翬	-13.6625
締	-13.6626
纘	-13.6627
倕	-13.6627
樁	-13.6628
𠜖	-13.6629
漪	-13.6631
堇	-13.6631
刲	-13.6631
觝	-13.6631
嗥	-13.6632
洺	-13.6632
杷	-13.6632
涪	-13.6634
尭	-13.6634
譙	-13.6634
厢	-13.6635
砰	-13.6635
馹	-13.6635
坳	-13.6635
讌	-13.6635
鷂	-13.6635
謭	-13.6635
剿	-13.6637
戻	-13.6637
軆	-13.6637
篙	-13.6638
罍	-13.6638
絫	-13.6638
誗	-13.6638
篝	-13.6639
皋	-13.6639
寝	-13.6639
涅	-13.6639
逄	-13.6639
痃	-13.6639
觚	-13.6639
个	-13.6639
涿	-13.6639
㮏	-13.6641
錚	-13.6641
鄣	-13.6641
踦	-13.6641
澧	-13.6641
愠	-13.6641
驩	-13.6641
㸑	-13.6642
澮	-13.6642
呦	-13.6642
鍥	-13.6642
埿	-13.6642
犇	-13.6642
臞	-13.6644
跟	-13.6644
烖	-13.6644
卹	-13.6645
浼	-13.6645
㓱	-13.6645
蜮	-13.6645
窶	-13.6645
寕	-13.6646
箓	-13.6646
倮	-13.6646
椷	-13.6646
邾	-13.6648
燬	-13.6648
蹀	-13.6648
淊	-13.6648
鈸	-13.6648
颸	-13.6648
諜	-13.6648
犍	-13.6649
𨤲	-13.6649
桔	-13.6649
孀	-13.665
怵	-13.6651
鐔	-13.6652
宁	-13.6652
龕	-13.6652
囮	-13.6652
艘	-13.6652
鞲	-13.6652
𦍤	-13.6652
爟	-13.6653
酤	-13.6653
痴	-13.6653
瀘	-13.6653
錙	-13.6655
偟	-13.6655
祑	-13.6655
𠇍	-13.6655
港	-13.6655
𠚥	-13.6656
瑝	-13.6656
舸	-13.6656
紵	-13.6657
睥	-13.6657
泫	-13.6657
豊	-13.6657
尪	-13.6657
柢	-13.6658
詡	-13.6658
阪	-13.6659
嚀	-13.6659
廨	-13.6659
咕	-13.6659
眧	-13.6659
唻	-13.6659
鋋	-13.6659
峊	-13.6659
搦	-13.6659
辠	-13.6659
喟	-13.6659
婿	-13.6659
瞶	-13.666
噲	-13.666
概	-13.666
瞹	-13.666
𠴏	-13.666
䘏	-13.6661
胙	-13.6661
檉	-13.6662
瓓	-13.6662
蕋	-13.6662
擷	-13.6662
哞	-13.6663
窅	-13.6663
迁	-13.6663
瘂	-13.6663
䆳	-13.6663
䋲	-13.6663
鱖	-13.6664
柬	-13.6664
𠻃	-13.6664
楯	-13.6664
摉	-13.6666
殭	-13.6666
彎	-13.6666
懦	-13.6666
黤	-13.6666
圵	-13.6666
垕	-13.6666
𩴹	-13.6666
醨	-13.6666
蹴	-13.6666
撝	-13.6667
湓	-13.6667
阐	-13.6667
娃	-13.6668
甓	-13.6668
炩	-13.6668
𤆶	-13.6668
楣	-13.6669
熔	-13.6669
坯	-13.6669
蕕	-13.6669
凭	-13.6669
畎	-13.6669
槽	-13.6669
鬆	-13.667
燝	-13.667
塌	-13.667
癀	-13.667
唭	-13.667
洧	-13.667
籩	-13.667
皚	-13.667
嘢	-13.667
𨭊	-13.667
扼	-13.6671
㷋	-13.6671
霔	-13.6671
蠒	-13.6671
廩	-13.6671
橡	-13.6671
夘	-13.6672
苪	-13.6673
閴	-13.6673
瞭	-13.6673
𡂙	-13.6673
瞩	-13.6673
頏	-13.6674
嘩	-13.6674
筑	-13.6674
甸	-13.6674
曈	-13.6674
肫	-13.6675
哹	-13.6675
𠆸	-13.6675
嘅	-13.6675
肕	-13.6675
𤥭	-13.6675
駛	-13.6676
仔	-13.6676
𩲤	-13.6677
傘	-13.6677
瘠	-13.6677
郍	-13.6677
㗚	-13.6677
薬	-13.6677
垤	-13.6678
嬖	-13.6678
縵	-13.6678
鐮	-13.6678
諛	-13.668
庄	-13.668
齅	-13.668
㗘	-13.668
扺	-13.668
櫓	-13.668
菘	-13.668
鑱	-13.668
縠	-13.6681
嘛	-13.6681
鑷	-13.6681
呯	-13.6681
𠷕	-13.6681
嗈	-13.6681
灊	-13.6682
喰	-13.6682
饜	-13.6684
吧	-13.6684
喂	-13.6685
鍗	-13.6685
齏	-13.6685
漣	-13.6686
𡙎	-13.6687
亊	-13.6687
㻌	-13.6687
众	-13.6688
蓰	-13.6688
賻	-13.6688
𩲍	-13.6688
伹	-13.6689
璚	-13.6689
𨵗	-13.6689
埽	-13.6689
檯	-13.6689
荳	-13.6691
舁	-13.6691
梘	-13.6691
釧	-13.6691
嚷	-13.6691
𤤖	-13.6692
褲	-13.6692
涬	-13.6693
稗	-13.6693
𧙓	-13.6693
㗒	-13.6693
捴	-13.6693
絀	-13.6695
癕	-13.6695
䓗	-13.6696
𡀂	-13.6696
唷	-13.6696
婭	-13.6698
騑	-13.6698
嘌	-13.6699
枵	-13.6702
𠰠	-13.6705
𠹋	-13.6705
曺	-13.6705
遒	-13.6706
淙	-13.6707
嘞	-13.6709
愶	-13.671
𨳨	-13.6712
癊	-13.6713
蜆	-13.6713
哧	-13.6714
伋	-13.6716
汭	-13.6717
蛭	-13.6728
䡠	-13.6741
苣	-13.6743
尠	-13.6752
䡇	-13.6757
翾	-13.9872
䈉	-13.9902
鶵	-13.9925
嘀	-13.9925
夊	-13.9926
稊	-13.9931
薌	-13.9931
諉	-13.9935
勰	-13.9937
籀	-13.9937
粼	-13.9937
莱	-13.9939
餎	-13.9941
踶	-13.9943
惸	-13.9943
餦	-13.9945
揠	-13.9947
刓	-13.9947
瀼	-13.9947
嘇	-13.9948
筐	-13.9949
䏑	-13.9951
殲	-13.9952
鈌	-13.9952
鍮	-13.9953
矗	-13.9953
嵋	-13.9954
闉	-13.9954
斸	-13.9954
揫	-13.9956
荔	-13.9956
鈿	-13.9956
縗	-13.9958
蟢	-13.9958
隧	-13.9958
犁	-13.9958
眯	-13.9958
剰	-13.996
𣇍	-13.996
澟	-13.996
瑒	-13.996
扙	-13.996
玆	-13.996
篡	-13.996
楶	-13.9962
蝟	-13.9962
沂	-13.9964
銊	-13.9964
釃	-13.9964
鶚	-13.9964
嶔	-13.9964
眹	-13.9964
㕲	-13.9966
絽	-13.9966
靨	-13.9966
嚬	-13.9966
揶	-13.9968
顰	-13.9968
䨇	-13.9968
惇	-13.9968
磔	-13.9968
貍	-13.9968
廸	-13.9969
𣾰	-13.997
儷	-13.997
駘	-13.9971
舠	-13.9972
䨱	-13.9972
眙	-13.9972
𥚑	-13.9972
啨	-13.9972
殳	-13.9974
酗	-13.9974
酡	-13.9974
柑	-13.9974
濆	-13.9974
仄	-13.9974
剸	-13.9974
琛	-13.9974
竣	-13.9974
贜	-13.9974
靦	-13.9974
袵	-13.9976
𠸄	-13.9976
暐	-13.9976
躐	-13.9976
帕	-13.9976
蜇	-13.9976
𢂿	-13.9976
芮	-13.9977
捋	-13.9978
鱣	-13.9978
虻	-13.9978
搴	-13.9978
陔	-13.9978
噩	-13.9978
擐	-13.9978
朿	-13.9978
𣸯	-13.9978
罳	-13.9979
踳	-13.9979
鎡	-13.9979
渢	-13.998
睴	-13.998
賭	-13.998
粽	-13.998
訃	-13.998
寞	-13.998
𢈔	-13.9981
爺	-13.9981
牯	-13.9981
㘕	-13.9981
犖	-13.9981
䊮	-13.9981
吲	-13.9981
廿	-13.9981
糶	-13.9981
𪒟	-13.9981
凰	-13.9982
皯	-13.9983
孱	-13.9983
录	-13.9983
磧	-13.9983
鏃	-13.9983
襭	-13.9983
㩦	-13.9983
眎	-13.9983
䐉	-13.9983
蒯	-13.9983
鎸	-13.9983
鸜	-13.9983
纚	-13.9985
桷	-13.9985
寀	-13.9985
瀲	-13.9985
呿	-13.9985
䫙	-13.9985
専	-13.9985
菅	-13.9985
躩	-13.9985
㭝	-13.9985
犠	-13.9985
瘗	-13.9985
蛸	-13.9985
閾	-13.9985
㒺	-13.9986
枹	-13.9987
奂	-13.9987
啺	-13.9987
飥	-13.9987
凂	-13.9987
躣	-13.9987
𢌞	-13.9987
𣆟	-13.9987
𨞬	-13.9987
畹	-13.9987
雯	-13.9988
万	-13.9989
圻	-13.9989
圡	-13.9989
简	-13.9989
极	-13.9989
辅	-13.9989
据	-13.9989
肶	-13.9989
𩴃	-13.9989
䆠	-13.9989
醑	-13.9989
簑	-13.9989
虢	-13.9989
𠼱	-13.9989
㯳	-13.9989
諗	-13.9989
唼	-13.9991
扑	-13.9991
𤇆	-13.9991
妝	-13.9991
貊	-13.9991
箔	-13.9991
袊	-13.9991
𠫭	-13.9991
臾	-13.9991
嚲	-13.9993
鷃	-13.9993
黮	-13.9993
顋	-13.9993
曛	-13.9993
儋	-13.9993
唄	-13.9993
呅	-13.9993
咩	-13.9993
濺	-13.9993
櫂	-13.9993
滹	-13.9993
绿	-13.9993
𧰟	-13.9993
嶓	-13.9995
眈	-13.9995
𧦽	-13.9995
娣	-13.9995
潨	-13.9995
糲	-13.9995
瞍	-13.9995
踣	-13.9995
橙	-13.9995
与	-13.9995
嵒	-13.9995
䦕	-13.9995
躓	-13.9996
邳	-13.9997
㘘	-13.9997
䔍	-13.9997
咘	-13.9997
罐	-13.9997
㬌	-13.9997
臝	-13.9997
韮	-13.9997
题	-13.9997
𠯞	-13.9997
𡂒	-13.9997
厮	-13.9997
苫	-13.9997
䈴	-13.9997
蹬	-13.9997
岏	-13.9999
袱	-13.9999
逯	-13.9999
懂	-13.9999
竽	-13.9999
㬽	-13.9999
㓛	-13.9999
俙	-13.9999
卬	-13.9999
坌	-13.9999
縋	-13.9999
隐	-13.9999
灵	-14
雋	-14.0001
穏	-14.0001
𡶶	-14.0001
蜫	-14.0001
徭	-14.0001
萝	-14.0001
𢚢	-14.0001
鲁	-14.0001
暁	-14.0001
鑣	-14.0001
佈	-14.0001
嚒	-14.0001
揄	-14.0001
琦	-14.0001
胑	-14.0001
觥	-14.0001
喽	-14.0001
𩅼	-14.0001
-	-14.0003
貔	-14.0003
氾	-14.0003
瘨	-14.0003
浥	-14.0003
㕓	-14.0003
纉	-14.0003
醢	-14.0003
𨓜	-14.0003
宓	-14.0004
腠	-14.0004
㢮	-14.0005
蒱	-14.0005
醻	-14.0005
醼	-14.0005
盾	-14.0005
𢙣	-14.0005
咐	-14.0005
残	-14.0005
湩	-14.0005
籃	-14.0005
𡚁	-14.0005
𨚧	-14.0005
㕹	-14.0005
橾	-14.0005
鬐	-14.0006
洫	-14.0006
扆	-14.0006
綮	-14.0007
昝	-14.0007
敇	-14.0007
鈇	-14.0007
𠾶	-14.0007
稿	-14.0007
峕	-14.0008
𨋎	-14.0008
吪	-14.0008
錠	-14.0008
磋	-14.0008
𩴩	-14.0008
綖	-14.0008
箆	-14.0008
猝	-14.001
沱	-14.001
涙	-14.001
堡	-14.001
嗡	-14.001
磵	-14.001
髹	-14.001
䧏	-14.001
棚	-14.001
啍	-14.001
喴	-14.001
㕵	-14.001
鯔	-14.001
褌	-14.001
紇	-14.0012
眾	-14.0012
𦍒	-14.0012
燂	-14.0012
濘	-14.0012
飪	-14.0012
紼	-14.0012
醎	-14.0012
怢	-14.0012
昕	-14.0012
竃	-14.0012
𩅟	-14.0012
聵	-14.0014
矝	-14.0014
Z	-14.0014
緉	-14.0014
恓	-14.0014
𨠩	-14.0014
听	-14.0014
騃	-14.0014
魋	-14.0014
瞠	-14.0014
啉	-14.0014
緦	-14.0014
鏐	-14.0014
𠾜	-14.0014
𩃋	-14.0014
倂	-14.0016
鍜	-14.0016
轜	-14.0016
坈	-14.0016
丄	-14.0016
𥧌	-14.0016
𠻞	-14.0016
湟	-14.0016
醆	-14.0016
梠	-14.0016
𠳀	-14.0016
𠵜	-14.0016
𨓦	-14.0018
憍	-14.0018
庀	-14.0018
鸇	-14.0018
琱	-14.0018
卸	-14.0018
廂	-14.0018
珒	-14.0018
邛	-14.0019
芰	-14.002
椰	-14.002
佻	-14.002
覼	-14.002
爏	-14.002
膨	-14.002
䨜	-14.002
囐	-14.002
斐	-14.002
𤤁	-14.002
軨	-14.0022
姒	-14.0022
荊	-14.0022
驆	-14.0022
喯	-14.0022
袠	-14.0022
𡃳	-14.0022
穡	-14.0024
癭	-14.0024
𠜍	-14.0024
䦘	-14.0024
悊	-14.0024
曨	-14.0026
獐	-14.0026
玎	-14.0026
瘇	-14.0026
蚺	-14.0026
鉦	-14.0026
貎	-14.0027
畱	-14.0028
蓁	-14.0028
朧	-14.0028
絢	-14.0028
嗻	-14.0028
𦑡	-14.0028
芡	-14.003
齲	-14.003
𣅀	-14.003
閇	-14.003
柂	-14.003
𠾣	-14.003
媵	-14.003
𠶀	-14.003
俲	-14.003
彘	-14.003
涘	-14.003
宕	-14.0031
抬	-14.0032
澠	-14.0032
忉	-14.0032
忡	-14.0032
躃	-14.0032
𪎗	-14.0033
鍤	-14.0034
𠰈	-14.0034
𦋺	-14.0034
猧	-14.0034
喔	-14.0034
栅	-14.0035
畛	-14.0035
䟦	-14.0035
𠲰	-14.0037
𨎿	-14.0037
謠	-14.0037
𡁏	-14.0037
耑	-14.0037
唀	-14.0039
挪	-14.0039
莓	-14.0039
䄄	-14.0039
濼	-14.0039
砒	-14.0041
喡	-14.0041
輭	-14.0041
𤍽	-14.0041
刖	-14.0041
慔	-14.0041
硏	-14.0043
頺	-14.0043
繤	-14.0045
溏	-14.0045
喳	-14.0045
挐	-14.0045
畸	-14.0045
嗍	-14.0047
歹	-14.0047
柺	-14.0047
楞	-14.0047
𠷉	-14.0047
𨑰	-14.0049
鰻	-14.0049
凜	-14.0051
𨋔	-14.0059
撗	-14.0059
惙	-14.0059
朦	-14.006
宍	-14.0061
礋	-14.0062
𥟵	-14.0064
嚘	-14.0066
抓	-14.0074
籜	-14.0099
棓	-14.0109
𠺒	-14.0111
跣	-14.4733
囏	-14.485
珣	-14.4862
嗹	-14.4872
梲	-14.4888
棖	-14.4891
煟	-14.4891
㪍	-14.4894
怊	-14.4901
踤	-14.4901
鷕	-14.4901
甡	-14.4903
窕	-14.4907
唶	-14.4907
虙	-14.4907
輞	-14.491
呐	-14.491
嚻	-14.4913
嘒	-14.4916
𠰧	-14.4919
忳	-14.4919
馽	-14.4922
𠯖	-14.4922
蝍	-14.4923
腆	-14.4926
頳	-14.4926
佾	-14.4926
鼃	-14.4926
袒	-14.4929
緃	-14.4929
桮	-14.493
閹	-14.4932
湼	-14.4932
靷	-14.4932
蜻	-14.4932
醲	-14.4932
雝	-14.4932
彧	-14.4935
㸌	-14.4938
穠	-14.4938
炟	-14.4938
莆	-14.4938
胍	-14.4938
㦯	-14.4938
痣	-14.4938
睶	-14.4938
罨	-14.4938
賙	-14.4938
嫚	-14.4941
憺	-14.4941
濊	-14.4941
䋎	-14.4941
䜟	-14.4941
擄	-14.4941
狖	-14.4941
蟮	-14.4941
戇	-14.4945
俣	-14.4945
槳	-14.4945
汐	-14.4947
踉	-14.4947
槪	-14.4948
玼	-14.4948
鵞	-14.4948
騄	-14.4948
癉	-14.4948
偯	-14.4948
经	-14.4948
臸	-14.4948
玘	-14.4951
澌	-14.4951
蹁	-14.4951
疃	-14.4951
盭	-14.4951
〇	-14.4951
丏	-14.4951
堈	-14.4951
楂	-14.4951
翏	-14.4951
訇	-14.4951
谹	-14.4951
䰡	-14.4954
匭	-14.4954
矻	-14.4954
蘗	-14.4954
酩	-14.4954
髽	-14.4954
洸	-14.4954
哻	-14.4957
肰	-14.4957
㡳	-14.4957
巠	-14.4957
睎	-14.4957
荃	-14.4957
蕘	-14.496
紕	-14.496
莩	-14.496
呟	-14.496
僦	-14.496
媛	-14.496
蕎	-14.496
鎪	-14.496
鴝	-14.496
䝤	-14.496
瑁	-14.496
舃	-14.496
暌	-14.4963
趯	-14.4963
伻	-14.4963
僄	-14.4963
爥	-14.4963
騂	-14.4963
枮	-14.4963
沕	-14.4963
㝎	-14.4963
㿋	-14.4963
厶	-14.4963
岨	-14.4963
桞	-14.4963
玳	-14.4963
进	-14.4963
逴	-14.4963
韱	-14.4963
鸛	-14.4963
銛	-14.4965
郛	-14.4966
泂	-14.4967
酧	-14.4967
鳬	-14.4967
㖆	-14.4967
笇	-14.4967
諐	-14.4967
噁	-14.4967
婌	-14.4967
輰	-14.4967
靊	-14.4967
獷	-14.4967
鵒	-14.4967
嘵	-14.4967
彞	-14.4967
㕭	-14.4967
墩	-14.4967
幫	-14.4967
戺	-14.4967
熹	-14.4967
総	-14.4967
縝	-14.4967
莘	-14.4967
銍	-14.497
瓴	-14.497
皃	-14.497
颶	-14.497
姞	-14.497
絜	-14.497
虀	-14.497
讞	-14.497
攧	-14.497
猊	-14.497
㬢	-14.497
挨	-14.497
敉	-14.497
渦	-14.497
滀	-14.497
穟	-14.497
紓	-14.497
耋	-14.497
襵	-14.497
轔	-14.497
蜓	-14.4973
彾	-14.4973
㫒	-14.4973
禔	-14.4973
描	-14.4973
䨙	-14.4973
嚄	-14.4973
塾	-14.4973
恼	-14.4973
捥	-14.4973
坻	-14.4973
埤	-14.4973
屾	-14.4973
韁	-14.4973
匜	-14.4973
枒	-14.4973
礜	-14.4973
俻	-14.4973
瓌	-14.4973
贄	-14.4976
劭	-14.4976
菖	-14.4976
慇	-14.4976
咲	-14.4976
彖	-14.4976
㱕	-14.4976
仵	-14.4976
㤜	-14.4976
摛	-14.4976
豌	-14.4976
軔	-14.4976
襍	-14.4979
儁	-14.4979
䩁	-14.4979
嚋	-14.4979
萑	-14.4979
佰	-14.4979
嚑	-14.4979
𠸻	-14.4979
鋉	-14.4979
慷	-14.4979
幛	-14.4979
廏	-14.4979
畵	-14.4979
皖	-14.4979
絺	-14.4979
颠	-14.4979
揍	-14.4979
毐	-14.4979
珈	-14.4979
褶	-14.4979
鄹	-14.4979
駉	-14.4979
瑘	-14.4982
燀	-14.4982
鄔	-14.4982
彿	-14.4982
氊	-14.4982
孃	-14.4982
柙	-14.4982
跽	-14.4982
咃	-14.4982
壜	-14.4982
卮	-14.4982
墅	-14.4982
彺	-14.4982
洟	-14.4982
餟	-14.4982
曀	-14.4982
楕	-14.4982
粞	-14.4982
胬	-14.4982
膴	-14.4982
蠓	-14.4982
鉸	-14.4982
淇	-14.4985
錡	-14.4985
张	-14.4985
蝨	-14.4985
冏	-14.4985
慠	-14.4985
熲	-14.4985
繙	-14.4985
鮐	-14.4985
歭	-14.4985
蚪	-14.4985
㗰	-14.4986
䁐	-14.4986
盝	-14.4986
鉾	-14.4986
溱	-14.4986
濩	-14.4986
藳	-14.4986
茰	-14.4988
鱷	-14.4988
亀	-14.4988
拫	-14.4989
螬	-14.4989
确	-14.4989
餧	-14.4989
鰕	-14.4989
㽞	-14.4989
偑	-14.4989
塟	-14.4989
撽	-14.4989
餈	-14.4989
柒	-14.4989
栰	-14.4989
潴	-14.4989
瀅	-14.4989
畕	-14.4989
禇	-14.4989
秣	-14.4989
翆	-14.4989
褊	-14.4989
賝	-14.4989
遅	-14.4989
鞾	-14.4989
訢	-14.4989
涔	-14.499
𠫤	-14.4991
錀	-14.4992
䠋	-14.4992
緹	-14.4992
㗇	-14.4992
儆	-14.4992
怗	-14.4992
鎛	-14.4992
噌	-14.4992
煴	-14.4992
𠵽	-14.4992
𠷟	-14.4992
籣	-14.4992
聡	-14.4992
芾	-14.4992
㯶	-14.4992
䒶	-14.4992
槫	-14.4992
瓘	-14.4992
砆	-14.4992
磶	-14.4992
禩	-14.4992
羃	-14.4992
蹐	-14.4992
蕣	-14.4993
楨	-14.4994
C	-14.4995
伙	-14.4995
朅	-14.4995
諡	-14.4995
K	-14.4995
䓤	-14.4995
懹	-14.4995
躞	-14.4995
袤	-14.4995
辞	-14.4995
淦	-14.4995
瀕	-14.4995
㺒	-14.4995
哗	-14.4995
圩	-14.4995
奱	-14.4995
槀	-14.4995
櫝	-14.4995
沚	-14.4995
漩	-14.4995
睍	-14.4995
礱	-14.4995
胗	-14.4995
芊	-14.4995
鄼	-14.4995
齁	-14.4995
澂	-14.4996
抒	-14.4997
瑠	-14.4998
暾	-14.4998
袞	-14.4998
蔂	-14.4998
㞯	-14.4998
儂	-14.4998
昀	-14.4998
沠	-14.4998
皡	-14.4998
繖	-14.4998
蘊	-14.4998
魌	-14.4998
𠰸	-14.4998
圉	-14.4998
溧	-14.4998
籊	-14.4998
踽	-14.4998
逡	-14.5001
旐	-14.5001
螳	-14.5001
迆	-14.5001
愀	-14.5001
嗯	-14.5001
廌	-14.5001
砦	-14.5001
譾	-14.5001
鋅	-14.5001
柤	-14.5001
睱	-14.5001
籮	-14.5001
褫	-14.5001
鈃	-14.5001
陜	-14.5001
哇	-14.5001
票	-14.5001
踨	-14.5001
䂊	-14.5001
瓆	-14.5001
畀	-14.5001
糗	-14.5001
衄	-14.5001
见	-14.5001
蹭	-14.5001
鼾	-14.5001
嘺	-14.5004
㖒	-14.5004
綣	-14.5004
飧	-14.5004
㕫	-14.5004
抇	-14.5004
皞	-14.5004
胝	-14.5004
裵	-14.5004
鈛	-14.5004
芣	-14.5006
鄜	-14.5006
哏	-14.5007
奫	-14.5007
孾	-14.5008
担	-14.5008
摴	-14.5008
瘏	-14.5008
迼	-14.5008
騞	-14.5008
䡄	-14.5008
丱	-14.5008
凸	-14.5008
啿	-14.5008
奐	-14.5008
媸	-14.5008
恟	-14.5008
慽	-14.5008
扒	-14.5008
昳	-14.5008
曚	-14.5008
楇	-14.5008
煤	-14.5008
猳	-14.5008
疈	-14.5008
胯	-14.5008
膒	-14.5008
蘢	-14.5008
譸	-14.5008
釦	-14.5008
鏞	-14.5008
餺	-14.5008
麑	-14.5008
𠘶	-14.5008
僑	-14.501
箑	-14.5011
黽	-14.5011
孜	-14.5011
簦	-14.5011
馱	-14.5011
䐇	-14.5011
幌	-14.5011
洮	-14.5011
粿	-14.5011
鸝	-14.5011
号	-14.5011
广	-14.5011
悤	-14.5011
蜲	-14.5011
郯	-14.5011
撾	-14.5011
枢	-14.5011
鮪	-14.5011
・	-14.5012
娵	-14.5014
霡	-14.5014
嗂	-14.5014
餝	-14.5014
栘	-14.5014
吘	-14.5014
埳	-14.5014
夌	-14.5014
撟	-14.5014
櫳	-14.5014
綈	-14.5014
繮	-14.5014
鄢	-14.5014
酖	-14.5014
唅	-14.5014
壚	-14.5014
淂	-14.5014
爠	-14.5014
罸	-14.5014
茦	-14.5014
譆	-14.5014
隹	-14.5014
齔	-14.5014
𠸂	-14.5014
嚓	-14.5017
𠲃	-14.5017
呆	-14.5017
钧	-14.5017
鞘	-14.5017
𠲿	-14.5017
擠	-14.5017
齗	-14.5017
萆	-14.5017
瑑	-14.5017
症	-14.5017
橦	-14.5017
葜	-14.5017
靸	-14.5017
穉	-14.502
婥	-14.502
棐	-14.502
椄	-14.502
鎬	-14.502
夂	-14.502
変	-14.502
棼	-14.502
嗺	-14.502
暳	-14.502
焂	-14.502
綯	-14.502
醽	-14.502
鏥	-14.502
閳	-14.502
鰐	-14.502
蓀	-14.5023
彜	-14.5023
輀	-14.5023
禫	-14.5023
誄	-14.5023
泩	-14.5023
𠯀	-14.5023
雭	-14.5023
韃	-14.5023
淶	-14.5026
瓇	-14.5026
謊	-14.5026
両	-14.5026
砍	-14.5026
唋	-14.5026
愇	-14.5026
傔	-14.5026
汯	-14.5026
珥	-14.5026
蝱	-14.5026
楒	-14.5026
爹	-14.5026
琨	-14.5026
眢	-14.5026
繢	-14.5026
銧	-14.5026
债	-14.5028
璃	-14.5029
檮	-14.5029
輗	-14.5029
阳	-14.503
餬	-14.503
黝	-14.503
凣	-14.503
徍	-14.503
𠳾	-14.503
𠹍	-14.503
芭	-14.503
晘	-14.503
朓	-14.503
騙	-14.503
䦝	-14.503
俏	-14.503
玨	-14.503
雒	-14.503
㯽	-14.5033
譛	-14.5033
莠	-14.5033
汛	-14.5033
巉	-14.5033
霟	-14.5033
毖	-14.5034
吡	-14.5036
朏	-14.5036
㘽	-14.5036
霢	-14.5036
貅	-14.5036
囒	-14.5036
禠	-14.5036
纜	-14.5036
闭	-14.5036
甎	-14.5036
呹	-14.5036
噢	-14.5036
拼	-14.5036
潸	-14.5036
葈	-14.5039
畟	-14.5039
賡	-14.5039
澀	-14.5039
瓞	-14.5042
鞮	-14.5042
瀇	-14.5042
缚	-14.5042
餽	-14.5042
隟	-14.5042
㖦	-14.5042
噼	-14.5042
盩	-14.5042
𠶕	-14.5042
鄆	-14.5042
鏌	-14.5042
柝	-14.5042
裌	-14.5042
㤅	-14.5042
儹	-14.5042
糐	-14.5042
腔	-14.5042
蜝	-14.5042
邱	-14.5045
軚	-14.5045
輁	-14.5045
茀	-14.5045
䞋	-14.5045
郫	-14.5045
厔	-14.5045
溼	-14.5045
䖟	-14.5045
侗	-14.5045
忩	-14.5045
抅	-14.5045
桅	-14.5045
煓	-14.5045
砢	-14.5045
詇	-14.5045
焃	-14.5048
氤	-14.5048
咿	-14.5048
惘	-14.5048
嚆	-14.5048
鱧	-14.5052
蓴	-14.5052
贇	-14.5052
鍠	-14.5052
篕	-14.5052
㷆	-14.5052
嚶	-14.5052
慺	-14.5052
迊	-14.5052
蒡	-14.5055
惓	-14.5055
蓂	-14.5057
荇	-14.5058
袚	-14.5058
撅	-14.5058
晤	-14.5058
櫬	-14.5058
蝥	-14.5058
勻	-14.5058
畆	-14.5058
覯	-14.5058
则	-14.5058
翣	-14.5061
吇	-14.5061
咠	-14.5061
餼	-14.5064
鷟	-14.5064
胅	-14.5064
鐏	-14.5067
𠵯	-14.5067
茴	-14.507
獪	-14.5071
䦎	-14.5071
簏	-14.5071
肛	-14.5071
呧	-14.5074
欇	-14.5074
罒	-14.5077
卆	-14.508
蘩	-14.508
蜥	-14.5086
蜴	-14.5086
㑆	-14.509
㸁	-14.509
蜾	-14.5096
䈎	-14.5096
哫	-14.5096
蟜	-14.5096
蠃	-14.5099
橉	-14.5102
煠	-14.5102
:	-14.5112
簋	-14.5115
簠	-14.5115
艋	-14.5115
舴	-14.5118
婣	-14.5146
𠹛	-15.4734
鷓	-15.4735
鴣	-15.4736
鱺	-15.4737
鰾	-15.4738
鬒	-15.4739
駙	-15.474
韙	-15.4741
鞵	-15.4742
阱	-15.4743
闒	-15.4744
邡	-15.4745
轢	-15.4746
趹	-15.4747
赬	-15.4748
藇	-15.4749
薟	-15.475
蓯	-15.4751
腓	-15.4752
罽	-15.4753
緂	-15.4754
筦	-15.4755
祊	-15.4756
琖	-15.4757
灙	-15.4758
瀈	-15.4759
潧	-15.476
氽	-15.4761
桾	-15.4762
柞	-15.4763
枽	-15.4764
枇	-15.4765
揕	-15.4766
扯	-15.4767
憃	-15.4768
惧	-15.4769
怲	-15.477
忏	-15.4771
庋	-15.4772
幐	-15.4773
帟	-15.4774
嶪	-15.4775
嵰	-15.4776
嵫	-15.4777
嵛	-15.4778
崛	-15.4779
宨	-15.478
嬈	-15.4781
嫫	-15.4782
妤	-15.4783
夲	-15.4784
塿	-15.4785
坰	-15.4786
囋	-15.4787
嚞	-15.4788
噣	-15.4789
噔	-15.479
叡	-15.4791
匳	-15.4792
勩	-15.4793
俑	-15.4794
侠	-15.4795
伉	-15.4796
䗶	-15.4797
䗤	-15.4798
䎕	-15.4799
㽔	-15.48
㬷	-15.4801
㛰	-15.4802
㗌	-15.4803
㖪	-15.4804
㕿	-15.4805
𦍑	-15.4806
𠼀	-15.4807
𠸫	-15.4808
𠲮	-15.4809
鯪	-15.481
鯢	-15.4811
驊	-15.4812
饅	-15.4813
顗	-15.4814
頎	-15.4815
韉	-15.4816
閧	-15.4817
閈	-15.4818
鏑	-15.4819
逶	-15.482
轇	-15.4821
詁	-15.4822
蟋	-15.4823
蟀	-15.4824
螋	-15.4825
蚘	-15.4826
蕞	-15.4827
菉	-15.4828
聤	-15.4829
翡	-15.483
羚	-15.4831
纁	-15.4832
綆	-15.4833
篌	-15.4834
箜	-15.4835
碪	-15.4836
瘓	-15.4837
痎	-15.4838
牷	-15.4839
瀚	-15.484
洹	-15.4841
歔	-15.4842
欷	-15.4843
楩	-15.4844
枘	-15.4845
擻	-15.4846
捃	-15.4847
拗	-15.4848
戞	-15.4849
嶙	-15.485
峋	-15.4851
嚌	-15.4852
喞	-15.4853
咹	-15.4854
䭀	-15.4855
䙵	-15.4856
䁝	-15.4857
㹻	-15.4858
㖃	-15.4859
𩕄	-15.486
𡹃	-15.4861
𡨾	-15.4862
𠺢	-15.4863
齬	-15.4864
齟	-15.4865
麞	-15.4866
鷦	-15.4867
鷀	-15.4868
骰	-15.4869
餮	-15.487
鐀	-15.4871
褓	-15.4872
蟪	-15.4873
蛉	-15.4874
蘞	-15.4875
蕷	-15.4876
荽	-15.4877
苨	-15.4878
艽	-15.4879
紲	-15.488
箎	-15.4881
睁	-15.4882
瑪	-15.4883
瑙	-15.4884
猬	-15.4885
燉	-15.4886
焄	-15.4887
拶	-15.4888
悱	-15.4889
嶒	-15.489
崚	-15.4891
嬙	-15.4892
埭	-15.4893
剾	-15.4894
儺	-15.4895
侏	-15.4896
佔	-15.4897
仃	-15.4898
䐩	-15.4899
㩉	-15.49
㠀	-15.4901
㖀	-15.4902
】	-15.4903
【	-15.4904
𧍴	-15.4905
鵑	-15.4906
顦	-15.4907
錟	-15.4908
蔔	-15.4909
蒴	-15.491
菪	-15.4911
菟	-15.4912
莨	-15.4913
胖	-15.4914
絅	-15.4915
粕	-15.4916
簁	-15.4917
痍	-15.4918
泬	-15.4919
汹	-15.492
欬	-15.4921
忪	-15.4922
嫦	-15.4923
坱	-15.4924
儭	-15.4925
䨥	-15.4926
𧝋	-15.4927
𤋺	-15.4928
𡀱	-15.4929
𠰚	-15.493
琉	-15.4931
靛	-15.4931
闠	-15.4932
鍈	-15.4933
郜	-15.4934
轕	-15.4935
艤	-15.4936
胰	-15.4937
粦	-15.4938
粃	-15.4939
秫	-15.494
磽	-15.4941
碢	-15.4942
瘙	-15.4943
猘	-15.4944
濓	-15.4945
枻	-15.4946
髣	-15.4947
摳	-15.4947
摐	-15.4948
徬	-15.4949
崢	-15.495
咢	-15.4951
冽	-15.4952
㱽	-15.4953
𠯜	-15.4954
鵡	-15.4955
魉	-15.4956
髑	-15.4957
蝖	-15.4958
㬋	-15.4959
蜞	-15.4959
脗	-15.496
羖	-15.4961
碼	-15.4962
碯	-15.4963
睪	-15.4964
燹	-15.4965
瀣	-15.4966
沲	-15.4967
憔	-15.4968
妞	-15.4969
壒	-15.497
儡	-15.4971
傀	-15.4972
倆	-15.4973
鼕	-15.4974
鸕	-15.4975
骷	-15.4976
鄲	-15.4977
蠼	-15.4978
蟆	-15.4979
蝙	-15.498
蚖	-15.4981
菵	-15.4982
莧	-15.4983
窬	-15.4984
稉	-15.4985
磻	-15.4986
癮	-15.4987
獗	-15.4988
惆	-15.4989
坷	-15.499
鴦	-15.4991
螮	-15.4992
蝴	-15.4993
蘘	-15.4994
麒	-15.4995
魴	-15.4995
芫	-15.4995
翱	-15.4996
糯	-15.4997
厦	-15.4998
㪷	-15.4999
駝	-15.5
蹰	-15.5001
瘰	-15.5002
𨦲	-15.5003
霎	-15.5004
蜣	-15.5005
蜍	-15.5006
蜉	-15.5007
蛄	-15.5008
蔞	-15.5009
祧	-15.501
髴	-15.5011
盔	-15.5011
瓏	-15.5012
敭	-15.5013
陡	-15.5014
芍	-15.5015
裩	-15.5015
蠈	-15.5016
琶	-15.5017
琵	-15.5018
蠣	-15.5019
愊	-15.5019
㕤	-15.502
邂	-15.5021
逅	-15.5022
轤	-15.5023
輳	-15.5024
藭	-15.5025
磅	-15.5026
瓔	-15.5027
拇	-15.5028
嵳	-15.5029
崘	-15.503
児	-15.5031
醐	-15.5032
醍	-15.5033
轗	-15.5034
豸	-15.5035
璀	-15.5036
珀	-15.5037
瘼	-15.5038
幪	-15.5039
啻	-15.504
撕	-15.5041
匍	-15.5042
㾮	-15.5043
媧	-15.5044
嗊	-15.5045
㕮	-15.5046
跎	-15.5047
蜘	-15.5048
蚯	-15.5049
藶	-15.505
葶	-15.5051
硝	-15.5052
戕	-15.5053
榑	-15.5054
蜈	-15.5055
芷	-15.5056
翺	-15.5057
栀	-15.5058
硫	-15.5059
紜	-15.506
靆	-15.5061
崆	-15.5062
萸	-15.5063
峒	-15.5064
膀	-15.5065
胱	-15.5066
幞	-15.5067
蟇	-15.5067
𠾙	-15.5067
