<unk>	0
<s>	0
</s>	0
/	-3.81008
之	-3.92546
也	-4.02387
而	-4.27661
以	-4.42515
(	-4.45467
)	-4.50307
)(	-4.54599
者	-4.89294
為	-4.90477
其	-5.00173
則	-5.10014
曰	-5.14827
不	-5.15545
有	-5.21671
故	-5.25119
於	-5.3574
于	-5.55618
子	-5.60736
矣	-5.61081
公	-5.63958
無	-5.71121
是	-5.72746
與	-5.72784
人	-5.7544
晉	-5.81916
書	-5.83865
言	-5.83896
此	-5.86357
使	-5.88006
自	-5.88365
大	-5.90849
楚	-5.94518
非	-5.95668
在	-5.95686
齊	-5.98122
乎	-6.00747
皆	-6.0188
諸侯	-6.03159
鄭	-6.03572
魯	-6.06504
君	-6.07007
亦	-6.12081
一	-6.12254
國	-6.12386
王	-6.14308
反	-6.16107
及	-6.16516
又	-6.20968
至	-6.21092
見	-6.21773
謂	-6.25442
傳	-6.25912
宋	-6.2727
事	-6.27563
▁	-6.27991
焉	-6.31197
春秋	-6.35225
,	-6.35739
今	-6.36433
卒	-6.36868
大夫	-6.37923
將	-6.38382
如	-6.38887
氏	-6.39673
所	-6.40503
注	-6.40513
乃	-6.41269
成	-6.46673
同	-6.48066
㑹	-6.48313
三	-6.48605
已	-6.4891
師	-6.48917
必	-6.50292
得	-6.50819
禮	-6.52385
何	-6.5255
二	-6.53605
然	-6.55041
盟	-6.55124
云	-6.57337
若	-6.57474
殺	-6.57765
立	-6.58041
雖	-6.58513
欲	-6.59422
遂	-6.59678
○	-6.59987
經	-6.60779
名	-6.61407
文	-6.61755
歸	-6.61949
入	-6.6253
從	-6.62806
正	-6.62872
出	-6.63832
既	-6.64108
復	-6.65456
爲	-6.65756
夏	-6.65975
陳	-6.66874
城	-6.6782
時	-6.69012
行	-6.69501
始	-6.7003
取	-6.70161
以為	-6.71794
伐	-6.7359
當	-6.74169
上	-6.74506
下	-6.75729
後	-6.76645
衛	-6.76702
我	-6.78146
未	-6.78468
命	-6.79252
用	-6.79465
臣	-6.80088
。	-6.8235
義	-6.82361
小	-6.82482
知	-6.82713
稱	-6.83203
作	-6.83236
地	-6.84428
伯	-6.84608
請	-6.8671
日	-6.86913
相	-6.87104
五	-6.87292
可	-6.87806
猶	-6.88381
即	-6.88814
四	-6.90437
明	-6.90956
夫	-6.91474
周	-6.91982
民	-6.92709
先	-6.93028
能	-6.93469
年	-6.95484
不能	-6.95559
生	-6.97471
葬	-6.98015
冬	-6.98057
諸	-6.99074
音	-6.9923
朝	-7.00903
惡	-7.01047
且	-7.01076
來	-7.01079
執	-7.01157
或	-7.01824
所以	-7.01868
實	-7.02512
邑	-7.0317
不書	-7.03455
服	-7.03648
因	-7.03711
秦	-7.03718
耳	-7.03877
而不	-7.03962
主	-7.04047
秋	-7.04497
外	-7.04526
亂	-7.04543
滅	-7.05246
杜	-7.05877
罪	-7.06091
内	-7.06157
死	-7.07317
不可	-7.07772
哉	-7.08101
中	-7.09944
本	-7.10295
公子	-7.11234
天	-7.11763
吾	-7.13024
吳	-7.13878
重	-7.13962
敗	-7.14883
天子	-7.14928
世	-7.157
辭	-7.15969
平	-7.16001
桓	-7.16242
父	-7.16804
縣	-7.17
月	-7.17624
凡	-7.1775
蔡	-7.19621
謀	-7.20366
兵	-7.20371
失	-7.21393
六	-7.21816
去	-7.23801
戰	-7.24589
固	-7.25354
夫人	-7.25785
衞	-7.25908
定	-7.26745
會	-7.281
道	-7.28199
曹	-7.28927
多	-7.29572
居	-7.29995
告	-7.3041
齊侯	-7.3047
晉侯	-7.30722
許	-7.31718
切	-7.325
致	-7.32556
志	-7.33312
方	-7.34595
異	-7.34791
過	-7.35009
心	-7.35062
陽	-7.35764
州	-7.35801
蓋	-7.36463
爾	-7.36936
紀	-7.37375
音義	-7.37556
門	-7.37627
字	-7.38038
疏	-7.38475
終	-7.38491
親	-7.38829
善	-7.38872
侯	-7.38941
桓公	-7.39896
鄭伯	-7.40187
亡	-7.40265
逆	-7.40672
討	-7.41244
左傳	-7.41247
弑	-7.41295
左氏	-7.41665
而後	-7.41719
奔	-7.41788
受	-7.41921
求	-7.42567
祭	-7.42624
難	-7.43009
合	-7.43256
易	-7.43735
不得	-7.44521
春	-7.45364
分	-7.4605
信	-7.47142
九	-7.48238
初	-7.48743
圍	-7.4893
納	-7.49037
南	-7.49328
女	-7.49578
舉	-7.50089
通	-7.50231
戎	-7.50407
八	-7.50843
士	-7.50902
十	-7.50911
是也	-7.5143
/)	-7.51458
邾	-7.51579
叔	-7.51683
意	-7.51951
食	-7.51956
七	-7.51964
卿	-7.52059
衆	-7.52139
東	-7.52164
長	-7.52179
數	-7.5265
水	-7.52997
田	-7.53114
安	-7.53326
樂	-7.53954
尊	-7.54191
者也	-7.54197
楚子	-7.54807
制	-7.55232
前	-7.56105
喪	-7.56905
例	-7.57437
屬	-7.57774
力	-7.58069
莒	-7.58538
盡	-7.5927
救	-7.59447
車	-7.59485
官	-7.59782
治	-7.59824
惟	-7.60303
徳	-7.60561
昭	-7.60992
山	-7.61127
政	-7.61245
公羊	-7.61296
盖	-7.61459
説	-7.61518
莊	-7.61609
不言	-7.62233
呉	-7.62433
次	-7.62771
獨	-7.64074
法	-7.64686
豈	-7.65129
聖人	-7.653
家	-7.6607
守	-7.66204
武	-7.66559
謂之	-7.66934
天下	-7.67027
位	-7.67414
軍	-7.67661
甚	-7.67858
史	-7.68234
近	-7.68269
三年	-7.68283
彼	-7.68425
)○	-7.68432
逺	-7.68448
懼	-7.686
常	-7.6861
狄	-7.69187
獲	-7.69319
文公	-7.69667
止	-7.69969
問	-7.7084
之事	-7.70952
中國	-7.71514
齊人	-7.71598
專	-7.71826
據	-7.72021
遷	-7.72149
令	-7.72274
叛	-7.72407
疑	-7.73031
伐鄭	-7.73057
宜	-7.73772
聘	-7.73802
夷	-7.74004
西	-7.74114
聞	-7.74234
昭公	-7.75062
古	-7.75584
葢	-7.75588
說	-7.75603
封	-7.75629
莊公	-7.75691
林	-7.76234
襄	-7.76254
再	-7.7643
好	-7.77536
加	-7.77597
▁(	-7.77665
之後	-7.77673
譏	-7.77689
比	-7.77815
所謂	-7.77844
起	-7.77855
共	-7.78306
按	-7.78436
越	-7.78566
兩	-7.78969
强	-7.79598
朔	-7.79822
直	-7.80048
處	-7.8005
侵	-7.80223
是以	-7.80656
正義曰	-7.80773
唯	-7.81398
德	-7.8141
衛侯	-7.81571
楚人	-7.81667
適	-7.81911
存	-7.82116
觀	-7.83451
責	-7.83645
即位	-7.83868
母	-7.84071
僖公	-7.84158
克	-7.84613
往	-7.85796
利	-7.85829
孫	-7.85845
貶	-7.85879
案	-7.86064
盟于	-7.86108
郊	-7.86452
元	-7.86493
但	-7.86507
少	-7.86581
而已	-7.86587
馬	-7.87487
物	-7.87748
不知	-7.87902
不以	-7.88065
不敢	-7.88179
改	-7.88841
僖	-7.88914
将	-7.89428
誅	-7.89468
諱	-7.89501
三月	-7.89581
廢	-7.8975
嘗	-7.89848
疾	-7.89902
仲	-7.90006
備	-7.90059
還	-7.90224
興	-7.90414
災	-7.90467
序	-7.90518
何也	-7.90884
季	-7.9132
由	-7.91789
私	-7.91819
之罪	-7.91871
怨	-7.92048
可以	-7.92188
身	-7.92372
召	-7.92477
宗	-7.92503
晉人	-7.92686
著	-7.92896
變	-7.93212
别	-7.93305
左	-7.938
祀	-7.9388
首	-7.93945
何以	-7.94393
其君	-7.94424
襄公	-7.94795
弱	-7.94861
丘	-7.95576
出奔	-7.95579
宣	-7.96228
舊	-7.96554
哀	-7.96748
元年	-7.96948
弟	-7.97009
帥師	-7.97092
申	-7.97165
宫	-7.97523
於是	-7.97955
北	-7.98082
敵	-7.98422
益	-7.98598
爵	-7.98729
弗	-7.9884
解	-7.98997
之禮	-7.99383
降	-7.99762
扵	-7.99908
絶	-8.00199
廟	-8.00225
賢	-8.00406
虞	-8.0043
間	-8.00431
詩	-8.00606
杞	-8.01003
五年	-8.01266
甲	-8.0133
世子	-8.01524
十年	-8.0162
正月	-8.02324
公孫	-8.02437
怒	-8.02627
火	-8.02759
奉	-8.03641
、	-8.03724
諸侯之	-8.03913
勝	-8.04496
功	-8.04541
貴	-8.04998
棄	-8.05429
獻	-8.05502
舍	-8.05537
理	-8.05595
交	-8.06564
修	-8.06823
𦵏	-8.06949
餘	-8.07078
己	-8.07114
也故	-8.07177
遇	-8.07185
報	-8.07192
殺之	-8.07337
害	-8.07368
都	-8.07487
孔子	-8.0761
深	-8.07969
𫝊	-8.08091
論	-8.08131
闕	-8.08305
漢	-8.08656
齊桓	-8.08694
八年	-8.08879
宣公	-8.08883
之義	-8.09377
向	-8.09455
隠	-8.09514
刑	-8.09575
尚	-8.0958
髙	-8.09799
季氏	-8.09807
不與	-8.09972
四年	-8.10045
釋	-8.10199
更	-8.10667
語	-8.11092
之意	-8.11678
並	-8.11772
禍	-8.11882
故也	-8.11894
發	-8.12076
聲	-8.12083
二年	-8.12355
新	-8.13165
原	-8.13281
卜	-8.13459
記	-8.13758
各	-8.13824
者何	-8.14423
九月	-8.14685
爭	-8.14791
列	-8.1501
宋公	-8.15051
詳	-8.15283
君子	-8.15436
賜	-8.15691
賊	-8.16
免	-8.16182
然則	-8.16319
乗	-8.16797
進	-8.17044
至於	-8.1726
人之	-8.17281
俱	-8.17494
其事	-8.17515
如此	-8.17573
故曰	-8.17925
七年	-8.1809
賦	-8.18256
然後	-8.18366
成公	-8.18456
河	-8.18584
之子	-8.18709
敢	-8.18771
祖	-8.19121
書曰	-8.19174
土	-8.1939
陵	-8.19517
帥	-8.19583
威	-8.19607
晋	-8.19872
稱人	-8.20348
考	-8.20554
特	-8.20634
之盟	-8.2069
應	-8.20894
繼	-8.21093
隱	-8.21143
杜注	-8.21421
六年	-8.21671
小國	-8.21754
臨	-8.21881
之所	-8.21882
他	-8.22005
假	-8.22042
神	-8.22238
霸	-8.22489
姓	-8.22646
輕	-8.23264
望	-8.23299
族	-8.23402
莫	-8.23787
對曰	-8.23885
微	-8.23914
卷	-8.2413
䘮	-8.24233
禮也	-8.24388
畏	-8.24576
逐	-8.24595
六月	-8.24628
弑君	-8.2478
司馬	-8.24837
徒	-8.24892
盛	-8.25079
結	-8.25278
乘	-8.25478
以其	-8.25577
待	-8.26272
國人	-8.26366
卑	-8.26388
梁	-8.26659
濟	-8.26737
姑	-8.26848
周公	-8.26859
徐	-8.26938
惠	-8.27023
御	-8.27297
退	-8.273
視	-8.274
也注	-8.27547
憂	-8.27953
危	-8.28055
五月	-8.28101
不足	-8.28298
載	-8.28318
为	-8.28329
来	-8.28533
傷	-8.28729
張	-8.28798
權	-8.29051
十一年	-8.29889
彊	-8.30226
代	-8.30352
誤	-8.3066
風	-8.30688
如晉	-8.30869
故書	-8.30999
節	-8.31296
動	-8.31391
太子	-8.31856
君之	-8.31896
唐	-8.31966
十二	-8.32071
和	-8.32128
順	-8.32162
帝	-8.32249
旣	-8.32379
其國	-8.32414
章	-8.32506
華	-8.32522
度	-8.32528
患	-8.3256
背	-8.32582
雨	-8.32651
商	-8.32667
享	-8.32696
隨	-8.32698
敬	-8.32755
要	-8.331
辱	-8.3322
大國	-8.3345
〇	-8.33633
府	-8.33647
承	-8.34052
之㑹	-8.34081
黨	-8.34121
禘	-8.34504
而書	-8.34528
置	-8.34878
喜	-8.34922
鄭人	-8.35068
恐	-8.35444
九年	-8.35825
辟	-8.35829
未有	-8.35912
之言	-8.35959
秋七月	-8.36201
老	-8.36298
吴	-8.36393
任	-8.36446
示	-8.36473
榖	-8.36822
等	-8.37192
鄫	-8.37344
期	-8.37628
季孫	-8.37678
薨	-8.38015
其罪	-8.38033
之心	-8.38159
氣	-8.38415
也今	-8.38549
冬十月	-8.38788
病	-8.38796
衞侯	-8.38844
隂	-8.38984
石	-8.39152
衰	-8.39177
引	-8.39307
右	-8.39509
傳曰	-8.39521
榖梁	-8.39611
息	-8.40152
計	-8.40259
二月	-8.40876
來聘	-8.40957
同盟	-8.41061
天王	-8.41177
役	-8.41284
從之	-8.41566
美	-8.41685
星	-8.41881
之役	-8.41902
不復	-8.42064
器	-8.42141
施	-8.42165
屈	-8.42184
足	-8.42202
苟	-8.4232
無所	-8.42363
經書	-8.42452
謹	-8.42549
非禮也	-8.42817
趙	-8.42877
忽	-8.42965
胡氏	-8.43016
穀	-8.4327
愛	-8.43478
室	-8.4348
穀梁	-8.43683
類	-8.43701
之間	-8.43705
:「	-8.43791
與之	-8.44055
略	-8.44506
光	-8.44761
號	-8.44947
寵	-8.44997
賂	-8.45224
攻	-8.45235
萬	-8.45255
之説	-8.45456
戒	-8.45495
魯之	-8.45852
夫子	-8.45987
非也	-8.46049
甚矣	-8.46124
未嘗	-8.46125
伐之	-8.46211
勞	-8.46276
違	-8.46468
防	-8.4724
牛	-8.47505
推	-8.47507
思	-8.47705
言之	-8.4773
十二月	-8.4793
太	-8.48177
保	-8.48267
王室	-8.48722
氏曰	-8.48726
之辭	-8.48732
助	-8.48945
速	-8.48953
之道	-8.4905
先君	-8.49124
至于	-8.49224
百	-8.49563
宋人	-8.49864
王命	-8.50107
具	-8.50111
似	-8.50346
十一	-8.50469
貳	-8.50546
教	-8.50701
黄	-8.50741
江	-8.50957
閏	-8.51085
八月	-8.51321
某	-8.51438
况	-8.51471
左氏曰	-8.51504
建	-8.51741
不同	-8.51802
附	-8.51837
如齊	-8.51853
寧	-8.52476
魏	-8.52582
孟	-8.52759
斯	-8.52799
厚	-8.52935
來朝	-8.5319
辨	-8.53263
嵗	-8.53288
於此	-8.53449
其所	-8.53494
暴	-8.53536
把	-8.53672
左氏傳	-8.5376
惠公	-8.54048
里	-8.54362
介	-8.54398
射	-8.54606
之師	-8.5475
不當	-8.54765
吉	-8.54982
嘉	-8.55023
皇	-8.55365
之故	-8.55596
宰	-8.55668
久	-8.5574
職	-8.56081
十四年	-8.56194
燕	-8.56272
路	-8.56355
賤	-8.5639
遺	-8.56432
司	-8.56503
嗣	-8.56694
之時	-8.56734
仁	-8.57576
以見	-8.57892
國之	-8.57996
杜氏曰	-8.58038
曲	-8.58072
於齊	-8.58205
忠	-8.58263
高	-8.58279
諡	-8.58323
伐齊	-8.58353
象	-8.58435
離	-8.58467
不然	-8.58485
厯	-8.58489
玉	-8.58498
典	-8.58514
恃	-8.58576
劉	-8.58579
兄	-8.58596
邪	-8.59048
十六年	-8.59398
就	-8.59429
木	-8.59581
耶	-8.59791
魚	-8.59843
伐宋	-8.59859
滕	-8.6009
必有	-8.60158
簡	-8.60295
流	-8.60405
尤	-8.60503
于齊	-8.60509
圖	-8.6052
十二年	-8.60526
孔	-8.60605
邢	-8.60651
野	-8.60666
強	-8.60822
許之	-8.60917
不可以	-8.61129
澤	-8.61174
弔	-8.61246
曹伯	-8.61296
二十	-8.6133
勢	-8.61423
夏四月	-8.61446
十三年	-8.61551
楚師	-8.61617
淫	-8.61715
弑其君	-8.61916
設	-8.61954
費	-8.6219
當時	-8.62413
也若	-8.62715
蔡侯	-8.62791
戍	-8.62793
恥	-8.62924
赴	-8.63235
極	-8.63265
十一月	-8.63334
二子	-8.63343
後世	-8.63482
徃	-8.6363
辰	-8.63672
也然	-8.63682
仲尼	-8.63705
目	-8.63716
其言	-8.6397
奪	-8.63986
定公	-8.64141
者皆	-8.6431
指	-8.64605
逃	-8.64729
緩	-8.6481
僭	-8.64836
靈	-8.65063
不及	-8.65288
體	-8.65396
余	-8.65421
庸	-8.65474
季子	-8.65526
追	-8.65635
讓	-8.65651
専	-8.65707
取之	-8.65884
也其	-8.6593
率	-8.66018
臣子	-8.66082
也夫	-8.66154
明年	-8.66298
后	-8.66398
聽	-8.66406
容	-8.66546
其後	-8.66595
至是	-8.67174
竊	-8.67208
公羊傳	-8.67426
巳	-8.67482
兄弟	-8.67995
有罪	-8.68127
十八年	-8.68134
抑	-8.68486
宿	-8.68566
宗廟	-8.68616
竟	-8.68636
除	-8.68681
㑹于	-8.68702
全	-8.68852
君臣	-8.69125
大子	-8.6914
須	-8.69213
崩	-8.69342
慶父	-8.69504
之名	-8.69516
廣	-8.69523
陳侯	-8.69652
兼	-8.6968
犯	-8.69826
靈公	-8.69862
叔孫	-8.7008
胡	-8.70288
以爲	-8.70376
可也	-8.70453
良	-8.70641
為之	-8.70644
境	-8.70725
妄	-8.70781
春秋書	-8.71
薄	-8.71279
娶	-8.71282
周禮	-8.71346
十七年	-8.71487
王者	-8.71808
連	-8.71868
果	-8.71896
韓	-8.71949
自是	-8.72031
尸	-8.72236
鄉	-8.72468
齊師	-8.72598
突	-8.72648
戚	-8.7266
穆	-8.72729
訓	-8.72862
天子之	-8.72945
婦	-8.73063
歴	-8.73073
雩	-8.73143
魯人	-8.73155
嫌	-8.73296
不稱	-8.73696
佐	-8.73813
不在	-8.73897
伐楚	-8.73965
趙盾	-8.73969
十五年	-8.73975
又曰	-8.74043
脩	-8.74098
悼公	-8.74169
姬	-8.74196
殷	-8.74348
七月	-8.74358
則是	-8.74401
急	-8.74558
刺	-8.74587
歟	-8.74816
伯姬	-8.75019
於晉	-8.75151
放	-8.75385
虢	-8.75482
貪	-8.75523
寡君	-8.75787
鼓	-8.76187
而立	-8.76245
誰	-8.76272
争	-8.76335
郡	-8.76581
者以	-8.7668
掌	-8.7668
上下	-8.76858
知其	-8.77155
子産	-8.774
攝	-8.77623
繫	-8.77712
其子	-8.7795
學	-8.78024
春王正月	-8.78374
築	-8.78512
晉師	-8.78523
鄆	-8.78711
於魯	-8.79403
而無	-8.79679
公㑹	-8.79724
賈	-8.79778
姜	-8.79805
授	-8.79933
接	-8.79985
對	-8.80053
儀	-8.80077
孰	-8.80107
忘	-8.80187
楚之	-8.8034
尹	-8.80772
征	-8.80817
書之	-8.8086
曷為	-8.80866
晉之	-8.80905
天下之	-8.80933
蒲	-8.80988
白	-8.81244
社	-8.81295
十月	-8.81297
故以	-8.81308
荘	-8.81462
顧	-8.81644
之文	-8.81798
手	-8.82019
之法	-8.82023
狩	-8.82158
畧	-8.82208
昏	-8.82246
妾	-8.82279
文王	-8.82724
於楚	-8.82731
此年	-8.82799
之類	-8.82853
不名	-8.82861
国	-8.82981
崇	-8.83
疆	-8.83067
班	-8.83085
不如	-8.83586
拜	-8.83631
并	-8.84254
為君	-8.84379
衛人	-8.84413
恤	-8.84695
孝	-8.84825
末	-8.85138
而還	-8.8517
牲	-8.85246
金	-8.85253
情	-8.85285
雍	-8.85572
不至	-8.85665
不見	-8.85774
朱	-8.85843
A	-8.85894
社稷	-8.86036
无	-8.8608
援	-8.8622
務	-8.86459
夷狄	-8.86563
誠	-8.86635
叔姬	-8.86692
書名	-8.86794
公曰	-8.87016
列國	-8.87022
矣故	-8.87116
讎	-8.87119
子曰	-8.87243
盾	-8.87267
婦人	-8.87536
非禮	-8.87801
斷	-8.87866
曰吾	-8.87893
亭	-8.87993
録	-8.88096
瑕	-8.88126
冠	-8.88216
則書	-8.88251
或曰	-8.88414
也春秋	-8.88422
衣	-8.88424
荆	-8.88435
入于	-8.88518
嫡	-8.8872
登	-8.88851
可謂	-8.89028
穆公	-8.89068
稱子	-8.89327
足以	-8.89334
聚	-8.89423
于晉	-8.89512
依	-8.89567
虎	-8.89612
妻	-8.89667
龍	-8.89695
以歸	-8.8973
養	-8.89733
四月	-8.89995
哀公	-8.90055
其義	-8.90233
其地	-8.90285
。」	-8.90354
舎	-8.90424
是時	-8.90665
也此	-8.9076
仍	-8.90767
約	-8.91007
勤	-8.91193
厲	-8.91211
同姓	-8.91573
之說	-8.91597
其實	-8.91638
咎	-8.91751
厲公	-8.91762
恩	-8.91842
簒	-8.91891
襲	-8.92095
夜	-8.92106
救鄭	-8.92207
三國	-8.92599
幾	-8.93354
被	-8.93372
也然則	-8.93438
㣲	-8.93697
討賊	-8.93822
礼	-8.93882
閔	-8.93892
盜	-8.9391
質	-8.93911
媵	-8.94008
戴	-8.94015
塟	-8.94301
畢	-8.94428
辛	-8.94486
孟子	-8.94689
獻公	-8.9478
B	-8.94945
傳言	-8.94958
送	-8.95049
盈	-8.95111
有所	-8.95123
明矣	-8.95268
千	-8.95585
誘	-8.95762
范	-8.95827
合諸侯	-8.95933
口	-8.96012
古者	-8.96101
避	-8.96118
㑹盟	-8.9623
邾人	-8.9624
端	-8.96244
周之	-8.96268
之功	-8.9652
丁	-8.96887
嬖	-8.96929
以來	-8.97132
傳云	-8.972
遣	-8.97238
讀	-8.97507
來奔	-8.97528
諫	-8.97712
舞	-8.9798
陳蔡	-8.98028
与	-8.98032
庶	-8.9804
積	-8.98059
公之	-8.98099
一人	-8.98138
傅	-8.98251
邦	-8.98343
萊	-8.98446
巢	-8.9846
亦不	-8.98564
杜氏	-8.98618
景公	-8.98663
習	-8.9868
禦	-8.98729
之辭也	-8.98734
尋	-8.98749
懐	-8.98913
仇	-8.99026
賔	-8.99071
而不能	-8.99266
故不	-8.99583
戰于	-8.9964
之亂	-8.99752
侵伐	-8.99753
省	-8.99813
辭也	-8.99946
幸	-8.99949
無罪	-9.00023
虚	-9.00033
招	-9.00051
蒐	-9.00086
干	-9.00423
注云	-9.00461
客	-9.00519
称	-9.00527
君命	-9.00542
詞	-9.0056
于楚	-9.00843
句	-9.01115
公羊曰	-9.01223
不正	-9.01225
而復	-9.01284
而言	-9.01302
以示	-9.0141
開	-9.01411
不從	-9.0144
歲	-9.01477
偃	-9.01722
公室	-9.01816
十五	-9.01842
肆	-9.02012
勇	-9.02099
便	-9.02265
嫁	-9.02753
議	-9.02767
縱	-9.02862
正也	-9.02881
不義	-9.03005
予	-9.03078
震	-9.03143
烝	-9.03371
温	-9.03504
羣	-9.03601
每	-9.03654
勿	-9.03833
三十	-9.03925
拒	-9.04063
戮	-9.0415
滑	-9.04211
幣	-9.0438
賞	-9.04395
召陵	-9.0442
次于	-9.04536
仲子	-9.04663
配	-9.0467
孤	-9.04689
臺	-9.0486
張氏曰	-9.04978
顯	-9.0511
亦有	-9.05132
之中	-9.05231
不忍	-9.05362
文姜	-9.05367
而不書	-9.05514
福	-9.05556
革	-9.05591
潰	-9.05638
凶	-9.05663
昔	-9.05743
宮	-9.05798
而歸	-9.05824
史記	-9.0588
其位	-9.05987
見其	-9.06124
十三	-9.06156
毁	-9.06171
旱	-9.06248
二國	-9.06538
蕭	-9.06742
負	-9.06749
沈	-9.0683
赤	-9.06932
秦伯	-9.06977
可知矣	-9.07072
羊	-9.07163
而又	-9.07182
母弟	-9.07317
輔	-9.07384
詐	-9.07485
猶有	-9.07522
皆以	-9.07543
隱公	-9.0759
京師	-9.07654
色	-9.07783
證	-9.07787
窮	-9.07859
之惡	-9.08018
無道	-9.0823
景	-9.08249
鄧	-9.08258
毛	-9.08331
移	-9.08424
管仲	-9.08465
三家	-9.08505
藏	-9.08549
之地	-9.0856
清	-9.08653
輿	-9.08673
否	-9.08749
蔑	-9.0911
為主	-9.09203
四國	-9.09228
行人	-9.0926
先王	-9.09285
隠公	-9.09322
委	-9.09368
輒	-9.09563
胡傳	-9.09586
姦	-9.09623
邾子	-9.09649
舒	-9.09823
髙氏曰	-9.09877
子朝	-9.09956
僣	-9.10132
没	-9.10155
慶	-9.10163
行父	-9.10238
覆	-9.10305
郭	-9.10376
慮	-9.10402
日食	-9.10443
啓	-9.10778
魯地	-9.10854
昌	-9.10982
留	-9.11305
殊	-9.11495
不過	-9.11503
可知	-9.11524
而出	-9.11527
忌	-9.11646
小白	-9.11657
囚	-9.11684
何為	-9.11826
不為	-9.11831
禄	-9.11889
意如	-9.11937
下同	-9.11998
坐	-9.12015
禁	-9.12062
特書	-9.12228
角	-9.12311
事也	-9.12554
誓	-9.12605
最	-9.12614
鮑	-9.12732
至此	-9.12751
故云	-9.12822
從楚	-9.12823
滅之	-9.12949
其意	-9.13199
用之	-9.13276
伐衛	-9.13343
公作	-9.13365
擇	-9.13424
豐	-9.13438
俘	-9.13553
脅	-9.136
遽	-9.13743
故不書	-9.13903
成王	-9.13972
胡氏曰	-9.14014
徴	-9.14019
伐晉	-9.14088
姜氏	-9.14117
安得	-9.14155
伏	-9.14176
悉	-9.14215
之世	-9.14263
閔公	-9.14265
惡之	-9.1427
垂	-9.14277
榖梁曰	-9.1434
糾	-9.14594
之國	-9.14599
欒	-9.14664
王子	-9.14665
取其	-9.14968
僕	-9.15023
愚謂	-9.15104
為政	-9.15114
第	-9.1512
十六	-9.15154
愈	-9.15244
險	-9.15263
稷	-9.15301
擅	-9.15395
之禍	-9.1547
令尹	-9.1552
形	-9.15664
禹	-9.15706
懷	-9.1572
微者	-9.15723
才	-9.15786
散	-9.15832
單	-9.15832
淮	-9.15862
其名	-9.16058
他國	-9.16155
襄王	-9.16292
海	-9.163
界	-9.16488
執之	-9.16506
差	-9.16549
篇	-9.17044
羽	-9.17059
伐秦	-9.17149
削	-9.17184
之命	-9.1722
子孫	-9.17455
㑹諸侯	-9.1758
則知	-9.17797
揚	-9.17901
國君	-9.18078
則有	-9.18082
升	-9.18104
矣然	-9.18217
預	-9.18253
莒人	-9.18418
采	-9.1842
而殺之	-9.1842
累	-9.18438
工	-9.18671
於諸侯	-9.18687
不行	-9.18707
掩	-9.18811
業	-9.18859
里克	-9.18908
虐	-9.18911
歌	-9.18918
兹	-9.18936
亟	-9.19002
夏五月	-9.19267
精	-9.1928
王之	-9.19601
屢	-9.19662
郕	-9.19688
之道也	-9.20069
此言	-9.20138
之君	-9.20217
陽虎	-9.20451
以明	-9.20465
解云	-9.20469
於是乎	-9.20603
詩曰	-9.20683
達	-9.20996
晦	-9.2103
殯	-9.21033
託	-9.21058
之始	-9.2114
晉文	-9.21195
曲沃	-9.21256
十四	-9.21342
于是	-9.21384
武子	-9.2146
京	-9.21477
誣	-9.21551
旅	-9.21753
寡人	-9.21851
其身	-9.21871
慎	-9.21908
不克	-9.21929
赦	-9.22238
成風	-9.22326
文子	-9.22367
欲以	-9.22451
者非	-9.22458
陳氏	-9.22465
春秋之	-9.22484
以上	-9.2254
統	-9.22896
勸	-9.2306
郎	-9.23062
不足以	-9.23076
劉氏曰	-9.23088
武公	-9.23119
尹氏	-9.23197
困	-9.23258
季友	-9.23304
左右	-9.23329
在今	-9.23387
叔向	-9.23676
單伯	-9.24068
國也	-9.24113
討之	-9.24147
奈何	-9.24199
素	-9.24319
伐陳	-9.24359
附庸	-9.24381
受之	-9.24433
救之	-9.24462
造	-9.24516
之下	-9.24525
以後	-9.24535
螽	-9.2454
中國之	-9.24595
烏	-9.24616
十七	-9.24662
聖	-9.24693
平公	-9.24802
乞	-9.24816
註	-9.24909
忿	-9.25
中軍	-9.25001
何以書	-9.25012
飲	-9.25063
吳子	-9.25095
魯史	-9.25186
財	-9.25276
不成	-9.25279
抗	-9.25383
貢	-9.25392
豹	-9.25398
之志	-9.25402
偏	-9.2541
友	-9.25489
也音義	-9.25664
參	-9.25665
十九年	-9.25674
大臣	-9.25687
聞之	-9.25687
不待	-9.2571
庭	-9.25757
者謂	-9.25901
黜	-9.25931
公子遂	-9.26054
以下	-9.26097
州吁	-9.26122
衞人	-9.26274
薛	-9.26302
敖	-9.26397
吕	-9.2642
鼎	-9.26472
大義	-9.26551
十八	-9.26692
歳	-9.26709
不日	-9.26734
言其	-9.26757
將以	-9.26805
寢	-9.26816
總	-9.26867
亦曰	-9.26869
遠	-9.26935
之罪也	-9.26991
之例	-9.27014
哀姜	-9.27121
納幣	-9.27209
奚	-9.27267
舜	-9.27297
大事	-9.27436
展	-9.275
而不知	-9.27528
之臣	-9.27662
迎	-9.27863
歸于	-9.27875
徙	-9.27891
表	-9.27897
侵鄭	-9.28092
祝	-9.28198
不告	-9.28201
敝邑	-9.28235
皆有	-9.28282
紀侯	-9.28284
也言	-9.28295
曰君	-9.28462
不雨	-9.2857
故言	-9.2859
之喪	-9.2882
其人	-9.29011
歸父	-9.29028
布	-9.29036
折	-9.291
歸之	-9.29146
焚	-9.2916
䇿	-9.2919
圉	-9.2935
集	-9.2939
祭仲	-9.29426
王使	-9.29566
扶	-9.29728
悼	-9.30006
不應	-9.30018
兆	-9.30044
公如晉	-9.30109
愚按	-9.30115
先儒	-9.30115
日月	-9.30387
鄙	-9.304
出於	-9.30513
惑	-9.30634
故春秋	-9.30656
諸國	-9.30662
之難	-9.30781
感	-9.30888
君也	-9.31008
以告	-9.31065
如楚	-9.31163
悔	-9.31229
寡	-9.31233
挾	-9.31378
午	-9.31554
華元	-9.31612
盟主	-9.31627
扈	-9.31671
皮	-9.31849
饑	-9.31925
市	-9.31932
酒	-9.31994
夢	-9.32046
前年	-9.32093
冝	-9.32204
況	-9.32293
商人	-9.32369
如是	-9.32386
而行	-9.32415
葉	-9.32487
曰子	-9.32499
蒙	-9.32611
著其	-9.32656
忍	-9.32724
愚	-9.32759
在外	-9.32846
農	-9.32937
師敗績	-9.32942
沒	-9.33089
及其	-9.33143
靖	-9.33226
諸大夫	-9.33282
頓	-9.33292
佗	-9.33363
蕩	-9.33447
未必	-9.3357
吏	-9.3373
伐我	-9.33767
哭	-9.33945
音註	-9.34029
者有	-9.34163
龜	-9.34309
久矣	-9.34389
武王	-9.34426
公榖	-9.34449
平王	-9.34467
受命	-9.34492
三軍	-9.34496
横	-9.34606
之人	-9.34642
之弟	-9.34814
夏六月	-9.34879
十有二月	-9.34945
榖梁傳	-9.34957
早	-9.3497
不書葬	-9.35081
偽	-9.35106
半	-9.35291
國而	-9.35301
以待	-9.3539
慢	-9.35652
林父	-9.35739
奔齊	-9.35807
齊之	-9.3592
呼	-9.36016
以禮	-9.36095
復歸	-9.36129
釁	-9.36141
則其	-9.36172
持	-9.36305
嚴	-9.36312
郤	-9.36368
乆	-9.36425
恵	-9.3644
鳥	-9.36615
榮	-9.36624
侵宋	-9.36645
僅	-9.36684
驕	-9.36685
王臣	-9.36704
使人	-9.36741
編	-9.3678
堅	-9.36845
其民	-9.36976
罷	-9.37013
與齊	-9.37061
啟	-9.37151
苦	-9.37182
程子曰	-9.37263
徵	-9.37319
不服	-9.37339
甯	-9.3763
廬	-9.37666
趙氏	-9.37699
是年	-9.37782
以自	-9.37805
飾	-9.37821
而死	-9.37856
杜註	-9.3794
之謀	-9.37944
人君	-9.37948
其惡	-9.38112
成周	-9.38116
小人	-9.38244
亦無	-9.38344
睦	-9.38366
損	-9.38581
莒子	-9.38594
國家	-9.38651
陳氏曰	-9.38657
汪氏曰	-9.38743
不必	-9.38786
宣子	-9.38799
師于	-9.38863
二十七年	-9.39041
在位	-9.39156
與楚	-9.39171
知之	-9.39178
謝	-9.39242
盗	-9.39377
收	-9.39395
邱	-9.3941
濮	-9.39431
甸	-9.39474
觀之	-9.39647
也曷為	-9.39649
均	-9.3971
以正	-9.39736
洛	-9.39788
側	-9.39843
川	-9.39889
又何	-9.40098
不信	-9.4014
矢	-9.40205
寒	-9.40213
雖有	-9.40236
偪	-9.40322
因其	-9.40373
注正義曰	-9.40739
伐邾	-9.40744
漸	-9.40789
化	-9.40823
何故	-9.40845
不免	-9.40872
璧	-9.40966
《	-9.41057
》	-9.41059
有二	-9.41162
謝湜曰	-9.41167
鞅	-9.41241
察	-9.41266
汝	-9.41277
故知	-9.41314
讐	-9.414
經文	-9.41406
壬申	-9.41406
馮	-9.4167
以求	-9.41703
翼	-9.41728
鄰	-9.41742
擊	-9.41852
段	-9.41892
据	-9.42114
舟	-9.42154
晉楚	-9.42173
直書	-9.42188
泉	-9.42189
走	-9.42209
于此	-9.42228
踰	-9.42243
井	-9.42281
傳稱	-9.42434
蒯聵	-9.42539
靈王	-9.42689
郈	-9.42763
俗	-9.42766
不出	-9.42785
河南	-9.42846
願	-9.42852
謬	-9.4295
二十八年	-9.43018
王人	-9.43043
父子	-9.43113
諸侯之師	-9.43313
蔡人	-9.43329
殺其大夫	-9.43341
又云	-9.43404
不相	-9.43478
之所以	-9.43563
户	-9.43575
褒	-9.43598
剽	-9.4362
者亦	-9.43703
失禮	-9.43727
齊魯	-9.43738
?	-9.43782
陽生	-9.43841
殆	-9.43874
旦	-9.43883
延	-9.43895
效	-9.43921
魯國	-9.44014
4	-9.44069
以此	-9.44095
恒	-9.44165
墮	-9.44189
命之	-9.44216
三十年	-9.44259
豈有	-9.44328
淺	-9.44389
乾	-9.44508
却	-9.44557
一日	-9.44628
己丑	-9.44688
有疾	-9.44708
藉	-9.44727
熊	-9.44815
皆書	-9.44974
幽	-9.45028
繹	-9.45046
懲	-9.45061
也凡	-9.45067
鄰國	-9.4507
煩	-9.45079
猛	-9.45152
之戰	-9.45185
侈	-9.45213
有功	-9.45219
也且	-9.45309
翬	-9.45313
一事	-9.45496
尺	-9.45518
之會	-9.45901
怠	-9.45921
撰	-9.45924
曽	-9.4594
寳	-9.46027
學者	-9.46044
荀	-9.46053
有事	-9.46233
塞	-9.46234
公及	-9.46289
嬰齊	-9.46371
其父	-9.46477
麟	-9.46501
之大	-9.46531
二十年	-9.4654
湯	-9.46564
其為	-9.46625
厥	-9.46708
非常	-9.46766
四時	-9.46828
而有	-9.46846
壬午	-9.46848
而使	-9.4692
補	-9.47004
乎曰	-9.47012
闗	-9.47014
元咺	-9.4719
櫟	-9.47283
桓子	-9.47297
臯	-9.47349
戌	-9.47388
失國	-9.47476
無君	-9.4761
是故	-9.47666
堂	-9.47684
撫	-9.47696
禽	-9.47725
其母	-9.47755
吾子	-9.47761
密	-9.47805
皆不	-9.47812
般	-9.47816
桑	-9.47873
棄疾	-9.48104
池	-9.48121
儒	-9.4821
盧	-9.48219
周室	-9.48238
之變	-9.48261
之田	-9.4831
薦	-9.48318
其説	-9.48617
僚	-9.48689
諸侯之大夫	-9.4869
游	-9.48699
叔孫豹	-9.48789
為國	-9.48883
關	-9.48936
衡	-9.48947
敬王	-9.48973
二君	-9.49116
二十五年	-9.49346
如字	-9.49347
魚石	-9.4951
司徒	-9.49512
逆女	-9.49545
牧	-9.49564
晉侯使	-9.49575
辠	-9.49629
鄭地	-9.49667
頌	-9.49713
而卒	-9.49763
范氏	-9.49789
堯	-9.49862
孝公	-9.49863
逼	-9.4989
于魯	-9.49921
事之	-9.50071
羣臣	-9.5011
集說	-9.50187
魯君	-9.50201
不受	-9.50257
錄	-9.50264
未可	-9.50281
二人	-9.50344
趙氏曰	-9.50409
棘	-9.50519
郢	-9.50634
之日	-9.50711
荒	-9.50726
盟㑹	-9.50732
諸夏	-9.50755
鉏	-9.50775
柔	-9.50813
草	-9.50824
之上	-9.50952
作亂	-9.51005
帶	-9.51056
陸	-9.51097
貨	-9.51143
祫	-9.51192
曰我	-9.51261
洩	-9.51287
以伐	-9.51308
踰年	-9.51379
識	-9.51399
富	-9.51437
杜預	-9.51705
錫	-9.51707
彭城	-9.51754
納之	-9.51781
借	-9.51827
秋八月	-9.51933
可乎	-9.5197
析	-9.52059
者三	-9.5206
彌	-9.52085
賵	-9.52106
匡	-9.5212
絳	-9.52218
茍	-9.52251
公至自㑹	-9.52255
其曰	-9.52449
陳人	-9.52462
陳鄭	-9.52512
公與	-9.52519
矣而	-9.52527
鍾	-9.52562
伯主	-9.52583
人心	-9.5259
不朝	-9.52737
鄭之	-9.52843
狐	-9.52848
秦師	-9.52851
稱名	-9.52888
父母	-9.52916
征伐	-9.53064
逐之	-9.53068
方伯	-9.53104
非正也	-9.53191
則不	-9.5342
其文	-9.535
弓	-9.53509
智	-9.53562
幼	-9.53564
公會	-9.53687
欽定四庫全書	-9.53753
伐莒	-9.53774
王城	-9.53808
管	-9.53833
縁	-9.53838
主兵	-9.53909
館	-9.53935
子般	-9.53975
貫	-9.54023
性	-9.54059
康	-9.54065
齊地	-9.54082
十九	-9.5414
祥	-9.54198
戈	-9.54238
攘	-9.54282
來盟	-9.54287
繁	-9.54326
子家	-9.54328
衎	-9.54329
甘	-9.54396
駕	-9.54573
於鄭	-9.54589
來歸	-9.54707
椘	-9.54739
悖	-9.54813
荘公	-9.54943
寅	-9.54989
其不	-9.5501
見矣	-9.55212
營	-9.55267
賄	-9.55291
大夫之	-9.55336
大惡	-9.55342
二十四年	-9.55367
而反	-9.55448
振	-9.55498
不敬	-9.55502
劉子	-9.55589
其餘	-9.55589
釋例	-9.55627
亥	-9.55644
興師	-9.55649
椒	-9.55708
東南	-9.55717
今按	-9.55762
覇	-9.55833
驅	-9.55945
隕	-9.56003
多矣	-9.56021
則非	-9.56329
又有	-9.56439
事而	-9.56463
嬴	-9.56493
于宋	-9.56574
臧	-9.56596
正傳曰書	-9.56597
可知也	-9.56668
二十六年	-9.56678
不勝	-9.56684
仲孫	-9.56732
王法	-9.56923
君父	-9.57
乾侯	-9.57128
一年	-9.57167
巫	-9.57223
公㑹齊侯	-9.57342
猶未	-9.57348
乞師	-9.57364
公至自	-9.5751
蠻	-9.5755
斥	-9.57598
俟	-9.57609
孔父	-9.57714
審	-9.5777
雅	-9.57853
之徒	-9.57859
道也	-9.57893
卿大夫	-9.57927
博	-9.57973
貶之	-9.57977
真	-9.58145
李	-9.58177
蔽	-9.58268
者則	-9.583
鄫子	-9.58303
公使	-9.58383
䖍	-9.58484
隧	-9.58508
甫	-9.58576
荀息	-9.5865
麇	-9.58671
憾	-9.58777
係	-9.58783
昬	-9.5879
聴	-9.58945
逞	-9.58959
艾	-9.5904
伐許	-9.59144
饗	-9.59172
主之	-9.5924
也按	-9.59352
逸	-9.59433
従	-9.59443
書法	-9.5957
講	-9.59591
以報	-9.59694
公穀	-9.59739
賴	-9.59762
二十二年	-9.59805
茅	-9.59871
救陳	-9.59935
敝	-9.59951
書人	-9.60003
考之	-9.60006
戊辰	-9.60035
欒盈	-9.60058
此時	-9.60061
駟	-9.60135
止之	-9.60141
卦	-9.60167
者不	-9.60338
而魯	-9.60352
前此	-9.60425
督	-9.60457
輕重	-9.60459
罕	-9.60594
祁	-9.60605
名也	-9.60688
景王	-9.60696
杜氏注	-9.60739
尾	-9.60802
襄仲	-9.60848
辛巳	-9.60883
札	-9.60912
各有	-9.60956
㑹而	-9.61169
以成	-9.61189
慶封	-9.61212
寗	-9.61244
受其	-9.61379
此書	-9.61392
不欲	-9.61406
百里	-9.61512
之意也	-9.61576
之際	-9.61742
無禮	-9.6179
宋襄	-9.61857
出入	-9.61933
壽	-9.61981
祈	-9.62002
失其	-9.62012
仕	-9.62074
孟氏	-9.6225
叛晉	-9.6227
之情	-9.62274
閒	-9.62277
迫	-9.6235
躬	-9.62357
人臣	-9.62361
無事	-9.62362
子西	-9.6239
敗績	-9.62419
捷	-9.62421
縣南	-9.62452
冬十有二月	-9.62473
不合	-9.62628
夷儀	-9.62805
庚辰	-9.62825
事君	-9.62843
不月	-9.62885
夀	-9.62906
見殺	-9.62973
天理	-9.63006
趙孟	-9.63049
宴	-9.63103
昭子	-9.63113
甲午	-9.63174
稱爵	-9.63184
閏月	-9.63187
律	-9.63302
譏其	-9.63317
於王	-9.63337
眀	-9.63337
策	-9.63367
褒貶	-9.63375
又以	-9.63401
親迎	-9.63431
其臣	-9.63445
秦人	-9.63469
祊	-9.63534
賓	-9.63571
無知	-9.63578
朝聘	-9.6368
書日	-9.63801
校	-9.6393
罪也	-9.6395
邑也	-9.6409
面	-9.64167
甲戌	-9.64315
人也	-9.64336
厭	-9.64429
春秋之義	-9.6447
觧	-9.64476
稱公	-9.64542
泰	-9.64605
戾	-9.64619
谷	-9.64768
之力	-9.64792
婚	-9.64867
得之	-9.64911
豫	-9.64938
為文	-9.6504
來告	-9.65086
呉子	-9.65103
按左氏	-9.6525
邾婁	-9.65338
述	-9.65357
同盟于	-9.65386
二十三年	-9.65521
豈不	-9.65537
冬至	-9.65568
之類是也	-9.65612
咸	-9.65627
念	-9.6569
天地	-9.65703
亦以	-9.6579
庚	-9.65928
二十一年	-9.65988
讒	-9.66212
入朔	-9.66267
己巳	-9.66295
斂	-9.66297
者必	-9.66301
其弟	-9.66306
之失	-9.66319
注同	-9.66414
崔杼	-9.66441
空	-9.66489
肉	-9.66519
不用	-9.66642
盂	-9.66661
地名	-9.66666
公孫敖	-9.66667
侵齊	-9.66673
房	-9.66694
惡其	-9.66717
為魯	-9.66861
以兵	-9.66941
虛	-9.66957
左師	-9.6699
為重	-9.67028
晉國	-9.67031
大雩	-9.67184
西南	-9.67261
履	-9.6728
而已矣	-9.67309
穀梁傳	-9.67539
重耳	-9.67693
三日	-9.67766
大夫盟	-9.67833
泰山	-9.67911
三傳	-9.67984
公至自晉	-9.67998
先君之	-9.68007
焉爾	-9.68047
上卿	-9.6819
春秋之法	-9.68199
休	-9.68244
屈完	-9.68317
人以	-9.68326
必書	-9.68385
癸亥	-9.68445
子糾	-9.68482
不肯	-9.68501
楚公子	-9.68543
乙亥	-9.68569
衍	-9.68583
城濮	-9.6859
乙	-9.68595
常事	-9.68611
主人	-9.6866
此其	-9.68727
程	-9.68778
所當	-9.68861
牢	-9.68901
殺大夫	-9.6893
治兵	-9.68934
量	-9.68958
賜之	-9.68966
柄	-9.68994
杜云	-9.68999
書葬	-9.69137
圭	-9.69237
稱王	-9.69256
恭	-9.69311
錯	-9.6933
戸	-9.69347
其志	-9.69353
可見	-9.69384
去之	-9.69426
滅國	-9.69441
之制	-9.69558
蜀	-9.69603
惠王	-9.69638
左傳曰	-9.69663
返	-9.69748
子展	-9.6981
陰	-9.69811
澶淵	-9.69834
郜	-9.69852
於宋	-9.70041
以致	-9.70209
張氏	-9.7021
子玉	-9.70288
婁	-9.70334
逆之	-9.70397
國之君	-9.70417
鬭	-9.7042
其心	-9.70458
四方	-9.70504
丁未	-9.70581
種	-9.70676
是非	-9.70739
貞	-9.7086
書者	-9.71049
庚午	-9.71054
義也	-9.7111
不臣	-9.71151
短	-9.71228
壊	-9.71278
大夫也	-9.71299
畝	-9.71358
畜	-9.71363
與晉	-9.71409
而書之	-9.71421
嗚呼	-9.71489
踐土	-9.71535
許男	-9.71553
冰	-9.71612
甲子	-9.71662
旗	-9.71687
丗	-9.71768
當國	-9.71771
聖人之	-9.71846
土地	-9.71928
不繫	-9.71941
獻子	-9.71965
男	-9.71971
與其	-9.71976
亦非	-9.72249
六卿	-9.72276
之母	-9.72414
不致	-9.7245
潁	-9.72505
殽	-9.72507
諸儒	-9.72526
故不言	-9.72579
訟	-9.72665
矣今	-9.72723
逮	-9.72745
是謂	-9.72759
告廟	-9.72761
子反	-9.72769
行也	-9.72879
肥	-9.72884
皆不書	-9.72953
齊晉	-9.72966
經傳	-9.73022
孔子曰	-9.73024
規	-9.73031
叔弓	-9.73064
處父	-9.73071
不宜	-9.73074
笑	-9.73101
伐魯	-9.73132
伐衞	-9.73137
不亦	-9.73189
謙	-9.73248
虎牢	-9.73255
天之	-9.73279
司城	-9.73372
而春秋	-9.734
得臣	-9.73454
則亦	-9.73477
申生	-9.73554
不明	-9.73569
譖	-9.73585
若是	-9.73622
用兵	-9.73632
山川	-9.73645
之屬	-9.73696
是為	-9.73743
天道	-9.73897
會于	-9.73913
趙鞅	-9.73929
則曰	-9.73959
魯侯	-9.74036
盟而	-9.74069
占	-9.74172
術	-9.74176
春王三月	-9.74194
曰不可	-9.74199
桓王	-9.74211
附録	-9.74252
桃	-9.74302
城之	-9.74321
為卿	-9.74321
未至	-9.74336
拘	-9.74367
以叛	-9.74367
黃	-9.74369
其間	-9.74411
進之	-9.74533
一也	-9.74537
者矣	-9.74659
侵蔡	-9.74687
奔晉	-9.74695
而葬	-9.74712
與盟	-9.74712
純	-9.74732
肅	-9.74757
子叔姬	-9.74801
又不	-9.7483
東北	-9.74841
與國	-9.74878
或以	-9.7492
此亦	-9.74933
為一	-9.74969
四十	-9.75034
何休	-9.75064
有司	-9.75095
曹人	-9.75198
篡	-9.75201
郑	-9.75255
戊申	-9.75284
季文子	-9.75335
此則	-9.75395
或問	-9.75397
云爾	-9.75414
喻	-9.75414
剛	-9.75437
新城	-9.75446
敗之	-9.75482
條	-9.756
渠	-9.75616
惡也	-9.75669
朔日有食之	-9.75693
州來	-9.75713
稱君	-9.75734
欺	-9.75735
顔	-9.7578
之理	-9.75809
斉	-9.75863
鬼神	-9.75898
其大夫	-9.75933
孫氏	-9.75936
完	-9.75981
周公之	-9.76076
民之	-9.76077
稱師	-9.76111
匹	-9.76126
乎此	-9.76189
大水	-9.76224
之前	-9.7626
遏	-9.76329
古之	-9.76356
舊史	-9.76416
名氏	-9.76461
祔	-9.76462
穿	-9.7653
縣東	-9.76556
宋地	-9.76588
之詞	-9.76719
不容	-9.76742
増	-9.76797
斬	-9.76806
稍	-9.76823
見之	-9.76898
書卒	-9.77009
而弗	-9.77138
愬	-9.77189
晉人執	-9.77199
帛	-9.77275
癸	-9.77294
也書	-9.774
寛	-9.7744
冕	-9.77443
公薨	-9.77459
盍	-9.77516
聽命	-9.77554
之黨	-9.77605
怪	-9.77639
毋	-9.77646
罰	-9.77726
得其	-9.77738
丹	-9.77781
於外	-9.77812
未能	-9.77845
決	-9.77859
其禮	-9.77859
宋衛	-9.77904
毒	-9.77906
雜	-9.77964
以著	-9.77995
于鄭	-9.78136
以前	-9.78189
則無	-9.78208
非有	-9.78238
不郊	-9.78263
于周	-9.78321
竭	-9.78387
?」	-9.78401
其辭	-9.78451
綱	-9.78487
塗	-9.78495
水經注	-9.78553
欽定四庫全書春秋	-9.78582
城縣	-9.78652
不曰	-9.78652
蟲	-9.78745
鼔	-9.78786
獄	-9.78854
之初	-9.78909
而得	-9.78916
仲遂	-9.78931
亦可	-9.78997
亳	-9.79014
滕子	-9.79055
故特	-9.79071
孫氏曰	-9.7911
詳見	-9.79176
東門	-9.79189
先書	-9.79198
箕	-9.7921
若之何	-9.79283
加之	-9.79292
距	-9.79322
不能救	-9.79404
憤	-9.79435
宛	-9.79459
徧	-9.79493
辭曰	-9.79503
氏之	-9.79515
與魯	-9.79528
惜	-9.79535
丈	-9.79575
單子	-9.79577
吳人	-9.79691
司空	-9.79713
宻	-9.79726
莊王	-9.79892
環	-9.79939
即此	-9.79941
殘	-9.8005
召伯	-9.80054
之位	-9.80087
如京師	-9.80116
僑如	-9.80121
㡬	-9.80158
先王之	-9.80213
日有食之	-9.80246
斃	-9.80406
粟	-9.8041
朝王	-9.80418
楊	-9.80446
而不敢	-9.80531
也又	-9.80571
無駭	-9.80593
縣西	-9.80635
鍼	-9.80654
齊侯使	-9.80661
縣北	-9.8067
答	-9.80677
霸主	-9.80699
寜	-9.80759
行之	-9.80767
癸酉	-9.80767
其私	-9.80811
死而	-9.80918
税	-9.80925
出而	-9.80964
在晉	-9.80974
盟者	-9.81004
溺	-9.81016
牙	-9.81022
牟	-9.8113
瀆	-9.81151
祭祀	-9.81273
小君	-9.81321
赤狄	-9.81356
妃	-9.81374
牽	-9.8142
於周	-9.81456
候	-9.81545
楚丘	-9.81621
階	-9.81744
郯	-9.81765
使大夫	-9.81779
之義也	-9.81786
奔楚	-9.81788
無王	-9.8184
㑹晉	-9.81953
故稱	-9.81967
欲立	-9.81968
㫖	-9.8202
之月	-9.82068
欒書	-9.82089
伍	-9.82221
熟	-9.82246
縣東南	-9.82276
圍之	-9.82399
之使	-9.82515
齊桓公	-9.82516
未知	-9.82605
猶可	-9.82625
以國	-9.82653
永	-9.82678
秦穆	-9.82729
皆是	-9.82739
不使	-9.82773
内外	-9.82833
公侯	-9.82891
墓	-9.82914
見於	-9.83025
二十九年	-9.83061
晉悼	-9.83071
雖不	-9.83083
逃歸	-9.83125
藥	-9.83178
出奔晉	-9.83254
弗許	-9.83266
只	-9.83283
責之	-9.83305
國佐	-9.83345
不競	-9.83419
裔	-9.83491
苗	-9.83511
立之	-9.83611
三十一年	-9.83648
繫之	-9.83651
相見	-9.83721
滿	-9.83761
縣西南	-9.83765
驗	-9.83766
投	-9.83773
盟也	-9.83839
輙	-9.8389
之内	-9.83906
選	-9.8392
其可	-9.8394
細	-9.84022
鐘	-9.84042
戲	-9.84166
前後	-9.84193
此皆	-9.84215
子駟	-9.84269
下文	-9.84276
小邾	-9.84327
正義	-9.84343
勲	-9.84381
雞澤	-9.84409
破	-9.84418
所得	-9.8446
其時	-9.8446
葵丘	-9.84487
正傳曰	-9.84503
卒子	-9.84645
奸	-9.84673
季孫宿	-9.84765
匄	-9.84782
倫	-9.84793
成子	-9.8481
公族	-9.84929
命也	-9.84951
董	-9.84958
禮之	-9.84972
鄢	-9.85173
為善	-9.85199
胥	-9.85206
從晉	-9.85234
亢	-9.85308
或謂	-9.85321
涉	-9.85325
可見矣	-9.85389
甥	-9.85432
然而	-9.85456
當在	-9.85457
衛地	-9.85458
之勢	-9.85508
秦晉	-9.85521
伐而	-9.85525
但書	-9.85548
何哉	-9.85567
與諸侯	-9.85598
君而	-9.85639
姬姓	-9.85674
羈	-9.85737
齊宋	-9.85744
矣春秋	-9.85748
諸侯而	-9.85767
淂	-9.85808
筆	-9.85813
書爵	-9.85838
士匄	-9.85878
必以	-9.85916
資	-9.85967
庇	-9.86047
為右	-9.86051
黒	-9.86065
侍	-9.86187
以事	-9.86202
反又	-9.86206
弑逆	-9.86324
𤼵	-9.8648
内女	-9.86565
異於	-9.86592
陽縣	-9.86597
主盟	-9.86615
與鄭	-9.86647
冀	-9.86727
何也曰	-9.86729
求之	-9.86863
何以不	-9.8694
不通	-9.86944
為夫人	-9.87035
肯	-9.87053
轉	-9.87105
不仁	-9.8711
頃	-9.87161
霍	-9.87183
三卿	-9.87197
而入	-9.87223
紂	-9.87266
尊卑	-9.87312
壞	-9.87338
不能自	-9.87379
楚莊	-9.87428
不能討	-9.87493
恕	-9.87506
此説	-9.87579
殺其	-9.87612
義見	-9.87648
之外	-9.87649
曷爲	-9.87651
索	-9.87663
而為之	-9.87709
三公	-9.87795
之孫	-9.87833
不自	-9.87848
桓公之	-9.87868
筆削	-9.87966
戰而	-9.87989
鞌	-9.88001
十有一年	-9.88037
其說	-9.88052
材	-9.8815
整	-9.88197
稱字	-9.88211
懿	-9.88243
矣此	-9.88276
白狄	-9.88332
朱子	-9.8838
王姬	-9.88412
晉地	-9.88415
必不	-9.88471
其情	-9.88547
劉氏	-9.88643
郤克	-9.88736
妾母	-9.8882
稅	-9.88822
之邑	-9.88847
隐	-9.88919
姒	-9.88938
齒	-9.88969
佐之	-9.89014
鮮虞	-9.89027
而退	-9.89045
崔氏	-9.89073
洮	-9.89134
沙	-9.89365
為正	-9.89374
縣有	-9.89453
為此	-9.89604
在魯	-9.89622
西北	-9.89624
公如齊	-9.89682
冬十有一月	-9.89687
家氏曰	-9.89772
其族	-9.89787
見執	-9.89826
曷	-9.89841
月者	-9.89927
華氏	-9.8993
讙	-9.90026
圍許	-9.9005
宣王	-9.90068
括	-9.90136
待之	-9.90169
渉	-9.90174
羅	-9.90192
曾	-9.90254
遂以	-9.90275
臣之	-9.90281
匹夫	-9.90304
昧	-9.90383
之常	-9.9042
蘇	-9.90428
樹	-9.90435
不序	-9.90473
有常	-9.905
而自	-9.90542
名之	-9.90546
𤣥	-9.90563
夫婦	-9.90794
俾	-9.90845
辛亥	-9.90887
黎	-9.90936
創	-9.90954
逹	-9.90969
不地	-9.90981
者蓋	-9.91001
靡	-9.91112
鳴	-9.91127
溝	-9.91138
而不言	-9.91154
以義	-9.9116
父之	-9.91162
属	-9.91172
支	-9.91249
渝	-9.91251
趙子曰	-9.91251
為大夫	-9.91251
荆楚	-9.91284
王曰	-9.9129
懼而	-9.91294
不道	-9.91304
中行	-9.91307
侮	-9.91382
得以	-9.91429
青	-9.9143
而稱	-9.91497
丙	-9.91509
許田	-9.91614
亂臣賊子	-9.9163
亡國	-9.91649
有三	-9.91668
寘	-9.91716
齊桓之	-9.91728
逐君	-9.91816
則當	-9.91895
之甚	-9.91903
歩	-9.91963
也或曰	-9.92009
若此	-9.92047
而致	-9.92053
狄人	-9.92086
進退	-9.92087
源	-9.92125
於廟	-9.92132
屋	-9.92204
武城	-9.92241
公即位	-9.92274
夕	-9.9232
耕	-9.92446
春秋時	-9.92476
無貶	-9.92515
子皮	-9.92539
癸巳	-9.92574
左氏以為	-9.92577
相與	-9.92611
無異	-9.92632
穆叔	-9.92649
也非也	-9.92653
禦之	-9.92694
百官	-9.92724
叔孫氏	-9.9276
周人	-9.92802
麥	-9.92827
自此	-9.92843
痛	-9.92903
無功	-9.9292
公羊傳曰	-9.92982
杞伯	-9.93112
之廟	-9.93145
失之	-9.93208
㑹之	-9.93209
而立之	-9.93222
鄄	-9.93229
詩云	-9.93251
己亥	-9.93317
諸侯不	-9.9339
血	-9.93406
鑿	-9.93429
軌	-9.93456
于王	-9.93516
未踰年	-9.93522
亦是	-9.93594
夲	-9.93599
不忘	-9.93604
晋侯	-9.93617
未得	-9.93645
責其	-9.93656
氷	-9.93662
荼	-9.93683
一國	-9.93706
是其	-9.93709
于外	-9.93719
以罪	-9.93754
一時	-9.93783
季孫行父	-9.93837
由是	-9.93851
黑	-9.93875
得志	-9.93889
薳	-9.939
趨	-9.94008
而去	-9.9403
三十二年	-9.94043
聼	-9.94055
冦	-9.94093
異也	-9.94119
一稱	-9.94119
於天子	-9.94151
之餘	-9.94176
見弑	-9.94177
陪臣	-9.94183
非其	-9.94191
詹	-9.94211
罪之	-9.94217
不知其	-9.94251
之弑	-9.94292
尚書	-9.94372
襃	-9.94488
凡書	-9.94504
也諸侯	-9.94516
諸侯皆	-9.94528
鹹	-9.9453
鬬	-9.94575
不失	-9.94604
取邑	-9.94657
秉	-9.94724
稱國	-9.94734
兵車	-9.94778
叔武	-9.94802
也杜氏曰	-9.94869
何如	-9.94877
縣東北	-9.94894
弁	-9.94924
而求	-9.94925
襄陵許氏曰	-9.95016
圍鄭	-9.95086
暨	-9.95107
者一	-9.95198
迹	-9.95199
也魯	-9.952
晏子	-9.95249
㨗	-9.95328
書及	-9.95376
之族	-9.95458
酅	-9.95547
遜	-9.95556
以定	-9.95561
警	-9.95563
弑之	-9.95654
親親	-9.95661
侯伯	-9.95677
奚齊	-9.95681
圍宋	-9.95722
敢不	-9.95807
㑹吳	-9.95815
平陽	-9.95862
盟於	-9.95863
先後	-9.95867
頃公	-9.9587
齊鄭	-9.95904
之私	-9.95958
旌	-9.95996
棺	-9.9603
復入	-9.96062
穀梁曰	-9.96229
機	-9.96234
葛	-9.96238
隙	-9.96241
缺	-9.96273
夏之	-9.96287
臧孫	-9.96351
其功	-9.96356
矜	-9.96413
壬	-9.96428
雲	-9.96473
蠻夷	-9.96479
隋	-9.96481
邲	-9.96513
暇	-9.96605
二十五	-9.96623
陳乞	-9.96696
来聘	-9.96759
君子曰	-9.96791
丙午	-9.96809
無以	-9.96851
自取	-9.9687
自立	-9.96909
子常	-9.96948
為義	-9.97064
子儀	-9.97066
欒氏	-9.97097
注言	-9.97114
倚	-9.97132
文也	-9.97151
庻	-9.97161
非義	-9.97163
為亂	-9.97202
非卿	-9.97208
事晉	-9.97209
賢者	-9.97218
二傳	-9.97227
夫人之	-9.9724
戊寅	-9.97254
與之盟	-9.97263
丁巳	-9.97297
當以	-9.97308
彚纂	-9.97332
卻	-9.97437
恵公	-9.97559
犂	-9.97715
魯衛	-9.97723
以行	-9.97824
云云	-9.97838
自為	-9.97863
濫	-9.97869
籍	-9.9799
不獲	-9.98029
出也	-9.98069
啖氏曰	-9.98126
孔氏	-9.98128
運	-9.98154
也何	-9.98174
之權	-9.98342
而下	-9.98403
虽	-9.98477
邇	-9.98595
東方	-9.98615
大國之	-9.98662
不得不	-9.98696
屏	-9.98757
其有	-9.98807
圖之	-9.98822
卒于	-9.98824
之兵	-9.98828
所欲	-9.98843
刻	-9.98888
麋	-9.98918
鄖	-9.98933
不若	-9.98969
得國	-9.9897
右師	-9.99005
當是時	-9.99021
莫之	-9.99025
矣其	-9.99042
者乎	-9.99051
不諱	-9.99065
于廟	-9.99092
棠	-9.99213
荀偃	-9.99213
世家	-9.99312
禮記	-9.99372
凡諸侯	-9.99415
而遂	-9.99444
晉大夫	-9.99457
轅	-9.9951
行事	-9.99559
入郢	-9.99591
豈非	-9.99649
監	-9.99749
遷于	-9.99825
平子	-9.99859
奏	-9.999
嬰	-9.99991
己未	-10.0005
綏	-10.0006
王猛	-10.0009
愆	-10.001
未聞	-10.0018
犬	-10.0018
左氏云	-10.002
脱	-10.002
敎	-10.0023
甞	-10.0026
鹿	-10.0029
無傳	-10.0032
倍	-10.0033
照	-10.0035
不立	-10.0041
未見	-10.0045
之官	-10.0045
丁丑	-10.0048
齊景	-10.0049
今又	-10.005
使卿	-10.0055
死於	-10.0064
併	-10.0064
不討	-10.0068
今日	-10.0069
為大	-10.0077
意也	-10.0078
㐮	-10.0096
展輿	-10.0098
而止	-10.0107
寇	-10.0107
此義	-10.0109
簡公	-10.0109
帥師伐	-10.0114
祭公	-10.0118
十有二年	-10.0121
圃	-10.013
魯大夫	-10.0132
書王	-10.0137
訴	-10.0139
宋之	-10.0142
賀	-10.0143
飛	-10.0145
兮	-10.0157
竝	-10.0158
其官	-10.0167
陘	-10.0168
有大	-10.017
汾	-10.0176
鄣	-10.0177
丑	-10.0181
地也	-10.0188
徇	-10.0188
此事	-10.0189
莊子	-10.0194
大敗	-10.0194
信也	-10.0194
稱公子	-10.0197
其一	-10.02
3	-10.0211
去年	-10.0213
三人	-10.0213
8.	-10.0214
鄢陵	-10.022
有禮	-10.0222
閉	-10.0222
為人	-10.0237
弑君之賊	-10.0242
天王之	-10.0244
公羊作	-10.0247
猶在	-10.0248
也左氏曰	-10.0248
去其	-10.0253
從者	-10.0255
乙酉	-10.0255
錫命	-10.026
露	-10.0263
未及	-10.0265
之䘮	-10.0269
矣又	-10.0269
辯	-10.0278
曰春秋	-10.0278
域	-10.028
貌	-10.0281
者二	-10.0282
故特書	-10.0282
舍之	-10.0285
推之	-10.0286
謚	-10.0286
於朝	-10.0288
歸生	-10.0288
周官	-10.0293
宋之盟	-10.0302
不時	-10.0305
含	-10.0309
雷	-10.031
恣	-10.0323
飲酒	-10.0326
大叔	-10.0332
反下同	-10.0334
烈	-10.034
之立	-10.0341
須句	-10.0345
桐	-10.0345
;	-10.0349
庚寅	-10.0351
逢	-10.0354
畫	-10.0354
㑹葬	-10.0358
師還	-10.036
之卒	-10.036
戕	-10.0367
不得已	-10.0374
敬嬴	-10.0375
髙子	-10.0384
韓厥	-10.0388
羙	-10.039
執事	-10.0392
旁	-10.0401
郳	-10.0403
猶曰	-10.0411
二卿	-10.0415
津	-10.0424
江黄	-10.0425
雄	-10.0431
戎狄	-10.0431
陷	-10.0432
救邢	-10.0433
時而	-10.0438
辛酉	-10.0438
魯公	-10.044
尊王	-10.0444
家臣	-10.045
大小	-10.0468
而來	-10.0471
味	-10.0474
竒	-10.0475
傳文	-10.0478
鮮	-10.0479
倉	-10.0482
千里	-10.0487
今年	-10.0493
寸	-10.0499
瑞	-10.05
入於	-10.05
之敗	-10.0503
墨	-10.0504
潞	-10.0508
繆	-10.0509
改元	-10.0511
庚申	-10.0513
丙戌	-10.0518
共公	-10.0523
邊	-10.0529
變文	-10.0531
弦	-10.0534
作春秋	-10.0536
其本	-10.0539
如何	-10.0542
向戌	-10.0544
之象	-10.0545
歎	-10.0556
未葬	-10.0557
沙隨	-10.0558
亡也	-10.0559
伐吳	-10.056
伯有	-10.0562
㣲者	-10.0565
来朝	-10.0566
因之	-10.0569
矯	-10.0572
憚	-10.0575
異姓	-10.0577
殿	-10.0577
王師	-10.0577
鄭莊	-10.0581
集説	-10.0587
諌	-10.0588
為是	-10.0589
莘	-10.0591
見經	-10.0593
獸	-10.0594
自相	-10.0595
不順	-10.0597
固有	-10.0598
癸丑	-10.0601
祿	-10.0603
非正	-10.0607
孟孫	-10.061
于戚	-10.0612
練	-10.0616
操	-10.0618
鱄	-10.0623
禮義	-10.0631
何得	-10.0636
釋曰	-10.0636
趙武	-10.0636
丘明	-10.064
遲	-10.0648
與焉	-10.0652
夾	-10.0655
受盟	-10.0656
焉用	-10.0664
覺	-10.0668
蛇	-10.0681
國都	-10.0684
言於	-10.069
貶也	-10.0693
代之	-10.0693
縊	-10.07
不入	-10.07
攷	-10.0703
王制	-10.0706
誤矣	-10.0711
羞	-10.0712
韋	-10.0713
朝歌	-10.0713
叙	-10.0714
如宋	-10.0717
於春秋	-10.0718
稱弟	-10.0719
岳	-10.0719
歸而	-10.072
不正其	-10.0728
充	-10.0732
而楚	-10.0741
在此	-10.0742
衷	-10.0751
三子	-10.0761
回	-10.0764
巴	-10.0765
程子	-10.0765
弗克	-10.0769
姻	-10.0773
乃止	-10.0776
之實	-10.0779
上文	-10.0779
滋	-10.0781
筮	-10.0782
孔氏曰	-10.0782
陽處父	-10.0789
穆姜	-10.079
縣屬	-10.0791
公命	-10.0792
允	-10.0792
螟	-10.0797
書至	-10.0801
豈可	-10.0807
獵	-10.0809
其能	-10.0809
决	-10.0811
使若	-10.0811
陋	-10.0811
上帝	-10.0812
絶之	-10.0812
子重	-10.0833
侵陳	-10.0843
之可也	-10.0845
患之	-10.0856
執政	-10.0859
呂	-10.0861
昭王	-10.0867
樊	-10.0868
本又作	-10.0871
辛卯	-10.0871
不書即位	-10.0873
不備	-10.0874
詞也	-10.0878
於其	-10.0881
君臣之義	-10.0881
人者	-10.0886
則又	-10.0888
為名	-10.0893
赴告	-10.0899
伊	-10.0908
頗	-10.0909
而與之	-10.0912
訾	-10.0913
卋	-10.0913
也是故	-10.0914
伐徐	-10.0914
晉文公	-10.0917
宋鄭	-10.0921
宰周公	-10.0921
禱	-10.0924
羣公子	-10.0925
覲	-10.0928
涖	-10.0928
不恤	-10.0931
競	-10.0934
寶	-10.094
宋華元	-10.0943
著矣	-10.0945
書字	-10.0947
以討	-10.0953
其失	-10.0953
志也	-10.0962
彭	-10.0966
供	-10.0989
三代	-10.0991
宥	-10.0992
國名	-10.0995
遣使	-10.0995
貶之也	-10.0997
上軍	-10.0998
不㑹	-10.0999
以救	-10.1
入陳	-10.1005
杜言	-10.1005
勉	-10.1006
何必	-10.1008
有寵	-10.1011
不可不	-10.1017
首惡	-10.1019
十里	-10.102
鳩	-10.1023
禾	-10.1025
閽	-10.1027
何罪	-10.1028
闞	-10.1038
其稱	-10.104
既而	-10.1043
癸未	-10.1045
孫林父	-10.1046
滅陳	-10.1049
狄之	-10.1051
三桓	-10.1053
子弟	-10.1054
召之	-10.1059
在齊	-10.1061
稱侯	-10.1063
非所	-10.107
明日	-10.1071
善惡	-10.1073
請於	-10.1073
畿内	-10.1076
孺子	-10.1077
則曷為	-10.1078
出師	-10.108
焉故	-10.108
庚戌	-10.1084
甯喜	-10.1096
優	-10.11
所在	-10.1101
雉	-10.1102
不修	-10.1103
饋	-10.1104
牆	-10.1108
釋例曰	-10.1111
死者	-10.1113
亡矣	-10.1115
晉平	-10.1116
男女	-10.1117
皆在	-10.1117
窺	-10.1118
之末	-10.1121
其爵	-10.1124
之賢	-10.1133
於君	-10.1138
獲麟	-10.1138
譜	-10.1141
王道	-10.1144
先生	-10.115
矣夫	-10.1153
妖	-10.1156
於天下	-10.1169
鄭𤣥云	-10.1171
楚子伐鄭	-10.1181
伯禽	-10.1194
彭生	-10.1197
其死	-10.12
潘	-10.1208
秩	-10.1208
首止	-10.1209
城在	-10.1215
傾	-10.1217
七十	-10.1218
季武子	-10.1218
晉君	-10.1221
漢書	-10.1222
皆非	-10.1225
把伯	-10.1239
若曰	-10.124
淮夷	-10.1249
恨	-10.1256
者明	-10.1256
今河南	-10.1267
夷吾	-10.1268
王世子	-10.1268
雒	-10.1271
循	-10.1271
壇	-10.1273
偪陽	-10.128
春正月	-10.1281
買	-10.1286
乎且	-10.1298
虢公	-10.1299
爻	-10.1309
魯以	-10.1313
國語	-10.1314
人情	-10.1317
作三軍	-10.1319
往㑹	-10.132
百姓	-10.1321
毛伯	-10.1321
其道	-10.1325
公羊以為	-10.1329
子罕	-10.1331
所書	-10.1333
慈	-10.134
壹	-10.1342
戊	-10.1342
𣣔	-10.1347
汭	-10.1348
二十三	-10.1349
子產	-10.1355
叚	-10.1356
闔廬	-10.136
乎故	-10.1369
人倫	-10.1369
此類	-10.137
武夷胡氏傳	-10.137
慝	-10.1373
來者	-10.1378
郛	-10.1378
何氏	-10.1379
7.	-10.1383
五十	-10.1385
諱之	-10.1392
子臧	-10.1396
昭穆	-10.1397
闕文	-10.1398
王崩	-10.1411
也案	-10.1415
以從	-10.1423
秋九月	-10.1423
歛	-10.1425
6.	-10.1426
叔向曰	-10.1429
子孔	-10.143
内大夫	-10.1433
當立	-10.1434
而能	-10.1443
所以為	-10.1444
娣	-10.1446
其上	-10.1454
公羊云	-10.1469
落	-10.1479
舅	-10.148
二十八	-10.1482
輸	-10.1487
名者	-10.1492
寓	-10.1492
夫差	-10.1494
仲孫蔑	-10.1497
不吉	-10.1499
之患	-10.1505
亂也	-10.1507
弗聽	-10.1516
则	-10.1517
春秋所	-10.1523
二邑	-10.1523
戰國	-10.1529
一字	-10.153
一月	-10.1538
若以	-10.1538
之行	-10.1539
而殺	-10.154
聘于	-10.1547
快	-10.1549
不稱公子	-10.155
去疾	-10.156
甲寅	-10.1569
嗣君	-10.1579
斗	-10.158
此傳	-10.1581
媚	-10.1599
狀	-10.1601
己酉	-10.1601
芮	-10.1604
一名	-10.1606
門之外	-10.1607
二十四	-10.1613
也胡氏曰	-10.1614
弊	-10.1614
在上	-10.1615
季氏之	-10.162
商臣	-10.1632
夷狄之	-10.1634
臣召南	-10.1635
矣若	-10.1635
不救	-10.1648
國政	-10.1648
天王使	-10.1656
貶而	-10.1657
存亡	-10.166
有此	-10.1669
徹	-10.1672
而盟	-10.1674
嶽	-10.1675
曰寡君	-10.1676
雖欲	-10.1678
亦當	-10.1678
庶子	-10.1681
繇	-10.1682
其卒	-10.1684
隆	-10.1688
隂陽	-10.1689
王子虎	-10.1693
之耳	-10.1695
睢	-10.1695
於我	-10.1696
二事	-10.1698
出奔楚	-10.17
到	-10.1704
入者	-10.1719
較	-10.1719
荀罃	-10.1724
善之	-10.1727
何氏曰	-10.1733
如㑹	-10.1735
正其	-10.174
以是為	-10.174
請命	-10.1745
高氏曰	-10.175
三命	-10.1757
不善	-10.1767
古人	-10.1769
諸侯無	-10.1772
亦書	-10.1777
道之	-10.1779
桓之	-10.1779
誤也	-10.1781
郤至	-10.1789
逺矣	-10.1794
之死	-10.1795
詭	-10.1798
汜	-10.1799
柯	-10.1803
明其	-10.1805
季姬	-10.1809
定姒	-10.1809
書歸	-10.1811
文定	-10.1814
從而	-10.182
周制	-10.1823
步	-10.183
于諸侯	-10.1844
子赤	-10.1845
左氏謂	-10.1847
王正月	-10.1849
書入	-10.1855
同心	-10.1856
區區	-10.1863
卽	-10.1863
而非	-10.1865
而欲	-10.1871
父兄	-10.1873
殖	-10.1881
所不	-10.1881
不舉	-10.189
論語	-10.1891
杜以	-10.1893
子男	-10.1897
㑹伐	-10.1898
部	-10.19
猶不	-10.19
童	-10.1901
者即	-10.1901
之分	-10.1906
水出	-10.191
不親	-10.1915
譚	-10.1915
正朔	-10.1916
以諸侯	-10.1917
耦	-10.1918
文武	-10.192
楚滅	-10.192
於禮	-10.1922
基	-10.1934
辛丑	-10.1937
以王命	-10.1944
書取	-10.1945
旋	-10.1946
復命	-10.195
愧	-10.1952
寄	-10.1953
束	-10.1953
後人	-10.1954
看	-10.1954
𢎞	-10.1955
朝夕	-10.1956
廬陵李氏曰	-10.1957
亦非也	-10.1958
去國	-10.1959
之主	-10.1972
為諸侯	-10.1977
其衆	-10.1981
之職	-10.1987
九年春	-10.1988
入春秋	-10.199
國在	-10.1992
始終	-10.1992
鞏	-10.1993
大抵	-10.1994
坤	-10.1995
注解云	-10.1996
辞	-10.201
朝于	-10.2011
王事	-10.2018
平丘	-10.2019
邦國	-10.202
傳見	-10.202
譏之	-10.2021
當是	-10.2023
汲汲	-10.2025
也古者	-10.2028
偕	-10.2029
以私	-10.2029
用牲	-10.2032
圍成	-10.2039
祗	-10.2041
鬼	-10.2041
根	-10.2042
之計	-10.2043
蒯	-10.2048
雪	-10.2056
而先	-10.2058
有年	-10.2062
今此	-10.2063
以見其	-10.2064
囿	-10.2065
之好	-10.2067
君臣之	-10.2068
與宋	-10.207
也其曰	-10.2072
可矣	-10.2074
二十一	-10.2076
不食	-10.208
曷為不言	-10.2084
戊午	-10.2086
不廢	-10.2099
咺	-10.2101
太史	-10.2103
書時	-10.2106
者所以	-10.2107
又書	-10.2108
繋	-10.2119
相朝	-10.2122
將中軍	-10.2127
項	-10.2128
君將	-10.2128
維	-10.2135
治之	-10.2135
枝	-10.2136
取鄆	-10.2136
泓	-10.2138
春秋之所	-10.2138
春王二月	-10.2138
而執	-10.2142
而朝	-10.2142
士㑹	-10.2145
消	-10.2157
之論	-10.2162
乎對曰	-10.2163
注据	-10.2165
何獨	-10.2165
王所	-10.2172
㓜	-10.2173
趙穿	-10.2173
釋之	-10.2175
績	-10.2175
崔	-10.2176
陸渾	-10.2176
遭	-10.2185
惡而	-10.2186
為令尹	-10.2188
吳楚	-10.2189
栗	-10.2191
同上	-10.2196
魯桓	-10.2199
夫人姜氏	-10.2204
共姬	-10.2209
旨	-10.2213
佚	-10.2214
諸侯伐鄭	-10.2214
以利	-10.2215
縣西北	-10.2218
也愚謂	-10.2219
○(	-10.222
再見	-10.2221
滛	-10.2225
來媵	-10.2227
緣	-10.2228
為王	-10.2231
之妻	-10.2232
浮	-10.2232
良霄	-10.2233
菽	-10.2243
南蒯	-10.2244
不共	-10.2249
丙辰	-10.2252
協	-10.2257
後至	-10.2262
閑	-10.2265
人皆	-10.2266
不可謂	-10.2268
欲使	-10.227
也又曰	-10.2273
令狐	-10.2278
士鞅	-10.2283
馳	-10.2284
始也	-10.2286
奄	-10.2292
卒而	-10.2296
壤	-10.2303
夔	-10.2303
罪其	-10.2304
麻	-10.2308
5	-10.2313
不暇	-10.2313
成二年	-10.2317
孟子曰	-10.232
乏	-10.232
揖	-10.2323
楚地	-10.2327
侵楚	-10.2328
之詩	-10.2331
歸者	-10.2331
免於	-10.2333
偃師	-10.2336
者是	-10.2337
不葬	-10.2338
諱也	-10.2339
杜氏預曰	-10.2345
竹	-10.2345
伸	-10.2358
紇	-10.2358
天王崩	-10.236
致之	-10.236
了	-10.2362
當書	-10.2362
所能	-10.2365
皆同	-10.2365
稱國以殺	-10.2367
削之	-10.2368
不祥	-10.2371
包	-10.2377
妹	-10.2378
守之	-10.2378
司寇	-10.2381
立君	-10.2382
助之	-10.2383
裘	-10.2385
乙丑	-10.2386
君若	-10.2386
韓宣子	-10.2392
籥	-10.2395
一朝	-10.24
藩	-10.24
擊之	-10.2403
舉其	-10.2412
用幣	-10.2413
邵	-10.2416
卞	-10.2418
脫	-10.2418
伯業	-10.2419
已見	-10.242
弭	-10.2421
殤公	-10.2424
驟	-10.2432
不幸	-10.2437
淵	-10.2439
不聽	-10.244
南陽	-10.2453
也於是	-10.2459
長厯	-10.2459
討其	-10.2459
僖二十八年	-10.246
雞	-10.2483
宋師	-10.2487
祧	-10.2497
所生	-10.2501
亦云	-10.2502
子木	-10.2505
不死	-10.2506
於人	-10.2506
叔仲	-10.2509
常事不書	-10.251
不許	-10.2515
則不書	-10.2516
此其言	-10.2518
霸業	-10.252
齊侯宋公	-10.2521
而獨	-10.2521
者四	-10.2524
為宋	-10.2527
曺	-10.2529
豆	-10.2532
屯	-10.2532
州府	-10.2541
假道	-10.2545
領	-10.2553
夏時	-10.2556
所由	-10.2559
伐國	-10.2564
徼	-10.2564
呉人	-10.2565
紀季	-10.2567
文公之	-10.2568
至自	-10.2568
而伐之	-10.2568
天子諸侯	-10.257
晏	-10.257
獨書	-10.2572
楚子使	-10.2574
君其	-10.2577
告于	-10.2577
涖盟	-10.2581
此盟	-10.2582
故聖人	-10.2582
壬辰	-10.2592
于社	-10.2593
阿	-10.2595
翟泉	-10.2605
王朝	-10.2612
執曹伯	-10.2612
辛未	-10.2613
從君	-10.2613
而未	-10.2615
非是	-10.262
為晉	-10.262
河東	-10.2621
亦未	-10.2628
孟獻子	-10.2629
故使	-10.263
為災	-10.2632
所云	-10.2634
之正	-10.2641
為盟主	-10.2643
之女	-10.2643
是知	-10.2644
今乃	-10.2645
而不得	-10.2645
范宣子	-10.2651
伯討	-10.2653
無名	-10.2659
其始	-10.266
魋	-10.2664
所為	-10.2668
公會齊侯	-10.2669
縣東南有	-10.2677
王后	-10.2681
也其言	-10.2683
雖然	-10.2685
子産曰	-10.2687
壬戌	-10.2689
唁	-10.269
用師	-10.2696
豈得	-10.2698
胡氏傳	-10.2699
千乘	-10.2699
伐戎	-10.2709
公宫	-10.2711
于陳	-10.2716
楚國	-10.2721
復讎	-10.2723
浸	-10.2725
於國	-10.2734
中國諸侯	-10.2739
鄭忽	-10.274
晉襄	-10.274
驪姬	-10.2747
莫如	-10.2749
必先	-10.275
吁	-10.2752
陶	-10.2752
之子也	-10.2762
納公	-10.2762
虞公	-10.2768
邾莒	-10.2769
师	-10.2771
已甚	-10.2771
罪在	-10.2772
十有五年	-10.2772
之大夫	-10.2773
王子朝	-10.2773
二者	-10.2778
祠	-10.2781
有餘	-10.2784
者衆	-10.2785
敦	-10.2788
莫能	-10.2794
公㑹晉侯	-10.2795
遂滅	-10.2797
弃	-10.28
荀躒	-10.2802
禽獸	-10.2803
2	-10.2807
又謂	-10.2814
經不書	-10.2821
義又見	-10.2824
隊	-10.2825
乆矣	-10.2828
前日	-10.2833
也何以	-10.2839
限	-10.2839
為之也	-10.2842
路寢	-10.2846
本無	-10.2854
得禮	-10.2857
或者	-10.2858
臧文仲	-10.2861
出于	-10.2861
而歸之	-10.2862
問於	-10.2866
禮樂	-10.2866
逕	-10.2874
我也	-10.2876
伐者	-10.2879
而况	-10.2882
紓	-10.2882
遇于	-10.2883
蕭魚	-10.2887
者盖	-10.2889
諸樊	-10.2895
告於	-10.2899
所言	-10.2903
為貶	-10.2904
至今	-10.2905
不聞	-10.2905
本作	-10.2908
以著其	-10.2912
于衛	-10.2918
沂	-10.292
不盡	-10.2931
列國之	-10.2933
頼	-10.2941
十有一月	-10.2953
也蓋	-10.2955
之稱	-10.2959
之禮也	-10.296
而奔	-10.2963
周正	-10.2981
滕薛	-10.2982
悪	-10.2985
則可	-10.2994
再書	-10.2995
將死	-10.2995
二三子	-10.2996
尉	-10.2997
乖	-10.2999
激	-10.3
戍之	-10.3003
不志	-10.3005
定四年	-10.3005
𫝊云	-10.3009
人之所	-10.3013
宵	-10.3019
緡	-10.3024
公不	-10.3032
寺人	-10.3035
而齊	-10.3038
偶	-10.304
桓文	-10.3041
庫	-10.3042
底	-10.3044
小國之	-10.3046
于朝	-10.3046
於上	-10.305
出奔齊	-10.3052
案左氏	-10.3063
乎春秋	-10.3063
裳	-10.3065
辭以	-10.3068
以出	-10.307
國史	-10.3074
弗能	-10.3077
射姑	-10.3077
匿	-10.3078
彰	-10.308
二十二	-10.308
許叔	-10.3087
曰無	-10.3096
不書者	-10.31
幕	-10.3102
士縠	-10.3103
也盖	-10.311
不務	-10.3115
繼之	-10.3115
狄侵齊	-10.3117
之士	-10.3119
二十七	-10.3123
救宋	-10.3124
鐸	-10.3124
無冰	-10.3134
之善	-10.3134
陸氏曰	-10.3134
外之	-10.3137
朱子曰	-10.3137
跡	-10.3141
婚姻	-10.3147
奪之	-10.3151
乙未	-10.3154
反覆	-10.3156
冢宰	-10.316
何足	-10.3162
倒	-10.3163
髙厚	-10.3164
君薨	-10.3167
麗	-10.3167
懿公	-10.3168
見於經	-10.317
天討	-10.317
大司馬	-10.3173
卓	-10.3179
肸	-10.3179
互	-10.318
伉	-10.3181
而後書	-10.3183
稱人者	-10.3183
不堪	-10.3187
深矣	-10.3191
其次	-10.3195
入國	-10.3196
符	-10.3203
故書曰	-10.3207
康王	-10.3207
義不	-10.3207
故城	-10.321
不加	-10.3218
者以其	-10.3218
之賊	-10.3219
討也	-10.3223
一國之	-10.3224
鄭國	-10.3226
中夏	-10.3226
弑而	-10.3226
之謂也	-10.3227
國無	-10.3234
者見	-10.3236
六十	-10.3238
續	-10.3244
之次	-10.3245
攻之	-10.3245
而去之	-10.3247
乃以	-10.3247
稽首	-10.3249
因以	-10.3251
天地之	-10.3253
之戒	-10.3258
格	-10.3264
他人	-10.3267
王孫	-10.3269
其邑	-10.3276
大功	-10.328
胄	-10.3287
若何	-10.3292
以相	-10.3293
告之	-10.3295
事齊	-10.33
霜	-10.3304
夾谷	-10.3304
不稱使	-10.3308
下軍	-10.3308
隰	-10.3312
羔	-10.3312
共王	-10.3319
録之	-10.3326
既葬	-10.3327
五日	-10.3331
鎮	-10.3333
莫不	-10.3337
求成	-10.3337
不絶	-10.3338
君不	-10.3339
不能正	-10.3339
衆也	-10.3345
惰	-10.3349
之衰	-10.3353
以为	-10.3356
及齊	-10.3356
注無傳	-10.3357
三十里	-10.3359
故因	-10.336
簡子	-10.3366
儉	-10.3367
又使	-10.3369
鄭師	-10.3369
数	-10.3373
以取	-10.3375
徳而	-10.3383
天子之事	-10.3385
丙子	-10.3386
謂其	-10.3386
聲子	-10.3387
變也	-10.3388
欒黶	-10.3389
下云	-10.3391
脤	-10.3397
無乃	-10.3397
之服	-10.3399
為質	-10.3402
送葬	-10.3406
為公	-10.3411
后稷	-10.3416
食之	-10.3419
卿士	-10.3427
之别	-10.3429
毎	-10.3429
譎	-10.3429
始於	-10.3429
之事也	-10.3433
齊襄	-10.3437
孔達	-10.3438
伐曹	-10.3445
諫曰	-10.3449
潛	-10.3449
論之	-10.3449
為楚	-10.3451
繩	-10.3452
諸侯有	-10.3454
不顧	-10.3456
其書	-10.3457
享之	-10.3468
難也	-10.347
在焉	-10.347
給	-10.3471
視之	-10.3473
天下之大	-10.3475
而諸侯	-10.3476
二十六	-10.3495
刀	-10.3497
幸而	-10.3498
副	-10.35
或以為	-10.3502
不書此何以書	-10.3502
稱夫人	-10.3503
他日	-10.351
救徐	-10.3514
故先	-10.3517
故謂之	-10.3518
以尊	-10.3521
亂賊	-10.3522
此之謂	-10.3522
從其	-10.3526
書伐	-10.3527
但言	-10.3528
此春秋	-10.353
襚	-10.353
君子之	-10.3535
泥	-10.3536
邯鄲	-10.354
翟	-10.3542
五行	-10.3543
酉	-10.3544
托	-10.3559
焦	-10.356
三百	-10.356
奔莒	-10.3561
季札	-10.3565
此二	-10.3566
戰也	-10.3569
隣	-10.3578
克之	-10.3581
能無	-10.3583
曰余	-10.3586
焉則	-10.3587
世卿	-10.3588
得失	-10.3589
誅之	-10.3593
漆	-10.3605
也聖人	-10.361
乃還	-10.361
北杏	-10.3615
㑹齊侯	-10.3617
㑹者	-10.3621
頭	-10.3625
襃貶	-10.3625
康叔	-10.3626
于天子	-10.3627
相去	-10.3628
湖	-10.363
無他	-10.3632
以備	-10.3641
無益	-10.3647
於經	-10.3651
奔喪	-10.3651
陳留	-10.3652
何所	-10.3654
子大叔	-10.3664
軒	-10.3665
不改	-10.3665
而往	-10.3667
胙	-10.367
吳師	-10.367
無復	-10.3674
齊侯衛侯	-10.3676
所載	-10.3676
歸寧	-10.3679
春秋之時	-10.3683
狂	-10.3683
刃	-10.3683
河陽	-10.3688
贈	-10.3689
濟西	-10.3694
行成	-10.3694
也榖梁傳	-10.3695
災異	-10.3702
過也	-10.3703
本末	-10.3703
邴	-10.3706
免牲	-10.3706
沮	-10.3707
契	-10.3713
寗喜	-10.3716
冬十一月	-10.3718
申侯	-10.3719
楚成	-10.3719
袁僑	-10.3722
誰敢	-10.3723
稽	-10.3725
義例	-10.3726
阻	-10.3726
旬	-10.3727
社稷之	-10.373
柏舉	-10.3734
宇	-10.3739
自外	-10.3741
於前	-10.3746
轍	-10.375
致女	-10.3751
太廟	-10.3753
負芻	-10.3753
覿	-10.3754
東夷	-10.3763
尋盟	-10.3768
史官	-10.3774
甲辰	-10.3775
孟明	-10.3779
天子之禮	-10.3779
丙申	-10.378
凡伯	-10.3782
卿也	-10.3785
謗	-10.3792
遂伐	-10.3793
子良	-10.3798
非一	-10.3802
南北	-10.3802
東遷	-10.3804
先言	-10.3804
嗣子	-10.3808
譛	-10.3816
以别	-10.3816
詔	-10.3818
期而	-10.3819
書月	-10.3819
而請	-10.382
微弱	-10.3823
胡安國曰	-10.3827
罪人	-10.3827
公至自齊	-10.3828
會諸侯	-10.385
命而	-10.385
試	-10.3859
城楚丘	-10.386
桀	-10.386
䟽	-10.3862
此一	-10.3863
載書	-10.3863
説者	-10.3865
十有八年	-10.3865
者正以	-10.3867
壬寅	-10.3873
在下	-10.3877
者葢	-10.3877
不書公	-10.3878
瓦	-10.3878
中國也	-10.3881
自見矣	-10.3883
與中國	-10.3887
子魚	-10.3887
無大夫	-10.3894
襄十	-10.3895
𣏌	-10.39
與公	-10.39
贄	-10.3905
然也	-10.3907
戊子	-10.3907
始封	-10.3909
人所	-10.3915
下書	-10.3917
謀之	-10.3917
之長	-10.3921
孛	-10.3922
詰	-10.3922
雹	-10.3923
無譏	-10.3927
又音	-10.3931
其室	-10.3932
此與	-10.3936
送之	-10.3938
得罪於	-10.3938
榭	-10.3943
失政	-10.3944
五人	-10.3953
季孫意如	-10.3955
親之	-10.3958
予之	-10.3961
侵衛	-10.3961
汶陽之田	-10.3966
丙寅	-10.3967
用事	-10.3979
癸卯	-10.3982
者惟	-10.3985
洽	-10.3992
曰此	-10.3993
公伐邾	-10.3993
羊舌	-10.3995
曰諸侯	-10.3997
范氏曰	-10.4006
不易	-10.4006
辛夘	-10.4007
叔孫僑如	-10.4014
鑄	-10.4019
冶	-10.4031
萌	-10.4031
例也	-10.4034
天子之命	-10.4039
蓼	-10.4039
於越	-10.404
遁	-10.404
戊戌	-10.4043
皆曰	-10.4043
城成周	-10.4055
耻	-10.4058
函	-10.4059
此乃	-10.4061
反下	-10.4061
畀	-10.4066
其誰	-10.4068
何謂	-10.4069
也故曰	-10.4072
鑒	-10.4079
林言	-10.4079
吕氏曰	-10.4083
北方	-10.4083
叔孫婼	-10.4086
絶其	-10.4086
十年春王正月	-10.4087
殺人	-10.4089
如之何	-10.4091
也疏	-10.4097
不得為	-10.4099
退而	-10.4099
於陳	-10.4099
嫁女	-10.4102
郟	-10.4103
城虎牢	-10.4107
八年春	-10.4113
追之	-10.4119
會盟	-10.4119
臣子之	-10.4119
妨	-10.4122
曉	-10.4123
女子	-10.4124
挈	-10.4126
韓起	-10.4128
其家	-10.4128
僑	-10.4134
女也	-10.4135
也髙氏曰	-10.4135
堪	-10.4137
變例	-10.4137
以存	-10.4137
變而	-10.4139
專殺	-10.414
昭十	-10.4146
晉陽	-10.4147
有事於	-10.4148
其不言	-10.4149
及楚平	-10.4149
姊	-10.4149
斾	-10.4151
叔牙	-10.4152
城父	-10.4153
知此	-10.4154
之節	-10.416
又不能	-10.4166
栁	-10.4171
中丘	-10.4175
不得已而	-10.4177
於義	-10.4177
晉悼公	-10.418
之盛	-10.4184
而用	-10.4184
十餘年	-10.4184
服也	-10.4186
百乘	-10.4189
罪之也	-10.419
其師	-10.4196
屨	-10.4197
當為	-10.4198
七年春	-10.4202
棄之	-10.4202
要之	-10.4203
與人	-10.4205
國有	-10.4206
蔡景	-10.4206
巡	-10.4206
未成	-10.4206
式	-10.421
劉氏敞曰	-10.4212
以謀	-10.4212
悦	-10.4215
普	-10.4215
篤	-10.4216
黄池	-10.4216
存之	-10.4223
一音	-10.4224
弑也	-10.4228
楚人伐鄭	-10.4229
之由	-10.4233
十有三年春	-10.4233
侯爵	-10.4236
醜	-10.4241
滎陽	-10.4243
不已	-10.4244
立而	-10.4246
柤	-10.4247
如莒	-10.4247
縶	-10.4247
頻	-10.4259
書公	-10.4261
穆子	-10.4262
二三	-10.4263
内史	-10.4264
直言	-10.4267
中牟	-10.4271
豫章	-10.4276
何以不言	-10.4281
坎	-10.4287
請盟	-10.4289
外大夫	-10.4292
卯	-10.4295
雖無	-10.4301
崔子	-10.4304
法也	-10.4305
晉殺其大夫	-10.4306
匠	-10.4307
䝉	-10.4308
不亦可乎	-10.4311
亦如之	-10.4317
有國	-10.4321
女叔	-10.4321
胥童	-10.433
儀父	-10.4336
文王之	-10.4338
政事	-10.4338
無信	-10.4339
復國	-10.4341
甲兵	-10.4342
其親	-10.4342
知有	-10.4344
徵舒	-10.4354
弗與	-10.4361
而終	-10.4364
於衛	-10.4373
豈能	-10.4373
荅	-10.4374
誥	-10.438
子叔	-10.4381
非時	-10.4385
皆以為	-10.4392
之重	-10.4397
百乗	-10.4398
叔孫得臣	-10.4399
致其	-10.4405
其中	-10.4407
羿	-10.4407
不言及	-10.4409
大廟	-10.441
則稱	-10.441
春秋之初	-10.4411
閲	-10.4411
所惡	-10.4414
於後	-10.4414
遷之	-10.4415
曰昔	-10.4416
皆無	-10.4417
區	-10.4418
而莫之	-10.4421
為異	-10.4425
鈞	-10.4427
而可	-10.4431
重丘	-10.4432
左𫝊	-10.4436
冬十二月	-10.4438
溫	-10.4443
芳	-10.4446
太宰	-10.4454
簒弑	-10.4455
淳于	-10.4456
會晉	-10.4457
自齊	-10.4458
天命	-10.4461
焉耳	-10.4462
播	-10.4468
替	-10.4468
止也	-10.447
災也	-10.4472
一旦	-10.4484
而不可	-10.4485
稼	-10.4488
萬世	-10.449
以入	-10.4491
譬	-10.4492
晉趙盾	-10.4497
於是始	-10.4503
公子友	-10.4504
正卿	-10.4505
今在	-10.4506
未足	-10.4511
使其	-10.4512
罔	-10.4512
冒	-10.4512
導	-10.4515
爲之	-10.4518
纂	-10.4519
大宰	-10.452
公自	-10.4522
昭公之	-10.4523
先軫	-10.4524
者多矣	-10.4525
不言公	-10.4527
何有	-10.4527
由此	-10.453
祭之	-10.4532
耳非	-10.4534
凌	-10.4535
也不言	-10.4535
殺世子	-10.4539
志在	-10.4549
慕	-10.4549
率諸侯	-10.455
無可	-10.455
世本	-10.4552
車馬	-10.4552
行而	-10.4552
亦然	-10.4556
泣	-10.4558
黔牟	-10.4561
先公	-10.4561
悉書	-10.4567
驂	-10.4567
不嫌	-10.4573
其來	-10.458
敵也	-10.458
中國而	-10.4586
在喪	-10.4588
公孫歸父	-10.4595
乙卯	-10.4602
蠱	-10.4604
廹	-10.4606
茲	-10.4606
錡	-10.4608
之辱	-10.4608
莒子邾子	-10.4609
朝而	-10.4609
故杜	-10.4623
此說	-10.463
狼	-10.4633
叛臣	-10.4633
之怨	-10.464
定之	-10.4643
重於	-10.4647
人欲	-10.465
為齊	-10.4652
而告	-10.4654
不可以不	-10.4656
子卒	-10.4659
鍾離	-10.4659
小邾子	-10.466
百人	-10.4661
在楚	-10.4677
晚	-10.4677
徒以	-10.4677
曹衛	-10.4679
鄬	-10.468
壅	-10.4681
趙孟曰	-10.4681
郤缺	-10.4681
佩	-10.4683
成而	-10.4684
失道	-10.4685
之恩	-10.4687
見于	-10.4689
未命	-10.4698
自見	-10.4698
漏	-10.4702
荆蠻	-10.4702
故得	-10.4704
公至自伐鄭	-10.4705
止書	-10.4709
輸平	-10.4714
問之	-10.472
其妻	-10.4722
故傳	-10.4728
醉	-10.4729
此非	-10.4729
司冦	-10.4729
大蒐	-10.4732
大史	-10.4734
之舊	-10.4735
而知	-10.474
啖子曰	-10.4744
踐	-10.4747
輯	-10.4749
賁	-10.4749
壘	-10.475
骨	-10.4752
為惡	-10.4753
畧之	-10.4754
至自齊	-10.4756
举	-10.4756
定王	-10.4761
夏正	-10.4762
國子	-10.4762
臧氏	-10.4764
視朔	-10.4765
於下	-10.4765
桓二年	-10.4766
國之大夫	-10.4766
先祖	-10.4768
裁	-10.4771
纔	-10.4773
則必	-10.4773
君親	-10.4776
訖	-10.4778
東平	-10.4784
未盡	-10.4787
者罪	-10.479
乃使	-10.4791
下有	-10.4792
公至自會	-10.4793
人道	-10.4796
不終	-10.4798
非特	-10.48
而不名	-10.48
詛	-10.4802
胡子	-10.4809
泗	-10.4809
大夫皆	-10.4817
晉趙鞅	-10.4818
玉帛	-10.4825
爾雅	-10.4826
齊衛	-10.4826
沛	-10.4827
閻	-10.4829
施於	-10.4832
江南	-10.4833
不害	-10.4836
討罪	-10.4838
廩	-10.4839
春秋之世	-10.4843
遥	-10.4846
莫敢	-10.4847
莊公之	-10.4848
無咎	-10.4849
上公	-10.4852
先縠	-10.4854
齊崔杼	-10.4864
侵曹	-10.4865
其職	-10.487
受賂	-10.4872
稱伯	-10.4875
之來	-10.4876
蕃	-10.4876
諱之也	-10.4879
七日	-10.4881
外交	-10.4882
其田	-10.4883
▁左氏傳	-10.4886
懼其	-10.4889
娶于	-10.489
死之	-10.489
蒍	-10.4893
十有三年	-10.4894
荀寅	-10.49
孝子	-10.4903
而後可	-10.4905
曲直	-10.4906
弑君者	-10.4911
盟于扈	-10.4911
切又	-10.4911
春秋所書	-10.4912
稱世子	-10.4912
豈其	-10.4914
説文	-10.4915
禚	-10.4916
二年春	-10.4916
究	-10.4918
迭	-10.4918
救齊	-10.4919
9.2	-10.4922
堵	-10.4923
曰歸	-10.4927
有五	-10.4933
不得與	-10.4934
軫	-10.4935
大旱	-10.4936
之政	-10.4937
𨽻	-10.494
失位	-10.494
固請	-10.4942
之迹	-10.495
宋向戌	-10.4951
弑君之罪	-10.4952
書滅	-10.4954
亦不書	-10.4958
搆	-10.4965
弑君而	-10.4965
增	-10.4966
不赴	-10.497
家語	-10.497
五年春	-10.4973
者乃	-10.4976
服䖍云	-10.498
之數	-10.4988
以重	-10.4988
檀弓	-10.4991
子晳	-10.4992
事實	-10.4992
猶三望	-10.4993
者此	-10.4994
皋	-10.4996
也是以	-10.4997
方城	-10.4999
不見公	-10.5002
之應	-10.5003
不虞	-10.5006
終始	-10.5007
彄	-10.5014
顓頊	-10.5014
洛陽	-10.5015
舒鳩	-10.5018
鹽	-10.502
救而	-10.5021
伯爵	-10.5022
武宫	-10.5029
之過也	-10.5037
威儀	-10.5038
春秋不書	-10.5038
蟲牢	-10.5041
初立	-10.5044
一等	-10.5045
溴梁	-10.5046
滅亡	-10.505
無虧	-10.5055
賈逵	-10.5057
已而	-10.5057
不去	-10.5058
報怨	-10.5058
驚	-10.5061
以制	-10.5062
之物	-10.5067
苟有	-10.5069
者若	-10.5072
書即位	-10.5073
略之	-10.5076
今屬	-10.508
偷	-10.5087
弑父	-10.5089
弗敢	-10.509
五十里	-10.5091
蔡季	-10.5094
亦何	-10.5097
相繼	-10.5097
丁亥	-10.5097
入而	-10.5097
非聖人	-10.5099
弟也	-10.5103
王官	-10.5107
而從	-10.5107
施之	-10.511
帑	-10.5115
後漢	-10.5119
三綱	-10.5121
汪	-10.5122
良夫	-10.5127
不與其	-10.5134
以名	-10.5134
賢也	-10.5135
諸家	-10.5138
聘禮	-10.514
貴賤	-10.5141
之漸	-10.5142
一書	-10.5142
劒	-10.5142
所以見	-10.5146
諡法	-10.515
叛人	-10.5151
劉炫	-10.5151
案他本	-10.5152
執其	-10.5156
滅同姓	-10.5159
以賂	-10.5159
北宫	-10.5162
昭元年	-10.5162
奮	-10.5163
也左氏	-10.5165
或作	-10.5168
欲殺	-10.5168
在於	-10.5168
月令	-10.5168
兩國	-10.5169
以立	-10.517
言及	-10.5173
而成	-10.5173
有事于	-10.5173
師敗	-10.5175
乞盟	-10.5178
服楚	-10.5183
前書	-10.5183
世室	-10.5187
狎	-10.5188
秋冬	-10.5188
槩	-10.5189
禍亂	-10.519
張本	-10.52
地理志	-10.5201
觀其	-10.5204
燮	-10.5206
言之則	-10.5207
豎	-10.5212
刼	-10.5215
薛伯	-10.5218
冢	-10.522
致討	-10.5221
虧	-10.5224
渭	-10.5224
不得入	-10.5227
馬陵	-10.5229
髙氏	-10.5234
檉	-10.5236
祭也	-10.5238
太原	-10.5244
攜	-10.5244
民力	-10.5245
魏絳	-10.5247
悼子	-10.5249
宋襄公	-10.5249
命大夫	-10.5251
尹子	-10.5254
之過	-10.5258
日中	-10.5262
糧	-10.5263
王氏曰	-10.5264
誰能	-10.5268
魯邑	-10.5269
所見	-10.5272
國亂	-10.5276
至矣	-10.5281
吾聞	-10.5284
曰請	-10.5286
其兄	-10.5286
黷	-10.5289
叔父	-10.5289
師出	-10.5291
愼	-10.5291
之深	-10.5292
夙	-10.5293
皈	-10.5294
陽穀	-10.5294
政在	-10.5297
而忘	-10.5298
公如晉至河乃復	-10.5299
故復	-10.5302
所滅	-10.5303
其歸	-10.5313
故雖	-10.5318
釈	-10.5321
從齊	-10.5324
大辰	-10.5327
射之	-10.5336
加於	-10.5336
黄帝	-10.5337
醫	-10.5337
干戈	-10.534
乙巳	-10.5341
□	-10.5342
聘問	-10.5343
特筆	-10.5345
我者	-10.5346
救患	-10.535
不可言	-10.5351
霸者	-10.5352
鄭𤣥	-10.5352
叔服	-10.5354
或有	-10.5361
圍陳	-10.5363
之本	-10.5369
絰	-10.537
出姜	-10.5375
之援	-10.538
公在乾侯	-10.5393
辨之	-10.5397
見伐	-10.5399
子突	-10.5406
朝廷	-10.5407
終也	-10.5407
者言	-10.5409
未敢	-10.541
越境	-10.5417
成宋亂	-10.5419
或言	-10.5421
南門	-10.5423
之甚也	-10.5424
之聘	-10.5425
衛之	-10.5426
爰	-10.5437
郤犨	-10.5439
與君	-10.5445
两	-10.5447
:『	-10.5451
三十六	-10.5453
岐	-10.5454
敗也	-10.5457
作丘甲	-10.5459
宣十	-10.5464
閱	-10.5465
犧	-10.5465
妻之	-10.5468
墜	-10.5468
厥貉	-10.5468
以㑹	-10.5468
紀之	-10.5473
宋平	-10.5474
宣伯	-10.548
趙衰	-10.5487
蓄	-10.5491
疎	-10.5492
及齊平	-10.5494
庶幾	-10.5503
則不可	-10.5517
在㑹	-10.5519
儆	-10.5522
春秋所以	-10.5526
子貢	-10.5529
授之	-10.553
特以	-10.5534
繒	-10.5541
范獻子	-10.5547
齊姜	-10.5553
本非	-10.5554
之誤	-10.5555
日至	-10.5557
十五里	-10.5557
六年春	-10.5559
廷	-10.556
玄	-10.5569
㑹呉	-10.557
何忌	-10.557
無疑	-10.5572
袁	-10.5576
求諸侯	-10.5579
庚子	-10.5588
兩君	-10.5591
己卯	-10.5594
齊桓晉文	-10.5594
上國	-10.5594
邾子來朝	-10.5595
拔	-10.5596
鄭突	-10.5602
不盟	-10.5602
臨之	-10.5606
不言戰	-10.5607
不登	-10.5611
四分	-10.5617
古今	-10.5623
召公	-10.5627
異乎	-10.5628
天災	-10.563
知伯	-10.5631
封之	-10.5631
皆為	-10.564
叔老	-10.5642
宋衞	-10.5648
畔	-10.5649
之大者	-10.5649
辜	-10.565
詩小雅	-10.5657
權臣	-10.5659
卒哭	-10.566
乎若	-10.5661
也張氏曰	-10.5662
齊國	-10.5665
吴子	-10.5666
以死	-10.5667
則何以	-10.5667
也劉氏曰	-10.5669
將殺	-10.567
子干	-10.5673
於民	-10.5675
緯	-10.5676
救許	-10.5676
公卿	-10.5677
入許	-10.5678
萬物	-10.5682
免之	-10.5682
如陳	-10.5685
狄泉	-10.5688
壬子	-10.5688
荀林父	-10.5694
6	-10.5699
迂	-10.5699
不君	-10.57
之㫖	-10.57
1.	-10.57
其他	-10.57
餘祭	-10.5702
背盟	-10.5703
餼	-10.5705
其先	-10.5708
二字	-10.5708
不與盟	-10.5711
此云	-10.5714
其下	-10.5716
縣東有	-10.5718
非謂	-10.5722
弗及	-10.5723
反注同	-10.5724
即是	-10.5725
婼	-10.5726
叛也	-10.5731
十有四年春	-10.5731
棣	-10.5732
來討	-10.5734
次於	-10.5736
卒葬	-10.5739
可得	-10.5739
其喪	-10.5743
祖廟	-10.5744
知禮	-10.5745
之比	-10.5749
而執之	-10.575
地震	-10.5752
死于	-10.5752
曼	-10.5756
湏	-10.5756
宅	-10.5757
之邑也	-10.5757
元年春王正月	-10.5757
台	-10.576
如字又	-10.5762
不孝	-10.5766
伐山戎	-10.5768
齊豹	-10.5774
▁臣謹按	-10.5775
有寵於	-10.5777
君子謂	-10.5782
楹	-10.5783
子爵	-10.5783
叔肸	-10.5787
宋災	-10.5791
蟄	-10.5792
也程子曰	-10.5794
公羊謂	-10.5795
兩觀	-10.5797
也穀梁傳	-10.5797
為臣	-10.5801
救衛	-10.5802
庶人	-10.5805
書次	-10.5806
媯	-10.5809
君子不	-10.5809
黍	-10.5811
鳯	-10.5813
子元	-10.5817
圍蔡	-10.5819
志之	-10.582
十有四年	-10.5826
當從	-10.5831
季氏私考	-10.5831
遊	-10.5834
公田	-10.5835
席	-10.5835
也葢	-10.5836
9.	-10.5838
以安	-10.5847
出奔陳	-10.5847
鄭伯突	-10.5849
榖梁云	-10.585
大衍厯	-10.5851
定哀	-10.5852
公親	-10.5859
榖梁傳曰	-10.5861
未絶	-10.5863
聞其	-10.5863
曠	-10.5868
堯舜	-10.5868
樂祁	-10.5876
不利	-10.5883
也况	-10.5887
為司馬	-10.5889
狡	-10.5889
行乎	-10.589
慶氏	-10.5898
僖二十	-10.5903
南里	-10.5905
齊僖	-10.5908
其日	-10.5909
元年春王正月公即位	-10.5911
捨	-10.5912
亮	-10.5912
春秋書之	-10.5913
䇿書	-10.5913
志於	-10.5913
不氏	-10.5917
之語	-10.592
帷	-10.592
前定	-10.5921
8.1	-10.5921
無有	-10.5922
之始也	-10.5923
辰陵	-10.5929
子頽	-10.5933
不惟	-10.5934
蓋以	-10.5934
陳佗	-10.5936
公子比	-10.5937
敗宋師	-10.594
未有言	-10.5941
謁	-10.5941
翰	-10.5942
告朔	-10.5943
外内	-10.5943
減	-10.5945
臨川吳氏曰	-10.5945
天時	-10.595
是亦	-10.5955
難而	-10.5964
嗟	-10.5966
丁酉	-10.5966
圗	-10.5967
壯	-10.5967
山東	-10.5968
杼	-10.5968
髪	-10.5968
服䖍	-10.597
無常	-10.5971
絞	-10.5973
用田賦	-10.5975
外諸侯	-10.5976
所立	-10.5978
百四十	-10.598
之威	-10.5984
帥師圍	-10.5984
正之	-10.5985
三時	-10.5985
于太廟	-10.5987
悲	-10.5987
成十	-10.5988
季孫宿如晉	-10.5989
以志	-10.599
所聞	-10.599
怙	-10.599
皆從	-10.5993
過矣	-10.5994
公行	-10.5995
宫室	-10.5998
公子遂如齊	-10.6
同日	-10.6001
之舉	-10.6008
以弑	-10.6012
同而	-10.6017
不能保	-10.6018
二十九	-10.6021
廪	-10.6021
三分	-10.6024
諸侯㑹	-10.6024
也彼	-10.6032
必死	-10.6032
者正	-10.6032
或稱	-10.6042
産	-10.6044
以君命	-10.6044
者或	-10.6045
齊世子光	-10.6046
自有	-10.6047
封疆	-10.6048
敗諸	-10.605
之篇	-10.6052
旃	-10.6052
戰者	-10.6056
伐郯	-10.6056
再命	-10.6057
伯子男	-10.6058
僖二	-10.6061
乃歸	-10.6066
其勢	-10.6067
出自	-10.6068
三世	-10.6071
不得以	-10.6071
叛者	-10.6074
菑	-10.6074
石碏	-10.6075
陽榖	-10.6079
賢而	-10.609
大矣	-10.6091
以奉	-10.6092
滅項	-10.6096
子羽	-10.6097
成十六年	-10.6102
將卑師少	-10.6102
.5	-10.6103
眚	-10.6104
侵衞	-10.6108
日者	-10.6109
所宜	-10.6111
語云	-10.6112
土功	-10.6113
日以	-10.6113
於時	-10.6115
善也	-10.6127
之先	-10.613
植	-10.613
纓	-10.613
畏齊	-10.6132
巧	-10.6132
酖	-10.6134
里有	-10.614
之不可	-10.6143
斷道	-10.6147
也故書	-10.6154
傲	-10.6156
侯犯	-10.6156
㓕	-10.6157
瑗	-10.616
器用	-10.616
未有不	-10.6161
賞罰	-10.6162
鄀	-10.6163
必無	-10.6163
外裔	-10.6166
兵權	-10.6171
夫人也	-10.6173
因事	-10.6183
襄二	-10.6185
敏	-10.6185
蘭	-10.6185
即楚	-10.6185
兒	-10.6186
未可以	-10.6188
壺	-10.6189
又案	-10.6191
矣乃	-10.6195
封人	-10.6201
春秋於	-10.6203
公如	-10.6205
未嘗有	-10.6206
先蔑	-10.6207
哉故	-10.6207
以夫人	-10.6208
于邾	-10.6213
暱	-10.6215
廉	-10.6216
不察	-10.6217
為後	-10.6218
書同盟	-10.6221
請師	-10.6225
從公	-10.6227
杞桓	-10.6229
叛楚	-10.6231
軍旅	-10.6233
如周	-10.6234
而謂之	-10.6234
諸侯盟	-10.6239
公㑹晉侯齊侯宋公	-10.6242
𥘉	-10.6243
辭焉	-10.6251
同欲	-10.6256
盟則	-10.6258
所出	-10.6261
垣	-10.6269
頡	-10.6269
凢	-10.6269
駒	-10.6269
列於	-10.6271
寝	-10.6274
能以	-10.6278
聞之曰	-10.6278
告糴	-10.6279
幽王	-10.6281
父母之	-10.6296
付	-10.6297
弋	-10.63
擾	-10.6301
異矣	-10.6312
殤	-10.6313
陸氏	-10.6313
之衆	-10.632
三十一	-10.6321
衆人	-10.6322
敗狄	-10.6324
股肱	-10.6324
十年春	-10.6325
信之	-10.6326
柩	-10.6327
欲去	-10.6327
于是乎	-10.6328
以師	-10.6339
長葛	-10.634
二百	-10.6342
公會晉侯	-10.6345
入鄭	-10.6347
濤塗	-10.6351
楚靈	-10.6353
正名	-10.6363
備書	-10.6365
程氏	-10.6365
不書至	-10.6373
王室亂	-10.6375
蘇子	-10.6376
河内	-10.6377
見逐	-10.6378
文十	-10.6378
臣下	-10.6379
僞	-10.6381
倡	-10.6381
一軍	-10.6383
其禍	-10.6384
姚	-10.6384
鲁	-10.6386
膳	-10.6387
卜郊	-10.6389
日之	-10.6391
王畿	-10.6391
閭	-10.6392
而實	-10.6399
之讎	-10.6402
之宫	-10.6403
其終	-10.6406
王卿士	-10.6411
仇牧	-10.6413
居之	-10.6413
作主	-10.6416
善其	-10.6422
之歸	-10.6423
尊周	-10.6427
之正也	-10.6427
其祖	-10.6428
公不與	-10.6429
以逞	-10.6431
10.	-10.6433
又與	-10.6433
國中	-10.6433
據左氏	-10.6433
掠	-10.6434
慼	-10.6437
楚令尹	-10.6437
據傳	-10.6437
已有	-10.6441
之利	-10.6442
紹	-10.6442
安在	-10.6444
棄其	-10.6446
一見	-10.6446
華亥	-10.6446
五伯	-10.6446
奔陳	-10.645
也觀	-10.6453
不以禮	-10.6454
弒	-10.6458
若敖	-10.6458
不可得而	-10.6458
邦交	-10.6459
盟諸侯	-10.6459
之氣	-10.6461
其力	-10.6462
劫	-10.6463
其黨	-10.6463
臆	-10.6464
皆稱	-10.6465
後書	-10.6466
灌	-10.6467
附㑹	-10.6467
昭二十	-10.6467
不討賊	-10.6469
藝	-10.6469
緜	-10.6471
於秦	-10.6471
不書名	-10.6474
許氏曰	-10.6476
記事	-10.6479
聲姜	-10.6484
晋人	-10.6489
聶北	-10.649
安能	-10.6492
弛	-10.6494
翦	-10.6495
虜	-10.6497
齊歸	-10.6503
陂	-10.6503
本或作	-10.6506
東國	-10.6506
而哭	-10.6511
悼公之	-10.6517
說者	-10.6521
上有	-10.6521
左氏作	-10.6522
請以	-10.6525
宋公使	-10.6528
鄒	-10.6531
以徳	-10.6536
於邾	-10.6537
實有	-10.6539
歸也	-10.6542
乎夫	-10.6542
足矣	-10.6543
自安	-10.6545
使我	-10.6545
於中國	-10.6546
公羊榖梁	-10.6546
其所以	-10.6547
於天	-10.6547
其難	-10.655
婉	-10.6551
調	-10.6553
奢	-10.6555
是月	-10.6556
之本也	-10.6558
與夷	-10.6565
淳	-10.6566
糴	-10.6568
納王	-10.657
將有	-10.6571
9.1	-10.6576
不稱夫人	-10.6577
滅蔡	-10.6578
宼	-10.658
牡	-10.658
匪	-10.6582
自此始	-10.6583
郷	-10.6584
十有七年	-10.6587
皆云	-10.6588
𫝊曰	-10.6588
之辨	-10.6588
國内	-10.6589
嗣位	-10.659
魯有	-10.6591
謀也	-10.6593
晉景	-10.66
汪氏克寛曰	-10.6606
昭伯	-10.6609
未畢	-10.661
爽	-10.6612
之異	-10.6617
見于經	-10.662
以大夫	-10.6622
吉凶	-10.6622
又作	-10.6635
苑	-10.664
不可得	-10.6644
不問	-10.6651
非所以	-10.6652
曰某	-10.6654
而云	-10.6656
魯衞	-10.6657
自京師	-10.6659
也公羊曰	-10.6663
伐呉	-10.6663
郤犫	-10.6665
曰若	-10.6666
為附庸	-10.6668
融	-10.667
米	-10.6673
次之	-10.6674
之體	-10.6676
同惡	-10.6677
封内	-10.6681
門外	-10.6681
置閏	-10.6682
而取之	-10.6682
未詳	-10.6684
廢之	-10.6686
欲戰	-10.6688
者也故	-10.6688
伐鮮虞	-10.6689
入鄆	-10.6692
入蔡	-10.6694
者猶	-10.6696
庶其	-10.6697
聘而	-10.6699
也榖梁曰	-10.6699
相似	-10.6701
!	-10.6704
不忠	-10.6705
北燕	-10.6706
子哀	-10.6711
有罪也	-10.6715
安知	-10.6717
國乎	-10.672
數年	-10.672
汶陽	-10.6723
數之	-10.6723
囊瓦	-10.6724
荀庚	-10.6726
水旱	-10.6727
戦	-10.6736
惠伯	-10.6736
繫於	-10.6738
唐叔	-10.6738
不果	-10.6741
不畏	-10.6742
魯自	-10.6742
宋萬	-10.6743
之民	-10.6744
而經不書	-10.6747
有命	-10.6748
二軍	-10.6749
匱	-10.6753
而從之	-10.6754
盟會	-10.6757
為己	-10.6761
晉伯	-10.6762
齊人宋人	-10.6763
一嵗	-10.6766
必敗	-10.6768
亦不得	-10.6772
羽父	-10.6773
之奔	-10.6774
曰魯	-10.6774
又如字	-10.6774
頒	-10.6782
顛	-10.6783
是矣	-10.6784
仲尼曰	-10.6784
至魯	-10.6785
隘	-10.6786
也愚按	-10.6789
武氏	-10.6797
二年春王正月	-10.6797
今山東	-10.6797
五國	-10.6803
新宫	-10.6803
齊大夫	-10.6805
紛	-10.681
宗婦	-10.6812
止於	-10.6815
二十里	-10.6816
生子	-10.6819
末年	-10.682
城郭	-10.682
山戎	-10.6821
書侵	-10.6822
其社稷	-10.6824
有加	-10.6829
服鄭	-10.6833
典禮	-10.6835
易曰	-10.684
始見	-10.6843
酌	-10.6844
琴	-10.6844
事在	-10.685
之詞也	-10.6852
義同	-10.6853
雉門	-10.6855
鄭服	-10.6863
拱	-10.6872
洩冶	-10.6872
現	-10.6875
越禮	-10.6875
急於	-10.6877
亡人	-10.6878
何益	-10.688
則魯	-10.6886
再言	-10.6887
千乗	-10.6888
伯也	-10.6889
宣子曰	-10.689
聘魯	-10.689
何其	-10.6891
衝	-10.69
炎	-10.6901
弟子	-10.6901
物也	-10.6903
不名者	-10.6908
!」	-10.6909
在内	-10.6912
無子	-10.6917
㑹於	-10.692
其常	-10.6923
之母也	-10.6925
譽	-10.6932
今復	-10.6933
百年	-10.6934
鄅	-10.6934
苖	-10.6935
帥師救	-10.6937
士魴	-10.6939
戒也	-10.694
大變	-10.6942
二日	-10.6945
肆其	-10.6947
忠信	-10.6948
駭	-10.695
柏	-10.6957
先歸	-10.6958
隗	-10.696
及此	-10.696
訪	-10.696
未定	-10.6962
于秦	-10.6962
壽夢	-10.6962
昭二	-10.6963
故城在	-10.6974
下陽	-10.6975
例書	-10.6979
曰寡人	-10.6988
荀吳	-10.6993
幹	-10.6993
舉重	-10.6995
莒慶	-10.6996
不淂	-10.6997
夫豈	-10.7001
犫	-10.7001
六國	-10.7005
出境	-10.7005
省文	-10.7006
釋怨	-10.7006
死則	-10.7013
為禮	-10.7014
遂入	-10.7014
失信	-10.7014
奔衛	-10.7016
比事	-10.7017
欲求	-10.7019
建子	-10.7027
名分	-10.7028
齊難	-10.7032
本亦作	-10.7038
戢	-10.704
探	-10.7048
不安	-10.7048
懦	-10.7049
髙郵孫氏曰	-10.7049
􁊋	-10.7052
汲	-10.7053
别有	-10.7054
未有書	-10.7057
解云即	-10.7059
見公	-10.706
臼	-10.706
不解	-10.7061
得鄭	-10.7062
州蒲	-10.7064
也桓公	-10.7067
王政	-10.707
不由	-10.7075
報之	-10.7076
平隂	-10.7077
廐	-10.7079
周易	-10.708
之妾	-10.7081
言伐	-10.7082
車服	-10.7082
詩大雅	-10.7083
縣東北有	-10.7084
沈子	-10.7085
牟夷	-10.7085
也但	-10.7094
注釋曰	-10.7096
所封	-10.7104
群	-10.7105
州公	-10.7105
此所以	-10.7106
大有年	-10.7108
肩	-10.7109
敬仲	-10.7111
事畢	-10.7114
築臺	-10.7117
簒立	-10.7119
此又	-10.7134
殺公子	-10.7136
國事	-10.7138
者豈	-10.7138
僻	-10.7138
泯	-10.7139
歸于京師	-10.7139
孽	-10.7139
城邢	-10.7144
▁胡氏傳	-10.7144
與謀	-10.7146
不振	-10.7148
仇讎	-10.7148
踐土之盟	-10.7149
宗國	-10.715
奪其	-10.715
立於	-10.7152
子南	-10.7155
喪而	-10.7158
5.	-10.7163
冬公如晉	-10.7168
冊	-10.7169
畆	-10.717
弑者	-10.7173
公及齊侯	-10.7174
渾	-10.718
邢丘	-10.718
失地	-10.7183
從王	-10.7185
四鄰	-10.7185
出居	-10.7185
號令	-10.7186
之美	-10.7196
比年	-10.7202
何以名	-10.7202
謂春秋	-10.7203
溢	-10.7205
隔	-10.7205
同於	-10.7212
舍中軍	-10.7219
6.1	-10.7221
聲伯	-10.7222
山在	-10.7223
若有	-10.7227
娶於	-10.7228
亂臣	-10.7228
吞	-10.7231
釐	-10.7233
北面	-10.7236
遍	-10.7236
亦甚矣	-10.7237
譏之也	-10.7244
未甞	-10.7246
篡弑	-10.7252
交兵	-10.7256
天下諸侯	-10.7256
南鄙	-10.7257
師徒	-10.7259
阜	-10.726
宜其	-10.7266
救江	-10.7267
魯國之	-10.727
可不	-10.7271
徴舒	-10.728
之首	-10.7283
審矣	-10.7284
于我	-10.7287
奔命	-10.7288
傳称	-10.7291
殱	-10.7296
鑑	-10.73
而逃	-10.7302
相接	-10.7304
下士	-10.7312
原註	-10.7312
北門	-10.7315
十有六年	-10.7317
于京師	-10.7323
三十二	-10.7323
繕	-10.7323
逾年	-10.7325
應之	-10.7328
通於	-10.7328
齊侯伐我北鄙	-10.7329
不以為	-10.7338
經無	-10.7341
愛之	-10.7342
新作	-10.7343
閔二年	-10.7344
5.2	-10.7345
之交	-10.7346
宋殤	-10.7347
己夘	-10.7348
相近	-10.735
飲至	-10.7355
割	-10.7356
所以著	-10.7357
人事	-10.7358
胥命	-10.7362
入楚	-10.7363
聖人之意	-10.7364
始有	-10.7371
若夫	-10.7376
受命於	-10.7383
彭衙	-10.7386
輅	-10.7387
季孫行父如晉	-10.7389
奬	-10.7389
縣北有	-10.7395
故名	-10.7397
城下	-10.7398
内諱	-10.7401
而自立	-10.7406
比之	-10.7408
彚纂今	-10.7408
来奔	-10.7408
之後也	-10.7411
納糾	-10.7412
訛	-10.7416
既立	-10.7419
公子翬	-10.7419
棐林	-10.742
殊㑹	-10.7421
一言	-10.7425
而經	-10.7427
大閲	-10.7428
公孫嬰齊	-10.743
逆婦	-10.7433
滅也	-10.7436
不爲	-10.7437
朝廟	-10.7442
諸夏之	-10.7445
非獨	-10.7446
劍	-10.7446
四年春	-10.7448
仰	-10.7449
攸	-10.745
見前	-10.7452
暫	-10.7453
髙氏閌曰	-10.7453
國滅	-10.7455
啇	-10.7456
洧	-10.7457
有四	-10.7459
畏楚	-10.7459
殺太子	-10.7462
勝之	-10.7462
也不書	-10.7467
哀十	-10.7467
于柤	-10.7467
晉文之	-10.7472
三年春王正月	-10.7472
公怒	-10.7472
直書其事	-10.7473
兩書	-10.7474
闇	-10.748
私意	-10.748
悟	-10.7482
斟	-10.7482
欵	-10.7482
二名	-10.7483
皆謂	-10.7483
皆可	-10.7485
故君子	-10.7486
豈以	-10.7488
華孫	-10.7489
嘉之	-10.7494
新立	-10.7494
敵國	-10.7496
以俟	-10.7498
唁公	-10.7499
同義	-10.75
何以為	-10.7503
來逆	-10.7506
子囊	-10.7509
無厭	-10.7509
仲孫何忌	-10.7509
昭四年	-10.7509
皆得	-10.7511
以譏之	-10.7511
與此	-10.7512
朝覲	-10.7514
俞	-10.7515
育	-10.7515
君弑	-10.7515
者五	-10.7515
鄂	-10.7518
教之	-10.7519
牡丘	-10.7519
11.	-10.752
使魯	-10.7521
紀叔姬	-10.7521
此何以書	-10.7531
自晉	-10.7532
大火	-10.7535
丗子	-10.7536
矣何以	-10.7537
景伯	-10.7537
杜元凱	-10.7537
䘚	-10.7538
賤者	-10.7541
不與楚	-10.7542
二百四十二年	-10.7544
所以明	-10.7546
薨于	-10.7546
盟誓	-10.7548
於公	-10.7549
四夷	-10.7559
善之也	-10.7559
甲士	-10.756
息民	-10.7561
以来	-10.7563
自然	-10.7566
祝史	-10.7566
紊	-10.7572
不書日	-10.7573
固已	-10.7574
灾	-10.7575
必欲	-10.7575
伊川	-10.758
周書	-10.7583
晉楚之	-10.7584
主㑹	-10.7586
实	-10.7588
出㑹	-10.7589
晉獻公	-10.7593
髙固	-10.7597
雍丘	-10.7599
公子瑕	-10.7603
公子牙	-10.7603
垂隴	-10.7604
貺	-10.7605
也正義曰	-10.7605
祭伯	-10.7606
羮	-10.7606
岀	-10.7611
逆祀	-10.7612
縣西南有	-10.7617
侵之	-10.7623
盛衰	-10.7623
逆王后	-10.7624
終身	-10.7627
河曲	-10.7632
來㑹葬	-10.7633
三邑	-10.7635
祝融	-10.7638
彗	-10.7639
齊慶封	-10.7639
成君	-10.7642
復扶又反	-10.7643
得立	-10.7646
曹南	-10.7654
南面	-10.7655
為鄭	-10.7662
為下	-10.7663
所取	-10.7663
蔡叔	-10.7667
東西	-10.7671
亳社	-10.7671
巾	-10.7675
竄	-10.7675
所記	-10.7676
旄	-10.7678
徐子	-10.768
何以不書	-10.7685
臣謹按	-10.7688
焉得	-10.7688
而民	-10.7691
逾	-10.7692
12.	-10.7692
十有五年春	-10.7695
公徒	-10.7699
君死	-10.7699
未之	-10.7705
之所為	-10.7706
國今	-10.7707
薪	-10.7707
根牟	-10.7708
者凡	-10.7713
危之也	-10.7714
大亂	-10.7715
二慶	-10.7717
燕人	-10.7719
戍陳	-10.7719
備矣	-10.7726
。』	-10.7727
國之大	-10.7729
胡氏謂	-10.7732
何用	-10.7734
先入	-10.7743
使者	-10.7745
朝晉	-10.7746
孔疏	-10.7746
言歸	-10.7746
縣西有	-10.775
卑者	-10.7753
此何以	-10.7757
大無麥禾	-10.7764
不弔	-10.7767
無乃不可乎	-10.7768
測	-10.7769
趙文子	-10.777
黶	-10.777
十日	-10.7771
勞民	-10.7772
諸侯大夫	-10.7773
之大者也	-10.7773
戰於	-10.7774
田獵	-10.7779
寔	-10.7781
而遽	-10.7781
曲禮	-10.7787
僖十	-10.7788
南宫	-10.7788
宋景	-10.7788
諸公	-10.779
曰然則	-10.7795
得志於	-10.7795
微國	-10.7795
公子慶父	-10.7798
濟水	-10.7801
柯陵	-10.7802
去聲	-10.7803
劉夏	-10.7803
而後言	-10.7804
與戰	-10.7805
僖元年	-10.7806
且告	-10.7808
二家	-10.7811
字也	-10.7812
而輕	-10.7814
子野	-10.7815
所逐	-10.7815
大倫	-10.7816
不識	-10.7824
賂齊	-10.7826
迷	-10.7831
合諸侯以	-10.7832
可疑	-10.7835
.6	-10.7835
浪	-10.7837
少姜	-10.7837
可考	-10.7837
衡雍	-10.7839
焉注	-10.7841
薛氏曰	-10.7845
吾君	-10.7847
公㑹晉侯宋公	-10.7848
廵	-10.7856
事有	-10.7857
使告	-10.7859
迄	-10.786
意恢	-10.7862
稻	-10.7865
歃	-10.7867
郤氏	-10.7872
之罪而	-10.7874
之文也	-10.7875
遂行	-10.7877
伯宗	-10.7879
程氏曰	-10.7879
今案	-10.7884
范文子	-10.7884
記異也	-10.7888
腹	-10.789
縮	-10.7891
五等	-10.7891
圖伯	-10.7892
絀	-10.7895
政令	-10.7896
遵	-10.7897
無私	-10.7897
十有一年春王正月	-10.7898
强弱	-10.7903
無極	-10.7905
臣聞	-10.7906
例在	-10.7908
亦不可	-10.791
百七十	-10.7912
乃復	-10.7912
文子曰	-10.7913
立是為	-10.7914
何以書譏何譏爾	-10.7914
姜戎	-10.7917
一時之	-10.7919
無能為	-10.7924
不可勝	-10.7925
執其君	-10.7926
其主	-10.7927
知其為	-10.7927
貧	-10.7928
上大夫	-10.793
談	-10.7931
鞭	-10.7933
者多	-10.7937
經意	-10.7941
曹共	-10.7945
止此	-10.7948
大都	-10.795
御戎	-10.7951
興兵	-10.7955
僖五年	-10.7955
什一	-10.7959
袁婁	-10.7959
也家氏曰	-10.7962
扞	-10.7963
乃是	-10.7963
穆王	-10.7964
必亡	-10.7966
曰夫子	-10.7969
獻捷	-10.7973
莫敖	-10.7974
來㑹	-10.7976
無足	-10.7978
濟北	-10.7979
讓國	-10.798
也周禮	-10.7981
與我	-10.7982
豈敢	-10.7983
昭十三年	-10.7983
其國家	-10.7984
堕	-10.7986
賈季	-10.7987
百二十	-10.7988
昔者	-10.7989
救蔡	-10.7989
修好	-10.7991
為人臣	-10.7993
鄭詹	-10.7994
竈	-10.7994
私邑	-10.7995
刪	-10.7996
同時	-10.7996
禭	-10.7999
元帥	-10.8
板	-10.8002
游吉	-10.8003
偽反	-10.8005
無備	-10.8005
守國	-10.8007
.	-10.8008
古文	-10.8009
5.1	-10.8009
當日	-10.8011
不貳	-10.8012
大路	-10.8016
原仲	-10.8017
出奔宋	-10.802
公之廟	-10.8026
文元年	-10.8027
殄	-10.8028
楚䖍	-10.8028
髠	-10.8028
比於	-10.803
歷	-10.803
淹	-10.8033
宜申	-10.8033
報反	-10.8033
范鞅	-10.8034
文伯	-10.8036
振旅	-10.8038
不言使	-10.8041
乾時	-10.8042
稱行人	-10.8043
天所	-10.8049
郊禘	-10.8051
在前	-10.8054
諭	-10.8058
撓	-10.806
髙傒	-10.806
黒肱	-10.8061
伐鄭而	-10.8061
亷	-10.8061
公孟	-10.8063
遂殺	-10.8065
10.1	-10.8066
佞夫	-10.8068
何言乎	-10.8071
書薨	-10.8072
桓十	-10.8074
之辠	-10.8075
夏后	-10.8077
通于	-10.808
恐其	-10.8081
以濟	-10.8082
亦猶	-10.8083
十二公	-10.8083
之業	-10.8084
不貶	-10.8088
踊	-10.809
鄭公子	-10.8094
危之	-10.8096
蜚	-10.8097
勝負	-10.8098
古者諸侯	-10.8099
臧紇	-10.81
加兵於	-10.8102
梁亡	-10.8104
子期	-10.8111
也春秋書	-10.8119
亦不能	-10.8119
適子	-10.8123
旧	-10.8128
晉靈	-10.8128
為之請	-10.8132
桷	-10.8133
致死	-10.8137
衛孫林父	-10.8138
晉厲	-10.8139
廢置	-10.814
歸魯	-10.8145
伐我北鄙	-10.8151
甲申	-10.8153
齊靈	-10.8154
圍郕	-10.8155
燠	-10.8159
歆	-10.8159
贊	-10.8163
鷁	-10.8165
伯姬之	-10.8166
十有二年春	-10.8166
檇李	-10.8166
公至	-10.8168
共仲	-10.8169
一百	-10.817
元年春	-10.8172
東周	-10.8172
疑於	-10.8173
縣西北有	-10.8178
權衡	-10.8182
不係	-10.8182
縣故城	-10.8183
知之矣	-10.8187
只是	-10.8188
不書𦵏	-10.8189
錦	-10.8193
牟婁	-10.8193
合禮	-10.8193
國之大事	-10.8194
逆者	-10.8194
膏	-10.8196
太叔	-10.82
昏姻	-10.8203
存焉	-10.8205
穆伯	-10.8209
公子結	-10.821
不當立	-10.8212
太祖	-10.8215
㑹同	-10.8216
亦必	-10.8216
聖人所	-10.8219
何以知其	-10.822
其謀	-10.8226
失正	-10.8228
億	-10.8228
之義故	-10.8229
大法	-10.823
沃	-10.8231
又見	-10.8232
殁	-10.8232
姪	-10.8232
穴	-10.8233
者彼	-10.8233
滕子來朝	-10.8233
聊	-10.8233
豈無	-10.8234
湨梁	-10.8234
子犯	-10.8235
舊好	-10.8241
男子	-10.8244
政刑	-10.8252
十有二	-10.8252
内辭也	-10.8255
子服	-10.8259
榖作	-10.8259
以字	-10.8259
矣然則	-10.8262
蔡般	-10.8263
10.2	-10.8265
夭	-10.8267
越竟	-10.8268
我先君	-10.8273
安有	-10.8278
郭公	-10.828
周礼	-10.8281
之家	-10.8286
獻舞	-10.8287
滅紀	-10.8291
無政	-10.8291
不一	-10.8292
李氏	-10.8292
奔走	-10.8292
大夫專	-10.8294
河上	-10.8294
漷	-10.8294
毫	-10.8295
恱	-10.8299
王父	-10.83
佞	-10.83
人君之	-10.83
周大夫	-10.8308
郑玄云	-10.8311
未賜族	-10.8312
自楚	-10.8315
以禦	-10.8318
内外之	-10.8318
秋大水	-10.8319
姜姓	-10.832
結好	-10.832
長子	-10.832
對曰臣	-10.8323
違命	-10.8326
康侯胡氏曰	-10.8326
背晉	-10.8327
祝柯	-10.8329
參盟	-10.8329
則無以	-10.833
浩	-10.8335
婦姜	-10.834
帝丘	-10.834
豕韋	-10.834
不度	-10.834
潁川	-10.8341
呉師	-10.8341
宋督	-10.8343
小事	-10.8343
開封府	-10.8348
狐偃	-10.8348
西宫	-10.8351
其賢	-10.8351
亦同	-10.8351
往來	-10.8361
宋災故	-10.8363
其事而	-10.8365
入齊	-10.8366
燬	-10.8367
與㑹	-10.8368
豕	-10.8369
姞	-10.837
之願也	-10.837
宣榭	-10.837
7	-10.8372
矣且	-10.8377
公榖作	-10.8378
何以不名	-10.838
不疑	-10.8382
之心而	-10.8383
清丘	-10.8383
始書	-10.8383
各自	-10.8384
命於天子	-10.8389
不卒	-10.8393
披	-10.8398
晉獻	-10.8399
袒	-10.8405
庚輿	-10.8406
亨	-10.8407
以地	-10.8407
之言曰	-10.8409
送女	-10.8409
傳例曰	-10.8411
書其名	-10.8414
為利	-10.8414
問焉	-10.8415
百六十	-10.8419
曹羈	-10.8425
仁義	-10.8426
汪氏	-10.8431
搏	-10.8433
酈	-10.8435
三十三	-10.8435
穿鑿	-10.8437
為非禮	-10.8437
不可為	-10.8438
蠻荆	-10.8438
誤作	-10.8444
弗克納	-10.8444
伯父	-10.8447
不可復	-10.8449
雞父	-10.845
者是也	-10.8451
又非	-10.8454
使臣	-10.8456
子蟜	-10.8464
踈	-10.8466
轅濤塗	-10.8466
聖王	-10.8466
樂大心	-10.8469
采地	-10.847
晉士鞅	-10.847
六日	-10.847
伐人	-10.8474
例時	-10.8476
亡乎	-10.8478
此所謂	-10.8483
公子雍	-10.8485
微矣	-10.8492
巫臣	-10.8494
乙夘	-10.8494
榮叔	-10.8494
嵗首	-10.8495
既不能	-10.8501
中山	-10.8502
傳例	-10.8502
廢立	-10.8505
羣公	-10.8511
元公	-10.8512
連兵	-10.8514
時事	-10.8515
陳哀	-10.8518
二國之	-10.8522
舎之	-10.8522
發傳	-10.8526
隠元年	-10.853
康公	-10.853
不止	-10.853
三十三年	-10.8536
所以别	-10.8537
衣服	-10.8537
蒯瞶	-10.8538
超	-10.854
勑	-10.8545
諸侯之事	-10.8548
以為君	-10.855
繼書	-10.8551
縣境	-10.8555
簡王	-10.8556
宗社	-10.8561
三家之	-10.8562
六年春王正月	-10.8562
天下無	-10.8564
不思	-10.8566
東鄙	-10.8567
但以	-10.8569
鞌之戰	-10.857
臘	-10.8571
公朝于王所	-10.8574
噫	-10.8574
黒壤	-10.8575
誦	-10.8576
随	-10.8576
岸	-10.8576
毗	-10.8577
不和	-10.8577
之為言	-10.8585
成季	-10.8585
詩人	-10.8585
陳宣	-10.8588
所以正	-10.859
此獨	-10.8599
楚王	-10.86
縣今	-10.8602
子鮮	-10.8605
爲君	-10.8606
為首	-10.8607
揮	-10.8608
巨	-10.8611
艮	-10.8612
鄭莊公	-10.8613
趙氏鵬飛曰	-10.8614
繼世	-10.8614
士燮	-10.8616
詁	-10.8616
謝氏曰	-10.8618
垂戒	-10.8621
則書之	-10.8621
無宇	-10.8622
雨雪	-10.8625
曰吾聞	-10.8626
之類皆	-10.8627
為楚所	-10.8633
衞地	-10.8633
先儒謂	-10.8634
伐鼓	-10.8637
不特	-10.8637
逆后	-10.8637
得罪	-10.8638
衛國	-10.8641
旂	-10.8642
之端	-10.8644
及齊師戰	-10.8644
及鄭平	-10.8646
彘	-10.8646
檢	-10.8646
曰諾	-10.8649
貴者	-10.865
阪	-10.8651
本意	-10.8651
意在	-10.8656
也陳氏曰	-10.8658
而用之	-10.866
無惡	-10.8661
稱國以弑	-10.8663
貢賦	-10.8663
不知所	-10.8668
子路	-10.8668
寘諸	-10.8672
宰咺	-10.8672
覊	-10.8681
哀侯	-10.8682
書救	-10.8683
本義	-10.8683
潜	-10.8683
歜	-10.8684
喪禮	-10.869
杖	-10.869
不詳	-10.8691
命卿	-10.8693
印	-10.8698
其所為	-10.8701
宜矣	-10.8703
賢君	-10.8704
以國氏	-10.8705
帥諸侯	-10.8707
宋公陳侯	-10.8707
未陳	-10.8709
同文	-10.8711
令諸侯	-10.8711
侵我	-10.8711
姊妹	-10.8714
或云	-10.8714
狗	-10.8717
皆稱人	-10.8719
賛	-10.8719
揆	-10.8721
水名	-10.8721
鄭伯使	-10.8723
止公	-10.8724
毁之	-10.8726
汶	-10.8727
舉國	-10.8731
晝	-10.8742
觀社	-10.8747
大雨雹	-10.8749
縛	-10.8749
樓	-10.875
夀夢	-10.8753
劉單	-10.8758
郯子	-10.8758
之側	-10.8761
一戰	-10.877
身為	-10.8779
成禮	-10.8781
文二年	-10.8781
啖	-10.8781
楯	-10.8783
之所在	-10.8785
揜	-10.8786
衞侯鄭伯曹伯	-10.8787
冥	-10.8787
蔡昭	-10.8788
芒	-10.8788
姪娣	-10.8791
之學	-10.8792
英	-10.8792
復見	-10.8792
未幾	-10.8793
還自晉	-10.8794
禹貢	-10.88
其理	-10.8806
不忌	-10.8806
公如京師	-10.8806
其女	-10.8811
曽孫	-10.8813
異辭	-10.8817
子蕩	-10.8818
魴	-10.8819
來伐	-10.8821
翬帥師	-10.8821
確	-10.8821
深切著明	-10.8821
廏	-10.8822
墟	-10.8823
襄二十	-10.8826
公不與盟	-10.8834
之母弟	-10.8835
公羊穀梁	-10.8837
東海	-10.8839
絶之也	-10.8839
匡王	-10.8842
人主	-10.8842
為此盟	-10.8842
大雨雪	-10.8852
駁	-10.8857
悔過	-10.8857
寤	-10.8858
於季氏	-10.8859
當然	-10.8861
費無極	-10.8865
為于偽反	-10.8867
楚共	-10.8869
坐視	-10.8871
敗楚	-10.8872
舒庸	-10.8872
事楚	-10.8875
赴以名	-10.888
取之也	-10.8883
弭兵	-10.8887
非其所	-10.8888
迨	-10.8891
南子	-10.8892
閨	-10.8895
􁋎	-10.8895
不能制	-10.8896
藏之	-10.8897
山林	-10.8898
湫	-10.8899
晉平公	-10.8899
逵	-10.89
郤宛	-10.8905
祝丘	-10.8906
8	-10.8907
月日	-10.891
常禮	-10.8911
鄭厲	-10.8913
蘇氏曰	-10.8918
夏陽	-10.8926
伐喪	-10.8929
如齊逆女	-10.893
長勺	-10.8931
漳	-10.8932
成十五年	-10.8932
詣	-10.8933
諸臣	-10.8934
題	-10.8937
極矣	-10.8944
所殺	-10.8944
惡乎	-10.8947
▁榖梁傳	-10.8949
上辛	-10.895
來赴	-10.8953
是言	-10.8956
矛	-10.8963
欲立之	-10.8966
徑	-10.8967
不勝其	-10.8972
附楚	-10.8975
不待貶絶而	-10.8977
從赴	-10.8985
沂州	-10.8987
遂事	-10.899
邿	-10.8994
縣南有	-10.8999
摯	-10.9001
貸	-10.9001
諼	-10.9003
文侯	-10.9007
有罪矣	-10.9007
遄	-10.9009
田賦	-10.901
涇	-10.9013
魏舒	-10.9014
子庚	-10.9014
昆吾	-10.9014
相類	-10.9015
石門	-10.9015
以大義	-10.9021
吕氏	-10.9022
判	-10.9037
城中城	-10.904
鳳	-10.9042
晉霸	-10.9043
瑣	-10.9044
待命	-10.9044
献	-10.905
淮南	-10.9052
信義	-10.9056
姓氏	-10.9056
公㑹宋公	-10.9059
南郡	-10.9063
子尾	-10.9064
太公	-10.9065
寳玉大弓	-10.9069
微子	-10.9072
嫡子	-10.9072
叔還	-10.9073
爕	-10.9078
嘆	-10.9078
頑	-10.908
戰勝	-10.9081
四十里	-10.9084
禮諸侯	-10.9089
而名之	-10.9092
定矣	-10.9093
小寢	-10.9093
以示譏	-10.9094
朝魯	-10.9094
天變	-10.9096
曹伯來朝	-10.9096
先至	-10.9097
義理	-10.9103
陽州	-10.9107
知武子	-10.9107
所用	-10.9108
冡	-10.911
子旗	-10.9111
綽	-10.9116
先王之制	-10.9117
憑陵	-10.9117
而不服	-10.9118
磬	-10.9119
四日	-10.9122
之常也	-10.9123
伐邢	-10.9124
貶而稱人	-10.9127
1	-10.913
人之國	-10.9131
公子棄疾	-10.9131
禮天子	-10.9131
為之諱	-10.9134
3.2	-10.9138
某人	-10.9147
泰山孫氏曰	-10.9149
蒼	-10.9151
後來	-10.9152
熙	-10.9152
泄	-10.9154
病矣	-10.9154
夫人姜氏如齊	-10.9156
奕	-10.9156
僂	-10.9157
其稱人何	-10.9158
郊公	-10.916
閔之	-10.916
亦可以	-10.9168
昆	-10.9176
將下軍	-10.9178
宣十二年	-10.918
不可知	-10.9189
鮒	-10.9189
澨	-10.9192
樵	-10.9194
未嘗不	-10.9196
陳侯鄭伯	-10.9197
無罪也	-10.9198
子華	-10.9202
已絶	-10.9202
君臣之分	-10.9203
髙祖	-10.9205
報復	-10.9205
稱婦	-10.921
3.	-10.921
陪	-10.9211
内臣	-10.9212
奔宋	-10.9217
愚案	-10.9217
齊侯鄭伯	-10.9222
孫良夫	-10.9224
秦伯卒	-10.9226
楚大夫	-10.9226
兵力	-10.9227
葉氏曰	-10.9234
魯卿	-10.9239
周旋	-10.9246
癸夘	-10.9254
然後知	-10.9254
愛其	-10.9257
諱公	-10.9258
呉楚	-10.926
稔	-10.9262
髠頑	-10.9263
五百	-10.9264
瓦屋	-10.9267
僖四年	-10.9268
許嫁	-10.9269
亮反	-10.9269
城縁陵	-10.9272
劉敞曰	-10.9274
宣十年	-10.9278
也是時	-10.9279
終於	-10.9281
㔻鄭	-10.9282
趙鞅帥師	-10.9282
利害	-10.9286
子家子	-10.9287
佾	-10.9289
系	-10.9294
三望	-10.9297
翩	-10.9297
狥	-10.9299
髮	-10.9301
茷	-10.9302
輦	-10.9302
耳目	-10.9302
芻	-10.9304
諺	-10.9304
婦道	-10.9305
正義曰此	-10.9305
甯殖	-10.9306
乱	-10.9307
凡三	-10.9311
荀首	-10.9312
刘	-10.9313
明徳	-10.9314
卒于師	-10.9315
强大	-10.9327
丁夘	-10.9329
無氷	-10.933
齊侯衞侯	-10.9332
兩事	-10.9332
于扈	-10.9341
而走	-10.9347
執宋公	-10.9351
朔日	-10.9354
之黨也	-10.9355
盡矣	-10.9356
縠	-10.9356
適晉	-10.9357
新築	-10.9359
簒弑之	-10.9361
陜	-10.9371
八佾	-10.9373
踰時	-10.9374
衛獻	-10.9375
箴	-10.9376
庀	-10.9377
抱	-10.9377
公孫蠆	-10.9379
無忌	-10.9379
7.1	-10.9384
胡沈	-10.939
晉命	-10.939
.7	-10.939
喪服	-10.9392
安得不	-10.9395
不知何	-10.9396
納諸	-10.9401
僭王	-10.9401
故書之	-10.9402
納賂	-10.9404
而巳	-10.9408
㳺	-10.941
對曰君	-10.9411
不時也	-10.9412
憫	-10.9412
扈之盟	-10.9412
夷末	-10.9415
臧武仲	-10.9416
次國	-10.9417
亦作	-10.9418
可得而	-10.9419
取國	-10.9421
使民	-10.9426
劉炫云	-10.9438
禰	-10.9439
公鉏	-10.9439
所自出	-10.944
內	-10.9442
畏其	-10.9447
甗	-10.9448
隣國	-10.9449
傳聞	-10.9454
壻	-10.9455
鴻	-10.9456
城門	-10.9457
許男曹伯	-10.9457
桓五年	-10.9458
録其	-10.946
藻	-10.9461
而動	-10.9462
士伯	-10.9469
成功	-10.9471
毁其	-10.9472
讞曰	-10.9477
北戎	-10.9478
于郎	-10.9484
戴公	-10.9485
斥言	-10.9486
鋒	-10.9487
誼	-10.9487
穀作	-10.9492
司宼	-10.9493
勤王	-10.9494
秦人伐晉	-10.9494
石惡	-10.9495
衰矣	-10.9496
名實	-10.9498
記曰	-10.95
深罪	-10.9504
致伐	-10.9505
公圍成	-10.9505
之名也	-10.9507
尚未	-10.9509
欲得	-10.9514
西鄙	-10.9515
弑立	-10.9526
凡例	-10.9527
所引	-10.9527
不亦難乎	-10.9527
棼	-10.9528
宣元年	-10.9529
賣	-10.953
柳	-10.953
鯀	-10.9531
法度	-10.9531
子胥	-10.9531
誇	-10.9531
居于鄆	-10.9532
再娶	-10.9534
昆弟	-10.9535
當誅	-10.9537
齊衞	-10.9537
谿	-10.9538
梁丘	-10.9542
集解	-10.9545
㑹于扈	-10.9549
桓十五年	-10.955
其國都	-10.9553
虞虢	-10.9556
汝南	-10.9558
其詞	-10.956
用民力	-10.9561
陽氣	-10.9562
今改正	-10.9564
梓慎	-10.9565
臯鼬	-10.9565
壓	-10.9567
城北	-10.9568
隕霜	-10.9569
絲	-10.9569
能救	-10.9569
之主也	-10.9569
宣八年	-10.957
李氏廉曰	-10.9572
修徳	-10.9574
元妃	-10.958
圍齊	-10.9588
有所不	-10.9592
㑹𦵏	-10.9593
家氏鉉翁曰	-10.9593
朝禮	-10.9597
求金	-10.96
世變	-10.96
左氏載	-10.9601
舛	-10.9605
亞	-10.9606
孫氏復曰	-10.9611
頃王	-10.9611
諸侯莫	-10.9613
狄滅	-10.9622
北燕伯	-10.9624
如此則	-10.9631
也汪氏曰	-10.9633
来歸	-10.9636
二公子	-10.9638
不言出	-10.964
按此	-10.964
屈建	-10.964
周衰	-10.9642
五世	-10.9643
鶉火	-10.9646
亾	-10.9649
趙簡子	-10.965
叔孫昭子	-10.9653
天下後世	-10.9653
非伯討	-10.9655
其徒	-10.9658
周地	-10.966
貴之也	-10.9661
天人	-10.9663
則可以	-10.9667
其君者	-10.9669
則否	-10.9676
徐州	-10.9679
取鄫	-10.9679
此聖人	-10.968
强暴	-10.968
受命于	-10.9685
溪	-10.9688
四人	-10.9689
叔帶	-10.969
必有所	-10.9692
服虔云	-10.9698
新軍	-10.9701
失諸侯	-10.9702
姒氏	-10.9707
杜氏云	-10.9707
文七年	-10.9712
忘親	-10.9712
被弑	-10.9715
歸之于	-10.9715
東郡	-10.9716
閭丘	-10.9717
免牛	-10.9718
公㑹諸侯	-10.972
南方	-10.9721
不以名	-10.9722
抽	-10.9724
想	-10.9725
猾夏	-10.9727
星孛	-10.9727
善道	-10.9741
軍政	-10.9745
稱及	-10.9746
安定	-10.9746
莫大焉	-10.9748
聴命	-10.9754
齊人歸	-10.9756
彼注云	-10.9757
以表	-10.9757
犒	-10.9759
䕫	-10.976
菟	-10.9761
之急	-10.9761
衮	-10.9764
外之也	-10.9764
渡	-10.9764
裂	-10.9764
时	-10.9767
做	-10.9767
豎牛	-10.9767
書卒者	-10.9768
処	-10.977
之術	-10.9771
三卜	-10.9771
繼事	-10.9779
成十八年	-10.978
文九年	-10.9781
簡書	-10.9785
一句	-10.9789
此春秋所以	-10.9792
▁汪氏克寛曰	-10.9792
者非也	-10.9793
盟于洮	-10.9794
得意	-10.9797
道路	-10.9799
華臣	-10.98
握	-10.98
闢	-10.9801
聲罪致討	-10.9802
諸侯不得	-10.9802
不毁	-10.9803
升陘	-10.9805
公子宋	-10.9806
此意	-10.9806
榖梁以為	-10.9808
之境	-10.9815
而況	-10.9823
鄟	-10.9826
張氏洽曰	-10.9827
于洮	-10.9829
晉郤缺	-10.9833
所據	-10.9836
賜族	-10.9839
汰	-10.984
葬我君	-10.9841
日月之	-10.9842
北鄙	-10.9843
閼	-10.9846
今考	-10.9847
受命而	-10.985
及其大夫	-10.9851
略之也	-10.9852
貶稱人	-10.9857
旅見	-10.9857
公至自伐	-10.9861
三十五	-10.9861
權在	-10.9863
以疾	-10.9864
示威	-10.9865
衛靈	-10.9866
3.1	-10.9868
觀兵	-10.9869
入滑	-10.9871
自古	-10.9883
後同	-10.9885
是嵗	-10.9886
耆	-10.9889
四海	-10.9891
納子糾	-10.9898
近楚	-10.99
納朔	-10.99
一例	-10.9913
于温	-10.9915
蹈	-10.9918
憑	-10.9919
不設備	-10.992
毅	-10.992
懸	-10.9921
㫁	-10.9921
恃其	-10.9923
也雖然	-10.9923
錫之	-10.9924
百五十	-10.9928
諸姬	-10.9928
此條	-10.9933
潞氏	-10.9937
取濟西田	-10.9937
沈尹	-10.9946
杞子	-10.9946
荀呉	-10.9947
求婦	-10.9948
絕	-10.9957
始祖	-10.9957
明堂位	-10.9961
禮樂征伐	-10.9963
同盟于幽	-10.9965
政在大夫	-10.9966
所以深	-10.9967
刖	-10.9967
子瑕	-10.9974
書于䇿	-10.9976
滅黄	-10.9978
告急	-10.9986
天子大夫	-10.9989
魯郊	-10.999
高固	-10.9993
主名	-11.0001
寕	-11.0002
而廢	-11.0003
奠	-11.0005
埋	-11.0006
杜氏謂	-11.0006
職貢	-11.0006
而行之	-11.0013
來戰	-11.0015
城杞	-11.0023
公穀作	-11.0025
哉且	-11.0026
邾婁子	-11.0026
不可通	-11.0029
故春秋書	-11.0029
初獻六羽	-11.0034
之恥也	-11.0034
文十二年	-11.0035
踵	-11.004
赫	-11.0042
潦	-11.0043
次于陘	-11.0047
責魯	-11.0052
見討	-11.0054
反又音	-11.0059
齊人來歸	-11.006
長狄	-11.0063
禀	-11.0065
公榖皆	-11.0066
黄父	-11.0066
紀伯姬	-11.0067
五年春王正月	-11.0067
水火	-11.0067
歸祊	-11.007
季孫曰	-11.0071
境内	-11.0073
加兵	-11.0076
所稱	-11.0077
别種	-11.0078
非王命	-11.0081
諜	-11.0082
不禮焉	-11.0083
滯	-11.0086
宏	-11.0087
向戍	-11.0089
尽	-11.0089
華向	-11.0092
鄔	-11.0092
春夏	-11.0093
死生	-11.0094
屬辭	-11.0099
三年之喪	-11.0108
2.1	-11.0112
修春秋	-11.0118
錮	-11.0121
禳	-11.0122
怯	-11.0123
稟	-11.0125
款	-11.0125
祚	-11.0126
厲王	-11.0127
醴	-11.0129
于僞反	-11.0129
鄸	-11.013
巷	-11.0131
必待	-11.0133
主夏盟	-11.0138
受盟于	-11.0139
入曹	-11.0143
十有六年春王正月	-11.0148
史文	-11.0152
不日者	-11.0152
猶言	-11.0158
未可知也	-11.0163
品	-11.0169
陣	-11.0169
以别之	-11.0172
專封	-11.0172
滅人之國	-11.0174
彘子	-11.0175
韓子	-11.0177
文十四年	-11.018
伐虢	-11.0183
非君命	-11.0183
觧云	-11.0187
衛侯朔	-11.0187
字林	-11.0191
劉向	-11.0193
憖	-11.0193
解經	-11.0194
善善	-11.0194
爭國	-11.0199
不及此	-11.02
出竟	-11.0201
賻	-11.0201
幾亡	-11.0202
弗從	-11.0202
廧咎如	-11.0202
蝝	-11.0203
武父	-11.0203
濼	-11.0205
銳	-11.0205
鸜鵒	-11.0207
觀從	-11.0208
殉	-11.0208
銘	-11.0211
安民	-11.0212
譙	-11.0215
猶存	-11.0215
十四年春	-11.0218
㔻	-11.0219
子亹	-11.022
韓魏	-11.0225
二十有八年	-11.0227
賈逵云	-11.0233
有言曰	-11.0234
衛君	-11.0234
氏族	-11.0237
發明	-11.0239
三年春	-11.0241
朝正	-11.0249
不赦	-11.025
觀魚	-11.025
憲	-11.0251
穎	-11.0251
臣弑君	-11.0257
知其不可	-11.026
而與之盟	-11.0267
齊景公	-11.0274
之所由	-11.0274
許靈公	-11.0286
大蒐于比蒲	-11.029
肄	-11.029
觸	-11.0291
文十五年	-11.0291
五廟	-11.0291
痤	-11.0292
卿不書	-11.0293
城邑	-11.0294
誌	-11.0294
獻㨗	-11.0295
犨	-11.0296
如是則	-11.0297
當作	-11.0303
如晋	-11.0304
師衆	-11.0306
西戎	-11.031
以示貶	-11.0312
世世	-11.0314
而使之	-11.032
不須	-11.0324
死亡	-11.0327
賊不討	-11.0328
家父	-11.033
隱元年	-11.033
馭	-11.0333
措	-11.0333
入于櫟	-11.0337
攘夷狄	-11.0337
靳	-11.0339
武叔	-11.0345
何以知	-11.0349
懼楚	-11.0355
大饑	-11.0358
也胡安國曰	-11.0358
攷之	-11.0359
從中國	-11.0362
外災	-11.0366
梁國	-11.0369
歟曰	-11.037
吿	-11.037
愎	-11.0371
殪	-11.0372
曁	-11.0374
將上軍	-11.0374
9	-11.0374
鴆	-11.0377
銜	-11.0377
臨淄	-11.0378
蔿	-11.0381
列于	-11.0382
祭天	-11.0383
昭五年	-11.0389
隠桓	-11.0391
襄二十九年	-11.0398
秋大雩	-11.0398
筮之	-11.0399
不佞	-11.0404
畿	-11.0408
拯	-11.0409
晨	-11.0409
昔陽	-11.0412
粢盛	-11.0414
水經	-11.0414
洪	-11.0416
拠	-11.0418
召諸侯	-11.0421
陳氏傳曰	-11.0423
大室	-11.0424
取向	-11.0426
可勝	-11.0427
疾病	-11.0429
長歴	-11.0433
可畏	-11.0441
2.	-11.0443
假令	-11.0444
予奪	-11.0445
本國	-11.0454
孚	-11.0454
何以書記異也	-11.0457
以著其罪	-11.0458
而誅之	-11.046
所以尊	-11.0463
煬	-11.0464
得免	-11.0468
稱人以殺	-11.047
九世	-11.047
僖十五年	-11.0472
鄶	-11.0473
未知其	-11.0475
以示義	-11.048
與公盟	-11.0485
鄭良霄	-11.0487
羯	-11.0496
仍叔之子	-11.0499
鄟陵	-11.0501
電	-11.0502
城南	-11.0503
郇	-11.0506
曲阜	-11.0508
韓獻子	-11.0508
强楚	-11.0515
量力	-11.0517
不予	-11.0522
齊國夏	-11.0522
高厚	-11.0525
臣聞之	-11.0526
髙平	-11.053
邀	-11.0535
徃㑹	-11.0537
改卜牛	-11.0538
掃	-11.0539
秋公至自㑹	-11.054
蜃	-11.0541
瓜	-11.0543
員	-11.0544
固當	-11.0545
藪	-11.0546
郤錡	-11.0547
改過	-11.0552
楚伐鄭	-11.0555
無别	-11.0559
分别	-11.0562
高子	-11.0567
小邾子來朝	-11.0568
紏	-11.0568
好惡	-11.0569
閔僖	-11.0577
刋	-11.0585
闈	-11.0586
吐	-11.0586
寗殖	-11.0587
衰絰	-11.0588
東陽	-11.059
故執不知問	-11.0591
與音預	-11.0594
嗣是為	-11.0594
要盟	-11.0597
季平子	-11.0603
梁山崩	-11.0603
紀事	-11.0607
兵革	-11.0609
邳	-11.0611
非其罪	-11.0612
啖氏	-11.062
反徐	-11.0622
伋	-11.0623
公在楚	-11.0624
于大廟	-11.0625
公子偃	-11.0627
九月大雩	-11.0628
兩下相殺	-11.0628
畏晉	-11.063
菅	-11.0632
蒐狩	-11.0635
什	-11.0635
昭侯	-11.0638
冡宰	-11.0638
桓文之	-11.0642
采邑	-11.0661
瘠	-11.0666
非其罪也	-11.0667
喪娶	-11.0671
鄭伐宋	-11.0672
正其罪	-11.0675
歂	-11.0677
酬	-11.0677
太伯	-11.0679
敢告	-11.0679
附錄	-11.068
惡惡	-11.0682
莒魯	-11.0687
食邑	-11.0689
而不見	-11.069
把伯姬	-11.0695
蘇氏	-11.0701
河北	-11.0702
十二日	-11.0704
茅戎	-11.0705
於京師	-11.0707
春分	-11.0707
此例	-11.0709
百八十	-11.071
熾	-11.0712
怠於	-11.0712
闕文也	-11.0713
挐	-11.0713
沿	-11.0716
以此見	-11.0716
澆	-11.0718
璋	-11.0719
孟春	-11.072
下大夫	-11.0721
潔	-11.0721
十五日	-11.0722
跪	-11.0723
吳越	-11.0729
三郤	-11.0739
父命	-11.0739
復封	-11.075
祀周公	-11.075
失職	-11.0752
于鍾離	-11.0754
杞伯姬來	-11.0758
新君	-11.0759
僖三十三年	-11.0764
在其中	-11.0764
豳	-11.0767
大棘	-11.0768
漢儒	-11.0768
往往	-11.077
桓三年	-11.0774
甘心	-11.0785
皆非也	-11.0791
侵魯	-11.0792
九日	-11.0793
不與焉	-11.0795
非也若	-11.0797
紀侯大去其國	-11.0798
譴	-11.0798
世族譜	-11.08
躋僖公	-11.08
際	-11.08
僭天子	-11.0803
纍	-11.0803
又東經	-11.0807
石買	-11.0808
各一	-11.081
韋昭	-11.0822
所獲	-11.0823
桓宣	-11.0824
侵地	-11.0826
何患	-11.0826
效死	-11.083
風俗	-11.0834
玩	-11.0841
百一十	-11.0841
暗	-11.0844
遲速	-11.0849
寵愛	-11.0858
先都	-11.086
服䖍曰	-11.0861
謹於	-11.0862
未成君	-11.0863
可以見	-11.0872
釋文	-11.0872
五霸	-11.0874
椒舉	-11.0876
伯夷	-11.0879
當時諸侯	-11.0879
自晉歸	-11.0879
成三年	-11.0884
者何疏	-11.0885
犀	-11.0886
莱	-11.0888
儲	-11.0888
橋	-11.0889
薳罷	-11.0891
圻	-11.0893
御廩	-11.0893
梅	-11.0893
復讐	-11.0894
不敏	-11.0895
未踰年之君	-11.0898
不復見	-11.0906
猶能	-11.0908
莊十年	-11.0919
嚴矣	-11.0923
禍福	-11.0925
不能用	-11.093
滕侯	-11.0932
鋭	-11.0933
也無成是無孟氏也子	-11.0936
婢	-11.0938
卓子	-11.0938
柴	-11.094
逺近	-11.0941
去其國	-11.0952
不可廢	-11.0957
朝天子	-11.0958
以此知	-11.0964
漢水	-11.097
杜預注	-11.0972
屬詞	-11.0973
㛰	-11.0973
不達	-11.0974
孔丘	-11.0977
也何以不言	-11.0977
共音恭	-11.0982
鄆潰	-11.0984
說文云	-11.0985
腹心	-11.0988
何待	-11.0988
暴虐	-11.0995
制度	-11.0996
與否	-11.0996
至自晉	-11.0998
叛君	-11.1004
宋元	-11.1008
戍周	-11.1012
之屬是也	-11.1015
擅興	-11.1018
䧟	-11.1019
兄弟之國	-11.1019
郟敖	-11.1019
暮	-11.102
恤民	-11.102
蕩意諸	-11.1024
陳人蔡人	-11.1026
懿子	-11.1027
春秋之書	-11.1029
書至者	-11.103
士蒍	-11.1038
遷許	-11.1038
申叔	-11.104
夷昧	-11.1041
扶又	-11.1044
寔來	-11.1044
陵弱	-11.1045
入其國	-11.1046
策書	-11.1047
尤甚	-11.105
四十年	-11.1051
未服	-11.1054
舟師	-11.1058
哀元年	-11.1059
伯者之	-11.106
咨	-11.106
㓂	-11.1062
子帶	-11.1063
繼室	-11.1067
受封	-11.1068
汙	-11.1068
冉有	-11.1069
五鹿	-11.1073
著例	-11.1073
繞	-11.1075
自諸侯出	-11.1076
百世	-11.108
求成于	-11.1083
常法	-11.1086
此春秋之	-11.1089
知其非	-11.1089
不協	-11.1091
榖梁子曰	-11.1093
有國者	-11.1095
隂氣	-11.1099
地闕	-11.1107
叢	-11.1109
臾駢	-11.1109
楚公子嬰齊	-11.111
記云	-11.1111
希	-11.1111
黼	-11.1112
公孟彄	-11.1113
湛	-11.1116
伺	-11.1117
爵命	-11.112
而不顧	-11.1133
聖賢	-11.1135
居喪	-11.1136
反哭	-11.1138
西方	-11.1139
不能守	-11.1147
昭十二年	-11.1147
王季子	-11.1149
入食限	-11.1149
幸其	-11.1149
蕭叔	-11.1155
㑹齊侯宋公陳侯	-11.1156
収	-11.1156
珠	-11.1159
齊東野人之	-11.1161
矣是故	-11.1162
寒暑	-11.1163
竇	-11.1165
宋人殺其大夫	-11.1167
削而不書	-11.1169
公子馮	-11.1169
齊頃	-11.117
違禮	-11.1177
少師	-11.1178
縣界	-11.1185
百九十	-11.1191
四卜	-11.1198
梁山	-11.1201
償	-11.1202
聃	-11.1203
伯州犂	-11.1205
卬	-11.1206
彌牟	-11.1206
股	-11.1208
大率	-11.121
尊王室	-11.1216
事大國	-11.1217
召王	-11.1225
于首止	-11.1225
卿佐	-11.1225
陳靈公	-11.1225
天之所	-11.1226
相親	-11.1232
丁卯	-11.1236
來乞師	-11.124
定六年	-11.1243
所以示	-11.1244
深責	-11.1245
葬我小君	-11.1249
黨氏	-11.125
秘	-11.125
巻	-11.125
彦	-11.1256
向魋	-11.1258
昏禮	-11.1261
監本	-11.1266
榖梁謂	-11.1269
仗	-11.1278
報聘	-11.1282
國之政	-11.1285
少康	-11.1288
躋	-11.1288
甚之也	-11.1289
不言滅	-11.129
衰世	-11.1295
直云	-11.1295
氾	-11.1297
笄	-11.1298
嚳	-11.1299
槖	-11.1299
鴈	-11.1299
伊尹	-11.13
臭	-11.1301
梗	-11.1301
魄	-11.1307
爲政	-11.1311
蝝生	-11.1312
齊威	-11.1316
罃	-11.1316
晉趙武	-11.1318
累上	-11.133
紛紛	-11.1335
髙克	-11.1337
身死	-11.134
疲	-11.1342
賊殺	-11.1342
衆仲	-11.1344
晉趙鞅謂邯鄲午曰歸我衞貢五百家	-11.1345
榆	-11.1349
名字	-11.1354
盗殺	-11.1354
辨疑	-11.1356
孫蒯	-11.1356
胡氏以為	-11.1357
與之戰	-11.1364
氏之族	-11.1366
昭七年	-11.137
外域	-11.1373
以是知	-11.1376
季姜	-11.1378
内難	-11.1383
鐵	-11.1383
瞽	-11.1386
司馬法	-11.1386
墠	-11.1387
秋八月大雩	-11.1387
歸于酅	-11.1388
隸	-11.1389
莽	-11.139
来盟	-11.139
途	-11.1391
隐公	-11.1394
三𫝊	-11.1395
春秋之例	-11.1398
始通	-11.1402
大夫帥師	-11.1403
盜殺	-11.1406
求援	-11.1411
何以得	-11.1416
澄曰	-11.1419
相攻	-11.1428
騐	-11.1428
得之矣	-11.1429
毀	-11.1429
黨惡	-11.1431
耀	-11.1432
俯	-11.1432
甥舅	-11.1432
擬	-11.1433
駢	-11.1434
飬	-11.1435
萬民	-11.1435
荐	-11.1435
成齊人必至于北門且成孟氏之保障	-11.1437
自墮之	-11.144
亊	-11.1442
驩	-11.1443
足以見	-11.1443
稱人以執	-11.1444
附錄左傳	-11.1444
相遇	-11.1444
褚師	-11.1446
以此為	-11.1447
雜記	-11.1452
數十	-11.1461
文十八年	-11.1465
祖父	-11.1472
治亂	-11.1474
齊國書	-11.1474
解云正以	-11.1475
交相	-11.1476
混	-11.1479
北杏之㑹	-11.1479
君臣同	-11.148
不共戴天	-11.148
賢之也	-11.148
訃	-11.1482
郜鼎	-11.1483
偽不知我將不墮冬十二月公圍成弗克	-11.1484
非仲由	-11.1484
敗楚師	-11.1493
▁公羊傳	-11.1499
直𨽻	-11.1502
中原	-11.1502
三十四	-11.1508
子家子曰	-11.1513
武帝	-11.1515
天子命	-11.152
改月	-11.1522
鄭棄其師	-11.1523
宗廟社稷	-11.1524
貽	-11.1526
料	-11.1526
孫州仇	-11.1526
築郿	-11.1527
科	-11.1527
蒐于紅	-11.1528
貍	-11.1528
父兄皆曰不可衞是以為邯鄲	-11.1532
北斗	-11.1532
仲幾	-11.1534
紀綱	-11.1548
乾谿	-11.1552
朔日食	-11.1559
叔鞅	-11.1562
棟	-11.1567
夷伯	-11.1569
後漢志	-11.1571
庶孽	-11.1573
楚子囊	-11.1575
歃血	-11.1575
難乃旦反	-11.1577
夏姬	-11.1577
嚚	-11.1578
去其險爾	-11.1578
襲魯之事	-11.1578
檀	-11.1579
郈公山不狃	-11.1579
熒	-11.158
仗義	-11.1581
武功	-11.1581
之甚者	-11.1583
審矣按	-11.1585
用郊	-11.1585
諸侯之上	-11.1587
制故因	-11.1592
文宣	-11.16
享國	-11.16
也若夫	-11.1601
死節	-11.1604
襄昭	-11.1605
不親迎	-11.1605
程子傳	-11.1612
睽	-11.1615
莒邑	-11.1616
攘楚	-11.1618
蔇	-11.162
哲	-11.162
魯濟	-11.1621
入其郛	-11.1622
臧宣叔	-11.1622
何敢	-11.1622
朽	-11.1622
萇𢎞	-11.1624
紅	-11.1624
聖人因	-11.1625
腆	-11.1625
入邾	-11.1625
吾舍諸晉陽午許諾歸告其父兄	-11.1626
此正所謂	-11.1628
孔子言于	-11.1628
名之曰	-11.1632
墮費	-11.1632
鄩	-11.1633
神明	-11.1636
去族	-11.1637
十四日	-11.1638
謀國	-11.1638
』	-11.1639
武氏子	-11.1641
莫知	-11.1643
子欲正	-11.1645
宗周	-11.1648
㑹于戚	-11.1649
私行	-11.165
何耶	-11.1651
貳於楚	-11.1657
從祀先公	-11.1665
盤	-11.1668
君無道	-11.1669
徐音	-11.167
萃	-11.167
劣	-11.167
櫬	-11.167
十三年春	-11.167
洪範	-11.1671
貝	-11.1672
此役	-11.1672
仲由季氏	-11.1673
小雅	-11.1673
藏甲大夫無百雉之城	-11.1673
定公曰臣無	-11.1674
不恭	-11.1683
成六年	-11.1689
杜氏以為	-11.1695
頓子	-11.1702
同圍齊	-11.1708
為之主	-11.171
懐公	-11.1711
変	-11.1714
械	-11.1715
擁	-11.1716
至是始	-11.1718
蘧	-11.1719
訊	-11.1719
失其所	-11.1719
闔	-11.172
有也十有三年秋晉趙鞅入于晉陽以叛	-11.1721
宰爾何與魯事而併得毁三都經書叔	-11.1721
幾危其君而成又卒以叛雖妄人不為也	-11.1721
三家必有其道矣何至使仲由為之况墮	-11.1721
孔子行乎季孫三月不違者蓋侯犯叛	-11.1721
言欲歸美孔子而不知其義者使孔	-11.1721
叛費家臣之彊反恃其邑而主不能	-11.1721
使仲由為季氏宰墮三都此蓋	-11.1721
帥師墮郈季孫斯仲孫何忌帥師墮費則	-11.1721
􁇦	-11.1722
公子燮	-11.1724
騑	-11.1728
胥甲	-11.173
不肖	-11.173
君子以為	-11.1735
諸侯之卿	-11.1735
子太叔	-11.1739
成九年	-11.1739
削其	-11.1741
周道	-11.1751
濟西田	-11.1754
規模	-11.1762
肆行	-11.1763
譲	-11.1763
弧	-11.1765
勃	-11.1766
奴	-11.1768
杞伯來朝	-11.1769
之謂乎	-11.1771
衞孫林父	-11.1771
求賻	-11.1771
華督	-11.1774
大閱	-11.1775
未可知	-11.1776
轘	-11.1776
定十五年	-11.178
飲食	-11.178
滅弦	-11.1781
正寢	-11.1782
稱名氏	-11.1787
隱桓	-11.1789
文襄之	-11.1793
漢志	-11.1802
虢叔	-11.1808
徐邈	-11.1812
巽	-11.1813
証	-11.1814
天王狩于河陽	-11.1814
㝷	-11.1814
郚	-11.1814
殃	-11.1815
畀宋人	-11.1818
明堂	-11.1818
陳氏傅良曰	-11.1818
齋	-11.1821
劉文公	-11.1834
三千	-11.1837
往朝	-11.184
襄三十年	-11.1842
昭二十五年	-11.1842
九年春王正月	-11.1846
康子	-11.1853
礿	-11.1853
把桓	-11.1854
商任	-11.1854
甚多	-11.1855
欲令	-11.1856
公至自伐齊	-11.1857
趙子常曰	-11.1857
諂	-11.1858
陸淳	-11.186
騁	-11.1861
蔵	-11.1862
臯陶	-11.1863
鬻	-11.1863
沙鹿	-11.1864
衢	-11.1865
踰月	-11.1866
古之制也	-11.1867
不失其	-11.1867
濵	-11.1868
不為災	-11.1869
鬷	-11.1871
告人曰	-11.1872
乗車	-11.1872
舒蓼	-11.1874
蔡穆	-11.1875
取貨	-11.1879
春秋之㫖	-11.1882
私怨	-11.1882
昭二十三年	-11.1882
專政	-11.1884
弓矢	-11.1884
考證	-11.1888
義見隱	-11.189
聞命矣	-11.1898
晉主夏盟	-11.1898
于鄄	-11.1901
何害	-11.1902
三傳皆	-11.1903
臂	-11.1909
縁陵	-11.1911
三日哭	-11.1914
鵲	-11.1915
楚武王	-11.1917
曼姑	-11.1919
今兹	-11.1921
申息	-11.1921
倣此	-11.1927
下聘	-11.1944
慶鄭	-11.1949
之至也	-11.195
棐	-11.1956
何休云	-11.1956
再拜稽首	-11.1956
之謂矣	-11.1958
釈例曰	-11.1959
邁	-11.1959
取邾田	-11.196
隅	-11.1961
裂繻	-11.1961
狹	-11.1962
書不時也	-11.1963
茂	-11.1964
未之有也	-11.1965
凖	-11.1965
憗	-11.1965
西狩獲麟	-11.1966
託於	-11.1966
無故而	-11.1966
春秋書法	-11.1967
宣四年	-11.1968
改葬	-11.1969
入于夷儀	-11.1977
萬世之	-11.1977
不念	-11.1979
女嫁	-11.199
慶克	-11.1993
成七年	-11.1994
不悟	-11.2004
濡	-11.2008
既𦵏	-11.2008
姫	-11.2008
莒人伐我東鄙	-11.201
䜴	-11.2013
五百里	-11.2018
秋九月大雩	-11.2018
盟不日	-11.2023
夏徴舒	-11.2023
公子公孫	-11.2025
言及者	-11.2027
糓	-11.2028
晉荀林父	-11.203
深惡	-11.2033
厚薄	-11.2035
宣十五年	-11.2042
謀王室	-11.2046
童子	-11.2049
儕	-11.2056
以號舉	-11.2058
黻	-11.2059
滌	-11.2059
君子是以知	-11.2059
苕丘	-11.2059
襄十一年	-11.2069
欒武子	-11.2069
.10	-11.2071
次于郎	-11.2073
丹陽	-11.2074
朱方	-11.2077
又從而	-11.2079
既衰	-11.2083
王者之後	-11.2092
祭叔	-11.2093
夫鍾	-11.21
氛	-11.21
往會	-11.2101
工尹	-11.2106
歡	-11.211
箋	-11.2113
大音泰	-11.2113
鳥獸	-11.2114
趣	-11.2114
莊叔	-11.2117
㑹稽	-11.2118
北宫喜	-11.2118
一舉而	-11.2122
宋仲幾	-11.2122
子游	-11.2127
吕反	-11.2135
使告于	-11.2147
晉侯伐鄭	-11.2156
拳	-11.2157
何休曰	-11.2159
誨	-11.2159
詐戰	-11.2159
討貳	-11.216
躍	-11.216
宋元公	-11.2161
以正其	-11.2161
蕪	-11.2162
俠	-11.2163
専殺	-11.2171
求貨	-11.2174
未逾年	-11.2175
襄十年	-11.2181
伯石	-11.2191
討亂	-11.2192
劉氏傳	-11.2192
歸京師	-11.2198
美惡	-11.2204
鼻	-11.2205
夸	-11.2208
譟	-11.2208
史䇿	-11.2209
莊元年	-11.221
疆埸	-11.221
何賢乎	-11.221
公子友如齊	-11.2211
趙旃	-11.2212
濟河	-11.2213
鉞	-11.2214
鄘	-11.2215
静	-11.2216
有異志	-11.2218
不言敗	-11.2223
出疆	-11.2224
衛孫良夫	-11.2225
以見義	-11.2228
被殺	-11.224
宣姜	-11.2248
汶陽田	-11.2249
襄二十五年	-11.225
始於此	-11.225
僖二十四年	-11.2252
不見於經	-11.2253
洫	-11.2253
華定	-11.2253
結盟	-11.2254
黑肱	-11.2257
万	-11.2261
屠	-11.2261
幄	-11.2261
殛	-11.2261
瞻	-11.2263
國之人	-11.2264
驪	-11.2266
放此	-11.2267
惡烏路反	-11.2273
穀梁云	-11.2275
弃疾	-11.2277
伍舉	-11.2283
烝嘗	-11.2289
吉禘	-11.2294
所知也	-11.2302
㨗菑	-11.2304
吕祖謙曰	-11.2306
蒢	-11.2306
暑	-11.2309
蘓	-11.2311
晩	-11.2311
彪	-11.2312
案此條	-11.2323
湖廣	-11.2324
取鄟	-11.2325
仲嬰齊	-11.2334
嗣立	-11.2335
左司馬	-11.2338
失之矣	-11.2339
七十里	-11.2339
通㫖	-11.234
其㫖	-11.2344
風雨	-11.2349
韶	-11.2357
憎	-11.2358
雙	-11.2359
馴	-11.2361
濕	-11.2363
𦙍	-11.2364
昊	-11.2366
夏四月丁巳	-11.2368
野井	-11.2371
襄夫人	-11.2371
宋殺其大夫	-11.2373
與此同	-11.2375
丑父	-11.238
廣平	-11.2382
東都	-11.2387
晉為盟主	-11.239
討賊之義	-11.2391
襄七年	-11.2392
在此月	-11.2395
之望也	-11.2396
封建	-11.2399
春秋之作	-11.24
冉	-11.2405
諒	-11.2406
頵	-11.241
仲佗石彄	-11.2411
城西郛	-11.2413
城濮之戰	-11.2415
阨	-11.2418
撃	-11.2418
擅殺	-11.2423
入州來	-11.2425
殺叔武	-11.2443
圖霸	-11.2446
申之㑹	-11.2447
卜筮	-11.2448
管蔡	-11.2456
哀二年	-11.2459
庶長	-11.2459
熊過氏曰	-11.2459
公山不狃	-11.2462
鄑	-11.2462
闡	-11.2463
夫人姜氏至自齊	-11.2463
常山劉氏曰	-11.2463
園	-11.2464
閟	-11.2464
準	-11.2464
郉	-11.2468
襄十四年	-11.2468
公如齊公至自齊	-11.2469
偏師	-11.247
幅	-11.2472
陳無宇	-11.2473
復扶	-11.2475
惟恐	-11.2475
莅	-11.2483
▁家氏鉉翁曰	-11.2494
集傳	-11.2496
定十年	-11.2504
二十有九年	-11.2506
伊川先生解	-11.2511
比蒲	-11.2514
皥	-11.2515
貶曷為貶	-11.2515
頴	-11.252
覽	-11.252
晉伐鮮虞	-11.252
梧	-11.2521
汲郡	-11.2522
正義云	-11.2523
新城之盟	-11.2526
㑹吴	-11.2527
兖州府	-11.2529
以自固	-11.2531
丈反	-11.2533
責賂	-11.2535
肆夏	-11.2544
楚人侵鄭	-11.2545
二十有四年	-11.2547
反一音	-11.2551
城把	-11.2555
定元年	-11.256
國之卿	-11.2561
師大敗	-11.2562
成十七年	-11.2564
殘民	-11.2565
荷	-11.2566
詢	-11.2566
鄭康成	-11.2567
杵臼	-11.2568
苐	-11.2569
郵	-11.2575
㐮公	-11.2584
草木	-11.2586
稱天王	-11.2588
定八年	-11.259
何以不稱	-11.2595
不告朔	-11.2599
城費	-11.26
介葛盧來	-11.2603
邢侯	-11.2603
侵我西鄙	-11.2609
程頥曰	-11.2612
鉉翁	-11.2617
被執	-11.2619
鄭師伐宋	-11.262
厠	-11.2621
伐我西鄙	-11.2621
貜且	-11.2622
季子來歸	-11.2623
陟	-11.2624
骨肉	-11.2627
趙匡	-11.2629
九族	-11.2631
荆州	-11.2634
沂水	-11.2637
大鹵	-11.2639
取邿	-11.2639
渠丘	-11.2641
討有罪	-11.2644
不憚	-11.2661
陳恒	-11.2669
武王封	-11.267
笙	-11.267
當絶	-11.2671
十五年春	-11.2671
㦸	-11.2671
秀	-11.2672
該	-11.2673
黑壤	-11.2673
仲孫貜	-11.2677
女音汝	-11.268
管子	-11.268
平王東遷	-11.2682
澄	-11.2686
十有七年春	-11.2687
僖公成風	-11.2705
不言來	-11.2705
尚何	-11.2706
祖考	-11.2708
衛州吁	-11.2708
方睦	-11.271
先儒以為	-11.2713
圍戚	-11.2714
挫	-11.2717
木訥	-11.2723
齊人侵我西鄙	-11.2723
孟獻子曰	-11.2724
欒書中行偃	-11.2725
伐郳	-11.2726
郊祀	-11.2727
騶	-11.2728
俎	-11.2729
撥亂	-11.2731
子同生	-11.2732
滅虢	-11.2744
頽	-11.2746
祝宗	-11.2752
聖經	-11.2752
宋南里	-11.276
歸獄	-11.2765
襄二十六年	-11.2765
逆叔姬	-11.2765
貶絶	-11.2766
皷	-11.277
大夫之三命者也	-11.2774
鄾	-11.2776
諸侯不生名	-11.2779
淪	-11.2779
塵	-11.278
廖	-11.278
媒	-11.278
恊	-11.2782
醢	-11.2784
是之謂	-11.2787
不狃	-11.2791
暴横	-11.2802
取其地	-11.2805
北宮	-11.2808
叔孫豹如晉	-11.2809
不繫國	-11.2811
昌府	-11.2811
惡自見	-11.2813
眾	-11.2815
夘	-11.2818
所感	-11.2819
鶉	-11.2828
去三桓	-11.2828
劉康公	-11.2829
飢	-11.2829
貞子	-11.2831
妙	-11.2831
躒	-11.2831
通嗣君也	-11.2832
戎蠻子	-11.2832
䜛	-11.2835
莒人入向	-11.2836
祁奚	-11.2838
王子猛	-11.2838
注解云即	-11.2843
其亡乎	-11.2843
之辭言之	-11.2845
趙宣子	-11.2853
逃來	-11.287
諸大夫皆	-11.2884
隳	-11.2884
秦伐晉	-11.2886
忠臣	-11.2889
窒	-11.289
鱗	-11.289
赤棘	-11.2891
孫文子	-11.2895
中氣	-11.2899
此其所以	-11.2904
逋逃	-11.2904
國之衆	-11.291
太平	-11.2912
境上	-11.2912
遇弑	-11.2915
其罪大矣	-11.2916
諾	-11.2925
泗水	-11.2927
漢置	-11.2934
餒	-11.2935
繻	-11.2937
於餘丘	-11.2939
蠆	-11.294
嚭	-11.2941
宦	-11.2942
梓	-11.2942
牂	-11.2943
揔	-11.2945
竜	-11.2948
立其子	-11.2956
弑閔公	-11.2956
無以異	-11.2971
二十五人	-11.2975
鹿上	-11.298
盟于召陵	-11.2982
天子三公	-11.2982
拂	-11.2987
暨齊平	-11.2992
不卒戍	-11.2995
鼠	-11.2997
叔孫州仇	-11.2998
莫大於	-11.3001
括地志	-11.3002
鞶	-11.3002
百三十	-11.3003
髦	-11.3005
安中國	-11.3011
庶兄	-11.3016
5.3	-11.3018
僭號	-11.302
宫廟	-11.3023
列序	-11.3024
卜偃	-11.3025
新意	-11.3026
示後世	-11.3027
恪	-11.3027
師曠	-11.3035
公至自齊居于鄆	-11.3036
彤弓	-11.3041
犁	-11.3043
襄三年	-11.3043
諸侯皆在	-11.3044
山崩	-11.3045
障	-11.3047
淫亂	-11.3048
漁	-11.3048
夫人孫于齊	-11.3049
劉子單子	-11.3053
狄侵衛	-11.3055
㝠	-11.3055
應劭	-11.3056
公子黄	-11.306
曾孫	-11.3066
講武	-11.3074
顯然	-11.3082
聖筆	-11.3083
蠻氏	-11.3093
朋	-11.31
王姬歸于齊	-11.3101
畚	-11.3102
且拜	-11.3103
不亦宜乎	-11.3104
天王出居于鄭	-11.3106
注疏卷	-11.3106
孔穎達	-11.3106
㧞	-11.3106
翔	-11.311
巡狩	-11.311
好呼報反	-11.3111
淑	-11.3111
恐懼	-11.3112
入于王城	-11.3114
弗聴	-11.3129
孟縶	-11.3136
春秋之始	-11.314
未必然	-11.3144
將若之何	-11.3146
晦朔	-11.3146
嫡庶	-11.3149
長幼	-11.3151
王子帶	-11.3154
北海	-11.3156
織	-11.3157
敘	-11.3159
䕶	-11.316
七里	-11.3161
潤	-11.3164
李氏曰	-11.3165
事迹	-11.3168
潛師	-11.3169
踰竟	-11.3171
白羽	-11.3174
豈特	-11.3183
衛侯衎	-11.3184
守備	-11.3184
命于天子	-11.3187
劉敞	-11.3189
無所逃	-11.3191
因舊史	-11.3194
史墨	-11.3198
軍帥	-11.3201
除喪	-11.3203
臧孫許	-11.3207
列於諸侯	-11.3208
蔡人殺陳佗	-11.321
奚齊卓子	-11.3212
沓	-11.3215
構	-11.3215
排	-11.3215
控	-11.3215
爲于僞切	-11.3215
先且居	-11.3215
伊戾	-11.3216
陸渾之戎	-11.3216
那	-11.3217
遙	-11.3218
炭	-11.3218
王法所	-11.3218
巖	-11.3219
行即位之禮	-11.3219
少皥	-11.322
堇	-11.3221
華耦	-11.3223
申叔時	-11.3229
世孫	-11.3236
僖三十一年	-11.3237
僖二年	-11.3244
史書之	-11.3258
而義自見	-11.3264
嘻	-11.3267
凱	-11.3268
瑣澤	-11.3269
褊	-11.3271
尨	-11.3272
莒人滅鄫	-11.3272
組	-11.3273
彫	-11.3273
衞孫良夫	-11.3274
陜西	-11.3305
滅下陽	-11.331
襄二十七年	-11.3318
弑二君	-11.3319
宣二年	-11.3321
救災	-11.3324
孔安國	-11.3327
董仲舒	-11.3327
孔奐	-11.3328
書於䇿	-11.3329
叔仲惠伯	-11.333
廬江	-11.333
黙	-11.333
浦	-11.3333
昭八年	-11.3334
六十里	-11.3334
邶	-11.3337
䖏	-11.3339
互相	-11.334
漷水	-11.3342
艾陵	-11.3343
賜姓	-11.3344
結怨	-11.3344
雒戎	-11.3348
書之以見	-11.3349
百工	-11.3351
先君之好	-11.3359
書於經	-11.3359
强盛	-11.336
帥師伐莒	-11.3365
以見譏	-11.3367
井田	-11.337
三駕	-11.337
哀八年	-11.3371
次于雍榆	-11.3376
趙同趙括	-11.3379
猜	-11.338
據事直書	-11.338
偹	-11.3382
飱	-11.3382
北宫括	-11.3383
執國命	-11.3383
孰大焉	-11.3384
抶	-11.3387
香	-11.3389
複	-11.339
佳	-11.339
告于諸侯	-11.339
季孫行父如齊	-11.3391
城下之盟	-11.3391
愷	-11.3396
蔡侯般	-11.3399
委曲	-11.3405
别封	-11.3409
于夷儀	-11.3419
絶句	-11.3428
告於諸侯	-11.3436
後嗣	-11.3436
晳	-11.3438
公子買	-11.3438
得罪于	-11.3439
宫之竒	-11.3439
修怨	-11.3439
疇	-11.3439
宋公之弟辰	-11.344
韻	-11.3441
春秋分記卷	-11.3441
麥禾	-11.3442
孟懿子	-11.3443
問其故	-11.3443
霣	-11.3443
輩	-11.3443
輪	-11.3443
譏世卿	-11.345
昭九年	-11.3453
之罪著矣	-11.3454
逆王姬	-11.3466
郕伯	-11.3482
鮑叔	-11.3486
書于策	-11.3491
寪氏	-11.3494
所忌	-11.3495
君臣父子	-11.3495
公㑹晉侯宋公衛侯鄭伯曹伯	-11.3496
昵	-11.3496
蔓	-11.3497
不悛	-11.3498
含賵	-11.3498
駐	-11.3498
陳公子招	-11.3498
奐	-11.3499
馘	-11.3502
緇	-11.3502
將焉用之	-11.3503
陳侯逃歸	-11.3507
書法如此	-11.3509
京兆	-11.3512
聖人之心	-11.3515
天子之大夫也	-11.3518
乗丘	-11.352
閔元年	-11.3523
齊髙固	-11.3525
用夏正	-11.3527
注觧云	-11.3533
下邳	-11.3536
謹之也	-11.3541
交譏之	-11.3541
摟	-11.3548
莊十六年	-11.3548
爼	-11.3551
襄二十三年	-11.3552
江人黄人	-11.3553
墻	-11.3555
禪	-11.3555
概	-11.3556
曹劌	-11.3556
箕鄭父	-11.3557
亳城北	-11.3557
范寗	-11.3559
高氏閌曰	-11.356
不書諱之也	-11.3561
䝨	-11.3561
長岸	-11.3562
泠	-11.3563
秋螽	-11.3568
史失之	-11.3574
乘車	-11.3582
以名見	-11.3582
二十有三年	-11.3605
僖二十五年	-11.3607
冐	-11.3609
履霜	-11.3609
取讙及闡	-11.3609
武王克商	-11.361
尹氏立王子朝	-11.3613
言易也	-11.3613
齊侯使其弟年來聘	-11.3613
朝宿之邑	-11.3614
壁	-11.3615
膰	-11.3617
臧孫辰	-11.3617
𤨏	-11.3618
季康子	-11.3618
豉	-11.3619
苫	-11.3623
邾儀父	-11.3625
石尚	-11.3626
定十四年	-11.3626
何以不稱使	-11.3628
魯不㑹	-11.3629
詳録	-11.3634
九州之	-11.3635
「	-11.3661
歸賵	-11.3661
仲雍	-11.3663
考仲子之宫	-11.3663
鰥	-11.3666
值	-11.367
凝	-11.3671
靣	-11.3671
狐射姑	-11.3671
嗜	-11.3672
沈尹戌	-11.3672
祓	-11.3674
頸	-11.3674
採	-11.3674
䑕	-11.3675
蹶	-11.3675
桓無王	-11.3676
落姑	-11.3677
弼	-11.3677
斧	-11.3678
輝	-11.3678
旌旗	-11.368
守節	-11.3681
補入	-11.3696
申豐	-11.3702
存耕趙氏曰	-11.3719
熱	-11.3724
朞	-11.3727
伐邾取須句	-11.3728
𦵏我小君	-11.3728
聲其罪	-11.3729
橐	-11.3729
失地之君	-11.3731
邉	-11.3733
先君之命	-11.3735
康誥	-11.3735
蠲	-11.3736
胥靡	-11.3736
珪	-11.3737
祏	-11.3737
江漢	-11.3747
年表	-11.3754
公孫剽	-11.3754
閉門	-11.3756
比事以觀	-11.3758
南燕	-11.3759
首止之盟	-11.3763
眷	-11.3783
祇	-11.3788
何注据	-11.3788
夫音扶	-11.3788
不去其官	-11.3788
祐	-11.3789
簡牘	-11.379
泮	-11.3793
仇讐	-11.3794
十有五年春王正月	-11.3795
宰孔	-11.3802
季桓子	-11.3815
僖九年	-11.3817
」	-11.382
大衍厯正月	-11.383
拒父	-11.3833
孫于邾	-11.3838
凡此皆	-11.3842
改卜	-11.3843
扼	-11.3844
緦	-11.3845
所不容	-11.3846
鸜鵒來巢	-11.385
倦	-11.3851
何氏云	-11.3852
十有九年	-11.3852
書首月	-11.3854
濟隂	-11.3854
𨼆	-11.3854
渡河	-11.3859
齊侯取鄆	-11.3868
昭二十二年	-11.3871
寫	-11.3874
盜賊	-11.3893
跛	-11.3898
杜洩	-11.3905
効	-11.3905
鶴	-11.3906
轡	-11.3907
莊姬	-11.3908
衣裳	-11.3909
耏	-11.3909
其曰人何也	-11.391
茅堂胡氏曰	-11.391
于平丘	-11.3911
住	-11.3911
句踐	-11.3914
知罃	-11.3924
為之歌	-11.3926
罪大矣	-11.3929
主婚	-11.3934
11.1	-11.3954
帖	-11.3961
以者不以者也	-11.3965
皁	-11.3965
仲孫羯	-11.3965
六羽	-11.3967
齊人滅遂	-11.3967
汚	-11.3967
四不視朔	-11.3968
穢	-11.3968
堙	-11.397
鎮撫	-11.397
襄十九年	-11.3971
姑姊妹	-11.3976
囊	-11.3976
偏戰	-11.3978
今山西	-11.3982
壬夫	-11.3983
賊未討	-11.3983
十有一	-11.3984
則曷為謂之	-11.3991
叔術	-11.3991
乘馬	-11.3996
胥臣	-11.3998
夜中	-11.4002
哀十三年	-11.4019
覘	-11.4026
逆婦姜于齊	-11.4027
禜	-11.4027
蠶	-11.4028
藐	-11.4028
故謹而日之	-11.4028
邾人伐我南鄙	-11.4028
劉歆	-11.4029
聖人之所	-11.4032
冉求	-11.4035
檮杌	-11.4035
燎	-11.4035
奉王命	-11.4037
魏獻子	-11.4042
莒無大夫	-11.4043
幼弱	-11.4046
宗族	-11.405
廵守	-11.4051
謀納公	-11.4055
隕石	-11.4067
糓梁	-11.4068
垂法	-11.4078
莘老孫氏曰	-11.408
宋皇瑗	-11.4084
慘	-11.4086
算	-11.4088
綂	-11.4089
屑	-11.4089
菜	-11.409
州公如曹	-11.4091
取郠	-11.4093
倪	-11.4094
取汶陽田	-11.4102
句繹	-11.4103
卽位	-11.4105
火災	-11.4106
可以免	-11.411
滕侯卒	-11.411
專權	-11.4114
祭伯來	-11.4116
煬公	-11.4121
私交	-11.4133
公子騑	-11.4142
犖	-11.4145
斵	-11.4147
噐	-11.4149
靜	-11.4151
濁	-11.4151
盧蒲嫳	-11.4153
惎	-11.4153
戯	-11.4154
枕	-11.4157
曲棘	-11.4161
秦伯伐晉	-11.4164
歸寜	-11.4166
嬴姓	-11.4167
釋宋公	-11.4169
延陵	-11.418
斉侯	-11.4184
杜無傳	-11.4196
亹	-11.4196
洙	-11.4206
提	-11.4207
鄋瞞	-11.4209
去樂卒事	-11.421
浚	-11.421
見賢遍反	-11.4211
㰱	-11.4211
肘	-11.4212
漫	-11.4212
滅巢	-11.4213
履緰	-11.4214
还	-11.4218
終身不	-11.4222
蓐	-11.4224
以夫人之禮	-11.4228
刘炫云	-11.423
二十六日	-11.4234
夜姑	-11.4245
公會宋公	-11.4246
狃	-11.425
陰陽	-11.425
下皆同	-11.4251
盬	-11.4263
先代之後	-11.4271
郑伯	-11.4272
饒	-11.4275
駟赤	-11.4275
蕭叔朝公	-11.4277
.8	-11.4277
欣	-11.4277
司㓂	-11.4277
登臺	-11.4284
不告月	-11.4287
以著其惡	-11.4295
歸罪於	-11.4296
之卒章	-11.43
三國之師	-11.4302
譏何譏爾	-11.4306
傳寫	-11.4311
孟任	-11.4319
宋人圍曹	-11.4328
慙	-11.433
及晉侯盟	-11.4332
申公巫臣	-11.4333
霄	-11.4334
蔡桓侯	-11.4335
邲之戰	-11.4337
二十有六年	-11.4339
体	-11.4339
聽政	-11.4339
鉅野	-11.4341
宣九年	-11.4342
北郭	-11.4344
浞	-11.4345
顆	-11.4346
嫡妾	-11.4353
叔段	-11.4353
薨不地	-11.4358
加兵于	-11.436
穀梁氏曰	-11.4371
衰微	-11.4378
象魏	-11.4381
梏	-11.4392
戍鄭虎牢	-11.4395
惻	-11.4396
截	-11.4396
裏	-11.4397
眞	-11.4397
尫	-11.4397
拾	-11.4397
玦	-11.4398
彛	-11.4398
殞	-11.4398
岡	-11.4404
主王姬	-11.4405
邾庶其	-11.4405
厥憖	-11.4406
蜀杜氏曰	-11.4411
狐突	-11.4413
此三者	-11.4415
襄二十八年	-11.4416
反又如字	-11.4423
襄十五年	-11.4439
誄	-11.4452
箇	-11.4455
沐	-11.4456
虢仲	-11.4458
中國無伯	-11.4458
贅	-11.4459
常情	-11.4459
由是觀之	-11.446
脯	-11.446
顓	-11.4462
慾	-11.4462
許諾	-11.4468
黄池之㑹	-11.4469
自大夫出	-11.4469
士文伯	-11.447
渚	-11.447
耿	-11.4473
正義曰周禮	-11.4476
𤣥孫	-11.4484
所繫	-11.4504
行朝禮	-11.4509
趙企明	-11.4515
兩君相見	-11.4516
夫人姜氏歸于齊	-11.452
䑓	-11.4521
臀	-11.4521
逭	-11.4521
奇	-11.4523
見賢徧反	-11.4523
胡文定	-11.4525
悛	-11.4525
鐘鼓	-11.4526
陴	-11.4529
墮郈	-11.453
鬻拳	-11.4532
為齊所	-11.4542
公孫段	-11.4547
畀我	-11.4553
鬻熊	-11.458
雍榆	-11.4582
為中國患	-11.4584
四年春王二月	-11.4584
為後世戒	-11.4584
浴	-11.4587
楚子鄭伯伐宋	-11.4587
酆舒	-11.4587
裕	-11.4588
独	-11.4588
兖	-11.4589
孔子作春秋	-11.4595
閏十二月	-11.4598
咸丘	-11.4602
范中行氏	-11.4607
㑹晉師	-11.4631
邢遷于夷儀	-11.464
羸	-11.4641
閎	-11.4647
夫人姜氏㑹齊侯	-11.4647
頰	-11.4649
譜云	-11.4649
捐	-11.465
又甚焉	-11.4651
伐宋圍緡	-11.4651
袲	-11.4651
淄	-11.4653
立乎其位	-11.4654
禇	-11.4655
駘	-11.4656
崔慶	-11.4657
傾覆	-11.4658
柱	-11.4659
僖二十六年	-11.4662
不稱姜氏	-11.4663
單伯如齊	-11.4666
釋憾	-11.4669
彤	-11.4675
▁張氏洽曰	-11.4686
原情	-11.4691
天倫	-11.4693
𤣥枵	-11.4699
从	-11.4707
來戰于郎	-11.4711
齊小白入于齊	-11.4711
12.1	-11.4712
鄆讙龜隂	-11.4713
獳	-11.4714
王不稱天	-11.4715
卧	-11.4716
鰌	-11.4716
築館	-11.4725
叔弓如晉	-11.4728
平陽府	-11.4742
春秋傳卷	-11.4746
屬辭比事	-11.4746
黎侯	-11.4747
嵗星	-11.4753
㣲弱	-11.476
莊二十三年	-11.4766
叔孫舍	-11.4772
曰美哉	-11.4776
誕	-11.4777
逡	-11.4777
噬	-11.4779
紼	-11.478
迁	-11.4784
垂訓	-11.4794
戚之㑹	-11.4798
尉止	-11.4799
舄	-11.4801
婁林	-11.4807
㑹其葬	-11.4816
二十九日	-11.4823
是役也	-11.4835
八月螽	-11.4836
宋人遷宿	-11.4838
安靖	-11.4838
無麥苗	-11.4841
懈	-11.4844
次于陽州	-11.4844
𤯝	-11.4844
䏻	-11.4846
話	-11.4846
宰渠伯糾	-11.4847
悅	-11.4848
珍	-11.4848
愍	-11.4849
帰	-11.4856
汶水	-11.4867
羣舒	-11.4869
義見隠	-11.4869
巡守	-11.4871
如晉拜	-11.4875
待放	-11.4887
立武宫	-11.4895
江陵	-11.4896
未得志	-11.4899
范中行	-11.4899
王氏經世	-11.4903
獮	-11.4906
郜大鼎	-11.4906
未詳信否	-11.4907
尼	-11.4908
陸氏纂例	-11.4909
齊人殺無知	-11.4909
齮	-11.4909
松	-11.4909
復扶又切	-11.4911
震夷伯之廟	-11.4913
惇	-11.4914
趾	-11.4914
燒	-11.4915
邘	-11.4915
欽	-11.4916
仲孫速	-11.4922
薛侯	-11.4926
僖二十三年	-11.4927
三恪	-11.4934
昭二十年	-11.4941
正其本	-11.4956
歸脤	-11.4958
僖十九年	-11.4962
行夏之時	-11.4965
與諸侯盟	-11.4968
艱	-11.4976
膠	-11.4976
及宋人盟于宿	-11.4976
沙鹿崩	-11.4977
燭	-11.4978
王札子	-11.4978
櫜	-11.4978
繡	-11.4979
岱	-11.498
何氏休曰	-11.4981
膚	-11.4983
史闕文	-11.499
陶唐	-11.4991
附庸之君	-11.5001
而戮之	-11.501
公如晉次于乾侯	-11.504
遑	-11.504
覩	-11.5041
膺	-11.5041
乍	-11.5042
勾踐	-11.5042
笠	-11.5043
囘	-11.5043
蚤	-11.5046
這	-11.5047
永嘉吕氏曰	-11.5048
蕕	-11.5049
翟泉之盟	-11.5052
狄救齊	-11.5053
徽	-11.5056
二十有七年春	-11.5057
孔逹	-11.5059
濮陽	-11.5065
次第	-11.5068
絶筆	-11.507
妄動	-11.5082
子服惠伯	-11.5106
刘炫	-11.5108
屋壊	-11.5109
弘	-11.5109
兇	-11.511
貂	-11.5111
製	-11.5111
秦康	-11.5111
公弟叔肸	-11.5112
春秋二百四十二年	-11.5114
銅鞮	-11.5119
官失之	-11.5119
雲夢	-11.5131
曹人邾人	-11.5137
禀命	-11.5138
僖三十年	-11.5151
『	-11.516
兕	-11.5175
諮	-11.5175
突歸于鄭	-11.5178
綿	-11.5179
其是之謂乎	-11.5179
爱	-11.518
号	-11.518
濱	-11.5181
叔孫穆子	-11.5182
蒲圃	-11.5184
息肩	-11.5184
琅邪	-11.5188
葵丘之盟	-11.5188
次于匡	-11.5192
閔雨	-11.5208
側室	-11.521
寺	-11.5213
㑹于蕭魚	-11.5214
史佚	-11.5218
邾子益	-11.5219
康侯	-11.5222
凡此類	-11.5229
立煬宫	-11.5239
牖	-11.5245
閌	-11.5245
滕子薛伯	-11.5246
丕	-11.5247
建丑	-11.5247
冇	-11.5249
涕	-11.525
納頓子	-11.5254
鄗	-11.5257
洮之盟	-11.5266
汝隂	-11.5274
入人之國	-11.5276
張公室	-11.5278
莅盟	-11.5286
于乾谿	-11.5286
承筐	-11.5308
倖	-11.5309
貿	-11.5309
劉氏意林	-11.5311
取邾田自漷水	-11.5312
生而賜氏	-11.5313
沐浴	-11.5316
鬪	-11.5317
熄	-11.5317
富辰	-11.5333
介葛盧	-11.5334
改正朔	-11.5334
次陘	-11.5338
擅權	-11.5345
十有三	-11.535
周卿士	-11.5353
星隕如雨	-11.5379
飽	-11.5379
申包胥	-11.5381
服虔	-11.5383
宋人及楚人平	-11.5383
荆人來聘	-11.5383
讒慝	-11.5384
熹	-11.5384
歸之于京師	-11.5389
飯	-11.5389
陸氏淳曰	-11.5391
晉人止公	-11.5393
澄按	-11.5399
終春秋之世	-11.5402
乙亥嘗	-11.5404
畢萬	-11.5416
千載	-11.5416
襄二十四年	-11.5417
恒稱	-11.543
縣今屬	-11.5433
執宋公以伐宋	-11.5449
毁泉臺	-11.5449
有無君之心	-11.5449
用夷禮	-11.545
凟	-11.5451
牼	-11.5451
牀	-11.5453
叔孫得臣如京師	-11.5454
枉	-11.5454
版	-11.5455
阼	-11.5455
㝎	-11.5457
嬪	-11.546
藍	-11.5461
俊	-11.5463
城濮之役	-11.5463
敗其師	-11.547
平丘之㑹	-11.547
斬衰	-11.5472
犬戎	-11.5488
神農	-11.5489
經世之	-11.5494
議論	-11.5495
3.3	-11.5504
武氏子來求賻	-11.5518
義自見矣	-11.552
平宋亂	-11.5522
㰱血	-11.5523
為中國諱	-11.5523
勦	-11.5524
董狐	-11.5524
寶玉大弓	-11.5524
鄭伯以璧假許田	-11.5524
溱	-11.5526
俄	-11.5526
晉人執虞公	-11.5527
奥	-11.5527
脾	-11.5527
洞	-11.553
邲之役	-11.5531
枝江	-11.5536
葵丘之㑹	-11.554
刑罰	-11.5542
人倫之本	-11.5543
而不葬者	-11.5548
晉楚爭	-11.5555
公也在位	-11.5559
虺	-11.5586
緫	-11.5591
城緣陵	-11.5591
禆竈	-11.5592
於越入吳	-11.5594
湯沐之邑	-11.5594
豺狼	-11.5595
何以書記災也	-11.5595
几	-11.5596
無忌憚	-11.5596
君之惠也	-11.5596
欒枝	-11.5597
解云欲言	-11.5597
也葉子曰	-11.5599
騎	-11.5599
孟僖子	-11.5601
敕	-11.5601
蹇叔	-11.5605
玉藻	-11.561
遭喪	-11.5616
父子兄弟	-11.5623
失國出奔	-11.5623
慕義	-11.5627
百雉	-11.563
淳聞於師曰	-11.5657
滔	-11.5659
寖	-11.5661
雨不克葬	-11.5662
瓊	-11.5662
齊人降鄣	-11.5663
正陽之月	-11.5664
末減	-11.5667
乾隆	-11.5667
廵狩	-11.5667
栢舉	-11.5668
長丁丈反	-11.5668
諱國惡	-11.5668
庾	-11.5669
畤	-11.5671
膝	-11.5675
賔客	-11.5682
蜀之盟	-11.5682
僖二十一年	-11.5704
栽	-11.5726
兾	-11.5731
裨	-11.5732
郱鄑郚	-11.5733
册	-11.5735
謫	-11.5736
永樂大典	-11.5736
隴	-11.5737
朐	-11.5738
豚	-11.574
盤庚	-11.5741
芈	-11.5743
慧	-11.5743
晏嬰	-11.5745
緱	-11.5749
幽之盟	-11.5754
郑玄	-11.5803
三王之罪人	-11.5803
特相盟	-11.5804
取成而還	-11.5805
需	-11.5806
子服景伯	-11.5806
粗	-11.5808
豬	-11.5808
公子喜時	-11.581
詒	-11.581
啖助	-11.581
貟	-11.581
垂葭	-11.5811
跋	-11.5814
孔穎逹	-11.5816
無明文	-11.5818
悲夫	-11.5831
念母	-11.5837
公子遂如晉	-11.5842
𦵏我君	-11.5871
栢	-11.5873
歉	-11.5875
穡	-11.5876
仲孫湫	-11.5879
熈	-11.5879
華合比	-11.5879
諷	-11.5883
坊	-11.5884
顚	-11.5886
嵩	-11.5886
朋友	-11.5886
及於難	-11.5889
允姓	-11.5894
侵掠	-11.5895
9.3	-11.5934
星隕	-11.5937
印段	-11.5947
慰	-11.5948
郊特牲	-11.595
陳蔡鄭許	-11.595
齊人來歸子叔姬	-11.5951
麾	-11.5954
遂以夫人婦姜至自齊	-11.5954
鬲	-11.5955
藴	-11.5955
緒	-11.5956
椽	-11.5956
又東北經	-11.5957
使所吏反	-11.5957
枚	-11.5958
豭	-11.5958
祈榖	-11.5962
微㫖	-11.5963
豢	-11.5969
鞏朔	-11.597
背殯	-11.5977
有罪無罪	-11.598
祖禰	-11.6
晏平仲	-11.6025
葵邱	-11.6025
彖	-11.6026
啼	-11.6026
碩	-11.6027
聰	-11.6028
朕	-11.6028
鷄	-11.6029
趡	-11.6029
高傒	-11.6029
建寅	-11.603
為公族大夫	-11.603
狄伐邢	-11.6031
貙	-11.6032
灼	-11.6032
饜	-11.6032
粉	-11.6032
密邇	-11.6033
李氏亷曰	-11.6033
炎帝	-11.6034
漕	-11.6036
二王後	-11.6037
暢	-11.6037
荀盈	-11.604
貶而人之	-11.6044
百牢	-11.6045
:	-11.6088
建寅之月	-11.609
衛人立晉	-11.6097
君弑賊不討	-11.6098
翳	-11.6098
揣	-11.61
璞	-11.61
肱	-11.61
溷	-11.6101
兢	-11.6101
公孫翩	-11.6102
狠	-11.6102
蠧	-11.6102
4.1	-11.6103
雋	-11.6103
遇于垂	-11.6105
郲	-11.6106
爛	-11.6106
袂	-11.6106
霖	-11.6107
韓穿	-11.6108
遒	-11.6108
青州府	-11.6108
塹	-11.611
載馳	-11.6111
凌弱	-11.6112
祔廟	-11.6113
寳玉	-11.6119
廩丘	-11.6123
至此極	-11.6136
浚洙	-11.6168
程氏學曰	-11.6169
兊	-11.6171
與聞乎弑	-11.6171
自正月不雨至于秋七月	-11.6173
仲子之賵	-11.6173
苛	-11.6174
碎	-11.6174
飲之酒	-11.6176
公叔戍	-11.6176
髽	-11.6176
九伐之法	-11.6177
絜	-11.6178
許氏翰曰	-11.6179
彞	-11.6184
濟南府	-11.6187
謚法	-11.6201
莒去疾	-11.6207
然乎曰不然也	-11.6244
城諸及防	-11.6245
王使榮叔歸含且賵	-11.6248
樞	-11.6248
郪丘	-11.6249
毛伯來求金	-11.625
黔	-11.6251
別	-11.6252
紀侯去國	-11.6252
疆場	-11.6252
詬	-11.6253
顓臾	-11.6253
防閑	-11.6254
舘	-11.6254
莊閔僖	-11.6261
左氏所載	-11.6289
所以然者	-11.6303
禰廟	-11.6304
八月庚辰	-11.632
鄭公子歸生	-11.6322
衽	-11.6323
橫	-11.6324
見諸行事	-11.6324
樂王鮒	-11.6325
劉原父	-11.6325
祲祥	-11.6328
洗	-11.633
束帛	-11.633
旒	-11.6331
殳	-11.6332
農隙	-11.6332
季氏本曰	-11.6332
棫	-11.6333
優施	-11.6336
黒背	-11.6338
從王伐鄭	-11.634
公子憖	-11.6341
舎中軍	-11.6347
柯之盟	-11.6351
鹵	-11.6375
蹇	-11.6392
耄	-11.6394
天王殺其弟佞夫	-11.6396
蕞爾	-11.6396
嚮	-11.6399
敗某師	-11.64
歇	-11.64
吹	-11.64
含且賵	-11.6401
齊人歸讙及闡	-11.6402
天王居于狄泉	-11.6402
抄	-11.6402
畱	-11.6403
郥	-11.6403
斁	-11.6404
殺適立庶	-11.6404
草莽	-11.6404
它	-11.6405
訾婁	-11.6406
鎬	-11.6406
趯	-11.6406
范氏甯曰	-11.6407
單伯至自齊	-11.6408
覬	-11.6409
荀偃士匄	-11.6411
酆	-11.6412
薊	-11.6415
日南至	-11.6437
罪莫大焉	-11.6439
𫉬	-11.647
敗狄于箕	-11.6473
剪	-11.6475
謨	-11.6477
長樗	-11.6478
箴尹	-11.6479
著丘公	-11.6479
君前臣名	-11.648
秋荆伐鄭	-11.648
震電	-11.648
郟鄏	-11.6481
鈹	-11.6481
猗	-11.6481
齧	-11.6484
蔣	-11.6486
翁	-11.6487
佐下軍	-11.6488
旐	-11.6491
孟津	-11.6493
虎賁	-11.6495
兗州府	-11.6496
紿	-11.6553
以邾子益來	-11.6553
鄭伯使宛來歸祊	-11.6554
長轂	-11.6555
朾	-11.6556
俛	-11.6557
遼	-11.6558
謟	-11.6558
挑	-11.656
圍宋彭城	-11.6561
蝗	-11.6561
虒祁	-11.6562
不然則否	-11.6562
墮三都	-11.6562
齊人執鄭詹	-11.6562
歐	-11.6562
厨	-11.6563
有疾乃復	-11.6563
清丘之盟	-11.6565
大名府	-11.6569
息媯	-11.657
殽之役	-11.6571
書於策	-11.6572
澶淵之㑹	-11.6575
辦	-11.6628
冺	-11.663
烹	-11.663
蹙	-11.6632
孫明復	-11.6634
彈	-11.6636
詘	-11.6636
泄冶	-11.6636
活	-11.6637
郕伯來奔	-11.6637
捷菑	-11.6638
日講春秋解義卷	-11.664
妣	-11.6641
染	-11.6642
華貙	-11.6644
相息亮反	-11.6644
𤓰	-11.6645
正義曰周礼	-11.6652
苴	-11.6654
.9	-11.6659
攜貳	-11.67
葬宋穆公	-11.6709
齊人遷陽	-11.6711
懾	-11.6712
闔閭	-11.6712
甯俞	-11.6713
昉	-11.6713
仲孫羯如晉	-11.6713
昃	-11.6714
眉	-11.6714
狐壤	-11.6715
肆大眚	-11.6715
虚朾	-11.6716
入于戚以叛	-11.6717
晉荀吳帥師	-11.6717
顙	-11.6719
徼福	-11.6719
熊繹	-11.672
御廪	-11.672
􁉸	-11.672
郿	-11.6721
𬒳	-11.6725
叔姬來歸	-11.6725
澗	-11.6726
鄠	-11.6727
典籍	-11.6728
二年春王二月	-11.6754
前目後凡	-11.6788
軾	-11.6791
癘	-11.6793
入者内弗受也	-11.6794
讟	-11.6795
新作南門	-11.6795
外相如	-11.6797
勅	-11.6798
沼	-11.6798
雎	-11.6798
縊而死	-11.6798
芉	-11.68
孔悝	-11.68
麤	-11.68
鄫季姬	-11.6801
藉口	-11.6801
汴	-11.6801
汋	-11.6802
千五百	-11.6816
曹伯莒子邾子滕子薛伯把伯小邾子	-11.6842
東阿縣	-11.6865
懟	-11.6869
郯伯姬來歸	-11.6871
悍	-11.6872
嵒	-11.6873
斤	-11.6873
稠	-11.6875
綴	-11.6875
中央	-11.6878
竟音境	-11.6878
􁂧	-11.6878
響	-11.6879
時王所黜	-11.6879
饔	-11.6881
殖綽	-11.6883
禆	-11.695
阮	-11.6953
莫甚於	-11.6954
奨	-11.6955
以費叛	-11.6955
魁	-11.6956
鞫	-11.6956
軋	-11.6958
不志此其志何也	-11.6959
十有四	-11.6961
築囿	-11.6963
滎澤	-11.6966
薨于夷	-11.6971
曹伯莒子邾子滕子薛伯杞伯小邾子	-11.7017
春秋大事表卷	-11.7026
齊人取子糾殺之	-11.7028
來盟于師	-11.7028
吝	-11.7029
叟	-11.7031
右一著例	-11.7031
伐英氏	-11.7032
或日或不日	-11.7034
臧僖伯	-11.7035
宋人執鄭祭仲	-11.7035
武王克殷	-11.7035
舌	-11.7035
敞	-11.7035
千乗之國	-11.7036
鄭伯克段于鄢	-11.7036
捍	-11.7037
澮	-11.7037
䘏	-11.7037
籍談	-11.7037
亡無日矣	-11.7037
伯姬歸于紀	-11.7038
縷	-11.7038
贛	-11.7038
築郎囿	-11.7039
赤歸于曹	-11.7039
邠	-11.704
東莞	-11.7042
濰	-11.7047
長垣縣	-11.7058
莭	-11.7109
輈	-11.7112
方伯連帥	-11.7113
次于五氏	-11.7113
羇	-11.7114
継	-11.7115
徂	-11.7115
楚公子嬰齊帥師伐鄭	-11.7116
其文則史	-11.7116
饑饉	-11.7118
断	-11.712
鄢陵之戰	-11.7121
孫炎曰	-11.7122
考工記	-11.7122
朝聘之數	-11.7123
季友仲遂	-11.7123
趙氏匡曰	-11.7123
黜陟	-11.7123
有奉焉	-11.717
眇	-11.7189
樸	-11.7193
禫	-11.7194
歸粟于蔡	-11.7195
顛倒	-11.7195
虔	-11.7195
桓宫僖宫	-11.7195
儼	-11.7195
孟孝伯	-11.7197
餓	-11.7197
王樵氏曰	-11.7198
伐楚以救江	-11.7199
羲	-11.7199
繻葛	-11.7199
檟	-11.72
诸	-11.72
㳂	-11.7202
贖	-11.7202
荀寅士吉射	-11.7203
方城之外	-11.7203
公及戎盟于唐	-11.7204
貉	-11.7208
劉蚠	-11.7208
妘姓	-11.7208
秋叔孫僑如如齊	-11.7208
督揚	-11.7211
秬鬯	-11.7213
可不謹	-11.7232
啓蟄	-11.7261
從其恒稱	-11.7277
燼	-11.7279
朴	-11.728
表裏	-11.7281
宋人伐鄭圍長葛	-11.7281
齊侯唁公于野井	-11.7281
黿	-11.7284
趙伯循	-11.7284
踣	-11.7284
勾	-11.7285
内弗受	-11.7286
斐	-11.7286
丞	-11.7287
鬱	-11.7287
裹	-11.7287
孔氏穎達曰	-11.7287
許叔入于許	-11.7288
級	-11.729
蠡	-11.7291
嗣立明年	-11.7293
以諸侯之師伐	-11.7295
燔	-11.7296
曷為或言	-11.7318
啖趙	-11.7328
枵	-11.7364
鹿上之盟	-11.7364
瓘	-11.7364
黻冕	-11.7365
為賢者諱	-11.7365
郳黎來	-11.7366
蔡季自陳歸于蔡	-11.7367
公會晉侯齊侯宋公	-11.7368
槐	-11.7368
合晉楚之成	-11.7368
日月星辰	-11.737
許世子止	-11.737
騂	-11.737
波	-11.7371
纁	-11.7372
次于垂葭	-11.7372
聾	-11.7374
怠慢	-11.7375
田孟諸	-11.7379
然則曷為不	-11.7384
1.1	-11.739
建子之月	-11.7438
將卑師衆	-11.7444
包茅	-11.7446
芋	-11.7447
執齊慶封殺之	-11.7449
母以子貴	-11.745
築鹿囿	-11.745
鼷鼠	-11.7451
剥	-11.7455
諒闇	-11.7455
者鮮矣	-11.7455
縫	-11.7456
君其圖之	-11.7457
鄭玄云	-11.7458
劔	-11.7459
與民同	-11.7491
莠	-11.7532
臧孫辰告糴于齊	-11.7532
不可不察也	-11.7534
曹伯歸自京師	-11.7534
亞旅	-11.7537
驛	-11.7537
不可掩矣	-11.7537
蚡冒	-11.7538
王者無外	-11.7539
殺其君之子	-11.7539
伍員	-11.7539
夫槩王	-11.754
个	-11.754
蒍賈	-11.754
陳侯之弟招殺陳世子偃師	-11.754
祭叔來聘	-11.7541
公子遂如齊逆女	-11.7541
孫氏覺曰	-11.7542
彝	-11.7542
縗	-11.7545
郫	-11.7546
鸞	-11.755
仲虺	-11.7559
及楚人戰	-11.7565
箾	-11.7615
公子目夷	-11.7616
鹿鳴	-11.7617
筭	-11.7617
椁	-11.7619
瘧	-11.7619
徐人取舒	-11.7619
隰朋	-11.762
卜郊不從	-11.7621
錮欒氏	-11.7624
藪澤	-11.7624
杏	-11.7625
宋公使華元來聘	-11.7626
鄧曼	-11.7626
縳	-11.7626
箭	-11.7628
不嘗藥	-11.7629
掖	-11.7632
侯于郕	-11.7656
劌	-11.7696
祲	-11.7704
齊人執子叔姬	-11.7706
叔孫州仇仲孫何忌帥師圍郈	-11.7707
粢	-11.771
柰	-11.7711
稱國以殺而不去其官	-11.7711
囂	-11.7712
晉侯使士鞅來聘	-11.7715
𠂻	-11.7715
背音佩	-11.7716
京相璠曰	-11.7718
夙沙衛	-11.7718
鬯	-11.7722
沔	-11.7724
蠢	-11.7787
恒星不見	-11.7792
挽	-11.7794
獒	-11.7795
趙汸曰	-11.7796
齊人執單伯	-11.7796
啻	-11.7797
方伯連帥之職	-11.7798
瑶	-11.7799
鞠	-11.7799
衣裳之㑹	-11.78
鯈	-11.7801
新延廐	-11.7802
去起吕反	-11.7803
中行穆子	-11.7803
紫	-11.7806
郔	-11.7807
趙嬰	-11.7828
葵	-11.7879
以妾為妻	-11.7881
慊	-11.7882
鉤	-11.7884
鄭伯逃歸不盟	-11.7885
以自遷為文	-11.7885
捕	-11.7885
冬仲孫何忌帥師伐邾	-11.7886
公追戎于濟西	-11.7886
曠年無君	-11.7886
陸費墀	-11.7887
寰内諸侯	-11.7887
馹	-11.7887
可謂深切著明矣	-11.7887
齊師滅譚	-11.7888
旆	-11.7888
二千五百人	-11.789
饌	-11.7891
澠	-11.7892
炫	-11.7893
侵曹伐衛	-11.7893
淇	-11.7893
檜	-11.7894
峻	-11.7894
詎	-11.797
鞮	-11.7974
護	-11.7975
大宰嚭	-11.7975
陸錫熊	-11.7976
孫士毅	-11.7976
鄵	-11.7978
丹桓宫楹	-11.7978
孔父仇牧	-11.7979
肹	-11.798
葺	-11.7981
坂	-11.7982
邰	-11.7983
霤	-11.7983
從同同	-11.7984
爇	-11.7988
僨	-11.8056
荆敗蔡師	-11.8061
輕重之權衡	-11.8063
鈎	-11.8063
㤀	-11.8064
疢	-11.8065
踞	-11.8065
盱	-11.8065
宋人弑其君杵臼	-11.8066
既而悔之	-11.8066
始朝公也	-11.8068
晉人圍郊	-11.8068
諸侯放恣	-11.8069
滕侯薛侯來朝	-11.807
見賢遍切	-11.8072
跨	-11.808
譆	-11.8153
邦衡胡氏曰	-11.8153
韙	-11.8153
狄入衛	-11.8154
厄	-11.8155
天王入于成周	-11.8156
月恭校上總纂官	-11.8156
誅亂臣討賊子	-11.8157
鞍	-11.8157
㑹王世子于首止	-11.8157
公子遂叔孫得臣如齊	-11.8158
大一統	-11.816
餬	-11.816
瓠	-11.8162
褐	-11.8165
晝夜	-11.8168
許男新臣卒	-11.8241
岌	-11.8242
遐	-11.8245
公及宋公遇于清	-11.8245
弄	-11.8246
䢵	-11.8246
男女之别	-11.8246
魏曼多	-11.8247
公子翬如齊逆女	-11.8247
聵	-11.8247
取賂而還	-11.825
瞑	-11.825
濳	-11.825
伊雒之戎	-11.825
興滅國繼絶世	-11.825
閣	-11.8251
跗	-11.8251
同盟于蟲牢	-11.8252
叔弓如宋	-11.8252
雁	-11.8254
春秋左氏傳注疏卷	-11.8254
洲	-11.8254
椑	-11.8256
已滅矣	-11.8258
2.2	-11.8261
寰宇記	-11.8264
滎	-11.829
至河乃復	-11.8293
1.2	-11.8307
百餘年	-11.8316
公子遂如楚乞師	-11.8331
媿	-11.8333
耗	-11.8334
儋括	-11.8335
袵	-11.8336
有自來矣	-11.8337
丸	-11.8338
卒于曲棘	-11.8339
祭公來遂逆王后于紀	-11.8339
粲	-11.834
敗頓胡沈蔡陳許之師	-11.834
河曲之戰	-11.834
公子遂如京師遂如晉	-11.8341
惕	-11.8341
鄍	-11.8341
芟	-11.8341
鶂	-11.8341
跳	-11.8342
綱領	-11.8342
弑逆之賊	-11.8343
斿	-11.8344
鄭及晉平	-11.8345
蘩	-11.8345
同外楚	-11.8345
孔晁	-11.8346
聳	-11.8346
茀	-11.8346
瑜	-11.8346
誑	-11.8347
潼	-11.8348
榦	-11.8349
胡安國曰按左氏	-11.8363
齊師宋師曹師城邢	-11.8427
蒞	-11.843
愁	-11.8431
公及齊大夫盟于蔇	-11.8431
魯史之舊	-11.8432
瘳	-11.8432
翕	-11.8432
疥	-11.8433
呈	-11.8433
疫	-11.8434
齊人殱于遂	-11.8434
頺	-11.8435
亡國之社	-11.8435
恐懼修省	-11.8436
用大衆	-11.8437
狐駘	-11.8437
吞噬	-11.8439
孔氏穎逹曰	-11.844
悌	-11.8441
馮翊	-11.8442
黍稷	-11.8442
浹	-11.8442
咮	-11.8443
胡安國	-11.8456
亀	-11.8458
逋	-11.8501
聖人之情見矣	-11.8523
騷	-11.8524
禴	-11.8524
毁廟之主	-11.8524
齊人歸我濟西田	-11.8525
紀季以酅入于齊	-11.8526
忮	-11.8526
院	-11.8526
的	-11.8527
㢘	-11.8528
佹	-11.8529
簞	-11.8529
慿陵	-11.8529
陳侯鮑卒	-11.853
夫人子氏薨	-11.853
讙闡	-11.8531
伉儷	-11.8532
墳	-11.8532
穪	-11.8533
楽	-11.8533
馨	-11.8533
頹	-11.8533
饔餼	-11.8534
餞	-11.8534
讀舊書	-11.8534
大夫無遂事	-11.8534
祼	-11.8535
疵	-11.8535
隷	-11.8536
寮	-11.8536
二王之後	-11.8538
10.3	-11.8541
王師敗績于茅戎	-11.8612
惴	-11.8617
臺駘	-11.8618
闘	-11.8621
新作雉門及兩觀	-11.8621
圉人犖	-11.8621
單伯㑹伐宋	-11.8623
庖	-11.8623
公子益師卒	-11.8623
枯	-11.8623
居于皇	-11.8624
憊	-11.8625
稚	-11.8627
坻	-11.8627
鉅	-11.8627
膏肓	-11.8628
郁	-11.863
摧	-11.8631
饘	-11.8631
璠	-11.8632
嶧	-11.8635
無聞焉	-11.8704
觴	-11.8715
書其重者	-11.8715
恬	-11.8716
絻	-11.8718
摩	-11.8719
内大惡諱	-11.872
伍奢	-11.872
王孫蘇	-11.8721
幷	-11.8722
胷	-11.8722
近刑人	-11.8726
有國家者	-11.8728
蘇忿生	-11.8728
姨	-11.8737
四年春王正月公	-11.8777
宋司馬華孫來盟	-11.8813
延州來季子	-11.8813
儋翩	-11.8816
晉人殺欒盈	-11.8816
涸	-11.8818
晉侯使士匄來聘	-11.8819
骸	-11.8819
丹楹刻桷	-11.8822
薨于乾侯	-11.8823
鄭世子華	-11.8823
郡國志	-11.8823
顕	-11.8827
公子貞帥師	-11.8828
濬	-11.8828
囲	-11.8851
梁益耳	-11.8874
貜	-11.8908
天理滅矣	-11.8909
禘于太廟用致夫人	-11.8912
斛	-11.8913
諉	-11.8913
孰甚焉	-11.8913
慆	-11.8913
戎伐凡伯	-11.8914
先蔑奔秦	-11.8914
魅	-11.8914
葬陳哀公	-11.8916
迋	-11.8917
鵬	-11.8918
擕	-11.892
燭之武	-11.892
泝	-11.892
駮	-11.8921
陈	-11.8921
演	-11.8921
鼬	-11.8922
注及下同	-11.8922
魯史舊文	-11.9005
雉門兩觀	-11.9007
虗	-11.9009
廿	-11.901
蝥	-11.9012
彼善於此	-11.9012
及者内為志	-11.9012
汰侈	-11.9012
凍	-11.9014
傎	-11.9014
口血未乾	-11.9015
慨	-11.9015
𫝑	-11.9015
鬷戾	-11.9015
肇	-11.9016
刻桓宫桷	-11.9016
王札子殺召伯毛伯	-11.9017
祉	-11.9017
髙渠彌	-11.9017
六鷁退飛	-11.902
焉於䖍反	-11.902
綺	-11.9022
十有八	-11.905
2.3	-11.9088
傒	-11.9105
叱	-11.9109
至黄乃復	-11.911
褰	-11.911
出居于鄭	-11.911
郭璞曰	-11.911
鉅鹿	-11.9114
䋲	-11.9114
花	-11.9115
櫝	-11.9115
怵	-11.9116
土地人民	-11.9116
影	-11.9118
焚咸丘	-11.9118
墉	-11.912
為後戒也	-11.912
古人有言曰	-11.9121
蕘	-11.9123
從才用反	-11.9125
烏路反	-11.9202
瓚	-11.9206
降而稱子	-11.9209
菁	-11.9211
動大衆	-11.9212
脇	-11.9213
㤙	-11.9214
苞	-11.9214
稱國以殺罪累上也	-11.9214
朔旦冬至	-11.9215
納頓子于頓	-11.9215
四時之祭	-11.9215
納公孫寧儀行父于陳	-11.9216
妬	-11.9218
抉	-11.9221
戎伐凡伯于楚丘以歸	-11.9221
好呼報切	-11.9221
訂	-11.9221
氐	-11.9222
舟之僑	-11.9225
軘	-11.9228
宋公陳侯蔡人衛人伐鄭	-11.9309
㸃	-11.931
揺	-11.931
鼷䑕食郊牛	-11.9311
公子慶父出奔莒	-11.9313
乳	-11.9313
訥	-11.9314
晉侯殺其世子申生	-11.9315
以日月為例	-11.9315
蚡泉	-11.9315
劉夏逆王后于齊	-11.9316
以王父字為氏	-11.9317
與聞乎故	-11.9317
戕鄫子于鄫	-11.9317
師夜遁	-11.9318
囬	-11.9318
雨木冰	-11.9319
其弟云者	-11.9319
泆	-11.932
汸	-11.932
寐	-11.932
逰	-11.9321
弇	-11.9321
言於齊侯曰	-11.9321
大雨震電	-11.9322
挟	-11.9322
介音界	-11.9323
涼	-11.9327
生二子曰	-11.9396
千六百	-11.9401
齊陽生入于齊	-11.9415
宋子哀來奔	-11.9415
將尊師少	-11.9419
扇	-11.9421
秦伯之弟鍼	-11.9423
敷	-11.9423
初稅畝	-11.9424
沴	-11.9425
嗇	-11.9427
忒	-11.9427
為桓公諱	-11.9427
公及邾儀父盟于蔑	-11.9428
涌	-11.9429
孑	-11.9429
勁	-11.943
牒	-11.943
杜佑通典	-11.943
覦	-11.9432
堞	-11.9435
4.2	-11.9499
百餘里	-11.9511
莒人邾人滕人薛人杞人小邾人	-11.9518
公伐邾取訾婁	-11.9518
仲遂卒于垂	-11.9521
趙汸補注曰	-11.9522
猶朝于廟	-11.9522
用者不宜用也	-11.9523
匹夫匹婦	-11.9523
戰不言伐	-11.9523
叩	-11.9523
陳人圍頓	-11.9524
鄎	-11.9524
翣	-11.9524
蜮	-11.9524
陳君舉	-11.9525
春秋集義卷	-11.9526
夫人姜氏會齊侯于	-11.9526
平莒及郯	-11.9527
齊侯伐北燕	-11.9529
棋	-11.9529
襄陽府	-11.9531
句瀆之丘	-11.9533
魂	-11.9554
憐	-11.9625
立者不宜立也	-11.9625
諶	-11.9627
虞師晉師滅下陽	-11.9627
芥	-11.9627
蒲餘侯	-11.9628
不亦甚乎	-11.9629
無駭帥師入極	-11.9629
為尊者諱	-11.9629
状	-11.9629
不没其實	-11.963
羹	-11.963
棗	-11.963
卒于鄵	-11.9631
冩	-11.9631
求名而不得	-11.9631
禋	-11.9632
罪累上也	-11.9632
公歛處父	-11.9632
潁考叔	-11.9633
参	-11.9633
萇	-11.9633
遂繼事也	-11.9634
伐鄭圍新城	-11.9635
樂音洛	-11.9636
左傳杜林合注卷	-11.9637
其言入何	-11.9649
讞	-11.9666
劉氏敞	-11.9674
夏時冠周月	-11.973
茨	-11.973
窺伺	-11.9731
墊隘	-11.9732
士吉射	-11.9733
諛	-11.9733
汨	-11.9733
及蘇子盟于女栗	-11.9734
撥亂反正	-11.9735
歸邾子益于邾	-11.9735
拏	-11.9735
轂	-11.9736
公子友如陳葬原仲	-11.9737
圜	-11.9738
序齊上	-11.974
豔	-11.974
晉楚之從交相見	-11.974
汴梁路	-11.9741
寰	-11.9741
蘇氏轍曰	-11.9742
堊	-11.9743
邾子克卒	-11.9743
鼓用牲于社	-11.9744
蔓成然	-11.9746
今知不然者	-11.9747
刳	-11.9749
豊	-11.9751
彚	-11.9759
魚臺縣	-11.9793
褚	-11.9812
貫道王氏曰	-11.9833
室屋壞	-11.9835
月下辛卜	-11.9835
瑰	-11.9838
執牛耳	-11.9838
脂	-11.9839
沉	-11.9839
繼弑君不言即位	-11.9841
許遷于葉	-11.9842
春秋類提要	-11.9842
羣廟之主	-11.9842
疚	-11.9842
秦人入鄀	-11.9843
停	-11.9844
宋魚石復入于彭城	-11.9845
戀	-11.9845
拊	-11.9845
諸侯遂圍許	-11.9845
胡子髠沈子	-11.9846
苗賁皇	-11.9846
猥	-11.9847
謳	-11.9847
季姬歸于鄫	-11.9847
竪	-11.9848
陛	-11.9849
勵	-11.9849
薰	-11.9851
莵	-11.9852
秣	-11.9852
奎	-11.9852
蘋	-11.9853
掉	-11.9853
魂魄	-11.9853
孫叔敖	-11.9855
筐	-11.9947
晉趙盾帥師救陳	-11.995
莫重乎	-11.9951
嘖	-11.9951
楚子伐陸渾之戎	-11.9951
雨螽于宋	-11.9951
公與夫人姜氏遂如齊	-11.9951
于袲伐鄭	-11.9952
宋師圍曹	-11.9953
塊	-11.9954
斧鉞	-11.9954
柝	-11.9956
凉	-11.9956
添	-11.9956
啖氏助曰	-11.9957
悝	-11.996
斲	-11.9962
倣	-12.003
离	-12.0044
濯	-12.005
衛師入郕	-12.0052
壊隤	-12.0053
齊國夏帥師伐我西鄙	-12.0054
壞隤	-12.0056
櫕	-12.0057
乙未楚子昭卒	-12.0057
謡	-12.0058
天王使宰咺來歸惠公仲子之賵	-12.0059
新延廏	-12.0059
及晉處父盟	-12.006
以蔡侯獻舞歸	-12.006
叅	-12.006
納捷菑于邾	-12.0061
上無天子下無方伯	-12.0062
炊	-12.0062
㦲	-12.0062
不待貶絶而罪惡見	-12.0062
掎	-12.0063
睔	-12.0064
沈氏云	-12.0064
婺	-12.0064
討不庭	-12.0065
乃克葬	-12.0065
隄	-12.0065
扳	-12.0065
餱	-12.0065
沾	-12.0066
佑	-12.0066
縦	-12.0068
翫	-12.0071
譌	-12.0073
逄	-12.0074
頥	-12.0086
婼至自晉	-12.0155
崤	-12.017
壑	-12.0171
蠭	-12.0171
核	-12.0172
擒	-12.0173
糴茷	-12.0173
以璧假	-12.0174
疆戚田	-12.0176
鄭殺其大夫申侯	-12.0176
堤	-12.0177
翠	-12.0178
鬛	-12.0178
濟河焚舟	-12.0179
瞞	-12.0179
網	-12.0181
酸棗	-12.0183
何以書記異也何異爾	-12.0184
歸徳府	-12.0188
西安府	-12.0189
月辛丑大	-12.0263
兩楹之間	-12.0276
三月公如楚	-12.0281
罄	-12.0281
㨿	-12.0282
帳	-12.0282
糞	-12.0283
公孫兹如牟	-12.0283
以赴書也	-12.0284
譚子奔莒	-12.0285
外取邑不書此何以書	-12.0286
豈一朝一夕之故哉	-12.0286
以地正國	-12.0286
自周無出	-12.0286
嬀	-12.0287
曩	-12.0287
飴甥	-12.0287
晉侯執曹伯歸于京師	-12.0288
郕降于齊師	-12.0288
錢	-12.0289
軼	-12.0289
减	-12.029
汎	-12.029
黝	-12.0291
西乞術	-12.0291
程氏端學曰	-12.0292
劇	-12.0293
簫	-12.0293
傍	-12.0293
熸	-12.0293
知音智	-12.0294
村	-12.0297
笏	-12.0301
灵	-12.0303
其言歸何	-12.0322
璽	-12.0371
楚子重伐	-12.0383
瞫	-12.0392
縞	-12.0392
不旋踵	-12.0393
壬午猶繹萬入去籥	-12.0394
齊師遷紀郱鄑郚	-12.0394
尹氏召伯毛伯以王子朝奔楚	-12.0395
叔孫豹鄫世子巫如晉	-12.0396
將尊師衆	-12.0396
矦	-12.0397
公斂處父	-12.0397
尊君抑臣	-12.0399
高郵孫氏曰	-12.0399
鐡	-12.04
釋詁文	-12.04
牝	-12.04
夫人氏之喪至自齊	-12.0401
溥	-12.0401
蚡	-12.0402
紐	-12.0403
綜	-12.0403
閠	-12.0404
月癸酉大	-12.0405
父音甫	-12.0406
任音壬	-12.0406
叔振鐸	-12.0408
雌	-12.0409
礱	-12.0412
孺	-12.046
蕭同姪子	-12.0504
王子瑕奔晉	-12.0508
齊陳乞弑其君荼	-12.0508
髙抑崇曰	-12.051
齊人歸公孫敖之喪	-12.0511
陸粲曰	-12.0511
言於晉侯曰	-12.0512
遂城郚	-12.0513
絶不為親	-12.0513
繅	-12.0514
矧	-12.0514
蝕	-12.0514
别彼列反	-12.0515
鎭	-12.0515
公孫敖帥師及諸侯之大夫救徐	-12.0517
場	-12.0517
仆	-12.0518
瘁	-12.0518
不腆先君之	-12.0518
又東南經	-12.0519
掫	-12.0522
厉	-12.0523
月壬寅大	-12.0537
月戊寅大	-12.0575
啓蟄而郊	-12.0616
姆	-12.0619
淖	-12.0621
局	-12.0622
養由基	-12.0627
不為雨止	-12.0627
春秋闕疑卷	-12.0627
霆	-12.0628
劉子單子以王猛居于皇	-12.0628
公及莒人盟于浮來	-12.0629
焞	-12.063
詞繁而不殺	-12.063
同惡相濟	-12.0631
晉趙武楚屈建	-12.0631
釡	-12.0632
闚	-12.0632
楚子鄭人侵陳遂侵宋	-12.0632
鼷	-12.0632
鄭世子忽復歸于鄭	-12.0634
学	-12.0634
武王伐紂	-12.0634
兌	-12.0635
貎	-12.0636
掘	-12.0639
炙	-12.0639
鸛	-12.0645
月癸巳大	-12.0699
月庚午大	-12.0703
公敗齊師于長勺	-12.0737
趙鵬飛	-12.0741
龍見而雩	-12.0741
楚殺其大夫公子壬夫	-12.0741
湎	-12.0742
酷	-12.0743
葭	-12.0745
難乃旦切	-12.0746
桃丘弗遇	-12.0747
鄭伯使其弟語來盟	-12.0747
晉魏曼多帥師侵衛	-12.0748
邾人牟人葛人來朝	-12.0748
㓙	-12.0748
垢	-12.0749
仲孫何忌及邾子盟	-12.0749
楚公子棄疾殺公子比	-12.075
蕭同叔子	-12.075
僮	-12.0751
秦人白狄伐晉	-12.0751
侔	-12.0751
天王使家父來求車	-12.0752
籩豆	-12.0752
頎	-12.0753
埀	-12.0753
楚子䖍誘蔡侯般殺之于申	-12.0753
遞	-12.0754
涑	-12.0757
七輿大夫	-12.0758
燧	-12.076
嶺	-12.0762
衛孫林父曹人邾	-12.0802
秋取根牟	-12.0861
天王使毛伯來錫公命	-12.0862
易樹子	-12.0862
憝	-12.0862
救患分災	-12.0864
公㑹吳伐齊	-12.0864
子結媵陳人之婦于鄄遂及齊侯宋公盟	-12.0864
齊侯襲莒	-12.0865
盜殺蔡侯申	-12.0866
蔡遷于州來	-12.0866
宋公陳侯衞侯曹伯	-12.0866
邾人鄭人伐宋	-12.0866
慶虎慶寅	-12.0866
夏五月丁丑烝	-12.0867
楚殺其大夫得臣	-12.0868
澂	-12.0869
飭	-12.087
孕	-12.0871
八月丁丑夫人姜氏入	-12.0871
及陳袁僑盟	-12.0871
冬有星孛于大辰	-12.0872
若贅旒	-12.0872
舍音捨	-12.0872
番	-12.0873
紘	-12.0874
他皆放此	-12.0876
鈇	-12.0879
汝寧府	-12.0879
繄	-12.0881
奈	-12.0952
晉陽處父帥師伐楚以救江	-12.0984
貴戚之卿	-12.0985
儻	-12.0985
邾庶其以漆閭丘來奔	-12.0986
公㑹諸侯晉大夫盟于扈	-12.0986
吉禘于莊公	-12.0986
奭	-12.0987
僥倖	-12.0987
鄭忽出奔衛	-12.0988
歸諸京師	-12.0988
㸔	-12.0988
躡	-12.0989
訽	-12.099
尔	-12.099
王人子突救衛	-12.099
冬城向	-12.099
莒弑其君庶其	-12.0991
鑄刑書	-12.0991
紆	-12.0991
隕霜不殺草李梅實	-12.0992
欑	-12.0992
羌	-12.0992
縢	-12.0992
楚人執鄭行人良霄	-12.0993
王氏葆曰	-12.0994
王氏樵曰	-12.0994
殲	-12.0994
𩔖	-12.0996
少詩照反	-12.0997
陳直覲	-12.0997
灑	-12.0998
月癸丑大	-12.1055
丁亥楚子入陳	-12.1103
捘	-12.1103
忤	-12.1105
榖伯綏	-12.1106
月庚子大	-12.1106
曹伯襄復歸于曹	-12.1107
錫桓公命	-12.1108
𣸪	-12.1108
侯犯以郈叛	-12.1108
瘈	-12.1108
月壬子大	-12.1108
月丁卯大	-12.1109
薛弑其君比	-12.1109
泛	-12.1109
恢	-12.1109
愾	-12.111
韎	-12.111
綘	-12.1111
大衍歴正月	-12.1113
聿	-12.1113
杜氏諤曰	-12.1114
冬城防	-12.1115
燥	-12.1115
蕰	-12.1116
畛	-12.1117
縉	-12.1117
臨川呉氏曰	-12.1118
舂	-12.1119
劓	-12.1122
月丙辰大	-12.1152
月戊申大	-12.1152
月丙子大	-12.1158
月己酉大	-12.1162
月甲戌大	-12.1198
月丁酉大	-12.1218
師次于郎以俟陳人蔡人	-12.1226
徯	-12.1226
跣	-12.1227
以尊及卑	-12.1228
楚子蔡侯次于厥貉	-12.1229
莒慶來逆叔姬	-12.1229
鄧侯吾離來朝	-12.123
辛未取郜辛巳取防	-12.123
不日此何以日	-12.1231
衛公孟彄帥師伐曹	-12.1232
嫠	-12.1232
陳殺其大夫洩冶	-12.1232
齊殺其大夫國佐	-12.1233
冬紀侯來朝	-12.1233
八月甲戌同盟于平丘	-12.1233
圓	-12.1234
蔡公孫歸生	-12.1234
宋蕩伯姬來逆婦	-12.1234
夏公如齊觀社	-12.1235
罹	-12.1235
公㑹齊侯于濼	-12.1235
脣	-12.1236
粥	-12.1236
将卑師少	-12.1237
嫳	-12.1238
剄	-12.1238
者孰謂謂	-12.1238
長丁丈切	-12.1238
周公忌父	-12.124
諦	-12.124
月辛未大	-12.1271
月丙午大	-12.1303
月丁丑大	-12.1306
覯	-12.1349
齊師宋師次于郎	-12.1349
秋有蜚	-12.1349
春秋無義戰	-12.1351
擯	-12.1352
晉侯夷吾卒	-12.1353
睨	-12.1353
公㑹晉師于瓦	-12.1354
邾子來奔喪	-12.1356
昨	-12.1356
寃	-12.1356
楚人敗徐于婁林	-12.1357
按本例云	-12.1357
秦人來歸僖公成風之襚	-12.1357
蓍	-12.1357
豷	-12.1358
仲山甫	-12.1358
為後世鑒	-12.1358
晉趙鞅歸于晉	-12.1358
旰	-12.1359
迯	-12.1359
東郭書	-12.136
丙午及荀庚盟丁未及孫良夫盟	-12.1361
喬	-12.1361
溠	-12.1361
餌	-12.1361
澶	-12.1361
琮	-12.1364
許遷于夷	-12.1364
脰	-12.1365
䘙	-12.1366
轄	-12.1366
厎	-12.1366
両	-12.1367
摽	-12.1368
関	-12.1369
僖負羈	-12.137
月乙未大	-12.1374
莬	-12.1374
月甲寅大	-12.1406
月己亥大	-12.1426
建酉之月	-12.1467
避其號	-12.1478
楚人陳侯蔡侯鄭伯許男圍宋	-12.1481
比事而觀	-12.1481
渴	-12.1481
公㑹齊侯于平州	-12.1484
訓之義大矣	-12.1484
鱄設諸	-12.1485
租	-12.1485
秋宋大水	-12.1486
侯宋公衛侯曹伯伐鄭	-12.1486
萑	-12.1486
鏤	-12.1487
克寛曰	-12.1487
伐國不言圍邑	-12.1488
武穆之族	-12.1488
楚子誘戎蠻子殺之	-12.1489
惏	-12.1489
鄱	-12.149
文之昭也	-12.149
齡	-12.1491
賑	-12.1491
瑟	-12.1491
傑	-12.1493
月壬辰大	-12.151
月丙申大	-12.152
月丁巳大	-12.1536
月庚寅大	-12.1549
九月辛丑用郊	-12.16
公及齊人狩于禚	-12.1605
邜	-12.1607
螭	-12.1607
敗狄于鹹	-12.1607
慿	-12.1609
玊	-12.1609
譎而不正	-12.161
衛侯燬滅邢	-12.161
使孫良夫來盟	-12.161
几筵	-12.161
撻	-12.1611
蔡世子般	-12.1611
天火曰災	-12.1611
銷	-12.1612
觕	-12.1612
扄	-12.1612
攅	-12.1612
絏	-12.1613
宋人衛人入鄭	-12.1613
世衰道微	-12.1613
郊牛之口傷改卜牛牛死乃不郊	-12.1616
㪚	-12.1617
季孫行父帥師城諸及鄆	-12.1618
罸	-12.1619
刈	-12.1621
勢益張	-12.1622
鵒	-12.1623
月乙巳大	-12.1662
月庚戌大	-12.1687
月甲午大	-12.1725
顏	-12.1729
翹	-12.1731
齊人陳人曹人伐宋	-12.1735
氣餘一千	-12.1736
腯	-12.1737
靷	-12.1737
冨	-12.1739
楚殺其大夫公子申	-12.1739
昩	-12.1739
荆敗蔡師于莘	-12.174
东	-12.174
尓	-12.1741
介人侵蕭	-12.1742
晉師白狄伐秦	-12.1743
鄭伯㑹公于棐	-12.1743
城莒父及霄	-12.1743
人道之大倫	-12.1744
倘	-12.1745
牛羊豕	-12.1745
楚公子貞帥師救鄭	-12.1745
豈禮也哉	-12.1747
死且不朽	-12.1747
銓	-12.1747
聘且涖盟	-12.1749
秬	-12.1761
月丙戌大	-12.1771
月庚申大	-12.178
月戊子大	-12.1823
月辛丑小	-12.1824
抵	-12.1846
楚人殺陳夏徴舒	-12.1865
宋人圍滕	-12.1867
儁	-12.1867
薳啟疆	-12.1869
叔弓帥師疆鄆田	-12.187
以自奔為文	-12.1871
輜	-12.1872
獲陳夏齧	-12.1872
凛	-12.1873
樽	-12.1873
於越入呉	-12.1874
犧牲玉帛	-12.1874
築臺于薛	-12.1874
請平于晉	-12.1875
蘧伯玉	-12.1875
洹	-12.1875
炳	-12.1875
以亂易亂	-12.1875
綦	-12.1876
蓬	-12.1876
公孫歸父㑹楚子于宋	-12.1878
㒺	-12.1879
不善之積	-12.1879
未知孰是	-12.1879
郹	-12.188
守手又反	-12.1883
月甲申大	-12.1884
琅琊	-12.1884
窕	-12.1893
月甲辰大	-12.1904
月癸酉小	-12.1925
公追齊師至酅弗及	-12.1998
四丘為甸	-12.2001
跖	-12.2002
鄆讙龜陰	-12.2002
片	-12.2003
夏五月公四不視朔	-12.2004
何常之有	-12.2004
監本訛作	-12.2005
邂	-12.2005
春秋辯義卷	-12.2005
冬城漆	-12.2005
敗秦師于殽	-12.2005
誡	-12.2006
叔弓帥師圍費	-12.2008
標	-12.2008
城諸及鄆	-12.2009
子産相鄭伯	-12.2009
遯	-12.2009
秦伯罃卒	-12.201
楚人執徐子	-12.201
冬宋人取長葛	-12.201
豪	-12.2011
塞井夷竈	-12.2012
不鼓不成列	-12.2013
很	-12.2014
李廵曰	-12.2014
九月僑如以夫人婦姜氏至自齊	-12.2015
縋	-12.2015
韭	-12.2015
蒿	-12.2016
腥	-12.2017
畒	-12.2018
簿	-12.2024
千八百	-12.203
戊寅叔孫豹及諸侯之大夫及陳袁僑盟	-12.2138
矢魚于棠	-12.2138
迓	-12.2138
不能防閑其母	-12.2139
評	-12.214
逅	-12.214
秦伯使術來聘	-12.214
夏四月三卜郊不從乃免牲	-12.2141
叔還如鄭涖盟	-12.2141
晉人執季孫意如以歸	-12.2141
蔡侯鄭伯㑹于鄧	-12.2142
公以楚師伐齊取榖	-12.2142
薳啓彊	-12.2142
媾	-12.2142
冬徐伐莒	-12.2142
璣	-12.2143
棘櫟麻	-12.2143
翻	-12.2144
労	-12.2144
廬陵李	-12.2145
陳侯之弟黄出奔楚	-12.2145
坫	-12.2145
韠	-12.2145
公狩于郎	-12.2145
陳人殺其大夫公子過	-12.2146
曹伯使其世子射姑來朝	-12.2146
月丙寅大	-12.2147
楊士勛	-12.2147
令力呈反	-12.2147
内無所承上不請命	-12.2148
顔師古	-12.2148
使所吏切	-12.2149
侵蔡蔡潰遂伐楚	-12.2154
窋	-12.2154
胸	-12.2158
月丁亥大	-12.2177
月癸亥小	-12.2187
人者衆辭	-12.2189
月甲子小	-12.219
月丁酉小	-12.2225
苕	-12.2253
大衍厯是年閏	-12.2259
刲	-12.2259
笱	-12.227
丙申公及楚人秦人宋人陳人	-12.2272
春秋正傳卷	-12.2273
戰于城濮楚師敗績	-12.2273
來錫公命	-12.2275
氣餘二千	-12.2275
自十有二月不雨至于秋七月	-12.2275
春秋集註卷	-12.2276
公子慶父帥師伐於餘丘	-12.2276
瞍	-12.2277
贏	-12.2279
存而不削	-12.2279
講信修睦	-12.228
夏四月四卜郊不從乃免牲	-12.228
三月甲戌取須句	-12.2281
及齊侯平莒及郯莒人不肯公伐莒取向	-12.2281
宋西門之外	-12.2281
晉人執我行人叔孫婼	-12.2281
技	-12.2281
胡子髠沈子逞滅獲陳夏齧	-12.2282
經書月三書日	-12.2282
夣	-12.2282
夏后氏之璜	-12.2283
縵	-12.2283
有文在其手	-12.2285
喉	-12.2285
相息亮切	-12.2285
蘄	-12.2286
缾	-12.2287
鄤	-12.2287
夏六月甲戌朔日有食之	-12.2288
鎛	-12.2288
喚	-12.2288
月丁亥小	-12.2292
月庚申小	-12.2309
月己未小	-12.2312
月癸未小	-12.2344
叔孫豹及諸侯之大夫	-12.2358
月丙子小	-12.2362
勘	-12.2409
用天子禮樂	-12.2412
杵	-12.2412
存三亡國	-12.2413
蹯	-12.2413
爪	-12.2414
儋	-12.2414
莒牟夷以牟婁及防兹來奔	-12.2415
秋宋公楚子陳侯蔡侯鄭伯許男曹伯	-12.2416
夏四月甲辰朔日有食之	-12.2416
詠	-12.2417
菆	-12.2417
騅	-12.2417
齊侯弗及盟	-12.2417
歸父還自晉至笙遂奔齊	-12.2418
諸侯之尊弟兄不得以屬通	-12.2418
諸侯之義不得專	-12.2418
愠	-12.2418
廢長立少	-12.2419
其能久乎	-12.242
曹伯負芻卒于師	-12.2421
二月伯姬歸于宋	-12.2421
皐	-12.2422
晉人殺其大夫先都	-12.2422
宋公殺其世子痤	-12.2423
欿	-12.2424
駿	-12.2424
僃	-12.2425
盥	-12.2425
匏	-12.2426
逆叔姬之喪以歸	-12.2427
仝	-12.2427
頷	-12.2428
勒	-12.2429
茹	-12.2432
月壬戌小	-12.2439
月甲申小	-12.2474
月丙寅小	-12.2494
月丙戌小	-12.2509
燄	-12.2554
潞子嬰兒	-12.2555
仲孫羯帥師侵齊	-12.2557
非本義不録	-12.2557
閏月不告月猶朝于廟	-12.2557
天王使仍叔之子來聘	-12.2557
楚人秦人巴人滅庸	-12.2557
陳殺其大夫慶虎及慶寅	-12.2558
鄫子㑹盟于邾	-12.2558
慄	-12.2558
晉人執戎蠻子赤歸于楚	-12.2559
月辛亥小	-12.2559
吠	-12.2559
鄭游速	-12.2559
仲由為季氏宰	-12.2559
六月辛未朔日有食之鼓用牲于社	-12.2559
韡	-12.256
一年不二君	-12.256
夏五月乙未朔日有食之	-12.256
内無所承	-12.256
甲氏留吁	-12.2561
一娶九女	-12.2562
瑯琊	-12.2562
冄	-12.2563
諧	-12.2563
旝	-12.257
銅	-12.257
篳	-12.2572
塴	-12.2572
月乙巳小	-12.2576
月戊辰小	-12.258
月庚寅小	-12.2586
月乙丑小	-12.2687
拙	-12.2689
鬭伯比	-12.2691
歸讙及闡	-12.2695
楚屈完來盟于師盟于召陵	-12.2695
茇	-12.2695
雕	-12.2695
倨	-12.2697
陳侯使袁僑如㑹	-12.2697
葱	-12.2698
蔡殺其大夫公子駟	-12.2698
㧾	-12.2699
仞	-12.2702
行下孟反	-12.2702
陳傅良	-12.2703
夏師及齊師圍郕郕降于齊師	-12.2703
秋築王姬之館于外	-12.2704
隈	-12.2704
蔡人衛人陳人從王伐鄭	-12.2705
秋九月楚子圍宋	-12.2705
皆陳曰戰	-12.2705
悞	-12.2705
額	-12.2706
戱	-12.2706
庭實旅百	-12.2707
藟	-12.2707
叔弓㑹楚子于陳	-12.2707
芘	-12.2707
乘繩證反	-12.2707
沖	-12.2708
薳啓疆	-12.2708
戊寅大夫宗婦覿用幣	-12.2708
袝	-12.2709
㤗	-12.2709
瀦	-12.2709
黄氏仲炎曰	-12.271
隤	-12.271
餮	-12.2711
耼	-12.2711
兗	-12.2711
饕	-12.2711
軹	-12.2713
仙	-12.2713
櫓	-12.2715
囯	-12.2716
麕	-12.2719
䢴	-12.2727
秦景二十	-12.2729
月丁巳小	-12.2741
月壬寅小	-12.2781
胡侍講曰	-12.2837
未詳是否	-12.2838
郝仲輿曰	-12.2839
穰	-12.2839
痁	-12.284
莒人伐杞取牟婁	-12.284
朔餘一千	-12.2841
何辱命焉	-12.2841
可不戒哉	-12.2842
六月壬戌公敗宋師于菅	-12.2843
二十年春新作南門	-12.2843
其義則丘竊取之	-12.2843
齊公子商人弑其君舍	-12.2844
秋晉人敗狄于交剛	-12.2844
魯秉周禮	-12.2844
鍇	-12.2844
曹伯莒子邾子頓子胡子滕子薛伯	-12.2845
楚人滅弦弦子奔黄	-12.2845
三月紀伯姬卒	-12.2845
娵	-12.2845
爽鳩氏	-12.2845
匈	-12.2846
春秋集解卷	-12.2846
秋大水鼓用牲于社于門	-12.2846
祟	-12.2846
公孫寧儀行父	-12.2846
月甲辰小	-12.2846
駸駸	-12.2846
擠	-12.2847
閾	-12.2847
胥命于蒲	-12.2849
蟹	-12.2849
子蔡侯陳侯鄭伯許男徐子滕子頓子胡	-12.285
孔頴達	-12.285
秋七月辛巳豹及諸侯之大夫盟于宋	-12.285
冬公如齊納幣	-12.285
籬	-12.2851
矔	-12.2851
楚人滅舒蓼	-12.2852
儷	-12.2852
邯	-12.2853
射食亦反	-12.2854
陳留襄邑縣	-12.2855
敢不承命	-12.2857
鞞	-12.2859
弢	-12.2985
廼	-12.2986
秋齊侯鄭伯盟于鹹	-12.2986
夏鄭人侵許	-12.2988
義形於色	-12.2989
槁	-12.299
六月宋師伐滕	-12.299
八月公至自伐楚	-12.299
其所由來者漸矣	-12.299
萬入去籥	-12.299
晉荀林父帥師伐陳	-12.2991
也其稱人何貶曷為貶	-12.2991
碏	-12.2992
冬叔弓如楚	-12.2992
以累上之辭言之	-12.2993
聨	-12.2993
狁	-12.2993
晉人宋人齊人陳人蔡人秦人盟于翟泉	-12.2994
黯	-12.2994
公孫敖如莒涖盟	-12.2995
臧哀伯	-12.2995
以瘧疾赴	-12.2995
冬公子友如陳	-12.2996
庚寅我入祊	-12.2997
宗婦覿用幣	-12.2997
興滅繼絶	-12.2998
黒肱以濫來奔	-12.2998
曹公孫㑹自鄸出奔宋	-12.2998
綸	-12.2999
近附近之近	-12.2999
頂	-12.2999
蒸	-12.3003
郰	-12.3005
月戊午小	-12.3025
子邾子滕子薛伯杞伯小邾子伐鄭	-12.3049
斝	-12.313
牾	-12.3132
晉侯使郤錡來乞師	-12.3138
祸	-12.3139
五父之衢	-12.3139
朔餘二千	-12.314
四年春正月公狩于郎	-12.314
公自京師遂㑹晉侯	-12.3141
宋人齊人楚人盟于鹿上	-12.3141
嫉	-12.3142
拓	-12.3142
言日不言朔	-12.3142
卿共葬事	-12.3142
滅徐徐子章羽奔楚	-12.3142
豫凶事	-12.3142
懵	-12.3142
寅吉射	-12.3145
掇	-12.3145
三分公室而各有其一	-12.3145
曹伯廬卒于師	-12.3146
躁	-12.3146
渙	-12.3146
連稱管至父	-12.3146
救台遂入鄆	-12.3146
麑	-12.3146
隕石于宋五	-12.3147
説音悦	-12.3148
醇	-12.3148
夏五月甲午遂滅偪陽	-12.3149
許遷于白羽	-12.315
腐	-12.3151
璵	-12.3153
鼈	-12.3153
喪息浪反	-12.3154
頫	-12.3156
璜	-12.3156
卣	-12.3167
恠	-12.3282
暌	-12.3283
偉	-12.3286
捥	-12.3289
釜	-12.3289
不與諸侯專封也	-12.3291
犆	-12.3291
勺	-12.3291
八月庚辰宋公和卒	-12.3292
齊侯侵我西鄙遂伐曹入其郛	-12.3292
不猶愈乎	-12.3292
馬一匹牛三頭	-12.3293
輓	-12.3294
俑	-12.3294
闊	-12.3294
儀父盟于趡	-12.3295
紀裂繻來逆女	-12.3295
齊侯使國佐來聘	-12.3295
冬十月壬午楚師滅陳	-12.3295
邈	-12.3295
遫	-12.3296
絡	-12.3296
汗	-12.3297
冬十月王子猛卒	-12.3297
滅赤狄潞氏	-12.3297
邑無百雉之城	-12.3297
灋	-12.3298
包藏禍心	-12.3298
以酅入齊	-12.3298
廂	-12.3298
治直吏	-12.3299
秦伯稻卒	-12.3299
耽	-12.33
剖	-12.33
甯喜弑其君剽	-12.3301
蚠	-12.3301
季孫宿帥師救台遂入鄆	-12.3301
晉人執莒子邾子以歸	-12.3304
鄐	-12.3304
冲	-12.3306
而規杜氏非也	-12.3309
蔀	-12.3433
牴	-12.3438
傁	-12.3441
摘	-12.3442
公孫敖㑹晉侯于戚	-12.3443
正月己卯烝	-12.3444
穽	-12.3444
季孫行父臧孫許叔孫僑如公孫嬰齊	-12.3444
三月庚戌天王崩	-12.3445
夏五月王子虎卒	-12.3445
夏四月丁未公及鄭伯盟于越	-12.3445
楚殺其大夫公子追舒	-12.3446
九年春紀季姜歸于京師	-12.3446
阡	-12.3447
秋八月公及齊侯盟于落姑	-12.3447
夏宋華弱來奔	-12.3447
辛未季孫行父卒	-12.3447
秋七月壬午公及齊侯鄭伯入許	-12.3448
婉而成章	-12.3448
廄	-12.3448
醒	-12.3448
無麥苖	-12.3449
仲孫速帥師伐邾	-12.3449
未同盟而赴以名	-12.3449
八月戊辰同盟于馬陵	-12.3449
安社稷利國家	-12.345
灰	-12.345
黽	-12.345
軨	-12.345
或名或不名	-12.3451
公壻池	-12.3451
公孫敖如京師不至而復丙戌奔莒	-12.3451
苻	-12.3452
洎	-12.3452
沸	-12.3453
使舉上客	-12.3453
高渠彌	-12.3453
同軌畢至	-12.3453
天誘其衷	-12.3454
餙	-12.3454
祕	-12.3454
理或然也	-12.3455
郾	-12.3457
南宫敬叔	-12.3459
玈	-12.3466
㱕	-12.3475
王使榮叔來錫桓公命	-12.3509
赳	-12.3596
榛	-12.3598
肓	-12.3599
無志乎民	-12.36
故不月以見譏	-12.3601
秋七月癸巳公子牙卒	-12.3601
夏五月乙酉吉禘于莊公	-12.3601
秋築臺于秦	-12.3602
歿	-12.3602
秋九月癸巳子野卒	-12.3602
别嫌明微	-12.3602
邾子來㑹公	-12.3603
曳	-12.3603
夏四月丙辰日有食之	-12.3603
夏天王使宰渠伯糾來聘	-12.3603
酎	-12.3603
晉趙盾癸酉同盟于新城	-12.3603
碑	-12.3603
秋楚人圍陳納頓子于頓	-12.3603
秋七月壬申姒氏卒	-12.3604
程頤曰	-12.3604
何以名絶曷為絶	-12.3604
携	-12.3604
遇災而懼	-12.3606
秋楚人滅江	-12.3606
冬齊人宋人陳人伐我西鄙	-12.3606
晉人執衛侯歸之于京師	-12.3606
恚	-12.3606
鷩	-12.3607
茅夷鴻	-12.3607
佯	-12.3607
無所忌憚	-12.3607
王氏箋義	-12.3608
許遷于容城	-12.3608
疋	-12.3608
瞭	-12.3608
侵陳遂侵宋	-12.3609
磨	-12.361
鈔	-12.361
秋八月丁巳日有食之	-12.361
郱	-12.361
萩	-12.3611
冬宋人伐曹	-12.3612
鶻	-12.3614
乗繩證反	-12.3615
耨	-12.3617
析朱鉏	-12.3618
屬音燭	-12.3619
不王不禘	-12.3753
諄	-12.3753
釗	-12.3756
秃	-12.3756
晉欒書帥師救鄭	-12.3759
敵王所愾	-12.3759
冬十有一月諸侯盟于扈	-12.3759
售	-12.376
冬十有一月壬辰公薨	-12.3761
人滕人薛人小邾人于戚遂城虎牢	-12.3761
鄭公子喜帥師侵宋	-12.3761
二月癸亥日有食之	-12.3761
殺嫡立庶	-12.3761
衂	-12.3761
取郜取防	-12.3761
叔孫婼如齊涖盟	-12.3762
湣	-12.3762
公孫歸父帥師伐邾取繹	-12.3763
淆	-12.3763
蔡公子履出奔楚	-12.3763
腋	-12.3763
朗	-12.3763
公㑹戎于潛	-12.3763
宋人執小邾子	-12.3763
三月壬申公子季友卒	-12.3763
陬	-12.3764
端本清源	-12.3764
衆暴寡	-12.3765
侯莒子盟于曲池	-12.3765
是月六鷁退飛過宋都	-12.3765
革車千乗	-12.3765
金革之事	-12.3765
晉人秦人圍鄭	-12.3766
晉人殺其大夫士縠及箕鄭父	-12.3766
春秋正義卷第	-12.3766
蔡殺其大夫公子燮	-12.3766
宋人殺其大夫司馬宋司城來奔	-12.3766
天王使石尚來歸脤	-12.3766
夏齊大災	-12.3766
繭	-12.3766
鄴	-12.3766
世子成齊國佐邾人同盟于戚	-12.3767
賸	-12.3767
薫	-12.3768
等謹案春秋	-12.3768
冬莒殺其公子意恢	-12.3768
八月癸亥公薨于路寢	-12.3769
季孫宿叔孫豹帥師城成郛	-12.377
篆	-12.377
詆	-12.377
崖	-12.3771
滄	-12.3772
銀	-12.3776
闋	-12.3915
齊師宋師曹師次于聶北救邢	-12.3916
九月公敗邾師于偃	-12.3919
三月乙巳及晉處父盟	-12.3919
夏仲孫蔑如京師	-12.392
晉荀林父帥師及楚子戰于邲晉師敗績	-12.3921
冬公子友如齊涖盟	-12.3921
元程端學撰	-12.3922
済	-12.3922
鄧扈樂	-12.3922
玁	-12.3922
九月夫人姜氏孫于邾	-12.3923
六月齊人取濟西田	-12.3923
楚殺其大夫公子側	-12.3923
楚公子貞帥師圍陳	-12.3923
取王官及郊	-12.3924
濆	-12.3924
惡烏路切	-12.3924
二月庚子子叔姬卒	-12.3924
秋八月諸侯盟于首止	-12.3924
厖	-12.3925
夏四月四卜郊不從乃不郊	-12.3925
前目而後凡	-12.3925
辛亥宿男卒	-12.3926
楚公子午帥師伐鄭	-12.3927
北燕伯欵出奔齊	-12.3927
吳子使札來聘	-12.3928
許悼公瘧	-12.3928
仲尼親筆	-12.3929
文武成康之	-12.3929
三月乙巳仲嬰齊卒	-12.393
吳氏澂曰	-12.393
六月叔鞅如京師	-12.393
既伏其罪矣	-12.3931
不畏彊禦	-12.3931
大蒐于昌間	-12.3931
事君如在國	-12.3932
䟦	-12.3932
飫	-12.3932
郳犂來	-12.3938
絺	-12.3938
邽	-12.394
冬十月宋萬出奔陳	-12.4077
齊侯使國佐如師己酉及國佐盟于袁婁	-12.4079
八月庚申及齊師戰于乾時我師敗績	-12.4081
擔	-12.4083
秋楚人圍江	-12.4083
宋公之弟辰暨仲佗石彄出奔陳	-12.4084
齊人來歸鄆讙龜隂田	-12.4085
叔孫州仇帥師墮郈	-12.4085
九月戊辰諸侯盟于葵丘	-12.4085
庚申曹伯終生卒	-12.4086
㑹于盂執宋公以伐宋	-12.4086
冬十月甲午叔孫得臣敗狄于鹹	-12.4086
十有二月甲寅天王崩	-12.4086
楚子陳侯隨侯許男圍蔡	-12.4086
夏五月甲辰孟子卒	-12.4086
宋向巢帥師伐鄭	-12.4086
嚻	-12.4087
刄	-12.4087
楚公子結帥師伐陳	-12.4087
封父之繁弱	-12.4088
晉欒盈復入于晉入于曲沃	-12.4089
陳人殺其公子御	-12.4089
八月癸巳朔日有食之	-12.4089
糗	-12.4089
楚屈建帥師滅舒鳩	-12.4089
衛侯鄭歸于衛	-12.409
改過遷善	-12.409
鸜	-12.409
晉人陳人鄭人伐許	-12.409
秋七月上辛大雩季辛又雩	-12.4091
卵	-12.4091
五侯九伯	-12.4091
公㑹杞伯姬于洮	-12.4091
閽弑吳子餘祭	-12.4091
棲	-12.4092
秋七月齊王姬卒	-12.4092
楚公子棄疾帥師圍蔡	-12.4092
夏季孫行父如陳	-12.4093
秋八月庚辰公及戎盟于唐	-12.4093
晉侯宋公衞侯曹伯齊世子光	-12.4094
擐	-12.4094
麓	-12.4094
慭	-12.4094
芊	-12.4095
隕霜不殺草	-12.4095
脉	-12.4096
鄭公子喜帥師伐許	-12.4096
緝	-12.4097
止進藥而藥殺	-12.4099
涿	-12.4101
虒	-12.4101
矩	-12.4104
廻	-12.4104
敢不唯命是聽	-12.4245
挺	-12.4245
牷	-12.4245
葉子曰吾何以知	-12.4247
九月丁卯子同生	-12.4248
夏四月蔡世子般弑其君固	-12.4249
齊師宋師衛師燕師敗績	-12.4249
次睢之社	-12.4249
朴鄉吕氏曰	-12.425
蹊	-12.425
夏五月辛亥郊	-12.425
菴	-12.4251
冬公及齊侯遇于魯濟	-12.4251
夏季孫斯仲孫何忌如晉	-12.4251
衛侯鄭自楚復歸于衛	-12.4252
冬仲孫蔑㑹晉荀罃齊崔杼宋華元	-12.4252
使韓穿來言	-12.4252
秋八月辛未夫人姜氏薨	-12.4253
瀍	-12.4253
夏楚子陳侯鄭伯盟于辰陵	-12.4253
晉欒書帥師侵蔡	-12.4253
仲尼之徒無道桓文之事者	-12.4253
眣	-12.4254
受一命之服	-12.4254
九月甲申公孫敖卒于齊	-12.4254
晁	-12.4255
冬十月丙辰朔日有食之	-12.4255
二月辛巳立武宫	-12.4255
秋七月戊辰夫人姜氏薨于夷齊人以歸	-12.4255
晉趙鞅帥師伐鮮虞	-12.4255
纎	-12.4255
宋皇瑗帥師取鄭師于雍丘	-12.4255
夏六月乙酉鄭公子歸生弑其君夷	-12.4256
揭	-12.4256
秋七月有星孛入于北斗	-12.4256
恤病討貳	-12.4257
埽	-12.4257
非一朝一夕之故	-12.4257
旻	-12.4257
憯	-12.4257
非聖人莫能修之	-12.4258
㚟	-12.4258
迴	-12.4258
掬	-12.4259
天王使家父來聘	-12.4259
䕃	-12.4259
秋夫人姜氏㑹齊侯于卞	-12.4259
去起吕切	-12.426
糜	-12.426
夏築蛇淵囿	-12.426
宋程公說撰	-12.4261
另	-12.4261
𥙷	-12.4261
筵	-12.4262
冬天王使凡伯來聘	-12.4262
䧏	-12.4262
眛	-12.4263
緍	-12.4265
五月辛酉夫人姜氏薨	-12.4265
案晉書地理志	-12.4266
酢	-12.4269
乙酉刺公子偃	-12.4416
夏五月壬辰雉門及兩觀災	-12.4419
提彌明	-12.442
夏五月戊寅公敗宋師于鄑	-12.442
八月壬午宋公鮑卒	-12.442
壬申公孫嬰齊卒于貍脤	-12.442
宋葉夢得撰	-12.442
楚殺其大夫屈申	-12.4421
公子買戍衛不卒戍刺之	-12.4421
夏五月乙亥齊侯潘卒	-12.4421
冬十有二月紀叔姬卒	-12.4421
帥師戰于大棘宋師敗績獲宋華元	-12.4422
夏四月五卜郊不從乃不郊	-12.4422
春薛伯定卒	-12.4422
侅	-12.4422
射王中肩	-12.4423
石之紛如	-12.4423
楚公子比自晉歸于楚弑其君䖍于乾谿	-12.4423
貰	-12.4423
夏户雅反	-12.4423
六月丁丑蔡侯封人卒	-12.4424
秋天王使王季子來聘	-12.4425
楚囊瓦出奔鄭	-12.4425
夏秦伯之弟鍼出奔晉	-12.4425
夏六月庚寅齊侯昭卒	-12.4425
癸丑叔鞅卒	-12.4425
楚公子貞帥師伐陳	-12.4426
鄭殺其大夫公子嘉	-12.4426
鄭公子去疾帥師伐許	-12.4426
驁	-12.4427
臾	-12.4427
稱尺證反	-12.4427
三月乙未天王崩	-12.4428
夏四月乙丑天王崩	-12.4428
觵	-12.4428
浙	-12.4429
冬叔孫豹如邾	-12.4429
夏五月戊辰許世子止弑其君買	-12.4429
宋公之弟辰自蕭來奔	-12.4429
乙酉宋公馮卒	-12.4431
重直用反	-12.4432
勍	-12.4433
凰	-12.4433
鄭人來渝平	-12.4435
湘	-12.4437
瓉	-12.4438
沁	-12.4446
汪氏克寛	-12.4532
冬楚人伐黄	-12.4588
秋齊人狄人盟于邢	-12.4589
唱	-12.4589
伯仲叔季	-12.459
秋八月辛丑公薨	-12.4591
鄭人齊人曹人邾人薛人鄫人盟于蜀	-12.4591
秋九月乙丑晉趙盾弑其君夷	-12.4592
夏齊侯許男伐北戎	-12.4593
王二月壬子宋華元帥師及鄭公子歸生	-12.4593
秋七月乙酉伯姬卒	-12.4594
夏五月乙亥齊崔杼弑其君光	-12.4594
宋公子地出奔陳	-12.4594
鋪	-12.4595
季孫斯仲孫何忌帥師墮費	-12.4595
座	-12.4596
冬晉趙穿帥師侵崇	-12.4596
兑	-12.4596
大夫生死皆曰獲	-12.4597
冬十有一月壬寅夫人風氏薨	-12.4597
冬楚人鄭人侵宋	-12.4597
齊侯使國歸父來聘	-12.4598
夏四月辛丑陳侯溺卒	-12.4598
冬十月壬午齊人鄭人入郕	-12.4598
七年春王正月暨齊平	-12.4598
乗繩證切	-12.4598
秋七月丙子齊侯無野卒	-12.4598
冬十月曹伯午卒	-12.4598
己丑公薨于路寢	-12.4598
八月莒子去疾卒	-12.4599
秋楚人滅六	-12.4599
春晉侯使韓穿來言汶陽之田歸之于齊	-12.4599
乙巳公薨于小寢	-12.4599
商人驟施	-12.46
絓	-12.46
猾	-12.46
以祊易許	-12.4601
晉籍談荀躒	-12.4601
曜	-12.4603
冬十月乙亥天王崩	-12.4603
栾	-12.4604
五月甲子地震	-12.4604
丐	-12.4604
感麟而作	-12.4605
壙	-12.4607
鏚	-12.4607
甄	-12.4608
二月乙未朔日有食之	-12.4608
郃	-12.4609
絹	-12.461
劑	-12.4612
泱	-12.4755
䜟	-12.4763
九合諸侯不以兵車	-12.4764
夏四月己巳晉侯齊師宋師秦師及楚人	-12.4764
肜	-12.4766
宋督弑其君與夷	-12.4767
八月壬辰陳侯躍卒	-12.4768
夏公㑹尹子單子晉侯齊侯宋公	-12.4768
夏五月壬午陳侯朔卒	-12.4768
在官者殺無赦	-12.4768
師及齊師圍郕	-12.477
庿	-12.4771
莒子邾子滕子薛伯杞伯小邾子于夷儀	-12.4771
宋公陳侯蔡人衞人伐鄭	-12.4772
耘	-12.4772
夏六月蔡侯東國卒于楚	-12.4773
鴟	-12.4773
楚殺其大夫成熊	-12.4773
扃	-12.4773
促	-12.4773
冬楚子使椒來聘	-12.4774
十有二月辛亥朔日有食之	-12.4774
冬十有二月癸亥朔日有食之	-12.4774
夏齊侯陳侯鄭伯遇于垂	-12.4774
楚公子申帥師伐陳	-12.4774
秋楚公子壬夫帥師侵宋	-12.4774
猝	-12.4775
叔孫州仇仲孫何忌帥師圍邾	-12.4775
九月辛酉天王崩	-12.4776
三月壬申鄭伯堅卒	-12.4777
冬楚公子貞帥師侵宋	-12.4777
贍	-12.4778
膊	-12.4779
秋七月齊師曹師伐厲	-12.478
秋七月己未同盟于亳城北	-12.4781
鎧	-12.4781
春秋左傳要義卷	-12.4784
姣	-12.4785
釀	-12.4787
筌	-12.4941
漂	-12.4942
冬十月齊師滅譚譚子奔莒	-12.4943
緼	-12.4944
宋向巢帥師伐曹	-12.4944
藜	-12.4945
夏郜子來朝	-12.4945
冬晉人宋人陳人鄭人伐秦	-12.4945
盧蒲癸王何	-12.4945
冬十月乙亥叔孫僑如出奔齊	-12.4945
礙	-12.4947
五月公及諸侯盟于臯鼬	-12.4947
汁	-12.4947
鄇	-12.4948
蔡公孫歸生鄭罕虎許人曹人于虢	-12.4948
秋七月庚寅楚子軫卒	-12.4948
夏宋公齊侯遇于梁丘	-12.4948
宋樂大心出奔曹	-12.4948
夏陳轅頗出奔鄭	-12.4948
秋及江人黄人伐陳	-12.4949
綫	-12.4949
冬十有二月戊寅楚子滅蕭	-12.4949
處心積慮	-12.495
三月癸酉大雨震電庚辰大雨雪	-12.495
晉侯使士魴來乞師	-12.495
夏四月庚辰蔡公孫	-12.495
晉郤缺帥師伐蔡戊申入蔡	-12.495
夏四月辛未滕子卒	-12.495
冬蔡侯肸卒	-12.4951
浣	-12.4951
出乎爾者反乎爾	-12.4951
夏晉韓厥帥師伐鄭	-12.4952
十有二月癸酉朔日有食之	-12.4952
夏五月癸未鄭伯寤生卒	-12.4952
夏五月庚寅夫人姜氏薨	-12.4953
秋叔孫僑如帥師圍棘	-12.4953
冬蔡侯朱出奔楚	-12.4953
秋劉子單子以王猛入于王城	-12.4953
季姬及鄫子遇于防	-12.4954
瑴	-12.4954
夏四月甲寅臧孫許卒	-12.4954
五月甲申夫人歸氏薨	-12.4954
冬十月甲申許男業卒	-12.4954
宫括鄭公孫蠆曹	-12.4954
夏六月宋公固卒	-12.4955
婦人無外事	-12.4955
蠜	-12.4955
八月丙辰仲孫蔑卒	-12.4956
葦	-12.4956
蜡	-12.4956
秋七月戊戌夫人姜氏薨	-12.4956
己巳朔宋公及楚人戰于泓宋師敗績	-12.4957
子結陳公孫佗人帥師滅頓以頓子牂歸	-12.4957
癸酉有事于武宫籥入叔弓卒去樂卒事	-12.4957
七年春王三月叔姬歸于紀	-12.4958
夏戸雅切	-12.4958
𥅆	-12.4958
戊子晉侯彪卒	-12.4958
臝	-12.4961
煌	-12.4965
赭	-12.4977
船	-12.512
穫	-12.5124
衛人及齊人戰	-12.5125
窆	-12.5126
秋七月辛酉叔老卒	-12.5127
蛤	-12.5128
閏月葬齊景公	-12.5128
夏六月公子遂如齊至黄乃復	-12.5129
魯以周班後鄭	-12.513
秋公子遂帥師伐邾	-12.513
望溪先生曰	-12.5131
及仲佗石彄公子地自陳入于蕭以叛	-12.5131
姓帥師滅沈以沈子嘉歸殺之	-12.5131
築王姬之館	-12.5131
濶	-12.5132
紡	-12.5132
陕	-12.5132
公㑹晉人鄭良霄宋人曹人于澶淵	-12.5132
甲子新宫災三日哭	-12.5132
冬十有一月癸未齊無知弑其君諸兒	-12.5133
甲午晦晉侯及楚子鄭伯戰于鄢陵楚子	-12.5133
春王正月晉人滅赤狄甲氏及留吁	-12.5133
宋樂髠帥師伐曹	-12.5133
腵	-12.5133
秋七月戊子夫人姒氏薨	-12.5133
罵	-12.5133
夏四月宋公王臣卒	-12.5134
幘	-12.5134
簋	-12.5134
焉於䖍切	-12.5135
三月戊戌齊侯陽生卒	-12.5135
民逃其上曰潰	-12.5135
晉侯使荀躒唁公于乾侯	-12.5135
美惡不嫌同辭	-12.5135
冬邢人狄人伐衛	-12.5135
夏六月宋公曹人邾人盟于曹南	-12.5135
八月乙亥晉侯驩卒	-12.5135
秋八月丁未及邾人戰于升陘	-12.5136
軻	-12.5136
冬十有二月乙亥齊侯小白卒	-12.5136
緑	-12.5137
六月庚辰鄭伯睔卒	-12.5137
冬十有一月曹伯射姑卒	-12.5137
竹書紀年	-12.5138
湛氏若水曰	-12.5139
夏齊侯衛侯胥命于蒲	-12.514
秋宋人齊人邾人伐郳	-12.5142
姤	-12.5149
兠	-12.5153
漯	-12.5155
茢	-12.5287
齊侯使髙張來唁公	-12.5306
雀	-12.5308
冬㑹陳人蔡人楚人鄭人盟于齊	-12.5309
圄	-12.531
冬楚人伐隨	-12.531
唘	-12.531
夏許男成卒	-12.5311
蒺	-12.5311
諏	-12.5311
鷹	-12.5312
汏	-12.5312
十有一月己亥宋公佐卒于曲棘	-12.5314
凡書救者未有不善之	-12.5314
媮	-12.5314
潛師掠境	-12.5314
冬十有二月齊侯鄭伯盟于石門	-12.5314
删	-12.5315
冬十有二月丁未天王崩	-12.5315
貲	-12.5315
嫂	-12.5315
石曼姑帥師圍戚	-12.5315
應應對之應	-12.5316
冬十月乙亥臧孫紇出奔邾	-12.5316
冬晉里克殺其君之子奚齊	-12.5316
陲	-12.5316
摶	-12.5316
二月辛丑楚子滅胡以胡子豹歸	-12.5316
怖	-12.5316
自經於溝瀆	-12.5316
巳叔孫州仇仲孫何忌及邾子盟于句繹	-12.5317
鄭伯髠頑如㑹未見諸侯丙戌卒于鄵	-12.5317
晉政多門	-12.5317
夏四月甲午地震	-12.5318
冬十月葬蔡靈公	-12.5318
尢	-12.5319
秋七月丙子季孫斯卒	-12.5319
戊子夫人嬴氏薨	-12.5319
秋七月壬子叔孫不敢卒	-12.5319
王人子突救衞	-12.5319
夏楚人圍巢	-12.532
渇	-12.532
衛侯㑹公于沓	-12.532
聞齊侯卒乃還	-12.532
埸	-12.532
罋	-12.5321
鵞	-12.5322
㳟	-12.5322
㪘	-12.5322
鏡	-12.5322
冬楚公子貞帥師伐鄭	-12.5322
汧	-12.5323
秋楚人圍許諸侯遂救許	-12.5323
夏父弗忌	-12.5325
楊氏士勛曰	-12.5325
聯	-12.5326
時聘以結諸侯之好	-12.5326
址	-12.5327
元亨利貞	-12.5328
嬙	-12.5328
絢	-12.5329
考證欽定四庫全書春秋左傳注疏卷	-12.5329
丁酉楚師滅蔡執蔡世子有以歸用之	-12.5331
邥	-12.5332
佛	-12.5335
莒子邾子滕子薛伯把伯小邾子于夷儀	-12.5396
腦	-12.5488
窟	-12.5495
夏臧孫許及晉侯盟于赤棘	-12.5499
公孫歸父㑹齊人伐莒	-12.5501
邾子蘧蒢卒	-12.5502
取宋師于嵒	-12.5503
先君不以其道終	-12.5503
㬰	-12.5504
公孫固公孫鄭	-12.5504
冬楚子蔡侯陳侯許男伐鄭	-12.5504
辭繁而不殺	-12.5504
諍	-12.5504
夏四月戊申鄭伯蠆卒	-12.5504
鍚	-12.5505
丙午晉侯獳卒	-12.5505
六月乙丑齊侯葬紀伯姬	-12.5505
甲子晉侯及秦師戰于彭衙秦師敗績	-12.5505
五月戊寅宋師及齊師戰于甗齊師敗績	-12.5505
救災恤患	-12.5505
陳公子留出奔鄭	-12.5506
傳心之要典	-12.5506
六月丙申季孫意如卒	-12.5506
冬十有二月戊午晉人秦人戰于河曲	-12.5506
纊	-12.5507
秦小子憖	-12.5507
遇者志相得也	-12.5507
跦	-12.5507
冬楚子蔡侯陳侯伐鄭	-12.5508
齊崔氏出奔衛	-12.5508
鈴	-12.5508
獲長狄僑如	-12.5509
荊	-12.5509
三月壬申鄭伯嘉卒	-12.5509
冬晉荀罃帥師伐許	-12.5509
剝	-12.5509
摇	-12.551
冬仲孫何忌㑹晉韓不信齊	-12.551
㮣	-12.551
大崩曰敗績	-12.551
宋人蔡人衛人伐戴鄭伯伐取之	-12.551
著其臣子私諡之罪	-12.5511
夏四月丙申鄫季姬卒	-12.5511
宋李明復撰	-12.5511
五月癸丑公㑹晉侯齊侯宋公蔡侯鄭伯	-12.5511
嚢	-12.5511
冬十有二月乙亥朔日有食之	-12.5512
二月辛巳楚公	-12.5513
抒	-12.5513
遮	-12.5513
煖	-12.5513
桔柣之門	-12.5514
秋九月庚辰楚子審卒	-12.5514
蹄	-12.5515
十有二月甲子宋公成卒	-12.5515
健	-12.5515
臻	-12.5516
珽	-12.5518
沚	-12.5518
寢苫枕	-12.5519
衞孫林父曹人邾	-12.5552
產	-12.5636
榖伯鄧侯	-12.5689
六月癸亥公之喪至自乾侯戊辰公即位	-12.5691
三年春王正月不雨夏四月不雨	-12.5692
五月甲午宋災宋伯姬卒	-12.5693
秋九月齊侯宋公江人黄人盟于貫	-12.5694
晉侯使荀罃來乞師	-12.5695
秋九月癸酉齊侯杵臼卒	-12.5695
戊申宋督弑其君與夷及其大夫孔父	-12.5695
秋八月甲戌晉趙鞅帥師及鄭罕	-12.5696
聶	-12.5697
犄	-12.5697
䁥	-12.5697
斚	-12.5698
夏六月辛巳公薨于楚宫	-12.5698
使孫林父來聘壬戌及孫林父盟	-12.5698
其中必有大美惡	-12.5698
三月丙午晉侯入曹執曹伯畀宋人	-12.5698
鄭人侵蔡獲蔡公子燮	-12.5698
冬十有一月己酉天王崩	-12.5699
䙝	-12.5699
胎	-12.5699
鷸	-12.57
孜	-12.57
廧	-12.57
冬十月丙戌鄭伯蘭卒	-12.57
夏六月己亥蔡侯考父卒	-12.57
宋華元出奔晉宋華元自晉歸于宋	-12.5701
從才用切	-12.5701
秋八月壬申御廩災	-12.5701
六月辛丑亳社災	-12.5701
二十年春王二月夫人姜氏如莒	-12.5701
冬十月己未子般卒	-12.5702
忝	-12.5702
秋七月壬辰朔日有食之既	-12.5702
恝	-12.5702
于柏舉楚師敗績	-12.5703
柔㑹宋公陳侯蔡叔盟于折	-12.5703
宋吕祖謙撰	-12.5703
名山大川	-12.5704
秋齊侯宋公㑹于洮	-12.5704
勛	-12.5705
冬葬許悼公	-12.5706
還者事未畢	-12.5706
秋晉趙鞅入于晉陽以叛	-12.5706
厪	-12.5709
脊	-12.588
屠岸賈	-12.5882
某月某日	-12.5887
三月晉人執宋仲幾于京師	-12.589
啟蟄而郊	-12.589
伾	-12.589
油	-12.589
八年春王正月宋公入曹以曹伯陽歸	-12.5891
冑	-12.5892
秋七月辛酉滕子虞母卒	-12.5892
夑	-12.5892
秋八月己巳諸侯同盟于重丘	-12.5892
楚人殺陳夏徵舒	-12.5893
鮀	-12.5893
筥	-12.5894
哆	-12.5894
韜	-12.5894
夏六月季姬及鄫子遇于防使鄫子來朝	-12.5895
冬十月壬戌公薨于路寢	-12.5895
諸侯失國諸侯納之正也	-12.5895
公㑹尹子晉侯齊國佐邾人伐鄭	-12.5896
窘	-12.5896
忠信誠慤	-12.5896
夏五月戊戌齊人弑其君商人	-12.5896
謐	-12.5896
秋七月莒子庚輿來奔	-12.5896
安國家利社稷	-12.5897
十有二月己未公薨于乾侯	-12.5897
宋公使公孫壽來納幣	-12.5897
秋八月辛卯沙鹿崩	-12.5898
佻	-12.5898
洋	-12.5898
夏宋公使華定來聘	-12.5898
婦人謂嫁曰歸	-12.5898
蹕	-12.5898
楚薳越帥師	-12.5899
呂祖謙曰	-12.5899
冬鄭公孫夏帥師伐陳	-12.5899
摰	-12.5899
刁	-12.5899
易以䜴反	-12.5899
柎	-12.59
諸侯五年再相朝	-12.59
鋤	-12.59
秋七月甲子日有食之既	-12.59
鬚	-12.59
炮	-12.59
閫	-12.5901
濩	-12.5901
孔頴逹	-12.5901
秋八月己亥晉侯夷卒	-12.5901
擢	-12.5902
明王道焜趙如源同編	-12.5903
冬十有一月癸亥晉侯周卒	-12.5903
龔	-12.5904
缶	-12.5905
甬	-12.5906
幡	-12.5909
洿	-12.5911
闉	-12.5912
連尹襄老	-12.6088
火見而致用	-12.6088
批	-12.6089
六月丁巳邾子華卒	-12.6089
餫	-12.6089
冬十有二月丁丑陳侯杵臼卒	-12.609
薇	-12.609
六月戊辰公子遂及齊侯盟于郪丘	-12.6091
釣	-12.6092
㕘	-12.6092
六月公㑹齊侯宋公陳侯鄭伯同盟于幽	-12.6093
劉子晉侯宋公蔡侯衛侯陳子鄭伯許男	-12.6093
攢	-12.6093
鍳	-12.6093
五年春正月甲戌己丑陳侯鮑卒	-12.6093
屝	-12.6094
點	-12.6094
喟	-12.6094
卭	-12.6095
秋齊侯伐我北鄙圍桃	-12.6095
唇	-12.6095
有憂中國之心	-12.6096
除舊布新	-12.6096
公㑹鄭伯于時來	-12.6097
及宋人衛人伐邾	-12.6097
眅	-12.6097
冬晉荀寅士吉射入于朝歌以叛	-12.6097
衛北宫佗鄭罕虎	-12.6097
沍	-12.6097
膽	-12.6097
九年春天王使南季來聘	-12.6098
八年春王正月公㑹王人齊侯宋公	-12.6098
黠	-12.6098
防微杜漸	-12.6098
覈	-12.6098
三月公㑹鄭伯于垂	-12.6099
盜殺陳夏區夫	-12.6099
婦人既嫁不踰竟	-12.6099
亘	-12.6099
一有一亡曰有	-12.6099
含沙射人	-12.6099
西陸朝覿	-12.61
敗必邁反	-12.61
子邾子滕子薛伯把伯小邾子伐鄭	-12.61
皓	-12.6101
菲	-12.6101
昴	-12.6101
晉放其大夫胥甲父于衛	-12.6101
六月邾人入鄅	-12.6102
藁	-12.6102
耋	-12.6103
習其讀而問其傳	-12.6104
晏弱城東陽	-12.6104
峯	-12.6104
葉公諸梁	-12.6105
磔	-12.6106
鞛	-12.6106
駰	-12.6106
晢	-12.628
冬十月葬蔡景公	-12.6287
鄭良霄出奔許自許入于鄭鄭人殺良霄	-12.6288
禘其祖之所自出	-12.629
袪	-12.629
渢	-12.629
郪	-12.6291
夏四月庚子叔詣卒	-12.6291
彜	-12.6293
課	-12.6293
宄	-12.6294
秋公伐邾八月己酉入邾以邾子益來	-12.6294
八月葬蔡宣公	-12.6294
鏘	-12.6294
琥	-12.6294
株	-12.6294
公會晉侯宋公衞侯鄭伯曹伯	-12.6294
夏四月壬戌公及晉侯盟于長樗	-12.6295
六年春城邾瑕	-12.6296
蓑	-12.6297
桞	-12.6297
雉門及兩觀災	-12.6297
门	-12.6297
蟀	-12.6297
滅赤狄甲氏及留吁	-12.6298
元趙汸撰	-12.6298
陳鍼宜咎出奔楚	-12.6298
冬十有一月癸未季孫宿卒	-12.6298
佃	-12.6298
雝	-12.6298
狄滅温温子奔衛	-12.6298
締	-12.6299
机	-12.6299
乙酉公子遂㑹雒戎盟于暴	-12.63
十有二月己丑公及晉侯盟	-12.63
陳侯之弟黄自楚歸于陳	-12.63
帥所類反	-12.63
疆于江汝	-12.63
酀	-12.6301
匐	-12.6301
去起呂反	-12.6301
諸侯不相遺俘	-12.6302
秋七月季孫意如叔弓仲孫貜帥師伐莒	-12.6303
富父終甥	-12.6304
裒	-12.6305
蹷	-12.6306
刷	-12.6307
韍	-12.6307
紞	-12.6307
溺㑹齊師伐衛	-12.6307
姺	-12.6308
皡	-12.6309
盲	-12.6309
君而臣是助	-12.631
袍	-12.631
俶	-12.6311
左氏博議卷	-12.6313
續漢書郡國志	-12.6314
療	-12.6317
字位過密	-12.632
毆	-12.6497
七年春二月己亥焚咸丘	-12.6497
百里子與蹇叔子	-12.6498
癉	-12.6499
洒	-12.6499
五月乙巳西宫災	-12.6499
季孫斯仲孫忌帥師圍鄆	-12.65
公㑹晉侯及吳子于黄池	-12.65
兔	-12.6501
冬鄭駟𢎞帥師救曹	-12.6501
冬十有二月辛巳公子彄卒	-12.6501
扉	-12.6503
齊師宋師曹師	-12.6503
零	-12.6503
蟋	-12.6504
曹公子首及齊侯戰于鞌齊師敗績	-12.6504
怛	-12.6505
夏五月丙午及齊師戰于奚	-12.6505
臣弑其君子弑其父	-12.6505
肺	-12.6505
悕	-12.6505
七年春宋皇瑗帥師侵鄭	-12.6506
九月庚午朔日有食之鼓用牲于社	-12.6506
衛侯鄭伯許男曹伯于葵丘	-12.6506
鳬	-12.6506
十有二月癸丑公㑹諸侯盟于薄釋宋公	-12.6506
冬十月丁未楚世子商臣弑其君頵	-12.6507
曵	-12.6507
酸	-12.6507
鄭公孫舍之帥師侵宋	-12.6507
䓁	-12.6508
衛子莒子盟于踐土	-12.6508
二十有九年春王正月公在楚	-12.6508
甲戌楚子旅卒	-12.6508
易也其易奈何	-12.6509
公敗宋師于菅	-12.6509
秋七月仲孫蔑㑹晉荀罃宋華元	-12.6509
實與而文不與	-12.6509
十有二月齊侯滅萊	-12.651
嗾	-12.651
匍	-12.651
篨	-12.651
六月辛丑朔日有食之鼓用牲于社	-12.651
假道於虞以伐虢	-12.6511
年獲麟之嵗也	-12.6511
瞿	-12.6511
未易災之餘而嘗	-12.6512
以寡君之未禘祀	-12.6512
寥	-12.6512
貶絶以見罪惡	-12.6512
宋人以齊人蔡人衛人陳人伐鄭	-12.6512
笥	-12.6512
杰	-12.6512
懇	-12.6512
庈	-12.6513
夏五月壬午宋衛陳鄭災	-12.6513
蔡侯鄭伯陳子莒子邾子秦人于温	-12.6513
衵	-12.6513
士渥濁	-12.6513
菏	-12.6513
瑱	-12.6514
欽定春秋傳說彚纂卷	-12.6514
婤	-12.6514
眡	-12.6514
漈	-12.6514
卓氏爾康曰	-12.6514
泜	-12.6514
堀	-12.6515
搖	-12.6515
槬	-12.6516
帙	-12.6516
亶	-12.6516
倭	-12.6516
罍	-12.6517
咫	-12.6518
皞	-12.6522
公㑹晉侯宋公衛侯曹伯齊世子光莒	-12.6558
豹及諸侯之大夫盟	-12.6612
鄭伯許男曹伯侵蔡蔡潰遂伐楚次于陘	-12.6705
鏃	-12.6711
睥	-12.6712
水昏正而栽	-12.6714
廚	-12.6715
宋公及楚人戰于泓	-12.6716
十有一月公㑹楚公子嬰齊于蜀	-12.6716
槃	-12.6716
邾人伐我南鄙叔彭生帥師伐邾	-12.6717
濘	-12.6717
觩	-12.6717
秋公㑹宋人齊人伐徐	-12.6717
秋晉人執宋行人樂祁犂	-12.6717
戊辰叔弓帥師敗莒師于蚡泉	-12.6718
鷙	-12.6718
夏叔孫豹㑹晉趙武楚屈建蔡公孫歸生	-12.6718
蹟	-12.6719
八月癸亥葬紀叔姬	-12.6719
塲	-12.6719
晉里克弑其君卓及其大夫荀息	-12.6719
鄭罕達帥師伐宋	-12.672
鵝	-12.6721
鉉	-12.6721
十有八年春王正月晉殺其大夫胥童	-12.6722
有一月壬戌晉侯及秦伯戰于韓獲晉侯	-12.6722
公及齊侯宋公陳侯衛侯鄭伯許男曹伯	-12.6723
九月庚戌朔日有食之冬十月庚辰朔	-12.6723
鋌	-12.6723
擣	-12.6723
二年春晉侯使韓起來聘	-12.6723
九月己亥公孫于齊次于陽州	-12.6724
夏齊侯伐我北鄙圍成公救成至遇	-12.6724
三月公㑹齊侯陳侯鄭伯于稷以成宋亂	-12.6724
艷	-12.6724
十有二月甲寅公㑹齊侯盟于扈	-12.6725
奉少奪長	-12.6726
踁	-12.6726
逖	-12.6726
问	-12.6727
甑	-12.6727
以蕃屏周	-12.6728
墾	-12.6729
蛇淵囿	-12.6729
㲄	-12.673
喙	-12.6732
頤	-12.674
撮	-12.6922
練主用栗	-12.6926
朔加時在晝交分	-12.6929
䠞	-12.6929
始用六佾	-12.6929
秋九月荆敗蔡師于莘以蔡侯獻舞歸	-12.6929
孱	-12.693
叶	-12.6931
撼	-12.6932
正月辛亥朔日南至	-12.6933
王者之迹熄而詩亡詩亡然後春秋作	-12.6933
三年春王正月丁未滕子原卒	-12.6933
十有七年春王正月庚子許男錫我卒	-12.6934
軰	-12.6935
秋八月乙未葬齊孝公	-12.6936
國子監司業顧棟髙撰	-12.6936
三十有三年春王二月秦人入滑	-12.6936
輟	-12.6936
三年春王二月己巳日有食之	-12.6936
鋸	-12.6937
曹人邾人滕人薛人小邾人于黄父	-12.6937
扺	-12.6937
癸亥鄭游速帥師滅許以許男斯歸	-12.6937
淸	-12.6937
十有九年春王三月宋人執滕子嬰齊	-12.6937
冷	-12.6937
冬十有二月己丑葬我君桓公	-12.6937
冬十月壬午公子遂㑹晉趙盾盟于衡雍	-12.6938
晉殺其大夫陽處父晉狐射姑出奔狄	-12.6938
孫何忌帥師伐邾取漷東田及沂西田	-12.6938
二年春王二月季孫斯叔孫州仇仲	-12.6938
模	-12.6939
三月辛亥葬我小君成風	-12.6939
十有七年春齊人徐人伐英氏	-12.6939
子沈子小邾子宋世子佐淮夷㑹于申	-12.6939
三十有一年春築臺于郎	-12.6939
冬十有二月夫人姜氏㑹齊侯于禚	-12.694
陀	-12.694
裴	-12.6941
楚人及吳戰于長岸	-12.6941
扑	-12.6941
華亥向寧華定	-12.6942
叔孫豹㑹晉士匄于柯	-12.6942
愔	-12.6942
粹	-12.6942
撥亂世反之正	-12.6944
春王正月季孫宿叔老㑹晉士匄齊人	-12.6944
夏五月辛酉公㑹齊侯盟于艾	-12.6945
一事而再見者卒名	-12.6945
過古禾反	-12.6946
豸	-12.6947
囆	-12.6948
匜	-12.6949
籩	-12.6949
遇艮之八	-12.6951
春秋胡傳附録纂疏	-12.6952
溴	-12.6952
蟜	-12.6991
溜	-12.7139
簀	-12.7149
六月乙酉同盟于柯陵	-12.715
侫	-12.7153
秋七月丁酉葬齊襄公	-12.7154
三十年春王正月楚子使薳罷來聘	-12.7155
齊髙止出奔北燕	-12.7155
義見桓二年公至自唐	-12.7156
雨者有志乎民者也	-12.7156
孔子行乎季孫三月不違	-12.7156
不賞私勞	-12.7156
夏五月葬曹桓公	-12.7157
夏晉人宋人衛人陳人侵鄭	-12.7157
漿	-12.7157
晉人及秦人戰于令狐	-12.7158
二十有三年春王二月癸酉朔日有食之	-12.7158
夏公㑹宰周公齊侯宋子	-12.7158
黄裳元吉	-12.7158
十有一年春齊國書帥師伐我	-12.7159
崇明祀保小寡	-12.7159
垂棘之璧	-12.7159
自郊勞至于贈賄	-12.7159
執陳公子招放之于越殺陳孔奐	-12.7159
十有六年春王正月戊申朔隕石于宋五	-12.7159
吕相絶秦	-12.716
筑	-12.716
書之重詞之複	-12.7161
疊	-12.7161
篋	-12.7162
衛元咺自晉復歸于衛	-12.7162
月癸卯晉師滅赤狄潞氏以潞子嬰兒歸	-12.7162
夏晉侯使士魴來聘	-12.7163
規杜過非也	-12.7163
郝	-12.7164
衛侯鄭伯許男邢侯曹伯于淮	-12.7164
戎子駒支	-12.7164
姶	-12.7165
謠	-12.7166
秋七月庚午宋公齊侯衛侯盟于瓦屋	-12.7167
綪	-12.7167
衛侯之弟鱄出奔晉	-12.7167
袴	-12.7168
澹	-12.7168
綖	-12.717
鶩	-12.7171
茫	-12.738
槀	-12.7381
暘	-12.7382
季孫行父如齊冬公孫歸父如齊	-12.7383
夏蔡殺其大夫公孫姓公孫霍	-12.7384
桓非受命之伯	-12.7384
棊	-12.7385
隻	-12.7386
邕	-12.7386
咋	-12.7386
夏四月丙子衛侯元卒	-12.7387
丙戌公㑹鄭伯盟于武父	-12.7387
稱國以殺大夫者罪累上也	-12.7387
曲直之繩墨	-12.7388
壮	-12.7388
衛世子蒯聵出奔宋	-12.7388
粱	-12.7389
脈	-12.7389
衛公孟彄自齊歸于衛	-12.7389
羡	-12.7389
十有八年春王二月丁丑公薨于臺下	-12.7389
襦	-12.739
二十有二年春王正月肆大眚	-12.739
公子友帥師敗莒師于	-12.739
蘷	-12.739
眚災肆赦	-12.739
二十有二年春齊侯伐莒	-12.739
下陵上替	-12.7391
誚	-12.7391
鄲	-12.7391
乂	-12.7391
恙	-12.7391
天之示人顯矣	-12.7391
合二姓之好	-12.7391
楚子入居于申	-12.7392
令力呈切	-12.7392
秭	-12.7392
儔	-12.7392
六年五服一朝	-12.7393
冬季孫宿㑹晉士匄宋華	-12.7393
夏晉人執衛行人石買	-12.7393
十有四年春王正月莒子朱卒	-12.7394
仲孫貜㑹邾子盟于祲祥	-12.7394
葉氏夢得曰	-12.7395
渥	-12.7395
邗	-12.7396
着	-12.7396
嫚	-12.74
析木之津	-12.74
飾城而請罪	-12.74
拭	-12.7403
斮	-12.7608
儦	-12.7611
峰	-12.7612
吊	-12.7614
郠	-12.7615
撤	-12.7615
經書月四書日	-12.7615
衛侯曹伯邾子同盟于斷道	-12.7616
秋七月天子使召伯來賜公命	-12.7616
轘諸栗門	-12.7618
元鄭玉撰	-12.7618
嗤	-12.7618
餉	-12.7618
沽	-12.7618
屣	-12.7618
十年春王二月邾子益來奔	-12.7618
滅許以許男斯歸	-12.7618
胠	-12.7619
僵	-12.762
凡城之志皆譏	-12.762
自豫章與楚夾漢	-12.762
十有一年春楚子伐麇	-12.7621
宋華亥向寧華定自宋南里出奔楚	-12.7621
軸	-12.7621
町	-12.7621
春蒐夏苗秋獮冬狩	-12.7621
以狄師攻王	-12.7622
僤	-12.7622
十有八年春白狄來	-12.7623
唾	-12.7623
三十有一年春取濟西田	-12.7623
秋晉士鞅宋樂祁犂	-12.7623
涯	-12.7623
摠	-12.7623
禮卿不㑹公侯	-12.7623
春秋無義戰彼善於此則有之	-12.7624
冬十月宋華亥向寧華定出奔陳	-12.7624
王氏錫爵曰	-12.7624
單伯㑹齊侯宋公衛侯鄭伯于鄄	-12.7624
湮	-12.7625
多方以誤之	-12.7625
菫	-12.7625
薛氏季宣曰	-12.7625
夏五月癸丑衛侯朔卒	-12.7626
氓	-12.7626
撲	-12.7626
瓶	-12.7626
宋華亥向寧華定自陳入于宋南里以叛	-12.7626
䴢	-12.7627
賤者窮諸人	-12.7628
瑤	-12.763
柞	-12.7632
峴	-12.7642
屦	-12.7663
範	-12.7843
孫敖㑹宋公陳侯鄭伯晉士縠盟于垂隴	-12.7848
秋七月叔弓如宋葬宋共姬	-12.7848
公以楚師伐齊取穀	-12.7849
冬楚師鄭師侵衛	-12.7853
髙忠憲曰	-12.7853
魚石向為人鱗朱向帶魚府	-12.7853
夏五月辛巳葬我小君哀姜	-12.7854
晉士鞅帥師侵鄭遂侵衛	-12.7854
稗	-12.7854
辛巳有事于太廟仲遂卒于垂	-12.7855
晉人執鄭伯晉欒書帥師伐鄭	-12.7855
十有二月仲孫蔑㑹晉侯宋公	-12.7855
夏邾畀我來奔	-12.7855
者何邾婁之邑也曷	-12.7856
沶	-12.7857
十有九年春王正月諸侯盟于祝柯	-12.7857
玷	-12.7857
八月公㑹齊侯宋公鄭伯曹伯邾人于檉	-12.7857
明其道不計其功	-12.7857
齊侯宋公衛侯鄭伯曹伯邾人滕人伐秦	-12.7857
件	-12.7857
七年春夫人姜氏㑹齊侯于防	-12.7857
晉人宋人衛人曹人伐鄭	-12.7858
褻	-12.7858
蔡侯廬歸于蔡陳侯吳歸于陳	-12.7858
同姓媵之異姓則否	-12.7859
戎狄是膺荆舒是懲	-12.7859
冬公如晉十有二月己巳公及晉侯盟	-12.7859
冬十有二月公㑹宋公于闞	-12.7859
二十有七年春齊侯使慶封來聘	-12.7859
二月己亥及向戌盟于劉	-12.7859
蔡人男女以辨	-12.7859
鷃	-12.786
斜	-12.786
四年春王二月夫人姜氏享齊侯于祝丘	-12.786
雨不克葬庚寅日中而克葬	-12.7861
春王正月宋公曹伯衛人邾人伐齊	-12.7861
八年春宋公衛侯遇于垂	-12.7861
夏衛北宫結來奔	-12.7862
籧	-12.7863
菁菁者莪	-12.7863
華亥向寜華定	-12.7864
屛	-12.7865
秋季孫意如㑹晉韓起齊國弱宋華亥	-12.7866
婚禮不稱主人	-12.7866
仲孫蔑㑹齊髙固于無婁	-12.7866
十有九年春宋公伐邾	-12.7866
刧	-12.7869
鞬	-12.787
孛者何彗星也	-12.787
夬	-12.7871
聦	-12.7879
鄼	-12.788
蹲	-12.8083
逝	-12.8084
疽	-12.8087
二十有九年春公至自乾侯居于鄆	-12.8093
逓	-12.8093
齊人執衛行人北宫結以侵衛	-12.8095
火伏而後蟄者畢	-12.8095
秋七月癸巳滕子寧卒	-12.8095
戊申衛州吁弑其君完	-12.8096
躇	-12.8096
晉趙鞅帥師納衛世子蒯聵于戚	-12.8096
貯	-12.8096
慚	-12.8096
不去慶父魯難未	-12.8096
甲寅齊人伐衛衛人及齊人戰衛人敗績	-12.8097
君君臣臣父父子子	-12.8097
冬衛侯鄭伯盟于曲濮	-12.8098
覜	-12.8098
及國佐盟于袁婁	-12.8098
撥	-12.8099
峙	-12.8099
君雖不君臣不可以不臣	-12.81
二十有五年春齊崔杼帥師伐我北鄙	-12.81
夏叔弓如滕五月葬滕成公	-12.81
臥	-12.81
六年春晉趙盾衛孫免侵陳	-12.81
秋八月丁亥葬齊桓公	-12.8101
冬十月戊辰叔孫婼卒	-12.8101
春秋毛氏傳卷	-12.8101
肝	-12.8101
冬十有一月公㑹宋公于龜	-12.8102
搚	-12.8102
十有二月公圍成公至自圍成	-12.8102
袤	-12.8102
蹂	-12.8102
二十有六年春公伐戎	-12.8102
皂	-12.8103
野有蔓草	-12.8103
外大夫不卒此何以卒	-12.8104
逢孫楊孫	-12.8104
砥	-12.8105
六月癸酉葬我君文公	-12.8105
窌	-12.8105
夏五月庚寅宋公兹父卒	-12.8106
侑	-12.8106
刎	-12.8106
知我者其惟春秋乎罪我者其惟春秋乎	-12.8107
宙	-12.8107
􁏉	-12.8107
公子嬰齊帥師伐莒庚申莒潰楚人入鄆	-12.8107
禬	-12.8108
公㑹齊侯宋公陳侯衛侯鄭伯許男曹伯	-12.8109
饉	-12.8109
陽平元城縣東	-12.8109
饁	-12.8109
豺	-12.811
倐	-12.811
语	-12.8112
齊侯宋公陳侯衛侯鄭伯許男曹伯于鹹	-12.8112
諸侯官受方物	-12.8116
飂	-12.8146
輹	-12.8338
頓置兩閏	-12.834
迺	-12.8341
鯨	-12.8343
黑肱以濫來奔	-12.8343
葘	-12.8344
春秋集傳詳説卷	-12.8346
秋翬帥師㑹宋公陳侯蔡人衛人伐鄭	-12.8347
之郊禘非禮也周公其衰矣	-12.8347
悠	-12.8348
十有一年春晉殺其大夫㔻鄭父	-12.8348
碌	-12.8348
綍	-12.8349
秋公㑹劉子晉侯齊侯宋公衛侯鄭伯	-12.8349
齊髙無咎出奔莒	-12.835
不雨者勤雨也	-12.835
吳子遏伐楚門于巢卒	-12.835
樠	-12.835
冬十月癸亥公㑹齊侯盟于黄	-12.835
轢	-12.835
㑹晉侯宋公陳侯衛侯鄭伯曹伯莒子邾	-12.8351
壷	-12.8351
悉索敝賦	-12.8351
鳶	-12.8351
六月壬子鄭公孫舍之帥師入陳	-12.8351
惡其反覆而書同	-12.8351
鬰	-12.8352
夏四月辛卯夜恒星不見夜中星隕如雨	-12.8352
秋七月丙申及齊髙傒盟于防	-12.8352
叄	-12.8353
救者善則伐者	-12.8353
春正月丙辰公㑹齊侯紀侯盟于黄	-12.8353
鍵	-12.8353
鼷鼠食郊牛角	-12.8353
盡歸鄅俘	-12.8353
宋人執滕子嬰齊	-12.8353
閴	-12.8353
芾	-12.8354
翺	-12.8354
嘉樂不野合	-12.8354
枕之股而哭之	-12.8354
王使召伯廖賜齊侯命	-12.8354
杞伯小邾子齊國夏于召陵侵楚	-12.8354
赧	-12.8354
夏宋公衛侯許男滕子伐鄭	-12.8355
晉士匄帥師侵齊至榖聞齊侯卒乃還	-12.8355
齹	-12.8356
牘	-12.8356
晉里克弑其君卓	-12.8356
騰	-12.8356
𥚹	-12.8356
楚公子貞鄭公孫輒帥師伐宋	-12.8357
球	-12.8357
蚩	-12.8357
春秋左傳屬事卷	-12.8357
滸	-12.8357
秋八月癸未葬我小君穆姜	-12.8358
二十有二年春公伐邾取須句	-12.8359
腸	-12.8359
衰道微暴行交作	-12.8359
十有六年春齊侯伐徐	-12.836
鑪	-12.8364
黈	-12.8368
楨	-12.8371
陌	-12.86
冬十有二月癸亥公㑹衛子莒慶盟于洮	-12.8603
滅者亡國之善辭	-12.8604
鴡	-12.8604
冬十有一月己酉楚子麇卒	-12.8605
映	-12.8605
蔡公孫辰出奔吳	-12.8605
月公㑹單子晉侯宋公衛侯鄭伯莒子邾	-12.8606
四年春王三月己酉陳侯午卒	-12.8607
明卓爾康撰	-12.8607
蔡人放其大夫公孫獵于吳	-12.8607
鸜鵒不踰濟	-12.8607
楚人使宜申來獻捷	-12.8607
韅	-12.8608
六月公㑹宋公陳侯衛侯鄭伯許男曹伯	-12.8608
宋殺其大夫山宋魚石出奔楚	-12.8608
冬十月己丑葬我小君敬嬴	-12.8608
夏四月癸酉衛侯燬卒	-12.8608
沱	-12.8608
檐	-12.8609
秋八月庚辰葬宋共公	-12.8609
蘀	-12.8609
諸侯之喪士弔大夫	-12.861
夏四月辛卯尹氏卒	-12.861
十有二月甲戌公㑹諸侯盟于宋	-12.861
攀	-12.861
儳	-12.8611
惓	-12.8611
二十有三年春齊侯伐宋圍緡	-12.8612
公子遂㑹晉人宋人衛人許人救鄭	-12.8612
入問王疾縊	-12.8612
愒	-12.8612
䳒	-12.8613
逐不臣者七人	-12.8613
莾	-12.8613
坦	-12.8613
案隋書地理志	-12.8615
呂氏大圭曰	-12.8616
秋齊髙發帥師伐莒	-12.8619
験	-12.862
傴	-12.8621
粤	-12.8622
紳	-12.8626
裼	-12.8627
暭	-12.8848
嘏	-12.8858
國春秋統紀第	-12.8858
冬十月癸酉衛侯鄭卒	-12.8861
春齊侯宋人陳人蔡人邾人㑹于北杏	-12.8862
可殺而不殺舉輕	-12.8864
負固不服則侵之	-12.8865
戡	-12.8866
猖	-12.8866
冬公㑹單子晉侯宋公衛侯曹伯齊人邾	-12.8866
明湛若水撰	-12.8866
歠	-12.8867
冬齊髙固及子叔姬來	-12.8868
秋八月戊辰衛侯惡卒	-12.8868
誹	-12.8869
楚人使宜申來獻㨗	-12.8869
拉	-12.8869
穉	-12.8869
大國三軍次國二軍小國一軍	-12.8869
内不承國於先君	-12.8869
塈	-12.887
九月庚申楚子居卒	-12.887
義又見隱二年鄭伐衞	-12.887
冬十有二月乙卯叔孫豹卒	-12.887
夏四月丁未邾子瑣卒	-12.887
先人有奪人之心	-12.887
仲孫蔑㑹晉欒黶宋華元衛	-12.887
犴	-12.8871
洊	-12.8871
睹	-12.8871
淩	-12.8871
諗	-12.8871
明胡廣等撰	-12.8871
軥	-12.8872
夏四月取郜大鼎于宋戊申納于大廟	-12.8872
杭	-12.8872
蠹	-12.8872
准	-12.8872
夏四月丙戌鄭伯寧卒	-12.8872
衿	-12.8873
二十有四年春王二月丙戌仲孫貜卒	-12.8873
蔡侯陳侯許男頓子胡子沈子淮夷伐吳	-12.8873
欲弭諸侯之兵以為名	-12.8873
晉侯及秦伯戰于韓	-12.8873
成王以周公有大勲勞	-12.8873
侯獳貨筮史	-12.8873
㑹于平州以定公位	-12.8874
夏六月辛酉葬我君莊公	-12.8874
羭	-12.8874
䜿	-12.8874
三年春齊國夏衛石曼姑帥師圍戚	-12.8874
夏宋公使公孫夀來納幣	-12.8875
榛栗棗脩	-12.8875
􁆦	-12.8875
冬十有二月丁巳齊侯禄父卒	-12.8875
甲午衛侯衎復歸于衛	-12.8875
正月之朔慝未作	-12.8875
郄	-12.8876
儵	-12.8876
王子虎盟諸侯于王庭	-12.8876
盜殺衛侯之兄縶	-12.8876
桂	-12.8876
衛侯鄭伯許男滑伯滕子同盟于幽	-12.8877
肌	-12.8879
椉	-12.8884
鑋	-12.8885
搜	-12.8887
羨	-12.8893
袚	-12.9117
鑣	-12.9121
九夫為井四井為邑四邑為	-12.9127
甲士三人步卒七十二人	-12.9128
勳	-12.9132
痍	-12.9132
賾	-12.9133
秋七月癸巳葬我君昭公	-12.9133
腫	-12.9133
秋楚人滅夔以夔子歸	-12.9136
春二月公㑹紀侯鄭伯己巳及齊侯宋公	-12.9136
轑	-12.9136
眩	-12.9137
王奪鄭伯政鄭伯不朝	-12.9137
迸	-12.9137
寬	-12.9137
九月晉人執季孫行父舍之于苕丘	-12.9138
夏四月丙子公薨于齊	-12.9138
黄正憲氏曰按	-12.9138
僑如公孫嬰齊帥師㑹晉郤克衛孫良夫	-12.9138
我之不共魯故之以	-12.9138
窀	-12.9138
二月公侵齊三月公至自侵齊	-12.9139
九月戊申朔日有食之冬晉人執虞公	-12.9139
劭	-12.9139
骼	-12.9139
壬申公薨于髙寢	-12.9139
順祀先公而祈焉	-12.9139
夏四月秋宋樂大心自曹入于蕭	-12.9139
子滕子薛伯齊世子光吳人鄫人于戚	-12.9139
其所由來漸矣	-12.914
君子屢盟亂是用長	-12.914
畨	-12.914
猷	-12.9141
正其義不謀其利	-12.9141
瘍	-12.9141
裯	-12.9141
殂	-12.9141
土地猶大所命能具	-12.9142
耜	-12.9142
楚人執陳行人干徴師殺之	-12.9142
挍	-12.9142
衛石惡陳孔奐鄭良霄許人曹人于宋	-12.9142
杪	-12.9142
冬十月公如齊十有二月公至自齊	-12.9142
揲	-12.9143
秋七月甲子公孫兹卒	-12.9143
鵠	-12.9144
取漷東田及沂西田	-12.9144
衰麻非所以接弁冕	-12.9145
夏四月公㑹宋公衛侯陳侯蔡侯伐鄭	-12.9145
縂	-12.9145
燿	-12.9145
儐	-12.9146
齊侯衛侯宋華元邾人于沙隨不見公	-12.9146
凡師能左右之曰以	-12.9146
㴱	-12.9146
晉人宋人衛人曹人同盟于清丘	-12.9147
菹	-12.9147
漷東沂西	-12.9147
以皮帛繼子男	-12.9147
見易象與魯春秋曰周禮盡在魯矣	-12.9148
帯	-12.9148
餕	-12.9149
九月紀履緰來逆女	-12.9149
百王不易之大法	-12.9149
张	-12.9149
愽	-12.915
涘	-12.9151
瑾	-12.9152
旜	-12.9153
纇	-12.9153
東海昌慮縣	-12.9154
瘞	-12.9154
矞	-12.9156
九月己亥葬我小君齊歸	-12.9157
楄	-12.9158
齎	-12.916
歧	-12.916
羆	-12.9166
莒子邾子滕子薛伯杞伯小邾子同圍齊	-12.9375
婿	-12.9411
封豕長蛇	-12.9411
二月辛酉葬我君宣公	-12.9411
痎	-12.9411
轏	-12.9412
癸巳陳夏徴舒弑其君平國	-12.9413
溝而合諸墓	-12.9413
唶	-12.9414
𤾉	-12.9415
夏四月丁巳薛伯榖卒	-12.9415
麴	-12.9415
莒人伐把取牟婁	-12.9416
㩀	-12.9416
蔡侯陳侯許男頓子沈子徐人越人伐吳	-12.9416
公孫歸父如齊葬齊惠公	-12.9417
秋齊侯伐衛遂伐晉	-12.9418
譯	-12.942
摭	-12.942
裸	-12.942
衛侯鄭伯許男曹伯盟于牡丘遂次于匡	-12.942
晉侯宋公陳侯衛侯曹伯莒子邾子于鄬	-12.9421
㑹齊侯宋公陳侯衛侯曹伯伐鄭圍新城	-12.9421
季孫斯叔孫州仇帥師城啓陽	-12.9421
𢃄	-12.9422
迅	-12.9422
兎	-12.9422
研	-12.9422
秋七月辛卯齊侯環卒	-12.9422
沬	-12.9422
還者何善辭也何善爾	-12.9423
弈	-12.9423
胤	-12.9424
娛	-12.9424
鬒	-12.9424
晉侯宋公衛侯鄭伯曹伯齊世子光救陳	-12.9424
夏四月癸亥葬我小君聲姜	-12.9425
皤	-12.9425
冬十有一月叔孫僑如㑹晉士燮齊	-12.9425
召伯盈逐王子朝	-12.9425
胃	-12.9425
篳路藍縷	-12.9426
器與名不可以假人	-12.9427
岷	-12.9427
盪	-12.9427
賚	-12.9428
鐲	-12.9428
夏蔡朝吳出奔鄭	-12.9429
閈	-12.9429
癸丑公㑹晉侯衛侯鄭伯曹伯宋	-12.943
巍	-12.9431
悱	-12.9433
衛人鄭公孫蠆曹人莒人邾人滕人薛人	-12.9442
俳	-12.969
請絶叔姬而無絶	-12.9695
畏晉而竊與楚盟	-12.9695
毳	-12.9695
袖	-12.9696
嘔	-12.9696
齊侯曰執結以侵我	-12.9696
帥師戰于鐵鄭師敗績	-12.9698
眕	-12.9699
諸侯曰薨大夫曰卒	-12.97
壬午公子友帥師敗莒師于酈獲莒挐	-12.97
諸侯卒其封内不地	-12.9701
藺	-12.9702
霑	-12.9702
焰	-12.9702
筩	-12.9702
夏四月辛巳晉人及姜戎敗秦師于殽	-12.9702
鼷䑕食郊牛牛死改卜牛	-12.9702
使陽處父盟公以恥之	-12.9703
餽	-12.9703
二月丙午公㑹邾儀父盟于趡	-12.9703
蕩澤弱公室殺公子肥	-12.9703
二月辛卯邾子穿卒	-12.9704
齊世子光滕子薛伯杞伯小邾子伐鄭	-12.9705
鄭伯會公于棐	-12.9705
圈	-12.9705
靽	-12.9705
瀐	-12.9705
冬十月公子遂如晉葬晉襄公	-12.9705
蟊	-12.9705
宋公陳侯衛侯曹伯㑹晉師于棐林伐鄭	-12.9705
螣	-12.9706
酋	-12.9706
扆	-12.9706
丁巳葬我君定公雨不克葬戊午日下	-12.9707
公㑹晉侯宋公衛侯曹伯莒子邾子	-12.9707
填	-12.9707
鲋	-12.9708
宋公孫固齊國歸父陳轅濤塗	-12.9708
霾	-12.9709
二十有五年春叔孫婼如宋	-12.9709
苪	-12.9709
邑不言圍此其言圍何	-12.9709
克邑不用師徒曰取	-12.9709
榱	-12.971
敺	-12.971
晉士鞅衛孔圉帥師伐鮮虞	-12.9711
罟	-12.9711
十有二年春王三月莒人伐我東鄙圍台	-12.9711
迥	-12.9712
凄	-12.9712
寿	-12.9712
十有七年春王二月庚午邾子牼卒	-12.9712
鼆	-12.9712
諤	-12.9713
煙	-12.9713
夹	-12.9714
禎	-12.9715
父老子代從政	-12.9716
衾	-12.9716
周之宗盟異姓為後	-12.9717
十有八年春王三月曹伯須卒	-12.9717
繐	-12.9722
沢	-12.9724
匃	-12.9726
鯢	-12.9983
辛酉晉侯黒臀卒于扈	-12.9988
吳戰于艾陵齊師敗績獲齊國書	-12.9991
鼷鼠食郊牛改卜牛	-12.9993
死則以成人之喪治之	-12.9993
鄷	-12.9994
巂	-12.9995
筍	-12.9995
五年春公如齊夏公至自齊	-12.9996
宋師伐陳衛人救陳	-12.9996
不重傷不禽二毛	-12.9996
蛾	-12.9997
秋八月甲寅滕子結卒	-12.9997
販	-12.9998
哀為蕭封人以為卿	-12.9998
八月壬午許男甯卒于楚	-12.9999
春王二月癸巳陳侯吳卒	-12.9999
鷹鸇之逐鳥雀	-12.9999
淳于公如曹度其國危遂不復	-12.9999
徭	-12.9999
搢	-12.9999
猪	-13
低	-13
燾	-13
展輿因國人以攻莒子弑之乃立	-13.0001
同者有同也同外楚也	-13.0001
𣢾	-13.0001
劬	-13.0001
渤	-13.0001
蔭	-13.0001
眙	-13.0002
内諱敗舉其可道者	-13.0002
衙	-13.0003
雃	-13.0003
仲慶父請伐齊師	-13.0003
夏衛石買帥師伐曹	-13.0003
王使宰孔賜齊侯胙	-13.0003
嶔	-13.0004
吾以國人出君誰與處	-13.0004
當陳隧者井堙木刋	-13.0004
冬十有二月己卯晉侯重耳卒	-13.0004
年春王正月夏四月秋八月戊申天王崩	-13.0004
竿	-13.0004
簇	-13.0004
錞	-13.0004
玤	-13.0005
二月叔孫得臣如京師辛丑葬襄王	-13.0005
嗛	-13.0006
秋衛殺其大夫元咺及公子瑕	-13.0007
碧	-13.0007
叔孫僑如㑹晉士燮齊人邾人伐郯	-13.0007
宋魏了翁撰	-13.0007
十有二年春齊髙偃帥師納北燕伯于陽	-13.0007
派	-13.0008
齊世子光伐鄭十有二月己亥同盟于戲	-13.0008
薀	-13.0009
頿	-13.0011
秆	-13.0011
檇	-13.0011
狸	-13.0012
捉	-13.0012
堰	-13.0012
圯	-13.0016
蝑	-13.0017
芬	-13.0019
显	-13.0022
肖	-13.0223
桒	-13.0284
徨	-13.0289
殫	-13.0295
騫	-13.0295
曰實與之何上無天子下無方伯天下	-13.0296
二十有四年春王正月夏狄伐鄭	-13.0296
四夷雖大皆曰子	-13.0297
食郊牛角改卜牛鼷鼠又食其角乃免牛	-13.0297
秋公㑹衛侯宋皇瑗于鄖	-13.0298
穸	-13.0298
聒	-13.0298
取者得非其有之稱	-13.0298
儘	-13.0298
戻	-13.0299
下諸侯有相滅亡者	-13.0299
有一年春王正月夏五月辛酉鄭伯突卒	-13.0299
匕	-13.03
銖	-13.03
寂	-13.03
頋	-13.03
娠	-13.03
綣	-13.0301
夏四月丙戌衛孫良夫帥師及齊師戰	-13.0301
紙	-13.0301
袞	-13.0301
奊	-13.0301
公請受盟而後使歸	-13.0301
侏	-13.0301
遟	-13.0302
子糾親也請君討之	-13.0302
跌	-13.0302
夏公至自晉秋晉欒盈出奔楚	-13.0302
濠	-13.0302
冬公孫歸父㑹齊侯于榖	-13.0302
衛侯鄭伯曹伯莒子邾子于商任	-13.0302
晉殺其大夫郤錡郤犫郤至	-13.0303
琪	-13.0303
蛟	-13.0304
其君之子云者國人不子也	-13.0304
秋八月曹伯襄卒九月癸酉地震	-13.0304
尅	-13.0304
戊子晉人及秦人戰于令狐晉先蔑奔秦	-13.0304
下妃生公子勝	-13.0304
丁酉杞伯郁釐卒	-13.0305
瞷	-13.0305
八月辛亥葬我小君定姒	-13.0305
四分公室季氏擇二二子各一皆盡征之	-13.0306
鑕	-13.0306
六月癸未公及齊侯盟于榖	-13.0306
春秋集傳釋義大成	-13.0306
三十有二年春王正月公在乾侯取闞	-13.0306
长	-13.0307
十有一年春王二月叔弓如宋葬宋平公	-13.0309
幦	-13.0309
郏	-13.031
闥	-13.031
崑	-13.031
䁀	-13.031
豈曰小補之哉	-13.031
醮	-13.0312
蕆	-13.0312
八月晉荀吳帥師滅陸渾之戎	-13.0314
庠	-13.0314
自今日既盟之後鄭國	-13.0315
麒	-13.0315
厮	-13.0316
鄹	-13.0316
綆	-13.0317
籠	-13.0317
司徒老祁慮癸	-13.0318
絇	-13.032
鍪	-13.032
冬十月乙亥陳侯林卒	-13.0422
掀	-13.0596
紝	-13.0599
戶	-13.0602
彷	-13.0602
春秋事義全考卷	-13.0603
蔡人衞人陳人從王伐鄭	-13.0603
十有二月丙午齊侯衛侯鄭伯來戰于郎	-13.0604
韣	-13.0604
之死罪累上也故以國殺	-13.0606
十有三年春鄭罕達帥師取宋師于嵒	-13.0607
八月甲午宋萬弑其君捷及其大夫仇牧	-13.0608
取一人焉以歸謂之夏州	-13.0608
霞峯華氏曰	-13.0608
宋吕本中撰	-13.0609
攬	-13.0609
邾人辭曰齊出貜且長	-13.0609
瀋	-13.0611
秋齊侯宋公江人黄人㑹于陽榖	-13.0611
使卜齮賊公于武闈	-13.0611
龎	-13.0612
言日不言朔食晦日也	-13.0612
菀	-13.0612
改卜牛鼷䑕又食其角乃免牛	-13.0612
甯殖曹人莒人邾人滕人薛人圍宋彭城	-13.0614
曰滕薛郳吾役也	-13.0614
齊人弑悼公赴于師	-13.0614
二十有五年春王正月丙午衛侯燬滅邢	-13.0614
㑹齊人宋人衛人鄭人許人曹人侵陳	-13.0614
澗水東瀍水西	-13.0614
庳	-13.0614
而屑屑焉習儀以	-13.0615
㸑	-13.0615
二十有八年春王三月葬曹悼公	-13.0615
齊社蒐軍實使客觀之	-13.0615
鋟	-13.0615
恆	-13.0615
喧	-13.0615
妺	-13.0615
鴒	-13.0616
瘯	-13.0616
慤	-13.0616
十有二月丁巳朔日有食之邾子貜且卒	-13.0617
刑牲歃血要質鬼神	-13.0617
􁏄	-13.0617
葆	-13.0617
冬十有一月庚午蔡侯以吳子及楚人戰	-13.0617
匝	-13.0618
左公子洩右公子職	-13.0618
夏宋人齊人衛人伐鄭	-13.0618
十有四年春正月公㑹鄭伯于曹	-13.0618
許叔居許東偏	-13.0618
鼃	-13.0619
茄	-13.0619
虫	-13.0619
掲	-13.0619
有六年春正月公㑹宋公蔡侯衛侯于曹	-13.0619
入者内弗受也日入惡入者也	-13.0622
叫	-13.0622
冬十月庚寅衛侯臧卒	-13.0622
衘	-13.0622
訓上下之則制財用之節	-13.0623
刜	-13.0623
簉	-13.0623
摏	-13.0624
瞢	-13.0626
淒	-13.0627
遷許于夷實城父	-13.0628
劵	-13.0629
㕑	-13.0629
怡	-13.0629
湔	-13.0633
瑑	-13.0918
胹	-13.0918
怍	-13.0921
纑	-13.0922
甍	-13.0927
認	-13.0927
馬四匹牛十二頭	-13.0929
像	-13.0931
齊師宋師衞師燕師敗績	-13.0931
籥入叔弓卒去樂卒事	-13.0931
雨云者喜雨也	-13.0932
公及齊侯宋公陳侯衞侯鄭伯許男曹伯	-13.0933
自根牟至于商衛	-13.0934
穮	-13.0934
夏四月取郜大鼎于宋戊申納于太廟	-13.0934
捶	-13.0934
五年春公觀魚于棠	-13.0935
繾	-13.0935
有一年春正月齊人衛人鄭人盟于惡曹	-13.0936
孔子成春秋而亂臣賊子懼	-13.0936
二十有八年春晉侯侵曹晉侯伐衛	-13.0936
司氏堵氏侯氏子師氏	-13.0937
月丙寅朔日有食之晉侯使欒黶來乞師	-13.0937
徊	-13.0938
皿	-13.0938
梟	-13.0938
楷	-13.0938
萴	-13.0938
冬十有一月有星孛于東方	-13.0938
禮有受命無來錫命錫命非正也	-13.0938
秦人來歸僖公成風之禭	-13.0939
世希不失矣自大夫出五世希不失	-13.0939
盗殺衛侯之兄縶	-13.0939
政而殺之又傷潞子之目	-13.0939
爨	-13.0939
秋七月戊辰陳侯柳卒	-13.0939
宝	-13.0939
懿氏六十以與孫氏	-13.0939
使元咺奉叔武以受盟	-13.094
边	-13.094
繢	-13.094
秒	-13.0941
肻	-13.0941
錐	-13.0942
十有七年春晉人衛人陳人鄭人伐宋	-13.0942
妒	-13.0942
泌	-13.0943
弩	-13.0943
膂	-13.0943
耒	-13.0943
紀子伯莒子盟于密	-13.0944
參曹人莒人薛人杞人小邾人城成周	-13.0944
妥	-13.0944
駹	-13.0944
鈍	-13.0944
嬉	-13.0945
尪	-13.0945
櫟而寘子元焉	-13.0945
滍	-13.0945
涂	-13.0945
竅	-13.0946
頊	-13.0946
翅	-13.0947
彌庸見姑蔑之旗	-13.095
挶	-13.0951
圬	-13.0952
晉杜氏注唐陸徳	-13.0955
軷	-13.0959
踖	-13.0961
躗	-13.0964
莒子邾子滕子薛伯杞伯小邾子于平丘	-13.1076
鼐	-13.1252
盻	-13.1257
皇皇后帝皇祖后稷	-13.126
㠯	-13.126
軀	-13.126
窬	-13.1261
熏	-13.1263
飪	-13.1263
筴	-13.1264
曹伯露卒夏齊國夏帥師伐我西鄙	-13.1264
軛	-13.1264
衈	-13.1264
僇	-13.1266
曷為不與實與而文不與文曷為不與	-13.1266
墊	-13.1267
秋曰蒐冬曰狩	-13.1267
撿	-13.1267
伶	-13.1268
八月丁卯大事于大廟躋僖公	-13.1268
皙	-13.1269
衣服禮秩如適	-13.1269
凡去其國國逆而立之曰入	-13.127
君舉必書書而不法後嗣何觀	-13.1271
子雖齊聖不先父食	-13.1271
氂	-13.1271
公子圍齊國弱宋向戌衛齊惡陳公子招	-13.1271
盡俘楚邑之近胡者	-13.1271
夏六月庚辰晉侯去疾卒	-13.1271
十有八年春晉侯衛世子臧伐齊	-13.1272
培	-13.1272
间	-13.1272
二月公侵鄭公至自侵鄭	-13.1272
燕簡公多嬖寵欲去諸大夫而立其寵人	-13.1272
侯曹伯邾人伐鄭六月乙酉同盟于柯陵	-13.1273
髙無咎宋華元衛孫林父鄭公子鰌邾	-13.1273
子貢欲去告朔之餼羊	-13.1273
晉郤克衛孫良夫伐廧咎如	-13.1273
琢	-13.1274
􁂪	-13.1274
楚子師于狼淵以伐鄭	-13.1274
惠公之季年敗宋師于	-13.1274
十有一月丙寅朔日有食之公至自黄	-13.1274
夏五月壬申曹伯夀卒	-13.1275
叠	-13.1275
以歸猶愈乎執也	-13.1276
滅耿滅霍滅魏	-13.1276
帅	-13.1276
醯	-13.1277
敲	-13.1277
螫	-13.1278
駵	-13.1278
泂	-13.1279
彤弓一彤矢百玈弓矢千	-13.128
邧	-13.1286
黰	-13.1289
鮫	-13.1291
腒	-13.1292
倅	-13.1292
旴	-13.1605
蓺	-13.1606
筋	-13.1607
轚	-13.1608
案此篇見永樂大	-13.1609
二月乙丑季孫行父及晉郤犫盟于扈	-13.1609
九月晉侯宋公衛侯鄭伯曹伯㑹于扈	-13.161
翰林院檢討毛竒齡撰	-13.1611
愛人不親反其仁治人不治	-13.1611
屡	-13.1612
頯	-13.1612
崛	-13.1613
冬齊侯衛侯鄭游速㑹于安甫	-13.1613
人滕人薛人小邾	-13.1613
鉦	-13.1614
翊	-13.1614
立胡女敬歸之子子野	-13.1614
刦	-13.1615
籌	-13.1615
凜	-13.1615
躬自厚而薄責於人	-13.1616
酁	-13.1618
繳	-13.1618
春齊侯宋公陳侯衛侯鄭伯㑹于鄄	-13.1618
祛	-13.1619
楚人執陳行人干徵師殺之	-13.162
囚諸樓臺栫之以棘	-13.162
鄝	-13.162
鯉	-13.1621
阙	-13.1622
滕人薛人小邾人城杞	-13.1622
夏四月叔孫豹㑹晉荀偃齊人宋人衛北	-13.1622
麏	-13.1622
態	-13.1622
刮	-13.1623
闖	-13.1624
㽞	-13.1624
楚晨壓晉軍而陳	-13.1624
狽	-13.1624
恰	-13.1626
淅	-13.1626
頜	-13.1627
迮	-13.1628
矇	-13.1628
秪	-13.1629
蠅	-13.163
犠	-13.1631
兜	-13.1633
隨以漢東諸侯叛楚	-13.1955
自墓門之瀆入	-13.196
葑	-13.196
遬	-13.1962
鸇	-13.1962
秋七月禘于大廟用致夫人	-13.1963
季夏六月以禘禮祀周公	-13.1964
瘼	-13.1964
一匡天下民到于今受其賜	-13.1965
蹤	-13.1966
溉	-13.1967
買妾不知其姓則卜之	-13.1968
靦	-13.1968
夏公㑹齊侯于夾谷公至自夾谷	-13.1969
不以父命辭王父命	-13.1969
宋人以齊人蔡人衞人陳人伐鄭	-13.1969
冬衛侯使公孫剽來聘晉侯使荀罃來聘	-13.197
把伯小邾子齊國夏于召陵侵楚	-13.197
烖	-13.197
楚輔之以晉可以少安	-13.197
㑹晉人宋人陳人衛人鄭人伐沈沈潰	-13.1971
夏齊國夏及髙張來奔	-13.1971
襄之族率國人以攻公	-13.1971
絆	-13.1971
狙	-13.1971
紵	-13.1972
夏公及夫人姜氏㑹齊侯于陽榖	-13.1972
莒女有為鄫夫人者	-13.1972
瞽奏鼓嗇夫馳庶人走	-13.1972
衛人侵狄秋衛人及狄盟	-13.1973
蓘	-13.1973
㑹晉侯鄭伯齊人宋人衛人邾人于邢丘	-13.1973
莒子邾子薛伯杞伯小邾子于沙隨	-13.1974
立戴公以廬于曹	-13.1974
伯姬為志乎朝其子	-13.1974
胊	-13.1974
天威不違顔咫尺	-13.1974
濤	-13.1975
寗殖曹人莒人邾人滕人薛人圍宋彭城	-13.1975
冬十有二月癸亥杞伯過卒	-13.1975
憒	-13.1976
鰓	-13.1976
宋公入曹以曹伯陽歸	-13.1976
艶	-13.1976
季文子以鞌之功立武	-13.1976
闌	-13.1976
熖	-13.1976
嫄	-13.1976
蘱	-13.1977
洵	-13.1977
欠	-13.1977
絛	-13.1977
年春王正月辛亥仲孫速㑹莒人盟于向	-13.1977
刅	-13.1977
枹	-13.1978
覃	-13.1978
悻	-13.1978
以吉禮從金革	-13.1978
晉師宋師衛甯殖侵鄭	-13.1978
蜂	-13.1979
扣	-13.1979
輸王粟具戍人	-13.1979
盆	-13.1979
箠	-13.1979
季孫意如如晉冬十月葬晉昭公	-13.198
掦	-13.198
稲	-13.1981
言日言朔食正朔也	-13.1981
七日不克必爾乎取之	-13.1982
坡	-13.1982
瞆	-13.1982
魑	-13.1984
潢	-13.1984
猈	-13.1984
檮	-13.1985
􁊈	-13.1985
師及訾梁而潰	-13.1985
䞇	-13.1987
噲	-13.1988
凡蔣邢茅胙祭	-13.1988
莒子娶于向向姜不安莒而歸	-13.1989
酇	-13.199
肃	-13.1994
雊	-13.2332
霞	-13.2335
韤	-13.2336
全曰牲傷曰牛	-13.2336
辛酉晉侯黑臀卒于扈	-13.2336
芽	-13.2337
公將如棠觀魚者	-13.2337
楚衆欲止子玉不可	-13.2337
嶲	-13.2337
欲去季孟而取其室	-13.2338
納采問名納吉	-13.2338
對曰郢不足以辱社	-13.2338
湨	-13.234
蔡侯陳侯許男頓子胡子沈子淮夷伐呉	-13.234
髙張宋仲幾衛世叔申鄭國	-13.2341
蟻	-13.2341
齊侯宋公衞侯鄭伯曹伯邾人滕人伐秦	-13.2341
丁未蔡侯申卒夏葬許昭公葬蔡文公	-13.2341
粒	-13.2342
姜怒公子偃公子鉏趨過	-13.2342
秕	-13.2342
潄	-13.2343
角而知傷展道盡矣	-13.2343
壌	-13.2343
駑	-13.2343
胥甲趙穿當軍門呼	-13.2343
仲孫羯㑹晉荀盈齊髙止宋華定	-13.2344
悴	-13.2344
諸侯無粟諸侯相歸粟正也	-13.2344
繪	-13.2344
八月乙未地震冬公如晉至河有疾乃復	-13.2345
仲孫蔑㑹齊崔杼曹人邾人杞人次于鄫	-13.2345
㽔	-13.2346
厈	-13.2346
曹成公夏衛孫林父帥師伐齊	-13.2346
宋元公無信多私而惡華向	-13.2346
㓛	-13.2346
单	-13.2346
麀	-13.2347
裝	-13.2347
櫛	-13.2348
華元夜入楚師登子反之牀	-13.2348
晉侯使荀庚來聘衛侯使孫良夫來聘	-13.2348
躓	-13.2348
殣	-13.2349
幟	-13.2349
襟	-13.235
僥	-13.2351
暵	-13.2352
瘥	-13.2352
非我族類其心必異	-13.2352
一時無事書首月存天道王法也	-13.2353
彥	-13.2353
遶	-13.2353
或如齊慶封弑其君弱其孤以盟其大夫	-13.2353
子建殺連尹奢	-13.2354
銔	-13.2354
溳	-13.2354
髙下有水災曰大水	-13.2354
趍	-13.2354
耉	-13.2354
塓	-13.2355
劉文公合諸侯于召陵謀伐楚	-13.2355
鑰	-13.2358
燉	-13.2358
竀	-13.2363
焮	-13.2365
黥	-13.2375
乙亥陳侯林卒王使榮叔來錫桓公命	-13.2587
膇	-13.2708
床	-13.2711
器用而遷之師無私焉	-13.2712
畋	-13.2716
沫	-13.2716
倔	-13.272
秋公㑹齊侯莒子邾子杞伯盟于鄟陵	-13.272
鼷鼠食郊牛牛死改卜牛	-13.2721
桎	-13.2721
晉士鞅趙鞅荀寅救我	-13.2721
衞石惡陳孔奐鄭良霄許人曹人于宋	-13.2722
利所以與民共也虞之非正也	-13.2722
吾多與而役故季氏城費	-13.2722
畎	-13.2722
鬩	-13.2722
宋洪咨夔撰	-13.2722
靡不有初鮮克有終	-13.2722
仡	-13.2724
楚子成章華之臺願與諸侯落之	-13.2724
宋三世無大夫三世内娶也	-13.2725
夏叔詣㑹晉趙鞅宋樂大心衛北宫喜鄭	-13.2726
公子買戍衞不卒戍刺之	-13.2726
劾	-13.2726
春季孫行父㑹齊侯于陽榖齊侯弗及盟	-13.2727
知禮而無勇若使萊	-13.2727
咈	-13.2727
栖	-13.2728
涵	-13.2728
齊侯致禚媚杏	-13.2728
愉	-13.2728
齊髙偃帥師納北燕	-13.2728
敵惠敵怨不在後嗣	-13.2729
仲尼曰以臣召君不可以訓故書	-13.2729
瞀	-13.2729
先克奪蒯得田	-13.2729
凡諸侯有四夷之功則獻	-13.2729
居常與許復周公之宇	-13.2729
抜	-13.273
君不君則臣不臣父不父則子不子	-13.273
四月丙子公薨于齊丁酉公之喪至自齊	-13.273
滕人薛人小邾人城把	-13.273
華元為右師魚石為左師	-13.273
瀘	-13.2731
公賜季友汶陽之田及費	-13.2731
先克曰狐趙之勲不可廢也	-13.2732
鄻	-13.2733
湊	-13.2734
秦人毒涇上流師人多死	-13.2735
再㑹而盟以顯昭明	-13.2735
今火猶西流司厯過也	-13.2735
諓	-13.2735
官有世功則有官族邑亦如之	-13.2736
蔚	-13.2736
柣	-13.2736
焜	-13.2737
仲殺惡及視而立宣公	-13.2737
囏	-13.2738
叔老㑹鄭伯晉荀偃衛甯殖宋人伐許	-13.2739
齊高偃帥師納北燕伯于陽	-13.2739
襘	-13.274
侠	-13.274
塾	-13.2741
埆	-13.2742
溼	-13.2743
抚	-13.2745
腊	-13.2754
旟	-13.2754
邙	-13.2755
􁀱	-13.3101
踦	-13.3102
謩	-13.311
叔孫豹㑹晉趙武楚公子圍齊國弱宋向	-13.3117
煢	-13.3118
束牲載書而不歃血	-13.3118
請釋泰山之祀而祀周公以泰山之祊易	-13.3121
逈	-13.3121
可謂知人矣立穆公其子饗	-13.3121
取卒之日加之災上	-13.3121
蕖	-13.3121
君子不以親親害尊尊	-13.3122
憶	-13.3122
霰	-13.3123
凡馬日中而出日中而入	-13.3123
滅虢虢公醜奔京師	-13.3123
王使富辛與石張如晉	-13.3123
僔	-13.3124
耐	-13.3125
獋	-13.3125
嫗	-13.3125
哭泣歠飦粥嗌不容粒	-13.3126
暖	-13.3126
葬曹靖公九月葬陳	-13.3126
曰邑邑曰築都曰城	-13.3127
賞以春夏刑以秋冬	-13.3127
范山言於楚子曰晉君少不在諸侯	-13.3128
囚鄖公鍾儀獻諸晉	-13.3128
遂殺其二子幕及平夏	-13.3129
啑	-13.3129
之示人顯矣史之有占明矣	-13.313
圎	-13.313
仭	-13.313
澳	-13.313
阱	-13.313
筓	-13.313
唯余馬首是瞻	-13.3131
價	-13.3131
懽	-13.3131
徘	-13.3131
湟	-13.3132
司馬起豐析與狄戎	-13.3132
鄭伯肉袒牽羊以逆	-13.3132
而食之析骸而炊之	-13.3132
烝冬事也春興之志不時	-13.3132
昳	-13.3132
暉	-13.3133
壟	-13.3133
晉杜氏注唐陸德明音義	-13.3133
欽定春秋傳説彚纂卷	-13.3134
桔	-13.3134
五經之有春秋猶法律之有斷	-13.3134
朡	-13.3135
杌	-13.3135
尒	-13.3135
案程公説春秋分記云	-13.3136
択	-13.3136
崧	-13.3136
鍭	-13.3136
寨	-13.3137
中五之一小九之一	-13.3137
叔孫氏之車子鉏商獲	-13.3137
蓽	-13.3137
䦧	-13.3138
柲	-13.3139
絿	-13.314
大隧直轅冥阨	-13.314
孤斬焉在衰絰之中	-13.314
擴	-13.314
崙	-13.3141
鐃	-13.3141
訐	-13.3143
蕢	-13.3143
鑠	-13.3143
毓	-13.3144
麄	-13.3144
使孔賜伯舅胙	-13.3144
蛮	-13.3145
贑	-13.315
甾	-13.3154
弥	-13.3155
芸	-13.3156
薮	-13.3173
孳	-13.3526
蜼	-13.3529
對曰使死者反生生者	-13.3531
逗	-13.3531
讒而不見後有賊而不知	-13.3531
不能三年之喪而緦小功之察	-13.3534
𣙗	-13.3534
魯有禘樂賔祭用之	-13.3535
睅	-13.3536
六月庚辰晉侯去疾卒秋八月葬晉頃公	-13.3536
傚	-13.3536
不禮焉及其入也諸侯皆賀譚又不至	-13.3537
棃	-13.3537
季孫使役如闞公氏	-13.3538
吾是以失楚又何祀焉	-13.3539
使子叔聲伯請季孫于晉	-13.3539
夏穀伯綏來朝鄧侯吾離來朝	-13.354
有二年春王正月夏四月己丑鄭伯㨗卒	-13.354
衛侯邾子齊崔杼同盟于虚朾	-13.3541
帛之妾無食粟之馬無藏金玉無重器備	-13.3542
立桓公而討寪氏有死者	-13.3542
鮦	-13.3542
橈	-13.3542
躪	-13.3543
紀子帛莒子盟于密	-13.3543
八月壬午許男寗卒于楚	-13.3543
祍	-13.3543
紀侯不能下齊以與紀季	-13.3543
六月齊師宋師次于郎公敗宋師于乘丘	-13.3543
昄	-13.3543
簟	-13.3544
齊髙厚帥師伐我北鄙圍防	-13.3544
勤而撫之以役王命	-13.3545
逷	-13.3545
闃	-13.3545
齊世子光滕子薛伯把伯小邾子伐鄭	-13.3545
漚	-13.3545
坑	-13.3545
愿	-13.3546
晉侯使郤犫來聘己丑及郤犫盟	-13.3546
営	-13.3546
剰	-13.3546
漠	-13.3546
􁂋	-13.3546
徠	-13.3547
􁁔	-13.3547
我同盟之人既盟之後言歸于好	-13.3547
歸而取項齊人以為討而止公	-13.3547
季孫斯叔孫州仇仲孫何忌帥師伐邾	-13.3547
虹	-13.3547
賂秦伯以河外列城五	-13.3547
㾐	-13.3547
使公子掩餘公子燭庸	-13.3547
宋城舊鄘及桑林之門	-13.3548
邸	-13.3548
涓	-13.3548
六年春王三月壬午杞伯姑容卒	-13.3548
所見異辭所聞異辭所傳聞異辭	-13.3548
啗	-13.3548
晉士匄帥師侵齊至穀聞齊侯卒乃還	-13.3549
擭	-13.3549
粮	-13.355
著於上見於下謂之雨	-13.355
不建民之無援哀哉	-13.355
劈	-13.3551
陪臣執國命三世希不失矣	-13.3551
司慎司盟名山名川	-13.3552
喜曰必子鮮在不然必敗	-13.3553
緰	-13.3553
𬒮	-13.3554
纘	-13.3554
㦧	-13.3554
汔	-13.3554
晉侯師于台谷以救宋	-13.3554
滕薛小邾之不至皆齊故也	-13.3555
剸	-13.3556
眼	-13.3556
杅	-13.3557
莖	-13.3558
柘	-13.3558
晃	-13.356
簣	-13.3561
􁅀	-13.3563
檛	-13.3564
阬	-13.3564
犢	-13.3569
殺世子母弟直稱君者甚之也	-13.3802
焬	-13.3963
不愧乎其言則可謂信矣	-13.3965
颺	-13.3965
夏之始可以承春以秋之末承	-13.3966
癰	-13.3967
魯公之廟文世室也武公之廟武世室也	-13.3968
訝	-13.3968
庸人帥羣蠻以叛楚	-13.3969
伹	-13.397
刊	-13.397
睋	-13.3971
謂陳人無動將討於少西氏	-13.3971
莒子邾子滕子薛伯𣏌伯小邾子	-13.3971
企	-13.3972
潮	-13.3972
諸子鬻姒之子荼嬖	-13.3972
是晉再克而楚再敗也	-13.3973
藋	-13.3973
禧	-13.3973
立敬歸之娣齊歸之子	-13.3973
請王命以求成于齊公告不能	-13.3975
八月甲午宋萬弑其君㨗及其大夫仇牧	-13.3977
冬十有一月庚午蔡侯以呉子及楚人戰	-13.3977
其少故也吾將授之矣	-13.3977
君子謂華元樂舉於是乎不	-13.3977
隨絞州蓼伐楚師	-13.3977
請深壘固軍以待之	-13.3978
瑯	-13.3978
夏叔仲彭生㑹晉郤缺于承筐	-13.3978
娱	-13.3979
鄀叛楚即秦又貳	-13.3979
齊侯宋公衛侯曹伯莒子邾子杞伯救鄭	-13.3979
帆	-13.398
射其元王中厥目	-13.398
讋	-13.398
街	-13.398
紕	-13.398
綢	-13.3981
下其君之禮一等未誓則以皮帛繼子男	-13.3981
九月大雩冬十月八年春王正月公侵齊	-13.3981
次國之上卿當大國之中中當其下下當	-13.3981
必試諸人國人患之又將叛齊	-13.3981
虞遂襲虞滅之執虞公	-13.3981
使鄧廖帥組甲三百	-13.3981
碭	-13.3981
齊君無信不如早之晉	-13.3982
嗣不立而外求君將焉寘此	-13.3982
茶	-13.3983
枋	-13.3983
秋七月丁亥公㑹宋公燕人盟于榖丘	-13.3983
鮮虞納荀寅于柏人	-13.3984
䳭	-13.3984
邾人以須句故出師公卑邾不設備	-13.3984
易牙入與寺人貂因内寵以殺羣吏	-13.3984
疾革雖當祭必告	-13.3985
簑	-13.3985
脡	-13.3985
齊侯宋子衞侯鄭伯許男曹伯于葵丘	-13.3985
简	-13.3986
栻	-13.3986
臣弑其君者有之子弑其父者有之	-13.3988
啜	-13.3988
公子結媵陳人之婦于鄄	-13.3988
錫者何賜也命者何加我服也	-13.3988
束載厲兵秣馬	-13.3988
宗器樂器自六正五吏三十帥	-13.3988
王使虢公命曲沃伯以一軍為晉侯	-13.3989
肋	-13.3989
虣	-13.399
騒	-13.399
君子勞心小人勞力	-13.3992
􁈍	-13.3992
􁒙	-13.3995
大位姦之窺也危病邪之伺	-13.3996
雖鞭之長不及馬腹	-13.3997
吸	-13.4002
顥	-13.4005
漦	-13.4017
璿	-13.4415
庫門天子臯門雉門天子應門	-13.4417
挹	-13.4423
諸侯有相滅亡者力能救之則救之可也	-13.4424
逆之道微無足道焉爾	-13.4425
霹	-13.4425
靂	-13.4425
魯之有季孟猶晉之有欒范也政令	-13.4426
襁	-13.4427
髡	-13.4428
縻	-13.4428
東諸侯之師次于鄫以待晉師	-13.4429
眢	-13.443
鄭人為之城嵒戈錫	-13.443
鳻	-13.443
胥臣以下軍之佐當陳蔡	-13.443
欲盡去羣大夫而立其左右	-13.443
脗	-13.4431
䱷	-13.4431
聲姜以公故㑹齊侯于卞	-13.4431
靈公卒夫人曰命公子郢	-13.4431
倂	-13.4431
酣	-13.4431
外州人奪之軒以獻	-13.4431
死有母弟則立之無則立長	-13.4431
祜	-13.4432
曹人使公子負芻守使公子欣時逆曹伯	-13.4432
𠖇	-13.4432
稀	-13.4432
天子有日官諸侯有日御	-13.4433
慟	-13.4433
􁒆	-13.4433
紲	-13.4433
諸侯之大夫相帥以城之此變之正也	-13.4434
邾文公元妃齊姜生定公二妃晉姬生	-13.4435
壬戌平王崩赴以庚戌故書之	-13.4435
而忘越王之殺而父乎則對曰唯	-13.4435
穆叔以屬鄫為不利使鄫	-13.4435
桴	-13.4435
人莒人邾人滕人薛人把人小邾人伐秦	-13.4436
辰在申司厯過也再失閏矣	-13.4436
妁	-13.4436
塏	-13.4436
梁𢎞御戎萊駒為右	-13.4436
䷇	-13.4436
彌作頃丘玉暢嵒戈錫	-13.4436
玖	-13.4437
君為社稷死則死之為社稷亡則亡之	-13.4437
琬	-13.4437
以罪人三千先犯胡沈	-13.4437
憔	-13.4438
讖	-13.4438
弦子恃之而不事楚又不設備故亡	-13.4438
仲虺居薛以為湯左相	-13.4438
旡	-13.4438
䷂	-13.4438
襧	-13.4438
薑	-13.4439
漬	-13.4439
署	-13.4439
閹	-13.4439
換	-13.4439
有一月辛卯蔡侯廬卒二十有一年春王	-13.4439
斑	-13.4439
夏叔孫僑如㑹晉荀首于榖	-13.4439
叔父陟恪在我先王之左右以佐事上帝	-13.444
晉成虒祁諸侯朝而歸者皆有	-13.444
蘖	-13.444
癬	-13.444
人非所近也舉至賤而加之	-13.4441
侵鄭伐緜訾及匡	-13.4441
宸	-13.4441
侯召王以諸侯見且使王狩	-13.4442
閩	-13.4442
帷哭君成踊反命	-13.4442
帥陳蔡不羮許葉之師	-13.4442
使謂隂地之命大夫士蔑	-13.4442
诗	-13.4442
衛世叔儀鄭公孫段曹人莒人	-13.4443
季孫斯叔孫州仇帥師城啟陽	-13.4443
愸	-13.4443
㷀	-13.4443
呌	-13.4444
不狎敵不邇怨賤人非所	-13.4444
曰君命大臣始禍者死載書在河	-13.4444
門于方城遇息公子朱而還	-13.4445
閶	-13.4446
塘	-13.4447
舟以孟諸之役惡宋	-13.4447
䷍	-13.4448
軍行右轅左追蓐	-13.4448
灊	-13.4448
嘿	-13.4448
盎	-13.4453
慁	-13.4453
沇	-13.4454
琫	-13.4454
侗	-13.4458
妵	-13.446
幃	-13.4471
袀	-13.4884
剔	-13.4889
旂十有二旒日月之章祀帝	-13.4892
周儋翩率王子朝之徒因鄭人	-13.4899
髀	-13.49
屍	-13.49
指之曰女不可是皆君也	-13.49
犅	-13.4901
孟氏使半為臣若子若弟	-13.4901
費人北國人追之敗諸姑蔑	-13.4902
犇	-13.4903
奉嗣王祗見厥祖	-13.4903
宋曰君若伐鄭以除君害	-13.4903
榼	-13.4903
公如晉及河晉侯使士文伯來辭曰非	-13.4903
㦯	-13.4903
幬	-13.4904
煑	-13.4904
不越竟反不討賊非子而誰	-13.4904
諸侯之大夫于狄泉尋盟且令城成周	-13.4905
欲善季氏而求媚於南遺謂遺請城費	-13.4905
莒子邾子薛伯把伯小邾子于沙隨	-13.4905
瑛	-13.4905
惧	-13.4906
㩦	-13.4906
劉子晉侯宋公蔡侯衞侯陳子鄭伯	-13.4906
侯許男曹伯陳世子欵盟于洮鄭伯乞盟	-13.4907
梁伯好土功亟城而	-13.4907
鄭共叔之亂公孫滑出奔	-13.4907
觶	-13.4907
鄭伯費卒秋仲孫蔑叔孫僑如帥師侵宋	-13.4907
羗	-13.4907
謔	-13.4908
满	-13.4908
雖有後事晉勿與知可也	-13.4908
綠	-13.4908
定爾婁豬盍歸吾艾豭	-13.4908
皮革齒牙骨角毛羽	-13.4908
哿	-13.4908
蔡哀侯娶于陳息侯亦娶焉	-13.4908
圍邧新城以報王官之役	-13.4909
曰晉楚有盟好惡同之若	-13.4909
仲孫蔑而止季孫行父吾與子國親	-13.4909
煽	-13.4909
季佗愛季佗而黜僕且多	-13.4909
易子而食析骸而爨	-13.491
瑩	-13.491
致民司馬致節司空致地乃還	-13.491
噭	-13.491
對曰貢之不入寡君之罪也敢	-13.4911
使劉子復之盟于鄄而入三日復出奔晉	-13.4911
賈季怨陽子之易其班也	-13.4911
則信不臣矣然後伐之若何晉人召季孫	-13.4911
伐馮滑胥靡負黍狐人闕外	-13.4911
虐其君曰弑自外曰戕	-13.4911
繯	-13.4912
坎用牲埋書而告公曰合比將納亡人之	-13.4912
夏四月辛巳晉人及姜戎敗秦于殽	-13.4913
崒	-13.4913
捌	-13.4913
之如父母仰之如日月敬之如神明畏之	-13.4913
痺	-13.4913
卿中當其上大夫下當其下大夫	-13.4914
杙	-13.4914
悶	-13.4914
昻	-13.4914
洸	-13.4914
洺	-13.4914
紒	-13.4914
夫人王姬使帥甸攻而殺	-13.4915
娄	-13.4915
勠	-13.4915
室而寛其征與之材	-13.4915
曰築室反耕者宋必	-13.4915
蜰	-13.4915
葬許元公九月螽冬十有一月有星孛	-13.4916
乃背先蔑而立靈公以禦秦師	-13.4916
宣子與諸大夫皆患穆嬴且畏偪	-13.4916
蠦	-13.4916
子曰君忌我矣弗先必死	-13.4916
竫	-13.4917
晰	-13.4917
曰敝邑易子而食析骸以	-13.4917
嗌	-13.4917
欬	-13.4918
摋	-13.4918
甲寅滕子結卒冬十有二月葬蔡昭公	-13.4918
𠞰	-13.4919
使詹嘉處瑕以守桃林之塞	-13.4919
腎	-13.492
帀	-13.492
尹午陵尹喜帥師圍徐以懼	-13.492
飴	-13.492
郸	-13.4921
荀偃怒且曰諸侯有異志矣使諸大夫盟	-13.4922
歯	-13.4922
譁	-13.4922
蓻	-13.4923
煮	-13.4923
𣆀	-13.4924
使府人庫人各儆其事	-13.4924
㝛	-13.4924
檉聞君薨家遣墠	-13.4926
旺	-13.4927
掔	-13.4928
迤	-13.4932
接内也不正其接内故不與夫婦之稱也	-13.5389
緬	-13.5391
秋晉侯㑹狄于櫕函	-13.5392
樂只君子邦家之基	-13.5395
湥	-13.5397
皎	-13.5398
始殺而嘗閉蟄而烝過則書	-13.5398
駘不至殺諸野幕之下	-13.5399
襍	-13.5399
郊自正月至于三月郊之時也	-13.5399
共仲曰奚斯之聲也乃縊	-13.54
􁈈	-13.54
晞	-13.54
初公傅奪卜齮田公不禁	-13.54
曰秦將襲我民懼而潰秦遂取梁	-13.5401
楚公子貞鄭公孫輙帥師伐宋	-13.5402
而不反我汶陽之田吾以共命者亦如之	-13.5402
爾有亂心無厭國不女堪	-13.5403
參曹人莒人薛人把人小邾人城成周	-13.5403
儌	-13.5403
戟	-13.5404
晉侯使荀庚來聘衞侯使孫良夫來聘	-13.5404
觚	-13.5404
攫	-13.5404
燕大夫比以殺公之外嬖	-13.5404
玆	-13.5404
歸死者曰賵歸生者曰賻	-13.5405
鶞	-13.5405
復歸者出惡歸無惡復入者出無	-13.5405
凡諸侯即位小國朝之大國聘焉	-13.5406
公孫夏閭丘明陳書東郭書革	-13.5406
齊侯宋公陳侯衞侯鄭伯許男曹伯于鹹	-13.5406
鄏	-13.5406
適立庶以失大援者仲也夫	-13.5407
郊而後耕今既耕而卜郊宜其不從也	-13.5407
伯姬之婦道盡矣詳其事賢伯姬也	-13.5407
凡天災有幣無牲非日月之眚不鼓	-13.5407
赤狄伐晉及清先縠召之也	-13.5408
泳	-13.5408
匹馬隻輪無反者	-13.5408
冬楚子為陳夏氏亂故伐陳	-13.5408
廛	-13.5408
秋七月丁亥公㑹宋公燕人盟于穀丘	-13.5408
蹔	-13.5409
公如齊髙固使齊侯止公請叔姬焉	-13.5409
凡邑有宗廟先君之主曰都無	-13.5409
春秋曰雨星不及地尺而復	-13.5409
王曰釋齊秦他國請相見也	-13.5409
以蔡公之命召子干子晳	-13.541
冗	-13.541
腶	-13.541
㤜	-13.541
凡土功龍見而畢務戒事也	-13.541
十年春衛侯之弟黒背帥師侵鄭	-13.541
晉侯使士景伯涖問周故	-13.541
請待於沂上以察罪弗許	-13.541
膘	-13.541
襯	-13.5411
惶	-13.5411
伯國死孫氏夜哭國人召	-13.5411
子臧盡致其邑與卿而不出	-13.5411
纒	-13.5412
災患恤禍亂同好惡奬	-13.5412
年一小聘三年一大聘五年一朝	-13.5412
孔子在陳聞火曰其桓僖乎	-13.5412
葛藟猶能庇其本根	-13.5412
觓	-13.5412
堆	-13.5413
襄仲使告于王請以王寵求昭姬于齊	-13.5413
孥	-13.5413
㕓	-13.5413
虵	-13.5413
纖	-13.5414
琰	-13.5414
曆	-13.5414
瞶	-13.5415
毘	-13.5416
濄	-13.5416
濓	-13.5418
竞	-13.5419
頁	-13.5419
牄	-13.5419
恍	-13.542
尙	-13.5421
莪	-13.5421
肢	-13.5421
帨	-13.5424
洚	-13.5425
傫	-13.5425
宂	-13.5426
㢲	-13.5426
栫	-13.5428
稾	-13.5429
瀸	-13.5429
躔	-13.5431
嶓	-13.5431
絮	-13.5432
脚	-13.5434
嶠	-13.5441
鳸	-13.5857
煦	-13.5915
杓	-13.5916
闰	-13.5919
訢	-13.5926
楫	-13.5927
樗	-13.5927
嘲	-13.5927
褎	-13.593
鉗	-13.593
値	-13.5931
楸	-13.5931
芃	-13.5932
厓	-13.5932
沭	-13.5933
踆	-13.5933
杯	-13.5934
晡	-13.5935
遡	-13.5935
髢	-13.5936
㒵	-13.5936
禖	-13.5937
礪	-13.5937
唅	-13.5937
咽	-13.5937
賙	-13.5937
杝	-13.5938
􁀫	-13.5938
臏	-13.5939
橁	-13.5939
匆	-13.5939
褽	-13.5939
嗚	-13.594
柷	-13.594
蝮	-13.594
睡	-13.594
卹	-13.594
輴	-13.594
夐	-13.5941
森	-13.5941
棧	-13.5943
㫋	-13.5944
鍜	-13.5944
曖	-13.5945
鴞	-13.5946
悚	-13.5946
辝	-13.5946
宐	-13.5946
苓	-13.5946
蔥	-13.5948
􁀋	-13.5948
磌	-13.5948
讃	-13.5949
𡵨	-13.5953
撞	-13.5954
􁐼	-13.5955
檪	-13.5955
妘	-13.5956
􁁲	-13.5958
䷁	-13.5961
鷦	-13.5961
旞	-13.5972
憧	-13.6471
紾	-13.6475
掣	-13.6478
誉	-13.6482
闵	-13.6483
輊	-13.6483
廁	-13.6483
挂	-13.6484
禂	-13.6485
庐	-13.6487
鵙	-13.6487
佼	-13.6488
㢡	-13.6491
窻	-13.6491
栄	-13.6492
娯	-13.6492
莩	-13.6493
晷	-13.6493
軄	-13.6493
駈	-13.6493
宕	-13.6494
瀾	-13.6494
瘦	-13.6494
髣	-13.6494
渻	-13.6495
鍥	-13.6495
擿	-13.6496
廓	-13.6497
繠	-13.6497
霽	-13.6499
狷	-13.65
熬	-13.65
潭	-13.6501
峽	-13.6502
燃	-13.6502
㭬	-13.6502
茠	-13.6503
蜉	-13.6503
蕐	-13.6503
㔟	-13.6504
柑	-13.6505
雂	-13.6506
琅	-13.6507
㐫	-13.6509
轝	-13.651
鄕	-13.651
沌	-13.651
帬	-13.6513
烽	-13.6515
䡖	-13.6515
蜙	-13.6518
龠	-13.6526
鵉	-13.7004
莤	-13.7023
針	-13.7059
杠	-13.7062
詈	-13.7063
䷗	-13.7066
齬	-13.7067
朩	-13.7068
摮	-13.7068
褓	-13.7069
隩	-13.7069
燦	-13.7069
䛕	-13.7072
夥	-13.7073
廕	-13.7074
侃	-13.7074
讜	-13.7076
稿	-13.7076
䂓	-13.7076
嗸	-13.7077
鴝	-13.7078
㟁	-13.7078
帚	-13.7078
邡	-13.7079
㱿	-13.7079
鵗	-13.7079
繮	-13.708
䧦	-13.708
鶅	-13.7081
姧	-13.7081
覚	-13.7082
􁆫	-13.7082
打	-13.7083
枸	-13.7083
煨	-13.7083
鷷	-13.7083
吟	-13.7083
琛	-13.7084
芝	-13.7084
𡨕	-13.7085
虯	-13.7085
筦	-13.7085
皦	-13.7085
餐	-13.7085
洶	-13.7085
店	-13.7085
莞	-13.7085
賃	-13.7086
婣	-13.7087
豁	-13.7087
涪	-13.7088
蔬	-13.7089
躐	-13.7089
僧	-13.7089
覧	-13.709
樛	-13.709
䷀	-13.7091
荻	-13.7092
獎	-13.7092
氶	-13.7094
撝	-13.7095
睿	-13.7096
撎	-13.7097
鵰	-13.7098
漾	-13.7099
囷	-13.7102
繂	-13.7103
☷	-13.7105
蹹	-13.7106
􁑟	-13.7111
忡	-13.7682
匭	-13.7684
卅	-13.7686
衖	-13.7692
遨	-13.7694
搶	-13.7695
週	-13.7695
媦	-13.7696
娀	-13.7698
閤	-13.7698
寪	-13.7698
敔	-13.7699
惮	-13.7699
藹	-13.7699
輂	-13.7702
捄	-13.7702
澍	-13.7702
晴	-13.7702
𦦨	-13.7703
糊	-13.7703
胚	-13.7704
髴	-13.7704
畄	-13.7704
透	-13.7704
丒	-13.7705
蕞	-13.7705
腰	-13.7706
愜	-13.7707
烟	-13.7707
䖝	-13.7708
雛	-13.771
㡳	-13.771
枿	-13.771
騖	-13.7711
跂	-13.7711
燀	-13.7712
眭	-13.7712
煥	-13.7714
峪	-13.7714
峨	-13.7714
迪	-13.7715
觳	-13.7715
变	-13.7716
噉	-13.7716
㳅	-13.7716
邃	-13.7717
隹	-13.7717
㳄	-13.7717
㵐	-13.7717
禝	-13.7717
酳	-13.7718
蚣	-13.7719
𦂳	-13.772
茌	-13.7722
鬣	-13.7724
僉	-13.7726
黚	-13.7729
眂	-13.773
疹	-13.8335
棓	-13.8335
蟬	-13.8348
捧	-13.8351
掤	-13.8356
簷	-13.8357
齟	-13.8358
濞	-13.8358
-	-13.8359
峩	-13.836
蚪	-13.836
岑	-13.836
荔	-13.8361
碍	-13.8361
鏑	-13.8363
愕	-13.8363
徬	-13.8363
藿	-13.8364
篲	-13.8364
蕉	-13.8365
俚	-13.8367
㦤	-13.8367
滓	-13.8368
癖	-13.8368
團	-13.8368
朘	-13.8369
􁊯	-13.8369
楮	-13.8369
揉	-13.8369
尭	-13.837
梮	-13.837
睪	-13.8371
瀕	-13.8371
韈	-13.8371
甕	-13.8371
詡	-13.8371
冤	-13.8372
𧺫	-13.8372
謾	-13.8373
𧰼	-13.8373
㭍	-13.8373
鴐	-13.8374
扐	-13.8375
傭	-13.8375
玃	-13.8376
剏	-13.8376
鴶	-13.8376
竦	-13.8376
傋	-13.8376
陔	-13.8378
齓	-13.8378
鄜	-13.8379
購	-13.8379
怕	-13.8379
褫	-13.8379
央	-13.838
笭	-13.838
嵇	-13.838
恫	-13.8381
壍	-13.8381
仄	-13.8382
臚	-13.8382
癡	-13.8382
滙	-13.8383
臡	-13.8384
坚	-13.8385
𦍑	-13.8387
鏌	-13.8388
虬	-13.8389
洓	-13.8391
䲭	-13.8391
梲	-13.8391
纆	-13.8392
鼙	-13.8396
絃	-13.8398
姝	-13.8412
􁀮	-13.8416
鴳	-13.9041
弹	-13.9053
飧	-13.9064
渫	-13.9064
哂	-13.9068
霧	-13.9069
鼂	-13.9071
䆫	-13.9071
磽	-13.9071
澌	-13.9074
袛	-13.9074
败	-13.9076
狭	-13.9076
笫	-13.9076
訌	-13.9076
茸	-13.9077
獍	-13.9077
飮	-13.9078
觱	-13.9079
查	-13.9079
艸	-13.908
逍	-13.908
嘵	-13.908
彩	-13.908
亰	-13.908
䷑	-13.9081
諰	-13.9082
羑	-13.9082
丧	-13.9083
㳫	-13.9083
曝	-13.9084
詮	-13.9084
䄂	-13.9086
慬	-13.9086
惽	-13.9086
祷	-13.9086
慷	-13.9087
喘	-13.9087
肫	-13.9087
埒	-13.9087
庵	-13.9087
媟	-13.9087
検	-13.9088
箒	-13.9088
烕	-13.9088
埃	-13.9088
凑	-13.9088
醎	-13.9089
瓌	-13.9089
眤	-13.9089
怫	-13.9089
訕	-13.9089
苢	-13.9089
軑	-13.909
叨	-13.9091
咳	-13.9092
岩	-13.9092
簠	-13.9093
摂	-13.9093
汳	-13.9093
懌	-13.9093
眦	-13.9094
貊	-13.9094
遘	-13.9094
􁈩	-13.9094
層	-13.9095
楛	-13.9095
􁐠	-13.9096
澡	-13.9096
輾	-13.9096
筏	-13.9097
☵	-13.9097
湧	-13.9099
穯	-13.9099
驥	-13.9099
穨	-13.91
纪	-13.9101
踴	-13.9101
􁁉	-13.9101
☳	-13.9101
様	-13.9103
濂	-13.9103
􁃽	-13.9105
橘	-13.9105
抂	-13.9105
汦	-13.9107
椓	-13.9108
蕡	-13.9111
儛	-13.9113
璂	-13.9113
鳧	-13.9119
罇	-13.912
袠	-13.9121
蓱	-13.9122
悮	-13.983
殮	-13.983
篚	-13.9836
麃	-13.9836
忻	-13.9837
喦	-13.9837
噍	-13.9838
鄚	-13.9838
慍	-13.9839
㢤	-13.9839
蟘	-13.9841
些	-13.9842
㝡	-13.9843
瘡	-13.9843
剩	-13.9844
躊	-13.9845
銑	-13.9846
囓	-13.9846
噤	-13.9848
輻	-13.9848
駷	-13.9848
秫	-13.9848
架	-13.9849
坰	-13.985
硬	-13.985
虡	-13.985
攖	-13.985
稜	-13.985
祢	-13.9851
曏	-13.9852
髳	-13.9852
昜	-13.9852
桶	-13.9852
覉	-13.9853
蔟	-13.9854
污	-13.9855
僬	-13.9855
懣	-13.9856
漱	-13.9857
甽	-13.9857
墐	-13.9858
擲	-13.9858
翮	-13.9858
埶	-13.9858
㗖	-13.9859
笮	-13.9859
腕	-13.9859
𣲖	-13.9859
鉶	-13.986
㦣	-13.986
飦	-13.986
抹	-13.9861
甌	-13.9861
☰	-13.9862
佊	-13.9862
鄋	-13.9862
坁	-13.9862
弆	-13.9863
鵴	-13.9863
笞	-13.9864
壩	-13.9864
椵	-13.9864
臋	-13.9864
覡	-13.9866
默	-13.9866
扁	-13.9868
䷥	-13.9869
暝	-13.9869
讚	-13.9871
枲	-13.9873
秌	-13.9873
鎁	-13.9876
奂	-13.9877
墍	-13.988
緘	-13.9881
鄳	-13.9883
墝	-13.9883
凾	-13.9889
単	-13.9891
戭	-13.9897
􁇲	-13.9926
冣	-14.0655
㐀	-14.0659
鬢	-14.066
囹	-14.0667
儗	-14.0668
义	-14.0675
☱	-14.0676
錙	-14.0678
椹	-14.0678
壝	-14.0678
舋	-14.0678
惲	-14.0679
☲	-14.068
埓	-14.068
鲍	-14.068
聮	-14.0681
婭	-14.0681
吭	-14.0681
槨	-14.0681
惛	-14.0682
豖	-14.0683
慱	-14.0684
郞	-14.0685
薜	-14.0686
㫻	-14.0686
藳	-14.0687
腴	-14.0687
歙	-14.0688
婪	-14.0688
懋	-14.0689
柬	-14.0689
獘	-14.0689
橤	-14.069
郅	-14.069
𡊮	-14.069
伎	-14.069
鑽	-14.069
呴	-14.0691
徉	-14.0691
罅	-14.0691
昫	-14.0692
􁅾	-14.0692
陥	-14.0692
殍	-14.0692
圅	-14.0692
獯	-14.0693
癈	-14.0694
眺	-14.0694
堠	-14.0695
諳	-14.0695
髓	-14.0695
睚	-14.0696
双	-14.0696
縕	-14.0696
贬	-14.0697
瘖	-14.0697
縈	-14.0699
怱	-14.0699
縿	-14.07
矰	-14.07
巣	-14.0701
葅	-14.0701
檄	-14.0701
枳	-14.0702
𫐠	-14.0702
灃	-14.0702
扎	-14.0703
趵	-14.0706
瓢	-14.0708
鄞	-14.071
駱	-14.071
劄	-14.0714
赐	-14.0715
湜	-14.072
緌	-14.0725
抎	-14.1502
韐	-14.1559
蒹	-14.1573
蘊	-14.1579
牻	-14.158
譝	-14.1586
腓	-14.1586
惷	-14.1587
鵃	-14.1588
妍	-14.1588
彎	-14.1589
慴	-14.159
裻	-14.159
蛙	-14.159
諠	-14.159
㢮	-14.159
柢	-14.1591
睫	-14.1591
忕	-14.1592
鍛	-14.1592
綬	-14.1593
縚	-14.1593
髭	-14.1594
摹	-14.1595
咏	-14.1595
脛	-14.1596
纉	-14.1596
怏	-14.1596
港	-14.1596
煞	-14.1598
攽	-14.1598
鴨	-14.1598
㯺	-14.1599
踪	-14.1599
飜	-14.1599
屹	-14.1599
珮	-14.16
獗	-14.16
惚	-14.16
鶬	-14.16
蟠	-14.16
𨗳	-14.16
褅	-14.16
塜	-14.1601
圮	-14.1601
耔	-14.1602
仿	-14.1603
塢	-14.1603
萹	-14.1603
霈	-14.1604
娥	-14.1604
豝	-14.1604
慣	-14.1605
潯	-14.1605
蚍	-14.1605
蒗	-14.1606
湄	-14.1606
努	-14.1607
帟	-14.1608
踙	-14.1609
􁀁	-14.161
爟	-14.1611
磐	-14.1611
稑	-14.1611
塤	-14.1611
鮪	-14.1611
传	-14.1612
蔾	-14.1612
斫	-14.1614
𢥠	-14.1615
喈	-14.1619
珌	-14.1619
剕	-14.162
瀛	-14.162
竣	-14.162
妲	-14.1621
迿	-14.1621
褘	-14.1622
𫀆	-14.1626
􁈭	-14.1626
嵬	-14.1634
凷	-14.1635
昼	-14.1638
伪	-14.1657
譊	-14.2566
腑	-14.2568
带	-14.2575
頏	-14.2582
籀	-14.2582
曍	-14.2582
忸	-14.2583
臠	-14.2585
渑	-14.2585
泡	-14.2586
砭	-14.2586
縲	-14.2586
芑	-14.2587
萧	-14.2587
寍	-14.2587
梱	-14.2587
嗀	-14.2588
臛	-14.2589
隮	-14.2589
鍊	-14.2589
牗	-14.2589
欈	-14.2589
畸	-14.2591
猴	-14.2591
肰	-14.2591
廋	-14.2592
隃	-14.2592
躭	-14.2592
霓	-14.2592
緊	-14.2592
掾	-14.2593
鄊	-14.2593
衁	-14.2593
瞰	-14.2594
鱣	-14.2594
䋇	-14.2594
飄	-14.2595
喝	-14.2595
掛	-14.2596
痾	-14.2596
輶	-14.2597
険	-14.2597
蹠	-14.2597
𥜗	-14.2597
薧	-14.2598
淨	-14.2598
沅	-14.2598
薈	-14.2598
搃	-14.2598
剗	-14.2599
壼	-14.26
叵	-14.26
㖩	-14.26
疣	-14.26
蒋	-14.26
埤	-14.2601
覓	-14.2601
渦	-14.2601
餋	-14.2601
盼	-14.2602
憙	-14.2602
玫	-14.2602
洳	-14.2603
簾	-14.2603
瘰	-14.2603
硤	-14.2603
紱	-14.2604
訩	-14.2604
飼	-14.2604
埜	-14.2604
勣	-14.2605
踳	-14.2605
􁏷	-14.2606
児	-14.2606
惂	-14.2606
魃	-14.2606
譔	-14.2607
陞	-14.2608
溯	-14.2608
见	-14.2609
捭	-14.2609
駉	-14.2609
謄	-14.2609
萎	-14.2609
醖	-14.2609
扱	-14.261
拍	-14.2611
䆒	-14.2611
酪	-14.2612
卤	-14.2612
擽	-14.2612
瑚	-14.2613
蹻	-14.2613
敇	-14.2614
耇	-14.2615
幻	-14.2615
呦	-14.2615
蜪	-14.2615
泇	-14.2615
賎	-14.2616
鼱	-14.2616
淤	-14.2618
倮	-14.2621
莝	-14.2621
恂	-14.2624
鋳	-14.2626
敳	-14.263
餗	-14.2634
嘘	-14.2636
澧	-14.2637
姉	-14.265
呐	-14.3693
厩	-14.3697
債	-14.3698
劎	-14.3699
劖	-14.3701
䨇	-14.3702
呵	-14.3703
䷓	-14.3703
卼	-14.3704
凓	-14.3706
㺯	-14.3708
個	-14.3708
䷚	-14.3709
呑	-14.371
冋	-14.371
厝	-14.372
䓤	-14.3725
㐲	-14.3729
㫃	-14.3731
䷌	-14.3742
䷫	-14.3742
䜌	-14.3749
䷪	-14.3752
䷖	-14.3758
駸	-14.6373
驌	-14.6375
嘷	-14.6402
琊	-15.006
墀	-16.089
曀	-16.0907
恁	-16.0908
紜	-16.0909
鳲	-16.091
昀	-16.0911
0	-16.0912
弨	-16.0912
