<unk>	0
<s>	0
</s>	0
之	-4.26988
/	-4.48189
(	-4.48562
)	-4.48562
者	-5.12229
也	-5.14045
不	-5.18969
一	-5.27478
以	-5.28528
爲	-5.319
有	-5.35969
人	-5.51118
中	-5.518
無	-5.5357
上	-5.54127
兩	-5.54836
而	-5.5559
大	-5.55735
天	-5.62041
其	-5.64677
生	-5.68402
心	-5.72215
三	-5.77388
於	-5.77475
方	-5.79155
下	-5.81346
得	-5.8267
行	-5.84159
道	-5.85543
如	-5.86479
神	-5.90743
子	-5.94648
自	-5.96113
氣	-6.01768
則	-6.02246
治	-6.06965
出	-6.08152
用	-6.08987
在	-6.12943
是	-6.16654
日	-6.16814
此	-6.19075
明	-6.20178
五	-6.20835
二	-6.22208
身	-6.27374
水	-6.2747
時	-6.28175
至	-6.28677
當	-6.29174
故	-6.29469
四	-6.2992
入	-6.30332
經	-6.30544
若	-6.31554
法	-6.33045
見	-6.33752
又	-6.36336
内	-6.36378
與	-6.36643
去	-6.37377
風	-6.37465
令	-6.37767
作	-6.38017
眞	-6.38741
或	-6.39644
主	-6.42528
成	-6.42669
真	-6.43341
常	-6.4486
所	-6.453
相	-6.45573
靈	-6.46047
言	-6.47115
來	-6.47829
)(	-6.49651
地	-6.52583
山	-6.52617
仙	-6.53585
合	-6.53858
名	-6.53946
事	-6.54203
分	-6.54659
通	-6.54748
後	-6.55657
文	-6.56457
服	-6.57002
善	-6.57719
玄	-6.58445
玉	-6.59106
同	-6.59335
正	-6.59706
皆	-6.60357
▁	-6.60549
即	-6.60662
病	-6.60811
九	-6.62094
知	-6.62266
火	-6.63114
白	-6.63147
陽	-6.64144
取	-6.64666
可	-6.65531
金	-6.65545
長	-6.66706
復	-6.673
師	-6.69478
及	-6.69964
非	-6.70347
能	-6.70588
乃	-6.71191
使	-6.71798
六	-6.71932
前	-6.72106
食	-6.72594
清	-6.72917
書	-6.74429
今	-6.74677
處	-6.75479
多	-6.76072
精	-6.76719
我	-6.78447
散	-6.78694
七	-6.79287
雲	-6.79569
矣	-6.796
和	-6.80453
君	-6.81897
從	-6.82975
亦	-6.83352
符	-6.83557
死	-6.83639
黄	-6.83743
頭	-6.84169
欲	-6.84813
青	-6.85295
過	-6.86292
諸	-6.86968
光	-6.87169
小	-6.87171
受	-6.87239
重	-6.87488
藥	-6.87526
惡	-6.8881
曰	-6.88816
開	-6.88822
外	-6.89231
八	-6.89573
命	-6.89694
先	-6.90251
盡	-6.90314
湯	-6.91651
然	-6.91758
空	-6.92167
未	-6.93599
熱	-6.94655
起	-6.94926
應	-6.95277
化	-6.9633
好	-6.96727
右	-6.96878
便	-6.97106
樂	-6.97624
安	-6.97975
發	-6.99125
痛	-6.99167
難	-7.01463
自然	-7.01711
半	-7.01758
意	-7.01827
王	-7.01932
傳	-7.02176
年	-7.02248
何	-7.02436
加	-7.02737
元	-7.03141
更	-7.03251
口	-7.03386
凡	-7.03767
十	-7.03902
不得	-7.04138
萬	-7.04595
解	-7.04928
月	-7.05034
家	-7.0505
本	-7.05546
理	-7.05651
將	-7.05922
字	-7.05975
門	-7.06074
教	-7.06532
炁	-7.06703
物	-7.07167
已	-7.07412
天地	-7.07511
數	-7.0767
因	-7.08054
云	-7.08771
乎	-7.10052
各	-7.10072
度	-7.10188
形	-7.11161
觀	-7.11427
酒	-7.12293
存	-7.12801
吾	-7.13638
陰	-7.1439
不可	-7.14632
色	-7.14692
飛	-7.15183
念	-7.15244
急	-7.15781
苦	-7.15809
立	-7.16348
結	-7.16558
歸	-7.166
宫	-7.17434
德	-7.17596
高	-7.17608
血	-7.17726
虚	-7.17944
次	-7.18669
隨	-7.19213
目	-7.19805
公	-7.20114
邪	-7.20121
世	-7.20214
鬼	-7.21224
丹	-7.21957
脉	-7.23062
少	-7.23415
著	-7.23691
无	-7.23822
性	-7.23942
反	-7.2484
體	-7.24911
升	-7.25098
耳	-7.25234
須	-7.25882
居	-7.25897
流	-7.27086
妙	-7.2709
華	-7.27557
骨	-7.27627
還	-7.28791
香	-7.29034
寒	-7.29347
絶	-7.29795
龍	-7.29866
止	-7.30104
動	-7.30666
實	-7.31402
會	-7.31663
平	-7.32358
滿	-7.32577
要	-7.33048
根	-7.33282
傷	-7.33423
除	-7.33992
願	-7.3415
甘草	-7.34281
等	-7.34474
石	-7.3456
定	-7.35272
求	-7.35396
微	-7.35421
極	-7.3556
修	-7.35794
轉	-7.36032
衆	-7.36272
思	-7.36869
共	-7.38109
帝	-7.38158
真人	-7.38478
深	-7.38654
赤	-7.38886
洞	-7.39034
降	-7.39092
學	-7.39281
夫	-7.39811
百	-7.40508
宜	-7.4052
又方	-7.40746
各一	-7.41292
運	-7.41633
手	-7.41713
藏	-7.418
但	-7.42176
利	-7.4234
養	-7.42627
紫	-7.43146
向	-7.43317
面	-7.43485
冷	-7.4377
說	-7.44177
信	-7.44181
圓	-7.44296
衣	-7.44641
問	-7.45692
聞	-7.45887
星	-7.45919
離	-7.46157
休	-7.46356
足	-7.46871
功	-7.47111
不能	-7.47216
變	-7.47596
都	-7.47714
飲	-7.4792
土	-7.48353
雷	-7.48601
久	-7.49178
别	-7.49283
力	-7.49956
各二	-7.50328
初	-7.5087
間	-7.51379
景	-7.51389
致	-7.51409
莫	-7.5153
俱	-7.52539
臣	-7.52657
木	-7.52752
老	-7.52754
攝	-7.5313
毒	-7.53171
失	-7.53387
必	-7.53888
聲	-7.54714
甚	-7.54717
品	-7.54743
遠	-7.55063
遊	-7.55075
覺	-7.55365
召	-7.56059
論	-7.56232
了	-7.5635
悉	-7.56711
隱	-7.56829
疾	-7.57172
守	-7.57208
肉	-7.58043
聖	-7.5826
滅	-7.58411
塵	-7.5846
易	-7.58504
關	-7.59019
灸	-7.59665
枚	-7.59967
馬	-7.60031
斷	-7.6023
且	-7.60518
太上	-7.60598
到	-7.60682
閑	-7.60784
各三	-7.61203
交	-7.61258
煎	-7.61855
異	-7.61941
奉	-7.62209
乾	-7.63336
悟	-7.63449
坐	-7.63941
積	-7.64335
始	-7.64927
錢	-7.65003
勿	-7.65517
隂	-7.65925
國	-7.66289
却	-7.66374
愛	-7.66948
贈	-7.66953
喜	-7.6698
興	-7.67053
語	-7.67183
志	-7.67809
亂	-7.68113
花	-7.6893
千	-7.69016
官	-7.69048
左	-7.69199
福	-7.6931
全	-7.69724
裏	-7.70023
朝	-7.70066
戒	-7.70139
直	-7.70381
汁	-7.7039
親	-7.70736
舉	-7.7087
既	-7.71019
女	-7.72326
雖	-7.72393
報	-7.72653
某	-7.72846
夜	-7.73435
西	-7.73702
虛	-7.74098
温	-7.74128
東	-7.75013
桂心	-7.75042
民	-7.75148
似	-7.75307
順	-7.75496
并	-7.75567
獨	-7.75642
腫	-7.75676
首	-7.75689
太	-7.75893
黑	-7.76049
畢	-7.77066
春	-7.77302
當歸	-7.7745
引	-7.77526
章	-7.77705
海	-7.78001
並	-7.78041
壽	-7.78135
罪	-7.78268
哉	-7.78268
天下	-7.78365
任	-7.78586
路	-7.78778
丸	-7.79119
末	-7.79218
勞	-7.79228
瘡	-7.79257
果	-7.79387
寳	-7.80025
先生	-7.80309
靜	-7.80391
照	-7.80829
象	-7.81262
煑	-7.81751
住	-7.81842
消	-7.82078
腎	-7.82156
依	-7.82213
十二	-7.82223
蟲	-7.82453
訣	-7.82584
眼	-7.82694
伏	-7.82859
進	-7.82911
忘	-7.82951
節	-7.83018
義	-7.83279
鍊	-7.83325
看	-7.83408
逆	-7.83496
兒	-7.83534
周	-7.83711
南	-7.83932
宿	-7.84108
斗	-7.84131
乘	-7.8434
幽	-7.84364
告	-7.84514
速	-7.84522
呪	-7.84842
指	-7.84898
布	-7.85326
不知	-7.85817
持	-7.85893
輕	-7.86083
破	-7.8617
皮	-7.87029
人參	-7.87556
遇	-7.87827
經云	-7.88228
北	-7.888
感	-7.88958
音	-7.89051
眞人	-7.89482
縁	-7.89599
稱	-7.89795
患	-7.89845
收	-7.89973
寶	-7.89983
服之	-7.90015
味	-7.90366
齋	-7.90463
請	-7.9055
吐	-7.90768
害	-7.913
賢	-7.91301
具	-7.91313
雨	-7.91633
證	-7.91693
肝	-7.91729
一切	-7.92185
肺	-7.92314
業	-7.92697
救	-7.92734
達	-7.9321
膏	-7.93228
位	-7.93939
勝	-7.94002
調	-7.94046
尊	-7.94366
愈	-7.94441
對	-7.94698
皇	-7.94717
萬物	-7.94762
魂	-7.94863
臨	-7.95126
强	-7.95594
日月	-7.95756
九天	-7.95798
再	-7.9614
茯苓	-7.96167
良	-7.96324
餘	-7.96368
號	-7.9644
俗	-7.96687
勑	-7.96871
新	-7.97358
素	-7.97429
草	-7.97446
上清	-7.97621
仁	-7.97744
葉	-7.97937
情	-7.98489
終	-7.9916
施	-7.99292
種	-7.99304
謂	-7.99348
神仙	-7.99561
府	-7.99701
望	-8.00119
聽	-8.00202
堅	-8.00494
蓋	-8.00612
細	-8.00669
登	-8.00926
顯	-8.01104
張	-8.01261
帝王	-8.01552
他	-8.02043
聚	-8.02051
所以	-8.0242
貪	-8.02905
保	-8.03044
由	-8.03267
歲	-8.03527
就	-8.03868
乾薑	-8.0388
落	-8.04158
許	-8.04434
盛	-8.05207
禮	-8.05278
室	-8.05326
胎	-8.05391
燒	-8.05746
焉	-8.06387
母	-8.06476
遂	-8.06652
天尊	-8.0671
息	-8.07456
附子	-8.07605
禁	-8.07838
夢	-8.0786
犯	-8.0798
紅	-8.08231
廣	-8.08288
唯	-8.083
爲末	-8.08556
益	-8.08623
刺	-8.08692
羅	-8.08782
芍藥	-8.09057
迷	-8.09076
録	-8.09303
集	-8.0942
補	-8.09505
候	-8.09683
臺	-8.0972
之人	-8.09739
猶	-8.09777
也故	-8.09851
脾	-8.09942
永	-8.10735
尚	-8.10915
黄芩	-8.11022
部	-8.11078
損	-8.11104
辭	-8.11289
弟子	-8.11572
投	-8.11667
大黄	-8.11776
凶	-8.11791
識	-8.11828
尋	-8.11939
視	-8.12088
恩	-8.12171
智	-8.12454
曲	-8.1253
魔	-8.1257
大道	-8.13456
卷	-8.13539
吉	-8.1378
奏	-8.13854
牛	-8.13889
而不	-8.14195
迴	-8.14355
承	-8.14406
又云	-8.1441
惟	-8.14457
細辛	-8.14627
祕	-8.14865
境	-8.15048
想	-8.15206
于	-8.15564
謝	-8.1572
長生	-8.15841
令人	-8.15854
容	-8.1588
切	-8.16196
防風	-8.16196
總	-8.16359
河	-8.16432
驚	-8.16891
篇	-8.16996
熟	-8.17045
留	-8.172
卧	-8.17326
房	-8.17339
走	-8.17602
恐	-8.17637
最	-8.17884
秋	-8.17887
甲	-8.18251
助	-8.18523
放	-8.18773
巳	-8.18843
圖	-8.1918
被	-8.19356
壇	-8.19433
乳	-8.19548
朱	-8.19738
窮	-8.20005
無爲	-8.20251
近	-8.2027
早	-8.20316
備	-8.21474
灰	-8.2154
陳	-8.2183
浮	-8.21837
制	-8.21909
敕	-8.21914
堂	-8.22073
一兩	-8.22207
亡	-8.2225
殺	-8.22284
劫	-8.22382
第一	-8.22596
勸	-8.22916
執	-8.2292
辰	-8.23287
憂	-8.23315
之道	-8.23325
斤	-8.23448
愚	-8.23472
父母	-8.23503
生薑	-8.23869
司	-8.23875
做	-8.23886
懷	-8.24146
慧	-8.24314
煞	-8.2447
鐵	-8.2469
古	-8.24949
隂陽	-8.25277
修行	-8.25476
固	-8.25645
堪	-8.25679
珠	-8.25846
閉	-8.26334
謹	-8.26367
期	-8.26544
箇	-8.26875
白术	-8.26904
屬	-8.27207
禍	-8.27389
覆	-8.27524
端	-8.27576
之中	-8.27673
汝	-8.27836
兵	-8.27836
道德	-8.28141
背	-8.28222
為	-8.28345
没	-8.28579
二十	-8.28631
洗	-8.28754
上下	-8.28784
每	-8.28841
造	-8.28904
大神	-8.2923
效	-8.29298
仰	-8.29484
往	-8.29523
待	-8.29709
注	-8.29867
天尊至心信禮	-8.30167
記	-8.30336
林	-8.30422
連	-8.30539
第二	-8.30592
三界	-8.30785
如此	-8.30991
不敢	-8.31154
敬	-8.31359
腹	-8.31715
貴	-8.31727
威	-8.31755
客	-8.32071
授	-8.3216
誠	-8.32223
漸	-8.32286
塗	-8.32341
慈	-8.32392
虎	-8.32538
晨	-8.32749
己	-8.32845
免	-8.32848
髮	-8.32878
輪	-8.32993
一升	-8.33153
州	-8.33221
昇	-8.33263
誰	-8.33348
步	-8.33355
士	-8.3341
宗	-8.33547
歌	-8.33979
類	-8.34062
午	-8.34166
齊	-8.34651
冬	-8.3477
把	-8.35304
夏	-8.35353
寧	-8.35525
遣	-8.35576
敗	-8.35691
使者	-8.35753
松	-8.3592
薄	-8.35974
違	-8.3604
湯治	-8.36066
笑	-8.36265
呼	-8.36279
汗	-8.36297
機	-8.3637
灾	-8.36871
孝	-8.36925
針	-8.36972
名爲	-8.37066
十方	-8.37373
魚	-8.3771
假	-8.37764
光明	-8.37779
現	-8.38311
豈	-8.38371
冠	-8.38547
芎藭	-8.39323
其人	-8.39621
辛	-8.39637
脚	-8.4039
角	-8.40439
弱	-8.40629
脫	-8.40656
專	-8.40754
車	-8.40774
源	-8.40921
遍	-8.40939
秀	-8.41095
忌	-8.41262
徹	-8.41487
鼻	-8.41614
户	-8.41923
超	-8.42049
帶	-8.42064
只	-8.42093
代	-8.42313
甘	-8.42419
增	-8.42567
杏仁	-8.4257
棄	-8.42669
斯	-8.42821
李	-8.42965
映	-8.43365
之所	-8.43629
索	-8.43895
普	-8.43958
蜜	-8.44105
煙	-8.44129
可以	-8.44195
疑	-8.44342
帝君	-8.44509
列	-8.44756
蒙	-8.44868
得道	-8.44985
祖	-8.45108
穴	-8.4525
醫	-8.45288
置	-8.45382
妄	-8.45454
忽	-8.45455
衆生	-8.45491
垂	-8.45511
鳳	-8.45516
比	-8.45569
回	-8.45686
庭	-8.46028
胃	-8.46857
舌	-8.46865
迎	-8.47132
簡	-8.47232
瓊	-8.47523
仍	-8.47686
爭	-8.47694
退	-8.47775
以爲	-8.47816
第三	-8.47967
靈寳	-8.48118
陰陽	-8.48129
然後	-8.48295
榮	-8.48324
擣	-8.48402
中有	-8.48418
凝	-8.4848
狀	-8.48526
天道	-8.48809
條	-8.48815
谷	-8.48834
道士	-8.49155
三十	-8.49493
逍遥	-8.497
舊	-8.49714
尺	-8.49745
米	-8.49803
怒	-8.50278
玉清	-8.50328
亦可	-8.50389
詩	-8.50446
衰	-8.50586
參	-8.5059
紙	-8.50718
腹中	-8.51187
炒	-8.51211
塞	-8.51347
考	-8.51413
廼	-8.5152
露	-8.51573
拜	-8.5175
鄉	-8.51826
建	-8.52057
累	-8.5215
諸天	-8.52182
日三	-8.52288
研	-8.52297
暗	-8.52438
▲	-8.52487
一名	-8.52554
黒	-8.52563
淨	-8.52671
逐	-8.5274
爛	-8.53141
含	-8.53453
烏	-8.53483
啓	-8.53488
霞	-8.53574
沉	-8.53635
朗	-8.53884
遺	-8.54143
鬼神	-8.54187
父	-8.54208
宣	-8.54209
雪	-8.54392
刀	-8.54415
計	-8.54918
銖	-8.54991
活	-8.55226
傅	-8.5525
那	-8.55353
瘥	-8.55377
卒	-8.55426
生死	-8.55525
齒	-8.55591
四肢	-8.55599
兆	-8.5567
密	-8.55687
狂	-8.55979
勤	-8.56024
天上	-8.56175
田	-8.5619
半夏	-8.56224
醉	-8.56308
無有	-8.56373
申	-8.56662
左右	-8.56696
濟	-8.5684
燈	-8.57051
泉	-8.57099
寂	-8.57264
示	-8.57314
賜	-8.5745
黄連	-8.57495
財	-8.5758
誦	-8.57591
偏	-8.57619
急急如律令	-8.57675
附	-8.57798
之法	-8.57959
泄	-8.58038
學道	-8.58115
天師	-8.58464
寄	-8.58489
充	-8.58509
駕	-8.58584
元始	-8.58625
麥門冬	-8.58794
樹	-8.58825
謂之	-8.58885
武	-8.591
城	-8.59208
停	-8.59235
波	-8.59379
太陽	-8.59436
竹	-8.5951
厚	-8.59853
科	-8.59905
穢	-8.59925
封	-8.5997
輔	-8.59984
劉	-8.60252
職	-8.60299
玉女	-8.60332
鎮	-8.60406
敷	-8.60407
佳	-8.60696
按	-8.60831
碧	-8.60841
羊	-8.60891
乾地黄	-8.6104
竟	-8.61047
漢	-8.61483
太平	-8.61707
送	-8.61837
唵	-8.62001
舍	-8.62148
耀	-8.62205
護	-8.62216
器	-8.62321
精神	-8.624
耶	-8.62406
石膏	-8.62668
闕	-8.6284
咽	-8.62937
災	-8.62958
刑	-8.62992
不止	-8.63229
黃	-8.63421
飲食	-8.63425
洪	-8.63716
曉	-8.6391
敢	-8.64065
羽	-8.64111
各四	-8.6428
趣	-8.64568
付	-8.64714
毛	-8.64813
丘	-8.64887
名曰	-8.6511
之氣	-8.65196
小兒	-8.65356
貧	-8.65513
衝	-8.65807
筋	-8.65838
粉	-8.65857
濁	-8.65876
詳	-8.65877
是故	-8.65922
緊	-8.6604
横	-8.66304
産	-8.66509
大棗	-8.66722
表	-8.66839
接	-8.67206
吹	-8.67303
邊	-8.67313
披	-8.67336
籙	-8.67508
捨	-8.67674
徒	-8.67745
三日	-8.67779
姓	-8.67862
三光	-8.67961
縱	-8.68035
黄耆	-8.68048
赴	-8.68094
四時	-8.68108
之時	-8.68449
吏	-8.68487
諱	-8.68566
爾	-8.68701
也夫	-8.68835
鳴	-8.68956
乞	-8.69083
余	-8.69253
中央	-8.69309
筆	-8.69408
蜀椒	-8.69629
兼	-8.69668
麻黄	-8.69993
夫人	-8.70125
北方	-8.70279
東方	-8.70338
性命	-8.70358
分明	-8.7046
侍	-8.70469
太極	-8.70701
儀	-8.70762
二兩	-8.70833
寅	-8.70864
延	-8.70874
煩	-8.70876
緑	-8.71008
昔	-8.71491
移	-8.71564
縣	-8.71696
腰	-8.71988
澤	-8.72008
寒熱	-8.72108
句	-8.72174
散治	-8.72285
手足	-8.72307
童	-8.72858
頓	-8.72867
點	-8.72891
沸	-8.72983
渴	-8.73058
雞	-8.73063
摩	-8.73313
伯	-8.7335
雙	-8.73387
三元	-8.73484
愁	-8.73562
推	-8.73844
領	-8.73845
野	-8.73856
混	-8.74041
危	-8.74165
殊	-8.74252
釋	-8.74275
友	-8.74419
習	-8.74489
慶	-8.74619
一日	-8.7474
鶴	-8.74763
吸	-8.74778
欺	-8.74856
五帝	-8.74986
干	-8.75005
井	-8.75105
雜	-8.75146
招	-8.75228
太一	-8.75337
返	-8.7546
僞	-8.75463
尸	-8.75497
差	-8.75539
去滓	-8.75561
漏	-8.75605
物外	-8.75763
覩	-8.76099
上帝	-8.76119
壯	-8.76224
遲	-8.76445
人間	-8.76482
忠	-8.7678
愼	-8.76815
白芷	-8.76918
嚴	-8.76939
昏	-8.7705
大小	-8.77136
界	-8.77256
炙	-8.77316
履	-8.77396
負	-8.77501
金光	-8.77653
蒸	-8.77667
醋	-8.77693
底	-8.77815
美	-8.78229
不足	-8.78326
載	-8.78364
管	-8.78511
顔	-8.78595
枯	-8.78625
祝	-8.78664
帥	-8.78848
五行	-8.78857
自在	-8.79082
南方	-8.79083
折	-8.79099
怨	-8.79135
婦人	-8.79149
宅	-8.79195
桃	-8.79419
畏	-8.79438
沈	-8.7951
印	-8.79575
改	-8.79587
聖人	-8.79922
監	-8.80118
彼	-8.80163
濕	-8.8039
驗	-8.80445
麻	-8.8047
人也	-8.80509
無所	-8.80933
透	-8.80951
捉	-8.80974
五臟	-8.81011
館	-8.81045
曾	-8.81214
不通	-8.8135
也今	-8.8153
丁	-8.81596
因縁	-8.81625
訖	-8.82342
搜	-8.82396
吟	-8.82551
孤	-8.8265
江	-8.82671
震	-8.82678
談	-8.82682
鼓	-8.82769
寸	-8.82865
訪	-8.82874
腸	-8.83001
小便	-8.83124
膽	-8.83149
察	-8.83187
泥	-8.83191
孔	-8.83224
吞	-8.83248
不用	-8.8334
豆	-8.83522
逢	-8.83551
十八	-8.83652
幾	-8.83889
御	-8.8406
曜	-8.84148
籍	-8.84197
知之	-8.84327
凡人	-8.84519
汗出	-8.84528
怪	-8.8464
津	-8.8465
郎	-8.84682
策	-8.84682
法師	-8.84725
各五	-8.84733
不復	-8.84771
二十四	-8.8485
騰	-8.84898
得之	-8.85054
沙	-8.85058
打	-8.85069
懸	-8.85088
拔	-8.85117
蛇	-8.85119
鬱	-8.85158
霜	-8.85172
蓬萊	-8.85571
第四	-8.85653
設	-8.85669
十四	-8.85751
之後	-8.85767
妖	-8.86026
太清	-8.86043
杖	-8.86112
賊	-8.86182
里	-8.86246
男	-8.86253
浸	-8.86307
惑	-8.86319
追	-8.86473
稍	-8.86486
詞	-8.87133
膝	-8.87376
純	-8.8743
每服	-8.87443
暴	-8.87449
變化	-8.8754
韻	-8.87604
予	-8.87631
元帥	-8.87656
旦	-8.87778
重陽	-8.87837
卯	-8.87851
不見	-8.87868
枝	-8.87976
療	-8.8801
這	-8.88091
天地之	-8.8835
行之	-8.88371
悲	-8.88426
霄	-8.8844
脂	-8.88443
磨	-8.88471
觸	-8.88514
哀	-8.88531
統	-8.88545
棗	-8.88563
傾	-8.88577
右出洞真	-8.88698
三升	-8.88771
如是	-8.88781
碎	-8.88818
决	-8.88901
之間	-8.89191
胡	-8.89213
役	-8.89371
厄	-8.89553
三兩	-8.89578
升麻	-8.89668
將軍	-8.89756
巨	-8.90019
慢	-8.90023
是也	-8.90051
瑞	-8.902
高上	-8.90268
抱	-8.90495
跡	-8.90539
巽	-8.90572
灌	-8.90576
罡	-8.90626
也又云	-8.9102
短	-8.91032
梁	-8.91067
趙	-8.91163
用之	-8.91428
五色	-8.91463
心中	-8.91471
橘皮	-8.91496
揚	-8.91507
斬	-8.91583
獨活	-8.9159
内外	-8.91598
男女	-8.91602
童子	-8.91698
莫不	-8.91929
世間	-8.91968
急急如	-8.92028
務	-8.92085
厥	-8.9237
奇	-8.92619
爲善	-8.92691
善惡	-8.92887
滑	-8.92949
恒	-8.92985
座	-8.93128
溪	-8.93131
序	-8.9346
尤	-8.93631
英	-8.93651
於是	-8.93699
慮	-8.93765
群	-8.93863
煮	-8.93978
臍	-8.94073
真君	-8.94372
肯	-8.94372
電	-8.9441
百日	-8.9454
術	-8.94564
貼	-8.94695
顧	-8.94707
獄	-8.94752
燒香	-8.94942
畫	-8.95195
頂	-8.95201
倒	-8.95234
誡	-8.95249
膿	-8.95394
冥	-8.95622
五嶽	-8.95687
桔梗	-8.95718
傅之	-8.95799
牙	-8.96111
丑	-8.96178
衛	-8.96272
爲人	-8.9641
樓	-8.9646
吒	-8.96551
腦	-8.96716
厚朴	-8.96773
雄黄	-8.96869
量	-8.96885
驅	-8.97018
者爲	-8.972
油	-8.97213
天君	-8.97499
治之	-8.97541
七日	-8.97599
魄	-8.97656
澄	-8.97738
試	-8.97876
錦	-8.97943
掌	-8.97949
銀	-8.98012
自有	-8.98059
四十	-8.98148
幸	-8.98262
響	-8.98285
暖	-8.98317
案	-8.98346
各半	-8.98391
徧	-8.98407
殃	-8.9841
扶	-8.98802
緩	-8.98873
出家	-8.98962
五方	-8.99132
卷之	-8.9919
天之	-8.99273
刻	-8.99343
淵	-8.99499
洞玄	-8.9951
戀	-8.99517
第五	-8.99556
昌	-8.99575
川	-8.99656
所謂	-8.99809
喘	-8.99854
痺	-8.99855
烏頭	-9.00018
單	-9.00026
疏	-9.00035
染	-9.00102
遠志	-9.00194
丹陽	-9.0031
猪	-9.00328
吴茱萸	-9.00538
側	-9.00552
剔	-9.00587
遷	-9.00622
略	-9.00628
相應	-9.00638
分别	-9.00795
歷	-9.00942
包	-9.0113
牛膝	-9.01166
崇	-9.01184
者是	-9.01395
出入	-9.01496
宮	-9.01682
項	-9.01682
滯	-9.01702
伐	-9.01729
五味子	-9.0178
飯	-9.01781
奔	-9.01795
各有	-9.01813
之以	-9.01839
二者	-9.02171
無常	-9.02176
二升	-9.02206
酸	-9.02283
傷寒	-9.02288
契	-9.0233
有所	-9.02333
舞	-9.02334
唱	-9.02353
池	-9.02548
霹靂	-9.02573
採	-9.02747
特	-9.02859
壞	-9.02861
胷	-9.02911
一者	-9.0312
輸	-9.0321
坎	-9.03337
認	-9.03346
十六	-9.03414
盈	-9.03421
筭	-9.03489
省	-9.03544
穀	-9.03586
使人	-9.03593
限	-9.03627
桂	-9.03659
十五	-9.03659
造化	-9.03677
占	-9.03954
富	-9.03979
約	-9.04009
適	-9.04043
行道	-9.041
陵	-9.04357
神靈	-9.04358
萬里	-9.04395
多少	-9.04406
人人	-9.04503
越	-9.04541
暮	-9.04583
梵	-9.04645
律	-9.04924
豉	-9.0499
憑	-9.05116
巾	-9.0518
便是	-9.05406
漬	-9.05503
無窮	-9.05652
亥	-9.05654
弦	-9.05656
讀	-9.05683
擊	-9.05709
原	-9.05713
質	-9.05732
咸	-9.0582
覓	-9.0586
雷霆	-9.0586
西方	-9.05968
灸法	-9.06022
輒	-9.06323
屋	-9.06334
呪曰	-9.06436
嘔	-9.06544
鹽	-9.06554
主之	-9.06967
題	-9.07034
也其	-9.07149
道人	-9.07164
臟	-9.07187
芝	-9.07324
之日	-9.07391
虚空	-9.07471
廢	-9.07544
翁	-9.07582
爲其	-9.0786
於此	-9.07935
歡	-9.07962
律令	-9.08038
水火	-9.08304
審	-9.08333
蓮	-9.08485
須臾	-9.08682
洞天	-9.08702
游	-9.08735
身體	-9.09151
導	-9.0932
肥	-9.09322
古今	-9.09409
清凉	-9.09416
丈人	-9.09677
熬	-9.09706
道君	-9.09783
殿	-9.09901
者皆	-9.09997
拆	-9.10032
金闕	-9.10198
圓治	-9.10351
眠	-9.10442
今日	-9.10505
酉	-9.10522
續	-9.10531
兮	-9.10572
瘧	-9.10864
脹	-9.10966
傍	-9.1099
上皇	-9.11007
功德	-9.11128
頻	-9.1113
政	-9.11131
戰	-9.11139
錯	-9.11172
絲	-9.11176
不欲	-9.11212
智慧	-9.11263
盟	-9.11319
飢	-9.11727
誤	-9.11764
希	-9.11829
鎖	-9.11831
獲	-9.11842
厭	-9.11915
清浄	-9.11966
之炁	-9.12292
减	-9.12309
清靜	-9.12327
者方	-9.12367
眉	-9.12385
潔	-9.12429
髓	-9.1289
无極	-9.12917
竈	-9.12982
飽	-9.12995
元君	-9.13002
三天	-9.13003
絳	-9.13019
姑	-9.13086
老子	-9.13125
如何	-9.1317
欬	-9.13252
左手	-9.13262
詠	-9.13374
焦	-9.13419
唯唯	-9.13464
剛	-9.13576
校	-9.13601
三年	-9.13626
冤	-9.1363
峰	-9.13723
是非	-9.13803
若有	-9.1391
十日	-9.14
是以	-9.14103
射	-9.14162
賤	-9.14203
牢	-9.1428
此方	-9.14404
比若	-9.14464
萬神	-9.14531
十一	-9.14551
一作	-9.14622
之上	-9.14672
格	-9.14759
遭	-9.14858
猛	-9.1487
雄	-9.1496
弄	-9.14978
穿	-9.15002
五十	-9.15091
催	-9.15111
咎	-9.15271
液	-9.15309
潤	-9.15576
銅	-9.15602
營	-9.15663
誓	-9.15709
暉	-9.15716
三寸	-9.15873
兩手	-9.16048
時時	-9.16117
緣	-9.16118
隔	-9.16194
影	-9.16203
屎	-9.16259
也若	-9.16541
其中	-9.16542
般	-9.1666
肩	-9.1669
淋	-9.16898
醮	-9.16917
也此	-9.16935
小腹	-9.16968
丹田	-9.17038
頭痛	-9.17164
佩	-9.17185
往來	-9.17216
勢	-9.17531
鍾	-9.17538
縛	-9.17572
乾坤	-9.17573
乗	-9.17576
焚	-9.17623
你	-9.17646
一點	-9.17653
片	-9.17672
疼	-9.17889
一枚	-9.17892
道之	-9.17899
元氣	-9.17982
悅	-9.1811
癰	-9.18152
蕩	-9.18155
曹	-9.1816
繩	-9.18185
浪	-9.18222
典	-9.1825
紀	-9.1828
一人	-9.18423
玉皇	-9.1846
無極	-9.18612
孫	-9.18714
者則	-9.18798
菜	-9.188
尾	-9.18838
囊	-9.1885
牽	-9.1889
三十六	-9.18981
心痛	-9.19033
常以	-9.19044
不瘥	-9.1907
瀉	-9.19173
老君	-9.19286
漿	-9.1944
三皇	-9.19494
喪	-9.19527
枳實	-9.19548
繫	-9.1962
繞	-9.19635
迹	-9.19658
功成	-9.19937
頌	-9.20058
口中	-9.20123
○	-9.20168
市	-9.202
炎	-9.20203
惠	-9.20216
浄	-9.203
兩半	-9.20472
即是	-9.20526
急急	-9.20552
龍骨	-9.20663
金丹	-9.2067
柔	-9.20724
快	-9.20741
上元	-9.20752
不同	-9.20852
睡	-9.20853
軒	-9.21011
四方	-9.21103
旋	-9.21248
責	-9.21274
鏡	-9.2135
者死	-9.21581
殘	-9.21583
巖	-9.21644
三者	-9.21644
右二味	-9.21723
爲度	-9.21763
前後	-9.21826
鼎	-9.21845
嶽	-9.21983
防	-9.22089
悔	-9.22186
病者	-9.22268
柱	-9.22291
柳	-9.22303
禀	-9.22323
慈悲	-9.22398
霧	-9.22583
才	-9.22602
而生	-9.22608
侯	-9.22744
消息	-9.22838
病人	-9.22873
避	-9.22919
禄	-9.22982
忍	-9.23202
東南	-9.23222
心下	-9.23533
阿膠	-9.23608
不死	-9.23693
惜	-9.23697
誅	-9.23701
冰	-9.23701
彌	-9.23705
爽	-9.23712
第六	-9.23721
㝠	-9.23729
不須	-9.23766
不及	-9.23923
或有	-9.2394
之事	-9.23967
雲水	-9.24217
其所	-9.24245
臂	-9.24309
暫	-9.24346
氏	-9.24346
像	-9.24366
慕	-9.24377
纏	-9.24413
貌	-9.24451
翠	-9.24475
罪學士及百姓子	-9.24591
玉帝	-9.24906
報應	-9.24924
徑	-9.25071
髙	-9.25091
疼痛	-9.25178
而已	-9.25403
服藥	-9.25446
太玄	-9.25508
三五	-9.25528
分三服	-9.25587
不生	-9.2559
委	-9.25727
盤	-9.2577
振	-9.25779
添	-9.25788
溺	-9.25818
茅	-9.25819
秘	-9.25828
綱	-9.25842
供養	-9.2587
菴	-9.25912
無上	-9.2596
不動	-9.26056
嘉	-9.26076
酒服	-9.26235
書符	-9.26333
各十	-9.26369
墨	-9.26388
有餘	-9.2641
資	-9.26503
竒	-9.26505
瑩	-9.26712
仙人	-9.26896
清淨	-9.26972
麥	-9.27031
昧	-9.27043
戌	-9.27095
請問	-9.27108
五藏	-9.27123
臭	-9.27178
毫	-9.27188
墮	-9.27198
北帝	-9.27237
際	-9.27255
巧	-9.27275
摧	-9.27331
晝夜	-9.27342
治小兒	-9.27477
燥	-9.27609
人之	-9.2781
困	-9.27911
坤	-9.27946
痔	-9.27959
短氣	-9.27962
三寳	-9.27986
呵	-9.2804
富貴	-9.28081
私	-9.28154
西北	-9.28205
之士	-9.28331
三洞	-9.28632
勿令	-9.28641
茶	-9.28687
之精	-9.28741
郡	-9.28744
激	-9.28762
子孫	-9.28889
者乃	-9.29034
億	-9.29101
院	-9.29278
得其	-9.2935
嘗	-9.29374
粥	-9.2939
巴豆	-9.29449
祐	-9.29451
攪	-9.29484
潜	-9.29523
輝	-9.2973
丈	-9.29908
神明	-9.29964
取汁	-9.29999
道友	-9.3005
劇	-9.30097
纔	-9.30187
弗	-9.30223
太空	-9.30244
日再	-9.30294
胞	-9.30346
此爲	-9.30603
雷神	-9.30754
可得	-9.30832
歸去	-9.30916
竭	-9.30923
祟	-9.30938
儒	-9.30942
柴胡	-9.30951
檢	-9.30977
貞	-9.30992
預	-9.30993
稽首	-9.31031
焕	-9.31064
上氣	-9.31124
五雷	-9.31137
人民	-9.3121
飛仙	-9.31262
三月	-9.31383
至於	-9.31479
字起	-9.31536
萬劫	-9.31565
伴	-9.31575
其上	-9.31575
支	-9.31594
啼	-9.31716
蘇	-9.31719
鳥	-9.3173
生地黄	-9.31774
煉	-9.31792
五升	-9.31904
崑崙	-9.32001
姜	-9.32112
龜	-9.32256
功行	-9.32303
焰	-9.32549
礬石	-9.3268
百壯	-9.33044
長春	-9.3311
侵	-9.33126
祈	-9.33153
熏	-9.33178
攻	-9.33235
麝香	-9.33273
席	-9.33283
唾	-9.33487
賢者	-9.33534
化爲	-9.33867
地獄	-9.33915
屈	-9.33987
提	-9.34036
百病	-9.34133
怎	-9.3421
本類	-9.34216
舟	-9.3424
淺	-9.34358
劑	-9.34376
餘方	-9.34447
第七	-9.34543
戲	-9.34633
三清	-9.34741
朱書	-9.34773
頑	-9.34814
者當	-9.34867
此文	-9.34868
携	-9.34933
天門	-9.3504
知其	-9.35079
死生	-9.3516
者以	-9.3516
以此	-9.35433
宜服	-9.35446
浴	-9.35514
毋	-9.35523
身中	-9.35553
裹	-9.35556
倍	-9.35564
愆	-9.35596
泥丸	-9.35628
競	-9.35656
道者	-9.35692
痢	-9.35903
君子	-9.35983
散見	-9.36267
奪	-9.36331
桑	-9.3638
桃仁	-9.36407
嬰	-9.36419
給	-9.36469
不解	-9.36564
雷火	-9.36569
大將	-9.36989
又有	-9.3701
莖	-9.37128
罰	-9.37148
而爲	-9.37155
而無	-9.3717
秦	-9.37188
换	-9.37212
育	-9.37224
宇	-9.37253
忠孝	-9.37253
魁	-9.37254
正一	-9.3727
陷	-9.37325
一方	-9.3739
麻子	-9.37393
洞真	-9.37407
九轉	-9.37466
無名者	-9.37551
答	-9.37644
白雲	-9.37714
與天	-9.37742
蒼	-9.37914
玄妙	-9.37925
胷中	-9.37934
餐	-9.37961
拂	-9.37993
澤瀉	-9.37995
毁	-9.38
沖和	-9.38118
再拜	-9.38244
化生	-9.38329
葛	-9.38687
軍	-9.38739
真道	-9.38871
詣	-9.38872
翻	-9.38893
當以	-9.38964
悶	-9.38972
七十	-9.39229
祥	-9.39243
五日	-9.39399
三千	-9.39436
艾	-9.39509
康	-9.39604
一寸	-9.39622
恭	-9.39633
輿	-9.39635
顛倒	-9.39665
障	-9.39677
百年	-9.39715
善人	-9.39762
卿	-9.39944
而行	-9.39949
腹痛	-9.39998
雷公	-9.40016
疰	-9.40115
尿	-9.4017
九玄	-9.40173
淡	-9.40307
爲之	-9.40316
默	-9.40389
賞	-9.40393
不過	-9.40411
寫	-9.40429
瓦	-9.40442
辯	-9.40449
輩	-9.40453
騎	-9.40482
癡	-9.40485
庶	-9.40493
别有	-9.40538
掐	-9.40554
大豆	-9.40659
陽氣	-9.40682
京	-9.40898
有三	-9.41214
屍	-9.41225
㫖	-9.41273
膀胱	-9.41297
話	-9.41305
學者	-9.41324
丹砂	-9.41344
削	-9.41352
癰疽	-9.41362
一時	-9.41483
亦有	-9.41692
無形	-9.41725
一斤	-9.41886
廉	-9.41902
了了	-9.41943
凉	-9.42004
淫	-9.42079
徐	-9.421
宴	-9.42126
階	-9.42139
菖蒲	-9.42162
詔	-9.42204
不肯	-9.4221
皇天	-9.42301
弟	-9.4232
蓬	-9.4238
喉	-9.42402
心意	-9.42432
十三	-9.42467
唎	-9.42685
述	-9.4279
栀子	-9.42892
膠	-9.42934
歩	-9.4294
之内	-9.42969
芳	-9.42972
罷	-9.42986
阿	-9.43005
辟	-9.43014
誇	-9.43029
吉凶	-9.43122
右出	-9.43132
上昇	-9.43167
胸	-9.43182
何故	-9.43247
癢	-9.43348
面目	-9.43455
地黄	-9.43526
日二	-9.43751
納	-9.43829
所言	-9.43835
寬	-9.43843
遥	-9.43845
酢	-9.4385
鉛	-9.43853
呈	-9.43857
清虚	-9.43939
神王	-9.4394
道學不得	-9.4395
粒	-9.441
者也	-9.44136
三官	-9.44142
食之	-9.44289
爲惡	-9.44355
網	-9.44598
權	-9.44652
各六	-9.44678
雷電	-9.44694
束	-9.44719
繼	-9.44722
混沌	-9.44807
長安	-9.45092
羣	-9.4521
元初	-9.45276
砂	-9.45439
貫	-9.45472
行持	-9.45489
守一	-9.45491
燭	-9.45509
環	-9.45546
吴	-9.45563
上真	-9.45573
葱	-9.46229
嬰兒	-9.46352
栝蔞根	-9.46422
史	-9.46429
於天	-9.46454
夷	-9.46469
何以	-9.46495
也又	-9.47078
修眞	-9.47149
局	-9.47157
珍	-9.47193
鼠	-9.47239
禪	-9.47283
崩	-9.47302
萬事	-9.47316
石斛	-9.47319
葛根	-9.47328
第八	-9.47366
効	-9.47405
神人	-9.47549
又灸	-9.47581
飛行	-9.47647
核	-9.47736
痰	-9.47749
天雄	-9.47755
人有	-9.4778
是爲	-9.47892
全眞	-9.47954
絡	-9.47988
其身	-9.48154
促	-9.48172
鑪	-9.48202
姦	-9.48281
者可	-9.48375
度人	-9.48417
日中	-9.48645
大聖	-9.48651
千金翼	-9.4895
講	-9.48997
方便	-9.49
議	-9.49009
夕	-9.49025
壁	-9.49101
手執	-9.49122
園	-9.49185
大便	-9.49564
不絶	-9.49644
司命	-9.49657
泰	-9.49806
日夜	-9.49863
无上	-9.49905
飲之	-9.49911
工	-9.49969
否	-9.4998
歎	-9.50008
演	-9.50025
翼	-9.50042
況	-9.50055
郭	-9.50064
上天	-9.50076
恣	-9.50079
二首	-9.50126
中風	-9.50135
辱	-9.50148
不出	-9.50149
聖賢	-9.50152
六甲	-9.50223
陸	-9.50292
諸神	-9.50514
日日	-9.50537
妻	-9.50552
無量	-9.50567
苗	-9.50599
一身	-9.5065
蜜和	-9.50654
腑	-9.50714
商	-9.5088
硭硝	-9.50883
脣	-9.50897
唤	-9.50914
八景	-9.50925
枕	-9.50952
例	-9.50983
愚生	-9.51162
不信	-9.51181
何以故	-9.51253
南極	-9.51265
逃	-9.51661
嚥	-9.5168
虚無	-9.51721
牡蠣	-9.51787
彊	-9.51799
之神	-9.51808
即愈	-9.5181
謾	-9.51828
可知	-9.51851
亭	-9.51873
夭	-9.51879
判	-9.51914
簿	-9.51915
整	-9.51935
千里	-9.52013
可謂	-9.52026
問曰	-9.52077
也凡	-9.52099
則爲	-9.52174
凡事	-9.52265
淨明	-9.52342
净	-9.52373
蓯蓉	-9.52666
弘	-9.52696
天帝	-9.52717
慾	-9.5277
究	-9.52784
豐	-9.52816
排	-9.5288
脩	-9.52892
玄都	-9.53032
酆都	-9.5308
二錢	-9.5318
皆有	-9.53217
是其	-9.53343
自是	-9.53464
地上	-9.53494
知母	-9.53565
德君	-9.53593
霍亂	-9.53607
水中	-9.53642
使其	-9.53648
麴	-9.53651
赤石脂	-9.53666
仲	-9.53677
逸	-9.53736
袍	-9.53762
荒	-9.53763
粗	-9.53782
丹陽繼韻	-9.53854
宻	-9.53886
上有	-9.54177
竹葉	-9.54314
不安	-9.54494
渾	-9.54555
鹿	-9.54567
拘	-9.54588
澀	-9.54597
若能	-9.54613
晝	-9.54682
白歛	-9.54706
雅	-9.54784
葱白	-9.54858
前胡	-9.54871
七壯	-9.54983
亦不	-9.55005
爲使	-9.55065
礙	-9.55075
門户	-9.55143
發熱	-9.55166
煑取三升分三服	-9.55215
復有	-9.553
入符	-9.55301
飲酒	-9.55347
昭	-9.55455
奉行	-9.55475
脊	-9.55514
七寳	-9.55551
風雨	-9.55584
防己	-9.55627
飄	-9.55662
讚	-9.55671
口口	-9.55724
一服	-9.55757
文書	-9.55887
太隂	-9.55967
北斗	-9.55978
答曰	-9.56064
大羅	-9.5626
卦	-9.5634
未能	-9.5636
自知	-9.56368
恁	-9.56486
的	-9.56523
乏	-9.56551
不仁	-9.56594
鍾乳	-9.56595
籠	-9.56604
舒	-9.56609
減	-9.56627
跨	-9.56633
斧	-9.5667
掩	-9.56688
填	-9.56726
此藥	-9.56734
積聚	-9.56744
神氣	-9.57108
四者	-9.57168
五合	-9.57242
芽	-9.57391
腹滿	-9.5751
入道	-9.576
將來	-9.57605
潰	-9.57608
恨	-9.57613
式	-9.57652
表裏	-9.57672
右出洞玄	-9.57718
山侗	-9.57751
世人	-9.57887
九十	-9.57924
空心	-9.57932
爐	-9.58035
何所	-9.58206
者亦	-9.58232
本命	-9.58281
燕	-9.58462
摇	-9.58499
乙	-9.58533
縮	-9.58549
蠟	-9.58561
恍惚	-9.58589
着	-9.58608
燒灰	-9.58625
湧	-9.58642
嘆	-9.58685
六十	-9.58704
託	-9.58734
人身	-9.58739
善者	-9.5877
無不	-9.58911
不失	-9.59025
古者	-9.59105
草木	-9.59158
一曰	-9.59291
三十二	-9.59305
小腸	-9.59315
右手	-9.59326
竅	-9.59379
本來	-9.59467
九年	-9.59513
秦芁	-9.59606
些	-9.59636
肘後	-9.59665
團	-9.59939
混合	-9.60103
太微	-9.6012
中黄	-9.60139
後生	-9.60262
具足	-9.6031
故云	-9.60352
循	-9.60424
姓名	-9.60497
犀角	-9.60572
椎	-9.60573
基	-9.60596
佐	-9.60602
獸	-9.6061
靖	-9.60622
廟	-9.60656
兹	-9.60675
剋	-9.60699
崖	-9.60699
一炁	-9.60712
晋	-9.60739
丹參	-9.6076
金蓮	-9.60838
無復	-9.60915
治病	-9.60924
芒	-9.61059
其脉	-9.6107
所致	-9.61074
號曰	-9.61233
繒	-9.61294
東華	-9.61305
者即	-9.61376
以水	-9.61409
兔	-9.61445
穩	-9.6147
杜仲	-9.61553
圍	-9.61562
瑶	-9.61568
棲	-9.61573
缺	-9.61576
彈	-9.61588
教化	-9.61605
捧	-9.61622
帛	-9.6163
屑	-9.61657
欣	-9.61681
叩齒	-9.61695
輪迴	-9.61706
般般	-9.61836
綿	-9.61884
塗之	-9.61894
無可	-9.6193
膿血	-9.62075
七祖	-9.6208
甲子	-9.62131
六銖	-9.62151
各等	-9.62228
晴	-9.6233
邪氣	-9.62393
東北	-9.62451
癇	-9.62484
爲子	-9.62516
入室	-9.62553
拭	-9.62555
此法	-9.62585
割	-9.62628
喫	-9.62675
淳	-9.62687
我身	-9.62691
杜	-9.62698
琴	-9.62715
訓	-9.62738
叔	-9.62771
裙	-9.62857
苦參	-9.62859
浮華	-9.62905
太素	-9.62945
金剛	-9.6296
大腸	-9.63008
太虚	-9.6301
男子	-9.63111
不利	-9.63221
烈	-9.63256
闡	-9.63428
肘	-9.63449
黄帝	-9.63452
滓	-9.63504
第十	-9.63504
程	-9.63529
掃	-9.63535
伸	-9.63595
疽	-9.63624
醒	-9.63641
論曰	-9.63666
紫菀	-9.63667
烟	-9.63674
融	-9.63677
率	-9.63681
軟	-9.63682
宋朝	-9.63706
謙	-9.63738
少卿	-9.63749
汞	-9.63765
邀	-9.63772
校正	-9.63781
魂魄	-9.63848
虧	-9.63966
於人	-9.63983
爲道	-9.64063
不爲	-9.6434
又方取	-9.64345
一百	-9.64372
賢聖	-9.64431
薯蕷	-9.64646
猪脂	-9.64709
匿	-9.6474
火急	-9.64749
倚	-9.64761
殺人	-9.64764
下降	-9.64773
孰	-9.64783
額	-9.64815
轟	-9.64834
雞子	-9.64842
謁	-9.64853
偶	-9.64865
右四味	-9.64983
龍虎	-9.65089
亦得	-9.65141
憐	-9.65166
中和	-9.65194
天文	-9.65271
疾病	-9.65306
守太	-9.65307
彩	-9.65635
浩	-9.65767
師父	-9.65774
人所	-9.65798
林億	-9.65805
宰	-9.65818
掛	-9.6582
宋	-9.6584
冒	-9.6586
四兩	-9.65881
沐浴	-9.65897
更相	-9.65901
婆	-9.65932
靈寶	-9.65973
度世	-9.65975
天心	-9.65983
上古	-9.6599
生瘡	-9.66207
八方	-9.66301
北極	-9.66323
金玉	-9.66359
也子	-9.66464
此是	-9.66619
瘦	-9.66715
暑	-9.66765
茯神	-9.66851
墜	-9.66854
三田	-9.66859
遵	-9.66882
係	-9.66946
川芎	-9.66963
牒	-9.6698
山茱萸	-9.66983
第九	-9.66983
膈	-9.67148
五星	-9.67358
鼻中	-9.67387
者從	-9.67392
愚人	-9.67449
故曰	-9.6746
軀	-9.67683
静	-9.67767
餌	-9.67821
不相	-9.67884
蝕	-9.67918
赤小豆	-9.67949
眀	-9.67976
至道	-9.67978
途	-9.67978
岸	-9.6798
希夷	-9.67995
獻	-9.68004
暢	-9.68084
榮華	-9.68215
世界	-9.68215
之屬	-9.68216
若不	-9.68371
女人	-9.68416
紫微	-9.68424
吾書	-9.68456
清風	-9.68536
之謂	-9.68577
願聞	-9.68793
二寸	-9.68881
不成	-9.68924
心腹	-9.68954
椒	-9.6897
噫	-9.6904
血脉	-9.69051
酥	-9.69058
橋	-9.69071
顛	-9.69075
屏	-9.69182
斷絶	-9.69631
温服	-9.69641
也天	-9.6965
樞	-9.69663
握	-9.69687
有一	-9.69847
一箇	-9.70038
而反	-9.70042
乍	-9.70046
鸞	-9.70113
庚	-9.70144
埋	-9.70174
馳	-9.70205
續斷	-9.70227
鮮	-9.70237
以傳	-9.70441
炁入	-9.7053
肌	-9.70557
不如	-9.70703
五老	-9.70731
天人	-9.70749
爲一	-9.70875
靈官	-9.70889
也是	-9.70962
結成	-9.71046
之下	-9.71129
塊	-9.71261
漆	-9.71266
搗	-9.71301
艮	-9.71308
莊	-9.71309
編	-9.71312
裂	-9.71315
場	-9.71328
蜀	-9.71352
蘆	-9.71383
也然	-9.71457
六畜	-9.71481
延年	-9.71539
不覺	-9.71695
十七	-9.71717
五寸	-9.71849
雲霞	-9.71872
長存	-9.71913
皆是	-9.71917
薑	-9.71974
小人	-9.72011
不調	-9.72024
者加	-9.72062
通草	-9.72097
不下	-9.72147
右爲末	-9.72157
日用	-9.72328
苟	-9.72382
煩惱	-9.72393
垢	-9.72398
半兩	-9.72415
翳	-9.72418
皂	-9.72422
栢	-9.72451
滋	-9.72456
憶	-9.72458
荷	-9.72505
擇	-9.72518
倦	-9.7257
生於	-9.72874
愼之	-9.72978
清閑	-9.73003
故也	-9.73017
修鍊	-9.73054
飛天	-9.73099
一宿	-9.73297
少陽	-9.73353
次念	-9.73381
盜	-9.73496
涎	-9.73535
右三味	-9.73592
彰	-9.73671
元始天尊	-9.73814
而成	-9.73832
後世	-9.73869
者有	-9.74001
懈	-9.74145
名利	-9.74335
血氣	-9.74344
死者	-9.74466
匀	-9.7462
濃	-9.74676
戊	-9.74699
嗽	-9.74713
僻	-9.74718
三教	-9.74729
乆	-9.74758
勉	-9.74761
彭	-9.7478
辨	-9.74786
鐘	-9.74796
尖	-9.74802
仗	-9.74814
鋪	-9.74819
隆	-9.74821
搯	-9.74842
□	-9.7485
仙官	-9.74867
而死	-9.74893
歘火	-9.74895
四海	-9.7492
前程	-9.74923
治産後	-9.7503
亦治	-9.7508
六合	-9.7508
通靈	-9.75081
右符	-9.75185
赤書	-9.75187
之文	-9.75205
東向	-9.75291
冠衣	-9.75312
即止	-9.75366
玉晨	-9.75487
十九	-9.75548
一錢	-9.75576
善哉善哉	-9.75599
中元	-9.75663
已上	-9.75669
起於	-9.75683
天眞	-9.75757
惡人	-9.75764
天罡	-9.75769
骸	-9.75778
五六	-9.75798
頃	-9.75799
忿	-9.75828
相隨	-9.75886
皂莢	-9.75902
麫	-9.75903
囚	-9.75913
天皇	-9.7592
蔽	-9.75926
故天	-9.75948
鞭	-9.75952
人情	-9.75973
身心	-9.75994
蒲黄	-9.76019
言之	-9.76036
齎	-9.76056
調和	-9.76058
▲▲	-9.76113
洞神	-9.76232
天中	-9.76387
明月	-9.76422
不樂	-9.76455
白虎	-9.76548
婦	-9.76624
酒服方寸七日三	-9.76872
祖師	-9.76887
沖	-9.76919
憎	-9.77001
甲乙	-9.77086
禱	-9.77091
符命	-9.77111
劒	-9.77121
緫	-9.7713
庵	-9.77144
瞻	-9.77161
醜	-9.77177
釣	-9.77204
徳	-9.77204
旬	-9.77239
天下之	-9.77254
四大	-9.77261
愁苦	-9.77283
之則	-9.77463
測	-9.77662
平旦	-9.77736
平等	-9.77932
相傳	-9.77969
癲	-9.78172
下元	-9.78274
喻	-9.78279
蘭	-9.78318
逮	-9.78334
之心	-9.78347
闇	-9.78349
楊	-9.78391
枉	-9.78396
不盡	-9.78426
百姓	-9.78443
軿	-9.78461
鷄	-9.78464
雷局	-9.78511
天丁	-9.78617
去滓内	-9.78626
之術	-9.78627
上士	-9.78924
空洞	-9.78976
九宫	-9.79003
一年	-9.7901
八銖	-9.79169
勿食	-9.79261
)○(	-9.79313
明師	-9.79332
無毒	-9.79365
畜	-9.79366
季	-9.7938
供	-9.79443
少氣	-9.79465
可用	-9.79496
玉京	-9.79562
下之	-9.79566
溢	-9.79575
圓明	-9.79576
無生	-9.79581
準	-9.79588
害風	-9.79614
村	-9.79617
琅	-9.79663
細細	-9.79711
靈明	-9.79729
下利	-9.79839
一事	-9.79865
西山	-9.79947
二斗	-9.8004
先生曰	-9.80152
衆聖	-9.80248
治婦人	-9.80319
此經	-9.80386
不祥	-9.80404
青龍	-9.80474
幻	-9.8048
展	-9.80618
無憂	-9.80659
三氣	-9.80694
吽	-9.80694
署	-9.80729
盜賊	-9.80747
窗	-9.8076
天門冬	-9.80818
蹤	-9.8083
廬	-9.80835
魏	-9.8092
腰痛	-9.80976
取三升	-9.81107
少許	-9.81182
上仙	-9.81231
無漏	-9.81234
誦經	-9.81347
欲得	-9.81457
十年	-9.81463
大乘	-9.81475
一合	-9.81479
灸之	-9.81532
靈光	-9.81556
故能	-9.81741
空中	-9.81765
濇	-9.81844
惱	-9.81905
鹹	-9.81937
雀	-9.81945
脱	-9.81963
沫	-9.81968
岀	-9.81979
健	-9.81989
太乙	-9.81994
段	-9.8202
壘	-9.82047
餅	-9.82049
等分	-9.8205
值	-9.82069
煥	-9.82069
謀	-9.82087
神光	-9.82088
嗣	-9.82093
罔	-9.82108
鋒	-9.82122
瘡上	-9.82191
嘔吐	-9.82206
成就	-9.82349
亦無	-9.82378
五者	-9.82455
也是故	-9.82573
水銀	-9.82724
無名	-9.82777
次灸	-9.82789
其道	-9.82836
用藥	-9.82898
思之	-9.83027
馬風	-9.83039
羸	-9.83129
西南	-9.83199
何處	-9.8321
社	-9.83211
酬	-9.83232
頰	-9.83249
恃	-9.83254
維	-9.83298
玲瓏	-9.83304
番	-9.83341
太陰	-9.83349
狗	-9.83349
祭	-9.83375
松脂	-9.83466
相得	-9.83476
各自	-9.83528
神丹	-9.83554
不識	-9.8367
真文	-9.83888
按之	-9.83918
合和	-9.83957
行事	-9.83987
來往	-9.84172
一粒	-9.84228
北向	-9.84306
疾速	-9.84385
其意	-9.84433
攢	-9.84501
菟絲子	-9.84501
晚	-9.84524
丙	-9.84526
唇	-9.84537
謫	-9.84538
失其	-9.84543
擁	-9.84545
藜蘆	-9.84545
虚實	-9.84578
所生	-9.84583
尊神	-9.84601
絹	-9.84602
借	-9.84612
練	-9.84622
綿綿	-9.84652
竊	-9.84674
右出洞眞	-9.84793
灑	-9.85084
爲天	-9.85169
朝元	-9.85438
猿	-9.85479
治妊娠	-9.85569
而得	-9.85656
俗人	-9.85705
炷	-9.85716
吾奉	-9.85769
皓	-9.85773
其次	-9.85781
聾	-9.85827
祕閣校理	-9.85828
諫	-9.85853
旣	-9.85866
㑹	-9.85868
稀	-9.85886
糞	-9.85893
鼈甲	-9.85894
船	-9.85906
嗟	-9.85919
蟠	-9.85931
據	-9.85948
元陽	-9.85963
陶	-9.85966
洒	-9.85966
兇	-9.85987
遐	-9.85994
種種	-9.8601
旗	-9.86064
以自	-9.86108
八十	-9.86127
如法	-9.86131
其治	-9.86211
云何	-9.8627
又方燒	-9.86285
肌肉	-9.86298
下痢	-9.86326
毎	-9.86454
主人	-9.86524
精氣	-9.86531
不明	-9.86583
頭上	-9.86625
次第	-9.86649
所爲	-9.86724
承負	-9.8679
方寸七	-9.86809
從來	-9.86815
烹	-9.86878
諸藥	-9.86919
刀圭	-9.86975
壬	-9.87018
言語	-9.87068
隨年壯	-9.87069
方右用	-9.871
恬	-9.87134
葶藶	-9.87137
配	-9.87163
兄	-9.87167
懼	-9.87176
曝乾	-9.87186
牀	-9.87195
劍	-9.87252
病在	-9.87255
選	-9.87272
博	-9.87279
澤蘭	-9.87283
唐	-9.87292
捷	-9.87298
三百	-9.8747
自得	-9.87492
何也	-9.87611
惺惺	-9.87673
修持	-9.87753
所居	-9.87903
三分	-9.87968
去皮	-9.88078
一斗	-9.88184
天神	-9.88198
又曰	-9.88268
仙公	-9.88308
九色	-9.88316
台	-9.88323
熱病	-9.884
腹脹	-9.88443
不自	-9.88445
頭面	-9.8848
喝	-9.88483
讓	-9.88498
四時五行	-9.88517
併	-9.8852
撥	-9.88537
凌	-9.88537
欽	-9.88547
真炁	-9.88552
開悟	-9.88554
截	-9.8856
右用	-9.8864
閣	-9.88677
中間	-9.88733
漸漸	-9.88807
終日	-9.88819
皆當	-9.88866
十月	-9.88951
此人	-9.89023
發汗	-9.89056
三焦	-9.89081
一月	-9.89118
人心	-9.89202
陷中	-9.89256
之言	-9.89376
圓成	-9.89475
不食	-9.89643
方取	-9.89648
無事	-9.89657
乖	-9.89816
明堂	-9.89819
梅	-9.89832
飾	-9.89852
蓬島	-9.89861
饑	-9.89868
默默	-9.8987
享	-9.89877
肚	-9.8988
焙	-9.89888
域	-9.89901
拈	-9.89911
鬢	-9.89914
寢	-9.89917
箭	-9.8992
五十壯	-9.89925
嶺	-9.89954
澄清	-9.90046
人生	-9.90079
若見	-9.90324
赤白	-9.90363
凡有	-9.90512
人自	-9.90519
煙霞	-9.90527
吐血	-9.90623
一首	-9.91025
俠	-9.91107
一丸	-9.91115
功滿	-9.91152
卑	-9.91197
仕	-9.91202
嘘	-9.91232
材	-9.91267
犬	-9.91268
下血	-9.9129
祈雨	-9.91297
壓	-9.91315
争	-9.91317
賓	-9.91338
標	-9.91341
紋	-9.91381
有功	-9.91384
不治	-9.91523
无量	-9.91525
先以	-9.91562
脹滿	-9.91593
如前	-9.91613
三合	-9.91786
六升	-9.92046
不行	-9.92232
顔色	-9.92232
稍稍	-9.92255
瓜	-9.92275
見其	-9.92281
胎仙	-9.92352
盆	-9.92527
不離	-9.92528
烏梅	-9.9258
歇	-9.92595
牡丹	-9.92636
莽草	-9.92638
街	-9.9265
其心	-9.92656
叉	-9.9266
幼	-9.92665
翫	-9.92666
盞	-9.92697
盖	-9.92715
妃	-9.92724
是我大病	-9.92785
生涯	-9.92824
諸公	-9.92845
經法	-9.92883
八月	-9.92898
各一兩	-9.92989
生滅	-9.93021
久久	-9.93101
一尺	-9.9336
者必	-9.9339
眩	-9.93418
火光	-9.93451
蒜	-9.93519
萬靈	-9.93528
下一寸	-9.93598
之家	-9.93753
殻	-9.93821
槐	-9.93827
又以	-9.93846
六月	-9.93861
以知爲度	-9.93878
五分	-9.93892
麤	-9.9398
黄蘖	-9.93982
劣	-9.9401
鬥	-9.94013
攀	-9.94033
奸	-9.9405
疫	-9.94058
王者	-9.94061
剪	-9.94064
踈	-9.94068
嘔逆	-9.94126
規	-9.94128
虹	-9.94132
科曰凡	-9.94146
通天	-9.94176
勃	-9.9419
娑訶	-9.94203
厨	-9.94203
活計	-9.9424
三四	-9.9426
滑石	-9.94283
頭戴	-9.94332
治下篩	-9.94485
土地	-9.94537
女子	-9.94548
所在	-9.94601
與天地	-9.94701
頓服	-9.94718
開度	-9.94816
相去	-9.94827
冷水	-9.9484
八節	-9.94908
善哉	-9.9498
根源	-9.95003
精進	-9.95011
大法	-9.95075
脛	-9.95177
白蜜	-9.95263
各八	-9.95281
邪精	-9.9531
到處	-9.95363
副	-9.95365
一分	-9.95388
戴	-9.95399
嗔	-9.95406
不必	-9.95407
篤	-9.95447
涉	-9.95466
怠	-9.95466
闊	-9.95471
渡	-9.95489
均	-9.95519
僧	-9.95521
蓬瀛	-9.95529
咄	-9.95545
扇	-9.95549
尅	-9.95557
范	-9.9558
法門	-9.95582
上宫	-9.95603
相似	-9.95621
針灸	-9.95624
太上道君	-9.95691
以來	-9.95931
魔王	-9.9595
省悟	-9.96096
擒	-9.96137
同心	-9.9622
産後	-9.96278
功夫	-9.9635
與人	-9.96495
不犯	-9.96519
黄金	-9.9658
水雲	-9.96586
玄玄	-9.96638
蠱	-9.96787
頸	-9.96799
淪	-9.96875
瀝	-9.96879
實則	-9.96882
癸	-9.96892
咒	-9.96896
警	-9.96904
騁	-9.96924
詐	-9.96928
他人	-9.96937
法服	-9.9695
褐	-9.96957
衡	-9.96961
太上大道君	-9.96966
徘徊	-9.96971
鈎	-9.96976
盧	-9.9698
鄧	-9.96981
荆	-9.96982
袖	-9.96991
薰	-9.96993
押	-9.97013
帔	-9.97034
失之	-9.97072
道衆	-9.97078
髻	-9.97107
功曹	-9.97137
寧海	-9.97171
終不	-9.9719
黄芽	-9.97328
閑閑	-9.97331
何有	-9.97504
南嶽	-9.97529
三十日	-9.97556
扶風	-9.97558
即爲	-9.97633
故使	-9.97715
穴在	-9.9775
從此	-9.97979
不順	-9.97993
竹瀝	-9.98007
人皆	-9.98033
至真	-9.9805
乃可	-9.98191
八日	-9.98212
术	-9.98242
股	-9.98259
寸口	-9.9826
賢明	-9.98272
篆	-9.98288
兊	-9.98309
晶	-9.98318
藍	-9.98321
天有	-9.98364
逼	-9.98371
以酒	-9.98376
駭	-9.98376
赫	-9.98404
薦	-9.98407
腐	-9.98416
賔	-9.98439
逝	-9.98447
行此	-9.98455
卜	-9.98466
躡	-9.98483
猪膏	-9.98489
凖	-9.98519
其事	-9.98522
得見	-9.98615
黙	-9.98675
壯熱	-9.98772
虎龍	-9.98775
玉訣	-9.98817
脇	-9.98833
天關	-9.98833
之門	-9.989
脉浮	-9.98909
煎湯	-9.98964
眞道	-9.99069
出世	-9.99098
認得	-9.99217
傅之又方	-9.99291
修仙	-9.99375
和氣	-9.99402
爲大	-9.99407
因而	-9.99419
入腹	-9.99445
之物	-9.99552
不能自	-9.99552
問之	-9.99703
其氣	-9.99732
逺	-9.99803
睛	-9.9983
硫黄	-9.99833
兌	-9.99837
其二	-9.99887
所以然者	-9.99895
湯治産後	-9.99925
郞	-9.9994
物物	-9.99977
其言	-10
無毒主	-10.0003
範	-10.0006
相生	-10.0007
今古	-10.001
小麥	-10.0012
㕮咀	-10.0019
正道	-10.0025
苦海	-10.0026
恒山	-10.0031
下手	-10.0032
經曰	-10.004
不愈	-10.0044
入符中	-10.0044
不宜	-10.0044
二十七	-10.0045
作用	-10.0056
以成	-10.0062
凢	-10.0071
清齋	-10.0074
之意	-10.0076
凡物	-10.0085
一大	-10.0103
五兩	-10.0103
玉字	-10.0106
凶惡	-10.0107
天蓬	-10.0114
世世	-10.0116
過去	-10.0119
慎	-10.0123
眥	-10.0126
寸口脉	-10.0128
悸	-10.0129
錬	-10.0133
朵	-10.0135
諾	-10.0142
匠	-10.0144
五味	-10.0144
忙	-10.0144
耕	-10.0145
菊花	-10.0146
刃	-10.0147
旱	-10.0147
肅	-10.0147
衆多	-10.0148
班	-10.0148
森	-10.0149
裝	-10.015
三炁	-10.015
襟	-10.0151
㸃	-10.0152
撰	-10.0152
檄	-10.0157
何時	-10.0162
氣神	-10.0163
福田	-10.0165
丸如梧子大	-10.0173
皆以	-10.0174
玉真	-10.0175
得失	-10.0177
二十日	-10.0179
胃中	-10.0203
不在	-10.0207
太平經	-10.0208
正月	-10.0213
萬物之	-10.0219
兆身	-10.0236
下部	-10.0238
朽	-10.0239
雖有	-10.0247
抵	-10.0254
出於	-10.0262
劔	-10.0268
即瘥	-10.0271
心不	-10.0274
皮膚	-10.028
自己	-10.0283
之本	-10.0287
臟腑	-10.0292
桑白皮	-10.0293
伊	-10.0294
互	-10.0294
聦明	-10.0298
煅	-10.0299
懽	-10.0299
脇下	-10.03
嘯	-10.0301
晩	-10.0301
不問	-10.0313
灾害	-10.0326
消渴	-10.0326
知音	-10.0331
不言	-10.0338
方見	-10.0339
九日	-10.0341
方大黄	-10.0344
道法	-10.035
山川	-10.0353
大洞	-10.0353
不孝	-10.0362
終南	-10.0368
保命	-10.0373
三曰	-10.0378
者此	-10.0379
無知	-10.0388
瘡口	-10.0396
熨	-10.041
次存	-10.041
九月	-10.042
故爲	-10.0421
二氣	-10.0424
陰氣	-10.0429
用心	-10.044
完	-10.044
后	-10.0444
難治	-10.0446
疥	-10.0447
剉	-10.0447
叢	-10.0448
晃	-10.0448
慵	-10.0448
族	-10.0449
日三服	-10.0449
一二	-10.0449
五炁	-10.0449
滴	-10.0451
煩悶	-10.0452
飄飄	-10.0453
直符	-10.0454
説	-10.0454
殆	-10.0458
蕭	-10.046
之理	-10.046
酒下	-10.0462
道學不得教人	-10.0462
不可以	-10.0464
未嘗	-10.0465
羸瘦	-10.0465
永永	-10.0474
湯下	-10.0482
七星	-10.0487
也但	-10.0489
先天	-10.049
一氣	-10.0495
令使	-10.0507
二七	-10.0508
無所不	-10.0509
一云	-10.051
二曰	-10.0512
太真	-10.0512
風仙	-10.0516
象天	-10.0528
法身	-10.0537
山林	-10.0539
天使	-10.055
衣食	-10.0553
至眞	-10.0578
加至	-10.0588
長夜	-10.0589
綿裹	-10.0593
得遇	-10.0597
杯	-10.0597
第	-10.06
豫	-10.0601
津液	-10.0605
哺	-10.0605
元炁	-10.0605
天王	-10.0606
植	-10.0606
泛	-10.0607
韭	-10.0608
孽	-10.0609
呼吸	-10.061
惡寒	-10.0611
惹	-10.0611
吕	-10.0612
佛	-10.0612
橫	-10.0613
無心	-10.0614
操	-10.0614
尼	-10.0615
之名	-10.0618
躍	-10.0621
腫痛	-10.0621
地下	-10.0623
丙丁	-10.0628
將吏	-10.0655
修道	-10.0658
一道	-10.0673
電光	-10.0678
始終	-10.0689
十分	-10.069
玄元	-10.0695
煑取二升	-10.0701
天氣	-10.0704
白皮	-10.0711
釜	-10.0721
妙用	-10.0723
一片	-10.0727
無私	-10.0729
呪畢	-10.0731
者生	-10.0733
眞文	-10.0747
茱萸	-10.0747
欲死	-10.0747
風雷	-10.0751
爲丸	-10.076
揺	-10.076
哭	-10.0761
終身	-10.0762
繁	-10.0763
嚼	-10.0766
徵	-10.0767
肆	-10.0767
旨	-10.0768
鑿	-10.0768
挺	-10.0768
泯	-10.077
診	-10.0772
汙	-10.0772
紛紛	-10.0774
床	-10.0774
弊	-10.0774
抛	-10.0774
縳	-10.0774
半升	-10.078
丈夫	-10.078
譚	-10.0781
枳殻	-10.0782
翔	-10.0784
腴	-10.0788
八卦	-10.0789
頌曰	-10.0794
服食	-10.0803
長短	-10.0803
能生	-10.0806
風火	-10.0807
道學當念	-10.0814
而後	-10.0817
三台	-10.0824
是謂	-10.0825
所行	-10.083
日三夜一	-10.0833
隨縁	-10.0834
五氣	-10.0846
乎哉	-10.085
病苦	-10.0859
二日	-10.0862
故名	-10.087
無情	-10.0873
七寶	-10.0878
十枚	-10.0885
乃至	-10.089
行也	-10.0898
至誠	-10.0902
癥	-10.0911
施行	-10.0915
藉	-10.0929
微妙	-10.0932
丹成	-10.0934
冀	-10.0937
鑑	-10.0938
逹	-10.0938
濛	-10.0939
畔	-10.0941
勒	-10.0941
瑶臺	-10.0944
隅	-10.0946
京兆	-10.0947
鄕	-10.0951
身熱	-10.0954
卷云	-10.0955
咒曰	-10.0961
右二十	-10.0972
學士	-10.0976
認取	-10.0976
非常	-10.0982
金書	-10.0985
臍下	-10.0997
太眞	-10.0998
天地人	-10.1004
雷鳴	-10.1005
不然	-10.1011
可爲	-10.1013
大神言	-10.1032
爲佳	-10.1034
皆由	-10.1035
神通	-10.1043
輕重	-10.1062
玄中	-10.1062
二十八	-10.1063
齋戒	-10.1066
傳授	-10.1071
千金	-10.1075
玄參	-10.1079
壹	-10.1085
乃得	-10.1087
倉	-10.1088
者不	-10.1089
擲	-10.1091
胃氣	-10.1093
貯	-10.1094
洩	-10.1099
有人	-10.1099
射干	-10.11
八極	-10.1101
玄機	-10.1102
茂	-10.1102
疝	-10.1102
賦	-10.1106
遮	-10.1107
一旦	-10.1107
斑	-10.1108
光陰	-10.1108
紫石英	-10.1108
費	-10.111
朱砂	-10.1112
瓊漿	-10.1113
羊肉	-10.1113
葵子	-10.1114
也如	-10.1114
聴	-10.1115
朔	-10.112
得仙	-10.113
爲末以	-10.1151
皆可	-10.1155
也人	-10.1157
當時	-10.1157
吐下	-10.1161
浮生	-10.1167
金華	-10.1173
照耀	-10.1175
靈靈	-10.1188
吾道	-10.119
内有	-10.1196
見在	-10.1196
大夫	-10.1206
不以	-10.1217
今朝	-10.1225
三沸	-10.1228
道也	-10.1246
爲法	-10.125
眞常	-10.1264
何須	-10.1264
捲	-10.1265
奴	-10.1268
揮	-10.1268
中来經曰	-10.1269
抑	-10.1269
藜	-10.127
粘	-10.127
婬	-10.127
掣	-10.1271
孟	-10.1272
胡粉	-10.1273
閉塞	-10.1276
錫	-10.1276
磁石	-10.1277
威儀	-10.1277
名山	-10.1278
故有	-10.1279
扶桑	-10.1279
侣	-10.128
饒	-10.1281
以何	-10.1285
小便不利	-10.1296
洗之	-10.1308
不善	-10.1312
紅塵	-10.1316
乳香	-10.1319
不除	-10.1324
食飲	-10.1326
守道	-10.1329
此皆	-10.1336
家風	-10.1336
其德	-10.1336
奉道	-10.1337
清酒	-10.1338
不消	-10.1339
其功	-10.1339
夜半	-10.1346
靈臺	-10.1346
牛黄	-10.1352
相通	-10.1354
天元	-10.1358
赤帝	-10.1358
萬丈	-10.1362
一團	-10.1365
者其	-10.1366
神霄	-10.1366
枸杞	-10.137
四分	-10.1383
出血	-10.1387
煑取一升	-10.1387
皆須	-10.1393
无爲	-10.1395
不去	-10.14
此乃	-10.1408
服之又方	-10.141
道成	-10.142
咳	-10.1422
良又方	-10.1428
礬	-10.143
爪	-10.1431
用此	-10.1434
仙道	-10.1435
炊	-10.1437
萎蕤	-10.1437
温酒	-10.1439
涕	-10.144
麗	-10.1441
眷	-10.1442
璧	-10.1442
之始	-10.1443
死人	-10.1445
邑	-10.1445
鉛汞	-10.1446
漱	-10.1446
訶	-10.1448
銜	-10.1449
克	-10.145
潭	-10.1451
三百六十	-10.1452
綵	-10.1453
耳聾	-10.1453
嫉妬	-10.1454
毒氣	-10.1455
潮	-10.1456
撫	-10.1456
勾	-10.1456
之處	-10.1461
譬如	-10.147
與我	-10.1471
紙上	-10.1473
不能言	-10.1475
念道	-10.1477
步步	-10.1477
頓服之	-10.1478
人我	-10.149
利名	-10.1494
粟	-10.1505
回頭	-10.1507
無邊	-10.152
甚者	-10.1522
其形	-10.1522
而自	-10.154
說之	-10.1541
有無	-10.1546
何謂也	-10.1547
大帝	-10.1554
者常	-10.1567
何謂	-10.1575
萬象	-10.1579
耳目	-10.1585
國家	-10.1586
四升	-10.1592
上聖	-10.1602
井花水	-10.161
四面	-10.1611
俯	-10.1617
拙	-10.1617
努力	-10.1618
嫌	-10.1618
事事	-10.1618
碗	-10.162
買	-10.162
糖	-10.1622
祠	-10.1623
農	-10.1624
俯仰	-10.1624
風月	-10.1625
甫	-10.1634
青木香	-10.1645
乃止	-10.165
脉來	-10.1652
識破	-10.1657
之教	-10.1662
之治	-10.1663
雲中	-10.1663
人君	-10.1664
孔中	-10.1674
已成	-10.1676
方可	-10.1678
更生	-10.1678
天法	-10.1702
此符	-10.1704
與道	-10.1704
三塗	-10.1705
之故	-10.1705
怎生	-10.1707
常行	-10.1711
以示	-10.172
元神	-10.1727
教人	-10.1731
眞珠	-10.1732
也吾	-10.1735
形容	-10.1738
明眞	-10.1742
下古	-10.1744
吾文	-10.1746
患人	-10.1746
星君	-10.1749
歸來	-10.1751
疊	-10.1752
皆得	-10.1752
道家	-10.1758
三十二天	-10.1759
以致	-10.176
萬病	-10.1765
吾言	-10.177
窌	-10.1771
五種	-10.1781
水和	-10.1781
箕	-10.1784
兩邊	-10.1786
突	-10.1786
險	-10.1789
柄	-10.1792
澁	-10.1796
白薇	-10.1796
肌膚	-10.1797
誕	-10.18
檀	-10.18
愍	-10.18
系	-10.1801
栀子仁	-10.1801
囉	-10.1804
三服	-10.1804
鑒	-10.1804
綺	-10.1805
逕	-10.1805
製	-10.1805
覽	-10.1806
養性	-10.1808
寒暑	-10.1808
玉童	-10.1809
述懷	-10.1811
魁罡	-10.1815
實者	-10.1816
風冷	-10.1819
妊娠	-10.1823
遠近	-10.183
東海	-10.1838
出離	-10.184
真仙	-10.1844
四月	-10.185
木香	-10.1852
萬化	-10.1854
未有	-10.1854
欲樂	-10.1855
億萬	-10.1861
黄籙	-10.1866
當願一切	-10.1866
又方以	-10.187
在内	-10.187
之類	-10.1875
味甘	-10.1885
役使	-10.1886
血出	-10.1889
方以	-10.1901
者謂	-10.1905
不悟	-10.1905
九炁	-10.191
上書	-10.1916
如有	-10.1923
心煩	-10.1926
某甲	-10.1935
五神	-10.1935
仙家	-10.1941
不可勝	-10.1946
千萬	-10.1948
害人	-10.195
痿	-10.1957
陽九	-10.196
失道	-10.196
耐	-10.1962
盲	-10.1966
弓	-10.1969
叩	-10.197
澹	-10.197
胃管	-10.197
巢	-10.197
昨	-10.1972
朴	-10.1973
癖	-10.1973
處處	-10.1976
神君	-10.1976
芫花	-10.1977
栽	-10.198
捐	-10.1981
溉	-10.1982
噎	-10.1982
亘初	-10.1985
閻	-10.1987
𦋇	-10.1989
禮拜	-10.199
六丁	-10.1991
不定	-10.1991
知道	-10.1992
十丸	-10.1997
又方治	-10.2001
取二升	-10.2001
蜜丸如梧子	-10.2001
三島	-10.2001
清静	-10.2004
言也	-10.2009
不過三	-10.2011
高下	-10.2019
何不	-10.202
玉液	-10.2023
火鈴	-10.2028
古人	-10.2032
純陽	-10.2032
不受	-10.2036
寂然	-10.2037
九霄	-10.2038
太虛	-10.2043
道學	-10.2051
二年	-10.2066
門人	-10.2069
論曰凡	-10.2074
清明	-10.2078
東西	-10.2079
周流	-10.2083
天堂	-10.2084
空腹	-10.2089
黒炁	-10.2089
行功	-10.2106
在其中	-10.2108
六天	-10.2111
依法	-10.2116
及諸	-10.2116
鄰	-10.2121
威靈	-10.2121
二十五	-10.2124
老人	-10.2133
脚氣	-10.2138
衣服	-10.214
一聲	-10.2141
其本	-10.2146
瘰癧	-10.2149
而有	-10.215
蠶	-10.2151
忤	-10.2152
三斗	-10.2153
炁吹	-10.2155
歳	-10.2155
凈	-10.2156
層	-10.2157
檳榔	-10.2159
少陰	-10.216
蟾	-10.216
韓	-10.2164
恚	-10.2165
地骨皮	-10.2165
洽	-10.2166
靡	-10.2167
刑罰	-10.2168
禳	-10.2169
譽	-10.2171
匝	-10.2171
無益	-10.2171
蠱毒	-10.2171
炭	-10.2171
豪	-10.2174
賀	-10.2175
歡喜	-10.2177
替	-10.218
齡	-10.218
咽喉	-10.2181
一切衆生	-10.2181
元始天王	-10.2185
奥	-10.2189
也不	-10.2189
如小豆	-10.2189
之宫	-10.2192
者無	-10.2196
百神	-10.2204
如今	-10.2211
金銀	-10.2213
之外	-10.2218
相與	-10.2218
去來	-10.222
尸解	-10.223
無道	-10.2232
去滓下	-10.2237
生成	-10.224
明珠	-10.2242
冷熱	-10.2244
也眞人	-10.2244
迴頭	-10.2244
得其意	-10.2245
人行	-10.2249
瘟	-10.225
在上	-10.2252
何爲	-10.2253
有熱	-10.2255
精思	-10.2259
深知	-10.2259
三里	-10.2268
有病	-10.2277
不與	-10.2279
者但	-10.228
國王	-10.2281
者是也	-10.2281
唵吽吽	-10.2296
人能	-10.2299
雲遊	-10.2299
生者	-10.2301
二十丸	-10.2302
九幽	-10.231
只是	-10.2319
風毒	-10.2321
惡之	-10.2327
右五味	-10.233
也真人	-10.2334
人不	-10.2339
泣	-10.2342
何等	-10.2343
薪	-10.2344
甜	-10.2345
喘息	-10.2346
曠	-10.2349
肋	-10.2349
硬	-10.2351
踏	-10.2353
刮	-10.2354
鼈	-10.2355
艾葉	-10.2356
陀	-10.2357
怕	-10.2357
趨	-10.2359
卓	-10.236
柏	-10.2362
柔弱	-10.2362
身形	-10.2364
七轉	-10.2371
龍膽	-10.2372
腋	-10.2372
百歲	-10.2372
導引	-10.2373
▲▲▲	-10.2376
者宜	-10.2378
乳汁	-10.2379
丁香	-10.2383
大羅天	-10.2387
青霄	-10.2391
何者	-10.2392
布施	-10.2396
箇箇	-10.2397
者主	-10.24
祝曰	-10.24
不可不	-10.2406
一方用	-10.241
通玄	-10.241
无窮	-10.2412
石南	-10.2413
二分	-10.2413
服此	-10.2413
絳宫	-10.2414
誦之	-10.2414
流注	-10.2415
成仙	-10.2415
飛雲	-10.2422
道言	-10.2425
生人	-10.2426
傷人	-10.2439
有過	-10.2444
亦然	-10.2446
根本	-10.2448
九升	-10.2454
三尸	-10.2468
三才	-10.2469
之師	-10.247
好生	-10.2471
天官	-10.2471
自生	-10.2477
以意	-10.2483
跳	-10.2484
使得	-10.2485
妨	-10.2487
一具	-10.249
與神	-10.2495
百六	-10.2517
同前	-10.2523
有此	-10.2527
一處	-10.2535
築	-10.2538
巨闕	-10.2541
腥	-10.2542
羚羊角	-10.2543
律令敕	-10.2543
賴	-10.2544
托	-10.2545
耗	-10.2545
貴賤	-10.2546
兄弟	-10.2546
天真	-10.2546
枷	-10.2546
構	-10.2547
梨	-10.2548
伍	-10.2549
白石英	-10.2551
阻	-10.2554
頗	-10.2555
每日	-10.2555
清清	-10.2555
遁	-10.2555
君臣	-10.2556
紛	-10.2556
陪	-10.2557
不忘	-10.2564
端的	-10.2564
悟徹	-10.2566
不住	-10.2568
三七	-10.2568
若欲	-10.257
一卷	-10.2583
真王	-10.2585
惡瘡	-10.2587
敢有	-10.2589
氣不足	-10.2591
方寸	-10.2591
二味	-10.2597
與地	-10.2598
八十一	-10.2603
可不	-10.2603
麵	-10.2605
立功	-10.2613
而言	-10.2625
色界	-10.2626
動靜	-10.263
罪福	-10.2633
九道	-10.2654
之功	-10.2655
以水一斗	-10.2657
方知	-10.2659
靈童	-10.2665
人中	-10.2665
六者	-10.2666
妙玄	-10.267
人道	-10.2672
有時	-10.2676
吏兵	-10.2683
三寶	-10.2684
爲末蜜丸	-10.269
記之	-10.2695
所得	-10.2698
之數	-10.2703
養就	-10.2704
攣	-10.2706
逍遥自在	-10.2709
上眞	-10.271
谿	-10.2713
不正	-10.2728
懶	-10.2731
鯉魚	-10.2733
萬縁	-10.2733
屢	-10.2734
線	-10.2736
壅	-10.2738
膜	-10.2738
風寒	-10.274
三乘	-10.2741
其行	-10.2742
鞋	-10.2742
縫	-10.2742
躭	-10.2742
成功	-10.2743
綻	-10.2746
這箇	-10.2746
喬	-10.2747
五月	-10.2747
拱	-10.2747
時有	-10.2749
濤	-10.2751
洛	-10.2753
甘遂	-10.2755
與之	-10.2758
狀如	-10.2758
右四味㕮咀	-10.2762
兒孫	-10.2762
瘥又方	-10.2765
發於	-10.2769
何必	-10.2772
一物	-10.2772
如上法	-10.2772
謹請	-10.2773
歡樂	-10.2778
三宫	-10.2778
風雲	-10.278
忽然	-10.2781
之臺	-10.2781
咽之	-10.2783
訣曰	-10.2784
一味	-10.2784
同煎	-10.2788
真形	-10.2792
於地	-10.2795
返照	-10.2798
之義	-10.28
金童	-10.2809
九靈	-10.2809
跳出	-10.281
地户	-10.282
也善哉善哉	-10.2828
火燒	-10.2832
已下	-10.2837
因果	-10.2838
南宫	-10.2839
三徧	-10.2844
其三	-10.2846
胸中	-10.285
良因	-10.2854
十里	-10.2859
者如	-10.2859
有四	-10.2882
煑取四升	-10.2882
多食	-10.2885
光照	-10.2888
地仙	-10.289
微火煎	-10.2897
本文	-10.2898
腕	-10.29
上至	-10.2901
重者	-10.2901
神驗	-10.2905
其間	-10.291
服方寸七	-10.2912
有知	-10.2913
補之	-10.2913
癲疾	-10.2919
玄天	-10.2919
氣力	-10.2921
上登	-10.2921
君所居	-10.2923
福地	-10.2927
臘	-10.2929
溟	-10.2931
真靈	-10.2932
神符	-10.2932
蜈蚣	-10.2936
口噤	-10.2936
閭	-10.2936
虞	-10.2938
而去	-10.2938
蘂	-10.2939
隨意	-10.2939
二合	-10.2939
内藥	-10.2939
茵芋	-10.294
藁本	-10.294
湖	-10.2941
淹	-10.2942
旁	-10.2943
相見	-10.2943
竿	-10.2944
擎	-10.2944
黄疸	-10.2945
派	-10.2946
當先	-10.2946
圭	-10.2946
豈不	-10.2946
版	-10.2947
况	-10.2948
七月	-10.2949
滋味	-10.2952
誘	-10.2953
裳	-10.2953
匪	-10.2954
即出	-10.2954
通明	-10.2955
煩滿	-10.2956
曰吾	-10.2957
些兒	-10.2959
後聖	-10.2962
玄臺	-10.2965
炎炎	-10.2967
得得	-10.2976
學仙	-10.2986
真經	-10.2986
五道	-10.2987
陳皮	-10.2989
眞仙	-10.2992
妙理	-10.2993
外臺	-10.2995
機關	-10.3
恩愛	-10.3001
紫府	-10.3002
論方	-10.3003
雷聲	-10.3003
存亡	-10.3003
絞	-10.3004
十五日	-10.3006
罪賜	-10.3013
一石	-10.3014
有道	-10.302
月中	-10.3023
於中	-10.3024
則有	-10.3035
七合	-10.3038
金色	-10.3042
再服	-10.3044
上法	-10.3044
得天心	-10.3048
五錢	-10.3048
壺	-10.3052
昇玄	-10.3058
惡者	-10.3058
下治	-10.3059
更服	-10.3065
方云	-10.3067
雌	-10.3072
加之	-10.3079
萬萬	-10.3081
師弟子	-10.3082
長齋	-10.3086
圓光	-10.3089
真性	-10.309
以是	-10.3094
其文	-10.3095
爲末蜜丸如梧子大	-10.3106
瘻	-10.3106
昇仙	-10.311
豁	-10.3113
熱毒	-10.3115
太白	-10.3115
飛昇	-10.3119
當有	-10.3122
覺悟	-10.3123
相引	-10.3128
濡	-10.313
瓶	-10.313
澆	-10.3131
古者聖人	-10.3135
劎	-10.3136
迫	-10.3136
羹	-10.3137
蛻	-10.314
𥿄	-10.314
哥	-10.314
箇中	-10.3141
諦	-10.3143
魯	-10.3143
樸	-10.3144
憨	-10.3145
馨香	-10.3148
帖	-10.315
薤白	-10.3151
邈	-10.3151
叱	-10.3151
羊脂	-10.3152
冶	-10.3152
骷髏	-10.3154
遶	-10.3155
拘校	-10.3158
躬	-10.3159
取之	-10.316
食前	-10.316
天書	-10.3162
自言	-10.3162
服一升	-10.3163
一家	-10.3165
分再服	-10.3166
四五	-10.3167
禁忌	-10.3169
聰明	-10.3171
切一	-10.3171
天機	-10.3173
亂髮	-10.3179
治在	-10.3187
糊	-10.3189
爲害	-10.319
是以真人	-10.3192
輪轉	-10.3197
右法	-10.32
石灰	-10.3203
七分	-10.3203
一念	-10.3204
見之	-10.3205
不負	-10.3211
邪鬼	-10.3214
不和	-10.3215
清貧	-10.3218
一歲	-10.3223
不應	-10.3226
四聖	-10.323
無礙	-10.3235
達理	-10.3238
或爲	-10.3243
者得	-10.3246
遊行	-10.325
妄語	-10.325
二儀	-10.325
乃爲	-10.3253
不已	-10.326
民臣	-10.3261
數日	-10.3265
氣血	-10.3268
之室	-10.3276
生姜	-10.328
數十	-10.3288
白日	-10.3302
死亡	-10.3308
宫中	-10.3314
右爲細末	-10.3326
賢人	-10.3327
有二	-10.3333
焚香	-10.3333
太和	-10.3334
在人	-10.3335
墟	-10.3337
玉文	-10.3337
粳米	-10.3342
佞	-10.3342
蠻雷	-10.3343
寥	-10.3344
春秋	-10.3345
卵	-10.3345
幡	-10.3346
驢	-10.3346
火輪	-10.3346
煎取	-10.3348
覷	-10.3348
僕	-10.3348
稽	-10.3348
晦	-10.3351
誥	-10.3351
栢子仁	-10.3351
車前子	-10.3352
訣第一百	-10.3352
柴	-10.3352
躁	-10.3353
宵	-10.3353
岑	-10.3354
板	-10.3354
趖	-10.3354
亦名	-10.3356
窟	-10.3357
廓	-10.3358
赦	-10.3359
戮	-10.336
絆	-10.336
八百	-10.336
青童	-10.3362
通達	-10.3364
鬚	-10.3364
叅	-10.3365
煨	-10.3365
怡	-10.3366
臍中	-10.3367
此三	-10.3372
神祇	-10.3374
酒調	-10.3379
白帝	-10.3379
是名	-10.3393
太微天帝君	-10.3394
煩熱	-10.3398
火院	-10.3402
不堪	-10.3403
和合	-10.3403
塵情	-10.341
漬之	-10.3413
太歲	-10.3414
也無	-10.3414
治諸	-10.3419
良久	-10.3421
俱忘	-10.3433
先煑	-10.3436
爲義	-10.3437
芒消	-10.3446
上詣	-10.3452
亦如	-10.3452
化成	-10.3461
空外	-10.3465
萬民	-10.3466
有心	-10.3475
天將	-10.3477
芝草	-10.3482
食後	-10.3484
虚勞	-10.3485
其神	-10.3486
此之謂也	-10.3486
吞下	-10.3494
形長	-10.351
壇前	-10.3513
所說	-10.3514
受命	-10.3516
不起	-10.3518
其子	-10.3519
杏	-10.352
明明	-10.3526
萬法	-10.3529
不能食	-10.353
自在逍遥	-10.3533
之際	-10.3535
經戒	-10.3537
耳中	-10.3538
口乾	-10.3542
八素	-10.3543
大將軍	-10.3543
即得	-10.355
歛	-10.3551
蜂	-10.3552
洲	-10.3555
藤	-10.3559
坑	-10.356
正炁	-10.356
須當	-10.3561
心地	-10.3562
必有	-10.3562
禦	-10.3563
擾	-10.3563
爲細末	-10.3563
鹿角	-10.3566
速起	-10.3566
鴻	-10.3566
株	-10.3566
猛吏	-10.3567
謬	-10.3567
低	-10.3568
旦夕	-10.3568
悅喜	-10.3569
罩	-10.3569
㧞	-10.3571
分二服	-10.3572
麽	-10.3572
㝠㝠	-10.3573
郷	-10.3575
馬鈺	-10.3575
其病	-10.3579
其君	-10.358
旛	-10.3581
寂寂	-10.3582
炮	-10.3585
也而	-10.3594
歸依	-10.3595
房室	-10.3597
之光	-10.3603
一志	-10.3605
四季	-10.3606
忘機	-10.3607
上善	-10.3612
經教	-10.3616
真符	-10.3616
閉目	-10.3625
我今	-10.3625
然燈	-10.3634
惡風	-10.3636
黄庭	-10.3642
始生	-10.3643
南星	-10.3644
關元	-10.3648
猶如	-10.3649
頓覺	-10.3652
仙鄉	-10.3657
者多	-10.3657
家書	-10.3659
三十年	-10.3671
隨其	-10.3672
光輝	-10.3678
不斷	-10.3685
安樂	-10.3686
口訣	-10.3688
大指	-10.3697
三魂	-10.3701
安坐	-10.3703
雲路	-10.3704
不從	-10.3706
直上	-10.3707
尺脉	-10.371
靈源	-10.371
昇天	-10.3721
法輪	-10.3722
靈書	-10.3725
之耳	-10.3726
皆爲	-10.3729
頤	-10.3752
入於	-10.3753
五石	-10.3759
本際經云	-10.3761
此則	-10.3763
洞眞	-10.3763
朋	-10.3768
苦酒	-10.3771
五臟六腑	-10.3772
衮	-10.3778
社令	-10.3778
得長生	-10.3778
痞	-10.3779
輙	-10.3779
謗	-10.378
瘀血	-10.378
崔氏	-10.378
咳嗽	-10.3782
下愚	-10.3782
雲山	-10.3783
而行之	-10.3783
劈	-10.3784
零	-10.3785
沐	-10.3785
訟	-10.3785
荆芥	-10.3786
黨	-10.3786
督	-10.3786
釀	-10.3786
飈	-10.3788
梳	-10.3789
各二兩	-10.3791
靈文	-10.3792
郊	-10.3792
䰟	-10.3792
秤	-10.3793
姿	-10.3793
函	-10.3795
峯	-10.3795
夫婦	-10.3796
之妙	-10.3801
如意	-10.3803
臣等	-10.3808
小豆	-10.3809
鄭	-10.3809
其内	-10.3809
家縁	-10.381
應化	-10.3811
含之	-10.3813
勿使	-10.3815
無人	-10.3817
堅固	-10.3818
中古	-10.3818
無爭	-10.3824
須知	-10.3831
七魄	-10.3837
萬古	-10.3839
此書	-10.3842
天雷	-10.3845
赤芍藥	-10.3848
明旦	-10.3849
發背	-10.3849
青山	-10.3853
大德	-10.3862
虚則	-10.3862
語言	-10.3863
戒者	-10.3868
誰能	-10.3872
速降	-10.3877
拘急	-10.3877
爲散	-10.3882
於上	-10.3882
福無	-10.3886
一朝	-10.3893
一般	-10.3894
安寧	-10.3898
所受	-10.3906
唯有	-10.3908
任意	-10.391
下士	-10.3911
亦是	-10.3911
通神	-10.3912
從今	-10.3919
動作	-10.392
也天地	-10.3923
先身	-10.3923
常有	-10.3924
下方	-10.3924
人參甘草	-10.3931
正真	-10.3932
大定	-10.3933
風氣	-10.3937
其後	-10.3944
眼前	-10.3945
无有	-10.3949
此病	-10.3951
腋下	-10.3954
久服	-10.3955
相對	-10.3961
山頭	-10.3964
白礬	-10.3967
天意	-10.3968
不爾	-10.3969
之章	-10.3977
譬	-10.3978
大人	-10.3982
一盞	-10.3985
偈	-10.3986
右九味	-10.3987
屈伸	-10.399
究竟	-10.3993
上經	-10.3993
佑	-10.3996
涌泉	-10.3996
撮	-10.4
梯	-10.4
酒三升	-10.4
腰背	-10.4001
道理	-10.4002
悟來	-10.4002
悒悒	-10.4003
疲	-10.4003
教之	-10.4003
袋	-10.4004
抽	-10.4005
藴	-10.4005
蔭	-10.4005
勘	-10.4006
聊	-10.4006
葬	-10.4007
捕	-10.4007
栗	-10.4009
礜石	-10.4009
寃	-10.4009
淚	-10.4011
料	-10.4012
長吏	-10.4012
崔	-10.4013
右五味㕮咀	-10.4015
而不止	-10.4016
俟	-10.4017
得病	-10.4018
辦	-10.4018
一劑	-10.4018
風吹	-10.4028
修完	-10.4029
如水	-10.4029
眞空	-10.4029
以應	-10.4031
境界	-10.4033
脚弱	-10.4033
無明	-10.4038
心神	-10.4038
氣逆	-10.404
成道	-10.4045
名字	-10.4047
直待	-10.4047
千古	-10.4048
治下篩酒服方寸七	-10.4051
内踝	-10.4056
太元	-10.4057
時復	-10.4063
二月	-10.4064
故得	-10.4066
若此	-10.4069
水氣	-10.407
心香	-10.4076
天樞	-10.4078
熬令	-10.4079
十二月	-10.4083
微火	-10.4084
瀉之	-10.4085
㕮咀以水	-10.4096
之房	-10.4099
矣故	-10.4101
疔	-10.4103
太帝	-10.4103
是時	-10.4104
子文	-10.4107
悟眞	-10.411
白馬	-10.4116
妄言	-10.4122
也以	-10.4125
七枚	-10.4128
吾今	-10.4129
非是	-10.4136
乃能	-10.4136
之根	-10.414
帝勑	-10.4141
赤色	-10.4142
十轉	-10.415
時人	-10.4158
尋常	-10.4166
不退	-10.4168
大千	-10.4179
癰腫	-10.418
吾身	-10.4182
玉花	-10.4189
道意	-10.4189
其根	-10.4191
周天	-10.4191
卷中	-10.4196
定志	-10.42
金甲	-10.4203
先人	-10.4207
有大	-10.4213
門主	-10.4218
海藻	-10.4218
正是	-10.422
從前	-10.4221
倫	-10.4222
土瓜根	-10.4224
常住	-10.4225
禹餘粮	-10.423
銷	-10.423
萌	-10.423
嗜	-10.423
簇	-10.423
狐	-10.4231
爻	-10.4232
貝母	-10.4233
惶	-10.4233
癆	-10.4234
灼	-10.4234
介	-10.4235
晏	-10.4235
殷	-10.4236
續命湯	-10.4236
寡	-10.4237
祀	-10.4238
陣	-10.4239
黄帝云	-10.4239
綂	-10.424
噴	-10.424
轄	-10.4241
縈	-10.4242
祚	-10.4243
魂神	-10.4243
應物	-10.4244
渺	-10.4244
廻	-10.4245
仲景	-10.4246
天涯	-10.4246
曳	-10.4247
拷	-10.4248
戈	-10.425
四直	-10.4253
寒冷	-10.4255
衆人	-10.4256
漬一宿	-10.4257
義者	-10.4265
之狀	-10.427
文字	-10.4273
之罪	-10.4277
後學	-10.4277
水一盞	-10.428
飛騰	-10.4285
未來	-10.4289
也所以	-10.429
壺中	-10.4292
惡氣	-10.4295
師曰	-10.4296
八升	-10.4296
道眼	-10.4296
塵縁	-10.4297
生肌	-10.4298
運轉	-10.4299
朝禮	-10.4302
大賢	-10.4305
子午	-10.4312
妖精	-10.4315
右七味	-10.4317
佩身	-10.432
風流	-10.432
玄武	-10.4332
裏面	-10.4333
土皇	-10.4336
欲知	-10.4337
方諸	-10.4343
重重	-10.4351
一寸半	-10.4355
感應	-10.4356
不可治	-10.4357
姓某	-10.436
速至	-10.4361
右七味㕮咀	-10.4371
青黄	-10.4372
本無	-10.4376
念呪曰	-10.4381
四曰	-10.4383
故當	-10.4393
誰知	-10.4394
飛龍	-10.4399
各有所	-10.4411
右六味	-10.4415
上帝敕	-10.4417
其餘	-10.4422
致太平	-10.4428
兩目	-10.4428
可治	-10.4432
世事	-10.4433
腹内	-10.4435
未知	-10.4436
在前	-10.444
人多	-10.4443
陽明	-10.4443
喉痺	-10.4448
開明	-10.4451
寐	-10.4455
胡洽	-10.4456
五斗	-10.4458
瘵	-10.4459
甑	-10.4459
下氣	-10.4459
革	-10.4459
内補	-10.4461
斛	-10.4462
奴婢	-10.4462
驕	-10.4462
瓢	-10.4462
擺	-10.4463
巴戟天	-10.4463
銅器中	-10.4464
益氣	-10.4464
渠	-10.4465
靈章	-10.4465
曆	-10.4466
先師	-10.4467
百二十	-10.4467
百里	-10.4467
頭眩	-10.4469
沾	-10.4469
賣	-10.447
祛	-10.4471
態	-10.4471
石韋	-10.4471
絞取汁	-10.4472
榮衛	-10.4473
餓	-10.4474
妬	-10.4476
勘破	-10.4477
擔	-10.4478
聯	-10.4479
縣官	-10.4479
庸	-10.4479
澄澄	-10.448
奚	-10.4483
鎭	-10.4485
深處	-10.4487
進退	-10.4491
日三又方	-10.4492
榜	-10.4499
其狀	-10.4501
虚寒	-10.4503
老子曰	-10.4503
祥雲	-10.4506
東嶽	-10.4513
十五丸	-10.4514
水煎	-10.4514
山上	-10.4519
者即是	-10.452
爲真人	-10.4523
財物	-10.4524
力士	-10.4525
六七	-10.4532
月經	-10.4532
持戒	-10.4535
也地	-10.4539
一百二十	-10.4542
長壽	-10.4544
安得	-10.455
無數	-10.4552
足下	-10.4557
有德	-10.4558
當得	-10.4558
玄關	-10.4563
方麻黄	-10.4566
百合	-10.4567
若無	-10.4567
教令	-10.4568
三尺	-10.4569
愚者	-10.4578
大丹	-10.4579
有異	-10.458
玉華	-10.4582
不傳	-10.4583
脾胃	-10.4584
蹄	-10.4586
小小	-10.4594
修真	-10.4596
相和	-10.4601
痛不可忍	-10.4611
欲使	-10.4614
青帝	-10.4615
其下	-10.4617
五辛	-10.4621
器中	-10.4627
思惟	-10.4642
虚无	-10.4644
又名	-10.4645
金門	-10.4645
觀者	-10.4653
服又方	-10.4653
脅	-10.4657
夢中	-10.4661
赤炁	-10.4662
得此	-10.4674
過多	-10.4676
帝敕	-10.4678
虚皇	-10.468
明真	-10.4682
於内	-10.4683
腎氣	-10.4684
隱書	-10.4686
也乃	-10.4689
噀	-10.4693
厲	-10.4694
半日	-10.4694
腸鳴	-10.4696
坊	-10.47
瀛洲	-10.4701
蛾	-10.4701
瘖	-10.4701
瞿麥	-10.4702
歟	-10.4702
儔	-10.4703
髮際	-10.4703
此即	-10.4703
宸	-10.4704
膺	-10.4705
足以	-10.4705
萆薢	-10.4706
巍巍	-10.4706
霍	-10.4706
治風	-10.4707
桂心甘草	-10.4707
裁	-10.4707
婁	-10.4707
妙道	-10.4709
擬	-10.4709
勑呪	-10.4709
讖	-10.471
𩀱	-10.471
訴	-10.471
暇	-10.471
撒	-10.4711
札	-10.4711
𥙷	-10.4711
債	-10.4712
二炁	-10.4713
漂	-10.4714
祈晴	-10.4714
趁	-10.4714
亦佳	-10.4714
雖然	-10.4714
草烏	-10.4715
二十八宿	-10.4716
骨髓	-10.472
喜怒	-10.4721
胷滿	-10.4727
懃	-10.4729
搜尋	-10.4729
六腑	-10.473
有箇	-10.473
黒雲	-10.4731
隨時	-10.4732
治少小	-10.4733
一顆	-10.4741
燒末	-10.4741
經絡	-10.4746
不至	-10.4748
壬癸	-10.4752
月一日	-10.4752
金精	-10.4756
山中	-10.4756
常存	-10.4756
氣結	-10.476
矣夫	-10.4764
玉符	-10.4767
洞房	-10.4769
是天	-10.477
不得卧	-10.477
塵勞	-10.4773
曰夫	-10.4773
妻子	-10.4775
青炁	-10.4778
目前	-10.4783
塵世	-10.4783
勿復	-10.4792
煞炁	-10.4792
瓊花	-10.4792
心頭	-10.4796
羅列	-10.4804
玉泉	-10.4805
三十九	-10.4809
路上	-10.4814
邪惡	-10.4815
法界	-10.4817
見於	-10.4819
之要	-10.4819
三人	-10.482
音聲	-10.4823
不合	-10.4825
洞中	-10.4828
思慮	-10.4832
歲月	-10.4837
午文	-10.4839
訖下	-10.4842
自來	-10.4842
相連	-10.4845
流光	-10.4846
未得	-10.4847
求道	-10.4851
高聖	-10.4858
功名	-10.4861
其日	-10.4861
神珠	-10.4862
結就	-10.4863
踝	-10.4863
陰中	-10.4867
二百	-10.4871
轉輪	-10.4873
流水	-10.4873
無限	-10.4873
下入	-10.4882
湛	-10.4884
下焦	-10.4891
向上	-10.4893
王氣	-10.4895
召呪	-10.4897
問事	-10.4903
思念	-10.4904
盛則	-10.4904
善之人	-10.4906
玄門	-10.4906
日出	-10.4906
在心	-10.4907
大劫	-10.4911
空虚	-10.4914
道性	-10.4921
陷者中	-10.4925
跪	-10.4928
栝蔞	-10.4929
腰脊	-10.4931
爲帝王	-10.4936
詮	-10.4937
淘	-10.4937
治卒	-10.4938
爲體	-10.4938
莫能	-10.4939
優	-10.4942
傲	-10.4943
夀	-10.4944
伏龍肝	-10.4944
適寒温	-10.4946
濯	-10.4946
瀆	-10.4947
姹女	-10.4947
愧	-10.495
騫	-10.495
火炙	-10.4951
拍	-10.4952
蟻	-10.4952
衢	-10.4955
及其	-10.4955
穹	-10.4956
巴	-10.4957
皮毛	-10.4958
轡	-10.4959
瘥止	-10.4961
决烈	-10.4963
會得	-10.4965
緋	-10.4966
庚辛	-10.4967
瘡中	-10.4968
無相	-10.4968
雌黄	-10.4971
右八味	-10.4978
地之	-10.498
無異	-10.4982
大小便	-10.4983
求仙	-10.4989
大病	-10.4993
修之	-10.4997
孝道	-10.4999
說法	-10.5003
謹召	-10.5006
於其内	-10.5008
色黄	-10.5008
合成	-10.5017
五苦	-10.5022
五曰	-10.5027
凡夫	-10.5036
故知	-10.5043
飲水	-10.5045
瘥後	-10.5047
書文	-10.5048
結氣	-10.5048
一生	-10.5049
仙都	-10.5053
解脫	-10.5055
又方擣	-10.5056
此道	-10.5056
一本	-10.5059
大風	-10.5062
取其	-10.507
月華	-10.5072
骨肉	-10.5077
共爲	-10.508
霸	-10.5089
煞文	-10.5092
祕呪	-10.5094
流行	-10.5101
右十味	-10.5103
承負之	-10.5111
三壯	-10.512
先食服	-10.5123
其時	-10.5126
非有	-10.5127
人事	-10.5129
西東	-10.5135
白玉	-10.5136
生萬物	-10.5142
太平之	-10.5143
皇上	-10.5146
各七	-10.5148
者若	-10.5151
三素	-10.5152
玉臺	-10.5164
瘕	-10.5166
髀	-10.5167
先用	-10.5169
缺盆	-10.5169
行雨	-10.517
眞功	-10.5175
地黄汁	-10.5176
柰	-10.5177
亦不可	-10.5177
有益	-10.518
孕	-10.5181
者悉	-10.5183
斑猫	-10.5183
旌	-10.5186
迸	-10.5186
第十一	-10.5187
皇君	-10.5187
挽	-10.5188
趺	-10.519
禽	-10.5191
惻	-10.5191
水蛭	-10.5193
之恩	-10.5193
蔣	-10.5194
鱗	-10.5195
更不	-10.5195
凍	-10.5195
長跪	-10.5196
靴	-10.5197
探	-10.5197
右十三味	-10.5198
楚	-10.5198
尉	-10.5198
痊	-10.5199
漫	-10.5199
坡	-10.5204
不染	-10.5205
下篩	-10.5205
征	-10.5206
火急奉行	-10.5206
帀	-10.5206
痾	-10.5206
八會	-10.5207
長久	-10.5208
挑	-10.5209
飮	-10.5211
馮	-10.5212
環堵	-10.5213
不可得	-10.5214
紫蘇	-10.5215
五千文	-10.5215
壽命	-10.5216
泠	-10.5216
主者	-10.5216
五千	-10.5219
傅上	-10.5221
之地	-10.5228
筋骨	-10.5236
形骸	-10.5237
之道也	-10.5238
自責	-10.5239
何曾	-10.5248
脉沉	-10.5249
具位	-10.525
追魂	-10.5252
重玄	-10.5259
酒一斗	-10.526
心猿	-10.526
酒浸	-10.5261
無餘	-10.5262
灾變	-10.5263
天仙	-10.5264
變成	-10.5264
或問	-10.5272
了眞	-10.5272
幾何	-10.5276
遊歷	-10.5278
世俗	-10.5279
氣上	-10.528
平生	-10.5281
愛之	-10.5282
利益	-10.5285
和傅之	-10.5287
傷損	-10.5288
耶唯唯	-10.529
骨節	-10.5291
奉勸	-10.5292
放下	-10.5295
川烏	-10.53
水服	-10.5302
在外	-10.5307
大如	-10.5308
以水五升	-10.5308
頭建	-10.5311
無言	-10.5315
念念	-10.5318
神吏	-10.5326
不收	-10.5327
有何	-10.5327
三字	-10.5327
道陵	-10.5339
十二部	-10.5342
之曰	-10.535
行善	-10.5354
端正	-10.5354
腫方	-10.5355
星宿	-10.5357
千年	-10.5373
洞陽	-10.5376
煑取三升去滓	-10.5376
四等	-10.5379
中宫	-10.5379
相從	-10.5382
父子	-10.5388
閑人	-10.539
金花	-10.5392
各各	-10.5401
杵	-10.5404
形神	-10.5405
於道	-10.5405
人亦	-10.5408
眞修	-10.5411
生地黄汁	-10.5413
人家	-10.5418
得生	-10.5427
傷於	-10.5429
一言	-10.543
以上	-10.5432
郄	-10.5436
此箇	-10.544
蛇牀子	-10.5442
豬	-10.5447
梢	-10.5448
盃	-10.5448
拖	-10.5448
欬嗽	-10.5449
馘	-10.545
矜	-10.5451
漁	-10.5451
斜	-10.5451
欻	-10.5452
驚悸	-10.5453
羗活	-10.5453
四味	-10.5453
搔	-10.5453
連翹	-10.5453
虔	-10.5454
泡	-10.5455
洋	-10.5455
地榆	-10.5456
賈	-10.5458
其要意	-10.5458
浩劫	-10.5458
翕	-10.5458
黍米	-10.5458
然而	-10.5458
瑞氣	-10.5459
七月七日	-10.5459
穎	-10.5459
离	-10.5459
開闢	-10.546
囑	-10.5461
旺	-10.5463
嵩	-10.5463
湛然	-10.5464
頻頻	-10.5464
髪	-10.5464
乾漆	-10.5464
掣電	-10.5465
斡運	-10.5465
欬逆	-10.5465
敲	-10.5465
漠	-10.5466
區區	-10.5466
尹	-10.5467
林泉	-10.5468
鑄	-10.5469
牧	-10.5469
綬	-10.547
無涯	-10.5471
雲步	-10.5471
准	-10.5471
右件	-10.5471
一性	-10.5472
豈有	-10.5484
全真	-10.5486
錦帔	-10.5486
此二	-10.5487
衆眞	-10.5487
善哉子	-10.5498
上品	-10.5505
以水八升煑	-10.551
客於	-10.5513
憂愁	-10.5517
清心	-10.5517
格法	-10.5531
奉戒	-10.5539
而下	-10.5539
收攝	-10.554
坦蕩	-10.5542
悟道	-10.5544
感動	-10.5546
孝子	-10.5547
三味	-10.5551
吏民	-10.5551
前藥	-10.5552
火雷	-10.5552
可服	-10.5557
生氣	-10.5559
天地之間	-10.5564
受生	-10.5564
龍吟	-10.5565
之至	-10.5569
未盡	-10.5569
節度	-10.557
文章	-10.5571
之德	-10.5573
人物	-10.5577
應變	-10.5579
敕召	-10.558
養氣	-10.5581
如斯	-10.5583
喉中	-10.5583
令盡	-10.5583
修齋	-10.5585
不移	-10.5587
不老	-10.5589
蜜丸	-10.5593
上道	-10.5595
豈可	-10.5599
十銖	-10.5602
疾苦	-10.5608
五靈	-10.561
來生	-10.5611
自安	-10.5611
安能	-10.5624
去之	-10.5629
不自知	-10.563
中和之	-10.5633
一條	-10.5635
身爲	-10.5639
王公	-10.5639
其實	-10.5641
常服	-10.5645
念呪	-10.5646
必死	-10.5649
虛皇	-10.5652
三一	-10.5653
要道	-10.5654
玉童玉女	-10.5657
不思	-10.5658
無病	-10.5659
不聞	-10.5667
其年	-10.5668
死魂	-10.5674
灌之	-10.5675
也亦	-10.5678
閃	-10.5679
不顧	-10.5679
携雲	-10.5682
故言	-10.5686
正氣	-10.569
丹藥	-10.5691
夢見	-10.5695
猾	-10.5698
疸	-10.5698
奢	-10.5699
竹茹	-10.57
萬世	-10.57
藥力	-10.5704
疳	-10.5705
方寸匕	-10.5706
𧏾	-10.5707
貨	-10.5707
循環	-10.5708
亘	-10.571
積久	-10.5711
堆	-10.5711
勇	-10.5711
禽獸	-10.5712
攺	-10.5712
古今録驗	-10.5713
慘	-10.5714
蒲	-10.5714
猜	-10.5714
癬	-10.5714
涌	-10.5715
迅	-10.5716
分四服	-10.5716
寒水石	-10.5717
方半夏	-10.5718
少年	-10.5718
眸	-10.5718
拯	-10.5719
艶	-10.5719
脯	-10.5719
贊	-10.572
亨	-10.572
墓	-10.572
目眩	-10.572
偷	-10.572
墻	-10.5721
小童	-10.5721
鵝	-10.5722
久視	-10.5722
挫	-10.5722
嚮	-10.5723
朴硝	-10.5724
嚥液	-10.5725
甲乙云	-10.5725
㗶	-10.5725
岳	-10.5727
陽精	-10.5727
衒	-10.5728
西王母	-10.5728
虎嘯	-10.5729
雕	-10.5729
三部	-10.5729
鼇	-10.573
水洗	-10.573
撼	-10.573
之位	-10.573
十洲	-10.5731
遍身	-10.5732
軌	-10.5733
集驗	-10.5733
之宗	-10.5735
九竅	-10.5735
明日	-10.574
呪唵	-10.5743
故稱	-10.5747
邪僞	-10.575
除熱	-10.5752
之館	-10.5753
皓月	-10.5758
消亡	-10.5759
所問	-10.5759
頂門	-10.5759
本師	-10.5763
神水	-10.5765
丹霄	-10.5767
目中	-10.5767
忘情	-10.5768
太上曰	-10.577
丸如梧子	-10.577
不若	-10.5771
如故	-10.5772
念之	-10.5774
亦能	-10.5775
腸胃	-10.5776
紫雲	-10.5777
其數	-10.5777
清油	-10.578
訖次	-10.5783
二丸	-10.5783
未見	-10.5787
酒服方寸七	-10.5792
七十二	-10.5792
第十二	-10.58
已得	-10.5801
五符	-10.5816
守之	-10.5818
消石	-10.5822
過於	-10.5822
赤子	-10.5825
國土	-10.5826
轉筋	-10.5828
更有	-10.5831
震動	-10.5837
佩之	-10.5838
者少	-10.5852
絶滅	-10.5853
陰乾	-10.5857
小指	-10.5861
爲禍	-10.5866
經脉	-10.5867
各異	-10.5873
不容	-10.5875
視之	-10.5882
丹結	-10.5884
正教	-10.5909
眞樂	-10.591
玄母	-10.5911
嘉祥	-10.5918
有形	-10.5919
大有	-10.5925
寳經	-10.5926
炁一口	-10.5928
欲知其	-10.5934
葵	-10.5941
舌上	-10.5941
無中	-10.5945
頂上	-10.5945
何如	-10.5947
恰	-10.595
洞明	-10.5952
如此矣	-10.5953
六兩	-10.5954
膚	-10.5956
下及	-10.5962
歸於	-10.5966
香煙	-10.5968
常在	-10.5968
玉虛	-10.5968
急痛	-10.5973
封之	-10.5974
故名爲	-10.5976
米飲	-10.5978
召雷	-10.5979
酷	-10.5979
天地開闢以來	-10.5982
浩浩	-10.5984
燒之	-10.5984
扃	-10.5985
亦復如是	-10.5985
右㕮咀	-10.5985
蛇床子	-10.5985
駐	-10.5986
撞	-10.5988
酌	-10.5989
崑	-10.5989
二枚	-10.5991
拳	-10.5991
俊	-10.5991
纖	-10.5992
銳	-10.5992
滌	-10.5993
堯	-10.5994
愚癡	-10.5994
麟	-10.5996
無他	-10.5998
蛟龍	-10.5998
嗚	-10.5998
掉	-10.5999
優游	-10.6
右十二味㕮咀	-10.6004
地官	-10.6005
輦	-10.6006
歌舞	-10.6007
枝葉	-10.6008
雲朋	-10.6009
打破	-10.6012
各得其所	-10.6013
春夏	-10.6016
真真	-10.6017
有情	-10.6018
明效	-10.6019
皆因	-10.602
西嶽	-10.602
輝輝	-10.6023
述意	-10.6027
利小便	-10.603
之鄉	-10.6032
於外	-10.6037
因緣	-10.6038
所不能	-10.6038
乃是	-10.604
天魔	-10.6042
可見	-10.6052
大者	-10.6055
符呪	-10.6071
燦	-10.6074
水官	-10.6074
右十味㕮咀	-10.6075
不禁	-10.6076
二千	-10.6077
二字	-10.6078
不得息	-10.6081
尋思	-10.6081
晴空	-10.6082
以治	-10.6083
五穀	-10.6083
瑞應	-10.6085
超然	-10.6085
湯方	-10.6085
幽微	-10.6093
洞照	-10.6097
神光燦	-10.6099
秋冬	-10.6102
相逢	-10.6104
若是	-10.6105
也唯唯	-10.6106
金簡	-10.6107
七寸	-10.611
三首	-10.611
七者	-10.6116
吞之	-10.6117
吐逆	-10.6119
玉光	-10.6119
半夏湯	-10.6128
水腫	-10.613
虚損	-10.6132
大效	-10.6136
爾時	-10.6137
此明	-10.6138
福德	-10.6138
萬歲	-10.6138
民間	-10.6147
寒氣	-10.6149
无上祕要卷之	-10.6158
三業	-10.6165
積行	-10.6171
如大豆	-10.6175
加至三十丸	-10.6176
以明	-10.6182
五更	-10.6194
君父	-10.6202
而上	-10.6208
九寸	-10.6211
普天	-10.6216
敦	-10.6216
入水	-10.6217
閑中	-10.6217
氣滿	-10.6223
搜玄	-10.6226
思其意	-10.6226
无形	-10.6228
魅	-10.6229
而不能	-10.6233
巽方	-10.6235
大戒	-10.6237
忘言	-10.6242
鐶	-10.6243
溝	-10.6246
黍	-10.6248
爪甲	-10.6249
蝦	-10.6252
南向	-10.6253
之前	-10.6254
挾	-10.6256
掖	-10.6257
道果	-10.6258
踐	-10.6258
二人	-10.6259
軫	-10.626
喧	-10.6261
冲	-10.6262
右三味㕮咀以	-10.6262
濾	-10.6263
伽	-10.6263
岐	-10.6264
庚申	-10.6264
常念	-10.6265
嫉	-10.6265
菊	-10.6266
幹	-10.6266
鉢	-10.6266
慇懃	-10.6267
交媾	-10.6267
矯	-10.6267
内觀	-10.6268
内音	-10.6269
存心	-10.6269
絮	-10.6269
偃	-10.627
吼	-10.6271
閬苑	-10.6271
琳	-10.6272
戊己	-10.6273
囂	-10.6273
遜	-10.6274
盈盈	-10.6274
由是	-10.6274
控	-10.6275
以類	-10.6275
鎻	-10.6276
粧	-10.6277
黎	-10.6277
呢	-10.6277
啖	-10.6278
頭頭	-10.6279
叩齒九通	-10.6283
縱横	-10.6284
氣息	-10.6285
太上老君	-10.6285
殿試	-10.6286
微咒曰	-10.6288
香豉	-10.6288
良醫	-10.6294
所傷	-10.6296
學而	-10.6296
卷之八	-10.63
易之	-10.6301
兩脚	-10.6303
細切	-10.6307
便得	-10.631
加减	-10.6311
無價	-10.6315
坐卧	-10.6318
息肉	-10.6318
本名	-10.6325
降臨	-10.6331
周行	-10.6332
愼勿	-10.6332
成眞	-10.6332
司馬	-10.6334
中秋	-10.6337
然谷	-10.6337
復重	-10.6338
發則	-10.634
十斤	-10.6341
禹	-10.6343
但當	-10.6345
胷脇	-10.6345
青天	-10.6349
嚥氣	-10.6353
煑取三升去滓分三服	-10.6353
與其	-10.6362
現形	-10.6363
華蓋	-10.6364
以水三升煑取一升	-10.6364
小便數	-10.6369
上行	-10.6373
四寸	-10.6378
太古	-10.6378
今人	-10.6385
常思	-10.6385
香火	-10.6386
此言	-10.6388
更無	-10.6389
愼無	-10.6392
當風	-10.6395
三遍	-10.6395
之身	-10.6397
玉京山	-10.6404
二物	-10.6404
無拘	-10.6405
霞友	-10.6413
金瘡	-10.6414
神效	-10.6415
玉性	-10.6415
二十一	-10.6423
洞極	-10.643
虚心	-10.643
可不愼	-10.6432
素靈	-10.6437
所願	-10.6442
中嶽	-10.6442
安閑	-10.6445
浮腫	-10.645
積年	-10.6451
玉室	-10.6453
符中	-10.6455
紫金	-10.646
又能	-10.646
不妄	-10.6461
即下	-10.6462
雲外	-10.6463
故吾	-10.6465
不許	-10.6466
悉皆	-10.6469
服三丸	-10.6469
中士	-10.6477
右二味爲末	-10.6485
不隨	-10.6485
大師	-10.6494
煎令	-10.6495
無極之	-10.6496
熱氣	-10.6502
爲妙	-10.6503
價	-10.6506
三山	-10.6519
品科曰凡是道學當知	-10.6524
虚羸	-10.6526
古之	-10.6527
太極真人	-10.6527
吐出	-10.653
搏	-10.6532
功圓	-10.6532
之病	-10.6533
門在	-10.6538
批	-10.6542
鈞	-10.6544
遼	-10.6544
瞳	-10.6545
驚癇	-10.6545
羡	-10.6546
遏	-10.6546
平氣	-10.6548
而出	-10.6548
醬	-10.6549
蟬	-10.655
蛟	-10.6551
弩	-10.6551
徃來	-10.6551
坦	-10.6551
萬二千物	-10.6551
沃	-10.6552
朴消	-10.6552
五月五日	-10.6553
算	-10.6553
爇	-10.6553
養生	-10.6553
粮	-10.6554
污	-10.6555
劵	-10.6555
道場	-10.6555
聳	-10.6555
己身	-10.6557
忒	-10.6558
寵	-10.6558
恰似	-10.656
朱雀	-10.6561
尊卑	-10.6561
臘月	-10.6562
分五服	-10.6563
叙	-10.6563
織	-10.6564
法度	-10.6564
擣篩	-10.6565
呬	-10.6565
皂角	-10.6565
四極明科	-10.6566
跨鶴	-10.6567
右呪畢	-10.6572
發心	-10.658
湛湛	-10.6583
擣末	-10.6586
忠信	-10.6587
男兒	-10.6587
青華	-10.6587
水調	-10.6588
録籍	-10.6588
亦復	-10.659
虚而	-10.6591
上啓	-10.6593
酒調服	-10.6593
令熟	-10.6594
齋直	-10.6599
響應	-10.6599
欲求	-10.6602
服一升日三	-10.6603
而起	-10.6613
財色	-10.6617
終始	-10.6618
昇入	-10.6618
作伴	-10.6621
兩耳	-10.6623
青宫	-10.6627
風濕	-10.663
海上	-10.6637
絞去滓	-10.6639
洞府	-10.6642
一字	-10.6643
難也	-10.6645
慈心	-10.6649
則致	-10.665
居之	-10.6657
先服	-10.6659
超昇	-10.666
敢不	-10.6662
汁出	-10.6664
神虎	-10.6664
白雪	-10.6667
修身	-10.6669
之徒	-10.6672
鬼賊	-10.6673
不論	-10.6675
三陽	-10.6676
諸法	-10.6676
言其	-10.6678
服五丸	-10.6691
浮雲	-10.6698
天寳	-10.6714
平復	-10.6717
右三味治下篩	-10.6723
使我	-10.6724
衆賢	-10.6725
殺生	-10.6733
性月	-10.6735
少時	-10.6741
右九味㕮咀	-10.6747
動脉	-10.6751
急急奉	-10.6751
妙經	-10.6758
靈符	-10.6762
紫虚	-10.6765
二尺	-10.6765
至德	-10.6782
九氣	-10.6793
所求	-10.6794
鈴	-10.6799
九星	-10.6802
腹脹滿	-10.6802
故以	-10.6803
難爲	-10.6803
元皇	-10.6806
凝神	-10.6806
青精	-10.681
必須	-10.6811
聞之	-10.6812
所宜	-10.6814
食不消	-10.6815
於身	-10.6816
几	-10.682
件	-10.6822
四十九	-10.6822
頷	-10.6826
曝	-10.6827
澼	-10.6831
懇	-10.6833
大熱	-10.6833
虛則	-10.6834
摘	-10.684
不失銖分	-10.684
飴	-10.684
戾	-10.6842
猪苓	-10.6842
勅	-10.6842
者先	-10.6843
次下	-10.6843
勸人	-10.6843
巡	-10.6843
手太陰	-10.6843
爍	-10.6844
㣲	-10.6845
爵	-10.6846
蓄	-10.6846
寺	-10.6846
簪	-10.6846
括	-10.685
討	-10.685
喚	-10.685
太歳	-10.6851
不息	-10.6851
黑帝	-10.6852
蕪	-10.6852
瞋	-10.6852
偏枯	-10.6854
栖	-10.6854
官將	-10.6855
日月星辰	-10.6855
鄙	-10.6855
劒訣	-10.6856
蟠桃	-10.6856
鳥獸	-10.6856
靄	-10.6859
紫書	-10.6864
長生久視	-10.6865
過此	-10.6865
㧞度	-10.6868
詩詞	-10.6869
歸蓬島	-10.687
迷津	-10.687
飛行上清	-10.6872
太衝	-10.6872
失精	-10.688
須憑	-10.6882
自由	-10.6885
冥冥	-10.6887
東井	-10.6887
杏人	-10.6888
一把	-10.6888
有分	-10.6891
泰山	-10.6892
天地隂陽	-10.6892
七百年	-10.6895
快樂	-10.69
洞淵	-10.6902
一通	-10.6904
流霞	-10.6905
還丹	-10.6905
入地	-10.6906
拆起	-10.6907
重樓	-10.6908
次以	-10.6908
消魔	-10.6908
墨書	-10.6909
不來	-10.6918
卷之六	-10.6919
事畢	-10.6921
反覆	-10.6923
汝等	-10.6926
收捉	-10.6926
右二味㕮咀	-10.6933
好把	-10.6942
不著	-10.6943
三關	-10.6945
殺之	-10.695
黄炁	-10.695
本相	-10.6952
乎故	-10.6955
二斤	-10.6965
然夫	-10.697
凢婦人	-10.6971
見世	-10.6972
立愈	-10.6974
山東	-10.6977
復發	-10.6978
九州	-10.6978
右二味治下篩	-10.6992
白髮	-10.6995
金虎	-10.6999
施爲	-10.7002
當知	-10.7008
邪文	-10.701
其父母	-10.7013
五勞七傷	-10.7017
義曰	-10.7018
清水	-10.7031
不審	-10.7034
六情	-10.7042
驅雷	-10.7059
熱服	-10.7065
八者	-10.7066
仁義	-10.7075
雷符	-10.7079
六分	-10.708
山水	-10.7082
内諸藥	-10.7083
動則	-10.7095
唾血	-10.7098
也是以	-10.7101
八威	-10.7102
篩	-10.7106
存思	-10.7106
㕮咀以	-10.7108
三過	-10.7108
初發	-10.7111
四體	-10.7116
是我	-10.7119
雷雨	-10.7121
廕	-10.7122
同志	-10.7123
調塗	-10.7128
奈何	-10.7131
姜汁	-10.7131
痙	-10.7133
稠	-10.7133
搬	-10.7135
蝱蟲	-10.7135
烏賊骨	-10.7135
死矣	-10.7136
氤氲	-10.7136
外臺云	-10.7138
肓	-10.7139
叁	-10.7139
錢重	-10.714
稚	-10.7141
絃	-10.7141
䕡茹	-10.7143
羨	-10.7146
猫	-10.7146
昆	-10.7146
臻	-10.7147
夾	-10.7147
脆	-10.7148
拽	-10.7148
故令	-10.7148
糧	-10.715
款	-10.715
椀	-10.715
贖	-10.715
清平	-10.7151
蜂房	-10.7153
巔	-10.7153
羞	-10.7154
啄	-10.7154
野葛	-10.7154
夙	-10.7154
讎	-10.7155
鬭	-10.7155
蔬	-10.7155
滿庭芳	-10.7155
較	-10.7156
擘	-10.7156
奮	-10.7156
復六十日	-10.7157
不避	-10.7158
萬人	-10.7159
蒼术	-10.7159
完全	-10.716
諭	-10.716
董	-10.7161
貧窮	-10.7161
蕪荑	-10.7161
妻男	-10.7163
依此	-10.7163
令得	-10.7166
奉北帝敕	-10.7167
𡨚	-10.7167
瘥治	-10.717
吐納	-10.7172
修善	-10.7172
藹	-10.7173
繡	-10.7173
眞性	-10.7174
固固	-10.7176
霹𩆝	-10.7176
四象	-10.7177
黑豆	-10.7177
叩頭	-10.7178
又問	-10.7179
食頃	-10.7181
捉住	-10.7184
不空	-10.7185
碧落	-10.7186
蓮花	-10.7187
補益	-10.7188
合煎	-10.719
未悟	-10.719
大戟	-10.7191
顯現	-10.7195
端坐	-10.72
皆不得	-10.7203
心主	-10.7207
别研	-10.7208
卷之七	-10.721
食後服	-10.721
漿水	-10.7212
神人言	-10.7213
湯洗	-10.7214
氣絶	-10.7216
金牙	-10.722
教主	-10.7222
諸將	-10.7224
不妨	-10.7233
玉堂	-10.7235
助其	-10.7237
開口	-10.7242
飛步	-10.7246
卯文	-10.7249
五字	-10.7252
足少陰	-10.7256
一度	-10.726
將息	-10.7262
黄氣	-10.7263
心上	-10.7265
不具	-10.7266
常欲	-10.7274
仙童	-10.7277
者廼	-10.7278
足太陰	-10.7282
之辭	-10.7285
令熱	-10.7288
他年	-10.729
流金	-10.7295
宗師	-10.7296
金鼎	-10.7299
萬道	-10.7305
所由	-10.7315
雲霧	-10.7316
不可久	-10.7322
萬年	-10.7323
右四味治下篩	-10.7325
常常	-10.7326
金容	-10.7329
便宜	-10.733
湯治小兒	-10.7338
兩般	-10.7341
投玄	-10.7346
冬至	-10.7346
象地	-10.7347
以綿	-10.7351
虚冷	-10.7353
七元	-10.7353
右五味㕮咀以水	-10.7354
受其	-10.7357
還反	-10.7358
水穀	-10.7358
杳	-10.736
惡心	-10.7365
其處	-10.7366
皮肉	-10.7369
右十六味	-10.7382
霆	-10.7385
因何	-10.7391
早悟	-10.7396
火車	-10.7397
除去	-10.7398
侍衛	-10.7399
此理	-10.7402
逆氣	-10.7406
足太陽	-10.7407
已來	-10.7409
服方寸七日三	-10.7413
次用	-10.7416
未及	-10.7418
到此	-10.7419
地皇	-10.7425
合於	-10.7428
温病	-10.743
有疑	-10.7431
催生	-10.7433
服二丸	-10.7435
起土	-10.7436
得益	-10.7436
熱則	-10.7442
絞痛	-10.7444
麻油	-10.7445
無欲	-10.7447
吿	-10.7448
服十丸	-10.7449
噦	-10.745
文登	-10.7451
鹿茸	-10.7452
門下獄	-10.7452
道士女冠	-10.7454
右十一味	-10.7454
剖	-10.7454
叫	-10.7456
鯨	-10.7457
柏子仁	-10.7458
戰鬥	-10.746
采	-10.746
隸	-10.746
垣	-10.7461
牌	-10.7461
措	-10.7461
薤	-10.7462
姚	-10.7462
倒顛	-10.7463
汗不出	-10.7463
罐	-10.7463
萬鬼	-10.7464
模	-10.7464
凋	-10.7464
窺	-10.7465
劄	-10.7465
彦	-10.7465
溶	-10.7466
鬼臼	-10.7467
翹	-10.7469
塵埃	-10.7469
至心歸命	-10.7469
翅	-10.747
叩齒三通	-10.747
塵寰	-10.7471
辛夷	-10.7472
藿香	-10.7472
哩	-10.7473
樞機	-10.7475
白日昇天	-10.7475
綱紀	-10.7476
裘	-10.7477
乾嘔	-10.7477
密封	-10.748
厥逆	-10.7481
郡界	-10.7481
貧賤	-10.7482
所屬	-10.7482
熟擣	-10.7483
猪肉	-10.7483
半錢	-10.7484
好道	-10.7487
爲鄰	-10.7489
雲收	-10.7493
眞君	-10.7493
本是	-10.7493
恣意	-10.7493
之境	-10.7495
科曰	-10.7497
故能成	-10.7498
針刺	-10.7498
黄色	-10.7498
六極	-10.7499
灾異	-10.7501
宫殿	-10.7503
肉桂	-10.7504
不失其	-10.7504
所致也	-10.7505
不止方	-10.7506
億劫	-10.7507
以付	-10.7508
回首	-10.751
唵吽	-10.7511
丹靈	-10.7514
不得食	-10.7515
熨之	-10.7515
流火	-10.7517
其義	-10.752
流精	-10.7522
九九	-10.7526
合同	-10.7527
天天王姓	-10.753
之國	-10.753
不平	-10.753
不知其	-10.7536
年月	-10.7538
八合	-10.7539
去滓分三服	-10.7545
丹霞	-10.7547
六根	-10.7549
紫房	-10.755
皇人	-10.7551
不覩	-10.7552
所能	-10.7553
宿命	-10.7554
胡麻	-10.7558
加大黄	-10.7563
行步	-10.7563
來問	-10.7567
唯天師	-10.7573
小乘	-10.7575
四序	-10.7582
服一劑	-10.7582
乳癰	-10.7584
其要	-10.7588
天宫	-10.7593
知之矣	-10.7593
面黑	-10.7593
鬼物	-10.7598
太華	-10.7608
凡受	-10.7608
王母	-10.7611
三昧	-10.7617
珠玉	-10.762
面上	-10.7621
百萬	-10.7624
去矣	-10.7627
時氣	-10.7637
有失	-10.7642
徧身	-10.7643
十八銖	-10.765
勸修	-10.766
四假	-10.766
自養	-10.7662
别是	-10.7675
面赤	-10.7675
十者	-10.7675
良治	-10.7676
早早	-10.7677
力學	-10.7683
妙法	-10.7686
炁布	-10.7692
各自有	-10.7692
筆書	-10.7694
九地	-10.7697
存神	-10.77
靈芝	-10.7707
精光	-10.7711
神呪	-10.772
運度	-10.7724
斗口	-10.7732
而致	-10.7733
明了	-10.7735
殺鬼	-10.7735
虛无	-10.7741
戟	-10.7742
空心服	-10.7752
深思	-10.7754
相宜	-10.7755
貴人	-10.7755
休休	-10.7755
西向	-10.7756
吽吽	-10.776
歲兒	-10.7761
邪神	-10.7763
滿空	-10.7764
百餘	-10.7765
聻	-10.7767
狼	-10.7769
守一之法	-10.7771
中極	-10.7774
欠	-10.7776
五加皮	-10.7776
岡	-10.7776
宛	-10.7776
姙娠	-10.7777
薏苡仁	-10.7777
衲	-10.7779
匕	-10.778
鬧	-10.778
槁	-10.7781
絹袋盛	-10.7781
關上脉	-10.7781
筵	-10.7781
茟	-10.7781
淡竹葉	-10.7782
天尊言	-10.7782
代赭	-10.7782
踵	-10.7782
鴨	-10.7783
簾	-10.7783
掘	-10.7784
蒂	-10.7784
膩	-10.7784
邁	-10.7785
嬰姹	-10.7785
龐	-10.7785
所欲	-10.7785
頃刻	-10.7786
忍辱	-10.7786
咬	-10.7786
換	-10.7786
艷	-10.7786
戚	-10.7786
狼毒	-10.7788
驀	-10.7788
璫	-10.7788
乞丐	-10.7788
敕呪	-10.7789
誨	-10.779
舜	-10.7791
棋	-10.7792
駡	-10.7792
拒	-10.7793
抄	-10.7793
俾	-10.7794
亦非	-10.7794
戎	-10.7795
嚤	-10.7795
淮	-10.7795
須要	-10.7795
神良	-10.7796
竝	-10.7797
叩齒十二通	-10.7797
緯	-10.7798
巫	-10.7799
腸中	-10.7799
未生	-10.7799
棗膏	-10.7799
於世	-10.7802
紫清	-10.7802
相承	-10.7803
作末	-10.7804
輪回	-10.7804
豁落	-10.7805
所不及	-10.7805
煎取三升	-10.7806
善功	-10.7807
一卷上清	-10.7809
神名	-10.7811
畢竟	-10.7812
遊宴	-10.7816
恭敬	-10.7816
增損	-10.7818
依舊	-10.7822
齋堂	-10.7826
目視	-10.7826
屬於	-10.7827
諸病	-10.7828
高真	-10.7829
展轉	-10.7831
立至	-10.7833
中國	-10.7835
大聖衆	-10.7843
四圍	-10.7845
大都	-10.7847
勤苦	-10.7856
萬種	-10.7857
所犯	-10.7857
對曰	-10.7858
濟度	-10.786
混元	-10.786
藥成	-10.7861
轉相	-10.7863
天命	-10.787
共生	-10.7873
安置	-10.7875
每服三錢	-10.7877
夏月	-10.7878
相教	-10.7879
迴光	-10.7888
香附子	-10.7888
神兵	-10.7889
正神	-10.7901
行法	-10.7903
而止	-10.7909
煑取二升半	-10.791
至理	-10.7917
漏蘆	-10.7918
烈火	-10.7919
在乎	-10.7921
救苦	-10.7923
我心	-10.7925
欲令	-10.7926
時節	-10.7933
以此爲	-10.7933
雷部	-10.7934
白茯苓	-10.7937
九重	-10.794
方燒	-10.7946
靈根	-10.7953
同學	-10.7953
五年	-10.7956
乃後	-10.7958
斗中	-10.7958
上造	-10.7963
玉樓	-10.7963
當歸桂心	-10.7966
却用	-10.7975
次内	-10.7976
同卷	-10.7979
龍門	-10.798
勤修	-10.7986
紫光	-10.7987
心性	-10.7989
霹靂震	-10.7996
行香	-10.7997
如此者	-10.7997
平平	-10.7997
内消	-10.7997
惺	-10.8002
方生地黄	-10.8004
示衆	-10.8005
不夜	-10.8011
掌中	-10.8018
燦燦	-10.8022
真火	-10.8026
以水二斗	-10.8026
滅盡	-10.8028
三丸	-10.8038
常樂	-10.8039
成形	-10.804
出現	-10.8042
教戒	-10.8045
真實	-10.8048
三拜	-10.8051
天柱	-10.8051
四極	-10.8052
元來	-10.8057
亦不得	-10.8062
者天之	-10.8063
善德	-10.8069
化身	-10.807
善縁	-10.8079
吸入	-10.8086
臘月猪脂	-10.8093
磬	-10.8097
竹筒	-10.8097
矣然	-10.8098
文辭	-10.8099
趾	-10.8102
揩	-10.8103
筒	-10.8104
年命	-10.8105
罏	-10.8105
㤥	-10.8106
澡	-10.8107
捻	-10.8107
癃	-10.8109
不能行	-10.811
秃	-10.811
至心稽首	-10.811
暈	-10.8111
九千	-10.8111
燦爛	-10.8111
戸	-10.8112
蝸	-10.8112
擾擾	-10.8112
晡	-10.8113
藏頭	-10.8113
窈	-10.8114
獵	-10.8115
拾	-10.8115
矢	-10.8115
鍊就	-10.8115
伎	-10.8115
玩	-10.8116
叟	-10.8116
戹	-10.8117
馭	-10.8117
蹈	-10.8118
肩背	-10.8118
歸命	-10.8118
衫	-10.8118
漉	-10.8118
足厥陰	-10.8119
挂	-10.812
涼	-10.812
穰	-10.812
罕	-10.812
罪無	-10.812
噠	-10.8121
尺澤	-10.8121
邪魔	-10.8122
阜	-10.8123
桐	-10.8123
嬌	-10.8124
落魄	-10.8124
瑶池	-10.8125
牡丹皮	-10.8125
慳貪	-10.8126
俏	-10.8127
環墻	-10.8128
允	-10.8128
腎水	-10.8129
取三升分三服	-10.8129
壑	-10.8129
熒惑	-10.813
俄	-10.813
慚	-10.813
騰騰	-10.8131
不肖	-10.8131
都仙	-10.8132
綴	-10.8132
桃花	-10.8132
輒有	-10.8132
偉	-10.8133
陛	-10.8134
醴	-10.8135
功過	-10.8135
各隨	-10.8137
日月星宿	-10.8137
灸三壯	-10.8138
木蘭	-10.8139
太上洞玄靈寳	-10.8139
祖宗	-10.814
安穩	-10.8141
瓊林	-10.8144
本分	-10.8148
丹書	-10.8148
甲申	-10.8152
急速	-10.8156
坎離	-10.8158
當歸芎藭	-10.8159
大將軍敕	-10.8161
號爲	-10.8162
妄想	-10.8168
福慶	-10.817
某日	-10.8174
焚之	-10.8175
浸一宿	-10.8183
登州	-10.8184
傍人	-10.8188
取一斗	-10.819
紫庭	-10.8192
金液	-10.8192
星辰	-10.8195
赤鳳	-10.8196
大功	-10.8196
敬信	-10.8197
右八味㕮咀	-10.8199
中央黄	-10.82
産婦	-10.8201
種民	-10.8205
石門	-10.8205
腹中痛	-10.8208
記名	-10.821
消滅	-10.8213
水煑	-10.8215
水二升	-10.8218
了然	-10.8227
視其	-10.8229
毒用	-10.8231
隻	-10.8232
殺傷	-10.8234
無由	-10.8238
以水四升	-10.8243
治傷寒	-10.8246
玉虚	-10.8251
便把	-10.8251
玉籙	-10.8254
遇重陽	-10.8255
各等分	-10.8258
律令勑	-10.8259
眞實	-10.8261
身重	-10.8261
房中	-10.8263
半去滓	-10.8263
有毒	-10.827
救度	-10.8272
日益	-10.8274
真聖	-10.8277
府右	-10.8281
三枚	-10.8281
二十四氣	-10.8283
遇風仙	-10.8285
此疾	-10.8288
微言	-10.8289
冠服	-10.829
醫者	-10.8292
不可復	-10.8294
消盡	-10.8294
不測	-10.8298
流入	-10.8299
甘露	-10.8313
不瘥更	-10.8319
九曲	-10.8323
十一月	-10.8324
三十丸	-10.8326
官屬	-10.8327
法海	-10.8327
唯唯右	-10.8327
浄清	-10.8328
等分爲末	-10.8331
何可	-10.8334
祥光	-10.8341
者見世	-10.8342
幽冥	-10.8344
二升半	-10.8344
意馬	-10.8348
一斗二升	-10.8351
今且	-10.8354
分三服治	-10.8377
變爲	-10.8385
一周	-10.8389
姹	-10.8401
向東	-10.8404
服一合	-10.8409
顆	-10.8411
高仙	-10.8412
稍加至	-10.8413
可畏	-10.8417
赤明	-10.842
黙念	-10.8423
中封	-10.8425
肛	-10.8428
風邪	-10.8435
山海	-10.8436
榆	-10.8446
魚際	-10.8449
君王	-10.845
羌活	-10.8452
蘿	-10.8452
毬	-10.8452
慄	-10.8453
觜	-10.8455
悠悠	-10.8455
咳逆	-10.8456
毀	-10.8457
令兒	-10.8457
儉	-10.8457
噉	-10.8457
圃	-10.8457
屯	-10.8458
奈	-10.8458
窠	-10.8458
蝎	-10.8458
太倉	-10.8459
麻黄湯	-10.8459
分四服日三夜一	-10.8459
璇璣	-10.846
絶盡	-10.846
槌	-10.846
雹	-10.8461
蹉	-10.8461
邇	-10.8461
怖	-10.8462
亟	-10.8462
帳	-10.8463
熾	-10.8463
隂陽之	-10.8463
熊	-10.8463
衞	-10.8464
斡旋	-10.8465
寓	-10.8466
厮	-10.8467
蔡	-10.8467
亢	-10.8468
澗	-10.8468
撲	-10.8468
泄痢	-10.8469
寇	-10.8469
屠	-10.847
腎輸	-10.8471
指揮	-10.8471
𣑽	-10.8472
昂	-10.8473
協	-10.8474
猛烈	-10.8474
變神	-10.8475
性靈	-10.8475
架	-10.8476
抹	-10.8476
留人門	-10.8476
願念	-10.8479
無罣礙	-10.8479
幾箇	-10.8482
五里	-10.8484
非人	-10.8487
門下	-10.8489
未解	-10.8491
憎愛	-10.8491
閑裏	-10.8493
飢寒	-10.8494
江海	-10.8494
塵事	-10.8495
柰何	-10.8499
輕慢	-10.85
仍以	-10.8501
獨自	-10.8501
紅霞	-10.8503
二銖	-10.8505
羊腎	-10.8505
劇者	-10.8505
做箇	-10.8506
占得	-10.8507
消散	-10.8509
太極真人曰修靈寳飛行三界之道當	-10.8513
間使	-10.8517
九天之上	-10.8519
渾身	-10.8531
侍香	-10.8533
乾薑桂心	-10.8534
與道合	-10.8536
島	-10.8538
清香	-10.8543
相親	-10.8549
召將	-10.8551
風眩	-10.8552
三景	-10.8554
北海	-10.8557
天君言	-10.856
貪求	-10.8561
備急	-10.8567
水府	-10.8573
風狂	-10.8584
大慈	-10.8587
杳冥	-10.859
南斗	-10.8592
五行之	-10.8598
流通	-10.8598
同流	-10.8603
太守	-10.8603
漸加	-10.8609
章門	-10.8609
桂枝湯	-10.8611
依前	-10.8612
没藥	-10.8613
衆真	-10.8616
今天師	-10.8618
西華	-10.8627
立春	-10.863
惡血	-10.8633
難知	-10.8637
昔日	-10.8637
門開	-10.864
志堅	-10.8648
神聖	-10.8656
學人	-10.8657
運雷	-10.8658
百會	-10.8659
第十三	-10.8661
六十日	-10.8665
香爐	-10.8675
右六味㕮咀以	-10.8675
桂枝	-10.8677
加至二十丸	-10.8681
右十四味	-10.8682
滅度	-10.8683
過度	-10.8684
無疑	-10.8684
不敢有	-10.869
洞徹	-10.869
右六味治下篩	-10.8693
右十二味	-10.8698
本根	-10.8698
具說	-10.8706
右六味㕮咀	-10.8708
百邪	-10.8714
百鬼	-10.8715
調服	-10.8716
愚迷	-10.872
相類	-10.8721
人身中	-10.8725
無染	-10.8728
度日	-10.8742
已後	-10.8747
七遍	-10.8753
一齊	-10.8753
煩心	-10.8754
不欺	-10.8757
數百	-10.8763
但見	-10.8763
三種	-10.877
發動	-10.8771
取瘥	-10.8775
甚則	-10.8779
背上	-10.8782
號令	-10.8783
不昧	-10.8787
止痛	-10.8792
捺	-10.8792
宿上治	-10.8792
百藥	-10.8792
我來	-10.8794
丞	-10.8796
䵟	-10.8797
蒴藋	-10.8798
痹	-10.8801
甆	-10.8804
瘢	-10.8805
吹入	-10.8806
狸	-10.8807
天中有	-10.8808
黑色	-10.8809
扁鵲	-10.881
窒	-10.8813
貝	-10.8813
諧	-10.8813
旋復花	-10.8814
敵	-10.8814
夾脊	-10.8815
白石脂	-10.8815
宿字君	-10.8815
哽	-10.8815
昭然	-10.8816
靈物	-10.8816
宇宙	-10.8817
迭	-10.8818
手少陰	-10.8818
棺	-10.8819
虎狼	-10.8819
白芨	-10.8819
分爲三服	-10.8819
猪蹄	-10.882
餳	-10.8821
勑煞攝	-10.8822
糜	-10.8823
飆	-10.8823
笠	-10.8823
地祇	-10.8824
敕煞攝	-10.8824
鐺	-10.8824
緘	-10.8825
)▲(	-10.8825
右十一味㕮咀	-10.8825
腠理	-10.8826
薩	-10.8826
悠	-10.8827
眇	-10.8827
飡	-10.8827
涓	-10.8827
狼牙	-10.8827
服五合	-10.883
哮吼	-10.883
嚩	-10.8831
傚	-10.8831
吊	-10.8831
霄漢	-10.8833
柯	-10.8834
有膿	-10.8834
耍	-10.8835
刊	-10.8835
尹喜	-10.8835
支滿	-10.8839
火坑	-10.8841
朝夕	-10.8842
碧霄	-10.8844
隴州	-10.8845
人民萬物	-10.8846
目赤	-10.8846
江河	-10.8848
付歸	-10.8848
知空	-10.8849
周旋	-10.8851
天猷	-10.8853
冠帶	-10.8856
凡諸	-10.8856
大洞真經	-10.886
世情	-10.886
志意	-10.8861
十數	-10.8862
形體	-10.8863
聽予	-10.8864
味辛	-10.8864
深師	-10.8866
頤神	-10.8866
授以	-10.8867
休要	-10.8868
登壇	-10.887
永保	-10.8876
羽蓋	-10.8877
霞光	-10.8878
服餌	-10.8881
玄宫	-10.8882
福堂	-10.8883
起雷	-10.8884
只爲	-10.8887
空腹服	-10.8888
不得妄	-10.8889
光射	-10.889
先須	-10.89
只要	-10.8903
安危	-10.8904
甘草桂心	-10.8907
家家	-10.8908
水七升	-10.8916
紫微宫	-10.8918
由此	-10.8919
立效	-10.8925
諸般	-10.8927
金龍	-10.8927
竹瀝湯	-10.8928
造物	-10.8932
致雨	-10.8933
冬瓜	-10.8933
五戒	-10.8934
洞達	-10.8939
高卧	-10.8941
讀經	-10.8942
舌下	-10.8943
說破	-10.8944
百節	-10.8944
雷丸	-10.8945
八難	-10.8945
出塵	-10.8946
不畏	-10.895
刻書	-10.895
威光	-10.895
風痺	-10.8951
明鏡	-10.8953
既得	-10.8959
玉精	-10.8961
斬鬼	-10.8963
八味	-10.8964
枸杞根	-10.8966
光景	-10.8973
力行	-10.8974
自詠	-10.8976
痛處	-10.898
自古	-10.8981
受苦	-10.8981
容易	-10.8984
星斗	-10.8987
古文	-10.8987
欲絶	-10.8989
留心	-10.8997
重陽師父	-10.9
以粉	-10.9001
惟有	-10.902
下三寸	-10.9023
疔瘡	-10.9023
心腹痛	-10.9024
玄珠	-10.9024
尚書	-10.9028
之人也	-10.9033
癘	-10.9033
眞箇	-10.9045
隨分	-10.9046
微温	-10.9049
咽中	-10.905
以水九升煑	-10.9067
明燈	-10.9067
山居	-10.907
則易	-10.907
浮大	-10.9072
解毒	-10.9076
神舟	-10.9082
十惡	-10.9085
東方青	-10.909
服三合	-10.9092
俗事	-10.9096
日久	-10.9097
小便難	-10.9099
高明	-10.91
取四升	-10.9105
兩脇	-10.9116
祖炁	-10.9122
芍藥甘草	-10.9125
塗之又方	-10.9129
已知之矣	-10.9134
猿馬	-10.9135
五篇	-10.9136
群仙	-10.9145
薑汁	-10.915
以水七升煑取三升	-10.915
月建	-10.9153
青衣	-10.9154
治一切	-10.9154
見前	-10.9155
隨吾	-10.9155
芥	-10.9162
某人	-10.9169
萬邪	-10.9173
喎	-10.9175
厠	-10.9176
奄	-10.9177
摶	-10.9182
鴈	-10.9183
惕	-10.9184
青童君	-10.9185
蜚	-10.9185
俞	-10.9185
叛	-10.9186
翛然	-10.9186
墳	-10.9187
牡	-10.9188
何首烏	-10.9188
疹	-10.9188
燒作灰	-10.9189
動揺	-10.919
佗	-10.919
琢	-10.9191
煩疼	-10.9191
䇿	-10.9191
凛	-10.9192
庫	-10.9192
男左女右	-10.9192
酒一升	-10.9192
籬	-10.9193
宥	-10.9193
辰戌	-10.9194
右二味以	-10.9194
渚	-10.9194
腰脚	-10.9195
雲朋霞友	-10.9195
滅形	-10.9195
隙	-10.9196
勵	-10.9196
威神	-10.9197
懺	-10.9198
鍜鍊	-10.92
如彈丸	-10.92
醴泉	-10.92
上相青童君	-10.92
𥘉	-10.9201
地軸	-10.9201
瞑目	-10.9202
癩	-10.9205
琅玕	-10.9207
蠅	-10.9207
無上祕要卷之	-10.9208
三天正法	-10.9208
七祖父母	-10.921
堪歎	-10.9215
洪波	-10.9218
參差	-10.9221
實核	-10.9221
幾人	-10.9223
三冬	-10.9226
玉珮	-10.9229
不效	-10.923
假令	-10.923
天蓬呪	-10.9234
水煎服	-10.9236
切痛	-10.9246
二十年	-10.9253
方黄連	-10.9255
日二服	-10.9261
氣衝	-10.9261
筋急	-10.9262
雲母	-10.9267
滅亡	-10.9267
山嶽	-10.9276
南方火	-10.9279
不可妄	-10.9287
右十味㕮咀以水一斗	-10.9287
往還	-10.9295
瓊宫	-10.93
千千	-10.9303
心灰	-10.9311
取北炁	-10.9313
雷震	-10.9316
當歸芍藥	-10.9318
臣某	-10.9319
注云	-10.932
廣寒	-10.9321
祥瑞	-10.9326
碧天	-10.9328
唯唯今	-10.933
熱盛	-10.9331
咎在	-10.9331
消除	-10.9334
風伯	-10.9335
其音	-10.9341
賊風	-10.9342
灰心	-10.9343
之氣也	-10.9349
開化	-10.9354
遠遊	-10.9361
耳後	-10.9364
也真人知之耶唯唯	-10.9365
清虛	-10.9367
痰飲	-10.937
徒勞	-10.9375
說與	-10.9379
也比若	-10.9379
服一丸	-10.938
身輕	-10.9388
此三者	-10.9389
吒唎	-10.9391
何事	-10.9396
服七丸	-10.9401
蜜和丸	-10.9406
只用	-10.9407
腹大	-10.9408
崑崙山	-10.9411
孫眞人備急千金要方卷之	-10.9423
則愈	-10.9437
彼此	-10.944
聖王	-10.9444
長年	-10.9449
名之爲	-10.9451
濕痺	-10.9451
相欺	-10.9463
雞屎	-10.9475
天下人	-10.9478
惡肉	-10.9493
至于	-10.9498
本願	-10.9498
胞中	-10.9502
聰	-10.9512
這般	-10.9521
治下篩以	-10.9522
外衆	-10.9525
瓜子	-10.9529
天庭	-10.9534
龍王	-10.9537
並是	-10.9537
輭	-10.9539
婦人産後	-10.9541
足大趾	-10.9547
㿗	-10.9548
諸真人	-10.9549
𡅗	-10.9553
反逆	-10.9554
徃	-10.9555
齗	-10.9556
樣	-10.9557
嗌	-10.9559
煖	-10.9562
五彩	-10.9564
臼	-10.9565
惰	-10.9565
陋	-10.9565
夷狄	-10.9566
顱	-10.9566
訾	-10.9568
慨	-10.9569
吻	-10.957
城郭	-10.9571
欵冬花	-10.9571
防葵	-10.9572
員	-10.9573
恥	-10.9573
痂	-10.9573
客忤	-10.9574
隴	-10.9574
足陽明	-10.9574
眄	-10.9574
猥	-10.9574
變怪	-10.9575
仇	-10.9575
詰	-10.9576
蟹	-10.9576
匙	-10.9576
掠	-10.9577
鷹	-10.9577
魘	-10.9577
迦	-10.9577
肘後方云	-10.9578
馳騁	-10.9578
右八味㕮咀以	-10.9579
熱熱則	-10.9579
磚	-10.958
囬	-10.958
天之道	-10.958
鍛鍊	-10.9581
心田	-10.9581
太過	-10.9582
娑	-10.9582
囉哩㖫哩囉㖫	-10.9583
盻	-10.9583
陌	-10.9584
嫩	-10.9585
㦸	-10.9585
謌	-10.9585
秦川	-10.9586
潑	-10.9586
紏	-10.9586
券	-10.9586
𥿄朱書	-10.9586
敏	-10.9587
馥郁	-10.9587
服二合	-10.9588
酒肉	-10.9588
筠	-10.9588
成膿	-10.9588
貟	-10.9588
江湖	-10.9588
帽	-10.9588
裴	-10.9589
寂寥	-10.959
夜光	-10.9591
年月日時	-10.9593
損人	-10.9595
毛髮	-10.9596
受之於	-10.9596
擲火	-10.9596
區	-10.9596
期門	-10.9597
危亡	-10.9598
木通	-10.96
者早已成真道	-10.9601
合擣	-10.9601
芥子	-10.9602
松峰	-10.9603
虚幻	-10.9608
墮落	-10.9609
來降	-10.9609
無差	-10.9612
二七枚	-10.9615
動摇	-10.9617
超三界	-10.9618
速降臨	-10.9621
太霄	-10.9621
血不止	-10.9624
華池	-10.9626
冤結	-10.963
贈丹陽	-10.9632
四十五	-10.9634
天尊曰	-10.9649
身軀	-10.965
北炁	-10.9651
不拘時	-10.9652
九祖	-10.9656
符右符	-10.9666
取汗	-10.9668
赤腫	-10.9671
白石	-10.9675
惡物	-10.9683
釜中	-10.9684
正直	-10.9684
佳又方	-10.9688
滿口	-10.9689
和平	-10.9691
禍福	-10.9692
頓悟	-10.9692
飛符	-10.9693
冬月	-10.9694
本源	-10.9694
黄素	-10.9696
三上香	-10.9709
太極真人曰	-10.971
不朽	-10.9716
穀氣	-10.9728
怎得	-10.9734
子母	-10.9739
若干	-10.9739
勸君	-10.9744
青面	-10.9746
高皇	-10.9747
千丈	-10.9747
五霸	-10.9752
精誠	-10.9753
繒上	-10.9755
旋行	-10.976
玉户	-10.9761
但能	-10.9761
風波	-10.9761
十指	-10.9763
上廉	-10.9765
日三治	-10.9778
小便利	-10.9779
卷之三十	-10.9786
嶽先生	-10.9795
聞知	-10.9799
交結	-10.98
雖復	-10.9801
白附子	-10.9804
口吐	-10.9808
皇老	-10.9811
不曉	-10.9811
聲色	-10.9811
和調	-10.9819
以苦酒	-10.9826
短長	-10.9827
宿食	-10.9832
衝天	-10.9834
四司	-10.9836
當歸甘草	-10.9839
鍊成	-10.9841
再念	-10.9842
二十九	-10.9852
湯灸法	-10.9852
丸散	-10.9854
急捉	-10.9854
遂成	-10.9866
内容	-10.9876
劉公	-10.9879
萬不失一也	-10.9879
呪曰唵	-10.9885
風府	-10.9887
不倦	-10.9907
比若人	-10.9914
火裏	-10.9923
七聖	-10.9923
者死病人	-10.9925
百千	-10.993
泪	-10.9945
大法師	-10.9949
即消	-10.9954
宦	-10.9954
不拘	-10.9956
霓	-10.9957
迥	-10.996
拌	-10.9961
贰	-10.9963
其支者	-10.9963
搨	-10.9964
茫茫	-10.9965
曽	-10.9965
蒺藜子	-10.9965
商陸	-10.9965
凑	-10.9966
乘風	-10.9967
梧	-10.9967
有德之君	-10.9968
糯米	-10.9968
翊聖	-10.9968
雷霆都司	-10.9969
冗	-10.9969
蒿	-10.997
剥	-10.997
腿	-10.997
暨	-10.997
覆取汗	-10.997
扁鵲云	-10.9971
圎	-10.9971
紐	-10.9971
鎚	-10.9972
祅	-10.9972
所以者何	-10.9972
懊	-10.9973
根皮	-10.9973
菉豆	-10.9975
嬉	-10.9975
茹	-10.9975
伺	-10.9975
曲池	-10.9975
花開	-10.9976
頸項	-10.9976
萬二千國	-10.9976
驛	-10.9977
各從其	-10.9978
癰疽發背	-10.9979
哆	-10.9979
茵蔯	-10.9979
不可思議	-10.9979
韜	-10.9979
治虛勞	-10.998
熙	-10.998
䟽	-10.9981
治上應	-10.9982
葷	-10.9982
瑕	-10.9982
叩頭搏頰各	-10.9983
伶	-10.9983
綸	-10.9983
販骨	-10.9983
獅子	-10.9984
飛尸	-10.9984
姜三片	-10.9984
汞鉛	-10.9984
咭	-10.9985
煎取一升	-10.9986
無從得	-10.9986
內	-10.9987
椿	-10.9987
閏	-10.9988
遨遊	-10.9988
疾疾	-10.9988
乹	-10.9989
儘	-10.999
苦惱	-10.9992
休歇	-10.9993
圈	-10.9993
拂袖	-10.9993
振寒	-10.9994
苦樂	-10.9995
四斗	-10.9996
焙乾	-10.9999
欲要	-10.9999
脉微	-11
奪筭	-11
副帥	-11
工夫	-11.0001
一枝	-11.0003
破壞	-11.0006
專心	-11.0007
秀才	-11.001
深淺	-11.001
今報其	-11.0013
輕賤	-11.0014
性燭	-11.0015
有驗	-11.0015
飛揚	-11.0019
癤	-11.0019
劫運	-11.002
厥陰	-11.002
夜卧	-11.0023
恰如	-11.0024
氣衰	-11.0038
和塗之	-11.0039
孔穴	-11.004
老小	-11.0041
車馬	-11.0048
以是爲	-11.005
服此藥	-11.0054
天地之性	-11.0055
沉香	-11.0056
羽衣	-11.0057
兵馬	-11.0058
如前法	-11.0061
斷穀	-11.0064
龍漢	-11.0067
卷之十	-11.0068
六寸	-11.0068
餘疾	-11.0077
未曾	-11.008
舌本	-11.008
尸蟲	-11.0081
紫晨	-11.0083
如雞子	-11.0089
煞鬼	-11.0094
湯治傷寒	-11.0096
烏藥	-11.0103
開闡	-11.0111
前谷	-11.0111
丹臺	-11.0111
石室	-11.0118
不省	-11.0118
上一寸	-11.0121
小品	-11.0125
太初	-11.013
勸化	-11.013
刀山	-11.0146
狂言	-11.0154
一握	-11.0156
客熱	-11.0165
衂	-11.0167
紅光	-11.017
馬蹄	-11.0173
五十丸	-11.0175
太无	-11.0176
惡鬼	-11.0182
某等	-11.0183
開張	-11.019
受持	-11.0203
變動	-11.0206
三部脉	-11.0211
道德仁	-11.0214
凶事	-11.0215
六十四	-11.0224
分三服日三	-11.0229
科戒	-11.024
群生	-11.0243
右十五味㕮咀	-11.0245
水一斗	-11.0245
五十日	-11.0247
罪過	-11.0253
圓滿	-11.0274
密妙	-11.0285
太帝君	-11.0286
右㕮咀每服	-11.0309
皇道君	-11.0309
將興	-11.0315
赤黑	-11.0328
只在	-11.0336
玉章	-11.0341
三七日	-11.0359
臨泣	-11.0367
賁	-11.0375
跟	-11.0375
鳩尾	-11.0376
瓜蒂	-11.0379
泔	-11.038
鶯	-11.038
地膚子	-11.0384
南北	-11.0384
耆	-11.0384
右九味㕮咀以水一斗	-11.0386
財貨	-11.0388
黄鶴洞中仙	-11.0388
蔚	-11.0389
魒	-11.0389
右十七味	-11.0389
頒	-11.039
淩	-11.0391
鑽	-11.0391
幅	-11.0391
縷	-11.0391
顚倒	-11.0391
一日一夜	-11.0391
十二時中	-11.0392
濱	-11.0393
百草霜	-11.0394
邦	-11.0394
旅	-11.0395
插	-11.0395
攀縁	-11.0396
誑	-11.0396
焦枯	-11.0396
浮世	-11.0397
盂	-11.0398
揖	-11.0398
荆瀝	-11.0398
另	-11.0398
銘	-11.0399
鈔	-11.0399
唯願	-11.0399
奏地仙得道上學之人言名於四天之王	-11.0399
愛憎	-11.0399
纓	-11.0399
徐徐	-11.0399
上德之君	-11.04
南極上元君	-11.04
瑩徹	-11.0401
濃煑	-11.0401
三天玉童	-11.0401
蓑	-11.0401
弼	-11.0402
半盞	-11.0402
紹	-11.0402
頽	-11.0403
莊嚴	-11.0403
昇玄經云	-11.0404
丹陽次韻	-11.0405
所部	-11.0405
相搏	-11.0406
牽牛	-11.0406
裔	-11.0407
嶂	-11.0408
曲泉	-11.0408
三元玉檢	-11.0409
兀	-11.0411
内傳云	-11.0412
爰	-11.0413
肝輸	-11.0414
飲刀圭	-11.0414
施惠	-11.0415
凡軀	-11.0415
副將	-11.0415
後生者	-11.0417
養浩	-11.0419
興隆	-11.0419
浮沉	-11.0421
玉蘂	-11.0421
春三月	-11.0427
仰卧	-11.0429
到蓬萊	-11.0435
迸出	-11.0435
青鸞	-11.0437
功行滿	-11.0438
大赤天	-11.044
西城	-11.0447
做神仙	-11.0448
太極眞人	-11.0452
幻化	-11.0452
悔過	-11.0457
家緣	-11.0458
雲集	-11.046
卒死	-11.046
午時	-11.0465
變形	-11.0467
千杵	-11.0472
論曰夫	-11.0476
始學	-11.0478
良縁	-11.0479
光澤	-11.0498
衝開	-11.0501
七曜	-11.0502
以何爲	-11.0504
慶雲	-11.0505
柔和	-11.0507
今天上	-11.0512
元帥名	-11.0515
白芍藥	-11.0521
上帝勑	-11.0525
下廉	-11.0526
凡民	-11.0527
幸遇	-11.0528
過去生	-11.0529
赴蓬萊	-11.0542
世夢	-11.0544
中經曰	-11.0555
命屬	-11.0559
莫知	-11.056
太平氣	-11.0563
兒女	-11.0563
日新	-11.0563
上管	-11.0564
照破	-11.0565
處無爲	-11.0567
乾燥	-11.0569
服御	-11.057
師尊	-11.0571
羣生	-11.0574
故古者聖賢	-11.0577
宿世	-11.0579
勞宫	-11.0581
玉簡	-11.0585
王侯	-11.0586
非獨	-11.0588
四邊	-11.0588
不懈	-11.0591
從容	-11.0594
可覩	-11.0596
五濁	-11.0603
不詳	-11.0608
獨立	-11.061
半斤	-11.0614
右五味爲末	-11.0616
十戒	-11.0616
詣師	-11.0619
悉除	-11.0632
臨頭	-11.0634
修習	-11.0638
漏下	-11.0645
光彩	-11.0648
一切諸	-11.065
山河	-11.0662
仙卿	-11.067
持齋	-11.0676
年少	-11.0693
動止	-11.0696
衆妙	-11.0699
清旦	-11.07
炒令	-11.0706
手把	-11.0724
兆民	-11.0726
之長也	-11.0734
光耀	-11.0739
深計	-11.0741
以水七升煑	-11.0767
服十丸日三	-11.0778
閑遊	-11.078
烊	-11.0791
臑	-11.0793
無上道	-11.0807
馨	-11.0809
宛宛中	-11.081
煑取三升分四服	-11.0811
動一止	-11.0812
躑躅	-11.0812
宂	-11.0813
狹	-11.0814
尻	-11.0814
忻	-11.0815
禾	-11.0815
歴	-11.0816
秉	-11.0817
悌	-11.0818
蔞	-11.0819
住行坐卧	-11.0819
忙忙	-11.0821
皇后	-11.0821
麥糵	-11.0822
西江月	-11.0823
如棗核大	-11.0823
軒轅	-11.0825
悴	-11.0825
垂拱	-11.0825
善哉子之言也	-11.0825
七徧	-11.0826
綫	-11.0827
恢	-11.0827
沉淪	-11.0829
濫	-11.0829
小便赤黄	-11.083
耽	-11.0831
碑	-11.0831
烏兔	-11.0831
蓼	-11.0831
功成行滿	-11.0832
竟其天年	-11.0832
髣髴	-11.0832
口訣云是	-11.0832
夏至之日	-11.0833
滄海	-11.0833
該	-11.0834
道學傳第	-11.0834
淬	-11.0834
踪	-11.0834
倣	-11.0834
優劣	-11.0835
擂	-11.0835
貸	-11.0835
樵	-11.0836
傻	-11.0836
鋭	-11.0836
緒	-11.0836
原缺	-11.0837
泊	-11.0837
竇	-11.0837
援	-11.0837
貧富	-11.0838
肛門	-11.0838
金臺	-11.0838
陰痿	-11.0839
賽	-11.084
莫測	-11.084
飛行羽經	-11.084
冬至之日	-11.0841
誌	-11.0842
四溟	-11.0843
凝滯	-11.0844
誰肯	-11.0845
鳩	-11.0845
厚薄	-11.0845
瓊瑶	-11.0846
魁𩲃𩵄䰢魓𩳐魒	-11.0847
營衛	-11.0848
進一服	-11.0852
地戸	-11.0852
悮	-11.0852
宗祖	-11.0853
雞子白	-11.0856
這迴	-11.0857
秋月	-11.0857
貫衆	-11.0857
賁豚	-11.0857
真誥	-11.0858
右三味爲末	-11.0862
研細	-11.0865
鼻塞	-11.0865
玉札	-11.0866
交接	-11.0869
雙關	-11.0872
接引	-11.0873
第十六	-11.0877
大敦	-11.0878
竹皮	-11.0878
瓊臺	-11.0879
慎勿	-11.0882
玉兔	-11.0885
悲傷	-11.0886
視聽	-11.0887
絶慮	-11.0898
即吐	-11.0901
部領	-11.0906
右十二味㕮咀以水一斗	-11.0909
京師	-11.091
姹嬰	-11.0914
百五十	-11.092
部界	-11.0921
童便	-11.0921
仙公曰	-11.0922
鄉里	-11.0931
悶亂	-11.0932
弘道	-11.0934
大蒜	-11.0939
産難	-11.0944
虚堂	-11.0945
隨機	-11.0946
洞室	-11.0963
九江	-11.0968
人參茯苓	-11.0982
鼻口	-11.0983
分付	-11.0985
有一人	-11.0987
豈能	-11.0999
不下食	-11.1005
南華	-11.1015
心悶	-11.1016
罪根	-11.1017
騰空	-11.1031
黄河	-11.1036
四十八	-11.1039
驅邪	-11.1044
轉轉	-11.1046
而已矣	-11.1051
煑取五	-11.1051
般若	-11.1054
裏急	-11.1062
妙訣	-11.1062
細辛桂心	-11.1065
膈上	-11.1074
鹽湯	-11.1086
青皮	-11.1098
依科	-11.1101
六府	-11.1102
不敢妄	-11.1102
第十四	-11.1115
粟米	-11.1116
右四味爲末	-11.1117
勞損	-11.1119
十載	-11.1138
厭世	-11.1142
此三人	-11.1156
人參當歸	-11.1162
逍遥坦蕩	-11.1166
因由	-11.1168
腸癰	-11.1172
九尺	-11.118
無虧	-11.1185
八寸	-11.1199
月照	-11.1202
豹	-11.1218
炭火	-11.1218
三十壯	-11.1232
者非也	-11.1233
酒二升	-11.1235
刄	-11.1245
以爲常	-11.1246
椎下兩傍各一寸半	-11.125
聦	-11.1257
𠔃	-11.1257
萊	-11.1258
缾	-11.1258
瘤	-11.126
使者符	-11.1261
右手劒訣	-11.1263
交會	-11.1265
瘈瘲	-11.1266
瘴	-11.1266
鍋	-11.1268
琉璃	-11.1268
鈍	-11.127
娱	-11.127
右十九味	-11.1271
萍	-11.1271
決	-11.1272
酆	-11.1273
搶	-11.1273
稷	-11.1275
镇	-11.1276
彼岸	-11.1276
募	-11.1276
此其致也	-11.1277
炓	-11.1277
縹緲	-11.1277
君頭建	-11.1278
大小便不通	-11.1279
臓	-11.1281
急急如律令右呪畢	-11.1281
憩	-11.1281
陜	-11.1282
扉	-11.1282
炎帝	-11.1282
匡	-11.1282
取七升	-11.1282
鸞鶴	-11.1283
鳳凰	-11.1283
欄	-11.1283
寵辱	-11.1283
郡縣	-11.1283
躋	-11.1284
超彼岸	-11.1284
戍	-11.1285
稜	-11.1285
閼	-11.1285
影響	-11.1285
者以其	-11.1285
拄	-11.1287
勦	-11.1287
零陵香	-11.1287
太霄琅書	-11.1287
儲	-11.1289
鳯	-11.1289
足少陽	-11.1289
兵革	-11.129
滚	-11.129
免輪回	-11.129
奔波	-11.1291
牢獄	-11.1291
春分之日	-11.1292
恭惟某	-11.1292
潤澤	-11.1293
怨咎	-11.1294
么	-11.1294
方寸七日三	-11.1295
卉	-11.1295
哪	-11.1295
鈺	-11.1295
太𡻕	-11.1296
黄𥿄朱書	-11.1296
丙午	-11.1299
狂走	-11.1299
烏龜	-11.1301
詢	-11.1301
建中湯	-11.1302
察察	-11.1302
雞鳴	-11.1303
甲寅	-11.1306
𢬵	-11.1306
各得其	-11.1307
令烊	-11.1307
丞相	-11.1307
宫右在	-11.1308
昊天	-11.1313
珍寳	-11.1316
黄𥿄	-11.1316
飛天神王	-11.1318
貪財	-11.132
去殻	-11.133
雷兵	-11.133
建齋	-11.1331
細研	-11.1333
止渴	-11.1334
輕粉	-11.1334
謹謹	-11.1335
用此方	-11.1336
打坐	-11.1336
鬼魅	-11.1339
專專	-11.134
脅下	-11.1341
不能飲食	-11.1342
思量	-11.1342
不得眠	-11.1343
贈李	-11.1348
雲輿	-11.1348
内廉	-11.1355
衰老	-11.1356
手脚	-11.1376
鼎内	-11.1376
壺天	-11.1386
昇降	-11.139
本末	-11.1391
渴飲	-11.1393
欲界	-11.14
大抵	-11.1403
虎骨	-11.1405
日三夜二	-11.1413
高士	-11.1419
往往	-11.142
黄泉	-11.1425
棗核	-11.1433
勿失	-11.1433
横文	-11.1437
知友	-11.1442
驅使	-11.1451
金烏	-11.1452
風池	-11.1456
此二人	-11.1457
靜定	-11.1465
認正	-11.1468
忽忽	-11.1469
紫虛	-11.1476
問修行	-11.1479
茯苓白术	-11.1497
象天地	-11.1499
迷惑	-11.1503
立瘥	-11.1515
無益於	-11.1522
物情	-11.153
小便赤	-11.1542
不欲食	-11.1545
也子知之耶唯唯	-11.1548
遞	-11.156
赤茯苓	-11.1581
一隻	-11.1581
天地中和	-11.1594
如梧桐子大	-11.16
昏迷	-11.1601
唯唯行	-11.1629
以水一升	-11.1629
㕮咀以水五升煑取二升	-11.1645
授兆	-11.1647
斬邪	-11.1651
陸地	-11.1665
列宿	-11.1681
濟物	-11.1709
但恐	-11.1723
糵	-11.1724
愼之愼之	-11.1725
焚香關召	-11.1726
秪	-11.1731
豐隆	-11.1731
萊州	-11.1737
酒服二十丸日	-11.1738
燃	-11.1739
汲	-11.1741
苑	-11.1742
以手按	-11.1742
酪	-11.1742
斟酌	-11.1742
百壯穴在	-11.1742
襲	-11.1743
離鄉	-11.1745
鉤	-11.1746
右七味㕮咀以水一斗	-11.1746
書辭而行之即太平矣	-11.1747
乍寒乍熱	-11.1748
文相似各從其俗記吾	-11.1748
䘮	-11.1748
痕	-11.1748
菩提	-11.175
楮	-11.175
是癇候	-11.1751
諳	-11.1751
麝	-11.1752
翮	-11.1753
寰	-11.1753
棟	-11.1753
鵬	-11.1754
甦	-11.1754
嚧	-11.1754
憒憒	-11.1754
一輪明月	-11.1754
供養三寳	-11.1755
集議	-11.1755
掃蕩	-11.1756
帙	-11.1756
瑟	-11.1756
襖	-11.1758
煎三上三下	-11.1758
嶮	-11.1759
岫	-11.1759
啞	-11.1759
噏	-11.1759
酸疼	-11.1759
別	-11.176
原赦	-11.176
脾臟	-11.176
誹謗	-11.1761
貽	-11.1761
收拾	-11.1761
錐	-11.1761
榆白皮	-11.1761
遽	-11.1762
流金火鈴	-11.1763
宏	-11.1763
諮	-11.1763
艱	-11.1763
捏	-11.1763
嚙	-11.1764
鬱鬱	-11.1764
麾	-11.1764
寔	-11.1765
擦	-11.1765
隴西	-11.1765
匱	-11.1765
霽	-11.1765
下古之人	-11.1766
暘谷	-11.1766
蝶	-11.1767
放蕩	-11.1767
粲	-11.1767
清風明月	-11.1768
姪	-11.1768
鵲	-11.1768
亘古	-11.1768
芒硝	-11.1769
宛轉	-11.1769
温瘧	-11.1769
塗炭	-11.1771
穩駕	-11.1772
悦	-11.1772
立冬之日	-11.1773
抗	-11.1774
𩀱手	-11.1775
猪膽	-11.1775
十丸日三	-11.1777
勳	-11.1778
怛	-11.1778
熟地黄	-11.1779
不驕樂天	-11.178
纖塵	-11.178
談笑	-11.178
立春之日	-11.1783
入齋堂	-11.1783
饑寒	-11.1784
手段	-11.1785
長跪言	-11.1786
酒服方寸匕日三	-11.1788
珍寶	-11.1789
割斷	-11.1789
雲篆	-11.1789
的端	-11.1789
三十六部	-11.179
交泰	-11.1791
流灾	-11.1792
五雷使者	-11.1795
桃皮	-11.1796
因循	-11.1798
世網	-11.1799
罪學上道	-11.18
孕婦	-11.1801
外臺作	-11.1802
黒暗	-11.1803
蒼耳	-11.1804
筋力	-11.1805
衆道友	-11.1806
香鑪	-11.1809
以綿裹	-11.1812
光芒	-11.1813
盛衰	-11.1814
疑惑	-11.1814
玄洲	-11.1817
變蒸	-11.1818
散治妊娠	-11.1821
劔訣	-11.1822
决定	-11.1825
决要	-11.1829
槐子	-11.1834
龜山	-11.1844
令匀	-11.1845
奪命	-11.1847
駕乘	-11.1849
蓬萊路	-11.185
唯唯行去	-11.185
恁時	-11.185
獨步	-11.185
留飲	-11.1853
第十五	-11.1855
採藥	-11.1857
靜室	-11.1857
桂心乾薑	-11.1862
保舉	-11.1868
右十五味	-11.187
逆順	-11.1871
猛悟	-11.1873
逃形	-11.1876
飛霞	-11.188
閉絶	-11.1883
雌一	-11.1884
口舌	-11.1889
何愁	-11.1891
經營	-11.1895
碧霞	-11.1895
右八味㕮咀以水一斗	-11.1898
日月星	-11.1901
長生路	-11.1903
關衝	-11.1912
獨坐	-11.1916
沸湯	-11.195
九孔	-11.198
以水六升煑取	-11.1983
日平旦	-11.1988
孝順	-11.1992
不肯力	-11.2013
千歲	-11.2016
千二百	-11.2017
令病人	-11.2022
欬唾	-11.2024
在臍下	-11.2037
故聖人	-11.2069
右十八味	-11.2097
存金光	-11.2115
金光炁	-11.2131
豈知	-11.2143
北酆	-11.2162
如梧子大	-11.2173
緩急	-11.2192
日一服	-11.2194
月十五日	-11.2214
癭	-11.2218
味甘平無毒	-11.2221
陽陵泉	-11.2229
腸澼	-11.2229
噤	-11.2233
駃	-11.2236
夾縛	-11.224
金剛大果	-11.224
牖	-11.2241
删	-11.2241
皎潔	-11.2242
太平經卷之四十	-11.2243
穴遠近法第	-11.2244
朋友	-11.2246
黯	-11.2247
癥瘕	-11.2247
犢	-11.2248
不嗜食	-11.2248
白頭翁	-11.2248
雞犬	-11.2249
乾㯃	-11.2249
溏	-11.2249
汨	-11.225
虢	-11.225
輟	-11.225
道教義樞	-11.225
𩔖	-11.225
角弓反張	-11.225
寤	-11.225
娘	-11.2251
葦	-11.2251
尾閭	-11.2251
幢	-11.2251
王不留行	-11.2252
中古以來	-11.2252
籟	-11.2253
薊	-11.2253
俠脊	-11.2253
趓	-11.2253
至心稽首正真三寳	-11.2253
季夏	-11.2253
薔薇根	-11.2253
庇	-11.2254
舌拄上腭	-11.2254
去皮尖	-11.2254
太谿	-11.2255
蔓	-11.2255
斂	-11.2255
蚌	-11.2256
芬芳	-11.2256
飄蓬	-11.2257
峻	-11.2257
斡	-11.2258
猴	-11.2258
秦椒	-11.2258
飴糖	-11.2259
諷	-11.2259
皈	-11.226
超造化	-11.226
摻	-11.226
驟	-11.226
兀兀	-11.226
撇	-11.226
䖏	-11.226
憂恚	-11.226
跋	-11.226
願國安寧	-11.226
簫	-11.2261
胷痺	-11.2261
祈禱	-11.2262
嵗	-11.2262
遺尿	-11.2263
恕	-11.2263
評	-11.2263
爲君長	-11.2263
掌握	-11.2263
困窮	-11.2263
楓	-11.2264
肇	-11.2264
衷	-11.2265
碾	-11.2266
太平氣至	-11.2266
汎	-11.2266
太素三元君	-11.2266
憚	-11.2266
逋	-11.2267
仗劒	-11.2267
沓	-11.2267
撚	-11.2268
擣碎	-11.2268
馥	-11.2268
太平經卷之一百	-11.2268
複	-11.2269
牙齒	-11.227
指撮	-11.227
攢聚	-11.227
銀霞	-11.227
丁寧	-11.2271
鉞	-11.2271
新鮮	-11.2272
忽爾	-11.2272
淨土	-11.2273
儻	-11.2273
圓融	-11.2276
歷劫	-11.2277
炎凉	-11.2277
急急奉北帝敕四聖令	-11.2279
金間隔	-11.2279
憲	-11.228
烈血	-11.228
脾輸	-11.228
破軍	-11.228
澄湛	-11.2282
繁華	-11.2283
昇騰	-11.2285
黄氣陽精	-11.2285
煞伐	-11.2289
名韁	-11.2293
祖師答曰	-11.2294
賊害	-11.2295
遭遇	-11.2298
朝昏	-11.23
乾姜	-11.23
胷膈	-11.2301
甲午	-11.2302
冬夏	-11.2302
如雞子大	-11.2303
大便難	-11.2303
方右以	-11.2303
多唾	-11.231
雷車	-11.2311
輕忽	-11.2312
棲雲	-11.2319
堂堂	-11.232
劫劫	-11.2321
萬般	-11.2325
之爲病	-11.2328
補肝	-11.2331
耳鳴	-11.2335
北辰	-11.234
大帝敕	-11.2342
幾度	-11.2346
天下之事	-11.236
冷淡	-11.2362
落花	-11.2372
齋官	-11.2374
備足	-11.2378
贈張	-11.2387
孤雲	-11.2388
昔年	-11.2391
生薑汁	-11.2398
疊書	-11.2408
孫眞人備急千金要方卷之三十	-11.2432
十壯	-11.2436
汁飲之	-11.2439
三四日	-11.2458
召雷神	-11.2475
净洗	-11.2486
孫眞人備急千金要方卷之二十	-11.2487
色之雲	-11.2514
遣呪	-11.2535
斗煑取	-11.2558
毎日	-11.256
贈劉	-11.2565
茯苓人參	-11.2574
煎取二升	-11.2584
張使者	-11.2598
服三十丸	-11.2607
吽吒	-11.2619
每服三十丸	-11.2621
一斗五升	-11.2623
恣逍遥	-11.2656
右五味治下篩	-11.2657
糊丸	-11.268
以水二升煑	-11.2697
豆汁	-11.2709
酒漬	-11.2731
外踝上	-11.2732
欬逆上氣	-11.2733
十七聖乘	-11.2735
胻	-11.2746
瞑	-11.2751
銚	-11.2752
月朔	-11.2757
刷	-11.2759
扁	-11.276
禁不可灸	-11.276
顖	-11.2762
螂	-11.2762
螫	-11.2763
莽	-11.2763
奎	-11.2765
瞖	-11.2765
陰陵泉	-11.2765
鱉	-11.2768
縱橫	-11.2769
級	-11.2769
嗜慾	-11.277
陟	-11.277
膊	-11.277
丘劉譚馬	-11.277
昏昏默默	-11.2771
支溝	-11.2772
廷	-11.2772
婢	-11.2773
黜	-11.2773
各異自有自然元氣隂陽與吾	-11.2773
隄防	-11.2773
忝	-11.2773
甕	-11.2774
叩齒三十六通	-11.2774
皇天后土	-11.2775
槎	-11.2775
笞	-11.2775
貪嗔	-11.2775
皰	-11.2776
孫眞人備急千金要方卷之五十	-11.2777
刳	-11.2779
憤	-11.2779
膳	-11.2779
戶	-11.278
衆賢共	-11.278
跂	-11.2781
巽戸	-11.2781
滄	-11.2781
恐懼	-11.2781
滅煙消	-11.2781
斗一座	-11.2781
溜	-11.2782
石榴皮	-11.2782
踰	-11.2782
憫	-11.2783
攘	-11.2783
取二升分三服	-11.2784
牡蒙	-11.2784
閃爍	-11.2785
天尊曰常當	-11.2785
饌	-11.2785
跛	-11.2786
輥	-11.2786
氣上衝	-11.2787
巢源	-11.2787
伏兔	-11.2787
白殭蠶	-11.2787
棘	-11.2787
蠢	-11.279
氛	-11.279
稼	-11.279
塡	-11.2791
山魈	-11.2791
悽	-11.2791
兩手雷局	-11.2791
逞	-11.2791
庶幾	-11.2792
苞	-11.2792
懈怠	-11.2792
太眞科	-11.2793
煆	-11.2793
寧耐	-11.2793
肺癰	-11.2793
十徧	-11.2793
臉	-11.2794
釘	-11.2794
馘魔	-11.2794
孫眞人備急千金要方卷之七十	-11.2795
傑	-11.2795
寅卯	-11.2796
茆	-11.2796
咭唎	-11.2796
玎璫	-11.2797
嵐	-11.2797
韶	-11.2797
流鈴	-11.2797
馘滅	-11.2797
綽	-11.2797
凄	-11.2798
歷節	-11.2798
羣魔	-11.2798
腰背痛	-11.28
驂	-11.28
重陽全真集卷之	-11.28
葆光	-11.28
狡	-11.28
恁時節	-11.28
湯調下	-11.2801
腰脊痛	-11.2802
喗	-11.2802
立夏之日	-11.2803
俯視	-11.2803
艱難	-11.2803
臭穢	-11.2804
緩弱	-11.2804
祥煙	-11.2805
氣不和	-11.2805
肉蓯蓉	-11.2807
輕洩	-11.2807
冲和	-11.2807
佑聖	-11.2809
六甲六丁	-11.2809
瓊樓	-11.2809
几前	-11.2809
超越	-11.2809
孫眞人備急千金要方卷之八十	-11.281
閉不通	-11.2811
心下堅	-11.2811
胷背	-11.2811
千金翼云	-11.2812
統領	-11.2813
彎	-11.2813
玄圃	-11.2814
賞翫	-11.2815
萊陽	-11.2816
講說	-11.2818
掃除	-11.2818
波羅	-11.2822
肝膽	-11.2822
豁然	-11.2822
得天意	-11.2826
律令大神	-11.2827
天中内音書於其上	-11.2828
保護	-11.2834
太原	-11.2838
圓治小兒	-11.2839
寒寒則	-11.284
談論	-11.2841
一千二百	-11.2842
增益	-11.2843
强弱	-11.2844
九層	-11.2845
驅除	-11.2845
普照	-11.2845
一方加	-11.2848
延壽	-11.285
蒼龍	-11.2853
燕山	-11.2854
離坎	-11.2854
針灸法	-11.2855
邪祟	-11.2859
蓮華	-11.286
改易	-11.2861
閃電	-11.2864
水中金	-11.2864
泄利	-11.2865
周遍	-11.2867
頭疼	-11.2868
无上祕要卷之四十	-11.2868
太平經云	-11.2869
凶害	-11.2873
白鹿	-11.2874
在其内	-11.2875
右手執	-11.2877
講師	-11.2881
手摩	-11.2885
小腹滿	-11.289
洗浴	-11.2891
夫妻	-11.2905
遊戲	-11.292
七十二相	-11.2943
治金瘡	-11.2959
孫眞人備急千金要方卷之十	-11.2965
三日三夜	-11.2973
取八合	-11.299
治五勞七傷	-11.2995
過責	-11.2995
遞相	-11.3001
洗瘡	-11.3012
去朝元	-11.3027
芎藭當歸	-11.3045
竹葉湯	-11.3052
傅之治小兒	-11.3053
童顔	-11.3061
痛癢	-11.3066
煑取二升半分三服	-11.3069
共成一	-11.3088
營養	-11.3104
彩雲	-11.3114
可憐	-11.3128
馬猿	-11.3141
紫芝	-11.3162
西方白	-11.3245
不能久立	-11.3301
肺痿	-11.3306
癉	-11.3316
俠谿	-11.3317
炅	-11.3318
瘈	-11.332
海蛤	-11.332
溲	-11.332
纂	-11.3321
闌	-11.3322
軸	-11.3322
斫	-11.3324
喙	-11.3324
漚	-11.3324
蕪菁子	-11.3324
羲	-11.3325
悄	-11.3326
䕶	-11.3326
鋼	-11.3326
蜴	-11.3327
遁尸	-11.3327
嘶	-11.3328
苦瓠	-11.3328
葫蘆	-11.3329
徴	-11.3329
油膩	-11.333
女萎	-11.333
閒	-11.333
袋盛	-11.3331
騾	-11.3332
畢叩頭自搏各	-11.3332
規矩	-11.3332
巒	-11.3332
太平經卷之一百一十	-11.3333
汲汲	-11.3333
手陽明	-11.3333
襯	-11.3333
抽添	-11.3334
哭泣	-11.3334
塚	-11.3334
翩翩	-11.3335
駡詈	-11.3335
完骨	-11.3335
釐	-11.3336
浮漚	-11.3337
諍	-11.3337
乳香没藥	-11.3338
承漿	-11.3338
翰	-11.3338
幕	-11.3339
周而復始	-11.3339
昭彰	-11.3339
這些兒	-11.3339
桑根白皮	-11.3339
祭祀	-11.334
酒色氣財	-11.334
硏	-11.334
赫赫	-11.334
芋	-11.3341
加至四十丸	-11.3341
纏綿	-11.3342
贍	-11.3342
皎	-11.3342
亞	-11.3342
檻	-11.3343
右七味治下篩	-11.3344
薄苛	-11.3344
娠	-11.3344
侮	-11.3344
荆棘	-11.3345
掇	-11.3345
黄苓	-11.3345
疆	-11.3345
潘	-11.3345
沽	-11.3346
乎善哉	-11.3347
熏陸香	-11.3347
顏	-11.3347
風伯雨師	-11.3348
仙傳外科祕方卷之	-11.3348
渘	-11.3349
縵	-11.3349
牝	-11.3349
做修持	-11.3349
呪詛	-11.3349
嘲	-11.3349
陶陶	-11.3349
華胥	-11.3349
闃	-11.3349
虬	-11.3349
鴉	-11.335
壼	-11.3351
右八味治下篩	-11.3351
上搶心	-11.3351
忿怒	-11.3352
我咱	-11.3352
立秋之日	-11.3352
食之令人	-11.3353
兜	-11.3353
魍	-11.3353
鏤	-11.3354
承負之厄	-11.3354
乾則易	-11.3355
寶瓶	-11.3356
孫眞人備急千金要方卷之六十	-11.3356
葵根	-11.3357
恣情	-11.3357
松栢	-11.3358
京骨	-11.3358
黒霧	-11.3358
云何哉	-11.3359
王喆	-11.3359
氣財酒色	-11.3359
中央黄老君	-11.3359
徊	-11.336
以水三升煑	-11.3361
揀	-11.3362
有心之人	-11.3363
蕭條	-11.3365
當奈何	-11.3367
水服方寸七日三	-11.3371
道學當念逰	-11.3373
蠻	-11.3375
脇痛	-11.3376
巽户	-11.3378
猪腎	-11.338
喜悅	-11.3382
法海遺珠卷之十	-11.3382
忌諱	-11.3383
内耳中	-11.3388
百川	-11.3396
千載	-11.3398
公孫	-11.3403
殊異	-11.3406
筋攣	-11.3408
知之耶唯唯行子已	-11.3409
右二味合	-11.3412
昭昭	-11.3415
戒律	-11.3415
是以聖人	-11.3422
愼之唯唯	-11.3436
無爲清浄	-11.3449
塵沙	-11.3457
卒中惡	-11.3471
法海遺珠卷之三十	-11.3474
卷之二十	-11.3491
烹鍊	-11.3496
尿血	-11.3519
法海遺珠卷之二十	-11.3541
昇霞	-11.3543
也子知之邪唯唯	-11.356
醋煮	-11.3579
救濟	-11.36
淺深	-11.3601
大帝律令	-11.3613
水服方寸七	-11.3642
等身中	-11.366
如梧子	-11.3679
南方赤	-11.3685
昇天堂	-11.3695
米醋	-11.3729
光瑩	-11.3746
赴壇	-11.3782
漏泄	-11.3798
瘡癤	-11.3842
以水五升煑	-11.3857
玄奥	-11.3874
彩霞	-11.3874
攣急	-11.3882
櫛	-11.3888
珮	-11.3889
修誦是經	-11.3889
厲兌	-11.3898
更相承負	-11.3898
腨	-11.3904
本節後	-11.3906
恬淡	-11.391
疣	-11.391
愉	-11.3911
概	-11.3912
歧	-11.3912
苓	-11.3913
氐	-11.3913
蚯蚓	-11.3914
孩	-11.3917
濼	-11.3917
裊	-11.3917
哩囉	-11.3919
殷郊	-11.3919
蓬壺	-11.3919
玄胡索	-11.392
煎取三升分三服	-11.392
黛	-11.3921
倏忽	-11.3921
猖狂	-11.3921
肩息	-11.3921
五倍子	-11.3922
訛	-11.3923
閣校理	-11.3923
謡	-11.3923
杳杳	-11.3923
牟	-11.3924
以水三斗煑	-11.3924
葩	-11.3924
毗	-11.3924
三萬六千	-11.3924
檜	-11.3925
寥寥	-11.3925
蛇蛻皮	-11.3926
䚴	-11.3926
狗脊	-11.3926
趕	-11.3926
温酒調下	-11.3926
藕	-11.3926
諫而不從因而消亡矣	-11.3926
笛	-11.3927
逾	-11.3927
哲	-11.3928
挈	-11.3928
天罡大聖	-11.3929
蚤	-11.3929
氈	-11.3929
扣	-11.3929
醇酒	-11.3929
嵛	-11.393
蟾酥	-11.393
太丹隱書	-11.3931
闔	-11.3931
人發之治王	-11.3931
風雲雷雨電	-11.3931
阮	-11.3931
杳杳冥冥	-11.3932
屨	-11.3932
赴瑶池	-11.3932
款款	-11.3933
皺	-11.3933
慧劍	-11.3934
繆	-11.3934
讒	-11.3934
郝	-11.3934
霖	-11.3934
浸淫	-11.3935
姦猾	-11.3935
斟	-11.3935
懷妊	-11.3935
硯	-11.3935
塔	-11.3936
榻	-11.3936
五嶽四瀆	-11.3936
木瓜	-11.3937
闚	-11.3937
僅	-11.3937
豁暢	-11.3938
朝廷	-11.3938
米泔	-11.3938
承負之責	-11.3939
調搽	-11.3939
蕩蕩	-11.3939
次師弟子一時左行向	-11.3939
掀	-11.394
堆裏	-11.394
甘松香	-11.394
秋分之日	-11.394
得天心意	-11.3941
靉	-11.3941
二百八十	-11.3942
一點靈明	-11.3943
隊	-11.3943
蹤跡	-11.3943
衍	-11.3944
雲霓	-11.3945
本來一點	-11.3945
恐怖	-11.3946
八素真經	-11.3947
牛屎	-11.3947
虛實第	-11.3947
琳宫	-11.3948
三元布經	-11.3949
鏁	-11.3949
北帝敕四聖令	-11.3951
附子一枚	-11.3952
䇿役	-11.3952
无上祕要卷之九十	-11.3953
霐	-11.3954
玉清隱書	-11.3955
咽液	-11.3955
消穀	-11.3958
妖魔	-11.3966
謹按	-11.3968
團圓	-11.3969
追尋	-11.3969
物外逍遥	-11.3971
愚暗	-11.3971
檀香	-11.3972
金雞叫	-11.3973
老氏	-11.3974
煎令可丸	-11.3975
海市	-11.3979
影裏	-11.398
尸疰	-11.3992
化應聲天	-11.3996
歲已上	-11.4002
青童君曰	-11.4016
右六味爲末	-11.4045
萬不失一	-11.405
衂血	-11.4058
社令雷	-11.4066
離苦海	-11.4078
雄雞	-11.4079
无上祕要卷之三十	-11.408
唯唯不敢	-11.408
丁亥	-11.4116
右三味合	-11.4141
腹中絞痛	-11.4152
昏昏	-11.418
治産後中風	-11.4258
手大指	-11.4263
古者聖賢	-11.4265
雷速起	-11.4288
脚踏	-11.4301
知之邪唯唯	-11.4324
煑取一升頓服	-11.4345
以水三升	-11.4352
處覓	-11.4381
讀誦	-11.4386
涯	-11.4404
癸亥	-11.4463
念天蓬呪	-11.4466
敕符呪	-11.4468
酒服方寸匕	-11.4484
日死何以知之	-11.4519
韁	-11.452
胳	-11.4524
杼	-11.4525
橘	-11.4527
窻	-11.4529
韋	-11.4529
啜	-11.4531
决明子	-11.4531
酩	-11.4534
蕤仁	-11.4534
驚怖	-11.4535
湯吞下	-11.4535
瞽	-11.4535
芩	-11.4536
鮓	-11.4536
嘈	-11.4537
覆盆子	-11.4538
贏	-11.4539
妒	-11.454
男子女人	-11.4541
列仙班	-11.4541
從高墮下	-11.4541
石龍芮	-11.4542
發此證	-11.4542
畝	-11.4542
郁	-11.4542
道德之君	-11.4542
倡	-11.4542
提挈	-11.4542
濰	-11.4543
醺	-11.4543
狐疑	-11.4544
殷勤	-11.4546
漓	-11.4546
超生滅	-11.4546
羈	-11.4546
右十一味㕮咀以水一斗	-11.4547
剉碎	-11.4547
袴	-11.4547
勇猛	-11.4548
豕	-11.4548
皤	-11.4548
伴侣	-11.4548
惚	-11.4548
攸	-11.4548
蛻殻	-11.4549
寂寞	-11.4549
訝	-11.4549
憒	-11.455
僚	-11.455
焙乾爲末	-11.455
雚	-11.455
賢不肖	-11.4551
東牟	-11.4551
沌	-11.4552
卯酉	-11.4552
菌	-11.4552
桑螵蛸	-11.4553
黄檗	-11.4553
籌	-11.4553
薺	-11.4553
聆	-11.4553
殞	-11.4553
長一丈	-11.4553
此蟲形如	-11.4553
右四味㕮咀以水六升	-11.4553
幾時休	-11.4554
詈	-11.4555
怯	-11.4555
𩵄	-11.4555
鷰	-11.4555
今故燒香自歸	-11.4555
寛	-11.4556
蠲	-11.4556
幃	-11.4556
廊	-11.4556
筯	-11.4556
鄠縣	-11.4557
課	-11.4557
以類相從	-11.4557
蔓荆子	-11.4557
赶	-11.4557
瞿	-11.4558
拏	-11.4558
拘攣	-11.4558
死入地獄	-11.4558
塩	-11.4558
分五服日三夜二	-11.4558
荆芥穗	-11.4558
玉清真王	-11.4559
痼疾	-11.4559
鍛	-11.4559
米飲調下	-11.4559
治愈者	-11.4559
黄書白	-11.4559
壤	-11.4559
葺	-11.4559
萼	-11.456
窄	-11.456
歸身歸神歸命	-11.456
吝	-11.456
知不乎	-11.456
貲	-11.456
塘	-11.456
牢擒	-11.456
嗚呼	-11.456
旋旋	-11.4561
麒麟	-11.4562
忻然	-11.4562
穹蒼	-11.4562
胤	-11.4562
爲親屬兄弟	-11.4562
稔	-11.4562
閬	-11.4562
本行經云	-11.4562
鼠屎	-11.4563
臆	-11.4563
腕骨	-11.4563
嗔怒	-11.4564
曷	-11.4564
樓閣	-11.4564
寒疝	-11.4564
纖毫	-11.4564
挹	-11.4564
瀾	-11.4565
猛獸	-11.4565
瑩瑩	-11.4565
无上祕要卷之五十	-11.4565
璞	-11.4566
錦繡	-11.4566
取五升去滓	-11.4567
曠野	-11.4567
棹	-11.4567
登眞隱訣	-11.4568
氷	-11.4568
青竹茹	-11.4568
幘	-11.4569
急急如上帝律令	-11.4569
瀉心湯	-11.4569
青蒿	-11.4569
秩	-11.457
捻香	-11.457
踴躍	-11.457
病新瘥	-11.4571
修誦是經果而如願若欲	-11.4571
坦然	-11.4572
擣取汁	-11.4572
三千六百	-11.4572
海蟾	-11.4572
開天門閉地	-11.4572
貪巨禄文	-11.4572
彭城	-11.4573
示門人	-11.4575
吟詠	-11.4575
鑚	-11.4576
會稽	-11.4577
受書爲	-11.4578
紫微夫人	-11.4579
推移	-11.4579
笈	-11.458
真人知之邪唯唯	-11.458
稱天心	-11.4581
具述	-11.4581
豫章	-11.4583
塵垢	-11.4584
日一易	-11.4585
畜積	-11.4589
誦詠	-11.4591
南京	-11.4594
微祝曰	-11.4595
霞彩	-11.4671
胸脇	-11.4672
飲服方寸七日三	-11.4699
一百八十	-11.4723
頓服又方	-11.4753
法海遺珠卷之	-11.4758
瘥止又方	-11.486
酒服方寸七日二	-11.4867
擒猿	-11.4929
漏蘆湯	-11.4949
酸棗	-11.5019
玄都玉京	-11.5053
肢節	-11.5099
若妊娠傷寒	-11.5169
肢	-11.5175
芤	-11.5179
當日某帥	-11.5186
二處各七壯穴在	-11.5189
臥	-11.519
蟄	-11.5191
糠	-11.5195
蛤	-11.5196
倏	-11.5197
雍	-11.5198
兢	-11.5198
磁	-11.5199
仆	-11.52
劃	-11.5203
瘑	-11.5205
𤓰	-11.5206
川山甲	-11.5207
罪不除也	-11.5207
随	-11.5208
簷	-11.5208
甄	-11.5208
見天師言	-11.5208
慙	-11.5208
昆布	-11.5208
潛	-11.5208
太平經卷之九十	-11.5209
稻	-11.521
宿食不消	-11.521
椹	-11.521
善哉子之問也	-11.521
蝟皮	-11.521
欹	-11.5211
播	-11.5211
蠡	-11.5212
金木水火土	-11.5212
呻	-11.5212
右六味㕮咀以水一斗	-11.5212
譴	-11.5212
一點靈光	-11.5212
蕩滌	-11.5212
讃	-11.5213
小腸輸	-11.5213
瘙	-11.5213
之例是也	-11.5213
洗滌	-11.5213
痱	-11.5213
本身符	-11.5214
鑊	-11.5214
堊	-11.5215
蘸	-11.5215
膈輸	-11.5215
冝	-11.5215
綜	-11.5215
聒	-11.5215
勁	-11.5216
嚏	-11.5216
寥廓	-11.5216
南柯	-11.5217
蓬頭垢面	-11.5217
䑕	-11.5217
痼	-11.5218
九老仙都	-11.5218
億萬里	-11.5218
醖	-11.5218
擣三千杵	-11.5218
恊	-11.5218
迺	-11.5218
何益於	-11.5219
硝	-11.5219
坼	-11.5219
牋	-11.5219
大咎在此	-11.522
荏	-11.522
眷屬	-11.522
繚	-11.522
迮	-11.522
殢	-11.522
轟轟	-11.522
射工	-11.522
䰢	-11.522
隋	-11.522
恤	-11.522
什	-11.5221
服一錢七	-11.5221
袂	-11.5221
楸	-11.5222
腭	-11.5222
杓	-11.5222
譜録	-11.5223
穆	-11.5223
三塗五苦	-11.5223
婆訶	-11.5224
悒	-11.5224
藝	-11.5224
店	-11.5224
叩齒二十四通	-11.5224
鞅	-11.5224
晒	-11.5225
亭亭	-11.5225
撞透	-11.5225
螘	-11.5225
燼	-11.5225
追薦	-11.5226
剌	-11.5226
墉	-11.5227
樊	-11.5227
啼呼	-11.5228
蒼蒼	-11.5228
嘻	-11.5228
吃	-11.5228
去成都	-11.5228
行音土皇姓	-11.5228
子午斗	-11.5228
把握	-11.5229
鼔	-11.5229
囚徒	-11.5229
鶉	-11.5229
闓	-11.5229
踏雲行	-11.5229
桐子大	-11.523
罵	-11.523
九天生神章	-11.523
胥	-11.5231
以酒五升	-11.5231
本來面目	-11.5231
浮黎	-11.5231
晃朗	-11.5231
鄷	-11.5231
𧵥	-11.5232
峙	-11.5232
橐	-11.5233
偷盜	-11.5233
逗引	-11.5233
烘	-11.5234
如大豆許	-11.5234
髯	-11.5234
龜蛇	-11.5235
悅澤	-11.5235
貪狼	-11.5235
俺	-11.5235
神霄真王	-11.5235
驅馳	-11.5235
猪屎	-11.5236
瓊蘂	-11.5236
敗醬	-11.5236
桓	-11.5237
罣	-11.5238
勑符呪	-11.5238
科曰道士女冠	-11.5238
婚	-11.5238
姻	-11.5239
亮	-11.5239
諕	-11.5239
恭審	-11.524
出凡籠	-11.5241
疝瘕	-11.5243
冰雪	-11.5244
無爲無作	-11.5244
葫	-11.5245
奼	-11.5246
鮑	-11.5246
齎上金	-11.5247
𩲕	-11.525
急急如律令右符	-11.525
永享	-11.5251
右出洞元	-11.5252
蓬萊閣	-11.5256
而爲說法果後而	-11.5256
十餘年	-11.5258
其爲人也	-11.527
中毒方	-11.5288
右四味㕮咀以水八升	-11.5292
虎豹	-11.5327
水三升煑取一升	-11.5348
鄰里	-11.5359
鼻衂	-11.5382
食不化	-11.5417
子知之耶唯唯	-11.5442
善哉善哉愚生	-11.5464
右十四味㕮咀以水	-11.5474
芝苗	-11.5517
也眞人知之耶唯唯	-11.5577
惺灑	-11.5705
央	-11.5813
宻呪	-11.5824
祇	-11.5825
行間主	-11.5887
朒	-11.59
酘	-11.5907
兩筋間	-11.5908
摸	-11.5909
萎	-11.5909
搽	-11.5911
黑龍散	-11.5912
𡻕	-11.5914
爲天問事	-11.5915
飬	-11.5915
大麻仁	-11.5917
絹篩	-11.5917
埃	-11.5917
懐	-11.5917
盤桓	-11.5918
楊柳	-11.5919
覃	-11.5919
渭	-11.5921
戎鹽	-11.5921
猬皮	-11.5921
不知稍增	-11.5922
跌	-11.5922
冗冗	-11.5922
榖	-11.5922
白肉際	-11.5923
願聞其意	-11.5923
茵	-11.5924
糟	-11.5925
貝齒	-11.5925
百壯三報	-11.5925
闢	-11.5925
䖍	-11.5926
賒	-11.5926
萆麻子	-11.5926
齲	-11.5926
七日七夜	-11.5926
個	-11.5927
彷	-11.5927
斥	-11.5927
梗	-11.5927
畧	-11.5927
佚	-11.5928
梓	-11.5929
鳴天鼓	-11.5929
鯉	-11.5929
盥	-11.5929
有德之國	-11.5929
褥	-11.5929
恢恢	-11.5929
蘘	-11.593
蚊	-11.593
慊	-11.593
暘	-11.593
分六服	-11.593
右件各罰禮	-11.5931
儼然	-11.5931
珪	-11.5931
噓	-11.5931
篦	-11.5931
白鮮皮	-11.5931
膠飴	-11.5931
笙	-11.5932
刹	-11.5932
嫁	-11.5932
腮	-11.5932
迤	-11.5932
瘭疽	-11.5933
父母兄弟	-11.5933
分作三服	-11.5933
懵	-11.5933
以鼻引	-11.5933
揭	-11.5933
燎	-11.5934
娥	-11.5934
悼	-11.5934
址	-11.5934
都仙真君	-11.5934
霹	-11.5935
鬼箭羽	-11.5935
琴瑟	-11.5935
螻	-11.5935
何從得	-11.5935
璨	-11.5936
恍	-11.5936
暝	-11.5936
槲	-11.5936
服一刀圭	-11.5936
酸棗仁	-11.5936
射罔	-11.5936
頂戴	-11.5937
臛	-11.5938
抜	-11.5938
𤮴	-11.5938
霑	-11.5938
東西南北	-11.5939
上皇元年	-11.5939
帛裹	-11.5939
紗	-11.5939
綾	-11.5939
聾盲	-11.5939
不得留停	-11.594
賄	-11.594
骭	-11.594
蟬蛻	-11.594
贈華亭	-11.594
漫漫	-11.594
吁	-11.594
舐	-11.594
倉卒	-11.5941
男子婦人	-11.5941
虐	-11.5941
願聞之然	-11.5941
聞吾呼召	-11.5942
赴瀛洲	-11.5942
九月九日	-11.5942
絹袋	-11.5942
嶒	-11.5942
萬劫一傳	-11.5942
捷徑	-11.5942
二十四生圖	-11.5942
爇心香	-11.5943
蹇	-11.5943
羙	-11.5943
再拜長跪願曰	-11.5943
攬	-11.5944
岩	-11.5944
樊籠	-11.5944
赫奕	-11.5944
甯	-11.5945
鄽	-11.5945
三部八景	-11.5946
飛行上昇	-11.5946
曇	-11.5946
觧	-11.5947
九祖父母	-11.5947
辛漢臣	-11.5947
靈書紫文	-11.5949
梭	-11.595
濛濛	-11.5951
暴虐	-11.5951
青書白	-11.5951
咖	-11.5951
靈飛六甲	-11.5951
拯救	-11.5952
者其德如	-11.5952
銀蟾	-11.5952
承誥奉行	-11.5952
笑傲	-11.5953
天上地下	-11.5953
先王之	-11.5953
妻妾	-11.5953
鍼	-11.5953
錦飛裙	-11.5954
水服方寸匕	-11.5954
趍	-11.5956
湘	-11.5957
蕭蕭	-11.5957
叮囑	-11.5957
孩兒	-11.5957
叨	-11.5959
嶽瀆	-11.5963
道與德	-11.5963
攤	-11.5964
歩罡	-11.5964
奥旨	-11.5965
臧	-11.5965
飛捷使者	-11.5966
時出爲師號	-11.5976
龕	-11.5977
寅午斗	-11.5989
此四人	-11.5995
右九味㕮咀以水九升煑	-11.6192
踏碎	-11.6264
右總爲細末	-11.6281
日二夜一	-11.6438
麵糊爲丸	-11.6461
蓬萊島	-11.6476
五丸日	-11.6575
太微天帝	-11.6584
太極真人曰修靈寳飛行三界之道	-11.6605
其蒸在	-11.6652
行子已覺矣	-11.6671
就此文中	-11.6675
觀者至故名	-11.6678
鼽	-11.6679
鷹屎白	-11.6679
藿	-11.668
攅	-11.6683
槃	-11.6685
蜀㯃	-11.6685
蚘蟲	-11.6685
冽	-11.6686
上來至此	-11.6686
生冷酢滑	-11.6686
正文正辭	-11.6687
欣欣	-11.6688
彫	-11.6689
徙	-11.669
辜	-11.6691
渾淪	-11.6691
異日功成	-11.6691
猪肪	-11.6691
鈆	-11.6691
獺	-11.6692
桑寄生	-11.6692
須延天	-11.6692
勸持經	-11.6693
甲今歸命	-11.6693
右出道迹經	-11.6693
疵	-11.6693
已覺矣	-11.6693
睦	-11.6694
雉	-11.6694
膨	-11.6694
爲丸如梧桐子大	-11.6694
石榴	-11.6694
鎗	-11.6694
命侍女	-11.6694
惓	-11.6694
擅	-11.6695
販	-11.6695
辣	-11.6695
魓	-11.6695
膏成去滓	-11.6696
枳	-11.6696
飄颺	-11.6696
垓	-11.6696
也釋曰	-11.6696
曩	-11.6696
元亨利貞	-11.6697
皁	-11.6698
明月清風	-11.6698
速現真形	-11.6698
耻	-11.6698
箴	-11.6699
食之害人	-11.6699
地上亦然	-11.6699
妓	-11.67
天雷隱隱	-11.67
鞍	-11.67
帕	-11.67
嬉戲	-11.67
鹵	-11.67
𣲖	-11.67
釵	-11.67
七世父母	-11.6701
洪禧	-11.6701
乖錯	-11.6701
顙	-11.6701
一尺二寸	-11.6701
上天梯	-11.6702
喆	-11.6702
竺	-11.6702
階級	-11.6702
棒	-11.6702
䖟蟲	-11.6702
悵	-11.6702
妥	-11.6702
懣	-11.6702
懴	-11.6703
儛	-11.6703
究洽	-11.6703
巷	-11.6703
芎	-11.6703
祗	-11.6703
酣	-11.6703
户牖	-11.6703
七壯又灸	-11.6703
咤	-11.6703
砒	-11.6703
舂	-11.6704
汩	-11.6704
窩	-11.6704
䄂	-11.6704
駢	-11.6705
之禁勿	-11.6706
灌溉	-11.6706
淡泊	-11.6706
治下篩爲粗散	-11.6706
師尊大聖衆至眞之德得道之後昇入	-11.6706
眇眇	-11.6706
匣	-11.6707
清微天	-11.6707
今建齋立直燒香	-11.6707
春夏秋冬	-11.6707
弟兄	-11.6707
蜃	-11.6707
牡荆子	-11.6707
癧	-11.6707
沼	-11.6707
唳	-11.6708
嵋	-11.6708
黄籙醮	-11.6708
殫	-11.6708
以東流水	-11.6708
跗	-11.6709
寮	-11.6709
創	-11.6709
貢	-11.6709
増	-11.6709
薛	-11.6709
嵯	-11.671
榭	-11.671
長跪言曰同法	-11.6711
熈	-11.6711
鬱單无量天	-11.6711
㗸	-11.6712
紈	-11.6712
哦	-11.6712
蔕	-11.6713
鳧	-11.6713
邵	-11.6714
方右取	-11.6714
紫㣲大帝	-11.6714
癇之爲病	-11.6715
矇	-11.6716
礦	-11.6716
仞	-11.6716
塞鬼路	-11.6716
擎拳	-11.6717
瀟灑	-11.6718
天真皇人	-11.6718
城隍	-11.6718
登真隱訣	-11.6718
右㕮咀每服四錢	-11.6718
逰	-11.6719
北斗七星	-11.6719
褒	-11.6719
塞鬼路穿鬼心破鬼肚	-11.672
潄	-11.672
轅	-11.6721
化作微塵	-11.6721
澆灌	-11.6721
炁三口	-11.6722
謔	-11.6724
丁其狀	-11.6726
清明何童天	-11.6727
高聖帝君曰	-11.6727
法海遺珠卷之四十	-11.6728
痒	-11.6729
模樣	-11.6734
團團	-11.6736
大洞玉經	-11.6739
符到奉行	-11.6744
中來經曰	-11.6744
海水帝	-11.6754
瀟瀟	-11.6756
末蜜丸梧子大	-11.6769
孫眞人備急千金要方卷之四十	-11.6813
右二十味爲末	-11.682
右四味㕮咀以水一斗	-11.6873
爲細末每服二錢	-11.6903
十一卷	-11.6953
粱米	-11.6957
治下篩先食	-11.698
取一斗去滓	-11.7052
十壯穴在	-11.7104
瘟疫	-11.7217
禹餘天	-11.7311
真人知之耶唯唯	-11.7458
瀟洒	-11.7467
者慙愧	-11.7473
燈以照	-11.7475
哩囉㖫哩囉㖫	-11.7479
髃	-11.7492
行道得道求仙得仙飛行太空騰景	-11.7498
愊	-11.75
諧師當	-11.7501
澤㯃	-11.7504
顚	-11.7509
有二種一者	-11.7509
丸如彈子大	-11.7512
唏	-11.7514
五香連翹湯	-11.7515
析	-11.7515
陽谷主	-11.7515
姊妹	-11.7517
以瘥爲度	-11.7518
方見别卷	-11.7519
蠻觸	-11.7519
樗	-11.7519
譁	-11.752
滛	-11.752
鵠	-11.7521
廳	-11.7522
矛	-11.7522
邪言邪文	-11.7523
右二十一味	-11.7523
様	-11.7523
殄	-11.7524
温脾湯	-11.7525
漠漠	-11.7525
太乙火府	-11.7526
秖	-11.7526
廛	-11.7527
搐	-11.7527
明彰報應	-11.7527
雯	-11.7527
旱魃	-11.7528
内下部中	-11.7528
口噤不開	-11.7528
耿耿	-11.7529
鳶	-11.7529
桶	-11.7529
遨	-11.753
三道行書	-11.753
徨	-11.753
手足逆冷	-11.753
牓	-11.753
洗手面	-11.7531
𩲃	-11.7531
恪	-11.7531
不拘多少	-11.7532
漏下赤白	-11.7532
薇	-11.7532
飼	-11.7532
和如泥	-11.7532
䐜	-11.7532
諂	-11.7532
瓷	-11.7533
齧	-11.7533
萬道霞光	-11.7533
疋	-11.7534
箱	-11.7534
小青龍湯	-11.7534
胯	-11.7534
森森	-11.7534
青蓮池上客	-11.7534
簞	-11.7534
噙	-11.7534
孜孜	-11.7534
蕤	-11.7534
斃	-11.7535
槩	-11.7535
張文仲	-11.7535
勸捨惡	-11.7535
仔	-11.7535
可㤥哉可㤥哉	-11.7535
捜	-11.7536
鷓	-11.7536
三九素語	-11.7536
者取訣於	-11.7536
瓦礫	-11.7537
睹	-11.7537
翼軫	-11.7537
瓮	-11.7537
欵	-11.7537
嬰孩	-11.7537
敢有拒逆	-11.7537
蛸	-11.7537
乘雲駕龍	-11.7537
闘	-11.7537
衿	-11.7538
梟	-11.7538
無作無爲	-11.7538
倪	-11.7538
三官九府	-11.7538
箸	-11.7538
訣傳來	-11.7538
袁	-11.7539
麩炒	-11.7539
茫	-11.7539
天文地理	-11.7539
崆	-11.754
麞	-11.754
實熱也	-11.754
灸肺輸	-11.754
甌	-11.754
北斗七元	-11.7541
掐煞文	-11.7541
意馬心猿	-11.7542
憔悴	-11.7542
削除罪録	-11.7542
菽	-11.7543
哂	-11.7543
糝	-11.7543
偎	-11.7543
㨿	-11.7543
青要紫書	-11.7543
惙	-11.7543
天尊大果	-11.7544
涇	-11.7544
武陵春	-11.7544
正音土皇姓	-11.7544
腎瀝湯	-11.7544
朕	-11.7544
拊	-11.7545
搯煞文	-11.7545
歆	-11.7545
攀緣愛念	-11.7546
捩	-11.7546
蠒	-11.7546
踞	-11.7548
烜赫	-11.7548
躔	-11.7548
陽起石	-11.7548
運明天尊至心信禮	-11.7549
咨	-11.7549
颺	-11.7549
發其汗	-11.755
並皆治之	-11.755
南北東西	-11.7551
木郎呪	-11.7551
蘧廬	-11.7551
九赤斑符	-11.7551
灸五壯	-11.7551
腥羶	-11.7551
嗷	-11.7552
瑛	-11.7552
九丹上化胎精中記	-11.7552
飜	-11.7552
遯	-11.7553
瘀	-11.7553
褁	-11.7553
子言是也	-11.7553
爲滎注於	-11.7555
恬惔	-11.7555
十洲三島	-11.7555
爲輸過於	-11.7555
爲源行於	-11.7555
脉也流於	-11.7555
爲經入於	-11.7555
燾	-11.7556
外國放品	-11.7557
魓𩳐魒	-11.7558
姬	-11.7559
倘	-11.7559
携笻	-11.7559
九真中經	-11.756
咍	-11.7561
唫	-11.7561
钁	-11.7562
眺	-11.7562
咈	-11.7568
右十味治下篩	-11.7569
矩	-11.7571
少人知	-11.7571
少小嬰孺方	-11.7572
大洞眞經	-11.7579
二色之光	-11.7579
澶	-11.7587
汾陽解	-11.7609
加至二七	-11.7775
旦空腹	-11.7965
以水二升煑取一升	-11.798
以酢漿	-11.8336
梧子大	-11.8344
皴	-11.8402
歘	-11.8404
莧	-11.8409
癭瘤	-11.8412
急急如大赤天帝	-11.8414
躄	-11.8414
昊	-11.8416
慰	-11.8418
奔豚	-11.8419
炳	-11.8421
䧟	-11.8421
愠	-11.8421
殭蠶	-11.8424
半身不遂	-11.8424
痟	-11.8425
列缺主	-11.8426
醇	-11.8426
笋	-11.8426
可駭哉可駭哉	-11.8427
五苓散	-11.8427
啡	-11.8428
勲	-11.843
蓐	-11.8431
滚滚	-11.8432
懲	-11.8432
咱	-11.8432
椎下兩傍各三寸	-11.8432
以鼻吸	-11.8433
黶	-11.8433
悉主之方	-11.8433
堤	-11.8434
稟	-11.8434
虱	-11.8435
燔	-11.8435
胛	-11.8435
顴	-11.8435
皆主之方	-11.8436
冢	-11.8436
吸吸少氣	-11.8436
巿	-11.8437
蓍	-11.8437
踢	-11.8437
匹	-11.8437
陞	-11.8438
骰	-11.8438
迢迢	-11.8438
轂	-11.8438
氣職主	-11.8438
相去如人行十里久	-11.8438
叵	-11.8439
棚	-11.8439
裊裊	-11.8439
沿	-11.8439
捌	-11.8439
令汁盡	-11.8439
汾	-11.8439
誣	-11.8439
子欲重知其	-11.844
酒色財氣	-11.844
湊	-11.844
雁	-11.844
挨	-11.844
肪	-11.844
舄	-11.844
筌	-11.844
醫所不治	-11.844
賾	-11.844
⬤	-11.844
饗	-11.8441
摺	-11.8441
硃	-11.8441
䏶	-11.8441
梵寳天	-11.8441
瘂	-11.8441
茋	-11.8441
忖	-11.8442
瘠	-11.8442
䧺	-11.8442
虻	-11.8443
呌	-11.8443
鸛	-11.8443
彀	-11.8443
蕉	-11.8444
滄溟	-11.8444
璈	-11.8444
行住坐卧	-11.8444
灧	-11.8446
日四五度	-11.8446
拜長跪願曰	-11.8446
璋	-11.8446
瓣	-11.8446
菩	-11.8446
悃	-11.8446
渣	-11.8446
也眞誥第	-11.8447
旂	-11.8447
變化七十四方	-11.8447
軻	-11.8447
明燈誦經思眞行道求仙上解七	-11.8448
賛	-11.8448
地水火風	-11.8448
咀嚼	-11.8449
卞	-11.8449
春花秋月	-11.8449
帷	-11.8449
踊	-11.845
无鞅數	-11.845
復用前韻	-11.845
伫	-11.845
所行罪負	-11.845
諸君丈人	-11.8451
𨽻	-11.8451
拉	-11.8451
臨江仙	-11.8451
躋攀	-11.8452
瞥	-11.8452
落魄婪躭	-11.8452
相尅賊	-11.8452
驪	-11.8452
諸天諸地	-11.8452
瘲	-11.8452
浮名浮利	-11.8452
哉子之難也	-11.8453
邃	-11.8453
關令尹喜	-11.8453
駒	-11.8453
丫髻	-11.8453
嘿	-11.8454
竪	-11.8454
箍	-11.8454
分梨十化	-11.8455
味甘微寒	-11.8455
暎	-11.8456
灣	-11.8456
狐狸	-11.8456
虵	-11.8456
坐在立亡	-11.8457
浚儀原陽子趙宜眞集	-11.8458
書白繒高聖帝君曰	-11.8458
椽	-11.8458
鄒	-11.8458
廵	-11.8459
狡猾	-11.8459
芃	-11.8459
囓	-11.8459
妙行真人	-11.846
𨼆	-11.846
七言絕句	-11.846
朦	-11.846
附骨疽	-11.8461
媒	-11.8461
纛	-11.8461
芪	-11.8461
妙行眞人	-11.8462
天火地火	-11.8462
鎔	-11.8462
搜己過	-11.8463
豁落七元	-11.8463
骨碎補	-11.8464
絓	-11.8465
迎仙客	-11.8465
急急如雷祖	-11.8465
廣寒之宫	-11.8466
孤雲野鶴	-11.8466
翟	-11.8466
兹蓋恭遇某	-11.8466
北極紫微大帝	-11.8466
芋栗	-11.8467
碣	-11.8467
列圖如左	-11.8468
七星移度	-11.8469
揉	-11.847
鈕	-11.8471
㖿	-11.8472
七聖玄紀	-11.8472
掞	-11.8472
㢘武破	-11.8472
魑	-11.8473
𩲓	-11.8474
城隍社令	-11.8475
心猿意馬	-11.8476
奕奕	-11.8478
諒	-11.8482
䭀	-11.8483
以雞子白和	-11.8485
在腕後	-11.8496
右十二味爲末蜜丸如梧子	-11.8499
右八味㕮咀以水九升煑取	-11.8503
真誥第	-11.8518
痛如刺	-11.8582
雷速發	-11.8602
以水一斗二升先煑	-11.871
酒和服	-11.8716
右十八味㕮咀	-11.8732
疫癘	-11.8802
爲細末鍊蜜	-11.8965
右十味㕮咀以水九升煑取三升	-11.9078
丸日三稍加	-11.9297
銀青光禄大夫	-11.9367
山洞周迴	-11.9397
平濇無毒	-11.9404
鬾	-11.9407
蛙	-11.941
岐伯曰	-11.9411
兖	-11.9413
靨	-11.9413
弔	-11.9414
詺	-11.9415
凡名參	-11.9415
隂也主養	-11.9416
陽也主生	-11.9417
狄	-11.9419
蛄	-11.9419
撙	-11.9419
僂	-11.942
肱	-11.942
治月經不通	-11.942
騰騰兀兀	-11.9421
讁	-11.9421
僵仆	-11.9421
叮嚀	-11.9422
膂	-11.9424
瞬	-11.9425
搦	-11.9426
後谿主	-11.9426
瓠	-11.9427
以水四升煑取一升半	-11.9427
輕身益氣	-11.9427
昴	-11.9427
揣	-11.9428
悚	-11.9428
日再夜一	-11.9429
俛	-11.9429
懂	-11.943
晉	-11.943
二丈四尺	-11.9431
靠	-11.9431
堅如石	-11.9431
萹	-11.9431
昩	-11.9432
五五二十五	-11.9432
紂	-11.9433
彤	-11.9434
浣	-11.9434
栽培	-11.9434
肉傷人神氣	-11.9434
水晶宫	-11.9434
如胡豆	-11.9434
痘	-11.9434
佃	-11.9435
㹠	-11.9435
羌	-11.9435
犀	-11.9435
小指次指	-11.9435
冩	-11.9435
沁	-11.9435
入髮際一寸	-11.9436
薏	-11.9436
燒香散花	-11.9437
紫荆皮	-11.9437
頼	-11.9438
錚	-11.9438
羊蹄根	-11.9438
超凌三界	-11.9439
赤白帶下	-11.9439
錘	-11.9439
襪	-11.944
獰	-11.944
卜筭子	-11.944
旃	-11.944
銅鏡鼻	-11.944
浹	-11.944
挼	-11.944
贅	-11.9441
澈	-11.9441
梵摩迦夷天	-11.9442
倖	-11.9442
非有非無	-11.9442
倐	-11.9443
二千四百	-11.9444
蘇合香	-11.9444
鷗	-11.9444
旭	-11.9445
叚	-11.9445
常清常浄	-11.9445
烙	-11.9445
蹙	-11.9446
刁	-11.9446
勿令泄氣	-11.9447
隳	-11.9447
搭	-11.9447
蘚	-11.9447
哉善乎子	-11.9447
殯	-11.9447
莎	-11.9448
蓊	-11.9448
盼	-11.9448
閴	-11.9448
詛	-11.9448
摭	-11.9448
凝水石	-11.9448
註	-11.9449
漕	-11.9449
焮	-11.9449
謳	-11.945
瑰	-11.945
詭	-11.945
𥹋	-11.945
玄之又玄	-11.945
爕	-11.945
怳	-11.945
陡	-11.945
撻	-11.9451
檐	-11.9451
兠	-11.9451
遄	-11.9451
因墓中	-11.9451
雞肶胵	-11.9452
大唐陸海羽客王懸河修	-11.9452
殗	-11.9452
搖	-11.9452
咜	-11.9452
滂	-11.9453
炬	-11.9453
内外二衆	-11.9453
虜	-11.9453
漲	-11.9453
仙樂集卷之	-11.9453
娶	-11.9453
砌	-11.9453
觀身大戒	-11.9453
煌	-11.9454
粹	-11.9454
素靈大有妙經	-11.9454
芬	-11.9454
郵	-11.9455
淑	-11.9455
三九二十七	-11.9455
潢	-11.9456
紿	-11.9456
慳	-11.9456
鍔	-11.9456
魑魅	-11.9456
飛砂走石	-11.9456
言而止反成	-11.9456
身入光明上昇天堂衣食自然	-11.9456
疇	-11.9457
罄	-11.9457
得更生福慶之門甲得道眞與神合同畢	-11.9457
不忠不孝	-11.9457
上上禪善无量壽天	-11.9457
右爲粗末	-11.9458
仵	-11.9458
結九幽長夜之府魂充考撻諸痛備嬰形	-11.9458
魁𩲃𩵄䰢	-11.9458
袐	-11.9458
以詩贈之	-11.9459
古今許龐家去也應都免輪回苦	-11.9459
峭	-11.946
瘳	-11.946
螋	-11.946
可得聞乎	-11.9462
千變萬化	-11.9462
者免内衆	-11.9462
耿	-11.9463
伏念某	-11.9463
正一盟威	-11.9463
九天玄女	-11.9463
賈奕天	-11.9463
破傷風	-11.9464
七聖元紀經	-11.9464
夏三月則變形爲	-11.9466
嗇	-11.9466
千乘萬騎	-11.9466
襄	-11.9467
也亦從慧本生	-11.9467
飭	-11.9468
劾	-11.9468
侗	-11.9471
州刺史	-11.9471
浦	-11.9472
玷	-11.9472
藏頭拆字	-11.9473
中來居世	-11.9473
獨我揺頭不管	-11.9476
相去何若	-11.9484
㝷	-11.9486
羽輪奉迎甲身上登玉清宫紫	-11.9494
道得道求仙得仙飛行太空騰景九天	-11.9502
龜山元籙	-11.953
水一升煑	-11.9774
唵吽吒	-11.9815
水一斗二升煑取三升	-12.0046
煑取二升七合分三服	-12.0144
粱	-12.017
右八味㕮咀以水八升	-12.0369
㕮咀以水七升煑取二升半分三服	-12.044
籙上清太上	-12.0484
久服輕身	-12.0494
胳别走	-12.051
蝨	-12.0517
髏	-12.0517
此其致也釋曰	-12.0519
查	-12.0522
椎下節間	-12.0522
嚴畏智詐	-12.0524
月胎者當預服此方	-12.0526
禁如藥法	-12.0527
禁不可刺	-12.0529
大豆黄卷	-12.053
道學與人同	-12.0532
簟	-12.0533
漏始發於頸	-12.0533
補中益氣	-12.0534
蓽	-12.0534
衾	-12.0535
菴䕡子	-12.0536
痓	-12.0537
碍	-12.0538
績	-12.0538
崐崘	-12.0538
子孫醮縁重遇敬信全仗高眞度	-12.0539
解谿主	-12.0539
四肢沉重	-12.0539
昊天玉皇上帝	-12.0539
王瓊文第	-12.0539
一隂一陽	-12.054
栁	-12.054
軋	-12.0541
壟	-12.0541
芰	-12.0541
生蘆根	-12.0541
㯃	-12.0542
柿	-12.0542
兩傍各一寸	-12.0542
還知否	-12.0542
先人後己	-12.0542
俓	-12.0542
手足厥冷	-12.0543
異道雜仙	-12.0543
驀山溪	-12.0543
賃	-12.0544
孺	-12.0544
苡	-12.0544
驥	-12.0544
掾	-12.0544
礪	-12.0544
蹔	-12.0545
巵	-12.0545
庖	-12.0545
自古到今	-12.0545
粃	-12.0545
八風十二痺	-12.0545
蓂	-12.0545
缸	-12.0545
曝令乾	-12.0545
無縈繫	-12.0546
𨔼	-12.0546
崗	-12.0547
服五分七日三	-12.0547
嚲	-12.0547
也兀底	-12.0547
邉	-12.0548
媚	-12.0548
熱酒調下	-12.0548
陂	-12.0549
出娑婆	-12.0549
道全德之也貴大家總赴玉華會	-12.0549
唵嚩𠯐囉喗	-12.0549
畦	-12.0549
攪令調	-12.0549
熳	-12.0549
苧	-12.0549
懿	-12.0549
青溪道士孟安排集	-12.0549
微火上煎	-12.0549
楝	-12.0549
鑠	-12.055
成煎猪膏	-12.055
在足内踝	-12.055
茗	-12.0551
潼	-12.0551
鴟	-12.0551
𥐻	-12.0551
姤	-12.0551
煌煌	-12.0551
瞤	-12.0551
若道士若女冠	-12.0552
開皇元年	-12.0552
壻	-12.0552
磑	-12.0552
捋	-12.0552
太平經卷之五十	-12.0552
天長地久	-12.0553
臏	-12.0553
槽	-12.0553
繋	-12.0553
鉅	-12.0553
愼火草	-12.0553
迢遞	-12.0553
煻	-12.0554
覓殘餘	-12.0554
訞	-12.0554
餒	-12.0554
佯	-12.0554
撈	-12.0555
不得稽停	-12.0555
藩	-12.0555
羶	-12.0555
願以是功德歸流	-12.0555
金玄羽章	-12.0556
盗	-12.0556
齏	-12.0556
棕	-12.0556
汴	-12.0556
身中三五功曹左右官使者	-12.0557
以爲天信其欲	-12.0557
三屍九蟲	-12.0557
重規合矩	-12.0558
狠	-12.0558
航	-12.0559
麋	-12.0559
壘土皇常以	-12.0559
匐	-12.0559
𣗳	-12.0559
下一寸六分陷中仰而取之	-12.0559
賡	-12.0559
安息香	-12.056
妍	-12.056
鞠	-12.056
豊	-12.056
燒灰存性	-12.056
度歲華	-12.056
各爲身計	-12.056
埪	-12.056
漢安元年	-12.056
塵活死人兮活死人	-12.056
疽也上肉微起者	-12.056
苔	-12.0561
髭	-12.0561
王高上玉虛至極天尊特垂曲映令	-12.0561
殁	-12.0561
燒存性	-12.0561
列仙曹	-12.0561
蟻穿珠	-12.0561
搥	-12.0562
釁	-12.0562
嶠	-12.0562
熖	-12.0562
晷	-12.0563
菟	-12.0563
浮空而來	-12.0563
明燈誦經思神念眞行道求仙飛騰九天	-12.0563
上清變化七十四方經云	-12.0563
岱	-12.0563
乞殘餘	-12.0563
隱隱而痛者	-12.0563
魈	-12.0564
謄	-12.0564
偽	-12.0564
閤	-12.0564
竄	-12.0564
鈐	-12.0565
三轉動魁罡	-12.0565
餞	-12.0565
攝赴魁罡	-12.0565
洞玉經三十九章	-12.0565
詶	-12.0565
也三洞珠囊卷之	-12.0566
墀	-12.0567
法將班	-12.0567
泓	-12.0568
燁	-12.0568
冑	-12.0568
善哉子之難問	-12.0568
家九祖父母惡對罪根三界司筭女青	-12.0568
隘	-12.0568
羯	-12.0568
高枕卧	-12.0569
右出洞真外國放品經	-12.0569
杆	-12.0569
靂	-12.0569
璽	-12.0569
觴	-12.0569
鱠	-12.0569
儵	-12.057
十苦八難	-12.0571
僣	-12.0571
司命司録	-12.0572
䐃	-12.0572
辯夫曰	-12.0573
唐天皇問曰	-12.0574
碌	-12.0574
餉	-12.0575
紫度炎光經云	-12.0575
右四天王	-12.0575
時出爲帝師號曰	-12.0575
三道順行經云	-12.0576
怱怱	-12.0576
遑	-12.0576
虎咆哮	-12.0577
簑	-12.0577
奎婁胃昴畢觜參	-12.0578
鼕	-12.0578
三陰三陽	-12.0579
其天上人壽	-12.0579
右書一簡上	-12.0579
南極長生司命君	-12.058
中内音書其上	-12.058
恓	-12.0581
蝗	-12.0581
閫	-12.0581
啒	-12.0581
茸	-12.0582
颯	-12.0582
道君洞清	-12.0583
越衡天	-12.0585
道君清微	-12.0587
十壯三報	-12.0588
以臘月猪脂和	-12.0589
寗	-12.0589
秋三月則變形爲	-12.0589
一十二字召	-12.0589
經一卷太上洞玄靈寳	-12.0591
曲素訣辭	-12.0592
冬三月則變形爲	-12.0594
宫宫中有帝君	-12.0605
一斗煑取五升	-12.0794
右十六味㕮咀以水一斗	-12.0823
童玉女侍衛	-12.0874
黄素四十四方經	-12.0997
㕮咀以水八升煑取二升半分三服	-12.1234
太上黄素四十四方	-12.1401
瀟	-12.1717
崇文館學士	-12.1736
肖	-12.1738
孫眞人備急千金要方	-12.1752
羃	-12.1756
物傷輒爲	-12.1764
閲	-12.1766
湯若曾傷	-12.1771
駿	-12.1771
齋品卷之五十	-12.1772
㾬	-12.1775
烜	-12.1776
傘	-12.1776
嵒	-12.1777
蛔	-12.1778
新汲水	-12.1779
㢘	-12.1782
斲	-12.1783
曄	-12.1783
菘	-12.1783
饙	-12.1783
狩	-12.1784
茄	-12.1784
骼	-12.1785
上街求乞	-12.1785
臊	-12.1786
戇	-12.1786
僉	-12.1786
膠艾湯	-12.1786
苽	-12.1787
徼	-12.1787
地二十億萬里第	-12.1788
訖自此以下	-12.1788
痠	-12.1788
无始真人言	-12.179
冕	-12.179
渴欲飲水	-12.179
猷	-12.1791
恍恍惚惚	-12.1791
惛	-12.1791
欒	-12.1792
違科犯	-12.1792
𦆵	-12.1792
麩	-12.1793
右二味各等分爲末	-12.1793
縹	-12.1794
糯	-12.1794
鋤	-12.1794
奬	-12.1794
誰乎有身不自	-12.1794
厦	-12.1794
右九味㕮咀以水九升煑取三升去滓	-12.1794
訣第七十	-12.1795
廪	-12.1795
憶王孫	-12.1795
爨	-12.1795
味辛温無毒	-12.1795
錄	-12.1796
弃	-12.1796
衹	-12.1796
叶	-12.1796
圄	-12.1797
太上靈寳天尊已得道大聖衆至眞尊神	-12.1797
帯	-12.1797
昬	-12.1798
朶	-12.1798
朞	-12.1798
牆	-12.1798
罹	-12.1799
疱	-12.1799
轝	-12.1799
偕	-12.1799
出崑岡	-12.18
呮	-12.18
週	-12.18
淹汙辱	-12.18
阡	-12.1801
以猪脂和傅	-12.1801
知常眞人姬志眞撰	-12.1801
筍	-12.1801
意持戒終身奉行是吾太上太上太乙第	-12.1801
鬼督郵	-12.1801
甲建立洞神三皇	-12.1801
麻黄去沫	-12.1801
盪	-12.1802
今清齋絶塵爲	-12.1802
奪人所欲	-12.1803
賑	-12.1803
孛	-12.1803
翊	-12.1803
海變桑田	-12.1803
舛	-12.1803
太上太真科經云	-12.1803
曦	-12.1803
祖師中天樞相伏魔	-12.1803
槍	-12.1804
臣今正爾燒香	-12.1804
誼	-12.1805
養氣全神	-12.1805
縻	-12.1805
恱	-12.1805
三十六部尊經	-12.1805
騮	-12.1805
官使者左右龍虎君侍香諸靈官當令	-12.1805
丐	-12.1806
凡學上法當以	-12.1806
搆	-12.1807
渟	-12.1807
璫滴瑠玎	-12.1807
壘四音土皇常以	-12.1807
轍	-12.1807
一千五百	-12.1807
煇	-12.1807
鉗	-12.1807
食糞飲小便	-12.1807
淀	-12.1807
無形與道合眞	-12.1807
白楊皮	-12.1808
二斗煑取一斗	-12.1808
芫	-12.1808
嘍	-12.1808
閱	-12.1809
或身即坐或流後生	-12.1809
肴	-12.1809
後聖李君	-12.181
淨明忠孝全書卷之	-12.181
酉戌亥	-12.181
猘	-12.181
宿命因縁生	-12.181
元惡之罪	-12.181
玉清㧞度七祖解脫怨魂三塗五苦	-12.181
譏	-12.181
㡌	-12.1811
白日登晨	-12.1811
泮	-12.1811
醪	-12.1811
月生則受	-12.1811
今齋直燒香	-12.1812
不計遍數	-12.1812
嗏	-12.1812
右出老子德經	-12.1812
九赤班符	-12.1812
磻溪集卷之	-12.1812
搓	-12.1812
門人靈真子朱抱一	-12.1812
暄	-12.1812
械	-12.1812
屣	-12.1812
盍	-12.1813
樽	-12.1813
頡	-12.1814
鑰	-12.1814
太霄琅書瓊文帝章	-12.1814
岌	-12.1814
𩲸	-12.1814
饋	-12.1815
㬋	-12.1815
丿	-12.1815
九幽玉匱	-12.1815
年月日時告下具位	-12.1815
肺中白炁	-12.1815
僊	-12.1816
囉哩㖫	-12.1816
怜	-12.1816
淄	-12.1816
撩	-12.1816
叹	-12.1816
霎	-12.1816
鷇	-12.1817
笥	-12.1818
四種人天	-12.1818
膕	-12.1818
謨	-12.1818
坐起卧息	-12.1818
瘍	-12.1818
二二生三三生萬物	-12.1818
右出洞神經	-12.1819
篋	-12.1819
𠰢	-12.1819
綝	-12.1819
槨	-12.182
羣衆叛	-12.182
當須立觀度人若	-12.182
鄕諸靈官㧞贖	-12.182
荄	-12.1821
緬	-12.1821
虀	-12.1822
酹	-12.1822
儷	-12.1823
父母夫人女第	-12.1823
擗	-12.1824
䑛	-12.1825
耨	-12.1825
鋒芒鋒芒光垂	-12.1825
右出老子道經	-12.1825
孜	-12.1826
天師幸哀	-12.1827
癎	-12.1827
蘖	-12.1827
竦	-12.1828
胎動不安	-12.1828
太極金書上經	-12.1829
角亢氐房心尾箕	-12.183
鷺	-12.183
謐	-12.1831
石景水母	-12.1832
陽之符則	-12.1832
无思江由天	-12.1832
劬	-12.1833
斕	-12.1833
娉	-12.1834
啹	-12.1834
刼	-12.1834
㕮咀以水六升煑取三升	-12.1834
𠺕	-12.1836
坎虎離龍	-12.1837
常清常靜	-12.1838
右出洞真變化七十四方經	-12.1839
王所治之天有	-12.1839
洊	-12.184
軺	-12.184
道典論卷之	-12.1842
虎遶龍蟠	-12.1854
功過上真總領	-12.1859
羽之裘腰帶	-12.1863
帝大魔王頭戴横天	-12.1864
帝消魔大王常以	-12.1878
輪羽車飛行雲中遊宴五嶽	-12.1879
右十五味爲末蜜丸如梧子	-12.1913
右十味㕮咀以水九升	-12.1924
糊爲丸如梧桐子大每服	-12.2199
得之以類相從因以相補共成一善辭矣	-12.2401
身生天受福南軒闔門昇度普天獲恩次	-12.2601
丸如梧子大酒服二十丸	-12.316
痣	-12.3177
若道士女官	-12.3179
腠	-12.3183
厢	-12.3186
右十二味㕮咀以水一斗煑取三升	-12.3188
孫真人備急千金要方卷之四十	-12.3189
烏雌雞一隻	-12.3197
茶清調下	-12.32
螢	-12.3202
喃	-12.3203
悖	-12.3205
囉娑婆薩訶	-12.3207
摹	-12.3207
迨	-12.3207
臀	-12.3208
咦	-12.3209
渝	-12.3209
右十一味㕮咀以水九升煑取三升	-12.3209
五言律詩	-12.3211
麨	-12.3211
满	-12.3212
爆	-12.3212
鳳棲梧	-12.3212
藻	-12.3213
走骨行屍	-12.3213
不聞香臭	-12.3214
夢與鬼交	-12.3215
價直多少	-12.3215
楹	-12.3216
詫	-12.3217
縉	-12.3217
苛	-12.3217
曈	-12.3218
凡八類至	-12.3219
𤑔	-12.3219
誠惶誠恐稽首頓首	-12.322
虚心實腹	-12.3221
追癆大將	-12.3221
味甘温無毒	-12.3221
餚	-12.3221
党	-12.3221
霶	-12.3221
駟	-12.3221
忠臣孝子	-12.3221
吮	-12.3222
匆	-12.3222
以水七升先煑	-12.3223
雷公電母風伯雨師	-12.3223
他皆倣此	-12.3223
少氣不足以息	-12.3223
湲	-12.3223
愴	-12.3223
扎	-12.3224
仁義禮智	-12.3224
陰下濕癢	-12.3224
踏莎行	-12.3226
墅	-12.3226
拜長跪言臣甲今歸命	-12.3226
旻	-12.3226
赭	-12.3226
三上三下白芷色黄	-12.3226
揜	-12.3227
濬	-12.3227
主㿗疝	-12.3227
靈寶天尊已得道大聖衆至眞諸君丈人	-12.3227
撓	-12.3227
𨦲	-12.3227
醯	-12.3227
擢	-12.3228
右七味㕮咀以水八升煑取三升	-12.3228
臯	-12.3228
桕	-12.3229
啘	-12.3229
嗅	-12.3229
裒	-12.3229
善男子善女人	-12.323
僥	-12.323
獠	-12.323
隍	-12.323
三十九帝二十四眞	-12.323
南北與東西	-12.323
珂	-12.3231
億曾萬祖	-12.3231
罌	-12.3231
某郡縣鄕里	-12.3232
性停命住	-12.3232
火棗交梨	-12.3232
悍	-12.3232
滎	-12.3232
害風兒怎生說	-12.3232
摽	-12.3233
卹	-12.3233
積功累行	-12.3233
觥	-12.3233
得道大聖衆至眞諸君丈人三十二天帝	-12.3233
止行之三十六年得	-12.3233
皋	-12.3233
四目老翁	-12.3233
賂	-12.3233
風前月下	-12.3233
筴	-12.3233
畿	-12.3234
飛天神人曰	-12.3234
海變松枯	-12.3234
相去十里久	-12.3234
蘇幕遮	-12.3234
嬴	-12.3234
燌	-12.3235
糺	-12.3235
蛀	-12.3236
澳	-12.3236
居百重之内	-12.3236
帝東華南極西靈北眞玄都玉京金闕七	-12.3236
悛	-12.3236
睿	-12.3236
一轉六神藏	-12.3236
洎	-12.3236
蜜陀僧	-12.3236
懆	-12.3236
妾	-12.3237
囿	-12.3237
爲極細末	-12.3237
菓	-12.3237
謟	-12.3237
匈	-12.3237
惒	-12.3237
㝠寂玄通	-12.3238
朂	-12.3238
太黄皇曾天	-12.3238
晻	-12.3238
萬劫保智用豈但在厥年奉戒不暫	-12.3238
九千九百度	-12.3238
剡	-12.3239
鶩	-12.3239
笑呵呵	-12.3239
帆	-12.3239
化毒消腫托裏散	-12.3239
奕	-12.3239
體投地歸命太上三尊願以是功德歸流	-12.3239
剜	-12.3239
𤷍	-12.3239
擫	-12.3239
𢖍	-12.3239
繕	-12.3239
鯁	-12.324
慟	-12.324
媾	-12.324
璣	-12.3241
天涯海角	-12.3241
太清玄元上三天无極大道	-12.3241
笏	-12.3241
放開心月	-12.3241
穗	-12.3241
喑	-12.3242
脘	-12.3242
裾	-12.3242
迄	-12.3242
鵰	-12.3243
守靈寳天文道士吞之靈炁鎮	-12.3243
已大覺矣	-12.3243
擒猿捉馬	-12.3243
次復爐法香	-12.3243
太明玉完天	-12.3244
綦	-12.3244
緇	-12.3244
譜	-12.3244
姙	-12.3245
庠	-12.3245
是男是女	-12.3245
大洞經下云	-12.3245
瀑	-12.3245
樟	-12.3245
徐來勒	-12.3245
終南山重陽子王嘉譔	-12.3245
无解今故燒香歸命	-12.3245
儕	-12.3245
昇天堂衣食自然	-12.3245
七祖充責	-12.3245
亶	-12.3245
賫	-12.3246
光兀騰騰	-12.3246
𨵙	-12.3246
臺中導引元氣又云	-12.3246
一十字召	-12.3247
爺	-12.3248
閨	-12.3248
窑	-12.3248
竈突墨	-12.3248
熒	-12.3248
隔遇予	-12.3248
自今以往	-12.3248
正月三月五月七月九月十一月	-12.3248
瘁	-12.3248
法海遺珠巻之	-12.3249
償	-12.3249
煎至七分去滓	-12.3249
兩傍相去各一寸五分	-12.3249
殂	-12.3249
无極世界一百天尊慈悲應號	-12.325
邯	-12.325
遘	-12.3251
内膠令烊	-12.3251
内音玉字下云	-12.3251
曰同法某甲九祖父母生世之日所行	-12.3251
覇	-12.3251
呉	-12.3251
赤明和陽天	-12.3251
竚	-12.3251
胞衣不出	-12.3252
呪曰北斗斗中	-12.3252
況於人乎	-12.3253
大洞真經三十九章	-12.3253
誦詠四天之音飛玄之章其日遣	-12.3253
跧	-12.3254
袍金甲緑靴	-12.3254
急急如髙上玉皇紫微帝君律令	-12.3254
巍	-12.3254
周穆王	-12.3254
窖	-12.3254
其星則號	-12.3254
稅	-12.3255
鸕	-12.3255
貰	-12.3255
風雷水火四部神王	-12.3255
咀	-12.3255
無刺已刺無	-12.3256
孚	-12.3257
淸	-12.3257
壠	-12.3257
垢面蓬頭	-12.3258
太安皇崖天	-12.3258
夸	-12.3259
詒	-12.326
終南山重陽子王嚞譔	-12.3261
笻	-12.3262
以詞贈之	-12.3262
唆	-12.3263
一二三四五	-12.3263
醵	-12.3263
紺	-12.3264
澄心遣慾	-12.3264
杞	-12.3265
沛	-12.3266
菲	-12.3269
喂	-12.3269
嚞	-12.3271
萃	-12.3273
疃	-12.3274
潁	-12.3275
圭爛飲	-12.3275
届	-12.3281
裙頽雲髻第	-12.3284
裙太上神仙洞天元洞	-12.3297
綬虎頭鞶囊或著	-12.3299
右八味㕮咀以水一斗煑取三升	-12.3641
穊	-12.4814
昭文館學士上柱國	-12.4814
者供給隨分	-12.4837
長病得之死	-12.4843
窘	-12.4844
去爪甲如韭葉	-12.4845
人形惡鬼貌	-12.485
我欲做神仙怎敢	-12.485
袍鐵甲白結袴黄皮䩺鞋	-12.485
儸	-12.4865
培	-12.4866
粳	-12.4869
用風流散填	-12.4869
悁	-12.487
㬠	-12.4871
撤	-12.4872
眦	-12.4873
奠	-12.4873
涵	-12.4873
脉搏堅而長	-12.4873
捶	-12.4874
擿	-12.4875
吠	-12.4875
彿	-12.4875
棊	-12.4875
瀋	-12.4875
无極世界一切神靈乞丐	-12.4876
波梨答惒天	-12.4876
鑛	-12.4876
尿有餘瀝	-12.4876
晅	-12.4877
嵓	-12.4877
屛	-12.4877
礱	-12.4877
茯	-12.4877
菱	-12.4878
黧	-12.4878
扄	-12.4878
訥	-12.4878
峽	-12.4879
碓	-12.4879
舎	-12.488
蔗	-12.4881
舅	-12.4881
苖	-12.4881
啗	-12.4881
纒	-12.4881
隄	-12.4882
慱	-12.4883
五言絕句	-12.4883
籜	-12.4883
俌	-12.4883
蠍	-12.4883
蘧	-12.4883
憾	-12.4883
畋	-12.4883
天怨地咎	-12.4884
綢	-12.4884
藺	-12.4884
尪	-12.4885
秋陽觀作	-12.4885
身天尊者謹按	-12.4885
在犍爲郡界	-12.4885
描	-12.4885
汀	-12.4886
桀	-12.4887
天靈節榮願保長生太玄之一守	-12.4887
吾無以加之也	-12.4887
柞	-12.4887
萸	-12.4888
轆	-12.4888
古往今來	-12.4888
深根固蔕	-12.4888
從古到今	-12.4888
隰	-12.4889
餔	-12.489
穽	-12.489
勺	-12.489
豚	-12.489
欎	-12.4891
紆	-12.4891
酒服二方寸七日	-12.4891
耄	-12.4891
睫	-12.4891
滲	-12.4891
罟	-12.4891
上禪善無量壽天	-12.4892
銓	-12.4892
日食起醉歸	-12.4892
芭	-12.4892
涸	-12.4892
肫	-12.4892
藪	-12.4892
蠧	-12.4893
諺	-12.4893
絕	-12.4893
多卧少起	-12.4893
勝己爭競功名	-12.4893
荀	-12.4893
鍊汞烹鉛	-12.4894
怵	-12.4894
収	-12.4895
邐	-12.4895
饍	-12.4895
倨	-12.4896
犯伐功斷事	-12.4896
駙	-12.4896
佇	-12.4896
怙	-12.4896
熠	-12.4896
鬲	-12.4896
棲霞長春子丘處機撰	-12.4896
三十六部尊經至心稽首玄中大法師	-12.4896
蝀	-12.4897
莭	-12.4897
奧	-12.4897
价	-12.4897
痴	-12.4897
追疔奪命湯	-12.4897
翎	-12.4898
禹餘糧	-12.4898
迍	-12.4898
侈	-12.4898
元始天尊无極大道太上道君高上玉皇	-12.4898
𠸎	-12.4898
大定癸卯	-12.4899
蹊	-12.4899
霈	-12.4899
荅	-12.4899
日平旦朱書東向服之	-12.4899
琪	-12.4899
崞	-12.4899
杉	-12.4899
埏	-12.4899
来	-12.4899
膾	-12.4899
霾	-12.4899
素奏丹符朱書白繒佩之以甲	-12.4899
无上无下无	-12.49
剃	-12.49
慼	-12.49
万	-12.49
寒靈丹殿	-12.49
譯	-12.49
吙	-12.49
十二人傳言奏事飛龍騎吏等一合來下	-12.4901
颭	-12.4901
筲	-12.4901
水者其人腹大	-12.4901
攛	-12.4902
閔	-12.4902
峩	-12.4902
剗	-12.4902
玉鑪三澗雪	-12.4902
於南丹洞	-12.4902
中亦使和心入	-12.4902
心月照雲溪	-12.4903
巫山一段雲	-12.4903
揆	-12.4904
䙱	-12.4904
溫	-12.4904
鬱察山浮羅之嶽	-12.4904
隈	-12.4904
燿	-12.4904
顒	-12.4904
值道化玄眞啓拔得入信根先師盟授三	-12.4904
行道得道求仙得仙	-12.4904
治産後惡露不	-12.4905
瞰	-12.4905
襆	-12.4905
杳默昏冥	-12.4905
拐	-12.4905
玉霞紫映内觀	-12.4905
蹲	-12.4906
需	-12.4906
驅雷役電	-12.4906
境滅心忘	-12.4906
鼉	-12.4906
纍	-12.4906
义	-12.4906
荼	-12.4907
每服二錢温酒調下	-12.4907
弈	-12.4907
敖	-12.4907
二轉四煞没	-12.4908
謦	-12.4908
海空智藏	-12.4908
羽飛裙頽雲髻	-12.4908
陵靡不周常卑故成淵海爲百川王是能	-12.4908
綉	-12.4908
甖	-12.4908
矮	-12.4909
塑	-12.4909
金錢甲馬	-12.4909
亨轟滑辣救	-12.4909
滕	-12.4909
紘	-12.4909
涬	-12.4909
確	-12.4909
虧世世善結縁精思	-12.4909
鞶	-12.4909
今日上告萬	-12.4909
筮	-12.491
禧	-12.491
右出西昇經	-12.491
女姹嬰嬌	-12.491
巨細洪纖	-12.491
彙	-12.491
熁	-12.491
醮之誠仰降	-12.491
靣	-12.4911
泝	-12.4911
出家之人若道士若女冠	-12.4911
三九素語玉精真訣	-12.4911
玉珮金璫太極金書	-12.4911
呴	-12.4912
天大聖衆至真尊神无極大道	-12.4912
玄胎平育天	-12.4912
金真玉光八景飛經	-12.4912
何如善而不達何能安哉	-12.4912
无極天尊已得道大聖衆至眞諸君丈人	-12.4912
胄	-12.4913
大洞眞經三十九章	-12.4913
願如上法今歸命	-12.4913
牙皆赤書白紙上存思訖	-12.4913
尺金龍一枚歸命	-12.4913
属	-12.4914
諏	-12.4914
方无極太上靈寶天尊	-12.4914
蚘	-12.4914
黠	-12.4914
妊	-12.4915
璇	-12.4915
罽	-12.4915
上三天玄元始三炁太上老君召出	-12.4915
嵎	-12.4916
四色土皇地載周境四垂不極不窮	-12.4916
无解今依盟眞玉匱女青	-12.4916
爭名競利	-12.4916
唧	-12.4916
籥	-12.4916
皚	-12.4916
攄	-12.4916
元載孔昇天	-12.4917
瞞	-12.4917
西方七寳金門皓靈	-12.4918
霳	-12.4918
杪	-12.4918
冨	-12.4919
癱	-12.492
聶	-12.4921
上揲阮樂天	-12.4921
桃源憶故人	-12.4921
上通無極下入幽冥	-12.4921
玄明恭慶天	-12.4922
紊	-12.4922
窈窈冥冥	-12.4922
机	-12.4922
頥	-12.4922
行神仙之道當以	-12.4922
鏗	-12.4923
呾	-12.4923
慣	-12.4923
一刀兩段	-12.4923
泒	-12.4923
恐怒喜思憂	-12.4923
无極曇誓天	-12.4923
犂	-12.4924
洞真青要紫書金根	-12.4924
皓庭霄度天	-12.4924
騷	-12.4926
淵通元洞天	-12.4926
變化靈符此則	-12.4926
蓆	-12.4927
綏	-12.4928
栰	-12.4928
翰寵妙成天	-12.4928
魂精秘音内諱玉佩	-12.4928
心叮囑門中士再三惜寸陰	-12.4928
右手尺中神門以後脉	-12.4929
荻	-12.4929
塜	-12.4929
紵	-12.4929
謎	-12.493
左手尺中神門以後脉	-12.493
糾	-12.4931
帝大魔王官屬招致	-12.4931
入三分灸三壯在	-12.4932
幙	-12.4937
詎	-12.4937
甎	-12.4938
邂	-12.4939
宫中仍微祝曰	-12.494
景之道行之八年則	-12.4941
顫	-12.4943
而爲說法果後而見此王身若欲見	-12.4943
堵	-12.4945
唵唵撼撼急召丁	-12.4956
霟	-12.4971
太上神仙洞地洞真	-12.4971
以水一斗五升煑取五升	-12.512
一斗四升煑取	-12.6145
明真科經云無極世界男女之人生世	-12.6593
願念法門二衆無	-12.6834
穄	-12.6845
根皆治戒所得神通故也	-12.6847
莢	-12.6849
玃	-12.6852
蟇	-12.6853
齁	-12.6855
姆	-12.6857
湍	-12.6858
焱	-12.6859
咯	-12.686
脉養不可針灸其經足	-12.6861
櫻	-12.6862
合爲腑其經	-12.6863
茇	-12.6865
㾓	-12.6869
抬	-12.6869
炕	-12.687
飱	-12.687
渉	-12.687
不澤毛折乃死	-12.687
㕮咀以酒四斗漬	-12.6871
誹	-12.6872
嚇	-12.6873
𠂢	-12.6873
晟	-12.6874
去爪甲角如韭葉	-12.6874
燧	-12.6874
天皇伽耶霹靂攝	-12.6875
淼	-12.6875
此像生也大損元覺之神矣若能治之名	-12.6875
微小爲消癉滑甚爲	-12.6876
火針七鋥鋥三下	-12.6876
獅	-12.6876
蚪	-12.6877
裸	-12.6877
沮	-12.6878
蜉	-12.6878
垠	-12.6878
妳	-12.6878
糶	-12.6878
如君所說皆不合至真	-12.6878
齦	-12.6878
閽	-12.6879
距	-12.688
鐄	-12.688
睾	-12.688
咽止次噏	-12.688
耎	-12.6881
巓	-12.6881
甞	-12.6881
馴	-12.6881
泳	-12.6881
圊	-12.6882
上方靈寳无極至道開化真經卷	-12.6882
翦	-12.6883
醎	-12.6883
再至曰平三至曰	-12.6883
形相比於上	-12.6883
烏賊魚骨	-12.6883
經病四至脫精五至死六至命盡	-12.6883
則應臟寒則應腑	-12.6884
嘧	-12.6884
箒	-12.6884
蕷	-12.6885
胃昴畢觜	-12.6885
右十三味㕮咀以水一斗煑取三升	-12.6885
炲	-12.6885
依此儀違奪筭	-12.6885
新汲井水	-12.6885
潜洞太虛圍	-12.6885
病爲瘧者令人	-12.6885
天煞地煞年煞月煞日煞	-12.6886
緝	-12.6887
六發狂風大霹靂	-12.6887
檝	-12.6887
瞀	-12.6887
修德行道其神自詣諸百姓取	-12.6887
宫遣符呪唵	-12.6887
腑臟温病陰陽毒	-12.6887
皷	-12.6888
箔	-12.6888
攖	-12.6888
盎	-12.6888
葈	-12.6888
如湯沃雪	-12.6889
鯤	-12.6889
不知動入罪網不能自悟	-12.6889
踴	-12.6889
譚馬丘劉	-12.689
鎧	-12.689
冐	-12.689
庄	-12.689
黔	-12.689
翡	-12.689
噪	-12.689
塌	-12.6891
杲	-12.6891
日十五日十八日二十	-12.6891
倩	-12.6891
爲微邪雖病即瘥	-12.6891
訊	-12.6891
天災自消星宿復位	-12.6892
蚕	-12.6892
乘母爲實邪雖病自愈反得	-12.6892
脗	-12.6892
賊邪大逆十死不治反得	-12.6892
髫	-12.6892
蝟	-12.6892
西州續命	-12.6893
足小趾外側	-12.6893
更裏瞥看	-12.6893
蛭	-12.6893
哮	-12.6894
厖	-12.6894
鋅	-12.6894
鏳	-12.6894
太上靈寳淨明洞神上品經	-12.6894
可謂得道意矣然	-12.6894
王王者不受邪	-12.6894
湏	-12.6895
戯	-12.6895
瑣	-12.6895
右三十二味爲末蜜和丸如梧	-12.6895
仙諸靈官名山大澤一切神靈乞丐	-12.6895
苒	-12.6896
磐	-12.6896
榛	-12.6896
獐	-12.6897
上清三天君列紀經	-12.6897
茱	-12.6897
賞善罰惡	-12.6897
犒	-12.6897
元帥斷疰大將劉元帥	-12.6897
繭	-12.6897
𥬇	-12.6897
并本命日朱書向	-12.6897
壘之地四音土皇地載周境四	-12.6898
鯢	-12.6898
恙	-12.6898
鋸	-12.6898
爲末蜜和丸如梧子大飲服	-12.6898
鏤板印行	-12.6898
右出洞真迴元九道飛行羽經	-12.6898
上會靈寳太玄都玉京	-12.6899
婉	-12.6899
諄	-12.6899
躑	-12.6899
千頭萬緒	-12.69
不已復感於邪内舍於	-12.69
常令酒氣相	-12.69
逗	-12.69
嫂	-12.69
諌	-12.69
大洞雌一篇目云	-12.6901
瞠	-12.6901
己應衆生注心莫不均大聖弘至教亦	-12.6901
淇	-12.6901
㓕	-12.6901
某嶽先生某甲等上啓	-12.6901
親同學門人隱居山林學眞	-12.6901
帝王國主君臣吏民受道法師父母	-12.6901
篙	-12.6902
坌	-12.6902
藋	-12.6902
㾦	-12.6902
丹景道精隱地八術	-12.6902
乂	-12.6903
犖	-12.6903
噬	-12.6903
芻	-12.6903
湮	-12.6903
咏	-12.6903
棠	-12.6903
糲食麤衣	-12.6903
兵馬各九億萬騎	-12.6903
月用事則三分損一而生	-12.6903
臠	-12.6904
𠑽	-12.6904
針胃管補之關上脉	-12.6904
俞二穴在第	-12.6904
企	-12.6904
然燈思眞轉經解㧞宿罪千咎萬愆願從	-12.6904
庾	-12.6904
蹶	-12.6905
返老還童	-12.6905
迪	-12.6905
巳上諸蟲在人身中	-12.6905
椅	-12.6905
綃	-12.6905
牒年月日時牒具位姓某押	-12.6906
億曾萬祖父母伯叔兄弟	-12.6906
其孰能與於此	-12.6906
彖	-12.6906
輅	-12.6906
好生度命天尊至心歸命	-12.6906
進道無替位登	-12.6906
無邊無際無色之氣如是第	-12.6907
騶	-12.6907
作禮上白天尊	-12.6907
寜	-12.6907
糲	-12.6907
軾	-12.6907
奔日月二景隱文云	-12.6907
靈之公或號	-12.6907
北方玄上玉晨天尊至心歸命東北	-12.6907
皇天尊至心歸命下方	-12.6908
憧	-12.6908
灘	-12.6908
菡	-12.6908
風鄰月伴	-12.6908
两	-12.6908
三百卷玉訣九千篇符圖七千章	-12.6908
胭	-12.6908
宫中眞皇君頭建	-12.6908
左右捧香驛龍騎吏侍香金童傳言散	-12.6909
長居无爲衣食自然被受上聖濟度之恩	-12.6909
至心歸命西方太妙至極天尊至心歸命	-12.6909
𢘆	-12.6909
金壺碧酒	-12.6909
沴	-12.6909
三皇五帝三王五霸	-12.6909
甲九祖父母生存所行元惡醜逆觸犯	-12.6909
元明文舉天	-12.691
固蔕深根	-12.691
渇	-12.691
君君夫人共乘八景	-12.691
渥	-12.691
獬	-12.691
醁	-12.691
之中魂充考楚萬痛備嬰長淪萬劫終天	-12.691
出光明上昇天堂衣食自然甲身得道與	-12.691
所行罪負上觸天光生死殃對	-12.6911
侍衛聖君上登玉清金闕之宫次	-12.6911
合丹成丹鍊金成金飛行玄虛騰景太空	-12.6911
縞	-12.6911
之則生逆之則死	-12.6911
學仙道士常以本命甲子	-12.6911
黿	-12.6911
繹	-12.6911
鎊	-12.6911
覿	-12.6912
鶚	-12.6912
賸	-12.6912
領仙玉郞	-12.6912
刺上記姓名年月於刺下投靈山之嶽	-12.6912
頌道爲无心宗一切作福田立功无定主	-12.6912
惆	-12.6913
神雷轟轟龍雷作水水雷波翻社令雷	-12.6913
繇	-12.6913
儂	-12.6914
之人七百年内聽得三傳	-12.6914
胇	-12.6914
埿	-12.6914
恩十方玉童玉女侍衛香煙傳奏所	-12.6914
日不可用用之致	-12.6914
萆	-12.6914
圏	-12.6915
躅	-12.6915
女通靈事畢復位萬神潜寧右出金籙經	-12.6915
漾	-12.6915
熛	-12.6915
痪	-12.6915
如恒河沙	-12.6915
御太上无極道前右出明眞經次	-12.6915
科品齎黄紋之繒	-12.6915
桔	-12.6916
太極濛翳天	-12.6916
洮	-12.6916
重陽憫化妙行眞人	-12.6916
神官侍衛神文營護行符者身	-12.6916
裕	-12.6917
册	-12.6917
始學之人名録上言高上帝君録校玄名	-12.6917
榦	-12.6917
固天元始之炁佩之	-12.6917
明傳教法師黄元吉編集嗣	-12.6917
丫	-12.6917
場密祝法	-12.6917
即得化生始分之中刻書金札以佩身	-12.6917
靳	-12.6918
瑜	-12.6918
四錢姜四片	-12.6918
屐	-12.6918
炁周遍一身至	-12.6918
寞	-12.6918
簸	-12.6919
神山無爲應縁長生子劉處玄造	-12.6919
瀨	-12.6919
羅㬋土宿	-12.6919
後聖道君列紀云	-12.6919
右件爲細末每服二錢水一盞	-12.6919
寸長一尺二寸埋之所住	-12.692
凾	-12.692
蘋	-12.692
靊	-12.692
𠯐	-12.692
𩲁	-12.692
舘	-12.692
洞真天關三圖七星移度經	-12.692
隣	-12.692
䢖	-12.692
䕡	-12.6921
墾	-12.6921
靜字元德吴興東遷人也	-12.6921
譔	-12.6921
俻	-12.6921
詆	-12.6921
迓	-12.6922
而直書其銘曰	-12.6922
雩	-12.6922
玉女五帝直符各三十六人	-12.6923
之人即奏名天王刻書	-12.6923
𠷈	-12.6923
交靈素綬	-12.6923
戢	-12.6923
常以鷄鳴陽光始分	-12.6923
琰	-12.6923
串	-12.6924
蛆	-12.6924
豸	-12.6924
炁下入身中思行	-12.6924
繪	-12.6925
貎	-12.6925
貺	-12.6925
敝	-12.6926
方無極飛天神王長生大聖無量度人	-12.6926
鏑	-12.6927
十戒十四持身	-12.6927
四天王恒以八節月朔之日遊觀	-12.6927
蔵	-12.6927
乘青牛薄板車	-12.6928
嚀	-12.6928
金華宫中銀簡玉録	-12.6928
千萬丈秋三月頭建	-12.6929
中下來降室内須臾化生	-12.6929
祁	-12.693
無上玄元運雷副相金闕	-12.693
叩齒九通祝曰制萬魔致神仙	-12.6931
書文埋所住嶽	-12.6931
羅飛裙腰帶	-12.6931
簡注上我名於	-12.6932
宜桂枝湯太陽病	-12.6932
曼	-12.6933
眞誥第七云	-12.6933
淆	-12.6933
攧	-12.6934
圜	-12.6934
至萬道中王者	-12.6934
糴	-12.6935
錡	-12.6936
井鬼柳星張翼軫	-12.6937
猖	-12.6938
鐸	-12.6938
來迎兆身上昇太清	-12.6938
荔	-12.6939
尊師答曰謹按	-12.6941
帝自降於寢房迎以	-12.6941
霞飛輪上昇上清宫	-12.6941
彗	-12.6942
侍側次思	-12.6942
蕊	-12.6943
星精光口引嚥之	-12.6943
命魔靈幡	-12.6943
掲	-12.6945
豁豁洋洋	-12.6946
也丹陽又問何者名爲	-12.6947
無夢無夢無夢	-12.6948
鼻引口吸	-12.6949
龔	-12.6949
使者使者速起唵	-12.6951
剸	-12.6953
鼓孤眠内守	-12.6954
蹌	-12.6955
㡧	-12.6957
尚可治急灸	-12.6964
某甲體眞合仙俯仰遣	-12.6968
亦當修齋行香誦經	-12.697
奏真仙名録上言高上帝君	-12.6974
孳	-12.6982
右符章黄素朱書	-12.6982
紗單衣或爲	-12.6988
三郎霹靂震天地	-12.6989
、	-12.699
紙上服之叩齒九通仰存四土皇姓諱悉	-12.7077
有若干千億萬衆	-12.93
欬經久不已傳入	-12.9303
中内音書於其上	-12.9312
瘃	-12.9315
更哩囉出舍郞	-12.9332
藐	-12.9337
痎	-12.9337
足小趾次趾	-12.934
軃	-12.9343
如錐刀所刺	-12.9351
三月上建日採	-12.9353
唦	-12.9354
聘	-12.9355
湫	-12.9357
撾	-12.9358
憊	-12.9358
賭	-12.9358
𠻗	-12.9359
蠹	-12.936
𠲰	-12.9361
郜	-12.9361
右七味㕮咀以水九升煑取三升去滓	-12.9361
右手寸口氣口以前脉陰	-12.9361
這是獲罪於	-12.9361
鬬	-12.9362
日之脾閉塞不通身痛體重	-12.9365
三界九道二十五性色等	-12.9365
琚	-12.9365
剩	-12.9365
鱔	-12.9365
衃	-12.9366
瀰	-12.9368
端正端正則和利難傷	-12.9368
脉養不可針灸其經手	-12.9368
簀	-12.9369
狎	-12.9369
菒	-12.9369
刖	-12.9369
病少愈而卒死何以知之曰	-12.9371
楯	-12.9371
愜	-12.9371
脫腠理開汗大泄	-12.9371
黏	-12.9372
而藏氣通於内外部亦隨而應之	-12.9372
櫟	-12.9372
漣	-12.9372
中山神呪元始玉文持誦一	-12.9372
却鬼延年按行五嶽八海知聞魔王	-12.9372
浥	-12.9373
楗	-12.9375
以精炁行乎其中	-12.9375
韮	-12.9375
僵	-12.9376
姮	-12.9376
螺	-12.9376
太陰與陽明爲表裏	-12.9376
度者在天中度者在神靈小度者在人也	-12.9376
竈君殿下玉仙明英童子姹女尊神	-12.9376
諠	-12.9377
彪	-12.9377
此謂太過病在外其	-12.9377
長病得之死卒病得之生三部脉	-12.9377
聖水玉陽王處一撰	-12.9378
拿	-12.9378
舉其綱見其始	-12.9378
愚生甚畏之子知畏	-12.9378
反此者病何如而反其氣來	-12.9379
陷起者必有病生	-12.9379
䜟	-12.9379
摙	-12.9379
凈明忠孝全書卷之	-12.938
忺	-12.938
堦	-12.938
禺	-12.938
十投而一止者	-12.938
汹	-12.938
里中迴眞下映入兆	-12.938
嶷	-12.9382
則陰病陰脉反小於寸口	-12.9382
黷	-12.9382
俞穴中四穴輪轉周而復始俟蟲	-12.9382
爲末蜜丸如梧子酒服五丸日三	-12.9382
喊	-12.9382
百壯横三間寸灸之	-12.9382
纈	-12.9382
駞	-12.9382
䘙	-12.9382
哄	-12.9382
㩉	-12.9382
鶻	-12.9383
右十二味爲末蜜和丸如梧子	-12.9383
迂	-12.9383
撅	-12.9383
譎	-12.9383
鍜	-12.9383
侶	-12.9384
褰	-12.9384
蘊	-12.9384
氲	-12.9384
等得仙身生紫絡羽文	-12.9384
絜	-12.9384
前治陰後治陽	-12.9386
𠰸	-12.9386
蕖	-12.9386
㕮咀以水七升煑取一升五合	-12.9386
檠	-12.9386
癫	-12.9386
者實因法服而得尊重	-12.9387
戊辰戊戌	-12.9387
窶	-12.9387
四明破骸天猷滅𩔖神刀一下萬鬼自潰	-12.9387
更擣三萬杵	-12.9387
讌	-12.9387
蜩	-12.9387
鷃	-12.9387
宿右八天位在	-12.9387
旒	-12.9389
牯	-12.9389
諶	-12.9389
及一切第三戒者守貞讓義不婬不	-12.9389
不肯受因留結爲積故知	-12.9389
嬰嬌女姹	-12.9389
彝	-12.9389
㾴	-12.9389
仃	-12.9389
泆	-12.9389
牲	-12.9389
居仙聖自相尋若不信法言胡	-12.9389
柈	-12.939
黥	-12.939
乃獨行真道而不言故能	-12.939
萄	-12.939
面建十法座	-12.939
殺愍濟群生慈愛廣救潤	-12.9391
犯衆惡第七戒者不	-12.9391
直不犯口過第六戒者	-12.9391
過想念在法第二戒者守	-12.9391
酒節行調和氣性神不損傷	-12.9391
本願各由人虚	-12.9391
六壘金剛鐵澤地	-12.9391
蒼舌緑齒四目老翁天丁力士威南禦	-12.9391
聖文躬心承法恒如對神第九戒者不得	-12.9391
神州七轉七變經云紫晨	-12.9391
絁	-12.9391
大而緩者是脾之乘	-12.9391
浮大而洪者是心之乘	-12.9391
之氣覆冠我身若之	-12.9391
來而久住者病在	-12.9391
千人衛我前後以	-12.9391
帝玉司君當以立	-12.9391
蘆芽穿膝之法	-12.9391
儼	-12.9392
箋	-12.9393
甸	-12.9393
闐	-12.9393
湎	-12.9393
貶	-12.9393
北方洞陰朔單鬱絶五靈玄老君	-12.9393
涂	-12.9393
玄都大洞三景弟子小兆眞人	-12.9393
舉動施爲平等一心人和神穆行常使然	-12.9393
禎	-12.9393
紳	-12.9393
繒佩之九年玉司削兆死過度兆生宫遣	-12.9393
第一壘色潤地	-12.9393
偯	-12.9394
駁	-12.9394
瞎	-12.9394
钁天大斧斬鬼五形炎帝烈血北斗	-12.9394
𡨋	-12.9394
七千年聽得三傳	-12.9394
性光命似油	-12.9394
宙	-12.9395
蠆	-12.9395
袒	-12.9395
榰	-12.9396
稈	-12.9396
簮	-12.9396
俚	-12.9396
唎勑吒娑訶吽	-12.9396
海水帝神王頭建大晨寳明之冠衣	-12.9396
犍	-12.9396
榴	-12.9396
燋	-12.9397
歘火大神鄧伯温	-12.9397
迴天九霄白簡青	-12.9397
寨	-12.9397
芘	-12.9397
廣寧子郝大通撰	-12.9397
病在上食後服病在下	-12.9398
欲飛登之法思見	-12.9398
自然生金液丹碧芝英	-12.9398
啞將大將李元帥崱額大將趙元帥	-12.9398
邢	-12.9398
南方梵寳昌陽丹靈真老	-12.9398
寳玄臺紫微上宫靈寳至眞明皇道君	-12.9398
罪福縁對㧞度上品	-12.9398
蝖飛蠕動蚑行喘息一切衆生	-12.9398
壹善壹惡爲	-12.9398
師所在之方心拜三過願師得	-12.9398
者願見明師不論	-12.9398
方赤書玉文十二字則	-12.9399
高上三寳領仙侍郞五方五帝監靈大夫	-12.9399
高皇四司五帝十二仙	-12.9399
騎六千人上詣	-12.9399
玎	-12.94
曖	-12.94
第三壘石脂色澤地	-12.94
第八卷云陶弘景字通明魏郡平陽人也	-12.94
願天願地願風願雲	-12.94
承天師㫖教建議塗炭	-12.94
在犍爲郡南安縣去成都一百	-12.94
紬	-12.94
運關三百三十度謂天氣王於	-12.94
畹	-12.9401
劉凝之字志安小名長年南郡枝江人也	-12.9401
桴	-12.9401
終南山重陽子王喆譔	-12.9401
傳言奏事飛龍騎吏等	-12.9401
霰	-12.9401
鞅數劫億宗以來逮及某身	-12.9401
嶽先生之號生年屬	-12.9401
玉寳元靈元老帝君	-12.9401
膓	-12.9401
禮行道觀聽法音天王下降萬靈朝焉	-12.9402
垂恩曲映特見哀原賜	-12.9402
官飛行武騎八千人上詣	-12.9402
嘟	-12.9402
軰	-12.9402
尓	-12.9402
第二壘剛色地	-12.9402
闍	-12.9402
㙛	-12.9402
叠	-12.9402
呤	-12.9402
碽	-12.9402
澇	-12.9402
牘	-12.9402
訂	-12.9402
保言晃晃金剛軀	-12.9402
縑	-12.9402
兵各布星光速助某帥𦋇捕爲	-12.9403
帝用事三千三百度	-12.9403
𨾏	-12.9403
南方玄眞萬福天尊至心歸命西南方	-12.9403
從羌老仙官騰天之騎五千人上詣	-12.9403
方度仙上聖天尊至心歸命東方玉	-12.9403
胝	-12.9404
絛	-12.9404
穫	-12.9404
驎	-12.9404
哯	-12.9404
禬	-12.9404
紲	-12.9404
𥐼	-12.9404
无朗朗超十方結空峙玄霄	-12.9404
火鈴又耶赤壁	-12.9404
呆	-12.9404
月用事則三分益一而生	-12.9404
未來太極天尊至心歸命玉京玄臺紫微	-12.9404
盒	-12.9404
右在太玄都玉京山元始靈寶	-12.9405
奶	-12.9405
捫	-12.9405
瀲	-12.9405
溷	-12.9405
琯	-12.9405
抃	-12.9405
擯	-12.9405
嗄	-12.9405
瞪	-12.9405
臰	-12.9405
其一帝輒備一門以奉屬於中央	-12.9405
八鍊丹胎玉符	-12.9405
智慧恒觀身學道之所先眇	-12.9405
蒞	-12.9405
蓴	-12.9405
蕃	-12.9405
西北方无量太華天尊至心歸命上方玉	-12.9405
爲帝王良輔善吏	-12.9406
侍香金童散華玉女五帝直符	-12.9406
挹流芳其妙難思議	-12.9406
姊	-12.9406
傖	-12.9407
君太上丈人皇上老君皇上丈人青靈上	-12.9407
馬劣猿顛	-12.9407
咆	-12.9407
曚	-12.9407
燮	-12.9407
洞玄太極隱注經	-12.9407
蠎	-12.9407
犁	-12.9407
醅	-12.9407
塋	-12.9407
拗	-12.9407
瘮	-12.9407
胠	-12.9407
願神願仙長生度世飛行上清	-12.9407
龍景九鍊之符	-12.9407
闈	-12.9408
天騶激戾威北	-12.9408
篁	-12.9408
睎	-12.9408
纜	-12.9408
𠺗	-12.9408
㑺	-12.9408
觔	-12.9408
槿	-12.9408
砲	-12.9408
芝英衆眞百靈交會在此香火之前願	-12.9408
靜室之中自然生金液丹	-12.9408
鳳臺曲素上經	-12.9408
上九天帝王神君衆仙靈官心存九再拜	-12.9408
至眞諸君丈人无極天尊願垂曲恩降賜	-12.9409
庻	-12.9409
魁𩲁𩵄䰢魓𩳐魒	-12.9409
儹	-12.9409
濳	-12.9409
挿	-12.9409
晞	-12.9409
立春春分立夏夏至立秋秋分立冬冬至	-12.9409
者實因輕慢為人輕賤	-12.9409
入二寸留七呼灸三壯在	-12.9409
无極元始高上玉帝太眞天尊	-12.9409
謹請元應太皇府一炁都綂大將軍	-12.9409
赳	-12.9409
中諸神仙乞丐原	-12.941
下迎兆身上昇太清	-12.9411
姥	-12.9411
戕	-12.9411
旄	-12.9411
曬	-12.9411
碁	-12.9411
若其腑臟有病從	-12.9411
𨊧	-12.9411
祝畢去手勿復掩	-12.9411
三月行道思神招靈以	-12.9411
爲主四物從之先内主擣百杵乃次内	-12.9411
覈	-12.9411
神仙諸靈官罪結九幽謫役	-12.9411
任長淪萬劫終天無解今依盟眞	-12.9412
𧷤	-12.9412
憍	-12.9412
烖	-12.9412
疢	-12.9412
閡	-12.9412
鬨	-12.9412
向叩齒心存曰	-12.9412
逆之則亂反順爲逆是謂關格病則生矣	-12.9412
匏	-12.9412
𡜍	-12.9412
敕呪南方丙丁君流金擲火鈴	-12.9412
赤帝丹靈老子太和玉女長生司馬	-12.9412
願得太上十方正眞之炁來入	-12.9413
本願各由人虛	-12.9413
紙上投水中沐浴則	-12.9413
汚	-12.9413
綠	-12.9414
字三過畢曰願得與	-12.9414
技	-12.9414
捍	-12.9414
薙	-12.9414
強	-12.9414
恐如人將捕之	-12.9414
趄	-12.9414
釤	-12.9414
世界則萬靈束帶魔王稽首禮迎	-12.9414
急救仙方卷之十	-12.9414
茨	-12.9414
五帝命魔靈旛	-12.9414
仿	-12.9415
幷	-12.9415
藭	-12.9415
籃	-12.9415
爲我記名於白簡之上結録於青文之	-12.9415
犗	-12.9415
簡録定名五老仙伯領仙玉郞化入我身	-12.9415
斝	-12.9415
帝眞符召直符	-12.9415
芒盡來入喉中都畢又	-12.9415
鞚	-12.9415
又云有問者曰今	-12.9415
嘟咭唎吽吒噠囉噠囉	-12.9415
大唐陸誨羽客王縣河修	-12.9415
生君司命司録南極度世君	-12.9415
統領天兵隨侍某	-12.9415
裩	-12.9415
輻	-12.9415
百千萬重道炁千二百官君太清玉陛下	-12.9416
綰	-12.9416
穿鬼心破鬼肚	-12.9416
懟	-12.9416
雲錦之袍冠七寳玉冠手執白	-12.9416
籤	-12.9416
區别功過修飛仙之道當以其日	-12.9416
倶	-12.9416
下元符固天炁禳此災度陽九百六之會	-12.9417
翩	-12.9418
上合之時沐浴清齋	-12.9418
愕	-12.9418
竺落皇笳天	-12.9418
帀外黄赤二氣更相纏繞洞映一身夫人	-12.9418
方赤書玉文十二字右十二字則	-12.9418
一百二十尺或一十二尺金龍一枚歸命	-12.9418
劫交天地改易金玉山海人民鳥獸	-12.9418
幽玉匱長夜之函普使人天離苦解脫消	-12.9418
琦	-12.9418
締	-12.9419
素梟三神嚴駕䕫龍威	-12.9419
柒	-12.9419
旍	-12.9419
逭	-12.9419
龍景九文紫鳳赤書	-12.9419
始皇孝芒天	-12.9419
徽	-12.9419
四垂不極不窮无邊无際其土皇常以	-12.942
四音土皇地載周境	-12.942
麯	-12.942
笳	-12.942
蕕	-12.942
厪	-12.942
千乘萬騎之官服之八年則	-12.9421
櫃	-12.9421
蔑	-12.9421
向服符先微呼八景陰名飛靈玉符服之	-12.9421
絲纏之著符投	-12.9421
惟一日也如此法三年一埋不年年	-12.9421
消釋乞某身與眞氣合德景福流光萬禍	-12.9421
逢妖寸斬遇鬼	-12.9422
㦬	-12.9422
三十萬兵衞我九重	-12.9422
攴	-12.9422
上清春三月則變形爲	-12.9422
疴	-12.9422
筏	-12.9422
行年本命衝破厭殺元辰刑害災禍疾病	-12.9422
也但存思服御依節行之爾九年	-12.9422
睠	-12.9422
之日朱書桐板之上令廣	-12.9423
帝玉司道君玄清洞元	-12.9423
面酒九再拜曰	-12.9423
殟	-12.9425
熔	-12.9425
捱	-12.9425
七宿中外諸星官下違	-12.9425
同煎至八分通口服	-12.9425
元陰陽變化二符	-12.9425
山君无不降見於兆形也太上	-12.9425
弟子某甲年若干若	-12.9425
麪	-12.9425
𠱸	-12.9425
撆	-12.9426
㗭	-12.9426
碩	-12.9426
駸	-12.9426
禋	-12.9426
者真文也其餘非也	-12.9426
袷	-12.9426
針入三分留七分	-12.9427
向服之行事訖朱書符	-12.9427
拓	-12.9427
囉哩㖫哩㖫囉	-12.9427
波黎答惒天	-12.9427
靈入砂内煞邪精北帝敕召	-12.9427
桐板上記年月日子某郡某縣	-12.9428
斬釘截鐵	-12.9429
萬劫還生不人之道	-12.9429
崔盧鄧竇四大天丁	-12.9429
眵	-12.9429
盱	-12.9429
駝	-12.9429
𠺒	-12.9429
先服上符後服下符臨服符時叩齒	-12.9429
吳	-12.9429
昭清覺靜慧	-12.9429
者足少陰經也病苦	-12.9429
蕙	-12.943
辟尸千里祛却不祥敢有小鬼欲來	-12.943
盾	-12.943
咷	-12.943
之氣通神招真保命長存服之八年則	-12.943
嶽仙官十二人悉乘	-12.943
日夜半一月三日三時香湯沐浴	-12.943
臈	-12.943
觀明端靖天	-12.943
察使鐵雷師行便冝事五品	-12.943
時入齋堂俯心因念	-12.943
愔	-12.9432
鵷	-12.9432
迯	-12.9432
侍衛勿不精有考吏	-12.9432
急急如道祖至尊行軍律令	-12.9433
挐	-12.9433
璀	-12.9433
靚	-12.9433
四萬劫一開道士命屬	-12.9433
真人來見玉女衛形當以	-12.9433
靈寳真一自然經訣云	-12.9434
汧	-12.9434
㘅	-12.9434
霞飛輪下降兆房	-12.9436
嚕	-12.9436
繒内神杖次	-12.9436
朢	-12.9438
鏘	-12.944
啊	-12.944
高上玉晨命魔靈旛主制	-12.944
千千截首萬萬剪形	-12.9441
素玉女降見兆身通靈知	-12.9441
素語内祝第	-12.9441
乞迴神駕下降	-12.9443
俸	-12.9444
荊	-12.9444
贄	-12.9454
咒畢以舌䑛	-12.9458
咽液三十過行之十年	-12.9458
極老人來至授	-12.9458
左右龍虎君捧香驛龍騎吏	-12.946
彈子大每服一丸	-12.9462
鳳臺如九天信高上玉晨命魔靈幡	-12.9468
季裁量十四郎	-12.9475
羽飛華裙建	-12.9477
輸百壯服續命湯若	-12.9487
乞身生天受福南	-13.07
來輔某身乞解除先世	-13.2516
時帝君太一五神混合變化爲一大神	-13.2546
太上靈寳淨明道元正印經	-13.2639
礎	-13.2643
桞	-13.2649
文館學士柱國臣	-13.2651
褻	-13.2652
嘔多涎沫氣下泄不療	-13.2662
早賜靈批隨願	-13.2664
太上靈寳淨明玉真樞真經	-13.2666
鋌	-13.2668
名爲大洞極天之政事	-13.267
鱓	-13.267
先取譩譆後取天牖風池	-13.2672
洞玄靈寳八仙王教誡經	-13.2673
以棘刺橫人行道	-13.2674
墯	-13.2676
玉女上奏三皇眞君三十六天神仙靈官	-13.2678
枋	-13.2678
蹋	-13.2679
不出四百日内促則	-13.2679
應增損斟酌賒促賒	-13.2679
天尊分形百萬處處同時是男是女	-13.2681
看人人生人皈依鬼擯伏邪不干其正以	-13.2681
二三四五六七八九十十一十	-13.2683
治下篩空心酒服方寸七日三治漏下去	-13.2683
牛拽車車中載寶	-13.2683
楷	-13.2685
吩	-13.2685
潦	-13.2685
倬	-13.2685
衙	-13.2685
鬍	-13.2687
旙	-13.2689
踒	-13.2691
售	-13.2691
七升煑取二升半去滓内膠令烊分三服	-13.2691
經也拘校上古中古下古	-13.2691
徭	-13.2693
殳	-13.2693
隷	-13.2693
弛	-13.2693
皇眞一君願垂臨饗又曰	-13.2693
鷙	-13.2695
重陽真人金關玉鎖訣	-13.2695
硫	-13.2696
眶	-13.2697
凭	-13.2697
以水一斗二升煑取六升去滓	-13.2697
眴	-13.2697
病爲治餘病非對	-13.2697
鏃	-13.2697
租	-13.2699
佺	-13.2699
抉	-13.2699
此謂不及病在中太過則令人	-13.2699
焜	-13.2699
䐴	-13.2699
玕	-13.27
丕	-13.27
霔	-13.2701
努	-13.2701
奰	-13.2701
說十二部經其經號曰洞	-13.2701
撑	-13.2702
雷二雷三雷四雷五	-13.2702
蟣	-13.2703
此之類凡一千二百條事皆令消釋乞某	-13.2703
駑	-13.2703
拘校上古中古下古文	-13.2703
全不産及斷緒	-13.2703
緜	-13.2704
吱	-13.2704
癜	-13.2704
諛	-13.2704
灸第七椎兩傍各	-13.2704
纊	-13.2705
罅	-13.2705
蜎	-13.2705
殖	-13.2706
六十日至百日兒一服二合半	-13.2706
元始智慧正觀解脫經云	-13.2706
斸	-13.2706
䪼	-13.2706
味爲末蜜和擣五千杵丸如梧子大	-13.2706
百八十戒三百大戒	-13.2706
考對在兆形永與	-13.2708
脈	-13.2708
悋	-13.2708
瘰	-13.2708
蒼牙鐵面劉天君	-13.2708
帝吒耆摩吒娑訶	-13.2708
惡人雖未遇罪譬如餘炁耳	-13.2708
雛	-13.2708
髖	-13.271
鵶	-13.271
所不宜聞所不宜言所不宜用	-13.271
辯夫曰受恩更問餘解如天尊所說	-13.271
𢠾	-13.271
耘	-13.271
𠰉	-13.271
仁賢明儒道術聖智	-13.271
百日真人降形仙人詣房授子神真	-13.271
腔	-13.271
芹	-13.2712
嗛	-13.2712
麓	-13.2712
贈濬州王三校尉	-13.2712
廖	-13.2712
莅	-13.2712
上朝上清奉見聖君賜書受事永成高眞	-13.2712
曰香煙玉女侍直衆官當令	-13.2712
九天魁罡雲路追捉	-13.2712
昻	-13.2712
經入室百日與神人共言三年室生自然	-13.2712
繒九寸佩身八年帝	-13.2712
胱	-13.2712
藇	-13.2712
針三鋥治馬黄黄疸	-13.2712
鰥	-13.2712
蒨	-13.2713
購	-13.2714
套	-13.2714
瘼	-13.2714
子丑寅卯辰巳午未申	-13.2714
馺	-13.2714
嗃	-13.2714
痏	-13.2714
那洞罡太玄斬妖	-13.2714
弧	-13.2714
欲求神仙長生不老役使萬神以	-13.2714
紅時紅似猩猩血	-13.2714
服符存使者真形守	-13.2714
天網恢恢踈而不失	-13.2716
日二十四日二十八日二十九日三十日	-13.2716
譬似無常限到頭	-13.2716
威神使我自然靈寳符命普告九天乾羅	-13.2716
幔	-13.2716
瘞	-13.2716
尔	-13.2716
迢	-13.2718
汰	-13.2718
洸	-13.2718
䏚	-13.2718
蜆	-13.2718
鉉	-13.2718
傴	-13.2718
輓	-13.2718
𦛗	-13.2718
喏	-13.2718
念前呪書符符成吸將	-13.2718
成符存符成將立	-13.2718
方建十法座皆以	-13.2718
唵吽吽衆神稽首邪魔皈正敢有	-13.272
若天中等分墓色應之必死不治看	-13.272
則陽病陽脉反逆大於寸口	-13.272
五老寳經及十二願玄母八	-13.272
袠	-13.272
飊	-13.272
開明三景是爲天根上無復祖唯道爲身	-13.272
痤	-13.272
訖自此以下是大叚第	-13.272
帝招靈致真攝魔之符	-13.272
櫓	-13.272
順臨剛長之辰繽集大來之福恭惟某	-13.272
殤	-13.2722
幈	-13.2722
𣏌	-13.2722
璺	-13.2722
褚	-13.2722
𦔳	-13.2722
鑾	-13.2722
社謀者天地四時社稷山川祭祀	-13.2722
領衆神黄旛前引豹尾後	-13.2722
以付上道德之君以示衆賢	-13.2722
抓	-13.2722
曙	-13.2722
顰	-13.2722
𥊺	-13.2722
𡀎	-13.2724
也靈寶齋戒威儀經訣下云	-13.2724
字於青紙上依别咒	-13.2724
瀘	-13.2724
韋劉王孟車夏劣桑	-13.2724
蜒	-13.2724
煦	-13.2724
𨤲	-13.2724
凟	-13.2724
不退可得㧞度五道不履三惡	-13.2725
仙兵馬騎乘各九億萬衆一合	-13.2725
金液丹精芝英神仙交會齋堂洞映	-13.2725
肶	-13.2726
頴	-13.2726
騏	-13.2726
澠	-13.2726
薯	-13.2726
爲此諸病盛則瀉之虛則補之	-13.2726
𨚧摩坦婁于翳天	-13.2726
宫畢又向星微祝曰	-13.2726
啟	-13.2726
搢	-13.2726
泗	-13.2726
蕆	-13.2726
願陰願陽願太空願太无	-13.2726
不極不窮无邊无際无色之氣如是第	-13.2726
愬	-13.2726
東方安寳華林青靈始老帝君	-13.2726
今故燒香自歸高上至極天尊得道之後	-13.2727
蕨	-13.2727
同一路初不傾邪看	-13.2728
𠷉	-13.2728
化毒散血拔毒散	-13.2728
峨峨皇極觀赫赫瓊林房	-13.2728
氊	-13.2728
壊	-13.2728
軔	-13.2728
云東鄉宗超字逸倫高密黔陬人也	-13.2728
五色飛驎執九色之節	-13.2728
凱	-13.2728
木郎太乙三山雄	-13.2728
緹	-13.2728
贓	-13.2728
三十萬兵速至吾前次誦	-13.2728
偁	-13.2728
速詣吾前有事指揮師存至次	-13.2728
惔	-13.2729
滇	-13.2729
幌	-13.2729
胗	-13.273
𡂑	-13.273
孫眞八備急千金要方卷之	-13.273
珞	-13.273
莞	-13.273
三河四海兵馬各九億萬騎三十二	-13.273
上徹四天司邏十部威神即下履行	-13.273
入室燒香北向九拜朝禮玉天畢北向	-13.273
兼而該之一乘道也	-13.273
外清虚每合自然是其齋日捻香啓願應	-13.273
天尊言修奉清戒每合天心常行大慈願	-13.273
弦細而長者是肝之乘	-13.273
三月西華虛皇君則變形	-13.273
以正月十五日七月十五日十月十五日	-13.273
宫中有真皇帝君皇夫人衣	-13.273
帝靈寳赤書玉篇文上	-13.273
祐易教祐至誠祐謹順祐易曉祐	-13.273
霹靂破石泉源通坤	-13.273
志念分明一意歸向專想不二滌蕩六	-13.2731
戒行道皆列功諸天禍福立彰道不負人	-13.2731
南造朱陵太丹極炎流火之	-13.2731
重陽真人授丹陽二十四訣	-13.2731
耐秋冬不耐春夏春夏感而生病主	-13.2731
槊	-13.2731
右師弟子對齋九十日或三十日洞	-13.2731
吉傳送從魁河魁	-13.2731
行道願得太上十方正眞	-13.2731
頭如蓬面如垢	-13.2731
今故燒香願以是功	-13.2731
今檄起太乙火府某將及本	-13.2731
太上靈寳首入淨明四䂓明鑑經	-13.2731
石精金光藏景録形	-13.2731
釡	-13.2731
髮白反黑齒落	-13.2731
亦不須爲其悉說也	-13.2731
悰	-13.2731
河四海九江水帝十二河源河伯河侯河	-13.2731
所啓速達徑御太上无極大道至眞玉	-13.2732
度上與道同宜爲精行持齋奉戒夷心靜	-13.2732
无心宗一切作福田立功无定主	-13.2732
官太上靈寳无上三洞弟子	-13.2732
玻	-13.2733
唵吽吽兠術梵應雷轟攝	-13.2733
枸	-13.2733
襌	-13.2733
鄂	-13.2733
俶	-13.2733
狺	-13.2733
邅	-13.2733
它	-13.2733
烱	-13.2733
肰	-13.2733
𢡖	-13.2733
䜴	-13.2733
三月九元上虛皇君則變形爲	-13.2733
玳	-13.2733
儀格天王歡悅列名上清可謂得道	-13.2733
劫玄都丈人受之於太	-13.2733
靈文表異於空玄之中經九萬	-13.2733
並得免離十苦八難五毒水火	-13.2733
之三王其優者比若四分	-13.2733
玉池東盟威聖者	-13.2733
破廟大將翟世寧	-13.2733
長一丈八尺廣一丈六尺凡佩仙	-13.2733
西方日入酉畢藏	-13.2734
五帝五色元皇太眞飛龍功曹神仙使者	-13.2734
實通有有竟不有无无无不	-13.2734
盔	-13.2735
休否則藏神前變形於外人	-13.2735
文中分爲五别第一	-13.2735
槧	-13.2735
矚	-13.2735
渌	-13.2735
觀七曜房朗朗亦㝠㝠	-13.2735
鰕	-13.2735
窓	-13.2735
隕	-13.2735
從生得道從道得仙從仙得	-13.2735
祼	-13.2735
郢	-13.2735
鋟	-13.2735
之五帝其優者比若四分	-13.2735
九色龍錦羽裙腰帶流金火鈴虎符龍書	-13.2735
云口是禍之門我道舌爲禍本根不語無	-13.2735
八坦四門高上經	-13.2735
呿	-13.2735
帝小陽九小百六天氣勃於	-13.2735
殠	-13.2735
神州七轉七變儛天	-13.2735
藎	-13.2735
上宫至心歸命一切眞仙得道聖衆右出	-13.2736
智慧生戒根眞道戒爲主三寶由是興高	-13.2736
吾在壇前立待報應	-13.2737
鬽	-13.2737
懌	-13.2737
坰	-13.2737
踹	-13.2737
畢嚥氣二十四過止又丹書	-13.2737
一故能致瑞應也諸	-13.2737
善者致善惡者致惡正者致正邪者致邪	-13.2737
在手小指外側本節	-13.2737
埴	-13.2737
端正清靜至誠感天無有惡意瑞應善物	-13.2737
二人左右龍虎騰天羽騎二十四萬衆飛	-13.2737
垛	-13.2737
咺	-13.2737
嵇	-13.2737
彘	-13.2737
惟太上善人之爲行也乃	-13.2737
應衆生注心莫不均大聖	-13.2737
洞真黃氣陽精三道順行經	-13.2737
璹	-13.2737
柘	-13.2737
甲九祖父母生世之日所行	-13.2737
第五壘金粟澤地	-13.2738
大賢樂經戒受之爲身	-13.2738
明旦晨曉依法行道續更啓聞	-13.2738
眇入玄肆自然録我神天尊常擁	-13.2738
誦經行道解㧞宿愆謝罪三元上求神仙	-13.2738
寧守善而死不爲惡而生	-13.2738
洞玄靈寳太上真人問疾經	-13.2739
斁	-13.2739
涿	-13.2739
啨	-13.2739
恡	-13.2739
摛	-13.2739
三年審定尅見真	-13.2739
峪	-13.2739
收心不放馬猿顛	-13.2739
杭	-13.2739
赧	-13.2739
九玄元父太虛玄母元始天王高上玉虛	-13.2739
以戊辰戊寅戊子戊戌戊申戊午	-13.2739
炖	-13.2739
符命謹當告下右符到奉敕如前謹檄太	-13.2739
邸	-13.2739
雌一玉檢五老寳經	-13.2739
駱	-13.2739
王飛霄之曲瓊文帝章	-13.2739
諸苦根使生者見道身脫八難死者歡樂	-13.2739
開悟群生爲諸男女解災却患請福度命	-13.2739
檗	-13.274
念大乘會當體道眞右出	-13.274
乘會當體道眞右出仙公請問經次出道	-13.274
耀天之麾五帝五色元皇太眞	-13.274
昇入无形與三寳齊輪	-13.274
極將更死痛惱吾故及弱齡棄世以學道	-13.274
歷劫辛苦无由解脫	-13.274
玄臺紫微上宫靈寶至眞明皇道君	-13.274
生人中轉輪聖王修齋求道皆當一心請	-13.274
諦受勿忘專心默念洞思自然勿得雜想	-13.274
靜聽第一戒者心不惡妬无生陰賊檢口	-13.274
霤	-13.2741
怱	-13.2741
繿	-13.2741
遙	-13.2741
司真人常以月二十九日	-13.2741
蚣	-13.2741
㗖	-13.2741
尢	-13.2741
栲	-13.2741
正爾入室燒香行道願直齋仙官	-13.2741
三十二天帝君玉京玄都紫微	-13.2741
上十方香從東方起周下方如上法還西	-13.2741
之五霸其優者比若四分	-13.2741
冼	-13.2741
初生於自然虛洞之中虛皇玉帝受之於	-13.2741
匃	-13.2741
君對校天下男女應	-13.2741
寳君說十二部經爲洞	-13.2741
畢所請天仙地仙飛仙眞人神人聖人監	-13.2741
積行所犯天所不原地所不赦	-13.2741
逯	-13.2741
高上玉晨太上大道君萬仙上聖无極	-13.2741
鬼所不放億罪兆過觸犯三元百八十條	-13.2741
辰破於戌建者立也	-13.2742
日九月三日十二月四日一年四過	-13.2742
仙官太玄眞神上下三十六天靈司官君	-13.2742
老君太上丈人三皇玉君九老仙都君九	-13.2742
禇	-13.2743
麄	-13.2743
周行天下司察善惡功過輕重列言	-13.2743
㕮	-13.2743
陽動則陰隨氣運則血行	-13.2743
寳香一炷十方肅清法鼓三通萬神咸	-13.2743
渤	-13.2743
真形五藏神君各保安寧急急如	-13.2743
釗	-13.2743
七元擎持玉案對立臣	-13.2743
十五年身有玉光内外洞徹長生天地	-13.2743
曰萬法皆空一誠爲實	-13.2743
玉液一名飛龍雲腴一名鍊五石之華膏	-13.2743
第十四卷云雙襲祖字仲遠梁	-13.2743
龍功曹冠帶羽服金眞鳳章神仙使者交	-13.2743
下布星光𦋇捉爲禍鬼神無致逃形	-13.2743
兑	-13.2743
去離五苦㧞度八難上昇仙堂受福南宫	-13.2743
律令大神風火之尊𩀱膞巨翅飛	-13.2743
治身何如及以治萬民	-13.2743
治身何如及治萬民	-13.2743
監眞使者直齋仙官玉童玉女各	-13.2743
等傳經行道建立齋直燒香懺	-13.2743
部領仙通隨侍某帥真君	-13.2743
齪	-13.2743
二十八宿中外星官五嶽眞	-13.2744
仙得仙合丹成丹鍊金成金	-13.2744
十戒然後行道庠序雅步靜心	-13.2744
如是豈可不盡其法也當先	-13.2744
爲帝王國主君臣吏民	-13.2744
隨功受賞進品上秩復諸天位謹上啓聞	-13.2744
人而授勿泄眞文	-13.2745
瘋	-13.2745
老尊神諸天帝皇妙行真人	-13.2745
南方梵寶昌陽丹靈	-13.2745
地煞年煞月煞日煞時煞一切	-13.2745
孑	-13.2745
竽	-13.2745
凹	-13.2745
刈	-13.2745
坂	-13.2745
㶟	-13.2745
之策從青帝胡老之官飛行甲騎	-13.2745
人受法師皆即爲列功諸天	-13.2745
八素陽歌九章云	-13.2745
取八升去滓内藥煑取	-13.2745
唵吽吽三檀那韓難延乾夷勑	-13.2745
太上靈寳淨明九仙水經	-13.2745
孀	-13.2745
山四海四瀆八澤九源名山洞府水神潜	-13.2745
徤	-13.2745
思神念真燒香然燈清齋靜室乞得滅除	-13.2745
搜捕天魔地妖龍精虎怪爲禍妖孽𡨚親	-13.2745
泚	-13.2745
洞虚鳳京紫臺	-13.2745
百日至二百日一服三合	-13.2745
簡文靈仙品曰功德威儀奉師之法當爲	-13.2745
蒓	-13.2745
隥	-13.2745
玉字若五等同場共受可總録前五等法	-13.2746
罪根功德開度建齋燒香請謝十方願爲	-13.2746
無色根雲層峨峨唯有元始浩劫之家	-13.2747
曵	-13.2747
𠻳	-13.2747
倅	-13.2747
七十二光奇毛異骨飛羽衣裳乘	-13.2747
鴿	-13.2747
上清九眞中經内訣云	-13.2747
太上靈寳無量度人上品妙經云	-13.2747
違奪筭一百二十科曰凡道士女冠居	-13.2747
一分爲二成夫婦天下施於地懷妊於玄	-13.2747
千和萬合自然成真	-13.2747
故天地未分之時積氣都	-13.2747
敎	-13.2747
見者入地萬丈化作飛灰古木惡廟永劫	-13.2747
龍飛尺素隱訣云	-13.2747
伐非神光所照萬鬼俱摧流鈴急召雷火	-13.2747
各有五億五萬五千五百五十五	-13.2747
愽	-13.2747
母之歸子爲虛邪雖病易治反得	-13.2747
百二十曹陰陽水火左右中宫考吏之罪	-13.2747
自然之號考官所治普統	-13.2747
萬福君常以月二十三日	-13.2747
逈	-13.2747
𤤴	-13.2747
洞神三皇符圖玉字若受眞文可云靈	-13.2748
搤	-13.2749
綆	-13.2749
墠	-13.2749
廁	-13.2749
橰	-13.2749
字於青紙上露於中庭	-13.2749
書丹字六音授於兆身便引黄氣二十四	-13.2749
發金容體映玉光五色紫章七十二變精	-13.2749
右出洞玄元始五老赤書玉篇經	-13.2749
發之治王八十年第	-13.2749
齶	-13.2749
光明上昇天堂衣食自然甲身得道上與	-13.2749
張公喫酒李公來李公奪了張公飲	-13.2749
朝入希林宇夕宴丹微房	-13.2749
蜮	-13.2749
雨陣所至川流洪	-13.2749
雲輿羽蓋給兆飛行右	-13.2749
𤙖	-13.2749
所啓速達逕御太上无極大道至眞玉	-13.275
罪右六十條罪由天官	-13.275
七轉七變儛天經	-13.275
功徳資被群生離苦	-13.2751
甲子甲戌甲申甲午甲辰甲寅	-13.2751
下洞淵洞源綱維天下制使不落	-13.2751
匳	-13.2751
崛	-13.2751
派弟子徐慧校正玉真先生語錄	-13.2751
移根風輪左轉火車右	-13.2751
睆	-13.2751
而爲說法而如所願若欲	-13.2751
贔	-13.2751
蹷	-13.2751
魂受考撻諸痛備嬰長淪萬劫終天	-13.2751
玉童九人給兆通靈召八景	-13.2752
譛	-13.2753
哧	-13.2753
无窮无境无邊无際皆綱維之	-13.2753
南天大聖衆至眞尊神无極大道南上	-13.2753
琉	-13.2753
貳	-13.2753
龍飛奔都天五將噉雷發聲飛	-13.2753
翺	-13.2753
蘩	-13.2753
𡼳	-13.2753
𢘤	-13.2753
淖	-13.2754
清和眞人尹志平撰	-13.2755
将	-13.2755
沂	-13.2755
繽	-13.2755
乘萬騎之官服符修行八年則高上感悅	-13.2755
祿	-13.2755
出即嚴裝關啓此間土地里域眞官正神	-13.2755
卭	-13.2755
濵	-13.2755
與天共事治無窮極之術也長相與	-13.2755
五千文十緯經第五云	-13.2755
囷	-13.2755
寳君之祖炁丈人是	-13.2755
帝王神君衆仙靈官願並垂臨饗又曰	-13.2755
无量无邊因今禮懴並乞蕩除皆願衆等	-13.2755
枰	-13.2755
桄	-13.2755
皇上清无崖无極空洞之	-13.2755
真晨嬰之冠三角結餘髮散之垂腰上著	-13.2755
衆神擁衛早得仙眞皇帝萬福天下	-13.2755
鐮	-13.2755
陁	-13.2755
雷水火雷電霄雲天丁官將諸部吏兵	-13.2755
嶽山陵丘阜江海川谷一切衆靈某身於	-13.2756
慇	-13.2756
覲	-13.2756
抨	-13.2757
神奇異毛紫胞玉絡	-13.2757
蕺	-13.2757
清信弟子皆與勇猛飛天齊功	-13.2757
若在一轉而行精進心不懈退	-13.2757
躶	-13.2757
辯夫曰受恩願問餘解	-13.2757
呶	-13.2757
簉	-13.2757
簽	-13.2757
繒二十七尺赤絲五兩沉香一斤丹一兩	-13.2757
無石斛栝蔞地骨桑	-13.2757
畢仰嚥八氣止行之八年	-13.2757
神神州之闕蕭條無崖之館	-13.2757
窬	-13.2757
酴	-13.2757
𠯈	-13.2757
无邊无際其土皇常以	-13.2757
行天下有學仙行道朝禮諸天燒香誦經	-13.2757
止便服紫書丹字行此道八年夫人授兆	-13.2758
以我簡録付監真使者定録	-13.2758
謇	-13.2758
唵吽吽衆神稽首邪魔歸正敢	-13.2758
癸卯歲寧海州東牟鄉貢進士	-13.2758
東海東華玉妃渟文期	-13.2758
生五藏鍊貌易軀	-13.2758
陽還歸絳宫與我合德俱養	-13.2758
皇夫人頭作飛雲華頽之髻衣	-13.2758
寳名宫府鄕居服御靈符	-13.276
瑑	-13.276
天立中黄八極而報無上之本	-13.276
䯻	-13.276
碪	-13.276
王嚴駕䕫龍坐騎飛虎獅子白𤢟獬	-13.276
飛天未得道者也是道十轉弟子	-13.276
回後天而先天復有名而無名	-13.276
帝君太帝丈人九老仙都君九炁丈人	-13.276
年中一過如此經四十五日乃止順行至	-13.276
東極老人青華大神上相司馬青童	-13.276
濶	-13.276
𡺿	-13.276
㖵	-13.276
周易參同契簡要釋	-13.276
日先服下符後服上符	-13.276
治在蜀郡繁縣界	-13.276
西海大秦安息國歸	-13.276
鍳	-13.276
來下逮某身上犯九天之君	-13.2761
裛	-13.2762
聲九州社令一一呼名誅	-13.2762
帀一室存五老仙伯在	-13.2762
麑	-13.2762
㕤	-13.2762
念心中有日日中有玄蓋蓋下有	-13.2762
相隨不失行伍或得	-13.2762
苕	-13.2762
九晨之光面有玉華飛映寶曜洞觀天下	-13.2762
峴	-13.2762
嵌	-13.2762
瞷	-13.2762
祓	-13.2764
璉	-13.2764
箎	-13.2764
律第七威儀第八方法第九衆	-13.2764
神符第三玉訣第四靈圖第五譜録第六	-13.2764
丁督轄法中某將搜捉爲禍	-13.2764
豔	-13.2766
乗天丹霞赫衝吞魔食鬼横身飲風	-13.2766
以拂日月之光月以黄氣灌天人之容故	-13.2766
五光七白靈蔬者薤菜也白素飛龍者	-13.2766
有物混成先天地生寂兮寥兮獨立	-13.2766
滉	-13.2766
漩	-13.2766
之後念縁師恩遂得成人乃得長與賢	-13.2766
父母得成道德於師得榮尊於君	-13.2766
瓌	-13.2766
前導鳳歌後從天鈞	-13.2767
以戒掩目若聞好惡之言	-13.2768
一轉收城隍二轉	-13.2768
虯	-13.2768
鰲	-13.2768
嫗	-13.2768
薛彪之晋陵人	-13.2768
書白紙女先服後服	-13.2769
魃	-13.277
三色之光更相纏繞	-13.277
亦合成一家共一大憂十	-13.277
口引雲氣九嚥微咒曰	-13.277
玉寳金闕上相高晨師東海青童君	-13.277
筐	-13.2772
暦	-13.2772
還向月建平坐叩齒三十六通閉眼存呼	-13.2772
矧	-13.2772
浚	-13.2772
呑	-13.2772
字於下圈内勑呪	-13.2772
劒神王斬邪滅蹤紫炁	-13.2774
七符貪狼巨門禄存文曲廉貞武曲破軍	-13.2774
韵	-13.2774
上方鈞天演範真經	-13.2776
壮	-13.2776
書白紙男先服後服	-13.2776
無極飛天神王長生大聖無量度人西	-13.2776
真而爲說法果後而見是真若欲見	-13.2776
臞	-13.2776
趯	-13.2778
貿	-13.2778
𡅵	-13.2778
噠哪吽吽咭唎攝	-13.278
俎	-13.278
九琳玉液八瓊飛精	-13.278
昺	-13.278
倀	-13.278
憁	-13.2783
啀	-13.2784
兆身役使仙官取自然靈藥又以	-13.2784
混化君冠服太上神仙洞	-13.2784
隠	-13.2784
矓	-13.2787
七政八靈太上皓兇長顱巨獸手把	-13.2787
尙	-13.2787
妹	-13.2789
大魔王束帶稽首禮迎仙官侍衛入	-13.2789
剬	-13.2789
在第十四椎下兩傍各	-13.2791
斒	-13.2791
之章入兆身中又思	-13.2791
嗒	-13.2791
覘	-13.2797
服明丹之華挹扶晨之	-13.2797
瘭	-13.2798
符舊文出太上變化空洞第	-13.2805
太極左仙公說神符經	-13.2807
喋	-13.2822
身乞解除先世已來下逮	-13.2981
有其二也其劣下者比若四分	-13.2993
右五味㕮咀以水七升煑取二升半分三	-13.3112
真科經云無極世界男女之人生世所行	-13.3254
萬物一時消滅天地溟涬无復光	-13.3754
一時消滅天地溟涬无復光明	-13.6298
服之叩齒九通仰存四土皇姓諱悉著	-13.7237
也其中者比若四分平土有其	-13.7389
絙	-13.7558
至十二下餘二槌穊竟	-13.7602
烋	-13.7615
捧香驛龍騎吏侍香金童	-13.7627
右散騎常侍昭文館學士權檢校	-13.7631
髣	-13.7636
飫	-13.7637
瞢	-13.7637
肺喘欬三日之肝脇痛支滿	-13.7637
檔	-13.7637
順柄下行令齊至兩刄之際	-13.7637
鏹	-13.764
䬃	-13.764
鑢	-13.764
寶齋上籙有祈謝之篇仙都内訣	-13.7643
化工不息販何樓癡童	-13.7643
得閑拈弄瓦狗泥車打破休	-13.7643
長齋㑹玄都鳴玉扣瓊鐘	-13.7646
殜	-13.7646
復有凡人行是功德願我後生	-13.7646
飂	-13.7646
驚怛百姓妄說衰厄道學不得	-13.7646
四紫房五玄臺六帝堂七天府八皇宫九	-13.7649
䞋	-13.7649
五轉運太虚𩳐婁六轉雷霆震魒井七轉	-13.7653
慾慾是何物悉從心中生	-13.7653
若能如法精肅則受福无量	-13.7656
但欲伏眠目視而不見人汗	-13.7656
至人消未起之患治未病之疾	-13.7659
精光隨五行爲色隨四時之氣	-13.7659
其一晝一夜則運轉周天一度	-13.7659
事之前不追於既逝之後	-13.7662
者皆當爲後聖之民生值斯世豈不樂乎	-13.7662
篡	-13.7662
亦三道行文書以記過故人	-13.7662
肧	-13.7662
附脛骨外是灸之百壯第	-13.7662
割嗜欲所以固血氣然後眞一存焉	-13.7665
不求聞達鄉黨化其孝友交游服其德義	-13.7665
侔	-13.7665
誦經必齋校經必齋書	-13.7665
骶	-13.7665
丸散不云酒水飲者本方如此	-13.7665
尒	-13.7665
膚脹鼓脹腸覃石瘕	-13.7665
銑	-13.7665
䄡	-13.7665
暠	-13.7665
䕃	-13.7668
廨	-13.7668
朏	-13.7668
環跳一穴陽陵泉一穴巨	-13.7668
所以全其身民散則國亡	-13.7671
剋意爲學博通經史	-13.7671
鬻	-13.7671
𠺌	-13.7671
極尊猶如失母依慈父我等没在憂火中	-13.7671
還本源是故各懷大憂苦仰賴太上	-13.7671
露雨斷絶倒想戀著心消除諸見滅邪趣	-13.7671
心氣盛則夢喜笑及恐畏	-13.7671
天罡所指晝夜常輪俗居小人好道求靈	-13.7671
圇	-13.7671
末研調下蜜擣二萬杵丸如麻子	-13.7671
吺	-13.7671
敬貴耻賤樂富棄貧	-13.7671
絲光芒之炁即以口吸入心	-13.7671
肬	-13.7671
也其中者比若四分大臣有其	-13.7673
𠕂	-13.7674
太上靈寳淨明天尊說禦殟經	-13.7674
列四九之燈法象三十六天	-13.7674
墼	-13.7674
𩆝	-13.7674
下得之或下失之而上得之或上下失之	-13.7674
外病前治陽後治陰陽主外陰主内凡人	-13.7675
部處起若色從内出外者病從内生部處	-13.7675
長棲太一宇歸命禮三尊	-13.7675
跱	-13.7675
鴽	-13.7675
上下得之或天神文失之反聖	-13.7678
之生恍惚一切無道鬼捉來無停歇收攝	-13.7678
無回鐵山關曲折急急如	-13.7678
𠰹	-13.7678
九天雷晶使者梵炁隱書機法	-13.7678
䱇	-13.7678
男思男女思女皆以一尺爲法	-13.7678
焋	-13.7678
珉	-13.7678
病如桂枝證頭不痛項不强	-13.7678
法者如存三守一制魄拘魂之例是也方	-13.7679
天父也地母也事母不得過父生	-13.7681
毖	-13.7681
鍊石化形隱景之例是也衆多也術道也	-13.7681
手握靈珠常奮筆心開天籟不吹簫	-13.7681
嗍	-13.7681
蹬	-13.7681
餎	-13.7681
猘犬所咋鴆毒入人五臟服藥以	-13.7681
白童子十冬黑童子十四季黄童子十二	-13.7681
隨上下按之挑手心中愠愠如有蟲狀毒	-13.7681
客於肺則夢飛揚見金鐵之器	-13.7681
産後崩傷下血過多虛喘	-13.7681
莫不響應比若重規合矩無有脫者也	-13.7681
長春眞人起而應召之後玄風大振	-13.7681
若效習俗人背道禱邪	-13.7684
百官也神猶君也血猶臣也	-13.7684
然復人有脩短心有利鈍	-13.7684
形與神同不相遠離俱入道真	-13.7684
忸	-13.7684
𤉖	-13.7684
例是也記誌也傳傳也謂記誌本業傳示	-13.7684
䨌	-13.7684
䨴	-13.7684
焕把性燭當中按一對金童呈手段瓊	-13.7684
也上清大洞戒九十二條科云修雌一之	-13.7684
北斗七星天中大神上朝金闕下覆	-13.7684
寖	-13.7684
惡胷中結氣咽中閉塞有進有退繞臍	-13.7684
扳	-13.7684
吾心真火太陽真火四季五雷遊蕩真火	-13.7684
椰	-13.7684
爬	-13.7684
莠	-13.7684
修不得越略虧天科條經有三品道有三	-13.7684
民之治者施寬政而惠之	-13.7684
百卷得百千卷得千萬卷得萬億卷得億	-13.7684
踧	-13.7684
踽	-13.7684
除國家延命人民老壽審能好善	-13.7684
鰍	-13.7684
盌	-13.7687
瞢瞳子癢遠視𥆨𥆨昏夜無見目瞤	-13.7687
歌德故詩云頌者美盛德之形容亦曰偈	-13.7687
稸	-13.7687
通言部者以部類爲義亦以部别	-13.7687
密吒嗚都吒俱耆吒波頼帝吒耶㣲若吒	-13.7687
汏	-13.7687
當風得之不時速治喜流入脚膝	-13.7687
病斬邪萬物安寧急急如長生大帝律令	-13.7687
放開心月慧燈明照兩曜交光燦毬	-13.7687
即日上聞徑進紫宫仰達三皇眞君前	-13.7687
召請火急降臨有違帝命風火滅形	-13.7687
崿	-13.7687
祛九醜後滅山魈飛龍土怪鎮伏魁星吾	-13.7687
笓	-13.7687
制乾坤大魁貪狼巨門禄存文曲	-13.7687
洞兵甲狂忙赴吾壇所魁星天罡急急如	-13.7687
耐春夏不耐秋冬秋冬感而生病	-13.7687
善千卷得千善萬卷得萬善億卷得億善	-13.7687
喜夷狄却降瑞應悉出灾害	-13.7687
非是我等所知見何能觀之悟玄理	-13.7687
藁	-13.7688
人可在天君左側有功勞賜賞謙遜不敢	-13.7689
復竭盡筋力用心乙宻爲大故天君重復	-13.7689
徂	-13.769
檣	-13.769
此謂不及病在内太過則令人	-13.769
道陵汝當以此經傳度後學	-13.769
雰	-13.769
亂更相憎惡而常鬥辯不絶遂爲凶家	-13.769
枉法而妄爲民爲之困窮共汙天地之	-13.769
馱	-13.769
齋啓願三會謁請之例是也	-13.769
仰瞻列仙館俯察玉神宅	-13.769
糅	-13.769
道學傳云吴猛字世雲登山詩	-13.769
愷	-13.769
詣師請問必齋禮拜必齋受經必齋救	-13.769
𦍒	-13.769
上關主瘈瘲沫出寒熱痓	-13.769
地極下洞淵洞源綱維天地制使不落	-13.769
鄞	-13.769
但當莊事修勤晨夜清	-13.769
毆	-13.769
長病欬逆唾噫辟除衆惡	-13.769
其業考釋散謫罰除滅乞削罪録右宫黑	-13.769
命已過可至七十果如其言也第五卷云	-13.769
度名左府青録之中道氣覆	-13.769
洹	-13.769
以歸國家寳而藏之此天下	-13.769
君王善爲政者以腹中始起	-13.769
大慈離生死獨反善寂妙一源不住世間	-13.769
擣餘滓令熟更以水三升和令調絞取汁	-13.769
治停痰澼飲結在兩脇腹	-13.769
皂大袍結䄂金甲皂履	-13.769
皆被廢黜雖得重行悉名故氣	-13.769
盬	-13.769
石曰冬病石甚曰今病	-13.769
思忠孝順理盡節不敢受重賜但恐無功	-13.7692
君九氣丈人等百千萬億億萬	-13.7692
雲津練濯萬氣混康内外利貞保兹黄裳	-13.7693
榧	-13.7693
湜	-13.7693
者多善其文乃入神故能覩神與神爲治	-13.7693
嘙	-13.7693
綈	-13.7693
二十四字主攝天魔北帝萬鬼事	-13.7693
噲	-13.7693
外景滅盡世間情四序傳中氣三光在上	-13.7693
水兼火坎和離兩般消息怎生知	-13.7693
者帝氣最尊無上象天尊故倍樂之	-13.7693
膝脛骨摇酸痺不仁	-13.7693
部臨部臨齒臨齒臨	-13.7693
宄	-13.7693
今按生神等經並云積	-13.7693
云陸納爲尚書令時年四十患瘡告炅云	-13.7693
旡	-13.7693
收魔食魔吏收鬼食鬼吏	-13.7693
真所書何容無紙及以八體六文等耶以	-13.7693
護轉禍爲福反凶成吉禳災却害	-13.7693
赤帝養炁黒帝通血黄帝中主萬神無越	-13.7693
入邪中或使人死滅身尚有餘罪	-13.7693
十五八十六八十七八十八八十九九十	-13.7693
吾將去有期戒六子一言夫道	-13.7693
大道至尊髙而无上周圎无外包	-13.7693
旋轉驚駭物心當爾之	-13.7693
是時大衆咸同一心瞻仰道君目不暫眴	-13.7693
時出濁唾腥臭久久吐膿如	-13.7693
洞無上無下無表無裏守其和氣名爲	-13.7693
皆凝水精琉璃灌地而行國有寒池縱	-13.7693
變服冠白哭泣以時去鹹酸	-13.7693
近在胷心散滿四海古者聖人名	-13.7693
鼬	-13.7693
栀	-13.7696
之輪上御九天之關中固五帝靈山下注	-13.7696
學士五牙之根上宫衆聖大智	-13.7696
人者主爲天地理萬物人樂則悅喜爲善	-13.7696
沈濁爲内浮清爲外若	-13.7696
㵪	-13.7696
䱉	-13.7696
瀚	-13.7696
聞召速臨急如星火迅若	-13.7696
澱	-13.7697
諸子大不謹孝常苦忿忿悃悒而無從得	-13.7697
决然攢正覺一靈何慮不圓成得通妙用	-13.7697
勿謂道之无形以爲傲慢	-13.7697
作重陽晨彩煦晴空來往碧霄堪住瓊馬	-13.7697
吉纔得小吉耳學以小吉此已入凶道矣	-13.7697
平國中士得之爲良臣小人得之以脫身	-13.7697
憂恚思慮心氣内索面色反好急求棺槨	-13.7697
涅	-13.7697
養性按摩法第四天竺國按摩	-13.7697
𦚟	-13.7697
不勤雖知道尊而欲奉之其	-13.7697
用熱酒數杯以助藥力發熱大汗出爲度	-13.7697
郍	-13.7697
一發馘滅邪精十一大將速運雷霆上帝	-13.7697
三寸令病人嚼爛吐於手心男左女右將	-13.7697
也由人體有熱被寒冷搏之而脉凝	-13.7697
婦人之病比之男子十倍難	-13.7697
氣爲病虚實冷熱爲患者故與丈夫同也	-13.7697
用無灰熱酒三四盞送下於避風處以衣	-13.7697
盡見瑞應悉出夷狄却去萬里不爲害	-13.7697
瞌	-13.7697
鑷	-13.7697
一道符如有人能受持於父母六親	-13.7697
報道心超然發身飛昇玄都七祖咸解脫	-13.7697
天之凡民皆當順此古者聖人深承知此	-13.7697
存身為孝道明王靈寳淨明	-13.7697
峕	-13.7697
度七祖解釋罪根亦致眞人下降飛騰	-13.7697
搭肩骨上生者以動之處可治難安串於	-13.7697
既入空洞室何憂道不成	-13.7697
曰上士以文立忠孝以言爲天下倡	-13.7697
真上聖俱坐白玉師子之座	-13.7697
知學問遂成愚人夫無知之人但獨愁苦	-13.7697
罪莫大於淫禍莫大於貪咎莫大於	-13.7697
肌痺淫淫如鼠走身上津液	-13.7697
腸絶不治何以知之泄利無度利絶則死	-13.7697
若起雷霆激出煞金剛犯着也成塵	-13.7697
贜	-13.7697
闡妙門自非天尊同業共行入道界人不	-13.7697
齋淨芳蘭五稱映玄	-13.7697
九品一曰太和自然龍胎之醴二	-13.7699
稗	-13.77
元始五老赤書玉篇云天尊引衆真入	-13.77
入未能去者或有但見神而終古不去者	-13.77
吉凶之色在於分部順順而見	-13.77
炁萬道灌我胃華太上律令猛吏銀牙	-13.77
雙慶賀三山骨健力筋偏大馬輔佐萬丈	-13.77
三丹寶難分剖昏昏默默怎生保	-13.77
次齋千日百日月日節食麤食服	-13.77
潞	-13.77
用刀圭剖昏迷合和一處怎生携	-13.77
酆都考召院王盧二功曹	-13.77
髮直如乾麻不得屈伸白汗不止	-13.77
𢙢	-13.77
㓗	-13.77
丹陵上舍栢林之中朱鳳侍衛神龍翼軒	-13.77
你待堅心走我待堅心守	-13.77
天者養人命地者養人形	-13.77
日下血二十日下長蟲及青黄汁	-13.77
梨十化是前年天與佳時主自然爲甚當	-13.77
踖	-13.77
除精台星到處大賜威靈	-13.77
口開取四時花綻取三春柳	-13.77
嬈	-13.77
騖	-13.77
鷂	-13.77
九靈君九靈丈人太清十二眞君十二眞	-13.77
取靈變之狀然符中有書參	-13.77
帝操兵天魔喪形萬精滅景内外肅清又	-13.77
平道德價數貴賤解通愚人心	-13.77
我志在不報十者一切未得道我不有望	-13.77
書符恰訣存身為孝道明王念呪書符	-13.77
白白蓮花五葉鮮勘破行功無作用	-13.77
立壇近水借炁團雲	-13.77
者見人善事心助歡喜八者見人有憂助	-13.77
若有科法子天官降相迎	-13.77
萬金難買日高眠紅紅火焰三	-13.77
解襟墉房裏神鈴鳴	-13.77
責亦非敢怨自今明牒兩所共知禀露在	-13.77
餧	-13.77
之道兆欲攝魔當書符如上法安着	-13.77
太陰厥逆陽明則榮衛不通陰陽	-13.77
意也其性爲思謂之貪賊	-13.77
木版上令廣九寸長一尺二寸置室	-13.77
母之歸子爲虚邪雖病易治反得	-13.77
沉濁爲内浮清爲外若	-13.77
脾氣盛則夢歌樂體重手足不舉	-13.77
遊觀紫霄之崖滅死結於元胞	-13.77
陽氣内擊陰氣外傷傷則寒寒則	-13.77
靈寳洞玄亦元始俱生淵𧷤深奥妙趣同	-13.77
黄白之道亦得控轡玄霄	-13.77
𥆧	-13.77
倫始造紙爾前唯書簡牒牒者詮牒語事	-13.7701
也是則五行六物莫不有精炁	-13.7701
於結空太真仰寫天文分置方位區别圖	-13.7701
躐	-13.7703
汋	-13.7703
言煩躁不安精彩言語不與人相主當者	-13.7703
㕮咀少壯人無所熬練虚老人	-13.7703
哳	-13.7703
夷狄以類相從合其辭語善者以爲洞	-13.7703
夷狄得之或内失之反外得之	-13.7703
束首侍衞我軒兇穢消蕩道炁長存	-13.7703
經名爲皇天洞極政事之文也	-13.7703
保也事各有可爲至光景先見其事未對	-13.7703
其神洋洋其道無可繫屬	-13.7703
得其人而開通得見祐助者是也不	-13.7703
於子生於卯垂枝於午成於酉終於亥雖	-13.7703
主天心和者主施開者主通明者主理	-13.7703
其人自藏凡事不得其人不可强行非其	-13.7703
火氣起願聞其意訣何也火者陽也其符	-13.7703
積惡結罪解除考訟書名丹簡定字青篇	-13.7703
靈壇之上有隱芝玉精在此香火前令	-13.7703
㓂	-13.7703
䭾	-13.7703
人齒大疾當作之時其人啼呼	-13.7703
意皆得天心何有不安時乎象人	-13.7703
憂患欲共安其位地者順而承上悉承天	-13.7703
故聖人力思君子力學晝夜不息也猶樂	-13.7703
方秋西方冬北方者主與此天氣共事也	-13.7703
欝	-13.7703
萬物天者主生稱父地者主養稱母人者	-13.7703
升煮乾焙爲末醋糊丸每服	-13.7703
去離五道開度因縁死者長樂生世蒙恩	-13.7703
口噤脣黑四肢不舉身重如山便利無度	-13.7703
廣哀不傷如天之行最善	-13.7703
弱面色青葩遺失便利	-13.7703
思淨行六者宗親和睦	-13.7703
法師某嶽真人某上啓太上无極大道	-13.7703
洞玄靈寳三洞奉道科戒營始卷之二	-13.7703
神人君二十四神丈人太清三十六眞君	-13.7703
符書之異符者通取雲物	-13.7703
精炁布之簡墨會物之精炁以却邪僞輔	-13.7703
而愛其母何謂也然父教有度數時節故	-13.7703
鐫	-13.7703
魄也其性爲憂謂之癡賊	-13.7703
𦍙	-13.7703
㵱	-13.7703
不奪其心各從其類不誤也反之爲大害	-13.7703
利財寳飲酒食肉恣心快意驕奢盈溢豈	-13.7703
君所說皆不合至真其言未解來復言曰	-13.7703
志也其性爲恐謂之寒賊	-13.7703
所陳萬劫長居畢仰咽九炁止右出洞玄	-13.7703
手關後尺中陰實者腎實也苦	-13.7703
手關後尺中陰絶者無腎脉也苦足	-13.7703
玉訣九千此上眞之首目玉帝之内篇得	-13.7703
絶太平之氣何從得來哉故不能致太平	-13.7703
能强作其所不及而難其所不能時覩於	-13.7703
腎在竅爲耳然則腎氣上通於耳	-13.7703
致灾變紛紛畜積非一不可卒除爲害甚	-13.7703
蚝	-13.7703
蠮	-13.7703
鉸	-13.7703
鍊合陰陽以相扶則元始勒命於南極三	-13.7703
魂也其性爲怒謂之嗔賊	-13.7703
𡎎	-13.7703
𢜬	-13.7703
臾	-13.7704
惡當退何有所疑行各自力無爲神所誤	-13.7704
所居不安去故就新神復得還	-13.7704
符各三十六人出關啓此間土地里域	-13.7704
六眞丈人五氣君五氣丈人陰陽生氣君	-13.7704
逍	-13.7705
其内月中人長一丈六尺悉衣青色	-13.7706
里月暈圍七千八百四十里白銀瑠璃水	-13.7706
蠷	-13.7706
月華前面四蹄輕鎖馬負荷與我成因果	-13.7706
樁	-13.7706
信之人具上十相來欲請受	-13.7706
去地四十萬里圍七百二十里皆金精	-13.7706
道得古今守一者復以類聚之上賢	-13.7706
倚仁而明復有神光萬二千國殊策一通	-13.7706
北海水帝制水中萬精召蛟龍以負身	-13.7706
可强取非其土地不可强種種之不生言	-13.7706
時行温病或非變蒸時而得時行者	-13.7706
灞	-13.7706
錮	-13.7706
人明爲其開非其人則閉審得其人則可	-13.7706
究達八方九歲隂陽俱悅十歲萬物悉各	-13.7706
而三合之乃天地人備故三十歲而太平	-13.7706
開其路天之垂象也常居前未	-13.7706
順天之道與天同氣故相承順	-13.7706
人軀長一丈大十圍其齒	-13.7706
教人守德養性爲謹其罪不除	-13.7706
益也得而不力行與不得何異	-13.7706
蟲蚤蝨小小積衆多共食人	-13.7706
見食不食與無五穀何異見	-13.7706
之氣結玉清瓊上宫丹明府三素	-13.7706
取非義財四者不欺善惡反論五者不醉	-13.7706
吾道太陽仁政之道不欲傷害	-13.7706
和大道人不來至隂陽不和聖人不來至	-13.7706
牒到仰詳牒内事理速降丹梯立賜	-13.7706
第六卷云諸慧開字智遠吴興烏程人也	-13.7706
聲嘶塞而散下氣息短憊四肢	-13.7706
茲	-13.7706
請遵依太上符命聞召速臨壇所闡揚道	-13.7706
象天轉運而不止百川流聚	-13.7706
辤	-13.7706
雲中次存天門降下地戸湧出三身合一	-13.7706
須至專牒者右牒上中宫黄帝司命掌	-13.7706
乆生乎要在精進存念至	-13.7706
冤結多忿爭訟民愁苦困窮即	-13.7706
左手寸口人迎以前脉陰陽俱	-13.7706
您	-13.7706
訐	-13.7706
間照達日月星辰取明於前二十八宿更	-13.7708
枲	-13.7709
䂊	-13.7709
其中城郭人民亦有七寳浴池	-13.7709
三轉動魁罡四轉雷火發五轉霹	-13.7709
聽飲清水飲而絶食平旦飲粥日中菜食	-13.7709
無孫三千里外尋知友引入長生不死門	-13.7709
胴	-13.7709
心君爲萬神之主宰一念欺心即不忠也	-13.7709
不消亡飛仙一吸萬鬼伏藏急急	-13.7709
伏於太陽故金隨火屈折	-13.7709
可欲爲臣者常以義屈折佐	-13.7709
各有一黄帝凡四黄帝備門奉衛於	-13.7709
吉凶有文但人少知自以爲賢動作行止	-13.7709
太上所敬重老君所營護諸聖所	-13.7709
急急如上清大帝敕丁甲將軍律令敕	-13.7709
惠布恩上下流聞四方六極八表之外延	-13.7709
釋章佩帶天罡五方兇惡之鬼何	-13.7709
又按太上開演秘宻藏經曰	-13.7709
惡伏滅六歲而究著六	-13.7709
星正心視星以兩手撫心	-13.7709
者甲之後宫也甲天也王者之本位	-13.7709
記曰病有六不治驕恣不論於理一不治	-13.7709
金堂玉仙眞母金闕後聖上相帝君	-13.7709
吞香餌任綸牽玉京山上爲鵬化隨我扶	-13.7709
按用之無一誤也萬萬歲不可去但有日	-13.7709
摳	-13.7709
有可屬道有可爲出或先或後其漸	-13.7709
自消夷狄自降不須兵革皆自消亡萬物	-13.7709
青衣鸞鶴共同來赴瑶馬駐般在清凉路	-13.7709
一者不殺當念衆生二者不婬	-13.7709
事不相與至厚不肯教示之也教而不聽	-13.7709
以時用其言故廢而置之不復重教示之	-13.7709
去餘毒爲妙此方以藥味觀之甚若不	-13.7709
時輕似空中塵重時重似千斤鐵白時白	-13.7709
曰夜夢子今子來似有夙契	-13.7709
涴	-13.7709
湛湛清先歩豁落斗至天英星	-13.7709
直五緩六急手足拘攣隱	-13.7709
積財億萬不肯救窮周急使人飢寒而死	-13.7709
衣裳勿北向唾駡犯破毁王破謂歲下辰	-13.7709
遭遇活神仙的養靈明透碧天	-13.7709
魂九轉臨位玲瓏真性鈺花臺上倚瑶岑	-13.7709
㫁	-13.7709
上就下促下就上四維上下促在方寸之	-13.7709
事不可奈何能不使及其家與比伍	-13.7709
今故立齋燒香然燈願以是功德照	-13.7709
何乎吾道乃丹青之信也青者生仁而有	-13.7709
其支者從耳後入耳中出走耳前	-13.7709
如病人不能嚼葱擂碎	-13.7709
娓	-13.7709
斗府翊聖保徳真君掌教太玄仙聖	-13.7709
某咨諏何補芘覆居多	-13.7709
檽	-13.7709
流天下上下洞極變化難覩爲天	-13.7709
漬髓蒸筋傷神損壽醉	-13.7709
煤	-13.7709
針胃管先瀉後補之關上脉	-13.7709
録字青宫白日昇晨上造帝堂上品之訣	-13.7709
風狂雨驟雷電喧轟急急如律令	-13.7709
左青龍右白虎前朱雀後玄武	-13.7711
鬼門地神召問其所爲辭語同不同復苦	-13.7711
月星宿不失其度數不失吉凶之期不失	-13.7711
繫星宿厚薄之意是上德所當行也故	-13.7711
一輪明月一清風内外交馳西復東	-13.7712
溉明石自生玉芝以澳肺宫開明而納	-13.7712
六極八方各有所宜其物皆見事事不同	-13.7712
三四十四四十五四十六四十七四十八	-13.7712
劊	-13.7712
反胎人間侯王之家我身昇仙	-13.7712
外黄白象土金内含水	-13.7712
奉承顔色恐失其意繫所屬皆	-13.7712
如丸不就入酒打麫糊爲丸	-13.7712
者反主録國家王侯官屬也太陽畏太隂	-13.7712
致善除邪令人受道戒文	-13.7712
呼召玉樞斬勘蔣畢華雷	-13.7712
天師獨使令火行正神道何也	-13.7712
方而成熟轉在西北而終物終	-13.7712
欺其父也臣少未能爲君深計故欺其君	-13.7712
渠初默天合暉晨命隱書金玄内文扶桑	-13.7712
自然也德之爲靜尊恬愉也攝自然以裁	-13.7712
衆仙天官大神等常以月三十日	-13.7712
謂吐納自然之太和御九精之靈氣者也	-13.7712
謝玉女金童常常看舍玉鎖金匙門門開	-13.7712
頻頻迎迓玉兔金烏光光相次亞照玉欄	-13.7712
風入肺方防風獨活芎藭秦椒乾薑黄耆	-13.7712
凡夫得之號曰聖人何謂聖人子有通聖	-13.7712
巴芒中亦有屋宇不障風霜以桑柴爲牀	-13.7712
戲五嶽逍遥于空改易五内變化形容	-13.7712
所向所陳悉合玉清次入壇	-13.7712
故辛者小皇后之宫也丙者	-13.7712
法无上三天玄元始三炁太上道君召出	-13.7712
洞玄靈寳三洞奉道科戒營始卷之三	-13.7712
無聦明乃爲大危之國此罪不可復名故	-13.7712
皇后之宫也辛者配丙丙者甲之子	-13.7712
眚	-13.7712
知其意反多斷絶之故使隂氣盛陽氣衰	-13.7712
破他人口從今後令伊依舊且伴王風走	-13.7712
精𥙷髄大將軍三十六員天將七十二符	-13.7712
纔得蔽形冬夏徒跣脚不皴裂四時無寢	-13.7712
苫	-13.7712
見樂相奉順見奉助也休囚死氣皆	-13.7712
𥿄墨書祈雪青𥿄粉書	-13.7712
也西昇經云道非獨在我萬物皆有之	-13.7712
云漢謂隸書曰佐書	-13.7712
亢氐房心尾箕化邪爲血奉長生大帝敕	-13.7712
介之人者端心可教化屬事使往通此道	-13.7712
八十一域次其外復一周天下有萬國	-13.7712
嚰	-13.7712
婦人洗换狐臭百發百中	-13.7712
期號爲延康逮至赤明開光天地復位	-13.7712
氣上氣稱樂中氣稱和下氣稱刑故樂屬	-13.7712
清地寧移毒敕捉攝井鬼柳星張翼軫諸	-13.7712
爲四司所糾五帝所執千愆萬罪	-13.7712
翊靈昭武温使太保	-13.7712
而出者亦悖而入貨悖而入者亦悖而出	-13.7712
而脇下腹中痛時時津液微生小便續通	-13.7712
胰	-13.7712
苦奉請先生齋先生多事但遣	-13.7712
萬物不生也多被隂害大咎在此	-13.7712
踏盡鐵鞋迷不出菴門透	-13.7712
遊宴之時元景行道受仙之日也	-13.7712
一家尚親自共血脉同種類而生	-13.7712
一縣有剛强長吏一縣不敢語	-13.7712
乃一亭部爲不敢語此亭長	-13.7712
在南方爲君太陽在南方爲君四時盛夏	-13.7712
地張成生五行二者三萬六千日月於	-13.7712
失道德反多以威武相治威相迫	-13.7712
按太上洞極最勝無等道集經曰	-13.7712
檮	-13.7712
法制則不得妄借人著不淨處名曰法服	-13.7712
痩	-13.7712
相畏是故日出星輒逃匿不敢見畏其威	-13.7712
道可成也善備巾褐單裙讀經	-13.7712
長離玄室破形解骸身死名滅若	-13.7712
長齋幽靜定其本願當令心虚意玄然後	-13.7712
者自期至地之下殃流子孫天命之爲	-13.7714
不可復理與鬼同伍何得活乎念生得生	-13.7714
利不久以善不久居地上也故使有天地	-13.7714
後乃服上名命曹上對	-13.7714
欲得人利人亦不欲利之善利得生	-13.7714
修行事竟啓還本宫惟蒙監納須報奉行	-13.7714
灾異之變不失水旱之紀人命	-13.7714
變古文爲大篆五者秦時	-13.7714
變大篆爲小篆六者秦後	-13.7714
不敢犯禁如所妨害於身也故因縁天氣	-13.7714
天生人知善惡行善有信天不欲令	-13.7714
猬	-13.7715
出崑崙山頂上照吹明爽自	-13.7715
姦淫貪趣惡事以戒折足	-13.7715
鐡	-13.7715
何以知之口冷足腫腹熱臚脹泄利不覺	-13.7715
欺詐新學十者平等一心仁孝一切	-13.7715
癈	-13.7715
真王駕九龍之輿降牧德之臺授帝此	-13.7715
𦵔	-13.7715
九天應元捷令靈飛神元符使張	-13.7715
十四味㕮咀以水一斗二升先煮粳米	-13.7715
喼咥一如元始洞玄雷霆帝君律令	-13.7715
笄	-13.7715
華石精丹鑪金液紫華虹英	-13.7715
㔶	-13.7715
三光風雨四時五行戰鬥無常歲爲其凶	-13.7715
云方謙之字道沖冀州趙郡栢縣人	-13.7715
亥二人共抱一爲三皇初是故亥者核也	-13.7715
大乗妙經一萬三千五百篇符圖七千章	-13.7715
天故天爲之色外蒼象木内赤象火	-13.7715
滋日益巨故子者滋也三而得隂陽中和	-13.7715
癯	-13.7715
萬物生皆上行蚑行人民皆出	-13.7715
責當責誰乎復思此言無怨鬼神	-13.7715
似天上雪紅時紅似猩猩血織女四哥	-13.7715
各三十六人關啓此間土地眞官正神	-13.7715
天下凡人萬物所受命也故當力正之也	-13.7715
獸水中生亦然使民得用奉祠及自食	-13.7715
玉陽子王公廣寧子郝公	-13.7715
絶粒道要於金醴事妙於	-13.7715
自救或得長生在其天統先人之體而反	-13.7715
與天地心相抱故得其上訣者可老壽得	-13.7715
香金童傳言玉女接侍香煙上聞帝前令	-13.7715
齋念道是日中時有地仙道士三十三人	-13.7715
一炁都綂捉鬼煞鬼趙元帥	-13.7715
上下字周流徧道足也傳者信也故爲作	-13.7715
付歸有道德之君可以消去承負之凶其	-13.7715
口欲甘五味味豐則神濁五	-13.7715
吾者死從吾者封北靈黒歴九醜紫童	-13.7715
實唯麤粟飯菜羹食一升許便過旬日也	-13.7715
心正由靜靜身定心心定則識	-13.7715
想紫㣲帝星大如車輪光	-13.7715
手剔北帝號令勑煞攝魁罡轟動勑煞攝	-13.7715
揄	-13.7715
携衿玉景臺解憩戲鳳城	-13.7715
汗出爲度病退减後再以	-13.7715
產	-13.7715
精流則腎虚而迷狂魄苦則肺損而耳聾	-13.7715
而不從因而消亡矣五行小諫灾生大諫	-13.7715
而目盲五者混闇則身滅命亡五者淨明	-13.7715
藁插其間有一空簞一瓦瓶裝	-13.7715
身欲恣五體體慢則志散志散則脾傷而	-13.7715
鄭谷嘆多端終要久長難馬風子	-13.7715
鼻欲嗅五香香溢則精流四	-13.7715
上相上宰四司五帝三界官屬一切	-13.7715
不爭空混塵衆垢容	-13.7715
丙者以午爲家丁者以已爲家戊者以辰	-13.7715
丱	-13.7715
主人于時不知是神童主人病	-13.7715
之使生道德之根勿止之也止之反	-13.7715
以告五帝正天分度四者白虎吐金安鎮	-13.7715
來貧道是以不去非爲負信亦	-13.7715
俱齊捨内丹無價在山邊掛有屯蒙	-13.7715
出戲於成都市暮宿於青城山	-13.7715
即除愈家門无恙神童語主人	-13.7715
吐納導養悔謝七世父母及今世前世重	-13.7715
君勑命曹各各相移更爲直符不得小私	-13.7715
君有變怪常與陽相應非得與	-13.7715
和君太和丈人太上皇眞道君諸君丈人	-13.7715
天上地下相承如表裏復置諸神	-13.7715
好殺和氣隨而往來一藏一見主	-13.7715
妝	-13.7715
嫋	-13.7715
家享福天下同歡侍壇	-13.7715
愈奉送法服道士愕然駭	-13.7715
拾夜光鳳腦虎沫雲琅瓊霜奇味一御	-13.7715
擕	-13.7715
更有生死無常故使相主移轉	-13.7715
月七日此五願十會之時也上登太極瓊	-13.7715
有三日出焉地上之音呼明真曰	-13.7715
服當必令淨潔制作得法不爾鬼反害人	-13.7715
束束别三尺圍各長二尺五寸徑	-13.7715
樂也以厭其民臣止其數怒也下古之人	-13.7715
毁起日月星蝕人烈死萬二千國策符	-13.7715
氣其次動王氣其次動相氣其次動	-13.7715
氣大悅不戰怒令王者壽	-13.7715
清風肅吏愛日宜民東閣	-13.7715
玄丘太真皆九天自然之炁結而成焉	-13.7715
界興善下悉樂承順其上中賢悉出助國	-13.7715
疾速助吾行持疾速赴吾壇動雷聲急急	-13.7715
禮之如見道士神童見形云道士使我來	-13.7715
葮	-13.7715
解免而已雖有善心意不敢自達於上	-13.7715
詔書不敢語也一州界有	-13.7715
送法服還道士也主人如其語送至道士	-13.7715
錦屏山通玄子李先生集	-13.7715
長吏一州不敢語也一郡有	-13.7715
雷威大作風雨衆魔摧萬神拱手山嶽崩	-13.7715
香官各三十六人出出者嚴裝關啓此間	-13.7715
高上滅魔玉帝神慧隱書經	-13.7715
麻黄减二升去上沫内諸藥煑取三升分	-13.7715
上知天意教民作法無失天心	-13.7717
奈何忘天地恩乎此爲何等哉	-13.7717
能愛利口不妄言則道可得也欲輕忽	-13.7717
令給人地之長名爲水母民名爲瓜盛夏	-13.7717
皆食之是德人承天統成天形	-13.7717
也以上其君是上忠臣也未	-13.7717
行且使子知其審實天下所來所珍悉未	-13.7717
見善食以上其親是上孝子也未	-13.7717
𠿗	-13.7718
四者竊取經書妄宣道要五者借	-13.7718
欺誘萬民六者殺生貪味口是心非七者	-13.7718
賊世間訕謗道士三者輕師慢法傲忽三	-13.7718
囤	-13.7718
七者不得殺生祠祀六天鬼神八者不得	-13.7719
之所元始五老又祕五篇真文於其内	-13.7719
也再卜占者地神出告	-13.7719
王營護宰臣修創度道士女冠住持供養	-13.7719
過此而下者皆欺人不可占故卦數	-13.7719
𠻣	-13.7719
不昧列於仙班謂之長生有曰養炁延年	-13.7719
九石鍊煙丹液玉滋	-13.7719
南而悉生枝葉轉在南方而茂盛轉在西	-13.7719
塈	-13.7719
多則共害正正多則共禁	-13.7719
學又淺未有可畏故欺也故	-13.7719
揵	-13.7719
機宜所感當由道君而得度脫是故我今	-13.7719
沓曜旋根隱書金玄内文九天真王所受	-13.7719
父皆能爲其子解八方之患難何有失時	-13.7719
禮拜供養如對真形想念丹禱功德齊等	-13.7719
脣鋒内鍊六府開聰徹明呼吸天元魂魄	-13.7719
金玄内文西王母受之於北極皇上先生	-13.7719
中皇元年九月七日七聖齊靈	-13.7719
始凝核也故水始凝於十月	-13.7719
尠	-13.7719
怍	-13.7719
東方爲少陽君之始生也故日出	-13.7719
猊	-13.7719
璿	-13.7719
肩背四肢疼痛並宜服之此藥大	-13.7719
言詩長街兩面諸豪富不道蠶歸是阿誰	-13.7719
身有日映面有玉澤眼生明光齒	-13.7719
都具成而更反初起故	-13.7719
卻	-13.7719
夤	-13.7719
妙然後用酒水各一盞半生姜十片煎	-13.7719
孟道養字孝元外名援平昌人也	-13.7719
庭令我登仙洞得道精審知不祥通幽究	-13.7719
秩隨品署眞當如太眞之儀令	-13.7719
覆冠一壇五帝神兵十萬人來迎兆身便	-13.7719
足厥陰氣絶則筋縮引卵與舌	-13.7719
一倍於人迎虛者則寸口反小於人迎	-13.7719
三邊精明符正炁劒㦸煥兵權攙搶應滅	-13.7719
上孝子上忠臣上順弟子當思上何等於	-13.7719
不知世上枉鋪千載事百年恰似轉頭時	-13.7719
主將吞魔食鬼熊元帥	-13.7719
也壬者屬丁是帝王女弟之	-13.7719
以傳有書以傳無無者言之與理無有形	-13.7719
傍龍鳳之勢採鳥跡爲古文以代結繩即	-13.7719
其物得好且善而各暢茂國家	-13.7719
十化分梨我於前歲生機構	-13.7719
在天斗前日進欲見助興故動之其餘氣	-13.7719
太空始入法門普皆長壽三萬六千年	-13.7719
夫酒客欬者必致吐血此坐久	-13.7719
山高一千三百丈上有一水有香林在治	-13.7719
庚者屬乙是國家諸侯王之	-13.7719
廩	-13.7719
弟子常可樂爲也何不上同聞而上異聞	-13.7719
所疾惡不可久存是大患之本禍之門户	-13.7719
未透可再加火力再沃之	-13.7719
汶山江水九里山高	-13.7719
無有刑也九十字策傳方士九者究	-13.7719
生於江海之中是以古者聖人明王之	-13.7719
砂五苓散嘔逆加母丁香石蓮	-13.7719
神機一發斬滅妖精上帝	-13.7719
神眞一者是時天元混沌未有光明晨	-13.7719
票	-13.7719
總領大魔攝鬼禁鬼童元帥	-13.7719
者不乏貧富齊等人無怨心	-13.7719
肺水者其人身體腫而小便難時時	-13.7719
萱	-13.7719
衰陽者君也隂者臣也君盛則臣服民易	-13.7719
諸國寳信滿一國中天尊一時布	-13.7719
貌何似主人答言年可十五六姿容端正	-13.7719
走犬使犬銀甲都綂郜元帥	-13.7719
身體重則腎水生耳聾行步不正	-13.7719
邪用心佞僞皆無善應此天地之大明	-13.7719
長所能爲所不能爲者而不可强也萬物	-13.7719
闇無知也聦明閉塞天地神祇不肯復諫	-13.7719
靈寶天尊己得道大聖衆至眞諸君丈人	-13.7719
靈温使太保執罰神兵東	-13.7719
頭疼加川芎白芷葱白痛不止	-13.7719
鱍	-13.7719
丈人元眞君元眞丈人元靈君元靈丈人	-13.7719
仗劒來詣星壇斗牛女虚危室	-13.7719
家辛者以酉爲家壬者以子爲家癸者以	-13.7719
捥	-13.7719
昔上元夫人以隱文授太和玉女	-13.7719
竈在南方爲君五藏心在南方爲君君者	-13.7719
線縫野馬月同安下	-13.7719
胱背膂筋痛小便閉	-13.7719
自有固常不可妄犯順之者長吉亂之者	-13.7719
蝠	-13.7719
謹請北方聖沙門聞吾啓請降離披	-13.7719
黄蓮香薷散吞下消暑丸手脚冷	-13.7719
信行信知忠行忠知順行順知孝行孝惡	-13.772
其事雲雨布施民憂司農事元氣歸留諸	-13.772
懇惻垂淚而行言我蒙恩得爲人與萬物	-13.772
所化莫不得榮因有部署日月星	-13.772
機衡司候並使五星各	-13.772
等身滅魔消試辟凶禳患招致	-13.772
臨齋堂捻香願念應口上徹行道事竟	-13.772
二者演八會爲龍鳳之文謂之地	-13.772
人皆乘碧霞九靈流景飛雲玉輿	-13.772
玄龍十絶羽蓋三素流雲諸天大聖妙行	-13.772
不相怨善自命長惡自命短何可所疑	-13.772
名領以付學人令其領録存思以自防保	-13.772
慈之德隨病設方大哀之心赴縁說法也	-13.772
會賢人理其曲直解其未知使各自	-13.772
瀛	-13.7721
叮	-13.7721
爲賊初不欲同貫足以夷爲	-13.7722
由安身清神則寧皇一守丹田行備由	-13.7722
能如是者所謂妙中難難中既能通滓滯	-13.7722
不信宿命快情所爲穢慢四大不念生道	-13.7722
嗊嗃自是九者責望人意嗔恚四輩十者	-13.7722
懾	-13.7722
㕭	-13.7722
則玄老負籍於朱陵靈童題簡於赤文五	-13.7722
異其驚癇客忤解顱不行等八九篇合爲	-13.7722
薄老病窮賤之人五者不得誹謗善人毁	-13.7722
三千萬號千名不可得數皆天尊太上化	-13.7722
俯探長淵之文藻上和九轉之飛玉下	-13.7722
寸爲極真宫丹田上一寸爲玄丹宫流珠	-13.7722
惡列言其日有修奉靈寳真經燒香行道	-13.7722
扶老三梁龍華靈妃所討	-13.7722
敭	-13.7722
樹日道太上虹李天漢大草南宫巨珠西	-13.7722
縱覆地數百步其本莖	-13.7722
三師堂說文室以爲廣度一千人在其中	-13.7722
歲在丁卯正月十二日丙午下爲周師	-13.7722
身謂言滅盡但修正觀自當見我與今	-13.7722
輞	-13.7722
隨力能辦殿堂帳座幡	-13.7722
且象其君而爲之皆以此文爲	-13.7722
右㕮咀每服五錢重先將一服加澤蘭	-13.7722
四方監察眞官靈仙謁還眞	-13.7722
天者小諫變色大諫天動裂其	-13.7722
幣	-13.7722
惟天地亦因始初乃成精神	-13.7722
憢	-13.7722
敢爲師致憂從見教於師之後不敢犯非	-13.7722
沈濡而滑者是腎之乘	-13.7722
絶三日死何以知之口張但氣出而不還	-13.7722
而不從因而消亡矣三光小諫小事星變	-13.7722
藂	-13.7722
蹂	-13.7722
青木香大黄梔子牽牛在脚加木	-13.7722
願玄母與我俱生於生氣之間	-13.7722
食玄根之氣使人體中清朗神明八	-13.7722
黄連赤芍細辛甘草節蟬蜕姜蠶脚	-13.7722
也第十四卷云孫遊嶽字玄	-13.7722
人玉女手把華旛前導鳳謌後從天鈞白	-13.7722
寡棄薄老人凌踐貧窮逐寵豪	-13.7722
山豆根靈消根山梔子淡竹葉艾葉燈草	-13.7722
從天地飲食天下莫不共祭食之尚	-13.7722
扁鵲華佗察聲色要訣第十	-13.7722
是爲順常長生之文莫不被榮萬物巖牙	-13.7722
時雨以當飲食生長自成覆	-13.7722
極大道下元玄黄洞淵洞靈萬仙五帝	-13.7722
欺師罔道穢藉天經	-13.7722
生艾尾葉米醋擂取汁嗽去痰咽喉痛	-13.7722
甲而生垂枝布葉以當衣裳霧露	-13.7722
神威震九天庭出入三界内忠勤佐帝君	-13.7722
考校三官九府五嶽北酆太山二十四	-13.7722
被人呼作害風兒五般彩色於身見一點	-13.7722
賢人飮酒食肉濁注五神罵詈咒詛自作	-13.7722
㤿	-13.7722
下處處來迴得自如呈弓馬會把明珠射	-13.7722
之生人之所常有重皆厭之何須復上之	-13.7722
也來往晴空碧落中乘雲馬自在逍遥也	-13.7722
凶之所出安危之所發也故樂者陽也刑	-13.7722
出幽隱穴居之人皆樂來助	-13.7722
加敕字蓋塗仍加五字服符存使者真形	-13.7722
南旋火府北轉河魁輪摧崆峒天地旋廻	-13.7722
各有姓名置年歲月及日時	-13.7722
啓以玉章金音暢於太空召五帝以衛靈	-13.7722
四十字主攝星官正天度數	-13.7722
在上清境方諸東華山上青童君所居	-13.7722
天下亂而無成功一由此一手邪惡而不	-13.7722
天下周游身不動人間照了心無用	-13.7722
太真之館紫瑶宫丹瓊府右北玄高上	-13.7722
如此之福本非富貴財賄求請能得	-13.7722
存天門降下地户湧出三身合一	-13.7722
安不爲邪萬二千物各得其所豈不樂哉	-13.7722
山同其位攝金木水火土五方順真炁攝	-13.7722
山學道上有芝英金液草服之得度世	-13.7722
山高一千丈昔伊尹於	-13.7722
差龍部藥叉赤天叱	-13.7722
平地一千七百丈昔軒轅	-13.7722
怒國界安而知常先動順樂之者天道爲	-13.7722
悟若於法座睡眠右件各罰禮二十拜若	-13.7722
惡者入三掠善者獲大慈	-13.7722
成假合屍昨日盡呼重陽子今朝都看伴	-13.7722
戒中也天棄末故吾棄末也吾之爲文也	-13.7722
握固思日光紫氣累重下	-13.7722
方備辦燈具次署侍座當令四坐席地拂	-13.7722
明以同類同事同氣占相之	-13.7722
梔子燈草潮熱加北柴胡黄芩淡竹	-13.7722
正教不全是故我身國國之造成就諸心	-13.7722
泉之水洪災涌溢之數召水神止蛟龍事	-13.7722
洞玄靈寳三洞奉道科戒營始卷之一	-13.7722
煑肉取一斗去肉内藥煑取	-13.7722
珠玉珍寳無鞅億數來送天尊伏受法誡	-13.7722
白爲骸骨紅爲肌紅白	-13.7722
皇君所居光音宫八坦府右西華高上	-13.7722
盛者則人迎大三倍於寸口	-13.7722
絲茅根眼花加硃砂雄	-13.7722
者隂也隂之與陽乃更相反陽	-13.7722
而三洞經中符有作今字者此	-13.7722
腹脹加薏苡仁寒水石自利加白术	-13.7722
茆庵水遶竹籬邊仙友同居講妙玄	-13.7722
茯苓肉豆蔻櫻粟殻腹	-13.7722
袪	-13.7722
見天尊在五色光中如俱一地	-13.7722
規衆書入以規衆圖出以消灾入以正身	-13.7722
酵	-13.7722
金室之内存五願於閑宫希玄眞以自降	-13.7722
鈃	-13.7722
顥	-13.7722
馬明生學道得仙太上老君至此化形	-13.7722
騎風馬信任飄颻也占得惺惺也光	-13.7722
驕奢盈溢施行過度恣心快意不順	-13.7722
魂精祕音内諱玉佩	-13.7722
齊整次科罰愆失三十六條若	-13.7722
行道四天帝王皆駕飛雲緑軿八景玉輿	-13.7722
故吾道一高一下一沈一浮欲使衆賢共	-13.7723
流之力也善惡大小皆歸之真人知之耶	-13.7723
地乃晝夜行道而不言愛養萬物故能	-13.7723
守德也天乃專一晝夜行道而不言故能	-13.7723
念活求知賢聖有知可及矣聖人當升賢	-13.7723
恩地不忘先生之養人不忘先生之施	-13.7723
求生不惡復次之神仙之録在	-13.7723
爲學士王龍賜說此靈文玉字之訣但	-13.7723
情意見其不善而退自責恐有文書汙名	-13.7723
意逆天所施爲證天所施爲加人所施	-13.7723
揖讓失儀若侍燈燈火中滅若不注念清	-13.7723
當時意加施於人誠不敢對首理委曲得	-13.7723
素雲之輿十二白虎執命靈九元之章從	-13.7723
若唱善聲不齊若法服巾冠不	-13.7723
位次名諱八景及内音之例是也譜	-13.7723
本宿因令其得悟録亦是	-13.7723
然而無如彼草木無所縁起故述	-13.7723
不復零鬼官功積從戒起白日登玉晨	-13.7725
爲讎初不願欲聞口以味爲苦初不以自	-13.7725
位齊玉皇之號但分氣各治上下之别名	-13.7725
終之不害傷也故能爲天最稱神也最名	-13.7725
心痛善悲時眩仆視有餘不足而調其輸	-13.7725
玄瑶青林之樓崇丘蘭瓊之室	-13.7725
備列諸經不復詳載必使人天歸	-13.7725
愡	-13.7725
生邊夷之國有人之形無人之情	-13.7725
賢愚異域所以法彼上天置兹靈觀	-13.7725
鎖户清清堅守深洞轉加温	-13.7725
元年歲在癸丑十二月二十八日日中	-13.7725
天關地軸在吾掌中五丁都司髙	-13.7725
居布設方所各有軌制凡有六種一者山	-13.7725
時膺大朝隆興崇奉道德	-13.7725
沌比若環無端如胞中之子而無職事	-13.7725
深思遠慮閉其九户休其四	-13.7725
父名書兒足下即順生治	-13.7725
閩	-13.7725
五嶽諸名山或洞天并太空中皆有聖人	-13.7725
五識蔭心知生滅識想鑒記	-13.7725
垍	-13.7725
本有真靈明明處這迴搜見鉛汞便令結	-13.7725
者相利多欲數相賊傷相欺	-13.7725
言幾類似之是非上善之弟子也	-13.7725
蹠	-13.7725
輔骨下大筋上小筋下陷中屈膝乃得	-13.7725
二訣右師弟子對齋三十日洞真	-13.7725
圓治小兒變蒸發熱不解并挾傷寒温壯	-13.7725
大將部轄吏兵古木惡廟血食之賔泉源	-13.7725
如太一守尸或經年歲尸還成人也	-13.7725
威靈上帝有勑疾速降臨助吾大道掃滅	-13.7725
帝王見微知著因任行其事順其	-13.7725
思人不復殺傷女者取訣於各居其處隨	-13.7725
或累劫營修或一時建立其或蓬萊方丈	-13.7725
房之裏朝與玉帝同宴夕與玄母同几渴	-13.7725
攝右呪七徧畢取北炁一口咽下	-13.7725
玄洲仙伯開天萬仙真書	-13.7725
玉虛玄衛天宿倒傾五嶽司官莫不輔靈	-13.7725
翳九靈室動周二度變	-13.7725
腹中有痰癖哺乳不進乳則吐哯食	-13.7725
衆文與凡人訣辭也欲得良藥者取訣	-13.7725
銅頭鐵脚火眼金睛三官使者	-13.7725
鍊芝英得自然之道白日飛空上昇太清	-13.7725
願與无俱生與无俱死死而又生生爲帝	-13.7725
風伯來雨師來急急如火令攝	-13.7725
不利小腹滿者去麻黄加茯苓四兩若喘	-13.7725
二千杵當自相得若硬入	-13.7725
亦能終歲不饑還老反嬰遇食則食不食	-13.7725
仁義不行權詐爲智父子相欺君臣相	-13.7725
今汎論古今變文凡有六種一者	-13.7725
砧	-13.7725
碏	-13.7725
羔	-13.7725
螭	-13.7725
鏨	-13.7725
飪	-13.7725
蝡	-13.7725
駘	-13.7725
霙	-13.7728
斾	-13.7728
貔	-13.7728
爓	-13.7728
慿	-13.7728
珎	-13.7728
簁	-13.7728
謪	-13.7728
嵥	-13.7728
惷	-13.7728
蕡	-13.7728
㨗	-13.7728
垊	-13.7728
慤	-13.7728
糍	-13.7728
鋩	-13.7728
𤸇	-13.7728
𩆵	-13.7728
芷	-13.7731
靛	-13.7731
咥	-13.7731
嶓	-13.7731
扆	-13.7731
𤻊	-13.7731
𧏙	-13.7731
騃	-13.7731
偓	-13.7731
沬	-13.7731
縶	-13.7731
罍	-13.7731
蒐	-13.7731
醑	-13.7731
鞕	-13.7731
㡬	-13.7731
睨	-13.7731
顋	-13.7731
𧍒	-13.7733
殽	-13.7734
穏	-13.7734
煽	-13.7734
㬢	-13.7734
䔧	-13.7734
嗈	-13.7734
姧	-13.7734
婺	-13.7734
宝	-13.7734
寘	-13.7734
憋	-13.7734
畨	-13.7734
纚	-13.7734
𠮷	-13.7736
咧	-13.7737
劓	-13.7737
忱	-13.7737
顗	-13.7737
媸	-13.7737
嵬	-13.7737
廽	-13.7737
疿	-13.7737
酎	-13.7737
隗	-13.7737
殭	-13.774
卸	-13.7741
磋	-13.7741
嗞	-13.7741
渙	-13.7741
喤	-13.7741
嫰	-13.7741
揠	-13.7741
揫	-13.7741
栩	-13.7741
璜	-13.7741
罇	-13.7741
鐙	-13.7741
鬆	-13.7741
𠾬	-13.7741
𣿉	-13.7741
𩴩	-13.7741
偘	-13.7742
吭	-13.7744
晤	-13.7744
趂	-13.7744
溥	-13.7744
灕	-13.7744
𢹂	-13.7744
䑓	-13.7744
圌	-13.7744
螳	-13.7744
𧇊	-13.7744
嘌	-13.7744
氂	-13.7744
兎	-13.7744
埒	-13.7744
塹	-13.7744
弭	-13.7744
愗	-13.7744
摝	-13.7744
磺	-13.7744
窞	-13.7744
窣	-13.7744
縠	-13.7744
胂	-13.7744
衠	-13.7744
髠	-13.7744
𩳀	-13.7744
椱	-13.7745
礫	-13.7746
俘	-13.7747
窅	-13.7747
剱	-13.7747
奭	-13.7747
隃	-13.7747
眹	-13.7747
𢛄	-13.7747
㞐	-13.7747
㷰	-13.7747
䬍	-13.7747
敞	-13.7747
暍	-13.7747
漦	-13.7747
猨	-13.7747
茭	-13.7747
貊	-13.7747
踼	-13.7747
錠	-13.7747
𥁞	-13.7747
菖	-13.775
亷	-13.775
鼯	-13.775
攔	-13.775
勌	-13.775
欖	-13.775
茁	-13.775
伋	-13.775
撝	-13.775
枿	-13.775
矟	-13.775
糗	-13.775
鍍	-13.775
閙	-13.775
阤	-13.775
颷	-13.775
𠳿	-13.775
堙	-13.775
旆	-13.775
焞	-13.775
琬	-13.775
甃	-13.775
甓	-13.775
疎	-13.775
筶	-13.775
郗	-13.775
魆	-13.775
𤺍	-13.775
葆	-13.7752
玼	-13.7753
栝	-13.7753
瓏	-13.7753
紉	-13.7753
䂓	-13.7753
税	-13.7753
詹	-13.7753
輾	-13.7753
𡄼	-13.7753
喔	-13.7753
磽	-13.7753
芟	-13.7753
莬	-13.7753
蛹	-13.7753
鉍	-13.7753
馡	-13.7753
𪙉	-13.7753
呀	-13.7756
箚	-13.7756
鷴	-13.7756
柎	-13.7756
炫	-13.7756
磯	-13.7756
闋	-13.7756
𥨸	-13.7756
𩲩	-13.7756
䅋	-13.7756
丧	-13.7756
儈	-13.7756
埵	-13.7756
挪	-13.7756
撿	-13.7756
樺	-13.7756
熹	-13.7756
菰	-13.7756
趢	-13.7756
鄴	-13.7756
𧹞	-13.7756
犧	-13.7759
燄	-13.7759
畒	-13.7759
檟	-13.7759
譙	-13.7759
䯒	-13.776
蜈	-13.776
㢤	-13.776
䆫	-13.776
儜	-13.776
噔	-13.776
囁	-13.776
异	-13.776
惋	-13.776
汜	-13.776
玦	-13.776
禊	-13.776
葜	-13.776
虫	-13.776
装	-13.776
輯	-13.776
髍	-13.7763
忡	-13.7763
袿	-13.7763
淙	-13.7763
耦	-13.7763
䲭	-13.7763
桒	-13.7763
禕	-13.7763
藟	-13.7763
缶	-13.7766
𥚛	-13.7766
鎬	-13.7766
雇	-13.7766
𡣕	-13.7766
啥	-13.7766
嚅	-13.7766
楠	-13.7766
漳	-13.7766
烽	-13.7766
螟	-13.7766
𣳚	-13.7766
呱	-13.7766
尃	-13.7766
栱	-13.7766
漯	-13.7766
籛	-13.7766
簣	-13.7769
𤍿	-13.7769
磴	-13.7769
㓜	-13.7769
匯	-13.7769
瞭	-13.7769
须	-13.7769
𩴮	-13.7769
扞	-13.7771
煬	-13.7772
榼	-13.7772
胼	-13.7772
睺	-13.7772
鮭	-13.7772
褶	-13.7772
韡	-13.7772
崒	-13.7775
瑋	-13.7775
厩	-13.7775
澧	-13.7775
麕	-13.7775
菉	-13.7777
𠯜	-13.7778
麈	-13.7778
蘄	-13.7778
㯶	-13.7778
帚	-13.7781
徇	-13.7781
𥝠	-13.7781
楔	-13.7781
鉏	-13.7782
𤔵	-13.7782
砭	-13.7782
恠	-13.7785
袄	-13.7785
蒯	-13.7785
气	-13.7785
軷	-13.7788
傭	-13.7788
搴	-13.7788
噖	-13.7788
櫨	-13.7791
蔌	-13.7791
垽	-13.7794
氓	-13.7794
磔	-13.7794
覔	-13.7797
畀	-13.7797
屆	-13.7797
窨	-13.7797
惣	-13.78
頏	-13.7807
䕫	-13.7807
奘	-13.7807
媱	-13.781
喁	-13.781
廱	-13.7813
塺	-13.7813
圉	-13.7826
邠	-13.7829
殮	-13.7835
柑	-13.7841
𩳌	-14.7416
𩕄	-14.7417
𨹧	-14.7418
𧕏	-14.7419
𦍩	-14.742
𦋺	-14.7421
𤓎	-14.7422
𡵟	-14.7423
𠵇	-14.7424
𠆸	-14.7425
鼙	-14.7426
鼐	-14.7427
鴦	-14.7428
鴇	-14.7429
鯸	-14.743
鮫	-14.7431
鮆	-14.7432
髎	-14.7433
骹	-14.7434
驤	-14.7435
饘	-14.7436
饁	-14.7437
飧	-14.7438
頦	-14.7439
頞	-14.744
霡	-14.7441
霂	-14.7442
雋	-14.7443
陘	-14.7444
閾	-14.7445
鎰	-14.7446
鎞	-14.7447
鍚	-14.7448
醿	-14.7449
醲	-14.745
鄢	-14.7451
邴	-14.7452
輈	-14.7453
躟	-14.7454
躃	-14.7455
跏	-14.7456
貍	-14.7457
譫	-14.7458
譖	-14.7459
譊	-14.746
謑	-14.7461
謏	-14.7462
諤	-14.7463
誷	-14.7464
覼	-14.7465
裟	-14.7466
袈	-14.7467
蟪	-14.7468
蜾	-14.7469
蚿	-14.747
蚰	-14.7471
藦	-14.7472
蔥	-14.7473
蒡	-14.7474
莘	-14.7475
莒	-14.7476
荴	-14.7477
苐	-14.7478
臖	-14.7479
腓	-14.748
腌	-14.7481
腆	-14.7482
脥	-14.7483
緦	-14.7484
紥	-14.7485
粕	-14.7486
籯	-14.7487
籀	-14.7488
簳	-14.7489
箄	-14.749
禫	-14.7491
禈	-14.7492
祉	-14.7493
礲	-14.7494
磉	-14.7495
磅	-14.7496
矃	-14.7497
眈	-14.7498
盯	-14.7499
皙	-14.75
瓔	-14.7501
瑱	-14.7502
琊	-14.7503
珏	-14.7504
獷	-14.7505
狽	-14.7506
狙	-14.7507
煿	-14.7508
濮	-14.7509
濠	-14.751
淛	-14.7511
氅	-14.7512
櫪	-14.7513
槳	-14.7514
槜	-14.7515
梏	-14.7516
桎	-14.7517
柮	-14.7518
柚	-14.7519
晢	-14.752
挻	-14.7521
拶	-14.7522
抝	-14.7523
扭	-14.7524
懀	-14.7525
慞	-14.7526
愀	-14.7527
惘	-14.7528
怫	-14.7529
怗	-14.753
怔	-14.7531
徠	-14.7532
廐	-14.7533
嶢	-14.7534
嵳	-14.7535
媧	-14.7536
婷	-14.7537
娃	-14.7538
姨	-14.7539
奲	-14.754
夼	-14.7541
夔	-14.7542
塼	-14.7543
塤	-14.7544
堠	-14.7545
垡	-14.7546
嘹	-14.7547
喼	-14.7548
喟	-14.7549
唬	-14.755
哿	-14.7551
哨	-14.7552
咁	-14.7553
厯	-14.7554
嚫	-14.7555
刎	-14.7555
僮	-14.7556
亊	-14.7557
䰧	-14.7558
䗫	-14.7559
䁾	-14.756
䁝	-14.7561
㸑	-14.7562
㰱	-14.7563
㩌	-14.7564
㘉	-14.7565
ム	-14.7566
𦚐	-14.7567
𥌰	-14.7568
𡹝	-14.7569
鱺	-14.757
墁	-14.7571
鰻	-14.7571
鮧	-14.7572
髄	-14.7573
髁	-14.7574
饉	-14.7575
鑲	-14.7576
鈹	-14.7577
醶	-14.7578
崘	-14.7579
鄱	-14.7579
躇	-14.758
趑	-14.7581
賖	-14.7582
讝	-14.7583
蜍	-14.7584
藊	-14.7585
葡	-14.7586
㷍	-14.7587
䔉	-14.7587
坯	-14.7587
塿	-14.7587
壳	-14.7587
聃	-14.7587
耋	-14.7588
翶	-14.7589
縲	-14.759
緼	-14.7591
簦	-14.7592
篾	-14.7593
篷	-14.7594
书	-14.7595
婿	-14.7595
竮	-14.7595
竛	-14.7596
秔	-14.7597
磣	-14.7598
碙	-14.7599
砥	-14.76
甪	-14.7601
甥	-14.7602
姐	-14.7603
瑘	-14.7603
毸	-14.7604
毰	-14.7605
毈	-14.7606
櫚	-14.7607
橔	-14.7608
昳	-14.7609
擻	-14.761
抖	-14.7611
戞	-14.7612
懡	-14.7613
怏	-14.7614
廡	-14.7615
峝	-14.7616
岷	-14.7617
嬋	-14.7618
䙝	-14.7619
噞	-14.7619
娩	-14.7619
嫦	-14.7619
娟	-14.762
塲	-14.7621
嘏	-14.7622
吔	-14.7623
凸	-14.7624
兕	-14.7625
儆	-14.7626
䘾	-14.7627
侏	-14.7627
咢	-14.7627
壷	-14.7627
夬	-14.7627
奩	-14.7627
僑	-14.7627
亰	-14.7628
䢫	-14.7629
䐐	-14.763
㽲	-14.7631
㕑	-14.7632
𤃉	-14.7633
𠹋	-14.7634
䠱	-14.7635
堝	-14.7635
妤	-14.7635
婕	-14.7635
𠸯	-14.7635
齆	-14.7636
鴛	-14.7637
鴆	-14.7638
鮀	-14.7639
髼	-14.764
髑	-14.7641
餺	-14.7642
㖂	-14.7643
㤗	-14.7643
㦗	-14.7643
䋫	-14.7643
䌅	-14.7643
䐢	-14.7643
䰡	-14.7643
冂	-14.7643
呹	-14.7643
嫡	-14.7643
嬪	-14.7643
飥	-14.7643
顓	-14.7644
頊	-14.7645
雒	-14.7646
闥	-14.7647
閶	-14.7648
逡	-14.7649
轤	-14.765
㘈	-14.7651
䝨	-14.7651
伈	-14.7651
刲	-14.7651
劥	-14.7651
啣	-14.7651
嗑	-14.7651
嗢	-14.7651
芮	-14.7651
蝌	-14.7651
蚱	-14.7652
蚍	-14.7653
蚋	-14.7654
䖟	-14.7655
虺	-14.7655
薹	-14.7656
羗	-14.7657
薷	-14.7657
蓞	-14.7658
麒	-14.7658
䘓	-14.7659
䯞	-14.7659
䰰	-14.7659
侳	-14.7659
堇	-14.7659
壶	-14.7659
嫣	-14.7659
萋	-14.7659
纎	-14.766
簧	-14.7661
礠	-14.7662
猻	-14.7663
燠	-14.7664
灤	-14.7665
潎	-14.7666
㨂	-14.7667
㮏	-14.7667
䶎	-14.7667
唝	-14.7667
埛	-14.7667
堈	-14.7667
渼	-14.7667
涔	-14.7668
欿	-14.7669
櫸	-14.767
栴	-14.7671
攙	-14.7672
懦	-14.7673
悾	-14.7674
憔	-14.7675
㶼	-14.7675
㹥	-14.7675
䑀	-14.7675
匭	-14.7675
巉	-14.7675
妁	-14.7676
嗊	-14.7677
㿔	-14.7678
蝱	-14.7679
㾫	-14.7679
𩃱	-14.768
𨽾	-14.7681
𤢟	-14.7682
氤	-14.7683
㗛	-14.7683
䂷	-14.7683
䐩	-14.7683
䴉	-14.7683
凜	-14.7683
嗡	-14.7683
埳	-14.7683
堓	-14.7683
鼷	-14.7683
驃	-14.7684
陲	-14.7685
陬	-14.7686
鏇	-14.7687
逅	-14.7688
訕	-14.7689
螮	-14.769
荑	-14.7691
㖆	-14.7691
㝎	-14.7691
䨨	-14.7691
咂	-14.7691
咣	-14.7691
嘷	-14.7691
圞	-14.7691
坩	-14.7691
螣	-14.7691
蝴	-14.7692
蝮	-14.7693
蚩	-14.7694
蚧	-14.7695
蓰	-14.7696
菥	-14.7697
膞	-14.7698
㶸	-14.7699
偑	-14.7699
咴	-14.7699
哏	-14.7699
囟	-14.7699
塍	-14.7699
胕	-14.7699
聤	-14.77
翣	-14.7701
稉	-14.7702
碼	-14.7703
碯	-14.7704
眯	-14.7705
眨	-14.7706
徘	-14.7707
㘞	-14.7707
㝃	-14.7707
㶺	-14.7707
䀕	-14.7707
刓	-14.7707
勗	-14.7707
咡	-14.7707
嘩	-14.7707
癮	-14.7707
璝	-14.7708
瑯	-14.7709
獪	-14.771
猳	-14.7711
猱	-14.7712
濜	-14.7713
沲	-14.7714
㐲	-14.7715
䡇	-14.7715
䡩	-14.7715
䡿	-14.7715
䧏	-14.7715
䭜	-14.7715
埜	-14.7715
埤	-14.7715
夐	-14.7715
掬	-14.7715
挲	-14.7716
壍	-14.7717
嗶	-14.7718
芨	-14.7718
咋	-14.7719
倜	-14.772
䭷	-14.7721
䪃	-14.7722
㕱	-14.7723
㡭	-14.7723
㻱	-14.7723
䝉	-14.7723
佪	-14.7723
倮	-14.7723
偒	-14.7723
傃	-14.7723
劼	-14.7723
噺	-14.7723
嚝	-14.7723
坈	-14.7723
坻	-14.7723
垤	-14.7723
壙	-14.7723
媛	-14.7723
㾮	-14.7723
㱡	-14.7724
㮣	-14.7725
鸚	-14.7726
鷀	-14.7727
鵡	-14.7728
顢	-14.7729
鄲	-14.773
蒴	-14.7731
㖨	-14.7731
㲄	-14.7731
㵼	-14.7731
㻫	-14.7731
䑲	-14.7731
䕙	-14.7731
䠷	-14.7731
仳	-14.7731
僨	-14.7731
僭	-14.7731
勛	-14.7731
呧	-14.7731
啤	-14.7731
嗤	-14.7731
嘄	-14.7731
嘇	-14.7731
嚚	-14.7731
圠	-14.7731
圯	-14.7731
坱	-14.7731
塢	-14.7731
姱	-14.7731
娜	-14.7731
嬀	-14.7731
璩	-14.7731
羾	-14.7731
邏	-14.7731
踟	-14.7731
贛	-14.7732
蜋	-14.7733
蔔	-14.7734
臁	-14.7735
窿	-14.7736
凰	-14.7737
窕	-14.7737
礴	-14.7738
蠣	-14.7739
㕧	-14.7739
㗓	-14.7739
㩢	-14.7739
㫊	-14.7739
㳅	-14.7739
㽷	-14.7739
䗤	-14.7739
䦎	-14.7739
丅	-14.7739
个	-14.7739
伉	-14.7739
伭	-14.7739
佉	-14.7739
倌	-14.7739
僰	-14.7739
呣	-14.7739
唊	-14.7739
圮	-14.7739
圻	-14.7739
孠	-14.7739
孱	-14.7739
扈	-14.7739
硌	-14.7739
猗	-14.774
沱	-14.7741
歃	-14.7742
朧	-14.7743
慺	-14.7744
忪	-14.7745
彬	-14.7746
㐰	-14.7747
㖏	-14.7747
㯓	-14.7747
䆒	-14.7747
䊶	-14.7747
䐈	-14.7747
䗜	-14.7747
䝘	-14.7747
俍	-14.7747
冺	-14.7747
厔	-14.7747
唭	-14.7747
嘰	-14.7747
嘴	-14.7747
噐	-14.7747
噱	-14.7747
圗	-14.7747
垞	-14.7747
墡	-14.7747
妣	-14.7747
媿	-14.7747
蚯	-14.7747
陔	-14.7747
孥	-14.7747
嚶	-14.7748
唻	-14.7749
亹	-14.775
鵑	-14.7751
鬐	-14.7752
驊	-14.7753
頇	-14.7754
崐	-14.7755
㕹	-14.7755
㘑	-14.7755
㜸	-14.7755
㡤	-14.7755
㪷	-14.7755
㬊	-14.7755
㹸	-14.7755
䊮	-14.7755
剏	-14.7755
勍	-14.7755
哈	-14.7755
嘱	-14.7755
嚂	-14.7755
堀	-14.7755
壚	-14.7755
娛	-14.7755
揲	-14.7755
釭	-14.7755
邙	-14.7756
轗	-14.7757
豌	-14.7758
蠊	-14.7759
蘼	-14.776
蕘	-14.7761
茺	-14.7762
㕘	-14.7763
㘕	-14.7763
㳙	-14.7763
㵎	-14.7763
䓪	-14.7763
侄	-14.7763
傒	-14.7763
唷	-14.7763
埽	-14.7763
塏	-14.7763
墦	-14.7763
婇	-14.7763
婭	-14.7763
翱	-14.7763
縊	-14.7764
痍	-14.7765
晬	-14.7766
𨚧	-14.7767
巇	-14.7767
嚳	-14.7768
𠯲	-14.7769
颼	-14.777
㸊	-14.7771
喈	-14.7771
喡	-14.7771
嗾	-14.7771
嚭	-14.7771
堞	-14.7771
猢	-14.7771
藶	-14.7771
颻	-14.7771
釅	-14.7772
躊	-14.7773
茜	-14.7774
艽	-14.7775
翛	-14.7775
漐	-14.7776
棣	-14.7777
崱	-14.7778
玲	-14.7779
㤙	-14.7779
㳟	-14.7779
㷋	-14.7779
䌝	-14.7779
僇	-14.7779
刂	-14.7779
勣	-14.7779
咕	-14.7779
哼	-14.7779
唓	-14.7779
唶	-14.7779
啻	-14.7779
噻	-14.7779
墊	-14.7779
匍	-14.778
倲	-14.7781
仝	-14.7782
𩩲	-14.7783
鯪	-14.7784
蹰	-14.7785
鄠	-14.7786
蠼	-14.7786
蜘	-14.7787
㘇	-14.7787
㧕	-14.7787
䇇	-14.7787
佻	-14.7787
佼	-14.7787
卄	-14.7787
唼	-14.7787
啾	-14.7787
娀	-14.7787
蓿	-14.7788
苜	-14.7789
翌	-14.779
紜	-14.7791
瑪	-14.7792
瑙	-14.7793
嶇	-14.7794
崢	-14.7795
㖟	-14.7795
㗒	-14.7795
䦨	-14.7795
䨘	-14.7795
刪	-14.7795
叻	-14.7795
吲	-14.7795
咐	-14.7795
嗼	-14.7795
囌	-14.7795
崎	-14.7796
囹	-14.7797
饕	-14.7798
杷	-14.7799
抺	-14.78
恟	-14.7801
嚨	-14.7802
啇	-14.7803
㖠	-14.7803
呯	-14.7803
嗯	-14.7803
嚟	-14.7803
嚷	-14.7803
圚	-14.7803
埸	-14.7803
姫	-14.7803
汶	-14.7803
䩺	-14.7804
䚡	-14.7805
鴣	-14.7806
譩	-14.7807
譆	-14.7808
膲	-14.7809
淅	-14.781
憹	-14.7811
䀝	-14.7811
䘵	-14.7811
䦧	-14.7811
䬠	-14.7811
嚁	-14.7811
幞	-14.7812
呷	-14.7813
鯽	-14.7814
顳	-14.7815
顬	-14.7816
豺	-14.7817
蟯	-14.7818
荽	-14.7819
膻	-14.782
瑚	-14.7821
沅	-14.7822
枇	-14.7823
崚	-14.7824
岧	-14.7825
鋥	-14.7826
蹻	-14.7827
㗚	-14.7827
䫟	-14.7827
优	-14.7827
蚓	-14.7827
蛛	-14.7828
蔻	-14.7829
葳	-14.783
胵	-14.7831
峒	-14.7832
儡	-14.7833
傀	-14.7834
詵	-14.7835
厓	-14.7835
嘸	-14.7835
垕	-14.7835
榔	-14.7835
蜕	-14.7836
苣	-14.7837
秫	-14.7838
磊	-14.7839
峥	-14.784
喨	-14.7841
㤜	-14.7842
霏	-14.7843
㢮	-14.7843
䏼	-14.7843
酊	-14.7844
蝖	-14.7845
蜺	-14.7846
莪	-14.7847
苨	-14.7848
璘	-14.7849
杻	-14.785
倆	-14.7851
㗌	-14.7851
䨚	-14.7851
冡	-14.7851
堡	-14.7851
堰	-14.7851
俐	-14.7852
魎	-14.7853
飍	-14.7854
靆	-14.7855
蘅	-14.7856
芙	-14.7857
猩	-14.7858
潺	-14.7859
䨩	-14.786
体	-14.786
慷	-14.786
㬰	-14.7861
𪒟	-14.7862
蜥	-14.7863
羖	-14.7864
琥	-14.7865
珀	-14.7866
拇	-14.7867
姒	-14.7868
粢	-14.7868
跣	-14.7868
煒	-14.7869
冉	-14.787
蟆	-14.7871
滔	-14.7872
臚	-14.7873
珊	-14.7874
跎	-14.7875
巻	-14.7876
𦚠	-14.7877
蜣	-14.7878
緲	-14.7879
髴	-14.788
邕	-14.7881
螵	-14.7882
葙	-14.7883
㖃	-14.7884
蔯	-14.7884
菪	-14.7885
嶸	-14.7886
蠐	-14.7887
螬	-14.7888
薔	-14.7889
汪	-14.789
梔	-14.7891
呃	-14.7892
圑	-14.7892
莨	-14.7892
芸	-14.7893
瑠	-14.7894
蠕	-14.7895
醐	-14.7896
醍	-14.7897
磻	-14.7898
䗪	-14.7899
茴	-14.79
咫	-14.7901
菁	-14.7902
婪	-14.7903
薢	-14.7904
蚑	-14.7905
礜	-14.7906
璃	-14.7907
羚	-14.7908
骷	-14.7909
𩳐	-14.791
檳	-14.7911
蒺	-14.7912
峨	-14.7913
𥆨	-14.7914
葶	-14.7915
芁	-14.7916
㖫	-14.7917
菀	-14.7918
硭	-14.7919
膀	-14.792
蓯	-14.7921
蓉	-14.7922
崙	-14.7923
剽	-14.7924
芍	-14.7924
