<unk>	0
<s>	0
</s>	0
。	-2.33309
,	-3.93267
故	-4.37104
者	-4.82865
▁	-4.91876
(	-5.0161
二	-5.02717
)	-5.04364
以	-5.19284
為	-5.20842
*	-5.20873
也	-5.29611
三	-5.33004
一	-5.37649
即	-5.39635
、	-5.4137
中	-5.42523
是	-5.46438
有	-5.48792
之	-5.51755
法	-5.5868
等	-5.59723
心	-5.61649
此	-5.61902
下	-5.6332
名	-5.6491
行	-5.6598
於	-5.67279
無	-5.67596
;	-5.72725
如	-5.73394
菩薩	-5.74164
四	-5.74852
謂	-5.80713
佛	-5.83828
相	-5.8678
說	-5.86801
明	-5.87608
不	-5.88089
而	-5.90923
一切	-5.94722
義	-5.9999
得	-6.01229
生	-6.01959
言	-6.02119
智	-6.04169
身	-6.07647
若	-6.09169
後	-6.12075
皆	-6.1346
見	-6.16298
非	-6.17153
五	-6.18146
入	-6.19036
眾生	-6.24748
則	-6.25314
因	-6.26091
其	-6.26689
成	-6.28351
。】「	-6.28498
及	-6.28657
時	-6.28663
彼	-6.29382
如來	-6.29473
。」【	-6.29528
大	-6.31148
初	-6.31595
云	-6.32239
亦	-6.32673
諸	-6.37452
至	-6.38897
住	-6.4327
十	-6.43882
如是	-6.45433
同	-6.45555
觀	-6.46199
能	-6.46392
人	-6.49496
所	-6.50222
起	-6.50825
知	-6.50948
自	-6.50979
又	-6.51583
前	-6.51911
上	-6.53235
經	-6.56914
處	-6.58643
門	-6.59093
現	-6.59151
六	-6.59782
從	-6.60112
與	-6.61778
通	-6.62198
清淨	-6.62359
果	-6.63062
依	-6.63738
事	-6.6419
令	-6.64607
分	-6.65685
顯	-6.66302
無量	-6.66461
或	-6.7028
意	-6.70574
修	-6.70732
淨	-6.70792
今	-6.71022
然	-6.72738
善	-6.73644
道	-6.74151
多	-6.74266
七	-6.76342
在	-6.7644
常	-6.77296
疏	-6.77754
釋	-6.77983
法界	-6.78738
問	-6.79093
離	-6.79862
性	-6.80089
地	-6.80641
由	-6.80649
具	-6.80898
眾	-6.83475
八	-6.83494
我	-6.84404
出	-6.85214
自在	-6.86055
次	-6.86734
攝	-6.87326
教	-6.87367
願	-6.87544
業	-6.87832
種種	-6.88582
佛子	-6.88605
別	-6.89237
喻	-6.8939
體	-6.91574
應	-6.91591
定	-6.94094
解	-6.94303
隨	-6.95174
本	-6.9532
空	-6.95526
海	-6.95622
巳	-6.96148
色	-6.96653
德	-6.96809
勝	-6.96889
諸佛	-6.97953
力	-6.98072
作	-6.9828
欲	-6.98368
即是	-6.99008
莊嚴	-6.99063
論	-7.00094
用	-7.00922
文	-7.00929
約	-7.01825
正	-7.02104
方便	-7.02123
!	-7.03098
已	-7.03292
盡	-7.03866
答	-7.03914
證	-7.04107
緣	-7.04893
當	-7.0608
受	-7.06227
悉	-7.06824
光	-7.06922
九	-7.0766
先	-7.07946
故云	-7.08357
廣	-7.08389
功德	-7.09378
念	-7.0969
理	-7.09691
▁二	-7.10949
但	-7.11344
化	-7.11396
成就	-7.11848
普	-7.12052
三昧	-7.12522
第二	-7.12577
唯	-7.12799
名為	-7.14117
雖	-7.1479
樂	-7.14901
滅	-7.15674
天	-7.16037
聞	-7.16139
世間	-7.1679
無礙	-7.17244
難	-7.18071
王	-7.19053
餘	-7.19115
苦	-7.19748
慧	-7.20452
智慧	-7.20553
會	-7.21545
世界	-7.21852
對	-7.21995
乃至	-7.22613
▁初	-7.23265
境	-7.23763
分別	-7.2423
示	-7.24874
光明	-7.25051
位	-7.25414
藏	-7.25488
平等	-7.2575
總	-7.25951
復	-7.2605
差別	-7.273
合	-7.29465
一切眾生	-7.29765
異	-7.29793
無盡	-7.29926
廣大	-7.31385
內	-7.32575
施	-7.33192
。「	-7.33215
涅槃	-7.33423
法門	-7.33782
境界	-7.34624
寶	-7.35188
求	-7.35201
既	-7.35305
信	-7.3575
解脫	-7.36401
取	-7.36754
:	-7.38746
想	-7.39045
是故	-7.39283
真	-7.39521
發	-7.40052
善根	-7.40196
可	-7.40215
第三	-7.40261
過	-7.40432
轉	-7.40446
修行	-7.41748
迴向	-7.41812
數	-7.42916
根	-7.43334
斷	-7.441
來	-7.44364
耶	-7.44438
識	-7.45813
具足	-7.4592
究竟	-7.45945
所謂	-7.48096
劫	-7.48213
遍	-7.48272
未	-7.4829
外	-7.48398
深	-7.48438
障	-7.48485
益	-7.48817
曰	-7.4883
爾時	-7.48855
耳	-7.49293
持	-7.49449
舉	-7.49823
善男子	-7.50602
俱	-7.50614
無邊	-7.5089
捨	-7.50911
一一	-7.51266
無有	-7.51608
覺	-7.51671
?	-7.51836
各	-7.51959
方	-7.52147
立	-7.52337
不同	-7.52694
雲	-7.52832
實	-7.52868
世	-7.53273
煩惱	-7.53364
順	-7.54636
語	-7.57392
可知	-7.57957
水	-7.58198
云何	-7.58631
普賢	-7.59241
戒	-7.59314
華	-7.5981
照	-7.59969
辨	-7.60354
十方	-7.60963
引	-7.6169
音	-7.61865
妙	-7.62187
就	-7.6249
重	-7.62549
結	-7.62635
何	-7.6383
他	-7.63865
表	-7.6402
惡	-7.65096
因果	-7.65729
圓滿	-7.66051
開	-7.66228
種	-7.66522
因緣	-7.67061
等者	-7.67415
▁三	-7.67519
品	-7.67678
字	-7.684
一切諸佛	-7.68593
不可說	-7.68898
三乘	-7.6893
界	-7.69047
聲	-7.69762
宗	-7.70436
圓	-7.70816
第四	-7.71397
切	-7.71467
示現	-7.71682
物	-7.72307
除	-7.7252
菩提	-7.72696
滿	-7.72917
生死	-7.73067
十地	-7.747
報	-7.76308
供養	-7.76677
法身	-7.76888
經云	-7.76977
所有	-7.77618
忍	-7.77761
破	-7.78339
剎	-7.78758
大悲	-7.79166
了	-7.7925
諸法	-7.79285
說法	-7.79987
第一	-7.80303
小	-7.81301
香	-7.81639
頌	-7.8186
主	-7.82226
加	-7.82375
集	-7.82728
於中	-7.83234
類	-7.83271
故名	-7.83385
乃	-7.83478
一切法	-7.83698
乘	-7.84206
略	-7.84483
三世	-7.84784
」	-7.85363
度	-7.85797
一乘	-7.85864
大乘	-7.859
今初	-7.8626
神	-7.86284
解脫門	-7.88045
鈔	-7.88058
徧	-7.88372
無明	-7.8855
流	-7.88642
稱	-7.88783
安住	-7.88809
山	-7.89421
恒	-7.89422
菩薩摩訶薩	-7.89631
惑	-7.90005
隨順	-7.90041
不能	-7.90377
不思議	-7.90588
觀察	-7.90641
或名	-7.91784
共	-7.92097
所以	-7.92603
次第	-7.94167
神通	-7.95485
讚	-7.95935
十種	-7.96135
二乘	-7.9619
發心	-7.97696
真如	-7.9826
善財	-7.98317
將	-7.98868
:「	-7.99048
何以故	-7.99397
便	-7.99505
趣	-7.99781
釋曰	-8.00102
學	-8.00204
輪	-8.00288
向	-8.00301
嚴	-8.0063
金剛	-8.00979
不可	-8.01344
眼	-8.01806
師	-8.01923
矣	-8.01986
著	-8.0269
極	-8.02815
家	-8.03382
論云	-8.03424
必	-8.03871
最勝	-8.04397
緣起	-8.04582
治	-8.04881
形	-8.05854
思	-8.05887
執	-8.06235
於此	-8.06733
愛	-8.06853
▁南無	-8.07036
請	-8.07062
第五	-8.07155
汝	-8.07162
以為	-8.08235
聲聞	-8.08282
使	-8.08326
國	-8.09497
聖	-8.09712
妄	-8.09926
法性	-8.10363
日	-8.10424
悲	-8.10565
並	-8.10883
終	-8.11387
塵	-8.11617
指	-8.11671
少	-8.11838
迷	-8.12115
佛法	-8.12237
利	-8.12482
更	-8.12723
要	-8.12852
斯	-8.13202
譬如	-8.13378
去	-8.13508
喜	-8.13987
還	-8.14033
習	-8.14073
下明	-8.14248
甚深	-8.14738
此中	-8.1498
全	-8.15509
福	-8.16076
歎	-8.16466
。△	-8.16583
不離	-8.16607
失	-8.16739
一念	-8.17073
悟	-8.17353
勸	-8.17657
增	-8.17839
小乘	-8.17857
無相	-8.18169
之中	-8.18287
諸菩薩	-8.1834
不生	-8.18385
量	-8.18604
染	-8.19243
百	-8.19647
之所	-8.19737
不見	-8.19786
彰	-8.19872
幢	-8.19893
始	-8.20392
歸	-8.20506
決定	-8.20783
一切智	-8.20806
大願	-8.20995
月	-8.21013
動	-8.21022
遠	-8.21239
皆悉	-8.21285
壞	-8.21498
精進	-8.2179
疑	-8.22231
雨	-8.22436
偈	-8.22522
止	-8.2254
般若	-8.22553
第六	-8.22653
無性	-8.22683
不動	-8.22855
所依	-8.23176
竟	-8.23265
不壞	-8.23286
一切菩薩	-8.24042
達	-8.24656
土	-8.24682
之法	-8.24686
邪	-8.24728
城	-8.24887
情	-8.25023
子	-8.25132
兩	-8.25132
國土	-8.25457
長	-8.25633
自性	-8.25901
足	-8.25982
以此	-8.26266
「	-8.26538
之義	-8.26682
所說	-8.26767
無生	-8.27017
安	-8.27395
機	-8.27619
出生	-8.27634
增長	-8.2784
。」【△	-8.28018
風	-8.2803
辯	-8.28046
樹	-8.28375
成佛	-8.28455
有二	-8.28583
修習	-8.28696
往	-8.28871
堅固	-8.29702
第十	-8.29739
兼	-8.29812
利益	-8.2982
火	-8.29899
皆是	-8.30004
無上	-8.30554
虛空	-8.30596
居	-8.30693
亦不	-8.31021
。」	-8.31219
第八	-8.31231
坐	-8.32009
敬	-8.32025
不得	-8.3218
病	-8.32473
屬	-8.32473
含	-8.32677
第七	-8.32944
音聲	-8.33348
過去	-8.33442
文殊	-8.33556
護	-8.33766
歡喜	-8.34003
猶	-8.34128
絕	-8.34965
華嚴	-8.35366
末	-8.35748
無不	-8.36056
此是	-8.36203
寄	-8.36279
。▲	-8.36784
真實	-8.3702
而不	-8.37389
見佛	-8.37578
寂	-8.37616
不可思議	-8.37818
標	-8.37894
寂滅	-8.38081
猶如	-8.38202
二者	-8.38349
雙	-8.38366
目	-8.38445
善知識	-8.38783
座	-8.3888
世尊	-8.39232
融	-8.39689
興	-8.3975
何故	-8.40046
所行	-8.40122
須	-8.40995
三界	-8.41038
超	-8.41174
亦復如是	-8.41596
況	-8.41927
蓮華	-8.42092
慈	-8.42218
現在	-8.42414
】	-8.42675
無常	-8.42814
此云	-8.43002
▁四	-8.4301
頓	-8.43056
無所	-8.43129
亦是	-8.43159
不捨	-8.43295
假	-8.43316
令其	-8.43518
近	-8.43856
金	-8.43996
四句	-8.44169
網	-8.44304
食	-8.44322
遠離	-8.44446
一切世間	-8.44495
句	-8.44829
眷屬	-8.4486
寂靜	-8.44911
天王	-8.44995
漸	-8.45049
為一	-8.45182
權	-8.4551
佛果	-8.45549
不知	-8.45717
道場	-8.45944
思惟	-8.46134
放	-8.4635
燈	-8.4657
正法	-8.47272
咸	-8.47306
摩尼	-8.47325
演說	-8.47522
齊	-8.47597
第九	-8.47771
圓融	-8.48335
相應	-8.48637
一切世界	-8.4889
一者	-8.49088
罪	-8.49126
幻	-8.49404
有十	-8.49564
直	-8.49746
若有	-8.49765
禪	-8.4994
大智	-8.4994
出世	-8.50669
龍	-8.50839
望	-8.50856
無畏	-8.50965
卷	-8.51158
滿足	-8.51552
所作	-8.51967
女	-8.5208
未來	-8.52608
造	-8.52818
支	-8.52845
無二	-8.52852
阿僧祇	-8.52904
復有	-8.5301
且	-8.53252
似	-8.53325
其心	-8.53506
者即	-8.53547
之相	-8.53869
如是等	-8.53899
命	-8.54061
無我	-8.54139
豈	-8.5451
羅	-8.54786
窮	-8.54879
悉能	-8.54882
了知	-8.54904
調伏	-8.54908
口	-8.54924
僧	-8.55049
高	-8.55326
獲	-8.55478
死	-8.5548
覆	-8.55729
揀	-8.5589
諦	-8.56018
救	-8.56081
此經	-8.56339
對治	-8.56492
虗空	-8.56963
出現	-8.57028
像	-8.57508
不退	-8.5757
菩提心	-8.57671
凡夫	-8.57986
禮	-8.58113
亦無	-8.5825
或有	-8.58255
諸眾生	-8.58402
昔	-8.58446
千	-8.58591
際	-8.58651
計	-8.59128
一切諸	-8.592
有三	-8.59349
細	-8.59963
變	-8.60006
影	-8.60019
爾	-8.60076
印	-8.60093
復次	-8.60599
中有	-8.60824
現前	-8.60946
一心	-8.61201
互	-8.61248
)。】「	-8.61436
是名	-8.61599
善巧	-8.61681
故名為	-8.6175
白	-8.61959
大海	-8.62399
是菩薩	-8.62449
十一	-8.62583
佛號	-8.62586
願一切眾生	-8.62935
慢	-8.63245
初地	-8.63531
菩薩行	-8.63706
凡	-8.64171
無數	-8.64195
不斷	-8.64196
佛智	-8.6425
不異	-8.64317
息	-8.64614
經文	-8.64786
變化	-8.64845
一切如來	-8.65084
之行	-8.65086
色身	-8.65181
宮殿	-8.65392
於彼	-8.65401
已下	-8.65548
十二	-8.6555
無著	-8.65609
皆有	-8.6572
分齊	-8.65742
蓋	-8.66395
後二	-8.66492
如經	-8.66501
染淨	-8.66553
令一切眾生	-8.66738
若約	-8.67018
百萬億	-8.67231
今此	-8.67269
法故	-8.67419
設	-8.67621
俗	-8.6765
三業	-8.67727
後一	-8.67788
前後	-8.68031
諸根	-8.68071
出家	-8.68093
生滅	-8.6813
能知	-8.68179
尊	-8.68451
十住	-8.68581
收	-8.68743
亦有	-8.68965
散	-8.69451
觸	-8.69536
萬	-8.69645
人天	-8.69652
到	-8.69756
存	-8.70118
十句	-8.70455
法輪	-8.70619
佛身	-8.70629
違	-8.70672
為體	-8.70731
遊	-8.70734
自然	-8.70744
同時	-8.70779
手	-8.70843
周	-8.70848
各有	-8.71407
無漏	-8.71424
念念	-8.71458
隱	-8.71523
無差別	-8.71622
首	-8.7173
微細	-8.71752
由此	-8.7202
貪	-8.72072
亦名	-8.7251
業用	-8.72517
殊勝	-8.72723
大眾	-8.72805
名曰	-8.72862
魔	-8.72931
列	-8.72937
所知	-8.72947
諸佛子	-8.7311
林	-8.73316
佛剎	-8.73382
萬行	-8.734
頂	-8.73439
堅	-8.73733
前中	-8.73847
供	-8.73917
遣	-8.73952
又云	-8.74284
慈悲	-8.74377
為欲	-8.74477
外道	-8.74677
味	-8.74825
一時	-8.74901
不著	-8.75039
縛	-8.75182
尚	-8.75306
夢	-8.75589
所生	-8.75986
記	-8.75992
部	-8.76029
玄	-8.7608
何以	-8.76194
古	-8.76375
者謂	-8.76671
雜	-8.76716
南	-8.76806
體用	-8.76906
器	-8.76917
非是	-8.76919
此菩薩	-8.77083
莫	-8.77147
進	-8.7718
初一	-8.77189
一切佛	-8.77261
其身	-8.77392
:『	-8.77404
例	-8.77738
受生	-8.77904
財	-8.78226
珠	-8.78316
無為	-8.78446
聚	-8.78604
悉皆	-8.78902
衣	-8.79048
比丘	-8.79299
演	-8.7947
根本	-8.79542
亦如是	-8.79954
邪見	-8.80147
上來	-8.80333
乎	-8.80345
章	-8.80389
感	-8.8044
微	-8.80471
所成	-8.80498
不住	-8.80537
建立	-8.80769
藥	-8.81035
亡	-8.81367
伏	-8.81947
好	-8.82003
地獄	-8.82374
邊	-8.82402
此約	-8.8241
最	-8.82493
如幻	-8.82497
年	-8.82598
顛倒	-8.82837
自體	-8.83042
普現	-8.83162
何等為十	-8.83266
據	-8.83268
巳下	-8.8344
下釋	-8.83444
半	-8.835
永	-8.83652
諸天	-8.83714
種性	-8.83885
易	-8.83919
普賢菩薩	-8.84208
瑜伽	-8.84214
自他	-8.84347
亦爾	-8.84375
無量無邊	-8.84509
充滿	-8.84594
并	-8.85091
翻	-8.85093
增上	-8.85304
信解	-8.85486
然此	-8.85719
夫	-8.85752
顯現	-8.85874
無作	-8.86056
一句	-8.8634
害	-8.86463
迴	-8.86535
號	-8.86688
致	-8.86796
如此	-8.86815
容	-8.86871
淨土	-8.86885
所見	-8.87439
恭敬	-8.875
普賢行	-8.87591
摩尼寶	-8.87595
中二	-8.8772
十力	-8.87815
相續	-8.87915
顯示	-8.87952
內外	-8.87985
諸行	-8.87993
利他	-8.88005
此二	-8.88021
有無	-8.88109
獨	-8.88206
二義	-8.88401
義故	-8.88581
如實	-8.88941
河	-8.89065
初句	-8.89124
科	-8.8914
福德	-8.89371
勝進	-8.89493
體性	-8.89509
二種	-8.89519
文殊師利	-8.89548
百千	-8.89698
何等為	-8.89708
辯才	-8.89824
三種	-8.89936
勤	-8.90149
巧	-8.90173
殊	-8.90346
之言	-8.90506
梵	-8.90757
無障礙	-8.90924
那	-8.91117
十門	-8.91153
者是	-8.91229
之心	-8.91276
難思	-8.91354
教化	-8.91542
經中	-8.91632
親	-8.91895
唯識	-8.9199
劣	-8.92512
一切佛法	-8.92727
是為	-8.92854
有情	-8.92864
布施	-8.93052
都	-8.93135
徹	-8.93289
鏡	-8.93526
不應	-8.93557
象	-8.93806
善財童子	-8.93809
法師	-8.93825
安立	-8.93862
而為	-8.93877
法華	-8.94042
所得	-8.94068
愚	-8.94164
契	-8.942
佛性	-8.94207
發起	-8.94222
和合	-8.94307
不定	-8.94317
加行	-8.9432
身心	-8.94341
守護	-8.94392
名之為	-8.9443
轉法輪	-8.94455
善友	-8.94539
行相	-8.9458
先明	-8.94652
次二	-8.94726
受持	-8.94829
徵	-8.94831
無分別	-8.94853
波羅蜜	-8.94961
神力	-8.95167
許	-8.95236
傳	-8.95265
無能	-8.95484
頭	-8.95532
初二	-8.95922
能生	-8.9593
密	-8.96072
波	-8.96117
欲界	-8.96373
眾寶	-8.96534
於一切	-8.96546
重重	-8.96597
阿	-8.96705
文中	-8.96854
能所	-8.969
正念	-8.97108
故曰	-8.97171
曾	-8.972
善知	-8.97269
師子	-8.97529
成正覺	-8.9754
間	-8.97992
二約	-8.98084
遇	-8.98133
二門	-8.98137
備	-8.98156
不為	-8.9823
住於	-8.98345
親近	-8.98408
不礙	-8.98567
普照	-8.98698
相即	-8.98962
安樂	-8.99183
亦然	-8.99271
後三	-8.99561
當知	-8.99749
種子	-8.99796
始終	-9.00092
所攝	-9.00137
問答	-9.00475
不起	-9.00505
和	-9.00828
有四	-9.00957
令得	-9.0107
深入	-9.01089
蘊	-9.01137
十行	-9.01383
東	-9.01461
垢	-9.01544
癡	-9.0167
摩	-9.02045
深廣	-9.02226
所證	-9.02255
如來藏	-9.02308
冥	-9.02319
述	-9.0232
十八	-9.02352
如前	-9.02389
能入	-9.02495
反	-9.02528
宮	-9.02623
習氣	-9.02635
告	-9.02748
於一	-9.0281
隨緣	-9.02905
陀羅尼	-9.02939
依止	-9.03044
十信	-9.03053
遮	-9.03071
三寶	-9.0316
發菩提心	-9.03175
皆得	-9.03304
為因	-9.03393
入於	-9.03414
倒	-9.03643
若依	-9.04039
偏	-9.04172
導	-9.04179
行故	-9.04344
教化眾生	-9.0451
各各	-9.04609
遂	-9.047
初明	-9.04777
此即	-9.04929
住處	-9.05003
大小	-9.05011
配	-9.05077
尋	-9.05273
調	-9.05304
所現	-9.0533
陰	-9.05333
五位	-9.05426
其中	-9.05578
。』	-9.05702
長者	-9.0586
眾會	-9.06056
言說	-9.06266
通達	-9.06333
志	-9.06405
不出	-9.06799
四諦	-9.06898
所起	-9.06938
嚴淨	-9.07043
一切諸法	-9.07078
見聞	-9.07181
詣	-9.07198
是為十	-9.07343
主伴	-9.07455
性相	-9.07548
能令	-9.07591
授	-9.07633
廣說	-9.07792
於中二	-9.08096
被	-9.08135
推	-9.08158
願一切眾生得	-9.08264
有為	-9.08276
甚	-9.08339
該	-9.0872
非有	-9.08987
久	-9.09022
微塵	-9.09036
憶念	-9.0909
賢首	-9.09211
離垢	-9.09247
速	-9.09258
友	-9.09365
法中	-9.09589
▁五	-9.09692
闕	-9.09715
而無	-9.0976
理事	-9.09872
恐	-9.10083
或見	-9.10106
沒	-9.10251
布	-9.10311
詮	-9.10368
威儀	-9.10491
覩	-9.10541
亂	-9.1055
我當	-9.10718
為說	-9.10751
焰	-9.10937
深心	-9.11011
賢	-9.11078
悲智	-9.11251
比	-9.11416
十六	-9.11581
不成	-9.11658
三者	-9.11859
須彌	-9.11862
墮	-9.11902
潤	-9.11928
勇猛	-9.12006
厭	-9.12165
不可得	-9.1218
妙法	-9.12245
陀羅尼門	-9.12501
百萬	-9.1255
妄想	-9.12634
我今	-9.12648
不說	-9.12707
正覺	-9.12751
麤	-9.12831
之處	-9.12838
宜	-9.1285
諸地	-9.13063
放光	-9.13161
不淨	-9.13649
熏	-9.13656
又此	-9.13694
而能	-9.1388
攝受	-9.13961
而有	-9.13973
別顯	-9.1405
見者	-9.14071
婆	-9.14186
自心	-9.14227
聽	-9.14238
圓教	-9.14295
總持	-9.14336
應知	-9.14606
樓閣	-9.14835
若不	-9.14847
新	-9.14866
己	-9.15089
積	-9.15619
互相	-9.15621
有十種	-9.15709
陳	-9.16025
虛	-9.16037
開示	-9.16048
剎海	-9.16279
中道	-9.16348
智者	-9.16575
但是	-9.16582
事理	-9.16877
梵行	-9.16903
以明	-9.17083
▁二釋	-9.17479
所化	-9.17549
即前	-9.17628
色相	-9.1792
准	-9.17971
氣	-9.18011
無異	-9.18035
譯	-9.1823
是則	-9.18298
了達	-9.18342
十身	-9.18504
勤修	-9.18506
有一	-9.18524
世界海	-9.18748
佛土	-9.18777
眾生界	-9.18848
隨其	-9.18955
釋云	-9.18994
饒益	-9.19101
脫	-9.19119
之人	-9.19165
佛所	-9.19319
以是	-9.19359
聞法	-9.19401
亦非	-9.19461
相故	-9.19509
展轉	-9.19604
敘	-9.19767
不失	-9.19838
清涼	-9.199
陀	-9.19984
此上	-9.20006
所緣	-9.20016
及以	-9.20047
資	-9.2011
解釋	-9.20352
名色	-9.2039
○	-9.20506
微妙	-9.20682
無垢	-9.20701
路	-9.20821
巳下至	-9.20977
安隱	-9.21028
太子	-9.21335
.	-9.2136
。】「▲	-9.21447
常住	-9.21481
脩	-9.21579
池	-9.21624
初中	-9.21658
一法	-9.21776
無別	-9.21847
前二	-9.21902
旨	-9.22307
功	-9.22357
置	-9.22603
虗	-9.2261
於諸	-9.2269
不空	-9.22814
無間	-9.22818
奪	-9.22822
入定	-9.22882
不可說不可說	-9.22889
于	-9.22959
【	-9.23097
願力	-9.23113
迹	-9.23146
化身	-9.23186
總結	-9.23192
三藏	-9.23286
輕	-9.23404
行者	-9.23489
却	-9.23601
退	-9.23708
前三	-9.23866
明了	-9.23932
西	-9.2402
五百	-9.24026
次一	-9.24129
亦可	-9.24236
積集	-9.24335
序	-9.24374
畢竟	-9.24387
偈頌	-9.24475
但有	-9.24518
母	-9.24608
信心	-9.24728
諸如來	-9.24746
自利	-9.24898
別釋	-9.2499
離諸	-9.25052
次句	-9.2512
佛子菩薩摩訶薩	-9.2514
現身	-9.25193
繫	-9.25339
八地	-9.25425
無住	-9.25478
權實	-9.25583
長行	-9.25636
化眾生	-9.25672
未曾	-9.25819
讚歎	-9.25912
知一切法	-9.25949
或以	-9.25975
修多羅	-9.26048
龍王	-9.26437
夜神	-9.26488
覺悟	-9.265
此地	-9.26509
自分	-9.26539
殿	-9.26571
行願	-9.26642
禪定	-9.26849
本末	-9.26864
思之	-9.27042
礙	-9.2718
殺	-9.27256
不違	-9.27268
善法	-9.27374
力故	-9.27538
髻	-9.27688
是也	-9.27837
最上	-9.27847
面	-9.27901
有二種	-9.27956
無依	-9.28029
當願眾生	-9.28043
瞋	-9.28216
出離	-9.28249
地前	-9.28302
實際	-9.2838
毒	-9.28436
下結	-9.28481
十四	-9.28533
無限	-9.2868
理智	-9.28958
十三	-9.29161
怖	-9.29231
若以	-9.29249
愚癡	-9.29341
無所有	-9.29403
成熟	-9.29429
中間	-9.29473
威德	-9.29499
非一	-9.29689
是佛	-9.29731
大方廣佛華嚴經	-9.2987
不退轉	-9.29875
靜	-9.30013
夜	-9.30031
四種	-9.30319
奉	-9.30324
十方世界	-9.30393
妙音	-9.30517
釋迦	-9.30552
則能	-9.3057
見道	-9.30697
持戒	-9.30816
證入	-9.30827
修菩薩行	-9.30835
偈云	-9.30852
周遍	-9.30929
緣覺	-9.3122
正顯	-9.31253
法者	-9.31292
童子	-9.31379
濟	-9.31629
二十	-9.31734
智力	-9.31747
東方	-9.31759
諸佛法	-9.31936
牒	-9.32
鬼	-9.32005
若無	-9.32113
十七	-9.32165
但以	-9.32201
答曰	-9.32222
神變	-9.32331
二句	-9.32343
有二義	-9.32436
別明	-9.32448
所修	-9.32608
一身	-9.32636
一味	-9.32662
緣生	-9.32739
下文	-9.32819
善惡	-9.32886
橫	-9.3305
車	-9.33086
闇	-9.33349
妙寶	-9.33397
瓔珞	-9.33594
從此	-9.33635
一約	-9.33635
相似	-9.337
舍	-9.33719
盛	-9.33817
一向	-9.33839
身業	-9.34003
同體	-9.34023
同教	-9.34335
我等	-9.34473
此十	-9.34535
正明	-9.3456
義也	-9.34749
畏	-9.34855
無礙智	-9.34864
十五	-9.34912
此明	-9.35061
出世間	-9.35098
二釋	-9.35244
以成	-9.35353
不共	-9.35368
自身	-9.35373
意業	-9.35431
迦	-9.35451
父母	-9.35501
局	-9.35551
儀	-9.35583
十九	-9.35603
現行	-9.3562
但云	-9.35624
損	-9.35709
田	-9.35768
實相	-9.35796
一切佛剎	-9.35876
是其	-9.35974
百億	-9.36076
真空	-9.36116
成益	-9.36134
億	-9.3624
穢	-9.36321
依此	-9.36554
而生	-9.36564
住持	-9.36654
純	-9.36662
攝取	-9.36705
心境	-9.3674
性故	-9.36782
捨離	-9.36842
疾	-9.37098
果報	-9.3719
根本智	-9.37206
普入	-9.37425
相好	-9.37427
之時	-9.37477
能成	-9.37553
菩薩如是	-9.37572
故知	-9.3758
宿	-9.37688
一切皆	-9.37761
辭	-9.37766
書	-9.37804
不善	-9.37881
有五	-9.38064
知見	-9.38109
云云	-9.38195
分二	-9.38277
利生	-9.38292
承	-9.38302
離相	-9.38304
業報	-9.38314
門中	-9.38325
之果	-9.38448
剎那	-9.38533
起行	-9.38548
故得	-9.38588
老	-9.38663
亦云	-9.38667
大慈	-9.38668
無量劫	-9.38687
同前	-9.38851
則為	-9.39063
此三	-9.39095
終教	-9.39161
宣	-9.39187
放大光明	-9.3928
壽	-9.39305
一分	-9.39369
此品	-9.39478
段	-9.39499
亦如	-9.39645
質	-9.39661
得見	-9.39767
成滿	-9.39778
總明	-9.39835
能持	-9.3987
依正	-9.39882
有漏	-9.40016
而得	-9.40152
得法	-9.40208
䟽	-9.40243
昇	-9.40259
名號	-9.40293
助	-9.40376
誰	-9.40391
無染	-9.40403
者明	-9.40432
熱	-9.40521
待	-9.4057
相違	-9.40592
三千大千世界	-9.40599
北	-9.40628
簡	-9.40799
舌	-9.40847
。】	-9.41264
一切法界	-9.41279
彌勒	-9.41329
靡不	-9.4135
所入	-9.41374
縱	-9.4139
判	-9.41405
大用	-9.41427
何等	-9.41455
吾	-9.41479
欲令	-9.41501
流轉	-9.41755
三世諸佛	-9.41989
準	-9.41995
得名	-9.42041
元	-9.42082
之因	-9.42233
所詮	-9.42254
弟子	-9.42315
及諸	-9.42396
則無	-9.4254
𦦨	-9.42688
別中	-9.4287
或現	-9.42919
大地	-9.43015
不取	-9.43113
葉	-9.43284
悉令	-9.4343
臺	-9.43517
以智	-9.43713
言音	-9.43816
熟	-9.43865
?」	-9.43917
七地	-9.44121
此則	-9.4421
惱	-9.44243
若爾	-9.44263
雖有	-9.44312
心無	-9.4434
怨	-9.44373
源	-9.4439
五蘊	-9.44449
申	-9.44451
是以	-9.44687
清	-9.44713
懺悔	-9.44802
唯一	-9.44866
歷	-9.44877
明淨	-9.44919
智論	-9.44979
如虛空	-9.45
不二	-9.45064
別教	-9.45105
各別	-9.45122
相入	-9.45169
疏云	-9.45203
論釋	-9.45222
普遍	-9.45269
於佛	-9.45285
所為	-9.45331
節	-9.45527
相者	-9.45535
恩	-9.45691
第一義	-9.45723
之德	-9.45886
不可壞	-9.45923
本來	-9.4597
法相	-9.46063
一人	-9.4612
為首	-9.46202
之智	-9.46214
無始	-9.46237
壽命	-9.46292
二明	-9.46578
一塵	-9.46603
婆羅門	-9.46661
金剛藏	-9.46678
依他	-9.46709
如空	-9.46775
▁初標	-9.46805
下句	-9.46848
毗盧遮那	-9.46976
一切剎	-9.47041
此法	-9.47062
廻向	-9.47122
無等	-9.47219
受用	-9.47388
之意	-9.47569
差	-9.47641
燒	-9.47735
頓教	-9.47754
菩薩摩訶薩亦復如是	-9.47875
木	-9.4791
除滅	-9.47934
懷	-9.48008
即以	-9.48038
唯有	-9.48078
說者	-9.48147
逆	-9.48147
怖畏	-9.48235
何者	-9.48317
─	-9.48459
若有眾生	-9.48503
隨所	-9.48562
地中	-9.4874
一多	-9.48886
蒙	-9.48892
尊重	-9.48912
意云	-9.48982
泯	-9.49046
此義	-9.49097
能現	-9.49111
空有	-9.49254
一生	-9.49285
不變	-9.49739
忘	-9.49949
一相	-9.50046
如上	-9.50058
無所著	-9.50148
於一切法	-9.50179
日月	-9.50199
平	-9.50308
結成	-9.50311
背	-9.50376
此文	-9.50466
唱	-9.50522
次三	-9.50556
宣說	-9.50593
之門	-9.50702
靈	-9.50789
毛孔	-9.50905
以顯	-9.50918
光照	-9.50921
帝釋	-9.50945
為令一切眾生	-9.50967
然後	-9.5098
拔	-9.51095
即為	-9.51125
甚微細	-9.5113
得佛	-9.51166
作意	-9.51194
跡	-9.51273
故此	-9.5131
總相	-9.51359
大慈悲	-9.51466
犯	-9.51489
帶	-9.51527
如何	-9.51544
立名	-9.51831
如夢	-9.51857
濁	-9.51937
前四	-9.52015
周徧	-9.52015
在於	-9.52028
二諦	-9.52166
華藏	-9.52227
寺	-9.52367
眾生心	-9.52398
性空	-9.52459
聖者	-9.52697
悔	-9.52926
閻浮提	-9.52943
制	-9.53295
同一	-9.5349
成壞	-9.53504
宅	-9.53511
初標	-9.53531
其所	-9.53674
真理	-9.53726
也言	-9.53908
任	-9.54075
毛	-9.54128
釋文	-9.54128
佛境界	-9.54143
三句	-9.54177
令諸眾生	-9.54322
審	-9.55307
位中	-9.55336
無礙用	-9.55362
真性	-9.55414
問曰	-9.55481
謗	-9.55521
佛剎微塵數	-9.55581
而言	-9.55679
決	-9.55744
本性	-9.55841
即空	-9.55912
為主	-9.56006
不盡	-9.56038
今經	-9.56181
一切處	-9.56238
本有	-9.56342
總顯	-9.5646
阿含	-9.56467
故不	-9.56495
影像	-9.56509
九地	-9.56526
等故	-9.56618
毀	-9.56629
等覺	-9.56766
之身	-9.56777
總別	-9.56782
佛地	-9.56839
金色	-9.56966
無色	-9.57005
攝生	-9.57099
最後	-9.57163
中三	-9.57187
公	-9.57202
仰	-9.57235
是時	-9.57263
無餘	-9.57273
往詣	-9.57422
之境	-9.57469
智光	-9.57604
大意	-9.57652
解行	-9.57678
士	-9.57724
所住	-9.57834
度眾生	-9.57873
知一切	-9.57948
普眼	-9.58036
之理	-9.5809
牛	-9.58186
纏	-9.58285
為本	-9.5837
對前	-9.58412
法王	-9.5842
勝行	-9.58542
雜染	-9.58571
語業	-9.58603
不作	-9.58658
十法	-9.5867
悅	-9.58717
》	-9.58728
於中三	-9.58738
麁	-9.58855
自在力	-9.58985
馬	-9.59003
故言	-9.59005
提	-9.59163
▁六	-9.59218
加持	-9.59226
表法	-9.59316
四者	-9.5932
四門	-9.59362
花	-9.59438
暗	-9.59464
上二	-9.59467
曲	-9.59479
為性	-9.59501
不求	-9.59519
福智	-9.59542
哉	-9.59635
代	-9.59648
焉	-9.59781
往昔	-9.59967
越	-9.59967
七日	-9.59997
淨名	-9.60034
極樂淨土	-9.60036
始教	-9.6009
進修	-9.60117
▁初明	-9.60186
即得	-9.60262
於一念中	-9.60378
勝德	-9.60395
本願	-9.60478
祕密	-9.60487
鳥	-9.60539
憂	-9.60565
智故	-9.60595
強	-9.606
此位	-9.60611
如來身	-9.60693
十義	-9.60847
聖人	-9.60989
童女	-9.61165
皆以	-9.61178
略說	-9.61234
皆令	-9.61431
灌頂	-9.61547
畧	-9.61605
祖	-9.61616
無體	-9.61674
患	-9.61699
未得	-9.61792
三昧門	-9.61798
運	-9.62002
巳上	-9.62039
但為	-9.62066
謂此	-9.62131
慶	-9.62176
沙	-9.62228
頌前	-9.62253
多聞	-9.62274
如彼	-9.62294
垂	-9.62336
四大	-9.62397
相對	-9.62426
正見	-9.62442
勝解	-9.6251
普門	-9.62654
福田	-9.62691
諸功德	-9.62911
梵王	-9.62918
少分	-9.63024
堪	-9.63088
漸次	-9.63114
不了	-9.63213
作是念	-9.63264
一切善根	-9.63301
假名	-9.63301
無厭	-9.63372
論文	-9.63479
乖	-9.6356
一性	-9.63657
衣服	-9.63765
所持	-9.63799
談	-9.63807
懺	-9.63835
廢	-9.6385
善男子我	-9.63881
常樂	-9.63882
此下	-9.63888
般若波羅蜜	-9.64047
無比	-9.64103
勿	-9.64143
不信	-9.64301
化生	-9.64301
開悟	-9.64423
則得	-9.64483
諸煩惱	-9.64492
名字	-9.64517
惡道	-9.64544
諸善根	-9.64629
於法	-9.64671
降	-9.64706
愛樂	-9.64803
寧	-9.64961
隨意	-9.65017
故非	-9.65033
黑	-9.65033
生故	-9.65039
無量眾生	-9.65041
功用	-9.65067
何況	-9.65082
方能	-9.65094
念佛	-9.6511
知識	-9.65142
列名	-9.65325
室	-9.65574
不可盡	-9.6559
肉	-9.65617
佛力	-9.65631
承事	-9.65661
料揀	-9.65751
身雲	-9.65805
論中	-9.65816
虛妄	-9.66161
法雨	-9.6621
沙門	-9.66222
三性	-9.66272
初總	-9.66308
妙德	-9.66426
五欲	-9.66499
文字	-9.6653
我所	-9.66532
舊	-9.66553
聖教	-9.66562
教義	-9.66627
唯心	-9.66731
則有	-9.66736
阿僧祇寶	-9.66763
趣入	-9.66782
今以	-9.66858
淺	-9.66874
包	-9.6691
草	-9.6693
四天下	-9.66936
永離	-9.67155
無上菩提	-9.67165
注	-9.67192
領	-9.67226
美	-9.67263
一門	-9.67332
諸位	-9.67342
難得	-9.67437
證得	-9.67441
恭敬供養	-9.67455
稠林	-9.67657
吉祥	-9.67693
一品	-9.67743
行成	-9.67799
底	-9.67806
本無	-9.67874
真諦	-9.67961
修道	-9.68006
▁○	-9.68012
甘露	-9.68035
善哉	-9.68048
之事	-9.68116
者以	-9.68124
而說	-9.68162
文云	-9.68438
誓	-9.68449
如實知	-9.68487
令入	-9.68501
佛境	-9.68523
上句	-9.68591
十方諸佛	-9.68645
放逸	-9.68791
智海	-9.68898
所引	-9.68931
悉得	-9.68943
▁三結	-9.68976
法藏	-9.69027
尼	-9.69117
」【	-9.69225
太	-9.69258
差別智	-9.69474
勢	-9.69504
種種莊嚴	-9.6951
成道	-9.69614
隨機	-9.69622
之內	-9.69658
爾時善財童子	-9.69685
色界	-9.69694
謂於	-9.69777
非無	-9.7001
塔	-9.70018
倍	-9.70075
消	-9.70118
下半	-9.70167
石	-9.70169
此之	-9.70215
故今	-9.70305
融通	-9.70336
上下	-9.70431
原	-9.7051
三地	-9.70528
六度	-9.70573
得入	-9.70595
能說	-9.70672
鼻	-9.70676
諸惡	-9.70678
體相	-9.70701
故有	-9.70736
難知	-9.70881
自在故	-9.70884
不滅	-9.70924
救護	-9.70968
若干	-9.70969
為宗	-9.71042
端	-9.71057
畜生	-9.71141
更有	-9.71184
毗	-9.71308
威力	-9.71352
徒	-9.71475
通於	-9.71515
仁	-9.71517
三明	-9.7154
皆從	-9.7167
諸趣	-9.71672
伽	-9.71729
欲樂	-9.71771
相望	-9.71828
有六	-9.71865
。」【【	-9.71906
處處	-9.71925
無厭足	-9.71955
園	-9.72061
八萬四千	-9.72113
答言	-9.7212
慈心	-9.72319
畢	-9.72441
人中	-9.72604
即此	-9.72632
期	-9.72658
人法	-9.72677
導師	-9.7271
十善	-9.72835
解云	-9.72854
神足	-9.72996
初三	-9.73057
即入	-9.73136
果故	-9.73206
而起	-9.7328
後四	-9.73304
皆能	-9.73375
一處	-9.73446
弘	-9.73571
唐	-9.73582
歲	-9.73592
地上	-9.73636
惡業	-9.73637
無所依	-9.73637
菩薩道	-9.73662
三約	-9.7374
有異	-9.73751
天子	-9.73764
誓願	-9.73804
意識	-9.73817
令眾生	-9.73864
善根迴向	-9.73924
具德	-9.7396
經說	-9.73961
即無	-9.7411
意樂	-9.74111
一偈	-9.74165
諸有	-9.74214
下顯	-9.74347
憍慢	-9.74354
天人	-9.7436
教法	-9.74456
如是一切	-9.74475
於念念中	-9.74483
善能	-9.74502
乳	-9.74598
發阿耨多羅三藐三菩提心	-9.74659
心不	-9.74695
無邊際	-9.74806
終不	-9.74942
已下至	-9.74947
中初	-9.74948
明其	-9.74974
連	-9.74981
暫	-9.75008
舍利弗	-9.75042
一佛	-9.7521
華嚴經	-9.75241
我慢	-9.753
嚴飾	-9.75331
俱舍	-9.75358
娑婆	-9.75367
阿難	-9.75457
旋	-9.75517
德用	-9.75581
一切智智	-9.75582
離障	-9.75601
不從	-9.75631
彌	-9.75683
法體	-9.75807
喜樂	-9.75892
同異	-9.7591
事故	-9.75918
釋名	-9.76012
滅度	-9.76043
真俗	-9.76046
十千	-9.76057
精	-9.76121
令他	-9.7641
中說	-9.76446
能證	-9.76472
入一切	-9.76486
餘皆	-9.76634
隨逐	-9.76674
無際	-9.76693
是知	-9.76698
專	-9.76711
之名	-9.76716
一切煩惱	-9.76796
離過	-9.76842
初發心	-9.76854
蔽	-9.76882
於法界	-9.7689
所由	-9.76921
菩薩摩訶薩有十種	-9.7693
助道	-9.7698
參	-9.7701
正道	-9.7712
最初	-9.77148
三有	-9.77182
熾然	-9.77205
耶答	-9.77279
敷	-9.77291
不依	-9.77463
二障	-9.77472
四十	-9.77486
理實	-9.77628
之體	-9.77658
賢聖	-9.77682
又以	-9.77683
智悲	-9.77705
八十	-9.77718
性起	-9.77773
一劫	-9.77788
又如	-9.77815
悉知	-9.77879
分四	-9.77902
神通力	-9.77911
之本	-9.77931
作用	-9.78028
後釋	-9.78106
護持	-9.78158
有三種	-9.78256
入法界	-9.78283
輪王	-9.78332
得解脫	-9.78391
止觀	-9.78441
有世界名	-9.78499
流通	-9.78609
如海	-9.78654
之道	-9.78677
成等正覺	-9.78901
守	-9.78976
在家	-9.7898
隨心	-9.79006
一云	-9.7916
如虗空	-9.79187
亦得	-9.79265
以何	-9.79391
不與	-9.79471
承佛神力	-9.79619
或說	-9.79679
如理	-9.79712
別相	-9.79812
父	-9.79816
所以者何	-9.79867
熏習	-9.79901
唯是	-9.79947
生起	-9.79989
釋成	-9.80043
於世間	-9.80093
故說	-9.80118
智光明	-9.8012
長養	-9.80138
諸教	-9.80147
正釋	-9.8019
法爾	-9.80335
一毛	-9.80369
有其	-9.80459
諸天子	-9.80503
無違	-9.80528
行布	-9.8057
而說頌言	-9.80586
遊戲	-9.80598
定慧	-9.80659
何得	-9.80696
十度	-9.80718
行門	-9.80731
不染	-9.80747
下辨	-9.80832
六根	-9.80859
諸世界	-9.80881
果德	-9.80894
苦惱	-9.80931
誠	-9.81008
廣釋	-9.81091
冠	-9.81093
隨喜	-9.81101
惡趣	-9.81142
如下	-9.81145
若見	-9.81147
執著	-9.81192
隱顯	-9.81211
何有	-9.81238
由前	-9.8132
法海	-9.81336
分三	-9.81347
彼岸	-9.81386
言辭	-9.81398
初會	-9.81422
諸業	-9.81475
大法	-9.81548
仍	-9.81565
作業	-9.81596
而行	-9.81605
慚愧	-9.81636
妙行	-9.8169
經論	-9.81697
狹	-9.81705
律	-9.81725
異故	-9.81953
或為	-9.81958
香水海	-9.82082
若能	-9.82142
五陰	-9.8217
多劫	-9.82219
建	-9.82372
求法	-9.82388
不及	-9.82388
歎佛	-9.82414
留	-9.8246
苦行	-9.82484
得果	-9.8251
隨眾生心	-9.82578
超過	-9.82646
岸	-9.82648
攝論	-9.82771
如意	-9.82774
天眼	-9.82972
故迴向	-9.82985
皆為	-9.83042
毘	-9.8307
伴	-9.83127
勝義	-9.83172
懈怠	-9.83188
無功用	-9.83313
因故	-9.83499
生於	-9.83523
▁「	-9.8353
貴	-9.83616
梵天	-9.83689
廣如	-9.83719
能作	-9.83754
能見	-9.83807
諸菩薩眾	-9.83827
以彼	-9.83944
貫	-9.83971
胎	-9.83997
自行	-9.84022
飲食	-9.84042
勢力	-9.84047
起信	-9.84115
憶	-9.84128
一明	-9.84148
引證	-9.84155
所求	-9.84193
此句	-9.84217
無記	-9.84284
明知	-9.84375
大聖	-9.84382
棄	-9.84437
可得	-9.8447
悟入	-9.84591
二地	-9.84697
速疾	-9.84698
一對	-9.84733
希有	-9.84774
視	-9.84778
略舉	-9.84801
同於	-9.84849
諍	-9.84857
自有	-9.84873
無窮	-9.84901
招	-9.84904
分明	-9.84973
行位	-9.84974
皆由	-9.84979
服	-9.8499
慮	-9.84996
諸佛如來	-9.85071
眾中	-9.851
見彼	-9.8512
空中	-9.85136
靜慮	-9.85338
報身	-9.85345
牒前	-9.85352
見如來	-9.85361
減	-9.85453
稱讚	-9.85467
諸世間	-9.85514
二字	-9.85519
願行	-9.85559
詞	-9.85588
皆云	-9.85618
▁二明	-9.85626
離世間品	-9.85637
步	-9.85645
異熟	-9.85717
得清淨	-9.85778
三品	-9.85857
知眾生	-9.85911
別有	-9.85913
誦	-9.85927
帳	-9.85938
大智慧	-9.85975
然其	-9.85997
夜叉	-9.86
又前	-9.86151
四地	-9.86261
三結	-9.86314
六十	-9.86325
佛子菩薩摩訶薩有十種	-9.86336
限	-9.8635
語言	-9.86462
利益眾生	-9.86491
說故	-9.86557
辟支佛	-9.86602
行體	-9.86625
非實	-9.86675
此釋	-9.86696
寶華	-9.86714
朝	-9.86724
以一	-9.86758
於前	-9.86893
十迴向	-9.86998
佛道	-9.87021
隔	-9.87024
全同	-9.87054
滯	-9.87117
遍法界	-9.87125
亦通	-9.87129
疑惑	-9.87168
徵釋	-9.87196
文義	-9.87198
道理	-9.87313
謂一	-9.8735
苦樂	-9.87439
於中初	-9.87476
正說	-9.87482
盡未來際	-9.87525
何不	-9.87525
圓覺	-9.87526
無㝵	-9.87562
至於	-9.87572
何等為十所謂	-9.87692
五種	-9.87712
迦葉	-9.87783
淨心	-9.87827
微塵數	-9.87875
不以	-9.87936
勝故	-9.87946
六地	-9.88046
本覺	-9.88095
不覺	-9.88129
人間	-9.88165
無差	-9.8822
法空	-9.88421
值	-9.8846
昇進	-9.88568
星	-9.88621
下二	-9.88737
成立	-9.88758
交	-9.88797
成行	-9.88847
入佛	-9.88851
鐵	-9.88868
震	-9.88917
上半	-9.88926
可見	-9.88963
只	-9.89007
修學	-9.89027
其相	-9.89038
若人	-9.89114
震動	-9.89155
心故	-9.89172
佛德	-9.89253
幽	-9.89268
餓鬼	-9.89278
鬘	-9.89279
無想	-9.894
調伏眾生	-9.89532
總是	-9.89535
統	-9.89584
前五	-9.89594
答前	-9.8962
三門	-9.8964
翳	-9.89711
世界種	-9.89731
一切種智	-9.89802
呼	-9.89865
改	-9.89873
佛功德	-9.89888
隨時	-9.899
堂	-9.90053
威	-9.90147
利樂	-9.90206
」「	-9.90351
妙色	-9.90404
諸波羅蜜	-9.9041
四禪	-9.90418
上之	-9.90444
隨好	-9.90445
毘盧遮那	-9.90447
柔軟	-9.90455
普光明	-9.90473
海中	-9.905
知一切眾生	-9.90589
漏	-9.90674
能起	-9.9083
斷惑	-9.90956
唯約	-9.9098
懸	-9.90988
上妙	-9.90991
如來所	-9.9106
已上	-9.91074
寬	-9.91092
能以	-9.91198
髮	-9.912
悉見	-9.91243
之性	-9.91248
塵數	-9.91273
行法	-9.91362
永斷	-9.91375
泥	-9.91398
世界中	-9.91476
七寶	-9.9149
稱性	-9.9156
所居	-9.91572
以法	-9.91592
莊嚴具	-9.91593
此等	-9.91619
五者	-9.91643
虛空界	-9.91739
之一	-9.91779
一切功德	-9.91844
三世佛	-9.91993
攝化	-9.92
體故	-9.92044
不聞	-9.92061
而成	-9.92072
下別顯	-9.92145
真妄	-9.92232
法施	-9.92242
無自性	-9.92303
得聞	-9.92326
青	-9.92347
證成	-9.92408
飾	-9.92431
園林	-9.92445
深密	-9.92449
五句	-9.92465
自相	-9.92485
所問	-9.92499
善業	-9.92538
圍繞	-9.92565
寶莊嚴	-9.92621
空寂	-9.92637
護念	-9.9271
開合	-9.92768
聚落	-9.92787
以為莊嚴	-9.92859
竭	-9.92906
短	-9.9305
帝	-9.93216
當得	-9.93239
知其	-9.93314
十箇	-9.93327
不可量	-9.93386
託	-9.93404
所言	-9.9342
譬如真如	-9.93529
有人	-9.93541
曉	-9.93737
三毒	-9.93786
是人	-9.9383
其義	-9.93852
日光	-9.93856
悉以	-9.93978
謬	-9.94027
信樂	-9.94052
優婆夷	-9.94058
不爾	-9.94097
登	-9.94123
剎土	-9.94156
亦同	-9.94187
應云	-9.94194
智慧光明	-9.94216
得此	-9.94241
▁七	-9.94262
三時	-9.943
因緣故	-9.94303
大心	-9.94387
大王	-9.94415
論主	-9.94449
缺	-9.94504
三身	-9.94609
菩提心者	-9.94618
戲論	-9.94757
六句	-9.94827
同名	-9.94845
濕	-9.94886
拂	-9.949
西方	-9.94933
為一切眾生	-9.94984
之力	-9.95132
無念	-9.95218
不名	-9.95245
有何	-9.95251
圓成	-9.95254
初二句	-9.95288
智身	-9.95339
不在	-9.95359
為緣	-9.95429
及與	-9.95443
不分別	-9.95455
古今	-9.95462
摩尼王	-9.95494
法雲	-9.95536
普照一切	-9.95621
一行	-9.95628
慳	-9.9563
我身	-9.95698
隨相	-9.95721
聞者	-9.95795
或云	-9.95893
如影	-9.95942
恐怖	-9.95953
今明	-9.95997
創	-9.95998
師子座	-9.9601
摧	-9.96041
能治	-9.96057
化作	-9.9617
皆同	-9.9619
阿羅漢	-9.96267
正行	-9.96306
聖道	-9.9634
是謂	-9.96422
妨	-9.96484
結云	-9.96546
無心	-9.96591
勸修	-9.96679
九句	-9.96828
深信	-9.96829
後際	-9.96886
作是	-9.96892
盲	-9.96912
有多	-9.96936
獲得	-9.97014
一切劫	-9.97052
前十	-9.97102
今云	-9.97129
如佛	-9.97237
萬法	-9.97314
又復	-9.97379
眾苦	-9.97414
直心	-9.97418
餘義	-9.97434
世俗	-9.97469
剎塵	-9.97571
下總結	-9.97604
眾生故	-9.97624
心常	-9.97637
顯法	-9.97669
後偈	-9.97696
具云	-9.97749
則是	-9.97762
生處	-9.97804
充滿法界	-9.97874
不言	-9.979
徃	-9.97905
此上過佛剎微塵數世界	-9.97932
九十	-9.9798
特	-9.98034
普入一切	-9.98053
羅漢	-9.98093
十波羅蜜	-9.98106
知法	-9.98131
前中二	-9.98172
從初	-9.9826
一事	-9.98293
佛菩提	-9.98294
乃是	-9.98343
▁南無得	-9.98368
普徧	-9.98444
答云	-9.98445
解了	-9.98479
所應	-9.98497
所說法	-9.98514
慧菩薩	-9.98651
同行	-9.98665
▁初釋	-9.98754
不行	-9.9883
劫數	-9.98832
圍遶	-9.98848
約法	-9.98875
寶藏	-9.98896
賊	-9.98961
此會	-9.99109
障礙	-9.99121
如來智	-9.99122
身中	-9.99229
悉亦如是	-9.99231
初禪	-9.99234
世法	-9.99246
三十二	-9.99391
交徹	-9.99397
飲	-9.994
佛言	-9.99404
遊行	-9.99425
我為	-9.99428
非唯	-9.99448
偈中	-9.99452
何謂	-9.99481
能詮	-9.99494
普見	-9.99654
證智	-9.99664
眉間	-9.99669
講	-9.99758
擊	-9.99758
境故	-9.99762
臨	-9.99845
飛	-9.99865
楞伽	-9.99865
略無	-9.9987
以其	-9.99871
天女	-9.99959
不忘	-9.99981
既爾	-10.0004
帝網	-10.0005
三際	-10.0008
一義	-10.0008
圓明	-10.0009
無性故	-10.0016
離一切	-10.0018
成德	-10.0018
十佛	-10.0026
即於	-10.0027
論經	-10.0029
降伏	-10.003
供佛	-10.003
如一	-10.0031
老死	-10.0031
無可	-10.0038
是法	-10.0039
有此	-10.0045
此亦	-10.0049
淨穢	-10.0049
歎德	-10.005
不具	-10.005
於世	-10.0063
放光明	-10.0063
而住	-10.0064
如人	-10.0065
佛教	-10.0066
▁二別	-10.0067
義者	-10.0067
希	-10.007
次四	-10.0073
初心	-10.0074
栴檀	-10.0086
四攝	-10.0087
菩薩住此	-10.0093
上三	-10.0095
意明	-10.0095
於如來	-10.01
明此	-10.0102
得自在	-10.0106
為大	-10.0109
返	-10.0113
不受	-10.0124
入此	-10.0133
繁	-10.0138
良	-10.0141
大同	-10.0152
離欲	-10.0154
妙莊嚴	-10.0157
此四	-10.0164
二行	-10.0166
唯願	-10.0172
免	-10.0172
二合	-10.0173
三世間	-10.0175
諸相	-10.0176
故須	-10.0176
今疏	-10.0176
有世界	-10.0176
無有休息	-10.0176
臣	-10.0177
正是	-10.0193
一萬	-10.0207
非真	-10.021
供養諸佛	-10.0213
下三	-10.0215
爾時世尊	-10.0218
受苦	-10.0218
無力	-10.0221
命終	-10.0223
正受	-10.0234
時分	-10.0235
以無	-10.0255
入一	-10.0261
普能	-10.0269
施行	-10.027
趣向	-10.0278
劫中	-10.0293
舍那	-10.0294
酬	-10.0295
而現	-10.0296
功德海	-10.0298
一切寶	-10.0298
見此	-10.0298
中有二	-10.03
單	-10.0301
得益	-10.0305
妙華	-10.0313
校量	-10.0315
如來智慧	-10.0315
令彼	-10.0318
大菩提	-10.0321
訶	-10.0326
妙香	-10.033
展	-10.0332
雜集	-10.0345
為令眾生	-10.0345
潔	-10.0348
普光	-10.035
心念	-10.0352
無因	-10.0356
無知	-10.0356
獨覺	-10.0369
此人	-10.0375
德相	-10.0376
結前	-10.0381
善知識者	-10.0386
說此	-10.0389
不入	-10.0389
一百	-10.0397
二利	-10.0397
中有三	-10.04
道品	-10.0402
佛說	-10.0407
入涅槃	-10.0409
亦應	-10.0409
姓	-10.041
竝	-10.0418
晉經	-10.0418
方為	-10.0432
貪欲	-10.0432
並是	-10.0436
下別	-10.044
之文	-10.0442
行菩薩行	-10.0445
般涅槃	-10.0447
納	-10.0449
而非	-10.045
威光	-10.0454
菩薩地	-10.0461
薩婆若	-10.0463
義理	-10.0473
王子	-10.048
離於	-10.0491
錢	-10.0492
而來	-10.0507
任運	-10.0514
風輪	-10.052
故無	-10.0528
五教	-10.0529
授記	-10.0536
詳	-10.0546
為眾生	-10.0548
於我	-10.0559
方得	-10.0559
俱生	-10.0562
往來	-10.0564
淨治	-10.0568
萬物	-10.0572
須彌山	-10.0588
五地	-10.0596
一音	-10.0616
累	-10.0617
不自	-10.0619
法也	-10.0619
若得	-10.0623
逮	-10.0623
階	-10.0624
不亂	-10.0629
十億	-10.063
此上過佛剎微塵數世界有世界名	-10.0633
是事	-10.0636
彼諸	-10.0638
會通	-10.064
是總	-10.0641
所受	-10.0645
鈔云	-10.066
大涅槃	-10.0668
凡聖	-10.0671
十二因緣	-10.0672
智地	-10.0687
清淨故	-10.0688
空故	-10.0691
衰	-10.0696
後明	-10.0699
處所	-10.0701
明見	-10.0703
多少	-10.0705
生如來家	-10.0705
富	-10.0708
六道	-10.071
良以	-10.0712
而作佛事	-10.0714
逆順	-10.0719
求一切智	-10.0721
皮	-10.0723
貧窮	-10.073
於他	-10.073
沈	-10.073
汝等	-10.0742
長短	-10.0745
皆名	-10.0748
獲益	-10.075
依報	-10.0754
薄	-10.0766
後句	-10.0769
徧法界	-10.0778
品云	-10.0779
三觀	-10.0788
當來	-10.0793
南方	-10.0794
諸佛菩薩	-10.0797
一頌	-10.0808
典	-10.0811
故能	-10.0813
慧眼	-10.082
有八	-10.0821
攬	-10.0823
諸三昧	-10.0827
調柔	-10.0827
果海	-10.0827
仙	-10.083
梵本	-10.083
聲聞緣覺	-10.0834
菩薩住	-10.0839
妙智	-10.0841
白言	-10.0845
即有	-10.0849
腹	-10.0851
別義	-10.0851
𤼵	-10.0852
後結	-10.0853
迷惑	-10.0854
諸佛世尊	-10.0854
所觀	-10.0858
箇	-10.0861
之教	-10.0868
何所	-10.0871
一段	-10.0874
續	-10.0875
若言	-10.0875
妙覺	-10.0875
智眼	-10.0876
呪	-10.0877
菩提場	-10.0878
權教	-10.088
同相	-10.088
▁後	-10.0882
隨眾生	-10.0885
經意	-10.0885
從緣	-10.0888
責	-10.0893
顯勝	-10.0894
能化	-10.09
非色	-10.0903
不待	-10.0905
佛名	-10.0906
欣	-10.0918
升	-10.092
所治	-10.0922
仙人	-10.0927
合掌	-10.093
皆具	-10.0931
信等	-10.0935
若欲	-10.0956
沉	-10.0961
前七	-10.0962
隨宜	-10.0966
為顯	-10.097
囉	-10.0971
為其	-10.0981
差別相	-10.0982
分中	-10.0984
恒沙	-10.0984
燄	-10.0985
前六	-10.0986
天下	-10.0993
能依	-10.0995
有四種	-10.0999
女人	-10.1003
勇	-10.1003
假使	-10.1004
為令	-10.101
六相	-10.1011
非不	-10.1013
會釋	-10.1016
分為二	-10.1017
▁初正	-10.1018
地法	-10.1025
默	-10.1029
居士	-10.1041
▁初總	-10.1042
落	-10.1044
因行	-10.1046
心行	-10.1047
題	-10.1049
遺	-10.1054
防	-10.1058
瑠璃	-10.1064
時處	-10.1065
更無	-10.107
謂以	-10.1072
轉變	-10.1074
百千億	-10.1082
等是	-10.1093
之用	-10.1094
那由他	-10.1095
為明	-10.1098
則不	-10.1105
四智	-10.1106
一一皆	-10.1107
端正	-10.1109
阿耨多羅三藐三菩提	-10.1112
智體	-10.1123
佛事	-10.1123
我皆	-10.1128
昧	-10.114
彼經	-10.1148
盜	-10.1149
實有	-10.1149
真心	-10.1155
晝夜	-10.116
心所	-10.1165
哀愍	-10.1172
攝一切	-10.1173
勞	-10.1175
亦復	-10.1178
譬喻	-10.118
載	-10.1183
起用	-10.1183
迴心	-10.1186
阿僧祇劫	-10.1187
無量無數	-10.1188
無實	-10.1189
則知	-10.119
心生	-10.1193
無盡故	-10.1197
一切國土	-10.1198
轉輪王	-10.1201
中云	-10.1203
先標	-10.1204
每	-10.1208
一種	-10.1209
鼓	-10.1217
貪著	-10.1219
響	-10.1227
察	-10.123
比丘尼	-10.1231
畫	-10.1236
性淨	-10.1245
實教	-10.1248
功能	-10.125
適	-10.1251
生歡喜	-10.1252
喻中	-10.1257
離言	-10.1257
不雜	-10.1261
常為	-10.127
施設	-10.127
不樂	-10.1275
遍計	-10.1275
寶樹	-10.1281
《	-10.1283
竪	-10.1284
復作是念	-10.1293
有七	-10.1298
廣明	-10.13
身相	-10.1301
疏文	-10.1308
令知	-10.1309
諸佛所	-10.1311
時彼	-10.1316
種種方便	-10.1319
所因	-10.1324
所聞	-10.1327
門者	-10.1329
包含	-10.1332
滅故	-10.1337
羅剎	-10.1338
牙	-10.134
陽	-10.1343
謙	-10.1345
珍寶	-10.1348
男女	-10.1354
一部	-10.1357
無所障礙	-10.1365
十一地	-10.1368
一一毛孔	-10.1371
樂欲	-10.1372
測	-10.1374
四義	-10.1379
有力	-10.138
是一	-10.1384
能受	-10.1402
三義	-10.1405
得菩提	-10.141
不相	-10.1412
幾	-10.1415
後五	-10.142
律儀	-10.142
初偈	-10.1425
設有	-10.1425
有三義	-10.1429
染著	-10.1436
淨戒	-10.1437
後後	-10.1438
理故	-10.1439
行德	-10.1446
非異	-10.145
益物	-10.1453
論意	-10.1461
主夜神	-10.1462
總名	-10.1463
此處	-10.1463
淺深	-10.1467
成故	-10.1469
臥	-10.1469
無量功德	-10.1474
虗妄	-10.1478
貧	-10.148
令一切眾生得	-10.1481
百千億那由他	-10.1488
此乃	-10.1496
論曰	-10.1501
誤	-10.1505
精勤	-10.1507
非法	-10.1508
事理無礙	-10.1512
回向	-10.1521
大師	-10.1522
廣狹	-10.1524
具有	-10.1525
今當	-10.1527
而作	-10.1528
剎種	-10.153
變易	-10.1531
承佛威力	-10.1536
能攝	-10.1538
正報	-10.1544
此方	-10.1545
餘九	-10.1548
所知障	-10.155
事事無礙	-10.1554
古德	-10.1558
因中	-10.1565
五門	-10.1567
初門	-10.1568
未知	-10.1568
同類	-10.1571
無所得	-10.1573
此一	-10.1575
於十方	-10.1587
茲	-10.1588
獄	-10.1588
未曾有	-10.1591
▁八	-10.1595
成上	-10.1597
第二會	-10.1598
誑	-10.1598
見一切佛	-10.1604
隨應	-10.1606
骨	-10.1608
如如	-10.161
來意	-10.1613
天地	-10.1614
等也	-10.1615
哀	-10.1615
釋經	-10.1616
佛剎微塵數世界	-10.1618
拘	-10.162
鉢	-10.1622
得成	-10.1623
遮那	-10.1623
復以	-10.1626
能破	-10.1626
氏	-10.1631
菩提樹	-10.1634
過失	-10.1637
眾生身	-10.1654
不放逸	-10.1656
瞋恚	-10.1656
不令	-10.1659
遠近	-10.1661
又釋	-10.1666
方所	-10.167
乾	-10.1671
如次	-10.1675
諸剎	-10.1675
我於	-10.1679
如來境界	-10.1681
云何為	-10.1681
尸羅	-10.1681
佛國土	-10.1684
濫	-10.1687
業果	-10.1694
作佛	-10.1697
或時	-10.1706
邊際	-10.1707
遷	-10.1713
而恒	-10.1718
心者	-10.1725
有大人相	-10.1725
投	-10.1729
種種差別	-10.1731
如化	-10.1733
移	-10.1736
隨根	-10.1738
謂由	-10.1741
勝妙	-10.1745
罪報懺悔	-10.1749
隨諸眾生	-10.175
作佛事	-10.1764
此為	-10.1773
結跏趺坐	-10.1773
第三句	-10.1779
右	-10.1779
傍	-10.1783
閻浮	-10.1787
生死海	-10.1791
謂前	-10.1792
養	-10.1792
圓音	-10.1795
示其	-10.1797
充	-10.1797
後得	-10.1807
令住	-10.1807
十方佛	-10.1808
令生	-10.1808
復現十種	-10.181
具十	-10.1811
煩惱障	-10.1811
於理	-10.1813
由旬	-10.1815
與前	-10.1819
說偈	-10.1827
毫	-10.1828
善行	-10.1834
熱惱	-10.1837
出體	-10.1837
逐	-10.1838
於其	-10.1844
總句	-10.185
斯則	-10.1851
異類	-10.1852
常行	-10.1854
十方一切	-10.1856
諸大菩薩	-10.1858
諸苦	-10.1858
乃能	-10.1861
丈夫	-10.1862
他方	-10.1864
於中先	-10.1865
鑒	-10.1866
行中	-10.1868
善住	-10.1873
快樂	-10.1878
今言	-10.1881
入三昧	-10.1888
眾行	-10.1894
顯其	-10.1902
唯佛	-10.1906
初教	-10.1917
帖	-10.1918
猛	-10.1922
侍	-10.1922
亦即	-10.1923
上首	-10.1923
彼此	-10.1925
露	-10.1925
而得自在	-10.1927
以前	-10.1928
今約	-10.193
三釋	-10.1935
無所畏	-10.1938
可以	-10.1942
我見	-10.1942
一體	-10.195
頂禮	-10.1953
妙慧	-10.1953
妻	-10.1965
二空	-10.1969
度脫	-10.1972
為總	-10.1972
手足	-10.1972
有二十	-10.1975
歸依	-10.1976
如其	-10.1976
即彼	-10.198
今文	-10.1986
學者	-10.1988
嘆	-10.199
唯除	-10.1991
聞此	-10.1992
光普照	-10.1994
兩句	-10.1997
六位	-10.1997
在此	-10.2001
正義	-10.2007
前文	-10.2011
下正顯	-10.2012
亦能	-10.2012
不生不滅	-10.2016
十者	-10.2017
蓮華藏	-10.2017
乾闥婆	-10.2017
第四句	-10.2018
十事	-10.2024
於眾生	-10.2024
於一切眾生	-10.2026
善入	-10.2031
不實	-10.2032
周法界	-10.2033
究	-10.2033
州	-10.2034
恚	-10.2038
億劫	-10.2052
說為	-10.2053
見諸佛	-10.2054
釋中	-10.2054
忽	-10.2055
滅除	-10.2057
藏菩薩	-10.2058
三十	-10.2058
浮	-10.2059
謝	-10.2062
委	-10.2063
白佛言	-10.2072
此門	-10.2074
會中	-10.2078
三賢	-10.2078
八識	-10.2079
心性	-10.2087
方成	-10.2096
生信	-10.2096
三輪	-10.2102
忍辱	-10.2107
接	-10.2108
修菩薩道	-10.2111
偽	-10.2118
隨其所應	-10.2121
雖復	-10.2121
補	-10.2126
能捨	-10.2127
異名	-10.2127
枝	-10.213
無方	-10.2139
等皆	-10.2146
▁二別釋	-10.2147
十方一切世界	-10.215
故經云	-10.2159
▁初揔	-10.2161
無非	-10.2168
其上	-10.2173
生華藏海	-10.2174
檀	-10.2175
不即	-10.2191
別故	-10.2192
種種色	-10.2192
三德	-10.2193
即真	-10.2194
前之	-10.2197
說也	-10.2197
十中	-10.22
無斷	-10.2209
開敷	-10.2215
口業	-10.2217
塵勞	-10.2227
善巧方便	-10.2232
如來應正等覺	-10.2233
重重無盡	-10.2233
十重	-10.2234
今但	-10.2235
幢菩薩	-10.2239
彼佛	-10.2241
佛國	-10.2246
大光明	-10.2246
涅槃經	-10.2246
我唯知此	-10.2248
次名	-10.2257
為他	-10.2261
謂佛	-10.2264
知足	-10.2273
普周	-10.2274
▁九	-10.2276
依前	-10.2281
檀波羅蜜	-10.2282
知諸法	-10.2286
因位	-10.2289
見其	-10.2295
不可稱	-10.2297
各異	-10.2299
▁初正明	-10.2306
有所	-10.2309
修成	-10.2315
正定	-10.2315
善男	-10.2316
總攝	-10.2318
端嚴	-10.2318
境智	-10.2321
為趣	-10.2326
思議	-10.2342
欲顯	-10.2345
涉	-10.2365
樓	-10.237
世界種名	-10.237
智通	-10.2372
無有邊	-10.2373
出生一切	-10.238
種種諸	-10.238
屈	-10.2383
珍	-10.2386
不可以	-10.2396
於是	-10.2405
法寶	-10.2405
〔	-10.2406
即當	-10.2411
御	-10.2415
不能知	-10.2415
五根	-10.242
資糧	-10.2421
亦為	-10.244
博	-10.2441
亦以	-10.2445
聽聞	-10.2446
隨眠	-10.245
雲雨	-10.2452
是為菩薩摩訶薩	-10.2467
修治	-10.2467
應機	-10.2468
法說	-10.2471
繞	-10.2471
就初	-10.2476
無涯	-10.248
至此	-10.2481
有餘	-10.2482
依於	-10.2486
事業	-10.2491
淨光	-10.2492
頌云	-10.2492
師子吼	-10.2493
貪愛	-10.2494
炎	-10.2497
闡提	-10.2499
下第二	-10.25
亦復然	-10.2502
盡故	-10.2503
思量	-10.2509
慈氏	-10.2509
塗	-10.2512
與佛	-10.2516
難可	-10.2522
名稱	-10.2522
畜	-10.2524
別說	-10.2525
一類	-10.2526
是為菩薩	-10.2527
善根迴向亦復如是	-10.2532
末後	-10.2533
一切行	-10.2545
真金	-10.2549
不現	-10.2552
徧十方	-10.2554
照耀	-10.2556
山王	-10.2563
無形	-10.2563
偈讚	-10.2567
軌	-10.2569
薩	-10.2572
六者	-10.2574
此言	-10.2576
或復	-10.2581
為說法	-10.2584
開發	-10.2586
明菩薩	-10.2587
次二句	-10.2596
無有餘	-10.2597
暢	-10.2601
觀行	-10.2602
菩薩所行	-10.2605
無生忍	-10.2609
三十七	-10.2612
黃	-10.2614
智用	-10.2622
既云	-10.2623
本識	-10.2628
有為法	-10.2636
次云	-10.2639
為果	-10.264
漸漸	-10.2641
法喻	-10.2641
天宮	-10.2642
與眾生	-10.2648
之後	-10.2658
未能	-10.2659
發願	-10.2665
寂然	-10.2669
必有	-10.267
辦	-10.2675
者如	-10.2681
不息	-10.2682
證理	-10.2684
法合	-10.2687
場	-10.2688
及餘	-10.2693
智論云	-10.2699
示現一切	-10.2703
無失	-10.2706
所明	-10.2707
生安隱心	-10.2707
故論云	-10.271
三聚	-10.2711
現相	-10.2714
涅槃云	-10.2715
生長	-10.2716
修諸行	-10.2721
餘如	-10.2725
愍	-10.2725
約位	-10.2727
梵音	-10.2727
諸佛剎	-10.2731
應化	-10.2733
彼論	-10.2738
爾時善財	-10.274
塗香	-10.275
遍滿	-10.2764
高下	-10.2765
第	-10.2768
難思議	-10.2772
普應	-10.2773
應當	-10.2783
無極	-10.2784
略釋	-10.2789
從其	-10.2791
異相	-10.2794
品中	-10.2794
諸國土	-10.2798
不相應	-10.2798
無分別智	-10.2801
徧周	-10.2802
智波羅蜜	-10.2808
昏	-10.281
足下	-10.2812
甚深法	-10.282
之位	-10.2822
層	-10.283
第十地	-10.2836
智境	-10.2837
不隨	-10.2838
澤	-10.284
異體	-10.2849
所樂	-10.2857
起安慰心	-10.2857
方便智	-10.2857
妙光	-10.2859
取著	-10.2862
厚	-10.2863
頌中	-10.2864
相也	-10.2866
一日	-10.2875
草木	-10.2877
發生	-10.2877
攝持	-10.2879
六種	-10.2881
解脫月	-10.2888
下正	-10.2889
然上	-10.2889
能斷	-10.2893
五十	-10.2895
有大	-10.2896
群	-10.29
一切眾	-10.2901
無上道	-10.2901
諸乘	-10.2903
無所不	-10.2903
一切眾生心	-10.2903
關	-10.2906
二禪	-10.291
名言	-10.2914
問云	-10.2915
我已得住	-10.292
謂菩薩生如是心	-10.292
無二故	-10.292
二依	-10.2923
以為其	-10.293
眾德	-10.2933
十萬	-10.2943
擇	-10.2943
▁【	-10.2949
為令他住	-10.2951
俗諦	-10.2953
是所	-10.2958
無色界	-10.296
入如來	-10.2963
能得	-10.297
船	-10.2972
惜	-10.2974
能觀	-10.2977
承事供養	-10.2978
即涅槃	-10.2978
瞻仰	-10.298
海印	-10.2983
唐于闐國三藏沙門實叉難陀譯	-10.2989
演法	-10.2989
四頌	-10.2993
十佛剎微塵數	-10.2997
摧伏	-10.2998
金剛藏菩薩	-10.3
薪	-10.3002
劫海	-10.3002
大慧	-10.3003
前中亦二	-10.3005
汝今	-10.301
雙行	-10.3011
等十	-10.3011
法光明	-10.3018
啟	-10.3025
二相	-10.3034
道故	-10.3035
是前	-10.3041
義通	-10.3047
斷滅	-10.3051
刀	-10.3053
如來出現	-10.3056
角	-10.3057
現故	-10.3058
正智	-10.3058
三千	-10.3059
掌	-10.3059
下即	-10.3061
融攝	-10.3066
聞持	-10.3072
即事	-10.3076
道者	-10.308
遠公	-10.3081
普攝	-10.3081
不可數	-10.3084
能於	-10.3084
同事	-10.3091
供養佛	-10.3092
依彼	-10.3093
兵	-10.3094
以佛	-10.3098
瞻	-10.3098
阿脩羅	-10.3101
覺觀	-10.3105
一一塵中	-10.3106
充滿十方	-10.3106
已得	-10.3112
休	-10.3117
有二一	-10.3118
無有盡	-10.3119
後得智	-10.3123
舒	-10.3124
轉勝	-10.3126
佛智慧	-10.3126
符	-10.3128
諸大	-10.313
次有香水海名	-10.314
普照十方	-10.3145
不移	-10.3148
第二句	-10.3148
中無	-10.3158
里	-10.3159
相成	-10.3165
俱有	-10.3165
知之	-10.3166
實義	-10.3167
隨其所	-10.3168
▁初正釋	-10.3173
初舉	-10.3174
了義	-10.3177
三摩地	-10.3177
如金剛	-10.3178
何處	-10.3183
固	-10.3189
既無	-10.3189
遠離一切	-10.3191
願得	-10.3194
以智慧	-10.3194
三段	-10.3197
瑞	-10.3199
障故	-10.3199
文有三	-10.3205
說有	-10.3207
二教	-10.3207
惠	-10.3211
豈不	-10.3215
散亂	-10.3216
後十	-10.3221
如響	-10.3227
常在	-10.3231
因此	-10.3231
法義	-10.3233
皆依	-10.3233
普覆	-10.3241
譬	-10.3252
推求	-10.3252
纔	-10.3257
是中	-10.3259
所信	-10.3261
莫不	-10.3261
大士	-10.3262
不有	-10.3264
餘二	-10.3266
先舉	-10.3267
二十一	-10.327
為佛	-10.3271
有體	-10.3272
名義	-10.3273
芽	-10.3274
八相	-10.3284
聽受	-10.3285
闍	-10.3286
餘三	-10.3289
雙非	-10.3292
世主	-10.3294
初十	-10.3296
深法	-10.3297
法眼	-10.3297
遍照	-10.3304
如說	-10.3304
未來世	-10.331
遍十方	-10.331
但約	-10.3319
眠	-10.3327
行滿	-10.3332
今日	-10.3345
兜率天	-10.3345
釋之	-10.3346
用故	-10.3348
諸比丘	-10.3353
常見	-10.3354
得道	-10.3357
果法	-10.336
身見	-10.3363
破壞	-10.3366
七者	-10.3366
即同	-10.3368
無有障礙	-10.3372
作如是念	-10.3375
離世間	-10.3379
破戒	-10.3382
藉	-10.3384
廣顯	-10.3387
問若	-10.3387
總標	-10.3394
歡喜地	-10.3398
二智	-10.3402
饒益眾生	-10.341
勸請	-10.3411
側	-10.3413
無所住	-10.3415
所顯	-10.342
成菩提	-10.3432
傷	-10.3432
無數劫	-10.3437
借	-10.3446
本事	-10.3447
君	-10.3449
顯理	-10.3452
所造	-10.3452
不相違	-10.3458
前中初	-10.3459
妻子	-10.3459
但取	-10.346
種類	-10.3465
教中	-10.3471
所念	-10.3472
業障	-10.3472
十方盡歸命滅罪增淨信願	-10.3474
案	-10.3475
形像	-10.3476
差別故	-10.3477
悟解	-10.348
繫縛	-10.348
所行道	-10.348
再	-10.3483
顧	-10.3486
供具	-10.349
惟	-10.3491
上上	-10.3496
能淨	-10.3497
勝劣	-10.3499
嗔	-10.3503
等取	-10.3504
諸度	-10.3506
彼有	-10.3509
。』「	-10.3517
報得	-10.3517
器世間	-10.3518
頃	-10.352
夫人	-10.3525
湛然	-10.3528
謂有	-10.3529
欲求	-10.3532
未有	-10.3538
九會	-10.3546
引論	-10.3547
輪迴	-10.3553
摩耶	-10.3557
有支	-10.3557
於中四	-10.3565
群生	-10.3571
為真	-10.3573
普觀	-10.3576
同佛	-10.358
▁十	-10.3582
利眾生	-10.359
非有非無	-10.3591
令我	-10.3594
妄語	-10.3595
隨行	-10.3597
七種	-10.3598
城名	-10.3604
結歎	-10.3608
根性	-10.3608
生者	-10.3608
所立	-10.3611
增勝	-10.3613
魚	-10.3616
辭退而去	-10.3621
寶網	-10.3623
等法	-10.3624
豎	-10.3624
法慧	-10.3624
八者	-10.3633
不可見	-10.3635
實性	-10.3636
總釋	-10.3641
菩提樹下	-10.3642
色像	-10.3643
體即	-10.3647
履	-10.3648
十願	-10.3649
有二義一	-10.3657
普光明殿	-10.3669
三事	-10.3672
說分	-10.3676
合為一	-10.3676
修生	-10.3678
能除	-10.3683
合前	-10.3686
十頌	-10.3686
寶光明	-10.3694
初四	-10.3695
雪山	-10.3697
發意	-10.3701
之上	-10.3702
稱歎	-10.3702
俱胝	-10.3703
豈非	-10.3704
表之	-10.3711
張	-10.3715
無遺	-10.3718
大力	-10.3721
玉	-10.3723
諸群生	-10.3723
造作	-10.3724
其意	-10.3726
奇特	-10.3726
興供	-10.3732
可愛樂	-10.3734
無障	-10.3744
八句	-10.3746
通明	-10.3747
第七地	-10.3749
束	-10.3753
卑	-10.3754
所修行	-10.3754
天台	-10.3756
如日	-10.3757
因陀羅	-10.3758
先總	-10.3759
無滅	-10.3764
佛為	-10.3765
明佛	-10.3765
大悲心	-10.3766
如雲	-10.3769
般	-10.3771
此教	-10.3772
法雲地	-10.3772
二十五	-10.3774
其性	-10.3784
生時	-10.3785
寶光	-10.3789
上文	-10.3791
王位	-10.3792
淨信	-10.3799
此法門	-10.38
次有佛興名	-10.3804
文有二	-10.3819
諸德	-10.3819
春	-10.3825
誘	-10.3826
答中	-10.383
下文云	-10.3834
諸劫	-10.3834
法忍	-10.3836
彼云	-10.3838
無生滅	-10.3851
字時	-10.3851
其體	-10.3852
阿修羅	-10.3856
不分	-10.3858
虗空界	-10.3858
索	-10.3859
一切種	-10.386
應以	-10.3862
懼	-10.3862
奏	-10.3863
謂若	-10.3863
照明	-10.3868
摩耶夫人	-10.3873
左	-10.3874
他人	-10.3875
險	-10.3877
願共諸眾生往生華藏海	-10.3879
廣多	-10.3886
心淨	-10.3886
二頌	-10.389
眾妙	-10.3894
須臾	-10.3899
性自	-10.3903
法器	-10.3904
普觀一切	-10.391
佛告	-10.391
於一切世界	-10.3911
無有量	-10.3912
〕	-10.3913
不相知	-10.3914
錯	-10.3916
十心	-10.3917
異生	-10.3918
西域	-10.3919
之業	-10.3922
舍利	-10.3924
苦集	-10.3928
稟	-10.3929
淨眼	-10.3934
意也	-10.3939
中先	-10.3943
到彼岸	-10.3944
於無量劫	-10.3946
圓通	-10.3951
不貪	-10.3953
本智	-10.3954
乞	-10.3955
信受	-10.3962
令眾	-10.3963
願海	-10.3968
自見	-10.3968
逝多林	-10.3975
能為	-10.3979
但說	-10.3979
大威德	-10.3987
逈	-10.3997
但言	-10.4001
以義	-10.4001
有佛性	-10.4004
為物	-10.4005
一會	-10.4007
此通	-10.4008
入法	-10.4011
一念中	-10.4017
雲集	-10.402
逢	-10.4027
諸見	-10.4028
如諸菩薩摩訶薩	-10.403
量等	-10.4034
釋上	-10.4041
約理	-10.4042
▁初約	-10.4042
一眾生	-10.405
音樂	-10.4051
六處	-10.4053
清淨心	-10.4054
知根	-10.4057
三十二相	-10.406
窟	-10.406
一以	-10.4065
天上	-10.4067
半頌	-10.407
無功	-10.4073
略不	-10.4073
明以	-10.4074
菩薩眾	-10.408
収	-10.4081
文中二	-10.4087
普莊嚴	-10.4094
諸有情	-10.4096
無疑	-10.4096
中十句	-10.4097
但明	-10.4099
僧祇	-10.4101
盧	-10.4103
則以	-10.4104
化現	-10.4109
中具	-10.411
如大	-10.4111
廣大心	-10.4115
攝眾生	-10.4117
為正	-10.4119
盡未來劫	-10.4123
作如是言	-10.4129
自在神力	-10.4131
而為說法	-10.4131
遍周	-10.4133
地位	-10.4137
告言	-10.4137
前中三	-10.4142
爾所	-10.4142
難見	-10.4142
方廣	-10.4145
莖	-10.4149
行也	-10.4151
非我	-10.4151
途	-10.4158
非但	-10.4159
明達	-10.416
門也	-10.4166
故成	-10.4171
無學	-10.4171
初生	-10.4172
初一總	-10.4173
救護一切眾生	-10.4174
又問	-10.4176
堪受	-10.4178
以為眷屬	-10.418
汝當	-10.4181
種智	-10.4185
上云	-10.4191
生死涅槃	-10.4191
有言	-10.4192
雷	-10.4193
他心	-10.4194
諸善知識	-10.4195
修善	-10.4202
澄	-10.4203
為我	-10.4205
法行	-10.4205
親近供養	-10.4209
諸經	-10.4213
皆言	-10.4217
釋曰此	-10.4219
先釋	-10.422
出興	-10.4224
有四句	-10.4226
除滅一切	-10.4229
影略	-10.4232
契理	-10.4236
施與	-10.4239
婆沙	-10.4239
▁二別顯	-10.424
即能	-10.4242
念念中	-10.4245
譬如有人	-10.4245
延	-10.4246
此名	-10.4248
緊那羅	-10.4252
乃至云	-10.4253
觀者	-10.4259
自說	-10.4259
雙融	-10.4261
均	-10.4263
以大悲	-10.4269
勤求	-10.4272
恒河沙	-10.4273
為勝	-10.4277
通顯	-10.4278
孤	-10.4279
佛神力	-10.428
出現品	-10.4281
不復	-10.4284
也又	-10.4286
無與等	-10.4287
二別	-10.4289
末香	-10.4289
小異	-10.4289
不可說佛剎微塵數	-10.429
洲	-10.4294
海住	-10.4295
又初	-10.4295
按	-10.4298
二顯	-10.4299
當成	-10.4302
斷除	-10.4302
大方廣	-10.4308
香雲	-10.431
不共法	-10.4311
上品	-10.4317
專求	-10.4318
泥洹	-10.432
峯	-10.4323
。」「	-10.4324
或作	-10.4324
雖無	-10.4325
二十八	-10.4325
二偈	-10.4328
諸緣	-10.4328
般若波羅蜜門	-10.4331
告善財言	-10.4334
問此	-10.434
三禪	-10.4342
長時	-10.4347
箭	-10.4352
等事	-10.4352
俱是	-10.4354
普使	-10.4355
俱非	-10.4359
其地	-10.4361
修證	-10.4361
二千	-10.4364
殊特	-10.4365
即時	-10.4372
空義	-10.4375
映	-10.4376
言教	-10.4382
徧照	-10.4389
痛	-10.439
後之	-10.4394
深妙	-10.4396
增益	-10.4396
令人	-10.44
眾多	-10.4402
不立	-10.4405
皆無	-10.4405
乾闥婆王	-10.4407
塵中	-10.4408
能引	-10.4408
柱	-10.441
能隨	-10.441
時有	-10.441
護法	-10.4413
愚法	-10.4414
無量諸	-10.4423
於無量	-10.4426
於生死	-10.4427
善根故	-10.4434
有佛	-10.4435
聲聞乘	-10.4438
而常	-10.444
真智	-10.4442
可說	-10.4443
如水	-10.4445
厭離	-10.4448
狀	-10.4448
無言	-10.4449
敵	-10.4449
無休息	-10.4451
泉	-10.4451
分段	-10.4452
九者	-10.4453
於一切處	-10.4455
修因	-10.4456
為諸眾生	-10.4456
毗盧遮那如來	-10.4464
方便力	-10.4464
無緣	-10.4465
總為	-10.4465
相攝	-10.4472
為方便	-10.4474
重釋	-10.4474
水中	-10.448
摩尼寶王	-10.448
共相	-10.4482
二俱	-10.4482
施心	-10.4484
孔	-10.4484
得菩薩	-10.4486
不識	-10.4487
同別	-10.4488
之首	-10.4489
形相	-10.4489
彰其	-10.4491
別教一乘	-10.45
十方國土	-10.45
佛種	-10.4502
諸會	-10.4504
諸門	-10.4506
依果	-10.4507
巧方便	-10.4508
說名	-10.4517
方便故	-10.4517
悉了知	-10.4519
為此	-10.4525
一依	-10.4533
決擇	-10.4536
成就一切	-10.4537
自知	-10.4539
為實	-10.4544
正理	-10.4548
無礙故	-10.4551
曜	-10.4552
今依	-10.4557
眼等	-10.4565
百川	-10.4566
十段	-10.4568
夜叉王	-10.457
所斷	-10.4574
至一切處	-10.4574
悉現	-10.4575
或施	-10.4576
後義	-10.458
種善根	-10.458
請問	-10.4584
術	-10.459
蟲	-10.4591
已說	-10.4591
法界故	-10.4592
言語	-10.4593
赤	-10.4595
一切菩薩行	-10.4599
眾海	-10.4605
不壞相	-10.4606
定性	-10.4616
是彼	-10.4618
事中	-10.4625
法樂	-10.4626
相資	-10.4631
林中	-10.4633
隨類	-10.4634
降魔	-10.4634
七識	-10.4634
分為三	-10.4635
所執	-10.4638
等正覺	-10.4639
徧滿	-10.4645
其數	-10.4646
法華經	-10.4651
流出	-10.4652
攀緣	-10.4654
志樂	-10.4657
梵云	-10.4659
是心	-10.4659
契經	-10.4675
寶蓮華	-10.4678
與彼	-10.4678
龍樹	-10.4678
理事無礙	-10.4681
軍	-10.4682
實無	-10.4691
皆通	-10.4696
今取	-10.4697
——	-10.4701
尚不	-10.4701
釋前	-10.4703
十偈	-10.4703
無窮盡	-10.4705
理無	-10.4706
夢中	-10.4707
尺	-10.4709
非如	-10.4709
證法	-10.471
時善財童子	-10.4714
頂禮其足	-10.4715
齒	-10.4717
日輪	-10.472
樹下	-10.4721
都無	-10.4721
非謂	-10.4722
難說	-10.4724
伹	-10.4725
頌曰	-10.473
之與	-10.4734
能滅	-10.4738
入地	-10.4738
大莊嚴	-10.4739
四約	-10.474
過患	-10.4741
身土	-10.475
位故	-10.4754
光明雲	-10.4755
坐道場	-10.4757
初總標	-10.4758
由是	-10.4763
揀異	-10.4764
二品	-10.4765
讚佛	-10.477
不虛	-10.4777
以諸	-10.4781
娑	-10.4783
其有	-10.4783
具如	-10.4786
叉	-10.4786
出過	-10.4791
以自	-10.4794
兜率	-10.4795
十智	-10.4795
亦具	-10.4798
言無	-10.4799
難測	-10.4805
住此	-10.4807
二十二	-10.4809
超出	-10.4812
寂用	-10.4813
順理	-10.4815
無染著	-10.4817
看	-10.4818
造業	-10.4821
舉其	-10.4823
所願	-10.4825
釋義	-10.4827
後二句	-10.4833
知三世	-10.4833
法慧菩薩	-10.4834
第一義諦	-10.4843
則得如來無上	-10.4843
道場眾會	-10.4844
之益	-10.4848
智行	-10.4849
者表	-10.485
五法	-10.4852
無有窮盡	-10.4854
亦說	-10.4854
但隨	-10.4856
所住處	-10.4857
緊那羅王	-10.486
戲	-10.486
如前說	-10.4863
和尚	-10.4871
位果	-10.4878
若諸菩薩	-10.488
若諸菩薩安住此法	-10.4887
愛語	-10.4888
無增減	-10.4891
常以	-10.4892
▁三釋	-10.4895
一位	-10.4896
為彼	-10.4896
准之	-10.4899
一異	-10.4899
生大歡喜	-10.49
體也	-10.4905
後顯	-10.4905
▁初問	-10.4909
釋此	-10.491
依教	-10.4911
揔	-10.4915
此身	-10.4916
多身	-10.4918
共生	-10.4921
停	-10.4928
有無量	-10.4932
某	-10.4936
大品	-10.4937
各隨	-10.4937
經典	-10.4939
二法	-10.4939
夷	-10.494
下二句	-10.4942
想念	-10.4945
崇	-10.4946
為能	-10.4946
明此位菩薩	-10.4948
別名	-10.4949
睡	-10.4949
錄	-10.495
斷疑	-10.495
淨行	-10.4952
▁二顯	-10.4952
增減	-10.4957
善說	-10.4958
此天	-10.4959
▁二約	-10.4959
菩薩身	-10.4967
之初	-10.4967
恨	-10.497
了因	-10.4972
世諦	-10.4972
廓	-10.4986
怒	-10.4992
問言	-10.4995
作者	-10.5
巳得	-10.5007
榮	-10.5009
互為	-10.501
惡行	-10.5023
意在	-10.5023
上皆	-10.5023
不畏	-10.5023
有為無為	-10.5028
變異	-10.5028
法智	-10.5031
一切三世	-10.5032
示現種種	-10.5033
顏	-10.5035
無退轉	-10.5037
即上	-10.5038
於一念頃	-10.5046
同此	-10.5049
前際	-10.5049
自下	-10.505
蓮	-10.5056
佛道場一切海眾	-10.5056
喻喻	-10.5058
為名	-10.5058
前明	-10.5059
染污	-10.5061
朗	-10.5062
能發	-10.5063
夏	-10.5066
聞巳	-10.5067
蘇	-10.5069
嚴具	-10.5069
將欲	-10.5075
之眾	-10.5075
我以	-10.5076
如世	-10.5089
因陀羅網	-10.5089
淨故	-10.5089
何故不	-10.509
呵	-10.5095
百年	-10.5095
無行	-10.5097
天鼓	-10.5101
無得	-10.5106
而於	-10.5109
北方	-10.5109
令離	-10.5109
勇健	-10.511
鬼神	-10.5111
業惑	-10.5111
有相	-10.5114
安置	-10.5118
始成正覺	-10.5119
於諸眾生	-10.512
轉正法輪	-10.5122
所施	-10.5126
普賢行願	-10.5127
百千萬億	-10.5131
心中	-10.5132
名體	-10.5132
者此	-10.5133
過去世	-10.5137
大雲	-10.5138
汝應	-10.5138
嫉	-10.5139
遭	-10.5144
諸龍	-10.5152
九門	-10.5154
記云	-10.5155
次明	-10.5157
入正定	-10.516
此五	-10.5165
應現	-10.5167
江	-10.517
憂惱	-10.517
具一切	-10.517
隨一	-10.5173
海水	-10.5174
不足	-10.5177
寂照	-10.5182
出生死	-10.5187
成其	-10.5191
約事	-10.5199
大願力	-10.5203
攝故	-10.5204
訖	-10.5207
殊妙	-10.5207
是非	-10.5208
因圓	-10.5209
心城	-10.5213
勒	-10.5216
滿故	-10.5219
多門	-10.5221
就前	-10.5222
能照	-10.5223
▁二辨	-10.5227
希望	-10.5227
相中	-10.5229
真珠	-10.5231
有二意	-10.5235
於諸佛所	-10.5236
魔軍	-10.5237
勝智	-10.5238
方是	-10.5238
觀智	-10.5239
無盡藏	-10.5242
利物	-10.5242
三重	-10.5244
善解	-10.5244
結歸	-10.5251
准此	-10.5251
是有	-10.5252
正教	-10.5252
菩薩爾時	-10.5254
吼	-10.5256
驗	-10.5256
育	-10.5256
以此善根	-10.5257
大神通	-10.5259
者之所住處	-10.5261
當位	-10.5261
而為上首	-10.5262
乏	-10.5263
離染	-10.5264
一切智道	-10.527
七十	-10.5271
覺知	-10.5274
不可說劫	-10.5278
圓滿故	-10.5283
二十四	-10.5283
次釋	-10.5284
不同故	-10.5285
災	-10.5289
益生	-10.529
修諸	-10.5293
實德	-10.5294
不然	-10.5297
逮得	-10.5299
力持	-10.5303
五對	-10.5304
之外	-10.5311
聞說	-10.5312
琉璃	-10.5312
喻顯	-10.5314
色等	-10.5317
聽法	-10.5318
眾生世間	-10.5321
緣成	-10.5321
果中	-10.5322
宗趣	-10.533
不如	-10.533
是為菩薩摩訶薩十種	-10.5331
同也	-10.5334
殘	-10.5336
伊	-10.5336
初後	-10.534
鄣	-10.5343
來集	-10.5346
稱法界	-10.5347
於一一	-10.5354
椽	-10.5355
諸佛境界	-10.5364
對上	-10.5368
現一切	-10.5373
閻浮檀金	-10.5374
練	-10.5375
番	-10.5377
寶衣	-10.5379
果分	-10.5381
漂	-10.5382
香華	-10.5383
寶珠	-10.5385
緣故	-10.5389
世界海微塵數	-10.539
晉	-10.5391
欲得	-10.5394
所流	-10.5396
常隨	-10.5399
▁初示義	-10.5401
初住	-10.5404
若離	-10.5409
中現	-10.541
離惡	-10.541
悲心	-10.5413
閉	-10.5419
報恩	-10.542
怛	-10.5421
之異	-10.5424
諸菩薩行	-10.5431
消滅	-10.5434
巳來	-10.5437
下答	-10.5438
一切諸眾生	-10.5438
根欲	-10.5441
即如	-10.5442
體無	-10.5444
於諸法	-10.5445
其餘	-10.5446
得普	-10.5446
半月	-10.5449
在其中	-10.5451
理性	-10.5458
憐愍	-10.5462
與此	-10.5463
諂	-10.5464
斷煩惱	-10.5466
諸佛國土	-10.5469
多佛	-10.5471
荅	-10.5472
日夜	-10.5472
象王	-10.5473
以表	-10.5476
終頓	-10.5477
佛及	-10.5477
一字	-10.5478
現見	-10.5479
願我	-10.548
因也	-10.5481
賤	-10.5482
智明	-10.5482
化度	-10.5483
別者	-10.5491
電	-10.5497
許說	-10.5499
莫能	-10.5507
總舉	-10.5507
等為	-10.5507
猶如虛空	-10.5511
任持	-10.5512
起於	-10.5515
猶未	-10.552
於三世	-10.5521
疏中	-10.5522
出三界	-10.5527
即攝	-10.5528
磨	-10.5533
中論	-10.5533
文有	-10.5535
洗	-10.5536
滅定	-10.5537
是因	-10.5537
此一段	-10.5538
香水	-10.5543
此土	-10.5545
於上	-10.5545
利養	-10.5545
菩提分法	-10.5552
禮敬	-10.5553
為業	-10.5557
寒	-10.556
本行	-10.5561
清淨光明	-10.5562
又於	-10.5563
謂初	-10.5567
前九	-10.5578
集眾	-10.5579
信位	-10.5581
略明	-10.5586
妙用	-10.5587
曉了	-10.5589
諸魔	-10.5589
一切境界	-10.5589
意生身	-10.5589
為四	-10.559
受生藏	-10.5592
助成	-10.5596
夜天	-10.5598
▁初徵	-10.5603
普智	-10.5604
開演	-10.5609
或唯	-10.5609
不殊	-10.5611
筆	-10.5623
離分別	-10.5624
諸願	-10.563
一一各	-10.5633
一剎	-10.5635
者此云	-10.5636
善決定	-10.5636
如我	-10.5643
法界品	-10.5644
不可說不可說佛剎微塵數	-10.5646
六七	-10.5651
脩行	-10.5657
吉	-10.5659
論說	-10.566
若就	-10.5662
古人	-10.5662
結通	-10.5664
馳	-10.5667
正因	-10.567
以是義故	-10.5674
下約	-10.5678
廣博	-10.5683
男	-10.5685
不思	-10.5686
策	-10.5693
白毫	-10.5696
皆如	-10.5696
不生滅	-10.5699
從初發心	-10.5702
四天王	-10.5703
受者	-10.5707
無智	-10.5711
下正明	-10.5711
若取	-10.5712
前地	-10.5713
觀心	-10.5717
稱揚	-10.572
三乘中	-10.5724
果也	-10.5729
利他行	-10.5734
合中	-10.5736
證道	-10.5737
影現	-10.5737
血	-10.5738
見有	-10.5743
又見	-10.5743
淨修	-10.5744
若是	-10.5746
入位	-10.5746
混	-10.5746
得大	-10.5752
五明	-10.5755
對法	-10.5756
二段	-10.5756
起故	-10.5759
大臣	-10.576
城邑	-10.576
忽然	-10.5768
眾寶莊嚴	-10.5772
未盡	-10.5774
而實	-10.5778
一卷	-10.5779
無過	-10.5779
牒經	-10.5785
且約	-10.5793
所照	-10.5793
心王	-10.5798
分五	-10.5801
若見眾生	-10.5802
善分別	-10.5811
悲願	-10.5818
一緣	-10.582
所覆	-10.5824
兒	-10.5825
半偈	-10.5825
頻	-10.5825
牽	-10.5826
增廣	-10.5827
穀	-10.5827
禪波羅蜜	-10.5829
智德	-10.5831
迎	-10.5832
求菩提	-10.5835
以一切	-10.5839
執持	-10.5847
淨名云	-10.5848
化佛	-10.5851
令成	-10.5851
定有	-10.5859
盈	-10.5863
罵	-10.5865
侵	-10.5866
愛欲	-10.5867
其名	-10.587
一剎那	-10.5876
即非	-10.5877
中初句	-10.5878
觀一切法	-10.5884
十一句	-10.5884
正證	-10.5887
上四	-10.5887
諦聽	-10.5892
望於	-10.5893
能了	-10.5895
多同	-10.5896
樂說	-10.5897
了法	-10.5902
百萬阿僧祇	-10.5909
游	-10.5911
剎中	-10.5916
遵	-10.5916
以理	-10.5916
盧舍那	-10.5917
頗	-10.5918
具足一切	-10.5918
知諸	-10.5924
佛出興	-10.5926
去來	-10.5926
即知	-10.5928
何別	-10.5939
千佛	-10.5942
其事	-10.5944
威神	-10.5945
於中有二	-10.5949
無定	-10.5954
一世界	-10.5954
蜜	-10.5955
超勝	-10.596
中分二	-10.5966
偈半	-10.5969
蛇	-10.597
令物	-10.5974
六波羅蜜	-10.5978
者即是	-10.5978
無憂	-10.5979
其文	-10.5983
迦樓羅王	-10.5985
一切悉	-10.5986
即成	-10.5987
身口	-10.5988
之藏	-10.5989
永不	-10.5991
第三時	-10.5993
閣	-10.5995
殺生	-10.5995
相顯	-10.5995
枯	-10.5995
四相	-10.5995
煩	-10.5999
碎	-10.5999
品類	-10.6006
大菩薩	-10.6008
名相	-10.6009
宿命	-10.6013
千億	-10.6014
寄位	-10.6018
果位	-10.6018
遍一切	-10.602
以無著無縛解脫心	-10.6022
而知	-10.6026
瞿波	-10.6026
約人	-10.6031
彌勒菩薩	-10.6034
能信	-10.6035
世間法	-10.6036
分位	-10.6038
形色	-10.6039
求佛	-10.6042
耀	-10.6044
說言	-10.6047
寤	-10.6048
臂	-10.6048
繒	-10.6051
方名	-10.6052
族	-10.6052
生佛	-10.6053
正位	-10.6055
𥁞	-10.6059
通局	-10.606
授法	-10.6066
不動地	-10.6067
不可思	-10.6068
瑜伽云	-10.6073
又上	-10.6076
曠	-10.6079
務	-10.608
事法	-10.6087
初中二	-10.6088
於諸佛	-10.6089
解妨	-10.6091
中所有	-10.6092
星宿	-10.6093
業力	-10.6093
相盡	-10.6095
有云	-10.61
漏盡	-10.61
問中	-10.6106
此意	-10.611
仁王	-10.611
才	-10.6112
說十	-10.6114
來者	-10.6115
讀	-10.6119
圖	-10.6119
大方廣佛華嚴經疏卷第	-10.6122
菩提分	-10.6123
豐	-10.6131
此有	-10.6131
胡	-10.6133
各不同	-10.614
緣生故	-10.6141
無動	-10.6148
以上	-10.6151
化儀	-10.6153
所在	-10.6155
婬	-10.6157
為諸	-10.6163
詐	-10.6163
六通	-10.6169
顯實	-10.6172
既言	-10.6172
義當	-10.6172
貪等	-10.6181
不可窮盡	-10.6186
右旋	-10.6187
敬禮	-10.619
用之	-10.6193
眾善	-10.6195
地智	-10.6202
第八地	-10.6202
教門	-10.6204
諸惑	-10.621
洞	-10.6212
四重	-10.6213
餘經	-10.6218
大功德	-10.6219
三十六	-10.6219
無壞	-10.622
惱害	-10.6223
能令眾生	-10.6231
凡小	-10.6235
所用	-10.6238
四方	-10.6241
有四義	-10.6246
□	-10.6249
例然	-10.6257
瑩	-10.6257
酪	-10.6259
同教一乘	-10.6262
難云	-10.6265
為眾生說	-10.6265
八部	-10.6267
慕	-10.6268
他受用	-10.6271
無諍	-10.6271
果滿	-10.6272
二分	-10.6273
五頌	-10.6273
所行處	-10.6275
揚	-10.6276
阿脩羅王	-10.6276
生天	-10.6278
是實	-10.6281
第二明	-10.6281
菩薩名	-10.6282
摩睺羅伽王	-10.6285
初辨	-10.6287
賴耶	-10.6289
正等覺	-10.629
八種	-10.6291
所熏	-10.6294
此智	-10.6294
危	-10.63
方便門	-10.6303
反顯	-10.6306
三昧者	-10.6308
似有	-10.6308
中亦	-10.631
。】△	-10.6314
取相	-10.6314
是無常	-10.6317
依處	-10.632
一切眾生界	-10.6321
下第三	-10.6323
真實義	-10.6325
不可得故	-10.6326
二人	-10.6326
智自在	-10.6327
分為四	-10.6332
愧	-10.6334
出入	-10.6336
亦無所	-10.6339
說經	-10.634
智門	-10.6341
鹿	-10.6342
雖知	-10.6343
性離	-10.6348
經曰	-10.6349
既有	-10.635
正宗	-10.635
分為	-10.6356
六識	-10.6357
餘四	-10.636
總有	-10.6372
常勤	-10.6372
現其前	-10.6375
三乘教	-10.6375
蔭	-10.6378
現在前	-10.6379
令心	-10.6379
易了	-10.638
有九	-10.638
異者	-10.6391
無來去	-10.6396
佛眼	-10.6396
謂如	-10.6399
摩睺羅伽	-10.64
初釋	-10.6402
釋論	-10.6402
此偈	-10.6403
實法	-10.6403
等經	-10.6405
去來今	-10.6405
轉輪聖王	-10.6407
夜摩	-10.6409
徵意云	-10.6414
住菩薩	-10.6414
令諸菩薩	-10.6421
得一切智	-10.6422
頓現	-10.6424
苦果	-10.6425
有五種	-10.6426
此諸	-10.6427
並如	-10.6428
叵	-10.6432
不動智佛	-10.6432
忿	-10.6432
答此	-10.6433
三十三天	-10.6434
以喻	-10.6435
今更	-10.6436
迦樓羅	-10.6436
是別	-10.6438
十地中	-10.6439
巳下明	-10.644
貌	-10.6441
法界無量	-10.6446
眼見	-10.6447
普雨	-10.6449
復有無量	-10.645
之始	-10.6455
所有眾生	-10.6457
天耳	-10.6458
身語意業	-10.6458
初約	-10.6459
謂之	-10.646
大般若	-10.6464
性即	-10.6465
即佛	-10.6467
尊者	-10.6469
淨法	-10.647
頂上	-10.6471
巳去	-10.6472
謂依	-10.6473
非一非異	-10.6477
中出	-10.6486
牟尼	-10.6488
析	-10.6488
一毛孔	-10.6488
退失	-10.649
大行	-10.649
之數	-10.6493
義如前	-10.6495
因成	-10.6498
行業	-10.6499
總中	-10.65
以法界	-10.65
十二緣	-10.6501
惠施	-10.6507
外無	-10.6507
聞慧	-10.6507
青蓮華	-10.6508
餘文	-10.6511
偈文	-10.6512
憎	-10.6513
舉體	-10.6517
處故	-10.6517
更不	-10.6518
道場神	-10.6519
無量世界	-10.652
後別	-10.6521
明智	-10.6521
競	-10.6524
羣生	-10.6525
其音	-10.6529
所變	-10.6531
知佛	-10.6532
電光	-10.6537
摩頂	-10.654
大會	-10.654
空無	-10.6542
妙音聲	-10.6544
既不	-10.6545
一切法門	-10.6545
海雲	-10.6546
何名	-10.6547
言不	-10.6549
未生	-10.6551
解說	-10.6555
能行	-10.6557
自在神通	-10.6559
心起	-10.6562
如法	-10.6562
分布	-10.6568
四偈	-10.6575
鮮	-10.6576
世親	-10.6576
如法界	-10.658
賢首品	-10.6583
阿僧祇世界	-10.6584
寶王	-10.6586
略顯	-10.6586
攝法	-10.6588
令修	-10.6591
次偈	-10.6594
為依	-10.6601
一方	-10.6602
之境界	-10.6603
何須	-10.6613
問也	-10.6614
潛	-10.6615
▁二引證	-10.6618
以種種	-10.6619
於空	-10.6621
下舉	-10.6624
那羅延	-10.6627
若聞	-10.6629
佛乘	-10.663
七句	-10.6633
敗	-10.6634
善逝	-10.6635
隨業	-10.6642
自業	-10.6642
十玄	-10.6642
自覺	-10.6646
一百一十	-10.6648
百劫	-10.6649
之地	-10.6652
召	-10.6655
幡	-10.6656
聰	-10.6656
神通變化	-10.6657
滅盡	-10.6659
悉入	-10.666
成果	-10.6662
奇	-10.6663
優婆塞	-10.6665
正知	-10.6666
所不能	-10.6667
普現一切	-10.6669
清淨莊嚴	-10.6669
麻	-10.667
唯識云	-10.6674
性無	-10.6679
相應故	-10.6679
二事	-10.6683
為伴	-10.6685
鈍	-10.6686
受樂	-10.6687
四十二	-10.6688
何謂為十	-10.6688
下劣	-10.6689
標名	-10.6692
生疑	-10.6694
莊嚴藏	-10.6698
應供	-10.6699
諦觀	-10.6705
同住	-10.6706
慈愍	-10.6706
又由	-10.6707
滋	-10.6708
勤精進	-10.6714
九世	-10.6714
或於	-10.6716
不攝	-10.6717
色心	-10.6721
二十句	-10.6721
豈得	-10.6723
空觀	-10.6725
久遠	-10.6726
彌覆	-10.6728
世出世	-10.6729
十方所有	-10.6737
月光	-10.6738
如是觀	-10.6738
十方各	-10.6741
具足成就	-10.6744
後有	-10.6746
附	-10.6747
官	-10.6748
獸	-10.6749
一理	-10.6752
龍女	-10.6753
純淨	-10.6753
戀	-10.6755
形奪	-10.6756
摩訶	-10.6763
險道	-10.6768
順行	-10.677
二邊	-10.6772
佛子菩薩	-10.6779
世界微塵數	-10.678
迴轉	-10.678
成熟眾生	-10.6784
如是知	-10.6789
白淨法	-10.6791
教化調伏	-10.6795
有邊	-10.6797
素	-10.6798
一地	-10.6798
若云	-10.68
引例	-10.6803
無有是處	-10.6807
不念	-10.6811
何用	-10.6811
亦知	-10.6813
佛名號	-10.6813
多一	-10.6814
聞已	-10.6815
▁二科經	-10.6819
無表	-10.682
下別釋	-10.682
勇猛精進	-10.6822
肉眼	-10.6826
攝善	-10.6827
成於	-10.6828
順忍	-10.6828
平等心	-10.683
無量諸佛	-10.6831
七八	-10.6832
淨妙	-10.6834
五性	-10.6835
以辨	-10.6836
裏	-10.684
四法	-10.6842
一切有情	-10.6843
二會	-10.6848
二宗	-10.6848
經於	-10.6853
差別者	-10.6853
菩薩得	-10.6857
猒	-10.6858
功德藏	-10.6859
有三一	-10.6861
鍊	-10.6862
不遷	-10.6865
含容	-10.6867
城中	-10.6867
從彼	-10.6872
所取	-10.6875
內證	-10.6875
智入	-10.6875
䟽釋	-10.6876
令無量眾生	-10.6881
此心	-10.6888
善來	-10.6889
柔	-10.6891
中有四	-10.6894
次一頌	-10.6898
上中下	-10.6904
▁初總標	-10.6908
心識	-10.691
所出	-10.6914
儒	-10.6915
幻化	-10.692
彌覆其上	-10.6924
其光	-10.6924
如斯	-10.6925
或見佛身	-10.6926
取捨	-10.6929
第一義空	-10.6929
一總	-10.6933
回	-10.6934
光明照	-10.6934
由上	-10.6934
本故	-10.6936
地地	-10.6937
用也	-10.6943
勝用	-10.6947
疑云	-10.6949
黑闇	-10.6949
炬	-10.695
義同	-10.6953
有十句	-10.6956
本自	-10.696
大慈大悲	-10.6965
現佛	-10.6966
是能	-10.6966
初義	-10.6967
法相宗	-10.6969
財物	-10.697
若菩薩	-10.6971
決定解	-10.6972
窮盡	-10.6974
谷	-10.6976
稱理	-10.6977
溺	-10.6978
初總明	-10.698
其猶	-10.6981
請說	-10.6981
蓮花	-10.6981
陵	-10.6982
心意	-10.6983
下四	-10.6986
全體	-10.6986
同彼	-10.699
忉利天	-10.6991
十海	-10.6992
別也	-10.6993
樂著	-10.6993
不解	-10.6994
二位	-10.6994
依持	-10.6994
葢	-10.6994
非常	-10.6995
相待	-10.6998
極微	-10.7001
教說	-10.7005
幻有	-10.7008
惑業	-10.701
最為	-10.701
客	-10.702
過前	-10.7021
幸	-10.7025
無人	-10.7027
和會	-10.7029
諂曲	-10.7032
▁初舉	-10.7033
國王	-10.7034
羣	-10.7034
斷常	-10.7037
無前後	-10.7041
躡	-10.7042
得一切	-10.7042
實報	-10.7045
香海	-10.7045
𣗳	-10.7045
佛地論	-10.7046
問何故	-10.7048
入理	-10.705
我執	-10.7056
以佛神力	-10.7056
一毛端	-10.7057
善修	-10.7058
於中有三	-10.706
為證	-10.706
是真	-10.7063
尋伺	-10.7067
若於	-10.7068
剋	-10.7073
常得	-10.7078
油	-10.7079
佛所說	-10.708
否	-10.708
希求	-10.7081
烏	-10.7083
所欲	-10.7083
覺分	-10.7084
佛出世	-10.7085
四明	-10.7086
已去	-10.7087
梵本云	-10.7089
菩薩所	-10.709
序分	-10.709
了知一切	-10.7094
一切諸如來	-10.7094
兩亡	-10.7095
宿住	-10.7096
本業	-10.7099
諸世界中	-10.7103
二正	-10.7107
體空	-10.7109
下結成	-10.711
論經云	-10.7111
佛海	-10.7111
此三昧	-10.7115
預	-10.7116
隨煩惱	-10.7119
蕩	-10.7121
騰	-10.7123
天竺	-10.7127
定體	-10.7128
億那由他	-10.7131
入此三昧	-10.7133
此解脫	-10.7136
三十四	-10.7137
亦見	-10.7137
得如是	-10.7139
說之	-10.7142
不可言說	-10.7145
算數	-10.7145
淨業	-10.7147
法則	-10.715
文有十句	-10.7152
各差別	-10.7152
聖諦	-10.7161
五義	-10.7162
軟	-10.7162
凡所	-10.7163
迷悟	-10.7163
或住	-10.7165
善知識教	-10.7166
人民	-10.7167
相融	-10.717
入菩薩	-10.7171
皆如實知	-10.7172
力用	-10.7172
之間	-10.7174
善財見	-10.7175
意趣	-10.7176
即顯	-10.7178
彼人	-10.718
法華云	-10.7181
功德莊嚴	-10.7187
種姓	-10.719
寶幢	-10.7193
天眾	-10.7196
善慧	-10.72
為十	-10.72
下云	-10.7202
即是佛	-10.7203
默然	-10.7203
住地	-10.7206
不轉	-10.7207
十定品	-10.7207
百萬億菩薩	-10.7208
下方	-10.7208
約行	-10.7211
通別	-10.7217
逼	-10.722
所歸	-10.7221
而巳	-10.7221
眾會道場	-10.7222
純熟	-10.7222
無縛	-10.7223
其形	-10.7225
身眾神	-10.7227
數量	-10.7228
空空	-10.7228
解脫者	-10.7229
奮迅	-10.7234
得十種	-10.7236
秦	-10.7236
大蓮華	-10.7241
以有	-10.7242
光影	-10.7243
離苦	-10.7243
恒以	-10.7244
一名	-10.7244
左右	-10.7246
智障	-10.7247
滅惑	-10.7248
正解	-10.726
優	-10.7262
己身	-10.7265
結勸	-10.7266
域	-10.7267
無量阿僧祇	-10.7271
生因	-10.7271
睡眠	-10.7272
逼迫	-10.7274
佛出現	-10.7276
數數	-10.7276
延促	-10.7276
四教	-10.7277
彌伽	-10.7277
菩提之心	-10.7278
此菩薩摩訶薩	-10.728
定意	-10.728
驚	-10.7282
望前	-10.7287
中二先	-10.7287
母胎	-10.7288
中亦二	-10.7289
上方	-10.7292
之說	-10.7293
隨義	-10.7294
云何得	-10.7297
遙	-10.7298
諸羣生	-10.7302
後七	-10.7303
說十地	-10.7303
羊	-10.7307
二云	-10.7308
若具	-10.7309
標舉	-10.731
渴	-10.7312
斥	-10.7314
法界等	-10.7315
先問	-10.7316
奧	-10.7319
諸如來所	-10.7319
戰	-10.7319
合上	-10.7322
三空	-10.7324
增上緣	-10.7327
潤澤	-10.7327
聖智	-10.7328
妄念	-10.7329
行海	-10.7334
次有佛興	-10.7336
有二門	-10.7336
為求	-10.7337
唐清涼山大華嚴寺沙門澄觀撰述	-10.734
以如是等	-10.734
世人	-10.7346
雙照	-10.7348
難勝地	-10.7348
積聚	-10.7349
出興於世	-10.7349
自在天	-10.7353
妄計	-10.736
初一頌	-10.7361
算	-10.7363
說頌	-10.7363
卦	-10.7364
議	-10.7364
菩薩於	-10.7369
中之	-10.737
度無極	-10.7371
慚	-10.7371
迴向行	-10.7373
六塵	-10.7376
次十	-10.7379
所作業	-10.7381
形狀	-10.7383
險難	-10.7385
菩提心者猶如	-10.739
訓	-10.7393
▁南無此上過佛剎微塵數世界	-10.7396
德本	-10.7397
能熏	-10.7398
我我所	-10.7401
二十三	-10.7402
離垢地	-10.7404
亦當	-10.7407
佛菩薩	-10.7408
受報	-10.7408
若據	-10.7411
與一切眾生	-10.7413
一實	-10.7414
十問	-10.7414
是苦	-10.7415
心清淨	-10.7416
隨位	-10.7418
而不捨	-10.7421
不妨	-10.7421
舉一	-10.7421
善見	-10.7422
邪定	-10.7426
世界名	-10.7427
應言	-10.7433
餘句	-10.7437
文並可知	-10.7438
資具	-10.7438
況於	-10.7438
救護眾生	-10.7439
便成	-10.7441
卒	-10.7442
作大	-10.7447
】【	-10.7448
常能	-10.7449
言我	-10.7453
生後	-10.7454
滅者	-10.7457
可解	-10.7458
過未	-10.7459
探玄	-10.7462
前八	-10.7463
種族	-10.7463
永滅	-10.7469
誹謗	-10.7471
得定	-10.7472
初發心住	-10.7478
大段	-10.7486
緫	-10.7487
相見	-10.7488
何法	-10.749
利行	-10.749
一切佛所	-10.7492
通妨	-10.7492
智照	-10.7494
豈有	-10.7496
變現	-10.75
今且	-10.7501
顯德	-10.7503
大城	-10.7504
五識	-10.7505
善慧地	-10.7508
隣	-10.7508
微細智	-10.751
境界故	-10.7511
令見	-10.7513
善巧智	-10.7515
下合	-10.7517
證真	-10.7519
摩訶衍	-10.7519
略示	-10.752
當體	-10.7522
伸	-10.7524
五道	-10.7524
二徵	-10.7525
座上	-10.7527
行列	-10.7532
寶瓔珞	-10.7535
無量百千	-10.7536
盡法界	-10.7536
我法	-10.7538
如是法	-10.7538
萬德	-10.754
雖是	-10.7541
成阿耨多羅三藐三菩提	-10.7546
必當	-10.7546
自在天王	-10.7547
教也	-10.7558
請分	-10.7559
一切時	-10.756
踊躍	-10.7561
文意	-10.7562
愛著	-10.7566
本分	-10.7567
寶蓋	-10.7568
究竟清淨	-10.7569
寶髻	-10.7572
是故此	-10.7573
淨智	-10.7574
佛心	-10.7575
發趣	-10.7578
即明	-10.7584
聽者	-10.7588
平等清淨	-10.7589
聲聞辟支佛	-10.7591
離生	-10.7592
事相	-10.7593
明利	-10.7599
因緣生	-10.7601
折	-10.7602
善哉善哉	-10.7604
浪	-10.7605
非空	-10.7613
弱	-10.7613
不滯	-10.7618
全收	-10.7621
曠野	-10.7622
無貪	-10.7623
慧光	-10.7626
十住中	-10.7632
分量	-10.7636
於彼一一	-10.7636
難行	-10.7637
出生無量	-10.7641
梁	-10.7642
大精進	-10.7645
名同	-10.7646
正答	-10.7648
不別	-10.7648
舉數	-10.7651
塞	-10.7657
甘	-10.766
相容	-10.7662
香氣	-10.7663
繩	-10.7663
普法	-10.7665
經言	-10.7665
合為	-10.7669
立教	-10.7669
之前	-10.7676
愛取	-10.7681
為先	-10.7681
遠行地	-10.7682
滅道	-10.7683
又知	-10.7683
分之	-10.7684
受職	-10.7684
皆空	-10.7684
及其	-10.7685
彼菩薩	-10.7686
共成	-10.7689
俱存	-10.769
無有邊際	-10.7691
不自在	-10.7694
二喻	-10.7706
皆成	-10.7709
其人	-10.7715
無所礙	-10.7716
下出	-10.7717
是我	-10.7717
甲	-10.7719
二見	-10.7724
自力	-10.7728
入出	-10.7732
所宜	-10.7734
受諸	-10.7735
通相	-10.7736
No	-10.7737
眾生煩惱	-10.7738
之妙	-10.7738
止息	-10.7739
五戒	-10.774
所感	-10.7741
觀門	-10.7746
大方廣佛新華嚴經合論卷第	-10.7749
彼諸菩薩	-10.7749
無上法	-10.7752
多羅	-10.7755
如是思惟	-10.7757
梵語	-10.7757
第二十	-10.7761
佛子此菩薩	-10.7761
稍	-10.7767
刺	-10.7768
無量剎	-10.7771
成一	-10.7774
佛剎極微塵數	-10.7779
處生死	-10.7779
依主	-10.7783
無時	-10.7783
二因	-10.7789
凖	-10.779
雖在	-10.779
婆羅	-10.7791
普光明智	-10.7792
是智	-10.7792
一一世界	-10.7793
生死苦	-10.7793
餘處	-10.7797
聲聞獨覺	-10.7798
疾得	-10.7799
成前	-10.78
無思	-10.78
此說	-10.7801
如來力	-10.7803
乃至不可說不可說	-10.7813
餘可	-10.7815
斷故	-10.7819
棄捨	-10.7822
中文	-10.7824
並皆	-10.7825
法無我	-10.7827
現前地	-10.7829
同生	-10.7829
利益一切眾生	-10.783
須菩提	-10.7833
隨文釋義者	-10.7835
中陰	-10.7835
充滿一切	-10.7835
時善根迴向	-10.7836
誡	-10.7841
後位	-10.7849
依本	-10.7851
苦諦	-10.7851
一箇	-10.7852
而自	-10.7852
無不盡	-10.7853
▁二引	-10.7854
大文第	-10.7855
方便行	-10.7856
恃	-10.786
鎔融	-10.786
諸外道	-10.786
生解	-10.7861
如來十力	-10.7862
可思	-10.7864
四結	-10.7868
內心	-10.7868
因分	-10.7869
此地菩薩	-10.7878
非餘	-10.7878
彼諸如來	-10.788
依法	-10.7881
能緣	-10.7885
身者	-10.7885
百千劫	-10.7885
見我	-10.7887
上約	-10.7889
本不	-10.7894
此界	-10.7895
俱泯	-10.7896
有德	-10.79
生老病死	-10.79
五六	-10.7903
次下	-10.7905
約教	-10.7906
喻合	-10.7909
然彼	-10.7911
亦不見	-10.7913
大道	-10.7916
本處	-10.7916
穿	-10.7916
歡	-10.7917
倫	-10.7917
具四	-10.7919
歌	-10.792
飯	-10.792
十對	-10.7928
二就	-10.7928
結前生後	-10.7929
內有	-10.7929
禮拜	-10.7932
於境	-10.7936
義門	-10.7937
十世	-10.7937
及彼	-10.7939
此頌	-10.7942
不厭	-10.7946
▁四結	-10.7948
普皆	-10.7948
其行	-10.7955
五偈	-10.7955
空者	-10.7957
今䟽	-10.7957
則非	-10.7958
緣集	-10.796
出現品云	-10.7962
光明普照	-10.7965
順違	-10.7965
吐	-10.7968
開化	-10.7968
野	-10.7969
方便善巧	-10.7972
六入	-10.7973
注云	-10.7973
財寶	-10.7975
抑	-10.7977
十方無量	-10.7978
堪能	-10.7983
壽量	-10.7985
隨念	-10.7986
勝法	-10.7986
之際	-10.7992
所有善根	-10.7994
王都	-10.7995
稱揚讚歎	-10.7995
現量	-10.7996
又曰	-10.7998
即便	-10.8005
三會	-10.8006
幢幡	-10.8007
本空	-10.8008
身語	-10.801
一切莊嚴	-10.8011
白淨	-10.8013
觀佛	-10.8015
處說	-10.8015
華雲	-10.8017
相海	-10.8018
擬	-10.8019
指示後友	-10.8026
麗	-10.8026
忻	-10.8027
勝鬘	-10.8029
能變	-10.8035
主城神	-10.8035
妄心	-10.8037
下引證	-10.8038
妄取	-10.8041
心意識	-10.8041
嚴身	-10.8046
心地	-10.8046
之曰	-10.8051
相作	-10.8052
一舉	-10.8057
多作	-10.8058
第六地	-10.8058
三學	-10.8059
思慧	-10.8061
八門	-10.8063
施戒	-10.8064
十眼	-10.8065
處世	-10.8069
觀諸法	-10.8069
孝	-10.807
文中三	-10.8072
點	-10.8073
率	-10.8074
諸莊嚴具	-10.8074
脚	-10.8074
名普	-10.8074
隨事	-10.8076
甚難	-10.8077
闡	-10.8077
因者	-10.8079
罪人	-10.808
作此	-10.8082
十方界	-10.8085
外有	-10.8089
起滅	-10.8095
為眾	-10.8095
字即	-10.8102
之極	-10.8102
不絕	-10.8103
遍一切處	-10.8103
隨樂	-10.8104
雷音	-10.8106
普為	-10.8108
資生	-10.8115
不許	-10.8116
聞此法	-10.8117
光明網	-10.8118
過於	-10.8121
初十句	-10.8124
皆明	-10.8126
身等	-10.8126
暴	-10.8127
趣求	-10.8128
喪	-10.8129
大劫	-10.8129
諸力	-10.8129
就此	-10.813
分身	-10.8134
眾會中	-10.8134
現相品	-10.8136
始從	-10.8138
菩薩無量	-10.8138
渴仰	-10.814
性海	-10.8141
可樂	-10.8144
▁初長行	-10.8148
得阿耨多羅三藐三菩提	-10.8151
有一偈	-10.8153
悅意	-10.8156
等覺位	-10.816
二對	-10.8165
入深	-10.8169
中生	-10.8171
平等故	-10.8172
植	-10.8174
心無所著	-10.8175
多分	-10.8176
無量種	-10.8177
淪	-10.8179
雄	-10.8184
救度	-10.8185
住中	-10.8185
應時	-10.8185
過此	-10.8186
淵	-10.8186
中初二句	-10.819
隨文	-10.8197
華鬘	-10.8197
麤細	-10.8208
次有	-10.8208
為別	-10.8209
䟽文	-10.8211
契合	-10.8214
智知	-10.822
覩見	-10.8222
各一	-10.8227
往生	-10.823
匝	-10.823
佛子此菩薩摩訶薩	-10.8234
藏識	-10.8237
後半	-10.8238
六義	-10.824
合成	-10.8242
多約	-10.8243
書寫	-10.8247
百門	-10.8253
莊	-10.8256
昭	-10.8261
有法	-10.8264
修集	-10.8267
方便波羅蜜	-10.8274
婦	-10.8281
為作	-10.8282
清淨行	-10.8286
王宮	-10.8293
即離	-10.8295
但名	-10.8301
過惡	-10.8303
善觀察	-10.8306
小相	-10.8308
皆爾	-10.8311
未至	-10.8311
誨	-10.8314
第十一	-10.8315
無量法	-10.8315
二十七	-10.8316
諸善	-10.8317
金光明	-10.8317
此顯	-10.8318
六趣	-10.8323
眾魔	-10.8326
總云	-10.8331
魔業	-10.8335
以是因緣	-10.8335
活	-10.8337
之類	-10.8338
依真	-10.8339
勵	-10.834
▁二結	-10.8341
即具	-10.8341
唯識論	-10.8344
三偈	-10.8346
結集	-10.8346
式	-10.8347
眾相	-10.835
中論云	-10.8351
句義	-10.8354
義兼	-10.8362
觀法	-10.8363
通釋	-10.8364
無佛	-10.8367
誕生	-10.837
僧寶	-10.8371
引發	-10.8371
無體性	-10.8374
不斷絕	-10.8375
起信論	-10.8377
直至	-10.8378
等者即	-10.8382
漸頓	-10.8383
湛	-10.8385
悉使	-10.8386
無量身	-10.8388
光中	-10.8389
而修	-10.8391
瓶	-10.8392
海藏	-10.8392
故次來也	-10.8394
名等	-10.8396
紹	-10.8399
修行者	-10.8401
果用	-10.8401
百萬億天	-10.8403
金剛幢	-10.8404
七字	-10.8405
豈可	-10.8411
身命	-10.8413
攝前	-10.8415
使令	-10.8415
雙結	-10.8418
弘誓	-10.842
七覺	-10.8426
十惡	-10.8426
▁二正	-10.8429
明鏡	-10.8429
後六	-10.8435
現前故	-10.8436
有十事	-10.8437
我為說法	-10.8437
狂	-10.8438
十向	-10.8438
是果	-10.8439
三法	-10.8439
與我	-10.8439
三教	-10.8442
隨物	-10.8443
膝	-10.8443
自作	-10.8448
教道	-10.845
常念	-10.8456
各以	-10.8465
報生	-10.8467
前前	-10.847
其量	-10.8471
成就眾生	-10.8472
具說	-10.8472
眾色	-10.8475
而復	-10.8478
佛興	-10.8478
准知	-10.848
令其得	-10.8482
觀察一切	-10.8484
所發	-10.8488
出於	-10.8491
有十一	-10.8491
賢劫	-10.8492
先後	-10.8492
疎	-10.8493
評曰	-10.8493
環	-10.8495
樂故	-10.8495
五乘	-10.8496
化用	-10.8497
中初一	-10.8497
營	-10.8498
真應	-10.8499
法本	-10.8501
急	-10.8503
義利	-10.8506
著我	-10.851
解脫故	-10.851
無能勝	-10.8511
難量	-10.8512
說一切法	-10.8514
道諦	-10.8516
業者	-10.8516
如是下	-10.8519
惑障	-10.8519
采女	-10.8522
其本	-10.8522
文殊普賢	-10.8523
此事	-10.8525
果者	-10.8526
師子之座	-10.8528
如是迴向	-10.8531
遍行	-10.8535
所集	-10.8536
玄妙	-10.8537
諸法性	-10.8538
休息	-10.854
已來	-10.8543
三諦	-10.8544
四段	-10.8544
一切智心	-10.8544
▁二偈頌	-10.8544
自利利他	-10.8546
波羅	-10.8546
自具	-10.855
灰	-10.855
觀空	-10.855
有性	-10.8552
無情	-10.8553
歷然	-10.8553
為現	-10.8554
京	-10.8557
如是種種	-10.8558
造修	-10.8558
為得	-10.8559
妙好	-10.856
金剛幢菩薩	-10.856
業行	-10.8565
二偈頌	-10.857
不修	-10.8575
依論	-10.8575
怨敵	-10.8576
正思惟	-10.8576
毛端	-10.8583
既是	-10.8584
觀察十方	-10.8585
定心	-10.8588
三十句	-10.8592
有一百	-10.8597
清淨身	-10.8597
決了	-10.8598
深玄	-10.8599
大方廣佛華嚴經隨疏演義鈔卷第	-10.8601
從佛	-10.8601
楞伽云	-10.8606
尸	-10.8608
衛	-10.8609
應有	-10.8609
隨彼	-10.8612
久住	-10.8613
德中	-10.8614
歸命	-10.8615
取其	-10.8615
兜率天宮	-10.8616
須陀洹	-10.8618
金銀	-10.862
力士	-10.8621
一標	-10.8621
悋	-10.8622
喻況	-10.8623
引文	-10.8625
唯是一	-10.8626
自證	-10.8629
能轉	-10.8633
心體	-10.8636
自性清淨	-10.8637
不欲	-10.8638
無礙解	-10.8648
於自身	-10.8652
由於	-10.8653
就法	-10.8655
仰推	-10.8656
所不能及	-10.8659
是行	-10.866
祕	-10.8661
及佛	-10.8663
皆具足	-10.8666
性也	-10.867
性本	-10.867
十定	-10.8673
焚	-10.8674
生佛家	-10.8674
方便慧	-10.8674
地者	-10.8675
無為法	-10.868
入海	-10.8682
得生	-10.8684
不休息	-10.8685
毛孔中	-10.8686
以偈頌曰	-10.8688
此段	-10.8688
令捨	-10.8689
作禮	-10.8689
眾緣	-10.8694
知是	-10.8695
妓樂	-10.8697
入般若波羅蜜門	-10.8697
假立	-10.8697
智境界	-10.8698
救眾生	-10.8698
諸論	-10.8699
奉行	-10.8703
幻智	-10.8705
是常	-10.8707
幢佛	-10.8708
二處	-10.8711
法力	-10.8713
負	-10.8719
諸法門	-10.872
趣寂	-10.8722
一切諸佛國土	-10.8724
覺者	-10.8724
理趣	-10.8728
願力故	-10.8733
形如	-10.8735
雜亂	-10.8736
餘九為伴	-10.8737
法句	-10.8737
有三十	-10.8738
塵垢	-10.8739
八萬	-10.8743
多種	-10.8745
各具	-10.8747
意者	-10.8749
上明	-10.8755
三分	-10.8761
教證	-10.8764
所須	-10.8766
報化	-10.8767
性者	-10.8771
憍	-10.8779
如來地	-10.878
以釋	-10.8781
上有	-10.8786
無來	-10.8791
地行	-10.8791
於三界	-10.8793
中四	-10.8794
勝功德	-10.8797
亦有二種	-10.8798
菩薩摩訶薩以	-10.8808
與智	-10.8814
揀非	-10.8814
有十一句	-10.8815
成一切智	-10.8815
論師	-10.8816
十卷	-10.8816
經行	-10.8816
三十八	-10.8819
非想	-10.8822
勝音	-10.8823
凝	-10.8825
定不定	-10.8829
▁南無大方廣佛華嚴經中	-10.8829
雙明	-10.8829
現觀	-10.883
佛加	-10.883
輩	-10.8831
成辦	-10.8831
教行	-10.8835
大種	-10.8835
舟	-10.8836
惡口	-10.8836
佛前	-10.8837
所能	-10.8837
即第三	-10.8841
徵起	-10.8842
我聞	-10.8843
主稼神	-10.8844
得淨	-10.8848
皆現	-10.885
純雜	-10.8852
出沒	-10.8855
真實法	-10.8857
叚	-10.8857
惡心	-10.886
寶𦦨	-10.8861
等觀	-10.8867
二辨	-10.8867
十種法	-10.8869
文殊師利菩薩	-10.8874
佛慧	-10.8878
同說	-10.8878
如來出現品	-10.8879
不忘失	-10.8881
專念	-10.8881
不動智	-10.8883
赴	-10.8883
精進力	-10.8885
莊嚴幢	-10.8887
憑	-10.8891
眾人	-10.8891
正觀	-10.8892
禁	-10.8894
出纏	-10.8897
善根力	-10.8898
嫌	-10.8898
乞者	-10.89
為人	-10.89
令此	-10.8902
我應	-10.8904
喻於	-10.8905
初句總	-10.8906
無諸	-10.8906
時節	-10.8906
前義	-10.8909
聚集	-10.8911
戶	-10.8916
遶無數匝	-10.8916
敘昔	-10.8919
長壽	-10.8919
此依	-10.892
便為	-10.8921
云何菩薩	-10.8921
或見處座	-10.8923
難遇	-10.8923
眾生海	-10.8923
不順	-10.8925
果行	-10.8925
慣習	-10.8925
以空	-10.8926
出妙音	-10.893
廣大智	-10.893
王佛	-10.8932
得三昧	-10.8937
身子	-10.8937
人也	-10.8938
打	-10.894
入一切法	-10.8941
通妨難	-10.8945
見敬諮問	-10.8946
相分	-10.8946
得一切佛	-10.8947
力無畏	-10.8948
恒住	-10.8949
得知	-10.8949
割	-10.8949
於佛法中	-10.8953
苑	-10.8956
故受之以	-10.8957
同上	-10.8957
指前	-10.8958
大師子吼	-10.8958
有五百	-10.8959
無法	-10.896
踊	-10.896
光明覺品	-10.8961
百一十	-10.8962
何因	-10.8965
中有十	-10.8966
如來神力	-10.8968
謂諸	-10.8971
心心所	-10.8971
一一身	-10.8973
來詣佛所	-10.8975
廣辨	-10.8978
不輕	-10.898
位行	-10.8982
世間出世間	-10.8984
佛十力	-10.8985
以願力	-10.8986
初長行	-10.8991
菩提行	-10.8992
追	-10.8995
爾時普賢菩薩	-10.8998
情有	-10.8999
無有分別	-10.9001
感應	-10.9008
隅	-10.9008
十地菩薩	-10.9008
吒	-10.9008
調伏一切眾生	-10.9009
實故	-10.9009
況復	-10.9009
下疏云	-10.9012
度生	-10.9012
五重	-10.9012
謂彼	-10.9013
受化	-10.9014
汎	-10.9015
聞佛	-10.9019
不可計	-10.902
後說	-10.9023
白法	-10.9023
無救	-10.9023
各得	-10.9024
出要	-10.9028
能普	-10.903
前偈	-10.9032
見諸眾生	-10.9033
能壞	-10.9043
不通	-10.9043
出妙音聲	-10.9049
入道	-10.905
並可知	-10.905
輕重	-10.9051
由斯	-10.9054
毗盧	-10.9054
犯戒	-10.9055
智日	-10.9055
未必	-10.9056
銅	-10.9059
排	-10.9061
。】【	-10.9063
房	-10.9063
二果	-10.9065
四五	-10.9066
無有異	-10.9066
破相	-10.9067
遲	-10.9068
正直	-10.9068
結上	-10.9071
自在無礙	-10.9074
大威光	-10.9077
無量智慧	-10.9081
本意	-10.9081
東北方	-10.9083
後學	-10.9084
雖不	-10.9085
八難	-10.9088
我已先發阿耨多羅三藐三菩提心	-10.9089
開覺	-10.909
三世一切諸佛	-10.9097
皆約	-10.9098
憶持	-10.9102
位滿	-10.9109
教化一切眾生	-10.911
修慧	-10.9111
陸	-10.912
令汝	-10.912
令歡喜	-10.9125
寶冠	-10.9127
生盲	-10.9127
隨俗	-10.913
依主釋	-10.9131
麼	-10.9131
力波羅蜜	-10.9132
識支	-10.9132
無起	-10.9133
后	-10.9134
前來	-10.9134
久近	-10.9136
稽首	-10.9139
樂音	-10.9139
下三句	-10.914
一切智地	-10.9143
龍宮	-10.9146
滅一切	-10.9149
不論	-10.9152
於其中	-10.9152
不失時	-10.9154
名也	-10.916
不捨眾生	-10.9161
方便海	-10.9164
問若爾	-10.9164
人所	-10.9165
所有一切	-10.9166
本師	-10.9169
來詣	-10.9178
從前	-10.9182
下經云	-10.9182
而立	-10.9188
踰	-10.9188
遶	-10.919
變化身	-10.9191
諸經論	-10.9192
念請	-10.9194
故稱	-10.9195
絕言	-10.9195
不合	-10.9195
修羅	-10.9195
滿月	-10.9197
霔	-10.9197
非情	-10.9198
摩訶薩	-10.9199
直就	-10.9199
常見諸佛	-10.92
貪瞋癡	-10.9201
我心	-10.9202
法界門	-10.9203
海故	-10.9204
長夜	-10.9205
先有	-10.9206
便能	-10.9206
能障	-10.9208
而去	-10.9211
又有	-10.9215
菩薩藏	-10.9219
如山	-10.9219
幻師	-10.9222
地相	-10.9222
方顯	-10.9227
釋經文	-10.9227
大千	-10.9228
一際	-10.9232
中分三	-10.9235
段中	-10.9236
普照法界	-10.9238
尤	-10.9238
雙釋	-10.9238
願波羅蜜	-10.9241
斯即	-10.9242
當說	-10.9243
法性宗	-10.9243
讀誦	-10.9244
是一乘	-10.9248
方始	-10.9249
恣	-10.925
前品	-10.925
之色	-10.9251
諸禪	-10.9252
法界中	-10.9252
云何知	-10.9255
諸妙	-10.9256
船師	-10.9261
諸剎海	-10.9263
入俗	-10.9263
行處	-10.9264
以能	-10.9265
民	-10.9266
普令	-10.9267
入證	-10.9267
此有二義	-10.9268
總收	-10.9268
王菩薩	-10.9271
攝益	-10.9274
道法	-10.9275
得證	-10.9275
六門	-10.9278
動地	-10.928
無邊世界	-10.928
亡言	-10.9282
非理	-10.9287
志願	-10.9289
癡闇	-10.929
過故	-10.929
一毛孔中	-10.9291
污	-10.9291
城東	-10.9293
文分二	-10.9295
事事	-10.9297
欺	-10.9299
無量差別	-10.9299
與樂	-10.93
故令	-10.93
怠	-10.9303
已生	-10.9304
十二有支	-10.9307
現神通	-10.9307
有緣	-10.931
與其	-10.931
智慧海	-10.9311
迴向菩提	-10.9314
亦無有	-10.932
上二界	-10.9325
▁南無十方三世盡虗空界微塵剎土中	-10.9325
三慧	-10.9329
前約	-10.9334
下引	-10.9337
之由	-10.9338
取意	-10.9339
或有眾生	-10.9343
大願海	-10.9343
我此	-10.9344
佛剎塵數	-10.9345
不來	-10.9346
在彼	-10.9346
道中	-10.9347
釋意云	-10.9347
自利行	-10.9349
等即	-10.9349
三千大千世界微塵數	-10.9355
仁者	-10.9355
名聞	-10.9355
一切諸世間	-10.9363
攝末歸本	-10.9365
爪	-10.9365
約智	-10.9365
二十六	-10.9366
承力	-10.9366
斷證	-10.9367
幹	-10.9367
令諸	-10.937
暎	-10.9371
機感	-10.9371
諸方	-10.9371
拔濟	-10.9372
精進波羅蜜	-10.9374
結示	-10.9375
末那	-10.9376
為難	-10.9378
兜率陀天	-10.9379
不捨離	-10.9382
且依	-10.9388
入胎	-10.939
此娑婆世界	-10.9391
授與	-10.9394
隨世	-10.9394
又彼	-10.9396
多有	-10.9399
引經	-10.9401
位也	-10.9401
而論	-10.9401
依何	-10.9401
光𦦨	-10.9404
等說	-10.9405
別示	-10.9406
此十種	-10.9406
藏者	-10.9407
初見	-10.9407
輪轉	-10.9409
歡喜心	-10.941
專心	-10.9417
信者	-10.9419
上二句	-10.9419
普救	-10.9421
佉	-10.9421
職	-10.9423
於身	-10.9425
華果	-10.9425
不能動	-10.9426
智契	-10.9428
總以	-10.9429
一道	-10.9429
問明品	-10.9429
纓絡	-10.9431
第九地	-10.9432
先總明	-10.9433
聞思修	-10.9434
海幢比丘	-10.9435
分為五	-10.9437
一闡提	-10.9439
能遍	-10.9439
四面	-10.944
二百	-10.9441
他化自在天	-10.9446
如是乃至	-10.945
處中	-10.9452
願為我說	-10.9454
生公	-10.9455
唯取	-10.9456
無礙門	-10.9459
夜摩天	-10.9463
無障礙故	-10.9464
文二	-10.9464
教誨	-10.9468
尋求	-10.9468
之功	-10.9469
又作是念	-10.9471
為門	-10.9471
熾	-10.9472
如是無量	-10.9474
不思議品	-10.9476
一切寶莊嚴	-10.9479
避	-10.9481
同處	-10.9481
此地中	-10.9481
為成	-10.9488
晝	-10.9488
即第二	-10.9491
今既	-10.9492
義耳	-10.9493
華藏世界	-10.9494
色者	-10.9497
照了	-10.9498
不須	-10.9501
是空	-10.9501
欲知	-10.9504
無處	-10.9505
無主	-10.9506
法如是故	-10.9508
異也	-10.9509
經卷	-10.951
十通	-10.9513
悉充滿	-10.9513
不堪	-10.9514
百千萬	-10.9524
善心	-10.9524
觀眾生	-10.9525
妄見	-10.9527
一即一切	-10.9527
疏釋	-10.9529
須彌山微塵數	-10.9529
及一切	-10.9532
順釋	-10.9537
去來現在	-10.954
安處	-10.9542
自巳	-10.9543
若在	-10.9547
撰	-10.9547
首菩薩	-10.9547
為我說	-10.955
徑	-10.9551
給	-10.9553
兩舌	-10.9553
號曰	-10.9556
今則	-10.9556
體是	-10.9556
若準	-10.9559
中亦三	-10.956
三苦	-10.956
如有	-10.9561
教授	-10.9564
無央數	-10.9564
實語	-10.9568
最下	-10.9569
緣起法	-10.9575
必定	-10.9576
酒	-10.9576
後佛子	-10.958
得此解脫	-10.9583
三昧名	-10.9588
開顯	-10.9589
大雨	-10.9592
本會	-10.9592
偈言	-10.9593
成佛道	-10.9594
調順	-10.9596
說此法	-10.9597
垢故	-10.9597
應如是	-10.9599
異耳	-10.9599
教體	-10.96
即為十段	-10.96
法住	-10.96
一切毛孔	-10.9602
真故	-10.9602
悉清淨	-10.9602
一重	-10.9603
心恒	-10.9604
上求	-10.9606
文也	-10.9606
應是	-10.961
亦皆	-10.961
揀濫	-10.9613
同歸	-10.9613
薩埵	-10.9616
恱	-10.9616
猗	-10.9617
為淨	-10.9619
歸於	-10.9623
是名菩薩摩訶薩第	-10.9625
信行	-10.9628
次一句	-10.9628
於自	-10.963
五趣	-10.9632
集成	-10.9633
不墮	-10.9635
重頌	-10.9636
引導	-10.9641
名目	-10.9641
宿世	-10.9641
而自莊嚴	-10.9642
一即多	-10.9643
多端	-10.965
炷	-10.965
無邊劫	-10.965
悲愍	-10.9653
無礙解脫	-10.9653
普賢行品	-10.9656
大菩提心	-10.9656
之空	-10.9658
儀式	-10.9663
壁	-10.9663
能伏	-10.9666
則顯	-10.9666
寶山	-10.9667
緣起相由	-10.9668
各自	-10.9668
麁重	-10.9669
妙有	-10.967
諂誑	-10.9672
後世	-10.9673
合云	-10.9676
不住道	-10.9676
欄楯	-10.9679
多人	-10.9681
付囑	-10.9682
所行之行	-10.9683
中亦有	-10.9685
十善道	-10.9687
猶有	-10.9687
業道	-10.9688
現生	-10.9688
了一切法	-10.9689
超越	-10.969
難信	-10.969
定者	-10.969
有差別	-10.969
斷一切	-10.9692
第八會	-10.9693
從何	-10.9698
念處	-10.9698
願智	-10.9699
勝相	-10.9703
」【【	-10.9704
歡喜踊躍	-10.9705
佛子譬如	-10.9706
愛見	-10.9707
無願	-10.9707
具此	-10.9708
實智	-10.9709
一乘教	-10.9709
地故	-10.9711
善財白言	-10.9713
處於	-10.9713
如華嚴經	-10.9713
所學	-10.9714
心不動	-10.9714
一由	-10.9716
現形	-10.9718
阿賴耶識	-10.9719
諸眾生故	-10.9719
隨順世間	-10.9721
杖	-10.9721
屈曲	-10.9722
秋	-10.9725
眾生數等	-10.9727
彩	-10.9728
根器	-10.9729
宋	-10.973
躡前	-10.973
不相捨離	-10.9731
悅樂	-10.9732
等言	-10.9733
頭陀	-10.9735
喻佛	-10.9742
天神	-10.9743
正辨	-10.9745
現在世	-10.9745
下經	-10.9745
四洲	-10.9746
轉妙法輪	-10.9748
能顯	-10.9752
本質	-10.9753
益眾生	-10.9758
淨光明	-10.9764
心得	-10.9766
身出	-10.9769
會前	-10.9773
涉入	-10.9777
智幻	-10.9777
前半	-10.9782
捨離一切	-10.9785
禪師	-10.9785
龜	-10.9786
願令	-10.9787
篇	-10.9787
分別說	-10.9787
銀	-10.9789
大事	-10.9791
羸	-10.9793
攝取眾生	-10.9795
增進	-10.98
降雨	-10.9802
列十	-10.9804
皆清淨	-10.9806
百千萬億那由他	-10.9807
方明	-10.9808
等法界	-10.9811
所有諸	-10.9811
菩	-10.9813
佛剎微塵數劫	-10.9814
如說修行	-10.9816
六品	-10.9818
▁二依	-10.9818
眼根	-10.9819
示現無量	-10.982
大寶	-10.982
一切世界海	-10.9821
別異	-10.9821
末句	-10.9824
身為	-10.9824
總該	-10.9825
無眾生	-10.9826
觀照	-10.9831
屬於	-10.9832
無量方便	-10.9834
有二意一	-10.9835
三十三	-10.9837
又亦	-10.984
今辨	-10.9842
雜寶	-10.9843
慳嫉	-10.9844
所成故	-10.9847
總歎	-10.9848
輔	-10.9848
無疲厭	-10.9849
下地	-10.9849
反此	-10.9849
墜	-10.985
諮	-10.9851
第二地	-10.9853
大自在	-10.9855
身口意	-10.9857
清淨戒	-10.9859
又善男子	-10.9862
先正	-10.9863
主方神	-10.9864
主晝神	-10.9864
今略	-10.9865
心外	-10.9866
別辨	-10.9867
菩提涅槃	-10.9867
喻菩薩	-10.9867
之慧	-10.9868
十名	-10.987
驚怖	-10.9871
常生	-10.9872
言之	-10.9872
通教	-10.9873
有作	-10.9873
到於彼岸	-10.9874
常無常	-10.9876
無生法忍	-10.9877
更無別	-10.988
梁論	-10.9881
行於	-10.9882
發光地	-10.9882
菩薩大士	-10.9884
娑婆世界	-10.9885
其狀	-10.9886
向菩提	-10.9889
充徧	-10.9891
法執	-10.9894
取之	-10.9894
所加	-10.9895
信滿	-10.9896
不俱	-10.9899
咸令	-10.9901
無量菩薩	-10.9901
忉利	-10.9902
噉	-10.9903
舊經	-10.9905
三依	-10.9908
十年	-10.9908
唯說	-10.9909
怪	-10.9911
能取	-10.9912
男子	-10.9912
不成佛	-10.9912
三顯	-10.9914
一智	-10.9915
思之可見	-10.9915
三昧力	-10.9916
酥	-10.9916
然則	-10.9918
觀也	-10.992
推德昇進	-10.9922
是諸	-10.9926
覲	-10.9926
種種相	-10.9928
􂐔	-10.9928
顯揚	-10.993
觀身	-10.9932
住者	-10.9932
常修	-10.9933
無所染著	-10.9934
後一句	-10.9937
故下經云	-10.9938
無別體	-10.9939
文有四	-10.9941
初對	-10.9942
六頌	-10.9942
摩尼珠	-10.9944
顯義	-10.9947
答以	-10.9948
二由	-10.9949
名號品	-10.9949
一境	-10.9957
之緣	-10.9959
▁二合	-10.9959
二十九	-10.9964
刊定	-10.9967
成就如是	-10.9967
梨	-10.9968
小乘教	-10.997
思念	-10.9971
類顯	-10.9973
皆令歡喜	-10.9974
多故	-10.9974
高出	-10.9978
然有	-10.9978
普攝一切	-10.998
成事	-10.998
不住涅槃	-10.998
而為莊嚴	-10.9981
餘文可知	-10.9983
折伏	-10.9983
一毛端處	-10.9984
準之	-10.9989
逆觀	-10.9989
邑	-10.999
重會	-10.9991
清淨法界	-10.9991
若爾何	-10.9993
執金剛神	-10.9993
清淨智	-10.9995
大歡喜	-10.9997
汝見	-10.9998
充足	-10.9998
柔輭	-10.9999
滿十方	-11.0001
世智	-11.0004
轉識	-11.0005
眾生及	-11.001
佛種性	-11.0014
非人	-11.0015
莊嚴雲	-11.0016
令善財	-11.0016
悟一切法	-11.0016
深遠	-11.0018
第四禪	-11.0018
別行	-11.0022
相續不斷	-11.0022
巾	-11.0022
定故	-11.0024
第二釋	-11.0025
樂見	-11.0026
請佛	-11.003
裂	-11.0031
徧入	-11.0031
紙	-11.0033
不迷	-11.0037
前巳	-11.0038
亦不離	-11.0043
抱	-11.0046
次二頌	-11.0047
一切十方	-11.0047
燒香	-11.0047
佛世界	-11.0049
而以	-11.0049
內德	-11.005
根熟	-11.0051
增上慢	-11.0051
玄門	-11.0055
是故得成此光明	-11.0055
况	-11.0057
義中	-11.0058
三塗	-11.0058
異門	-11.0061
居然	-11.0063
如是等無量	-11.0065
照曜	-11.0067
二從	-11.0071
十喻	-11.0072
不唯	-11.0073
諸識	-11.0074
如文	-11.0075
地體	-11.0075
而不壞	-11.0076
種種身	-11.0076
具引	-11.0077
諸事	-11.0078
受記	-11.008
欣樂	-11.008
佛知見	-11.0081
煩惱業	-11.0082
光天	-11.0083
心念言	-11.0083
▁二答	-11.0084
初一偈	-11.0084
佛法僧	-11.0086
證知	-11.0086
第二時	-11.0087
能了知	-11.0088
相差別	-11.0088
亦不能	-11.0088
不久	-11.0092
初地中	-11.0094
雖殊	-11.0097
無數世界	-11.0098
徧一切	-11.01
聾	-11.0101
扶	-11.0101
解脫道	-11.0102
堪任	-11.0102
警	-11.0103
為所依	-11.0105
四聖諦	-11.0106
▁三雙結	-11.0107
則成	-11.0107
。《	-11.0107
如來音聲	-11.0107
臆	-11.0107
難聞	-11.0108
三果	-11.0111
離念	-11.0112
永離一切	-11.0113
究竟故	-11.0114
成就菩薩	-11.0114
帀	-11.0116
覺首	-11.0117
如前釋	-11.0117
不能盡	-11.0118
偈讚品	-11.0118
䟦	-11.0119
右遶	-11.0123
菩薩修行	-11.0123
於餘	-11.0123
三類	-11.0126
得涅槃	-11.0127
難處	-11.0128
轉更	-11.013
非一故	-11.0132
何能	-11.0134
雖同	-11.0136
通結	-11.0139
攝入	-11.014
聞是	-11.0141
剎那際	-11.0141
三處	-11.0142
▁初總明	-11.0144
清淨功德	-11.0145
次六	-11.0145
所聞法	-11.0146
臥具	-11.0146
歸本	-11.0148
地神	-11.0148
如此世界	-11.0149
別立	-11.0153
四果	-11.0155
千年	-11.0155
十明	-11.0159
證如	-11.0163
入大	-11.0164
川	-11.0164
武	-11.0164
巖	-11.0164
皆然	-11.0165
時劫	-11.0171
亦無量	-11.0173
柔和	-11.0173
大千世界	-11.0173
命根	-11.0177
二我	-11.0177
舉果	-11.0178
後九	-11.0179
歿	-11.0179
自受用	-11.018
塔廟	-11.018
作如是	-11.0181
醫	-11.0182
智慧門	-11.0185
佛昔	-11.0185
此位菩薩	-11.0185
深故	-11.0188
例餘	-11.019
知諸眾生	-11.0196
成最正覺	-11.0197
六偈	-11.0199
十十	-11.02
三千界	-11.02
二十重	-11.0202
為上	-11.0203
復現	-11.0205
四十八	-11.0205
第三地	-11.0206
金網	-11.0211
隨智	-11.0212
方等	-11.0214
託事	-11.0215
大悲行	-11.0216
一一毛孔中	-11.0217
明入	-11.0219
全是	-11.0223
二別顯	-11.0224
徧計	-11.0224
思惟觀察	-11.0226
等流	-11.0229
雅	-11.0232
化他	-11.0234
行施	-11.0235
觀察眾生	-11.0239
於一念	-11.0242
者釋	-11.0245
何為	-11.025
稱為	-11.0251
隨於	-11.0253
三大	-11.0256
流注	-11.0258
世樂	-11.0259
器界	-11.026
之樂	-11.026
供養如來	-11.0262
即理	-11.0263
不能壞	-11.0263
現種種	-11.0265
所有功德	-11.0266
第二佛子	-11.0268
根境	-11.0268
宿因	-11.0271
佛出	-11.0274
一言	-11.0275
非心	-11.0278
菩薩眾會	-11.0279
其實	-11.0279
同號	-11.028
互有	-11.028
銷	-11.0282
多者	-11.0285
▁初牒	-11.0285
邊見	-11.0286
住世	-11.0289
披	-11.029
私	-11.0291
生熟	-11.0291
自在王	-11.0292
說諸法	-11.0296
足行神	-11.0297
渡	-11.0297
所纏	-11.0298
通論	-11.0298
此與	-11.0301
增上心	-11.0302
得出離	-11.0302
無缺	-11.0305
踐	-11.0306
漸教	-11.0309
本淨	-11.0309
師云	-11.031
周帀	-11.031
始覺	-11.0313
熾盛	-11.0313
解故	-11.0313
七處	-11.0322
於善知識	-11.0324
尊貴	-11.0325
陀羅	-11.0328
禁戒	-11.033
阿修羅王	-11.0331
無處所	-11.0332
如是次第	-11.0334
立理	-11.0335
執我	-11.0344
金色世界	-11.0345
前云	-11.0347
但見	-11.0352
隨入	-11.0353
八九	-11.0357
普詣	-11.0358
後偈頌	-11.0362
斷障	-11.0365
在後	-11.0365
菩薩以此初發心	-11.0366
先辨	-11.0367
所依處	-11.0368
智正覺世間	-11.037
於諸世間	-11.0371
報相	-11.0371
復更	-11.0375
及眾生	-11.0376
緣境	-11.0376
皆入	-11.0376
設教	-11.0378
觀之	-11.0379
四依	-11.0382
於虛空中	-11.0385
智性	-11.0386
或是	-11.0387
自得	-11.0389
行苦	-11.0393
萬像	-11.0393
以為嚴飾	-11.0394
彼果	-11.04
閑	-11.04
童	-11.0403
懈	-11.0404
亦有亦無	-11.0405
進趣	-11.041
我人	-11.0414
雖知諸法	-11.0415
菩薩戒	-11.0416
滅諦	-11.0416
唯就	-11.0416
忍波羅蜜	-11.0418
色空	-11.0418
臭	-11.0418
無有二	-11.0421
一偈頌	-11.0423
認	-11.0425
此十地	-11.0426
吹	-11.0428
▁二喻	-11.0429
不住生死	-11.0433
五塵	-11.0433
菩薩三昧	-11.0433
不虗	-11.0433
工巧	-11.0436
四事	-11.0437
念佛門	-11.0439
淨法界	-11.0441
不增不減	-11.0443
準此	-11.0444
何者為十	-11.0445
次五	-11.0447
不去	-11.0448
照十方	-11.0449
娛樂	-11.0453
猶如虗空	-11.0454
義引	-11.0454
法性身	-11.0456
入一切眾生	-11.0456
求善知識	-11.0458
色聲	-11.046
已引	-11.046
心樂	-11.0461
滅煩惱	-11.0475
之海	-11.0476
無礙行	-11.0476
今顯	-11.0477
何者是	-11.0485
善現	-11.0486
德行	-11.0487
我悉	-11.0489
一微塵	-11.049
相順	-11.049
墮於	-11.049
威神力	-11.0491
卵	-11.0491
欲明	-11.0492
墨	-11.0493
方知	-11.0494
綱	-11.0494
妙光明	-11.0496
快	-11.0496
疲倦	-11.0496
聖眾	-11.0496
輝	-11.0497
後時	-11.0498
顯了	-11.0499
是何	-11.0499
因圓果滿	-11.05
津	-11.05
餘八	-11.0502
譬如大海	-11.0504
無相故	-11.0504
三千大千	-11.0505
知彼	-11.0508
二文	-11.0509
離二邊	-11.051
頓證	-11.0511
齊限	-11.0511
明如來	-11.0512
善道	-11.0512
曷	-11.0512
應作	-11.0515
初牒前	-11.0515
互融	-11.0517
當念	-11.0518
餘可知	-11.0518
盧舍那佛	-11.0521
而為其	-11.0526
不必	-11.0527
十地品	-11.0528
無障礙智	-11.0532
始成	-11.0534
之有	-11.0534
不思議解脫	-11.0535
智業	-11.0537
一如	-11.0538
說一乘	-11.054
此諸菩薩	-11.0541
三無性	-11.0542
以諸善根如是迴向	-11.0542
大喜	-11.0542
有二種一	-11.0543
莫不皆	-11.0548
生老死	-11.0549
調生	-11.0551
迴向眾生	-11.0551
條	-11.0553
清凉	-11.0554
說三乘	-11.0559
亦二	-11.0561
要須	-11.0564
海會	-11.0564
前已	-11.0564
等持	-11.0564
交絡	-11.0564
修普賢行	-11.0565
若唯	-11.0566
在前	-11.0566
笑	-11.0567
顯故	-11.0568
作是念言	-11.0569
主山神	-11.0569
善思惟	-11.0569
念力	-11.0572
不假	-11.0572
滌	-11.0572
三字	-11.0573
明是	-11.0575
師子王	-11.0581
度者	-11.0581
無去來	-11.0582
▁初揔明	-11.0587
三惡道	-11.0588
流布	-11.0589
本際	-11.059
未成	-11.0591
辨相	-11.0591
今說	-11.0591
出聲	-11.0592
皆亦如是	-11.0592
若望	-11.0593
大方便	-11.0595
有世界海微塵數	-11.0596
憂苦	-11.0603
當生	-11.0605
光色	-11.0605
大經	-11.0608
多即一	-11.061
千歲	-11.061
須彌頂	-11.0612
地持	-11.0612
五十三	-11.0617
正住	-11.0619
降神	-11.0621
浩	-11.0624
而取	-11.0625
第十三	-11.0625
雪	-11.0625
隨他	-11.0626
先長行	-11.0628
智度	-11.0629
文分為二	-11.063
不可取	-11.0631
雖說	-11.0633
一切魔	-11.0636
堪忍	-11.0636
淳	-11.0637
無雜	-11.0641
依身	-11.0644
上味	-11.0646
雙泯	-11.0648
▁三明	-11.065
一行半經	-11.0651
下九	-11.0654
皆悉具足	-11.0654
俱時	-11.0655
滴	-11.0657
親近善知識	-11.0664
心歡喜	-11.0667
大者	-11.0668
初發心時	-11.0668
一切香	-11.067
一切法皆	-11.0673
不可說不可說劫	-11.0675
空三昧	-11.0675
相用	-11.0676
▁二迴向	-11.0677
以無量	-11.0678
佛世尊	-11.0681
出定	-11.0681
初中後	-11.0684
相貌	-11.0685
其名曰	-11.0685
今謂	-11.0686
則巳	-11.0687
四字	-11.0687
同法界	-11.0688
大施	-11.0689
詩	-11.069
過去未來	-11.0691
幢王	-11.0692
彼經云	-11.0693
薰	-11.0695
之流	-11.0695
據此	-11.0696
飢	-11.0698
前後際	-11.0701
例知	-11.0702
先問後答	-11.0702
章門	-11.0703
惡法	-11.0705
塵剎	-11.0705
三僧祇	-11.0707
言詞	-11.0708
辨其	-11.0708
雨一切	-11.0708
所表	-11.0709
方有	-11.0711
入一切智	-11.0712
無量百千億那由他	-11.0714
盈滿	-11.0715
智隨	-11.0716
他化	-11.0717
但舉	-11.0717
瞋恨	-11.0723
微塵等	-11.0724
勝緣	-11.0724
罪業	-11.0727
已見	-11.0728
如須彌山	-11.0729
云何名	-11.0729
以身	-11.0731
或可	-11.0731
如上說	-11.0731
向佛	-11.0733
四生	-11.0733
清淨眼	-11.0734
五十五	-11.0735
寂故	-11.0742
如來無上	-11.0743
貪求	-11.0743
證菩提	-11.0747
生生	-11.075
無餘涅槃	-11.075
作證	-11.0751
我是	-11.0752
讚德	-11.0753
即見	-11.0758
普熏	-11.0762
如下文	-11.0763
阿賴耶	-11.0765
三昧海	-11.0767
理行	-11.0769
走	-11.0771
菩薩以此	-11.0772
虧	-11.0772
千世界	-11.0773
溢	-11.0773
實則	-11.0775
說大	-11.0778
大悲為首	-11.0779
乞食	-11.0779
平坦	-11.0781
常求	-11.0783
廣容	-11.0783
演義	-11.0785
餘七	-11.0785
應物	-11.0787
非一異	-11.0788
佛剎微塵等	-11.0788
從定出	-11.0791
清淨法身	-11.0796
初總顯	-11.0796
業海	-11.0796
之機	-11.08
如地	-11.0802
諸句	-11.0804
咎	-11.0806
知過去	-11.0807
斷諸	-11.0808
而為眷屬	-11.0811
三祇	-11.0817
無邊法界	-11.082
永無	-11.0822
狗	-11.0822
動靜	-11.0824
而昇	-11.0824
當相	-11.0831
由有	-11.0832
此解脫門	-11.0833
餘人	-11.0834
懃	-11.0834
茂	-11.0837
廣略	-11.0838
圓備	-11.0839
人王	-11.084
醉	-11.084
優劣	-11.0841
初總餘別	-11.0841
肇公	-11.0843
光雲	-11.0843
業故	-11.0843
意可知	-11.0844
一切眾生身	-11.0844
遍至	-11.0845
為喻	-11.0848
諸人	-11.0849
亦猶	-11.0849
無常等	-11.0851
中流	-11.0852
故以為名	-11.0854
從緣起	-11.0855
數法	-11.0855
亦復不	-11.0859
四攝法	-11.0863
鏡像	-11.0867
三世一切佛	-11.0868
與理	-11.0871
西北方	-11.0872
無師	-11.0873
靡	-11.0874
眷屬圍遶	-11.0877
口中	-11.0877
明徹	-11.0878
是故菩薩	-11.088
一千	-11.0881
樹林	-11.0882
願成	-11.0883
一切語言	-11.0883
巳前	-11.0887
初發	-11.0889
庶	-11.0891
國土身	-11.0891
智光照	-11.0892
菩薩云何	-11.0895
佛神力故	-11.0897
乍	-11.0899
大般涅槃	-11.0899
吉凶	-11.0899
遍入	-11.09
與諸菩薩	-11.09
巳說	-11.0901
旦	-11.0901
舉經	-11.0903
菩提道	-11.0906
有量	-11.0907
受身	-11.0907
文三	-11.0909
截	-11.091
知無量如來	-11.091
有三句	-11.0911
生空	-11.0912
難解	-11.0913
受想行識	-11.0914
於中二先	-11.0915
別舉	-11.0915
集會	-11.0916
俱空	-11.0916
心海	-11.0917
主海神	-11.0917
所莊嚴	-11.0918
雖未	-11.0919
失壞	-11.0921
以偈	-11.0921
智也	-11.0926
今就	-11.0928
功德智慧	-11.0933
鈴	-11.0934
無依住	-11.0939
起大悲	-11.0939
各各差別	-11.0939
無生故	-11.094
又放光明名	-11.0941
實非	-11.0945
見善知識	-11.095
初問	-11.095
閻浮提中	-11.0954
嚴好	-11.0955
又為	-11.0957
自在行	-11.0957
現通	-11.0959
不沒	-11.0959
一切諸佛法	-11.0962
無有一法	-11.0965
虎	-11.0968
問難	-11.0969
起後	-11.0969
樓閣雲	-11.097
依空	-11.0971
非定	-11.0972
法界性	-11.0973
從緣生	-11.0974
清淨法	-11.0975
初云	-11.0975
波浪	-11.0978
初即	-11.0978
十二緣生	-11.0978
常樂我淨	-11.0979
以一切法	-11.0979
止住	-11.098
大覺	-11.0981
主藥神	-11.0982
主火神	-11.0983
常寂	-11.0986
第三會	-11.0986
前會	-11.0986
引之	-11.0988
如是等事	-11.0988
無能壞	-11.0989
上根	-11.0991
心無厭足	-11.0992
十德	-11.0992
不由他悟	-11.0993
是故我	-11.0994
彈	-11.0996
漸次遊行	-11.0997
而我云何能知能說彼功德行	-11.0998
妙理	-11.1003
說十住	-11.1003
其間	-11.1004
今初分二	-11.1004
倣	-11.1006
我觀	-11.1008
生淨信	-11.101
種種業	-11.1011
勘	-11.1013
初六	-11.1014
觀世音	-11.1017
宮中	-11.1018
廣分別	-11.102
維摩經	-11.1021
皆悉現前	-11.1022
三位	-11.1022
自因	-11.1023
經部	-11.1024
凡有	-11.1025
體者	-11.103
全在	-11.1031
寶座	-11.1032
已成	-11.1034
發大心	-11.1035
及諸菩薩	-11.1035
如今	-11.1036
威勢	-11.1037
次說	-11.1039
不能自	-11.1039
美妙	-11.1039
隨何	-11.104
正信	-11.104
地論	-11.1041
加分	-11.1043
一乘三乘	-11.1043
其類	-11.1044
依住	-11.1044
灌	-11.1046
侶	-11.1047
所餘	-11.105
智慧力	-11.105
無癡亂	-11.1051
轉增	-11.1053
諸法界	-11.1054
調御	-11.1055
忍行	-11.1057
若謂	-11.1057
如金	-11.1058
曇	-11.1058
饒益一切眾生	-11.1061
遏	-11.1062
醫王	-11.1063
主空神	-11.1064
樂聞	-11.1065
十方法界	-11.1065
之物	-11.1066
在初	-11.1068
世界眾生	-11.1071
得不退轉	-11.1072
方便者	-11.1074
持一切	-11.1085
一切佛法故	-11.1087
如來法身	-11.1092
三宗趣者	-11.1093
即第一	-11.1093
為眾生故	-11.1094
所趣	-11.1099
緣中	-11.1105
為上首	-11.1113
文句	-11.1113
剌	-11.1113
明珠	-11.1114
即體	-11.1114
貪瞋	-11.1115
▁初引	-11.1116
下別明	-11.1116
定用	-11.1117
孰	-11.1118
邪道	-11.1119
瘡	-11.112
冤	-11.1121
洛	-11.1125
頌上	-11.1125
起定	-11.1127
一佛剎	-11.113
業煩惱	-11.113
復於	-11.1132
自分行	-11.1136
現其身	-11.1137
法界體	-11.1142
離塵	-11.1147
所共圍遶	-11.1148
寶洲	-11.1148
於中亦二	-11.1148
何緣	-11.1151
法身故	-11.1153
護世	-11.1154
而見	-11.1158
譬如虛空	-11.1158
其數無量	-11.1161
亦顯	-11.1162
通說	-11.1162
何異	-11.1163
無量莊嚴	-11.1167
諸佛世界	-11.1168
出其	-11.117
會之	-11.1172
故䟽	-11.1176
次有佛出	-11.1176
如來功德	-11.1177
成佛故	-11.118
三十五	-11.1181
大海水	-11.1181
前位	-11.1182
未滿	-11.1182
斫	-11.1182
謂離	-11.1185
本願力	-11.1187
初一句	-11.1187
蓋雲	-11.1187
菴	-11.1187
吞	-11.1189
聞聲	-11.1192
魏	-11.1192
早	-11.1192
耆	-11.1192
如是等而為上首	-11.1193
有難云	-11.1193
含攝	-11.1193
分教	-11.1194
詰	-11.1195
各現	-11.1195
二執	-11.12
正取	-11.12
第七會	-11.1201
辨才	-11.1202
菩薩云何學菩薩行	-11.1206
論名	-11.1206
自念	-11.1208
婇女	-11.1209
主地神	-11.121
聖慧	-11.121
故偏	-11.1213
行七步	-11.1213
猛利	-11.1213
來入	-11.1213
見普賢	-11.1214
後一頌	-11.1215
且如	-11.1218
東南方	-11.122
會經	-11.1222
處非處	-11.1223
卷第十	-11.1223
明照	-11.1225
疏文有二	-11.1228
衣雲	-11.1228
為用	-11.123
悉是	-11.1232
見法	-11.1232
為嚴	-11.1235
?「	-11.1235
以顯無盡	-11.1237
下至	-11.1238
十住十行	-11.1238
身智	-11.124
小乘中	-11.1241
無障無礙	-11.1241
高勝	-11.1241
下十句	-11.1242
輕安	-11.1243
諸大願	-11.1243
有義	-11.1244
後門	-11.1247
能示現	-11.1248
光明照耀	-11.1249
故立	-11.1252
諸蘊	-11.1255
說此經	-11.1255
漢	-11.1257
付	-11.1259
光焰	-11.1259
惡人	-11.1261
初之	-11.1262
垂下	-11.1263
寫	-11.1263
是諸眾生	-11.1264
本源	-11.1264
鬚	-11.1269
能離	-11.127
臍	-11.1271
厄	-11.1272
證此	-11.1273
六千比丘	-11.1274
體非	-11.1275
文亦	-11.1276
種種行	-11.1276
敢	-11.1277
而覆其上	-11.1278
上二義	-11.1278
法喜	-11.128
不可沮壞	-11.1281
攝論云	-11.1284
如善財	-11.1288
靡不周	-11.1288
我亦	-11.1288
善趣	-11.1292
本生	-11.1294
▁二別明	-11.1296
皆與	-11.13
滅除一切	-11.13
供養一切諸佛	-11.1301
高廣	-11.1302
得無礙	-11.1303
多義	-11.1303
真源	-11.1305
意取	-11.1307
下彰	-11.1309
寶帳	-11.1311
大名稱	-11.1313
佛說法	-11.1323
樓觀	-11.1327
若能如是	-11.1327
火燒	-11.1328
受名	-11.133
向上	-11.1332
謹	-11.1334
皇	-11.1335
菩薩諸行	-11.1335
克	-11.1336
渾	-11.1336
慰	-11.1337
一切二乘	-11.1338
逾	-11.1339
皆屬	-11.134
次前	-11.1343
間錯	-11.1344
後正	-11.1344
心無疲厭	-11.1345
執有	-11.1349
別別	-11.1349
五中	-11.1351
三世平等	-11.1354
總說	-11.1355
殊勝行	-11.1358
巳後	-11.1359
過者	-11.1359
善覺	-11.1363
周旋	-11.1368
普為眾生	-11.1368
而求	-11.137
長劫	-11.1372
海印三昧	-11.1372
其心清淨	-11.1374
恭	-11.1378
助道法	-11.1382
成四句	-11.1383
教理	-11.1387
下生	-11.1388
輪圍山	-11.1391
不可言	-11.1391
驅	-11.1395
肩	-11.1396
仁王經	-11.1397
寶鈴	-11.1398
財施	-11.14
道路	-11.14
▁二釋名	-11.1401
傾	-11.1401
展轉相	-11.1404
初言	-11.1404
無自性故	-11.1404
常現	-11.1406
魔王	-11.1409
謙巳推勝	-11.141
三車	-11.141
生界	-11.1411
以論	-11.1413
四即	-11.1414
智慧境界	-11.1414
音菩薩	-11.1415
追求	-11.1415
不融	-11.142
果相	-11.142
足指	-11.1421
無生無滅	-11.1422
智斷	-11.1423
皆盡	-11.1424
諸凡夫	-11.1425
先總標	-11.1429
出興于世	-11.1431
淨居天	-11.1431
泯二	-11.1432
相好莊嚴	-11.144
斷見	-11.1442
中十波羅蜜	-11.1442
密意	-11.1444
便得	-11.1444
十藏	-11.1446
初發心菩薩	-11.1447
諸邪見	-11.1449
淨天	-11.1454
麤重	-11.1456
梁攝論	-11.1458
復生	-11.1464
發言	-11.1464
▁初法	-11.1467
䟽云	-11.1468
三千世界	-11.1472
大河	-11.1473
齋	-11.1473
經中說	-11.1474
本願力故	-11.1475
真身	-11.1475
為道	-11.1475
勝者	-11.1476
倣此	-11.1477
是故當知	-11.1478
普行	-11.148
髓	-11.1481
起信云	-11.1483
逸	-11.1484
無限量	-11.1485
質直	-11.1485
第八識	-11.1486
轉故	-11.1486
義類	-11.1486
大小乘	-11.1487
紺	-11.1487
顯深	-11.1488
此童子	-11.1488
譽	-11.1488
周圓	-11.1489
勤行	-11.1489
抄	-11.1489
芥子	-11.149
諸境界	-11.1491
娑羅	-11.1493
隆	-11.1493
閻羅王	-11.1493
象馬	-11.1495
准前	-11.1495
見修	-11.1495
周易	-11.1496
通因果	-11.1496
一切善法	-11.1498
雨大法雨	-11.1502
普攝眾生	-11.1504
三道	-11.1505
設敬	-11.1505
佛果故	-11.1506
妄也	-11.1506
隨方	-11.1507
含多	-11.1508
九種	-11.1508
鏡中	-11.1513
之主	-11.1514
不見有	-11.1516
帝網重重	-11.1517
光統	-11.1517
作惡	-11.1518
十地位	-11.1521
後方	-11.1522
諸大眾	-11.1522
本迹	-11.1524
山頂	-11.1525
離癡	-11.1528
過去未來現在	-11.1528
疲	-11.1535
方說	-11.1538
教令	-11.1538
一釋名	-11.1538
別配	-11.1538
雲音	-11.1545
防護	-11.1545
論釋云	-11.1547
佛所行	-11.1548
佛光明	-11.1552
促	-11.1552
約體	-11.1554
眉	-11.1554
樹王	-11.1556
賜	-11.1557
執取	-11.1558
剖	-11.1562
廻	-11.1563
十住初心	-11.1565
顯前	-11.1565
菩提心者如	-11.1567
嘿	-11.1567
位位	-11.157
恭敬尊重	-11.1572
此之謂也	-11.1572
不存	-11.1573
無量色	-11.1582
必須	-11.1582
戒定慧	-11.1583
廣大如法界	-11.1586
明燈	-11.1589
所覺	-11.1594
住一切智	-11.1594
為義	-11.1594
辨十	-11.1598
內身	-11.1598
而未知菩薩云何學菩薩行	-11.1601
別列	-11.1602
勤修習	-11.1603
於大乘	-11.1604
轉依	-11.1605
現無量	-11.1605
至真	-11.1605
化法	-11.1609
煩惱故	-11.161
離貪	-11.1611
常說	-11.1611
天樂	-11.1612
該攝	-11.1615
識種	-11.1616
應身	-11.1618
安立海	-11.1622
▁初通	-11.1624
漸增	-11.1625
深義	-11.1626
洪	-11.1628
黨	-11.163
墮地獄	-11.163
火聚	-11.1632
盤	-11.1633
䇿	-11.1634
遐	-11.1635
籌量	-11.1636
戒波羅蜜	-11.1636
雖多	-11.1638
摩醯首羅	-11.1641
舉喻	-11.1641
經宗	-11.1642
攝他	-11.1643
第四地	-11.1643
輒	-11.1644
說聽	-11.1646
所屬	-11.1646
日照	-11.1647
平等性	-11.1648
列中	-11.1651
故發菩提心	-11.1651
進入	-11.1652
為教體	-11.1652
體不異	-11.1654
勝進行	-11.1656
虛空法界	-11.1657
諸惡趣	-11.166
是有為	-11.1661
。●	-11.1662
不散	-11.1663
遠公云	-11.1668
入佛法	-11.1669
初三句	-11.1669
見分	-11.1669
兼顯	-11.1673
結名	-11.1673
多剎	-11.1675
海潮	-11.1676
行人	-11.1676
此四天下	-11.1677
無流	-11.1682
一切聲聞	-11.1682
初二頌	-11.1686
今何	-11.1686
諸師	-11.1686
品說	-11.1691
行修	-11.1693
皆隨	-11.1695
自己	-11.1695
規	-11.1696
聞經	-11.1696
淨佛國土	-11.1696
隨有	-11.1704
俱舍云	-11.1705
身口意業	-11.1705
事法界	-11.1708
有法喻合	-11.1708
亦不可	-11.1708
無作者	-11.1709
既非	-11.1709
非劫	-11.1709
祐	-11.1712
蘂	-11.1713
是故經云	-11.1714
計我	-11.1716
自在智	-11.1718
存亡	-11.1718
祇	-11.1719
本論	-11.1721
諸法實相	-11.1721
緣相	-11.1723
菩薩解脫	-11.1724
不善業	-11.1729
重顯	-11.1731
以斯	-11.1733
於中現	-11.1734
千萬	-11.1735
亦約	-11.174
含於	-11.174
違逆	-11.1742
真法	-11.1742
雜類	-11.1742
第九會	-11.1743
所不能壞	-11.1744
異異	-11.1747
過也	-11.1747
救濟	-11.1747
是為諸佛第	-11.1747
人者	-11.1748
第一句	-11.175
從初地	-11.1754
說法者	-11.1754
五約	-11.1755
金剛智	-11.1755
無過失	-11.1757
軌則	-11.1763
有六種	-11.1766
之真	-11.1767
徧一切處	-11.1768
無有差別	-11.1769
無量相	-11.1769
井	-11.1771
孔目	-11.1773
圍	-11.1773
紅	-11.1775
上言	-11.1777
對治離	-11.1778
斷空	-11.1781
自然而	-11.1784
市	-11.1787
禍	-11.1789
死此生彼	-11.1793
將此	-11.1794
無有厭足	-11.1797
如意寶王	-11.1797
無二相	-11.1799
諮問	-11.1801
不怖	-11.1801
十方天下人皆使	-11.1804
墮惡道	-11.1805
盡無餘	-11.1805
滅諸	-11.1807
度脫眾生	-11.1809
總辨	-11.181
八會	-11.1814
即今	-11.1818
教化調伏一切眾生	-11.182
凡愚	-11.1824
禪定解脫	-11.1825
四德	-11.1826
餘之	-11.1827
後一偈	-11.1827
光幢	-11.1828
通能所	-11.1836
汝觀	-11.1836
牒釋	-11.1837
何等為菩薩摩訶薩	-11.1839
商	-11.184
隨一一	-11.1844
藏師子之座	-11.1846
得位	-11.1847
有頂	-11.185
余	-11.1851
上諸義	-11.1853
當知此	-11.1854
入生死	-11.1855
善財言	-11.1855
知一切佛	-11.1855
普賢菩薩摩訶薩	-11.1857
斷德	-11.1859
不能見	-11.1861
勉	-11.1861
奢摩他	-11.1862
採	-11.1863
開解	-11.1863
向下	-11.1865
迷真	-11.1866
主風神	-11.1867
地水火風	-11.1869
請法	-11.187
問既	-11.1871
畔	-11.1873
清淨道	-11.1879
又表	-11.188
垢濁	-11.188
世所	-11.1882
與其眷屬	-11.1888
枝葉	-11.1889
周匝	-11.1894
欲令眾生	-11.1895
指示	-11.1896
異因	-11.1897
所乘	-11.1898
大德	-11.19
一剎那中	-11.1901
第五地	-11.1901
劫住	-11.1902
微妙法	-11.1903
一切諸魔	-11.1904
但依	-11.1904
▁初釋名	-11.1908
不顛倒	-11.191
大威力	-11.1913
實體	-11.1916
業種	-11.1917
水輪	-11.1918
諸眷屬	-11.192
父王	-11.1923
轉法	-11.1925
水火	-11.1926
蘭	-11.1929
智慧方便	-11.1931
解曰	-11.1931
定力	-11.1932
三總結	-11.1934
不能得	-11.1934
不還	-11.1934
無依處	-11.1936
若非	-11.1936
一經	-11.1936
能忍	-11.1937
佛華嚴	-11.1937
略辨	-11.1939
不可說世界	-11.1942
無退	-11.1942
轉復	-11.1943
九品	-11.1946
神通自在	-11.1951
一切如來所	-11.1951
慳貪	-11.1951
第三禪	-11.1955
引攝	-11.1955
如是我聞	-11.1957
不離念	-11.1958
▁初依	-11.1962
志求	-11.1964
心生歡喜	-11.1964
在文	-11.1965
便有	-11.1965
雙存	-11.1965
大龍王	-11.1967
智印	-11.1968
菩薩摩訶薩住此	-11.1972
集因	-11.1975
空界	-11.198
滅障	-11.1983
大仙	-11.1986
於中有四	-11.1987
神力自在	-11.1989
良由	-11.199
動寂	-11.1991
三昧分	-11.1992
法界緣起	-11.1993
徃昔	-11.1994
具足莊嚴	-11.1995
周徧法界	-11.1995
自見身	-11.1997
蓮華座	-11.1997
諸佛土	-11.1999
的	-11.1999
不云	-11.2001
不相離	-11.2001
心想	-11.2001
善權	-11.2002
乃得	-11.2003
彼疏云	-11.2003
能燒	-11.2004
證分	-11.2012
校	-11.2012
括	-11.2013
▁初喻	-11.2014
跋	-11.2015
嚴剎	-11.2016
就實	-11.2017
結使	-11.2017
集起	-11.2018
有四一	-11.2018
宗中	-11.202
分別者	-11.2022
窮未來際	-11.2022
能動	-11.2024
師子頻申	-11.2026
聲者	-11.2027
安慰	-11.2027
勝益	-11.2028
合之	-11.203
得大無畏安隱之處	-11.2031
南行	-11.2033
四無所畏	-11.2035
文分三	-11.2039
現起	-11.2039
普賢身	-11.204
此有二意	-11.204
不懷	-11.204
攝盡	-11.2041
其王	-11.2045
利根	-11.2046
智慧故	-11.2046
觀音	-11.2047
所得法門	-11.205
反釋	-11.205
四分	-11.2051
能度	-11.2051
讚說	-11.2051
第二七日	-11.2053
此忍	-11.2055
蓮華藏師子之座	-11.2056
本法	-11.2061
寶焰	-11.2063
大光	-11.2063
善不善	-11.2064
三節	-11.2065
成佛果	-11.2065
廣引	-11.2067
信入	-11.2068
一切剎海	-11.2071
不思議法品	-11.2072
八地已上	-11.2074
如文自具	-11.2074
本位	-11.2078
共法	-11.2081
𤼵心	-11.2085
是身	-11.2086
撮	-11.2088
是諸菩薩	-11.2088
苟	-11.2088
尅	-11.2089
愁	-11.2089
體同	-11.2091
繼	-11.2091
華光	-11.2096
茶	-11.2099
等心	-11.2101
下明其	-11.2101
空無相	-11.2103
忘失	-11.2104
而云	-11.2104
處胎	-11.2109
文殊師利童子	-11.211
十方各過	-11.2111
前段	-11.2114
於一切智	-11.2115
西南方	-11.2116
地滿	-11.2116
一切惡	-11.2117
亦攝	-11.2118
稱真	-11.212
加所為	-11.212
總科	-11.2122
如蓮華	-11.2124
下釋成	-11.2127
萬有	-11.2127
大人	-11.2128
國名	-11.213
▁二會	-11.2131
下以經帖	-11.2132
高山	-11.2133
所護	-11.2134
定中	-11.2135
梵行品	-11.2136
勤苦	-11.2138
適悅	-11.2138
伽羅	-11.2139
具明	-11.2142
不次	-11.2144
樂求	-11.2146
一真	-11.2147
念慧	-11.2148
妬	-11.215
▁二徵	-11.2152
云何修菩薩道	-11.2152
卷第三	-11.2152
爾時如來	-11.2156
施物	-11.2159
諸善法	-11.2159
二嚴	-11.2161
無邊故	-11.2161
▁初揔標	-11.2162
一切諸行	-11.2162
菩薩所住	-11.2162
諸菩薩摩訶薩	-11.2163
胸	-11.2168
等法界無量	-11.2169
謂有問言	-11.2169
鄙	-11.2173
童蒙	-11.2175
毒蛇	-11.2175
旃檀	-11.2175
愈	-11.2176
嗟	-11.2177
四位	-11.2177
▁三結成	-11.2179
以立	-11.2181
商主	-11.2182
但由	-11.2182
等殊	-11.2184
外緣	-11.2186
捺	-11.2187
是權	-11.219
百千那由他	-11.219
順觀	-11.2193
剎塵數	-11.2193
號為	-11.2193
若菩薩摩訶薩安住此	-11.2196
十八不共	-11.2197
直進	-11.2197
於一切佛	-11.2199
最極	-11.2199
又約	-11.2199
隨文釋義	-11.22
無不現	-11.2202
故稱為	-11.2204
障對治	-11.2204
離有無	-11.2204
不壞信	-11.221
斯為	-11.2213
例此	-11.2215
有六行經	-11.2216
值遇	-11.2218
生苦	-11.2219
知一切眾生心	-11.222
智滿	-11.222
一切有為	-11.2225
以彰	-11.2234
中際	-11.2235
藝	-11.2238
無障礙法界	-11.2239
亦名為	-11.2239
二愚	-11.224
知時	-11.2241
令信	-11.2242
淫	-11.2243
我當云何	-11.2243
療	-11.2245
辛	-11.2246
心大歡喜	-11.2246
村	-11.2246
真常	-11.2247
戒取	-11.2249
常作	-11.225
為順	-11.2251
其德	-11.2251
念眾生	-11.2253
牢獄	-11.2253
不過	-11.2255
皆歡喜	-11.2258
不善法	-11.2259
宣揚	-11.2262
須彌山王	-11.2263
無所分別	-11.2264
欣慶	-11.2265
邏	-11.2266
但得	-11.2267
妄法	-11.2267
一切所有	-11.2268
形貌	-11.2268
勝處	-11.2269
以手	-11.227
筭	-11.2273
顯發	-11.2273
頓漸	-11.2275
非彼	-11.2275
成就普賢	-11.2277
無明住地	-11.2277
邪行	-11.2278
得見佛	-11.2279
加相	-11.2279
香普熏	-11.2283
加被	-11.2286
以用	-11.2287
觀其	-11.2289
先以	-11.2289
為世	-11.229
佛位	-11.2292
如月	-11.2292
一一佛所	-11.2295
成就如來	-11.2296
所緣境	-11.2296
拔苦	-11.2297
功德林	-11.2298
宮殿中	-11.23
文可知	-11.23
是故說	-11.2301
杜	-11.2302
自在法	-11.2304
見性	-11.2304
大旨	-11.2305
寶輪	-11.2306
覺了	-11.2308
園中	-11.2309
動轉	-11.2309
智觀	-11.2309
無有能	-11.231
先正明	-11.2311
復云	-11.2315
戴	-11.2318
小教	-11.2318
如帝網	-11.2321
可以意得	-11.2323
分別知	-11.2323
尾	-11.2324
隨所應	-11.2327
受法	-11.2328
宛然	-11.233
不廢	-11.233
是為十若諸菩薩安住此法	-11.2334
五千	-11.2334
主水神	-11.2335
右繞	-11.2336
佛音聲	-11.2337
慎	-11.2337
華香	-11.2338
迫	-11.2338
豪	-11.2339
得清涼	-11.2339
重明	-11.234
後總結	-11.2341
妙相	-11.2342
更相	-11.2345
第三明	-11.2345
之音	-11.2345
類通	-11.2349
不明	-11.2351
有說	-11.2352
大天	-11.2355
諸聲聞	-11.2356
非處	-11.2357
並為	-11.2363
多所	-11.2364
復應	-11.2364
三十一	-11.2367
於如來所	-11.2368
三十九	-11.2372
伏藏	-11.2374
來處	-11.2374
摧破	-11.2376
器中	-11.2376
三昧起	-11.2377
又依	-11.2381
無上智	-11.2382
少欲	-11.239
工	-11.2392
劫名	-11.2392
能示	-11.2397
生喜	-11.2399
晉經云	-11.2401
冷	-11.2401
緣因	-11.2401
鬪諍	-11.2405
欲以	-11.2405
大乘者	-11.2405
空理	-11.2406
一切音聲	-11.2406
欠	-11.2408
光明輪	-11.2409
不減	-11.2409
刃	-11.241
如空中	-11.2411
佛子是為	-11.2412
邪婬	-11.2412
鳴	-11.2413
孫	-11.2413
主林神	-11.2416
約時	-11.2421
治地住	-11.2421
求覓	-11.2425
『	-11.2425
普於十方	-11.2428
廣破	-11.2429
......	-11.2429
子曰	-11.243
疲厭	-11.2432
云何是諸佛	-11.2433
十住品	-11.2435
無勝	-11.2436
諸王	-11.2436
故說為	-11.2437
應生	-11.2439
性德	-11.244
持淨戒	-11.2441
光明王	-11.2442
面門	-11.2443
金剛藏菩薩言	-11.2444
無疲倦	-11.2447
復過	-11.245
第六會	-11.245
▁二正顯	-11.2455
寄顯	-11.2455
難勝	-11.2456
能救	-11.2457
多生	-11.2458
雖異	-11.246
標章	-11.2461
散滅	-11.2461
盡無有餘	-11.2466
有千	-11.2467
虛無	-11.2467
非斷	-11.2468
末世	-11.2471
爾許	-11.2474
又言	-11.2477
不離此	-11.2485
皆是如來	-11.2485
悉具足	-11.2489
不見佛	-11.249
得安樂	-11.2491
保	-11.2491
刑	-11.2491
但觀	-11.2492
速得	-11.2493
陀那	-11.2493
纖	-11.2493
親證	-11.2496
世界成就品	-11.2496
五段	-11.2497
殺害	-11.2498
阿僧祇品	-11.2498
恡	-11.25
成佛時	-11.2502
刀山	-11.2503
華藏莊嚴世界海	-11.2505
不死	-11.2507
為末	-11.2509
隨其心樂	-11.251
藥草	-11.251
疏文有三	-11.2511
受行	-11.2512
值佛	-11.2513
佛家	-11.2515
道塲	-11.2515
什	-11.2516
前句	-11.2521
無所作	-11.2521
維摩	-11.2522
雜華	-11.2524
意顯	-11.2524
審諦	-11.253
外境	-11.2532
開章	-11.2532
人眾	-11.2533
比量	-11.2534
諸難	-11.2535
各有十	-11.2535
四河	-11.2537
卷第二	-11.2537
無礙自在	-11.2538
不似	-11.2538
深重	-11.254
欲解	-11.254
見已	-11.2541
耳識	-11.2541
假說	-11.2542
今釋	-11.2544
天親	-11.2544
釋其	-11.2551
四辯	-11.2555
乃至廣說	-11.2556
賴	-11.2557
不異前	-11.2557
床	-11.2561
諸文	-11.2563
高顯	-11.2566
合掌恭敬	-11.2567
示成正覺	-11.2568
併	-11.2569
亦有二	-11.2569
為汝	-11.2569
先列	-11.257
振	-11.257
醍醐	-11.2572
滑	-11.2572
為表	-11.2572
智慧光	-11.2573
全攝	-11.2574
兆	-11.2574
陰陽	-11.2575
奴	-11.2577
奔	-11.2579
無明緣行	-11.258
損減	-11.2582
下品	-11.2582
正心住	-11.2583
感果	-11.2585
演暢	-11.2586
眾生見者	-11.2588
正意	-11.259
普放	-11.2599
樂具	-11.2601
三百	-11.2601
不由	-11.2604
而為供養	-11.2609
疏釋論	-11.2611
不破	-11.2617
普照三世	-11.2617
寶嚴	-11.2619
燭	-11.2622
自乘	-11.2623
而轉	-11.2624
寶手	-11.2626
於大海	-11.2626
具足清淨	-11.2627
離眾	-11.2628
須彌山頂	-11.2629
成實	-11.2632
第十二	-11.2641
覓	-11.2642
▁初敘	-11.2643
淨覺	-11.2643
染法	-11.2644
能容	-11.2645
大勢力	-11.2646
菩薩摩訶薩住此三昧	-11.2647
三宗	-11.2651
夕	-11.2652
離妄	-11.2653
紫	-11.2654
醜	-11.2655
貞	-11.2656
容有	-11.2656
十不可說	-11.2657
異說	-11.2658
生歡喜心	-11.2659
癡愛	-11.266
非獨	-11.266
皷	-11.266
皆悉清淨	-11.2661
獻	-11.2661
故為此通	-11.2664
度世	-11.2664
我時	-11.2665
說三世	-11.2665
妄情	-11.2667
愚夫	-11.2669
進退	-11.2676
化物	-11.2677
十方一切諸佛	-11.2682
寶色	-11.2684
長科	-11.2687
佛剎微塵	-11.2689
悉巳	-11.2689
眾惡	-11.2693
一一眾生	-11.2695
頭目	-11.2695
難陀	-11.2696
見一一毛孔	-11.2699
起悲	-11.2701
之殊	-11.2702
真體	-11.2702
決斷	-11.2703
智慧觀察	-11.2704
十忍	-11.2706
應真	-11.2706
真如隨緣	-11.2708
出世間法	-11.2709
十平等	-11.2712
世間所有	-11.2713
違順	-11.2713
復說	-11.2714
未證	-11.2715
西域記	-11.2718
色無色	-11.272
等處	-11.2723
初中三	-11.2725
可愛	-11.2725
無名	-11.2725
既得	-11.2728
妙月	-11.2728
得無生忍	-11.2729
魔境界	-11.273
若不爾者	-11.273
涯	-11.2731
八正	-11.2732
及涅槃	-11.2733
依他起	-11.2733
丸	-11.2733
滅壞	-11.2737
恐繁不	-11.2737
五字	-11.2738
爾時文殊師利菩薩	-11.2738
無法不	-11.2739
智度論	-11.274
敵對	-11.2741
冀	-11.2742
昇天	-11.2742
之剎	-11.2742
牛車	-11.2743
淨剎	-11.2743
不偏	-11.2744
然燈	-11.2744
覽	-11.2745
出所以	-11.2747
破闇	-11.2749
小千	-11.275
良醫	-11.2752
三行半經	-11.2755
皆悉成就	-11.2757
了別	-11.2757
經唐太原方山長者李通玄造論唐	-11.2758
器仗	-11.2759
亦二義	-11.276
易解	-11.2761
得此三昧	-11.2762
滿中	-11.2763
中邊	-11.2764
名句	-11.2768
愛敬	-11.2769
退轉	-11.2776
發大願	-11.2777
楞伽經	-11.2777
▁二荅	-11.278
現世	-11.278
六千	-11.2782
無間斷	-11.2783
微塵中	-11.2784
了了	-11.2792
光明幢	-11.2792
全無	-11.2793
無物	-11.2794
限量	-11.2796
登地	-11.2797
正念思惟	-11.2798
大山	-11.28
疑網	-11.2802
無盡功德	-11.2804
異道	-11.2806
善利	-11.2811
望後	-11.2814
我想	-11.2818
智正覺	-11.2818
若知	-11.282
變為	-11.282
會主	-11.282
如諸菩薩	-11.2823
以法身	-11.2823
一切佛土	-11.2825
不惜身命	-11.2825
所具	-11.2827
鑽	-11.2827
約機	-11.283
餘並可知	-11.2831
壯	-11.2832
先顯	-11.2832
共有	-11.2832
十類	-11.2833
顯說	-11.2833
師子奮迅	-11.2835
鳩槃茶王	-11.2835
於此段中	-11.2838
十方三世	-11.284
福州開元寺沙門志寧釐經合論	-11.2842
願求	-11.2844
反上	-11.2849
無相觀	-11.2853
十迴向中	-11.2854
莊子	-11.2855
而得成就	-11.2858
是為菩薩摩訶薩施	-11.2862
地獄中	-11.2863
圓成實	-11.2863
一切世界中	-11.2864
向前	-11.2866
如是觀察	-11.2866
之要	-11.2867
教海	-11.2868
全別	-11.2868
亦表	-11.287
邪正	-11.287
諸佛菩提	-11.2872
▁初施行	-11.2873
記別	-11.2873
福德藏	-11.2875
引接	-11.2875
圓融無礙	-11.2877
信力	-11.2879
無間道	-11.288
於善知識生	-11.288
自餘	-11.2882
十佛剎微塵數世界	-11.2884
五果	-11.2885
佛神通	-11.2888
弗	-11.289
逝	-11.2892
見取	-11.2893
廣大無量	-11.2894
至佛所	-11.2897
除斷	-11.2898
苦眾生	-11.29
初列	-11.2904
線	-11.2904
宏	-11.2904
能住	-11.2907
第十六	-11.2907
英	-11.2908
研	-11.2908
所離	-11.2908
集諦	-11.291
化樂天	-11.2912
拏	-11.2912
罪福	-11.2913
真實性	-11.2914
治之	-11.2916
得授記	-11.2921
善男子善女人	-11.2921
迦羅	-11.2922
周匝圍遶	-11.2923
調和	-11.2925
眼耳鼻舌	-11.2925
養育	-11.2927
約用	-11.2928
影響	-11.293
所共圍繞	-11.2931
摩羅	-11.2932
福德智慧	-11.2932
百萬億那由他	-11.2935
百千億那由他劫	-11.2937
微密	-11.2938
於過去	-11.2938
真實行	-11.2939
信根	-11.2939
隨所應化	-11.2946
開示演說	-11.2947
得一切法	-11.2949
文分為三	-11.2959
待緣	-11.2961
隨順一切眾生	-11.2962
大果	-11.2962
令除	-11.2965
正當	-11.2966
功用行	-11.2967
過去諸佛	-11.2968
爛	-11.2972
化主	-11.2973
魯	-11.2975
十自在	-11.2976
兔	-11.2976
之苦	-11.2981
共教	-11.2986
周行	-11.2988
一時頓	-11.299
楚	-11.299
麁細	-11.2991
異釋	-11.2992
必得	-11.2994
困	-11.2995
羯	-11.2995
至心歸命禮	-11.2996
諸神	-11.2997
嘉	-11.2997
大苦	-11.2997
大圓鏡智	-11.3
牙齒	-11.3001
學佛	-11.3001
不相離故	-11.3003
不怯弱	-11.3008
本業經	-11.301
依根	-11.301
無碍	-11.3014
位極	-11.3015
聖賢	-11.3017
無不在	-11.302
所目	-11.3021
淨修梵行	-11.3021
大性	-11.3022
真佛子	-11.3025
出處	-11.3029
不曉	-11.3029
性戒	-11.3033
無分別故	-11.3034
充遍	-11.3035
佛性者	-11.3035
摩尼王雲	-11.3036
妙高	-11.3036
海岸	-11.3042
三昧境界	-11.3047
妙嚴	-11.3047
彼論云	-11.3048
增上果	-11.305
於諸法中	-11.3051
德藏菩薩	-11.3052
此識	-11.3053
兩重	-11.3053
始末	-11.3056
第二門	-11.3062
尊勝	-11.3066
有生滅	-11.3066
心法	-11.3067
超過一切	-11.3068
會三歸一	-11.3071
□□□	-11.3075
偈半頌	-11.3076
有剎	-11.3076
示現受生	-11.3076
所無	-11.3077
常恒	-11.3078
聳	-11.3079
亦復無	-11.3079
肘	-11.308
真實相	-11.308
大導師	-11.3081
持業釋	-11.3081
二萬一千	-11.3082
十善業道	-11.3083
健	-11.3084
謙下	-11.3086
五體投地	-11.3088
相收	-11.309
對境	-11.3093
無礙眼	-11.3093
生死流	-11.3094
留惑	-11.3098
界外	-11.3098
餘門	-11.3099
南西北方四維上下亦復如是	-11.3099
六種震動	-11.3099
先徵	-11.31
世界種中諸佛道場一切海眾	-11.3102
名數	-11.3103
釋迦牟尼佛	-11.3104
法堂	-11.3104
瞋心	-11.3105
十使	-11.3108
大神通力	-11.3108
佛興世	-11.3109
從三昧起	-11.3111
約境	-11.3111
彼諸眾生	-11.3115
善達	-11.3115
寂用無礙	-11.3115
千劫	-11.3115
諸苦惱	-11.3117
大梵天王	-11.3117
不動搖	-11.3119
相即故	-11.3119
詣佛	-11.3122
十住位	-11.3124
種種性	-11.313
於阿耨多羅三藐三菩提	-11.3134
彼世界中	-11.3135
華葉	-11.3135
憂喜	-11.3138
深淺	-11.3141
隱覆	-11.3143
堪聞	-11.3144
第二段	-11.3147
懺除	-11.3148
第一云	-11.3157
隋	-11.3162
伐	-11.3165
基	-11.3165
劒	-11.3168
君子	-11.3171
解脫長者	-11.3173
堅牢	-11.3173
一切諸佛於一念中	-11.3178
湯藥	-11.3179
洛叉	-11.3179
屋宅	-11.318
所宗	-11.318
狹劣	-11.318
稱實	-11.3181
恩德	-11.3182
理法界	-11.3182
光網	-11.3184
入佛境界	-11.3187
得自在故	-11.3188
来	-11.3188
同會	-11.3191
悉檀	-11.3192
憙	-11.3192
世出世間	-11.3196
族姓子	-11.3196
女身	-11.3197
諸菩薩等	-11.3199
三十七品	-11.3199
如此經	-11.3204
號之為	-11.3204
不揀	-11.3205
幻術	-11.3206
以況	-11.3208
當機	-11.3209
求解脫	-11.3214
施主	-11.3215
現影	-11.3215
圓淨	-11.3216
聞思	-11.3221
眼識	-11.3224
準知	-11.3224
還以	-11.3224
月佛	-11.3225
四蘊	-11.3227
分為十	-11.3227
現報	-11.3227
同在	-11.3227
體相用	-11.3229
變易生死	-11.3229
栴檀香	-11.3229
最清淨	-11.3233
如來出世	-11.3235
證信	-11.3237
智慧藏	-11.3238
朱	-11.3246
有一頌	-11.3247
有二句	-11.3247
伯	-11.3247
煙	-11.3247
主佛	-11.3249
別歎	-11.3252
解脫月菩薩	-11.3252
假實	-11.3253
齊等	-11.3254
集善根	-11.3254
問何	-11.3255
竹	-11.3255
功德林菩薩	-11.3256
漂溺	-11.326
稱讚授法	-11.3261
法味	-11.3262
簡擇	-11.3262
沙彌	-11.3265
八頌	-11.3267
計有	-11.3267
本經	-11.3267
從定起	-11.3268
淨慧	-11.3268
勤行精進	-11.3268
彈指	-11.327
普觀十方而說頌言	-11.3272
而興	-11.3272
後報	-11.3276
中皆有	-11.3277
速成	-11.3277
分別俱生	-11.3279
。」《	-11.3281
性相無礙	-11.3287
車乘	-11.33
之方便	-11.3301
動搖	-11.3301
十行位	-11.3303
意加	-11.3306
生滅門	-11.331
法界藏	-11.3311
於佛法	-11.3312
尋思	-11.3313
自位	-11.3313
終歸	-11.3315
嚴土	-11.3315
今復	-11.3316
廣大智慧	-11.3316
十忍品	-11.3319
不毀	-11.3321
脇	-11.3323
之終	-11.3323
染分	-11.3327
表示	-11.3328
無亂	-11.3328
初正明	-11.333
燃	-11.3331
弊	-11.3334
智首	-11.3335
亦未	-11.334
蒲	-11.3341
詺	-11.3342
紛	-11.3342
主河神	-11.3343
眾生心中	-11.3344
顯其相	-11.3345
塵沙	-11.3345
唯在	-11.3345
衢	-11.3347
金輪	-11.335
知眾生心	-11.3352
非器	-11.3354
請中	-11.3357
二三四	-11.3358
次辨	-11.3359
作是思惟	-11.3359
攝德	-11.3359
是為菩薩摩訶薩布施	-11.3366
此光	-11.3366
該於	-11.3369
萬劫	-11.3369
菩薩亦如是	-11.337
無去	-11.3372
於一切時	-11.3372
具多	-11.3377
增明	-11.3377
光音天	-11.3378
此宗	-11.3378
化益	-11.3381
因事	-11.3385
他作	-11.3388
起信論云	-11.3389
自下第二	-11.339
論經名	-11.339
有三義一	-11.3391
攝在	-11.3393
於中普現	-11.3394
初徵	-11.3396
餘教	-11.3397
無所取	-11.3399
香味	-11.3401
菩薩所修	-11.3402
教化成熟	-11.3404
勸令	-11.3406
所依止	-11.3407
歡喜行	-11.3411
菩薩位	-11.3412
有斯	-11.3418
從喻	-11.3419
四念處	-11.3421
儼	-11.3421
次有如來	-11.3421
他心智	-11.3421
掉	-11.3421
圭峯	-11.3427
無始終	-11.3428
阿鼻地獄	-11.3431
不喜	-11.3431
十八界	-11.3433
無偏	-11.3433
別喻	-11.3434
先牒	-11.3439
持業	-11.3441
夜摩天宮	-11.3441
開章別釋	-11.3442
入火	-11.3442
玻瓈	-11.3445
餘亦如是	-11.3446
侍衛	-11.3447
有六句	-11.3449
餘方	-11.3451
科文	-11.3455
成就清淨	-11.3456
出過諸天	-11.346
勸學	-11.3461
略標	-11.3461
亦兼	-11.3462
諸宗	-11.3462
惟願	-11.3464
則得一切諸佛無上	-11.3464
中各有	-11.3468
瑜伽論	-11.3468
種種色相	-11.3469
身體	-11.3469
猶如大海	-11.3472
如上所說	-11.3479
善知識所	-11.3479
頓悟	-11.3479
世界成壞	-11.348
燈光	-11.3481
不二法門	-11.3481
量智	-11.3485
十二句	-11.3486
無有生	-11.3487
十千億	-11.3487
今欲	-11.3488
不增減	-11.3489
一偈半	-11.349
入三世	-11.3491
引生	-11.3493
一切莊嚴具	-11.3495
灌頂住	-11.35
金山	-11.3501
能造	-11.3506
無罣礙	-11.3509
真法界	-11.3511
明業用	-11.3513
辱	-11.3515
冬	-11.3515
初發心時便成正覺	-11.3516
十地論	-11.3517
能感	-11.3524
畢竟空	-11.3524
補特伽羅	-11.3527
現作	-11.3529
徧往	-11.353
習行	-11.3531
開闡	-11.3531
舍宅	-11.3534
一生補處	-11.3535
使其	-11.3536
來去	-11.3536
即說頌言	-11.3537
垂布	-11.3538
聰慧	-11.354
是故此處最吉祥	-11.3541
終至	-11.3541
破彼	-11.3546
化導	-11.3547
為戒體	-11.3548
給施	-11.3551
永絕	-11.3553
說四諦	-11.3553
字時入般若波羅蜜門名	-11.3554
滅盡定	-11.3555
善根力故	-11.3556
中千	-11.3556
復次善男子	-11.3557
雖通	-11.3559
悅豫	-11.356
雨法雨	-11.3564
如法華	-11.3567
眾生類	-11.357
不同前	-11.3571
之旨	-11.3571
怙	-11.3571
初始	-11.3573
此位中	-11.3575
所被	-11.3576
藥王	-11.3578
別章	-11.3578
虗無	-11.3579
得出世	-11.358
顯證	-11.3581
釋疑	-11.3581
開導	-11.3582
後三句	-11.3582
有三種一	-11.3582
天冠	-11.3584
深觀	-11.3585
譬如虗空	-11.3587
入法界品	-11.3589
淨行品	-11.3589
優鉢羅華	-11.3589
會融	-11.3593
其聲	-11.3596
俱來	-11.3598
念佛三昧	-11.3599
威神力故	-11.3599
異前	-11.3601
半滿	-11.3601
無礙慧	-11.3603
至誠	-11.3603
如是下結	-11.3603
李	-11.3609
綺語	-11.3612
照現	-11.3613
之過	-11.3618
周徧十方	-11.3619
各攝	-11.3623
離垢三昧	-11.3623
作是言	-11.3623
問前	-11.3624
可斷	-11.3625
於中分二	-11.3626
須知	-11.3626
十二部經	-11.3627
隨器	-11.3628
牖	-11.3629
鎧	-11.3629
既知	-11.3632
汝詣彼問菩薩云何學菩薩行修菩薩道	-11.3633
語言道	-11.3634
於法自在	-11.3637
以此法	-11.3638
智神通	-11.3638
第二云	-11.3639
日藏	-11.3639
凝然	-11.364
正陳	-11.3644
未見	-11.3645
乃至十地	-11.3645
具矣	-11.3646
亦同此說	-11.3651
後辨	-11.3652
善男子我唯知此	-11.3652
佛功德海	-11.3652
離煩惱	-11.3654
牒舉	-11.3662
略有四	-11.3663
聲聞眾	-11.3663
無減	-11.3664
半明	-11.3666
不思議法	-11.3666
一一光明	-11.3669
有幾	-11.367
分三初	-11.3671
十行頌	-11.3671
含藏	-11.3675
悉能示現	-11.3676
七頌	-11.3677
證真如	-11.3679
藏三昧	-11.3681
極微塵數	-11.369
巳還	-11.369
恒出	-11.3691
猶是	-11.3692
在纏	-11.3693
槃	-11.3694
綺	-11.3695
梵世	-11.3696
發光	-11.3697
四十一	-11.3698
上界	-11.3699
衍	-11.37
羅睺	-11.37
摩竭	-11.3701
善男子譬如	-11.3701
天龍	-11.3701
籍	-11.3703
大數	-11.3706
希奇	-11.3708
m	-11.3714
i	-11.3714
<	-11.3714
g	-11.3714
生貴住	-11.3715
二列名結數	-11.3717
昔有	-11.3717
善學	-11.3717
經歷	-11.3721
如來往昔	-11.3721
遍遊	-11.3722
明此位	-11.3722
果行離	-11.3723
行斯道	-11.3723
眾妙寶	-11.3724
𢌞向	-11.3726
普現十方	-11.3731
辨釋	-11.3734
名利	-11.3734
勝慧	-11.3735
穢土	-11.3736
菩提身	-11.3737
業果報	-11.3738
所可	-11.374
諸佛功德	-11.374
能求	-11.3742
不殺	-11.3749
隨諸眾生心	-11.3759
諸天眾	-11.3759
結彈	-11.376
不愛	-11.3763
有多義	-11.3763
四魔	-11.3765
一百二十	-11.3766
相狀	-11.3773
諸佛正法	-11.3774
寶雲	-11.3777
總為一	-11.3777
頓成	-11.3779
此國	-11.378
入一乘	-11.378
已前	-11.3782
其中有	-11.3783
福業	-11.3784
通辨	-11.3785
但顯	-11.3786
梵天王	-11.3788
祥	-11.3789
宇	-11.3794
倚	-11.3796
虧盈	-11.3797
輕慢	-11.3797
不犯	-11.3797
泣	-11.3799
史	-11.38
見佛身	-11.3802
正在	-11.3803
層級	-11.3804
陿	-11.3804
江河	-11.3805
所以然者	-11.3808
古佛	-11.381
界內	-11.3814
由善知識	-11.3818
無有疲厭	-11.3819
十住位中	-11.382
音聲為體	-11.3821
大品云	-11.3822
右手	-11.3822
不遠	-11.3823
有九種	-11.3825
現瑞	-11.3828
所染	-11.3829
眾集	-11.383
等者等取	-11.383
普見十方	-11.3831
惡道苦	-11.3832
通難	-11.3833
多類	-11.3836
略列	-11.3836
俱融	-11.3837
世界微塵等	-11.3837
兜率天王	-11.3841
悔過	-11.3843
已還	-11.3848
等者謂	-11.3851
第二對	-11.3851
速證	-11.3852
初一句總	-11.3853
當為汝說	-11.3858
法性土	-11.3863
領受	-11.3867
奉施	-11.3868
五位中	-11.3872
有殊	-11.3873
萬類	-11.3876
涌	-11.388
賓	-11.3882
教誡	-11.3883
圓宗	-11.3885
權小	-11.3887
一切智海	-11.3888
童真	-11.3888
遊步	-11.3888
利鈍	-11.3889
料簡	-11.3891
牆	-11.3893
摩竭提國	-11.3895
一月	-11.3899
無量無數劫	-11.39
使得	-11.39
蘊界處	-11.3901
鑑	-11.3902
最勝智	-11.3903
先牒前	-11.3905
明因果	-11.3907
不懈	-11.3908
鐸	-11.3908
於虗空中	-11.3909
於一毛孔	-11.3912
觸境	-11.3912
不由他教	-11.3914
經書	-11.3914
受眾苦	-11.3915
見普賢菩薩	-11.3917
龍神	-11.3918
寂靜音	-11.392
如瑜伽	-11.3921
有所得	-11.3922
資財	-11.3922
垢淨	-11.3923
彼不思議	-11.3923
生起因	-11.3924
十種智	-11.3929
世界海中	-11.3932
普觀十方	-11.3935
耳鼻	-11.3937
邪命	-11.3938
普覆一切	-11.3938
以之為	-11.394
薩婆多	-11.3946
並通	-11.3949
中有五	-11.3951
光明遍照	-11.3953
無著行	-11.3955
大捨	-11.3958
准思	-11.3963
十方諸國土	-11.3969
無數眾生	-11.397
牀	-11.397
方處	-11.3972
一真法界	-11.3973
無厭倦	-11.3974
無慚	-11.3976
報應	-11.3976
無能測	-11.3978
囊	-11.3979
送	-11.398
試	-11.398
其源	-11.3981
常放	-11.3981
彼福德	-11.3981
貫穿	-11.3983
妄分別	-11.3985
結請	-11.3987
先際	-11.3987
洽	-11.3991
揀於	-11.3991
承佛力	-11.3993
遠離諸	-11.3993
對現色身	-11.3993
就人	-11.3993
巴	-11.3995
三攝德圓滿	-11.3998
大光王	-11.3998
其華	-11.3999
敏	-11.4
百佛	-11.4001
身語意	-11.4002
無量壽	-11.4003
2	-11.4004
不相似	-11.4005
城邑聚落	-11.4005
復次佛子	-11.4008
正釋文	-11.401
壞相	-11.4014
便生	-11.4019
種種不同	-11.4021
五品	-11.4023
說之為	-11.4023
權教菩薩	-11.4024
所喻	-11.4024
華藏世界海	-11.4025
能令一切	-11.4025
師長	-11.4026
以偈讚	-11.4027
管	-11.4029
。】「△	-11.4029
難可得	-11.4029
魔怨	-11.403
妨難	-11.4031
解脫月菩薩言	-11.4032
高大	-11.4035
一切智性	-11.4035
饒益行	-11.4038
四倒	-11.4039
諸佛神力	-11.4043
見自身	-11.4043
助菩提	-11.4044
昔人	-11.4045
初會中	-11.4049
正趣	-11.405
諦理	-11.4053
約實	-11.4055
富貴	-11.4057
一切凡夫	-11.4057
九頌	-11.4063
▁三合	-11.4064
動亂	-11.4065
所迷	-11.4065
弟	-11.4068
盡理	-11.407
先正釋	-11.4071
入正受	-11.4073
拜	-11.4075
毛孔出	-11.4076
慈悲心	-11.4079
製	-11.4079
駕	-11.4079
初牒	-11.408
令使	-11.408
頸	-11.4082
匿	-11.4082
輔翼	-11.4082
耳根	-11.4083
異熟果	-11.4084
丘	-11.4085
更無餘	-11.4086
揀擇	-11.4086
無盡無盡	-11.4086
金翅鳥	-11.4087
釋文中	-11.4089
歎勝	-11.4089
出現於世	-11.409
悉無餘	-11.409
所謂下別	-11.409
權實雙行	-11.4091
曠劫	-11.4092
嬰	-11.4093
然後乃	-11.4094
雙運	-11.4094
我唯得此	-11.4095
慈行童女	-11.4095
同時具足	-11.4095
盡法界虗空界	-11.4096
假使有人	-11.4097
學無學	-11.4097
如意珠	-11.4097
觀察十方而說頌言	-11.4098
涅槃經云	-11.4098
依定	-11.4098
超情	-11.4102
大集	-11.4103
恒河沙等	-11.4103
令增長	-11.4103
何言	-11.4105
遞	-11.4105
無斷絕	-11.4105
容受	-11.4108
遍覆	-11.4112
諸佛智慧	-11.4112
嫉妬	-11.4114
悉平等	-11.4115
十二支	-11.4116
不捨菩薩	-11.4123
能覺	-11.4124
方可	-11.4126
諸諦	-11.4126
二釋名者	-11.4126
旨趣	-11.4127
於中初一	-11.4127
▁二正明	-11.4128
不動心	-11.4128
五十二	-11.4131
字母	-11.4134
求佛道	-11.4135
求佛智	-11.4139
雨寶	-11.414
妙眼	-11.4146
即空故	-11.4148
香幢	-11.4148
不屬	-11.4154
波羅蜜多	-11.4155
生疲厭	-11.4159
座體	-11.416
念善知識	-11.4164
八正道	-11.417
圭山	-11.417
窺	-11.4172
孟	-11.4172
螺	-11.4172
長行中	-11.4174
卷舒	-11.4174
縷	-11.4175
饑	-11.4175
亦有二義	-11.4176
仗	-11.4179
日出	-11.4182
毘盧遮那如來	-11.4182
佛母	-11.4184
孤獨	-11.4184
更互	-11.4185
窮其	-11.4186
佛塔	-11.4186
而無所著	-11.4187
香𦦨	-11.4187
園苑	-11.4187
成唯識	-11.4188
波羅蜜海	-11.4188
對辨	-11.4192
嚩	-11.4194
心無所	-11.4198
親友	-11.4202
念念相續	-11.4205
無瑕	-11.4205
不可說不可說世界	-11.4206
有四十	-11.4206
勸發	-11.4206
一一皆有	-11.4207
盡虗空界	-11.4209
㝵	-11.421
如風	-11.4213
喜目	-11.4213
佛自說	-11.4218
承佛威神	-11.4219
之罪	-11.4221
為根本	-11.4222
平等性智	-11.4222
眾僧	-11.4222
壞苦	-11.4224
法身智身	-11.4226
所有莊嚴	-11.4226
佛果位	-11.4226
爾時金剛藏菩薩	-11.4227
造立	-11.423
皆大歡喜	-11.4231
共同	-11.4234
非直	-11.4236
佛語	-11.4237
日天子	-11.4237
坑	-11.4239
十二種	-11.4242
拔出	-11.4243
通用	-11.4244
略有二	-11.4245
無邊色相	-11.4249
行菩薩道	-11.4251
現佛身	-11.4254
等虛空	-11.4255
有三偈	-11.4256
大緣起	-11.4256
梵眾	-11.4257
如出現品	-11.4262
判為	-11.4264
劍	-11.4266
省	-11.4274
福慧	-11.4276
泰	-11.4279
有增減	-11.428
阿那含	-11.4282
鞞	-11.4286
悞	-11.4286
阿僧祗	-11.4287
起大悲心	-11.4287
互奪	-11.4288
寶香	-11.4289
辟支	-11.4289
法性融通	-11.4291
▁初顯	-11.4292
舒光	-11.4295
1	-11.4295
能出生	-11.4298
照理	-11.43
住佛所住	-11.4301
先牒前起後	-11.4303
其諸菩薩	-11.4309
傳云	-11.4311
能以一	-11.4315
▁四所為	-11.4316
契真	-11.4316
東西	-11.4318
尊敬	-11.4318
衣食	-11.4319
離繫	-11.432
十種力	-11.4321
不共佛法	-11.4322
不泯	-11.4328
善能分別	-11.4332
而轉法輪	-11.4335
入一切佛	-11.4337
如大海	-11.4339
次有香水海	-11.4343
為利眾生	-11.4345
一切法海	-11.4345
知一切世界	-11.4345
之士	-11.4347
一億	-11.4347
不現前	-11.4349
能含	-11.4352
糞	-11.4352
乃成	-11.4354
瓦	-11.4356
賢勝	-11.4356
共相應	-11.4358
空門	-11.4358
青黃	-11.4361
射	-11.4361
漫	-11.4363
大樹	-11.4365
伺	-11.4365
諸惡業	-11.4366
役	-11.4367
浴	-11.4369
不易	-11.4371
飢渴	-11.4371
稱量	-11.4372
以為供養	-11.4375
不害	-11.4378
妙峯山	-11.4379
惓	-11.4381
普雨一切	-11.4383
無功用行	-11.4384
夭	-11.4386
可化眾生	-11.4386
不乖	-11.4387
善根廻向亦復如是	-11.4387
廣如經說	-11.4389
目之為	-11.4389
善了	-11.439
大神變	-11.4391
作利益	-11.4391
普眼菩薩	-11.4391
雙亡	-11.4398
無能壞者	-11.4401
所演	-11.4402
無底	-11.4403
無礙辯	-11.4405
不肯	-11.4405
修惑	-11.4407
種諸善根	-11.4408
集助道	-11.4409
通收	-11.4409
悉周徧	-11.441
妙吉祥	-11.4412
燈明	-11.4415
華幢	-11.4415
善現行	-11.4417
不妄	-11.4419
方便三昧	-11.4421
所來	-11.4422
難度	-11.4422
瞿	-11.4422
善法行	-11.4424
金剛寶	-11.4424
是為第十	-11.4424
所有微塵	-11.4427
所作事	-11.4431
十力智	-11.4437
大誓願	-11.4438
三世所有	-11.4439
上所引	-11.4443
得失	-11.4445
一切波羅蜜	-11.4447
復何	-11.445
巨	-11.4455
無能所	-11.4458
一切智人	-11.4458
四十四	-11.446
於中初二	-11.4461
捨念	-11.4461
無忘失	-11.4462
於此南方	-11.4466
俱成	-11.4467
攞	-11.4468
瑕	-11.4469
風吹	-11.4469
三乘一乘	-11.4469
範	-11.4472
總在	-11.4477
雜穢	-11.4479
五蓋	-11.4479
真如門	-11.4482
堅實	-11.4484
教主	-11.4484
絕待	-11.4488
圓極	-11.4488
如經自具	-11.449
無體故	-11.4492
於阿耨多羅三藐三菩提得不退轉	-11.4494
結加趺坐	-11.4495
支節	-11.4497
以三昧力	-11.4498
普示	-11.4499
菩薩成就如是	-11.4504
攝報果	-11.4504
凡是	-11.4504
配之	-11.4505
一切神通	-11.4509
終成	-11.4509
寶所成	-11.4511
切音	-11.4512
道樹	-11.4516
十地十一地	-11.4517
吾我	-11.4518
小大	-11.4518
動念	-11.4519
妄執	-11.452
第一會	-11.452
現在諸佛	-11.4522
汝等應	-11.4523
恒河	-11.4526
可畏	-11.4528
是為第六	-11.4528
死後	-11.4529
菩薩住此地	-11.4531
分別演說	-11.4531
涅槃界	-11.4532
住壽	-11.4535
無倒	-11.4535
猶若	-11.4536
能摧	-11.4539
無住涅槃	-11.454
易知	-11.4541
直顯	-11.4541
無所入	-11.4542
此岸	-11.4543
題中	-11.4543
為母	-11.4544
真見道	-11.4544
淨月	-11.4547
永出	-11.4548
我於彼	-11.4548
無真實	-11.4548
剛	-11.4554
荷	-11.4556
罔	-11.456
矯	-11.4561
其城	-11.4562
覺支	-11.4563
軀	-11.4563
奈	-11.4568
遊戲神通	-11.4569
詔	-11.4573
於往昔	-11.4573
苦海	-11.4573
有劫名	-11.4573
而不失	-11.4574
弓	-11.4574
荷負	-11.4575
發露懺悔	-11.4575
或現不可說佛剎微塵數	-11.4576
攝餘	-11.4578
如來自在力	-11.4578
演出	-11.4581
餘別	-11.4581
微薄	-11.4581
一釋品名目	-11.4583
未嘗	-11.4583
脩多羅	-11.4584
二釋品來意	-11.4585
貪恚癡	-11.4585
不覩	-11.4585
十信心	-11.4587
老子	-11.4588
我昔	-11.4588
而說頌曰	-11.4589
悉共	-11.4589
生淨土	-11.459
慇懃瞻仰	-11.4591
譯者	-11.4595
何等為四	-11.4598
諸吉祥中最無上	-11.4598
我得菩薩解脫	-11.4599
刊定記	-11.4601
永不退轉	-11.4602
致敬	-11.4602
都結	-11.4603
上三義	-11.4603
無等等	-11.4603
花嚴	-11.4605
思擇	-11.4607
俱舍論	-11.4608
感動	-11.4611
互望	-11.4612
聞正法	-11.4613
無有我	-11.4613
安得	-11.4618
第四會	-11.463
明了法	-11.4632
中道義	-11.4637
第三重	-11.4639
無疑惑	-11.4641
文有五	-11.4644
生信解	-11.4646
無癡	-11.4647
離間	-11.4648
未顯	-11.465
若將	-11.4651
到於	-11.4657
甞	-11.4658
巧說	-11.4659
該通	-11.4664
所疑	-11.4667
低	-11.4667
無住處	-11.4667
文顯可知	-11.4669
前中四	-11.467
成就佛法	-11.467
毗尼	-11.4673
外事	-11.4674
寬狹	-11.4675
說種種法	-11.4679
精氣	-11.4679
曩	-11.468
來求	-11.4682
憎愛	-11.4684
色蘊	-11.4684
巍巍	-11.4685
目連	-11.4685
網羅覆其上	-11.4685
渴愛	-11.4685
平等無二	-11.4686
於一切世間	-11.4687
制伏	-11.4688
噐	-11.4688
功勳	-11.4689
無有間斷	-11.469
善根如是迴向	-11.469
深厚	-11.4691
不可說百千億那由他	-11.4692
不可破壞	-11.4696
普施	-11.4696
前後圍遶	-11.4698
不往	-11.4703
此總持者	-11.4707
極清淨	-11.4707
▁二頌	-11.4707
無戲論	-11.4709
正使	-11.4712
如幻化	-11.472
必依	-11.4722
敗壞	-11.4725
十數	-11.4729
六字	-11.4736
證涅槃	-11.4738
智燈	-11.474
形體	-11.4742
▁初依教趣求	-11.4747
蓮華光	-11.475
汝應觀	-11.4755
佛所說法	-11.4759
平等迴向	-11.4763
說不可盡	-11.4766
智慧燈	-11.4767
無中邊	-11.4767
鬪	-11.477
即唯識	-11.4771
第一依教趣求	-11.4771
奢	-11.4772
遷流	-11.4772
恒沙性德	-11.4774
何由	-11.4775
揀定	-11.4776
級	-11.4778
即體之用	-11.4778
金剛山	-11.4779
不計	-11.478
釋名分	-11.4782
深密經	-11.4783
毀犯	-11.4784
佗	-11.4784
善根亦爾	-11.4784
本尊毗盧遮那佛	-11.4789
受想	-11.4789
清涼山大華嚴寺沙門澄觀	-11.4791
終無有	-11.4791
有二偈	-11.4792
不唐捐	-11.4793
諭	-11.4795
眾生心行	-11.4796
繞無數帀	-11.4797
無有退轉	-11.48
口加	-11.4801
先世	-11.4801
於諸境界	-11.4801
得此法門	-11.4809
一切所作	-11.4811
根深	-11.4817
陀羅尼光明	-11.4818
歎深	-11.4819
十中初	-11.4819
頌歎	-11.482
遍應	-11.4822
有五十	-11.4822
癡惑	-11.4822
是為第九	-11.4823
以喻顯	-11.4825
五逆	-11.4828
依善知識	-11.4833
不可知	-11.4833
重請	-11.4833
法印	-11.4837
出世法	-11.4839
不可分	-11.484
空不空	-11.4843
上聲	-11.4843
所嚴	-11.4851
普散	-11.4852
願他	-11.4853
如實覺	-11.4853
日光明	-11.4854
帝青	-11.4862
等虛空界	-11.4869
道場一切海眾	-11.487
於中三初	-11.487
剛藏	-11.487
灾	-11.487
眾聖	-11.4871
蜂	-11.4871
階降	-11.4875
德雲	-11.4877
大法雨	-11.4877
匠	-11.4879
天宮殿	-11.4881
貞元	-11.4882
未甞	-11.4882
如意寶	-11.4884
歇	-11.4884
所列	-11.4885
迴向行中	-11.4886
如下說	-11.4888
光明徧照	-11.4889
猶豫	-11.4889
樂說無礙智	-11.4891
吝	-11.4894
元氣	-11.4896
可貴	-11.4899
願樂	-11.4899
為一切眾生作	-11.4908
世第一	-11.4909
科判	-11.491
安布	-11.4911
利益安樂	-11.4916
常勤修習	-11.4917
堪為	-11.492
妙寶莊嚴	-11.4921
隨緣成	-11.4924
如說行	-11.4925
不捨一切眾生	-11.4927
五十四	-11.493
重罪	-11.4931
是為第八	-11.4934
來至此	-11.4935
六段	-11.4936
天帝	-11.4937
盡未來	-11.4939
故結云	-11.494
亦同此	-11.4942
終始	-11.4949
性宗	-11.495
真正	-11.4951
不自生	-11.4953
器盛	-11.4954
所愛	-11.4954
重頌分	-11.4955
能加	-11.4957
涉有	-11.4963
是故名為	-11.4968
擔	-11.4973
所示現	-11.4973
辰	-11.4974
湯	-11.4975
無數香	-11.4976
悕	-11.4979
景	-11.498
本無今有	-11.4981
僕	-11.4982
亦令他	-11.4983
無明闇	-11.4983
袈裟	-11.4983
法師位	-11.4984
阿閦	-11.4984
有三重	-11.4986
嶮	-11.4987
十住十行十迴向	-11.4987
赫	-11.4987
來至我所	-11.4989
第五會	-11.4989
諸子	-11.4993
宣暢	-11.4994
無罪	-11.4995
一百四十	-11.4997
映奪	-11.4997
遮救	-11.5003
大智光明	-11.5005
=	-11.5006
教章	-11.5007
恭敬禮拜	-11.5007
無倦	-11.5009
眾香	-11.501
一行經	-11.5012
怯	-11.5013
相傳	-11.5016
成敗	-11.5019
新舊	-11.5019
一切即一	-11.502
是為第一	-11.5021
初段	-11.5023
世世	-11.5025
勝鬘經	-11.5026
德雲比丘	-11.5027
深淨心	-11.5028
散動	-11.503
一門中	-11.5032
實理	-11.5035
可爾	-11.5038
文有十	-11.504
出生智慧	-11.5047
是為第五	-11.5048
親屬	-11.505
諸法自性	-11.505
迷理	-11.505
魔事	-11.505
以一音	-11.5051
序云	-11.5054
遞相	-11.5055
度脫一切眾生	-11.5056
斯由	-11.5058
天魔	-11.5061
他化天	-11.5061
無分齊	-11.5063
觸受	-11.5063
心不亂	-11.5074
或有世界	-11.5078
忠	-11.5079
三種世間	-11.5079
所化眾生	-11.5082
躍	-11.5082
只為	-11.5082
迭	-11.5084
循	-11.5084
先解	-11.5085
覺樹	-11.5086
雙標	-11.5086
占	-11.5086
依止厭	-11.5087
趣求後友	-11.509
五分法身	-11.5091
無始無終	-11.5091
種種神通	-11.5093
統收	-11.5094
形類	-11.5096
世主妙嚴品	-11.5097
於意云何	-11.5097
智微細	-11.5097
放眉間光	-11.5099
而不證	-11.5103
普賢文殊	-11.5104
常懷	-11.5107
諸法空	-11.5108
解脫法門	-11.511
翻譯	-11.5111
帖前	-11.5111
空即色	-11.5111
菩薩住處	-11.5114
初句為總	-11.512
以諸善根	-11.512
之器	-11.512
周迴	-11.5121
色無色界	-11.5127
初結前	-11.5128
惑亂	-11.513
悉圓滿	-11.5132
覺慧	-11.5136
常現在前	-11.5136
一多無礙	-11.5141
慧日	-11.5142
此世界中	-11.5142
語言法	-11.5143
光照十方	-11.5144
無熱	-11.5147
空無我	-11.515
上文云	-11.5151
圓教中	-11.5152
歎其	-11.5162
準思	-11.5163
興供養	-11.5169
一切大眾	-11.5171
一剎那際	-11.5173
是為第四	-11.5174
報業	-11.5174
手執	-11.5178
以根本智	-11.5179
竝是	-11.5179
各各不同	-11.5182
團	-11.5186
躭	-11.5189
預流	-11.5189
所生處	-11.5189
皎	-11.519
大智慧寶	-11.5191
鳩	-11.5192
所得法	-11.5193
稱曰	-11.5195
所行無礙	-11.5197
六十二見	-11.5197
瞬	-11.5197
瘦	-11.5198
故今答云	-11.5199
黑暗	-11.5199
八地巳上	-11.52
所迴善根	-11.5201
如須彌	-11.5202
豈能	-11.5202
親光	-11.5204
還歸	-11.5205
一一微塵中	-11.5206
一切眾生心行	-11.5207
無有斷絕	-11.5208
受苦樂	-11.5209
菩薩摩訶薩應如是知	-11.5209
阿彌陀佛	-11.5209
佛子諸佛世尊有十種	-11.5209
次一偈	-11.5211
告諸菩薩言	-11.5213
垢穢	-11.522
六行經	-11.5229
▁二見敬諮問	-11.5231
妙用自在	-11.5234
▁二徵釋	-11.5236
古釋	-11.5241
是為十若諸菩薩安住此法則得	-11.5241
汙	-11.5249
演說諸法	-11.5251
究竟如虛空	-11.5256
罪報	-11.5256
不壞迴向	-11.5256
諸含識	-11.5258
佛性論	-11.5258
障盡	-11.5261
天衣	-11.5261
而起大悲	-11.5262
鐵圍山	-11.5269
今將	-11.527
總持門	-11.5272
如文可知	-11.5272
所共	-11.5285
香摩尼	-11.5286
其首	-11.5287
盡虛空	-11.5289
七八九	-11.5296
禪體	-11.5298
譏	-11.5299
泛	-11.5301
價	-11.5301
一切世間境界	-11.5302
覆藏	-11.5304
純陀	-11.5306
貝	-11.5306
灑	-11.5307
是為第三	-11.5308
硨磲	-11.5308
紺青	-11.5309
蹔	-11.5309
受戒	-11.5309
辭退	-11.5309
名離垢	-11.5311
妙衣	-11.5312
隨文解釋	-11.5313
鬘雲	-11.5314
或號	-11.5315
頂禮佛足	-11.5315
塵塵	-11.5316
無滯	-11.5316
諸佛法如是	-11.5316
諸惡道	-11.5317
題目	-11.5318
出一切佛剎微塵數	-11.5319
不即不離	-11.5325
相好莊嚴身	-11.5326
小劫	-11.5329
如影像	-11.5329
以神通力	-11.5332
伽陀	-11.5333
圓寂	-11.5336
於生死中	-11.534
所縛	-11.5342
根未熟	-11.5343
胎生	-11.5346
先別明	-11.5348
約終教	-11.535
雙絕	-11.5352
因緣集	-11.5353
輪圍	-11.5357
於一切剎	-11.5357
是為第二	-11.5357
是為第七	-11.5357
超絕	-11.5358
出世間智	-11.536
充滿一切法界	-11.5361
妙色身	-11.5365
大人相	-11.5368
測量	-11.5372
▁初辨	-11.5373
王城	-11.5373
【【	-11.5373
二所謂下	-11.5377
緣成故	-11.5381
此菩	-11.5384
章云	-11.5385
德備	-11.5389
所成德	-11.539
香王	-11.5391
此女	-11.5396
賣	-11.5396
雜色	-11.5399
爭	-11.54
煥	-11.54
第二重	-11.5403
▁初結前生後	-11.5405
十二年	-11.5406
撫	-11.5407
于闐	-11.5409
擾	-11.5411
互為主伴	-11.5411
未足	-11.5412
眾像	-11.5413
阿蘭若	-11.5415
自高	-11.5416
!」	-11.5416
毀謗	-11.5417
政	-11.5417
未斷	-11.5417
選擇	-11.5419
怨親	-11.542
功成	-11.5421
祗	-11.5421
寂寞	-11.5422
無縛無著解脫	-11.5423
病苦	-11.5424
長科為	-11.5426
之源	-11.5427
來乞	-11.5427
造惡	-11.5427
一切佛事	-11.5428
無懈	-11.5428
甚深三昧	-11.543
違理	-11.5432
如法華經	-11.5434
情識	-11.5434
安坐	-11.5435
十二分	-11.5436
靈山	-11.5437
置於	-11.5437
若諸菩薩安住其中	-11.5437
有兩行半經	-11.5439
護持正法	-11.544
徃詣	-11.5441
種植	-11.5443
三途	-11.5444
不退住	-11.5447
禮懺	-11.5447
一切眾生海	-11.5447
惡友	-11.5449
苦苦	-11.545
所知境	-11.5455
普音	-11.5456
▁二揔	-11.5456
無量佛剎	-11.5457
有二頌	-11.5457
▁三約	-11.5459
普見一切	-11.5459
因果俱	-11.5463
染汙	-11.5464
寄同	-11.5466
存泯	-11.5467
乃至第十	-11.5468
普入法界	-11.547
堅住	-11.5471
周遍法界	-11.5472
歎眾	-11.5475
正命	-11.5475
現神變	-11.5476
縱廣	-11.5488
除障	-11.5496
無疲厭心	-11.5498
幾時	-11.55
▁初別明	-11.5502
▁初列	-11.5504
【△	-11.5506
熏修	-11.5507
不改	-11.5511
遍往	-11.5514
無瞋	-11.5517
之一字	-11.5519
激	-11.552
白銀	-11.5523
怡	-11.5524
初來意者	-11.5525
漩澓	-11.5527
血肉	-11.5528
翼	-11.5528
百億閻浮提	-11.5529
無來無去	-11.5531
楞嚴	-11.5531
大文第三	-11.5532
證實	-11.5532
捐	-11.5535
令得解脫	-11.5536
劫轉變	-11.5536
相似身雲	-11.5536
日月星宿	-11.5538
行六波羅蜜	-11.5539
後段	-11.5542
皆幻住	-11.5544
一切眾會	-11.5549
八禪	-11.555
功力	-11.555
可愍	-11.5552
歸真	-11.5553
一塵中	-11.5554
大慈悲心	-11.5557
四結數	-11.5557
法界虛空界	-11.5559
見多佛	-11.5564
今乃	-11.5566
無功智	-11.5567
遙見	-11.5572
信自心	-11.5575
菩薩摩訶薩又作是念	-11.5576
於一微塵中	-11.5582
十蓮華藏	-11.5582
句句	-11.5582
不斷佛種	-11.5583
二利行	-11.5584
百福	-11.5587
慈念	-11.5588
要由	-11.559
如因陀羅網	-11.5592
德圓	-11.5594
一滴	-11.5596
故彼經云	-11.5598
眾病	-11.5599
有二十句	-11.56
別開	-11.56
名句文	-11.5601
二佛子下	-11.5605
爽	-11.5606
干	-11.5608
巧便	-11.561
不定性	-11.5611
鹹	-11.5612
近善知識	-11.5613
無定性	-11.5617
一切諸佛剎	-11.5617
分別了知	-11.5618
席	-11.5619
調柔果	-11.562
釋梵	-11.562
億千	-11.5625
艮	-11.5627
反成	-11.5627
不活	-11.5627
即其義也	-11.563
不測	-11.5631
寢	-11.5632
冲	-11.5633
盖	-11.5634
實諦	-11.5634
竊	-11.5635
恥	-11.5635
擇滅	-11.5635
教網	-11.5637
見無量佛	-11.564
具一切智	-11.5641
受持讀誦	-11.5641
客塵	-11.5643
塵毛	-11.5645
甚可愛樂	-11.5646
肢節	-11.5646
漸次南行	-11.5648
晉本	-11.5649
之辭	-11.565
傾動	-11.5651
奉事	-11.5655
惱亂	-11.5656
曼殊尸利	-11.5659
羅網	-11.5659
昭然	-11.566
莫能測	-11.566
重疊	-11.5662
別句	-11.5664
之頃	-11.5665
所成行	-11.5668
發心功德品	-11.5669
知恩	-11.5673
悉以迴向	-11.5674
十層	-11.5675
消除	-11.568
漏無漏	-11.568
普集	-11.568
求正法	-11.5682
丈	-11.5685
生芽	-11.5686
間斷	-11.5687
初成正覺	-11.5694
不惱	-11.5694
令成熟	-11.5695
愛取有	-11.5698
令我得	-11.5701
第三段	-11.5703
一切法平等	-11.5706
相續次第	-11.5707
長子	-11.5708
不懼	-11.5711
在虛空	-11.5715
所悟	-11.5725
供給	-11.5727
叫	-11.573
四十六	-11.573
諸神變	-11.5733
略有三	-11.5733
掩	-11.5734
涕	-11.5735
推功	-11.5736
並顯可知	-11.5736
毗盧遮那佛	-11.5739
昔因	-11.5739
眾會說法	-11.574
四無量心	-11.5741
谷響	-11.5742
一代	-11.5744
▁南無大方廣佛華嚴經	-11.5747
往復	-11.5748
含識	-11.5748
怯弱	-11.575
損惱	-11.5753
而說偈言	-11.5753
甚深廣大	-11.5759
寂然不動	-11.576
海雲比丘	-11.576
歡悅	-11.5763
摩那	-11.5764
▁三總結	-11.5765
雙遮	-11.5767
▁二正釋	-11.5772
疲懈	-11.5774
搖	-11.5775
外別有	-11.5778
微妙音聲	-11.5781
海幢	-11.5789
嚴淨佛剎	-11.5789
寂定	-11.5791
無分量	-11.5791
自然智	-11.5793
有五行半經	-11.5793
釋相中	-11.5794
普於一切	-11.5795
攝報	-11.5797
而不礙	-11.5799
無上勝	-11.5803
翻前	-11.5812
無恚	-11.5813
諸禪定	-11.5814
▁初頌	-11.5817
不濁	-11.5818
此比丘尼為說法門名	-11.5819
志性	-11.582
只是	-11.5821
作如是說	-11.5821
稱根	-11.5822
不疲	-11.5822
見諸如來	-11.5822
正釋經文	-11.5824
忍可	-11.5825
非無因	-11.5826
至于	-11.5827
長養一切	-11.5835
無明滅	-11.5839
天主	-11.5839
投身	-11.5841
翅	-11.5841
眼耳	-11.5847
令彼眾生	-11.5847
聖凡	-11.585
戮	-11.585
不住道行勝	-11.585
必具	-11.5851
句數	-11.5851
覈	-11.5852
欲悉知	-11.5854
城郭	-11.5857
佛種不斷	-11.5859
立宗	-11.586
斯陀含	-11.586
會緣入實	-11.5861
聖王	-11.5861
維摩詰	-11.5862
崖	-11.5862
圓融具德	-11.5863
寐	-11.5868
碼碯	-11.5868
千二百	-11.5868
惡知識	-11.5869
純一清淨	-11.5871
戀慕	-11.5872
大方廣佛華嚴經疏鈔會本第	-11.5873
炳然	-11.5874
退屈	-11.5876
無悔	-11.5876
火坑	-11.5878
尸波羅蜜	-11.5879
更加	-11.588
▁五指示後友	-11.5881
不動優婆夷	-11.5882
復次佛子譬如	-11.5883
寶積	-11.5885
大丈夫	-11.5885
說儀	-11.5885
功行	-11.5885
是為如來	-11.5886
互嚴	-11.5886
之所成就	-11.5887
儒道	-11.5889
校量勝	-11.589
一切諸菩薩行	-11.5891
商人	-11.5892
十二分教	-11.5892
獨覺乘	-11.5892
皆不可得	-11.5895
決定信	-11.5895
充滿虛空	-11.5898
阿耨菩提	-11.59
亦不住	-11.5903
有八種	-11.5903
第六識	-11.5906
▁四釋文	-11.5906
位中行	-11.5906
兩門	-11.5909
應發如	-11.5909
一切塵中	-11.5911
如是展轉	-11.5918
後二頌	-11.592
於東方	-11.5922
互參	-11.5924
山河	-11.5924
如是等種種	-11.5925
敬重	-11.5929
如來藏性	-11.593
阿耨	-11.5932
散壞	-11.5938
最尊	-11.5941
水月	-11.5942
一部經	-11.5944
會歸	-11.5945
卷第五	-11.5946
無變易	-11.5949
梵本中	-11.5949
歷位	-11.5951
餓	-11.5962
五濁	-11.5966
霧	-11.5967
罰	-11.5968
淨水	-11.5969
力持身	-11.5969
見佛性	-11.5971
一切智乘	-11.5971
丑	-11.5971
某甲	-11.5972
跪	-11.5972
三賢十聖	-11.5972
現神通力	-11.5974
唐三藏	-11.5974
黎	-11.5974
廁	-11.5974
深理	-11.5974
妙觀察智	-11.5975
鳥跡	-11.5975
額	-11.5975
十度行	-11.598
斯乃	-11.598
如是等而為上首其數無量	-11.598
皮膚	-11.5981
徐	-11.5981
䭾	-11.5984
今現在	-11.5985
乳母	-11.5986
印印	-11.5986
分限	-11.5987
天龍夜叉	-11.5988
重閣	-11.5988
非有無	-11.599
無所罣礙	-11.599
離我我所	-11.5994
菩薩摩訶薩如是迴向時	-11.5996
目首	-11.5997
布列	-11.5999
剎利	-11.5999
譬如幻師	-11.6
經無量劫	-11.6001
略引	-11.6001
超諸世間	-11.6002
至一切處迴向	-11.6003
同一緣起	-11.6003
或復見為	-11.6006
往詣道場	-11.6006
中復二	-11.6009
聖位	-11.6012
還復	-11.6018
坐禪	-11.6021
初總舉	-11.6021
唯屬	-11.6026
寬廣	-11.6029
釋本文	-11.603
十號	-11.604
法華經云	-11.6048
共不共	-11.6049
光耀	-11.605
性起品	-11.6051
掉舉	-11.6051
如淨名	-11.6052
配屬	-11.6054
歸趣	-11.6061
伎	-11.6072
具足圓滿	-11.6074
娛	-11.6074
聞此經	-11.6075
具斯	-11.6076
捉	-11.6076
入於涅槃	-11.6076
章曰	-11.6077
脣	-11.6078
煩惱垢	-11.6082
轍	-11.6083
阿鼻	-11.6084
煩惱染	-11.6087
下疏釋	-11.6087
苦聚	-11.6088
達磨	-11.6088
縣	-11.6089
殄	-11.6089
樣	-11.6089
被甲	-11.6089
無怯	-11.6091
交參	-11.6092
檢	-11.6092
無始時來	-11.6094
列其名	-11.6097
諍訟	-11.6097
如文具明	-11.6101
一長科經意	-11.6101
汝詣彼問	-11.6103
普德淨光	-11.6103
燈王	-11.6108
發如是心	-11.6109
諸供養具	-11.6109
太極	-11.6111
眾藝	-11.6111
豈異人乎	-11.6112
無依止	-11.6113
無所有處	-11.6114
諸菩薩摩訶薩應如是知	-11.6127
表十地	-11.6128
露地	-11.6129
一切剎土	-11.613
百歲	-11.6132
我於爾時	-11.6133
悉能受持	-11.6134
其中所有	-11.6138
雷震	-11.6147
略有二種	-11.6148
兩段	-11.6148
總有四	-11.6149
心王菩薩	-11.6149
治障	-11.615
最妙	-11.6153
寶車	-11.6158
相參	-11.6158
種種神變	-11.6158
老病死	-11.6161
有兩重	-11.6161
偏多	-11.6162
普遊	-11.6163
那羅	-11.6166
次二約	-11.6168
時善財童子頂禮其足	-11.6168
財位	-11.617
喜悅	-11.6171
十玄門	-11.6173
繫念	-11.6183
宴	-11.6184
無空過者	-11.6184
嘗	-11.6185
緩	-11.6188
此二無礙	-11.619
解深密經	-11.619
諸三昧門	-11.6191
▁三辨	-11.6197
焚燒	-11.6198
摽	-11.6199
非想非非想	-11.62
封	-11.6202
闢	-11.6203
渠	-11.6205
鉤	-11.6208
臨終	-11.6208
依體起用	-11.6208
苗	-11.6208
怕	-11.6208
房舍	-11.6208
暫時	-11.621
一日一夜	-11.6211
府	-11.6212
橫竪	-11.6213
於一切劫	-11.6214
思益	-11.6216
資生之具	-11.6216
技藝	-11.6218
佛子住於此	-11.6219
有七行經	-11.6219
如來滅後	-11.622
一切妙寶	-11.6221
若廣說者	-11.6222
於汝意云何	-11.6224
疑悔	-11.6227
一四天下	-11.623
稱之為	-11.6234
山間	-11.6234
無分限	-11.6236
憂悲	-11.6236
給侍	-11.6238
頓斷	-11.6241
還源	-11.6241
滯寂	-11.6242
詣彼	-11.6253
得不壞信	-11.6265
無所從來	-11.6265
華樹	-11.6266
類例	-11.627
夜摩天王	-11.627
入見道	-11.6271
等虗空界	-11.6278
未久	-11.6278
出離道	-11.6284
如真金	-11.6286
映蔽	-11.6289
有五句	-11.6294
是誰	-11.6295
至七地	-11.6295
安隱處	-11.6296
趣一切智	-11.6298
為菩薩時	-11.63
所計	-11.6302
獵	-11.6314
坎	-11.6317
評	-11.6317
隨好品	-11.6319
為汝說	-11.632
雨百萬億天	-11.6321
文殊師利菩薩摩訶薩	-11.6321
助伴	-11.6322
偶	-11.6323
鎮	-11.6324
首楞嚴	-11.6324
瑟	-11.6324
拯	-11.6327
初結前生後	-11.6327
搏	-11.6327
偏舉	-11.633
空無相無願	-11.633
普令眾生	-11.6334
諸友	-11.6334
薩羅	-11.6335
誰能	-11.6335
末會	-11.6338
十頌分二	-11.634
流轉生死	-11.6342
入般涅槃	-11.6343
而演說法	-11.6343
剎網	-11.6343
次列	-11.6344
芬陀利華	-11.6344
?』	-11.6345
聲聞藏	-11.6346
十方剎海	-11.6346
所種善根	-11.6348
略有三義	-11.6349
决	-11.6349
寶性論	-11.6351
無愧	-11.6351
陁	-11.6353
脩習	-11.6353
時非時	-11.6355
是菩薩生處	-11.6355
大勇猛	-11.6357
有二可知	-11.6358
後一結	-11.6359
月輪	-11.6363
立稱	-11.6364
前三句	-11.6366
頓具	-11.637
方面	-11.6371
體無二	-11.6371
一由旬	-11.6372
圓鏡	-11.6372
甚多	-11.6378
墮在	-11.6379
見正報	-11.6381
廣大佛事	-11.6381
梵志	-11.6382
財首	-11.6384
了諸法	-11.6387
奇妙	-11.6388
成熟一切眾生	-11.6391
無懈倦	-11.6393
生厭離	-11.6395
本寂	-11.6395
念念出生	-11.6396
世界塵數	-11.6399
堅固力	-11.6401
神天	-11.6408
▁四釋	-11.6413
密雲	-11.6417
亦見眾會	-11.6421
大文第二	-11.6424
總有三	-11.6424
氷	-11.6427
善惡業	-11.6429
唯局	-11.643
十里	-11.6432
卷第一	-11.6437
丹	-11.6437
籠	-11.6438
淚	-11.6438
準前	-11.6444
緒	-11.6446
結會古今	-11.6447
將釋此品	-11.6448
漩	-11.645
療治	-11.6452
鄰	-11.6453
七行半經	-11.6456
沮壞	-11.6456
正示法界	-11.6457
此解脫者猶如	-11.6457
中開出	-11.6457
一總標	-11.6458
死屍	-11.6463
能招	-11.6463
下別辨	-11.6465
十二行經	-11.6465
梁攝論云	-11.6466
爾時佛神力故	-11.6468
第三總結	-11.6469
巨海	-11.6469
千里	-11.6469
萬象	-11.6473
空無所有	-11.6473
現成正覺	-11.6474
覆蔭	-11.6475
明潔	-11.6476
一切菩提分法	-11.6478
皆生歡喜	-11.6481
如經說	-11.6482
童真住	-11.6483
悉能了知	-11.6484
放淨光明	-11.6485
間列	-11.6488
不可稱量	-11.6488
黃色	-11.6488
譯人	-11.6489
除疑	-11.6494
菩提場中	-11.6495
離垢光明	-11.6496
十中一	-11.6498
故不同也	-11.6498
然有二義	-11.6501
瑞相	-11.6508
所離障	-11.6514
願垂	-11.6515
疾病	-11.6515
受無量苦	-11.6516
住此地	-11.6517
隨舉一	-11.6517
如是下總結	-11.6518
分齊境	-11.652
寶聚	-11.6522
不可動	-11.6523
依如來藏	-11.6526
山林	-11.6526
諸天宮殿	-11.6539
濟度	-11.654
居家	-11.6541
捨身命	-11.6547
喚	-11.6551
所觀境	-11.6553
癡暗	-11.6558
俯	-11.6559
遍計所執	-11.6561
飜	-11.6564
歸向	-11.6565
生在佛家	-11.6566
捧	-11.6567
歟	-11.657
四結勸	-11.6571
瀑流	-11.6571
△	-11.6572
玩	-11.6573
慇懃	-11.6573
慈悲喜捨	-11.6575
相續不絕	-11.6575
挍	-11.6576
出家學道	-11.6576
自在王菩薩	-11.6576
福聚	-11.6576
無去無來	-11.6577
從兜率天	-11.6577
威神之力	-11.6577
於一世界	-11.6578
秘密	-11.6578
廣長舌	-11.6578
別譯	-11.6578
寶鬘	-11.658
人非人等	-11.6582
饒益有情	-11.6583
顯業用	-11.6583
聽聞正法	-11.6584
坐於道場	-11.6585
魔所攝持	-11.6586
十方各有一大菩薩	-11.6586
佛子云何為菩薩摩訶薩	-11.6588
根本無明	-11.6589
現受生	-11.6589
我得菩薩	-11.6591
普賢位	-11.6592
令諸眾生各別知見	-11.6595
廣說乃至	-11.6597
律師	-11.6599
毀壞	-11.6601
悔除	-11.6601
進善	-11.6602
念念常	-11.6602
充滿其中	-11.6603
不驚	-11.6605
牒上	-11.6609
此十法	-11.661
有十二句	-11.6617
而作是言	-11.6619
潮	-11.6627
情亡	-11.6629
更無異	-11.6629
應如是知	-11.6629
清白	-11.6629
無作用	-11.6629
偈分二	-11.663
翻破	-11.6632
大乘法師	-11.6632
八聖道	-11.6634
說十迴向	-11.6635
各不相知	-11.6636
結通十方	-11.6636
因緣和合	-11.6641
短劫	-11.6645
十行品	-11.6645
於彼佛所	-11.6646
迴向實際	-11.6647
歷事	-11.6652
沸	-11.6656
潛入	-11.666
解脫知見	-11.6663
了世	-11.6669
斬	-11.667
餘義如別章	-11.6674
不出此	-11.6675
檀越	-11.6676
助化	-11.6677
舊云	-11.6679
劫火	-11.668
為能治	-11.668
韋	-11.6681
鷲	-11.6689
佛滅後	-11.669
遽	-11.669
救苦	-11.6691
峰	-11.6692
混融	-11.6692
拒	-11.6692
編	-11.6693
世親釋云	-11.6693
譬如金剛	-11.6694
至文當知	-11.6697
婆須蜜	-11.6701
殺盜	-11.6702
于法界	-11.6703
三昧正受	-11.6703
着	-11.6703
約寄位	-11.6705
3	-11.6709
嚴麗	-11.671
轉更明淨	-11.6711
無疲	-11.6712
前二句	-11.6714
向實際	-11.6717
文中先	-11.6719
毛道	-11.6722
稱法性	-11.6723
纏縛	-11.6726
無所依止	-11.673
未免	-11.6731
萬億	-11.6731
十由旬	-11.6734
初二偈	-11.6734
脫門	-11.6735
隨文釋	-11.6742
欲貪	-11.6743
金剛輪	-11.6744
究竟彼岸	-11.6748
煩惱習氣	-11.675
無上覺	-11.6752
於佛所	-11.6754
光明普照十方	-11.6754
千由旬	-11.6759
南北	-11.6764
剎塵劫	-11.6769
無惱	-11.6769
▁二釋文	-11.6772
一一劫中	-11.6774
總題	-11.6775
上三句	-11.6778
愛染	-11.678
天主光	-11.678
心得自在	-11.6783
好惡	-11.6785
生萬物	-11.6785
識等五	-11.6789
終頓二教	-11.679
令一切眾生悉得	-11.6791
暮	-11.6799
答前問	-11.6801
玄微	-11.6802
祭	-11.6802
燋	-11.6803
住一切劫	-11.6806
晨	-11.6807
蚊	-11.6808
初三頌	-11.6809
森	-11.6809
心得安隱	-11.681
室利	-11.6812
填	-11.6813
迅	-11.6814
撿	-11.6815
穴	-11.6815
毘尼	-11.6815
超世	-11.6815
項	-11.6817
雞	-11.6818
香焰	-11.6818
教理行果	-11.6819
新華嚴經論卷第	-11.6819
芳	-11.6821
郎	-11.6822
嬈	-11.6827
莎	-11.6827
二十行頌	-11.6828
二而不二	-11.6828
十迴向位	-11.683
此中最下方	-11.683
疏義明匡山法雲寺憨山沙門德清提挈	-11.683
而告之言	-11.6831
國師	-11.6831
辭退南行	-11.6832
白言聖者	-11.6833
就機	-11.6834
後二偈	-11.6836
華嚴懸談會玄記卷第	-11.6836
前後圍繞	-11.6838
七十二	-11.6843
同一體性	-11.6844
開曉	-11.6849
又欲令一切眾生	-11.6856
舊來	-11.6858
六十四	-11.686
幢旛	-11.6863
□□	-11.6863
亂想	-11.6863
隨其所樂	-11.6864
成實論	-11.6867
萬境	-11.6872
獨立	-11.6882
昔日	-11.6882
例釋	-11.6882
有多種	-11.6887
同一法界	-11.6887
▁初標章	-11.6899
異熟識	-11.69
勝妙心	-11.69
普入三世	-11.69
諍論	-11.6903
猛火	-11.6906
推勝	-11.692
功德幢	-11.6924
所從來	-11.6926
旛	-11.6928
汝可	-11.6928
供養恭敬	-11.6933
筋	-11.6933
永寂	-11.6934
偷	-11.6936
涼	-11.6937
晦	-11.6939
撓	-11.694
妄惑	-11.694
曼	-11.694
整	-11.6942
諠	-11.6942
馱	-11.6942
敕	-11.6943
凶	-11.6943
香樹	-11.6944
贍	-11.6944
惶	-11.6944
結略顯廣	-11.6945
不二而二	-11.6945
垣	-11.6946
成所作智	-11.6947
芬	-11.6947
兜	-11.6948
息滅	-11.6948
初標數辨類	-11.6949
頻申	-11.6949
視聽	-11.695
妃	-11.6952
尊者舍利弗	-11.6954
出無數百千億	-11.6955
前中先	-11.6955
十五行經	-11.6955
次正釋文	-11.6955
六相圓融	-11.6956
十方諸世界	-11.6958
未曾失時	-11.6961
頭面禮足	-11.6961
轉淨法輪	-11.6962
師子幢	-11.6963
随	-11.6964
密嚴	-11.6965
間錯莊嚴	-11.6977
何者為十所謂	-11.6978
精勤修習	-11.6979
興雲	-11.6982
有漏無漏	-11.6982
普見諸佛	-11.6983
咸來	-11.6985
深入法界	-11.6986
無性釋云	-11.6987
報土	-11.6988
十一頌	-11.6988
下諸句	-11.6995
加請	-11.6997
供養於佛	-11.6998
章句	-11.6999
體用無礙	-11.7001
有六行半經	-11.7002
假設	-11.7004
住此三昧	-11.7007
告眾	-11.7008
進止	-11.7013
終極	-11.7021
舉體全	-11.7029
成如來力	-11.7031
一念相應	-11.7033
配釋	-11.7034
佛所住	-11.7039
修止觀	-11.7039
如次配	-11.7041
諸世界海	-11.7042
不敢	-11.7045
寶燈	-11.7046
毗舍	-11.7047
此會中	-11.7052
狀如	-11.7052
在母胎中示現	-11.7058
毛端處	-11.7059
喜足	-11.706
今皆懺悔	-11.706
寸	-11.7062
六七八	-11.7062
受變易	-11.7063
棲	-11.7064
躬	-11.7067
黃金	-11.7068
廟	-11.7068
艱	-11.7068
渧	-11.7068
豁	-11.7069
開悟一切眾生	-11.7069
前起後	-11.707
開悟眾生	-11.707
旁	-11.707
依瑜伽	-11.7072
逃	-11.7072
迴向於捨	-11.7076
欽	-11.7076
揀別	-11.7077
戀德禮辭	-11.7078
尸棄	-11.7078
釋提桓因	-11.7078
沙門婆羅門	-11.7079
貧乏	-11.7081
兩足尊	-11.7082
十二行半經	-11.7083
發無畏心	-11.7084
于闐國三藏沙門實叉難陀譯經	-11.7085
并其眷屬	-11.7087
海印道場十重行願常徧禮懺儀卷第	-11.7088
玅	-11.7089
▁三揔結	-11.7092
童男	-11.7093
調御師	-11.7094
𤼵菩提心	-11.7097
同真性	-11.71
愚癡闇	-11.7104
離斷常	-11.711
人壽	-11.7113
寶器	-11.7121
物機	-11.7122
兜率宮	-11.7125
無空過	-11.7127
則已能	-11.7128
充法界	-11.7133
萬里	-11.7134
皆得成就	-11.7143
以此義故	-11.7144
宜應	-11.7153
無有實	-11.7154
顯佛德	-11.7159
懺悔巳	-11.7159
如其所	-11.7168
一微塵中	-11.7169
初句標	-11.7171
徵列	-11.7174
散華	-11.7175
陜	-11.7176
四釋文者	-11.7179
互不相	-11.7179
頓實	-11.718
呈	-11.7181
妨云	-11.7184
米	-11.7186
次三句	-11.7186
勅	-11.719
光照耀	-11.7194
深奧	-11.7195
護小乘行	-11.7196
天帝釋	-11.7196
鋒	-11.7197
稽	-11.7197
運載	-11.7197
倍倍	-11.7198
墻	-11.7199
謀	-11.7199
百二十	-11.7199
普賢之行	-11.7202
詢	-11.7202
繁興	-11.7203
普照世間	-11.7207
幼	-11.7208
同時具足相應門	-11.721
𦟛	-11.7212
三摩鉢底	-11.7212
玄旨	-11.7212
差殊	-11.7213
愛憎	-11.7214
發心久近	-11.7214
十行半經	-11.7214
真子	-11.7215
坐蓮華藏師子之座	-11.7217
百分不及一	-11.7218
一文一句	-11.7219
思惟大海	-11.722
於其座上	-11.7222
毛光	-11.7223
我聞聖者善能誘誨	-11.7225
唯識論云	-11.7225
爾時普賢菩薩摩訶薩	-11.7228
巧分別	-11.7229
無不照	-11.7229
閻浮提內	-11.7231
所得果	-11.7231
所行境	-11.7244
見佛聞法	-11.7247
舌根	-11.7256
鈍根	-11.7259
守護一切眾生	-11.726
微塵數世界	-11.7262
長養善根	-11.7265
唯除如來	-11.7265
名句文身	-11.727
善女人	-11.7273
清淨如虛空	-11.7283
徒眾	-11.7284
略有五	-11.7285
厭苦	-11.7286
厭生死	-11.7287
圓頓	-11.7289
六品經	-11.729
覆護	-11.7293
解深密	-11.7295
後佛子下	-11.7296
入此門	-11.7297
以此善根令一切眾生	-11.7309
如光影	-11.7314
天地之	-11.7314
一一各有	-11.7316
日日	-11.732
荼	-11.7323
證成分	-11.7324
添	-11.7326
能趣入	-11.7327
恕	-11.733
貪嗔癡	-11.7331
飽	-11.7331
奚	-11.7334
周帀圍繞	-11.7337
一眾生身	-11.7338
刻	-11.7338
地獄畜生餓鬼	-11.734
原人	-11.7343
坦	-11.7344
欲言其	-11.7345
珊瑚	-11.7345
以覆其上	-11.7346
骨髓	-11.7347
賢聖海眾	-11.7348
輭	-11.7349
十一種	-11.7349
羼提波羅蜜	-11.735
無等倫	-11.7352
降伏眾魔	-11.7352
華藏世界海本尊毗盧遮那佛	-11.7353
而我云何能知	-11.7354
各於佛所	-11.7354
昔曾	-11.7355
有佛世界微塵數	-11.7357
足輪	-11.7361
修諸善根	-11.7364
相濫	-11.7366
堅密	-11.7368
下釋其相	-11.737
集福德	-11.737
月天子	-11.7371
因果交徹	-11.7371
一攝一切	-11.7373
探玄記	-11.7373
合掌而立	-11.7377
結屬	-11.7381
周普	-11.7382
逐機	-11.7383
轉輪王位	-11.7383
般若現前	-11.7383
為大法師	-11.7385
繫屬	-11.7396
普現其身	-11.7397
旨歸	-11.7398
前却	-11.74
示導	-11.7405
毫光	-11.7406
殊異	-11.7407
當作佛	-11.742
自證分	-11.7429
若干種	-11.743
方為真	-11.7437
未曾暫	-11.7444
真善知識	-11.7453
庭	-11.7455
撥無因果	-11.7457
十千劫	-11.7457
考	-11.746
文勢	-11.7462
輸	-11.7462
選	-11.7463
肇	-11.7464
平正	-11.7465
憒	-11.7468
趣菩提	-11.7469
不久當	-11.7471
奘	-11.7472
皆同此	-11.7472
積集善根	-11.7472
有八行經	-11.7474
大用無涯	-11.7476
群萌	-11.7477
呪術	-11.7479
無著無縛	-11.7479
蘊積	-11.7479
唵	-11.7481
菩提薩埵	-11.7481
辭無礙智	-11.7483
標列	-11.7486
若有眾生遇斯光者	-11.7487
菩薩一切海眾	-11.7487
群品	-11.7487
有六義	-11.7489
▁四謙巳推勝	-11.7491
歌詠讚歎	-11.7495
等眾生數	-11.7496
伏難	-11.7497
次有大人相	-11.7497
諸大聲聞	-11.7499
闇障	-11.7503
寶女	-11.7504
四天下微塵數	-11.7506
悉能往詣	-11.7506
所繫	-11.7507
丈六	-11.7509
足趺	-11.7511
彌勒菩薩摩訶薩	-11.7515
四維	-11.7517
疲勞	-11.7519
香積	-11.7527
莊嚴之具	-11.7528
力無所畏	-11.7533
金師	-11.7541
正念觀察	-11.7542
垢染	-11.7543
▁初正顯	-11.7547
二徵數	-11.7551
見普雨一切	-11.7552
觀世音菩薩	-11.7553
帝青寶	-11.7553
細尋	-11.7554
共集	-11.7555
經多劫	-11.7556
九十六	-11.7558
群黎	-11.7576
為人說	-11.7577
師子座上	-11.7577
庸	-11.7582
他化自在天王	-11.7583
悶	-11.7584
啼	-11.7585
藍	-11.7586
微少	-11.7589
匪	-11.7592
饒	-11.7593
腦	-11.7593
會普光明殿	-11.7594
普告	-11.7594
法身根本智	-11.7595
寂寥	-11.7596
阿彌陀	-11.7597
所被機	-11.7597
先總後別	-11.7598
院	-11.7598
詠	-11.76
衰惱	-11.76
一斷一切斷	-11.76
怨賊	-11.76
舉一全收	-11.76
欺誑	-11.76
接引	-11.7601
下中上	-11.7602
陀羅尼力	-11.7603
飄	-11.7605
橋	-11.7605
依他性	-11.7606
黑白	-11.7606
肝	-11.7606
匱	-11.7606
萌	-11.7607
泡	-11.7609
隨好光明功德品	-11.7609
慈父	-11.7611
無所有盡	-11.7612
奇哉	-11.7614
劉	-11.7615
悉以佛神力故	-11.7617
深細	-11.7617
十不可說百千億那由他佛剎微塵數	-11.7625
大智風輪	-11.7628
以善方便	-11.7632
是為魔業	-11.7635
助道之法	-11.7636
遠法師	-11.7639
性不可得	-11.764
錯謬	-11.7641
論議	-11.7642
孔目云	-11.7642
何要	-11.7646
眾患	-11.7651
黎庶	-11.7653
初住地	-11.7654
大品經	-11.7656
無功用智	-11.7656
能詮教	-11.7661
須彌山雲	-11.7661
本分中	-11.7664
演說正法	-11.7669
譬如日出	-11.7671
悉明見	-11.7686
能開示	-11.769
供養一切佛	-11.7702
分段身	-11.7704
一切眾魔	-11.7705
剝	-11.7705
偈頌前	-11.7706
壽量品	-11.771
菩薩有十事	-11.7711
普照十方一切世界	-11.7713
未熟	-11.7714
光所照	-11.7719
一切眾生語言	-11.772
壇	-11.7721
▁南無如是等	-11.7723
輻	-11.7724
自性清淨心	-11.7724
殃	-11.7725
峻	-11.7725
司	-11.7727
腸	-11.7727
祇洹	-11.7728
荒	-11.7728
攝善法戒	-11.7729
心一境性	-11.773
嶺	-11.7731
兮	-11.7733
模	-11.7735
爰	-11.7735
梵網經	-11.7736
奮	-11.7737
好醜	-11.7738
寡	-11.7738
忌	-11.7739
啞	-11.7741
出入息	-11.7742
生疑惑	-11.7743
眾生之類	-11.7744
楚毒	-11.7747
四衢道	-11.7747
來詣其所	-11.7749
舉要言之	-11.7751
焰慧地	-11.7751
涅	-11.7752
十四行經	-11.7752
未亡	-11.7753
不污	-11.7753
大那羅延幢勇健法	-11.7753
分為六	-11.7754
無性攝論	-11.7755
故次明之	-11.7755
生兜率天	-11.7756
牀座	-11.7757
損害	-11.7761
自知受記	-11.7761
結例	-11.7763
無下劣心	-11.7763
寶繒	-11.7764
妙法輪	-11.7766
往返	-11.7766
思慮	-11.7777
無色定	-11.7778
賢首品云	-11.7791
清涼山	-11.7793
色心等	-11.7794
謂此真如	-11.7794
願智果	-11.7796
曲躬	-11.7797
威勢身	-11.7801
億百千	-11.7805
於生死海	-11.7816
事事無礙法界	-11.7822
大山王	-11.7823
倣之	-11.7826
年歲	-11.7832
豫	-11.7835
將護	-11.7848
無來處	-11.7849
普見三世	-11.7857
諸漏	-11.7859
淳熟	-11.7862
祀	-11.7864
月十五日	-11.7865
矚	-11.7866
麥	-11.7867
顛	-11.7868
屋	-11.7868
亦復非	-11.7869
淨源	-11.787
阜	-11.7871
嶽	-11.7873
陂	-11.7874
言語道斷	-11.7875
楊	-11.7876
初地已上	-11.7876
正遍知	-11.7877
訪	-11.788
軌範	-11.788
四五六地	-11.7882
無處不至	-11.7882
我知法界	-11.7882
一切聲聞辟支佛	-11.7885
得法久近	-11.7885
卍字	-11.7886
貢高	-11.7886
犢	-11.7887
欲重宣其義	-11.7887
義理分齊	-11.7888
真諦三藏	-11.7888
心生尊重	-11.789
三佛子下	-11.789
諸剎土	-11.7892
新新	-11.7895
衣服飲食	-11.7895
無怯弱	-11.7896
恒不捨離	-11.7901
││││││	-11.7901
羣品	-11.7904
風畫	-11.7904
▁初揔顯	-11.7905
了達諸法	-11.7906
幡蓋	-11.7907
議曰	-11.7908
從緣無性	-11.7911
誦持	-11.7911
所不及	-11.7913
甚深微妙	-11.7913
火災	-11.7914
按定	-11.792
光徧照	-11.7923
損益	-11.7928
愍念	-11.7929
正趣菩薩	-11.7936
師子座雲	-11.7936
有分限	-11.7939
戒賢	-11.7951
熟教	-11.7952
仁慈	-11.7957
某處	-11.7961
維	-11.7964
得其名	-11.7981
癈	-11.7989
有一百一十	-11.7993
皆悉歡喜	-11.7996
勝熱	-11.7998
掃	-11.7999
無不周	-11.8
知眾生根	-11.8003
塵含	-11.8006
撥	-11.8007
此大樓閣	-11.801
鳥獸	-11.801
魂	-11.801
攀	-11.8013
僻	-11.8015
輞	-11.8016
霑	-11.8016
通達無礙	-11.8017
藤	-11.8018
革	-11.8019
炤	-11.802
恬	-11.8021
逼惱	-11.8022
窮究	-11.8023
農	-11.8024
纖塵	-11.8026
如鏡中像	-11.8027
諷誦	-11.8027
垣牆	-11.8029
澍	-11.803
安危	-11.8031
如經具明	-11.8032
周帀圍遶	-11.8034
庫藏	-11.8036
一步	-11.8037
發露	-11.8044
所從來國	-11.8045
性淨涅槃	-11.8046
音響	-11.8047
恒河沙數	-11.805
發大誓願	-11.805
悉分別知	-11.8052
有四重	-11.8053
申今	-11.8059
周遍十方	-11.806
諸有海	-11.8061
聖旨	-11.8065
習種性	-11.8066
光曜	-11.8067
除滅一切眾生	-11.8068
喻喻佛	-11.8068
我於彼時	-11.8076
貴賤	-11.8078
壞散	-11.8079
於一塵中	-11.8083
總有十	-11.8091
陀羅尼輪	-11.8097
諸有趣	-11.8099
相即相入	-11.8104
能以方便	-11.8107
功終	-11.8114
雜集論	-11.812
餘九別	-11.813
大哀	-11.8136
俱不可得	-11.8147
韻	-11.8147
▁初標舉	-11.8149
暖	-11.8149
片	-11.815
普周法界	-11.815
護煩惱行	-11.8153
鑛	-11.8154
現法樂住	-11.8154
迦旃延	-11.8155
朋	-11.8157
軸	-11.8158
牟	-11.8159
削	-11.8159
問訊	-11.8162
大同小異	-11.8162
勝慢對治	-11.8163
行住坐臥	-11.8163
暨	-11.8168
海印定	-11.8169
源底	-11.817
匹	-11.817
│	-11.8172
伎樂	-11.8172
此華藏世界海	-11.8172
一多相容不同門	-11.8173
十住十行十迴向十地十一地	-11.8173
莊嚴之事	-11.8173
貪恚	-11.8173
無私	-11.8174
乾竭	-11.8174
深旨	-11.8174
初文有三	-11.8175
有兩行經	-11.8177
不可稱計	-11.818
無盡功德藏迴向	-11.818
有一住處	-11.8181
入此定	-11.8182
繪	-11.8184
復有十千	-11.8186
煩惱熱	-11.8194
汝所問	-11.8195
究竟大事	-11.8195
長者子	-11.8204
又發大願	-11.8205
入無量諸佛	-11.8211
大集經	-11.8211
增上深心	-11.8221
那含	-11.8223
又放光明	-11.8226
度量	-11.8234
引瑜伽	-11.8234
凡情	-11.8235
甚微	-11.8237
而能出生	-11.8243
便成正覺	-11.8249
正直心	-11.8251
善男子譬如有人	-11.8251
▁二料揀	-11.8257
敷演	-11.8258
以此善根如是迴向	-11.826
各有二義	-11.8262
無明支	-11.8262
五百歲	-11.8263
此文有二	-11.8263
方堪	-11.8268
人畜	-11.8283
銖	-11.8285
屠	-11.8285
長安	-11.8287
大菩薩眾	-11.8291
廣如彼說	-11.8297
羊鹿	-11.8297
坐寶蓮華	-11.8298
羞	-11.8299
鹽	-11.8301
二來意者	-11.8302
暇	-11.8303
兔角	-11.8307
妻妾	-11.8307
蹈	-11.8309
彌綸	-11.8309
渚	-11.8309
荊	-11.8312
莊飾	-11.8314
綱要	-11.8315
寶多羅樹	-11.8315
讎	-11.8317
微笑	-11.8317
此品須來	-11.8318
有所表	-11.8319
暎蔽	-11.832
醫藥	-11.8321
舉經對顯	-11.8324
萬差	-11.8325
于闐國三藏實叉難陀奉制譯	-11.8325
法界身雲	-11.8325
十住十行十迴向十地	-11.8329
於其中間	-11.8331
而亦不捨	-11.8332
群生類	-11.8338
契實	-11.8341
依他起性	-11.8344
無盡功德藏	-11.8347
徵釋所由	-11.8348
國城	-11.8349
十佛剎塵	-11.835
互舉	-11.8351
演妙音	-11.8352
鐵圍	-11.8354
微妙音	-11.8358
了俗	-11.8361
羅剎王	-11.8365
波利	-11.8368
變化土	-11.8373
破暗	-11.8375
僧伽	-11.8381
能為眾生	-11.8389
▁三宗趣	-11.839
南方有城	-11.8391
具此三	-11.8391
繁廣	-11.8393
能領受	-11.8395
答意云	-11.8404
歎佛功德	-11.8405
迦葉佛時	-11.8407
終不能	-11.8421
得無生法忍	-11.8437
綴	-11.8444
一切樂具	-11.8448
耕	-11.845
囑	-11.8451
煖	-11.8451
瓔	-11.8455
成前義	-11.8456
有體無體	-11.8458
眷	-11.8458
領納	-11.8459
無違逆行	-11.8459
色聲香味觸	-11.846
綺互	-11.846
刀杖	-11.8461
金鈴	-11.8462
婆珊婆演底	-11.8464
贊	-11.8465
有五行經	-11.8466
墮落	-11.8468
真如相迴向	-11.8469
襍	-11.8471
菩薩住是地	-11.8472
如前引	-11.8478
供養一切諸如來	-11.8479
當知是人	-11.848
非擇滅	-11.8483
近友	-11.8483
四無色定	-11.8484
一切世界微塵數	-11.8485
升進	-11.8485
情非情	-11.849
波頭摩華	-11.8492
之謂也	-11.8495
諸仁者	-11.8497
滅眾生苦	-11.8507
十藏品	-11.8516
不斷菩薩行	-11.852
殷勤瞻仰辭退而	-11.8529
爾時太子	-11.8534
經行處	-11.8543
聞法受持	-11.8549
莫能知	-11.8554
端坐	-11.8555
何等為十所謂一切諸佛	-11.8558
備矣	-11.8572
鞭	-11.8583
缺減	-11.8584
菩薩摩訶薩復作是念	-11.8587
緣覺乘	-11.8588
昨	-11.859
哭	-11.859
􂗲	-11.859
非即離	-11.8592
喧	-11.8592
俟	-11.8593
闇冥	-11.8593
逕	-11.8594
邃	-11.8596
陰界入	-11.8598
念劫圓融	-11.8598
交映	-11.8598
丁	-11.86
鬱	-11.86
惰	-11.8602
鳩槃荼	-11.8605
芥	-11.8607
授巳法界	-11.8607
賈	-11.8609
醜陋	-11.8609
又放光名	-11.861
有其二義	-11.861
節節	-11.861
無上正等菩提	-11.8613
發無疑心	-11.8614
􂘢	-11.8615
搖動	-11.8616
灌其頂	-11.8616
疏文有四	-11.8617
能清淨初歡喜地	-11.8617
歌詠	-11.8618
涌出	-11.8619
潛流	-11.8619
7	-11.862
佛所攝持	-11.8621
區分	-11.8623
為令一切眾生皆得	-11.8626
𣈆	-11.8629
是名下結	-11.8632
華藏品	-11.8635
普運	-11.8649
八萬四千煩惱	-11.8652
嚕	-11.8656
十首菩薩	-11.866
十億佛剎微塵數	-11.8661
四諦品	-11.8662
遍周法界	-11.8671
莊嚴具雲	-11.8672
為眾說法	-11.8674
本自無	-11.8674
如上所	-11.8679
普眼法門	-11.868
中央	-11.8692
分析	-11.8703
無雜亂	-11.8705
十不可說佛剎微塵數	-11.8708
初依教趣求	-11.8712
厭捨	-11.8717
各於其	-11.8722
區	-11.8723
明法品	-11.8726
咽	-11.873
情計	-11.8735
緣慮	-11.874
次二偈	-11.8741
巡	-11.8742
吠	-11.8743
巽	-11.8744
康	-11.8745
粗	-11.8746
筌	-11.8747
結成正義	-11.8748
牛頭	-11.875
紀	-11.8752
頑	-11.8753
擎	-11.8754
搜	-11.8754
覺法自性	-11.8755
色究竟天	-11.8756
扇	-11.8757
檻	-11.8759
菩薩摩訶薩坐道場時	-11.8759
閻	-11.876
淤泥	-11.8761
休捨優婆夷	-11.8762
別地行相	-11.8762
士夫	-11.8767
阿練若處	-11.8767
各是一	-11.8768
有四行經	-11.8769
諸佛道場一切海眾	-11.8769
譬諭	-11.877
大人之相	-11.8771
何獨	-11.8773
𡨋	-11.8773
有十行經	-11.8775
諸障礙	-11.8775
為眾生作佛事	-11.8779
與十佛剎微塵數諸菩薩俱	-11.8779
是為十若諸菩薩安住其中	-11.8782
捨離魔業	-11.8786
嚴淨一切佛剎	-11.8788
寶燄	-11.8807
時善財下	-11.8808
通二利	-11.8811
能忍受	-11.8813
又於佛所	-11.8817
留難	-11.8819
菩薩地盡	-11.8822
十力無畏	-11.8828
倒惑	-11.8844
令生歡喜	-11.8856
事即理	-11.8874
錦	-11.8879
釋迦牟尼	-11.8887
聾盲	-11.889
揆	-11.8891
帝王	-11.8903
杵	-11.8904
前中又二	-11.8904
綿	-11.8905
啟蒙	-11.8905
即其事也	-11.8907
惛	-11.8908
大千界	-11.8908
具足方便住	-11.891
法王子住	-11.891
其文非一	-11.8913
祖師	-11.8913
入如來地	-11.8913
哲	-11.8916
無功之智	-11.8917
諸法相即自在門	-11.8918
華開敷	-11.8922
資生之物	-11.8922
千分不及一	-11.8923
未曾休息	-11.8924
或復施與	-11.8927
法所攝持	-11.8929
▁六戀德禮辭	-11.8929
指斥	-11.8932
軌持	-11.8933
▁初捴	-11.8934
爾所劫中	-11.8937
智度論云	-11.8946
宮殿樓閣	-11.8947
摧滅一切	-11.8953
佛剎微塵數世界圍繞	-11.8957
東南	-11.8959
先舉論	-11.896
恩愛	-11.896
醫方	-11.8963
悔恨	-11.8965
次有大人相名	-11.8973
頓演	-11.8974
和悅	-11.8994
億數	-11.9016
牒前起後	-11.9017
妙嚴品	-11.903
門戶	-11.9033
無錯謬	-11.9036
現大神通	-11.9038
而未知菩薩云何學菩薩行云何修菩薩	-11.904
三世諸如來	-11.9041
檀度	-11.9043
於中有二先	-11.9045
萬八千	-11.9055
安穩	-11.9056
青黃赤白	-11.9058
寅	-11.906
豆	-11.9061
躡前起後	-11.9061
探	-11.9064
遙見佛來	-11.9064
二空所顯	-11.9066
僮僕	-11.9066
主宰	-11.9066
技	-11.9067
知一切法即心自性	-11.9068
郡	-11.9068
笈	-11.9069
文中有三	-11.907
普賢三昧品	-11.907
肺	-11.9072
赫奕	-11.9073
八相成道	-11.9074
有四行半經	-11.9075
本所事佛	-11.9076
禰	-11.9078
轉大法輪	-11.9078
恐懼	-11.9078
見一切佛剎清淨	-11.908
無倫匹	-11.908
決志	-11.9081
悉能分別知	-11.9082
律儀戒	-11.9089
無所取著	-11.909
▁初雙標	-11.9095
流入大海	-11.9096
良藥	-11.9098
篤信	-11.9099
十通品	-11.9101
赤色	-11.9103
死畏	-11.9115
善能觀察	-11.9115
樹枝	-11.9117
十二部	-11.9119
佛威神力	-11.912
在母胎中	-11.9125
一即十	-11.9125
迴向阿耨多羅三藐三菩提	-11.9135
美音	-11.9135
一切寶色	-11.914
橫計	-11.9158
放無量光	-11.916
頌分三	-11.9165
亦復不見	-11.9188
諸善行	-11.9194
不怯	-11.9199
痴	-11.9199
宛	-11.9201
▲	-11.9207
放大光	-11.9209
飲酒	-11.921
弗沙	-11.9211
岳	-11.9212
懷疑	-11.9215
大悲隨順觀	-11.9218
溫	-11.9219
產	-11.9219
派	-11.9219
初牒前起後	-11.9221
牢固	-11.9223
釧	-11.9223
暉	-11.9224
閱	-11.9225
無屈撓行	-11.9226
八十種好	-11.9226
迥	-11.9227
何以得知	-11.9228
身受心法	-11.9231
剎海塵數	-11.9235
易簡	-11.9237
金剛圍山	-11.9237
繞無量帀	-11.9238
燄雲	-11.9238
轉於法輪	-11.9238
勞倦	-11.9242
歌讚	-11.9242
蔔	-11.9243
奉獻	-11.9243
於一念間	-11.9243
善財見巳	-11.9248
云何為菩薩摩訶薩	-11.9251
親近善友	-11.9251
婬欲	-11.9254
法明門	-11.9254
百倍	-11.9255
即成其佛	-11.9257
此二不二	-11.9258
無性為性	-11.9259
空閑	-11.9264
說四聖諦	-11.9267
四攝四無量	-11.9271
後所謂下	-11.9277
盡未來際劫	-11.9288
斷二障	-11.929
百箇	-11.9292
不可說不可說佛剎微塵數劫	-11.9294
惡不善法	-11.9298
行頌明	-11.9302
現種種身	-11.9303
水精	-11.9303
譬如真金	-11.9309
善哉善哉善男子	-11.9311
瑠璃寶	-11.9316
然有二意	-11.9332
六行半經	-11.9334
焦	-11.9352
炭	-11.9357
屏	-11.9361
欣悅	-11.9369
不苦不樂	-11.937
枉	-11.9371
膚	-11.9372
諸佛及諸菩薩	-11.9373
肅	-11.9373
嗅	-11.9373
轂	-11.9375
恭敬合掌	-11.9375
午	-11.9376
不傾動	-11.9377
權歸實	-11.9378
拳	-11.9378
悕望	-11.9379
托	-11.9379
樞	-11.9379
祈	-11.938
漉	-11.9382
羯磨	-11.9382
佐	-11.9383
染而不染	-11.9384
稻	-11.9385
九次第定	-11.9386
離癡亂行	-11.9387
始終二教	-11.9388
赤真珠	-11.9388
故今釋云	-11.9389
隨順堅固一切善根	-11.939
祇夜	-11.9391
止觀雙運	-11.9391
胷	-11.9393
器中盛滿	-11.9393
蠲除	-11.9393
第一正入當位法門中	-11.9395
彩畫	-11.9395
毒害	-11.9396
百四十	-11.9397
在家出家	-11.9398
啟請	-11.94
隨諸眾生心之所樂	-11.9401
踈	-11.9401
􂘡	-11.9402
邊際不可得	-11.9404
十佛世界微塵數	-11.9404
能說彼功德行	-11.9404
准梵本	-11.9404
宣布	-11.9406
班宣	-11.9406
一心瞻仰	-11.9407
枝條	-11.9408
兜率天子	-11.9409
次有世界海	-11.9413
自分勝進	-11.9418
事訖	-11.942
一一世界海中	-11.9422
由親近善知識	-11.9423
佛剎微塵數世界圍遶	-11.9437
乖違	-11.944
千萬億	-11.9443
受持正法	-11.9444
一相無相	-11.9448
餘如文自具	-11.9466
下句結	-11.9472
有力能	-11.9487
次下當	-11.9488
目覩	-11.9489
後一總結	-11.9494
淨身口意	-11.9494
誕	-11.9517
禽獸	-11.9521
同頓同實	-11.9522
文有六	-11.9529
不可說不可說佛剎極微塵數	-11.9531
臭穢	-11.9531
鶴	-11.9532
貧苦	-11.9532
肥	-11.9533
濡首	-11.9534
砂	-11.9537
鎖	-11.9541
悲智相導	-11.9542
敬養	-11.9543
不守自性	-11.9544
輙	-11.9545
於中又二	-11.9545
如來成正覺時	-11.9551
叢林	-11.9552
彌陀	-11.9552
諸難處	-11.9553
憐	-11.9555
梨耶	-11.9556
匪懈	-11.9558
普喜幢	-11.9559
枝末	-11.9561
鍊真金	-11.9562
殷重	-11.9562
寺沙門	-11.9564
有五種法則能清淨初歡喜地	-11.9564
憶持不忘	-11.9565
一切種一切智智	-11.9565
周匝圍繞諸佛道場一切海眾	-11.9568
隨力隨分	-11.9569
百億四天下	-11.9569
▁二正說偈	-11.9569
玉女	-11.957
亦二先	-11.9571
現眾色	-11.9572
名句字	-11.9572
應知如來音聲	-11.9573
寶蓮華藏師子之座	-11.9574
立此名	-11.9575
發勤精進	-11.9576
化樂天王	-11.9576
天人師	-11.9583
改易	-11.9592
結酬	-11.9596
萬二千	-11.9598
施作佛事	-11.96
等流果	-11.9603
虛誑	-11.9613
准例	-11.9639
喜目觀察	-11.9643
為其母	-11.9653
有王名	-11.9675
此比丘尼為說法門	-11.9679
十五日	-11.9691
針	-11.9692
逈異	-11.9696
縮	-11.9696
訛	-11.9703
炳	-11.9704
晉譯	-11.9708
晚	-11.9709
周圍	-11.971
踊悅	-11.9712
筏	-11.9712
蹤	-11.9713
坊	-11.9713
註	-11.9713
棘	-11.9714
貨	-11.9714
孕	-11.9715
見聞覺知	-11.9715
熙	-11.9715
禪悅	-11.9716
事能顯理	-11.9716
秀	-11.9717
經來未盡	-11.9718
初一是總	-11.9719
方便攝行	-11.9719
講堂	-11.9721
春秋	-11.9721
矛	-11.9721
技術	-11.9722
▁初引論	-11.9725
遮詮	-11.9725
𦦨慧地	-11.9727
出生佛法道	-11.9728
諸菩薩摩訶薩得此五法	-11.9729
無價寶	-11.973
藥王樹	-11.973
苦患	-11.9731
教智淨	-11.9732
賢愚	-11.9733
▁一心頂禮	-11.9735
▁初說偈儀	-11.9735
皆不離念佛	-11.9735
泉流	-11.9736
毗曇	-11.9737
▁初舉論	-11.9737
又能如是	-11.9738
以法無礙智	-11.9738
經帖可知	-11.9739
如響忍	-11.9742
圓滿光雲	-11.9748
吼聲	-11.975
咸在其中	-11.9751
何以下徵釋	-11.9752
婆須	-11.9754
神仙	-11.9761
從初發心乃至	-11.9763
如來於彼或名	-11.9766
不倦	-11.9785
出微妙音	-11.9804
所管	-11.9807
第四段	-11.981
生住滅	-11.9817
離眾生相	-11.9842
五行半經	-11.9846
憂怖	-11.9847
唐清涼山大華嚴寺沙門澄觀撰	-11.9868
魔梵	-11.9872
准釋可知	-11.9873
腰	-11.9875
寒熱	-11.9877
茫	-11.9877
伽藍	-11.9877
食肉	-11.9879
隙	-11.988
何等是佛境界	-11.988
稚	-11.9883
壅	-11.9885
稼	-11.9885
腨	-11.9885
以性融相	-11.9889
祿	-11.9889
波濤	-11.9892
天龍八部	-11.9892
玷	-11.9892
淨飯王	-11.9893
大盡分	-11.9894
歌舞	-11.9894
𦂶	-11.9894
論攝為	-11.9894
誠願語	-11.9895
繒綵	-11.9898
8	-11.9899
十三行經	-11.99
前際後際	-11.99
9	-11.99
修習菩提行	-11.9901
善見比丘	-11.9901
頭面敬禮	-11.9902
佛告最勝	-11.9905
悉無餘故發菩提心	-11.9906
大方廣佛華嚴經䟽鈔會本第十	-11.9907
美食	-11.9907
悉能容受	-11.9908
異類界	-11.9908
離欲際	-11.9911
門闥	-11.9912
不求果報	-11.9914
答言善男子	-11.9916
藏師云	-11.9919
乞求	-11.9921
厭患	-11.9924
脩羅	-11.9925
▁南無西方	-11.9929
釋總名	-11.9943
我巳先發阿耨多羅三藐三菩提心	-11.9945
入是三昧	-11.9951
過咎	-11.9954
不相礙	-11.9955
十萬偈	-11.9959
會釋經文	-11.9977
訓釋	-11.9981
誡勸	-11.9999
如法供養	-12.0009
諱	-12.0037
漿	-12.0043
剃	-12.0043
唐清涼山大華嚴寺沙門澄觀述疏	-12.0044
嗔恚	-12.0046
虔	-12.0046
欣厭	-12.0047
溝	-12.0049
一切處文殊師利	-12.005
不染而染	-12.0051
鷄	-12.0052
不敢覆藏	-12.0053
兄弟	-12.0053
鎔	-12.0054
床座	-12.0055
澡	-12.0056
受我供養	-12.0056
若生人中	-12.0057
替	-12.0058
勤勇	-12.0059
遲速	-12.006
貧賤	-12.0061
三道不斷	-12.0061
假施設	-12.0061
窠	-12.0061
不來不去	-12.0061
橋梁	-12.0062
獨存	-12.0063
活命	-12.0064
障礙山	-12.0064
十世隔法異成門	-12.0065
跛	-12.0066
瞽	-12.0066
莂	-12.0067
無有少法	-12.0067
映徹	-12.0071
工業	-12.0073
乃至百億色究竟天	-12.0074
消竭	-12.0074
善知眾藝	-12.0074
即觀察如來	-12.0076
􂗇	-12.0077
縱奪	-12.008
巧妙方便	-12.0081
立四教	-12.0083
無依無作	-12.0083
示現降魔	-12.0085
結德無盡	-12.0092
該羅	-12.0095
華藏世界品	-12.0099
族姓	-12.0099
有本云	-12.01
敷榮	-12.011
愍傷	-12.0124
勇猛幢	-12.0134
舉因顯	-12.0154
一一剎中	-12.0176
曲躬合掌	-12.0178
無不包	-12.0178
斷一切疑	-12.019
一多相即	-12.0198
求索	-12.0208
宰	-12.0211
秤	-12.0215
我唯下結	-12.0216
予	-12.0219
隨類音	-12.022
較	-12.0221
哀哉眾生	-12.0224
蝶	-12.0225
一成一切成	-12.0228
澁	-12.023
沫	-12.023
金翅	-12.0231
佛告阿難	-12.0232
提舍	-12.0232
炙	-12.0232
色雲出	-12.0233
群機	-12.0234
清涼山沙門澄觀述晉水沙門	-12.0234
苦痛	-12.0234
揵	-12.0234
三列釋	-12.0235
錄疏注經	-12.0235
總別同異成壞	-12.0235
校量顯勝	-12.0235
廣如別章	-12.0238
自從無始	-12.0238
稟氣	-12.0238
質多羅	-12.0239
腎	-12.0239
躁	-12.024
虛偽	-12.0241
微細相容安立門	-12.0242
隨位進修	-12.0242
三賢位	-12.0243
最正覺	-12.0245
摩善財頂	-12.0245
赴感	-12.0245
圓明具德	-12.0246
地獄天子	-12.0248
欲重明此義	-12.025
有三行經	-12.025
▁至心歸命禮大方廣佛華嚴經	-12.0252
隨智慧行	-12.0252
年後佛當出現	-12.0254
嵐毗尼	-12.0256
妻子眷屬	-12.0257
三種意生身	-12.0258
彼世界種中	-12.0261
汝等當知	-12.0264
重擔	-12.0266
總結多門	-12.0291
一望多	-12.0293
應度者	-12.0302
語言音聲	-12.0311
映蔽一切	-12.0315
準梵本	-12.0329
廣果天	-12.033
釋妨	-12.035
疊	-12.035
仞	-12.0383
波頭摩	-12.0393
穿鑿	-12.0396
當會答	-12.0397
挺	-12.0402
愜	-12.0406
複	-12.0407
後所謂下正顯	-12.0408
石壁	-12.041
摩訶般若	-12.0411
殷	-12.0412
照高山	-12.0413
三十二相八十種好	-12.0414
四維上下	-12.0415
勃	-12.0416
玄談	-12.0416
故今通云	-12.0417
消息	-12.0418
瑙	-12.0419
不相雜亂	-12.0421
至於彼岸	-12.0421
誥	-12.0421
倉	-12.0422
業性亦如是	-12.0424
汝可往問	-12.0425
過現未來	-12.0425
泊	-12.0425
至心歸命	-12.0425
欲界色界無色界	-12.0427
無來往	-12.0428
兩膝	-12.043
義次第故	-12.043
一乘三乘小乘	-12.0431
有求眾生	-12.0431
讚揚	-12.0433
休捨	-12.0434
增上意樂	-12.0436
令知親近善知識	-12.0437
次第行列	-12.0437
普雨法雨	-12.0437
巧密語	-12.0439
同類異類	-12.0441
得無盡善根	-12.0445
故說一心	-12.0456
萬歲	-12.0465
吾祖	-12.0473
瞋惱	-12.0483
銷滅	-12.0485
三十九品	-12.0486
現處王宮	-12.049
空無邊處	-12.0498
墮惡趣	-12.0498
以佛威神	-12.0504
閻浮提微塵數	-12.0529
至今不	-12.054
師弟	-12.0556
阿練若	-12.056
擁	-12.0564
毘曇	-12.0564
引經證	-12.0567
波旬	-12.0569
瞿曇	-12.0576
鵝	-12.0579
叩	-12.058
霜	-12.058
鈎	-12.0581
杌	-12.0583
耆婆	-12.0584
摸	-12.0585
楞	-12.0585
是僧耶	-12.0586
窮來際	-12.0586
餘可思準	-12.0586
謂有難言	-12.0588
厥	-12.0588
剛強	-12.0591
令我載此乘	-12.0591
毘舍	-12.0592
精舍	-12.0592
參而不雜	-12.0593
旃	-12.0593
諷	-12.0594
窓	-12.0594
緊	-12.0596
不由他	-12.0597
狂亂	-12.0598
抑揚	-12.0598
鳳	-12.0598
陶	-12.0598
睺	-12.06
苗稼	-12.06
質礙	-12.0601
因陀羅網境界門	-12.0602
俾	-12.0604
羽	-12.0605
彼二依止	-12.0605
七日七夜	-12.0605
而來集會	-12.0606
深坑	-12.0606
迅疾	-12.0607
於大眾中	-12.0608
新譯	-12.0608
迦毗羅城	-12.0609
風災	-12.0609
亦見彼佛	-12.061
狐疑	-12.0611
無上正真之道	-12.0611
不知不覺	-12.0613
最為殊勝	-12.0613
去此不遠	-12.0614
於一面立	-12.0614
悉皆明見	-12.062
密訓	-12.0623
為求法故	-12.0627
教化成熟一切眾生	-12.0651
頌半頌	-12.0658
佛剎塵數世界	-12.0715
羅什	-12.0719
難值遇	-12.0723
無障㝵	-12.0754
煞	-12.0755
吸	-12.076
專精	-12.0762
斗	-12.0763
闥	-12.0766
吳	-12.0769
牢	-12.0769
放寶光明	-12.0771
九十五種	-12.0772
七處九會	-12.0772
憂愁	-12.0774
自覺聖智	-12.0774
先喻後合	-12.0774
膏	-12.0775
得阿羅漢果	-12.0775
燒香散華	-12.0775
暑	-12.0776
教起因緣	-12.0776
依理成事	-12.0777
餘九為別	-12.0777
對治修行增長	-12.0778
智照無二相	-12.0779
沮	-12.0782
收束	-12.0782
海月光大明菩薩	-12.0783
如文自明	-12.0784
錯亂	-12.0785
纂	-12.0785
誡聽	-12.0785
奴婢	-12.0786
慶悅	-12.0787
設大施會	-12.0788
千輻	-12.0788
曀	-12.0788
不相障礙	-12.0789
法同喻	-12.0789
毀辱	-12.079
一切諸佛有無邊際	-12.0792
無增無減	-12.0792
慙	-12.0792
兩肩	-12.0794
果成因	-12.0796
菩薩住處品	-12.0797
迫隘	-12.0797
弊惡	-12.08
是謂菩薩慧	-12.0801
盡未來劫修菩薩行	-12.0802
此上過十佛剎微塵數世界	-12.0803
百千俱胝那庾多	-12.0804
卷第四十	-12.0805
右脇	-12.0814
一切諸佛眾會道場	-12.0815
妙光城	-12.0816
哩	-12.0826
癡翳	-12.0839
百佛世界	-12.0855
頌分二	-12.0858
照燭	-12.0863
鍊金	-12.0877
天子天女	-12.088
驢	-12.093
鶖子	-12.0946
耽	-12.0948
函	-12.0949
椽等諸緣	-12.0949
皮肉	-12.0949
親疎	-12.0951
朕	-12.0952
陷	-12.0955
汗	-12.0956
非初非中後	-12.0957
泯絕無寄	-12.0958
縱橫	-12.0959
虫	-12.096
有力無力	-12.0961
正體智	-12.0961
扣	-12.0962
留惑潤生	-12.0962
旃陀羅	-12.0963
戾	-12.0964
琴	-12.0965
社	-12.0966
懸隔	-12.0968
鎻	-12.0968
誤犯	-12.0969
若別說者	-12.0969
十信滿心	-12.0969
赤銅	-12.097
峙	-12.097
樹形等	-12.0971
季	-12.0971
正授法界	-12.0972
憂悲苦惱	-12.0972
獄囚	-12.0973
捷	-12.0973
從何處來	-12.0974
依章別釋	-12.0976
所依體事	-12.0977
隨彼所	-12.0977
有八行半經	-12.0977
名稱普聞	-12.0979
捴	-12.098
橫豎	-12.098
辭退而行	-12.0981
瑜	-12.0981
二何等下	-12.0981
東晉天竺三藏佛馱跋陀羅譯	-12.0983
過於此數	-12.0984
脩短	-12.0984
百城求法一生之內菩薩行圓為末世	-12.0986
信進修行	-12.0987
盟	-12.0989
如是等不可說佛剎微塵數香水海	-12.0991
今當略	-12.1
諸佛子此娑婆世界	-12.1005
懈廢	-12.1008
摧壞	-12.1011
閑靜	-12.1014
厭倦	-12.1037
識為種	-12.1054
毗瑠璃	-12.1065
開為二	-12.1073
閻浮檀	-12.1084
碍	-12.1114
親族	-12.1121
諸法實性	-12.1128
無慚無愧	-12.1132
偈分三	-12.1132
是則可說	-12.114
醒	-12.1147
十不善業道	-12.1148
萬由旬	-12.1149
從淺至深	-12.1153
嚬申	-12.1153
慙愧	-12.1154
儻	-12.1154
劇	-12.1156
亭	-12.1156
忿恨	-12.1159
揮	-12.1161
跋陀羅	-12.1162
災患	-12.1162
解法慢	-12.1164
磨瑩	-12.1164
貪嗔	-12.1165
侯	-12.1168
不活畏	-12.1168
劑	-12.117
祇園	-12.117
無勝軍	-12.117
等一切佛迴向	-12.117
心體離念	-12.117
爾時普賢菩薩欲重宣其義	-12.1171
奉迎	-12.1171
耽著	-12.1173
汝可觀察文殊師利	-12.1173
目不暫捨	-12.1174
訓誨	-12.1175
難可值遇	-12.1177
則離貪欲	-12.1178
阿須倫	-12.1178
安住地神	-12.1179
菩薩智輪	-12.1179
供養之具	-12.1179
寶相輪	-12.1183
與娑婆世界齊等	-12.1184
機關	-12.1187
聽受正法	-12.1191
而莊嚴之	-12.1195
眉間放光	-12.1245
不可說不可說佛剎微塵等	-12.1271
所依怙	-12.1282
坐菩提樹	-12.129
周給	-12.1314
際畔	-12.1322
兄	-12.1336
朽	-12.1339
厭行分	-12.134
絲	-12.134
弄	-12.134
祠	-12.1341
齅	-12.1342
卯	-12.1345
耐	-12.1346
抵	-12.1348
阿陀那識	-12.1349
得果不捨因	-12.1354
振動	-12.1354
修因契果生解分	-12.1354
粒	-12.1355
牧	-12.1355
阿惟越致	-12.1356
後所謂下別顯	-12.1357
湧	-12.1358
真俗二諦	-12.1359
示相答	-12.1359
非有想非無想	-12.1359
眉間毫相	-12.1359
自受用土	-12.1359
庠	-12.1361
脆	-12.1362
禍福	-12.1363
神之解脫	-12.1364
鹿苑	-12.1364
見多百佛	-12.1364
嚬	-12.1365
一生所繫	-12.1366
徧滿十方界	-12.1366
天上人間	-12.1367
無暫捨	-12.1368
㗚	-12.1368
勾	-12.1369
斡	-12.1371
人與非人	-12.1371
申右手	-12.1373
令信心者	-12.1373
於所修行生	-12.1374
乃往古世過	-12.1375
乃至不離念具足一切種	-12.1376
熏成種	-12.1377
而供養之	-12.1378
已下一段	-12.1378
以諸善根如是迴向所謂願一切眾生	-12.1379
哆	-12.1381
佛剎為一日一夜	-12.1381
。」△	-12.1386
』	-12.1387
引當經	-12.1388
勘梵本	-12.1397
十行十迴向	-12.1417
擁護	-12.1421
均平	-12.143
愍哀	-12.1459
一合相	-12.1466
無諸垢	-12.1475
殷勤瞻仰	-12.1496
聖者我巳先發阿耨多羅三藐三菩提心	-12.1524
屍	-12.1531
以經帖	-12.1532
􂗷	-12.1532
鄉	-12.1535
喉	-12.1536
犁	-12.1538
犍	-12.1539
賞	-12.1543
屢	-12.1548
松	-12.155
繕	-12.1551
頰	-12.1551
犬	-12.1553
即智之悲	-12.1553
竿	-12.1554
臻	-12.1555
又能出生一切智性	-12.1556
葛	-12.1557
仲	-12.1557
格	-12.1557
翫	-12.1558
忍辱柔和	-12.1559
候	-12.1559
澄清	-12.1562
貯積	-12.1564
頼	-12.1565
依徵廣釋	-12.1565
極樂世界	-12.1566
我願乃盡	-12.1566
徧處定	-12.1567
陟	-12.1567
盲冥	-12.1568
肢	-12.1568
獲善利	-12.1568
開敷一切樹華	-12.1569
十四行半經	-12.157
忽然廣博	-12.157
諸吉祥中最	-12.157
和雅	-12.1571
我悉曾供養	-12.1572
故云爾也	-12.1572
資粮	-12.1572
頭頂禮敬	-12.1573
與世界海微塵數諸菩薩俱	-12.1577
網羅覆其身	-12.158
善住比丘	-12.1581
昔所未	-12.1582
菩提之心亦復如是	-12.1583
所言苦滅聖諦者	-12.1611
六欲天	-12.1621
暫停	-12.1623
根本後得	-12.1665
地前三賢	-12.1683
依教趣求	-12.1734
月十六日	-12.1734
隣近	-12.1744
膩	-12.1745
亘	-12.1748
汝應勤修	-12.1748
殆	-12.1748
帛	-12.1751
如來涅槃亦如是	-12.1751
偷盜	-12.1751
欝	-12.1752
疵	-12.1754
真空絕相	-12.1756
沃	-12.1756
傷害	-12.1756
狼	-12.1758
長者李通玄	-12.1758
攝相歸	-12.1758
空中無色	-12.1759
唯證相應	-12.176
起具因緣	-12.176
譏嫌	-12.176
總相會通	-12.1761
溪	-12.1761
悲智雙運	-12.1761
俱舍頌云	-12.1762
隘	-12.1762
踴	-12.1763
阿頼耶	-12.1764
攻	-12.1764
襲	-12.1764
正顯問端	-12.1765
跟	-12.1765
初結前標後	-12.1765
毘沙門	-12.1766
珊	-12.1767
甲冑	-12.1769
乃往古世	-12.1772
毘梨耶波羅蜜	-12.1773
儔	-12.1773
普現一切眾生前	-12.1774
此婆羅門五熱炙身時	-12.1776
寺宇	-12.1776
十七行經	-12.1776
諸菩薩摩訶薩應如是見	-12.1778
不可限量	-12.1779
乃至為一切智智依止者	-12.1779
▁一心奉請	-12.1779
不可傾動	-12.1784
甚為難	-12.1793
約一乘別教	-12.1797
所言苦集聖諦者	-12.1817
沈掉	-12.1827
百由旬	-12.1849
鄭	-12.1937
蠱	-12.1945
籌	-12.1947
閙	-12.1951
菓	-12.1952
薜	-12.1954
凌	-12.1954
伺察	-12.1955
卜	-12.1958
摶	-12.196
常與無常	-12.1962
即斯義也	-12.1962
枷	-12.1962
不生不滅是無常義	-12.1962
摩尼寶蓮華座	-12.1963
詶	-12.1965
輟	-12.1965
擲	-12.1965
婆樓那	-12.1966
庚	-12.1967
護小心	-12.1967
憚	-12.1967
若生人中得二種果報	-12.1968
闡揚	-12.197
清潔	-12.1971
閡	-12.1972
善不善無記	-12.1974
先法後喻	-12.1974
得二種果報	-12.1975
十身相海	-12.1975
沒溺	-12.1976
殖	-12.1976
卿	-12.1977
菩提心金剛亦復如是	-12.1977
發無量無邊廣大心	-12.1981
不染世法	-12.1982
能知此方便	-12.1983
釋梵護世	-12.1984
􂗆	-12.1984
從凡夫地	-12.1987
尚不能	-12.1988
未曾忘失	-12.199
或見讚說	-12.1995
結成上義	-12.1997
它	-12.2
海門國	-12.2021
我已成就	-12.2032
同名法慧	-12.204
優鉢羅	-12.2065
所至處	-12.2075
是出家人	-12.2129
程	-12.2147
篤	-12.2157
買	-12.216
青蓮	-12.2161
大方廣佛華嚴	-12.2163
卓	-12.2164
疫	-12.2164
龕	-12.2165
嚼	-12.2168
曹	-12.2168
潭	-12.217
刪	-12.2171
示行苦行	-12.2171
揭	-12.2171
操	-12.2171
以理融事	-12.2173
銜	-12.2173
色即是空	-12.2175
絃	-12.2175
有中殊勝行	-12.2176
裸形	-12.2177
諧	-12.2177
文有四節	-12.2181
篋	-12.2181
〕-【	-12.2181
自相共相	-12.2181
孩	-12.2181
若有應見	-12.2182
缾	-12.2182
百劫千劫	-12.2185
薦福	-12.2185
㲉	-12.2186
降臨	-12.2186
舉法請	-12.2186
十九行半經	-12.2186
栗	-12.2186
嫌恨	-12.2186
耗	-12.2186
熈	-12.2187
給孤獨園	-12.2187
+	-12.2187
璫	-12.2188
鬻香長者	-12.2188
恠	-12.2189
軒	-12.2189
根本普光明智	-12.219
池沼	-12.219
迷悶	-12.2191
嚴持香華	-12.2192
黠	-12.2192
即事之理	-12.2193
迦毘羅城	-12.2193
悲泣流淚	-12.2193
大願精進力救護一切眾生	-12.2194
難陀龍王	-12.2194
亮	-12.2195
舉足下足	-12.2195
次第復有劫	-12.2196
矴	-12.2196
目髮紺青	-12.2196
謟	-12.2196
推德升進	-12.2196
中句別有	-12.2198
理望事	-12.2199
是此義也	-12.2199
魔波旬	-12.22
▁初牒經立名	-12.22
瞻奉	-12.2202
僉	-12.2204
究暢	-12.2207
問起發	-12.221
虗誑	-12.2225
頂戴	-12.2227
申請所求	-12.2229
所言苦滅道聖諦者	-12.2241
伴侶	-12.2243
寶網彌覆其上	-12.231
華纓	-12.2329
妓	-12.2373
脈	-12.2374
無始巳來	-12.2374
煎	-12.2384
心行處滅	-12.2385
爐	-12.2388
親戚	-12.2392
父母兄弟	-12.2392
誡聽許說	-12.2392
酉	-12.2392
頌中十偈	-12.2394
竅	-12.2394
鱗	-12.2395
交涉	-12.2395
𤦲	-12.2395
壑	-12.2396
五熱炙身	-12.2396
汲	-12.2396
非斷非常	-12.2397
因緣所生法	-12.2397
用而常寂	-12.2398
十不善道	-12.2398
芬馥	-12.2398
讖	-12.2399
本有今無	-12.2399
一時頓演	-12.2399
顯因廣大相	-12.24
陛	-12.2401
毘瑠璃	-12.2402
跏趺	-12.2403
先小後大	-12.2403
傳寫	-12.2403
禱	-12.2403
浣	-12.2404
如來即為示現	-12.2405
村營	-12.2405
貪欲瞋恚	-12.2406
如來性起妙德菩薩	-12.2406
託事顯法生解門	-12.2407
姝	-12.2408
如聚墨	-12.241
靣	-12.241
纂靈記	-12.2411
鹿園	-12.2411
迮	-12.2412
三昧雷聲	-12.2412
有十一行經	-12.2414
]	-12.2414
以為光明臺	-12.2415
十八行經	-12.2417
頓門修證軌範善財菩薩摩訶薩	-12.2417
千手千眼	-12.2417
其巳久如	-12.2419
半月一月	-12.242
廣大喜莊嚴解脫	-12.242
常在其中而演說法	-12.2421
處童子地	-12.2421
億百千姟	-12.2422
珍奇	-12.2549
會色歸空	-12.2601
至文當	-12.2601
佞	-12.2608
擯	-12.2609
耎	-12.261
有財釋	-12.2612
串	-12.2612
捕	-12.2612
坤	-12.2613
苦集滅道	-12.2614
饉	-12.2614
裕	-12.2614
實叉難陀	-12.2614
懇	-12.2616
諸來菩薩	-12.2617
搆	-12.2618
三性三無性	-12.2618
枳	-12.2618
膜	-12.2618
所招依果	-12.2618
謂標釋結	-12.2619
不他生	-12.262
舍衛國	-12.262
貯	-12.2621
頗梨	-12.2623
如說能行	-12.2624
鬼魅	-12.2624
懶	-12.2624
網縵	-12.2625
鬻	-12.2625
慎勿	-12.2626
無明滅行滅	-12.2626
翔	-12.2626
中間三教	-12.2627
麤獷	-12.2627
大塔廟處	-12.2627
即理之事	-12.2628
沐	-12.2628
市肆	-12.2629
重頌前法	-12.263
晃	-12.2631
爾時普賢菩薩復告大眾言諸佛子	-12.2632
入不思議解脫境界普賢行願品	-12.2632
是戒耶	-12.2633
瓦石	-12.2633
各胡跪	-12.2633
0	-12.2634
寂靜音海夜神	-12.2636
瞖	-12.2637
薝	-12.2643
其最近輪圍山香水海	-12.2644
與金剛幢世界齊等	-12.2646
釐	-12.2809
岐	-12.2828
材	-12.283
羈	-12.2835
寔	-12.2835
塊	-12.2838
旬	-12.284
械	-12.284
鬬	-12.2841
挑	-12.2842
綵	-12.2842
賀	-12.2843
冰	-12.2845
擢	-12.2852
噬	-12.2852
諫	-12.2855
嗣	-12.2856
昌	-12.2865
屎	-12.3035
桓	-12.3048
刧	-12.3049
債	-12.3051
媚	-12.3053
𠬧	-12.3053
鑊	-12.3056
帙	-12.3067
蟻	-12.3067
透	-12.3069
詎	-12.3073
杳	-12.3073
麟	-12.3074
軛	-12.3076
胞	-12.3076
貢	-12.3079
攸	-12.3079
稠	-12.3083
迢	-12.3087
囚	-12.3094
馭	-12.3099
顆	-12.3291
烈	-12.3294
魅	-12.3299
耻	-12.3302
板	-12.3305
費	-12.3307
瀾	-12.3309
罄	-12.3311
裹	-12.3311
詖	-12.3311
儉	-12.3315
憤	-12.3317
嵐	-12.332
蒭	-12.332
咨	-12.3325
頒	-12.3325
軻	-12.3329
粖	-12.3332
唾	-12.3535
烟	-12.3538
尠	-12.3553
阻	-12.3554
餅	-12.3554
骸	-12.3556
蔑	-12.3558
乙	-12.3559
脾	-12.3561
棃	-12.3566
脂	-12.3568
歘	-12.3574
鑰	-12.3581
熖	-12.3583
肯	-12.3718
趺	-12.3734
枕	-12.3778
漚	-12.3784
洋	-12.3786
肆	-12.3792
唼	-12.3796
疆	-12.3799
曆	-12.3802
嚮	-12.3804
賦	-12.3805
濡	-12.3808
汁	-12.3811
慼	-12.3811
踞	-12.3814
膽	-12.3814
蠢	-12.3815
溥	-12.3816
墯	-12.3819
郭	-12.3819
珂	-12.382
傘	-12.3827
4	-12.3829
粉	-12.4052
刊	-12.4058
罽	-12.406
衡	-12.406
鴻	-12.4065
榦	-12.4066
絡	-12.4067
巷	-12.4068
陋	-12.4071
劬	-12.4073
萃	-12.4073
塹	-12.4074
梯	-12.4074
壍	-12.4077
褥	-12.4077
輿	-12.4079
䏶	-12.4307
煑	-12.4308
戊	-12.432
脊	-12.4322
崩	-12.4323
駛	-12.4324
謁	-12.4326
陣	-12.4327
叢	-12.4327
妾	-12.4328
醯	-12.4328
涸	-12.433
酌	-12.4334
挾	-12.4334
㵎	-12.4334
藪	-12.4337
脉	-12.4339
沾	-12.4339
袤	-12.4344
吽	-12.4346
呤	-12.4348
㝎	-12.4351
倦	-12.4386
衝	-12.453
𠎝	-12.4565
鑄	-12.4573
寥	-12.4577
鼠	-12.4585
糜	-12.4588
淮	-12.4589
讓	-12.4591
舞	-12.4596
湖	-12.4596
罕	-12.4597
淡	-12.4602
亨	-12.4609
沌	-12.461
腭	-12.4612
秪	-12.4618
閏	-12.4626
澹	-12.4628
央	-12.4722
猪	-12.4841
盆	-12.4855
鑿	-12.4862
鴿	-12.4862
摘	-12.4869
剪	-12.4872
慾	-12.4873
皈	-12.4873
訟	-12.4876
膳	-12.4877
滓	-12.4877
齶	-12.4878
噓	-12.4878
禦	-12.4879
矜	-12.4881
秘	-12.4882
棟	-12.4884
舛	-12.4888
楯	-12.4888
翹	-12.4889
捍	-12.4889
氳	-12.4894
夾	-12.4898
這	-12.5137
姿	-12.5142
棒	-12.5143
完	-12.5146
悴	-12.5148
勳	-12.5151
邦	-12.5152
捶	-12.5155
抗	-12.5155
苞	-12.5156
騎	-12.5157
騁	-12.5158
庇	-12.5162
吏	-12.5163
飡	-12.5164
壤	-12.5165
楷	-12.5168
糓	-12.5169
崛	-12.5172
踵	-12.5174
沓	-12.5175
璽	-12.5176
呂	-12.5181
冊	-12.5185
纓	-12.5254
蘆	-12.5437
闊	-12.5445
眇	-12.5447
築	-12.5448
咄	-12.5448
叔	-12.5448
享	-12.5449
捫	-12.5452
讒	-12.5455
臘	-12.5455
濯	-12.5455
离	-12.5455
沼	-12.5456
渟	-12.5456
燥	-12.5456
咀	-12.5458
螢	-12.5465
榭	-12.5469
愽	-12.5472
慣	-12.565
㓨	-12.5731
銘	-12.5737
獷	-12.5739
塚	-12.5743
頞	-12.5749
緯	-12.5751
戍	-12.5753
礫	-12.5754
虵	-12.5755
監	-12.5758
壓	-12.576
緇	-12.5761
俄	-12.5761
穆	-12.5762
朔	-12.5762
錍	-12.5763
戌	-12.5763
酸	-12.5764
裔	-12.5764
亥	-12.5765
抹	-12.5766
灼	-12.5767
迄	-12.5769
禾	-12.577
壺	-12.5771
誅	-12.5773
緻	-12.5773
5	-12.5778
燿	-12.578
芻	-12.6049
􂗶	-12.6051
堯	-12.6052
驕	-12.6052
件	-12.6054
饌	-12.6056
苫	-12.606
祝	-12.6062
愆	-12.6064
庵	-12.6066
壬	-12.6068
箱	-12.6068
錫	-12.6068
韓	-12.607
揩	-12.6071
株	-12.6072
彊	-12.6073
介	-12.6074
跏	-12.6076
班	-12.6077
裸	-12.6078
㭊	-12.608
駭	-12.6081
胤	-12.6081
滔	-12.6085
嬉	-12.6087
竄	-12.6087
氛	-12.609
湍	-12.6094
雌	-12.636
􂗳	-12.6362
猴	-12.6375
沖	-12.6375
鬧	-12.6377
觴	-12.6378
効	-12.638
掠	-12.6381
秉	-12.6385
呻	-12.6388
澀	-12.6389
瓜	-12.639
燸	-12.639
綸	-12.6392
辟	-12.6393
跳	-12.6394
粳	-12.6394
槁	-12.6395
翦	-12.6397
綜	-12.6399
瞙	-12.6401
秖	-12.6402
鐘	-12.6403
弈	-12.6404
睫	-12.6405
冶	-12.6407
廛	-12.6409
戈	-12.6409
菡	-12.6409
觧	-12.6414
窄	-12.6416
魄	-12.6693
斧	-12.671
髀	-12.671
翁	-12.6711
逗	-12.6715
拙	-12.6716
邀	-12.6718
柳	-12.6718
慨	-12.6718
㝹	-12.6719
蝦	-12.6719
斤	-12.6721
霞	-12.6722
廬	-12.6722
迤	-12.6722
瀑	-12.6724
裳	-12.6725
馨	-12.6725
盥	-12.6725
徤	-12.6727
庫	-12.6727
睛	-12.673
憫	-12.673
磧	-12.6732
卉	-12.6732
措	-12.6737
昆	-12.6737
祚	-12.674
輦	-12.6749
甄	-12.6749
6	-12.6752
痒	-12.6758
紂	-12.6761
尿	-12.7029
椎	-12.7034
凍	-12.7054
誣	-12.7055
趙	-12.7056
媒	-12.7057
蠟	-12.7058
埵	-12.7059
雹	-12.7059
坌	-12.706
拱	-12.7063
柰	-12.7065
醎	-12.7067
翰	-12.7067
裴	-12.7069
聊	-12.7069
控	-12.7069
恢	-12.7072
澓	-12.7074
驃	-12.7075
戟	-12.7075
悠	-12.7075
岌	-12.7076
粟	-12.7076
嗚	-12.7076
晴	-12.7077
璧	-12.7079
燕	-12.708
吟	-12.708
喘	-12.7082
砌	-12.7082
蓊	-12.7084
蒼	-12.7085
錠	-12.709
嵗	-12.7096
芸	-12.7097
諛	-12.7098
瘂	-12.74
把	-12.7403
舜	-12.7403
押	-12.7406
償	-12.7413
讐	-12.7414
兌	-12.7415
傲	-12.7415
酧	-12.7416
淹	-12.7421
呌	-12.7422
栖	-12.7422
滄	-12.7424
鞅	-12.7425
埋	-12.7425
旅	-12.7426
蠲	-12.7428
饍	-12.7428
珀	-12.7428
赦	-12.7429
痰	-12.743
溟	-12.7432
週	-12.7433
瞥	-12.7434
旱	-12.7434
佩	-12.7434
叡	-12.7436
泗	-12.7437
閇	-12.7437
罥	-12.7438
虬	-12.7438
隻	-12.7443
膿	-12.7752
呾	-12.7776
硬	-12.778
縈	-12.7784
胃	-12.7785
姦	-12.7786
蚋	-12.7787
唎	-12.7787
洫	-12.7791
腋	-12.7792
爻	-12.7793
褒	-12.7799
鍾	-12.7801
溼	-12.7802
晏	-12.7803
窣	-12.7803
吻	-12.7804
挹	-12.7804
虐	-12.7806
脹	-12.7811
蹙	-12.7815
夙	-12.782
c	-12.7823
礬	-12.7824
嫁	-12.8155
釘	-12.8156
觜	-12.8165
允	-12.8165
挂	-12.8167
罷	-12.8168
繇	-12.8168
架	-12.8169
几	-12.8169
駄	-12.817
邐	-12.8172
遜	-12.8172
忙	-12.8174
亢	-12.8176
係	-12.8176
鑪	-12.8176
弼	-12.8177
蟒	-12.8177
燦	-12.8179
嬾	-12.8181
宥	-12.8182
盾	-12.8182
剩	-12.8183
牕	-12.8184
街	-12.8186
洎	-12.8187
慇	-12.8187
蓐	-12.8187
猷	-12.8187
鴦	-12.8187
徙	-12.8188
顗	-12.8189
突	-12.8191
餐	-12.8192
料	-12.8194
舡	-12.8194
毋	-12.8202
慠	-12.8203
䐡	-12.8206
彭	-12.8547
鏁	-12.8562
虻	-12.8563
矩	-12.8567
趨	-12.8568
藕	-12.8571
懲	-12.8572
股	-12.8573
柯	-12.8575
崔	-12.8578
噵	-12.8579
苾	-12.858
蟄	-12.8581
徽	-12.8582
杲	-12.8583
怱	-12.8583
轡	-12.8584
嗜	-12.8586
甫	-12.8586
埃	-12.8587
萎	-12.8587
酵	-12.8587
掘	-12.8589
鍵	-12.8591
勑	-12.8591
鬢	-12.8592
譚	-12.8592
萏	-12.8594
齎	-12.8596
堵	-12.8598
姟	-12.8601
謎	-12.8601
臰	-12.8603
f	-12.8607
潦	-12.8607
話	-12.8973
梟	-12.8979
茅	-12.8985
箕	-12.8985
瀉	-12.8992
狐	-12.8992
葱	-12.8993
尖	-12.8993
糧	-12.8994
齗	-12.8995
詈	-12.8995
竺	-12.8996
禹	-12.8998
斟	-12.8998
蹄	-12.9
肌	-12.9
艸	-12.9002
嗢	-12.9004
桃	-12.9004
蕋	-12.9004
豹	-12.9005
蕭	-12.9005
緬	-12.9007
邇	-12.9009
邁	-12.901
訾	-12.901
漱	-12.9012
𣧩	-12.9012
娜	-12.9014
穡	-12.9014
恪	-12.9019
零	-12.902
羙	-12.9021
辜	-12.9399
甜	-12.9418
踏	-12.9419
縫	-12.9419
蓬	-12.9421
姑	-12.9423
抉	-12.9424
螫	-12.9425
昂	-12.9425
釣	-12.9426
靺	-12.9426
驟	-12.9426
煗	-12.9428
踝	-12.943
聦	-12.943
廉	-12.9432
拾	-12.9432
矢	-12.9432
叨	-12.9435
巢	-12.9438
貶	-12.9438
笞	-12.9438
癩	-12.9439
𦘕	-12.9439
奄	-12.944
膠	-12.9442
涓	-12.9443
郁	-12.9443
嬪	-12.9444
脅	-12.9444
贖	-12.9444
楔	-12.9446
欻	-12.9447
豔	-12.9448
狎	-12.9449
媿	-12.9451
呿	-12.9451
帥	-12.9451
𡚶	-12.9453
藻	-12.9453
属	-12.9454
阬	-12.9457
s	-12.9459
羼	-12.9467
􂔗	-12.9467
𨷲	-12.9477
軄	-12.9484
厲	-12.9868
甕	-12.9871
丙	-12.9872
艾	-12.9872
澆	-12.9873
紆	-12.9874
堆	-12.9875
惻	-12.9878
台	-12.9878
絹	-12.9878
𨷂	-12.9881
譣	-12.9885
隷	-12.9885
懊	-12.9887
妹	-12.9887
携	-12.9888
渺	-12.9889
殞	-12.9889
貿	-12.989
壘	-12.9891
胝	-12.9891
恰	-12.9892
栴	-12.9892
俊	-12.9892
婢	-12.9893
疣	-12.9894
員	-12.9894
妍	-12.9895
佚	-12.9896
餌	-12.9896
誼	-12.9896
杻	-12.9896
孚	-12.9897
鴈	-12.9898
稷	-12.9899
弋	-12.9902
窻	-12.9902
葦	-12.9903
胄	-12.9905
妖	-12.9906
僊	-12.9906
冝	-12.9908
嶷	-12.991
笛	-12.9914
懌	-12.9914
簫	-12.9914
􂐘	-12.9914
琰	-12.9917
倨	-12.9919
墳	-13.033
橛	-13.0333
厨	-13.0336
袪	-13.0346
𤏙	-13.0348
擅	-13.0348
態	-13.0349
坡	-13.035
鷹	-13.0351
拭	-13.0353
騃	-13.0354
抽	-13.0355
鄔	-13.0357
噫	-13.0357
訴	-13.0358
換	-13.036
液	-13.036
藐	-13.0361
忒	-13.0361
蜀	-13.0362
撻	-13.0362
斂	-13.0363
膊	-13.0363
裁	-13.0364
襵	-13.0365
宵	-13.0365
虹	-13.0366
討	-13.0366
霈	-13.0367
獎	-13.0368
絞	-13.0368
僅	-13.0369
卐	-13.0369
篌	-13.0369
箜	-13.037
個	-13.0371
栽	-13.0371
鉗	-13.0371
廼	-13.0372
催	-13.0372
𠮉	-13.0374
禎	-13.0374
茵	-13.0374
棗	-13.0376
綰	-13.0376
屆	-13.0376
凋	-13.0378
鋸	-13.038
欄	-13.038
兗	-13.0383
島	-13.0384
堄	-13.0386
埤	-13.0386
𠋣	-13.0387
淑	-13.0392
舶	-13.0405
桀	-13.0414
斛	-13.0817
繭	-13.0828
獅	-13.0833
詭	-13.0835
䨥	-13.0839
蟣	-13.0842
刖	-13.0848
婚	-13.0851
傅	-13.0851
濃	-13.0852
鵲	-13.0853
􂕴	-13.0854
裝	-13.0854
薦	-13.0854
腐	-13.0855
煉	-13.0856
蠅	-13.0857
禽	-13.0857
妒	-13.0858
娶	-13.0858
蹉	-13.0859
齡	-13.086
盞	-13.0861
垽	-13.0862
鼎	-13.0863
恤	-13.0863
確	-13.0864
努	-13.0864
釆	-13.0864
軫	-13.0865
洹	-13.0868
眄	-13.0868
磁	-13.0869
僮	-13.087
誌	-13.087
歛	-13.087
緝	-13.0871
諳	-13.0871
雕	-13.0872
姚	-13.0873
構	-13.0876
􂔹	-13.0877
哽	-13.0879
幔	-13.0879
挫	-13.0879
縒	-13.0881
叅	-13.0881
蔗	-13.0885
仇	-13.0895
鹵	-13.1353
矟	-13.1365
臼	-13.1366
閭	-13.1371
拷	-13.1372
曳	-13.1374
偃	-13.1377
拄	-13.1377
販	-13.1378
筵	-13.1378
翠	-13.138
綠	-13.138
碑	-13.1381
稅	-13.1382
銳	-13.1383
播	-13.1384
噁	-13.1384
嵩	-13.1384
梓	-13.1386
頴	-13.1387
疇	-13.1389
唇	-13.1389
􂍧	-13.1391
儲	-13.1392
慞	-13.1394
圄	-13.1395
𢌞	-13.1395
援	-13.1395
滂	-13.1395
囹	-13.1395
墀	-13.1396
織	-13.1396
癲	-13.1396
佳	-13.1397
噎	-13.1401
遑	-13.1402
膺	-13.1402
攘	-13.1403
鄽	-13.1403
繚	-13.1403
擣	-13.1404
簷	-13.1406
毉	-13.1406
蠕	-13.1406
繢	-13.1407
㸦	-13.1408
􂌞	-13.1409
釁	-13.1409
賑	-13.1411
癎	-13.1411
坏	-13.1412
玻	-13.1421
棺	-13.1917
魘	-13.192
毱	-13.1926
顙	-13.1932
潰	-13.1933
鷺	-13.1935
征	-13.1937
戚	-13.1941
虱	-13.1942
檐	-13.1942
痕	-13.1942
嚧	-13.1943
崙	-13.1943
圭	-13.1943
皓	-13.1944
樊	-13.1947
煢	-13.1948
喫	-13.1948
惺	-13.1948
菽	-13.1948
覃	-13.195
鴛	-13.195
攢	-13.195
睟	-13.1954
鏤	-13.1954
彖	-13.1956
頤	-13.1956
雉	-13.1957
倪	-13.1957
埿	-13.1958
瞑	-13.1958
憺	-13.1958
覔	-13.1959
牗	-13.196
卍	-13.196
羂	-13.196
癰	-13.1964
閫	-13.1965
櫓	-13.1966
彫	-13.1966
惒	-13.1967
聵	-13.1968
𨷖	-13.197
很	-13.1971
冉	-13.1972
蚡	-13.1974
璃	-13.1983
襄	-13.2454
楮	-13.2496
鞠	-13.251
懍	-13.2514
逍	-13.2517
鼈	-13.2518
岷	-13.2521
蠶	-13.2521
唄	-13.2523
瓣	-13.2523
癸	-13.2524
猫	-13.2527
疋	-13.2528
慜	-13.2529
塲	-13.2529
鶖	-13.253
圃	-13.253
佇	-13.253
濤	-13.2533
伍	-13.2533
虞	-13.2534
訣	-13.2534
槩	-13.2534
愕	-13.2534
惚	-13.2535
侮	-13.2536
陌	-13.2537
漆	-13.2539
蔓	-13.2541
協	-13.2541
啖	-13.2545
靂	-13.2545
霹	-13.2546
淘	-13.2549
募	-13.2549
鸞	-13.2549
𦊱	-13.2549
杪	-13.2549
蠡	-13.2549
黜	-13.255
弭	-13.2552
𠹌	-13.256
瘀	-13.256
翊	-13.2562
菜	-13.3121
瓠	-13.3121
惣	-13.3123
爍	-13.3125
乱	-13.3126
羝	-13.3133
溉	-13.3134
蒸	-13.3135
閒	-13.3136
殉	-13.3137
麝	-13.3138
紳	-13.314
􂌦	-13.314
囂	-13.3141
睥	-13.3143
樵	-13.3143
懵	-13.3146
搥	-13.3148
疱	-13.3148
汪	-13.3149
撲	-13.3149
謾	-13.3151
髣	-13.3151
緘	-13.3154
𠍴	-13.3156
畟	-13.3157
嫡	-13.3158
穩	-13.3159
悼	-13.3159
邈	-13.3159
惹	-13.3161
匐	-13.3162
瀆	-13.3163
漁	-13.3163
覊	-13.3164
迂	-13.3164
鳧	-13.3165
寓	-13.3166
献	-13.3167
羨	-13.3167
蘿	-13.3167
窶	-13.3168
漠	-13.3168
勁	-13.3168
甑	-13.317
肴	-13.3171
儞	-13.3171
弔	-13.3171
燧	-13.3174
恊	-13.3175
錐	-13.3175
嚚	-13.3175
幅	-13.3177
奩	-13.3178
栢	-13.3179
敦	-13.3179
苣	-13.318
矧	-13.3181
桉	-13.3181
肖	-13.3184
賔	-13.3185
濩	-13.3186
弩	-13.3193
●	-13.3563
駝	-13.3763
拈	-13.3795
墓	-13.3797
餚	-13.38
酷	-13.3809
舩	-13.381
碩	-13.3811
斜	-13.3811
榛	-13.3812
𨤲	-13.3812
琢	-13.3812
蟇	-13.3813
礦	-13.3814
枚	-13.3816
憲	-13.3818
桑	-13.382
糠	-13.382
渝	-13.3821
挈	-13.3821
彥	-13.3822
畵	-13.3822
颺	-13.3823
蹋	-13.3823
剜	-13.3824
皤	-13.3825
浸	-13.3826
雍	-13.3827
簸	-13.3828
薀	-13.383
猿	-13.3831
駿	-13.3832
寇	-13.3832
竇	-13.3832
縵	-13.3834
臏	-13.3835
祜	-13.3835
銛	-13.3835
航	-13.3836
隴	-13.3837
汩	-13.3841
㲲	-13.3841
椰	-13.3841
榜	-13.3842
晡	-13.3843
䖟	-13.3845
懅	-13.3849
屹	-13.3849
妊	-13.3859
亷	-13.386
葵	-13.4485
洒	-13.4503
嚙	-13.4506
齧	-13.4514
鵰	-13.4517
戎	-13.4517
雀	-13.4519
珪	-13.452
𢍉	-13.4524
葬	-13.4524
轅	-13.4524
迸	-13.4525
秊	-13.4525
鏃	-13.4525
槌	-13.4527
鵄	-13.4527
聆	-13.453
羇	-13.453
狄	-13.4532
灯	-13.4532
翌	-13.4533
禿	-13.4533
膓	-13.4536
蹲	-13.4536
紊	-13.4538
泆	-13.4539
郤	-13.4539
恍	-13.454
臀	-13.4541
紜	-13.4541
訥	-13.4541
匍	-13.4541
悍	-13.4541
皂	-13.4541
峨	-13.4542
狸	-13.4544
疥	-13.4544
袒	-13.4545
崑	-13.4546
鐶	-13.4546
鈐	-13.4547
痊	-13.4547
估	-13.4547
蚌	-13.4547
鏘	-13.4548
亞	-13.4548
袨	-13.4548
塠	-13.4549
紇	-13.455
筮	-13.4551
靁	-13.4552
呰	-13.4553
弦	-13.4553
耘	-13.4553
僚	-13.4553
碧	-13.4554
蔡	-13.4554
店	-13.4555
孱	-13.4555
贅	-13.4557
攫	-13.4558
万	-13.4558
寰	-13.4559
垓	-13.4559
扈	-13.456
詛	-13.4561
廷	-13.4561
𠁅	-13.4566
罸	-13.4566
憩	-13.4569
𦗟	-13.457
趾	-13.457
朴	-13.4571
系	-13.4573
𢈔	-13.4576
喬	-13.4577
誹	-13.4578
衷	-13.4589
癘	-13.5254
涎	-13.5269
蝎	-13.527
繡	-13.5273
蟠	-13.528
皰	-13.5281
榻	-13.5284
掛	-13.5287
憧	-13.529
稗	-13.5292
擒	-13.5293
煮	-13.5297
刈	-13.5298
肚	-13.53
拍	-13.53
鍛	-13.5301
瘥	-13.5301
奸	-13.5302
眩	-13.5302
聯	-13.5303
稀	-13.5303
挽	-13.5303
毳	-13.5303
蹬	-13.5304
腕	-13.5304
誇	-13.5305
霄	-13.5307
杏	-13.5307
慍	-13.5308
抨	-13.5309
婁	-13.5309
撤	-13.5311
忖	-13.5312
效	-13.5312
筞	-13.5312
鞔	-13.5312
稔	-13.5313
曝	-13.5313
𧂐	-13.5313
蜺	-13.5313
澣	-13.5314
傭	-13.5314
腫	-13.5314
握	-13.5314
臚	-13.5317
拆	-13.5318
瑰	-13.5318
冕	-13.5319
咤	-13.5319
瀚	-13.532
悵	-13.5321
碓	-13.5321
槍	-13.5321
亟	-13.5322
躅	-13.5323
霖	-13.5323
𢤱	-13.5323
你	-13.5324
堞	-13.5324
偉	-13.5325
粲	-13.5326
淼	-13.5327
屑	-13.5328
晷	-13.533
淤	-13.5338
鈿	-13.5339
琦	-13.5341
喝	-13.5344
懿	-13.5349
瑿	-13.5361
掣	-13.6078
蠻	-13.6099
剔	-13.6108
牋	-13.6117
煨	-13.6117
嘻	-13.612
眹	-13.6124
莽	-13.6126
采	-13.6127
嘶	-13.6127
豺	-13.6128
啻	-13.6128
陞	-13.6128
鞋	-13.6128
湊	-13.6129
蕀	-13.6129
糩	-13.613
巫	-13.613
谿	-13.6131
忤	-13.6131
培	-13.6135
兢	-13.6137
磕	-13.6137
杙	-13.6137
魑	-13.6137
杯	-13.6138
拕	-13.6138
轝	-13.6138
駈	-13.614
姤	-13.6141
馥	-13.6142
躋	-13.6143
岫	-13.6143
穹	-13.6144
賾	-13.6144
悖	-13.6145
諾	-13.6145
篅	-13.6145
孺	-13.6145
覧	-13.6145
緜	-13.6146
撾	-13.6147
揣	-13.6148
鵂	-13.6148
敝	-13.6148
忝	-13.6148
蓄	-13.6149
賷	-13.615
誐	-13.6152
磬	-13.6152
帆	-13.6153
梗	-13.6153
黯	-13.6153
仕	-13.6154
迪	-13.6155
蜎	-13.6155
杭	-13.6156
襟	-13.6156
尉	-13.6156
狡	-13.6157
簣	-13.6158
瀁	-13.6158
遁	-13.6159
汰	-13.616
𪗇	-13.6162
滲	-13.6162
謚	-13.6164
弧	-13.6164
㦸	-13.6165
鉅	-13.6165
桚	-13.6166
雰	-13.6168
繽	-13.6169
衂	-13.6169
皺	-13.617
减	-13.6176
諒	-13.618
稜	-13.7003
陪	-13.7004
搴	-13.7017
洴	-13.7017
澼	-13.7017
鎗	-13.7021
菟	-13.7022
瘖	-13.7022
栰	-13.7022
茘	-13.7026
烹	-13.7028
蛻	-13.703
愴	-13.7031
嘖	-13.7031
藂	-13.7034
蘧	-13.7036
箋	-13.7037
雁	-13.7037
煻	-13.7037
綏	-13.7038
紋	-13.7039
瘠	-13.7039
墟	-13.7041
珞	-13.7042
靴	-13.7043
佷	-13.7044
馴	-13.7044
匣	-13.7046
奕	-13.7046
昴	-13.7046
燼	-13.7046
摭	-13.7047
督	-13.7048
濱	-13.7048
盪	-13.7049
核	-13.7049
璞	-13.705
冐	-13.7051
堦	-13.7051
攪	-13.7051
薗	-13.7052
犧	-13.7053
义	-13.7053
闠	-13.7054
杷	-13.7056
楸	-13.7057
麾	-13.7057
顰	-13.7058
懾	-13.7058
闌	-13.7058
枇	-13.7058
𡶨	-13.7059
穽	-13.7059
祛	-13.7059
署	-13.706
擐	-13.7061
窹	-13.7061
郊	-13.7061
戢	-13.7062
腑	-13.7063
吃	-13.7063
闚	-13.7064
捻	-13.7064
粵	-13.7065
洄	-13.7066
傑	-13.7066
篾	-13.7066
㨗	-13.7068
双	-13.7068
柁	-13.7068
憔	-13.7069
跽	-13.707
謇	-13.7071
胱	-13.7071
膀	-13.7071
驎	-13.7072
犂	-13.7073
塑	-13.7073
牸	-13.7075
粘	-13.7075
蕃	-13.7075
蛟	-13.7075
捃	-13.7075
丞	-13.7076
褰	-13.708
吕	-13.7081
柂	-13.7081
版	-13.7084
纊	-13.7085
拖	-13.7087
矦	-13.7107
溈	-13.7992
豕	-13.7994
艶	-13.8004
庖	-13.8011
恁	-13.8012
獼	-13.8014
嬌	-13.8016
概	-13.8017
餒	-13.8017
咲	-13.8018
嗉	-13.8019
做	-13.802
胥	-13.8021
扼	-13.8021
蝮	-13.8022
澇	-13.8023
剉	-13.8027
訊	-13.8029
縳	-13.8029
屣	-13.8031
茹	-13.8033
衒	-13.8034
瓮	-13.8034
芙	-13.8035
叱	-13.8037
郢	-13.8037
鰓	-13.8039
姨	-13.8039
顓	-13.804
眴	-13.8041
疼	-13.8041
褁	-13.8042
絮	-13.8042
贈	-13.8045
柄	-13.8045
泳	-13.8045
綖	-13.8045
鄧	-13.8046
鍼	-13.8046
邕	-13.8047
屯	-13.8048
倮	-13.8048
蔕	-13.8049
徼	-13.8051
豬	-13.8051
掬	-13.8052
玼	-13.8052
謫	-13.8053
澗	-13.8053
兇	-13.8054
玫	-13.8054
績	-13.8054
塘	-13.8056
謨	-13.8058
擗	-13.8059
瞢	-13.8061
巘	-13.8061
凉	-13.8061
俞	-13.8062
䗍	-13.8063
霆	-13.8063
范	-13.8065
隥	-13.8065
姻	-13.8065
墠	-13.8065
萊	-13.8066
婉	-13.8067
湘	-13.8068
湑	-13.8069
歴	-13.807
霪	-13.8072
彎	-13.8073
濶	-13.8073
匡	-13.8074
嶂	-13.8074
副	-13.8074
癹	-13.8075
孽	-13.8077
檝	-13.808
鵞	-13.8082
侘	-13.8083
皴	-13.8089
袁	-13.8089
弁	-13.8104
𩔗	-13.8105
駱	-13.9085
瓨	-13.9096
癭	-13.9112
麞	-13.912
俸	-13.9123
咬	-13.9129
貸	-13.913
魍	-13.9133
魎	-13.9133
䆳	-13.9133
楪	-13.9134
娥	-13.9136
盂	-13.9138
鍱	-13.9138
冑	-13.9138
蓉	-13.9139
殑	-13.914
𠲿	-13.914
袋	-13.9141
琅	-13.9141
鉞	-13.9142
惕	-13.9142
衲	-13.9143
魁	-13.9143
劈	-13.9144
慘	-13.9147
庾	-13.915
蛆	-13.915
擻	-13.9152
凜	-13.9153
瓢	-13.9154
窗	-13.9156
氐	-13.9157
囕	-13.9157
躰	-13.9157
頡	-13.9157
偕	-13.9158
鋩	-13.9159
顒	-13.9159
褐	-13.9162
虜	-13.9162
頷	-13.9162
斑	-13.9163
嘯	-13.9163
幟	-13.9163
侈	-13.9163
抖	-13.9163
逵	-13.9164
檄	-13.9165
氎	-13.9165
梅	-13.9166
磻	-13.9167
欬	-13.9168
旹	-13.9169
􂋧	-13.917
膖	-13.917
蚤	-13.9171
隟	-13.9172
弛	-13.9172
碪	-13.9173
㝡	-13.9174
䖍	-13.9174
𣣋	-13.9176
𩯭	-13.9176
惔	-13.9176
埸	-13.9176
窈	-13.9177
猊	-13.9178
鬣	-13.9178
猜	-13.9179
騖	-13.9179
涵	-13.9179
翮	-13.9181
莅	-13.9182
晌	-13.9183
隳	-13.9184
凢	-13.9184
煒	-13.9184
猾	-13.9185
貳	-13.9186
徂	-13.9186
靉	-13.9186
朦	-13.9187
殻	-13.9187
󳼶	-13.9188
虢	-13.9188
尹	-13.9192
􂗎	-13.9192
㨿	-13.9192
㪷	-13.9193
鑷	-13.9195
僥	-13.9195
尒	-13.9271
絖	-14.0351
蠍	-14.0357
隍	-14.0362
蹴	-14.0363
馮	-14.0367
蝨	-14.0376
址	-14.0376
倈	-14.0376
拋	-14.0378
駐	-14.039
捔	-14.039
舘	-14.0391
豚	-14.0392
叟	-14.0394
轄	-14.0394
袖	-14.0394
嘔	-14.0395
抃	-14.0395
炮	-14.0395
篆	-14.0395
弃	-14.0396
課	-14.0396
盻	-14.0397
臟	-14.0397
吮	-14.0397
腥	-14.0398
髭	-14.0398
仛	-14.0398
闈	-14.0398
貽	-14.0398
扆	-14.0399
暄	-14.04
梏	-14.0401
漬	-14.0401
朧	-14.0402
逋	-14.0402
瀰	-14.0402
曙	-14.0404
歐	-14.0404
儜	-14.0404
驪	-14.0405
鶹	-14.0408
寵	-14.0408
縠	-14.0408
叶	-14.0408
櫚	-14.0409
罤	-14.0409
磑	-14.041
虺	-14.041
賄	-14.041
旗	-14.0412
姉	-14.0412
翱	-14.0412
橈	-14.0413
𢙣	-14.0414
樑	-14.0414
𣗥	-14.0414
弒	-14.0414
荔	-14.0414
泄	-14.0414
凾	-14.0415
蚖	-14.0415
抒	-14.0416
躃	-14.0417
俶	-14.0417
韜	-14.0417
鑠	-14.0417
舸	-14.0417
芒	-14.0417
听	-14.0418
歒	-14.0418
嘷	-14.0419
狠	-14.0419
羲	-14.0419
霍	-14.0419
塢	-14.0419
吁	-14.042
賒	-14.0421
椶	-14.0421
汾	-14.0421
嗽	-14.0422
掦	-14.0423
秩	-14.0423
瘢	-14.0423
濬	-14.0424
呬	-14.0424
耄	-14.0425
砰	-14.0425
菔	-14.0425
澒	-14.0426
矬	-14.0426
筒	-14.0426
爇	-14.0426
黶	-14.0427
絢	-14.0427
芮	-14.0427
椀	-14.0428
褊	-14.0429
距	-14.043
􂗌	-14.043
机	-14.0431
昵	-14.0432
荀	-14.0432
廕	-14.0433
扞	-14.0436
騏	-14.0438
倖	-14.0438
囿	-14.0439
浙	-14.0439
㷿	-14.0442
咒	-14.0444
叮	-14.0445
皦	-14.0447
犗	-14.0451
脛	-14.0457
𦰧	-14.0493
䬸	-14.1791
企	-14.1809
䤈	-14.1817
㬥	-14.1826
䥫	-14.183
㐫	-14.1832
褚	-14.1833
醍	-14.1835
罣	-14.1835
㯹	-14.1838
醐	-14.1845
丐	-14.1852
䘏	-14.1852
訂	-14.1855
々	-14.1859
耨	-14.1863
㑦	-14.1865
㳂	-14.1866
閦	-14.1867
侫	-14.1872
巍	-14.346
粮	-14.3462
纜	-14.3507
臾	-14.3509
瑠	-14.3526
裟	-14.5491
琉	-14.5524
憨	-14.8017
碯	-14.8034
媸	-14.8036
-	-14.8039
姊	-14.8045
犲	-15.1309
忉	-15.1312
哮	-15.1348
硨	-15.1348
磲	-15.1348
瑚	-15.1365
碼	-15.1367
芭	-15.6266
袈	-15.6313
蕉	-15.6316
瓈	-15.6339
寞	-15.6355
霅	-15.6364
o	-15.6367
婇	-15.6377
—	-16.6391
湼	-16.6424
髴	-16.6425
瑳	-16.6426
琥	-16.6427
􂗴	-16.6428
蝴	-16.6429
辞	-16.643
瑪	-16.6431
摜	-16.6432
藎	-16.6433
[	-16.6434
𠷌	-16.6435
>	-16.6436
N	-16.6437
闐	-16.6437
