<unk>	0
<s>	0
</s>	0
/	-3.27524
)(	-3.63298
之	-3.77153
也	-3.96397
而	-4.44616
)	-4.48212
(	-4.58215
以	-4.67794
者	-4.69581
則	-4.74027
不	-4.85846
其	-4.92623
為	-5.15154
有	-5.15357
故	-5.29457
,	-5.3775
言	-5.37981
於	-5.38038
是	-5.44549
人	-5.60861
曰	-5.62037
無	-5.71099
謂	-5.71213
。	-5.72042
○	-5.74865
此	-5.76956
矣	-5.81404
至	-5.89962
皆	-5.96584
行	-6.0384
子	-6.04015
與	-6.05177
非	-6.05671
上	-6.07506
君	-6.08206
云	-6.09705
禮	-6.12907
敬	-6.15403
孝	-6.15717
乎	-6.16341
亦	-6.18707
事	-6.20146
注	-6.21605
下	-6.21707
明	-6.22389
親	-6.23026
自	-6.23666
反	-6.23691
一	-6.27216
焉	-6.31077
天	-6.31484
爲	-6.31691
臣	-6.32265
▁	-6.33649
所	-6.34105
能	-6.36224
必	-6.36505
于	-6.38713
道	-6.40003
註	-6.41486
鄭	-6.42114
大	-6.4214
父	-6.44481
在	-6.45811
及	-6.47583
生	-6.52419
徳	-6.53061
然	-6.53987
愛	-6.56391
又	-6.58581
雖	-6.61016
義	-6.6115
如	-6.61625
文	-6.62052
:	-6.64514
玄	-6.64515
樂	-6.66198
士	-6.66524
所以	-6.66636
三	-6.6742
若	-6.67823
天子	-6.68837
夫	-6.68882
教	-6.70104
可	-6.71411
經	-6.7215
用	-6.73804
猶	-6.73853
身	-6.74077
作	-6.74226
順	-6.74693
稱	-6.74741
民	-6.74775
同	-6.75645
得	-6.75931
正	-6.76517
中	-6.76587
疏	-6.76946
立	-6.78042
始	-6.80826
▁(	-6.82043
知	-6.82223
祭	-6.8233
國	-6.83115
見	-6.83279
君子	-6.83493
王	-6.86679
天下	-6.86816
名	-6.87544
從	-6.8756
已	-6.88756
乃	-6.89294
本	-6.89767
使	-6.9089
諸侯	-6.91448
尊	-6.92341
𤣥宗曰	-6.9296
者也	-6.93434
因	-6.94492
孝經	-6.94907
何	-6.96391
治	-6.99441
成	-6.99532
後	-7.00247
忠	-7.02225
服	-7.02466
仁	-7.039
分	-7.04777
五	-7.05075
命	-7.05192
先	-7.06032
既	-7.06828
凡	-7.07089
心	-7.08465
時	-7.08881
家	-7.08953
長	-7.09024
傳	-7.0971
法	-7.10389
地	-7.12082
公	-7.125
貴	-7.12915
易	-7.12919
日	-7.14462
當	-7.16417
惡	-7.17129
以為	-7.17292
之道	-7.18104
德	-7.1834
聖人	-7.18476
善	-7.18942
出	-7.19169
四	-7.20053
而後	-7.20054
未	-7.21089
説	-7.21185
惟	-7.21848
即	-7.21976
夫子	-7.22009
理	-7.2225
章	-7.2272
今	-7.23144
子曰	-7.233
古文	-7.23471
居	-7.23605
終	-7.23816
而不	-7.2423
詩	-7.2469
相	-7.24776
司馬光曰	-7.25977
字	-7.26351
二	-7.26358
重	-7.2686
問	-7.26909
諸	-7.27045
書	-7.273
致	-7.27423
學	-7.27782
安	-7.27874
官	-7.28319
和	-7.28333
周	-7.28813
將	-7.31628
不可	-7.31891
養	-7.31943
父母	-7.32472
合	-7.34569
弟	-7.36612
大夫	-7.36814
取	-7.3695
愛敬	-7.36987
欲	-7.38192
主	-7.38867
師	-7.3903
之義	-7.40905
多	-7.41465
母	-7.41995
常	-7.42088
音	-7.43153
過	-7.4337
世	-7.43406
天地	-7.44288
起	-7.44521
舉	-7.4564
失	-7.46694
故曰	-7.47335
外	-7.47365
嚴	-7.47409
物	-7.47928
刑	-7.48051
葢	-7.48301
或	-7.49299
亂	-7.49688
盡	-7.49974
語	-7.50689
我	-7.50801
敎	-7.51373
古	-7.51683
不能	-7.52241
備	-7.52408
六	-7.52449
卿大夫	-7.52794
孔子	-7.52814
諫	-7.53104
正義曰	-7.53671
己	-7.54845
宜	-7.56226
食	-7.56713
聞	-7.56771
守	-7.5747
喪	-7.58158
且	-7.58294
是以	-7.58585
内	-7.58607
處	-7.59693
祀	-7.59771
信	-7.60825
然則	-7.61432
通	-7.61862
思	-7.62626
性	-7.62715
衆	-7.63385
政	-7.634
宗	-7.63409
復	-7.63485
極	-7.64723
也故	-7.65026
謂之	-7.65219
所謂	-7.6548
去	-7.65498
聖	-7.65659
意	-7.65952
志	-7.6651
實	-7.66522
各	-7.66579
小	-7.6716
不敢	-7.67791
辭	-7.68069
曽子	-7.68198
廟	-7.68372
盖	-7.68437
朝	-7.68685
祖	-7.68774
遂	-7.70066
節	-7.70413
制	-7.71066
而已	-7.71559
位	-7.71734
先王	-7.72344
引	-7.72368
獨	-7.72446
固	-7.7281
可以	-7.73265
入	-7.73499
化	-7.73581
難	-7.7388
情	-7.74868
進	-7.75193
方	-7.75296
存	-7.75941
著	-7.76163
序	-7.76194
尚	-7.76342
加	-7.77217
誠	-7.77517
宗廟	-7.77601
事君	-7.779
豈	-7.78181
說	-7.78225
異	-7.78517
齊	-7.78792
禮樂	-7.79464
不得	-7.79485
由	-7.79923
今文	-7.79999
總	-7.80002
也然則	-7.80456
利	-7.80465
哉	-7.81228
之事	-7.81233
體	-7.81391
之心	-7.81441
保	-7.81662
哀	-7.81793
死	-7.81898
耳	-7.82089
陳	-7.82355
近	-7.82638
如此	-7.82925
釋	-7.8297
享	-7.83535
神	-7.84523
至於	-7.84601
文王	-7.85483
庶人	-7.85585
恭	-7.85715
質	-7.86196
篇	-7.86578
賢	-7.87177
初	-7.87323
不知	-7.88052
視	-7.88191
數	-7.88465
發	-7.88586
斯	-7.88684
七	-7.89248
老	-7.89361
逺	-7.90282
正義曰云	-7.90508
美	-7.90899
何也曰	-7.91267
吾	-7.91326
疑	-7.91615
别	-7.91945
亡	-7.91952
傷	-7.93119
止	-7.93515
直	-7.93767
音義	-7.94546
其所	-7.94636
變	-7.95409
改	-7.96035
辨	-7.96368
也云	-7.96918
令	-7.99031
定	-7.99058
厚	-7.9913
争	-7.99372
受	-7.99381
首	-7.99474
又曰	-7.99759
奉	-7.99811
風	-8.0003
盛	-8.00041
春秋	-8.0029
卿	-8.00344
但	-8.01605
也言	-8.01812
十	-8.0194
兄	-8.02091
等	-8.02224
施	-8.02471
益	-8.02477
執	-8.02579
設	-8.02709
孝子	-8.03155
曾子	-8.03207
觀	-8.03516
明堂	-8.03636
少	-8.04469
夏	-8.04767
深	-8.05802
其身	-8.0583
按	-8.05923
案	-8.05974
憂	-8.06036
然後	-8.06543
好	-8.06606
次	-8.0661
論	-8.0687
萬	-8.07004
之言	-8.07492
帝	-8.07819
孝弟	-8.07899
也注	-8.08169
人之	-8.08213
興	-8.08256
力	-8.08899
慎	-8.09474
並	-8.09478
告	-8.09584
郊	-8.0979
承	-8.10581
之意	-8.10675
歸	-8.11246
弗	-8.11332
氣	-8.11494
行之	-8.11837
九	-8.1192
唯	-8.11959
水	-8.11997
社稷	-8.12068
武	-8.12116
前	-8.12387
賤	-8.12873
述	-8.13019
也夫	-8.13134
一人	-8.1354
莫	-8.13705
配	-8.14414
富	-8.14691
象	-8.14797
要	-8.15155
功	-8.15462
患	-8.16067
推	-8.16365
廣	-8.16586
天下之	-8.16695
月	-8.17212
舜	-8.17242
嘗	-8.17253
讓	-8.17322
參	-8.17402
兼	-8.17797
類	-8.18044
䘮	-8.18626
逆	-8.18684
悌	-8.19253
是故	-8.19406
社	-8.19705
載	-8.19735
感	-8.19858
共	-8.20157
南	-8.20281
朱子	-8.2037
之義也	-8.20484
行孝	-8.20983
就	-8.20997
立身	-8.21407
應	-8.21847
必有	-8.22072
四海	-8.22313
:「	-8.22609
元	-8.22635
友	-8.22661
者乎	-8.22703
足	-8.23055
東	-8.23564
記曰	-8.24109
降	-8.2511
謹	-8.25115
言之	-8.25124
未有	-8.25182
紀	-8.2528
寡	-8.25406
修	-8.25695
殺	-8.25715
甚	-8.26045
則必	-8.26046
百	-8.26897
疾	-8.27228
臨	-8.27455
明王	-8.27471
平	-8.27746
孔	-8.27777
尚書	-8.27836
率	-8.27867
事親	-8.2791
代	-8.28051
御	-8.28815
爭	-8.29906
孫	-8.30279
蓋	-8.30495
訓	-8.30496
更	-8.30635
悦	-8.30991
報	-8.30992
爵	-8.31028
度	-8.31124
之禮	-8.31168
春	-8.31481
獻	-8.31964
之行	-8.32304
者謂	-8.32797
以明	-8.32816
戒	-8.32891
聖人之	-8.33352
資	-8.33387
聲	-8.33716
此章	-8.33813
求	-8.34061
旣	-8.34201
色	-8.34297
陽	-8.3436
萬物	-8.34441
上下	-8.34913
遺	-8.35031
恐	-8.35044
則不	-8.35924
宫	-8.3652
祭祀	-8.36595
慈	-8.3679
敢	-8.37131
西	-8.3724
虞	-8.3739
脩	-8.37396
年	-8.37813
對	-8.37899
自然	-8.38296
具	-8.38321
仁義	-8.38459
來	-8.38676
百姓	-8.38812
孝道	-8.38868
衰	-8.3933
於天	-8.3935
動	-8.39397
之後	-8.39439
危	-8.39529
辟	-8.39578
無所	-8.39654
考	-8.39675
漢	-8.39861
周公	-8.40081
怨	-8.40092
光	-8.40155
廢	-8.40284
據	-8.40349
卑	-8.40398
與曰	-8.40412
議	-8.40494
坐	-8.4059
𤣥	-8.40639
息	-8.40703
間	-8.41962
列	-8.41963
田	-8.42047
詩云	-8.42048
授	-8.4243
任	-8.42738
而無	-8.4274
鬼神	-8.42916
其親	-8.42979
棺	-8.43495
土	-8.43592
簡	-8.43702
克	-8.43733
指	-8.43754
𤼵	-8.43763
昭	-8.43871
誼	-8.43993
約	-8.4401
高	-8.44021
太	-8.44097
右	-8.44121
流	-8.44155
之謂也	-8.44233
之道也	-8.44297
何也	-8.44364
足以	-8.44599
衣	-8.44675
以爲	-8.45421
諸侯之	-8.45434
是也	-8.45552
苟	-8.45658
氏	-8.458
為孝	-8.45904
以孝	-8.46238
射	-8.46889
至于	-8.46955
末	-8.47088
禹	-8.47131
依	-8.4733
》	-8.47359
於此	-8.47368
者矣	-8.47401
魯	-8.47453
冠	-8.47574
爾	-8.48516
世子	-8.49016
比	-8.49111
詳	-8.49724
彼	-8.49934
特	-8.49992
封	-8.50084
絶	-8.50194
屬	-8.50349
微	-8.50418
溢	-8.50812
卜	-8.50973
周禮	-8.50978
達	-8.50983
仕	-8.50986
、	-8.5102
集	-8.51048
矣故	-8.51104
尊卑	-8.51104
子之	-8.52172
目	-8.52229
之所	-8.52723
尸	-8.52767
句	-8.52935
之時	-8.5296
葬	-8.53418
慮	-8.53498
以事	-8.53851
答	-8.54136
藏	-8.54227
三年	-8.54334
辱	-8.54528
㑹	-8.54615
。《	-8.54638
又云	-8.54681
髙	-8.54702
為之	-8.55157
業	-8.55191
示	-8.55874
君臣	-8.56021
㫖	-8.56025
賔	-8.56616
乎曰	-8.56666
之大	-8.5687
以此	-8.57048
之謂	-8.57097
室	-8.57154
卽	-8.5755
俱	-8.57603
擇	-8.57891
要道	-8.57906
繼	-8.57971
則亦	-8.5806
餘	-8.58101
口	-8.58171
刪	-8.5832
兩	-8.58407
請	-8.58523
晉	-8.58531
良	-8.58539
恩	-8.58909
待	-8.59494
門	-8.59622
而言	-8.6008
端	-8.60172
勝	-8.60241
似	-8.60452
故以	-8.60667
配天	-8.607
全	-8.60763
養老	-8.60826
驕	-8.60869
見於	-8.60884
違	-8.61011
皆有	-8.61028
饗	-8.6115
除	-8.61413
殷	-8.61489
退	-8.61709
顯	-8.61713
四時	-8.61759
於天下	-8.61786
罪	-8.61846
左	-8.61941
舊	-8.61983
詩曰	-8.62234
原	-8.62272
古之	-8.62303
富貴	-8.62415
羣	-8.62419
。」	-8.62451
睦	-8.62457
秋	-8.62597
卒	-8.62675
容	-8.62909
四方	-8.63489
此則	-8.63705
之名	-8.63927
正義	-8.6431
神明	-8.6435
八	-8.64559
不孝	-8.64592
一也	-8.64825
至徳	-8.65521
何以	-8.65529
孝也	-8.65792
予	-8.65915
器	-8.66271
侍	-8.66399
侯	-8.66557
秦	-8.66613
威	-8.66618
交	-8.66663
不以	-8.66708
尤	-8.66732
記	-8.66881
寧	-8.67116
昔者	-8.67204
教民	-8.67323
忘	-8.6816
滅	-8.68309
繇	-8.68721
君子之	-8.68784
後世	-8.68938
犯	-8.69143
天地之	-8.69285
悖	-8.6938
天子之	-8.69466
出於	-8.69472
無有	-8.69939
墨	-8.69985
須	-8.70085
終始	-8.70147
吉	-8.70189
治天下	-8.70254
假	-8.70256
俗	-8.70435
堂	-8.70612
孟子	-8.7077
害	-8.7088
伯	-8.70885
族	-8.7092
席	-8.70977
斷	-8.70988
輕	-8.71021
拜	-8.71038
奠	-8.71073
妄	-8.71134
女	-8.71177
孝者	-8.71398
揚名	-8.71833
也又	-8.71964
在於	-8.72265
親也	-8.72415
移	-8.72775
主人	-8.73124
曽子曰	-8.73184
庶	-8.7326
始也	-8.73318
周人	-8.73403
君也	-8.73657
道也	-8.73766
慢	-8.73924
察	-8.73967
従	-8.74332
儀	-8.74561
司	-8.74763
者言	-8.74781
劉炫	-8.74934
萬國	-8.7517
惡慢	-8.75201
申	-8.75322
以禮	-8.75348
祿	-8.75385
置	-8.75521
證	-8.75584
於孝	-8.75595
也若	-8.75602
生於	-8.75671
木	-8.75739
貴賤	-8.75783
之以	-8.76116
上帝	-8.76161
五刑	-8.76309
成王	-8.76439
后稷	-8.7663
竝	-8.76633
婦	-8.77315
又何	-8.77377
徒	-8.77886
私	-8.77968
下同	-8.78491
典	-8.78508
闕	-8.78548
之於	-8.78719
宋	-8.79231
禍	-8.79316
離	-8.79487
王者	-8.7972
燕	-8.7975
適	-8.79936
咸	-8.80066
左傳	-8.80132
不同	-8.80271
精	-8.80315
覆	-8.80398
不足	-8.80403
省	-8.80424
馬	-8.80471
得其	-8.80586
遠	-8.81105
子孫	-8.81218
於君	-8.81458
於人	-8.8205
者以	-8.82206
兄弟	-8.82551
則是	-8.82689
解	-8.82851
之不	-8.83239
父子	-8.83376
久	-8.83418
躬	-8.83595
論語	-8.83674
人君	-8.83903
習	-8.84146
則民	-8.84307
昔	-8.84391
天之	-8.84417
其上	-8.84498
聽	-8.84499
傳曰	-8.84786
偽	-8.84879
冬	-8.84962
皇	-8.85036
接	-8.85118
鬼	-8.8513
扵	-8.85131
侍坐	-8.85145
夫音扶	-8.85173
史	-8.85233
兆	-8.85298
㣲	-8.853
持	-8.85302
哭	-8.85311
将	-8.85324
審	-8.85369
續	-8.85385
薦	-8.85395
嵗	-8.85431
禄	-8.85437
布	-8.85465
飲食	-8.85471
隂	-8.85478
厥	-8.85489
均	-8.85505
寒暑	-8.85514
喜	-8.85533
揚	-8.85569
嚴父	-8.85631
之間	-8.85759
義也	-8.85854
法也	-8.86189
孔子曰	-8.86379
之本也	-8.86487
孔傳	-8.86522
五帝	-8.8666
則有	-8.8669
怒	-8.87422
清	-8.8872
而不可	-8.88838
其事	-8.89108
千	-8.89135
曽	-8.89172
望	-8.89197
毁	-8.89258
卷	-8.89398
日月	-8.89458
國君	-8.89513
君之	-8.89515
充	-8.89551
殊	-8.89591
不敬	-8.89672
暴	-8.8977
越	-8.89835
不過	-8.90046
風雨	-8.90224
三者	-8.90455
稷	-8.90466
北	-8.90474
季	-8.90489
唐	-8.90528
國家	-8.90545
肅	-8.90578
差	-8.90583
譲	-8.90598
補	-8.90604
禘	-8.90631
校	-8.90691
畢	-8.90693
誰	-8.90699
面	-8.90704
痛	-8.90708
趨	-8.90709
式	-8.90722
避	-8.9074
崇	-8.9079
博愛	-8.90854
夫婦	-8.91065
左右	-8.91359
事父	-8.91831
此言	-8.92124
始於	-8.92348
儒	-8.92566
為大	-8.92748
牲	-8.9314
其心	-8.93382
倫	-8.93505
禮記	-8.93627
責	-8.93659
根	-8.93705
朱子曰	-8.93826
不可以	-8.93842
智	-8.94406
條	-8.94485
海	-8.94491
先王之	-8.94842
其義	-8.95429
棄	-8.95453
者則	-8.95562
鄭注	-8.95718
敬者	-8.9573
冕	-8.95786
曾	-8.958
福	-8.95955
逹	-8.95996
劉	-8.96071
才	-8.96126
凶	-8.96127
火	-8.96157
小人	-8.96168
維	-8.96172
期	-8.96237
威儀	-8.96251
專	-8.96265
隱	-8.96361
以順天下	-8.96428
其言	-8.96677
而下	-8.96688
手	-8.96878
則知	-8.97153
於親	-8.97254
天道	-8.97722
詔	-8.97761
而行	-8.97813
愛親	-8.98337
賜	-8.98356
所以教	-8.98386
正義曰此	-8.98672
天子諸侯	-8.99236
弔	-8.99336
强	-8.99503
結	-8.9963
無不	-8.9976
徳教	-8.99866
之有	-8.99979
致其	-9.00049
父兄	-9.00056
齒	-9.0041
也詩曰	-9.00556
人心	-9.00633
彰	-9.00922
之事也	-9.012
不為	-9.01219
講	-9.01281
莫不	-9.01412
敬也	-9.01465
又有	-9.0152
薄	-9.01557
於是	-9.01666
知其	-9.01782
經文	-9.01803
司馬光	-9.01807
后	-9.01914
録	-9.01939
侮	-9.01974
邪	-9.01998
隆	-9.02009
魏	-9.0202
教之	-9.02033
納	-9.02051
附	-9.02075
?	-9.02078
康	-9.0209
恒	-9.0209
純	-9.02096
陸	-9.02101
病	-9.02125
被	-9.02128
格	-9.02128
草	-9.0213
悉	-9.02157
敗	-9.02165
例	-9.02168
酒	-9.02172
嗣	-9.02247
真	-9.02517
引詩	-9.02817
祖考	-9.02942
不言	-9.02972
孝悌	-9.03239
忠順	-9.03249
為天子	-9.03389
受命	-9.03397
大夫士	-9.03618
禮者	-9.0375
非孝也	-9.03864
是也云	-9.03904
而已矣	-9.04033
山	-9.04561
勉	-9.0464
其道	-9.05186
孟子曰	-9.05672
之行也	-9.06014
飾	-9.06124
職	-9.06192
務	-9.06257
行也	-9.06357
顧	-9.0654
夫孝	-9.06704
孰	-9.06739
讀	-9.06995
民之	-9.07109
財	-9.0723
隂陽	-9.07482
表	-9.07542
雨	-9.07631
愈	-9.077
雖有	-9.07907
炫	-9.07912
邦	-9.08126
貞	-9.08176
之至也	-9.08178
開	-9.0823
還	-9.08242
貌	-9.0825
兵	-9.08266
飲	-9.08315
懷	-9.08348
敦	-9.08352
采	-9.08352
休	-9.08355
恱	-9.08374
便	-9.08375
謀	-9.08378
白	-9.08381
姑	-9.08403
畧	-9.08417
罰	-9.08432
郊祀	-9.08501
范祖禹曰	-9.08835
君臣之義	-9.09068
然而	-9.09103
禮也	-9.09124
徳行	-9.09246
親愛	-9.09299
與之	-9.09344
有司	-9.09373
舍	-9.09448
其行	-9.09552
而能	-9.09588
是之謂也	-9.09918
也然	-9.09925
安親	-9.09932
禮法	-9.1003
者亦	-9.10174
人情	-9.10465
國之	-9.10954
古文孝經	-9.11191
書曰	-9.11456
而成	-9.1162
士民	-9.11642
此書	-9.11712
無以	-9.1175
為臣	-9.11936
可謂	-9.11985
者必	-9.12045
此經	-9.12116
之中	-9.12395
傳之	-9.12592
篤	-9.12635
使人	-9.12793
懼	-9.12931
不失	-9.12966
也此	-9.12995
没	-9.13261
助	-9.13303
至徳要道	-9.13474
賞	-9.13598
易曰	-9.13869
仁者	-9.13897
父母之	-9.13952
他	-9.14035
言行	-9.141
孔安國	-9.14196
歛	-9.14458
墓	-9.14693
雅	-9.14705
建	-9.14725
宰	-9.14773
畜	-9.148
竟	-9.14817
勸	-9.14822
繁	-9.14872
妻	-9.14907
介	-9.14912
増	-9.14917
孝之	-9.14937
之文	-9.14944
澤	-9.14946
敷	-9.14949
和睦	-9.1497
怠	-9.1497
雍	-9.14989
毅	-9.14997
苦	-9.15
三年之喪	-9.15001
甘	-9.15007
徃	-9.15044
子男	-9.15062
覺	-9.15071
敘	-9.15072
賦	-9.15073
幽	-9.15127
其所因者本也	-9.15127
寒	-9.15134
況	-9.15238
也其	-9.15286
四者	-9.15436
生而	-9.16013
恭敬	-9.16117
近於	-9.16204
受之	-9.16451
教化	-9.1654
大雅	-9.16735
天性	-9.16861
也孟子曰	-9.16865
禁	-9.17245
不違	-9.17348
事天	-9.17481
注云	-9.17592
夫人	-9.17841
本於	-9.1786
猶有	-9.17866
故言	-9.18067
所不	-9.18434
仲尼	-9.19011
其本	-9.19203
無道	-9.1923
列國	-9.19305
使之	-9.19349
一章	-9.19566
毛	-9.20153
以教	-9.20272
聴	-9.20881
古者	-9.21017
好惡	-9.21135
運	-9.21319
此皆	-9.21328
姓	-9.21338
也案	-9.21355
之本	-9.21471
則人	-9.21532
朋友	-9.21579
念	-9.21612
切	-9.2163
統	-9.2164
鄉	-9.2165
無怨	-9.21716
仲	-9.2178
路	-9.21781
幾	-9.21878
飬	-9.21891
勤	-9.21905
男	-9.21963
工	-9.22003
羊	-9.22086
金	-9.22092
惠	-9.22119
強	-9.22121
競	-9.22138
號	-9.22145
故雖天子	-9.22152
咎	-9.22153
龍	-9.2216
纂	-9.22167
錫	-9.22171
之孝	-9.22184
不敢毁傷	-9.22195
熊	-9.22206
遇	-9.22218
誦	-9.22228
禰	-9.22229
杖	-9.22246
潔	-9.22257
履	-9.22262
盈	-9.22268
鄭𤣥	-9.22277
坎	-9.22309
滅性	-9.2232
先儒	-9.22324
皆以	-9.22334
圜丘	-9.22358
之學	-9.2254
司馬	-9.22566
無所不	-9.22592
喪祭	-9.22703
大學	-9.22741
各有	-9.2302
義者	-9.23116
之人	-9.23154
君有	-9.23183
親親	-9.23512
立教	-9.23522
汝	-9.23585
之屬	-9.23586
貢	-9.24284
第	-9.24306
故云	-9.24371
五者	-9.25105
孝子之	-9.25473
之意也	-9.25515
未嘗	-9.25524
政教	-9.25708
其子	-9.25716
不愛	-9.25732
之内	-9.25806
壇	-9.26037
識	-9.26062
不争	-9.26139
幼	-9.26276
而敬	-9.2636
也天子	-9.26412
而猶	-9.26775
為人	-9.26858
仁也	-9.26932
則猶	-9.27015
一日	-9.27027
以其	-9.27027
勿	-9.27352
其親也	-9.27536
抑	-9.27568
法則	-9.27609
者何也曰	-9.27682
效	-9.27705
朱氏	-9.27776
不必	-9.27912
其志	-9.28171
窮	-9.28504
迎	-9.28584
文王之	-9.2861
為善	-9.28643
資於事父以事君而敬同	-9.28644
耕	-9.28849
其父	-9.28872
立身行道	-9.29124
事父母	-9.29144
華	-9.29194
以致	-9.29382
朱	-9.29581
滿	-9.29616
防	-9.29637
律	-9.29653
牛	-9.29654
味	-9.29656
漸	-9.29657
負	-9.29678
勞	-9.29679
謙	-9.29701
往	-9.29719
積	-9.2972
孤	-9.29732
育	-9.29736
乾	-9.2975
耻	-9.29757
非先王之法言不敢道	-9.29761
素	-9.29778
輯	-9.29803
梁	-9.29805
車	-9.29817
舎	-9.29821
歌	-9.29827
逮	-9.29844
并	-9.29847
商	-9.29856
歎	-9.29859
泰	-9.29884
喻	-9.29884
垂	-9.29885
宗祀文王於明堂以配上帝	-9.299
専	-9.299
恕	-9.29907
魚	-9.29909
包	-9.29921
諱	-9.29924
况	-9.29944
行下孟反	-9.29946
諸儒	-9.29961
靈	-9.29978
清植	-9.29982
縣	-9.29987
聖賢	-9.3004
也凡	-9.30119
也君子	-9.30137
武王	-9.30158
修身	-9.30215
所言	-9.3059
有所	-9.30674
尊嚴	-9.3083
陵	-9.30844
三代	-9.30986
當時	-9.31322
之理	-9.31504
毁傷	-9.31806
不生	-9.32113
盡忠	-9.32586
人臣	-9.32686
之士	-9.32697
於身	-9.33196
忠臣	-9.33236
是亦	-9.33305
以順	-9.33438
子弟	-9.33504
言其	-9.33634
山川	-9.33666
如此則	-9.34401
則皆	-9.34459
生則	-9.34506
教也	-9.34538
故聖人	-9.34581
為忠	-9.34634
敬愛	-9.34731
敬之	-9.34867
亦猶	-9.353
詞	-9.35464
遵	-9.35509
龜	-9.3595
保其	-9.36078
恵	-9.36172
博	-9.36525
一卷	-9.36702
臣下	-9.36796
孝行	-9.36798
資於事父以事母而愛同	-9.36873
不義	-9.37009
最	-9.37233
於天子	-9.37439
其實	-9.37484
事也	-9.37554
然其	-9.37712
豫	-9.37749
儉	-9.37954
之上	-9.37958
甫	-9.37989
乆	-9.38021
仁人孝子	-9.38045
莊	-9.38082
里	-9.38082
干	-9.38096
夫子之	-9.38102
祿位	-9.38105
因地之利	-9.38109
所得	-9.38126
黄	-9.38135
厲	-9.38147
昧	-9.38153
升	-9.38153
稽	-9.38164
散	-9.38167
吕刑	-9.38167
塞	-9.38167
必有尊也言有父也必有先也言有兄也	-9.38169
煩	-9.38171
頌	-9.38175
容止可觀進退可度	-9.38176
是故非法不言非道不行	-9.38186
哭不偯	-9.38188
事父孝故事天明事母孝故事地察	-9.38196
扶	-9.38202
從父之令	-9.38202
子曰昔者明王	-9.38204
啟	-9.38207
舊本	-9.38215
衡	-9.38217
昔者周公郊祀后稷以配天	-9.3822
詩云赫赫師尹民具爾瞻	-9.38221
澄	-9.38224
户	-9.38237
㡬	-9.38248
以成	-9.3825
臣妾	-9.38252
沒	-9.38256
膚	-9.38262
祧	-9.38263
綏	-9.38266
罔	-9.38291
無所不通	-9.38322
孔氏	-9.38326
而行之	-9.3835
仍	-9.38367
諫争	-9.38373
孝莫大於嚴父	-9.38389
百官	-9.38463
辛	-9.38542
居處	-9.38652
愛敬之心	-9.38741
父子之道	-9.38745
則其	-9.39116
二字	-9.39161
後人	-9.39209
敬讓	-9.3974
形	-9.39881
因其	-9.39911
)○	-9.40066
十二	-9.40071
未能	-9.40446
慕	-9.40604
順天下	-9.40723
然且	-9.40919
是故君子	-9.41168
先君	-9.41296
傅	-9.41387
為士	-9.41445
立於	-9.41555
者謂之	-9.41909
不順	-9.4209
生也	-9.42215
亦不	-9.42555
妻子	-9.42591
事兄	-9.42618
用之	-9.42998
愛敬之	-9.4302
不善	-9.43105
聖王	-9.43185
災	-9.43263
道之	-9.43528
有不	-9.43551
其徳	-9.4367
不仁	-9.43686
否	-9.43793
上文	-9.4399
閒居	-9.44089
匡	-9.44691
夷	-9.44727
送	-9.4473
有其	-9.44902
免	-9.44933
次第	-9.44959
上章	-9.45385
失其	-9.45419
撰	-9.45539
人子	-9.4557
有二	-9.45582
誤	-9.45678
倍	-9.45686
以事君	-9.45745
至孝	-9.45765
之日	-9.45861
七十	-9.45932
造	-9.45977
怨惡	-9.46037
錯	-9.46044
以正	-9.46118
經傳	-9.4621
救	-9.46284
性也	-9.4637
而不敢	-9.46379
經義	-9.46582
皆是	-9.4687
聚	-9.46894
隠	-9.46924
太師	-9.46955
稍	-9.47024
遜	-9.47051
編	-9.47068
舞	-9.47086
地之	-9.47087
連	-9.47088
竊	-9.47104
譽	-9.47108
也是故	-9.47124
願	-9.4718
際	-9.47221
帥	-9.47224
丘	-9.47227
贊	-9.47228
悅	-9.47229
昭穆	-9.47231
敬其兄則弟	-9.47245
夫孝始於事親中於事君終於立身	-9.47249
踊	-9.47251
鼎	-9.47257
詩云自西自東自南自北無思不服	-9.4726
是以天下和平災害不生禍亂不作	-9.47261
夫然故生則親安之祭則鬼享之	-9.47261
子曰五刑之屬三千而罪莫大於不孝	-9.47267
言滿天下無口過行滿天下無怨惡	-9.47271
朝夕	-9.47273
頗	-9.47275
以臨其民是以其民畏而愛之則而象之	-9.47277
口無擇言身無擇行	-9.47279
槨	-9.4728
之類	-9.47282
革	-9.47282
天地之經而民是則之	-9.47283
虚	-9.47289
詩云淑人君子其儀不忒	-9.47299
張	-9.473
故母取其愛而君取其敬兼之者父也	-9.47301
嘉	-9.47303
歴	-9.47303
聖人之教不肅而成其政不嚴而治	-9.47312
穀	-9.47312
樂音洛	-9.47317
昀	-9.47327
斂	-9.47329
心乎愛矣遐不謂矣中心藏之何日忘之	-9.47329
獲	-9.47332
聖人因嚴以教敬因親以教愛	-9.47332
小雅	-9.4734
收	-9.47342
胡	-9.47343
川	-9.47346
跡	-9.4735
博士	-9.47351
正義曰此依鄭注也	-9.47401
哀戚	-9.47423
雲	-9.47424
之教	-9.47451
劓	-9.47503
嚴父莫大於配天則周公其人也	-9.47508
大義	-9.47547
略	-9.47582
和氣	-9.47615
子路	-9.47618
不失其	-9.47635
也謂	-9.47761
随	-9.47925
本也	-9.47974
為人子者	-9.48279
廣大	-9.48377
甚矣	-9.48391
與人	-9.48428
要君	-9.48457
問於	-9.4854
注同	-9.48719
亦有	-9.48774
民人	-9.49052
之志	-9.49077
明察	-9.49112
有功	-9.49345
居上	-9.49377
有道	-9.49438
必先	-9.49538
不爭	-9.49924
其文	-9.49942
弟子	-9.49998
理之	-9.50054
畏	-9.50114
則無	-9.50443
未盡	-9.50568
慈愛	-9.50656
親之	-9.50725
而愛	-9.50858
不欲	-9.51155
自為	-9.51235
者何也	-9.51266
言孝	-9.51338
於國	-9.51351
之說	-9.5137
以治	-9.51489
而尊	-9.51541
通於	-9.51742
著於	-9.51808
此章言	-9.51861
天子之孝	-9.52045
為本	-9.52361
事而	-9.52612
也曰	-9.52667
之始也	-9.52704
不及	-9.5272
君父	-9.52808
其位	-9.52938
豈不	-9.5311
教以孝所以敬天下之為人父者	-9.53161
諸家	-9.5342
而有	-9.53508
以事親	-9.53517
以上	-9.53772
取之	-9.53871
所以為	-9.54211
道者	-9.54226
不相	-9.54322
其為	-9.54475
故得	-9.54697
愛人	-9.54756
爲孝	-9.54775
選	-9.55027
僭	-9.55082
下文	-9.5511
人民	-9.55241
示之以好惡而民知禁	-9.55305
子言之	-9.55624
靡	-9.55653
從之	-9.5611
之實	-9.56214
有過	-9.56485
者釋	-9.56514
甫刑	-9.56624
以生	-9.56693
每	-9.56848
諍	-9.56963
許	-9.56967
去聲	-9.56972
言夫	-9.5698
三千	-9.57052
不合	-9.57063
再	-9.57065
細	-9.57068
互	-9.57089
十八章	-9.57098
宣	-9.57126
踈	-9.57128
!	-9.57133
諫諍	-9.57152
非先王之法服不敢服	-9.57162
匪	-9.57163
乖	-9.57175
都	-9.57185
惑	-9.57189
閒	-9.5719
恥	-9.5719
有虞氏	-9.57195
綱	-9.57208
笑	-9.5721
永	-9.57223
是以其教不肅而成其政不嚴而治	-9.5723
有餘	-9.57235
秉	-9.5724
召	-9.57244
術	-9.57252
措	-9.57253
擗	-9.57267
子曰昔者明王之以孝治天下也	-9.57268
完	-9.5727
故得萬國之懽心以事其先王	-9.57272
叔	-9.57285
故親生之膝下以養父母日嚴	-9.57287
饋	-9.57289
濫	-9.5729
故明王之以孝治天下也如此	-9.57292
徹	-9.57292
災害	-9.57298
驕溢	-9.57311
管	-9.57319
萬邦	-9.57333
拂	-9.57344
和睦無怨	-9.57348
殯	-9.57351
標	-9.57352
掌	-9.57362
酬	-9.57362
親者	-9.57367
輩	-9.5737
先王見教之可以化民也	-9.57374
匡救	-9.57375
朝廷	-9.57379
權	-9.5738
虧	-9.57391
本盡矣死生之義備矣孝子之事親終矣	-9.574
惜	-9.5741
徧	-9.57423
盜	-9.57423
疎	-9.57479
七人	-9.57556
士有	-9.57608
首章	-9.57621
衣服	-9.578
子夏	-9.57835
萬民	-9.57859
無私	-9.58019
之書	-9.58112
配上帝	-9.58124
道徳	-9.58224
殷人	-9.58383
不敢慢	-9.58421
而生	-9.5849
以及	-9.58515
君臣之	-9.58654
法服	-9.58715
不毁	-9.58829
三公	-9.58899
曾子曰	-9.59006
致敬	-9.59086
此三者	-9.59134
為人子	-9.59164
庭	-9.59217
之辭	-9.59258
身行道揚名於後世以顯父母孝之終也	-9.59297
中心	-9.59356
為一章	-9.59542
愛其親	-9.59579
故君子	-9.5963
明王之	-9.60027
則能	-9.60102
有君	-9.6023
死者	-9.6058
必以	-9.60836
不待	-9.60837
身行	-9.6085
是謂	-9.61
其君	-9.61095
而又	-9.61122
八十	-9.61143
行不	-9.61213
斬衰	-9.61421
於上	-9.61566
之外	-9.61581
以見	-9.61646
增	-9.62377
事長	-9.62579
人也	-9.62725
於下	-9.6283
隨	-9.62858
幸	-9.62876
於諸侯	-9.63272
為禮	-9.63287
大徳	-9.63312
君者	-9.63362
者必有	-9.63512
以來	-9.63639
貴也	-9.63723
墨氏	-9.6376
之至	-9.63773
循	-9.63988
取其	-9.64103
源	-9.64116
事上	-9.64119
也字	-9.64187
其家	-9.64211
人者	-9.64301
奪	-9.64457
於其	-9.64506
終於	-9.64556
故能	-9.6459
至矣	-9.64731
南郊	-9.64775
(○	-9.64793
行道	-9.64941
為國	-9.64967
勢	-9.64978
一國	-9.65153
有三	-9.65154
不和	-9.65162
也又云	-9.65167
而入	-9.65181
播	-9.65371
惟其	-9.6544
鄭氏	-9.6561
祭也	-9.65642
則猶之	-9.65644
於外	-9.65654
不忘	-9.65714
得而	-9.6572
民之父母	-9.65726
之節	-9.65813
宗廟致敬	-9.66331
於廟	-9.66367
未有不	-9.66417
歡心	-9.66655
不安	-9.66665
行必	-9.66785
論語云	-9.66961
以愛敬	-9.66986
閨門	-9.67101
也聖人	-9.67157
湏	-9.67257
敬長	-9.6732
皆可	-9.6746
推之	-9.67464
中庸	-9.67514
殆	-9.67857
堯	-9.67949
大傳	-9.68024
計	-9.68095
遷	-9.68142
徵	-9.68144
追	-9.68154
顔	-9.6816
客	-9.6821
夕	-9.6821
湯	-9.68218
齊衰	-9.68247
而退	-9.68247
斬	-9.68269
悔	-9.68292
妾	-9.68295
袒	-9.68303
諡	-9.68305
創	-9.68306
畔	-9.68309
正義曰夫子述	-9.68319
襲	-9.68322
江	-9.68322
吏	-9.68332
𦵏	-9.68333
榖	-9.6834
忒	-9.6834
奢	-9.6834
鰥寡	-9.68342
壹	-9.6835
裳	-9.68353
麻	-9.68361
簠簋	-9.68361
勇	-9.68363
石	-9.68368
非先王之徳行不敢行	-9.68374
言思可道行思可樂	-9.68375
貫	-9.6838
釋奠	-9.68385
夏后氏	-9.6839
偏	-9.68402
富貴不離其身然後能保其社稷而和其	-9.68406
照	-9.68412
彌	-9.68418
機	-9.6842
曰君子之教以孝也非家至而日見之也	-9.68423
詩云愷悌君子民之父母	-9.68423
割	-9.68425
妙	-9.68427
丁	-9.68428
委	-9.68433
馬光曰	-9.68435
刪改	-9.68439
君子則不然	-9.6844
減	-9.68441
玉	-9.68448
之罪	-9.68451
寢	-9.68451
考證欽定四庫全書孝經注疏卷	-9.68453
究	-9.68456
弁	-9.68476
雜	-9.68479
詩曰維	-9.68485
關	-9.68499
箴	-9.68504
洗	-9.68505
其國	-9.68526
荅	-9.6853
冕服	-9.68531
柔	-9.68569
鄭注云	-9.68602
剕	-9.68617
引此	-9.68671
日月星辰	-9.68705
天地之性	-9.68746
出入	-9.68862
既葬	-9.68905
經典	-9.68932
禍亂	-9.68941
大功	-9.69049
非謂	-9.69064
不忍	-9.6907
他人	-9.69202
為諸侯	-9.69223
濟	-9.69368
以敬	-9.69424
以至	-9.69544
宋人	-9.69631
光曰	-9.69785
禮義	-9.69997
文公	-9.70141
成身	-9.70208
非禮	-9.70241
因心	-9.70449
善事	-9.70469
不與	-9.70589
備矣	-9.70615
出于	-9.70631
百行	-9.71212
君德	-9.71222
孝治	-9.71311
五章	-9.71334
於父母	-9.71389
和順	-9.71431
親則	-9.7149
送之	-9.71502
可知	-9.71532
矣然則	-9.71598
人皆	-9.71654
孝而	-9.71675
不從	-9.71684
焉見	-9.71756
尊親	-9.7181
四時之	-9.7181
郎	-9.71904
膝下	-9.72079
祀之	-9.72097
從事	-9.72205
人所	-9.72258
事之	-9.72378
朱子曰此	-9.72459
大人	-9.72521
也按	-9.72845
宗廟致敬鬼神著矣	-9.72986
則為	-9.73062
身體	-9.73115
所能	-9.73182
欽定四庫全書經部六	-9.7353
故謂之	-9.73696
忠孝	-9.73761
之情	-9.73856
而為	-9.73875
謂不	-9.73895
者是	-9.74063
上有	-9.74311
所自	-9.74325
禮則	-9.74579
則無不	-9.74673
矣夫	-9.74813
以告	-9.74875
不食	-9.74959
存焉	-9.74965
所由	-9.75152
盡其	-9.75243
上古	-9.75308
則思	-9.75377
輔	-9.7539
常行	-9.75403
其情	-9.75421
人不	-9.75601
事母	-9.75811
朕	-9.7582
徳之本	-9.75854
以道	-9.75901
則不敢	-9.76143
和平	-9.76417
可見	-9.76423
不疑	-9.76612
古文尚書	-9.7668
君行	-9.76866
有五	-9.76935
周公之	-9.77281
則已	-9.77362
費	-9.77406
三日	-9.77489
仁人	-9.7749
導	-9.775
子思	-9.77616
堯舜	-9.77626
雖不	-9.77822
其驗	-9.77925
未之	-9.77986
行事	-9.77986
其下	-9.7809
聞之	-9.7816
此乃	-9.78206
爲義	-9.78226
豈有	-9.78253
有終	-9.78315
毋	-9.78698
皇侃云	-9.78836
王肅	-9.7895
之與	-9.79225
於地	-9.79246
養之	-9.79264
則天子	-9.79277
曾參	-9.79364
哀慼	-9.79407
之禮也	-9.79467
昏	-9.79487
貧	-9.79491
可知也	-9.79574
行而	-9.79615
善而	-9.79745
仁孝	-9.79772
曰孝經	-9.79848
古文無也字	-9.79925
教人	-9.7995
有常	-9.80051
誅	-9.80085
廣敬	-9.80094
慶	-9.8028
榮	-9.8031
道而	-9.80341
忽	-9.80373
放	-9.80386
聘	-9.8042
絀	-9.80435
至此	-9.80452
有如此者	-9.80505
非孝	-9.80512
量	-9.80548
畫	-9.80631
知之	-9.80662
旦	-9.80679
公侯伯子男	-9.80688
懽	-9.80701
長丁丈反	-9.80708
迹	-9.80724
夜	-9.80728
温	-9.80733
宏	-9.80744
􁀥	-9.80753
説音悦	-9.80759
子貢曰	-9.80766
亦皆	-9.80766
苴	-9.80772
則當	-9.80779
:『	-9.80785
黍稷	-9.80802
淵	-9.80808
忿	-9.8081
河	-9.80817
歟	-9.80824
敏	-9.80825
賈	-9.80829
通於神明	-9.80831
滋	-9.80835
憲	-9.80836
寸	-9.80841
贄	-9.80845
乗	-9.80847
將順其美	-9.8085
敵	-9.80853
衛	-9.80854
蕩	-9.80856
要君者無上非聖	-9.80856
命之	-9.80857
詩云有覺徳行四國順之	-9.80858
趣	-9.80858
繹	-9.80861
章申言	-9.80862
啓	-9.80863
趙	-9.80864
夙夜	-9.80867
靜	-9.80867
移風易俗莫善於樂安上治民莫善於禮	-9.80868
孝無終始而患不及者未之有也	-9.80868
嗚呼	-9.8087
泣	-9.80873
故以孝事君則忠以敬事	-9.80873
弼	-9.80876
之徒	-9.80878
三日而食教民無以死傷生	-9.80879
邇	-9.8088
徳義可尊作事可法	-9.8088
愚	-9.80886
絲	-9.80886
刑罰	-9.80888
邑	-9.8089
宅	-9.80892
禮者敬而已矣故敬其父則子	-9.80892
誥	-9.80894
居則致其敬養則致其樂病則致其憂	-9.80895
鼓	-9.80895
䇿	-9.80896
經一百	-9.80898
禮無容言不文服美不安聞樂不樂食	-9.80904
股肱	-9.80909
父母生之續莫大焉君親臨之厚莫重焉	-9.80909
故自天子至於庶人	-9.80914
角	-9.80914
詩云夙興夜寐無忝爾所生	-9.80918
陶	-9.8092
轉	-9.80923
中和	-9.80925
練	-9.80926
奏	-9.80926
錄	-9.80928
斥	-9.80928
非至徳其孰能順民如此其大者乎	-9.80931
是以行成於内而名立於後世矣	-9.80932
禘嘗	-9.80933
塗	-9.80933
至德要道	-9.80933
𤣥宗	-9.80941
月恭校上	-9.80941
猷	-9.80951
祗	-9.80958
四海之内	-9.80961
孝經類提要	-9.80964
唐𤣥宗	-9.80971
醴	-9.80974
尺	-9.80975
較	-9.80989
生事愛敬死事哀戚生民	-9.80991
厯	-9.80998
討	-9.80999
庻人	-9.81012
偯	-9.81023
藥	-9.81023
遭	-9.81024
題	-9.81032
檢	-9.81037
淫	-9.81039
容止	-9.81042
呼	-9.81047
暑	-9.81048
朱子刋誤本	-9.81052
獄	-9.81052
祝	-9.81066
敬身	-9.81067
登	-9.81077
用天之道	-9.81077
無它	-9.81078
祇	-9.81084
髪	-9.81104
公侯	-9.81134
韋昭	-9.81145
隆殺	-9.81149
敬之至也	-9.81162
庶人之孝	-9.81187
刪去	-9.81208
之常	-9.81234
子夏曰	-9.8127
謂天子	-9.81315
順也	-9.81342
製	-9.81354
祭器	-9.81363
愛敬其親	-9.814
廬	-9.8141
之服	-9.81486
奉養	-9.81488
章首	-9.81491
之推也	-9.81512
為君	-9.81549
德行	-9.8156
子曰事君	-9.81689
古今文	-9.81751
天地之情	-9.81762
天命	-9.81772
於内	-9.81774
三者不除雖日用三牲之養猶為不孝也	-9.81782
修其	-9.81861
樂者	-9.81923
前章	-9.81925
學問	-9.82004
莫如	-9.82081
郊社	-9.82091
之要	-9.82108
一篇	-9.82158
門人	-9.82206
分章	-9.82206
子游	-9.82258
養羊尚反	-9.82273
言必	-9.82313
果	-9.82431
事死	-9.82443
則下	-9.82482
諫爭	-9.82503
乃命	-9.82567
右經第	-9.82684
教之所由生	-9.82705
逺於	-9.82734
或曰	-9.82891
而從	-9.83026
周之	-9.83101
苟有	-9.83108
人則	-9.83181
至德	-9.83184
於四海	-9.83278
不可以不	-9.83385
詩書	-9.83397
施於	-9.83401
傷生	-9.83412
危也	-9.83479
順之	-9.83561
而言之	-9.8366
其禮	-9.83688
免於	-9.83738
徳性	-9.83781
故夫子	-9.83848
不孝也	-9.83896
莫若	-9.83943
所行	-9.84067
見之	-9.84118
此一節釋	-9.84148
地道	-9.84242
士以	-9.84299
禮以	-9.84312
然後能	-9.84312
順於	-9.84339
尊敬	-9.84424
下無	-9.84663
其間	-9.84744
治官	-9.84804
時也	-9.84815
治家	-9.84867
固有	-9.84888
祖父	-9.84967
王之	-9.84979
之法	-9.85009
道德	-9.85066
矣詩曰	-9.8507
皆同	-9.85146
其父母	-9.85209
其質	-9.85454
父子之	-9.85705
於心	-9.85718
而不知	-9.85924
敬而	-9.85967
君命	-9.86186
則忠	-9.86247
效之	-9.86263
一順	-9.86381
有所不	-9.86408
要道也	-9.86512
者按	-9.86643
在位	-9.86652
其兄	-9.86721
亦無	-9.86764
與夫	-9.86793
夫非	-9.86809
用其	-9.86892
子云	-9.86896
者至	-9.87019
大亂	-9.87047
之誼	-9.87053
三王	-9.87062
日本	-9.87123
是為	-9.87341
戰	-9.87394
以次	-9.875
者不	-9.87633
孟	-9.87739
天也	-9.87919
戰戰	-9.8796
其德	-9.87988
祭天	-9.87998
一本	-9.88019
者五	-9.88128
終身	-9.88179
之端	-9.88309
其名	-9.8846
諫而	-9.88481
敬親	-9.88529
於事	-9.88552
言而	-9.88619
不然	-9.88746
歸於	-9.88977
大臣	-9.89016
則天地	-9.8931
使其	-9.89591
之效	-9.89619
文也	-9.89683
昔者天子	-9.8974
以孝治	-9.89993
耶	-9.90095
臣子	-9.90137
身之	-9.90295
理也	-9.90331
而親	-9.90381
五十	-9.90513
庶子	-9.90602
而歸	-9.90617
上之	-9.90885
七章	-9.90976
而思	-9.91043
之位	-9.91169
子曰君子	-9.9121
若有	-9.91279
▁亡音無	-9.91362
其餘	-9.91365
十七	-9.91617
圖	-9.91672
一時	-9.91681
故其	-9.91735
而教	-9.91968
之業	-9.92171
太傅	-9.92262
非一	-9.92419
之喪	-9.9248
義取	-9.92508
賢者	-9.92574
善則	-9.92592
順者	-9.92734
樂而	-9.92741
嫌	-9.92842
有以	-9.92908
人主	-9.92957
之子	-9.92986
四十	-9.92999
在上	-9.93142
則天	-9.93279
長幼	-9.93329
而天下	-9.93346
以愛	-9.93388
諫則	-9.93488
如是則	-9.93504
左傳曰	-9.93506
言明王	-9.93626
帝王	-9.93627
天子所	-9.93633
天之道	-9.93702
也養	-9.93779
供	-9.93915
祔	-9.93988
受其	-9.9401
無一	-9.94028
于此	-9.94151
者葢	-9.94203
安國	-9.94227
餕	-9.9424
戚	-9.94263
曲	-9.94266
見其	-9.94301
踰	-9.9434
穆	-9.94413
為不孝	-9.94465
有子	-9.9449
驗	-9.94626
陷	-9.94695
子婦	-9.94699
范祖禹	-9.94793
公卿	-9.94794
不祭	-9.94855
慤	-9.94866
愷	-9.94893
府	-9.94907
撫	-9.94911
所云	-9.94924
翼	-9.94944
尊祖	-9.94956
如字	-9.94957
横	-9.94971
昌	-9.94976
淺	-9.94977
阼	-9.9498
尼	-9.94982
州	-9.95005
誓	-9.95005
暢	-9.95012
庸	-9.95014
者其	-9.95018
桑	-9.9502
遲	-9.95027
衾	-9.95031
不行	-9.95033
却	-9.95035
不敢惡慢	-9.95036
呉	-9.95045
側	-9.95045
伸	-9.95048
;	-9.95054
不敢遺小國之臣而况於公侯伯子男乎	-9.95065
寄	-9.95069
藝文志	-9.95071
聼	-9.95073
內	-9.95076
肖	-9.95078
矜	-9.95078
淑	-9.95078
夙興夜寐	-9.9508
詩云戰戰兢兢如臨深淵如履薄冰	-9.95092
貧賤	-9.95092
讀者	-9.95094
動静	-9.95099
北面	-9.95107
植	-9.95111
㓕	-9.95114
。』」	-9.95114
二十二章	-9.95116
春秋祭祀以時思之	-9.95116
也禮	-9.95125
恫	-9.95125
柩	-9.95126
仲山甫	-9.95129
偃	-9.95129
拯	-9.95129
士有争友則身不離於令名	-9.9513
固非	-9.95132
伏	-9.95133
粥	-9.95137
者此依孔傳也	-9.95138
烝	-9.9515
折	-9.95151
子曰閨門之内具禮矣乎	-9.95154
城	-9.95154
長則順忠順不失以事其上然後能保其	-9.95156
謹身節用以養父母此庶人之孝也	-9.95158
以敬事長則順	-9.9516
規	-9.95163
人者無法非孝者無親此大亂之道也	-9.95163
俾	-9.95164
禾	-9.95165
徒役	-9.95166
絰	-9.95167
穴	-9.95168
失之	-9.95171
宅兆	-9.95171
民用和睦上下無怨	-9.95173
三年之䘮	-9.95175
闡	-9.95178
有一	-9.95179
治國者不敢侮於鰥寡而況於士民乎	-9.9518
輒	-9.95181
高而不危所以長守貴	-9.95181
禽獸	-9.95182
觧	-9.95182
椁	-9.95184
星	-9.95185
士章第五	-9.95185
孝經序	-9.95187
齒胄	-9.95188
嚴父嚴兄妻子臣妾猶百姓徒役也	-9.95188
愧	-9.95189
弑	-9.95189
馳	-9.95191
坤	-9.95195
束	-9.95196
簋	-9.95204
牖	-9.95205
舅姑	-9.95206
會	-9.95209
不敢遺小國之臣而況於公侯伯子男乎	-9.95214
恤	-9.95215
庶幾	-9.95218
頼	-9.95218
身體髮膚受之父母不敢毁傷孝之始也	-9.95219
豆	-9.9522
三者不除	-9.95221
法度	-9.95222
者何	-9.95225
仁義禮智	-9.95227
曹	-9.95227
懲	-9.9523
邢昺	-9.95236
屨	-9.95238
不孝之罪	-9.95242
佩	-9.95243
君臣上下	-9.95244
滌	-9.95245
逸	-9.95245
調	-9.95251
夫聖人之徳又何以加於孝乎	-9.95253
空	-9.95256
李	-9.95257
謬	-9.95257
攸	-9.95257
戀	-9.95264
掩	-9.9527
卦	-9.9527
五者備矣然後能事親	-9.95283
悟	-9.95286
移風易俗莫善於樂	-9.95286
市	-9.95286
人倫之	-9.95301
童	-9.95302
夷齊	-9.95302
裁	-9.95305
在身	-9.95306
禱	-9.9531
紀孝行章第十	-9.95312
樹	-9.95313
余	-9.95313
水旱	-9.95313
血	-9.95315
新	-9.95322
逃	-9.95324
傲	-9.95329
孩	-9.9533
互相	-9.95332
談	-9.95337
歳	-9.95361
辟雍	-9.9538
洛	-9.95381
科	-9.95384
夀	-9.95392
禄位	-9.95438
曾子曰君子	-9.95466
行去聲	-9.9549
百世	-9.95497
五土	-9.95499
如之何曰	-9.95511
四夷	-9.95512
言不文	-9.95529
輕重	-9.9554
王季	-9.95559
事天地	-9.95567
而先	-9.95576
平居	-9.956
具載	-9.95609
百家	-9.95631
鄭𤣥云	-9.95646
舊文	-9.95662
君子不貴	-9.95716
右經第十	-9.95718
接下	-9.95779
三光	-9.95793
危身	-9.95818
聖人之徳	-9.95832
謂其	-9.95848
進退	-9.95865
士之孝	-9.9591
可移	-9.95982
三百	-9.96001
愛也	-9.96045
改易	-9.961
述作	-9.96171
其妻子	-9.96389
一獻	-9.96426
鳥	-9.96514
所載	-9.96565
儀禮	-9.96567
誠信	-9.96654
耕耤	-9.96696
故得人之懽心以事其親	-9.967
三曰	-9.96726
樂樂	-9.96821
分為	-9.96823
尊父	-9.96826
人之所	-9.96938
性而	-9.96945
一國之	-9.96975
使民	-9.97075
不見	-9.9719
本文	-9.97192
於天地	-9.97216
者易	-9.97288
五等之	-9.97305
禮樂之	-9.97457
是非	-9.97496
二曰	-9.97622
卿大夫之	-9.97893
之心而	-9.97895
以忠	-9.98046
况於	-9.98219
不容	-9.98302
三者備矣然後能守其宗廟	-9.98332
傳同	-9.98345
子曰君子之事親孝故忠可移於君事兄	-9.9837
正義曰此依	-9.98371
至極	-9.98494
者此依鄭注也	-9.98658
若夫	-9.98732
因性	-9.98742
故于	-9.98897
文章	-9.98984
魯人	-9.99052
以示	-9.99109
堯舜之	-9.99165
以齒	-9.99165
止之	-9.9922
以天子之	-9.99266
不稱	-9.99341
不慢	-9.99457
順而	-9.99461
不已	-9.99566
易行	-9.99646
化行	-9.99665
毛詩	-9.99672
存於	-9.99793
則國	-9.99846
五行	-9.9991
知有	-9.99982
安而	-10.0008
未及	-10.001
為政	-10.0011
如其	-10.0024
愛敬者	-10.0027
之地	-10.0034
公族	-10.0061
天地之經	-10.0066
則亂	-10.0072
之臣	-10.0091
善名	-10.0098
有序	-10.0098
爲敎	-10.0105
不驕	-10.0116
為大夫	-10.0117
徳也	-10.0122
生焉	-10.0132
將順	-10.0133
也所以	-10.0136
太子	-10.0138
為下	-10.0144
於物	-10.0149
無法	-10.0152
之美	-10.0158
主於	-10.0168
神明之	-10.0183
所繇	-10.0189
丈	-10.0212
生事	-10.0221
是皆	-10.0222
之極	-10.0225
為父	-10.0226
治之	-10.0253
未知	-10.0253
以事其親	-10.0261
不加	-10.0265
去之	-10.0266
貎	-10.0267
長則	-10.0272
而後行	-10.0274
非其	-10.0278
不存	-10.0283
亦可	-10.0285
之利	-10.0287
聖明	-10.0296
為世子	-10.0304
家國	-10.0312
者此	-10.0325
移之	-10.0331
死而	-10.0343
兢	-10.0349
食之	-10.0357
因天	-10.0359
而推	-10.0364
則可以	-10.0403
若是	-10.0411
終於立身	-10.0426
教之以	-10.0428
服之	-10.0432
始死	-10.0435
其大	-10.0447
由是	-10.0447
位而	-10.0479
不至	-10.0484
而立	-10.0496
仲尼居	-10.0519
雖無	-10.053
其忠	-10.0535
不誠	-10.054
刑辟	-10.054
宗廟致敬不忘親也	-10.055
生之	-10.0572
敬之心	-10.0574
傳云	-10.0577
行此	-10.0594
人子之	-10.0597
非禮也	-10.0597
乘	-10.0607
之以禮	-10.0609
古今	-10.0622
不信	-10.0625
古人	-10.063
盡也	-10.0634
經言	-10.064
不如	-10.0642
莫之	-10.0648
學者	-10.0649
三月	-10.067
以孝弟	-10.067
有天下者	-10.0675
而對	-10.0683
而外	-10.0713
不離	-10.0713
恐其	-10.0721
不修	-10.0728
十一	-10.073
孝之始	-10.0748
為主	-10.0756
作傳	-10.0766
之前	-10.0771
曽子曰君子	-10.0772
此注	-10.0773
以天下	-10.0791
長者	-10.0793
異也	-10.0798
承上	-10.08
説文	-10.0812
本然	-10.0815
教愛	-10.0821
志也	-10.0827
亡也	-10.0828
不知有	-10.0844
而可以	-10.0847
王事	-10.0857
經常也	-10.086
亦可謂	-10.0869
事地	-10.0891
釋之	-10.0897
一則	-10.0903
天子至	-10.0917
而至于	-10.0933
嚴肅	-10.0936
而曰	-10.0942
則可謂	-10.0944
二章	-10.0952
夫子之言	-10.0977
未之有	-10.0983
四曰	-10.0987
無可	-10.0995
限	-10.0996
刋	-10.1002
子曰愛親者不敢惡於人	-10.1007
所受	-10.1019
鳥獸	-10.1022
反下同	-10.1032
急	-10.1055
而欲	-10.1058
矣此	-10.1061
五年	-10.1064
書云	-10.1067
来	-10.1068
閉	-10.1077
祥	-10.1078
乎此	-10.108
天子有	-10.1089
亦曰	-10.1101
身則	-10.111
淳	-10.1113
矣然	-10.1113
二者	-10.1121
殁	-10.1122
子言之儒有	-10.1123
之原	-10.1131
即位	-10.1131
何其	-10.1133
階	-10.1137
星辰	-10.1141
戎	-10.1143
鬼神之	-10.1148
昊天	-10.1148
無容	-10.1149
累	-10.1151
諭	-10.1153
名也	-10.1154
忌	-10.1155
離力智反	-10.1156
懈	-10.1156
十章	-10.1157
墜	-10.1159
千萬人	-10.1163
粉米	-10.1164
牧	-10.1164
記云	-10.1166
侯伯	-10.1166
歡	-10.1166
谷	-10.1167
河間	-10.1167
佐	-10.1167
荘	-10.1168
尹	-10.1169
桀	-10.1171
揖	-10.1172
珍	-10.1172
王制云	-10.1172
聿	-10.1172
守之	-10.1173
曽氏	-10.1173
烈	-10.1174
礿	-10.1174
吕	-10.1175
殷仲文	-10.1175
飲酒	-10.1175
匹夫	-10.1175
四寸	-10.1175
軍	-10.1176
戸	-10.1176
是何言與	-10.1176
殖	-10.1176
人之行莫大於孝	-10.1177
寛	-10.1177
刃	-10.1177
藻	-10.1177
叙	-10.1177
賴	-10.1177
虎	-10.1178
諸侯有爭臣五人	-10.1178
釋詁文	-10.1178
禀	-10.1178
羞	-10.1179
墻	-10.1179
臣五人雖無道不失其國大夫有	-10.1179
踐	-10.1179
楊	-10.1179
僻	-10.1181
桀紂	-10.1181
復坐吾語女	-10.1181
別	-10.1181
消	-10.1182
征	-10.1182
棘	-10.1182
養則致其樂	-10.1182
膝	-10.1182
朝覲	-10.1182
父子之道天性也君臣之義也	-10.1182
子曰天地之性人為貴人之行莫大於孝	-10.1183
子曰夫孝天之經也地之義也民之行也	-10.1183
洽	-10.1183
孝治章第八	-10.1183
君子恥之	-10.1183
故得百姓之懽心以事其先君	-10.1183
犆	-10.1183
擗踊哭泣	-10.1183
欺	-10.1184
陰陽	-10.1184
藝	-10.1184
刺	-10.1184
給	-10.1184
古文孝經孔氏傳	-10.1184
眞	-10.1184
優	-10.1185
是故先之以博愛而民莫遺其親	-10.1185
収	-10.1185
决	-10.1185
括	-10.1185
曾子曰若夫慈愛恭敬安親揚名	-10.1185
爵禄	-10.1185
奥	-10.1185
又有君臣之義	-10.1186
蒙	-10.1186
進思盡忠退思補過	-10.1186
曾子侍	-10.1186
匡救其惡	-10.1186
此庶人之孝也	-10.1186
先王先公	-10.1186
怪	-10.1187
藉	-10.1187
聖治章第九	-10.1187
可不慎	-10.1187
乞言	-10.1187
廵	-10.1187
恐陷	-10.1188
也滿而不溢所以長守富也	-10.1188
楚	-10.1188
遐	-10.1188
僕	-10.1189
壊	-10.119
奸	-10.119
只	-10.119
聞樂不樂	-10.119
僅	-10.119
羽	-10.119
麗	-10.1191
伊	-10.1191
孝子之事親終矣	-10.1191
開宗明義章第一	-10.1191
竹	-10.1192
徳不敬其親而敬他人者謂之悖禮	-10.1192
以順天下民用和睦上下無怨女知之乎	-10.1192
琴瑟	-10.1192
詬	-10.1192
懸	-10.1192
撮	-10.1193
萌	-10.1193
獸	-10.1193
汚	-10.1193
僞	-10.1193
其本一也	-10.1194
短	-10.1194
上下無怨	-10.1195
半	-10.1195
浮	-10.1195
刻	-10.1195
子曰父子之道天性	-10.1195
癸	-10.1195
妃	-10.1195
賞罰	-10.1195
基	-10.1195
膏	-10.1196
以父配天	-10.1196
稼穡	-10.1196
粱	-10.1196
為人臣	-10.1197
為之宗廟以鬼享之春秋祭祀以時思之	-10.1197
賊	-10.1197
嚴父配天	-10.1199
無以加	-10.12
旨	-10.12
更端	-10.1201
唐虞	-10.1201
烏	-10.1202
草木	-10.1202
齋	-10.1203
幷	-10.1204
跪	-10.1205
犧	-10.1205
訛	-10.1206
男女	-10.1207
東西	-10.1207
圍	-10.1207
用天之道分地之利	-10.1207
注解	-10.1208
領	-10.1209
曲禮云	-10.121
狩	-10.1211
宫室	-10.1212
鄙	-10.1213
利禄	-10.1213
步	-10.1213
宗族	-10.1215
復坐	-10.1217
悲	-10.1218
敢問	-10.122
惟恐	-10.1221
三牲	-10.1222
隋書	-10.1226
宰我	-10.1227
春秋祭祀	-10.1229
服貢	-10.1229
閔子	-10.123
指解	-10.1231
宗祀	-10.1234
教民禮順莫善於弟	-10.1239
子曰教民親愛莫善於孝	-10.1239
有限	-10.1244
卿士	-10.1246
慈恭	-10.1247
孔安國云	-10.125
卿大	-10.1251
穆王	-10.1252
七廟	-10.1253
於是乎	-10.1255
喪親	-10.126
天之所	-10.1264
親戚	-10.1268
羣臣	-10.1269
以孝治天下	-10.1269
樂聲	-10.1276
以供	-10.1276
聖德	-10.1278
謹身	-10.128
是之謂	-10.1281
三人	-10.1283
庶人章	-10.1283
可觀	-10.1288
之所至	-10.1289
小心	-10.129
劉炫云	-10.1298
克明	-10.1299
四章	-10.1299
親切	-10.13
反注同	-10.13
甚大	-10.13
著也	-10.13
忠信	-10.1301
聖治	-10.1308
也反	-10.1309
爭臣	-10.1314
事親之孝	-10.1314
居官	-10.1317
故上下能相親也	-10.1318
非有所	-10.1319
不敢有	-10.132
父母生之	-10.1323
主日	-10.1325
子曰字	-10.1326
於朋友	-10.1327
愛者	-10.1331
極其	-10.1333
居家	-10.1334
之有乎	-10.1337
仁為	-10.1352
之章也	-10.1353
三年之	-10.1355
愛敬之道	-10.136
上下相	-10.1372
六經	-10.1375
在朝	-10.1376
之務也	-10.1384
者正	-10.1391
所傳	-10.1394
今不取也	-10.1395
喪服	-10.1395
如有	-10.1401
不明	-10.1402
漢書	-10.1402
失也	-10.1403
始終	-10.1403
劉向	-10.1405
懽心	-10.1406
如此也	-10.1416
發明	-10.1416
正諫	-10.1417
著明	-10.1421
則自	-10.1423
敬其父	-10.1427
中於事君	-10.1432
於魯	-10.1444
而正之	-10.1446
祭義	-10.1447
如是	-10.1453
其財	-10.1458
於郊	-10.1458
遵道	-10.1459
之極也	-10.1469
非為	-10.1471
莫大於	-10.1473
亦未	-10.1479
逺矣	-10.1479
為文	-10.1482
不能自	-10.1488
喪不過三年示民有終也	-10.149
下有	-10.1496
先生	-10.1498
乎且	-10.15
以孝為	-10.1501
至誠	-10.1502
故知	-10.1504
曰云	-10.151
祖廟	-10.1512
者孝之	-10.1517
能事親	-10.1518
有異	-10.152
無事	-10.1524
進而	-10.1524
報之	-10.1549
可道	-10.1553
多矣	-10.1556
正義曰此言	-10.1559
曰予	-10.1559
養其父母	-10.156
僭上	-10.1566
夷子	-10.1569
善也	-10.1574
常也	-10.1574
教以臣所以敬天下之為人君者也	-10.158
存焉耳	-10.1595
出自	-10.1598
學禮	-10.1603
孝養	-10.1606
此之謂也	-10.1613
所注	-10.1613
事其親	-10.1616
五人	-10.162
而不諫	-10.162
行下	-10.1621
諸侯大夫	-10.1622
以别	-10.1625
皆謂	-10.1626
尹氏	-10.1627
右第十	-10.1636
之數	-10.164
好是	-10.1666
先後	-10.1667
古文無	-10.1672
禮節	-10.1675
天子庶人	-10.1678
心乎	-10.1679
無以加於孝乎	-10.1681
是也注	-10.1681
其職	-10.1683
使臣	-10.1693
民心	-10.1694
故孝	-10.1696
而後可以	-10.17
興行	-10.1707
其容	-10.1714
皆當	-10.1727
不解	-10.1737
▁行下孟反	-10.1746
之典	-10.1752
皆得	-10.1754
則一也	-10.1767
其功	-10.1769
治直吏反	-10.1769
如父母	-10.1771
大夫三	-10.1776
養其親	-10.178
雖在	-10.1785
右第	-10.1793
天下之人	-10.1795
不卜	-10.1796
身不	-10.1798
則亦曰	-10.1805
以前	-10.1817
葢言	-10.1828
躬行	-10.1834
必及	-10.1845
以之而	-10.1853
不悖	-10.1869
人以	-10.1871
其死	-10.1871
治也	-10.1871
臣之	-10.1878
官也	-10.1881
問曰	-10.1886
文定	-10.1892
不讓	-10.1894
不至於	-10.1898
隨之	-10.19
導之以禮樂而民和睦	-10.1914
聖王之	-10.1918
過失	-10.1927
得天下	-10.1934
盡於	-10.1946
老幼	-10.1951
不在	-10.1967
所在	-10.197
其説	-10.1971
鄭云	-10.1973
不顯	-10.199
禍亂不作	-10.1991
取法	-10.2002
享祀	-10.2016
保守	-10.2016
故舉	-10.202
要也	-10.2028
養父母	-10.2039
知也	-10.204
矣且	-10.2055
徳而	-10.206
致其敬	-10.2062
此之謂	-10.2065
也注言	-10.2072
已乎	-10.2081
士庶	-10.2085
之民	-10.2086
事親者	-10.2094
見矣	-10.2126
也君	-10.2134
以下	-10.2138
門之	-10.215
義理	-10.2163
藏之	-10.2172
立則	-10.2172
衆人	-10.2174
孝為	-10.2176
不易	-10.2184
先祖	-10.2201
為後	-10.2207
引書	-10.2208
以時	-10.2231
君能	-10.2235
母也	-10.2237
比於	-10.224
坐而	-10.2252
或有	-10.2253
貴其	-10.2274
之政	-10.2276
心則	-10.2288
曰吾	-10.229
其時	-10.2302
始於事親	-10.2304
孝之所	-10.2314
教以弟所以敬天下之為人兄者	-10.2328
能養	-10.2329
順則	-10.2346
者盖	-10.2347
猶言	-10.2349
詩云夙夜匪懈以事一人	-10.2351
盡矣	-10.2364
有終始	-10.2368
而見	-10.2369
告之	-10.2375
無以為	-10.2376
司馬光曰謂	-10.2378
檀弓云	-10.2391
有成	-10.2391
已矣	-10.24
亦何	-10.2417
其社稷	-10.2424
竭	-10.2441
萬世	-10.2448
子曰孝子之喪親	-10.2451
也詩云	-10.2454
有德	-10.2455
攻	-10.2457
能保	-10.2465
不盡	-10.2466
於日月	-10.2472
壞	-10.2475
相傳	-10.2481
從其	-10.2488
父母有	-10.249
卜之	-10.2501
以養	-10.2504
太學	-10.2505
道在	-10.2509
於後	-10.253
託	-10.2534
無上	-10.2535
亦云	-10.2543
子者	-10.256
此三	-10.2561
敬其	-10.2563
言人	-10.2566
之下	-10.2567
資取也	-10.2568
惡之	-10.2586
聖人之道	-10.2601
行成	-10.2602
一曰	-10.2604
也然亦	-10.2605
詔之	-10.2611
定本	-10.2617
重禮	-10.2636
諸侯有	-10.2639
民無	-10.264
五十里	-10.265
皇侃	-10.2652
歸之	-10.2665
而民	-10.2669
喪則致其哀祭則致其嚴	-10.2674
師尹	-10.2682
君上	-10.2684
惡烏路反	-10.2693
而獨	-10.2713
之刑	-10.2713
陸費墀欽定四庫全書	-10.2722
相承	-10.2734
教以臣所以敬天下之為人君者	-10.2735
治家者不敢失於臣妾而况於妻子乎	-10.2736
所以成	-10.2739
損	-10.2739
禮有	-10.2741
致齊	-10.2742
六章	-10.2743
其在	-10.2744
此云	-10.2749
行下孟	-10.2749
其於	-10.2755
云云	-10.2767
又以	-10.2772
以加於孝乎	-10.2773
退而	-10.2779
必其	-10.2785
其理	-10.2808
九十	-10.2822
大事	-10.2826
皆得其	-10.2833
無親	-10.2847
不危	-10.2851
不聞	-10.2853
天下國家	-10.2858
五等	-10.287
導之	-10.2881
重於	-10.2898
三章	-10.2914
明矣	-10.2917
來助祭	-10.2928
而施	-10.2931
耳目	-10.2931
筮	-10.2937
而道	-10.2951
之習	-10.2954
得以	-10.2956
祫	-10.2958
鄉飲酒之禮	-10.296
以和	-10.2961
觀之	-10.2974
可知矣	-10.2978
子曰孝子之事親	-10.298
而後可	-10.2981
允	-10.2984
以事其先君	-10.2987
游	-10.2991
悌也	-10.2993
是猶	-10.3011
政之	-10.3017
孝子之事親	-10.3037
備也	-10.3037
而爲	-10.3039
有闕	-10.3043
時而	-10.3048
子子	-10.305
逺而	-10.3056
古文作	-10.3061
瞻	-10.3067
一敬	-10.3072
坊	-10.3079
得志	-10.308
俟	-10.3083
施之於	-10.3083
曰孝	-10.3089
孝經注疏序	-10.3089
不若	-10.309
者案	-10.3095
愛敬盡於事親	-10.3095
地利	-10.3098
值	-10.3106
叚	-10.3106
之所由生也	-10.3109
也既	-10.3119
小國	-10.3121
而自	-10.3123
之使	-10.3127
然後可以	-10.3132
長幼順	-10.3134
刀	-10.3135
操	-10.3139
不毁傷	-10.3142
肉	-10.3145
史記	-10.3148
乙	-10.3148
野	-10.3149
又引	-10.3149
夫惟	-10.3149
徐	-10.3153
事則	-10.3155
肆	-10.3156
險	-10.3157
産	-10.3158
小功緦麻	-10.3158
寳	-10.3158
赤	-10.3159
醜	-10.3161
旅	-10.3161
百里	-10.3162
圜	-10.3163
故不肖者之	-10.3164
試	-10.3164
鸞	-10.3166
帝嚳	-10.3166
几	-10.3166
朱子刋誤	-10.3167
韋	-10.3167
瞿	-10.3169
襄	-10.3169
班	-10.3169
訾	-10.3169
瑞	-10.317
弊	-10.317
諌諍	-10.317
㓜	-10.3171
傾	-10.3171
無體之禮	-10.3171
孝悌之至通於神明光於四海無所不通	-10.3171
雉	-10.3171
牢	-10.3172
木也其牲以	-10.3172
豐	-10.3173
䂓	-10.3173
林	-10.3173
復坐吾語汝	-10.3173
匹	-10.3173
先聖	-10.3173
静	-10.3173
故明王之以孝治天下如此	-10.3173
亢	-10.3174
天子章第二	-10.3175
父母舅姑	-10.3175
早	-10.3175
鄰	-10.3176
黄帝	-10.3176
殘	-10.3176
期之喪	-10.3176
冰	-10.3177
境	-10.3177
亨	-10.3177
無也字	-10.3177
安上治民莫善於禮	-10.3177
霸	-10.3177
悦敬其君則臣悦敬一人而千萬人悦	-10.3178
臺	-10.3178
併	-10.3178
侈	-10.3178
滿而不溢所以長守富	-10.3179
雖無道不失其	-10.3179
䧟	-10.3179
隕	-10.3179
先之以敬讓而民不爭	-10.3179
德不敬其親而敬他人者謂之悖禮	-10.3179
羙	-10.3179
冉	-10.3179
背	-10.3179
速	-10.318
擗婢亦反	-10.318
士有爭友則身不離於令名	-10.318
父有爭子則身不陷於不義	-10.318
巳	-10.318
糾	-10.318
芳	-10.318
進退可度	-10.318
亾	-10.318
英	-10.3181
藴	-10.3181
大雅云無念爾祖聿修厥徳	-10.3181
治國者不敢侮於鰥寡而况	-10.3181
饋奠	-10.3181
嚮	-10.3181
廷	-10.3181
三才章第七	-10.3181
國大夫有爭臣三人雖無道不失其家	-10.3181
削	-10.3181
病則致其憂	-10.3182
玩	-10.3182
黙	-10.3182
髪膚	-10.3182
呂	-10.3182
萃	-10.3182
唐明皇御注陸德明音義宋郉昺疏	-10.3182
丹	-10.3182
繩	-10.3182
坑	-10.3183
採	-10.3183
五刑章第十一	-10.3183
故能成其徳教而行其政令	-10.3183
暨	-10.3183
事親者居上不驕為下不亂在醜不争	-10.3183
故生則親安之	-10.3183
宻	-10.3183
庶人章第六	-10.3183
右傳十	-10.3184
辠	-10.3184
偶	-10.3184
偽造	-10.3184
轍	-10.3184
其政不嚴而治	-10.3185
績	-10.3185
事君章第十七	-10.3185
諷	-10.3185
争臣三人雖無道不失其家	-10.3185
甫刑云一人有慶兆民賴之	-10.3185
忝辱也	-10.3185
穫	-10.3185
訟	-10.3185
諸侯章第三	-10.3186
簠	-10.3186
則聞命矣敢問子從父之令可謂孝乎	-10.3186
陳其簠簋而哀戚之	-10.3186
周頌	-10.3186
兹	-10.3186
五刑之屬三千	-10.3186
醜衆	-10.3186
羮	-10.3186
沿	-10.3186
得其歡心	-10.3187
張禹	-10.3187
仰	-10.3187
仲尼孔子字	-10.3187
臧	-10.3187
閨門之内	-10.3187
明黄道周撰	-10.3187
通結上文	-10.3187
周公攝政	-10.3187
子曰不愛其親而愛他人者謂之悖	-10.3187
枉	-10.3187
厭	-10.3188
洪	-10.3188
貴而	-10.3188
是以四海之内各以其職來助祭	-10.3188
唐明皇	-10.3188
忌日	-10.3188
制節謹度滿而不溢	-10.3188
曾子問曰	-10.3188
貨	-10.3188
分地之利	-10.3188
饑	-10.3188
萬姓	-10.3189
廣揚名章第十四	-10.3189
品	-10.3189
範	-10.3189
邁	-10.3189
感應章第十六	-10.3189
懿	-10.3189
開宗明義	-10.3189
酌	-10.319
天地明察	-10.319
幣	-10.319
棺槨	-10.319
譏	-10.319
卿大夫章第四	-10.319
虐	-10.319
彛	-10.3191
子曰先王有至徳要道	-10.3191
天地明察神明彰矣	-10.3191
子曰是何言與是何言與昔者天子有	-10.3191
婢	-10.3191
忠順不失以事其上然後能保其	-10.3191
矩	-10.3191
吾不信也	-10.3191
冠昏	-10.3191
冩	-10.3191
竒	-10.3191
愉	-10.3191
箋	-10.3192
愼	-10.3192
為之棺槨衣衾而舉之陳其簠簋而哀	-10.3192
焚	-10.3192
蒼	-10.3192
寐	-10.3192
佑	-10.3192
營	-10.3193
髮	-10.3193
莫大乎	-10.3193
夏殷	-10.3193
是以四海之内各以其職來祭	-10.3193
蔽	-10.3193
廣至徳章第十三	-10.3193
截	-10.3193
餙	-10.3193
南面	-10.3194
戴	-10.3194
為下而亂則刑在醜而爭則兵	-10.3194
鑿	-10.3194
顔淵	-10.3195
摯	-10.3195
舟	-10.3195
竭力	-10.3195
其義一也	-10.3196
唐㑹要	-10.3196
三日而食	-10.3196
激	-10.3196
毒	-10.3197
諒	-10.3197
駁	-10.3197
房	-10.3197
下今文有	-10.3198
章句	-10.3198
閨門一章	-10.3198
隣	-10.3199
君臣父子	-10.3199
辟席	-10.3199
孩提之童無不知愛其親	-10.32
融	-10.3201
周公制禮	-10.3202
故不愛其親而愛他人者謂之悖	-10.3202
斯二者	-10.3202
霜露	-10.3202
光於四海	-10.3202
繅	-10.3202
不忘親也	-10.3203
緒	-10.3203
襄公	-10.3203
嚴而治	-10.3203
謹度	-10.3203
避席	-10.3204
哀公問	-10.3204
飽	-10.3204
倚	-10.3205
貫通	-10.3205
矇	-10.3206
驟	-10.3206
子産	-10.3207
偪下	-10.3208
號泣	-10.3208
墠	-10.3209
故以名章次	-10.321
屋	-10.3211
禰廟	-10.3212
閨門章	-10.3212
膳	-10.3213
則天之明因地之義	-10.3213
有慶	-10.3214
祈	-10.3214
鼗	-10.3214
卒哭	-10.3215
路馬	-10.3216
凝	-10.3216
▁説音悦	-10.3217
制節	-10.3218
服美不安	-10.3218
三才	-10.322
項君	-10.3222
元首	-10.3222
方澤	-10.3223
他日	-10.3225
上下和	-10.3227
祖述	-10.3228
致仕	-10.3229
刖	-10.3229
當須	-10.323
知所以事	-10.3231
雖滿	-10.3233
政令	-10.3234
▁舊本	-10.3234
兩家	-10.3235
古文句	-10.3235
所不貴也	-10.3236
赤子	-10.3237
存亡	-10.3237
變化	-10.3239
為臣子者	-10.3239
九章	-10.3239
章次	-10.3239
不忘其親	-10.3244
月令	-10.3245
雖殊	-10.3246
雖無道	-10.3246
之服其冕	-10.3247
君之尊	-10.325
迎長	-10.3252
不敢遺	-10.3253
轡	-10.3256
盡力	-10.3257
明王孝治	-10.3257
以文王配	-10.3258
自有	-10.3264
行成於内	-10.3265
聖人之德	-10.3265
邦國	-10.3266
▁夫音扶	-10.327
報本	-10.327
反哭	-10.3271
者當	-10.3271
以下如	-10.3272
之任也	-10.3272
可度	-10.3272
政刑	-10.3272
故君	-10.3274
不敢犯	-10.3275
移孝	-10.3275
公羊高	-10.3278
没而	-10.3282
天子諸	-10.3284
文質	-10.3287
也故以	-10.3288
毁傷其身	-10.3288
國風	-10.3294
子言之君子	-10.3295
于四海	-10.3297
不敢惡	-10.3299
則非	-10.3299
無念	-10.33
乎故	-10.3302
父母所	-10.3303
變而	-10.3303
本原	-10.3307
三等	-10.331
之斯	-10.3313
國之君	-10.3314
又推	-10.3332
示民有	-10.3334
道之要	-10.3337
内史	-10.3339
今文作	-10.334
夫猶	-10.334
乃引	-10.3341
此二	-10.3345
天下平	-10.3346
不取	-10.3347
乎孔子曰	-10.3353
救其	-10.336
節用	-10.3361
亦當	-10.3363
此四者	-10.3363
者與	-10.3363
侍坐於	-10.3363
為治	-10.3364
聖經	-10.3367
中庸曰	-10.3369
三讓	-10.3377
立廟	-10.338
之語	-10.3381
聖人制	-10.3384
家相	-10.3385
無終	-10.3386
之功用	-10.3386
莫先	-10.3389
理家	-10.339
先公	-10.3391
冬至	-10.3391
論孝	-10.3395
由此而	-10.3398
若是則	-10.34
地利也	-10.3405
子曰孝子之事親也	-10.3408
鄉飲酒	-10.3409
並非	-10.3414
古者天子	-10.3416
燕禮	-10.3418
大哉	-10.3418
事親之	-10.3419
孫子	-10.3426
夫子所	-10.3432
無遺	-10.3436
長長	-10.3441
一體	-10.3443
大小	-10.3445
其生也	-10.3447
據此	-10.3447
夫子以為	-10.345
所說	-10.3452
葢猶	-10.3462
以下皆	-10.3462
言諸侯	-10.3468
使弟	-10.3471
孝徳	-10.3474
也古者	-10.3477
恭順	-10.3478
乎哉	-10.3478
爲政	-10.3479
忠於君	-10.3484
未之有也	-10.3487
第十	-10.3488
非聖人	-10.3489
所宜	-10.3495
失於	-10.3497
孝經刋誤	-10.3502
必及之	-10.3502
未可	-10.3503
也但	-10.3503
察於	-10.3505
士章	-10.3515
語曰	-10.3519
無怨惡	-10.3526
而古文	-10.3528
乃成	-10.3535
尊尊	-10.3545
敬以	-10.355
未為	-10.355
事父兄	-10.3553
則為順	-10.3553
未著	-10.3564
不聽	-10.3566
則諸侯	-10.3566
為節	-10.357
婦人	-10.3571
不私	-10.3582
戒之	-10.3597
為其近於	-10.3598
以此為	-10.3598
不惡慢	-10.3599
孝之終也	-10.36
而後能	-10.36
此本	-10.3602
言不	-10.3603
如是而	-10.3605
存者	-10.3606
或云	-10.3611
正義曰此章	-10.3618
不假	-10.362
乎詩曰	-10.3625
教之以孝	-10.364
者不過	-10.3641
出焉	-10.3648
也故曰	-10.3649
前言	-10.365
先人	-10.3651
不樂	-10.3655
亦莫	-10.3655
孝經則	-10.3659
人道	-10.3665
章之首	-10.3668
徳之	-10.3678
則忘	-10.3678
其治	-10.3679
後學	-10.3683
則無所不	-10.3683
不絶	-10.3693
之禍	-10.3696
成矣	-10.3698
樂易	-10.3703
亂之	-10.3705
身先	-10.3706
𤣥宗曰言	-10.3715
所謂孝	-10.3717
六行	-10.3721
以寧	-10.3731
於父	-10.3732
而反	-10.3735
莫有	-10.3748
不誼	-10.3749
家臣	-10.375
其服	-10.375
愛父	-10.3774
此所以	-10.3777
本于	-10.3784
也嚴	-10.3791
自致	-10.38
既得	-10.381
為次	-10.3812
不顧	-10.3816
凡此	-10.3818
五曰	-10.3818
異同	-10.3825
猶父	-10.383
故得人之	-10.3834
孝乃	-10.3835
乎夫	-10.3838
各以	-10.3842
能盡	-10.3848
上之所	-10.3849
亦以	-10.385
未嘗不	-10.3852
以為行	-10.3854
註疏	-10.3854
亦是	-10.3864
興起	-10.3865
而無其	-10.3867
禮之大	-10.3871
中道	-10.3884
嚴而	-10.3888
孝字	-10.3896
皆備	-10.3914
内則	-10.3925
則天下	-10.3929
于天子	-10.3931
十一章	-10.3931
謂是	-10.3932
五孝	-10.3936
為義	-10.3939
謂孝	-10.3943
亦然	-10.3945
無功	-10.3958
兄也	-10.3962
大孝	-10.3972
何謂	-10.3985
而葬	-10.3986
而况	-10.3989
言先王	-10.3993
各以其	-10.3993
禁也	-10.4004
以養父母	-10.4006
為孝子	-10.4032
敬天	-10.4033
民者	-10.4038
法天地	-10.4039
牲也	-10.404
自治	-10.4053
可法	-10.4058
順矣	-10.4071
節文	-10.4072
以御	-10.4085
漢初	-10.4101
止於	-10.4102
經云	-10.4104
相親	-10.4106
為天	-10.4111
所尊	-10.4111
曰君子	-10.4121
其所以	-10.4128
大道	-10.4129
行矣	-10.4131
孔鄭	-10.4141
不滅	-10.4144
於王	-10.4153
十餘	-10.4158
不變	-10.4162
是以君子	-10.4164
而祭	-10.4165
者君	-10.4167
矣君子	-10.4177
災害不生	-10.42
一身	-10.421
不著	-10.4218
不求	-10.4219
之功	-10.4219
自稱	-10.4222
責之	-10.4226
者但	-10.423
士君子	-10.423
所以明	-10.4231
三十六	-10.4235
衣之	-10.4251
曰父	-10.4251
矣故曰	-10.4255
孟反	-10.4289
正其	-10.4291
人之所以	-10.4292
其先	-10.4301
利者	-10.4307
行於	-10.4309
天子章	-10.4309
大明	-10.4315
為卿大夫	-10.4315
從此	-10.4321
過於	-10.4324
之主	-10.4325
揚之	-10.4327
必思	-10.4335
不同而	-10.4343
所從	-10.4348
也天	-10.4349
東方	-10.4363
立教者	-10.4363
所事	-10.4369
足也	-10.4373
廟之	-10.4377
先王以	-10.4389
人君子	-10.4391
之序也	-10.4423
於士	-10.4432
言先	-10.4454
者也然則	-10.4463
斯則	-10.4465
之則也	-10.4466
亦非	-10.4475
得於	-10.4478
今所	-10.4484
於兄弟	-10.4497
凡十	-10.4499
謂天下	-10.4505
能致	-10.4509
尊者	-10.4513
天則	-10.4516
去其	-10.4517
道徳之	-10.4517
者三	-10.452
也易曰	-10.4523
為先	-10.4528
而民不	-10.4541
退謂	-10.4544
於忠	-10.4546
不應	-10.4548
夫子述	-10.4554
獻之	-10.4555
以化	-10.4557
記之	-10.4573
顯親	-10.458
所聞	-10.4583
此者也	-10.4584
於祭	-10.4591
神人	-10.4618
智也	-10.4627
之務	-10.4628
可行	-10.4654
二句	-10.4666
之世	-10.4676
孝子事親	-10.468
弟者	-10.4681
士之	-10.4685
▁長丁丈反	-10.4687
則毁傷	-10.4692
居于	-10.4694
孝乎	-10.47
之言行	-10.4711
其化	-10.4714
於君則	-10.4718
教天下	-10.4725
者也故	-10.4731
已上	-10.4734
養親	-10.4735
孝治之	-10.4736
於堂	-10.4749
令名	-10.4749
臣子之	-10.4751
八字	-10.4751
也斬衰	-10.4753
皆在	-10.4761
一言	-10.4768
殺則	-10.4773
子弟臣	-10.4791
國也	-10.4794
學士	-10.4797
乎上	-10.4803
之説	-10.4809
以深	-10.4812
國而	-10.4816
州貢	-10.4843
厝	-10.4847
先有	-10.4854
兄則	-10.4866
耳若	-10.4871
之目	-10.4875
不謂之	-10.4878
故敬其父則子	-10.4884
之理也	-10.489
其力	-10.49
若親	-10.4912
籍	-10.4916
始出	-10.4917
注疏	-10.4928
於百姓	-10.4937
三代之	-10.4947
非道	-10.4947
當是	-10.4964
于家	-10.4969
未至於	-10.4975
四字	-10.4993
有禮	-10.4998
于道	-10.4998
此一節	-10.5009
六十	-10.5015
退則	-10.503
内外	-10.5034
誠敬	-10.5034
則多	-10.5041
地也	-10.5044
者禮樂	-10.5045
於四方	-10.506
不遺	-10.5073
起居	-10.5077
明孝	-10.5079
盡禮	-10.5082
毁不滅性此聖人之政	-10.5085
下士	-10.5101
所命	-10.5106
其意	-10.5117
所以致	-10.5128
子有	-10.5132
者舉	-10.5139
子曰君子之事親孝故忠可移於君	-10.5141
不幸	-10.5149
相通	-10.5157
以起	-10.5164
而止	-10.5167
可謂孝矣	-10.5174
矣行之於	-10.518
先於	-10.5181
德則	-10.5184
士庶人	-10.5188
得其心	-10.5189
行禮	-10.519
治亂	-10.5196
行之於	-10.5209
也周公	-10.5223
生民	-10.5225
喪不過三年示民有終	-10.5227
以俟	-10.5234
祭者	-10.5236
之後也	-10.5237
於民	-10.5238
尊其	-10.524
老子	-10.5246
二十二	-10.5247
無窮	-10.5265
之名也	-10.5269
刋誤	-10.5277
君親	-10.5281
孝道也	-10.5282
十四	-10.5288
者以其	-10.529
貽	-10.5297
為質	-10.5307
章大傳第十	-10.5315
什	-10.5334
事母孝	-10.5335
山林	-10.5346
其極	-10.5347
孝慈	-10.5351
如將	-10.537
舜之	-10.5373
莫大	-10.5383
下猶	-10.5394
居家理故治可移於官	-10.5399
孝悌之	-10.5401
哲	-10.5407
也庶人	-10.5413
而不言	-10.5414
皆非	-10.5421
之意焉	-10.5434
侯卿大夫士庶人	-10.5438
中有	-10.5446
而況於	-10.5453
之制也	-10.5471
貳	-10.5471
援神契云	-10.5475
所作	-10.5478
蓋天子之孝	-10.548
為難	-10.5495
為人父	-10.5495
是爲	-10.5506
人之心	-10.5509
高而不危	-10.5518
傳者	-10.5523
所藏	-10.5526
忍	-10.5533
天子之事	-10.5534
太史	-10.5536
聖人所	-10.5537
以此之故	-10.5556
凡在	-10.5565
君子之所	-10.5572
古書	-10.5579
曲禮	-10.5582
甲	-10.5589
刑於四海	-10.5589
文義	-10.559
某	-10.559
無服之喪	-10.5592
隋	-10.5595
用古文	-10.5596
呉澄	-10.5596
所惡	-10.5609
臯	-10.5618
誨	-10.5619
閔	-10.5621
故當不義則	-10.5621
乞	-10.5625
君子之教	-10.5625
之情也	-10.5625
景	-10.5634
契	-10.5635
六寸	-10.5636
愆	-10.5637
莫敢	-10.5638
犯禁	-10.5639
援	-10.564
和以	-10.5641
佚	-10.5644
患不及	-10.5646
程	-10.565
敬親者不敢慢於人愛敬盡於事親而	-10.565
嚴也	-10.565
它	-10.5652
而弟達乎	-10.5653
風俗	-10.5653
黼黻	-10.5656
冡	-10.5657
黻	-10.5657
枝	-10.5657
回	-10.5657
三者皆	-10.5657
頒	-10.5658
胥	-10.5659
鵠	-10.566
耄	-10.566
日旦思其	-10.566
絺	-10.5661
干戚	-10.5661
秩	-10.5662
飯	-10.5662
小國之臣	-10.5662
逄	-10.5662
公侯伯	-10.5663
立徳行	-10.5663
則天之明因地之利以順天下	-10.5664
三者備矣	-10.5664
旤	-10.5665
泯	-10.5665
冕而親迎	-10.5665
偪	-10.5666
抱	-10.5666
青	-10.5666
莫重於	-10.5667
詬厲	-10.5667
優游	-10.5668
居則致其敬	-10.5668
衣而飬老	-10.5668
子曰是何言與是何言與	-10.5668
非聖人者無法	-10.567
滿而不溢	-10.567
農	-10.567
乏	-10.567
軍旅	-10.5671
拜其辱	-10.5671
事親者居上不驕	-10.5671
此依魏注也	-10.5672
太廟	-10.5672
廣要道章第十二	-10.5672
是天道也	-10.5672
無聲之樂	-10.5672
地而	-10.5673
在國之	-10.5673
該	-10.5673
武帝時	-10.5674
矢	-10.5674
各有所	-10.5674
區	-10.5674
廓	-10.5675
亷	-10.5675
亦至焉	-10.5675
則萬物皆	-10.5675
故當不義則爭之	-10.5675
董生	-10.5676
嗜	-10.5676
坐字	-10.5676
引詩歌詠	-10.5676
殃	-10.5676
祭則鬼享之	-10.5676
禮者敬而已矣	-10.5676
卜其宅兆而安措之	-10.5676
裘	-10.5676
歩	-10.5676
閲	-10.5677
蓋諸侯之孝也	-10.5677
非先王之德行不敢行	-10.5677
不過乎物	-10.5677
廵守至於	-10.5677
狗	-10.5677
徳義而民興行先之以敬讓而民不	-10.5677
是故先之以博愛而民莫遺其親陳之以	-10.5677
故自天子已下至	-10.5677
擗踊哭泣哀以送之	-10.5677
邱	-10.5677
挾	-10.5678
此大亂之道也	-10.5678
喪則致其哀	-10.5678
繡	-10.5678
三老五更	-10.5678
悽愴	-10.5678
甫刑云一人有慶兆民頼之	-10.5678
盡津忍反	-10.5678
在上不驕高而不危制節謹度滿而不溢	-10.5678
宛	-10.5679
父慈子孝	-10.5679
秘	-10.5679
朂	-10.5679
陳之以德義而民興行	-10.5679
曽子曰甚哉孝之大也	-10.5679
敬一人而千萬人	-10.5679
仲尼閒居	-10.5679
側曰侍	-10.5679
匡衡	-10.5679
桓桓	-10.5679
翼翼	-10.5679
攝	-10.5679
而驕則亡為下而亂則刑在醜而争則兵	-10.5679
吐	-10.568
毫	-10.568
盥	-10.568
旱	-10.568
子曰君子事上進思盡忠退思補過	-10.568
葢天子之孝也	-10.5681
鯀	-10.5681
宴	-10.5681
各以其職來祭	-10.5681
訖	-10.5681
君子終身守此	-10.5681
正之與變因樂而彰故曰莫善於樂	-10.5681
禦	-10.5681
蜀	-10.5681
非孝者無親	-10.5681
勒	-10.5681
參所金反	-10.5681
淵源	-10.5681
虛	-10.5681
朔	-10.5681
安上治民	-10.5681
要君者無上	-10.5681
堪	-10.5681
燼	-10.5681
所以長守其	-10.5681
曾子曰甚哉孝之大也	-10.5681
在上不驕髙而不危	-10.5682
瘠	-10.5682
府史	-10.5682
宿	-10.5682
衞	-10.5682
伯禽	-10.5682
右傳二十	-10.5682
殺逐	-10.5682
君親臨之厚莫重焉	-10.5682
戾	-10.5682
稻	-10.5682
召公	-10.5682
德義可尊作事可法	-10.5682
𦙍	-10.5682
女音汝下同	-10.5683
纊	-10.5683
故曰終於立身也	-10.5683
枕	-10.5683
屈	-10.5683
秋冬	-10.5683
父子之道天性	-10.5683
替	-10.5683
憤	-10.5683
不食三日	-10.5683
恣	-10.5683
昌吕反	-10.5683
貪	-10.5683
結上文	-10.5684
燠	-10.5684
緩	-10.5684
者人之	-10.5684
充塞	-10.5684
詩云有覺德行四國順之	-10.5684
支	-10.5684
而可爲民之	-10.5684
霜	-10.5685
修身愼行	-10.5685
不易其則故	-10.5685
窺	-10.5685
韋布	-10.5685
教民親愛莫善於孝教民禮順莫善於悌	-10.5685
杜預	-10.5685
水漿不入口	-10.5685
長幼順故上下治	-10.5685
退思補過	-10.5685
域	-10.5685
踵	-10.5686
邢氏	-10.5686
仲尼居曽子侍	-10.5686
明發不寐	-10.5686
簒	-10.5686
遊	-10.5686
行則四方之國順而行之	-10.5686
隔	-10.5686
朗	-10.5686
徴	-10.5686
居上而驕	-10.5686
材	-10.5686
此章廣言	-10.5686
祐	-10.5686
在醜不爭	-10.5686
子曰君子之事上也進思盡忠退思補過	-10.5686
恱敬其君則臣恱敬一人而千萬人恱	-10.5686
理家謂卿大夫	-10.5686
諫諍之臣	-10.5686
鄉黨	-10.5686
曽子曰若夫慈愛恭敬安親揚名	-10.5686
醉	-10.5687
雷	-10.5687
之意當為傳之	-10.5687
葉	-10.5687
治國	-10.5687
牽	-10.5687
南鄉	-10.5688
袁宏	-10.5688
之禮所以仁	-10.5688
告於墓	-10.5688
地之義民之行天地之經而民是則之	-10.5688
脱	-10.5688
庚	-10.5688
溫	-10.5688
孩提	-10.5688
怡	-10.5688
𨽻	-10.5688
忠順不失	-10.5688
不可欺以	-10.5688
沃	-10.5688
皆本乎	-10.5688
盖天子之孝	-10.5688
役	-10.5689
熟	-10.5689
滕	-10.5689
浸	-10.5689
勤勞	-10.5689
虞書曰	-10.5689
所敬者寡而恱者衆此之謂要道	-10.5689
彝	-10.5689
飲酒食肉	-10.5689
辟音避	-10.5689
嫁	-10.5689
刑于四海	-10.569
伐	-10.569
寢苫枕塊	-10.569
諫諍章第十五	-10.569
齊戒沐浴	-10.569
謂之悖禮	-10.569
遍	-10.569
觸	-10.569
厚莫重焉	-10.569
相親相	-10.569
洋洋乎	-10.569
孝弟之至通於神明光於四海無所不通	-10.569
碑	-10.569
孔子閒居子夏侍	-10.569
又焉得為孝乎	-10.569
圓	-10.569
爰	-10.569
濟濟漆漆	-10.569
二程	-10.5691
丕	-10.5691
陋	-10.5691
卿與大夫	-10.5691
辰	-10.5691
衣衾	-10.5691
京	-10.5691
一家之	-10.5691
父子兄弟	-10.5691
冢	-10.5692
岳	-10.5692
衍義	-10.5692
迂	-10.5692
破	-10.5692
公明儀	-10.5692
沛	-10.5692
詘	-10.5692
憑	-10.5692
赫赫明盛	-10.5692
米	-10.5692
第七章	-10.5692
揚名榮親	-10.5692
狐	-10.5692
殽	-10.5692
為之棺椁衣衾而舉之	-10.5692
嗟	-10.5693
壁中	-10.5693
三日而	-10.5693
辱其父母	-10.5693
奚	-10.5693
出疆	-10.5693
帶	-10.5693
遐逺	-10.5693
得百姓之懽心	-10.5693
矣帝入	-10.5693
天經地義	-10.5694
尊而不親	-10.5694
憾	-10.5694
郊祀明堂	-10.5694
庫	-10.5694
攷	-10.5694
蟲	-10.5694
頑	-10.5694
葛	-10.5694
今以	-10.5694
尋	-10.5694
甸	-10.5695
明堂天子布政之宫也	-10.5695
茂	-10.5695
析	-10.5695
司徒	-10.5695
布帛	-10.5695
䙝	-10.5695
爽	-10.5695
傾危	-10.5695
之道不過於	-10.5695
䕶	-10.5695
犬	-10.5695
決	-10.5695
展	-10.5696
郤至	-10.5696
晦	-10.5696
九年	-10.5696
不敢遺小國之臣	-10.5696
日月而	-10.5697
提	-10.5697
汎	-10.5697
孝道之大	-10.5697
長幼之序	-10.5697
皇皇	-10.5697
蚤	-10.5697
欽定四庫全書孝經集傳卷	-10.5697
沉	-10.5697
鴈	-10.5697
金石	-10.5697
羲	-10.5697
疲	-10.5698
莫大于	-10.5698
順乎親	-10.5698
毁瘠	-10.5698
范	-10.5698
部	-10.5699
委曲	-10.5699
祕	-10.5699
輕侮	-10.5699
蔵	-10.5699
門户	-10.5699
隋志	-10.5699
妖	-10.5699
䖍	-10.5699
晉侯	-10.5699
以事一人	-10.5699
承上文	-10.57
琰	-10.57
柄	-10.57
敷暢	-10.57
微賤	-10.57
有争臣七人雖無道不失其天下諸侯有	-10.57
神明彰矣	-10.57
借	-10.5701
嘗藥	-10.5701
羅	-10.5701
嗜欲	-10.5701
之别名	-10.5701
孩幼	-10.5701
紂	-10.5701
謝萬	-10.5701
秋嘗	-10.5701
了	-10.5701
拜迎	-10.5701
刑戮	-10.5701
夫音符	-10.5701
膳膏	-10.5701
遠近	-10.5701
章明	-10.5702
千載	-10.5702
萬幾	-10.5702
悖逆	-10.5702
違逆	-10.5702
鄭康成	-10.5702
拘	-10.5703
軌	-10.5703
氣竭而	-10.5703
東北	-10.5704
下章云	-10.5704
倣	-10.5704
父母有疾	-10.5705
招	-10.5705
德敎加於百姓	-10.5705
永守	-10.5705
以順則逆民無則焉	-10.5705
子曰參先王有至徳要道	-10.5705
如之何	-10.5705
司馬貞	-10.5706
巡	-10.5706
精微	-10.5706
秀	-10.5706
三才章	-10.5706
古文孝經指解	-10.5706
語去聲	-10.5706
先王制禮	-10.5707
其類也	-10.5707
孔子對曰	-10.5707
埀	-10.5707
惡去聲	-10.5707
孔門	-10.5708
能立其身	-10.5708
長㓜	-10.5708
呉氏	-10.5708
子貢問	-10.5708
曜	-10.5708
永錫	-10.5708
謹守	-10.5709
北方	-10.5709
夭	-10.5709
能孝於	-10.571
開宗明義章	-10.571
闇	-10.571
得其宜	-10.571
時思之	-10.571
孺	-10.571
顔色	-10.5711
之答也	-10.5711
朝聘	-10.5711
露	-10.5712
而降福	-10.5712
在其中	-10.5712
也又曰	-10.5712
莫大焉	-10.5713
得毋	-10.5713
無忝	-10.5714
闗	-10.5714
鬼享	-10.5715
慈幼	-10.5715
此皆聖	-10.5715
晝夜	-10.5715
柷	-10.5715
燕享	-10.5717
天下和平	-10.5717
不去則	-10.5717
去慢	-10.5717
亦如之	-10.5718
武城	-10.5719
在其中矣	-10.5719
不敢侮	-10.5719
不敢私	-10.572
苟或	-10.5721
所自出	-10.5721
延	-10.5721
子曰夫孝徳之本也教之所由生也	-10.5721
故以孝事君則忠	-10.5721
漢興	-10.5722
多福	-10.5722
禮無容	-10.5722
則行之於	-10.5722
津	-10.5722
孰慮	-10.5722
以結之	-10.5722
所由生	-10.5723
正義曰此依魏注也	-10.5723
兵刑	-10.5723
本或作	-10.5723
為之宗廟以鬼享之	-10.5723
則聞命矣	-10.5726
則不止	-10.5726
事父孝	-10.5727
必湏	-10.5727
氣象	-10.5728
水火	-10.5728
父母之喪	-10.5729
覩	-10.5729
罪五百	-10.5729
慶譽	-10.573
甚哉	-10.573
原序	-10.5731
王后	-10.5731
食肉	-10.5731
謹節	-10.5732
臏	-10.5732
五常之	-10.5733
詭	-10.5733
卜兆	-10.5735
退朝	-10.5735
窮民	-10.5736
之甚也	-10.5737
上謂君	-10.5737
氣志	-10.5738
世婦	-10.574
宣王	-10.5741
董生曰	-10.5742
敬者禮	-10.5742
取象	-10.5743
最大	-10.5744
帝舜	-10.5744
爵位	-10.5745
逺近	-10.5745
燕居	-10.5745
後漢	-10.5746
五等之孝	-10.5748
不失其道	-10.5749
父母之身	-10.5749
以嚴	-10.575
夜明	-10.5753
以孝事	-10.5753
尊其父	-10.5753
元宗	-10.5754
長久	-10.5754
容貌	-10.5755
文王之徳	-10.5755
視學	-10.5755
之官以成	-10.5757
道路	-10.5759
天下之通	-10.576
何不敬	-10.576
守宗廟	-10.5761
篇首	-10.5761
老老	-10.5762
死節	-10.5763
者其惟	-10.5763
始于	-10.5763
問答	-10.5764
祀昊天	-10.5764
公門	-10.5765
其義同	-10.5765
助祭	-10.5765
尊顯	-10.5765
者此釋	-10.5765
之忠也	-10.577
居人	-10.5772
舊注	-10.5773
齊視	-10.5774
將來	-10.5775
非是	-10.5776
無二	-10.5777
繁文	-10.5778
威如	-10.5778
諸侯卿大夫之	-10.5779
孝經之文	-10.5779
而猶且	-10.578
之施	-10.5781
性情	-10.5781
三千條	-10.5782
五月	-10.5784
上下治	-10.5785
危亡	-10.5785
所統	-10.5789
而不犯	-10.5792
爲一章	-10.5794
孝子之心	-10.5794
之與敬	-10.5797
分别	-10.5799
語辭	-10.5803
御製序	-10.5807
者哉	-10.5808
月祭	-10.5808
哀公	-10.5809
乎以此之故	-10.581
奉法	-10.581
必於是	-10.5811
祖宗	-10.5813
寫之	-10.5814
舉其	-10.5814
周制	-10.5815
非毁	-10.5815
而已故	-10.5815
損益	-10.5816
徳業	-10.5816
明皇	-10.5818
未及於	-10.5818
豈惟	-10.5819
多聞	-10.5819
仁讓	-10.5821
能行	-10.5822
陳説	-10.5823
者未之有也	-10.5823
君子弗	-10.5823
之服自	-10.5824
二本	-10.5826
率先	-10.5826
順逆	-10.5826
改本	-10.5828
夫如是	-10.5828
所有	-10.5833
九州之	-10.5833
者多矣	-10.5833
禮儀	-10.5833
正義曰夫子	-10.5836
世世	-10.584
中興	-10.5843
案周禮	-10.5844
即所謂	-10.585
次之	-10.585
太王	-10.5854
孝子也	-10.5856
大歛	-10.5858
國之大	-10.5859
大辟	-10.5862
二世	-10.5864
社之	-10.5864
也以其	-10.5866
之盛也	-10.5867
中士	-10.5871
作忠	-10.5872
心志	-10.5875
御註	-10.5878
兼取	-10.5883
不得已	-10.5884
孝之大也	-10.5886
在前	-10.5886
謂其有	-10.5887
諸書	-10.5888
於墓	-10.5889
揚名顯親	-10.589
盡心	-10.5891
云爾	-10.5892
樂其	-10.5892
之憂	-10.5896
皆出於	-10.5899
俱行	-10.5906
德之本也	-10.5907
行孝道	-10.5908
雖别	-10.5908
流行	-10.5908
容儀	-10.5908
春秋左氏傳	-10.5909
則猶是	-10.591
弟弟	-10.5913
不敢有所	-10.5914
君子之徳	-10.5916
君有過	-10.5916
靡不	-10.5921
六家	-10.5924
薄於	-10.5924
善惡	-10.5925
御注	-10.5927
之餘也	-10.5928
於祖	-10.5929
初生	-10.5932
愈於	-10.5933
彼此	-10.5936
三禮	-10.5938
無擇	-10.5939
孝無	-10.5941
在家之	-10.5943
愛親者不敢惡於人敬親者不敢慢於人	-10.5943
分合	-10.5945
而況於妻子乎	-10.5948
之什	-10.5949
孝為百行之	-10.595
為壇	-10.5953
為人父者	-10.5953
於君父	-10.5954
二家	-10.5954
此二者	-10.5954
成人	-10.5954
而為之	-10.5956
今日	-10.5957
敬親者	-10.5957
長幼之	-10.5958
忘親	-10.5958
古文無也字孝經注疏卷	-10.5958
炫自	-10.596
無罪	-10.5962
人而人	-10.5962
臣下所	-10.5964
三王之	-10.5964
費也	-10.5964
尊文王	-10.5967
天地鬼神	-10.5967
而祔	-10.5968
五官	-10.5969
日日	-10.5971
祫也	-10.5974
天地之道	-10.5976
孝子之事親也	-10.5977
此哀戚之情也	-10.5979
凡四	-10.598
其人也	-10.598
繇禮	-10.5981
故順可移於長居家理故治可移於官	-10.5982
莫非	-10.5982
貴貴	-10.5983
至親也	-10.5986
殷禮	-10.5987
章服	-10.5987
王命	-10.5988
天子諸侯卿大夫士	-10.5989
見其所	-10.599
大化	-10.5993
為忠臣	-10.5994
行自	-10.5995
忠言	-10.6
同也	-10.6004
焉耳	-10.601
教弟	-10.6018
猶為	-10.602
則君	-10.6021
則下有	-10.6025
從古文	-10.6026
四國	-10.6033
諸兄	-10.6038
庶民	-10.604
之心則	-10.6048
下加	-10.6054
以致敬	-10.6054
不博	-10.6055
來助祭也	-10.6056
章中	-10.6057
孝經注解傳述人	-10.6059
雖多	-10.6061
所以合	-10.6064
先祖之	-10.6065
慼生民之	-10.6067
言孝子	-10.6072
於四時	-10.6074
案尚書	-10.6083
哀也	-10.6086
義疏	-10.6089
於上而	-10.609
祭法	-10.6094
欲觀	-10.6098
名法	-10.6099
三字	-10.6103
今文云	-10.611
云天子	-10.611
貴者也	-10.6113
其親則	-10.6113
於西	-10.6113
父母在	-10.6114
日嚴	-10.6115
不忠則	-10.6115
于世	-10.6115
所記	-10.612
既見	-10.6123
奉上	-10.6127
民性	-10.6128
之誼也	-10.613
物為	-10.6132
作孝經	-10.6137
以廣	-10.6138
以禮為	-10.6139
而為之也	-10.6141
無為	-10.6146
易其	-10.6147
不殊	-10.6149
志在	-10.6154
指於	-10.6157
序云	-10.6157
蓋是	-10.616
言蓋	-10.6162
敢於	-10.6164
有擇	-10.6166
無益	-10.6166
可以為	-10.6166
經稱	-10.6168
古人之	-10.6169
十年	-10.6172
小子	-10.6185
此義	-10.6188
文王之事	-10.6192
以為樂	-10.6194
求其	-10.6199
俱有	-10.6203
者如此	-10.6205
之士不	-10.6209
其言行	-10.6212
也故君子	-10.6212
所論	-10.622
議禮	-10.6221
敬其親	-10.6226
國中	-10.6231
月之	-10.6232
畏之	-10.6237
是猶之	-10.6238
謂庶人	-10.6239
故孝者	-10.624
聖人之教	-10.6242
懽心以	-10.6252
於上下	-10.6257
云孔子	-10.6259
選也	-10.6266
以事父	-10.6272
可考	-10.6274
要於	-10.6275
故明王	-10.6276
十三	-10.6277
有餘也	-10.6281
其恩	-10.6281
之罪也	-10.6284
中國	-10.6289
孰為	-10.6295
以慈	-10.63
與天地	-10.6301
示其	-10.6303
故須	-10.6304
作疏	-10.6305
今文無	-10.6306
春秋之	-10.6308
其父兄	-10.6311
子之道	-10.6311
自盡	-10.6314
毁不滅性此聖人之政也	-10.6319
矣盖	-10.6325
禮與曰	-10.6327
而不忘	-10.6343
敬人之父	-10.635
上大夫	-10.635
有兄	-10.6352
位也	-10.6359
而弔	-10.6361
不失則	-10.6362
道不行	-10.6369
喪也	-10.6375
致其哀祭則致其嚴五者備矣然後能事	-10.6381
三十	-10.6381
二書	-10.6408
不詳	-10.6415
註孝經	-10.6422
有不義	-10.6423
何必	-10.6434
不辟	-10.6449
後有	-10.645
詠	-10.6456
國老	-10.646
其自然	-10.6463
第三章	-10.6467
者莫不	-10.6476
當盡	-10.6489
明主	-10.6499
出其	-10.6503
知能	-10.6522
至善	-10.6523
後言	-10.6533
而禁	-10.6534
臨其	-10.6536
明父	-10.6538
敬而後	-10.6539
傳注	-10.654
然後為	-10.6542
敬其身	-10.6546
則謂	-10.6553
讓而	-10.6562
懼不	-10.6565
從諫	-10.6568
不除	-10.6571
人性	-10.6571
既聞	-10.6572
父母生	-10.6572
爲始	-10.6577
其詞	-10.6585
不窮	-10.6587
定為	-10.6588
尚有	-10.659
慼	-10.6592
合敬	-10.6598
正道	-10.6608
凡此其屬太	-10.6611
孝經定本	-10.6611
入於	-10.6629
十八	-10.663
有社稷	-10.6641
亦不能	-10.6643
亦可以	-10.6647
惟能	-10.6649
之辭也	-10.6649
有别	-10.6651
盖謂	-10.6653
終矣	-10.6658
使子	-10.6664
生民之	-10.6664
也賈生曰	-10.6672
慈孝	-10.6685
子曰吾志在春秋行在孝經	-10.6686
先之	-10.6696
夫有	-10.6702
行即	-10.6705
註文	-10.6706
之源	-10.6706
子之事親	-10.6709
于親	-10.6712
道以	-10.6714
思孝	-10.6716
是吾	-10.6723
使君	-10.6725
郊祭	-10.6726
極言	-10.6729
者莫	-10.6731
於天下則	-10.6734
仲尼之	-10.6736
而從之	-10.674
則似	-10.6747
而坐	-10.675
謂卿大夫	-10.6754
御者	-10.6759
正國	-10.6762
五至	-10.677
感應之	-10.6781
仁孝之	-10.6781
順治	-10.6784
衰矣	-10.6785
義已	-10.6791
曾子之	-10.68
竭其	-10.6802
已之	-10.6803
庶人之	-10.6811
有位	-10.6817
之月	-10.6822
義也然則	-10.6822
也然而	-10.6824
於刑	-10.6824
亂不	-10.6828
質者	-10.6831
孝經一卷	-10.6834
而已矣故	-10.6837
卿大夫之孝也詩云夙夜匪懈以事一人	-10.6852
官人	-10.6858
人主之	-10.6859
䘮則	-10.6859
之詩	-10.6867
敬而已矣	-10.6868
也曽子	-10.6872
不從政	-10.6875
以輔	-10.6882
制之	-10.6885
此句	-10.6897
尊於	-10.6906
有節	-10.6909
忠告	-10.6919
名立於	-10.6922
孝本	-10.6926
大順	-10.6934
者敬之	-10.6935
識之	-10.6935
極至	-10.6937
墨氏之	-10.6938
其中	-10.6941
其節	-10.6947
壇之	-10.6947
聖人者	-10.6959
如此故	-10.696
强之	-10.6961
起於	-10.6962
正與	-10.6967
后稷配	-10.6968
必得	-10.697
復有	-10.6971
於其家	-10.6978
三月而	-10.6985
况其	-10.7004
為貴也	-10.7007
者孝子	-10.7013
乎然則	-10.7013
孝道之	-10.7037
君之過	-10.7041
於下也	-10.7043
總言	-10.7046
本天	-10.7047
愛而	-10.7071
以足	-10.709
其宗廟	-10.7099
親死	-10.7102
時人	-10.7112
不敬而	-10.7117
所當	-10.7125
或以	-10.7129
物之	-10.7133
之倫	-10.7145
明明	-10.7152
此謂	-10.7171
天下皆	-10.7175
主也	-10.7184
其真	-10.7199
也以為	-10.7205
一字	-10.7207
諫之	-10.7223
喪則	-10.7224
觀其	-10.7231
非以	-10.7232
皆所以	-10.7239
反下	-10.7239
正義曰此依王注	-10.7239
宗廟之中	-10.724
禮樂者	-10.7243
不自	-10.7254
其身不	-10.7262
有物	-10.7267
廟則	-10.7269
立矣	-10.7275
逺者	-10.7276
室則	-10.7281
治其家	-10.7282
于上	-10.7288
曰此	-10.7291
用天	-10.7312
之㫖	-10.7325
顯也	-10.733
於山川	-10.7339
者親之	-10.735
士朝	-10.7351
反傳同	-10.7356
言保	-10.7368
守貴	-10.7387
一人則	-10.7388
也書曰	-10.7389
而君	-10.7403
不外	-10.7404
山之	-10.7408
賔主	-10.7409
而死	-10.7413
君子之道	-10.7417
疑其	-10.7424
其數	-10.7425
無學	-10.7426
其義也	-10.7429
其祖	-10.743
通謂	-10.7432
至理	-10.7455
盡其心	-10.7461
之傳	-10.7463
愛之則	-10.7469
其惡	-10.7474
少者	-10.7476
備言	-10.7491
藏也	-10.7492
賜之	-10.7493
盡其敬	-10.75
所因	-10.7508
無甚	-10.7515
日月之	-10.7516
五禮	-10.7519
也明王	-10.753
時已	-10.7541
不免	-10.7547
之實也	-10.7551
至大	-10.7552
指其	-10.7567
書為	-10.7577
之職	-10.7584
不為也	-10.7594
祭曰	-10.7595
皆為	-10.7606
祀明堂	-10.761
其次	-10.7614
儒者	-10.7614
怒而	-10.7618
稱子	-10.7626
其失	-10.7631
教敬	-10.7639
敬順	-10.7641
焉爾	-10.7642
不敢自	-10.7653
近而	-10.7668
不失天下	-10.7672
而賤	-10.7675
之謂禮	-10.7678
行下孟反傳	-10.7685
繼禰者	-10.7686
親在	-10.769
學以	-10.7703
又音	-10.7715
也親親	-10.7718
聖明之	-10.7725
不亡	-10.7738
别其	-10.7755
之長	-10.7758
申明	-10.7763
幸而	-10.7766
之力	-10.7771
吾志在春秋行在孝經	-10.7777
是亂	-10.7783
所不能	-10.7793
下民	-10.7794
著矣	-10.7795
言思	-10.78
其遺	-10.7806
而神	-10.7812
性性	-10.7812
賈生曰	-10.7814
具也	-10.7824
也非為	-10.7824
之恩	-10.7839
之報	-10.7842
愛子	-10.7842
者此謂	-10.7843
從政	-10.7848
也春秋	-10.7851
人事	-10.7852
不可復	-10.7876
欲以	-10.789
形於	-10.7893
安其	-10.7894
者樂	-10.7899
以事天地	-10.79
敬其君	-10.7948
失則	-10.7951
於道	-10.7962
厚於	-10.7965
少而	-10.7971
主張	-10.7985
慕也	-10.8022
子之行也	-10.8023
至如	-10.8031
詠之	-10.8035
性之	-10.8036
毀	-10.8036
篇語	-10.8049
教子	-10.8061
物注云	-10.8092
豈弟君子	-10.8099
而進	-10.8107
孟子曰君子	-10.8121
必至	-10.8124
功也	-10.8134
之中而	-10.8142
以化民而後以身先之	-10.8151
謂先王	-10.8152
非有	-10.8156
必由	-10.8172
者此依鄭注	-10.8178
果無	-10.8184
夫亦	-10.8204
所著	-10.8207
竝同	-10.8213
汝知之乎	-10.822
今文古文	-10.8229
分而	-10.8236
三者備矣然後能守其宗廟葢卿大夫之	-10.8242
卿之	-10.8263
不終	-10.827
母之道	-10.8303
不問	-10.8308
少傅	-10.831
祭而	-10.8322
中於	-10.8324
者也夫	-10.8335
以為教	-10.8363
孝之大	-10.8374
下矣	-10.8386
盡其忠	-10.8387
也患	-10.8394
知孝之	-10.8394
其善	-10.8395
名為	-10.8397
㳺	-10.842
廣揚名章	-10.8437
能終	-10.8448
則大夫	-10.845
為異	-10.8476
盡善	-10.8486
然後乃	-10.8491
之義也云	-10.8492
而不忠	-10.8496
焉此	-10.8504
以孝使	-10.8506
不奪	-10.8518
流而	-10.8524
易之	-10.8525
教讓	-10.8525
父母之憂	-10.8531
教以孝	-10.8533
右經	-10.854
喪親章	-10.8548
當其	-10.8553
此承	-10.8562
要者	-10.857
何為其	-10.8572
之後而	-10.8593
兆民	-10.8597
為之也	-10.8616
案禮記	-10.8626
貴之	-10.864
仲尼閒居曽子侍坐	-10.8654
能理	-10.8663
經常	-10.8669
敬親者不敢慢於人	-10.8676
則孝經之	-10.8683
不亂也	-10.8689
也此言	-10.8689
猶之	-10.8694
九字	-10.8701
於斯	-10.8702
如此而後	-10.8714
也右第十	-10.8718
爱	-10.872
子曰夫孝德之本也	-10.8723
曰今文	-10.8726
立身揚名	-10.8733
腹	-10.8735
與其	-10.8741
天下之為	-10.8741
東序	-10.8741
為卿士	-10.8742
上下尊卑	-10.8743
讓也	-10.8766
敬其兄	-10.8769
庠	-10.8771
皆謂之	-10.8777
㫖不甘此哀戚之情	-10.8792
愛而不	-10.8797
擬	-10.8817
德教加於百姓	-10.8823
按禮記	-10.8826
孝子之志	-10.8831
何得	-10.8833
饗帝	-10.8833
忝	-10.8845
其祖考也	-10.8846
卿大夫之孝	-10.885
十二字	-10.8853
孝子之行	-10.8856
悲哀	-10.8863
理則	-10.8869
正義曰言	-10.8872
徳教加於百姓刑於四海	-10.8883
成人之	-10.8886
不遑	-10.8892
共之	-10.8896
御製	-10.8897
不可以不爭於父臣不可以不爭於君	-10.8899
示民	-10.8901
所欲	-10.891
觸地	-10.8912
忠君	-10.8921
德者	-10.8924
天下大治	-10.8929
在西	-10.8934
故當不義則子	-10.8937
與天	-10.8938
敬盡於事親而徳教加於百姓刑于四海	-10.8939
哀戚之情	-10.8943
董	-10.8944
孝經集傳	-10.8945
浴	-10.8945
之宗廟以鬼享之	-10.8952
下孟反	-10.8954
於庶人孝無終始而患不及者未之有也	-10.8955
弓	-10.8959
疆	-10.8967
刑名	-10.8969
滿天下	-10.8971
曰神	-10.8974
就養無方	-10.8975
𢎞	-10.8976
不愛其親而愛他人者	-10.8976
大亂之道也	-10.8978
庻	-10.8979
之義通之則	-10.8979
巧	-10.8979
郤	-10.8981
自天子至於	-10.8981
華蟲	-10.8982
謟	-10.8983
絃誦	-10.8983
先言	-10.8984
熙	-10.8984
海而凖推而放諸	-10.8984
祼	-10.8985
溝	-10.8986
鷩冕	-10.8986
跳	-10.8986
底	-10.8987
愛其死	-10.8987
歲	-10.8987
瞽瞍	-10.8987
重合厚一尺	-10.8987
養庻老於	-10.8987
忝爾所生	-10.8988
此哀之發於	-10.8989
富貴不離其身	-10.8989
企	-10.899
慈以㫖甘	-10.899
爾雅	-10.8991
丞	-10.8991
檀弓	-10.8991
十三字	-10.8991
䝉	-10.8991
程答書曰頃見	-10.8991
掦	-10.8992
涖	-10.8992
饌	-10.8993
牀	-10.8993
褒貶諸侯	-10.8993
焉徐而察之始悟胡公之言為信而孝經	-10.8993
弟大計	-10.8993
賛	-10.8994
東晉	-10.8994
得之者皆煨燼之末	-10.8994
疑孝經引詩非經本文	-10.8994
駭	-10.8994
事長則順	-10.8994
當不義則爭之從父之令又焉得為孝乎	-10.8994
簟	-10.8995
此釋	-10.8995
晏平仲	-10.8995
父天母地	-10.8995
唯此而已	-10.8995
而和其民人	-10.8995
雞	-10.8995
千里	-10.8996
敬其所尊愛其所親	-10.8997
衍	-10.8997
附庸	-10.8997
帛	-10.8997
弧	-10.8997
下及於臣妾	-10.8998
父有争子則身不䧟於不義	-10.8998
順帝之則	-10.8998
蒸	-10.8998
諸侯卿大夫士	-10.8998
鄒	-10.8998
者孝弟之	-10.8999
言無此理故曰未有	-10.8999
再命	-10.8999
養老養幼	-10.8999
鄒氏	-10.8999
噫	-10.8999
凱	-10.8999
而患不能及者未之有也	-10.8999
饔餼	-10.8999
答拜之	-10.8999
太宰	-10.8999
謹身節用	-10.8999
曽参	-10.9
天下之心	-10.9
猶為不孝也	-10.9
至要之義	-10.9001
枲	-10.9001
悱	-10.9001
抗議	-10.9001
淑慎	-10.9001
無聲之樂氣志既	-10.9001
牢飱	-10.9001
臨深履薄	-10.9001
舜禹文王周公	-10.9001
韶	-10.9001
爭臣七人雖無道不失其天下	-10.9001
惕	-10.9001
屏	-10.9002
?」	-10.9002
紀孝行	-10.9002
惰	-10.9002
暫忘	-10.9002
大功之喪	-10.9003
鹿	-10.9003
䖏	-10.9003
泮	-10.9003
示不敢専	-10.9003
禮無不答	-10.9003
卧	-10.9004
則而象之	-10.9004
大夫立三廟	-10.9004
然後能保其祿位	-10.9004
踳駮尤甚	-10.9004
時祭祀展其孝思也	-10.9004
母取其愛	-10.9004
恪	-10.9004
百工	-10.9005
煇	-10.9005
制節謹度滿而不溢髙而不危所以	-10.9005
㫁	-10.9005
柱	-10.9005
棣	-10.9005
泗	-10.9005
焉得為孝乎	-10.9005
魄	-10.9005
籩豆	-10.9005
曰夫孝徳之本	-10.9006
身行愛敬也	-10.9006
在醜而争	-10.9006
兹一人應侯順徳	-10.9006
麤	-10.9007
式禮莫愆	-10.9007
側室	-10.9007
勾	-10.9007
受贄	-10.9007
於德禮	-10.9007
示之以好惡	-10.9007
穿鑿	-10.9007
者引詩大意如此	-10.9007
謗	-10.9007
門人所記	-10.9007
謹身節用以養父母	-10.9007
由是觀之	-10.9008
不越禮法則可度	-10.9008
!」	-10.9008
俯從夫孝子有終身之憂聖人以三	-10.9008
煨	-10.9008
男踊女擗祖載送之	-10.9008
鄉里	-10.9008
鐘鼓	-10.9008
饑寒	-10.9008
白虎通	-10.9008
夫人薦	-10.9008
有禮而順	-10.9008
祭則致其嚴	-10.9008
周公之志也	-10.9008
濟濟	-10.9009
以順移忠之道昭矣立身揚名之義彰矣	-10.9009
寇	-10.9009
顓	-10.9009
以事母其愛	-10.9009
夭折	-10.9009
孝子不為也	-10.9009
熈	-10.9009
章裳繡	-10.9009
緦	-10.9009
僖公	-10.9009
稟命	-10.9009
馬融	-10.9009
段	-10.9009
詳以告之	-10.9009
閭	-10.9009
故治可移於官	-10.9009
長上聲	-10.9009
曰吾聞之	-10.9009
曽子曰敢問聖人之徳其無以加於孝乎	-10.9009
纓	-10.9009
禮主於敬	-10.901
宅墓穴	-10.901
筆	-10.901
普	-10.901
民用和睦	-10.901
梓	-10.901
百穀	-10.901
敎之所由生也	-10.901
舉其多也	-10.901
不近兵刑	-10.901
何承天	-10.901
得志於人上	-10.901
惮	-10.901
摘	-10.901
無父無君	-10.901
上取象於天下取法於地	-10.901
患弗得	-10.901
未能也所求乎	-10.901
盡事親之道	-10.901
耆艾	-10.901
畢乃引大	-10.901
不肖者	-10.9011
悖補對反	-10.9011
界	-10.9011
妣	-10.9011
君子則不然言斯可道行斯可樂	-10.9011
因嚴以教敬因親以教愛	-10.9011
身體髮膚	-10.9011
彊	-10.9011
準	-10.9011
荒	-10.9011
起䖍反	-10.9012
此之謂要道也	-10.9012
福應	-10.9012
人之行莫	-10.9012
翦	-10.9012
兮	-10.9012
威儀不差	-10.9012
王草堂	-10.9012
駕	-10.9012
於士民乎故得百姓之懽心以事其先君	-10.9012
者君子弗與也	-10.9012
而推其愛敬於一家	-10.9012
行酬而後獻	-10.9012
輟	-10.9012
百世不遷	-10.9013
居上而驕則亡	-10.9013
千八百	-10.9013
長㓜順故上下治天地明察神明彰矣	-10.9013
上帝以配祖考	-10.9013
宅墓穴也兆塋域也	-10.9013
旒衣㑹	-10.9013
甘㫖	-10.9013
萬國之衆而皆得其懽	-10.9013
戮	-10.9014
寵	-10.9014
不能保	-10.9014
者其刑	-10.9014
孝旣畢	-10.9014
亟	-10.9014
戚之擗踊哭泣	-10.9014
可謂孝乎	-10.9014
守其祭祀	-10.9014
尚齒夏后氏貴爵而尚齒殷人貴富而尚	-10.9014
凖	-10.9014
韓嬰	-10.9014
大毛公	-10.9014
詬劉炫	-10.9014
峻	-10.9014
栁	-10.9014
綸	-10.9014
金革之事無辟也	-10.9014
徳義敬讓禮樂好惡	-10.9014
昏定晨省	-10.9014
長孫氏博士江翁少府后	-10.9014
三牲太牢也	-10.9014
佞	-10.9014
南蒯	-10.9014
后稷周之始祖也郊謂圜丘祀天也周	-10.9014
太宰純	-10.9014
尉	-10.9014
廵守之禮	-10.9014
愷悌君子	-10.9014
日月東西	-10.9014
登歌	-10.9014
蕃	-10.9014
貴賤之等	-10.9014
以順則逆民無則焉不在	-10.9014
既殯	-10.9014
可移於官	-10.9015
敬其君則臣悅	-10.9015
故能成其德	-10.9015
父母生之續莫大焉	-10.9015
則天之明	-10.9015
知所以為人	-10.9015
恩義之	-10.9015
暫	-10.9015
治家者不敢失於臣妾	-10.9015
塋域	-10.9015
規矩	-10.9015
族人與父兄齒也	-10.9015
盡矣養生送死	-10.9015
韻	-10.9015
人化而不爭	-10.9015
儆戒	-10.9015
凡十一字古文同在	-10.9015
況於士民乎	-10.9015
異端起而大義乖	-10.9015
禮以檢其跡樂以	-10.9015
忒他得反	-10.9015
使天下之人	-10.9016
詩云豈弟君子民之父母	-10.9016
敎不肅而成其政不嚴而治	-10.9016
後能保其社稷而和其民人葢諸侯之孝	-10.9016
冬夏	-10.9016
而尚齒虞夏殷周天下之盛王也未有遺	-10.9016
凡有血氣	-10.9016
涉	-10.9016
相尋	-10.9016
保傅之	-10.9016
夫人副褘	-10.9016
翻	-10.9016
迄	-10.9016
傳之十二章	-10.9016
吏之賤者也	-10.9016
夫孝天之經地之義民之行	-10.9016
宗堯	-10.9016
於善而皆在於凶徳雖得之君子不貴也	-10.9016
旌	-10.9016
既封而弔	-10.9016
柩車	-10.9016
榮華	-10.9016
絶於秦	-10.9016
羊尙反	-10.9016
者不敢言人	-10.9016
而道不著	-10.9016
膚髪	-10.9016
詆毁	-10.9016
謹守法度	-10.9016
蹻	-10.9016
農工商	-10.9016
鳩	-10.9016
栗	-10.9016
敝	-10.9017
曾子曰敢問聖人之	-10.9017
胄子	-10.9017
音洛	-10.9017
不在於善而皆在於凶德	-10.9017
親謂父母也	-10.9017
許慎	-10.9017
▁好呼報反	-10.9017
皮弁	-10.9017
祖襧	-10.9017
非家至而日見之也	-10.9017
董仲舒	-10.9017
侵	-10.9017
偕	-10.9017
傳之八章	-10.9017
制作事業動得物宜故可法也	-10.9017
可以為孝矣	-10.9017
宇	-10.9017
曉	-10.9017
誘	-10.9017
觴	-10.9017
以强教之	-10.9017
迨	-10.9017
長守富貴	-10.9017
扶問反	-10.9017
長上聲行去聲	-10.9018
民人盖諸侯之孝	-10.9018
删去	-10.9018
夫子陳說	-10.9018
節南山	-10.9018
鈍	-10.9018
泥	-10.9018
在身即有	-10.9018
以説安之	-10.9018
推吐雷	-10.9018
移風易俗	-10.9018
鄕	-10.9018
索	-10.9018
僣	-10.9018
五等國君	-10.9018
以敬為主	-10.9018
列爵	-10.9018
可以語孝	-10.9018
君子之所謂孝者	-10.9018
天之生物	-10.9018
孝以不毁為先	-10.9018
宜其家人	-10.9018
尙	-10.9018
愈多而	-10.9018
更有大於孝否	-10.9018
服衰麻	-10.9018
治家者不敢失於臣妾而況於妻子乎	-10.9018
焉知其能	-10.9018
無過之地	-10.9018
禍敗	-10.9018
繇音由	-10.9018
羔豚	-10.9018
肄	-10.9018
莫貴於	-10.9018
詩曹風鳲鳩	-10.9018
赫赫明盛貌	-10.9018
道音導	-10.9018
鄙詐	-10.9018
髙而不危所以長守貴	-10.9018
食旨不甘	-10.9018
雖得之君子所不貴	-10.9018
十五字	-10.9018
進退周旋	-10.9018
癘	-10.9019
敬其兄則弟悅	-10.9019
乃孝經之傳也竊嘗考之傳文固	-10.9019
太牢也	-10.9019
德要道以順天下民用和睦上下無怨	-10.9019
又示之以	-10.9019
是故行成於内而名立於後世矣	-10.9019
泂酌	-10.9019
雖得之君子不貴也	-10.9019
瞍	-10.9019
昵	-10.9019
㤀	-10.9019
之所法則也	-10.9019
孝爲百行之本	-10.9019
醜類	-10.9019
制禮作樂	-10.9019
御纂孝經集註	-10.9019
也劉巘	-10.9019
五者闕一	-10.9019
員	-10.9019
始於事親及不敢毁傷	-10.9019
宮	-10.9019
民無則焉	-10.9019
王者父事天母事地言能敬	-10.9019
盡其哀情	-10.9019
纎	-10.9019
莫覺其非至或以為孔子之	-10.9019
記以釋經文	-10.9019
誕	-10.9019
〇	-10.9019
參聞命矣敢問從父之令可謂孝乎	-10.9019
夫聖人之德又何以加於孝乎	-10.9019
所生謂父母	-10.9019
士有爭友	-10.9019
季文子	-10.902
生民之本盡矣	-10.902
與父同	-10.902
不敢惡於人	-10.902
進見於君	-10.902
豕	-10.902
哀痛之極	-10.902
居堊室	-10.902
井	-10.902
魂魄	-10.902
苟利	-10.902
肩	-10.902
釐	-10.902
劉劭	-10.902
袵	-10.902
桓譚新論	-10.902
發乎情	-10.902
賓	-10.902
迷	-10.902
途	-10.902
不相襲	-10.902
不能外之以爲	-10.902
以始祖后稷配	-10.902
信乎朋友	-10.902
凥	-10.902
嚚	-10.902
旗	-10.902
煢然	-10.902
爼	-10.902
謨	-10.902
毓	-10.902
二十四字	-10.902
進思盡忠	-10.9021
協	-10.9021
一卷宋	-10.9021
駮	-10.9021
棗	-10.9021
淑人君子	-10.9021
寕	-10.9021
瘝	-10.9021
能全其性	-10.9021
與今文異	-10.9021
儆	-10.9021
救其惡	-10.9021
暇	-10.9021
哭泣之	-10.9021
子者皆知盡事父	-10.9021
牒	-10.9021
履薄	-10.9022
凡六十九	-10.9022
則不祥也	-10.9022
親之遺體	-10.9022
居上位	-10.9022
風雷山澤	-10.9022
公羊傳	-10.9022
孝者百行之本	-10.9022
緝	-10.9022
孝道始終之義	-10.9022
簠簋祭器也陳奠素器而	-10.9022
中于事君	-10.9022
事宗廟則事天地能明察也	-10.9022
强有力者	-10.9022
拱	-10.9022
不敬其親而敬他人	-10.9022
以主宰言	-10.9022
先王見敎之可以化民也	-10.9022
凡三王	-10.9022
和順以從衆也	-10.9022
無生親可事	-10.9022
赦	-10.9022
性人為貴人之行莫大於孝	-10.9022
原隰	-10.9023
因論武王周公之事而	-10.9023
子不可以弗爭於父臣不可以弗爭於君	-10.9023
詐	-10.9023
地之義也	-10.9023
曽子辟席曰參不敏何足以知之	-10.9023
美有所不安	-10.9023
長幼順故上下治天地明察神明彰矣	-10.9023
沐浴	-10.9023
而後求諸人	-10.9023
一錢之錐	-10.9023
上正身以	-10.9023
曽子曰甚哉孝之大也子曰夫孝天之經	-10.9023
欽	-10.9023
注約彼文	-10.9023
然後能推之	-10.9023
臣者皆知盡事君之道	-10.9023
行思可樂	-10.9023
袍	-10.9023
赫	-10.9023
皆格言	-10.9023
棺椁	-10.9023
歆享	-10.9023
單	-10.9024
崩	-10.9024
三諫不	-10.9024
依鄭注也	-10.9024
欽定四庫全書孝經	-10.9024
炙	-10.9024
五等諸侯	-10.9024
刪削	-10.9024
無所遺失	-10.9024
返	-10.9024
之歸功於	-10.9024
事天母事地	-10.9024
四百餘字	-10.9024
國子祭酒	-10.9024
娶	-10.9024
敢放縱	-10.9024
營護	-10.9024
率下下順	-10.9024
裏	-10.9024
章第十一	-10.9024
子曰君子之事上也	-10.9024
曽子避席曰參不敏何足以知之	-10.9024
閒暇	-10.9024
容止威儀	-10.9024
妻子臣妾	-10.9025
父有爭子	-10.9025
導之以禮樂	-10.9025
肇	-10.9025
噐	-10.9025
幼之道順君人之化理	-10.9025
忌日不用	-10.9025
故曰彰也	-10.9025
渉	-10.9025
服者身之表也先王	-10.9025
牆	-10.9025
取事父之道以	-10.9025
來格	-10.9026
孝子之喪親也	-10.9026
鍾	-10.9026
殿	-10.9026
再拜	-10.9026
盗賊	-10.9026
聘問	-10.9026
詩云戰戰兢兢如臨深淵如履薄氷	-10.9026
飢	-10.9026
不敢奢侈	-10.9026
係	-10.9026
千乘之國	-10.9026
告於廟	-10.9026
嶽如	-10.9026
席而坐	-10.9026
河間人顔芝	-10.9026
班固	-10.9026
祖禹所説	-10.9026
祖考來格	-10.9026
自周公故曰其人也	-10.9026
製序	-10.9026
詩序又曰	-10.9026
巷	-10.9026
㡬諫	-10.9026
長幼之節	-10.9026
其父兄君	-10.9026
各有等差	-10.9026
宜稻麥	-10.9027
以身先之	-10.9027
偯於豈反	-10.9027
沙	-10.9027
恬	-10.9027
服縗麻	-10.9027
長孫氏江翁翼奉后蒼	-10.9028
芻	-10.9028
亞	-10.9028
東房	-10.9028
嶽瀆	-10.9028
則亂升	-10.9028
后土	-10.9028
孳	-10.9028
百乗	-10.9028
羣儒	-10.9028
自天子以至於庶人	-10.9028
韋昭王肅先儒之領	-10.9028
强飾	-10.9028
所以為孝也	-10.9028
副	-10.9028
利莫大於	-10.9028
髦	-10.9028
閨	-10.9028
因地之義	-10.9029
耆	-10.9029
畆	-10.9029
池	-10.9029
誹謗	-10.9029
邰	-10.9029
䘮畢	-10.9029
兵刄	-10.9029
大夫以上皆	-10.9029
憎	-10.9029
人則雖無道亦可以不失其	-10.9029
卿大夫位以材進	-10.9029
盛黍稷	-10.9029
虚耗	-10.9029
以事母則愛	-10.9029
動於	-10.9029
寓	-10.9029
局	-10.903
逾	-10.903
天之經也	-10.903
愛敬盡於事親而德敎加於百姓	-10.903
犯顔	-10.903
詩以結之言	-10.903
介僎	-10.903
則亦謂此也	-10.903
諷諫	-10.903
冊	-10.903
五刑謂墨劓剕宫大辟也	-10.903
亦是就	-10.903
减	-10.903
孔氏壁中古文	-10.903
戶	-10.903
拜送	-10.903
釋奠於先老	-10.903
鎮	-10.903
五廟之孫祖廟未毁雖	-10.903
人心天理	-10.903
君薨	-10.903
性未達何足知	-10.903
敖	-10.903
毁瘠過度	-10.903
藹	-10.903
行冲	-10.903
壟	-10.903
齊側	-10.903
謂先代	-10.903
如水之	-10.903
或云宜	-10.903
經二十	-10.903
居家理	-10.903
一人有慶兆民賴之	-10.903
大計反	-10.903
照臨	-10.903
之所共	-10.9031
父有争子則身不陷於不義	-10.9031
食㫖不甘	-10.9031
憲乞	-10.9031
比干	-10.9031
者無不敬其君也	-10.9031
之制禮也	-10.9031
必有諍臣	-10.9031
愛與敬也	-10.9031
稽顙	-10.9031
義曰云	-10.9031
者故資	-10.9031
三牲牛羊豕	-10.9031
事父母之孝	-10.9031
裘葛	-10.9032
后夫人	-10.9032
直吏	-10.9032
嘗烝	-10.9032
希	-10.9032
十室	-10.9032
孺慕	-10.9032
禍患	-10.9032
以是三者	-10.9032
仲山甫補之	-10.9032
犧牲	-10.9032
而能不驕則免危也	-10.9032
吉凶	-10.9032
揚觶	-10.9032
治國之道	-10.9032
疑丞輔弼	-10.9032
胞	-10.9032
光顯	-10.9032
勝音升	-10.9032
古先聖王	-10.9032
醢	-10.9032
呂刑	-10.9032
于偽反	-10.9032
不敢慢於人	-10.9032
優劣	-10.9032
示民有終也	-10.9032
濫觴於漢	-10.9033
唐明皇御注陸德明音義宋邢昺疏	-10.9033
刈	-10.9033
開元	-10.9033
俯	-10.9033
因於	-10.9033
禀命	-10.9033
而守其祭祀葢士之孝也	-10.9033
弟故順可移於長居家理故治可移於官	-10.9033
酉	-10.9034
無思不服	-10.9034
全而歸之	-10.9034
壙	-10.9034
模	-10.9034
約文敷暢義則昭然	-10.9034
紫	-10.9034
諸侯列國之君貴在人	-10.9034
以其祖配	-10.9034
合愛敬而	-10.9034
唾	-10.9034
循率	-10.9034
朝而殯	-10.9034
科斗	-10.9034
閣	-10.9034
乾隆四十六年	-10.9034
下謂孩幼之時也	-10.9034
嚳	-10.9034
讎	-10.9034
顙	-10.9034
補過	-10.9034
兒	-10.9034
含	-10.9034
此聖人之政也	-10.9034
天地亦以孝	-10.9035
注君行至	-10.9035
衣裳	-10.9035
出於口	-10.9035
恩義之厚	-10.9035
施政教	-10.9035
環	-10.9035
鈇鉞	-10.9035
篇引此以	-10.9035
慝	-10.9035
陸費墀	-10.9035
諫諫若不入起敬起	-10.9035
訊	-10.9035
經一章傳十四章	-10.9035
劇	-10.9036
君子弗行也	-10.9036
條貫	-10.9036
鉅	-10.9036
啜	-10.9036
五孝之用	-10.9036
啓蟄	-10.9036
御定孝經注	-10.9036
樸	-10.9036
藩	-10.9036
蹈	-10.9036
儼恪	-10.9036
則一也然則	-10.9036
撤膳	-10.9036
泚	-10.9036
億兆	-10.9036
摩	-10.9036
正義曰前	-10.9036
隨其	-10.9036
下以忠事上上以義接	-10.9036
令善也	-10.9036
則復諫	-10.9036
名章次	-10.9036
不敢失於臣妾	-10.9036
天子雖無上於天下	-10.9036
有不安節	-10.9036
追逺	-10.9037
生事愛敬死事哀	-10.9037
俸	-10.9037
則爲忠	-10.9037
歡心以事其親	-10.9037
如何曰	-10.9037
壤	-10.9037
仲尼居曾子侍	-10.9037
僉	-10.9037
吟	-10.9037
函	-10.9037
披	-10.9037
朱熹	-10.9037
蠶室	-10.9037
諾	-10.9037
散騎常侍	-10.9037
易進難退	-10.9037
有未盡也	-10.9037
弱	-10.9038
門之内	-10.9038
太卜	-10.9038
竟内	-10.9038
能相親也	-10.9038
不危不溢	-10.9038
苗	-10.9038
歎美	-10.9038
精深	-10.9039
桓	-10.9039
生天地之間	-10.9039
地之利	-10.9039
于心而	-10.9039
風雷	-10.9039
事地察	-10.9039
媮	-10.9039
江西	-10.9039
詎	-10.9039
受命於禰	-10.9039
四鄰	-10.9039
愷樂悌易	-10.9039
翰林	-10.9039
講堂	-10.9039
道始於太	-10.9039
次首章	-10.904
臯陶	-10.904
犬馬	-10.904
長㓜順	-10.904
生民之本	-10.904
琬	-10.904
辟踊	-10.904
血氣	-10.904
神祇	-10.904
武王周公	-10.904
食粥	-10.904
秩然	-10.9041
慶賞	-10.9041
傳文而	-10.9041
戒懼	-10.9041
捐	-10.9041
傷膚	-10.9041
升降	-10.9041
大臣助	-10.9041
憲副	-10.9041
潛	-10.9041
膝下之時	-10.9041
侃云	-10.9042
謝	-10.9042
少牢	-10.9042
弛	-10.9042
睿	-10.9042
則能保其	-10.9042
昏亂	-10.9043
孫氏	-10.9043
贊美	-10.9043
各順其	-10.9043
士相見	-10.9043
顛	-10.9043
菽	-10.9043
聞命矣敢問	-10.9043
覺大也	-10.9043
汲汲	-10.9043
予一人	-10.9043
分析	-10.9043
四輔	-10.9043
在公宫	-10.9043
孟子孟子曰	-10.9043
悲哀在心	-10.9043
畔亂	-10.9043
經籍志	-10.9043
臆	-10.9043
乾坤	-10.9043
刪數也字增子曰字	-10.9043
美味	-10.9044
瘡	-10.9044
不可不慎也	-10.9044
也教以悌所以敬天下之為人兄者也	-10.9044
言能立身行此孝道	-10.9044
聲容	-10.9044
養生送死	-10.9045
古文二十二章	-10.9045
排	-10.9045
保全	-10.9045
孔光	-10.9045
截鼻	-10.9045
遺忘	-10.9045
之也敬以	-10.9045
又何待	-10.9045
天子七廟	-10.9045
孝弟忠順	-10.9045
而民皆	-10.9045
伯子男	-10.9045
富貴不離其身然	-10.9046
動靜	-10.9046
男子割勢	-10.9046
之所致也	-10.9046
相連	-10.9046
語録	-10.9046
明王之以孝治天下也	-10.9047
叚序	-10.9047
而敢要	-10.9047
甞	-10.9047
贈	-10.9047
額	-10.9047
必見其	-10.9047
事親者居上不驕為下不亂在醜不	-10.9048
其末	-10.9048
羹	-10.9048
果何	-10.9048
得天下之懽心	-10.9048
流於外	-10.9048
父母之恩	-10.9048
其效如此	-10.9048
精神	-10.9048
於東序	-10.9049
也頌曰	-10.9049
往往	-10.9049
十月而	-10.9049
孝悌禮樂	-10.9049
無二尊	-10.9049
燔柴	-10.9049
蒼帝	-10.9049
㓙徳	-10.9049
杜	-10.9049
親之枝	-10.9049
養去聲	-10.905
在醜	-10.905
弟大計反	-10.905
於無形	-10.905
和悅	-10.905
凡百	-10.905
之所以治天下	-10.9051
不能自己	-10.9051
兼用之	-10.9051
垂訓	-10.9051
翔	-10.9051
詁	-10.9052
不肅而成	-10.9052
城郭	-10.9052
司農	-10.9053
董君	-10.9053
貴徳而	-10.9053
行於世	-10.9053
銘	-10.9053
小國之臣謂	-10.9053
舛	-10.9053
不受必忠曰	-10.9053
八牖	-10.9053
頖宫	-10.9053
爭居上而驕則亡	-10.9053
哀毁	-10.9054
太平	-10.9054
争於父臣不可以不争於君故當不義則	-10.9054
嬰兒	-10.9055
河間王所	-10.9055
相識	-10.9055
鬯	-10.9055
則衆不	-10.9055
元年	-10.9056
受禄	-10.9056
而可以得	-10.9056
不失其天下	-10.9056
當不義	-10.9056
故當不義則子不可以不	-10.9056
卜郊	-10.9057
巫蠱	-10.9057
大昕	-10.9057
肌	-10.9057
不得行其	-10.9057
周室	-10.9057
醫	-10.9057
天子至尊	-10.9057
孝經一篇	-10.9057
緣	-10.9057
進飲食	-10.9057
先王有至德要道	-10.9058
也注聖人至	-10.9058
及其長	-10.9058
温公	-10.9058
所謂致其	-10.9058
大夫能早夜不惰敬事其	-10.9059
旁	-10.9059
司冦	-10.9059
於祖禰	-10.9059
不時則	-10.9059
犢	-10.9059
不過如此	-10.9059
必有酒肉	-10.9059
朴	-10.9059
油	-10.9059
異宫	-10.9059
刀反	-10.9059
謹慎	-10.9059
躬耕	-10.906
脫	-10.9061
居廬	-10.9061
之所從出也	-10.9061
八月	-10.9061
之讎不與聚	-10.9061
授曾子	-10.9061
降殺	-10.9061
暮	-10.9061
送終	-10.9062
制㫖	-10.9062
音甫	-10.9062
一飯	-10.9062
知禮義	-10.9062
齊牛	-10.9063
目錄	-10.9063
以是待其	-10.9063
百年者	-10.9064
與天地參	-10.9064
是效	-10.9064
思慕	-10.9064
剪	-10.9064
有道乎曾子曰有	-10.9064
祭之日	-10.9064
死刑也	-10.9065
四支	-10.9065
長短	-10.9066
請業	-10.9066
天寳	-10.9066
室老	-10.9066
易祿	-10.9066
父子君臣	-10.9067
於廟始	-10.9067
校定	-10.9067
過差	-10.9067
順於長	-10.9067
者衆也	-10.9068
須去	-10.9068
祈榖	-10.9068
呉澄曰	-10.9068
海外	-10.9068
計反	-10.9069
以天下養	-10.9069
之頃	-10.9069
葢當時	-10.9069
焉一曰	-10.9069
行也宜	-10.9069
輙	-10.907
在阼	-10.907
也民無不為	-10.907
嬰孩	-10.907
鎬	-10.9071
手足	-10.9072
歴世	-10.9072
陳列	-10.9073
蘇	-10.9073
葬也	-10.9074
至隋	-10.9074
演	-10.9074
九室	-10.9074
敎誨	-10.9074
舞大	-10.9074
言滿天下	-10.9075
事親事君	-10.9075
服勤	-10.9075
顯思	-10.9075
不敢忘	-10.9076
戒慎	-10.9077
放此	-10.9077
博學	-10.9077
皆本于	-10.9077
八章	-10.9077
假曾子	-10.9078
開宗	-10.9078
郊禘	-10.9078
聖門	-10.9078
地事天	-10.9078
天子之禮樂	-10.9078
建國	-10.9078
匡正	-10.9079
七月	-10.9079
全體	-10.9079
可否	-10.9079
祖禹	-10.908
分昭穆	-10.908
入室	-10.908
於太廟	-10.908
自反也	-10.908
為下不亂	-10.9081
正直	-10.9082
行此道	-10.9082
祀后稷	-10.9082
讀書	-10.9082
使其臣	-10.9082
守業	-10.9082
慎慮	-10.9082
數十	-10.9082
有君可	-10.9082
而天下自	-10.9082
第六	-10.9083
忠愛之心	-10.9083
順長幼	-10.9083
知禁	-10.9083
六年	-10.9083
顯父母	-10.9083
變色	-10.9084
忠而能	-10.9084
答曾子	-10.9084
貌若	-10.9084
周公其人	-10.9084
昭著	-10.9085
揚名之義	-10.9085
取於事父之	-10.9087
百體	-10.9087
君臣之誼	-10.9087
任賢	-10.9088
素服	-10.9088
其功徳	-10.9088
先王有至徳要	-10.9088
土宜	-10.9089
是其義也	-10.9089
制度	-10.9089
安置	-10.909
善事父母	-10.9091
思慮	-10.9091
教誨	-10.9091
也雖然	-10.9091
底於	-10.9091
知幾	-10.9091
不敢忘其親也	-10.9092
居坐	-10.9092
祖載	-10.9092
五味	-10.9093
小功	-10.9093
引詩書	-10.9094
皆敬也	-10.9094
食饗	-10.9095
感化	-10.9095
衣食	-10.9096
禁令	-10.9096
事君之禮	-10.9096
相接	-10.9096
而行其政令	-10.9096
遂廢	-10.9097
為賢人	-10.9097
王朝侯國之	-10.9098
天地之間	-10.9098
也何為	-10.9099
兩字	-10.9099
四卷	-10.9099
聲音	-10.91
追孝	-10.9101
出之故	-10.9101
之象也	-10.9101
名山	-10.9101
唐書	-10.9101
私家	-10.9102
每事	-10.9102
感通	-10.9102
端緒	-10.9103
總要	-10.9103
者是天子	-10.9104
設位	-10.9105
修徳	-10.9105
宗廟社稷	-10.9105
宋均	-10.9105
為天子服	-10.9105
西方	-10.9106
乎其間	-10.9106
人餕	-10.9107
刑法	-10.9108
是孝行之	-10.9108
朱氏所	-10.9108
前賢	-10.9109
為人子弟者無不敬其父兄也	-10.911
康成	-10.911
近儒	-10.9111
誤然	-10.9111
至於四方	-10.9111
色養	-10.9112
章後古	-10.9112
孝經之傳	-10.9113
非仁人	-10.9113
劉炫本	-10.9113
失其本	-10.9113
而皆在於凶德	-10.9113
以使下	-10.9114
哀以送之	-10.9114
無疑也	-10.9116
可久	-10.9116
先世	-10.9116
無優劣	-10.9117
葬地	-10.9118
亦無所	-10.912
親疎	-10.912
有不通	-10.9121
有其字	-10.9121
自然之道	-10.9121
愛敬哀	-10.9122
祭義曰	-10.9122
齊哀	-10.9122
則民從	-10.9122
云子夏	-10.9122
未達	-10.9122
養志	-10.9123
最貴	-10.9123
所未	-10.9124
章末	-10.9124
十一字	-10.9125
王有聲	-10.9125
多寡	-10.9126
十飬於	-10.9126
可不敬	-10.9127
原本	-10.9127
從容	-10.9127
北宫文子曰	-10.9128
侍立	-10.913
舉賢	-10.913
律反	-10.9131
生財	-10.9132
孰大	-10.9132
無非	-10.9132
相對	-10.9133
父以配天	-10.9133
則天因地	-10.9134
異哉	-10.9135
三卷	-10.9136
五室	-10.9136
見於外	-10.9136
無迹	-10.9137
正義曰案	-10.9137
君好	-10.9137
因依	-10.9138
近於文	-10.914
今人	-10.9141
數處	-10.9143
也父母既	-10.9143
意思	-10.9144
平日	-10.9146
所敬者寡而悦者衆此之謂要道也	-10.9146
爲之注	-10.9146
曽子聞	-10.9149
二月	-10.9149
意方	-10.9152
之行也夫	-10.9153
各異	-10.9153
君子之事上也	-10.9153
五聲	-10.9154
母之心	-10.9155
而致之	-10.9155
所獻	-10.9155
亂者則	-10.9156
徳禮也	-10.9156
土地	-10.9156
要君非聖	-10.9157
爲第	-10.9159
忝祖	-10.916
曲禮曰	-10.916
恐辱先也	-10.916
孰能	-10.916
後代	-10.916
當如是也	-10.916
爲孝乎	-10.916
所以終始	-10.916
已具	-10.9161
入告	-10.9161
獻王	-10.9163
相怨	-10.9165
立身之道	-10.9165
及扵	-10.9165
本紀	-10.9167
謂孝者	-10.9167
神明之道	-10.9168
所以敬天下之為人君者	-10.9168
甫刑曰	-10.9171
初學	-10.9173
卜牲	-10.9173
守位	-10.9174
則近於	-10.9174
孝作忠	-10.9176
倡之	-10.9176
值其	-10.9179
和也言	-10.9179
下無也字	-10.9181
漸長	-10.9183
其大者	-10.9183
北反	-10.9184
無隠	-10.9184
其身而不	-10.9186
哀嚴	-10.9186
前世	-10.9186
子思曰	-10.9186
養志亦	-10.9187
在口	-10.9187
不敢忽	-10.9188
過制	-10.9192
解釋	-10.9193
子孔子也	-10.9193
順民心	-10.9194
順於天下	-10.9196
也不然則	-10.9197
繇已	-10.9198
若指	-10.9198
五帝時	-10.9199
稱周公	-10.92
此五者	-10.9202
百王	-10.9203
傳疑	-10.9204
外朝	-10.9205
殆於	-10.9205
漢文	-10.9206
九十者	-10.9206
盛德	-10.9207
百順	-10.9209
榮親	-10.9209
及於天下	-10.9211
四賢	-10.9212
立功	-10.9213
臣庶	-10.9213
父母存	-10.9213
䘮祭	-10.9214
天之經地之義	-10.9215
絀於	-10.9215
非經文	-10.9215
親之志	-10.9216
先帝	-10.9217
遺之	-10.9217
所以示	-10.9217
常思	-10.9218
之難也	-10.9218
可謂大	-10.9218
盛服	-10.9218
不祥	-10.9219
身致	-10.9219
和睦矣	-10.9219
民法之	-10.9221
先務	-10.9224
殺身	-10.9226
特廟	-10.9226
必本於	-10.9226
其所不能	-10.9227
孝子之事	-10.9227
無識	-10.9229
常道也	-10.923
猶且	-10.923
為身也	-10.923
王制	-10.9231
資愛	-10.9233
事君章	-10.9233
先聖先	-10.9233
同類	-10.9235
大禹	-10.9236
以来	-10.9237
及其親	-10.924
云蓋者	-10.9241
樂記曰	-10.9245
弗見	-10.9246
顯明	-10.9246
非徒	-10.9247
為繼髙祖	-10.9247
居位	-10.9249
家人之	-10.9252
㫖不甘此哀戚之情也	-10.9253
爲溢	-10.9254
誠心	-10.9256
並同	-10.9256
人之為	-10.9256
孝子之志也	-10.9257
人之情	-10.9262
仲尼曰	-10.9262
之治也	-10.9262
所求	-10.9264
六字	-10.9265
以天下為	-10.9266
施於人	-10.9267
者而後	-10.9267
父道也	-10.9268
不踰	-10.9268
之所知	-10.9269
孝經唯	-10.9269
兼愛	-10.927
能盡忠順以事君長則	-10.927
者古人	-10.9271
守法	-10.9273
雖賤	-10.9273
之有然則	-10.9284
子之事親也	-10.9285
古字	-10.9285
簡明	-10.9286
設教	-10.9286
於禮	-10.9288
懽心而	-10.9288
孝之終	-10.9289
非獨	-10.9289
豉反	-10.9291
父有過	-10.9297
孝以事親	-10.9297
祀先	-10.9298
鄉人	-10.9298
𤼵明	-10.9298
靡有	-10.9299
逺也	-10.9301
思成	-10.9302
道誼	-10.9304
不貳	-10.9304
長守	-10.9304
自周公	-10.9307
天之所生	-10.9308
刑法也	-10.9309
自舜	-10.931
立其身	-10.9313
天地日	-10.9314
器用	-10.9316
禮誼	-10.9317
致親之	-10.9318
死亡	-10.9319
禮乎曰	-10.9324
禮與其	-10.9324
而急	-10.9328
有誅	-10.9331
孝為大	-10.9334
所受於天	-10.9335
臣之事君	-10.9337
蓋天子之孝也	-10.9337
不舉	-10.9338
也援神契云	-10.9339
尊卑之分	-10.934
周官	-10.9341
所以表	-10.9344
義當	-10.9345
殺一	-10.9345
先師	-10.9349
三日則	-10.9349
之心者也	-10.9349
莫能	-10.9349
以自	-10.9349
第六章	-10.9351
必果	-10.9353
不盡其	-10.9353
耳夫	-10.9354
可畏	-10.9354
忠者孝	-10.9355
無闕	-10.9356
二廟	-10.9356
即位而	-10.936
書皆	-10.9361
信矣	-10.9362
明王能	-10.9365
下不亂	-10.9366
危君	-10.9366
此章云	-10.9368
人宋	-10.9372
孔傳曰	-10.9372
大臣不	-10.9373
而無禮	-10.9374
者矣見若	-10.9375
先王之道	-10.9375
資敬	-10.9378
則不正	-10.9379
論語曰	-10.9382
思報	-10.9383
不畏	-10.9383
也而謂之	-10.9383
皆孝也	-10.9385
守身	-10.9386
浪反	-10.9392
一氣	-10.9392
同歸	-10.9393
三復	-10.9393
以孝事君則忠	-10.9396
爵賞之	-10.9397
劉炫曰	-10.9398
皆生於	-10.9402
離其身	-10.9409
全無	-10.9409
之為言	-10.9413
然後乃能	-10.9413
名章	-10.9414
何謂也	-10.9415
尚書云	-10.9418
昏禮	-10.942
二者皆	-10.9421
古書之	-10.9422
婦順	-10.9423
守正	-10.9425
之禮廢則	-10.9426
生死	-10.9428
人親之	-10.943
亦不敢	-10.943
弔於	-10.943
敬慎	-10.9434
貧而	-10.9438
也以謂	-10.944
致治	-10.944
適子	-10.944
五祀	-10.944
無不足	-10.9441
故曰要道	-10.9447
於民也	-10.9448
為下而	-10.945
而有禮	-10.9451
則否	-10.9453
敬敬者	-10.9454
以復	-10.9456
以盡其	-10.9458
卿士大夫	-10.946
愛君也	-10.9461
十九字	-10.9463
苟無	-10.9463
子姓	-10.9463
徳化	-10.9464
理一	-10.9465
君執	-10.9467
則免	-10.9468
者性之	-10.9469
之不以為	-10.9471
必哀	-10.9475
豈能	-10.9475
九月以	-10.9476
與前	-10.9477
臣之節	-10.9479
則有功	-10.9482
由此	-10.9482
於春秋	-10.9485
性然	-10.9486
大節	-10.9489
加于	-10.9491
無事則	-10.9491
義通	-10.9493
為孝乎	-10.9493
淑善也忒差也	-10.9494
名有五	-10.9495
何日	-10.9496
諸侯能行孝理得所統之懽	-10.9496
答曰	-10.9496
忠心	-10.9497
而安之	-10.9499
必當	-10.95
大夫士有	-10.9502
逺乎	-10.9503
成教	-10.9504
乃説	-10.9507
古之人	-10.9509
非唯	-10.9509
章名	-10.9511
在家	-10.9511
夫音	-10.9512
小大	-10.9517
氏曰	-10.9517
反質	-10.9518
對曰	-10.952
先能	-10.9524
養民	-10.9528
耳目之	-10.953
損之	-10.9531
小國之	-10.9532
祭日	-10.9533
常安	-10.9536
者聖人所	-10.9537
盛徳	-10.954
鄭志	-10.9541
至順而	-10.9541
人之所行	-10.9542
以事長也	-10.9543
能固	-10.9544
莫大於不孝	-10.9544
孝子之行也	-10.9548
中書	-10.9549
錯經	-10.9551
言似	-10.9552
章第二十	-10.9553
之子也	-10.9556
非直	-10.9557
則觀其	-10.9558
乃心	-10.9564
情理	-10.9564
經字	-10.9566
禮運	-10.9569
而後正	-10.957
則兆民	-10.957
敬哀	-10.9571
親之道	-10.9577
小臣	-10.9577
易知	-10.9582
嚴父之義	-10.9583
其隂陽	-10.9584
居身	-10.9584
有事則	-10.9585
易從	-10.9585
則無怨	-10.9591
以迎	-10.9593
於室	-10.9594
天時	-10.9595
之㫖者	-10.9595
説文所引	-10.9596
者論語	-10.9597
得萬國	-10.9601
七十者	-10.9603
凡祭	-10.9603
之示之	-10.9606
先見	-10.9606
説經	-10.9608
其經文	-10.9609
不務	-10.9611
大體	-10.9612
篇云	-10.9613
餘年	-10.9616
言不善	-10.9618
有従	-10.9622
言之非	-10.9622
也或曰	-10.9623
愛君之	-10.9624
日中	-10.9624
喪禮	-10.9627
而誤	-10.9629
豈非	-10.9632
一通	-10.9633
不弔	-10.9634
其人則	-10.9637
化也	-10.9637
在郊	-10.9637
樂繇	-10.964
言孝行	-10.9641
各自	-10.9644
禮制	-10.9646
微言	-10.9647
言不及	-10.9648
而不用	-10.965
五經	-10.965
于外	-10.9654
嚴肅之	-10.9655
祭服	-10.9656
文理	-10.9656
别子	-10.9657
易稱	-10.9657
雖有其	-10.9659
苟非	-10.9661
子㳺	-10.9661
乎盖	-10.9661
章第十八	-10.9666
是先王之	-10.9668
於未然	-10.9668
聴者	-10.9669
失所	-10.967
天降	-10.9671
相應	-10.9675
化而行之故致如此福應	-10.9676
而取之	-10.9677
中制	-10.9678
自内	-10.9681
解其	-10.9684
相親也	-10.9685
理國謂諸侯也鰥寡國之	-10.9685
中和之	-10.9687
五服	-10.9687
無患	-10.9691
無上也	-10.9693
復禮	-10.9694
與著	-10.9694
六反	-10.97
為人臣者	-10.9705
正月	-10.9705
敢有	-10.9706
將順其美匡救其惡故上下能相親詩	-10.9707
有條	-10.9708
孝思	-10.9708
不越	-10.9714
立而不	-10.9716
三費	-10.9719
九曰	-10.972
于天下	-10.9725
皆由	-10.9729
一舉	-10.9729
其大也	-10.973
日出	-10.9734
諸生	-10.9735
好惡者	-10.9737
為君而	-10.9741
也皇侃云	-10.9742
人之生	-10.9743
也人主	-10.9747
萬世而	-10.9748
身治	-10.9749
所固有	-10.975
皇帝	-10.9752
也教者	-10.9753
資生	-10.9756
者無不	-10.9757
十五年	-10.976
言宗廟致敬	-10.9768
則可謂孝矣	-10.9772
雖貴	-10.9773
也王肅	-10.9776
曰考廟曰王考廟曰	-10.9777
乃立	-10.9778
皇考廟	-10.9779
以禮樂而民和睦示之以好惡而民知禁	-10.978
取焉	-10.9781
物者	-10.9784
以彰	-10.9787
必不可	-10.9788
其始於	-10.9789
夫使	-10.9789
盡敬	-10.9789
也論語云	-10.9794
等事	-10.9794
孝治天下	-10.9804
之志而	-10.9806
乃得	-10.9807
惡在	-10.9808
道不得	-10.9809
必致	-10.981
功成	-10.9812
是天之	-10.9818
國者不	-10.9823
孔子云	-10.9831
殷周之	-10.9831
必敬	-10.9835
因之以	-10.9836
至情	-10.9838
在地	-10.984
以充	-10.9843
有特	-10.9845
所撰	-10.9847
君子之言	-10.9849
亦多	-10.9851
二百	-10.9853
諸臣	-10.9858
以身之	-10.9859
為百姓	-10.9876
天理	-10.9876
不足則	-10.9884
以助	-10.9885
事君之道	-10.9885
上自敬	-10.9889
應言	-10.989
之義皆	-10.9892
謂之郊	-10.9893
與曰是	-10.9893
以是為	-10.9895
可得	-10.9901
賞而	-10.9903
不吉	-10.9905
陸費墀欽定四庫全書孝經	-10.9915
未爲	-10.9918
命爲	-10.9919
美善	-10.992
也皇侃	-10.9923
人子愛	-10.9924
言弗	-10.9929
敬養	-10.9932
不更	-10.9936
世無	-10.9937
不聞於	-10.9937
禮之所	-10.9943
有自然	-10.9947
民治	-10.9948
慮其	-10.995
得失	-10.995
曰朱氏	-10.9957
聞夫子之	-10.9958
故必有	-10.9961
同惡烏路反	-10.9962
之所為也	-10.9975
訓之	-10.9976
樂正	-10.9986
無犯	-10.999
問之	-10.9991
婦以	-10.9991
得民	-10.9996
聖人順	-11.0007
同於父	-11.001
禮之貴	-11.0019
案左傳	-11.0025
四坎壇	-11.003
無節	-11.0037
自己	-11.0043
致敬而	-11.0043
墨者	-11.0046
當戒	-11.0048
三教	-11.005
曾子言	-11.0057
天地父母	-11.0069
章第十五	-11.0069
其誼	-11.0069
君子進則	-11.0073
子字	-11.0075
不敢毀傷	-11.0076
明日	-11.0081
以匡	-11.0085
治亂之	-11.0085
使父	-11.0089
望而	-11.0089
安君	-11.0093
播於	-11.0101
總結之	-11.0105
不封	-11.0107
非學	-11.0107
始于家	-11.0109
反傳	-11.0111
從父	-11.0123
不指	-11.0123
久矣	-11.0125
過時	-11.0131
其宫	-11.0133
容以	-11.0137
者卽	-11.0138
必求	-11.0144
曰祀	-11.0154
籍之	-11.0155
不任	-11.0158
託於	-11.0159
敬父母	-11.0163
其勢	-11.0166
與古文	-11.0169
不作	-11.0171
畏天	-11.0173
前有	-11.018
親之情	-11.0183
聖人之所	-11.0184
百姓不	-11.0184
無宜	-11.0185
教成	-11.0187
兼言	-11.0187
衣不	-11.0193
而勿	-11.0198
也孟子曰人	-11.0207
海内	-11.0208
增多	-11.0216
過矣	-11.0239
内朝	-11.024
爲魯	-11.0242
謂常	-11.0249
者欲	-11.0256
非其人	-11.0264
父母至	-11.0271
君子能	-11.0273
未足以	-11.0282
所加	-11.0286
日長	-11.0295
異義	-11.0298
謂之質	-11.0299
得其本	-11.0308
一人而已	-11.0316
而不為	-11.0322
擗踊哭泣哀以送之卜其宅兆而安厝之	-11.0323
無不同	-11.0325
二子	-11.033
以為非	-11.0354
可大	-11.0354
諸侯五廟	-11.0361
以飾	-11.0363
至今	-11.0368
弗敢	-11.0377
成信	-11.0384
五日	-11.0399
以化民而	-11.0401
刑曰	-11.0402
等謹按孝經	-11.0405
未免	-11.0412
百姓之	-11.0413
天地猶	-11.0425
事不言	-11.0425
猶可	-11.0429
其驗十	-11.0437
本敬	-11.0446
於太學	-11.0447
之類也	-11.0456
清則	-11.0461
推廣	-11.0465
言從	-11.0469
於南郊	-11.0472
性本	-11.0476
子曰孝子之喪親也	-11.0479
者也故云	-11.048
攻古文	-11.0487
所習	-11.0488
祀其先	-11.0496
之所著	-11.0511
而篤	-11.0515
其徳而	-11.0521
謂此也	-11.0523
孝經亦	-11.0528
不離於	-11.0536
以親之	-11.0536
動之	-11.0538
有以異	-11.0545
以言行	-11.0554
也右第	-11.0562
孝經之行	-11.0565
尊君親	-11.0567
闕文	-11.0569
五教	-11.0575
先祖也	-11.0575
然則魯	-11.0578
大雅文王	-11.0578
矣書曰	-11.0603
循其	-11.0609
有疾	-11.0613
不易之	-11.0618
以孝為本	-11.0625
者言其	-11.0631
攝政因行郊天之祭乃尊始祖以配之也	-11.0641
等謹案孝經	-11.0647
能行孝	-11.0652
小人之	-11.0669
宗廟致敬不忘親也修身慎行恐辱先也	-11.0669
為患	-11.0681
古今之	-11.0684
亡失	-11.0691
詩大雅	-11.0703
謂己	-11.0709
五孝之	-11.071
異耳	-11.0725
君喪	-11.074
物皆	-11.0745
於神	-11.0748
事其親也	-11.0755
夫以孝	-11.0756
君之於	-11.0765
而用之	-11.0783
也朕	-11.0801
不徒	-11.0816
為尸	-11.082
王之治	-11.0844
為逆	-11.0863
取法也	-11.087
孝子事親之	-11.0875
君子務	-11.0886
其罪	-11.0888
與我	-11.0897
於人非	-11.0912
梁武帝	-11.092
五帝則	-11.0933
傳授	-11.0942
推一	-11.0945
致命	-11.0948
各盡其	-11.0948
之説也	-11.0957
君之敬	-11.0961
劉向以	-11.1007
根於	-11.1009
成化	-11.1019
今文唐	-11.102
親以及	-11.103
帝也	-11.1048
奪於	-11.1053
之而無	-11.1054
之至而	-11.1061
而不至於	-11.1064
正義曰此夫子	-11.1082
國語	-11.1083
本也故	-11.1101
為國者	-11.1104
戰兢	-11.1124
忠臣以	-11.1147
行禮也	-11.1156
丈夫	-11.1157
焉盡其	-11.1178
顯親之	-11.1186
下之人	-11.1188
堂下	-11.123
制也故	-11.126
於東方	-11.1271
能勝	-11.128
治外	-11.1311
至性	-11.1346
孝經一書	-11.1387
貎也	-11.1389
歸故	-11.1391
復生	-11.1452
為天子者	-11.1461
唐宗	-11.1529
而立教	-11.1539
人之懽心	-11.1577
皆善	-11.1587
性教	-11.1597
所告	-11.1612
欽定四庫全書經部六孝經	-11.1618
勉而	-11.1632
謂有	-11.1635
其教之	-11.1675
等謹案	-11.1682
孝子之道	-11.169
而下無	-11.1714
愛物	-11.1734
禮義以	-11.1751
殷周	-11.1786
舊説	-11.1788
東漢	-11.1792
修身慎行恐辱先也宗廟致敬鬼神著矣	-11.1793
思其憂	-11.1801
聖人之政	-11.1818
其卿大夫士	-11.1819
爲不孝	-11.1824
而亦有	-11.1837
不寧	-11.1849
吏部	-11.1851
者民之	-11.1871
每章	-11.1882
如是乎	-11.194
禮而	-11.1957
之非也	-11.1968
感應	-11.1976
第二	-11.1987
自成	-11.1999
祖后稷	-11.2011
愛親敬	-11.2012
敎世子	-11.2013
行之本	-11.202
過於此	-11.206
别矣	-11.2087
成理	-11.2093
同治直吏反	-11.2096
五等皆	-11.2113
弗及也	-11.2132
以化民	-11.2162
公族之	-11.2163
於膝下	-11.2195
荆	-11.2224
智者	-11.2265
使人知	-11.2274
舉此	-11.2292
田不	-11.2316
郎反	-11.2337
發言	-11.2344
無常	-11.2349
無所取	-11.2357
下化之	-11.2363
可以化民	-11.2386
此總結	-11.2432
誼備	-11.2452
廣要道章	-11.2479
行而後	-11.248
有事於	-11.2507
於理又已悖矣况先之以	-11.2632
博愛亦非立愛惟親之	-11.2634
正義曰此依魏注	-11.2707
家庭	-11.2722
曾子避席曰參不敏何足以知之	-11.2728
焉耳然則	-11.2758
依孔傳	-11.2838
之殺也	-11.2866
曰考廟	-11.2932
其近於親	-11.296
將順其美匡救其惡故上下能相親	-11.2974
猶之一	-11.3036
遠不	-11.3079
要脅	-11.3102
始皇	-11.3121
蓋卿大夫之孝也	-11.3139
釋中於事君	-11.3172
舍愛敬	-11.3174
孔壁	-11.3193
詩書之	-11.3194
記内則	-11.3204
人倫資父為天	-11.3255
君子之事君	-11.3286
今不取	-11.3308
二十	-11.331
事兄悌故順可移於長	-11.3341
黎民	-11.3343
於西南	-11.3344
孔惠	-11.3351
語魚據反	-11.336
養羊尚	-11.3369
右手	-11.3373
所以為治	-11.3386
相濟	-11.3386
參先王有至德要道	-11.3401
凡九十	-11.3405
釋教之所由生	-11.3407
九月	-11.3409
事兄悌	-11.3423
慢於人	-11.3425
耤田	-11.3437
皷	-11.3442
爵賞	-11.3453
揚名於後世	-11.3474
能敬宗廟	-11.3497
孝德之本	-11.3504
文王配	-11.353
此哀戚之情	-11.3532
者此依王注	-11.3551
加於孝乎	-11.3555
故上下能相親	-11.3556
之所繇生	-11.3559
以事其先王	-11.3579
故注以	-11.3583
慢易	-11.3593
世之所	-11.3598
左氏傳曰	-11.3601
表記	-11.3602
九州	-11.3607
三者不除雖日用三牲之養猶為不孝	-11.3633
八年	-11.3646
所行非	-11.3664
曰夫孝天之經	-11.3672
諌	-11.3687
養國老於	-11.37
之所生也	-11.37
缺	-11.3712
義從化也	-11.3719
欽定四庫全書	-11.372
有過則諫	-11.3722
鰥	-11.3728
之時當	-11.3736
倡	-11.3749
法於天下可傳於後	-11.3757
寫	-11.3765
得罪於	-11.3766
以及人之	-11.3774
揖讓而	-11.3777
居上不驕	-11.3778
則思補益	-11.3787
母同敬父與君同	-11.3789
恐辱先	-11.379
盖卿大夫之孝也	-11.379
所敬者寡而悦者衆此之謂要道	-11.3793
子生三年然後免於父母	-11.3801
君有過失	-11.3805
孝於父	-11.3808
懐	-11.3816
禄位而守其祭祀	-11.3818
君子之事上	-11.382
丈反	-11.3826
諸侯之卿	-11.3847
北宫文子	-11.3854
懈惰也	-11.3874
之是無親也	-11.388
行其政令	-11.3881
應感之	-11.3886
百年	-11.3894
在上不驕	-11.3895
可謂知	-11.3901
言郊祀者	-11.3903
無損	-11.3908
聞命矣	-11.3912
象日月	-11.3914
天之明因地之義	-11.3921
百姓之病	-11.3924
莫之敢	-11.3924
序末	-11.3925
逵	-11.3927
以加于孝乎	-11.393
賜姓	-11.393
正考父	-11.393
愾	-11.393
不可奪也	-11.3936
木金父	-11.3936
畀	-11.3938
以臨其民	-11.3939
比黨	-11.3939
孔父嘉	-11.394
也故以名章	-11.3942
道死則	-11.3943
者天地所	-11.3944
遯	-11.3944
謂之悖徳	-11.3945
臯夷	-11.3946
百畝	-11.3949
杜林	-11.3949
故可以安上化下	-11.3949
所因者本也	-11.3951
若此則可謂	-11.3952
君子有三	-11.3953
慨	-11.3954
雍州	-11.3955
不敢以煩長者	-11.3955
所授賢人	-11.3955
竭其忠	-11.3955
得人之懽心以事其親	-11.3956
亦無所不通矣	-11.3957
此愛親之心	-11.3958
也其衣三章裳	-11.3958
惇史	-11.3958
防叔	-11.3958
候	-11.3959
康王	-11.396
毳	-11.3961
一人之書一時之言	-11.3962
争臣七人雖無道不失其天下諸侯有	-11.3962
刪之改之移易之	-11.3962
繋	-11.3962
忘其親	-11.3964
奔	-11.3964
得萬國之懽心	-11.3965
孝無終始	-11.3965
伏靜	-11.3965
毛詩韓詩	-11.3965
天因地	-11.3966
鬭	-11.3966
吾語汝	-11.3967
蒞	-11.3968
諧	-11.3968
豈為之乎	-11.3968
乞言合語	-11.3968
刪存一千五百	-11.3968
學舞干戚	-11.3968
張弛	-11.3968
有不死	-11.3968
萇	-11.3968
蹌	-11.3968
民生于	-11.3969
斁	-11.397
因地故	-11.397
裔	-11.3971
故名丘字仲尼	-11.3971
天地之間禀天地之	-11.3971
又期而大祥	-11.3971
之類是也	-11.3971
胄	-11.3973
義曰此依王注也	-11.3973
堅	-11.3974
不可而况乎	-11.3974
沮	-11.3974
一國之長也子者字	-11.3974
伯者長也	-11.3974
侯者候也	-11.3974
凡此者皆	-11.3974
月而禫禫	-11.3974
而小祥	-11.3974
能也天地鬼神	-11.3974
艱	-11.3974
也王云孝爲	-11.3974
事交乎	-11.3974
仲尼弟子	-11.3974
君執干戚就舞位	-11.3974
在文武	-11.3974
外又有梓棺厚	-11.3974
禘有樂而嘗無樂	-11.3974
總干率其羣臣以樂皇尸	-11.3974
重合厚二尺	-11.3974
彜	-11.3974
亦格言也	-11.3974
熹	-11.3974
則可與	-11.3976
靖共爾位	-11.3977
無方之養	-11.3977
不臣不仕	-11.3977
可人也吾	-11.3977
外就前	-11.3977
芐翦不納	-11.3977
誚	-11.3977
昕	-11.3977
姦	-11.3978
三者服言行也	-11.3979
項	-11.3979
爭謂諫也言雖無道為有	-11.3979
降殺以兩尊卑之差	-11.3979
導民以	-11.3979
教不肅	-11.398
楷	-11.398
任不亦重乎	-11.398
先觀容	-11.398
晨羞夕膳	-11.398
人也男者任也	-11.398
賁	-11.398
𤣥衣纁裳	-11.398
不亦難	-11.398
人雖無道亦不失	-11.398
使民不以時失國	-11.398
字愛於	-11.398
是世無可	-11.398
水牛皮	-11.398
父失則諫故免陷於不	-11.398
甫刑卽尚書	-11.398
膋	-11.398
袒割	-11.398
銅	-11.398
鐘送尸	-11.398
顛倒	-11.398
齊詩魯詩	-11.398
《	-11.398
馬融亦	-11.3981
夫是則	-11.3981
居謂閒居	-11.3982
則口無	-11.3982
掦名顯	-11.3982
祁奚	-11.3982
䰟	-11.3982
修其徳則	-11.3982
有非而從成父不	-11.3982
義理所不可故再言之	-11.3982
税	-11.3982
居不主奥坐不中席	-11.3983
自毳冕	-11.3984
言行無可擇	-11.3984
二百里男	-11.3984
効	-11.3984
百里侯四百里伯三百里子	-11.3984
飾次交言辭後	-11.3984
不以道則耻之	-11.3984
不足而禮有餘也不若禮不足而	-11.3984
之親薦	-11.3984
事死如事生事亡如事存孝之至也	-11.3984
兕牛皮	-11.3984
同爵則尚齒	-11.3984
善思貽父母	-11.3984
徂	-11.3984
徽	-11.3984
殺六畜不當及	-11.3984
爲甫侯	-11.3984
牛羊	-11.3984
甓	-11.3984
虞庠	-11.3984
貺	-11.3984
醯醬	-11.3984
飲醴酒始	-11.3984
入廟門	-11.3984
熹舊見衡山胡侍郎論語説	-11.3984
邦族	-11.3984
敏何足以知	-11.3984
孔氏壁中	-11.3984
簠簋祭器	-11.3985
爲德本	-11.3985
魯頌商頌	-11.3985
。」「	-11.3985
之意亦見于言表	-11.3985
我而皆	-11.3985
天地明察神明彰	-11.3986
黼	-11.3986
就養能致其懽	-11.3986
隴	-11.3987
並無一字	-11.3987
上等侯伯	-11.3987
也以天子之尊	-11.3987
曾參起對故使復坐	-11.3987
有功徳於民者	-11.3987
給事中	-11.3987
令善也益者三友言	-11.3987
家者推其愛敬之心	-11.3987
敬吾親矣	-11.3987
敬愛者矣	-11.3987
迸	-11.3987
一溢米	-11.3987
乎獀狩	-11.3987
也注云此	-11.3987
以義起也	-11.3987
可也此哀之發於	-11.3987
可以言孝乎而見夫孝	-11.3987
小樂正	-11.3987
居下位	-11.3987
州巷	-11.3987
廣大此畧言之	-11.3987
憒	-11.3987
或失徳	-11.3987
有耻之士	-11.3987
樂自順此生刑自反此作	-11.3987
此即左傳	-11.3987
注言行至	-11.3987
無有惡慢及	-11.3987
瞽宗	-11.3987
籥師	-11.3987
自分經傳	-11.3987
興道者與	-11.3987
芬	-11.3987
葢自是	-11.3987
蠶桑	-11.3987
親睦九族	-11.3987
齊衰之喪	-11.3987
經常之理	-11.3987
譴	-11.3987
乾隆四十六年十	-11.3987
則沐身	-11.3987
有瘍則浴有疾則飲酒食肉	-11.3987
行滿天下無怨惡	-11.3988
左氏傳	-11.3988
子曰先王有至	-11.3988
侯地方百里伯七十里子男	-11.3988
則上下臣人	-11.3988
不待威嚴而	-11.3988
劍	-11.3988
卿大夫以孝治其	-11.3988
者也禮者體此者也行者行此者也彊者	-11.3988
則世無不親之	-11.3988
臣則終不至失天下亡家國也	-11.3988
音符	-11.3989
躋	-11.3989
言滿天下無口過	-11.399
然而然者	-11.399
繆	-11.399
六尺之	-11.399
宗彜	-11.399
夾氏	-11.399
孝者德之至道之要也言先代聖德	-11.399
敏達也言參不達何足知此	-11.399
羽籥	-11.399
能順天下人心行此至要之化	-11.399
之端惡者愛之反慢者敬之反	-11.399
于文武	-11.399
五土一曰山林二曰川澤三曰	-11.399
四曰墳衍五曰原隰	-11.399
廪	-11.399
毛詩自夫子	-11.399
絺冕	-11.399
者也義者宜此者也忠者中此者也信者	-11.399
䕃	-11.399
不事不仁	-11.399
不可以一日廢也夫	-11.399
不敢加於	-11.399
之治天下也士民	-11.399
也商頌曰	-11.399
千七百七十三	-11.399
吾信之	-11.399
所以明貴賤	-11.399
旅酬下為上所以逮賤也	-11.399
欲勝義	-11.399
竭力盡能以	-11.399
老窮不遺强不犯弱衆不暴寡	-11.399
與於祭而君有	-11.399
興道之士	-11.399
先自天子至庶人	-11.399
梧	-11.399
祭祀蓋士之孝也	-11.399
不致毁六十	-11.3991
理所不可故再言	-11.3991
佳賣反	-11.3991
參曾子名也禮師有問避席起答	-11.3991
又案司服	-11.3991
陷沒	-11.3991
易曰正家而天下定	-11.3991
本然之徳性	-11.3991
横渠	-11.3991
父自古攸然	-11.3991
者也乃敢	-11.3991
聖祖仁皇帝纘	-11.3991
臣之諫君子之	-11.3991
非法不言	-11.3991
鮮	-11.3992
妻子貴而親	-11.3992
身體髪膚受之父母不敢毁傷孝之始也	-11.3992
敬同於父	-11.3992
諴	-11.3992
幹	-11.3993
各以其職來助祭也	-11.3993
叔梁紇	-11.3993
莫不尊親故曰	-11.3993
言必守法行必遵道	-11.3993
字子輿	-11.3993
居喪之禮	-11.3993
建武時	-11.3993
正則邪	-11.3993
議郎衛宏所	-11.3993
不敢惡于人	-11.3993
仰慕	-11.3993
哭踊	-11.3993
授卜商傳至大毛公名亨	-11.3993
曽子侍	-11.3993
絜	-11.3993
三復白圭	-11.3993
則下傚	-11.3993
我之愛既	-11.3993
用節省則免饑寒	-11.3993
蓍	-11.3993
身恭謹則遠恥辱	-11.3993
三年問云	-11.3993
世宗憲皇帝	-11.3993
世祖章皇帝	-11.3993
之内戰戰惟恐	-11.3993
今陛下	-11.3993
倡㳺	-11.3993
八十者一子不從政九十者其家不從政	-11.3993
八寸	-11.3993
冕而祭	-11.3993
則不臣也	-11.3993
十不俟朝	-11.3993
執爵而酳冕而總干	-11.3993
墟墓之間	-11.3993
大人之事備	-11.3993
大司成	-11.3993
始相見	-11.3993
始自天子終於庶人尊卑雖殊孝道同致	-11.3993
小子識之	-11.3993
托	-11.3993
故曰射者	-11.3993
早已施	-11.3993
曰堯舜禹湯	-11.3993
武王數紂之罪曰	-11.3993
汪應辰	-11.3993
滂	-11.3993
無乖戾之	-11.3993
用左氏	-11.3993
百姓臣妾猶	-11.3993
至矣大昏	-11.3993
舒	-11.3993
衆志平	-11.3993
西京雜記	-11.3993
身俱生故	-11.3993
速反而虞	-11.3993
雖日用三牲之養	-11.3993
􁄕	-11.3993
當念其	-11.3993
葢卿大夫之孝	-11.3994
所以長守貴	-11.3994
陵墳衍	-11.3995
天下之父老	-11.3995
學慮者	-11.3995
是知孝者德之本歟	-11.3995
父母之所敬	-11.3995
事其父母矣	-11.3995
地溥之而	-11.3995
賦税	-11.3995
通患而出危色	-11.3995
人也我亦人也舜	-11.3995
馴	-11.3995
之者謂天子有	-11.3995
姪	-11.3995
立極之統無以常其	-11.3995
道則突若	-11.3995
言盡愛敬之道然	-11.3995
骨	-11.3995
善而皆在于凶徳	-11.3995
相息亮反	-11.3995
愛親必自愛身始	-11.3995
無貴無賤無親無	-11.3995
君子之事親孝故忠可移於君	-11.3996
為人子為人弟為人	-11.3996
無閒坐二字則	-11.3996
璧	-11.3996
舌	-11.3996
鉤命決	-11.3996
於澤宫	-11.3996
朕嘗三復斯言景行先哲	-11.3996
以事親為始	-11.3996
光顯其父母	-11.3996
十億曰兆	-11.3996
卿大夫當早起夜寐以事天子	-11.3996
圭璧	-11.3996
天子受命於天	-11.3996
疾止復	-11.3996
胎教之道	-11.3996
菜	-11.3996
逹於天子一	-11.3996
不答拜	-11.3996
之可以懽樂	-11.3996
之素安所以	-11.3996
之而未暇	-11.3996
乎何其言之	-11.3996
仁與義	-11.3996
兄弟怡怡	-11.3996
公賦旣充則私養不闕	-11.3996
凶謂悖其德禮也	-11.3996
則吾與慮	-11.3996
則變置	-11.3996
喜怒哀	-11.3996
堂矣未入於室	-11.3996
夫三年之喪天下之達	-11.3996
孔佚	-11.3996
孔叢子	-11.3996
孔子乃假立曾子	-11.3996
宫中雍雍外焉肅肅	-11.3996
惟是經國人相傳之久不知	-11.3996
我之敬既盡則人亦興	-11.3996
戰戰兢兢	-11.3996
於此乎天下有道	-11.3996
於民而民	-11.3996
有終身之憂無一朝之患也乃若所憂則	-11.3996
朋友切切	-11.3996
未施敬於民而民敬	-11.3996
未盡底已私所謂賢者之過	-11.3996
此孝道之有	-11.3996
比於樂而中	-11.3996
猶一家也	-11.3996
玉山汪端明亦以為此書多出後	-11.3996
立功於國	-11.3996
經文以便誦習	-11.3996
者天下之表也上行	-11.3996
聚羣嚮	-11.3996
自處太重	-11.3996
請命不	-11.3996
請益問答之	-11.3996
謂民之父母矣	-11.3996
還拜也	-11.3996
阼階之南	-11.3996
須謙	-11.3996
㕘	-11.3996
其道光明	-11.3996
善謂身行愛敬也	-11.3996
年者年之貴乎天下久矣次乎事親者也	-11.3996
曰善哉	-11.3996
曰孝而已孝	-11.3996
狹	-11.3996
立其所能	-11.3996
終日言不在尤之	-11.3996
諌爭之	-11.3996
鰥夫寡婦	-11.3996
「	-11.3997
莫善於禮	-11.3997
遺棄其親者	-11.3997
倦	-11.3997
覲	-11.3998
君子之教以孝也	-11.3998
經曰昔者明王之以孝	-11.3998
從爪	-11.3998
是不虧其體	-11.3998
詩云此大雅蕩	-11.3998
劉炫駮云	-11.3998
孝者天性之自然人心所	-11.3998
也禮所以修外	-11.3998
可肚裏先横却一個	-11.3998
吹	-11.3998
天子身率	-11.3998
宗時為	-11.3998
未安處	-11.3998
行東行者弗敢過欲言政者君就之可也	-11.3998
行者弗敢過	-11.3998
警	-11.3998
不識不知	-11.3998
之君子與則三年	-11.3998
未免為鄉人也是則可憂也憂之如何如	-11.3998
紏	-11.3998
者南方之	-11.3998
違此則於德禮為悖也	-11.3998
再言之者	-11.3998
迥	-11.3998
兆庶皆倚賴之	-11.3998
善則愛敬是	-11.3998
曑	-11.3999
經地義	-11.3999
君子之事親孝	-11.3999
畝	-11.3999
無可擇之行	-11.3999
五十八篇	-11.3999
軸	-11.3999
五土之高	-11.3999
而播種之	-11.3999
芸苗秋	-11.3999
詬朱呉	-11.3999
夫豈其	-11.3999
姬	-11.3999
跛倚	-11.3999
人死曰鬼	-11.3999
則危亡之禍	-11.3999
匪猶不	-11.3999
大饗其王事與	-11.3999
夫人薦豆	-11.3999
完備也	-11.3999
密	-11.3999
從八正	-11.3999
無憂享	-11.3999
父母全而生之子	-11.3999
生謂父母存時祭	-11.3999
謂沒後奉祀安者其心	-11.3999
踐其朝是	-11.3999
驕亂争	-11.3999
上諸侯以下化而行之	-11.3999
于化民	-11.3999
人人盡孝則	-11.3999
億曰兆義取天子行孝兆人皆賴其善	-11.3999
再拜稽首	-11.3999
可以與於祭乎孔子曰	-11.3999
唯而不對	-11.3999
大功以下者	-11.3999
大夫齊哀者	-11.3999
天子設四學當入學而太子齒	-11.3999
夫是則庶乎	-11.3999
尊長養老而後	-11.3999
居上敬下	-11.3999
已重乎	-11.3999
後能孝故移孝以事君則為忠	-11.3999
心和氣和而天地之	-11.3999
怵惕	-11.3999
愛與敬父	-11.3999
文武周公	-11.3999
是以文字訛謬魚魯不辨	-11.3999
是孔安國作傳	-11.3999
服堯之服	-11.3999
此數語	-11.3999
玉帛	-11.3999
羽毛	-11.3999
者以貌近者以情	-11.3999
膺	-11.3999
荷	-11.3999
賀	-11.3999
關係于	-11.3999
􁄀	-11.3999
之不可得而	-11.3999
之子不敢自稱曰	-11.3999
以盛德之	-11.3999
仿	-11.3999
傅㑹	-11.3999
出入奏	-11.3999
功車服	-11.3999
厚其生	-11.3999
善降之百	-11.3999
孝經注疏序考證	-11.3999
孝者畜也	-11.3999
弘	-11.3999
復正臣父無復正子	-11.3999
悠	-11.3999
桓公而後	-11.3999
注敬者禮之本也	-11.3999
洙	-11.3999
無體之禮威儀	-11.3999
熊禾序	-11.3999
父異姓天子謂之	-11.3999
獻酬之禮	-11.3999
皓	-11.3999
盡得懽心故曰悦也	-11.3999
者東方之	-11.3999
芟	-11.3999
類得象	-11.3999
騫	-11.3999
曽子曰敢問聖人之	-11.3999
則親安之沒	-11.3999
天子諸侯卿大夫皆以孝治天下國	-11.3999
如此故其生而	-11.3999
氣屈而歸也	-11.3999
侯伯子男	-11.3999
正義曰此依魏	-11.4
長守貴也滿而不溢所以長守富也	-11.4
人人親其親長其長	-11.4
俎豆	-11.4
揆	-11.4
敢不敬與	-11.4
牛羊豕也	-11.4001
服飾言行	-11.4001
終身之憂	-11.4001
主于愛而愛莫切于愛親故	-11.4001
事兄能悌	-11.4001
其民民皆	-11.4001
稱師曰	-11.4001
淳熙	-11.4001
分别五土視其高下各盡所宜此分	-11.4001
則逆民無則焉不在于善而皆在于凶徳	-11.4001
嚴父嚴兄	-11.4001
所必無也	-11.4001
措諸事	-11.4001
是諸侯之國	-11.4001
盖忠臣之事君如孝子	-11.4001
者跂而及之	-11.4001
聖人知孝之可以敎人也	-11.4001
膠	-11.4001
自天子而下	-11.4001
自幸有所因述而	-11.4001
誦堯之言行	-11.4001
隆於父一本故也致一而後能誠知本而	-11.4001
不可以不爭爭	-11.4001
仰頼	-11.4001
壽	-11.4001
守祭祀庶人	-11.4001
所以異於人者以其存心也君子	-11.4001
是以行成於內	-11.4001
有終有始	-11.4001
罪惡之極	-11.4001
而名立於後世矣	-11.4001
教以悌所以敬天下之為人兄者	-11.4001
右傳之四章	-11.4001
同歸于孝	-11.4001
敬天下之為人兄者也	-11.4001
泉	-11.4002
上孝理皆得懽	-11.4002
葢諸侯之孝	-11.4002
闋	-11.4002
其本文止如此其下則或者雜引傳	-11.4002
優優	-11.4002
曽子曰若夫慈愛	-11.4002
柴	-11.4002
人之親則天下之人	-11.4002
凡大合樂必遂養	-11.4002
周宣王	-11.4002
焉於䖍反	-11.4002
事親能孝	-11.4002
以感動	-11.4002
嘆美	-11.4002
庶人無故不食珍	-11.4002
有所取之也	-11.4002
種夏	-11.4002
作古文孝經傳而世不傳	-11.4002
分地謹身節用	-11.4002
又曰父母之喪既	-11.4002
而成之惟恐不及君有	-11.4002
職貢來助	-11.4002
詩小雅節南山之篇	-11.4002
順内和	-11.4002
丑	-11.4002
之也親之也	-11.4002
之志在春秋崇人倫之行在孝經	-11.4002
乎孟子曰諸侯	-11.4002
也盡此三道者	-11.4002
今祖述孝經之人	-11.4002
以養諸侯兵不用而諸侯自為正之具也	-11.4002
使足以成文理則釋之	-11.4002
其漸然也	-11.4002
别本改	-11.4002
力一念之善則助	-11.4002
取他書之言可𤼵此經之㫖者别為外	-11.4002
各敬爾	-11.4002
合二姓之好	-11.4002
君牽牲	-11.4002
君立阼	-11.4002
善則億兆	-11.4002
喪與其易也	-11.4002
國之本在家家之本在身	-11.4002
夙早也	-11.4002
夙早也懈惰也義取爲卿	-11.4002
失且其下文語已更端無所隔礙故今且	-11.4002
子也慶善也十	-11.4002
小聘三年	-11.4002
尸飲五君洗玉爵獻卿	-11.4002
庾	-11.4002
引詩以寓	-11.4002
得仍舊耳	-11.4002
意更定一㸃畫	-11.4002
愾然必有聞乎其歎息之聲	-11.4002
成之無使	-11.4002
成湯之	-11.4002
所以正君臣父子之别明男女長幼之序	-11.4002
於未形	-11.4002
既以數本校讐且旁及他書所引	-11.4002
明僧紹	-11.4002
易曰言行君	-11.4002
春雨既濡	-11.4002
是以普天之下	-11.4002
曰古之為政愛人為大	-11.4002
有虞之不郊	-11.4002
殷人冔而	-11.4002
潁	-11.4002
王𤣥載	-11.4002
甫刑尚書作吕刑	-11.4002
皇侃撰義疏	-11.4002
瞽亦如之	-11.4002
社受其禍	-11.4002
福不善則宗	-11.4002
秉徳之士	-11.4002
終畢乃引	-11.4002
經以孝而和此以和而孝也引詩	-11.4002
經文之正意	-11.4002
而庶人獨	-11.4002
而游夏	-11.4002
肥	-11.4002
胡宏	-11.4002
虞槃佑	-11.4002
親者必能	-11.4002
諸侯待於	-11.4002
身恭謹則逺恥辱用節省	-11.4002
車𦙍	-11.4002
軰	-11.4002
遇臣妾以道	-11.4002
釋慧琳	-11.4002
錢	-11.4002
隠無犯又敬不	-11.4002
雖善而亦非	-11.4002
順而利導之	-11.4002
飲七以瑶爵獻大夫尸飲九以散爵獻士	-11.4002
之無使昏	-11.4002
人不過乎物孝子不過乎物	-11.4002
以寡人為	-11.4002
以成其信	-11.4002
冗	-11.4002
則先拜	-11.4002
務農桑	-11.4002
即上文所謂	-11.4002
叛	-11.4002
君子必自反也曰我必	-11.4002
問焉曰	-11.4002
基命宥宻	-11.4002
大夫相見以	-11.4002
宗廟之禮所以	-11.4002
德敎加被天下當爲四夷	-11.4002
教諸侯之弟也	-11.4002
杜撰	-11.4002
横逆猶是也	-11.4002
殊塗而	-11.4002
毋取扵	-11.4002
比於禮其節	-11.4002
汰	-11.4002
盡忠補過將順匡救	-11.4002
矢懸諸	-11.4002
維其盡之	-11.4002
臣弑其君子弑其父	-11.4002
董鼎撰	-11.4002
行於妻子	-11.4002
言賔南鄉	-11.4002
遭秦焚	-11.4002
銅鞮伯	-11.4002
鑽穴	-11.4002
非毁之者是無	-11.4002
顔囘	-11.4002
和則無乖戾之氣	-11.4003
勅	-11.4003
擅	-11.4003
子曰是何言與是何言與言之不通也	-11.4003
君取其敬	-11.4003
社土神稷榖神	-11.4003
身不能及於孝	-11.4003
第十二章	-11.4004
馮	-11.4004
黨	-11.4004
敎從孝而生	-11.4004
受忠告故不失其善名	-11.4004
以事上而不可悖亂在	-11.4004
未有此理	-11.4004
節財用	-11.4004
丙午八月十二日記	-11.4004
事父孝故事天明	-11.4004
免於鑿空妄言之罪也因欲掇	-11.4004
則私養不闕	-11.4004
劉共父	-11.4004
周旋可則容止可觀作事可法徳行可	-11.4004
大夫以循法	-11.4004
天下之人被服其	-11.4004
天下之本在	-11.4004
徳性之根本	-11.4004
是乃知前輩讀書精審	-11.4004
無閒字	-11.4004
生平則無悖逆之	-11.4004
皆本於孝	-11.4004
自古及今	-11.4004
與彼同唯	-11.4004
裝	-11.4004
違故疑而問之	-11.4004
𤼵明移孝事君之意今並存之	-11.4004
一出言不敢忘父母	-11.4004
事親始終之道	-11.4004
則必有以處此矣然	-11.4004
可揀擇之	-11.4004
如此之君雖	-11.4004
寒暑變移益用增感以	-11.4004
生此王國	-11.4004
知孝之為大也	-11.4004
章言諸侯之孝	-11.4004
蔽不明遂成而莫救也陳善閉邪慮之	-11.4004
遏而中止也一念之惡則諫止	-11.4004
遷就于其	-11.4004
以下别為一章	-11.4004
緯	-11.4004
禍亂如賊君弑父	-11.4004
進思盡忠退思	-11.4005
進退動静也	-11.4005
子語然於文理無害引詩亦足以	-11.4005
補過亦左傳所載士貞	-11.4005
宥	-11.4005
壁	-11.4005
狎侮	-11.4005
隙	-11.4005
天有常明	-11.4005
字或作	-11.4006
織	-11.4006
零七字	-11.4006
而民莫遺其親	-11.4006
正義曰夫子旣述	-11.4006
比於不慈不孝	-11.4006
腥	-11.4006
苽	-11.4006
行仁必自孝始	-11.4006
賄	-11.4006
升歌	-11.4006
王邵所	-11.4006
而危之	-11.4006
之有主也	-11.4006
公事畢	-11.4006
古文稱孔安國	-11.4006
命士以上	-11.4006
始自天子終於	-11.4006
宗無禮無度之禍	-11.4006
明王能以孝道	-11.4006
服其服而	-11.4006
祭之日入室僾然必有	-11.4006
見乎其位周還出	-11.4006
諸侯之於天子也	-11.4006
不容復有毫髪	-11.4006
事之以明子	-11.4006
人心所自有	-11.4006
伊尹	-11.4006
何義也曰	-11.4006
俛	-11.4006
其邪物	-11.4006
則能事神	-11.4006
動尸舉柩哭踊無數	-11.4006
右傳八則	-11.4006
惻怛	-11.4006
所以然者盖	-11.4006
濫觴	-11.4006
甚矣曽子之	-11.4006
粥以飲食之	-11.4006
糜	-11.4006
舉事順時	-11.4006
諸侯受命於天子	-11.4006
轅	-11.4006
一舉足不敢忘父母	-11.4006
上能聽	-11.4006
不爭則䧟	-11.4006
不由其道	-11.4006
之選子	-11.4006
伯舅	-11.4006
使天下之人法行於逆道故人無所	-11.4006
入天子之國曰	-11.4006
其出如	-11.4006
冡土	-11.4006
况於近可不盡忠	-11.4006
制度衣服	-11.4006
則不乏	-11.4006
則斯乃不在於	-11.4006
則直用	-11.4006
卜商	-11.4006
反諸其所	-11.4006
叔舅	-11.4006
古先哲王聖人君子之所	-11.4006
吾恐其	-11.4006
吾黨	-11.4006
喟	-11.4006
土地人民政事	-11.4006
士見於大夫	-11.4006
大樂正	-11.4006
夫孝天之經也地之義也民之行也	-11.4006
宰予之言也	-11.4006
將繇夫	-11.4006
年為制者使人知有終竟之限也	-11.4006
幽厲之	-11.4006
悖其德禮	-11.4006
所以教敬愛	-11.4006
曰君子不奪人之	-11.4006
曰敢問何	-11.4006
有不忍人之心	-11.4006
有加焉	-11.4006
杞	-11.4006
殘缺	-11.4006
為之立中制節	-11.4006
爲稷自	-11.4006
猶不忘也	-11.4006
王言如	-11.4006
生而願為之有	-11.4006
畏其威愛其德皆放象於君也	-11.4006
禮也曽子曰不以	-11.4006
立天之心	-11.4006
者人亦殺其	-11.4006
者人恒愛之敬人者人恒敬之	-11.4006
者鮮不	-11.4006
而不可言孝則	-11.4006
而後和和而後	-11.4006
而罪之大者莫過	-11.4006
聚順以為	-11.4006
著於心則	-11.4006
言能敬事宗廟則	-11.4006
謂心之所在	-11.4006
足與於	-11.4006
轉移	-11.4006
醆	-11.4006
長短大小	-11.4006
閽	-11.4006
降兩故有	-11.4006
順時令	-11.4006
龍柱棄	-11.4006
訢	-11.4006
無以加於孝	-11.4006
以順天下民用和睦上下無怨汝知之乎	-11.4006
敢遺	-11.4006
反塞先	-11.4006
而述脩	-11.4006
常念爾之先祖	-11.4006
工商	-11.4006
罹	-11.4006
旒衣	-11.4006
大於孝故	-11.4007
踳	-11.4007
言斯可道	-11.4007
舉天下之大無一物	-11.4007
貶	-11.4007
如履薄冰	-11.4007
臣民之上	-11.4007
内外交	-11.4007
蔑	-11.4007
冬温夏	-11.4007
句刪其字	-11.4007
妻子臣妾猶百姓徒役	-11.4007
忝厥祖	-11.4007
敬天下之為人父者也	-11.4007
者俯而就之不	-11.4007
自上以下降殺以兩	-11.4007
至於跡相祖述殆且百家	-11.4007
以仁存心以禮存心仁者愛人有禮者敬	-11.4007
以天視	-11.4007
冠者不櫛	-11.4007
參聞行孝無限高卑始	-11.4007
可謂知本	-11.4007
哀毁過情滅性而	-11.4007
喪親章第十八子曰孝子之喪親也	-11.4007
大夫有大夫之	-11.4007
子之所以動天地也	-11.4007
射者各	-11.4007
尸為棺周棺為椁衣謂歛衣衾被也舉謂	-11.4007
己之鵠	-11.4007
己著録	-11.4007
感時之變	-11.4007
戚孝行之始終也	-11.4007
教一人而千萬人	-11.4007
有首尾	-11.4007
未若防㣲杜漸為忠之	-11.4007
死皆虧孝道故聖人制禮施	-11.4007
毎	-11.4007
焉學之為	-11.4007
義母主恩故也	-11.4007
義裁制	-11.4007
而後禮樂興	-11.4007
葬事大故卜之	-11.4007
詩云彼都人士	-11.4007
諸侯章第三在上不驕髙而不危	-11.4007
說文云	-11.4007
塾	-11.4007
春生夏長秋收冬蔵	-11.4008
拊心也踊	-11.4008
躍	-11.4008
當為傳之	-11.4008
備陳死生之義以盡孝子之情	-11.4008
善也言天子一	-11.4008
非不美	-11.4008
不舉火	-11.4008
殊事而合敬	-11.4008
為萬世法	-11.4008
旋	-11.4008
福慶	-11.4008
嶽	-11.4008
黎	-11.4008
孝弟之至通於神明光於四海	-11.4009
不勝喪	-11.4009
西戎	-11.4009
也郊之祭也	-11.4009
博愛廣敬之	-11.4009
如有求而弗得既	-11.4009
度周旋可則容止可觀作	-11.4009
自上世	-11.4009
顔丁	-11.4009
在吾仁之中無一事	-11.4009
三十四年	-11.4009
上行下效使人	-11.4009
嚌	-11.4009
之大經也	-11.4009
先之以敬讓	-11.4009
君夫人皆	-11.4009
斬衰三日不食	-11.4009
羸	-11.4009
以涖之	-11.4009
傳中間有不成語雖疑其有	-11.4009
右經十	-11.4009
告捷	-11.4009
天下至大萬	-11.4009
所謂古文者亦不全同今不敢從彼改此	-11.4009
拜君命	-11.4009
推廣而言	-11.4009
於樂之聲節起自黄帝也	-11.4009
欠	-11.4009
然則君子之於	-11.4009
百姓之衆	-11.4009
胡文定	-11.4009
胡為其	-11.4009
韋昭謝	-11.4009
一家仁一國興仁一家讓一國	-11.4009
七世之廟	-11.4009
不忍人之政	-11.4009
丹書曰	-11.4009
之以敬行之以	-11.4009
仕如此其急	-11.4009
以觀民	-11.4009
其也義取恒念先祖述脩其德	-11.4009
其親而令他人	-11.4009
刑法也君行博愛廣敬之	-11.4009
可乆也措之天	-11.4009
右傳十五則	-11.4009
右傳十四則	-11.4009
君有君之威儀其臣畏	-11.4009
塞乎天地	-11.4009
大樂與天地同和	-11.4009
好惡喜怒	-11.4009
好惡著則賢不肖别矣	-11.4009
孔安國蓋約夏殷章服爲說	-11.4009
孝悌之至通於神明光于四海	-11.4009
孟子曰天下大	-11.4009
富貴之過也	-11.4009
射也必先行	-11.4009
山井鼎等	-11.4009
幸望	-11.4009
情莫不愛其親愛之篤者莫若	-11.4009
愛君雖在	-11.4009
慎行禮法謂之謹	-11.4009
投	-11.4009
故曰行在孝經	-11.4009
曰伯父叔父	-11.4009
書傳通	-11.4009
有不得已也	-11.4009
有君民之大	-11.4009
有恒言	-11.4009
朝覲所以教諸侯之臣也	-11.4009
横乎四海	-11.4009
死者非生則不藏人	-11.4009
氏音例並音經傳庶乎令讀者不誤其音	-11.4009
涵	-11.4009
為之中制中則欲其可繼也繼則欲其	-11.4009
焉博學而	-11.4009
無他亦曰敬而已	-11.4009
父母生育	-11.4009
珠	-11.4009
盡人之性則能盡物之性	-11.4009
盡人之性能	-11.4009
瞍底豫而天下之為父子者定	-11.4009
矣可以言孝乎有	-11.4009
知所繇来者也	-11.4009
祀矣此盖	-11.4009
祝史之事也	-11.4009
神氣之易感也	-11.4009
穆與太祖之廟而	-11.4009
經孔子裁定	-11.4009
義勝恩故也	-11.4009
而歸已猶草芥也惟舜為然	-11.4009
而瞽瞍底豫瞽瞍底豫而天下化瞽	-11.4009
而禍患不及者未之	-11.4009
而致力	-11.4009
耕蠶	-11.4009
自斬衰而下	-11.4009
言不過辭動不過則	-11.4009
言春秋則包四時矣	-11.4009
訪	-11.4009
詩大雅也無念念也聿述也厥	-11.4009
詮解	-11.4009
貿	-11.4009
賜爵皆	-11.4009
辭其贄	-11.4009
逺盖愛君一念	-11.4009
道使人皆不慢惡其親則	-11.4009
遽塗其本編	-11.4009
釋名云	-11.4009
順此以施政敎則不待嚴肅而成理也	-11.4009
食嘗無樂	-11.4009
馘	-11.4009
昔者明王之以孝治天下也	-11.4009
逐	-11.4009
夫然猶	-11.4009
措置也	-11.4009
之喪二十五	-11.4009
於其所尊	-11.401
䘮不過三年示民有終	-11.401
五刑墨劓剕宫大辟	-11.401
前今詳此章	-11.401
右傳之九章	-11.401
應感章第十	-11.401
而無告者	-11.401
歠	-11.401
而財用	-11.401
其教不肅而成其政不嚴而治	-11.401
所以為至徳	-11.401
雖未嘗不愛	-11.401
神明彰	-11.401
當不義則爭之從父之令又焉得	-11.401
矯	-11.401
粉	-11.401
喪親章第十八	-11.401
隨所宜	-11.401
不自吾孝中出故曰教之所由	-11.401
理天下也	-11.401
不亦宜	-11.401
之威有儀而可象	-11.401
五峰語録	-11.401
其君主而祭之	-11.401
其所嗜	-11.401
則長幼有序	-11.401
有威而可畏謂	-11.401
下而人共守	-11.401
不敢少失其心	-11.401
事可法德行可象聲氣可樂	-11.401
于宗公神罔是怨神罔是	-11.401
人道之至大者也	-11.401
匹夫匹婦	-11.401
卿大夫章第四非先王之法服不敢服	-11.401
古者𦵏之中野厚衣之以薪喪期	-11.401
后妃	-11.401
君臣父子長幼之道	-11.401
哲之王以孝道而治理天下也	-11.401
因天之性順人之情而利導之教父以慈	-11.401
在則禮然然而衆	-11.401
天子章第二子曰愛親者不敢惡於人	-11.401
天子袒而割牲執醬而饋	-11.401
孝爲百行之首	-11.401
定例也	-11.401
巾	-11.401
息而莫能傷	-11.401
愛人不親反其仁治人不治反其智	-11.401
敬吾身	-11.401
易而求諸難人人親其親長其長而	-11.401
此法之所以不廢	-11.401
求諸逺事在	-11.401
淺陋	-11.401
焉得為孝乎所以結一章之㫖而終是何	-11.401
無數後世聖人	-11.401
積累之艱	-11.401
穰	-11.401
答反其敬行有不得者皆反求諸己其身	-11.401
節用而愛人	-11.401
者非壯則不長老者非少則不養	-11.401
致敬於宗廟	-11.401
舉其要而言	-11.401
虞夏商周	-11.401
言教人親愛禮順無加於孝	-11.401
黎民於變時	-11.401
與平聲	-11.401
稟	-11.401
向	-11.401
農夫	-11.4011
得百姓之歡心	-11.4011
不得其懽心	-11.4011
天地人謂之三才	-11.4011
森	-11.4011
瞽	-11.4011
柔色以	-11.4011
雖未嘗不敬	-11.4011
所敬者寡而悦者衆	-11.4012
預	-11.4012
養無違	-11.4012
周禮大司徒	-11.4012
攸攝	-11.4012
縟節	-11.4012
以導和	-11.4012
三揖而後至階三	-11.4012
乎道路至乎	-11.4012
乾肝焦肺水漿不	-11.4012
入口三日	-11.4012
山之上深澤之	-11.4012
未為失也	-11.4012
欣欣	-11.4012
而後升所以致尊	-11.4012
衣服飲食	-11.4012
詩曰我孔熯矣	-11.4012
一樹殺一獸不以其時非孝也	-11.4012
三還贄	-11.4012
下君臣同德故能相親	-11.4012
不本諸	-11.4012
之至莫大乎	-11.4012
也記曰君子	-11.4012
事宗廟能盡敬則祖考來	-11.4012
二曾子敢問章分	-11.4012
傳於後代	-11.4012
則非忠孝	-11.4012
喪内恕孔悲	-11.4012
土惟三	-11.4012
堯舜之道孝弟而已矣	-11.4012
士無臣	-11.4012
天以陽生	-11.4012
子男武王	-11.4012
孝經大義序	-11.4012
寧戚	-11.4012
彰亦明道德相成所以互	-11.4012
後世法之	-11.4012
心太剛	-11.4012
感化悅從	-11.4012
戇	-11.4012
摭	-11.4012
曰臣聞	-11.4012
木以時伐焉禽獸以時殺焉	-11.4012
格享於克誠故曰著也	-11.4012
涕	-11.4012
猶未至於行道也	-11.4012
王肅蘇林	-11.4012
眎	-11.4012
石臺孝經	-11.4012
禋	-11.4012
積誠以	-11.4012
者旣不得	-11.4012
而人之行也	-11.4012
而備矣孝子事	-11.4012
萬徐整	-11.4012
見理太明	-11.4012
鄭衆鄭𤣥	-11.4012
七十子之徒	-11.4012
下有凍餒之民	-11.4012
不以死傷生毁不滅性	-11.4012
不失職	-11.4012
不惡慢於人	-11.4012
之常也義者	-11.4012
也親之過	-11.4012
也親則父也尊則君也有父之親有君之	-11.4012
也諸侯相厲以	-11.4012
事之幹也	-11.4012
事者後	-11.4012
亦樂人之	-11.4012
人之大變也	-11.4012
介山之推	-11.4012
以君之喪而除父	-11.4012
以施教于	-11.4012
以求役	-11.4012
以聖人之不	-11.4012
仲山甫衛	-11.4012
使之與成王居欲令成王之知父子君臣	-11.4012
修之以孝養	-11.4012
元宗此註	-11.4012
先資其言	-11.4012
其儀不忒	-11.4012
其君之不若	-11.4012
其將亡	-11.4012
其欲其饗之也	-11.4012
典籍	-11.4012
况知禮義之	-11.4012
凡若是者	-11.4012
則又雜出之以	-11.4012
則德教成政令行	-11.4012
則敬親敬	-11.4012
則文以君子之	-11.4012
則無終始	-11.4012
則虛其	-11.4012
去貪	-11.4012
取而分之	-11.4012
可以觀徳	-11.4012
君之喪服除而	-11.4012
君舉旅	-11.4012
嘉之㑹也利	-11.4012
坐奉席請何鄉	-11.4012
報國之道	-11.4012
太子初生	-11.4012
失其富貴而不能保	-11.4012
如前所云者	-11.4012
子弟及臣	-11.4012
孝而厚於慈	-11.4012
孰有大于	-11.4012
安固也	-11.4012
尊然後兼天下而有之	-11.4012
已下至於庶人	-11.4012
弑其君者必	-11.4012
強之也三日而食三年而除	-11.4012
得其本則曰	-11.4012
恂	-11.4012
恊	-11.4012
情義利患	-11.4012
情而為之節	-11.4012
惴	-11.4012
慥	-11.4012
戚哭泣之哀皆出於人情不	-11.4012
所以明長幼之序也	-11.4012
所奪於臣下	-11.4012
持弓審固	-11.4012
攀引	-11.4012
攜	-11.4012
敬冠事	-11.4012
明以爲常因地利以行義	-11.4012
春生夏長秋斂冬藏舉	-11.4012
暴棄其	-11.4012
有美不能助	-11.4012
本亂而末治者否矣	-11.4012
桃	-11.4012
梅賾	-11.4012
棄捐而咸遂其生日以	-11.4012
樂具入奏	-11.4012
正而天下歸之	-11.4012
此非有物力	-11.4012
氏之子曰	-11.4012
注謂以兵刃相加	-11.4012
混	-11.4012
漫	-11.4012
為無所用而	-11.4012
無㣲過則	-11.4012
無免絰	-11.4012
無夫曰寡	-11.4012
無忘也爾雅云勿念也	-11.4012
煖清寒暑	-11.4012
熹澄	-11.4012
燃泉之	-11.4012
燕射朝聘	-11.4012
燕私之樂	-11.4012
甫反鰥古頑反	-11.4012
當作某	-11.4012
疾甚曰病	-11.4012
疾而國家敗矣	-11.4012
百志成	-11.4012
盡物之性	-11.4012
禮俗刑	-11.4012
稷契之	-11.4012
稻粱器	-11.4012
終于立身	-11.4012
義之和也貞	-11.4012
義講信修睦	-11.4012
老者得養死者得藏是以民不	-11.4012
者又徳教之所自出	-11.4012
者西方之	-11.4012
而成也有惡不能救而止也激君以	-11.4012
耕必有	-11.4012
能盡其性則能	-11.4012
臣預其尊榮	-11.4012
自高謗君以自潔	-11.4012
致飾於	-11.4012
舎奠	-11.4012
色不滿容行不正	-11.4012
若能不以	-11.4012
莫之禁而弗為	-11.4012
華蟲火宗	-11.4012
虗	-11.4012
蠻夷	-11.4012
衹	-11.4012
親者必於人無不	-11.4012
詣	-11.4012
諫以為身而不為君也是以上下相	-11.4012
謂平常	-11.4012
財用足	-11.4012
費用約儉謂之制節	-11.4012
賈之屬皆是也	-11.4012
足衣食	-11.4012
足頓地	-11.4012
身不能居仁	-11.4012
進則面從退有	-11.4012
適饌省醴	-11.4012
邢疏而	-11.4012
鄭𤣥云無念	-11.4012
采采芣苢薄言	-11.4012
量其短長	-11.4012
陳郡人	-11.4012
隧	-11.4012
雲谷山中	-11.4012
非至德其孰能順民如此其大者乎	-11.4012
順徳順道	-11.4012
順逹於	-11.4012
體仁足以長人嘉	-11.4012
鮑	-11.4012
鼓徴	-11.4012
齊其參錯	-11.4012
塋	-11.4012
生事愛敬死事哀戚	-11.4012
事父孝事母孝之義	-11.4012
次諸侯之貴者	-11.4012
敬盡於事親	-11.4012
旒	-11.4012
反號户刀	-11.4012
尊故標居其首	-11.4012
章雖通貴賤	-11.4012
駿奔	-11.4013
不敢不勉	-11.4013
事君所事者惟父母	-11.4013
事天明事地察	-11.4013
傳之十四章	-11.4013
子曰因天之道	-11.4013
而全其生也	-11.4013
之故非法	-11.4013
愷苦亥反悌	-11.4013
旻	-11.4013
苦在反	-11.4013
行孝奉親之事而立教焉	-11.4013
謂之五孝各	-11.4013
斷章取	-11.4013
還坐而	-11.4013
取其敬合愛	-11.4013
手擊胷	-11.4013
無善政	-11.4013
五刑墨劓剕宫	-11.4013
而利導	-11.4013
子曰孝子之事親也居則致其敬	-11.4013
則身不離於令名	-11.4013
徐整	-11.4013
在天為	-11.4013
之以徳義而民興行	-11.4013
也者此依孔傳也劉炫	-11.4013
每讀	-11.4013
一章為鄙俗	-11.4013
也禮樂交	-11.4013
使正直者邇於刑弗違則殆於罪	-11.4013
稼以老十室之邑	-11.4013
骨肉	-11.4013
乎母父有天道	-11.4013
其義為大於此	-11.4013
彝倫	-11.4013
後也敢不敬與	-11.4013
教以順人心今自逆之則下無所法則也	-11.4013
易曰乾天也故稱	-11.4013
父謂諸父兄謂諸兄皆祖考之	-11.4013
眾	-11.4013
竄	-11.4013
者親之主也敢不敬與子	-11.4013
三百餘年	-11.4013
上同然無	-11.4013
不一而莫大於	-11.4013
不入則犯	-11.4013
不敢失其驩心則于	-11.4013
之服饘粥之食顔色之	-11.4013
之生成萬物者雖以隂陽之	-11.4013
之詩以賛美之	-11.4013
五虐之	-11.4013
以養父母為孝	-11.4013
儕	-11.4013
其位高矣高	-11.4013
具爾瞻	-11.4013
則等矣而	-11.4013
原本脫去	-11.4013
君享其安	-11.4013
喧	-11.4013
喪多而服五	-11.4013
士言祭祀	-11.4013
多而刑五	-11.4013
大觿木燧	-11.4013
大雅云無念爾祖聿脩厥德	-11.4013
天子視學世子齒胄	-11.4013
字亦作	-11.4013
孟子曰道在	-11.4013
安於彼而安於此非聖人	-11.4013
官椁音郭	-11.4013
干戈	-11.4013
彘	-11.4013
得兼下下不得	-11.4013
按禮記文王世子稱	-11.4013
敎不令至於殞滅	-11.4013
是知貴不與驕期而驕自	-11.4013
有殺焉以	-11.4013
樂也悌易也義取君以樂易之道化人則	-11.4013
民情多	-11.4013
滿天下亦不必	-11.4013
無諸已而後非諸人所藏乎身不恕而	-11.4013
物地以隂成萬物天地	-11.4013
王則孝道至矣	-11.4013
生則事之以愛敬死則事	-11.4013
盧	-11.4013
知禮義之士乎	-11.4013
穉	-11.4013
綦	-11.4013
者亦言引詩	-11.4013
者比比	-11.4013
而不遺親之	-11.4013
與侈期而侈自	-11.4013
興讓一人貪戾一國作亂	-11.4013
薦而不祭又非士	-11.4013
謂之有威儀也	-11.4013
警戒之	-11.4013
辰運天而有常五土分地而爲義也	-11.4013
長守其宗	-11.4013
陳其簠簋而哀慼之	-11.4013
陵上慢下	-11.4013
顔引義以爭之不	-11.4013
鳥獸魚鼈咸若	-11.4013
齒於學	-11.4013
奢侈	-11.4013
符	-11.4013
復扶又	-11.4014
其祿位永守其祭	-11.4014
簠音甫簋音軌	-11.4014
而況於公侯伯子男乎	-11.4014
吳	-11.4014
孰能順民如此其大者乎	-11.4014
父母之遺體	-11.4014
人謂社稷以此安	-11.4014
仁之𤼵為愛	-11.4014
以天地之理而	-11.4014
出耳然其前段文雖非是而理猶可通存	-11.4014
則不言言則必合	-11.4014
此事奉其先	-11.4014
法非道則不行行則必中	-11.4014
無可擇之言行於身者	-11.4014
爵祿而守其祭祀葢士之孝也	-11.4014
言居髙位而不	-11.4014
謂舉尸	-11.4014
謹守法度則財雖	-11.4014
駿奔走在廟	-11.4014
夙興夜寐無忝爾所生	-11.4014
魯共王	-11.4014
三者不除雖日用三牲之養猶	-11.4014
故得萬國之	-11.4015
争之臣	-11.4015
之教刑儀刑也	-11.4015
惟父然也	-11.4015
擬議	-11.4015
移事父之孝以事君	-11.4015
與敬而兼之	-11.4015
在一國臣民之上	-11.4015
不敢毁傷孝之始也立身	-11.4015
所以敬天下之爲人君者也	-11.4015
如水旱疾疫	-11.4015
孝經注疏卷五	-11.4015
其哀情	-11.4015
卜其宅兆而安厝之	-11.4015
曾子孔子弟子	-11.4015
東海	-11.4015
至於犬馬	-11.4015
不勝喪乃	-11.4015
也爾雅釋	-11.4015
勅議	-11.4015
景帝	-11.4015
父母之喪既殯食	-11.4015
牷	-11.4015
聚橡栗藜藿而食之	-11.4015
聞其聲	-11.4015
舊觧云	-11.4015
虞卒哭疏食水飲不食菜果	-11.4015
何曰敬而已	-11.4015
包攝	-11.4015
君使士	-11.4015
如慕其反也如疑	-11.4015
敬讓禮樂好惡	-11.4015
旬	-11.4015
曰仁者殆恭者不入	-11.4015
有師之嚴	-11.4015
祭之日樂與哀半饗之必樂已至	-11.4015
祭之明日明𤼵不寐饗而致之又	-11.4015
跂	-11.4015
不患寡	-11.4015
不毁傷其身以不毁	-11.4015
之禮廢而	-11.4015
古文此章在	-11.4015
在醜而爭則	-11.4015
天成天	-11.4015
孝經者孔子爲曾參陳孝道	-11.4015
從而後已	-11.4015
理允當	-11.4015
維祺曰	-11.4015
芑	-11.4015
藝文志孝經古孔氏一篇	-11.4015
蠢	-11.4015
三又多	-11.4015
三年之喪天下達禮使不肖企及賢者	-11.4015
三日而食敎民無以死傷生	-11.4015
上自天子下至庶人	-11.4015
不獲乃	-11.4015
不獲乎上	-11.4015
不能得之於	-11.4015
世以不仁得之	-11.4015
中其節則	-11.4015
之利謂土地	-11.4015
之長也亨	-11.4015
也明乎郊社之	-11.4015
也節用者省節	-11.4015
也謹身者謹修其身不妄	-11.4015
事順時此用天道也	-11.4015
人公與父兄齒	-11.4015
以仁守之其量	-11.4015
以其餘畀	-11.4015
以正致諫	-11.4015
以長守此貴也處	-11.4015
作參音同義别	-11.4015
佳	-11.4015
兄弟以御	-11.4015
先王上有參字	-11.4015
光祿大夫	-11.4015
全襲	-11.4015
其先君豈非孝道之大者	-11.4015
其忠也勿勿	-11.4015
冺	-11.4015
出地奮	-11.4015
則成親成親則成	-11.4015
則熱中	-11.4015
則身雖居	-11.4015
南宫縚	-11.4015
又云善則稱人過則稱己則民	-11.4015
又申言	-11.4015
合䂓矩	-11.4015
君不得於君	-11.4015
因性明教	-11.4015
固所自盡	-11.4015
圭璋	-11.4015
夫婦之别	-11.4015
夫子所以首稱明王而	-11.4015
夫子没後	-11.4015
字彦	-11.4015
容止威儀也必合䂓矩則可觀也	-11.4015
少則慕父母知好色則慕少艾仕則慕	-11.4015
屬屬乎	-11.4015
廟以奉其先祖之祭	-11.4015
彰矣二句	-11.4015
心和而王業	-11.4015
忠愛其君者	-11.4015
怒不至詈	-11.4015
性參天地	-11.4015
恐懼兢兢戒愼臨深恐墜履	-11.4015
愛君之志恒藏心中無日暫忘也	-11.4015
愛君雖離左右不謂為遠	-11.4015
愛而不敢有所惡於人敬其	-11.4015
所以明君臣之義也	-11.4015
擴	-11.4015
故當不誼則	-11.4015
故能成其德教而行其政令	-11.4015
敬以事長則為順	-11.4015
斬衰三年以	-11.4015
新刋	-11.4015
方曰簠圓曰	-11.4015
既能孝則于事	-11.4015
昏姻之禮	-11.4015
曰敬之敬之天惟	-11.4015
有本父者生之本也	-11.4015
服法服道法言行徳行三者	-11.4015
本盡則	-11.4015
求見孟子	-11.4015
治國其如	-11.4015
泛溢	-11.4015
洋洋如在	-11.4015
洞洞乎	-11.4015
涌泛	-11.4015
淑常六	-11.4015
濫觴於漢傳之者皆糟粕之餘	-11.4015
為使人勿	-11.4015
煇胞翟閽	-11.4015
爭鬭之	-11.4015
爲行在	-11.4015
父母全而生之己當全	-11.4015
父母雞初鳴咸盥潄櫛縰笄總	-11.4015
父父子子兄兄弟弟	-11.4015
生植農桑之	-11.4015
用之於戰勝	-11.4015
用之於禮義	-11.4015
白虎通云王者父天	-11.4015
皆有以事其生	-11.4015
社稷靈長而宗廟奠安	-11.4015
秉彝	-11.4015
積於中則	-11.4015
竟之限也	-11.4015
簡則易從	-11.4015
紳	-11.4015
罔以盡	-11.4015
義者宜也	-11.4015
者守門	-11.4015
者教之所自出也	-11.4015
而敬守之	-11.4015
聞孔子之言	-11.4015
能備能備然後能	-11.4015
臨兆民凛乎若朽索之馭六馬為人上者	-11.4015
自獻其身	-11.4015
舉大者言	-11.4015
若公與族燕則異姓為賔膳宰為主	-11.4015
茨	-11.4015
衛武公	-11.4015
襁褓之	-11.4015
覺大也義取天子有大德	-11.4015
言人有上三惡豈惟	-11.4015
言行孝以事親爲始事君	-11.4015
詩云此詩小雅節南山之什小	-11.4015
財用不妄	-11.4015
費也庶人未受命	-11.4015
資於天地得其	-11.4015
足以合禮利物足以和義貞固足以幹事	-11.4015
辭不得命	-11.4015
遐遠也義取臣心	-11.4015
邦終于	-11.4015
郊祀禘嘗	-11.4015
門外之	-11.4015
閒音閑	-11.4015
防其未來	-11.4015
雅頌之	-11.4015
雖有五等之别	-11.4015
靈為畜	-11.4015
順可移於長居家苟極其	-11.4015
食養隂氣也故	-11.4015
飲養陽氣	-11.4015
高下燥濕	-11.4015
鰥寡即不驕不	-11.4015
凡百四十三字廣經	-11.4015
别彼列反	-11.4015
孝者徳之本教之所由生	-11.4015
丞左	-11.4015
憂哀嚴	-11.4015
而不敢有所慢於人	-11.4015
以要道施化化行	-11.4016
申而演之	-11.4016
要道先於至	-11.4016
一時之言無可疑者而後人	-11.4016
两	-11.4016
之心以此事	-11.4016
令儀令色小心	-11.4016
以悌所以敬天下之爲人兄者也	-11.4016
以長守此富也	-11.4016
傳之十三章	-11.4016
其所引詩亦不親切今定先王見教以下	-11.4016
則可謂能體明王孝	-11.4016
句之末並無也字	-11.4016
因上文不孝之云而繫於此	-11.4016
常故曰經	-11.4016
廣至德章第十	-11.4016
彌大之義告之	-11.4016
心生於所	-11.4016
愛則莫有善於孝	-11.4016
有其社稷而和調其	-11.4016
次第六章後	-11.4016
治之心以爲	-11.4016
無故字有子曰	-11.4016
當體明王孝治天下	-11.4016
禾黍	-11.4016
至於後段則文既可疑而謂聖人見孝可	-11.4016
號咷	-11.4016
盡其歡	-11.4016
敬者寡而説者衆	-11.4016
章第九	-11.4016
天子卿大夫有善	-11.4016
有格言焉	-11.4016
踊音勇	-11.4016
陳説徳義之	-11.4016
天下有道	-11.4016
之行並去聲	-11.4016
嘆	-11.4017
軾	-11.4017
各敬其親	-11.4017
事天地能明察則神感至	-11.4017
君令臣	-11.4017
故可尊	-11.4017
教諸侯之孝也食三老五更於太學所以	-11.4017
而罪莫大於不孝	-11.4017
言悖其徳禮雖得志於人上君子	-11.4017
黔	-11.4017
䘮平聲	-11.4017
䘮服四制	-11.4017
上正身以率下下順上而	-11.4017
下治其民則莫有善於禮	-11.4017
不孝乃是大亂之道	-11.4017
不待肅而自成其政不待嚴而自治	-11.4017
不期侈	-11.4017
不獲其所	-11.4017
不載其名	-11.4017
也利物爲義孝爲百行之首人之	-11.4017
人人知之	-11.4017
以飬其親	-11.4017
使其文意分斷間隔而讀者不復得見聖	-11.4017
使民有父之尊有母之親	-11.4017
侮慢忽也一命以上	-11.4017
元吳澄撰	-11.4017
公侯伯子男大國之臣乎以此之故所以	-11.4017
其身不辱	-11.4017
其首尾相應次第相承文勢連屬	-11.4017
冨	-11.4017
則天下之爲	-11.4017
則賢人之	-11.4017
可以為民父母矣非至徳其孰能如此乎	-11.4017
君愛其親則人化之無有遺其親者	-11.4017
君行嚴配之禮則德	-11.4017
君行敬讓則	-11.4017
四輔及三公	-11.4017
國極言其多	-11.4017
堯舜帥天下以仁而民從之桀紂	-11.4017
士民乎故得百姓之	-11.4017
大夫四命	-11.4017
大義為害不細故今定此六七章者合為	-11.4017
天下之理得	-11.4017
夫然者然	-11.4017
子曰者二引書者一引詩者四凡六	-11.4017
家塾	-11.4017
封於邰	-11.4017
尊敬其父者至矣極矣不可以復加矣然	-11.4017
居高位而不危則不	-11.4017
左佩紛帨刀礪小觿金燧右佩	-11.4017
彞	-11.4017
思可道而後言人必信也思可	-11.4017
慕則人起心而行之	-11.4017
應之詩曰	-11.4017
敬一人而千萬人悦	-11.4017
易曰雷	-11.4017
易知則有親易	-11.4017
曰林父之事君	-11.4017
有死有始	-11.4017
正其心則和睦矣	-11.4017
殄	-11.4017
毛傳文	-11.4017
氣然氣以成形而理亦賦	-11.4017
爲下而亂則刑在醜而爭則兵	-11.4017
猶修持其身謹愼其	-11.4017
王之卿六命	-11.4017
用此道	-11.4017
百姓昭明	-11.4017
百官族姓	-11.4017
知其勞	-11.4017
示好以引之示惡以止之則人知有禁令	-11.4017
移易先入樂聲變隨人心正由君德	-11.4017
稷矣以此而事	-11.4017
簟而襡之	-11.4017
義取爲君恒須戒	-11.4017
者奉席請何趾少者執牀與坐御者舉几	-11.4017
者無不悦以此之敬而敬人之	-11.4017
而順則莫有善於悌	-11.4017
聚天下之懽心	-11.4017
能喻諸人者未之有也故	-11.4017
臣妾家之賤者妻子家之貴者	-11.4017
行不翔言不惰	-11.4017
言上三事皆可亾身	-11.4017
言父有非	-11.4017
諸侯士庶人有善	-11.4017
謂上六句	-11.4017
豫先王以作樂崇徳殷薦	-11.4017
醜衆也爭競也當	-11.4017
釋立身揚名及士之孝	-11.4017
陳說德義之美爲衆所	-11.4017
順天下人心而	-11.4017
骨肉之親無	-11.4017
黜	-11.4017
𦵏之以禮祭	-11.4017
身體髮膚受之父母	-11.4017
衰七雷反	-11.4017
名於後世	-11.4017
也故次及	-11.4017
則四海之大	-11.4017
士言祭祀各以其	-11.4017
悖徳悖禮之事	-11.4017
悴	-11.4017
慘	-11.4017
戈	-11.4017
周尸為棺周棺	-11.4017
刪去說見	-11.4017
累劣偽反	-11.4017
尺證反	-11.4017
義曰此依鄭注也	-11.4017
死生之義	-11.4017
之徳行不敢行惟恐行輕而招辱也以此	-11.4017
也由一家	-11.4017
以孝所以敬天下之爲人父者也	-11.4017
修身愼行恐辱先也	-11.4017
則無善於先	-11.4017
反不若彼之完備明此襲彼非彼取此	-11.4017
夙夜匪解	-11.4017
孝所以愛其親也	-11.4017
德其無以加於孝乎子曰天地之	-11.4017
悌所以敬其長也	-11.4017
惟恐言輕而招	-11.4017
有乖戾	-11.4017
案士䘮禮	-11.4017
治家者不敢侮於臣妾	-11.4017
爵禄而守其祭祀	-11.4017
矜肆	-11.4017
章末舊有	-11.4017
簡子賛之曰甚	-11.4017
自其章首以至因地	-11.4017
菽麥	-11.4017
蓋釋以順天下	-11.4017
通貫條目	-11.4017
選擇也	-11.4017
非先王之法服不敢服惟恐服之	-11.4017
詩大雅文王有聲之	-11.4017
則思補	-11.4018
以順則逆民無則焉不在於善而皆在於	-11.4018
佷	-11.4018
搥	-11.4018
詩大雅泂酌	-11.4018
泄	-11.4018
之屬千劓	-11.4018
一字申釋	-11.4018
不能為容也	-11.4018
人而以無所不	-11.4018
俺	-11.4018
其哭也不偯氣竭而盡不能委曲	-11.4018
失其道無以有其	-11.4018
孝子當行之	-11.4018
斷音短	-11.4018
旨不甘此哀戚之情	-11.4018
盪	-11.4018
聞樂之和有所不樂食味之㫖有	-11.4018
蛟	-11.4018
所繇来	-11.4018
長㓜順故上下治	-11.4018
孽	-11.4018
恐其下有伏石	-11.4018
經而别𤼵一義	-11.4018
呰	-11.4018
文次第五章後	-11.4018
為市朝	-11.4018
磋	-11.4018
謂身行愛敬	-11.4018
覇	-11.4018
敢問子從父	-11.4018
子男五十里	-11.4018
漢藝文志	-11.4018
古卧反	-11.4018
紆	-11.4018
而後成服	-11.4018
道揚末命	-11.4018
有所未盡也	-11.4018
涖音利	-11.4018
三曲而偯	-11.4018
也因引	-11.4018
天子愛親則	-11.4018
孝經者孔子	-11.4018
所以致敬也	-11.4018
贅	-11.4018
口不甘味	-11.4018
夫孝始於事親	-11.4018
孝經一十八章	-11.4018
年一廵守	-11.4018
河間王所得顔芝本	-11.4018
耘	-11.4018
記曰禮之	-11.4018
讜	-11.4018
資親事君	-11.4018
不可飾也	-11.4018
也而朱氏	-11.4018
則福祿至	-11.4018
勿勿	-11.4018
君能尊諸父先諸兄則長	-11.4018
唐虞之治	-11.4018
圈	-11.4018
孝治章云	-11.4018
家喻户曉	-11.4018
成粢盛	-11.4018
椘	-11.4018
祭之明日	-11.4018
罷	-11.4018
詩曰於繹思	-11.4018
詰	-11.4018
諫大夫翼奉安昌侯張禹傳之各自名家	-11.4018
躬行匹夫之孝	-11.4018
迎牲	-11.4018
▁養羊尚反傳同	-11.4018
㫖美也不甘美味故	-11.4018
䟽	-11.4018
一物不得其	-11.4018
三穆廟	-11.4018
三終主人獻之	-11.4018
上下之際	-11.4018
不可則止	-11.4018
不必有餘	-11.4018
不為之加	-11.4018
不相屬故	-11.4018
不觧經而别𤼵一義	-11.4018
不過啓其良心	-11.4018
之君所朝夕否曰君	-11.4018
之甚者為	-11.4018
之萬物莫不	-11.4018
之行自無怨惡	-11.4018
也劉炫以為	-11.4018
也夫子言昔者明	-11.4018
也注謂父至	-11.4018
也而非之此有無	-11.4018
二十四字今文無	-11.4018
二字又析此下至	-11.4018
人乃可以不	-11.4018
人無貴賤	-11.4018
以人之行言之則	-11.4018
以教其子	-11.4018
以身近之也殆於以身近之殆於身之矣	-11.4018
以陵傲召禍	-11.4018
伏羲	-11.4018
伯夷叔齊	-11.4018
兄弟備言燕私	-11.4018
其儀不忒正是四國	-11.4018
其將葬	-11.4018
其所由來	-11.4018
其曰先王見教之可以化民又與上文	-11.4018
其本性立教	-11.4018
制立節限	-11.4018
刻石	-11.4018
則天之明因地之利以順天下是以其	-11.4018
則非如父與	-11.4018
化人之易也	-11.4018
友于兄弟	-11.4018
取也取事父之道	-11.4018
取其語以	-11.4018
可以贊天	-11.4018
君以尊高而敬	-11.4018
君弟以事長	-11.4018
君欲教民	-11.4018
周家有	-11.4018
和故百物	-11.4018
和樂而不流	-11.4018
喪公孫丑曰	-11.4018
四十五度之	-11.4018
四方之國皆	-11.4018
四海諸侯不能保社稷	-11.4018
國人詩云	-11.4018
地之化育	-11.4018
夕忘	-11.4018
多所弗與	-11.4018
大辟之屬二百	-11.4018
大饗之禮	-11.4018
天子先君之	-11.4018
失其財之	-11.4018
如之何孔子曰遂既封	-11.4018
始皇焚	-11.4018
始知孝之爲大也	-11.4018
孝經述註一卷	-11.4018
孝莫大于嚴父嚴	-11.4018
安國傳之	-11.4018
宜兄宜弟	-11.4018
富是所	-11.4018
尊無與對而能以已之父與之	-11.4018
小成言	-11.4018
尸内於棺	-11.4018
居上敬下盡得	-11.4018
居之不能無	-11.4018
庶人泛指衆人學	-11.4018
強民者也	-11.4018
待于外	-11.4018
德若三	-11.4018
恐墜	-11.4018
惡乎隱而有	-11.4018
惡慢人而	-11.4018
愛出於内	-11.4018
愷樂也悌易	-11.4018
慈為愛體	-11.4018
慎行其身不遺父母惡名可謂能終	-11.4018
懽心故曰恱也	-11.4018
戒舜曰	-11.4018
才卧反	-11.4018
提要	-11.4018
改此字	-11.4018
故以天子而	-11.4018
故聖人之制	-11.4018
敬生於心恭為敬	-11.4018
文盡於此矣所以常乆而不廢也夫有生	-11.4018
於臣妾鰥寡	-11.4018
早夜	-11.4018
早起夜寐無辱其	-11.4018
明王明哲之君遺忽忘也小國之臣謂土	-11.4018
易繫	-11.4018
晉荀林父為楚所敗歸	-11.4018
曰吾觀於鄉而知王道之易易也	-11.4018
書以為春秋之	-11.4018
曽子問曰	-11.4018
有國有家	-11.4018
有重服	-11.4018
本諸身	-11.4018
樂也有親可	-11.4018
樂者為同禮者為	-11.4018
正也猶生長于	-11.4018
此論人子	-11.4018
死生之義備矣	-11.4018
毀不滅性	-11.4018
毛髮膚	-11.4018
民人蓋諸侯之孝	-11.4018
法事理	-11.4018
法言謂禮法之言德行	-11.4018
注法天	-11.4018
温公改教為孝乃得粗通而下文所謂	-11.4018
渾	-11.4018
澮	-11.4018
為慈愛得地之性	-11.4018
爲九章之	-11.4018
爲常行也	-11.4018
父孝也嚴兄弟也	-11.4018
物之所以生	-11.4018
玊	-11.4018
發咏	-11.4018
百姓徒役也以	-11.4018
礙	-11.4018
祖顓頊而宗	-11.4018
立德行義不違道正故可尊	-11.4018
紕繆	-11.4018
終之以仁	-11.4018
老而無妻曰鰥老而無夫	-11.4018
而不畏也狎	-11.4018
而不除之雖	-11.4018
而天下之為弟者皆悦以事	-11.4018
而患不均	-11.4018
而有惡慢	-11.4018
而習復夜而計過	-11.4018
而致事	-11.4018
而致卑替	-11.4018
聞明王孝治以致	-11.4018
臣子之恩	-11.4018
臨雍養老	-11.4018
自天子達於庶人	-11.4018
色容不	-11.4018
若火之	-11.4018
萃天下之歡心	-11.4018
蔬	-11.4018
薛倉子	-11.4018
藜	-11.4018
藻火粉米	-11.4018
衆知其徳	-11.4018
行恐辱先祖而毁盛業也	-11.4018
行莫大於孝也	-11.4018
衰於妻子	-11.4018
襄王	-11.4018
言用賢	-11.4018
詩曰諸父	-11.4018
課	-11.4018
論二程遺書	-11.4018
諮	-11.4018
趙簡子	-11.4018
距二其行必	-11.4018
身也者親之枝也	-11.4018
輕君之危亡	-11.4018
輟朝而顧	-11.4018
辟之屬千	-11.4018
適父母舅姑之所及所下氣怡聲問衣燠	-11.4018
郊祀配天宗	-11.4018
鄉道而行中道而廢	-11.4018
采七代	-11.4018
釋奠于先	-11.4018
門人稱其師	-11.4018
隸	-11.4018
順天下者順	-11.4018
順此四者人之大	-11.4018
頗近之矣	-11.4018
首火在宗彜之	-11.4018
馳騁	-11.4018
高行子	-11.4018
龍於山登火於宗彜	-11.4018
龔	-11.4018
畎	-11.4018
之字事上相親下	-11.4018
以孝道化民	-11.4018
右傳之十一章	-11.4018
善皆在於凶徳	-11.4018
子從父之令可謂孝乎	-11.4018
棺椁衣衾	-11.4018
重直用反	-11.4018
檀	-11.4019
一以順從為孝	-11.4019
之高行也	-11.4019
亦天分之	-11.4019
人子之身氣始	-11.4019
其先祖故也	-11.4019
哭泣擗踊	-11.4019
在下位	-11.4019
心乎愛矣遐不謂矣中心蔵之何日忘之	-11.4019
故不加威肅而教	-11.4019
故忠可移於君事兄苟	-11.4019
敺	-11.4019
朝直遙反	-11.4019
霤	-11.4019
顔説色	-11.4019
饘	-11.4019
徳義敬讓禮樂	-11.4019
整	-11.4019
娛	-11.4019
成不加嚴刑而政	-11.4019
瘠在昔反	-11.4019
覆芳伏反	-11.4019
哀以送之卜其宅兆而安措之	-11.4019
▁弟大計反傳同	-11.4019
一孝立而	-11.4019
上安其君	-11.4019
也引詩之意葢言	-11.4019
仁誼禮	-11.4019
休徵	-11.4019
兼及事君立身	-11.4019
則之則天之明因地之性其下便	-11.4019
却不相應疑亦裂取他書之成文而强加	-11.4019
可盡從乃	-11.4019
右傳之三章	-11.4019
在上在一國臣民之上驕矜肆	-11.4019
地之經而民實	-11.4019
子曰昔者明王以孝治天下也	-11.4019
師尹周太師尹氏	-11.4019
慎終之禮也為廟	-11.4019
是春秋左氏傳所載子太叔為趙簡子道	-11.4019
有善於樂	-11.4019
服象其	-11.4019
歎其大	-11.4019
此則庶人之孝所當然也	-11.4019
治一國者	-11.4019
泛指	-11.4019
為凶徳	-11.4019
由親及	-11.4019
當行之孝	-11.4019
祿賞不足以勸民	-11.4019
禄位與祭祀相	-11.4019
禮字為孝字而文勢反不若彼之	-11.4019
私室則思補其身過	-11.4019
而受業晝而講貫夕	-11.4019
與此不同	-11.4019
蓋士之孝也詩云夙興夜寐無忝爾所生	-11.4019
親者必其於人無所不	-11.4019
謂其文不	-11.4019
變易其俗則莫	-11.4019
辜也非先	-11.4019
長貞丈	-11.4019
有覺徳行四國順之	-11.4019
隰	-11.4019
事君則忠以	-11.4019
鑒	-11.4019
天地之性人爲貴	-11.4019
傷生雖毁瘠而不	-11.4019
右傳之首章	-11.4019
合乎先	-11.4019
善補過也	-11.4019
效之而各敬其	-11.4019
斯民則人	-11.4019
父兄與君是	-11.4019
述諫諍之事	-11.4019
鈇鉞不足以威衆	-11.4019
食其祿	-11.4019
行其典誼	-11.402
十八篇	-11.402
無念爾祖	-11.402
郭	-11.402
之綱領	-11.402
滋味	-11.402
總括一書	-11.402
先王之制禮也	-11.402
天作子	-11.402
赫赫師尹	-11.402
一國之賦	-11.402
之厚莫重於斯	-11.402
也君有美善則順而行之	-11.402
事未見故	-11.402
亦不免有離析増加之失顧自	-11.402
其親而稱孝者	-11.402
命不易哉無曰髙髙	-11.402
多傅㑹而經文	-11.402
姑仍	-11.402
子之大戒也	-11.402
得天之性	-11.402
微詞	-11.402
於天地之性則	-11.402
有争臣	-11.402
氣竭而息聲不委曲	-11.402
漢以來諸儒傳誦	-11.402
父母於子一體而	-11.402
生事已畢死	-11.402
稟天地之性	-11.402
章繡於裳	-11.402
落	-11.402
號泣而随之	-11.402
近觀孝經舊注	-11.402
逢	-11.402
非而從成	-11.402
□	-11.402
一百七十二字	-11.402
三日而食粥	-11.402
上謂君也進謂進見於君	-11.402
不敢辱先	-11.402
不為一物	-11.402
乎親不可以為	-11.402
九族既	-11.402
事親有隐而無犯	-11.402
人皆有之不待	-11.402
以孝則卽通于事	-11.402
以孝教天下	-11.402
何所不致其	-11.402
使教民播種百	-11.402
充滿矣若	-11.402
光輝	-11.402
其法令	-11.402
勲	-11.402
史館檢討	-11.402
君其國故稱曰后稷	-11.402
哉禮之大也首尾通貫節目詳備	-11.402
困	-11.402
夜寐無辱其親也	-11.402
天以形體言上帝	-11.402
天性然也	-11.402
天於南郊故曰郊	-11.402
妻子臣妾官也	-11.402
宗祀謂宗廟之祭也	-11.402
寒疾痛苛癢而敬抑搔之	-11.402
将順其美匡救其惡故上下能相親	-11.402
尊至則愛不極	-11.402
小歛之衣也	-11.402
序若之何而能使民不遺其親	-11.402
心為重	-11.402
意有兼明具載則文繁略之又義闕今存	-11.402
懷寵	-11.402
故孝行之大莫過尊嚴其父也	-11.402
敬其父尊敬其父者亦無所不至而莫大	-11.402
日致太牢之養固非孝也	-11.402
曰敢問聖人之德無以加於孝乎	-11.402
服田力	-11.402
槍	-11.402
父兄君長	-11.402
王之子武王之弟成王之叔父	-11.402
百官族人可謂曰知	-11.402
矯偽	-11.402
繇此矣	-11.402
繩墨	-11.402
者北方之	-11.402
自有一定不可	-11.402
至富不	-11.402
華侈	-11.402
藻火粉米黼黻六章繡	-11.402
言䘮親	-11.402
言臣心愛君	-11.402
詩大雅烝民	-11.402
謂父母也義取早起	-11.402
謂父為君以臨於己恩義	-11.402
身雖有小	-11.402
配天之禮始自周公故曰其人也	-11.402
鞠	-11.402
皆順從	-11.402
能以至徳為教順	-11.402
刄	-11.402
行不正履	-11.402
赫赫	-11.402
辨男女	-11.402
▁夫音扶傳同	-11.402
善者之必	-11.402
子有如此愷悌	-11.402
弗争於君故當不義則争之從父之令	-11.402
費用約儉謂之制	-11.402
下之事上	-11.4021
之效驗	-11.4021
具皆也爾女也	-11.4021
居陵反	-11.4021
心而成其	-11.4021
敬父敬君	-11.4021
曰夫孝徳之本教之所由生復坐吾語女	-11.4021
民之從於	-11.4021
然所論至	-11.4021
耰	-11.4021
舉小以見大耳百姓	-11.4021
蓬	-11.4021
要道之事而未	-11.4021
視傚	-11.4021
言君子之教人以孝也非必家至	-11.4021
詩小雅隰桑之篇	-11.4021
賴其福也	-11.4021
釋至徳以順天下	-11.4021
旦暮	-11.4021
子從父之令夫子以令有善惡不	-11.4021
槁	-11.4021
此又總	-11.4021
母其體	-11.4021
章第七	-11.4021
於衣衣	-11.4021
所不學而能者其	-11.4021
所不慮而知者其良知也	-11.4021
則一身四體舉	-11.4021
風俗移易先入樂聲	-11.4021
父母㡬諫見志不從又敬不違	-11.4021
庶有補於將來	-11.4021
何過之有	-11.4021
言孝之綱領始終	-11.4021
人有言曰	-11.4021
充充	-11.4021
叅	-11.4021
存于我日本	-11.4021
故形變於外	-11.4021
溷	-11.4021
顔芝所	-11.4021
忠于君	-11.4021
五子之歌	-11.4021
今有一箇道理	-11.4021
寤	-11.4021
洵	-11.4021
胎	-11.4021
至此方言出一孝字	-11.4021
迎尸	-11.4021
不安美餙故	-11.4021
之祭也與	-11.4021
也以此坊民民猶忘其親	-11.4021
也而其道通於	-11.4021
二百二	-11.4021
以孝治天下國家	-11.4021
以父之親	-11.4021
則守於公襧	-11.4021
則斯道	-11.4021
則未為能	-11.4021
又有古文出于孔氏壁中	-11.4021
同㫖也	-11.4021
孟子曰吾今	-11.4021
寖	-11.4021
庻人章第六	-11.4021
彼無惡在此無斁	-11.4021
愚夫愚婦	-11.4021
懽心否則是其所以事	-11.4021
懽悦	-11.4021
放於日月	-11.4021
故君子不出家而成	-11.4021
於祖妣	-11.4021
族食世降一等	-11.4021
是而終矣	-11.4021
民之窮	-11.4021
狀	-11.4021
狼	-11.4021
異同則相親異則相敬樂勝則流	-11.4021
百官有司莫	-11.4021
盆	-11.4021
盡孝之大而	-11.4021
知愛知敬	-11.4021
禘嚳而郊稷祖文王而宗武王	-11.4021
縦	-11.4021
者皆孝也非孝則	-11.4021
聖人南面而	-11.4021
與大學中庸	-11.4021
若是則可謂	-11.4021
陳振孫書録解題	-11.4021
類聖言亦不類漢儒語是後儒偽作明甚	-11.4021
鮮克	-11.4021
鹹	-11.4021
一飯之恩	-11.4021
不㤀親也	-11.4021
不仁不保四	-11.4021
不及之理	-11.4021
不敬其親而敬它人者	-11.4021
不說其言	-11.4021
且傳以通經爲義	-11.4021
丘曽子孔子弟子名參字子輿	-11.4021
丹朱傲	-11.4021
之孝可通	-11.4021
之末也故	-11.4021
之者莫善於身自行	-11.4021
乾隆四十一年五月恭校上	-11.4021
人心喜	-11.4021
以事父之心而事君則忠矣	-11.4021
以戒貴	-11.4021
何也曰是猶	-11.4021
何以異乎	-11.4021
克施有政	-11.4021
其容體	-11.4021
其祖父者如此是以徳教刑	-11.4021
出就外傅居宿於外	-11.4021
制五服各有等差言	-11.4021
則思盡忠節	-11.4021
則是未嘗有	-11.4021
劉向校書定爲十八	-11.4021
劉炫引禮	-11.4021
勇敢强有力	-11.4021
又案尚書益稷篇稱	-11.4021
受命於髙祖	-11.4021
受禄飬親	-11.4021
名章次五孝之	-11.4021
君命婦	-11.4021
君滅親	-11.4021
和平因問聖	-11.4021
多知而	-11.4021
天地參為三才	-11.4021
奉承而進之	-11.4021
始于事親	-11.4021
季秋於	-11.4021
宜其妻父母	-11.4021
尊后稷猶	-11.4021
尚書益稷	-11.4021
山龍華蟲六章	-11.4021
帝也周公之所以	-11.4021
帝則以文王配	-11.4021
庶人敢問章為	-11.4021
待教而此言教	-11.4021
忝辱也所生	-11.4021
恒常合宜之	-11.4021
愛易能而敬難盡	-11.4021
所以無可擇也	-11.4021
所當然皆來助	-11.4021
故徳教成而政令行	-11.4021
教更有大於孝不	-11.4021
敬而能之也故	-11.4021
於客位	-11.4021
於鰥寡之微亦不敢侮慢之而	-11.4021
是以道隱小成言隱浮	-11.4021
有序而和者未有不	-11.4021
有未至也	-11.4021
朕聞上古其風朴略雖因心之孝	-11.4021
母以鞠育而	-11.4021
民則民畏其	-11.4021
注平居必盡其敬	-11.4021
為人心之全徳	-11.4021
為何如	-11.4021
為行始	-11.4021
然友反命	-11.4021
父母生之君親臨之	-11.4021
理亦條貫寫之琬琰	-11.4021
男踊女擗	-11.4021
畏之見逐智之見殺	-11.4021
瞻仰	-11.4021
知我吾無	-11.4021
磬	-11.4021
祫嘗祫烝	-11.4021
祭敬供郊廟之	-11.4021
禘黄帝而郊	-11.4021
禮三年之喪三	-11.4021
禮智發於外	-11.4021
章之失云	-11.4021
筵	-11.4021
節其用而	-11.4021
絕	-11.4021
絡	-11.4021
經彚刻	-11.4021
義以必當爲主	-11.4021
者何盖言	-11.4021
而能仕可知者	-11.4021
耻辱	-11.4021
能孝理其家則得小大之懽心助其奉	-11.4021
脉絡貫通同是	-11.4021
臨之以莊	-11.4021
與張南軒	-11.4021
興秩	-11.4021
舉善而敎不能	-11.4021
蓁	-11.4021
行非德則虧孝道故不敢也	-11.4021
袖虞翻劉邵抑又次焉劉炫明安國之本	-11.4021
親則敬身	-11.4021
説聖人之治	-11.4021
諸侯者各以其職	-11.4021
諸侯自龍袞而下	-11.4021
謂父為天雖無貴賤然以父	-11.4021
謂道德之行若言非法	-11.4021
貴人而賤	-11.4021
貴其異於萬物也	-11.4021
貴是所	-11.4021
賔以象	-11.4021
賔客之	-11.4021
趙文子	-11.4021
趙衰	-11.4021
道天性之常加以尊嚴又有君	-11.4021
遽改	-11.4021
邪音耶	-11.4021
郊祀祭天則以	-11.4021
配合也周公	-11.4021
酢	-11.4021
陟	-11.4021
魚器反	-11.4021
𤣥所注請不藏	-11.4021
聖人立制	-11.4022
有殷事	-11.4022
争之從父之命又	-11.4022
争於父臣不可以	-11.4022
徳以親九族	-11.4022
父尊子卑	-11.4022
瓦	-11.4022
遹	-11.4022
此六者皆孝子哀	-11.4022
上有此字	-11.4022
先君始受命	-11.4022
承顔順	-11.4022
故當不義則子不可以弗	-11.4022
欲移改	-11.4022
致者推之而	-11.4022
行之事可	-11.4022
見君父之過皆不可以苟順而不	-11.4022
道順而無	-11.4022
悲哀在	-11.4022
▁弟大計反下	-11.4023
在位可畏施舍可愛進退可	-11.4023
俊	-11.4023
脱衣就功	-11.4023
裕	-11.4023
主以象	-11.4023
霦	-11.4023
則以鬼禮享之	-11.4023
親親而仁民仁民而愛物	-11.4023
陳説德義之	-11.4023
不登髙不	-11.4023
因吕國改作甫名	-11.4023
也注蓋猶	-11.4023
浩	-11.4023
義見於上	-11.4023
傲惰	-11.4023
駿奔走	-11.4023
也抑搔癢痛縣衾篋枕以	-11.4023
也白虎通云	-11.4023
以行化	-11.4023
參用三代	-11.4023
恩掩義	-11.4023
敬以臨下也	-11.4023
昊天罔極	-11.4023
案毛詩傳	-11.4023
民莫不興	-11.4023
無禮爲驕奢泰爲溢	-11.4023
臣妾妻子	-11.4023
親昵而	-11.4023
言善人君子	-11.4023
雖日具	-11.4023
上加故字今詳此	-11.4023
上帝即天也	-11.4023
下今文各有也	-11.4023
也天以生覆	-11.4023
事亂君	-11.4023
事母孝故事	-11.4023
事義相	-11.4023
云衮職	-11.4023
人為萬物之靈	-11.4023
以子曰今文則合之而又通上章為一章	-11.4023
以孝治其國推其愛敬之心以及於國人	-11.4023
以為大者本自有親切處而非此之謂乎	-11.4023
仰觀俯察之	-11.4023
倫也父子主恩君臣主敬	-11.4023
像	-11.4023
内則父子外則君臣人	-11.4023
制後為室	-11.4023
則毛髮肌膚此皆受之	-11.4023
則當和順以	-11.4023
古文之偽	-11.4023
古文析不愛	-11.4023
右傳之二章	-11.4023
同姓則留	-11.4023
名從之矣	-11.4023
君言社稷卿大夫言宗廟	-11.4023
善事父母為孝而敢非	-11.4023
四詩去聖逾逺源流益	-11.4023
因上章三可移而言嚴	-11.4023
因祀五方上帝於明堂	-11.4023
堂則親之而曰	-11.4023
奢僭	-11.4023
如此其廣大者乎	-11.4023
季康子	-11.4023
孰不為	-11.4023
孰大于此	-11.4023
居上而驕則失道而取亡	-11.4023
庶幾廣愛刑于四海嗟乎夫子沒而微言	-11.4023
所自著則又可笑之尤者	-11.4023
故魯史春秋學開五傳國風雅頌分	-11.4023
敢不哀	-11.4023
敢於毁傷人	-11.4023
春耕	-11.4023
是愛深而敬薄	-11.4023
時之氣春	-11.4023
歴代天子	-11.4023
水泉	-11.4023
為人子為人弟為人臣者	-11.4023
烝烝	-11.4023
無一不順其序則人道盡	-11.4023
無此二子曰字而於不愛其親	-11.4023
父母生子傳體相續人倫之道莫大於斯	-11.4023
父莫大於配天	-11.4023
玩其所樂	-11.4023
皆法言	-11.4023
禮師有問則	-11.4023
禮法之言焉有口過道德	-11.4023
禮記文王世子云	-11.4023
竭盡其忠	-11.4023
終始中乃敷陳天子諸侯卿大夫士	-11.4023
經之首統論孝之	-11.4023
者不煩	-11.4023
而不仁者也未有孝而不義者也未有孝	-11.4023
而其末結之曰故自天子	-11.4023
而推之與此亦	-11.4023
自有之情非聖人強	-11.4023
至則敬不極	-11.4023
舉農畝之事順四	-11.4023
若非至徳之君	-11.4023
處其所存	-11.4023
處衆而不可爭競	-11.4023
行莫大于孝	-11.4023
衾而舉	-11.4023
詩小雅小宛之	-11.4023
諫之大者	-11.4023
謂父爲	-11.4023
謹身節用以養父母此庻人之孝也	-11.4023
通為一章古文則分為二章	-11.4023
郊則尊之而	-11.4023
閨門章二十四字	-11.4023
非以為名	-11.4023
顛連無告	-11.4023
食采於周位居	-11.4023
其細而言	-11.4023
鬼神著矣	-11.4023
而患不及者未之有也	-11.4023
不言知能	-11.4023
人之本性	-11.4023
遽	-11.4023
徳行擇行行滿	-11.4023
冬藏	-11.4023
上下之分	-11.4023
下席而	-11.4023
敢少有毁傷此	-11.4023
穆王訓夏	-11.4023
音扶令去聲	-11.4023
山井鼎	-11.4023
舅	-11.4023
上謂君與長	-11.4024
之爭臣以	-11.4024
之詞非謂凡為孝者皆欲如此也又况	-11.4024
但以順則逆以下則又雜取左傳所載	-11.4024
但嚴父配天本	-11.4024
但經所謂	-11.4024
則思補塞	-11.4024
北宫文子之言與此上文既不相應而彼	-11.4024
君者臣之所禀令也而	-11.4024
國之主也	-11.4024
居謂平居	-11.4024
悅所敬者寡而悅者衆此之謂要道也	-11.4024
東西南北	-11.4024
此得失又如前章所論子産之語今	-11.4024
者有以得其懽心可知矣	-11.4024
自此推之	-11.4024
謂錦繡	-11.4024
道也徳也一	-11.4024
穿	-11.4024
胥徒	-11.4024
孝經注疏卷一	-11.4024
墨劓剕宫大辟	-11.4024
一人而彼則千萬人	-11.4024
也孝子喪親	-11.4024
懇	-11.4024
涖官不	-11.4024
物均得天地之氣以	-11.4024
翰	-11.4024
送葬	-11.4024
暴賊	-11.4024
父事三老兄事五更	-11.4024
章第一	-11.4024
言之不通也	-11.4024
紛	-11.4024
蒸民	-11.4024
辜	-11.4024
敢慢于人	-11.4024
維寳	-11.4024
同離令並去	-11.4024
怛	-11.4024
遐不謂矣	-11.4024
化民成俗	-11.4024
愴	-11.4024
紐	-11.4024
其終事	-11.4024
囚	-11.4024
孝之為道	-11.4024
車徒	-11.4024
也内則曰	-11.4024
各擅	-11.4024
姓言百	-11.4024
廟祔祖之後則以鬼禮享之	-11.4024
扱	-11.4024
故孝者生民	-11.4024
旁引	-11.4024
樂記云先王之制禮樂也將以	-11.4024
網	-11.4024
艮	-11.4024
訢然	-11.4024
詩曰天生	-11.4024
不侮鰥寡	-11.4024
出門如見大賔使	-11.4024
夫道至於	-11.4024
奮	-11.4024
孚	-11.4024
思而得	-11.4024
於臣臣不	-11.4024
民如承大祭	-11.4024
矣聚順	-11.4024
穆穆文	-11.4024
言行滿於天	-11.4024
道也誠者	-11.4024
顔氏	-11.4024
之秉彛	-11.4024
云古孝經千八百七十二字今異者	-11.4024
先辨忠	-11.4024
八章大傳第	-11.4024
名曑	-11.4024
君行六事臨撫其人則下	-11.4024
嚴刑肅	-11.4024
富貴而輕	-11.4024
徙	-11.4024
心為之主士有	-11.4024
本又作	-11.4024
為人子者誠以愛親為心而不	-11.4024
無所毁傷	-11.4024
用力之不	-11.4024
睨	-11.4024
神而明	-11.4024
箕	-11.4024
經文皆同	-11.4024
而八享	-11.4024
補綴	-11.4024
詩曰薄汚我私薄澣我衣害澣害否	-11.4024
詮釋	-11.4024
貝	-11.4024
賂	-11.4024
阻	-11.4024
一章而刪去	-11.4024
上也進見於君	-11.4024
上所陳	-11.4024
下之後周公始制此禮以尊其父文王也	-11.4024
下則當恭	-11.4024
下祀四世	-11.4024
不分經傳	-11.4024
不愛其親而愛它人	-11.4024
不率教	-11.4024
不過如此于大義	-11.4024
不順天道則	-11.4024
且不侮	-11.4024
中忠孝道著乃能揚名榮親	-11.4024
之心入之矣	-11.4024
之心而教之以	-11.4024
之禮也然而已進矣	-11.4024
也不教敬則不嚴不和親	-11.4024
也人之百行	-11.4024
也以至尊	-11.4024
也忿怒其臣妾	-11.4024
也親親故尊祖尊祖故敬宗敬宗故	-11.4024
乾元萬物資始	-11.4024
事兄則悌以	-11.4024
事父之道兼	-11.4024
五帝憲	-11.4024
享人鬼尚幽	-11.4024
人情壞	-11.4024
今隨俗用鄭注十八章本	-11.4024
以勉人	-11.4024
以忠順治官	-11.4024
以戒富	-11.4024
以造化之	-11.4024
何日忘之	-11.4024
侮聖人之言	-11.4024
兄百官皆不欲曰吾	-11.4024
冏	-11.4024
凡九十字	-11.4024
刑之所能禁	-11.4024
别立一廟	-11.4024
則上章云	-11.4024
則不待嚴肅而成理也	-11.4024
則周公其人也	-11.4024
則皆天也天	-11.4024
則臣佩	-11.4024
削閨門一章	-11.4024
勇敢者	-11.4024
匡其不及	-11.4024
及乎仁義旣有親譽益著	-11.4024
反陷於大不孝矣作傳者但見其論孝	-11.4024
右傳之六章	-11.4024
同情而	-11.4024
君者臣之禀命也而敢要之是無上也	-11.4024
周公之始祖也	-11.4024
周豐	-11.4024
咸平中	-11.4024
唐宫闈不肅	-11.4024
因嚴教敬因	-11.4024
國以孝治其	-11.4024
地之理故	-11.4024
執主器	-11.4024
執喪則	-11.4024
堯之行	-11.4024
壊孔子宅得古文	-11.4024
壬	-11.4024
天下失性	-11.4024
天下達禮	-11.4024
天地生人	-11.4024
天而配	-11.4024
夫子答曽子之問	-11.4024
嬉戲於父母	-11.4024
孝治天下能致災	-11.4024
孝者天地之經	-11.4024
宅葬	-11.4024
守者約而施者博	-11.4024
宗國魯先君	-11.4024
室祀天	-11.4024
居於上而	-11.4024
嵎	-11.4024
循環	-11.4024
心而安	-11.4024
悞	-11.4024
惚	-11.4024
所為主者皆	-11.4024
故祀天	-11.4024
敢不敬乎	-11.4024
散齊	-11.4024
整齊	-11.4024
文相續當以今文為正至君臣之義之下	-11.4024
明孫本	-11.4024
明王孝徳感通之神	-11.4024
是亦猶士	-11.4024
月以為量	-11.4024
有以異於人	-11.4024
有遺民	-11.4024
本末差等	-11.4024
本謂天性	-11.4024
正救之	-11.4024
此承上言	-11.4024
每嵗	-11.4024
汎指	-11.4024
法天明	-11.4024
浮僞	-11.4024
溢音逸	-11.4024
為如何	-11.4024
無求數有	-11.4024
無限貴賤	-11.4024
燕族人	-11.4024
物得氣之偏	-11.4024
猶之内事也	-11.4024
當恭謹以奉上也	-11.4024
疑古為偽	-11.4024
百世不祧之宗	-11.4024
百川	-11.4024
皆有此愛敬之心而	-11.4024
祀者似	-11.4024
祊	-11.4024
祭享謂四時及禘	-11.4024
秋大享	-11.4024
精爽	-11.4024
耆老	-11.4024
而敢非之是無	-11.4024
而民莫不承	-11.4024
而繼禰	-11.4024
而遂志	-11.4024
聨	-11.4024
能順民心而行	-11.4024
臂	-11.4024
自武王有	-11.4024
萃萬國之懽心	-11.4024
萬物之靈故	-11.4024
衣食既足	-11.4024
要君非聖非孝之	-11.4024
見因天地敎	-11.4024
言盡愛敬之道然後施教於	-11.4024
詩以證	-11.4024
詬炫	-11.4024
語實更端當以古文為正不愛其親語意	-11.4024
諸父諸兄	-11.4024
象聲氣可樂動作有文言語有章以臨	-11.4024
負劍辟咡	-11.4024
責成人禮	-11.4024
賔及介而衆賔	-11.4024
赳	-11.4024
車輪	-11.4024
邦國有倫	-11.4024
郊祀后稷以配天宗祀文王以配上帝	-11.4024
隱蔽	-11.4024
靜而思道也	-11.4024
風俗通	-11.4024
點	-11.4024
詩小雅隰桑	-11.4025
右傳之五章	-11.4025
司馬公曰	-11.4025
偷得	-11.4025
十四章	-11.4025
采邑	-11.4025
也而敢以孝道	-11.4025
周公成文武之徳追王太王王季	-11.4025
士一命	-11.4025
子曰孝子之䘮親也	-11.4025
孝則是使為人臣子者皆有今将之心而	-11.4025
歠粥	-11.4025
父坤地也故稱	-11.4025
盡故使復位而坐	-11.4025
縷	-11.4025
至即所以為道之要順	-11.4025
首章略	-11.4025
言斯可道行斯可樂	-11.4025
為下而亂	-11.4025
▁争音諍	-11.4025
人之政因人之情	-11.4026
大於尊嚴其父	-11.4026
扶持	-11.4026
羊豕三牲之養	-11.4026
行徳誼	-11.4026
則號泣而	-11.4026
助君行化人皆瞻之也	-11.4026
率行孝道	-11.4026
與平聲爭諍	-11.4026
日加尊嚴	-11.4026
條有三千	-11.4026
臣妾賤	-11.4026
封建	-11.4026
者連上	-11.4026
不可不審也	-11.4026
二則曰	-11.4026
君子之子是使其親	-11.4026
君子也者人之成名也百姓歸之名謂之	-11.4026
故因嚴以敎敬因親以敎愛	-11.4026
樂而後行人必悦也	-11.4026
等而上之	-11.4026
縱	-11.4026
蒲	-11.4026
㨿	-11.4026
上而法之則	-11.4026
不如是不足以	-11.4026
不王不禘	-11.4026
之親子也賢則親之無能則憐之母親而	-11.4026
也舊注以為	-11.4026
人心自有	-11.4026
以今文孝經	-11.4026
以附此而不知其非所以為天下之通訓	-11.4026
使吾下故見為愛焉是以見	-11.4026
其親以下别為一章	-11.4026
分以為六七章	-11.4026
則又當有	-11.4026
則樂遇病則	-11.4026
前章明先王因天地	-11.4026
剕罰之屬五百宫罰之屬三百大辟之罰	-11.4026
勝則離是嚴多而愛	-11.4026
協和	-11.4026
吴澄	-11.4026
地以承	-11.4026
夔夔齋慄	-11.4026
天子至士皆	-11.4026
天惟天為大	-11.4026
妻子家之貴者	-11.4026
子産之言唯易	-11.4026
字古文同在	-11.4026
孝者五常之本百行之	-11.4026
孝親弟兄	-11.4026
家至日見	-11.4026
左右前後	-11.4026
常有以致其敬則敬存而心存	-11.4026
幽暗	-11.4026
復申言聖人教人以孝之故	-11.4026
徳配天地	-11.4026
必有先也	-11.4026
忠君順長	-11.4026
截其鼻	-11.4026
按禮運曰	-11.4026
接吾敵故見為信焉吾盡吾敬以	-11.4026
撫㓜則慈	-11.4026
教之以臣使凡為人	-11.4026
施於兄則	-11.4026
日月山川	-11.4026
旦不幸而	-11.4026
曰吾盡吾敬以事吾上故見為忠	-11.4026
案朱子刋誤	-11.4026
條有三千而罪之大者莫過不孝	-11.4026
植成遂	-11.4026
極言孝之大	-11.4026
此又合始終而言之以結一書之㫖	-11.4026
焉吾盡吾敬以	-11.4026
父之親子也親賢而	-11.4026
父配天之禮	-11.4026
物無以生	-11.4026
犯分而致刑在醜而爭則	-11.4026
生事之以禮死	-11.4026
疏食飲水	-11.4026
祖考之神	-11.4026
簡焉今不能知其為何字也悖禮以	-11.4026
者也未有孝而不	-11.4026
而不親水之於民也親而不尊火尊而不	-11.4026
而善道之	-11.4026
而後知所以為人	-11.4026
舉其大數	-11.4026
舉而委	-11.4026
舉而措之天下	-11.4026
蟻	-11.4026
裂	-11.4026
要道當自	-11.4026
親土之於民也親而不尊天尊而不親	-11.4026
親既長	-11.4026
親而不尊君	-11.4026
親親而仁民仁民	-11.4026
言其細	-11.4026
言富貴常在其身則長爲社稷之	-11.4026
言無大於孝者	-11.4026
言行皆遵法道	-11.4026
詩大雅泂酌之篇	-11.4026
釁而召兵	-11.4026
鑒諦	-11.4026
齋戒沐浴	-11.4026
道教即	-11.4026
以養父母日嚴	-11.4026
不念先	-11.4026
周之三公	-11.4026
性生也言	-11.4026
故能成其徳教而行政令	-11.4026
練祥	-11.4026
之大者也故	-11.4027
此則孝之終	-11.4027
周旋	-11.4027
供養	-11.4027
人得氣	-11.4027
和協而親睦上下	-11.4027
舉無所怨	-11.4027
親故孝為徳之至	-11.4027
身率下	-11.4027
廣要道之義言	-11.4027
滿而不溢則不	-11.4027
聖人者法之所從出也而敢於非	-11.4027
賛美其孝	-11.4027
騁	-11.4027
輔右	-11.4027
於善而皆在於凶徳	-11.4027
二十字	-11.4027
必合規矩則可觀	-11.4027
衾被	-11.4027
欣	-11.4027
艾	-11.4027
服法言	-11.4027
條中	-11.4027
命於祖廟作龜於禰宫尊祖親考之義也	-11.4027
何足以知之	-11.4028
也尊有𤣥酒	-11.4028
乾水溢	-11.4028
其禮益	-11.4028
廣其傳	-11.4028
比户可	-11.4028
遲遲	-11.4028
天寳二年	-11.4028
好事者	-11.4028
宋郉昺疏	-11.4028
組	-11.4028
㒺	-11.4028
之書也書	-11.4028
惡而反人道之正也	-11.4028
王公貴人	-11.4028
王后夫人	-11.4028
王於緝熈敬止	-11.4028
說文曰	-11.4028
赴	-11.4028
身不安美	-11.4028
㳺夏	-11.4028
一人謂天子	-11.4028
二十二章孔安國作傳	-11.4028
人之所惡也	-11.4028
今去其世七百	-11.4028
侯是五等之第二	-11.4028
勢不得	-11.4028
包含	-11.4028
右傳七則	-11.4028
孩幼之時也言親	-11.4028
愛之心生於孩幼比及年長漸識義方則	-11.4028
敦仁不	-11.4028
既畢乃引	-11.4028
日加尊嚴能致敬於父母也	-11.4028
昔僧奝然適宋獻鄭注孝經一本	-11.4028
此章開張一經之宗	-11.4028
神農黄帝	-11.4028
者頗多	-11.4028
而微言絶	-11.4028
肆夏	-11.4028
親猶愛也膝下謂	-11.4028
親結諸心形諸色而術省之	-11.4028
逸者亦不少而孔傳古文孝經全然尚存	-11.4028
上祀四世與	-11.4028
不害理	-11.4028
不忍欺	-11.4028
不自知也	-11.4028
世之音	-11.4028
丙申	-11.4028
之不以文害意焉可也其曰故親生之膝	-11.4028
之尊有親之親	-11.4028
之良心	-11.4028
也宗其繼别子	-11.4028
也敬譲者孝	-11.4028
也膝下謂孩	-11.4028
亂是用	-11.4028
事之以哀戚生	-11.4028
人之修徳	-11.4028
人皆瞻	-11.4028
仁人孝子愛親之心雖	-11.4028
以君為親	-11.4028
以辱其親	-11.4028
公羊傳十一卷	-11.4028
内名自傳於後代	-11.4028
凡若此	-11.4028
列於學官	-11.4028
則哀遇祭則嚴	-11.4028
南嚮	-11.4028
卻	-11.4028
卿大夫遵守禮法不敢僭上偪	-11.4028
可也夫子	-11.4028
右傳之十章	-11.4028
后稷名棄	-11.4028
君之心即	-11.4028
吾取之以敬也吾得之以敬也	-11.4028
四時為柄	-11.4028
在心故不樂也	-11.4028
地之與天不相敵也	-11.4028
壇祭月	-11.4028
士無田則亦	-11.4028
天地之序也	-11.4028
天子下有已下	-11.4028
天無二日土無二王	-11.4028
天父君師	-11.4028
如養致其樂恭敬如居致其	-11.4028
妻之父母	-11.4028
字猶之古文尚書	-11.4028
季武王	-11.4028
宋元以	-11.4028
宛言而	-11.4028
富與貴	-11.4028
小國之臣至卑者耳王	-11.4028
嶽鎮河海	-11.4028
康熙	-11.4028
廟同堂	-11.4028
廣雅曰	-11.4028
影響	-11.4028
彼此相	-11.4028
徐子以告夷	-11.4028
慎行則	-11.4028
懽心而事先	-11.4028
抒	-11.4028
推以配天配上帝	-11.4028
改經之漸	-11.4028
故今文連下二章為一章但下章之首語	-11.4028
敬親而後敬人	-11.4028
斯須不	-11.4028
族故宗廟嚴	-11.4028
旤患	-11.4028
日星為紀	-11.4028
是以四海之內	-11.4028
曰夫禮天之經地之義民之行也天	-11.4028
曰我其	-11.4028
曽子至是	-11.4028
樂闋	-11.4028
歎孝之大	-11.4028
正室守太	-11.4028
死無憾	-11.4028
殊俗而	-11.4028
殿中丞	-11.4028
母生之續莫大焉故親生之膝下諸家	-11.4028
況於五等諸侯是廣敬也	-11.4028
澹	-11.4028
為庶人冠取妻必告死必赴	-11.4028
無以發端	-11.4028
猶水之	-11.4028
理或當何必求人今故特舉六家之異同	-11.4028
疏用廣𤼵揮	-11.4028
移易之	-11.4028
穀梁傳十一卷	-11.4028
節愼行禮法謂之	-11.4028
紛紛	-11.4028
緯書	-11.4028
繼别子之禰	-11.4028
者也繼髙祖	-11.4028
者按禮記内則	-11.4028
者此竝	-11.4028
聲為哭	-11.4028
腒	-11.4028
自天子至于庶人	-11.4028
芝子貞出之	-11.4028
若此而已	-11.4028
萬國舉其多也言行孝道	-11.4028
藏身之固也	-11.4028
親切但與上文不屬而與下章相近	-11.4028
親得安坐而食乎故曰猶為	-11.4028
言是席之	-11.4028
貴信於天下之君	-11.4028
質明而	-11.4028
賵	-11.4028
長則日加	-11.4028
閒字坐字參字	-11.4028
院	-11.4028
雖父母殁	-11.4028
􁏉	-11.4028
氷	-11.4028
不問可否而悉	-11.4028
雖日具牛	-11.4028
葢士之孝	-11.4028
於此廣之故以名章次	-11.4028
以為甘故	-11.4028
敕	-11.4028
名章次三才之後	-11.4028
民不附	-11.4028
為之宗廟以	-11.4028
而耕耘	-11.4028
事天如事	-11.4028
祀無豐于	-11.4028
事兄弟故順可移於長	-11.4029
是知孝者	-11.4029
而語之以	-11.4029
咏	-11.4029
主而人自和平也	-11.4029
參不敏	-11.4029
致慤	-11.4029
嚴肅而成理也	-11.4029
丘陵	-11.4029
注觸地無容	-11.4029
者此孔傳	-11.4029
上三徳於	-11.4029
下同樂音洛	-11.4029
不敢惡慢於天下	-11.4029
不至豈則	-11.4029
不違正道	-11.4029
之時已有親	-11.4029
也注移事至	-11.4029
事鬼神之道	-11.4029
以墨劓	-11.4029
以親為君	-11.4029
凌	-11.4029
口體之奉	-11.4029
古文且附上章或自别為一章可也	-11.4029
右傳之七章	-11.4029
各親其親各長	-11.4029
太皥炎帝黄帝少皥顓頊	-11.4029
夫聖人之徳又	-11.4029
孝之大至于	-11.4029
孝為徳之本	-11.4029
尚接之以禮	-11.4029
平居無事	-11.4029
庻人之孝	-11.4029
徳化無有思而不服	-11.4029
徳者善之	-11.4029
恐其狎恩恃愛而	-11.4029
意亦重複不當通為一章此語當依	-11.4029
拾	-11.4029
搢	-11.4029
故孔子言	-11.4029
教胄子	-11.4029
文王之祭也事死	-11.4029
日不食過三日則傷生	-11.4029
明故曰明堂	-11.4029
有先後非	-11.4029
有始終也	-11.4029
民而無不	-11.4029
法天道之	-11.4029
洞	-11.4029
溫文	-11.4029
無其字	-11.4029
無窮而立經陳紀制禮之節	-11.4029
用廣發揮	-11.4029
移事兄敬以	-11.4029
移理以	-11.4029
累功	-11.4029
而戸到	-11.4029
而言之則爲	-11.4029
而面命之也	-11.4029
聖人非能徧	-11.4029
脂	-11.4029
説卦云	-11.4029
諸侯各脩其職來助祭	-11.4029
迎精而	-11.4029
退動静也不越禮法則可度也	-11.4029
道化人則為天下蒼生之父母也	-11.4029
劭	-11.4029
至於君	-11.4029
之比矣	-11.4029
因其固有而	-11.403
者樂易之君子也	-11.403
則凡爲	-11.403
之徳民愛	-11.403
首章略言揚名之義而	-11.403
蠶	-11.403
人而諭之	-11.403
次天子之貴者諸侯	-11.403
至美之	-11.403
問答之言	-11.403
忠為子而	-11.403
晝	-11.403
有父之尊有母之親	-11.403
教以臣	-11.403
所以為生民立命也	-11.403
修身慎行恐辱親也	-11.403
解佳賣反	-11.403
沐	-11.403
未審而	-11.4031
板	-11.4031
慶賞刑威	-11.4031
譯	-11.4031
隣里	-11.4031
倉	-11.4031
天有五行	-11.4031
府也禮樂	-11.4031
正義曰經云	-11.4031
不見親故哀慼也	-11.4031
小宛	-11.4031
不用樂	-11.4031
之䘮二十五月而畢	-11.4031
出雲為	-11.4031
子門人記錄	-11.4031
存則安其	-11.4031
拆	-11.4031
湛	-11.4031
示好以引之示	-11.4031
等子男	-11.4031
耜	-11.4031
蹙	-11.4031
身以敬親敬親以敬天	-11.4031
不入公門	-11.4031
之精義	-11.4031
人職云	-11.4031
偯聲餘從容也	-11.4031
則接對賓客出聘則	-11.4031
始於事親中於事君	-11.4031
小雅小旻之	-11.4031
有人於此	-11.4031
有闕失	-11.4031
烹	-11.4031
男女之别	-11.4031
者送死	-11.4031
聲不委曲	-11.4031
胷	-11.4031
託諸空	-11.4031
不從生生	-11.4031
不惡而嚴	-11.4031
不敢忘其本	-11.4031
不能事親立身	-11.4031
之何也曰周公	-11.4031
之本教曰孝其行	-11.4031
之者易以	-11.4031
也若繇	-11.4031
亦猶是矣	-11.4031
人以是闋秋嘗之樂	-11.4031
以三仁	-11.4031
以配之也	-11.4031
侍中領左國史	-11.4031
僚友稱其	-11.4031
兄弟親戚稱其慈	-11.4031
公族無宫刑	-11.4031
其所好而民不從是故君子有諸	-11.4031
凡一十八章以相傳授	-11.4031
凰	-11.4031
刑敝	-11.4031
剭	-11.4031
劉知幾主古文	-11.4031
十八章為定	-11.4031
升中于天	-11.4031
友稱其仁	-11.4031
反於君所	-11.4031
口無可擇之	-11.4031
司馬貞主今文	-11.4031
同而化	-11.4031
君子有終身之	-11.4031
吾之一身父母生之本同體也	-11.4031
哀親之在	-11.4031
國人稱願然曰幸哉有子如此	-11.4031
土地之厚	-11.4031
夕奠	-11.4031
奉其職	-11.4031
威猛而	-11.4031
子孫封	-11.4031
子曰武王周公	-11.4031
存殁頓異	-11.4031
宗其繼髙	-11.4031
嵗三田	-11.4031
帥天下以暴而民從之其所令反	-11.4031
平章百姓	-11.4031
徳義以	-11.4031
心常存	-11.4031
必得吉而安厝之	-11.4031
必有婉容	-11.4031
必求諸	-11.4031
愉色有愉色	-11.4031
愛一人焉	-11.4031
愛親而後愛	-11.4031
懽恱	-11.4031
或賜之	-11.4031
拓	-11.4031
按説文云	-11.4031
故又假曽子之問	-11.4031
春秋祭祀以寓時思	-11.4031
智之性	-11.4031
有天刑	-11.4031
有甚於	-11.4031
服喪者	-11.4031
本立則道生	-11.4031
束民性而法	-11.4031
楊氏	-11.4031
樂盈而	-11.4031
樂者天地之和也	-11.4031
止乎禮義	-11.4031
此名而孝經	-11.4031
殷事則歸	-11.4031
泰壇泰折	-11.4031
洫	-11.4031
無以哀死而	-11.4031
無日暫忘也	-11.4031
無賢愚	-11.4031
父在不杖	-11.4031
疏食水飲	-11.4031
疑丞	-11.4031
登餕	-11.4031
矣故以喪	-11.4031
祖者五世則遷	-11.4031
祖而五	-11.4031
禘祫	-11.4031
移忠移	-11.4031
筋力	-11.4031
粢盛夫人蠶	-11.4031
練而祔	-11.4031
義取君以樂	-11.4031
者莫不恱矣以此之敬而敬人之	-11.4031
者莫善於	-11.4031
耻有其	-11.4031
聖人之徳無以加於孝故曰至徳	-11.4031
腎	-11.4031
蒙患	-11.4031
蕪	-11.4031
見於門人	-11.4031
言必守法	-11.4031
詩大雅蒸民	-11.4031
謂然友	-11.4031
貎也尹氏爲太師周之三公也	-11.4031
貪榮	-11.4031
賊姦軌	-11.4031
足以勝之	-11.4031
踰越	-11.4031
輕財	-11.4031
逓	-11.4031
遡	-11.4031
醴清醩	-11.4031
銷	-11.4031
隐	-11.4031
隮	-11.4031
雲雷雨	-11.4031
順其性	-11.4031
饋奠之事	-11.4031
高陵亭	-11.4031
齊宣王	-11.4031
暗	-11.4031
姻	-11.4031
故以名章次廣	-11.4031
則九族	-11.4031
辜較之辭	-11.4031
酳	-11.4031
夫音扶行下孟反	-11.4031
無有大於此者	-11.4031
無終始則	-11.4031
月而畢	-11.4031
此言宗祀	-11.4031
不安美	-11.4031
以示民有終極	-11.4032
要平聲	-11.4032
陷于不	-11.4032
黍	-11.4032
之棺以周衣	-11.4032
也陳其簠簋奠以素	-11.4032
以周棺衣衾以周身然	-11.4032
古之聖賢	-11.4032
愉色	-11.4032
誼焉言	-11.4032
嚴肅自然成	-11.4032
常須戒愼	-11.4032
廣雅云	-11.4032
曲折之	-11.4032
注不悖德禮也	-11.4032
大此略言之	-11.4032
字今文作	-11.4032
曰君子之敎以孝也非家至而日見之也	-11.4032
略也孝道廣	-11.4032
皇尸	-11.4032
築	-11.4032
事天地能明察則	-11.4032
交接	-11.4032
以鬼而禮享之及其	-11.4032
則傷痛而哀戚之其祖	-11.4032
品秩	-11.4032
天子有爭臣七人雖無道不失其天下	-11.4032
家必有制也則	-11.4032
寒暑變遷益用増感	-11.4032
所同具	-11.4032
施得其要而已	-11.4032
旨趣	-11.4032
明王以孝治天下	-11.4032
若是者何也	-11.4032
親者無所不至而莫	-11.4032
言事父兼	-11.4032
辯	-11.4032
追逺之禮也	-11.4032
餞也女擗男踊號哭涕泣	-11.4032
乖離	-11.4032
參於天地	-11.4032
口為言其言也	-11.4032
君子所居則化故可移於	-11.4032
命臯陶	-11.4032
喪亾	-11.4032
如事生	-11.4032
帯	-11.4032
文武之功	-11.4032
文王之詩也	-11.4032
有懐二人	-11.4032
有深愛者必有和氣	-11.4032
正皆放此	-11.4032
注上謂君也	-11.4032
禮主敬	-11.4032
窮理之至	-11.4032
而此獨舉	-11.4032
良知良能	-11.4032
辨地利	-11.4032
道徳仁義	-11.4032
操七	-11.4032
子因問而	-11.4033
此誼也	-11.4033
愛母同	-11.4033
所不甘	-11.4033
申上文	-11.4033
種	-11.4033
耗	-11.4033
刑之屬三千	-11.4033
則悲哀而	-11.4033
庶人章凡五章	-11.4033
婢亦反	-11.4033
蓋士之孝也	-11.4033
子曰天地之性人為貴	-11.4033
所以為孝之始	-11.4034
走	-11.4034
駿	-11.4034
儼	-11.4034
子履之必有怵惕之心如將見之	-11.4034
愴之心非其寒之謂也	-11.4034
禮樂崩	-11.4034
為教本	-11.4034
疇	-11.4034
相親之至也	-11.4034
筆則筆削則削	-11.4034
筆削	-11.4034
行仁之本也	-11.4034
許慎説文所引孝經	-11.4034
迭	-11.4034
樂正子春	-11.4034
作敬讓而不爭矣	-11.4034
天下之至順	-11.4034
弓矢	-11.4034
義利之本也	-11.4034
詩書義之	-11.4034
飲酒義云先禮而後財則民	-11.4034
何異之有	-11.4034
則存安其榮	-11.4034
十八章文字多誤	-11.4034
孝子之疏節也	-11.4034
式路馬	-11.4034
徒協反	-11.4034
心則存安其榮沒享其祭	-11.4034
振風紀	-11.4034
揣	-11.4034
曽晳	-11.4034
此物此志也	-11.4034
畢次明	-11.4034
皇矣之	-11.4034
臨深不苟訾不苟笑不	-11.4034
誠慤	-11.4034
載色載笑匪怒伊教	-11.4034
不必言配	-11.4034
且夫子談經志取垂訓	-11.4034
之師惟其克相上帝	-11.4034
乎成名	-11.4034
事母之愛	-11.4034
二典之	-11.4034
亡于中夏	-11.4034
作之君作	-11.4034
凟	-11.4034
動止舉措	-11.4034
吾道一	-11.4034
咳	-11.4034
唐𤣥宗皇帝	-11.4034
單襄公	-11.4034
噍	-11.4034
士之孝當如是也	-11.4034
壹不知夫	-11.4034
夏殷之禮	-11.4034
天子之志也	-11.4034
婣	-11.4034
子嬰二年春正月項羽尊楚	-11.4034
字孔才廣平	-11.4034
存於中則	-11.4034
安國之本亡	-11.4034
家道正	-11.4034
帝羽自立爲西楚霸王更立沛公爲漢王	-11.4034
従有服	-11.4034
悼公	-11.4034
抑搔癢痛懸衾篋枕以教愛也	-11.4034
斬哀	-11.4034
於東月生於西	-11.4034
是天地之經義也	-11.4034
曽子曰敢問聖人之徳	-11.4034
有事弟子服其勞有酒食先生饌	-11.4034
有所勸	-11.4034
民平好	-11.4034
源流	-11.4034
無日非	-11.4034
狥	-11.4034
異姓之廟	-11.4034
相摩	-11.4034
纔	-11.4034
而論則	-11.4034
誇	-11.4034
說文云古文孝經	-11.4034
足徴	-11.4034
身見愛敬	-11.4034
送形而往	-11.4034
逆不行	-11.4034
道既行則	-11.4034
醮	-11.4034
開元七年	-11.4034
關内侯	-11.4034
隂陽日星	-11.4034
雖五孝之用則别而百行之源不殊	-11.4034
養口體	-11.4034
鹽梅之	-11.4034
齒胄養老	-11.4034
㓕性此聖人之政	-11.4034
不衰子	-11.4034
之徳切	-11.4034
之才與	-11.4034
事之均	-11.4034
人倫正性	-11.4034
伯仲	-11.4034
充裕	-11.4034
免於患	-11.4034
六府	-11.4034
再飯	-11.4034
冠婚	-11.4034
則天子不能保	-11.4034
則無以見	-11.4034
取于事父之行	-11.4034
史為書瞽	-11.4034
名為宗	-11.4034
大學經文	-11.4034
如見親	-11.4034
孺子慕	-11.4034
宗人授事以	-11.4034
小異然	-11.4034
尚書同出	-11.4034
州閭鄉黨	-11.4034
已徹而退	-11.4034
帛妙子	-11.4034
庶姓	-11.4034
庶民安	-11.4034
張燧	-11.4034
患爲禍	-11.4034
憂將及親	-11.4034
摧	-11.4034
據此而言	-11.4034
故哭泣	-11.4034
敘述	-11.4034
教忠教順	-11.4034
敬宗敬	-11.4034
敬齊之色	-11.4034
有不先命於	-11.4034
有河間人顔貞出其父芝所藏	-11.4034
朋友之交	-11.4034
父敬兄敬君之心	-11.4034
留	-11.4034
祫禘	-11.4034
笞五百	-11.4034
縗	-11.4034
而待加之	-11.4034
自父兄始	-11.4034
與共戴天	-11.4034
著書立	-11.4034
言入則望	-11.4034
言官師相䂓工執藝事	-11.4034
諫大夫䂓誨士傳	-11.4034
負薪之	-11.4034
趾	-11.4034
載光書	-11.4034
迪	-11.4034
酏	-11.4034
閭巷	-11.4034
雷霆	-11.4034
館	-11.4034
臨淵恐墜履	-11.4034
之親又為我之君而臨乎	-11.4034
仭	-11.4034
俯仰	-11.4034
爭導之以禮樂而民和睦	-11.4035
親之死而	-11.4035
有驕亂忿	-11.4035
無有窮	-11.4035
義宜也	-11.4035
皮	-11.4035
續莫大焉	-11.4035
神有所依	-11.4035
綴	-11.4035
故親生之膝下	-11.4035
身體髪膚	-11.4035
粕	-11.4035
各率其	-11.4035
懐保小民恵鮮	-11.4035
安沒享人用	-11.4035
明項霦撰	-11.4035
書呂刑也一人天	-11.4035
爲先揚名爲後	-11.4035
諄	-11.4035
也制節制財用之節謹度	-11.4035
以僣侈費財而致	-11.4035
以后稷配郊	-11.4035
以理天下皆得懽心則各以其職	-11.4035
其生存	-11.4035
尊崇作	-11.4035
廟一昭	-11.4035
後舉而斂之	-11.4035
服非法	-11.4035
正義曰此章首	-11.4035
禽所以善成王也	-11.4035
詩之大意	-11.4035
辱先祖而毁盛業也	-11.4035
鄭注論語云	-11.4035
附㑹	-11.4035
不及車馬	-11.4036
事父孝故能事	-11.4036
修持其身謹慎其行	-11.4036
冬至祀天于	-11.4036
化人是	-11.4036
十一年	-11.4036
妄増	-11.4036
孟子曰舜	-11.4036
宗皇帝	-11.4036
帝以文王配	-11.4036
廣要道章第十二子曰	-11.4036
接續	-11.4036
揚名於後世以顯	-11.4036
方圜	-11.4036
於君則爲忠矣	-11.4036
曲直	-11.4036
根於性也	-11.4036
欲民親愛	-11.4036
正義曰夫子前	-11.4036
正義曰此依韋注也	-11.4036
治民則	-11.4036
無不恱矣敬人之	-11.4036
稱子曰者	-11.4036
聖人制作禮	-11.4036
親愛之心生於	-11.4036
上治民	-11.4036
寅	-11.4036
也未有孝	-11.4036
三年喪畢遷主	-11.4036
能守其	-11.4036
能守法	-11.4036
見因天地	-11.4036
則使人執	-11.4036
所已言	-11.4036
禮記閒傳	-11.4037
漏	-11.4037
雨露既濡君	-11.4037
霜露既降君子履之必有悽	-11.4037
故曰仲	-11.4037
立愛惟親	-11.4037
不令至於	-11.4037
人上者奈	-11.4037
可聚也故	-11.4037
曲禮曰毋不敬	-11.4037
者敎之以	-11.4037
豚	-11.4037
則人畏	-11.4037
千五百	-11.4037
懃	-11.4037
戴記云孔子閒居曾子侍並無坐字此經	-11.4037
趙衰薦郤縠云	-11.4037
不言而信	-11.4037
信而好古	-11.4037
出必告反必	-11.4037
已多矣	-11.4037
庿	-11.4037
式榖	-11.4037
服闇不登危	-11.4037
未為不道也	-11.4037
本顯明五	-11.4037
無聲視	-11.4037
祀非禮與曰	-11.4037
茅	-11.4037
藝黍稷	-11.4037
上敬下懽存	-11.4037
之父之所	-11.4037
乎曰未之有也	-11.4037
也而非之	-11.4037
二先生	-11.4037
以日易月	-11.4037
仲尼孔子字居謂閒居	-11.4037
僨	-11.4037
凍	-11.4037
分注錯	-11.4037
刻其顙	-11.4037
北鄉	-11.4037
參直養者也安能	-11.4037
及魯共王壞孔子宅	-11.4037
古文孝經二十二章	-11.4037
咸陽	-11.4037
因敘其得喪講于人間	-11.4037
埋	-11.4037
子與曰殷	-11.4037
尊無二上	-11.4037
悖慢之	-11.4037
於日三分	-11.4037
書監王邵訪得孔傳	-11.4037
曾子曰君子之孝也	-11.4037
未之聞	-11.4037
此為大焉	-11.4037
炎	-11.4037
皆得其懽心	-11.4037
竹牒	-11.4037
管籥	-11.4037
考叔	-11.4037
職方	-11.4037
腆	-11.4037
臣子及天下之通孝以終焉	-11.4037
致愛則存致慤則著著存不忘乎心	-11.4037
複	-11.4037
訾議	-11.4037
道心純一	-11.4037
雲雷風雨	-11.4037
鼓舞	-11.4037
一本之說	-11.4037
三宫夫人世婦之吉者	-11.4037
不敢忘父母	-11.4037
之任也古者	-11.4037
之心以及人也夫是之謂順	-11.4037
乎曰移而	-11.4037
九州之外	-11.4037
二衾	-11.4037
五方上帝	-11.4037
以光祖考	-11.4037
以樂享老幼	-11.4037
以樂祀	-11.4037
儒官連狀題其章名	-11.4037
儒說經以	-11.4037
内和理	-11.4037
加於父兄	-11.4037
去王城	-11.4037
古文則云	-11.4037
四海四海之内	-11.4037
在蒙幼	-11.4037
垢	-11.4037
垢和灰請	-11.4037
孝子亦為之	-11.4037
孝治聖治	-11.4037
小孝用力	-11.4037
差殊	-11.4037
庶子庶	-11.4037
惟人為貴	-11.4037
所以逺亂	-11.4037
扶而起	-11.4037
按内則云	-11.4037
援神契自天子至庶人	-11.4037
敬其為君父之道	-11.4037
有是四	-11.4037
服以要利禄	-11.4037
杖而起	-11.4037
治其心氣	-11.4037
泰伯虞仲	-11.4037
滛	-11.4037
漢書藝文志云	-11.4037
火餘	-11.4037
燂湯請	-11.4037
父子君臣夫婦	-11.4037
王不敢祧	-11.4037
發源	-11.4037
皆奪之	-11.4037
禮減而	-11.4037
稱其信	-11.4037
章陳愛敬	-11.4037
繭	-11.4037
繼髙祖者也然則	-11.4037
者也常立於	-11.4037
者此依孔傳也案	-11.4037
者無主不	-11.4037
而不見親	-11.4037
聖人之道息	-11.4037
聖人順羣心以行愛	-11.4037
能行其道	-11.4037
葢言學也	-11.4037
行非徳	-11.4037
衣服不備不敢以祭	-11.4037
覃	-11.4037
言謂禮法之言徳行謂道徳之行	-11.4037
誠以成	-11.4037
道逹矣	-11.4037
鄰哉	-11.4037
長而順	-11.4037
難安可能也	-11.4037
非有二也	-11.4037
馨	-11.4037
傚	-11.4038
則人起心而行之	-11.4038
以善道	-11.4038
四嶽	-11.4038
皆化而	-11.4038
盡其歡樂	-11.4038
而民莫不	-11.4038
詩云此大雅	-11.4038
陸澄	-11.4038
以兵刃相加	-11.4038
尊也廟	-11.4038
至尊無	-11.4038
諸父所	-11.4038
孝經注疏卷三	-11.4039
生育	-11.4039
則享其祭	-11.4039
昭彰	-11.4039
孝之義理故	-11.4039
惟天子受命於天	-11.4039
傳顧未敢耳	-11.4039
小國之臣且不	-11.4039
昔者周公攝政踐阼而治抗世子法於伯	-11.4039
映	-11.4039
法則而象效之故	-11.4039
不愛敬其親而先	-11.4039
以事君則敬	-11.4039
升公朝離親入仕	-11.4039
君子有此	-11.4039
承歡	-11.4039
敬之教故出以就傅趨而過庭以教	-11.4039
斟	-11.4039
曰士者事也	-11.4039
有之舜	-11.4039
有六焉	-11.4039
本謂孝也	-11.4039
此一節夫子	-11.4039
此聖人所以	-11.4039
治道成	-11.4039
無自而生焉	-11.4039
章畫於	-11.4039
者則首章	-11.4039
聖人因其親嚴之心敦以愛	-11.4039
致其恭敬	-11.4039
蒼蒼然	-11.4039
身之所行	-11.4039
配於天地矣	-11.4039
是以普天之下和睦太平	-11.4039
剕罰之屬五百宫罰之屬三百大	-11.4039
追遠	-11.4039
孝經注疏卷七	-11.404
山澤	-11.404
奔走	-11.404
不可斯須	-11.404
有差等	-11.404
父母之喪居倚廬	-11.404
儐	-11.404
多鄙俚不經	-11.404
子𤣥辨鄭	-11.404
有十謬七惑司馬堅斥孔	-11.404
天下人行	-11.404
子曰舜其大孝也與徳為聖人	-11.404
尊為天子富有四海之内宗廟	-11.404
慨焉	-11.404
仲尼燕居	-11.404
兆卦也字書皆作垗廣韻云垗葬也	-11.404
居即坐也與上句義重禮小戴	-11.404
康誥曰	-11.404
族黨	-11.404
礿禘嘗烝	-11.404
與彼所記當為一例	-11.404
記云仲尼燕居子張子	-11.404
下擇行行滿	-11.404
也然則明堂之	-11.404
兆域	-11.404
大利之	-11.404
府學	-11.404
德行之行下孟反注	-11.404
慎始而	-11.404
毁謂虧辱傷謂	-11.404
而不倦	-11.404
聖人之所貴也	-11.404
苴杖	-11.404
要之道以順	-11.404
以觀風	-11.404
則諸侯以下	-11.404
厥後今文	-11.404
因而不改	-11.404
字𢎞	-11.404
廣至徳之義	-11.404
復次第申	-11.404
成政令以	-11.404
按文王世	-11.404
河間劉炫為之	-11.404
犬豕	-11.404
生愛敬愛	-11.404
畎畆	-11.404
維仲山甫舉之	-11.404
自然名揚後世光顯其親故行	-11.404
三者無虧然後	-11.404
不以其道得之不	-11.404
不敢以貴富	-11.404
中國書	-11.404
之執喪也	-11.404
也嚴植之曰	-11.404
事物當然之理	-11.404
于是乎	-11.404
于門外	-11.404
今文之註	-11.404
以上嗣	-11.404
任事之稱也	-11.404
佐車	-11.404
保赤子	-11.404
其往送也	-11.404
劉向校經籍比量二	-11.404
又弗見也	-11.404
受大禄	-11.404
可不重	-11.404
可使為亂	-11.404
問孝子曰	-11.404
嘘	-11.404
國子博士	-11.404
壻	-11.404
大學士蔣赫徳恭纂	-11.404
大小殊	-11.404
天下則以有	-11.404
天子親耕粢盛	-11.404
夫亦其子	-11.404
子之始存於	-11.404
孝子仁人之	-11.404
定而不列名	-11.404
川澤	-11.404
廟堂之	-11.404
性可滅	-11.404
愛敬生愛敬	-11.404
慎始敬終	-11.404
成婦禮	-11.404
推以愛敬他人	-11.404
敬制禮則以施政教亦不待	-11.404
於天下之民	-11.404
是卽我之所以敬天下之爲人	-11.404
曰事君三違而不出竟則利禄也	-11.404
曰顯考廟曰祖考廟皆月祭之逺廟為祧	-11.404
有四焉	-11.404
本除其煩惑以十八章	-11.404
檢討	-11.404
正義曰自此至	-11.404
氏尊學	-11.404
泊	-11.404
漢宋之	-11.404
無以加尚之	-11.404
王立七廟	-11.404
班氏	-11.404
琰圭	-11.404
甚愛之	-11.404
發越揮	-11.404
相因而	-11.404
祧享嘗乃止	-11.404
私門	-11.404
紘躬秉耒	-11.404
羶	-11.404
考廟享嘗乃止	-11.404
而後得於	-11.404
聖人制刑	-11.404
膾	-11.404
自阼階	-11.404
芮	-11.404
苛	-11.404
萬世師	-11.404
萬物本乎天人本乎祖	-11.404
著録是	-11.404
言行皆滿於天下	-11.404
説不通	-11.404
贏	-11.404
足以動衆	-11.404
迨及	-11.404
通稱也	-11.404
邇臣守和	-11.404
闗雎	-11.404
限高卑	-11.404
雖曰不要君	-11.404
慶善也	-11.404
地之常經而	-11.4041
▁相息亮反	-11.4041
琬圭	-11.4041
無方之	-11.4041
為人子孫	-11.4041
為徳本	-11.4041
舉其大而言	-11.4042
不敢侮於鰥寡	-11.4042
則為忠矣	-11.4042
也無不知敬其兄	-11.4042
人亦愛	-11.4042
感應章	-11.4042
至悦也	-11.4042
卯	-11.4042
大學傳曰	-11.4042
天有常明地有	-11.4042
常利言人法則	-11.4042
文王色憂行不能正履	-11.4042
云熹	-11.4042
五行之秀氣	-11.4042
人有善	-11.4042
則在于	-11.4042
劓罰之屬千	-11.4042
吕刑云墨罰之屬千	-11.4042
周公因祀五方上帝於明堂乃	-11.4042
因其日嚴	-11.4042
朔月	-11.4042
節操	-11.4042
聲樂音洛	-11.4042
七章申言	-11.4042
事於長則爲順矣	-11.4042
人是心也	-11.4042
徳主愛	-11.4042
成形于	-11.4042
明𤼵不	-11.4042
通於貴賤	-11.4042
教民無以	-11.4042
歆	-11.4042
幾諫	-11.4042
蠻	-11.4042
圭	-11.4043
無法人莫不有	-11.4043
勉强	-11.4043
辟之罰其屬二百五	-11.4043
下逹則	-11.4043
母之親	-11.4043
盈溢	-11.4043
不聽則號泣而隨之	-11.4043
喪不過三年	-11.4043
云分别五土視其高下	-11.4043
民猶以為	-11.4043
雩	-11.4043
永言孝思昭哉嗣服	-11.4043
影	-11.4043
方始發	-11.4043
殺草木	-11.4043
猛	-11.4043
者男子之	-11.4043
致樂病	-11.4043
之子孫保之故	-11.4043
何幸	-11.4043
商祝	-11.4043
必得其位必得其禄必得其名必得其夀	-11.4043
簡編	-11.4043
翟	-11.4043
而能如此乎	-11.4043
聲舉措進退之禮	-11.4043
萬乗之	-11.4043
五世而	-11.4043
以孝爲理	-11.4043
卜其宅兆	-11.4043
報反惡如字又	-11.4043
好如字又呼	-11.4043
學生王逸於	-11.4043
日者父也	-11.4043
曰禘嘗之義大矣	-11.4043
絃歌	-11.4043
装綴以為孔子	-11.4043
郊特牲曰	-11.4043
之俾君之	-11.4043
他邦	-11.4043
俗儒	-11.4043
刑政之	-11.4043
升堂	-11.4043
反於本	-11.4043
為民父母	-11.4043
祖言能備此三者則能長守宗廟之祀	-11.4043
神祗	-11.4043
經之㫖趣	-11.4043
者服言行也禮卿大夫立三廟以奉先	-11.4043
鋪	-11.4043
上有好	-11.4043
下必有甚	-11.4043
不出於此	-11.4043
也王者繼	-11.4043
倚廬	-11.4043
八比	-11.4043
唐元宗	-11.4043
左丘	-11.4043
故不殺牛大夫無故不殺羊士無故不殺	-11.4043
柏	-11.4043
王季日三	-11.4043
痛疾	-11.4043
籥	-11.4043
者釋詁文云	-11.4043
身無可擇之行	-11.4043
非君子之得已	-11.4043
餓	-11.4043
一念之	-11.4043
一餐而病脱然	-11.4043
不敬不敬	-11.4043
不至變	-11.4043
之大端也所以	-11.4043
之子也可	-11.4043
也嗟乎	-11.4043
人以孝非	-11.4043
仕魏歴	-11.4043
傳於世	-11.4043
先王之道徳	-11.4043
兢兢戒慎	-11.4043
列國皆有社稷其君主而祭之	-11.4043
初除挾書之律	-11.4043
句上有子曰二字	-11.4043
君皮弁素積	-11.4043
四隅	-11.4043
墳墓	-11.4043
夕月	-11.4043
大夫士去國	-11.4043
夫禮必本於	-11.4043
子弟之天	-11.4043
孝之大者也	-11.4043
孫卿子	-11.4043
寓祭器於	-11.4043
尊仁安義	-11.4043
帝謂東方青帝靈威仰	-11.4043
常其德	-11.4043
廢鄭於	-11.4043
思可樂而後行	-11.4043
成王既崩康王	-11.4043
所居之	-11.4043
敬肆	-11.4043
於門外	-11.4043
日人實反	-11.4043
昭帝時	-11.4043
曰柰何去	-11.4043
有所不受於	-11.4043
有貴者以齒	-11.4043
未有諫諍之禮	-11.4043
根牟子	-11.4043
父子有親	-11.4043
父父不	-11.4043
狀曰周禮禮記毛詩尚書公羊左傳孝	-11.4043
畏聖人之	-11.4043
祈農	-11.4043
祖以配天	-11.4043
神侑坐而食	-11.4043
神明之功	-11.4043
禮記問喪云	-11.4043
粹	-11.4043
經論語孔鄭王何服杜等	-11.4043
羽自立	-11.4043
者其弊	-11.4043
自以為無罪	-11.4043
自是天子不	-11.4043
舉孝悌以為教則天下之	-11.4043
舉臣道以為教則天下之為人臣	-11.4043
請業則起	-11.4043
賔升	-11.4043
蹴	-11.4043
迫父	-11.4043
達天道順人情	-11.4043
闥	-11.4043
鞶	-11.4043
食夫稻衣夫錦於	-11.4043
極其悌矣以	-11.4044
干犯	-11.4044
之經地	-11.4044
各得懽心	-11.4044
皆放此	-11.4044
期驕	-11.4044
弗之忘	-11.4044
遭秦	-11.4045
晳	-11.4045
注博愛也	-11.4045
以不孝為	-11.4045
去邪	-11.4045
朽	-11.4045
皇侃以爲	-11.4045
而天下定矣	-11.4045
語更端	-11.4045
壯	-11.4045
測	-11.4045
無有遺其親者	-11.4045
縁	-11.4045
者無他	-11.4045
而無遺矣	-11.4045
人子能事	-11.4045
盡其憂	-11.4045
依王肅	-11.4045
克予非朕文考有罪惟予小子無良	-11.4045
到户至日見而語之但行孝於内其化自	-11.4045
居䘮之	-11.4045
建萬	-11.4045
愛之况	-11.4045
教不必家	-11.4045
敬身之謂也敬	-11.4045
朕文考無罪	-11.4045
為宜故曰義	-11.4045
社稷民人	-11.4045
移事父孝以事	-11.4045
立身之本	-11.4045
繇禮謂之	-11.4045
誓曰予克	-11.4045
陳亢	-11.4045
非予武惟	-11.4045
馬牛	-11.4045
諫見志	-11.4046
申覆	-11.4046
嬰	-11.4046
詳悉	-11.4046
太保	-11.4046
愛吾父母	-11.4046
道化天下	-11.4046
彈	-11.4046
兄是也智之實知	-11.4046
之效如此	-11.4046
切實	-11.4046
可陳也	-11.4046
形於外	-11.4046
賈生之	-11.4046
逝	-11.4046
陵遲	-11.4046
中祕書	-11.4046
六藝論	-11.4046
唐明皇時	-11.4046
愛者仁	-11.4046
日躋	-11.4046
有不順者	-11.4046
治世之要	-11.4046
無有遺忘其親者	-11.4046
祫祭	-11.4046
與其所以則之因之之實然後	-11.4046
釋言云	-11.4046
陳人處	-11.4046
陳天明地性之目	-11.4046
下能言	-11.4047
也此言鬼神	-11.4047
搔	-11.4047
既歾	-11.4047
有所託	-11.4047
猶此志也	-11.4047
異者祇	-11.4047
社稷大夫言守	-11.4047
筭	-11.4047
自然之理也	-11.4047
三辰	-11.4047
修齊治平之	-11.4047
則知貴賤	-11.4047
各視其	-11.4047
然後能事親	-11.4047
父母有過下氣怡色柔聲	-11.4047
謡	-11.4047
青帝	-11.4047
㢲	-11.4047
不敢有其身	-11.4047
之孝者是謂能養	-11.4047
也故夫所	-11.4047
也然而聖人	-11.4047
云親猶愛也	-11.4047
五者先王之所以	-11.4047
以飬父母日嚴	-11.4047
仲由	-11.4047
其至要	-11.4047
凡十三家雖義有精粗	-11.4047
則不得曰	-11.4047
則必有取之也	-11.4047
則曷為必	-11.4047
取精於	-11.4047
可謂髙矣	-11.4047
史佚	-11.4047
喪不慮居	-11.4047
嚳於圜丘	-11.4047
在正席之	-11.4047
堪講授	-11.4047
大夫於君所則輯杖	-11.4047
孔鄭二家	-11.4047
孝矣乎	-11.4047
學者所當	-11.4047
察司	-11.4047
射鄉	-11.4047
屏人而	-11.4047
年教之數	-11.4047
教被於	-11.4047
敬敷五	-11.4047
明王諸侯大夫	-11.4047
曰假以溢我我其	-11.4047
曾子之自救	-11.4047
服飾言行須遵禮典非	-11.4047
毁不危身	-11.4047
注將行	-11.4047
注就養能致其懽	-11.4047
然揆	-11.4047
狄	-11.4047
瑞節也	-11.4047
畫圓口誦目數	-11.4047
祖主日	-11.4047
肺	-11.4047
舞象	-11.4047
虞帝之	-11.4047
言合祀	-11.4047
請所與問有	-11.4047
譬	-11.4047
起起者起	-11.4047
足以及物而	-11.4047
跳行	-11.4047
邢昺等	-11.4047
除慝	-11.4047
随陽而	-11.4047
麛	-11.4047
黒	-11.4047
祖奠於	-11.4047
理於家	-11.4047
贖刑	-11.4047
之彰見	-11.4047
之當先	-11.4047
危懼	-11.4047
墨罰	-11.4047
三日不食	-11.4047
三日不怠三月不解期悲哀	-11.4048
弗去是也禮之實節文斯二者樂之實樂	-11.4048
曰仁之實事親是也義之實	-11.4048
秫唯所欲棗	-11.4048
春夏秋冬	-11.4048
豎	-11.4048
釋經之	-11.4048
善則稱君過則稱	-11.4048
孝子之情無	-11.4048
放諸	-11.4048
繇而生	-11.4048
以忠順事	-11.4048
也上言神明	-11.4048
也注言能至	-11.4048
揚於後代	-11.4048
有愛心	-11.4048
而知所	-11.4048
不愛其親而愛他人者謂之悖	-11.4048
河間劉炫	-11.4049
謙辭	-11.4049
門之外	-11.4049
人所共由	-11.4049
肅戒	-11.4049
邢	-11.4049
耤	-11.4049
上則當莊敬以臨	-11.4049
寛而不	-11.4049
諦	-11.405
人心今則自	-11.405
之舞之足之蹈之	-11.405
惡可已則不知手	-11.405
文矣文	-11.405
斯二者樂則生矣生則惡可已	-11.405
菽麥蕡稻黍	-11.405
栗飴蜜以甘之	-11.405
四月己丑	-11.405
下而不可驕矜	-11.405
不肅而成不嚴而治	-11.405
是數者	-11.405
有主行	-11.405
遥	-11.405
鄭注周禮司	-11.405
皆質也	-11.405
視膳	-11.405
詩書禮樂之	-11.405
隋開皇	-11.405
族兄	-11.405
若必如此而	-11.405
不節則	-11.405
依違	-11.405
先王之道莫大於孝仲尼之教莫先於孝	-11.405
光榮其父母	-11.405
八章申言	-11.405
嘉謀嘉猷	-11.405
大報本反始也	-11.405
太甲	-11.405
庶人爲孝	-11.405
建寅	-11.405
念痛	-11.405
所以交於神明者不可同於安	-11.405
接於人	-11.405
故文王者得大舜之志	-11.405
教流行莫不服	-11.405
文之弊	-11.405
時博士	-11.405
有名字	-11.405
猶且敬之	-11.405
王曽孫	-11.405
畫方右	-11.405
矣乾隆四十六年十	-11.405
繫於	-11.405
而不敢違	-11.405
至諴	-11.405
若依鄭	-11.405
莫嚴於	-11.405
言作注之體	-11.405
記諸篇	-11.405
貴有徳貴貴貴老敬長	-11.405
達於面目	-11.405
開創	-11.405
一段	-11.405
一衣而病脱然	-11.405
不掩羣	-11.405
不行愛敬	-11.405
主人筵几於廟	-11.405
争競	-11.405
二雅	-11.405
則去杖	-11.405
動於内	-11.405
吾何慎哉	-11.405
天下既有	-11.405
夫婦有義	-11.405
孟仲子	-11.405
弁絰帶	-11.405
敗君事者	-11.405
敬慎重正	-11.405
昔者天子諸侯必有	-11.405
濟其志	-11.405
瑕	-11.405
田祿者	-11.405
知其所由成	-11.405
答之則	-11.405
糟粕	-11.405
遷祖	-11.405
靁	-11.405
頟	-11.405
爵祿	-11.405
教之以弟	-11.405
之壇壝	-11.405
則嚴威	-11.405
嚴尊也	-11.405
乃所以事其先	-11.405
敬君同	-11.405
自以為無	-11.4051
聲譽	-11.4051
上誼也	-11.4051
饘酏酒醴芼	-11.4051
養死則	-11.4051
君有過惡則正而止之	-11.4051
愛敬親死則	-11.4051
其事天也	-11.4051
服其教	-11.4051
萬一有	-11.4051
逼	-11.4051
不得不及	-11.4051
力故云不敢失也	-11.4051
是聖言	-11.4051
為善之美	-11.4051
謹畏	-11.4051
三日之後	-11.4051
上農夫	-11.4051
之者至矣	-11.4051
皇侃以為	-11.4051
者之孝而	-11.4051
高者必	-11.4051
公侯伯子	-11.4052
服衣之	-11.4052
諸侯有善	-11.4052
言為臣子	-11.4053
宜黍稷下	-11.4053
二十六年	-11.4053
以修内	-11.4053
松	-11.4053
注廣敬也	-11.4053
肅肅	-11.4053
也然且君子	-11.4053
仁人孝子之志也	-11.4053
可笑	-11.4053
是聖賢之	-11.4053
睦以致太平則災害禍亂無因而起	-11.4053
主而祭	-11.4053
之於父也	-11.4053
乖謬	-11.4053
武帝末	-11.4053
注匡正也救止也	-11.4053
男子治外	-11.4053
錯簡	-11.4053
吉甫	-11.4053
本立而後	-11.4053
詩曰成王	-11.4053
鳯	-11.4053
則逺於先人之	-11.4053
呉澄又	-11.4053
多非要	-11.4053
懐抱	-11.4053
臣妾營事産業宜	-11.4053
不相非也	-11.4053
世之功	-11.4053
之喣沫	-11.4053
也微子	-11.4053
也惟父	-11.4053
佛老之	-11.4053
八珍	-11.4053
其親者矣天子	-11.4053
則同於	-11.4053
十一廟	-11.4053
季夏	-11.4053
孰重曰	-11.4053
帝嚳配天	-11.4053
帝堯	-11.4053
庶老	-11.4053
得正誼	-11.4053
恐辱	-11.4053
情文濫	-11.4053
我后之徳	-11.4053
教之以悌使凡為	-11.4053
斷恩	-11.4053
曽參	-11.4053
樞	-11.4053
比年	-11.4053
為天下蒼生之父母也	-11.4053
王太子	-11.4053
百世不遷者也	-11.4053
真卿	-11.4053
素車	-11.4053
考工記曰	-11.4053
者不可為	-11.4053
而民始	-11.4053
苞	-11.4053
若非先王	-11.4053
辟兵	-11.4053
通暢經	-11.4053
逺庖厨	-11.4053
還葬而無槨	-11.4053
鄉飲酒之義	-11.4053
鬭辨	-11.4053
魏晉	-11.4053
一念而	-11.4053
一心而	-11.4053
父母之䘮	-11.4054
統論	-11.4054
殷奠	-11.4054
公侯伯子男五等之	-11.4054
有不知其	-11.4054
人為貴	-11.4054
戊午	-11.4054
左右就	-11.4054
曾子侍坐	-11.4054
不衷	-11.4054
之誤也	-11.4054
卿大夫之行孝也	-11.4054
於孝則非	-11.4054
言諸侯貴	-11.4054
塞乎天	-11.4055
之始死也	-11.4055
紀孝行章	-11.4056
佛	-11.4056
孝經緯	-11.4056
生事愛敬	-11.4056
蔡	-11.4056
也又案	-11.4056
商書曰	-11.4056
世而名不	-11.4056
之㣲言	-11.4056
之用刑	-11.4056
在是矣	-11.4056
忿怒	-11.4056
是日也以吉祭易喪祭明日祔	-11.4056
曾氏之	-11.4056
之而後退	-11.4056
千餘	-11.4056
成魄	-11.4056
盎君	-11.4056
立學官	-11.4056
者也禮也者	-11.4056
而好犯上者鮮矣	-11.4056
長孫氏	-11.4056
有是書	-11.4056
離析	-11.4056
麟	-11.4056
則人化之	-11.4056
案説文云	-11.4056
穆帝	-11.4056
而自化	-11.4056
隨事表名	-11.4056
不中律	-11.4056
不慎其心	-11.4056
不敢授綏	-11.4056
乗路馬	-11.4056
也幽宗	-11.4056
也瘞埋	-11.4056
也雩宗	-11.4056
今文連	-11.4056
仕呉	-11.4056
傷其本	-11.4056
六畜	-11.4056
冠衣不純	-11.4056
刑於四海海内諸侯各修其職來助祭也	-11.4056
命降於社之	-11.4056
哭若徃而	-11.4056
因心而行	-11.4056
固結	-11.4056
圭九寸	-11.4056
女安則為之	-11.4056
子夏曰何	-11.4056
寢門之外	-11.4056
尊尊親親	-11.4056
或非之	-11.4056
手澤	-11.4056
掩也且	-11.4056
方赤	-11.4056
明皇御注	-11.4056
有敬心	-11.4056
朝服載鞭	-11.4056
注經常	-11.4056
父之尊	-11.4056
甘雨	-11.4056
終身弗辱	-11.4056
至孝近乎王	-11.4056
至弟近乎霸	-11.4056
與國人	-11.4056
虞飜劉劭	-11.4056
蠱	-11.4056
親歾	-11.4056
訂	-11.4056
謌	-11.4056
豈貴其能	-11.4056
身為王者不禰其父	-11.4056
配享上	-11.4056
集錄	-11.4056
得懽心	-11.4056
景明	-11.4057
悖矣悖	-11.4057
為墓于郊	-11.4057
母之喪	-11.4057
婦事舅姑	-11.4057
卜之日	-11.4058
以失於自	-11.4058
明堂祀上	-11.4058
僅存	-11.4058
婦人幽閉	-11.4058
於民之所	-11.4058
漢文帝始除	-11.4058
黄昭	-11.4058
之有尸	-11.4058
失謂不得其意	-11.4058
立愛自親始	-11.4058
立敬自長始	-11.4058
末流	-11.4058
下今文有也字	-11.4058
子之事父	-11.4058
承事天地	-11.4058
曰天下有道則	-11.4058
簟反	-11.4058
離席	-11.4058
則作參敢問	-11.4058
車馬	-11.4058
坐席	-11.4058
如日月之	-11.4058
此亦格言也	-11.4058
擊	-11.4059
參性遲	-11.4059
天下無生而貴	-11.4059
之志也是	-11.4059
之質也重	-11.4059
對而不問	-11.4059
祚	-11.4059
以此之敬而敬	-11.4059
案祭義云	-11.4059
氏門人之所記也疑所謂孝經者	-11.4059
在於凶徳是以去之	-11.4059
以來皆有	-11.4059
命士而	-11.4059
咸丘䝉	-11.4059
子夏詩	-11.4059
精粗	-11.4059
帝于郊	-11.4059
愛父母之心	-11.4059
保祿位守祭祀	-11.4059
動之間	-11.4059
極其愛敬	-11.4059
聚訟	-11.4059
過於不孝	-11.4059
受命於君	-11.4059
善而弗	-11.4059
者言乎其	-11.4059
而曠代亡逸不被流行	-11.4059
至古文孝經孔傳本出孔氏壁中	-11.4059
與尚書論語	-11.4059
一家之治也	-11.4059
乃非之是無心	-11.4059
事兄悌故順可移於長注	-11.4059
五歩	-11.4059
以三年為	-11.4059
喪出母	-11.4059
垂範	-11.4059
堂堂	-11.4059
壇之北	-11.4059
射者以	-11.4059
得其報	-11.4059
情當之謂	-11.4059
有疾飲藥	-11.4059
止於信	-11.4059
注同治直吏反	-11.4059
然則仲尼	-11.4059
父母全而生之已當全而歸	-11.4059
用殷禮	-11.4059
秦禁	-11.4059
自周始	-11.4059
致其福	-11.4059
號令	-11.4059
詔稱其辭者皆言傳曰其實今文孝經也	-11.4059
郭君	-11.4059
𤼵端	-11.4059
不復言	-11.406
事先王者	-11.406
復其位	-11.406
如此之美	-11.406
之類是也云	-11.4061
之弗得見也是故衣足以飾身棺周於衣	-11.4061
周於椁	-11.4061
彪	-11.4061
速化如此	-11.4061
短喪	-11.4061
其國卿大夫	-11.4061
宗武王	-11.4061
真實	-11.4061
貴故況	-11.4061
非外也	-11.4061
距	-11.4062
郊社之義	-11.4062
於人故以	-11.4062
諫盡命	-11.4062
泰壇	-11.4062
泰折	-11.4062
日不食	-11.4062
本性立	-11.4062
約有百家	-11.4062
於祖考則	-11.4062
并舉	-11.4062
推而廣之自	-11.4062
求福	-11.4062
無差等	-11.4062
盡為子之	-11.4062
維此王季	-11.4062
數飲酒	-11.4062
於敬敬以	-11.4062
聊	-11.4062
自處于	-11.4062
諸章以次	-11.4062
一書也	-11.4062
三宥	-11.4062
之中言行	-11.4062
之仇如之何曰	-11.4062
之理始於	-11.4062
也王宫	-11.4062
今文十八章	-11.4062
仕弗與共	-11.4062
侍講	-11.4062
侮亡	-11.4062
入於刑	-11.4062
八卦	-11.4062
内豎曰	-11.4062
加隆	-11.4062
卜之示	-11.4062
可以顯親雖	-11.4062
報誥之	-11.4062
失其次	-11.4062
守宰	-11.4062
已久矣	-11.4062
帝稷	-11.4062
得罪於鄉黨州閭	-11.4062
愛敬之失	-11.4062
慇	-11.4062
憂遇	-11.4062
戴記所稱	-11.4062
敬以入	-11.4062
敬其父兄君	-11.4062
明試	-11.4062
春秋與紀	-11.4062
是為今文	-11.4062
曾晳之	-11.4062
止邪	-11.4062
漢文之時	-11.4062
為之訓傳	-11.4062
無以為身	-11.4062
疑一篇	-11.4062
稱制㫖	-11.4062
稷牛	-11.4062
等夷	-11.4062
者不足以	-11.4062
者必誠必信勿之有悔焉耳矣	-11.4062
胡亥	-11.4062
能敬其身	-11.4062
蒐	-11.4062
裁而後	-11.4062
親之䘮	-11.4062
言天子之孝天子	-11.4062
諫而不逆	-11.4062
道以教民	-11.4062
達之天下	-11.4062
闢	-11.4062
隂陽四時	-11.4062
雄	-11.4062
雖得志	-11.4063
之行若中道則	-11.4063
侯度	-11.4063
涖下	-11.4063
舊說	-11.4064
妻曰鰥	-11.4064
德義可	-11.4064
也此五者皆	-11.4064
帝於郊	-11.4064
𤣥冠	-11.4064
天子有善	-11.4064
敬之教民	-11.4064
者矣得其	-11.4064
徳教謂至	-11.4064
立社曰	-11.4064
孝之始終	-11.4064
愛敬愛之	-11.4065
不逺身	-11.4065
舊行用孔	-11.4065
業擅專門猶將十室希升堂者必自開	-11.4065
無由而	-11.4065
牖攀逸駕者必騁殊軌轍	-11.4065
者逮下	-11.4065
互相通	-11.4065
沽	-11.4065
無聞焉	-11.4065
不宜刪	-11.4065
京師	-11.4065
卷冕	-11.4065
古者諸侯之	-11.4065
士庶人之禮也	-11.4065
婦執	-11.4065
不稱老	-11.4065
中道則兄事之	-11.4065
措時	-11.4065
父出則	-11.4065
秘書	-11.4065
夫然者上孝理皆得懽	-11.4065
江翁后	-11.4065
無以異	-11.4065
蒼翼奉	-11.4065
諱改	-11.4065
閒居侍坐	-11.4065
不履事	-11.4065
不足以治	-11.4065
之道以率先之則人漸其	-11.4065
以所見	-11.4065
凡附於	-11.4065
受賜	-11.4065
和彈之而	-11.4065
子而用臣之顯	-11.4065
孝經注疏卷九考證	-11.4065
得仁人之粟則	-11.4065
復父讎	-11.4065
恠	-11.4065
成聲作而曰	-11.4065
擇牲	-11.4065
敘講	-11.4065
既除喪而見予之琴和之而	-11.4065
明堂之位	-11.4065
望望	-11.4065
氣也此天地之	-11.4065
沈	-11.4065
臣而用子	-11.4065
自為立社曰	-11.4065
言人之不	-11.4065
訓詁	-11.4065
顔師	-11.4065
親愛之心	-11.4066
注言教至	-11.4067
其小者	-11.4067
承上文而言	-11.4067
稱明王者	-11.4067
不聽樂	-11.4067
子曰非先王之法服不敢服	-11.4067
循理	-11.4067
淑善	-11.4067
災也非先王之法言不敢	-11.4068
孝子將祭	-11.4068
哭而退不聽事焉	-11.4068
救周	-11.4068
殯而臣有父母之喪則如之何孔子曰歸	-11.4068
而廢鄭	-11.4068
門徒	-11.4069
釡	-11.4069
示民不敢	-11.4069
輿	-11.4069
則亦庶	-11.4069
又何疑	-11.4069
覈	-11.4069
創制	-11.4069
報天而主日配以	-11.4069
隂陽之交	-11.4069
㑹而及於	-11.4069
不讎其君	-11.4069
之立自	-11.4069
也言上古之	-11.4069
人者天地之	-11.4069
先嘗之	-11.4069
可以治官	-11.4069
吳公	-11.4069
呉志	-11.4069
呉所刪	-11.4069
哉貴其	-11.4069
已慤	-11.4069
庶民之愚	-11.4069
廢孔	-11.4069
後世之名	-11.4069
性也性	-11.4069
悚	-11.4069
所佚	-11.4069
書之㫖	-11.4069
曾申	-11.4069
案禮記云	-11.4069
民弗敢草	-11.4069
為義其意不在於	-11.4069
無斁	-11.4069
知其體	-11.4069
禚	-11.4069
者容也	-11.4069
者接人以	-11.4069
膝骨	-11.4069
與齊尋兵	-11.4069
蚤諭教	-11.4069
諸侯礿	-11.4069
賜圭瓚	-11.4069
頒行	-11.4069
級	-11.4069
疾也曾子	-11.4069
足少而習	-11.4069
三千刑	-11.4069
不為苟	-11.4069
言非法	-11.407
同於父非不	-11.407
聖人能順	-11.407
退燕	-11.407
天下之逹	-11.407
繋於	-11.407
然後能長	-11.407
衣冠	-11.407
總而言之	-11.4071
各以其所	-11.4071
齊襄	-11.4071
事其主	-11.4071
出孔壁	-11.4072
有不同者矣	-11.4072
文句凡鄙	-11.4072
戚容	-11.4072
敢諫之	-11.4072
七章大傳第	-11.4072
夫音扶下同	-11.4072
都南	-11.4072
䂓諫	-11.4072
不敬何以	-11.4072
聖智	-11.4072
能行愛敬	-11.4072
大報天而主日也兆於南郊就陽位也	-11.4072
太羮	-11.4072
所及者	-11.4072
禮樂之情	-11.4072
郊之祭也迎長日之至也	-11.4072
上之化	-11.4072
不侔	-11.4072
之郊是	-11.4072
人因之以施	-11.4072
劉炫陸澄	-11.4072
危辱	-11.4072
去國三世爵祿	-11.4072
吉土	-11.4072
哀之至也	-11.4072
宗祀祭	-11.4072
推愛親	-11.4072
於西北	-11.4072
春春	-11.4072
炫左	-11.4072
田農	-11.4072
禁亂	-11.4072
西漢	-11.4072
謂服飾	-11.4072
而忘其	-11.4072
然後乃行	-11.4073
而能改	-11.4073
覆載	-11.4073
毛傳云	-11.4073
則貴賤有	-11.4073
易曰家人有嚴君焉父母	-11.4073
義取德	-11.4073
節省	-11.4073
云某	-11.4073
孝治之大	-11.4073
殊别	-11.4073
於妻子之親貴	-11.4074
弓曰	-11.4074
父母之心而	-11.4074
足以為孝	-11.4074
周穆王	-11.4074
神農	-11.4074
陽太	-11.4075
嚴親嚴兄	-11.4075
妻子臣妾繇百姓徒役也	-11.4075
人之父則凡	-11.4075
問焉故	-11.4075
愾然	-11.4075
服公子	-11.4075
不忘乎心	-11.4075
不待戒肅而自成其	-11.4075
心之全	-11.4075
之妻為	-11.4075
固知夫夫子之質也	-11.4075
恭儉	-11.4075
無不及也	-11.4075
冢宰之	-11.4075
寢苫枕	-11.4075
深切	-11.4075
三五而	-11.4075
也微諫	-11.4075
亦卜牲	-11.4075
刑禁	-11.4075
列於朝出入	-11.4075
則移之以貞	-11.4075
古文居上	-11.4075
周易都	-11.4075
命國家五官	-11.4075
奪喪	-11.4075
尚齒	-11.4075
所過山川亦	-11.4075
攘	-11.4075
於是觀	-11.4075
易直子諒之心	-11.4075
會合	-11.4075
有之乎曰	-11.4075
未發秋政	-11.4075
泰昭	-11.4075
由孝而	-11.4075
請畢	-11.4075
闕五行	-11.4075
則四方之	-11.4076
元良萬邦以貞	-11.4076
言一行	-11.4076
配天而又	-11.4076
博聞	-11.4076
名昌	-11.4076
悖之行	-11.4076
故以友	-11.4077
為人子者當	-11.4077
身不毁傷	-11.4077
稱其善	-11.4078
百祿	-11.4078
則是夫子之	-11.4078
誰能順	-11.4078
之昭明	-11.4078
類滅矣	-11.4078
單居離問曰	-11.4078
外飾	-11.4078
迎長日	-11.4078
上陳天子	-11.4078
之於末	-11.4078
則天神	-11.4078
可告於天子	-11.4078
四方之人	-11.4078
大也言君	-11.4078
天下之父兄	-11.4078
審固	-11.4078
巧變者	-11.4078
必告於	-11.4078
推賢	-11.4078
明婦順	-11.4078
殽地	-11.4078
祭不欲	-11.4078
而出視朝命祝史告於	-11.4078
而猶未忘	-11.4078
而親母	-11.4078
臨尸	-11.4078
自下而	-11.4078
要約	-11.4078
視聽	-11.4078
親又施德敎於人使人皆	-11.4078
諸侯相見	-11.4078
雖皆謂之	-11.4078
説所以事	-11.4079
尚書大傳	-11.408
章文也	-11.408
乎對曰	-11.408
文定所	-11.408
日星	-11.408
六藝	-11.408
象尼丘山	-11.408
忠之為用	-11.4081
畝冕而	-11.4081
之於一國	-11.4081
過者皆	-11.4081
使天下之人皆	-11.4081
肉刑	-11.4081
夏書曰	-11.4081
也葢上	-11.4081
政入於	-11.4081
無敢有	-11.4081
舊說云	-11.4081
諫諫而不	-11.4081
不辱其身	-11.4081
也兩者	-11.4081
五帝以上也	-11.4081
問一答	-11.4081
大旅	-11.4081
宜乎社造乎禰	-11.4081
帝牛	-11.4081
序所云劉	-11.4081
弗除	-11.4081
愛敬哀慼孝	-11.4081
於月月	-11.4081
昔者舜	-11.4081
樂之反	-11.4081
此五刑之名	-11.4081
死忘	-11.4081
法於地	-11.4081
為諸侯日	-11.4081
盡其養	-11.4081
眞見	-11.4081
者也故坐	-11.4081
諫逹善	-11.4081
趨利	-11.4081
逺罪	-11.4081
選左右	-11.4081
閉於宫	-11.4081
雖不足以	-11.4081
韋王	-11.4081
黨錮	-11.4081
各至其	-11.4082
為之節文	-11.4082
故得萬國之懽心	-11.4083
稱公九	-11.4083
能保其祿	-11.4083
列國皆有社	-11.4083
身踐	-11.4083
景行	-11.4083
言其不敢	-11.4083
髙卑	-11.4083
十六年	-11.4083
不驕不溢	-11.4083
傷則其	-11.4083
尊卑貴賤	-11.4084
大棺六	-11.4084
年七十	-11.4084
註經者	-11.4084
不刋之	-11.4084
之所覆地之所載日月所照霜露所墜	-11.4084
皆古文也	-11.4084
迎氣	-11.4084
和元年	-11.4084
甫刑即	-11.4084
終始則忠亦	-11.4084
孔子閒居	-11.4084
繼序思不忘	-11.4084
仲長	-11.4084
聖人之訓	-11.4084
西郊	-11.4084
戾心	-11.4084
齊襄公	-11.4084
七里	-11.4084
也天下之至	-11.4084
十二著	-11.4084
夏商	-11.4084
孔子之書	-11.4084
席間	-11.4084
或未盡	-11.4084
明孝道之大	-11.4084
深墨	-11.4084
無諫也	-11.4084
盛業	-11.4084
而進一	-11.4084
諫勸	-11.4084
造次	-11.4084
頒天下	-11.4084
𨗳民民	-11.4084
經籍	-11.4085
不辱其	-11.4085
書章句	-11.4086
十三年	-11.4086
也言王者	-11.4086
别録	-11.4086
彰著	-11.4086
者天下之大	-11.4086
補入	-11.4086
反企	-11.4086
有可疑者	-11.4087
淺學	-11.4087
開元十年	-11.4087
凡十八章	-11.4087
利害	-11.4087
士必有其	-11.4087
屈原	-11.4087
聼朝	-11.4087
不及弟	-11.4087
注疏孝經	-11.4087
矣然猶	-11.4087
者也太學	-11.4087
遷善	-11.4087
飲水	-11.4087
三揖	-11.4088
之不可任以	-11.4088
事行者	-11.4088
人東晉	-11.4088
傳魯人	-11.4088
兩儀	-11.4088
公桑	-11.4088
其父母者是	-11.4088
刑罰中	-11.4088
哀公十四年	-11.4088
夫是則有	-11.4088
性習	-11.4088
既卒哭	-11.4088
未篤	-11.4088
皆在焉	-11.4088
積重	-11.4088
而行信	-11.4088
行之遲	-11.4088
詔於國	-11.4088
語不及	-11.4088
滅亡	-11.4088
不安故不	-11.4088
欲教民以有禮	-11.4088
姦人	-11.4088
而不奢	-11.4088
安其位	-11.4088
又必謹	-11.4089
自驕則雖	-11.4089
稱士三	-11.4089
周公輔	-11.4089
具禮矣	-11.4089
不敢慢惡	-11.4089
凡有五	-11.4089
可已矣	-11.4089
上下交	-11.4089
七人諸侯	-11.409
補過謂	-11.409
袁	-11.409
南北	-11.409
君而事	-11.409
下亦當自	-11.409
此六者	-11.4091
爲河間	-11.4091
旣没	-11.4091
曰夫子述諸侯行孝	-11.4091
最先	-11.4091
也大傳曰	-11.4091
然而記	-11.4091
竟大夫	-11.4091
祇劉炫一人	-11.4091
之謂也未有	-11.4091
亦該	-11.4091
何謂也曰	-11.4091
有畀	-11.4091
極隆	-11.4091
淵源三	-11.4091
禮之報	-11.4091
窮本知變	-11.4091
者其盛禮見於	-11.4091
反説音	-11.4091
兄事之	-11.4091
助其奉飬	-11.4091
宣公	-11.4091
此一字	-11.4091
命齒於	-11.4092
凡為臣	-11.4092
繁多	-11.4092
事長則順矣	-11.4092
大昏	-11.4093
多識	-11.4093
知所立	-11.4094
見不必曰	-11.4094
月古人之	-11.4094
如斬	-11.4094
不與祭	-11.4094
卑尊卑	-11.4094
故先愛	-11.4094
故見為	-11.4094
于非道	-11.4094
勸善	-11.4094
夷字	-11.4094
慮四方	-11.4094
日增	-11.4094
易乾	-11.4094
横命	-11.4094
為中和以	-11.4094
爲中古	-11.4094
父忌	-11.4094
葬其親	-11.4094
議論	-11.4094
道也首以	-11.4094
案禮記祭義稱	-11.4095
而天下莫	-11.4095
之愛君	-11.4095
奉飬	-11.4095
𤼵此章	-11.4095
殊異	-11.4095
畜養	-11.4095
無疆	-11.4095
春夏	-11.4097
夫子奔逸	-11.4097
按舊注	-11.4097
秦漢	-11.4097
猶之古也	-11.4097
孟子曰人之	-11.4097
淳于	-11.4097
在國中	-11.4097
東夷	-11.4097
此大亂之道也注	-11.4097
中候	-11.4097
天子之於天下	-11.4097
天子用樂	-11.4097
尚其事	-11.4097
昭穆相	-11.4097
諫諍章	-11.4097
門内	-11.4097
交應	-11.4097
人之驕	-11.4097
國人皆	-11.4097
御天地與人	-11.4097
撫愛	-11.4097
是經者	-11.4097
有遯	-11.4097
睦友	-11.4097
繹孝經	-11.4097
虞夏	-11.4097
諫其君	-11.4097
鉤命決云孔子曰	-11.4097
▁治直吏反	-11.4097
成形	-11.4097
口體	-11.4098
善則稱	-11.4098
十二章	-11.4098
蟄不	-11.4098
卑上下	-11.4099
後人妄	-11.4099
心敬而	-11.4099
母也愛	-11.4099
▁離力智反	-11.41
致親於	-11.41
一而已故	-11.41
士而未	-11.41
案家語	-11.41
各從其	-11.41
並無章	-11.41
輔翼	-11.41
當湏	-11.41
三年不為	-11.41
藝文志文	-11.41
黼黻文	-11.41
不同位	-11.41
仁孝之義	-11.41
今言孝	-11.41
唯其所引而之以	-11.41
堊室之中	-11.41
夷服	-11.41
少連大連	-11.41
御器	-11.41
成子高	-11.41
有子可	-11.41
有評論	-11.41
未諫之	-11.41
王制曰	-11.41
知其法	-11.41
祖始也	-11.41
賔入	-11.41
行滿天下	-11.41
修業	-11.4101
通於神明又	-11.4101
即所以敬天下之為人兄	-11.4102
妻子猶	-11.4102
深戒	-11.4102
敎化之	-11.4103
人而曰父母	-11.4103
後漢馬融	-11.4103
季文子曰以訓則昏民	-11.4103
無則焉不度於善而皆	-11.4103
可無三年之	-11.4103
事舜也	-11.4103
子路曰吾聞	-11.4103
凡人事	-11.4103
者通也	-11.4103
云𤣥又	-11.4103
大聘	-11.4103
如客	-11.4103
庸徳	-11.4103
文言人	-11.4103
旤亂	-11.4103
致尊於	-11.4103
逺怨	-11.4103
隨分	-11.4103
黄老	-11.4103
親生膝	-11.4105
人之徳無加	-11.4105
因性立教	-11.4105
人弟者皆知盡事兄之道	-11.4105
方伯	-11.4105
者也樂者	-11.4105
諸侯言保	-11.4105
行孝弟臣	-11.4105
孔子對	-11.4105
古昔	-11.4106
助字	-11.4106
請死	-11.4106
聖人建	-11.4106
少賤之	-11.4106
人信其	-11.4106
近於犯	-11.4106
往而不	-11.4106
爾雅曰	-11.4106
陽氣	-11.4106
不舉樂	-11.4106
不説人	-11.4106
于先生	-11.4106
云制節	-11.4106
五榖	-11.4106
傷其親	-11.4106
土神	-11.4106
存繼	-11.4106
實録	-11.4106
彼哉	-11.4106
然其意	-11.4106
禍難	-11.4106
禹曰朕	-11.4106
老氏	-11.4106
著於外	-11.4106
陽義也	-11.4106
首冬至	-11.4106
魏志	-11.4106
誦詩	-11.4107
三曲	-11.4107
服飾	-11.4107
人不使	-11.4108
先取其	-11.4108
正義曰此説	-11.4108
之王者皆	-11.4109
則國安	-11.4109
之感人	-11.4109
各尊其	-11.411
戰國	-11.411
享五帝	-11.411
盖後世	-11.411
陳貴賤	-11.411
已歛	-11.411
或使之	-11.411
救正	-11.411
春秋緯	-11.411
此皆説	-11.411
私喪	-11.411
行三者皆	-11.411
諭親	-11.411
鬭曰	-11.411
因地之	-11.411
識音	-11.4111
臣下忠	-11.4111
發端	-11.4111
受業	-11.4111
利之則	-11.4112
事聖君	-11.4112
言與之義	-11.4112
棺土	-11.4113
禮之經	-11.4113
稱諡	-11.4113
庶人孝無終始而患不及者未之有也	-11.4113
民之心而	-11.4113
謂之儀	-11.4113
雖稍	-11.4113
出入不以	-11.4113
幾字	-11.4113
惡慢去	-11.4113
敬至而	-11.4113
於君遂	-11.4113
此侍立	-11.4113
祭祀之禮	-11.4113
道徳名	-11.4113
集賢	-11.4113
天有常	-11.4113
又増子曰及	-11.4114
其職事	-11.4114
操行	-11.4114
者莫有大於	-11.4116
稍長	-11.4116
多累	-11.4116
曰將君我而與我齒讓何也曰有	-11.4116
之惑也	-11.4116
也而陳	-11.4116
尚爾	-11.4116
在隋	-11.4116
風聲	-11.4116
三年之後	-11.4116
則當順	-11.4116
異端	-11.4116
皆在國	-11.4116
莫不欲	-11.4116
無愆	-11.4116
前代	-11.4117
尸位	-11.4118
君千萬人	-11.4119
言先王行	-11.4119
子孔子弟子侍謂侍坐	-11.4119
三年憂	-11.4119
前堂	-11.4119
修春秋	-11.4119
自與也	-11.4119
勝氣	-11.4119
不言注孝經	-11.4119
再三	-11.4119
不然何	-11.4119
動止	-11.4119
失其位	-11.4119
愛敬忠順	-11.4119
明暢	-11.4119
表章	-11.4119
孝子無私	-11.4119
已質則	-11.4119
徐行	-11.4119
必温	-11.4119
揚命	-11.4119
聞揚名	-11.4119
鬼神之能	-11.4119
父母舅姑必	-11.4121
終於立身下	-11.4121
訓釋	-11.4121
配享	-11.4121
孝經其驗	-11.4121
長其子	-11.4121
者孝敬之	-11.4122
諸侯之孝治	-11.4122
如臯	-11.4122
愛施於	-11.4122
未之有也然則	-11.4122
順物之	-11.4122
殊尚	-11.4122
若是乎	-11.4122
愛敬不生	-11.4122
長有道	-11.4122
通神明	-11.4122
配社稷	-11.4122
亦曰吾	-11.4122
以見天子	-11.4122
受爵	-11.4122
和之至也	-11.4122
四表	-11.4122
在側	-11.4122
戎事	-11.4122
教以愛敬	-11.4122
文勢	-11.4122
書最	-11.4122
殺人之	-11.4122
經文今	-11.4122
而民貴	-11.4122
貴財	-11.4122
配太	-11.4122
髙祖	-11.4123
將責	-11.4123
禮字而	-11.4123
感之而	-11.4124
人為之也	-11.4124
殺其身	-11.4124
父母之養	-11.4124
焉若是	-11.4124
無坐字	-11.4125
之尚明	-11.4125
當門	-11.4125
脩政	-11.4125
親先意承志	-11.4125
而已後世	-11.4125
周書曰	-11.4125
不教則	-11.4125
又竊	-11.4125
孝子事之	-11.4125
巧言	-11.4125
悦神	-11.4125
王儉	-11.4125
臣子所	-11.4125
興讓	-11.4125
用則者	-11.4126
祀典	-11.4126
育之恩	-11.4126
注不為文餙	-11.4127
是故孝子	-11.4127
天子視學	-11.4127
念親之	-11.4127
承受	-11.4127
浴於	-11.4127
不得為孝	-11.4128
以及一國	-11.4128
能孝能	-11.4128
注五經	-11.4128
幼幼	-11.4128
之喪公	-11.4128
今移	-11.4128
不可以居	-11.4128
伏生	-11.4128
經術	-11.4128
其地則	-11.4129
朝㑹	-11.4129
莊公	-11.4129
天下盡忠	-11.4129
天敬親	-11.4129
案史記	-11.4129
氣盛	-11.4129
特起	-11.4129
紀之以	-11.4129
至其極	-11.4129
也夫人君	-11.4129
合典	-11.4129
不得懈惰	-11.4129
又增	-11.413
爵視	-11.413
在東序	-11.4131
若不中道則	-11.4131
今文稱鄭	-11.4131
慎者不	-11.4132
今此經	-11.4132
曰某	-11.4132
偽書	-11.4132
足以盡	-11.4132
其君者也	-11.4132
宗廟祭祀	-11.4132
教也記曰	-11.4132
注愷	-11.4132
託君	-11.4132
親而外不	-11.4132
其天性非	-11.4133
克己	-11.4133
故夫子稱	-11.4133
二章大傳第	-11.4135
皆稱之	-11.4135
百神	-11.4135
順從其	-11.4135
授受	-11.4135
畏義	-11.4135
耳詩云	-11.4135
主婦	-11.4135
人情以為	-11.4135
八音	-11.4135
美報	-11.4135
為上者不	-11.4135
有何者可以加	-11.4136
於是乎道	-11.4136
為下必	-11.4136
欲移	-11.4137
祀此則	-11.4137
原于天	-11.4137
分職	-11.4138
父母之命	-11.4138
服言行	-11.4138
異慮	-11.4138
傳習	-11.4138
本大學	-11.4138
上圜	-11.4138
令諸儒	-11.4138
冡子	-11.4138
尸利	-11.4138
徵在	-11.4138
殺則下	-11.4138
皆在郊	-11.4138
祭日於	-11.4138
互文	-11.4139
嚴其父也	-11.4139
隨所	-11.4139
爲終也	-11.4139
以致愛	-11.414
令力	-11.414
卒哭曰成事	-11.4141
故親生	-11.4141
憂思	-11.4141
子亦猶之	-11.4141
稱也是	-11.4141
不可假	-11.4141
于一本	-11.4141
任意	-11.4141
入仕	-11.4141
因貞	-11.4141
矣而猶且	-11.4141
聴命	-11.4141
與太子	-11.4141
諸侯耕	-11.4141
乃天性	-11.4142
不及於己	-11.4142
善性而	-11.4142
事母能	-11.4144
之勢也	-11.4144
七年	-11.4144
勝于朱	-11.4144
式過	-11.4144
成於國	-11.4144
孔安國孝經	-11.4144
著則亦	-11.4144
以禮字	-11.4144
友陳	-11.4144
呉澄謂	-11.4144
其義章	-11.4144
漢志	-11.4144
祭之無	-11.4144
親其下	-11.4144
道而出	-11.4144
音待	-11.4144
也夫人之一身	-11.4145
知愛親	-11.4146
立政教	-11.4146
經傳正	-11.4146
按論語云	-11.4147
凡八十	-11.4147
注風俗	-11.4147
政教失	-11.4147
祖孫	-11.4147
史官	-11.4147
則從而	-11.4147
吾嘗	-11.4147
在卿大夫之	-11.4147
舜而已	-11.4147
地察	-11.4148
音餘	-11.4148
云黄帝	-11.4149
應如此	-11.4149
忠之為	-11.415
以享先	-11.415
異於士	-11.415
情之不可	-11.415
諍臣	-11.415
保其天下	-11.4151
聖證	-11.4151
五傳者	-11.4151
人所不能	-11.4151
今文尚書	-11.4151
教民之道	-11.4151
等殺	-11.4151
長者謂之	-11.4151
濟志	-11.4152
之因有	-11.4152
孝悌之事	-11.4152
以復經文之舊其傳文之失又别論之如	-11.4153
自是而後	-11.4153
淳化	-11.4153
之有詩曰	-11.4153
不令而	-11.4154
天子負	-11.4154
者天地所為	-11.4154
可乆	-11.4154
數數	-11.4154
不可違	-11.4154
五典	-11.4154
子則可謂	-11.4154
者故上	-11.4154
近於日	-11.4155
盡其愛敬之	-11.4155
天事母	-11.4155
所以教弟	-11.4155
莫由	-11.4157
經者常	-11.4157
直可以	-11.4157
徳而無其	-11.4157
以為後人	-11.4157
子夷子	-11.4157
一源	-11.4157
之風以	-11.4157
公劉	-11.4157
受氣	-11.4157
最尊	-11.4157
氣體	-11.4157
求葢	-11.4157
百篇	-11.4157
示神	-11.4157
謂之良	-11.4157
道也周公	-11.4157
中野	-11.4158
失其心	-11.4158
所以防	-11.4159
古人之意	-11.4159
不曰治	-11.416
棺音	-11.416
司成	-11.416
得周於	-11.416
刋行	-11.416
則天明	-11.416
及諸家	-11.416
孝於天地	-11.416
彼我	-11.416
梁王	-11.416
者必心	-11.416
自為愛敬	-11.416
驕志	-11.416
安寧	-11.416
愈疏	-11.416
一十八章	-11.416
音悦	-11.4161
先王先君	-11.4161
汝作	-11.4162
分此以	-11.4162
用之節	-11.4162
諸侯之喪祭	-11.4162
不勝其	-11.4163
自舜始	-11.4163
任重	-11.4163
宗伯	-11.4163
所最	-11.4163
於天子天子	-11.4163
行孝也言	-11.4163
讀孝經	-11.4163
宗社	-11.4163
本於天地	-11.4163
于妻子	-11.4163
他家	-11.4163
推之于	-11.4163
書記	-11.4163
率祖	-11.4163
王者出	-11.4163
老兄	-11.4163
聖帝	-11.4163
入門	-11.4163
此之敬	-11.4164
所用也	-11.4164
之職事	-11.4165
亦可知也	-11.4165
非餕莫	-11.4166
西階	-11.4166
來世	-11.4166
敬其父則子説	-11.4166
斷章	-11.4166
其君一	-11.4166
咸服	-11.4166
定數	-11.4166
繼世	-11.4166
愛敬之理	-11.4166
易慢	-11.4166
用勞	-11.4166
還中	-11.4166
卿大夫行孝	-11.4167
而愛先	-11.4168
細猶	-11.4168
莫不服	-11.4168
則是可言	-11.4168
之孝當如是也	-11.4169
此其所以	-11.4169
孝徳之本	-11.4169
自陷	-11.4169
憂憂	-11.417
末章	-11.417
天下逹	-11.417
君在上	-11.417
天下無道	-11.417
字句	-11.417
一取其	-11.417
是王者之	-11.417
講孝經	-11.417
變風	-11.417
者禮之實也	-11.4171
後不言	-11.4172
所以供	-11.4172
夏周之	-11.4173
始於祖	-11.4173
太宗	-11.4173
愛以敬	-11.4173
盖就	-11.4173
親見之	-11.4173
旦反	-11.4173
配月	-11.4174
此又所以	-11.4174
仁義禮樂	-11.4174
盛哉	-11.4174
而民從	-11.4175
故父在	-11.4176
不備之	-11.4176
宰夫	-11.4176
荘敬	-11.4176
理斷	-11.4176
致詳	-11.4176
開國	-11.4176
之孝心	-11.4177
名棄	-11.4177
修其身	-11.4177
宋本	-11.4178
無而字	-11.4178
以尊天	-11.4179
祭皆以	-11.4179
既養老	-11.4179
等也然則	-11.4179
歸於天	-11.4179
稱諸侯七	-11.418
止於孝	-11.4181
前意	-11.4182
興利	-11.4182
然而未	-11.4182
善繼	-11.4182
昭二	-11.4182
君之德	-11.4182
喪紀	-11.4182
孔聖	-11.4182
已孤	-11.4182
范祖禹曰君子	-11.4182
施化	-11.4183
順人心	-11.4183
今詳	-11.4183
其中矣	-11.4183
心為心	-11.4184
而何乎	-11.4185
所聚	-11.4185
父雖不	-11.4185
㑹合	-11.4185
居室	-11.4185
出於天地	-11.4185
君子致其	-11.4185
奉宗廟	-11.4185
孝經論語	-11.4185
宗子之	-11.4185
者正身	-11.4186
罪惡	-11.4187
安危	-11.4187
乃及於	-11.4188
百二十	-11.4188
盖諸侯之孝	-11.4188
任刑	-11.4188
得其志	-11.4188
乎曰聖人	-11.4189
如此之謂	-11.4189
斯言之	-11.4189
暴貴	-11.4189
者古文也	-11.4189
二端	-11.4189
守富	-11.4189
重莫	-11.4189
古訓	-11.4189
無服之喪施	-11.419
見賢遍反	-11.4191
立而天下大	-11.4191
一編	-11.4192
六月	-11.4192
器物	-11.4192
與曰各	-11.4192
今特	-11.4192
公尸	-11.4192
親遜	-11.4192
欲求	-11.4192
而後君臣	-11.4192
什一	-11.4194
未詳	-11.4195
不能立身	-11.4195
似忠	-11.4195
俱出	-11.4195
在一日	-11.4195
小卿	-11.4195
是也且	-11.4195
論語孝經	-11.4195
公室	-11.4198
凡養老	-11.4198
而引之	-11.4199
畏敬	-11.42
室家	-11.42
故宜不	-11.42
孝弟衰	-11.4201
未之行也	-11.4201
為王者之	-11.4201
於其臣	-11.4201
為子而	-11.4202
孝經有二	-11.4202
得福	-11.4203
殁身	-11.4204
等謹案孝經集	-11.4204
疾可以	-11.4204
國史	-11.4204
将祭	-11.4204
是謂愛	-11.4204
美意	-11.4206
神保	-11.4206
報父母	-11.4206
未忘	-11.4206
勿慮	-11.4207
正義曰前章	-11.4207
餘章	-11.4207
周公然則	-11.4207
君之美	-11.4208
患失其祿位	-11.421
為法故	-11.421
可知也注	-11.421
明庭	-11.4211
無以立	-11.4211
𤣥冕而	-11.4211
謹其法	-11.4212
昔者明王事	-11.4212
固執	-11.4214
諸侯而下	-11.4214
之始也又	-11.4215
不可以不知	-11.4215
無所致其敬	-11.4215
祀帝	-11.4215
道統	-11.4215
易簡	-11.4215
行而古文	-11.4217
位而守其祭祀盖士之孝也	-11.4217
哀哉	-11.4217
神尚	-11.4217
後而下	-11.4218
哭若往而	-11.4218
致應感	-11.4218
於君長	-11.4219
勤民	-11.422
成於君	-11.422
興亂	-11.422
而後動	-11.4221
於家則行	-11.4222
事天地之道	-11.4223
教也教	-11.4223
争辨	-11.4223
安百姓	-11.4224
不然君	-11.4225
政是故	-11.4225
孝諸侯以	-11.4225
代食	-11.4226
咸知	-11.4226
長慮	-11.4226
君則凡為	-11.4228
事君事長之	-11.4228
文質生	-11.4228
以事上帝	-11.4229
能養父母	-11.4229
請問	-11.423
鄭氏注	-11.423
可以兼	-11.423
自為文	-11.423
而無服	-11.4231
不紊	-11.4232
而讀之	-11.4232
不一而	-11.4232
以下至於	-11.4232
宫刑	-11.4233
尚志	-11.4233
忠者臣	-11.4234
天下樂之	-11.4234
其禮也無容觸地	-11.4235
位也君	-11.4235
即孝也	-11.4236
失其義	-11.4236
今更	-11.4236
天下之懽心	-11.4236
無得罪於	-11.4236
死制	-11.4238
而一以	-11.4238
詩大雅抑	-11.4238
甲子	-11.4238
要盡	-11.4239
有大故	-11.4239
賤者尚如此而	-11.424
之徳為	-11.4241
注悲哀	-11.4244
退則思	-11.4245
者心之	-11.4247
者皆出	-11.4248
異制	-11.4249
物也注	-11.4249
豫順	-11.4251
謂之逆	-11.4252
許丈	-11.4252
法於聖	-11.4253
不反齊衰之	-11.4253
君有過失則思補	-11.4254
而法之	-11.4255
服者言	-11.4255
為法於天下可傳於後世	-11.4255
限量	-11.4255
其刑墨	-11.4256
孔傳中	-11.4258
備此五	-11.4259
仁人孝子所	-11.4261
合而成	-11.4262
遑寧	-11.4262
隂義也	-11.4263
敬以成	-11.4264
盡於此	-11.4264
二帝三王之教	-11.4265
言愛父與母同敬父與君同	-11.4265
明堂在國	-11.4266
報功	-11.4266
徒口	-11.4267
然則天地不	-11.4268
徳教加於百姓刑于四海	-11.4269
知無不	-11.4269
之以刑	-11.4269
其君在	-11.4271
御政	-11.4271
故其教	-11.4272
之陳之	-11.4274
禮樂備	-11.4274
尚辭	-11.4274
卿大夫之孝治	-11.4276
遂亡	-11.4277
夫子之所貴	-11.4278
孝子所不	-11.4279
五行皆	-11.428
家之長幼	-11.428
嫌於	-11.428
風敎	-11.428
行之然後	-11.4281
三老所獻	-11.4281
人生所	-11.4281
舉足	-11.4283
養國老於東	-11.4283
有諌	-11.4284
孝者徳之本也	-11.4286
親之去	-11.4287
于君者	-11.4289
也而諸侯	-11.429
家國天下	-11.4291
風物	-11.4293
失其民	-11.4293
入揖讓	-11.4294
之則義	-11.4296
可以備	-11.4296
就此三	-11.4297
大學孝經	-11.4298
知禮者	-11.4299
章言卿大夫之孝	-11.4299
位卑	-11.43
天下衆人	-11.4301
雖有三	-11.4302
鰥老而無	-11.4303
五叚	-11.4304
曰苟不	-11.4304
以言之也	-11.4305
樂也者	-11.4306
為非也	-11.4309
之復之	-11.431
缺於	-11.431
能之乎	-11.431
之敬者終有限	-11.431
四章大傳第	-11.4314
禮則凡	-11.4315
真偽	-11.4316
以毁滅	-11.4318
人生有	-11.4323
日以至	-11.4324
親之孝也	-11.4328
不敬也敬	-11.4328
仁而終	-11.4329
者所為	-11.4329
焉以其敬而	-11.4331
則臣有	-11.4336
無以國	-11.4337
愛敬盡於事親而德教加於百姓刑	-11.4339
章之末	-11.4339
常聲	-11.434
有一毫之不	-11.434
刪孝經	-11.434
弟之敬	-11.4343
愛他人	-11.4343
自從也	-11.4344
故其成	-11.4345
無不悦	-11.4345
也而士	-11.4346
敬者愛之	-11.4346
賜諸侯	-11.4346
諫三諫而不聽則	-11.4347
而孝弟之	-11.4348
之國爲	-11.4348
為能饗	-11.4349
宗廟士可	-11.4352
民愛之	-11.4353
充滿而不至	-11.4354
奉事其	-11.4354
服義從化	-11.4355
天地山川社稷先古	-11.4356
無以得	-11.4356
性命	-11.4358
孝子之祭	-11.4358
死之不	-11.4359
其臣則	-11.436
饗廟	-11.4362
坊記	-11.4363
民瞻	-11.4366
兄弟和	-11.4369
大德行	-11.4371
則君子不	-11.4372
按禮記祭	-11.4372
所貴有	-11.4372
人親其	-11.4373
能順其	-11.4373
上庠	-11.4374
上之義而	-11.4378
然後可以為人	-11.4378
之詳矣	-11.4378
以父教	-11.438
名曰孝經	-11.4382
上不驕高而不危	-11.4384
没世	-11.4386
也旣而	-11.4392
孝故事天	-11.4392
古文偽	-11.4393
至于亡	-11.4394
上而上	-11.4394
風化	-11.4394
意則引	-11.4398
可以保守	-11.44
擬作	-11.44
其言足	-11.4409
行者先	-11.4409
愛敬各有	-11.4414
未有不繇	-11.4421
也惟是	-11.4425
曽子曰孝子	-11.4428
取則於	-11.443
雖亡道不失其	-11.443
銜君	-11.4436
於一家	-11.4437
而外順	-11.4438
本事也	-11.444
忠臣之義	-11.444
在其上如在其左右	-11.4443
求富貴	-11.4444
政教之本	-11.4447
廟諸侯行	-11.4447
政也不假威嚴而自	-11.4448
按大戴禮	-11.445
及致敬	-11.4451
正家之	-11.4452
發諸朝廷	-11.4454
生夏長秋斂冬閉	-11.4454
之可疑者不但此也因以書質之沙	-11.4458
程可久丈	-11.446
十八年	-11.446
親而親	-11.4462
敬愛其親	-11.4464
合而觀之其	-11.4465
而臣不	-11.4468
天子所命	-11.4468
為説	-11.4469
之華也	-11.4472
人之腹	-11.4472
之道取於事父之	-11.4474
然後乃言	-11.4475
損孝	-11.4476
其經則	-11.4476
不養於	-11.4476
孝經述註	-11.4477
王時文王居穆之第	-11.4481
可去也	-11.4482
引之以	-11.4482
也經傳之	-11.4483
孝道之極	-11.4483
諸侯之危	-11.4485
忘身	-11.4497
一於其	-11.4497
功利	-11.4498
䘮亡	-11.4502
所刋	-11.4502
也而以為	-11.4503
爱敬	-11.4507
忘本也	-11.4513
奉養之時	-11.4514
参天	-11.4518
者明君	-11.4521
心無不	-11.4523
父形	-11.4525
效法	-11.4525
夫孝者天	-11.4526
子者湏	-11.4528
禮記表記	-11.4528
徳行立	-11.4531
因天地以	-11.4532
不義矣故	-11.4534
斧	-11.4534
心而已矣	-11.4542
風隨	-11.4549
下皆同	-11.455
外棺	-11.455
之謂要道	-11.4553
好善而	-11.4567
禮之至著者也	-11.4571
身行道揚名於後世	-11.4572
順也順	-11.4572
直之徳	-11.4573
孝子之義也	-11.4578
政之本	-11.4579
不敢惡慢於人	-11.4586
法之所	-11.4587
至性通於神明光於四海故曰無所不通	-11.4589
及其至	-11.4589
葢言在	-11.46
能敬宗廟順長幼以極孝悌	-11.4602
皷在	-11.4605
母之於子	-11.461
貴質而	-11.4612
皆然也	-11.4612
獸之不若	-11.4615
明父子之	-11.4617
於天子非	-11.4618
安國所傳者	-11.4623
哲人	-11.4624
毁傷者矣	-11.4631
孝悌之至	-11.4637
貴者以	-11.4645
知其本	-11.4649
風雨時	-11.4653
仲尼閒居曽子侍坐子曰參先王有至	-11.466
養養之	-11.4662
允矣	-11.4672
之合也	-11.4675
敬天敬	-11.4677
其實一	-11.4685
子婦孝	-11.4689
天也祭	-11.4692
非有孝	-11.4694
以社稷事	-11.4696
下以下	-11.4705
祭牲	-11.4712
九十二字	-11.4713
舉其大	-11.472
擇善	-11.4721
率性	-11.4723
王之繼	-11.4727
父母之仁	-11.4728
同語魚據反	-11.4732
之通于天	-11.4738
惠所藏	-11.4739
斯之為	-11.4763
夫子之經	-11.4763
喪三日	-11.4767
水之相	-11.477
之為學	-11.4771
本然自有之徳性以	-11.4775
講義	-11.4778
棄黎	-11.4779
禮筮	-11.478
人之下而	-11.4786
排毁古文以閨門	-11.4788
時雨	-11.479
三王亦	-11.4791
也何者	-11.4799
民之性	-11.4804
義取君子威儀不差為人法則	-11.4806
所以為忠	-11.4807
十里五十里	-11.4809
謂治國在齊其家	-11.4811
著於天下	-11.4811
心則皆恭事助其祭享也	-11.4812
盡其極	-11.4814
人射之	-11.4814
有配天之	-11.4819
以及天下	-11.4821
守亦可	-11.4827
之所貴也	-11.4832
為其然也	-11.4835
患人之	-11.4835
中出禮自外作	-11.4838
不忘父母	-11.484
之氣始於	-11.4841
上也聖人	-11.4845
其仁則	-11.4853
乎曰吾	-11.4855
條理	-11.4855
萬物資始於乾人倫資父	-11.4859
滅矣故	-11.4861
無嫌	-11.4866
郊與明	-11.4866
近於天地	-11.4867
同故注	-11.4868
孔壁古文	-11.487
不傷不	-11.4877
君子之仁	-11.4887
春秋之所	-11.4887
山林川谷丘	-11.4891
云至德	-11.4893
各自致其敬者斯無	-11.4896
可以治天下	-11.49
三章大傳第	-11.4905
此而後世	-11.4905
次序	-11.4906
親之愛	-11.4908
德之則	-11.4915
浪	-12.2616
参	-12.2827
豉	-12.3015
銜	-12.3127
紊	-12.3599
頃	-12.3791
蟄	-12.3834
盎	-12.3856
䜛	-12.3882
遑	-12.3885
嬴	-12.3898
翳	-12.3898
侔	-12.3902
䑕	-12.3906
圩	-12.3906
軄	-12.3911
弭	-12.3914
汧	-12.3914
渭	-12.3914
溜	-12.3922
滴	-12.3922
襧	-12.393
寃	-12.393
紇	-12.393
繢	-12.393
夾	-12.3935
鷩	-12.3937
岐	-12.3938
澡	-12.3938
肸	-12.3938
蜼	-12.3938
儺	-12.3946
劃	-12.3946
勩	-12.3946
翹	-12.3946
蜡	-12.3946
謔	-12.3946
衷	-12.3949
繫	-12.3953
隅	-12.3953
姆	-12.3954
杼	-12.3954
楣	-12.3954
砥	-12.3954
礪	-12.3954
紅	-12.3954
紘	-12.3954
紝	-12.3954
綖	-12.3954
莾	-12.3954
謏	-12.3954
㓙	-12.3954
瓛	-12.3958
蔞	-12.3958
値	-12.3962
刲	-12.3962
剡	-12.3962
撥	-12.3962
爓	-12.3962
腊	-12.3962
膟	-12.3962
蘊	-12.3962
讚	-12.3962
煢	-12.3962
絃	-12.3968
悼	-12.3968
歾	-12.3968
㐮	-12.397
夹	-12.397
嵩	-12.397
斑	-12.397
涗	-12.397
盍	-12.397
祠	-12.397
禴	-12.397
綽	-12.397
肱	-12.397
捷	-12.397
峯	-12.3974
恃	-12.3974
禽	-12.3976
飱	-12.3978
瓚	-12.3978
璋	-12.3978
燔	-12.3978
㫮	-12.3978
伍	-12.3978
刅	-12.3978
咈	-12.3978
慷	-12.3978
戍	-12.3978
扑	-12.3978
擁	-12.3978
煎	-12.3978
祉	-12.3978
紖	-12.3978
紹	-12.3978
絞	-12.3978
耉	-12.3978
腯	-12.3978
芽	-12.3978
菓	-12.3978
謖	-12.3978
鞭	-12.3978
倒	-12.3982
泝	-12.3982
痺	-12.3982
盗	-12.3986
爪	-12.3986
彚	-12.3986
乂	-12.3986
兕	-12.3986
募	-12.3986
墊	-12.3986
妬	-12.3986
寬	-12.3986
岱	-12.3986
弨	-12.3986
彤	-12.3986
愀	-12.3986
懌	-12.3986
槖	-12.3986
橿	-12.3986
沫	-12.3986
波	-12.3986
泫	-12.3986
洎	-12.3986
炤	-12.3986
牕	-12.3986
看	-12.3986
耦	-12.3986
肯	-12.3986
莖	-12.3986
薫	-12.3986
詀	-12.3986
諐	-12.3986
跣	-12.3986
輈	-12.3986
個	-12.399
凛	-12.399
蒯	-12.3991
侃	-12.3992
」	-12.3993
薨	-12.3993
劣	-12.3994
撤	-12.3994
紕	-12.3994
薪	-12.3994
饔	-12.3994
㦧	-12.3994
㻛	-12.3994
㽦	-12.3994
䋲	-12.3994
傑	-12.3994
兖	-12.3994
兾	-12.3994
圃	-12.3994
娣	-12.3994
尗	-12.3994
扆	-12.3994
斆	-12.3994
无	-12.3994
旹	-12.3994
枚	-12.3994
桂	-12.3994
涯	-12.3994
渊	-12.3994
渝	-12.3994
澆	-12.3994
眉	-12.3994
研	-12.3994
篠	-12.3994
簜	-12.3994
紟	-12.3994
綍	-12.3994
縞	-12.3994
胤	-12.3994
茫	-12.3994
萊	-12.3994
藟	-12.3994
虔	-12.3994
詒	-12.3994
讌	-12.3994
豪	-12.3994
閑	-12.3994
跛	-12.3998
姙	-12.3998
彖	-12.3998
棠	-12.3998
牙	-12.3998
諉	-12.3998
讟	-12.3998
億	-12.4001
墳	-12.4001
僖	-12.4001
羔	-12.4002
䕫	-12.4002
䟦	-12.4002
丸	-12.4002
俶	-12.4002
唱	-12.4002
埏	-12.4002
埴	-12.4002
妁	-12.4002
媒	-12.4002
孱	-12.4002
屯	-12.4002
廂	-12.4002
扛	-12.4002
挈	-12.4002
掊	-12.4002
敶	-12.4002
札	-12.4002
槃	-12.4002
淡	-12.4002
添	-12.4002
牟	-12.4002
猥	-12.4002
祸	-12.4002
穧	-12.4002
窆	-12.4002
箎	-12.4002
算	-12.4002
箭	-12.4002
署	-12.4002
耒	-12.4002
耼	-12.4002
舫	-12.4002
莱	-12.4002
虹	-12.4002
衽	-12.4002
諶	-12.4002
贋	-12.4002
輴	-12.4002
駟	-12.4004
攀	-12.4005
泛	-12.4005
怵	-12.4006
傍	-12.4006
勺	-12.4006
堇	-12.4006
昃	-12.4006
曺	-12.4006
秔	-12.4006
稲	-12.4006
竞	-12.4006
衿	-12.4006
陰	-12.4008
活	-12.4008
悽	-12.401
餼	-12.401
䑓	-12.401
个	-12.401
僿	-12.401
冀	-12.401
冑	-12.401
冥	-12.401
凉	-12.401
匜	-12.401
呶	-12.401
圗	-12.401
塵	-12.401
壼	-12.401
寂	-12.401
巵	-12.401
惬	-12.401
慄	-12.401
慣	-12.401
懣	-12.401
扇	-12.401
捍	-12.401
撃	-12.401
擯	-12.401
晩	-12.401
枌	-12.401
柢	-12.401
浙	-12.401
滯	-12.401
濕	-12.401
版	-12.401
犨	-12.401
珎	-12.401
癉	-12.401
癠	-12.401
睥	-12.401
瞠	-12.401
稀	-12.401
穗	-12.401
笏	-12.401
箧	-12.401
耋	-12.401
臼	-12.401
茹	-12.401
荁	-12.401
荼	-12.401
莞	-12.401
蔓	-12.401
袠	-12.401
襁	-12.401
謷	-12.401
譝	-12.401
贍	-12.401
踴	-12.401
躃	-12.401
躡	-12.401
軫	-12.401
遏	-12.401
贖	-12.4012
咷	-12.4013
删	-12.4013
穡	-12.4014
倨	-12.4014
冝	-12.4014
劒	-12.4014
怙	-12.4014
慟	-12.4014
掇	-12.4014
撓	-12.4014
曩	-12.4014
榆	-12.4014
泳	-12.4014
濁	-12.4014
玦	-12.4014
眀	-12.4014
睹	-12.4014
緌	-12.4014
線	-12.4014
縏	-12.4014
罸	-12.4014
腐	-12.4014
葺	-12.4014
螻	-12.4014
豹	-12.4014
蹷	-12.4014
脅	-12.4015
鈇	-12.4015
丙	-12.4015
頖	-12.4016
泂	-12.4016
鉞	-12.4016
偷	-12.4016
戕	-12.4016
粗	-12.4016
狠	-12.4017
狎	-12.4017
吴	-12.4017
䜴	-12.4017
侏	-12.4017
舂	-12.4017
超	-12.4017
囘	-12.4017
俎	-12.4018
椎	-12.4018
彦	-12.4018
彫	-12.4018
槌	-12.4018
魂	-12.4018
涌	-12.4018
㝢	-12.4018
价	-12.4018
伶	-12.4018
傼	-12.4018
兀	-12.4018
剩	-12.4018
吁	-12.4018
呈	-12.4018
啁	-12.4018
喙	-12.4018
場	-12.4018
塘	-12.4018
夸	-12.4018
奕	-12.4018
帨	-12.4018
幅	-12.4018
庇	-12.4018
廈	-12.4018
廉	-12.4018
恍	-12.4018
悝	-12.4018
惲	-12.4018
技	-12.4018
挽	-12.4018
換	-12.4018
擾	-12.4018
旂	-12.4018
晚	-12.4018
曳	-12.4018
朞	-12.4018
概	-12.4018
榦	-12.4018
様	-12.4018
歙	-12.4018
汪	-12.4018
汾	-12.4018
渇	-12.4018
渥	-12.4018
滄	-12.4018
滫	-12.4018
澳	-12.4018
濮	-12.4018
瀡	-12.4018
灼	-12.4018
爚	-12.4018
畤	-12.4018
痼	-12.4018
癃	-12.4018
矧	-12.4018
稅	-12.4018
穩	-12.4018
笙	-12.4018
簞	-12.4018
紾	-12.4018
綠	-12.4018
縫	-12.4018
繻	-12.4018
罇	-12.4018
群	-12.4018
聦	-12.4018
脈	-12.4018
脰	-12.4018
腑	-12.4018
臭	-12.4018
苖	-12.4018
茝	-12.4018
葸	-12.4018
薧	-12.4018
蘭	-12.4018
蠧	-12.4018
衅	-12.4018
袐	-12.4018
襌	-12.4018
覧	-12.4018
踟	-12.4018
蹰	-12.4018
輅	-12.4018
響	-12.4019
奄	-12.4019
媿	-12.4019
竈	-12.4019
輝	-12.4019
嘿	-12.402
潤	-12.402
督	-12.402
綺	-12.402
惇	-12.402
㐫	-12.4022
䜿	-12.4022
偹	-12.4022
喘	-12.4022
堲	-12.4022
峙	-12.4022
恢	-12.4022
戲	-12.4022
曷	-12.4022
溺	-12.4022
炳	-12.4022
瞚	-12.4022
絮	-12.4022
脆	-12.4022
蛾	-12.4022
詈	-12.4022
罄	-12.4024
觶	-12.4025
祁	-12.4026
雎	-12.4026
午	-12.4026
到	-12.4026
㸃	-12.4026
䘏	-12.4026
䘚	-12.4026
䥫	-12.4026
乳	-12.4026
倘	-12.4026
吻	-12.4026
噦	-12.4026
嚏	-12.4026
型	-12.4026
嬉	-12.4026
寜	-12.4026
寝	-12.4026
廩	-12.4026
戯	-12.4026
扞	-12.4026
挍	-12.4026
掬	-12.4026
携	-12.4026
摰	-12.4026
斃	-12.4026
旭	-12.4026
杵	-12.4026
柳	-12.4026
櫽	-12.4026
洿	-12.4026
淚	-12.4026
溯	-12.4026
漂	-12.4026
燁	-12.4026
獺	-12.4026
瑣	-12.4026
癢	-12.4026
睇	-12.4026
睽	-12.4026
穯	-12.4026
窘	-12.4026
耐	-12.4026
耿	-12.4026
臟	-12.4026
藍	-12.4026
衢	-12.4026
袂	-12.4026
裼	-12.4026
褘	-12.4026
襡	-12.4026
証	-12.4026
誄	-12.4026
謭	-12.4026
豬	-12.4026
豺	-12.4026
貸	-12.4026
蹖	-12.4026
蹢	-12.4026
躅	-12.4026
靖	-12.4026
詆	-12.4027
稼	-12.403
㷀	-12.403
凢	-12.403
廹	-12.403
畿	-12.403
痌	-12.403
篋	-12.403
罻	-12.403
臻	-12.403
零	-12.403
冲	-12.4032
冦	-12.4032
霆	-12.4034
惻	-12.4034
陛	-12.4034
㧞	-12.4034
㨗	-12.4034
䨇	-12.4034
付	-12.4034
促	-12.4034
健	-12.4034
刵	-12.4034
叫	-12.4034
啐	-12.4034
噏	-12.4034
囂	-12.4034
壅	-12.4034
夥	-12.4034
孛	-12.4034
孥	-12.4034
巨	-12.4034
忻	-12.4034
悍	-12.4034
慍	-12.4034
慰	-12.4034
憮	-12.4034
挟	-12.4034
摸	-12.4034
撅	-12.4034
杯	-12.4034
梩	-12.4034
槪	-12.4034
汜	-12.4034
漿	-12.4034
濶	-12.4034
玷	-12.4034
瓜	-12.4034
盤	-12.4034
眠	-12.4034
碏	-12.4034
笲	-12.4034
繕	-12.4034
苔	-12.4034
蕭	-12.4034
袋	-12.4034
認	-12.4034
誑	-12.4034
豊	-12.4034
貊	-12.4034
鳴	-12.4034
詮	-12.4036
園	-12.4038
暌	-12.4038
縂	-12.4038
虵	-12.4038
讐	-12.4038
輪	-12.4041
渠	-12.4042
麥	-12.4042
錮	-12.4042
汲	-12.4042
梅	-12.4042
醬	-12.4042
醯	-12.4042
琴	-12.4042
瑟	-12.4042
㢠	-12.4042
伋	-12.4042
僇	-12.4042
劄	-12.4042
呵	-12.4042
哿	-12.4042
嘬	-12.4042
妨	-12.4042
娯	-12.4042
孕	-12.4042
寔	-12.4042
巢	-12.4042
庖	-12.4042
廸	-12.4042
廻	-12.4042
悵	-12.4042
擢	-12.4042
擣	-12.4042
斵	-12.4042
旐	-12.4042
朢	-12.4042
梗	-12.4042
楫	-12.4042
榜	-12.4042
榱	-12.4042
涅	-12.4042
淆	-12.4042
漬	-12.4042
漱	-12.4042
潘	-12.4042
澣	-12.4042
炮	-12.4042
燭	-12.4042
狂	-12.4042
狸	-12.4042
瑑	-12.4042
璣	-12.4042
疵	-12.4042
瘁	-12.4042
祜	-12.4042
稌	-12.4042
糝	-12.4042
紉	-12.4042
紜	-12.4042
綢	-12.4042
綻	-12.4042
羃	-12.4042
腰	-12.4042
臊	-12.4042
芥	-12.4042
茲	-12.4042
蓼	-12.4042
薌	-12.4042
薤	-12.4042
藙	-12.4042
虆	-12.4042
蚋	-12.4042
蠅	-12.4042
蠭	-12.4042
褚	-12.4042
諏	-12.4042
讞	-12.4042
㬥	-12.4046
藐	-12.4046
筋	-12.4047
婚	-12.4048
糟	-12.405
瀆	-12.405
䄂	-12.405
䛕	-12.405
俞	-12.405
判	-12.405
卺	-12.405
啗	-12.405
墢	-12.405
姒	-12.405
姚	-12.405
媟	-12.405
嬪	-12.405
宂	-12.405
宄	-12.405
宓	-12.405
廼	-12.405
怕	-12.405
想	-12.405
挹	-12.405
捨	-12.405
昉	-12.405
暱	-12.405
桼	-12.405
汗	-12.405
汙	-12.405
汶	-12.405
滓	-12.405
煥	-12.405
爻	-12.405
琢	-12.405
瑜	-12.405
瘞	-12.405
盲	-12.405
眩	-12.405
瞎	-12.405
禆	-12.405
租	-12.405
秬	-12.405
稾	-12.405
穢	-12.405
筦	-12.405
簚	-12.405
紞	-12.405
繙	-12.405
纁	-12.405
脗	-12.405
莘	-12.405
蔟	-12.405
薶	-12.405
販	-12.405
蹶	-12.405
軒	-12.405
釁	-12.405
鞮	-12.405
洧	-12.4054
莒	-12.4054
僎	-12.4057
燧	-12.4057
鑽	-12.4058
䊷	-12.4058
仔	-12.4058
兊	-12.4058
勘	-12.4058
卵	-12.4058
厄	-12.4058
墮	-12.4058
屠	-12.4058
廐	-12.4058
徭	-12.4058
戱	-12.4058
拒	-12.4058
枘	-12.4058
焯	-12.4058
熛	-12.4058
甥	-12.4058
皦	-12.4058
竇	-12.4058
綵	-12.4058
縮	-12.4058
臚	-12.4058
覽	-12.4058
話	-12.4058
縟	-12.4061
戊	-12.4066
儻	-12.4066
卉	-12.4066
咤	-12.4066
墐	-12.4066
弦	-12.4066
恡	-12.4066
惏	-12.4066
揜	-12.4066
敞	-12.4066
暍	-12.4066
栩	-12.4066
櫛	-12.4066
汁	-12.4066
灾	-12.4066
珩	-12.4066
眚	-12.4066
禎	-12.4066
稂	-12.4066
策	-12.4066
筠	-12.4066
籬	-12.4066
紬	-12.4066
絅	-12.4066
綮	-12.4066
莠	-12.4066
詹	-12.4066
謠	-12.4066
抗	-12.4072
賾	-12.4074
僃	-12.4074
勑	-12.4074
探	-12.4074
撻	-12.4074
枻	-12.4074
桐	-12.4074
槩	-12.4074
歉	-12.4074
沓	-12.4074
漁	-12.4074
獮	-12.4074
碩	-12.4074
窒	-12.4074
窽	-12.4074
竅	-12.4074
笱	-12.4074
菅	-12.4074
蔀	-12.4074
藎	-12.4074
螫	-12.4074
頓	-12.4082
仆	-12.4082
冒	-12.4082
卲	-12.4082
厠	-12.4082
愍	-12.4082
擎	-12.4082
甄	-12.4082
確	-12.4082
笳	-12.4082
絫	-12.4082
蹀	-12.4082
刼	-12.4091
嘯	-12.4091
宼	-12.4091
撟	-12.4091
片	-12.4091
猗	-12.4091
盟	-12.4091
紙	-12.4091
肓	-12.4091
菑	-12.4091
訃	-12.4091
買	-12.4091
劑	-12.4099
抔	-12.4099
椓	-12.4099
樽	-12.4099
脉	-12.4099
偩	-12.4107
懾	-12.4107
拄	-12.4107
肝	-12.4107
脾	-12.4107
亥	-12.4114
䄠	-12.4115
凷	-12.4115
占	-12.4115
愫	-12.4115
璞	-12.4115
迫	-12.412
儿	-12.4123
瑩	-12.4123
甑	-12.4123
薛	-12.4123
軜	-12.4123
剛	-12.4131
橋	-12.4131
錦	-12.4131
准	-12.4147
𨗳	-13.4554
鼈	-13.4555
鹽	-13.4556
鴆	-13.4557
鯉	-13.4558
騶	-13.4559
騖	-13.456
騂	-13.4561
馭	-13.4562
餐	-13.4563
飴	-13.4564
頭	-13.4565
頡	-13.4566
電	-13.4567
隘	-13.4568
闈	-13.4569
醤	-13.457
鄲	-13.4571
邯	-13.4572
蹤	-13.4573
跼	-13.4574
跖	-13.4575
跋	-13.4576
貍	-13.4577
譜	-13.4578
譎	-13.4579
評	-13.458
褓	-13.4581
褊	-13.4582
装	-13.4583
蜜	-13.4584
蘩	-13.4585
蘧	-13.4586
蘋	-13.4587
藿	-13.4588
蕡	-13.4589
蔣	-13.459
葱	-13.4591
菁	-13.4592
苢	-13.4593
芼	-13.4594
芸	-13.4595
芣	-13.4596
芐	-13.4597
舶	-13.4598
脯	-13.4599
胼	-13.46
胝	-13.4601
肢	-13.4602
肚	-13.4603
聯	-13.4604
耀	-13.4605
翣	-13.4606
羇	-13.4607
罍	-13.4608
纘	-13.4609
縰	-13.461
縚	-13.4611
緫	-13.4612
粲	-13.4613
簿	-13.4614
箇	-13.4615
笄	-13.4616
突	-13.4617
秫	-13.4618
禝	-13.4619
祺	-13.462
礫	-13.4621
磯	-13.4622
皿	-13.4623
的	-13.4624
皂	-13.4625
瘍	-13.4626
瑶	-13.4627
琳	-13.4628
獵	-13.4629
獀	-13.463
燥	-13.4631
燃	-13.4632
熱	-13.4633
熬	-13.4634
焦	-13.4635
灰	-13.4636
濩	-13.4637
滑	-13.4638
溥	-13.4639
湼	-13.464
洩	-13.4641
洟	-13.4642
泓	-13.4643
毖	-13.4644
殮	-13.4645
殉	-13.4646
歐	-13.4647
橡	-13.4648
椑	-13.4649
核	-13.465
栢	-13.4651
杝	-13.4652
曄	-13.4653
旡	-13.4654
数	-13.4655
揀	-13.4656
掖	-13.4657
拊	-13.4658
慾	-13.4659
慧	-13.466
態	-13.4661
徼	-13.4662
幬	-13.4663
帙	-13.4664
巴	-13.4665
峰	-13.4666
岷	-13.4667
宙	-13.4668
奴	-13.4669
奈	-13.467
壑	-13.4671
墟	-13.4672
嘏	-13.4673
喣	-13.4674
咡	-13.4675
吿	-13.4676
叢	-13.4677
厨	-13.4678
卓	-13.4679
匿	-13.468
匐	-13.4681
匏	-13.4682
匍	-13.4683
刊	-13.4684
冶	-13.4685
冔	-13.4686
冄	-13.4687
僾	-13.4688
僚	-13.4689
侑	-13.469
亭	-13.4691
餞	-13.4692
餒	-13.4693
飜	-13.4694
錐	-13.4695
醩	-13.4696
週	-13.4697
蹐	-13.4698
護	-13.4699
誹	-13.47
袖	-13.4701
縠	-13.4702
緇	-13.4703
疫	-13.4704
爌	-13.4705
燒	-13.4706
燂	-13.4707
熯	-13.4708
掃	-13.4709
憐	-13.471
怍	-13.4711
巫	-13.4712
屍	-13.4713
媚	-13.4714
壝	-13.4715
匱	-13.4716
俚	-13.4717
鳲	-13.4718
騎	-13.4719
遙	-13.472
蹇	-13.4721
讇	-13.4722
誣	-13.4723
觿	-13.4724
褒	-13.4725
衮	-13.4726
笞	-13.4727
禖	-13.4728
皥	-13.4729
煖	-13.473
濡	-13.4731
潄	-13.4732
曠	-13.4733
振	-13.4734
拳	-13.4735
抵	-13.4736
徑	-13.4737
巘	-13.4738
嫄	-13.4739
奝	-13.474
夔	-13.4741
垗	-13.4742
啻	-13.4743
亹	-13.4744
鼻	-13.4745
驩	-13.4746
鉤	-13.4747
賣	-13.4748
譚	-13.4749
籩	-13.475
禫	-13.4751
柰	-13.4752
斗	-13.4753
婉	-13.4754
奇	-13.4755
塊	-13.4756
僧	-13.4757
亮	-13.4758
齡	-13.4759
頊	-13.476
郡	-13.4761
袞	-13.4762
苫	-13.4763
監	-13.4764
昆	-13.4765
悒	-13.4766
孜	-13.4767
姜	-13.4768
央	-13.4769
堊	-13.477
凊	-13.4771
仇	-13.4772
韓	-13.4773
郉	-13.4774
邵	-13.4775
聰	-13.4776
粟	-13.4777
殞	-13.4778
晏	-13.4779
尾	-13.478
翁	-13.4781
粢	-13.4782
晨	-13.4783
憚	-13.4784
嗚	-13.4785
』	-13.4786
『	-13.4787
鐘	-13.4788
股	-13.4789
昶	-13.479
揮	-13.4791
荀	-13.4792
墀	-13.4793
昊	-13.4794
芝	-13.4795
洋	-13.4796
漆	-13.4797
昺	-13.4798
朋	-13.4799
夙	-13.48
