<unk>	0
<s>	0
</s>	0
之	-4.03549
以	-4.56482
為	-4.61322
/	-5.05035
王	-5.05658
而	-5.19894
於	-5.29121
有	-5.31011
其	-5.31241
(	-5.33981
不	-5.37048
也	-5.38769
)	-5.41886
人	-5.43168
曰	-5.43384
者	-5.58456
與	-5.71362
于	-5.76747
自	-5.80553
大	-5.81986
至	-5.84816
及	-5.85693
時	-5.91971
使	-5.92736
子	-5.93276
等	-5.94211
乃	-5.99532
無	-6.00252
一	-6.03444
事	-6.05063
中	-6.05413
)(	-6.08944
兵	-6.09013
皆	-6.10905
遂	-6.13121
將	-6.13719
軍	-6.20138
州	-6.20543
所	-6.20618
遣	-6.2127
爲	-6.21714
命	-6.23258
國	-6.24444
又	-6.27207
城	-6.28317
言	-6.29202
復	-6.30694
行	-6.33539
文	-6.33547
公	-6.33639
上	-6.34193
在	-6.34604
三	-6.36722
出	-6.37113
後	-6.37987
入	-6.39253
李	-6.40254
道	-6.43015
見	-6.43252
得	-6.44464
安	-6.44512
故	-6.46269
山	-6.47297
今	-6.47484
立	-6.4759
天	-6.48109
死	-6.48404
令	-6.49565
臣	-6.49795
平	-6.49843
亦	-6.50713
如	-6.5073
歸	-6.51877
縣	-6.53336
則	-6.53485
生	-6.54235
因	-6.55189
書	-6.56273
欲	-6.59943
當	-6.6033
二	-6.61132
▁	-6.61461
相	-6.61546
矣	-6.61595
此	-6.63548
常	-6.64503
興	-6.64574
多	-6.64737
帝	-6.64768
名	-6.64915
日	-6.6509
從	-6.65261
張	-6.66239
唐	-6.66464
知	-6.66548
作	-6.6759
南	-6.68575
官	-6.68696
馬	-6.68707
下	-6.68937
聞	-6.69483
已	-6.69882
封	-6.71162
卒	-6.71888
初	-6.72679
水	-6.73173
可	-6.73708
晉	-6.75187
成	-6.75266
元	-6.7575
進	-6.75975
方	-6.76186
還	-6.76199
何	-6.76623
民	-6.76658
門	-6.76716
非	-6.77043
然	-6.77123
謂	-6.78471
云	-6.79548
請	-6.79784
漢	-6.80655
光	-6.80984
攻	-6.81234
五	-6.82271
來	-6.82621
東	-6.83152
舊	-6.83438
我	-6.83913
殺	-6.8411
長	-6.84153
吾	-6.84161
明	-6.84227
金	-6.84563
宗	-6.84582
陳	-6.84917
若	-6.84992
西	-6.86008
同	-6.86386
家	-6.87525
周	-6.87815
武	-6.88512
字	-6.88745
未	-6.8884
北	-6.89714
年	-6.89792
乎	-6.90568
徳	-6.91277
先	-6.91289
守	-6.91742
君	-6.92665
建	-6.93684
居	-6.93913
劉	-6.94088
用	-6.94602
義	-6.95073
石	-6.96827
稱	-6.97563
四	-6.98563
是	-6.98773
前	-6.99201
師	-6.99204
必	-6.99386
鎮	-6.9963
去	-6.99822
既	-7.01114
宋	-7.01835
氏	-7.01867
地	-7.02102
衆	-7.0236
陽	-7.02368
世	-7.02532
江	-7.0283
焉	-7.02931
後主	-7.04669
置	-7.0488
加	-7.05715
拜	-7.05967
主	-7.06056
内	-7.06085
朝	-7.06416
降	-7.06491
禮	-7.06693
心	-7.06718
都	-7.06719
重	-7.07333
賜	-7.07401
始	-7.07854
吳	-7.07861
太守	-7.08381
郡	-7.09527
通	-7.09686
龍	-7.10056
數	-7.10794
雖	-7.10798
取	-7.1103
本	-7.11217
士	-7.12384
堅	-7.1241
即	-7.14298
正	-7.15783
德	-7.15989
諸	-7.16278
盡	-7.16289
能	-7.17461
傳	-7.17487
越	-7.17579
髙	-7.17596
定	-7.17791
白	-7.18297
改	-7.18465
神	-7.18504
且	-7.18509
詔	-7.18772
仁	-7.19641
親	-7.20148
梁	-7.20685
趙	-7.21197
甚	-7.21393
戰	-7.21566
㑹	-7.21583
求	-7.21764
謀	-7.21776
秦	-7.22328
逺	-7.225
延	-7.22698
宜	-7.23562
授	-7.24325
善	-7.2433
虎	-7.24543
將軍	-7.24956
府	-7.25482
分	-7.25523
實	-7.26322
奉	-7.26743
女	-7.27124
流	-7.27463
問	-7.27656
楊	-7.27741
召	-7.27833
遷	-7.27963
侯	-7.2872
率	-7.28849
表	-7.29031
起	-7.3031
父	-7.30315
發	-7.30662
惟	-7.31425
志	-7.31673
外	-7.31721
法	-7.31958
思	-7.3219
太祖	-7.32374
雄	-7.33009
勒	-7.33328
少	-7.34058
尚	-7.34388
将	-7.34534
舉	-7.35001
崇	-7.35035
治	-7.35074
六	-7.35234
昌	-7.3546
廣	-7.35527
據	-7.35836
以為	-7.36165
清	-7.36612
元年	-7.36695
敗	-7.37046
宣	-7.38171
或	-7.38415
九	-7.38442
任	-7.38973
奔	-7.3922
政	-7.39406
垂	-7.40529
風	-7.4086
不能	-7.40897
州刺史	-7.41243
蜀	-7.41315
服	-7.41372
宫	-7.42297
魏	-7.42911
三年	-7.42944
小	-7.43117
執	-7.43559
信	-7.44095
不可	-7.45101
過	-7.45222
和	-7.45343
望	-7.45403
意	-7.45559
楚	-7.45666
節	-7.46042
𢎞	-7.46662
代	-7.46723
亡	-7.46845
經	-7.46857
母	-7.47091
領	-7.47143
威	-7.47724
耳	-7.48099
位	-7.48128
難	-7.48286
議	-7.48459
號	-7.48505
萬	-7.48879
遣使	-7.49054
亂	-7.49152
會	-7.49283
留	-7.49364
力	-7.49579
處	-7.49722
忠	-7.50523
受	-7.50575
元宗	-7.50715
異	-7.50975
身	-7.51112
獻	-7.51131
卿	-7.51271
益	-7.51398
海	-7.52012
告	-7.52164
温	-7.52273
應	-7.52348
保	-7.52504
失	-7.52966
土	-7.53594
懼	-7.53861
弟	-7.54149
易	-7.54272
承	-7.54983
節度使	-7.55106
斬	-7.56116
直	-7.56343
黄	-7.56384
功	-7.56538
深	-7.56668
業	-7.568
樂	-7.56812
八	-7.56852
終	-7.56889
高	-7.5702
臨	-7.57084
孫	-7.57121
烈祖	-7.57456
盛	-7.57562
登	-7.57844
觀	-7.57901
殿	-7.5798
聖	-7.58109
破	-7.58175
獨	-7.58643
圖	-7.58817
賊	-7.58898
食	-7.59082
賢	-7.59101
固	-7.59544
爾	-7.59635
昭	-7.59639
遇	-7.59779
雲	-7.59996
夜	-7.60403
制	-7.60638
帥	-7.60819
景	-7.60864
開	-7.61346
間	-7.61386
擊	-7.61568
屬	-7.6161
繼	-7.61989
好	-7.62146
討	-7.62444
田	-7.62993
伐	-7.63021
齊	-7.63044
徐	-7.63119
誅	-7.6317
天下	-7.63555
永	-7.63584
襲	-7.63693
叛	-7.64124
猶	-7.64395
修	-7.64428
悉	-7.64467
物	-7.64516
僧	-7.64649
新	-7.64787
營	-7.64974
七	-7.6542
一作	-7.65495
老	-7.65508
二年	-7.65779
十	-7.66613
每	-7.66686
陵	-7.66857
計	-7.66925
氣	-7.67006
華	-7.67286
疾	-7.67436
遺	-7.6752
學	-7.67789
第	-7.68119
怒	-7.68648
奏	-7.68876
/)	-7.68981
次	-7.69217
引	-7.69322
髙祖	-7.69551
燕	-7.69732
太子	-7.7014
凡	-7.70516
口	-7.70545
寧	-7.70644
度	-7.70721
古	-7.70785
嘗	-7.70856
人也	-7.71108
坐	-7.71456
百	-7.71571
徙	-7.71605
果	-7.71617
路	-7.71702
權	-7.72292
絶	-7.7304
餘	-7.73119
合	-7.73484
克	-7.73812
闕	-7.74138
辭	-7.74195
於是	-7.75252
祖	-7.76202
羅	-7.76299
集	-7.76386
恩	-7.76479
章	-7.76615
濟	-7.76732
致	-7.76813
色	-7.77262
性	-7.77305
部	-7.7742
許	-7.77742
史	-7.77886
往	-7.77944
兩	-7.78445
素	-7.7849
寳	-7.78563
后	-7.78957
左右	-7.78998
俱	-7.7918
吏	-7.79228
手	-7.79548
語	-7.7955
首	-7.79551
化	-7.79651
圍	-7.79693
送	-7.79711
汝	-7.79862
載	-7.79914
更	-7.80203
夫	-7.80336
右	-7.80378
反	-7.80579
隨	-7.81127
寶	-7.81275
冬十月	-7.81283
錢	-7.81622
被	-7.81844
聲	-7.81888
左	-7.81889
厚	-7.8271
願	-7.82718
連	-7.82919
詩	-7.83044
陛下	-7.83536
皇	-7.83692
全	-7.84416
林	-7.8466
騎	-7.84821
特	-7.84906
順	-7.85149
夏四月	-7.85292
胡	-7.85321
才	-7.85485
詣	-7.85792
御	-7.8598
夏	-7.86093
仕	-7.86219
嚴	-7.8641
誠	-7.86411
夷	-7.86507
罪	-7.86593
頗	-7.8673
頭	-7.86794
勢	-7.87129
理	-7.87493
真	-7.87533
迎	-7.87587
寺	-7.87671
河	-7.87805
疑	-7.88071
洪	-7.88346
兼	-7.88495
妻	-7.88602
獲	-7.88652
尋	-7.88825
𤣥	-7.88833
撫	-7.88963
敵	-7.89109
嘉	-7.89118
豈	-7.89249
走	-7.89839
貴	-7.90167
恐	-7.9019
曰吾	-7.90268
靈	-7.90583
器	-7.90751
太	-7.90889
交	-7.90903
衣	-7.91008
各	-7.91033
臺	-7.91556
川	-7.91607
共	-7.91834
不得	-7.92294
備	-7.9231
論	-7.92342
玉	-7.92842
美	-7.93047
解	-7.93259
福	-7.93588
貢	-7.93705
朱	-7.93832
著	-7.93841
容	-7.94123
屯	-7.94305
殺之	-7.94529
呉	-7.94963
救	-7.95052
但	-7.95301
就	-7.955
杜	-7.95662
并	-7.95699
哉	-7.95727
孝	-7.95894
三月	-7.96187
動	-7.96237
皇帝	-7.96339
列	-7.96582
孤	-7.96616
存	-7.96773
罷	-7.97047
堂	-7.97134
變	-7.97293
並	-7.97381
勝	-7.97584
里	-7.9766
納	-7.97719
由	-7.97816
嵗	-7.97882
止	-7.9794
利	-7.98398
幸	-7.984
署	-7.98413
除	-7.98482
彦	-7.98682
卷	-7.98819
曜	-7.98943
儀	-7.9901
春	-7.99142
滅	-7.99186
喜	-7.99604
謝	-7.9962
木	-7.9987
别	-7.99883
莫	-8.00017
甲	-8.00216
教	-8.00243
司	-8.00543
隂	-8.00748
敬	-8.00986
兄	-8.01004
隆	-8.01263
秋七月	-8.01425
結	-8.01425
葬	-8.01513
伯	-8.01749
嗣	-8.02053
極	-8.02072
紀	-8.02343
顯	-8.02349
退	-8.02709
職	-8.02988
酒	-8.03018
閩	-8.03075
惡	-8.03475
畧	-8.03598
咸	-8.03764
四年	-8.03785
廢	-8.03884
尚書	-8.03996
雅	-8.04232
具	-8.04286
推	-8.04338
月	-8.04488
逆	-8.04552
超	-8.04774
懐	-8.04978
目	-8.05707
追	-8.05773
儒	-8.0625
收	-8.06478
郭	-8.06503
車	-8.07085
精	-8.07167
造	-8.07258
勸	-8.07655
衛	-8.07791
夢	-8.07993
伏	-8.08238
朕	-8.08479
韓	-8.08885
遊	-8.08891
期	-8.08903
運	-8.09111
記	-8.09161
棄	-8.09198
蠻	-8.09446
象	-8.09596
羣	-8.09692
視	-8.09822
薨	-8.1003
淮南	-8.101
長安	-8.10131
附	-8.1034
至是	-8.10902
孟	-8.11228
比	-8.11777
良	-8.11785
統	-8.11862
紹	-8.12044
累	-8.12056
江南	-8.12175
魯	-8.12452
殷	-8.12617
輔	-8.12688
對	-8.12774
足	-8.13101
十二月	-8.13233
仍	-8.13255
恭	-8.13389
客	-8.1345
彼	-8.13521
飛	-8.13552
慶	-8.13655
離	-8.13691
冦	-8.13795
是月	-8.13813
向	-8.13833
姓	-8.13841
持	-8.13885
智	-8.14205
院	-8.14206
掠	-8.14241
宴	-8.14292
司馬	-8.14728
私	-8.14977
省	-8.15424
尊	-8.15486
夀	-8.15663
成都	-8.15803
昔	-8.15915
征	-8.16063
待	-8.16153
火	-8.16342
千	-8.16515
勇	-8.16936
輕	-8.16959
忽	-8.17006
未幾	-8.1727
强	-8.17457
邑	-8.17568
天子	-8.17638
鄉	-8.17678
援	-8.17934
報	-8.18253
壽	-8.18498
金陵	-8.18537
害	-8.18649
聰	-8.18692
已而	-8.18739
青	-8.18786
充	-8.18815
便	-8.18956
近	-8.19038
鄭	-8.19066
池	-8.19211
九月	-8.19324
務	-8.19326
久	-8.19326
百姓	-8.19406
要	-8.19536
五年	-8.19636
南唐	-8.19822
資	-8.19983
郎	-8.20002
仲	-8.20027
英	-8.20229
乞	-8.20252
按	-8.20389
而不	-8.20395
病	-8.20632
典	-8.21457
約	-8.217
䘚	-8.21767
諫	-8.21838
負	-8.21905
賀	-8.21939
刺史	-8.22244
尹	-8.22259
斯	-8.22261
録	-8.22454
六月	-8.22546
哀	-8.22624
顧	-8.22688
草	-8.22748
族	-8.2298
散	-8.23057
憂	-8.23221
即位	-8.23304
竒	-8.23406
姚	-8.23442
舟	-8.24182
境	-8.24546
秋	-8.2459
危	-8.24935
聞之	-8.25156
刑	-8.25181
徴	-8.25237
室	-8.25286
乗	-8.2548
寵	-8.25534
太后	-8.25614
隱	-8.25622
乘	-8.25688
敢	-8.25775
愛	-8.25962
虜	-8.26125
宻	-8.26198
機	-8.2643
大將軍	-8.26544
急	-8.266
萇	-8.26663
徒	-8.26759
略	-8.268
樓	-8.26877
由是	-8.27022
賦	-8.27307
榮	-8.27787
指	-8.28064
雨	-8.28144
養	-8.2848
布	-8.28515
勞	-8.28631
桓	-8.28687
監	-8.28774
先是	-8.29159
五月	-8.29559
赴	-8.29617
廟	-8.29728
免	-8.29996
二月	-8.30308
禁	-8.30461
魚	-8.30628
是時	-8.30989
原	-8.31198
贈	-8.31203
暴	-8.3127
星	-8.31291
升	-8.31561
馳	-8.31583
禍	-8.31728
彌	-8.31778
拒	-8.32092
謙	-8.32235
形	-8.32423
侍中	-8.32856
賞	-8.32984
陷	-8.32996
夫人	-8.33283
說	-8.33358
八月	-8.33388
給	-8.33616
斷	-8.33673
崔	-8.33685
耶	-8.33718
達	-8.33918
振	-8.33955
窮	-8.34233
怨	-8.34273
屢	-8.34452
感	-8.34508
吳王	-8.34526
兄弟	-8.34707
祚	-8.3476
先主	-8.34773
農	-8.34846
如此	-8.34912
曲	-8.35071
選	-8.35469
市	-8.35555
投	-8.35805
一日	-8.35829
不敢	-8.35872
羣臣	-8.35898
野	-8.35974
簡	-8.3602
歴	-8.36089
扵	-8.36275
移	-8.36279
従	-8.36376
亮	-8.36385
面	-8.36522
歲	-8.36574
佛	-8.36576
邪	-8.36689
佐	-8.36805
朝廷	-8.36805
設	-8.3684
澤	-8.3731
高祖	-8.37443
鄴	-8.37444
冠	-8.37827
勲	-8.38067
飲	-8.38103
猛	-8.3813
曹	-8.38236
末	-8.38368
侵	-8.38578
諭	-8.39009
符	-8.39162
接	-8.39169
殊	-8.39196
音	-8.39527
之後	-8.39644
花	-8.39818
案	-8.39853
康	-8.39977
再	-8.40238
不從	-8.40826
諸將	-8.41059
盧	-8.41123
松	-8.41431
博	-8.41547
休	-8.41798
牛	-8.41906
督	-8.42031
妃	-8.42091
微	-8.42148
烈	-8.42335
弱	-8.42384
富	-8.42433
丁	-8.4246
樹	-8.42752
助	-8.4278
尤	-8.42954
招	-8.43025
落	-8.43241
指揮使	-8.43293
改元	-8.43465
庭	-8.43509
廷	-8.43513
亭	-8.43682
戍	-8.4412
積	-8.44487
朗	-8.44579
户	-8.44592
洛	-8.44664
聽	-8.44938
逼	-8.44965
讓	-8.44984
依	-8.45026
辟	-8.4515
畫	-8.45483
世子	-8.45752
兒	-8.45759
京	-8.45956
斬之	-8.46103
從之	-8.46455
勿	-8.46483
揚	-8.46661
霸	-8.46853
彭	-8.47038
率衆	-8.47265
淮	-8.47362
惠	-8.47424
考	-8.47553
曰此	-8.47557
泉	-8.47699
十一月	-8.47836
施	-8.4787
無所	-8.47903
偽	-8.48125
戎	-8.48229
釋	-8.48584
邦	-8.48677
工	-8.4871
世祖	-8.48843
患	-8.4895
闗	-8.4926
情	-8.49302
慮	-8.49304
爭	-8.49645
而還	-8.49758
避	-8.49778
敏	-8.50002
聚	-8.50242
體	-8.50316
禹	-8.50343
申	-8.50691
適	-8.51063
轉	-8.51091
覺	-8.51224
太尉	-8.51229
徃	-8.51281
橋	-8.51316
述	-8.51609
識	-8.51994
犯	-8.52061
裕	-8.52348
洞	-8.52437
竊	-8.52621
襄	-8.52696
假	-8.52764
翰	-8.52777
築	-8.52784
邊	-8.52847
子也	-8.52949
步	-8.53013
洛陽	-8.53182
狀	-8.53237
纂	-8.5327
璋	-8.53383
冬	-8.53518
鍾	-8.53522
俗	-8.53527
幽	-8.53557
六年	-8.53657
專	-8.53916
友	-8.54253
覆	-8.54269
泰	-8.5428
葢	-8.54306
赤	-8.54309
閣	-8.54358
安南	-8.54362
傷	-8.54415
都督	-8.54564
訓	-8.5462
喪	-8.54682
種	-8.54711
謂之	-8.5481
密	-8.5493
淵	-8.54969
肅	-8.55017
劒	-8.55143
軍節度使	-8.55155
遼	-8.5516
程	-8.5539
暉	-8.55807
説	-8.55893
委	-8.56127
戸	-8.5626
貞	-8.56306
陸	-8.56461
䇿	-8.56463
契丹	-8.5653
索	-8.56636
茂	-8.57256
庶	-8.57286
武肅王	-8.57291
震	-8.57308
京師	-8.57578
穆	-8.57941
宿	-8.58128
之地	-8.58351
大夫	-8.58513
丹	-8.58804
茍	-8.58892
福州	-8.58912
越王	-8.58929
叔	-8.58978
皝	-8.59241
冲	-8.59242
險	-8.59269
不知	-8.59474
縱	-8.59544
毛	-8.59589
潛	-8.59674
湖	-8.59874
吳越	-8.59905
責	-8.60045
戒	-8.6006
澄	-8.60118
其子	-8.60202
巖	-8.60432
籍	-8.60434
竹	-8.60441
勅	-8.60479
决	-8.60511
士卒	-8.60669
壁	-8.60811
爵	-8.60868
勤	-8.60929
懿	-8.61183
帶	-8.61287
預	-8.61289
他	-8.61366
憲	-8.61603
畏	-8.61655
沈	-8.6166
校	-8.6168
吴	-8.61731
㫖	-8.61961
溪	-8.62027
太宗	-8.62035
沙	-8.62169
䘮	-8.62408
珠	-8.62481
遵	-8.62521
呼	-8.628
丘	-8.62824
錄	-8.62842
豐	-8.62848
匡	-8.6295
幼	-8.63261
藏	-8.63265
知誥	-8.63298
司空	-8.63346
懷	-8.6363
津	-8.6365
秋八月	-8.63679
基	-8.63706
苦	-8.6377
春秋	-8.63801
公主	-8.63909
掌	-8.64126
術	-8.64141
擒	-8.64196
香	-8.64406
恒	-8.64431
詞	-8.64453
輙	-8.64499
對曰	-8.64676
衡	-8.64691
支	-8.64722
谷	-8.64867
紫	-8.64929
恨	-8.64939
劍	-8.64977
所以	-8.64995
侍	-8.64995
薦	-8.65294
念	-8.65317
竟	-8.65378
射	-8.65667
䝉遜	-8.65685
息	-8.65705
况	-8.65743
副	-8.65874
不許	-8.65946
朔	-8.65979
段	-8.66079
傾	-8.6613
須	-8.6613
奪	-8.66247
示	-8.66458
總	-8.66566
而已	-8.66603
干	-8.66606
季	-8.66699
藩	-8.66769
翼	-8.66808
二十	-8.66865
空	-8.66938
句	-8.66971
司徒	-8.67059
忌	-8.67287
慕容	-8.677
隠	-8.67737
来	-8.67877
宏	-8.68123
䝉	-8.68431
希	-8.68508
參	-8.68574
傉檀	-8.68622
漸	-8.69088
背	-8.69108
不足	-8.69275
丞相	-8.69365
源	-8.69826
副使	-8.6987
擢	-8.70072
豪	-8.70171
諸軍	-8.70386
自稱	-8.70428
軌	-8.7045
允	-8.70803
輿	-8.70859
銀	-8.71101
荒	-8.71249
輒	-8.71306
虞	-8.71319
屈	-8.71382
可以	-8.7163
質	-8.71852
黨	-8.71887
渡	-8.7194
將兵	-8.71996
井	-8.72028
七年	-8.7206
祀	-8.72144
放	-8.72184
𩔖	-8.72188
赦	-8.72218
黎	-8.7231
蘇	-8.72319
子胥	-8.72569
歌	-8.72595
十年	-8.72618
仰	-8.72635
社稷	-8.72636
都指揮使	-8.72804
巴	-8.73314
潰	-8.73382
王命	-8.73465
烏	-8.73763
班	-8.73883
驚	-8.74218
秀	-8.74363
端	-8.74403
薄	-8.74415
關	-8.74479
泣	-8.74614
帛	-8.74621
吉	-8.74626
虚	-8.75158
疆	-8.75287
寛	-8.75292
同平章事	-8.75296
泓	-8.75309
蔡	-8.75342
知祥	-8.75476
嶺	-8.75684
討之	-8.75713
半	-8.7575
徵	-8.75782
諸侯	-8.75783
冊	-8.75809
巨	-8.75819
舍	-8.76048
賈	-8.7621
壘	-8.76235
擊之	-8.76309
厯	-8.7633
羽	-8.76608
喬	-8.7662
逃	-8.77069
熙	-8.77222
恪	-8.77311
冀	-8.77328
詳	-8.77452
夏五月	-8.77683
建州	-8.77693
閔	-8.77749
之事	-8.77838
違	-8.77947
巳	-8.77954
然後	-8.78468
所殺	-8.78529
弗	-8.78556
以爲	-8.78569
十二	-8.78571
馮	-8.78578
衍	-8.78598
融	-8.7864
拔	-8.78949
仙	-8.78949
錦	-8.79002
滿	-8.79039
文武	-8.79123
董	-8.79316
候	-8.7951
瑞	-8.79516
國人	-8.79541
嵩	-8.79597
薛	-8.79998
辛	-8.8029
而去	-8.80347
館	-8.80461
察	-8.80462
藥	-8.80471
誰	-8.80495
費	-8.80516
儁	-8.80597
補	-8.80936
鼓	-8.8097
試	-8.80995
習	-8.81027
序	-8.81044
廆	-8.81049
笑	-8.81233
鳳	-8.81327
羊	-8.81429
早	-8.81433
謹	-8.81455
既而	-8.8179
判	-8.81791
五千	-8.81841
船	-8.81873
諱	-8.819
健	-8.81976
許之	-8.82016
阮	-8.82347
雍	-8.8239
死者	-8.82722
是嵗	-8.82779
熈	-8.82866
蓋	-8.8293
遽	-8.82942
皇后	-8.83123
大敗	-8.83496
引兵	-8.83718
優	-8.83723
忘	-8.83816
數千	-8.83924
財	-8.83959
牧	-8.84256
俄	-8.84256
辰	-8.84379
珍	-8.84389
齊丘	-8.8443
荆南	-8.84553
逐	-8.84659
塞	-8.84885
慎	-8.8489
頵	-8.84894
焚	-8.84956
丈	-8.85046
将軍	-8.85101
内外	-8.8517
𨽻	-8.85373
眀	-8.85383
中原	-8.85423
幾	-8.85613
俊	-8.85685
歩	-8.85729
乾	-8.85855
維	-8.85857
使者	-8.85859
獄	-8.85895
切	-8.859
誓	-8.85933
冬十一月	-8.85947
愚	-8.8597
衰	-8.85978
諸子	-8.86002
自是	-8.86108
大怒	-8.86123
寒	-8.86437
父子	-8.86477
丗	-8.86547
哭	-8.86667
寢	-8.86894
畢	-8.86943
躬	-8.86945
撰	-8.86966
貶	-8.86993
麟	-8.87006
血	-8.8739
辱	-8.8749
角	-8.87501
覽	-8.87504
困	-8.87523
岐	-8.87524
刺	-8.87571
品	-8.87575
審	-8.87798
長史	-8.87809
丕	-8.87946
量	-8.87995
醉	-8.88012
明年	-8.88264
蘭	-8.88484
輩	-8.88495
蕩	-8.88502
誤	-8.88533
祐	-8.88652
駕	-8.88681
久之	-8.88731
知其	-8.88798
宣州	-8.88835
役	-8.88836
阿	-8.89012
悲	-8.89032
唯	-8.89095
鑒	-8.89122
岳	-8.8933
鄧	-8.89512
中山	-8.89772
弼	-8.89822
將士	-8.89889
鼎	-8.90071
寜	-8.90105
墓	-8.90156
使人	-8.90271
曰今	-8.90352
㧞	-8.90496
不復	-8.90524
晟	-8.90525
八年	-8.90537
到	-8.90548
潘	-8.90581
愈	-8.90604
寸	-8.90608
中書令	-8.90652
旦	-8.90914
五十	-8.91048
陣	-8.91157
趨	-8.91207
廣陵	-8.91365
節度	-8.91498
逰	-8.91658
規	-8.91667
調	-8.91689
至於	-8.91806
三十	-8.91997
子孫	-8.92171
桑	-8.92173
銅	-8.92181
趣	-8.92221
横	-8.9224
配	-8.92271
留後	-8.926
印	-8.92737
毅	-8.92769
屋	-8.92785
謁	-8.92934
寇	-8.93165
陶	-8.9317
大王	-8.93274
没	-8.93313
䖍	-8.93441
己	-8.93475
不克	-8.93566
國家	-8.93636
今日	-8.93726
割	-8.93781
祭	-8.93817
界	-8.93859
詐	-8.93922
入朝	-8.93981
麗	-8.94202
祠	-8.94209
糧	-8.94387
雷	-8.94389
盟	-8.94425
恃	-8.94433
雜	-8.94441
錫	-8.94519
夕	-8.94694
吕	-8.94776
之心	-8.94917
刻	-8.94952
勃勃	-8.9498
折	-8.94993
漢中	-8.95278
不如	-8.95394
宇	-8.95411
壯	-8.9548
範	-8.95541
蕭	-8.95542
脩	-8.95559
託	-8.95564
操	-8.95577
鮮卑	-8.95582
暐	-8.95606
舎	-8.95663
荆	-8.95789
言於	-8.95829
苻	-8.95925
乆	-8.95948
毁	-8.96123
姑	-8.96126
宰相	-8.96229
四十	-8.96442
范	-8.96447
所敗	-8.96551
之所	-8.9667
筆	-8.96683
徽	-8.96877
潤州	-8.96904
倉	-8.9703
遜	-8.9715
辨	-8.97264
殘	-8.97298
交州	-8.97537
擅	-8.97847
尺	-8.98006
婦	-8.9825
驛	-8.98278
逹	-8.98314
慈	-8.98331
奮	-8.98365
杖	-8.98407
莫不	-8.98432
奴	-8.98459
妾	-8.98735
上書	-8.98771
晏	-8.98811
𫝊	-8.98954
園	-8.98975
逸	-8.99002
不及	-8.99025
列傳	-8.99213
潮	-8.99367
續	-8.99476
游	-8.99558
産	-8.99604
拒之	-8.99617
一人	-9.00088
羗	-9.00138
騰	-9.00154
純	-9.00164
仗	-9.0019
三日	-9.00369
雪	-9.004
今從	-9.00499
欽定四庫全書	-9.00657
世宗	-9.00689
郡縣	-9.00876
效	-9.0119
大都督	-9.01246
贊	-9.01265
弓	-9.01288
顔	-9.01297
城中	-9.01364
諡	-9.01456
太原	-9.01479
而死	-9.01532
扶	-9.0179
回	-9.01874
殂	-9.01892
姦	-9.01901
米	-9.01904
䧟	-9.01938
𥘉	-9.01951
績	-9.02171
乾歸	-9.02225
三千	-9.02227
貧	-9.02258
為人	-9.02313
禄	-9.02376
貪	-9.02483
欽	-9.02484
甘	-9.02519
沉	-9.02558
予	-9.02563
禪	-9.02851
寡	-9.02896
格	-9.02944
鹽	-9.03014
奈何	-9.03189
政事	-9.03522
速	-9.03608
悟	-9.03735
湯	-9.04293
却	-9.04305
涼	-9.04506
湖南	-9.04511
賔	-9.04747
進攻	-9.04825
波	-9.04827
慕	-9.04865
鎬	-9.04869
柔	-9.04889
皮	-9.04932
冬十二月	-9.04942
㓜	-9.04944
鎭	-9.04957
貨	-9.04975
庫	-9.0532
衞	-9.0533
故事	-9.05375
韋	-9.05517
學士	-9.05529
側	-9.05532
三萬	-9.05553
判官	-9.05681
嗣主	-9.05781
人皆	-9.05854
交阯	-9.05878
條	-9.05951
其後	-9.06024
曰臣	-9.06117
所在	-9.06188
散騎常侍	-9.0621
保大	-9.06349
大臣	-9.06661
崩	-9.06667
二萬	-9.06734
環	-9.06754
靖	-9.06773
帥衆	-9.06816
俟	-9.07021
牙	-9.07193
龜	-9.07268
聘	-9.07271
伊	-9.07395
誦	-9.07447
敦	-9.07479
妙	-9.07481
囚	-9.07524
男	-9.07534
謨	-9.07583
王師	-9.0776
太傅	-9.07901
繁	-9.08058
刀	-9.08129
一時	-9.0822
又遣	-9.08233
來降	-9.0868
仇	-9.08708
普	-9.08713
未㡬	-9.08809
僭	-9.09127
郊	-9.09167
瞻	-9.09309
綂	-9.09329
盖	-9.09337
靡	-9.09371
戮	-9.09388
倫	-9.09409
新羅	-9.096
不聽	-9.09615
損	-9.09936
鉉	-9.09959
氐	-9.10036
夏六月	-9.10068
頃	-9.10082
百官	-9.10145
知訓	-9.10226
袁	-9.10274
踰	-9.10355
儼	-9.10438
裔	-9.10492
稍	-9.10496
尚書令	-9.10527
徑	-9.10562
循	-9.10618
懸	-9.1063
強	-9.10655
之間	-9.10657
鳯	-9.10667
憤	-9.10672
何以	-9.10788
鐵	-9.10952
乃以	-9.11065
乙	-9.11178
岸	-9.11217
創	-9.11258
提	-9.11282
卜	-9.11282
恢	-9.11295
鏐	-9.11303
李氏	-9.11432
中外	-9.11676
戲	-9.11833
房	-9.11961
數萬	-9.12135
建康	-9.12148
饑	-9.1233
國主	-9.12421
撃	-9.12428
有司	-9.12517
斤	-9.12524
又有	-9.12541
骨	-9.12592
策	-9.12603
苑	-9.12604
肆	-9.12615
石虎	-9.12622
驕	-9.12655
宋齊丘	-9.12759
之衆	-9.12996
曰我	-9.13039
鑄	-9.13237
弑	-9.13238
秋九月	-9.13314
争	-9.13328
歳	-9.13659
占	-9.13672
阻	-9.13686
榖	-9.13883
㡬	-9.13896
戰於	-9.13896
盤	-9.139
題	-9.13927
凶	-9.13955
削	-9.13958
竭	-9.13989
幹	-9.1399
妖	-9.14003
宮	-9.14064
以其	-9.14089
在位	-9.14135
長沙	-9.14136
曰汝	-9.1415
苐	-9.14235
旅	-9.14254
二人	-9.1432
十六國春秋卷	-9.14351
起兵	-9.14353
功臣	-9.14411
瑾	-9.14479
豫	-9.14504
慰	-9.1452
式	-9.14569
誘	-9.14594
周師	-9.14597
募	-9.14639
貫	-9.14658
之言	-9.14825
五百	-9.14862
諸軍事	-9.1512
其言	-9.15191
遂以	-9.15234
啓	-9.15243
商	-9.1528
栁	-9.15288
根	-9.15288
蒲	-9.15294
中國	-9.15311
飾	-9.15315
毎	-9.1535
否	-9.15377
階	-9.15378
曰昔	-9.15552
一云	-9.15648
之功	-9.15775
無不	-9.15805
論曰	-9.15839
其所	-9.15956
露	-9.15979
席	-9.16031
其事	-9.16055
數百	-9.16318
河南	-9.16402
九年	-9.16517
逵	-9.16561
暠	-9.16563
啟	-9.16571
殆	-9.16593
鬼	-9.16635
雙	-9.1667
隣	-9.16678
宰	-9.16678
照	-9.16682
防	-9.16696
十萬	-9.16951
以來	-9.16997
孔	-9.17104
洎	-9.17104
軍中	-9.17233
決	-9.17354
輸	-9.17367
昶	-9.17381
旁	-9.17397
粲	-9.17398
誣	-9.17412
元帥	-9.1743
沒	-9.17432
有功	-9.17437
江陵	-9.17693
四方	-9.17743
太師	-9.17889
四海	-9.17916
十三	-9.17953
返	-9.18027
汴	-9.18035
似	-9.18037
柱	-9.18039
緯	-9.1806
亟	-9.1809
衝	-9.18101
抗	-9.18104
孰	-9.18125
校尉	-9.18138
天祐	-9.18456
管	-9.18687
講	-9.18755
賓	-9.1877
君子	-9.18779
擇	-9.18786
災	-9.188
㱕	-9.18802
惑	-9.18813
者皆	-9.18822
鳥	-9.18841
供	-9.18976
一百	-9.19305
瓊	-9.19317
廵	-9.19348
誅之	-9.1938
裴	-9.19394
寨	-9.19454
妄	-9.19466
韜	-9.19498
熾磐	-9.19563
肉	-9.19602
忠懿王	-9.19702
胥	-9.19738
大破之	-9.1989
疏	-9.1998
也今	-9.20049
彬	-9.20057
驤	-9.201
殿下	-9.20106
太平	-9.20125
髪	-9.20189
昏	-9.20204
娶	-9.20209
虛	-9.20226
洪州	-9.20293
攻之	-9.20574
乃止	-9.20625
厲	-9.20651
恵	-9.20767
駿	-9.20784
乂	-9.20846
羌	-9.2086
詰	-9.20903
文穆王	-9.20904
尸	-9.20915
材	-9.20916
付	-9.20937
捕	-9.20938
其衆	-9.20964
惜	-9.20969
益州	-9.20974
評	-9.20981
河東	-9.21311
奕	-9.21337
千里	-9.21386
編	-9.21536
采	-9.21617
亷	-9.21652
像	-9.21686
長子	-9.21763
姜	-9.21777
傑	-9.22041
燒	-9.22051
碑	-9.22092
賴	-9.22112
擁	-9.22239
不受	-9.22259
遐	-9.22278
談	-9.2233
褒	-9.22338
翰林學士	-9.22339
兹	-9.22376
子弟	-9.22379
邵	-9.22383
歎	-9.22505
兆	-9.22527
數年	-9.22769
諌	-9.22777
驅	-9.22914
細	-9.23067
厥	-9.23109
巡	-9.2311
塵	-9.2312
托	-9.2314
繫	-9.23142
救之	-9.2317
䟦	-9.23222
妻子	-9.2342
安定	-9.23674
鹿	-9.23746
峻	-9.23779
絳	-9.23791
攝	-9.2389
属	-9.23892
嗣位	-9.23906
參軍	-9.24127
王子	-9.2423
庸	-9.24414
十八	-9.24549
黃	-9.24565
履	-9.24617
翁	-9.24623
主簿	-9.24663
祥	-9.24684
大軍	-9.248
昇	-9.25037
諡曰	-9.25066
從事	-9.25097
舉兵	-9.25189
饒	-9.25211
十國春秋卷	-9.25244
紅	-9.25281
剛	-9.25299
傅	-9.25312
味	-9.25322
最	-9.25346
之禮	-9.25472
悔	-9.25567
惡之	-9.25584
千餘	-9.25916
禦	-9.25949
尉	-9.25962
葉	-9.26017
百餘	-9.2607
䜟	-9.26083
什	-9.26099
虐	-9.26101
竝	-9.26126
級	-9.26128
數十	-9.26155
掩	-9.26159
匿	-9.26173
不為	-9.26237
累遷	-9.26382
之罪	-9.26488
忍	-9.26564
歎曰	-9.26589
浮	-9.2673
偏	-9.26823
盜	-9.26825
齊邱	-9.26861
俾	-9.26862
六十	-9.26864
蒙	-9.26866
短	-9.26881
其地	-9.26886
午	-9.26894
君臣	-9.26908
泉州	-9.26925
十一年	-9.27163
敗績	-9.27312
不見	-9.27406
廣漢	-9.27512
獵	-9.27624
南漢	-9.27643
整	-9.27687
其弟	-9.27726
於此	-9.28064
二百	-9.28126
悦	-9.2819
于是	-9.2827
諷	-9.28296
是以	-9.28309
歡	-9.28333
旗	-9.2836
渠	-9.28377
耕	-9.28381
藝	-9.28408
怪	-9.28421
淫	-9.28425
綰	-9.28432
煩	-9.28439
▁(	-9.28441
號曰	-9.2849
㣲	-9.28501
篇	-9.28572
俘	-9.28905
武穆王	-9.29107
莊	-9.29113
溫	-9.29155
鳴	-9.29173
穀	-9.29207
禽	-9.29215
馬氏	-9.29292
天錫	-9.29362
䕶	-9.29539
遼東	-9.29695
郡公	-9.2975
王氏	-9.29801
州人	-9.29814
寅	-9.29832
邉	-9.29931
伍	-9.2997
旋	-9.30003
而歸	-9.30224
天福	-9.30445
浦	-9.3065
碩	-9.30657
矢	-9.30662
均	-9.30738
偉	-9.30758
曉	-9.30827
覇	-9.30869
童	-9.30997
秦州	-9.30999
所謂	-9.3102
廬	-9.3104
之志	-9.31054
十月	-9.31131
西川	-9.31144
國之	-9.31204
萬人	-9.31233
先帝	-9.31393
黙	-9.31482
數日	-9.31497
塔	-9.31527
尾	-9.31548
荷	-9.3156
祗	-9.31562
注	-9.31571
圗	-9.31616
明日	-9.31645
弊	-9.31656
七月	-9.31714
世家	-9.31742
匹	-9.31777
二子	-9.31885
大司馬	-9.31984
前蜀	-9.32256
楊氏	-9.32262
筠	-9.32382
墜	-9.32387
僕	-9.32405
卧	-9.3242
姬	-9.32447
諫曰	-9.32712
之士	-9.32747
聖人	-9.32945
曽	-9.32985
叟	-9.33123
擾	-9.33147
雞	-9.33153
宅	-9.33154
毒	-9.33172
弘	-9.33197
四月	-9.33445
父母	-9.33461
以下	-9.33544
先生	-9.33565
義祖	-9.33737
未嘗	-9.33808
緒	-9.33967
戴	-9.3397
者也	-9.33983
應之	-9.34059
□	-9.34113
進士	-9.34165
呉越	-9.34311
部落	-9.34436
宋太祖	-9.3457
王以	-9.34686
常州	-9.34766
誕	-9.34776
某	-9.34789
陰	-9.34799
雋	-9.34842
盈	-9.34845
上表	-9.3485
姑臧	-9.34853
鄙	-9.34872
答	-9.34901
篤	-9.34903
東南	-9.34997
隴西	-9.35066
公卿	-9.35114
不勝	-9.35158
行密	-9.35206
曰卿	-9.35387
之亂	-9.35413
取之	-9.35424
之意	-9.35457
十五	-9.35551
作亂	-9.35569
凉	-9.35597
盗	-9.35605
千餘人	-9.35769
舒	-9.35818
贇	-9.36229
大赦	-9.36241
好學	-9.36375
右僕射	-9.36425
黒	-9.3651
旌	-9.36516
叚	-9.36529
犀	-9.36533
元年春正月	-9.36554
渭	-9.3656
入貢	-9.3667
差	-9.3674
俄而	-9.36784
革	-9.37025
憚	-9.37119
律	-9.37274
檢	-9.37333
戚	-9.3736
僣	-9.3737
遥	-9.37388
斥	-9.37401
歛	-9.37417
狂	-9.37434
矩	-9.3744
詠	-9.37452
天地	-9.37522
是日	-9.37556
見之	-9.37564
十餘	-9.37602
二千	-9.37661
陳覺	-9.37674
二年春正月	-9.37751
膺	-9.38109
晝	-9.38115
暮	-9.38156
五代史	-9.38162
賛	-9.38171
黜	-9.38171
植	-9.38193
奢	-9.38235
排	-9.38246
十一	-9.38294
州牧	-9.3846
萬餘	-9.38653
壇	-9.38981
披	-9.39025
時人	-9.39037
我師	-9.39075
皓	-9.39099
墨	-9.391
旣	-9.39162
宋帝	-9.39184
朴	-9.39191
率騎	-9.39299
未有	-9.39523
何如	-9.39567
顥	-9.39715
正月	-9.39736
住	-9.3995
練	-9.39952
麻	-9.3997
科	-9.39972
迹	-9.39974
斗	-9.39979
屏	-9.39979
介	-9.3998
二州	-9.40004
百里	-9.4009
我兵	-9.40516
復遣	-9.40631
宫中	-9.40731
奉表	-9.40773
寄	-9.40778
囘	-9.40808
内史	-9.40816
獸	-9.40825
鐡	-9.40834
恣	-9.40839
矯	-9.40863
貳	-9.40866
遭	-9.40901
恥	-9.40912
十二年	-9.411
破之	-9.41159
揚州	-9.41297
其家	-9.41317
國公	-9.41381
大将軍	-9.4146
球	-9.41673
鋭	-9.41678
聴	-9.41695
乏	-9.41702
抑	-9.41725
太保	-9.41955
曾	-9.42297
潤	-9.42302
旬	-9.42332
道士	-9.42387
僚	-9.4239
與之	-9.424
縁	-9.42515
枝	-9.42519
渥	-9.42541
頓	-9.42565
舜	-9.4258
搆	-9.42591
屠	-9.42593
増	-9.42595
鴻	-9.42622
乾徳	-9.42744
建武	-9.43065
乃遣	-9.43436
冡	-9.43467
驗	-9.43514
叙	-9.43518
賣	-9.43544
七十	-9.43608
賤	-9.4361
入城	-9.43693
宋師	-9.43778
等皆	-9.43875
誨	-9.44066
西平	-9.44121
可謂	-9.44171
追之	-9.44199
導	-9.44203
字子	-9.44244
金銀	-9.44268
平章事	-9.4433
左僕射	-9.44352
耀	-9.44362
製	-9.44384
畜	-9.44419
知詢	-9.44535
閉	-9.44672
至元	-9.44879
之時	-9.44919
湘	-9.45048
燉煌	-9.45277
侍郎	-9.45292
蒙遜	-9.45333
秩	-9.45359
軰	-9.45373
偃	-9.45379
曰君	-9.45482
秦王	-9.45678
杭州	-9.45733
十餘人	-9.45817
通鑑	-9.4594
享	-9.45972
璽	-9.46187
絹	-9.46243
夾	-9.46253
綱	-9.46254
蛇	-9.46271
儲	-9.46271
瓘	-9.4629
𦙍	-9.46295
富貴	-9.46344
混	-9.46354
尚書郎	-9.46407
劉氏	-9.4649
之義	-9.46494
又以	-9.46691
不過	-9.46851
如故	-9.46865
忠臣	-9.46887
鋒	-9.46928
襄國	-9.46969
静	-9.47062
幕	-9.47075
喻	-9.47135
競	-9.4714
含	-9.47166
淳	-9.47166
州郡	-9.47189
彰	-9.47199
奸	-9.47241
梓潼	-9.47269
上下	-9.4729
而卒	-9.48004
一萬	-9.48029
增	-9.48048
戈	-9.48065
册	-9.48106
郁	-9.48119
沮	-9.48145
平陽	-9.48162
汗	-9.48164
伺	-9.48182
類	-9.48185
牢	-9.48202
謚曰	-9.48211
遂與	-9.48257
而出	-9.48394
視之	-9.48446
聞而	-9.4869
逢	-9.48852
郎中	-9.48888
帳	-9.48991
抵	-9.49002
駢	-9.49006
賂	-9.49039
之道	-9.4905
痛	-9.4908
藉	-9.49088
染	-9.49113
頼	-9.49127
潜	-9.49129
萬餘人	-9.49324
景遂	-9.49356
軍使	-9.49538
為太子	-9.49559
邀	-9.49572
從子	-9.49732
丞	-9.49939
峯	-9.4994
沖	-9.50011
員外郎	-9.50016
訪	-9.50023
舞	-9.50027
穴	-9.50034
涉	-9.50062
佞	-9.50096
歷	-9.50159
西北	-9.50414
境内	-9.50476
晉陽	-9.50657
龍城	-9.507
吴越	-9.50715
東西	-9.50776
先王	-9.50803
効	-9.5085
彭城	-9.50936
溥	-9.5094
寫	-9.51005
構	-9.51015
必有	-9.51027
三百	-9.5103
鶴	-9.51033
釁	-9.51056
十七	-9.51137
仁贍	-9.51153
巴西	-9.51303
軍士	-9.51374
前後	-9.51385
堪	-9.51407
有差	-9.51609
濬	-9.51768
弟子	-9.51815
時有	-9.51844
歆	-9.51881
演	-9.51923
佑	-9.51926
譚	-9.51984
矜	-9.51996
姿	-9.52003
採	-9.52015
姚萇	-9.5204
玄	-9.52043
都虞候	-9.52051
稚	-9.52054
兮	-9.52067
銳	-9.52093
自殺	-9.5227
延魯	-9.52289
王曰	-9.52357
百濟	-9.52372
不忍	-9.52388
單	-9.52512
朗州	-9.52587
太常	-9.52602
南詔	-9.52625
武王	-9.52678
秉	-9.52722
主上	-9.52785
讀	-9.5288
綿	-9.52926
卑	-9.52933
爰	-9.52957
嶽	-9.52978
熟	-9.53005
兼中書令	-9.53015
薊	-9.53021
凌	-9.53021
巫	-9.53027
晋	-9.53029
勾踐	-9.53037
行營	-9.53054
來奔	-9.53115
苻堅	-9.53229
萬里	-9.5332
王薨	-9.53362
宗廟	-9.53378
隴	-9.53402
開國	-9.53463
至于	-9.53586
十六	-9.53689
悅	-9.53703
未可	-9.5371
州團練使	-9.53943
中書侍郎	-9.53953
斛	-9.53973
抱	-9.53985
妹	-9.53986
摧	-9.54004
有一	-9.54033
亦不	-9.54071
又云	-9.54074
都尉	-9.54101
待之	-9.54208
潭	-9.54332
監軍	-9.54351
以此	-9.54508
欲以	-9.54527
十五年	-9.54599
齊王	-9.54688
闗中	-9.5478
發兵	-9.54839
契	-9.549
諸郡	-9.54947
堯	-9.5497
齒	-9.55004
浩	-9.55009
訴	-9.55027
擬	-9.55033
南安	-9.55034
㨗	-9.55052
専	-9.55071
招討使	-9.55162
出入	-9.55222
之命	-9.55365
是歲	-9.5544
東川	-9.5545
一旦	-9.55502
上疏	-9.55693
其罪	-9.55792
護	-9.55875
曰朕	-9.55903
弩	-9.55941
欵	-9.5598
敕	-9.5601
愧	-9.56023
甫	-9.56033
犬	-9.56041
寢疾	-9.56105
已又	-9.56349
建元	-9.56467
天水	-9.56556
明公	-9.56662
昇元	-9.56822
儉	-9.56973
部郎中	-9.56976
忿	-9.57036
鼔	-9.57037
汾	-9.57055
讒	-9.5706
脱	-9.57061
區	-9.57075
巧	-9.5708
鍇	-9.57119
累官	-9.57284
百餘人	-9.57297
是也	-9.57326
有所	-9.57361
十三年	-9.57371
廬州	-9.57437
輔政	-9.5746
城下	-9.57487
中有	-9.57522
請降	-9.57623
重華	-9.5766
睦	-9.57722
及其	-9.57839
王遣	-9.57965
頃之	-9.57974
茶	-9.58023
江州	-9.58025
渾	-9.58054
舅	-9.58055
突	-9.58098
臂	-9.5811
遠	-9.58125
中郎將	-9.58126
庠	-9.58134
嗣慶	-9.58134
當時	-9.58167
文章	-9.58177
莭度使	-9.58232
唐主	-9.58264
大懼	-9.58281
相國	-9.58313
不納	-9.58495
河西	-9.58557
酷	-9.58611
郡王	-9.58686
鄰	-9.58809
遁	-9.58935
場	-9.5907
行軍司馬	-9.59095
攀	-9.59136
毋	-9.59136
戦	-9.59146
刼	-9.59149
彊	-9.59151
珪	-9.59169
上邽	-9.59172
翟	-9.59214
邃	-9.5923
流涕	-9.59238
用事	-9.59387
永昌	-9.59539
寡人	-9.59564
蘇州	-9.59744
域	-9.59776
而無	-9.59793
江淮	-9.59826
貽	-9.59965
燕王	-9.59972
驍	-9.6004
秘	-9.60124
粟	-9.60136
希萼	-9.60143
貌	-9.60172
銘	-9.60176
恕	-9.60209
脫	-9.6024
㑹稽	-9.60242
覩	-9.60258
頴	-9.60291
浚	-9.6039
永安	-9.60408
大事	-9.60437
是年	-9.60475
甲子	-9.60486
周世宗	-9.60517
水陸	-9.60529
廣政	-9.60695
之際	-9.60771
名曰	-9.60969
亦有	-9.6106
固守	-9.61141
受命	-9.61153
未至	-9.61157
員	-9.61236
頻	-9.61246
銜	-9.61253
鑿	-9.61263
激	-9.61265
節度副使	-9.61279
掃	-9.61359
得其	-9.61487
既至	-9.618
從弟	-9.61821
一千	-9.62039
檄	-9.62216
齋	-9.62273
峽	-9.62275
臯	-9.62296
裁	-9.62301
育	-9.62316
凝	-9.62322
鞭	-9.62326
如是	-9.62358
慙	-9.62412
食邑	-9.62535
宋齊邱	-9.62555
見其	-9.62617
龕	-9.62651
清河	-9.62815
繼勲	-9.63231
之計	-9.63293
綏	-9.63365
勁	-9.63384
碧	-9.63409
傍	-9.63428
焦	-9.63447
黑	-9.63455
乃命	-9.63455
遲	-9.63467
例	-9.63468
進思	-9.63493
兄子	-9.63507
瑶	-9.63512
叱	-9.63528
座	-9.63539
謂之曰	-9.63692
十四	-9.63752
不同	-9.63801
進封	-9.63804
諸将	-9.63811
兵攻	-9.63909
不至	-9.63913
知之	-9.63966
送之	-9.64096
溺	-9.64268
隅	-9.64329
肇	-9.64334
也乃	-9.64417
天寳	-9.64421
釗	-9.64487
琨	-9.64492
慧	-9.64494
頒	-9.64562
艾	-9.64571
阜	-9.64584
宥	-9.64591
飬	-9.64599
代之	-9.64604
庻	-9.64625
倚	-9.64637
琛	-9.64701
豹	-9.64767
興師	-9.64798
三年春正月	-9.64833
金帛	-9.64915
之役	-9.64992
范蠡	-9.65178
之日	-9.65201
王猛	-9.6528
叔父	-9.65299
稽	-9.6551
涪	-9.65558
江西	-9.65665
戰于	-9.65675
閻	-9.65694
不與	-9.65707
輪	-9.65709
芳	-9.6571
挾	-9.65715
棺	-9.65759
憑	-9.65764
捨	-9.65776
男女	-9.65861
夫差	-9.65876
可求	-9.65966
復以	-9.6599
以待	-9.66298
延政	-9.66329
姓名	-9.66531
鄂	-9.66547
歐陽	-9.66743
隔	-9.66754
跡	-9.66758
璠	-9.66763
鈞	-9.66786
捷	-9.66792
駭	-9.66844
禱	-9.66851
竄	-9.66861
緩	-9.66862
靣	-9.66881
幣	-9.66884
裂	-9.66897
徐鉉	-9.66963
足以	-9.66996
為左	-9.67024
國王	-9.67196
太弟	-9.67201
衆心	-9.6725
終不	-9.67441
鮮	-9.67568
金城	-9.67734
衙	-9.67789
韶	-9.6784
贍	-9.67881
濤	-9.67884
十九	-9.67939
祝	-9.67974
都監	-9.67994
訟	-9.6801
僕射	-9.68016
禾	-9.68048
嶷	-9.68091
流民	-9.68103
死之	-9.68206
而後	-9.68215
持節	-9.68346
大悦	-9.68368
勉	-9.68482
問之	-9.68496
不欲	-9.68589
幽州	-9.68814
宛	-9.68999
其餘	-9.69
靜	-9.69027
檢校	-9.69067
拱	-9.69081
翔	-9.691
播	-9.69101
庾	-9.69118
開府儀同三司	-9.69132
文學	-9.6914
永平	-9.69147
曰公	-9.69155
鏡	-9.69158
斬首	-9.69163
琴	-9.69173
哲	-9.69174
嗚呼	-9.69206
刃	-9.69208
奚	-9.69225
非常	-9.69246
楷	-9.69271
追封	-9.69278
枹罕	-9.69325
行逢	-9.69427
文徽	-9.69518
國亡	-9.69597
晉王	-9.69631
率兵	-9.69691
劉曜	-9.69724
署為	-9.69938
婦人	-9.70196
宐	-9.70269
掌書記	-9.70272
淑	-9.70295
併	-9.70299
寓	-9.70312
女也	-9.70323
伎	-9.70342
爽	-9.70359
笑曰	-9.70442
兼侍中	-9.70472
南郊	-9.70537
稱藩	-9.70608
疋	-9.70634
巴郡	-9.70683
蜀郡	-9.70837
恤	-9.70988
以兵	-9.71019
有異	-9.71224
十餘萬	-9.71226
王者	-9.71292
昊	-9.71297
鳳翔	-9.71428
僅	-9.71499
值	-9.71504
奔還	-9.71506
熊	-9.71525
泥	-9.71525
嫌	-9.71527
疲	-9.71537
天復	-9.71545
村	-9.71567
不絶	-9.71709
不用	-9.71773
占城	-9.71859
隙	-9.72042
之謀	-9.72122
其妻	-9.72259
不然	-9.72289
旱	-9.72308
來伐	-9.72429
去縣	-9.72486
其人	-9.72562
蒼	-9.72563
眉	-9.72627
下詔	-9.72663
塲	-9.72698
墮	-9.72717
緡	-9.72718
咎	-9.7272
㫁	-9.72729
冰	-9.72766
文昭王	-9.72771
車騎將軍	-9.72772
眷	-9.72789
國事	-9.72874
年六十	-9.72972
前鋒	-9.7305
固辭	-9.73243
䕶軍	-9.73304
徳誠	-9.73595
用之	-9.73666
唱	-9.73676
其黨	-9.73773
雲南	-9.73802
天下之	-9.73839
巢	-9.73845
烟	-9.73879
○	-9.7389
嫁	-9.73895
燭	-9.73897
嘆曰	-9.73915
途	-9.73918
𦍑	-9.7392
標	-9.73934
束	-9.73943
渤海	-9.73954
羲	-9.73961
邊鎬	-9.73979
勵	-9.7402
荅	-9.74027
斌	-9.7403
皆有	-9.74038
給事中	-9.74039
之子	-9.74147
失其	-9.74174
乆之	-9.74205
徐温	-9.74343
大悅	-9.74356
出降	-9.74401
城南	-9.74584
異之	-9.7474
前王	-9.74875
有大	-9.75033
塘	-9.75058
日月	-9.75083
浪	-9.75087
掘	-9.75128
迨	-9.75145
燈	-9.75155
廻	-9.75156
出為	-9.75157
囊	-9.75158
渉	-9.75174
𦵏	-9.75176
邁	-9.75179
京兆	-9.75203
繕	-9.75203
廞	-9.75209
辯	-9.75211
讚	-9.75243
髙麗	-9.75271
攸	-9.75272
田頵	-9.75279
𧺫	-9.75286
之徒	-9.75324
地震	-9.75435
壯士	-9.75473
城西	-9.75739
全忠	-9.75851
將吏	-9.75937
三軍	-9.75979
塗	-9.75988
莊宗	-9.75998
吏部尚書	-9.76015
之才	-9.7629
相繼	-9.7629
樞	-9.76331
敷	-9.76378
坊	-9.7644
其將	-9.76458
暢	-9.76479
堡	-9.76489
甞	-9.76517
註	-9.76562
樞密使	-9.76563
致仕	-9.76695
怒曰	-9.76715
之業	-9.76744
沙門	-9.76796
十卷	-9.76806
人心	-9.76854
東海	-9.76873
何不	-9.76935
西南	-9.77033
越人	-9.77209
長樂	-9.77227
其國	-9.77278
楚王	-9.774
禦之	-9.77453
宗族	-9.77467
恱	-9.77475
有餘	-9.77489
朔日有食之	-9.77604
澧	-9.77627
柴	-9.77632
其母	-9.77638
醫	-9.77685
大赦改元	-9.77685
玩	-9.77699
譽	-9.77721
賜王	-9.77727
屍	-9.77736
宫人	-9.7774
開寳	-9.77789
十四年	-9.77859
北面	-9.77933
其名	-9.77972
自立	-9.78022
襄陽	-9.78038
五萬	-9.78213
宗室	-9.78224
官至	-9.78353
承制	-9.78364
遼西	-9.78478
一夕	-9.78485
曰臣聞	-9.78575
厭	-9.78723
東宫	-9.78866
樊	-9.7888
晦	-9.78945
二十年	-9.78972
収	-9.78975
洽	-9.7898
利鹿孤	-9.78985
枕	-9.78996
郢	-9.78997
牀	-9.79026
警	-9.7903
山川	-9.79034
之故	-9.79039
切諫	-9.79242
建興	-9.7929
征伐	-9.79335
不可以	-9.7937
潭州	-9.7959
洪進	-9.79611
孔子	-9.79637
本紀	-9.79672
弟也	-9.79724
遣子	-9.79775
謚	-9.79792
不出	-9.80061
何為	-9.80145
諸王	-9.80222
尼	-9.80255
弔	-9.80263
柵	-9.80268
嫡	-9.80279
況	-9.80286
箭	-9.80292
嗟	-9.80305
侮	-9.80305
嘆	-9.80326
豈可	-9.80403
伏誅	-9.80575
宫室	-9.80617
曰陛下	-9.80625
蜀人	-9.80628
暇	-9.80754
為刺史	-9.80765
天成	-9.80779
台	-9.80841
已下	-9.80889
凉州	-9.80898
出戰	-9.80921
中宗	-9.80994
不堪	-9.81001
一方	-9.81092
唐末	-9.81121
其父	-9.81266
圖之	-9.8132
吏民	-9.814
葛	-9.81419
大將	-9.81446
皆以	-9.81503
濛	-9.81504
南海	-9.81508
詢	-9.81513
鐘	-9.81518
額	-9.81535
慚	-9.81545
卓	-9.81548
南陽	-9.81563
數千人	-9.81564
閲	-9.81568
蔣	-9.81605
譏	-9.81622
稜	-9.81623
晨	-9.81634
太宰嚭	-9.81647
以功	-9.81759
鄂州	-9.81856
渡江	-9.82084
其先	-9.82104
文進	-9.82128
浙	-9.82165
不宜	-9.82364
大小	-9.82414
更名	-9.82419
東北	-9.82442
年七十	-9.82517
秦州刺史	-9.82542
齎	-9.82699
克之	-9.82784
倣	-9.82827
翊	-9.82839
隋	-9.82851
縣令	-9.82884
納之	-9.82886
展	-9.82914
簒	-9.8292
閒	-9.82925
乙酉	-9.82933
詔書	-9.82934
垣	-9.82944
窺	-9.82945
敝	-9.8295
曠	-9.82954
檀	-9.82964
瓦	-9.82965
㳺	-9.82969
先鋒	-9.83005
飲酒	-9.83024
為使持節	-9.83029
固請	-9.83035
翰林	-9.83044
本國	-9.83056
博士	-9.83189
故也	-9.8319
之勢	-9.83213
長興	-9.83222
相與	-9.83244
九十	-9.83282
無功	-9.83298
南唐書	-9.8343
西域	-9.83539
諸州	-9.83565
而殺之	-9.836
帝王	-9.83636
水軍	-9.83648
復為	-9.8366
引還	-9.83923
社	-9.83963
南北	-9.83987
行至	-9.8401
夀州	-9.84039
䏻	-9.84153
奉使	-9.84155
譙	-9.84204
遏	-9.84212
灌	-9.84252
詩云	-9.84256
查文徽	-9.84261
麥	-9.84267
酒泉	-9.84273
黔	-9.84276
岑	-9.8429
證	-9.84306
檢校太尉	-9.84307
天王	-9.84308
掾	-9.84312
鸞	-9.84317
斂	-9.84319
饗	-9.84322
余	-9.84364
敞	-9.84415
讀書	-9.84435
國號	-9.84453
第一	-9.84566
太和	-9.84689
以自	-9.84807
測	-9.84886
神武	-9.84906
退保	-9.84927
涼州	-9.84969
之變	-9.85038
有隙	-9.8504
稱疾	-9.85296
後世	-9.85308
腹	-9.85512
買	-9.85547
氷	-9.8558
謬	-9.85591
跨	-9.85603
牽	-9.85625
寂	-9.85631
挺	-9.85633
太平興國	-9.85634
耿	-9.85636
蔽	-9.85649
輦	-9.85667
随	-9.85668
倒	-9.85668
入覲	-9.8567
劾	-9.8567
躍	-9.8568
扆	-9.85731
讎	-9.85741
活	-9.85742
門外	-9.85789
遣人	-9.85789
冠軍將軍	-9.85797
武帝	-9.85848
孫儒	-9.85974
帥騎	-9.86006
不利	-9.8614
永和	-9.86186
必不	-9.86199
千人	-9.86297
年號	-9.8651
問曰	-9.86595
桂	-9.86652
官爵	-9.868
言之	-9.86823
以備	-9.86825
十有	-9.86841
得免	-9.86872
門下	-9.86896
愍	-9.86928
錯	-9.86956
停	-9.86959
招討	-9.86975
頌	-9.86987
寃	-9.86997
兩浙	-9.86998
完	-9.87056
蘓	-9.87057
竇	-9.87058
自古	-9.8706
街	-9.87063
淺	-9.87067
穿	-9.87081
光禄大夫	-9.87081
巾	-9.87086
龍驤將軍	-9.87087
扇	-9.87091
乳	-9.87096
史臣曰	-9.87112
卽	-9.87139
綽	-9.8716
希崇	-9.87161
熈載	-9.87215
越絶	-9.87335
古人	-9.87389
之禍	-9.87518
益州刺史	-9.87694
廣武	-9.87947
腰	-9.88113
東都	-9.88173
堅曰	-9.88277
艱	-9.88341
射之	-9.88345
奬	-9.88378
龎	-9.88379
髮	-9.88398
祈	-9.8841
柄	-9.8841
罰	-9.88412
悼	-9.88453
駐	-9.88462
迫	-9.88463
溝	-9.88468
輔國將軍	-9.88507
别駕	-9.88515
拘	-9.88529
廟號	-9.88599
十九年	-9.88616
大業	-9.88666
冀州	-9.88676
天命	-9.88687
夀春	-9.88693
少子	-9.88702
即以	-9.88736
䝉古	-9.88765
大單于	-9.88776
遣弟	-9.88816
大亂	-9.88867
伐之	-9.88869
入見	-9.8887
大喜	-9.88993
百萬	-9.89029
不食	-9.89115
府庫	-9.89176
徐氏	-9.89229
之盛	-9.89245
景宗	-9.89443
昭宗	-9.89445
建寧	-9.89617
力戰	-9.89688
曺	-9.89732
人多	-9.8975
中興	-9.8975
龔	-9.89834
算	-9.89841
芝	-9.89849
蓄	-9.89863
恂	-9.89878
綵	-9.89879
紙	-9.89882
咨	-9.89886
冝	-9.89888
勃	-9.89895
耻	-9.89907
昧	-9.89918
肥	-9.89927
滋	-9.89936
錢塘	-9.89952
宿衛	-9.89968
人所	-9.89976
平王	-9.90249
出兵	-9.90276
擒之	-9.90331
以告	-9.90354
徳明	-9.90396
曰夫	-9.90501
使持節	-9.90603
景遷	-9.90656
叅	-9.91023
而退	-9.91087
為前鋒	-9.91087
閭	-9.912
仁義	-9.91206
凖	-9.91238
衛將軍	-9.91243
墳	-9.91248
王弟	-9.91255
丙午	-9.91271
昨	-9.91289
彦暉	-9.91298
諒	-9.91298
糓	-9.91301
恭孝王	-9.91314
稱臣	-9.91315
藻	-9.91318
獠	-9.91319
婁	-9.91323
究	-9.91335
乙丑	-9.91337
言曰	-9.91401
鍾謨	-9.91411
州縣	-9.91489
鄉里	-9.91548
乃使	-9.91589
永嘉	-9.9171
四年春正月	-9.91723
全武	-9.91964
次子	-9.91992
追尊	-9.92122
高句麗	-9.92163
字伯	-9.92202
梁州刺史	-9.92284
不平	-9.92549
邕	-9.92576
於吳	-9.92605
晚	-9.92631
麾	-9.92696
廢王	-9.92706
起家	-9.92714
儔	-9.92715
廖	-9.92719
丙戌	-9.92721
臧	-9.92751
陟	-9.92778
沃	-9.92785
彈	-9.92792
吞	-9.928
奇	-9.928
棲	-9.92813
眞	-9.92815
豫章	-9.92819
尅	-9.92821
八千	-9.92821
璧	-9.92826
梟	-9.92838
撓	-9.92879
大義	-9.92892
審知	-9.92971
以聞	-9.92974
神福	-9.9308
為右	-9.93174
小人	-9.93191
於外	-9.93192
所居	-9.93242
石勒	-9.933
為國	-9.93385
上黨	-9.93435
即日	-9.93439
建隆	-9.93444
曰若	-9.93571
相持	-9.93599
王諱	-9.93627
一名	-9.93688
王親	-9.937
精兵	-9.93731
五人	-9.93876
而行	-9.93879
愛之	-9.93887
忠義	-9.93918
餘衆	-9.93949
一卷	-9.9407
訖	-9.94098
殺其	-9.94117
徹	-9.94136
億	-9.94204
璉	-9.94208
吟	-9.94212
圭	-9.94214
稷	-9.94228
玊	-9.94245
騐	-9.9425
酬	-9.94259
漏	-9.94266
婚	-9.94279
迴	-9.94319
部曲	-9.94437
暮末	-9.9445
廬山	-9.94638
嘉之	-9.9465
公子	-9.94728
不肯	-9.94733
子貢	-9.94756
周主	-9.94787
十六年	-9.9489
際	-9.95114
中朝	-9.95318
為主	-9.95343
倍	-9.95417
相見	-9.95447
遂為	-9.95555
竒之	-9.95602
嶺南	-9.95671
母弟	-9.95677
蕃	-9.95728
羡	-9.95752
漆	-9.95759
㓂	-9.95763
霍	-9.95776
酋	-9.95784
只	-9.95785
乖	-9.95789
慢	-9.95791
廉	-9.95796
滯	-9.95796
丁亥	-9.95797
進據	-9.95799
模	-9.95804
乙亥	-9.95807
有二	-9.95818
姻	-9.9583
潔	-9.95833
聞其	-9.95839
怠	-9.95847
滔	-9.95856
戰艦	-9.95871
甲申	-9.95876
乾寧	-9.9588
驍勇	-9.96022
人父	-9.96085
出鎮	-9.96107
壽州	-9.96173
略陽	-9.96267
所獲	-9.96302
之敗	-9.96451
皇帝廟號	-9.9651
食之	-9.96538
遣將軍	-9.96546
禆將	-9.96598
周宗	-9.96675
不下	-9.96739
臣之	-9.96759
君之	-9.96854
存亡	-9.96966
陜	-9.97104
伏兵	-9.97122
者必	-9.97205
沛	-9.97244
帯	-9.97272
𣸪	-9.97283
萬户	-9.973
慟	-9.97312
函	-9.97329
隊	-9.9734
郫	-9.97347
所部	-9.97349
偶	-9.9735
逞	-9.97363
暑	-9.97364
貲	-9.97372
坑	-9.97377
䧏	-9.97466
太宰	-9.97473
徐知誥	-9.97484
制置使	-9.97484
八十	-9.975
三州	-9.97501
不自安	-9.9752
稱帝	-9.97538
不若	-9.97578
安國	-9.97605
詩曰	-9.97616
大呼	-9.97834
世為	-9.97854
自以	-9.97855
觀之	-9.97908
并州刺史	-9.97916
漢宏	-9.9796
出師	-9.97983
諸道	-9.98019
因以	-9.98022
其下	-9.98117
張氏	-9.98211
多所	-9.98347
金全	-9.98411
不知其	-9.98504
止之	-9.9853
昆	-9.98716
不忘	-9.98745
自守	-9.98786
於魏	-9.98808
岱	-9.98842
梅	-9.98847
賚	-9.98862
島	-9.98876
祿	-9.98878
炎	-9.98884
眼	-9.98886
皆為	-9.98887
欺	-9.98905
溢	-9.98908
兾	-9.98928
巷	-9.9893
邸	-9.98939
道路	-9.98944
寤	-9.98945
鷹	-9.98946
澹	-9.98956
料	-9.98962
斫	-9.98965
賁	-9.98978
單于	-9.99067
卷第	-9.99113
犍為	-9.99166
建國	-9.99202
賦詩	-9.99222
段氏	-9.99227
庚子	-9.99256
建勲	-9.9926
以歸	-9.99352
居之	-9.995
布衣	-9.99545
見而	-9.99636
南奔	-9.99674
郡太守	-9.99713
自言	-9.99955
當有	-9.99956
别將	-10.0001
此書	-10.0009
來攻	-10.0019
於秦	-10.002
大破	-10.0034
崖	-10.0038
即皇帝位	-10.004
遣兵	-10.0041
不以	-10.0044
婢	-10.0045
國中	-10.0046
弄	-10.0048
借	-10.0048
剋	-10.0049
翠	-10.005
那	-10.005
網	-10.005
七日	-10.0052
軒	-10.0053
銓	-10.0054
繩	-10.0054
㦸	-10.0055
邈	-10.0056
晝夜	-10.0061
建安	-10.0063
碩徳	-10.0066
得之	-10.0071
徴古	-10.0081
范陽	-10.0081
屯於	-10.0095
叅軍	-10.0096
諭之	-10.0107
明宗	-10.0109
之師	-10.0111
數人	-10.0125
常侍	-10.0131
春三月	-10.0134
逆戰	-10.0135
湖州	-10.0145
濠	-10.0163
十七年	-10.0168
鐸	-10.0172
於長安	-10.0175
尚書左僕射	-10.0188
而入	-10.0198
憐	-10.0203
踐	-10.0205
兇	-10.0206
輝	-10.0206
赫	-10.0207
人情	-10.0209
嬰	-10.0209
世之	-10.021
輯	-10.021
膳	-10.0211
戊申	-10.0211
三人	-10.0211
荆州	-10.0212
其志	-10.0212
佩	-10.0212
枉	-10.0212
繼冲	-10.0213
稱尊號	-10.0213
涕泣	-10.0214
不戰	-10.0216
不死	-10.0218
上有	-10.0235
禑	-10.0237
十里	-10.0238
昌黎	-10.0239
班師	-10.0239
宦者	-10.0248
古之	-10.0257
書曰	-10.0258
被殺	-10.0286
舟師	-10.0292
同光	-10.0307
軍事	-10.0311
人臣	-10.0312
庚	-10.0314
迎之	-10.0316
除之	-10.0341
臣聞	-10.0351
淮人	-10.0354
武昌	-10.0357
群	-10.0358
前將軍	-10.036
鑑	-10.0361
狐	-10.0362
罕	-10.0362
簿	-10.0366
瀘	-10.0366
孺	-10.0368
晃	-10.0368
頂	-10.0369
伸	-10.0369
饋	-10.037
戊寅	-10.0371
勍	-10.0371
裝	-10.0372
両	-10.0373
劔	-10.0373
緣	-10.0375
了	-10.0375
項	-10.0375
缺	-10.0376
圓	-10.0377
飯	-10.038
捐	-10.038
麾下	-10.0385
倭	-10.0387
朙	-10.0388
䕫	-10.0392
兵馬	-10.0394
梁州	-10.0395
乘勝	-10.0396
正朔	-10.0396
御史	-10.0398
李建勲	-10.04
博學	-10.0401
來聘	-10.0402
不顧	-10.0407
南都	-10.041
衣冠	-10.0414
彦貞	-10.0415
於我	-10.0419
而至	-10.0422
降於	-10.0429
康宗	-10.0432
都統	-10.0433
南昌	-10.0439
用兵	-10.0448
赴之	-10.0452
逮	-10.0454
之上	-10.0472
平原	-10.0478
仍賜	-10.0479
公孫	-10.0494
唐兵	-10.0501
歸之	-10.0504
新平	-10.0504
殿中	-10.0507
泗	-10.0509
岌	-10.0515
未能	-10.0516
䟽	-10.0518
小字	-10.0522
謂曰	-10.0523
所得	-10.0523
枚	-10.053
慷慨	-10.0535
荀	-10.0536
辛巳	-10.0536
袍	-10.0537
闔廬	-10.0537
豆	-10.0538
庚寅	-10.054
甲戌	-10.054
澗	-10.0541
貸	-10.0542
叡	-10.0544
醜	-10.0545
張掖	-10.0546
廩	-10.0546
匈奴	-10.0546
祁	-10.0546
甲午	-10.0547
腹心	-10.0551
勾	-10.0552
統軍	-10.0553
怡	-10.0553
以上	-10.0564
時為	-10.0564
慕容垂	-10.0566
繡	-10.0581
不應	-10.0586
征討	-10.0596
千户	-10.0596
并州	-10.0597
河内	-10.0613
足下	-10.0617
遣中使	-10.0619
武陵	-10.0643
為亂	-10.0651
歸附	-10.0657
常山	-10.0661
崇文	-10.0664
民間	-10.0674
勅遣	-10.0682
壤	-10.0693
而止	-10.0696
上言	-10.0698
卭	-10.0699
九國志	-10.0701
狼	-10.0702
纔	-10.0703
賫	-10.0703
讐	-10.0704
萬計	-10.0704
縛	-10.0705
價	-10.0707
宸	-10.0707
飢	-10.0709
煥	-10.0711
膽	-10.0712
匠	-10.0714
輜重	-10.0714
闇	-10.0715
丸	-10.0715
係	-10.0717
影	-10.0718
狗	-10.0718
苟	-10.072
睿宗	-10.072
車騎大將軍	-10.072
茂章	-10.0721
十八年	-10.0723
戰敗	-10.0724
部衆	-10.0731
乾和	-10.0731
丙子	-10.0735
侍衛	-10.0735
威武	-10.0739
士民	-10.0746
雄武	-10.0746
左長史	-10.0751
孫晟	-10.0754
陳氏	-10.0758
再拜	-10.076
經史	-10.077
辛未	-10.0774
而立	-10.0777
牙將	-10.0778
之法	-10.0791
進屯	-10.0794
丁未	-10.0798
豈不	-10.0801
于唐	-10.0808
平生	-10.0823
協	-10.0836
之術	-10.0841
開門	-10.0844
句踐	-10.0846
䖍州	-10.0847
女子	-10.0854
數十人	-10.0855
城北	-10.0858
觀察使	-10.0861
昱	-10.0869
峰	-10.0871
桃	-10.0874
閏	-10.0875
史記	-10.0876
謂左右曰	-10.0877
騫	-10.0879
古今	-10.088
彩	-10.0881
㤙	-10.0881
斃	-10.0882
沮渠	-10.0884
翌日	-10.0884
板	-10.0884
箕	-10.0885
詵	-10.0886
出奔	-10.0888
蠡	-10.0889
龍驤	-10.0891
帝命	-10.0892
皇甫	-10.0893
桐	-10.0894
太妃	-10.0895
妓	-10.0899
部將	-10.0901
何也	-10.0902
大夫種	-10.0904
文表	-10.0907
改封	-10.0918
以安	-10.0921
敗之	-10.0924
無復	-10.0928
未及	-10.0935
宇文	-10.0938
是為	-10.0939
西京	-10.0942
襲位	-10.0946
君王	-10.0951
不得已	-10.097
嵗在	-10.097
譲	-10.098
進退	-10.0988
青州	-10.0996
顯徳	-10.0998
嗣立	-10.1004
其民	-10.1007
廣州	-10.1014
之號	-10.1015
取其	-10.1016
江東	-10.1017
開元	-10.1018
官屬	-10.1028
周公	-10.1037
析	-10.1045
五代	-10.1046
或云	-10.1046
猷	-10.1049
傳瓘	-10.1049
牋	-10.1051
織	-10.1051
特進	-10.1052
乙卯	-10.1052
叩	-10.1052
倦	-10.1053
壮	-10.1054
馭	-10.1055
中書舍人	-10.1056
劵	-10.1056
繞	-10.1057
版	-10.1058
罔	-10.1058
苴	-10.1059
状	-10.106
倡	-10.1061
籠	-10.1061
綿竹	-10.1062
訥	-10.1062
殄	-10.1063
剪	-10.1063
豎	-10.1063
鄊	-10.1064
呂	-10.1065
韓熈載	-10.1066
昭武	-10.1072
降于	-10.1073
群臣	-10.1078
字元	-10.1086
茂忠	-10.1087
董昌	-10.1091
願陛下	-10.1099
如何	-10.1101
有才	-10.1101
武都	-10.1118
未詳	-10.1124
艘	-10.1129
豈有	-10.1132
八百	-10.1149
孫也	-10.1149
又曰	-10.1155
進曰	-10.1176
㕘	-10.1188
吹	-10.1189
乃與	-10.1193
壬	-10.1206
癸	-10.1214
誥	-10.1219
之恩	-10.122
其首	-10.1227
洲	-10.1227
號為	-10.1228
隕	-10.1228
婺州	-10.1229
殁	-10.123
苛	-10.123
徧	-10.1231
曦	-10.1231
禮部尚書	-10.1232
周本	-10.1233
門下侍郎	-10.1234
緑	-10.1235
罹	-10.1236
匪	-10.1236
雀	-10.1237
御史中丞	-10.1238
寝	-10.1239
郷	-10.124
懦	-10.124
羙	-10.124
炳	-10.1241
征虜將軍	-10.1241
僻	-10.1241
鍠	-10.1243
穢	-10.1243
崧	-10.1244
鮑	-10.1245
憾	-10.1245
所執	-10.1248
不行	-10.1248
全諷	-10.1249
逖	-10.1249
魂	-10.125
克宏	-10.1259
觀其	-10.1262
伐吳	-10.1263
帳下	-10.1264
桂州	-10.1265
之難	-10.1275
内侍	-10.1276
識者	-10.1277
延已	-10.1277
奔於	-10.13
他日	-10.13
可乎	-10.1301
之任	-10.1304
授王	-10.131
年少	-10.1318
隂陽	-10.1323
亡國	-10.1334
以示	-10.1334
興元	-10.1336
大風	-10.134
黄龍	-10.137
戰死	-10.1374
以獻	-10.1385
不相	-10.1386
舒州	-10.1391
握	-10.14
丁酉	-10.1406
十國紀年	-10.1407
邇	-10.1409
佳	-10.141
孚	-10.1413
贖	-10.1414
戊辰	-10.1416
摩	-10.1416
狥	-10.1416
疎	-10.1417
矛	-10.1418
彛	-10.1418
霧	-10.1418
胄	-10.1419
嬖	-10.1419
塟	-10.1419
壬午	-10.1419
璜	-10.1419
㸃	-10.142
隐	-10.1421
滛	-10.1421
租	-10.1422
諧	-10.1422
甲辰	-10.1423
乾祐	-10.1424
豕	-10.1427
而下	-10.1428
無何	-10.1433
南山	-10.1434
廬陵	-10.1436
景逹	-10.144
兩川	-10.145
呼延	-10.1453
知俊	-10.1455
開運	-10.1457
赦之	-10.146
中書	-10.1463
徐州	-10.1469
遣使來	-10.1473
屯田	-10.1474
四面	-10.1478
昇州	-10.1481
諸君	-10.1482
數月	-10.1488
天文	-10.1497
後宫	-10.1508
王公	-10.1509
中軍	-10.1509
後唐	-10.1515
河北	-10.1515
無道	-10.1517
不知所	-10.1521
帝遣	-10.1521
末年	-10.1522
甚厚	-10.1538
五色	-10.1545
之外	-10.1548
宦	-10.1553
請以	-10.1554
留守	-10.1565
國政	-10.1574
禁中	-10.1577
山南	-10.1586
稅	-10.1594
不聴	-10.1594
雒	-10.1595
篆	-10.1595
酉	-10.1595
夙	-10.1596
守之	-10.1598
壬戌	-10.1599
彦儔	-10.1599
疫	-10.16
柳	-10.16
團	-10.16
搜	-10.1601
押	-10.1602
堤	-10.1602
閱	-10.1604
悍	-10.1604
闔閭	-10.1605
霜	-10.1606
蒸	-10.1606
汜	-10.1606
鏤	-10.1607
詭	-10.1607
城外	-10.1609
茂䖍	-10.1613
入宫	-10.1625
雍州刺史	-10.1633
扶風	-10.1633
河中	-10.1638
石氏	-10.1643
于周	-10.1647
成都人也	-10.1647
往往	-10.1647
其城	-10.1649
退屯	-10.1651
濠州	-10.166
拒戰	-10.1662
惠宗	-10.1666
睦州	-10.1667
制度	-10.1668
濟河	-10.1682
雖有	-10.1682
七千	-10.1683
乃召	-10.1689
黄金	-10.169
頗有	-10.169
自號	-10.1696
五年春正月	-10.1706
莫能	-10.1723
江陽	-10.1728
授以	-10.174
帝以	-10.1747
有人	-10.1749
相攻	-10.176
入冦	-10.1771
茅	-10.1778
今從通鑑	-10.1781
蔚	-10.1783
己酉	-10.1784
二十四	-10.1785
覘	-10.1785
徼	-10.1788
客省使	-10.1789
戯	-10.1789
岡	-10.1789
韻	-10.1789
絲	-10.179
繪	-10.1792
壊	-10.1793
限	-10.1795
闢	-10.1795
迭	-10.1797
改為	-10.1798
琳	-10.1799
鉞	-10.1802
滕	-10.1802
魏岑	-10.1804
受禪	-10.1805
帥師	-10.1807
字文	-10.1809
彦章	-10.1812
禪師	-10.1813
延翰	-10.1816
城内	-10.1817
劉仁贍	-10.1817
季興	-10.1831
敗走	-10.1833
幽州刺史	-10.1837
卒子	-10.1838
為侍中	-10.1844
劉裕	-10.1844
勒兵	-10.1847
之中	-10.185
之臣	-10.1858
三十年	-10.1859
交州刺史	-10.1868
言于	-10.1883
昭逺	-10.1899
來朝	-10.1906
城陷	-10.1918
也又	-10.1936
委以	-10.1937
戊	-10.1945
北海	-10.1945
遂入	-10.1945
數百人	-10.1963
艦	-10.1966
斬其	-10.1967
逾	-10.1969
家人	-10.1971
侃	-10.1974
土地	-10.1975
左將軍	-10.1976
瘴	-10.1977
札	-10.1978
冒	-10.1979
庚午	-10.1979
璝	-10.198
觸	-10.198
永興	-10.1981
馮翊	-10.1983
諫議大夫	-10.1984
擲	-10.1984
肩	-10.1985
弋仲	-10.1985
知制誥	-10.1985
衮	-10.1986
陋	-10.1986
聊	-10.1986
譖	-10.1987
侔	-10.1987
寮	-10.1989
亞	-10.1989
武平	-10.199
措	-10.199
丙申	-10.199
責之	-10.199
縦	-10.1991
怯	-10.1992
鬻	-10.1997
單騎	-10.1999
烏孤	-10.2
車騎	-10.2003
奉詔	-10.2003
仁肇	-10.2004
人少	-10.2005
令贇	-10.2005
鎮海軍	-10.2006
來歸	-10.2006
乙未	-10.2011
置百官	-10.2011
長驅	-10.2017
黙然	-10.202
𢎞農	-10.2022
開寶	-10.204
無以	-10.2043
歸宋	-10.2046
閬州	-10.2046
不已	-10.2047
甚衆	-10.2047
英武	-10.2049
泣曰	-10.2053
不足以	-10.2081
未知	-10.2085
萬五千	-10.2097
登城	-10.2099
自此	-10.21
殿前	-10.2107
五日	-10.2119
肯	-10.2122
清海	-10.2141
因而	-10.2142
丙	-10.2147
煜	-10.2153
賧	-10.2156
嫩	-10.2159
諸國	-10.2162
丑	-10.2166
暗	-10.2167
武陽	-10.2167
延禀	-10.2169
顒	-10.2171
三年春二月	-10.2172
湛	-10.2173
瓶	-10.2174
拯	-10.2175
沿	-10.2176
抜	-10.2177
初為	-10.2177
壬辰	-10.2178
出於	-10.2179
之初	-10.218
校書郎	-10.218
泛	-10.218
襟	-10.218
鴆	-10.218
包	-10.2181
檢校太保	-10.2181
諸弟	-10.2183
消	-10.2183
文帝	-10.2184
暨	-10.2184
虧	-10.2184
甲寅	-10.2185
洩	-10.2185
征西將軍	-10.2185
障	-10.2186
牟	-10.2186
杯	-10.2187
舌	-10.2187
剖	-10.2188
至此	-10.2189
祭酒	-10.2191
希範	-10.2191
魁	-10.2192
瑩	-10.2195
癸未	-10.2197
之國	-10.2198
行宫	-10.2199
僭號	-10.2202
也遂	-10.2213
延壽	-10.2215
巴蜀	-10.2219
衆皆	-10.222
吕光	-10.2225
之民	-10.2231
之死	-10.2239
中山王	-10.225
召還	-10.2271
為大	-10.2286
羣下	-10.2288
水中	-10.2293
監軍使	-10.2294
近臣	-10.2295
自將	-10.2308
往來	-10.2314
行宻	-10.2314
武成	-10.2315
將相	-10.2322
信之	-10.2324
而進	-10.2325
領軍	-10.2327
十餘里	-10.2343
也其	-10.2344
上將軍	-10.2345
者多	-10.2348
與語	-10.2351
遣將	-10.2354
入蜀	-10.2358
士大夫	-10.2359
人也少	-10.2366
掖	-10.237
看	-10.237
冉	-10.2371
畿	-10.2372
越嶲	-10.2373
蠶	-10.2374
浴	-10.2374
層	-10.2374
曇	-10.2375
涕	-10.2375
壺	-10.2376
稟	-10.2376
税	-10.2377
璟	-10.2378
蟲	-10.2379
虗	-10.2379
鹵	-10.2379
逝	-10.2379
中書舎人	-10.2382
毗	-10.2382
辛亥	-10.2382
匹磾	-10.2384
衣錦軍	-10.2384
淮甸	-10.2385
響	-10.2386
砦	-10.2386
其上	-10.2386
賨	-10.2387
恚	-10.2388
董璋	-10.239
俸	-10.2396
不在	-10.2396
希廣	-10.2398
及長	-10.24
獲其	-10.2403
東府	-10.2403
長生	-10.2404
士女	-10.2405
白金	-10.2406
苻登	-10.2408
氏為皇后	-10.2409
分兵	-10.2412
年八十	-10.2412
進兵	-10.2418
後蜀後蜀後蜀後蜀	-10.2424
舍人	-10.2427
英雄	-10.2428
其妻子	-10.2433
文王	-10.2437
武信王	-10.2439
以金	-10.2439
王室	-10.2442
直言	-10.2447
為皇太子	-10.2454
保大中	-10.2456
衡山	-10.2457
九華	-10.246
梓州	-10.2464
自若	-10.2472
備德	-10.2475
表請	-10.2477
被執	-10.2481
武安	-10.2488
其意	-10.2488
為太尉	-10.2496
亡命	-10.2498
無為	-10.2498
處士	-10.2501
不言	-10.2505
人士	-10.2505
懼而	-10.2505
從容	-10.251
簡言	-10.2513
召之	-10.2513
順天	-10.2515
咸通	-10.252
廣平	-10.2528
池州	-10.2534
授之	-10.254
忠獻王	-10.2545
敬瑄	-10.2553
欣	-10.2565
罵	-10.2572
亥	-10.2573
不免	-10.2575
鬭	-10.2575
諤	-10.2577
䧺	-10.2578
旻	-10.2579
王幸	-10.2579
壻	-10.2581
暫	-10.2581
灾	-10.2581
庚辰	-10.2582
媿	-10.2583
嚮	-10.2585
熒惑	-10.2585
襃	-10.2585
褐	-10.2586
減	-10.2586
羯	-10.2587
愁	-10.2588
其才	-10.2588
朽	-10.2588
譴	-10.2588
疇	-10.2588
區區	-10.2588
桀	-10.2589
壓	-10.2589
顛	-10.2589
蓬	-10.259
俯	-10.259
歟	-10.259
召見	-10.2591
二日	-10.2592
馮延魯	-10.2592
帥兵	-10.2593
各有差	-10.2593
南面	-10.2596
軫	-10.2596
徐玠	-10.2597
苞	-10.2599
嚴續	-10.2601
建平	-10.2603
中書監	-10.2604
李昊	-10.2613
荆州刺史	-10.2613
其中	-10.2617
大有	-10.2621
不幸	-10.2621
左傳	-10.2622
建徽	-10.2624
牙門	-10.263
于我	-10.2633
丹陽	-10.2645
遇之	-10.2647
趙王	-10.265
難敵	-10.2651
儒學	-10.266
大師	-10.2662
王建	-10.2673
將至	-10.2677
軍旅	-10.2678
錢氏	-10.2678
兵至	-10.2678
姚興	-10.2678
浙江	-10.2685
乞師	-10.2689
以報	-10.2698
謀反	-10.27
收其	-10.2701
兵部尚書	-10.2703
大衆	-10.272
北地	-10.2722
元膺	-10.2726
安撫	-10.273
三世	-10.2732
竟不	-10.2744
有神	-10.2744
進次	-10.2745
之名	-10.2748
在此	-10.2749
睿	-10.2754
何所	-10.2756
新城	-10.2757
為質	-10.277
覲	-10.2775
駱	-10.2782
書云	-10.2782
步騎	-10.2782
廊	-10.2782
忻	-10.2785
戌	-10.2787
丁丑	-10.2787
癸亥	-10.2787
油	-10.2787
偕	-10.2788
辛丑	-10.2788
牒	-10.2788
截	-10.2788
丙寅	-10.2789
柏	-10.2789
譯	-10.2789
吐	-10.2789
勛	-10.279
禀	-10.279
而來	-10.2791
鬬	-10.2791
抽	-10.2791
鱗	-10.2792
庚戌	-10.2792
萌	-10.2792
彂	-10.2792
紂	-10.2793
不自	-10.2793
討平之	-10.2793
峭	-10.2794
兵部侍郎	-10.2794
翻	-10.2794
瓌	-10.2795
􁇾	-10.2795
迄	-10.2796
辦	-10.2796
貎	-10.2798
軻	-10.2798
入宋	-10.2799
鞠	-10.28
寔	-10.2801
蜀王	-10.2801
瑀	-10.2801
干戈	-10.2802
𬒳	-10.2803
汴京	-10.2804
從事中郎	-10.2806
死於	-10.2806
宗弼	-10.2812
之下	-10.2818
遣使詣	-10.2822
引見	-10.2852
逺近	-10.2864
卿等	-10.2874
兵入	-10.2878
吳越國王	-10.2889
知名	-10.2904
守將	-10.2928
之世	-10.2933
詔曰	-10.2934
不通	-10.294
議者	-10.2941
督䕶	-10.2941
南平王	-10.2941
利州	-10.2945
武威	-10.2945
無罪	-10.2946
曰大	-10.2946
應天	-10.2951
加王	-10.2956
行人	-10.2968
文曰	-10.2971
朱元	-10.2971
二十六	-10.2975
大雨	-10.2976
遣使者	-10.2988
致書	-10.2991
大理	-10.2994
歸義	-10.2994
壬申	-10.2994
諸葛亮	-10.2995
二年春二月	-10.2998
庚申	-10.3
寧州	-10.3001
底	-10.3002
隘	-10.3003
觀察	-10.3003
朋	-10.3003
迷	-10.3004
呈	-10.3004
涇	-10.3004
城門	-10.3004
州諸軍事	-10.3005
譜	-10.3005
冕	-10.3005
壞	-10.3005
上柱國	-10.3006
薪	-10.3006
拓	-10.3006
準	-10.3006
百餘里	-10.3007
蹙	-10.3007
丁巳	-10.3008
吐蕃	-10.3008
沔	-10.3008
距	-10.3009
艱難	-10.3011
御史大夫	-10.3013
太史令	-10.3016
州防禦使	-10.3017
酒酣	-10.3017
坦	-10.3019
㕔	-10.3019
南漢南漢南漢南漢南漢	-10.302
賔客	-10.3021
于此	-10.3026
稍稍	-10.3026
重之	-10.3031
壬子	-10.3032
領兵	-10.3035
輕騎	-10.304
承㫖	-10.3041
與諸	-10.3049
㕘軍	-10.305
經畧	-10.305
聚衆	-10.3056
者乎	-10.3057
西秦	-10.3057
二十五	-10.3058
非所	-10.3063
勇士	-10.308
右長史	-10.3086
假道	-10.3092
見殺	-10.3094
牛馬	-10.3095
一年	-10.3097
所生	-10.3097
四人	-10.3099
深入	-10.3107
和尚	-10.3112
義方	-10.3125
人事	-10.313
不就	-10.313
無遺	-10.3134
庶人	-10.3134
曰子	-10.3139
書作	-10.3139
江都	-10.3148
來貢	-10.3148
將校	-10.3151
蜀主	-10.3162
及諸	-10.3173
也且	-10.3185
互	-10.3193
圍之	-10.3195
本姓	-10.3198
狄	-10.3199
燮	-10.3199
號令	-10.3205
軍於	-10.3206
奄	-10.3206
鎰	-10.3208
它	-10.3209
狎	-10.3214
忤	-10.3214
山下	-10.3217
賑	-10.3217
陞	-10.3218
煙	-10.3218
己丑	-10.3218
誡	-10.322
塢	-10.322
璘	-10.322
餞	-10.3221
碎	-10.3222
縊	-10.3222
㓕	-10.3222
乙巳	-10.3222
遯	-10.3223
粗	-10.3224
視事	-10.3224
雕	-10.3225
挫	-10.3225
海内	-10.3226
霄	-10.3226
羅城	-10.3227
釣	-10.3228
錄尚書事	-10.3228
都督中外諸軍事	-10.3228
梯	-10.3228
墟	-10.3229
敎	-10.3229
驃騎大將軍	-10.323
滎陽	-10.3231
征東將軍	-10.3231
朱瑾	-10.3231
肖	-10.3232
倘	-10.3233
聼	-10.3235
樂浪	-10.3238
奕干	-10.3238
崇韜	-10.3243
安仁義	-10.3243
之風	-10.3245
冠軍	-10.3248
有此	-10.3248
不䏻	-10.3252
衣服	-10.3258
郡人	-10.3262
攻城	-10.3265
汝南	-10.3273
所害	-10.3275
以拒	-10.3276
昭儀	-10.3281
其功	-10.3286
漢州	-10.3287
宋史	-10.3305
都城	-10.3306
伐楚	-10.3308
棄城	-10.331
亦以	-10.3324
之美	-10.3325
我國	-10.3327
大朝	-10.3328
閩人	-10.3331
不止	-10.3334
欲殺	-10.3339
之患	-10.3341
杭	-10.3341
銀器	-10.3342
作詩	-10.3343
所著	-10.3346
改名	-10.3372
以應	-10.3375
堅以	-10.3383
即今	-10.3384
統軍使	-10.3388
雖不	-10.3392
初名	-10.3396
豈非	-10.3399
家明	-10.3399
是夜	-10.34
盹	-10.341
三司	-10.341
親信	-10.3412
進位	-10.3417
云云	-10.3422
棘	-10.3423
金吾	-10.343
卯	-10.3432
隗	-10.3434
嬪	-10.3434
文獻王	-10.3436
膏	-10.3436
幷	-10.3437
筵	-10.3438
亊	-10.3439
梵	-10.344
節度判官	-10.3441
晩	-10.3442
癸酉	-10.3442
執政	-10.3442
懇	-10.3443
麴	-10.3443
馬令南唐書	-10.3443
惲	-10.3444
臥	-10.3444
莾	-10.3444
齡	-10.3445
屯兵	-10.3445
廓	-10.3447
都虞侯	-10.3447
婆	-10.3447
渚	-10.3447
脅	-10.3447
两	-10.3448
鎧	-10.3448
追擊	-10.3449
征東大將軍	-10.3449
蒲坂	-10.3449
檢討呉任臣撰	-10.345
浮屠	-10.345
墻	-10.3452
車駕	-10.3455
二十八	-10.3456
來拒	-10.3456
餐	-10.3457
愷	-10.3459
舉進士	-10.3461
璞	-10.3466
仁宗	-10.3467
資謙	-10.3468
于外	-10.3468
昭王	-10.3472
允章	-10.3477
功曹	-10.3496
大姓	-10.3507
偽諡	-10.351
字叔	-10.3513
等攻	-10.3518
馬步	-10.3522
家世	-10.3525
令公	-10.3526
監國	-10.3529
蠻夷	-10.3529
貞明	-10.3529
生子	-10.3531
甲士	-10.3533
俘斬	-10.3535
以為然	-10.3542
巴東	-10.3551
扵是	-10.3558
不報	-10.356
久矣	-10.3563
閬	-10.3569
甚盛	-10.3571
之利	-10.3571
以禮	-10.3572
與王	-10.3572
七萬	-10.3576
勸進	-10.3582
風雨	-10.3584
苦之	-10.3588
太初	-10.3588
追諡	-10.3595
以為不可	-10.3596
莫敢	-10.3598
四萬	-10.36
漁	-10.3606
右將軍	-10.3612
京城	-10.3621
常與	-10.3622
太原王	-10.3622
二十餘	-10.3626
楚人	-10.3627
大順	-10.3628
陳留	-10.3637
周人	-10.3639
問其	-10.3651
得罪	-10.3654
終日	-10.3655
不服	-10.3658
何足	-10.366
李嚴	-10.3662
銖	-10.3664
頋	-10.3665
鬱	-10.3666
該	-10.3667
夘	-10.3667
己亥	-10.3667
訛	-10.3668
正陽	-10.3669
邱	-10.3669
甘露	-10.3669
棟	-10.367
雉	-10.367
畋	-10.3671
淚	-10.3671
飄	-10.3672
㝠	-10.3673
促	-10.3675
踵	-10.3675
探	-10.3675
立功	-10.3675
至長安	-10.3675
乹	-10.3675
洗	-10.3676
延鲁	-10.3677
塹	-10.3677
子胥曰	-10.3677
泄	-10.3678
侈	-10.3678
窘	-10.3678
狹	-10.3678
郝	-10.3678
訣	-10.3679
林仁肇	-10.3679
丙辰	-10.368
廪	-10.368
朱提	-10.3681
進取	-10.3681
蹤	-10.3681
凉州牧	-10.3681
檻	-10.3681
廷隠	-10.3682
為我	-10.3683
也吾	-10.3684
丁零	-10.3686
四十里	-10.3687
㤗	-10.3688
歸於	-10.3688
仇池	-10.3691
將帥	-10.3693
戊子	-10.3695
後主時	-10.3697
陳誨	-10.3697
凉州刺史	-10.3697
朝夕	-10.3707
季良	-10.3713
北平	-10.3719
南唐書卷之	-10.373
下令	-10.3733
三尺	-10.374
江北	-10.3751
五十餘	-10.3753
二十一年	-10.3759
丈夫	-10.3762
置酒	-10.3765
成功	-10.377
曰是	-10.3771
上國	-10.3794
謀叛	-10.3794
曰爾	-10.3799
亦無	-10.3801
從者	-10.381
閉門	-10.381
權知	-10.3813
者亦	-10.3821
是月王	-10.3823
臣等	-10.3824
一言	-10.3842
以俟	-10.3844
舎人	-10.3858
西山	-10.386
志云	-10.3861
釋之	-10.3862
至今	-10.3863
閩王	-10.3874
莭度	-10.3881
安能	-10.3882
諾	-10.3883
越州	-10.3884
冨	-10.389
仁罕	-10.3892
荘	-10.3892
鏻	-10.3892
陽平	-10.3894
與戰	-10.3894
嗜	-10.3894
長子也	-10.3895
人物	-10.3896
又作	-10.3896
五國故事	-10.3897
黁	-10.3898
癸巳	-10.39
辛酉	-10.39
歐陽史	-10.39
枯	-10.3901
偓	-10.3901
局	-10.3901
戊戌	-10.3902
亢	-10.3902
綾	-10.3903
泊	-10.3903
瀆	-10.3904
癸丑	-10.3905
鑾	-10.3905
媚	-10.3905
忝	-10.3905
揺	-10.3906
䓁	-10.3906
殯	-10.3907
撫軍將軍	-10.3907
檢校太傅	-10.3907
建威將軍	-10.3908
犢	-10.3908
課	-10.3909
豁	-10.3909
諶	-10.3909
汭	-10.391
廂	-10.391
詡	-10.3911
䂓	-10.3912
曰今日	-10.3912
甥	-10.3913
餘杭	-10.3913
不合	-10.3913
跋	-10.3913
劇	-10.3914
畱	-10.3914
咸康	-10.3914
閑	-10.3914
峴	-10.3914
呉王	-10.3916
乃自	-10.3917
炭	-10.3918
遣還	-10.3921
衛大將軍	-10.3921
諸葛	-10.3925
臨安	-10.3928
無子	-10.3932
開府	-10.3934
禪代	-10.394
第二	-10.3941
不信	-10.3943
威名	-10.3949
承休	-10.395
進軍	-10.3951
守貞	-10.3951
仁裕	-10.3955
夢孫	-10.3956
私第	-10.3958
烈宗	-10.3959
岳州	-10.3961
安州	-10.3964
各有	-10.3965
周氏	-10.3966
避地	-10.3966
鎮南	-10.3968
衣錦	-10.397
服其	-10.3974
東陽	-10.3982
人主	-10.3985
石城	-10.3995
大舉	-10.4001
辭曰	-10.4003
告急	-10.4021
以詩	-10.4026
率步騎	-10.4028
同心	-10.4029
梓	-10.4031
新都	-10.4031
軍國	-10.4036
戰功	-10.404
通好	-10.4042
為丞相	-10.4045
禮樂	-10.4048
無他	-10.4053
嘉興	-10.4054
疾病	-10.4055
疑之	-10.4056
為大將軍	-10.4057
生於	-10.407
遷都	-10.407
擊破之	-10.407
有道	-10.4073
聖王	-10.4083
不失	-10.4083
示之	-10.4084
賜死	-10.4094
撫州	-10.4102
之内	-10.4134
靳	-10.4134
同時	-10.4134
中書侍郎同平章事	-10.4135
拙	-10.4135
驟	-10.4136
壬寅	-10.4138
夢錫	-10.4139
揮	-10.4139
惶	-10.414
穎	-10.414
翹	-10.414
快	-10.414
冷	-10.414
茂貞	-10.414
鎮東將軍	-10.4141
幢	-10.4142
電	-10.4142
娥	-10.4144
檢校司空	-10.4144
刋	-10.4145
逋	-10.4146
研	-10.4146
光祿大夫	-10.4146
琅邪	-10.4146
觧	-10.4147
曰彼	-10.4147
􁐐	-10.4147
驍騎將軍	-10.4148
裹	-10.4148
犍爲	-10.4149
下書曰	-10.4149
較	-10.4149
絡	-10.4149
与	-10.4152
誌	-10.4152
苗	-10.4153
遁去	-10.4156
樞宻使	-10.4168
王宗弼	-10.4168
太夫人	-10.4169
浙西	-10.4171
汲	-10.4172
殆盡	-10.4172
清源	-10.4174
軍校	-10.4174
牙内	-10.4177
風俗	-10.418
龍飛	-10.418
二女	-10.4182
禍福	-10.4182
仁俊	-10.4185
桓温	-10.4191
宣城	-10.4192
從兄	-10.4193
河右	-10.4194
山河	-10.4194
宫門	-10.4199
忌之	-10.42
思謙	-10.4206
死于	-10.4218
魏王	-10.4228
歙	-10.4232
所能	-10.4232
南越	-10.4233
曰孤	-10.4235
和龍	-10.4235
有罪	-10.4236
所破	-10.4246
軍師	-10.4247
字仲	-10.425
彦能	-10.4254
天長	-10.4256
間道	-10.4258
道襲	-10.4266
輟	-10.4283
至成都	-10.4286
宣王	-10.429
十國	-10.4301
安南都䕶	-10.4301
己未	-10.4306
成帝	-10.4315
不祥	-10.4327
中州	-10.433
化為	-10.4338
諸城	-10.4343
將有	-10.4347
汀	-10.435
後蜀	-10.4352
下書	-10.4354
少年	-10.4356
佗	-10.4361
樞密	-10.4361
衢	-10.4365
穡	-10.4368
親臨	-10.4368
生擒	-10.4369
倪	-10.437
僊	-10.4373
滌	-10.4374
山東	-10.4376
替	-10.4377
丁卯	-10.4377
金器	-10.4379
粉	-10.4379
㬥	-10.4381
河間	-10.4381
嶮	-10.4381
跪	-10.4384
餌	-10.4386
涪陵	-10.4386
莭	-10.4386
四年春二月	-10.4387
爐	-10.4387
灰	-10.4387
闔	-10.4388
頸	-10.4388
踈	-10.4388
汚	-10.4388
拾遺	-10.4388
衷	-10.4388
鄒	-10.4389
鎮西將軍	-10.439
斧	-10.439
攜	-10.439
多難	-10.4391
旦夕	-10.4391
讌	-10.4391
亾	-10.4391
厄	-10.4392
揆	-10.4392
懲	-10.4393
躡	-10.4394
舘	-10.4394
俞	-10.4396
鎮南將軍	-10.4397
延鈞	-10.4397
司隷校尉	-10.4398
廷尉	-10.4399
謗	-10.4399
制置	-10.4401
所知	-10.4408
延彬	-10.4409
侍御史	-10.4411
景達	-10.4427
卒于	-10.4429
也故	-10.443
至自	-10.4432
而巳	-10.4438
還長安	-10.4442
明王	-10.4443
不識	-10.4444
為世子	-10.4446
饒州	-10.4446
赴難	-10.4448
滅之	-10.4451
請命	-10.4452
與李	-10.4459
延嗣	-10.446
等率	-10.4461
尊號	-10.4467
月餘	-10.4469
與弟	-10.4469
馬歩	-10.447
憚之	-10.4475
者則	-10.4479
之謂也	-10.4481
鎮惡	-10.4482
鄴城	-10.4506
大同	-10.4509
未必	-10.451
山谷	-10.451
夫子	-10.4516
七百	-10.4526
及至	-10.4527
所向	-10.4527
魏軍	-10.4536
樂都	-10.4538
河西王	-10.4549
賜號	-10.4559
不屈	-10.4561
南蠻	-10.457
後為	-10.4576
皇天	-10.4579
四時	-10.458
可不	-10.4583
讓皇	-10.4589
然則	-10.4595
光武	-10.4595
其次	-10.4596
春申君	-10.4611
乾亨	-10.4613
沐	-10.4615
不附	-10.462
南征	-10.4621
安南志畧卷	-10.4623
耆	-10.4625
羸	-10.4627
虹	-10.4629
捍	-10.4632
牌	-10.4634
陂	-10.4635
寘	-10.4635
漂	-10.4637
戊午	-10.4638
捧	-10.4638
輅	-10.4639
邠	-10.4639
譛	-10.4639
己巳	-10.4639
賄	-10.4639
㢤	-10.4639
几	-10.464
淹	-10.464
韓熙載	-10.464
燔	-10.464
長吏	-10.4641
綺	-10.4641
俠	-10.4644
猥	-10.4644
宕渠	-10.4644
驃騎將軍	-10.4644
如初	-10.4644
𥙿	-10.4646
司𨽻校尉	-10.4647
禕	-10.4652
㨿	-10.4654
不能自	-10.4656
睿帝	-10.4657
越王曰	-10.466
設備	-10.4661
乗勝	-10.4662
尚書右僕射	-10.4664
上䟽	-10.4667
為相	-10.467
旬日	-10.4671
可得	-10.4673
十餘年	-10.4675
可瓊	-10.4675
北漢	-10.4676
冀州刺史	-10.4679
謝罪	-10.4682
仁規	-10.4686
遇害	-10.4686
嶺北	-10.469
藩鎮	-10.4692
後人	-10.4695
九真	-10.4699
晉師	-10.4703
復有	-10.4705
見於	-10.4708
以待之	-10.4717
者非	-10.4733
八人	-10.4734
其實	-10.4738
德誠	-10.4739
此則	-10.4744
宫殿	-10.4744
于京師	-10.4744
城上	-10.4748
人民	-10.4754
舊縣	-10.4759
彦卿	-10.4767
使君	-10.477
我軍	-10.4774
患之	-10.4775
兵大敗	-10.4781
養子	-10.4786
朝臣	-10.4793
者甚衆	-10.4799
過也	-10.48
有言	-10.4803
四千	-10.481
引軍	-10.4814
常以	-10.4822
或有	-10.4829
將佐	-10.4829
見一	-10.4829
擊敗之	-10.4831
李彦	-10.4837
之兆	-10.4844
光業	-10.4844
雍州	-10.4846
以叛	-10.485
何必	-10.4852
為詩	-10.4854
于金陵	-10.4856
親征	-10.4857
竺	-10.4874
不獲	-10.4874
拒守	-10.4876
杲	-10.4881
埋	-10.4885
茫	-10.4886
梁王全忠	-10.4886
一曰	-10.4886
進圍	-10.4887
冢	-10.4888
贄	-10.4889
着	-10.489
扼	-10.4891
把	-10.4891
潁	-10.4892
謫	-10.4892
領縣五	-10.4892
熱	-10.4893
不容	-10.4893
閏月	-10.4894
汪	-10.4895
朂	-10.4896
供奉官	-10.4896
又命	-10.4897
轂	-10.4897
廼	-10.4899
辛卯	-10.4899
殃	-10.49
紿	-10.49
頽	-10.4902
朱文進	-10.4903
善屬文	-10.4903
涓	-10.4904
叩頭	-10.4907
㢘	-10.4911
黄龍見於	-10.4914
靜江	-10.4915
大敗之	-10.4916
遂奔	-10.492
堅守	-10.4923
彦超	-10.4924
十數	-10.4924
恵宗	-10.4925
管内	-10.4926
勒勒	-10.4927
知誨	-10.4928
鬼神	-10.4928
幕府	-10.4929
林邑	-10.4931
復何	-10.4933
白鹿	-10.4933
髙平	-10.4937
千餘家	-10.4937
奔于	-10.4939
公侯	-10.4939
以致	-10.4945
天會	-10.4946
祖父	-10.4946
太學	-10.4948
引兵還	-10.4955
從善	-10.4959
何其	-10.4961
如其言	-10.4963
大恱	-10.4971
討賊	-10.4983
兵革	-10.4984
其主	-10.4984
王怒	-10.4986
或作	-10.499
遣其將	-10.499
軍府事	-10.5001
其可	-10.5001
無益	-10.5004
六合	-10.5005
大梁	-10.5006
少卿	-10.5007
天道	-10.5008
也若	-10.5011
江夏	-10.5011
入境	-10.5014
祖宗	-10.5016
追贈	-10.5016
萬物	-10.5018
九州	-10.5021
罷兵	-10.5023
安漢	-10.5038
其文	-10.5039
士馬	-10.5041
石生	-10.5043
勉之	-10.5047
父老	-10.5051
者悉	-10.5056
八日	-10.5058
武肅	-10.5061
敗死	-10.5075
東方	-10.5081
是夕	-10.5083
語曰	-10.5085
謀殺	-10.5088
東門	-10.5088
而生	-10.5101
數十萬	-10.5109
遂絶	-10.511
十人	-10.5115
孝武	-10.5119
詔以	-10.512
三卷	-10.513
不進	-10.513
筭	-10.513
首領	-10.5135
指揮	-10.5135
新唐書	-10.5136
大将	-10.5137
曷	-10.5147
珣	-10.5148
僖宗	-10.5148
奥	-10.5149
髻	-10.5149
沂	-10.5149
禧	-10.5149
閤	-10.5151
冉閔	-10.5151
濶	-10.5152
六千	-10.5152
漲	-10.5153
餉	-10.5155
洋	-10.5156
答曰	-10.5157
珙	-10.5158
栅	-10.5158
霞	-10.5159
録尚書事	-10.5159
𢎞臯	-10.5161
征南將軍	-10.5161
旌旗	-10.5161
江文蔚	-10.5162
隷	-10.5163
傲	-10.5163
軀	-10.5163
山中	-10.5164
筮	-10.5164
籌	-10.5164
猜忌	-10.5164
征西大將軍	-10.5165
濫	-10.5165
豪傑	-10.5165
楊行宻	-10.5166
漳	-10.517
琬	-10.5171
英武帝	-10.5171
等州	-10.5173
衢州	-10.5177
宦官	-10.5177
皇太后	-10.5178
琰	-10.5178
吳越國	-10.5179
衞將軍	-10.5182
弱冠	-10.5182
乞伏	-10.5184
劉琨	-10.5185
得志	-10.5191
百僚	-10.5194
三十里	-10.5196
反覆	-10.5197
以死	-10.52
師暠	-10.5203
率師	-10.5208
王立	-10.5209
亭侯	-10.5209
輔國	-10.5209
州觀察使	-10.5209
光憲	-10.5212
兵馬使	-10.5213
永隆	-10.5215
黎陽	-10.5217
先人	-10.5221
仍以	-10.5224
又與	-10.5225
或曰	-10.5227
咸和	-10.5228
延夀	-10.5231
太伯	-10.5233
而復	-10.5235
曰王	-10.5236
府事	-10.5236
白馬	-10.5238
移鎮	-10.5239
闗東	-10.5241
乃還	-10.5247
于市	-10.525
西門	-10.5264
病卒	-10.5267
之重	-10.5284
魏兵	-10.5287
皇朝	-10.5293
大笑	-10.5295
也夫	-10.5297
不測	-10.5301
大雅	-10.5302
庶子	-10.5307
副之	-10.5308
讓之	-10.5309
縱兵	-10.5315
光化	-10.5317
之子也	-10.5326
二卷	-10.5328
臣請	-10.5329
建封	-10.5329
之制	-10.5332
行軍	-10.5334
有疾	-10.5336
攻陷	-10.5342
唐帝	-10.5344
未易	-10.536
王浚	-10.5368
黨與	-10.537
以是	-10.5371
今年	-10.5373
大寶	-10.5379
守宰	-10.538
受其	-10.5384
來附	-10.5393
奪其	-10.5398
凡三	-10.5403
樞宻	-10.5405
犒	-10.5407
酣	-10.5411
鞍	-10.5412
奠	-10.5413
相傳	-10.5413
隸	-10.5415
之憂	-10.5416
藍	-10.5416
玫	-10.5417
師敗績	-10.5418
勳	-10.5418
當世	-10.5419
檢討吳任臣撰	-10.5419
帖	-10.5421
渝	-10.5421
銅柱	-10.5422
恠	-10.5423
觴	-10.5423
己卯	-10.5424
陀	-10.5424
遙	-10.5424
燃	-10.5424
伽	-10.5425
淪	-10.5425
湧	-10.5425
悉以	-10.5426
戾	-10.5427
揖	-10.5427
猜	-10.5428
譔	-10.5429
蚝	-10.5429
姪	-10.543
繒	-10.5432
潞州	-10.5433
菁	-10.5433
濱	-10.5433
諛	-10.5433
貯	-10.5434
躭	-10.5434
瑤	-10.5435
紛	-10.5435
馮延巳	-10.5436
猗	-10.5437
吉凶	-10.5438
膝	-10.5438
佛圖澄	-10.5438
飽	-10.5442
劉主	-10.5444
頓首	-10.5444
元年正月	-10.5445
于宋	-10.5445
仁逹	-10.5445
歸國	-10.5449
則無	-10.5451
羆	-10.5452
𤣥靚	-10.5454
皆降	-10.5458
之分	-10.5459
矢石	-10.5462
利害	-10.5463
豫州刺史	-10.5465
二千石	-10.5467
師事	-10.5467
光禄	-10.5469
太廟	-10.5471
湖州刺史	-10.5473
因其	-10.5475
泉州刺史	-10.5479
徳眀	-10.5481
陳喬	-10.5482
稱之	-10.5483
仲宣	-10.5486
三郡	-10.5488
善之	-10.5501
梁王	-10.5506
列侯	-10.5509
陳璋	-10.5509
立祠	-10.5509
廣順	-10.5513
羅尚	-10.5523
㧞之	-10.5528
時官	-10.553
海陵	-10.5531
一條	-10.5531
於市	-10.5533
伐齊	-10.5544
教授	-10.556
畧曰	-10.556
之聲	-10.5562
得一	-10.5567
所載	-10.5572
年三十	-10.5586
恐其	-10.5586
建初	-10.5593
封為	-10.5594
二千人	-10.5595
也宜	-10.5597
威武軍	-10.5601
何罪	-10.5603
少有	-10.5608
關中	-10.5612
二十七	-10.5622
攻破	-10.5626
十五里	-10.5627
給事	-10.5629
軍敗	-10.5629
自謂	-10.5631
魏武	-10.5635
少主	-10.5636
降宋	-10.5638
徙居	-10.5643
令人	-10.5649
南中	-10.5653
殺戮	-10.5654
日南	-10.5665
不悦	-10.5666
以避	-10.567
之氣	-10.567
復命	-10.5671
一舉	-10.5674
盡忠	-10.5676
之説	-10.5676
起居	-10.5677
前軍	-10.5679
不忠	-10.5679
藤	-10.5684
巒	-10.5686
不可得	-10.5687
裏	-10.5688
之資	-10.569
繇	-10.5692
莽	-10.5693
蜀檮杌	-10.5697
希蕚	-10.5698
工部侍郎	-10.5699
鴈	-10.5699
寕	-10.57
有寵	-10.57
崱	-10.57
鼻	-10.5701
粤	-10.5701
禮部侍郎	-10.5701
小國	-10.5702
冐	-10.5702
爛	-10.5702
爨	-10.5703
諮	-10.5703
挈	-10.5703
臭	-10.5704
廹	-10.5704
勑	-10.5704
尚書左丞	-10.5705
釐	-10.5705
姊	-10.5706
祕	-10.5706
琦	-10.5706
以女妻	-10.5707
祇	-10.5707
冶	-10.5707
孽	-10.5708
郛	-10.5708
曄	-10.5708
耗	-10.5708
譬	-10.5708
必為	-10.5708
狡	-10.5709
誚	-10.571
西夷校尉	-10.5711
枋頭	-10.5711
佯	-10.5711
潘佑	-10.5712
砂	-10.5712
怖	-10.5712
蠲	-10.5713
千疋	-10.5713
貺	-10.5713
淂	-10.5714
攘	-10.5714
宼	-10.5714
鈎	-10.5717
六軍	-10.5717
江左	-10.572
陶雅	-10.572
山上	-10.5722
龍山	-10.5722
柰何	-10.5722
慕輿	-10.5723
伍子胥	-10.5724
丈餘	-10.5725
從誨	-10.5727
本州	-10.5729
陽縣	-10.573
部貟外郎	-10.5731
千秋	-10.5733
征西	-10.574
髙宗	-10.5741
記室	-10.5745
至金陵	-10.5747
蒼生	-10.5748
敬真	-10.5748
重建	-10.575
猶在	-10.5751
婦女	-10.5752
昭符	-10.5757
苻氏	-10.5758
堅壁	-10.576
張洎	-10.5762
王后	-10.5767
自負	-10.5767
鄉人	-10.5769
忠孝	-10.5773
致之	-10.5777
獲之	-10.5788
也於是	-10.579
四州	-10.5803
欲立	-10.5803
其能	-10.5804
朝政	-10.5816
一副	-10.5816
一戰	-10.5817
遣大夫	-10.5822
其書	-10.5823
來援	-10.5828
所擒	-10.584
日夜	-10.5841
李繼	-10.5854
一月	-10.5856
南平	-10.586
重遇	-10.5867
迎降	-10.5868
朝士	-10.5871
不當	-10.5878
終始	-10.5879
歙州	-10.5879
也然	-10.5889
不暇	-10.5894
之理	-10.5896
徳昭	-10.5897
之機	-10.5904
大兵	-10.5911
攻鄴	-10.5912
夜夢	-10.5921
欲與	-10.5922
請為	-10.5926
卒於	-10.5931
諸部	-10.5939
兖	-10.5945
西河	-10.5947
已死	-10.5951
稱王	-10.5955
鴻臚	-10.5957
疾篤	-10.5959
大司徒	-10.597
第二子	-10.5972
部下	-10.5975
以謝	-10.5976
鳶	-10.5979
江南野史	-10.5979
忠遜王	-10.5981
遮	-10.5981
俶	-10.5982
出迎	-10.5982
塗炭	-10.5983
大行	-10.5984
降之	-10.5985
𤓰	-10.5985
烹	-10.5985
瘞	-10.5986
諜	-10.5986
乾坤	-10.5987
嵐	-10.5987
領縣四	-10.5988
遍	-10.5988
陪	-10.5988
䖏	-10.5989
國用	-10.599
幅	-10.599
安西將軍	-10.5991
羣僚	-10.5991
其謀	-10.5991
弓矢	-10.5991
粥	-10.5992
閹	-10.5992
趙季良	-10.5993
潼闗	-10.5994
䘏	-10.5994
乞伏乾歸	-10.5996
秘書監	-10.5996
汶山	-10.5996
賓客	-10.5997
殱	-10.5997
謂諸將曰	-10.5998
隴右	-10.5998
吐谷渾	-10.5999
䜛	-10.6
郡守	-10.6
乘輿	-10.6001
初封	-10.6003
何敬洙	-10.6005
玝	-10.6005
愼	-10.6007
道濟	-10.6008
報聘	-10.6008
築城	-10.6008
魄	-10.6009
上尊號	-10.6013
所言	-10.6021
彦恭	-10.6023
兵三千	-10.6025
壽春	-10.6027
矣乃	-10.6028
兖州	-10.6029
功名	-10.6031
乾德	-10.6031
延巳	-10.6032
率歩騎	-10.6035
割地	-10.6035
遣其子	-10.6037
善射	-10.604
永康	-10.6041
殺我	-10.6044
不亦	-10.6047
聞其名	-10.6051
奔潰	-10.6054
曰寡人	-10.6054
従善	-10.6055
護軍	-10.6056
有聲	-10.6063
忠獻	-10.6074
名士	-10.6075
焚之	-10.6077
制授	-10.608
光州	-10.6083
素服	-10.6092
方物	-10.6103
以禦	-10.6108
王彌	-10.6112
諌曰	-10.6113
不樂	-10.6114
出家	-10.6114
本名	-10.6116
三十六	-10.6119
士衆	-10.6127
不恤	-10.6128
奏授	-10.6131
左丞相	-10.6131
統萬	-10.6133
楚州	-10.6135
逆擊	-10.6141
父兄	-10.6146
百艘	-10.6162
鎮海	-10.6162
天資	-10.6167
至姑臧	-10.6171
而起	-10.6173
信州	-10.6174
次於	-10.6174
曰主上	-10.618
少府	-10.6183
遣使拜	-10.6191
平城	-10.6203
百人	-10.6203
舊為	-10.6205
哀公	-10.6206
非吾	-10.6206
白龍	-10.621
長者	-10.6214
為交州刺史	-10.6216
衆咸	-10.6216
悔之	-10.6216
大震	-10.622
故唐	-10.6226
人莫	-10.6229
事後主	-10.6233
元妃	-10.6234
天性	-10.6256
假節	-10.626
同中書門下平章事	-10.6273
綜	-10.6273
秃	-10.6274
柩	-10.6275
霽	-10.6276
汎	-10.6279
沸	-10.628
㝷	-10.628
偷	-10.6281
厨	-10.6281
羈	-10.6281
冥	-10.6281
應援使	-10.6281
征北將軍	-10.6281
宓	-10.6282
王延政	-10.6283
歿	-10.6283
大赦境内殊死已下改元	-10.6283
虵	-10.6284
黄門侍郎	-10.6284
金紫光禄大夫	-10.6284
括	-10.6284
昉	-10.6284
騷	-10.6284
旄	-10.6284
大赦境内	-10.6285
稔	-10.6286
察孝㢘	-10.6286
領縣三	-10.6286
蔓	-10.6286
可知	-10.6286
蹇	-10.6286
笞	-10.6287
裒	-10.6287
熾	-10.6288
綴	-10.6288
湖湘	-10.6288
納欵	-10.6289
轍	-10.629
簾	-10.6291
想	-10.6291
且請	-10.6292
凱	-10.6293
平北將軍	-10.6293
精鋭	-10.6294
讃	-10.6294
禆将	-10.6295
濁	-10.6298
愆	-10.6301
延羲	-10.6301
耆舊	-10.6303
裨將	-10.6305
徐綰	-10.6312
建鋒	-10.6312
秦雍	-10.6313
昆弟	-10.6318
之望	-10.6322
稱其	-10.6325
其族	-10.6327
舉國	-10.6327
招集	-10.633
邕州	-10.633
杜洪	-10.633
不法	-10.6336
草木	-10.6339
千載	-10.6343
江表志	-10.6345
為節度使	-10.6349
守節	-10.6354
百年	-10.6355
所至	-10.6357
追至	-10.6366
萬年	-10.6368
保權	-10.6369
愛其	-10.6372
朔方	-10.6373
後事	-10.6376
萬全	-10.6382
能知	-10.6386
傳云	-10.6387
撃之	-10.639
當作	-10.6399
許昌	-10.64
王建封	-10.6403
太白	-10.6405
終身	-10.6409
而反	-10.6422
自固	-10.6424
福建	-10.6424
相率	-10.6433
并其	-10.6434
人也仕	-10.6435
耳今	-10.644
南陽王	-10.6443
楊安	-10.6443
議欲	-10.6445
無度	-10.6447
逐之	-10.6447
宋太宗	-10.6451
使王	-10.6452
不覺	-10.6458
聖朝	-10.6467
三千人	-10.6469
李簡	-10.6469
南鄭	-10.6471
以成	-10.6474
敵國	-10.6476
賢者	-10.6479
擢為	-10.6491
數里	-10.6496
成敗	-10.6497
其間	-10.6514
二國	-10.6515
百户	-10.6524
將張	-10.6534
江水	-10.6535
諸臣	-10.6541
本朝	-10.6551
未常	-10.6552
而自	-10.6554
歩騎	-10.6556
屬縣	-10.6558
右司馬	-10.656
二十里	-10.6568
蓮	-10.6569
秃髪	-10.657
昞	-10.6571
之情	-10.6573
占城來貢	-10.6574
肜	-10.6575
猝	-10.6577
炬	-10.6577
璿	-10.6578
閣羅鳯	-10.6579
顧全武	-10.6579
裳	-10.6579
癸卯	-10.658
元璙	-10.658
歐史	-10.6582
打	-10.6583
控	-10.6585
縣有	-10.6585
公藴	-10.6585
匱	-10.6586
晏駕	-10.6587
諌議大夫	-10.6587
懽	-10.6588
其兄	-10.6588
臻	-10.6588
肝	-10.6589
城隍	-10.659
鳩	-10.659
六萬	-10.659
媛	-10.659
玕	-10.659
漠	-10.6591
蹟	-10.6591
扈	-10.6593
全斌	-10.6594
鐵錢	-10.6594
景逷	-10.6594
三年春三月	-10.6595
隆演	-10.6596
合浦	-10.6596
窟	-10.6597
㳂	-10.6597
倖	-10.6598
縱横	-10.6599
趙王麟	-10.6599
僞	-10.6601
僣號	-10.6601
過人	-10.6603
封王為	-10.6606
宴飲	-10.6606
海州	-10.6607
問其故	-10.6607
承祐	-10.6608
下邳	-10.6608
五百餘	-10.661
乾化	-10.6612
益州牧	-10.6612
渡河	-10.6612
殺人	-10.6613
孝子	-10.6613
京口	-10.6628
實錄	-10.6629
遁歸	-10.6629
之辭	-10.6637
樂安	-10.6637
不逺	-10.6637
江表	-10.6641
相公	-10.6642
明州	-10.6645
二州刺史	-10.6647
顧謂	-10.665
降者	-10.6652
雅好	-10.6652
尤甚	-10.6663
聲援	-10.6664
泣下	-10.6667
賜爵	-10.6668
千匹	-10.6673
伏惟	-10.6677
城守	-10.6683
為一	-10.6683
保寧	-10.6691
明徳	-10.6696
求救於	-10.6699
金氏	-10.6699
河州刺史	-10.6701
獨不	-10.6702
獻馬	-10.6703
尋遷	-10.6705
貴人	-10.6706
唐師	-10.6715
猶未	-10.6724
内附	-10.6735
無諱	-10.6736
廣固	-10.6738
中和	-10.6739
大雪	-10.674
彭州	-10.6743
晉室	-10.6748
東海王	-10.6749
來告	-10.6758
對曰臣	-10.676
尚父	-10.6769
兵甲	-10.6778
右丞相	-10.6791
桓公	-10.6791
鄴中	-10.6796
之主	-10.6796
元達	-10.6805
金玉	-10.6808
守忠	-10.681
士庶	-10.682
天地之	-10.6823
右丞	-10.6827
為僧	-10.6829
吏部	-10.683
漢祖	-10.6834
未聞	-10.6835
蘄州	-10.6837
吳王曰	-10.6838
執事	-10.6851
天威	-10.6854
大如	-10.6858
疑其	-10.6859
二十四年	-10.6863
歴官	-10.6865
新興	-10.6867
極言	-10.6875
武勇	-10.6878
零	-10.6884
佶	-10.6885
片	-10.6886
吳國	-10.6886
嘏	-10.689
綸	-10.6891
驪	-10.6893
殞	-10.6894
弘兾	-10.6895
牓	-10.6895
郵	-10.6896
鎮軍將軍	-10.6897
菩薩	-10.6897
填	-10.6898
燎	-10.6899
閎	-10.6899
興兵	-10.69
籙	-10.69
剌史	-10.6901
蝗	-10.6901
之䇿	-10.6901
兢	-10.6901
敬洙	-10.6902
明矣	-10.6902
著作郎	-10.6903
弛	-10.6903
朱全忠	-10.6903
漢陽	-10.6903
囙	-10.6904
綬	-10.6906
山水	-10.6906
嚴可求	-10.6906
其女	-10.6906
安北將軍	-10.6906
曹彬	-10.6906
援兵	-10.6907
吾當	-10.6909
謐	-10.691
堯舜	-10.691
桂陽	-10.691
徇	-10.6916
浮橋	-10.6918
黄眉	-10.6919
筌	-10.6919
苑川	-10.692
會稽	-10.692
錢鏐	-10.692
貴賤	-10.6922
義士	-10.6922
玉衡	-10.6922
蹈	-10.6923
未定	-10.6923
麻秋	-10.6926
牛羊	-10.6926
郊迎	-10.6928
顧命	-10.6929
李仁罕	-10.693
匡業	-10.6932
比至	-10.6933
牛酒	-10.6935
二郡	-10.694
素與	-10.6943
單馬	-10.6945
王逵	-10.6945
臣僚	-10.6946
博陵	-10.6949
清泰	-10.6951
後主嗣位	-10.6954
得失	-10.6954
從效	-10.6956
請救	-10.696
呼曰	-10.6962
一丈	-10.6965
神仙	-10.6966
嵗餘	-10.6967
師次	-10.6967
一隅	-10.6977
萬嵗	-10.6982
人以為	-10.6985
石室	-10.6999
金石	-10.7007
不知何	-10.7008
三子	-10.7016
上天	-10.7019
鄭氏	-10.702
時時	-10.7025
伐蜀	-10.703
奉化	-10.703
泰山	-10.7031
皇太子	-10.7037
少孤	-10.7037
百疋	-10.7038
禆	-10.704
無錫	-10.7042
妻也	-10.7042
所署	-10.7044
太山	-10.7046
大國	-10.7051
真宗	-10.7056
邀擊	-10.7056
始知	-10.7056
何憂	-10.7058
望風	-10.7062
六尺	-10.7068
奏事	-10.7071
一切	-10.7074
三千餘人	-10.7087
信都	-10.709
不去	-10.7091
夜襲	-10.7101
所逼	-10.7101
本無	-10.7106
遂取	-10.7108
東還	-10.711
猶有	-10.7117
章武	-10.7119
五百人	-10.7121
仁任	-10.7122
還國	-10.7123
遂陷	-10.7126
曰吾聞	-10.7128
縱火	-10.713
所宜	-10.7148
所稱	-10.7153
而亡	-10.7155
禮遇	-10.7157
宜授	-10.7158
年老	-10.7166
四百	-10.7173
所見	-10.7175
不朝	-10.7183
王僚	-10.7189
太上	-10.7195
宵	-10.7198
勸王	-10.7203
紳	-10.7204
添	-10.7205
領䕶	-10.7206
礪	-10.721
樸	-10.7212
据	-10.7212
闡	-10.7213
妣	-10.7215
哈	-10.7216
亘	-10.7217
柴再用	-10.7217
鞍轡	-10.7217
伏波	-10.7218
餅	-10.7218
𤼵	-10.7219
纎	-10.722
羞	-10.722
衡陽王	-10.7221
粹	-10.7221
揣	-10.7221
時政	-10.7221
蒲阪	-10.7221
擔	-10.7222
户部侍郎	-10.7223
昵	-10.7223
谿	-10.7224
詮	-10.7224
蔑	-10.7225
二王	-10.7225
有是命	-10.7225
悖	-10.7226
吏部侍郎	-10.7226
彪	-10.7227
栢	-10.7227
鏞	-10.7227
悌	-10.7228
潁川	-10.7229
褘	-10.7229
令孜	-10.7229
償	-10.723
尊母	-10.723
馮延己	-10.723
千餘級	-10.723
鄯善	-10.723
駒	-10.7231
蕭儼	-10.7231
衢州刺史	-10.7233
東平	-10.7234
全播	-10.7234
嚭	-10.7237
通文	-10.7238
親兵	-10.7242
和州	-10.7243
匹夫	-10.7245
劉彦貞	-10.7247
人也初	-10.7251
沆	-10.7251
二十餘年	-10.7254
國史	-10.7255
未敢	-10.7255
不返	-10.7257
嘗與	-10.7258
故曰	-10.726
扶餘	-10.7261
内牙	-10.7261
郴	-10.7262
濮	-10.7262
王擢	-10.7265
六年春正月	-10.7266
鳳州	-10.7266
居數年	-10.7266
李平	-10.7274
承嗣	-10.7276
吕氏	-10.7276
二十卷	-10.7277
廵官	-10.7278
吾欲	-10.7292
建陽	-10.7293
委任	-10.7294
城郭	-10.7294
為都督	-10.7296
吳越兵	-10.7302
公府	-10.7304
東井	-10.7306
復與	-10.7306
復來	-10.7308
昭慶	-10.7308
鎮南王	-10.7309
待罪	-10.731
南郡	-10.7315
遁走	-10.7318
重進	-10.7325
千金	-10.7328
志在	-10.7334
泰州	-10.7336
不動	-10.7337
諸公	-10.7337
嗣王	-10.7339
必能	-10.7341
阻兵	-10.7343
委之	-10.735
武信	-10.7359
十五日	-10.7362
景仁	-10.7373
吉州	-10.7381
設伏	-10.7383
童子	-10.7383
平之	-10.739
遂成	-10.7392
安陽	-10.7393
君父	-10.7396
我太祖	-10.7403
獲免	-10.7404
帥步騎	-10.7406
率衆攻	-10.741
立子	-10.742
兵屯	-10.7421
足矣	-10.7447
史官	-10.7457
兵圍	-10.7457
臣竊	-10.7461
謂我	-10.7464
白虎	-10.7466
左司馬	-10.7471
劉威	-10.7473
引師	-10.748
家屬	-10.7483
遣使請	-10.7484
或謂	-10.7492
天朝	-10.7497
汴兵	-10.7498
貢獻	-10.7499
朝貢	-10.75
焚其	-10.7505
第三	-10.752
囚之	-10.7522
賊衆	-10.753
馳使	-10.7531
兵法	-10.7532
彼必	-10.7537
馴	-10.7546
大驚	-10.7547
善騎射	-10.7549
夲	-10.7549
㫤	-10.755
磨	-10.755
都押牙	-10.7551
葆	-10.7552
大定	-10.7552
聨	-10.7552
駙馬都尉	-10.7553
鎮海鎮東	-10.7554
南唐近事	-10.7554
都部署	-10.7555
平西將軍	-10.7555
之誠	-10.7555
濳	-10.7555
毫	-10.7555
榆	-10.7556
栗	-10.7556
碣	-10.7556
濵	-10.7556
雷電	-10.7556
牆	-10.7556
宙	-10.7556
堆	-10.7557
椘	-10.7558
宗滌	-10.7559
拳	-10.7559
巍	-10.7559
先君	-10.756
顗	-10.756
旨	-10.756
鼠	-10.756
高句驪	-10.7561
已上	-10.7561
驢	-10.7563
忠宣	-10.7563
赫連	-10.7564
國家之	-10.7566
鬚	-10.7566
常夢錫	-10.7566
躁	-10.7567
冀州牧	-10.7567
申胥	-10.7567
恬	-10.7568
徐溫	-10.7569
石門	-10.7571
脚	-10.7572
撲	-10.7572
竟以	-10.7573
洮	-10.7574
沾	-10.7574
萬世	-10.7577
周行逢	-10.7578
中軍將軍	-10.758
羽林	-10.758
七尺	-10.7582
燉煌太守	-10.7583
親戚	-10.7588
涼州刺史	-10.7595
明德	-10.7598
七里	-10.7599
節制	-10.7601
記曰	-10.7601
虚實	-10.7602
在位十	-10.7603
先朝	-10.7617
張格	-10.7632
後苑	-10.7635
博通	-10.7635
與此	-10.7638
至京師	-10.7639
天意	-10.7639
以給	-10.7641
大旱	-10.7643
昭度	-10.7645
下獄	-10.7646
文傑	-10.7648
孫權	-10.7649
其徒	-10.7652
永寧	-10.7655
踰城	-10.7662
貢方物	-10.7665
是歳	-10.7667
一國	-10.7673
衣食	-10.7677
忠順	-10.768
劉聰	-10.7687
寧州刺史	-10.7689
奉迎	-10.769
徙封	-10.7694
字君	-10.7699
于遼	-10.77
以䝉	-10.7701
急攻	-10.7701
無異	-10.7706
吾將	-10.7711
從謙	-10.7712
平原公	-10.7714
光嗣	-10.7714
而遁	-10.7715
更始	-10.7717
始祖	-10.7729
於晉	-10.7729
家貧	-10.7732
飛龍	-10.7739
仕至	-10.7745
論者	-10.7746
閉城	-10.7763
傳位	-10.7765
呼為	-10.7774
境上	-10.7775
金山	-10.7779
敢言	-10.7792
薨于	-10.7796
不敢進	-10.7796
日本	-10.7801
二十九	-10.7803
為尚書令	-10.7814
歸罪	-10.7825
絶其	-10.7825
嘉平	-10.7827
何可	-10.783
劉信	-10.7836
字季	-10.7838
固諫	-10.7853
征東	-10.7854
各一	-10.7855
郴州	-10.786
曰大王	-10.7861
無主	-10.787
偏將	-10.7881
汶	-10.7882
所滅	-10.7883
禳	-10.7887
藴	-10.7887
欲殺之	-10.789
臣恐	-10.7892
話	-10.7892
郤	-10.7892
㝎	-10.7892
裘	-10.7893
故名	-10.7894
文才	-10.7894
清平官	-10.7895
股肱	-10.7896
械	-10.7896
瞿	-10.7897
搏	-10.7897
弭	-10.7897
甄	-10.7898
競渡	-10.7898
桂林	-10.7898
噬	-10.7899
異牟尋	-10.79
茲	-10.79
左賢王	-10.79
轅	-10.79
縳	-10.79
龑	-10.7902
渴	-10.7902
朔日有蝕之	-10.7903
叠	-10.7905
寐	-10.7906
嗜酒	-10.7906
音律	-10.7907
聦	-10.7907
奢侈	-10.7908
季札	-10.7909
璣	-10.7909
盧絳	-10.791
皇甫暉	-10.791
切齒	-10.7911
撥	-10.7911
龜兹	-10.7911
榜	-10.7911
湏	-10.7911
憶	-10.7911
氏為皇太后	-10.7911
烏丸	-10.7912
都䕶	-10.7912
槖	-10.7916
今欲	-10.7919
帥歩騎	-10.7919
白雀	-10.792
鎮東軍	-10.792
紀年	-10.7921
徃徃	-10.7922
六郡	-10.7923
公孫述	-10.7924
遺愛	-10.7927
高麗	-10.7929
丞相亮	-10.7932
無窮	-10.7933
心腹	-10.7935
泰章	-10.7936
公鐸	-10.794
廬江	-10.794
安撫使	-10.7941
元帥府	-10.7942
臺諫	-10.7942
偏師	-10.7943
季昌	-10.7946
張崇	-10.7949
不可不	-10.7949
遣使貢	-10.795
前驅	-10.7951
文辭	-10.7955
小兒	-10.7955
疾苦	-10.7955
孫忌	-10.7958
惡其	-10.796
開寳中	-10.7962
御衣	-10.7962
無禮	-10.7965
遼主	-10.7966
避亂	-10.7966
都監使	-10.7975
仁達	-10.7979
南方	-10.7987
愛州	-10.7989
丁氏	-10.799
慕容氏	-10.7993
臨川	-10.7999
議論	-10.8
夫婦	-10.8005
為左僕射	-10.8006
徃來	-10.8007
翼日	-10.8012
一家	-10.8012
西都	-10.8013
夏侯	-10.8013
後主即位	-10.8018
生靈	-10.8023
繼業	-10.8028
元康	-10.8035
問罪	-10.8035
五里	-10.8037
飲食	-10.8037
咸陽	-10.8041
屢敗	-10.8043
舊臣	-10.8047
騎兵	-10.8055
欲誅	-10.806
官吏	-10.8063
聲言	-10.8068
馬殷	-10.8079
天祚	-10.808
國夫人	-10.8093
匡國	-10.8096
以供	-10.8103
二年春三月	-10.8104
不修	-10.8105
文宗	-10.8107
惟治	-10.8113
淮南將	-10.8117
義真	-10.8119
由此	-10.8124
男子	-10.8126
逺來	-10.8128
彭城王	-10.813
大夏	-10.8131
自焚	-10.8137
一朝	-10.8137
千兩	-10.815
三百人	-10.8151
先登	-10.8151
始平	-10.8176
於人	-10.8184
自餘	-10.8197
未見	-10.8204
西城	-10.8209
腦	-10.8214
五經	-10.8215
凉王	-10.8225
縣郡治	-10.8227
裨	-10.8227
三十萬	-10.8228
稱善	-10.8231
䕫州	-10.8232
兵討之	-10.8234
鹽井	-10.8236
是故	-10.8237
曙	-10.824
逸豆歸	-10.8244
堰	-10.8244
錦里耆舊傳	-10.8245
燼	-10.8245
諸生	-10.8245
褥	-10.8246
南侵	-10.8247
始終	-10.8247
槐	-10.8248
安南國王	-10.8249
猪	-10.8249
碁	-10.825
戢	-10.8252
参	-10.8252
鬰	-10.8252
事君	-10.8252
鎔	-10.8253
覧	-10.8253
𢎞鐸	-10.8253
自立為	-10.8253
穹	-10.8254
刅	-10.8254
袴	-10.8254
雁	-10.8255
兗	-10.8255
紗	-10.8257
嬰城固守	-10.8257
療	-10.8258
曩	-10.8258
槩	-10.8258
渙	-10.8258
鎮北將軍	-10.8258
炕	-10.8258
沮渠䝉遜	-10.8258
驥	-10.8259
歌曰	-10.8259
浸	-10.8259
軸	-10.8259
態	-10.826
饌	-10.826
秃髪傉檀	-10.8261
漿	-10.8262
樵	-10.8262
貝	-10.8262
鷄	-10.8263
總管	-10.8264
購	-10.8264
岀	-10.8264
鹽鐵	-10.8264
馮延已	-10.8265
征南大將軍	-10.8265
腐	-10.8265
監察御史	-10.8265
槍	-10.8265
未嘗不	-10.8266
冩	-10.8267
瑛	-10.8267
淡	-10.8267
菜	-10.8269
床	-10.8269
刁	-10.827
險阻	-10.827
氐羌	-10.827
吁	-10.8272
節度使兼中書令	-10.8273
黄巢	-10.8274
鯀	-10.8275
韶州	-10.8277
宵遁	-10.8278
居無何	-10.8279
欣然	-10.828
張蚝	-10.8281
兖州刺史	-10.8281
乎且	-10.8282
供奉	-10.8282
末杯	-10.8283
寛厚	-10.8284
切諌	-10.8285
庾信	-10.8286
懷恩	-10.8289
巴郡太守	-10.8289
延祐	-10.829
有大志	-10.829
數十里	-10.8292
李神福	-10.8292
秘書郎	-10.8295
狄道	-10.8296
上右	-10.83
擁衆	-10.8304
優詔	-10.8304
淮北	-10.8311
忠烈	-10.8314
張駿	-10.8325
三百餘	-10.8329
元龜	-10.8332
契丹主	-10.8335
佛法	-10.8337
元宗即位	-10.8341
張賔	-10.8341
奄有	-10.8344
上庸	-10.8347
失利	-10.8352
保全	-10.8372
曾祖	-10.8373
封爵	-10.8375
恩信	-10.8377
逃歸	-10.8385
略地	-10.8386
邑人	-10.8391
二十二年	-10.8394
殿直	-10.8399
袁州	-10.8403
至城下	-10.8403
武定	-10.8405
執送	-10.8406
國内	-10.8407
以鐵	-10.8413
武徳	-10.8414
之弟也	-10.8424
臨江	-10.843
信州刺史	-10.8454
先王之	-10.8459
苑中	-10.8463
襄州	-10.8465
景通	-10.8475
入海	-10.8476
入内	-10.8479
忠正	-10.8484
至鄴	-10.8485
高氏	-10.8486
謂人曰	-10.8487
而自立	-10.8492
隂平	-10.8505
故能	-10.851
受業	-10.8541
謡曰	-10.8552
以後事	-10.8553
盛稱	-10.8557
漳州	-10.8564
骨肉	-10.8565
秦隴	-10.8578
以自固	-10.8583
人也父	-10.8587
江山	-10.859
諸道兵	-10.8595
曹公	-10.8597
傳璙	-10.8615
坤	-10.8616
銘曰	-10.8617
建節將軍	-10.8617
旗幟	-10.8617
匡凝	-10.8618
即帝位	-10.8618
系	-10.8618
都知兵馬使	-10.8619
鵲	-10.862
憫	-10.862
何用	-10.862
黷	-10.862
彥	-10.8621
緝	-10.8621
崑崙	-10.8621
貞元十年	-10.8622
讜	-10.8623
番	-10.8623
齊王景達	-10.8623
赫連勃勃	-10.8624
佃	-10.8624
扞	-10.8624
僉議	-10.8625
斜	-10.8625
叢	-10.8625
潯陽	-10.8625
峙	-10.8625
身長八尺	-10.8626
石越	-10.8627
袖	-10.8627
乾符	-10.8628
立為皇后	-10.8628
啼	-10.8628
嘲	-10.8628
篡	-10.8628
牲	-10.8628
鄱陽	-10.8629
緋	-10.8629
詬	-10.863
䕃	-10.863
勇敢	-10.8631
范陽王徳	-10.8631
卵	-10.8631
擕	-10.8631
訊	-10.8631
嫉	-10.8632
越王句踐	-10.8632
大赦境内殊死已下	-10.8632
陽平公融	-10.8633
郃	-10.8633
燾	-10.8633
衛尉	-10.8635
煦	-10.8635
晞	-10.8636
稍遷	-10.8636
猾	-10.8637
煞	-10.8638
鼇	-10.8638
絃	-10.8639
關内侯	-10.8639
奨	-10.864
兎	-10.864
繋	-10.8641
神武統軍	-10.8641
䑕	-10.8641
百揆	-10.8644
樓船	-10.8645
憎	-10.8646
苻丕	-10.8647
師鐸	-10.8652
秦裴	-10.8652
農桑	-10.8652
張巒	-10.8654
欽定四庫全書十國春秋	-10.8655
徐鍇	-10.8656
廣漢太守	-10.8657
惟濬	-10.8659
棘城	-10.8665
佛寺	-10.8666
勁卒	-10.8667
戒嚴	-10.8672
機務	-10.8673
太康	-10.8674
慕容永	-10.8675
𢎞冀	-10.8675
去洛	-10.8677
涪城	-10.8678
仲雅	-10.8678
張顥	-10.8681
五千餘人	-10.8681
大鴻臚	-10.8683
喪亂	-10.8686
固讓	-10.8688
范子曰	-10.8694
乞師於	-10.8695
戲下	-10.8699
元弼	-10.8706
術士	-10.8706
李筠	-10.8707
魯口	-10.8711
夷夏	-10.8718
所重	-10.8718
來迎	-10.8718
忠嗣	-10.8722
字世	-10.8724
依前	-10.8733
者句踐	-10.874
食盡	-10.8744
便宜	-10.8745
重光	-10.8749
鄰國	-10.8749
累官至	-10.8753
美女	-10.8757
遁還	-10.876
女真	-10.8762
今陛下	-10.8763
北方	-10.8766
碑文	-10.8766
光庭	-10.8768
唐莊宗	-10.8782
上将軍	-10.8784
詣闕	-10.8786
封奕	-10.8788
安民	-10.8789
所致	-10.879
四年春三月	-10.8793
能詩	-10.88
左右皆	-10.8819
攻圍	-10.8823
鄴都	-10.8826
順義	-10.8828
濟師	-10.8832
城池	-10.8835
宫女	-10.8839
大哭	-10.8853
東下	-10.8853
求援	-10.8856
或言	-10.8857
驩州	-10.8858
牧守	-10.8869
八都	-10.8873
宗壽	-10.8874
朝服	-10.8875
驚曰	-10.8896
忠懿	-10.8905
廣都	-10.8924
是非	-10.8926
齊已	-10.8934
山林	-10.8954
納土	-10.8959
豈得	-10.8962
梁主	-10.8964
后妃	-10.897
梁太祖	-10.8972
公輔	-10.8973
辜	-10.8978
得幸	-10.8984
二年正月	-10.8984
不答	-10.8984
盡心	-10.8989
趙廷隱	-10.8991
七十餘	-10.8994
萱	-10.8997
琮	-10.9001
髙陽	-10.9001
拂	-10.9001
攷	-10.9002
嶠	-10.9003
泝	-10.9003
囬	-10.9004
濯	-10.9004
恙	-10.9004
零陵	-10.9005
蘆	-10.9005
來宣諭	-10.9006
頡	-10.9007
印綬	-10.9008
積功至	-10.9008
塑	-10.9009
南唐書列傳卷苐	-10.901
𤣥喆	-10.901
匣	-10.901
邏	-10.9011
現	-10.9011
禎	-10.9011
緜	-10.9011
富沙王	-10.9012
行營招討使	-10.9012
多此𩔖	-10.9013
爇	-10.9013
佚	-10.9014
涼州牧	-10.9014
滑臺	-10.9014
岩	-10.9015
杏城	-10.9015
矦	-10.9017
酌	-10.9017
刑部尚書	-10.9018
頷	-10.9018
弁	-10.9018
舶	-10.9018
僰道	-10.9018
梧	-10.9019
誇	-10.9019
凍	-10.9019
案此條	-10.9019
蟻	-10.9019
洸	-10.9021
連重遇	-10.9021
鞫	-10.9022
淝	-10.9022
郊祀	-10.9022
苗裔	-10.9023
中書省	-10.9024
挹	-10.9025
濡	-10.9025
膂力	-10.9026
携	-10.9027
君長	-10.9029
胡進思	-10.903
紹琛	-10.903
髙駢	-10.9032
建武將軍	-10.9032
滁州	-10.9033
秘書	-10.9033
兵五千	-10.9034
頥	-10.9035
綝	-10.9035
有大功	-10.9037
僚屬	-10.9039
歸化	-10.9041
顔色	-10.9041
首尾	-10.9044
五十里	-10.9046
漳水	-10.9046
汀州	-10.9047
李重進	-10.9048
宴羣臣	-10.9052
良久	-10.9058
為都䕶	-10.9058
貴妃	-10.9059
兵數萬	-10.9063
七年春正月	-10.9065
襲殺	-10.907
仕垂	-10.9072
退走	-10.9075
五尺	-10.9076
修好	-10.9077
龍鳳	-10.9078
南伐	-10.908
武衛將軍	-10.9082
倉卒	-10.9083
唐明宗	-10.9083
侍臣	-10.9083
二州牧	-10.9088
年十三	-10.9089
歎曰吾	-10.9092
友善	-10.9094
成都人	-10.9115
入洛	-10.912
羣小	-10.9121
童謡	-10.9122
威儀	-10.9132
勅授王	-10.9133
安危	-10.9135
爲太子	-10.9135
永陵	-10.9137
顯德	-10.9142
海口	-10.9147
於姑臧	-10.9153
東征	-10.9164
左遷	-10.9166
勲舊	-10.9167
州之地	-10.9167
令支	-10.917
累授	-10.9171
降魏	-10.9176
敢忘	-10.9178
厲聲	-10.9183
王爵	-10.9207
高句麗王	-10.9227
西陵	-10.9233
止之曰	-10.9233
車馬	-10.9234
青陽	-10.9234
棄官	-10.9236
大駕	-10.9238
范蠡曰	-10.9244
梁益	-10.9244
趙魏	-10.925
累世	-10.9266
前殿	-10.9268
國語	-10.9276
兵三萬	-10.9288
将吏	-10.9291
餘黨	-10.9291
贈太師	-10.9293
劍門	-10.9293
未足	-10.9303
事覺	-10.9316
二十萬	-10.9331
百口	-10.9332
威徳	-10.9333
庭中	-10.934
殺傷	-10.9353
奄至	-10.9355
論功	-10.9364
城邑	-10.9365
聰明	-10.9373
張業	-10.9376
瓉	-10.9387
䍧柯	-10.9391
廷藝	-10.9394
毬	-10.9394
日新	-10.9398
盆	-10.9398
朔日食	-10.9399
檢校太師	-10.9399
煉	-10.9399
仲㝢	-10.94
喉	-10.9405
弇	-10.9405
乞伏熾磐	-10.9405
玠	-10.9407
啇	-10.9407
棹	-10.9407
覊	-10.9407
腸	-10.9408
簫	-10.9408
𬗋	-10.9409
闈	-10.9409
是役也	-10.9409
夣	-10.941
榭	-10.941
衆寡不敵	-10.941
蒞	-10.9411
劣	-10.9411
㷊	-10.9412
地理志	-10.9412
殉	-10.9413
懾	-10.9413
器械	-10.9413
能屬文	-10.9413
蠟	-10.9413
罄	-10.9414
幄	-10.9415
孕	-10.9415
魏王繼岌	-10.9415
慘	-10.9415
闐	-10.9415
帷	-10.9415
疽	-10.9416
芒	-10.9417
馘	-10.9418
嘯	-10.9418
慟哭	-10.9418
豺狼	-10.9418
岷	-10.9419
澄樞	-10.9419
葭萌	-10.9419
従効	-10.9419
恊	-10.942
衫	-10.942
迅	-10.942
糾	-10.9421
率騎二萬	-10.9422
逄	-10.9422
貫休	-10.9423
姑蘇	-10.9423
鎮海軍節度使	-10.9423
台符	-10.9423
荘宗	-10.9424
蟠	-10.9424
真臘	-10.9425
匡範	-10.9425
娠	-10.9425
劫	-10.9428
伶人	-10.9428
功曺	-10.9428
宗佶	-10.9428
烈祖受禪	-10.9429
酒泉太守	-10.9432
棄城走	-10.9432
東平公	-10.9432
僮	-10.9432
奮擊	-10.9435
富軾	-10.9435
李煜	-10.9437
天竺	-10.9439
慕容暐	-10.9441
罵曰	-10.9442
内衙	-10.9445
性剛	-10.9446
輕舟	-10.9448
鍾離	-10.9448
陳洪進	-10.9451
唐道襲	-10.9452
無辜	-10.9454
師古	-10.9456
光裔	-10.9458
青衣	-10.9464
衛辰	-10.9465
望見	-10.9469
勝負	-10.9473
神明	-10.9474
中常侍	-10.9478
好施	-10.948
溺死	-10.9481
登樓	-10.9481
西土	-10.9487
隴上	-10.9488
太史	-10.9493
兵部	-10.9506
白衣	-10.9511
倍道	-10.9515
賞賜	-10.9517
幽冀	-10.9519
專諸	-10.9523
劉淵	-10.9525
青州刺史	-10.9526
太子太傅	-10.9529
追奔	-10.9535
而遣之	-10.9536
攻拔	-10.9538
河間王	-10.954
入寇	-10.954
入侍	-10.9544
宜春	-10.9547
朝野	-10.9556
虎臺	-10.9561
朝鮮	-10.9568
孟氏	-10.9569
叛亂	-10.9571
天䇿	-10.9576
台州	-10.9585
和好	-10.9585
寳正	-10.9591
不能制	-10.9594
大饑	-10.9606
仁章	-10.9613
侍從	-10.9617
青山	-10.9621
所推	-10.9626
穆帝	-10.9634
寧江	-10.9643
守素	-10.9644
克復	-10.9648
引去	-10.965
萬國	-10.9654
再用	-10.9658
之罪也	-10.9676
餓	-10.9695
謁者	-10.9709
禮葬	-10.9711
存焉	-10.972
怒殺之	-10.9733
西海	-10.9738
衛軍	-10.9744
進討	-10.9748
聲色	-10.9774
忠信	-10.9779
團練使	-10.9797
猶存	-10.9803
必敗	-10.9805
無忌	-10.9806
涯	-10.9812
弦	-10.9812
貞懿王	-10.9814
媪	-10.9815
歐	-10.9817
棗	-10.9819
隻	-10.9819
址	-10.9819
㳟	-10.982
抄	-10.9821
僅以身免	-10.9821
畆	-10.9821
逈	-10.9821
伴	-10.9821
笥	-10.9822
廷珪	-10.9822
䖍釗	-10.9823
安重誨	-10.9823
茂虔	-10.9823
珝	-10.9823
珦	-10.9823
凢	-10.9824
狩	-10.9824
瞋	-10.9824
㒺	-10.9824
柰	-10.9824
葺	-10.9824
桂管	-10.9824
卦	-10.9825
彦瑫	-10.9825
鯉	-10.9826
摘	-10.9826
装	-10.9827
孛	-10.9827
苖	-10.9827
襁	-10.9827
尓	-10.9827
鈴	-10.9827
僭即皇帝位	-10.9828
瘳	-10.9828
舁	-10.9828
餽	-10.9828
鉅鹿	-10.9829
稻	-10.9829
保朂	-10.9829
侑	-10.983
彗星	-10.983
姜維	-10.9831
世子惟濬	-10.9831
株	-10.9831
悵	-10.9831
拉	-10.9832
槃	-10.9832
矟	-10.9832
帑	-10.9833
耆老	-10.9833
漫	-10.9833
遼西王農	-10.9834
鎮遏使	-10.9834
榻	-10.9835
掛	-10.9835
東萊	-10.9835
工部尚書	-10.9836
天䇿府	-10.9836
武義元年	-10.9836
挑戰	-10.9836
鎖	-10.9837
不知何許人	-10.9837
弔祭	-10.9837
篋	-10.9838
散騎侍郎	-10.9839
十有二月	-10.9839
廐	-10.9839
東夷校尉	-10.9839
椒	-10.9839
鄧羌	-10.9839
送欵	-10.984
表裏	-10.984
宋光嗣	-10.984
槊	-10.9842
跣	-10.9842
華陽國志卷	-10.9842
柘東	-10.9842
瑗	-10.9843
黎桓	-10.9844
䑓	-10.9845
疾陸眷	-10.9845
尹緯	-10.9845
逾年	-10.9847
立妻	-10.9848
釘	-10.9851
司農	-10.9851
慕容冲	-10.9851
趙廷隠	-10.9853
吕隆	-10.9853
盗賊	-10.9854
昭恵	-10.9854
登岸	-10.9856
衙内	-10.9856
尤工	-10.9857
節儉	-10.9865
請罷	-10.9871
第三子也	-10.9871
越王曰善	-10.9871
别室	-10.9873
大司農	-10.9874
弗許	-10.9875
年十四	-10.9875
誅戮	-10.9877
袁州刺史	-10.9877
繼岌	-10.9877
曰諾	-10.988
切責	-10.9881
陜城	-10.9886
言訖	-10.9888
踰年	-10.9889
魏太祖	-10.9889
從効	-10.9891
之力也	-10.9892
文圭	-10.9894
審思	-10.9898
遣别將	-10.9899
共推	-10.9902
男成	-10.9907
董氏	-10.9911
獲罪	-10.9916
知政事	-10.9918
虚白	-10.9919
宜速	-10.992
臨刑	-10.9924
漁者	-10.9925
優禮	-10.9925
封齊王	-10.993
實録	-10.9935
無厭	-10.9935
立為太子	-10.9936
思恭	-10.9943
不協	-10.9944
於平陽	-10.995
滅亡	-10.9951
何敢	-10.9959
詩賦	-10.9959
奔走	-10.9959
忠良	-10.997
無賴	-10.9973
漢末	-10.9973
遇賢	-10.9984
季子	-10.9986
秦川	-10.9987
鎮南節度使	-10.9987
中郎	-10.9996
老母	-10.9999
經營	-11.0001
畧地	-11.0013
退居	-11.0017
正色	-11.0026
著述	-11.0027
清風	-11.0039
水火	-11.004
不逮	-11.0047
將兵攻	-11.0056
字𤣥	-11.0069
親吏	-11.0078
乞師于	-11.0097
延昌	-11.0106
西平公	-11.0123
錦繡	-11.013
孝皇帝	-11.0144
七嵗	-11.0153
中尉	-11.0159
兵五萬	-11.0163
閬中	-11.0176
百尺	-11.0179
率衆三萬	-11.0184
下令曰	-11.02
汝曹	-11.0225
師敗	-11.023
汲郡	-11.0234
熾盤	-11.0235
蠻賊	-11.0236
慨	-11.0246
奈	-11.0246
灘	-11.0249
洵美	-11.025
貞觀	-11.0251
偁	-11.0251
滁	-11.0252
蜂	-11.0252
粒	-11.0253
臠	-11.0254
南越王	-11.0254
庇	-11.0254
緘	-11.0254
陌	-11.0255
禋	-11.0256
矧	-11.0256
寰	-11.0257
㫄	-11.0257
禅	-11.0258
帽	-11.0261
撤	-11.0261
卞	-11.0261
脂	-11.0261
屡	-11.0262
仇讐	-11.0262
鎮東大將軍	-11.0263
蹕	-11.0263
苾	-11.0263
梗	-11.0264
判六軍	-11.0264
嫗	-11.0264
浄	-11.0264
弃	-11.0264
領縣二	-11.0264
辤	-11.0264
魴	-11.0264
芻	-11.0265
宣徽使	-11.0265
宋繇	-11.0266
昪	-11.0266
狠	-11.0266
琚	-11.0266
轄	-11.0266
淄	-11.0267
傭	-11.0267
鏢	-11.0267
愎	-11.0267
玗	-11.0267
酖	-11.0268
斐	-11.0268
坂	-11.0268
𥙷	-11.0268
萊	-11.0269
詆	-11.0269
長水校尉	-11.027
舉秀才	-11.027
糞	-11.027
為内應	-11.0271
豚	-11.0271
帥衆二萬	-11.0272
敬瑭	-11.0272
蒯	-11.0272
謔	-11.0272
挽	-11.0273
賞罰	-11.0273
西戎	-11.0274
控鶴	-11.0274
江南野史云	-11.0277
樞宻副使	-11.0277
殤帝	-11.0278
灑	-11.0278
司隸校尉	-11.0278
漕	-11.0278
跳	-11.0279
硯	-11.0279
揔	-11.0279
陳敬瑄	-11.028
曇逹	-11.028
諸樊	-11.028
泮	-11.028
它日	-11.0282
紀綱	-11.0282
副元帥	-11.0282
烘人	-11.0283
崔瑩	-11.0284
玉璽	-11.0284
京兆尹	-11.0285
餘如故	-11.0286
武威太守	-11.0288
銅錢	-11.0288
十倍	-11.0289
慰諭	-11.0289
龍編	-11.029
羲範	-11.0291
羅什	-11.0292
推戴	-11.0294
秦姚興	-11.0296
稽首	-11.0296
天台	-11.0299
猶豫	-11.0299
熙載	-11.0303
蜀郡太守	-11.0304
無筭	-11.0305
要害	-11.0309
權翼	-11.0313
忠貞	-11.0317
百二十	-11.032
萬七千	-11.0321
經籍	-11.0324
仁傑	-11.0328
光啟	-11.0329
二旬	-11.0332
老弱	-11.0335
長樂公	-11.034
犯法	-11.0343
東苑	-11.0345
數千里	-11.0348
四尺	-11.0348
麗水	-11.0349
益急	-11.0349
貽書	-11.0349
備史	-11.035
百勝	-11.0355
强盛	-11.0355
舉族	-11.0357
尤善	-11.0357
賢良	-11.0358
塗山	-11.0362
厚禮	-11.0365
刑政	-11.0369
太寧	-11.0371
卒諡曰	-11.0372
少康	-11.0372
隠居	-11.0376
元徽	-11.0377
彭年	-11.0382
軍糧	-11.0383
求救于	-11.0383
威福	-11.039
相謂曰	-11.0407
年月	-11.0409
雅善	-11.0412
義存	-11.0414
衛士	-11.0425
威權	-11.0434
臨終	-11.0434
謂羣臣曰	-11.0441
異姓	-11.0445
違命	-11.045
將兵救	-11.0455
糧盡	-11.046
乘馬	-11.0464
二十餘萬	-11.0473
去就	-11.0478
退守	-11.0479
二十二	-11.0492
夜分	-11.0493
上谷	-11.0496
將何以	-11.0524
貞元	-11.0531
上疏曰	-11.0534
後庭	-11.0569
大驚曰	-11.0578
犍	-11.0585
致討	-11.0589
刺殺	-11.0591
四十八	-11.0611
他國	-11.0646
利用	-11.0669
孜	-11.0679
鄧艾	-11.0703
滄	-11.0703
不知所終	-11.0708
嬉	-11.0709
秦始皇	-11.0709
青城山	-11.071
皎	-11.071
鴟	-11.071
琶	-11.0711
慿	-11.0711
撫軍大將軍	-11.0711
磐	-11.0711
悛	-11.0711
舟楫	-11.0711
折衝將軍	-11.0712
鉛	-11.0712
剽	-11.0712
笏	-11.0712
箋	-11.0713
鶚	-11.0713
雌	-11.0713
確	-11.0713
金墉	-11.0713
縷	-11.0713
諺	-11.0714
瀛	-11.0715
鐔	-11.0715
凋	-11.0715
稼	-11.0715
葵	-11.0716
宗廟社稷	-11.0716
瑜	-11.0716
鏁	-11.0716
售	-11.0716
崑	-11.0718
吕師造	-11.0718
叨	-11.0718
軄	-11.0718
欷	-11.0719
頊	-11.0719
光稠	-11.0719
佖	-11.0719
瓜	-11.072
剽掠	-11.0721
瑕	-11.0721
墊江	-11.0721
攘袂	-11.0721
牘	-11.0721
旒	-11.0722
聶	-11.0722
寧朔將軍	-11.0722
交趾	-11.0722
悽	-11.0722
龔慎儀	-11.0723
悪	-11.0723
貟	-11.0723
耶律	-11.0723
蕪	-11.0723
曼	-11.0724
婿	-11.0724
棠	-11.0724
琀	-11.0724
鋹	-11.0724
蹄	-11.0725
馥	-11.0725
堵	-11.0725
咏	-11.0726
僚佐	-11.0726
給事黄門侍郎	-11.0727
寖	-11.0728
姚弋仲	-11.0728
翳	-11.0729
睡	-11.0729
繹	-11.073
左衞將軍	-11.0731
攬	-11.0732
李齊賢	-11.0733
牟尋	-11.0734
羣盗	-11.0734
慎勿	-11.0735
臨卭	-11.0737
蔵	-11.0737
兵馬元帥	-11.074
呵	-11.0742
珍寶	-11.0747
不相能	-11.0747
俘獲	-11.0751
宗社	-11.0757
財物	-11.0757
通鑑作	-11.0758
報仇	-11.0763
晚年	-11.0764
茅山	-11.0765
章句	-11.0777
學校	-11.0778
賢妃	-11.0784
晉天福	-11.0786
甚謹	-11.079
保貞	-11.0795
帝崩	-11.0805
智髙	-11.0806
追騎	-11.081
風吹	-11.0811
百司	-11.0814
鍾傳	-11.0816
渡淮	-11.0826
隴西公	-11.083
萬餘户	-11.0831
車服	-11.084
糧道	-11.086
不能克	-11.0892
莫知其	-11.0913
樂工	-11.0924
百匹	-11.0925
交通	-11.0936
不輟	-11.0941
平凉	-11.1026
二十三年	-11.1051
仲夫	-11.1053
苐十	-11.1074
厯數	-11.1117
元年春三月	-11.1162
儂	-11.1165
元黎崱撰	-11.1173
漬	-11.1179
薰	-11.118
嶲	-11.118
販	-11.1181
甌	-11.1182
蛟	-11.1182
鯨	-11.1183
緇	-11.1183
僉	-11.1183
觀察判官	-11.1186
都押衙	-11.1187
糜	-11.1187
聳	-11.1188
宣諭使	-11.1188
犂	-11.1189
耽	-11.1189
郄	-11.1189
賻	-11.119
鈔	-11.119
洵	-11.119
煮	-11.119
殊死已下	-11.119
驃騎	-11.1191
漁父	-11.1192
紇	-11.1192
单	-11.1192
羈縻	-11.1192
纒	-11.1192
治中從事	-11.1192
甸	-11.1193
鍊	-11.1193
駞	-11.1193
闘	-11.1194
徤	-11.1194
受禅	-11.1194
東都留守	-11.1195
架	-11.1195
陸游南唐書	-11.1195
唐餘紀傳	-11.1195
墀	-11.1195
須臾	-11.1196
瑚	-11.1196
袒	-11.1196
若干卷	-11.1196
釣磯立談	-11.1196
山南西道節度使	-11.1196
揚武將軍	-11.1197
曹嶷	-11.1197
刄	-11.1197
駁	-11.1198
貪暴	-11.1198
瓠	-11.1198
眇	-11.1198
竇衝	-11.1198
詰旦	-11.1198
弹	-11.1199
玳瑁	-11.1199
朱令贇	-11.1199
笛	-11.1199
鴨	-11.1199
逾月	-11.12
鼓譟	-11.12
􁪽	-11.1201
誼	-11.1201
忤㫖	-11.1201
𣢾	-11.1201
悴	-11.1202
轡	-11.1202
高陽王隆	-11.1202
冨貴	-11.1202
蓮花	-11.1202
粮	-11.1203
翕然	-11.1203
撻	-11.1204
步軍都指揮使	-11.1204
鼈	-11.1206
陘	-11.1206
衾	-11.1206
呌	-11.1207
氛	-11.1207
髦	-11.1208
王孫駱	-11.1208
聰慧	-11.1209
焚香	-11.1209
中郎将	-11.1209
以孝聞	-11.121
貽業	-11.1212
嘉其忠	-11.1213
鞍馬	-11.1213
奴婢	-11.1214
戎狄	-11.1215
李廷珪	-11.1215
元珦	-11.1216
率所部	-11.1217
長樂公丕	-11.1219
綱紀	-11.1219
眉州刺史	-11.122
羣盜	-11.122
廟諱	-11.122
倉庫	-11.122
張掖太守	-11.122
第宅	-11.1224
犒軍	-11.1226
申包胥	-11.1226
休息	-11.123
政丞	-11.1234
愍帝	-11.1234
錢帛	-11.1237
空虚	-11.1237
公孫聖	-11.1238
師旅	-11.1238
力屈	-11.1238
令狐	-11.1242
詳具	-11.1246
羣臣咸	-11.1249
通鑑云	-11.125
浮梁	-11.125
秦州牧	-11.1255
王宗侃	-11.1256
承丕	-11.1259
要離	-11.1264
互相	-11.1265
形勢	-11.1266
非常之	-11.127
二百餘人	-11.1271
便殿	-11.1272
萬泥	-11.1272
遐方	-11.1273
齎詔	-11.1283
仁慈	-11.1286
李肇	-11.1289
少好學	-11.1291
蘄	-11.1292
彦真	-11.1293
泗州	-11.1294
晏然	-11.1297
洛州刺史	-11.1297
謝恩	-11.1299
師大敗	-11.1303
李儼	-11.1305
引退	-11.1311
居恒	-11.1311
寺僧	-11.1319
釋氏	-11.1322
雨血	-11.1328
萬疋	-11.1344
四十年	-11.137
火燒	-11.1383
譲皇	-11.1425
酷好	-11.1442
四十餘	-11.1531
顯徳五年	-11.1562
萬乘	-11.1563
十五萬	-11.164
瓚	-11.1677
溟	-11.1677
耘	-11.1678
十疋	-11.1678
醮	-11.1679
静海軍節度	-11.168
沮渠蒙遜	-11.168
蕘	-11.1681
軟	-11.1682
馨	-11.1682
翰林待詔	-11.1683
偵	-11.1685
徭	-11.1685
行營都統	-11.1687
黍	-11.1688
剥	-11.1688
昻	-11.1688
巻	-11.1688
爪牙	-11.169
珂	-11.169
僖	-11.169
錮	-11.169
廣平公弼	-11.1692
卒年五十	-11.1692
妬	-11.1692
濕	-11.1693
太子洗馬	-11.1693
拾	-11.1693
鵬	-11.1693
溉	-11.1693
芙	-11.1693
佺	-11.1694
廕	-11.1694
刪	-11.1694
桑梓	-11.1694
寧國軍節度使	-11.1694
鳯翔	-11.1695
澠	-11.1695
鎮南軍節度使	-11.1695
沐浴	-11.1695
貿	-11.1696
唇齒	-11.1696
斾	-11.1696
竢	-11.1696
諳	-11.1696
唘	-11.1696
閶	-11.1697
絕	-11.1697
炙	-11.1697
郭黁	-11.1698
端拱	-11.1698
髙句驪	-11.1698
映	-11.1698
噪	-11.1699
准	-11.1699
鄧𦍑	-11.17
柯	-11.17
闊	-11.17
譎	-11.17
捉	-11.1701
東川節度使	-11.1701
罽	-11.1701
轘	-11.1702
仆	-11.1702
璃	-11.1702
囿	-11.1702
蘭汗	-11.1702
鉤	-11.1703
玢	-11.1703
吝	-11.1703
廷琄	-11.1703
移檄	-11.1703
綦	-11.1704
太常博士	-11.1704
銷	-11.1705
鴦	-11.1705
粟帛	-11.1705
姿貌	-11.1706
寒暑	-11.1706
麴允	-11.1707
黠	-11.1708
扣	-11.1708
盧文進	-11.1709
劉彦瑫	-11.171
容貌	-11.171
慕輿根	-11.1711
鯁	-11.1711
動静	-11.1712
曰大丈夫	-11.1713
厚賂	-11.1713
繆	-11.1713
許諾	-11.1713
保大末	-11.1714
磾	-11.1715
諭㫖	-11.1718
海島	-11.172
文鴦	-11.1725
慰勞	-11.1727
築室	-11.1729
草創	-11.173
七十里	-11.1731
自刎	-11.1731
玉帛	-11.1734
珍寳	-11.174
昇州刺史	-11.1743
龍腦	-11.1744
常山公	-11.1747
願大王	-11.1748
當塗	-11.1749
貢賦	-11.1752
水旱	-11.1753
岳州刺史	-11.176
明年春	-11.1762
守尚書令	-11.1775
骸骨	-11.1777
光啓	-11.1779
平壤	-11.179
張天錫	-11.1791
聽政	-11.18
承勲	-11.1804
登極	-11.182
昇元中	-11.1821
曽祖	-11.1825
近侍	-11.1829
侍衞	-11.1831
秉政	-11.1832
僭立	-11.1838
避難	-11.1862
享國	-11.1863
餓死	-11.1865
閬中人	-11.1889
南安人	-11.1908
百篇	-11.1911
為賊所	-11.1921
都䕶府	-11.1924
侍宴	-11.1952
土豪	-11.1964
求救	-11.2081
骸	-11.2132
秉彛	-11.2195
遑	-11.2195
低	-11.2197
稠	-11.2204
彧	-11.2204
闌	-11.2205
浩亹	-11.2206
鋪	-11.2207
紓	-11.2208
旵	-11.2208
鉢	-11.2208
陛	-11.2209
水晶	-11.221
玭	-11.221
盃	-11.2211
堦	-11.2211
毘	-11.2212
櫬	-11.2212
叶	-11.2213
頋全武	-11.2214
奉朝請	-11.2214
翰林學士承㫖	-11.2214
姧	-11.2214
的	-11.2215
仁沼	-11.2215
馬步都指揮使	-11.2215
袋	-11.2215
聿	-11.2215
昀	-11.2216
臾	-11.2216
鎮逺將軍	-11.2217
埿	-11.2217
嬰齊	-11.2217
撞	-11.2217
猿	-11.2217
塩	-11.2217
奎	-11.2218
無虚日	-11.2218
訃	-11.2218
鳳凰	-11.2218
浹	-11.2218
艷	-11.2218
儀同三司	-11.2218
迥	-11.2219
啖	-11.2219
靳準	-11.2219
朱延壽	-11.2219
覃	-11.222
兔	-11.222
何面目	-11.222
紐	-11.2221
孫光憲	-11.2221
贊成事	-11.2221
旰	-11.2221
昬	-11.2221
六年春二月	-11.2221
橘	-11.2222
安逺將軍	-11.2222
柴克宏	-11.2222
盪	-11.2222
炯	-11.2222
簷	-11.2222
遶	-11.2223
丐	-11.2223
謟	-11.2223
焚燒	-11.2223
泫	-11.2223
衞尉	-11.2223
虬	-11.2223
粧	-11.2223
萬餘級	-11.2223
第三子	-11.2223
踞	-11.2223
鞍勒馬	-11.2223
賜王生辰禮物	-11.2224
蚤	-11.2224
韙	-11.2224
縑	-11.2225
爪	-11.2225
邆	-11.2226
倧	-11.2226
覔	-11.2226
睢	-11.2226
愕	-11.2227
婉	-11.2227
拓跋	-11.2227
惋	-11.2229
鄭夢周	-11.2229
商旅	-11.2229
盍	-11.2229
唯唯	-11.223
漳泉	-11.223
驕恣	-11.223
彭師暠	-11.223
螺	-11.2231
慨然	-11.2231
留從效	-11.2231
辛禑	-11.2231
肘	-11.2231
彞	-11.2231
鍳	-11.2232
參知政事	-11.2232
磬	-11.2232
毘陵	-11.2232
瞽	-11.2233
僑	-11.2234
荆湖	-11.2234
批	-11.2234
豺	-11.2235
孫承祐	-11.2235
率騎五千	-11.2236
惶懼	-11.2236
倬	-11.2237
耽羅	-11.2237
帥精騎	-11.2237
經綸	-11.2237
匝	-11.2238
驚擾	-11.224
隔絶	-11.224
部都尉	-11.224
屠各	-11.224
兠	-11.2241
踰月	-11.2242
張遇賢	-11.2243
鐵橋	-11.2243
宋史云	-11.2245
𢎞億	-11.2245
糴	-11.2246
戈甲	-11.2248
識者以為	-11.2249
宋史作	-11.225
乘虚	-11.225
祭祀	-11.2251
存瓌	-11.2252
魏郡太守	-11.2252
談論	-11.2252
感悟	-11.2254
管仲	-11.2255
諭安南	-11.2255
舍利	-11.2256
浮海	-11.2257
李穡	-11.2259
十六國春秋卷五十	-11.2261
后稷	-11.2262
犍爲太守	-11.2262
數百騎	-11.2263
以城降	-11.2263
段遼	-11.2264
交阯太守	-11.2264
從鎰	-11.2264
春正月	-11.2266
譙周	-11.2268
文蔚	-11.2268
交泰	-11.2271
戮力	-11.2272
曰此兒	-11.2273
張豺	-11.2276
早亡	-11.2281
感化	-11.2286
握兵	-11.2289
素弗	-11.2297
北中郎將	-11.2297
爵位	-11.23
䘮亂	-11.23
郪人也	-11.2301
八年春正月	-11.232
唱和	-11.2321
將兵擊	-11.2333
毛詩	-11.2354
導江	-11.2377
驩	-11.24
烏蠻	-11.2412
十篇	-11.2449
牙将	-11.2482
尺餘	-11.2616
夜遁	-11.2648
謡	-11.2719
宗侃	-11.2737
踏	-11.2746
衲	-11.2754
鞏	-11.2759
閫	-11.276
珉	-11.276
冊府元龜	-11.2761
縉	-11.2764
髯	-11.2764
娘	-11.2765
縻	-11.2765
檢討吳任臣撰吳	-11.2765
淨	-11.2765
右千牛衛	-11.2766
祟	-11.2766
甄萱	-11.2766
邢	-11.2766
田令孜	-11.2767
癸夘	-11.2767
港	-11.2767
胎	-11.2768
魏崔鴻撰	-11.2768
甃	-11.2768
臘	-11.2769
敗我兵于	-11.2769
等謹案	-11.2769
鄭彦華	-11.277
􁡦	-11.277
中流矢	-11.277
壅	-11.277
譌	-11.277
閭丘	-11.2771
沁	-11.2771
芮	-11.2771
贓	-11.2771
謠	-11.2771
貂	-11.2771
五年春二月	-11.2772
哶	-11.2772
蟾	-11.2772
關羽	-11.2772
庖	-11.2773
􁫘	-11.2773
欄	-11.2774
殿中侍御史	-11.2774
番禺	-11.2774
浣	-11.2774
涸	-11.2775
竪	-11.2775
卒諡文	-11.2775
樽	-11.2775
狼狽	-11.2776
熖	-11.2776
莒	-11.2777
闋	-11.2777
俳	-11.2777
葦	-11.2778
襦	-11.2778
煌	-11.2778
嗚	-11.2778
倒懸	-11.2778
稀	-11.2778
娛	-11.2778
峨	-11.2778
勸課農桑	-11.2779
迸	-11.2779
許德勲	-11.2779
醴	-11.2779
㳤	-11.2779
减	-11.2779
王崇質	-11.2779
面縛	-11.2779
耄	-11.2779
亹	-11.2779
杞	-11.278
蟬	-11.278
麤	-11.278
廡	-11.278
膚	-11.278
偡	-11.278
喇	-11.2781
押牙	-11.2781
世系	-11.2781
莅	-11.2781
仔	-11.2781
籬	-11.2782
跋扈	-11.2782
鎮西大將軍	-11.2783
荼	-11.2783
户部尚書	-11.2783
旭	-11.2784
渦	-11.2784
陳覺李徴古	-11.2785
瞑	-11.2785
弋	-11.2785
毖	-11.2785
捄	-11.2785
後不知所終	-11.2786
股	-11.2786
齊王景逹	-11.2787
鵝	-11.2787
御史臺	-11.2788
白虹	-11.2788
䝉舍	-11.2789
洞潛	-11.2789
省躬	-11.279
醒	-11.279
程遐	-11.279
亨	-11.2791
歌舞	-11.2791
鉅	-11.2791
迎鑾	-11.2792
咨爾	-11.2793
紊	-11.2793
殖	-11.2793
俛	-11.2794
灼	-11.2794
遣使來聘	-11.2795
崔浩	-11.2795
漁陽	-11.2795
趙佗	-11.2795
祺	-11.2795
速骨	-11.2796
呉呉南唐南唐南唐	-11.2796
􁠷	-11.2796
率衆二萬	-11.2798
馳驛	-11.2798
夙夜	-11.2798
胷	-11.2799
侍婢	-11.2799
殊俗	-11.28
仁璧	-11.28
侍側	-11.2801
衞大將軍	-11.2801
虗白	-11.2801
閼	-11.2802
戶	-11.2803
疾革	-11.2803
杜稜	-11.2804
壮士	-11.2805
時人謂之	-11.2806
秀才	-11.281
寛簡	-11.281
皇甫真	-11.2811
太傅評	-11.2811
買德	-11.2812
遇弑	-11.2813
漢武帝	-11.2815
佛嵩	-11.2815
十斤	-11.2824
傳檄	-11.2826
十一年春正月	-11.2827
謀作亂	-11.2835
左衛將軍	-11.2846
太湖	-11.2847
年十六	-11.2849
腰斬	-11.2889
兵二萬	-11.2933
十六國春秋卷三十	-11.2941
南鄭人也	-11.2948
戰不利	-11.2978
光天元年	-11.3096
景福元年	-11.3251
是月勅	-11.326
濮陽	-11.3269
貟外郎	-11.333
節鉞	-11.3334
潦	-11.3345
五代㑹要	-11.3346
峒	-11.3347
邽	-11.3347
捶	-11.3347
鮓	-11.3349
洙	-11.335
涿	-11.335
秦宗權	-11.335
錦綺	-11.3351
越裳	-11.3353
登進士第	-11.3353
出其不意	-11.3353
淦	-11.3353
鋌	-11.3354
㸑	-11.3354
黯	-11.3355
闓	-11.3355
陸費墀	-11.3355
箸	-11.3355
磯	-11.3355
偹史	-11.3355
乙夘	-11.3355
韓保貞	-11.3356
咽	-11.3357
蜜	-11.3357
希杲	-11.3357
澆	-11.3357
闞	-11.3357
胸	-11.3357
司天監	-11.3357
斵	-11.3358
㗖	-11.3358
吟咏	-11.3358
即王位	-11.3358
倐	-11.3359
欽定四庫全書史部九	-11.3359
載記𩔖	-11.3359
捲	-11.3359
彎	-11.3359
囂	-11.336
俚	-11.336
夔	-11.336
霖	-11.336
欠	-11.336
儻	-11.336
培	-11.336
娯	-11.336
栖	-11.3361
司隷	-11.3361
晁	-11.3361
太子少傅	-11.3362
紏	-11.3362
鈐	-11.3362
長春殿	-11.3363
唐文扆	-11.3363
肺	-11.3363
匡賛	-11.3364
規模	-11.3364
呪	-11.3364
繼鵬	-11.3365
拊	-11.3365
察球爾	-11.3365
殷崇義	-11.3365
袤	-11.3366
言於興曰	-11.3366
舂	-11.3366
坎	-11.3366
紛紛	-11.3367
烽	-11.3367
眸	-11.3367
寗	-11.3367
鐫	-11.3367
彗	-11.3367
央	-11.3368
晷	-11.3368
有勇力	-11.3368
儋	-11.3368
贅	-11.3368
咒	-11.3369
祜	-11.3369
覬	-11.3369
盒	-11.3369
〇	-11.3369
紞	-11.3369
璩	-11.337
羮	-11.337
炅	-11.337
查	-11.337
國子祭酒	-11.337
戀	-11.3371
百勝軍節度使	-11.3371
畝	-11.3371
擊毬	-11.3371
藁	-11.3371
臺濛	-11.3371
門下侍郎平章事	-11.3371
技	-11.3372
鳴鼓	-11.3373
租稅	-11.3373
怙	-11.3374
鈍	-11.3374
消息	-11.3374
両浙	-11.3374
哂	-11.3374
种氏	-11.3374
為謀主	-11.3375
餒	-11.3375
𢎞俶	-11.3375
婚姻	-11.3375
事髙祖為	-11.3376
墳墓	-11.3376
澄心堂	-11.3376
諂	-11.3376
翟斌	-11.3377
貴嬪	-11.3377
第六子	-11.3377
顧左右曰	-11.338
乾貞	-11.338
奉車都尉	-11.3381
袵	-11.3381
韋莊	-11.3381
即偽位	-11.3381
摶	-11.3382
釡	-11.3384
尚書僕射	-11.3384
雍熈	-11.3385
僃	-11.3385
撫綏	-11.3386
八十里	-11.3386
恭儉	-11.3388
清儉	-11.339
傾覆	-11.339
運糧	-11.3396
唐僖宗	-11.3397
左丞	-11.3398
右衛將軍	-11.3399
驚駭	-11.3402
䘚年七十	-11.3403
工畫	-11.3404
白狼	-11.3404
軹	-11.3405
卑辭	-11.3405
萬餘口	-11.3406
幽州牧	-11.3408
韓範	-11.3409
領軍將軍	-11.3413
潰散	-11.3414
羲蕚	-11.342
可圖也	-11.3497
廣政十	-11.35
追謚	-11.3515
妻妾	-11.3568
中吳軍	-11.3612
元年春二月	-11.3666
南唐書卷之十	-11.3869
防禦使	-11.3955
天下兵馬都元帥	-11.3957
琇	-11.3967
潯	-11.3967
盎	-11.3968
羨	-11.3972
笮	-11.3973
優容之	-11.3973
暝	-11.3974
天資嘉瑞	-11.3974
霑	-11.3975
殫	-11.3976
箴	-11.3978
劭	-11.3979
璵	-11.3979
敘	-11.3979
畨禺	-11.398
黥	-11.3981
漣	-11.3981
嗚呼哀哉	-11.3982
灝	-11.3982
軍諮祭酒	-11.3983
滑稽	-11.3983
嵬	-11.3983
耐	-11.3983
轉運使	-11.3983
稼穡	-11.3983
輓	-11.3984
縊殺之	-11.3984
諫諍	-11.3984
駟	-11.3984
忱	-11.3985
天安殿	-11.3985
喧	-11.3985
秘書省正字	-11.3985
敖	-11.3985
巽	-11.3986
勤政殿學士	-11.3986
大赦改年	-11.3986
曵	-11.3986
安東將軍	-11.3986
箠	-11.3986
炤	-11.3986
䕶羌校尉	-11.3986
催	-11.3986
咄	-11.3987
吳越備史	-11.3987
彫	-11.3987
瑪	-11.3987
藿	-11.3987
囑	-11.3987
不可勝紀	-11.3987
換	-11.3987
黄門郎	-11.3988
鑰	-11.3988
倓	-11.3988
鎻	-11.3989
自稱留後	-11.3989
飼	-11.3989
竿	-11.3989
檢校太師兼中書令	-11.3989
踐阼	-11.399
褚	-11.399
身長七尺	-11.399
蠧	-11.399
扁	-11.3991
渇	-11.3992
驃	-11.3992
商賈	-11.3992
蘋	-11.3992
陳守元	-11.3992
肌	-11.3993
改今名	-11.3993
武信軍節度使	-11.3993
朞	-11.3994
邯鄲	-11.3994
嗇	-11.3995
不可勝數	-11.3995
原本作	-11.3995
許再思	-11.3995
埸	-11.3995
般若	-11.3995
翮	-11.3996
惕	-11.3996
宣歙	-11.3996
謙光殿	-11.3996
時年五十	-11.3997
吿	-11.3997
冤	-11.3997
企	-11.3997
王子傳瓘	-11.3997
中書門下	-11.3997
倜儻	-11.3998
禇	-11.3998
征北大將軍	-11.3998
未遑	-11.3998
脇	-11.3998
儉約	-11.3999
湯悦	-11.3999
婺	-11.3999
稻田	-11.3999
涵	-11.4
嘔	-11.4
茗	-11.4
芟	-11.4
將若之何	-11.4
行於世	-11.4001
䛕	-11.4001
永嘉之亂	-11.4002
昂	-11.4002
甕	-11.4002
禮賢宅	-11.4002
仔鈞	-11.4002
楞	-11.4002
狀貌	-11.4002
悠	-11.4003
秣馬	-11.4003
航海	-11.4003
龔澄樞	-11.4004
大赦境内改元	-11.4004
牡丹	-11.4004
汝隂王	-11.4005
束帛	-11.4006
以郡降	-11.4006
牂柯	-11.4007
縫	-11.4007
𥿄	-11.4007
沈彬	-11.4007
叛降於	-11.4008
箱	-11.4009
夷狄	-11.4014
軍大潰	-11.4016
朝鮮史畧卷	-11.4018
宿衞	-11.4021
􁢱	-11.4022
圉	-11.4025
謝艾	-11.4028
供給	-11.4031
十六國春秋卷二十	-11.4068
陽騖	-11.4148
九年春正月	-11.4148
庶幾	-11.417
太子元膺	-11.4326
廣政二十	-11.4501
謏	-11.4621
蕉	-11.4633
屣	-11.4635
鄠	-11.4635
塊	-11.4638
巣	-11.4639
麋	-11.464
閽	-11.4641
楮	-11.4641
丈二尺	-11.4642
荔	-11.4642
逓	-11.4642
派	-11.4644
酸	-11.4644
滑	-11.4645
灣	-11.4645
碓	-11.4645
陳益稷	-11.4646
東平王全忠	-11.4646
三楚新録	-11.4646
凑	-11.4647
逕	-11.4647
摭	-11.4648
產	-11.4648
宣華苑	-11.4648
惻	-11.4649
幡	-11.4649
戅	-11.4649
蹲	-11.4649
騁	-11.465
兗州刺史	-11.465
滄海	-11.465
椿	-11.4651
竇融	-11.4651
板楯	-11.4651
艶	-11.4651
夭	-11.4651
煬帝	-11.4651
嗣偽位	-11.4651
璽綬	-11.4652
磨些	-11.4652
頰	-11.4652
隰	-11.4652
歐陽彬	-11.4652
輯睦	-11.4652
大理評事	-11.4652
上庸王評	-11.4653
裙	-11.4653
荏	-11.4653
閤門使	-11.4653
僻陋	-11.4653
東平公紹	-11.4653
掲	-11.4654
厮	-11.4654
國子博士	-11.4654
神色自若	-11.4654
筋	-11.4654
倨	-11.4655
僎	-11.4655
天下兵馬大元帥	-11.4655
大事去矣	-11.4655
水部員外郎	-11.4655
公卿已下	-11.4655
塜	-11.4656
諦	-11.4656
文獻通考	-11.4656
不可勝計	-11.4657
㬰	-11.4657
潘承祐	-11.4657
蔗	-11.4657
皆此𩔖也	-11.4657
弑其君	-11.4657
愔	-11.4657
畨	-11.4658
壺闗	-11.4658
神道碑	-11.4658
沱	-11.4659
㪚	-11.4659
痛惜	-11.4659
認	-11.4659
遘	-11.4659
聯	-11.4659
閨	-11.4659
蠕蠕	-11.4659
泚	-11.4659
右補闕	-11.466
踊	-11.466
龔壯	-11.466
戩	-11.466
為鄉導	-11.466
糟	-11.466
趋	-11.466
楚楚楚南漢南漢	-11.4661
瑁	-11.4661
瘠	-11.4661
壑	-11.4661
瘁	-11.4661
櫝	-11.4661
膾	-11.4661
中壘將軍	-11.4662
遐邇	-11.4662
懈	-11.4662
烈祖輔吳	-11.4662
㩀	-11.4662
鏗	-11.4663
姚彦章	-11.4663
馬歩都指揮使	-11.4663
廵檢使	-11.4664
旂	-11.4664
懋	-11.4664
御厨	-11.4664
鼓吹	-11.4664
焰	-11.4664
杌	-11.4665
郯	-11.4665
州司户	-11.4665
杳	-11.4666
霖雨	-11.4666
兖豫	-11.4666
翫	-11.4667
毆	-11.4667
殮	-11.4667
吠	-11.4667
廖偃	-11.4667
鉅萬	-11.4668
有力焉	-11.4668
惮	-11.4668
寅遜	-11.4668
皷	-11.4668
聾	-11.4669
筒	-11.4669
拂衣	-11.4669
勗	-11.4669
仲尼	-11.467
控弦	-11.467
森	-11.4671
衂	-11.4672
别駕從事	-11.4673
睨	-11.4673
可足渾氏	-11.4674
右衞將軍	-11.4674
為前鋒都督	-11.4675
滁州刺史	-11.4675
斜谷	-11.4676
桞	-11.4676
郭崇韜	-11.4676
𠡠	-11.4676
旦暮	-11.4676
大司馬桓温	-11.4678
行于世	-11.4679
蒨	-11.468
阿房	-11.4682
帑藏	-11.4685
㐮陽	-11.4689
太武殿	-11.4691
崔忠獻	-11.4701
􁗁	-11.4714
步騎四萬	-11.4719
知州事	-11.4724
擊走之	-11.4746
百八十	-11.4908
閉門拒	-11.5029
開平二年	-11.5078
郪	-11.5249
忳	-11.531
蒼梧	-11.5325
柘	-11.5326
滴	-11.5342
航	-11.5344
剡	-11.5347
琥	-11.5347
滇池	-11.5347
㸦	-11.535
觀察處置等使	-11.5351
坡	-11.5352
錡	-11.5353
鄆	-11.5353
歇	-11.5354
譚以䝉	-11.5354
鄜	-11.5354
薑	-11.5355
縗	-11.5355
别墅	-11.5356
茵	-11.5357
𣙜	-11.5357
琢	-11.5357
迪	-11.5358
竈	-11.5359
誹謗	-11.5359
皋	-11.536
卨	-11.536
承制封拜	-11.536
腕	-11.536
許文稹	-11.536
孔雀	-11.536
旽	-11.536
儇	-11.5361
燦	-11.5361
妨	-11.5361
邯	-11.5362
曳	-11.5362
蘿	-11.5363
祧	-11.5363
茹	-11.5364
徐知諤	-11.5364
刹	-11.5365
金方慶	-11.5365
媵	-11.5365
今從十國紀年	-11.5365
沼	-11.5366
拓䟦	-11.5366
鳬	-11.5366
椎	-11.5366
租税	-11.5366
顙	-11.5366
政堂文學	-11.5367
概	-11.5367
雞犬	-11.5367
値	-11.5367
昝	-11.5368
瑋	-11.5368
振威將軍	-11.5369
燧	-11.5369
兼門下侍郎同平章事	-11.5369
縈	-11.5369
眩	-11.5369
水丘氏	-11.5369
組	-11.537
瘡	-11.537
煒	-11.537
厠	-11.537
鲁	-11.5371
圜丘	-11.5371
氐王楊	-11.5371
凉州牧西平公	-11.5371
薩	-11.5371
鼎峙	-11.5371
亶	-11.5371
庾傳素	-11.5371
潞川	-11.5371
赱	-11.5371
鷰	-11.5371
薬	-11.5371
纓	-11.5372
芥	-11.5372
入卧内	-11.5372
洒	-11.5372
悰	-11.5372
件	-11.5372
譚全播	-11.5372
以疾辭	-11.5372
嗚咽	-11.5373
檝	-11.5373
袂	-11.5373
死者大半	-11.5374
闚	-11.5374
豔	-11.5374
懃	-11.5374
弈	-11.5374
宰嚭	-11.5374
稽顙	-11.5374
珥	-11.5374
集賢殿	-11.5374
隄	-11.5374
衮冕	-11.5375
北地王鍾	-11.5375
嫚	-11.5375
陴	-11.5375
陶璜	-11.5375
銜璧	-11.5375
愽	-11.5375
迺	-11.5375
耒	-11.5376
軒轅	-11.5376
㒒	-11.5376
飭	-11.5376
謂所親曰	-11.5376
諠	-11.5376
即尊位	-11.5376
釋迦	-11.5376
詹	-11.5377
疵	-11.5377
覦	-11.5377
鐺	-11.5377
衒	-11.5378
櫓	-11.5378
領州事	-11.5378
去縣五十里	-11.5378
東府安撫使	-11.5378
賜金紫	-11.5379
無能為也	-11.5379
為之後繼	-11.5379
泌	-11.5379
南都留守	-11.5379
絙	-11.538
厙傉官	-11.5381
擯	-11.5381
順化軍	-11.5381
犁	-11.5381
七年春二月	-11.5382
固辭不受	-11.5382
圎	-11.5382
琅	-11.5382
伍胥	-11.5382
武忠王	-11.5382
廽	-11.5382
受遺詔輔政	-11.5383
軺	-11.5383
呉呉南唐南唐中朝	-11.5383
㐫	-11.5384
盲	-11.5384
鑊	-11.5384
欽定四庫全書十國春秋卷一百	-11.5385
褊	-11.5385
顕	-11.5385
錐	-11.5385
十國春秋卷一百	-11.5385
惇	-11.5386
爕	-11.5386
犄角	-11.5386
猫	-11.5386
䂮	-11.5387
刳	-11.5387
默	-11.5388
斛律	-11.5389
鼔譟	-11.5392
茍晞	-11.5394
畚	-11.5395
蛙	-11.5396
抄掠	-11.5396
顓頊	-11.5396
豳	-11.5397
平昌公	-11.5398
忠武軍	-11.5399
帥衆五萬	-11.5404
部大人	-11.5424
湘潭	-11.5508
為魏所	-11.6034
烘	-11.6055
薙	-11.6113
舫	-11.6117
九真日南	-11.6119
邳	-11.612
蓼	-11.6123
峩	-11.6124
梨	-11.6125
僣即皇帝位	-11.6126
圃	-11.6126
鬢	-11.6127
椀	-11.6127
剏	-11.613
譟	-11.6131
眠	-11.6131
侣	-11.6131
啗	-11.6131
觀察推官	-11.6131
人咸異之	-11.6131
平南將軍	-11.6131
殛	-11.6131
山南東道節度使	-11.6132
蝶	-11.6132
黄紹頗	-11.6132
槽	-11.6132
諸軍皆潰	-11.6132
泳	-11.6133
張漢思	-11.6133
率精騎	-11.6134
節度推官	-11.6134
嗤	-11.6134
壹	-11.6134
奐	-11.6134
大中祥符	-11.6135
更今名	-11.6135
筍	-11.6135
蝕	-11.6135
墾	-11.6136
嗣皇帝位	-11.6136
綠	-11.6136
母昭裔	-11.6137
㡌	-11.6137
慤	-11.6137
牖	-11.6137
傁	-11.6137
顆	-11.6137
遞	-11.6138
掇	-11.6138
去帝號	-11.6138
搖	-11.6138
王宗播	-11.6138
雨雹	-11.6139
梯航	-11.6139
尊為皇太后	-11.6139
潘崇徹	-11.614
頑	-11.614
瑱	-11.614
迢	-11.614
肄	-11.614
愴	-11.614
棧	-11.614
赦其境内	-11.614
第五子也	-11.614
剃	-11.6141
幻	-11.6141
靜海軍	-11.6141
誄	-11.6141
潘在迎	-11.6141
款	-11.6141
躓	-11.6142
皇城使	-11.6142
雷弱兒	-11.6142
領縣六	-11.6142
巵	-11.6143
才兼文武	-11.6143
麓	-11.6143
烝	-11.6143
誑	-11.6143
偹	-11.6143
帷幄	-11.6143
大慈寺	-11.6143
終其身	-11.6143
􁏫	-11.6144
薫	-11.6144
揚威將軍	-11.6144
圯	-11.6144
悚	-11.6144
翷	-11.6145
簮	-11.6145
筏	-11.6145
國亡入宋	-11.6146
鄖	-11.6146
尢	-11.6146
擐甲	-11.6146
膠	-11.6146
暾	-11.6147
駝	-11.6147
卬	-11.6147
旃	-11.6148
虢	-11.6148
寜朔將軍	-11.6148
盧多遜	-11.6148
誾	-11.6148
縮	-11.6148
幘	-11.6148
䟦扈	-11.6149
侈靡	-11.6149
謇	-11.6149
仇池公楊	-11.615
觔	-11.615
裸	-11.615
太中大夫	-11.615
隳	-11.615
咼	-11.615
奭	-11.6151
輿櫬	-11.6151
寰宇記	-11.6152
踴躍	-11.6152
甯	-11.6152
瑰	-11.6153
祔	-11.6153
莵	-11.6153
象牙潭	-11.6153
寥	-11.6154
宇宙	-11.6156
謀反伏誅	-11.6157
紈	-11.6158
王令謀	-11.6158
餙	-11.6158
牕	-11.6158
姑胥之臺	-11.6159
馬仁𥙿	-11.616
氏為王后	-11.616
鵠	-11.616
頎	-11.6164
彭奚念	-11.6166
甬	-11.6168
桃豹	-11.6175
清淮軍	-11.6176
謂衆曰	-11.6177
武泰軍	-11.6188
十年春正月	-11.6193
义	-11.6938
霤	-11.6945
鍵	-11.6947
太原公纂	-11.6951
捋	-11.6952
閻彧	-11.6952
翺	-11.6953
溲	-11.6953
偈	-11.6954
舸	-11.6954
戕	-11.6955
媒	-11.6957
鄕	-11.6957
槨	-11.6959
衆大潰	-11.6961
有父風	-11.6961
悠悠	-11.6961
王處囬	-11.6962
蔬	-11.6962
瑟	-11.6962
趫	-11.6962
趺	-11.6962
譁	-11.6963
噐	-11.6963
腳	-11.6963
漢嘉太守	-11.6964
珏	-11.6964
盥	-11.6964
扎	-11.6964
牡	-11.6965
烈祖輔吴	-11.6965
娱	-11.6965
武泰節度使	-11.6967
觚	-11.6967
麝	-11.6967
藪	-11.6967
蕳	-11.6968
有殊色	-11.6968
栽	-11.6968
韞	-11.6968
庵	-11.6969
埃	-11.6969
挐	-11.6969
萍	-11.6969
笠	-11.6969
弢	-11.697
沈林子	-11.697
帚	-11.697
馬軍都指揮使	-11.697
小長老	-11.697
巔	-11.6971
剔	-11.6971
㢠	-11.6971
鞞	-11.6971
馬一匹	-11.6972
睹	-11.6972
丗子惟濬	-11.6972
㤀	-11.6972
陁	-11.6972
竦	-11.6972
功居多	-11.6972
番禾	-11.6972
讌羣臣於	-11.6972
衎	-11.6973
㪷	-11.6973
史館修撰	-11.6973
昭惠后	-11.6974
進士及第	-11.6974
拍	-11.6974
湼槃	-11.6974
鏘	-11.6975
複	-11.6975
縠	-11.6975
埀	-11.6975
載記作	-11.6975
鑼	-11.6975
棋	-11.6975
畔	-11.6975
汙	-11.6975
齧	-11.6975
秦國太夫人	-11.6975
癘	-11.6975
莫大焉	-11.6976
傅𢎞之	-11.6976
埒	-11.6976
鞵	-11.6976
洱	-11.6977
狄伯支	-11.6977
瀾	-11.6977
鋸	-11.6977
昴	-11.6977
撾	-11.6978
因家焉	-11.6978
綘	-11.6978
董思安	-11.6978
徐知證	-11.6978
營田副使	-11.6979
劉衞辰	-11.6979
太平御覽	-11.6979
屢立戰功	-11.6979
瀝	-11.698
雛	-11.698
䭾	-11.698
噉	-11.698
藹	-11.698
莞	-11.6981
婆羅門	-11.6981
申屠令堅	-11.6981
姓名曰王宗	-11.6982
有善政	-11.6982
胡空堡	-11.6982
猖	-11.6982
青泥嶺	-11.6982
平東將軍	-11.6983
暖	-11.6983
盡俘其衆	-11.6983
揷	-11.6983
疊	-11.6983
宋龍衮撰	-11.6984
王宗賀	-11.6984
檮	-11.6985
掣	-11.6985
莖	-11.6986
典禁兵	-11.6986
綈	-11.6986
有姿色	-11.6986
桂陽王鎮	-11.6986
籥	-11.6987
瑥	-11.6987
宝	-11.6987
唾	-11.6987
猴	-11.6989
右賢王	-11.6992
彤	-11.6995
栖霞	-11.6996
雷霆	-11.6997
府院君	-11.6997
苧	-11.6998
廑	-11.7001
鳯凰	-11.7002
鴛	-11.7003
華陽國志	-11.7007
頔	-11.7009
安逺軍	-11.7059
伶	-11.7834
礎	-11.7851
潞	-11.7853
旺	-11.7854
枳	-11.7855
菴	-11.7856
翕	-11.7862
未審是非	-11.7864
從王請也	-11.7865
仞	-11.7868
㶚	-11.7868
輻	-11.7868
郿	-11.7869
魁梧	-11.7869
順存録	-11.787
硬	-11.787
為長夜之飲	-11.787
擿	-11.787
驄	-11.787
西明門	-11.7871
塋	-11.7871
鄣	-11.7871
店	-11.7871
哥	-11.7872
湮	-11.7872
胙	-11.7872
爍	-11.7873
璛	-11.7873
蕋	-11.7874
髠	-11.7874
壕	-11.7874
澈	-11.7874
虔	-11.7875
針	-11.7875
陬	-11.7875
姫	-11.7875
櫂	-11.7875
汰	-11.7876
楹	-11.7877
核	-11.7877
大理司直	-11.7877
衿	-11.7877
蒜	-11.7877
岐王茂貞	-11.7878
砌	-11.7878
冗	-11.7878
虺	-11.7878
摩訶	-11.7878
畀	-11.7878
歸田里	-11.7879
燬	-11.7879
宣徽北院使	-11.7879
姙	-11.7879
逗	-11.7879
政隆寳應	-11.7879
佾	-11.788
恍	-11.788
榛	-11.788
副大使	-11.788
陳道庠	-11.7881
鬛	-11.7881
米志誠	-11.7881
銶	-11.7881
嘻	-11.7882
里東接	-11.7882
熹	-11.7883
陳留王紹	-11.7883
逿	-11.7883
鉦	-11.7883
梁中庸	-11.7883
纍	-11.7883
脛	-11.7883
怵	-11.7883
鍔	-11.7884
聮	-11.7884
穗	-11.7885
岏	-11.7885
罸	-11.7885
覈	-11.7885
加九錫	-11.7885
館一日至	-11.7885
竅	-11.7885
皂	-11.7886
腑	-11.7886
蔭	-11.7886
勦	-11.7886
霧四塞	-11.7886
唇	-11.7887
公孫五樓	-11.7887
僵	-11.7887
挂	-11.7888
鞾	-11.7888
淘	-11.7888
執其手	-11.7888
鋤	-11.7888
祉	-11.7889
線	-11.7889
安堵如故	-11.7889
沓	-11.7889
崙	-11.7889
幃	-11.789
酺	-11.789
合肥人	-11.7891
腋	-11.7891
蠕	-11.7891
詎	-11.7891
彀	-11.7892
宄	-11.7892
湍	-11.7893
元敬皇后	-11.7893
剝	-11.7893
抛	-11.7893
吻	-11.7893
褁	-11.7894
㐲	-11.7895
啄	-11.7895
杉	-11.7895
邅	-11.7895
鳩摩羅什	-11.7896
方永珍	-11.7896
徘徊	-11.7897
処	-11.7897
肱	-11.7897
賛正安國功臣	-11.7898
中山公虎	-11.7898
晴	-11.7898
湎	-11.7899
中黄門	-11.7899
司馬休之	-11.79
刁彦能	-11.7901
􁍆	-11.7902
魅	-11.7902
曁	-11.7903
計倪對曰	-11.7904
鴉	-11.7905
時不可失	-11.7906
髙祖第十	-11.7908
赭	-11.7908
絆	-11.791
僉議中贊	-11.7911
十日程	-11.7937
王曰何謂	-11.7942
龍紀元年	-11.8079
絶卷第十	-11.8162
武安軍節度	-11.8622
五欽定四庫全書十六國春秋卷	-11.8683
刎	-11.884
氊	-11.8849
挑	-11.8855
蜑	-11.8855
烏瑪喇	-11.8855
筑	-11.8856
楊守厚	-11.886
州保大九年取十年失	-11.886
陲	-11.8861
噍	-11.8862
葱	-11.8862
㸔	-11.8862
鞘	-11.8862
䕫忠萬	-11.8862
姒	-11.8863
杏	-11.8863
髀	-11.8863
瑙	-11.8863
琠	-11.8864
盂	-11.8864
沅	-11.8865
号	-11.8865
十六國春秋	-11.8865
英武昭勝	-11.8866
碧波亭	-11.8866
為一次上	-11.8866
爵闗内侯	-11.8866
溷	-11.8867
怱	-11.8867
唐樊綽撰	-11.8867
欽定四庫全書蠻書卷	-11.8867
起復雲麾	-11.8868
軾	-11.8868
璥	-11.8869
弧	-11.8869
斑	-11.8869
紫極宫	-11.887
受遺輔政	-11.8871
怕	-11.8871
文安郡公	-11.8872
氈	-11.8872
鞬	-11.8872
逭	-11.8872
監修國史	-11.8873
㷀	-11.8873
解思明	-11.8873
丈八尺	-11.8874
燿	-11.8874
同參相府事	-11.8874
縞	-11.8874
圻	-11.8874
腆	-11.8875
丁徳裕	-11.8875
憸	-11.8875
後唐中朝中朝中朝北漢	-11.8875
称	-11.8876
禺	-11.8876
芍	-11.8876
留之不遣	-11.8876
豬	-11.8876
琪	-11.8877
更其名曰	-11.8877
萃	-11.8877
翦	-11.8877
蹂	-11.8877
无	-11.8877
崗	-11.8878
不旋踵	-11.8878
飱	-11.8878
扺	-11.8878
錢三百萬	-11.8879
馬歩軍都指揮使	-11.8879
棊	-11.8879
喑	-11.8879
凟	-11.8879
舉茂才	-11.8879
櫛	-11.8879
蠱	-11.8879
般	-11.888
太白晝見	-11.888
別	-11.888
迂	-11.888
戡	-11.888
孩	-11.888
日詔王宴于	-11.888
洿	-11.888
咸師朗	-11.888
軼	-11.888
黑雲都	-11.8881
纉	-11.8881
廳	-11.8881
潾	-11.8881
秣	-11.8881
恭穆夫人	-11.8881
三千餘户	-11.8881
晡	-11.8881
䋲	-11.8881
劬	-11.8881
歛曼嵬	-11.8881
帙	-11.8882
努	-11.8882
宣徽南院使	-11.8882
鉗	-11.8882
欽定四庫全書十國春秋卷十	-11.8882
衆至數萬	-11.8882
􁇦	-11.8883
欽定四庫全書十國春秋卷八十	-11.8883
穰	-11.8883
㺯	-11.8883
玦	-11.8883
㦯	-11.8883
戱	-11.8883
哭之慟	-11.8884
前趙錄	-11.8884
冺	-11.8884
性至孝	-11.8884
橦	-11.8884
樂安王臧	-11.8885
躋	-11.8885
糗	-11.8885
阨	-11.8885
垢	-11.8886
振武將軍	-11.8886
太府卿	-11.8886
欽定四庫全書十國春秋卷二十	-11.8886
潄	-11.8886
輿地廣記	-11.8887
痕	-11.8887
盾	-11.8887
鶻	-11.8887
璨	-11.8887
沗	-11.8887
邾	-11.8888
覡	-11.8888
屯騎校尉	-11.8889
嚢	-11.8889
贐	-11.889
紀事本末	-11.889
憒	-11.889
杵	-11.889
訢	-11.889
水經註	-11.8891
開封公詳	-11.8891
䴡	-11.8891
曆	-11.8892
洫	-11.8892
脊	-11.8892
賙	-11.8892
牝	-11.8892
吉州刺史彭玕	-11.8893
圜	-11.8894
吕婆樓	-11.8894
瑣	-11.8894
燄	-11.8895
敢死士	-11.8895
頤	-11.8895
欽定四庫全書江南野史卷	-11.8895
暄	-11.8895
盱眙	-11.8896
釜	-11.8896
䕶𦍑校尉	-11.8897
惰	-11.8898
貊	-11.8898
楽	-11.8898
鷲	-11.8898
貢其方物	-11.8898
陽苴哶城	-11.8899
樊若水	-11.8899
嚕	-11.8901
惙	-11.8901
輔漢將軍	-11.8902
蒐	-11.8903
獷	-11.8903
訝	-11.8904
九年春二月	-11.8904
旁若無人	-11.8905
漒	-11.8905
後秦録	-11.8906
鏵	-11.8906
僇	-11.8907
愠	-11.8908
鍪	-11.8908
湜	-11.8909
漚	-11.891
屑	-11.8913
渡鴨緑江	-11.8915
捫	-11.8916
桶	-11.8922
欽定四庫全書十六國春秋卷七十	-11.8985
欽定四庫全書十六國春秋卷四十	-11.9024
隍	-11.994
龍符元化	-11.9953
武寧軍節度使	-11.9962
􁂍	-11.9965
莋	-11.9966
紋	-11.9969
卲	-11.9969
達嚕噶齊	-11.997
嬰城自守	-11.9971
許文縝	-11.9971
逷	-11.9971
憩	-11.9972
宋將潘美	-11.9972
仰仁詮	-11.9973
貓	-11.9973
扃	-11.9974
膓	-11.9975
乍	-11.9975
璹	-11.9975
始安王曜	-11.9975
􁥃	-11.9975
左傳昭公	-11.9976
煎	-11.9976
謾	-11.9977
黛	-11.9977
阬	-11.9977
笄	-11.9978
卉	-11.9978
廣西轉運使	-11.9978
瑭	-11.9978
芋	-11.9979
諴	-11.9979
璇	-11.9982
愜	-11.9983
龍武統軍	-11.9983
擎	-11.9984
羅浮山	-11.9984
西涼李暠	-11.9984
莘	-11.9984
蹶	-11.9985
机	-11.9985
檐	-11.9985
衘	-11.9985
抉	-11.9986
沽	-11.9986
詈	-11.9987
兄弟四人三百口	-11.9987
詼	-11.9987
判六軍諸衛事	-11.9987
腴	-11.9987
穽	-11.9988
扄	-11.9988
禰	-11.9988
堞	-11.9988
倪可福	-11.9988
徂	-11.9988
喘	-11.9989
八年春二月	-11.999
慄	-11.999
射聲校尉	-11.999
捧聖控鶴都指揮使	-11.999
蓐	-11.999
妺	-11.999
贊正安國功臣	-11.999
髭	-11.999
堙	-11.999
䙝	-11.999
造刀一口	-11.999
洊	-11.9991
訕	-11.9991
蹴	-11.9991
㰱	-11.9992
彰聖嘉慶	-11.9992
甆	-11.9992
牁	-11.9992
姐	-11.9992
戸部尚書	-11.9992
褰	-11.9992
隧	-11.9992
脯	-11.9993
金紫光祿大夫	-11.9993
趾	-11.9993
牂	-11.9993
觀察處置	-11.9993
鱠	-11.9993
廏	-11.9993
騭	-11.9993
江南别録	-11.9994
嫂	-11.9994
爼	-11.9994
欹	-11.9994
上品奉御	-11.9995
賵	-11.9995
憊	-11.9996
懌	-11.9996
驁	-11.9996
太極殿	-11.9996
國子司業	-11.9996
犧	-11.9996
蹋	-11.9996
佻	-11.9997
偪	-11.9997
酗	-11.9997
崇文耀武宣徳守道	-11.9997
悒	-11.9998
太子詹事	-11.9998
斁	-11.9998
行營都招討	-11.9998
襲偽位	-11.9999
章武王宙	-11.9999
籖	-11.9999
豊	-11.9999
摹	-12
出連䖍	-12
楛	-12
穫	-12
臨川王濛	-12
千牛備身	-12
悸	-12
捽	-12
醼	-12.0001
崤	-12.0001
楚楚楚楚周行逢	-12.0001
彼衆我寡	-12.0001
涌	-12.0001
棣	-12.0001
胡翼度	-12.0002
諝	-12.0002
掉	-12.0002
眺	-12.0002
壙	-12.0003
羕	-12.0003
儗	-12.0004
茨	-12.0004
蹔	-12.0004
瀬	-12.0004
武王伐紂	-12.0004
觀軍容使	-12.0004
跽	-12.0004
槎	-12.0005
金𬗋光祿大夫	-12.0005
籓	-12.0005
舄	-12.0005
㔨	-12.0005
欲改嫁	-12.0006
多才藝	-12.0006
諍	-12.0006
烏合之衆	-12.0006
撿	-12.0007
橫	-12.0007
睠	-12.0007
幙	-12.0008
跌	-12.0008
匐	-12.0009
塡	-12.001
著作佐郎	-12.0011
椁	-12.0011
芬	-12.0011
㑹祥大慶	-12.0011
蝦	-12.0012
宕	-12.0013
大僚班	-12.0015
天威軍都虞候	-12.0015
鎚	-12.0015
恡	-12.0015
劼	-12.0016
斟	-12.0019
璆	-12.0024
鞅	-12.0024
胖	-12.0026
佇	-12.0028
㴶	-12.0032
竩	-12.0036
彿	-12.0037
猩	-12.0063
䦧	-12.12
僰	-12.1209
估	-12.1214
匕	-12.1214
扉	-12.1216
梔	-12.1218
洶	-12.1218
思復鞬	-12.1219
家給人足	-12.122
炫	-12.1221
芉	-12.1221
貨之户曰	-12.1223
懟	-12.1225
曮	-12.1225
知福州彰武軍事	-12.1226
鰌	-12.1227
屛	-12.1227
暹	-12.1227
町	-12.1227
自相魚肉	-12.1228
加王食邑一千户實封	-12.1228
舖	-12.1229
顰	-12.1229
遹	-12.1229
鎗	-12.123
賜紫金魚袋	-12.1231
太極前殿	-12.1231
撮	-12.1231
槌	-12.1231
祼	-12.1232
充官告使	-12.1233
苕	-12.1233
顧彦朗	-12.1233
玷	-12.1233
曇無䜟	-12.1234
鈆	-12.1234
郞	-12.1234
葩	-12.1234
汁	-12.1234
妍	-12.1234
礙	-12.1235
纛	-12.1235
紬	-12.1236
痊	-12.1236
楸	-12.1236
酥	-12.1236
鍤	-12.1236
鶉	-12.1236
臧莫孩	-12.1236
紘	-12.1236
葭	-12.1237
旼	-12.1237
噀	-12.1237
頹	-12.1237
骰	-12.1237
阪	-12.1237
艸	-12.1238
液	-12.1238
哺	-12.1238
攄	-12.1238
鴿	-12.1238
悔將何及	-12.1239
絮	-12.124
彚	-12.124
祲	-12.124
呉越呉越呉越呉越呉越	-12.124
訶	-12.124
乾隆四十六年	-12.124
砥	-12.124
璀	-12.124
點	-12.1241
監門衛將軍	-12.1241
纘	-12.1241
王食邑一萬户實封一千户	-12.1241
有征無戰	-12.1242
陸孟俊	-12.1242
騶	-12.1242
祕書郎	-12.1242
磚	-12.1242
璫	-12.1242
旬月之間	-12.1242
䰟	-12.1242
痍	-12.1242
行唐公洛	-12.1242
净	-12.1243
坵	-12.1243
禿	-12.1243
諮議堂	-12.1243
邛	-12.1243
千户實封五百户	-12.1244
其鋒不可當	-12.1244
欝	-12.1244
轉禍為福	-12.1244
猶豫未决	-12.1244
忉	-12.1244
幟	-12.1245
梁開平元年	-12.1245
浙將顧全武	-12.1245
珖	-12.1245
僖宗幸蜀	-12.1245
䌓	-12.1246
躔	-12.1246
慾	-12.1246
盧瓊仙	-12.1246
鑑戒録	-12.1246
擴	-12.1246
硤	-12.1247
攫	-12.1247
湫	-12.1247
箔	-12.1248
墉	-12.1248
拷	-12.1248
逯	-12.1248
李義旼	-12.1249
鰲	-12.1249
塚	-12.1249
糧運不繼	-12.1249
讖	-12.1249
狼子野心	-12.1249
睂	-12.125
䄂	-12.125
蠙	-12.125
搥	-12.125
囷	-12.1251
傕	-12.1251
噫	-12.1251
匙	-12.1251
樞宻院事	-12.1252
甍	-12.1252
將作大匠	-12.1252
瞬	-12.1252
罩	-12.1252
彝	-12.1253
嚙	-12.1253
簀	-12.1253
葷	-12.1253
伉	-12.1253
鵞	-12.1253
哶羅皮	-12.1253
睛	-12.1254
鷙	-12.1255
訐	-12.1255
滹	-12.1255
㓛	-12.1255
楯	-12.1255
十室而九	-12.1256
迓	-12.1256
鍾謨李徳明	-12.1257
凄	-12.1257
崛	-12.1257
為流矢所中	-12.1257
冬十有一月	-12.1257
卻	-12.1257
螭	-12.1258
簞	-12.1258
欽定四庫全書十國春秋卷四十	-12.1258
犇	-12.1259
苒	-12.1259
傘	-12.126
狷	-12.126
摠	-12.1261
癡	-12.1261
觝	-12.1261
清河東武城人	-12.1261
衽	-12.1262
冏	-12.1262
胃	-12.1262
党	-12.1262
蘭滄江	-12.1264
䜿	-12.1265
頁	-12.1265
炊	-12.1265
鑣	-12.1266
李奎報	-12.1266
賕	-12.1266
瀕	-12.1266
甚器重之	-12.1267
刈	-12.1268
貔	-12.1268
哩	-12.1268
本使蔡襲	-12.1268
忡	-12.1268
醇	-12.1269
抃	-12.127
彷	-12.127
邰	-12.1271
仭	-12.1271
狃	-12.1273
郾	-12.1274
綧	-12.1275
撝	-12.128
不拘小節	-12.1281
驂	-12.1283
摯	-12.1284
婭	-12.1287
唐書南詔傳	-12.1297
騖	-12.2406
鄨	-12.2601
崇興大寳	-12.2615
啞	-12.2618
怤	-12.263
岫	-12.2636
透	-12.2637
佉	-12.264
巋	-12.264
加食邑一千户實封一百户	-12.264
㟁	-12.2641
煖	-12.2643
蝟	-12.2645
蓺	-12.2645
秋毫不犯	-12.2647
翥	-12.2647
椅	-12.2648
倅	-12.2649
蒟	-12.2649
澶	-12.265
椒丘訢	-12.265
瓷	-12.2652
笙	-12.2653
食邑五百户	-12.2653
鏹	-12.2655
藎	-12.2655
盼	-12.2657
蠏	-12.2657
舩	-12.2657
㝢	-12.2657
締	-12.2657
知證知諤	-12.2657
北夢瑣言	-12.2658
騾	-12.2658
帆	-12.2658
拆	-12.2658
筐	-12.2658
醋	-12.2658
㲄	-12.2658
皁	-12.2659
其相吕嘉	-12.2659
鼙	-12.2659
缾	-12.2659
閠	-12.2659
絰	-12.2659
劈	-12.266
擄	-12.2661
瀨	-12.2661
遣通事舍人	-12.2661
雹	-12.2661
磔	-12.2661
懶	-12.2661
詗	-12.2661
踶	-12.2661
杼	-12.2662
軋	-12.2662
慱	-12.2662
鋩	-12.2662
潼	-12.2662
亂臣賊子	-12.2663
訹	-12.2664
仿	-12.2664
倔	-12.2664
簪	-12.2664
槁	-12.2664
敇	-12.2665
慊	-12.2665
䨇	-12.2665
踪	-12.2665
玷蒼山	-12.2666
彜	-12.2666
鏃	-12.2667
皖	-12.2667
拽	-12.2667
箇	-12.2667
即位於柩前	-12.2667
﨑	-12.2667
遡	-12.2667
斸	-12.2667
螫	-12.2667
鯢	-12.2668
湔	-12.2668
手不釋卷	-12.2668
殪	-12.2668
閙	-12.2668
窠	-12.2669
枕戈待旦	-12.2669
碕	-12.2669
遨	-12.2669
丰	-12.2669
屩	-12.267
榼	-12.267
献	-12.267
璲	-12.267
兕	-12.267
稿	-12.267
厝	-12.267
羔	-12.267
采石磯	-12.267
東瀛公騰	-12.2671
潞王從珂	-12.2671
愿	-12.2672
圮	-12.2672
畤	-12.2672
埭	-12.2672
丱	-12.2673
兵不血刃	-12.2673
訾	-12.2673
𤯝	-12.2673
厓	-12.2673
姨	-12.2673
隟	-12.2674
大赦境内殊死以下	-12.2675
龐	-12.2675
墩	-12.2675
福慶長公主	-12.2675
𫀆	-12.2675
夹	-12.2675
一匹金鍍	-12.2675
釀	-12.2676
厦	-12.2676
銑	-12.2676
秘不發喪	-12.2676
瀧	-12.2677
梏	-12.2677
簽	-12.2677
拓俊京	-12.2677
南詔䝉異牟尋	-12.2678
霓裳羽衣	-12.2678
袪	-12.2678
循王𢎞杲	-12.2678
荐	-12.2678
鄩	-12.2678
娑	-12.2679
霅	-12.2679
瘍	-12.2679
賜王湯薬	-12.2679
兜	-12.2679
堕	-12.2679
綃	-12.2679
胤	-12.2679
㓙	-12.2679
金湯之固	-12.268
麄	-12.268
平昌王菁	-12.268
天符睿武	-12.268
脣	-12.2681
厙	-12.2681
猶豫未決	-12.2681
颺	-12.2681
寯	-12.2681
憝	-12.2681
喝	-12.2682
梢	-12.2682
穏	-12.2682
愉	-12.2682
􁄭	-12.2682
沭	-12.2683
囉	-12.2683
白虹貫日	-12.2683
蚌	-12.2683
暈	-12.2683
靦	-12.2683
忷	-12.2683
璪	-12.2683
詹敦仁	-12.2684
訂	-12.2684
酈	-12.2684
燋	-12.2684
蛤	-12.2685
饟	-12.2685
亡無日矣	-12.2686
羑	-12.2686
􁁓	-12.2686
蓍	-12.2688
侄	-12.2688
瑪哈穆特	-12.2688
􁳖	-12.2689
䲭	-12.2689
薇	-12.269
冗從僕射	-12.269
詿	-12.269
􁈯	-12.269
酆	-12.2691
嶢	-12.2691
昕	-12.2692
黼	-12.2692
蛾	-12.2693
磊	-12.2694
縲	-12.2694
湄	-12.2694
贏	-12.2694
醪	-12.2697
歐冶子	-12.2698
笋	-12.2698
眭	-12.2699
􁎘	-12.2699
詁	-12.2701
甎	-12.2702
兀	-12.2702
義陽王鑒	-12.2708
膂	-12.2708
椽	-12.2709
諹	-12.2712
姜邯贊	-12.2715
醢	-12.272
闥	-12.2723
鈹	-12.2735
窋	-12.2752
彘	-12.2756
天感聖武	-12.4273
濞	-12.4279
墊	-12.4285
鵰	-12.4287
滇	-12.4296
隨才擢叙	-12.43
楫	-12.4301
殤	-12.4304
獽	-12.4308
撑	-12.431
闍	-12.431
杙	-12.4311
晶	-12.4312
凜	-12.4313
橙	-12.4314
窓	-12.4314
脉	-12.4314
在㑹稽縣東	-12.4314
个	-12.4315
夐	-12.4316
尖	-12.4317
椰	-12.4317
賮	-12.4318
瀚	-12.4318
四星聚斗	-12.4319
价	-12.4319
鈿	-12.4319
酪	-12.4319
駰	-12.4319
騮	-12.432
嵇	-12.432
潢	-12.432
涔	-12.432
刮	-12.4321
臍	-12.4321
傴	-12.4321
廨	-12.4321
泠	-12.4322
户實封二百户	-12.4322
嬌	-12.4322
鄘	-12.4322
剌	-12.4322
爝	-12.4323
靑	-12.4323
丏	-12.4323
杪	-12.4324
漱	-12.4324
㮣	-12.4324
揭	-12.4324
厈	-12.4325
今冷落廣陵臺	-12.4325
喙	-12.4326
閻負梁殊	-12.4326
誦法華經	-12.4327
珮	-12.4327
掬	-12.4327
賃	-12.4327
引水灌城	-12.4327
緫	-12.4327
事無巨細	-12.4328
劍南西川節度使	-12.4328
灃	-12.4328
朶	-12.4328
艛	-12.4328
􁩞	-12.4328
蜃	-12.4329
擠	-12.4329
東海鯉魚飛上天	-12.4329
置守宰以撫之	-12.4329
踴	-12.4329
隲	-12.433
蜕	-12.4331
齠	-12.4331
怛	-12.4331
吼	-12.4332
啜	-12.4332
屐	-12.4332
濩	-12.4333
堇	-12.4333
夸	-12.4333
北夢𤨏言	-12.4333
姹	-12.4334
氐符成隗	-12.4334
墅	-12.4334
薛氏舊五代史	-12.4334
娼	-12.4334
疥	-12.4334
鴞	-12.4334
轟	-12.4334
足食足兵	-12.4335
謖	-12.4335
笈	-12.4336
蠅	-12.4336
裾	-12.4336
臉	-12.4336
阡	-12.4337
嶂	-12.4337
赧	-12.4337
迯	-12.4337
繢	-12.4337
蠢	-12.4337
霆	-12.4337
忩	-12.4338
嚼	-12.4338
郜	-12.4338
泪	-12.4338
懣	-12.4338
暀	-12.4338
君臨萬邦	-12.4339
嘘	-12.4339
碍	-12.4339
晬	-12.434
諏	-12.434
欽惟皇帝陛下	-12.434
巂	-12.434
芹	-12.434
孳	-12.4341
􁅳	-12.4341
榦	-12.4341
緄	-12.4341
左軍將軍竇衝	-12.4341
陳洪進執紹鎡	-12.4342
盟國人於龍墀	-12.4342
菲	-12.4342
臼	-12.4342
皐	-12.4342
吭	-12.4342
手垂過膝	-12.4342
纊	-12.4342
清異錄云	-12.4342
沴	-12.4342
吸	-12.4343
縋	-12.4343
餔	-12.4343
恇	-12.4343
長寧侯祚	-12.4344
紡	-12.4344
涎	-12.4344
瓮	-12.4344
駑	-12.4344
務農訓兵	-12.4344
鑛	-12.4344
𦕈	-12.4344
鬪	-12.4344
氓	-12.4345
猱	-12.4345
躶	-12.4345
樵採路絶	-12.4345
橈	-12.4346
兼弱攻昧	-12.4346
唁	-12.4346
蛻	-12.4346
贑	-12.4346
哀毁過禮	-12.4346
証	-12.4346
鸛	-12.4346
痛心疾首	-12.4347
鄞	-12.4348
喚	-12.4348
吊	-12.4348
雩	-12.4348
蜋	-12.4348
瑫	-12.4348
縶	-12.4349
毀	-12.4349
鉏	-12.4349
錬	-12.4349
不著撰人名氏	-12.435
捭	-12.435
飡	-12.435
鈕	-12.435
謳	-12.435
勘	-12.4351
司天少監	-12.4351
丧	-12.4351
画	-12.4351
曠日持久	-12.4352
舛	-12.4353
綻	-12.4353
耑	-12.4354
李金全為北面行營招討使	-12.4355
鑪	-12.4356
讟	-12.4356
凛	-12.4357
為使持節侍中都督中外諸軍	-12.4357
酧	-12.4358
鈇	-12.4359
𡨕	-12.4359
貰	-12.4359
礟	-12.4361
檜	-12.4362
遒	-12.4362
洹	-12.4362
勣	-12.4364
濊	-12.4365
𨼆	-12.4365
臆	-12.4365
淐	-12.4366
宷	-12.4367
簇	-12.4367
嗔	-12.4367
幔	-12.4367
天彰寳嗣	-12.4368
媧	-12.4369
􁒏	-12.4371
翎	-12.4372
眄	-12.4375
刦	-12.4381
謜	-12.4393
憨	-12.6266
猨	-12.6271
偘	-12.6284
悁	-12.629
籩	-12.6294
澦	-12.6294
嶫	-12.6295
嵒	-12.6298
嬴	-12.63
嘶	-12.6302
爆	-12.6302
筰	-12.6304
蒻	-12.6305
菽	-12.6305
徊	-12.6306
勺	-12.6306
鹹	-12.6308
繖	-12.6309
瞳	-12.6309
揜	-12.6309
菊	-12.631
萸	-12.631
羃	-12.631
聪	-12.6311
堠	-12.6311
躪	-12.6312
犀角象牙	-12.6314
苔	-12.6315
髽	-12.6316
竂	-12.6316
祛	-12.6316
瞰	-12.6317
慬	-12.6317
盱	-12.6317
茄	-12.6318
厖	-12.6318
瞎	-12.6319
宋勾延慶撰	-12.6319
嘿	-12.632
有累卵之危	-12.632
兌	-12.632
涙	-12.632
霏	-12.6321
南夷校尉李毅	-12.6321
簦	-12.6321
叵	-12.6322
疚	-12.6322
渺	-12.6322
􁔷	-12.6322
旤	-12.6322
軛	-12.6322
􁰽	-12.6322
㽔	-12.6322
緍	-12.6323
棚	-12.6324
蒭	-12.6324
澁	-12.6324
摽	-12.6324
南楚國公從善	-12.6324
縝	-12.6325
輳	-12.6325
摎	-12.6325
絀	-12.6325
嘷	-12.6325
增食邑二千户實封	-12.6326
鷂	-12.6326
跼	-12.6327
貼	-12.6328
菱	-12.6328
翀	-12.6328
傉	-12.6328
倜	-12.6328
券	-12.6329
筴	-12.6329
惴	-12.6329
滂	-12.6329
眤	-12.6329
藂	-12.6329
詛	-12.6329
靄	-12.6329
数	-12.633
悕	-12.633
拭	-12.633
曀	-12.633
翃	-12.633
嵓	-12.633
廣成先生杜光庭	-12.633
齪	-12.633
喫	-12.633
剉	-12.633
竆	-12.6331
逹嚕噶齊	-12.6331
刷	-12.6331
罟	-12.6331
庿	-12.6331
欽定四庫全書朝鮮史略卷	-12.6331
瓢	-12.6331
閈	-12.6332
矗	-12.6332
胆	-12.6332
吮	-12.6332
縹	-12.6332
奉鑾肅衛都指揮	-12.6332
酤	-12.6332
昃	-12.6332
潨	-12.6332
淬	-12.6333
繚	-12.6333
緱	-12.6333
脈	-12.6333
垂手過膝	-12.6333
篁	-12.6333
雄即成都王位	-12.6333
奩	-12.6334
勰	-12.6334
抹	-12.6334
州團練副使	-12.6334
絜	-12.6334
樛	-12.6334
搴	-12.6335
坐細思量	-12.6335
醖	-12.6335
𥚹	-12.6335
漾	-12.6335
蛑	-12.6336
蝤	-12.6336
宋史藝文志	-12.6336
娟	-12.6337
瘦	-12.6337
剗	-12.6337
伇	-12.6337
暱	-12.6337
袗	-12.6337
褻	-12.6338
霾	-12.6338
􁃻	-12.6338
桔	-12.6338
熠	-12.6339
熏	-12.6339
碗	-12.6339
刧	-12.6339
万	-12.6339
除君側之惡	-12.6339
愞	-12.6339
浿	-12.6339
烙	-12.6339
㓗	-12.634
聱	-12.6341
車師前部王	-12.6341
糊	-12.6341
偰	-12.6341
櫳	-12.6341
涖	-12.6341
踣	-12.6341
曝	-12.6342
湯薬二金盒	-12.6342
㟭	-12.6342
孱	-12.6342
摧枯拉朽	-12.6342
篾	-12.6342
讋	-12.6342
揀	-12.6343
賜襲衣金帶	-12.6343
梃	-12.6343
襯	-12.6343
壌	-12.6344
摛	-12.6344
淩	-12.6344
僥	-12.6344
坌	-12.6344
薈	-12.6344
遣司農卿盧蘋	-12.6344
煑	-12.6344
襪	-12.6344
鍚	-12.6344
東南面兵馬都元帥	-12.6344
怜	-12.6346
𧦬	-12.6346
烱	-12.6346
食邑三千户實封一千户	-12.6346
荻	-12.6346
天下兵馬都元帥尚父尚書令吳越國王	-12.6346
煨	-12.6346
眦	-12.6346
瘖	-12.6347
玘	-12.6347
媼	-12.6347
脆	-12.6347
湻	-12.6347
睚	-12.6347
紺	-12.6348
䑛	-12.6348
畞	-12.6348
囓	-12.6348
凭	-12.6348
糠	-12.6348
蹉	-12.6348
磽	-12.6349
遇賢據白雲洞	-12.6349
咤	-12.6349
楀	-12.6349
聒	-12.6349
籜	-12.6349
萟	-12.635
債	-12.6351
蘊	-12.6351
餼	-12.6351
亀	-12.6351
肎	-12.6352
獻六眸龜胷有	-12.6352
醬	-12.6352
𣏌	-12.6352
膊	-12.6353
毌	-12.6353
獺	-12.6353
迤	-12.6354
儆	-12.6354
兊	-12.6354
咀	-12.6355
甑	-12.6356
絞	-12.6356
迍	-12.6356
耦	-12.6356
㐮	-12.6356
挟	-12.6357
瘵	-12.6357
糝	-12.6357
迦	-12.6357
鑕	-12.6358
澌	-12.6358
窑	-12.6358
掊	-12.6358
咢	-12.6358
圈	-12.6359
鸇	-12.6359
鏦	-12.6359
錠	-12.636
罌	-12.636
枹	-12.6361
主憂臣辱主辱臣死	-12.6361
噱	-12.6361
錙	-12.6361
叜	-12.6361
潑	-12.6361
壼	-12.6361
澍	-12.6362
荆南節度使成汭	-12.6362
眊	-12.6363
窖	-12.6364
琲	-12.6364
塼	-12.6364
愀	-12.6367
鑠	-12.6367
軿	-12.6367
檢討吴任臣撰前蜀	-12.6369
紆	-12.6369
繭	-12.637
幌	-12.6371
児	-12.6372
惽	-12.6374
殳	-12.6374
膜	-12.6375
喋	-12.6376
􁈍	-12.6383
伷	-12.6383
嫄	-12.639
屨	-12.6393
艇	-12.8781
鄀	-12.8781
絺	-12.8784
翌	-12.8786
霓	-12.8786
嚻	-12.8786
飴	-12.8788
坰	-12.8793
妲	-12.8793
愬	-12.8796
鶩	-12.8797
璙	-12.88
綍	-12.88
祻	-12.88
巉	-12.8803
熒	-12.8803
旛	-12.8806
嬈	-12.8807
玻	-12.8807
觥	-12.8807
凊	-12.8808
櫪	-12.8809
甜	-12.881
晧	-12.881
窄	-12.8811
薦遺逸莫教千古弔靈均	-12.8811
閥	-12.8811
杜濩朴胡袁約	-12.8811
繄	-12.8812
蠆	-12.8813
九錫増封十郡	-12.8813
畛	-12.8813
澡	-12.8813
烜	-12.8814
箖	-12.8814
坪	-12.8815
螢	-12.8815
祋	-12.8815
橛	-12.8815
鐙	-12.8815
箊	-12.8815
藋	-12.8815
袛	-12.8815
髹	-12.8817
喏	-12.8817
𢃄	-12.8817
匆	-12.8818
緦	-12.8818
様	-12.8818
冮	-12.8818
馬先進葉仁安	-12.8818
虓	-12.882
畼	-12.882
絢	-12.882
靴	-12.882
頠	-12.882
􁦚	-12.882
酢	-12.8821
窰	-12.8821
綢	-12.8821
?	-12.8821
緬	-12.8821
萼	-12.8822
裓	-12.8822
蟄	-12.8822
廿	-12.8822
𠫭	-12.8822
右監門衛上將軍	-12.8822
鶖	-12.8822
頫	-12.8824
宋周羽翀撰	-12.8824
小樓吹徹玉笙寒	-12.8824
餚	-12.8824
麫	-12.8824
櫟	-12.8825
􁦍	-12.8825
沚	-12.8825
悞	-12.8826
閴	-12.8826
漉	-12.8827
奉鑾肅衛都虞	-12.8827
揕	-12.8827
簣	-12.8827
儕	-12.8827
祅	-12.8827
𠂻	-12.8827
昺	-12.8827
柚	-12.8827
嶼	-12.8827
㛰	-12.8828
瀟	-12.8828
雈	-12.8828
鼐	-12.8828
廸	-12.8828
羿	-12.8828
㱆	-12.8828
擣	-12.8828
俁	-12.8828
叫	-12.8828
淊	-12.8828
筧	-12.8828
貮	-12.8828
酇	-12.8828
殍	-12.8829
嘱	-12.8829
觜	-12.8829
年大明洪武十	-12.8829
栱	-12.8829
癖	-12.8829
溆	-12.8831
濆	-12.8831
鷗	-12.8831
嵌	-12.8831
䆳	-12.8831
陪臣陶子竒	-12.8831
関	-12.8831
國號大唐改元同光冬十月	-12.8832
使掌書記范坰武勝軍莭度廵官林禹撰	-12.8832
縣開國男食邑三百户	-12.8832
晉國雍順長公主	-12.8832
苫	-12.8832
葑	-12.8832
鼃	-12.8832
瘧	-12.8832
懵	-12.8833
玆	-12.8833
畊	-12.8833
筞	-12.8833
睫	-12.8833
褏	-12.8833
璚	-12.8833
褫	-12.8833
宋白續通典	-12.8834
楩	-12.8834
媱	-12.8835
悷	-12.8835
制置發運營田等使	-12.8835
攷異所引蠻書	-12.8835
曰陛下有經營天下之志	-12.8835
鐃	-12.8835
煬	-12.8835
殻	-12.8836
躅	-12.8836
鐐	-12.8836
蹬	-12.8836
韓建張造李師泰	-12.8836
擗	-12.8836
耴	-12.8836
闠	-12.8836
􁅋	-12.8836
靚	-12.8837
届	-12.8837
釵	-12.8838
􁀁	-12.8838
九合諸侯一匡天下	-12.8838
綉	-12.8838
葡	-12.8838
茀	-12.8838
挍	-12.8839
嵯	-12.8839
頬	-12.8839
㴻	-12.8839
頏	-12.8839
鵄	-12.8839
羇	-12.8839
氅	-12.884
榱	-12.884
砧	-12.884
秤	-12.884
覓	-12.884
案太平寰宇記載此條云	-12.884
窆	-12.884
曖	-12.884
鋼	-12.884
羖	-12.884
虫	-12.884
厩	-12.884
輾	-12.884
綫	-12.884
西等道管内觀察處置兼兩浙鹽	-12.884
蝮	-12.884
増食邑二千户實封	-12.884
湼	-12.8842
㲲	-12.8842
攢	-12.8842
㹠	-12.8842
湞	-12.8843
左千牛衛上將軍	-12.8843
賽	-12.8843
㢮	-12.8843
忭	-12.8843
襠	-12.8843
褶	-12.8843
鐵制置發運等使開府儀同三司檢校太	-12.8843
阯	-12.8844
峡	-12.8844
縢	-12.8845
悃	-12.8845
食邑二千户實封一百户	-12.8845
杭州越州大都督上柱國	-12.8845
軆	-12.8846
罍	-12.8846
卋	-12.8846
摇	-12.8846
襆	-12.8846
綯	-12.8847
抂	-12.8847
萄	-12.8847
蕙	-12.8847
燥	-12.8847
疁	-12.8847
簁	-12.8849
臣離班桃仁	-12.8849
杠	-12.8849
悻	-12.8849
晤	-12.8849
鉄	-12.8849
頺	-12.8849
僦	-12.8849
翅	-12.8849
瘼	-12.885
襌	-12.885
㦲	-12.885
泆	-12.885
劘	-12.885
娩	-12.885
簸	-12.885
前園横索生樹桐	-12.885
矮	-12.885
饜	-12.885
憇	-12.8851
腥	-12.8851
皖公山色翠影斜不	-12.8851
碭	-12.8851
鷃	-12.8851
珎	-12.8851
罡	-12.8851
見流水湯湯越吾宫牆	-12.8852
劃	-12.8852
莱	-12.8853
笴	-12.8853
桴	-12.8853
姥	-12.8853
戻	-12.8853
賾	-12.8853
呻	-12.8853
両鏵倚吾宫堂	-12.8853
掀	-12.8854
後主名煜字重光	-12.8854
大理寺親錄囚	-12.8854
畵	-12.8854
鏟	-12.8854
颷	-12.8854
䦨	-12.8856
故茲詔示念宜知悉	-12.8856
岐前蜀中朝中朝後蜀中朝	-12.8856
■	-12.8857
抺	-12.8857
鞋	-12.8857
𣺌	-12.8857
両䥶炊而不蒸	-12.8857
􁀾	-12.8858
倎	-12.8858
故茲詔示念宜悉知	-12.8858
悶	-12.8858
祤	-12.8858
尭	-12.886
􁐰	-12.886
鞍勒馬各一事金器二	-12.886
荊	-12.886
娉	-12.8861
騂	-12.8861
滸	-12.8861
櫻	-12.8863
瑎	-12.8863
䆒	-12.8864
揵	-12.8864
舋	-12.8864
晉太山太守諸葛攸	-12.8864
儷	-12.8865
窶	-12.8865
焕	-12.8865
耋	-12.8867
蓆	-12.8867
魃	-12.8867
㮄	-12.8867
甓	-12.8868
濃	-12.8868
趙國太𤣥太夫人	-12.887
求以報吳願以此戰包胥曰善	-12.8871
簟	-12.8872
飜	-12.8872
縂	-12.8872
皦	-12.8872
瑄	-12.8873
枷	-12.8874
粢	-12.8874
傽	-12.8875
虀	-12.8876
夤	-12.8878
䥶	-12.8878
玲	-12.8881
嚥	-12.8882
矰	-12.8882
㛐	-12.8882
鋘	-12.8883
覉	-12.8885
𡵨	-12.8886
葳	-12.8892
臚	-12.8894
翬	-12.8896
摻	-12.89
昜	-13.2055
籟	-13.21
本廣末鋭而來者為逆兵氣衰去乃可攻	-13.21
氣在軍上將謀未定其	-13.21
耨	-13.2102
㻂	-13.2104
弜	-13.2114
漪	-13.2114
瀼	-13.2114
艤	-13.2117
敲	-13.2119
奉國金地二尼寺	-13.2121
藺	-13.2123
􁀇	-13.2127
輶	-13.2129
鉾	-13.2129
扑	-13.2131
剙	-13.2131
癩	-13.2133
指揮使朱思勍范思從	-13.2133
提刑按察司劉廷直	-13.2133
撡	-13.2133
偽命由是大唐中興皇帝念	-13.2135
焚爇宫闈雖列藩悉是	-13.2135
安宇宙便息干戈未	-13.2135
誅遂使賊將寒心謀夫拱手取乾坤只勞	-13.2135
欐	-13.2135
澣	-13.2137
熨	-13.2137
絓	-13.2137
崔𦙍之徒同謀簒弑遂乃神機	-13.2137
甿	-13.2137
酹	-13.2137
應聖節列山棚	-13.2139
保紳保寅保緒保	-13.2139
𠖇	-13.2141
癬	-13.2141
宁	-13.2141
稹	-13.2141
檣	-13.2141
佼	-13.2141
知證亦以叔父自處	-13.2142
顓	-13.2142
金吾衞上將軍員外置同正員	-13.2143
柑	-13.2143
危事天方相楚尚未可	-13.2143
忖	-13.2143
粘	-13.2144
蓂	-13.2144
鑽	-13.2144
刲	-13.2144
舷	-13.2144
光庭為傳真天師崇真館大學士	-13.2144
琱	-13.2145
芽	-13.2145
以小事大如子事父未有過失	-13.2145
鄢	-13.2146
礼	-13.2146
熄	-13.2146
袝	-13.2146
隤	-13.2146
鷁	-13.2146
些	-13.2148
搗	-13.2148
稲	-13.2148
園苑使尹延範	-13.2148
撼	-13.2148
疣	-13.2148
憍	-13.2148
曌	-13.2148
駛	-13.2148
鄱	-13.2149
菌	-13.215
鋋	-13.215
不足以接貴人俟求少妙者進之知訓對	-13.215
虱	-13.215
顚	-13.215
腮	-13.215
三十年來夢一塲吳苑宫	-13.215
拐	-13.215
煼	-13.215
刊	-13.2152
個	-13.2152
朝廷有十臣在陛下何憂	-13.2152
倒持太阿授人以柄	-13.2152
瀑	-13.2152
崇仁昭徳宣忠保慶扶天翊亮	-13.2152
蒔	-13.2152
張羅網未肯平原淺	-13.2152
詘	-13.2152
呷	-13.2152
饕	-13.2152
㖃	-13.2152
㯶	-13.2152
塍	-13.2152
嬋	-13.2152
袞	-13.2152
趂	-13.2152
輜	-13.2154
鯽	-13.2154
大之節焉敢固違	-13.2154
荃	-13.2154
鮫	-13.2154
其二弟六十餘人殺之以其婦女渡江	-13.2154
尚書令梁楞左僕射梁安	-13.2154
工部侍郎盧膺尚儀謝宜清尚衣髙素清	-13.2154
橇	-13.2154
䀢	-13.2154
拚	-13.2154
捺	-13.2154
毅寡言罕與人交衆中凛然可畏	-13.2154
痁	-13.2154
篝	-13.2154
蕺	-13.2154
蔔	-13.2155
蛭	-13.2156
糚	-13.2156
雲籠逺岫愁千片雨打	-13.2156
迎置京口時道路已亂	-13.2156
􁂭	-13.2156
地周兵見而知其怯一	-13.2156
埧	-13.2156
夾道排立帶甲馬	-13.2156
罇	-13.2156
都督中外諸軍事諸道都統鎮海寧國	-13.2156
頼大王之賜使得奉爼豆	-13.2156
种	-13.2157
何辱但見衣冠成古丘不見江河變陵谷	-13.2158
崢	-13.2158
畦	-13.2158
拜瑾以笏擊踣	-13.2158
慠	-13.2158
恐煜之不得事足下也	-13.2158
碯	-13.2158
賦詩云江南江北舊家	-13.2158
㜑	-13.2158
傱	-13.2158
百工院使李可殷	-13.2158
騧	-13.2158
鑄大錢以一當十文曰永通泉	-13.216
㠶	-13.216
墖	-13.216
炒	-13.216
診	-13.216
㫋	-13.216
搔	-13.216
以其言有益擢為右補闕	-13.216
周本舒州宿松人漢南郡太守瑜之後	-13.216
妊	-13.216
散騎常侍都督玉門已西諸軍事安西	-13.216
矝	-13.216
磧	-13.216
袷	-13.216
起居注及著作所録而觀之見	-13.216
軍武安武平靜江寧逺等軍節度使	-13.216
輛	-13.216
㕑	-13.2162
晉少主逆命背約	-13.2162
籹	-13.2162
帢	-13.2162
廋	-13.2162
鯾	-13.2162
繙	-13.2162
䔥	-13.2162
䯻	-13.2162
希旺希杲希瞻希	-13.2162
艫	-13.2162
尠	-13.2162
皖公山也因獻詩曰皖公山	-13.2162
跖	-13.2162
犄	-13.2162
崐	-13.2164
曰古者兵交使在其間	-13.2164
癰	-13.2164
為峽路行營招收討伐使	-13.2164
侏	-13.2164
郍	-13.2164
刖	-13.2164
垍	-13.2164
貞馳入濠州代之崇俊自悼失計	-13.2164
將軍上金吾衛大將軍員外置同正員	-13.2164
張氏曰朕若用朝臣之言豈見今日之事	-13.2164
溶凡鱗不敢吞香餌知	-13.2164
盞	-13.2164
誰向桑麻識卧龍	-13.2164
鈎興正濃碧池春暖水	-13.2164
􁇠	-13.2164
梳	-13.2164
袐	-13.2164
鐶	-13.2166
子夜坐句云劃多灰	-13.2166
拄	-13.2166
句中正孫逢吉	-13.2166
拏	-13.2166
乞骸骨以司徒致仕賜號鍾山公	-13.2166
先主名巖後名俊又	-13.2166
猢	-13.2166
猻	-13.2166
痒	-13.2166
豸	-13.2166
以右僕射孫晟客省使姚鳳為	-13.2166
禛	-13.2166
菓	-13.2166
蘧	-13.2166
韈	-13.2166
㽞	-13.2167
檛	-13.2168
帕	-13.2168
攪	-13.2168
䳌	-13.2168
扶南侯元㺷淮隂侯元珦	-13.2168
􁀒	-13.2168
以問索紞紞曰	-13.2168
侁	-13.2168
冪	-13.2168
搶	-13.2168
洼	-13.2168
蜒	-13.2168
西道兵馬元帥洪州大都督太尉尚書令	-13.2168
􁗟	-13.2168
儺	-13.2169
𫐠	-13.2169
莎	-13.2169
庄	-13.2169
州刺史盧約弟佶㓂永嘉	-13.217
非我族𩔖其心必異	-13.217
萇為土山地道輔亦	-13.217
荳	-13.217
週	-13.217
凂	-13.217
佟	-13.217
增食邑一千户實封一百户	-13.217
弆	-13.217
瀦	-13.217
暦	-13.217
涅	-13.217
濉	-13.217
牙門武肇漢國郡丞宣定	-13.217
痼	-13.217
肫	-13.217
高尚思𤣥𢎞古讓皇帝	-13.217
虒	-13.2171
吴越吴越吴越吴越吴越	-13.2171
欒	-13.2171
鶯	-13.2171
五千口出城萇圍而坑之男女無遺	-13.2171
蝸	-13.2171
晳	-13.2171
遄	-13.2172
已慙先見之明因有後時之責今則皇威	-13.2172
憬	-13.2172
授國子助教知廬山國學	-13.2172
漑	-13.2172
灌州奏武部郎中張道古卒	-13.2172
茟	-13.2172
俱非恃强逼禪皆以行道濟時	-13.2172
蒿	-13.2173
噏	-13.2173
南中郎將都督荆揚州諸軍事荆州刺史	-13.2173
櫺	-13.2173
𨗳	-13.2173
建州之劒浦汀州之沙縣	-13.2173
晝晦雨沙如霧	-13.2173
皮之不存毛將安	-13.2173
篠	-13.2173
鄽	-13.2173
岫愁千㸃雨滴	-13.2173
後有立大功者當以何官賞之	-13.2173
焜	-13.2173
綰果召田頵于宣	-13.2173
屢變亂之招也且豪民富商不保其貲則	-13.2173
引丁零烏丸之衆二十餘萬為飛梯地道	-13.2173
乗間言景逷才過齊王	-13.2173
冬十月築楚州白水塘以	-13.2173
怒問允章馬公復能經畧南土乎	-13.2173
掎	-13.2173
杭越等州大都督府長史	-13.2173
益思亂累數百言不報	-13.2173
主方惶惑欲置其家	-13.2173
棃	-13.2173
淋	-13.2173
饍	-13.2173
玹	-13.2175
茆	-13.2175
柟	-13.2175
盻	-13.2175
齷	-13.2175
􁂮	-13.2175
掄	-13.2175
邦為空棘身為魚鼈餌	-13.2175
事堂召二親吏解所服金帶	-13.2175
戬	-13.2175
樁	-13.2175
疢	-13.2175
紉	-13.2175
見歎曰非此兒不敵此女	-13.2175
門下侍郎張居詠中書侍郎李建勲皆	-13.2175
黻	-13.2175
𣑽	-13.2175
㧾	-13.2175
噁	-13.2175
煽	-13.2175
狭	-13.2175
蚊	-13.2175
跕	-13.2175
仄	-13.2177
倩	-13.2177
鍮	-13.2177
云吟登蕭寺旃檀閣醉倚王家玳瑁	-13.2177
湊	-13.2177
敺	-13.2177
爻	-13.2177
事斬絳以城降絳覺之	-13.2177
大食國進龍腦油	-13.2177
楓	-13.2177
􁭘	-13.2177
彖	-13.2177
拖	-13.2177
監蒜山渡首聞朱瑾之亂馳	-13.2177
蓊	-13.2177
􁂥	-13.2177
瀣	-13.2177
瑊	-13.2177
秉燭夜出候者以	-13.2177
菰	-13.2177
𦂳	-13.2177
撿討呉任臣撰南唐	-13.2178
天與不取反受其咎	-13.2178
諄	-13.2179
茜	-13.2179
皤	-13.2179
眇昧之餘魂得保	-13.2179
笳	-13.2179
佔	-13.2179
孤不幸少失先人内不自量	-13.2179
摸	-13.2179
暻	-13.2179
界諸蠻兼西山八國雲南安撫制置等使	-13.2179
勢如此而殺忠臣吾不知	-13.2179
嚅	-13.2179
囁	-13.2179
之謂之中興中興之君廟	-13.2179
歉	-13.2179
誧	-13.2179
賭	-13.2179
蹊	-13.2179
茯	-13.218
少失前人内不自量	-13.2181
砮	-13.2181
荇	-13.2181
六月晉主知逺改國號曰漢	-13.2181
腫	-13.2181
自存者賜糓帛有差	-13.2181
蹰	-13.2181
僕射張華給事中宗正元	-13.2181
嵁	-13.2181
巡遏軍城不使毁傷	-13.2181
㣧	-13.2181
猨臂善射膂力過人	-13.2181
窗	-13.2181
讞	-13.2181
云婦人預政亂之本也安肯自	-13.2181
轎	-13.2181
匀	-13.2182
鄮	-13.2182
徯	-13.2183
酒數行喬始上卷主司	-13.2183
慝	-13.2183
仂	-13.2183
鰕	-13.2183
暍	-13.2183
簏	-13.2183
黄門郎史淑侍御史王冲	-13.2183
昳	-13.2183
瀉	-13.2183
苪	-13.2183
虖	-13.2183
見後房鍛者扶挾鼓小震	-13.2183
兵馬都元帥加食邑一千户實封	-13.2183
茰	-13.2183
尫	-13.2185
覿	-13.2185
玖	-13.2185
適父怒而歸母子之常也	-13.2185
▫	-13.2185
劍履上殿詔書不名	-13.2185
罏	-13.2185
踧	-13.2185
匜	-13.2185
姉	-13.2185
家國隂隂如日将暮	-13.2185
飾其政外事諸侯必將有報我之心子待	-13.2185
嗾	-13.2187
眙	-13.2187
菅	-13.2187
鷺	-13.2187
鼾	-13.2187
𤨏	-13.2187
􁂚	-13.2187
侹	-13.2187
将軍上金吾衛大将軍員外置同正員	-13.2187
延喜延武延望延宗	-13.2187
旬志不負國事勢如此須	-13.2187
窣	-13.2187
窪	-13.2187
藐	-13.2187
硃	-13.2187
頙	-13.2187
珓	-13.2189
栰	-13.2189
淆	-13.2189
唎	-13.2189
熛	-13.2189
猳	-13.2189
諷焉而後主不之譴	-13.2189
嶓	-13.2189
蔣幹懸縋而下奔	-13.2189
厪	-13.2189
大江春夏暴漲謂之黄花水及	-13.2189
項氏不興得吕望而周朝遂	-13.2189
諼	-13.2191
韃	-13.2191
鍬	-13.2191
僨	-13.2191
躊	-13.2191
弥	-13.2191
纏	-13.2191
過澗者斬及暮伏兵四	-13.2191
飰	-13.2191
㫜	-13.2191
澞	-13.2191
郅	-13.2191
㢲	-13.2191
山頭一小營謂輿曰	-13.2193
霈	-13.2193
不伐有巢樹多移無主花	-13.2193
唳	-13.2193
蒋	-13.2193
洺	-13.2193
蟆	-13.2193
魋	-13.2193
齩	-13.2193
莝	-13.2195
飮	-13.2195
賡	-13.2195
擖	-13.2195
垓	-13.2195
知足不辱知止不殆	-13.2195
雊	-13.2195
世祖遣撫軍大將軍永昌王健	-13.2195
欓	-13.2195
瀹	-13.2195
瞟	-13.2195
熲	-13.2196
埏	-13.2197
荄	-13.2197
黧	-13.2197
凾	-13.2197
夥	-13.2197
詫	-13.2197
引喬入見后及諸子	-13.2197
鱓	-13.2197
劑	-13.2198
棒	-13.2198
媯	-13.2198
桒	-13.2198
瘖不對授館累日忽謁漢淮南王	-13.2198
𪷟	-13.2198
逌	-13.2199
黠來亦得時去亦得時元宗聞之不平	-13.2199
騄	-13.2199
假黄鉞大將軍雍凉秦梁四州牧凉王	-13.2199
著質論十餘篇後主	-13.22
藕	-13.22
前後夾擊盡殱其衆	-13.22
眡	-13.22
獻三足六眸龜	-13.22
刓	-13.22
鍇頗怏怏簡言徐出妓佐酒	-13.2201
蒱	-13.2202
檢討吴任臣撰南唐十	-13.2202
澉	-13.2202
􁀅	-13.2202
盡忠所事抗節無虧前代名臣	-13.2202
渤	-13.2203
櫨	-13.2204
痩	-13.2204
轔	-13.2204
搯	-13.2204
嫠	-13.2204
蛆	-13.2204
陥	-13.2204
銛	-13.2206
螯	-13.2206
坯	-13.2206
廛	-13.2206
都督幽平二州東夷諸軍事車騎	-13.2208
柙	-13.2208
礫	-13.221
對侍婢曰阿法兄弟亦不可信	-13.221
兩黑犬嘷以南嘷以北	-13.2212
氤	-13.2213
􁯫	-13.2214
攖	-13.2214
覯	-13.2214
祍	-13.2214
綖	-13.2214
遷右僕射平章事烈祖出鎮金陵以元宗	-13.2214
錕	-13.2214
沇	-13.2214
駮	-13.2216
鬴	-13.2216
餻	-13.2218
貙	-13.2218
琯	-13.222
缶	-13.222
蟹	-13.2222
阼	-13.2223
乃殺監守者與親信	-13.2224
匾	-13.2224
巇	-13.2225
􁗩	-13.2226
祚固執不可本怒曰我家郎君也	-13.2227
搦	-13.2227
鞮	-13.2227
珜	-13.2227
侶	-13.2229
磕	-13.2235
鯤	-13.2237
瑨	-13.2237
鈲	-13.2239
䁺	-13.2243
噩	-13.2245
肓	-13.2247
公子蓋餘燭傭	-13.2262
鎦	-13.2268
陸門八以象天八風水門八以	-13.2285
隃	-13.2303
屚	-13.6994
􁠾	-13.7
悤	-13.7047
箏	-13.7085
浙行軍司馬杜稜以下一百二十人並號	-13.7088
里為勲貴里所居安衆營為衣錦營仍賜	-13.7088
㨂	-13.7094
𬗟	-13.7094
奏改西府富陽縣為富春縣東府暨陽縣	-13.7094
定保獻南宫七竒賦以美之	-13.7094
康儒等來應東陽王命副指揮使方	-13.7094
鴒	-13.7097
秦末南海尉趙佗擊併之自立	-13.71
輀	-13.71
軍敗退歸府城王司徒據漢州	-13.71
鄯	-13.7102
舟岸側遲明挾彈登岸	-13.7103
鈸	-13.7103
圭權蘇州制置使尋命為本州刺史是月	-13.7104
兼兩浙安撫使加食邑一千户實封一百	-13.7104
枰	-13.7107
有海鰌形如大堤長數十丈	-13.7107
罷安南都䕶府置行交州於海門鎮	-13.7107
𣲖	-13.711
陳用拙王定保周傑趙損	-13.711
之險杜盟津之路大駕虎旅百萬自軹	-13.711
集閣内外事付索綏以著凉春秋	-13.711
以脅骨為橋脊骨為臼	-13.711
灸	-13.711
之人見之若面令公敢倨慢	-13.7113
大末周師入淮南元請對言兵事元宗大	-13.7113
數上書論事言今幸中原多故	-13.7113
月非所以為國當取湖湘閩越錢塘以固	-13.7113
烏孤孫承鉢利鹿孤孫副周皆	-13.7113
樓上劍霜未匣槍雪猶	-13.7113
睕	-13.7113
窩	-13.7113
而决除虎兕十年對壘萬	-13.7113
取法上天廣覆下土既叶混同之	-13.7116
餳	-13.7116
常乗白馬軍中號白馬三郎	-13.7116
戍外無救援城下之師將軍所監豈三千	-13.7116
柵紫金山軍聲頗振益	-13.7116
藏莫測遂罷待詔元失意	-13.7116
請專任軍旅以次討定用事者嫉其言共	-13.7116
任處領國子祭酒立辟雍明堂而行禮	-13.7116
作那敢作司徒幸有山公號如何不見呼	-13.7116
元宗乃命楊守忠代之守忠至元帥府景	-13.7116
園五科令黄衣選人白衣舉人投策就試	-13.7119
天不祥其能久乎璽已送晉不可得也萇	-13.7119
賜蜀主衣一副六件玉腰	-13.7119
之光方喜來朝何勞俟罪體兹睠待無至	-13.7119
櫃	-13.7119
實天下之强國也我公本仁祖義允	-13.7119
有鬻男女者命出粟帛贖之歸其父母仍	-13.7119
東陽有大象自南方來陷陂湖而獲之境	-13.7119
賢主也以我公之賢拓土開封取威定	-13.7119
金墉以輔國司馬桓寅為𢎞農太守代	-13.7119
周復姓舒世宗愛其驍果以	-13.7119
瘣	-13.7119
衆曰吾輩無船入水則死不若還	-13.7119
衛將軍安昌王盛安邑王欽	-13.7119
賖	-13.7122
疼	-13.7122
軍司馬兼侍中同平章事太尉鮑君福卒	-13.7122
受本國爵命家在江南欲遣使	-13.7122
薜	-13.7122
諸侯幕府不足展其才力每謂	-13.7122
人進食俄而忠至執堅以歸新平縣幽之	-13.7122
匹散馬五匹絹五千疋錦綺綾羅紗縠衣	-13.7122
圍之堅衆奔散獨侍御十數人	-13.7122
部侍郎判三銓昭受賂狥私選人詣鼓院	-13.7122
蜨	-13.7122
唐虞之大訓協和萬邦六	-13.7122
固得其宜矣而况内則有紅蓮上客	-13.7122
歾	-13.7122
王食邑四千户食實封一百户	-13.7122
皇綱復周漢之舊疆寵綏羣后	-13.7122
髩	-13.7122
乃去年號罷尚書丞郎官遣	-13.7122
宜聲言受詔盡幽并之兵南出	-13.7122
市中唯呼其婢春鶯已行刑者不敢殺	-13.7122
所明日延羲視朝使召凖左右	-13.7122
婣	-13.7125
七月王以子睦州刺史傳懿為婺州刺史	-13.7125
從本殺雅州刺史張承簡舉城來降	-13.7125
篥	-13.7125
詒	-13.7125
如故三月王命元帥府判官皮光業使于	-13.7125
兵萬人屬其弟宗衡畧地淮南	-13.7125
子惟濬彭城郡王惟治英國公惟演惟濟	-13.7125
殷字覇圖許州鄢陵人也	-13.7125
殺宗衡自將其兵取髙郵	-13.7125
民市井聚貨叨為郡守實負天恩瘡痍已	-13.7125
能久立吾既籠中之人必無還理	-13.7125
雨雹如雞子鳥雀皆死暴風飄船上民屋	-13.7125
知獲麟之筆反為倚馬之用	-13.7125
緊	-13.7125
請分遂合瀘渝昌五州别為一鎮	-13.7125
主世宗許之為緩攻及廷謂使還知金陵	-13.7125
壘門南嚮慟哭再拜乃降	-13.7125
帳幔車服燦爛走馬步射飲宴終日	-13.7125
侍郎親情果閬二州侍郎自留巴蓬集	-13.7126
四十八張夫人中山公詵等皆自殺三軍	-13.7126
庶上報皇帝酷怨下雪人民大耻	-13.7126
鯤鳥鳳之姿擁岸虎水龍之衆居方面任	-13.7126
世跨燕朔光文以漢有天下嵗久恩徳結	-13.7126
停放之冬十月大閲馬步軍艛	-13.7126
我皇家之先出自夏后居	-13.7126
荆南尚使甆器皆高其足	-13.7126
世封洛謂使者曰汝還白東海王幽州褊	-13.7126
淮上通商以市中國羊馬	-13.7126
球守檢校太尉兼侍中充静海軍	-13.7126
罋	-13.7126
逈感于蜀皇復禮逺酬于厚禮	-13.7126
造念家山破及振金鈴曲	-13.7126
節度使源壁等州觀察營田處置	-13.7128
篳	-13.7129
曽子曰出乎爾者反乎爾	-13.7129
諷林省鄒葉翹鄭元弼王倓	-13.7129
匭	-13.7129
持詔諭降廷謂廷謂度不能支奉表于周	-13.7129
武信王子從翊從詵從讓從謙	-13.7129
以英風彰徳望以勇氣	-13.7129
鬥	-13.7129
五十年宣導休聲攘除兇醜摧堅奮	-13.7129
今欲除宗廟改國號御以大單于為太祖	-13.7129
澧陵人盧氏聞洵美名憐而	-13.7129
率其黨二百餘人作亂即日盡誅之三月	-13.7129
監利星沙二縣延嗣兵敗為	-13.7129
通好之心必舉上秋之役即命敝邑速絶	-13.7129
以承高祖之業若能迎駕潼	-13.7129
六軍𢎞管朝政汝恭已無為委重二兄庶	-13.7129
嚵	-13.7129
征伐之間蜀主岐王承制於隔絶之	-13.7129
得狂夫之言聖人擇之樵童之歌哲王	-13.7129
有非常之事然其二鐶不過二	-13.7129
秋七月台州大水請軍儲三十萬斛八月	-13.7129
者當位為上公爵歸本國堅	-13.7129
奪農時咎將誰執在予一人其大赦境内	-13.7129
差無别不足以鎮華夷共表請進廆官爵	-13.7129
曰自古以蜀為錦城今日觀之真錦城也	-13.7129
花䖍渦信及吏卒七千餘人	-13.7129
謂人曰他日王師見討孤當躬擐	-13.7129
劄	-13.7132
槗	-13.7132
上乃率將吏下北面再拜以位與之	-13.7132
主也馬公英勇可共立之諸將乃共殺贍	-13.7132
約法七章以叔父驤為太	-13.7132
不以貴陵姜嫄明聖王之道以至公為先	-13.7132
不識於經綸素非忠勤實為忝竊有嚴凝	-13.7132
以越州指揮使駱團為台州制置使二月	-13.7132
在唱亡國之音衒趨時之侈	-13.7132
安周屯横截城和攻㧞之	-13.7132
改虎頭鞶囊為龍頭鞶囊	-13.7132
明致君為桀紂之昏使上乏唐虞之化有	-13.7132
梭	-13.7132
臣在陛下任臣如此何憂社稷不安	-13.7132
覧之大笑賜在珣綵五百叚加	-13.7132
貴妃張氏夫人蕭氏後主廢后	-13.7132
都官尚書加冠軍將軍封河陽侯	-13.7132
顧閎中梅行思曹仲元周文矩顧	-13.7132
將軍姚裕前將軍彭白狼建義將軍虵𤣥	-13.7132
掦	-13.7132
方生起龍以祈雨生曰茅山前池中有龍	-13.7132
李師愈姚延環等三千餘人而還	-13.7132
節保遜保衡保膺貞懿王子繼充	-13.7132
與故李司昉同年擢進士第	-13.7132
艪	-13.7132
勸善君之要權不可偏行尤須具舉歴觀	-13.7132
名重中權守畫一之規奉在三之	-13.7132
安居之頌環塹浙江之要雲滋星紀之墟	-13.7132
為時彦所推尚而洵美集中亦有此作	-13.7132
王命丞相吳程前衢州刺史鮑修	-13.7132
禮敦詩位崇元帥前茅後	-13.7132
還之又依周禮造民籍復造牛籍	-13.7132
不引滿昏醉汚服失冠蓬頭僵仆生	-13.7132
之扉左右之引亭建暗門	-13.7132
他國之鬼太祖聞之謂左右曰此措大兒	-13.7132
元宗南遷拜左僕射使輔太子居守後主	-13.7132
典備考前規或王命而不通或	-13.7132
卒背城一戰以存社稷如其不獲乃聚室	-13.7132
崕	-13.7132
帥步騎四萬討之右將軍都貴馳傳詣鄴	-13.7132
愚以為覆水之勢殆于難圖	-13.7132
於生靈又何辭於通變昔來歙鄧禹擅命	-13.7132
春正月詔曰春秋日食地震星孛木冰	-13.7132
椎額鷹目趫捷善射	-13.7132
沫	-13.7132
沿身衣冠法物三月我師克常州生擒	-13.7132
渒	-13.7132
豉	-13.7132
雎	-13.7132
滎	-13.7134
狽	-13.7135
使我先反今見清平吏不敢	-13.7135
庠草表請討敬瑄以贖罪因求卭州	-13.7135
睇	-13.7135
壟	-13.7135
雞廣五寸冠上正平可用	-13.7135
勝光元年進征南大將軍白蘭王吐谷渾	-13.7135
平等鎮王命弟鏢帥師討之十一月乙酉	-13.7135
五百户改賜推誠保徳安邦致理	-13.7135
氏皇后金氏元妃韋氏貴妃錢氏順妃	-13.7135
上谷公社干廣陽公度洛孤	-13.7135
中山中山分野屬大梁趙也宜革稱大趙	-13.7135
來江南敗亡相踵惟卿能犯渦口浮橋破	-13.7135
冒頓配天淵配上帝	-13.7135
告曰適過君家後舍聞甲馬	-13.7135
曰丘能述五帝三王之道故	-13.7135
清香如梅當時最重之十	-13.7135
燈以逹旦爲驗謂之命燈	-13.7135
疏言百姓怨氣上徹于天故	-13.7135
确	-13.7135
薤	-13.7135
㦸土疆漸海方輸豈限于魚	-13.7135
元宗前元宗歎其工以燒槽琵琶賜之	-13.7135
圍句踐之封子弟量才序進多分于	-13.7135
始終無以位期驕無以欲敗度欽承賜履	-13.7135
段氏於别室而以蘭氏配饗	-13.7135
臺省文武闗東流民秦雍大族九千餘人	-13.7135
薦幣則常歸宰府振英	-13.7135
討公孫淵有功拜率義王始建	-13.7135
詔音存問以令婦稱後主	-13.7135
通書史善歌舞尤工琵琶嘗為	-13.7135
遣將軍徐成覘燕軍形要	-13.7135
之且召漢榮漢榮教金全留	-13.7135
之才駿之二十一年拜延興太守封	-13.7135
乞伏國仁乞伏國仁隴西鮮卑人	-13.7135
五月雨雪降霜駿避正殿素服命羣	-13.7135
令諸司四品至九品無職事者日二	-13.7135
卿卿必不受今賜朕自服紬縑衣三十事	-13.7135
太子寳曰鄴是舊都宜委范陽王	-13.7135
妃周氏為國后徙信王景逷為江王鄧王	-13.7135
州王承雋降于周戊戌天成軍使蔡暉自	-13.7135
已圍金陵召令贇赴難軍至湖口與諸	-13.7135
平章事餘進位有差遣中書侍郎馮延	-13.7135
張順楊顯救登尚子宇	-13.7135
曰醉如泥酒既盈即不復置他所	-13.7135
會真之殿清和迎仙之宫降真蓬萊丹霞	-13.7135
李壽字武考特季弟驤之少子	-13.7135
東征詔王以國兵分路進討是月南擊	-13.7135
永光陵諡曰光文皇帝廟號髙祖劉	-13.7135
留金陵監國以嚴續殷崇義輔之張洎主	-13.7135
相圖則禍不旋踵纂𢎞泣曰不敢有	-13.7135
纔升驃騎之班隋待蕭琮惟列莒公之號	-13.7135
羣鴉泊于旗杆其鳴甚哀	-13.7135
臣子之情尚不逾于三諌煜	-13.7135
語耳徒有其口必無其志渠能如是	-13.7135
賀蘭風招緝使孫仲殷等並投	-13.7135
金陵後主毁瘠骨立杖而後	-13.7135
駢齒一目重瞳子文獻太子惡其有竒表	-13.7135
不見於雲霄三蜀久愆於雨雪將期勸善	-13.7135
之及揚州建春門有鼉而俗謂之檀出	-13.7135
仁愛而譴告之也朕甚惕焉曩者兵連閩	-13.7135
以語誚重遇等重遇等流涕自	-13.7135
其挫伏縱兵擊之頵兵遂敗	-13.7135
參之杼以至兩川㰱血合	-13.7135
府卿尹文舉駕部郎中范禹偁鴻臚卿劉	-13.7135
暉諫曰仁臨難履危奮不顧命忠	-13.7135
暠少府少監韓嶼庫部郎中鮮于	-13.7135
淮南市井小兒普唱曰檀來也人頗	-13.7135
狖	-13.7135
立功者悉望昇榮向化者皆思叙進方屬	-13.7135
胡韞司天少監郭徴膳部郎中韓保昇殿	-13.7135
銀葉既柔弱因目之為冬	-13.7135
婌	-13.7138
桃臉不勝春薄媚足精神可惜許淪落在	-13.7138
同三司大單于封髙陵郡公八年	-13.7138
之力然作之者勞吾不敢忘更賴	-13.7138
敬柔帥資州義軍二萬人築長城環之	-13.7138
風雲將不可復制不如早除之堅曰吾方	-13.7138
以此攻城何城不克以此衆戰	-13.7138
嚴朝見笏記曰伏自朱	-13.7138
奔辟閭渾渾表為渤海太守德至莒城孚	-13.7138
袴敗乃取酒庫酢袋而補之	-13.7138
忽舉觴不悦曰北有後唐南有	-13.7138
慈雲嶺之西原九月甲寅朔丞相裴堅卒	-13.7138
旦字欽宗光禄郎中主事	-13.7138
曰裴義不負楊公今力屈而降	-13.7138
植一樹識之語其子曰吾當藏骨于此及	-13.7138
以為海神鑿腦取珠因以致斃	-13.7138
凝統八萬雄師倒戈伏死趙	-13.7138
喁水自腦而出數日乃死瀕江之人饜食	-13.7138
團枝李花結子可憐在不似楊花	-13.7138
天裂廣一丈餘長五十丈	-13.7138
寨足報國矣濠州小城使汝主自守豈	-13.7138
曰堂堂乎張也難與並為仁矣	-13.7138
立極崇徳報功或開國以建邦或苴茅而	-13.7138
謡云江北楊花作雪飛江南李樹	-13.7138
天下之轅釋天下之駒浩浩乎復	-13.7138
為吾憂開基既難守成不易善輔永業勿	-13.7138
焦心養士羣臣不能報稱萬	-13.7138
音筆無停思俄頃譜成所謂邀醉舞破也	-13.7138
黌	-13.7138
上書者多謂周人有南侵之謀淮上石偶	-13.7138
且行墨制以布鴻恩式副羣情無虧大體	-13.7138
今遣正議大夫守尚書吏部侍郎上柱國	-13.7138
使宿直禁中議事然亦不能用也陳覺李	-13.7138
利在急速故不淹留但假一	-13.7138
古方用事朝野側目易一日朝退	-13.7138
君臣問對及臣下論奏骨鯁者七十	-13.7138
大理改勤政殿學士判御史臺采武	-13.7138
夫立功者患信義不著不患名位不	-13.7138
州奔周天長制置使耿謙以城降	-13.7138
帝廟號世宗永興初追尊曰景明皇帝號	-13.7138
庸合議於䇿勲列爵宜遵	-13.7138
待之彼請戰不許久無所資不過百日必	-13.7138
是為臣者可以逃為子者可以泣為交友	-13.7138
書督兵者接踵令贇不能守初議乃與	-13.7138
有詩云淮船分螘㸃江市聚蠅	-13.7138
梯航時至翼戴天子加之以恭也載念尊	-13.7138
欲納之鄭大罵曰王師弔伐當	-13.7138
為人堅正不為當國者所喜	-13.7138
王司馬東宫建又為左庶子後主即位遷	-13.7138
禮甚恭且無王祭不共之罪徒以	-13.7138
而端右弼鍾懿號而異列藩可謂	-13.7138
耍	-13.7138
聚况我公恒脩貢職不虧楚子之茅遽搆	-13.7138
蕃歌其首句曰檀來也方明其兆	-13.7138
蕕	-13.7138
蚡	-13.7138
蟚	-13.7138
訥棄城遁帝遣間使求援于契丹至淮北	-13.7138
軍據我後上江阻隔進未破敵退絶餽饟	-13.7138
鄉道使於城外經過幸矣	-13.7138
金一鎰命近侍袁文昌鑄巨錢文昌意其	-13.7138
金魚袋李徳休使副朝議	-13.7138
霸榮率十餘人挺刃入閣	-13.7138
馮延已魏岑並小人不宜左右春宫元宗	-13.7138
驅巴西梓潼民内涪水以南	-13.7138
鰻	-13.7138
􁳜	-13.7138
剰	-13.714
灊	-13.714
渡江後主命彦華督舟師萬人又遣别	-13.7141
鍛	-13.7141
方始供食家人以絮塞	-13.7141
昔皆委質於吾今而歸之不亦鄙	-13.7141
民庶皆效之還宴怡神亭	-13.7141
乙弗之資取契汗以贖妻子者是所望也	-13.7141
二千户實封三百户仍賜號	-13.7141
二日年三十五其死乎至是如其言	-13.7141
冬十一月丁亥吳越國正徳夫人吳氏薨	-13.7141
大限吾生長王家窮極歡樂一日可敵世	-13.7141
文彩煥爛如生人咸異之一日	-13.7141
自苻健皇始元年歲在辛亥晉永和七年	-13.7141
鍇銑世祖孫彭城郡王繼文繼欽	-13.7141
飲其中忽暴風至裂帳盡碎如飛	-13.7141
任臧上官惇楊褒楊	-13.7141
入誅瑾黨章與同事六人當斬五人	-13.7141
堪石聰等各以精騎八千自城西而北擊	-13.7141
姦伏人不敢欺諸校驕恣者	-13.7141
寶幼而竒異既齔誦詩書萬言	-13.7141
射臺二一在華池昌里	-13.7141
崪	-13.7141
常人固不許因小字曰婆留而井亦以名	-13.7141
為雅王仁裕為彭王仁操為嘉王	-13.7141
雄武軍都虞候左街使章雖老而心尚	-13.7141
十年不易跣行日數百里林棲露宿多在	-13.7141
太子住乎還山乎綏曰孔子婦姓	-13.7141
威武軍忠懿王之親兵也以軍額而名之	-13.7141
學士湯悦致狀賀之建勲以詩答曰司	-13.7141
掘地至丈餘得一石槨製作精麗光潔可	-13.7141
曰十字水中分島嶼數重花	-13.7141
混一天下之志且言朱氏簒竊諸侯曾無	-13.7141
遁禆將兼隊而追擒數俘馘以既多收鎧	-13.7141
遵帝力今則秦庭貢表兩浙稱臣淮南陳	-13.7141
雪夜酣燕舉杯請後主起舞後主曰汝能	-13.7141
㞐	-13.7141
七夕與宫人乞巧於丹霞樓	-13.7141
云秋山滴翠暮壑澄空愛公	-13.7141
俄而澍雨大水暴作儒謂衆曰城中大水	-13.7141
修國史悉罷他職而佑復上	-13.7141
右袒而左跪衣裓皆備	-13.7141
姢	-13.7141
日衰削用事者充位無所為佑憤切上	-13.7141
溧水天興寺桑生木人長六寸	-13.7141
物局促若轅下駒安得如列禦	-13.7141
百匹居數日又獻明宗謂曰卿	-13.7141
良馬及器皿萬餘拜亳州防禦使以其弟	-13.7141
詩得句未成章已播逺近	-13.7141
跛者能行其餘疾苦應手痊損	-13.7141
髻纎裳及首翹鬢朶之	-13.7141
三月我師復攻餘姚袁邠因大	-13.7141
上下震恐易獨揚言朝路曰國家被山帶	-13.7141
下如佛慈悲廣覃諸郡	-13.7141
乙酉周師䧟東都執副留守馮延	-13.7141
兵馬都監張延翰以城降于周刺史張紹	-13.7141
出鎮于鄴東夏安之堅敗歸長安	-13.7141
判宣州前刺史方築州城役徒數萬一切	-13.7141
劉今若上下併力敵何足畏	-13.7141
劉聰字𤣥明一名載淵第四子	-13.7141
坐以艷詞挑前蜀安康長公主罷	-13.7141
夜有人周城大呼曰楊定健兒應	-13.7141
大栰長百餘丈大艦至容千人	-13.7141
太祖曰爾謂父子者為兩家可乎	-13.7141
孤亦安能惜一日之辱正以	-13.7141
宗常謂曰自古及今江北文人不及江南	-13.7141
宫殿臺觀應坐我父子同出不共汝旦尋	-13.7141
嵈	-13.7141
律因亦躭嗜廢政事監察御史張憲切	-13.7141
潘薦等凡二千餘人王以朱威復為永	-13.7141
犀帶茶藥又奉牛五百頭酒二千石犒軍	-13.7141
王建封得鄭氏以其有色而自持	-13.7141
臂善射彎弓三百斤膂力驍	-13.7141
至姑臧隆素車白馬迎於道旁	-13.7141
荣	-13.7141
處大樂故謂樂野其山上石室	-13.7141
設爵待功免授踰時之賞允	-13.7141
貴國益削居素獨慷慨驟	-13.7141
逞使過淮剽掠獲美女良馬以自奉元宗	-13.7141
道之兵威陵齊晉孫權以草創之國勢遏	-13.7141
配禁兵二萬七千自宜陽入洛	-13.7141
酒過量耶乳保不至耶	-13.7141
采石浮梁㑹江水涸舟栰艱阻	-13.7141
離之後絶不復傳后得殘譜以琵琶奏之	-13.7141
􁡡	-13.7141
公戢兵淮人得過江而南	-13.7141
内地申畫邊疆便議班旋直同戲劇至	-13.7141
削去尊稱願輸臣節孫權事魏蕭	-13.7141
十四世皆以恤辜宥罪勸善興仁特行滌	-13.7141
大饗文武博議進止衆咸請還光	-13.7141
妝	-13.7141
榷	-13.7141
直好詩學武及長從征有功	-13.7141
菡蓞香銷翠葉殘	-13.7141
誤標張祿之名今日故園復作范睢之裔	-13.7141
屯集之衆其行師法令别載條章務	-13.7143
接笳鼙之響地里雖分於兩鎮人心何異	-13.7143
洽平之化自唐朝運改土徳數終初乃召	-13.7143
無輕重已發覺未發覺已結正未結正見	-13.7143
解且湯開三面延景祚六百餘年漢革五	-13.7143
諸苑中乗苑馬逺掠繒	-13.7144
為方士房中之術多採良家子	-13.7144
不礙摩天翮未肯平原淺	-13.7144
之曰水陸兩軍相表裏則吾事濟矣比與	-13.7144
八極濟活兆人李通首述其緯書鄧禹常	-13.7144
得興挾以登城城上皆鼓譟	-13.7144
氣遂閉壘自守以至國破	-13.7144
江州歴位輔國將軍桓𤣥簒位以宏為	-13.7144
乃盡伐樹木絶其歸路為三覆以待	-13.7144
其賂常指獄門曰此吾家錢	-13.7144
王以為浙江安撫副使命指揮使俞浩為	-13.7144
知進等八千餘人兵甲生口稱是是行也	-13.7144
諭獄吏令賊徒引富民為黨以	-13.7144
軍石彦辭刑部郎中薛昭序來宣諭	-13.7144
雪爪星眸衆鳥歸摩天專待振毛	-13.7144
髙祖太宗之業倐爾隳張憤朱	-13.7144
其死士纔過汾水縛王	-13.7144
十月地震從西北來聲如暴風急雨之狀	-13.7144
封隅凡曰軍民攸同快慰	-13.7144
將軍蔣英辛恕擁衆數十萬據長安遣使	-13.7144
所至處卓之呼曰不得燈燈便倒	-13.7144
於馬前旋及夷門斬朱友	-13.7144
曰先帝所以得傳陛下者由盡殺羣弟也	-13.7144
毳	-13.7144
甲而亦衆指期蕩定以固	-13.7144
𡑞	-13.7144
千里外必有破軍殺將之凶	-13.7144
堅大怒遣輔國將軍王猛建威將軍梁成	-13.7144
宜時進討以清宇内便可戒嚴速	-13.7144
將巨武執暐將縛之暐曰汝何小人	-13.7144
楊公大丈夫今以難告必閔我	-13.7144
殿鎻千門殆未及此兵部尚書王廷珪賦	-13.7144
路置頓十月至東京留三	-13.7144
余萬頃江景防陸崇扆	-13.7144
偽遂使家國愔愔如日	-13.7144
其言及詰旦西北有雲大如箕漸漸	-13.7144
凡數萬言詞窮理盡忠邪洞分陛下力蔽	-13.7144
十萬緡粗給中朝之費此則勵勤	-13.7144
嘉歎終無所施用佑七	-13.7144
國從來創業多乏永謀或徳不及	-13.7144
國朝懿戚受命莊宗自節制	-13.7144
引去匡業使吏掖就馬自是見易加敬不	-13.7144
忠勲古先哲王率由斯道	-13.7144
搆一小殿謂之龜頭居常處	-13.7144
暮古有桀紂孫皓者破國亡家自	-13.7144
此所不足者子殤身殁無以報徳	-13.7144
琵琶及平時約臂玉環為後主别	-13.7144
生鉉亦知音問曰法曲終則	-13.7144
西川遇鼎移於東洛且以時變則變	-13.7144
越之北日月所生是為中國其間含齒戴	-13.7144
隖	-13.7144
㵼	-13.7144
不在險深願陛下追蹤唐虞懷逺以	-13.7144
丫	-13.7144
乃閉門却食服朝衣冠立死井中已而得	-13.7144
也少好學便弓馬東羌校尉何攀	-13.7144
事皆不參預但以金帛購	-13.7144
人淮南交兵書詔多出越手援筆立成	-13.7144
侍御史知雜元帥府掌書記起居郎中書	-13.7144
入諸營部托鬻衣而竊求之遂	-13.7144
兵興元宗召見賜金紫使典戎府書檄	-13.7144
周侵淮南元宗命處常浮海使契丹乞援	-13.7144
因告𩔖於穹旻合流恩於屬縣紀年定厯	-13.7144
堅事大之心必不迫人于險	-13.7144
壬子癸丑間有狂人遍揚市	-13.7144
天有赤龍奮迅而去流星起	-13.7144
安南世子陳表賀成宗皇帝即位	-13.7144
家勢比同舟事資共濟今與東川㸃檢馬	-13.7144
將不見納是以欲起上江征戍	-13.7144
小僅容二人每與后酣飲其	-13.7144
屢加官秩亦荷寵光不幸間諜潛興窺	-13.7144
崇俊繼之盡反仁規之政人懷其	-13.7144
嶽靈禀粹天象儲精藴文武之兼	-13.7144
左耳有一白毫長二尺餘	-13.7144
帝加尊號曰睿聖文明光孝	-13.7144
平陽地震崇明觀陷為池水赤如血赤氣	-13.7144
復東都舒蘄光和滁州惟	-13.7144
才異行各一人或獻書規	-13.7144
握三十萬之甲兵農戰交修士	-13.7144
曰孰謂大卿年老而彌壯	-13.7144
李期李期字世運雄第四子	-13.7144
李流李流字𤣥通特第四	-13.7144
武成元年正月十日昧爽已前大辟罪已	-13.7144
潺	-13.7144
為勤政殿學士國初命兵部尚書陳濬修	-13.7144
父䖍為衙吏禹偁少落拓	-13.7144
獻替不然恐未必能守先朝基業也出為	-13.7144
王萬𢎞李彦德劉知俊桑𢎞志	-13.7144
王食邑一萬五千户實封一千五百户錢	-13.7144
百家之言孫吳兵法靡不誦之	-13.7144
稱流有賁育之勇舉為東羌	-13.7144
穆夫人聞之泣曰置我兒于虎口也	-13.7144
者僕料大朝之心非貪土地也怒人	-13.7144
而妙于騎擊馳突若神	-13.7144
自保大中預史事始撰烈祖實錄二十卷	-13.7144
至瓊林光慶使檢校太保判三司後主孱	-13.7144
蘚	-13.7144
蜀學比於齊魯巴漢亦	-13.7144
襲冠諸部因呼之為步揺其後音訛	-13.7144
觀晉魏顆鬼結草抗秦軍之處賦詩而歸	-13.7144
賜吳越國賢徳順睦夫人珠翠冠帔	-13.7144
躳	-13.7144
車之使造廷則百萬之師不復出矣不然	-13.7144
轉深其疑竟乖魚水之	-13.7144
遂入丹景山從師苦學天成中登第始復	-13.7144
過不勝懷抱暗酸辛	-13.7144
闉	-13.7144
闚之者曙必自外來凡數十年顔	-13.7144
陛下必以臣為罪則請賜誅戮以謝中外	-13.7144
饒州後主襲位召拜神武統軍加中書令	-13.7144
黄晟遣指揮使梁從晊率兵來應我師	-13.7144
黨逃走背軍合和毒藥私鹽茶	-13.7144
鼎新之至理朕上膺睠命俯狥樂推宗廟	-13.7144
母昭裔李昊徐光溥范仁恕歐陽	-13.7146
知祥遣左肅邉指揮使毛重威	-13.7146
諸侯宇内皆知人誰不見至	-13.7146
立節就列鎮以益兵揺動我軍民控扼我	-13.7146
奉天之道祀羣咸秩有感必通雲龍方覩	-13.7146
寧必無侵虐况王氏開國久	-13.7146
有土遂至蠻夷瀝欵士庶傾	-13.7146
軫臨深之懼每念生民塗	-13.7146
募生得興者彦華請行夜縋出城外伏壕	-13.7147
旋汝謹守樂都無使失墜	-13.7147
萇死喜曰姚興小兒吾將折杖以笞之	-13.7147
西襲乙弗大破之獲牛馬羊四十餘萬熾	-13.7147
醺	-13.7147
癕	-13.7147
千羣至城側呌嘯悲鳴遺	-13.7147
林少彊林少良何昌延	-13.7147
父亂命卒傳之昔氏非貽謀燕翼之道也	-13.7147
襍	-13.7147
雄武多才藝能明察善撫納士民	-13.7147
乃贈右僕射同平章事廢朝三日謚文靖	-13.7147
之事願以為慮六月教坊部頭孫延應王	-13.7148
令曰紏而得之者糧賜皆蠲半翌日投書	-13.7148
僂	-13.7148
則叨承𤣥造獲奉皇華載馳得面	-13.7148
又郭璞撰臨安地志云天目山前兩乳長	-13.7148
悉滅特遣蘇張之士來追唐蜀之歡吾皇	-13.7148
有王者氣乃遣侍御史許渾中使許計	-13.7148
王登而望有伺便攘竊者亟命斬之衆	-13.7148
讨	-13.7148
出征引軍旦發至逆旅未曉有	-13.7148
十月漢州什邡縣井中有火龍騰空而去	-13.7148
庸菲之才嗣守宗廟陛下垂覆載之恩許	-13.7148
後主昭惠國后周氏繼國后周氏保儀	-13.7148
括定民賦每正苗一斛别輸三斗於官	-13.7148
授鹽二斤謂之鹽米至是淮甸鹽	-13.7148
朝夕束帶立侍寒暑不變為政亦有	-13.7148
渝合為饋運之衢我已斷之彼何望矣節	-13.7148
自涼馬臺結草筏而渡	-13.7148
門在灼然者為崇文義從	-13.7148
人有㑹集或祭神曙不待召而	-13.7148
仍輟御前四大燭賜焉	-13.7148
以廆立功一隅位卑任重	-13.7148
使人止璵曰海賊為亂道路不通璵	-13.7148
兼述泰寧王燕王九月同行大事兀欲即	-13.7148
别部都督淮南之敗隨堅還長安既而	-13.7148
十年王曰然則軍食足矣可以寛吾民	-13.7148
堅嘆曰其向蒼蠅乎聲狀非常吾固惡之	-13.7148
太子𢎞中常侍嚴震等侍疾禁中	-13.7148
妻併命又遼東以西水潦	-13.7148
建州詔鎬為行營招討洪撫	-13.7148
梯航而入貢五年之内發運無虚積數五	-13.7148
檢校司徒進充本道營田招討	-13.7148
氏老女野合懐胎八十年乃生老子四	-13.7148
而起皝曰此兒易生似鄭莊公長必有大	-13.7148
聶延祚吏部郎中盧撰冊授王守尚書令	-13.7148
臣尚未悉重華曰卿不知乎四	-13.7148
至赴其宴先已飲醉就席酒甫一再行擲	-13.7148
請散財募士格戰期謂	-13.7148
通判歙州刺史朱匡業平居甚謹	-13.7148
頗革心循法度未幾得疾	-13.7148
魏王至七里亭衍備亡國禮以降	-13.7148
麵	-13.7148
丞相元徳昭嘉仁澤之忠以良藥傅	-13.7148
九月以梁熈為持節西中郎將涼州刺史	-13.7148
二籌卿與武子俱得九籌卿贈朕柘弓銀	-13.7148
人父光庭累官至中書令有術士張景	-13.7148
以區區章句取程於庸人遂	-13.7148
以示後代烈祖納其言頗議簡易之法	-13.7148
來因置酒合樂又諭臣曰使人	-13.7148
其無信誓死國事數面誚	-13.7148
其輕脫貪求特以舊人不能離也	-13.7148
喬段融蒲禹卿林罕劉賛張雲李龜禎周	-13.7148
國亡洞過故宫闕徘徊賦詩多感	-13.7148
姦黨元宗謂夢錫曰吾觀大臣中	-13.7148
媢	-13.7148
官私廬舎徙其民于江南周師	-13.7148
官競執長鞭自馬至地	-13.7148
履升殿觀者榮之三月清明節	-13.7148
帋	-13.7148
廷超清道率府率李遵皓左監門率府率	-13.7148
應之書名由是益振遷右街僧	-13.7148
懐柔希稍安於方面而朝廷不以為	-13.7148
昊不能對徐光溥曰康老	-13.7148
曰江南連年拒命知是宰相嚴續所	-13.7148
曰然生怒引佩刀自刺出血曰此亦一淚	-13.7148
李榖曰吾無水戰之具而使	-13.7148
死國主帥司空知左右内史事殷崇義等	-13.7148
氏筆法以善書冠江左初舉進士一黜	-13.7148
江文蔚俱以能賦擅名江表時人謂之江	-13.7148
法律任俗吏人主親决細事煩碎失大體	-13.7148
洞亦不復見省金陵受圍洞猶在城中	-13.7148
濴	-13.7148
猛覘知評賣水鬻薪不撫將士	-13.7148
立堅行廟大赦改建元二十一年為太	-13.7148
紕	-13.7148
自謂為我我亦自謂為我終不知孰為彼	-13.7148
至是了無出師意而留處常不遣處常	-13.7148
興朱氏不道而皇天不親沙陀背義而蒼	-13.7148
蜀地舋自并門既興王者之	-13.7148
表聞取還既至皆喜因暑夕與庭下	-13.7148
辭利南方茶藥珠貝而	-13.7148
述奕世歡好當謀分裂之事契丹主喜問	-13.7148
逍遥園白鷰翔于酒泉衆鷰成	-13.7148
邑使臣入貢皇帝幸以此宣示曰彼若能	-13.7148
郭廷謂泗州刺史范再遇皆舉城降	-13.7148
門稱天冊之樓以㑹府為宣	-13.7148
陵之在北境耳今江陵已束手不能自救	-13.7148
首與先王結好質諸天地王今見利忘義	-13.7148
龔禄住安上縣遙領	-13.7148
上寛仁大度優于先帝但性習未定	-13.7148
中書籍二周后相繼專房燕	-13.7148
也徐鍇為文弔之以比屈原伍	-13.7148
五雲門仍懸玉帛以誘我師	-13.7148
任朝謁非敢拒詔乞緩兵以全一邦之命	-13.7148
伏甲舟中偽立白幟請	-13.7148
何瑱劉瑭何詞李紓鄭翺	-13.7148
充右副指揮使與錢顔攻關子門	-13.7148
劇處置無滯然延接下士	-13.7148
北面都知兵馬使攻昌安門駱團充	-13.7148
十惡五逆屠牛鑄錢故意殺	-13.7148
卒乃失此肉哭聲亦止	-13.7148
君於親賢門下者期以道藝相輔不可悞	-13.7148
哆	-13.7148
嗣基搆表率英雄淮夷之	-13.7148
因登樓建金雞以肆赦太祖聞之怒	-13.7148
奉詔令大王致仕歸臨安昌乃送牌印	-13.7148
展僧藻光僧從允僧𤣥應建州僧僧行雲	-13.7148
展郊丘備禮嚴配式遵欽	-13.7148
屬在朕躬一從踐位以來	-13.7148
巴西郡丞毛植五官襄	-13.7148
庸而首列韓壇奉玉帛而誠先禹貢語尊	-13.7148
張飛為靈應王鄧艾為彰順王	-13.7148
後李昉再奉命祠南岳	-13.7148
所以茂成嵗功寧遂物性帝王取象文質	-13.7148
文炬僧義存上藍和尚僧備僧慧球僧道	-13.7148
曰未戰而奔必有伏兵我師遇之無遺	-13.7148
曰郭氏姦雄雖有國日淺而	-13.7148
朝之暇多開延英殿召公卿議當世事	-13.7148
氣銷聲海嶠之波澄浪息而	-13.7148
然今則不取但存帝號何爽歲寒	-13.7148
狂直多平激之而平又以建白造民籍為	-13.7148
省之告以北方将亂欲避地江淮以全	-13.7148
眄詢訪時務無不盡禮	-13.7148
督戰拒之飛矢滿身流血被體	-13.7148
祀慎思是其言慨然遣之入	-13.7148
章武之時兼漢嗣絶山陽之號共陳天命	-13.7148
而去由是自負反復南北終無挫衂焉	-13.7148
至遷都而滅國賢良塗炭朝市丘墟生人	-13.7148
舉非獨無成亦且有害乃命李金全耀兵	-13.7148
許再思等奮擊之其黨大敗昌愕視而退	-13.7148
邦國大計也聞者韙其言	-13.7148
雖已各有頒賜既經大禮更示殊恩應都	-13.7148
馳驛騎嚴戒前鋒廣宣來者之懷徧諭弔	-13.7148
之効其在城及東川山南武定武信武泰	-13.7149
健今有優給各有等第處分稼穡雖登黎	-13.7149
典犯枉法贓兼渝濫身名	-13.7149
前軍諸鎮都頭節級將士等一時即位日	-13.7149
問罪輕重並與量移其有情無狡蠱事不	-13.7149
安保生聚克成帝業實用武功每思將	-13.7149
已經懲斷者並宜釋罪放歸兼有軍人百	-13.7149
情致令寃濫不問有贓不在赦限左降官	-13.7149
歸本貫所在不得勘問擾攪朕自	-13.7149
覆載春生夏長四時不息	-13.7149
關連逃避諸州縣鎮不敢歸還者亦任却	-13.7149
錦衣鮮華手擎鶻	-13.7151
存齊今秦之所有猶連州累鎮郡國百城	-13.7151
忘前征時言耶今為陛下立神像可歸休	-13.7151
扳	-13.7151
與平淫祀鬼神事繫平大理獄縊死獄中	-13.7151
萇憚而不應萇自立堅神像戰未有利軍	-13.7151
他道徑襲賊壘出其不意必成	-13.7151
佶列巨舟四十艘于清澳海門以	-13.7151
卿言是也但朕已許之匹夫猶重信況萬	-13.7151
枽	-13.7151
正安國功臣進授司徒守湖州刺史	-13.7151
十子皆貴顯國中所著文賦歌詩十卷號	-13.7151
州白石縣巨蛇見長百餘丈徑八九尺	-13.7151
布自言我素貧賤不可忘本也	-13.7151
曰君貴不可言至是謂其徒胡圭	-13.7151
李濤率兵二萬自千秋嶺㓂我衣錦	-13.7151
為俳優盡殺諸將而奪其兵為其黨趙廷	-13.7151
王宗輅𩔖已信王宗傑	-13.7151
秦望山之腹以厭之使回望氣者言必不	-13.7151
蟒	-13.7151
馬作人言銀槍營中井水湧出地又數震	-13.7151
周遂不支鹽而輸米如	-13.7151
必不返然以後事付吾者所謂以雲雨	-13.7151
散廞獨與妻子乘小船走至廣都為其	-13.7151
曰與其閉門作天子與九族百姓俱	-13.7151
筯	-13.7151
管内刺史並授官爵仍賜母妻封邑八月	-13.7151
興以勃勃乾歸作亂西北傉檀䝉遜	-13.7151
許王加食邑一萬户實封二千	-13.7151
顯乃委罪歛成遣使謝傉檀	-13.7151
一目不明孤单年七十二無妻與隣人益	-13.7151
在龜頭裏及後有内附之事人始悟	-13.7151
太祖欲討南漢未决詔後主諭	-13.7151
子武曰我梁山巨武受詔縛賊何謂天子	-13.7151
怪而問之家明曰懼陛下重稅	-13.7151
方至幽州館于愍忠寺先迎御	-13.7151
月至鎮東關遣王朗奉表契丹九月乃有	-13.7151
權即羅平國位印文曰順天治國之印	-13.7151
璛之室馬氏以為繼室不克	-13.7151
畜犬百餘共以一船貯食飼之一犬不至	-13.7151
臣所作帛書甚多此特其一	-13.7151
表門閭同時見旌者尚數家皆五	-13.7151
見沖敏為厲請道士上章訴天數月竟死	-13.7151
㝡	-13.7151
一榻素書數卷與蛇虎雜居不設	-13.7151
一萬兩綾絹一萬疋王遣子惟治進謝秋	-13.7151
三人奔周是月命諸道兵馬元帥齊王景	-13.7151
三十年性儉約而恭靖便弓馬文穆王	-13.7151
不已吾將以汝為奴生曰可不如石勒也	-13.7151
中年宜避風冷自今入見不	-13.7151
以旌敢言然不為輟也未幾后	-13.7151
台執之以降䇿功遷洪州營屯諸軍都虞	-13.7151
四海乃睠益部僻處一隅茍黎庶之獲安	-13.7151
因與坐客傳玩至易忽大言曰殿下有重	-13.7151
太史令韓皓上言熒惑守心乃宗廟	-13.7151
奕等以皝任重位輕宜稱燕王	-13.7151
愕然不敢對惟曰通判醉甚不可當也易	-13.7151
曰君常鄙晟晟知之矣晟文筆不如	-13.7151
有夜坐詩寳松有宿江城詩皆見稱一時	-13.7151
焉以湖南行營糧料使王紹顔	-13.7151
纈	-13.7151
興自平凉如朝那聞冲謀逆	-13.7151
蜀主省上表率文武見任官等望闕瀝	-13.7151
詩曰綵衣我已登黄閣	-13.7151
讀之感愴不怡者久之因棄	-13.7151
長安城中有書曰古苻傳賈	-13.7151
間乃云吾與唐皇帝一如先朝	-13.7151
䂖	-13.7151
七月七日堅如洛陽下書曰士死知	-13.7151
中米斗萬錢人病足弱死者相枕藉國主	-13.7151
也深入近畿頓兵死地二	-13.7151
于瑶光殿之西室時乾徳二年十一月甲	-13.7151
仁璧方昊孫邰石延翰宋榮嚴永范賛時	-13.7151
八月尚書郎周濬等三人奔漢九月	-13.7151
公家墳墓捨此將欲何之故小人亦以是	-13.7151
六根四諦天堂地獄循環果報	-13.7151
劚	-13.7151
効順拜表疏以祈恩託我慈親述乃寢	-13.7151
勅遣西上閤門副使武懐莭	-13.7151
卿獨不從見殺壬辰周師盡破我諸寨執	-13.7151
呑	-13.7151
大旱有蝗蔽日而飛晝	-13.7151
夷校尉加安西將軍奉威刑緩鈍政治不	-13.7151
好號曰美人立賔遐觀以處之	-13.7151
崇徳志道功臣天下兵馬副元帥鎮海鎮	-13.7151
州刺史梁熙謀閉境拒之高昌太守楊翰	-13.7151
師遂授將軍之鉞事非獲已須	-13.7151
庥	-13.7151
徐鉉等厚貢方物求緩兵守祭祀皆不報	-13.7151
得風騷之㫖嘗題桑云綺羅因片葉桃李	-13.7151
性多嫉忌好蔽人之善零陵儒士蔣	-13.7151
掉尾其可免乎惟公善	-13.7151
掌貢舉賄厚者登髙科面評其直無有	-13.7151
方雅多識故事數言朝廷因楊氏	-13.7151
明仁愛識量多竒固足以濟大事然前軍	-13.7151
時周人正陽浮橋初成扼援師道	-13.7151
曰陛下東征西伐所向無敵四海之地	-13.7151
朗兮愛日暉功臣道上兮列旌旗父老逺	-13.7151
李重進急趨正陽曰唐兵且至宜急擊之	-13.7151
東省故機事多委焉夢錫	-13.7151
渭城命太學生明隂陽兵法者教授諸將	-13.7151
然後復茂苑未遲王從之乙未董昌猶	-13.7151
率所部討之鎬為監軍䖍有書生白昌	-13.7151
王命取龍湫于天台山以祈雨九月始	-13.7151
甫暉敗保滁州周師破城俘暉及姚鳳以	-13.7151
病革副使孫羽等代仁贍署表降于周	-13.7151
皆被執外援既絶金陵益危蹙	-13.7151
盡言規正無所撓始雖不	-13.7151
節杜門力學不交人事烈祖受	-13.7151
而賈勇指井絡以長驅中宵火燃兆庶何	-13.7151
能希貫希隱希濬希知希朗	-13.7151
腊	-13.7151
與傉檀通好請於苑内結盟傉檀	-13.7151
與徐鉉喬匡舜潘佑共成	-13.7151
衆十餘萬元宗遣洪州營屯都虞	-13.7151
親祀于都㑹堂是夕大風蝗墮浙江而死	-13.7151
誄刻之石與后所愛金屑檀	-13.7151
走尋之不得頃之見在隕肉之旁己丑劉	-13.7151
越州平王命散府庫金帛以賞	-13.7151
趙王趙帝孤自取之名號大小豈爾所	-13.7151
逺逺字攸逺父操袁州别駕逺少孤為人	-13.7151
遥領邵州刺史九月王以衢州制置使陳	-13.7151
銅駝銅馬飛亷翁仲	-13.7151
鍾蒨朝服坐于家亂兵至舉族就死不去	-13.7151
鎮潤州以昇潤常宣歙池六州為	-13.7151
陳翔鄧元明王先成張扶李道安竇雍劉	-13.7151
靬	-13.7151
騎二十萬東出和龍西出上郡	-13.7151
二也敵人進不捨我退無守路	-13.7151
冊爾為吳越國王於戯服衮衣而佩	-13.7151
勔	-13.7151
吾與李郎骨肉之情固無間也召見慰勉	-13.7151
善謳歌聲韻悠揚清振林木	-13.7151
宫婢持糞埽謂元宗曰此物可惜勿令棄	-13.7151
宫殿朱澄主之雪竹寒林董	-13.7151
寳等攻五雲門王球充右副指揮使與蔣	-13.7151
帛事大屈伸在我何常之有違天不祥好	-13.7151
待罪保生聚以輸誠朕方示信懷來不逼	-13.7151
徽章俾奉先正矧其天文當南斗之分地	-13.7151
方丘六月賜百官飛雪丸	-13.7151
李殷衡倪曙何澤劉濬	-13.7151
沼禽魚徐崇嗣主之圖成	-13.7151
灂	-13.7151
無是四者而坐受天下之兵决一旦之命	-13.7151
王率夫人與王子匿于慈堂	-13.7151
甚也帝曰此殆非人事皇天之意也大漢	-13.7151
百隊夾路排立引馬六十匹歩槍	-13.7151
矜放但念方屯師旅難闕賦征	-13.7151
詩云珠簾髙捲莫輕遮	-13.7151
離臣子事君猜忌生而權變固不可刮席	-13.7151
𥪡	-13.7151
右金吾衛大將軍充大内都㸃檢	-13.7152
下及烝人尚慮疲羸未息艱苦畿内諸州	-13.7152
大散自是子孫失守將相離心	-13.7152
旅以開疆佇遣四民各安其業然後花林	-13.7152
月錦水行春繁華何讓	-13.7152
錢物或保累填陪官中收	-13.7152
小兒數十浩歌道中歌曰酒	-13.7154
度事管内觀察處置雲南八國招撫等使	-13.7154
曰前諸人不能寛李特一年又不以徐士	-13.7154
乳虎以勇聞元宗出師攻福州大	-13.7154
緹	-13.7154
爺	-13.7154
而訥始自稱李平元亦易姓朱	-13.7154
以位號未稱怒不受詔羣	-13.7154
張延通來宣諭仍賜生辰禮物甲寅	-13.7154
有素而節鎮入覲無以兵仗自從之例	-13.7154
請以臣父為始為叩温悉去兵仗	-13.7154
在巴西張羅守合水巴氐	-13.7154
弟璿立大校黎桓篡之太宗	-13.7154
誰白不如歸去来江南有人憶	-13.7154
制勝之道也乃命軍中宿理㠶檣每舟必	-13.7154
外推窮之咸言有一小人衣黒	-13.7154
嫺	-13.7154
延範楊氏遂絶既而嗣主泣謂左右曰	-13.7154
敵退而嘆曰惜哉李公禍自此始	-13.7154
日雷震應聖堂摧兩柱	-13.7154
有扈氏之苖裔子孫强盛世	-13.7154
為名年十二而皝薨哀毁過禮年十八	-13.7154
聞師周至大喜曰吾方南圖嶺表	-13.7154
風門弦未及發傉檀材官將軍宋益等	-13.7154
馳義侯因巴蜀罪人發夜郎兵下牂	-13.7154
仕至兵部郎中直秘閣崇文院檢	-13.7154
以名位不正宜即尊號九月	-13.7154
僧居遁僧洪道報慈長老僧虚中至	-13.7154
命不降光軍其城南五里為一營深	-13.7154
家務或言繼沂亂内夢錫	-13.7154
嶪	-13.7154
拍手歌或疑為陶夫婦云	-13.7154
新安侯傳璛霅國公傳璟	-13.7154
既醉歌舞道上其歌曰藍采和藍采和塵	-13.7154
柝	-13.7154
為名倍物相聚是為利彚首而芸芸是為	-13.7154
石城古渡頭一望思悠悠	-13.7154
立西王母祠以禆朝廷無疆之福駿從之	-13.7154
衆一萬據逆萬堡宻信	-13.7154
褐與老嫗賣藥得錢則沽酒市鮓相對飲	-13.7154
詩上䟽曰殿下以曺操父子逼主	-13.7154
里民相告曰官今大赦有司以聞堅驚謂	-13.7154
七千户仍改賜保邦宣化忠正翊戴功臣	-13.7154
下皆以胡羯鮮卑氐羌豪傑為之	-13.7154
中遷於度堅山建元七年秦將	-13.7154
五月五日燒死世人為其忌故不舉餉食	-13.7154
人自外躍劍刺之茂忠以拐自	-13.7154
仁肇率敢死士千人以舟實薪芻	-13.7154
僕少處山谷莫預世事不知	-13.7154
儈	-13.7154
兵但援漢川猶差二門耳臣	-13.7154
劉崇俊字徳修楚州山陽人祖	-13.7154
劉徳輿曰長安千門萬户是公家百姓	-13.7154
劉檀杜何温顗房諤費宗陶王朴	-13.7154
十三為國置單于臺於渭城置左右賢王	-13.7154
去後主益甘其言晏然自安命户部	-13.7154
右殿直王蓍來宣諭仍賜國信	-13.7154
合士衆將以討賊今大敵未	-13.7154
姓而王七月者七十有三國繼趙	-13.7154
季良請以東川先取遂閬然後併兵守	-13.7154
岳州刺史以客省引進使任鎬	-13.7154
州團練使姚鳳為應援都監帥師三萬屯	-13.7154
廬山學詩於陳貺精思不懈	-13.7154
忼	-13.7154
政無所醖藉温留知諫	-13.7154
故喬公一言魏祖追慟趙司𨽻	-13.7154
暉告丁零翟斌聚衆四千謀逼洛陽	-13.7154
曰虎山林之獸而人化之入	-13.7154
望攀鱗附翼今不正大	-13.7154
浮橋則我背腹受敵乃焚其芻糧退屯正	-13.7154
烏丸審廣漸裳郝襲	-13.7154
用此自怡一日内臣趙海	-13.7154
當歸錢氏昌建生祠諸郡置土馬有誑	-13.7154
秃髪烏孤秃髪烏孤河西鮮卑人	-13.7154
筵元宗南遷駐于寺見其詩稱善	-13.7154
絛	-13.7154
絲綸王言可徴拜侍中中書令領京兆尹	-13.7154
羂	-13.7154
羊食人悲哉無復遺堅命執之俄而不見	-13.7154
義棄城去文徽信其言襲福州大敗被執	-13.7154
而先自立恐人心疑惑昔高祖	-13.7154
胡之在北亦此之憂今平居有東北之虞	-13.7154
茸	-13.7154
行時風雨大作諸節鎮無一人至者	-13.7154
行暴得疫疾委頓不克	-13.7154
裕李珣尹鶚張蠙牛嶠牛希濟趙㽔鄭藝	-13.7154
西苑牝鹿生角東苑銅佛生毛延興地震	-13.7154
言吳越戍兵亂殺李仁逹而遁	-13.7154
論者或言晉家必責質任及	-13.7154
豪舉跌宕不能蹈䋲墨遂	-13.7154
足矣季良曰將士大夫盡節效忠於殿下	-13.7154
鏡山為衣錦山大官山為功臣山秋八月	-13.7154
閘	-13.7154
陳覺言謀奪朱元兵以楊守忠代之	-13.7154
隣好之講睦况有姻親之舊敢交玉帛之	-13.7154
雖髙于列土殊榮未繼于肯堂得不申加	-13.7154
飛龍率氐騎一千為垂之副丕	-13.7154
馬擲人多有中者衆甚憚之	-13.7154
黒雲長劒所與舉事者劉威陶雅之徒	-13.7154
下吏而流驤七八千人來寇	-13.7154
乃取老子功成名遂身退之意	-13.7154
之業九族敦睦陛下何由得之	-13.7154
九寸腰帶十四圍善于俯仰時人異之	-13.7154
二十五日夜三更三㸃親領	-13.7154
五千户實封五百户仍賜御服紅羅真珠	-13.7154
人險保無他慮當體優隆國有舊章不	-13.7154
以夾縑囊貯白龍腦數	-13.7154
僧慟泣不能自勝衆咸怪之	-13.7154
元叛元宗議親征召匡業及統軍劉存中	-13.7154
元宗欲傳位齊王景遂詔景遂總庶政	-13.7154
公權皆得十九購藏鍾王	-13.7154
六世之業一旦而墜地也天錫大懼遣使	-13.7154
十隊引前歩槍五百人隨後去城	-13.7154
在府及州縣鎮軍人百姓先因侵欠官中	-13.7154
奴才雖億兆之衆尚不足為慮	-13.7154
妨農時三月丁未頒中正	-13.7154
婦人以黒繒為衣其長曳地又	-13.7154
對曰運數之興天地皆助大事若去雖英	-13.7154
少來時及五十指揮皆在都下	-13.7154
屋舍莊田除已有指揮及	-13.7154
師遇傾火油焚北船適北風反	-13.7154
平州刺史苻冲帥幽并人衆	-13.7154
延使副中散大夫尚書司門郎中柱國賜	-13.7154
怦	-13.7154
悉以分故人親戚之貧者此天下之	-13.7154
懌禮部郎中崔鈞授王天下兵馬元帥	-13.7154
懸之有頃瀝液如注香味	-13.7154
時未設貢舉士有獻書論事者	-13.7154
書少監父恁贈光州刺史繼贈太	-13.7154
檢使嚴而無私犯令無所貸	-13.7154
欲罷桂陽之師解益陽之戍即授	-13.7154
歙婺衢睦觀察使璋為衢婺副招討使璋	-13.7154
正二國之土疆錫九天之寳瑞表予嘉命	-13.7154
湴	-13.7154
無禁濟隂人宗正謙善卜相西至長安賣	-13.7154
無處營生者並宜給還却據元額	-13.7154
當受禍金鼓之聲澌澌然殆有大喪	-13.7154
白龍見處州長松縣遂更為龍泉縣是月	-13.7154
給自去年八月已後十月已前繼有指揮	-13.7154
而况今日之事耶地莫險于	-13.7154
而惑人主至譏笑烈祖戢兵以為齷齪無	-13.7154
菘	-13.7154
裂東北其長二十丈保大十四年春正月	-13.7154
起曰子嵩事必中變政事僕射安若	-13.7154
逺遭時被知得盡已才感	-13.7154
還朝授神衞統軍周侵淮南中外震駭	-13.7154
邊帥無所可否愈欲以大言	-13.7154
雪氣如煙而味苦夏四月淮人以	-13.7154
魏復姓冉氏追尊祖隆元皇帝考	-13.7154
􁔡	-13.7154
表為秘書郎夢孫數自言迂儒無	-13.7155
得制書匿之表留季良不	-13.7155
今月二十九日酉時得東川相公來書云	-13.7155
以東川相公慮其稔惡須議推兇連興貔	-13.7155
其日平明打破斫到李仁矩首級并捉到	-13.7155
劉纂崔善仲廷預李仁表姜誌韋	-13.7155
請兵師欲結禍階自為戎首所	-13.7155
一利焉何用棄徳修怨自生仇	-13.7157
也羣臣多不欲惟樞宻使唐鎬賛成之	-13.7157
洪州曰建康與敵境隔江而	-13.7157
汶山太守而屯故如此謂失之毫釐差以	-13.7157
竞	-13.7157
玳	-13.7157
出師數萬為之聲援甫出境而守貞	-13.7157
庚戌温州刺史朱褒卒兄敖代之	-13.7157
臟	-13.7157
主本好古務農甚悦其言使判司農寺平	-13.7157
申天師馮僊彭曉丁元和韋昉屈突無為	-13.7157
觗	-13.7157
張羅進據犍為之合水巴蜀為	-13.7157
李儼趙匡凝鍾匡時雷彦恭譚全播	-13.7157
理嚴重禁戢左右賔禮	-13.7157
甪	-13.7157
鍍	-13.7157
降人天水趙攀閻蘭等夜	-13.7157
院續言多不見用求罷拜鎮海軍節度使	-13.7157
丹陽州人凡有期必曰待錢來斯之應也	-13.7157
周穆王見西王母樂而忘歸即謂此山	-13.7157
唐同光末諸郡多亂彦儔亦樂	-13.7157
彭白狼率東宫禁兵討之斬厥赦其餘黨	-13.7157
恬于仕進暇日鼓琴圍	-13.7157
楊僕為樓船將軍出豫章下横浦	-13.7157
為戈船下瀨將軍出零陵下離水	-13.7157
適意豈能愛死而自不足於心	-13.7157
不能竟尤喜劒士角觝之戲怙温權勢多	-13.7157
使退如初服十二月置龍翔軍以教水	-13.7157
導之水患稍息元宗嗣立出	-13.7157
左街使金陵數大水秦淮溢東	-13.7157
意詩人或以洞言者洞遂獻詩百篇卷	-13.7157
指東南陶語人曰國其㡬亡乎	-13.7157
擺	-13.7157
曰世豈無麟鳳國家自遺之耳	-13.7157
正月上崩成宗皇帝即位詔罷兵	-13.7157
沈崧草謝表盛言浙西繁富成以示	-13.7157
禁南越闗市鐵器佗乃僣	-13.7157
紛紛事更多何如賣藥沽美酒	-13.7157
綏政在三異道在七絲驅雞為理留犢為	-13.7157
衆實一心之變也始則無物終復何有而	-13.7157
隱曰今浙西兵火之餘日不暇給	-13.7157
𬋩	-13.7157
不行百貨不通二也銅禁至嚴民猶盗鑄	-13.7157
之實難聞者愕然以為過及後如所料乃	-13.7157
以狗馬馳射博奕為豪夢錫少獨好學善	-13.7157
以讃禮之文寓諸樂譜其聲少下而終歸	-13.7157
十嵗比其二十吾已老矣	-13.7157
國亡主易故也今日義舉主榮臣	-13.7157
墓中應曰蜀王在此不得相從二人	-13.7157
彭城内窘蹙初年米每斗五千第	-13.7157
彰憲等入見驛馬至支凌	-13.7157
戲魚之鼎使肌骨重生	-13.7157
斗牛無孛兮民無欺吳越一王兮駟馬歸	-13.7157
棘愚臣庸鄙請避賢路堅曰機務俟才允	-13.7157
皆以皇弟加爵而恩未及臣下	-13.7157
章勃然曰言已出口豈	-13.7157
耶當何靣目復臨天下也澘然流涕	-13.7157
與相劇談至夜分乃罷其論國	-13.7157
舊錢皆流入鄰國一也可用于吾國	-13.7157
覆臣如天養臣如地恣臣所安至	-13.7157
許德勲李瓊秦彦暉王環高郁	-13.7157
遽復七也錢者國姓易之不祥八也王	-13.7157
重豈當減削昔劉氏郡守令長方仕州郡	-13.7157
鎬入潭州湖南悉平百官入賀逺獨曰我	-13.7157
雅州安置王司徒慮其生變縊	-13.7157
難治崇文一以法治之不少貸訟為衰息	-13.7157
音讃念協律自應之始	-13.7157
頗繁翁媪怒曰自家官自家家何用多拜	-13.7157
之身坐制元元之上思所以舉而	-13.7157
二千户實封六百户仍改賜開吳鎮海	-13.7157
佐郎天成中朱守殷鎮汴州辟	-13.7157
傑作乃徙貞觀處席北洎處席南	-13.7157
入其城城有三重廣輪與長安城等城中	-13.7157
兵馬使尋授安國衣錦軍防遏指揮使	-13.7157
出苕藋奮臂大呼涼州不足定也羅仇曰	-13.7157
則虞舜之全文右則姬昌之半字	-13.7157
加刑冲何人哉遣御史中丞浩衍持節斬	-13.7157
勌	-13.7157
又有驢無皮毛袒肉飲食數日	-13.7157
各一副秋九月王遣元帥府掌書記黄	-13.7157
合圖之未易也特從之復進攻微微潰圍	-13.7157
后少以戚里間入宫掖聖尊后	-13.7157
命丞相吳程知福州威武軍事庚戌	-13.7157
命奄棄社稷訃告至日臣不勝痛切膚骨	-13.7157
國不幸即世顧命之夕顯令兄	-13.7157
國人歌曰誰謂九龍帳惟貯一歸郎	-13.7157
天泉閣李徳誠曰陛下應天順人惟宋齊	-13.7157
天波然則盡節輸誠安足以贖臣	-13.7157
安城中雞鳴音皆曰基慈安定㕔事前後	-13.7157
尚少不習軍旅事遣使召還都部将趙	-13.7157
尚矣今唐祚中興與漢頗同而眇眇	-13.7157
度餘律重新雅製非子而誰誠吾有	-13.7157
復遣知制誥李穆為國信使持詔來曰朕	-13.7157
推忠而丹赤貫心今則已逺龜	-13.7157
撥土取花子三粒種之須	-13.7157
擒之若舍而寛之微養病	-13.7157
文揖貞觀南坐引洎坐	-13.7157
晨昏烏反哺以知恩竊將比喻雀	-13.7157
有中使賜衫笏加官即日而終	-13.7157
有人指之曰此伍喬星也既覺訪得喬	-13.7157
服入見王叱之不退猝愕入義和院進思	-13.7157
毯	-13.7157
潘佑廖居素趙仁澤段處常	-13.7157
爵闗内侯者二千餘人以洪為闗内領侯	-13.7157
碎膽不足以報君之恩幸得捧日傾心歸	-13.7157
終以諒直多之及即位首召見慰勉欲用	-13.7157
而殺之衆推則為刺史號令肅然莫敢不	-13.7157
至千斛經十年不敗士卒淪	-13.7157
誰復别楚蜀者乎論者或不	-13.7157
謂俯拾青紫乃詣金陵求舉屢黜于有司	-13.7157
遐願垂前席之言特加敷奏冀遂保家之	-13.7157
遣閤門通事舍人李韞授	-13.7157
酒時有宋貞觀者首就坐張洎續至主司	-13.7157
雖亡家國喜歸有道之朝縱别鄉園幸在	-13.7157
雖忠于唐唐已亡矣此所謂天與不取	-13.7157
黨惡其不附已坐封駮制書貶池州	-13.7157
一眼傖夫望英風而膽	-13.7157
不寫愚心辜負恩顧謹進悾悾伏願罪戮	-13.7157
主躬覽庶務大臣備位安足致理元宗果	-13.7157
之態詭譎不測不可不重以	-13.7157
之險非可遽前堅壁清野絶其	-13.7157
云曉月墜宿雲披銀燭錦屏	-13.7157
以繼岌為西北面行營第四招討	-13.7157
來歸我先王之賵又遣引進使楊彦珣授	-13.7157
侍御史判臺事張宣為左街使恃功驕	-13.7157
傾危忍不赴救已發大	-13.7157
先立寨整衆俟所招親故來得其實徐	-13.7157
兖州據廪丘挾南陽王恢為盟主宣太后	-13.7157
入長沙不傷同氣臣其敢不盡節	-13.7157
其優劣選用烈祖悉以委延翰號為精	-13.7157
利元宗輔政謂人曰張君議論公正處事	-13.7157
功也仍遣供奉官寗全道賜王旌	-13.7157
南風而永懷庶幾撫我指	-13.7157
博書曰昔年得李流牋降心	-13.7157
司馬福等率師救姑蘇内外夾攻生擒淮	-13.7157
唐莊宗實錄同光二年七月戊午蜀	-13.7157
外二十里方山寳華宫元宗亟命齊王景	-13.7157
婺州為武勝軍授王兄元懿為	-13.7157
實無他長紀綱頽弛吏胥用事軍旅一切	-13.7157
岑陳覺查文徽侵損時政時人謂之五鬼	-13.7157
年銅鐘安國寺有順義三年鐘	-13.7157
延魯曰兄自能如此弟不能愔愔待循資	-13.7157
徴今年夏税每貫量放二百文今年正月	-13.7157
必令植立庭下吏慚憤死茂忠還朝病金	-13.7157
恰	-13.7157
意足下國中必有矜智好謀之臣獻尊主	-13.7157
政將何所議乎昔漢世祖數年之間	-13.7157
方干見之謂曰此宗廟中寳玉大圭也	-13.7157
旅常思任用以救棲遲兼勸進官僚人數	-13.7157
時遇隂霾即加痛楚至是疾作臂不	-13.7157
暫偷目前之安不為身後之慮衣朱紫者	-13.7157
曰書記自有常職餘各有司存何	-13.7157
柴再用帥昇潤池歙兵納	-13.7157
樂則上下之情將何以通簡易之	-13.7157
清為永新制置使每數月一託疾不坐衙	-13.7157
為陛下自相驅除耳且臣家若能奉武皇	-13.7157
燕交音洋洋接色蝶亂落花雨晴寒食接	-13.7157
特以相授山南之事一以委卿	-13.7157
玉壘關謂所親曰吾唐室諫臣終不能拳	-13.7157
王壇為宣州制置使數遇不朝之罪	-13.7157
瑜葬宿松即墓為祠子孫居其	-13.7157
皆韙之以謂裴冕損怨無以加此	-13.7157
碌	-13.7157
礌	-13.7157
祊	-13.7157
立齊王璟為皇太子仍兼大元帥	-13.7157
紹聞洽死忿恚發病	-13.7157
而遣漢榮漢榮聞之夜使人殺	-13.7157
肉旁常有哭聲晝夜不止聰甚惡之	-13.7157
膺多福徒切依仁之戀難窮報徳之情望	-13.7157
臣服甫數日已覺炎躁	-13.7157
自稱鰥夫煜其辭數千言皆極酸	-13.7157
舟浮海猶足自全豈能以萬乗之主而屈	-13.7157
著樂章百餘闋其鶴沖天詞	-13.7157
號九華先生封青陽公食青陽一縣租稅	-13.7157
衢此夜一輪滿清光何處無	-13.7157
買外餘無人射買者有本主及妻兒見在	-13.7157
賞拜信州刺史人皆多敬洙而薄建封	-13.7157
軍謂西河可全吉凶在身元龜不逺宜深	-13.7157
返數千里師旅罷敝此在兵家為有可	-13.7157
遂至大漸臨終謂元宗曰吾服金石求長	-13.7157
部侍郎盧詹刑部郎中楊薫賜王國信湯	-13.7157
長七尺八寸雄毅善權畧	-13.7157
長百餘丈大艦容千人令贇所	-13.7157
門則大軍雖來吾無内顧	-13.7157
陳偓盧膺鄧伸李璵	-13.7157
陽沔梓潼太守張演委倉庫走巴西	-13.7157
霰	-13.7157
顧謂羣臣曰方難未靖宜立長君言終而	-13.7157
駕戎輅而握兵符名尊	-13.7157
黒龍潭也絶岸數丈深不可測又	-13.7157
威人叶勇力遂至元兇斬首同惡就擒我	-13.7159
師四合以環圍逆壘一攻而瓦	-13.7159
想與士民同多慶快見便乘勝前進	-13.7159
訖餘城下見機來投指揮使都頭	-13.7159
二十七日將手下元戎兵士抛本州下水	-13.7159
是控臨之地妄興謀畫濫置節旄及	-13.7159
􁎾	-13.716
利于黎元可也有利于天下可也有	-13.716
及吾世修城隍治要害為子孫計	-13.716
常有數十妻妾乗輜軿當時貴重	-13.716
息矣若介然不移有利于	-13.716
敵使赫赫南國将成禍	-13.716
廬舍或吸居人浮空而去數里方	-13.716
軒渚遂絶其糧康儒等由清溪而遁	-13.716
上言乞桐棺葬近地後當尸解	-13.716
彭城郡開國侯食邑七百户秋七月丁巳	-13.716
衆新築羅城自秦望山由夾城東亘江干	-13.716
身長八尺四寸目重瞳子左肘	-13.716
倚朝廷以制隣敵傳國三世有地數千里	-13.716
刑部員外郎夏侯昭冊封王為吳越國王	-13.716
前告曰大王明年錢塘官滿及寤頗惡之	-13.716
苓	-13.716
􁔱	-13.716
元宗初欲按軍法誅覺延	-13.716
前湖州刺史大彭縣開國男食邑三百戸	-13.716
敬瑄不受代昭度於城東置行府以建為	-13.716
有人登此山見崩土中有文石石文鮮明	-13.716
厘	-13.716
居内庭恣行權柄幻惑少主	-13.716
恩於覆載欲嫁禍於勲賢叠以封章疏其	-13.716
憤激衷罄言而誘諭彼既不	-13.716
方今宜主秦祀者非殿下而誰願	-13.716
沉無問處千載謝東風皆	-13.716
洛陽洪率部人西保隴山	-13.716
道䖍劉我生聚離間我忠良爾外示叶同	-13.716
張佖知禮部貢舉放進士楊遂等三人清	-13.716
教所生子為善士韓熈載使江	-13.716
朱直管曹師雄王知新等	-13.716
殿學士張洎言佖多遺才國主命洎考覆	-13.716
道走犍為太守魏紀殺江陽太守姚襲	-13.716
遜聞男成死泣告衆曰男成忠	-13.716
雜户入長安姚丕守渭橋胡翼度屯石積	-13.716
主書司典胡人出内重其	-13.716
二月琦等送離母子於尚尚斬之分其室	-13.716
使瘡痍下民易虐上天難欺賦	-13.716
便為王女為公問在何所洛門東東海	-13.716
切軍國是資朕之爵賞固不踰時爾俸爾	-13.716
君及妃墓皆稱陵惟武皇帝之配李氏曰	-13.716
天錫自以晉之列藩志在保境	-13.716
寛猛得所風俗可移無令侵削	-13.716
封也時為龍驤將軍第在洛門之東生	-13.716
慣	-13.716
投杼致慈親之惑乞火無	-13.716
昭劵専掌用兵程昭恱掌應援饋運	-13.716
晛	-13.716
曰一人勝一人審知方侍潮	-13.716
甲戌詔臣僚三品以上追贈父	-13.716
等可持兵來吾亦衷甲為内應既夜六人	-13.716
陽古墓中聞人呼墓中鬼曰潁州設無遮	-13.716
風自西北而下危檣巨艦勢若雲合我師	-13.716
七贈給事中謚曰良後主欲修國史訪稿	-13.716
不出百僚饑弊或至申酉	-13.716
不能給是吾過也赦筠妻子不誅厚遇之	-13.716
以仲冬有事圜丘思與卿同	-13.716
佛圖澄殿上褰衣而行吟曰	-13.716
作灌口神隊二龍戰鬭之象須	-13.716
使宋公攝政陛下深居禁中	-13.716
修身但勵志以為文每棲身	-13.716
僕射任羣為光禄大夫領太子家令朱	-13.716
僕射何瑱亦來祭我先王	-13.716
元年八月改授禮部尚書遥領邵州刺史	-13.716
先持告身示之曰今日受此	-13.716
十餘里臺榭亭沼窮極奢侈	-13.716
却之曰子嵩三十年故人豈負我者齊	-13.716
反以為戮信義俱棄吾知爾禍不旋踵矣	-13.716
和尚保大中至金陵知人禍福死生所言	-13.716
嗣性既嚴急誅杭越侮法吏三人而	-13.716
圍城中放進士孫確等三十八人	-13.716
城有白露屋及防城物亦令	-13.716
大雨雹明日灌口奏岷江大漲	-13.716
小過掌書記孫峴苦言規正	-13.716
帶飲食之器悉皆中金所給俸賜復數倍	-13.716
張漢思不稟朝命俾王責之	-13.716
成周内史崔燾居就令游泓武原	-13.716
攣	-13.716
既長夫人皆均養之常置銀鹿于帳前坐	-13.716
曰今王室雖衰天人未厭大王興	-13.716
术	-13.716
歸中原有主安輯稍定則未可	-13.716
為看之朕時與武子俱為盛徳頌卿稱善	-13.716
畎	-13.716
絁	-13.716
者順也凡天下之事皆然也逹者知我無	-13.716
聲震數里聞者莫知所為崇文指揮	-13.716
西河任羣忠貞淑慎處士	-13.716
言及必流涕厚䘏其孤後主立進封江王	-13.716
謂李昊徐光溥曰王衍浮薄而好輕	-13.716
賜予家明謔之曰賤工無伎	-13.716
走庭下矣曰此素志也庸何傷	-13.716
送之因命王猛為書諭天錫曰昔貴	-13.716
開寳元年始議立后為繼室命太常	-13.716
㾗	-13.716
不宜逺離都邑當委大臣征討	-13.716
丘不賀今辭與事違恐非致澤之意也	-13.716
事有詩云乾坤見了文章懶龍虎成	-13.716
云佳城今已開雖開不葬埋漆燈猶未爇	-13.716
京畿可得精兵十萬足以横行天下	-13.716
位永孚于休戒之慎之勿忝前烈十二月	-13.716
位非子者蓋以泰伯三讓周道以興故也	-13.716
低宫漏出花遲又歸國謡詞云江水碧江	-13.716
佐之徴古習驕嫚至鎮專恣尤甚景遂積	-13.716
使晞為公左彌為公右天	-13.716
儒學該通引為東庠祭酒	-13.716
先向清口師古敗從周自走	-13.716
全而為幸庶使先君寢廟不為樵採之	-13.716
其食味有鷺鷥餅天喜餅駞蹄餤春分餤	-13.716
内苑圖列古聖賢之像	-13.716
凡欠一斗者多至徒罪徐瑒常使	-13.716
力則禮崇賞不失勞則人勸所以	-13.716
務恭謹禮接文士謙謙若不足其所談論	-13.716
勤恪居職則寵光至矣何用行險	-13.716
勿與賊爭利吾當出隴	-13.716
南山石兮髙穹窿夫人墓兮在其中猿啼	-13.716
君五帝垂衣六合順無為之化其或未知	-13.716
周后尚㓜未知嫌疑對曰既數日矣后恚	-13.716
命鄂州屯營使李承裕段處恭	-13.716
命𫝊十餘篇以著述之功封平樂亭侯	-13.716
哀有地蒼蒼何辜殱予伉儷窈窕難追不	-13.716
嗜欲既勝悲歎糾紛縁情	-13.716
國燒棧為謀稱雄雖處	-13.716
國諸侯所以守舊邦書曰惟帝念功王者	-13.716
國遺聲忍乎湮墜我稽其美爾揚其祕程	-13.716
坼	-13.716
埳	-13.716
堋	-13.716
士方酣飲乃迎還宫道士皆誅死耿亦不	-13.716
大咤驚其坐人以故不為時所親附然既	-13.716
大饑糓價踴貴斗米直錢五	-13.716
天所相可共受事於前軍以為成	-13.716
天歩抆血撫櫬邀	-13.716
奮躍先登攻堅摧鋒蒙犯矢石身無完膚	-13.716
如故仍令所司擇日備禮册命主者施行	-13.716
如雉而大尾有火光如散星	-13.716
寶等至雲中聞垂疾皆引歸	-13.716
將加其罪著作郎趙泉車敬等已死乃止	-13.716
少事宣州節度使趙鍠為給使	-13.716
巘	-13.716
帝欲親拒周師中書舎人喬匡舜極	-13.716
師南伐水陸並舉百道俱進豈暇俱絶其	-13.716
廟號太祖祖察為孝景皇帝廟號世祖考	-13.716
建州軍無節制大掠數日民不堪	-13.716
張延翰字徳華宋州睢陽人	-13.716
後方鎮阻兵道古上疏言五危二亂七事	-13.716
意乃命洛陽為南都置行臺治書侍御史	-13.716
慕容盛慕容盛字道運寶之庶長子	-13.716
戇	-13.716
成都之十里陌堅衆自潰勢	-13.716
我心無憂物莫能亂絃爾清商艶爾醉	-13.716
戲之曰沈道者何日道成	-13.716
所蹤追悼良時心存目憶景旭雕甍	-13.716
故實上瀆宸聰竊念劉禪有安樂之封叔	-13.716
數居柄任揣元宗不能察其	-13.716
文徽暗而貪功即率誨俱進誨以	-13.716
斬之而自拘有司左右諌止初景遂之出	-13.716
方一意任之不許其去遣使勞問賜良藥	-13.716
方夏重名器任股肱忠而	-13.716
於萬乘呈才皆過於千金載觀戀主之心	-13.716
春媚愛語風香瓌姿禀異金冶昭祥婉容	-13.716
是出好爵匡我堯緒永為漢	-13.716
時誚之曰執節分符始作大軍之帥	-13.716
景福中舉進士釋褐為著作郎遷右拾遺	-13.716
曰此皆先帝所寳城若不守汝即焚之無	-13.716
曰臣草野之人漁釣而已邦國大計	-13.716
曰車駕南廵纔堪飲馬爾	-13.716
月辛酉朔二十七日丁亥皇帝若曰王者	-13.716
有之彼無路光亨而進以拊	-13.716
有西王母棗冬夏有葉九月生	-13.716
本名復名髙其優名也寓	-13.716
桃薦實畏日流空林彫晚籜蓮舞	-13.716
歎曰國之不亡以我數人在也今其殆矣	-13.716
江夏人父守忠遇亂流徙湘湖事馬氏	-13.716
津貲盈世逸樂尠愁殷沉烏逞兔茂夏凋	-13.716
海神當畏之竟遣行景遂在東宫十三年	-13.716
湘中謡言馬去不用鞭至是而驗	-13.716
為太后以父名改稱聖尊后后	-13.716
無不亡之國降亦無由得全徒取辱耳	-13.716
王保義司空薰倪可福鮑唐	-13.716
王如故依前不名仍示安重誨矯誣之罪	-13.716
用竭臣子之孝不圖天未殄禍	-13.716
甲申茍萇濟自石城津與梁熈等㑹攻	-13.716
病疽鉉戲謂人曰周孔亦	-13.716
百姓並不傷動外餘拒敵黨𩔖殺戮無餘	-13.716
知詢為代中外岌岌人無固	-13.716
知貢舉放進士王崇古等九人	-13.716
禄卿王父藴玉贈秘	-13.716
禮部員外郎羅衮授王吳越王冊禮	-13.716
笛扁舟逺送瀟湘客蘆花千里	-13.716
簡冊贈典既無其官爵易名宜示其優崇	-13.716
紏乖戾以正典刑小則上	-13.716
罪羣臣震懼莫不含辛以為淚髙陽王	-13.716
而氣出指端如二白虹旋繞匡國頸	-13.716
能拓定中土王有京雒終不足言也	-13.716
自江北鴛鴦碕渡向犍為	-13.716
至皆伐木開道壺漿奉迎既	-13.716
舉賢良方正孝亷清才多	-13.716
落勢還同舞勢斜坐有賔朋尊有酒	-13.716
藥非親嘗不進衣不解帶者	-13.716
蟬響吟愁槐凋落怨四氣窮哀萃此秋晏	-13.716
謂曰不恃權不行私惟至公是守	-13.716
謂魏王布惠真宰垂仁入臣境無犯纎毫	-13.716
貶匡舜臨川親行之議亦寢	-13.716
贈遺一無所受特聽縞巾素帶居師友之	-13.716
越云三更已聞獐麂號呌達曙問	-13.716
連月昏醉弗堪省覽	-13.716
運陳平之六竒飛魯連之一箭塲中勍敵	-13.716
遐逝嗚呼哀哉該兹碩美	-13.716
避位祈禳元宗曰此固吾意	-13.716
邊事大起克敵之功莫先克宏者	-13.716
金籙醮于東府龍瑞宫其夕大雪惟醮壇	-13.716
銅錢一直鐵錢十比國亡諸郡所積銅錢	-13.716
錢五百萬築城聚糧大為守備閏十月	-13.716
鐘有節數喜而召之與剃度為僧而童子	-13.716
關東不毛之地題曰唐左補闕張道古墓	-13.716
陳平均分之比遍賜猶餘其半	-13.716
雲路之可窮兾傳情於方士嗚呼哀哉	-13.716
霄行止遂離於塵俗且口	-13.716
食咨嗟者旬日此田舎翁安能成	-13.716
魏武撫明帝之首遂乃侯之祖之愛孫有	-13.716
齕	-13.716
龍頷編虎鬚繕獻㨗之師徒	-13.716
􁱝	-13.716
事于此鬼神有祠廟丘壟	-13.7162
其所吾行不欺暗室奚畏君等語訖皆	-13.7162
其黔南節度使今見在梁溪	-13.7162
冇	-13.7162
討伐招收使狀報黔南節	-13.7162
黔南安慰至今月二日午時	-13.7162
兩國之情重固千年之約愧非縟禮粗	-13.7163
余旌斾念其智勇足可嘉稱且謀不自	-13.7163
飫	-13.7163
降臣折情雄乃殺之囚其軍士	-13.7163
獲之可建大利江南國貧地狹民少得之	-13.7163
凴	-13.7163
善騎射属劉氏之亂乃散千金招延俊傑	-13.7163
因燕見及之元宗笑曰殊不知彦	-13.7163
孟津河東去鄴城五里有濟北郡	-13.7163
平逺將軍不受自稱䕶氐校尉秦州刺史	-13.7163
御大安門受秦鳳階成之俘大赦	-13.7163
曰雨若不止洪水必起故	-13.7163
而殺之諸州牧守及六夷渠帥盡降於秦	-13.7163
遣禮部尚書李懌户部郎中姚遐	-13.7163
郎君聰明智哲預知九十年事遂書九十	-13.7163
順命令堅私約袁州刺史劉茂忠	-13.7163
舅羅演與漢王相天水上官澹	-13.7163
補金州觀察使割渠巴開三州以𨽻之	-13.7163
不出三年國有大喪大臣戮死願陛下	-13.7163
其夫死與前婦之子通當極法與絳同	-13.7163
帝嘉之賜王御服夾襖子一副仍降御札	-13.7163
忽去人逺吾道蕪塞其誰與明乃著為雜	-13.7163
所乗赤馬曰朱龍日行千里	-13.7163
曜自隴上西擊凉州遣將軍劉咸	-13.7163
袁韜來賀即位乙亥追封故髙平王景遷	-13.7163
西軒命左右讀唐書數篇又	-13.7163
詣府城面較功績以决其可否行思遂来	-13.7163
之旌鉞册以輅車雖加等之寵光爾皆不	-13.7163
人相攻則江淮益安宻請厚其	-13.7163
令訖事不失常度竟亦不問後主	-13.7163
以東宫舊僚用事欲稱遺詔奉后臨朝	-13.7163
以正月二日與母親并姨舅兄弟骨肉等	-13.7163
使己未漢使集賢殿學士鄒禹	-13.7163
僕射太子舍人趙誨為中䕶軍著作郎	-13.7163
元宗遣覺奉表貢方物覺至迎鑾見周	-13.7163
入諸軍繼進賊大潰積功遷至諸軍都虞	-13.7163
全宗祀不意如是今有死而已時	-13.7163
兼知尚書省事與張居詠李建勲更日入	-13.7163
北郊行思自取巨槌擊殺環	-13.7163
周公之土宇列漢祖之膏腴者	-13.7163
唐兵來討彦儔自計不能守匿	-13.7163
國都矣人情恟恟則舟中皆為敵國忠義	-13.7163
坐秦王重榮事奪官南奔烈祖輔	-13.7163
大喜曰爾亦知此為必爭之地	-13.7163
太微西華門犯右執法辛巳犯東垣上相	-13.7163
如雨曰先生之術神矣觀止矣扆笑引手	-13.7163
字正中廣陵人也父令頵事本郡	-13.7163
宗弼謂樞密使宋光嗣景潤澄等曰宗儔	-13.7163
已過許昌豫州安定孤逺卒難救衛	-13.7163
常州權知州事禹萬誠以城降誅神	-13.7163
張籛兵部郎中盧重賜王國信湯	-13.7163
彦貞以厚賂結岑為奥援岑所得	-13.7163
往在鄴都識朕於童稚每思其	-13.7163
後苑泛舟池中元宗舟覆景	-13.7163
怒已解謂左右曰宋公有才特不識大體	-13.7163
怫	-13.7163
我唇齒之國也我有大施而越人背之䖍	-13.7163
我道成時紫府清都自有期手握藥苗人	-13.7163
所謂得之者時也失之者亦如一歲至百	-13.7163
扆亦以方繼進烈祖皆神之以為	-13.7163
拜闕上章傾懐請罪言皆激切事且憑虚	-13.7163
掠蜀中斬雄從祖冉獲驤妻昝	-13.7163
數無不知其多少及四時伏臘薦祀特腯	-13.7163
早入朝之意國主辭以疾且曰臣事大朝	-13.7163
明哲朝野所望豈容致	-13.7163
曰君道宜明二曰臣尚忠敬三曰子貴孝	-13.7163
月壬戌閩使内客省使朱文進來賀即位	-13.7163
毛文錫毛文晏潘炕潘峭庾凝績楊玢	-13.7163
民樂氏婦頭上生角長三寸凡三截之又	-13.7163
永圖不幸諸藩搆成深隙此際主兵將帥	-13.7163
泣謂彌曰王渾李熹以鄉曲見知每相稱	-13.7163
珂賈令威瞿章賈公鐸李濤袁禎丁袗周	-13.7163
班列也有怙威侮法棄忠賊義樹朋黨蔽	-13.7163
皆縮小國人異之國主以軍旅委皇甫繼	-13.7163
瞪	-13.7163
石發中營門及鎧之半皆糜碎而輿不傷	-13.7163
童竹馬蒿弓固罔親	-13.7163
笞之御史中丞劉賛坐不紏舉將加笞	-13.7163
粳米二百石雜買錢一萬緡	-13.7163
緑綈或紫綈或蜀綈工巧百數不可盡名	-13.7163
縣南新寧善新登廣陵銅峴	-13.7163
纇	-13.7163
與謙俱歸至諸闗禁自稱張伏生二十日	-13.7163
號排門軍民間又有自相率拒敵	-13.7163
許曰此武后故事吾豈為之元宗即位尊	-13.7163
誅鍾謨于饒州誅張巒于宣州	-13.7163
讒間因之而進深非吾願適足為吾患耳	-13.7163
賊負我好聖明時三公不	-13.7163
辠	-13.7163
遽躍入水中負元宗出人以為精誠所感	-13.7163
閗	-13.7163
離當道奔赴京師攀望聖慈無任瞻天仰	-13.7163
頭文罽鹿子罽花罽	-13.7163
髙下之等皆取其給家人之屬且亡間言	-13.7163
􁇨	-13.7163
㕠	-13.7163
㸃元隨兵士及旋添水	-13.7163
不敢逭逃命戎士以倒戈挈壺漿	-13.7163
世玉潤珠融殞然破碎柔儀俊徳孤映鮮	-13.7163
丙子立太學命刪定禮樂癸未新羅	-13.7163
乃熟三子一尺又有羊角棗亦三子一尺	-13.7163
之曰超封北海王拜侍中驃騎大將軍司	-13.7163
之至願必有神器是膺皇圖	-13.7163
之議遂决周亦班師遣覺還錫賚豐渥覺	-13.7163
之貴重仍加真食復寵兼官式是	-13.7163
人無異車行則木人行龍吐水車止則止	-13.7163
今遣正議大夫守右散騎常侍上柱國賜	-13.7163
以狀告魯侯不信俄而有羣	-13.7163
使和其民吾亦得休飬衡湘之民國其庶	-13.7163
來以兄禮事帝蜀使來賀即位	-13.7163
其次則子孫之團圓守血食之祭祀伏乞	-13.7163
其正厥位事大以敬教民以順馭衆以	-13.7163
内官各獻羅體圈金花樹	-13.7163
内衙統軍使胡進思指揮使諸温鈄滔等	-13.7163
劉言叛勢張甚元宗亦知用兵之難謂延	-13.7163
功元宗命為義軍首領及割地徙之江南	-13.7163
十八祚崇隆之徳髙步泰階應一千年挺	-13.7163
千古迨夏商之瓊臺瑤陛楚	-13.7163
及是覺身自為之使還以兵部尚書致仕	-13.7163
唐誕誇洛浦搆屈平虚亦憫終古	-13.7163
善大夫張易峭直喜盡言景遂	-13.7163
喗	-13.7163
在朝夕故臣敢逺遣行介殫布腹心惟君	-13.7163
坤維作藩唐室一開土宇垂四十年屬梁	-13.7163
奏臣每痛國家之敗非獨人君不	-13.7163
姓採野繭而衣野粟而食闗西家給人足	-13.7163
姝	-13.7163
威勝軍為鎮東軍授王領鎮海鎮東等軍	-13.7163
存永言梁蜀之歡合認弟兄之國今䝉皇	-13.7163
實典禮之鉅著勸夫忠孝以御	-13.7163
巒攻桂州敗績于城下訓死之巒	-13.7163
延魯軍中集射之舟人戢矢如蝟延魯曰	-13.7163
建勲以詩寄延魯曰粟多未必為全計師	-13.7163
後公卿在坐有言及周以為大朝者夢錫	-13.7163
得專制而行賞但念承世家之餘慶受旌	-13.7163
得故亡新闕景頽岸世	-13.7163
思棲雲涯發揚掩抑纎	-13.7163
意景遂在鎮亦頗忽忽多	-13.7163
慮則春氷共泮開通則東海可歸光榮遽	-13.7163
憧	-13.7163
懹	-13.7163
手曰諸公平時每言致君如堯舜	-13.7163
折經一宿樹撥變為人形髪長一尺鬚眉	-13.7163
抵罪於縣軍敗身辱遯逃出走棲于	-13.7163
數十里還家事繼母盡孝早暮潔衣冠視	-13.7163
數萬銜土培城魯侯信之大城曲阜	-13.7163
是下令戒嚴去開寶紀年稱甲戌	-13.7163
是將不濟内外多虞國機務廣其令車騎	-13.7163
時常州刺史丁從實具牛酒以犒	-13.7163
晟左散騎常侍充浙東道東西副指揮使	-13.7163
曰内夫家而外父家婦人之	-13.7163
曰取威定霸乃公侯權變之方	-13.7163
木杖令閉目乘之使歸告魯侯築城以備	-13.7163
此芳風事傳遐禩人難與	-13.7163
民自相結為部伍以拒周師謂之義軍而	-13.7163
江文蔚李貽業歐陽廣喬匡舜張泌汪煥	-13.7163
漢前將軍廣十六世孫廣子侍中敢之後	-13.7163
為其黨所告伏誅洪太原人剛勇	-13.7163
無犯均教多方茫茫獨逝捨我何	-13.7163
焭	-13.7163
燉煌索仙等以暠温毅有惠政推	-13.7163
爭如賣藥沽酒飲歸去深崖拍	-13.7163
特之風廣施王道混車書	-13.7163
環珮爰節造次有章含顰發笑擢秀騰芳	-13.7163
生而眉白目有赤光鬚	-13.7163
當以死君等今議殺正卿他日孰任其責	-13.7163
瘂	-13.7163
益巴漢隴右西域雜夷匈奴諸軍事太師	-13.7163
碁逞妙媚動占相歌縈柔調兹鼗爰	-13.7163
稽山如礪福祿無窮貽厥百	-13.7163
筮無違報歸妹邀終咸爻協兆俛仰同心	-13.7163
範使毒景遂景遂擊鞠而	-13.7163
紹頗余廷英李仁遇楊思	-13.7163
終能克昌家業者其在車騎乎吾寢疾	-13.7163
縱好不落御觴中元宗太息	-13.7163
者猶未革心臣欲奉陛下徳音先舉忠孝	-13.7163
而兵革之事雖父子之親不以一言及之	-13.7163
而氷雪自消睿澤敷而黔	-13.7163
而自立降旗天下鴻儒遥望而盡摧堅壘	-13.7163
聞者感動顥氣色皆沮	-13.7163
肸	-13.7163
臣罪不加一二傳陛下好生之㫖闡堯天	-13.7163
興天討之師實懼霆臨之罪敢祈英睿俯	-13.7163
舉孝亷為記室祭酒母喪去	-13.7163
舟師逺征峽路旗鼔纔聞其下瀨雲檣尋	-13.7163
良久傳漏者覺之以告鎬出	-13.7163
若興兵攻取死傷必多且祖宗開疆	-13.7163
茍太后李威之事慙怒乃焚其書	-13.7163
蔣廷翊姚景陳起賈崇	-13.7163
藹成新矩霓裳舊曲韜音淪世失味齊音	-13.7163
言致君堯舜何故今日自為小朝耶	-13.7163
詩書漢文惜百金不營露臺稱之	-13.7163
諫曰臣聞唐虞之治采椽茅茨土階三尺	-13.7163
諸司奉職庶吏推誠咸著勲勞豈忘奬荅	-13.7163
謝無迕色及易出使契丹景遂	-13.7163
賜以鎧馬弋仲曰汝看老羌堪破賊否	-13.7163
越援兵福州援絶危蹙且	-13.7163
路遂即舁棺麾下束手馬前向丹闕以馳	-13.7163
逺尋舊好專降嘉音俱無間諜之嫌	-13.7163
逺辱勞雄武以遐臨太陽	-13.7163
遣将李穀王彦超韓令坤等	-13.7163
邀舞利撥迅手吟商逞羽制革常調法移	-13.7163
邀醉舞恨來遲二破	-13.7163
重肅廣庭而備物練吉日以覃	-13.7163
釗世秉儒學有格望以父任	-13.7163
銍	-13.7163
閱軍士七萬餘人舟師泝江而上過成都	-13.7163
陶所遁西山先産藥物	-13.7163
隊指揮使朱偓部領左右飛棹并諸指揮	-13.7163
雍容於揖讓之前輕重於英雄之内	-13.7163
韓王宗智宋王宗澤魯王宗鼎信王宗傑	-13.7163
顔仁郁賈郁方仁岳陳洪濟林揆	-13.7163
饗文武將士於謙光殿班賜金馬各有差	-13.7163
魯人出海投杖水中乃龍也	-13.7163
鹽城令有治績遷楚州行軍司馬烈祖	-13.7163
𦙍自言於郁鞠郁鞠大驚	-13.7163
􁏃	-13.7163
􁙽	-13.7163
􁧉	-13.7163
物等或來從燕市或貢自炎方或馨	-13.7164
刁光滕昌祐房從真宋藝	-13.7165
埛	-13.7165
夫唐虞致治遵禪讓之明文湯武開基允	-13.7165
春正月庚戌江王知證饒王知諤表請帝	-13.7165
未辨其真偽又可哀其困窮是用銓衡	-13.7165
盡搜羅其間或有謬結前銜妄稱入仕既	-13.7165
馬二百匹來鬻以其價市羅紈茶藥	-13.7165
浛	-13.7166
下之兵鋒俟貴國之嘉問則大國之義斯	-13.7166
元康中氐齊萬年反闗西擾亂天水	-13.7166
中進士昭宗狩石門無學士草詔延休	-13.7166
勝追撃所殺及降者又十萬餘人評單騎	-13.7166
竹之㑹聽王敦之計少可以寧毫釐之	-13.7166
姓名曰楊訥少為嵩山道士與汝	-13.7166
布衣舒元共學數年業成同	-13.7166
忪	-13.7166
西當承詔書閉闗不入其次易代趙廞選	-13.7166
婆樓婆樓曰僕刀鐶上人耳不足	-13.7166
熬	-13.7166
自以肺腑盡忠不貳然寡學識	-13.7166
􁑼	-13.7166
其險要自崇安進次赤嶺與建兵方相持	-13.7166
奉吳越王金印至歸舊物也秋七月	-13.7166
或蓬首裸袒彦能在坐則	-13.7166
紿曰詩之㫖訣我有一葫蘆兒	-13.7166
誠出入堅敵未嘗少挫鋒銳班師	-13.7166
饒信歙等州諸指揮都虞	-13.7166
不事苦學有謂程曰觀子骨法	-13.7166
制改詔為教中書門下省為左右内史府	-13.7166
史况復備輸懇欵益驗傾䖍叙魯館之夤	-13.7166
夢程化為赤龍望南方而去擕	-13.7166
奮豺牙而暴物爾則妙施成筭	-13.7166
敢驅叛黨徑逼仁封吹虺毒以傷	-13.7166
李戴盧擇楊迢徐善盧蘋楊彦伯賈潭	-13.7166
每七夕延巧必命紅白羅百	-13.7166
王斬一偽署節度使可無氊	-13.7166
疋以為月宫天河之狀一夕而罷乃	-13.7166
程夢一羽人布䇿于前曰計	-13.7166
纔鳴旋聞落爪窠巢自潰	-13.7166
肴	-13.7166
致噬臍梓州之妖氣風驅涪	-13.7166
乃命師友從行而行思頗有牧守之望	-13.7166
俾遣行思歸國乃紿之曰二人	-13.7166
副使善迎合外結馮延已等相	-13.7166
府歐陽晃成都尹韓昭等出牓示奉魏王	-13.7166
斡	-13.7166
昌州獠反殺巡檢使趙漢瓊等	-13.7166
曰桃花流水須相信不學劉郎去又来	-13.7166
綰遇斬首二百餘級綰退營	-13.7166
進逼長安堅登城觀之歎曰此虜	-13.7166
領大將軍雍州牧録南臺尚書事鎮長安	-13.7166
魏約張宣楊燔閻建等士卒三千餘人嘉	-13.7166
不縛小兒戲也統顧左右曰此兒有	-13.7166
十五里處耘揖繼冲令待延釗	-13.7166
同王𢎞簡益王𢎞建辨王𢎞濟貴王𢎞道	-13.7166
國太僕卿李仁旭各來祭我先王秋七月	-13.7166
宰相范仁恕禱青羊觀又遣使	-13.7166
少倜儻喜竒節通左氏春秋班固漢書	-13.7166
從誨表請置邸建康從之己巳	-13.7166
投殿角井中衣掛井幹不得	-13.7166
持手詔召見遂以丞相同平章事寖	-13.7166
時成績救萬姓之焦熬失之則遁世	-13.7166
曰李相清談不待潤色自成文章	-13.7166
栲	-13.7166
檢攝恭謹嚴重愛士	-13.7166
江撫袁吉信五州兵屯吉州為璋聲援	-13.7166
海陵縣為泰州割鹽城泰興如臯興化縣	-13.7166
犯者指授攻討所向無前故勒寵信彌隆	-13.7166
王𢎞照通王𢎞政定王𢎞益	-13.7166
當國深忌同列少所推遜	-13.7166
立閔而問之曰汝奴僕下才何	-13.7166
臨洮人翟楷石琮等逐令長以	-13.7166
興而遁於時大水我師逐之斬馘沉溺者	-13.7166
薌	-13.7166
酒行太后謂嘉曰南越内屬	-13.7166
不然身首殊矣或以告匡國匡國竦然曰	-13.7166
乆列王公恒輸愛戴朕方禮加元老	-13.7166
也應聖堂柱震摧者示陛下柱石非材也	-13.7166
五百户仍改賜推誠匡運忠亮威徳	-13.7166
以時方艱危悉驅出轅門斬之人	-13.7166
儔來告王命徴兵援之未及境而䖍州	-13.7166
兵救火其得人心如此時刺史骨言病甚	-13.7166
其功克宏亦感激思奮馳至常州果大破	-13.7166
劇務多在尚書省又求知省事許之	-13.7166
命建州製的乳茶號曰京挺臈茶之貢	-13.7166
四曰民生在勤五曰教無偏黨六曰	-13.7166
宋敞燒和龍及薊城宫室帥衆三萬奔壺	-13.7166
州為康化軍是月髙麗使正朝廣評侍郎	-13.7166
憤欲圖興復之志然無少康一旅之衆數	-13.7166
日怒甚以打毬杖笞之曰吾行召景遂矣	-13.7166
曰吾平生笑宋公輕出處何至	-13.7166
桂王璇興荆王慶興禎王保興梅王崇興	-13.7166
機事委陳喬張洎又以徐元	-13.7166
烈祖即日渡江定亂以功遷左領軍将軍	-13.7166
王舟以陳其前功復言師友與環毁間之	-13.7166
由是失政而心憤未能發温顥	-13.7166
羣盜蜂起朱梁統制天下而楊行宻	-13.7166
自潤州入覲知訓會飲山光寺	-13.7166
衡守白石猛與楊安救枹罕	-13.7166
詔曰前朝失御四方崛起者衆武人用事	-13.7166
諸道兵馬元帥府開幕除吏一同天䇿上	-13.7166
越兵斬首萬級獲其将佐數	-13.7166
邵𦍑追歛岐王撫守侯和	-13.7166
鄭珙趙華李光美李存瓌張元徽白從暉	-13.7166
陳志女莫筌譚氏二女牢氏	-13.7166
電火焚頵營震折威鎗	-13.7166
䘮亂以來漢帝諸陵咸見踐辱	-13.7166
一國㝢縣震動今一旦三分棄其二傷威	-13.7166
三百户仍賜匡扶定亂立正至道功臣	-13.7166
上達冕旒所希者存濟活	-13.7166
不以輿為不武請得此柵	-13.7166
不可元宗嘻笑而止周師益進	-13.7166
不當如此以廢公家務知誥乃退及温中	-13.7166
世子侍講年十八卒暠昶之遺腹子	-13.7166
中書宻院乃同散地兵興之際降御	-13.7166
中興江東故萬里翼戴將成桓文之事何	-13.7166
乃皇王叙酬之典其或兵屯萬旅地廣	-13.7166
之一佛出世身被紅羅銷金衣後主誚其	-13.7166
之曰此天子地汝小民何容卜葬建不	-13.7166
以太牢二龍交首嬉翔解角而去皝大悦	-13.7166
以重簾環結珠香囊垂	-13.7166
任義方以風憲乃能力振朝綱	-13.7166
但荒聾瞽之迷罔顧危亡之患玉帛既乖	-13.7166
佐政績甚美潤州市大火	-13.7166
來請通好王納之息民故也自是休兵	-13.7166
保全州周興順指揮使白進福以族來	-13.7166
僎所敗其黨杜宗自寧海鎮	-13.7166
元敬皇后宋氏小名福金父韞江夏人后	-13.7166
先主夙聞其名覽之而喜遂授秘書郎	-13.7166
凡十三等皆使捍禦然實	-13.7166
出且曰可以市易光業曰我使介也豈賈	-13.7166
初出師五萬而俘死亡叛者四萬景	-13.7166
刺知之乃使親吏持酖遺	-13.7166
劉我邊陲汚濁我原泉股不附髀終	-13.7166
十八人盡殪石氏鑒在位一百三日	-13.7166
十餘嵗温知其必能幹事遂試之以	-13.7166
千里半因開拓遂至萬民叶議八國	-13.7166
南朝天子愛風流一句如是者數四元宗	-13.7166
又曰巴郡葛當下美巴郡皮	-13.7166
又曰有客有客來侵門陌其氣欲索	-13.7166
及君然上所以寘君于王邸者欲君以道	-13.7166
取其存神俟江南朝貢至以示其使曰汝	-13.7166
取渝州降其刺史牟崇厚	-13.7166
右押衙充上直都知兵馬使銀青光	-13.7166
各授官秩階爵及遥郡有差	-13.7166
后未勝禮服待年宫中明年	-13.7166
吏之費槩量皆中其度逮嬪婢	-13.7166
告廷堅因為謀曰今獨可即日	-13.7166
周有言得者時也失者順也安時處順	-13.7166
哀樂不能入也僕佩斯言	-13.7166
喜撫其背曰汝器度如此它日必	-13.7166
喧洛下近年詩價滿江南	-13.7166
土分疆有民人焉有社稷焉恢祖禰之令	-13.7166
域雖分生齒理一人各為主其心未離横	-13.7166
堅雅好文學英儒畢集純博之精莫如	-13.7166
壷	-13.7166
夀闐卒孫樹機能立壯果	-13.7166
外未知其内昔魯人有浮海而失津者至	-13.7166
夜出敢死士千餘襲破周營	-13.7166
天水陳安舉隴右來降武都氐王楊茂	-13.7166
天災流行國家代有昔之聖哲所不能逃	-13.7166
天鑒甚明為善者降之福祉君恩不黨立	-13.7166
奉化晟自平嘉埭以所部	-13.7166
契丹以中國織絍工作無不備	-13.7166
奢侈佞媚賞非功罰非罪	-13.7166
女子侍立問之曰知誥新婦亦勞而遣之	-13.7166
如初及周師大入盡失江北地始罷延已	-13.7166
始能語曰兒悮傷白龍	-13.7166
孝愛克全殷勤柔握力	-13.7166
學兵於朱瑾瑾力教之後因	-13.7166
宋岱不死則孫阜不交市三旬之間流	-13.7166
官卑者畏罪而不言位尊者持	-13.7166
宣告州郡期以孟冬救長安	-13.7166
容如平時烈祖怒亦頓解	-13.7166
宿而鳴即至殺戮乃與潭	-13.7166
將申洪㤗尹建于都門外以張巒	-13.7166
居蜀郡承先父經營之業為巴人主者之	-13.7166
川周環列國之山河奄有全蜀之封部	-13.7166
師旌旗壘柵彌徧四郊始大駭失色	-13.7166
建議儼素有直聲今所坐已更赦宥	-13.7166
後所得子甚愛之种氏寵日盛	-13.7166
徒以術精韜畧氣激雲霓	-13.7166
從弟務丸代立丸死孫推斤立斤	-13.7166
復勵將士攻城克之斬蠻帥段酋遷	-13.7166
復南征廷謂表金陵請援且言周師日張	-13.7166
心是醉信美堪餐朝	-13.7166
性狷直人無貴賤皆汝之虎亦不之責	-13.7166
悟自是畏禍遇曲宴輙以疾	-13.7166
悲號躃踊若喪考妣擁其尸而	-13.7166
戟	-13.7166
所尊然後仗大義以征諸部	-13.7166
所居屏障曰四月二十九日大㑹羣仙凡	-13.7166
扈駕指揮使將兵五萬聲言迎駕	-13.7166
手之狀亦有兩脚著履之	-13.7166
承只知四序以推遷不識三靈之改卜	-13.7166
指於上游連降郡城繼	-13.7166
援兵既而福州之軍果為越人所敗	-13.7166
擷	-13.7166
故烈祖在諸子中尤愛之及是始悟	-13.7166
敵安捧唾壺侍側左右皆注目前視忽有	-13.7166
文進居數鎮頗有善政兵民愛之其	-13.7166
斛又有磨車置石磨于車上行十里輒磨	-13.7166
方娠夢古衣冠人告曰我顔延之也	-13.7166
於允當布告遐邇咸使聞	-13.7166
日月之照特寛斧鉞之誅顒佇	-13.7166
日烈祖幸齊王宫遇王親理樂器大怒	-13.7166
是道執子之手與子偕老今也如何不終	-13.7166
景福之彌逺諒惟英敏必照誠懐	-13.7166
曰太乙接天河金華寳貝多郡侯六十六	-13.7166
曰我家宗祀幸汝得主之矣	-13.7166
曰湖湘之役楚人求息肩吾之出師不	-13.7166
曰臣常謂光武之遇仲華非獨仲華	-13.7166
有赤虹入其室飲以金盆水吸之	-13.7166
梯航畢集文軌大同臣方議改	-13.7166
楨	-13.7166
機元榆元樞兄弟居其間中	-13.7166
橡	-13.7166
殺昭劵及進侍鹿光鉉光鉉	-13.7166
殺百姓可乎吏對曰百姓租賦所出殺之	-13.7166
汭王宗偉王宗憲王宗儼王宗威王承檢	-13.7166
泰始中殺秦州刺史胡烈於萬斛	-13.7166
泱	-13.7166
流蘇帳皆竊擬禮制整	-13.7166
深紅杏鎖鸎聲因	-13.7166
清廉毫毛不犯夷漢歌	-13.7166
清軟錦披袍擁鼻行雨後緑苔侵履跡春	-13.7166
澳	-13.7166
為墟矣元宗不答而心善之及割地降號	-13.7166
為天下主其肯教人殺忠臣乎謨	-13.7166
烈祖娶戎女后為媵得幸生元宗	-13.7166
烈祖正色曰子有過父教之常	-13.7166
然杜門不預世事所與交皆寒畯	-13.7166
特細又曰江橋頭闕下市成都北門十八	-13.7166
獲兮此心隳摧號無聲兮何續神永逝兮	-13.7166
率餘黨攻東陽刺史王壇堅壁自固	-13.7166
王璟勒步騎八萬講武銅駞橋	-13.7166
王視西門樟樹謂左右曰此樹不入城陳	-13.7166
瑾瑾手刃數人瘞舍後知訓	-13.7166
甚見倚任久乃出為光州刺史	-13.7166
用為侍御史義方既就職即上	-13.7166
異方之貢名香加逺國之	-13.7166
百餘口慈母七十餘年日承訓撫之恩粗	-13.7166
知制誥國初改主客郎中拜中書	-13.7166
知禮部貢舉放進士王克貞等三人及	-13.7166
祖從子宗鐬族子宗壽宗裕	-13.7166
祫	-13.7166
筆腰有劍而袖有鎚時方亂離迹猶飄泛	-13.7166
等收奪器甲馬牛軍資財用八千餘事	-13.7166
等率步騎三萬攻西安不克又攻番禾	-13.7166
筥	-13.7166
籛	-13.7166
終期臨照車書混其文軌正朔奉	-13.7166
絨	-13.7166
績于沐陽周人執我指揮使燕敬權二月	-13.7166
纎麗易面規之景遂敬納又	-13.7166
翰攻之城帶江負山樓櫓	-13.7166
考世罕及者然為人謙恭	-13.7166
而暮踐其庭願勿失機為後世憂烈祖愀	-13.7166
能於晦朔總其支費存	-13.7166
臨池而釣諸臣皆屢引其鱗惟嗣	-13.7166
自古有國皆惡叛臣貴邦何為常事招誘	-13.7166
自絳出建康水陸之攻愈急	-13.7166
艶不至冶慧或無傷盤紳奚	-13.7166
芽而稔患以至舉戈問罪誓衆言征旁庇	-13.7166
落落如日月皎然終不能如曹孟	-13.7166
號新擬軍客戸有三丁者出一	-13.7166
號義勇軍募豪民以私財招聚	-13.7166
蜀地幸以先君之基構得從㓜	-13.7166
行墨制上自藩方之任下及州縣之官凡	-13.7166
衣不解帶藥必親嘗乃進乾徳三年十月	-13.7166
裶	-13.7166
見其猶豫乃曰臣昧死敢上芻蕘曰玉	-13.7166
見户東徙焚燒宫殿火一旬不	-13.7166
許郡縣村社競渡每歲重午日官	-13.7166
試之勝者給綵帛銀椀	-13.7166
識者謂有元和詞人氣格尤喜為樂府詞	-13.7166
赦書募盜為兵茂忠出應募且請	-13.7166
車上九龍吐水灌之又作	-13.7166
車又有舂車木人及作行碓于車上	-13.7166
軍之先仲華遇漢世祖於前	-13.7166
軍復逢朕於後何鄧氏之多幸	-13.7166
選三婢予之頗有容質李	-13.7166
采地夏秋所入及月俸料或頒賜物段出	-13.7166
重不可自臣下出請以中㫖行之烈祖雖	-13.7166
錢塘大火宫室器械為之一空宋齊	-13.7166
長沙盡據故楚地周人亦伺釁而動朝論	-13.7166
開江防送進奉使將兵七千趣瀘州	-13.7166
闕待罪毋與中使遇廷堅恐懼不暇為	-13.7166
降者三千餘人斬獲坦綽布	-13.7166
陸超杜叔詹劉彦琛俞公帛盛豫林克	-13.7166
雲梯洞屋周人大驚相蹂	-13.7166
頓首曰大姦似忠陛下若終不覺悟家國	-13.7166
風以繼用天之道又䝉厚加賜貺别降珍	-13.7166
餘人排比小戰船候寧江接應兵士到却	-13.7166
餘人獲兵甲生口三十萬戰船二百餘艘	-13.7166
魄种氏左手持食右手進	-13.7166
麗兵入自東門與生戰於闕下生中流矢	-13.7166
鼎冊以輅車擬吕望之尊崇正列	-13.7166
鼎盛為一方之英主得百姓之驩心豈可	-13.7166
龍舟至趙屯舉酒望皖公山曰好青峭數	-13.7166
𦙍沒於黑匿郁鞠部	-13.7166
凰	-13.7167
梧嚴富昭栁龔象等州	-13.7167
即召見命視草昭宗善之及還長安不	-13.7168
氣咸歸河洛之殊祥畢至四門盡闢百度	-13.7168
牛膝一十斤枳殻一十斤五味子五斤赤	-13.7168
研選士摭實推公自執規繩勿隨請託但	-13.7168
膞	-13.7168
茸一十對顆棗一千枚羚羊角五對牛黄	-13.7168
貨鬻有征稅舟行有力勝皆用台符之言	-13.7168
里之稱仰所在州府奏聞當與量材叙用	-13.7168
如燬大事莫追横流泛灔於八方衰釁凌	-13.7169
金為仰陽銀為地面簷楹榱桷	-13.7169
則有前陵州刺史王暉覩其將亡因圖轉	-13.7169
慷	-13.7169
萬餘家散居隴右諸郡及三輔𢎞農所在	-13.7169
元惡既除心腹之患永固邦國之基	-13.7169
桉	-13.7169
謂輔曰吾方以義取天下豈仇忠臣	-13.7169
一死于桐廬一死于餘姚江三月	-13.717
夜暴雨自西北起連日至壬子有海魚二	-13.717
氣感天下赦出登軍士湮沒者	-13.717
遣供奉官周彦環賜國信二月	-13.717
雖勝而尤無道元宗知楚難方殷以鎬	-13.717
領屯營兵兼湖南安撫使駐袁州萍	-13.717
餘人輔乃詐降萇將入覺之引退輔馳出	-13.717
師攻常州無錫縣丁未克之獲其	-13.717
徴天錫入朝若有違王命即進師撲討	-13.717
敬洙鎬夾擊大破之遂取建州降王延政	-13.717
之守元曰未必不為嘉兆也	-13.717
二州牧改秦建元二十一年為建義元年	-13.717
全武率兵衛屯東府全武上言	-13.717
南蟲食稼除民田稅冬十月	-13.717
君也技藝不如君也談諧不如君也	-13.717
唯有大司馬國之懿戚不可其在王司空	-13.717
孫儒之難彼丈夫者豈不能報王	-13.717
延賔院官號亦從改易以避中朝	-13.717
有知者北門直更卒憑鼓而寐王親斬之	-13.717
樞宻院為光政院大理寺為詳刑院客省	-13.717
為司會府御史臺為司憲府翰林院為文	-13.717
疋一百文絹一疋七十文布一疋四十文	-13.717
翰林學士復置宣政院于内庭以夢錫	-13.717
趨福州帝遂命王崇文魏岑馮延魯	-13.717
還故官李守貞叛漢來乞師岑	-13.717
鍾審以舟迎王王遂沿江至内城東北	-13.717
之屬取御厨食料烹燀於其間	-13.717
以書招南郡留守劉克貞代鎮湖口克貞	-13.717
兒敢戲於此不畏司𨽻縛耶堅曰司𨽻縛	-13.717
夢錫終日論諍不能勝罷宣政院猶	-13.717
奄至即惶怖出迎遇處耘	-13.717
女崇華公主後主女鳯儀公主鑾國公主	-13.717
子佛念年十二謂泓曰陛下今雖降晉	-13.717
投取魚之餌斷長鯨者非用割雞之刀是	-13.717
故有經邦治亂之才可以踐	-13.717
春風何須思想千年事誰見楊花入	-13.717
為附晉晉當以兵威故不能自斷遂輟計	-13.717
綠醅不覺錢塘江上月一宵西送越兵來	-13.717
置同正員檢校司空明州刺史王子傳	-13.717
荀鶴殷文圭楊䕫沈文昌沈顔徐延休游	-13.717
蒯鼇郭昭慶盧郢章僚	-13.717
詞曰梁苑隋堤事已空萬條猶舞舊	-13.717
讚軍不得入衆皆驚散泓計無所出謀欲	-13.717
不宣朕甚悼焉三事大夫其為朕舉用儒	-13.717
中書視事又以两省事多委給事舎人	-13.717
九月唐莊宗遣李稠來通好市珍玩錦	-13.717
倉甲仗庫為天武庫舊三使院為彰信門	-13.717
先是謡言云楊老抽嫩鬢堪作打鐘	-13.717
判六軍創天武神機營開永和府	-13.717
可勝計誨獨殿後收所棄金帛二十萬以	-13.717
名今則慕義來朝假身為賈既及	-13.717
城中有錦工二百餘人皆潤人也	-13.717
塲曰敵至吾與兵民俱死于此	-13.717
多得奈何逺使使之冒犯風濤也上曰無	-13.717
夢得神丹既覺語左右欲物色	-13.717
大明光小明光大博山小博山大茱	-13.717
奉周正朔六月戊寅前台州刺史王弟	-13.717
嫜	-13.717
寨殺三千人元宗命敬洙清野入保敬洙	-13.717
居嵩岳雖叨科第且晦姓	-13.717
從官伐林木以絶其勢火遂	-13.717
或見一丈夫衣黄半臂舉手障面及	-13.717
是非時佑方寵用遊希㫖奏佑	-13.717
有象入信安境王命兵士取之圈而育焉	-13.717
朱雀錦韜文錦桃核文錦	-13.717
正安國功臣衣錦軍防遏都指揮使金	-13.717
漢使蕭規來告哀廢朝三日庚午契丹使	-13.717
漢王廣以勢無子求為太弟勢不許	-13.717
為皇太后居長樂宫妻呼延氏為皇后	-13.717
率吏民北出枳欲下巴東	-13.717
由是並築將壇顯陞王爵兼兩藩之奥壤	-13.717
疾革遺令曰時事如此吾得全	-13.717
祝之曰不糓不徳天降之灾	-13.717
臨晉登龍門顧謂羣臣曰美哉山河之固	-13.717
落草莊宗怒曰衍豈免落草乎	-13.717
表其墓以其蚤死無子故後主亡國詩	-13.717
逆我一時英雄何為不可作帝王耶	-13.717
都指揮使兼土客諸軍安撫副指揮使	-13.717
丁墾田及八十畆者賜錢二萬皆五年勿	-13.717
下生其母無恙兒亦長育	-13.717
不平欲窮其技能召與宴飲設倡樂奕	-13.717
丙寅以齊王璟為諸道兵馬大元帥	-13.717
中原未知鹿死誰手大丈夫行事當	-13.717
久之自言族大家貧求治郡拜郢州刺史	-13.717
久醖松醪酒自煮新抽竹笋	-13.717
之中遇禍賊庭之内言念及此痛憤良深	-13.717
之居位勉思遵守克荷寵靈服予訓辭錫	-13.717
之師遂大潰曜昏醉奔退	-13.717
之曰他日北方當有事勿忘吾言	-13.717
之破福州版寨入東武門而建封亦與諸	-13.717
事竟不之知廢朝七日贈太弟謚文成	-13.717
二月辛卯日有白虹二三月左衛上將軍	-13.717
于上烈祖得奏適㑹本意乃降制放還私	-13.717
以為勸戒皝之八年晉遣使者拜皝	-13.717
以相證行思輒奪威鎗	-13.717
佑佑自殺平縊死獄中皆徙其家外郡	-13.717
來章備形縟㫖叙此日傳	-13.717
傉檀謝之曰卿孤之蓍龜也	-13.717
傳于外至納后乃成禮而已	-13.717
傳亡従信傳亡宣城公仲宣	-13.717
僧俗軍士念救苦菩薩滿城沸涌未	-13.717
僧儀晏僧彌洪僧清聳僧契盈僧道	-13.717
元宗子文獻太子𢎞冀慶王𢎞茂	-13.717
元宗遣謨行以手表引咎且言非續之罪	-13.717
克覺奏請建封濟師建封率五千人	-13.717
公約章魯封饒景薛居正	-13.717
六月梁主遇弑郢王友珪僣位秋七月	-13.717
兵革逺阻江山當偽梁簒弑之時致宗廟	-13.717
典賞立功立事之人必無患於不均庶有	-13.717
凡在有功文武大臣顯忠孝者並委中書	-13.717
則憤形于色亟出謂其下曰吾	-13.717
副使陳洪進廢張漢思自稱權知軍府來	-13.717
勤之意常深須務綏和貴諧	-13.717
十二年春正月有大星霣于西北聲如雷	-13.717
十曰易簡𢎞大堅納之以攸為諫議大夫	-13.717
十月詔選良家女二十人備後宫十	-13.717
千艘煜渡中江望石城泣下	-13.717
叉	-13.717
可吾年十三方欲求師時人猶以為速成	-13.717
君親之義有所不盡惟陛下幸赦之	-13.717
呼哀哉應寤皆感兮何響	-13.717
嗣唐虞之業興湯武之師廓定中區奄征	-13.717
四月范長生卒以其子侍中賁為丞相	-13.717
基宇稍廣於是慨然著述志賦	-13.717
堨	-13.717
外府告盈下瀨宣威則前茅獻捷忠信著	-13.717
大將軍領中䕶軍西夷校尉錄尚書總統	-13.717
大書其上曰一子不能捨如讓皇百口何	-13.717
天不願以力營也大司徒其勿復以為言	-13.717
夫人朱氏太后王氏睿帝讓皇后王氏太	-13.717
奉書至徐州求成于周稱唐皇帝奉書	-13.717
奢益為其所輕矣評不從泰遂謝病歸家	-13.717
威福專任愛憎咫尺天威敢行欺罔以至	-13.717
孤兒寡婦狐媚以取天下也朕	-13.717
孰我哀私自怜兮痛無極	-13.717
學兵法通解若素習遇亂南奔	-13.717
宗儒王宗浩王宗朗王宗渥王宗範王宗	-13.717
宗子繼韜繼鎔臨海郡王繼	-13.717
客有諂温者曰白袍不如黄袍好知誥	-13.717
家雖以法繩之犯者配逺郡民罹之	-13.717
封縣太君妻為國夫人與弟異居捨棄其	-13.717
尚之心仍以數載以來交兵不息	-13.717
峗	-13.717
左右無知者流珠獨能追憶無	-13.717
希辨僧志逢僧願齊釋岩僧德倫僧彚征	-13.717
帥多降于周廷謂獨還軍守濠州	-13.717
度使平章事馬綽守檢校太尉同平章事	-13.717
彬史虚白陳陶陳貺鄭元素廖凝洪文用	-13.717
彬年八十餘來見曰臣久處山林不預	-13.717
徐鉉笑答曰上于近臣豈惜一	-13.717
徙王屋及嵩山苦學自勵食無鹽酪者五	-13.717
徹樂減膳出宫女以迎	-13.717
忍心覽此哀編絶艶易凋連城易	-13.717
息民者尚以武人用事不能宣流	-13.717
惟全武請倍道兼行王從之一日師次嘉	-13.717
意而不為講武教民在安邊而有作	-13.717
應内外文武官等或賜功臣名號或與一	-13.717
戚里靡循紀律敢黷彞章其罷	-13.717
户部侍郎李平交厚國主以為事皆由平	-13.717
所推遂有今日琅邪若能中興大	-13.717
捧吳越國王玉冊及沿身法物等至冊曰	-13.717
數年入洛舉進士不中以昇元二年南	-13.717
敻	-13.717
文徽等次于蓋竹退復屯建陽啓求濟師	-13.717
斗餘至西陽門撝陣就平	-13.717
方面侯伯皆契忘家之誓俱同許國之誠	-13.717
於飛鳶裂帛豈勞於繫鴈	-13.717
明皇僖宗御容宴羣臣於華嚴閣下	-13.717
易字曰退身以示不處之志	-13.717
昣	-13.717
是特命行人厚遺之金粟繒綺葢車相望	-13.717
晟頗尚禮士辟前進士陳鼎羊紹素	-13.717
晸	-13.717
曰其為我乎至戊子而澄卒	-13.717
曰此亡國之俘何刺史也叱令執杖庭	-13.717
朕以初殄冦讐重興社稷撫諭之恩既廣	-13.717
本朝舊臣常懐忠孝之心每俟興隆之運	-13.717
李威左僕射王猛輔太子宏留守長安	-13.717
杜孟治聞離至命燕釋圍保	-13.717
東庠考試學生其通經秀異者擢充近侍	-13.717
枸兮風索索鳥相鳴兮飛翼翼弔孤影兮	-13.717
楚爲功不欲取費於國乃重歛	-13.717
權任鎬于太社斬禆	-13.717
歌詩亦清麗然絶不喜傳于人剛褊少恕	-13.717
止之其詞曰皇帝致書敬問江南國主兹	-13.717
正邪慝取前朝王義方名以易之故義方	-13.717
武統軍劉彦貞為北面行營都部署帥師	-13.717
武肅王子寧國公元璣雲國公傳瑛	-13.717
殺續以謝我元宗知覺與續有宿怨疑之	-13.717
母方娠夢傳呼北平王來	-13.717
每十錢以鐵錢六權銅錢四而行	-13.717
毣	-13.717
江北置折博務禁商旅過江	-13.717
淯	-13.717
滅餘火得穀數十萬斛以賑饑民	-13.717
漢宏以台州賊婁文知明州事文為	-13.717
漢泰寧節度使慕容彦超來乞	-13.717
潰元宗素友愛聞訃悲悼左右欲	-13.717
為東北面都招討武信節度使劉知俊為	-13.717
為詩也為政儂家何似謝宣城人多誦之	-13.717
烈祖欲以為嗣難于越次故不果	-13.717
無功元宗議親率六軍拒之匡舜	-13.717
營招討使但署牒遣兵竟不知何	-13.717
猶不知也初烈祖有國凡民産二千	-13.717
率師水陸並進與國信使李穆同日行	-13.717
王志量恢廓識度宏逺雖少嬰軍旅	-13.717
王逵周行逢攻潭州壬辰㧞益陽寨	-13.717
珥幽于别宫數月命度為尼景	-13.717
生屠戮朕所弗忍且救灾睦	-13.717
産冶鐵為兵宰牛練楮為甲胄與兄弟倡	-13.717
盜鑄者頗多而輕小環外芒刺不及官	-13.717
眄眄哀淚漣漣何	-13.717
瞹	-13.717
祏	-13.717
福對曰臣當以佛力禦之乃登城大呼周	-13.717
稜為常州制置使遣阮結等進攻潤州是	-13.717
穆王子孝獻世子𢎞僔瓊山侯𢎞僎𢎞儇	-13.717
立石敬瑭為大晉皇帝改元天福	-13.717
粳	-13.717
紀大壞刑賞失中風雨由是不時	-13.717
紹為都督山東諸軍事豫州牧鎮洛陽	-13.717
給攝署牒秋八月甲申漢使法物使公孫	-13.717
縣雨雹大如斗五十里内飛鳥六畜皆死	-13.717
繼柔繼隆天德帝子繼沂從子繼昌繼成	-13.717
罷郡武肅王勞曰比在任戰敵而已未足	-13.717
義祖袒身而入捉得一龍而出	-13.717
而豈甘貧賤但攘袂叱咤㧞劍長嗟不	-13.717
聲教被於遐荒慶澤流於中夏當凝旒	-13.717
聲色狗馬之友也僕固無所解君之所解	-13.717
臣無知者皇甫繼勲誅死之後夜出萬人	-13.717
自新僧全付僧道怤僧靈照僧德韶僧行	-13.717
自洗湔乃詐亡命入盜中自言工風雲占	-13.717
至昇元五年猶輔政比他相最久烈祖鑒	-13.717
舉兵誅友珪遂即位于汴京更名瑱復稱	-13.717
舌之能心口傾危尚居左右有韓昭在性	-13.717
苓一十斤茯神一十斤酸棗仁五十斤	-13.717
虞神道之害盈必冀天時之從欲	-13.717
蜀君臣俱列於散官隋帝平陳子弟不聞	-13.717
蟣	-13.717
行營司馬奏授登州刺史保大保順等軍	-13.717
西征以中國有事不果而南夷校尉李毅	-13.717
親造太上章以代急就又著典誡十五篇	-13.717
覺忌之奪其兵元遂叛降周諸軍悉潰覺	-13.717
詔公卿舉可親民者意齊	-13.717
評示之以奢欲以誇燕之	-13.717
語烈祖烈祖亦馳去知訓取佩刀授彦能	-13.717
誠貯于肺腑幸因入覲輒敢上	-13.717
變通之説且東漢亂離之後三國齊興西	-13.717
贈太弟謚昭孝遺命留葬江州廬山	-13.717
赫怒聖畧風行干戈所指而無前鼙	-13.717
越兵于常州斬獲萬計俘其	-13.717
軍後徙萊州掖縣易性豪舉尚氣少讀書	-13.717
辛未命州縣捕蝗瘞之庚辰熒惑犯房次	-13.717
道副都統以景遂代輔政景遷病逾年竟	-13.717
遣其休息知誥不退及再寤又見之乃曰	-13.717
遽聞致討實抱驚危今則委千里封疆盡	-13.717
邦家扶危者力既不宣握兵者計無所出	-13.717
邵平郡公從度文陽郡公從信	-13.717
郡王𢎞偡𢎞億彭城侯𢎞儀𢎞偓𢎞仰儼	-13.717
都下大水秦淮溢東都火焚數千家二月	-13.717
釋之儀虞舜垂衣佇保安全之望丹誠備	-13.717
野賜義方衣一襲以旌直言義方始名元	-13.717
金桃帶葉摘緑李和衣嚼	-13.717
金陵上還印綬元宗恐其無功自	-13.717
長於山東力戰馬斃剖之得蛇於馬腹	-13.717
門下追贈仍搜訪骨肉量材	-13.717
降書至江州刺史謝彦賔集	-13.717
雄謂諸子曰吾必死國難爾軰不	-13.717
雩都令趙暹奔周洪州大都督楚王馬希	-13.717
雲陽山好神仙喜賦詩句法	-13.717
饗汝因閉三門之半而納之入者	-13.717
騎折玉龍腰謫在人間三十六至是果以	-13.717
髙祖法且稱漢王權停皇帝之號待宇	-13.717
鮎	-13.717
黄人其先漢黎陽騎都督累世牙門勒破	-13.717
鼂	-13.717
􁐾	-13.717
於九廟此際與皇帝同分茅土共	-13.717
蜀之功所宜治兵甲以固封疆聚征賦以	-13.717
文谷楊九齡何光逺韓保昇蒲䖍軌張立	-13.7171
各二十七日凡五十四日不視朝旦暮臨	-13.7171
之文物一空數千里之生靈無主星辰既	-13.7171
受藩鎮封崇之貴著冊書鍾鼎之勲至	-13.7171
名也又更名坦御史王鵠言字從旦犯	-13.7171
臣心滿朝之文武忠賢皆陳天意克隆基	-13.7171
齊王璟等三上尊號曰應乾紹聖文武孝	-13.7171
凋弊税賦逋懸必當分命使臣大明黜陟	-13.7171
子出身兼勸進官資以旌	-13.7171
就日無期逺聞皇帝應天順人開基立極	-13.7171
􁂣	-13.7171
以聽事為光慶殿庚辰改東都文	-13.7172
應乾殿為垂拱殿朝陽殿為福昌殿積慶	-13.7172
和殿興祥殿為昭德殿積慶殿為穆清殿	-13.7172
篩	-13.7173
於國有滔天之過自累其身	-13.7173
老妻伏枕以呻唫稚子環床而	-13.7173
唏	-13.7173
开	-13.7173
等咸歎異之初流民既至漢中上書	-13.7173
坐清風天子送隨車甘雨郡人迎	-13.7173
羹	-13.7173
李祐者唐亡也西王者王氏興於西方也	-13.7173
各執一器環立而侍號肉臺盤	-13.7173
呼曰大蟲來號呼而走及	-13.7173
噎	-13.7173
字如殿下之名也土德坤維也	-13.7173
州事擅興汀建撫信州兵及戍	-13.7173
楚疆交兵以來遂成釁隙詳觀	-13.7173
略不世出殿下宜請而咨之堅因婆樓以	-13.7173
肋	-13.7173
醉指酒壺曰本用相待酒興	-13.7173
鼓角樓為大定門北門為大安門中隔為	-13.7173
事楚人果復廢立鎬自萍	-13.7173
别執菁手曰若事不㨗汝死河北我死河	-13.7173
將軍茍萇左將軍毛盛中書令梁熈	-13.7173
曰子孫善事中國勿以易姓廢事大之禮	-13.7173
注弩中其執旗者頵見王城中大	-13.7173
滉	-13.7173
白龍腦香一百斤金銀陶器五百事	-13.7173
雖稱藩受位然臣道未純可遣使持節武	-13.7173
主與后頂僧伽㡌衣袈裟誦佛經拜跪頓	-13.7173
幸寅遜章九齡李起陳及之田淳	-13.7173
於海門遮獲越人船舫	-13.7173
猓	-13.7173
鳧	-13.7173
人士女珠翠夾岸日正午暴風	-13.7173
六月梁郢王友珪弑其主晃而自立	-13.7173
利之貪盖怒人之不賔而	-13.7173
勒共向青州暾至東阿為勒遊騎所獲	-13.7173
十月天錫疾瘳大赦境内追悼二姬	-13.7173
問以年世朗以周易筮之曰燕衰庚戌	-13.7173
坑斬士女鮮有遺𩔖勒	-13.7173
娶國戚喬曰臣家素貧	-13.7173
援縁海而進隨山刋道千	-13.7173
沈田子率衆逆戰璝擊敗之退屯	-13.7173
營營破次攻定又破之燕懼戰將百	-13.7173
率洪吉撫信歩兵自瀏陽	-13.7173
發笥覩二錫丸亦頗	-13.7173
磋	-13.7173
祀之諡曰武悼天王其日大	-13.7173
自以淮南行軍副使領昇州刺史留廣陵	-13.7173
萑	-13.7173
蕭規孫惠滕紹英萬景忻	-13.7173
許自牛鞞以東土斷與閎執政者以	-13.7173
躍起變為蛟形騰空而去	-13.7173
身絶馳追者數十百軰莫能及自	-13.7173
陣泓單馬還宫鎮惡入自平朔門泓與	-13.7173
馹	-13.7173
龍舟綵舫十里綿亘自百花潭至萬里橋	-13.7173
􁘔	-13.7173
一夕大風雨賊衆驚擾而遁夏四月命	-13.7173
三月壬子日有白虹二壬申大星流	-13.7173
三秋仰徳而跬步千里自此榮遵天路繼	-13.7173
上押衙充安國衣錦軍親從副指揮使兼	-13.7173
不問喬憤切曰人臣受重寄	-13.7173
不能親行也後主嗣位復起為司農少卿	-13.7173
乕	-13.7173
云我死後三十年當有異人入蜀	-13.7173
人被食畧盡冉智尚幼蔣幹遣	-13.7173
仍賜國信二月王親廵衣錦營大㑹故老	-13.7173
以文蔚知禮宜董治山陵事除文蔚工部	-13.7173
以親子代之温即遣知詢入覲謀代	-13.7173
以謝國人而延已岑置不問文蔚對仗	-13.7173
僚不得進見履霜堅氷言者恟恟再降御	-13.7173
先拜後起帝後拜先起之文鉉	-13.7173
光待用藏器俟時或智辨過人或	-13.7173
公之貴舉為賞典斯實異恩	-13.7173
兵旅訓練積日而不試	-13.7173
其軒轅之亞乎勒笑曰人豈不自知卿言	-13.7173
内史事冬十月内史舎人潘佑上書切	-13.7173
前鎮海節度使徐景運為中書侍郎及右	-13.7173
加禮自淮上用兵凡書檄教誥皆	-13.7173
匡聖廣運同徳保㝎功臣	-13.7173
午朔前戎州刺史蕭懐武眉州刺史鮮于	-13.7173
南城人危全諷兄弟亦起義師	-13.7173
卿憂惟予小子實生厲階由是所下之令	-13.7173
可求可求曰顥雖剛愎而闇於成事此易	-13.7173
司置府城為皇城使防城使司依舊兩馬	-13.7173
同行者亦死于他陣父子八人無生存者	-13.7173
咬	-13.7173
咳	-13.7173
哀其意許之乃馳還宣州而城中已亂彦	-13.7173
堅性友愛與法訣於東堂慟哭嘔血	-13.7173
大呼而寤乃聚侍婢歌舞喧笑	-13.7173
大政常夢錫居封駁之職正言讜論首罹	-13.7173
大者帝小者王不以兵戈利勢弗	-13.7173
宻啓曰方今四境多虞非公主之不可然	-13.7173
尉乃周勃之官山河距九州之雄紱冕冠	-13.7173
師出江西為糧料使江西平授吉州刺史	-13.7173
常是舉龍輀一駕兮無	-13.7173
幞巾絛帶布裘鹿鞟	-13.7173
得瀑布詩云練色有窮處寒聲無	-13.7173
徴九郡胄子五百人立學校以教之	-13.7173
必敗反持其長短自結于烈祖烈祖亦遂	-13.7173
忲	-13.7173
思職分傍有奏論御史奏	-13.7173
成不以殺戮威武弗行民受其弊	-13.7173
持憲平直無所阿枉馮延已當國與弟延	-13.7173
揚聲欲百道俱濟直抵姑臧	-13.7173
撫軍失據進有强敵退無所	-13.7173
明漢主之一竒斯在况早攀鱗翼備見肺	-13.7173
星退行在畢閏月甲申朔改天長制置使	-13.7173
暑樓眺望則州城東西水陸行人	-13.7173
曰踰年改元古之制也事不師古	-13.7173
曰追崇祖考古人之令典	-13.7173
曰霸王之資非義不濟今晉室雖	-13.7173
有國日淺守境已固我兵妄動豈止無功	-13.7173
木蘭色或作紫紺色或作	-13.7173
未賔霆下戒嚴之令暨危邦請命雲垂利	-13.7173
校事其子知訓于廣陵知訓狂恣彦能每	-13.7173
欲棄隆喪建威將軍餘崇涕泣固請	-13.7173
欲舉上尊號之禮朕甚不取其勿復以聞	-13.7173
每相語曰宋公誤識亞元正可	-13.7173
求救於振威劉庫仁庫仁遣	-13.7173
汹	-13.7173
漢使區延保來聘癸巳閩使尚食使林	-13.7173
澨	-13.7173
為貪饕之人實非社稷之器有王宗弼在	-13.7173
為都督兖豫荆徐雍五州諸軍事鎮鄴	-13.7173
然亦不加罪牙将馬謙以衆擁	-13.7173
爾軰無妄動衆信之稍	-13.7173
狐疑陛下方以孝理天下而延	-13.7173
猶可退保杭越自為東帝奈何交臂事賊	-13.7173
率騎二千迎於境上超親率六宫迎	-13.7173
王令百工悉免今日工作遂	-13.7173
生辰禮物并御衣紅袍一副金	-13.7173
畏懦也審思曰兵機多變不可不懼	-13.7173
疑御史張緯論事忤傷權要其貶官敕曰	-13.7173
百官班謁于都門入對日朝堂設次以待	-13.7173
程氏曰貞靜皇后曾祖超曰成宗孝平	-13.7173
稍長神觀爽邁異于他兒烈祖深器之受	-13.7173
立府所司新西宅為天啟宫堂為	-13.7173
策營為糧料司六軍為支計院成都府移	-13.7173
義師以自衛鄉黨為名得勇力無賴	-13.7173
者奔北饋運者死亡穀帛戈甲委而資	-13.7173
與之曰善藏吾骨遂自縊二吏	-13.7173
葬之棺復躍出如是者三乃	-13.7173
藳	-13.7173
表乃許守司徒致仕以中書舎人馮延魯	-13.7173
裴長史徐幼文占夢僧吳廷紹李廷珪	-13.7173
西將軍秦州刺史領䕶東羌校尉鎮上邽	-13.7173
見問貫曰朕伐罪弔民何有巢無主之有	-13.7173
覺為監軍使軍政皆出覺聚兵五萬無决	-13.7173
諷温曰居中輔政之重不宜假於他人	-13.7173
赤水渡入郫及水西南縁江守軍皆散走	-13.7173
躬故退處恭黙思底于道而壅隔之弊以	-13.7173
軍於趙氏塢使䕶軍將軍楊璧等	-13.7173
轅金屋千秋兮永無主嗚	-13.7173
逵狼狽而去人重其决加鎮國	-13.7173
遇許再思等率兵自海道以救嘉	-13.7173
遣使振貸黄州旱傷户口	-13.7173
還白汝天子我承人乏為中國所推已為	-13.7173
鄉黨異之及從軍以驍果稱	-13.7173
重賞以進君子不自私㤙罰以退小人不	-13.7173
錫曰吾不意其捨匡舜也夢錫與韓	-13.7173
鎮金陵以為行軍司馬與周宗李建勲孫	-13.7173
閃	-13.7173
陳師先鄒罄虞雄陳	-13.7173
雪涕難勝伏惟某官叶贊萬	-13.7173
靈居海上博學精識少許可易	-13.7173
頌聲之西起率土之黔	-13.7173
騎常侍張義方帥師萬人出海泗招降納	-13.7173
􁀤	-13.7173
􁥟	-13.7173
㫝	-13.7173
上帝命我代許旌陽元宗始少解故被酖	-13.7173
不復預政老而益貪鄙所至人患苦之好	-13.7173
不置奴婢日會食堂上男女異席未冠	-13.7173
乃奏多壘之秋義無就逸乞	-13.7173
之亡由權在大臣意頗忌之而建	-13.7173
事臣妻曰君主人郎君今	-13.7173
二月十日同時討特手書隠語曰在彼	-13.7173
五木諸弟皆執縛受刑而畫知訓衮冕	-13.7173
位待之如初命暐以書招諭	-13.7173
何能對曰能鼓音讀書通一經	-13.7173
余安援兵自海道至白蝦浦	-13.7173
佛心腹之間又十餘木道人長二尺餘皆	-13.7173
俄而衆篇悉就詞采磊落坐客驚服	-13.7173
保據河西追竇融故事筮之遇泰之觀軌	-13.7173
勒南郊有白氣自壇屬天勒大悦	-13.7173
募衆據平嘉埭時權知州	-13.7173
南流墜西北光燭地聲如雷六月楚靜江	-13.7173
博戲酒數行使製書檄詩賦碑頌	-13.7173
又著䜟云廣漢城北有大賊曰流曰	-13.7173
可用元宗召見訪以國事對曰草野之人	-13.7173
告義祖疑有變徙江州徳誠猶	-13.7173
和元年嵗在辛酉起兵至勢嘉寧二年	-13.7173
國只計安人其有徭役不均刑	-13.7173
國家大計賜宴便殿醉溺于殿陛元宗曰	-13.7173
大將効命功臣或遘疾以淪亡或當鋒而	-13.7173
大旱烈祖方輔政極于焦勞七月既望雩	-13.7173
大羌楊阿觸楊酋盛	-13.7173
威敵國笞其使者而遣之曰吾以笞信也	-13.7173
媾	-13.7173
對曰園有女弟魯相聞之使使	-13.7173
小面廣七尺或作蛟龍或作鳥獸繞其上	-13.7173
尹奉遣建寧太守霍彪大姓爨	-13.7173
尺五寸金銀飾陶器一十四萬餘事金銀	-13.7173
山絶意世事保大初熈載為史館修撰薦	-13.7173
州與翰偕行既入城翰軍士掠民家民訴	-13.7173
建議政事當更張者且言事大體	-13.7173
張易字簡能魏州元城人	-13.7173
往勞之宗弼驕慢無復人臣禮	-13.7173
御史中丞掌書記李昊觀察判官徐光溥	-13.7173
慘毒心恣貪殘焚爇軍營	-13.7173
應募于望海鎮鎮中立表以	-13.7173
指槖中黄金十斤曰以是交長者規許諾	-13.7173
捨舟而濘淖不可行方布竹簀登	-13.7173
文成王景遂齊昭孝王景達江昭順王景	-13.7173
方横流獨江淮豐阜兵食俱足當長驅以	-13.7173
曰兵可終身不用何十數年之有	-13.7173
曰劉徹乃漢武帝也非人臣所	-13.7173
李神福張訓陶雅劉威臺濛李遇李簡	-13.7173
根集于堂陽勒大悦謂公卿曰	-13.7173
業並當續有處分朕頃事	-13.7173
槍劍麝臍琥珀玳瑁金稜	-13.7173
此軰能降心以事公否不若	-13.7173
歩軍都虞候劉遇東上閤門使梁	-13.7173
殆不可測謨㣲聞之念無以為竒貨	-13.7173
海州團練使左右軍都軍使遂以左僕射	-13.7173
温意潤州預謀就知訓廨有土室繪	-13.7173
為己卒攻東掖門健聞變登端門陳兵自	-13.7173
父母宗廟之仇此必戰也彼此烏合	-13.7173
王署侍中衛大將軍都督二宫禁衛諸軍	-13.7173
白談笑獻酬筆不停綴	-13.7173
相奉法循理然貲産巨億	-13.7173
眥	-13.7173
築子城西北夾寨堤引水入大内御溝	-13.7173
紵	-13.7173
老母忠惟奉主孝則養親固	-13.7173
聞奏樂輙審音調宫中燕侍	-13.7173
與其不義而生孰若抱義而死事勢如此	-13.7173
色藥物等皆大梁皇帝降使賜貺雕鞍撼	-13.7173
蕊	-13.7173
蜀由之亡蜀亡之嵗去周三十	-13.7173
詔曰董璋狐狼自貽族滅卿	-13.7173
誘繼勲入宫責其流言不用命	-13.7173
輜重火見鄴中暐懼遣侍中蘭伊	-13.7173
遣之太康中為尚書郎太子洗馬中庶子	-13.7173
邁上饒公景遜桂陽公景邈平陽公景逸	-13.7173
鄛	-13.7173
鄺	-13.7173
酒壺車上山童總角負一琴一酒瓢以	-13.7173
鎬棄城遁十一月劉言盡據故楚地詔流	-13.7173
阿房資財内竭華夷外叛勒	-13.7173
陳橘皮牓遷刑部侍郎老病乞骸骨後主	-13.7173
雖手足胼胝粗平多難而星辰符瑞謬付	-13.7173
飬花如飬賢去草如去惡	-13.7173
馬存貴以輕銳繼之腹背夾擊	-13.7173
州瀟灘鎮為清江縣不	-13.7174
僧曉微僧可朋僧仁顯僧曇城僧曉巒	-13.7174
􁏁	-13.7174
於教化明於吏才政術精詳軍謀宏逺韜	-13.7174
銀稜秘色鈔鑼二面金花銀裝厨子一對	-13.7174
一百餘人斬黔南内外都指揮使郭太尉	-13.7174
哷	-13.7174
年而不冺並委中書門下抄	-13.7174
國之正統孤之君也若以諸	-13.7176
人豈非庸才耶同移者閻	-13.7176
司馬勲壽見期越兄弟十餘人年方壯大	-13.7176
多地不須懐抱重凄凄	-13.7176
編永彰忠烈所請宜依	-13.7176
親日月之光遽忘江海之志甲兵	-13.7176
𢷬	-13.7176
等以四千騎歸廞廞以庠為	-13.7176
二君何以來辱負殊曰晉王與君	-13.7176
性氣寛厚沉静寡言多尚儒釋不喜奢侈	-13.7176
慴	-13.7176
朱梁不敢與殿下抗也願稽合天命仰膺	-13.7176
籙使天地有主人神有依	-13.7176
與梁宋阻隔若爾主不忘先好	-13.7176
前軍戰棹副部署武懷節	-13.7176
必死元宗亦怒欲寘軍法齊	-13.7176
武庫㦸十二枝列于私門非恒例也	-13.7176
死者萬計亡失金帛戈甲之類	-13.7176
為乾正門小西門為延秋門北門依舊大	-13.7176
為昭聖宫堂為金華殿摩訶池為龍躍池	-13.7176
王茂章李遇相繼叛無敢為守備者克宏	-13.7176
祸	-13.7176
籃	-13.7176
胞	-13.7176
騃	-13.7176
孫漢韶張䖍釗何重建石奉頵侯益趙匡	-13.7176
故以甘豆湯解其毒耳聞者大服	-13.7176
於龍黎斬首萬二千級獲	-13.7176
重身長任大足短安下非常相	-13.7176
鎮令公仁孝有功孰不愛戴	-13.7176
􁌄	-13.7176
乞師元宗命敬洙援之遷武昌軍節度使	-13.7176
事唐晉事具五代史契丹入中原暉時為	-13.7176
人將何以報我我死之後豈可更為人妻	-13.7176
其謀漏泄請顥獨訖其事然後見報顥諾	-13.7176
器遂斬之鄴欲宥其婦女童稚起曰此皆	-13.7176
守太師秋七月甲辰西方慶雲見	-13.7176
建威將軍西郡太守索泮奮威將軍	-13.7176
所親曰吾為此以自汚避入相爾老矣不	-13.7176
攻建州傅其城誨數出挑	-13.7176
攻隴西鮮卑乞伏司繁於度堅山	-13.7176
是州尤自感勵常微服	-13.7176
民有訴事者立引入親自剖	-13.7176
然以功推王建封無吝色拜	-13.7176
譬之不得已而行及平建州敬洙功最諸	-13.7176
蹙自髠衣僧服而逃被執	-13.7176
軍欲城守謂孟治曰賊來雖衆客氣之常	-13.7176
道人狀如病狂手持一竿竿首	-13.7176
重建開元宫追福于先王也	-13.7176
顥已先入而温使告顥曰今非畨直	-13.7176
􁁱	-13.7176
丞相東海公法以疑忌賜死茍太后	-13.7176
之乃上書論事未報詣樞	-13.7176
瑝	-13.7176
􁇂	-13.7176
㾛	-13.7176
佹	-13.7176
俎	-13.7176
惸	-13.7176
抎	-13.7176
洄	-13.7176
瑑	-13.7176
痝	-13.7176
譊	-13.7176
閟	-13.7176
鱉	-13.7176
􁏉	-13.7176
蕚	-13.7177
嘈	-13.7177
喆	-13.7178
鸎	-13.7179
棁	-13.7179
槀	-13.7179
獐	-13.7179
醯	-13.7179
暘	-13.7179
柞	-13.7179
斚	-13.7179
􁱖	-13.7179
橄	-13.7179
􁬸	-13.7179
哽	-13.7179
捃	-13.7179
洳	-13.7179
痢	-13.7179
謿	-13.7179
轢	-13.7179
醞	-13.7179
麪	-13.7179
􁓀	-13.7179
簧	-13.718
葚	-13.7182
恧	-13.7182
氾	-13.7182
瘥	-13.7182
黿	-13.7182
􁂜	-13.7182
霶	-13.7182
􁒷	-13.7182
涂	-13.7182
缸	-13.7182
臛	-13.7182
蟇	-13.7182
雇	-13.7182
崆	-13.7182
暏	-13.7182
橐	-13.7182
礨	-13.7182
萋	-13.7182
蹯	-13.7182
𪠘	-13.7182
􁣉	-13.7185
屼	-13.7185
䵋	-13.7185
矇	-13.7185
􁔿	-13.7185
砍	-13.7185
倮	-13.7185
戛	-13.7185
摺	-13.7185
糶	-13.7185
鞦	-13.7185
􁈠	-13.7185
囤	-13.7185
壚	-13.7185
懴	-13.7185
膿	-13.7185
颿	-13.7185
􁊥	-13.7185
竚	-13.7187
冄	-13.7188
臞	-13.7188
蔥	-13.7188
襕	-13.7188
咈	-13.7188
霣	-13.7188
颭	-13.7188
垠	-13.7188
惣	-13.7188
搃	-13.7188
狊	-13.7188
芘	-13.7188
顏	-13.7188
珽	-13.7188
疹	-13.7188
瘑	-13.7188
騈	-13.7188
􁀌	-13.7188
枋	-13.7191
憺	-13.7191
瓏	-13.7192
跛	-13.7192
巗	-13.7192
撒	-13.7192
鬂	-13.7192
獍	-13.7192
儧	-13.7192
礮	-13.7192
秪	-13.7192
􁰎	-13.7192
謌	-13.7195
􁛩	-13.7195
秖	-13.7195
冽	-13.7195
寬	-13.7195
纆	-13.7195
崘	-13.7195
徘	-13.7195
需	-13.7195
䫈	-13.7195
胔	-13.7195
啚	-13.7195
塾	-13.7195
癉	-13.7195
涘	-13.7195
腯	-13.7195
臋	-13.7195
􁂟	-13.7195
嚗	-13.7195
磁	-13.7195
莓	-13.7195
􁩜	-13.7195
楠	-13.7196
擘	-13.7198
鵶	-13.7198
穉	-13.7198
邜	-13.7198
笪	-13.7198
䡖	-13.7198
僄	-13.7198
襜	-13.7198
鋟	-13.7198
溯	-13.7198
耰	-13.7198
蜆	-13.7198
鍼	-13.7198
咋	-13.7198
􁦣	-13.7198
曕	-13.7201
嚇	-13.7201
筦	-13.7201
咍	-13.7201
罅	-13.7201
萹	-13.7201
勻	-13.7201
墙	-13.7201
甦	-13.7201
瓽	-13.7201
畟	-13.7201
蜺	-13.7201
矌	-13.7204
佪	-13.7204
剬	-13.7204
圽	-13.7204
矍	-13.7204
嗛	-13.7204
桺	-13.7204
瞶	-13.7204
芊	-13.7204
蜮	-13.7204
鄑	-13.7204
醵	-13.7204
鞚	-13.7204
宂	-13.7207
漼	-13.7207
鬲	-13.7207
勠	-13.7207
㩁	-13.7207
剴	-13.7207
幪	-13.7207
毓	-13.7207
猒	-13.7207
猘	-13.7207
珤	-13.7207
綷	-13.7207
稡	-13.721
𥚑	-13.721
麦	-13.7211
㠹	-13.7211
䖝	-13.7211
傋	-13.7211
棐	-13.7211
絽	-13.7211
忙	-13.7214
穩	-13.7214
磑	-13.7214
􁄻	-13.7214
䗶	-13.7214
慳	-13.7214
哮	-13.7214
枵	-13.7214
柁	-13.7214
蹠	-13.7214
鞌	-13.7214
斄	-13.7217
汛	-13.7217
䫙	-13.7217
郶	-13.7217
蝇	-13.722
聆	-13.722
褭	-13.722
僴	-13.722
踽	-13.722
獬	-13.7223
螟	-13.7223
􁂬	-13.7223
猊	-13.7223
䡄	-13.7223
歘	-13.7226
脾	-13.7226
眂	-13.7226
䬃	-13.7226
屎	-13.7226
莬	-13.7229
惔	-13.7229
菑	-13.7229
􁊞	-13.7229
㩦	-13.7233
纚	-13.7233
賍	-13.7233
赳	-13.7233
睟	-13.7236
晊	-13.7236
祓	-13.7236
穂	-13.7236
蕨	-13.7239
椹	-13.7239
蠃	-13.7239
銚	-13.7239
黽	-13.7242
皴	-13.7245
蠘	-13.7245
膰	-13.7248
汩	-13.7252
鉟	-13.7255
螣	-13.7261
蘸	-13.7264
衱	-13.727
祦	-13.7277
轊	-13.7277
滈	-13.7286
嘒	-13.7289
狒	-13.7289
𣗳	-13.7305
𬞞	-14.6844
𤏡	-14.6845
𠢐	-14.6846
鼗	-14.6847
黏	-14.6848
鸑	-14.6849
鷟	-14.685
鶹	-14.6851
鵑	-14.6852
鵂	-14.6853
鰩	-14.6854
鯫	-14.6855
鮀	-14.6856
鬷	-14.6857
駹	-14.6858
駘	-14.6859
颶	-14.686
顱	-14.6861
韭	-14.6862
鞟	-14.6863
靼	-14.6864
靷	-14.6865
霪	-14.6866
雰	-14.6867
阽	-14.6868
閧	-14.6869
鐍	-14.687
鏜	-14.6871
錘	-14.6872
銕	-14.6873
醐	-14.6874
醍	-14.6875
醆	-14.6876
醅	-14.6877
鄫	-14.6878
邴	-14.6879
邭	-14.688
遴	-14.6881
逶	-14.6882
迕	-14.6883
躑	-14.6884
躇	-14.6885
踟	-14.6886
貉	-14.6887
讁	-14.6888
譸	-14.6889
誖	-14.689
裯	-14.6891
袓	-14.6892
螗	-14.6893
螃	-14.6894
蝴	-14.6895
蜿	-14.6896
蜻	-14.6897
蜴	-14.6898
蚋	-14.6899
蘩	-14.69
薯	-14.6901
蕰	-14.6902
蕈	-14.6903
蓨	-14.6904
菡	-14.6905
菖	-14.6906
莩	-14.6907
莉	-14.6908
茘	-14.6909
茉	-14.691
臙	-14.6911
腠	-14.6912
胭	-14.6913
聵	-14.6914
聃	-14.6915
耤	-14.6916
翽	-14.6917
翯	-14.6918
翛	-14.6919
羚	-14.692
罳	-14.6921
罘	-14.6922
纜	-14.6923
繿	-14.6924
綮	-14.6925
綩	-14.6926
絫	-14.6927
絍	-14.6928
紱	-14.6929
粕	-14.693
籧	-14.6931
簴	-14.6932
篲	-14.6933
篨	-14.6934
篌	-14.6935
箜	-14.6936
箄	-14.6937
筈	-14.6938
站	-14.6939
窳	-14.694
秔	-14.6941
禘	-14.6942
礹	-14.6943
碼	-14.6944
碟	-14.6945
硫	-14.6946
砲	-14.6947
瞭	-14.6948
瘕	-14.6949
瘐	-14.695
痞	-14.6951
畯	-14.6952
瑠	-14.6953
瑒	-14.6954
琫	-14.6955
珧	-14.6956
玅	-14.6957
獫	-14.6958
獗	-14.6959
燀	-14.696
滶	-14.6961
䕳	-14.6961
溴	-14.6962
溍	-14.6963
溈	-14.6964
湓	-14.6965
淥	-14.6966
淀	-14.6967
涷	-14.6968
洏	-14.6969
汨	-14.697
汐	-14.6971
氲	-14.6972
毡	-14.6973
殣	-14.6974
歃	-14.6975
檘	-14.6976
橧	-14.6977
榕	-14.6978
楗	-14.6979
棨	-14.698
棉	-14.6981
桄	-14.6982
柸	-14.6983
柦	-14.6984
柤	-14.6985
枸	-14.6986
枊	-14.6987
杆	-14.6988
暵	-14.6989
暌	-14.699
晰	-14.6991
拿	-14.6992
戁	-14.6993
䢂	-14.6993
慓	-14.6994
惹	-14.6995
惘	-14.6996
悱	-14.6997
怳	-14.6998
怗	-14.6999
嶸	-14.7
嶔	-14.7001
嵕	-14.7002
尻	-14.7003
寠	-14.7004
孌	-14.7005
嫻	-14.7006
婞	-14.7007
婇	-14.7008
姤	-14.7009
姣	-14.701
妷	-14.7011
夬	-14.7012
墁	-14.7013
塿	-14.7014
埽	-14.7015
垤	-14.7016
圬	-14.7017
䐜	-14.7017
嗅	-14.7018
呐	-14.7019
匏	-14.702
勷	-14.7021
劻	-14.7022
劂	-14.7023
剞	-14.7024
刾	-14.7025
僶	-14.7026
偫	-14.7027
偟	-14.7028
俻	-14.7029
侒	-14.703
仡	-14.7031
亙	-14.7032
䳨	-14.7033
傀	-14.7033
䢴	-14.7034
䌧	-14.7035
䃋	-14.7036
㮙	-14.7037
㩧	-14.7038
㚋	-14.7039
㒤	-14.704
麩	-14.7041
鷥	-14.7042
鵉	-14.7043
髑	-14.7044
髏	-14.7045
饔	-14.7046
饅	-14.7047
餬	-14.7048
餛	-14.7049
䏶	-14.7049
凸	-14.7049
埴	-14.7049
餗	-14.705
飩	-14.7051
飈	-14.7052
靂	-14.7053
霹	-14.7054
闤	-14.7055
閿	-14.7056
轜	-14.7057
蹭	-14.7058
蹐	-14.7059
踘	-14.706
謦	-14.7061
詖	-14.7062
褌	-14.7063
裼	-14.7064
蠮	-14.7065
䂪	-14.7065
蠭	-14.7066
蚾	-14.7067
蚵	-14.7068
薔	-14.7069
蓑	-14.707
艻	-14.7071
羝	-14.7072
繽	-14.7073
刵	-14.7073
卸	-14.7073
繻	-14.7074
綌	-14.7075
箎	-14.7076
窿	-14.7077
砭	-14.7078
矚	-14.7079
盔	-14.708
皚	-14.7081
䓗	-14.7081
䱉	-14.7081
儛	-14.7081
剮	-14.7081
畹	-14.7082
璊	-14.7083
璁	-14.7084
瑘	-14.7085
瑇	-14.7086
玶	-14.7087
獪	-14.7088
牾	-14.7089
㠯	-14.7089
䛇	-14.7089
呆	-14.7089
牴	-14.709
牱	-14.7091
燠	-14.7092
煚	-14.7093
滏	-14.7094
淞	-14.7095
涫	-14.7096
泾	-14.7097
倕	-14.7097
劲	-14.7097
氎	-14.7098
欬	-14.7099
檳	-14.71
椵	-14.7101
摴	-14.7102
慥	-14.7103
愻	-14.7104
惏	-14.7105
䣖	-14.7105
䥓	-14.7105
卹	-14.7105
嘹	-14.7105
塈	-14.7105
孀	-14.7105
忮	-14.7106
徕	-14.7107
庲	-14.7108
嵋	-14.7109
塤	-14.711
坏	-14.7111
噞	-14.7112
匍	-14.7113
㳽	-14.7113
㷅	-14.7113
䆠	-14.7113
䫨	-14.7113
傒	-14.7113
厶	-14.7113
媟	-14.7113
勱	-14.7114
仝	-14.7115
䐗	-14.7116
䏰	-14.7117
㻑	-14.7118
麈	-14.7119
髓	-14.712
騤	-14.7121
䬶	-14.7121
俓	-14.7121
吒	-14.7121
咻	-14.7121
嗑	-14.7121
墯	-14.7121
壍	-14.7121
騟	-14.7122
騏	-14.7123
颻	-14.7124
鞶	-14.7125
鏑	-14.7126
鉠	-14.7127
釂	-14.7128
鄔	-14.7129
㟮	-14.7129
㦃	-14.7129
㳄	-14.7129
䳒	-14.7129
佋	-14.7129
呀	-14.7129
婀	-14.7129
婷	-14.7129
媕	-14.7129
嬾	-14.7129
遛	-14.713
輴	-14.7131
躐	-14.7132
蹻	-14.7133
跬	-14.7134
詾	-14.7135
襚	-14.7136
袱	-14.7137
㙮	-14.7137
䄇	-14.7137
䔧	-14.7137
卄	-14.7137
听	-14.7137
嚏	-14.7137
垾	-14.7137
螉	-14.7138
蝠	-14.7139
蝙	-14.714
蛉	-14.7141
蚩	-14.7142
脗	-14.7143
纁	-14.7144
緼	-14.7145
㑫	-14.7146
㓝	-14.7146
㡢	-14.7146
㭬	-14.7146
㲜	-14.7146
㳙	-14.7146
䏂	-14.7146
䏎	-14.7146
䏑	-14.7146
䕠	-14.7146
串	-14.7146
俵	-14.7146
倂	-14.7146
做	-14.7146
兑	-14.7146
內	-14.7146
凷	-14.7146
划	-14.7146
劳	-14.7146
叁	-14.7146
尔	-14.7146
尩	-14.7146
悄	-14.7146
襖	-14.7146
絏	-14.7146
籀	-14.7147
篚	-14.7148
穠	-14.7149
禝	-14.715
瞍	-14.7151
琄	-14.7151
皺	-14.7152
瘤	-14.7153
㨔	-14.7154
㫿	-14.7154
㭖	-14.7154
㷱	-14.7154
䌫	-14.7154
䒩	-14.7154
䩨	-14.7154
俑	-14.7154
倞	-14.7154
偝	-14.7154
凈	-14.7154
劓	-14.7154
噲	-14.7154
噴	-14.7154
型	-14.7154
嫦	-14.7154
抆	-14.7154
甔	-14.7154
玁	-14.7155
狸	-14.7156
犛	-14.7157
濺	-14.7158
擐	-14.7158
汊	-14.7159
樟	-14.716
樗	-14.7161
㔹	-14.7162
㣪	-14.7162
㦄	-14.7162
㦤	-14.7162
㬅	-14.7162
㰖	-14.7162
䂀	-14.7162
䔉	-14.7162
侅	-14.7162
侠	-14.7162
倏	-14.7162
剑	-14.7162
剜	-14.7162
唫	-14.7162
嘽	-14.7162
噆	-14.7162
噦	-14.7162
塌	-14.7162
壈	-14.7162
妤	-14.7162
娣	-14.7162
婕	-14.7162
嬙	-14.7162
戔	-14.7162
愾	-14.7163
惓	-14.7164
悾	-14.7165
壩	-14.7166
悝	-14.7166
恁	-14.7167
岵	-14.7168
岊	-14.7169
㑴	-14.717
㘅	-14.717
㞶	-14.717
㣼	-14.717
㫺	-14.717
䑲	-14.717
䖈	-14.717
䮦	-14.717
䴢	-14.717
丌	-14.717
乚	-14.717
仚	-14.717
佷	-14.717
佽	-14.717
傖	-14.717
冸	-14.717
厷	-14.717
埤	-14.717
塏	-14.717
姎	-14.717
嫓	-14.717
寉	-14.717
悮	-14.717
禩	-14.717
姮	-14.717
嚳	-14.7171
嘑	-14.7172
咲	-14.7173
塽	-14.7174
丒	-14.7174
䤬	-14.7175
𧖟	-14.7176
麊	-14.7177
㘆	-14.7178
㡊	-14.7178
㳫	-14.7178
㼬	-14.7178
䣓	-14.7178
你	-14.7178
侐	-14.7178
剟	-14.7178
呴	-14.7178
喎	-14.7178
噂	-14.7178
臈	-14.7178
鸚	-14.7178
鵡	-14.7179
鬃	-14.718
髴	-14.7181
儭	-14.7182
髣	-14.7182
邗	-14.7183
讙	-14.7184
諲	-14.7185
誹	-14.7185
㐌	-14.7186
㚄	-14.7186
㬢	-14.7186
䀻	-14.7186
䔍	-14.7186
䘐	-14.7186
䳡	-14.7186
亏	-14.7186
从	-14.7186
傚	-14.7186
儜	-14.7186
劌	-14.7186
咷	-14.7186
圊	-14.7186
圌	-14.7186
垜	-14.7186
垻	-14.7186
埶	-14.7186
娃	-14.7186
躃	-14.7186
襞	-14.7186
螽	-14.7187
螳	-14.7188
螂	-14.7189
蝨	-14.719
蓚	-14.7191
葫	-14.7192
茤	-14.7193
㲪	-14.7194
习	-14.7194
份	-14.7194
俺	-14.7194
儵	-14.7194
剸	-14.7194
剺	-14.7194
喊	-14.7194
埾	-14.7194
堮	-14.7194
塪	-14.7194
妒	-14.7194
娀	-14.7194
寱	-14.7194
淖	-14.7194
爓	-14.7194
鑱	-14.7194
艣	-14.7194
肢	-14.7195
縟	-14.7196
筲	-14.7197
磝	-14.7198
碻	-14.7199
睥	-14.72
獼	-14.7201
㜸	-14.7202
㟠	-14.7202
㡣	-14.7202
䂭	-14.7202
䛑	-14.7202
䢵	-14.7202
䩭	-14.7202
丼	-14.7202
儘	-14.7202
嬀	-14.7202
犖	-14.7202
螘	-14.7202
齔	-14.7202
牣	-14.7203
桷	-14.7204
桎	-14.7205
撩	-14.7206
剩	-14.7206
搢	-14.7207
拇	-14.7208
抶	-14.7209
屹	-14.721
㡳	-14.721
㪣	-14.721
㮴	-14.721
䋋	-14.721
䤈	-14.721
䰇	-14.721
乜	-14.721
众	-14.721
俲	-14.721
傫	-14.721
咆	-14.721
坫	-14.721
埓	-14.721
墠	-14.721
宭	-14.721
壖	-14.7211
吃	-14.7212
䞇	-14.7213
齓	-14.7214
鶢	-14.7215
鶋	-14.7216
駸	-14.7217
鈄	-14.7218
㠊	-14.7218
[...]
