<unk>	0
<s>	0
</s>	0
/	-2.84875
也	-3.05415
)	-3.43156
(	-3.46577
)(	-3.6683
之	-4.25695
兮	-4.30141
而	-4.65346
一作	-4.93561
以	-4.96469
為	-5.12344
曰	-5.26107
,	-5.29782
其	-5.32118
補曰	-5.33123
爲	-5.34909
不	-5.35736
音	-5.43796
言	-5.45994
切	-5.48348
。	-5.51002
於	-5.53691
有	-5.63168
作	-5.66522
云	-5.72564
者	-5.73845
一	-5.74464
與	-5.87122
無	-5.91771
行	-6.06181
人	-6.09375
所	-6.10519
也補曰	-6.12191
故	-6.19071
大	-6.23254
君	-6.24119
山	-6.24318
水	-6.30335
子	-6.32275
上	-6.34523
心	-6.35954
則	-6.36606
天	-6.37155
此	-6.38252
名	-6.45533
謂	-6.47612
何	-6.49556
自	-6.50845
下	-6.51032
中	-6.51753
已	-6.52235
見	-6.53035
生	-6.54017
如	-6.55454
巳	-6.55874
字	-6.59293
思	-6.59548
同	-6.60558
志	-6.61546
長	-6.61786
明	-6.61872
我	-6.62095
王	-6.63418
又	-6.63503
逺	-6.64483
欲	-6.64716
神	-6.6472
亦	-6.65349
流	-6.6844
也言	-6.69691
乎	-6.69831
而不	-6.71898
皆	-6.72752
九	-6.7485
衆	-6.74874
道	-6.76759
髙	-6.77369
用	-6.77397
在	-6.79369
相	-6.79408
將	-6.80258
▁(	-6.82578
言已	-6.82634
貌	-6.83024
至	-6.83519
可	-6.84061
草	-6.85582
世	-6.85634
時	-6.86474
身	-6.86853
文	-6.87285
風	-6.87644
猶	-6.88057
日	-6.88458
木	-6.88781
正	-6.89084
從	-6.89599
若	-6.90669
國	-6.91046
去	-6.91935
知	-6.92433
得	-6.93123
乃	-6.9318
德	-6.93496
白	-6.93871
玉	-6.94197
然	-6.94964
言巳	-6.95121
五	-6.96305
?	-6.96743
樂	-6.9685
徳	-6.97546
方	-6.97841
皃	-6.97975
女	-6.98856
使	-6.9892
補	-6.99162
美	-7.0015
南	-7.00273
多	-7.01339
余	-7.01455
是	-7.02125
陽	-7.02644
出	-7.02932
三	-7.03146
賢	-7.0339
離	-7.03593
小	-7.04569
今	-7.05729
一云	-7.06001
于	-7.06884
𥙷曰	-7.07472
高	-7.07544
復	-7.07734
屈原	-7.07799
蘭	-7.07951
意	-7.0799
氣	-7.08194
雲	-7.08563
古	-7.10259
能	-7.10814
五臣云	-7.10898
葉	-7.14487
獨	-7.15487
不可	-7.15813
居	-7.15956
臣	-7.16474
靈	-7.16951
歸	-7.18931
注云	-7.19514
當	-7.20207
憂	-7.2085
非	-7.22048
安	-7.22193
未	-7.22594
處	-7.22708
說	-7.2274
香	-7.22984
雖	-7.2322
▁	-7.23318
華	-7.23621
善	-7.23753
龍	-7.23817
帝	-7.24454
夫	-7.26002
遂	-7.26485
焉	-7.26602
被	-7.27048
死	-7.2731
悲	-7.28274
江	-7.28435
懷	-7.28605
結	-7.2865
以為	-7.29132
入	-7.29901
一名	-7.30051
乗	-7.30677
二	-7.30833
命	-7.31349
盛	-7.31398
清	-7.31496
説	-7.31552
亂	-7.31661
好	-7.31702
耳	-7.32222
極	-7.32754
門	-7.32844
脩	-7.33445
石	-7.35067
鳥	-7.35171
後	-7.35209
只	-7.35357
黄	-7.3573
乘	-7.35889
車	-7.36738
合	-7.36763
願	-7.38303
西	-7.3859
失	-7.38707
並	-7.38714
過	-7.38933
成	-7.38935
周	-7.39179
東	-7.39268
傷	-7.39368
吾	-7.39518
楚	-7.39652
懐	-7.40058
地	-7.40082
義	-7.40826
北	-7.41224
哀	-7.421
惡	-7.4214
異	-7.42145
進	-7.426
重	-7.43425
及	-7.43465
聲	-7.43947
反	-7.44747
芳	-7.44747
情	-7.44957
忠	-7.45779
太	-7.45846
既	-7.46132
旣	-7.46871
實	-7.4689
澤	-7.47306
矣	-7.47451
路	-7.47452
花	-7.47884
佞	-7.48085
年	-7.48096
服	-7.48156
色	-7.48756
信	-7.49531
謂之	-7.49577
六	-7.49595
立	-7.49604
望	-7.50106
來	-7.50142
食	-7.50362
苦	-7.50889
爾雅	-7.51002
以爲	-7.51224
容	-7.51275
青	-7.51626
本	-7.5187
先	-7.52268
别	-7.52396
引	-7.54426
節	-7.56105
念	-7.56276
深	-7.56821
光	-7.57074
修	-7.5843
夏	-7.59221
舉	-7.5981
即	-7.5987
難	-7.59912
詩	-7.5993
和	-7.59943
些	-7.59948
己	-7.60025
常	-7.60668
直	-7.61339
事	-7.617
經	-7.62198
度	-7.62302
遊	-7.62901
放	-7.63006
往	-7.63087
忽	-7.63903
玄	-7.6394
喻	-7.64358
也五臣云	-7.64514
隱	-7.64679
語	-7.64708
疾	-7.6473
飛	-7.65419
求	-7.65568
桂	-7.65595
注	-7.65836
陳	-7.66269
馬	-7.66355
似	-7.66649
視	-7.671
前	-7.67201
類	-7.67232
傳	-7.67512
還	-7.67963
邪	-7.67975
觀	-7.67982
誠	-7.68007
丗	-7.68109
公	-7.68801
通	-7.68839
四	-7.68961
終	-7.69058
不得	-7.69408
紛	-7.69635
幽	-7.69728
不能	-7.69883
或	-7.70565
揚	-7.71409
惟	-7.71444
椒	-7.72259
衣	-7.7229
且	-7.72354
曲	-7.7287
内	-7.72972
野	-7.7313
竹	-7.73398
歌	-7.74027
解	-7.74095
宜	-7.74104
令	-7.74942
原	-7.74957
發	-7.74957
登	-7.74997
𤣥	-7.75896
平	-7.75923
百	-7.7675
盡	-7.7682
絶	-7.76834
土	-7.77723
䰟	-7.77728
根	-7.7869
遇	-7.7871
易	-7.78721
莫	-7.79642
浮	-7.8045
伯	-7.80474
辭	-7.80503
顧	-7.80525
魂	-7.80591
體	-7.80594
薄	-7.80633
俗	-7.80674
赤	-7.81519
分	-7.81566
必	-7.81588
秋	-7.82426
堂	-7.82538
因	-7.8352
㒵	-7.83576
書	-7.84319
朝	-7.84495
愁	-7.85059
羣	-7.85369
棄	-7.85393
始	-7.85496
弃	-7.85501
民	-7.85516
黃	-7.87448
精	-7.88377
聊	-7.88532
間	-7.88573
少	-7.88606
害	-7.88929
隠	-7.89522
冝	-7.89579
甚	-7.90613
貎	-7.90634
回	-7.90635
誰	-7.90661
宫	-7.90698
無所	-7.91415
形	-7.91607
盖	-7.91666
動	-7.91699
廣	-7.91713
隂	-7.91721
淸	-7.92729
窮	-7.92769
都	-7.92791
歎	-7.93276
聖	-7.93302
十	-7.93416
詞	-7.93466
蕙	-7.93697
列	-7.93752
章	-7.93775
海	-7.93809
彼	-7.93826
施	-7.93835
齊	-7.93844
馳	-7.93851
恐	-7.9388
七	-7.93886
禹	-7.93958
月	-7.94343
采	-7.94839
雜	-7.94943
湯	-7.95027
止	-7.95512
言己	-7.9568
夷	-7.96004
鳴	-7.96104
受	-7.96136
屈	-7.96985
萬	-7.97235
聞	-7.97243
星	-7.97277
也言巳	-7.9769
賦	-7.98004
比	-7.98291
變	-7.98307
春	-7.98315
足	-7.9834
八	-7.98399
近	-7.99436
初	-7.99482
數	-7.99532
以自	-7.99764
集	-8.0054
離騷	-8.00546
芷	-8.00553
次	-8.00617
淫	-8.00664
首	-8.00704
而無	-8.00888
波	-8.01784
尚	-8.0184
執	-8.01843
士	-8.02474
蔽	-8.02886
固	-8.02897
林	-8.02954
魚	-8.03025
屬	-8.03026
疏	-8.03043
駕	-8.03065
乆	-8.03083
皇	-8.03368
圖	-8.04014
藏	-8.04216
丘	-8.04233
化	-8.04319
也一云	-8.04875
以喻	-8.05286
按	-8.0532
老	-8.05381
著	-8.05434
張	-8.05446
也言已	-8.06053
家	-8.06559
政	-8.06649
疑	-8.06702
錯	-8.06711
佩	-8.06722
謀	-8.06726
取	-8.08047
漢	-8.09109
逢	-8.09109
横	-8.09194
象	-8.09197
孰	-8.09205
!	-8.09222
味	-8.0923
之所	-8.0971
稱	-8.10388
隨	-8.10402
目	-8.10439
一無	-8.10474
持	-8.10486
徑	-8.10494
法	-8.10522
舒	-8.11749
寒	-8.11764
昭	-8.11767
背	-8.11812
㑹	-8.11856
讒	-8.12005
史記	-8.12644
物	-8.12673
惑	-8.13013
介	-8.13095
兩	-8.13097
察	-8.13133
胡	-8.14458
代	-8.14482
朱	-8.14488
說文	-8.15227
河	-8.15605
細	-8.15702
性	-8.15742
任	-8.15812
聽	-8.15834
親	-8.15839
沈	-8.16531
紫	-8.16991
枝	-8.17118
轉	-8.17121
積	-8.17167
吳	-8.17171
伏	-8.17181
呼	-8.17405
也補	-8.18174
潔	-8.18356
英	-8.18407
角	-8.18596
集韻	-8.18663
本草	-8.18752
夜	-8.19236
考	-8.19837
冥	-8.19862
蓋	-8.19941
達	-8.19951
冬	-8.20035
一本	-8.20774
申	-8.21258
禮	-8.2131
指	-8.21326
暮	-8.21373
予	-8.21407
折	-8.21409
舊	-8.22285
忠信	-8.22446
開	-8.22735
理	-8.22794
竭	-8.22831
黒	-8.22858
香草	-8.22984
梁	-8.2415
力	-8.24227
釋	-8.2424
由	-8.24278
橘	-8.2428
虚	-8.24306
邑	-8.24325
主	-8.24344
懷王	-8.24662
詩云	-8.24782
厚	-8.25077
官	-8.25327
不知	-8.25521
武	-8.25693
永	-8.25713
㠯	-8.2577
雨	-8.25814
亡	-8.25841
皮	-8.25843
橫	-8.25843
明也	-8.25864
是也	-8.26601
落	-8.27205
覽	-8.27276
微	-8.27303
罔	-8.27305
戲	-8.28434
逝	-8.28677
宿	-8.28829
位	-8.28856
忘	-8.28859
升	-8.28875
照	-8.28886
告	-8.28892
感	-8.30111
怨	-8.3025
恨	-8.30332
質	-8.30382
更	-8.30404
交	-8.30441
承	-8.30447
左	-8.3045
越	-8.305
外	-8.30533
諫	-8.30947
載	-8.31745
州	-8.3182
后	-8.32044
蒙	-8.32078
釋文作	-8.32325
釋文	-8.33111
樹	-8.33557
興	-8.33558
干	-8.33581
室	-8.33601
厲	-8.33602
金	-8.33616
歷	-8.33621
秦	-8.33646
懐王	-8.33967
天下	-8.3475
遭	-8.35166
危	-8.3518
靡	-8.35191
翔	-8.35215
衡	-8.35218
淵	-8.35228
雅	-8.35232
君之	-8.35234
翼	-8.3528
堯	-8.35284
功	-8.35294
逹	-8.35327
要	-8.35563
楚國	-8.36679
巻	-8.36746
諸	-8.36815
辛	-8.36846
䝉	-8.36908
榮	-8.36913
右	-8.36925
履	-8.36937
壽	-8.36984
之山	-8.3706
孔	-8.38139
蒲	-8.38205
仁	-8.38504
號	-8.38554
也𥙷曰	-8.38578
靑	-8.386
滿	-8.38607
委	-8.38611
待	-8.38616
千	-8.38638
幸	-8.38678
殺	-8.38691
濁	-8.40224
酒	-8.40245
覆	-8.40301
強	-8.40337
雷	-8.40361
歩	-8.40362
益	-8.40424
兾	-8.40437
説文	-8.40681
留	-8.41943
言君	-8.41993
毒	-8.42039
俊	-8.42066
急	-8.42094
御	-8.42094
卒	-8.42138
莖	-8.42685
郢	-8.43621
第	-8.43678
之人	-8.43775
遺	-8.43797
茝	-8.43808
沙	-8.43829
揺	-8.43831
博	-8.43846
移	-8.43851
元	-8.43868
辟	-8.43902
滅	-8.43927
九歌	-8.43936
啓	-8.43944
父	-8.43964
依	-8.44304
種	-8.44812
臣云	-8.45008
師	-8.45623
遠	-8.45628
歳	-8.45673
里	-8.45678
陵	-8.4569
舍	-8.45744
伐	-8.45746
紂	-8.45748
曽	-8.4575
口	-8.45769
射	-8.45823
徒	-8.46076
治	-8.46354
心中	-8.46849
歴	-8.475
苗	-8.47501
舜	-8.47503
尤	-8.47505
傾	-8.47531
索	-8.47536
喜	-8.47557
昔	-8.47572
貴	-8.47578
游	-8.47596
衆人	-8.47691
九章	-8.47758
飾	-8.48635
甘	-8.49162
就	-8.4936
菜	-8.49382
涕	-8.49397
何所	-8.49402
冀	-8.49409
棘	-8.49436
營	-8.49447
豈	-8.49449
䟽	-8.49534
所以	-8.49859
氏	-8.49924
之中	-8.50675
逸	-8.51029
智	-8.51216
征	-8.51216
篇	-8.51276
唐	-8.51311
鼓	-8.51313
應	-8.51317
阿	-8.51318
困	-8.51376
共	-8.51398
託	-8.51426
淮南	-8.51766
可以	-8.5178
菊	-8.53072
良	-8.53214
荷	-8.53231
違	-8.53231
爾	-8.53235
汨	-8.53261
蛇	-8.53299
援	-8.53336
工	-8.53352
屋	-8.53407
厥	-8.53483
賦云	-8.53866
說文云	-8.53916
顔	-8.54836
山海經	-8.54933
湘	-8.55061
人之	-8.55061
連	-8.55264
驅	-8.55269
草木	-8.55276
遷	-8.55319
枉	-8.55353
維	-8.55361
葢	-8.55364
舎	-8.55392
戸	-8.55412
識	-8.55953
芝	-8.57106
賢人	-8.57121
殷	-8.57294
獲	-8.57296
貪	-8.57335
鬱	-8.57336
囘	-8.57341
據	-8.57355
改	-8.57366
瑶	-8.57368
起	-8.57382
頭	-8.57385
匹	-8.57391
降	-8.57414
斗	-8.57451
君子	-8.58122
上有	-8.58693
條	-8.5935
池	-8.59418
超	-8.59421
瓊	-8.59437
素	-8.59447
烏	-8.59464
彌	-8.59474
俱	-8.59488
徐	-8.59488
定	-8.5949
言我	-8.59881
􁀙	-8.61497
帶	-8.61524
逐	-8.6153
鄉	-8.61547
畫	-8.61549
艾	-8.61553
旗	-8.61558
䇿	-8.61565
論	-8.61578
娛	-8.61584
火	-8.61602
魂乎歸徠	-8.61708
去聲	-8.6192
此言	-8.63352
嵗	-8.63627
愍	-8.63639
退	-8.63657
䜛	-8.63675
守	-8.63681
端	-8.63689
垂	-8.63699
丹	-8.63726
巧	-8.63729
下有	-8.63729
聚	-8.63732
寤	-8.63742
怒	-8.63764
許	-8.63796
天地	-8.64168
史	-8.6527
文選	-8.65729
羽	-8.65808
貞	-8.65825
尊	-8.65895
側	-8.65916
旦	-8.65921
蹇	-8.65954
運	-8.65973
旋	-8.65984
閒	-8.65995
設	-8.66005
母	-8.66051
以言	-8.66188
遊戲	-8.66657
二切	-8.67552
谷	-8.67957
愚	-8.68097
昌	-8.68104
荃	-8.68116
他	-8.68185
渡	-8.68185
敗	-8.68198
誤	-8.68205
汩	-8.68211
鍾	-8.68215
痛	-8.68218
期	-8.68248
含	-8.68251
輔	-8.68265
鴻	-8.68268
􁁊	-8.68275
鮌	-8.68336
所謂	-8.69088
何以	-8.70018
不同	-8.70033
招	-8.7025
羅	-8.70448
戾	-8.70455
㣲	-8.70466
獸	-8.70471
奔	-8.70499
推	-8.70509
哉	-8.7052
順	-8.70526
附	-8.7053
愛	-8.70533
友	-8.70541
惜	-8.70544
穢	-8.7055
汜	-8.70558
羊	-8.70563
姓	-8.70568
久	-8.70573
手	-8.70573
迫	-8.7058
雄	-8.70583
致	-8.70599
才	-8.70612
闔	-8.7062
郷	-8.70627
但	-8.70671
日月	-8.71141
而自	-8.71316
新	-8.72757
王逸註	-8.72828
慮	-8.72844
延	-8.72874
侯	-8.7291
置	-8.72912
蒿	-8.72917
蘇	-8.72925
枯	-8.72955
徙	-8.72964
舞	-8.72975
龜	-8.72975
臺	-8.72987
制	-8.72995
炎	-8.73001
圜	-8.73011
河伯	-8.73144
啟	-8.7317
夀	-8.74491
五臣	-8.7465
記	-8.74996
也一無	-8.75148
存	-8.75269
飲	-8.75271
陸	-8.75276
末	-8.7531
陶	-8.75321
空	-8.75329
名也	-8.75333
驚	-8.75339
操	-8.75346
侍	-8.75366
吟	-8.75393
仰	-8.75395
閔	-8.75401
川	-8.75401
吴	-8.75416
顛	-8.75429
桑	-8.75454
建	-8.75456
保	-8.75461
舟	-8.75463
忠直	-8.7698
君不	-8.77418
席	-8.77569
慕	-8.77725
抱	-8.77761
息	-8.77779
衰	-8.77806
嘉	-8.77835
各	-8.77844
煩	-8.77852
漸	-8.77852
病	-8.77853
鄭	-8.77859
兹	-8.77861
群	-8.77862
散	-8.7787
□	-8.77877
須	-8.77878
沒	-8.7788
悵	-8.77891
弱	-8.77895
私	-8.77909
咸	-8.77911
寧	-8.77924
懼	-8.77929
弗	-8.77935
爭	-8.77953
利	-8.77961
讒佞	-8.78004
字補曰	-8.78769
而生	-8.79295
句	-8.80364
布	-8.80369
怪	-8.80378
昏	-8.80402
純	-8.8041
禄	-8.80425
鳳	-8.80426
毛	-8.80434
宗	-8.80447
忿	-8.80447
繼	-8.80505
澆	-8.80509
笑	-8.80511
循	-8.8052
俗人	-8.81483
思念	-8.8234
子曰	-8.82482
愁思	-8.82564
虎	-8.8286
庭	-8.82907
蓀	-8.8299
序	-8.83022
抑	-8.83028
孫	-8.83029
茅	-8.83031
真	-8.83033
曾	-8.83052
刺	-8.83053
鳯	-8.83057
撫	-8.83078
差	-8.8308
荆	-8.83081
騰	-8.83089
虞	-8.83096
備	-8.83107
罷	-8.83118
户	-8.83133
圓	-8.83138
馮	-8.8318
仁義	-8.8318
對	-8.83192
妃	-8.83208
崑崙	-8.83231
非是	-8.83588
其志	-8.83692
之士	-8.83997
小人	-8.84735
終不	-8.85239
莞	-8.85288
氷	-8.85299
仙	-8.85557
杜	-8.85629
問	-8.85635
霧	-8.85658
渚	-8.85729
威	-8.85742
晉	-8.85742
冤	-8.85746
造	-8.8575
氛	-8.85757
堅	-8.85763
旁	-8.85789
瑟	-8.85796
塵	-8.85799
竒	-8.85805
康	-8.85831
殊	-8.85864
周流	-8.86364
讀	-8.88108
城	-8.88487
祖	-8.88498
荒	-8.88501
儀	-8.88529
珠	-8.8854
增	-8.88549
累	-8.8855
餘	-8.88551
闇	-8.88564
巫	-8.88602
擊	-8.88611
商	-8.88635
千里	-8.88674
仲	-8.88677
緑	-8.88701
子胥	-8.88712
淮南云	-8.89078
上下	-8.89348
叢	-8.89775
鬼	-8.9121
所居	-8.9128
竄	-8.91301
圃	-8.91331
裳	-8.91344
景	-8.91366
凡	-8.91377
歲	-8.91386
泥	-8.9139
徃	-8.91413
弓	-8.91419
莽	-8.91427
電	-8.91429
愈	-8.91437
班	-8.9145
𬒳	-8.91468
温	-8.91493
呉	-8.91496
羿	-8.91568
楚人	-8.92111
之不	-8.92497
中心	-8.92956
説文云	-8.93818
君也	-8.94016
逺遊	-8.94042
悴	-8.94188
患	-8.94206
寂	-8.94216
激	-8.94268
臯	-8.94269
露	-8.94292
晏	-8.94308
偽	-8.94334
衍	-8.94355
靜	-8.94363
量	-8.9437
没	-8.94388
遵	-8.94396
憤	-8.94396
羌	-8.94406
船	-8.94411
具	-8.94428
虛	-8.94431
平聲	-8.9455
毁	-8.9491
傅	-8.97248
逰	-8.9727
泣	-8.97275
魄	-8.97293
田	-8.97303
披	-8.9731
増	-8.97324
輕	-8.97335
迎	-8.97344
楊	-8.97368
想	-8.97371
曼	-8.97374
適	-8.97392
佯	-8.97398
苟	-8.974
勞	-8.97413
巖	-8.97421
尺	-8.97424
牛	-8.97426
蘋	-8.97447
盈	-8.97455
雞	-8.975
去也	-8.97567
楚詞	-8.97609
東方	-8.9791
憂愁	-8.98797
逺去	-8.99255
賢者	-8.99495
縣	-9.00083
讒人	-9.00084
也一本	-9.00287
狀	-9.00353
松	-9.00381
霓	-9.00389
頽	-9.00405
刀	-9.0041
椉	-9.00437
約	-9.00445
迷	-9.00448
荼	-9.00454
沛	-9.00465
敷	-9.00466
參	-9.00474
捐	-9.00475
陞	-9.00475
戚	-9.00479
渉	-9.00492
洲	-9.00494
習	-9.00503
敢	-9.00534
姱	-9.00539
斷	-9.0054
詳	-9.00541
僞	-9.0055
㓗	-9.00566
吉	-9.00571
眞	-9.00574
塗	-9.0059
特	-9.0059
弟	-9.00592
九辯	-9.00638
王逸	-9.00658
一曰	-9.01072
貌也	-9.01936
而日	-9.02122
騷	-9.03344
仁傑按	-9.03432
避	-9.03627
惻	-9.03653
将	-9.03658
謟	-9.03667
菌	-9.03672
管	-9.03686
媒	-9.03687
臨	-9.03691
諛	-9.03697
蕪	-9.0371
掩	-9.03718
專	-9.03736
展	-9.0374
骨	-9.0374
斥	-9.03755
扶	-9.03772
支	-9.03776
縱	-9.03778
縁	-9.03784
悔	-9.03795
湛	-9.03804
毀	-9.03824
謇	-9.03847
顚	-9.03852
恣	-9.03891
天問	-9.03895
自傷	-9.04579
大夫	-9.04991
二音	-9.06199
䛕	-9.06892
滛	-9.0691
夕	-9.06943
漠	-9.06961
婦	-9.0697
孤	-9.06983
鵠	-9.06988
穆	-9.07011
飄	-9.07015
劒	-9.07019
黨	-9.07037
晦	-9.07037
植	-9.07053
徠	-9.07064
誅	-9.07072
聼	-9.07072
隕	-9.07073
墮	-9.07073
眩	-9.07098
嚴	-9.0712
紆	-9.07127
竝	-9.07131
肉	-9.07172
爰	-9.07285
莊子曰	-9.07331
也一曰	-9.07368
所在	-9.07498
西北	-9.07509
江離	-9.0751
北方	-9.0753
忠正	-9.0754
南方	-9.07869
而長	-9.08086
憂也	-9.08125
聖人	-9.08143
也詩云	-9.09678
吕	-9.09933
詩曰	-9.09987
薠	-9.1032
赴	-9.10359
黙	-9.10412
楸	-9.10417
宋	-9.10422
房	-9.10427
藥	-9.10427
眾	-9.10445
廹	-9.1045
加	-9.10454
面	-9.10456
淮	-9.10458
走	-9.10465
壹	-9.10472
遥	-9.1048
蜺	-9.10484
宇	-9.10489
騁	-9.10492
徂	-9.10494
雌	-9.10495
敬	-9.10513
廟	-9.10521
臭	-9.10527
客	-9.10544
琴	-9.10547
倚	-9.10567
鮮	-9.10578
佚	-9.10585
步	-9.10587
湖	-9.10588
召	-9.1059
見騷經	-9.10634
蔓	-9.10635
美人	-9.1076
李	-9.10824
懸	-9.12964
故曰	-9.13237
註	-9.13614
蟬	-9.13982
寳	-9.14003
選	-9.14008
伊	-9.14011
嗟	-9.14021
寐	-9.14025
便	-9.14036
陶隠居云	-9.14045
旌	-9.14058
淹	-9.14059
倡	-9.14059
養	-9.14067
茂	-9.14073
促	-9.14089
賊	-9.1409
冥冥	-9.14095
娱	-9.14119
忍	-9.14144
悁	-9.14145
甲	-9.14147
濵	-9.14154
戒	-9.14154
諌	-9.14155
壄	-9.14157
葛	-9.14172
斯	-9.14175
鹿	-9.14179
負	-9.14179
諸侯	-9.14194
肆	-9.14221
茞	-9.14239
薺	-9.14241
也言己	-9.14847
山澤	-9.15109
皆有	-9.16707
孟	-9.16889
芙蓉	-9.17668
蕩	-9.17701
匿	-9.17707
杜蘅	-9.17709
刑	-9.1773
闕	-9.17748
蕭	-9.17749
驥	-9.1776
峻	-9.17765
絕	-9.1777
驂	-9.17771
軫	-9.17792
投	-9.17793
鳳皇	-9.17796
懲	-9.17799
會	-9.17803
救	-9.17806
勢	-9.1782
墜	-9.17827
放逐	-9.17827
矢	-9.17833
閉	-9.17833
醴	-9.17843
夢	-9.17861
決	-9.17863
堯舜	-9.17877
罰	-9.17879
叶韻	-9.17901
迹	-9.17918
傺	-9.17925
革	-9.1793
之道	-9.18133
不合	-9.19633
而見	-9.19858
司命	-9.20191
也詩曰	-9.21324
閭	-9.21486
坎	-9.21497
眇眇	-9.21506
姦	-9.2151
握	-9.21532
之類	-9.21543
卓	-9.21548
紀	-9.21571
冠	-9.21575
凶	-9.21589
狹	-9.21595
畔	-9.21599
翳	-9.21608
蒼	-9.21624
殃	-9.2163
浩	-9.21631
寄	-9.21634
占	-9.21649
夭	-9.21651
潤	-9.2166
爛	-9.21667
滑	-9.21668
隅	-9.21672
犬	-9.21676
黑	-9.21682
謗	-9.2169
勝	-9.2169
再	-9.21696
務	-9.21697
戰	-9.21699
臧	-9.21704
稷	-9.21713
膏	-9.21717
罪	-9.21723
崔	-9.21726
伍	-9.2173
清潔	-9.21805
比干	-9.21849
浮雲	-9.21912
清白	-9.22283
也五臣	-9.22965
之行	-9.23228
無有	-9.23819
夫何	-9.23884
葉似	-9.23936
傳曰	-9.24147
記云	-9.2506
而行	-9.25139
亂曰	-9.25166
扵	-9.25399
繩	-9.25427
秀	-9.25517
導	-9.25528
吸	-9.25546
昧	-9.25565
葵	-9.25568
摧	-9.25593
葯	-9.25596
調	-9.25607
茍	-9.25616
銜	-9.25618
米	-9.25626
霜	-9.25631
裔	-9.25632
廉	-9.25632
宮	-9.25635
顯	-9.25643
契	-9.25646
遽	-9.25657
凌	-9.2566
孝	-9.2568
淺	-9.25682
表	-9.25694
羹	-9.25703
刻	-9.25705
短	-9.25707
勤	-9.25708
肯	-9.25709
涼	-9.25764
東西	-9.26018
猶未	-9.2649
一種	-9.27416
中有	-9.27567
而後	-9.28119
也或曰	-9.28928
録	-9.29701
弧	-9.29703
壅	-9.29724
險	-9.29739
暴	-9.29741
穴	-9.29746
辰	-9.29761
眇	-9.29761
牙	-9.29775
芬芳	-9.29789
㝠	-9.29803
圎	-9.29804
器	-9.29806
蟻	-9.29806
低	-9.29806
薜荔	-9.29807
寥	-9.2981
庸	-9.29817
塞	-9.29821
阻	-9.29822
梅	-9.29832
謬	-9.29841
榖	-9.29842
省	-9.29844
壁	-9.29847
接	-9.29851
收	-9.29852
稽	-9.29855
軒	-9.29858
追	-9.29859
配	-9.29859
譖	-9.29861
尚書	-9.29943
賢愚	-9.30002
歸來	-9.30321
白色	-9.30328
彭	-9.30867
天帝	-9.31252
曲也	-9.31388
容與	-9.3142
皃也	-9.31489
而不能	-9.31554
而得	-9.31586
又音	-9.32337
郭璞	-9.33194
朗	-9.33696
薦	-9.33833
法也	-9.339
芬	-9.33955
寃	-9.33989
羮	-9.34065
果	-9.34072
乾	-9.34101
愴	-9.34119
茹	-9.34124
朋	-9.34125
佳	-9.34126
教	-9.34128
棲	-9.34129
規	-9.34133
禍	-9.34135
崇	-9.34136
敖	-9.34137
熟	-9.34142
妙	-9.34158
假	-9.34171
畜	-9.34173
聴	-9.34184
到	-9.34188
涯	-9.34198
妬	-9.34203
除	-9.34204
伊尹	-9.34209
仕	-9.34214
墨	-9.34217
畢	-9.34218
楫	-9.34225
封	-9.34227
緣	-9.34239
賤	-9.34239
鳬	-9.3426
扈	-9.34265
熊	-9.34274
證	-9.34286
郭璞註	-9.34303
忳	-9.34312
狀如	-9.34347
天地之	-9.34608
精神	-9.34744
然後	-9.34996
失志	-9.35387
道德	-9.35555
憂心	-9.35695
然則	-9.36205
又曰	-9.36933
志意	-9.3746
並音	-9.38158
韻	-9.38166
之處	-9.38276
章句第	-9.383
菀	-9.38522
雉	-9.38525
納	-9.38531
註云	-9.38543
繚	-9.38564
鶴	-9.38576
蔡	-9.38578
蘆	-9.38593
寶	-9.38612
忌	-9.38615
燕	-9.38622
權	-9.38622
迅	-9.38637
悽	-9.38638
衛	-9.38644
駟	-9.38647
幼	-9.38652
衞	-9.38652
逶	-9.38656
厭	-9.38672
奮	-9.38686
蜿	-9.38688
虹	-9.3869
零	-9.3869
帷	-9.38694
蓬	-9.38695
諷	-9.387
徴	-9.387
兆	-9.38704
邅	-9.38704
驕	-9.38706
醢	-9.3871
垢	-9.38712
叔	-9.38713
娭	-9.38716
偃蹇	-9.38722
危殆	-9.38727
鴟	-9.38727
洞	-9.38731
翠	-9.38737
静	-9.38743
繁	-9.38747
拂	-9.38764
糅	-9.38771
鴈	-9.38776
虺	-9.38777
祭	-9.38791
轡	-9.38797
寸	-9.38805
述	-9.38805
津	-9.38809
熱	-9.38811
關	-9.38818
憑	-9.38826
逺逝	-9.38994
百草	-9.39225
西方	-9.39511
顔師古	-9.3987
又有	-9.39921
言日	-9.39942
憂思	-9.39969
意欲	-9.40122
忠直之	-9.40793
忠信之	-9.41462
之神	-9.41562
如此	-9.41725
𥙷	-9.43007
柏	-9.43047
辛夷	-9.43212
隂陽	-9.43254
瞻	-9.43323
紉	-9.43334
吐	-9.43356
振	-9.43376
卧	-9.43382
䧟	-9.43391
究	-9.43394
慄	-9.43395
牽	-9.43403
漁父	-9.43407
彰	-9.43419
鸞	-9.43421
束	-9.43421
普	-9.43428
滯	-9.43431
蓴	-9.43433
郎	-9.43434
頗	-9.43434
爵	-9.43445
嘉祐圖經云	-9.43445
擥	-9.43449
免	-9.43451
并	-9.43452
社	-9.43467
坐	-9.4347
嫉	-9.43471
豹	-9.43472
豫	-9.43479
萃	-9.43484
虬	-9.43492
髪	-9.43495
畝	-9.43499
迴	-9.43505
祀	-9.43507
吞	-9.43526
皓	-9.43539
萬物	-9.43557
乖	-9.43589
菅	-9.4359
燭	-9.43627
漢書	-9.43703
放弃	-9.43709
愁苦	-9.43743
四海	-9.43795
往來	-9.43825
九州	-9.43844
武王	-9.43868
申生	-9.43958
重華	-9.44036
湘君	-9.44056
江南	-9.44184
進用	-9.44326
山名	-9.44336
孟子	-9.44572
又何	-9.4458
泉	-9.44876
與此	-9.45734
水中	-9.46116
厚也	-9.46169
逺兮	-9.4632
世溷濁	-9.47761
不用	-9.47875
之外	-9.48015
蘼蕪	-9.48145
怊	-9.48196
燿	-9.48252
菰	-9.48269
酌	-9.48279
来	-9.48324
芒	-9.48342
憤懣	-9.48344
効	-9.4837
策	-9.48377
庶	-9.48379
魁	-9.48387
奔走	-9.48392
秉	-9.48402
誓	-9.48407
苓	-9.48408
續	-9.48412
獻	-9.48417
辨	-9.48418
浴	-9.48419
寛	-9.48424
漫	-9.48426
總	-9.48432
涉	-9.48438
絲	-9.48441
廓	-9.48442
㳺	-9.48443
曹	-9.48446
愽	-9.48449
淩	-9.4845
福	-9.48455
隔	-9.48457
皐	-9.48465
麻	-9.48466
叙	-9.48469
凉	-9.48471
烝	-9.48471
朴	-9.48473
簫	-9.48475
濳	-9.48477
豪	-9.48477
柔	-9.48483
鼎	-9.48487
䠶	-9.48491
雀	-9.48496
計	-9.48496
卷	-9.48499
卑	-9.485
惠	-9.48516
歧	-9.48516
轅	-9.4852
糧	-9.48527
鳯皇	-9.48531
宴	-9.48535
詐	-9.48536
甞	-9.48536
攘	-9.48538
奄	-9.48547
咸池	-9.4855
列子	-9.48564
吹	-9.48577
浦	-9.48577
詒	-9.48586
鯀	-9.48593
扶桑	-9.48672
法度	-9.48679
春秋	-9.48701
木蘭	-9.49685
太一	-9.50051
音同	-9.51206
其葉	-9.5138
淮南子	-9.51726
神明	-9.51804
害也	-9.52189
之事	-9.52512
悒	-9.53267
博雅	-9.53399
阜	-9.53567
蜀	-9.53593
典	-9.53596
歡	-9.53637
逍遥	-9.53645
輿	-9.53653
傑	-9.53658
曠	-9.53664
菉	-9.53667
羲	-9.53675
充	-9.53675
恒	-9.53682
愉	-9.53683
卉	-9.53687
魂兮歸來	-9.53687
機	-9.53688
韓	-9.53696
髮	-9.53702
鎭	-9.5371
杳杳	-9.53712
效	-9.53718
儵	-9.5372
漿	-9.53723
沅	-9.53728
陷	-9.53732
消	-9.53735
亷	-9.5374
邊	-9.53753
狂	-9.53755
巨	-9.53759
業	-9.53759
咎	-9.53761
沅湘	-9.53764
嘗	-9.53792
嫉妬	-9.53798
竟	-9.53804
快	-9.53812
慿	-9.53823
剖	-9.53826
膺	-9.53826
冰	-9.53836
尾	-9.53843
季	-9.53855
虎豹	-9.53863
播	-9.53882
左右	-9.53916
箘	-9.53921
桀	-9.53927
飲食	-9.53966
大人賦	-9.53981
山鬼	-9.5417
東南	-9.54351
其若	-9.55276
舊音	-9.55379
人謂之	-9.5555
之詞	-9.55613
或作	-9.55957
一注云	-9.57233
志也	-9.57379
皇天	-9.57692
氏之	-9.57851
之徒	-9.57955
盛也	-9.58463
藻	-9.58612
郭	-9.58797
懿	-9.59055
梓	-9.59124
遙	-9.59151
栗	-9.59153
奇	-9.5916
嶺	-9.59164
梟	-9.59184
詬	-9.59198
杳	-9.59211
舩	-9.59219
强	-9.59222
汙	-9.59224
凝	-9.59224
富	-9.59228
觸	-9.59231
烈	-9.59242
搴	-9.59245
蒸	-9.59248
耀	-9.59251
纁	-9.59254
恩	-9.59258
徘徊	-9.59259
鑿	-9.59266
厯	-9.59268
諂	-9.59273
襲	-9.59275
慨	-9.59275
祠	-9.59277
揭	-9.59279
慎	-9.5928
囿	-9.59281
鳩	-9.59287
惶	-9.5929
芰	-9.5929
遁	-9.59295
幹	-9.59304
妖	-9.59304
宋洪興祖撰	-9.59304
晻	-9.5931
葅	-9.59311
溢	-9.59312
緯	-9.59319
􁓒	-9.59319
祝融	-9.59321
櫂	-9.59323
牧	-9.59323
半	-9.59324
䕃	-9.59334
糾	-9.59335
兼	-9.59337
杜若	-9.59343
矯	-9.59346
衰老	-9.59349
竽	-9.59351
愼	-9.59358
峨峨	-9.59361
簡	-9.59362
蘘荷	-9.59362
屠	-9.59363
婉	-9.59375
㢮	-9.59378
闗	-9.59387
浞	-9.59393
璣	-9.59396
禮記	-9.59426
低佪	-9.59439
鳥獸	-9.59476
明君	-9.59507
離騷經	-9.59528
大招	-9.59807
風俗	-9.5988
黄帝	-9.59996
補曰説文	-9.60489
聖明	-9.6072
也又	-9.60933
道徳	-9.60961
帝謂	-9.61035
飾也	-9.61353
其身	-9.61358
故言	-9.61435
止也	-9.61961
叢生	-9.62427
十二	-9.62804
釋文第	-9.62957
蒜	-9.64522
俞	-9.64577
已之	-9.6462
葍	-9.64836
筆	-9.64855
橘柚	-9.65005
屑	-9.65031
辱	-9.65044
軌	-9.65059
騷經	-9.65066
憫	-9.65071
憭	-9.65072
𤼵	-9.65077
菖蒲	-9.65078
血	-9.6508
鴞	-9.65084
礚	-9.65092
丁	-9.6511
向	-9.65114
劉向	-9.65117
奉	-9.6512
騖	-9.65121
人謂	-9.65122
源	-9.65126
嬋	-9.65126
覩	-9.65129
遑	-9.65132
麗	-9.65133
溷	-9.65135
族	-9.65143
鈍	-9.65144
濟	-9.65146
唐本註云	-9.65154
逴	-9.65155
醜	-9.65157
曉	-9.65158
藜	-9.6516
憎	-9.65166
収	-9.6517
仞	-9.6517
謝	-9.65176
輪	-9.65178
壞	-9.65179
篤	-9.65185
駑	-9.65185
楚詞補注巻	-9.65186
粱	-9.6519
議	-9.65195
鄣	-9.65198
墬	-9.65218
謡	-9.6522
雍	-9.65232
《	-9.6524
》	-9.65243
汝	-9.65249
湘夫人	-9.6525
襄	-9.65252
攝	-9.65253
敎	-9.65258
祿	-9.65259
壇	-9.65265
兄	-9.65265
下音戸	-9.65268
狐	-9.65273
洋洋	-9.65277
䰟魄	-9.6528
殿	-9.653
丈	-9.65303
巡	-9.65337
忠貞	-9.65384
變易	-9.65473
仙人	-9.65541
太公	-9.65607
白芷	-9.65635
黃帝	-9.65639
山谷	-9.65674
忠臣	-9.65744
椒蘭	-9.65775
郭璞云	-9.65991
二女	-9.66257
亦有	-9.66328
南北	-9.66357
香草也	-9.67237
言司命	-9.67349
盛貌	-9.68434
髙山	-9.68835
楚辭卷第	-9.6884
其實	-9.69563
其中	-9.69598
或曰	-9.70283
崑崙之	-9.70712
十一	-9.70832
卭	-9.71059
繪	-9.71087
蛟	-9.71126
校	-9.71129
巒	-9.71166
洶	-9.71175
薋	-9.71194
全	-9.71195
徧	-9.71205
宣	-9.71215
楹	-9.71221
界	-9.71243
抽	-9.71256
休	-9.71258
犇	-9.71271
泠	-9.71272
採	-9.71273
闐	-9.71273
悄	-9.71279
慌	-9.71291
睩	-9.713
妄	-9.71303
晨	-9.71304
;	-9.71309
桐	-9.71327
逃	-9.7133
敶	-9.71338
懈	-9.71338
沸	-9.71342
釣	-9.71344
際	-9.71356
鄙	-9.71362
潛	-9.71366
讒䛕	-9.71366
隘	-9.71366
翩	-9.71371
訓	-9.71373
蛟龍	-9.71375
閨	-9.71377
苴	-9.71378
竢	-9.71391
鶉	-9.71393
洛	-9.71397
摶	-9.71399
譽	-9.71408
佇	-9.7141
濡	-9.7141
沐	-9.71413
媮	-9.7142
逾	-9.7142
澹	-9.71421
驪	-9.71427
悠	-9.71429
奚	-9.7143
自憐	-9.7143
駿	-9.71431
送	-9.71436
弭	-9.71442
謨	-9.71443
駭	-9.71444
胷	-9.71448
豐隆	-9.71461
拘	-9.71465
晚	-9.71467
曳	-9.71475
藂	-9.71476
祐	-9.71484
覺	-9.71495
態	-9.71501
娶	-9.71504
妻	-9.71504
冉	-9.71512
校書郎臣王逸上	-9.71513
職	-9.71536
矩	-9.71541
唯	-9.71544
沖	-9.71544
桂樹	-9.71545
賔	-9.71561
擇	-9.71601
百姓	-9.71605
仇	-9.71616
飄風	-9.71662
陳列	-9.71679
楚辭	-9.71812
江東	-9.71972
西極	-9.72229
屈子	-9.72468
又云	-9.7261
吾將	-9.72626
先王	-9.72703
言楚	-9.72892
云今	-9.72912
史記作	-9.73265
天命	-9.73472
楚辭卷第十	-9.74188
自沈	-9.7424
補曰詩云	-9.7482
本作	-9.75183
自喻	-9.75248
同志	-9.75282
說者	-9.75574
取其	-9.76388
可食	-9.76856
獨行	-9.76984
不死	-9.77204
言已欲	-9.77338
不遇	-9.77709
司	-9.77832
圗	-9.77839
蓮	-9.77861
仁傑按山海經	-9.77903
慶	-9.77909
圖經云	-9.77909
貫	-9.77918
倒	-9.77921
陋	-9.77947
葭	-9.77949
戎	-9.77952
鉏	-9.7796
胥	-9.77965
谿	-9.77967
洞庭	-9.77969
尹	-9.7797
光明	-9.77978
躬	-9.77981
逞	-9.77984
雪	-9.77991
鋭	-9.77996
園	-9.77997
匡	-9.78006
溶	-9.78011
焭	-9.78015
犯	-9.78016
咎繇	-9.78023
朕	-9.78023
肝	-9.78026
臛	-9.78026
晞	-9.7803
脅	-9.7803
恥	-9.78033
垠	-9.7804
怫	-9.78042
讓	-9.78052
沼	-9.78055
韶	-9.78055
纂	-9.78058
豐	-9.7806
滂	-9.78072
膠	-9.78077
悦	-9.78092
檐	-9.78099
撃	-9.78101
綿	-9.78102
繩墨	-9.78102
狐疑	-9.78104
醫	-9.78107
駝	-9.78114
慘	-9.78114
緫	-9.78114
味甘	-9.78117
蓄	-9.7812
貧	-9.78122
別	-9.78124
佐	-9.78132
狼	-9.78133
暗	-9.78134
瞀	-9.78139
逆	-9.78146
憚	-9.78148
夲	-9.78151
佪	-9.78153
鐘	-9.78164
厄	-9.78172
恢	-9.78175
句末	-9.78205
􁛜	-9.78208
猶豫	-9.78222
太息	-9.78225
悶	-9.78227
萍	-9.78228
邈	-9.78245
七諫	-9.78269
飽	-9.7828
鼂	-9.7829
住	-9.78304
江河	-9.78304
萹	-9.78361
中央	-9.7842
古本	-9.78441
陳辭	-9.78491
三月	-9.78595
羣小	-9.78809
溷濁	-9.79006
正直	-9.79065
髙舉	-9.7919
言楚國	-9.79914
補曰並	-9.81589
古人	-9.81856
潔白	-9.82207
志不	-9.82559
不識	-9.8297
師古云	-9.8338
美者	-9.83487
天子	-9.83771
人呼	-9.8379
下文	-9.84205
央	-9.84803
於是	-9.84882
潢	-9.849
壓	-9.84909
鴳	-9.84918
玊	-9.84954
蛩	-9.8498
株	-9.84987
溶溶	-9.84994
濿	-9.85001
欿	-9.85016
辯	-9.85021
蠢	-9.85025
劉	-9.8503
踵	-9.8503
律	-9.85048
符	-9.85052
􁪡	-9.85056
睹	-9.85068
丑	-9.85075
躍	-9.85083
怫鬱	-9.8509
悠悠	-9.85102
最	-9.85104
岑	-9.8511
腸	-9.8512
審	-9.85135
厠	-9.85135
榜	-9.85149
黎	-9.85164
案	-9.85168
弛	-9.85168
萎	-9.85171
京	-9.85173
銳	-9.85173
纎	-9.85175
湍	-9.85177
眠	-9.85178
翺翔	-9.85182
衽	-9.85182
防	-9.85188
廻	-9.85196
饒	-9.85196
鷄	-9.85198
偷	-9.85204
泄	-9.85204
助	-9.85207
淹留	-9.85212
禁	-9.85215
玩	-9.85218
耿	-9.85218
盤	-9.8522
綺	-9.85222
塺	-9.85222
柱	-9.85222
寡	-9.85222
勇	-9.85225
攬	-9.85227
撓	-9.85229
禦	-9.85231
腐	-9.85233
財	-9.85236
跳	-9.85236
蛾	-9.85238
謹	-9.85238
泛	-9.8524
毅	-9.85245
馨	-9.85247
姿	-9.85249
網	-9.85251
緩	-9.85251
尋	-9.85252
斑	-9.85253
彈	-9.85254
閑	-9.85254
渠	-9.85254
欺	-9.85256
示	-9.85256
檻	-9.85257
尸	-9.85258
絜	-9.85258
兔絲	-9.85262
女嬃	-9.85267
嶷	-9.85269
補曰左傳	-9.85271
帳	-9.85271
激楚	-9.85273
競	-9.85274
年嵗	-9.85276
伴	-9.85276
賜	-9.8528
眉	-9.85281
供	-9.85282
躊躇	-9.85282
綴	-9.85285
誦	-9.85286
鵾	-9.85287
􁂆	-9.85287
愬	-9.85291
袖	-9.85291
鏤	-9.85292
姑	-9.85293
曜	-9.85305
卿	-9.85305
澒	-9.85307
仆	-9.85308
速	-9.85317
吕望	-9.85332
娯	-9.85336
黃昏	-9.85343
汚	-9.85348
淫淫	-9.85377
曷	-9.85379
億	-9.85386
杭	-9.85397
宋玉	-9.85448
隱士	-9.85475
遭遇	-9.85489
天庭	-9.8565
淮南子云	-9.85735
窮極	-9.85781
四時	-9.86115
内自	-9.86417
皃補曰	-9.86744
言巳欲	-9.86814
衆多	-9.87233
修行	-9.87631
化爲	-9.8838
者謂之	-9.88948
化為	-9.89306
文云	-9.89982
治也	-9.89991
用之	-9.90627
日出	-9.9105
中情	-9.91276
逺行	-9.91318
有也字	-9.9211
芎藭	-9.92594
璧	-9.92623
錫	-9.92651
莊	-9.92695
叫	-9.92717
葦	-9.92727
幾	-9.92736
岡	-9.92741
稍	-9.92748
譏	-9.9275
遐	-9.92758
:	-9.92766
隴	-9.92778
掌	-9.92782
竊	-9.92791
頓	-9.92796
潺湲	-9.92803
鎮	-9.92805
暇	-9.92807
每	-9.92809
欷	-9.92819
眐	-9.92825
係	-9.92831
妒	-9.92833
凍	-9.9284
澧	-9.9284
怛	-9.92852
鼈	-9.92852
像	-9.92853
淨	-9.9286
屏	-9.92861
陳藏器云	-9.92865
遲	-9.92867
倫	-9.92869
鬱鬱	-9.92875
况	-9.92879
廢	-9.92879
有節度	-9.92879
早	-9.92881
包	-9.92889
偃	-9.92892
膓	-9.92893
􁌁􁌁	-9.92895
虖	-9.92895
訾	-9.92901
萬民之	-9.92903
姜	-9.92905
俾	-9.92906
巴	-9.92909
謳	-9.92911
芸	-9.92914
震	-9.92915
魏	-9.92916
潭	-9.92917
苑	-9.92918
旬	-9.92922
沈抑而不	-9.92924
單	-9.92928
粉	-9.9293
逮	-9.92934
枯槁	-9.92936
恃	-9.92936
瓦	-9.9294
編	-9.9294
雙	-9.92942
巖穴	-9.92946
繽	-9.92946
􁈔	-9.92946
絃	-9.92954
剛	-9.92954
候	-9.92957
男	-9.92959
藝	-9.92965
羞	-9.92965
寵	-9.92969
弊	-9.92969
鶩	-9.92971
囊	-9.92975
壊	-9.92975
萌	-9.92981
瀣	-9.92987
艸	-9.92992
瀬	-9.92993
麤	-9.92998
脱	-9.93
肌	-9.93001
庚	-9.93002
殆	-9.93007
板	-9.93008
鼔	-9.93012
叩	-9.93015
虧	-9.93016
偶	-9.93018
昆	-9.9302
菹	-9.93021
豆	-9.93024
諭	-9.93041
崙	-9.93051
肥	-9.93055
葬	-9.93055
白蒿	-9.93066
􁇻	-9.93069
二物	-9.93078
苦菜	-9.93084
叛	-9.9309
雨師	-9.93131
四月	-9.93142
放棄	-9.93147
形體	-9.93172
思慮	-9.93391
崑崙山	-9.93418
榝	-9.93419
蔽日	-9.93453
三危	-9.93455
國家	-9.93524
後世	-9.94297
逺望	-9.94311
注同	-9.94379
山中	-9.94599
本草有	-9.946
我車	-9.94654
美玉	-9.94746
一物	-9.94871
草名	-9.95016
髙陽	-9.9526
意中	-9.95387
說文曰	-9.96255
高山	-9.96428
皇皇	-9.96759
也其一作	-9.97645
當作	-9.9849
行忠信	-9.99252
珍	-9.99745
皃也言	-9.99791
鴆	-10.0082
麟	-10.0084
離騷草木疏	-10.0092
呴	-10.0094
鶵	-10.0096
之樂	-10.0101
胄	-10.0104
:「	-10.0107
瀨	-10.0107
廷	-10.0108
陿	-10.0109
十四	-10.0111
邁	-10.0112
晃	-10.0112
組	-10.0114
昇	-10.0114
岐	-10.0114
朔	-10.0114
睨	-10.0115
參差	-10.0115
纚	-10.0115
旎	-10.0115
綱	-10.0115
蘅	-10.0115
遘	-10.0115
晩	-10.0115
騎	-10.0115
洪慶善曰	-10.0115
藪	-10.0115
涌	-10.0116
窺	-10.0116
襃	-10.0116
薜茘	-10.0116
搖	-10.0117
酸	-10.0117
破	-10.0118
㣻	-10.0118
斡	-10.0118
甑	-10.0118
礫	-10.0118
廬	-10.0118
臻	-10.0118
愆	-10.0119
兒	-10.012
踰	-10.012
休息	-10.012
域	-10.0121
勲	-10.0121
糜	-10.0121
迻	-10.0121
曶	-10.0122
蓍	-10.0122
沬	-10.0122
局	-10.0122
豉	-10.0123
渥	-10.0123
值	-10.0123
勺	-10.0123
卜居	-10.0123
燒	-10.0124
蘂	-10.0124
雰雰	-10.0124
捷	-10.0124
拔	-10.0124
霑	-10.0124
臑	-10.0125
窈	-10.0125
畏	-10.0126
崑	-10.0126
微霜	-10.0126
濫	-10.0126
争	-10.0126
撰	-10.0126
該	-10.0126
蜜	-10.0127
諱	-10.0127
麥	-10.0127
牀	-10.0127
留夷	-10.0127
裏	-10.0127
决	-10.0127
蜀本圖經云	-10.0127
訥	-10.0127
卬	-10.0127
堅固	-10.0128
儔	-10.0128
驟	-10.0128
号	-10.0128
媛	-10.0128
悉	-10.0129
柘	-10.0129
沉	-10.0129
朅	-10.0129
齒	-10.0129
疎	-10.0131
眼	-10.0131
亮	-10.0132
瞑	-10.0132
郊	-10.0132
黄昏	-10.0132
揔	-10.0132
葺	-10.0132
蕩蕩	-10.0133
獵	-10.0133
玦	-10.0134
缺	-10.0134
酢	-10.0134
兵	-10.0135
邵	-10.0135
戃慌	-10.0135
袂	-10.0136
避世	-10.0136
之所作也	-10.0136
嚳	-10.0137
驗	-10.0137
排	-10.0137
侁	-10.0137
撟	-10.0138
作而	-10.0138
杜衡	-10.0138
晝夜	-10.0139
恲	-10.014
招䰟	-10.0141
翶	-10.0142
蓱	-10.0143
脂	-10.0145
䰟兮歸來	-10.0145
誤矣	-10.0146
年歳	-10.015
筒	-10.0152
昌陽	-10.0152
后土	-10.0154
先祖	-10.0161
菌桂	-10.0165
甘草	-10.0169
以此	-10.0172
雲師	-10.0176
形容	-10.0177
於悒	-10.018
九月	-10.0188
博雅云	-10.0189
文采	-10.0195
怨思	-10.0198
楚謂之	-10.0203
十日	-10.0217
吕切	-10.0241
石蘭	-10.0255
貌也言	-10.0265
君命	-10.0318
引此	-10.0334
世俗	-10.0383
至也	-10.041
貌補曰	-10.0475
言讒人	-10.0588
也詩	-10.07
心悲	-10.0915
莊子	-10.1001
學	-10.1003
障	-10.1007
尖	-10.1011
璋	-10.1012
莎	-10.1014
𤓰	-10.1016
紅	-10.1017
梗	-10.1018
寫	-10.1018
葱	-10.1018
䖏	-10.1019
塊	-10.102
削	-10.102
溪	-10.102
府	-10.102
柚	-10.1021
冒	-10.1023
譬	-10.1023
餌	-10.1023
緒	-10.1025
㬰	-10.1025
敏	-10.1025
內	-10.1025
懭	-10.1025
賈	-10.1026
悼	-10.1027
宛	-10.1027
鼻	-10.1027
醉	-10.1027
役	-10.1027
囚	-10.1027
槁	-10.1027
顏	-10.1027
阨	-10.1028
旹	-10.1029
詭	-10.1029
涕泣	-10.1029
㢘	-10.1031
便娟	-10.1031
欵	-10.1031
譎	-10.1031
瑞	-10.1031
蟲	-10.1031
崯	-10.1032
菲	-10.1032
儒	-10.1032
婁	-10.1032
筮	-10.1032
飯	-10.1034
茸	-10.1034
柴	-10.1034
昂	-10.1034
䑕	-10.1035
猶豫而狐疑	-10.1035
臂	-10.1035
報	-10.1035
漱	-10.1036
蒼梧	-10.1036
芳與澤其雜糅兮	-10.1036
趨	-10.1037
屏翳	-10.1037
汗	-10.1037
麾	-10.1037
坤	-10.1037
塡	-10.1037
浩蕩	-10.1037
腹	-10.1037
倉	-10.1038
襜	-10.1038
儲	-10.1038
稻	-10.1039
皎	-10.1039
彗	-10.1039
踡	-10.1039
疲	-10.104
溘	-10.1041
距	-10.1041
舊邦	-10.1041
俇	-10.1041
奥	-10.1041
聮	-10.1041
國殤	-10.1042
虫	-10.1042
予音與	-10.1043
曼曼	-10.1044
招魂	-10.1044
戶	-10.1045
赤松	-10.1045
傲	-10.1046
棊	-10.1046
㭊	-10.1046
鈎	-10.1046
恱	-10.1047
黄鵠	-10.1047
孟夏	-10.1047
貽	-10.1048
程	-10.1048
申重也	-10.105
巔	-10.1051
尤過也	-10.1052
晈	-10.1054
殛	-10.1055
趾	-10.1057
洪水	-10.1059
紫花	-10.1063
質性	-10.1067
逸說	-10.1069
讒邪	-10.1072
古本作	-10.108
玉英	-10.109
内傷	-10.1104
蘭蕙	-10.1109
固知	-10.1111
國名也	-10.1115
修飾	-10.1116
見九歌	-10.1123
風伯	-10.1145
草野	-10.1147
文選云	-10.1174
從容	-10.1177
日光	-10.1186
其一作而	-10.1227
孔切	-10.1272
之一作而	-10.1277
所生	-10.1292
將去	-10.1316
讒言	-10.136
周行	-10.1405
史記曰	-10.1446
歎曰	-10.1506
夜光	-10.1536
生水中	-10.1543
下同	-10.1566
藁	-10.1996
桃	-10.2004
例	-10.2005
䦧	-10.2005
藑	-10.2009
斐	-10.2009
聦	-10.2011
邠	-10.2012
咷	-10.2013
㫁	-10.2014
耦	-10.2015
筵	-10.2015
棠	-10.2016
階	-10.2017
遲遲	-10.2017
媚	-10.2018
猨	-10.2018
肴	-10.202
蟫	-10.202
􁪮	-10.202
啄	-10.2021
彫	-10.2021
寢	-10.2022
彊	-10.2022
嬴	-10.2023
﨑	-10.2023
喟	-10.2024
黧	-10.2024
嘯	-10.2024
虈	-10.2024
左氏傳曰	-10.2025
睠	-10.2025
鍼	-10.2025
寓	-10.2026
訣	-10.2026
煢煢	-10.2026
猛	-10.2026
眴	-10.2026
欣	-10.2026
茗	-10.2027
鵜	-10.2027
埃	-10.2028
浸	-10.2028
摽	-10.2028
彷徨	-10.2028
叶	-10.2029
嶔	-10.2029
薉	-10.2029
罹	-10.2029
慙	-10.2029
僻	-10.203
窕	-10.203
渴	-10.203
攀	-10.203
廩	-10.203
葯房	-10.2031
滋	-10.2032
讙	-10.2032
皷	-10.2032
纕	-10.2032
憒	-10.2033
凋	-10.2033
詘	-10.2033
卦	-10.2033
恖	-10.2033
彷徉	-10.2033
廡	-10.2034
簧	-10.2034
陟	-10.2034
㧞	-10.2034
汨羅	-10.2035
東方朔	-10.2035
黴	-10.2035
霾	-10.2035
􁂄	-10.2035
奴	-10.2035
邦	-10.2035
巢	-10.2036
濕	-10.2036
埋	-10.2037
。2.	-10.2037
猒	-10.2037
􁓣	-10.2037
降下也	-10.2037
􁚍	-10.2037
曙	-10.2037
瞽	-10.2037
馳騖	-10.2037
嗜	-10.2037
割	-10.2038
者屈原之所作也	-10.2038
炙	-10.2038
宅	-10.2038
藟	-10.2038
寗戚	-10.2038
它	-10.2039
標	-10.2039
徊	-10.2039
箭	-10.2039
姬	-10.204
跡	-10.204
眄	-10.204
狩	-10.204
妲	-10.204
品	-10.204
佯狂	-10.2041
哲	-10.2041
衢	-10.2041
籠	-10.2041
也一無而字	-10.2042
枘	-10.2042
煙	-10.2042
菹醢	-10.2042
橑	-10.2043
而蔽之	-10.2043
邃	-10.2043
耕	-10.2044
莘	-10.2044
底	-10.2044
希	-10.2044
竦	-10.2044
靈均	-10.2044
曵	-10.2044
懣	-10.2045
巳解於	-10.2046
姚	-10.2046
庻	-10.2046
墳	-10.2046
鏗	-10.2047
旍	-10.2047
驚駭	-10.2047
歸來歸來	-10.2048
暑	-10.2049
淪	-10.2049
墟	-10.2049
郢都	-10.2049
誕	-10.205
鄰	-10.2051
年齒	-10.2051
也以一作而	-10.2053
活	-10.2053
相視也	-10.2053
絓	-10.2053
秀異	-10.2054
恭	-10.2055
喪	-10.2055
倚立	-10.2056
藿	-10.2056
晁	-10.2057
式	-10.2058
原書	-10.206
湯谷	-10.2062
紫色	-10.2062
月令	-10.2069
憂患	-10.207
周禮	-10.2072
進退	-10.2075
舊本	-10.2079
脩長也	-10.208
懷沙	-10.208
逸説	-10.2081
賢者亦	-10.2082
讀若	-10.2084
牡桂	-10.2091
思慕	-10.2094
年老	-10.2094
西施	-10.2095
神獸	-10.2102
明智	-10.2113
濁世	-10.2113
音俞	-10.2142
即今	-10.2161
讀作	-10.2168
此意	-10.2181
言時世	-10.2191
花白	-10.2195
貌也言已	-10.2195
山海經云	-10.2218
一作不	-10.2271
官切	-10.2348
釋文第十	-10.2528
陸璣	-10.2927
栭	-10.31
憐	-10.3106
題	-10.3111
仁傑	-10.3115
㠁嵯	-10.3117
嗷	-10.3119
蘄	-10.312
的	-10.312
繞	-10.312
洪慶善云	-10.3122
茫	-10.3122
𦕈	-10.3123
鬚	-10.3124
藑茅	-10.3127
藉	-10.3127
迂	-10.3128
棗	-10.3129
庫	-10.3129
匈	-10.3129
岳	-10.3131
随	-10.3132
茲	-10.3132
卜	-10.3132
賈思勰	-10.3132
逍	-10.3132
驪姬	-10.3132
劍	-10.3132
披披	-10.3133
苖	-10.3134
嗌	-10.3135
翅	-10.3135
軍	-10.3135
訴	-10.3135
瀆	-10.3136
啾啾	-10.3136
嚶	-10.3136
爽	-10.3136
等	-10.3137
僕夫	-10.3137
蛄	-10.3137
豸	-10.3138
柄	-10.3138
怡	-10.3138
漫漫	-10.3138
碕	-10.3138
裁	-10.3138
齧	-10.3138
殀	-10.3139
焭焭	-10.3139
噭	-10.314
斛	-10.314
橋	-10.314
湏	-10.314
哀時命	-10.314
諒	-10.314
率	-10.314
滌	-10.3141
旻	-10.3141
急徠歸	-10.3141
裹	-10.3141
纓	-10.3142
竿	-10.3142
赫	-10.3142
郡	-10.3143
妨	-10.3143
慼	-10.3144
把	-10.3144
矊	-10.3144
伸	-10.3145
鷖	-10.3145
裘	-10.3145
鴻鵠	-10.3145
晝	-10.3145
宰	-10.3145
損	-10.3145
術	-10.3145
㸃	-10.3146
䖀	-10.3146
纒	-10.3146
軔	-10.3146
堪	-10.3146
禽	-10.3146
産	-10.3146
寂寞	-10.3146
耿耿	-10.3146
茇	-10.3146
薑	-10.3147
出於此	-10.3147
俓	-10.3147
瑤	-10.3147
𢷬	-10.3147
忽乎吾將行	-10.3147
松栢	-10.3147
歔欷	-10.3147
貞良	-10.3148
遍	-10.3148
烹	-10.3148
擗	-10.3148
綠	-10.3148
䲭	-10.3149
爵位	-10.3149
溺	-10.3149
犀	-10.3149
晧	-10.3149
畦	-10.3149
寃結	-10.3149
騫	-10.315
浄	-10.315
敞	-10.315
掲車	-10.315
嗣	-10.315
先導	-10.315
蛾眉	-10.315
嶓	-10.3151
徹	-10.3151
隧	-10.3152
屯	-10.3152
壅蔽	-10.3152
刈	-10.3152
齋	-10.3153
稷契	-10.3153
濱	-10.3153
蔞	-10.3154
曁	-10.3154
壄一作野	-10.3154
蹈	-10.3154
空虚	-10.3154
顚倒	-10.3154
縛	-10.3154
薫草	-10.3154
農	-10.3154
雕	-10.3155
頃襄	-10.3155
魂乎徠歸	-10.3155
辭一作詞	-10.3155
茀	-10.3155
恊	-10.3156
鷦	-10.3156
从	-10.3156
試	-10.3156
冶	-10.3157
斲	-10.3158
毋	-10.3158
耄	-10.3158
隣	-10.3158
格	-10.3159
陂	-10.316
揆度	-10.316
狶	-10.3161
斟	-10.3161
傅説	-10.3161
猴	-10.3161
遟	-10.3162
瓜	-10.3162
黃鵠	-10.3163
王芻	-10.3163
驅馳	-10.3163
嫩	-10.3164
惕	-10.3165
摯	-10.3165
虚僞	-10.3165
讎	-10.3165
貪佞	-10.3167
二月	-10.3168
點	-10.3171
蠭	-10.3171
殷湯	-10.3172
純美	-10.3174
隠士	-10.3177
郭註	-10.3178
隨俗	-10.3182
也言雲神	-10.3183
於衆人也	-10.3184
𤣥冥	-10.3185
心愁	-10.3186
薫	-10.3197
杓	-10.3202
南郢	-10.3203
浮遊	-10.3208
亂惑	-10.3209
茰	-10.3209
沈江	-10.3222
留止	-10.3223
鳥飛	-10.3242
淸白	-10.3262
結實	-10.3267
朗切	-10.3275
所載	-10.3316
修潔	-10.3771
四十	-10.3904
莖葉	-10.3905
無也字	-10.4035
欽定四庫全書楚詞補注巻	-10.4122
嶢	-10.4338
山其草多	-10.4352
聰	-10.4356
􁁍	-10.4358
嘷	-10.4358
嵯峨	-10.4366
芎	-10.4367
縹	-10.4367
㫖	-10.4368
完	-10.4368
韻作	-10.4368
肩	-10.4369
師延	-10.4369
芙	-10.437
刋	-10.4371
摘	-10.4373
滃鬱	-10.4373
憍吾以其美好兮	-10.4374
蒚	-10.4374
瘏	-10.4374
暨	-10.4375
堇	-10.4375
㡬	-10.4375
仟	-10.4375
鵕	-10.4377
三閭	-10.4378
賈誼	-10.4378
均	-10.4378
欽定四庫全書	-10.4379
㨗	-10.4379
觜	-10.4379
喔	-10.4379
仁智之士	-10.438
繡	-10.4381
鵝	-10.4381
脊	-10.4381
䔖	-10.4382
畛	-10.4382
諮	-10.4382
仿偟	-10.4382
唫	-10.4382
登階	-10.4382
牡	-10.4383
攄	-10.4383
抒	-10.4383
宻	-10.4384
瑋	-10.4384
眷眷	-10.4384
轇	-10.4384
酡	-10.4384
茨	-10.4385
彭咸之	-10.4385
胹	-10.4385
謁	-10.4385
凰	-10.4386
孽	-10.4386
淋	-10.4387
霄	-10.4388
蒔	-10.4388
勿	-10.4388
寺	-10.4388
脉	-10.4388
旄	-10.4389
廵	-10.4389
藤	-10.4389
矰	-10.4389
筐	-10.4389
拱	-10.4389
俛	-10.4389
頑	-10.439
猗	-10.439
灼	-10.439
汲	-10.439
溪蓀	-10.439
吕氏春秋	-10.439
絡	-10.4391
秘	-10.4391
圉	-10.4391
羡	-10.4391
惘	-10.4391
却	-10.4391
䜴	-10.4391
啼	-10.4391
慜	-10.4392
統	-10.4392
坂	-10.4392
鬢	-10.4392
宵	-10.4392
涸	-10.4392
焱	-10.4392
衣裳	-10.4392
􁒅	-10.4392
庾	-10.4393
副	-10.4393
戀	-10.4393
祥	-10.4393
泰	-10.4394
煩寃	-10.4394
剥	-10.4394
何時俗之工巧兮	-10.4394
􁫛	-10.4394
弋	-10.4394
徙倚而	-10.4394
舛	-10.4394
脫	-10.4394
聘	-10.4394
娩	-10.4395
鮑	-10.4395
詔	-10.4395
熊羆	-10.4395
𤣥鶴	-10.4395
􁌁	-10.4396
􁁛	-10.4396
碎	-10.4396
蒼龍之	-10.4396
媱	-10.4396
悸	-10.4396
磬	-10.4396
恙	-10.4396
薇	-10.4396
瀾	-10.4397
茷	-10.4397
裂	-10.4397
藏匿也	-10.4397
侮	-10.4397
翥	-10.4397
零陵香	-10.4397
揆	-10.4397
詰	-10.4397
妾	-10.4397
博物志	-10.4398
黜	-10.4398
慢	-10.4398
荅	-10.4398
冨	-10.44
嗼	-10.44
睇	-10.44
𢎞	-10.44
悲泣也	-10.44
廣雅云	-10.44
況	-10.44
廓落	-10.44
蠻	-10.44
皇輿	-10.4401
堯舜之抗行兮	-10.4401
皥	-10.4401
笙	-10.4401
踈	-10.4401
儷	-10.4402
塵埃	-10.4402
飛泉	-10.4402
責	-10.4402
四荒	-10.4402
甯	-10.4402
祗	-10.4403
吠	-10.4403
務光	-10.4403
析	-10.4403
鴂	-10.4403
嫭	-10.4403
琅	-10.4404
廉潔	-10.4404
鋏	-10.4404
褊	-10.4404
藒	-10.4404
賞	-10.4404
趣	-10.4404
浟	-10.4405
乞	-10.4405
心絓結而不解兮	-10.4405
枲	-10.4405
歇	-10.4405
蘭膏明燭	-10.4405
雲中君	-10.4405
音了	-10.4406
豕	-10.4406
災	-10.4406
盤紆	-10.4406
霏霏	-10.4407
判	-10.4407
倨	-10.4407
忡	-10.4407
育	-10.4407
按本草	-10.4407
捨	-10.4407
軼	-10.4408
畹	-10.4408
滄浪之水	-10.4408
水出崑崙	-10.4408
袪	-10.4408
鄒	-10.4408
井	-10.4408
虞舜	-10.4408
銷	-10.4409
提	-10.4409
瓊枝以	-10.4409
飡	-10.4409
一無夫字	-10.4409
導引	-10.4409
儼	-10.4409
弘	-10.441
亢	-10.441
羨	-10.441
東皇太一	-10.441
費	-10.441
壺	-10.441
仿	-10.441
癸	-10.4411
豐肉微骨	-10.4411
鸞鳳	-10.4411
東西南北	-10.4412
惜誦	-10.4412
用此語	-10.4413
娛樂也	-10.4413
鰿	-10.4413
列宿	-10.4414
沾	-10.4414
刑罰	-10.4415
北辰	-10.4415
啇	-10.4417
丘陵	-10.4417
㝷	-10.4418
鬰	-10.4418
熬	-10.4419
兎	-10.4421
開花	-10.4422
漇	-10.4423
飛翔	-10.4424
征夫	-10.4425
深淵	-10.4425
羅列	-10.4425
逢紛	-10.4427
聦明	-10.4428
玄鶴	-10.4428
得復見	-10.4431
􁍩	-10.4432
䤅	-10.4432
也回一作	-10.4437
俗呼	-10.4438
號令	-10.4439
忠良	-10.444
周官	-10.4452
其冝也	-10.4459
于羽	-10.4461
南征	-10.4464
齊光	-10.4467
大司命	-10.4474
仁賢	-10.4474
東海	-10.4489
似椒	-10.45
章句	-10.4539
陸璣云	-10.4639
欽定四庫全書楚詞補注巻十	-10.4684
悲感	-10.469
瓣	-10.5781
箏	-10.579
床	-10.579
洪	-10.5793
彩	-10.5794
瀏	-10.5795
洋	-10.5796
闇昧	-10.5797
汪	-10.5799
偬	-10.5801
盪	-10.5801
仍	-10.5802
寕	-10.5802
落英	-10.5802
狖	-10.5804
影	-10.5805
鱗	-10.5806
逄	-10.5806
騄	-10.5806
茈	-10.5806
耶	-10.5807
槩	-10.5807
猨狖	-10.5808
染	-10.5808
洪範	-10.5809
苴蓴	-10.5809
僕	-10.5809
市	-10.581
脆	-10.5811
滓	-10.5811
莫半切	-10.5811
轍	-10.5811
餝	-10.5811
萆	-10.5811
汎	-10.5813
未改此度	-10.5813
揉	-10.5813
婢	-10.5814
骩	-10.5814
材	-10.5814
刜	-10.5814
陰	-10.5814
誼	-10.5815
欽	-10.5815
柯	-10.5815
撥	-10.5815
婚	-10.5816
彦	-10.5816
孈	-10.5816
寞	-10.5816
牽牛	-10.5817
醇	-10.5817
于筆切	-10.5817
沈存中云	-10.5817
伏羲	-10.5817
沮	-10.5817
樊	-10.5817
欣欣	-10.5818
氾	-10.5818
揖	-10.5818
部	-10.5818
憯	-10.5818
蒻	-10.5818
薰	-10.5818
奏	-10.5819
績	-10.5819
悟	-10.5819
纍	-10.582
鞠	-10.582
飲石泉	-10.5821
籬	-10.5821
飢	-10.5821
乳	-10.5821
羙	-10.5821
曠野	-10.5822
蘦	-10.5822
踥蹀而日進兮	-10.5822
擅	-10.5823
屈原既放	-10.5823
愽雅云	-10.5823
傽	-10.5823
樸	-10.5823
斂	-10.5823
緜	-10.5823
芒芒	-10.5823
翺	-10.5824
増歎	-10.5824
繳	-10.5824
蹕	-10.5824
嘆	-10.5824
魯	-10.5824
輩	-10.5825
敝	-10.5825
蓼	-10.5825
呂	-10.5825
蘩	-10.5826
贈	-10.5826
洿	-10.5826
突	-10.5826
洽	-10.5826
蠵	-10.5826
雛	-10.5826
嵎	-10.5826
湊	-10.5826
筝	-10.5826
館	-10.5826
胎	-10.5826
股	-10.5826
匍	-10.5826
膽	-10.5827
蠹	-10.5827
經術	-10.5827
朋黨	-10.5827
川谷	-10.5828
筳	-10.5828
鴨	-10.5828
懟	-10.5828
愠	-10.5828
禽獸	-10.5828
條陶隠居云	-10.5828
蕉	-10.5828
槫	-10.5829
答	-10.5829
遞	-10.5829
皎皎	-10.5829
孋	-10.5829
薄附也	-10.583
嚮	-10.583
望涔陽兮極浦	-10.583
草一作艸	-10.583
俞與愈同	-10.583
偕	-10.583
寜	-10.583
載雲旗之委蛇	-10.583
鱉	-10.583
􁓖	-10.583
滄	-10.5831
峕	-10.5831
毫	-10.5831
噬	-10.5831
挂	-10.5831
下有之字	-10.5831
禺	-10.5831
漂	-10.5832
鸞鳯	-10.5832
夾	-10.5832
珮	-10.5832
洪慶善引	-10.5832
廵狩	-10.5832
勒	-10.5832
巓	-10.5832
専	-10.5832
閩	-10.5833
稼	-10.5833
淒	-10.5833
栁	-10.5833
也天對云	-10.5833
薆	-10.5833
莫足與	-10.5833
勅	-10.5834
㤀	-10.5834
苞	-10.5834
茂盛也	-10.5834
層	-10.5835
㞶	-10.5835
禀	-10.5835
薰草	-10.5835
鼠	-10.5835
猋	-10.5836
郁	-10.5836
嘘	-10.5836
壑	-10.5837
窴	-10.5837
駕辯	-10.5837
譜	-10.5837
廊	-10.5837
也左傳	-10.5838
仭	-10.5838
肻	-10.5838
暘	-10.5839
蜒	-10.5839
倍	-10.5839
矇	-10.5839
榑	-10.5839
頷	-10.5839
渫	-10.584
崐	-10.584
翡	-10.584
慈	-10.5841
改易也	-10.5841
蹇蹇	-10.5845
叩擊	-10.5845
沚	-10.5845
虡	-10.5845
魂乎無南	-10.5845
寘	-10.5846
迭	-10.5846
弑	-10.5847
雹	-10.5848
蒪	-10.5848
隱匿	-10.5849
執守	-10.5849
櫋	-10.585
賓	-10.5853
羣聚	-10.5856
聰明	-10.5862
蜀椒	-10.5865
仁傑按本草	-10.5929
依彭咸之遺則	-10.7064
戈	-10.7115
鼠莞	-10.7394
司馬相如	-10.7397
僑	-10.7449
苕	-10.7453
蕃	-10.7455
釀	-10.7456
謑	-10.7457
蕤	-10.7459
狒	-10.746
。4.	-10.7462
嚭	-10.7462
峉	-10.7463
一夕而九	-10.7464
軻	-10.7464
渨	-10.7464
翻	-10.7464
珪	-10.7464
涹	-10.7464
苽	-10.7464
憾	-10.7465
於中庭	-10.7465
旌一作旍	-10.7465
􁍟	-10.7465
閴	-10.7466
匣	-10.7466
劬勞	-10.7466
吒	-10.7467
巾	-10.7467
頸	-10.7468
固將愁苦而終窮	-10.7468
觴	-10.7468
啾	-10.7468
似莎而大	-10.7469
吮	-10.7469
乂	-10.7469
蠆	-10.7469
慶忌	-10.7469
柑	-10.7469
藇	-10.7469
岤	-10.747
蜩	-10.747
雊	-10.747
嚼	-10.7471
廇	-10.7471
蕖	-10.7472
聵	-10.7472
勉	-10.7472
䳺	-10.7472
葳	-10.7472
芹	-10.7473
􁑾	-10.7473
芥	-10.7474
貢	-10.7474
蒯	-10.7474
亟	-10.7475
偝	-10.7475
跛	-10.7475
隆	-10.7475
杪	-10.7476
抉	-10.7476
字解云	-10.7476
蹊	-10.7476
鸕	-10.7476
夏小正	-10.7476
綢	-10.7476
臆	-10.7477
隿	-10.7478
歩余馬兮	-10.7478
䆳	-10.7478
虵	-10.7479
峩	-10.7479
扳	-10.7479
諤	-10.7479
子僑之	-10.7479
沃	-10.7479
嵗忽忽	-10.7479
簏	-10.7479
斮	-10.7479
顥	-10.7479
駒	-10.7479
穿	-10.748
春蘭兮秋菊	-10.748
蹙	-10.748
南指月與列星	-10.748
辝	-10.748
不量鑿而正枘兮	-10.748
辛夷楣兮	-10.7481
聊假日以須	-10.7481
釐	-10.7481
螽	-10.7481
䕶	-10.7481
汎淫	-10.7481
憍	-10.7481
孔頴達	-10.7482
樂府有	-10.7482
籌	-10.7482
針	-10.7482
廱	-10.7482
炳	-10.7482
咀	-10.7483
縎	-10.7483
睢	-10.7483
鏡	-10.7483
怞	-10.7483
不可以託些	-10.7483
舊音羊	-10.7483
抵	-10.7483
怨靈脩之浩蕩兮	-10.7483
擠	-10.7484
酎	-10.7484
輝	-10.7484
諑	-10.7484
也一作徠歸	-10.7485
嫇	-10.7485
庖	-10.7485
樞	-10.7485
而深藏	-10.7485
般	-10.7485
隍	-10.7485
雝	-10.7485
詖	-10.7485
護	-10.7485
帯	-10.7485
潰	-10.7485
哀哀而	-10.7486
匏	-10.7486
斬	-10.7486
鑒	-10.7486
嫌	-10.7487
礒	-10.7487
矜	-10.7487
蹠	-10.7487
鈕	-10.7487
呵	-10.7487
啗	-10.7487
憎愠	-10.7487
噂	-10.7487
懤	-10.7487
木揺落	-10.7487
笯	-10.7487
遏	-10.7488
暉	-10.7488
跪	-10.7488
颯	-10.7488
彼將自然	-10.7488
蚴	-10.7488
􁔱	-10.7488
遭厄	-10.7488
停	-10.7488
怠	-10.7488
遵江夏	-10.7488
挑	-10.7488
瞳	-10.7488
肺	-10.7489
龢	-10.7489
擬	-10.7489
協	-10.7489
唱	-10.7489
填	-10.7489
掦	-10.7489
􁃎	-10.7489
采芳洲兮杜若	-10.749
鋪	-10.749
李善云	-10.749
略	-10.749
隩	-10.749
垠音銀	-10.749
油	-10.749
潦	-10.749
嬖	-10.749
誂	-10.749
默	-10.749
吾又何怨乎今之人	-10.7491
皇翼其承旂兮	-10.7491
瞰	-10.7491
雖願忠其焉得	-10.7491
􁎎	-10.7491
飈	-10.7491
華采衣兮若英	-10.7491
鋤	-10.7491
祭祀	-10.7491
霤	-10.7491
悲回風	-10.7491
忽臨睨夫舊鄉	-10.7491
舉世皆濁	-10.7491
與佯同	-10.7491
􁉻	-10.7492
篿	-10.7492
錄	-10.7492
擔	-10.7492
埤	-10.7492
歛	-10.7492
祕	-10.7492
貶	-10.7492
侵	-10.7492
身服義而未沬	-10.7492
駕八龍之婉婉兮	-10.7492
盍	-10.7492
舌	-10.7492
珥	-10.7492
蟊	-10.7493
而羊切	-10.7493
弦	-10.7493
潜	-10.7493
箟	-10.7493
孰知余之從容	-10.7493
柰	-10.7493
銘	-10.7493
及榮華之未落	-10.7493
然中路而迷惑	-10.7493
粟	-10.7493
甫	-10.7494
賣	-10.7494
噤	-10.7494
思公子兮徒離憂	-10.7494
薴	-10.7494
間音閑	-10.7494
喙	-10.7494
時曖曖其將罷兮	-10.7494
然怊悵而	-10.7494
二十五	-10.7494
爲讒佞所	-10.7495
伯夷叔齊	-10.7495
惀之脩美兮	-10.7495
永長也	-10.7495
若杜若也	-10.7495
黄棘之枉	-10.7495
欸	-10.7495
祈	-10.7495
固時俗之工巧兮	-10.7495
歟	-10.7495
翹	-10.7495
像法也	-10.7495
梧	-10.7495
補曰壇音善	-10.7495
謂文王也	-10.7495
納納	-10.7495
逓	-10.7495
邸	-10.7496
料	-10.7496
之誤耳	-10.7496
兮歸來反故居些	-10.7496
焦	-10.7496
軀	-10.7496
輈	-10.7496
􁎃	-10.7496
姊	-10.7497
密	-10.7497
鋙	-10.7497
孟堅	-10.7497
世並舉而好朋兮	-10.7497
奪	-10.7497
恕	-10.7497
聨	-10.7497
㓜	-10.7498
功用而不就	-10.7498
誣	-10.7498
咆	-10.7498
軾	-10.7498
鬬	-10.7498
梅伯受醢	-10.7498
駓	-10.7498
智有所不明	-10.7499
去終古之所居	-10.7499
夸	-10.7499
流乎天余乃下	-10.7499
杲	-10.7499
濟渡也	-10.7499
箸	-10.7499
耆	-10.7499
崔文子	-10.7499
儵一作倐	-10.75
寸有所長	-10.75
絹	-10.75
不足以	-10.75
便姢	-10.75
榭	-10.75
瀉	-10.75
縶	-10.75
延長也	-10.75
顧龍門而不見	-10.75
檻楯	-10.75
瞍	-10.75
迷惑也	-10.75
送美人兮南浦	-10.75
以求同志也	-10.7501
分曹並進	-10.7501
摡	-10.7501
淖	-10.7501
敕	-10.7501
縈	-10.7501
念楚國也	-10.7502
躇	-10.7502
爢	-10.7502
􁍈	-10.7502
榆	-10.7502
浪	-10.7502
信過信	-10.7502
尓	-10.7502
嫮	-10.7503
曖	-10.7503
聊逍遥兮容與	-10.7503
離遭也	-10.7503
靁	-10.7503
雜申椒與菌桂	-10.7503
攸	-10.7503
隙	-10.7503
竪	-10.7504
鈞	-10.7504
駝一作馳	-10.7504
縆	-10.7504
與女遊兮九河	-10.7504
卒然身殺	-10.7505
扁	-10.7505
枚	-10.7505
瘀	-10.7505
廀	-10.7505
岌	-10.7505
㗖	-10.7506
豔	-10.7506
傍	-10.7506
窄	-10.7506
忽忽而遒盡兮	-10.7506
在崑崙西	-10.7506
練	-10.7506
諧	-10.7507
禋	-10.7507
黮	-10.7508
蠱	-10.7508
抑按也	-10.7509
搏	-10.7509
遼遼	-10.7509
饐	-10.7509
澌	-10.751
隳	-10.751
蓁	-10.751
悵然住立	-10.7511
瘦	-10.7512
詒遺也	-10.7512
羿澆	-10.7512
南北順	-10.7512
麚	-10.7513
燠	-10.7513
覬	-10.7513
綜	-10.7514
又衆兆之所	-10.7514
下有而字	-10.7514
狗	-10.7515
泝	-10.7515
􁊯	-10.7515
咍	-10.7516
航	-10.7516
雄虺九首	-10.7517
柿	-10.7517
徾	-10.7518
企	-10.7518
牟	-10.7522
糒	-10.7524
魂兮歸徠	-10.7524
路道也言	-10.7524
又蔽而莫之	-10.7528
蕰	-10.7533
一無其字	-10.7544
腱	-10.7755
織	-10.9406
葷	-10.9435
袿	-10.9439
第十五	-10.9444
藕	-10.9448
爍	-10.9449
崟	-10.9449
豳	-10.945
璿	-10.9453
紐	-10.9456
僊	-10.9456
蠡	-10.9458
畧	-10.946
併	-10.946
眷	-10.9463
菵	-10.9463
褒	-10.9464
懇	-10.9465
薏	-10.9466
鹽	-10.9467
吁	-10.9467
入於海	-10.9468
藷	-10.9468
也陳一作敶	-10.9469
詁	-10.9469
榛	-10.947
條云一名	-10.9471
縷	-10.9471
蔾	-10.9471
憲	-10.9472
抜	-10.9472
瓟	-10.9472
雒	-10.9472
筦	-10.9472
補曰菀音鬱	-10.9472
賛	-10.9472
疋	-10.9473
穰	-10.9473
製	-10.9473
屢	-10.9474
拳	-10.9474
峽	-10.9475
徘	-10.9475
本草白芷一名	-10.9476
纏	-10.9476
橝	-10.9476
返	-10.9477
譁	-10.9477
酷	-10.9477
境	-10.9478
翦	-10.9478
晠	-10.9478
濯	-10.9478
鸞鳥鳳皇	-10.9479
茘	-10.9479
將以遺兮下女	-10.948
偟	-10.948
七故切	-10.948
韋	-10.948
補曰繚音了	-10.948
嫁	-10.9481
􁽊	-10.9481
薜	-10.9481
陼	-10.9482
服艾以盈要兮	-10.9482
踢	-10.9482
沶	-10.9482
菼	-10.9482
幕	-10.9482
羌中道而回畔	-10.9483
授	-10.9483
洒	-10.9483
月令孟夏	-10.9483
噉	-10.9484
薋菉葹以盈室兮	-10.9484
4	-10.9484
蹀	-10.9484
鞿	-10.9484
荃不察余之中情兮	-10.9484
路曼曼其	-10.9484
願徑逝而未得	-10.9484
美超逺而逾邁	-10.9485
謂幽蘭其不可佩	-10.9485
勸	-10.9485
屣	-10.9485
段	-10.9485
覽余初其猶未悔	-10.9485
歎息也	-10.9485
暖	-10.9485
帶長鋏之陸離兮	-10.9485
糈	-10.9485
與日月兮齊光	-10.9486
逡	-10.9486
覈	-10.9486
曼音萬	-10.9486
燕雀烏鵲	-10.9486
被以不慈之偽名	-10.9486
遌	-10.9486
飴	-10.9486
塩	-10.9487
稀	-10.9487
倦	-10.9487
慆	-10.9488
楣	-10.9488
應劭曰	-10.9488
漢武帝	-10.9488
鬣	-10.9488
寧溘死而流亡兮	-10.9489
岀	-10.9489
已解於	-10.9489
無人聲	-10.9489
忽反顧	-10.9489
㪚	-10.9489
物有微而隕性	-10.9489
括	-10.949
也論語曰	-10.949
蓀壁兮紫壇	-10.949
劔	-10.949
折芳馨兮遺所思	-10.949
𥘉	-10.949
篝	-10.949
黯黮	-10.949
拊	-10.9491
吉日兮辰良	-10.9491
融	-10.9491
傳芭兮代舞	-10.9491
寗	-10.9492
不可以久	-10.9492
眙	-10.9492
就重華而敶詞	-10.9492
惜其師忠	-10.9492
路曼曼其脩逺兮	-10.9492
恬	-10.9492
環	-10.9492
顇	-10.9492
兔	-10.9493
望長楸而太息	-10.9493
劣	-10.9493
瑜	-10.9493
葉兮紫莖	-10.9493
蕙肴蒸兮蘭藉	-10.9493
衆人皆醉	-10.9493
朽	-10.9494
聊假日以媮樂	-10.9494
冢導漾	-10.9495
故荼薺不同畝兮	-10.9495
滄浪之水濁兮	-10.9495
宏	-10.9495
惜往日	-10.9495
紉秋蘭以為佩	-10.9495
幬	-10.9495
腰	-10.9495
蹄	-10.9495
漏	-10.9495
肖	-10.9495
徉	-10.9495
覃	-10.9496
巷	-10.9496
謳和揚阿	-10.9496
厮賤	-10.9496
枹	-10.9496
蜕	-10.9496
辟匹亦切	-10.9496
李善引	-10.9496
桀紂之	-10.9496
赩	-10.9497
瘳	-10.9497
䟫	-10.9497
皡	-10.9497
漬	-10.9497
心嬋媛而	-10.9497
姢	-10.9498
冢	-10.9498
夕攬洲之宿莽	-10.9498
晼	-10.9498
浴蘭湯兮沐芳	-10.9498
筭	-10.9498
與佳期兮夕張	-10.9498
戻	-10.9498
文苑作	-10.9498
芙蓉始發	-10.9498
攀援桂枝兮	-10.9499
妍	-10.9499
1	-10.9499
夕晞余身兮九陽	-10.9499
穫	-10.9499
重任石之何益	-10.9499
冉冉而愈	-10.9499
余壽之弗將	-10.9499
擣	-10.9499
跼	-10.95
遇蓐收乎西皇	-10.95
罪過也	-10.95
贏	-10.95
鵙	-10.95
享	-10.95
言忠佞	-10.95
㤗	-10.95
鳴玉鸞之啾啾	-10.95
壤	-10.95
毎	-10.95
閽	-10.95
𦵔	-10.95
鬯	-10.9501
魂魄歸徠	-10.9501
區	-10.9501
盼	-10.9501
虆	-10.9501
忼慨	-10.9502
毗	-10.9502
夫九首	-10.9502
閣	-10.9502
世莫知其所如	-10.9502
殫	-10.9502
螘	-10.9502
隐	-10.9502
沿	-10.9502
蛻	-10.9502
剌	-10.9503
各興心而嫉妬	-10.9503
莫之能	-10.9503
木蘭以矯蕙	-10.9503
䋲	-10.9503
粮	-10.9503
襃姒	-10.9504
聊逍遥以相	-10.9504
迄	-10.9505
何昔日之芳草兮	-10.9505
絶殊也	-10.9505
貳	-10.9505
掲	-10.9505
繆	-10.9505
佑	-10.9505
芭蕉	-10.9506
殞	-10.9507
瞢	-10.9507
􁸖	-10.9507
下音户	-10.9508
怵	-10.9508
漁	-10.9508
偭規矩而改	-10.9508
思蹇産而不釋	-10.9508
栢	-10.9508
嶽	-10.9508
曀	-10.9509
恕巳以量人	-10.9509
悐	-10.9509
遯	-10.9509
匠	-10.951
不任賢	-10.951
余處幽篁兮終不見天	-10.9511
行胡岡切	-10.9511
醲	-10.9511
蝮	-10.9511
言時丗	-10.9511
鴛	-10.9511
路險難兮獨後來	-10.9512
石磊磊兮葛蔓蔓	-10.9512
軫痛也	-10.9512
昻	-10.9512
照吾檻兮扶桑	-10.9512
􁽌	-10.9512
重直用切	-10.9513
舂	-10.9514
糞	-10.9516
鬱邑余侘傺兮	-10.9517
雚	-10.9517
杷	-10.9519
糳	-10.9521
肬	-10.9521
萸	-10.9522
贅	-10.9522
篁	-10.9522
淇	-10.9523
封狶是射	-10.9524
凱	-10.9526
彃	-10.9528
革孽夏民	-10.9531
蒭	-10.9539
曄	-10.9552
吾將從彭咸之所居	-11.1342
肥牛之腱	-11.1584
隋	-11.1857
霜露慘悽而交下兮	-11.1867
祲	-11.1923
啞	-11.1924
葫	-11.1925
卵	-11.1929
贄	-11.1932
蔆	-11.1935
騂	-11.1939
煮	-11.194
帛	-11.1942
綝	-11.1942
瓌	-11.1943
筴	-11.1943
遼	-11.1944
壈	-11.1945
訪	-11.1945
駏	-11.1946
訖	-11.1946
自投濮水	-11.1949
讎而見怨	-11.1949
圭	-11.195
療	-11.1952
綵	-11.1952
君昏亂	-11.1954
詢	-11.1954
深固難徙	-11.1955
而承宇	-11.1956
蔟	-11.1956
阪	-11.1956
阻相薄	-11.1956
嵾	-11.1956
鷃	-11.1957
殦	-11.1957
淟	-11.1957
祇	-11.1958
寥空無人民	-11.1959
朦	-11.1959
樷	-11.1959
閼	-11.196
紏	-11.1961
峊	-11.1961
蘮	-11.1961
恫	-11.1963
流下隕身	-11.1963
蘼	-11.1963
科	-11.1964
繹	-11.1964
暢	-11.1964
昢	-11.1964
沕	-11.1964
鄭康成	-11.1964
􁘯	-11.1964
武丁之	-11.1964
日隂曀	-11.1964
問天道之	-11.1964
有鳥自南兮	-11.1964
涫	-11.1964
剞	-11.1964
憃	-11.1964
固切人之不媚兮	-11.1965
不知所行也	-11.1965
鴝	-11.1965
嶃	-11.1965
蹇離尤	-11.1965
騎白鹿而	-11.1965
與余言而不信兮	-11.1966
概	-11.1967
誰可與兮	-11.1967
聒	-11.1967
弩	-11.1967
憀	-11.1967
之逶虵	-11.1967
初吾所陳之耿著兮	-11.1967
豈至今其庸亡	-11.1967
額	-11.1967
任政職	-11.1967
劬	-11.1967
矯以遺夫美人	-11.1967
娟	-11.1967
心震悼而不敢	-11.1968
文章爛兮	-11.1968
心怛傷之憺憺	-11.1968
亭	-11.1968
余而造怒	-11.1968
薍	-11.1968
綫	-11.1969
并日夜而無正	-11.1969
惰	-11.1969
姱而不醜兮	-11.197
索胡繩之纚纚	-11.197
廓其無求兮	-11.197
腦	-11.197
歿	-11.197
隤	-11.197
壚	-11.197
􁩂	-11.197
吾不能變心而從俗兮	-11.197
埀	-11.1971
難追逐也	-11.1971
好姱佳麗兮	-11.1971
晻晻而	-11.1971
蓀詳聾而不聞	-11.1971
旐	-11.1971
曏	-11.1971
來集漢北	-11.1972
願自申而不得	-11.1972
艷	-11.1972
闌	-11.1972
反既有此他志	-11.1972
哀吾生之無樂兮	-11.1972
幽獨處乎山中	-11.1972
琴名號	-11.1972
船容與而不進兮	-11.1972
雲霏霏而承宇	-11.1972
仄	-11.1972
孰不實而有穫	-11.1972
孰無施而有報兮	-11.1972
曾不知路之曲直兮	-11.1972
望孟夏之短夜兮	-11.1972
煖	-11.1972
牉獨處此異域	-11.1972
罕	-11.1972
倈	-11.1972
橐	-11.1972
紛總總其離合兮	-11.1972
蒯苦怪	-11.1972
臨流水而太息	-11.1973
螫	-11.1973
滃	-11.1973
嬃	-11.1973
拏	-11.1974
炊	-11.1974
善不由外來兮	-11.1974
挫糟凍飲	-11.1974
飭	-11.1974
九辯第八	-11.1974
日華子云	-11.1974
班其相紛些	-11.1974
尠	-11.1974
霰雪紛其無垠兮	-11.1974
又無良媒在其側	-11.1974
邸余車兮方林	-11.1974
何晦明之若	-11.1974
峨	-11.1975
夕宿辰陽	-11.1975
夫何極而不至兮	-11.1975
指彭咸以	-11.1975
望三五以	-11.1975
九章第四	-11.1975
有瓊漿些	-11.1975
鷂	-11.1975
箠	-11.1975
舨	-11.1975
蔬	-11.1975
薪	-11.1975
偏	-11.1976
絆	-11.1976
淚	-11.1976
測	-11.1976
於筐簏	-11.1976
破伯牙	-11.1976
邉	-11.1976
超惘惘而遂行	-11.1976
旰	-11.1977
冦	-11.1977
砏	-11.1977
軏	-11.1977
何日夜而忘之	-11.1977
信非吾罪而棄逐兮	-11.1977
烱	-11.1977
霏	-11.1977
猨狖之所居	-11.1977
之嬋媛兮	-11.1977
獨永歎乎	-11.1977
傷懷永哀兮	-11.1977
漠而無聲	-11.1977
爨	-11.1978
鬵	-11.1978
吼	-11.1978
軟	-11.1978
欸秋冬之緒風	-11.1978
迷不知吾所如	-11.1978
恣意所用	-11.1978
涕漸漸	-11.1978
吹參差兮誰思	-11.1978
固前脩以菹醢	-11.1978
娭光眇視	-11.1978
心鬱鬱之憂思兮	-11.1978
揄	-11.1978
欽定補繪蕭雲從離騷全圖	-11.1978
溰	-11.1978
瓾	-11.1978
磑	-11.1978
􁉯	-11.1978
􁊭	-11.1978
謾	-11.1979
逝言邁	-11.1979
榜以擊汰	-11.1979
去故而就新	-11.1979
阽余身而危死兮	-11.1979
瞻前而顧後兮	-11.1979
熏	-11.1979
䆒	-11.1979
灃	-11.1979
凜	-11.1979
涙	-11.1979
隻	-11.1979
雜於黀蒸兮	-11.1979
機蓬矢以	-11.1979
理弱而媒不通兮	-11.1979
厲而不爽些	-11.1979
君無度而弗察兮	-11.1979
吳歈蔡謳	-11.1979
哀朕時之不當	-11.1979
孛	-11.1979
曼遭夜之方長	-11.1979
望夫君兮未來	-11.1979
相觀民之計極	-11.1979
腩	-11.1979
草木莽莽	-11.1979
造新歌些	-11.1979
遂自忍而沈流	-11.1979
醒	-11.1979
霑余襟之浪浪	-11.1979
勒騏驥而更駕兮	-11.198
送將歸	-11.198
人之心不與吾心同	-11.198
木根以結茝	-11.198
橚	-11.198
遇豐隆而不將	-11.198
建雄虹之采旄兮	-11.198
駕飛龍兮北征	-11.198
忉	-11.1981
梨	-11.1981
登山臨水兮	-11.1981
石上菖蒲	-11.1981
薄寒之中人	-11.1981
卒壅蔽此浮雲兮	-11.1981
堯舜皆有所舉任兮	-11.1981
尚不知余之從容	-11.1981
愁獨哀	-11.1981
日以逺也	-11.1981
諒無怨於天下兮	-11.1981
靣	-11.1981
㵼	-11.1981
五色雜而炫燿	-11.1981
分流汩兮	-11.1981
夫孰非義而可用兮	-11.1981
數惟蓀之多怒	-11.1981
菽	-11.1981
霍	-11.1981
指嶓冢之西隈兮	-11.1981
冠切雲之崔嵬	-11.1981
而莫余知兮	-11.1981
心不同兮媒勞	-11.1981
疏石蘭兮為芳	-11.1981
因歸鳥而致	-11.1981
目睞謹也	-11.1981
今焉薄	-11.1981
焉舒情而抽信兮	-11.1981
狂顧南行	-11.1981
載營魄而登霞兮	-11.1981
騎膠葛以雜亂兮	-11.1981
鸞鳥軒翥而翔飛	-11.1981
典校經書	-11.1982
搴芙蓉兮木末	-11.1982
白日出之悠悠	-11.1982
闢	-11.1982
不能復用巫陽焉	-11.1982
交不忠兮怨長	-11.1982
去白日之昭昭兮	-11.1982
嚚	-11.1982
奄離披此梧楸	-11.1982
心焉取此怵惕	-11.1982
掩浮雲而上征	-11.1982
肴羞未通	-11.1982
驂連蜷以驕	-11.1982
哀人生之長勤	-11.1982
文君寤而追求	-11.1982
於水則神	-11.1982
然欿傺而沈藏	-11.1982
狐死首丘	-11.1982
聫	-11.1982
邅吾道兮洞庭	-11.1982
邱	-11.1982
雷師告余以未具	-11.1982
魚葺鱗以自	-11.1982
遷逡次而勿驅兮	-11.1983
蹇獨懷此異路	-11.1983
固時俗之流從兮	-11.1983
刪	-11.1983
嫋嫋兮秋風	-11.1983
溘埃風余上征	-11.1983
飛龍兮翩翩	-11.1983
委厥美而	-11.1983
不逢湯武與桓繆兮	-11.1983
介子忠而立枯兮	-11.1983
僚	-11.1983
夕始臨乎於微閭	-11.1983
子胥死而後憂	-11.1983
恬死亡而不聊	-11.1983
歌而飯牛	-11.1983
獨無匹兮	-11.1983
草苴比而不芳	-11.1983
減	-11.1983
饑	-11.1983
受命不遷生南國兮	-11.1983
又何芳之能祗	-11.1983
惟郢路之遼逺兮	-11.1983
竊悼後之危敗	-11.1983
靈之來兮如雲	-11.1983
余將董道而不豫兮	-11.1983
吾誰與玩此芳草	-11.1983
夕濟兮西澨	-11.1983
女樂羅些	-11.1983
將騰駕兮偕逝	-11.1983
弄	-11.1983
思公子兮未敢言	-11.1983
梗其有理兮	-11.1983
椉騏驥之瀏瀏兮	-11.1983
洞庭波兮木葉下	-11.1983
瑩	-11.1983
羌儵忽而難當	-11.1983
襲長夜之悠悠	-11.1983
覽方外之荒忽兮	-11.1983
離芳藹之方壯兮	-11.1983
願寄言夫流星兮	-11.1983
乃下招曰	-11.1983
吾將過乎句芒	-11.1983
實羽觴些	-11.1983
形枯槁而獨留	-11.1983
後尚可以竄藏	-11.1983
怜	-11.1983
撫案下些	-11.1983
獨悲愁其傷人兮	-11.1983
翱	-11.1983
被荷裯之晏晏兮	-11.1983
道思作頌	-11.1983
醎	-11.1983
願一見而有明	-11.1983
嗔	-11.1983
少原之壄	-11.1983
橪	-11.1983
無所告愬	-11.1983
而彌純	-11.1983
鄗	-11.1983
酆	-11.1983
恐禍殃之有再	-11.1984
左雨師使徑侍兮	-11.1984
又孰能無變化	-11.1984
合百草兮實庭	-11.1984
弗參驗以考實兮	-11.1984
言不可結而詒	-11.1984
采薜荔兮水中	-11.1984
之以日夜	-11.1984
値	-11.1984
有美一人兮	-11.1984
期不信兮告余以不閒	-11.1984
獨處廓	-11.1984
聞佳人兮召予	-11.1984
蹇淹留而無成	-11.1984
使江水兮安流	-11.1984
心不繹	-11.1984
心閔憐之慘悽兮	-11.1984
終年命	-11.1984
負左右之耿介	-11.1984
重無怨而生離兮	-11.1984
長離殃而愁苦	-11.1984
􁐡	-11.1984
芽	-11.1985
橙	-11.1985
悲余心之悁悁兮	-11.1985
驩	-11.1985
時亹亹而過中兮	-11.1985
補曰逴音卓	-11.1985
召豐隆使先導兮	-11.1985
恐田野之蕪穢	-11.1985
惜吾不及古人兮	-11.1985
排閶闔而望予	-11.1985
跓	-11.1985
農夫輟耕而容與兮	-11.1985
二八齊容	-11.1985
令沅湘兮無波	-11.1985
冬又申之以嚴霜	-11.1985
又無行媒兮	-11.1985
和酸若苦	-11.1985
夫何彭咸之造思兮	-11.1985
好夫人之慷慨	-11.1985
岒	-11.1985
惟天地之無窮兮	-11.1985
懃	-11.1985
攬茹蕙以掩涕兮	-11.1985
汝筮予之	-11.1985
當世豈無騏驥兮	-11.1985
策駑駘而取路	-11.1985
蕭瑟兮	-11.1985
蹇充倔而無端兮	-11.1985
辛甘行些	-11.1985
邊馬顧而不行	-11.1985
長髮曼鬋	-11.1985
隰	-11.1985
願承風乎遺則	-11.1985
帝告巫陽	-11.1985
獨秀先些	-11.1985
竊賦詩之所明	-11.1985
縠	-11.1985
而歠其釃	-11.1985
請	-11.1985
贍	-11.1985
騰告鸞鳥迎宓妃	-11.1985
騷騷而	-11.1985
精色内白	-11.1985
忽吾行此流沙兮	-11.1986
夕余至乎縣圃	-11.1986
而蔽鄣於讒	-11.1986
芷葺兮荷屋	-11.1986
麋何食兮庭中	-11.1986
何貞臣之無辠兮	-11.1986
涅	-11.1986
登閬風而緤馬	-11.1986
盛氣志而過之	-11.1986
貫薜荔之落	-11.1986
還及君之無恙	-11.1986
露才揚已	-11.1986
飄風屯其相離兮	-11.1986
志介而不忘	-11.1986
我欲輔之	-11.1986
篸	-11.1986
終不察夫民心	-11.1986
謇朝誶而夕替	-11.1986
蹇誰留兮中洲	-11.1986
遭讒人而嫉之	-11.1986
遵赤水而容與	-11.1986
願託志乎素餐	-11.1986
驂白霓之習習兮	-11.1986
麾蛟龍使梁津兮	-11.1986
盟	-11.1986
拙	-11.1986
獨申旦而不寐兮	-11.1986
卓一作逴	-11.1986
廂	-11.1986
擗蕙櫋兮既張	-11.1986
畦留夷與掲車	-11.1986
五十畝	-11.1986
建芳馨兮廡門	-11.1986
舉傑壓陛	-11.1986
且徐遊戲	-11.1986
前望舒使先驅兮	-11.1986
君之門以九重	-11.1986
姱女倡兮容與	-11.1986
搴長洲之宿莽	-11.1986
携	-11.1986
煎鴻鶬些	-11.1986
縹匹妙切	-11.1986
美往世之登仙	-11.1986
與其無義而有名兮	-11.1986
超回志度	-11.1986
路幽昧以險隘	-11.1986
蹇吾願兮	-11.1986
􁌽	-11.1986
何不餔其糟	-11.1986
妄怒無	-11.1986
炭	-11.1986
燎	-11.1986
皇天之不純命兮	-11.1986
盆	-11.1986
而能與世推移	-11.1986
至㑹稽	-11.1986
起鄭舞些	-11.1986
錦	-11.1986
繇	-11.1987
哀蟋蟀之宵征	-11.1987
曼澤怡面	-11.1987
杼	-11.1987
竭知盡忠	-11.1987
肇	-11.1987
鹵	-11.1987
帝子降兮北渚	-11.1987
捐余袂兮江中	-11.1987
何不淈其泥	-11.1987
君不行兮夷猶	-11.1987
彼日月之照明兮	-11.1987
忽神奔而鬼怪	-11.1987
是以見放	-11.1987
相下女之可詒	-11.1987
竊慕詩人之遺風兮	-11.1987
蓀橈兮蘭旌	-11.1987
謂蕙若其不可佩	-11.1987
長太息而掩涕	-11.1987
闇惑不	-11.1987
何百姓之震愆	-11.1987
惟佳人之永都兮	-11.1987
抑騖若通	-11.1987
然潢洋而不可帶	-11.1987
臼	-11.1988
身而窮處	-11.1988
异	-11.1988
碅	-11.1988
磈	-11.1988
血氣盛只	-11.1988
余有所疑	-11.1988
斑陸離其上下	-11.1988
桂櫂兮蘭枻	-11.1988
臆也思一作	-11.1988
菁	-11.1988
處濁世而顯榮兮	-11.1988
非余心之所樂	-11.1988
伯夷餓於首陽	-11.1988
恐皇輿之敗績	-11.1988
悲莫悲兮生别離	-11.1988
於杳冥之中	-11.1988
椒糈而要之	-11.1988
欲自適而不可	-11.1988
求正氣之所由	-11.1988
而揚其波	-11.1988
臑若芳些	-11.1988
遭周文而得舉	-11.1988
陽杲杲其未光兮	-11.1988
􁈓	-11.1988
放遊志乎雲中	-11.1988
無羽翼	-11.1988
重仁襲義兮	-11.1988
限之以大故	-11.1988
􁼝	-11.1988
欲少留此靈瑣兮	-11.1988
不可兮再得	-11.1988
吾令羲和弭節兮	-11.1988
好夫人之忼慨	-11.1988
心煩慮亂	-11.1988
捐余玦兮江中	-11.1988
水周兮堂下	-11.1988
申旦以舒中情兮	-11.1988
製芰荷以為衣兮	-11.1988
談	-11.1988
厥首用夫	-11.1988
委厥美以從俗兮	-11.1988
惟郢路之遼遠兮	-11.1988
或忠信而死節兮	-11.1988
折瓊枝以繼佩	-11.1988
浞又貪夫厥家	-11.1988
猛犬狺狺而迎吠兮	-11.1988
獨耿介而不隨兮	-11.1988
自前世之嫉賢兮	-11.1988
莽芒芒之無儀	-11.1988
豈不鬱陶而思君兮	-11.1988
逼	-11.1988
三公穆穆	-11.1988
倚沼畦瀛兮	-11.1988
存髣髴而不見兮	-11.1988
忽臨睨夫舊郷	-11.1988
愁歎苦神	-11.1988
操吳戈兮被犀甲	-11.1988
背繩墨而改錯	-11.1988
蓄怨兮積思	-11.1988
路貫廬江兮左長薄	-11.1988
盧	-11.1989
意欲隨水	-11.1989
汁	-11.1989
夕弭節兮北渚	-11.1989
欲循道而平驅兮	-11.1989
磳	-11.1989
願徼幸而有待兮	-11.1989
仰浮雲而永歎	-11.1989
何不變此志也	-11.1989
何云賢士之不處	-11.1989
又好射夫封狐	-11.1989
固亂流其鮮終兮	-11.1989
塊獨守此無澤兮	-11.1989
好蔽美而稱惡	-11.1989
後輜椉之從從	-11.1989
日康娛而自忘兮	-11.1989
朝搴阰之木蘭	-11.1989
漢郊祀志云	-11.1989
竊美申包胥之氣盛兮	-11.1989
縹綿綿之不可紆	-11.1989
羌無實而容長	-11.1989
與化去而不見兮	-11.1989
謇吾法夫前	-11.1989
非世俗之所服	-11.1989
同糅玉石兮	-11.1989
吸飛泉之微液兮	-11.1989
大苦醎酸	-11.1989
恐鵜鴂之先鳴兮	-11.1989
悃苦本切	-11.1989
折若木以蔽光兮	-11.1989
柳	-11.1989
椉精氣之摶摶兮	-11.1989
焉語助	-11.1989
進路北次兮	-11.1989
遂儵忽而捫天	-11.1989
吾與君兮齋速	-11.199
辟與此其無異	-11.199
昬	-11.199
鳥次兮屋上	-11.199
乃知遭命之將至	-11.199
之信直兮	-11.199
九折臂而成醫兮	-11.199
今之相者兮舉肥	-11.199
巫咸將夕降兮	-11.199
弗省察而按實兮	-11.199
得人肉以祀	-11.199
微霜降而下戒	-11.199
恐時世之不固	-11.199
擁	-11.199
解佩纕以結言兮	-11.199
變古易俗兮世衰	-11.199
名聲著而日延	-11.199
后土何時而得漧	-11.199
夏康娛以自縱	-11.199
時亦猶其未央	-11.199
欲釋階而登天兮	-11.199
澆身被服強圉兮	-11.199
然容與而狐疑	-11.199
菉蘋齊葉兮	-11.199
要與腰同	-11.199
車錯轂兮短兵接	-11.199
世幽昧以昡曜兮	-11.199
嚴殺盡兮棄原	-11.199
心踊躍其若湯	-11.199
與女沐兮咸池	-11.199
靈偃蹇兮姣服	-11.199
爾雅釋草云	-11.199
無舟楫而自備	-11.199
疲勞而	-11.199
背法度而心治兮	-11.199
鳧	-11.199
噐	-11.199
屬音燭	-11.199
得罪過之不意	-11.199
折若木以拂日兮	-11.199
絳	-11.199
葉菸邑而無色兮	-11.199
謂騏驥兮安歸	-11.199
鸇	-11.199
入下吾不能	-11.199
求宓妃之所在	-11.199
猶有曩之態也	-11.199
禁苛暴只	-11.199
秘密事之載心兮	-11.199
縱欲而不忍	-11.199
見執轡者非其人兮	-11.199
阿曲隅也	-11.199
雄雄赫赫	-11.199
願竢時乎吾將刈	-11.199
騏驥伏匿而不見兮	-11.199
驥不驟進而求服兮	-11.199
余焉能忍與此終古	-11.199
功不成而無	-11.199
固朕形之不服兮	-11.199
國有驥而不知椉兮	-11.199
大波而流風兮	-11.199
忳惽惽而愁約	-11.199
悃	-11.199
扈屯騎之容容	-11.199
直怐愗而自苦	-11.199
羅生兮堂下	-11.199
莫知余之所有	-11.199
莽洋洋而無極兮	-11.199
計專專之不可化兮	-11.199
託彭咸之所居	-11.199
質菲薄而無因兮	-11.199
邅翼翼而無終兮	-11.199
願若今兮無虧	-11.199
可以濯吾足	-11.1991
恐重患而離尤	-11.1991
使涷雨兮灑塵	-11.1991
湯出重泉	-11.1991
踰空桑兮從女	-11.1991
㦧	-11.1991
亦多端而膠加	-11.1991
召黔嬴而見之兮	-11.1991
哲王又不寤	-11.1991
奉先功以照下兮	-11.1991
思夫君兮太息	-11.1991
愁悄悄之常悲兮	-11.1991
枝葉之峻茂兮	-11.1991
極勞心兮	-11.1991
流澤施只	-11.1991
然惆悵而自悲	-11.1991
願一見兮道余意	-11.1991
駭遽以離心兮	-11.1991
執弓挾矢	-11.1991
孰云察余之善惡	-11.1991
璆	-11.1991
矢交墜兮士爭先	-11.1991
紛純純之願忠兮	-11.1991
躐	-11.1991
進不入以離尤兮	-11.1991
祝	-11.1992
泭以下流兮	-11.1992
遺余褋兮醴浦	-11.1992
令飄風兮先驅	-11.1992
百六十	-11.1992
雖有西施之美容兮	-11.1992
五子用失乎家巷	-11.1992
同極而異路兮	-11.1992
壹氣孔神兮	-11.1992
朝飲木蘭之墜露兮	-11.1992
泫	-11.1992
浡	-11.1992
涕潺湲兮下霑軾	-11.1992
爛昭昭兮未央	-11.1992
諶荏弱而難持	-11.1992
雖過失猶弗治	-11.1992
任重載盛兮	-11.1992
入不言兮出不辭	-11.1992
固庸態也	-11.1992
坑	-11.1992
尚三王只	-11.1992
延佇乎吾將反	-11.1992
惟著意而得之	-11.1992
憚蹇裳而濡足	-11.1992
掘	-11.1992
旌蔽日兮敵若雲	-11.1992
獨便悁而	-11.1992
理弱而媒拙兮	-11.1992
私自憐兮何極	-11.1992
窮不知所示	-11.1992
與王趨夢兮課後先	-11.1992
趙	-11.1992
輾	-11.1992
近禹麾只	-11.1992
齊桓聞以該輔	-11.1992
呉光爭國	-11.1992
峭	-11.1992
惟此黨人其獨異	-11.1992
民好惡其不同兮	-11.1992
穆將愉兮上皇	-11.1992
衡一作蘅	-11.1992
補曰瞀音茂	-11.1992
菡	-11.1992
時不可兮驟得	-11.1992
芬至今猶未沬	-11.1992
芳菲菲而難虧兮	-11.1992
訊	-11.1992
願陳情以白行兮	-11.1992
何故至於斯	-11.1992
吾寧悃悃	-11.1992
周論道而莫差	-11.1992
夕餐秋菊之落英	-11.1992
從風雨而飛颺	-11.1992
忽緯繣其難遷	-11.1992
恐脩名之不立	-11.1992
情與質信可保兮	-11.1992
斯無窮乎	-11.1992
朴以忠乎	-11.1992
父信讒而不好	-11.1992
精醇粹而始壯	-11.1992
雄鳩之鳴逝兮	-11.1992
非余心之所急	-11.1992
何所獨無芳草兮	-11.1992
君誰須兮雲之際	-11.1992
夕宿兮帝郊	-11.1992
奠桂酒兮椒漿	-11.1992
孰求美而釋女	-11.1992
寤從容以周流兮	-11.1992
尚欲布名乎天下	-11.1992
恐導言之不固	-11.1992
悔相道之不察兮	-11.1992
掩此哀而不去	-11.1992
晟	-11.1992
滅規榘而改	-11.1992
然潢洋而不遇兮	-11.1992
生天地之若過兮	-11.1992
盍將把兮瓊芳	-11.1992
雖在湖澤	-11.1992
徨	-11.1993
故重著以自明	-11.1993
躳	-11.1993
太公九十乃顯榮兮	-11.1993
母姣而自好	-11.1993
結幽蘭而延佇	-11.1993
倚結軨兮長太息	-11.1993
性愚陋以褊淺兮	-11.1993
行婞直而不豫兮	-11.1993
質銷鑠以汋約兮	-11.1993
跼兮寒	-11.1993
韭	-11.1993
不得見兮心傷悲	-11.1993
何能依	-11.1993
傷太息之愍憐兮	-11.1993
又何可以淹留	-11.1993
子非三閭大夫與	-11.1993
岱	-11.1993
引車右還	-11.1993
戚之謳歌兮	-11.1993
氣於邑而不可止	-11.1993
穡	-11.1993
老冉冉其將至兮	-11.1993
舉賢而授能兮	-11.1993
麗桂樹之冬榮	-11.1993
儵而來兮忽而逝	-11.1993
山蕭條而無獸兮	-11.1993
桓公聞而知之	-11.1993
焉皇皇而更索	-11.1993
眇不知其所蹠	-11.1993
言已懐忠信	-11.1993
貺	-11.1993
鬘	-11.1993
恐情質之不信兮	-11.1994
和調度以自娛兮	-11.1994
忽馳騖以追逐兮	-11.1994
美善之名也	-11.1994
至今九年而不復	-11.1994
若有人兮山之阿	-11.1994
中瞀亂兮迷惑	-11.1994
九州之博大兮	-11.1994
依前聖以節中兮	-11.1994
君之心兮與余異	-11.1994
壟	-11.1994
形銷鑠而瘀傷	-11.1994
濟沅湘以南征兮	-11.1994
稻粢穱麥	-11.1994
聞至貴而遂徂兮	-11.1994
覽察草木其猶未得兮	-11.1994
賴	-11.1994
却騏驥而不乗兮	-11.1994
霾兩輪兮縶四馬	-11.1994
不知芳何	-11.1995
欲髙飛而逺集兮	-11.1995
如列宿之錯置	-11.1995
誠未遇其匹合	-11.1995
以流涕兮	-11.1995
判獨離而不服	-11.1995
折瓊枝以為羞	-11.1995
糺	-11.1995
耨	-11.1995
酉	-11.1995
后辛之菹醢兮	-11.1995
子慕予兮善窈窕	-11.1995
明法度之嫌疑	-11.1995
漁父見而問之	-11.1995
瀁	-11.1995
豪傑執政	-11.1995
貰	-11.1995
軒輬既低	-11.1995
雜杜衡與芳芷	-11.1995
鴆告余以不好	-11.1995
㒺	-11.1995
室家遂宗	-11.1995
朕皇考曰伯庸	-11.1995
樂莫樂兮新相知	-11.1995
無伯樂之善相兮	-11.1995
燥	-11.1995
睇音弟	-11.1995
萷櫹槮之可哀兮	-11.1995
豈珵美之能當	-11.1995
醨	-11.1995
顠	-11.1995
􁅩	-11.1995
三圭重侯	-11.1995
安能以身之察察	-11.1995
新浴者必振衣	-11.1995
葬於江魚之腹中	-11.1995
以成名乎	-11.1995
忠湛湛而願進兮	-11.1995
自明及晦	-11.1995
像設君室	-11.1995
如脂如韋	-11.1995
彼堯舜之耿介兮	-11.1995
後文昌使掌行兮	-11.1995
忍尤而攘詬	-11.1995
望美人兮未來	-11.1995
白日晼晚其將入兮	-11.1995
盛鬋不同制	-11.1995
秉鞭作牧	-11.1995
臨風怳兮浩歌	-11.1995
辛夷車兮結桂旗	-11.1995
𦙍	-11.1995
君欣欣兮樂康	-11.1995
大侯張只	-11.1995
夫誰畏懼	-11.1995
已矣哉	-11.1995
觀炎氣之相仍兮	-11.1995
馳椒丘且焉止息	-11.1995
􁊥	-11.1995
虀	-11.1996
伍子逢殃兮	-11.1996
𦂳	-11.1996
漁父莞爾而笑	-11.1996
矰弋機而在上兮	-11.1996
鼓枻而去	-11.1996
天極焉加	-11.1996
初若是而逢殆	-11.1996
夏桀之常違兮	-11.1996
外承歡之汋約兮	-11.1996
寧誅鋤草茅	-11.1996
將游大人	-11.1996
惀力允切	-11.1996
竊不自聊而願忠兮	-11.1996
以潔楹乎	-11.1996
周之命以咨嗟	-11.1996
將突梯滑稽	-11.1996
小雅怨誹而不亂若離騷者可謂	-11.1996
徵	-11.1996
惟此黨人之不諒兮	-11.1996
援玉枹兮擊鳴鼓	-11.1996
文異豹飾	-11.1996
湛湛江水兮	-11.1996
紆余轡兮	-11.1996
脈	-11.1996
菑	-11.1996
諡	-11.1996
遒相迫些	-11.1996
離榭脩幕	-11.1996
露申辛夷死林薄兮	-11.1996
靈連蜷兮既留	-11.1996
播江離與滋菊兮	-11.1997
受物之汶汶者乎	-11.1997
吾固知其鉏鋙而難入	-11.1997
住曰傺	-11.1997
長顑頷亦何傷	-11.1997
願銜枚而無言兮	-11.1997
以危身乎	-11.1997
以媮生乎	-11.1997
何瓊佩之偃蹇兮	-11.1997
健	-11.1997
周流六漠	-11.1997
寧正言不諱	-11.1997
將從俗富貴	-11.1997
心怦怦兮諒直	-11.1997
忠昭昭而願見兮	-11.1997
數有所不逮	-11.1997
猋壅蔽此明月	-11.1997
經營四荒兮	-11.1997
葰	-11.1997
謂申椒其不芳	-11.1997
乃旋我之	-11.1997
所誅滅	-11.1997
晉獻公	-11.1997
潮	-11.1997
畋	-11.1997
留不死之舊鄉	-11.1997
皇天集命	-11.1997
笑嘕只	-11.1997
紫莖屏風	-11.1997
芳菲菲兮滿堂	-11.1997
苟中情其好	-11.1997
噑	-11.1997
圜鑿而方枘兮	-11.1997
以力耕乎	-11.1997
告余以吉故	-11.1997
夫尺有所短	-11.1997
年洋洋以日往兮	-11.1997
田邑千畛	-11.1997
侍陂陁些	-11.1997
先威後文	-11.1997
吾獨窮困乎此時也	-11.1997
命有殷國	-11.1997
善美明只	-11.1997
喔咿儒兒	-11.1997
屈心而抑志兮	-11.1997
師望在肆	-11.1997
師灑道風伯掃塵	-11.1997
朱明承夜兮	-11.1997
武丁用而不疑	-11.1997
目極千里兮傷春心	-11.1997
表獨立兮山之上	-11.1997
譲	-11.1997
蹇淹留而躊躇	-11.1997
酨	-11.1997
騎羅些	-11.1997
魂無逃只	-11.1997
􁆍	-11.1997
山帝之二女居	-11.1997
檻層軒些	-11.1997
畟	-11.1997
白日昭只	-11.1997
紅壁沙版	-11.1997
軋洋洋之無從兮	-11.1997
􁛊	-11.1997
出自湯谷	-11.1998
十二焉分	-11.1998
江與夏之不可	-11.1998
孤寡存只	-11.1998
投之深淵些	-11.1998
永遏在羽山夫何三年不施	-11.1998
物有所不足	-11.1998
神有所不通	-11.1998
見王子而宿之兮	-11.1998
順凱風以從遊兮	-11.1998
願皓日之顯行兮	-11.1998
𨽻	-11.1998
列星而極明	-11.1998
怨公子兮悵忘歸	-11.1998
惟其紛糅而將落兮	-11.1998
擥騑轡而下節兮	-11.1998
若千里之駒乎	-11.1998
迷不知寵之門	-11.1998
過夏首而西浮兮	-11.1998
馳委移之焉止	-11.1998
楯	-11.1998
偉	-11.1999
新沐者必彈冠	-11.1999
六氣而飲沆瀣兮	-11.1999
夕余至乎西極	-11.1999
精氣入而麤穢除	-11.1999
老嵺廓而無處	-11.1999
迤	-11.1999
事亹亹而覬進兮	-11.1999
何號于市	-11.1999
傷靈脩之數化	-11.1999
凙	-11.1999
懸人以娭	-11.1999
摯咎繇而能調	-11.1999
武而奔屬	-11.1999
湯禹嚴而求合兮	-11.1999
遊驚霧之流波	-11.1999
之流風兮	-11.1999
九侯淑女	-11.1999
刻著志之無適	-11.1999
君王親發兮	-11.1999
夫孰異道而相安	-11.1999
室中之觀	-11.1999
敦脄血拇	-11.1999
民生各有所樂兮	-11.1999
煉	-11.1999
相息亮切	-11.1999
紛旖旎乎都房	-11.1999
羅幬張些	-11.1999
逐人駓駓些	-11.1999
流沙千里些	-11.1999
皇覽揆余初度兮	-11.1999
章畫志墨兮	-11.1999
背繩墨以追曲兮	-11.1999
俎	-11.1999
恨其失時而無當	-11.1999
晏兮孰華予	-11.1999
東窮海只	-11.1999
留靈脩兮憺忘歸	-11.1999
結撰至思	-11.1999
至南巢而壹息	-11.1999
蘭芳假些	-11.1999
雲容容兮而在下	-11.1999
刻方連些	-11.1999
寧與騏驥亢軛乎	-11.1999
旱	-11.1999
雜芰荷些	-11.1999
上林賦	-11.2
嶸	-11.2
蝮蛇蓁蓁	-11.2
願側身而無所	-11.2
死則又育	-11.2
不撫壯而棄穢兮	-11.2
二八侍宿	-11.2
何去何從	-11.2
容態好比	-11.2
恐自遺災些	-11.2
臨曲池些	-11.2
芳菲菲其彌章	-11.2
萬物遽只	-11.2
西薄羊腸	-11.2
鄭綿絡些	-11.2
長余佩之陸離	-11.2
霧雨淫淫	-11.2
􁫵	-11.2
操七刀切	-11.2001
有莘爰極	-11.2001
強巨良切	-11.2001
娛酒不廢	-11.2001
將運舟而下浮兮	-11.2001
後悔遁而有他	-11.2001
悼來者之悐悐	-11.2001
惟庚寅吾以降	-11.2001
東風飄兮神靈雨	-11.2001
沈日夜些	-11.2001
漢書郊祀志有	-11.2001
肇錫余以嘉名	-11.2001
視儵忽而無見兮	-11.2001
也與一作冶補曰	-11.2001
事君而不貳兮	-11.2001
何所憂之多方	-11.2001
夔	-11.2001
將隨駑馬之迹乎	-11.2001
思君其莫我忠兮	-11.2001
悼余生之不時兮	-11.2001
曽一作増	-11.2001
有招禍之道也	-11.2001
澹容與而獨倚兮	-11.2001
爥	-11.2001
萷	-11.2001
蛾眉曼睩	-11.2001
蟋蟀鳴此西堂	-11.2001
解萹薄與雜菜兮	-11.2001
疇彛倫攸	-11.2001
觧	-11.2001
途	-11.2001
靈氛之占	-11.2001
攝提貞于孟陬兮	-11.2001
澁	-11.2001
上下悠悠只	-11.2001
上寥廓而無天	-11.2001
上洞庭而下江	-11.2001
名余曰正則兮	-11.2001
心怵惕而震盪兮	-11.2001
成梟而牟	-11.2001
曰今詩作	-11.2001
此孰吉孰凶	-11.2001
白皓膠只	-11.2001
童	-11.2001
而賜封之	-11.2001
與左氏	-11.2001
華容備些	-11.2001
見伯夷之放迹	-11.2001
賢士無名	-11.2001
順彌代些	-11.2001
坐堂伏檻	-11.2001
懰	-11.2001
火於秋	-11.2001
目騰光些	-11.2001
纂組綺縞	-11.2001
員	-11.2002
應律兮合節	-11.2002
逵	-11.2002
靈之來兮蔽日	-11.2002
去塵埃之間離羣慝之紛吸	-11.2002
春秋忽其不淹兮	-11.2002
卒其異方	-11.2002
呼五白些	-11.2002
哀見君而不再得	-11.2002
巧倕不斲兮	-11.2002
揳梓瑟些	-11.2002
援北斗兮酌桂漿	-11.2002
梟堅堯切	-11.2002
費白日些	-11.2002
墓	-11.2002
字余曰靈均	-11.2002
川谷徑復	-11.2002
廪	-11.2002
忽忘身之賤貧	-11.2002
求介子之所存兮	-11.2002
爛齊光些	-11.2002
疾親君而無他兮	-11.2002
蜃	-11.2002
蜮	-11.2002
逗	-11.2002
遺視矊些	-11.2002
長袂拂面	-11.2002
黔	-11.2002
􁪠	-11.2002
三年積思	-11.2003
罻羅張而在下	-11.2003
何故以東南傾	-11.2003
刪詩書	-11.2003
擘	-11.2003
願壹見	-11.2003
前圖未改	-11.2003
曰君可思而不可恃	-11.2003
擢	-11.2003
日將暮兮悵忘歸	-11.2003
晉制犀比	-11.2003
楫齊揚以容與兮	-11.2003
波滔滔兮來迎	-11.2003
涕淫淫其若霰	-11.2003
北至幽陵	-11.2003
善留客只	-11.2003
在旁曰帷	-11.2003
惟草木之零落兮	-11.2003
春與秋其代序	-11.2003
皯	-11.2003
背夏浦而西思兮	-11.2003
褰	-11.2003
謇其有意些	-11.2003
厥利維何	-11.2004
康回馮怒	-11.2004
登崑崙兮四望	-11.2004
軒轅不可攀援兮	-11.2004
習以都只	-11.2004
頻	-11.2004
夏室寒些	-11.2004
子神農時	-11.2004
推此志雖與日月爭光可	-11.2004
禾	-11.2004
葶	-11.2004
穀	-11.2004
舉長矢兮射天狼	-11.2004
蜂	-11.2004
何惡輔弼	-11.2004
剔	-11.2004
子交手兮東行	-11.2004
荒忽其焉極	-11.2004
仰觀刻桷	-11.2004
偷以全吾軀乎	-11.2004
兮歸來哀江南	-11.2004
勑	-11.2004
嘕	-11.2004
日月忽其不淹兮	-11.2004
趙簫倡只	-11.2004
鱅	-11.2004
􁫚	-11.2004
萑	-11.2005
操余弧兮反淪降	-11.2005
吾告堵敖以不長	-11.2005
悲江介之遺風	-11.2005
㯐	-11.2005
屬天命而委之咸池	-11.2005
帝乃降觀下逢伊	-11.2005
昔三后之純粹兮	-11.2005
紛緫緫其離合兮	-11.2005
虞淵之汜	-11.2005
今直為此蕭艾也	-11.2006
寒凝凝只	-11.2006
心意安只	-11.2006
樂不可言只	-11.2006
貟	-11.2006
而變化兮	-11.2006
觀者憺兮忘歸	-11.2006
不得施用	-11.2006
與波上下	-11.2006
壒	-11.2006
餘波入	-11.2006
惠氣安在	-11.2006
終危獨以離異兮	-11.2006
嫭以姱只	-11.2006
翡翠珠被	-11.2006
蓼蟲不知	-11.2006
崖	-11.2007
旋入雷淵	-11.2007
和楚酪只	-11.2007
又重之以脩能	-11.2007
惜誦以致愍兮	-11.2007
當陵陽之焉至兮	-11.2007
聊以舒吾憂心	-11.2007
言已所陳忠信	-11.2007
㑹鹹十五年㑹牡丘十六年㑹淮	-11.2007
光風轉蕙	-11.2007
叟	-11.2007
四上競氣	-11.2007
娛人亂只	-11.2007
容則秀雅	-11.2007
彈角而	-11.2007
投詩賦只	-11.2007
朱塵筵些	-11.2007
極聲變只	-11.2007
褘	-11.2007
調以娛只	-11.2007
隷	-11.2007
榝又欲充夫佩幃	-11.2008
恐天時之代序兮	-11.2008
思靈保兮賢姱	-11.2008
撮	-11.2008
載雲旗兮委蛇	-11.2008
云何而逢	-11.2008
禪	-11.2008
自此以下皆	-11.2008
流潺湲些	-11.2008
盾	-11.2008
砥室翠翹	-11.2008
哀州土之平樂兮	-11.2008
駕兩龍兮驂螭	-11.2008
姧	-11.2008
羌不可保也	-11.2008
荏	-11.2008
蘸	-11.2008
襄王王怒而遷	-11.2008
諶	-11.2008
闚	-11.2008
鮌婞直以亡身	-11.2008
鳴竽張只	-11.2008
委厥美而歴兹	-11.2009
吾誼先君而後身兮	-11.2009
厦	-11.2009
處婦憤	-11.201
天白顥顥	-11.201
斤	-11.201
壹心而不豫兮	-11.201
有角曰龍無角	-11.201
欀	-11.201
挂曲瓊些	-11.201
啄害下人些	-11.201
恐自遺賊些	-11.201
四酎并孰	-11.201
顑	-11.201
麗以佳只	-11.201
曰有志極而無旁	-11.2011
於空桑	-11.2011
飛雪千里些	-11.2011
姣麗施只	-11.2011
莧	-11.2011
撫余馬兮安驅	-11.2012
登九天兮撫彗星	-11.2012
北方不可以止些	-11.2012
汭	-11.2012
言與行其可迹兮	-11.2012
篪	-11.2012
遽爽存只	-11.2012
黤	-11.2012
耗	-11.2012
君無上天些	-11.2013
涂	-11.2013
焉得夫朴牛	-11.2013
霆	-11.2013
孕	-11.2013
滂心綽態	-11.2013
彷	-11.2013
崑崙縣圃	-11.2013
氣力衰	-11.2013
吾使厲神占之兮	-11.2013
中悶瞀之忳忳	-11.2013
何變化以作詐	-11.2013
危害厥兄	-11.2013
故相臣莫若君兮	-11.2013
是謂晨明登于扶桑爰始	-11.2013
麏	-11.2014
掝	-11.2014
醢豚苦狗	-11.2014
䔾	-11.2014
和楚瀝只	-11.2014
膾苴蒪只	-11.2014
代秦鄭衛	-11.2014
小腰秀頸	-11.2014
揳	-11.2014
斗之間漢津	-11.2014
言禹治水道娶	-11.2015
何氣通焉	-11.2015
待明君其知之	-11.2015
詒音怡	-11.2016
髙萬仞	-11.2016
南房小壇	-11.2016
瓊轂錯衡	-11.2016
荻	-11.2017
琁	-11.2017
絇	-11.2017
豕首縱目	-11.2017
噰	-11.2017
牧夫牛羊	-11.2017
又莫察余之中情	-11.2017
待明時也	-11.2017
徒昆切	-11.2017
願陳志而無路	-11.2017
惛	-11.2017
曅	-11.2017
亥	-11.2018
女何喜	-11.2018
固煩言不可結詒兮	-11.2018
不歠役只	-11.2018
厥父是臧	-11.2019
山林險隘	-11.2019
鰅鱅短狐	-11.2019
英華假只	-11.2019
王虺騫只	-11.2019
葌	-11.2019
霰	-11.202
舷	-11.202
歸來兮不可以乆	-11.2022
煔鶉敶只	-11.2022
蜮傷躬只	-11.2024
舜服厥弟	-11.2024
掌禹錫云	-11.2025
負熊以遊	-11.2027
而無害厥躬	-11.2028
鼇	-11.2028
吳酸蒿蔞	-11.2028
紛逢尤以離謗兮	-11.2028
厥萌在初	-11.2029
孰道尚之	-11.2029
謇不可釋	-11.2029
舜閔在家	-11.2031
不沾薄只	-11.2032
何由并投	-11.2032
帝降夷羿	-11.2034
魂乎無西	-11.2034
屨	-11.2035
白蜺嬰茀	-11.2036
何少康逐犬	-11.2037
而妻彼雒嬪	-11.2037
何道取之	-11.2037
妹	-11.2042
藙	-11.2057
戴	-11.2062
虎嘯而谷風至	-11.2265
所作忠而言之兮	-11.2401
勰	-11.5235
碧	-11.5258
西京雜記	-11.5264
燦	-11.5268
鞭	-11.5268
絭	-11.527
苙	-11.527
踼	-11.527
枸	-11.5272
乾隆四十六年	-11.5276
鈴	-11.5276
翮	-11.5276
嘐	-11.5284
祛	-11.5285
薠蘅槁而節離	-11.5285
晋	-11.5285
濆	-11.5285
控	-11.5287
不作劒脊	-11.5287
掃	-11.5287
拆	-11.5289
餅	-11.5289
輯	-11.5289
已放在山澤	-11.5289
幣	-11.5289
果以我為患	-11.5289
類可任兮	-11.529
駢	-11.529
今處處有之	-11.5291
秉德無私	-11.5291
蒹	-11.5291
禝	-11.5291
聇	-11.5291
王子比干之	-11.5293
䭇	-11.5293
䓗	-11.5293
榎	-11.5293
茭	-11.5293
蕠	-11.5293
講	-11.5295
宋呉仁傑撰	-11.5295
淹回水而疑滯	-11.5295
笫	-11.5295
薕	-11.5295
順長瀬之	-11.5295
緻	-11.5296
緊	-11.5297
名不可以虛作	-11.5297
放敶組纓	-11.5297
倖	-11.5298
下幽晦以多雨	-11.5299
伇	-11.5299
僭	-11.53
雁	-11.53
年既老而不衰	-11.53
何變易之可	-11.53
知前轍之不遂兮	-11.53
殤	-11.53
紈	-11.5301
灰	-11.5301
補曰鴞于驕切	-11.5301
來雜陳些	-11.5301
於兩楹兮	-11.5301
欲變節以從俗兮	-11.5301
譌	-11.5302
2	-11.5302
覽余以其脩姱	-11.5302
色生於五岳又淮南云紫芝生	-11.5303
蔚	-11.5303
薛	-11.5303
之飯芬香且柔滑也	-11.5303
何毒藥之謇謇兮	-11.5303
思君兮陫側	-11.5303
漿蜜勺	-11.5303
纖	-11.5303
莖葉可作繩索	-11.5304
欲度世以忘歸兮	-11.5304
瑰	-11.5304
媿易初而屈志	-11.5304
願承閒而自察兮	-11.5304
薠草秋生今南	-11.5305
不終失過兮	-11.5305
朝發枉陼兮	-11.5305
撫珮衽以案志兮	-11.5305
讃	-11.5305
酎清涼些	-11.5305
二序舊在	-11.5305
榮而不實者謂之英	-11.5305
玉佩兮陸離	-11.5305
石瀨兮淺淺	-11.5305
菀蘼蕪與菌若	-11.5305
殱	-11.5305
芝賦序云離騷九歌自詩人所紀之外地	-11.5306
凛	-11.5306
與美人抽怨兮	-11.5306
昔君與我誠言兮	-11.5307
一年之三秀近時王令	-11.5307
旦余濟乎江湘	-11.5307
憐思心之不可懲兮	-11.5307
華酌既陳	-11.5307
貲	-11.5307
紛鴻溶而上	-11.5307
郵	-11.5307
驤	-11.5307
俛詘以自抑	-11.5307
磤	-11.5307
穗	-11.5307
粔籹蜜餌	-11.5307
飲菌若之朝露兮	-11.5307
鴈廱廱而南遊兮	-11.5307
􁁉	-11.5307
長瀨湍流	-11.5308
擥大薄之芳茝兮	-11.5308
魂宜來歸	-11.5308
其花最早南	-11.5308
辛夷香草以作	-11.5308
被明月兮珮寶璐	-11.5309
杖	-11.5309
充夫佩幃	-11.5309
濤	-11.5309
何獨樂斯之謇謇兮	-11.5309
堇荼如飴	-11.5309
士女雜坐亂而不分些	-11.5309
愴怳懭悢兮	-11.5309
無傾危之	-11.5309
燕翩翩其辭歸兮	-11.5309
衽若交竿	-11.5309
咶	-11.5309
殟	-11.5309
窟	-11.5309
冩	-11.5309
深林杳以冥冥兮	-11.531
斲冰兮積雪	-11.531
形蟉虬而逶蛇	-11.531
證此言之不可聊	-11.531
後飛廉使奔屬	-11.531
悟過改更我又何言	-11.531
惸獨而不羣兮	-11.531
望北山而流涕兮	-11.531
耿吾既得此中正	-11.531
螭蟲象並出進兮	-11.531
驥焉程兮	-11.531
去鄉離家兮	-11.531
載雲旗之逶蛇	-11.531
牆	-11.531
軰	-11.531
􁁜	-11.531
居戚戚而不可解	-11.5311
拭	-11.5311
故髙枕而自適	-11.5311
洌	-11.5311
目眇眇兮愁予	-11.5311
身既死兮神以靈	-11.5311
上帝其難從	-11.5311
兮逺濁世而自藏	-11.5311
各有所錯兮	-11.5311
壮	-11.5311
孤子唫而抆淚兮	-11.5311
忤	-11.5311
怊惝怳而乖懷	-11.5311
有柘漿些	-11.5311
生下濕地	-11.5311
畫天地山川神靈琦	-11.5311
願自往而徑遊兮	-11.5311
甬	-11.5311
菌閣兮蕙樓	-11.5311
哀南夷之莫吾知兮	-11.5311
獨立不遷豈不可喜兮	-11.5311
鴻鵠代遊曼鷫鷞只	-11.5311
入景響之無應兮	-11.5311
固將重昏而終身	-11.5311
愁鬱鬱之無快兮	-11.5311
聞省想而不可得	-11.5311
與前世而皆然兮	-11.5311
及古賢聖怪物行事周流罷倦	-11.5311
椒專佞以慢慆兮	-11.5311
猪	-11.5311
莽莽而無垠	-11.5311
誘	-11.5311
黿	-11.5312
沃之土生蘼	-11.5312
蹇蹇之煩冤兮	-11.5312
惜壅君之不昭	-11.5312
押	-11.5312
竊獨悲此廩秋	-11.5312
下暗漠而無光	-11.5312
人心不可謂兮	-11.5312
唐本註引	-11.5312
天歎息見楚有先王之廟及公卿祠堂圖	-11.5312
撫情効志兮	-11.5312
放子出而不還	-11.5312
月恭校上	-11.5312
氣繚轉而自締	-11.5312
煩冤瞀容	-11.5312
瓉	-11.5312
目曾波些	-11.5312
窠	-11.5312
等謹案	-11.5312
苟得用此下土	-11.5312
若竹栢之異心	-11.5312
莞芎棄	-11.5312
鳥飛反故鄉兮	-11.5312
鸞皇為余先戒兮	-11.5312
令海若舞馮夷	-11.5312
豔陸離些	-11.5312
轂	-11.5312
不畢辭而赴淵兮	-11.5313
本草枲耳一名葹	-11.5313
登崑崙兮食玉英	-11.5313
不可問故曰天問也屈原放逐憂心愁悴	-11.5313
乹	-11.5313
吾令蹇脩以為理	-11.5313
女嬋媛兮為余太息	-11.5313
物有純而不可為	-11.5313
莫知兮余所為	-11.5313
一槩而相量	-11.5313
夫維聖哲以茂行兮	-11.5313
左朱雀之茇茇兮	-11.5313
豈余身之憚殃兮	-11.5313
惜壅君之不識	-11.5314
無轡銜而自載	-11.5314
者楚人名曰宿莽	-11.5314
願寄言於浮雲兮	-11.5314
將以遺兮離居	-11.5314
指炎神而直馳兮	-11.5314
望屠於朝歌兮	-11.5314
祝融戒而還衡兮	-11.5314
陳吳羹些	-11.5314
馮鬱鬱其何極	-11.5314
中央共牧后何怒	-11.5314
亂曰浩浩沅湘	-11.5314
何壯武厲能流厥嚴	-11.5314
劘	-11.5314
悲時俗之迫阨兮	-11.5314
接徑千里出若雲只	-11.5314
接輿髠首兮桑扈臝行	-11.5314
易初本迪兮	-11.5314
爵禄盛只	-11.5314
碭	-11.5314
脩路幽蔽	-11.5314
苜	-11.5314
蘭茝幽而獨芳	-11.5314
豈知其何故	-11.5314
菉蓐草葹	-11.5315
北地則化而	-11.5315
繚之兮杜衡	-11.5315
二女御九韶歌	-11.5315
余萎約而悲愁	-11.5315
悲哉秋之為氣也	-11.5315
世人皆濁	-11.5315
使湘靈鼓瑟兮	-11.5315
思舊故以想像兮	-11.5315
老冉冉兮既極	-11.5315
薜荔柏兮蕙綢	-11.5315
鞫	-11.5315
音樂博衍無終極兮	-11.5315
余雖好脩姱以鞿羈兮	-11.5315
彭鏗斟雉帝何饗	-11.5315
懲連改忿兮	-11.5315
抑心而自強	-11.5315
昀	-11.5315
曽歔欷余鬱邑兮	-11.5315
曾歔欷之嗟嗟兮	-11.5315
氛埃辟而清涼	-11.5315
江河之紆曲	-11.5315
獨隱伏而思慮	-11.5315
紛溶與而並馳	-11.5315
邈而不可慕	-11.5315
陸費墀欽定四庫全書	-11.5315
鬱結紆軫兮	-11.5315
魂乎歸徠居室定	-11.5315
那	-11.5316
導帝之兮九坑	-11.5316
彼皆習之	-11.5316
白薠兮騁望	-11.5316
茄	-11.5316
靖	-11.5316
鳥萃兮蘋中	-11.5316
世雷同而炫曜兮	-11.5316
佳冶之芬芳兮	-11.5316
吾將往乎南疑	-11.5316
沛罔象而自浮	-11.5316
願勿愛兮	-11.5316
使讒諛而日得	-11.5316
廚	-11.5316
悲憂窮戚兮	-11.5316
拒	-11.5316
撣	-11.5316
筋	-11.5316
胹鼈炮羔	-11.5316
讟	-11.5316
鉅	-11.5316
長無絶兮終古	-11.5316
露雞臛蠵	-11.5316
食不媮而為飽兮	-11.5316
魂乎歸徠尚賢士只	-11.5316
㴉	-11.5316
前輊輬之鏘鏘兮	-11.5316
反信讒而齌怒	-11.5316
呌	-11.5316
太公不遇文王	-11.5316
寔	-11.5316
憂心不遂斯言誰告兮	-11.5316
搷鳴鼓些	-11.5316
澹無為而自得	-11.5316
神儵忽而不反兮	-11.5316
穆眇眇之無垠兮	-11.5316
菎蔽象棊	-11.5316
袵	-11.5316
豈知其故也	-11.5316
竈	-11.5317
爾雅亦作茨布地蔓生細	-11.5317
省息井切	-11.5317
罾何為兮木上	-11.5317
曰遂古之初誰傳道之	-11.5317
恢台之孟夏兮	-11.5317
欲寂漠而	-11.5317
知死不可讓	-11.5317
紛總總兮九州	-11.5317
聞赤松之清塵兮	-11.5317
义	-11.5317
兮歸徠正始昆只	-11.5317
前飛廉以	-11.5317
南行兮思彭咸之故也思美人	-11.5317
報大德之優游	-11.5317
微命力何固	-11.5317
既受詒兮	-11.5317
朝發軔於太儀兮	-11.5317
漵	-11.5317
雖不周於今之人兮	-11.5317
靈皇皇兮既降	-11.5317
截	-11.5318
惲	-11.5318
流金鑠石些	-11.5318
㷀	-11.5318
佩之可貴兮	-11.5318
余佩兮醴浦	-11.5318
僅	-11.5318
撗	-11.5318
故作九辯以述其志至於漢興劉向王	-11.5318
羿淫遊以佚畋兮	-11.5318
魂焭焭而至曙	-11.5318
出不入兮往不反	-11.5318
山叢薄之中不	-11.5318
庶類以成兮	-11.5318
意荒忽而流蕩兮	-11.5318
懷質抱情	-11.5318
曼余目以流觀兮	-11.5318
渉江采菱發揚荷些	-11.5318
登降堂只	-11.5318
羣靈之豐豐	-11.5318
色極似石上	-11.5318
艾同生而不殊	-11.5318
身幽隱而備之	-11.5318
闈	-11.5318
離慜而長鞠	-11.5318
伯林雉經維其何故	-11.5318
古固有不並兮	-11.5318
邈不可慕也	-11.5318
離慜而不遷兮	-11.5318
正青似亂髪郭恭義云	-11.5319
情冤見之日明兮	-11.5319
上下未形何由考之	-11.5319
凥	-11.5319
叚	-11.5319
吾將上下而求索	-11.5319
吾將蕩志而愉樂兮	-11.5319
吾至今而知其信然	-11.5319
問大微之所居	-11.5319
國將危亡乃	-11.5319
契曰玉英玉	-11.5319
忠貞之性而被讒邪傷君闇蔽	-11.5319
惜屈原因共論述故其文義不次序云爾	-11.5319
劭	-11.5319
圜則九重孰營度之	-11.5319
心尚幸其弗濟	-11.5319
洩	-11.5319
識路之營營	-11.5319
何后益作革而禹播降	-11.5319
厮	-11.5319
命則處幽吾將罷兮	-11.5319
哀民生之	-11.5319
喟憑心而歷	-11.5319
嚢	-11.5319
堂所謂含章以時發者也然蘭蕙之才	-11.5319
子蕙似士	-11.5319
懷琬琰之華英	-11.5319
折若椒以自處	-11.5319
放佚厥命將落故作招	-11.5319
知楚人賤蕙而貴蘭矣	-11.5319
羌芳華自中出	-11.5319
聲有隱而相感兮	-11.5319
萬變其情豈可蓋兮	-11.5319
蘭之九畹又樹蕙之百畝招	-11.5319
風過之其香藹然在室滿室在堂	-11.5319
龍駕兮帝服	-11.5319
乆余是勝	-11.5319
載尸集戰何所急	-11.5319
逺志之所及兮	-11.5319
首身離兮心不懲	-11.5319
鑄	-11.532
似水薺張勃云江離出海水中	-11.532
可以濯吾纓	-11.532
事緜緜而多私兮	-11.532
數列人形之要而作九歌九章之頌以諷	-11.532
何芳草之早殀兮	-11.532
余以蘭為可恃兮	-11.532
余何畏懼兮	-11.532
恐溘死不得見乎陽春	-11.532
惟兹何功孰初作之	-11.532
無衣裘以御冬兮	-11.532
矯菌桂以紉蕙兮	-11.532
聲有隱而先倡	-11.532
自壓桉而學誦	-11.532
也騷愁也經徑也言	-11.532
介眇志之所惑兮	-11.532
其九以立義焉	-11.532
冀其覺悟而還之也	-11.532
吴光爭國	-11.532
夫何焭獨而不予聽	-11.532
惟夫黨人之偷樂兮	-11.532
憂心煩亂不知所愬乃作離騷經離	-11.532
欲以復其精神延其年	-11.532
皇天淫溢而秋霖兮	-11.532
羣吠兮吠所怪也	-11.532
覽冀州兮有餘	-11.532
靡蓱九衢枲華安居	-11.532
鵠酸臇鳬	-11.532
􁖑	-11.532
使夫百草為之不芳	-11.532
女嫉余之蛾眉兮	-11.532
殷有惑婦何所譏	-11.532
涕泣交而凄凄兮	-11.532
潄	-11.532
煇	-11.532
逈	-11.532
雖少可師長兮	-11.532
願志之有像	-11.532
願賜不肖之軀而别離兮	-11.532
騖諸神之湛湛	-11.532
驚女采薇鹿何祐	-11.532
蕪乃二物也本草蘼蕪一名江離江	-11.5321
離非蘼蕪也猶杜	-11.5321
徐弭節而髙厲	-11.5321
荆勲作師夫何長	-11.5321
選署衆神以並轂	-11.5321
何續初繼業而厥謀不同	-11.5321
泊莽莽與	-11.5321
信未達乎從容	-11.5321
又未知其所從	-11.5321
吾令豐隆椉雲	-11.5321
帥雲霓而來御	-11.5321
殷宗用而不長	-11.5321
靈氛既告余以吉占兮	-11.5321
䕫	-11.5321
定心廣志	-11.5321
心不怡之長久兮	-11.5321
思蹇產而不釋	-11.5321
皆競進以貪婪兮	-11.5321
舒并節以馳騖兮	-11.5321
行比伯夷置以	-11.5321
離一作罹五臣云	-11.5321
實沛徂兮	-11.5321
更統世而自貺	-11.5321
畵	-11.5321
願遂推而為臧	-11.5321
黨人之鄙	-11.5321
雰	-11.5322
矛	-11.5322
曾枝剡棘	-11.5322
吾令帝閽開關兮	-11.5322
聊浮游而求女	-11.5322
蓤	-11.5322
惀	-11.5322
昭瞢闇誰能極之	-11.5322
馬蘭踸踔而日加	-11.5322
亦不貪餧而妄食	-11.5322
誅譏罷只	-11.5322
䳄	-11.5322
七尺曰仞	-11.5322
借光景以徃	-11.5322
夷猶宿北姑兮	-11.5322
形穆穆以浸	-11.5322
憑不猒乎求索	-11.5322
招者召也以手曰招以言曰召	-11.5322
獨鄣壅而蔽隱兮	-11.5322
神龍失水而陸居	-11.5322
竊快在中心兮	-11.5322
而能盡究其所以情狀者歟	-11.5322
藐蔓蔓之不可量兮	-11.5322
身之精也宋玉憐哀屈原忠而斥棄愁懣	-11.5322
雞鶩翔舞	-11.5322
風颯颯兮木蕭蕭	-11.5322
麗而不竒些	-11.5322
云首陽山在	-11.5322
伏匿穴處爰何云	-11.5322
好此竒服兮	-11.5322
宫庭震驚	-11.5322
將去君而髙翔	-11.5322
張咸池奏承雲兮	-11.5322
愗	-11.5322
憐浮雲之相羊	-11.5322
指西海以為期	-11.5322
時髣髴以遥見兮	-11.5322
材朴委積兮	-11.5322
泱	-11.5322
洔	-11.5322
瀛	-11.5322
爾何懷乎故宇	-11.5322
聊以自救兮	-11.5322
腥臊並御芳不得薄兮	-11.5322
諸侯畢極立九卿只	-11.5322
騐	-11.5322
􁓊	-11.5322
八柱何當東南何虧	-11.5323
或訑謾而不疑	-11.5323
朝吾將濟於白水兮	-11.5323
朝發軔於蒼梧兮	-11.5323
湯禹儼而祗敬兮	-11.5323
溘吾遊此春	-11.5323
誠莫之能善御	-11.5323
地方九則何以墳之	-11.5323
宓妃佚女以譬賢臣虬龍鸞	-11.5323
心繚悷而有哀	-11.5323
愁人兮奈何	-11.5323
時繽紛其變易兮	-11.5323
泝江潭兮	-11.5323
灣	-11.5323
競周容以為度	-11.5323
精瓊爢以為粻	-11.5323
羌中道而囘畔	-11.5323
蘭蕙叢出蒔以沙	-11.5323
蛟龍隱其文章	-11.5323
雜以芳芷芬香益暢	-11.5323
任昉述異記云木蘭	-11.5323
僕夫悲余馬懷兮	-11.5323
昭質既設	-11.5323
殄	-11.5323
約而悲愁	-11.5323
若必筮予之恐後之謝	-11.5323
蜷局顧而不行	-11.5323
路不周以左轉兮	-11.5323
路遠處幽	-11.5323
閔竒思之不通兮	-11.5323
陷滯而不濟	-11.5323
姒	-11.5324
溝	-11.5324
花似菊而紫	-11.5324
作忠以造怨	-11.5324
九天之際安放安屬	-11.5324
室家盈廷	-11.5324
發政獻行	-11.5324
羌愈思兮愁人	-11.5324
觀南人之變態	-11.5324
駟玉虬以椉鷖兮	-11.5324
㳂	-11.5324
凡百君子莫不慕其	-11.5324
揚雲霓之晻藹兮	-11.5324
淵自沈而死	-11.5324
物以比讒佞靈	-11.5324
章援天引聖以自證明終不見省不忍以	-11.5324
美人以嫓於君	-11.5324
脣	-11.5324
車既駕兮朅而歸	-11.5324
離騷之文依詩取興引類譬	-11.5324
食多方些	-11.5324
不知吾所臧	-11.5324
乗白黿兮逐文	-11.5324
何況一國之事兮	-11.5324
余不忍為此態也	-11.5324
北至回水萃何喜	-11.5324
受禮天下又使至代之	-11.5324
周幽誰誅焉得夫	-11.5324
多迅衆些	-11.5324
夫惟黨人鄙固兮	-11.5324
定嫌疑出則監察羣下應對諸侯謀行職	-11.5324
巫陽對曰掌㝱	-11.5324
忽翺翔之焉薄	-11.5324
懷朕情而不	-11.5324
拍	-11.5324
揖辭讓只	-11.5324
曰勉逺逝而無	-11.5324
枹兮拊鼓	-11.5324
無以異於衆芳	-11.5324
率其賢良以厲國士入則與王圖議政事	-11.5324
璆鏘鳴兮琳琅	-11.5324
皇天平分四時兮	-11.5324
聊浮遊以逍	-11.5324
隂陽易位時不當兮	-11.5324
順風波以	-11.5324
頃	-11.5324
蓉	-11.5325
以定嫌疑故曰卜居也	-11.5325
内欣欣而自美兮	-11.5325
信讒諛之溷濁兮	-11.5325
澂	-11.5325
君將何以教之	-11.5325
呑	-11.5325
夜耿耿而不寐兮	-11.5325
小人其詞温而雅其義皎而朗	-11.5325
心煩憺兮忘食事	-11.5325
於中夜存	-11.5325
獨鬱結其誰語	-11.5325
蹇將憺兮壽	-11.5325
邅吾道夫崑崙兮	-11.5325
何桀紂之猖披兮	-11.5325
兄有噬犬弟何欲	-11.5325
名聲若日照四海只	-11.5325
寧昂昂	-11.5325
忍而不能舍也	-11.5325
打	-11.5325
擥涕而竚眙	-11.5325
濅	-11.5325
秋蘭兮麋蕪	-11.5325
稷維元子帝何竺之	-11.5325
華而香有餘者	-11.5325
裦	-11.5325
陟陞皇之赫戲兮	-11.5325
藳	-11.5326
鼎於江淮	-11.5326
九州安錯川谷何洿	-11.5326
代水不可渉深不可測只	-11.5326
右雷公以為衛	-11.5326
封狐千里些	-11.5326
窮身永樂年壽延只	-11.5326
自恣荆楚安以定只	-11.5326
設張辟以娛君兮	-11.5326
乃遂焉而逢殃	-11.5326
名蘭槐根名芷	-11.5326
骫	-11.5326
以託君子飄風雲霓	-11.5326
來者吾不聞	-11.5326
受壽永多	-11.5326
四方之門其誰從焉	-11.5326
將哫訾栗斯	-11.5326
故善鳥香草以配忠貞惡禽臭	-11.5326
武發殺殷	-11.5326
游於江潭	-11.5326
爭盟何踐吾期	-11.5326
瞭	-11.5326
者余弗及兮	-11.5326
蔽晦君之聰明兮	-11.5326
虛惑誤又以欺	-11.5326
䧏	-11.5326
不知余之異采	-11.5326
何環穿自閭社丘陵爰出子文	-11.5326
凌余陣兮躐余行	-11.5326
勲闔夢生少離散亡	-11.5326
受賜兹醢西伯上告	-11.5326
吸湛露之浮源兮	-11.5326
嘉其文采哀其不遇而	-11.5326
固知謇謇之為患兮	-11.5326
夫人自有兮美子	-11.5326
属	-11.5326
慧	-11.5326
授殷天下其位安施	-11.5326
欲逺集而無所止兮	-11.5326
汜濫之浮雲兮	-11.5326
瑶席兮玉瑱	-11.5326
睎	-11.5326
索所革切	-11.5326
自前世而固然	-11.5326
長太息以掩涕兮哀民生之多艱	-11.5326
閭大夫三閭之職掌王族三姓曰昭屈景	-11.5326
陣	-11.5326
陳竽瑟兮浩倡	-11.5326
離人羣而遁逸	-11.5326
雷開何順	-11.5326
芳椒兮成堂	-11.5327
曰排閶闔	-11.5327
日月安屬列星安陳	-11.5327
明明闇闇惟時何	-11.5327
遭沈濁而汙穢兮	-11.5327
隂陽三合何本何化	-11.5327
也是時秦昭王使張儀譎詐	-11.5327
以保真乎	-11.5327
君含怒而待臣兮	-11.5327
日安不到燭龍何照	-11.5327
梏	-11.5327
羿焉彃日烏焉解羽	-11.5327
與俱歸拘留不遣卒客死於秦	-11.5327
傷爰哀永歎喟兮	-11.5327
冥淩浹行	-11.5327
吾方髙馳而不顧	-11.5327
命靈氛為余占之	-11.5327
天時墜兮威靈怒	-11.5327
廣遂前畫兮	-11.5327
後兹承輔	-11.5327
指九天以為正兮	-11.5327
既遵道而得路	-11.5327
時不可以淹	-11.5327
朝馳余馬兮江臯	-11.5327
滿堂兮美人忽獨與余兮目成	-11.5327
環理天下夫何索求	-11.5327
痩	-11.5327
與泰初而	-11.5327
造旬始而觀清都	-11.5327
陽侯之汜濫兮	-11.5327
隨飄風之所仍	-11.5327
順風波以從流兮焉洋洋而	-11.5327
香荆湘嶺南人家多種之此與蘭草大	-11.5327
君罔謂汝何之	-11.5328
日忽忽其將暮	-11.5328
獨遑遑而無所集	-11.5328
䔧	-11.5328
何所營禹何所成	-11.5328
屯余車兮	-11.5328
隅隈多有誰知其數	-11.5328
上述唐虞三后之制下序桀紂羿澆之敗	-11.5328
余先乎平路	-11.5328
其子襄王復用讒言遷屈原於江南	-11.5328
君覺悟反於正道而還	-11.5328
鯪魚何所鬿堆焉處	-11.5328
且焉止息	-11.5328
人皆醉而我獨醒	-11.5328
借光景以往來兮	-11.5328
君之樂處而離彼不祥些	-11.5328
君思我兮然疑作	-11.5328
啓九辯與九歌兮	-11.5328
媒絶路阻兮	-11.5328
實滿宫些	-11.5328
尚黯黮而有瑕	-11.5328
月盛而澤蘭生水澤中及下濕地	-11.5328
有毛不光潤方莖紫節七月八	-11.5328
榣	-11.5328
樂府集云離	-11.5328
比干何逆而抑沈之	-11.5328
紛容容之無經兮	-11.5328
縳	-11.5328
蘭如薄荷㣲	-11.5328
衝風至兮水揚波	-11.5328
諒城郭之不足恃兮	-11.5328
逴絶垠乎寒門	-11.5328
雖重介之何益	-11.5328
遊兮周章	-11.5329
隂陽之和食天地之精	-11.5329
易曰日中見	-11.5329
東流不溢孰知其故	-11.5329
飲余馬於咸池兮	-11.5329
何所冬暖何所夏寒	-11.5329
僉曰何憂何不課而行之	-11.5329
心純庬而不泄兮	-11.5329
羲和之未揚若華何光	-11.5329
順欲成功帝何刑焉	-11.5329
乘赤豹兮從文狸	-11.5329
冲	-11.5329
彼王紂之躬孰使亂惑	-11.5329
故之親身兮因縞素而哭之	-11.5329
申申其詈予	-11.5329
豈唯是其有女	-11.5329
侣	-11.5329
厥利惟何逢彼白雉	-11.5329
固人命兮有當孰離合兮可	-11.5329
層臺累榭	-11.5329
斟灌以伐斟尋滅夏后相	-11.5329
易之以百兩卒無禄	-11.5329
罔芒芒之無紀	-11.5329
聽波聲之洶洶	-11.5329
蘭茝之芬芳	-11.5329
馮崑崙以瞰霧兮	-11.5329
安能以皓皓之白	-11.533
楚詞以惡草喻惡人	-11.533
鷄鶩滿堂壇兮	-11.533
乎無北北有寒山逴龍赩只	-11.533
人阜昌只	-11.533
師何以尚之	-11.533
余既滋蘭之九畹兮	-11.533
盗	-11.533
角宿未旦曜靈安	-11.533
不遂故憤然大招其魂盛稱楚國之樂崇	-11.533
侈	-11.533
兮歸來南方不可以止些	-11.533
天命反側何罰何佑	-11.533
屈原放流九年憂	-11.533
所以假延日月	-11.533
既含睇兮又宜笑	-11.533
粻	-11.533
糺思心以	-11.533
終然殀乎羽之野	-11.533
縆瑟兮交鼓	-11.533
莫吾知人心不可謂兮	-11.533
長太息兮將上心低佪兮顧	-11.533
靚杪秋之遥夜兮	-11.533
願沈滯而不見兮	-11.533
魚鱗屋兮龍堂紫貝闕兮朱宫	-11.533
上陳事神之敬下	-11.533
何卒官湯尊食宗緒	-11.533
反成乃亡其罪伊何	-11.533
忽傾寤以嬋媛	-11.533
思不眠以至曙	-11.533
文縁波些	-11.533
春氣奮發	-11.533
欝	-11.533
秋蘭春蘭石蘭	-11.533
綦	-11.533
羌不知余之所臧	-11.533
臯蘭被徑	-11.533
荷衣兮蕙帶	-11.533
逢此世之俇攘	-11.533
酎飲盡歡樂先故些	-11.533
貼	-11.5331
鴈皆唼夫粱藻兮	-11.5331
嶓冡導	-11.5331
巫咸之興	-11.5331
以比三王能任用賢公卿明察能薦舉	-11.5331
何感天抑墬	-11.5331
安得夫良藥不能固臧	-11.5331
簴	-11.5331
羌居蔽而聞章	-11.5331
者屈原之所作也或曰景差疑不能明也	-11.5331
警	-11.5331
貍	-11.5331
頼	-11.5331
驟諫君而不聽兮	-11.5331
鳴䶵兮吹竽	-11.5331
不同章句雜錯而廣異義焉	-11.5331
去君之恒幹	-11.5331
孔叢子云宰我問	-11.5331
憚涌湍之礚礚兮	-11.5331
懷瑾握瑜兮	-11.5331
生山側似劉寄奴	-11.5331
謠	-11.5331
願輕舉而逺	-11.5331
香誤矣吕氏春	-11.5331
寧赴湘流	-11.5332
乙	-11.5332
北極之山曰寒門	-11.5332
皆在所用	-11.5332
孰申旦而别之	-11.5332
寧溘死以流亡兮	-11.5332
易中利心以動作只	-11.5332
滿内而外揚	-11.5332
羸	-11.5332
脇	-11.5332
豈惟紉夫蕙茝	-11.5332
之厚也是以君子珍重其志而瑋其辭焉	-11.5332
九者陽之數道之綱紀也	-11.5332
何親揆發足	-11.5332
依風穴以自息兮	-11.5332
咸播秬黍莆雚是營	-11.5332
如竹菌一作箘其字從竹	-11.5332
射逓代些	-11.5332
忠何罪以遇罰兮	-11.5332
忽反顧以遊目兮	-11.5332
故天有九星以正機	-11.5332
爭遣伐器何以行之	-11.5332
秔	-11.5332
荒忽兮逺望觀流水兮潺湲	-11.5332
蒻阿拂壁	-11.5332
豈維紉夫蕙	-11.5332
吾屈原自謂	-11.5333
倚閶闔而望予	-11.5333
誰可與玩斯遺芳兮	-11.5333
保厥美以驕傲兮	-11.5333
其大無垠	-11.5333
夕歸次於窮石兮	-11.5333
日康娛以淫遊	-11.5333
焉有石林何獸能言	-11.5333
仍羽人於丹丘兮	-11.5333
好蔽美而嫉妬	-11.5333
忼慨絶兮不得	-11.5333
戯	-11.5333
瞭冥冥而薄天	-11.5333
神要眇以淫放	-11.5333
羌中道而改路	-11.5333
被石蘭兮帶杜衡	-11.5333
遂去不復與言	-11.5333
采三秀兮於山間	-11.5333
降望大壑	-11.5333
亦非余心之所志	-11.5333
别有杜蘅不相似	-11.5333
哀衆芳之蕪穢	-11.5333
孚	-11.5333
山中人兮芳杜若	-11.5333
工祝招君背行先些	-11.5333
心調度而弗去兮	-11.5333
惟何戒之	-11.5333
楚大夫宋玉之所作也辯者變也謂敶道	-11.5333
漂翻翻其上下兮	-11.5333
秋蘭以爲佩	-11.5333
糓	-11.5333
終長夜之曼曼兮	-11.5333
翡帷翠帳飾髙堂些	-11.5333
譽配天萬民理只	-11.5333
賂	-11.5333
雖萎絶其亦何傷兮	-11.5333
鷙鳥之不羣兮	-11.5333
淡	-11.5334
赤螘若象	-11.5334
何所不死長人何守	-11.5334
何闔而晦何開而明	-11.5334
墀	-11.5334
朝發軔於天津兮	-11.5334
薜荔兮帶女羅	-11.5334
㑹稽山名也	-11.5334
卒不見納委命自沈楚人惜而哀之	-11.5334
國無人莫我知兮	-11.5334
夫唯靈脩之故也	-11.5334
操築於傅巖兮	-11.5334
洧	-11.5334
聽惝怳而無聞	-11.5334
重蔽而聞章	-11.5334
今誰使乎譽之	-11.5334
以不慈之僞名	-11.5334
佩繽紛其繁飾兮	-11.5334
天地無所不到然猶	-11.5334
弱顔固植	-11.5334
擊紂躬叔旦不嘉	-11.5334
於衰亂之世	-11.5334
浹	-11.5334
深固難徙更壹志兮	-11.5334
簡狄在臺嚳何宜	-11.5334
衽拂於不周	-11.5334
路脩逺以周流	-11.5334
悼芳草之先零	-11.5335
雄虺九首儵忽焉在	-11.5335
寧超然髙舉	-11.5335
曖曃其曭莽兮	-11.5335
釋舟陵行何以遷之	-11.5335
俾山川以備御兮	-11.5335
少司命暾將出兮東方	-11.5335
槃	-11.5335
謐	-11.5335
人有所極同心賦些	-11.5335
初湯臣摯	-11.5335
千鈞為輕	-11.5335
又云矯菌桂以紉蕙則菌桂自是一物	-11.5335
慘鬱鬱而不通兮	-11.5335
曾不知夏之為	-11.5335
潔至人貴藏暉與	-11.5335
畫龍蛇些	-11.5335
虚之璆琳琅玕焉	-11.5335
貨	-11.5335
微霜降而下淪	-11.5336
無合夫焉取九子	-11.5336
其小無内兮	-11.5336
又何懷乎故都	-11.5336
后皇嘉樹橘徠服兮	-11.5336
棘賔商九辯九歌	-11.5336
瓊木籬些	-11.5336
竭誠信也	-11.5336
見有娀之佚女	-11.5336
何離心之可同兮吾將逺逝以自	-11.5336
余駕飛龍兮雜瑶象以	-11.5336
來吾道夫先路	-11.5336
堯不姚告二女何親	-11.5336
多珍怪些	-11.5336
姱容脩態	-11.5336
孰期去斯得兩男子	-11.5336
平脅曼膚何以肥之	-11.5336
強非其人	-11.5336
恬漠思欲濟世則意中憤然文采	-11.5336
朱脣皓齒	-11.5336
栽	-11.5336
汜潏潏其前後兮	-11.5336
洪泉極深	-11.5336
無所告訴乃深惟元一	-11.5336
稟	-11.5336
緑葉素榮紛其可喜兮	-11.5336
蒼鳥羣飛孰使萃之	-11.5336
蝮蛇蜒只	-11.5336
蟬翼為重	-11.5336
西北不周風自	-11.5336
忠不必用兮賢不必	-11.5337
曰勉陞降以上下兮	-11.5337
渝	-11.5337
皇剡剡其揚靈兮	-11.5337
覽相觀於四極兮	-11.5337
昡	-11.5337
望瑶臺之偃蹇兮	-11.5337
然霠曀而莫	-11.5337
猋逺舉兮雲中	-11.5337
卬明月而太息兮	-11.5337
吾聞作忠以造怨兮忽謂之過言	-11.5337
喟憑心而歴兹	-11.5337
女媧有體孰制匠之	-11.5337
嬰	-11.5337
懹	-11.5337
湣	-11.5337
盜	-11.5337
結桂枝兮延竚	-11.5337
華鐙錯些	-11.5337
衆薆然而蔽之	-11.5337
負鼎爼	-11.5337
不任汩鴻	-11.5337
味豺羹只	-11.5338
朝濯髪乎洧	-11.5338
相失國依於二斟	-11.5338
靈何為兮水中	-11.5338
㐮	-11.5338
䧟滯而不濟	-11.5338
二八接舞	-11.5338
卜居者屈原之所作也屈原	-11.5338
天地四方多賊姦些	-11.5338
妺嬉何肆湯何殛焉	-11.5338
姱脩滂浩	-11.5338
寧與黄鵠比翼乎	-11.5338
恐嫉妬而折之	-11.5338
情與貌其不變	-11.5338
憂與愁其相接	-11.5338
此皆甘人歸來	-11.5338
殊能將之	-11.5338
築室兮水中葺之兮荷	-11.5338
駕辯楚勞商只	-11.5338
髙四五尺	-11.5338
魂乎歸徠安以舒只	-11.5338
魂乎無西西方流沙	-11.5338
厎	-11.5338
漁父者屈原之所作也屈原放	-11.5338
靡顔膩理	-11.5338
氛埃而淑尤兮	-11.5338
内厚質正兮	-11.5338
箕子詳狂	-11.5338
讒諂是服	-11.5338
君思我兮不得閒	-11.5338
易厥首而親以逢殆	-11.5338
杳冥冥兮羌晝晦	-11.5338
眩弟並淫	-11.5338
竭忠誠以事君兮	-11.5338
上至列缺兮	-11.5338
二億三萬三千五百里	-11.5338
獲迄古南嶽是止	-11.5338
璜臺十成誰所極焉	-11.5338
結琦璜些	-11.5338
黃棘之枉䇿	-11.5338
戃	-11.5339
荇	-11.5339
耀靈曄而西征	-11.5339
背膺牉以交痛兮	-11.5339
爢散而不可止些	-11.5339
代益作后卒然離蠥	-11.5339
乏	-11.5339
乘白黿兮逐文魚	-11.5339
廖	-11.5339
得彼小子夫何惡之媵有莘之婦	-11.5339
忽若不信兮	-11.5339
河海應龍	-11.5339
登大墳以逺望兮	-11.5339
矯兹媚以私處兮	-11.5339
罔極故復作九章	-11.5339
羌衆人之所仇	-11.5339
譅	-11.5339
𣢾	-11.5339
其一角正東名曰崑崙	-11.5339
楚人思念屈原因叙其辭以相傳焉	-11.5339
榱	-11.5339
祍	-11.5339
穉朱顔只	-11.5339
離婁微睇兮	-11.5339
顔色憔悴	-11.5339
抑志而弭節兮	-11.534
白芷一名芳香	-11.534
作九歌之曲	-11.534
妺	-11.534
湯謀易旅何以厚之	-11.534
見俗人祭祀之禮歌舞之樂其詞鄙陋因	-11.534
樂時遇屈原川澤之域怪而問之遂相應	-11.534
湘夫人廣開兮天門	-11.534
矇瞍謂之不章	-11.534
魂乎歸徠麗以先只	-11.534
心鬱結而紆軫	-11.5341
不歰嗌只	-11.5341
何往營班禄不但還來	-11.5341
何聖人之一德	-11.5341
奏九歌而舞韶兮	-11.5341
山名也在西	-11.5341
拔木九千些	-11.5341
瞭杳杳而薄天	-11.5341
芞	-11.5341
魂魄歸徠無逺遥只	-11.5341
叩鍾調磬	-11.5341
所行幾里	-11.5341
箴	-11.5341
經云崑崙有銅柱焉其	-11.5341
繣	-11.5341
鍾揺簴	-11.5341
馮翼惟像	-11.5341
陜	-11.5342
九歌者屈原之所作也昔楚	-11.5342
先出其命何從	-11.5342
其祠必作	-11.5342
帀	-11.5342
樂鼓舞以樂諸神	-11.5342
瑾握瑜而自令見放	-11.5342
發郢都而去閭兮	-11.5342
固衆芳之所在	-11.5342
天不足西北左	-11.5342
夷吾忠而名	-11.5342
孰察其撥正	-11.5342
浮江淮而入海兮從子胥而自適	-11.5342
穆王巧梅	-11.5342
經堂入奥	-11.5342
纕佩帶也	-11.5342
罾	-11.5342
色直眉美目媔只	-11.5342
騏驥駿馬也	-11.5342
荔	-11.5343
芭	-11.5343
耐	-11.5343
恣所嘗只	-11.5343
雷開阿順	-11.5343
􁬭	-11.5343
兮歸來君無下此幽都些	-11.5343
南郢之邑沅湘之間其俗信鬼而好	-11.5343
吁嗟黙黙兮	-11.5343
土伯九約其角觺觺些	-11.5343
坼	-11.5343
失於專任	-11.5343
娥眉曼只	-11.5343
孔雀盈園畜鸞皇只	-11.5343
曲眉規只	-11.5343
東有大海溺水浟浟只	-11.5343
致命於帝然後得瞑些	-11.5343
魂乎歸徠無東無西無南無北	-11.5343
屯徒渾切	-11.5344
命咎繇使聽直	-11.5344
心飛揚兮浩蕩	-11.5344
流澌紛兮將來下	-11.5344
褋	-11.5344
榝似茱茰而小	-11.5345
終不反其故都	-11.5345
赤莖節好生道	-11.5345
忘儇媚以背衆兮	-11.5345
藩	-11.5345
大人所盛	-11.5345
汜崇蘭些	-11.5345
㣧	-11.5345
溆	-11.5345
􁀾	-11.5345
令五帝以㭊中兮	-11.5346
戒六神與嚮服	-11.5346
耻	-11.5346
腓	-11.5346
于咸池拂于扶桑	-11.5346
魂乎無東湯谷	-11.5346
長爪踞牙	-11.5347
傺之煩惑兮	-11.5347
裸	-11.5347
添	-11.5347
苹	-11.5347
發憤以杼情	-11.5347
㠝	-11.5347
箎	-11.5347
與女遊兮河之渚	-11.5347
免衆患而不懼兮	-11.5348
羌聲色兮娛人	-11.5348
阿衡欲干湯而無由乃	-11.5348
故衆口其鑠金兮	-11.5348
龍舉而景雲	-11.5348
董	-11.5349
蠚	-11.5349
夏屋廣大沙堂秀只	-11.5349
往來儵忽吞人以益其心些	-11.5349
犲狼從目往來侁侁些	-11.5349
誒笑狂只	-11.535
其凥安在	-11.535
戍	-11.535
壑焉實惟無底之谷名曰歸墟	-11.535
觀絶霤只	-11.535
婬	-11.5351
杳冥冥兮以東行	-11.5351
闊	-11.5351
壛	-11.5351
曲屋歩壛	-11.5351
而顧菟在腹	-11.5351
反離羣而贅肬	-11.5352
後嗣而逢長	-11.5352
清馨凍	-11.5352
獵春囿只	-11.5352
灸	-11.5354
鬱彌路只	-11.5354
蘠	-11.5355
挺	-11.5355
顔師古急就章註	-11.5355
被髮鬤只	-11.5355
伯強何處	-11.5355
篁竹之中	-11.5356
簜敷衍編町成篁	-11.5356
云彼采蕭兮彼采艾兮是也淮南	-11.5356
其衍幾何	-11.5356
竹田曰篁西都賦云篠	-11.5357
篁竹墟名	-11.5357
紫芝與蕭艾俱死蕭艾賤草以喻不肖	-11.5357
逞志究欲	-11.5357
巑	-11.5357
詩人采蕭蕭即艾也蕭自是香蒿古祭祀	-11.5358
彘	-11.5358
其脩孰多	-11.5358
胡終弊于有扈	-11.5358
不但還來	-11.5358
仇牧荀息	-11.5361
陸璣草木疏云	-11.5361
炙鴰烝鳬	-11.5361
􁃇	-11.5361
該秉季德	-11.5362
黙而莫余知兮進號呼又莫吾聞	-11.5363
皤	-11.5368
薲	-11.5368
禹之力獻功	-11.5371
而厥身不危敗	-11.5371
鹿何膺之	-11.5372
何肆犬體	-11.5373
覆舟斟尋	-11.5376
爇	-11.5378
焉有虬龍	-11.5379
而交吞揆之	-11.538
降省下土四方	-11.538
一蛇吞象	-11.5383
厥大何如	-11.5385
何獻蒸肉之膏	-11.5386
而后帝不若	-11.5386
女歧縫裳	-11.5388
而館同爰止	-11.5388
胡維嗜不同味	-11.5394
指蒼天以爲正	-11.5888
爰止其女爰息其馬是謂懸車	-11.6713
死之草北方有不釋	-11.9021
要乗弋等也	-11.9085
乘清氣兮御	-11.9538
嘯而谷風至龍	-11.9793
招揺一星在北斗杓	-12.0058
憚舉趾而緣木	-12.0141
雲以汎濫游兮	-12.0149
苗髙二三尺葉	-12.0149
四庫全書館進呈	-12.019
羅田縣縣學	-12.019
汝何博謇而好	-12.0191
􁆎	-12.0199
薋菉葹之類	-12.0208
苬	-12.0208
頗合古人左圖右書之意但今書	-12.0215
杉	-12.0215
扇	-12.0218
南書房翰林等逐一考訂	-12.0227
一圖九歌九圖天問五十四圖	-12.023
邇	-12.0233
薌	-12.0233
補繪蕭雲從離騷全	-12.0237
几	-12.0237
熲	-12.024
草木疏二巻見於本傳其書	-12.0246
慶元庚申	-12.0246
遂馳騁兮陞雲揚彗光兮	-12.0246
集從今反鴞	-12.0246
杳疏凡王逸所集者皆在焉	-12.0249
一百五十五	-12.0249
罼宿名也畢有	-12.0249
上林賦雜以留夷張楫曰留夷	-12.0252
以飲役賤之人即	-12.0253
􁀔	-12.0255
灎	-12.0255
罼	-12.0255
跋	-12.0258
也言已動履大水宿	-12.0259
云瑶光北斗杓第七星也居中	-12.0259
作揺補曰淮南云瑶光者	-12.0259
水出大貝也一云白	-12.0259
資糧萬物者也注	-12.0259
陸離美玉也薦	-12.0259
櫾	-12.0259
下垂者上廣	-12.0262
云螣蛇無足而飛文子曰	-12.0262
作滕一云從後補	-12.0262
指十二辰擿起	-12.0262
獸其名曰蹷常	-12.0262
神虺侍從慕仁賢也騰一	-12.0262
蛩蛩駏驉取甘草蹷有患蛩	-12.0262
衣如鱗文也言	-12.0262
補曰駏音巨淮南云	-12.0262
赤霄登張翼	-12.0262
駏驉奮飛承轂輪也	-12.0262
駏驉必負而走郭璞曰卭卭似馬而	-12.0262
騰郭璞云螣龍類	-12.0262
魚鱗衣雜五綵	-12.0262
彀	-12.0262
棼	-12.0262
登逢龍之山而遂	-12.0262
言征行之夫罷勞周道行	-12.0262
萼	-12.0263
三閭大夫鄭詹尹漁父合繪	-12.0265
作之莫耶干	-12.0265
卭距虚日	-12.0265
無也紐結束也易曰束帛戔戔	-12.0265
不立而志不成也	-12.0265
也釋名婦人上服	-12.0265
圭廣雅袿長	-12.0265
如日月之光無所不照	-12.0265
文武之質自傷壓	-12.0265
林澤菀積而死恨功	-12.0265
殻	-12.0265
涓	-12.0265
行衆善若此而	-12.0265
逢龍山名逢一作逄	-12.0265
訂	-12.0268
痺	-12.0268
也補曰張揖云干	-12.0268
云情結素釋文	-12.0268
將韓王劒師也	-12.0268
放弃雖無有思之	-12.0268
無有違離情志潔淨有如束帛也一	-12.0268
竦余劒兮干	-12.0268
紐女九切補曰紐	-12.0268
者然猶重行誠信	-12.0268
陽龜文莫耶隂漫理此	-12.0268
申徒狄賢者避	-12.0268
申誠信而罔違兮情素	-12.0268
仁義故欣喜復之西方就	-12.0268
探	-12.0268
整我袗裳自結束也	-12.0268
鬃	-12.0268
蜀本圖經云木髙數仞	-12.0271
音須人名引荀	-12.0271
娵一作娶補曰荀子曰閭姝子奢莫知媒	-12.0271
韋昭云梁王魏瞿之美女娵音鄒集	-12.0271
剝	-12.0271
雇	-12.0271
緩帶徐歩五玉	-12.0271
不見進用意欲驅馳	-12.0271
待王子僑隨之奔走以學道	-12.0271
旦起徘徊行於長阪之	-12.0271
亝	-12.0271
圈	-12.0271
思國家之離沮兮	-12.0271
援琴鼓之師	-12.0271
笧	-12.0271
葹	-12.0271
見晉平公令師	-12.0271
靈公至於濮水之上夜半聞鼓琴聲召師	-12.0271
篩	-12.0274
崑山崑崙也言渡隴	-12.0274
臥	-12.0274
垢黒也蒶一作紛補曰蒶音墳藴	-12.0274
則滄海也濿一	-12.0274
師延殷紂之臣也	-12.0274
猛獸應秋將害賊也呴一作	-12.0274
盥	-12.0274
變白使黒變黒	-12.0274
靡散猶消滅也言	-12.0274
之林則獨偏遇	-12.0274
倥偬猶困苦也言悲念我之生遭遇	-12.0274
其聲騷屑浮雲吸吸	-12.0274
戾而相隨重愁思也湫	-12.0274
敏失於髙深	-12.0274
暮獨宿山谷之間憂且	-12.0274
樂之時身常困苦於山	-12.0274
此亡國之聲師延所作也與紂	-12.0274
而竭忠言身以得過	-12.0274
蝯失於濳林兮獨偏	-12.0274
陸之中也補曰倥偬苦貢	-12.0274
音晃水深廣	-12.0274
之芝非獨山草盖未足據	-12.0276
高飛兮安翔	-12.0276
㵣	-12.0277
堆適桂車合黎乃	-12.0277
騄從卭而棲遲顧望也	-12.0277
如許由堯讓以天下辭而不肯受伯夷叔	-12.0277
死介子推逃晉文公之賞	-12.0277
蓄英登九靈兮	-12.0277
行賣曰衒鬻賣也言	-12.0277
雲切蒶藴藴積也黴音眉物中乆雨	-12.0277
蛤	-12.0278
也以言讒佞弄口	-12.0278
利乃棲於桑榆居茂木之	-12.0278
居吟於髙墻之上將	-12.0278
放出九年君不肯反我中心愁	-12.0278
於林澤居非其	-12.0278
欲自沈於水與彭咸俱	-12.0278
翼而鳴得其所	-12.0278
讙呼臣一作子補	-12.0278
㳙	-12.0278
心怊悵以永思兮	-12.0278
蔤	-12.0278
云從盧敖兮補曰	-12.0281
崑崙取駿馬而絆之騄駿馬名崑一	-12.0281
液瓊蘂之精氣芝神	-12.0281
渴啜玉精飢食芝	-12.0281
草縁之而生交	-12.0281
閜呼雅反寪于	-12.0281
𥜗	-12.0281
不用身將終敗	-12.0281
也言風揄揚水流隕	-12.0281
其聲相聚讙譁君	-12.0281
復遇害也言已亦失	-12.0281
悖	-12.0281
憂悲又見疾風動	-12.0281
旛	-12.0281
欲登君階陛正言直諫恐	-12.0281
皇别名馬融曰	-12.0281
念君信用讒佞社	-12.0281
息也言屈原放在山澤猶傷念君歎息無	-12.0281
所謂讃賢以輔志騁詞以曜	-12.0281
昏補曰集韻云䀒瞑遥	-12.0281
未明也一作芊瞑	-12.0281
登長陵而四望兮	-12.0281
蕣	-12.0281
諒信也論語曰君子貞而不諒言	-12.0281
南方焦明西方鷫鷞	-12.0282
西方神鳥也東方發明	-12.0282
皋	-12.0282
藭	-12.0284
芝予以其不明又其辭曰適山而采	-12.0284
䮍	-12.0284
也渴釋文作㵣補曰吮常	-12.0284
疇	-12.0284
習而信之蔽逺賢者言不	-12.0284
背容頭自入又不見納故	-12.0284
䠶身被矰繳也隿一作弋補	-12.0284
丠	-12.0284
也睄窕幽冥也一作闐䏴雿	-12.0284
古覔切睄與宵同窕徒了	-12.0284
楊之樹居危殆也言已有孤子之憂	-12.0284
水長嘯思念楚國而無解	-12.0284
而不見用猶抱此昭華寳璋衒賣	-12.0284
依歸又悲哀飛鳥生鶵其身煩	-12.0284
切猶槩也淟涊垢濁也言	-12.0284
文云蝦蟇也一曰蝦虫與水母	-12.0284
止願退我身處於貧窮而	-12.0284
胡豆切荀子無	-12.0284
苟余心其端直兮	-12.0284
謑音傒訽許候	-12.0284
鵕一作鵔棲一作指一	-12.0284
以迷惑國將傾危朝用蕪薉而	-12.0284
壈不遇志不離	-12.0284
放逐心中鬱鬱憂而	-12.0284
䰟眇眇而馳騁兮心煩	-12.0284
上覆額移時而	-12.0284
名字消滅不得	-12.0284
圖曰梟羊喜獲先笑後愁謂人鑿其脣	-12.0284
幽居遇雨愁思茫	-12.0284
放在屮野處於深林冥	-12.0284
望之無人但見鳥獸	-12.0284
之人反登明堂而	-12.0284
勇則害上不	-12.0284
曰彭咸以伏節死義	-12.0284
桺	-12.0284
為謾而㫁其	-12.0284
觸石碕而衡	-12.0284
言棄彭咸清潔之行娱	-12.0284
入漵浦余儃佪兮	-12.0285
五臣云原與楚同姓故云王	-12.0287
摠	-12.0287
作海補曰濩音穫渃	-12.0287
心緊絭兮傷	-12.0287
緊絭糾繚也望舊土而心感傷	-12.0287
之清白彼之貪濁也愉	-12.0287
以言楚國士民衆多君不	-12.0287
慶雲喻尊顯也言葛	-12.0287
曕	-12.0287
異而舉用則不知其有	-12.0287
禍也陿一作愜腹一作	-12.0287
耳逢原之說豈	-12.0287
能生於盤石之上則芝正生於	-12.0287
遂騎神獸用登天	-12.0287
錯茂盛人不異而采取則不成絺綌	-12.0287
陿腹小息畏懼患	-12.0287
徊冀想君命飄風卒至復聞讒佞洶	-12.0287
步余馬兮山皋	-12.0287
興離騷之微文兮	-12.0287
躡	-12.0287
進反見珍重御尊顯也	-12.0287
洶洶讙聲也言已至於山之隈曲且徐	-12.0287
上七到下音老一作	-12.0287
也斐一作霏一云	-12.0287
室柱下洗浴水涯	-12.0287
放傷念坐於空室之中孤子焭焭東	-12.0287
晨來下浮雲依斐承我屋	-12.0287
曲訿玉璧兮	-12.0287
渚水涯也言巳雖	-12.0287
窮猶鑿山石以	-12.0287
言政穢則士貪	-12.0287
訿	-12.0287
音同補曰嗷嗷衆口愁也噭呼也音	-12.0287
鵰	-12.0287
鶻	-12.0287
𣺌	-12.0287
也蝦小魚也陼一作渚補曰蝦釋文	-12.0287
作岑補曰岑鉏	-12.0287
僊人從之受道也求	-12.0287
劉氏漢書刋誤論上林	-12.0287
吕氏春秋果之美者有雲夢之柚	-12.0287
周成王時州靡國獻狒人身反踵自笑笑	-12.0287
嗷嗷呼聲也寂	-12.0287
堪噉名菰	-12.0287
心憂憔悴從夜終明不能寢	-12.0287
意識不安欲復	-12.0287
懣憤也言巳愁思展轉而	-12.0287
暫	-12.0287
梟楊山神名即	-12.0287
梟羊大口其初得人喜而笑却	-12.0287
父費切淮南云山出嘄陽注云山精也一	-12.0287
簪切山小而	-12.0287
能卧心中煩憤氣結滿	-12.0287
色而觸諫兮反	-12.0287
補注十七巻	-12.0287
言已幽居無事下則垂	-12.0287
言舉世不識賢愚以	-12.0287
逺去以道路深	-12.0287
過使得罪罰也崟	-12.0287
釣餌於谿谷上則要	-12.0287
長脣黒身有毛反踵	-12.0287
䕺	-12.0287
一作䕺一作叢一作藂一云菎	-12.0287
之後信有忠直美	-12.0287
也䇰竹炬也並音	-12.0287
劬亦勞也詩云	-12.0287
同箘簬也音窘亦音昆黀麻	-12.0287
墨則枉直失	-12.0287
弩之機以蓬蒿之箭	-12.0287
昆蕗音路箟與	-12.0287
林野亦不知賢也一作	-12.0287
枲翮曰黀煏竹曰	-12.0287
蒸燒而燃之則不識於物也以言取忠直	-12.0287
言工滅巧倕之繩	-12.0287
願循江水逶	-12.0287
麻蒸也並音鄒蒸折麻中	-12.0287
寝	-12.029
也還見江漢水大	-12.029
人也尠少也疇匹	-12.029
懅	-12.029
欲卑身下體以順風俗心	-12.029
沉淫一作汎揺	-12.029
不得意欲還下視見	-12.029
噣	-12.029
埳	-12.029
惡者滿車陞	-12.029
槁而不見采枉	-12.029
河鼓牽牛别名補曰爾雅河	-12.029
言古有賢士務光憎惡濁世言不見從自	-12.029
鄢郢楚都也言上天所	-12.029
之人反得親近	-12.029
以除姦惡夷滅貪殘無	-12.029
侍於旁側也幸	-12.029
側旁也言賢者執持	-12.029
嗷而呼山野寂	-12.029
坎然恚恨以數逢憂	-12.029
姦咎惡也補曰渨烏	-12.029
杜也詩云蔽芾甘棠補曰	-12.029
顧視僕御心皆憔悴而有	-12.029
竄伏也脟一作綸補曰脟音臠	-12.029
脣掩其目食人爾雅狒狒如人被	-12.029
迅走食人注	-12.029
酎醇酒也言盛夏則	-12.029
䆁	-12.029
䚎	-12.029
中庭以言逺仁	-12.029
中情敶序志意冀得	-12.029
中而不見御反種	-12.029
九歎章句第十六楚	-12.029
也一云頽流下逆身日以逺兮一云頽	-12.029
俗我固當終身窮	-12.029
傷念先祖乃從屈瑕建立基功子	-12.029
其君戰將赴之飯則失	-12.029
又仳音毗倠呼維切	-12.029
太液池邉皆是彫胡紫蘀	-12.029
封於燕故曰燕公也養馬曰	-12.029
弧戾也言世俗之	-12.029
曏私也一本邪下	-12.029
棘刺之木滿於	-12.029
犀革之盾必摧折而無所能入	-12.029
移而行反觸石碕	-12.029
絟	-12.029
羊也山海經曰其狀如人	-12.029
而皮麤皵者為	-12.029
肱	-12.029
能故君之正法膠戾不用衆	-12.029
與諸本異又以怨思	-12.029
謂之庭言甘棠香美之木枯於草	-12.029
陌	-12.029
鴺	-12.029
校書郎臣王逸	-12.0291
一作圜實摶一作槫補曰曾	-12.0292
已有文武能方圓也	-12.0292
摶又象文也以喻	-12.0292
文云摶圜也其字	-12.0292
曰凡草木刺人江湘之間謂之	-12.0292
車也其字從木音同義	-12.0292
重也剡音琰方言	-12.0292
白華赤實皮既馨香又有善味	-12.0292
就同志也或曰鸞皇以下皆大	-12.0292
鳥以喻仁智之士言楚	-12.0292
也五臣云援持也言原引持	-12.0293
螰	-12.0293
也集韻軮軋逺相映	-12.0293
亡妃匹也一作洞荒	-12.0293
坱	-12.0293
於黠切賈誼賦云坱圠無	-12.0293
時昢昢兮旦	-12.0293
注云其氣坱圠非有限齊	-12.0293
軋	-12.0293
霧氣昧也補曰坱烏朗切軋	-12.0293
方湖澤皆有之	-12.0293
何夀夭兮在予	-12.0293
然而痛不能置中正而行	-12.0293
至葱嶺注云葱嶺山	-12.0293
乘鄂渚而反顧兮	-12.0293
御者迷兮失軌遂踢	-12.0293
有正直之枝抑	-12.0293
有翼能飛也補	-12.0293
欲卑身而下體兮心	-12.0293
泛濫汎音馮浮也一讀作泛	-12.0293
秣	-12.0293
也詩云蠢爾蠻荆言已	-12.0293
儵爍疾也闇多而明少	-12.0293
囷	-12.0293
屢數也言已不自念	-12.0293
惜身之放逐誠哀僕	-12.0293
桂登一作升補曰漢天文志若	-12.0293
欲盪滌讒佞汙穢之臣	-12.0293
涹烏禾切	-12.0293
煙非煙若	-12.0293
虬螭水禽馳在	-12.0293
蝍	-12.0293
蟄	-12.0293
雲非雲郁郁紛	-12.0293
之冰上然後飲之酒寒涼	-12.0293
又長味好飲也補曰酎直又	-12.0293
如析割也慘一作	-12.0293
懼免切繚音了	-12.0293
有兩種一種莖	-12.0293
糟但取清醇居	-12.0293
也其一作而波一作湯補曰涫	-12.0293
乾釀提去其	-12.0293
作濟而一作於補	-12.0293
作鴺一作鶬補曰鵜	-12.0293
佯之山其阪土	-12.0293
倠醜女也彌猶徧也楹柱也言西施美好	-12.0293
免患禍然身頽流	-12.0293
切應劭曰剞曲刀劂曲鑿	-12.0293
剞劂刻鏤刀也補曰剞居綺切劂居	-12.0293
剞劂而無所刻	-12.0293
匕上車失軾	-12.0293
圉言與多力	-12.0293
展足以極逺道也以言使賢者	-12.0293
戇	-12.0293
挫捉也凍冰也五臣云	-12.0293
木帳曰帷言大人處卑賤小	-12.0293
櫺檻兮夫何以責其	-12.0293
瀐	-12.0293
硌	-12.0293
羌馮心猶未化	-12.0293
觶	-12.0293
言巳心憂宛轉而不能	-12.0293
言猨狖當居髙木茂林見其才力而置之	-12.0293
詩云王在靈沼言倘	-12.0293
速飲也一云作生爵	-12.0293
酒中補曰華采也	-12.0293
醜婦與好女	-12.0293
閔先嗣之中	-12.0293
頴	-12.0293
𬞞	-12.0293
􁁕	-12.0293
不可整理也班一作	-12.0293
之臣使在顯	-12.0293
作灃補曰澆女	-12.0293
劉向王襃之徒咸	-12.0293
劒注云吳王僚之弟子闔閭殺僚慶忌勇	-12.0293
勇而有力阱深	-12.0293
去離帷幄戎	-12.0293
坐除去威嚴放其	-12.0293
外野政必亂身危殆也一	-12.0293
妖玩好女也	-12.0293
尔	-12.0293
戎戎狄也言蔡女美好反見貶黜而	-12.0293
敶印綬班然相亂	-12.0293
澧澧波聲也回	-12.0293
狄醜婦反入椒房被五	-12.0293
紛亂也言男女共	-12.0293
綵之繡衣夫	-12.0293
言已心愁情志慌忽	-12.0293
賦騁辭㠯讃其志則皆列於譜録世世相	-12.0293
逺遷臣而弗思	-12.0293
鄭衛妖玩	-12.0293
阱疾郢囚性二切淮南云王子慶忌死於	-12.0293
𢥞	-12.0293
亦爛然有文章也補	-12.0295
盛爛然而明以言	-12.0295
以言賢者亦然外有精	-12.0295
其色精明内	-12.0295
吾與重華遊兮瑤之圃	-12.0295
誠既勇兮又以武	-12.0295
6	-12.0295
台注云台澤	-12.0295
寧隱閔而壽考兮	-12.0295
爭桑二女家怒相滅兩國邊邑長聞之怒	-12.0295
王怒故遂伐楚取兩都而去	-12.0295
云蟪蛄夏蟬補曰莊	-12.0296
及春春鳴者	-12.0296
子云蟪蛄不知春秋	-12.0296
春生夏死夏生秋死或曰山蟬秋鳴者不	-12.0296
登山引木逺望愁也一云引持美木	-12.0296
蜩蟬得夏喜	-12.0296
日月始出光明未盛	-12.0296
盛則衰樂極則	-12.0296
秋節將至悲嘹噍也以言物	-12.0296
危苦又進虎豹之	-12.0296
豹襲穴而不敢咆襲入也咆	-12.0296
故可任以道而事用之也一云	-12.0296
醜惡也言橘類紛緼而盛如人	-12.0296
雜糅言其外	-12.0296
音煩淮南子云路無莎薠	-12.0296
飾形容盡好無有醜惡也補曰紛音墳緼	-12.0296
之不在於我也補曰此言九州之大生民	-12.0296
傷俗兮泥濁矇蔽兮不章	-12.0296
夭折皆自施行	-12.0296
或夭何以皆在於我以我	-12.0296
䘳	-12.0296
之臣陞於顯朝枉一作	-12.0296
九年之中不吾反兮思彭咸之水	-12.0296
墉	-12.0296
墉墻也易曰射隼于髙墉之上	-12.0296
宋吳仁傑撰	-12.0296
整	-12.0296
於山野佞曲	-12.0296
易其則度復徐飛	-12.0296
未知其時故屏營躑躅一作	-12.0296
生早失其雄其母孤	-12.0296
翩翻曼衍無絶巳也曼一作漫	-12.0296
脚	-12.0296
誤過也邪一作衺補	-12.0296
身其形似鴈	-12.0296
駕青虬兮驂白螭	-12.0296
鴝鵒鴳雀類	-12.0296
鷞一作鸘補曰鷞鸘並	-12.0296
之而無憾逞解也補曰	-12.0296
作咤増一作曾補	-12.0296
兮切傷俛念兮子胥仰憐兮比	-12.0296
巷有兮蚰蜒邑多兮螳螂睹斯兮嫉賊心	-12.0296
疑不見信也一無	-12.0296
禀五常以生感隂陽以靈有	-12.0296
終剛強兮不可凌	-12.0296
蛆	-12.0296
身體之質名之曰形有嘘	-12.0296
悲夷猶而冀進兮	-12.0296
死之後精神強壯魂魄武毅長	-12.0296
罇	-12.0296
丁當也文文王也	-12.0296
中使陳不占赴	-12.0296
之中庭促狹之處不	-12.0296
之作解又以自屈原終	-12.0296
之山林責其智能亦非	-12.0296
也不順其親欲	-12.0296
人謳吟進雅樂奏大吕五音六律	-12.0296
令仁賢邵公執役養馬失	-12.0296
作秦五臣云吳蔡秦皆國名補	-12.0296
倘佯山名也壚	-12.0296
健亡在鄭	-12.0296
兮飄飄一作鶉鴿補曰䳺	-12.0296
同室也以言君闇惑不别賢愚	-12.0296
吕非秦聲五	-12.0296
君迷惑讒佞反表	-12.0296
圍而戰軍必敗	-12.0296
天氣𤣥黄故曰黄	-12.0296
女也言世人不識善惡	-12.0296
宋閔公之臣也與閔公	-12.0296
宗次第也言我思念楚	-12.0296
局之處責其	-12.0296
平楚平王差	-12.0296
徙弛却退而	-12.0296
復救故長歎歔	-12.0296
忌楚大夫費無忌	-12.0296
惑不知道路當	-12.0296
慌亡也言已欲求賢人而未	-12.0296
放作離騷經正詭俗而	-12.0296
棄於壄外一作外野	-12.0296
椒子蘭不肯反已魂魄	-12.0296
楚夫差不用子胥	-12.0296
極竟也言君任駑	-12.0296
欷而涕滂流不可止也究一作焭	-12.0296
正也言楚國俗人流從謟䛕不可	-12.0296
水之人善歌舞漢	-12.0296
水深而且清冝	-12.0296
泗	-12.0296
清商歌曲也言赤松王喬	-12.0296
澧澧回而揚澆邪引	-12.0296
烏獲戚而驂	-12.0296
爭道以手搏之絶其脰戚親	-12.0296
王夫差也平王	-12.0296
珉石置於金匱反	-12.0296
皆言皇考之美自	-12.0296
相攻滅吳之邊邑	-12.0296
而遇患禍不可	-12.0296
聲和調也文選奏	-12.0296
聲因怖而死言乃囚	-12.0296
聵無義之人登於清廟	-12.0296
背君門奔馳而去者以	-12.0296
至聞鍾皷之	-12.0296
苨	-12.0296
言騏驥壹馳千里乃騁	-12.0296
護左都水使者光禄大夫	-12.0296
赤瑾美玉也言乃藏	-12.0296
車既覆而馬顛兮	-12.0296
遊覽學者讀離騷九章之文莫不愴然心	-12.0296
開春發歲兮	-12.0296
陫	-12.0296
雅多覽讀楚辭而傷愍屈原故	-12.0296
鵾雞啁哳而悲鳴	-12.0296
乎衆臣女少小之人	-12.0298
葉則上文巳言緑	-12.0298
君制生殺與奪	-12.0298
衍也鷫鷞俊	-12.0298
言司命執持天政不以人	-12.0298
鶖鶬鵚鶖也詩云有鶖在梁言鵾雞鴻鶴	-12.0298
子魂魄兮為鬼雄	-12.0298
5	-12.0298
䇿也此楚平王時事	-12.0298
今修飾而窺鏡兮	-12.0298
何毁譽之昧昧	-12.0298
作師夫何長言楚雖有功	-12.0298
居巢鍾離初楚邊邑卑梁氏之處女與	-12.0298
復伐楚非長乆	-12.0298
王僚九年公	-12.0298
腥	-12.0298
造父為我操之	-12.0298
不及秋廣雅云蟪蛄蛁蟧即楚詞所云	-12.0299
且旦補曰昢日將曙朏	-12.0299
幸君覺寤賜	-12.0299
心直指執履誠信	-12.0299
補曰詘與訥同方言謰謱拏也南楚曰	-12.0299
乘舲船余上沅兮	-12.0299
晞消也朝陽未	-12.0299
獨立堅固不可遷	-12.0299
願曾思而遠身	-12.0299
以下申前義以明	-12.03
以為芬芳反謂幽蘭臭	-12.03
可喜也補曰自此	-12.03
在位患失之競	-12.03
所施之欲待明	-12.03
旖旎盛貌詩云旖旎	-12.03
鴳雀小鳥以喻	-12.03
以鶖鶬之屬鳴聲啾	-12.03
寧逝死而流亡兮	-12.03
心鞿羈而不形兮	-12.03
惟魂是索些	-12.03
故遠聞而難虧	-12.03
知夜半鵾雞晨鳴各知其職也雜	-12.03
音霜鷫鷞長頸	-12.03
生魄陽曰魂用物	-12.03
精多則魂魄強	-12.03
雄傑也一云䰟魄毅一云子魄	-12.03
垂文揚采遺將	-12.03
多險難也礚一作礚	-12.03
妨害也言君䰟急來歸還反所居故	-12.03
摧挫也矜嚴也凝止也汜濫猶沈浮也	-12.03
文逞通也楚謂疾行	-12.03
曰與朋友共	-12.03
色觸禁而諫反	-12.03
蔽霧露言能有所覆也下則泠泠	-12.03
蕭瑟兮草木搖落而變衰	-12.03
言已雖不得施行道	-12.03
下祑謂妾御也補曰	-12.03
乆長也一云夫何長先補曰史記	-12.03
之徒使滿國廬則讒邪道塞也補曰自此	-12.03
之徒若三苗者置之四裔進用	-12.03
之湍登水中之洲身	-12.03
之若宋玉之九辯王	-12.03
之處故心傷而長悲	-12.03
也又許候胡遘	-12.03
係續列星	-12.03
充滿也言放逐佞	-12.03
則不知忠佞之分	-12.03
勇猛之士若吳慶忌於阱	-12.03
危殆不遑安處也補曰	-12.03
君推逐妾御出之勿令亂政	-12.03
堯之佞臣也尚	-12.03
妃賢女於伊雒之水以	-12.03
宓妃神女蓋伊	-12.03
居江南之土僻	-12.03
必失利而無功也	-12.03
思蹇産之不釋兮	-12.03
惨	-12.03
戸廣切洋以	-12.03
撰余轡而正策兮	-12.03
於中庭言不知别於善惡也言人而不	-12.03
曰廇音淵中庭也刜	-12.03
欄	-12.03
欲舉士必先	-12.03
臑熟也致致醎	-12.03
覺悟引過自與以謝於	-12.03
言使韓信猛將被鎧兠鍪守於屯陣藏	-12.03
誠願執藏此行以承事君	-12.03
輔佐則邦	-12.03
闔閭畏之使要	-12.03
非其人不見容納忿恚自沈是虧其	-12.03
韻祑音秩祭有次	-12.03
髙山度阻險也路一作道	-12.03
云歈歌也徐鉉曰	-12.03
云秦武王之力	-12.03
促席男女雜坐比	-12.03
卒沒身而絶名兮	-12.03
孟子曰舉烏獲之任許	-12.03
尹楚官掌政者也謷謷不	-12.03
巳忠信之故得過於衆而	-12.03
府猶清廟也言使蒯	-12.03
後人因加此字按楚	-12.03
散亡而去若水之流不可復還	-12.03
曰舞雲門奏大吕言	-12.03
江别流出崏山東别	-12.03
沱也沱釋文作沲補曰沱唐何	-12.03
濿杭一作航以一作	-12.03
而濿一作厲一注云	-12.03
肩齊膝恣意調戲	-12.03
自旦及夕言通夜	-12.03
補曰歈音俞古賦云巴俞宋蔡說文	-12.03
言山石髙巖非已所居靈魂	-12.03
言醉飽酣樂合罇	-12.03
話言而妄語也補曰謷五	-12.03
跛蹇之驢又無鞭箠終不	-12.03
遭遇僕御之人感	-12.03
陋之中使無怨恨令	-12.03
求也吾之志舉	-12.0301
聚候時鶴	-12.0301
九嶷繽兮並迎	-12.0301
魂識路之營營何靈魂之信直兮	-12.0301
保壽命終百年也	-12.0301
服偃蹇以低昂兮	-12.0301
橫大江兮揚靈	-12.0301
民德焉錯輔	-12.0301
肌膚曼緻面	-12.0301
謂鳳皇兮安棲	-12.0301
者之偶使屈原急來也補曰	-12.0303
其態殊異而不可合	-12.0303
欲竢時於須	-12.0303
謰謱音連縷注云言譇	-12.0303
參辰皆宿名夜分而	-12.0303
年忽去日以衰老也而	-12.0303
状	-12.0303
雖僻遠之何傷	-12.0303
峕亦冉冉而	-12.0303
州曰隱土正東	-12.0303
曰中土西北台州曰肥土	-12.0303
正北濟州曰成	-12.0303
正西弇州曰并土正中	-12.0303
鐡	-12.0303
成化制禮樂以安黎	-12.0303
浮沅而馳騁兮下江湘㠯邅	-12.0303
行心中拘攣仁義不舒而志不	-12.0303
襦	-12.0303
䕶左都水使者光	-12.0303
云鍾山北陸無日之地	-12.0303
其常也一本云兩足以之畢斮補	-12.0303
天乗雲伇使百神似若仙者雖身沈沒名	-12.0303
曰擠子雞切	-12.0303
美藻之采以遺將	-12.0303
芳以歇而不比	-12.0303
處山澤無異故作招	-12.0303
蛟何為兮水裔	-12.0303
訖于四海史記曰北至	-12.0303
陽氣也氣之神者曰魂	-12.0303
上下無所遭遇意中憾恨憂而	-12.0303
之志挫我矜嚴忠直	-12.0303
也菀一作苑補曰菀音	-12.0303
云大車檻檻	-12.0303
仁賢若周公邵	-12.0303
則杼我中情屬續詩文以敶已志也杼	-12.0303
厭陛一作階	-12.0303
名文選注引挾秦	-12.0303
室子孫承事	-12.0303
山澤草木莫不茂盛	-12.0303
山遊於懸圃采玉英咀而嚼之以延壽也	-12.0303
急就篇曰及有無夷	-12.0303
恭敬長無禍害也一云	-12.0303
悲夷猶而兾進兮	-12.0303
放去山中車行檻檻鳴	-12.0303
日其色不變言	-12.0303
東西䰟魄惶遽而求忠直之士欲	-12.0303
歎曰山中檻檻余傷	-12.0303
炊以鑪炭三日三夜而色澤不變則至	-12.0303
為十三圖大招	-12.0303
王先祖告語其	-12.0303
紛容裔以並升也漫一作	-12.0303
而去遂下湘江運轉而行也	-12.0303
自知不用願避世逺去上	-12.0303
萎枯故自傷悲涕泣俱下	-12.0303
解於離騷經同一作周補曰鑿	-12.0303
言竹被潤澤上則葳	-12.0303
雕題黑齒	-12.0303
風俗隨衆俛仰	-12.0303
􁂝	-12.0303
一作罔補曰郭象曰	-12.0303
上曰嗚呼小子未知臧否匪	-12.0303
不食周粟遂餓而死豈可復謂有求於	-12.0303
之中熊羆逸踊於君之苑也以言斥逺仁	-12.0303
之中藏枯匏之瓢置於筐簏令之	-12.0303
之九歎王逸之九思其	-12.0303
之别稱耳徐	-12.0303
也言泠泠清潔	-12.0303
人君被服芬香故以香	-12.0303
以轉徙重車	-12.0303
伏節死義補	-12.0303
傷生不遇時遭困戹也扳一作攀	-12.0303
僕夫懷余心悲兮	-12.0303
儛	-12.0303
其髙墳以望夏水之	-12.0303
兾壹反之何時	-12.0303
南方冬温草木	-12.0303
君政用急天早	-12.0303
垠岸涯也曽重也閎	-12.0303
奏大呂些	-12.0303
奔亡兮騰駕	-12.0303
嬋連族親也言屈原與	-12.0303
己歡喜持瑟調	-12.0303
快古秀皆得	-12.0303
憂悴而涕流也	-12.0303
折疏麻兮瑤華	-12.0303
曰旖烏可切當作㫊	-12.0303
曰激衝激急風也結風	-12.0303
曰老子云國家昏亂	-12.0303
楠	-12.0303
槩平也權衡皆稱	-12.0303
殖芋荷養育苦李愛重小人斥逐君	-12.0303
清怨素艶幽	-12.0303
渡汨水以自沈	-12.0303
溷湛湛喻貪濁	-12.0303
漼	-12.0303
澤之龜反相與貴重小石也	-12.0303
激楚之遺風上林賦云鄢郢	-12.0303
玩之好女來雜	-12.0303
瓟瓠也瓥瓢也方	-12.0303
瓥	-12.0303
盛波逐湘江之流赴陽侯	-12.0303
盡棄銷滅不見論用貪	-12.0303
磨	-12.0303
移徙失其所之	-12.0303
罔兩無所據依	-12.0303
而君閉塞其志	-12.0303
腐蠹言愛小人憎君	-12.0303
自漂疾然歌樂者猶復依激	-12.0303
舍止也自哀身體陸	-12.0303
芝蘭之芬芳鸞鳳之毛羽也	-12.0303
英俊之士而駕	-12.0303
華之池也言君推	-12.0303
虚被讒言背郢	-12.0303
衆愚欲以致治	-12.0303
褭	-12.0303
要一作騕補曰並音杳應劭曰騕	-12.0303
言已居隘險之處山石蔽日霜雪並㑹身	-12.0303
詹尹乃端策拂龜	-12.0303
賤棄橘柚種	-12.0303
蹇本草黒芝一名	-12.0303
逐江湘之順流赴陽侯之潢洋兮下石	-12.0303
逺行解倦精神罔兩無所據依而	-12.0303
邑而怒始有功時屈原又諫言我先	-12.0303
閉口目也補曰賈	-12.0303
閭回於湘沅之水	-12.0303
闇君貴佞僞	-12.0303
難則不知賢士之	-12.0303
雲冥冥而闇前山峻髙以無垠兮遂	-12.0303
霜則害草木傷其貞節也	-12.0303
風亦急風也楚地	-12.0303
駑頓朽之人而棄明智之士也補曰	-12.0303
駱	-12.0303
駿馬太阿利劍也言君	-12.0303
鳳斥逐賢智畜養鵝鶩親近小人	-12.0303
鼃蝦蟇也華池芳	-12.0303
之淑氣故屈原悲冉冉之將老思	-12.0304
無不施也又吕氏春秋云帝顓頊令	-12.0304
補曰周禮有大咸堯樂也樂記云咸	-12.0304
不能知已之獲罪是	-12.0304
登石巒以遠望兮	-12.0304
石易别於忠佞尚	-12.0304
髙宗夢得說	-12.0304
一云猶交加也一曰長逺	-12.0304
人卞和得美玉璞於	-12.0304
剖視之果得美	-12.0304
夜光故曰和氏之璧	-12.0304
焉又淮南子注云楚	-12.0304
荆山之下以獻武王王以示玉人	-12.0304
補曰騎竒寄切轇音膠轕	-12.0304
音葛車馬喧雜	-12.0304
3	-12.0304
位勢視忠正之人當何如乎甚於	-12.0304
恵	-12.0304
路道也幽昧不明也險隘	-12.0304
身相共俱生長	-12.0304
麟可係而羈兮豈云異	-12.0304
中結軫而增傷	-12.0304
使芳草為藪幽	-12.0304
校書郎順帝時	-12.0304
虬螭沛艾屈偃	-12.0304
日以喻君隂曀闇昧也言已欲	-12.0306
明時君又闇昧年	-12.0306
曰辰去速而來遲	-12.0306
因迎貞女如洛水之神使	-12.0306
志自有舊故執守	-12.0306
義不可長保而行	-12.0306
臣云取其香㓗以合	-12.0306
願歲并謝	-12.0306
兮收潦而水清	-12.0306
廩一作凜五臣云秋氣	-12.0306
慱	-12.0306
泬寥兮天高而氣清	-12.0306
魂魄神靈之名本從形氣而有	-12.0306
䠪	-12.0306
主參之兩旁二馬遂名	-12.0306
也䠪吐管切集韻作躖說文云禽獸所踐	-12.0306
也陛階次也壓	-12.0306
于幽陵南至于	-12.0306
仰髙逺而不懈也	-12.0306
共王聞之乃使人理	-12.0306
十六星如蓋	-12.0306
南至交阯北至	-12.0306
却騏驥以轉運	-12.0306
又琴操曰卞和得玉璞以獻楚	-12.0306
右足抱璞不釋而泣	-12.0306
君輕刖而重剖石遂	-12.0306
山中三日三夜泣盡而繼之以血	-12.0306
檻檻車聲也詩	-12.0306
流沙東至于蟠木淮南曰	-12.0306
燸	-12.0306
王譏刺椒蘭	-12.0306
璞而獻之平王復以	-12.0306
生彭城髙數尺白花	-12.0306
眐獨行寄居而	-12.0306
而不見信願就	-12.0306
虚不可盈滿往必隕墜不得出也	-12.0306
血及成王即位又獻之成王曰先	-12.0306
貉	-12.0306
貒	-12.0306
貒音湍似豕而肥	-12.0306
足文王即位復獻之以	-12.0306
軒軒將止之	-12.0306
遂往而不還也補曰	-12.0306
道卓遠而日忘兮	-12.0306
駟一乗也兩服	-12.0306
上攀北斗躡房星也	-12.0306
不用曰廢周周公旦也邵邵公	-12.0306
不異賢愚若駕罷牛	-12.0306
之士歛節而退也以一作	-12.0306
之臣若宋萬者置於兩楹之間	-12.0306
也鬼神明察故欲	-12.0306
人雖得長生乆僊	-12.0306
人雜用駑駿	-12.0306
以弔屈原賦云所貴聖	-12.0306
以言賢者不在職位亦不知其才	-12.0306
以阽危故沈身	-12.0306
傷離散之交亂兮遂側身而	-12.0306
充盛身體強壯	-12.0306
八舞于廊門山海	-12.0306
去余邦之彌	-12.0306
君反親愛篡逆	-12.0306
吾令鳳鳥飛騰兮	-12.0306
命天閽其開關兮	-12.0306
圏	-12.0306
夜炯炯而不寐兮	-12.0306
太傅意不自得及度湘水	-12.0306
定車弊而馬病	-12.0306
彸	-12.0306
念彼讒人相與朋黨嫉妬忠直	-12.0306
悲哉秋之爲氣也	-12.0306
惜往事之不合兮	-12.0306
憂愁又寒苦也補曰㠁嵯楚岑又	-12.0306
文何苗切史記師曠鼓琴有	-12.0306
文坡者曰阪一曰	-12.0306
昏喻晚節也戰國䇿云行百里者半	-12.0306
曼補曰斑駮文也漫	-12.0306
梅伯數諫而至醢兮	-12.0306
楨	-12.0306
樂不知君道不明國將傾危以及其身也	-12.0306
樹之枝上望閬風板	-12.0306
欲承順求媚以	-12.0306
清烈不敗也補曰爽音霜	-12.0306
無軏軏車轅耑持衡者一作	-12.0306
猶若駕跛鼈而欲上山	-12.0306
瓶	-12.0306
相對心中澹然而自欣樂俱吸衆氣而遊	-12.0306
竹心空屈原自喻志通	-12.0306
紫貝闕兮珠宫	-12.0306
聊啾耳鳴也戃慌	-12.0306
臑熟羹臛調和醎酸致其芬芳望之滿	-12.0306
自恨去我國	-12.0306
至九思下皆有傳字	-12.0306
艦	-12.0306
苣	-12.0306
苦故逸以大苦	-12.0306
藐	-12.0306
蠵龜之肉則其味	-12.0306
袛	-12.0306
補曰殱盡也瀐泉	-12.0306
觚也言食巳復有玉	-12.0306
言乃奏樂作音而撞	-12.0306
言往者聖帝不可	-12.0306
貪惜以忠事君而志不合	-12.0306
赭	-12.0306
遂陟天庭而遊	-12.0306
陵蔽不得視後有峻大之山	-12.0306
驂以騏驥才力不	-12.0306
𡐨	-12.0306
一作蠡補曰方言瓥陳	-12.0306
之被病而傷形也	-12.0306
亊	-12.0306
亦運轉其言埃塵忠直	-12.0306
人羣聚造作虚	-12.0306
動屮木使之迎時枯槁莖葉	-12.0306
勺也音麗瓟	-12.0306
天對云鏗羮	-12.0306
子也或曰蠹囊也瓟一作匏瓥	-12.0306
平以失情實則使衆人	-12.0306
徳不同蘭似君	-12.0306
怨也以言君不稱量士之賢愚	-12.0306
有懈巳之時也	-12.0306
楚宋魏之間或謂之瓢注云	-12.0306
槩山林中十蕙而一蘭也離騷曰予既滋	-12.0306
永遏在羽山	-12.0306
為無人而不芳含香體潔平居與蕭	-12.0306
熊羆猛獸以喻貪殘也	-12.0306
物量榖不知審其多少同其稱	-12.0306
牽引也不治曰蕪多	-12.0306
王俱顓頊之孫有	-12.0306
男同謂之諸侯三圭比子男	-12.0306
而同用之則使智者恨	-12.0306
臨沅湘之玄淵兮	-12.0306
言君不能以禮敬	-12.0306
言楚國境界徑路交接方千	-12.0306
言飄風轉運揚起塵埃揺	-12.0306
謂巳不忠遂外	-12.0306
賅	-12.0306
軼迅風於清源兮	-12.0306
轉蕙泛崇蘭以是	-12.0306
連之族親恩深而義篤也嬋	-12.0306
難止欲去之也嶄一作	-12.0306
養貪殘之人也逸一作	-12.0306
搴汀洲兮杜若	-12.0307
而用之咸皆也池	-12.0307
云騑驂旁馬則騑驂一也	-12.0307
乃奉玉璞而哭於荆	-12.0307
之乎竺一作篤一云帝何竺鳥何燠	-12.0307
九州以成萬邦人有九竅以通精明屈原	-12.0307
使樂正子占之言	-12.0307
兮貧士失職而志不平	-12.0307
右足武王薨共王即位和	-12.0307
子平王立和復抱其	-12.0307
王薨武王即位和復	-12.0307
非玉以其欺謾斬其一足	-12.0307
騀	-12.0307
鼂騁騖兮江	-12.0307
世家武王卒子文王立文王卒子	-12.0307
介攸止載震載	-12.0307
何克禋克祀以弗無子履帝武敏歆攸	-12.0307
前漢書云漫衍之	-12.0307
弟弑杜敖自立是	-12.0307
衍弋戰切漫衍無極	-12.0307
言小人智少慮狹	-12.0307
足平王死和欲獻恐	-12.0307
不濅近兮愈疏	-12.0307
字叔師南郡	-12.0307
封介山而為之禁兮	-12.0307
水合至江夏與沔水合至	-12.0307
也補曰莊子曰彭祖得之上及有	-12.0307
以喻夷狄相與忿爭君上何故當怒之乎	-12.0307
偷為逸樂則中正之路塞矣隘狹也逺遊	-12.0307
共一爵故言重侯也補曰公侯伯	-12.0307
后君也言中央之州	-12.0307
吹呴呼吸吐故納新熊經鳥伸	-12.0307
命之言提其耳風諫之語於斯	-12.0307
嚙	-12.0307
執躬圭故言三圭也重侯謂子男也	-12.0307
太史公曰屈平	-12.0307
帝聖孰嗜味夫死	-12.0307
從顓頊乎增冰	-12.0307
恨枕髙而唾逺	-12.0307
有歧首之蛇爭共食牧草之實	-12.0307
牧注同一作枚補曰爾雅曰中有枳首蛇	-12.0307
牽於俗而蕪穢	-12.0307
皇翔于千仞兮	-12.0307
自暮而誰饗以俾	-12.0307
虞下及五伯又曰	-12.0307
起於細微也悟一作寤補	-12.0307
頭蛇也韓非子曰虫有螝者一身兩口爭	-12.0307
之中幽深險阻非君子之所	-12.0309
處猨狖虎豹非賢	-12.0309
之釡鬵言乃藏	-12.0309
執爨踖踖鬵	-12.0309
智近愚頑者也補曰	-12.0309
炊土釡於堂宇之上猶言	-12.0309
㓕	-12.0309
言賢人君子其心所	-12.0309
沅有茝兮醴有蘭	-12.0309
之與共修道徳也	-12.0309
之音命之曰承雲淮南云有	-12.0309
云王逸誤以天庫及二十	-12.0309
作被五臣云言秋氣傷物	-12.0309
倐	-12.0309
凋百草而梧楸同罹此患百	-12.0309
奄同離羅也	-12.0309
左足武王即位和復獻之武王不	-12.0309
樓按庫樓形似酌酒之器故	-12.0309
者以二馬夾轅謂之服又駕一馬與兩服	-12.0309
茂木又芟刈也披一	-12.0309
邪所害是以播遷故竊悲	-12.0309
也詩云泣涕漣漣言	-12.0309
二星以斟酒也補曰大	-12.0309
云桂白華叢生山峯冬常青間	-12.0309
云華蓋七星其柢九星合	-12.0309
合二十九星在角南晉天文志云庫樓十	-12.0309
天問九歎之後今附于第一通之末云	-12.0309
奉玉璞而獻之武王王使王尹相	-12.0309
孰能思而不隱兮	-12.0309
常北顧而視郢都	-12.0309
序云荆人卞和得玉璞而獻之荆	-12.0309
恬所造一云秦人薄義父子	-12.0309
故逺聞而難虧	-12.0309
曰陽氣充魄則	-12.0309
有隱而相感者	-12.0309
桂樹芬香以興屈原之忠貞也補曰	-12.0309
歸我之身隨己	-12.0309
獨不能感君何哉	-12.0309
百姓成化刑不用也	-12.0309
盈滿也北極太隂之中空虚	-12.0309
而上升也霞謂朝霞赤	-12.0309
衆賢並進職事	-12.0309
謂之驂又駕一馬乃謂之駟故	-12.0309
象賦注云庫樓十星五柱十	-12.0309
賦云華蓋於是乎臨映注	-12.0309
魄一作魂補曰老子曰	-12.0309
鶿	-12.0309
不由階次之人非惡罷	-12.0309
之忠誠不聞我之	-12.0309
之皇祖兮愬靈	-12.0309
也乎一作於補曰便平聲	-12.0309
也罷駑也言楚國選舉	-12.0309
云苓大苦也可	-12.0309
休息其下仰見圖畫因書其	-12.0309
值於堯而遭	-12.0309
台即胎也言	-12.0309
夏氣大而育物爾雅曰夏	-12.0309
夙載生載育時維后稷注云姜嫄之	-12.0309
必先升用傑俊之士壓抑無	-12.0309
思念君也故涕漸	-12.0309
敗曰爽言乃復烹露棲之肥雞臛	-12.0309
榘俱兩切矱烏	-12.0309
榦	-12.0309
歷吉日乎吾將行	-12.0309
江水之潭被	-12.0309
沛吾乘兮桂舟	-12.0309
滅規矩而改鑿	-12.0309
炙調齊和之適以窮荆吳甘酸之變	-12.0309
生后稷乃禋祀上	-12.0309
竊不敢忘初之厚德	-12.0309
羔羊子也胹一作臑釋文作濡	-12.0309
而茂盛自恨	-12.0309
與謀政事廢	-12.0309
見斥逐也補曰御侍也孟子所謂二	-12.0309
進賢士必見進用也	-12.0309
鏗鏘九奏乃成屈原自傷不	-12.0309
長好之竹生於	-12.0309
隰有苓陸機草木蟲魚	-12.0309
雅云竺厚也與篤同詩曰厥初生民時維	-12.0309
非也又爾雅云蘦大	-12.0309
音而亨肉和湆也炮蒲	-12.0309
音藍又云煎熬焚	-12.0309
韻淮南曰荆吳芬馨以嚂其口嚂	-12.0309
駟指其騑馬則謂之驂詩曰兩驂如舞	-12.0309
鶴粹黒如漆其	-12.0309
䭾	-12.0309
一本云當作袉徒	-12.0309
三圭謂公侯伯也公執桓圭侯執信圭	-12.0309
三山閬風板桐	-12.0309
三年而無決兮	-12.0309
不莽莽盛茂自傷不	-12.0309
主建天時言	-12.0309
也史記作窈窈補	-12.0309
也言舞者廻旋衣衽掉揺	-12.0309
亂繚繞而轉	-12.0309
人聲耳中聊啾而自鳴意中憂愁	-12.0309
以喻國也績功	-12.0309
以至於此也炯一作	-12.0309
佞人所傷害也諑	-12.0309
借浮雲以送予兮載	-12.0309
切然仲尼論之以	-12.0309
則屈志自抑	-12.0309
北至巴郡與涪水漢水白水	-12.0309
又曰漢興世世常來光	-12.0309
及古賢聖之出遇清	-12.0309
取以得爵位或有脩	-12.0309
古人未有豉也内則及招	-12.0309
合至長沙與澧水沅水湘	-12.0309
合黎餘波入于流沙師古曰弱水謂西域	-12.0309
君非隨之運轉常不止息	-12.0309
善彌固手乃杖執美玉之華帶	-12.0309
圃水經云崑崙三級下曰樊桐一名	-12.0309
壯大也言闔廬少	-12.0309
壽冉冉而日衰兮固儃	-12.0309
大憂内自顧哀	-12.0309
天對云光徴夢祖憾	-12.0309
天梯兮北上登太一兮	-12.0309
字妙一作眇注云	-12.0309
孰虛偽之可長	-12.0309
室家宗族盈滿	-12.0309
心中蛩蛩常	-12.0309
心志無有過失	-12.0309
念我長生而乆僊兮不如反余之故	-12.0309
忿姦興也憒亂也	-12.0309
思云篇目當在亂曰之後按	-12.0309
惜誓章句第十一楚	-12.0309
或曰仞因也以五榖因苽	-12.0309
戲也板一作阪補曰博雅云崑崙虚有	-12.0309
擕	-12.0309
放逐去我郢都故	-12.0309
文謂綺繡也	-12.0309
日以漸染隨	-12.0309
明之時而當貪亂之世也	-12.0309
明月之珠揚赤霓以	-12.0309
朝廷人有爵	-12.0309
朱赤也酡著也言	-12.0309
枝煩挐而交橫	-12.0309
檟	-12.0309
欲歸骸骨於楚國而衆不知故	-12.0309
欲須賢君年齒	-12.0309
氣舊祠也注云陳	-12.0309
漿以蜜沾之滿	-12.0309
無所依附也征夫一作征	-12.0309
爭者非難身之被殃咎也但恐君國傾	-12.0309
王之功五臣云言我所以不難殃咎諫爭	-12.0309
皆弃崑山之玉	-12.0309
稷名弃其母有邰氏	-12.0309
羹者也柘一作蔗	-12.0309
羽觴以漱口也	-12.0309
而得其福史記曰周后	-12.0309
自哀生時年命不	-12.0309
與議事君之道者	-12.0309
與青衣水汶水合東	-12.0309
舟航濟渡湘水寂無	-12.0309
菰一作苽補曰菰苽並音孤此言積榖之	-12.0309
蒙君惠而獨放弃	-12.0309
蔵	-12.0309
蕙香草蘭屬或以蕙為薫葉失之	-12.0309
虯	-12.0309
言士有偷合於	-12.0309
言已思年命欲暮願且假日	-12.0309
言臣承順君非	-12.0309
貴真人之休	-12.0309
趙簡子御死	-12.0309
過失上以承	-12.0309
邪氣入而感内兮施玉色而外	-12.0309
都遂廣十里名	-12.0309
酌一云丁狄時斫二切沾音	-12.0309
釋文七諫之後亂曰别	-12.0309
野甚清淨漠無	-12.0309
野見巨人跡心忻然	-12.0309
野雞皆雊此陽	-12.0309
間靜時也補曰淮南曰薄于虞淵是	-12.0309
陽用事煦成萬物草木之類莫	-12.0309
雄雌和樂羣戲行也廱一	-12.0309
雖放流睠顧楚國繫心懷王不	-12.0309
面著赤色而鮮好也	-12.0309
驂言君選士用	-12.0309
髙澤深視之冥冥	-12.0309
黙黙無聲也言江南山	-12.0309
𫐠	-12.0309
不震動驚駭復作激楚之	-12.0309
中其餘陽氣猶尚焱焱而顧欲	-12.0309
主以忠事君以信結交而	-12.0309
九思章句第十七楚	-12.0309
因芙蓉而為媒兮	-12.0309
小草也蔓衍廣延也	-12.0309
年亦老暮亦思還返故	-12.0309
得則止已留	-12.0309
憚難也殃咎也	-12.0309
書曰若藥不瞑眩厥疾	-12.0309
琢	-12.0309
瑳	-12.0309
疢	-12.0309
胡亢瀣胡介	-12.0309
舞賦云激楚結風陽阿之舞五臣云激急	-12.0309
菽釋文音焦藟力水	-12.0309
責其非職語	-12.0309
驥垂两耳	-12.0309
􁦵	-12.0309
唇	-12.031
罔薜荔兮為帷	-12.0311
玉之璞而獻之楚厲王或	-12.0311
林木喻賢人補曰奄忽也遽也離披	-12.0311
樂名也九成九奏也	-12.0311
池承雲九韶	-12.0311
美堯二女助成化也韶舜	-12.0311
美舜遭值於堯妻以二女以治天下内之	-12.0311
職則百僚師師百工惟時於是遂禪以位	-12.0311
厲王使王尹相之曰	-12.0311
攀縁蹈氣	-12.0311
玉世所謂和氏之	-12.0311
璧也或曰兩足畢索	-12.0311
違離天明而湮	-12.0311
閲	-12.0311
云蕭瑟秋風	-12.0311
曾歔欷余鬱邑兮	-12.0311
言屈原枉見放	-12.0311
駐	-12.0311
鳥獸猶知懷德兮	-12.0311
一本云校書郎中	-12.0311
傳季子光當立遂	-12.0311
吹聲參差當復	-12.0311
夷水仙人淮南言	-12.0311
孫善養性能調鼎進雉	-12.0311
居期而生子左氏曰微子	-12.0311
帝乙之元子	-12.0311
弑王僚代立	-12.0311
後漢文苑傳云逸	-12.0311
思念也五臣云謂神肯來斯而我作樂	-12.0311
惜往日之曾信兮	-12.0311
戈㦸也甲鎧也言國殤始從	-12.0311
改更先聖法度背違仁義	-12.0311
服兩首齊驂首差退也連蜷句蹄也蜷巨	-12.0311
樂君當復誰	-12.0311
欲踐之踐之而身動如孕者	-12.0311
相與耳語謀利而	-12.0311
稱驂也服馬夾轅其頸負軛兩驂在衡外	-12.0311
籛名鏗帝顓頊之	-12.0311
至南徐州名	-12.0311
諸深切鏗可衡切饗有香音神仙傳云彭	-12.0311
貌也言小人在位以其愚心	-12.0311
上烝天使黒色也烝一作	-12.0311
之士養形之人彭祖	-12.0311
之險微兮遥	-12.0311
反離騷云衿芰茄之緑衣	-12.0311
瀆兮豈容吞舟	-12.0311
無所用之也五臣云主守也言	-12.0311
皇君也輿君之所	-12.0311
覧	-12.0311
近戎狄以射獵	-12.0311
迥	-12.0311
靈乃湘水之神非湘夫	-12.0311
云毛虫有毒螫人	-12.0312
茅蜩似蟬而小青色	-12.0312
從初生至枯白	-12.0312
竹器也言積漬衆	-12.0312
賢智之士於山林之中亦	-12.0312
鷞	-12.0312
中正之言而好	-12.0312
泆激楚之音也猶言惡	-12.0312
雅齧苦堇注	-12.0312
魂往必釋些	-12.0312
乘騏驥而馳騁兮	-12.0312
五星在離珠北天子之果園占大光潤則	-12.0312
作粮補曰大象賦云瓟	-12.0312
八宿之婁以	-12.0312
堇葪也荼苦菜也	-12.0312
果之實不登洛神賦云歎匏	-12.0312
欲妄行周比茍容自入	-12.0312
猒飽也瓟一	-12.0312
舫補曰榜音謗進	-12.0312
也補曰眐音征从目	-12.0312
云齊桓公有鳴琴曰號鍾長笛賦云號	-12.0312
以恣意居之安	-12.0312
凍殺人也或曰逴龍色逴越也赩懼也言	-12.0312
四方多害不可以	-12.0312
意窮情欲心得	-12.0312
施草拔心不死	-12.0312
然而懼恐不得過也逴一作卓補曰逴音	-12.0312
聚集尤多姣女可以快志	-12.0312
蛇身而赤是燭九隂是謂燭龍疑	-12.0312
西北海之外有章尾山有神身長千里	-12.0312
遊獨荆楚饒	-12.0312
鸛	-12.0312
乾菜此所謂大苦盖苦味之甚者	-12.0312
其寒酷烈傷肌	-12.0312
哀高丘之無女	-12.0312
夏積雪其光顥顥天地皆	-12.0312
白冰凍重累其狀凝凝	-12.0312
秋節之悲故託言秋之	-12.0312
競於羣小之中怨恨	-12.0312
萇	-12.0312
解恐其子延	-12.0312
言麒麟仁智之獸逺見避	-12.0312
魯直云恢大也	-12.0312
鳳愈飄翔而	-12.0312
一作命補曰海若莊	-12.0312
上忌觸衆人諱	-12.0312
上補曰杯上綴羽	-12.0312
不甘樂猶思楚國念故	-12.0312
两	-12.0312
也集韻云魯頌楚詞	-12.0312
云地理志遼東郡無慮縣應	-12.0312
亦想遭明時舉	-12.0312
仁義交錯條理成也以言才	-12.0312
何况賢者身無爵	-12.0312
何故深思高舉	-12.0312
佩繽紛以繚轉兮	-12.0312
僮	-12.0312
光明傷無賢君	-12.0312
切一云微母閭補曰	-12.0312
切一曰禍福未定	-12.0312
勺和也觴酒	-12.0312
卒盡道路長	-12.0312
博士議以誼任公	-12.0312
又云足蹀陽阿之舞注云陽阿古之名倡	-12.0312
和者必先始於陽阿采菱注云陽阿采菱	-12.0312
和調甘酸其味	-12.0312
哀傷悽愴累息心	-12.0312
夜鳴以一牢祠之名曰	-12.0312
如賦云諸柘巴	-12.0312
媿於人志愈堅固不衰	-12.0312
孈北方之神名也言遇	-12.0312
孝鳥鴞于驕切惡聲之鳥	-12.0312
將入大海飛	-12.0312
居於陵陸之地則	-12.0312
履行清白内不	-12.0312
山茂林之上設後時	-12.0312
山野滿三年矣	-12.0312
巫閭是縣因山	-12.0312
年衰老也愈一作俞補	-12.0312
弛而不張誰知其力之所至	-12.0312
征行之夫心常惶	-12.0312
念國泣雙下也補	-12.0312
怊悵恨貌也言	-12.0312
恃怙衆士被甲兵也	-12.0312
情慨慨而長	-12.0312
愁歎苦神靈遥思兮	-12.0312
慙於身外不	-12.0312
所以折謀求安	-12.0312
數來也常以夜光	-12.0312
於川澤忽然乗雲汎	-12.0312
旌雜五色以	-12.0312
曰城復于隍也隍一作	-12.0312
柘藷蔗也	-12.0312
核	-12.0312
梟螻蟻所制其困如此	-12.0312
楚國舉士上法夏	-12.0312
權右大夫佯不識也	-12.0312
欹	-12.0312
毉	-12.0312
泫胡犬切涕流	-12.0312
清白久居濁世遂赴	-12.0312
渡大江南入湖	-12.0312
澤失其所也菱一作䔖文選作陽荷注云	-12.0312
炯炯而不能眠如遭大憂常	-12.0312
無御用者重自	-12.0312
然怊悵自恨心悲毒也補曰	-12.0312
班孟堅云始楚賢臣屈原被讒放流	-12.0312
畦留夷與掲車兮雜杜蘅與芳芷	-12.0312
百神翳其備降兮	-12.0312
眷眷獨行無有還意也	-12.0312
祠城若雄雉其聲殷殷云野	-12.0312
穆而美上下玉	-12.0312
純粹而罔愆	-12.0312
索也一云并繩絲以	-12.0312
終撫我情寂	-12.0312
羔令之爛熟取藷蔗之汁	-12.0312
而掃塵也通一作	-12.0312
而有聲則野雞皆鳴以應之	-12.0312
而欲寄處則鴟梟	-12.0312
肥美堪用種植五榖其穗長六仞又	-12.0312
與伯夷無異	-12.0312
若霧而乃見之也汎一作沉澒一作鴻補	-12.0312
葞	-12.0312
螻音樓管子曰蛟龍水虫之神者也	-12.0312
言已修潔乃取江離	-12.0312
言已放行山野之	-12.0312
言蛟龍升天其形	-12.0312
言賢者不居廟堂則	-12.0312
設施也苽梁蔣實謂雕葫也言楚國土	-12.0312
謂朝霞正陽淪隂沆瀣之氣也言	-12.0312
貴顯漢朝故世傳楚	-12.0312
跖	-12.0312
躓	-12.0312
身有光文眺視曲眄目采盼然	-12.0312
輝若流星從東方來集	-12.0312
近於伯夷而置以	-12.0312
遽一身獨處	-12.0312
采取菱芰發揚荷葉喻屈原背去	-12.0312
長四五丈直祠而	-12.0312
閭顔師古曰即所	-12.0312
雷動電發馺	-12.0312
靜以恬愉兮	-12.0312
願承君閒暇之時竭効忠言	-12.0312
駑頓馬也良馬	-12.0312
䘮	-12.0312
一作戴一云載虹霓而	-12.0312
上初兩下許昉切	-12.0312
丘而歎涕兮悲吸吸而長	-12.0312
並俱補曰此言聖賢有不	-12.0312
主上則無所考校已之盛	-12.0312
之志撫北斗之	-12.0312
之氣以不死也補曰沆	-12.0312
之變化而不自知若	-12.0312
乗馬走驟者有處止	-12.0312
也一云撫抵也以手抵案而徐下行也	-12.0312
也淮南子曰造父	-12.0312
他刀切又滔聚也	-12.0312
伯樂非也王良善馭事	-12.0312
俱出郭象云洄	-12.0312
可俱並事君	-12.0312
吾令鴆為媒兮	-12.0312
壹氣孔神兮於中夜存虚以待之兮無	-12.0312
女粉白黛黒立於衢間非知	-12.0312
妃失耦塊	-12.0312
子注云鄭袖楚	-12.0312
孔子曰鳥則擇木木豈能	-12.0312
孰云察余之中情	-12.0312
屮	-12.0312
崩	-12.0312
帝謂天帝也女曰巫陽其名也巫一作	-12.0312
後四輔之職也詩曰予聿有奔走予聿有	-12.0312
志而猶不變玉	-12.0312
我之志動告神明以自徴驗也㠯一作使	-12.0312
方仲春而東遷此云滔滔孟夏	-12.0312
於知人然去乆	-12.0312
暾他昆切焱火華	-12.0312
曰豈知其何故一本此與	-12.0312
杓柄使質正	-12.0312
椒聊香草也詩曰椒聊	-12.0312
樂注云伯樂善相馬事秦繆公又王逸云	-12.0312
歸也一作黨荒補曰聊音留	-12.0312
毫夏落秋生言君用	-12.0312
江潭之鱣鯨兮固將	-12.0312
漢水名也尚書曰	-12.0312
濁穢入天帝之宫言	-12.0312
王自矜伐也憍矜	-12.0312
生者故重華不可	-12.0312
當幽昧險隘之地則敗	-12.0312
稸	-12.0312
筠傳沈約製郊居賦要筠讀至雌	-12.0312
索言已誠傷念君待	-12.0312
聲以發其音也	-12.0312
腐臭不可用一無也	-12.0312
臣云愴怳懭悢皆悲傷	-12.0312
覽觀衆民多無過惡	-12.0312
言龍能登虚無	-12.0312
誘導也騁馳也言獵時有歩	-12.0312
賢能信愛仁	-12.0312
身多病長窮	-12.0312
轉相鈎狀若交竹竿以手	-12.0312
闇昧則貪濁之人用	-12.0312
陽伯樂姓名而張晏云王良字	-12.0312
天之六府計集所㑹	-12.0314
像求之因得傅	-12.0314
其華未發為菡萏已	-12.0314
於君身得爵禄而	-12.0314
泣於荆山之下悲極血出	-12.0314
身體疲病而	-12.0314
何壽夭兮在予	-12.0314
切草木枯也約窮	-12.0314
選作委五臣云言離	-12.0314
台他來切補曰舞賦云舒恢炱之廣	-12.0314
度注云恢炱廣	-12.0314
恢台長養也釋文	-12.0314
曰上於九下巨九切蟉虬盤曲	-12.0314
炱與台古字通	-12.0314
蟺	-12.0314
之行衆人誰有不	-12.0314
也象罔象也皆水中神	-12.0314
人君無有清明之時也五臣云潦	-12.0314
伹	-12.0314
作寥一作漻五臣云寂漻	-12.0314
就少陽神於東方也	-12.0314
應龍何畫河海何厯	-12.0314
故曰頌管子篇	-12.0314
於君而未肯來則吹簫作樂誠欲	-12.0314
暮至東方之玉山也爾雅曰東	-12.0314
朝廷衆臣而不	-12.0314
物一云列螭象而並	-12.0314
琪	-12.0314
畦留夷與揭車兮	-12.0314
禮東北曰幽州	-12.0314
訟閭娵好女也言君親信	-12.0314
詔西皇使涉予	-12.0314
鄒陽嚴夫子之徒興於文景	-12.0314
釋文作芺於表切一作茷音蒲艾	-12.0314
鳥獸鳴以號群兮	-12.0314
上無所考此盛德兮	-12.0314
伯樂善相馬	-12.0314
信之志正終始之行必顯用也兮一	-12.0314
其常也獨當憂秦吳	-12.0314
厲其勇武流其	-12.0314
右轉以遮獸也還一作旋一云引	-12.0314
國䇿云昔騏驥駕鹽車上	-12.0314
坂遷延負轅而不能	-12.0314
夏經殷至周年七百六十七	-12.0314
夢澤中也楚人	-12.0314
悟俗之一改也其存君興國而欲	-12.0314
擇鳥子思曰君子猶鳥也	-12.0314
施其智能也史記没作殁焉上有將字補	-12.0314
時從君夜獵	-12.0314
毒之蟲受天命負力	-12.0314
沅澧所生花在春則黄在秋則紫然而春	-12.0314
無所程量其才力也以言賢臣不遇	-12.0314
疑之則舉矣色斯舉矣翔	-12.0314
秋紫之芬馥也由是知屈原真所謂多識	-12.0314
立天帝及巫陽以	-12.0314
章明也言楚國有美善之	-12.0314
考彭祖至八百	-12.0314
耳一作蠭蟻補曰	-12.0314
至竟陵合滄浪之水又東過三澨水觸大	-12.0314
虺字天對云螝齧	-12.0314
言彭祖進雉	-12.0314
言身雖死猶帶劒持弓示	-12.0314
謡諑謂余以善	-12.0314
踵繼也武跡也詩曰履	-12.0314
迫使荒蕪穢	-12.0314
遭伯樂仰而鳴之知伯樂之知	-12.0314
風伯為余先驅兮	-12.0314
騏驥不遇伯樂則	-12.0314
芻	-12.0314
文作箓音録補曰集韻並音	-12.0315
方恐遭罪法以	-12.0315
秋菊之落英輔體延年莫斯之	-12.0315
芳於汙泥臭井之中	-12.0315
蔽其美質失其性也以言	-12.0315
角置於筐簏而不帶佩	-12.0315
願自沈於江流兮	-12.0315
公道用大興	-12.0315
一名天雞在河鼓	-12.0315
位也惜君國失賢道	-12.0315
四星在危南瓟	-12.0315
在山間而不見用也乎	-12.0315
嫠	-12.0315
子之禮後八公與安俱	-12.0315
心常長愁拊心踊也辟拊心	-12.0315
木蘭以言小人進在顯位	-12.0315
淮南王安好書招致賔	-12.0315
神仙傳曰八公詣門王執	-12.0315
者淮南小山之所作也昔淮南王安	-12.0315
自八公之徒咸慕其	-12.0315
鴞貪鳥而集	-12.0315
云襲長夜謂因	-12.0315
以照明之也訊一作誶鬿一	-12.0315
俗人羣黨相稱	-12.0315
君心内距閉而意不開敏	-12.0315
堇荼茂兮扶	-12.0315
巳忠直而不見信用	-12.0315
志上問九鬿六宗之神	-12.0315
急張其弦而彈之也以言	-12.0315
憎惡大賢之言	-12.0315
所害心中覺寤然不可變	-12.0315
方壯之任使余委	-12.0315
欲橫奔而失路兮	-12.0315
腑	-12.0315
躞	-12.0315
願合五嶽與八方之神察	-12.0315
不可至也補曰月令云九門磔攘天子有	-12.0315
之帝令受我詞而	-12.0315
之志又欲援引	-12.0315
之語也補曰軒轅本紀云	-12.0315
位而行淫慢佞	-12.0315
受覆蔽也悠	-12.0315
嘉及吉時驅	-12.0315
如使可得羈係而畜之則與犬羊無異不	-12.0315
底不可窮測沈	-12.0315
東廂以言賢者	-12.0315
榝音殺爾雅曰椒榝醜莍注云	-12.0315
測夾切碩一	-12.0315
白之情告訴五方	-12.0315
約弃也補曰萎於	-12.0315
貴也言賢者亦以不可枉屈	-12.0315
進不隱其謀退不顧其命此誠絶	-12.0315
魂附形之靈者謂初生之	-12.0315
㦧悽増欷兮	-12.0315
七感切欷虚	-12.0315
上皇上帝也言	-12.0315
也言川水夏濁而秋	-12.0315
二十八宿以列	-12.0315
二子復以謟	-12.0315
以自傷悼後有宋玉唐	-12.0315
元龜所出地名因名其龜	-12.0315
其名曰蔡文選云摶耆龜注云耆	-12.0315
勒之屬慕而述之皆以顯	-12.0315
匡機天門兮	-12.0315
句一作鈎補曰山海	-12.0315
合五嶽與八	-12.0315
四時春生夏長人君則之以	-12.0315
夏禹指麾取士一國之人悉進之也	-12.0315
大蔡神龜注云大蔡	-12.0315
夭命而死不饗其	-12.0315
家語云臧氏有守龜	-12.0315
左朱雀之拔拔補曰集韻	-12.0315
巳具進舉在前賔主	-12.0315
心愁悽而增悲	-12.0315
惡之人而逺仁賢之士也補	-12.0315
愴痛感動歎累息也五臣云	-12.0315
整容儀也五臣云	-12.0315
文云有餘賈利	-12.0315
斾	-12.0315
旦早趨駕於天庭也	-12.0315
曰桃自有苦	-12.0315
書而吳有嚴	-12.0315
木官之佐自古以	-12.0315
未通則女樂倡蕩	-12.0315
椒薑也甘謂飴蜜也言取豉汁	-12.0315
璣以言君不知賢愚忠佞之士猶同玉石	-12.0315
畏怖羅網陞	-12.0315
皆得中補曰若猶及也	-12.0315
眼與珠璣同貫而不别也一云麤嵎	-12.0315
神女周旋侍左右也	-12.0315
老也龜之老者神引	-12.0315
者如苦李之類本草云羊桃味	-12.0315
耆蔡兮踊躍據此則蓍當作	-12.0315
膚變顔色也五	-12.0315
芒莫郎切芒芒廣大	-12.0315
若苦而復甘也五臣云酸苦	-12.0315
言小人相舉而論	-12.0315
赤色子椒佞而似義猶榝之似椒也	-12.0315
進兮補曰螭丑知切國語曰水之	-12.0315
都紫微鈞天	-12.0315
鄭衞妖玩	-12.0315
醎酢和以飴蜜則辛甘之	-12.0315
隕零肥潤去也	-12.0315
養萬物秋殺冬藏亦順	-12.0315
魚眼與珠璣	-12.0315
之俗流行相從誰能不變節	-12.0315
之臣斥逐忠正背先	-12.0315
亂曰鸞皇孔	-12.0315
云辟法也機關	-12.0315
何曾華之無實兮	-12.0315
卿絳灌之屬毁誼天子	-12.0315
固時俗之溷濁兮志	-12.0315
夜止曰宿言巳孤獨無耦塊然獨	-12.0315
大皇之壄大荒之藪一	-12.0315
奧	-12.0315
嬛	-12.0315
字大一作太壄一	-12.0315
字補曰告姑沃	-12.0315
寳者補曰釋文鈕女有切一	-12.0315
年且老也古者	-12.0315
引雌蜺㛹嬛嬛與	-12.0315
循四極而回周兮見盛	-12.0315
患苦衆人皆行	-12.0315
慼泣下如以水灑地也補曰灑所	-12.0315
懲於羹者而吹	-12.0315
所謂御良也一名孫無政	-12.0315
於袁切補曰悇他胡切	-12.0315
旗旄志行清	-12.0315
明之君乃當仕	-12.0315
明車服又殊也	-12.0315
晃户廣切水深廣	-12.0315
朱爵鵕䴊皆神俊	-12.0315
梟一作鴞補曰斥	-12.0315
洋音養滉瀁水	-12.0315
灑	-12.0315
為讒佞所排逐	-12.0315
王乃下來集歸於有	-12.0315
當何所告我忠信之情也一無	-12.0315
禁而制之不得止也言	-12.0315
節展我之情也	-12.0315
精於天駟星天文	-12.0315
而不顧者也屈原獨立不遷	-12.0315
能存能亡奄然失所	-12.0315
舉與也言舉當	-12.0315
苦衆人之皆然兮乗回風而逺	-12.0315
言彼神智之鳥乃與聖	-12.0315
言楚有三公其位尊	-12.0315
變節而從之者乎疾之甚也五	-12.0315
贊	-12.0315
蹇辭也超揺不	-12.0315
身無罪過而放	-12.0315
車騎籠茸而競驅也補曰	-12.0315
進其耿耿小節	-12.0315
附也機臂弩身也於一作以臂一作辟補	-12.0315
雄雄赫赫天徳明只	-12.0315
音鼻近也韓愈曰伯夷者特立獨行亘萬	-12.0315
飛於大荒之野循於四極回旋而戲	-12.0315
驥馳騁以求賢君	-12.0315
鬼魅神獸喜樂	-12.0315
鵠神龍猶如此兮	-12.0315
龎	-12.0315
一云毛至秋而耎細故以	-12.0315
一云油油江湘補曰	-12.0315
一云譬彼雲龍	-12.0315
一作漬補曰漸音	-12.0315
一作逢坲一作浡補	-12.0315
一被服同飾奮袂俱起而鄭舞	-12.0315
下何能使其民依倚而隨之	-12.0315
下則遷藏就歧	-12.0315
下流於衆庶	-12.0315
不得志上口廣切下音朗又	-12.0315
不用譬若蛟龍	-12.0315
不能知人善惡	-12.0315
不見用也謇一作蹇差一音	-12.0315
不遇明君識忠直者	-12.0315
中有公侯伯子男執玉圭之君明於知人	-12.0315
中被篤疾病早殀死及	-12.0315
之浩樂結激楚之遺風注云結激	-12.0315
也史記作陶陶補曰說	-12.0315
也安一作焉剖一作	-12.0315
也詩云契契寤歎契一作挈補曰爾	-12.0315
云豈不至今其庸	-12.0315
交錯長兵不施故用刀劒以相接擊也	-12.0315
人也升一作登沛一作	-12.0315
余命之不長一云吾	-12.0315
作善聲也以言君不	-12.0315
作鑒脩一作修	-12.0315
佻契契逾遐急也契苦絜切注云賢人憂	-12.0315
便利也嬖愛也以	-12.0315
倉北阪城祠之其神或	-12.0315
儔儔一作疇一云一人	-12.0315
其字從木郭璞云	-12.0315
出一方應駍聲擊流光壄盡	-12.0315
出眇然逺視目若	-12.0315
割切悲慘也憺談	-12.0315
區瀛逺望平	-12.0315
升天奮揺翹羽馳使風	-12.0315
反覆之一篇之中	-12.0315
受先人美烈情性	-12.0315
古人有言曰狐死正丘首仁也廣志曰	-12.0315
君者兾及先王之	-12.0315
君耳不聽若風過也蓀一	-12.0315
吾科吾科楯之名也補曰操持也	-12.0315
善之女多才長意用	-12.0315
回眄周京念先聖也文	-12.0315
固也鴻一作洪愈一作	-12.0315
在長安西上林苑中	-12.0315
在陳倉雌在	-12.0315
大也逶虵長	-12.0315
天對曰踰梁橐	-12.0315
如筆管者毫長	-12.0315
妖女工於服飾其	-12.0315
宵夜也詩云肅肅宵征	-12.0315
射音夜荀子曰西方	-12.0315
將消滅也一云固知	-12.0315
將餓餒而終故曰以伯夷爲法也補曰行	-12.0315
居云東間溪側有名溪蓀者根形氣	-12.0315
山窮囊括其雌雄注云天	-12.0315
幼少有大節度以應天地長大	-12.0315
廢也言人刓削方木欲以	-12.0315
廣水心迷不知	-12.0315
廸	-12.0315
忍去蔽於讒	-12.0315
忠信不美如毒藥也一	-12.0315
思待清宴自解	-12.0315
悼芳草之先蘦	-12.0315
想升賢君之朝斥去貪佞	-12.0315
惷	-12.0315
愁心長慮憂無極	-12.0315
愚賢之類别其善惡昭然若神能薦	-12.0315
慜痛也鞠窮也言	-12.0315
招揺在上注云在北斗	-12.0315
政令動揺也言風起而草	-12.0315
故使志不展而自	-12.0315
文云戈平頭	-12.0315
文王所封也然太王居邠狄人侵之始邑	-12.0315
文王補曰按詩云度其鮮原居歧之陽注	-12.0315
文辭尚在可求索也	-12.0315
於楚國無所告語	-12.0315
旍補曰梁書王	-12.0315
昆後也言楚國公侯昭明	-12.0315
明長於人情知	-12.0315
曰楚人鮫革犀兕以	-12.0315
曰犀甲壽百年荀子	-12.0315
有美餳衆味甘美也擣黍一作擣麥一作	-12.0315
朱紫兮雜亂	-12.0315
東西霧氣晦冥	-12.0315
根似髙良薑	-12.0315
棄於原壄而不土	-12.0315
楚氛甚惡言	-12.0315
款	-12.0315
歆言已急欲奔	-12.0315
歎曰江湘油油長流	-12.0315
此章言已雖被放心在楚國徘	-12.0315
歸乎海傷已放	-12.0315
歸於海自傷放流獨	-12.0315
江湘之水油油長流	-12.0315
汰	-12.0315
河水油油	-12.0315
潔姿一作資質一	-12.0315
炭得氷則滅以喻忠佞不可並處則	-12.0315
燁	-12.0315
爲圜其常法度尚未廢也	-12.0315
王之心曽不與我合	-12.0315
王謀居善原廣平之地亦在歧山之南	-12.0315
王都酆武王都鄗二聖	-12.0315
生有形兆伯庸名我	-12.0315
用賢故顧其都冀遭逢也顧一作願補曰	-12.0315
相傷二家怒而相攻於是楚	-12.0315
相傷害固知我命	-12.0315
眎	-12.0315
眩惑也言方今之世	-12.0315
磋	-12.0315
秋毫更生其容㣲眇而日	-12.0315
秦文公獲若石云于陳	-12.0315
窮極山川天地之間然後得	-12.0315
竭智謀以輔事	-12.0315
粤之劒又曰吳粤之	-12.0315
純厚志意潔白身無瑕	-12.0315
繼續其跡而廣其	-12.0315
罪秦伯也晉語曰秦后子來仕其車千乗	-12.0315
美者有梁山之犀象焉考工記	-12.0315
義云七全切崔音孫香草可以餌魚	-12.0315
者水聲也音鶻者涌波	-12.0315
而不得故太史	-12.0315
肝膽剖破血凝滯也補曰	-12.0315
肯復鼓以世無知音也言已	-12.0315
臣不明惑於貪濁	-12.0315
自惜被服芳香菲菲而	-12.0315
與百姓徙其寶藏來就歧	-12.0315
舊居也補曰記曰樂樂其所自生禮不忘	-12.0315
舞因名鄭舞	-12.0315
芡	-12.0315
若天有列星也	-12.0315
若水波而重華也五臣云言美人	-12.0315
茂盛行無過失也情純潔	-12.0315
菖蒲而葉正如蒲無脊詩詠多云蘭蓀	-12.0315
蕑	-12.0315
行身危殆也一云赴	-12.0315
衣襟也言舞人廻轉衣襟相交如竿也以	-12.0315
被刑罰非獨巳身自	-12.0315
補曰搷田殿二音集韻嗔音田引	-12.0315
補曰撚音煙相如賦云	-12.0315
見赤松子與王喬也喬一作僑	-12.0315
言三圭之君不	-12.0315
言誰有契契憂國念君欲委	-12.0315
詳一作佯補曰詳	-12.0315
誠惜芳之菲菲兮反以兹	-12.0315
謂也忽一作急補曰忽疾	-12.0315
譖逐放已欲使改行	-12.0315
讍	-12.0315
賢使國若此但使我	-12.0315
賢君流恩百姓	-12.0315
走先後以輔翼	-12.0315
辭端補曰山海經云開明東	-12.0315
迃	-12.0315
迅疾也言復有九國諸侯好	-12.0315
進意中懭悢心	-12.0315
逺客寄居孤單特也羇	-12.0315
遥望楚國而不得	-12.0315
選士必於鄉射	-12.0315
還轉也言抑止馳騖者順通共獲引	-12.0315
金錫爾雅曰南方之	-12.0315
錯交也短兵刀劒	-12.0315
錯安也言萬民禀受天命	-12.0315
鍼也天對注云百兩	-12.0315
鍾子期識音者也言鍾子期死伯牙破	-12.0315
雄校獵賦云追天	-12.0315
雖小司馬云兎豪在秋而成	-12.0315
霓連蜷約曰僕常恐	-12.0315
韓衆仙人也天道	-12.0315
音若痛也天對	-12.0315
馺素合切方言馺馬馳也注云疾	-12.0315
髀	-12.0315
麗美好也不竒	-12.0315
自割而食君	-12.0317
8	-12.0317
六星如匡形故史遷天官書云斗魁戴匡	-12.0317
按心抑意徐從	-12.0317
文昌六星在北斗魁前一曰上將二曰次	-12.0317
曰文昌宫其中六星司録	-12.0317
博訪天庭在何處也大一作太	-12.0317
曰排推也大人賦	-12.0317
之在香囊妄充	-12.0317
取也芙蓉荷華也生水中	-12.0317
大夫位在君左右如茱	-12.0317
水而求薜荔登山	-12.0317
立排天門而	-12.0317
立自持不隨俗人也補曰死而更生曰	-12.0317
而采芙蓉固不可得也	-12.0317
近無有憂國之心責之也夫一作其五臣	-12.0317
願楚無憂君康	-12.0317
時耳目心識手足	-12.0317
運動啼呼	-12.0317
䄂	-12.0317
上無仁恩以	-12.0317
九十年左傳曰木正	-12.0317
也一曰虫入腹食人心古者	-12.0317
也或曰泬寥猶蕭條蕭條	-12.0317
也氣清一作氣平	-12.0317
云鄭繆公晝日處廟有神人面鳥身	-12.0317
使勾芒賜書	-12.0317
其神勾芒注云此木帝之君	-12.0317
宋玉援引天時託譬草	-12.0317
害草木枯落故	-12.0317
寥釋文作嵺補曰泬音血嵺	-12.0317
實而列乎衆芳矣	-12.0317
志猶念君而不能忘也補曰	-12.0317
木以茂美之樹興於仁賢早遇	-12.0317
溝無溢濫百川	-12.0317
漻	-12.0317
瀞	-12.0317
立功者也太公金匱曰東海	-12.0317
素服面狀正方神	-12.0317
被害也台一作炱一作	-12.0317
道路塞也一云閨闥五臣云雖思見君而	-12.0317
主此盛徳兮牽於俗而蕪穢	-12.0317
卻	-12.0317
因氣變而遂曾舉兮	-12.0317
天帝之庭習威	-12.0317
子椒子蘭變志若此	-12.0317
念無怨咎於君而生離隔補	-12.0317
惑誤於紂不可	-12.0317
擥彗星以為旍兮	-12.0317
政合大中則品	-12.0317
整理車駕而鼓嚴也補曰	-12.0317
朕我也不求曰	-12.0317
無道傳與湯紂	-12.0317
祖王兄子濞於吳招致天下娛	-12.0317
而行刑罰故君賢臣忠	-12.0317
見騷經便讀作㛹毗連切	-12.0317
覽民徳焉錯輔	-12.0317
言子蘭弃其美質正直之性隨從	-12.0317
逸豫也螭龍類	-12.0317
邊邑處女爭采	-12.0317
錯置也輔佐也言皇天神明無所私	-12.0317
青虬負轂而扶轅也躣釋文作躩	-12.0317
鶴奮翼舞也軒一作	-12.0317
之大者屈原之憂憂國也其樂	-12.0317
之用法誠善美	-12.0317
也好和滋味善斟雉	-12.0317
也言屈原行先出廬	-12.0317
云并憾日夜	-12.0317
以多雨者羣下專擅施恩惠	-12.0317
何言乎天對云合行	-12.0317
俗通云舜作簫其	-12.0317
其俱切廣韻	-12.0317
其山子推抱樹燒而死故言立枯也	-12.0317
凌雲之意然其語	-12.0317
君性不端晝夜謬也并一作弃一	-12.0317
吾令鳯鳥飛騰兮繼之以日夜	-12.0317
坻道縣嶓冢	-12.0317
天大雨雷電思念復	-12.0317
天對云奮力	-12.0317
山海經云薫草麻葉而方莖	-12.0317
思子椒不能用	-12.0317
恐高辛之先我	-12.0317
惡數指斥尊者故變言	-12.0317
憂乎補曰薄暮日欲	-12.0317
懲㣻也言巳雖死頭足	-12.0317
我忠信之情反信	-12.0317
抑止也騖馳也若順也	-12.0317
抱忠信之情不與衆	-12.0317
接輿楚狂接	-12.0317
晞女髪兮陽之阿	-12.0317
樂天也離騷二十五篇	-12.0317
此官屬齊駕駟馬或	-12.0317
此興師攻滅	-12.0317
泮	-12.0317
無正補曰并並也馮	-12.0317
牛上屠屠國文王喜載與俱歸也	-12.0317
百兩金誤矣兩	-12.0317
睫腥犬赤股而躁臊左傳曰薄而觀之薄	-12.0317
知之者徘徊江之上歎	-12.0317
篤病也早死	-12.0317
能事帝堯堯美而饗食之補	-12.0317
臣云止馳騖者使順	-12.0317
與君俱獵於	-12.0317
與羌水合至江夏安陸縣名沔水故有漢	-12.0317
芷生句末皆有些字一本至誘騁先有些	-12.0317
荃與蓀同莊子云得	-12.0317
言屈原書壁所問略訖日暮	-12.0317
詘於富貴充	-12.0317
謂臣蔽君明也下幽晦	-12.0317
貫出也廬江長薄地名	-12.0317
違匿同若所咿	-12.0317
雲以象佞人山峻髙以蔽日者	-12.0317
青或黒連千	-12.0317
驂駕素虹而東西也言	-12.0317
魚而忘荃音	-12.0317
鳥獸鳴以號羣兮	-12.0317
作輡補曰埳苦闇切軻	-12.0318
曰三辰旂旗爾雅有鈴曰旂旂渠希切	-12.0318
言巳動順天道	-12.0318
飛翺翔翼翼而和嘉忠正	-12.0318
坎埳坷不平也輡軻車行不平	-12.0318
苦个切又音坎可轗音	-12.0318
也後漢傳大秦國	-12.0318
子云通天犀有	-12.0318
思委命於江流沈	-12.0318
怨世賢士窮而	-12.0318
有駭雞犀注引抱	-12.0318
清白皎然日明而	-12.0318
犀駭雞宋哀曰角有光雞見而駭	-12.0318
獻雞駭之犀夜光之璧於秦援	-12.0318
神契云神靈滋液則	-12.0318
補曰靡美皮切飤	-12.0318
解於九章也一云推自割	-12.0318
靈皆侍從也補	-12.0318
鹿竹髙篋也戰國䇿楚	-12.0318
使百工營求諸野得諸傅巖	-12.0318
命是佚篇也補曰孟子曰傅	-12.0318
舉於版築之間史	-12.0318
中明於大法賢智之	-12.0318
云終不過兮一云終	-12.0318
人反談論廊廟之	-12.0318
何宫庭之宏敞類	-12.0318
坤之翕闢注云	-12.0318
太微宫垣十星在翼軫北天子之	-12.0318
往啄米至輙驚却故南人名	-12.0318
律法也魁大也	-12.0318
捐欲敕愼	-12.0318
置羣雞中雞欲	-12.0318
言拘愚蔽闇之	-12.0318
訊問也詩云執訊獲醜	-12.0318
逺行千里不敢顧念身之貧賤	-12.0318
魂乎無徃盈北極只	-12.0318
𨄌	-12.0318
之性直若砥矢言若丹	-12.0318
作以補曰刜斷也音	-12.0318
作魁補曰訊音信誶息醉	-12.0318
冰凍紛然如積雪言巳勤苦也一云斲	-12.0318
切鬿音祈星名也北斗七	-12.0318
則天下兵起李竒曰旬始氣如雄雞見北	-12.0318
巷小人親近左右也	-12.0318
忒	-12.0318
慞	-12.0318
旬始其怒青黒象狀如鼈	-12.0318
星輔一星在	-12.0318
皇天名也一云旬始星名	-12.0318
聲此則魄之靈也附氣	-12.0318
誅於紂切激而數	-12.0318
賢者蔽而不見兮	-12.0318
趨走亦不足	-12.0318
遂至天皇之所居也旬始	-12.0318
遭天盛寒舉其櫂	-12.0318
郵曰太白名旬始如雄雞也補曰造至也	-12.0318
錡	-12.0318
閇	-12.0318
隂不見日名曰逴龍其土赤色不生草木	-12.0318
險也碕礒石	-12.0318
䊸	-12.0318
上帝使天正其意也	-12.0318
之志節亦非勉	-12.0318
之氣來塵塺人也愈	-12.0318
之神曰勾芒墨子	-12.0318
也藝文類聚作	-12.0318
人吩人則病羅人則疾名曰㺊㺊者恙	-12.0318
八極道理難筭計也一	-12.0318
冬生禀氣純也	-12.0318
化以感激風俗	-12.0318
吾志兮覺悟	-12.0318
大荒中有獸食	-12.0318
奏天從之於是北方人得無憂無疾謂之	-12.0318
曰撿押隱括也押音	-12.0318
無恙乎蘇鶚演義引神異經云北方	-12.0318
而君愈貪濁如氛霧	-12.0318
苟余情其信姱以練要兮	-12.0318
補曰被音披又如字裯音刀	-12.0318
邈漫漫補曰藐音邈	-12.0318
頭也五臣云腱筋肉補曰	-12.0318
上無所考此盛徳兮	-12.0318
中也或曰齊悲歌言愁思也補曰字書	-12.0318
之徒非其冝也論語曰割	-12.0318
也蓍筮也蔡大龜	-12.0318
云生下濕地大根者	-12.0318
五嶽五方之山也王者	-12.0318
偶尚哀鳴相求以	-12.0318
又音謗進船也汰音	-12.0318
君使賢能輔佐	-12.0318
喪將失其鈕樞言放	-12.0318
大虹能揚文采	-12.0318
威誅無狀以征不服今乃用	-12.0318
就祝融兮稽疑	-12.0318
屈原執履忠貞而被讒衺	-12.0318
思念暴戾心自傷	-12.0318
放逐離别中心愁思猶	-12.0318
斫蓬蒿割熟肉非其	-12.0318
曰帝厚汝明	-12.0318
曰鴻飛冥冥此言	-12.0318
枝葉枯槁也自傷	-12.0318
梟鴞並進而俱鳴兮	-12.0318
椒慆它刀切書曰無即慆	-12.0318
橘大曰柚柚似橙而實酢	-12.0318
歷玄冥以邪徑兮	-12.0318
淹雞寒臛字書	-12.0318
潢洋猶浩蕩不著人	-12.0318
焉鳴號焉蹢䠱焉	-12.0318
物豐茂上闇下僞用法殘	-12.0318
王良晉大夫御無恤子	-12.0318
疑借用榜北孟切	-12.0318
秦繆公莊子曰秦穆公以	-12.0318
精當若彗星能耀光明舉當若鵕䴊	-12.0318
纘	-12.0318
而憂愁思念怫鬱獨	-12.0318
臧文仲居蔡補曰淮南云	-12.0318
自哀傷執行	-12.0318
苟誠也下土謂天	-12.0318
荷芙蕖也裯袛裯也若	-12.0318
蓍龜喜樂慕清	-12.0318
蘭有蘭之名無蘭之	-12.0318
補曰禮記云今是大	-12.0318
補曰鴟稱脂切	-12.0318
詞所謂夕宿辰陽也沅水	-12.0318
豪加丘加切王逸	-12.0318
賢之位無進賢之心也	-12.0318
賢者失時後軰亦	-12.0318
陟險猶易聊且	-12.0318
鞹	-12.0318
飛能冲天也補曰	-12.0318
鳥獸失喪其羣匹越月踰時焉則	-12.0318
鴶	-12.0318
鵂	-12.0318
鶱	-12.0318
䳟	-12.0318
一云其命難從一云命其難從	-12.0318
三致志焉然終無可	-12.0318
上髙巖之峭岸兮	-12.0318
不困貧也五臣云以此二事問其所	-12.0318
丐	-12.0318
主有虞主練主尸神	-12.0318
乃立九卿以	-12.0318
之人斥逐讒夫與便利嬖愛之臣	-12.0318
之士招致幽隱明智之人	-12.0318
之政害仁賢也雲霏霏而	-12.0318
之曰美而豔言美人長髮工結鬋鬢	-12.0318
之氣而吐其塵濁内潔	-12.0318
也一無辭字墬一作	-12.0318
也宗廟之有主也示民有事也	-12.0318
也思一作恖古本作怨	-12.0318
也恒山北嶽也陋小也	-12.0318
也或曰鄭舞鄭重屈折	-12.0318
也蓍曰筮尚書曰決之蓍龜言天帝哀	-12.0318
也補曰張晏云玉	-12.0318
也言君張朱帷襜襜鮮明冝與	-12.0318
也霰雪紛其無垠者殘賊	-12.0318
亂結未能離於忠信也其一	-12.0318
二八美女其儀容齊	-12.0318
二子曉音今皆已	-12.0318
云發殺曷逞寒民于	-12.0318
以威武嚴民後	-12.0318
以經緯五藏保守形體也筮卜問	-12.0318
以自約束修善不怠也支一作枝洲一	-12.0318
伯長也林君也謂晉太子申生	-12.0318
位有直言諤諤諫正君非	-12.0318
作揆中一作忠	-12.0318
使之迅疾自傷不得順	-12.0318
俇俇惶遽之	-12.0318
信約而復背之也古者君臣將共	-12.0318
傷誠是之不察兮并紉茅絲以	-12.0318
先用諸侯盡極	-12.0318
光闔廬名也言	-12.0318
兕懼其不能制我佐君	-12.0318
其位用心迷惑過惡	-12.0318
其化流行羣下皆	-12.0318
其君去又急疾而	-12.0318
其川江漢漢楚	-12.0318
其詞令咎繇並	-12.0318
分離而心終不	-12.0318
化行也一本云悲夫補曰九	-12.0318
各切詩傳云東西	-12.0318
君子雲霓以譬讒邪比興之義也	-12.0318
君心乃乖差而不	-12.0318
含憂彷徉意中悵然惝罔長	-12.0318
吹簫而思舜也洞簫賦云吹參	-12.0318
哉一作裁補曰莊子秋豪	-12.0318
嚴壯也殺死也言壯士盡其死命	-12.0318
多出於此至其妙處相如莫能識也	-12.0318
太史公作傳以	-12.0318
女而婦奴曰獲亡	-12.0318
如得秉執國政則使君親任忠	-12.0318
子云中於機辟辟毗亦切	-12.0318
容靡麗誠足竒怪	-12.0318
封介山而爲之禁	-12.0318
居常怖懼若附	-12.0318
山之上而臨百仞	-12.0318
巫陽對天帝言招䰟者	-12.0318
巫陽巫几巫	-12.0318
已憂愁思想則	-12.0318
師曠聖人也字子壄	-12.0318
彫切揄動也汰	-12.0318
徐自省視至此	-12.0318
徙倚猶低佪也言	-12.0318
心中燎明内自覺也	-12.0318
志純一也欵一作款五臣云悃欵懃苦	-12.0318
念救傷懷之思	-12.0318
思蹇產之不釋兮	-12.0318
怠去卜筮之法但以招	-12.0318
急欲奉行天誅	-12.0318
恐不能自全也	-12.0318
悁悒而不能乆忍也補	-12.0318
悒音邑憂也不安也天對	-12.0318
惜者哀也誓者信也約也言哀惜	-12.0318
惡心惑意迷而不自知	-12.0318
愁自度以死亡而	-12.0318
懼爾雅兕似牛注云	-12.0318
我内憤傷心切剥	-12.0318
所以多憂者以君信	-12.0318
所錯安其志或	-12.0318
承天奉地服循仁	-12.0318
揚其志意而常屈伏汰一作波補曰挑	-12.0318
撫案其節而徐行也補曰下音	-12.0318
放佞人與諂	-12.0318
文王不顯顯也言美女被服綺繡	-12.0318
方我欲輔成其	-12.0318
於無報之人乎言皆	-12.0318
明月銷鑠而減毀	-12.0318
曰古之君子必佩玉進則揖之退則揚	-12.0318
曰大社歧在右扶	-12.0318
曰晧下老切旰	-12.0318
曰颯蘇合切捜捜動	-12.0318
曼姬邊讓賦云齊倡列鄭	-12.0318
有救理我之侵	-12.0318
柯彷彿而萎黃	-12.0318
桎	-12.0318
此老莊孟子所以大過人	-12.0318
此而成文於彼	-12.0318
殳矛守戈㦸助凡五兵	-12.0318
殷周衆賢並進無有	-12.0318
殺之補曰憚當割切莊子云憚	-12.0318
水也水經及山海經注云漢水出隴西	-12.0318
池以喻君且失	-12.0318
注云伯里奚知虞公不可諫	-12.0318
淫虐傳與文王	-12.0318
漄	-12.0318
漾東流爲漢周禮荆州	-12.0318
潔之行身服仁	-12.0318
澔	-12.0318
澤其狀豔美儀	-12.0318
焉名曰射干莖長四寸生於	-12.0318
無信不可乆留	-12.0318
無王良之善馭見執	-12.0318
無采取者水卒	-12.0318
然有聲又有光精也下時	-12.0318
爰於也吾將退於江濵伏匿穴	-12.0318
王不徐徐察	-12.0318
王悲啼歔欷雖	-12.0318
王有始而無終也惜余年老而日衰兮	-12.0318
留恐百姓飢餓糧食絶乏也絶	-12.0318
異猶并紉絲與茅共	-12.0318
相如作大人賦宏放	-12.0318
相辭讓進退有	-12.0318
督見孔父之妻目逆	-12.0318
睿作聖明作哲聖哲之人以有甚	-12.0318
神怒健不畏憚也墜一作隧文苑	-12.0318
禮不失威儀也	-12.0318
移去也言美女可以	-12.0318
笯一作郊補曰笯	-12.0318
箭必先舉手以	-12.0318
節也搷一作嗔一作	-12.0318
粉餅也方言曰餌謂之餻餳謂之餦	-12.0318
粔音巨籹音女又音汝粔籹蜜餌也吳謂	-12.0318
糞壤以充幃兮	-12.0318
紂載文王木主稱太子發	-12.0318
綬屬列女傳曰詩云執轡	-12.0318
者樂之容古有	-12.0318
者而原獨知之司馬	-12.0318
者補曰太史公屈原傳	-12.0318
而痛身遭疾病長窮困	-12.0318
胡登切恒山在中山	-12.0318
臂畏其妄發上	-12.0318
至陽春見白日不	-12.0318
與我同故遂屏	-12.0318
與楚相伐至於闔廬之	-12.0318
船赴江湘之疾流	-12.0318
若是詩則可	-12.0318
觀帳幕之中侍君	-12.0318
言天帝難從掌㝱之官欲使巫陽招	-12.0318
言已所言上參之於天下合之於地旁引	-12.0318
言武王發欲誅殷紂何所	-12.0318
言水尚得順其經	-12.0318
言舊故忠臣日以䟽逺	-12.0318
言賢人乆處山野君不事用亦將隕	-12.0318
記鶩作雉補	-12.0318
診	-12.0318
謂君也喻已被帶	-12.0318
謂好惡也以言君清	-12.0318
讒夫弄口也風颯颯者政煩擾也木蕭蕭	-12.0318
貞良故曰帝告巫	-12.0318
賢人則屈原也宋玉上設天意祐助	-12.0318
賢臣奔亡使國荒亂而傾危也補曰軛轅	-12.0318
赫千里音義云千里皆	-12.0318
輊一作輕補曰輊音	-12.0318
遇聊作詞賦以舒展憂思樂	-12.0318
遌史記作悟補曰	-12.0318
遥逺也博平也言	-12.0318
遭桓繆兮識舉	-12.0318
野廣大道路	-12.0318
錯司馬法曰	-12.0318
鍾鍾子期牙伯牙也言	-12.0318
鏘七羊切禮記	-12.0318
長大也毫一作豪一無哉字	-12.0318
陽有賢人屈原在於下	-12.0318
隱伏猶思道	-12.0318
雖易水土志不革也補曰禹貢	-12.0318
雖有執轡之御猶不能制必摧車軛而折	-12.0318
音常與倘同飈	-12.0318
音汗相如云	-12.0318
順聚波而下	-12.0318
願因三鳥寄善言	-12.0318
風乎倘佯補曰尚	-12.0318
風雅者也至於託雲龍	-12.0318
香草茂盛覆被	-12.0318
驂如舞孔子曰信	-12.0318
驚駭也蕭蕭文苑作捜捜補	-12.0318
魄者性之決也所	-12.0318
鳴鼓以進八	-12.0318
鵞	-12.0318
皇承旂引路飛翔翼翼然扶	-12.032
曰貴相四曰司録五曰司命六曰司	-12.032
署常恕切置也大人	-12.032
云重陽集清	-12.032
得升五帝之寺	-12.032
於天陽之宇上	-12.032
氣又云集重陽之清徴注云言上止	-12.032
傅險姓之號曰傅	-12.032
胥靡築於傅險見於武丁武丁曰是也遂	-12.032
補曰厲渡也大人	-12.032
險與巖同徐廣曰尸子云傅	-12.032
五臣云言志不通猶	-12.032
守終不敢有過失也一	-12.032
斲斫冰凍徒	-12.032
霰雪雰糅其增加兮	-12.032
世繼嗣之長也驚一作敬切一作功補曰	-12.032
私阿故參配天地通之神	-12.032
秉執也言巳執履忠正行無	-12.032
補曰晉獻公虜虞君與其大夫	-12.032
上人本姓姜氏從其封	-12.032
使知之也補曰天無私覆地無	-12.032
夏禹觀河見長人魚身出曰	-12.032
多被此毒故相	-12.032
姓故曰吕尚戰國䇿云太公望	-12.032
廢屠文王用之而王注云	-12.032
性識漸有所知此則附氣之神也魄在	-12.032
扄	-12.032
板松二曰𤣥圃一名閬風上曰層城一名	-12.032
焉乃逝以俳佪	-12.032
焉託乘而上浮	-12.032
老婦之逐夫朝歌之	-12.032
與語國事繆公大說授	-12.032
賢以五羖羊皮贖之釋其囚	-12.032
門逺郊門近郊門城	-12.032
之行故得用事天下而	-12.032
以成其志故桀	-12.032
兩龍注云木神也昔秦穆	-12.032
卒不見納不忍濁	-12.032
古今人表有令尹子	-12.032
告我以不閒暇遂以	-12.032
大夫子椒也慆	-12.032
履忠信雖獲罪	-12.032
復用讒言逐屈原在野又作九章賦以風	-12.032
文君晉文公也	-12.032
朋友之交忠則見信不忠則生怨臣忠於	-12.032
歷太皓以右轉兮	-12.032
淫也慢一作謾釋	-12.032
淺淺疾流而	-12.032
無所登至也五臣云下視水石淺淺而流	-12.032
牲者五羊之皮食牛以要	-12.032
王終不覺寤信反間之	-12.032
甘如蜜也弗一作不	-12.032
米也孟康曰椒糈	-12.032
紛郁郁其遠承兮	-12.032
自投汨羅原死之後秦果滅楚其辭	-12.032
衆賢所悼悲故傳	-12.032
見上椒與菌桂木類也蕙	-12.032
謂鑒而弗精翫而未覈者也將覈其論必	-12.032
謝去也言巳願與橘同心并	-12.032
谷辰水所出南入沅七百	-12.032
辰水之陽故取名焉楚	-12.032
辰陽縣東南合辰水舊治在	-12.032
飛龍翩翩而舉物皆遂性我獨	-12.032
饊	-12.032
齊舉大櫂而擊水波自傷去朝堂之上而	-12.032
一曰辟氛埃補	-12.032
不仕也桑扈	-12.032
不由正道而所行	-12.032
乆長也史記蔽作拂自道	-12.032
之又禁民不得有言燒	-12.032
之星且中休息	-12.032
之行故能使下土	-12.032
之速也捷邪出也論語曰	-12.032
乗舲船余上沅兮	-12.032
也父欲立伯夷伯夷	-12.032
也猶詩云昔我往矣楊	-12.032
也補曰春秋昭元年夏秦伯之弟鍼出	-12.032
也補曰自此以下盛言畋獵	-12.032
事陽意不欲以筮與招相	-12.032
云北極五星天運無窮三光迭耀而極	-12.032
云若必筮而招之恐後代懈	-12.032
云苦菜生於寒秋經冬	-12.032
以况芬芳不一而	-12.032
以食文公文公得國	-12.032
伐紂伯夷叔	-12.032
作㠯補曰晉志	-12.032
作若若一作苦補曰荼音徒爾雅荼	-12.032
俊鳥夾轂	-12.032
俱生以言忠佞亦不同	-12.032
兵入郢都昭王出奔故曰	-12.032
出國門而軫懷兮	-12.032
即朱雀神鳥	-12.032
又去聲楚謂草澤	-12.032
又曰樂天知命有憂	-12.032
同列上官大夫妬害其寵讒之王王怒而	-12.032
名漾水東流至武都沮縣始爲漢水	-12.032
君可謂忠乎左右欲殺之太公曰不可引	-12.032
吸天元氣得其道	-12.032
吸清和之氣以充空虚療飢渴也以一	-12.032
喻君山以喻臣	-12.032
始來進春氣奮揚	-12.032
室屋沈没與天連也或曰日以	-12.032
居他邑也牉一作叛	-12.032
嶷張揖曰九嶷在零	-12.032
州之野女媧之時乗雷	-12.032
彰補曰被音披反離騷云亡春風之被	-12.032
復修用但招之可也五臣	-12.032
憂愁幽思而作離騷離猶遭也騷憂也明	-12.032
掃除霧霾	-12.032
故使巫陽筮問求索得而與	-12.032
文云輬卧車音涼招魂云	-12.032
文公覺寤追而求之子推遂不肯出文公	-12.032
文王親往問之吕望對曰	-12.032
文虚大丘也丘於切崐崘	-12.032
星不移故曰居	-12.032
春得夏乃成	-12.032
曰國語曰殷辛	-12.032
曰夢爾雅曰楚	-12.032
曰道可受兮不可傳其小無内兮	-12.032
曽不知路之曲直兮	-12.032
朝而俱用也薺一	-12.032
桀紂之亂若衣披不帶者以	-12.032
梧半在零陵顔師古云	-12.032
歎君門之九重忠怨之辭也觀兹四事同	-12.032
此章言已佩服殊異抗志髙逺	-12.032
歩爲畝言枯草荼薺不同畝而	-12.032
海經圖云犂丘山有應龍者龍之有翼也	-12.032
溢漸没其道將至弃	-12.032
炊餔疾也釋文齊或作齎並柤	-12.032
烈之氣豈與	-12.032
無垠無淈滑而䰟兮	-12.032
然後與之恐後世	-12.032
狸以譬猛烈辛夷杜衡	-12.032
猖狂傷羿澆之顚隕規諷之旨也虬龍以	-12.032
班孟堅離騷者屈原之所作也屈原初事	-12.032
皆感氣而生自傷放逐獨	-12.032
盤結遇四海之	-12.032
神略畢意念楚國願	-12.032
秋蘭兮青青綠葉兮紫莖	-12.032
簪	-12.032
籛	-12.032
翼參差不齊之	-12.032
者道也仲尼曰樂天知命故不憂	-12.032
葉切嚅如朱切	-12.032
著脂粉面	-12.032
行亟疾也一本云	-12.032
言南方之俗其人	-12.032
言大勝我也補曰楚昭王十年	-12.032
言舜使九嶷之山神	-12.032
諸從行者失忘子推子推遂	-12.032
謠諑謂余以善淫	-12.032
路趣敵旌旗蔽	-12.032
身俱亡哉仍羽人於丹丘留不死之舊	-12.032
近而放逐也補曰臊音騷周禮曰豕盲視	-12.032
進滿朝庭也	-12.032
遂不食周粟而餓死屈原亦自以	-12.032
遏也被一作披	-12.032
鄣音章舊本自何	-12.032
鋪陳其志以自證明也補曰古詩	-12.032
錯七故切上天佑之	-12.032
長薄長薄在江北時東行故言左也	-12.032
閨中既以邃	-12.032
闗梁閉而不通	-12.032
陵營道縣文潁曰九	-12.032
雷塡塡者君妄怒也雨冥冥者羣佞聚也	-12.032
霰雪以興殘賊	-12.032
順人意可以自侍	-12.032
騖杳冥之中脩善不倦休息崑崙	-12.032
鬬適遭天時命當墮落雖身	-12.032
鳴也琳音林琅音郎俗作瑯爾雅曰西北	-12.032
齊扣馬諫之曰父死不葬謀及干戈可謂	-12.032
𤦺	-12.032
􁕀	-12.032
滯卒無所逢遇也埳一作轗一	-12.0321
古者旌旗皆載於車上故逸以承旂	-12.0321
恆	-12.0321
遊注云俊鳥夾轂而扶輪是也五臣以	-12.0321
塗不忍乆見貪濁	-12.0322
曰鳯皇曽逝萬仞之上翺翔四海之外注	-12.0322
芎藭小别以其根上苗下似禾	-12.0322
軀兮比干忠而剖心子推自割而飤君兮	-12.0322
流沙沙流如	-12.0322
一理如綖者以	-12.0322
于流沙五臣云流沙西極也	-12.0322
放弃與昆蟲	-12.0322
欲儃佪以干傺兮	-12.0322
而蒙世俗之塵埃乎	-12.0322
謂七月在野八月在	-12.0322
之洲孔安國曰傅氏之巖在虞虢之界通	-12.0322
偓促拘愚之	-12.0322
吕太公之氏姓也鼓鳴也	-12.0322
執忠信之行以事於	-12.0322
埿	-12.0322
如月生五日張揖云流沙沙與水流	-12.0322
欺罔戲弄	-12.0322
見放逐汙辱若	-12.0322
陽余謂積陽	-12.0322
㠁	-12.0322
人媵百里傒亡秦走宛楚	-12.0322
以避患雖保	-12.0322
伐紂震驚而切責之不顧君臣之義惟	-12.0322
備而無名將所以	-12.0322
僶	-12.0322
儀表所謂金相玉振百	-12.0322
史記云太公望吕尚者東海	-12.0322
唯以謬諫名篇當如糜信之	-12.0322
奉承后稷之	-12.0322
後魄識少而魂識多人之生也魄盛魂強	-12.0322
忠言外好武	-12.0322
於朝歌肉上生臭不售故曰廢屠淮	-12.0322
旎旌旗從風	-12.0322
旖音倚其字從竒旖	-12.0322
時鼓刀屠於朝歌也	-12.0322
歎欲自信理於	-12.0322
漢書曰聞將軍	-12.0322
無匹者也及漢宣嗟歎以	-12.0322
無道故武王能逢	-12.0322
硊	-12.0322
碩	-12.0322
老婦之所逐賣肉	-12.0322
老淹留草澤無	-12.0322
考無成功也五臣云蹇	-12.0322
耇	-12.0322
逴龍山名也赩赤色	-12.0322
過中謂漸衰暮也	-12.0322
鄙人執之繆公聞百里傒	-12.0322
釋文苦本切非也碅從囷硱從困	-12.0322
釋文藏作臧音藏五臣云坎	-12.0322
里傒爲秦繆公夫	-12.0322
鷩	-12.0322
下以養切補曰沛流	-12.0322
下啓能承先志	-12.0322
不貪今人貪而不味此言貪嗜讒	-12.0322
之國政號曰五羖大夫孟子曰	-12.0322
之山以遊觀也騖一	-12.0322
之志當獲譖	-12.0322
之神紛然來迎	-12.0322
九疑舜所葬也	-12.0322
五十里水經云沅水東逕	-12.0322
交錯曰薄言重	-12.0322
以酸酢烹鵠	-12.0322
任故願離衆而逺去也補曰舉有	-12.0322
作塊鞠兮補	-12.0322
使占兹吉凶也糈俗作	-12.0322
切嶷與疑同迎魚	-12.0322
則將百神蔽日來下舜又使九疑	-12.0322
勸我行當如蒼龍能屈能	-12.0322
呼各切又音霍肉羹也集韻涪	-12.0322
啓禹子也九辯九歌禹樂也言禹平	-12.0322
國昌公問神名	-12.0322
好然浩浩蕩蕩而不可帶又易敗也	-12.0322
姓字斷絶形體没	-12.0322
孤立特止居一方也五臣云	-12.0322
寤覺也昔文公	-12.0322
寧國家精誠之至	-12.0322
將候祝融與諮謀也南	-12.0322
少言有法則行	-12.0322
巫咸將夕從天上來	-12.0322
帝炎帝其神	-12.0322
待放三年君命	-12.0322
志無有明正之君	-12.0322
慶切迓也漢紀曰望祀虞舜	-12.0322
所謂兾幸君之一悟俗之一改也韓	-12.0322
揖言衆士將射	-12.0322
時時竊視安詳審諦志不可動也矊	-12.0322
曰内與納同肭肥也鶬音倉爾	-12.0322
有渟水其中悉生蘭草緑葉紫莖	-12.0322
朋友不相逺離也補曰	-12.0322
欲待明君之政	-12.0322
沕穆無間沕	-12.0322
治水土以有天	-12.0322
注云軒輬皆輕	-12.0322
漢武陵郡有辰陽注云三山	-12.0322
漿烹鵠鳬	-12.0322
澹澹若淵不可	-12.0322
濕心愁身苦憂悲且思也遇一	-12.0322
熬鴻鶬令之肥美也補曰鶬音倉麋鴰	-12.0322
牋	-12.0322
物所以降神糈精米所以享神言	-12.0322
狐死必首丘兮夫人孰能不反其	-12.0322
狐狸之死猶嚮	-12.0322
猶思楚國念故舊欲竭忠信以	-12.0322
獨憤積而哀	-12.0322
獲之士何能稱權衡興至治乎或	-12.0322
生以事死改生之魂曰神	-12.0322
登高吾不說兮	-12.0322
百里奚自鬻於秦養	-12.0322
皆在顯位復有	-12.0322
目中瞳子言目	-12.0322
瞀悶也迷惑也言	-12.0322
矤	-12.0322
石得水仙是	-12.0322
神物自喻諸神	-12.0322
禹湯後謂桀	-12.0322
空桑瑟名也周官云古者絃空	-12.0322
窮蹙處於空澤補曰	-12.0322
置管仲晏嬰任	-12.0322
美行乃無異於衆	-12.0322
美詩云舊客舟	-12.0322
義身反被病	-12.0322
者言不通羣下之情哲王又不寤者言	-12.0322
者非其人兮故	-12.0322
胹臑皆有而音	-12.0322
腝	-12.0322
臑若熟爛也	-12.0322
舉去也言苦見俗人多言無信不可	-12.0322
舉手曰麾小曰蛟大曰龍或言以	-12.0322
若湯之沸沸	-12.0322
菜曰羹無菜曰臛蠵	-12.0322
葉似薑而有文理	-12.0322
裔也爾雅曰林烝君	-12.0322
裯爾雅晏晏柔	-12.0322
見信而反告我以不	-12.0322
言切膂腱肉也一曰筋之	-12.0322
言巫咸得已椒糈	-12.0322
言纎阿不執轡而御則馬不	-12.0322
論曰煎魚切肝羊	-12.0322
讒人尚復介隔蔽而障	-12.0322
象即仿像也又云罔象相求注云虚	-12.0322
貿	-12.0322
身處幽冥心不樂也	-12.0322
軍賤辱係	-12.0322
輜軿車前衣車後也從楚	-12.0322
道不立心中怛然而氣熱	-12.0322
隄首人也服八	-12.0322
雅鶬麋鴰注云即鶬	-12.0322
露雞露棲之雞也有	-12.0322
音耎胹音而釋文作	-12.0322
風俗塵濁不可居也	-12.0322
鴰也徐朝七喻云	-12.0322
鵕䴊浚儀二音釋	-12.0322
䀜	-12.0322
䌌	-12.0322
一曰愁鬱鬱兮補	-12.0322
七古切茅藉祭也鮑欽止本云	-12.0322
上指北辰訴	-12.0322
上衣濡濕而掩霜露單行獨處	-12.0322
下有茯苓上有兔絲	-12.0322
不得竭其忠誠心中愁悶展轉怫	-12.0322
不足以解憂猶顧視楚國愁且思也	-12.0322
不顧其死特立獨行自信而不	-12.0322
並甘臭惡不知人者信任讒佞故忠信之	-12.0322
乃與佞臣之同情	-12.0322
之庭被服雲氣而通神明	-12.0322
之歌皆要妙之音可	-12.0322
之焉薄瞭杳杳而薄天並	-12.0322
乗鄂渚而反顧兮	-12.0322
也或曰伏戲駕辯皆要妙歌	-12.0322
也或曰糾鏘鳴兮琳	-12.0322
也極中也浮浮行	-12.0322
也言飛鳥走獸	-12.0322
云望孟夏之短夜	-12.0322
云琅玕是石之美者明瑩若珠之色此言	-12.0322
五臣云坎壈困窮也	-12.0322
五臣又云啓開也言禹開樹此樂謬矣	-12.0322
人所賤繫也獲	-12.0322
以服事殷周之德可	-12.0322
似水經云峯秀數郡之間異	-12.0322
何險巇之嫉妒兮	-12.0322
作庬史記朴作樸	-12.0322
使之稽留因	-12.0322
信善而可服事者乎言	-12.0322
俱物巨物二	-12.0322
傷時旻天兮	-12.0322
僞其性不同也一云	-12.0322
僵仆也補曰怛多	-12.0322
公子當復誰畏懼	-12.0322
冀壹反之何時	-12.0322
切儒行云不充	-12.0322
博經云所擲頭謂之瓊瓊有五采刻	-12.0322
叔齊伯夷弟也言已獨	-12.0322
叔齊叔齊不肯	-12.0322
受兄弟弃國俱去之首陽山下周武王	-12.0322
可據行願立師曠使正	-12.0322
可淹一云時不見淹五臣云	-12.0322
可辯數九功之	-12.0322
告於天冀君覺寤且解憂思	-12.0322
周鼎夏禹所作鼎	-12.0322
咎過也言車載衆輕之物以折其軸而不	-12.0322
噭呼也楚謂	-12.0322
囘傾地夷羿	-12.0322
城十二月戊申縊	-12.0322
執組猶織組也	-12.0322
執轡如組一無能字補曰組	-12.0322
多糾錯而鳴其聲	-12.0322
大夾王母三鳥王母使也出山海	-12.0322
天下也論語曰三分天下有其二	-12.0322
天庭據光曜	-12.0322
夷齊所居此山是矣	-12.0322
孔一作珪璋補曰	-12.0322
宫猶室也爾雅曰	-12.0322
寒節至也洌一	-12.0322
察篤夭隠	-12.0322
寮	-12.0322
將送往勞來	-12.0322
展轉反側言	-12.0322
巳盡忠近於危殆一	-12.0322
庭經云恍惚之間至清靈	-12.0322
後辨騷劉勰自風雅寢聲莫或抽緒	-12.0322
徐徘徊於山阿兮	-12.0322
心意和利動作	-12.0322
心終不徙願志行流於後	-12.0322
志也令急風疾則	-12.0322
念楚國願得君命進道北行	-12.0322
怐	-12.0322
怠懈必去卜筮之法不能	-12.0322
惶遽欲急去	-12.0322
愈琴操云臣罪當	-12.0322
意如字一音博下文忽	-12.0322
慍	-12.0322
懐忠正而君不知羣下	-12.0322
所謂不由其道者而以	-12.0322
放行山野下裳襜襜	-12.0322
文云局戲也六箸十二棊也	-12.0322
文王木主載	-12.0322
新城國語云雉經	-12.0322
於手而盡馬力也詩云	-12.0322
昭世尊嘉蓄英	-12.0322
時亦冉冉而將至	-12.0322
曰上句皆原所從也下句皆原所去也卜	-12.0322
曰季咸又有巫咸	-12.0322
曰淮南曰扶桑受謝日炤宇宙炤	-12.0322
曰鬋音翦女鬢垂	-12.0322
曲也勞絞也以楚聲	-12.0322
曵引也晧旰光也彗一作篲	-12.0322
有璆琳琅玕	-12.0322
有異藝之文采也史記余作	-12.0322
本志也補曰苴釋文	-12.0322
東門遥望首陽岑下有採薇士上有嘉樹	-12.0322
條直爲材壯大爲朴壯一	-12.0322
極也廩一作壈	-12.0322
欒	-12.0322
次餘昧次季	-12.0322
欲徙意改操隨俗佞	-12.0322
此而成文於彼善御者亦動之	-12.0322
此言文王秉鞭作牧以事紂	-12.0322
殊形能感楚人故異之而使之	-12.0322
殷亡傳周比三代莫敢發也至	-12.0322
永宜厥身保壽命只	-12.0322
汚原何哉詩人稱莊姜之賢曰	-12.0322
海津也西方庚辛其帝	-12.0322
淵木莖非能長也所立者然也注引陶	-12.0322
無所告語閉我之口不知所言衆	-12.0322
無有制止之者也以言	-12.0322
無罪受罰故我心懮懮而	-12.0322
物而不慴是也釋文遌五各切心不欲見	-12.0322
王前驅淮南曰令	-12.0322
琅糾錯也琳琅聲也謂帶劒佩衆	-12.0322
琦一作竒補曰琦	-12.0322
瑟造駕辯之曲楚人因之作勞商	-12.0322
璆琳琅皆美玉名也爾雅曰	-12.0322
璆琳美玉名琅玕狀	-12.0322
甑子孕切窐音	-12.0322
疑似也山有九峯其形相	-12.0322
痛君不明信用羣小國將危亡忠誠之情	-12.0322
白如玉黛畫眉鬢黒而	-12.0322
皇即少昊也離騷	-12.0322
盈君之耳亦可令忠直之士失其	-12.0322
相射流矢交墮壯夫奮怒	-12.0322
瞀亂也實是也徂去也言	-12.0322
禹湯文王之法下言羿澆桀紂之失以風	-12.0322
稱也罵奴曰臧罵婢曰獲男	-12.0322
結旋也飛谷日所行道也言乃	-12.0322
經曰召西皇使渉	-12.0322
維五臣云言桀紂苦人使亂用捷疾	-12.0322
緹	-12.0322
織組者動之於	-12.0322
而舞也補曰相如賦云鄭女	-12.0322
聖眩於名實昧於施報	-12.0322
聞南藩樂而欲	-12.0322
腥臊臭惡也御	-12.0322
自勉修善身雖遭	-12.0322
菎玉也蔽簙箸以	-12.0322
蓬龍猶蓬轉風	-12.0322
行正直願引日月使照我情	-12.0322
被疾憂懼恐	-12.0322
補曰二八巳見舞賦	-12.0322
補曰記云祭祀之有尸	-12.0322
視意欲一還知當何時	-12.0322
言已放逺日以曼曼周流	-12.0322
言復有美女用志滑易	-12.0322
言文公遂以介山之民封子推	-12.0322
言皇天不純一其施則萬物	-12.0322
託載日月之光耀也楚	-12.0322
詩曰巧笑倩兮美目盻兮大招曰靨䩉	-12.0322
語注以蒲坂	-12.0322
謝去也巫陽言如必欲先筮問	-12.0322
謹善也豐大也	-12.0322
豐隆求宓妃鴆鳥媒娀女詭異之辭也康	-12.0322
貧士失職	-12.0322
赴江湘之湍流兮順波湊而下降	-12.0322
蹇兮姣服言神降而託於巫也下文亦曰	-12.0322
退將復脩吾初服	-12.0322
遭夜之方長此	-12.0322
遭憂作辭也是時周室	-12.0322
遻	-12.0322
邪要垂衆佩周旋而舞	-12.0322
重我絳袍采色鮮也襲一作龍	-12.0322
錠	-12.0322
鑣勒也銜飾口鐡也	-12.0322
降者神降多以夜陳	-12.0322
陳藏器云此即是零陵	-12.0322
隂盡極也補曰上云曼	-12.0322
隂臣也陽君也言楚王惑蔽羣	-12.0322
雖見放逐猶折香	-12.0322
青驪結駟兮齊千	-12.0322
馳騖至於暮夜乃	-12.0322
騷曰紉秋蘭以為佩又曰秋蘭兮青青	-12.0322
鴟夷滑稽顔師	-12.0322
黸	-12.0322
世追先祖也一本欲上	-12.0323
云指居桀切橋音矯	-12.0323
張揖云指橋	-12.0323
有遂字一云欲逺	-12.0323
隨風指靡也担釋文云音丘列切舉	-12.0323
一作矯補曰恣千咨	-12.0323
出鍾山西行注云今西海居延澤尚書	-12.0323
則色純黒昔	-12.0323
所謂流沙者形	-12.0323
無離絶之義也五臣曰	-12.0323
睢許鼻切恣睢自得	-12.0323
縱心肆志所願	-12.0323
與君同姓共祖	-12.0323
言人交接初淺恩不甚篤則輕	-12.0323
賢而隱代胥	-12.0323
道常使胥靡刑人築	-12.0323
9	-12.0323
姜姓也未遇之	-12.0323
掔	-12.0323
擥持也根以喻本文選擥作掔	-12.0323
而生蘂實也累香草之實執持忠信	-12.0323
不難夫離別兮	-12.0323
傅說之託辰星兮	-12.0323
精豈河伯也馮夷得道	-12.0323
龜策誠不能知事	-12.0323
之山河伯無夷之所都	-12.0323
之至也魂附於氣氣又附	-12.0323
乗太一神象之轝而遊戲也補曰淮南云	-12.0323
也傷一作慯五臣	-12.0323
云載玉女而與之歸張揖	-12.0323
人之心而以伐桀誰使	-12.0323
夷即馮夷也淮南又作馮	-12.0323
女於後車以侍棲宿也補曰大人賦	-12.0323
子釋鬼篇曰馮夷以八月上	-12.0323
宗殺孝巳是也何况不智之君	-12.0323
尚矣商時又有巫咸也莊	-12.0323
庖犧氏皓一	-12.0323
所至仰見飛龍翩翩而上將有所登自傷	-12.0323
攀北極而一息兮吸沆瀣以充	-12.0323
文寐覺而有信曰寤	-12.0323
曰相息亮切言觀民之䇿此	-12.0323
曰馮夷華隂	-12.0323
曰鯀婞直以亡身兮	-12.0323
月俱逝願長與橘	-12.0323
有還意也疑一作凝五臣云容與徐動	-12.0323
極窮也言前觀湯武之所以興顧視桀	-12.0323
櫂船猶不進隨水	-12.0323
治後遂相背	-12.0323
游戲雖行逺方動以	-12.0323
潼	-12.0323
爾疾其君初欲與	-12.0323
王不明而曰哲王者以明望之也	-12.0323
疑惑也滯留也言	-12.0323
相與不厚則長相怨恨	-12.0323
知巳之志也疑一作嶷	-12.0323
破裂心剖	-12.0323
者戀楚國也補曰江淹賦云舟凝滯於水	-12.0323
而多闇蔽固其	-12.0323
自虞帝始其於君臣之際	-12.0323
西北陬弱水出其西南陬河水入東海三	-12.0323
言吾行忽然過此	-12.0323
訪也東方甲乙	-12.0323
赤水出其東南陬河水出其東北	-12.0323
載玉女於後車	-12.0323
輜軿侍從響雷震也補曰	-12.0323
重言之也下文亦曰覽相觀於四極與左	-12.0323
關梁閉而不通	-12.0323
雨降而萬物殖故以風雨	-12.0323
魄曰鬼合鬼與神	-12.0323
一作於補曰山海經西方神蓐	-12.0323
上政迷亂則下怨父	-12.0323
下也左傳云昔有夏之方衰后	-12.0323
下用之天問亦云	-12.0323
不可去乎有比干以任責	-12.0323
不遇明時而當暗	-12.0323
之以渡似周穆王之越海比鼉黿以	-12.0323
之維注云四角	-12.0323
之芭一作巴補曰芭	-12.0323
之蕩兮補曰今詩作湯湯蕩	-12.0323
乎一無又字代一作伐補曰	-12.0323
也以言讒口衆多	-12.0323
也其字從目並	-12.0323
也孔子曰詩可以怨孟	-12.0323
事也言世之人臣誰有不行仁義而	-12.0323
云喻信詐僞	-12.0323
亡三代之王是不	-12.0323
介節也言巳能守	-12.0323
以姱麗亦復慕我有善行	-12.0323
以車中軍武王自稱太子	-12.0323
但指諸星運轉	-12.0323
使異姓代之	-12.0323
使雄鳩銜命而往多言無實故中心狐疑	-12.0323
倔	-12.0323
兩頭當中名	-12.0323
公姬毒而獻之泣曰賊由太子太	-12.0323
兵遂入郢懷王與秦戰	-12.0323
其寒微大寒之分其熱	-12.0323
其左也補曰前漢地	-12.0323
其枘則物不固而木破矣臣不度君賢愚	-12.0323
其業育養品類故九州之物皆	-12.0323
利用厚生謂之三事	-12.0323
卒太子王僚立闔廬諸樊之	-12.0323
卜加切司馬相如	-12.0323
厲王之末發而觀之	-12.0323
去故鄉而就遠兮	-12.0323
及羮詩云誰謂荼苦其甘如薺又曰	-12.0323
受禮天下言受王者之	-12.0323
可乆處當急來歸也一云時不淹一	-12.0323
可任用誰有不行	-12.0323
吳王子孫世盛以伍子胥	-12.0323
回傾地夷羿弊	-12.0323
在櫝而藏之夏亡傳殷	-12.0323
士飛行天下以求同志續以	-12.0323
夢卒有子四人長諸樊次餘祭	-12.0323
夢澤之中課第羣臣先至後	-12.0323
夫唯捷徑以窘	-12.0323
女以驪姬歸生奚齊驪姬嬖欲立其子使	-12.0323
好姿故來見其容也善	-12.0323
姣好也服飾也姣一	-12.0323
媒理斷絶無因縁也	-12.0323
子去之可也楚無	-12.0323
子曰小弁之怨親親也親之過	-12.0323
季子季子即不受國光父先立即不	-12.0323
宫處妾遇之而孕	-12.0323
害也補曰史記武王東觀兵	-12.0323
山鬼無形其情狀難知故含睇	-12.0323
師望在肆昌何識鼓刀揚聲后何喜	-12.0323
師言吾先公望子	-12.0323
序而可歌也左氏傳曰六	-12.0323
府三事謂之九功九功之	-12.0323
引本草云薺味甘人取其	-12.0323
弟四人當傳至	-12.0323
後之讀其文知其人如賈生者亦鮮矣然	-12.0323
得九辯與九歌以下	-12.0323
怪之談異乎經典如	-12.0323
恐髙辛之先我	-12.0323
或言周文王夢天帝立令狐之津太公立	-12.0323
或黕㸃而汙之	-12.0323
抵相類但蘭草	-12.0323
放逐猶徘徊而不忍	-12.0323
文云南楚謂眄曰睇眄眠	-12.0323
文王夢得聖人於是出獵而	-12.0323
文章而避之也言俗人朋黨恣	-12.0323
文選云秋蘭被涯	-12.0323
文選桂誤作旌	-12.0323
文音奴又女家切	-12.0323
施明燭觀其鐙錠雕鏤百獸華竒好備	-12.0323
日夜兾相逢遇也文選云	-12.0323
日夜相承四時不	-12.0323
昌賜汝名師文王再拜	-12.0323
曰窈窕淑女言山鬼之	-12.0323
有雲夢先儒云左傳楚子與鄭伯田	-12.0323
木使之茂盛傷	-12.0323
木端所以入鑿	-12.0323
札公子光者諸樊之子也以	-12.0323
極大舉類邇而見義逺其志絜故其稱物	-12.0323
此言荼苦而薺甘不同	-12.0323
死猶兾其感發而改行使百世	-12.0323
水用碁十二枚六	-12.0323
沃姬謂太子曰君夢齊姜必速祭之太子	-12.0323
治必以信誓相	-12.0323
注云皆天帝樂名啓登天而竊以	-12.0323
浩猶浩浩蕩猶	-12.0323
淫邪也言衆女嫉妬蛾眉美好之人譖而	-12.0323
焉鏘佩聲也詩	-12.0323
無夫而生子懼而弃之時	-12.0323
無所載任也以言	-12.0323
煌	-12.0323
王作興盍往歸之至於朝歌道窮困自鼓	-12.0323
生不得力爭而強	-12.0323
生據時所見	-12.0323
生曰草枯曰苴比合	-12.0323
生水傍葉光潤尖長有岐隂小紫花紅白	-12.0323
用山海經而劉勰辨騷以康	-12.0323
發言奉文王以伐不敢自專	-12.0323
百六十五度一度	-12.0323
皆可歌也謂之九歌水	-12.0323
皆歸於中理而	-12.0323
相呼則芳草合其莖葉芬芳以不暢	-12.0323
相安居無憂日作淫樂忘其過惡卒	-12.0323
相續年命將老不	-12.0323
眇之節不用於	-12.0323
禮於天下也有德則興無德則	-12.0323
穆天子傳曰遂宿于崑崙之阿赤水之	-12.0323
積辛夷露而暴	-12.0323
笯籠落也徐廣曰	-12.0323
紫相亂國將傾危也夫君不思慮則忠臣	-12.0323
綠葉兮素枝	-12.0323
而屠遂西釣於渭	-12.0323
而用之矣補曰窈音	-12.0323
而陞朝庭賢者當居	-12.0323
臣子之義盡矣非死	-12.0323
興賢臣難進	-12.0323
良巫也君謂原言良巫背行	-12.0323
芭而舞訖以復傳與他人更用	-12.0323
苦鹹酸辛甘皆和之使其味行	-12.0323
草其葉適齊白芷萌	-12.0323
菜秀是也葉似苦苣而細花	-12.0323
蜀漢商浙間亦種之香美逾於諸粱	-12.0323
衆女謂衆臣女隂也	-12.0323
行悖惑則子	-12.0323
西京賦云叛赫戲以	-12.0323
見於左氏傳夫一作以一無夫字	-12.0323
言楚王方建道	-12.0323
言美女工舞	-12.0323
詞爾一作尒宇一作	-12.0323
誅兮天王聖	-12.0323
誅其頭顚隕而墜地自此以上羿澆寒浞	-12.0323
誠可師用長老而事	-12.0323
論前意反覆	-12.0323
譖出奔齊楚介子推從行道乏糧割股肉	-12.0323
賢聖兮訟謂閭娵	-12.0323
賦云椒丘之闕服䖍云丘名如淳云丘多	-12.0323
賦云諸柘巴且注云巴且草一名	-12.0323
足以觀察萬民忠佞之謀窮其	-12.0323
辛夷香草也言山鬼出	-12.0323
遵循也路正也堯	-12.0323
阽猶危也或云阽近也言	-12.0323
隣此逺游之所以作	-12.0323
難屈原雖死猶	-12.0323
雪先集維霰霰	-12.0323
霙也一曰雨雪雜	-12.0323
霰雪雰糅其増加兮	-12.0323
露暴也申重也叢木曰林草木	-12.0323
頹	-12.0323
驕敖放恣無有思慮終不省察萬民善	-12.0323
魯直說與此異	-12.0323
黿入王後宫後	-12.0323
持萬民死生之命也	-12.0325
隂主殺陽主生言司命常	-12.0325
一作汙補曰漸子	-12.0325
一佩易之漸浸也管子云五沃之土	-12.0325
五臭疇生蓮與	-12.0325
蘪蕪藁本白芷本草云	-12.0325
下是其宵征征行	-12.0325
蟋蟀入我牀	-12.0325
􁉊	-12.0325
􁥠	-12.0325
浙	-12.0325
為衣裳被服愈潔修善益明	-12.0325
異竊慕向襃之風作頌一篇號曰九思以	-12.0325
盛也言蓬蒿蕭艾入御房	-12.0325
踊躍而欣喜也補曰踸勑錦切踔勑角切	-12.0325
馬蘭之草踸踔暴長而茂盛也以言佞	-12.0325
馬蘭惡草也踸踔暴長貌也	-12.0325
之言堯舜至聖道	-12.0325
切亦持也荀子云蘭槐之根是	-12.0325
叢子羊客問於子思	-12.0325
呵罵遷怒妄誅戮	-12.0325
團	-12.0325
愚夫之所賤也今若屈原膺忠貞之質體	-12.0325
文王執鞭持政	-12.0325
死不還補曰耿古幸切	-12.0325
無淈滑而魂補曰淈滑並音骨	-12.0325
秉執也鞭以喻政言紂	-12.0325
秦所誘客	-12.0325
萹音匾爾雅曰竹萹蓄注云似	-12.0325
雍州之牧也補曰号與號同孔	-12.0325
鳫	-12.0325
使不得進也補曰狺音垠犬	-12.0325
切硊魚毀切並石	-12.0325
又貫累香草之實	-12.0325
堙息壤招帝震怒賦刑在下投	-12.0325
如川不可度量情	-12.0325
寐耿一作烱補曰耿烱	-12.0325
戚目不眠也耿耿猶儆儆不寐	-12.0325
擥木引堅據持根	-12.0325
曰心合於氣氣	-12.0325
曰繹抽絲也	-12.0325
水與天合物漂流	-12.0325
祚	-12.0325
而在側也五臣云狺狺開口	-12.0325
行清潔者佩芳	-12.0325
補曰戚慼蹙	-12.0325
見過愁懼惶也戚一作慼文	-12.0325
言已身被疾病	-12.0325
過也故巳見之中心	-12.0325
隨君嗜欲而	-12.0325
離忠直使得罪	-12.0325
一作移補曰艾㣻並音	-12.0325
不忠則怨而責之巳	-12.0325
丘在西方巫咸在其北注云巫咸知天道	-12.0325
人皆濁史記作舉	-12.0325
作涼補曰軼音	-12.0325
其字从仌上音洛	-12.0325
其帝太皓其神	-12.0325
初既與余成言兮	-12.0325
匪解以事一人乎士見危致命况同姓兼	-12.0325
南神止我令北征也還	-12.0325
去國日已逺也或曰枉	-12.0325
哲智也寤覺	-12.0325
因氣變而遂曽舉兮	-12.0325
國語曰夏之興也祝	-12.0325
壬癸其帝顓頊其神	-12.0325
天火下覩海	-12.0325
害賢良故自	-12.0325
將去枉曲之俗而	-12.0325
巫孔巫抵巫謝巫羅	-12.0325
巫從此升降淮南	-12.0325
帝之邑宇也補曰北方	-12.0325
強形弱則氣弱魂以氣強魄以形強淮南	-12.0325
懲艾而心終不移易也艾	-12.0325
成冰補曰集韻氷謂	-12.0325
或沉淪其無所	-12.0325
方祝融獸身人面	-12.0325
曰踥思葉切蹀	-12.0325
曲也陼沚也辰時也	-12.0325
桀先挑之也挑一作祧	-12.0325
榮流名於後	-12.0325
注伍子胥作申包胥然上文有申子注云	-12.0325
流沙遂循赤水而	-12.0325
混濁而我獨清衆	-12.0325
滋蘭之九畹	-12.0325
澤廣逺道路	-12.0325
獨悁悒煩毒	-12.0325
白虎前朱鳥後	-12.0325
美也若一作弱臑一作	-12.0325
芳草使不得安以言讒人亦	-12.0325
芷葺兮荷屋繚之兮杜蘅	-12.0325
藏府也源一	-12.0325
衆貪鄙也一作世	-12.0325
解也言思君之心常不	-12.0325
調和也言人不	-12.0325
譛	-12.0325
豺似狗言宰夫	-12.0325
超過海津長訣去也	-12.0325
轉也楚詞云筦維焉繫此	-12.0325
辰陽亦地名也言已乃從枉陼宿	-12.0325
馳驂徘徊睨故	-12.0325
㕑	-12.0325
㕸	-12.0325
㝅	-12.0325
䧺	-12.0325
䰟隂主魄故必	-12.0325
一作珎怪一作恠補曰珎恠皆俗	-12.0325
一旁行四表之中冬南夏北春西秋東皆	-12.0325
一曰美玉也瑱壓也音鎭下文云白玉兮	-12.0325
一無復字五臣云尤過也	-12.0325
一無陟字陞一作	-12.0325
三畫者謂之黒一邊不	-12.0325
不容於世雖飢	-12.0325
不止乃上遊	-12.0325
不能隨從俗人傾易	-12.0325
且欲須臾以忘憂思中心漸漸錯	-12.0325
世一作時昡一作眩補	-12.0325
中四方珍竒玩好	-12.0325
中衆人貪佞故託	-12.0325
中見三鳥飛從南	-12.0325
之不過哀其不遇而	-12.0325
之中獨何以安之乎戴	-12.0325
之使死於林薄之中猶言取賢	-12.0325
之南有小山西瞻宫闕北望夷齊又阮籍	-12.0325
之士當復何望	-12.0325
之女工巧妍雅	-12.0325
之心以量清潔之士壹或作	-12.0325
之間九十一度注云自東	-12.0325
之靡奔有鬲氏浞因羿室生	-12.0325
九牧鑄鼎象物桀有	-12.0325
也一無者字一云懲於熱	-12.0325
也五臣云今觀我之初志終	-12.0325
也史記云窮不得余所	-12.0325
也巍釋文作魏音危補曰	-12.0325
也文選釃作醨五臣云餔糟歠	-12.0325
也方林地名言我馬	-12.0325
也此以椒丘對蘭	-12.0325
也江沅之間謂戲	-12.0325
也獲生禽者也皆	-12.0325
也窘急也言桀紂愚惑	-12.0325
也言已惟思君行紀數其過	-12.0325
也言祠祀作樂	-12.0325
云天是太虚本無形體	-12.0325
云旋風曲戾猶	-12.0325
云知衆嫮之疾妬兮何必揚	-12.0325
云藑葍一種花有赤者	-12.0325
五臣云九數之極也以此遇害雖九死無	-12.0325
五臣云委曲順俗也	-12.0325
五音紛兮繁會	-12.0325
人所係得也賤	-12.0325
人欲上天而釋其階知其無	-12.0325
仙人王僑得道	-12.0325
代君與之易位自傷	-12.0325
余帶佩衆香行以忠正之故也	-12.0325
余觀自古忠臣義士	-12.0325
余馬於蘭皋兮	-12.0325
作樂急疾擊皷以稱神意	-12.0325
作踈補曰内舊音訥	-12.0325
使人追之不及三十年秦昭	-12.0325
來觀察其志欲北渡江縱恣自在也	-12.0325
俍	-12.0325
光也其字從日眩目無常主	-12.0325
兩畫者謂之白刻	-12.0325
公亦再拜太公	-12.0325
其過咎由重絫雜載衆多之故也以	-12.0325
典禮切低無	-12.0325
凌犯也躐踐也言敵家來侵凌我屯陣踐	-12.0325
切下云解佩纕以	-12.0325
切列子曰帝馮怒	-12.0325
列仙傳曰有巨靈之	-12.0325
則無所集欲止又不見用憂懣	-12.0325
動鳴五玉鏘鏘而和且有節度	-12.0325
十一萬九千里淮南云兩維	-12.0325
原去則國從而亡故雖身	-12.0325
原履行清潔以厲其	-12.0325
厥嚴不奉帝何求	-12.0325
厲又廣志云蕙草	-12.0325
去之賢臣驚怖奔亡	-12.0325
及南北江獠人凡禁呪句尾皆稱些	-12.0325
及驟處兮誘騁先	-12.0325
古人云與不善人	-12.0325
可以不死乎且比干之死	-12.0325
合同並肩親	-12.0325
吉良之日齋戒恭敬以宴	-12.0325
同其志也五臣云所思	-12.0325
名曰素餐也釋文作食音	-12.0325
后布幣糈而告之龍亡而漦	-12.0325
吐忽切滑也滑音	-12.0325
君之道不明審	-12.0325
君蹇然難行誰留待於水中	-12.0325
君闇不明羣下貪	-12.0325
周禮玉鎭大寶器故書作瑱鄭司農云瑱	-12.0325
周鼎言甂甌之器登	-12.0325
命而有殷國因	-12.0325
咎也古本仰作卬五臣云衆人皆	-12.0325
哀獨苦死之無樂	-12.0325
商商紂暴虐鼎遷于	-12.0325
嘉南州之炎德兮	-12.0325
器也轉注吐酒終日不巳	-12.0325
土大社美太王之社遂	-12.0325
在列肆文王親往問之對曰下屠屠	-12.0325
在水涯以言小人	-12.0325
坈	-12.0325
執守忠直終不可移	-12.0325
増城九重其高	-12.0325
壹隂兮壹陽	-12.0325
多口妄鳴以喻讒佞言楚	-12.0325
夢卒太子諸樊立諸樊卒傳弟餘祭	-12.0325
天子藩蔽故稱藩	-12.0325
天耳天如彈丸圍圜	-12.0325
夫人比鄰而處然猶積聚衆	-12.0325
奴走横奔也一作駒	-12.0325
妬欲共被離摧折而	-12.0325
始去遂渡江湘之水言明旦	-12.0325
姓事君有死而巳屈原去之則	-12.0325
姜嫄為帝嚳	-12.0325
孽以亡其國也	-12.0325
寗戚謳於車下兮	-12.0325
察之也民一作人五臣云浩蕩法度	-12.0325
寳失其好也以言取賢	-12.0325
將歸自田家衆殺而亨	-12.0325
尊稱漢遂因之唐五臣注文選云古人質	-12.0325
屏風水葵也補曰	-12.0325
山徐顧睨也輿一作與	-12.0325
巳自悔恨相視事	-12.0325
常羊之維西北	-12.0325
幽處山野而無	-12.0325
幽都路窮塞也	-12.0325
庸字也屈原言我父伯庸體有美	-12.0325
廓抱景而獨倚兮超永思乎故	-12.0325
弃忠正易置禮	-12.0325
弆	-12.0325
從鬼神築室水中與湘	-12.0325
志南郡華容縣南有雲夢澤杜預云南	-12.0325
志欲以輔君反	-12.0325
忳徒渾切惽音昬	-12.0325
急則衆民愁而賢者	-12.0325
怪物無不畢具也珍	-12.0325
怪言縱觀房室之	-12.0325
恐年歲之不吾與	-12.0325
惜予年之未	-12.0325
惠所由出也五臣云	-12.0325
惡抱寳窮困而無所語	-12.0325
惡草也鞹革也論	-12.0325
愁思心中牽引而	-12.0325
愓	-12.0325
憂愁困極意欲隨	-12.0325
憤亂誠欲隨水沛然而	-12.0325
我志所樂終不悔恨	-12.0325
我行伍也躐一作	-12.0325
折若木以蔽日	-12.0325
捫	-12.0325
政治也補曰鞹去毛皮也本草澤	-12.0325
文媱曲肩	-12.0325
文質疏内兮	-12.0325
斯庸夫惡態之人也何者	-12.0325
施芳澤其芳	-12.0325
明之稱者以循用天地之	-12.0325
明也激感也言或有耳目沈沒無所照	-12.0325
明亦復不能通	-12.0325
明吉凶據此	-12.0325
明堂周鼎反藏	-12.0325
昡曜惑亂	-12.0325
春兮汩吾南征	-12.0325
昭君明下理	-12.0325
是善射之號此羿商時諸侯有	-12.0325
曦	-12.0325
曰匪陽不晞阿曲	-12.0325
曰山海經云夏后上三嬪	-12.0325
曰滑稽圜轉縱捨無窮之	-12.0325
曰臧守藏者	-12.0325
曰虎豹之鞹言取澤	-12.0325
曲名也言伏戲氏作	-12.0325
曽不若飛鳥也補曰	-12.0325
有七衡而六間相去合	-12.0325
有令名以及於	-12.0325
朝輔政治而與麋鹿同坈鳥獸	-12.0325
本無樂而二字補曰樂五効切注	-12.0325
本草鳬葵即莕菜	-12.0325
東有鳥䑕山亦謂之首陽又杜預云洛陽	-12.0325
杳窕徒了切方言云美	-12.0325
梅伯忠直而數諫	-12.0325
樂以自竭盡也補曰	-12.0325
正直之臣端其心	-12.0325
殿堂修飾彌盛行	-12.0325
汝謂司命九河天河也	-12.0325
江南之夢地理	-12.0325
池堯樂也承雲即雲門	-12.0325
河東蒲坂華山之北河曲之中蘇鶚演	-12.0325
注云吕望鼓刀	-12.0325
浞寒浞羿相	-12.0325
淆	-12.0325
清白之行恐不和	-12.0325
湛厚也詩曰湛	-12.0325
湛江水浸潤楓	-12.0325
滅二者殊義不可不察也五臣	-12.0325
漁制立庖	-12.0325
漠虚静以恬愉兮	-12.0325
澆及豷恃其讒慝詐	-12.0325
澤之中思慮憤積一哀一樂故	-12.0325
濟渡也澨水涯也自傷	-12.0325
烏活切非也淮南曰帝	-12.0325
無兩所字補曰此言沈淪於	-12.0325
無專擅之義猶	-12.0325
無所施也邸一作低補曰邸	-12.0325
然來迎二女則百	-12.0325
然猶復重引芳	-12.0325
然盛明志願	-12.0325
然而消散恨	-12.0325
猖	-12.0325
猖披衣不帶之	-12.0325
王少離散亡放在外乃使專設諸	-12.0325
瓊瑶瑱一作鎭補	-12.0325
生水中俗名水葵	-12.0325
田樹之詐慝以	-12.0325
田見識所夢載與俱歸以	-12.0325
留不死之舊郷	-12.0325
當世之人蔽美稱惡不能與之	-12.0325
當世之君皆闇昧惑亂不分善惡誰當察	-12.0325
皇作棲以鶉	-12.0325
皇飛騰兮又繼	-12.0325
知天生賢不虚出也	-12.0325
祭卒傳弟夷未夷	-12.0325
禍故將復去	-12.0325
禧	-12.0325
積冰雪雹	-12.0325
空穗滿田無所得也以言上不施惠則	-12.0325
穽不復乆也補曰坈	-12.0325
窮石因夏民以代夏政恃其射也不	-12.0325
竊怨君之不寤兮吾獨死而後	-12.0325
立冢土戎醜攸行	-12.0325
竒傅説之託辰星兮	-12.0325
筳音廷篿音專後漢方	-12.0325
管二音不殊近代流俗音	-12.0325
築杵而舂敗玉	-12.0325
粲	-12.0325
糶	-12.0325
紂紂怒乃殺之葅醢其身	-12.0325
結束執志彌篤也	-12.0325
綏	-12.0325
經韓愈詩云浪	-12.0325
緑葉兮素枝芳菲菲兮襲予	-12.0325
纍之蛾眉此亦班孟堅顔	-12.0325
纕佩帶也補曰纕息	-12.0325
罪過而身殆也自前世	-12.0325
習於禮節乃敢進也	-12.0325
翼猶不能容其形	-12.0325
者秋夜方長而夏夜最短憂	-12.0325
而並馳駕八龍之婉婉兮載雲	-12.0325
而就逺兮遵江夏以流亡	-12.0325
而臣隨也故以喻臣蛾眉好	-12.0325
而舞則進退容與	-12.0325
而藏之無益於用也以言養育小人置之	-12.0325
能文能質内以	-12.0325
能覺悟善惡之情	-12.0325
自明智之王尚	-12.0325
與唐堯也咸	-12.0325
舒憂娯哀兮	-12.0325
色䌌緶衣也七	-12.0325
芭巫所持香草名也代更	-12.0325
芳之君何必思故居而不去也	-12.0325
芳菲菲兮襲予	-12.0325
苧麻蒿上	-12.0325
草口甘其味	-12.0325
落矣以言君政	-12.0325
蓬萊之山而抃舞戲滄海	-12.0325
蔡邕云朕我也古	-12.0325
藑音瓊爾雅云葍藑茅注	-12.0325
蘓	-12.0325
蛾一作娥補曰反離騷	-12.0325
衆比周以肩	-12.0325
行衆善冀若	-12.0325
術傳曰挺專折竹注	-12.0325
衝飇暴風也補曰此二句河	-12.0325
衰也有二神龍止於夏庭	-12.0325
被服衆芳履行	-12.0325
補曰緹音提䌌	-12.0325
裮	-12.0325
要媱舞容	-12.0325
視也一曰目小視也	-12.0325
觀天火之炎煬兮	-12.0325
角而上者九萬里	-12.0325
言云臧獲奴婢賤	-12.0325
言天神衆舞皆	-12.0325
言已在於湖澤之	-12.0325
言巳雖升崑崙過不周渡西海舞九韶陞	-12.0325
言材木委積非	-12.0325
言秋風疾則草木揺湘水波而樹葉	-12.0325
言邑里之犬羣而吠者怪	-12.0325
訕身見排逐而	-12.0325
該亦備也言撰設	-12.0325
誅則風俗怨而生逆暴故民心不可不	-12.0325
誠可任用弃在山野亦	-12.0325
誠旣勇兮又以武終剛	-12.0325
謂之室言九侯	-12.0325
謂使童稚好女先倡	-12.0325
譬若王僑之	-12.0325
讒人所毀失其忠名也芷一	-12.0325
象履忠信願陳列	-12.0325
豫意欲自往禮又不可	-12.0325
貪濁善惡殽亂	-12.0325
賦鋪也詩志也言	-12.0325
身神人同好故折芳馨相遺以	-12.0325
軄	-12.0325
輿中塗以回畔兮駟馬驚而	-12.0325
轉隨俗也補曰文選注	-12.0325
送衆多如雲也如一作若	-12.0325
逮羅罔不能加也以言賢者	-12.0325
逸三蒼曰從後出前	-12.0325
逺放也補曰操七到切行下孟切攘而	-12.0325
逺方圖物貢金	-12.0325
遂載以歸用以	-12.0325
道乃使靈巫常持好劒以辟	-12.0325
道思者中道作	-12.0325
道舉賢任能使得萬事之	-12.0325
邪惡之氣及我形	-12.0325
郊祀志云宋太丘社亡而鼎沒于泗	-12.0325
量度也正方也枘所以充鑿	-12.0325
金匱曰北海之神曰顓頊淮南云	-12.0325
金匱曰西海之神	-12.0325
長嘯大呼以招君也夫嘯者隂也呼	-12.0325
除日月星辰	-12.0325
隂氣盛而多雨	-12.0325
隅日所行也言巳願託司命	-12.0325
雙陸碁也古博經云博法二人相對坐向	-12.0325
雲兮載赤霄而淩太	-12.0325
雷首山伯夷叔齊所居故云首陽山又隴	-12.0325
面白色有毛虎爪執鉞金神也太公	-12.0325
音習集韻緹赤	-12.0325
順滑澤也文選作絜五臣	-12.0325
風者雖流放廢斥猶知愛其君眷眷而不	-12.0325
飛廉奔馳而在前也先	-12.0325
飾衆香以崇其善屈	-12.0325
餓而死幸若叔	-12.0325
首頭也自上下曰顚隕墜也言澆	-12.0325
騷經云飄風屯其相	-12.0325
鳴求其羣而呼其耦鹿得美	-12.0325
鴳之籠雖翕其翅	-12.0325
麾津西海也蛟龍水虫也	-12.0325
鼇戴山抃何以安之	-12.0325
龍藏於旋淵故矰	-12.0325
情也導一作道坑一作	-12.0326
曰之適也坑音岡山脊也周禮職方	-12.0326
阬文苑作岡補	-12.0326
願修飾急疾齋戒侍從於君導迎天帝出	-12.0326
且戲觀望以	-12.0326
橫四海兮焉窮	-12.0326
之謂之二伯周自	-12.0326
也補曰櫂直敎切	-12.0326
兔絲也言山鬼仿佛若人見於山之阿	-12.0326
反旣有此他志	-12.0326
曰古之帝王中分天下而二公治	-12.0326
有維綱繫綴其際極安所加乎	-12.0326
正俗云聲類字林並音管賈誼	-12.0326
王者之後子孫據國至大	-12.0326
華飾之行也五臣云貫拾也蘂花心	-12.0326
言天晝夜轉旋	-12.0326
轂端沓也楊雄杜林云軺車	-12.0326
齊交又使誘楚請與俱㑹武關遂脅	-12.0326
中之門謂之闈	-12.0326
也浸一作侵補曰浸音侵浸	-12.0326
也然天文家朱鳥乃取象於鶉南方	-12.0326
何啓惟憂而能拘是	-12.0326
季以九命作伯受圭	-12.0326
宸	-12.0326
往恐危身些	-12.0326
往見太卜鄭詹尹曰	-12.0326
征伐此以諸侯	-12.0326
明故羣下好蔽忠正之士而舉邪惡之人	-12.0326
神明則駕蒼龍驂白虎其狀蚴虬	-12.0326
秬鬯之賜故文王	-12.0326
紛獨有此姱節	-12.0326
覆則其夜氣不足以存夜氣不	-12.0326
言周家選賢任士官得	-12.0326
語其作凝者傳	-12.0326
足以存則其違	-12.0326
一作昌釋文作倡披一作	-12.0326
一作韲補曰懲戒也	-12.0326
一無革字補曰禮云貫革之射左傳云蹲	-12.0326
一者自汧源縣西至	-12.0326
三者自開封縣東	-12.0326
上觀初世伏節之賢士	-12.0326
上言三后下言	-12.0326
下之别亦三矣其	-12.0326
下國遇太子曰夷吾無禮余得請於	-12.0326
不肯納恐重	-12.0326
丘而止息以	-12.0326
之䇿於是復用屈原屈原諫懐	-12.0326
之也此章有少歌有	-12.0326
之山有鳥焉其狀如	-12.0326
之馬於芳澤之中以觀聽	-12.0326
乎四方乎一作兮一	-12.0326
乎是難去之意也善惡一作中情	-12.0326
九辯云圜鑿而方枘兮吾固知	-12.0326
也一云垂髮鬢下鬋一云	-12.0326
也三者自平遥北山北至蕃	-12.0326
也易曰天險不可升語曰猶	-12.0326
也書曰造攻自鳴條朕載	-12.0326
也椒漿以椒置漿	-12.0326
也蕙香草以喻忠正之心	-12.0326
也言房内則以蒻席薄牀四壁及	-12.0326
乾五臣云后土地也補	-12.0326
云帝降夷羿革孽夏民馮珧利	-12.0326
云比宻也補曰好王	-12.0326
五臣云憚懼也時君王親射	-12.0326
交趾地名補	-12.0326
人家頗種之	-12.0326
以卜去留使明智靈	-12.0326
以手循其珥也博雅曰劒珥謂之鐔鐔	-12.0326
以自通也補曰釋名云階梯也	-12.0326
以飾劒故取以名焉	-12.0326
作鷤五臣云鷤鴂秋分前鳴則草木凋落	-12.0326
供待彌敬乃	-12.0326
信也余按本草引五芝經	-12.0326
倍也言選擇名工巧	-12.0326
偉之服履忠直之行至	-12.0326
偕俱也逝往也屈原幽居草澤思	-12.0326
傷矣或曰屈原見秋風起而木	-12.0326
分寒熱兼半北分大寒南	-12.0326
切桂置酒中	-12.0326
刻者五塞之間謂之五塞列子曰	-12.0326
則自歌自舞見則	-12.0326
力香切鑿音漕穿孔	-12.0326
北分外寒熱尤極大熱之分	-12.0326
又用魚二枚置於水中其擲采以瓊	-12.0326
取其國家内外咸服羿猶不悛	-12.0326
受遺玉帛將行就	-12.0326
句文選遊作游女作汝	-12.0326
召畢是雜用	-12.0326
后相也一本欲下有殺	-12.0326
君命也馳一作駝五臣云椒丘	-12.0326
君子得時則大行不得時則	-12.0326
和民不聞以亂以亂易	-12.0326
在庭中蛟當在深淵而	-12.0326
墮死也補曰羽山東裔此云西征	-12.0326
夜亡道聞後宫	-12.0326
大商洛間多有	-12.0326
天下大康寧上言鸞皇鸞	-12.0326
天也言天帝親致紂之罪罰故殷之命不	-12.0326
天道施行惶遽衣不及	-12.0326
如鸞皇先戒百官將往適道而君怠	-12.0326
媚于内施賂于外愚弄其民而虞	-12.0326
子文楚令尹也子文之母鄖公	-12.0326
子雲作反離騷以	-12.0326
字左傳云狐突適	-12.0326
孟子所謂完廪捐階是	-12.0326
審壹氣之和德	-12.0326
封狐大狐也言羿	-12.0326
射食亦切弓弩發也天	-12.0326
屈原有以美人喻君	-12.0326
山阜濡澤草木茂也而一作兮	-12.0326
工巧也男巫曰祝背	-12.0326
工纒而縛之堅而且好也	-12.0326
巳欲還則徐	-12.0326
帝嚳帝嚳次妃	-12.0326
帝矣又曰帝許	-12.0326
帝謂帝履癸即桀也挑	-12.0326
常畏愼而戒	-12.0326
幬輕且涼也補曰幬禪帳也音	-12.0326
干也不一作弗乗一	-12.0326
年時亦尚未盡兾若三賢之遭遇也其一	-12.0326
度也言堯放鮌羽山西行	-12.0326
度四分度之	-12.0326
度越岑巖之險因	-12.0326
康成云凡䤈醬	-12.0326
康滅之賈逵云羿之先祖也	-12.0326
張四維運之以斗東北	-12.0326
待賢主補曰諸侯之子稱公子謂子椒子	-12.0326
徐流則得安也	-12.0326
徒了切倉頡篇云挑招呼	-12.0326
志也雖與日月爭光可也斯可謂深知巳	-12.0326
悲霜雪之俱下兮	-12.0326
情不得發用安能	-12.0326
感天抑地而誰	-12.0326
憂者自哀生不當	-12.0326
懼也補曰詩云天鑒在下有	-12.0326
我中心之所美善也雖以見過支解九死	-12.0326
我嚴裝未具余一作我	-12.0326
我罰有罪矣敝於韓此	-12.0326
戲以佚畋獵又射殺大狐犯	-12.0326
所以能變更益	-12.0326
所從乃取神草竹筳結而折之	-12.0326
招呼君倍道先行導以在前	-12.0326
挟	-12.0326
揺漢宫殿中多植之至霜後	-12.0326
政事法度浞交接國中布恩施德	-12.0326
故也降乎攻切見	-12.0326
救也一云上帝之罰補曰此言紂	-12.0326
文云楓木厚葉弱枝善	-12.0326
文選作掔五臣云茹臭	-12.0326
方也壟一作隴補曰集韻	-12.0326
旦起陞山采木	-12.0326
旨	-12.0326
春秋合誠圖云軒轅	-12.0326
是囚違虐立	-12.0326
暮而功不成事	-12.0326
曰茹文選音汝	-12.0326
曲之徑欲急至也五臣云轉道於洞庭湖	-12.0326
曲木截仁義進則讒佞	-12.0326
有亂少歌之不足則又發其意而	-12.0326
有娀氏女生契言巳	-12.0326
本故勞苦倦極	-12.0326
楚國有臣而可止乎恖古文思	-12.0326
横大江兮揚靈	-12.0326
欲復去也一本忍下有而字釋文古音故	-12.0326
正也夫先三后者據近以及	-12.0326
殿之中其閨深	-12.0326
民事而淫于原	-12.0326
沙州二者自開封縣西至汧源縣	-12.0326
沛吾乗兮桂舟	-12.0326
沛然而行常香	-12.0326
没也濟成也言	-12.0326
治水土百姓得下種百	-12.0326
波之氣共相交通又曰湘水出	-12.0326
流沙則禹貢	-12.0326
漢有吕須取此	-12.0326
漢諸池苑及許昌宫中皆種之	-12.0326
潔之士若屈原者也言山鬼修	-12.0326
澤中水溢出所	-12.0326
濯淖汚泥之中以浮游塵	-12.0326
父死稱考詩曰	-12.0326
爾雅衣眥謂之襟襟交領也浪	-12.0326
獸寒浞伯明氏之讒子弟也信而使	-12.0326
王曰何不殺張儀	-12.0326
珥謂劒鐔也劒者所以	-12.0326
瑶石之次玉者詩云報	-12.0326
由登也以言我欲事君	-12.0326
界北海也故南分大熱中	-12.0326
白露既下百草兮	-12.0326
百神翳其備降兮九疑繽其並	-12.0326
皇皇天也赫戲光明	-12.0326
相羊無所據依之	-12.0326
知其態也一云萬	-12.0326
石則茂沃以	-12.0326
禍也補曰此言聲有隱	-12.0326
秦不返故屈原徴荆	-12.0326
竊不敢忘初之厚徳	-12.0326
章即其反辭	-12.0326
箕子紂之庶兄見比干	-12.0326
篁竹林也五臣云幽深也篁竹叢也補曰	-12.0326
累其鱗則蛟龍	-12.0326
美好眇然絶異又配帝	-12.0326
羑	-12.0326
羿堯時亦有羿	-12.0326
者工之法度也仁義	-12.0326
者民之正路也	-12.0326
者自漢江北至平遥縣	-12.0326
者自西徂東也上文	-12.0326
而先倡者然明者察	-12.0326
而釋忠信亦知終無	-12.0326
自亳天對云湯行不類重泉	-12.0326
與帝舜言稱朕屈原曰朕皇考至	-12.0326
與此闇亂之君終古而	-12.0326
與王者王者何不	-12.0326
與衆同皆來實	-12.0326
茍余心其端直兮	-12.0326
蓋覆也言讒人長於巧詐	-12.0326
薑蒜辛物	-12.0326
行地底數里至楚	-12.0326
行身將死亡	-12.0326
補曰邅池戰切文選音陟連切原欲歸而	-12.0326
補曰顔之推云六	-12.0326
要眇而好又	-12.0326
言我累息而懼鬱邑而	-12.0326
言皇天集禄命而	-12.0326
言祠祀九神皆先齋戒成其禮敬	-12.0326
誅之長無害於其身也䠶一作射	-12.0326
誤欲去之路尚未甚逺也	-12.0326
誨也木蘭去皮不死宿莽遇	-12.0326
論其詞以相傳焉	-12.0326
識路知道路也營一	-12.0326
讒人雖欲困巳巳受天性終不可變易也	-12.0326
賢智者亦以其行	-12.0326
轉易其辭前後	-12.0326
辟實罪德之由師	-12.0326
逺忠言難通指語不	-12.0326
違廢聖典	-12.0326
郡枝江縣西有	-12.0326
里也楚人名里曰閈也	-12.0326
長歎心中憂思也五臣云秋冬之風	-12.0326
陗	-12.0326
陸地而朝者三十六國穆王後得驥	-12.0326
隠㞶山以清江	-12.0326
難入夫邪佞在前而	-12.0326
韓退之則以湘君	-12.0326
音決一音弟桂一音殄絹反離騷云徒恐	-12.0326
馳不出湘潭之間補	-12.0326
馳大區大人	-12.0326
駕龍輈兮乗雷	-12.0326
騷經天對云益革民艱咸粲厥粒惟	-12.0326
龍而歸不敢隨從大道願轉江	-12.0326
黯	-12.0328
硬	-12.0328
曰天地之間九州八極土有九	-12.0328
槀本漸於蜜醴	-12.0328
稽泰山王屋首山太華岐	-12.0328
稽衡山華山沂山岱山嶽山醫無	-12.0328
閭霍山恒山也淮南	-12.0328
上竹交下陟	-12.0328
先造父以善御幸於周繆王得	-12.0328
御民以道須明君	-12.0328
何葯一作蘭衡一作蘅	-12.0328
士當奈世人不知賢	-12.0328
文云踸踔行無常	-12.0328
騷不知王逸奚罪其文	-12.0328
也方言陳楚謂之笫又阻史切	-12.0328
玖	-12.0328
者也孔安國曰	-12.0328
魚鱗屋兮龍堂	-12.0328
云桂蘭取其香	-12.0328
作慄斯一作嘶一作促訾	-12.0328
巫咸古神巫也當殷中宗之	-12.0328
旁本草云亦呼爲萹竹萹薄謂萹	-12.0328
旁板也一作栧五臣	-12.0328
樂平太守也一作庾信予按卜居云屈原	-12.0328
猶身有病人	-12.0328
融兮稽疑之	-12.0328
言已不及賢君而騁極	-12.0328
雍州之伯史記紂以西伯	-12.0328
鮌竊帝之息壤以堙洪水帝	-12.0328
下大洛切又曰	-12.0328
也言我持木之本	-12.0328
云薜荔白芷蘪蕪椒連五	-12.0328
伯猶周召之君	-12.0328
何險巇之嫉妬兮	-12.0328
佩結香草拾其花心以表已之忠	-12.0328
切訾音貲哫訾以	-12.0328
北又曰大荒之中有靈山巫咸巫即巫	-12.0328
天邊之際也淮南曰	-12.0328
屯余車其千乘兮	-12.0328
帝乙之時王	-12.0328
帶也薜荔兔絲皆無	-12.0328
有善稱無害疾也故論語曰子	-12.0328
浞羿相也爰於也眩惑也言浞娶於純狐	-12.0328
漢樂章云都荔遂芳謂都	-12.0328
矢斧鉞使得專征	-12.0328
端崖也李善曰絶	-12.0328
結胷者言動以	-12.0328
蒼龍蚴虬於左驂兮白虎騁而	-12.0328
西伯乎子思曰吾聞殷王	-12.0328
角切淮南曰出於無垠鄂之門注	-12.0328
言堯有不慈之過以其不	-12.0328
言求媚也慄音栗謹敬也粟讀	-12.0328
一云喔咿強顔	-12.0328
一作䰅薴一作蔓鬢	-12.0328
一作奡一云被於彊圉	-12.0328
一作幬飾一作餝補曰	-12.0328
一作鞠補曰凡能取中皆曰射	-12.0328
一作鴻一或作壹睹一作覩	-12.0328
一名閬風上曰層城一名	-12.0328
一本自此句至又何	-12.0328
七札焉言有力也羿之射藝如此唯不恤	-12.0328
三后遵堯舜之	-12.0328
上謂君也浸稍也言佞人	-12.0328
下而殺之使不得	-12.0328
不空食禄而	-12.0328
不肯與弟鍼犬鍼以	-12.0328
不芳顔師古云鷤䳏一	-12.0328
不見天地所以來出歸有	-12.0328
不顧地以貪名兮心怫	-12.0328
並同國語曰親戚宴饗則有殽烝注	-12.0328
中幽深蔽闇道路甚	-12.0328
之也志足氣滿貪求無	-12.0328
之兮張揖曰靈圉衆仙号也淮南云騎	-12.0328
之又以杜衡繚之也五	-12.0328
之君乃來下也以言	-12.0328
之女旋穿閭社通於	-12.0328
之山有木名帝休其枝五衢注云言樹	-12.0328
之志也一云何不變此	-12.0328
之肆則失其性而不芬	-12.0328
之草又環其堂下羅列而	-12.0328
乗回風兮載雲旗	-12.0328
乗淸氣兮御	-12.0328
乗鷖則時乗六龍	-12.0328
九交道曰衢言	-12.0328
九岐厥圖以	-12.0328
也五臣云喻小人用事則君	-12.0328
也五臣云茅惡草以喻讒臣	-12.0328
也以喻君蓀一作荃補曰數所矩切計	-12.0328
也史記無之字一本此句與下文	-12.0328
也強圉多力也澆	-12.0328
也才用切豹有數種有赤豹有	-12.0328
也擠摧折屈也壘一作	-12.0328
也昔夏后氏	-12.0328
也有喻善人者滿堂兮	-12.0328
也蛟在水裔猶	-12.0328
也言天時運轉春生秋殺草木零	-12.0328
也言巳見讒人倡君爲惡則	-12.0328
也豫猶豫也言已雖見	-12.0328
予屈原自謂也言堯二女儀	-12.0328
事也餔食也歠飲也糟醨皆	-12.0328
事以助治而見怨恨於左右	-12.0328
事故其衆交合而吞滅	-12.0328
云以秋分鳴李善云臨海異物志	-12.0328
云歎寂漠補曰嗼音莫	-12.0328
五臣云靈巫何不持	-12.0328
交之道又有枲麻垂草	-12.0328
人將歌徐且謳吟揚舉善曲乃	-12.0328
人所銜勒補曰鞿居依切羈居	-12.0328
人法令修理故幽	-12.0328
人蔽賢羣起而攻之舉	-12.0328
以樂神也五臣云使曲節希緩而安音清	-12.0328
以求神僊皆	-12.0328
以汲汲欲輔佐君者兾及年未晏晚以	-12.0328
以蕙草蒸肴芳蘭	-12.0328
以迎神舟用桂者取香潔之異	-12.0328
仲春隂陽㑹時徙我東行遂	-12.0328
伏戲古王者也始	-12.0328
伏自藏執守寂寞	-12.0328
伯勞也順隂陽氣而	-12.0328
估	-12.0328
伴張弛之信期	-12.0328
作矤補曰弧音胡	-12.0328
佞相與朋黨並食重	-12.0328
使我愁也以况思賢	-12.0328
侍君宴宿意有	-12.0328
俱相和又使趙人	-12.0328
傴	-12.0328
僂	-12.0328
先賢執忠被	-12.0328
公子謂湘夫人也重以卑	-12.0328
兵伐徐遂滅之	-12.0328
其性不同此楚國尤獨異也五臣	-12.0328
其所也或曰水旁林木中鳥獸	-12.0328
其有意而顧巳五臣云須待也兾君猶待	-12.0328
其言順意承	-12.0328
冰上鳥何燠之	-12.0328
出北區也寒門北極之門	-12.0328
列在側則使	-12.0328
則厥初生民時惟姜嫄也	-12.0328
則尚書咎繇之謀謨也登崑崙而	-12.0328
則能中所以别賢不肖	-12.0328
力縱放其情不忍其慾以殺夏	-12.0328
動三江令風	-12.0328
北三億三萬五千五百里東西二億三萬	-12.0328
匪	-12.0328
千三百里南北則短減千里東西則廣	-12.0328
千里駒展才力也	-12.0328
千首㠜㠜一作旌旌一注云萬首海中	-12.0328
反覆如明君察之則	-12.0328
古之諸侯有罪自	-12.0328
可得知故中心沸熱若湯也踊躍	-12.0328
合㑹嫁娶之時言	-12.0328
名也東胡好服之師古曰犀	-12.0328
名曰長鋏也五臣云陸	-12.0328
吹簫先倡五聲	-12.0328
周有吕旦散	-12.0328
命天閽其開闗兮	-12.0328
四出又少室	-12.0328
固賢矣然禹之播降	-12.0328
圉釋文作圄補曰並魚吕切大人賦云悉	-12.0328
國民衆多非明	-12.0328
國風好色而不淫	-12.0328
土地之主也言武王	-12.0328
夕暮也逓一作遞五	-12.0328
大壑海水也言	-12.0328
大江名之五渚戰國䇿	-12.0328
大波有所傷害因謂之陽侯之波也	-12.0328
大者又老子曰豫兮若	-12.0328
大舉兵而滅	-12.0328
天下耳焚山澤奏鮮食所謂作	-12.0328
天之不可階而升欲釋階	-12.0328
天式從横陽離爰死	-12.0328
天狼酌桂漿以	-12.0328
天精光明而照察也晞一作	-12.0328
太公在市肆而屠文	-12.0328
夫人有命召呼則願	-12.0328
夫人補曰此言帝子之神	-12.0328
女當須媒也五臣云公子謂夫人喻君也	-12.0328
如虎而有三目身又肥大狀	-12.0328
妖怪也號呼也昔周幽王前世有童	-12.0328
妻而生澆彊梁	-12.0328
姒周幽王后	-12.0328
媒其心讒賊以善	-12.0328
嫋嫋秋風揺木	-12.0328
子美詩云紅豆啄餘鸚鵡粒碧梧棲	-12.0328
宣山上有桑焉其枝曰衢注云枝交	-12.0328
害猶正身直行	-12.0328
寡少也屈原多才有	-12.0328
射之中則舉進不中退却各以	-12.0328
將沈身湘流故	-12.0328
將翔佩玉瓊琚也夕攬洲之宿莽則易	-12.0328
將與雞鶩爭食乎	-12.0328
將行恐帝嚳	-12.0328
將追之不及補曰	-12.0328
尊其先祖以王者	-12.0328
小曰丘大曰壟言武王	-12.0328
尚復論國之禍	-12.0328
屈原自傷不遭值堯舜而遇闇君亦	-12.0328
崇山太公金匱曰南海之	-12.0328
崙之上北向天門衆神盡來謁見	-12.0328
川猶兮若畏四隣則猶	-12.0328
左傳云昔有過澆殺	-12.0328
巧於調和先定	-12.0328
帝舜葬東入洞庭下注	-12.0328
常以立夏鳴鳴則衆芳	-12.0328
幸復一見君陳忠言還	-12.0328
幽僻闇昧也言羣臣皆行枉曲	-12.0328
度異故羣而謗之也一	-12.0328
度飛泉之谷以南	-12.0328
廣大無涯不可過也補	-12.0328
彌猶次也好相親宻和順次以相代也補	-12.0328
彭咸欲與齊志節而不能忘也補曰曁其	-12.0328
待人而榮補	-12.0328
待益作革然後能成功特天	-12.0328
後喻巳不得見君讒	-12.0328
後漢書曰徐夷僣號率九夷以伐宗周	-12.0328
得見五臣云司命初與	-12.0328
御以告楚令伐徐一日而至於是楚文	-12.0328
志不安䰟魄俇俇惶遽南行	-12.0328
忠信又以嘉言而納於君也補曰遺	-12.0328
忠直之害也文選無不字五臣云撫持也	-12.0328
忠臣貞而欲諫兮	-12.0328
念三年之積思兮願	-12.0328
忽反顧以流涕兮哀髙丘之無女	-12.0328
思念其君不能自	-12.0328
怱	-12.0328
悼公賜魏絳女樂二八歌鍾二	-12.0328
懔	-12.0328
所以藉飯食也易曰藉	-12.0328
所係累也五臣云言我雖習	-12.0328
所聚不可居之也補曰	-12.0328
承天度也夕入洲澤采取宿莽下奉太隂	-12.0328
握咿音伊嚅音儒唲	-12.0328
摰	-12.0328
據青冥而攄虹兮	-12.0328
攬采也水中可居	-12.0328
改忠直之節隨從吹	-12.0328
故變言公子也言	-12.0328
數進忠言陳便	-12.0328
文云帝嚳射	-12.0328
文云語詞也沈存	-12.0328
於三危之山召西	-12.0328
於同姓事君之	-12.0328
於道路此但言	-12.0328
旌旗動以香	-12.0328
日謂甲乙辰謂寅卯補曰沈括存	-12.0328
明使楚國闇昧將	-12.0328
是彊禦彊禦彊梁	-12.0328
是時親自射獸	-12.0328
晞女髮兮陽之阿	-12.0328
暴雨注云言二女遊戲江之淵府	-12.0328
曰劒口一曰劒環珥耳飾也鐔所	-12.0328
曰如水之就下沛然誰能禦	-12.0328
曰愁我也予一作余五臣云其神儀	-12.0328
曰枹房尤切擊	-12.0328
曰漭母朗切水大	-12.0328
曰綢繆束楚是也柏一作拍	-12.0328
月鳴晝夜不止服䖍曰鶗鴂一	-12.0328
有蓱草生於水上無	-12.0328
有象路衢天對云有	-12.0328
朕我也皇美也	-12.0328
木志意喜樂則和	-12.0328
本草云薫草一名蕙草生下濕地陶	-12.0328
板松二曰玄圃	-12.0328
枝交錯相重	-12.0328
根乃蔓衍於九	-12.0328
桀伐䝉山何所得焉	-12.0328
楊葉圎而歧有脂而香	-12.0328
楓音風爾雅楓攝攝注云似白	-12.0328
槌	-12.0328
歎泣沾裳也屈	-12.0328
歔許居切欷香	-12.0328
此也西伯文王也言紂醢梅伯以賜諸侯	-12.0328
比干之墓以彰其	-12.0328
水經云四水同注洞庭北	-12.0328
水經及荆州記云	-12.0328
水言小人任政賢者	-12.0328
江出岷山其源若甕口可以濫觴	-12.0328
洛帶瑞獸	-12.0328
活生也言鮌死後化	-12.0328
流猶引取柔耎香草以自掩拭不以悲	-12.0328
浮蓱也山海經曰	-12.0328
涌使江水順徑	-12.0328
淮南云縱志舒節以	-12.0328
渚是也湖水廣	-12.0328
湯茗則芳是所同也至其發華一幹一	-12.0328
溷濁者甚之也屈原作此在	-12.0328
濟江海兮蟬	-12.0328
濡我衣浪浪而	-12.0328
灩	-12.0328
無美名以流後世也歎一作	-12.0328
無道國人中道倍畔	-12.0328
爛漫猶消	-12.0328
父不得復上故下數旱旱而	-12.0328
父為穆王御	-12.0328
犀毗孟康曰要中大帶也張晏曰鮮卑郭	-12.0328
狄于鹹長狄也射其目身	-12.0328
狸一作貍五臣云赤豹文貍皆	-12.0328
献	-12.0328
獨抱忠信死於	-12.0328
王不察其長利兮卒見棄	-12.0328
王不明信用讒言而放逐	-12.0328
王卒於秦頃襄	-12.0328
瑕	-12.0328
瑞應圖曰鸞者赤神之精	-12.0328
瑟之樂也或曰空桑	-12.0328
甘酸乃内鶬鴿	-12.0328
生按禽經云巂周子規也	-12.0328
甯戚謳於車下兮	-12.0328
畏其方熾乃分東方諸侯命徐偃王主	-12.0328
疾若水流也不一作弗五臣云	-12.0328
瘁	-12.0328
皆歇䳏與鴂同	-12.0328
盍何不也把持也瓊玉枝	-12.0328
盛曰壯棄去也穢行之惡也	-12.0328
直不能枉性以追曲俗	-12.0328
瞽盲者也詩云有瞽	-12.0328
祧	-12.0328
禦禁也言君國之道路	-12.0328
禹播降者水土平然後嘉	-12.0328
秋曰以茹魚驅蠅蠅愈	-12.0328
秦與荆戰大破之取洞庭五	-12.0328
稷之母姜嫄出見大人之	-12.0328
穆敬也愉樂也上皇謂東皇	-12.0328
窈注云窈幽	-12.0328
竭其力君不履信誠則臣下	-12.0328
箕子紂親戚也紂	-12.0328
篇云茹柔也一曰菜茹五臣以茹	-12.0328
紆屈也鬱愁也	-12.0328
結蕙芷服之於身過鮑魚	-12.0328
綢縛束也詩	-12.0328
縱放也言浞取羿	-12.0328
羆陸機云毛赤而文	-12.0328
羊腸山名補曰戰國䇿注云	-12.0328
羌靈魂之欲歸兮	-12.0328
美好愁我失	-12.0328
羿諸侯也畋獵也一作田	-12.0328
者曰洲草冬生不	-12.0328
而去不顧楚國之地貪	-12.0328
而自傷閔也兕一作兕	-12.0328
而舞發聲舉足與詩	-12.0328
而言以信巳之志終不回	-12.0328
耗切聲轉字異詩曰	-12.0328
聯	-12.0328
聽讒復放屈原以此考	-12.0328
胡帶之鈎亦	-12.0328
臣正其心欲諫其君	-12.0328
臨中國之衆人	-12.0328
自相親比承順上意乆則相代也代一	-12.0328
至而不可禁則茹又	-12.0328
與天地兮同夀與	-12.0328
與子則與子故益不有	-12.0328
與日月同光明也夫	-12.0328
與曲隅復施羅	-12.0328
舉賢用能則年老耄	-12.0328
舌無聲也嗼一作漠一作歎	-12.0328
舜有卑父之謗	-12.0328
舜而乃没命水中	-12.0328
芳香取美潔也	-12.0328
若比干伏節死義故長立而望將欲	-12.0328
苦桃惡木言君親近貪賊姦	-12.0328
苦罪切壘纍並音磊魁	-12.0328
茅也蒸一作䒱一作烝	-12.0328
荒疑岱本	-12.0328
莖紫色風起水動波	-12.0328
華以實庭中五	-12.0328
華榮何所有此物乎蓱一作荓	-12.0328
蒻音弱蒲也可以	-12.0328
蕙肴以蕙草蒸肉也藉	-12.0328
藩蔽也南國諸侯	-12.0328
處妾所弃女啼聲哀而	-12.0328
補曰此謂靡蓱與枲	-12.0328
補曰盛多也言所任	-12.0328
裝飾兩結垂鬢	-12.0328
西至河上穆王	-12.0328
見已之冤結託之以風諫故其文	-12.0328
觀初志不可變易益	-12.0328
言山鬼所處乃在幽篁之内	-12.0328
言復有水葵生於池中其	-12.0328
言神之降望而不見	-12.0328
託與俱遊周	-12.0328
設得道輕舉登崑	-12.0328
設禮張施大侯使衆	-12.0328
誠欲樂我先祖及與故舊人也酎	-12.0328
論語曰羿善射奡盪舟俱不得其死然奡	-12.0328
謂之赤豹狸有虎	-12.0328
謂天帝也竺厚也言后	-12.0328
譬若仙人王僑	-12.0328
讒佞是以歎焉補曰欸音	-12.0328
豹有白豹詩	-12.0328
賦云恃知巳而華予兮	-12.0328
越筆切方言云	-12.0328
趙國名也簫樂器	-12.0328
趙險塞名山形屈辟狀	-12.0328
路脩逺以多艱兮	-12.0328
身念道得遇仙	-12.0328
車以反故道及已迷	-12.0328
軫還衡衡轅前	-12.0328
辛帝嚳有天	-12.0328
逆武王逆紂而不肯順故曰異方或曰下	-12.0328
逺視眇然足不知當所踐蹠	-12.0328
遇二女二女雖死猶思其神所以不敢	-12.0328
道路險阻欲與神游獨在諸神之	-12.0328
適往也言巳令鴆	-12.0328
遭時不明行善罷倦心遂煩	-12.0328
郡華容縣東南	-12.0328
酒椒漿以備五味也五臣	-12.0328
酒滓補曰釃力支切	-12.0328
釋文作踔勑孝切乎一	-12.0328
長鋏劒名也其所握長劒楚人	-12.0328
門下喻親近之人也言	-12.0328
閑情欲也補曰此	-12.0328
闇惑終不覺寤令我	-12.0328
阽音簷臨危也小爾雅曰	-12.0328
阿曲隅也拂薄也五臣云以蒻	-12.0328
陂池曰坈言	-12.0328
陳人陳雲鳥之陳左傳有魚麗之陳行陳	-12.0328
陳列也浩大也言	-12.0328
雄班固自叙之	-12.0328
雅樂關睢鹿鳴是也言有美女十六人	-12.0328
雲夢城江夏安陸縣亦有雲夢或曰南	-12.0328
霑濡也衣眥謂之襟浪浪流	-12.0328
霣零也或曰去君之恒閈閈	-12.0328
靈氛言以忠臣而就明君兩美必合楚	-12.0328
非好善之主故賢才	-12.0328
革也稷降播種而曰	-12.0328
韓退之云春與猿吟兮秋鶴與飛皆用此	-12.0328
音悴顦顇也顠疋	-12.0328
頂	-12.0328
首建寧等縣江	-12.0328
馨香之逺聞者積	-12.0328
騎侍從者明異於衆也	-12.0328
體也以言賢者遭世亂雖屈其身亦	-12.0328
魯班則不能别	-12.0328
鳴兮顧先百草	-12.0328
鵠重以豺肉故	-12.0328
鶗鴂鳴而不芳注	-12.0328
齊同姿態好美	-12.0328
龍勿用也駟玉虬而	-12.0328
一作精補曰易云時	-12.0329
六龍以御天莊子曰	-12.0329
山山有九塞何謂九山	-12.0329
夫世不知芳何一云余奈	-12.0329
之遺業而成	-12.0329
云言草木殘瘁也菸	-12.0329
作管切集也緒	-12.0329
止沈藏但以秋氣殺物矣皆喻楚之君臣	-12.0329
父死稱考緒業也言禹	-12.0329
生禹禹小見其	-12.0329
考父之功也補曰纂	-12.0329
而嗣續得聖	-12.0329
腹我腹懷抱也天對云氣孽	-12.0329
顔容變易而蒼	-12.0329
鮌愚狠愎而	-12.0329
序云伊陟賛	-12.0329
無形故衣之以	-12.0329
物而生山鬼亦晻忽	-12.0329
纔	-12.0329
者曰巫咸殷賢臣一云名咸殷之巫也	-12.0329
詹尹乃釋策而謝	-12.0329
資	-12.0329
中憯惻之悽愴兮	-12.0329
僻左也言我惟	-12.0329
入溆浦余	-12.0329
吾怨往昔之所冀兮	-12.0329
女蘿施于松上吕氏春秋云或	-12.0329
欲居九夷也僻	-12.0329
浦水名儃佪一作	-12.0329
爲物其性微眇	-12.0329
眩惑愛之遂與浞謀殺羿也補曰寒	-12.0329
臭所校校謂馨烈之	-12.0329
薜荔俱有芬芳也花外	-12.0329
薜蒲計切荔	-12.0329
言衆魚張其鬐尾	-12.0329
謂菟絲無根也其根	-12.0329
郎計切山海經小華之山其草	-12.0329
長太息而增欷	-12.0329
隕落也言芳草	-12.0329
下邳徐僮是也	-12.0329
不聽自投水	-12.0329
乂孔安國注書	-12.0329
之是常游于江淵澧沅之風交瀟湘	-12.0329
之波方數百里	-12.0329
也軋一作乹注云乹	-12.0329
二女妻舜有苗不服舜往征之二女	-12.0329
云洞庭地穴在長沙巴陵也	-12.0329
云雲夢在江南不然也據左傳吳人入	-12.0329
五臣云猨狖輕捷之獸喻國之昏	-12.0329
亡周國後有夫婦賣是	-12.0329
人之多才乎昔漢武愛騷而淮南作傳以	-12.0329
作思唯一作惟	-12.0329
作蘋一本此句上有登字皆非也補曰薠	-12.0329
來飄忽出入不言不辭	-12.0329
其弟仲康仲康死子相立則五	-12.0329
其言蘭蕙如此當俟	-12.0329
再舉靈氛之	-12.0329
十二國王孫厲	-12.0329
又恐年歲忽過不與我相待而身老耄也	-12.0329
又曰徐偃王好行仁義陸地而朝者三	-12.0329
可佩以幽蘭之别於艾也謂	-12.0329
國也補曰淮南云九州之外有八殥西	-12.0329
夏之俗思念楚	-12.0329
女字也音須賈侍中	-12.0329
如水洋洋雖欲軋絶之而無由也沕濳	-12.0329
妻子生别離傷巳當之	-12.0329
姚事見左傳杜預云梁國有虞縣皇甫謐	-12.0329
子豈有家居閭巷之理	-12.0329
安不肯遊蕩	-12.0329
實基於此降及司馬相如始以自	-12.0329
屈原姊也嬋媛猶牽引也一作撣	-12.0329
山鬼之狀體含妙	-12.0329
川在尋陽江	-12.0329
左沅湘右大江苞洞庭	-12.0329
引戈擊蜺中之因墮其藥俯而視之王	-12.0329
往秋來以次相代言天時易過人年	-12.0329
徐偃王作亂	-12.0329
從而不反道死	-12.0329
復渡丹水而馳騁顧見大	-12.0329
復禹之舊績屈原設至逺方之外博求衆	-12.0329
心補曰釋文軋於八切此	-12.0329
思念古者人君得道則	-12.0329
思神略畢憂愁復出乃長歎曰人居	-12.0329
恐區用切疑也下	-12.0329
於上然實不屬	-12.0329
於糞壤也今曰蘭芷不芳	-12.0329
於綸有田一成有衆一旅能布其	-12.0329
有名者司馬相	-12.0329
有巴丘湖江南之夢雲夢一澤而毎處	-12.0329
根無此菟則絲不生	-12.0329
樂娛酒不廢沈湎日夜舉以	-12.0329
此澤亦得單稱	-12.0329
武沈存中云朱雀莫知	-12.0329
江入于雲中王寢盜攻之以戈	-12.0329
澤跨江南北毎	-12.0329
然而身死國亡子孫無類注云偃王	-12.0329
王時作離騷巳云	-12.0329
王者備位而巳五子之失乎家	-12.0329
申椒其不芳以申椒之	-12.0329
盖仲康以來羿勢	-12.0329
盛壯之年廢弃道	-12.0329
相錯成文則	-12.0329
秦皇漢武託	-12.0329
穢者謂其君不肯	-12.0329
美者有崑崙虛之璆琳琅玕焉	-12.0329
羣鳥所集魚鱉所聚土地肥饒又有	-12.0329
者以湘君在焉故也山海經曰洞庭之	-12.0329
而朱者羽族赤而翔上集必附木此火之	-12.0329
耳惡去聲言可	-12.0329
華皆安在也爾雅萍蓱注云水中	-12.0329
處名存焉左傳楚昭王寢㝱	-12.0329
行仁義不設武備楚文王滅之徐國今	-12.0329
補曰上云謂幽蘭其不	-12.0329
補曰史記周穆王西	-12.0329
言得藥不善也一本夫	-12.0329
言欲軋沕已心仿佯	-12.0329
設祭祀使巫請呼之	-12.0329
謂之橈或謂之櫂周禮云柝羽	-12.0329
謂楚莊王曰王不伐徐必反朝徐乃舉	-12.0329
賢人之同類者故	-12.0329
蹇詞也留待也中洲洲	-12.0329
遂往也初始也言往	-12.0329
適狷狹之志也士女雜坐亂而不分指以	-12.0329
郊三代祀之國語作	-12.0329
郢楚子渉睢濟	-12.0329
間悲哀莫痛與	-12.0329
險阻故其神常	-12.0329
雲單稱夢也沈存中云書曰雲土夢作	-12.0329
靁填填兮雨	-12.0329
風起吹之生文於緑波中	-12.0329
餘里日月若出没於其中湖中	-12.0329
黄棘棘刺也言	-12.0329
䖝	-12.0329
一作佯補曰梅音浼紂	-12.0329
一作撫及一作務及文選云何不	-12.0329
上高巖之峭岸	-12.0329
之人無知我賢也	-12.0329
之以祭告語於上天也補曰史記紂	-12.0329
之皆代原之意九	-12.0329
之細皆用綺縞又	-12.0329
之而無所不窮也或曰禹治洪	-12.0329
乗登也鄂渚地	-12.0329
乘騏驥以馳騁兮	-12.0329
也五臣云誰將留待於中洲乎欲神之速	-12.0329
也補曰書云東漸	-12.0329
也言已雖有絶逺之	-12.0329
也詩曰誶予不顧替廢	-12.0329
事之幹五臣曰	-12.0329
云伯益之子夏	-12.0329
云蕙蘭椒桂皆取芬芳	-12.0329
互擲采行碁碁行到處即竪之名	-12.0329
亦何能傷但恐衆	-12.0329
亦音要妙此言娥皇	-12.0329
人後有罪幽	-12.0329
今河南偃師是張晏云	-12.0329
以自悲故傳之曰箕	-12.0329
以馬自喻韁在口曰鞿革絡頭曰	-12.0329
何條放致罰而黎服大説	-12.0329
何須㬰而忘反	-12.0329
作樂盡巳歡欣者	-12.0329
使家臣逢䝉射而殺之貪取其家以	-12.0329
侍從君獵今乃放逐	-12.0329
便悁一作申旦	-12.0329
俗而多屯難補曰掩涕猶抆	-12.0329
修先古之法敬愛賢能	-12.0329
傳曰幼眇之聲	-12.0329
傷放在草澤心悲泣下霑	-12.0329
先我得娀簡狄也遺一	-12.0329
六氣之宗謂太極沖和之氣蘇子	-12.0329
其一者自漢蜀江南至海也二	-12.0329
其頭鑽刻瓊四面	-12.0329
冇	-12.0329
分長寸五分	-12.0329
切乆立也眙直視也丑	-12.0329
列而生俱盛茂也或曰倚荷謂	-12.0329
則恐而吹之言易改移也獨已	-12.0329
則熱中華之地凡有	-12.0329
勢羿畋將歸	-12.0329
北斗喻酒器者大之也斗舊音主射	-12.0329
半於八極則地之深亦如之博物志曰河	-12.0329
原遂放於外乃	-12.0329
去讒佞無令害賢改此惑誤之度	-12.0329
叢之間上不見天	-12.0329
可以挹酒漿此以	-12.0329
史記曰原死之後	-12.0329
名曰鸞見則天下安寧	-12.0329
君夕暮而身廢弃也補曰	-12.0329
四星也五臣云司命星名主知	-12.0329
多難以隕其身申生雉經子	-12.0329
大自能用師始	-12.0329
天下萬民之所好惡	-12.0329
天地間游神也一云三昭三穆王介甫用	-12.0329
奠置祭也漢	-12.0329
媚於内施賂於外樹之詐慝而專其權	-12.0329
嬬	-12.0329
室法像舊廬所在之	-12.0329
寛曰間言乃	-12.0329
居家則以薜荔槫飾	-12.0329
岫窈窕者也按吳中太湖一名洞庭	-12.0329
干戈有窮由是遂亡	-12.0329
彭咸沈身於淵乃太息長悲	-12.0329
待人而榮二者别離命則	-12.0329
徐行也澤曲曰	-12.0329
得列乎衆芳	-12.0329
得政身即滅亡故言鮮終	-12.0329
德則天下異方終皆歸之也補曰文王順	-12.0329
恒常也幹體也易曰	-12.0329
愚而不言也漠一作嗼一作寞五臣云寂	-12.0329
或曰哀泣之聲也	-12.0329
所出至逺應龍過	-12.0329
撫芳武切不撫壯而	-12.0329
改更也言願令君甫及年	-12.0329
斗酒器也又曰維北有斗不	-12.0329
方乎夫人須䰟而生䰟	-12.0329
昌文王名也言	-12.0329
暮後諸神也五臣云言	-12.0329
曩曏也言欲使已變節而	-12.0329
有又字補曰要於笑切眇與妙同前漢	-12.0329
朝濯髮於湯谷兮	-12.0329
李善云靡蔓也枲相里	-12.0329
楚所敗元和姓纂	-12.0329
樂畋獵不恤民事信任寒浞	-12.0329
欲澄清邪惡復	-12.0329
死而不變者楚國一人而	-12.0329
殺蚩尤與夸	-12.0329
水時有神龍以尾	-12.0329
江淮諸侯服從	-12.0329
治其國仁義著聞	-12.0329
洋洋逺客而無所歸也補曰	-12.0329
洞庭亦謂之太湖	-12.0329
浞食角切傳	-12.0329
涌湍危阻也以	-12.0329
湘水神而謂留湘君於中洲者	-12.0329
牙盡黒常食	-12.0329
物志云偃王	-12.0329
犬也弟秦伯弟鍼也	-12.0329
王也人君服飾美好故	-12.0329
王仁不忍鬭其民	-12.0329
王位安所施用	-12.0329
璜玉名也言幬帳	-12.0329
生九衢中恐謬魏都賦云	-12.0329
生誠司命君所	-12.0329
由云捨祭法不用	-12.0329
畫地導水所注當決者因而治之也	-12.0329
登鄂渚髙岸還望楚國嚮秋	-12.0329
發遂叙妙思託配仙人與俱遊戲周	-12.0329
白昭然光明草木之類皆含氣芽蘖	-12.0329
皆好辭而以賦見稱皆祖屈原之從容辭	-12.0329
碁即入水食魚	-12.0329
種芳草當刈未刈蚤有霜雪枝葉雖蚤萎	-12.0329
終莫敢直諫辯一作辨	-12.0329
絡齊人作綵縷鄭國之	-12.0329
縣南入于沔涔水即	-12.0329
纂組綬類也一作繤一作綦五	-12.0329
者三十六國穆王聞之遣使	-12.0329
而五采畢備聲似雉而尾長	-12.0329
而有賢仁之才也一云何環閭穿社以及	-12.0329
而死遺餘也則法也言	-12.0329
而浴故曰交阯阯與趾同	-12.0329
而生子文弃之夢中有虎乳之以	-12.0329
肴骨體也蒸進也	-12.0329
自傷所行不合於世	-12.0329
自有一徐偃王	-12.0329
至楚使伐之偃	-12.0329
艶	-12.0329
葅梅伯之骸史記曰	-12.0329
蒿也盈滿也或言艾非芳草	-12.0329
蕭艾而巳以言往日明智之士今皆佯	-12.0329
行忠直欲相慕及	-12.0329
衣不茍而為温	-12.0329
補曰山海經云應龍處南極	-12.0329
補曰禮記南方曰蠻雕題交	-12.0329
覊	-12.0329
見則心中牽引而痛	-12.0329
見求簡狄又後	-12.0329
言䰟靈當扶人	-12.0329
言人受命而生有	-12.0329
言復以翡翠之羽雕	-12.0329
言楚國變亂舊常無定法也容容變動之	-12.0329
言榮譽流行周遍四極無	-12.0329
誶	-12.0329
誶音䆳又音信今詩作訊	-12.0329
論語兼義云羿逐后相自立相依	-12.0329
諸侯號淮南子曰醢鬼侯之女	-12.0329
讒人所鞿羈而係累矣故朝	-12.0329
貂	-12.0329
賢志士見而蕪穢不自	-12.0329
賤貧富者是	-12.0329
趾注云雕題	-12.0329
逐補曰淮南云見一	-12.0329
遂有娠而生后稷后稷生而仁賢天帝獨	-12.0329
邪塡塞難以	-12.0329
邪然諸書稱偃王多云穆王時人唯	-12.0329
都入郢門欲以感激	-12.0329
鋏古挾切莊子曰韓魏	-12.0329
阻又難故來	-12.0329
隂陽少司命云登九	-12.0329
離婁明目無	-12.0329
離騷傳其書今	-12.0329
霜露所傷而落雖如是於我	-12.0329
音爰引也詩云酌以	-12.0329
驍	-12.0329
黨朋黨謂椒蘭之徒	-12.0329
齊同也光明也言雲	-12.0329
範	-12.0331
吻	-12.0331
以禮得中和也補曰遷逡猶逡	-12.0331
憂懼也補曰鵾鷄似鶴	-12.0331
流沙也嶓冢山名尚書嶓	-12.0331
無有候鴈鵾鷄之喜樂而	-12.0331
隈一作隅補曰嶓音波禹貢導	-12.0331
騮騄耳之駟西	-12.0331
注云嶓冢在梁州	-12.0331
而兼赤曛日入餘	-12.0331
一本余下有今字一云余奈	-12.0331
人無有知巳巳復	-12.0331
曛	-12.0331
派	-12.0331
一本何下有故字補曰愎弼力切戾也詩	-12.0331
伯禹愎鮌夫何	-12.0331
何以能變化而有聖德也愎一	-12.0331
六律以應舞	-12.0331
叡	-12.0331
子曰臭過椒蘭荀	-12.0331
延年不死夀何所止	-12.0331
擴	-12.0331
此句在就祝	-12.0331
江離皆香草不若椒蘭之盛也列	-12.0331
瓠	-12.0331
矣乎吾未見好	-12.0331
禹何能繼續鮌業而謀慮不同也補曰洪	-12.0331
苾	-12.0331
言有不慈之過卑父之累也補	-12.0331
賢人知我忠信之故自傷之詞一無哉字	-12.0331
黒水𤣥趾三危安在	-12.0331
也菉王芻也葹枲耳	-12.0331
也言巳積累衆善	-12.0331
也詩曰楚楚者薋又曰終	-12.0331
喉	-12.0331
曰巫祝也古者巫咸初作巫山海經	-12.0331
杜衡芳芷皆香草	-12.0331
蘿女蘿兔絲詩云蔦與	-12.0331
言佞人妄論以善	-12.0331
訕聖王當誰使正其	-12.0331
赦	-12.0331
采取香草用飾	-12.0331
陽帝顓頊也委塵	-12.0331
險戲猶言傾危也言周	-12.0331
一作茷補曰茇柭茷並音跋	-12.0331
一其流至於齊梁而	-12.0331
一幹五七華而香不足者蕙也蕙	-12.0331
上陳氏族下列祖考先述厥生次顯	-12.0331
不屬地茯苓是也抱朴子云菟絲	-12.0331
中也水中可居者	-12.0331
丹可愛故騷	-12.0331
乃選擇衆鬼神之中行忠正者與	-12.0331
之中浮游塵埃之外皭	-12.0331
之國工作妙音	-12.0331
之飾侍君堂隅	-12.0331
也言美人朱脣白齒	-12.0331
云雲夢者方八九百里則此	-12.0331
云靈圉淳圉	-12.0331
今之世願依古之賢者彭咸餘法以自率	-12.0331
代更也序次也言日月晝夜常行忽然不	-12.0331
但勤力逺去	-12.0331
何縁知其逢吉	-12.0331
作傷心悲補曰心舊	-12.0331
作瓖補曰糺繩	-12.0331
侯謂所射布也王者當制服	-12.0331
信哀江南賦取此	-12.0331
僑子僑化	-12.0331
其不見用則有命焉或離或合神實司	-12.0331
其枝瀆耳引	-12.0331
刈穫也草曰刈	-12.0331
前漢志左馮翊有重泉史記曰夏桀不務	-12.0331
去其所謂吉乃吾所謂凶也此卜居所以	-12.0331
去猶結桂枝以	-12.0331
反顧而去將遂	-12.0331
右也嫭一作嫮補	-12.0331
同論語曰日月逝矣	-12.0331
名字自叙發跡	-12.0331
君謂湘君也夷猶猶豫也言湘	-12.0331
吹鳴竽箎作	-12.0331
商旅將任車以商於齊	-12.0331
嘉南州之炎徳兮	-12.0331
國語云虢公夢在廟有神人	-12.0331
塟	-12.0331
士猒倦其言而不肯	-12.0331
大夫矸與岸同一作南山	-12.0331
天下賢能英俊慕周之	-12.0331
夫何用罪法之不審也補曰辠古罪字	-12.0331
妖怪執而曵戮之於市也補曰	-12.0331
姓弗堪乃召湯而囚	-12.0331
定而知之也考一作知	-12.0331
就有義用捨有命屈子於同姓事君之義	-12.0331
師膠鬲問曰欲以何日至	-12.0331
廣野名也山海經曰都廣	-12.0331
引朝㩃阰之木蘭阰	-12.0331
形神物未生誰傳道	-12.0331
徐偃王修行仁義諸侯朝之三十餘國	-12.0331
心蕩滌也言春時澤	-12.0331
忠伏節死義	-12.0331
忪	-12.0331
念楚國愁且思也補曰此言	-12.0331
忽不食也補曰憺徒	-12.0331
怔	-12.0331
急來歸江南土地僻逺山林嶮阻誠可哀	-12.0331
悉盡也靈圉	-12.0331
惜之也補曰屈子以爲知	-12.0331
意惑終不悟也班一作斑補曰闒茸劣也	-12.0331
拔取也南楚語	-12.0331
按屈原死於頃襄之世當	-12.0331
振音晨鳴乃	-12.0331
擿此四事異乎經典者也故論其典誥則	-12.0331
數萬頭也海中山石㠜㠜嶽嶽萬首交跱	-12.0331
文也或曰紫莖言荷莖紫色也屏風謂荷	-12.0331
方之神㑹於大海	-12.0331
方飯牛叩角而商歌桓公聞之知	-12.0331
明克讓然無故被塵翳言與帝共	-12.0331
是屬音燭付也淮南云咸池者	-12.0331
時吾將穫取收藏而饗其	-12.0331
時草短望見千	-12.0331
有求忠臣而不擇取汝者	-12.0331
望逺可以滌蕩愁思之心也一	-12.0331
桀也闕一作國補曰岱	-12.0331
楙	-12.0331
極矣皆自宋	-12.0331
此皆諷君之詞補	-12.0331
死之不可讓則捨生而	-12.0331
水之出於陽朔則觴	-12.0331
水涯也言乃馳騁六龍過	-12.0331
水魚之囿也注	-12.0331
沅有芷兮澧有蘭或曰澧	-12.0331
沅水曰澧口	-12.0331
注云敦圄仙人名郭璞	-12.0331
注云薠狀如葴葴音針見爾	-12.0331
游目往觀四荒之外以求賢君也五臣	-12.0331
澧水又東南注	-12.0331
然光華也陁一作陀補曰	-12.0331
王見諸侯朝徐者衆心中覺悟恐	-12.0331
瓖	-12.0331
白蜺而嬰茀持藥與崔文子	-12.0331
皧	-12.0331
皮似桂而香狀如楠樹	-12.0331
目盼然又好口齒而	-12.0331
眄美姿儀狀姱好可近而親	-12.0331
神高馳之邈邈	-12.0331
立於西阿召史嚚占之對曰如君之	-12.0331
策也黄棘地名	-12.0331
粉白黛黑	-12.0331
粲屈原舉吕	-12.0331
結余軫於西山兮	-12.0331
編結也膺胷也	-12.0331
者思古人而不得見伏節	-12.0331
者曰獸非入水之物故是鱉也一云	-12.0331
胥於五湖之中問志行之見者也一	-12.0331
與司馬相如俱好辭賦客	-12.0331
芳幸其枝葉	-12.0331
蘅補曰爾雅杜上鹵注云杜衡也似葵而	-12.0331
處也五臣云欲使原復歸	-12.0331
蠧	-12.0331
覺較也詩云有覺	-12.0331
言今世之人皆好朋黨	-12.0331
詭隨也斯讀若	-12.0331
誅紂令壞邠歧之	-12.0331
誓長立而望想	-12.0331
讓辭也言人知命將終可以建	-12.0331
豨	-12.0331
遂渡大水解形體	-12.0331
選鬼神於太隂兮登閶闔於	-12.0331
鄣風也縁文選作緑五臣云	-12.0331
里令人愁思而傷心也或曰蕩春	-12.0331
重泉而復出之	-12.0331
野寂漠其無人	-12.0331
雖不若蘭其視椒榝則逺矣	-12.0331
雖欲長驅無所及也一作馳逶	-12.0331
面白毛虎爪執鉞	-12.0331
音蘇含切按詩逺	-12.0331
頻脂切山在楚南本草云木蘭	-12.0331
顔師古云彭咸殷之介士不得其志投江	-12.0331
願勿辭讓而自愛	-12.0331
骳	-12.0331
髙余冠之岌岌兮	-12.0331
黯鄔感切黮徒感切雲	-12.0331
㫖旦夕在於君前而使忠賢之士	-12.0331
䇿駑駘而取路當世豈無騏驥兮誠	-12.0331
一作三補曰參蘇甘切	-12.0331
下而求索之也天對曰穆懵祈招	-12.0331
不惡鮌而戮殺之則	-12.0331
不智之故欲提攜其耳乎而論者以	-12.0331
不肖也駑駘喻不	-12.0331
不顧一無蕭字一無也字補曰	-12.0331
且太康不反國人立	-12.0331
中持倚之也五	-12.0331
中矣夫離騷之文依託五經以立義焉帝	-12.0331
之中原地形所居者悉	-12.0331
之人雕畫其額	-12.0331
之但見水流而	-12.0331
之徒咸悲其文依而作詞故號為楚詞亦	-12.0331
之流上泝江淵而歸	-12.0331
之而上也潭水出武陵	-12.0331
之蔽秦晉之間謂之簙	-12.0331
之遂奔襃襃	-12.0331
也一無衆字補曰言衆人見	-12.0331
也楚曰憑注云恚	-12.0331
也爰於也言天法有善隂陽從	-12.0331
也琨玉名箟竹名蔽集	-12.0331
也相仍者相從也煙液所積者	-12.0331
也緒業也言伊尹佐湯命終	-12.0331
也脩長也盈滿也由用也言堯	-12.0331
也陽侯大波之神濫一作灠補曰戰	-12.0331
二國之燼以滅浞而立	-12.0331
二斟夏祚猶尚未	-12.0331
云不遵啓樂更作淫聲未知所據	-12.0331
云服之無射逓更也言使好女十六人	-12.0331
云檻欄層重也	-12.0331
云陽侯陵陽國侯也其國近水溺	-12.0331
云騏驥抗軛謂與	-12.0331
亡按屈原傳云國風好色而	-12.0331
今逍遙而來東	-12.0331
令尹子文天對	-12.0331
以舒憂意中紆	-12.0331
伴侣也言已見衆人易移意中	-12.0331
何得投種五	-12.0331
余獨好修以為常	-12.0331
余獨好脩以為常	-12.0331
余獨好脩以爲常	-12.0331
作琨一作箟補曰菎音昆香草	-12.0331
使澆殺夏后相少康逃奔有虞虞因妻以	-12.0331
使靈巫緩節而舞	-12.0331
來奄忽難當	-12.0331
侯之波逆流而擊注	-12.0331
信見放故作此辭以辯	-12.0331
倐忽往來終不可逢以喻	-12.0331
倦則使更相代也或曰夕逓代	-12.0331
備輔翼承疑用其謀也承一作丞補曰孟	-12.0331
傷痛而怫鬱也補	-12.0331
先時見任身親近也補曰史	-12.0331
其字從竹方言簙謂	-12.0331
其意矣李善注仲宣賦引荀子	-12.0331
其華芰菱雜錯羅	-12.0331
具不敢寧處親舉枹擊	-12.0331
出史記作汶山列子音義	-12.0331
則更與之俱化	-12.0331
則雲在江北明矣江南則今之公安石	-12.0331
十八年楚囚張儀	-12.0331
卒怒曰暴賊	-12.0331
卜曰篿文選藑作瓊五臣云	-12.0331
原陳已之志於	-12.0331
又猶補曰謂懲	-12.0331
反還也故古也言	-12.0331
古云黃鵠大鳥一舉千里	-12.0331
古者以琴瑟歌詩賦	-12.0331
叨	-12.0331
名嬋媛音蟬	-12.0331
名補曰楚子熊	-12.0331
君䰟作衣乃使秦人織其	-12.0331
周行四方車以弊敗馬又罷極蹇然邅徊	-12.0331
命賢能進有	-12.0331
哀余生之不當兮獨	-12.0331
啓之樂而更作淫聲放	-12.0331
善獲官爵也補曰此言以聖	-12.0331
喟丘愧切方言云憑怒	-12.0331
喟然舒憤懣之心	-12.0331
國䇿云塞漏舟而	-12.0331
國名姚姓舜後也昔	-12.0331
圖謀也言太康不遵禹	-12.0331
土伯東有長人西	-12.0331
土萬民皆得耕種黒黍於雚蒲	-12.0331
在背曰被寳璐美	-12.0331
在衣爲懷在手爲握瑾瑜美	-12.0331
地之圜方居	-12.0331
地之涯兮一作乎	-12.0331
堪誘豷方始滅浞而立少康計太康失邦	-12.0331
堯舜聖而慈仁兮後世稱	-12.0331
墳厥貢藝而	-12.0331
多暇日亦承誤	-12.0331
多難也五臣云太息掩涕哀此萬姓遭輕	-12.0331
大鳥何鳴夫焉喪厥體	-12.0331
奔鄖楚子自郢	-12.0331
始去乗牎舲之船西上沅湘	-12.0331
字春秋傳曰魏大名也一曰象魏闕名許	-12.0331
孫天對云湯摯之合祚以乆食	-12.0331
害見逐亦猶植芳	-12.0331
將徃觀乎四荒	-12.0331
少康夏后相之子也有虞	-12.0331
少康少康滅澆于過后杼滅豷	-12.0331
居如入鮑魚之肆	-12.0331
山郭景純江賦云苞山洞庭巴陵	-12.0331
岷同書曰岷山導江岷山在蜀郡氐道縣	-12.0331
已所不能履行也猶有	-12.0331
帝嚳喻諸國賢君	-12.0331
帝少女追之亦	-12.0331
年而形遯淮南	-12.0331
延望喻君捨	-12.0331
形容異制且鮮明也五臣	-12.0331
得人之肉用祭	-12.0331
得仙俱去張良欲從赤松子	-12.0331
復釋去之是時屈平	-12.0331
心而不見用意中迷惑不知得	-12.0331
忠謀可以安國利民反信	-12.0331
恐懼吞聲小語消滅	-12.0331
悵恨也惝昌兩切怳詡往切驚	-12.0331
我依前代聖賢節度而不得用	-12.0331
所不見微有所	-12.0331
所也五臣云言我積行	-12.0331
所以愁懼也補曰鵙古	-12.0331
所睹愈逺也以言賢者亦	-12.0331
投六箸行六	-12.0331
投合也詩賦雅樂也	-12.0331
振滔洪水以薄空桑注云空桑地名	-12.0331
故歎息憤懣而行澤	-12.0331
文哀今無此人	-12.0331
於天地之間忽若風雨	-12.0331
於辭令入則	-12.0331
於鄂鄂州武昌	-12.0331
旌一作旍補曰蓀荃見騷經橈	-12.0331
旦切巷里中道也此言太康娛樂放	-12.0331
時不可留哀我年命不得	-12.0331
時受封於徐至偃王	-12.0331
晞我形體於天垠也九陽謂天	-12.0331
曰旌旍與旌同諸本或云	-12.0331
曰晞日氣乾也仲長統云沆瀣當飡	-12.0331
曰晞汝髪兮陽之阿張	-12.0331
曰楯軒樓版也言所造之	-12.0331
曰爾雅河鼓謂之	-12.0331
曲也一本句末有兮字五	-12.0331
有賢姊聞原放逐亦來歸喻	-12.0331
有赤蟻南有雄	-12.0331
有鱗曰蛟龍有翼曰	-12.0331
朋黨成衆君稍	-12.0331
杼又年長始	-12.0331
枝一日居上枝九歌	-12.0331
楚地名一作徠歸下	-12.0331
楚所滅按徐偃	-12.0331
楚敗滅不指文王其	-12.0331
楚文王乃春秋時相去甚逺豈春秋時	-12.0331
楚有宋玉唐勒景	-12.0331
樂歌曰奠桂	-12.0331
欲假笙簧	-12.0331
步余馬於蘭臯兮	-12.0331
死於水其神龍	-12.0331
殪壹計切驂見	-12.0331
殺羿因羿室而生澆澆長	-12.0331
民使澆用師滅斟	-12.0331
沖天區也亢	-12.0331
注曰爰出子	-12.0331
流沙漭然平正視之	-12.0331
海經女牀山有鳥狀如翟	-12.0331
液音亦神異經	-12.0331
淮南云武王伐紂渡于孟津陽	-12.0331
深邃下有檻楯上有樓板	-12.0331
滅后相相死之後始生少康少康生杼	-12.0331
漆	-12.0331
潺湲也荒一作慌忽一作惚補曰慌	-12.0331
灌及斟尋氏靡自有鬲氏收	-12.0331
火自燒至崑山上常止西	-12.0331
為露才揚巳	-12.0331
無但見流水之潺湲耳荒	-12.0331
熱心中懲㣻見	-12.0331
爰水經引袁崧云屈原	-12.0331
爾雅云注旄首	-12.0331
猖洋以游輪行九	-12.0331
猶曏者欲釋階登天	-12.0331
獨放逐離别不復	-12.0331
王當周穆王時	-12.0331
王逸本最古凡諸本異同皆當以此	-12.0331
珍瑋道士夀無窮極	-12.0331
瑱靈巫何持乎乃	-12.0331
畢故引玉斗酌	-12.0331
癡	-12.0331
益暢也一本蘭下有生字	-12.0331
眄盲人輕之以爲無明也言賢者遭	-12.0331
眇猶逺也蹠踐也	-12.0331
矣當是時守	-12.0331
石室隨風雨上下炎	-12.0331
禮樂祭祀緒業流於子	-12.0331
禹不得嗣興民	-12.0331
稷契堯佐也言遇明君	-12.0331
竭盡信誠無有二	-12.0331
競起而生各欲滋茂以言	-12.0331
索取也藑茅靈草也筳小折竹也楚人名	-12.0331
組而赤組音祖綺文繒也縞音杲素	-12.0331
結草折竹以	-12.0331
絶其後因留懐王	-12.0331
綾	-12.0331
縱以至失邦耳逸	-12.0331
纂作管切似	-12.0331
羨似面切貪慕也列	-12.0331
義取於陳列耳俗作阜傍車非也躐	-12.0331
翼遙遙其左右	-12.0331
而得二妃以成顯功是不欲逺去之意也	-12.0331
而遥切方言云楫	-12.0331
能傷於我乎哀惜衆芳摧折枝葉蕪穢	-12.0331
能復前而不遇賢君也徊一作	-12.0331
能按熊獸名能奴來切三	-12.0331
脄一作脢補曰脄脢音梅又	-12.0331
自知言不見省用	-12.0331
與室家相失也一	-12.0331
與王圖議國事以出號	-12.0331
興讒賊危害賢人	-12.0331
芳草莖葉五色芳香	-12.0331
茍余情其信芳	-12.0331
荒此言逺望楚國若有若	-12.0331
蓱號起雨何以興之	-12.0331
蕋	-12.0331
蕩爰出子文補曰左傳初若敖娶於䢵生	-12.0331
蘇世獨立横而不流兮	-12.0331
虧歇也言巳愁思安可奈	-12.0331
蜮似鱉三足以氣射	-12.0331
衆容容則無經緯於世人也	-12.0331
被明月之珠	-12.0331
補曰廣雅嗼音莫安也	-12.0331
補曰淮南云鬼出電入又	-12.0331
西走渉睢則當出	-12.0331
見九歌說文逆流而上曰泝洄泝向也	-12.0331
見嫉妬念讒佞之臣承君順非而䝉富貴	-12.0331
言人有歠羮而中	-12.0331
言君施行業以失道身	-12.0331
言天始授殷家以天下其	-12.0331
言神往來奄忽入不語言	-12.0331
謂惡人之行如	-12.0331
謇又訓難易之難非蹇難之字也世所傳	-12.0331
謙	-12.0331
賢才齊列也抗	-12.0331
質性忠信不能巧利	-12.0331
踆	-12.0331
軒檻樓上板	-12.0331
輕陽侯之波則舟覆矣	-12.0331
辯治也辨别也	-12.0331
遂處神山觀濁亂	-12.0331
邪當若伯夷餓於首陽而身垂功名也補	-12.0331
里南北得二萬六千里靈憲曰八極之維	-12.0331
野惟怪之謀補曰穆王事見竹書穆	-12.0331
門郢城門也宋玉設呼屈原	-12.0331
闔廬也夢闔廬	-12.0331
闗秦伏兵	-12.0331
隱詩云直是滅雚莆與圖同韻雚薍也音	-12.0331
集它方又無所之故	-12.0331
離已心獨行忠直身無	-12.0331
雷開佞人也阿順於紂乃	-12.0331
順陽氣而長養也補曰只音止語	-12.0331
飜	-12.0331
髙飛兮安翔	-12.0331
鬼後到特	-12.0331
魯也女讀作汝親之之	-12.0331
鸞俊鳥也皇	-12.0331
􁑇	-12.0331
􁙤	-12.0331
不意明君弃其至美而逢	-12.0333
子椒子蘭宜有	-12.0333
枚氏枚狀如箸	-12.0333
蘭之芬芳而猶若是况衆臣若	-12.0333
外佩衆香此	-12.0333
廣雅謂之枲耳皆以	-12.0333
逢也言已内行忠	-12.0333
子有三角刺人易據于蒺	-12.0333
於證切漢樂	-12.0333
曰遏猶遏絶	-12.0333
臭草也䓃草傷	-12.0333
言乃復舒展	-12.0333
鋗	-12.0333
化其道平直	-12.0333
溢積漸也罷	-12.0333
無失而言蕪穢傾危者心惑意異也以平	-12.0333
采菉三者皆惡草以喻讒佞盈滿	-12.0333
魚鄰鄰兮媵予	-12.0333
一云願自直而徑	-12.0333
一作㩜一作擥洲一作中洲	-12.0333
上通於天也凥一作	-12.0333
中古離騷經首章	-12.0333
乃有窮羿耳淮南云河伯溺殺	-12.0333
之外自事之先朕所不知	-12.0333
之詞非屈原意自	-12.0333
也初懐王二十五年	-12.0333
也周禮訓方氏誦四方	-12.0333
事物之憂不可勝窮欲付之無言乎	-12.0333
云天帝山有草狀似葵其臭如蘼蕪名	-12.0333
人羿射其左目注云	-12.0333
以爲介推田也逸	-12.0333
以甲子日膠鬲還報紂㑹天	-12.0333
以興湘夫人美好亦異於衆人也	-12.0333
作葰五臣云茂盛	-12.0333
使人召之則亡遂求其所在聞其入緜上	-12.0333
公困窮無以自	-12.0333
公子謂公子椒也言已所以	-12.0333
公後背之子推怒而去抱木而燔死	-12.0333
公環緜上山中而封之以爲介推田號曰	-12.0333
典論云優游按衍	-12.0333
冥寞五臣云冥冥暗	-12.0333
冥杳一作晦冥冥一	-12.0333
分布列前後	-12.0333
去其八然司馬相如大人賦率用逺遊之	-12.0333
台	-12.0333
史通云作者自叙其流出於	-12.0333
國雖循江水涯意	-12.0333
堯時羿射十日繳大風殺	-12.0333
子歌龍蛇而文君垂泣也封介山而爲之	-12.0333
客卿備輔佐也	-12.0333
居蓬首虎齒爰穴爰都	-12.0333
并因興兵	-12.0333
彈冠浴蘭莫振衣處世忌太	-12.0333
形夸骨佳不待脂粉芳	-12.0333
徐周衰其後僣號稱	-12.0333
愍一作閔魏文帝	-12.0333
攬盧敢切取也	-12.0333
文云虞舜居姚	-12.0333
於吾心者不可以不發也欲具道	-12.0333
於郭門之外飯牛車下望見桓公乃擊牛	-12.0333
施陽文也媞大奚切媞媞安也一曰	-12.0333
明已年盛時任重	-12.0333
曰古初無物今惡得物自物	-12.0333
此事也補曰列子殷湯	-12.0333
此以下屈原陳己之志於	-12.0333
水之中有盛茂之	-12.0333
漢以來靡麗之賦勸百而	-12.0333
澧水之内有芬芳之	-12.0333
爰於也喟息也言	-12.0333
猶復矯直菌桂芬香	-12.0333
用退而商賈宿齊東	-12.0333
窳	-12.0333
篤因爲變服悲而	-12.0333
紛吾既有此内美兮	-12.0333
而滅徐也故司馬法曰國雖	-12.0333
而無武備楚文	-12.0333
胡繩令之澤好以善自約束終無懈倦也	-12.0333
腴	-12.0333
茂長實核成熟願待天	-12.0333
莫識言巳之心志所	-12.0333
葛之覃兮施	-12.0333
蓀謂司命也言天下萬民人	-12.0333
蕚葉而振氣	-12.0333
衆盛人人曉味故飲食之和	-12.0333
補曰列子曰有形者生於無形則天地安	-12.0333
補曰琬音宛琰音剡皆玉	-12.0333
言不離左右也縞音杲	-12.0333
言天地未分溷沌無垠誰考	-12.0333
言文公思子推親自割其身恩義尤	-12.0333
誠信不可與期也補曰伴讀若背	-12.0333
載其歌曰南山矸白石爛生不遭堯與舜	-12.0333
迷惑也如之也言已思	-12.0333
陂陁長陛也言	-12.0333
陂音頗陀音駞不	-12.0333
陽所興之地名也劉	-12.0333
陽西山上有虞城姚音遥	-12.0333
雄作伴牢愁亦旁惜	-12.0333
雕題黒齒	-12.0333
非是優游大德之	-12.0333
革曰古初有物乎夏革	-12.0333
養衆賢以時	-12.0333
馮珧利決封狶是	-12.0333
馳驅以行道	-12.0333
一云吾今而知其然補曰左氏云三折肱	-12.0333
下九則劉德	-12.0333
不至諸侯不朝	-12.0333
丕	-12.0333
世成敗之道而	-12.0333
乃以屈子與後	-12.0333
乃以穆王與楚	-12.0333
乃更巧詞周流而往	-12.0333
之屈曲再舉則知天	-12.0333
之戒以作歌逸不見全書故以	-12.0333
之紅白又以丹沙畫	-12.0333
之緩急也補曰歸藏曰乾者積石風穴之	-12.0333
之間山海經曰洞庭	-12.0333
乎乃知鮌惡長滿天	-12.0333
乗赤豹兮從文狸	-12.0333
九州土田上中下九等也天對云從	-12.0333
九陽代燭注云九	-12.0333
也一云孰離合兮不可	-12.0333
也汰水波也言	-12.0333
二十三年成王立	-12.0333
于洛汭作五子之歌此佚篇也巷一作居	-12.0333
云司命宫中小神而	-12.0333
云臭如蘪蕪本草云	-12.0333
云舲小船也釋文作柃	-12.0333
云采荃橈兮蘭旗皆後人増改或傳	-12.0333
亦名牽魚毎牽一魚獲二	-12.0333
亦將失其位喪其所也補	-12.0333
亦皆以二妃	-12.0333
亳注云鳴條在安邑之	-12.0333
人乃二妃也從舜南征三苗不	-12.0333
人明目能見百	-12.0333
人而司命獨與我相目結成親親者	-12.0333
今之讀者改假	-12.0333
令貪好攻伐逺征犬戎	-12.0333
以居髙則寒處下	-12.0333
似藥草澤蘭廣而長節節	-12.0333
何曽華之無實兮	-12.0333
作憤補曰班孟堅云坤作地勢	-12.0333
使衆賢志士	-12.0333
來一作倈五臣云言神	-12.0333
六星四曰司命晉書	-12.0333
兮期夕張五臣云佳期謂湘夫人言	-12.0333
其所原於君有同姓之恩而	-12.0333
則飾以翡翠羽	-12.0333
前及衰謝之	-12.0333
劉杳草木蟲魚	-12.0333
卒從其母畜於䢵淫於䢵子之女生子文	-12.0333
即今澤蘭也本草注云蘭草澤蘭二物同	-12.0333
厥其也逢迎也言昭王南遊何	-12.0333
口結舌而不復	-12.0333
古詩之義故子雲有曲終奏雅之	-12.0333
史記曰彈劒而歌曰長鋏歸來乎	-12.0333
各自有美愛臣子司命何	-12.0333
吐葉垂華芳香菲菲上及我	-12.0333
告語也類法也詩云永錫爾類	-12.0333
周禮大宗伯以槱燎	-12.0333
命已猶可以用也補曰捐玦遺佩以	-12.0333
命所憂猶恐不得	-12.0333
咸其脢一曰心上口下拇莫	-12.0333
咸怨述大禹	-12.0333
問造化之神以得	-12.0333
喜也言湯行天之罰以誅	-12.0333
因名曰秭歸縣北有原故	-12.0333
地志云其夷足大指	-12.0333
壯之時棄逺讒	-12.0333
外以求知巳者	-12.0333
夢曰江南之夢	-12.0333
天帝之女以余考	-12.0333
天文志三台六星兩	-12.0333
夫人之神來此歆饗以	-12.0333
失道則危禹湯以王桀紂	-12.0333
妄欲移徙則失甘美之木亡其	-12.0333
姦回莊子曰好言人之	-12.0333
姱好多意長	-12.0333
孫南巡守渉漢船	-12.0333
它皆放此難乃	-12.0333
宅宅之東北有女須廟	-12.0333
宋處士諸葛楚	-12.0333
居閭巷失尊位也尚書序曰太康失國昆	-12.0333
常思念君設欲逺去猶捐玦	-12.0333
平曰秦虎狼之國不可信不如無行懐王	-12.0333
康安也言巳動作衆樂合	-12.0333
引星傳云三台上台司命	-12.0333
張衡靈憲云八極之維徑二億三萬二千	-12.0333
彼君子兮不素餐兮謂	-12.0333
往逢迎之補曰後漢書曰交	-12.0333
後至鄖則雲在	-12.0333
得四白狼四白鹿自是後	-12.0333
復乗大波而遊忽	-12.0333
心也補曰抑沈猶九章云情	-12.0333
心覺自傷又痛	-12.0333
忠信兾君任用而遂斥弃則	-12.0333
房也喻君初好善布	-12.0333
所言皆依前世聖人	-12.0333
挐女居切記云飯黍稷稻粱白黍	-12.0333
改乎此度也五臣云何不早	-12.0333
文云背肉也易	-12.0333
文云馮懣也並音憤	-12.0333
文選注云鋏刀身	-12.0333
於内榮譽外發功	-12.0333
於濁穢以浮游	-12.0333
旁能射人甚者至死陸機云一名射影人	-12.0333
日反安意於草野自歎之詞補曰騁騖弭	-12.0333
日而論其識如此則其文可	-12.0333
昭王之不復君其問諸水濵注云昭王成	-12.0333
時也屈原言巳無新相知之樂而有	-12.0333
智羣聚羅列竟識洞	-12.0333
曰侅溺於馮氣	-12.0333
曰南方有火山晝夜火	-12.0333
曰官湯猶言相	-12.0333
曰舲音靈淮南云越	-12.0333
曼輕細也音	-12.0333
曽莫之恤也蓀亦喻	-12.0333
有美女體色	-12.0333
未照我志之所欲也補	-12.0333
材周禮空桑之琴瑟是也淮南曰舜之時	-12.0333
杜敖即堵敖也天對注云楚人	-12.0333
東西南北各三分也	-12.0333
枝柯長而殺者櫹音蕭槮音森櫹槮	-12.0333
桂蠹以喻食禄之臣也言	-12.0333
楚子文王也莊公十九年杜	-12.0333
楚將適於吳見申包胥謂	-12.0333
樂貪淫我獨好	-12.0333
横四海兮焉窮	-12.0333
歆	-12.0333
歸生堵敖及成王焉	-12.0333
比干聖人紂諸父也諫紂紂怒乃殺	-12.0333
江北也左傳鄭伯如楚王以田江南之	-12.0333
江南其後渉江入	-12.0333
泝潭淵也楚人名	-12.0333
洛之汭五子	-12.0333
涔陽浦水經云涔水出漢中南縣東南旱	-12.0333
湘水出水經云沅水下注洞庭方	-12.0333
湯谷入虞淵也補曰	-12.0333
漢書郊祀志荆巫有司命	-12.0333
焉以其女妻伯比實	-12.0333
然抱朴子曰南海蕭丘之中有	-12.0333
猨啾啾兮又夜鳴	-12.0333
王之十六年張儀相楚	-12.0333
王欲與懷王㑹屈平曰	-12.0333
珎兮摭彭咸之所遺	-12.0333
環旋也言王者	-12.0333
申包胥楚大夫也	-12.0333
發洩和氣温燠萬物蠢然	-12.0333
盛少之時願驅馳於君	-12.0333
示有還意佩一作珮醴一作	-12.0333
神無形聲難事易失然人竭心	-12.0333
神禽能致風氣晉灼曰飛	-12.0333
祭日也夜明祭月	-12.0333
禄不建忠信妄行佞	-12.0333
竅天對曰無營以成沓陽而九	-12.0333
絙竟也房室也言	-12.0333
維秠爾雅曰秬黒	-12.0333
繫曰瞽叟生重華是	-12.0333
羽翼弱水暮宿風穴注云風穴北	-12.0333
者歎逢時之不幸也	-12.0333
而䝉世俗之塵埃乎	-12.0333
而溺史記昭王之時王道微	-12.0333
能熊屬足似鹿然則能	-12.0333
臣云鸞皇靈鳥	-12.0333
自娛樂不顧患難不謀後世卒以失國兄	-12.0333
舜二妃者秦博士對始皇帝	-12.0333
舲船船有牎牖者補	-12.0333
芎藭其葉名蘼蕪似蛇床而香騷	-12.0333
莫大於男女	-12.0333
萎病也絶落也	-12.0333
葬於九疑山在沅湘之南	-12.0333
蠹食芬香居髙顯不知	-12.0333
行且賣也曵衒言夫婦相引行賣於市也	-12.0333
補曰此章以東皇喻君言人臣陳	-12.0333
補曰此言愛其子者人之常情非司	-12.0333
襲及也予我	-12.0333
西史記桀敗於有娀之	-12.0333
親親也五臣云滿堂喻天下也謂天下	-12.0333
言天圜而九重誰營	-12.0333
言湯初舉伊尹	-12.0333
記天官書文昌	-12.0333
謂成南征之遊猶所謂斯遊遂成也	-12.0333
賊害也姦惡也言天有虎豹地有	-12.0333
賢然猶髙行抗志終不	-12.0333
越裳氏獻白	-12.0333
足還師而歸當此之時周之命令	-12.0333
踏	-12.0333
辛幸若少康留止	-12.0333
遺竊視也矊	-12.0333
遽猶競也言春	-12.0333
鄖則今之安州渉江而後至雲入雲然	-12.0333
野又曰造攻自鳴條朕	-12.0333
野天下衆民大喜	-12.0333
陽日也陽谷上有扶木九日居下	-12.0333
陽氣奮起上	-12.0333
雉昭王德不能致欲	-12.0333
雖放逐不以窮困易其	-12.0333
雖昇青冥猶	-12.0333
雚一作莆藿補曰詩云維秬	-12.0333
難法我倣前賢以	-12.0333
青青青青茂	-12.0333
音乂謂懲創也以可	-12.0333
音妹脊側	-12.0333
音朔萷櫂木無	-12.0333
願身行善常若於今	-12.0333
類補曰虬見騷經螭	-12.0333
飛泉又張揖云	-12.0333
飾軒版承以黒玉之梁五	-12.0333
養其羽翼一飛則見山川	-12.0333
騰馳也言美女之	-12.0333
麋獸名似鹿也食一作	-12.0333
黍禾屬而黏也莆疑即蒲字蒲水草可	-12.0333
黍秠一稃二米秠亦黒黍但中米異	-12.0333
喜樂而逸豫言	-12.0334
御六氣之辨	-12.0334
白蘋兮騁望	-12.0334
仁傑按說文蘘荷一名葍蒩	-12.0334
大指之趣略可見矣且人臣之義以忠正	-12.0334
章句雖未能究其	-12.0334
車以喻君馬以喻臣	-12.0334
勃誠難虧歇	-12.0334
厥美以從俗言子蘭之自	-12.0334
爾雅云菉王芻菉蓐也本草云藎	-12.0334
而彌盛至今尚未	-12.0334
下崢嶸而無地兮	-12.0334
何卜而以問詹尹何哉時之人去其所當	-12.0334
作澒補曰澒鴻並乎孔切溶音勇水盛	-12.0334
傾危則以忠正	-12.0334
商支切形似	-12.0334
喆	-12.0334
大龜烹之作羹調	-12.0334
如砥其直如矢	-12.0334
展詩兮㑹舞	-12.0334
汩陳其五行帝乃震怒不	-12.0334
焉得彼嵞山女而通之於台桑	-12.0334
畀	-12.0334
竹而細薄莖亦	-12.0334
罪也一無山字施一作㢮補	-12.0334
羽山絶在不毛之	-12.0334
不量才能視	-12.0334
何氾濫之浮雲兮	-12.0334
凙氷結也引此	-12.0334
天災地變乃	-12.0334
將送徃勞來	-12.0334
攜	-12.0334
汎汎楊舟	-12.0334
直判然離别不與	-12.0334
禹行其所無事	-12.0334
而耳目所接有感	-12.0334
芙蓉蓮華也上曰衣下曰裳言巳	-12.0334
芰荷集合芙	-12.0334
言衆人皆佩薋菉枲耳	-12.0334
詩曰竚立以泣釋	-12.0334
進不見納猶復裁製	-12.0334
丘今東郡濮陽是也張晏曰	-12.0334
之子孫是恩深而義厚也	-12.0334
之志也青春受	-12.0334
之意耳楚之興衰天邪人邪	-12.0334
之衆屯其相離言不與	-12.0334
乎吾之將行仍羽人於丹丘	-12.0334
也徐偃王國名也周宣王之舅申伯所封	-12.0334
也淮南子曰口辨而	-12.0334
人告誰當察我中情之善否也	-12.0334
人莫我知也知我者其天	-12.0334
今脩飾而窺鏡兮	-12.0334
何毀譽之昧昧	-12.0334
侈極妙相如之長也然原據託譬喻其意	-12.0334
侍從之人皆衣	-12.0334
俛也補曰軒曲輈	-12.0334
傺丑利切又上	-12.0334
元氣温煖不殞零也補曰	-12.0334
公子椒者以其知已忠信	-12.0334
其所以然乎而天地	-12.0334
可安居何用	-12.0334
吾之用捨天邪人邪國無	-12.0334
四時逓來而卒嵗兮	-12.0334
外困羣佞内	-12.0334
天問之作其㫖逺矣	-12.0334
天固不可問聊以寄吾	-12.0334
嫓	-12.0334
居天對云積	-12.0334
屈原傳獨載懐沙之賦	-12.0334
御一作禦補曰御魚	-12.0334
慈其子不可任也桓公	-12.0334
懼命奄忽不踰年也一	-12.0334
戒桓公曰竪刁自割易牙	-12.0334
據切詩云我有	-12.0334
擥彗星㠯	-12.0334
故孔子無所不佩也言已	-12.0334
明月銷鑠而減毁	-12.0334
易有太初有太始有太素氣形質具而未	-12.0334
曰夕宿乎明光明光即丹丘	-12.0334
曰異哉歌者非常人也命後車載之三	-12.0334
曰遂古以來天	-12.0334
曰雨甚軍士苦之請且休息武王曰吾許	-12.0334
有子孫司命何	-12.0334
楊木之輕舟就	-12.0334
渉四逺也補曰天台賦云覩靈驗而遂徂	-12.0334
漁父皆賦也後之作者茍得其一體可以	-12.0334
澒濛氣也朅去也澒一	-12.0334
烹子此二臣者不愛其身不	-12.0334
無常之風以興邪惡	-12.0334
申伯畨畨	-12.0334
紛錯憒亂也言巳念我楚國風	-12.0334
羽人之國不死之民或曰人得道身	-12.0334
至骭從昏飯牛薄夜半長夜漫漫何時旦	-12.0334
萷音梢萷蔘木枝竦也釋文文選	-12.0334
蕭統作文選自騷經卜居漁父之外九歌	-12.0334
補曰晼音宛景	-12.0334
補曰逴竹角切	-12.0334
裳襜襜而含	-12.0334
視楚國山林長逺遼遼	-12.0334
言巳遭時之不幸無可奈何	-12.0334
謂侍從於君遊陂池之中赫	-12.0334
變化豈思慮智識之所能究哉	-12.0334
軒輬皆輕車名也低屯也	-12.0334
造飲食亦多方	-12.0334
階陛也或曰侍陂池	-12.0334
雨道難行武王晝	-12.0334
驚帝切激何逢長之	-12.0334
鶴皆銜明月之珠以	-12.0334
㑹一作合補曰卒終	-12.0334
㯤	-12.0334
䩉	-12.0334
一作美衆一作終補曰	-12.0334
不復香荃蕙化而	-12.0334
不慮艱難卒遭憂患	-12.0334
不旋踵也歸來一云歸來歸來一作歸來	-12.0334
中禮意也謇一作蹇五臣云謇正直	-12.0334
乃可切補曰集韻㫊倚可切其字從可	-12.0334
之上者有四謂代秦鄭	-12.0334
之二女舜妃者也劉	-12.0334
之以享神者艾即今之灸病者名	-12.0334
之士孤焭特獨何	-12.0334
之志皆並進取貪婪於財利中	-12.0334
之欲以懷來也一云夫何	-12.0334
之焉至補曰委音逶焉於	-12.0334
之言而事用謟讒之人也	-12.0334
之鳴竽也伏戲之	-12.0334
九合諸侯一匡天	-12.0334
也不敢指斥尊者故言佳也張施也言	-12.0334
也乃被髪詳狂而	-12.0334
也以喻已修潔白不能	-12.0334
也周禮曰凡邦之張事漢書	-12.0334
也言紂憎輔弼不用忠直	-12.0334
事君反見邪惡之人相	-12.0334
于中谷又曰南有樛木葛藟纍之蔓莫干	-12.0334
云佳善也廣雅云	-12.0334
云天宗三日月	-12.0334
云洞深也補曰絙與亘同	-12.0334
云都大也房花	-12.0334
五人御其母以從徯	-12.0334
五谿又零陵郡	-12.0334
人之徽美也塵一作虚補曰列仙傳	-12.0334
人悉欲來害巳有招禍之道	-12.0334
人謂萬民也一云夫人兮自有美子補曰	-12.0334
人長之極幾何仲尼曰長者不過十之數	-12.0334
仁賢若鸞鳳之人	-12.0334
仙傳齊人韓終	-12.0334
以求禄位亦	-12.0334
以致於治非獨索蕙	-12.0334
以芷草及荷葉	-12.0334
任一人也故堯有禹咎繇伯夷	-12.0334
任也五臣云虬螭皆龍	-12.0334
伯掃塵自此巳	-12.0334
何承謀夏桀終以滅喪	-12.0334
作伏補曰書云伊尹相湯	-12.0334
佩也相如賦云蕙圃衡蘭顔	-12.0334
佩忠信芳香之行彌加明	-12.0334
佩服莫不盛	-12.0334
佳好也張音帳陳設	-12.0334
使張儀之楚	-12.0334
來無形近而視之	-12.0334
備行度清白也珮一作佩五臣云被猶	-12.0334
兩司命也祭法王立七祀諸侯	-12.0334
兩而居西近文	-12.0334
公子各樹黨爭	-12.0334
六十七日尸蟲出	-12.0334
其城方三百里蓋天	-12.0334
其後又云景芉姓楚	-12.0334
其節度則諸樂人各	-12.0334
冀過不成得免	-12.0334
切貪也諸本作	-12.0334
則原之自處審矣或曰原用智於	-12.0334
則履名也楚詞屢言堯舜禹湯今辨	-12.0334
則芬香滿徑七八月開白花管子曰五	-12.0334
則謇然發言	-12.0334
則防風氏也今湖州武康縣東	-12.0334
南有虫名短狐谿毒亦名射工其虫無目	-12.0334
即時還車將即中土乃使	-12.0334
及令尹子蘭	-12.0334
古穴切如環而有缺左傳曰佩以金玦	-12.0334
史魚之直耳	-12.0334
司馬子椒内賂夫人鄭	-12.0334
同本非一物詩	-12.0334
名山注云息土不耗滅掘之益多故	-12.0334
名與日月同耀一云同	-12.0334
名近附郢極逺也浦水	-12.0334
后惑而愛之遂	-12.0334
君子之所貴也屈原惟不	-12.0334
君知淺短無	-12.0334
告也又萬章曰舜之不告而娶則吾	-12.0334
周旋也言已所居在	-12.0334
命臣之瑞故與環即還與玦即去也補	-12.0334
咸皆也秬黍黒黍也雚草	-12.0334
哀故都之日遠	-12.0334
品禹何以能分别之乎	-12.0334
喜闒茸心迷	-12.0334
喻張設忠信以待	-12.0334
四上謂上四國代秦鄭	-12.0334
四五月間生葉作叢而莖細其葉倍	-12.0334
土伯之狀廣肩厚	-12.0334
在東方少陽之	-12.0334
執貞潔之行不	-12.0334
塵埃之外不獲世之滋垢	-12.0334
墨而不頗遵亦循也作脩非是易泰卦云	-12.0334
墳分也謂九州之地凡有九	-12.0334
壇祭寒暑也	-12.0334
天之罰也黎謂羣	-12.0334
天對云行鴻下隤厥丘乃	-12.0334
天有九重誰	-12.0334
夫牛羊其初以何	-12.0334
女工於嫮眄好	-12.0334
如是也補曰莊子曰吾	-12.0334
妃故曰君其二女女英	-12.0334
姓纂云屈楚公族	-12.0334
娛樂也亂理也言美女起舞叩	-12.0334
娭戲疲倦	-12.0334
媞儀容姣好屏不得見	-12.0334
媯	-12.0334
子能亡之我能存之遂出奔	-12.0334
子補曰左傳楚子滅息以	-12.0334
孔子誅少正卯也釋文詬作訽	-12.0334
字補曰懰音留懰慄憂	-12.0334
宗元作天對失其㫖矣王逸	-12.0334
害可也有官守	-12.0334
害忠貞乃曰哀哉	-12.0334
寒下者氣熱注	-12.0334
寗武子之愚	-12.0334
將往觀乎四荒	-12.0334
屈原怨毒楚俗嫉	-12.0334
屈因氏焉屈重屈蕩屈建屈	-12.0334
州東南神州曰農土正南次州曰	-12.0334
已將執忠死節故以此明白	-12.0334
巳雖欲之四方荒	-12.0334
帝高陽之苗裔兮	-12.0334
帳與夫人期歆饗之也一本佳下有人字	-12.0334
常行雖獲罪	-12.0334
幡	-12.0334
干醢梅伯武王杖	-12.0334
年時欲暮才力	-12.0334
庶毎生是也集韻云梅母罪切慙也梅母	-12.0334
弱心志和調	-12.0334
形體白而質素兮中	-12.0334
彷彿若存逺而望	-12.0334
往求同志之士欲與俱共	-12.0334
後漢書云其俗男女	-12.0334
復無彊友黨輔以保	-12.0334
徳以變説君也	-12.0334
心雖滿猶復求索不知猒飽也憑一作	-12.0334
必有車轍馬	-12.0334
忠直之害也一云九折臂而	-12.0334
快其情也䠶一作射補曰馮音	-12.0334
恥弱顔易媿心志堅固不可侵犯	-12.0334
想侍虞舜遊玉	-12.0334
惶遽怵惕之憂也一作	-12.0334
意援引憤懣盡	-12.0334
憑一作慿一作馮五臣云中	-12.0334
我之屋上流水周旋	-12.0334
我所以遭難者吾法前	-12.0334
或白色隂氣也郭氏云雄曰虹謂明盛	-12.0334
所去取未必當也自漢以來靡麗之賦勸	-12.0334
所用合脂爇	-12.0334
手指青丘北東盡	-12.0334
投擿也言犲狼得人不即	-12.0334
持權衡能無私阿稱	-12.0334
掃張施帷	-12.0334
故我悵然失志而忘歸也補曰怨	-12.0334
故王仲宣登樓賦云登兹	-12.0334
敖堵敖楚文王兄也今哀懷王將	-12.0334
文昌宫第四曰司命按史	-12.0334
文義不次序夫	-12.0334
文選作猗柅上音倚下女綺切五臣	-12.0334
文霓屈虹青赤	-12.0334
於堂而司命獨與我睨	-12.0334
於桀放之鳴條之	-12.0334
於民吾不忍	-12.0334
昌二星曰上台	-12.0334
明月之珠不能無纇注云	-12.0334
明珠而貴魚眼	-12.0334
星其生無父母登假三	-12.0334
星房星東方之宿蒼龍之體也傅	-12.0334
星辰地宗三太山河海一云六爲地數	-12.0334
是以獲没於祗宫史記云周穆王得驥温	-12.0334
時猒飫而不用兮且	-12.0334
暗㣲者虹者隂陽交	-12.0334
曰乾元用九乃見天則淮南	-12.0334
曰天地九重人亦有九	-12.0334
曰我必亡郢申包胥	-12.0334
曰汜濫也音泛	-12.0334
曰競婪盧含切	-12.0334
曰絶人以玦皆取弃絶之義莊子曰緩佩	-12.0334
曼澤也言復有異	-12.0334
有似月光故曰	-12.0334
有扈之國其後子孫遂	-12.0334
有景差漢徙大族昭	-12.0334
有湘君又有湘夫	-12.0334
服行也用也武王數紂曰賊虐諫輔	-12.0334
朝歌之山有莽草焉	-12.0334
東海人祭禹廟不用熊	-12.0334
東維託龍尾	-12.0334
桀遂與桀戰	-12.0334
梅貪也言穆王巧於	-12.0334
棺桓公尸在牀上	-12.0334
楚詞隋有僧	-12.0334
樂而忘歸徐偃王作亂造	-12.0334
樂耳今俗猶言借日度時	-12.0334
樓以四望兮聊假日以消憂	-12.0334
橢其脩幾何㯐與橢同通作隋	-12.0334
歌曰滄浪之水清兮可以濯	-12.0334
此焭獨言世俗之人	-12.0334
殁	-12.0334
沃土西南戎州曰滔	-12.0334
治道補曰遺去聲	-12.0334
注云秋蘭香草生	-12.0334
渠封中子紅	-12.0334
湖澤之中衆鳥	-12.0334
湘君者自其水神而謂湘	-12.0334
湯也位一作德天對曰	-12.0334
湯則湯號也湯自稱予小子履	-12.0334
湯湯洪水方割	-12.0334
源出牂牁且蘭縣至郡界分	-12.0334
炎氣南方火也	-12.0334
焉祭公謀父作祈招之詩以	-12.0334
無道之邦虧明哲	-12.0334
然涅而不緇雖與日月爭光可也班固以	-12.0334
然盛美神以歡欣猒飽喜樂則身	-12.0334
狩不返卒於江上其卒不赴告諱之也成	-12.0334
王時思念我顧不肯以閒暇	-12.0334
王欲誅之襃人乃入此女以贖罪是	-12.0334
王逸皆曰香草不分别也近時劉次莊	-12.0334
玕	-12.0334
玦又遺下女以杜若好	-12.0334
璞云香草葉小如萎狀山海經	-12.0334
璞與王逸俱失也堯之長女娥	-12.0334
甘美也災害也言此物	-12.0334
用思愁苦也以一作	-12.0334
異耳詩云士與女方秉蕳兮	-12.0334
異若以鮮卑之帶約而束之也補曰前漢	-12.0334
登山入水周六合也漂一	-12.0334
皋蘭被徑兮斯路漸	-12.0334
盛時顔貌未	-12.0334
直超越回邪志其法	-12.0334
相與朋黨並相薦舉忠	-12.0334
睇眄之也補曰淮南曰離朱之明	-12.0334
祀張帷帳	-12.0334
祉	-12.0334
秀材之士隱處者也言石葛者喻	-12.0334
稽疑聖帝兾聞	-12.0334
穆天子傳云天	-12.0334
立及桓公卒遂相攻以故宫中莫敢	-12.0334
笑蛾眉曼澤	-12.0334
精著於房尾也補曰大火謂之大辰大辰	-12.0334
紂發遣干戈攻伐之	-12.0334
紛而衆盛忠信勃勃而愈明	-12.0334
終不能得但見山石磊磊	-12.0334
終身貧賤而困窮也知一作	-12.0334
結也理一作治一本此二句	-12.0334
經者屈原之所作也屈原與楚同姓仕於	-12.0334
縁鵠飾玉后帝是饗	-12.0334
縣地是也隋以鄂渚	-12.0334
縫	-12.0334
美加之忠信貞潔而遭	-12.0334
美終以困苦而癯	-12.0334
美飲之醲滑入口消釋不苦歰令	-12.0334
老視天下賢人將持玉帛而聘遺之與俱	-12.0334
者代虐以寛故	-12.0334
者初疑靈氛之言復要巫咸巫咸與百神	-12.0334
者帝舜之后不當降小水	-12.0334
而伐楚破郢昭王出奔於是申	-12.0334
而侍左右也以言親近小人斥逐	-12.0334
而死孔子稱	-12.0334
而無所告也補曰七發	-12.0334
而生各有所樂或樂諂佞或	-12.0334
聞強志明於治亂	-12.0334
聽用我言而納受之也焭一	-12.0334
背逐人駓駓其走捷	-12.0334
能乆長也一本以下有楚	-12.0334
臣云四句皆喻	-12.0334
臣云曼長也補曰李善云	-12.0334
臣者思與同志復	-12.0334
自太史公口論道之多所不逮至於劉向	-12.0334
自生之火常以	-12.0334
與屯聚謀欲離	-12.0334
與鳥獸魚鱉同	-12.0334
與麋鹿同坈	-12.0334
舉也補曰軛於革切車轅前	-12.0334
良醫一云吾至	-12.0334
艾也豈一作非文選可作何五臣云言我	-12.0334
茅失其本性也以言君子更	-12.0334
荒逺也言巳欲進忠信以	-12.0334
莅	-12.0334
菲菲猶勃勃芬香	-12.0334
菹之稱菜肉	-12.0334
葛草蔓蔓或曰三秀	-12.0334
蕪相如賦云穹窮昌蒲江離	-12.0334
蜮射人者也前漢五行志云蜮生南越亂	-12.0334
行不容於世故欲渡沅湘之水南行	-12.0334
表商容之閭也補曰比干諫	-12.0334
補曰上謂遡流而上也上上	-12.0334
補曰並所立切集韻作	-12.0334
補曰怦披繃切心急一曰忠	-12.0334
補曰涔音岑碕音祈曲岸也	-12.0334
補曰軫石謂石	-12.0334
襟	-12.0334
西施美女也媞媞好貌也詩曰好	-12.0334
見信用而身放	-12.0334
見水中投人影則射之或謂含沙射人孫	-12.0334
視霜雪江潮之流憂思在心	-12.0334
言先進靡麗	-12.0334
言哀我之生不當昭	-12.0334
言四國競發善氣	-12.0334
言巳依聖王法而	-12.0334
言復作重層之臺累石之榭其	-12.0334
言我以司馬子蘭	-12.0334
言日夕將暮巳	-12.0334
言有扈氏所行	-12.0334
言楚國戸服白蒿滿其要	-12.0334
言美人肥白潤澤小骨厚肉	-12.0334
言若得值於此時而我年	-12.0334
言萬民衆多美人並㑹盈滿	-12.0334
言責斯用智矣山甫明哲固保身之道	-12.0334
言鬼神荒忽	-12.0334
設祭具夕早灑	-12.0334
詞則靈氛之占誠吉矣然	-12.0334
詞賦之宗雖非明哲可謂妙才王逸以	-12.0334
誤耳天對云維莞	-12.0334
誦謂之賦五臣以	-12.0334
謂之箭裏或	-12.0334
謂未成君而死曰堵	-12.0334
譯	-12.0334
讀天問悲其志者以此	-12.0334
讀若迓霓五稽五	-12.0334
讒受其微言	-12.0334
讒邪所蔽進退不可	-12.0334
谷有虺蛇左	-12.0334
豈太史公取其語以作	-12.0334
貪愛食曰婪以	-12.0334
貴臣上官大夫靳尚之屬	-12.0334
赤也言美女儀容	-12.0334
身體燋枯	-12.0334
車管仲之力也國	-12.0334
車而西行褰	-12.0334
輂	-12.0334
輦	-12.0334
逺猶整飾儀容	-12.0334
遂以危殆也五臣云君謂東皇也	-12.0334
遂居蓬萊處崑崙也補曰	-12.0334
遂自投汨羅以死原	-12.0334
遇聖帝升清朝也遊一作游	-12.0334
遣伐器謂羣	-12.0334
遽趣也爽差也存前也言乃	-12.0334
鉞行天罰殷宗遂	-12.0334
闕拜天皇受	-12.0334
陟遥切早也騁	-12.0334
除去穢累而反	-12.0334
陵自前古立以祠堯之	-12.0334
陸機云蕳即蘭也其莖葉	-12.0334
隋唐書志有皇甫遵訓參解楚辭	-12.0334
雀有角而蛇尾豹文河圖	-12.0334
雰音芬詩傳雰雰雪	-12.0334
霜露之精以自潔也補曰	-12.0334
音媒亦非也左傳云穆王欲肆其心周行	-12.0334
音扶考工記曰夫人而能	-12.0334
題交趾注云交趾足相	-12.0334
願以此夕設祭	-12.0334
食先懸其頭用之	-12.0334
香或蒔於園庭	-12.0334
駑驘雜駿馬重班駮	-12.0334
鳴條放之也致罰者湯誥所謂致	-12.0334
鳴條此言條放者自	-12.0334
黎民咸貳乃盤	-12.0334
黎百姓也湯以臣放君而黎民	-12.0334
齊同也言牀上之	-12.0334
􁂺	-12.0334
􁆠	-12.0334
􁍞	-12.0334
蘘	-12.0335
也芬一作芬芬勃	-12.0336
作顧五臣云銜枚所以	-12.0336
寵遇錫祉	-12.0336
文云芬艸初生其	-12.0336
覆天地也補曰淮南云深閎	-12.0336
言其凶傷詩牆有茨	-12.0336
言者也補曰周禮有銜	-12.0336
小生平澤溪澗之側俗名	-12.0336
度執守忠貞以自娛樂	-12.0336
斁鯀則殛死禹乃嗣興天乃錫禹	-12.0336
梧桐食竹實	-12.0336
䂓	-12.0336
不縱兮騏驥絆而不試	-12.0336
五臣云騏驥伏匿	-12.0336
叙孟子曰禹之治水水之道也鮌	-12.0336
哀上愚蔽心不照也識一	-12.0336
士而用舉肥美者不言其才	-12.0336
好夫鴆之不可	-12.0336
寄切生水中葉浮水上花	-12.0336
將與百卉俱	-12.0336
工氏興霸於伏羲神農之間其後	-12.0336
庭而獲富貴汝獨服蘭蕙守忠	-12.0336
泊莽莽兮與埜草同死	-12.0336
茍中情其好脩兮	-12.0336
蓬艾親入御於床笫兮	-12.0336
補曰泊止也莽莽莫古切草	-12.0336
識音試亦音志	-12.0336
長太息而増欷	-12.0336
高宗夢得説	-12.0336
不從使專國政桓公卒二子各	-12.0336
也二或作五補曰淮南云崑崙虚	-12.0336
也芰䔖也秦人曰薢茩荷芙蕖也	-12.0336
云屈原賦二十五篇然	-12.0336
佻輕也巧利也言又使雄鳩銜命而往	-12.0336
側無常善者佑之	-12.0336
先驅顔師古云先驅導路也	-12.0336
則神靈應之而雨以	-12.0336
句絶誤矣侘敕加	-12.0336
周本紀云百夫荷罕旗以	-12.0336
和屈原自傷獨無和也	-12.0336
因就衆仙於明光也丹丘晝夜常明	-12.0336
國富強而法立兮	-12.0336
塞而平之乎補曰	-12.0336
天帝天帝猶不順羿之所	-12.0336
威怒益盛刑酷烈	-12.0336
子推推亦不言禄禄亦不及介子推從者	-12.0336
御曰望舒亦曰纎阿史記	-12.0336
文公出見其書曰此介子推也吾方憂王	-12.0336
明則太息增歎	-12.0336
曰閶闔之門西北方不周之山曰幽都	-12.0336
未至隱者介	-12.0336
李善云先驅前驅也周	-12.0336
柔媚善也補曰汋	-12.0336
柯彷彿而萎黄	-12.0336
極之山曰寒門凡八極之雲是雨天下八	-12.0336
氏屈原自道本	-12.0336
相離故曰渾淪又曰一者形變之始也	-12.0336
矣求其友聲又曰呦呦鹿鳴	-12.0336
禮王出入則辟	-12.0336
索昔各切草有	-12.0336
肌肉空虚皮乾	-12.0336
膚若氷雪綽約若處子質銷鑠謂凡質	-12.0336
與君共祖俱出顓頊	-12.0336
與妙同要眇精微	-12.0336
言洪水淵泉極	-12.0336
言隂陽通感風雨相	-12.0336
記晉初定賞從亡	-12.0336
辟芷以為衣被	-12.0336
音綽汋約柔弱	-12.0336
㙁補曰方言云梅貪也亡改切其字從手	-12.0336
䛕者衆也補曰磊衆石	-12.0336
一作幡一作潘補	-12.0336
一惡天命無常罰佑之不恒也	-12.0336
一本萃上有何字五	-12.0336
七千三百九里注	-12.0336
三秀謂芝草也補曰爾	-12.0336
下任竪刁易牙子孫相殺虫	-12.0336
下建章宫太液池中師	-12.0336
下脯鬼侯以饗	-12.0336
不可佩也以言君親	-12.0336
不絶聲勺飲不入	-12.0336
丘楚地名也五臣云女神女喻忠	-12.0336
並讀作側聲司馬温公云約賦但	-12.0336
之同姓無可去之義有	-12.0336
之氣雲薄漏日日	-12.0336
之節者固乃前	-12.0336
乘鷖則時乘六龍	-12.0336
也以諷其君迷不	-12.0336
也天對云條伐巢放	-12.0336
也文選作蹇五臣	-12.0336
也決䠶韝也封	-12.0336
也淮南子曰申茮杜	-12.0336
也補曰老子云寵	-12.0336
也言投人巳訖上致命於天	-12.0336
也試一作誡予一作與彰一作	-12.0336
也論語曰桓公九合諸侯不以兵	-12.0336
二物乎抑亦以左傳國語不同兼	-12.0336
于有洛之表十旬弗反有窮后羿因民弗	-12.0336
云稷即穄也今楚人謂之稷穱音捉	-12.0336
云自暘谷至虞淵凡十六所	-12.0336
云蘭生深林本草亦云一種山蘭	-12.0336
五臣云切雲冠名補	-12.0336
五音宫商角	-12.0336
五音紛兮繁㑹	-12.0336
人思與同志終不變更也五臣云欲將	-12.0336
人臣者三諫不從則去	-12.0336
以忠信事君可質於	-12.0336
以此告之逸注以堵敖	-12.0336
以能屈案心志含	-12.0336
伐器攻伐之器也言武王伐	-12.0336
何乎罪若紂也乃	-12.0336
作來補曰迴翔猶	-12.0336
佩纕以結言同意喻求賢也遺平	-12.0336
保身之義可乎曰愚如武子全身逺	-12.0336
偃蹇而舞芬芳菲菲盈滿	-12.0336
傷害也言已又觀人君私愛佞	-12.0336
傷害賢臣者國以	-12.0336
六宗孔子曰所宗	-12.0336
六宗星辰風伯雨師司中	-12.0336
六宗此之謂也孔	-12.0336
其輕巧而不信	-12.0336
内東西二萬八千里南北二萬六	-12.0336
凌冬不凋山海經桂林	-12.0336
出不忘本行則思歸物之	-12.0336
切又古豆切禮記曰	-12.0336
切索求也書序曰八卦之	-12.0336
切至唐傳楚	-12.0336
切通作蜺文選云雲旗	-12.0336
列也先儒以重華	-12.0336
利之劒戴崔	-12.0336
劉向列女傳舜陟方死於蒼梧	-12.0336
包胥乃之秦請救兵	-12.0336
十六二十七年㑹幽僖元年㑹檉二年㑹	-12.0336
十有五十三年㑹北杏十四	-12.0336
南北二億三萬一千三百里竪亥左手把	-12.0336
危殆也楚之無極	-12.0336
厲怒勢氣益盛援一	-12.0336
取聲律便美非霓	-12.0336
古公欲立王季令天命及文王	-12.0336
古書通用今澧州有佩浦因楚詞	-12.0336
吉日以齊戒張揖	-12.0336
同扶羽切頰車也左	-12.0336
名帝稱禹不稱文命則文	-12.0336
君禮記舜葬於	-12.0336
君謂女英帝子各以	-12.0336
呼奮擊其翼獨何以將	-12.0336
唯獨也昭明也虧歇也	-12.0336
善日吾將去君而逺行也	-12.0336
四馬也虬龍類也渠幽切	-12.0336
國馬融王肅皆以醴	-12.0336
在前獨何以行之乎補曰爭	-12.0336
在山源谿水中聞人聲便以口中毒射	-12.0336
在長沙水經云澧水出武陵充	-12.0336
堅劉勰皆以	-12.0336
大渾之樸而立至清	-12.0336
太史公曰離騷	-12.0336
女英也孟子曰舜不告而娶	-12.0336
女英隨舜不反没於湘	-12.0336
好脩直節獨	-12.0336
如堵敖不長而死	-12.0336
媻	-12.0336
子子蘭勸王行奈何絶秦歡	-12.0336
子曰食其不妄	-12.0336
子有角者相如賦云六玉虯謂駕六馬以	-12.0336
害至於荃蕙	-12.0336
將氾氾若水中之	-12.0336
就舜敶詞自	-12.0336
尸子云五尺犬	-12.0336
屬音注連也吕氏春秋曰風師曰飛	-12.0336
屯車繫馬而留止也白水	-12.0336
山出五色流水其白水入中國	-12.0336
山海經云東曰空桑之山注云	-12.0336
崑崙懸圃非經義所載然而文辭麗雅	-12.0336
嵬之冠其髙切	-12.0336
已願往芬芳絶異之洲采取杜若以與	-12.0336
帝子謂堯女也降下也言堯二	-12.0336
帝然後乃得眠卧也瞑	-12.0336
干紂諸父也屈原楚同姓	-12.0336
引陵魚曷止與逸	-12.0336
後楚武王子瑕食采於	-12.0336
忠佞兩心不可同吾將逺	-12.0336
性若金石故	-12.0336
息自恨懷道不得	-12.0336
悲霜雪之俱下兮聽潮水之相	-12.0336
愛讒佞憎逺忠直而不肯近	-12.0336
懸釋文作縣娭	-12.0336
成反覆亡之	-12.0336
所受瑞麥來	-12.0336
所願不得失其所也補	-12.0336
拂霓又云俯而觀乎雲霓沈約	-12.0336
推言之也禮有小君	-12.0336
掩塵埃而上征去離	-12.0336
提耳屈原婉順離騷之文依經立義駟虬	-12.0336
揺注云將笑故好齒	-12.0336
放在草野憂心愁悴精神散越故自招其	-12.0336
文云青薠似莎者司馬相如	-12.0336
斵	-12.0336
於口秦伯哀之	-12.0336
於江湘之間俗謂之湘	-12.0336
於蕭艾兮信未	-12.0336
日可致千里以言任賢智則可成	-12.0336
旦不嘉其意	-12.0336
易牙與竪刁	-12.0336
曰獨天不生必	-12.0336
曰羽人飛仙也爾雅曰距齊州以南戴	-12.0336
曰釋名曰敷布其義謂之賦漢書曰	-12.0336
曰陼韓詩章句	-12.0336
曲沃歸胙于	-12.0336
書云太康尸位以逸豫滅厥	-12.0336
月開花帶紫白色此	-12.0336
有玉澤之質二美雜㑹兼在於	-12.0336
木是矣其以申	-12.0336
木謂之臺有木謂之榭補曰	-12.0336
楚東使於齊以結強黨	-12.0336
極盡也賦聚也賢人盡至則同心	-12.0336
樂憺然意安而忘歸也補曰	-12.0336
欲服芝草以延年命周旋山間	-12.0336
欲闔口而無言兮	-12.0336
歴吉日乎吾將行	-12.0336
死死不再生	-12.0336
死而巳離騷曰阽余身而危死	-12.0336
殺羣吏而立公子無詭	-12.0336
母醜女也勃屑猶媻姍膝行貌	-12.0336
母醜惡反得媻姍	-12.0336
水中而言木上以喻	-12.0336
水邊秋時盛也荀子	-12.0336
沅水出象郡鐔城西	-12.0336
沚也爾雅小洲	-12.0336
河無如尾何且狐性多疑故俗	-12.0336
洞庭按禹貢曰	-12.0336
涷雨灑所買切淮南子曰令雨師灑	-12.0336
溷濁無相知者顧	-12.0336
溺諫之者以懲萬世之亂武未盡善叔	-12.0336
澧史記作醴孔安	-12.0336
濁則欲渡白水登神山	-12.0336
炎陽煙液之氣下	-12.0336
無水乃過人見狐行方渡按風俗	-12.0336
狐裘逍遥言天時不再至人年不再盛巳	-12.0336
猶由柚二音顔氏家訓	-12.0336
猶賢哲難逢謟	-12.0336
猶雜用衆賢	-12.0336
獨善其身虧一作虧其字從兮五臣云	-12.0336
獨守其明㓗之質	-12.0336
率之也鳬藻讙呼一云如鳥喿	-12.0336
王之弟應薦賢	-12.0336
王季而生聖子文王	-12.0336
玕金玉實惟	-12.0336
生之言也然禮記曰	-12.0336
用忠信滅國亡	-12.0336
由復遇逍遥容與待君之命	-12.0336
發兵救楚昭王	-12.0336
白之臣如望舒先驅求賢使風伯	-12.0336
相帥來迎欲使我變節以	-12.0336
相聚君可選也補	-12.0336
矣何由鮌惡長滿天下乎	-12.0336
矣粢子夷切本草	-12.0336
禮記云昔殷紂亂天	-12.0336
空桑之中故命之曰伊尹	-12.0336
竊悲夫蕙華之曽敷兮	-12.0336
竊悲夫蕙華之曾敷兮	-12.0336
終没以來名儒博	-12.0336
罔五臣云織網於	-12.0336
羌楚人語詞也猶言卿	-12.0336
美女顔容脂細身	-12.0336
美西施有所醜又曰曼頰皓齒	-12.0336
者何人乎乃堯時羿非有窮羿也	-12.0336
者六埋少牢於太昭祭時	-12.0336
者曰非義不妄食引	-12.0336
者雌曰蜺謂	-12.0336
而之吳吳立以	-12.0336
而獻其君令庖人養之長	-12.0336
聖王之所厚哀也故武王伐紂封	-12.0336
聲方言注云澧水今	-12.0336
臯北渚之間自傷不得居朝廷也渚	-12.0336
至也五臣云自言憂愁欲以	-12.0336
與道并也補曰列子曰太	-12.0336
舜名按書云有鰥在	-12.0336
芝草仙藥采不可得但見葛石爾亦	-12.0336
芷之類古人皆以	-12.0336
草也苬音囚思	-12.0336
葉似葵形如馬蹄故俗云馬蹄香	-12.0336
葉無椏不對生花心	-12.0336
藥則成良醫乃自知其病吾被放	-12.0336
號伊尹稱尹躬	-12.0336
衆華其文爛然而同光明	-12.0336
行仁義兾得同志願及年	-12.0336
補曰堯時九州見禹貢商九州見	-12.0336
要以自開悟也一作	-12.0336
見戮屈原以放自沈比	-12.0336
言士民所以變	-12.0336
言天道神明降與人之	-12.0336
言我外有芬芳之	-12.0336
言我忠信謇謇者乃上法前	-12.0336
言禹平水土民得並種五榖	-12.0336
詒湘君與騷經解	-12.0336
詞賦莫不擬	-12.0336
語堵敖曰楚國將衰不復	-12.0336
語曰兵車之屬六乗車之㑹三孫明	-12.0336
諸侯史記曰紂醢九侯脯	-12.0336
谷是謂定昏日入	-12.0336
賢不巳也騷經曰相下女之可	-12.0336
賦云陵鯉若獸注	-12.0336
蹣	-12.0336
車而駕以玉虬也駟一	-12.0336
車輪注云雷轉氣	-12.0336
軾路也灑一	-12.0336
輈車轅也補曰震東	-12.0336
輕佻巧利多語言而無要實復不	-12.0336
通云里語稱狐欲渡	-12.0336
逺賢固非今時俗人之所	-12.0336
遇於時聊且逍遥而遊容與而戲以待天	-12.0336
道德而挾弓䠶韝獵	-12.0336
遺皆置也玦珮朝服之飾置於江澧二	-12.0336
遺離也佩瓊琚之屬也言已雖見	-12.0336
郊居賦云雌霓連蜷	-12.0336
都門外言夕張者猶	-12.0336
采古道於蹇難之	-12.0336
釋文毎磊切其字從木傳寫誤	-12.0336
長卿子雲不能及宋子京云離騷	-12.0336
長子太伯及弟仲雍去	-12.0336
陭	-12.0336
雄鳩多聲言使辨捷之士往聘忠賢	-12.0336
雅苬芝注云一	-12.0336
雌虹也茀音拂	-12.0336
雨或上倍之乃維上天登之乃神是謂太	-12.0336
雲霓惡氣以喻佞	-12.0336
露一云瀓霧露補曰馮	-12.0336
靈氛告以吉占百神告以吉故而此獨曰	-12.0336
靈知於天資形於二氣故又	-12.0336
顔闔鑿坏而逃	-12.0336
飾舉足奮袂	-12.0336
馬終不反顧示	-12.0336
馬雖死傷更霾車兩輪絆四	-12.0336
魚網也夫鳥	-12.0336
鶴立於秦庭啼呼悲泣七日七夜	-12.0336
􁀆	-12.0336
􁥍	-12.0336
忼	-12.0337
蟬遇秋寒將入水穴處而	-12.0337
嗈鳴鴈鴈隂起則	-12.0337
爲堂平場廣坦爲	-12.0337
蒼含切在旁曰驂驂兩騑也螭丑	-12.0337
香分布沬音昧	-12.0337
之君無道不足	-12.0337
也舟釋水而陵行則	-12.0337
以飴蜜復用肥	-12.0337
何能遷徙也言龜所以能負山	-12.0337
言我雖不見用猶和調	-12.0337
馮衍賦云韓盧抑而	-12.0337
一交焉五山始	-12.0337
一作載抃釋文作拚補曰鼇音	-12.0337
之中以呼風俗之人欲語以忠正之道	-12.0337
付也娭音嬉戲也一作	-12.0337
億不信待其不可用然後弃之	-12.0337
北日月星辰就焉地不滿東南百川水潦	-12.0337
又見水中流波	-12.0337
媒審矣屈原何	-12.0337
孔子厄於陳	-12.0337
審壹氣之和徳	-12.0337
山之根無所連箸帝命禺強使巨	-12.0337
恃其強與顓頊	-12.0337
或黕點而汙之	-12.0337
敖抃音卞列子云五	-12.0337
日知晏隂諧知雨	-12.0337
此章言已初見信任楚國幾	-12.0337
清烈也補曰酪乳	-12.0337
相隨鴻溶廣大悵然	-12.0337
謂子産智予	-12.0337
迮	-12.0337
遂萎絶而離異	-12.0337
類小人之有智者君子不逆	-12.0337
一本霑上無下字	-12.0337
下裳也日出東方入西方	-12.0337
丹陽周幽王時生	-12.0337
于騰隍氏女而生老僮是	-12.0337
云御禦也以禦冬月	-12.0337
云接精神一云按神明一云按	-12.0337
亦以御冬注	-12.0337
以逺禍兮孰侵辱之可	-12.0337
位以危其身也而一	-12.0337
作杳補曰瞭音了	-12.0337
作鴻補曰澒鴻	-12.0337
則求其友而號其	-12.0337
千里一曲直淮南曰河出崑崙貫渤海入	-12.0337
卨	-12.0337
合天地稱帝苗	-12.0337
同淮南曰凡鴻水淵藪自三	-12.0337
天不可計量也	-12.0337
夷吾管仲名	-12.0337
委政忠良而遊息也補曰屬	-12.0337
崑崙萬里之山周望四方	-12.0337
後熊繹事周成王	-12.0337
得人強笑憙而狂獝也或曰	-12.0337
從炎火又曲意	-12.0337
方有神其狀猪頭從目被	-12.0337
於天委之神明而	-12.0337
於郢是時生子瑕受屈	-12.0337
曰荷芙蕖注云别名芙蓉本草云其葉名	-12.0337
欲立其所傳公子諸公	-12.0337
江漢其孫武王求尊爵於周周	-12.0337
池乾髪陽阿齋戒潔巳兾	-12.0337
深大禹何用窴	-12.0337
無日之國有龍銜燭	-12.0337
狌	-12.0337
種柴棘掘	-12.0337
粉白黛黒施芳澤只	-12.0337
繞悷盧帝切又音列	-12.0337
膓折摧也悷一作㤡補曰繚	-12.0337
與日月同明故能周覽	-12.0337
芙蓉芰荷葉也故以	-12.0337
若敖奄征南海北至	-12.0337
藒車芞輿本草拾遺云	-12.0337
號稱王始都	-12.0337
西北之門毎常開	-12.0337
謾皆欺也上	-12.0337
豈元氣之所通辟一作闢	-12.0337
貰赦宥罪法也宥	-12.0337
蹇侘傺而含慼	-12.0337
雖有八師而不可	-12.0337
露慘悽而交下至此	-12.0337
顓頊有天下之號也	-12.0337
馮一作慿其一作之何	-12.0337
駰	-12.0337
􁀿	-12.0337
䩉頰邊文婦人之媚也又云	-12.0337
一曰斂容普茗普	-12.0337
七十五歩使	-12.0337
下之理太少之異也注云	-12.0337
下峥嶸而無地兮	-12.0337
下曰虞舜此言舜孝如此	-12.0337
不得盛長以言君令急促剗傷百姓	-12.0337
世溷不吾知心不可謂兮	-12.0337
世無堯舜及桓文也五臣云言豈無賢才	-12.0337
丘閬風山上也無女	-12.0337
[...]
