<unk>	0
<s>	0
</s>	0
/	-3.38012
之	-3.56511
)(	-3.73732
也	-3.8317
而	-4.28386
以	-4.55471
者	-4.57214
)	-4.58851
則	-4.62666
(	-4.68885
不	-4.70091
其	-4.74347
有	-4.97426
為	-4.99818
於	-5.14302
言	-5.24792
故	-5.26618
是	-5.37689
曰	-5.42957
人	-5.47119
,	-5.47979
無	-5.52545
謂	-5.62693
此	-5.63738
矣	-5.72487
至	-5.79801
。	-5.82199
皆	-5.84716
○	-5.85592
非	-5.87191
子	-5.87973
君	-5.89424
敬	-5.90197
行	-5.92649
云	-5.95483
禮	-5.96342
與	-5.9694
孝	-6.00681
上	-6.02178
一	-6.03173
乎	-6.03842
所	-6.04151
事	-6.04448
自	-6.04657
明	-6.05216
親	-6.07193
下	-6.09394
亦	-6.1229
反	-6.13602
天	-6.14703
注	-6.15748
道	-6.18328
大	-6.18995
在	-6.21301
爲	-6.21604
能	-6.21917
于	-6.22518
臣	-6.23511
必	-6.26306
焉	-6.27206
父	-6.30072
生	-6.33238
愛	-6.33442
民	-6.35689
徳	-6.38438
▁	-6.41824
義	-6.42914
及	-6.45697
註	-6.46647
順	-6.48644
文	-6.50459
鄭	-6.50999
可	-6.51323
士	-6.5181
教	-6.52028
三	-6.52086
樂	-6.52086
祭	-6.52819
所以	-6.53459
經	-6.54683
然	-6.55196
猶	-6.55945
夫	-6.56006
雖	-6.57255
身	-6.57269
天子	-6.57515
如	-6.57519
得	-6.57691
正	-6.57721
又	-6.58834
稱	-6.59653
知	-6.61192
用	-6.61245
本	-6.61937
立	-6.62928
中	-6.63659
國	-6.65081
同	-6.65754
天下	-6.66094
孝經	-6.66356
若	-6.66458
已	-6.67401
先	-6.67856
成	-6.68297
從	-6.68329
名	-6.68748
五	-6.69644
:	-6.70164
治	-6.70309
作	-6.71629
始	-6.71745
見	-6.724
王	-6.73358
君子	-6.73629
玄	-6.74553
日	-6.74595
尊	-6.74741
服	-6.74785
心	-6.77245
因	-6.80708
者也	-6.8094
乃	-6.81228
何	-6.81278
貴	-6.81714
善	-6.83815
使	-6.83993
疏	-6.84077
章	-6.84751
諸侯	-6.85483
長	-6.86432
凡	-6.86521
家	-6.86944
忠	-6.87646
字	-6.88749
後	-6.88754
法	-6.89919
當	-6.9056
時	-6.90721
命	-6.91042
地	-6.91581
▁(	-6.92363
二	-6.93292
以為	-6.94555
易	-6.94867
未	-6.97053
公	-6.97331
而不	-6.97569
傳	-6.98105
理	-6.98126
𤣥宗曰	-6.98566
既	-6.9869
分	-6.98989
安	-6.99483
之道	-6.99596
書	-6.99713
終	-7.00468
德	-7.00495
説	-7.01695
父母	-7.02623
養	-7.03508
仁	-7.03609
出	-7.04614
而後	-7.05992
聖人	-7.06006
今	-7.07558
古文	-7.07671
相	-7.07914
四	-7.08087
惡	-7.08326
致	-7.08948
周	-7.10754
世	-7.11343
學	-7.12009
詩	-7.12936
居	-7.13056
音	-7.14449
舉	-7.14606
刑	-7.14618
失	-7.15382
愛敬	-7.15967
和	-7.16518
合	-7.16747
官	-7.17545
惟	-7.184
嚴	-7.18582
問	-7.18828
子曰	-7.19137
常	-7.19542
多	-7.20229
過	-7.20309
天地	-7.20693
物	-7.2085
守	-7.21719
重	-7.22959
不可	-7.23705
諸	-7.23869
六	-7.24772
即	-7.24985
夫子	-7.25299
盡	-7.25582
亂	-7.25708
主	-7.26694
之義	-7.26796
弟	-7.27181
化	-7.27796
欲	-7.28435
喪	-7.30454
取	-7.31169
外	-7.32097
性	-7.32255
大夫	-7.32657
將	-7.33666
諫	-7.33817
志	-7.34339
思	-7.34385
祖	-7.34406
師	-7.35153
著	-7.36105
司馬光曰	-7.36573
也故	-7.36969
異	-7.3702
母	-7.37432
孔子	-7.37445
語	-7.37917
祀	-7.38109
各	-7.38177
故曰	-7.38316
宗	-7.38893
卿大夫	-7.39138
通	-7.39204
備	-7.39528
起	-7.40089
廟	-7.41025
不能	-7.41278
節	-7.41676
制	-7.41692
或	-7.41978
政	-7.42179
宜	-7.42204
哀	-7.42344
復	-7.43173
我	-7.43466
死	-7.43827
神	-7.44495
敎	-7.45007
人之	-7.45584
内	-7.45887
葢	-7.46261
位	-7.46546
盖	-7.47011
聞	-7.47576
極	-7.47758
聖	-7.48532
然則	-7.4882
今文	-7.48901
正義曰	-7.49102
信	-7.49809
意	-7.50051
朝	-7.50209
己	-7.51622
食	-7.51643
由	-7.51912
謂之	-7.52332
入	-7.52524
禮樂	-7.52542
尚	-7.52637
之心	-7.53266
古	-7.53561
逺	-7.53732
小	-7.53796
老	-7.53965
加	-7.54373
利	-7.54804
可以	-7.55604
帝	-7.55751
不敢	-7.56328
去	-7.56482
方	-7.56492
如此	-7.56584
孝子	-7.58468
先王	-7.59754
釋	-7.60039
陳	-7.60409
事君	-7.60489
且	-7.60945
而已	-7.61328
誠	-7.61425
宗廟	-7.61805
哉	-7.62625
别	-7.6283
不得	-7.62831
曽子	-7.62852
遂	-7.63176
斯	-7.63254
質	-7.63407
是以	-7.63592
情	-7.63632
處	-7.64496
數	-7.64588
固	-7.65119
體	-7.65276
引	-7.65352
齊	-7.65846
庶人	-7.66158
序	-7.66303
亡	-7.66494
存	-7.66699
所謂	-7.66975
享	-7.67256
賢	-7.67265
至於	-7.67334
難	-7.67337
實	-7.68247
進	-7.68401
曾子	-7.68754
吾	-7.69854
慎	-7.70257
獨	-7.70293
衆	-7.70487
前	-7.71019
也注	-7.71387
疑	-7.71821
美	-7.71986
辭	-7.73111
直	-7.73225
莫	-7.73283
要	-7.73916
盛	-7.74552
變	-7.74711
月	-7.74857
争	-7.75218
豈	-7.75286
百	-7.76094
總	-7.76291
也然則	-7.76606
憂	-7.77079
七	-7.77252
之事	-7.77991
保	-7.78089
十	-7.78892
夏	-7.7909
風	-7.79228
視	-7.79234
患	-7.79484
受	-7.79921
耳	-7.80676
春秋	-7.80922
初	-7.80993
說	-7.81075
次	-7.81424
功	-7.81603
等	-7.8234
篇	-7.8236
發	-7.82435
施	-7.82579
止	-7.82763
天下之	-7.82922
其身	-7.83133
年	-7.83429
近	-7.83931
九	-7.84079
舜	-7.84295
兄	-7.85664
弗	-7.85946
社稷	-7.86002
奉	-7.87565
但	-7.87777
郊	-7.87882
其所	-7.88192
殺	-7.8871
也言	-7.88866
論	-7.89117
傷	-7.89127
氣	-7.89127
力	-7.89404
孔	-7.89702
文王	-7.89959
令	-7.89976
之所	-7.90367
恭	-7.90656
改	-7.91041
配	-7.91079
報	-7.91195
辨	-7.91282
深	-7.91283
推	-7.91569
觀	-7.92072
首	-7.92109
卿	-7.92339
告	-7.92435
廣	-7.92487
足	-7.92597
應	-7.93049
室	-7.93082
䘮	-7.9318
益	-7.93183
承	-7.93975
定	-7.94256
其親	-7.94269
好	-7.94443
執	-7.94886
明堂	-7.94886
百姓	-7.95005
又曰	-7.95045
西	-7.9517
不知	-7.95752
敢	-7.96402
御	-7.96642
厚	-7.9677
少	-7.96873
案	-7.97846
何也曰	-7.97969
太	-7.98005
歸	-7.98513
賤	-7.98609
正義曰云	-7.99209
興	-7.99438
一人	-7.99699
以孝	-8.00457
設	-8.00747
然後	-8.01522
也云	-8.02088
事親	-8.02446
爵	-8.02642
明王	-8.02661
參	-8.02721
也夫	-8.03292
則不	-8.03548
悌	-8.04015
兼	-8.04615
象	-8.04641
衣	-8.04648
水	-8.04766
音義	-8.05181
之言	-8.05314
按	-8.05842
聲	-8.06512
感	-8.0677
誼	-8.06859
動	-8.06864
戒	-8.06896
葬	-8.06928
必有	-8.06956
而無	-8.06995
忘	-8.07383
門	-8.0751
聖人之	-8.0822
萬	-8.08366
漢	-8.08435
行之	-8.08887
唯	-8.08961
悦	-8.08989
求	-8.08998
指	-8.0902
末	-8.09029
孝弟	-8.09176
讓	-8.09395
氏	-8.10221
之義也	-8.10951
尸	-8.11154
臨	-8.11158
就	-8.11163
南	-8.11356
考	-8.11419
示	-8.1144
修	-8.1177
行孝	-8.11773
之行	-8.11961
記曰	-8.12586
述	-8.12951
並	-8.13057
代	-8.13151
逆	-8.13162
富	-8.13235
東	-8.13238
訓	-8.13305
慮	-8.13319
宫	-8.13364
紀	-8.13436
詳	-8.13444
危	-8.14148
類	-8.14209
之禮	-8.14642
苟	-8.14908
甚	-8.14937
獻	-8.15392
社	-8.15471
土	-8.15511
率	-8.15534
降	-8.15588
疾	-8.15602
自然	-8.15638
昭	-8.15652
之意	-8.1566
資	-8.15679
周公	-8.15705
諸侯之	-8.15783
恐	-8.15852
是故	-8.16605
平	-8.16652
立身	-8.16806
坐	-8.17505
載	-8.17507
共	-8.17582
謹	-8.17596
於人	-8.17606
度	-8.17734
嘗	-8.17865
友	-8.18044
蓋	-8.181
八	-8.18112
上下	-8.18208
議	-8.18216
對	-8.18869
於天下	-8.19217
孝道	-8.19312
無所	-8.19315
任	-8.19934
武	-8.20003
色	-8.20261
爾	-8.20306
流	-8.20349
尚書	-8.20376
為孝	-8.20538
春	-8.20575
遺	-8.21119
罪	-8.22197
未有	-8.2235
孝者	-8.22473
廢	-8.2248
足以	-8.22644
陽	-8.22887
右	-8.23571
言之	-8.23662
四海	-8.2381
與曰	-8.24693
辱	-8.24808
旣	-8.25295
恩	-8.25298
具	-8.25333
全	-8.25342
寡	-8.25397
堂	-8.25454
記	-8.25955
之後	-8.26487
溢	-8.26714
卑	-8.27332
元	-8.27656
詩云	-8.27686
更	-8.27826
𤼵	-8.27843
授	-8.27862
簡	-8.27883
四方	-8.27979
祭祀	-8.27997
子之	-8.28012
餘	-8.28468
於此	-8.29593
三年	-8.29618
神明	-8.29942
親之	-8.30121
者乎	-8.30129
克	-8.30208
答	-8.30247
虞	-8.3049
依	-8.30535
特	-8.30544
繼	-8.30568
慈	-8.31039
庶	-8.31111
仁義	-8.3131
此章	-8.31356
故以	-8.31746
怨	-8.32096
朱子	-8.328
辟	-8.3292
:「	-8.32969
藏	-8.32982
典	-8.33053
寧	-8.33057
孫	-8.33082
微	-8.3313
田	-8.33185
口	-8.33218
爭	-8.33557
衰	-8.33806
者謂	-8.34195
列	-8.34376
魯	-8.34462
業	-8.34811
事父	-8.35021
殷	-8.35072
乎曰	-8.35405
比	-8.35447
劉炫	-8.3574
棺	-8.35886
容	-8.36004
顯	-8.36057
間	-8.3631
婦	-8.36343
悖	-8.36442
則必	-8.37344
違	-8.37608
日月	-8.37649
退	-8.37705
者矣	-8.38384
脩	-8.38734
冠	-8.38797
㑹	-8.38816
徒	-8.38821
約	-8.38872
禹	-8.38879
饗	-8.38889
射	-8.38912
封	-8.38952
萬物	-8.38964
貴賤	-8.38982
無不	-8.39289
世子	-8.39478
移	-8.40155
君子之	-8.40214
以事	-8.40292
孝也	-8.40992
以爲	-8.41031
後世	-8.41045
高	-8.41308
擇	-8.41315
彼	-8.41413
句	-8.41458
㫖	-8.41586
之大	-8.41621
除	-8.41634
似	-8.41723
禍	-8.41725
畏	-8.41768
勝	-8.41787
證	-8.41849
達	-8.41858
繇	-8.41952
至于	-8.42019
卜	-8.42213
來	-8.42869
以明	-8.43025
古之	-8.43107
盡其	-8.43131
矣故	-8.43636
教民	-8.43671
第	-8.44019
之道也	-8.44084
光	-8.44098
之時	-8.44327
皇	-8.44435
賔	-8.44639
端	-8.44661
殊	-8.44676
𤣥	-8.44708
兩	-8.44723
息	-8.44756
集	-8.44812
交	-8.44841
髙	-8.44876
於天	-8.46132
驕	-8.46286
為之	-8.46419
出於	-8.46422
天子之	-8.46427
后稷	-8.4645
舊	-8.46848
王者	-8.4695
鬼神	-8.47237
犯	-8.47417
俱	-8.47663
墨	-8.47705
侍	-8.47738
仕	-8.47837
目	-8.47839
須	-8.47851
伯	-8.47876
請	-8.47911
尊卑	-8.48079
不為	-8.4894
四時	-8.49238
之名	-8.49795
配天	-8.50054
養老	-8.50227
詩曰	-8.50364
據	-8.50693
申	-8.50775
之謂也	-8.5087
祿	-8.50872
左	-8.50891
道也	-8.50948
器	-8.5097
族	-8.51031
席	-8.51143
良	-8.51155
得其	-8.51258
以禮	-8.51294
君臣	-8.51733
解	-8.51998
而言	-8.5217
不足	-8.5235
不敬	-8.52368
要道	-8.52709
終始	-8.52825
之謂	-8.5286
私	-8.52954
言行	-8.53043
職	-8.53118
始於	-8.53589
屬	-8.53875
兆	-8.54181
秦	-8.54282
福	-8.54305
論語	-8.54364
偽	-8.54399
精	-8.54403
奠	-8.54477
於孝	-8.5448
吉	-8.54483
海	-8.54486
周禮	-8.54493
孰	-8.54508
唐	-8.54559
揚	-8.54647
此則	-8.54677
五帝	-8.5489
侯	-8.54924
是也	-8.55307
經文	-8.55829
待	-8.56052
惡慢	-8.56109
則亦	-8.56309
民之	-8.56331
不同	-8.56866
假	-8.56918
卷	-8.56953
司	-8.57027
皆有	-8.57046
》	-8.57623
牲	-8.57677
接	-8.57747
補	-8.57819
賜	-8.57832
斷	-8.57841
北	-8.57878
俗	-8.57937
卽	-8.57943
原	-8.57962
揚名	-8.58028
父母之	-8.58199
何也	-8.58426
書曰	-8.58529
以此	-8.58529
孔傳	-8.5915
下同	-8.59325
充	-8.59581
闕	-8.59838
慢	-8.59901
然而	-8.60163
則民	-8.60289
而下	-8.60449
見於	-8.6045
久	-8.60464
史	-8.60486
離	-8.60575
絶	-8.6059
又云	-8.60678
至徳	-8.61057
鬼	-8.61214
致其	-8.61266
刪	-8.61285
務	-8.61326
、	-8.61369
晉	-8.61421
彰	-8.61484
真	-8.61518
望	-8.61547
智	-8.61568
壇	-8.61638
萬國	-8.61845
昔者	-8.6194
不孝	-8.62206
滅	-8.62906
儀	-8.64252
習	-8.64728
禁	-8.64779
念	-8.64873
。《	-8.6489
。」	-8.64905
馬	-8.65042
咸	-8.65087
遠	-8.65095
山	-8.65125
仲尼	-8.65139
車	-8.65154
睦	-8.6516
於君	-8.65189
従	-8.65206
識	-8.65236
妄	-8.65239
竝	-8.65253
秋	-8.65283
飾	-8.65294
弔	-8.65324
富貴	-8.65505
治天下	-8.66054
不言	-8.66451
察	-8.66988
人心	-8.67121
也若	-8.67668
始也	-8.67935
莫不	-8.67938
讀	-8.6808
君之	-8.68201
者言	-8.68518
宋	-8.68561
羣	-8.68863
肅	-8.68873
稷	-8.6895
君也	-8.68963
表	-8.68985
卒	-8.6899
建	-8.69042
害	-8.69062
忠順	-8.69579
知其	-8.69624
何以	-8.69755
近於	-8.70027
在於	-8.70239
不失	-8.70423
而行	-8.70467
義也	-8.70476
上帝	-8.70608
無以	-8.70748
也又	-8.70946
毁	-8.71014
之行也	-8.71063
成王	-8.71259
懽心	-8.7131
愛親	-8.71385
天地之	-8.71585
財	-8.71937
正義曰此	-8.72372
拜	-8.7285
冕	-8.72906
無有	-8.72911
式	-8.72945
失其	-8.72979
條	-8.72987
輕	-8.73048
責	-8.73049
覆	-8.73079
置	-8.73091
怒	-8.73092
講	-8.73099
尤	-8.73102
形	-8.73141
詔	-8.73143
孝悌	-8.73288
侍坐	-8.73463
親也	-8.73688
不及	-8.739
夷	-8.74191
天之	-8.74486
所以為	-8.74634
不可以	-8.74667
又何	-8.74757
不以	-8.74807
之間	-8.74959
恱	-8.75348
曽子曰	-8.75573
此言	-8.76114
正義	-8.76314
其言	-8.76423
燕	-8.76465
孟子曰	-8.76506
子孫	-8.76799
威	-8.7696
儒	-8.76985
夫音扶	-8.77045
哭	-8.77102
勉	-8.77142
暴	-8.7718
適	-8.7718
女	-8.77205
康	-8.77205
倫	-8.77224
逹	-8.77225
禘	-8.77226
越	-8.77233
差	-8.77238
續	-8.7724
録	-8.77241
兄弟	-8.77266
助	-8.77276
敬者	-8.77365
生於	-8.77379
嚴父	-8.78092
仲	-8.79105
為大	-8.79107
予	-8.79196
傳曰	-8.79234
五刑	-8.79293
而已矣	-8.79305
之有	-8.79384
天性	-8.79442
其義	-8.79563
而能	-8.79847
徳教	-8.80357
孟子	-8.80821
曽	-8.80833
父兄	-8.80914
一也	-8.8108
之中	-8.81217
冬	-8.81254
千	-8.81272
孝子之	-8.81344
最	-8.8138
賞	-8.81494
均	-8.81525
趨	-8.81527
省	-8.81546
開	-8.81548
牛	-8.81581
扵	-8.8159
陸	-8.81593
强	-8.81611
痛	-8.81618
商	-8.81626
威儀	-8.81633
左右	-8.81652
不過	-8.8175
墓	-8.81778
武王	-8.81931
者則	-8.8226
人君	-8.82312
禮也	-8.82458
之至也	-8.82697
季	-8.8273
之於	-8.82845
也然	-8.83328
其上	-8.83747
聽	-8.8421
之情	-8.84339
昔	-8.84841
之本也	-8.8486
為天子	-8.84992
先王之	-8.85035
其本	-8.85138
况	-8.85143
周人	-8.85326
子男	-8.85387
禄	-8.85906
維	-8.85917
審	-8.8592
教之	-8.85934
迎	-8.85959
畢	-8.85973
木	-8.86006
厥	-8.86016
姓	-8.8605
薦	-8.86052
結	-8.86057
清	-8.8607
飲食	-8.86096
火	-8.86103
棄	-8.8611
手	-8.86123
喜	-8.86125
将	-8.86141
持	-8.86153
隂陽	-8.86162
耕	-8.86172
㣲	-8.86176
勿	-8.86181
愈	-8.86196
嵗	-8.86199
隂	-8.86209
根	-8.86217
主人	-8.86263
郊祀	-8.86386
博愛	-8.86432
忠臣	-8.86689
可謂	-8.871
大學	-8.87374
法也	-8.87378
者以	-8.87515
父子	-8.87515
效	-8.87698
其君	-8.87819
之本	-8.87883
則有	-8.88475
禮記	-8.88711
所以教	-8.88942
易曰	-8.89184
小人	-8.89253
禮者	-8.89425
古文孝經	-8.8958
天道	-8.89881
其事	-8.90398
博	-8.90439
勸	-8.90701
左傳	-8.90713
朱氏	-8.90728
期	-8.90752
侮	-8.90771
隆	-8.90792
懼	-8.90803
薄	-8.90804
幾	-8.90806
澤	-8.90836
鄉	-8.9084
布	-8.90842
隨	-8.90845
風雨	-8.90869
飲	-8.9087
邪	-8.90872
賦	-8.90911
劉	-8.90919
魏	-8.9092
每	-8.90975
之理	-8.91454
夫婦	-8.91508
鄭注	-8.91532
之孝	-8.9155
孝之	-8.91689
之志	-8.92588
也孟子曰	-8.9295
則是	-8.93155
敬也	-8.93711
躬	-8.93724
者必	-8.93744
注云	-8.93988
没	-8.94341
其心	-8.94475
他	-8.94697
親愛	-8.94938
窮	-8.95021
不失其	-8.95164
免	-8.95272
曾	-8.95327
炫	-8.95343
妻子	-8.95399
國家	-8.95462
才	-8.95487
徳行	-8.95581
邦	-8.95602
切	-8.9566
州	-8.95733
酒	-8.95789
篤	-8.95802
貞	-8.95817
還	-8.9583
甘	-8.95834
兵	-8.95861
寒暑	-8.95873
譲	-8.95874
源	-8.95877
格	-8.95886
校	-8.95892
被	-8.95895
雨	-8.95896
澄	-8.95939
隱	-8.96056
則知	-8.96299
祖考	-8.96422
親親	-8.96596
以順天下	-8.96642
之事也	-8.96906
不義	-8.96959
引詩	-8.96984
政教	-8.97029
行也	-8.97347
國之	-8.97914
事天	-8.98045
古者	-8.9813
大夫士	-8.98423
國君	-8.98555
人情	-8.98625
雖有	-8.98699
孔子曰	-8.98813
其子	-8.9903
毁傷	-8.99139
齒	-8.99586
保其	-8.99797
致敬	-8.99812
敬之	-8.99839
一日	-8.99898
其道	-9.00279
使人	-9.00434
妻	-9.00803
宰	-9.0092
后	-9.00927
勢	-9.00981
慕	-9.00992
誰	-9.01013
畜	-9.01051
貌	-9.01094
增	-9.01099
悉	-9.01104
面	-9.01113
勤	-9.01113
避	-9.01115
附	-9.01128
誤	-9.01137
否	-9.01149
十八章	-9.0116
敘	-9.01173
恒	-9.01181
嗣	-9.01191
崇	-9.01192
奪	-9.01201
泰	-9.01215
聴	-9.01259
臣妾	-9.01281
則人	-9.01438
范祖禹曰	-9.01483
朱子曰	-9.0151
凶	-9.01942
而成	-9.02031
有不	-9.02108
受命	-9.02232
愛敬之	-9.02244
有所	-9.02311
道徳	-9.02706
送	-9.03605
五者	-9.03639
則其	-9.03721
則無	-9.0419
七十	-9.04814
三者	-9.0504
三日	-9.05145
而不可	-9.05685
天子諸侯	-9.05951
傳之	-9.05983
則猶	-9.06268
懷	-9.06367
統	-9.06368
也詩曰	-9.06392
夫孝	-9.06468
休	-9.06496
輔	-9.06522
毛	-9.06582
歌	-9.06614
味	-9.06623
詞	-9.06645
敦	-9.06653
再	-9.0666
惠	-9.06679
姑	-9.06682
專	-9.06686
舞	-9.06688
號	-9.06701
升	-9.06718
勞	-9.06723
舍	-9.06742
陵	-9.06749
果	-9.06749
素	-9.06754
選	-9.06791
也此	-9.06796
采	-9.06816
和睦	-9.06869
大雅	-9.06886
人所	-9.07022
三代	-9.0732
恭敬	-9.08269
於國	-9.08363
以致	-9.08407
於是	-9.08479
於天子	-9.08584
無怨	-9.08733
又有	-9.08992
其行	-9.09198
以教	-9.09315
本於	-9.09422
敬愛	-9.09463
非孝也	-9.0955
生而	-9.09751
言孝	-9.09809
罰	-9.09954
於天地	-9.10034
者亦	-9.10435
之禮也	-9.1083
君臣之義	-9.10903
二字	-9.11076
上文	-9.11112
救	-9.11642
夫子之	-9.11749
十二	-9.11766
立教	-9.11851
孔安國	-9.11921
貴也	-9.11933
於親	-9.12077
雅	-9.1225
?	-9.12277
男	-9.12295
司馬光	-9.12306
歛	-9.12342
滿	-9.12344
耻	-9.1245
顔	-9.1249
繁	-9.12497
里	-9.12502
謙	-9.12505
運	-9.12512
純	-9.12513
杖	-9.12519
竟	-9.12521
雍	-9.12541
歎	-9.12549
病	-9.12565
靡	-9.12565
叔	-9.12565
胡	-9.12572
例	-9.12574
甫	-9.12582
匡	-9.12582
丘	-9.12583
納	-9.12608
育	-9.1261
増	-9.1261
聚	-9.12621
幽	-9.12653
包	-9.12654
防	-9.12661
羊	-9.12663
華	-9.1267
草	-9.1268
敗	-9.12693
子弟	-9.12743
是也云	-9.12939
聖賢	-9.12942
好惡	-9.12963
而敬	-9.12999
其志	-9.13107
以及	-9.13221
為臣	-9.13303
故云	-9.13356
使之	-9.14045
此經	-9.1416
孝治	-9.14574
古人	-9.14931
三王	-9.15322
所不	-9.15472
不違	-9.15491
安親	-9.15643
有餘	-9.15758
事父母	-9.16279
顧	-9.16773
禮法	-9.1685
言其	-9.16891
士民	-9.16908
幸	-9.17498
一卷	-9.1772
行下孟反	-9.17896
弟子	-9.18079
臣下	-9.18115
為人	-9.18461
鄭𤣥	-9.18608
孝之大	-9.18639
飬	-9.18649
儉	-9.18705
往	-9.18727
黄	-9.18727
撰	-9.18727
經傳	-9.1874
踊	-9.18764
工	-9.18792
干	-9.18797
不必	-9.18807
漸	-9.18807
連	-9.1881
誦	-9.18814
閒居	-9.18823
白	-9.18825
庭	-9.18825
謀	-9.18829
吏	-9.18831
川	-9.18835
畧	-9.18845
律	-9.18852
遲	-9.18854
至徳要道	-9.18855
梁	-9.18856
桑	-9.18858
遇	-9.18859
盈	-9.18862
費	-9.18885
覺	-9.18894
有其	-9.18896
錯	-9.18904
便	-9.18909
循	-9.18912
競	-9.18965
昭穆	-9.18979
其位	-9.19107
滅性	-9.1916
而愛	-9.19207
此書	-9.19281
三千	-9.19292
論語云	-9.19431
亦無	-9.19498
一章	-9.19507
以成	-9.19512
於外	-9.19567
受之	-9.19781
汝	-9.20012
性也	-9.20351
喪祭	-9.20512
有五	-9.20521
是之謂也	-9.20627
有司	-9.20734
此皆	-9.20857
事母	-9.20909
無道	-9.20985
無所不	-9.21031
事也	-9.21178
居上	-9.21368
懽	-9.21678
用之	-9.21693
則思	-9.21894
幼	-9.22162
其大	-9.22171
七人	-9.22209
未嘗	-9.22447
也案	-9.22642
事兄	-9.22645
列國	-9.2269
之人	-9.23123
各有	-9.23124
人皆	-9.23452
傳同	-9.23569
爲孝	-9.2358
夫人	-9.24028
不安	-9.24053
亦不	-9.24076
為忠	-9.24214
為善	-9.24271
義者	-9.24374
敬讓	-9.24561
垂	-9.2531
金	-9.25354
介	-9.25366
善而	-9.25366
夕	-9.25367
敷	-9.25373
況	-9.25431
諍	-9.25432
濟	-9.25438
斬衰	-9.25438
莊	-9.25442
傅	-9.25445
負	-9.25454
苦	-9.25455
長幼	-9.25464
舎	-9.25467
乾	-9.25472
編	-9.25477
寒	-9.25485
樂音洛	-9.25487
三年之喪	-9.25496
造	-9.25507
徃	-9.25524
疎	-9.25525
孤	-9.25538
禰	-9.25538
小雅	-9.25539
祫	-9.2554
奢	-9.25541
稍	-9.25541
并	-9.25542
事上	-9.25543
龍	-9.25548
毅	-9.25566
怠	-9.25567
圜丘	-9.2557
積	-9.25575
諱	-9.25584
鼓	-9.25587
不敢毁傷	-9.25593
諸儒	-9.25597
許	-9.25601
抑	-9.25606
坎	-9.25643
孔氏	-9.25654
甫刑	-9.25658
其所因者本也	-9.25664
施於	-9.25699
先君	-9.25889
有道	-9.25933
子夏	-9.2653
義取	-9.26694
之屬	-9.26696
之意也	-9.26699
亦有	-9.26735
有二	-9.26866
以告	-9.2699
自為	-9.27036
詩書	-9.27536
後人	-9.27618
不生	-9.27695
教化	-9.27845
人子	-9.27938
然其	-9.27945
山川	-9.28165
法則	-9.28478
徳之本	-9.28577
盡忠	-9.28837
其國	-9.28867
禮義	-9.28903
之士	-9.29095
其徳	-9.29142
不驕	-9.29365
而行之	-9.29376
仁也	-9.29591
著於	-9.29603
君有	-9.29666
臣子	-9.2977
教也	-9.30139
其父	-9.30159
朋友	-9.30171
事天地	-9.30211
其親也	-9.3039
亦猶	-9.3059
則皆	-9.30612
以事親	-9.31242
事長	-9.3127
於内	-9.31294
以其	-9.31437
仁者	-9.31746
則下	-9.31852
路	-9.32097
隠	-9.32248
立於	-9.32281
王之	-9.3233
昏	-9.32343
於廟	-9.32367
不相	-9.32471
塞	-9.32485
咎	-9.32514
輯	-9.32519
潔	-9.32543
遷	-9.32566
錫	-9.3257
煩	-9.32575
農	-9.32575
榮	-9.3258
而不敢	-9.3259
追	-9.3259
纂	-9.32592
也天子	-9.32598
熊	-9.32601
乆	-9.32619
扶	-9.32619
非先王之法服不敢服	-9.32621
龜	-9.3263
乖	-9.32633
仍	-9.32646
故雖天子	-9.32647
刋	-9.3265
資於事父以事君而敬同	-9.3265
履	-9.32659
恵	-9.32662
祧	-9.32666
恕	-9.32673
沒	-9.32673
斂	-9.32702
阼	-9.32706
細	-9.32723
君者	-9.3274
豫	-9.32745
散	-9.32754
仁人孝子	-9.32786
強	-9.32794
先儒	-9.32884
慤	-9.32922
不善	-9.32934
司馬	-9.32962
衣服	-9.3304
首章	-9.33052
有過	-9.33082
人主	-9.33086
之教	-9.33174
敬親	-9.33265
也君子	-9.33352
猶有	-9.33403
其實	-9.33508
皆以	-9.33891
尊嚴	-9.33899
一篇	-9.33917
所得	-9.33989
也是故	-9.34075
之罪	-9.34083
太子	-9.34176
若是	-9.34212
之外	-9.34259
四者	-9.34636
貢	-9.34643
之類	-9.34785
之實	-9.34806
人臣	-9.34862
以上	-9.34981
生也	-9.35048
故君子	-9.35225
之喪	-9.35258
從之	-9.35864
本也	-9.35888
之文	-9.35972
劓	-9.35992
於下	-9.36154
文王之	-9.36197
者是	-9.36291
也謂	-9.36368
身之	-9.36523
注同	-9.3663
因其	-9.36643
故聖人	-9.36689
送之	-9.36759
者謂之	-9.36792
可知也	-9.36828
而生	-9.36972
周之	-9.37125
者何也曰	-9.37294
有功	-9.37312
不争	-9.37773
所言	-9.37812
五等	-9.38168
道之	-9.38253
孝行	-9.38301
丈	-9.38344
而天下	-9.38406
然後能	-9.38658
之美	-9.38732
地之	-9.39019
以見	-9.39025
之說	-9.39071
以治	-9.39089
君行	-9.39467
取其	-9.39596
在上	-9.39806
從父之令	-9.39853
朱	-9.39872
以敬	-9.39887
之日	-9.39947
與之	-9.39951
之誼	-9.40062
故言	-9.40066
也聖人	-9.40094
遜	-9.40164
譽	-9.40182
倍	-9.40198
湏	-9.40204
性而	-9.40212
徵	-9.40231
堯	-9.40239
非先王之法言不敢道	-9.40265
墨氏	-9.40272
専	-9.40282
逮	-9.40282
靈	-9.40302
竊	-9.40306
伏	-9.40314
斬	-9.40323
宗廟致敬	-9.40327
創	-9.40327
厲	-9.40331
順於	-9.40339
略	-9.40341
魚	-9.40342
榖	-9.40345
張	-9.40346
擗	-9.40347
孝莫大於嚴父	-9.40356
笑	-9.40364
縣	-9.40377
資於事父以事母而愛同	-9.4038
宗祀文王於明堂以配上帝	-9.40396
者此	-9.40422
因地之利	-9.40428
清植	-9.40436
喻	-9.40437
立身行道	-9.40438
温	-9.4045
殯	-9.40453
祿位	-9.40494
博士	-9.40506
王肅	-9.40528
萬世	-9.40705
天地之性	-9.40726
以愛敬	-9.40794
出入	-9.40875
修身	-9.40898
先祖	-9.41054
以事君	-9.41246
愛敬之心	-9.4126
諸家	-9.4129
不與	-9.41403
為人子者	-9.41468
當時	-9.41542
愛其親	-9.41612
中和	-9.4176
明察	-9.41797
有常	-9.41849
他人	-9.42028
於地	-9.42103
三公	-9.42109
而猶	-9.42163
如此則	-9.42184
不欲	-9.42372
生則	-9.42433
有三	-9.42525
為士	-9.42682
不仁	-9.42688
有君	-9.42809
未盡	-9.42846
是亦	-9.43554
是故君子	-9.43607
善則	-9.43738
之内	-9.43797
至德	-9.43861
大傳	-9.43965
者何也	-9.4404
為下	-9.44106
之至	-9.44148
如是	-9.44227
以正	-9.44326
君命	-9.4438
皆是	-9.44386
故能	-9.44558
不待	-9.44823
取之	-9.44844
德行	-9.44918
一國	-9.4494
百行	-9.44973
其下	-9.45066
孝為	-9.45126
敬身	-9.45218
以來	-9.45478
祭也	-9.456
之節	-9.45637
順天下	-9.4597
於身	-9.46003
之始也	-9.46012
)○	-9.46122
不忘	-9.46245
理也	-9.46355
不食	-9.46359
之學	-9.46689
僭	-9.46756
為國	-9.46914
聖王	-9.46931
以順	-9.47326
故得	-9.47391
互	-9.4747
遵	-9.47496
戚	-9.47692
通於	-9.47722
之心而	-9.47809
慶	-9.4782
不愛	-9.48275
是為	-9.48279
放	-9.4828
皇侃	-9.48333
惑	-9.4838
宣	-9.4843
閒	-9.48465
頌	-9.48525
敬而	-9.48536
播	-9.48559
昧	-9.4856
罔	-9.48578
濫	-9.48585
綏	-9.48586
革	-9.48596
餕	-9.48603
膚	-9.48606
来	-9.48608
衡	-9.48611
踰	-9.48627
豆	-9.48629
收	-9.48633
容止可觀進退可度	-9.48633
治直吏反	-9.48633
九十	-9.48637
都	-9.48642
不敢慢	-9.48649
事父孝故事天明事母孝故事地察	-9.4866
子曰昔者明王	-9.48661
啟	-9.48661
願	-9.48663
必有尊也言有父也必有先也言有兄也	-9.48667
哭不偯	-9.48672
是故非法不言非道不行	-9.48676
秉	-9.48677
措	-9.48679
嘉	-9.48697
㡬	-9.48704
無所不通	-9.48704
玉	-9.48706
上有	-9.48708
計	-9.48713
詩云赫赫師尹民具爾瞻	-9.48713
稽	-9.48717
吕刑	-9.4872
户	-9.4872
短	-9.48721
河間	-9.48722
哀戚	-9.48728
殆	-9.48734
旦	-9.48739
丁	-9.48745
諫諍	-9.48748
損	-9.48749
完	-9.48753
昔者周公郊祀后稷以配天	-9.48759
辛	-9.48759
管	-9.48761
二者	-9.48781
術	-9.48797
託	-9.4881
舊本	-9.48904
南郊	-9.48931
章申言	-9.4896
也字	-9.4901
諫争	-9.4908
太師	-9.49084
百官	-9.49087
居處	-9.49132
人者	-9.49253
鄭氏	-9.49255
父子之道	-9.49282
之常	-9.49326
不行	-9.49464
則天	-9.49601
無私	-9.49846
民人	-9.49978
事而	-9.50068
備矣	-9.50202
殷人	-9.50246
人則	-9.50283
未有不	-9.50381
養之	-9.50542
不順	-9.50648
而又	-9.50977
事之	-9.51081
其父母	-9.51394
所行	-9.51478
身體	-9.5165
然且	-9.51863
君德	-9.51873
為本	-9.5208
多矣	-9.52105
大義	-9.52123
而尊	-9.52231
至矣	-9.52638
行不	-9.5267
而外	-9.52801
未能	-9.5297
人不	-9.53169
固有	-9.53391
皆同	-9.53399
天地之經而民是則之	-9.5346
則可謂	-9.53574
其兄	-9.5378
於上	-9.53872
行而	-9.53905
則天子	-9.5399
為禮	-9.54288
天子之孝	-9.54845
推之	-9.55088
一本	-9.55185
忠孝	-9.55283
下文	-9.55523
不爭	-9.55654
慈愛	-9.55679
雖不	-9.5575
之位	-9.55986
使其	-9.55996
而從	-9.56035
之書	-9.56045
其為	-9.56166
故其	-9.56267
仁人	-9.56324
不至	-9.56435
徧	-9.5647
子思	-9.56501
怨惡	-9.56562
是謂	-9.56647
與人	-9.56695
為諸侯	-9.56697
其德	-9.56751
言必	-9.5692
淳	-9.57174
則非	-9.57242
皆在	-9.57253
為君	-9.57433
萬邦	-9.57435
曲	-9.57449
夜	-9.5751
常行	-9.57544
故夫子	-9.57573
獲	-9.57584
鼎	-9.57628
帥	-9.57633
客	-9.57634
歴	-9.57638
籍	-9.57652
衾	-9.57653
宅	-9.57657
親者	-9.57662
府	-9.57665
誅	-9.5767
陷	-9.57681
悅	-9.57686
錄	-9.57697
穀	-9.57702
槨	-9.5771
祥	-9.57711
迹	-9.57721
戰	-9.57723
操	-9.57727
郎	-9.57728
邑	-9.57728
簠簋	-9.57729
以臨其民是以其民畏而愛之則而象之	-9.57729
石	-9.57729
昀	-9.57735
諡	-9.57735
贊	-9.57737
襲	-9.57737
頗	-9.57738
醴	-9.5774
欽定四庫全書經部六	-9.57742
烝	-9.57748
詩云淑人君子其儀不忒	-9.57752
登	-9.57758
綱	-9.5776
淺	-9.57762
肆	-9.57765
災	-9.57766
瞻	-9.57766
言滿天下無口過行滿天下無怨惡	-9.57768
口無擇言身無擇行	-9.5777
朕	-9.57777
嚴父莫大於配天則周公其人也	-9.57781
雲	-9.57785
際	-9.57785
呉澄	-9.57786
膝下	-9.57786
教以孝所以敬天下之為人父者	-9.57794
貧	-9.57796
夫孝始於事親中於事君終於立身	-9.57798
八十	-9.57802
袒	-9.57803
夫然故生則親安之祭則鬼享之	-9.57805
是以天下和平災害不生禍亂不作	-9.57808
割	-9.57808
故母取其愛而君取其敬兼之者父也	-9.57812
跡	-9.57812
次第	-9.57813
始於事親	-9.57814
身行道揚名於後世以顯父母孝之終也	-9.57817
宏	-9.5782
仰	-9.57824
椁	-9.57832
忿	-9.57833
齊衰	-9.57833
聖人之教不肅而成其政不嚴而治	-9.57836
詩云自西自東自南自北無思不服	-9.57837
嫌	-9.5784
正義曰此依鄭注也	-9.5784
祔	-9.57851
敬其兄則弟	-9.57853
聖人因嚴以教敬因親以教愛	-9.57854
朝夕	-9.57857
心乎愛矣遐不謂矣中心藏之何日忘之	-9.57865
劉向	-9.57866
子曰五刑之屬三千而罪莫大於不孝	-9.57873
絀	-9.57893
藝文志	-9.57898
虚	-9.57915
朝廷	-9.57926
呉	-9.57929
上章	-9.57948
卜之	-9.58041
行必	-9.58048
皇侃云	-9.58082
子路	-9.58089
不敢惡慢	-9.58129
和氣	-9.58211
理之	-9.58346
然後乃	-9.58363
明王之	-9.58393
不忍	-9.58529
愛人	-9.58613
祖父	-9.58649
不從	-9.58817
免於	-9.58881
廣大	-9.58937
經義	-9.58954
昔者天子	-9.58986
謂天子	-9.59044
也凡	-9.59229
先王見教之可以化民也	-9.59326
樂者	-9.5938
甚矣	-9.59407
因心	-9.59823
况於	-9.59883
則當	-9.59953
為一章	-9.60067
安國	-9.6014
不然	-9.60169
孝之始	-9.60188
随	-9.60261
一國之	-9.60315
滿天下	-9.60426
其文	-9.60457
要君	-9.60467
下無	-9.60489
問於	-9.60567
廣敬	-9.60717
之上	-9.60746
不合	-9.60864
此章言	-9.6108
於父母	-9.61222
不毁	-9.61373
和平	-9.61408
禮則	-9.61629
其間	-9.61738
或曰	-9.61783
其家	-9.61901
必先	-9.61996
引此	-9.62182
相親	-9.62324
非為	-9.62326
皆可	-9.62375
為人子	-9.62724
身行	-9.62786
始終	-9.62862
終於	-9.62944
敬長	-9.63277
者易	-9.63547
可見	-9.6365
也按	-9.6369
生事	-9.64115
君父	-9.64216
十一	-9.64368
教之以	-9.64369
道而	-9.64437
其驗	-9.64478
穆	-9.64639
子言之	-9.64871
豈不	-9.64887
五行	-9.64935
無事	-9.6517
天也	-9.65266
二章	-9.65647
於其	-9.66233
以至	-9.66272
而親	-9.66446
其禮	-9.66483
於父	-9.66753
行道	-9.66792
孝而	-9.66899
歸於	-9.66963
供	-9.67063
則天地	-9.67162
去聲	-9.67491
聘	-9.6751
戎	-9.67514
至孝	-9.67526
!	-9.67529
徹	-9.6753
寸	-9.67536
見其	-9.6755
廬	-9.67569
藝	-9.67579
匪	-9.67598
永	-9.67605
討	-9.67612
撫	-9.67615
黍稷	-9.6763
權	-9.67631
優	-9.67642
徐	-9.6766
毋	-9.67661
酬	-9.67668
苴	-9.67676
趙	-9.67678
轉	-9.67679
乗	-9.67683
量	-9.67688
恥	-9.67698
唐𤣥宗	-9.67699
階	-9.67699
二十二章	-9.67701
奏	-9.6772
祗	-9.6772
憲	-9.6772
拂	-9.67723
匡救	-9.67723
鰥寡	-9.67726
掌	-9.6773
中於事君	-9.67732
韋昭	-9.67735
靜	-9.67737
惜	-9.6774
標	-9.6774
踈	-9.67741
盜	-9.67741
裳	-9.67741
通於神明	-9.67744
有虞氏	-9.67751
寳	-9.67756
遭	-9.67756
卦	-9.67761
壞	-9.67761
剕	-9.67764
虧	-9.67767
賈	-9.6777
和睦無怨	-9.67771
檢	-9.67772
饋	-9.67774
星	-9.67775
早	-9.67778
佚	-9.67784
曾參	-9.67791
截	-9.67793
本盡矣死生之義備矣孝子之事親終矣	-9.67799
故得萬國之懽心以事其先王	-9.678
累	-9.67801
上之	-9.67802
祝	-9.67802
輩	-9.67807
子曰昔者明王之以孝治天下也	-9.67811
練	-9.67818
是以其教不肅而成其政不嚴而治	-9.67819
頼	-9.6782
趣	-9.67825
故明王之以孝治天下也如此	-9.67826
滋	-9.67828
詩云愷悌君子民之父母	-9.67835
什	-9.67836
繹	-9.67843
衛	-9.67848
昌	-9.67858
科	-9.67859
故親生之膝下以養父母日嚴	-9.67859
禘嘗	-9.67864
景	-9.67869
𦵏	-9.67871
災害	-9.67881
公侯伯子男	-9.67913
哀慼	-9.67935
嗜	-9.67959
其中	-9.67965
驕溢	-9.67968
庻人	-9.67987
嚴肅	-9.67987
刑罰	-9.68018
奉養	-9.68018
刪去	-9.68057
配上帝	-9.68059
教之所由生	-9.68101
祭器	-9.68213
士有	-9.68277
太學	-9.68305
四海之内	-9.68326
之效	-9.68383
士之孝	-9.68492
宗祀	-9.68503
子夏曰	-9.68542
萬民	-9.68629
無念	-9.68825
三百	-9.68876
人之所	-9.68936
郊社	-9.68945
曰孝經	-9.69059
前章	-9.69185
有終	-9.69285
而為之	-9.69492
而入	-9.69564
以天下	-9.69708
聖明	-9.69854
五章	-9.69915
作忠	-9.69924
以道	-9.70006
大臣	-9.70184
法服	-9.7021
而退	-9.70311
(○	-9.70354
於郊	-9.70643
之辭	-9.70727
道者	-9.70782
文定	-9.70944
尊敬	-9.70993
曾子曰	-9.71099
言夫	-9.71122
中心	-9.71185
治官	-9.71286
先生	-9.71469
必以	-9.71527
五等之	-9.71587
死者	-9.71836
見之	-9.71892
順也	-9.72141
以孝治天下	-9.72283
之臣	-9.72439
人民	-9.72479
以孝為	-9.72722
天之所	-9.72873
行此	-9.73738
於諸侯	-9.73839
親則	-9.73892
非其	-9.73979
此三者	-9.74088
三月	-9.74306
者孝之	-9.74357
善事	-9.74367
何謂	-9.74375
門人	-9.74454
示之以好惡而民知禁	-9.74577
則為	-9.74857
不見	-9.74894
文也	-9.7491
終身	-9.75175
而可以	-9.75237
要道也	-9.75299
庶子	-9.75403
非謂	-9.75504
民心	-9.75616
子曰君子	-9.75864
家國	-9.75867
矣夫	-9.7602
則能	-9.7607
之服	-9.76459
者釋	-9.7659
修其	-9.76639
民之父母	-9.76689
故謂之	-9.76789
也又云	-9.76977
者必有	-9.7705
歡心	-9.77281
其職	-9.77698
閨門	-9.77743
驗	-9.77804
自有	-9.77821
謂不	-9.77872
得而	-9.78293
身不	-9.78454
隋	-9.78564
襄	-9.78573
侈	-9.78577
所由	-9.78579
長丁丈反	-9.78639
路馬	-9.78646
妾	-9.78683
中庸	-9.78684
召	-9.78697
呼	-9.78714
江	-9.78724
攸	-9.78729
壹	-9.78731
謬	-9.78745
正義曰夫子述	-9.78751
畔	-9.78751
淑	-9.78759
庸	-9.78762
委	-9.78767
貫	-9.78772
麻	-9.78778
終於立身	-9.78802
寢	-9.78804
側	-9.78804
洗	-9.78812
貎	-9.78812
言思可道行思可樂	-9.78814
照	-9.78816
仲山甫	-9.78817
夏后氏	-9.78821
折	-9.78825
月恭校上	-9.78826
暢	-9.7883
雜	-9.78835
忒	-9.78842
非先王之徳行不敢行	-9.78844
猷	-9.78849
君子則不然	-9.78855
箴	-9.78857
横	-9.78857
偏	-9.78858
柔	-9.78869
荅	-9.7887
黨	-9.78871
減	-9.78873
耶	-9.78874
殁	-9.78875
聼	-9.78875
圜	-9.78875
兢	-9.78875
悔	-9.78881
彌	-9.78882
者此依孔傳也	-9.78892
齒胄	-9.78892
宗廟致敬鬼神著矣	-9.78898
愷	-9.78907
矜	-9.78909
邢昺	-9.7891
裁	-9.7891
曰君子之教以孝也非家至而日見之也	-9.78913
乘	-9.78915
三日而食教民無以死傷生	-9.78916
卒哭	-9.78918
考證欽定四庫全書孝經注疏卷	-9.78918
急	-9.78926
機	-9.7893
富貴不離其身然後能保其社稷而和其	-9.78936
究	-9.78938
孝無終始而患不及者未之有也	-9.78953
新	-9.78967
關	-9.7897
日月星辰	-9.78972
刪改	-9.78972
妙	-9.78973
湯	-9.78979
泣	-9.78986
傲	-9.78994
悲哀	-9.79007
敏	-9.79014
翼	-9.79017
歟	-9.7903
勇	-9.79038
鄭注云	-9.7904
馬光曰	-9.79063
會	-9.79074
仁孝	-9.79102
飯	-9.79122
弁	-9.79129
不離	-9.79145
詩曰維	-9.79156
如之何曰	-9.79168
風俗	-9.79171
無以加	-9.79195
禍亂	-9.79208
冕服	-9.79222
進退	-9.79235
釋奠	-9.7924
公族	-9.79254
為人父	-9.79263
東方	-9.79271
鄭𤣥云	-9.7928
古文尚書	-9.79282
孝子之事親	-9.79287
平居	-9.7929
惟其	-9.79334
生事愛敬死事哀戚生民	-9.79371
來助祭	-9.79372
七廟	-9.79389
制節	-9.79416
賢者	-9.79423
既葬	-9.79455
東序	-9.79466
古今	-9.79571
經典	-9.79572
五土	-9.79626
矣君子	-9.7967
則猶之	-9.79695
不和	-9.79836
卿士	-9.79899
長則	-9.80104
莫如	-9.80184
朱子曰此	-9.80195
聖治	-9.80215
矣然則	-9.80324
大功	-9.80347
未之	-9.80386
宋人	-9.8046
存焉	-9.80475
互相	-9.805
爲義	-9.80644
不可以不	-9.80697
即位	-9.80833
帝王	-9.80866
光曰	-9.80868
矣然	-9.80918
則不敢	-9.8098
所自	-9.81195
為人臣	-9.81262
可知	-9.81287
亦皆	-9.81369
大徳	-9.81371
堯舜	-9.81383
天地之經	-9.81468
文公	-9.81479
右第	-9.81594
如字	-9.81622
不孝也	-9.8165
若有	-9.81835
不敢有	-9.8184
之功	-9.8184
曰吾	-9.81879
章首	-9.81929
天之道	-9.82031
出于	-9.82155
成身	-9.82195
行事	-9.82431
和順	-9.82455
教愛	-9.82596
學者	-9.8266
諸侯有	-9.82695
于此	-9.82795
魯人	-9.82809
以養父母	-9.82853
因性	-9.82904
治家	-9.82954
焉見	-9.83259
粥	-9.83576
天命	-9.83639
言先王	-9.83673
之極	-9.83682
其餘	-9.83738
小國之臣	-9.83833
而言之	-9.83847
於心	-9.83898
無一	-9.83901
右第十	-9.84056
二十	-9.84219
祭天	-9.84351
死而	-9.84368
從事	-9.84412
君臣之	-9.84516
尊親	-9.84595
不稱	-9.84957
聞之	-9.85111
傳云	-9.85148
者至	-9.85206
非禮	-9.85252
天子有	-9.85272
危也	-9.85486
亡也	-9.85723
君親	-9.85737
能行	-9.8576
子婦	-9.85882
一時	-9.85888
樂而	-9.86361
能盡	-9.86435
夷子	-9.86545
於四海	-9.86557
日本	-9.8667
於民	-9.86722
上古	-9.86749
始死	-9.86904
祀之	-9.86997
父子之	-9.87296
取法	-9.87409
四時之	-9.87676
以生	-9.8773
言明王	-9.8786
所繇	-9.87883
卿大夫之	-9.88133
七章	-9.88264
以下	-9.8834
其質	-9.88479
衆人	-9.88621
古文無也字	-9.89511
不聞	-9.89738
雖無	-9.89739
則國	-9.89778
為文	-9.89871
生焉	-9.89879
忝	-9.89896
曰云	-9.89943
恐其	-9.90084
非孝	-9.90141
地利	-9.90154
四十	-9.90199
則無不	-9.90413
諫則	-9.90496
其死	-9.90589
子者	-9.9067
右經第	-9.90776
忽	-9.90831
時也	-9.90847
則已	-9.90885
此乃	-9.90938
敬其父	-9.9097
墜	-9.9106
貪	-9.91086
敢問	-9.91092
股肱	-9.91131
贄	-9.91141
緯	-9.91158
不疑	-9.91161
忌	-9.91169
佐	-9.91174
僅	-9.912
大人	-9.91202
聿	-9.91211
刻	-9.91221
揖	-9.91226
偯	-9.91233
浮	-9.91234
攻	-9.91236
攝	-9.91241
珍	-9.91241
伊	-9.91278
欺	-9.91279
𤣥宗	-9.91282
故當不義則	-9.91283
蒙	-9.91286
陶	-9.91288
愚	-9.91297
詩云夙興夜寐無忝爾所生	-9.913
某	-9.91301
耳目	-9.91302
祇	-9.91302
歡	-9.91308
所能	-9.91312
經一百	-9.91313
嗚呼	-9.91314
值	-9.91314
河	-9.91315
敵	-9.91319
壁	-9.91321
髪	-9.91323
絲	-9.91324
逸	-9.91324
妃	-9.91327
斥	-9.91327
啓	-9.91331
製	-9.91333
故以孝事君則忠以敬事	-9.91337
莫大於	-9.91337
厯	-9.91339
諭	-9.9134
子貢曰	-9.9134
飲酒	-9.91342
是以行成於内而名立於後世矣	-9.91343
孝經類提要	-9.91343
淫	-9.91343
▁亡音無	-9.91344
居則致其敬養則致其樂病則致其憂	-9.91347
此一節釋	-9.91348
男女	-9.91349
臯	-9.9135
政之	-9.91352
徳義可尊作事可法	-9.91353
禮無容言不文服美不安聞樂不樂食	-9.91353
陸費墀欽定四庫全書	-9.91353
簋	-9.91356
䇿	-9.91359
閨門之内	-9.9136
羽	-9.91361
刀	-9.91361
冡	-9.91363
故得人之懽心以事其親	-9.91363
秩	-9.91365
穴	-9.91367
邇	-9.91369
甲	-9.91372
淵	-9.91374
尹	-9.91377
營	-9.91378
楊	-9.91379
水旱	-9.91379
畫	-9.91381
賊	-9.91385
塗	-9.91387
彝	-9.91387
弼	-9.9139
至德要道	-9.9139
移風易俗莫善於樂安上治民莫善於禮	-9.91391
髪膚	-9.91392
父母生之續莫大焉君親臨之厚莫重焉	-9.91394
遐	-9.91394
題	-9.91399
規	-9.91402
離力智反	-9.91403
肖	-9.91404
禮者敬而已矣故敬其父則子	-9.9141
千萬人	-9.91411
㳺	-9.91413
踐	-9.91414
更端	-9.91416
角	-9.91417
旨	-9.91418
之徒	-9.91419
誥	-9.91421
毁不滅性此聖人之政	-9.91425
詬	-9.91426
禍亂不作	-9.91434
內	-9.91434
尺	-9.91436
頒	-9.91437
非至徳其孰能順民如此其大者乎	-9.91438
故自天子至於庶人	-9.91438
亦可	-9.9144
要君者無上非聖	-9.91444
旤	-9.91444
詩云有覺徳行四國順之	-9.9145
夙夜	-9.91451
暑	-9.91454
礿	-9.91463
將順其美	-9.91468
戰戰	-9.91469
童	-9.91473
較	-9.91477
庶幾	-9.91479
寛	-9.91483
獄	-9.91483
隆殺	-9.91489
之要	-9.91496
狩	-9.91503
眞	-9.91509
戴	-9.91512
􁀥	-9.91522
部	-9.91525
黄帝	-9.91529
朱子刋誤本	-9.91532
蕩	-9.91534
徴	-9.91545
尼	-9.91552
説音悦	-9.91556
用天之道	-9.91556
公侯	-9.91559
庶人之孝	-9.91562
僞	-9.91571
丹	-9.91574
草木	-9.91577
却	-9.9159
之端	-9.91593
三者不除	-9.91594
宣王	-9.916
孟反	-9.91605
容止	-9.91613
荘	-9.91619
無它	-9.91665
諫爭	-9.91667
子曰孝子之喪親	-9.91702
在醜	-9.91702
藥	-9.91727
仲尼居	-9.91794
孝經序	-9.91797
子云	-9.91851
尊祖	-9.91856
有如此者	-9.9186
子曰事君	-9.91945
三牲	-9.92074
兆民	-9.92139
於是乎	-9.92145
天地之情	-9.9216
古今文	-9.92182
敬之至也	-9.92257
豈有	-9.92323
之推也	-9.92336
愛敬其親	-9.92377
爭臣	-9.92377
聖人之徳	-9.92449
子游	-9.92491
三者不除雖日用三牲之養猶為不孝也	-9.92534
學問	-9.92562
莫若	-9.92589
冬至	-9.92656
本于	-9.92932
以愛	-9.93019
止於	-9.93035
守法	-9.93088
不易	-9.93116
養羊尚反	-9.93182
者葢	-9.93294
教人	-9.9344
卿大	-9.93466
主日	-9.93499
分章	-9.93545
教天下	-9.93572
因天	-9.93607
皆得其	-9.93659
之序也	-9.93701
乃命	-9.93812
鬼神之	-9.93925
之法	-9.93955
無也字	-9.93967
導之	-9.94048
傷生	-9.943
事死	-9.94349
而歸	-9.94442
行之於	-9.94467
五孝	-9.9455
諸侯大夫	-9.94713
小國	-9.94782
不絶	-9.95113
讀者	-9.9512
者正	-9.95225
古文無	-9.95301
極其	-9.95322
穆王	-9.95431
未之有也	-9.95504
苟有	-9.95636
不毁傷	-9.95683
觀之	-9.95754
莫之	-9.9579
不如	-9.95799
祭義	-9.95945
而古文	-9.9619
可移	-9.96205
不慢	-9.96422
敬其親	-9.96519
順者	-9.96567
地道	-9.96595
不聽	-9.96675
矣詩曰	-9.96689
順之	-9.9672
三日而食	-9.96732
徳性	-9.96761
文章	-9.9692
此之謂	-9.97046
無上	-9.97105
其容	-9.97284
存於	-9.97398
喪親	-9.97406
在身	-9.9751
其情	-9.97586
有闕	-9.97725
以孝治	-9.97787
十七	-9.97958
大亂	-9.98061
用其	-9.9813
教敬	-9.98136
至此	-9.98157
事地	-9.98171
者按	-9.98277
於日月	-9.98329
事其親	-9.98331
從其	-9.98516
孝悌之	-9.9852
禮以	-9.98557
葢言	-9.98699
而後行	-9.98796
問曰	-9.98846
保守	-9.98948
天子所	-9.99086
如其	-9.99093
化行	-9.99207
不取	-9.99262
其名	-9.9929
以事其親	-9.99299
未知	-9.9936
道德	-9.9937
與夫	-9.99413
能保	-9.99544
命之	-9.99625
有子	-9.99705
為天	-9.99715
而思	-9.99853
聖人之道	-9.99863
效之	-9.99868
者五	-9.99961
諫而	-10.0024
夫非	-10.0034
而民不	-10.005
一順	-10.0052
愛者	-10.0091
以次	-10.0103
其忠	-10.0114
注疏	-10.0115
其所以	-10.0134
五十里	-10.0136
周公之	-10.0136
其功	-10.0142
其在	-10.016
王季	-10.0178
無法	-10.018
如是則	-10.0188
五十	-10.0203
有所不	-10.0217
導	-10.0218
所注	-10.0244
為大夫	-10.0249
堯舜之	-10.0249
盡矣	-10.0251
圖	-10.0266
侯伯	-10.0269
士庶人	-10.0279
以示	-10.0349
知有	-10.0351
則可以	-10.0355
坐而	-10.0356
子曰愛親者不敢惡於人	-10.0361
止之	-10.0371
子之事親	-10.0376
者案	-10.0395
敬天	-10.0402
之原	-10.0405
不祭	-10.0435
分為	-10.0438
長者	-10.0445
限	-10.0448
為不孝	-10.0449
左傳曰	-10.0452
三年之䘮	-10.0455
記云	-10.0458
孟	-10.047
非禮也	-10.0473
而先	-10.0484
范祖禹	-10.0524
者何	-10.0526
赤	-10.0527
肉	-10.053
兄則	-10.0533
班	-10.0535
佩	-10.0537
谷	-10.0542
舅姑	-10.0542
掩	-10.0546
城	-10.0546
唐明皇	-10.0546
馳	-10.0546
詠	-10.0547
繩	-10.0547
故以名章次	-10.0547
柩	-10.0548
禾	-10.0549
寄	-10.055
允	-10.055
禽獸	-10.055
賴	-10.0551
貧賤	-10.0551
俾	-10.0553
行孝道	-10.0554
屨	-10.0554
戀	-10.0555
無以為	-10.0555
訾	-10.0555
朱子刋誤	-10.0556
洛	-10.0557
;	-10.0557
絰	-10.0557
蔽	-10.0557
膝	-10.0558
偃	-10.0558
夙興夜寐	-10.0558
弊	-10.0559
束	-10.0559
涖	-10.0559
空	-10.0559
李	-10.0559
熙	-10.056
貳	-10.056
隣	-10.056
亢	-10.0561
滌	-10.0562
仁義禮智	-10.0562
長則順忠順不失以事其上然後能保其	-10.0562
倚	-10.0562
拯	-10.0562
豐	-10.0563
品	-10.0563
士有争友則身不離於令名	-10.0563
鄰	-10.0563
移風易俗莫善於樂	-10.0563
範	-10.0563
以文王配	-10.0564
治國者不敢侮於鰥寡而況於士民乎	-10.0564
叚	-10.0564
卿大夫章第四	-10.0565
坤	-10.0565
夀	-10.0565
嚴父嚴兄妻子臣妾猶百姓徒役也	-10.0565
牖	-10.0565
謹身節用以養父母此庶人之孝也	-10.0566
子曰閨門之内具禮矣乎	-10.0566
弓	-10.0566
丞	-10.0566
曹	-10.0566
辟雍	-10.0566
恫	-10.0566
動静	-10.0566
以敬事長則順	-10.0566
亾	-10.0567
余	-10.0567
隰	-10.0567
市	-10.0567
庠	-10.0567
訟	-10.0567
野	-10.0567
韋	-10.0567
闡	-10.0568
饋奠	-10.0568
天子章第二	-10.0568
調	-10.0568
祈	-10.0568
。』」	-10.0568
馬融	-10.0568
觧	-10.0569
詩云戰戰兢兢如臨深淵如履薄冰	-10.0569
殘	-10.0569
民用和睦上下無怨	-10.0569
是何言與	-10.057
不敢遺小國之臣而況於公侯伯子男乎	-10.057
嚮	-10.057
士章第五	-10.057
植	-10.057
愧	-10.0571
基	-10.0571
筮	-10.0571
懲	-10.0571
父母舅姑	-10.0571
賈生曰	-10.0571
輒	-10.0571
逃	-10.0571
誓	-10.0571
蠶	-10.0572
高而不危所以長守貴	-10.0572
五者備矣然後能事親	-10.0572
𦙍	-10.0572
伸	-10.0572
宅兆	-10.0573
擬	-10.0573
莫有	-10.0574
膳	-10.0574
談	-10.0574
藻	-10.0574
閨門一章	-10.0574
弑	-10.0574
歳	-10.0574
耕耤	-10.0574
削	-10.0575
身體髮膚受之父母不敢毁傷孝之始也	-10.0575
春秋祭祀以時思之	-10.0575
諸侯章第三	-10.0576
夷齊	-10.0576
帝嚳	-10.0577
北面	-10.0577
試	-10.0577
下今文有	-10.0577
郭	-10.0577
無體之禮	-10.0577
悟	-10.0578
不敢遺小國之臣而况於公侯伯子男乎	-10.0578
孩	-10.0578
禱	-10.0578
坊	-10.0579
人者無法非孝者無親此大亂之道也	-10.0579
紀孝行章第十	-10.0579
號泣	-10.0579
恤	-10.0579
援神契云	-10.0579
正義曰此依	-10.058
䂓	-10.058
毛詩	-10.0582
赤子	-10.0582
㓕	-10.0582
莫大乎	-10.0582
樹	-10.0583
言不文	-10.0583
旅	-10.0583
血	-10.0583
鳥	-10.0584
羮	-10.0584
可謂孝矣	-10.0585
以結之	-10.0585
徒役	-10.0585
禄位	-10.0585
不孝之罪	-10.0586
法度	-10.0586
夫聖人之徳又何以加於孝乎	-10.0586
愉	-10.0586
襄公	-10.0587
公卿	-10.0589
具載	-10.0589
曲禮	-10.059
太傅	-10.0592
四夷	-10.0593
夏殷	-10.0593
君臣上下	-10.0595
得志	-10.0595
輕重	-10.0606
問答	-10.0607
人倫之	-10.0607
迎長	-10.0609
曾子曰君子	-10.061
行去聲	-10.0613
致其敬	-10.0614
然後可以	-10.0615
導之以禮樂而民和睦	-10.0618
有天下者	-10.0619
孝子事親	-10.0619
而不知	-10.0622
刑辟	-10.0624
▁夫音扶	-10.0627
章句	-10.0628
太廟	-10.0628
事父孝	-10.063
右經第十	-10.0634
固非	-10.0634
政令	-10.0635
放此	-10.0636
之務也	-10.0641
舊文	-10.0643
則忠	-10.0646
相承	-10.0647
以供	-10.0648
述作	-10.0649
危身	-10.065
注解	-10.065
君子不貴	-10.0651
三光	-10.0651
百世	-10.066
百家	-10.0664
内外	-10.0665
改易	-10.0665
母也	-10.0667
接下	-10.0669
樂樂	-10.0677
十章	-10.0678
享祀	-10.0682
有限	-10.0684
知之	-10.0687
愛也	-10.0708
古書	-10.071
亦可謂	-10.0712
孝徳	-10.0716
此三	-10.0722
誠信	-10.0728
所藏	-10.073
鄉飲酒	-10.073
子曰孝子之事親也	-10.0731
各以其	-10.0734
移之	-10.0742
儀禮	-10.0742
一獻	-10.0743
今文作	-10.0745
顯親	-10.0748
貴其	-10.0753
文質	-10.0757
子曰字	-10.0761
據此	-10.0763
之任也	-10.0782
無擇	-10.0785
所載	-10.0794
夫子之言	-10.0797
治亂	-10.0801
而欲	-10.0805
史記	-10.0808
古文作	-10.0828
受其	-10.0839
其妻子	-10.0848
未及	-10.0857
大小	-10.0858
將順	-10.0859
子曰君子之事親孝故忠可移於君事兄	-10.0867
義理	-10.0872
經云	-10.0873
者此依鄭注也	-10.0895
經言	-10.0901
善名	-10.091
僭上	-10.0918
二曰	-10.0928
所宜	-10.0932
使民	-10.0943
一言	-10.0951
而教	-10.0957
三者備矣然後能守其宗廟	-10.0971
敬之心	-10.0986
舊注	-10.0994
尊尊	-10.0999
不信	-10.1
本文	-10.1018
是非	-10.1023
節文	-10.1024
而自	-10.1039
至極	-10.104
以齒	-10.1048
之極也	-10.1049
尹氏	-10.1054
若夫	-10.1064
皆當	-10.1074
主於	-10.1077
尊父	-10.1093
也周公	-10.1099
無可	-10.1105
聖人制	-10.1105
王事	-10.1111
不容	-10.1112
之業	-10.1119
是皆	-10.1149
上下相	-10.1158
非一	-10.1168
仁為	-10.1177
也養	-10.1205
三人	-10.1205
易行	-10.1228
在位	-10.1229
十三	-10.1229
言諸侯	-10.1238
四章	-10.124
不敢遺	-10.1255
能事親	-10.1257
是也注	-10.1258
以天子之	-10.1263
老幼	-10.1298
孔鄭	-10.1299
未之有	-10.13
▁行下孟反	-10.134
也所以	-10.1343
已矣	-10.1361
承上	-10.1362
敬一人而千萬人	-10.139
有序	-10.1408
所不能	-10.1408
失之	-10.1423
不惡慢	-10.1426
人以	-10.1426
士以	-10.1428
三曰	-10.1439
曰予	-10.1443
於君則	-10.145
則自	-10.1458
以孝弟	-10.1475
案禮記	-10.149
所云	-10.1494
能養	-10.1499
有異	-10.1502
亦未	-10.1503
而後能	-10.1504
行下	-10.1507
皆得	-10.1522
為政	-10.1548
而對	-10.1557
鄭云	-10.1575
為世子	-10.1582
必及	-10.1583
有禮	-10.1593
則一也	-10.1604
不解	-10.1622
得天下	-10.1631
故于	-10.165
爲敎	-10.1655
聖王之	-10.1658
三年之	-10.1669
以忠	-10.1679
於物	-10.168
不存	-10.168
養父母	-10.1685
作傳	-10.1715
師尹	-10.1721
亦可以	-10.1737
竭	-10.1753
之前	-10.1757
則亂	-10.1759
天子至	-10.1776
三者皆	-10.179
曽子曰君子	-10.1797
六章	-10.181
曾子侍	-10.1811
言先	-10.1825
今不取也	-10.1829
不加	-10.1837
之所至	-10.1856
由是	-10.1862
盡於	-10.1864
不卜	-10.188
本然	-10.1881
以化	-10.1923
反注同	-10.1928
五年	-10.1938
去之	-10.196
也古者	-10.1977
位而	-10.198
反下同	-10.1983
不知有	-10.2019
君能	-10.2064
以父配天	-10.2101
俟	-10.211
於忠	-10.2129
正義曰此章	-10.2131
閉	-10.2136
而後可	-10.2165
也注言	-10.2171
長幼順	-10.2184
刑於四海	-10.2185
鳥獸	-10.2186
而至于	-10.2191
優劣	-10.2195
陰陽	-10.2199
書云	-10.2202
征	-10.2202
董	-10.2203
不誠	-10.2203
天下國家	-10.2203
蓋天子之孝	-10.2204
舅	-10.2207
夫子所	-10.2208
歩	-10.221
懸	-10.2211
餙	-10.2211
懈	-10.2213
奸	-10.2217
缺	-10.2217
羞	-10.2218
徳不敬其親而敬他人者謂之悖禮	-10.2219
吕	-10.2219
牢	-10.2219
四寸	-10.2219
辰	-10.222
京	-10.222
稼穡	-10.222
楚	-10.222
黎	-10.2221
域	-10.2221
虛	-10.2221
爽	-10.2222
析	-10.2222
崩	-10.2222
汎	-10.2222
撮	-10.2223
孝子之事親終矣	-10.2224
軍	-10.2225
僻	-10.2225
跪	-10.2226
先王先公	-10.2226
鄙	-10.2226
琴瑟	-10.2226
寫	-10.2227
洽	-10.2227
消	-10.2228
釋詁文	-10.2228
禀	-10.2228
臣五人雖無道不失其國大夫有	-10.2228
烈	-10.2228
桀	-10.2228
爵禄	-10.2228
人之行莫大於孝	-10.2228
貽	-10.2229
圍	-10.2229
廵	-10.2229
莫大焉	-10.2229
鬭	-10.223
蒼	-10.223
愆	-10.223
給	-10.223
以順天下民用和睦上下無怨女知之乎	-10.223
聞樂不樂	-10.223
速	-10.2231
棘	-10.2231
藉	-10.2231
青	-10.2231
故得百姓之懽心以事其先君	-10.2231
膏	-10.2231
㫖不甘此哀戚之情	-10.2231
怪	-10.2231
避席	-10.2232
泉	-10.2232
遑	-10.2232
擗踊哭泣	-10.2232
子曰夫孝天之經也地之義也民之行也	-10.2232
寢苫枕	-10.2233
虎	-10.2233
曾子曰若夫慈愛恭敬安親揚名	-10.2233
提	-10.2233
萌	-10.2233
該	-10.2234
是故先之以博愛而民莫遺其親	-10.2234
叙	-10.2234
開宗明義章第一	-10.2234
牧	-10.2235
哀戚之情	-10.2235
収	-10.2235
壊	-10.2235
殖	-10.2236
養則致其樂	-10.2236
悲	-10.2236
秘	-10.2236
癸	-10.2236
雷	-10.2236
檀弓云	-10.2236
僕	-10.2237
戸	-10.2237
利禄	-10.2237
朝覲	-10.2237
無服之喪	-10.2237
教以弟所以敬天下之為人兄者	-10.2237
幷	-10.2237
傚	-10.2237
又有君臣之義	-10.2237
麗	-10.2238
用天之道分地之利	-10.2238
諸侯有爭臣五人	-10.2238
子曰父子之道天性	-10.2238
殷仲文	-10.2238
汚	-10.2238
進思盡忠退思補過	-10.2238
父母生之	-10.2238
屈	-10.2239
陋	-10.2239
在上不驕髙而不危	-10.2239
公侯伯	-10.2239
竹	-10.2239
朔	-10.2239
犧	-10.2239
聖治章第九	-10.2239
訛	-10.2239
恐陷	-10.2239
霜露	-10.224
底	-10.224
刑于四海	-10.224
宰我	-10.224
宗廟致敬不忘親也	-10.224
粉米	-10.224
絺	-10.224
指解	-10.224
居則致其敬	-10.2241
殽	-10.2241
桀紂	-10.2241
普	-10.2241
古文孝經孔氏傳	-10.2241
復坐吾語女	-10.2241
戾	-10.2241
張禹	-10.2241
奥	-10.2241
矢	-10.2242
謗	-10.2242
上下無怨	-10.2242
可不慎	-10.2242
半	-10.2242
星辰	-10.2242
刺	-10.2243
烏	-10.2243
辟席	-10.2243
父子之道天性也君臣之義也	-10.2243
災害不生	-10.2243
經常也	-10.2244
匡救其惡	-10.2244
為之宗廟以鬼享之春秋祭祀以時思之	-10.2244
乏	-10.2244
別	-10.2244
治家者不敢失於臣妾而况於妻子乎	-10.2244
黼黻	-10.2245
賞罰	-10.2245
刃	-10.2245
步	-10.2245
而猶且	-10.2245
犆	-10.2245
子曰天地之性人為貴人之行莫大於孝	-10.2245
括	-10.2245
孝治章第八	-10.2245
孝經集傳	-10.2246
曽氏	-10.2246
哲	-10.2246
齋	-10.2246
羲	-10.2246
匹夫	-10.2247
决	-10.2247
籥	-10.2247
獸	-10.2247
廣要道章第十二	-10.2248
孝道之大	-10.2248
此庶人之孝也	-10.2248
也滿而不溢所以長守富也	-10.2248
溫	-10.2249
其本一也	-10.225
墻	-10.225
領	-10.225
血氣	-10.225
胥	-10.225
熹	-10.2251
粱	-10.2251
光顯	-10.2251
王制云	-10.2252
唐虞	-10.2253
只	-10.2253
施之於	-10.2255
曲禮云	-10.2256
此大亂之道也	-10.2256
淵源	-10.2257
君子恥之	-10.2257
此一節	-10.2258
宗族	-10.2258
故得人之	-10.2258
壁中	-10.2258
偪下	-10.2259
乞言	-10.2259
閔子	-10.2262
十八	-10.2262
君臣父子	-10.2263
一家之	-10.2264
服貢	-10.2264
北方	-10.2265
嚴父配天	-10.2266
存焉耳	-10.2266
春秋祭祀	-10.2266
子言之儒有	-10.2267
承上文	-10.2267
父子君臣	-10.2268
燕居	-10.2269
慈恭	-10.2272
之孝當如是也	-10.2273
事親之孝	-10.2276
復坐	-10.2276
不已	-10.2277
無以加於孝乎	-10.2277
東西	-10.2277
宫室	-10.228
説文	-10.2283
甚哉	-10.2286
夫子述	-10.2288
門之	-10.2288
孝子之志	-10.2294
元宗	-10.2298
以加於孝乎	-10.2301
可知矣	-10.2303
惟恐	-10.2303
不肅而成	-10.2303
無容	-10.2307
隋書	-10.2307
事母孝	-10.2309
孔安國云	-10.231
坐字	-10.2312
教民禮順莫善於弟	-10.2316
子曰教民親愛莫善於孝	-10.2317
祖廟	-10.2319
後漢	-10.232
聖德	-10.2326
羣臣	-10.2331
親切	-10.2343
視學	-10.2346
下不亂	-10.2349
正義曰夫子	-10.2349
謹身	-10.2351
親戚	-10.2352
非有所	-10.2356
樂聲	-10.2361
報之	-10.2368
所受	-10.2372
亦曰	-10.2373
致齊	-10.2375
生之	-10.238
忠信	-10.2391
不修	-10.2392
人子之	-10.2392
不遺	-10.2394
庶人章	-10.2394
可觀	-10.2395
是之謂	-10.2396
又推	-10.2399
克明	-10.2403
小心	-10.2405
甚大	-10.2406
四曰	-10.241
故上下能相親也	-10.2413
劉炫云	-10.2415
居官	-10.2419
此注	-10.2431
庶民	-10.2446
不明	-10.2455
禮之大	-10.2459
焉耳	-10.2461
成人	-10.2462
居家	-10.2463
徳也	-10.2476
遵道	-10.2477
相傳	-10.2484
之制也	-10.2486
彼此	-10.2487
繇禮	-10.2488
之以禮	-10.2489
之有乎	-10.249
天下平	-10.2503
而正之	-10.2507
漢書	-10.2512
喪服	-10.2513
服之	-10.2523
殷禮	-10.2537
發明	-10.2538
孝之所	-10.2538
六經	-10.2544
去其	-10.2551
愛敬之道	-10.2553
在朝	-10.2553
一體	-10.2561
正諫	-10.2562
食之	-10.2579
則為順	-10.2583
乎且	-10.2588
無怨惡	-10.2591
如父母	-10.2601
之章也	-10.2601
為主	-10.2601
也然亦	-10.2609
先後	-10.2612
喪不過三年示民有終也	-10.2628
於事	-10.2628
以前	-10.264
比於	-10.2658
於魯	-10.2672
竭其	-10.2683
至誠	-10.2684
不能自	-10.2685
之利	-10.269
興行	-10.2692
以别	-10.2696
而不諫	-10.2699
居于	-10.2702
著明	-10.2703
好是	-10.273
教以臣所以敬天下之為人君者也	-10.2734
中國	-10.2746
養其父母	-10.2751
國中	-10.2756
逺矣	-10.2762
所傳	-10.2763
於上而	-10.277
此之謂也	-10.2773
則亦曰	-10.2776
不盡	-10.2781
其財	-10.2808
而後可以	-10.2829
卿大夫之孝	-10.2833
没而	-10.2836
使臣	-10.2837
大夫三	-10.2845
出自	-10.2865
學禮	-10.2869
於朋友	-10.2874
過失	-10.2879
喪則致其哀祭則致其嚴	-10.2879
夫惟	-10.288
養其親	-10.2899
乎此	-10.2909
其化	-10.2913
孝養	-10.2927
天子庶人	-10.2936
者未之有也	-10.2943
可道	-10.2963
所以成	-10.2969
敬其身	-10.2978
天下之人	-10.2984
矣故曰	-10.3003
若是則	-10.3015
凡此	-10.3018
矣此	-10.3035
躬行	-10.3038
重禮	-10.3055
殺則	-10.307
心乎	-10.3086
禮節	-10.3096
孝子之行	-10.3112
皆謂之	-10.3113
雖在	-10.3114
滿而不溢	-10.3116
而立	-10.3135
非道	-10.3139
不讓	-10.3146
何其	-10.318
其時	-10.3202
矣且	-10.3209
如有	-10.3227
孝字	-10.3242
仲尼孔子字	-10.3246
弟大計	-10.3248
所謂孝	-10.3251
所惡	-10.3255
刑法	-10.3258
釋之	-10.3262
二本	-10.3287
士庶	-10.337
立教者	-10.337
詩云夙夜匪懈以事一人	-10.3386
故知	-10.3391
之主	-10.3392
引書	-10.3415
以之而	-10.3425
有成	-10.3459
司馬光曰謂	-10.3485
必思	-10.3503
而無其	-10.3504
不顯	-10.3514
順矣	-10.3519
一字	-10.3523
行禮	-10.3539
惡烏路反	-10.3559
先人	-10.3573
所以致	-10.3577
或有	-10.3587
上下和	-10.3616
孝治之	-10.3617
事親者	-10.3639
國之君	-10.3656
教以臣所以敬天下之為人君者	-10.3662
資取也	-10.3671
正義曰此言	-10.3678
義也然則	-10.3682
有終始	-10.3683
先聖	-10.3697
所在	-10.3711
不求	-10.3714
修徳	-10.3732
亦何	-10.3791
法天地	-10.3805
不悖	-10.3833
行下孟	-10.3836
之子也	-10.3842
所命	-10.386
者也然則	-10.3908
十一章	-10.3919
四字	-10.3937
大辟	-10.3942
子子	-10.4005
子曰孝子之事親	-10.4014
章大傳第十	-10.4028
鄉飲酒之禮	-10.4033
言保	-10.4048
游	-10.4068
身先	-10.4074
以事其先君	-10.4083
者禮樂	-10.4094
亦然	-10.4099
又引	-10.4121
愛敬盡於事親	-10.4127
相通	-10.4142
之則也	-10.4155
無親	-10.4159
重於	-10.417
之所由生也	-10.4173
雖無道不失其	-10.4186
觴	-10.4196
孝經注疏序	-10.42
疆	-10.42
醜	-10.4203
産	-10.4206
鼗	-10.4206
孝經刋誤	-10.4211
王制	-10.4211
呂	-10.4212
鸞	-10.4213
矇	-10.4215
開宗明義	-10.4216
歾	-10.4216
竭力	-10.4216
厭	-10.4216
跳	-10.4217
患不及	-10.4217
萃	-10.4217
匹	-10.4218
決	-10.4218
遍	-10.4219
採	-10.4219
静	-10.4219
亨	-10.4219
偶	-10.422
坑	-10.4221
焚	-10.4221
刖	-10.4221
挾	-10.4222
爾雅	-10.4222
敝	-10.4222
小功緦麻	-10.4222
帛	-10.4222
激	-10.4223
箋	-10.4223
甫刑云一人有慶兆民賴之	-10.4223
吾不信也	-10.4223
唐明皇御注陸德明音義宋郉昺疏	-10.4224
辠	-10.4224
邁	-10.4224
毁瘠	-10.4225
行其政令	-10.4225
舟	-10.4226
瞿	-10.4226
耆	-10.4226
䧟	-10.4226
感應章第十六	-10.4226
偽造	-10.4227
億兆	-10.4227
故能成其徳教而行其政令	-10.4227
霸	-10.4227
境	-10.4227
示民有	-10.4227
紀孝行	-10.4227
滿而不溢所以長守富	-10.4227
竒	-10.4228
英	-10.4228
瑞	-10.4228
駁	-10.4228
塋域	-10.4228
績	-10.4228
緒	-10.4228
明王之以孝治天下也	-10.4229
臧	-10.4229
摩	-10.4229
羙	-10.4229
軄	-10.4229
三十六	-10.4229
繅	-10.4229
子曰不愛其親而愛他人者謂之悖	-10.4229
子曰是何言與是何言與昔者天子有	-10.4229
長㓜	-10.4229
沿	-10.4229
譏	-10.4229
伯禽	-10.4229
先之以敬讓而民不爭	-10.4229
巳	-10.423
簟	-10.423
冰	-10.423
諷	-10.423
德不敬其親而敬他人者謂之悖禮	-10.423
詁	-10.423
兹	-10.423
子曰先王有至徳要道	-10.423
争臣三人雖無道不失其家	-10.423
饑	-10.4231
驟	-10.4231
周公制禮	-10.4231
雉	-10.4231
得其歡心	-10.4231
暮	-10.4231
曾子曰甚哉孝之大也	-10.4231
詮	-10.4231
企	-10.4232
棺槨	-10.4232
諌諍	-10.4232
彛	-10.4232
乙	-10.4232
玩	-10.4232
冠昏	-10.4232
糾	-10.4232
繫	-10.4232
爱	-10.4232
㓜	-10.4233
妻子臣妾	-10.4233
之服其冕	-10.4233
段	-10.4233
先王有至德要道	-10.4233
巧	-10.4233
迨	-10.4233
忝辱也	-10.4233
輕侮	-10.4233
黙	-10.4233
右傳十	-10.4233
杜	-10.4234
守其祭祀	-10.4234
俯	-10.4234
三才章第七	-10.4234
其政不嚴而治	-10.4234
復坐吾語汝	-10.4234
哀公問	-10.4234
周公攝政	-10.4234
庶人章第六	-10.4235
佑	-10.4235
協	-10.4235
則聞命矣敢問子從父之令可謂孝乎	-10.4235
孝悌之至通於神明光於四海無所不通	-10.4235
父有爭子則身不陷於不義	-10.4235
士有爭友則身不離於令名	-10.4235
犬馬	-10.4235
藴	-10.4235
光於四海	-10.4235
嬰	-10.4236
泛	-10.4236
幣	-10.4236
懿	-10.4236
蠱	-10.4236
墠	-10.4236
故生則親安之	-10.4236
簠	-10.4237
婢	-10.4237
故明王之以孝治天下如此	-10.4237
事親者居上不驕為下不亂在醜不争	-10.4237
國大夫有爭臣三人雖無道不失其家	-10.4237
孝之終也	-10.4237
廣揚名章第十四	-10.4237
臺	-10.4237
冉	-10.4237
虐	-10.4238
君子之事親孝	-10.4238
林	-10.4238
孝為百行之	-10.4238
廣至徳章第十三	-10.4238
暨	-10.4238
公羊高	-10.4239
孩提	-10.4239
故不肖者之	-10.4239
進退可度	-10.4239
忠順不失以事其上然後能保其	-10.4239
擗婢亦反	-10.4239
行成於内	-10.4239
旁	-10.4239
几	-10.424
駮	-10.424
冩	-10.424
背	-10.424
安上治民莫善於禮	-10.424
融	-10.424
故不愛其親而愛他人者謂之悖	-10.424
悦敬其君則臣悦敬一人而千萬人悦	-10.424
倡	-10.424
謝萬	-10.4241
期之喪	-10.4241
隔	-10.4241
隕	-10.4241
顔淵	-10.4241
貨	-10.4241
治國者不敢侮於鰥寡而况	-10.4241
分地之利	-10.4242
君子之事上	-10.4242
含	-10.4242
酌	-10.4242
曾子問曰	-10.4242
矩	-10.4242
明黄道周撰	-10.4242
臯陶	-10.4242
莫大于	-10.4242
廷	-10.4242
大雅云無念爾祖聿修厥徳	-10.4242
長幼之序	-10.4242
寐	-10.4242
不忘親也	-10.4243
元首	-10.4243
其義一也	-10.4243
所敬者寡而悦者衆此之謂要道	-10.4243
洪	-10.4243
百世不遷	-10.4243
陳其簠簋而哀戚之	-10.4243
其父兄君	-10.4243
通結上文	-10.4243
孩提之童無不知愛其親	-10.4243
環	-10.4243
房	-10.4244
敷暢	-10.4244
之道不過於	-10.4244
併	-10.4244
宻	-10.4244
知所以為人	-10.4244
為下而亂則刑在醜而爭則兵	-10.4244
枉	-10.4244
病則致其憂	-10.4244
浴	-10.4245
是以四海之内各以其職來助祭	-10.4245
卜其宅兆而安措之	-10.4245
隨之	-10.4245
愼	-10.4245
慝	-10.4245
寵	-10.4245
制節謹度滿而不溢	-10.4245
芳	-10.4246
蒸	-10.4246
巷	-10.4246
鑿	-10.4246
五刑之屬三千	-10.4246
飽	-10.4246
唐㑹要	-10.4246
轡	-10.4246
天地明察神明彰矣	-10.4247
是以四海之内各以其職來祭	-10.4247
髮	-10.4247
萬姓	-10.4247
穫	-10.4247
事長則順	-10.4247
事君章第十七	-10.4247
惰	-10.4248
五刑章第十一	-10.4248
而況於	-10.4248
險	-10.4248
由此而	-10.4249
為之棺槨衣衾而舉之陳其簠簋而哀	-10.4249
魄	-10.4249
屋	-10.4249
胄子	-10.4249
腹	-10.4249
諒	-10.4249
木也其牲以	-10.4249
天地明察	-10.425
南面	-10.425
賛	-10.4251
周頌	-10.4252
飲酒食肉	-10.4253
召公	-10.4253
軌	-10.4253
凝	-10.4254
毒	-10.4254
弛	-10.4254
傾危	-10.4254
之制禮也	-10.4255
轍	-10.4256
嚴而治	-10.4256
夫人薦	-10.4257
摯	-10.4257
孝經注解傳述人	-10.4257
武王周公	-10.4257
閨門章	-10.4258
鯀	-10.4258
而弟達乎	-10.4258
貫通	-10.4258
使天下之人	-10.4259
醜衆	-10.426
▁説音悦	-10.426
百里	-10.4261
鮮	-10.4261
謹度	-10.4261
追逺	-10.4263
▁長丁丈反	-10.4264
斯二者	-10.4266
天因地	-10.4266
方澤	-10.4268
則天之明因地之義	-10.4268
孫氏	-10.4269
𢎞	-10.4269
同於父	-10.427
子産	-10.427
元年	-10.4271
天下和平	-10.4272
禰廟	-10.4272
不敢侮	-10.4272
以下如	-10.4272
致仕	-10.4273
項君	-10.4275
▁舊本	-10.4275
不忘其親	-10.4276
能孝於	-10.4281
他日	-10.4281
漢初	-10.4282
主張	-10.4283
子言之君子	-10.4285
爭臣七人雖無道不失其天下	-10.4286
乎以此之故	-10.4286
祖述	-10.4287
古文句	-10.4287
補過	-10.4289
子曰夫孝徳之本也教之所由生	-10.4289
東晉	-10.4289
忌日	-10.429
按禮記	-10.4296
月令	-10.4297
三才	-10.4298
忠於君	-10.4299
制㫖	-10.43
兩家	-10.4302
知所以事	-10.4304
大事	-10.4306
立徳行	-10.4307
當須	-10.4308
子弟臣	-10.4312
不危	-10.4313
矣行之於	-10.4314
篇語	-10.4315
取象	-10.4315
十四	-10.4315
二句	-10.4319
卜牲	-10.4319
存亡	-10.4323
周公其人	-10.4323
中庸曰	-10.4323
所不貴也	-10.4323
邦國	-10.4325
於兄弟	-10.4325
侍立	-10.4325
雖無道	-10.4328
盡力	-10.4334
之數	-10.4334
君子之教	-10.4335
於後	-10.4335
明王孝治	-10.4336
二十二	-10.4341
變化	-10.4343
聖人之德	-10.4346
君之尊	-10.4349
雖殊	-10.435
道之要	-10.436
有慶	-10.4364
反哭	-10.4364
乎孔子曰	-10.4365
教之以孝	-10.4367
守宗廟	-10.4375
不敢犯	-10.4377
章次	-10.438
可度	-10.438
以俟	-10.4383
九章	-10.439
不敢惡	-10.4391
于四海	-10.4392
莫敢	-10.4394
政刑	-10.4396
此四者	-10.4396
得其心	-10.4396
本原	-10.4399
凡在	-10.4411
乃引	-10.4422
夫猶	-10.4425
國風	-10.4428
毁傷其身	-10.4429
哀公	-10.4429
耳若	-10.4436
莫先	-10.4445
禁也	-10.4447
移孝	-10.4448
未著	-10.4452
凡十	-10.4456
有以異	-10.4459
之意焉	-10.446
三等	-10.4464
内史	-10.4468
天子諸	-10.4472
之地	-10.4474
德之本也	-10.4478
退而	-10.4483
諸書	-10.4487
無窮	-10.4492
是以君子	-10.4498
恭順	-10.4501
立廟	-10.4515
之功用	-10.4516
夫子以為	-10.452
各有所	-10.4523
使弟	-10.4525
神明之道	-10.4526
聖經	-10.4531
婦順	-10.4534
愛親者不敢惡於人敬親者不敢慢於人	-10.454
節用	-10.4543
行成	-10.4543
孫子	-10.4545
燕禮	-10.4547
古者天子	-10.4554
葢猶	-10.4561
並非	-10.4567
家相	-10.4567
之習	-10.4572
天地之道	-10.4573
下猶	-10.4574
三日而	-10.4579
救其	-10.4581
所說	-10.4591
理家	-10.4603
大哉	-10.4604
能致	-10.461
侍坐於	-10.4613
后夫人	-10.4622
為臣子者	-10.4623
無遺	-10.4624
以下皆	-10.4624
論孝	-10.4625
地利也	-10.465
三讓	-10.4654
乎哉	-10.4659
先公	-10.4662
其生也	-10.4665
爲政	-10.4667
事父兄	-10.4668
為其近於	-10.4684
必及之	-10.4686
不幸	-10.4717
乎詩曰	-10.4725
治之	-10.4727
必求	-10.4728
章之首	-10.4729
亦當	-10.4753
未可	-10.4756
存者	-10.4773
二百	-10.4777
樂易	-10.4782
父母所	-10.4798
或云	-10.4807
以此為	-10.4829
離其身	-10.4833
士章	-10.4834
天子章	-10.4843
者不過	-10.485
則無所不	-10.4865
出焉	-10.4869
不私	-10.488
不假	-10.4884
註疏	-10.489
之忠也	-10.4897
者莫不	-10.4902
後學	-10.4904
而不忘	-10.4936
興起	-10.4948
中士	-10.4955
君之過	-10.4966
道不行	-10.4969
不顧	-10.4975
退則	-10.4991
如是而	-10.4995
家臣	-10.5
既得	-10.5012
異同	-10.5032
上之所	-10.5051
仁孝之	-10.5054
六行	-10.5073
察於	-10.5073
君有過	-10.5078
其人也	-10.5081
前言	-10.5121
皆備	-10.5245
罰之屬千	-10.5255
可法	-10.5415
未嘗不	-10.5418
孝經定本	-10.5436
正義曰此依魏注也	-10.5482
不滅	-10.5504
定本	-10.5559
父子之道天性	-10.5569
士君子	-10.5674
一敬	-10.5677
忘親	-10.5699
故敬其父則子	-10.5761
退謂	-10.5816
十餘	-10.5837
厝	-10.5872
之辭也	-10.5891
州貢	-10.5904
所聞	-10.5909
令名	-10.5943
先王之道	-10.5952
義疏	-10.5965
今所	-10.5977
衰矣	-10.603
人之所以	-10.6047
雖滿	-10.6088
六十	-10.6114
無功	-10.613
未至於	-10.6146
喪不過三年示民有終	-10.6152
居家理故治可移於官	-10.6194
起居	-10.6195
事兄悌故順可移於長	-10.6196
子曰君子之事親孝故忠可移於君	-10.6201
曰夫孝天之經	-10.6258
者以其	-10.6271
八字	-10.6304
北宫文子	-10.6308
國之大	-10.631
王后	-10.6347
孝慈	-10.6483
忍	-10.6548
侯卿大夫士庶人	-10.6559
徳教加於百姓刑於四海	-10.66
神人	-10.66
生事愛敬死事哀	-10.6622
莫重於	-10.6651
誨	-10.6668
犯禁	-10.6669
乞	-10.6669
六寸	-10.6669
閔	-10.6674
衣而飬老	-10.6674
「	-10.6678
爰	-10.6679
沉	-10.6679
丕	-10.6688
堪	-10.6688
拜其辱	-10.669
禦	-10.6692
柷	-10.6694
勤勞	-10.6695
讎	-10.6699
晳	-10.6699
呉氏	-10.6699
冕而親迎	-10.6699
桓桓	-10.6699
檀弓	-10.67
尊而不親	-10.6702
它	-10.6703
冢	-10.6704
伐	-10.6705
滕	-10.6706
殃	-10.6708
窺	-10.6708
沛	-10.6708
遠近	-10.6708
揚名榮親	-10.6708
優游	-10.671
兢兢戒	-10.671
旒	-10.6711
耄	-10.6712
嶽	-10.6712
此依魏注也	-10.6713
慨	-10.6713
泯	-10.6715
拜迎	-10.6715
蠻	-10.6715
尋	-10.6715
瘠	-10.6716
裘	-10.6716
偪	-10.6716
破	-10.6717
簒	-10.6717
氣竭而	-10.6717
奚	-10.6717
燼	-10.6717
勒	-10.6717
朂	-10.6718
修身愼行	-10.6718
得罪於	-10.6719
蜀	-10.6719
愾	-10.6719
津	-10.6719
枝	-10.6719
鄭康成	-10.672
帶	-10.672
觸	-10.672
晦	-10.6721
𨽻	-10.6721
旱	-10.6721
布帛	-10.6721
碑	-10.6722
諴	-10.6722
頃	-10.6722
嫁	-10.6722
委曲	-10.6722
卿與大夫	-10.6722
借	-10.6723
本或作	-10.6723
纊	-10.6723
秋冬	-10.6723
踵	-10.6724
庚	-10.6724
閲	-10.6724
悽愴	-10.6724
永錫	-10.6724
拘	-10.6724
淑善也忒差也	-10.6724
巡	-10.6724
倦	-10.6724
宛	-10.6725
岳	-10.6725
傾	-10.6725
王朝侯國	-10.6725
各以其職來祭	-10.6725
整	-10.6725
䖍	-10.6725
皆在於凶德	-10.6725
三者備矣	-10.6725
彜	-10.6726
東北	-10.6726
塾	-10.6726
御製序	-10.6726
凡此其屬太	-10.6726
疲	-10.6726
不可欺以	-10.6726
不食三日	-10.6726
廵守至於	-10.6726
罪五百	-10.6726
葉	-10.6726
語魚據反	-10.6726
醉	-10.6726
養國老於	-10.6726
刋誤	-10.6726
雖得之君子所不貴	-10.6726
正義曰此依魏	-10.6726
厚莫重焉	-10.6726
不勝喪	-10.6726
牽	-10.6726
所以長守其	-10.6726
庫	-10.6726
盥	-10.6726
以下别為一章	-10.6726
狗	-10.6727
則萬物皆	-10.6727
繋	-10.6727
雞	-10.6727
之意當為傳之	-10.6727
秀	-10.6727
子曰是何言與是何言與	-10.6728
武城	-10.6728
遊	-10.6728
謝	-10.6728
宅墓穴	-10.6728
燠	-10.6728
耤	-10.6728
枕	-10.6728
躋	-10.6729
是天道也	-10.6729
而可爲民之	-10.6729
慈幼	-10.6729
悖逆	-10.6729
旋	-10.6729
曽子曰若夫慈愛恭敬安親揚名	-10.6729
亦格言也	-10.6729
姦	-10.6729
甫刑云一人有慶兆民頼之	-10.6729
而況於妻子乎	-10.6729
嘗藥	-10.6729
憑	-10.6729
故曰終於立身也	-10.6729
左氏傳	-10.6729
在其中矣	-10.673
琰	-10.673
衣衾	-10.673
佳賣反	-10.673
狐	-10.673
鴈	-10.673
出疆	-10.673
畀	-10.673
裕	-10.673
斁	-10.673
臏	-10.673
蔵	-10.673
不易其則故	-10.673
規矩	-10.673
圓	-10.673
德義可尊作事可法	-10.673
頑	-10.673
了	-10.6731
則人起心而行之	-10.6731
女音汝下同	-10.6731
相息亮反	-10.6731
說文云	-10.6731
事地察	-10.6731
徐整	-10.6731
祕	-10.6731
覩	-10.6731
回	-10.6731
天子受命於天	-10.6731
宴	-10.6731
祖考來格	-10.6731
䙝	-10.6731
區	-10.6731
孔子對曰	-10.6731
廓	-10.6731
蚤	-10.6731
非先王之德行不敢行	-10.6731
事親者居上不驕	-10.6731
慼生民之	-10.6732
水漿不入口	-10.6732
不可以不爭於父臣不可以不爭於君	-10.6732
子曰夫孝德之本也	-10.6732
曽子曰敢問聖人之	-10.6732
赫赫明盛	-10.6733
候	-10.6733
勅	-10.6733
故當不義則爭之	-10.6733
種	-10.6733
邱	-10.6733
第七章	-10.6733
無可擇之行	-10.6733
長幼順故上下治	-10.6733
役	-10.6733
昌吕反	-10.6733
闗	-10.6733
吐	-10.6733
能立其身	-10.6733
揆	-10.6734
支	-10.6734
葢天子之孝也	-10.6734
熟	-10.6734
柄	-10.6734
子貢問	-10.6734
郤至	-10.6734
匡衡	-10.6734
告於墓	-10.6734
在上不驕高而不危制節謹度滿而不溢	-10.6734
材	-10.6734
辟音避	-10.6734
曽子曰甚哉孝之大也	-10.6735
參所金反	-10.6735
如之何	-10.6735
憾	-10.6735
備陳死生之義以盡孝子	-10.6735
子曰君子事上進思盡忠退思補過	-10.6735
盡津忍反	-10.6735
沃	-10.6735
矯	-10.6735
父慈子孝	-10.6735
陳之以德義而民興行	-10.6735
皷	-10.6735
袁宏	-10.6735
訖	-10.6735
欽定四庫全書孝經集傳卷	-10.6735
詬厲	-10.6735
側曰侍	-10.6735
就養能致其懽	-10.6735
擅	-10.6735
衞	-10.6735
而驕則亡為下而亂則刑在醜而争則兵	-10.6736
詩云有覺德行四國順之	-10.6736
稟	-10.6736
恣	-10.6736
於庶人孝無終始而患不及者未之有也	-10.6736
不敢惡於人	-10.6736
替	-10.6736
服美不安	-10.6736
父子兄弟	-10.6737
浸	-10.6737
夫音符	-10.6737
暗	-10.6737
理家謂卿大夫	-10.6737
至要之義	-10.6737
見因天地	-10.6737
闇	-10.6737
之禮所以仁	-10.6737
祀昊天	-10.6737
感應之	-10.6737
諫諍章第十五	-10.6737
故忠可移於君	-10.6737
范	-10.6737
下章云	-10.6738
以化民而後以身先之	-10.6738
翼翼	-10.6738
紂	-10.6738
招	-10.6738
以順則逆民無則焉不在	-10.6738
露	-10.6738
不過乎物	-10.6738
秋嘗	-10.6738
孔子閒居子夏侍	-10.6738
死生之義	-10.6738
遯	-10.6738
此哀戚之情也	-10.6738
神明彰矣	-10.6739
人子弟者無不敬其父兄也	-10.6739
倣	-10.6739
能敬宗廟	-10.6739
不敢忘其親也	-10.6739
得百姓之懽心	-10.6739
非聖人者無法	-10.6739
諫諍之臣	-10.6739
謂之悖禮	-10.6739
君親臨之厚莫重焉	-10.6739
緩	-10.6739
税	-10.6739
迂	-10.674
咏	-10.674
者此釋	-10.674
寅	-10.674
符	-10.674
脱	-10.674
晝夜	-10.674
毫	-10.674
喪則致其哀	-10.674
黻	-10.674
則天之明因地之利以順天下	-10.674
仲尼居曽子侍	-10.674
嘆	-10.674
遽	-10.674
祭則鬼享之	-10.674
高而不危	-10.674
蟲	-10.674
邢氏	-10.6741
董生	-10.6741
順乎親	-10.6741
憤	-10.6741
右傳二十	-10.6741
水火	-10.6741
結上文	-10.6741
可謂孝乎	-10.6742
夭	-10.6742
仲尼閒居	-10.6742
徳義而民興行先之以敬讓而民不	-10.6742
是故先之以博愛而民莫遺其親陳之以	-10.6742
則而象之	-10.6742
故自天子已下至	-10.6742
淑人君子	-10.6742
稻	-10.6742
霜	-10.6742
尼丘山	-10.6742
千八百	-10.6742
埀	-10.6742
吳	-10.6742
孝弟之至通於神明光於四海無所不通	-10.6742
韋布	-10.6742
諌	-10.6743
晉侯	-10.6743
條有三千	-10.6743
辱其父母	-10.6743
父母生之續莫大焉	-10.6744
訢	-10.6744
德敎加於百姓	-10.6744
宥	-10.6744
敎不肅而成其政不嚴而治	-10.6744
皆本乎	-10.6744
綴	-10.6744
蓋士之孝也	-10.6744
詭	-10.6744
府史	-10.6744
天經地義	-10.6744
行則四方之國順而行之	-10.6744
擗踊哭泣哀以送之	-10.6744
則天之明	-10.6744
延	-10.6744
鄉黨	-10.6744
明堂天子布政之宫也	-10.6744
蓋諸侯之孝也	-10.6744
正之與變因樂而彰故曰莫善於樂	-10.6744
䕶	-10.6745
瞽	-10.6745
充塞	-10.6745
得萬國之懽心	-10.6745
刑戮	-10.6745
不敢遺小國之臣	-10.6745
子曰參先王有至徳要道	-10.6745
二程	-10.6745
朝聘	-10.6745
山井鼎	-10.6745
濟濟漆漆	-10.6745
祐	-10.6745
亦至焉	-10.6745
三千條	-10.6745
羅	-10.6746
損益	-10.6746
明發不寐	-10.6746
進思盡忠	-10.6746
則復諫	-10.6746
子曰君子之事上也進思盡忠退思補過	-10.6747
杜預	-10.6747
之官以成	-10.6747
引詩歌詠	-10.6747
立社曰	-10.6747
華蟲	-10.6747
教民親愛莫善於孝教民禮順莫善於悌	-10.6747
退思補過	-10.6747
又焉得為孝乎	-10.6747
司馬貞	-10.6747
天有常明	-10.6747
山林	-10.6747
言無此理故曰未有	-10.6747
嗟	-10.6747
犬	-10.6747
雖日具	-10.6748
春秋左氏傳	-10.6748
闋	-10.6748
程	-10.6748
武帝時	-10.6748
戈	-10.6748
攷	-10.6748
曑	-10.6748
甸	-10.6748
繼禰者	-10.6748
門户	-10.6748
三老五更	-10.6749
費用約儉謂之制	-10.6749
非孝者無親	-10.6749
父母有疾	-10.6749
南鄉	-10.6749
齊戒沐浴	-10.6749
先王制禮	-10.6749
妖	-10.6749
居家理	-10.675
要君者無上	-10.675
凖	-10.675
朗	-10.6751
展	-10.6751
繡	-10.6751
矣帝入	-10.6751
為下而亂	-10.6751
盡其歡	-10.6751
以順則逆民無則焉	-10.6752
宿	-10.6752
無聲之樂	-10.6752
精微	-10.6752
怡	-10.6752
者天地所	-10.6752
逄	-10.6753
畝	-10.6753
盖天子之孝	-10.6753
安上治民	-10.6753
鵠	-10.6753
孺	-10.6753
居上而驕	-10.6753
萬幾	-10.6754
忠順不失	-10.6754
郊祀明堂	-10.6754
古文孝經指解	-10.6754
故可以安上化下	-10.6754
三才章	-10.6754
開宗明義章	-10.6755
流於外	-10.6755
恱敬其君則臣恱敬一人而千萬人恱	-10.6755
抱	-10.6755
語去聲	-10.6755
所敬者寡而恱者衆此之謂要道	-10.6756
亷	-10.6756
孩幼	-10.6756
軍旅	-10.6756
禮者敬而已矣	-10.6757
惡去聲	-10.6757
曜	-10.6758
茂	-10.6758
此章廣言	-10.6758
之别名	-10.6759
葛	-10.6759
所由生	-10.6759
敬盡於事親而徳教加於百姓刑于四海	-10.6759
而降福	-10.6759
干戚	-10.6759
孰慮	-10.6759
則爲忠	-10.676
顔色	-10.676
在醜不爭	-10.676
千載	-10.6761
衍義	-10.6761
有争臣七人雖無道不失其天下諸侯有	-10.6761
違逆	-10.6761
米	-10.6762
為之棺椁衣衾而舉之	-10.6762
太史	-10.6762
相親相	-10.6762
公明儀	-10.6763
隋志	-10.6763
虞書曰	-10.6763
金石	-10.6763
十八篇	-10.6763
第三章	-10.6764
契	-10.6764
日旦思其	-10.6765
永守	-10.6767
時思之	-10.6767
皇皇	-10.6767
援	-10.6769
之答也	-10.6769
燕享	-10.6769
遐逺	-10.6769
慶譽	-10.677
君子終身守此	-10.677
漢興	-10.677
其祖考也	-10.6771
司徒	-10.6771
宗廟之中	-10.6771
不敢私	-10.6771
殺逐	-10.6771
以事一人	-10.6772
其類也	-10.6773
得毋	-10.6773
美味	-10.6773
亦如之	-10.6774
卜兆	-10.6776
在家之	-10.6776
者其惟	-10.6777
去慢	-10.6778
膳膏	-10.678
所自出	-10.6781
九年	-10.6782
此皆聖	-10.6782
微賤	-10.6783
禮無容	-10.6783
董生曰	-10.6784
不去則	-10.6784
詘	-10.6784
則聞命矣	-10.6785
賔主	-10.6787
故以孝事君則忠	-10.6787
尊其父	-10.6788
食肉	-10.6789
上謂君	-10.679
兵刑	-10.6794
得其宜	-10.6794
原序	-10.6794
孔門	-10.6798
為之宗廟以鬼享之	-10.6802
謹守	-10.6802
十三字	-10.6803
則不止	-10.6805
十室	-10.6806
孝經之文	-10.681
威如	-10.681
氣象	-10.6811
世婦	-10.6812
篇首	-10.6812
苟或	-10.6812
文王之徳	-10.6813
感通	-10.6814
必湏	-10.6815
長久	-10.6816
繁文	-10.6816
父母之喪	-10.6816
五等之孝	-10.6818
在國之	-10.6818
十年	-10.682
塞乎天	-10.6821
將來	-10.6823
夜明	-10.6824
謹節	-10.6824
其義同	-10.6826
顯父母	-10.6827
爵位	-10.683
五常之	-10.6831
之與敬	-10.6833
祭義曰	-10.6842
帝舜	-10.6842
道路	-10.6842
容貌	-10.6843
大歛	-10.6845
窮民	-10.6847
逺近	-10.6855
何不敬	-10.6856
爲一章	-10.6856
諸兄	-10.6857
者衆也	-10.6857
諸侯卿大夫之	-10.6861
豈惟	-10.6861
天下之通	-10.6863
之甚也	-10.6867
死節	-10.6868
仁讓	-10.6869
案周禮	-10.6869
曽子聞	-10.6871
氣志	-10.6871
最大	-10.6872
之服自	-10.6874
齊視	-10.6874
必於是	-10.6877
尊顯	-10.6879
語辭	-10.6883
未及於	-10.6884
危亡	-10.6886
樂繇	-10.6888
父母之身	-10.6889
性情	-10.6894
而不犯	-10.6897
孝經述註	-10.6899
即所謂	-10.6901
謂其有	-10.6903
上下治	-10.6918
率先	-10.6918
不敢有所	-10.6932
徳業	-10.6932
祖宗	-10.6934
奉法	-10.6939
容儀	-10.6939
所統	-10.694
中興	-10.6942
改本	-10.6945
陳説	-10.6945
多聞	-10.6946
禮儀	-10.6948
分别	-10.695
孝子之心	-10.6953
性性	-10.6956
乾隆四十六年十	-10.6956
夫如是	-10.6958
順逆	-10.6962
敬者禮	-10.6962
君子弗	-10.6964
明皇	-10.6965
於其家	-10.6969
申明	-10.697
君子之徳	-10.697
周制	-10.6972
兼取	-10.6979
非毁	-10.6986
天子諸侯卿大夫士	-10.6991
五月	-10.7003
知孝之	-10.7004
之盛也	-10.7007
御註	-10.7008
者孝弟之	-10.7009
俱行	-10.7014
慈孝	-10.7038
揚名顯親	-10.7043
名於後世	-10.7054
月祭	-10.7056
世世	-10.7065
太王	-10.7083
心志	-10.7115
人而人	-10.7116
忠告	-10.7119
天地鬼神	-10.7123
炫自	-10.7123
於君父	-10.7134
之餘也	-10.7135
如此而後	-10.7184
古文無也字孝經注疏卷	-10.7185
長長	-10.719
欲觀	-10.7202
見其所	-10.7211
不辱其	-10.7219
尊文王	-10.7219
臣下所	-10.7222
既聞	-10.7223
案尚書	-10.723
文王之事	-10.7256
之所共	-10.7281
故順可移於長居家理故治可移於官	-10.7291
伯子男	-10.7297
不敢自	-10.7349
弟弟	-10.7386
墨劓剕宫大辟	-10.7396
子曰吾志在春秋行在孝經	-10.7422
盡其敬	-10.7459
教讓	-10.7475
亦莫	-10.7493
也教者	-10.7503
不可復	-10.7517
事君之道	-10.7549
之類是也	-10.7619
今文古文	-10.7652
聖人之教	-10.7681
慼	-10.7696
所記	-10.7804
以禮樂而民和睦示之以好惡而民知禁	-10.7869
名立於	-10.7902
敬人之父	-10.7924
卿大夫之孝也詩云夙夜匪懈以事一人	-10.7938
郊祭	-10.7961
正義曰此依王注	-10.8093
等謹案孝經	-10.8117
大計反	-10.8146
孝經一卷	-10.8167
地之義民之行天地之經而民是則之	-10.8216
夫孝天之經地之義民之行	-10.8313
后稷配	-10.8313
治其家	-10.8314
等謹案	-10.8401
充滿而不	-10.8419
當盡	-10.8458
敬而已矣	-10.8564
食粥	-10.8639
於山川	-10.8666
致其哀祭則致其嚴五者備矣然後能事	-10.8777
天之經地之義	-10.8812
三者備矣然後能守其宗廟葢卿大夫之	-10.9099
吾志在春秋行在孝經	-10.9164
可考	-10.9201
豈弟君子	-10.9207
孝無終始	-10.9234
者此依鄭注	-10.9236
汝知之乎	-10.9393
先王見教之可以化民	-10.9459
行下孟反傳	-10.9463
喪親章	-10.9603
廣揚名章	-10.9677
敬親者不敢慢於人	-10.9681
立身揚名	-10.9711
以事其先王	-10.9716
乾隆四十六年	-10.975
上下尊卑	-10.9755
何為其	-10.9762
德教加於百姓	-10.9922
敬親者不敢慢於人愛敬盡於事親而	-10.9928
恩義之厚	-10.994
老老	-10.9966
孝子之喪親也	-10.9969
觸地	-10.9989
天下大治	-10.999
之宗廟以鬼享之	-10.9992
潛	-10.9992
悲哀在心	-10.9992
鈇鉞	-10.9997
必有酒肉	-10.9998
抗議	-11
者其刑	-11.0003
庻	-11.0004
以孝事君則忠	-11.0009
泚	-11.0017
以此之故	-11.0018
項	-11.0019
九月以	-11.0021
迷	-11.0021
衍	-11.0021
㓙徳	-11.0023
答拜之	-11.0023
輟	-11.0025
郤	-11.0027
南蒯	-11.0029
不愛其親而愛他人者	-11.0029
夭折	-11.003
緦	-11.003
享嘗乃止	-11.0032
上取象於天下取法於地	-11.0032
歲	-11.0032
刪削	-11.0034
柩車	-11.0034
頖宫	-11.0034
饔餼	-11.0034
大亂之道也	-11.0034
恪	-11.0036
得之者皆煨燼之末	-11.0036
孝經注疏卷五	-11.0036
式禮莫愆	-11.0036
牢飱	-11.0036
芻	-11.0036
係	-11.0037
章第十五	-11.0038
御纂孝經集註	-11.0038
褒貶諸侯	-11.0038
噫	-11.0038
諸侯五廟	-11.0038
仲尼居曾子侍	-11.0038
重合厚一尺	-11.0038
附庸	-11.0039
肇	-11.0039
㡬諫	-11.004
順帝之則	-11.004
易進難退	-11.004
治國在齊其家	-11.004
煢然	-11.004
鍾	-11.004
鄒	-11.004
惇	-11.0041
娶	-11.0042
濟濟	-11.0042
涉	-11.0042
詩曹風鳲鳩	-11.0042
臆	-11.0042
宜其家人	-11.0042
肄	-11.0042
顙	-11.0043
雖得之君子不貴也	-11.0044
毁瘠過度	-11.0044
煨	-11.0044
禮無不答	-11.0044
鬯	-11.0044
佞	-11.0044
界	-11.0045
饌	-11.0046
天之生物	-11.0046
隙	-11.0046
金革之事無辟也	-11.0046
等謹按孝經	-11.0047
威儀不差	-11.0047
富貴不離其身	-11.0047
稟命	-11.0047
濫觴於漢	-11.0048
晏平仲	-11.0048
!」	-11.0048
於祖禰	-11.0048
孝者百行之本	-11.0048
牀	-11.0048
受贄	-11.0048
孝子不為也	-11.0048
舜禹文王周公	-11.0048
如何曰	-11.0048
忒他得反	-11.005
盡矣養生送死	-11.005
勝音升	-11.005
司農	-11.005
信乎朋友	-11.005
可以語孝	-11.005
居堊室	-11.005
御定孝經注	-11.005
祼	-11.005
畢乃引大	-11.005
陸費墀	-11.005
之所致也	-11.0051
而别𤼵一義	-11.0051
服縗麻	-11.0051
焉得為孝乎	-11.0051
親之遺體	-11.0051
壤	-11.0052
井	-11.0052
導之以禮樂	-11.0052
翰林	-11.0052
示不敢専	-11.0052
鳩	-11.0052
梓	-11.0052
狎	-11.0052
絶於秦	-11.0052
宋均	-11.0052
諾	-11.0052
副	-11.0052
减	-11.0052
參聞命矣敢問從父之令可謂孝乎	-11.0052
大雅云無念爾祖聿脩厥	-11.0053
性未達何足知	-11.0053
緝	-11.0053
蕃	-11.0053
抗	-11.0053
偯於豈反	-11.0054
門人所記	-11.0054
再拜	-11.0054
又曰父母之喪既	-11.0054
夾	-11.0054
昏定晨省	-11.0054
纓	-11.0054
鎮	-11.0054
傳之十二章	-11.0054
大夫立三廟	-11.0055
欽	-11.0055
参	-11.0055
之以徳義而民興行	-11.0055
髦	-11.0055
昵	-11.0055
輪	-11.0055
無所遺失	-11.0056
之所法則也	-11.0056
吉凶	-11.0056
吟	-11.0056
焉徐而察之始悟胡公之言為信而孝經	-11.0056
疑孝經引詩非經本文	-11.0056
諸侯卿大夫士	-11.0056
謂先代	-11.0056
講信修睦	-11.0056
駭	-11.0056
乾坤	-11.0056
以是三者	-11.0056
廵守之禮	-11.0056
穀梁傳十	-11.0056
寕	-11.0056
哭泣之	-11.0056
瘡	-11.0056
因嚴以教敬因親以教愛	-11.0056
牆	-11.0056
古先聖王	-11.0056
哀痛之極	-11.0056
此哀之發於	-11.0057
詬劉炫	-11.0057
鄕	-11.0057
肩	-11.0057
雖曰不要	-11.0057
嬰兒	-11.0057
强有力者	-11.0057
賓	-11.0057
㫁	-11.0057
唾	-11.0057
局	-11.0057
惮	-11.0057
犧牲	-11.0057
者君子弗與也	-11.0057
行酬而後獻	-11.0057
額	-11.0057
長上聲	-11.0058
䝉	-11.0058
吴	-11.0058
而推其愛敬於一家	-11.0058
五刑謂墨劓剕宫大辟也	-11.0058
釐	-11.0058
返	-11.0058
孝旣畢	-11.0058
偕	-11.0058
程答書曰頃見	-11.0058
虚耗	-11.0058
不越禮法則可度	-11.0059
屏	-11.0059
不能外之以爲	-11.0059
戮	-11.0059
不能自己	-11.0059
汲汲	-11.0059
排	-11.0059
始于家	-11.0059
弗及也	-11.0059
憲乞	-11.0059
鹿	-11.0059
人則雖無道亦可以不失其	-11.0059
因論武王周公之事而	-11.0059
墳	-11.0059
必有諍臣	-11.0059
攀	-11.0059
爪	-11.0059
者引詩大意如此	-11.0059
袵	-11.0059
贖	-11.0059
閭	-11.0059
章第十一	-11.006
沐浴	-11.006
悖補對反	-11.006
兮	-11.006
子不可以不争於父	-11.006
微者君尚不敢輕侮	-11.006
王能以孝道	-11.006
儆	-11.006
嚚	-11.0061
因上章三可移而言	-11.0061
民人盖諸侯之孝	-11.0061
牒	-11.0061
可以不争於君	-11.0061
桓	-11.0061
行擇行行滿	-11.0061
身慎行恐辱先也宗廟致敬鬼神著矣	-11.0061
道音導	-11.0061
穿鑿	-11.0061
翔	-11.0061
孔氏壁中古文	-11.0061
揚觶	-11.0061
銘	-11.0061
也頌曰	-11.0061
亟	-11.0061
傳之八章	-11.0061
凱	-11.0061
卽我之所以敬天下之爲人	-11.0061
天下之為人兄者	-11.0061
所生謂父母	-11.0061
曽参	-11.0061
泂酌	-11.0061
百年者	-11.0061
自天子以至於庶人	-11.0061
鄒氏	-11.0061
養庻老於	-11.0061
惕	-11.0061
可移於官	-11.0062
單	-11.0062
歆享	-11.0062
長㓜順故上下治天地明察神明彰矣	-11.0062
詆毁	-11.0062
身行愛敬也	-11.0062
蘇	-11.0062
脅	-11.0062
藹	-11.0062
取事父之道以	-11.0062
推吐雷	-11.0062
誕	-11.0062
食㫖不甘	-11.0062
飢	-11.0062
▁好呼報反	-11.0063
行思可樂	-11.0063
戚之擗踊哭泣	-11.0063
鰥	-11.0063
顛	-11.0063
一卷宋	-11.0063
耆艾	-11.0063
身體髮膚	-11.0063
東房	-11.0063
熈	-11.0063
行於世	-11.0063
▁弟大計反傳同	-11.0063
人化而不爭	-11.0063
俯從夫孝子有終身之憂聖人以三	-11.0063
君子之所謂孝者	-11.0063
席而坐	-11.0063
彞	-11.0063
旒衣㑹	-11.0063
旗	-11.0063
是故行成於内而名立於後世矣	-11.0063
曰將君我而與我齒讓何也曰	-11.0063
未能也所求乎	-11.0063
無數後世聖人	-11.0063
父有争子則身不䧟於不義	-11.0063
癘	-11.0063
示之以好惡	-11.0063
筋	-11.0063
膚髪	-11.0063
蹈	-11.0063
輝	-11.0063
争於父臣不可以不争於君故當不義則	-11.0063
以强教之	-11.0063
故當不義則子不可以不	-11.0063
暫	-11.0063
得人之懽心以事其	-11.0063
扶問反	-11.0063
雖亡道不失	-11.0064
復扶又	-11.0064
蟄	-11.0064
毓	-11.0064
與天地參	-11.0064
君子則不然言斯可道行斯可樂	-11.0064
在身即有	-11.0064
曽子避席曰參不敏何足以知之	-11.0064
無生親可事	-11.0064
無過之地	-11.0064
礙	-11.0064
鈍	-11.0064
繇音由	-11.0064
故治可移於官	-11.0064
事天母事地	-11.0064
池	-11.0064
上自天子下至	-11.0064
理國謂諸侯也鰥寡國之	-11.0064
篇引此以	-11.0064
不敢毀傷	-11.0064
以説安之	-11.0064
删去	-11.0064
宇	-11.0064
後能保其社稷而和其民人葢諸侯之孝	-11.0064
母取其愛	-11.0064
言行皆遵法	-11.0064
民用和睦	-11.0064
性人為貴人之行莫大於孝	-11.0064
其效如此	-11.0064
曰夫禮天之經地之義民之行也	-11.0064
治家者不敢失於臣妾	-11.0065
凡十一字古文同在	-11.0065
而守其祭祀葢士之孝也	-11.0065
詩云戰戰兢兢如臨深淵如履薄氷	-11.0065
煇	-11.0065
大功之喪	-11.0065
演	-11.0065
郊特牲	-11.0065
其君主而祭之	-11.0065
沫	-11.0065
治國之道	-11.0065
側室	-11.0065
婚	-11.0065
或云宜	-11.0065
是則庶乎	-11.0065
禮以檢其跡樂以	-11.0065
肌	-11.0065
莫貴於	-11.0065
長孫氏江翁翼奉后蒼	-11.0065
閒暇	-11.0065
保傅之	-11.0065
制作事業動得物宜故可法也	-11.0065
父有争子則身不陷於不義	-11.0065
皆格言	-11.0065
長幼順故上下治天地明察神明彰矣	-11.0065
鷩冕	-11.0065
丙	-11.0065
謹身節用	-11.0065
家之賤者妻子家之貴者	-11.0066
然後能保其祿位	-11.0066
然後能推之	-11.0066
萬國之衆而皆得其懽	-11.0066
憎	-11.0066
親謂父母也	-11.0066
遐不謂矣	-11.0066
捷	-11.0066
能盡忠順以事君長則	-11.0066
妣	-11.0066
人心天理	-11.0066
先意承志	-11.0066
諸侯能行孝理得所統之懽	-11.0066
則不祥也	-11.0066
夫子陳說	-11.0066
平居必盡其敬	-11.0066
敬其君則臣悅	-11.0066
況於士民乎	-11.0066
董仲舒	-11.0066
袍	-11.0066
長上聲行去聲	-11.0066
於善而皆在於凶徳	-11.0066
偷	-11.0066
圭	-11.0066
詩云豈弟君子民之父母	-11.0067
奔	-11.0067
能全其性	-11.0067
油	-11.0067
魯共王壞孔子宅	-11.0067
壙	-11.0067
宅墓穴也兆塋域也	-11.0067
孟子孟子曰	-11.0067
舉其多也	-11.0067
男子割勢	-11.0067
五孝之用	-11.0067
仲山甫補之	-11.0067
剪	-11.0067
率下下順	-11.0067
綸	-11.0067
脫	-11.0067
儼恪	-11.0067
孝爲百行之本	-11.0067
季文子	-11.0067
小宛	-11.0067
嶽鎮河	-11.0067
庶有補於將來	-11.0067
撤膳	-11.0067
紊	-11.0067
而和其民人	-11.0067
言社稷卿大夫言宗廟	-11.0067
畆	-11.0067
不待戒肅而自成	-11.0068
有大於此者	-11.0068
與父同	-11.0068
衷	-11.0068
自天子至於	-11.0068
長守富貴	-11.0068
宗廟致敬不忘親也修身慎行恐辱先也	-11.0068
依鄭注也	-11.0068
梅	-11.0068
示民有終也	-11.0068
下及於臣妾	-11.0068
不在於善而皆在於凶德	-11.0068
侔	-11.0068
此聖人之政也	-11.0068
不敢奢侈	-11.0068
瘝	-11.0068
祖禹所説	-11.0068
章裳繡	-11.0068
節南山	-11.0068
食旨不甘	-11.0068
曽子辟席曰參不敏何足以知之	-11.0068
故能成其德	-11.0069
捐	-11.0069
曾子曰敢問聖人之	-11.0069
此之謂要道也	-11.0069
士有爭友	-11.0069
榮華	-11.0069
羣儒	-11.0069
栗	-11.0069
炙	-11.0069
風雷山澤	-11.0069
之義通之則	-11.0069
劇	-11.0069
曽子曰甚哉孝之大也子曰夫孝天之經	-11.0069
有未盡也	-11.0069
枲	-11.0069
柱	-11.0069
樸	-11.0069
無父無君	-11.0069
王者父事天母事地言能敬	-11.0069
酉	-11.0069
鎬	-11.0069
不相屬故	-11.0069
函	-11.0069
后稷周之始祖也郊謂圜丘祀天也周	-11.0069
大毛公	-11.0069
拱	-11.0069
敎誨	-11.0069
敬其所尊愛其所親	-11.0069
淑慎	-11.0069
準	-11.0069
菜	-11.0069
赫赫明盛貌	-11.0069
銜	-11.0069
非法不言	-11.0069
之所繇生	-11.0069
夫聖人之德又何以加於孝乎	-11.0069
曉	-11.0069
度周旋可則容止可觀作	-11.007
泥	-11.007
之是無親也	-11.007
渉	-11.007
以始祖后稷配	-11.007
臨深履薄	-11.007
愛敬盡於事親而德敎加於百姓	-11.007
曰夫孝徳之本	-11.007
不敬其親而敬他人	-11.007
亦是就	-11.007
僣	-11.007
先王見敎之可以化民也	-11.007
咷	-11.007
敬其兄則弟悅	-11.007
時文王居穆之第	-11.007
約文敷暢義則昭然	-11.007
記云仲尼燕居子張子	-11.007
制節謹度滿而不溢髙而不危所以	-11.007
養生送死	-11.007
身愼行恐辱先也	-11.007
博愛亦非立愛惟親之	-11.007
序若之何而能使民不遺	-11.007
於理又已悖矣况先之以	-11.007
佳	-11.0071
緣	-11.0071
哭踊	-11.0071
無思不服	-11.0071
以事母其愛	-11.0071
其儀不忒	-11.0071
冊	-11.0071
千里	-11.0071
翻	-11.0071
荒	-11.0071
?」	-11.0071
事未見故	-11.0071
八牖	-11.0071
十月而	-11.0071
司冦	-11.0071
夫人副褘	-11.0071
子不可以弗爭於父臣不可以弗爭於君	-11.0071
孳	-11.0071
摘	-11.0071
有不安節	-11.0071
殿	-11.0071
發乎情	-11.0071
者故資	-11.0071
生天地之間	-11.0071
敢放縱	-11.0071
侃云	-11.0072
長幼之節	-11.0072
桓譚新論	-11.0072
非家至而日見之也	-11.0072
弱	-11.0072
得志於人上	-11.0072
邰	-11.0072
乃孝經之傳也竊嘗考之傳文固	-11.0072
也劉巘	-11.0072
其本文止如此其下則或者雜引傳	-11.0072
於善而皆在於凶徳雖得之君子不貴也	-11.0072
於德禮	-11.0072
曰天地之性人為貴	-11.0072
服者身之表也先王	-11.0072
治家者不敢失於臣妾而況於妻子乎	-11.0072
莫覺其非至或以為孔子之	-11.0072
記以釋經文	-11.0072
赦	-11.0072
一錢之錐	-11.0072
人之行莫	-11.0072
忠愛之心	-11.0072
盛黍稷	-11.0072
父天母地	-11.0073
位以材進	-11.0073
敖	-11.0073
河間王所	-11.0073
而後求諸人	-11.0073
員	-11.0073
不危不溢	-11.0073
彊	-11.0073
藩	-11.0073
訊	-11.0073
事宗廟則事天地能明察也	-11.0073
宜稻麥	-11.0073
棗	-11.0073
毀	-11.0073
盗賊	-11.0073
不可不慎也	-11.0073
以順移忠之道昭矣立身揚名之義彰矣	-11.0073
四坎壇	-11.0073
悼	-11.0073
拜送	-11.0073
更有大於孝否	-11.0073
模	-11.0073
逾	-11.0073
鉅	-11.0073
勾	-11.0073
吏之賤者也	-11.0073
媮	-11.0073
髙而不危所以長守貴	-11.0073
弟故順可移於長居家理故治可移於官	-11.0073
嚳	-11.0073
起䖍反	-11.0073
赫	-11.0074
父有爭子	-11.0074
幼之道順君人之化理	-11.0074
五等國君	-11.0074
先之以敬讓	-11.0074
爼	-11.0074
字子輿	-11.0074
終身之憂	-11.0074
進退周旋	-11.0074
子者皆知盡事父	-11.0074
十九字	-11.0074
何承天	-11.0075
往往	-11.0075
醢	-11.0075
長孫氏博士江翁少府后	-11.0075
養老養幼	-11.0075
慈以㫖甘	-11.0075
日月東西	-11.0075
泮	-11.0075
者無不敬其君也	-11.0075
梁武帝	-11.0075
能相親也	-11.0075
令善也	-11.0075
公羊傳	-11.0075
君薨	-11.0075
尚齒夏后氏貴爵而尚齒殷人貴富而尚	-11.0075
年者年之貴乎天下久矣次乎事親	-11.0075
戶	-11.0075
民無則焉	-11.0075
目錄	-11.0075
禮主於敬	-11.0075
而尚齒虞夏殷周天下之盛王也未有遺	-11.0075
農工商	-11.0075
鄙詐	-11.0075
閣	-11.0075
韶	-11.0075
三者服言行也	-11.0075
二十二章孔安國作傳	-11.0075
傳文而	-11.0075
千乘之國	-11.0075
焉知其能	-11.0075
異端起而大義乖	-11.0075
皮弁	-11.0075
蒼帝	-11.0075
親之枝	-11.0075
鄉里	-11.0075
顓	-11.0075
謨	-11.0075
凡六十九	-11.0075
瞍	-11.0075
絃	-11.0075
三年喪畢遷	-11.0076
琬	-11.0076
僉	-11.0076
言能立身行此孝道	-11.0076
五者闕一	-11.0076
得天下之懽心	-11.0076
故曰彰也	-11.0076
自周公故曰其人也	-11.0076
謹守法度	-11.0076
近觀孝經舊	-11.0076
化而行之故致如此福應	-11.0076
諷諫	-11.0076
二十四字	-11.0076
寓	-11.0076
俸	-11.0076
祭則致其嚴	-11.0076
容止威儀	-11.0076
尙	-11.0077
介僎	-11.0077
沙	-11.0077
盡事親之道	-11.0077
三諫而不聽則	-11.0077
人弟者皆知盡事兄之	-11.0077
教之以悌使凡	-11.0077
朴	-11.0077
河間人顔芝	-11.0077
臣者皆知盡事君之道	-11.0077
途	-11.0077
參曾子名也禮師有問避席起	-11.0077
啓蟄	-11.0077
國子祭酒	-11.0077
盡其哀情	-11.0077
者不敢言人	-11.0077
言必守法行必遵	-11.0077
刈	-11.0077
音洛	-11.0077
美有所不安	-11.0077
動靜	-11.0077
有禮而順	-11.0077
進見於君	-11.0077
中于事君	-11.0078
於士民乎故得百姓之懽心以事其先君	-11.0078
城郭	-11.0078
嶽瀆	-11.0078
族人與父兄齒也	-11.0078
三諫不	-11.0078
上正身以	-11.0078
呂刑	-11.0078
睿	-11.0078
説文所引	-11.0078
饑寒	-11.0078
暫忘	-11.0078
子曰君子之事上也	-11.0078
忝爾所生	-11.0078
天之經也	-11.0078
筆	-11.0078
棺椁	-11.0078
如水之	-11.0078
謹身節用以養父母	-11.0078
兒	-11.0078
麤	-11.0079
尉	-11.0079
天下蒼生之父母也	-11.0079
迄	-11.0079
周公之志也	-11.0079
百乗	-11.0079
禮法之言焉有口過道	-11.0079
裏	-11.0079
風雷	-11.0079
䖏	-11.0079
侵	-11.0079
則亂升	-11.0079
可謂髙矣	-11.0079
垂訓	-11.0079
孝經注疏卷七	-11.0079
宮	-11.0079
寇	-11.0079
無聲之樂氣志既	-11.0079
犯顔	-11.0079
胞	-11.0079
衣裳	-11.0079
襁	-11.0079
言明王以孝為理則諸侯以下	-11.0079
踳	-11.0079
韻	-11.0079
生民之本	-11.0079
兵刄	-11.0079
弧	-11.0079
照臨	-11.0079
嚴肅而成理也	-11.008
〇	-11.008
以事母則愛	-11.008
愷悌君子	-11.008
注約彼文	-11.008
卧	-11.008
因地之義	-11.008
之所從出也	-11.008
全而歸之	-11.0081
㤀	-11.0081
輙	-11.0081
駕	-11.0081
蠶室	-11.0081
同則相親異則相敬樂勝則流	-11.0081
因嚴以敎敬因親以敎愛	-11.0081
大臣助	-11.0081
峻	-11.0081
曽子曰敢問聖人之徳其無以加於孝乎	-11.0081
雖日用三牲之養	-11.0081
魯共王	-11.0081
不受必忠曰	-11.0081
之讎不與聚	-11.0081
以是待其	-11.0081
凥	-11.0081
利莫大於	-11.0081
嶽如	-11.0081
希	-11.0081
忌日不用	-11.0081
疑丞輔弼	-11.0081
瞽瞍	-11.0081
纎	-11.0081
踳駮尤甚	-11.0081
紫	-11.0081
富貴不離其身然	-11.0081
以化民而	-11.0081
莫善於禮	-11.0081
父母全而生之	-11.0082
經一章傳十四章	-11.0082
不肖者	-11.0082
可以為孝矣	-11.0082
以敬為主	-11.0082
儆戒	-11.0082
誘	-11.0082
當不義則爭之從父之令又焉得為孝乎	-11.0082
暇	-11.0082
少牢	-11.0082
于偽反	-11.0082
門之内	-11.0082
來格	-11.0082
士相見	-11.0082
菽	-11.0082
披	-11.0082
百穀	-11.0082
釋奠於先老	-11.0082
不相襲	-11.0082
百工	-11.0083
韋昭王肅先儒之領	-11.0083
噐	-11.0083
大夫以上皆	-11.0083
恬	-11.0083
甞	-11.0083
祈榖	-11.0083
蹻	-11.0083
也教以悌所以敬天下之為人兄者也	-11.0083
天以形體言	-11.0083
孺慕	-11.0083
為繼髙祖	-11.0083
羊尙反	-11.0083
有過則諫	-11.0083
齊側	-11.0083
莫大於不孝	-11.0083
始於事親及不敢毁傷	-11.0083
掦	-11.0083
不近兵刑	-11.0083
服衰麻	-11.0083
兹一人應侯順徳	-11.0083
各順其	-11.0083
唯此而已	-11.0083
以主宰言	-11.0083
則能保其	-11.0084
閨	-11.0084
縟	-11.0084
移風易俗	-11.0084
貴賤之等	-11.0084
不敢侮於鰥寡	-11.0084
以其祖配	-11.0084
孝道始終之義	-11.0084
時祭祀展其孝思也	-11.0084
泗	-11.0084
男踊女擗祖載送之	-11.0084
而患不能及者未之有也	-11.0084
聞命矣敢問	-11.0084
苗	-11.0084
行冲	-11.0084
贊美	-11.0084
諫諫若不入起敬起	-11.0085
履薄	-11.0085
君臣之誼	-11.0085
恩義之	-11.0085
簠簋祭器也陳奠素器而	-11.0085
戒懼	-11.0085
居上而驕則亡	-11.0085
太牢也	-11.0086
御製	-11.0086
豕	-11.0086
嘗烝	-11.0086
羔豚	-11.0086
升降	-11.0086
愛與敬也	-11.0086
朱熹	-11.0086
經曰昔者明王之以孝	-11.0086
三牲太牢也	-11.0086
也民無不為	-11.0086
太宰純	-11.0086
孝經注疏卷三	-11.0086
憲副	-11.0086
故見為	-11.0086
歴世	-11.0086
氣之易感也	-11.0086
燔柴	-11.0086
索	-11.0086
而道不著	-11.0086
舛	-11.0086
仲尼閒居曽子侍坐	-11.0086
具禮矣	-11.0086
又示之以	-11.0087
名章次	-11.0087
主而人自和平也	-11.0087
唐明皇御注陸德明音義宋邢昺疏	-11.0087
溝	-11.0087
義從化也	-11.0087
不敢失於臣妾	-11.0087
覺大也	-11.0087
謟	-11.0087
躬耕	-11.0087
四支	-11.0087
循率	-11.0087
曰吾聞之	-11.0088
稽顙	-11.0088
製序	-11.0088
盎	-11.0088
一人有慶兆民賴之	-11.0088
條貫	-11.0088
之所以治天下	-11.0088
壟	-11.0089
事親者居上不驕為下不亂在醜不	-11.0089
福應	-11.0089
救其惡	-11.0089
不敢慢於人	-11.0089
五廟之孫祖廟未毁雖	-11.0089
原隰	-11.0089
相尋	-11.0089
無疑也	-11.009
裘葛	-11.009
翦	-11.009
亞	-11.009
傷膚	-11.009
愷樂悌易	-11.009
下謂孩幼之時也	-11.009
單居離問	-11.009
無二尊	-11.009
祖襧	-11.009
禮與其	-11.009
僖公	-11.009
刪數也字增子曰字	-11.009
有道乎曾子曰有	-11.009
由是觀之	-11.0091
事父母之孝	-11.0091
强飾	-11.0091
各有等差	-11.0092
開元	-11.0092
端緒	-11.0092
而能不驕則免危也	-11.0092
劉劭	-11.0092
悱	-11.0092
經籍志	-11.0092
詎	-11.0092
請業	-11.0092
於無形	-11.0093
羹	-11.0093
和順以從衆也	-11.0093
孝以不毁為先	-11.0093
敎之所由生也	-11.0093
歎美	-11.0093
天子雖無上於天下	-11.0094
粗	-11.0094
制禮作樂	-11.0094
啜	-11.0094
斧	-11.0094
比干	-11.0094
犢	-11.0094
絃誦	-11.0094
三牲牛羊豕	-11.0094
上帝以配祖考	-11.0094
后土	-11.0094
告於廟	-11.0094
猶為不孝也	-11.0094
畔亂	-11.0094
霦	-11.0094
大雅文王	-11.0094
德要道以順天下民用和睦上下無怨	-11.0095
棣	-11.0095
徳義敬讓禮樂好惡	-11.0095
醜類	-11.0095
居上位	-11.0096
栁	-11.0096
下以忠事上上以義接	-11.0096
及其長	-11.0096
神祇	-11.0096
王草堂	-11.0096
迫	-11.0096
月而畢	-11.0096
施政教	-11.0096
爭居上而驕則亡	-11.0097
于心而	-11.0097
和悅	-11.0097
次首章	-11.0097
位可畏施舍可愛進退可	-11.0098
又何待	-11.0098
禍敗	-11.0098
講堂	-11.0098
分析	-11.0098
則一也然則	-11.0098
則亦謂此也	-11.0098
海而凖推而放諸	-11.0098
歡心以事其親	-11.01
欽定四庫全書孝經	-11.01
醫	-11.01
而敢要	-11.01
受命於禰	-11.01
四鄰	-11.01
孝經之傳	-11.01
白虎通	-11.0101
江西	-11.0101
精深	-11.0101
要君非聖	-11.0102
贈	-11.0102
大昕	-11.0102
天子至尊	-11.0102
魂魄	-11.0102
散騎常侍	-11.0102
孝弟忠順	-11.0102
長㓜順	-11.0102
太宰	-11.0102
孝經注疏卷一	-11.0103
詐	-11.0103
旌	-11.0104
不得行其	-11.0104
齊牛	-11.0104
彦	-11.0104
手足	-11.0104
竟内	-11.0104
父母之恩	-11.0105
聘問	-11.0106
校定	-11.0107
隅	-11.0108
嬰孩	-11.0108
班固	-11.0108
昏亂	-11.0108
辟踊	-11.0108
膝下之時	-11.0109
養去聲	-11.0109
冬夏	-11.0109
禀命	-11.011
以身先之	-11.011
之歸功於	-11.011
登歌	-11.011
者矣見若	-11.011
進飲食	-11.011
於未然	-11.011
甘㫖	-11.011
合愛敬而	-11.0111
就養無方	-11.0112
卿士大夫	-11.0112
明皇御注	-11.0113
出於口	-11.0113
古文二十二章	-11.0113
葢當時	-11.0113
宗堯	-11.0113
經二十	-11.0114
則衆不	-11.0115
死刑也	-11.0115
君子弗行也	-11.0115
予一人	-11.0115
居廬	-11.0115
叚序	-11.0115
爲之注	-11.0115
地之利	-11.0117
䘮畢	-11.0117
聲容	-11.0118
心故不樂也	-11.0118
少傅	-11.0119
郊禘	-11.0119
異者四百餘	-11.012
貴徳而	-11.0121
也雖然	-11.0121
太卜	-11.0121
愈多而	-11.0121
近儒	-11.0123
先聖先	-11.0123
十五字	-11.0124
思慕	-11.0125
十一字	-11.0126
是孝行之	-11.0127
為賢人	-11.0127
秩然	-11.0128
章後古	-11.0129
以天下養	-11.013
孔光	-11.0131
免於父母之懐	-11.0131
大夫能早夜不惰敬事其	-11.0132
既封而弔	-11.0135
兼用之	-11.0137
朝而殯	-11.0137
遺忘	-11.0137
之也敬以	-11.0138
不時則	-11.014
慶賞	-11.0144
先王有至徳要	-11.0145
八月	-11.0146
四輔	-11.0146
教誨	-11.0148
也注聖人至	-11.015
出之故	-11.0154
自反也	-11.0166
也父母既	-11.0179
王有聲	-11.0181
之厚莫重於斯	-11.0188
國者不	-11.019
不亂也	-11.0206
所以敬天下之為人君者	-11.0207
十飬於	-11.0208
以使下	-11.0215
禁令	-11.0233
父以配天	-11.0239
之㫖者	-11.0239
豉反	-11.0243
不敢忽	-11.0243
而忘其	-11.0315
敢問子從父	-11.0324
浪反	-11.0331
云蓋者	-11.0333
有事則	-11.0338
也不然則	-11.0344
民法之	-11.0359
子孔子也	-11.0364
父配天之禮	-11.0377
尊卑之分	-11.0424
以事長也	-11.0438
所受於天	-11.0466
章第十八	-11.0482
之禮廢則	-11.0506
親以及	-11.0532
至順而	-11.0534
忝祖	-11.0541
忠者孝	-11.0587
章第二十	-11.0603
是其義也	-11.0649
臣之事君	-11.0655
祀其先	-11.0668
將順其美匡救其惡故上下能相親詩	-11.0745
皇考廟	-11.0797
曰考廟曰王考廟曰	-11.0799
上自敬	-11.0849
君子進則	-11.0992
案左傳	-11.1018
十五年	-11.1088
愛之則	-11.1257
同惡烏路反	-11.1382
擗踊哭泣哀以送之卜其宅兆而安厝之	-11.1431
總結之	-11.1445
禮之貴	-11.1511
第六章	-11.1616
其驗十	-11.1699
之所為也	-11.1752
攝政因行郊天之祭乃尊始祖以配之也	-11.1867
心則皆恭事助其祭享也	-11.2033
尼孔子字居謂閒居	-11.208
居謂閒居	-11.2437
思其憂	-11.2505
之屬千劓	-11.2553
孝經一書	-11.2914
此總結	-11.3176
荆	-11.3274
五刑墨劓剕宫	-11.3761
其近於親	-11.3791
曰考廟	-11.3894
曾子避席曰參不敏何足以知之	-11.3933
始知孝之爲大也	-11.406
言為臣子	-11.4061
將順其美匡救其惡故上下能相親	-11.4072
養羊尚	-11.4233
以加于孝乎	-11.4269
於西南	-11.4282
蓋卿大夫之孝也	-11.4336
之行若中道則	-11.4349
故上下能相親	-11.4476
孝德之本	-11.4532
三者不除雖日用三牲之養猶為不孝	-11.4568
過惡則正而止之	-11.4574
孝經注疏卷八	-11.4582
人倫資父為天	-11.4621
加於孝乎	-11.4675
揖讓而	-11.481
各以其職來助祭也	-11.4828
生民之本盡矣	-11.4832
教不肅	-11.4848
母同敬父與君同	-11.4857
欽定四庫全書	-11.487
赳	-11.4875
反説音	-11.4882
孝經注疏卷六	-11.4886
孝經注疏卷四	-11.4903
孝經注疏卷二	-11.4919
盖卿大夫之孝也	-11.4919
懈惰也	-11.4919
應感之	-11.4946
子生三年然後免於父母	-11.4963
天之明因地之義	-11.4965
陟	-11.4969
正則邪	-11.4969
以光祖考	-11.4969
諸侯列國之君貴在人	-11.4972
懐	-11.4974
卿大夫士皆	-11.4974
以觀風	-11.4978
弘	-11.4978
所因者本也	-11.4981
悠	-11.4981
宰予之言也	-11.4985
知所繇来者也	-11.4985
不害理	-11.4986
張燧	-11.4988
聞命矣	-11.4989
儒說經以	-11.4991
則福祿至	-11.4991
請所與問有	-11.4991
争臣七人雖無道不失其天下諸侯有	-11.4992
壽	-11.4994
詰	-11.4994
求見孟子	-11.4994
以臨其民	-11.4995
不宜刪	-11.4997
有差等	-11.4997
諮	-11.5
言入則望	-11.5
也故以名章	-11.5
教忠教順	-11.5003
敏何足以知	-11.5004
昕	-11.5005
以順天下民用和睦上下無怨汝知之乎	-11.5006
熊禾序	-11.5007
善降之百	-11.5007
孝子亦為之	-11.5007
葢言學也	-11.5007
足以動衆	-11.5007
仲尼閒居曽子侍坐子曰參先王有至	-11.5007
受大禄	-11.501
貺	-11.501
之志在春秋崇人倫之行在孝經	-11.501
約有百家	-11.501
謂之悖徳	-11.5011
天地明察神明彰	-11.5011
欣	-11.5013
故聖人之制	-11.5013
本立而後	-11.5013
竭力盡能以	-11.5013
不答拜	-11.5013
以戒富	-11.5013
取其語以	-11.5013
孔子乃假立曾子	-11.5013
洫	-11.5013
芟	-11.5013
董鼎撰	-11.5013
請益問答之	-11.5013
揚於後代	-11.5014
義曰此依王注也	-11.5015
而後升所以致尊	-11.5016
孝經注疏序考證	-11.5016
以戒貴	-11.5016
則先拜	-11.5016
執主器	-11.5016
甓	-11.5016
狥	-11.5017
不識不知	-11.5019
隴	-11.5019
咸丘䝉	-11.5019
苞	-11.5019
三揖而後至階三	-11.5019
中祕書	-11.5019
斬衰三年以	-11.5019
無差等	-11.5019
以樂享老幼	-11.5019
則移之以貞	-11.5019
則臣佩	-11.5019
惴	-11.5019
故曰行在孝經	-11.5019
燕私之樂	-11.5019
糟粕	-11.5019
經孔子裁定	-11.5019
四百餘字	-11.502
冢宰之	-11.5022
姬	-11.5022
芮	-11.5022
千五百	-11.5022
三十四年	-11.5022
人以是闋秋嘗之樂	-11.5022
今陛下	-11.5022
外又有梓棺厚	-11.5022
大夫相見以	-11.5022
本末差等	-11.5022
茨	-11.5022
叛	-11.5022
蹙	-11.5022
是而終矣	-11.5024
之親又為我之君而臨乎	-11.5024
孟子曰吾今	-11.5025
不敢以煩長者	-11.5025
不敢授綏	-11.5025
云𤣥又	-11.5025
兕牛皮	-11.5025
哭若徃而	-11.5025
敗君事者	-11.5025
朝服載鞭	-11.5025
松	-11.5025
樂具入奏	-11.5025
水牛皮	-11.5025
知其所由成	-11.5025
親又施德敎於人使人皆	-11.5025
賄	-11.5025
醆	-11.5025
阼階之南	-11.5025
食嘗無樂	-11.5025
食養隂氣也故	-11.5025
飲養陽氣	-11.5025
奔走	-11.5027
之者謂天子有	-11.5027
其義為大於此	-11.5028
王立七廟	-11.5029
之詩以賛美之	-11.5029
曰顯考廟曰祖考廟皆月祭之逺廟為祧	-11.5029
今有一箇道理	-11.5029
先辨忠	-11.5029
入天子之國曰	-11.5029
將繇夫	-11.5029
興道之士	-11.5029
謡	-11.5029
邇臣守和	-11.5029
孚	-11.5029
甚矣曽子之	-11.5029
胄	-11.5029
易曰家人有嚴君焉父母	-11.503
養口體	-11.503
則人化之	-11.5032
傳於後代	-11.5032
己著録	-11.5032
推以愛敬他人	-11.5032
祇劉炫一人	-11.5032
點	-11.5032
士見於大夫	-11.5032
始相見	-11.5032
磬	-11.5032
訂	-11.5032
不以道則耻之	-11.5032
不由其道	-11.5032
之子不敢自稱曰	-11.5032
仕如此其急	-11.5032
大也言君	-11.5032
康誥曰	-11.5032
所過山川亦	-11.5032
敬其為君父之道	-11.5032
生而願為之有	-11.5032
禘有樂而嘗無樂	-11.5032
粹	-11.5032
至矣大昏	-11.5032
豈貴其能	-11.5032
賜圭瓚	-11.5032
蹌	-11.5032
輟朝而顧	-11.5032
還拜也	-11.5032
重合厚二尺	-11.5032
鑽穴	-11.5032
顛倒	-11.5032
腆	-11.5032
俎豆	-11.5032
洵	-11.5033
既畢乃引	-11.5033
聲舉措進退之禮	-11.5034
著録是	-11.5035
詬朱呉	-11.5035
不愛敬其親而先	-11.5035
多鄙俚不經	-11.5035
子𤣥辨鄭	-11.5035
有十謬七惑司馬堅斥孔	-11.5035
為市朝	-11.5035
理允當	-11.5035
兄弟親戚稱其慈	-11.5035
八十者一子不從政九十者其家不從政	-11.5035
則不言言則必合	-11.5035
於臣臣不	-11.5035
上陳天子	-11.5035
僚友稱其	-11.5035
再拜稽首	-11.5035
列於學官	-11.5035
命國家五官	-11.5035
土惟三	-11.5035
外就前	-11.5035
夫禮必本於	-11.5035
孝子仁人之	-11.5035
庶民之愚	-11.5035
摧	-11.5035
曰君子不奪人之	-11.5035
有耻之士	-11.5035
筆則筆削則削	-11.5035
考廟享嘗乃止	-11.5035
而出視朝命祝史告於	-11.5035
胷	-11.5035
興道者與	-11.5035
諸侯相見	-11.5035
蹴	-11.5035
非君子之得已	-11.5035
子履之必有怵惕之心如將見之	-11.5035
帝羽自立爲西楚霸王更立沛公爲漢王	-11.5035
愴之心非其寒之謂也	-11.5035
雨露既濡君	-11.5035
霜露既降君子履之必有悽	-11.5035
行滿天下無怨惡	-11.5036
之故非法	-11.5036
法非道則不行行則必中	-11.5036
無可擇之言行於身者	-11.5036
徳主愛	-11.5036
天子至士皆	-11.5036
不為文餙服美不	-11.5036
大夫有大夫之	-11.5036
言行孝以事親爲始事君	-11.5036
事物當然之理	-11.5036
其儀不忒正是四國	-11.5036
於其所尊	-11.5038
曾氏之	-11.5038
駿奔	-11.5038
恐其下有伏石	-11.5038
而備矣孝子事	-11.5038
其所由來	-11.5038
愴	-11.5038
院	-11.5038
入廟門	-11.5038
初除挾書之律	-11.5038
三老所獻	-11.5038
三還贄	-11.5038
不令至於	-11.5038
友稱其仁	-11.5038
因祀五方上帝於明堂	-11.5038
懃	-11.5038
義取君子威儀不差為人法則	-11.5038
三曲而偯	-11.5038
上能聽	-11.5038
不反齊衰之	-11.5038
倉	-11.5038
刪存一千五百	-11.5038
則變置	-11.5038
宜兄宜弟	-11.5038
已重乎	-11.5038
所奪於臣下	-11.5038
扶而起	-11.5038
於西北	-11.5038
曰伯父叔父	-11.5038
杖而起	-11.5038
案家語	-11.5038
氣也此天地之	-11.5038
縗	-11.5038
耜	-11.5038
聞其聲	-11.5038
與尚書論語	-11.5038
蓁	-11.5038
辭不得命	-11.5038
諫見志	-11.5039
服法服道法言行徳行三者	-11.5039
儼	-11.5039
刑之屬三千	-11.504
淑常六	-11.504
眾	-11.504
者亦言引詩	-11.504
兄弟備言燕私	-11.504
詩曰諸父	-11.504
窮理之至	-11.504
二字又析此下至	-11.504
思可樂而後行	-11.504
廟以奉其先祖之祭	-11.504
長守其宗	-11.504
行仁之本也	-11.5041
其也義取恒念先祖述脩其德	-11.5041
因嚴教敬因	-11.5041
靖共爾位	-11.5041
文武周公	-11.5041
雲谷山中	-11.5041
先自天子至庶人	-11.5041
圭璧	-11.5041
壬	-11.5041
無忘也爾雅云勿念也	-11.5041
甫刑卽尚書	-11.5041
不足而禮有餘也不若禮不足而	-11.5041
之也親之也	-11.5041
之大端也所以	-11.5041
之孝可通	-11.5041
乾肝焦肺水漿不	-11.5041
刪之改之移易之	-11.5041
劉炫駮云	-11.5041
動尸舉柩哭踊無數	-11.5041
口不甘味	-11.5041
可以顯親雖	-11.5041
君之喪服除而	-11.5041
君執干戚就舞位	-11.5041
哀親之在	-11.5041
國人詩云	-11.5041
大學士蔣赫徳恭纂	-11.5041
屏人而	-11.5041
故哭泣	-11.5041
既能孝則于事	-11.5041
有不先命於	-11.5041
無免絰	-11.5041
總干率其羣臣以樂皇尸	-11.5041
至孝近乎王	-11.5041
至弟近乎霸	-11.5041
負薪之	-11.5041
子嬰二年春正月項羽尊楚	-11.5041
教以悌所以敬天下之為人兄者	-11.5042
喪不過三年	-11.5043
殊塗而	-11.5043
彪	-11.5043
祀矣此盖	-11.5043
熹舊見衡山胡侍郎論語説	-11.5043
祀者似	-11.5043
《	-11.5043
經地義	-11.5043
禮記閒傳	-11.5044
袁	-11.5044
翰	-11.5044
敬盡於事親	-11.5044
廣其傳	-11.5044
摭	-11.5044
乎何其言之	-11.5044
氏尊學	-11.5044
子門人記錄	-11.5044
忠孝道著乃能	-11.5044
膺	-11.5044
訪	-11.5044
詩大雅也無念念也聿述也厥	-11.5044
之禮也然而已進矣	-11.5044
恩掩義	-11.5044
方曰簠圓曰	-11.5044
濫觴於漢傳之者皆糟粕之餘	-11.5044
用左氏	-11.5044
甫刑尚書作吕刑	-11.5044
盆	-11.5044
隋開皇	-11.5044
不入公門	-11.5044
之治天下也士民	-11.5044
侮聖人之言	-11.5044
入口三日	-11.5044
千七百七十三	-11.5044
君舉旅	-11.5044
和故百物	-11.5044
孝者畜也	-11.5044
寢門之外	-11.5044
嵗三田	-11.5044
惻怛	-11.5044
故形變於外	-11.5044
斬衰三日不食	-11.5044
曰古之為政愛人為大	-11.5044
案祭義云	-11.5044
椘	-11.5044
注觸地無容	-11.5044
父母之喪既殯食	-11.5044
糜	-11.5044
羸	-11.5044
而不畏也狎	-11.5044
茅	-11.5044
辭其贄	-11.5044
鳴	-11.5044
㢲	-11.5044
不敢以貴富	-11.5044
以君之喪而除父	-11.5044
内和理	-11.5044
内豎曰	-11.5044
勇敢者	-11.5044
又弗見也	-11.5044
堊室之中	-11.5044
宜乎社造乎禰	-11.5044
強民者也	-11.5044
必告於	-11.5044
瑕	-11.5044
皓	-11.5044
羽自立	-11.5044
衣服不備不敢以祭	-11.5044
衰於妻子	-11.5044
西京雜記	-11.5044
距	-11.5044
身俱生故	-11.5044
達天道順人情	-11.5044
則以鬼禮享之	-11.5045
舉而委	-11.5046
洋洋如在	-11.5046
丙午八月十二日記	-11.5046
絜	-11.5046
寫之琬琰	-11.5046
牛羊豕也	-11.5047
恊	-11.5047
酳	-11.5047
章雖通貴賤	-11.5047
説敬其君則臣説	-11.5047
有河間人顔貞出其父芝所藏	-11.5047
能備能備然後能	-11.5047
儐	-11.5047
其道光明	-11.5047
喜怒哀	-11.5047
無口過行之多至於	-11.5047
陵上慢下	-11.5047
合二姓之好	-11.5047
成王既崩康王	-11.5047
閽	-11.5047
􁄀	-11.5047
不言注孝經	-11.5047
人不過乎物孝子不過乎物	-11.5047
人皆有之不待	-11.5047
公羊傳十一卷	-11.5047
噍	-11.5047
孝經者孔子爲曾參陳孝道	-11.5047
學生王逸於	-11.5047
帯	-11.5047
從八正	-11.5047
方始發	-11.5047
生愛敬愛	-11.5047
疏食水飲	-11.5047
職貢來助	-11.5047
虞卒哭疏食水飲不食菜果	-11.5047
譬	-11.5047
貴有徳貴貴貴老敬長	-11.5047
邪音耶	-11.5047
鐘送尸	-11.5047
陳人處	-11.5047
食夫稻衣夫錦於	-11.5047
馘	-11.5047
一人之書一時之言	-11.5047
凶謂悖其德禮也	-11.5047
勇敢强有力	-11.5047
去國三世爵祿	-11.5047
君之心即	-11.5047
嚌	-11.5047
憒	-11.5047
成婦禮	-11.5047
所授賢人	-11.5047
敢不敬乎	-11.5047
父子有親	-11.5047
用之於禮義	-11.5047
皆有此愛敬之心而	-11.5047
者接人以	-11.5047
蒼蒼然	-11.5047
因其固有而	-11.5048
稻粱器	-11.5048
言善人君子	-11.5049
子也慶善也十	-11.5049
億曰兆義取天子行孝兆人皆賴其善	-11.5049
不安美餙故	-11.5049
免於鑿空妄言之罪也因欲掇	-11.5049
其身不辱	-11.5049
故君子不出家而成	-11.5049
明王孝徳感通之神	-11.5049
自幸有所因述而	-11.5049
也親則父也尊則君也有父之親有君之	-11.5049
使之與成王居欲令成王之知父子君臣	-11.5049
善謂身行愛敬也	-11.5049
尊然後兼天下而有之	-11.5049
尊故標居其首	-11.505
行孝奉親之事而立教焉	-11.505
衹	-11.505
釋立身揚名及士之孝	-11.505
子曰孝子之䘮親也	-11.505
常念爾之先祖	-11.505
謂之五孝各	-11.505
謂錦繡	-11.505
琬圭	-11.5051
粕	-11.5051
鉤命決	-11.5051
石臺孝經	-11.5051
睨	-11.5051
冗	-11.5051
凡一十八章以相傳授	-11.5051
詣	-11.5051
之䘮二十五月而畢	-11.5051
乾水溢	-11.5051
人職云	-11.5051
各視其	-11.5051
喪多而服五	-11.5051
單襄公	-11.5051
坐奉席請何鄉	-11.5051
堯舜之道孝弟而已矣	-11.5051
多而刑五	-11.5051
投	-11.5051
立學官	-11.5051
賂	-11.5051
酢	-11.5051
鳯	-11.5051
取他書之言可𤼵此經之㫖者别為外	-11.5051
和協而親睦上下	-11.5051
哭而退不聽事焉	-11.5051
曰堯舜禹湯	-11.5051
武帝末	-11.5051
牷	-11.5051
肥	-11.5051
致敬於宗廟	-11.5051
陳説徳義之	-11.5051
不中律	-11.5051
不以其道得之不	-11.5051
不說其言	-11.5051
乃非之是無心	-11.5051
之君所朝夕否曰君	-11.5051
事交乎	-11.5051
于門外	-11.5051
以身近之也殆於以身近之殆於身之矣	-11.5051
保祿位守祭祀	-11.5051
列於朝出入	-11.5051
則去杖	-11.5051
反於君所	-11.5051
可也此哀之發於	-11.5051
可人也吾	-11.5051
可以言孝乎而見夫孝	-11.5051
可使為亂	-11.5051
哭若往而	-11.5051
土地人民政事	-11.5051
大夫士去國	-11.5051
大夫於君所則輯杖	-11.5051
女安則為之	-11.5051
如之何孔子曰遂既封	-11.5051
寓祭器於	-11.5051
少連大連	-11.5051
居之不能無	-11.5051
居喪之禮	-11.5051
廣大此畧言之	-11.5051
弁絰帶	-11.5051
患失其祿位	-11.5051
有君民之大	-11.5051
正也猶生長于	-11.5051
殯而臣有父母之喪則如之何孔子曰歸	-11.5051
殷事則歸	-11.5051
法事理	-11.5051
泰伯虞仲	-11.5051
無諸已而後非諸人所藏乎身不恕而	-11.5051
用之於戰勝	-11.5051
發越揮	-11.5051
而小祥	-11.5051
能喻諸人者未之有也故	-11.5051
言是席之	-11.5051
謌	-11.5051
身為王者不禰其父	-11.5051
采采芣苢薄言	-11.5051
雲雷雨	-11.5051
擊	-11.5051
當為傳之	-11.5051
下亦當自	-11.5051
也孝子喪親	-11.5051
以為甘故	-11.5051
佛	-11.5052
其哀情	-11.5052
骨肉	-11.5052
竄	-11.5052
不惡而嚴	-11.5052
五者先王之所以	-11.5052
善也言天子一	-11.5052
後也敢不敬與	-11.5052
狹	-11.5052
者親之主也敢不敬與子	-11.5052
冬温夏	-11.5052
堯舜帥天下以仁而民從之桀紂	-11.5052
故徳教成而政令行	-11.5052
禮師有問則	-11.5052
自天子至于庶人	-11.5052
音扶令去聲	-11.5052
按禮記文王世子稱	-11.5052
注不悖德禮也	-11.5052
福不善則宗	-11.5052
違此則於德禮為悖也	-11.5052
動止舉措	-11.5053
舉無所怨	-11.5053
辟之罰其屬二百五	-11.5053
檀	-11.5053
徳以親九族	-11.5053
祖奠於	-11.5053
謂身行愛敬	-11.5053
州閭鄉黨	-11.5054
始皇焚	-11.5054
於未形	-11.5054
杞	-11.5054
至此方言出一孝字	-11.5054
服非法	-11.5054
薪	-11.5054
覇	-11.5054
之秉彛	-11.5054
小孝用力	-11.5054
涕	-11.5054
兆庶皆倚賴之	-11.5054
善則愛敬是	-11.5054
昊天罔極	-11.5054
曰天下有道則	-11.5054
玩其所樂	-11.5054
罔以盡	-11.5054
者奉席請何趾少者執牀與坐御者舉几	-11.5054
覈	-11.5054
魯頌商頌	-11.5054
不可而况乎	-11.5054
不獲乎上	-11.5054
主人筵几於廟	-11.5054
乎孟子曰諸侯	-11.5054
也注謂父至	-11.5054
以僣侈費財而致	-11.5054
以成其信	-11.5054
六藝論	-11.5054
刑於四海海内諸侯各修其職來助祭也	-11.5054
剕罰之屬五百宫罰之屬三百大	-11.5054
又期而大祥	-11.5054
咳	-11.5054
多所弗與	-11.5054
妻子貴而親	-11.5054
孝之義理故	-11.5054
平章百姓	-11.5054
庶人無故不食珍	-11.5054
廪	-11.5054
愚夫愚婦	-11.5054
愛敬哀慼孝	-11.5054
扱	-11.5054
於此乎天下有道	-11.5054
日人實反	-11.5054
昭帝時	-11.5054
本顯明五	-11.5054
欣欣	-11.5054
此即左傳	-11.5054
此章開張一經之宗	-11.5054
武王數紂之罪曰	-11.5054
氣竭而息聲不委曲	-11.5054
漢書藝文志云	-11.5054
焉於䖍反	-11.5054
父母之喪居倚廬	-11.5054
社受其禍	-11.5054
移忠移	-11.5054
穰	-11.5054
網	-11.5054
而此獨舉	-11.5054
至古文孝經孔傳本出孔氏壁中	-11.5054
色容不	-11.5054
芐翦不納	-11.5054
覃	-11.5054
言盡愛敬之道然後施教於	-11.5054
諸章以次	-11.5054
赴	-11.5054
跛倚	-11.5054
道也誠者	-11.5054
閉於宫	-11.5054
闗雎	-11.5054
關係于	-11.5054
隨事表名	-11.5054
善而皆在于凶徳	-11.5054
右傳之十一章	-11.5054
俊	-11.5054
非至德其孰能	-11.5054
事天明事地察	-11.5055
刻其顙	-11.5055
貶	-11.5055
尊無二上	-11.5055
無一不順其序則人道盡	-11.5055
用力之不	-11.5055
無故字有子曰	-11.5055
處其所存	-11.5055
五土一曰山林二曰川澤三曰	-11.5055
其親而稱孝者	-11.5055
四曰墳衍五曰原隰	-11.5055
士無田則亦	-11.5055
家無二主尊無	-11.5055
廣至徳之義	-11.5055
彰矣二句	-11.5055
教以順人心今自逆之則下無所法則也	-11.5055
有先後非	-11.5055
案禮記祭義稱	-11.5055
正義曰此依韋注也	-11.5055
立德行義不違道正故可尊	-11.5055
築	-11.5055
言悖其徳禮雖得志於人上君子	-11.5055
詩大雅烝民	-11.5055
黔	-11.5055
不問可否而悉	-11.5056
第十二章	-11.5056
事父孝事母孝之義	-11.5056
天地人謂之三才	-11.5056
尊崇作	-11.5056
父坤地也故稱	-11.5056
蒞	-11.5056
選擇也	-11.5056
夫孝天之經也地之義也民之行也	-11.5057
粥以飲食之	-11.5057
章第一	-11.5057
璧	-11.5057
文之弊	-11.5057
於此廣之故以名章次	-11.5057
首章略言揚名之義而	-11.5057
彈	-11.5057
化民成俗	-11.5057
天寳二年	-11.5057
王於緝熈敬止	-11.5057
穆穆文	-11.5057
達於面目	-11.5057
居下位	-11.5057
為之訓傳	-11.5057
逺庖厨	-11.5057
宋郉昺疏	-11.5057
狀	-11.5057
偯聲餘從容也	-11.5057
太皥炎帝黄帝少皥顓頊	-11.5057
子孔子弟子侍謂侍坐	-11.5057
廣雅曰	-11.5057
徒協反	-11.5057
者守門	-11.5057
諫大夫翼奉安昌侯張禹傳之各自名家	-11.5057
三宫夫人世婦之吉者	-11.5057
也嚴植之曰	-11.5057
也者此依孔傳也劉炫	-11.5057
以辱其親	-11.5057
僨	-11.5057
凍	-11.5057
加於父兄	-11.5057
囚	-11.5057
大此略言之	-11.5057
家喻户曉	-11.5057
攜	-11.5057
旅酬下為上所以逮賤也	-11.5057
旦不幸而	-11.5057
曰吾觀於鄉而知王道之易易也	-11.5057
桃	-11.5057
此為大焉	-11.5057
父異姓天子謂之	-11.5057
略也孝道廣	-11.5057
簟而襡之	-11.5057
纔	-11.5057
靜而思道也	-11.5057
黒	-11.5057
一溢米	-11.5057
下有凍餒之民	-11.5057
不為之加	-11.5057
不獲乃	-11.5057
世而名不	-11.5057
之常也義者	-11.5057
也引詩之意葢言	-11.5057
也注蓋猶	-11.5057
事義相	-11.5057
以正致諫	-11.5057
以求役	-11.5057
位而守其祭祀盖士之孝也	-11.5057
倡㳺	-11.5057
其往送也	-11.5057
冠者不櫛	-11.5057
分注錯	-11.5057
功車服	-11.5057
匪猶不	-11.5057
卿大夫當早起夜寐以事天子	-11.5057
取精於	-11.5057
周公之始祖也	-11.5057
命齒於	-11.5057
哀毁過情滅性而	-11.5057
問一答	-11.5057
善思貽父母	-11.5057
四十五度之	-11.5057
四時為柄	-11.5057
垢	-11.5057
壻	-11.5057
夫婦有義	-11.5057
如慕其反也如疑	-11.5057
孫卿子	-11.5057
宜其妻父母	-11.5057
幽厲之	-11.5057
怒不至詈	-11.5057
恒常合宜之	-11.5057
惚	-11.5057
愉色有愉色	-11.5057
愛一人焉	-11.5057
慎始敬終	-11.5057
攘	-11.5057
文盡於此矣所以常乆而不廢也夫有生	-11.5057
於日三分	-11.5057
日星為紀	-11.5057
早起夜寐無辱其	-11.5057
曰柰何去	-11.5057
月以為量	-11.5057
月而禫禫	-11.5057
服其服而	-11.5057
此五刑之名	-11.5057
法則而象效之故	-11.5057
湛	-11.5057
無有惡慢及	-11.5057
燂湯請	-11.5057
燕族人	-11.5057
父在不杖	-11.5057
父母之所敬	-11.5057
父母雞初鳴咸盥潄櫛縰笄總	-11.5057
珠	-11.5057
瓚	-11.5057
疾止復	-11.5057
禋	-11.5057
者釋言文云	-11.5057
而待加之	-11.5057
而曠代亡逸不被流行	-11.5057
而猶未忘	-11.5057
與大學中庸	-11.5057
行不翔言不惰	-11.5057
言作注之體	-11.5057
詩曰薄汚我私薄澣我衣害澣害否	-11.5057
諫而不逆	-11.5057
趙文子	-11.5057
距二其行必	-11.5057
辜也非先	-11.5057
通患而出危色	-11.5057
逝	-11.5057
醯醬	-11.5057
雖父母殁	-11.5057
首火在宗彜之	-11.5057
高行子	-11.5057
齒於學	-11.5057
君弟以事長	-11.5057
右傳之十章	-11.5057
生則事之以愛敬死則事	-11.5057
自天子以下至	-11.5057
不致毁六十	-11.5058
俯仰	-11.5058
則沐身	-11.5058
有瘍則浴有疾則飲酒食肉	-11.5058
百姓昭明	-11.5058
遥	-11.5058
非先王之法服不敢服惟恐服之	-11.5058
駿奔走在廟	-11.5058
之詞非謂凡為孝者皆欲如此也又况	-11.5058
以為大者本自有親切處而非此之謂乎	-11.5058
以附此而不知其非所以為天下之通訓	-11.5058
但嚴父配天本	-11.5058
反陷於大不孝矣作傳者但見其論孝	-11.5058
迥	-11.5058
順可移於長居家苟極其	-11.5058
未審而	-11.5058
涖官不	-11.5058
於神明光於四海故曰無所不通	-11.5058
順長幼以極孝悌之心則至性通	-11.5058
簡則易從	-11.5058
複	-11.5058
詩云彼都人士	-11.5058
下而人共守	-11.5059
之尊有親之親	-11.5059
之徳行不敢行惟恐行輕而招辱也以此	-11.5059
九族既	-11.5059
則逆民無則焉不在于善而皆在于凶徳	-11.5059
古先哲王聖人君子之所	-11.5059
古者𦵏之中野厚衣之以薪喪期	-11.5059
可乆也措之天	-11.5059
同姓則留	-11.5059
孝者地之義	-11.5059
尚書益稷	-11.5059
徳配天地	-11.5059
息而莫能傷	-11.5059
惟恐言輕而招	-11.5059
戚哭泣之哀皆出於人情不	-11.5059
故忠可移於君事兄苟	-11.5059
斟	-11.5059
是天地之經義也	-11.5059
曰夫孝徳之本教之所由生復坐吾語女	-11.5059
有死有始	-11.5059
棄捐而咸遂其生日以	-11.5059
死皆虧孝道故聖人制禮施	-11.5059
為之中制中則欲其可繼也繼則欲其	-11.5059
無限貴賤	-11.5059
玉山汪端明亦以為此書多出後	-11.5059
生事之以禮死	-11.5059
謂心之所在	-11.5059
身體髪膚受之父母不敢毁傷孝之始也	-11.5059
辜較之辭	-11.5059
順徳順道	-11.5059
𦵏之以禮祭	-11.5059
如養致其樂恭敬如居致其	-11.5059
夙夜匪解	-11.5059
之不以文害意焉可也其曰故親生之膝	-11.5059
句之末並無也字	-11.5059
故今文連下二章為一章但下章之首語	-11.5059
然所論至	-11.5059
親切但與上文不屬而與下章相近	-11.5059
賛美其孝	-11.5059
不愛其親而愛他人者謂之悖	-11.5059
詩云此大雅	-11.5059
仭	-11.5059
之行並去聲	-11.506
則使人執	-11.506
移事父之孝以事君	-11.506
駿	-11.506
則是無窮也故	-11.506
右傳之五章	-11.506
辜	-11.506
幹	-11.506
愷樂也悌易	-11.506
詔稱其辭者皆言傳曰其實今文孝經也	-11.506
曰事君三違而不出竟則利禄也	-11.506
腎	-11.506
不㤀親也	-11.506
掩也且	-11.506
樂者天地之和也	-11.506
聲不委曲	-11.506
天子用樂	-11.506
誇	-11.506
右傳八則	-11.506
君子所居則化故可移於	-11.506
天下無生而貴	-11.506
定例也	-11.506
情而為之節	-11.506
於澤宫	-11.506
畎畆	-11.506
罷	-11.506
聊	-11.506
遡	-11.506
順而利導之	-11.506
餓	-11.506
七十子之徒	-11.506
不以死傷生毁不滅性	-11.506
不履事	-11.506
之服饘粥之食顔色之	-11.506
也注言能至	-11.506
人乃可以不	-11.506
人心今則自	-11.506
以日易月	-11.506
何異之有	-11.506
使天下之人法行於逆道故人無所	-11.506
先資其言	-11.506
光榮其父母	-11.506
凡此其屬少	-11.506
則文以君子之	-11.506
則斯乃不在於	-11.506
卻	-11.506
君皮弁素積	-11.506
命不易哉無曰髙髙	-11.506
因天之性順人之情而利導之教父以慈	-11.506
固所自盡	-11.506
垢和灰請	-11.506
天子視學世子齒胄	-11.506
天子設四學當入學而太子齒	-11.506
天有五行	-11.506
好惡喜怒	-11.506
如此之君雖	-11.506
安於彼而安於此非聖人	-11.506
師尹周太師尹氏	-11.506
年為制者使人知有終竟之限也	-11.506
強之也三日而食三年而除	-11.506
德敎加被天下當爲四夷	-11.506
必有婉容	-11.506
情莫不愛其親愛之篤者莫若	-11.506
惟父然也	-11.506
戰戰兢兢	-11.506
戴記所稱	-11.506
承顔順	-11.506
拆	-11.506
按大戴禮	-11.506
授卜商傳至大毛公名亨	-11.506
故孝者生民	-11.506
故文王者得大舜之志	-11.506
敬慎重正	-11.506
旬	-11.506
昔者天子諸侯必有	-11.506
曾子曰君子之孝也	-11.506
朝覲所以教諸侯之臣也	-11.506
本亂而末治者否矣	-11.506
次第六章後	-11.506
此法之所以不廢	-11.506
死者非生則不藏人	-11.506
比於不慈不孝	-11.506
毛傳文	-11.506
江翁后	-11.506
汪應辰	-11.506
漏	-11.506
焉以其敬而	-11.506
焉博學而	-11.506
煖清寒暑	-11.506
爲九章之	-11.506
父母全而生之已當全而歸	-11.506
父自古攸然	-11.506
琰圭	-11.506
瑞節也	-11.506
盡人之性能	-11.506
矣可以言孝乎有	-11.506
祝史之事也	-11.506
紳	-11.506
經文以便誦習	-11.506
義裁制	-11.506
老者得養死者得藏是以民不	-11.506
者皆孝也非孝則	-11.506
者非壯則不長老者非少則不養	-11.506
而不可言孝則	-11.506
能盡其性則能	-11.506
膠	-11.506
臣之諫君子之	-11.506
自獻其身	-11.506
苛	-11.506
莫嚴於	-11.506
華蟲火宗	-11.506
行東行者弗敢過欲言政者君就之可也	-11.506
行者弗敢過	-11.506
説卦云	-11.506
請命不	-11.506
諸侯待於	-11.506
踐其朝是	-11.506
身恭謹則遠恥辱	-11.506
鄭注周禮司	-11.506
釋奠于先	-11.506
雖五孝之用則别而百行之源不殊	-11.506
順逹於	-11.506
黨錮	-11.506
效之而各敬其	-11.506
次諸侯之貴者	-11.506
父兄與君是	-11.506
司馬公曰	-11.506
雖未嘗不敬	-11.506
若不中道則	-11.5061
逐	-11.5061
不舉火	-11.5061
喪親章第十八	-11.5061
上加故字今詳此	-11.5061
也葢能孝於先	-11.5061
以子曰今文則合之而又通上章為一章	-11.5061
古文且附上章或自别為一章可也	-11.5061
古文析不愛	-11.5061
大雅抑之篇覺大也	-11.5061
徳化無有思而不服	-11.5061
德其無以加於孝乎子曰天地之	-11.5061
意亦重複不當通為一章此語當依	-11.5061
懽心否則是其所以事	-11.5061
此六者皆孝子哀	-11.5061
無此二子曰字而於不愛其親	-11.5061
者有以得其懽心可知矣	-11.5061
苦在反	-11.5061
蔑	-11.5061
速化如此	-11.5061
遹	-11.5061
沐	-11.5061
事父之敬以事長則	-11.5061
其祿位永守其祭	-11.5061
父事三老兄事五更	-11.5061
順此四者人之大	-11.5061
言之不通也	-11.5061
之字事上相親下	-11.5061
哀以送之卜其宅兆而安措之	-11.5062
同離令並去	-11.5062
與平聲爭諍	-11.5062
鬼神著矣	-11.5062
事天地能明察則	-11.5062
已下至於庶人	-11.5062
白虎通云王者父天	-11.5062
駿奔走	-11.5062
知禮義之士乎	-11.5062
上三徳於	-11.5062
不觧經而别𤼵一義	-11.5062
且夫子談經志取垂訓	-11.5062
也舊注以為	-11.5062
人之大變也	-11.5062
内名自傳於後代	-11.5062
刑法也君行博愛廣敬之	-11.5062
取其敬合愛	-11.5062
君子之子是使其親	-11.5062
君子也者人之成名也百姓歸之名謂之	-11.5062
四輔及三公	-11.5062
因上文不孝之云而繫於此	-11.5062
困	-11.5062
大夫四命	-11.5062
孝之根基	-11.5062
左佩紛帨刀礪小觿金燧右佩	-11.5062
常須戒愼	-11.5062
愛君之志恒藏心中無日暫忘也	-11.5062
故能成其德教而行其政令	-11.5062
敬身之謂也敬	-11.5062
敺	-11.5062
文王色憂行不能正履	-11.5062
易知則有親易	-11.5062
是春秋左氏傳所載子太叔為趙簡子道	-11.5062
有未至也	-11.5062
毁謂虧辱傷謂	-11.5062
涵	-11.5062
測	-11.5062
猶修持其身謹愼其	-11.5062
王之卿六命	-11.5062
發諸朝廷	-11.5062
祖考之神	-11.5062
禮記文王世子云	-11.5062
節用而愛人	-11.5062
而致卑替	-11.5062
與敬而兼之	-11.5062
詩云此詩小雅節南山之什小	-11.5062
語實更端當以古文為正不愛其親語意	-11.5062
賴其福也	-11.5062
送形而往	-11.5062
道使人皆不慢惡其親則	-11.5062
雖未嘗不愛	-11.5062
詩大雅泂酌	-11.5062
薦而不祭又非士	-11.5062
爵祿而守其祭祀葢士之孝也	-11.5062
也由一家	-11.5062
以天地之理而	-11.5062
善補過也	-11.5062
士言祭祀各以其	-11.5062
旨不甘此哀戚之情	-11.5062
鈇鉞不足以威衆	-11.5062
霤	-11.5062
骨	-11.5062
搥	-11.5062
婢亦反	-11.5062
而民莫遺其親	-11.5062
私室則思補其身過	-11.5062
不能得之於	-11.5062
傳之十三章	-11.5062
取也取事父之道	-11.5062
右傳之三章	-11.5062
哭泣擗踊	-11.5062
尺證反	-11.5062
居即坐也與上句義重禮小戴	-11.5062
愛親必自愛身始	-11.5062
文相續當以今文為正至君臣之義之下	-11.5062
斷音短	-11.5062
於妻子之親貴	-11.5062
毛髮膚	-11.5062
治家者不敢侮於臣妾	-11.5062
泄	-11.5062
磋	-11.5062
祿賞不足以勸民	-11.5062
禮字為孝字而文勢反不若彼之	-11.5062
縷	-11.5062
身雖有小	-11.5062
采七代	-11.5062
食其祿	-11.5062
饘	-11.5062
▁弟大計反下	-11.5063
累劣偽反	-11.5063
重直用反	-11.5063
朝直遙反	-11.5063
卜其宅兆	-11.5063
忠為子而	-11.5063
行其典誼	-11.5063
預	-11.5063
涖音利	-11.5063
一字申釋	-11.5063
其先祖故也	-11.5063
孝親弟兄	-11.5063
成不加嚴刑而政	-11.5063
故不加威肅而教	-11.5063
蛟	-11.5063
覆芳伏反	-11.5063
顔説色	-11.5063
龔	-11.5063
柏	-11.5063
無禮爲驕奢泰爲溢	-11.5063
於祖妣	-11.5063
託諸空	-11.5063
影	-11.5063
遭秦焚	-11.5063
柴	-11.5063
禮之至著者也	-11.5063
載色載笑匪怒伊教	-11.5063
輿	-11.5063
不掩羣	-11.5063
之可以懽樂	-11.5063
則無暴亂之	-11.5063
小異然	-11.5063
組	-11.5063
維其盡之	-11.5063
者男子之	-11.5063
賜爵皆	-11.5063
十八章為定	-11.5063
喧	-11.5063
父父子子兄兄弟弟	-11.5063
盧	-11.5063
艮	-11.5063
讜	-11.5063
迪	-11.5063
釡	-11.5063
七世之廟	-11.5063
上正身以率下下順上而	-11.5063
不一而莫大於	-11.5063
不敢辱先	-11.5063
丘曽子孔子弟子名參字子輿	-11.5063
主于愛而愛莫切于愛親故	-11.5063
之禮廢而	-11.5063
之萬物莫不	-11.5063
乎曰移而	-11.5063
也王者繼	-11.5063
乾隆四十一年五月恭校上	-11.5063
事死如事生事亡如事存孝之至也	-11.5063
五方上帝	-11.5063
以仁存心以禮存心仁者愛人有禮者敬	-11.5063
以孝則卽通于事	-11.5063
以孝爲理	-11.5063
以孝道化民	-11.5063
以忠順治官	-11.5063
以配之也	-11.5063
以陵傲召禍	-11.5063
伯夷叔齊	-11.5063
何所不致其	-11.5063
使吾下故見為愛焉是以見	-11.5063
俺	-11.5063
元宗此註	-11.5063
具爾瞻	-11.5063
兼及事君立身	-11.5063
則世無不親之	-11.5063
則作參敢問	-11.5063
則德教成政令行	-11.5063
則成親成親則成	-11.5063
右傳之六章	-11.5063
名章次三才之後	-11.5063
呉所刪	-11.5063
周禮大司徒	-11.5063
命士以上	-11.5063
在則禮然然而衆	-11.5063
地之與天不相敵也	-11.5063
執爵而酳冕而總干	-11.5063
報國之道	-11.5063
夙早也懈惰也義取爲卿	-11.5063
大樂與天地同和	-11.5063
大辟之屬二百	-11.5063
天子親耕粢盛	-11.5063
失其道無以有其	-11.5063
字或作	-11.5063
孝經大義序	-11.5063
孝者徳之本也	-11.5063
宗廟之禮所以	-11.5063
小子識之	-11.5063
尸飲五君洗玉爵獻卿	-11.5063
序所云劉	-11.5063
得仁人之粟則	-11.5063
忠君順長	-11.5063
悅所敬者寡而悅者衆此之謂要道也	-11.5063
悖慢之	-11.5063
愛君雖離左右不謂為遠	-11.5063
愛敬親死則	-11.5063
成政令以	-11.5063
所為主者皆	-11.5063
抑搔癢痛懸衾篋枕以教愛也	-11.5063
接吾敵故見為信焉吾盡吾敬以	-11.5063
揣	-11.5063
故當不義則子不可以弗	-11.5063
敬者寡而説者衆	-11.5063
斯民則人	-11.5063
日者父也	-11.5063
曰假以溢我我其	-11.5063
曰吾盡吾敬以事吾上故見為忠	-11.5063
曰敢問何	-11.5063
未有諫諍之禮	-11.5063
根牟子	-11.5063
樂也悌易也義取君以樂易之道化人則	-11.5063
樂而後行人必悦也	-11.5063
止乎禮義	-11.5063
正義曰夫子旣述	-11.5063
此論人子	-11.5063
毛詩自夫子	-11.5063
焉吾盡吾敬以	-11.5063
焉得為孝乎所以結一章之㫖而終是何	-11.5063
父失則諫故免陷於不	-11.5063
用廣發揮	-11.5063
用節省則免饑寒	-11.5063
甫反鰥古頑反	-11.5063
田祿者	-11.5063
畏其威愛其德皆放象於君也	-11.5063
畝冕而	-11.5063
疏食飲水	-11.5063
盡人之性則能盡物之性	-11.5063
眎	-11.5063
社土神稷榖神	-11.5063
社稷大夫言守	-11.5063
章之失云	-11.5063
竭盡其忠	-11.5063
簡子賛之曰甚	-11.5063
紘躬秉耒	-11.5063
終畢乃引	-11.5063
縦	-11.5063
考工記曰	-11.5063
者人亦殺其	-11.5063
者人恒愛之敬人者人恒敬之	-11.5063
者何盖言	-11.5063
者又徳教之所自出	-11.5063
者無不悦以此之敬而敬人之	-11.5063
者送死	-11.5063
而微言絶	-11.5063
能也天地鬼神	-11.5063
臨雍養老	-11.5063
舊觧云	-11.5063
芬	-11.5063
萇	-11.5063
蒼翼奉	-11.5063
薛倉子	-11.5063
虞夏商周	-11.5063
行恐辱先祖而毁盛業也	-11.5063
言合祀	-11.5063
誦堯之言行	-11.5063
請業則起	-11.5063
謂平常	-11.5063
貴人而賤	-11.5063
貴信於天下之君	-11.5063
賤者尚如此而	-11.5063
足頓地	-11.5063
身行道揚名於後世	-11.5063
輕君之危亡	-11.5063
通為一章古文則分為二章	-11.5063
道揚末命	-11.5063
邦終于	-11.5063
釋至徳以順天下	-11.5063
隂陽日星	-11.5063
隮	-11.5063
靈為畜	-11.5063
非至德其孰能順民如此其大者乎	-11.5063
龍於山登火於宗彜	-11.5063
也而非之此有無	-11.5063
凡百四十三字廣經	-11.5063
刪去說見	-11.5063
失其富貴而不能保	-11.5063
文次第五章後	-11.5063
瘠在昔反	-11.5063
詩小雅小宛之	-11.5063
呰	-11.5064
争於父臣不可以	-11.5064
不敢不勉	-11.5064
仁誼禮	-11.5064
具皆也爾女也	-11.5064
巾	-11.5064
弗争於君故當不義則争之從父之令	-11.5064
柔色以	-11.5064
槁	-11.5064
槍	-11.5064
魚器反	-11.5064
所以長守貴	-11.5064
娛	-11.5064
孽	-11.5064
為凶徳	-11.5064
塋	-11.5064
則無善於先	-11.5064
䘮不過三年示民有終	-11.5064
且不侮	-11.5064
之利謂土地	-11.5064
也而敢以孝道	-11.5064
佷	-11.5064
則可謂能體明王孝	-11.5064
哉禮之大也首尾通貫節目詳備	-11.5064
慘	-11.5064
才卧反	-11.5064
敢少有毁傷此	-11.5064
晉荀林父為楚所敗歸	-11.5064
曰林父之事君	-11.5064
有乖戾	-11.5064
有驕亂忿	-11.5064
父尊子卑	-11.5064
生植農桑之	-11.5064
當體明王孝治天下	-11.5064
百官族姓	-11.5064
盪	-11.5064
穆王訓夏	-11.5064
罹	-11.5064
耰	-11.5064
聖人者法之所從出也而敢於非	-11.5064
自其章首以至因地	-11.5064
與彼所記當為一例	-11.5064
蓋釋以順天下	-11.5064
見君父之過皆不可以苟順而不	-11.5064
親者必其於人無所不	-11.5064
通貫條目	-11.5064
雅頌之	-11.5064
士言祭祀	-11.5064
䘮平聲	-11.5064
之高行也	-11.5064
右傳之首章	-11.5064
在下位	-11.5064
孝子當行之	-11.5064
愷苦亥反悌	-11.5064
當行之孝	-11.5064
衰七雷反	-11.5064
鑒	-11.5065
無日暫忘也	-11.5065
君子之教以孝也	-11.5065
姪	-11.5065
乎母父有天道	-11.5065
易曰乾天也故稱	-11.5065
無夫曰寡	-11.5065
嚴刑肅	-11.5065
國極言其多	-11.5065
孝治天下能致災	-11.5065
小雅小旻之	-11.5065
敬敷五	-11.5065
有嚴君焉父母之謂也	-11.5065
服堯之服	-11.5065
朽	-11.5065
三日而食敎民無以死傷生	-11.5065
不過如此于大義	-11.5065
之徳民愛	-11.5065
人人親其親長其長	-11.5065
人心所自有	-11.5065
人而以無所不	-11.5065
以飬其親	-11.5065
但以順則逆以下則又雜取左傳所載	-11.5065
使民有父之尊有母之親	-11.5065
冨	-11.5065
則之則天之明因地之性其下便	-11.5065
則又當有	-11.5065
則非如父與	-11.5065
北宫文子之言與此上文既不相應而彼	-11.5065
反號户刀	-11.5065
可以為民父母矣非至徳其孰能如此乎	-11.5065
君愛其親則人化之無有遺其親者	-11.5065
天下之人被服其	-11.5065
天下之理得	-11.5065
子産之言唯易	-11.5065
孔安國蓋約夏殷章服爲說	-11.5065
孝莫大于嚴父嚴	-11.5065
彌大之義告之	-11.5065
心生於所	-11.5065
悴	-11.5065
感化悅從	-11.5065
手擊胷	-11.5065
托	-11.5065
拾	-11.5065
是乃知前輩讀書精審	-11.5065
有深愛者必有和氣	-11.5065
材進受禄養	-11.5065
此則庶人之孝所當然也	-11.5065
治之心以爲	-11.5065
無善政	-11.5065
爲先揚名爲後	-11.5065
父兄君長	-11.5065
禄位與祭祀相	-11.5065
節其用而	-11.5065
簡焉今不能知其為何字也悖禮以	-11.5065
而天下之為弟者皆悦以事	-11.5065
而語之以	-11.5065
能以至徳為教順	-11.5065
謂上六句	-11.5065
謂父為天雖無貴賤然以父	-11.5065
賔客之	-11.5065
遐遠也義取臣心	-11.5065
道也徳也一	-11.5065
配天之禮始自周公故曰其人也	-11.5065
長貞丈	-11.5065
顔引義以爭之不	-11.5065
子有如此愷悌	-11.5065
庶人泛指衆人學	-11.5065
臨淵恐墜履	-11.5065
諸父所	-11.5065
孝弟之至通於神明光於四海	-11.5065
故當不誼則	-11.5065
長㓜順故上下治	-11.5065
畎	-11.5065
此又總	-11.5065
長守貴也滿而不溢所以長守富也	-11.5065
▁養羊尚反傳同	-11.5066
不為一物	-11.5066
别彼列反	-11.5066
反不若彼之完備明此襲彼非彼取此	-11.5066
地之經而民實	-11.5066
孝所以愛其親也	-11.5066
将順其美匡救其惡故上下能相親	-11.5066
此得失又如前章所論子産之語今	-11.5066
殊事而合敬	-11.5066
無貴無賤無親無	-11.5066
由親及	-11.5066
章末舊有	-11.5066
而受業晝而講貫夕	-11.5066
而習復夜而計過	-11.5066
自此推之	-11.5066
費也庶人未受命	-11.5066
辟之屬千	-11.5066
詩大雅文王有聲之	-11.5066
皮	-11.5066
而患不及者未之有也	-11.5066
赫赫	-11.5066
君取其敬	-11.5066
姻	-11.5066
卜其宅兆而安厝之	-11.5066
再言之者	-11.5066
天子諸侯卿大夫皆以孝治天下國	-11.5066
如此故其生而	-11.5066
是以普天之下和睦太平	-11.5066
言滿天下無口過	-11.5066
注言行至	-11.5066
十億曰兆	-11.5066
繆	-11.5066
三又多	-11.5066
二曾子敢問章分	-11.5066
云古孝經千八百七十二字今異者	-11.5066
凡若是者	-11.5066
故不殺牛大夫無故不殺羊士無故不殺	-11.5066
宗人授事以	-11.5066
對而不問	-11.5066
既以數本校讐且旁及他書所引	-11.5066
是以文字訛謬魚魯不辨	-11.5066
有貴者以齒	-11.5066
粢盛夫人蠶	-11.5066
而播種之	-11.5066
聞孔子之言	-11.5066
肺	-11.5066
贅	-11.5066
醮	-11.5066
館	-11.5066
丑	-11.5066
之本教曰孝其行	-11.5066
也夫子言昔者明	-11.5066
事之以明子	-11.5066
事兄能悌	-11.5066
云分别五土視其高下	-11.5066
克施有政	-11.5066
公侯伯子男大國之臣乎以此之故所以	-11.5066
前章明先王因天地	-11.5066
友于兄弟	-11.5066
古卧反	-11.5066
天下之至順	-11.5066
存于我日本	-11.5066
容止威儀也必合䂓矩則可觀也	-11.5066
左右前後	-11.5066
思可道而後言人必信也思可	-11.5066
愛敬生愛敬	-11.5066
慇	-11.5066
慎行其身不遺父母惡名可謂能終	-11.5066
按禮運曰	-11.5066
明王明哲之君遺忽忘也小國之臣謂土	-11.5066
曲折之	-11.5066
有國有家	-11.5066
本然之徳性	-11.5066
混	-11.5066
澮	-11.5066
盖忠臣之事君如孝子	-11.5066
知愛知敬	-11.5066
祀無豐于	-11.5066
祚	-11.5066
秉徳之士	-11.5066
章繡於裳	-11.5066
聖人能順	-11.5066
舉而措之天下	-11.5066
蔽不明遂成而莫救也陳善閉邪慮之	-11.5066
言盡愛敬之道然	-11.5066
迸	-11.5066
配合也周公	-11.5066
難安可能也	-11.5066
非餕莫	-11.5066
食采於周位居	-11.5066
飲七以瑶爵獻大夫尸飲九以散爵獻士	-11.5066
㫖美也不甘美味故	-11.5066
三穆廟	-11.5066
上謂君也進謂進見於君	-11.5066
不侮鰥寡	-11.5066
不入則犯	-11.5066
两	-11.5066
之俾君之	-11.5066
之行自無怨惡	-11.5066
也此言鬼神	-11.5066
也節用者省節	-11.5066
也謹身者謹修其身不妄	-11.5066
事親有隐而無犯	-11.5066
仿	-11.5066
其將亡	-11.5066
其曰先王見教之可以化民又與上文	-11.5066
冏	-11.5066
况知禮義之	-11.5066
出門如見大賔使	-11.5066
制五服各有等差言	-11.5066
則民作讓	-11.5066
則親安之沒	-11.5066
効	-11.5066
原本脫去	-11.5066
又案司服	-11.5066
君子必自反也曰我必	-11.5066
君行六事臨	-11.5066
吾取之以敬也吾得之以敬也	-11.5066
吾道一	-11.5066
周易都	-11.5066
在正席之	-11.5066
報天而主日配以	-11.5066
大觿木燧	-11.5066
天下之父老	-11.5066
小歛之衣也	-11.5066
居謂平居	-11.5066
徂	-11.5066
恐懼兢兢戒愼臨深恐墜履	-11.5066
情義利患	-11.5066
慥	-11.5066
所以無可擇也	-11.5066
所以然者盖	-11.5066
所以異於人者以其存心也君子	-11.5066
敎不令至於殞滅	-11.5066
曾子之自救	-11.5066
毛詩韓詩	-11.5066
民如承大祭	-11.5066
無閒坐二字則	-11.5066
狼	-11.5066
瓦	-11.5066
竟之限也	-11.5066
經之㫖趣	-11.5066
綦	-11.5066
義取爲君恒須戒	-11.5066
義謂之自暴	-11.5066
而後成服	-11.5066
聖祖仁皇帝纘	-11.5066
聨	-11.5066
能備此三者則能	-11.5066
膝骨	-11.5066
自天子達於庶人	-11.5066
致者推之而	-11.5066
詩小雅隰桑之篇	-11.5066
誚	-11.5066
諄	-11.5066
諸侯之於天子也	-11.5066
變隨人心	-11.5066
財用不妄	-11.5066
責成人禮	-11.5066
起起者起	-11.5066
速反而虞	-11.5066
随陽而	-11.5066
鰥夫寡婦	-11.5066
章第九	-11.5067
一以順從為孝	-11.5067
氷	-11.5067
積累之艱	-11.5067
説聖人之治	-11.5067
覲	-11.5067
其法令	-11.5067
氣屈而歸也	-11.5067
人死曰鬼	-11.5067
一孝立而	-11.5067
之甚者為	-11.5067
令儀令色小心	-11.5067
地之理故	-11.5067
天子下有已下	-11.5067
心乎愛矣遐不謂矣中心蔵之何日忘之	-11.5067
愛則莫有善於孝	-11.5067
措置也	-11.5067
旻	-11.5067
服象其	-11.5067
至即所以為道之要順	-11.5067
與此不同	-11.5067
行不正履	-11.5067
門人稱其師	-11.5067
鰥老而無	-11.5067
進退動静也	-11.5067
也故次及	-11.5068
善者之必	-11.5068
有聲之篇引	-11.5068
孝者徳之本教之所由生	-11.5068
則身不離於令名	-11.5068
事君則忠以	-11.5068
之君子與則三年	-11.5068
也嗟乎	-11.5068
事天地能明察則神感至	-11.5068
吕刑云墨罰之屬千	-11.5068
君能尊諸父先諸兄則長	-11.5068
恃	-11.5068
敎從孝而生	-11.5068
曰君子之敎以孝也非家至而日見之也	-11.5068
治世之要	-11.5068
之無使昏	-11.5068
元吳澄撰	-11.5068
周旋可則容止可觀作事可法徳行可	-11.5068
明以爲常因地利以行義	-11.5068
王之子武王之弟成王之叔父	-11.5068
落	-11.5068
迎精而	-11.5068
遏而中止也一念之惡則諫止	-11.5068
釋名云	-11.5068
非而從成	-11.5068
順此以施政敎則不待嚴肅而成理也	-11.5068
䟽	-11.5068
上孝理皆得懽	-11.5068
世祖章皇帝	-11.5068
事可法德行可象聲氣可樂	-11.5068
事君所事者惟父母	-11.5068
以后稷配郊	-11.5068
何日忘之	-11.5068
倫也父子主恩君臣主敬	-11.5068
先觀容	-11.5068
内則父子外則君臣人	-11.5068
冺	-11.5068
凡九十字	-11.5068
則毛髮肌膚此皆受之	-11.5068
動作有文言語有章以	-11.5068
各得懽心	-11.5068
后稷名棄	-11.5068
四方之國皆	-11.5068
夜寐無辱其親也	-11.5068
天子袒而割牲執醬而饋	-11.5068
夫然者然	-11.5068
如履薄冰	-11.5068
孰有大于	-11.5068
忝辱也所生	-11.5068
戒舜曰	-11.5068
教更有大於孝不	-11.5068
敬天下之為人父者也	-11.5068
是不虧其體	-11.5068
有本父者生之本也	-11.5068
未若防㣲杜漸為忠之	-11.5068
毀不滅性	-11.5068
法言謂禮法之言德行	-11.5068
温公改教為孝乃得粗通而下文所謂	-11.5068
畢次明	-11.5068
老而無妻曰鰥老而無夫	-11.5068
聞明王孝治以致	-11.5068
舉小以見大耳百姓	-11.5068
萬物之靈故	-11.5068
行之事可	-11.5068
行非德則虧孝道故不敢也	-11.5068
親親而仁民仁民	-11.5068
言君子之教人以孝也非必家至	-11.5068
詩以證	-11.5068
謂父母也義取早起	-11.5068
謂道德之行若言非法	-11.5068
貴其異於萬物也	-11.5068
身也者親之枝也	-11.5068
顛連無告	-11.5068
戰戰恐懼	-11.5068
同歸于孝	-11.5068
而不敢有所慢於人	-11.5068
行莫大於孝也	-11.5068
而況於公侯伯子男乎	-11.5068
耗	-11.5069
得百姓之歡心	-11.5069
之教刑儀刑也	-11.5069
亦天分之	-11.5069
其所引詩亦不親切今定先王見教以下	-11.5069
出耳然其前段文雖非是而理猶可通存	-11.5069
居陵反	-11.5069
悌所以敬其長也	-11.5069
無憂享	-11.5069
經以孝而和此以和而孝也引詩	-11.5069
經文之正意	-11.5069
而其末結之曰故自天子	-11.5069
臣民之上	-11.5069
至於後段則文既可疑而謂聖人見孝可	-11.5069
要平聲	-11.5069
謂沒後奉祀安者其心	-11.5069
身率下	-11.5069
艾	-11.5069
争之從父之命又	-11.5069
拊心也踊	-11.5069
走	-11.5069
毳	-11.5069
不言而信	-11.5069
凡大合樂必遂養	-11.5069
也尊有𤣥酒	-11.5069
可告於天子	-11.5069
使足以成文理則釋之	-11.5069
恐其狎恩恃愛而	-11.5069
有所取之也	-11.5069
五土之高	-11.507
人上者奈	-11.507
則是可言	-11.507
犬豕	-11.507
百姓徒役也以	-11.507
唯而不對	-11.507
政入於	-11.507
祖以配天	-11.507
而成之惟恐不及君有	-11.507
通暢經	-11.507
也利物爲義孝爲百行之首人之	-11.507
也商頌曰	-11.507
史為書瞽	-11.507
失且其下文語已更端無所隔礙故今且	-11.507
引詩以寓	-11.507
得仍舊耳	-11.507
戊午	-11.507
所不慮而知者其良知也	-11.507
抒	-11.507
搢	-11.507
故親生之膝下	-11.507
未為不道也	-11.507
欠	-11.507
示好以引之示	-11.507
禽所以善成王也	-11.507
繼序思不忘	-11.507
聖人知孝之可以敎人也	-11.507
臣則終不至失天下亡家國也	-11.507
臨兆民凛乎若朽索之馭六馬為人上者	-11.507
蔡	-11.507
藻火粉米黼黻六章繡	-11.507
詩云此大雅蕩	-11.507
諸侯受命於天子	-11.507
辰運天而有常五土分地而爲義也	-11.507
雖善而亦非	-11.507
㑹而及於	-11.507
上也進見於君	-11.507
不可以不爭爭	-11.507
不敬其親而敬它人者	-11.507
不爭則䧟	-11.507
世宗憲皇帝	-11.507
中出禮自外作	-11.507
之不可得而	-11.507
之道以率先之則人漸其	-11.507
也諸侯相厲以	-11.507
亦猶是矣	-11.507
人有言曰	-11.507
人為萬物之靈	-11.507
今故特舉	-11.507
仕弗與共	-11.507
作古文孝經傳而世不傳	-11.507
傳之十四章	-11.507
其漸然也	-11.507
凰	-11.507
則皆天也天	-11.507
剭	-11.507
即上文所謂	-11.507
却不相應疑亦裂取他書之成文而强加	-11.507
去王城	-11.507
可揀擇之	-11.507
名從之矣	-11.507
吹	-11.507
和平因問聖	-11.507
嚴肅自然成	-11.507
國子博士	-11.507
在理或當何必求人	-11.507
堅	-11.507
報誥之	-11.507
子曰昔者明王以孝治天下也	-11.507
孟仲子	-11.507
宗無禮無度之禍	-11.507
寒疾痛苛癢而敬抑搔之	-11.507
尊仁安義	-11.507
少則慕父母知好色則慕少艾仕則慕	-11.507
帝謂東方青帝靈威仰	-11.507
廢鄭於	-11.507
徽	-11.507
意有兼明具載則文繁略之又義闕今存	-11.507
慎行禮法謂之謹	-11.507
早已施	-11.507
春生夏長秋斂冬藏舉	-11.507
是以行成於內	-11.507
曰孝而已孝	-11.507
書呂刑也一人天	-11.507
有功徳於民者	-11.507
東西南北	-11.507
樂也有親可	-11.507
横逆猶是也	-11.507
欲移改	-11.507
為法於天下可傳於後世	-11.507
爲稷自	-11.507
父莫大於配天	-11.507
物得氣之偏	-11.507
猶此志也	-11.507
生謂父母存時祭	-11.507
禾黍	-11.507
稱士三	-11.507
穆與太祖之廟而	-11.507
紐	-11.507
終始中乃敷陳天子諸侯卿大夫士	-11.507
終身弗辱	-11.507
繭	-11.507
義取大臣助君行化人皆瞻	-11.507
而名立於後世矣	-11.507
而游夏	-11.507
膋	-11.507
自是天子不	-11.507
舊行用孔	-11.507
舒	-11.507
萬國舉其多也言行孝道	-11.507
行莫大于孝	-11.507
親睦九族	-11.507
言不過辭動不過則	-11.507
謂之有威儀也	-11.507
變易其俗則莫	-11.507
賔及介而衆賔	-11.507
足以合禮利物足以和義貞固足以幹事	-11.507
身不能居仁	-11.507
適父母舅姑之所及所下氣怡聲問衣燠	-11.507
飾次交言辭後	-11.507
𤣥所注請不藏	-11.507
𤣥衣纁裳	-11.507
􁄕	-11.507
其細而言	-11.507
葢諸侯之孝	-11.507
與平聲	-11.507
廣要道章	-11.507
愛而不敢有所惡於人敬其	-11.507
所以敬天下之爲人君者也	-11.507
若夫慈愛恭敬安親揚名	-11.507
人子之身氣始	-11.507
先君始受命	-11.507
大義為害不細故今定此六七章者合為	-11.507
尤精約也	-11.507
有善於樂	-11.507
欲教民以有禮	-11.507
此事奉其先	-11.507
民則民畏其	-11.507
而順則莫有善於悌	-11.507
躍	-11.507
高下燥濕	-11.507
黎民於變時	-11.507
分以為六七章	-11.507
孝則是使為人臣子者皆有今将之心而	-11.507
所自著則又可笑之尤者	-11.507
經之首統論孝之	-11.507
蓋士之孝也詩云夙興夜寐無忝爾所生	-11.507
言斯可道行斯可樂	-11.507
脱衣就功	-11.5071
天地之性人爲貴	-11.5071
事兄弟故順可移於長	-11.5071
刄	-11.5071
和則無乖戾之氣	-11.5071
則一身四體舉	-11.5071
舉其大而言	-11.5071
其教不肅而成其政不嚴而治	-11.5071
一家仁一國興仁一家讓一國	-11.5071
王季日三	-11.5071
興讓一人貪戾一國作亂	-11.5071
聖人之徳無以加於孝故曰至徳	-11.5071
若駟之過隙然而遂之則是無窮	-11.5071
婦人幽閉	-11.5071
令善也益者三友言	-11.5071
則未為能	-11.5071
剕罰之屬五百宫罰之屬三百大辟之罰	-11.5071
力一念之善則助	-11.5071
卿大夫以孝治其	-11.5071
家者推其愛敬之心	-11.5071
感應章	-11.5071
成之無使	-11.5071
案毛詩傳	-11.5071
生事已畢死	-11.5071
疾甚曰病	-11.5071
筆削	-11.5071
裂	-11.5071
跂	-11.5071
䘮服四制	-11.5071
三年之喪天下達禮使不肖企及賢者	-11.5071
下擇行行滿	-11.5071
不能事親立身	-11.5071
事父之道兼	-11.5071
以孝治其國推其愛敬之心以及於國人	-11.5071
以父之親	-11.5071
何以異乎	-11.5071
其首尾相應次第相承文勢連屬	-11.5071
則哀遇祭則嚴	-11.5071
君行六事臨撫其人則下	-11.5071
唐虞之治	-11.5071
四詩去聖逾逺源流益	-11.5071
天子愛親則	-11.5071
夫子所以首稱明王而	-11.5071
夫然猶	-11.5071
寖	-11.5071
徳性之根本	-11.5071
心而成其	-11.5071
措諸事	-11.5071
揚名於後世以顯	-11.5071
撫㓜則慈	-11.5071
故魯史春秋學開五傳國風雅頌分	-11.5071
於鰥寡之微亦不敢侮慢之而	-11.5071
民人蓋諸侯之孝	-11.5071
為使人勿	-11.5071
物均得天地之氣以	-11.5071
王則孝道至矣	-11.5071
而不遺親之	-11.5071
而耕耘	-11.5071
自毳冕	-11.5071
菽麥	-11.5071
親親而仁民仁民而愛物	-11.5071
言孝之綱領始終	-11.5071
誓曰予克	-11.5071
謂舉尸	-11.5071
赫赫師尹	-11.5071
防其未來	-11.5071
雖有五等之别	-11.5071
章第七	-11.5071
大於尊嚴其父	-11.5071
斷章取	-11.5071
而推之與此亦	-11.5072
以復經文之舊其傳文之失又别論之如	-11.5072
使其文意分斷間隔而讀者不復得見聖	-11.5072
利物之義	-11.5072
子曰者二引書者一引詩者四凡六	-11.5072
案士䘮禮	-11.5072
簠音甫簋音軌	-11.5072
譴	-11.5072
身不能及於孝	-11.5072
有父之尊有母之親	-11.5072
右傳之四章	-11.5072
庶人章凡五章	-11.5072
必合規矩則可觀	-11.5072
此又合始終而言之以結一書之㫖	-11.5072
義曰此依鄭注也	-11.5072
生平則無悖逆之	-11.5072
詩大雅抑	-11.5073
板	-11.5073
者連上	-11.5073
者鮮不	-11.5073
縱	-11.5073
豎	-11.5073
富與貴	-11.5073
改經之漸	-11.5073
曲禮曰毋不敬	-11.5073
猛	-11.5073
舉大者言	-11.5073
謂然友	-11.5073
零七字	-11.5073
之而未暇	-11.5073
也此五者皆	-11.5073
前今詳此章	-11.5073
參直養者也安能	-11.5073
叔梁紇	-11.5073
山龍華蟲六章	-11.5073
此數語	-11.5073
言行滿於天	-11.5073
不患寡	-11.5073
事親能孝	-11.5073
但經所謂	-11.5073
儕	-11.5073
又案尚書益稷篇稱	-11.5073
古文此章在	-11.5073
惟是經國人相傳之久不知	-11.5073
昔者周公攝政踐阼而治抗世子法於伯	-11.5073
有可疑者	-11.5073
有師之嚴	-11.5073
案説文云	-11.5073
燕射朝聘	-11.5073
爭謂諫也言雖無道為有	-11.5073
父謂諸父兄謂諸兄皆祖考之	-11.5073
男女之别	-11.5073
移理以	-11.5073
繇此矣	-11.5073
者釋詁文云	-11.5073
若依鄭	-11.5073
要道當自	-11.5073
言能敬事宗廟則	-11.5073
逹於天子一	-11.5073
降殺以兩尊卑之差	-11.5073
隧	-11.5073
䰟	-11.5073
一時之言無可疑者而後人	-11.5073
一飯之恩	-11.5073
上同然無	-11.5073
不可則止	-11.5073
不愛其親而愛它人	-11.5073
不慎其心	-11.5073
之書也書	-11.5073
之長也亨	-11.5073
也敬譲者孝	-11.5073
也明乎郊社之	-11.5073
也盡此三道者	-11.5073
也言上古之	-11.5073
乾元萬物資始	-11.5073
事之幹也	-11.5073
事業動得物	-11.5073
事死如事生事亡如	-11.5073
五帝以上也	-11.5073
人而諭之	-11.5073
今祖述孝經之人	-11.5073
以其餘畀	-11.5073
以君為親	-11.5073
以此坊民	-11.5073
以親為君	-11.5073
以造化之	-11.5073
使正直者邇於刑弗違則殆於罪	-11.5073
侮慢忽也一命以上	-11.5073
其親而令他人	-11.5073
出就外傅居宿於外	-11.5073
則接對賓客出聘則	-11.5073
則樂遇病則	-11.5073
則長幼有序	-11.5073
劉向校經籍比量二	-11.5073
務農桑	-11.5073
化人之易也	-11.5073
取而分之	-11.5073
受禄飬親	-11.5073
君不得於君	-11.5073
君有君之威儀其臣畏	-11.5073
命於祖廟作龜於禰宫尊祖親考之義也	-11.5073
和樂而不流	-11.5073
圭璋	-11.5073
墟墓之間	-11.5073
子而用臣之顯	-11.5073
孝之為道	-11.5073
孝經注疏卷九考證	-11.5073
學慮者	-11.5073
定而不列名	-11.5073
宜故可法也	-11.5073
尚接之以禮	-11.5073
山之上深澤之	-11.5073
常有以致其敬則敬存而心存	-11.5073
庶幾廣愛刑于四海嗟乎夫子沒而微言	-11.5073
從而後已	-11.5073
復正臣父無復正子	-11.5073
德行之行下孟反注	-11.5073
心則存安其榮沒享其祭	-11.5073
心和而王業	-11.5073
忠愛其君者	-11.5073
愛人不親反其仁治人不治反其智	-11.5073
愛出於内	-11.5073
慈為愛體	-11.5073
應之詩曰	-11.5073
戇	-11.5073
戴記云孔子閒居曾子侍並無坐字此經	-11.5073
所不學而能者其	-11.5073
搔	-11.5073
教諸侯之孝也食三老五更於太學所以	-11.5073
敬生於心恭為敬	-11.5073
暴棄其	-11.5073
曰仁者殆恭者不入	-11.5073
朕文考無罪	-11.5073
朕聞上古其風朴略雖因心之孝	-11.5073
本又作	-11.5073
本除其煩惑以十八章	-11.5073
樂者為同禮者為	-11.5073
正其心則和睦矣	-11.5073
河間王所得顔芝本	-11.5073
治國其如	-11.5073
溷	-11.5073
為人心之全徳	-11.5073
無以發端	-11.5073
留	-11.5073
瞽亦如之	-11.5073
示好以引之示惡以止之則人知有禁令	-11.5073
社稷靈長而宗廟奠安	-11.5073
神侑坐而食	-11.5073
積誠以	-11.5073
答反其敬行有不得者皆反求諸己其身	-11.5073
級	-11.5073
而不仁者也未有孝而不義者也未有孝	-11.5073
聖人南面而	-11.5073
胎教之道	-11.5073
能孝理其家則得小大之懽心助其奉	-11.5073
臣子及天下之通孝以終焉	-11.5073
自有一定不可	-11.5073
自處于	-11.5073
致愛則存致慤則著著存不忘乎心	-11.5073
色不滿容行不正	-11.5073
荷	-11.5073
藏身之固也	-11.5073
虞帝之	-11.5073
袖虞翻劉邵抑又次焉劉炫明安國之本	-11.5073
言官師相䂓工執藝事	-11.5073
說文曰	-11.5073
誰能順	-11.5073
諫之大者	-11.5073
諫大夫䂓誨士傳	-11.5073
轅	-11.5073
逺盖愛君一念	-11.5073
道則突若	-11.5073
鉤命決云孔子曰	-11.5073
非予武惟	-11.5073
順内和	-11.5073
順時令	-11.5073
體仁足以長人嘉	-11.5073
鰥寡即不驕不	-11.5073
𤣥冕而	-11.5073
子從父之令可謂孝乎	-11.5073
性生也言	-11.5073
禍亂如賊君弑父	-11.5073
道教即	-11.5073
徳義敬讓禮樂	-11.5073
足少而習	-11.5073
有覺徳行四國順之	-11.5073
進思盡忠退思	-11.5073
如水旱疾疫	-11.5073
歆	-11.5073
詩大雅蒸民	-11.5073
上安其君	-11.5073
以悌所以敬天下之爲人兄者也	-11.5073
右傳之九章	-11.5073
君者臣之所禀令也而	-11.5073
敬父敬君	-11.5073
母其體	-11.5073
無法人莫不有	-11.5073
穉	-11.5073
而全其生也	-11.5073
而述脩	-11.5073
補過亦左傳所載士貞	-11.5073
課	-11.5073
吾語汝	-11.5074
應感章第十	-11.5074
人得氣	-11.5074
則四海之大	-11.5074
馮	-11.5074
助君行化人皆瞻之也	-11.5074
曰禘嘗之義大矣	-11.5074
劭	-11.5074
軾	-11.5074
道既行則	-11.5074
君行嚴配之禮則德	-11.5074
周公成文武之徳追王太王王季	-11.5074
屬二百五刑之屬	-11.5074
常故曰經	-11.5074
漢文帝始除	-11.5074
章言諸侯之孝	-11.5074
𦙍也禮君燕	-11.5074
下治其民則莫有善於禮	-11.5074
不敢少失其心	-11.5074
不自吾孝中出故曰教之所由	-11.5074
事兄則悌以	-11.5074
事母孝故事	-11.5074
事順時此用天道也	-11.5074
人之政因人之情	-11.5074
以失於自	-11.5074
克予非朕文考有罪惟予小子無良	-11.5074
其先君豈非孝道之大者	-11.5074
則上下臣人	-11.5074
則天之明因地之利以順天下是以其	-11.5074
則存安其榮	-11.5074
則賢人之	-11.5074
句刪其字	-11.5074
國以孝治其	-11.5074
妻子家之貴者	-11.5074
子曰先王有至	-11.5074
孝者五常之本百行之	-11.5074
孝者德之至道之要也言先代聖德	-11.5074
安沒享人用	-11.5074
德若三	-11.5074
心為之主士有	-11.5074
愛與敬父	-11.5074
推以配天配上帝	-11.5074
故孝行之大莫過尊嚴其父也	-11.5074
明故曰明堂	-11.5074
映	-11.5074
是知孝者	-11.5074
是諸侯之國	-11.5074
曰敢問聖人之德無以加於孝乎	-11.5074
未有此理	-11.5074
殿中丞	-11.5074
治一國者	-11.5074
為人子者誠以愛親為心而不	-11.5074
盡故使復位而坐	-11.5074
稷矣以此而事	-11.5074
而無告者	-11.5074
能順天下人心行此至要之化	-11.5074
自古及今	-11.5074
言先代聖明之	-11.5074
象聲氣可樂動作有文言語有章以臨	-11.5074
迭	-11.5074
陳說德義之美爲衆所	-11.5074
妻子臣妾猶百姓徒役	-11.5074
則九族	-11.5075
悖矣悖	-11.5075
一人而彼則千萬人	-11.5075
以孝所以敬天下之爲人父者也	-11.5075
守者約而施者博	-11.5075
於客位	-11.5075
述諫諍之事	-11.5075
𤼵明移孝事君之意今並存之	-11.5075
地之常經而	-11.5075
踊音勇	-11.5075
三者不除雖日用三牲之養猶	-11.5075
理所不可故再言	-11.5075
當念其	-11.5075
黼	-11.5076
圈	-11.5076
當不義則爭之從父之令又焉得	-11.5076
潁	-11.5076
怛	-11.5076
大饗其王事與	-11.5076
臂	-11.5076
舉孝悌以為教則天下之	-11.5076
舉臣道以為教則天下之為人臣	-11.5076
軰	-11.5076
敬讓禮樂好惡	-11.5076
凟	-11.5076
叅	-11.5076
受忠告故不失其善名	-11.5076
好惡著則賢不肖别矣	-11.5076
彼無惡在此無斁	-11.5076
心常存	-11.5076
者逮下	-11.5076
順天下者順	-11.5076
凌	-11.5076
堂則親之而曰	-11.5076
威猛而	-11.5076
影響	-11.5076
易而求諸難人人親其親長其長而	-11.5076
朋友之交	-11.5076
求諸逺事在	-11.5076
玊	-11.5076
而患不均	-11.5076
臣弑其君子弑其父	-11.5076
芸苗秋	-11.5076
若此而已	-11.5076
要之道以順	-11.5076
閒字坐字參字	-11.5076
雞初鳴咸盥潄	-11.5076
㒺	-11.5076
三終主人獻之	-11.5076
上祀四世與	-11.5076
下則當恭	-11.5076
下祀四世	-11.5076
不敢加於	-11.5076
之子孫保之故	-11.5076
乎親不可以為	-11.5076
事親始終之道	-11.5076
云親猶愛也	-11.5076
五虐之	-11.5076
亦不免有離析増加之失顧自	-11.5076
享人鬼尚幽	-11.5076
仁人孝子愛親之心雖	-11.5076
以人之行言之則	-11.5076
以飬父母日嚴	-11.5076
仰觀俯察之	-11.5076
何過之有	-11.5076
信而好古	-11.5076
傳中間有不成語雖疑其有	-11.5076
先王上有參字	-11.5076
凡十三家雖義有精粗	-11.5076
刑之所能禁	-11.5076
制後為室	-11.5076
則必有以處此矣然	-11.5076
則是未嘗有	-11.5076
升中于天	-11.5076
又云善則稱人過則稱己則民	-11.5076
又増子曰及	-11.5076
又申言	-11.5076
受命於髙祖	-11.5076
可以贊天	-11.5076
右傳之二章	-11.5076
命降於社之	-11.5076
嘉之㑹也利	-11.5076
嘘	-11.5076
四月己丑	-11.5076
因性明教	-11.5076
土地之厚	-11.5076
在吾仁之中無一事	-11.5076
在蒙幼	-11.5076
圭九寸	-11.5076
地有常利言人法	-11.5076
堂矣未入於室	-11.5076
堪講授	-11.5076
報反惡如字又	-11.5076
壊孔子宅得古文	-11.5076
士民乎故得百姓之	-11.5076
多傅㑹而經文	-11.5076
夫子没後	-11.5076
子之大戒也	-11.5076
子之始存於	-11.5076
子曰舜其大孝也與徳為聖人	-11.5076
子語然於文理無害引詩亦足以	-11.5076
孝悌之至通於神明光于四海	-11.5076
孰能順民如此其大者乎	-11.5076
室祀天	-11.5076
封於邰	-11.5076
尊敬其父者至矣極矣不可以復加矣然	-11.5076
小聘三年	-11.5076
己之鵠	-11.5076
帝于郊	-11.5076
徙	-11.5076
復申言聖人教人以孝之故	-11.5076
感時之變	-11.5076
成湯之	-11.5076
我之愛既	-11.5076
所當然皆來助	-11.5076
所謂古文者亦不全同今不敢從彼改此	-11.5076
按説文云	-11.5076
援神契自天子至庶人	-11.5076
故能成其徳教而行政令	-11.5076
敏達也言參不達何足知此	-11.5076
於民而民	-11.5076
時之氣春	-11.5076
曰善哉	-11.5076
服田力	-11.5076
未施敬於民而民敬	-11.5076
束民性而法	-11.5076
梧	-11.5076
森	-11.5076
正而天下歸之	-11.5076
汪	-11.5076
漢以來諸儒傳誦	-11.5076
炎	-11.5076
為人子為人弟為人臣者	-11.5076
焉學之為	-11.5076
爲下而亂則刑在醜而爭則兵	-11.5076
猶未至於行道也	-11.5076
生此王國	-11.5076
疏用廣𤼵揮	-11.5076
百世不祧之宗	-11.5076
皆有以事其生	-11.5076
祭敬供郊廟之	-11.5076
禮俗刑	-11.5076
積於中則	-11.5076
箕	-11.5076
紆	-11.5076
紕繆	-11.5076
織	-11.5076
義之和也貞	-11.5076
而繼禰	-11.5076
而能如此乎	-11.5076
聚橡栗藜藿而食之	-11.5076
聚羣嚮	-11.5076
脉絡貫通同是	-11.5076
自分經傳	-11.5076
舉天下之大無一物	-11.5076
舉農畝之事順四	-11.5076
艱	-11.5076
親者必於人無不	-11.5076
言春秋則包四時矣	-11.5076
言行皆滿於天下	-11.5076
許慎説文所引孝經	-11.5076
謂父為君以臨於己恩義	-11.5076
貎也尹氏爲太師周之三公也	-11.5076
賀	-11.5076
賈之屬皆是也	-11.5076
賊姦軌	-11.5076
足以勝之	-11.5076
退動静也不越禮法則可度也	-11.5076
逼	-11.5076
鄉道而行中道而廢	-11.5076
鑒諦	-11.5076
開元七年	-11.5076
闥	-11.5076
隆於父一本故也致一而後能誠知本而	-11.5076
鞠	-11.5076
齊詩魯詩	-11.5076
龍柱棄	-11.5076
廣至德章第十	-11.5076
吾聞諸	-11.5076
無有遺忘其親者	-11.5076
所敬者寡而悦者衆	-11.5076
敕	-11.5077
於衣衣	-11.5077
爵禄而守其祭祀	-11.5077
仁之𤼵為愛	-11.5077
撮其樞要	-11.5077
春生夏長秋收冬蔵	-11.5077
凡此者皆	-11.5077
到户至日見而語之但行孝於内其化自	-11.5077
教不必家	-11.5077
者比比	-11.5077
三日不怠三月不解期悲哀	-11.5077
不待肅而自成其政不待嚴而自治	-11.5077
勲	-11.5077
反塞先	-11.5077
史館檢討	-11.5077
天無二日土無二王	-11.5077
後能孝故移孝以事君則為忠	-11.5077
極其悌矣以	-11.5077
行仁必自孝始	-11.5077
上帝即天也	-11.5077
之親子也賢則親之無能則憐之母親而	-11.5077
也膝下謂孩	-11.5077
公賦旣充則私養不闕	-11.5077
别立一廟	-11.5077
則當和順以	-11.5077
則虧孝道故	-11.5077
善皆在於凶徳	-11.5077
在上在一國臣民之上驕矜肆	-11.5077
尊無與對而能以已之父與之	-11.5077
居上而驕則失道而取亡	-11.5077
帝也周公之所以	-11.5077
帝則以文王配	-11.5077
廣雅云	-11.5077
復次第申	-11.5077
敬親而後敬人	-11.5077
春秋祭祀以寓時思	-11.5077
植成遂	-11.5077
無有遺其親者	-11.5077
無窮而立經陳紀制禮之節	-11.5077
爭鬭之	-11.5077
爲德本	-11.5077
父之親子也親賢而	-11.5077
而不親水之於民也親而不尊火尊而不	-11.5077
能保其爵祿	-11.5077
衣食既足	-11.5077
親土之於民也親而不尊天尊而不親	-11.5077
言斯可道	-11.5077
謹身節用以養父母此庻人之孝也	-11.5077
身體髮膚受之父母	-11.5077
郊則尊之而	-11.5077
馴	-11.5077
也無不知敬其兄	-11.5077
哲之王以孝道而治理天下也	-11.5077
天地參為三才	-11.5077
夫子答曽子之問	-11.5077
夫然者上孝理皆得懽	-11.5077
小國之臣至卑者耳王	-11.5077
我之敬既盡則人亦興	-11.5077
掦名顯	-11.5077
擴	-11.5077
敬其父尊敬其父者亦無所不至而莫大	-11.5077
服飾言行須遵禮典非	-11.5077
況於五等諸侯是廣敬也	-11.5077
祭享謂四時及禘	-11.5077
立極之統無以常其	-11.5077
者也未有孝而不	-11.5077
者莫有大於	-11.5077
親者無所不至而莫	-11.5077
可盡從乃	-11.5078
子從父之令夫子以令有善惡不	-11.5078
死無憾	-11.5078
申而演之	-11.5078
上有此字	-11.5078
爭臣三人雖無道不失其家	-11.5078
則傷痛而哀戚之其祖	-11.5079
必得吉而安厝之	-11.5079
餞也女擗男踊號哭涕泣	-11.5079
紛	-11.5079
上等侯伯	-11.5079
二百里男	-11.5079
百里侯四百里伯三百里子	-11.5079
吾之一身父母生之本同體也	-11.5079
存殁頓異	-11.5079
于文武	-11.5079
壯	-11.5079
於門外	-11.5079
胎	-11.5079
雄	-11.5079
公事畢	-11.5079
冬至祀天于	-11.5079
姓言百	-11.5079
安國之本亡	-11.5079
楷	-11.5079
神農黄帝	-11.5079
萃萬國之懽心	-11.5079
諸父諸兄	-11.5079
㨿	-11.5079
不事不仁	-11.5079
不孝乃是大亂之道	-11.5079
之威有儀而可象	-11.5079
之端惡者愛之反慢者敬之反	-11.5079
乎道路至乎	-11.5079
也人之百行	-11.5079
五子之歌	-11.5079
人倫正性	-11.5079
今去其世七百	-11.5079
以鬼而禮享之及其	-11.5079
作參音同義别	-11.5079
則上章云	-11.5079
則危亡之禍	-11.5079
卿大夫遵守禮法不敢僭上偪	-11.5079
句上有子曰二字	-11.5079
喪與其易也	-11.5079
天性非由	-11.5079
寒暑變遷益用増感	-11.5079
尊為天子富有四海之内宗廟	-11.5079
山林川谷丘	-11.5079
必得其位必得其禄必得其名必得其夀	-11.5079
愛親而後愛	-11.5079
按文王世	-11.5079
敬而能之也故	-11.5079
明項霦撰	-11.5079
春雨既濡	-11.5079
有威而可畏謂	-11.5079
有序而和者未有不	-11.5079
有終有始	-11.5079
有遺民	-11.5079
服飾言行	-11.5079
横乎四海	-11.5079
比户可	-11.5079
滛	-11.5079
為慈愛得地之性	-11.5079
犯分而致刑在醜而爭則	-11.5079
異者祇	-11.5079
百官有司莫	-11.5079
祀非禮與曰	-11.5079
秋大享	-11.5079
立愛惟親	-11.5079
經常也利物	-11.5079
老窮不遺强不犯弱衆不暴寡	-11.5079
者俯而就之不	-11.5079
臣而用子	-11.5079
與張南軒	-11.5079
舉事順時	-11.5079
蒐	-11.5079
處衆而不可爭競	-11.5079
言人有上三惡豈惟	-11.5079
論二程遺書	-11.5079
負劍辟咡	-11.5079
閒音閑	-11.5079
閨門章二十四字	-11.5079
雷霆	-11.5079
顔囘	-11.5079
風俗移易先入樂聲	-11.5079
上下之際	-11.5079
不載其名	-11.5079
之意亦見于言表	-11.5079
也以此坊民民猶忘其親	-11.5079
也其衣三章裳	-11.5079
也注移事至	-11.5079
也郊之祭也	-11.5079
事之以哀戚生	-11.5079
五行之秀氣	-11.5079
人無貴賤	-11.5079
六家之異同會五經之	-11.5079
其本性立教	-11.5079
則吾與慮	-11.5079
則敬親敬	-11.5079
則逺於先人之	-11.5079
南宫縚	-11.5079
厥後今文	-11.5079
取于事父之行	-11.5079
古文稱孔安國	-11.5079
哀公十四年	-11.5079
唐宫闈不肅	-11.5079
地之化育	-11.5079
大報本反始也	-11.5079
好如字又呼	-11.5079
如前所云者	-11.5079
宗祀謂宗廟之祭也	-11.5079
尊后稷猶	-11.5079
庻人章第六	-11.5079
心太剛	-11.5079
於樂之聲節起自黄帝也	-11.5079
書以為春秋之	-11.5079
曾晳之	-11.5079
有所不受於	-11.5079
有虞之不郊	-11.5079
此孝道之有	-11.5079
此物此志也	-11.5079
歴代天子	-11.5079
漫	-11.5079
狀曰周禮禮記毛詩尚書公羊左傳孝	-11.5079
稼以老十室之邑	-11.5079
經論語孔鄭王何服杜等	-11.5079
縁	-11.5079
者南方之	-11.5079
者按禮記内則	-11.5079
而無遺矣	-11.5079
而罪莫大於不孝	-11.5079
衆志平	-11.5079
言用賢	-11.5079
資於天地得其	-11.5079
趙簡子	-11.5079
郊祀祭天則以	-11.5079
銅	-11.5079
鞶	-11.5079
驩心以事其先	-11.5079
不聽則號泣而隨之	-11.5079
自上以下降殺以兩	-11.5079
子弟及臣	-11.5079
民不附	-11.5079
以要道施化化行	-11.508
天子卿大夫有善	-11.508
彰亦明道德相成所以互	-11.508
矣故以喪	-11.508
要道先於至	-11.508
陷于不	-11.508
歠粥	-11.508
族故宗廟嚴	-11.5081
耘	-11.5081
若公與族燕則異姓為賔膳宰為主	-11.5081
辱先祖而毁盛業也	-11.5081
中忠孝道著乃能揚名榮親	-11.5081
于宗公神罔是怨神罔是	-11.5081
國人稱願然曰幸哉有子如此	-11.5081
於君則爲忠矣	-11.5081
義母主恩故也	-11.5081
不過啓其良心	-11.5081
丹朱傲	-11.5081
修齊治平之	-11.5081
匹夫匹婦	-11.5081
右傳之七章	-11.5081
婦事舅姑	-11.5081
季秋於	-11.5081
廣要道之義言	-11.5081
懐保小民恵鮮	-11.5081
是以四海之內	-11.5081
為萬世法	-11.5081
無以加尚之	-11.5081
者教之所自出也	-11.5081
者跂而及之	-11.5081
菽麥蕡稻黍	-11.5081
親得安坐而食乎故曰猶為	-11.5081
諸侯士庶人有善	-11.5081
釁而召兵	-11.5081
驕亂争	-11.5081
上而法之則	-11.5081
下之後周公始制此禮以尊其父文王也	-11.5081
不敢失其驩心則于	-11.5081
不王不禘	-11.5081
不順天道則	-11.5081
事父孝故事天明	-11.5081
人之親則天下之人	-11.5081
君其國故稱曰后稷	-11.5081
始自天子終於	-11.5081
戚孝行之始終也	-11.5081
父母生子傳體相續人倫之道莫大於斯	-11.5081
物無以生	-11.5081
與共戴天	-11.5081
裝	-11.5081
覺大也義取天子有大德	-11.5081
者樂易之君子也	-11.5081
警	-11.5081
懇	-11.5081
行徳誼	-11.5081
也天以生覆	-11.5081
民之從於	-11.5081
晝	-11.5081
而利導	-11.5082
騁	-11.5082
之棺以周衣	-11.5082
也陳其簠簋奠以素	-11.5082
修身慎行恐辱親也	-11.5082
為墓于郊	-11.5082
為之宗廟以	-11.5082
天子以下至於庶人	-11.5082
子因問而	-11.5082
雩	-11.5082
舌	-11.5082
也而其道通於	-11.5082
豚	-11.5082
法於天下可傳於後	-11.5082
其所好而民不從是故君子有諸	-11.5082
大人之事備	-11.5082
帥天下以暴而民從之其所令反	-11.5082
不忘乎心	-11.5082
泊	-11.5082
狄	-11.5082
聲為哭	-11.5082
夔夔齋慄	-11.5082
人公與父兄齒	-11.5082
天下達禮	-11.5082
樂自順此生刑自反此作	-11.5082
沽	-11.5082
義勝恩故也	-11.5082
者也禮者體此者也行者行此者也彊者	-11.5082
者也義者宜此者也忠者中此者也信者	-11.5082
譯	-11.5082
不自知也	-11.5082
人謂社稷以此安	-11.5082
以導和	-11.5082
以養諸侯兵不用而諸侯自為正之具也	-11.5082
兄百官皆不欲曰吾	-11.5082
先王之道莫大於孝仲尼之教莫先於孝	-11.5082
分别五土視其高下各盡所宜此分	-11.5082
到	-11.5082
匡其不及	-11.5082
十不俟朝	-11.5082
君以尊高而敬	-11.5082
君牽牲	-11.5082
壇祭月	-11.5082
宗國魯先君	-11.5082
寤	-11.5082
射者各	-11.5082
尊至則愛不極	-11.5082
居高位而不危則不	-11.5082
得兼下下不得	-11.5082
得天之性	-11.5082
恠	-11.5082
愛之心生於孩幼比及年長漸識義方則	-11.5082
所以正君臣父子之别明男女長幼之序	-11.5082
敢不哀	-11.5082
敦仁不	-11.5082
日加尊嚴能致敬於父母也	-11.5082
有終身之憂無一朝之患也乃若所憂則	-11.5082
本諸身	-11.5082
栗飴蜜以甘之	-11.5082
樂盈而	-11.5082
母生之續莫大焉故親生之膝下諸家	-11.5082
浩	-11.5082
炫明安國之本陸澄譏康成之	-11.5082
父母全而生之己當全	-11.5082
禮減而	-11.5082
秫唯所欲棗	-11.5082
絡	-11.5082
而庶人獨	-11.5082
藝文志孝經古孔氏一篇	-11.5082
藻火粉米	-11.5082
號泣而随之	-11.5082
要君非聖非孝之	-11.5082
言事父兼	-11.5082
身以敬親敬親以敬天	-11.5082
逓	-11.5082
銅鞮伯	-11.5082
類聖言亦不類漢儒語是後儒偽作明甚	-11.5082
饘酏酒醴芼	-11.5082
黜	-11.5082
不如是不足以	-11.5082
不讎其君	-11.5082
也宗其繼别子	-11.5082
亡于中夏	-11.5082
亦樂人之	-11.5082
亦無所不通矣	-11.5082
人因之以施	-11.5082
人雖無道亦不失	-11.5082
使教民播種百	-11.5082
使民不以時失國	-11.5082
儒官連狀題其章名	-11.5082
則諸侯以下	-11.5082
劉知幾主古文	-11.5082
及乎仁義旣有親譽益著	-11.5082
司馬貞主今文	-11.5082
同於父非不	-11.5082
君子有終身之	-11.5082
君滅親	-11.5082
唯其所引而之以	-11.5082
問孝子曰	-11.5082
善則稱君過則稱	-11.5082
嘉謀嘉猷	-11.5082
嚴父嚴兄	-11.5082
大報天而主日也兆於南郊就陽位也	-11.5082
天下失性	-11.5082
天惟天為大	-11.5082
夫婦之别	-11.5082
婣	-11.5082
孝而厚於慈	-11.5082
宗其繼髙	-11.5082
富貴而輕	-11.5082
年教之數	-11.5082
廟同堂	-11.5082
弑其君者必	-11.5082
御天地與人	-11.5082
性參天地	-11.5082
悚	-11.5082
悞	-11.5082
情文濫	-11.5082
教一人而千萬人	-11.5082
教諸侯之弟也	-11.5082
敢於毁傷人	-11.5082
昔僧奝然適宋獻鄭注孝經一本	-11.5082
春秋與紀	-11.5082
是世無可	-11.5082
桓公而後	-11.5082
此名而孝經	-11.5082
殺六畜不當及	-11.5082
毋取扵	-11.5082
比及年長漸識義方則日	-11.5082
民莫不興	-11.5082
為無所用而	-11.5082
爲中古	-11.5082
爲甫侯	-11.5082
父母生之君親臨之	-11.5082
王肅蘇林	-11.5082
百志成	-11.5082
祖者五世則遷	-11.5082
禹曰朕	-11.5082
紛紛	-11.5082
絕	-11.5082
義者宜也	-11.5082
者頗多	-11.5082
而戸到	-11.5082
而面命之也	-11.5082
自武王有	-11.5082
至於跡相祖述殆且百家	-11.5082
舉其大數	-11.5082
舉其要而言	-11.5082
舉善而敎不能	-11.5082
萬乗之	-11.5082
衛武公	-11.5082
言謂禮法之言徳行謂道徳之行	-11.5082
謂民之父母矣	-11.5082
財用足	-11.5082
足以及物而	-11.5082
逵	-11.5082
逸者亦不少而孔傳古文孝經全然尚存	-11.5082
郊之祭也迎長日之至也	-11.5082
鄭衆鄭𤣥	-11.5082
配於天地矣	-11.5082
阻	-11.5082
靁	-11.5082
頟	-11.5082
鮑	-11.5082
齋戒沐浴	-11.5082
辯	-11.5082
參性遲	-11.5082
育之恩	-11.5082
人之本性	-11.5083
詩小雅節南山之篇	-11.5083
以示民有終極	-11.5083
敢不敬與	-11.5083
像	-11.5083
主以象	-11.5083
禄位而守其祭祀	-11.5084
其民民皆	-11.5084
有非而從成父不	-11.5084
義理所不可故再言之	-11.5084
也親親故尊祖尊祖故敬宗敬宗故	-11.5084
樂正子春	-11.5084
為庶人冠取妻必告死必赴	-11.5084
等而上之	-11.5084
言臣心愛君	-11.5084
閭巷	-11.5084
㓕性此聖人之政	-11.5084
之敬者終有限	-11.5084
以墨劓	-11.5084
修持其身謹慎其行	-11.5084
兆卦也字書皆作垗廣韻云垗葬也	-11.5084
愛母同	-11.5084
祖言能備此三者則能長守宗廟之祀	-11.5084
稷契之	-11.5084
羊豕三牲之養	-11.5084
聖人立制	-11.5084
能盡敬則祖考來格享於克誠故曰著	-11.5084
至則敬不極	-11.5084
至當歸一精義無二	-11.5084
要道之事而未	-11.5084
遽塗其本編	-11.5084
陳振孫書録解題	-11.5084
三辰運天	-11.5084
下君臣同德故能相親	-11.5084
且傳以通經爲義	-11.5084
之生成萬物者雖以隂陽之	-11.5084
也以至尊	-11.5084
喪親章第十八子曰孝子之喪親也	-11.5084
天於南郊故曰郊	-11.5084
夫聖人之徳又	-11.5084
存則安其	-11.5084
忝厥祖	-11.5084
愛易能而敬難盡	-11.5084
氣然氣以成形而理亦賦	-11.5084
無閒字	-11.5084
父敬兄敬君之心	-11.5084
父母於子一體而	-11.5084
物地以隂成萬物天地	-11.5084
而禍患不及者未之	-11.5084
言教人親愛禮順無加於孝	-11.5084
諸侯各脩其職來助祭	-11.5084
警戒之	-11.5084
身恭謹則逺恥辱用節省	-11.5084
也無念念也聿	-11.5084
而財用	-11.5084
以長守此富也	-11.5084
以長守此貴也處	-11.5084
則身雖居	-11.5084
有其社稷而和調其	-11.5084
親故孝為徳之至	-11.5084
謹守法度則財雖	-11.5084
邢	-11.5085
在一國臣民之上	-11.5085
是亦猶士	-11.5085
存於中則	-11.5085
義取君以樂	-11.5085
道化人則為天下蒼生之父母也	-11.5085
孰重曰	-11.5085
是日也以吉祭易喪祭明日祔	-11.5085
人子能事	-11.5085
列國皆有社稷其君主而祭之	-11.5085
口為言其言也	-11.5085
膾	-11.5085
苽	-11.5085
也忿怒其臣妾	-11.5085
人之所惡也	-11.5085
口體之奉	-11.5085
君夫人皆	-11.5085
祭之日入室僾然必有	-11.5085
能順民心而行	-11.5085
裔	-11.5085
言無大於孝者	-11.5085
闢	-11.5085
順長幼以極孝悌	-11.5085
以此之敬而敬	-11.5085
各敬爾	-11.5085
安得不翦其繁蕪而撮其樞要也	-11.5085
書傳通	-11.5085
然友反命	-11.5085
自然名揚後世光顯其親故行	-11.5085
致樂病	-11.5085
人也我亦人也舜	-11.5085
善事父母為孝而敢非	-11.5085
年一廵守	-11.5085
庶人敢問章為	-11.5085
未免為鄉人也是則可憂也憂之如何如	-11.5085
百官族人可謂曰知	-11.5085
者服言行也禮卿大夫立三廟以奉先	-11.5085
䕃	-11.5085
一百七十二字	-11.5085
下必有甚	-11.5085
不仁不保四	-11.5085
之孝者是謂能養	-11.5085
之素安所以	-11.5085
也王云孝爲	-11.5085
事其父母矣	-11.5085
勝則離是嚴多而愛	-11.5085
卯	-11.5085
卿大夫之行孝也	-11.5085
可以與於祭乎孔子曰	-11.5085
右傳十四則	-11.5085
合䂓矩	-11.5085
埋	-11.5085
孝治章云	-11.5085
季康子	-11.5085
孩幼之時也言親	-11.5085
守祭祀庶人	-11.5085
待于外	-11.5085
我后之徳	-11.5085
故又假曽子之問	-11.5085
教被於	-11.5085
於北郊以	-11.5085
母以鞠育而	-11.5085
氏音例並音經傳庶乎令讀者不誤其音	-11.5085
注上謂君也	-11.5085
煇胞翟閽	-11.5085
猶且敬之	-11.5085
男子治外	-11.5085
矢懸諸	-11.5085
知孝之為大也	-11.5085
維仲山甫舉之	-11.5085
總括一書	-11.5085
義以必當爲主	-11.5085
義見於上	-11.5085
者其盛禮見於	-11.5085
者天下之表也上行	-11.5085
而後和和而後	-11.5085
自父兄始	-11.5085
若非先王	-11.5085
蓍	-11.5085
親猶愛也膝下謂	-11.5085
諸侯自龍袞而下	-11.5085
貴故況	-11.5085
載光書	-11.5085
鋪	-11.5085
錢	-11.5085
限高卑	-11.5085
陵墳衍	-11.5085
隸	-11.5085
麟	-11.5085
夙興夜寐無忝爾所生	-11.5086
男踊女擗	-11.5086
其將葬	-11.5086
誼焉言	-11.5086
敢毁傷孝之始也	-11.5087
也白虎通云	-11.5087
事父孝故能事	-11.5087
君令臣	-11.5087
子曰是何言與是何言與言之不通也	-11.5087
孟子曰天下大	-11.5087
富貴之過也	-11.5087
尸内於棺	-11.5087
尸為棺周棺為椁衣謂歛衣衾被也舉謂	-11.5087
智之性	-11.5087
瞍底豫而天下之為父子者定	-11.5087
紏	-11.5087
而歸已猶草芥也惟舜為然	-11.5087
而瞽瞍底豫瞽瞍底豫而天下化瞽	-11.5087
自驕則雖	-11.5087
小成言	-11.5087
有美不能助	-11.5087
洞	-11.5087
理亦條貫寫之琬琰	-11.5087
而成也有惡不能救而止也激君以	-11.5087
自高謗君以自潔	-11.5087
諫以為身而不為君也是以上下相	-11.5087
進則面從退有	-11.5087
之綱領	-11.5087
五峰語録	-11.5087
以事父之心而事君則忠矣	-11.5087
俛	-11.5087
則私養不闕	-11.5087
教之以臣使凡為人	-11.5087
睦以致太平則災害禍亂無因而起	-11.5087
親昵而	-11.5087
道心純一	-11.5087
以施教于	-11.5087
則不待嚴肅而成理也	-11.5087
升公朝離親入仕	-11.5087
天以陽生	-11.5087
宜黍稷下	-11.5087
盡孝之大而	-11.5087
棺椁衣衾	-11.5087
不期侈	-11.5088
其哭也不偯氣竭而盡不能委曲	-11.5088
國之主也	-11.5088
順天下人心而	-11.5088
棺衣衾以周身然後舉而	-11.5088
粉	-11.5088
腒	-11.5088
鹹	-11.5088
蔬	-11.5088
庿	-11.5088
奮	-11.5088
□	-11.5088
喟	-11.5088
毎	-11.5088
烹	-11.5088
芑	-11.5088
蒲	-11.5088
蓬	-11.5089
諧	-11.5089
諦	-11.5091
樞	-11.5092
沈	-11.5092
翟	-11.5092
銷	-11.5092
祊	-11.5092
渾	-11.5092
軒	-11.5092
馨	-11.5092
向	-11.5092
脂	-11.5093
拓	-11.5093
澹	-11.5095
藜	-11.5095
賁	-11.5095
軸	-11.5095
嵎	-11.5095
彘	-11.5095
洙	-11.5095
滂	-11.5095
貿	-11.5095
趾	-11.5095
騫	-11.5095
沮	-11.5096
殄	-11.5096
個	-11.5096
㕘	-11.5098
腥	-11.5098
蠢	-11.5099
筵	-11.5101
密	-11.5101
庾	-11.5101
羶	-11.5101
劍	-11.5101
汰	-11.5101
蕪	-11.5101
逢	-11.5101
麛	-11.5104
賵	-11.5104
隐	-11.5104
穿	-11.5107
恂	-11.5107
疇	-11.5107
禚	-11.5107
􁏉	-11.5107
歠	-11.5111
蟻	-11.5117
黍	-11.5118
酏	-11.512
贏	-11.5123
虗	-11.5123
貝	-11.5126
筭	-11.5129
浪	-12.3971
豉	-12.4279
」	-12.4801
扞	-12.4831
慷	-12.4871
諏	-12.4871
䑕	-12.4927
汧	-12.4927
渭	-12.4927
翳	-12.4927
嬴	-12.4935
岐	-12.4935
涯	-12.4935
廈	-12.4951
栩	-12.4967
旹	-12.4975
謏	-12.4975
紕	-12.4983
叫	-12.4983
囂	-12.4983
悍	-12.4983
確	-12.4983
紹	-12.4983
縞	-12.4983
茫	-12.4983
曺	-12.4987
䛕	-12.4991
値	-12.4991
札	-12.4991
研	-12.4991
讚	-12.4991
涌	-12.4999
嘬	-12.4999
圃	-12.4999
曳	-12.4999
梩	-12.4999
楫	-12.4999
櫽	-12.4999
狸	-12.4999
窽	-12.4999
綮	-12.4999
蘊	-12.4999
虆	-12.4999
蚋	-12.4999
蠅	-12.4999
糟	-12.5007
羔	-12.5007
午	-12.5007
㐮	-12.5007
尗	-12.5007
愍	-12.5007
憮	-12.5007
桂	-12.5007
炤	-12.5007
薨	-12.5009
悽	-12.5015
汲	-12.5015
兕	-12.5015
哿	-12.5015
夹	-12.5015
庖	-12.5015
愀	-12.5015
慄	-12.5015
掬	-12.5015
汶	-12.5015
洎	-12.5015
滓	-12.5015
狂	-12.5015
瑩	-12.5015
瘁	-12.5015
策	-12.5015
紟	-12.5015
舫	-12.5015
薛	-12.5015
袂	-12.5015
謔	-12.5015
飱	-12.5023
丸	-12.5023
仔	-12.5023
卺	-12.5023
吻	-12.5023
啁	-12.5023
墊	-12.5023
妁	-12.5023
娣	-12.5023
媒	-12.5023
廩	-12.5023
弦	-12.5023
弨	-12.5023
弭	-12.5023
懣	-12.5023
掊	-12.5023
撃	-12.5023
汜	-12.5023
猥	-12.5023
盟	-12.5023
祜	-12.5023
箭	-12.5023
耒	-12.5023
衽	-12.5023
謷	-12.5023
輈	-12.5023
冲	-12.5026
錮	-12.503
饔	-12.5031
勺	-12.5031
嘯	-12.5031
孛	-12.5031
宄	-12.5031
寬	-12.5031
彤	-12.5031
怕	-12.5031
擯	-12.5031
朢	-12.5031
枘	-12.5031
榱	-12.5031
淆	-12.5031
眩	-12.5031
稂	-12.5031
笳	-12.5031
箧	-12.5031
籬	-12.5031
耋	-12.5031
腊	-12.5031
腯	-12.5031
腰	-12.5031
莠	-12.5031
蠭	-12.5031
蹀	-12.5031
釁	-12.5031
峯	-12.5035
蒯	-12.5036
僎	-12.5038
劣	-12.5039
牟	-12.5039
健	-12.5039
儿	-12.5039
兖	-12.5039
兾	-12.5039
剡	-12.5039
劃	-12.5039
卉	-12.5039
啐	-12.5039
啗	-12.5039
寂	-12.5039
巢	-12.5039
恡	-12.5039
扆	-12.5039
晩	-12.5039
枻	-12.5039
漁	-12.5039
澆	-12.5039
玷	-12.5039
瑜	-12.5039
皦	-12.5039
眉	-12.5039
窒	-12.5039
竇	-12.5039
笲	-12.5039
耼	-12.5039
肓	-12.5039
肯	-12.5039
肱	-12.5039
脗	-12.5039
覽	-12.5039
販	-12.5039
踟	-12.5039
蹰	-12.5039
煢	-12.5039
億	-12.5045
璋	-12.5047
琴	-12.5047
瑟	-12.5047
㸃	-12.5047
䑓	-12.5047
伋	-12.5047
偹	-12.5047
僃	-12.5047
兊	-12.5047
冒	-12.5047
凷	-12.5047
匜	-12.5047
呶	-12.5047
埏	-12.5047
埴	-12.5047
巵	-12.5047
悵	-12.5047
愫	-12.5047
慣	-12.5047
敶	-12.5047
暌	-12.5047
枚	-12.5047
椓	-12.5047
楣	-12.5047
涗	-12.5047
渥	-12.5047
濁	-12.5047
片	-12.5047
甄	-12.5047
甥	-12.5047
癠	-12.5047
盍	-12.5047
眚	-12.5047
祸	-12.5047
篠	-12.5047
簚	-12.5047
紖	-12.5047
紙	-12.5047
絞	-12.5047
緌	-12.5047
葸	-12.5047
藎	-12.5047
藟	-12.5047
諐	-12.5047
譝	-12.5047
蹢	-12.5047
躅	-12.5047
輴	-12.5047
鞮	-12.5047
删	-12.5048
怵	-12.5051
僖	-12.5053
觶	-12.5053
燧	-12.5054
鑽	-12.5055
撤	-12.5055
㢠	-12.5055
䄠	-12.5055
䊷	-12.5055
䋲	-12.5055
䘚	-12.5055
俶	-12.5055
凉	-12.5055
凛	-12.5055
刼	-12.5055
吁	-12.5055
噦	-12.5055
嚏	-12.5055
圗	-12.5055
夸	-12.5055
娯	-12.5055
宓	-12.5055
宼	-12.5055
屯	-12.5055
帨	-12.5055
庇	-12.5055
廐	-12.5055
廻	-12.5055
惏	-12.5055
扇	-12.5055
拄	-12.5055
撟	-12.5055
擁	-12.5055
斆	-12.5055
暍	-12.5055
棠	-12.5055
汗	-12.5055
活	-12.5055
淡	-12.5055
渇	-12.5055
潘	-12.5055
澣	-12.5055
燁	-12.5055
爻	-12.5055
瑑	-12.5055
瓛	-12.5055
睇	-12.5055
矧	-12.5055
碩	-12.5055
禆	-12.5055
窆	-12.5055
笏	-12.5055
算	-12.5055
簜	-12.5055
紉	-12.5055
綍	-12.5055
綵	-12.5055
綻	-12.5055
縂	-12.5055
署	-12.5055
耐	-12.5055
脆	-12.5055
脉	-12.5055
茝	-12.5055
莾	-12.5055
菓	-12.5055
蘭	-12.5055
謠	-12.5055
貸	-12.5055
跣	-12.5055
輅	-12.5055
頓	-12.5055
侃	-12.5057
泂	-12.5057
潤	-12.5058
㬥	-12.5059
㷀	-12.5059
个	-12.5059
挍	-12.5059
暱	-12.5059
曷	-12.5059
炳	-12.5059
玦	-12.5059
痌	-12.5059
督	-12.5059
証	-12.5059
詆	-12.5059
頖	-12.506
狠	-12.506
奄	-12.5061
峙	-12.5061
綺	-12.5061
舂	-12.5061
超	-12.5061
囘	-12.5062
亥	-12.5062
鈇	-12.5062
鉞	-12.5062
晚	-12.5062
廉	-12.5063
竈	-12.5063
祁	-12.5063
雎	-12.5063
槌	-12.5063
賾	-12.5063
響	-12.5063
燔	-12.5063
㝢	-12.5063
䜴	-12.5063
乳	-12.5063
侏	-12.5063
僿	-12.5063
冑	-12.5063
冝	-12.5063
判	-12.5063
勑	-12.5063
卲	-12.5063
厠	-12.5063
呈	-12.5063
咈	-12.5063
唱	-12.5063
喙	-12.5063
嘿	-12.5063
型	-12.5063
塵	-12.5063
媿	-12.5063
孱	-12.5063
廂	-12.5063
彫	-12.5063
徭	-12.5063
恍	-12.5063
戕	-12.5063
技	-12.5063
捍	-12.5063
探	-12.5063
撅	-12.5063
旂	-12.5063
朞	-12.5063
柢	-12.5063
桼	-12.5063
梗	-12.5063
椎	-12.5063
榆	-12.5063
榦	-12.5063
槪	-12.5063
汾	-12.5063
滫	-12.5063
漱	-12.5063
瀡	-12.5063
爚	-12.5063
牙	-12.5063
畤	-12.5063
癢	-12.5063
眀	-12.5063
眠	-12.5063
睹	-12.5063
瞠	-12.5063
秬	-12.5063
稀	-12.5063
竞	-12.5063
箎	-12.5063
紞	-12.5063
紬	-12.5063
繻	-12.5063
罇	-12.5063
耉	-12.5063
脈	-12.5063
脰	-12.5063
臼	-12.5063
芽	-12.5063
茹	-12.5063
衢	-12.5063
褘	-12.5063
詹	-12.5063
謖	-12.5063
貊	-12.5063
買	-12.5063
蹖	-12.5063
躡	-12.5063
靖	-12.5063
駟	-12.5063
傼	-12.5064
場	-12.5064
擾	-12.5064
魂	-12.5064
襧	-12.5064
陰	-12.5065
曩	-12.5065
罸	-12.5065
穡	-12.5067
䕫	-12.5067
䜿	-12.5067
堇	-12.5067
堲	-12.5067
慟	-12.5067
掇	-12.5067
枌	-12.5067
槃	-12.5067
泳	-12.5067
淚	-12.5067
渊	-12.5067
絮	-12.5067
線	-12.5067
荁	-12.5067
薧	-12.5067
襌	-12.5067
誄	-12.5067
㓙	-12.5069
渠	-12.5071
㨗	-12.5071
㫮	-12.5071
价	-12.5071
倘	-12.5071
兀	-12.5071
刲	-12.5071
剩	-12.5071
咤	-12.5071
墢	-12.5071
媟	-12.5071
嬪	-12.5071
孕	-12.5071
屠	-12.5071
岱	-12.5071
巨	-12.5071
忻	-12.5071
悝	-12.5071
扑	-12.5071
拒	-12.5071
挽	-12.5071
摸	-12.5071
概	-12.5071
汁	-12.5071
溯	-12.5071
灾	-12.5071
熛	-12.5071
牕	-12.5071
珎	-12.5071
瞎	-12.5071
穩	-12.5071
簞	-12.5071
紜	-12.5071
縏	-12.5071
縫	-12.5071
纁	-12.5071
臻	-12.5071
荼	-12.5071
蔀	-12.5071
薫	-12.5071
虹	-12.5071
蜼	-12.5071
螫	-12.5071
衿	-12.5071
袠	-12.5071
裼	-12.5071
謭	-12.5071
豬	-12.5071
蹶	-12.5071
遏	-12.5071
鞭	-12.5071
罄	-12.5073
㧞	-12.5075
㽦	-12.5075
傑	-12.5075
僇	-12.5075
寜	-12.5075
摰	-12.5075
添	-12.5075
灼	-12.5075
畿	-12.5075
苔	-12.5075
諉	-12.5075
豪	-12.5075
冦	-12.5077
鷩	-12.5078
跛	-12.5079
彚	-12.5079
㐫	-12.5079
䘏	-12.5079
䟦	-12.5079
伶	-12.5079
傍	-12.5079
准	-12.5079
占	-12.5079
墐	-12.5079
妨	-12.5079
姙	-12.5079
寝	-12.5079
幅	-12.5079
惲	-12.5079
戍	-12.5079
扛	-12.5079
抔	-12.5079
挈	-12.5079
揜	-12.5079
斃	-12.5079
樽	-12.5079
泫	-12.5079
洿	-12.5079
濕	-12.5079
煎	-12.5079
爓	-12.5079
瘞	-12.5079
癃	-12.5079
瞚	-12.5079
窘	-12.5079
竅	-12.5079
笙	-12.5079
篋	-12.5079
綠	-12.5079
綽	-12.5079
繢	-12.5079
群	-12.5079
耦	-12.5079
耿	-12.5079
膟	-12.5079
莖	-12.5079
莱	-12.5079
藍	-12.5079
蠧	-12.5079
衅	-12.5079
袐	-12.5079
襡	-12.5079
覧	-12.5079
話	-12.5079
贋	-12.5079
墮	-12.5083
秔	-12.5083
稲	-12.5083
腐	-12.5083
苖	-12.5083
葺	-12.5083
螻	-12.5083
俎	-12.5086
霆	-12.5087
㻛	-12.5087
䨇	-12.5087
倨	-12.5087
儺	-12.5087
冀	-12.5087
刵	-12.5087
剛	-12.5087
募	-12.5087
勩	-12.5087
壅	-12.5087
壼	-12.5087
寃	-12.5087
嵩	-12.5087
廼	-12.5087
彖	-12.5087
恢	-12.5087
戲	-12.5087
挟	-12.5087
挹	-12.5087
擎	-12.5087
无	-12.5087
汙	-12.5087
濶	-12.5087
煥	-12.5087
琢	-12.5087
瑣	-12.5087
甑	-12.5087
痺	-12.5087
痼	-12.5087
盲	-12.5087
祉	-12.5087
租	-12.5087
綖	-12.5087
繕	-12.5087
繙	-12.5087
臭	-12.5087
蔓	-12.5087
蔞	-12.5087
蔟	-12.5087
薶	-12.5087
蛾	-12.5087
蜡	-12.5087
袋	-12.5087
詀	-12.5087
詈	-12.5087
認	-12.5087
讐	-12.5087
豊	-12.5087
豺	-12.5087
贍	-12.5087
軜	-12.5087
錦	-12.5087
稼	-12.5091
燭	-12.5091
獺	-12.5091
罻	-12.5091
零	-12.5091
盗	-12.5095
餼	-12.5095
俞	-12.5095
劄	-12.5095
卵	-12.5095
厄	-12.5095
噏	-12.5095
園	-12.5095
塘	-12.5095
孥	-12.5095
廹	-12.5095
惬	-12.5095
想	-12.5095
慰	-12.5095
戱	-12.5095
携	-12.5095
杼	-12.5095
槖	-12.5095
様	-12.5095
歉	-12.5095
渝	-12.5095
滄	-12.5095
澳	-12.5095
碏	-12.5095
稾	-12.5095
穧	-12.5095
穯	-12.5095
紅	-12.5095
紘	-12.5095
紝	-12.5095
聦	-12.5095
胤	-12.5095
菑	-12.5095
蕭	-12.5095
虔	-12.5095
誑	-12.5095
讌	-12.5095
豹	-12.5095
刅	-12.5099
怙	-12.5099
看	-12.5099
蹷	-12.5099
禽	-12.5101
倒	-12.5103
㦧	-12.5103
䥫	-12.5103
仆	-12.5103
伍	-12.5103
儻	-12.5103
凢	-12.5103
宂	-12.5103
廸	-12.5103
撻	-12.5103
斑	-12.5103
柳	-12.5103
歙	-12.5103
浙	-12.5103
溜	-12.5103
滯	-12.5103
滴	-12.5103
焯	-12.5103
版	-12.5103
犨	-12.5103
璞	-12.5103
瓜	-12.5103
癉	-12.5103
盤	-12.5103
睥	-12.5103
穗	-12.5103
筦	-12.5103
紇	-12.5103
縮	-12.5103
腑	-12.5103
臟	-12.5103
莘	-12.5103
軫	-12.5103
呵	-12.5107
斵	-12.5107
榜	-12.5107
橿	-12.5107
泝	-12.5107
瀆	-12.5111
惻	-12.5111
戊	-12.5111
陛	-12.5111
䜛	-12.5111
乂	-12.5111
付	-12.5111
冥	-12.5111
劒	-12.5111
勘	-12.5111
夥	-12.5111
奕	-12.5111
寔	-12.5111
懌	-12.5111
換	-12.5111
擢	-12.5111
旭	-12.5111
昃	-12.5111
昉	-12.5111
杵	-12.5111
涅	-12.5111
溺	-12.5111
漂	-12.5111
濮	-12.5111
猗	-12.5111
獮	-12.5111
祠	-12.5111
禎	-12.5111
禴	-12.5111
臚	-12.5111
莒	-12.5111
藐	-12.5111
訃	-12.5111
詒	-12.5111
讞	-12.5111
踴	-12.5111
躃	-12.5111
閑	-12.5111
波	-12.5115
虵	-12.5115
妬	-12.512
捨	-12.512
撓	-12.512
撥	-12.512
橋	-12.512
沓	-12.512
洧	-12.512
璣	-12.512
紾	-12.512
絫	-12.512
茲	-12.512
菅	-12.512
萊	-12.512
嬉	-12.5124
戯	-12.5124
睽	-12.5124
䄂	-12.5128
姚	-12.5128
敞	-12.5128
櫛	-12.5128
珩	-12.5128
疵	-12.5128
穢	-12.5128
笱	-12.5128
絅	-12.5128
諶	-12.5128
讟	-12.5128
喘	-12.5132
稅	-12.5132
麥	-12.5135
醬	-12.5136
醯	-12.5136
擣	-12.5136
漬	-12.5136
漿	-12.5136
炮	-12.5136
稌	-12.5136
筠	-12.5136
糝	-12.5136
臊	-12.5136
芥	-12.5136
莞	-12.5136
蓼	-12.5136
薌	-12.5136
薤	-12.5136
藙	-12.5136
圩	-12.5144
姆	-12.5144
桐	-12.5144
姒	-12.5152
砥	-12.5152
礪	-12.5152
劑	-12.516
懾	-12.516
杯	-12.516
槩	-12.516
澡	-12.516
翹	-12.516
肝	-12.516
肸	-12.516
脾	-12.516
促	-12.5176
偩	-12.5176
旐	-12.5176
綢	-12.5176
羃	-12.5176
褚	-12.5176
慍	-12.5192
𨗳	-13.8225
鼈	-13.8226
鹽	-13.8227
鴆	-13.8228
鯉	-13.8229
騶	-13.823
騖	-13.8231
騂	-13.8232
馭	-13.8233
餐	-13.8234
飴	-13.8235
頭	-13.8236
頡	-13.8237
電	-13.8238
隘	-13.8239
闈	-13.824
醤	-13.8241
鄲	-13.8242
邯	-13.8243
蹤	-13.8244
跼	-13.8245
跖	-13.8246
跋	-13.8247
貍	-13.8248
譜	-13.8249
譎	-13.825
評	-13.8251
褓	-13.8252
褊	-13.8253
装	-13.8254
蜜	-13.8255
蘩	-13.8256
蘧	-13.8257
蘋	-13.8258
藿	-13.8259
蕡	-13.826
蔣	-13.8261
葱	-13.8262
菁	-13.8263
苢	-13.8264
芼	-13.8265
芸	-13.8266
芣	-13.8267
芐	-13.8268
舶	-13.8269
脯	-13.827
胼	-13.8271
胝	-13.8272
肢	-13.8273
肚	-13.8274
聯	-13.8275
耀	-13.8276
翣	-13.8277
羇	-13.8278
罍	-13.8279
纘	-13.828
縰	-13.8281
縚	-13.8282
緫	-13.8283
粲	-13.8284
簿	-13.8285
箇	-13.8286
笄	-13.8287
突	-13.8288
秫	-13.8289
禝	-13.829
祺	-13.8291
礫	-13.8292
磯	-13.8293
皿	-13.8294
的	-13.8295
皂	-13.8296
瘍	-13.8297
瑶	-13.8298
琳	-13.8299
獵	-13.83
獀	-13.8301
燥	-13.8302
燃	-13.8303
熱	-13.8304
熬	-13.8305
焦	-13.8306
灰	-13.8307
濩	-13.8308
滑	-13.8309
溥	-13.831
湼	-13.8311
洩	-13.8312
洟	-13.8313
泓	-13.8314
毖	-13.8315
殮	-13.8316
殉	-13.8317
歐	-13.8318
橡	-13.8319
椑	-13.832
核	-13.8321
栢	-13.8322
杝	-13.8323
曄	-13.8324
旡	-13.8325
数	-13.8326
揀	-13.8327
掖	-13.8328
拊	-13.8329
慾	-13.833
慧	-13.8331
態	-13.8332
徼	-13.8333
幬	-13.8334
帙	-13.8335
巴	-13.8336
峰	-13.8337
岷	-13.8338
宙	-13.8339
奴	-13.834
奈	-13.8341
壑	-13.8342
墟	-13.8343
嘏	-13.8344
喣	-13.8345
咡	-13.8346
吿	-13.8347
叢	-13.8348
厨	-13.8349
卓	-13.835
匿	-13.8351
匐	-13.8352
匏	-13.8353
匍	-13.8354
刊	-13.8355
冶	-13.8356
冔	-13.8357
冄	-13.8358
僾	-13.8359
僚	-13.836
侑	-13.8361
亭	-13.8362
餞	-13.8363
餒	-13.8364
飜	-13.8365
錐	-13.8366
醩	-13.8367
週	-13.8368
蹐	-13.8369
護	-13.837
誹	-13.8371
袖	-13.8372
縠	-13.8373
緇	-13.8374
疫	-13.8375
爌	-13.8376
燒	-13.8377
燂	-13.8378
熯	-13.8379
掃	-13.838
憐	-13.8381
怍	-13.8382
巫	-13.8383
屍	-13.8384
媚	-13.8385
壝	-13.8386
匱	-13.8387
俚	-13.8388
鳲	-13.8389
騎	-13.839
遙	-13.8391
蹇	-13.8392
讇	-13.8393
誣	-13.8394
觿	-13.8395
褒	-13.8396
衮	-13.8397
笞	-13.8398
禖	-13.8399
皥	-13.84
煖	-13.8401
濡	-13.8402
潄	-13.8403
曠	-13.8404
振	-13.8405
拳	-13.8406
抵	-13.8407
徑	-13.8408
巘	-13.8409
嫄	-13.841
奝	-13.8411
夔	-13.8412
垗	-13.8413
啻	-13.8414
亹	-13.8415
鼻	-13.8416
驩	-13.8417
鉤	-13.8418
賣	-13.8419
譚	-13.842
籩	-13.8421
禫	-13.8422
柰	-13.8423
斗	-13.8424
婉	-13.8425
奇	-13.8426
塊	-13.8427
僧	-13.8428
亮	-13.8429
齡	-13.843
頊	-13.8431
郡	-13.8432
袞	-13.8433
苫	-13.8434
監	-13.8435
昆	-13.8436
悒	-13.8437
孜	-13.8438
姜	-13.8439
央	-13.844
堊	-13.8441
凊	-13.8442
仇	-13.8443
韓	-13.8444
郉	-13.8445
邵	-13.8446
聰	-13.8447
粟	-13.8448
殞	-13.8449
晏	-13.845
尾	-13.8451
翁	-13.8452
粢	-13.8453
晨	-13.8454
憚	-13.8455
嗚	-13.8456
』	-13.8457
『	-13.8458
鐘	-13.8459
股	-13.846
昶	-13.8461
揮	-13.8462
荀	-13.8463
墀	-13.8464
昊	-13.8465
芝	-13.8466
洋	-13.8467
漆	-13.8468
昺	-13.8469
朋	-13.847
夙	-13.8471
