<unk>	0
<s>	0
</s>	0
,	-2.51655
。	-2.72887
、	-4.04254
者	-4.64493
故	-4.89485
!	-4.96592
:「	-5.20858
為	-5.21788
無	-5.26401
於	-5.26984
不	-5.30348
也	-5.33747
是	-5.40087
法	-5.41143
以	-5.41538
?	-5.42125
有	-5.48611
之	-5.50181
菩薩	-5.56295
心	-5.56606
行	-5.5732
。」	-5.58298
中	-5.61218
若	-5.66497
;	-5.6672
如是	-5.69637
此	-5.70179
如來	-5.70198
佛	-5.71827
彼	-5.71948
言	-5.73395
如	-5.78982
得	-5.79642
非	-5.82401
生	-5.83585
而	-5.88915
名	-5.91311
其	-5.9209
諸	-5.92777
見	-5.93404
等	-5.93434
說	-5.93836
二	-5.93859
時	-5.95824
一	-5.97063
已	-5.97397
即	-5.9956
身	-6.03239
相	-6.03367
人	-6.03909
我	-6.03919
及	-6.04765
眾生	-6.04915
一切	-6.10885
所	-6.11923
觀	-6.17574
明	-6.17705
大	-6.19412
三	-6.21188
世尊	-6.21511
皆	-6.21697
智	-6.25718
能	-6.31866
下	-6.32256
住	-6.35146
受	-6.38508
四	-6.38867
當	-6.39363
處	-6.39637
從	-6.41756
作	-6.43738
善	-6.45151
自	-6.45895
至	-6.46198
欲	-6.46209
又	-6.47267
上	-6.47498
謂	-6.47587
▁	-6.48338
。「	-6.48482
爾時	-6.48486
應	-6.5155
因	-6.51945
起	-6.52782
常	-6.53724
眾	-6.53935
亦	-6.5517
意	-6.59064
入	-6.59336
清淨	-6.60151
事	-6.6047
?」	-6.60599
知	-6.60951
今	-6.61467
義	-6.62152
願	-6.63756
令	-6.64905
經	-6.65853
初	-6.66962
與	-6.66964
樂	-6.66976
道	-6.66998
前	-6.6905
想	-6.70431
王	-6.71478
則	-6.72026
依	-6.73502
色	-6.73551
復	-6.73581
離	-6.74342
地	-6.74354
:『	-6.74835
在	-6.74938
無有	-6.76852
或	-6.76936
修	-6.77442
空	-6.78593
成	-6.79317
無量	-6.80003
聞	-6.80264
多	-6.80774
念	-6.8136
曰	-6.82427
勝	-6.84797
)	-6.85132
果	-6.85647
苦	-6.86654
求	-6.86679
云何	-6.86704
後	-6.86801
出	-6.87
乃至	-6.87013
淨	-6.87038
(	-6.87127
由	-6.88543
世間	-6.89938
云	-6.90449
滅	-6.9063
五	-6.90837
業	-6.90944
解	-6.92117
成就	-6.92201
問	-6.92682
現	-6.93115
惡	-6.94107
舍利子	-6.95626
:	-6.95854
正	-6.96911
識	-6.98912
是故	-6.99732
盡	-7.0007
施	-7.00428
具	-7.00758
名為	-7.03522
戒	-7.03598
。』	-7.03629
隨	-7.03765
過	-7.03766
教	-7.04399
天	-7.04558
捨	-7.04609
悉	-7.05401
力	-7.05907
證	-7.06598
本	-7.07462
光	-7.07763
功德	-7.07924
汝	-7.09707
同	-7.09845
化	-7.10027
別	-7.10099
來	-7.10218
發	-7.10341
何以故	-7.10518
供養	-7.12046
取	-7.12861
雖	-7.13721
慧	-7.1388
持	-7.14538
信	-7.14674
聲	-7.15324
釋	-7.15394
天子	-7.16551
語	-7.16735
性	-7.16865
寶	-7.1792
德	-7.18602
解脫	-7.19365
斷	-7.19378
具足	-7.20091
菩薩摩訶薩	-7.20496
智慧	-7.2086
緣	-7.23241
實	-7.24246
然	-7.24636
方便	-7.24977
種種	-7.25277
世	-7.25347
莊嚴	-7.25503
菩提	-7.25752
可	-7.25867
難	-7.26573
分	-7.26783
體	-7.27703
顯	-7.27766
迦葉	-7.27785
諸佛	-7.27831
門	-7.28464
定	-7.2917
妙	-7.30168
耶	-7.30899
覺	-7.30906
不能	-7.31216
光明	-7.31344
佛言	-7.31939
平等	-7.31977
異	-7.339
分別	-7.34204
諸法	-7.34314
但	-7.34469
廣	-7.34475
》	-7.3464
煩惱	-7.34846
既	-7.36306
文殊師利	-7.36724
便	-7.37068
餘	-7.37969
他	-7.38153
唯	-7.38785
用	-7.38899
涅槃	-7.39743
大乘	-7.39895
理	-7.40922
聲聞	-7.40952
即是	-7.41399
通	-7.42708
攝	-7.42773
眼	-7.42911
是名	-7.43634
生死	-7.43798
未	-7.4421
除	-7.44265
食	-7.44298
水	-7.44828
論	-7.44889
六	-7.46468
何	-7.47124
藏	-7.47898
先	-7.48261
舉	-7.4866
所有	-7.49022
第二	-7.49126
亦無	-7.50324
華	-7.50384
正法	-7.50637
不可	-7.50803
乃	-7.51246
報	-7.52329
精進	-7.52778
學	-7.53117
對	-7.53531
無所	-7.53599
譬如	-7.53879
斯	-7.54087
根	-7.54105
所謂	-7.54456
轉	-7.54479
二者	-7.55565
利	-7.55752
子	-7.55888
重	-7.55957
比丘	-7.56846
一者	-7.57254
界	-7.57675
修行	-7.57901
極	-7.58187
文	-7.58277
答	-7.58467
次	-7.58931
去	-7.59297
方	-7.59463
俱	-7.59689
遍	-7.60144
乘	-7.60417
愛	-7.60537
善男子	-7.60678
共	-7.61033
七	-7.62553
舍利弗	-7.63024
一切眾生	-7.63036
不得	-7.63068
大王	-7.64034
三昧	-7.64405
內	-7.64893
度	-7.65383
亦不	-7.6552
著	-7.65556
使	-7.65854
第一	-7.65998
句	-7.66115
劫	-7.66172
深	-7.66246
數	-7.66727
不生	-7.67
物	-7.67108
究竟	-7.67417
各	-7.67455
於彼	-7.67474
樹	-7.67768
自然	-7.67793
阿難	-7.67806
八	-7.68047
就	-7.68618
復次	-7.68849
貪	-7.69068
少	-7.69138
出家	-7.69639
外	-7.70271
善根	-7.70441
真	-7.70829
坐	-7.70994
忍	-7.71271
法身	-7.71932
若有	-7.71987
故云	-7.72651
說法	-7.72824
往	-7.72877
稱	-7.73088
向	-7.73513
《	-7.74017
結	-7.74025
之所	-7.74322
因緣	-7.74518
真實	-7.74926
合	-7.75158
尊	-7.75261
相應	-7.75511
十	-7.75715
種	-7.75851
遠離	-7.76302
聖	-7.76527
還	-7.76842
國	-7.77039
一切法	-7.77645
我今	-7.78018
示	-7.78123
猶如	-7.78405
花	-7.78523
喻	-7.7922
立	-7.79369
於此	-7.79611
諸天	-7.80077
歎	-7.80175
會	-7.80777
境	-7.81106
三者	-7.81316
師	-7.81431
照	-7.81439
女	-7.8175
境界	-7.81961
壞	-7.81979
普	-7.82203
耳	-7.82589
趣	-7.83163
寂靜	-7.832
小	-7.83552
二乘	-7.84955
第三	-7.85109
香	-7.85712
執	-7.86062
歡喜	-7.86234
攝受	-7.86314
十方	-7.86448
觀察	-7.86503
淨土	-7.86552
所說	-7.86718
邪	-7.87135
自在	-7.87771
死	-7.87919
流	-7.8802
滿	-7.88216
當知	-7.88763
罪	-7.88834
請	-7.89702
引	-7.89794
法界	-7.89872
金	-7.89881
】	-7.89991
家	-7.901
一一	-7.9041
白佛言	-7.90457
音	-7.906
復有	-7.90816
諸菩薩	-7.90844
安住	-7.90978
疏	-7.91373
無邊	-7.91662
土	-7.91877
歸	-7.92449
之法	-7.93038
必	-7.93126
虛空	-7.93896
安	-7.94405
諦	-7.94651
疑	-7.96212
了	-7.96369
是為	-7.96651
開	-7.97059
答曰	-7.97258
好	-7.9755
位	-7.97721
日	-7.98598
失	-7.98659
命	-7.98661
獲	-7.98728
散	-7.98999
足	-7.99282
廣大	-7.9938
無明	-8.0068
勝鬘	-8.00941
亦復如是	-8.00954
皆悉	-8.0135
布施	-8.01391
四者	-8.01533
喜	-8.01842
集	-8.02154
病	-8.02864
火	-8.02938
故名	-8.03617
風	-8.03618
福	-8.04038
習	-8.04429
障	-8.04678
不見	-8.04939
護	-8.05081
羅	-8.05556
觸	-8.06579
高	-8.06621
持戒	-8.06746
止	-8.07054
智者	-8.07303
何故	-8.07338
決定	-8.07679
有情	-8.07944
將	-8.08396
所以者何	-8.0846
財	-8.08489
沙門	-8.08835
所以	-8.09278
無相	-8.09544
辨	-8.09558
白	-8.09668
眷屬	-8.09704
不知	-8.10266
佛法	-8.10534
了知	-8.10542
慈	-8.10715
以為	-8.11001
阿	-8.11086
世界	-8.11236
形	-8.11513
更	-8.1153
思惟	-8.11567
阿羅漢	-8.1234
益	-8.12908
味	-8.12998
口	-8.13021
未來	-8.13102
無上	-8.13274
大悲	-8.13408
神通	-8.13713
最勝	-8.13731
示現	-8.13817
利益	-8.13985
記	-8.14117
於是	-8.14542
要	-8.14755
而不	-8.14764
山	-8.15174
染	-8.15415
總	-8.15602
圓滿	-8.15862
名曰	-8.15867
破	-8.16076
一切諸法	-8.16193
勸	-8.16502
父母	-8.16674
最上	-8.16684
章	-8.16857
凡夫	-8.16956
思	-8.17177
三界	-8.17523
又復	-8.17572
諸眾生	-8.17599
長	-8.17883
魔	-8.1815
不思議	-8.18285
聽	-8.1839
有二	-8.18414
畢竟	-8.18503
聚	-8.18802
計	-8.18838
順	-8.18968
親近	-8.19004
經曰	-8.19055
長者	-8.19479
僧	-8.19637
興	-8.19999
修習	-8.20055
類	-8.20333
那	-8.2055
我等	-8.21026
終	-8.21109
告	-8.2128
略	-8.21896
無常	-8.22888
惑	-8.22902
遠	-8.22958
癡	-8.23504
千	-8.23853
奉	-8.2392
動	-8.24287
於諸	-8.24365
量	-8.24461
應當	-8.24961
隨順	-8.24965
增長	-8.25026
讚	-8.2534
甚深	-8.25417
須	-8.26028
害	-8.26122
邊	-8.26346
親	-8.26825
女人	-8.27148
號	-8.27278
不應	-8.27668
現在	-8.2808
不可思議	-8.28134
如是等	-8.28163
第四	-8.28395
圓	-8.28402
無畏	-8.28534
不同	-8.28584
無生	-8.28791
九	-8.28874
被	-8.28898
彌勒	-8.28932
居	-8.28958
恒	-8.29986
法門	-8.30055
致	-8.30159
百千	-8.30326
攝受正法	-8.30332
速	-8.30438
己	-8.30459
始	-8.31248
達	-8.31609
像	-8.31948
往生	-8.32038
汝等	-8.32413
衣	-8.32664
所作	-8.32763
猶	-8.32935
彼佛	-8.32953
此經	-8.33097
月	-8.33223
音聲	-8.33331
過去	-8.33478
。」「	-8.33541
無我	-8.3361
無作	-8.33872
故言	-8.34138
昔	-8.34414
百	-8.35066
品	-8.35139
乎	-8.35248
不可得	-8.35392
善巧	-8.3541
此是	-8.36323
地獄	-8.36543
禮	-8.36573
應知	-8.36671
微妙	-8.36861
佛說	-8.37031
和合	-8.37199
兩	-8.37345
受持	-8.37357
雜	-8.37501
造	-8.37547
之中	-8.37554
自性	-8.37576
際	-8.37706
感	-8.37932
約	-8.38058
主	-8.38095
如實	-8.38116
復次舍利子	-8.38467
瞋	-8.39052
調伏	-8.40157
治	-8.4023
一乘	-8.40511
四種	-8.40841
比	-8.41071
述曰	-8.41271
以此	-8.41272
雨	-8.41289
正明	-8.41539
無礙	-8.41561
反	-8.41838
志	-8.41854
國土	-8.42157
敬	-8.42272
墮	-8.42364
爾時世尊	-8.42371
到	-8.42526
獨	-8.42669
宣說	-8.42678
所行	-8.43252
諸根	-8.43278
城	-8.43642
之人	-8.43804
增	-8.4385
佛告	-8.43867
天人	-8.44022
近	-8.44123
如來藏	-8.44349
顛倒	-8.45246
我當	-8.45334
甚	-8.45354
堅固	-8.45782
手	-8.45998
莫	-8.46001
禪	-8.46134
宣	-8.46156
母	-8.46501
愚癡	-8.46731
不為	-8.46781
不捨	-8.47048
恭敬	-8.47054
設	-8.47067
蓋	-8.47095
加	-8.47641
差別	-8.47852
久	-8.47854
覆	-8.4797
藥	-8.48053
無異	-8.4814
發起	-8.48222
弟子	-8.48727
瞋恚	-8.48919
亦如是	-8.48931
辯才	-8.49091
何等	-8.49234
悟	-8.49452
無為	-8.49647
爾	-8.50197
大眾	-8.50433
神	-8.50456
不起	-8.50765
殺	-8.50911
是人	-8.51148
面	-8.51203
。【	-8.51213
問曰	-8.51379
和	-8.51409
竟	-8.51914
其心	-8.52098
次第	-8.52316
海	-8.52438
成佛	-8.52612
覩	-8.52624
發心	-8.53128
善法	-8.53254
輪	-8.53322
壽	-8.53348
目	-8.53385
金剛	-8.53686
尊者	-8.53813
安樂	-8.53891
授	-8.53944
指	-8.53999
歸依	-8.54155
以下	-8.54157
太子	-8.54187
演說	-8.54204
皆是	-8.54237
之心	-8.5428
無盡	-8.54513
永	-8.54696
佛剎	-8.55023
而為	-8.55314
不淨	-8.55376
一心	-8.55451
悉皆	-8.55599
」	-8.55718
童子	-8.56085
禪定	-8.56116
寂滅	-8.56227
而能	-8.56331
慢	-8.56365
直	-8.56604
外道	-8.56748
七寶	-8.5678
文殊師利言	-8.57079
見佛	-8.57264
迦	-8.57436
者即	-8.57691
及諸	-8.57725
宗	-8.57738
勿	-8.57862
縛	-8.57962
常住	-8.58043
果報	-8.58213
波羅蜜	-8.58234
摩	-8.5826
行者	-8.58372
凡	-8.58419
頭	-8.58565
或有	-8.58735
飲食	-8.58948
無漏	-8.5939
座	-8.59566
小乘	-8.59568
亦非	-8.59719
沒	-8.59753
所生	-8.59791
誰	-8.60214
龍	-8.60351
諸菩薩摩訶薩	-8.60521
梵	-8.60524
二合	-8.60599
遊	-8.60605
不退	-8.6066
壽命	-8.60841
建立	-8.60947
及以	-8.61007
緣覺	-8.61176
妄	-8.61275
咸	-8.61311
宮	-8.61333
人民	-8.61637
馬	-8.61656
殊勝	-8.61754
真如	-8.61788
迷	-8.61807
?』	-8.62158
七日	-8.62601
詣	-8.62895
人天	-8.62995
彰	-8.6314
迴向	-8.63808
愛樂	-8.64241
間	-8.64293
離諸	-8.64323
尚	-8.64377
三種	-8.64453
佛土	-8.64896
故名為	-8.652
棄	-8.65336
於中	-8.6559
惱	-8.65747
出生	-8.65809
息	-8.65961
辯	-8.65988
并	-8.66014
舍	-8.66052
進	-8.66186
陀	-8.66453
假	-8.66599
毒	-8.66823
有餘	-8.66915
法性	-8.67004
法中	-8.67092
曾	-8.67438
蓮華	-8.67591
二種	-8.67644
懷	-8.67725
捨離	-8.67773
宜	-8.67826
不動	-8.67869
五百	-8.67953
多聞	-8.68498
標	-8.68803
出離	-8.68973
蘊	-8.69166
名字	-8.6919
且	-8.6929
憂	-8.69568
譬	-8.69581
通達	-8.69683
一切智	-8.69789
偈	-8.69918
在家	-8.69952
易	-8.70302
怨	-8.70682
於佛	-8.7069
經云	-8.70863
脫	-8.70915
寂	-8.71138
垢	-8.7115
心不	-8.71337
亦復	-8.71635
而生	-8.71947
阿彌陀佛	-8.72091
忍辱	-8.72303
亂	-8.72637
獲得	-8.72831
三千大千世界	-8.72918
成熟	-8.73582
輕	-8.73721
而得	-8.7378
則無	-8.73815
情	-8.73826
不住	-8.73864
中有	-8.73902
葉	-8.73954
況	-8.74019
字	-8.74049
答言	-8.74225
如此	-8.74243
尋	-8.74282
年	-8.74778
稱讚	-8.74969
當得	-8.75303
十二	-8.75473
聞法	-8.75569
此法	-8.75592
吾	-8.76229
假使	-8.76306
言說	-8.76315
絕	-8.76366
已來	-8.76487
無數	-8.7681
善哉	-8.76866
若不	-8.76994
彼人	-8.77144
是時	-8.77229
雲	-8.77246
安隱	-8.77269
恒沙	-8.77294
發菩提心	-8.77309
所言	-8.77331
波	-8.77402
鉢	-8.77597
諸比丘	-8.77788
終不	-8.77863
住於	-8.7801
患	-8.78174
底	-8.78208
所得	-8.78337
放	-8.78692
慈心	-8.79062
信解	-8.79263
退	-8.79332
微	-8.79763
三乘	-8.79839
不著	-8.79928
陰	-8.80123
伏	-8.8035
巳	-8.80398
開示	-8.80514
嚴	-8.8059
有三	-8.80745
已下	-8.80796
若人	-8.80828
是菩薩	-8.80926
若無	-8.81031
積	-8.81118
頂	-8.81149
讚歎	-8.81208
之相	-8.81237
犯	-8.81482
塵	-8.81588
勇猛	-8.81676
變	-8.81681
此云	-8.81723
菩提心	-8.81797
最	-8.81863
彌陀	-8.82135
不離	-8.82159
宮殿	-8.82262
堅	-8.82315
積集	-8.82494
穢	-8.82569
何況	-8.82664
萬	-8.82744
「	-8.82767
各各	-8.82856
屬	-8.82948
超	-8.83025
若能	-8.83138
無分別	-8.83278
對治	-8.83281
為說	-8.83303
因果	-8.83347
畏	-8.83443
三摩地	-8.83451
依止	-8.83623
大海	-8.83641
供	-8.83667
不斷	-8.83904
今此	-8.84115
伽	-8.84153
法故	-8.84159
不信	-8.84384
為欲	-8.84674
阿耨多羅三藐三菩提	-8.84707
適	-8.84754
現前	-8.84822
無量無邊	-8.84849
第五	-8.84872
能生	-8.84922
而說偈言	-8.84923
于	-8.85195
無垢	-8.85433
五者	-8.85536
機	-8.8556
希有	-8.85562
威儀	-8.85626
逮	-8.85743
十六	-8.85792
億	-8.85813
一切諸	-8.86029
宿	-8.86081
之事	-8.86197
汝今	-8.86231
三世	-8.86301
何等為四	-8.86347
豈	-8.86349
時彼	-8.86466
鈔	-8.86694
列	-8.86838
池	-8.86944
應供	-8.86984
諸有	-8.87025
段	-8.87026
器	-8.87035
無明住地	-8.87048
一時	-8.87058
若見	-8.87156
破壞	-8.87382
。】「	-8.87737
傳	-8.87885
愚	-8.87928
怖	-8.87942
此二	-8.87955
序	-8.8808
簡	-8.88203
首	-8.88313
備	-8.88404
能令	-8.88594
。」【【	-8.8881
根本	-8.88948
美	-8.88997
悅	-8.89194
勤	-8.89248
父	-8.89262
不退轉	-8.89386
。《	-8.89404
未曾	-8.89408
苾芻	-8.89605
相續	-8.89613
其身	-8.89618
書	-8.89622
有為	-8.89758
密	-8.89871
置	-8.89881
仁	-8.89987
末	-8.9005
遇	-8.90137
誓	-8.90314
不善	-8.90638
般若	-8.90738
目連	-8.908
救	-8.9082
二十	-8.90845
出世	-8.90975
說偈讚	-8.91094
導	-8.91103
夫人	-8.91127
雙	-8.91133
漸	-8.91315
表	-8.91345
燒	-8.91736
婆羅門	-8.92032
悔	-8.92111
能知	-8.92325
寧	-8.92452
厭	-8.92467
我所	-8.92764
有所	-8.92811
皆得	-8.92847
尊重	-8.92879
苦惱	-8.92999
語言	-8.93266
命終	-8.93523
善逝	-8.93573
授記	-8.93771
以偈讚	-8.93932
虛	-8.93989
違	-8.94072
之行	-8.94147
正念	-8.94159
夫	-8.94435
網	-8.94562
大士	-8.94708
導師	-8.94849
不求	-8.94886
毀	-8.94913
疾	-8.94926
有一	-8.95016
不取	-8.95058
不以	-8.95603
視	-8.95964
念佛	-8.96122
聽聞	-8.96128
西方	-8.96189
聞已	-8.9622
林	-8.96283
說此	-8.96426
於法	-8.96474
服	-8.96528
俗	-8.96592
大寶積經	-8.96596
攝取	-8.96636
又舍利子	-8.96852
不與	-8.96856
帝釋	-8.97057
摩訶	-8.97096
垂	-8.97119
力故	-8.97141
棄捨	-8.97267
痛	-8.97355
四諦	-8.97443
大地	-8.97448
夜	-8.97463
鼻	-8.97471
難陀	-8.9752
怖畏	-8.97611
梵行	-8.97622
何者	-8.97713
諸有情	-8.97796
倍	-8.97857
得聞	-8.98198
作佛	-8.98246
訖	-8.98312
過失	-8.98456
一切皆	-8.98586
貪欲	-8.98588
囉	-8.9867
悲	-8.9881
偏	-8.99052
據	-8.99159
冥	-8.99161
之時	-8.9923
作是念	-8.99819
非是	-8.99823
矣	-8.99898
滿足	-9.00052
正行	-9.00055
都	-9.00058
懈怠	-9.00217
白言	-9.00233
毘	-9.00396
又問	-9.00439
此明	-9.00676
無能	-9.0077
周	-9.00785
而無	-9.00794
虛妄	-9.00916
亦名	-9.0145
利養	-9.01591
無量壽佛	-9.01617
欲界	-9.01681
於一切法	-9.01801
是其	-9.01812
此人	-9.01813
我於	-9.01925
有四	-9.01955
布	-9.01967
所成	-9.02113
麁	-9.02214
色相	-9.02443
演	-9.0247
受用	-9.02479
初地	-9.02492
他人	-9.02764
賊	-9.02806
善知識	-9.0285
焰	-9.03114
正等覺	-9.03492
執著	-9.03525
不作	-9.03533
無所著	-9.03645
此菩薩	-9.03654
文殊	-9.03659
不樂	-9.038
無所有	-9.03945
發願	-9.03951
專	-9.04113
路	-9.04129
以是	-9.04203
惡道	-9.0428
於我	-9.04284
亦然	-9.04461
得生	-9.04496
陀羅尼	-9.04545
諸行	-9.04743
婆	-9.04787
諸佛如來	-9.04827
容	-9.04841
欲令	-9.05091
六者	-9.05368
可得	-9.05451
不也	-9.05575
如幻	-9.05635
純	-9.05646
智力	-9.05651
有二種	-9.05678
遣	-9.05718
福德	-9.0576
熱	-9.05762
此等	-9.05987
珠	-9.05992
諸惡	-9.06039
又如	-9.06079
強	-9.06156
:「『	-9.06192
恐	-9.06213
濁	-9.06231
之義	-9.06298
於其	-9.0631
幢	-9.06422
。「『	-9.06628
何所	-9.06919
修學	-9.07194
盛	-9.07258
若干	-9.0728
亦有	-9.07341
窮	-9.07388
廣說	-9.07413
佛告阿難	-9.07506
卷	-9.07534
辟支佛	-9.07551
變易	-9.07701
決	-9.07722
三寶	-9.07734
所見	-9.07947
之處	-9.08023
即得	-9.0813
如理	-9.08205
並	-9.08205
鼓	-9.08208
一念	-9.08387
嘆	-9.08443
承	-9.08573
舌	-9.08594
族姓子	-9.08653
佛所	-9.08913
饒益	-9.0904
彼諸	-9.09164
佛道	-9.09165
教化	-9.09167
提	-9.09197
頓	-9.09264
無所得	-9.09344
佛國	-9.09399
闇	-9.09556
勤修	-9.09576
大德	-9.09588
畜生	-9.09598
望	-9.09637
邪見	-9.09663
隱	-9.09715
於一切	-9.09766
若於	-9.09834
初明	-9.09941
大小	-9.09946
隨所	-9.09958
疑惑	-9.09989
其中	-9.10011
.	-9.10016
則為	-9.10064
遂	-9.10085
助	-9.10181
丈夫	-9.10464
不異	-9.10694
熟	-9.10726
種子	-9.10915
胎	-9.10974
七者	-9.11034
細	-9.11038
法者	-9.11133
一切世間	-9.11176
由是	-9.1123
車	-9.11358
羅漢	-9.11411
是中	-9.11482
心無	-9.11703
其人	-9.11975
調	-9.12247
翻	-9.12316
劣	-9.12428
非法	-9.12439
損	-9.12665
蓮花	-9.12674
空中	-9.12694
生滅	-9.12711
憶念	-9.12752
哉	-9.12786
『	-9.12813
佛身	-9.12822
威德	-9.12899
十力	-9.1297
剎	-9.12988
人中	-9.13241
沙	-9.13293
殊	-9.13307
相好	-9.13319
第一義	-9.13395
入於	-9.13588
降	-9.1369
快樂	-9.13724
合掌	-9.13947
似	-9.14011
值	-9.14064
邊際	-9.14068
剎那	-9.14387
功	-9.1465
二明	-9.1466
而有	-9.14683
然後	-9.14761
逆	-9.14799
降伏	-9.14925
精	-9.15021
我見	-9.15024
師子	-9.15077
云何為	-9.15303
眾寶	-9.1531
無餘	-9.15376
天眼	-9.15413
閻浮提	-9.15475
慈悲	-9.15483
善知	-9.15569
全	-9.1558
大藥	-9.1582
牟尼	-9.15901
銀	-9.15943
衣服	-9.16089
許	-9.16194
此中	-9.16228
象	-9.1623
礙	-9.16281
增上	-9.16367
釋迦	-9.16727
文字	-9.16846
放逸	-9.17007
河	-9.17052
名之為	-9.1721
深心	-9.1724
而彼	-9.17596
般若波羅蜜	-9.1763
障礙	-9.17731
黑	-9.17905
幻	-9.18398
於意云何	-9.18426
八者	-9.1844
存	-9.18452
梵天	-9.18523
善能	-9.18541
鳥	-9.18827
拘	-9.18845
妙法	-9.18979
無央數	-9.19026
無色	-9.19076
尸羅	-9.19336
瓔珞	-9.19344
若有眾生	-9.19397
其所	-9.19415
恩	-9.19646
不復	-9.19677
夜叉	-9.19856
輩	-9.1991
往昔	-9.19936
身心	-9.19955
令其	-9.19958
故說	-9.19982
印	-9.20025
惡趣	-9.20159
柔軟	-9.2034
亦如	-9.20349
彼國	-9.20473
無不	-9.20568
是以	-9.20575
即便	-9.20654
繫	-9.20685
如虛空	-9.20696
潤	-9.20863
戲論	-9.20869
眾會	-9.21038
而住	-9.21358
富樓那	-9.21694
草	-9.21807
奪	-9.21815
生於	-9.21873
相故	-9.2193
聲聞緣覺	-9.22156
如實知	-9.22513
無邊莊嚴	-9.22517
上來	-9.22777
令得	-9.22838
明了	-9.22902
作如是言	-9.23015
為彼	-9.23024
相似	-9.23044
為諸眾生	-9.23476
妄想	-9.23484
無極	-9.23497
拔	-9.23503
十五	-9.23567
無有是處	-9.23608
奉行	-9.23621
故曰	-9.23832
儞	-9.23853
老	-9.24018
此初	-9.24027
亦爾	-9.24165
恚	-9.24306
本無	-9.24357
暫	-9.24391
無著	-9.24504
無上菩提	-9.24545
見彼	-9.24548
八萬四千	-9.24792
迹	-9.24906
得見	-9.24938
有人言	-9.2495
下劣	-9.25053
如彼	-9.25057
若有菩薩	-9.2514
正道	-9.25145
自身	-9.25415
園	-9.25428
制	-9.25482
譯	-9.25496
受生	-9.25529
哀	-9.25579
正見	-9.25612
有人	-9.25899
誹謗	-9.25907
在於	-9.25984
由此	-9.25989
端正	-9.26061
淨信	-9.26125
唯願	-9.26175
六十	-9.26182
權	-9.26214
支	-9.2624
一切有情	-9.26255
日月	-9.26851
信受	-9.26893
趣向	-9.26952
五欲	-9.26964
極樂	-9.27149
諸佛世尊	-9.27253
迴	-9.27398
飲	-9.27474
所願	-9.27608
內外	-9.27609
濟	-9.27716
不滅	-9.27979
牛	-9.27982
大仙	-9.2801
法師	-9.28162
守	-9.2826
心生	-9.2842
施設	-9.28569
晝夜	-9.28591
飾	-9.28603
無願	-9.2862
聞說	-9.28663
十種	-9.28683
笑	-9.29024
正遍知	-9.29039
四智	-9.2908
體性空	-9.2924
無量壽	-9.29529
清	-9.2955
不受	-9.29629
業報	-9.29659
於如來	-9.29669
云何名為	-9.29671
阿修羅	-9.2971
生彼	-9.29767
總持	-9.29785
中有二	-9.29847
善友	-9.29964
師子吼	-9.30089
賢	-9.30403
生者	-9.30734
金色	-9.31012
大聖	-9.31209
之言	-9.3126
令彼	-9.3144
骨	-9.31455
彼時	-9.31543
大願	-9.31641
甲冑	-9.31931
即能	-9.32115
身業	-9.32191
臺	-9.32195
不可說	-9.32329
則能	-9.32388
資	-9.32435
題	-9.32527
離於	-9.32646
蒙	-9.32676
誠	-9.32698
今日	-9.32849
祕密	-9.32919
讀誦	-9.32936
佛性	-9.32938
須賴	-9.32959
所問	-9.33037
速疾	-9.33039
齊	-9.33045
神力	-9.33083
顯示	-9.33098
悉能	-9.33153
臣	-9.3328
之身	-9.33297
作意	-9.3336
聖諦	-9.33403
隨意	-9.33432
雖復	-9.33506
復以	-9.33518
彼岸	-9.33536
謗	-9.33583
兼	-9.33589
於他	-9.33785
樓	-9.33793
以是義故	-9.34034
如是說	-9.34068
彌	-9.34081
遮	-9.34163
橫	-9.34175
不壞	-9.34255
俱胝	-9.34474
法藏	-9.34643
如是如是	-9.34646
所知	-9.34661
所起	-9.34776
成正覺	-9.34861
意樂	-9.34955
律	-9.35019
餓鬼	-9.35232
音樂	-9.35278
第六	-9.35406
諸煩惱	-9.35447
守護	-9.35583
化作	-9.35598
述	-9.3561
憍慢	-9.35752
如法	-9.36104
有何	-9.36255
滅度	-9.36261
如來所	-9.36266
樓閣	-9.36331
室	-9.36374
三明	-9.3648
夢	-9.36522
珍寶	-9.36524
不失	-9.36555
出世間	-9.3683
皆有	-9.36844
仰	-9.36981
不實	-9.3721
名號	-9.37236
隨其	-9.37304
故知	-9.37317
龍王	-9.3753
步	-9.37535
泥	-9.37671
我說	-9.37704
其義	-9.37842
西	-9.37865
敷	-9.38031
所緣	-9.38101
王子	-9.38191
惡業	-9.38265
無所從來	-9.38419
波羅蜜多	-9.3846
不放逸	-9.38511
莫不	-9.38544
不行	-9.38589
雖有	-9.38598
即為	-9.38637
而行	-9.38816
上下	-9.38829
觀佛	-9.39058
此義	-9.39082
發阿耨多羅三藐三菩提心	-9.39162
即時	-9.392
若以	-9.39246
一切諸佛	-9.39326
節	-9.39441
大菩提	-9.39545
非不	-9.39575
青	-9.39629
得解脫	-9.39683
是名為	-9.39688
體性	-9.39708
不說	-9.39839
勇	-9.39914
嚴飾	-9.39929
誦	-9.39946
國中	-9.40009
法王	-9.40242
彼土	-9.40265
御	-9.40487
縱	-9.40499
度脫	-9.405
燈	-9.40611
是佛	-9.40723
善惡	-9.4077
神足	-9.40978
亦是	-9.41088
越	-9.41134
貧	-9.41218
質	-9.41252
佛世尊	-9.41283
乃能	-9.4137
唯有	-9.41653
塔	-9.41682
何謂	-9.41723
乞	-9.41741
往詣	-9.41859
身命	-9.41931
律儀	-9.41972
一切煩惱	-9.42166
譬喻	-9.4236
欲得	-9.42397
漏	-9.42413
或復	-9.42444
勝慧	-9.42447
非有	-9.4247
十八	-9.42508
里	-9.42528
能了知	-9.42538
經典	-9.42562
總結	-9.42585
破戒	-9.42718
實際	-9.42768
眾苦	-9.42845
威	-9.42974
諸長者	-9.4298
忘	-9.43013
以其	-9.43134
群	-9.43191
退轉	-9.43285
可見	-9.43331
是法	-9.43482
佛智	-9.43507
無二	-9.43542
枝	-9.43611
韋提	-9.43651
須彌	-9.4366
莖	-9.4367
一劫	-9.43932
中間	-9.44014
菩薩行	-9.44058
響	-9.443
財物	-9.44338
道場	-9.44354
殊妙	-9.44488
正覺	-9.44498
巧	-9.44502
本來	-9.4454
含	-9.44733
信心	-9.4475
消	-9.45171
即以	-9.45195
欣	-9.4523
作是	-9.45306
端	-9.4535
牒	-9.45355
此明何義	-9.4539
聖道	-9.45471
證得	-9.45528
生彼國	-9.4557
此身	-9.45722
等者	-9.45774
!」	-9.45899
諸天人	-9.4593
不盡	-9.45939
貪著	-9.45942
九者	-9.46072
以無	-9.46107
由旬	-9.46117
一明	-9.46126
少分	-9.46327
本性	-9.46475
今明	-9.4656
無比	-9.46647
為求	-9.46654
功德成就	-9.46717
是謂	-9.46721
夢中	-9.46785
皆由	-9.46919
察	-9.46923
難得	-9.46973
可知	-9.47006
即於	-9.47013
三十三天	-9.47053
快	-9.47143
名色	-9.47145
福田	-9.47419
無上道	-9.47511
無智	-9.47613
於諸眾生	-9.47683
說言	-9.47702
超過	-9.47793
彼等	-9.47821
及餘	-9.47867
次明	-9.47967
半	-9.4797
仙人	-9.4797
木	-9.47997
頌	-9.48
十四	-9.48059
寂慧	-9.48084
是諸	-9.48088
明其	-9.48225
假名	-9.48236
此三	-9.48251
亦無有	-9.48283
造作	-9.48326
三觀	-9.48464
施與	-9.48528
化生	-9.48717
諂曲	-9.4873
天上	-9.48775
仙	-9.48807
覺知	-9.48905
有大	-9.48909
色界	-9.48918
昇	-9.49361
慕	-9.49404
彌勒菩薩	-9.49437
利他	-9.49657
不定	-9.49824
受持讀誦	-9.49901
第七	-9.49911
聞是	-9.49944
四大	-9.49974
)(	-9.49977
分段	-9.50014
妻子	-9.50032
運	-9.50032
無障礙	-9.50047
安立	-9.50052
毛	-9.50062
甘露	-9.50106
談	-9.5011
菩提道	-9.50124
新	-9.50125
聽受	-9.50126
他方	-9.50152
。』「	-9.50175
流轉	-9.50225
文殊師利童子	-9.50255
有漏	-9.50304
何以	-9.50475
東方	-9.50503
修道	-9.5057
能得	-9.50574
審	-9.50626
城中	-9.50653
未得	-9.50873
實相	-9.50943
善巧方便	-9.51007
一法	-9.51106
亡	-9.51362
。』」	-9.51537
佛菩提	-9.51556
靜慮	-9.51647
佛語	-9.51649
染著	-9.51672
眾人	-9.51821
嚩	-9.51857
帝	-9.51889
在家菩薩	-9.51898
退失	-9.51906
淨戒	-9.51924
忽	-9.51998
尼	-9.52017
論云	-9.52052
短	-9.52058
天人師	-9.521
舍利	-9.52101
諦聽	-9.52315
四句	-9.52439
靜	-9.52439
得自在	-9.52454
勅	-9.52468
五陰	-9.52568
不依	-9.52627
得菩提	-9.52637
自利	-9.52639
變化	-9.52697
堪	-9.52735
諂	-9.52749
迷惑	-9.52769
及與	-9.52881
贊	-9.52897
貪瞋癡	-9.52976
眾中	-9.53166
法華	-9.532
乞食	-9.53252
不共	-9.53273
辭	-9.53343
畢	-9.53409
懸	-9.53445
互	-9.53556
群生	-9.53593
男女	-9.53652
歸命	-9.53736
如上	-9.53755
說是	-9.53808
不可以	-9.539
減	-9.5395
賢者	-9.5396
禁	-9.54024
諸苦	-9.54051
長夜	-9.54086
之道	-9.54135
恐怖	-9.54236
是為四	-9.54262
四天下	-9.54288
養	-9.54405
故有	-9.54506
塗	-9.54516
令我	-9.54689
諸如來	-9.54752
貧窮	-9.54811
蘇	-9.54814
肉	-9.54821
有五	-9.54883
圍遶	-9.54934
一向	-9.54978
義者	-9.54995
有說	-9.55004
倒	-9.55108
聞者	-9.55157
等正覺	-9.55179
願我	-9.55186
思念	-9.55217
我為	-9.55278
傷	-9.55293
。』」「	-9.55413
赤	-9.55485
愛欲	-9.55544
賢聖	-9.55566
有量	-9.55575
旨	-9.55579
父王	-9.55658
亦可	-9.55673
修善	-9.55706
善女人	-9.55808
男	-9.55926
住處	-9.5602
影	-9.56065
吹	-9.56163
石	-9.56217
無邊慧	-9.56292
佛告迦葉	-9.56419
乾闥婆	-9.56518
聖人	-9.56579
平	-9.56618
見如來	-9.56872
陳	-9.56974
威神	-9.57045
亦復然	-9.57048
判	-9.57058
曉了	-9.5716
菩薩言	-9.57318
正勤	-9.57326
為他	-9.57429
此事	-9.57468
當有	-9.57506
妻	-9.57525
天下	-9.57698
後世	-9.57705
未曾有	-9.57748
身相	-9.57814
是經	-9.57841
流通	-9.57966
則不	-9.5808
珍	-9.58097
覺悟	-9.58143
熱惱	-9.58305
一人	-9.58328
度無極	-9.5835
十地	-9.58416
待	-9.58423
而說頌曰	-9.58424
道者	-9.58435
下明	-9.58563
各有	-9.58568
侍	-9.5868
黃	-9.58796
惟	-9.58827
一曰	-9.58833
大慈	-9.58888
徹	-9.59017
德本	-9.59023
相違	-9.59023
處處	-9.59045
部	-9.59112
則是	-9.5914
其國	-9.5927
諸世間	-9.59274
幾	-9.59299
會中	-9.59333
觀經	-9.59462
所攝	-9.5949
皆令	-9.59541
無厭	-9.59609
背	-9.59609
正觀	-9.59653
端嚴	-9.59725
心意	-9.59736
此名	-9.59872
業障	-9.59887
諸菩薩眾	-9.5998
心者	-9.60011
王言	-9.60047
十一	-9.60074
神變	-9.60207
復次迦葉	-9.60207
本願	-9.60319
二曰	-9.60433
三十	-9.60474
於世間	-9.60481
憐愍	-9.60494
如斯	-9.60495
累	-9.60501
如是法	-9.60573
諸魔	-9.60584
多有	-9.60638
吉祥	-9.60647
諸功德	-9.60664
之力	-9.60689
化佛	-9.60701
微笑	-9.60742
不久	-9.60803
樂欲	-9.60816
十者	-9.60858
摩尼寶	-9.60957
嚴淨	-9.61025
歲	-9.61212
比丘尼	-9.61245
顯現	-9.61325
慳	-9.6141
薩	-9.61437
緣生	-9.61474
梵王	-9.61477
財寶	-9.61581
阿彌陀	-9.6163
限	-9.61824
亦無所	-9.619
正等正覺	-9.61953
無心	-9.62001
氣	-9.62008
一處	-9.62176
真珠	-9.62214
總持門	-9.62587
如佛	-9.62684
是則名為	-9.62718
嫉妬	-9.62726
因故	-9.62735
露	-9.62755
無量眾生	-9.62764
所受	-9.62773
而復	-9.62831
愚夫	-9.6285
如前	-9.62858
若欲	-9.62863
承事	-9.62906
後際	-9.62906
聽法	-9.62957
所修	-9.63044
大智	-9.63098
則有	-9.63179
岸	-9.63342
殿	-9.63359
諸佛法	-9.63392
不從	-9.63405
百億	-9.63446
乏	-9.63531
天中天	-9.6354
貪愛	-9.63561
心故	-9.63618
之名	-9.63635
世俗	-9.63704
地界	-9.6372
慮	-9.63733
略說	-9.6375
四住	-9.6384
佛出世	-9.63948
無所住	-9.64108
床	-9.64184
巍巍	-9.64246
五種	-9.64249
暢	-9.64266
第八	-9.64324
我慢	-9.64391
得成	-9.64462
證菩提	-9.64469
見者	-9.64499
無量功德	-9.64547
妙吉祥	-9.64666
常樂	-9.64737
聞佛	-9.64923
歷	-9.64958
於虛空中	-9.65013
愍	-9.6504
之意	-9.65107
斷除	-9.6513
其有	-9.65135
勝妙	-9.65175
當來	-9.65246
但以	-9.65377
彼處	-9.6543
以彼	-9.65462
而起	-9.6556
寶樹	-9.65755
建	-9.65809
髮	-9.65842
妄語	-9.65848
儀	-9.65858
恣	-9.65873
水精	-9.65912
放光	-9.65942
勤苦	-9.65983
此四	-9.66116
四十	-9.66131
忘失	-9.66153
富	-9.66327
所化	-9.66366
聞此	-9.664
心中	-9.66405
四法	-9.66412
臂	-9.66492
不聞	-9.66494
憂惱	-9.66521
領	-9.66538
嫉	-9.6657
但有	-9.66607
漏盡	-9.66616
取著	-9.66629
測	-9.6663
期	-9.6664
起於	-9.66682
是名菩薩	-9.67006
阿僧祇	-9.67018
前明	-9.67034
所欲	-9.67154
甚難	-9.67354
善哉善哉	-9.67368
伎樂	-9.67403
作如是	-9.67432
衰	-9.67447
大迦葉	-9.67516
願力	-9.67557
此諸	-9.6756
勢	-9.67578
罵	-9.6767
不分別	-9.67718
證入	-9.67731
所應	-9.67741
何處	-9.6781
十三	-9.67878
非無	-9.67881
天女	-9.67895
六度	-9.67902
居家	-9.68098
阿僧祇劫	-9.68114
入城	-9.68177
王舍城	-9.68216
勞	-9.68219
往來	-9.68225
呪	-9.6824
常行	-9.68325
解了	-9.68369
是則	-9.68442
淨心	-9.68451
弘	-9.68499
法忍	-9.68563
於諸法	-9.68758
曉	-9.68781
若得	-9.68878
刀	-9.68893
生歡喜	-9.689
般涅槃	-9.68942
充滿	-9.68985
名聞	-9.69008
正受	-9.69011
解說	-9.69014
投	-9.69041
梵志	-9.69056
緣起	-9.69098
十念	-9.69132
念念	-9.69182
皆為	-9.69206
如是我聞	-9.69344
薄	-9.69415
魔業	-9.69418
以不	-9.69441
士	-9.69467
無差別	-9.69471
而言	-9.69486
却	-9.6965
見已	-9.69661
箭	-9.69681
佛子	-9.69682
極樂世界	-9.69746
草木	-9.69773
求菩提	-9.69774
珊瑚	-9.69804
登	-9.69835
曜	-9.69844
無形	-9.6988
普遍	-9.69914
之智	-9.69967
。」《	-9.69993
得往生	-9.70001
鬼神	-9.70003
上妙	-9.7002
仁者	-9.70156
願生	-9.70195
不及	-9.70266
此即	-9.70317
唯佛	-9.70345
給	-9.70379
出現	-9.70456
無始	-9.70503
議	-9.70511
盲	-9.7052
敘	-9.70624
繫縛	-9.70631
滅諦	-9.70645
散亂	-9.70705
者即是	-9.70781
自行	-9.70784
知見	-9.70872
三曰	-9.71017
離欲	-9.71094
聲聞乘	-9.71192
真諦	-9.71226
善住意天子	-9.71298
舍利弗言	-9.71306
住地	-9.71331
須菩提	-9.71348
惡人	-9.71406
輪迴	-9.71436
等事	-9.71506
述云此後	-9.71541
善業	-9.71708
離垢	-9.71831
應以	-9.71861
皆當	-9.71923
執持	-9.72047
化眾生	-9.72095
瑞	-9.72096
至誠	-9.72138
蔽	-9.72152
覺了	-9.72187
默然	-9.72245
懼	-9.72251
寺	-9.72275
流布	-9.72311
遍照	-9.72359
得涅槃	-9.72409
鬘	-9.72429
口業	-9.72455
周遍	-9.72506
為我	-9.72527
十方世界	-9.72532
三十二	-9.72542
八萬	-9.72591
畜	-9.72776
第二明	-9.72784
不自	-9.72922
某	-9.73078
即無	-9.73144
意業	-9.73179
兒	-9.73204
狀	-9.73206
十九	-9.73262
』,	-9.73587
解脫門	-9.73627
幻化	-9.73641
能於	-9.73654
為一	-9.73718
合掌向佛	-9.73817
慶	-9.73969
己身	-9.74028
須彌山	-9.7403
三法	-9.74047
而來	-9.74047
爾時世尊告	-9.74144
而常	-9.74191
諸善根	-9.74252
有三種	-9.74301
彼則	-9.74334
至於	-9.74368
我我所	-9.74422
何等為三	-9.74438
心常	-9.74441
諸菩薩等	-9.74497
亦能	-9.74528
眾惡	-9.74579
我身	-9.74591
男子	-9.74612
互相	-9.74624
攀緣	-9.74718
於一	-9.74727
古	-9.7475
所求	-9.74759
接	-9.7479
右	-9.74796
圍繞	-9.7483
善說	-9.74986
深法	-9.7507
救護	-9.75076
收	-9.75206
友	-9.75254
觀身	-9.75469
此之	-9.75549
聚落	-9.75608
次釋	-9.75616
無實	-9.75623
不現	-9.75642
不動如來	-9.75665
亦得	-9.75742
所住	-9.75765
殺生	-9.75767
見此	-9.75773
如我	-9.75862
即有其	-9.76116
差	-9.76261
我今於此	-9.76281
一切佛法	-9.76295
是也	-9.76418
請問	-9.76494
五逆	-9.76561
何因緣	-9.76565
一名	-9.76578
十七	-9.7673
遍滿	-9.7677
婬	-9.76971
世人	-9.77092
擊	-9.77284
大師	-9.77358
隨喜	-9.77376
轉輪王	-9.77391
遷	-9.77399
是為菩薩	-9.77447
代	-9.77458
喜樂	-9.77503
怒	-9.7756
三事	-9.77592
能為	-9.77664
有作	-9.77683
四方	-9.7787
無起	-9.78015
纏	-9.78151
非究竟	-9.78213
盜	-9.7826
只	-9.78323
諸欲	-9.78333
申	-9.78372
是名菩薩摩訶薩	-9.78393
偈言	-9.78395
賢護	-9.78411
從此	-9.78428
蟲	-9.78431
二名	-9.78446
是故菩薩	-9.78449
初發心	-9.78462
光照	-9.78476
有異	-9.78485
」。	-9.78786
逮得	-9.78822
入解	-9.78868
所居	-9.78891
應時	-9.78892
不可見	-9.7894
受戒	-9.78944
資糧	-9.78951
禮拜	-9.79208
南無	-9.79336
無染	-9.79376
為因	-9.79401
那由他	-9.79403
令諸眾生	-9.79454
諸相	-9.79528
得道	-9.79573
欲樂	-9.79655
諸天子	-9.79742
若我	-9.79811
之業	-9.79832
者謂	-9.79898
涅盤	-9.79944
驚	-9.80032
閉	-9.80065
稱量	-9.80162
故得	-9.80264
故須	-9.80295
說為	-9.80361
聖眾	-9.80503
甚深法	-9.80506
然彼	-9.80544
菩薩藏	-9.80662
所依	-9.80797
其數	-9.80827
中有三	-9.80845
哀愍	-9.80846
生起	-9.80863
作是思惟	-9.80864
慚愧	-9.80933
開化	-9.80956
等法	-9.80958
血	-9.81055
為大	-9.81177
彼法	-9.81372
解釋	-9.81383
剎土	-9.81421
南	-9.81508
知足	-9.81667
說伽陀曰	-9.81668
無人	-9.81686
滅時亦無所	-9.8169
三品	-9.81701
檀	-9.818
返	-9.81801
淺	-9.81829
染污	-9.81974
不念	-9.82092
幻師	-9.82178
一相	-9.82241
已得	-9.82244
第十	-9.82272
作是念已	-9.82366
語業	-9.82415
汝當	-9.82425
鬼	-9.82489
國王	-9.82536
自知	-9.82552
初識	-9.82576
天中	-9.82614
摧	-9.82651
留	-9.82682
沈	-9.82704
優婆塞	-9.82737
三有	-9.82743
誓願	-9.82744
作證	-9.82815
觀法	-9.82821
暗	-9.82839
自下	-9.8294
此文	-9.82952
厭離	-9.82991
非我	-9.83032
修多羅	-9.83046
世間解	-9.83063
增上慢	-9.83094
種性	-9.83116
能斷	-9.83149
講	-9.832
說偈言	-9.83246
聞佛所說	-9.83272
心行	-9.83305
有是處	-9.8335
者則	-9.83366
久住	-9.83445
逐	-9.83473
轉法輪	-9.83487
敬禮	-9.83599
諷誦	-9.83615
欣喜	-9.83648
若諸眾生	-9.83655
瞻仰	-9.83662
微塵	-9.83676
改	-9.83709
而說	-9.83719
在前	-9.83721
作如是念	-9.83747
深信	-9.8375
何名	-9.83904
手足	-9.83916
七地	-9.83986
作善	-9.84025
無住	-9.84085
▁「	-9.84135
戲	-9.84136
施主	-9.84138
無限	-9.84239
憶	-9.84261
禁戒	-9.84341
問言	-9.84383
正說	-9.84429
臥	-9.84452
或見	-9.84478
徒	-9.84522
恨	-9.84571
舍宅	-9.84589
娑婆	-9.84589
洲	-9.84626
姓	-9.8464
老死	-9.84646
過患	-9.84795
信樂	-9.8484
其名	-9.84919
飛	-9.84988
不相應	-9.8506
或有眾生	-9.85168
苦行	-9.85183
知其	-9.85244
諍	-9.85362
特	-9.85379
緊那羅	-9.85418
苦樂	-9.85438
出家菩薩	-9.85481
無上士	-9.85492
無礙智	-9.85514
懺悔	-9.85515
熾然	-9.85533
隨其所	-9.85546
思議	-9.85554
星	-9.85561
疑網	-9.85711
生信	-9.85731
所觀	-9.85776
污	-9.8578
捨身	-9.8579
善心	-9.85859
眾生界	-9.85889
何緣	-9.86023
十億	-9.86034
斷諸	-9.8608
無別	-9.8611
頂禮	-9.86139
之德	-9.86156
一切功德	-9.86238
三藏	-9.86272
四曰	-9.86291
天王	-9.86392
號曰	-9.86489
欺	-9.86491
載	-9.8653
金銀	-9.86563
玄	-9.86563
推	-9.86654
復於	-9.86667
善男子善女人	-9.86678
行於	-9.86754
無動	-9.86855
了義	-9.86864
如人	-9.86872
佛果	-9.86887
時有	-9.86892
雜染	-9.86932
二法	-9.8698
菩薩如是	-9.87048
無想	-9.87063
法施	-9.87078
無諸	-9.87167
驚怖	-9.87181
淨業	-9.87186
性空	-9.8719
中道	-9.87206
隨念	-9.87213
遊戲	-9.87237
如意	-9.87355
穀	-9.87432
不了	-9.87445
無間	-9.87446
寂意	-9.87456
走	-9.87462
泥洹	-9.87478
無量無數	-9.87503
軟	-9.87526
塵勞	-9.87529
摩訶迦葉	-9.87549
凡有	-9.87565
憙	-9.87574
識界	-9.87603
野	-9.87612
三十二相	-9.8777
中生	-9.87837
未來世	-9.87854
菩提者	-9.8792
唯除	-9.8811
諸聲聞	-9.88184
劍	-9.88225
名稱	-9.88251
稽首	-9.88325
何者是	-9.88325
重擔	-9.88331
得大	-9.8842
依正	-9.88424
交	-9.88456
韋提希	-9.88475
典	-9.88476
六波羅蜜	-9.8859
不可計	-9.8869
滅盡	-9.88783
諸業	-9.88989
自他	-9.88997
而自	-9.89008
吾我	-9.89126
復次金剛摧	-9.89148
八十	-9.8921
前白佛言	-9.89268
不取正覺	-9.89291
具足成就	-9.89313
臨	-9.89372
空寂	-9.89377
增益	-9.89393
優	-9.89394
無知	-9.8943
勤求	-9.89465
何謂為四	-9.8952
呵	-9.89569
義故	-9.89582
眾生故	-9.89757
云何得	-9.89875
更無	-9.90053
若彼	-9.90064
無學	-9.90211
剎中	-9.9025
吼	-9.90279
自見	-9.9028
無所畏	-9.90346
作禮	-9.90385
知彼	-9.90451
損害	-9.90456
微細	-9.90459
茲	-9.90487
惡知識	-9.90506
无	-9.90576
娑	-9.90635
左	-9.90651
六入	-9.90652
摩尼	-9.90681
若諸菩薩	-9.90729
猛	-9.90732
大慈悲	-9.90792
不染	-9.90806
?」「	-9.90813
族	-9.90834
又於	-9.9095
復能	-9.91028
化他	-9.91043
四住地	-9.91078
身體	-9.91081
有四種	-9.91117
乃是	-9.91174
其意	-9.91214
無量百千	-9.91249
佛教	-9.91266
當為	-9.91275
免	-9.91351
鏡	-9.91392
田	-9.91392
為體	-9.91433
招	-9.91469
歡喜踊躍	-9.91589
所聞	-9.91646
說經	-9.91817
如其	-9.91834
菩薩成就	-9.91894
經中	-9.9202
此翻	-9.92032
於佛法中	-9.92051
常見	-9.92053
樹下	-9.92157
大力	-9.92189
迦樓羅	-9.9235
如實了知	-9.92445
諸天人民	-9.9245
九品	-9.92456
正士	-9.92457
善行	-9.9249
能說	-9.92494
託	-9.92505
柱	-9.9253
種類	-9.9262
及彼	-9.92634
惜	-9.9269
愛著	-9.9277
自性清淨	-9.92821
亦應	-9.92822
缺	-9.9291
我聞	-9.92953
亦當	-9.92973
魔波旬	-9.93005
前後	-9.93039
觀音	-9.93064
亦不可得	-9.93084
術	-9.93148
八方	-9.93149
章門	-9.93195
人也	-9.93302
於未來世	-9.93307
轉輪聖王	-9.93376
經文	-9.93389
優婆夷	-9.9339
打	-9.93417
遺	-9.93429
究	-9.93432
經法	-9.93495
臭	-9.935
此法門	-9.93504
纏縛	-9.93725
正定	-9.93778
是心	-9.93895
如來所說	-9.93985
思量	-9.94021
得佛	-9.94096
寶蓋	-9.94118
何法	-9.94196
為眾生	-9.94214
得阿耨多羅三藐三菩提	-9.94236
行故	-9.94268
色身	-9.94276
帝王	-9.94286
顏	-9.94361
之因	-9.94378
頂禮佛足	-9.94432
多少	-9.94442
聲聞眾	-9.94466
如何	-9.94479
所證	-9.9449
負	-9.94515
靈	-9.94519
譬如有人	-9.94556
善趣	-9.94557
宿命	-9.94567
移	-9.9464
軍	-9.94828
中說	-9.94879
道法	-9.94933
威力	-9.95034
雜色	-9.95037
惡友	-9.95152
八種	-9.95185
不絕	-9.95207
生淨土	-9.9524
一句	-9.95296
度眾生	-9.95323
性故	-9.9533
生處	-9.95355
妙色	-9.95358
行相	-9.95397
震	-9.95411
忉利天	-9.95442
階	-9.95447
皆能	-9.9545
周匝	-9.95497
擇	-9.95513
此土	-9.9553
算數	-9.95567
弟	-9.95587
又云	-9.95729
應身	-9.9589
炎	-9.9589
我想	-9.95922
此言	-9.95954
八法	-9.95966
寶藏	-9.9602
悉令	-9.9605
樂聞	-9.96074
受者	-9.96111
悉知	-9.96111
不在	-9.96113
供養佛	-9.96153
文殊師利菩薩	-9.96203
不然	-9.96226
下品	-9.9628
功德莊嚴	-9.96354
滅故	-9.96371
大法	-9.96467
宅	-9.96523
如大	-9.96541
一體	-9.97014
三業	-9.97025
教授	-9.97198
良	-9.9729
兵	-9.97379
貌	-9.9745
身見	-9.97488
得無生法忍	-9.97493
放大光明	-9.9752
密迹金剛力士	-9.97561
願求	-9.97565
無厭足	-9.97616
若此	-9.97622
五十	-9.97722
人所	-9.97859
加持	-9.97922
之類	-9.97965
無所取	-9.97973
意識	-9.98009
三身	-9.98094
最後	-9.98203
於空	-9.98213
理趣	-9.98238
為佛	-9.9834
心念	-9.98354
上上	-9.98358
廣明	-9.98473
諸弟子	-9.98499
鐵	-9.98621
歌	-9.98636
婇女	-9.98665
比丘僧	-9.98678
預	-9.9871
寂然	-9.98717
為善	-9.98723
殃	-9.98738
安慰	-9.98756
色像	-9.98758
旋	-9.98805
不能得	-9.98886
於眼	-9.98958
而作	-9.98997
如夢	-9.99037
閑居	-9.99094
遙	-9.99202
志求	-9.99263
以何	-9.99264
修集	-9.99278
是事	-9.99319
行布施	-9.99339
亦復不	-9.99345
訶	-9.9938
護法	-9.99625
超越	-9.99668
貢高	-9.99761
發意	-9.99773
虛空中	-9.99774
佛知	-9.99777
啟	-9.99799
受想行識	-9.99804
空無	-9.99815
彼諸眾生	-9.99872
於眾生	-9.99964
臨終	-9.99968
作是言	-10.0009
無眾生	-10.001
為說法	-10.0025
八地	-10.0033
睡眠	-10.0041
歎佛	-10.0041
說名	-10.0047
唯然	-10.0053
奉事	-10.0057
而去	-10.006
人身	-10.0073
欲明	-10.0078
震動	-10.0083
閻浮	-10.0084
童女	-10.0085
空智	-10.0088
兩舌	-10.0089
渴	-10.009
曲	-10.0096
呼	-10.0098
復有四法	-10.0112
得名	-10.0114
常為	-10.0121
五百人	-10.0122
何不	-10.0126
無疑	-10.0131
經言	-10.0139
上煩惱	-10.0145
義利	-10.015
白佛	-10.0154
知識	-10.0159
得果	-10.0159
貴	-10.0161
說者	-10.0172
得陀羅尼	-10.019
吉	-10.0191
精勤	-10.0197
頗梨	-10.0201
鈍	-10.0201
浮	-10.0204
第九	-10.0206
合集	-10.0209
徵	-10.0211
彼天	-10.0229
一切菩薩	-10.0231
佛告彌勒	-10.0234
二菩薩	-10.0241
皆大歡喜	-10.0244
是如來	-10.0246
此說	-10.0256
大利益	-10.0266
非一	-10.0267
所須	-10.0269
大威德	-10.027
勸修	-10.0275
合成	-10.028
護持	-10.0282
諸外道	-10.0283
以一	-10.0286
之物	-10.0291
至心	-10.0295
大悲心	-10.0296
是諸菩薩	-10.0304
何謂為	-10.0309
迎	-10.0309
不修	-10.031
祇	-10.0311
開士	-10.0312
此識	-10.0313
施者	-10.0316
為利	-10.0317
例	-10.0318
須摩提	-10.0319
去來	-10.0319
勝義	-10.0322
勢力	-10.0335
清淨故	-10.034
或從	-10.0342
菩薩道	-10.0343
作業	-10.0345
侍者	-10.0348
波旬	-10.0349
諸大眾	-10.035
動搖	-10.0356
不究竟	-10.0362
惡行	-10.0375
不虛	-10.0384
當生	-10.0389
婦	-10.0399
犯戒	-10.0401
大精進	-10.0402
於生死	-10.0411
無上正真道	-10.0412
說之	-10.0415
時節	-10.0417
船	-10.0419
胎生	-10.042
瞻	-10.0421
成阿耨多羅三藐三菩提	-10.0421
般泥洹	-10.0422
元	-10.0431
是故我	-10.0441
利樂	-10.0451
無依	-10.0456
恒河沙	-10.0467
以自	-10.0472
無量清淨佛	-10.0484
願生彼國	-10.0496
諸大	-10.0501
唱	-10.0503
得清淨	-10.0503
辦	-10.0523
僧祇	-10.0528
習氣	-10.0529
植	-10.0536
殖	-10.0536
侵	-10.0543
狂	-10.0544
積聚	-10.0547
焉	-10.0548
麗	-10.0548
膝	-10.0549
四天王	-10.0552
舊	-10.0553
三毒	-10.0554
受苦	-10.0554
不二	-10.0557
東	-10.0561
禮敬	-10.0563
而此	-10.0564
造惡	-10.0567
出過	-10.057
馬勝	-10.0575
成就如是	-10.0577
彼諸菩薩	-10.0577
倚	-10.0585
上品	-10.0594
作此	-10.0598
前際	-10.06
修梵行	-10.0609
見有	-10.0623
蓮	-10.0632
深妙	-10.0645
涌	-10.0647
文中	-10.065
一佛	-10.065
作諸	-10.0651
何等為十	-10.0652
無色界	-10.0653
赴	-10.0655
牙	-10.0659
毫	-10.0659
熏	-10.066
妙慧	-10.0664
生已	-10.0666
請佛	-10.067
勇猛精進	-10.0675
四攝	-10.0676
月光	-10.0676
如幻化	-10.0679
值遇	-10.0689
能作	-10.0699
此乘	-10.0701
共相	-10.0711
又以	-10.0717
鉢囉	-10.0721
長老	-10.0723
即有	-10.0731
」,	-10.0734
了達	-10.0736
劫中	-10.074
是一	-10.0741
為令	-10.0751
花鬘	-10.0752
天帝釋	-10.0758
未生	-10.0764
速得	-10.0766
眾生心	-10.0766
奏	-10.077
到彼岸	-10.0771
防	-10.0773
頭陀	-10.0781
風吹	-10.0784
然燈	-10.0784
三德	-10.079
沙門婆羅門	-10.0791
人等	-10.0801
又此	-10.0803
哩	-10.0803
供養如來	-10.081
經行	-10.0811
如其所	-10.0814
愚人	-10.0816
妙音	-10.0824
若聞	-10.0848
靡不	-10.0849
法行	-10.0853
現微笑	-10.0856
而現	-10.086
有此	-10.0863
能成就	-10.0866
希望	-10.0886
憎	-10.0886
二義	-10.0886
畫	-10.0887
諸見	-10.0891
說頌曰	-10.0897
獸	-10.0899
不忘	-10.0906
如空	-10.0906
所念	-10.0907
不隨	-10.0908
修因	-10.0908
得言	-10.0912
或以	-10.0918
眾多	-10.0919
所有眾生	-10.0922
根性	-10.0922
』	-10.0923
言我	-10.0928
脈	-10.0929
未盡	-10.0941
專念	-10.0946
展轉	-10.095
臥具	-10.0961
於佛所	-10.0965
由彼	-10.0965
為諸	-10.0969
佛境界	-10.0971
多所	-10.0982
善住	-10.0983
六處	-10.0985
轉相	-10.099
是菩薩摩訶薩	-10.0991
以法	-10.0991
言語	-10.0998
所說法	-10.1002
花果	-10.1003
逼	-10.1003
默	-10.1004
原	-10.1011
非常	-10.1012
澤	-10.1013
任	-10.1014
所現	-10.1014
輒	-10.1016
繞	-10.102
能信	-10.1027
一切智智	-10.1031
於時	-10.1039
皆從	-10.1042
教令	-10.1043
難可	-10.1043
悉得	-10.1045
依於	-10.1046
分明	-10.1047
而為說法	-10.1057
如是知	-10.1059
事故	-10.1062
此三千大千世界	-10.1065
果也	-10.1065
三輩	-10.1073
法僧	-10.1076
若言	-10.1078
天眾	-10.1081
得無生忍	-10.1085
餘人	-10.1085
或現	-10.1091
無量壽經	-10.1092
行施	-10.1097
受報	-10.1098
踊躍	-10.1099
佛前	-10.1121
不善業	-10.1126
醫王	-10.1129
尸	-10.113
若爾	-10.1136
跋陀羅波梨	-10.1137
自分	-10.1139
摩尼珠	-10.1142
寄	-10.1142
為人	-10.1144
繩	-10.1146
飢	-10.1147
希	-10.1158
以是因緣	-10.1183
萬二千	-10.1189
本際	-10.119
摧伏	-10.1192
無等	-10.1193
所樂	-10.1202
不違	-10.1207
於一切處	-10.1208
不解	-10.1208
今者	-10.1209
修菩薩行	-10.1215
形色	-10.1216
初中	-10.1222
發趣	-10.1223
於阿耨多羅三藐三菩提	-10.123
不如	-10.123
所為	-10.1238
無性	-10.1244
受記	-10.1247
今我	-10.1248
誑	-10.125
踰	-10.1253
營	-10.1253
卑	-10.1254
五濁	-10.1255
鹿	-10.1256
竭	-10.1256
奢摩他	-10.126
廢	-10.1262
卿	-10.1263
劇	-10.1268
菩薩有四	-10.1268
此則	-10.1268
是我	-10.127
行菩薩行	-10.1278
能見	-10.128
無行	-10.1285
壽量	-10.1288
過於	-10.1294
求道	-10.1295
希求	-10.1295
苦滅	-10.1297
熾盛	-10.1298
風界	-10.1299
諸善	-10.1306
中有四	-10.1308
佛所說	-10.1315
詐	-10.1318
王宮	-10.1336
愁	-10.1336
復更	-10.1337
因緣故	-10.1338
黃金	-10.1348
滅後	-10.1356
博	-10.1359
十方諸佛	-10.136
門者	-10.1361
空法	-10.1368
大乘菩薩藏正法經	-10.137
已生	-10.137
當作	-10.1376
試	-10.1376
納	-10.1378
以何義故	-10.1379
各自	-10.1382
二萬	-10.1385
何等為	-10.1389
是菩薩行	-10.139
斷見	-10.139
乖	-10.1392
唐	-10.1394
與諸	-10.1395
入涅槃	-10.1397
山王	-10.1397
盡智	-10.1398
諸經	-10.1399
喜悅	-10.1415
妙花	-10.1418
不空	-10.1424
今即	-10.143
第二從	-10.1435
數數	-10.1437
云何菩薩摩訶薩	-10.144
不敢	-10.1442
瓶	-10.1444
無取	-10.145
天宮	-10.1462
遊行	-10.1469
王如來	-10.147
天耳	-10.1472
所可	-10.1475
佛者	-10.1479
趣入	-10.1489
令人	-10.149
斷滅	-10.1491
無量劫	-10.1502
於世	-10.1502
又彼	-10.1503
補特伽羅	-10.1507
妙樂	-10.1508
須臾	-10.1509
厚	-10.151
三千	-10.1514
之想	-10.1514
淳	-10.1515
之者	-10.152
彼菩薩	-10.1521
況復	-10.1522
烏	-10.1522
貫	-10.1524
成辦	-10.1527
覺分	-10.153
以佛	-10.1532
立名	-10.1532
等無有異	-10.1534
是故如來	-10.1536
若住	-10.1545
述云此第二	-10.1545
十二因緣	-10.1546
一切善根	-10.1547
卷第十	-10.1551
中無	-10.1555
惡心	-10.1556
無窮	-10.1559
等心	-10.1566
依報	-10.1572
有其	-10.1574
永離	-10.1579
是大	-10.1584
先明	-10.1596
發大	-10.1597
天魔	-10.1599
踊	-10.1604
後明	-10.1605
有佛	-10.1605
隨入	-10.1607
現身	-10.1608
佛功德	-10.1621
摩睺羅伽	-10.1628
謂於	-10.1629
知是	-10.1629
無復	-10.1631
麥	-10.1632
於一切眾生	-10.1633
空性	-10.1634
之地	-10.1635
變異	-10.1636
狐疑	-10.1637
得益	-10.1638
豐	-10.1638
親友	-10.164
枯	-10.1641
無邊際	-10.1641
心如	-10.1646
耳鼻舌身意	-10.1647
園林	-10.1656
內心	-10.1658
分不及一	-10.1661
無所依	-10.1662
明佛	-10.1672
常以	-10.1678
永斷	-10.1681
我昔	-10.1681
苦集	-10.1683
事業	-10.1684
菩薩成就四法	-10.169
闍	-10.169
六萬	-10.1694
利根	-10.1704
及諸菩薩	-10.171
見聞	-10.1717
忍力	-10.1717
不可盡	-10.1721
善本	-10.1728
我復有	-10.1729
能觀	-10.1741
叉手	-10.1743
照曜	-10.1746
惠	-10.1757
音響	-10.1758
堪任	-10.1762
左右	-10.1762
想念	-10.1764
落	-10.1766
洗	-10.1766
承佛威神	-10.1767
疲	-10.1767
成道	-10.1767
盧	-10.1767
怪	-10.1769
離一切	-10.177
我作佛時	-10.177
虛偽	-10.1771
豈不	-10.1774
少法	-10.1776
謝	-10.1777
更有	-10.1777
不成	-10.1782
準	-10.1783
能持	-10.1785
上明	-10.1792
說有	-10.1795
中品	-10.1824
陀羅尼門	-10.1824
詮	-10.1832
釋之	-10.1832
惡口	-10.1844
敢	-10.1846
閑	-10.1861
業道	-10.1887
大城	-10.1888
金剛手菩薩大祕密主	-10.189
悕望	-10.1891
諸漏	-10.1895
伴	-10.1896
師子座	-10.1896
虛空界	-10.1897
聞如是	-10.1899
於汝意云何	-10.1901
成佛道	-10.1903
亦云	-10.1904
三願	-10.1905
如是思惟	-10.1907
不生不滅	-10.1909
闕	-10.1912
肩	-10.1912
高下	-10.1913
念處	-10.1915
應修	-10.1917
得不退轉	-10.192
清淨心	-10.1921
前世	-10.1924
涅槃界	-10.1929
如來藏者	-10.193
即知	-10.193
天帝	-10.1937
為眾	-10.1944
所有一切	-10.1945
亦皆	-10.1959
二句	-10.196
百千劫	-10.1969
同一	-10.1973
香花	-10.1977
顧	-10.1979
還復	-10.1981
於身	-10.1983
四明	-10.1999
其上	-10.2001
聲聞辟支佛	-10.201
醫	-10.2012
至真	-10.2014
入一乘	-10.2019
義也	-10.202
復次自夢	-10.2021
充	-10.2022
能捨	-10.2025
殊特	-10.2029
優陀夷	-10.2032
皮	-10.2035
忻	-10.2037
諍論	-10.2039
遵	-10.2039
連	-10.2043
戒行	-10.2044
鳴	-10.2047
欲求	-10.2049
一日	-10.2054
與我	-10.2054
是故名為	-10.2055
已上	-10.2073
智也	-10.2081
一切法無	-10.2088
如來身	-10.2088
尊者阿難	-10.21
同居	-10.2102
能除	-10.2104
觀世音	-10.2114
於諸法中	-10.2117
法輪	-10.212
善解	-10.2121
五惡	-10.2128
無所緣	-10.2134
修諸	-10.2134
水界	-10.2139
都無	-10.2139
念言	-10.214
即生	-10.2141
我以	-10.2145
如汝所說	-10.2159
不犯	-10.216
捉	-10.216
不相	-10.2162
普照	-10.2163
奇	-10.2164
智故	-10.2164
阿閦如來	-10.2166
瞋怒	-10.2168
校	-10.2171
醉	-10.2173
注	-10.2173
悉無	-10.2177
梨	-10.2181
油	-10.2183
尊特	-10.2183
願佛	-10.2191
願終不	-10.2193
不亂	-10.2193
五乘	-10.2195
利益眾生	-10.2207
慳悋	-10.2207
五根	-10.221
於正法	-10.2216
佛之	-10.2221
理家	-10.2221
無處	-10.2233
魔軍	-10.2239
當於	-10.224
此章	-10.2242
經者	-10.2244
生時	-10.2246
千人	-10.2247
之本	-10.2255
所造	-10.2257
求於	-10.2258
行人	-10.226
阿蘭若	-10.2264
思想	-10.2279
聞之	-10.2281
阿閦佛	-10.2281
是故言	-10.2285
魔王	-10.2288
與彼	-10.2288
無生忍	-10.2288
欲使	-10.2293
戀	-10.2297
有十	-10.23
爾時世尊而說偈言	-10.2301
急	-10.2302
揚	-10.2304
阿羅漢辟支佛	-10.2304
我不說	-10.2305
善利	-10.2306
亦不見	-10.231
瞋恨	-10.2311
弱	-10.2311
四聖諦	-10.2311
有六	-10.2316
無緣	-10.2332
是身	-10.2337
此方	-10.2338
人眾	-10.2339
王位	-10.2342
二百	-10.2354
菩提分法	-10.2359
悲心	-10.2363
潔	-10.2363
漸次	-10.2365
百千億	-10.2372
菩薩所	-10.2374
所施	-10.2399
除滅	-10.24
慈氏	-10.2405
護國	-10.2406
頗	-10.2407
牽	-10.2419
解云	-10.2424
於大乘	-10.2426
知一切法	-10.2427
在虛空中	-10.2429
亦以	-10.2436
為作	-10.2439
曠野	-10.244
化人	-10.2441
譽	-10.2442
正報	-10.2445
善思念之	-10.2445
耽著	-10.2453
不得是	-10.2455
逼迫	-10.2456
久遠	-10.2456
於菩提	-10.2457
不爾	-10.2468
勝行	-10.2471
不由	-10.2475
實無	-10.2477
行中	-10.2485
隨轉	-10.2487
諸法無	-10.2491
稱歎	-10.2492
不貪	-10.2493
悲愍	-10.2495
於十方	-10.2496
墮惡道	-10.2496
得此	-10.2497
為得	-10.25
五蘊	-10.2501
妙觀	-10.2502
於後	-10.2503
初又有	-10.2504
無數劫	-10.251
羅網	-10.2512
得人身	-10.2513
但為	-10.2519
栴檀	-10.252
或時	-10.2523
瞋心	-10.2524
經道	-10.2526
隨彼	-10.2531
為其	-10.2543
經論	-10.2545
是等	-10.2551
諸苦惱	-10.2555
何有	-10.2561
伺察	-10.2572
冠	-10.2574
佛國土	-10.2581
諸佛所	-10.2582
弊	-10.2582
諍訟	-10.2585
綺語	-10.2585
甲	-10.2585
乳	-10.2586
訓	-10.2586
遭	-10.2587
阿闍梨	-10.2589
准	-10.2591
困	-10.2592
寒	-10.2593
乾	-10.2593
供養諸佛	-10.2596
寶幢	-10.2597
須菩提言	-10.2597
表示	-10.2599
於大眾中	-10.26
糞	-10.2601
空故	-10.2605
罪業	-10.2607
不令	-10.2608
佛名	-10.2609
清淨戒	-10.2613
五百比丘	-10.2614
若依	-10.2618
佛告舍利弗	-10.262
如是了知	-10.2623
隨逐	-10.2625
不肯	-10.2631
北	-10.2636
佛時	-10.264
不墮	-10.264
廣釋	-10.2642
以下明	-10.2644
生淨信	-10.2644
彼佛國土	-10.2647
少欲	-10.2651
愛敬	-10.2652
若法	-10.2656
始終	-10.2659
能以	-10.267
如是一切	-10.2673
能了	-10.2678
最為	-10.2679
是常	-10.2681
一切佛	-10.2682
善調伏	-10.2689
復問	-10.2692
當以	-10.2693
普現	-10.27
為三	-10.2701
作是說	-10.2703
離煩惱	-10.2712
菩提分	-10.2714
而於	-10.2715
一生補處	-10.2718
法音	-10.272
車𤦲	-10.2721
大哀	-10.2722
損減	-10.2728
域	-10.2732
非可	-10.2732
諸天眾	-10.2735
若復有人	-10.2736
脩	-10.2736
朝	-10.2737
精舍	-10.2741
授與	-10.2748
妙行	-10.2749
漸至	-10.2752
有無量	-10.2754
作大	-10.2757
五戒	-10.2758
知之	-10.276
其光	-10.2762
大乘經	-10.2764
不入	-10.2764
十千	-10.2767
樹者	-10.2774
阿彌陀佛國	-10.2775
無非	-10.2787
求佛	-10.2791
之體	-10.2795
無減	-10.2803
於佛法	-10.2804
諸善法	-10.2812
八千	-10.2813
不轉	-10.2821
皆以	-10.2823
陀羅	-10.2825
之眾	-10.2831
云何名	-10.2831
願說	-10.2834
白法	-10.2837
民	-10.2839
但是	-10.2843
不愛	-10.2846
墜	-10.285
大道	-10.2851
便得	-10.2854
發生	-10.2856
為相	-10.2863
清涼	-10.2864
阿那含	-10.2865
不遠	-10.2865
我不	-10.2866
幽	-10.287
截	-10.2872
而發趣	-10.2873
才	-10.2874
之果	-10.2874
勇健	-10.2875
魔事	-10.2879
上首	-10.2882
輕慢	-10.2884
仁賢	-10.2885
錯	-10.2885
堂	-10.2898
放光明	-10.29
言教	-10.2902
即自	-10.2906
佛地	-10.2912
馱	-10.2916
千萬	-10.2919
無滅	-10.292
天龍	-10.2926
淨穢	-10.293
相者	-10.2936
日光	-10.2943
般若波羅蜜多	-10.2944
自性空	-10.2952
為諸菩薩	-10.2963
初生	-10.2966
生身	-10.2975
教化眾生	-10.2976
如佛所說	-10.2979
獄	-10.2979
詞	-10.2979
最初	-10.2986
佛為	-10.2994
生大	-10.2994
設我得佛	-10.3004
大導師	-10.3008
千歲	-10.301
各異	-10.3011
炬	-10.3011
生故	-10.3011
杖	-10.3012
敗	-10.3014
擲	-10.3017
種種莊嚴	-10.3019
報恩	-10.3021
委	-10.3023
坑	-10.3026
臨命終時	-10.3026
不可得故	-10.303
房	-10.303
開導	-10.3037
有所得	-10.3038
欺誑	-10.3045
萬行	-10.3049
三塗	-10.3064
釋種	-10.3076
無得	-10.3076
他心	-10.3079
初業	-10.3084
不覺	-10.3084
行法	-10.3089
無與等	-10.3089
言辭	-10.3099
以諸	-10.3103
資生	-10.3105
所不能	-10.3108
志願	-10.311
弘誓	-10.311
切	-10.3121
是故得生	-10.3127
住者	-10.3134
最尊	-10.3138
不出	-10.3139
心住	-10.3147
善不善	-10.3154
意解	-10.3155
薄伽梵	-10.3158
碎	-10.316
覲	-10.3162
虛誑	-10.3164
舒	-10.3167
悋	-10.3168
睡	-10.317
今經	-10.317
逢	-10.3174
泉	-10.3174
而白佛言	-10.3174
稍	-10.3177
庶	-10.318
臭穢	-10.318
漸漸	-10.3181
普賢	-10.3183
於三界	-10.3183
縱廣	-10.3183
嬰兒	-10.3185
付	-10.3187
諸界	-10.3191
若修	-10.3191
懈	-10.3192
地上	-10.3193
又二	-10.3193
三地	-10.3193
孔	-10.3195
令他	-10.3197
穢土	-10.3197
生盲	-10.3198
我是	-10.3199
歡	-10.3204
必有	-10.3206
所致	-10.3209
若善男子善女人	-10.3212
幢幡	-10.3212
世世	-10.3225
何等四	-10.3242
常修	-10.3244
別明	-10.3247
掌	-10.3254
不欲	-10.3256
佛法僧	-10.3259
從佛	-10.3262
【	-10.3269
墮地獄	-10.327
世界中	-10.3274
一切世界	-10.328
六根	-10.3281
火界	-10.3284
地前	-10.3286
一生	-10.3288
信者	-10.329
其聲	-10.329
無可	-10.3298
常得	-10.3298
不懷	-10.3301
悔過	-10.3302
譏	-10.3313
飯	-10.3315
務	-10.3321
防護	-10.3323
無有異	-10.3323
自有	-10.333
科	-10.3332
爛	-10.3332
從何	-10.3332
藉	-10.3332
成熟眾生	-10.3333
兄	-10.3335
兄弟	-10.3336
飢渴	-10.3336
人中尊	-10.3339
二見	-10.3342
樹林	-10.3356
所持	-10.3358
毀謗	-10.3361
何等名為	-10.3368
在此	-10.337
其佛	-10.3371
七重	-10.3373
捨於	-10.3379
二人	-10.3381
劫數	-10.3384
我今當	-10.3387
一切人	-10.3399
得是	-10.3407
一諦	-10.3413
所出	-10.3418
不正	-10.3423
現證	-10.3436
過惡	-10.3436
佛德	-10.3442
無量清淨佛國	-10.3444
聖者	-10.3444
為本	-10.3451
勝華藏	-10.3452
未聞	-10.3452
菩薩亦爾	-10.3454
諸善男子	-10.346
眠	-10.3468
生愛樂	-10.347
娛樂	-10.3471
其性	-10.3472
遶	-10.3472
豪	-10.3473
偽	-10.3476
君	-10.3483
若菩薩	-10.3485
法也	-10.3487
濕	-10.3488
教誨	-10.3489
隨時	-10.3493
三諦	-10.3496
威光	-10.3503
而作是言	-10.3504
伽陀	-10.3509
往彼	-10.3509
於人	-10.3514
清白	-10.3516
自體	-10.352
彼即	-10.3526
無上正真之道	-10.353
集會	-10.3533
善修	-10.3538
大智慧	-10.3541
墮惡趣	-10.3545
法眼	-10.3546
中出	-10.3549
如是諸	-10.3551
豈非	-10.3554
大臣	-10.3556
化身	-10.3561
今世	-10.3561
求索	-10.3564
奉持	-10.3577
智人	-10.3606
如來以	-10.3607
就中	-10.3607
依此	-10.3608
正真	-10.361
是無常	-10.3617
用是故	-10.3621
而為上首	-10.3624
書寫	-10.3624
從是	-10.3626
刺	-10.3627
耆闍崛山	-10.3627
跡	-10.3631
舍衛	-10.3631
耽	-10.3631
殘	-10.3632
天樂	-10.3632
點	-10.3632
鮮	-10.3632
敷演	-10.3633
我亦	-10.3634
危	-10.3636
驗	-10.3639
休息	-10.3639
融	-10.3639
大丈夫	-10.364
到已	-10.3642
釋言	-10.3645
瘡	-10.3645
報應	-10.3646
傍生	-10.3649
言詞	-10.3654
值佛	-10.3655
述云此第三	-10.3656
第一義諦	-10.3657
來集會	-10.3659
離相	-10.3662
受樂	-10.3667
將欲	-10.3674
為緣	-10.368
於自	-10.3684
眾緣	-10.369
住持	-10.369
後結	-10.369
觀之	-10.3691
願也	-10.3704
一依	-10.3705
索	-10.3711
便生	-10.3717
耀	-10.3722
億百千	-10.3729
問佛	-10.373
無垢施女	-10.3732
頻婆	-10.3733
能與	-10.3735
輪王	-10.3737
今言	-10.3738
二十五	-10.374
彰其	-10.3744
十善	-10.3745
佛眼	-10.3749
不相違	-10.3751
所獲	-10.3751
遍知	-10.3753
如須彌山	-10.3755
優波離	-10.3764
觀行	-10.3766
常懷	-10.3769
追	-10.3779
獨覺	-10.378
釋提桓因	-10.3784
頭面禮足	-10.3785
侶	-10.3788
能滅	-10.3788
寤	-10.3789
玉	-10.379
氏	-10.3791
世尊告	-10.3796
善權方便	-10.38
富貴	-10.3802
蛇	-10.3803
種姓	-10.3804
何者為	-10.3806
師長	-10.381
父子	-10.3811
怨家	-10.3814
勸助	-10.3818
即見	-10.3825
滅除	-10.3828
分齊	-10.3831
曩	-10.3831
為二	-10.3831
數量	-10.3834
諸苾芻	-10.3835
然此	-10.3838
慧眼	-10.384
大明	-10.384
為是	-10.3845
即得往生	-10.3849
唯願世尊	-10.385
常有	-10.386
非也	-10.3865
無退	-10.3878
大富	-10.3881
斯等	-10.3884
菩薩摩訶薩以	-10.389
令此	-10.3902
不須	-10.3907
此乃	-10.3925
初標	-10.3928
菩提行	-10.3928
而悉	-10.3928
心想	-10.393
大勢至	-10.3933
墮落	-10.3935
有如是	-10.3937
今當	-10.394
何為	-10.3941
奴婢	-10.3942
即起	-10.3945
告溥首	-10.3948
工巧	-10.3949
塗香	-10.395
影像	-10.3954
四無量	-10.3955
法光明	-10.3956
羸	-10.3957
魚	-10.3959
飯食	-10.3961
避	-10.3963
殺害	-10.3965
奇特	-10.3969
此以何義	-10.3978
同前	-10.3979
何義	-10.3984
徒眾	-10.3986
唎	-10.399
功德者	-10.3996
衣食	-10.3997
及其	-10.4007
一偈	-10.4009
一切諸法皆	-10.4012
三百	-10.4013
次辨	-10.4015
能行	-10.4017
甚多	-10.4017
是名如來	-10.402
三句	-10.4024
形相	-10.4024
是究竟	-10.4027
或云	-10.4031
而可	-10.4034
復為	-10.4037
無所行	-10.4043
所在	-10.405
形像	-10.4066
若在	-10.4069
文云	-10.4073
得入	-10.4073
道中	-10.4074
作如是說	-10.4076
慧力	-10.4079
不見有	-10.4083
非實	-10.4089
多劫	-10.4089
諸餘	-10.409
人間	-10.4091
大海水	-10.4092
之理	-10.41
右膝著地	-10.4107
當作佛	-10.4108
召	-10.411
善住意言	-10.4112
慎	-10.4112
太	-10.4113
黑闇	-10.4114
功勳	-10.4114
老病死	-10.4114
所覆	-10.4116
歌舞	-10.4116
無有少法	-10.4116
勤精進	-10.4118
紅	-10.4119
折	-10.4119
浴池	-10.412
猶若	-10.4121
後時	-10.4123
朽	-10.4123
資具	-10.4132
應如是	-10.4133
有八	-10.4134
若是	-10.4139
一切大眾	-10.414
波羅	-10.4143
起行	-10.4145
盡故	-10.4146
無念	-10.4146
世法	-10.4147
平等故	-10.4149
龍樹	-10.4153
諸人	-10.4158
牒前	-10.4177
持法	-10.4186
受身	-10.4193
出現於世	-10.4195
梵云	-10.4197
其餘	-10.4197
可觀	-10.4201
身中	-10.4204
心清淨	-10.4205
二諦	-10.4207
說法者	-10.421
萬里	-10.4219
真子	-10.422
普為	-10.4221
勝解	-10.4229
一切智心	-10.4239
不受後有	-10.4241
於法界	-10.4242
覆藏	-10.4251
幡	-10.4252
與佛	-10.4258
眾善	-10.4259
那羅延	-10.4267
眼盡邊	-10.427
誡	-10.4271
調御丈夫	-10.4272
明行足	-10.4274
飲酒	-10.4276
嬈	-10.4276
難思	-10.4278
一日一夜	-10.4279
附	-10.4281
一百	-10.4281
競	-10.4281
戰	-10.4281
如來法身	-10.4284
伏藏	-10.4285
六道	-10.4286
波斯匿王	-10.4288
前三	-10.4288
於過去	-10.429
恐懼	-10.4291
恥	-10.4292
就文為	-10.4293
菩提樹	-10.4293
停	-10.4293
摩訶衍	-10.4296
經說	-10.43
大光明	-10.4302
身光	-10.4304
下釋	-10.4305
同聲	-10.4305
四兵	-10.4309
世諦	-10.4312
牛王	-10.4312
十方佛	-10.4314
二釋	-10.4319
身口	-10.4321
菩薩大士	-10.4326
自在王	-10.433
勤行	-10.4332
之教	-10.434
能破	-10.4342
如水	-10.4342
大德舍利弗	-10.4344
於道	-10.4361
斷一切	-10.4362
乃為	-10.4374
敬重	-10.4378
樂法	-10.4383
求法	-10.4383
有緣	-10.4386
北方	-10.4388
三義	-10.4389
將護	-10.4398
善人	-10.4404
以來	-10.441
其地	-10.4414
十劫	-10.4417
由斯	-10.4417
百千萬	-10.442
從其	-10.4421
何因	-10.4422
告言	-10.4422
屈	-10.4426
勸令	-10.4428
水中	-10.4432
為實	-10.4434
不能知	-10.4435
不足	-10.4436
疲倦	-10.4437
踰繕那	-10.4444
曇	-10.4446
甘	-10.4449
我能堪忍	-10.445
如是乃至	-10.4452
讀	-10.4453
淚	-10.4454
即為宣說	-10.4455
厄	-10.4456
災	-10.4458
每	-10.4458
狗	-10.4459
無所作	-10.446
齒	-10.4462
冷	-10.4462
疑悔	-10.4466
適悅	-10.4469
難知	-10.447
安置	-10.4471
墮於	-10.4472
住世	-10.4474
道德	-10.4478
念佛三昧	-10.4481
為眾生說	-10.4482
聞經	-10.4485
行也	-10.4486
能成	-10.449
即入	-10.4492
別體	-10.4494
述云第二	-10.4494
藥叉	-10.4496
不具	-10.4513
諸大菩薩	-10.4524
云何菩薩	-10.4533
總明	-10.4535
山林	-10.454
志樂	-10.4541
度者	-10.4542
見我	-10.4542
諸佛世界	-10.4543
經中說	-10.4547
天神	-10.4548
生長	-10.4561
信施	-10.4562
釋迦牟尼如來	-10.4564
諸惡趣	-10.4564
福報	-10.4564
病人	-10.4565
力士	-10.457
三歸	-10.4571
一切善法	-10.4571
第三從	-10.4574
普令	-10.4588
猶如虛空	-10.4588
五明	-10.4589
不了義	-10.4596
詣佛所	-10.4598
現神變	-10.4598
慧命	-10.4599
大會	-10.4601
無取無	-10.4602
第一明	-10.4606
為證	-10.4606
雷	-10.4607
藝	-10.4611
一切種智	-10.4616
角	-10.4619
不惜身命	-10.4621
朗	-10.4625
割	-10.4626
妨	-10.4628
延	-10.4629
則非	-10.4633
映	-10.4633
解脫知見	-10.4636
忽然	-10.4638
契經	-10.464
樹木	-10.4641
中輩	-10.465
違背	-10.4652
實語	-10.4653
無量諸佛	-10.4654
若如是者	-10.4655
恒河沙等	-10.4658
已見	-10.4667
末世	-10.4669
名增上慢	-10.467
證法	-10.4671
若諸	-10.4676
命根	-10.4678
三解脫門	-10.4682
麼	-10.4683
攝持	-10.4686
言音	-10.469
愛語	-10.4691
有疑	-10.4693
來世	-10.4694
邪行	-10.4695
如是舍利子	-10.4698
復過	-10.4703
從彼	-10.4705
總舉	-10.4706
方廣	-10.4708
眼見	-10.4709
釋梵	-10.4713
豫	-10.4713
梵音	-10.4723
唯是	-10.4727
恭敬供養	-10.4732
而受	-10.4732
或生	-10.4734
不用	-10.474
觀彼	-10.4741
華香	-10.4743
等覺	-10.4745
邑	-10.4747
堅實	-10.4748
菩薩乘	-10.4748
大苦	-10.4751
是故當知	-10.4752
無戲論	-10.4753
意生身	-10.4754
池者	-10.4754
枝葉	-10.4764
無生智	-10.4765
即此	-10.4766
無自性	-10.477
又非處者	-10.4772
法器	-10.4773
阿閦佛剎	-10.4777
問答	-10.4782
伎	-10.4784
鎧	-10.4788
毘琉璃	-10.4788
同時	-10.4788
他化自在天	-10.4794
愧	-10.4796
官	-10.4797
所作已辦	-10.4797
后	-10.4797
非色	-10.4797
單	-10.4798
偏袒右肩	-10.4798
保	-10.4799
剋	-10.48
等故	-10.48
具諸	-10.4801
恃	-10.4802
鬪諍	-10.4803
赫	-10.4806
黨	-10.4808
寬	-10.4809
眾德	-10.481
尺	-10.4811
緣故	-10.4811
禽	-10.4811
汎	-10.4812
種善根	-10.4815
又言	-10.4817
胡	-10.482
處所	-10.4822
作惡	-10.4824
照明	-10.4825
彼彼	-10.4825
所趣	-10.4828
若非	-10.4828
遠離一切	-10.4829
妙華	-10.4829
磨	-10.4832
彼佛剎中	-10.4834
因緣和合	-10.4844
捨心	-10.4849
至于	-10.4859
通別	-10.4863
乃得	-10.4869
生死之	-10.4871
其相	-10.4882
奉施	-10.4888
遙見	-10.489
護念	-10.489
而得自在	-10.4894
今欲	-10.4894
所愛	-10.4895
化主	-10.4897
或為	-10.4901
大慧	-10.4908
化度	-10.4923
勝於	-10.4924
不識	-10.4928
醫藥	-10.4937
有八萬四千	-10.4937
貪心	-10.4943
光色	-10.4949
正思惟	-10.4956
女言	-10.4958
精進力	-10.4959
無生無滅	-10.496
華嚴	-10.496
染心	-10.4961
於諸佛	-10.4962
療	-10.4966
即從座起	-10.4968
戶	-10.497
三人	-10.4971
第三明	-10.4971
其土	-10.4973
說法時	-10.4975
固	-10.4976
後一	-10.4978
慚	-10.4979
與大比丘眾	-10.498
按	-10.4981
阿修羅王	-10.4981
虎珀	-10.4984
徐	-10.4985
遠離於	-10.4986
諫	-10.4986
菩薩眾	-10.4986
長短	-10.4989
神通力	-10.4996
親屬	-10.5002
無倦	-10.5002
是處	-10.5005
勝事	-10.5007
末香	-10.5012
城邑	-10.5012
成滿	-10.5013
六地	-10.5016
光明照	-10.5021
中初言	-10.5024
寶華	-10.5028
若說	-10.503
以神通力	-10.5039
是初地	-10.5041
比丘眾	-10.5047
林中	-10.5048
照耀	-10.5054
或聞	-10.5055
勸請	-10.5058
合掌恭敬	-10.5063
修治	-10.5065
大千	-10.5065
無失	-10.5071
九十	-10.5073
妙香	-10.5078
教法	-10.5082
速證	-10.5085
假令	-10.5088
當知此	-10.5091
現此	-10.5092
報身	-10.5099
若復	-10.5099
教人	-10.51
多諸	-10.5102
頃	-10.5109
深生	-10.511
應說	-10.5112
能感	-10.5114
我成佛	-10.5114
次名	-10.512
就初	-10.5128
傍	-10.513
作是觀	-10.5131
長者子	-10.5134
諸法性	-10.5136
五百歲	-10.5139
如來身者	-10.5139
陀曰	-10.5141
能善	-10.5141
誰能	-10.5144
何人	-10.5149
陽焰	-10.5154
簡擇	-10.5155
偷盜	-10.5156
憎嫉	-10.5158
吒	-10.5159
行願	-10.516
孤	-10.516
私	-10.516
噉	-10.516
漂	-10.516
禽獸	-10.516
憒閙	-10.5161
祕	-10.5162
吠	-10.5162
邪婬	-10.5164
敵	-10.5164
煩	-10.5166
怯	-10.5166
夏	-10.5167
辛	-10.5168
勝鬘夫人	-10.5168
因也	-10.517
眼識	-10.5172
當復	-10.5176
十惡	-10.5177
穿	-10.5177
誰為	-10.518
之具	-10.5183
地持	-10.5183
昔日	-10.5184
上至	-10.5194
欣樂	-10.5196
身口意業	-10.5197
諸凡夫	-10.5199
自歸	-10.5201
頌曰	-10.5201
若曹	-10.5202
若其	-10.5209
知者	-10.5216
本末	-10.5222
觀諸法	-10.5228
頂上	-10.5233
此是如來	-10.5237
斷絕	-10.5237
之聲	-10.5241
門中	-10.525
必得	-10.525
諸眾生等	-10.5251
當成	-10.5254
聽經	-10.5254
寶莊嚴	-10.5257
一味	-10.5259
和雅	-10.5259
之間	-10.5261
別離	-10.5265
搖	-10.5269
病苦	-10.5274
兜率天	-10.5276
使人	-10.5277
必當	-10.5278
隨心	-10.5279
以諸菩薩	-10.5288
百由旬	-10.5288
行菩薩道	-10.5292
是眼	-10.5297
俱胝劫	-10.53
寶網	-10.5305
香華	-10.5306
學者	-10.5308
降魔	-10.531
續	-10.531
因中	-10.5311
髻	-10.5311
被大甲冑	-10.5311
神識	-10.5312
不斷絕	-10.5316
善根力故	-10.5316
染愛	-10.532
復生	-10.5326
次有佛名	-10.5328
童	-10.533
何等為五	-10.5331
下至	-10.5336
不可稱計	-10.5337
終無	-10.5342
螺	-10.5342
產	-10.5347
調御	-10.5348
健	-10.535
提婆達多	-10.535
昏	-10.535
酬	-10.5352
無所見	-10.5353
極重	-10.5354
腹	-10.5355
聞是經	-10.5362
逼惱	-10.5364
百歲	-10.5364
一切苦	-10.5366
果德	-10.5366
既是	-10.5367
聞其	-10.537
山澤	-10.5371
利益安樂	-10.5375
智度論	-10.5376
可信	-10.5377
輸	-10.5377
難信	-10.5377
如是受持	-10.5381
復說	-10.5384
文句	-10.5385
惡魔	-10.5388
攝一切	-10.5393
地獄中	-10.5397
稱為	-10.54
一字	-10.5403
大王當知	-10.5405
清淨行	-10.5407
顯勝	-10.5413
後生	-10.5413
寂光	-10.5416
百千萬億	-10.5416
栴檀香	-10.5418
一種	-10.5424
知諸法	-10.5426
有七	-10.543
食時	-10.5439
爾所	-10.544
來至	-10.5442
勝處	-10.5443
復次寂慧	-10.5451
緣覺乘	-10.5452
三惡道	-10.5457
道心	-10.5459
是故說	-10.5462
欲心	-10.5463
身內	-10.5463
常當	-10.5467
如汝	-10.5472
羅漢辟支	-10.5478
何得	-10.5487
斯義	-10.549
成如是智	-10.5491
眾魔	-10.5497
於佛前	-10.5498
并諸	-10.5499
聰	-10.5501
不厭	-10.5509
不能了知	-10.5514
最正覺	-10.5514
是四地	-10.5516
無放逸	-10.552
獻	-10.5522
者無名云	-10.5522
毀呰	-10.5523
勝也	-10.5527
曼陀羅花	-10.5529
菩薩摩訶薩行尸羅波羅蜜多時	-10.5531
縣	-10.5532
不共佛法	-10.5532
罵詈	-10.5533
暴	-10.5533
象馬	-10.5534
來者	-10.5535
履	-10.5536
竪	-10.5537
婬怒癡	-10.5539
佛世界	-10.554
妬	-10.554
猴	-10.5541
源	-10.5541
一切法皆	-10.5543
常念	-10.5544
惱害	-10.5544
萬歲	-10.5545
極樂國土	-10.5545
尾	-10.5547
生天	-10.5553
離垢施	-10.5553
尊貴	-10.5559
有是	-10.556
白衣	-10.556
電	-10.556
令諸	-10.5561
淨居天	-10.5561
顏色	-10.5561
聖教	-10.5564
出入	-10.5564
實有	-10.5571
自謂	-10.5578
今謂	-10.5578
正信	-10.5579
權實	-10.5582
合會	-10.5595
諸群生	-10.5595
諸龍	-10.5597
故今	-10.56
婬欲	-10.5604
無憂	-10.5613
志性	-10.5616
隨諸眾生	-10.5616
此處	-10.5617
佛號	-10.5617
證知	-10.5618
限量	-10.5622
至佛所	-10.5623
意也	-10.5631
種族	-10.5633
無上智	-10.5634
亦令	-10.5639
二邊	-10.5639
自說	-10.5642
助道	-10.5655
心性	-10.5668
起煩惱	-10.5668
聞佛說	-10.5676
汝觀	-10.568
方得	-10.5681
八戒	-10.569
令住	-10.5692
二十四	-10.5693
已後	-10.5695
如是名為	-10.5699
得無垢女	-10.5699
遠離諸	-10.57
恭	-10.5701
身口意	-10.5702
有愛	-10.5702
有二義	-10.5703
分別說	-10.5705
彼有	-10.5705
人乎	-10.5707
南西北方四維上下	-10.571
兩足尊	-10.571
賤	-10.5711
可愛	-10.5712
是實	-10.5712
爾時世尊欲重宣此義而說頌曰	-10.5715
傾	-10.5717
尚不	-10.5717
心相應	-10.5718
榮	-10.5722
隔	-10.5723
捐	-10.5723
稱揚	-10.5724
現世	-10.5724
良藥	-10.5725
我能堪任	-10.5725
娑羅	-10.5726
牢獄	-10.5726
有無	-10.5727
無所生	-10.5727
無生法忍	-10.5727
八地以上	-10.5728
刀杖	-10.5729
憍	-10.573
牟	-10.573
所以然者	-10.5732
統	-10.5732
振	-10.5733
電得	-10.5734
樂求	-10.5735
疾得	-10.5735
身色	-10.5735
下文	-10.5736
諸佛國土	-10.5739
任持	-10.5741
以種種	-10.5741
曾無	-10.5743
誠實	-10.5745
因此	-10.5746
攝眾生	-10.5753
為先	-10.5754
豈異	-10.5758
是經典	-10.5769
一云	-10.578
自下第二	-10.5785
趣於	-10.5786
見是	-10.5788
光佛	-10.5791
為物	-10.5797
活命	-10.58
實性	-10.5801
慳貪	-10.5803
愁憂	-10.5807
飛行	-10.5817
無疑惑	-10.5822
依趣	-10.5823
是三地	-10.5825
善學	-10.5825
聖法	-10.5827
自心	-10.5829
深入	-10.5829
或在	-10.5832
斷常	-10.5833
穢惡	-10.5846
若離	-10.5851
無際	-10.5853
須彌山王	-10.5855
開解	-10.5856
一類	-10.5858
施戒	-10.586
修羅	-10.5865
圍	-10.5867
不顛倒	-10.5868
諦觀	-10.5869
報言	-10.5869
無有能	-10.5873
天主	-10.5882
紫金	-10.5885
問也	-10.5885
以此善根	-10.5887
善護	-10.5887
證也	-10.5891
此下	-10.5893
佛乘	-10.5894
華鬘	-10.5895
行菩薩	-10.59
樂著	-10.5901
曹	-10.5903
相見	-10.5904
無諍	-10.5905
入道	-10.5908
護世	-10.5911
斯陀含	-10.5912
以成	-10.5912
空閑	-10.5912
帝釋天主	-10.5913
能入	-10.5913
灌頂	-10.5914
若不爾者	-10.5915
當令	-10.5916
怯弱	-10.5916
慰	-10.5917
願樂欲聞	-10.5917
被甲	-10.5918
色聲香味觸	-10.5919
開示演說	-10.5919
星宿	-10.5921
耆婆	-10.5922
灑	-10.5923
勵	-10.5923
種諸善根	-10.5923
愈	-10.5924
不善法	-10.5924
方等	-10.5925
塞	-10.5925
荷	-10.5925
梁	-10.5925
毘尼	-10.5926
瞿曇	-10.5928
側	-10.5928
嫌	-10.5929
項	-10.593
三十六	-10.5932
以何因緣	-10.5933
仍	-10.5934
六種	-10.5935
調達	-10.5938
當知是人	-10.5942
來迎	-10.5944
諸佛剎	-10.595
萬物	-10.596
有兩	-10.5962
生疑	-10.5963
宮中	-10.5971
所修行	-10.5971
而行布施	-10.5972
金寶	-10.5972
淨飯王	-10.5975
其體	-10.5978
邪命	-10.5978
今時	-10.5979
常生	-10.5979
我已	-10.5981
若入	-10.5983
罪福	-10.5984
平正	-10.5988
悉了知	-10.5989
專心	-10.5995
結使	-10.5995
捨諸	-10.5997
在世	-10.5997
慈悲心	-10.5999
之上	-10.6
我於爾時	-10.6002
精進行	-10.6008
依彼	-10.601
為宗	-10.6011
淨行	-10.6017
平等性	-10.602
空界	-10.6023
妙聲	-10.6027
當獲	-10.6027
說法師	-10.6029
佛剎土	-10.6033
功用	-10.6036
與之	-10.6036
又能	-10.6044
復何	-10.6048
阿闍世	-10.6051
乃有	-10.6056
大水	-10.6059
七種	-10.6061
阿難白佛言	-10.6065
是七地	-10.6066
應生	-10.6066
無生滅	-10.6069
聖種	-10.6072
修多羅中	-10.6074
於此法中	-10.6075
饒	-10.6078
平等心	-10.6089
算	-10.609
病者	-10.6095
住阿練兒處	-10.6097
三世諸佛	-10.6099
寂定	-10.6101
契	-10.611
阿須倫	-10.6116
今正是時	-10.6116
良以	-10.6117
決擇	-10.6119
有幾	-10.6123
諸患	-10.6125
有世界名	-10.6129
謬	-10.6129
跋	-10.6131
㲉	-10.6134
不死	-10.6135
大利	-10.6135
行業	-10.6137
有為法	-10.6138
花香	-10.6138
佛語阿難	-10.6144
復有四事	-10.615
即佛	-10.6155
名義	-10.6156
等持	-10.6156
以七寶	-10.6158
三時	-10.6166
不滿	-10.6174
而非	-10.6174
勝智	-10.6176
善道	-10.6178
來詣	-10.618
動轉	-10.6181
諸仁者	-10.6184
消滅	-10.6185
所感	-10.6188
能忍	-10.619
阿難陀	-10.6204
人法	-10.6206
淨故	-10.6213
增減	-10.6214
寂慧當知	-10.622
日輪	-10.6222
今得	-10.6222
更不	-10.6223
亦不能	-10.6232
慈愍	-10.6236
菩提場	-10.6239
喜心	-10.6239
價	-10.624
勝法	-10.6246
有如是等	-10.6247
普見	-10.6247
燈明	-10.6247
常隨	-10.6247
天華	-10.6248
百劫	-10.6249
心得解脫	-10.6252
非眼	-10.6256
一義	-10.6257
更說	-10.6259
亦為	-10.6262
隨應	-10.627
在彼	-10.6271
何等為二	-10.6278
雨天	-10.6279
而不能	-10.628
所縛	-10.6281
當說	-10.6294
活	-10.6303
為我說	-10.6304
不假	-10.6306
正教	-10.6311
我亦願	-10.6312
十善業道	-10.6314
映蔽	-10.6315
不可復計	-10.6315
曠	-10.6318
夜摩天	-10.632
但說	-10.6322
徑	-10.6323
求生	-10.6326
園苑	-10.6327
講堂	-10.6327
泡	-10.6329
憂苦	-10.6329
五道	-10.6331
泥洹之道	-10.6331
驅	-10.6333
體相	-10.6334
空無相無願	-10.6335
前二	-10.6337
朋	-10.6338
如是十種	-10.6339
氷	-10.6341
稱佛	-10.6341
香氣	-10.6342
正定聚	-10.6342
如是菩薩	-10.6342
於其中	-10.6343
過去世	-10.6344
迦羅	-10.6345
悟入	-10.6346
釋師子	-10.6347
羅剎	-10.6349
無量阿僧祇	-10.6352
說此經	-10.6357
夢見	-10.6361
救濟	-10.6362
諸眾生故	-10.6372
大涅槃	-10.6378
財利	-10.6379
道理	-10.6379
除斷	-10.6387
常在	-10.6387
我禮	-10.6389
乾闥婆等	-10.639
爾乃	-10.6396
勝進	-10.6397
大神通	-10.6402
心生歡喜	-10.6404
異名	-10.6404
諸色	-10.6405
見他	-10.6406
塵垢	-10.6406
必定	-10.6416
三十七	-10.6419
自相	-10.6429
若知	-10.6433
男子女人	-10.6435
汝應	-10.6435
若為	-10.6438
在地	-10.6446
一切聲聞	-10.6446
亦同	-10.6459
修觀	-10.6466
其名曰	-10.6467
疑心	-10.6471
初文	-10.6472
或名	-10.6482
不堅	-10.6489
阿字	-10.649
以顯	-10.6491
三名	-10.6495
而出	-10.6496
則便	-10.6499
二俱	-10.6505
為一切眾生	-10.6508
真身	-10.6508
四面	-10.651
執取	-10.6511
是二地	-10.6512
同等	-10.6519
射	-10.652
無少	-10.6525
無量世界	-10.6526
以是緣故	-10.6527
阿惟越致	-10.6528
]	-10.6528
裂	-10.6534
呪術	-10.6534
窟	-10.6535
壽者	-10.6536
繁	-10.6536
溺	-10.6536
蜜	-10.6537
眉間	-10.6538
旦	-10.6538
眾生類	-10.654
馳	-10.6541
遊步	-10.6542
拏	-10.6543
蔭	-10.6544
丈六	-10.6545
無定	-10.655
界中	-10.655
無義	-10.6553
醜	-10.6554
開悟	-10.6554
何謂菩薩	-10.6558
壽終	-10.656
度世	-10.656
此道	-10.656
本覺	-10.6563
今現在	-10.6563
此說為	-10.6565
聽許	-10.6567
是諸眾生	-10.6568
法教	-10.6569
心淨	-10.6569
皆共	-10.657
之善	-10.657
能攝	-10.6573
素	-10.6576
千劫	-10.6583
口中	-10.6584
繫念	-10.6585
過去未來現在	-10.6587
舍衛城	-10.6589
未有	-10.659
之性	-10.6594
?「	-10.6597
八十俱胝	-10.6599
前中有二	-10.6604
成佛時	-10.6605
未能	-10.6607
所照	-10.661
下輩	-10.6611
四無所畏	-10.6614
利眾生	-10.6618
聚集	-10.6621
若善男子	-10.6623
初釋	-10.6623
周旋	-10.6624
佛告文殊師利	-10.6627
道諦	-10.6628
適意	-10.6629
身分	-10.6631
更相	-10.6636
彌勒菩薩摩訶薩	-10.6638
捨命	-10.6647
所害	-10.6657
四念處	-10.6657
大目連	-10.6659
卷下	-10.666
性相	-10.6668
有五種	-10.6671
菩薩觀身	-10.6672
釋迦如來	-10.6678
一切眾生心	-10.6683
至彼	-10.6687
生怖畏	-10.6688
正智	-10.669
一切處	-10.6713
菩薩亦復如是	-10.6713
南方	-10.6716
可以	-10.6721
萬善	-10.6725
說妙法	-10.6727
有佛頂中光明照	-10.6728
謙	-10.6732
那庾	-10.6735
錯謬	-10.6735
無罣礙	-10.6738
即從坐起	-10.6738
鬚髮	-10.6738
郡	-10.6738
若起	-10.6739
多羅樹	-10.6739
修供養	-10.6739
衛	-10.674
從座而起	-10.6741
無量稱王	-10.6742
欄楯	-10.6743
到彼	-10.6745
慇懃	-10.6745
不敬	-10.6748
羅睺羅	-10.675
恩愛	-10.6751
闡	-10.6752
撿	-10.6752
商主	-10.6753
人非人等	-10.6753
眾祐	-10.6753
佛剎功德莊嚴	-10.6754
嗟	-10.6754
龍象	-10.6756
敗壞	-10.6757
上來雖有	-10.6758
攬	-10.676
止息	-10.6764
成最正覺	-10.6764
結勸	-10.6764
釋迦文	-10.6765
願往生	-10.6771
定慧	-10.6772
聞此法	-10.6776
妄言	-10.678
當得作佛	-10.6781
觀者	-10.6782
何故不	-10.6786
四十八願	-10.6788
凡聖	-10.6793
得忍	-10.6796
四眾	-10.6796
賢者阿難	-10.6804
三分	-10.6805
眾鳥	-10.681
而立	-10.681
寶珠	-10.6811
七覺	-10.6811
日夜	-10.6812
義理	-10.6815
四寶	-10.6815
取相	-10.6816
善來	-10.6819
於何	-10.6821
意菩薩	-10.6823
卷上	-10.6824
若有比丘	-10.6825
如來至真	-10.6825
諸趣	-10.6826
能通達	-10.6827
十六觀	-10.6827
去家	-10.6832
圓光	-10.6833
亦空	-10.6835
而坐	-10.6836
為喻	-10.6836
之後	-10.6837
外化	-10.6839
諸眷屬	-10.6842
有為無為	-10.6842
斷惑	-10.6853
都無有	-10.6885
涅槃云	-10.689
實報	-10.6893
池中	-10.6894
觀無量壽佛	-10.6894
故稱	-10.6896
無依止	-10.6898
幢菩薩	-10.6899
實智	-10.691
不恭敬	-10.6916
於正行	-10.6919
正理	-10.692
勝相	-10.6921
二童子	-10.6923
推求	-10.6924
上輩	-10.6926
場	-10.694
所歸	-10.6943
不毀	-10.6944
別釋	-10.6944
章句	-10.6946
諸入	-10.6946
險	-10.6949
伸	-10.6951
妙寶	-10.6951
不可思議功德	-10.6952
如是供養	-10.6952
當證	-10.6954
則為欺誑	-10.6955
生老病死	-10.6955
如是四法	-10.6955
數取	-10.6955
條	-10.6957
蜎飛蠕動之類	-10.6957
却住一面	-10.6957
夷	-10.6958
波羅提木叉	-10.6962
隨行	-10.6962
井	-10.6964
江河沙	-10.6965
滋	-10.6967
酒	-10.6968
軌	-10.6968
錄	-10.6969
扇	-10.697
等類	-10.6971
國城	-10.6972
廣博	-10.6972
諸法空	-10.6972
飽	-10.6973
壯	-10.6973
擁護	-10.6974
溫	-10.6974
虫	-10.6975
屍	-10.6976
灰	-10.6976
汝今當知	-10.6978
知我	-10.6982
若能如是	-10.6987
彼佛剎	-10.699
毀壞	-10.6995
覆蔽	-10.7002
梵天王	-10.7003
堪受	-10.7009
此界	-10.7019
若諸菩薩摩訶薩	-10.7021
頂生	-10.7022
就此	-10.7031
何以故下	-10.7034
歸依如來	-10.7035
之境	-10.7036
斷煩惱	-10.7037
娑婆世界	-10.7038
悉能了知	-10.7038
須知	-10.7039
觀世音菩薩	-10.7039
可取	-10.704
並是	-10.7044
各以	-10.7045
覆護	-10.7046
變現	-10.7047
無漏業	-10.7048
凡所	-10.7049
之內	-10.7051
淨名	-10.7053
金剛手	-10.7054
邪道	-10.7056
貪瞋	-10.7065
癡人	-10.7066
得未曾有	-10.7068
柔和	-10.7071
悉能知	-10.7072
隱覆	-10.7072
滅道	-10.7075
講說	-10.7077
一切所有	-10.7084
大德阿難	-10.7084
雅	-10.7087
無煩惱	-10.709
之要	-10.7096
正命	-10.7099
汝見	-10.71
二乘人	-10.71
深廣	-10.7112
相對	-10.7115
諸聲聞眾	-10.7119
天地	-10.7125
此三種	-10.7129
禮佛	-10.7129
如日	-10.7136
斯道	-10.7136
證無上菩提	-10.7137
當學	-10.7141
道品	-10.7143
若夢	-10.7143
法華經	-10.7147
雄	-10.7157
大本	-10.7158
彼佛世尊	-10.7163
小果	-10.7165
諮	-10.7165
是五地	-10.7165
億劫	-10.7166
經曰設我得佛至不取正覺	-10.717
偏袒右肩右膝著地	-10.717
滅罪	-10.7174
處非處	-10.7176
第六天	-10.7178
覓	-10.7179
渴仰	-10.718
除疑	-10.7181
行住坐臥	-10.7182
擔	-10.7183
無上正等菩提	-10.7184
王波斯匿	-10.7184
亦不得	-10.7184
線	-10.7184
江	-10.7184
翳	-10.7187
聾	-10.7188
渧	-10.7188
扶	-10.7189
送	-10.7189
賈	-10.7189
採	-10.7189
省	-10.7191
如意足	-10.7192
嗅	-10.7195
無障	-10.7198
局	-10.7199
長養	-10.7203
遍覆	-10.7204
無央數劫	-10.7205
多羅	-10.7205
染淨	-10.7208
當觀利養	-10.7208
怛	-10.7211
安養	-10.7212
阿鼻	-10.7212
下賤	-10.7216
留難	-10.7221
欲知	-10.7221
虛無	-10.7223
伽他	-10.7224
已作	-10.7225
疾病	-10.7235
最後身	-10.7236
諸佛國	-10.7239
同事	-10.724
復有四	-10.724
復作是念	-10.7244
若有人	-10.7246
不謗	-10.7247
無上法	-10.7247
設使	-10.7249
此亦	-10.7254
悅意	-10.7254
不食	-10.7255
應如是知	-10.7256
作利益	-10.7264
是六地	-10.7264
十由旬	-10.7265
明二乘	-10.7265
信根	-10.7275
為首	-10.7284
多人	-10.7287
滅壞	-10.7289
即與	-10.7289
其實	-10.7298
既得	-10.7302
苦痛	-10.7303
分量	-10.7306
福業	-10.7307
諸寶	-10.7307
而便	-10.7311
善丈夫	-10.7315
有佛名	-10.7317
歡悅	-10.7318
悟道	-10.7321
妙好	-10.7326
如是無量	-10.7339
國界	-10.7353
身肉	-10.7353
列名	-10.7356
無力	-10.736
發言	-10.7364
善安住	-10.7364
諸佛剎土	-10.7365
其子	-10.737
右旋	-10.7371
既見	-10.7376
賢劫	-10.7383
昧	-10.7386
八億	-10.7386
六年	-10.7387
唯一	-10.7394
堅持禁戒	-10.7395
論說	-10.7399
疲惓	-10.7402
以何緣故	-10.7403
休	-10.7405
可畏	-10.7406
常說	-10.7406
薩婆若	-10.7408
佛法中	-10.7409
禍	-10.7409
信受奉行	-10.741
怡	-10.741
宛	-10.741
倫	-10.7411
諮問	-10.7413
自覺	-10.7413
賜	-10.7413
現見	-10.7414
鬪	-10.7416
懃	-10.7417
涼	-10.7417
是性	-10.7418
相隨	-10.7419
誘	-10.7419
細滑	-10.742
於其中間	-10.742
詳	-10.7421
祕密主	-10.7421
恐畏	-10.7423
稟	-10.7425
無礙辯	-10.7426
稱譽	-10.7427
何等為八	-10.7427
提婆	-10.7428
拂	-10.7429
羸劣	-10.743
如法華	-10.743
諸陰	-10.743
伊	-10.7433
消除	-10.7441
不造	-10.7442
後二	-10.7449
安處	-10.7451
鈴	-10.7451
唯然世尊	-10.7452
對曰	-10.7452
無礙解	-10.7453
無違	-10.7454
所集	-10.7454
宿世	-10.7456
不應作	-10.7459
取其	-10.746
譬如虛空	-10.7461
聞正法	-10.7466
以偈問	-10.7466
修慧	-10.747
已曾	-10.7483
涅槃經	-10.7485
我剎中	-10.7503
在心	-10.7504
微妙法	-10.7506
不思	-10.7508
靡	-10.7509
道意	-10.7509
諸聖	-10.751
悅豫	-10.7515
自然去	-10.7518
淨光	-10.7524
莫能	-10.7525
聞聲	-10.7526
其事	-10.7529
五百長者	-10.7531
不調	-10.7532
於如來所	-10.7536
龍女	-10.7536
不畏	-10.754
一面	-10.7544
四義	-10.7547
是八地	-10.7553
八百	-10.7561
調順	-10.7564
之門	-10.7565
咸皆	-10.7569
十受	-10.7569
非但	-10.7569
諸法皆	-10.757
如來了知	-10.7572
其城	-10.7581
萬八千	-10.759
食已	-10.7591
如海	-10.7593
通名	-10.7593
菩薩所行	-10.76
文殊師利白佛言	-10.7605
所著	-10.7605
樂器	-10.7607
復言	-10.7609
證涅槃	-10.7612
維	-10.7619
我有光名	-10.7619
汝可	-10.7622
須陀洹	-10.7622
述云第	-10.7623
阿羅漢上	-10.7623
成無上正真道最正覺	-10.7624
寶積	-10.7632
所發	-10.7634
天雨	-10.7636
入大乘	-10.7636
億那由他	-10.7637
傳梵大師賜紫沙門臣法護等奉詔譯	-10.7638
策	-10.7639
整	-10.7639
忿	-10.7639
盈	-10.7643
屋	-10.7644
皆不可得	-10.7644
無疲倦	-10.7644
於空中	-10.7644
交絡	-10.7644
右遶三匝	-10.7646
菩	-10.7647
芥子	-10.7647
涉	-10.7648
能壞	-10.7648
擾	-10.7649
銅	-10.7649
盈滿	-10.765
環	-10.765
如是大王	-10.7654
此四法	-10.7655
亦不離	-10.7655
憍尸迦	-10.7656
願欲	-10.7657
妙覺	-10.7659
再	-10.7659
該	-10.7661
毒箭	-10.7662
膩	-10.7663
虛假	-10.7664
勤修習	-10.7667
進止	-10.7668
若干種	-10.7668
瑪	-10.7669
之所說	-10.7672
論之	-10.7672
華座	-10.7675
諸妙	-10.7676
寶池	-10.7681
大梵天王	-10.7681
惟願	-10.7683
本淨	-10.7684
無物	-10.7686
身量	-10.7689
諸受	-10.7691
聲聞弟子	-10.7692
如是所說	-10.7693
解行	-10.7696
已過去	-10.7697
凡夫法	-10.7705
百種	-10.7711
因緣生	-10.7719
即告	-10.7719
生疑惑	-10.7719
是真	-10.7719
非二乘	-10.7722
何時	-10.7723
證信	-10.7728
女色	-10.773
或作	-10.7734
略明	-10.7737
不變	-10.7741
愛心	-10.7743
戲樂	-10.7744
一切眾會	-10.775
最大	-10.7765
同聞	-10.7771
皆當往生	-10.7775
得安樂	-10.778
以何等	-10.7782
於諸有情	-10.7786
無命	-10.7789
自德	-10.779
護正法	-10.779
火燒	-10.7799
翻為	-10.7806
應捨	-10.7808
有三義	-10.7816
正直	-10.7818
波若	-10.7819
宜應	-10.7822
金剛心	-10.7828
正因	-10.7831
多種	-10.7833
尊敬	-10.7835
大意	-10.7836
能解了	-10.7839
威勢	-10.7846
往至	-10.7853
善惡業	-10.786
之耳	-10.7861
宮內	-10.7864
聖慧	-10.7867
大雄	-10.7869
斯為	-10.7871
怨敵	-10.7875
城邑聚落	-10.7878
掌中	-10.7878
向涅槃	-10.7878
生希有心	-10.788
妙音聲	-10.7881
滴	-10.7881
洞	-10.7882
空無相	-10.7882
說是語時	-10.7883
姟	-10.7883
蘭	-10.7884
潔白	-10.7884
巨	-10.7885
我生已盡	-10.7886
張	-10.7886
什	-10.7887
泥犁	-10.7887
粗	-10.789
猶豫	-10.7891
救度	-10.7895
公	-10.7896
中有佛項中光明照	-10.7898
罰	-10.7898
聰慧	-10.7899
有三昧名	-10.7901
胸	-10.7901
親近供養	-10.7902
喚	-10.7902
普光	-10.7903
加害	-10.7904
巧方便	-10.7905
糞穢	-10.7905
輕安	-10.7908
成等正覺	-10.7908
羯	-10.7916
法藏比丘	-10.7916
菓	-10.7917
當於爾時	-10.792
生信解	-10.793
覩見	-10.7932
以慧	-10.7933
長遠	-10.7935
住大乘	-10.7938
如是等相	-10.7938
他世	-10.7945
遊入	-10.7953
魔眾	-10.7955
若諸菩薩修	-10.7955
希有世尊	-10.7956
增進	-10.7959
其剎	-10.7961
隨機	-10.7962
我常	-10.7967
如法界	-10.7968
淨妙	-10.7969
貪求	-10.7971
不安	-10.7974
青色	-10.7977
卷第二十	-10.7991
外國	-10.7994
阿字非	-10.7995
遊於	-10.7996
問我	-10.8002
但言	-10.8003
向佛	-10.8005
無為法	-10.8006
能仁	-10.8007
居家菩薩	-10.8012
巳下	-10.8015
已還	-10.8017
四禪	-10.8019
之患	-10.8024
觀成	-10.8028
何等三	-10.8029
作佛事	-10.8033
大甲冑	-10.8037
當如是知	-10.8037
甚大	-10.8038
捨家	-10.8042
美妙	-10.8043
智上	-10.8043
得福	-10.8044
大劫	-10.8049
故有退轉	-10.8065
女身	-10.8069
無主	-10.8075
商	-10.808
法無我	-10.8081
所作事	-10.8085
隨義	-10.8089
主故	-10.809
熾	-10.8102
魏	-10.8104
梵眾	-10.8109
如所說	-10.8114
大藥王子	-10.8114
施等	-10.8115
齋	-10.8115
起大悲心	-10.8116
自性離故	-10.8117
彼剎	-10.8117
是名菩薩摩訶薩行於方便	-10.8117
結加趺坐	-10.8117
蕩	-10.8118
於身命	-10.8119
應如是學	-10.8123
諸漏已盡	-10.8123
冤	-10.8123
帳	-10.8124
瓦石	-10.8125
挍	-10.8126
命欲終時	-10.8126
繒	-10.8126
練	-10.8126
弄	-10.8127
聞是法已	-10.8128
所轉	-10.8128
麻	-10.8128
比尼	-10.8129
狹	-10.8129
對治彼故	-10.8132
付囑	-10.8133
汁	-10.8133
虧	-10.8134
貝	-10.8135
明鏡	-10.8136
!」「	-10.8137
妄分別	-10.8138
棄捐	-10.8141
云何名為菩薩摩訶薩	-10.8141
關	-10.8143
於現在世	-10.8143
無思	-10.8144
空義隱覆	-10.8144
香潔	-10.8144
當為汝	-10.8145
濁惡	-10.815
菩薩乘人	-10.815
阿含	-10.8152
依怙	-10.8153
舍衛國	-10.8157
邊見	-10.8159
文別有	-10.8159
雪山	-10.8163
說如來不思議	-10.8165
一切人民	-10.8166
地方	-10.8177
不計	-10.8177
何能	-10.8179
歸趣	-10.8184
供給	-10.8184
供具	-10.8186
一切悉	-10.8187
次說	-10.82
何異	-10.8201
見諦	-10.8202
人趣	-10.8204
位中	-10.8209
善權	-10.8213
定心	-10.8219
肉眼	-10.822
爾時佛告	-10.8223
化現	-10.8224
香水	-10.8225
諸山	-10.8229
不喜	-10.8233
圓具	-10.8237
分位	-10.8245
亦非無	-10.8246
一切有為	-10.8248
今讚	-10.8251
拔苦	-10.8253
頭面	-10.8256
可樂	-10.8256
深經	-10.8259
聖諦者	-10.8262
唯願如來	-10.828
斯乃	-10.828
堪忍	-10.8283
之辭	-10.8287
亦隨	-10.8289
覆障	-10.829
先舉	-10.8296
不能動	-10.8296
此間	-10.83
眾具	-10.8301
白銀	-10.8303
作佛時	-10.8304
彼世界	-10.8314
獲大	-10.8329
所逼	-10.833
加行	-10.8331
十萬	-10.8335
重罪	-10.8341
持其名者	-10.8341
旒蘇	-10.8345
八十億	-10.8346
為眾生故	-10.836
不住於	-10.836
最後識滅	-10.8366
慳嫉	-10.8367
誨	-10.8368
滅無所去	-10.8369
如說修行	-10.8375
四大天王	-10.8375
師子勇猛	-10.8377
頸	-10.8379
隨眠	-10.838
卒	-10.8381
大歡喜	-10.8382
毘鉢舍那	-10.8382
煖	-10.8382
瑕穢	-10.8383
發勤精進	-10.8383
險難	-10.8383
帶	-10.8384
十萬億	-10.8384
工	-10.8384
任運	-10.8385
分衛	-10.8388
恒河	-10.8388
長大	-10.8389
姝好	-10.8389
鷲	-10.8389
苾芻眾	-10.839
懺	-10.839
補處	-10.8392
三千界	-10.8392
猗	-10.8393
手執	-10.8393
堅牢	-10.8395
百千俱胝	-10.8395
惡法	-10.8399
捨身命	-10.8404
憶持	-10.8407
識知	-10.8409
當為汝說	-10.8409
愚癡凡夫	-10.8413
福行	-10.8425
大雲	-10.8427
既言	-10.8431
散壞	-10.8433
生死苦	-10.8434
無作者	-10.8439
聲聞獨覺	-10.844
不順	-10.8442
與諸菩薩	-10.8446
但見	-10.8447
真金	-10.8448
設有	-10.8449
七寶池	-10.8449
變易生死	-10.8454
菩提之心	-10.8458
稱說	-10.8459
阿難言	-10.846
令諸菩薩	-10.8465
唱言	-10.8465
阿闍世王	-10.8466
自下第三	-10.8467
麁惡	-10.8468
有所作	-10.8468
心懷	-10.8468
正法滅	-10.8469
厭苦	-10.8474
去此	-10.848
超勝	-10.8483
宿住	-10.8486
眾聖	-10.8488
大名稱	-10.8493
來集	-10.8498
當得阿耨多羅三藐三菩提	-10.8508
其佛剎	-10.8512
廣多	-10.8514
唯有如來	-10.8527
百千億那由他	-10.8528
能令眾生	-10.853
定意	-10.8545
作用	-10.8548
日月光	-10.8549
是總	-10.8556
四乘	-10.856
勸化	-10.8567
隨緣	-10.8575
總標	-10.8581
幡蓋	-10.8583
阿羅漢果	-10.8583
文義	-10.8587
讚佛	-10.8589
五痛	-10.8604
堅住	-10.861
五燒	-10.8612
右手	-10.8612
死生	-10.8614
有四種法	-10.8614
若使	-10.8615
福智	-10.8617
養育	-10.8621
村	-10.8626
園中	-10.8627
孔雀	-10.8628
猶有	-10.8629
奉獻	-10.8629
莊飾	-10.863
隣	-10.863
佛說此經已	-10.8631
湯藥	-10.8631
客	-10.8631
低	-10.8632
伸供養	-10.8632
呵責	-10.8633
長跪叉手	-10.8633
犬	-10.8633
長壽	-10.8634
姦	-10.8636
澄	-10.8637
結集	-10.8637
鄙	-10.8638
話	-10.8638
暉	-10.8639
薪	-10.8639
支節	-10.864
剛強	-10.864
驢	-10.864
崇	-10.8641
孫	-10.8641
劫成	-10.8641
玉女	-10.8641
往古	-10.8643
奢	-10.8643
不達	-10.8644
獲得如是	-10.8644
神通變化	-10.8645
真陀羅	-10.8646
下中上	-10.8646
芽	-10.8646
不可數	-10.8647
說此法時	-10.8647
皆發無上正真道意	-10.8652
春	-10.8653
揀	-10.8654
衣鉢	-10.8654
囊	-10.8657
作沙門	-10.8657
不退轉於阿耨多羅三藐三菩提	-10.8657
維摩	-10.8658
含識	-10.8659
憶想	-10.8662
敬信	-10.8666
愍念	-10.8668
令汝	-10.8668
可解	-10.8669
諸蘊	-10.8673
億萬	-10.8675
定力	-10.8677
佛語迦葉	-10.868
降伏魔	-10.868
爾時世尊重	-10.8685
乃爾	-10.8687
呬	-10.8689
吾當	-10.8692
六塵	-10.8694
無義利	-10.8695
五力	-10.8696
大雨	-10.87
述成	-10.8701
之頃	-10.8702
無差	-10.8703
不受後有智	-10.8705
入定	-10.8706
愍傷	-10.8706
眾中有	-10.8711
良醫	-10.8715
十方界	-10.8719
苦果	-10.8725
說名為	-10.8729
已度	-10.873
難解	-10.8735
業力	-10.8735
慧根	-10.8736
大力菩薩	-10.8736
無餘涅槃	-10.8737
一由旬	-10.8739
大火	-10.8741
無等等	-10.8745
謗法	-10.8745
勸人	-10.8747
善順	-10.8749
開覺	-10.8758
黃金為	-10.8765
順法	-10.8771
不退轉地	-10.8771
光普照	-10.8777
來至此	-10.8777
生彼土	-10.8796
住不退轉	-10.8804
自稱	-10.8807
入胎	-10.8815
別異	-10.8821
九十六	-10.8823
獨處	-10.8826
出聲	-10.8828
豈有	-10.8829
三昧門	-10.883
化物	-10.884
稱名	-10.884
初句	-10.8844
雖在	-10.8845
居士	-10.8851
光明普照	-10.8852
二百五十	-10.8854
其母	-10.8863
與樂	-10.8868
則無有	-10.8875
甚可愛樂	-10.8879
合上	-10.888
王舍大城	-10.8882
餓	-10.8882
甚為希有	-10.8884
英	-10.8887
阿者非	-10.8887
辱	-10.8887
利益他	-10.8888
說是法時	-10.889
如風	-10.8892
渡	-10.8892
除愈	-10.8894
逸	-10.8894
種種色	-10.8895
析	-10.8897
輝	-10.8898
敏	-10.8898
毘婆舍那	-10.8899
憐	-10.8899
黎	-10.8899
彩	-10.89
五百馬	-10.8902
喪	-10.8902
促	-10.8902
抱	-10.8902
噵	-10.8905
湛然	-10.8906
陵	-10.8906
摩羅	-10.8907
責	-10.8909
曼	-10.891
漢	-10.891
槃	-10.8911
茂	-10.8912
所有善根	-10.8913
婦女	-10.8914
大目揵連	-10.8915
貪婬	-10.8916
脚	-10.8916
末利	-10.8918
渠	-10.8922
行列	-10.8925
揭	-10.8928
堅持	-10.8929
快善	-10.893
淺深	-10.8932
合前	-10.8937
宣布	-10.8937
遠近	-10.8939
面目	-10.894
如是等法	-10.8942
阿彌陀經	-10.8943
賢劫中	-10.8944
曳	-10.8945
違逆	-10.8947
述云此第四	-10.8949
智慧勇猛	-10.895
發起精進	-10.8953
香味	-10.8957
假立	-10.8961
白世尊	-10.8962
輪寶	-10.898
初禪	-10.8982
會中有	-10.8984
釋迦牟尼佛	-10.8986
上中下	-10.8996
三萬二千	-10.9005
貪行	-10.9008
右脇	-10.9011
大慈心	-10.9027
明達	-10.9028
諸罪	-10.9029
覺支	-10.9032
愚者	-10.9034
作是觀者	-10.9036
法雨	-10.9037
若復有	-10.904
阿彌陀如來	-10.9047
佛威神	-10.9057
幾何	-10.906
即作是念	-10.906
海中	-10.906
復有三	-10.9061
勸信	-10.9069
此亦如是	-10.907
不名淨	-10.9076
摩訶薩	-10.908
更生	-10.9088
成就四法	-10.9091
妄生	-10.9097
正知	-10.9114
名無差別	-10.9114
是故我今	-10.9122
墮地	-10.9125
匝	-10.9129
深義	-10.9132
正業	-10.9137
彼佛前有	-10.9138
邪正	-10.9146
大眾中	-10.915
淨無垢寶月王光	-10.915
無有作業者	-10.9154
王城	-10.9154
彼後識	-10.9155
遶佛三匝	-10.9158
行七步	-10.9161
捕	-10.9161
當爾之時	-10.9161
兜率陀天	-10.9161
渴愛	-10.9162
命終之後	-10.9162
掉	-10.9163
隨覺	-10.9163
饍	-10.9163
目犍連	-10.9164
育	-10.9164
誤	-10.9164
主宰	-10.9165
綵	-10.9166
澁	-10.9166
仗	-10.9166
荷負	-10.9166
尸羅波羅蜜多	-10.9167
吞	-10.9167
叢林	-10.9167
若有得聞	-10.9169
遲	-10.9169
秋	-10.917
迭	-10.917
鎖	-10.9172
毘耶娑	-10.9173
演法	-10.9173
毒蛇	-10.9174
迎接	-10.9175
黠	-10.9175
白玉	-10.9176
馳走	-10.9176
紹	-10.9176
發道心	-10.918
哭	-10.9181
繼	-10.9181
綖	-10.9183
心喜	-10.9184
發道意	-10.9185
凝	-10.9186
柔	-10.9188
分段死	-10.9191
非無因	-10.9191
沙門法	-10.9192
復次文殊師利	-10.9194
剎利	-10.92
妙莊嚴	-10.9202
大論	-10.9203
讚言	-10.9206
精進根	-10.9211
無不具足	-10.9211
入母胎	-10.9211
勝功德	-10.9211
海水	-10.9213
信敬	-10.9215
十俱胝	-10.9221
恩德	-10.9225
寧可	-10.9232
不能了	-10.9236
大覺	-10.9237
利益一切眾生	-10.9237
不可量	-10.9241
方便善巧	-10.9244
嚴身	-10.9251
無記	-10.9251
五欲樂	-10.9256
寶地	-10.9259
略舉	-10.9261
賢善	-10.9265
千億	-10.9266
無退轉	-10.9267
我今為汝	-10.9268
成就阿耨多羅三藐三菩提	-10.9284
歎其	-10.9294
無忘失	-10.9295
「『	-10.9296
本空	-10.9302
富樂	-10.931
知眼	-10.9317
過去諸佛	-10.9319
欲令眾生	-10.9327
於菩薩藏正法	-10.9332
世間人民	-10.9334
電光	-10.934
八難	-10.935
闍王	-10.936
是為三	-10.9373
取捨	-10.9373
不減	-10.9375
極苦	-10.9383
為主	-10.9384
先世	-10.9388
不曾	-10.9388
供養恭敬	-10.9389
總別	-10.9395
卷第三十	-10.9402
眾僧	-10.9406
善了知	-10.9407
此是菩薩	-10.9425
安樂國	-10.9426
百年	-10.9428
毛孔	-10.9428
憂悲苦惱	-10.9431
誑惑	-10.9432
一切世間天	-10.9436
繞佛三匝	-10.9436
誼	-10.9438
聞是語已	-10.944
六反震動	-10.9441
境界如夢	-10.9442
陸	-10.9443
閣	-10.9443
檀波羅蜜	-10.9444
難可了知	-10.9445
與其眷屬	-10.9445
知止足	-10.9446
善法堂	-10.9446
貪恚癡	-10.9446
萬六千	-10.9447
痛痒	-10.9447
回	-10.9448
紺	-10.9448
告族姓子	-10.9448
竊	-10.945
毒藥	-10.9451
雷音	-10.9452
寒熱	-10.9453
求出離	-10.9453
珂	-10.9453
隆	-10.9454
得無垢	-10.9455
追求	-10.9455
如佛所	-10.9455
裹	-10.9455
腰	-10.9456
目之為	-10.9457
逕	-10.9459
滯	-10.9459
流注	-10.9461
八部	-10.9462
胞胎	-10.9462
掃	-10.9463
憎愛	-10.9464
鈍根	-10.9466
薩埵	-10.9467
天竺	-10.9468
但能	-10.9469
誐	-10.9471
訛	-10.9472
來詣佛所	-10.9472
硨磲	-10.9475
付屬	-10.9479
諸法門	-10.9487
聰明	-10.9488
結縛	-10.9488
肆	-10.9491
勸發	-10.9491
具戒	-10.9493
賢者舍利弗	-10.9494
得無疑	-10.9498
變為	-10.9501
往生阿彌陀佛國	-10.9501
象王	-10.9503
不應生	-10.9504
三途	-10.9505
未曾見	-10.9506
恒常	-10.9513
所詮	-10.9513
千子	-10.9515
諸佛土	-10.9518
高大	-10.9526
如師子	-10.953
妙花如來	-10.9532
須達	-10.9532
長老舍利弗	-10.9532
我得菩提	-10.9533
無所動	-10.9535
一切諸眾生	-10.9551
發大心	-10.9552
信力	-10.9555
癡行	-10.9556
無法可	-10.9558
正宗	-10.9566
利益一切諸	-10.9572
之益	-10.9574
勝劣	-10.9577
式	-10.9588
婆沙	-10.9595
世王	-10.9602
迴向菩提	-10.9611
邊地	-10.9615
超出	-10.9617
坐臥	-10.9621
七寶樹	-10.9621
堪能	-10.9623
殑伽沙	-10.9627
滿月	-10.9634
聞慧	-10.9638
句義	-10.9641
斯經	-10.9643
唯有一	-10.9649
所有功德	-10.9655
未證	-10.9681
善調	-10.9687
正語	-10.9692
三摩呬多	-10.9696
人中師子	-10.9699
利智	-10.97
高廣	-10.97
說偈	-10.9701
五通	-10.9701
眼根	-10.9704
與虛空等	-10.9708
真實功德	-10.9712
發希有想	-10.9714
迫	-10.9719
師子之座	-10.972
阿脩羅	-10.9721
遍覆三千大千世界	-10.9721
荒	-10.9724
非有非無	-10.9724
於當來世	-10.9725
金剛杵	-10.9725
作供養已	-10.9726
以神力	-10.9728
塔廟	-10.9729
嬈亂	-10.973
s	-10.9731
3	-10.9732
大目乾連	-10.9732
墮於地獄	-10.9733
駕	-10.9733
精勤修習	-10.9733
忿恚	-10.9734
初舉	-10.9735
寫	-10.9736
佉	-10.9736
娜謨	-10.9737
欝	-10.9737
心大歡喜	-10.9737
四十里	-10.9738
悴	-10.9738
我從今日	-10.9739
聞斯	-10.9739
宣揚	-10.9739
苑	-10.974
如我今者	-10.974
未知	-10.9742
便能	-10.9742
遇善知識	-10.9742
隱沒	-10.9742
百萬	-10.9747
繫著	-10.9747
聚沫	-10.9748
次復有	-10.975
難思議	-10.9751
歡樂	-10.9752
殑伽沙數	-10.9755
三千世界	-10.9755
若有菩薩摩訶薩	-10.9761
巧妙	-10.9763
車乘	-10.9764
愚癡人	-10.9768
善臂	-10.977
領解	-10.9773
之器	-10.9774
初示	-10.9775
聖智	-10.978
福聚	-10.9782
於此法	-10.9784
輕重	-10.9785
惠施	-10.9788
俱胝那庾多百千	-10.9789
頗有	-10.979
說經法	-10.9794
母胎	-10.9795
故稱為	-10.98
教他	-10.9804
諸不善	-10.9805
吾今	-10.9807
聚會	-10.9808
天衣	-10.9808
侍從	-10.9811
正法住	-10.9814
別序	-10.9816
奇哉	-10.9827
不顧	-10.9836
無功用	-10.9871
成就深心	-10.9874
而能了知	-10.9883
深重	-10.9884
為他人	-10.9891
樂睡眠	-10.9895
無住處	-10.9909
第三結	-10.9911
得不退	-10.9918
無所分別	-10.9921
三垢	-10.9922
百千歲	-10.9928
摧滅	-10.9936
是為四法	-10.9937
造罪	-10.9939
力用	-10.9949
求出家	-10.9954
叉	-10.9962
妙衣	-10.9964
二十二	-10.9979
般	-10.998
若諸有情	-10.9984
諸天及人	-10.9986
俱胝那由他	-10.9992
於此法門	-10.9993
六種震動	-10.9993
見阿彌陀佛	-10.9994
修福	-10.9996
咎	-11.0005
我從今日乃至菩提	-11.0011
靜慮波羅蜜多	-11.0011
是人覺已	-11.0013
萎	-11.0014
遠塵離垢	-11.0014
自度	-11.0015
薰	-11.0017
孝	-11.0017
是為菩薩善權方便	-11.0018
心自念言	-11.0019
百分不及一	-11.0019
生我國	-11.0021
河沙	-11.0022
嬉戲	-11.0023
繫屬	-11.0024
阿逸菩薩	-11.0024
療治	-11.0024
不增不減	-11.0024
勝義諦	-11.0025
心之所念	-11.0025
諸根如幻	-11.0025
慾	-11.0026
迅速	-11.0027
野干	-11.0027
得安隱	-11.0027
惶	-11.0028
谷	-11.0028
皇	-11.0029
往詣佛所	-11.003
騰	-11.003
百千億萬倍	-11.003
空如來藏	-11.0031
迦花	-11.0032
譏嫌	-11.0032
出家受具足	-11.0032
日觀	-11.0032
少欲知足	-11.0032
飲食衣服	-11.0032
既知	-11.0033
自思惟	-11.0033
寶蓮華	-11.0033
攝化	-11.0035
猪	-11.0035
諸賢	-11.0037
隨順法智	-11.0038
資財	-11.0044
十信	-11.0044
七日處母胎時	-11.005
化樂天	-11.005
審諦	-11.0051
悉如實知	-11.0052
五趣	-11.0054
得無上菩提	-11.006
六度無極	-11.0063
害母	-11.0063
諸法實相	-11.0065
勢至	-11.0067
所犯	-11.007
劫濁	-11.0073
造立	-11.0075
紫	-11.0077
所止	-11.0077
日出	-11.0081
於來世	-11.0081
無有一法	-11.0084
日日	-11.0087
此世界	-11.0094
三福	-11.0095
何須	-11.0097
三界外	-11.0107
生執著	-11.0108
間錯	-11.0109
覆其上	-11.0115
佛壽	-11.0116
毀戒	-11.0118
於佛如來	-11.0126
第二釋	-11.0131
仁王	-11.0139
白銀為	-11.0142
生厭離	-11.0143
水火	-11.0143
甚奇	-11.0144
自性清淨心	-11.0152
結示	-11.0152
一切凡夫	-11.0154
聖果	-11.0158
聞此經	-11.0158
斯法	-11.0161
還歸	-11.0173
誠諦	-11.0174
所作業	-11.0179
白淨	-11.018
五神通	-11.0198
增勝	-11.0202
偈頌	-11.0207
正勸	-11.0207
圓成	-11.0207
人壽命	-11.0208
貧人	-11.0219
有佛性	-11.0224
八方上下	-11.0224
難值	-11.0232
是為菩薩摩訶薩	-11.0233
六通	-11.0238
去來今	-11.0259
口出	-11.0259
如我所	-11.0278
大喜	-11.0283
一雙	-11.0284
所纏	-11.0291
前文	-11.0291
亦有二	-11.0294
菩薩若夢中	-11.03
發精進	-11.0313
念夢中事	-11.0314
生我剎	-11.0314
却坐一面	-11.0315
補	-11.0315
大菩薩藏微妙法門	-11.0316
三月	-11.0316
佛復告	-11.0316
峯	-11.0318
浴	-11.0318
跋陀羅	-11.0319
愚夫異生	-11.0321
於長夜中	-11.0321
諮嗟	-11.0322
佛告阿難及韋提希	-11.0322
揵沓和	-11.0324
忿怒	-11.0324
憂愁	-11.0326
分陀利	-11.0326
謹	-11.0327
▁36	-11.0327
超越分別	-11.0328
十大受	-11.0329
基	-11.0329
最為第一	-11.0332
尊者護國	-11.0332
參	-11.0334
官屬	-11.0334
包	-11.0335
旃陀羅	-11.0335
潤澤	-11.0337
怱	-11.0337
耆闍	-11.0338
叵	-11.0338
華德藏	-11.0338
殑伽沙等	-11.0339
賴	-11.0339
豆	-11.034
鑒	-11.034
寸	-11.034
市	-11.0341
折伏	-11.0341
借	-11.0342
焚	-11.0342
欄	-11.0344
祇陀	-11.0344
柔順	-11.0348
世間出世間	-11.0351
承事供養	-11.0353
第四從	-11.0356
聖王	-11.0364
決了	-11.0365
生驚怖	-11.0369
同異	-11.037
形貌	-11.0372
三惡趣	-11.0375
上來明	-11.0376
違諍	-11.0378
要須	-11.0378
以下結	-11.0383
并餘	-11.0387
羅云	-11.0389
雨華	-11.039
四魔	-11.0392
離諸疑惑	-11.0396
住阿蘭若	-11.0398
如實修行	-11.0402
性平等	-11.0408
所得功德	-11.0409
以偈答	-11.041
面門	-11.041
瞋癡	-11.0412
具足戒	-11.0422
除去	-11.0426
增語	-11.0427
生愛著	-11.0429
終不能	-11.0429
無所染	-11.0431
生人中	-11.0436
愛染	-11.0444
輪轉	-11.0451
致使	-11.0456
有限	-11.0459
行忍辱	-11.0461
有恐怖	-11.0473
一切法空	-11.0474
超過一切	-11.048
亦不然	-11.0482
一一皆	-11.0488
邪定	-11.0489
甚深微妙	-11.0493
彌陀佛	-11.0493
利物	-11.0496
法服	-11.0502
說此法	-11.0502
一剎那	-11.0506
億那由他百千	-11.0506
四十二	-11.0507
善哉世尊	-11.0514
二十一	-11.0518
諸大聲聞	-11.0525
句不同	-11.0543
生天上	-11.0545
於諸佛所	-11.0551
修諸行	-11.0552
於往昔	-11.0553
法華論	-11.0555
大河	-11.0559
于時	-11.0571
萬億	-11.0578
諸波羅蜜	-11.0578
緣現微笑	-11.0579
如斯覺故觀	-11.0583
七千	-11.0619
出於世	-11.062
是沙門垢	-11.0623
虗	-11.0625
丈	-11.0628
赤真珠	-11.0628
牆壁	-11.0628
其水底沙	-11.0628
逝	-11.0629
訓誨	-11.0629
婆伽婆	-11.063
晝	-11.063
捷	-11.0631
青黃赤白	-11.0633
悕求	-11.0634
一切諸佛所護念經	-11.0635
右繞三匝	-11.0636
燃	-11.0637
廣為人說	-11.0639
瘦	-11.064
輕毀	-11.0641
未甞	-11.0641
篋	-11.0641
蜂	-11.0641
*	-11.0642
勉	-11.0642
密迹	-11.0642
冀	-11.0643
丘	-11.0644
稻	-11.0646
怛薩阿竭	-11.0646
奔	-11.065
晉	-11.065
貯	-11.065
超絕	-11.065
獲得四種	-11.0652
自利利他	-11.0653
楚	-11.0655
輕賤	-11.0655
堅強	-11.0657
煩惱所染	-11.066
弭	-11.0667
可度者	-11.0668
缺減	-11.0669
虛妄分別	-11.0669
雜亂	-11.0671
酪	-11.0675
即於佛前	-11.0675
出現世間	-11.0675
迴轉	-11.068
坐道場	-11.069
尋時	-11.069
分段生死	-11.0692
髻菩薩	-11.0693
聞此法門	-11.0706
無有障礙	-11.0713
無優劣	-11.0717
深遠	-11.0719
如是展轉	-11.0722
詣彼	-11.0723
百千俱胝那由他	-11.0726
博聞	-11.0728
於我所	-11.0731
隨宜	-11.0733
於過去世	-11.0735
未久	-11.0741
彼苾芻	-11.0744
尋求	-11.0745
高勝	-11.0756
凡夫地	-11.0762
然後乃	-11.0772
貪瞋癡等	-11.0772
所宣	-11.0787
菩薩藏正法	-11.0789
池水	-11.0789
阿修羅等	-11.0798
十號	-11.0801
受苦惱	-11.0806
頭面禮	-11.0808
力勢	-11.0809
無數百千	-11.0815
老病	-11.082
離散	-11.0823
樓觀	-11.0829
十種功德	-11.0835
終無有	-11.0835
金剛手菩薩	-11.084
於此世界	-11.0843
二十三	-11.0849
旋轉	-11.0858
就第一	-11.0863
尊者大迦葉	-11.0867
無量不可思議	-11.088
豈可	-11.0883
未必	-11.0886
彼諸天子	-11.0888
諸天女	-11.0893
不懈	-11.0895
不可取	-11.0904
各有上中下	-11.0905
有身見	-11.0905
猶如夢	-11.0913
優劣	-11.0917
途	-11.0919
伺	-11.0943
所言止者	-11.0946
無邊無際	-11.095
封	-11.0951
閻浮檀金	-11.0952
鐵圍山	-11.0954
鵝	-11.0954
有一人	-11.0955
卵	-11.0956
殷重	-11.0956
尋伺	-11.0956
諂誑	-11.0957
毀犯	-11.0957
專精	-11.0958
繒綵	-11.0959
過恒沙等	-11.096
西天譯經三藏朝散大夫試光祿卿	-11.096
羞	-11.0961
2	-11.0963
爾炎	-11.0963
重閣	-11.0963
宇	-11.0963
稽首佛足	-11.0965
洪	-11.0965
瓔	-11.0966
迴向阿耨多羅三藐三菩提	-11.0967
屠	-11.0968
無上大菩提	-11.0968
瑩	-11.0968
飛鳥	-11.0969
此義不然	-11.0969
皆同一	-11.097
福焰王子	-11.097
戾	-11.097
嚕	-11.097
求涅槃	-11.0971
錢	-11.0972
由如是故	-11.0972
說一乘道	-11.0974
群品	-11.0974
已曾供養	-11.0974
的	-11.0975
買	-11.0975
檀越	-11.0975
若有善男子善女人	-11.0977
忠	-11.0978
隨心所	-11.0978
有分別者	-11.0979
悔恨	-11.0981
鞞	-11.0981
生人間	-11.0981
膿血	-11.0981
捨身命財	-11.0982
吉利	-11.0985
我於往昔	-11.0986
近止	-11.0986
迷亂	-11.0988
等遊	-11.0988
遏	-11.0988
等意分別	-11.0988
為他人說	-11.0989
護持正法	-11.099
瑟	-11.0991
弁	-11.0992
躰	-11.0997
欣悅	-11.0999
誹謗正法	-11.1002
初發意	-11.1004
發起序	-11.1006
結歎	-11.101
瑞應	-11.102
貧苦	-11.1023
無有邊際	-11.1026
造逆	-11.1027
咸共	-11.1027
古今	-11.103
又能了知	-11.1031
聲聞乘人	-11.1032
了知諸法	-11.1033
商人	-11.1035
萬德	-11.1036
天人世間	-11.1039
佛語彌勒	-11.104
眼目	-11.1041
作師子吼	-11.1043
禮佛足	-11.105
造業	-11.106
四神足	-11.1064
廣長	-11.1088
訶毀	-11.1088
無價	-11.1091
無處所	-11.1094
分為二	-11.1095
無上覺	-11.1096
難量	-11.1096
凡愚	-11.1098
愛念	-11.1107
同止	-11.1107
若有善男子	-11.1108
感應	-11.111
無量壽觀	-11.1111
蒙佛	-11.114
四倒	-11.1168
集諦	-11.1178
業果報	-11.1182
菩薩摩訶薩亦復如是	-11.1187
隨學	-11.1188
能救	-11.1193
煩惱魔	-11.12
咸悉	-11.1233
雪	-11.1259
諸天子眾	-11.126
最勝兩足尊	-11.1262
菩薩之將從	-11.127
發無上正真道意	-11.1271
所言進者	-11.1278
營事比丘	-11.1281
正遍覺	-11.1281
是業滅已	-11.1283
是人徒自疲勞	-11.1285
不依東方	-11.1286
卒暴	-11.1287
三藐三佛陀	-11.1289
以何為	-11.1289
稠林	-11.1289
初識生時	-11.1289
伐	-11.1291
說誠實言	-11.1291
妓樂	-11.1291
瑕	-11.1292
1	-11.1292
0	-11.1293
阿逸多	-11.1294
生死涅槃	-11.1294
一小劫	-11.1294
遍一切處	-11.1295
不鼓自鳴	-11.1295
池沼	-11.1295
腐	-11.1295
我於今者	-11.1296
離心意識	-11.1297
飡	-11.1297
矜	-11.1298
瞿	-11.1298
梵行已立	-11.1298
象手	-11.1299
深固	-11.13
灌	-11.1302
糞掃衣	-11.1302
幼	-11.1302
朋友	-11.1302
祖	-11.1303
洞達	-11.1304
血肉	-11.1305
蘇息	-11.1305
顏貌	-11.1307
阿蘭若比丘	-11.1307
到佛所	-11.1307
嗜	-11.1307
看	-11.1307
善住意	-11.1307
千世界	-11.1308
酥	-11.1308
述云此次	-11.1309
發如是心	-11.1312
辰	-11.1312
第二段中	-11.1312
心意識	-11.1313
頭目	-11.1315
相貌	-11.1316
猶未	-11.1319
證信序	-11.1321
母腹	-11.1322
鄔	-11.1323
竹	-11.1323
藍	-11.1327
空閑處	-11.1327
發清淨心	-11.1327
能忍受	-11.1327
他方世界	-11.133
應須	-11.1331
趣菩提	-11.1332
印門	-11.1334
梵音聲	-11.1334
發起大悲	-11.1335
從佛聞	-11.1338
達摩	-11.134
甚可	-11.1342
展轉相	-11.1342
流通分	-11.1347
所不能及	-11.1352
自然七寶	-11.1354
退屈	-11.1354
普覆	-11.1355
於何處	-11.1357
三世平等	-11.1364
伽耶	-11.1365
第十四	-11.1372
諸眾會	-11.1372
四萬二千	-11.1376
所讚	-11.1376
無缺	-11.139
恒河沙數	-11.1397
所從來	-11.1413
無有量	-11.1415
佛告舍利子	-11.1418
燒然	-11.1428
寂意菩薩	-11.1431
被服	-11.1434
悟解	-11.144
菩提樹下	-11.1446
夜分	-11.1449
清淨無垢	-11.1452
敬愛	-11.1455
阿難白佛	-11.1464
儀式	-11.1484
聖賢	-11.1492
得須陀洹	-11.1501
收入	-11.1506
曾見	-11.1509
二十八	-11.1514
心不相應	-11.1515
勿令	-11.1518
功能	-11.1521
甚善	-11.1529
脇	-11.1539
所演	-11.1544
未曾聞	-11.1546
其國土	-11.1547
以清淨心	-11.155
甘露法	-11.1558
苦諦	-11.1562
無有邊	-11.1571
報土	-11.158
修般若波羅蜜	-11.1582
亦復無所施設	-11.1595
亦不分別	-11.1599
師子王	-11.16
此說是名	-11.1606
今此經	-11.1614
俱胝歲	-11.1614
告阿難	-11.1618
牢	-11.1621
此菩薩是初地	-11.1625
信受諦奉清淨無	-11.1626
諸法本性	-11.1627
倍復踊躍深生歡喜發希奇想	-11.1628
千輻	-11.1628
族姓女	-11.1629
優鉢羅花	-11.1629
婆羅	-11.1633
八功德水	-11.1634
說是語已	-11.1634
晃	-11.1635
無來無去	-11.1635
無等倫	-11.1636
安穩	-11.1636
慈悲喜捨	-11.1636
嗔	-11.1636
周匝圍繞	-11.1638
靈鷲山	-11.1638
醜陋	-11.164
壁	-11.164
態	-11.164
庫藏	-11.164
尊者大目乾連	-11.1641
5	-11.1641
姿	-11.1642
嶮	-11.1642
肉髻	-11.1642
錢財	-11.1643
栴	-11.1643
尚不能	-11.1644
荔	-11.1646
頑	-11.1646
匹	-11.1646
有二戶蟲	-11.1648
披	-11.1648
牆	-11.1648
菩薩有四事法	-11.1649
玻	-11.1649
無上正覺	-11.1649
縷	-11.1649
眉	-11.165
祥	-11.165
充足	-11.1651
甞	-11.1652
脂	-11.1653
受教而	-11.1654
諸天世人	-11.1654
踰闍	-11.1655
乞士	-11.1655
墨	-11.1655
作是語已	-11.1657
此二歸依	-11.1658
髓	-11.1658
於我法中	-11.1658
佛塔	-11.1659
筋	-11.1659
婢	-11.1659
近寂	-11.1659
高座	-11.1661
教誡	-11.1661
篤信	-11.1666
福蘊	-11.1673
白文殊師利言	-11.1674
五欲境界	-11.1677
涅	-11.1677
此說名為	-11.1692
於諸眾生起	-11.1695
隱顯	-11.1699
第十一	-11.1701
卷第三	-11.1705
悅可	-11.1705
離塵	-11.1706
心所念	-11.1707
說微妙法	-11.1712
長老阿難	-11.1714
機緣	-11.1716
如須彌	-11.1721
諦聽諦聽	-11.1737
功德聚	-11.174
序分	-11.1743
大菩薩眾	-11.175
寶衣	-11.1751
頻	-11.1755
調和	-11.1755
罪報	-11.176
如來今者	-11.1765
色蘊	-11.1771
八十四	-11.1777
無壽者	-11.1792
行乞食	-11.1795
道路	-11.1797
壽命無量	-11.1804
於此正法	-11.1809
化益	-11.181
許說	-11.1816
觀無量壽	-11.1823
一滅諦	-11.183
第二句	-11.1837
卷第二	-11.1846
無增減	-11.1856
卷第四	-11.1856
述云此第	-11.1859
倦	-11.1884
以佛神力	-11.1894
衣服飲食	-11.1894
辟支	-11.1898
圓淨	-11.1916
山頂	-11.1922
誰當	-11.1934
佛所說法	-11.1937
第十五	-11.1939
心念言	-11.1939
必須	-11.1939
三十三	-11.1942
上來第一	-11.1943
舉足	-11.1947
六界	-11.1949
三千大千世界所有	-11.1954
不久亦當	-11.1958
眾圍繞	-11.1962
不移	-11.1969
一毛端	-11.1972
弓	-11.1982
文殊師利童真菩薩	-11.1984
一切諸法皆悉空寂	-11.1984
與空共行	-11.1985
空無空相	-11.1985
警	-11.1986
鬪戰	-11.1988
證阿耨多羅三藐三菩提果	-11.1988
光聚王	-11.1988
玩	-11.1989
惛	-11.199
懈倦	-11.1993
西天譯經三藏朝散大夫試鴻臚	-11.1993
到於彼岸	-11.1993
憶念夢中	-11.1995
出家學道	-11.1995
出廣長舌相	-11.1995
鴈	-11.1996
振動	-11.1997
躬	-11.1997
刑	-11.1997
煮	-11.1997
如世尊說	-11.1998
▁35	-11.1998
7	-11.1999
何謂菩薩等遊	-11.1999
奴	-11.2
以善方便	-11.2
踊躍歡喜	-11.2
□	-11.2001
捶打	-11.2001
發無上道心	-11.2002
銀青光祿大夫	-11.2002
廟	-11.2004
祠	-11.2005
塹	-11.2005
班宣	-11.2005
我等今者	-11.2007
米	-11.2007
無所罣礙	-11.2008
墮在	-11.2009
夭	-11.2009
是則名曰	-11.2009
濫	-11.201
黑暗	-11.2013
秦	-11.2013
功德海	-11.2018
時無所從來	-11.2018
諸有情類	-11.2019
筏	-11.2019
爾時佛告舍利子	-11.2019
百千種	-11.2024
天冠	-11.2024
腸	-11.2025
相續不斷	-11.2026
就文有	-11.2028
開為二	-11.2031
見諸阿修羅	-11.2033
淨修梵行	-11.2033
且止	-11.2034
汝當受持	-11.2035
形容	-11.2036
諸善本	-11.2041
復生三想	-11.2045
宣說正法	-11.2047
大勢至菩薩	-11.2057
深山	-11.2068
捨三分	-11.2072
雖殊	-11.2072
惡不善法	-11.2074
息除	-11.2075
諸惡業	-11.2076
慈氏菩薩	-11.2083
經歷	-11.2084
百千俱胝那庾多	-11.2087
現在世	-11.2087
尊者須菩提	-11.2095
懷疑	-11.2098
諸天子等	-11.2103
退還	-11.2108
變成	-11.2113
兜率	-11.2114
濟度	-11.213
菩薩不爾	-11.2131
威神力故	-11.2134
得作佛	-11.2141
厭患	-11.2146
嘆佛	-11.2146
清淨之行	-11.2154
黃色	-11.2155
持淨戒	-11.2158
初總標	-11.216
愍哀	-11.2187
得授記	-11.2194
大神變	-11.2203
毀罵	-11.2215
成無上正真之道	-11.2221
教主	-11.2221
華嚴經	-11.2239
進趣	-11.2246
悋惜	-11.225
舍衛城中	-11.2253
愛重	-11.2257
爾時世尊讚	-11.2278
諸不善法	-11.2278
時淨飯王	-11.2278
生死海	-11.2331
正法住世	-11.2338
為佛作禮	-11.2343
大唐三藏菩提流志奉詔譯	-11.2346
以為前導	-11.2347
分為三	-11.2347
釋所以	-11.2352
名無相解脫門	-11.2355
閻	-11.2358
此人則為	-11.2359
坦	-11.2361
浩	-11.2361
金翅鳥	-11.2361
文殊師利法王子	-11.2362
涯	-11.2363
他方異國	-11.2365
荼	-11.2365
安詳	-11.2365
紫磨金	-11.2366
五體投地	-11.2367
巷	-11.2367
八十里	-11.2368
奮	-11.2368
好醜	-11.2369
嘉	-11.2369
爾時世尊欲重宣此義	-11.2369
6	-11.237
塚間	-11.237
鴦	-11.237
無漏不盡	-11.2371
前世宿命	-11.2372
搖動	-11.2372
肘	-11.2373
給孤獨	-11.2373
違失	-11.2374
嚴淨佛土	-11.2375
縱橫	-11.2375
領納	-11.2375
捨家出家	-11.2375
駝	-11.2375
常樂我淨	-11.2376
撰	-11.2377
幽閉	-11.2377
􂌞	-11.2377
下品下生	-11.2377
愚冥	-11.2377
束	-11.2378
籍	-11.2378
幸	-11.2378
持諸禁戒	-11.2378
去來現在	-11.2379
女報	-11.2379
案	-11.2379
於中初先	-11.2379
匿	-11.238
無復煩惱	-11.2381
眾所知識	-11.2382
勤行精進	-11.2383
否	-11.2383
讚嘆	-11.2383
稽首禮	-11.2385
惱亂	-11.2386
歎未曾有	-11.2386
無我無人	-11.2387
麁細	-11.2387
心數法	-11.2387
執持名號	-11.2388
夫婦	-11.2388
瑜伽	-11.2388
云何奉持	-11.2391
殑伽沙數等	-11.2393
厭倦	-11.2395
戒定慧	-11.2396
來生我國	-11.2397
復感業風名	-11.24
由此風力	-11.24
三種意生身	-11.2401
無異攝受正法	-11.2406
安樂世界	-11.2408
得一切佛法	-11.2408
囉尼	-11.241
卷第一	-11.2412
超度	-11.2414
》、《	-11.2417
勝鬘白佛	-11.2417
終始	-11.242
靜處	-11.2424
階道	-11.2425
尊長	-11.243
離殺生	-11.2431
轉變	-11.2432
當知皆是	-11.2433
又如實知	-11.2434
第十二	-11.2438
及聲聞眾	-11.2444
深法忍	-11.2446
所牽	-11.2447
離一切相	-11.2452
法師云	-11.2453
百分	-11.2454
名為死	-11.2461
覺品	-11.2464
為令眾生	-11.2465
得生天	-11.2478
往生彼國	-11.248
器世間	-11.2484
汝莫	-11.2495
令得阿耨多羅三藐三菩提	-11.2497
開化眾生	-11.2502
千二百	-11.2506
順忍	-11.2512
明其所	-11.2516
此經典	-11.2523
三匝	-11.2528
殺父	-11.253
胎藏	-11.2533
何謂四	-11.2556
無畏女	-11.2556
六十四	-11.2578
淨潔	-11.2581
利益諸眾生	-11.2587
可厭	-11.2594
業因緣故	-11.2605
此娑婆世界	-11.2606
珠寶	-11.2607
七百	-11.2616
寶鈴	-11.2624
有為生死	-11.2628
威神力	-11.2679
趣地獄	-11.2685
無住無	-11.2695
難遇	-11.2716
能摧	-11.2725
今現在世	-11.2733
毘婆尸	-11.2736
為人說	-11.2736
無有厭足	-11.2736
身語意	-11.2738
嗚呼	-11.2741
大目如來	-11.2741
法欲滅時	-11.2742
飄	-11.2742
遠塵離垢得法眼淨	-11.2744
耆	-11.2745
迦毘羅城	-11.2745
傾動	-11.2745
何謂菩薩等意分別遊入	-11.2746
曼陀羅華	-11.2747
齎	-11.2747
盤	-11.2748
菴	-11.2748
前後圍遶	-11.2748
增盛	-11.2749
祀	-11.275
尼彌王	-11.2751
貿	-11.2751
賣	-11.2751
怕	-11.2753
阿羅呵	-11.2754
溢	-11.2754
孝養父母	-11.2754
被甲冑	-11.2754
諸通慧	-11.2754
吐	-11.2755
耆年	-11.2755
孤獨	-11.2756
衢	-11.2757
忍辱波羅蜜多	-11.2757
麤	-11.2758
疲勞	-11.2758
有斯患	-11.2758
清徹	-11.2759
於後末世	-11.2761
爪	-11.2761
刃	-11.2761
蠲除	-11.2761
銷	-11.2762
豪貴	-11.2762
從何以故以下	-11.2763
半偈	-11.2763
閑靜	-11.2763
漿	-11.2764
囑	-11.2765
假使有人	-11.2765
爾時世尊而說頌曰	-11.2766
所生之處	-11.2771
浪	-11.2775
尊卑	-11.2776
極貧	-11.2777
開敷	-11.278
明二乘不得	-11.2781
燒香	-11.2783
覆蓋	-11.2783
華嚴云	-11.2784
自然化生	-11.2785
垢穢	-11.2789
圓備	-11.2789
一毛孔	-11.279
於彼佛所	-11.2792
接引	-11.2795
阿字門	-11.2795
權方便	-11.2796
與諸大眾	-11.2798
久近	-11.2798
知恩	-11.2805
四天王天	-11.2808
是為十	-11.2809
影現	-11.2811
十八界	-11.2811
兩義	-11.2816
亦復不能	-11.2823
却後	-11.2826
更無餘	-11.2845
備悉	-11.2848
親愛	-11.285
乃至一念	-11.2852
聲聞大眾	-11.2856
諸佛及諸菩薩	-11.2864
厭捨	-11.287
佛地論	-11.2876
開合	-11.2885
外凡	-11.2903
教勅	-11.2914
諸魔眾	-11.2915
能詮	-11.2921
求無上菩提	-11.2923
煩惱濁	-11.2926
千億萬	-11.2938
持五戒	-11.2956
破無明	-11.2963
佛及菩薩	-11.297
減少	-11.2985
千分不及一	-11.301
第十三	-11.3014
其城中	-11.3026
滅道諦	-11.3062
現其身	-11.3085
拜	-11.3092
尊重讚歎	-11.3094
癡暗	-11.3113
如來具足殊勝	-11.3114
不如理作意	-11.3119
皆不失壞	-11.3126
得是願乃作佛	-11.313
妻妾	-11.3135
即以偈頌	-11.3137
威儀禮節	-11.3142
四大洲	-11.3143
塗香末香	-11.3143
戲笑	-11.3145
迅	-11.3145
入舍婆提城	-11.3146
印印一切法	-11.3146
熾焰	-11.3147
寶共作一	-11.3148
如人夢中	-11.3148
算數譬喻所不能及	-11.315
輔	-11.315
阿耨多羅	-11.315
淫	-11.3151
悕	-11.3152
豐饒	-11.3152
乞匃	-11.3153
拔濟	-11.3153
c	-11.3154
f	-11.3154
說此偈已	-11.3154
須臾間	-11.3155
籠	-11.3156
慳惜	-11.3156
如是忍故	-11.3157
須菩提復問	-11.3157
價直	-11.3157
毀辱	-11.3158
澍	-11.3158
阿鞞跋致	-11.3159
朱	-11.3159
亮	-11.316
要期	-11.316
迦陵頻伽	-11.3161
千二百五十人	-11.3161
是則附於欲	-11.3161
以是之故	-11.3161
有一戶蟲名	-11.3161
三十七品	-11.3161
解脫智見	-11.3162
能覺了	-11.3162
阿那律	-11.3164
臨死	-11.3164
士夫	-11.3165
幔	-11.3165
陋	-11.3166
蘇摩	-11.3166
痰	-11.3166
賓頭盧	-11.3167
質直	-11.3167
猛利	-11.3167
我不作佛	-11.3167
財富	-11.3167
黠慧	-11.3169
綱	-11.3169
迴向發願	-11.3169
快哉	-11.317
冬	-11.317
藥草	-11.3171
捺	-11.3174
見佛聞法	-11.3175
咽	-11.3175
正宗分	-11.3176
眼生邊	-11.3177
滓	-11.3178
一心不亂	-11.318
雞	-11.3181
歡喜奉行	-11.3182
鞕	-11.3184
與諸眷屬	-11.3185
得此三昧	-11.3188
哆	-11.3189
秉作	-11.3191
謗毀	-11.3194
四智究竟	-11.3194
人非人	-11.3196
殊異	-11.3202
於母腹中有風	-11.3203
恭敬尊重	-11.3209
羊	-11.321
如意珠	-11.321
千由旬	-11.3211
無量阿僧祇劫	-11.3213
苦滅諦	-11.3216
消化	-11.3217
不取菩提	-11.3219
生大歡喜	-11.3221
鈴網	-11.3221
偏舉	-11.3222
筏底	-11.3225
先列	-11.3251
樹枝	-11.3251
所護念	-11.3258
百千由旬	-11.326
微少	-11.3264
正路	-11.3267
往生無量清淨佛國	-11.3272
動亂	-11.3275
怖魔	-11.3307
得度脫	-11.3343
詐現	-11.3357
退沒	-11.3406
理趣善巧	-11.3449
衣被	-11.3487
世尊釋迦牟尼如來	-11.3507
怙	-11.3524
而共同止	-11.3532
而發趣於阿耨多羅三藐三菩提	-11.3539
千葉	-11.3545
耳鼻舌身心	-11.3548
以要言之	-11.3553
勤加精進	-11.3553
智德資糧善巧	-11.3557
意三種業	-11.3558
從初訖	-11.3559
一切樂具	-11.3559
既出家已	-11.356
勒	-11.3561
祚	-11.3562
二足尊	-11.3562
忽然不現	-11.3562
諸菩薩摩訶薩應入	-11.3563
陣	-11.3564
給侍	-11.3565
犁	-11.3565
於諸世間心不疲惓	-11.3565
沾	-11.3566
翼	-11.3567
希奇	-11.3569
成就如是功德莊嚴	-11.3569
竝	-11.3569
東西	-11.3569
明月珠	-11.357
姝	-11.357
循	-11.3571
憑	-11.3571
顛	-11.3572
晝夜六時	-11.3572
淵	-11.3572
鞭	-11.3572
杜	-11.3573
爾時彌勒菩薩白佛言	-11.3573
小萎	-11.3575
匱	-11.3575
本行菩薩道時	-11.3576
肅	-11.3576
龍神	-11.3576
地水火風	-11.3576
涕	-11.3577
沮	-11.3578
此明夫人	-11.3578
舍婆提	-11.3578
一時佛在	-11.3579
憒	-11.3579
廁	-11.3579
二乘種不生	-11.358
棲	-11.3581
趺	-11.3581
憂慼	-11.3582
不可限量	-11.3582
]《	-11.3582
都無所	-11.3583
過咎	-11.3584
街	-11.3586
無上丈夫	-11.3586
禪波羅蜜	-11.3586
泯	-11.3587
床座	-11.3587
努	-11.3591
醎	-11.3591
爾時會中有	-11.3591
安隱快樂	-11.3592
曠劫	-11.3592
應如是持	-11.3594
四維	-11.3598
穴	-11.3598
食噉	-11.3599
無礙辯才	-11.36
七寶所成	-11.3601
如來祕要	-11.3603
嚴好	-11.3603
作是語	-11.3604
希有之法	-11.3605
播	-11.3609
發淨心	-11.3613
赤珠	-11.3616
資用	-11.3626
良由	-11.363
色無色界	-11.3632
無邊聖諦	-11.3634
最極	-11.3639
堅著	-11.3644
如說行	-11.3648
萬四千	-11.3653
大精進力	-11.367
無量清淨佛光明	-11.3676
能堪忍	-11.3731
猛火	-11.3747
印可	-11.3776
無量無邊不可思議	-11.3808
寶瓶	-11.381
能入解	-11.3812
信佛語	-11.383
唯佛能	-11.3846
第十六	-11.3853
陰魔	-11.3882
汝今諦聽	-11.3885
心心所	-11.3888
限齊	-11.3889
利刀	-11.3889
於一事中	-11.3952
無量億劫	-11.3956
人愛樂於此經	-11.3973
後復生起身喜心喜	-11.3985
聲香味觸	-11.3985
侍衛	-11.3986
驚畏	-11.3986
誤失	-11.3986
說是偈已	-11.3987
瞻禮	-11.3989
而散佛上	-11.3989
以至蜎飛蠕動之類	-11.399
一四句偈	-11.3993
水邊流沙	-11.3993
寡	-11.3993
讎	-11.3993
調御士	-11.3994
麁獷	-11.3994
彌樓揵馱佛	-11.3994
色聲香味	-11.3995
拘胝那庾多	-11.3995
利養名聞	-11.3996
是人所夢執	-11.3996
若他觀者	-11.3997
籌	-11.3997
得法眼淨	-11.3997
兩手	-11.3999
矚	-11.3999
沫	-11.3999
歌詠	-11.4
乃往過去	-11.4
兆	-11.4
如所聞法	-11.4
宮嬪	-11.4001
塊	-11.4001
名為邪觀	-11.4001
南北	-11.4001
舍摩他	-11.4001
崖	-11.4002
發是言	-11.4002
為他廣說	-11.4003
觀音勢至	-11.4003
悲泣	-11.4003
政	-11.4004
伴侶	-11.4004
陰界入	-11.4004
纔	-11.4006
泰	-11.4007
謂佛如來	-11.4007
邪定聚	-11.4008
當來之世	-11.4008
性自空	-11.4008
齋戒	-11.4008
怠	-11.4008
泣	-11.4009
十二部經	-11.4009
校量	-11.4009
嬈惱	-11.4009
本願力故	-11.4009
西方極樂世界	-11.401
翅	-11.401
顧戀	-11.401
獵師	-11.401
沙彌	-11.4011
膚	-11.4011
為人演說	-11.4012
虎	-11.4012
州	-11.4014
妓	-11.4014
剃	-11.4014
逾	-11.4016
資養	-11.4016
畫師	-11.4017
煎	-11.4017
誕	-11.4018
宋	-11.4019
皮肉	-11.4019
七覺支	-11.402
文顯可	-11.402
不愚於法	-11.4021
怨憎	-11.4022
帛延	-11.4022
聲聞之眾	-11.4025
第二忉利天	-11.4026
謙下	-11.403
爾時得無垢女	-11.4034
佛說阿彌陀經	-11.4035
禰	-11.4041
損壞	-11.4041
枝條	-11.4041
八聖諦	-11.4043
引導	-11.405
仁和	-11.4051
法界體性	-11.4052
開演	-11.4052
八正道	-11.4053
戍	-11.4056
愛惜	-11.4056
舌根	-11.4057
大德須菩提	-11.406
入母腹	-11.4063
遊戲神通	-11.407
鉢唎	-11.4074
鷲峯山中	-11.4084
與大比丘	-11.411
十二緣	-11.411
大慈大悲	-11.4121
慈哀	-11.4129
千俱胝	-11.4154
寶臺	-11.4163
調柔	-11.4181
易可	-11.4224
千拘胝	-11.4274
伏魔	-11.4289
依倚	-11.4298
污染	-11.4298
過去未來現在諸佛	-11.4301
自活	-11.4358
愚迷	-11.4363
牛羊	-11.4392
無量壽國	-11.4416
娛	-11.4437
毘利耶波羅蜜多	-11.4439
生恐怖	-11.4442
各於其國	-11.4449
長者居士	-11.445
無邊稱王	-11.445
深固作意	-11.445
卷第一百	-11.445
綺飾	-11.4451
是為菩薩等遊	-11.4451
右繞七匝	-11.4453
擎	-11.4453
骨髓	-11.4453
見是事已	-11.4454
不可窮盡	-11.4454
宴	-11.4455
智者誰不	-11.4455
芬	-11.4455
群萌	-11.4455
佐	-11.4456
稽首足下	-11.4458
從坐而起	-11.4458
躄	-11.4458
謀	-11.4458
乃至施及貯水	-11.4458
媚	-11.4458
斬	-11.4458
闇冥	-11.4459
墮於惡趣	-11.4459
住立一面	-11.4459
上品上生	-11.4459
9	-11.446
釧	-11.446
即現其身而為化度	-11.446
邦	-11.446
彈	-11.4461
慜	-11.4461
脩羅	-11.4461
斫	-11.4461
頂戴	-11.4461
欽	-11.4462
暇	-11.4462
眉間白毫	-11.4462
嚴麗	-11.4463
洛	-11.4463
填	-11.4463
五痛五燒	-11.4463
勳	-11.4463
摩休勒	-11.4463
羼底波羅蜜多	-11.4464
清冷	-11.4464
自知作佛	-11.4465
映徹	-11.4465
斯經典	-11.4468
就初段中	-11.4468
焦	-11.4469
選	-11.447
三耶三佛	-11.447
撾	-11.4472
孝順	-11.4472
顏容	-11.4472
無二無別	-11.4473
我昔曾	-11.4473
親近善友	-11.4473
汗	-11.4473
棄背	-11.4475
我念過去	-11.4477
江南	-11.4479
弗	-11.4479
半月	-11.448
逃	-11.448
韻	-11.4481
諸住信菩薩	-11.4482
塵沙	-11.4484
無過上	-11.4486
如其次第	-11.4487
尚復不	-11.4487
機關	-11.4488
啼	-11.4489
寶幔	-11.449
如是言生	-11.449
摩竭	-11.4493
何處眼	-11.4495
惑亂	-11.4497
不失壞	-11.45
家室	-11.4502
今現在說法	-11.4502
是故次觀	-11.4503
即是此說苦	-11.4508
落日	-11.4512
嚟	-11.4513
所觀境	-11.4517
受用土	-11.4519
後五百歲	-11.4519
奇妙	-11.457
一百二十	-11.4597
上妙衣服	-11.46
命濁	-11.4618
能善了知	-11.4647
持禁戒	-11.4664
薄福	-11.4682
炎熾	-11.4729
窮極	-11.4755
世間無與等	-11.4768
住信菩薩	-11.489
目揵連	-11.4896
人不樂於此經	-11.4899
難伏地	-11.4903
爾時世尊欲重宣此義而說偈言	-11.4908
栰	-11.491
鑊	-11.4912
妃	-11.4917
閻魔羅界	-11.4917
心想中現	-11.492
智業圓滿	-11.4921
見先所作	-11.4921
百俱胝	-11.4922
煙	-11.4922
恣汝所問	-11.4922
若見眾生樂	-11.4922
淨無垢妙淨寶月王光	-11.4922
西天譯經三藏	-11.4922
周遍虛空際	-11.4923
乘七寶車	-11.4923
尸波羅蜜	-11.4923
訶責	-11.4924
選擇	-11.4924
身壞命終	-11.4925
血氣	-11.4926
揵	-11.4927
瓦	-11.4927
優鉢羅華	-11.4927
役	-11.4928
朋黨	-11.4928
或生地獄	-11.4928
旃	-11.4928
縱廣正等	-11.4928
譯經三藏朝散大夫試光祿卿	-11.4928
異口同音	-11.4929
風所吹	-11.493
舍衛大城	-11.493
膳	-11.4931
大法鼓	-11.4932
屏	-11.4932
瓶中取	-11.4933
婬慾	-11.4934
不愚法	-11.4934
橋	-11.4935
天龍鬼神	-11.4935
考	-11.4935
▁33	-11.4935
苾芻尼	-11.4936
蔔	-11.4936
忪	-11.4937
早	-11.4937
莊	-11.4937
囚	-11.4938
洗浴	-11.4938
無明緣行	-11.4939
祿	-11.4939
歿	-11.4939
世雄	-11.494
數取趣	-11.494
沙門瞿曇	-11.494
鮮潔	-11.4941
退墮	-11.4941
句斯謂為發	-11.4942
無有出期	-11.4942
彫	-11.4942
為其主	-11.4943
屎	-11.4943
龜	-11.4943
饌	-11.4944
兜術天	-11.4944
捧	-11.4944
陷	-11.4945
研	-11.4945
神通之力	-11.4945
尤	-11.4946
突	-11.4947
踐	-11.4949
毛髮	-11.4949
馥師	-11.4949
多所饒益	-11.4949
轉女身	-11.495
開曉	-11.495
齋戒清淨	-11.495
史	-11.495
叫	-11.4952
語須摩提	-11.4952
儻	-11.4952
羽	-11.4953
陽	-11.4953
鶴	-11.4954
明行成	-11.4955
弊惡	-11.4955
是心是佛	-11.4955
總以結	-11.4955
陛	-11.4956
伺求	-11.4957
邏	-11.4957
又如大地	-11.496
自身真如	-11.4961
幻惑	-11.4961
分段變易	-11.4961
爭	-11.4961
空中有聲	-11.4963
宣暢	-11.4966
自下第四	-11.497
詮表	-11.4974
虗妄	-11.4974
爾時摩訶迦葉白	-11.4975
金臺	-11.4975
腦	-11.4977
經義疏	-11.499
諸行無常	-11.4991
」』	-11.4996
復次夢見如來	-11.5003
真佛子	-11.5007
顯示一切諸法	-11.5009
丁	-11.5015
救拔	-11.5024
逼切	-11.503
佛說經已	-11.504
千里	-11.5042
有風名曰	-11.505
自他根	-11.5053
水火風界	-11.509
八萬四千法門	-11.5101
刀劍	-11.5105
須陀洹果	-11.5156
十歲	-11.516
摧破	-11.5358
億歲	-11.5374
起慈悲心	-11.5378
攀	-11.5394
是九地	-11.5407
祕要	-11.5409
阿閦菩薩摩訶薩	-11.541
綺	-11.5416
師子勇猛雷音菩薩	-11.5418
十八不共法	-11.5418
雲雨	-11.5419
菩薩摩訶薩修行般若波羅蜜多故	-11.5419
卷第九十	-11.5419
適悅之相	-11.542
不苦不樂	-11.542
斯苦甚大	-11.5422
殑	-11.5422
憍逸	-11.5422
等恒河沙數諸佛	-11.5423
夢中畢竟無有	-11.5423
卷第一百一十	-11.5424
百千萬億那由他	-11.5424
無含藏	-11.5424
鬼趣	-11.5425
修行十善業道	-11.5425
荊棘	-11.5426
供養恭敬尊重讚歎	-11.5426
曼殊沙花	-11.5426
人中最為第一	-11.5426
鉤	-11.5427
卿宣梵大師賜紫沙門臣日稱等奉詔譯	-11.5427
說此頌已	-11.5427
身語意業	-11.5427
床榻	-11.5428
佛滅度後	-11.5428
足蹈	-11.5428
頭面作禮	-11.5428
卷第八十	-11.5429
皆在虛空中下向	-11.5429
受其報	-11.5429
光梵大師賜紫沙門臣惟淨等奉詔譯	-11.5429
狀貌	-11.5429
肢	-11.5429
綜	-11.543
八十種好	-11.543
忿恨	-11.543
憤	-11.5431
發無上菩提之心	-11.5431
卷第五十	-11.5432
含靈	-11.5432
嚴淨佛剎	-11.5432
十八不共佛法	-11.5433
欣笑	-11.5433
籌量	-11.5433
逈	-11.5433
瓦礫	-11.5433
卷第六十	-11.5434
剃除鬚髮	-11.5434
褥	-11.5434
攝受正法善男子善女人	-11.5434
不驚不怖	-11.5434
行毘利耶波羅蜜多故	-11.5435
速得阿耨多羅三藐三菩提	-11.5435
所應斷法	-11.5435
無窮無極	-11.5435
杵	-11.5436
8	-11.5436
皆是大阿羅漢	-11.5436
緩	-11.5436
蠅	-11.5436
六方諸佛	-11.5436
憍薩羅	-11.5436
愆	-11.5437
筆	-11.5437
羸瘦	-11.5437
纖	-11.5438
4	-11.5439
獵	-11.5439
馳騁	-11.5439
崛山	-11.5439
羯磨	-11.544
般涅盤	-11.544
○	-11.544
圖	-11.544
溪	-11.5441
七地以還	-11.5441
族姓子須賴	-11.5441
終不忘失	-11.5441
□□	-11.5442
此二句名莊嚴	-11.5442
煥	-11.5442
拯	-11.5442
倉	-11.5443
裝	-11.5443
祈	-11.5443
專注	-11.5443
尊不共法	-11.5443
剪	-11.5443
客塵煩惱	-11.5444
仇	-11.5445
微風吹動	-11.5445
波羅奈	-11.5446
以方便力	-11.5446
危害	-11.5446
蚊虻	-11.5447
上品下生	-11.5447
悶	-11.5447
率	-11.5448
大千界	-11.5448
輪回	-11.5448
人民熾盛	-11.5449
傷害	-11.5449
抑	-11.5449
穢濁	-11.5449
衰惱	-11.5449
斥	-11.5449
醫師	-11.5449
渚	-11.5451
裏	-11.5451
肇	-11.5452
說不能盡	-11.5453
革	-11.5454
般舟	-11.5454
團	-11.5455
是心作佛	-11.5459
髀	-11.5459
佛及僧	-11.546
阿須輪	-11.5461
幻偽	-11.5461
憂悔	-11.5463
不定聚	-11.5467
幢蓋	-11.5469
得阿羅漢道	-11.5491
當得成佛	-11.5492
墜墮	-11.5509
普照十方	-11.5521
生如是心	-11.5524
富饒	-11.5543
於世尊所	-11.5544
釋名門	-11.5546
為魔所	-11.5613
幻士	-11.5657
卷第四十	-11.5666
俱胝那庾多	-11.5686
釋迦牟尼	-11.5714
無緣慈	-11.5746
寶間錯	-11.5818
勤勇	-11.584
則自然亂風吹	-11.5927
儒童	-11.5933
鳩槃茶	-11.5936
遍炎熾	-11.594
淨除業障	-11.5942
如救頭然	-11.5943
恒河沙等諸佛世界	-11.5946
菩薩夢中見	-11.5947
當信是稱讚不可思議功德	-11.5947
天人魔梵	-11.5948
一業敷演經法	-11.5949
彼現有佛	-11.5949
現斯瑞	-11.5949
不顧身命	-11.5949
師子步雷音菩薩	-11.5949
叡	-11.5951
在在處處	-11.5951
若人若天	-11.5951
但隨世俗	-11.5951
承佛神力	-11.5952
於阿耨多羅三藐三菩提得不退轉	-11.5952
毗尼	-11.5952
無有少法可得	-11.5953
與大比丘眾千二百五十人俱	-11.5953
自業自	-11.5954
臨壽終時	-11.5954
心初起	-11.5954
谷響	-11.5954
緊	-11.5954
疲厭	-11.5954
識身識	-11.5956
三藐三	-11.5956
帛	-11.5957
牖	-11.5957
從何所來	-11.5957
巖	-11.5957
昔行菩薩道時	-11.5957
贍部洲	-11.5957
詺	-11.5958
重明斯義說伽	-11.5958
調御師	-11.5958
假施設	-11.5958
不望報	-11.5958
寂寞	-11.5959
微薄	-11.596
較	-11.5961
即我身是	-11.5961
旃檀	-11.5961
劣弱	-11.5961
百味飲食	-11.5961
泆	-11.5962
奴僕	-11.5962
貨	-11.5962
阿羅訶	-11.5962
雹	-11.5962
女無愁憂	-11.5962
世自在王佛	-11.5962
未嘗	-11.5962
劫初成時	-11.5963
?』」「	-11.5963
無常苦空	-11.5963
爾時世尊欲重明斯義說伽	-11.5964
常身命財	-11.5964
出微妙音	-11.5964
願我當來	-11.5965
蔑	-11.5965
將護彼意	-11.5965
祇樹給孤獨園	-11.5965
授阿耨多羅三藐三菩提記	-11.5965
表裏	-11.5965
凶	-11.5966
五濁惡世	-11.5966
八萬四千由旬	-11.5966
川	-11.5966
是染因	-11.5966
曲躬	-11.5967
闊	-11.5967
諸天龍神	-11.5967
所問經論	-11.5967
枯竭	-11.5967
沈沒	-11.5967
湯	-11.5967
佛告阿逸菩薩	-11.5968
勝慧波羅蜜多	-11.5968
菩薩用是四事	-11.5968
如來應等正覺	-11.5968
奈	-11.5968
抵	-11.5969
範	-11.5969
凌	-11.5969
窈冥	-11.597
展轉其中	-11.597
木叉	-11.597
肥	-11.5971
當自端	-11.5971
痛不可言	-11.5971
以智慧力	-11.5971
救療	-11.5971
陀摩尸利比丘	-11.5972
軀	-11.5972
狂亂	-11.5972
菩薩復有四事法	-11.5973
雲霧	-11.5973
千二百五十人俱	-11.5974
括	-11.5975
演暢	-11.5975
佛告離垢施	-11.5976
是淨因	-11.5977
厭苦樂求涅槃	-11.5977
燈炷	-11.5978
舞	-11.5981
符	-11.5981
名聞利養	-11.5982
償	-11.5983
】【	-11.5984
唾	-11.5984
愛戀	-11.5986
神仙	-11.5987
徙	-11.5987
孕	-11.5988
作禮而去	-11.5989
豎	-11.5992
非今有	-11.5998
三千大千世界六種震動	-11.6
便自墮	-11.6008
光音天	-11.604
劫生死之罪	-11.6043
缺漏	-11.605
雄猛	-11.6051
造五逆	-11.606
手掌	-11.6182
熱鐵	-11.6389
從世尊以下	-11.6475
男女妻妾	-11.6495
聞我名號	-11.6496
無與如來同	-11.6498
目真隣陀	-11.6499
是見初地	-11.6499
慼	-11.6499
若能成就如是四法	-11.65
前識既滅	-11.6501
見所作業及受	-11.6502
則有假立	-11.6502
童男	-11.6502
若初識生名	-11.6502
大蘊如來	-11.6503
其業生時亦	-11.6503
其緣生時	-11.6504
澡	-11.6504
或生阿修羅	-11.6504
所應度者	-11.6505
滅無所至	-11.6505
二萬一千	-11.6506
錠光	-11.6506
是實實語	-11.6506
裸	-11.6506
琰摩羅界及阿	-11.6506
試光祿卿	-11.6507
具善巧方便菩薩摩訶薩	-11.6507
二種相因	-11.6507
祐	-11.6508
逮得無所從生法忍	-11.6508
悉不共住	-11.6509
游	-11.651
不及其一	-11.651
波頭摩	-11.651
一切諸法空者	-11.651
死時亦	-11.651
滅度之後	-11.6511
名相分別	-11.6511
孰	-11.6511
前後圍繞	-11.6511
金剛手大祕密主菩薩摩訶薩	-11.6511
在在所生	-11.6512
智勝菩薩	-11.6512
轉妙法輪	-11.6513
虔	-11.6513
如汝所言	-11.6513
三十二相八十種好	-11.6513
聞是說已	-11.6514
福光太子	-11.6514
拳	-11.6514
碯	-11.6515
訟	-11.6515
助菩提法	-11.6515
剎帝利	-11.6515
尠	-11.6515
著衣持鉢	-11.6515
段明義	-11.6515
不退不轉	-11.6516
迷悶	-11.6516
六十二見	-11.6516
端身正行	-11.6516
羅閱	-11.6517
阿練兒	-11.6517
殖眾德本	-11.6518
奧	-11.6518
迦留羅	-11.6518
默然而住	-11.6518
身語心	-11.6519
九十一劫	-11.6519
針	-11.6519
曼達多王	-11.6519
閉塞	-11.6519
讓	-11.6519
脣	-11.6519
獄卒	-11.6519
我滅度後	-11.652
善哉馬勝	-11.652
尼乾	-11.652
影響	-11.652
以願力故	-11.652
沈淪	-11.652
若已施	-11.6521
旃提羅	-11.6521
目不暫捨	-11.6521
營事業者	-11.6521
紛	-11.6523
帛謙	-11.6523
燥	-11.6523
闡提	-11.6524
而演說法	-11.6524
級	-11.6524
斂	-11.6524
姊妹	-11.6524
聞是等經	-11.6525
寐	-11.6525
蘊處界	-11.6526
枷	-11.6526
不斷不究竟	-11.6526
諍競	-11.6526
註	-11.6526
纓	-11.6527
等分行	-11.6527
劬	-11.6527
色究竟天	-11.6528
以不斷故	-11.6528
八萬四千歲	-11.6529
呪護一切	-11.653
酸	-11.6531
阿闍世王太子	-11.6531
鈎	-11.6531
甚為難	-11.6532
頗羅墮	-11.6533
於千歲中	-11.6533
上品中生	-11.6533
群臣	-11.6533
煩惚	-11.6533
假使菩薩逮得斯定	-11.6535
出世間上上智	-11.6535
瞻視	-11.6537
紫金臺	-11.6537
諾	-11.6538
寶性論	-11.6538
癩	-11.6539
天台	-11.654
復告護國	-11.654
十疑論	-11.6542
從初至	-11.6542
咽喉	-11.6544
癰	-11.6546
迦旃延	-11.6547
毘曇	-11.6548
生阿閦佛剎者	-11.6548
幹	-11.6549
眾務過	-11.6551
生諸佛前	-11.6552
跛	-11.6555
末代	-11.6557
持經戒	-11.6567
十小劫	-11.6579
皤	-11.6583
復非如	-11.6635
得其便	-11.6635
上下無央數諸佛	-11.666
拘胝劫	-11.6734
遍淨天	-11.675
或生畜	-11.6752
號釋迦牟尼	-11.6836
今為汝說	-11.6876
殿堂	-11.6964
即當成佛號	-11.707
若生若滅	-11.7073
為無量清淨佛作禮	-11.7083
革屣	-11.7084
蔡	-11.7088
異業現前	-11.7089
眾生轉大悲心	-11.7089
當學般若波羅蜜	-11.709
彼後識滅時名	-11.709
謦欬聲	-11.709
柁那波羅蜜多	-11.7091
華適小萎	-11.7091
唯有如來得般涅槃	-11.7092
如是愚癡無聞凡夫	-11.7092
從三昧起	-11.7093
魔及魔	-11.7093
武	-11.7093
退坐一面	-11.7094
密迹力士	-11.7094
若無相者則無願求名無願	-11.7094
若生生空	-11.7095
八地巳上	-11.7095
無有少法從於此世	-11.7095
阿素洛	-11.7095
危厄	-11.7096
妖	-11.7096
大如車輪	-11.7096
座而坐	-11.7096
何以得知	-11.7096
復有菩薩名	-11.7096
如應說法	-11.7097
威神之力	-11.7097
彼業生時	-11.7097
若內若外	-11.7097
濯	-11.7098
那羅延法師	-11.7098
貢	-11.7098
共相娛樂	-11.7098
無去無來	-11.7098
現其人前	-11.7099
央	-11.71
丹	-11.71
植眾德本	-11.71
依正二報	-11.71
百六十里	-11.71
安隱豐樂	-11.7101
招提僧	-11.7101
三千大千界	-11.7102
效	-11.7102
釁	-11.7103
割截	-11.7103
啼哭	-11.7104
佗	-11.7104
於彼時中	-11.7104
童男童女	-11.7104
螢	-11.7104
枳	-11.7104
忌	-11.7105
右遶	-11.7106
狹劣	-11.7106
燃燈	-11.7107
擬	-11.7107
霑	-11.7107
有愛住地	-11.7107
綠	-11.7108
燭	-11.7108
大明章句	-11.7108
跪	-11.711
膜	-11.7111
鋒	-11.7111
疎	-11.7112
梯	-11.7112
饑	-11.7113
吏	-11.7114
占	-11.7117
喉	-11.7118
府	-11.7119
均	-11.712
完	-11.7122
臍	-11.7123
狼	-11.7123
陶	-11.7123
竺	-11.7124
淡	-11.7136
昵	-11.7153
󰥕	-11.7154
珊	-11.7171
廓	-11.7717
蹈	-11.7719
僕	-11.7723
戚	-11.7728
陂	-11.7728
津	-11.773
席	-11.773
覽	-11.7731
𦟛	-11.7732
疊	-11.7732
畔	-11.7732
閙	-11.7733
甫	-11.7734
遐	-11.7735
尿	-11.7736
闥	-11.7736
縮	-11.7736
余	-11.7737
馥	-11.7737
苞	-11.7737
暑	-11.7738
甜	-11.7739
踈	-11.7739
升	-11.774
楯	-11.7741
掩	-11.7744
捶	-11.7749
豁	-11.7752
臆	-11.7761
竅	-11.7765
攘	-11.7765
宰	-11.8378
搗	-11.8382
傅	-11.8386
魅	-11.8388
殷	-11.8389
潛	-11.839
𤦲	-11.839
沐	-11.8391
耕	-11.8391
瀑	-11.8392
窓	-11.8394
耗	-11.8396
躍	-11.8396
匠	-11.8396
浣	-11.8396
隅	-11.8398
卉	-11.8398
胃	-11.8399
柄	-11.8399
脾	-11.8401
跏	-11.8403
卓	-11.8405
滑	-11.8406
剛	-11.8406
紀	-11.8407
鴻	-11.8407
皎	-11.8407
夕	-11.8408
峻	-11.8408
蹇	-11.8408
芳	-11.8409
惹	-11.8411
谿	-11.8413
衍	-11.8417
晨	-11.8421
縵	-11.8423
壅	-11.8424
芻	-11.8427
㮈	-11.843
孽	-11.8438
湛	-11.9093
栱	-11.9096
絡	-11.9101
景	-11.9102
亘	-11.9103
嘗	-11.9105
棘	-11.9105
躁	-11.9106
幅	-11.9106
祭	-11.9108
淑	-11.9108
崩	-11.9109
滌	-11.9109
額	-11.911
鹹	-11.9111
矯	-11.9112
貶	-11.9112
兜	-11.9114
蔓	-11.9117
貞	-11.9117
燋	-11.9118
翫	-11.9118
紙	-11.9118
規	-11.9118
讁	-11.9119
𤘽	-11.9119
辜	-11.912
􂎈	-11.9121
濡	-11.9121
脆	-11.9121
傲	-11.9121
漫	-11.9122
隙	-11.9123
訥	-11.9123
蒲	-11.9124
混	-11.9124
癊	-11.9125
秤	-11.9125
脊	-11.9128
偷	-11.913
撮	-11.9131
瞬	-11.9131
炭	-11.9131
洽	-11.9138
諷	-11.9139
皷	-11.9141
肯	-11.9693
干	-11.9844
揣	-11.9858
惻	-11.9864
憋	-11.9866
鬚	-11.9869
鄣	-11.9873
戴	-11.9875
礫	-11.9876
詠	-11.9878
遑	-11.9878
訪	-11.9878
贍	-11.988
臘	-11.988
鎮	-11.9881
澹	-11.9881
笛	-11.9881
鸞	-11.9882
獅	-11.9883
鐸	-11.9883
寢	-11.9884
琴	-11.9884
躡	-11.9885
排	-11.9885
哲	-11.9886
疫	-11.9886
庫	-11.9887
晚	-11.9889
慇	-11.9889
茫	-11.989
殆	-11.9893
斗	-11.9894
膽	-11.9895
薗	-11.9896
層	-11.9896
蚊	-11.9901
格	-11.9905
喃	-11.9933
第	-12.0185
篤	-12.0652
羂	-12.0681
樞	-12.0692
潮	-12.07
蹉	-12.0702
秉	-12.0703
桃	-12.0703
複	-12.0706
製	-12.0708
債	-12.0708
乍	-12.0708
鳩	-12.0709
霔	-12.0709
騃	-12.0709
坌	-12.0711
摶	-12.0711
裁	-12.0712
傘	-12.0714
檐	-12.0714
頰	-12.0714
旬	-12.0714
俟	-12.0714
猥	-12.0714
疆	-12.0716
戮	-12.0716
予	-12.0717
恬	-12.0717
窈	-12.0717
炙	-12.0718
莎	-12.0719
掘	-12.072
蠶	-12.072
詔	-12.072
壓	-12.0721
暮	-12.0721
巡	-12.0721
餚	-12.0722
跳	-12.0722
兔	-12.0723
狐	-12.0723
咨	-12.0724
屓	-12.0724
閡	-12.0724
厥	-12.0725
吃	-12.0725
仞	-12.0726
藐	-12.0726
綴	-12.0726
妷	-12.0726
儒	-12.0726
惚	-12.0726
創	-12.0727
迺	-12.0727
疽	-12.0728
讒	-12.0728
鷄	-12.0728
尫	-12.0728
肺	-12.073
泛	-12.073
企	-12.0731
烈	-12.0732
呞	-12.0736
螫	-12.074
忙	-12.075
絲	-12.0753
掬	-12.0756
棗	-12.0764
弩	-12.0765
閫	-12.1604
慘	-12.1605
沸	-12.1606
侮	-12.1608
銳	-12.161
刈	-12.161
遞	-12.1613
蝕	-12.1613
枕	-12.1614
軒	-12.1615
恕	-12.1615
酌	-12.1617
戢	-12.1617
莂	-12.1618
砂	-12.1618
惓	-12.1619
釴	-12.1619
縫	-12.162
輅	-12.162
袒	-12.1622
讐	-12.1623
跌	-12.1623
轡	-12.1624
啞	-12.1625
涸	-12.1625
騎	-12.1625
館	-12.1625
遽	-12.1625
吝	-12.1626
枉	-12.1626
儼	-12.1627
詩	-12.1628
瞑	-12.1628
眴	-12.1629
晦	-12.1629
羨	-12.1629
偃	-12.163
康	-12.163
鉸	-12.163
溝	-12.163
䨱	-12.1631
眄	-12.1631
肝	-12.1632
僥	-12.1632
暖	-12.1633
闢	-12.1633
孩	-12.1633
舟	-12.1634
替	-12.1635
靖	-12.1635
=	-12.1635
唼	-12.1635
苟	-12.1635
克	-12.1635
灼	-12.1635
儔	-12.1635
詰	-12.1636
砌	-12.1636
瑣	-12.1639
秀	-12.164
聊	-12.164
㯹	-12.1642
罔	-12.1642
撥	-12.1642
賀	-12.1644
裓	-12.1644
鄉	-12.1647
叢	-12.1652
𡀔	-12.1662
酩	-12.1667
秫	-12.1667
掣	-12.1693
葢	-12.26
踏	-12.2601
栽	-12.2604
駃	-12.2607
婉	-12.2608
娶	-12.2612
瘖	-12.2612
蓐	-12.2612
摸	-12.2613
䗍	-12.2615
爆	-12.2615
燼	-12.2616
燿	-12.2616
搏	-12.2617
婚	-12.2617
忖	-12.2617
荊	-12.2619
馭	-12.2619
迮	-12.2619
鍾	-12.2619
悚	-12.262
魯	-12.2621
攻	-12.2621
陞	-12.2622
攢	-12.2622
殞	-12.2623
挑	-12.2623
輞	-12.2623
漱	-12.2624
矇	-12.2624
釰	-12.2625
禱	-12.2625
斧	-12.2625
粟	-12.2625
嚮	-12.2626
旁	-12.2627
拄	-12.2627
姊	-12.2627
湊	-12.2627
賓	-12.2628
夙	-12.2628
探	-12.2629
葦	-12.2629
璫	-12.2629
矟	-12.2629
擣	-12.263
扈	-12.2632
慣	-12.2632
拭	-12.2633
棒	-12.2633
絞	-12.2634
斛	-12.2634
激	-12.2635
揩	-12.2635
司	-12.2636
蟻	-12.2636
函	-12.2637
瓊	-12.2638
儲	-12.2638
諱	-12.2641
皺	-12.2642
鎔	-12.2642
敦	-12.2643
爰	-12.2645
庾	-12.2647
洟	-12.2648
握	-12.2649
吟	-12.265
藕	-12.2664
涎	-12.2671
莽	-12.272
展	-12.2723
娜	-12.2726
擁	-12.3702
瓠	-12.3715
斟	-12.3717
擐	-12.3718
胞	-12.372
惒	-12.3721
鷹	-12.3721
副	-12.3723
爐	-12.3724
諭	-12.3725
掠	-12.3726
稽	-12.3726
悍	-12.3727
釘	-12.3728
亭	-12.3728
邠	-12.3729
絃	-12.373
匪	-12.3731
娉	-12.3731
采	-12.3733
舐	-12.3733
栗	-12.3733
稗	-12.3734
鴿	-12.3734
費	-12.3734
嶽	-12.3734
候	-12.3735
淪	-12.3735
係	-12.3737
扣	-12.3737
霜	-12.3737
呰	-12.3737
膏	-12.3737
俯	-12.3738
把	-12.3738
緒	-12.374
袪	-12.374
編	-12.374
偶	-12.3741
膠	-12.3743
癬	-12.3743
懅	-12.3743
鉾	-12.3743
翠	-12.3743
鑽	-12.3744
瓜	-12.3744
嗣	-12.3744
京	-12.3744
朴	-12.3744
憚	-12.3745
檢	-12.3747
恪	-12.3747
鹽	-12.3747
隷	-12.3748
拒	-12.3748
旅	-12.3749
併	-12.3749
酢	-12.3749
庭	-12.375
諧	-12.375
膊	-12.375
㵎	-12.375
拾	-12.3752
郎	-12.3754
祗	-12.3755
俊	-12.3755
鑄	-12.3756
腎	-12.3756
骸	-12.3756
邁	-12.3757
剖	-12.3759
裳	-12.3767
剔	-12.3776
咤	-12.3779
吸	-12.3786
醯	-12.3792
勃	-12.3823
謇	-12.4962
机	-12.4965
綩	-12.4966
壤	-12.4968
諠	-12.4968
液	-12.497
幕	-12.4971
柁	-12.4974
僉	-12.4975
曄	-12.4976
燧	-12.4976
耄	-12.4976
蒸	-12.4976
禿	-12.4977
戈	-12.4978
雀	-12.4979
腨	-12.4979
茶	-12.498
蹙	-12.498
䟦	-12.498
撫	-12.4982
販	-12.4982
眷	-12.4983
爍	-12.4983
傑	-12.4984
騾	-12.4984
坻	-12.4984
蔫	-12.4985
曆	-12.4985
蜎	-12.4986
午	-12.4986
嬰	-12.4987
跨	-12.4987
萌	-12.4987
瘂	-12.4987
尖	-12.4988
番	-12.4989
隍	-12.4989
嵐	-12.4989
椽	-12.4989
賞	-12.499
琦	-12.499
捲	-12.499
區	-12.499
賑	-12.4991
奄	-12.4993
驕	-12.4994
農	-12.4994
駛	-12.4995
蓊	-12.4995
襟	-12.4996
羼	-12.4996
監	-12.4996
稠	-12.4996
換	-12.4997
猿	-12.4997
潰	-12.4997
僻	-12.4998
庸	-12.4998
拍	-12.4999
隋	-12.5
操	-12.5
糠	-12.5
翔	-12.5002
爽	-12.5004
謫	-12.5005
曚	-12.5005
𧹞	-12.5005
佞	-12.5006
腫	-12.5007
癈	-12.5007
筒	-12.5009
詎	-12.501
擯	-12.5013
械	-12.5018
奚	-12.502
賒	-12.5023
葛	-12.5023
廕	-12.5036
蕳	-12.5038
社	-12.5039
賖	-12.5045
喏	-12.505
梢	-12.5057
埵	-12.6354
炷	-12.6376
輦	-12.6382
鑪	-12.6391
虞	-12.6392
篩	-12.6392
洹	-12.6395
籤	-12.6402
阜	-12.6402
聳	-12.6405
糧	-12.6406
姪	-12.6406
縈	-12.6406
詶	-12.6406
疣	-12.6406
繕	-12.6407
這	-12.6407
脹	-12.6408
綿	-12.6408
盆	-12.6408
沃	-12.6409
蘖	-12.6409
腭	-12.6409
昨	-12.641
衒	-12.641
轂	-12.641
繭	-12.641
枚	-12.6412
霧	-12.6412
賄	-12.6412
鍱	-12.6413
煌	-12.6413
認	-12.6414
遜	-12.6414
臻	-12.6414
膺	-12.6415
殄	-12.6415
厲	-12.6416
叚	-12.6416
藤	-12.6416
祝	-12.6416
炤	-12.6417
垓	-12.6417
糺	-12.6417
悖	-12.6417
鼠	-12.6418
坏	-12.6418
濤	-12.6418
刻	-12.6418
菜	-12.6418
翊	-12.6419
渾	-12.6419
佷	-12.642
妹	-12.6421
咀	-12.6421
蹲	-12.6421
繪	-12.6422
赦	-12.6422
垣	-12.6422
閱	-12.6423
槩	-12.6423
詹	-12.6423
効	-12.6424
僮	-12.6424
鳳	-12.6424
着	-12.6424
屢	-12.6425
旻	-12.6426
疵	-12.6427
㲲	-12.6427
窂	-12.6428
刊	-12.6428
昭	-12.6429
鐘	-12.6429
窺	-12.6429
板	-12.6432
簫	-12.6433
嚼	-12.6434
竄	-12.6435
零	-12.6436
苾	-12.6436
抄	-12.6436
喝	-12.6439
鍛	-12.644
疱	-12.6442
捴	-12.6442
襲	-12.6445
穆	-12.6448
杻	-12.6452
艶	-12.6452
挽	-12.6454
彊	-12.6462
帚	-12.6465
蠲	-12.8048
茵	-12.8054
稚	-12.8054
粖	-12.8059
鑿	-12.8063
糜	-12.8063
晴	-12.8063
􂍾	-12.8063
添	-12.8064
褒	-12.8064
仆	-12.8066
瀾	-12.8066
蹄	-12.8067
鏤	-12.8067
禦	-12.8067
鍼	-12.8068
鍊	-12.8068
堤	-12.8069
悼	-12.807
隼	-12.807
馨	-12.8071
搆	-12.8071
紡	-12.8072
駿	-12.8073
錦	-12.8073
哮	-12.8075
躅	-12.8075
腳	-12.8075
歟	-12.8076
拙	-12.8076
陟	-12.8076
顰	-12.8077
劒	-12.8078
挺	-12.8079
捫	-12.808
閃	-12.8081
瘠	-12.8082
蠢	-12.8082
謨	-12.8083
􂍧	-12.8083
闚	-12.8083
軸	-12.8083
斑	-12.8083
廅	-12.8084
櫨	-12.8084
〕	-12.8085
鈿	-12.8085
踝	-12.8085
濃	-12.8085
隘	-12.8085
〔	-12.8085
巢	-12.8086
罷	-12.8086
訝	-12.8086
耐	-12.8087
嘯	-12.8088
鵠	-12.8088
茅	-12.8089
粒	-12.809
佳	-12.8091
諒	-12.8091
鼈	-12.8091
勘	-12.8091
栖	-12.8091
愕	-12.8091
片	-12.8093
挾	-12.8094
燎	-12.8094
享	-12.8094
拉	-12.8094
徧	-12.8095
􂏔	-12.8095
咲	-12.8095
寥	-12.8096
隻	-12.8098
逗	-12.8098
憲	-12.8098
呾	-12.8099
邃	-12.8099
矛	-12.8099
坎	-12.8099
掛	-12.8099
苗	-12.8099
倖	-12.8099
恤	-12.81
渺	-12.8101
蹤	-12.8101
哽	-12.8101
爇	-12.8102
澆	-12.8102
疥	-12.8103
挂	-12.8103
檦	-12.8103
辟	-12.8103
嫁	-12.8104
腕	-12.8104
㝹	-12.8106
雁	-12.8106
醋	-12.8107
喧	-12.8107
箱	-12.8108
綸	-12.8109
収	-12.811
奘	-12.8111
矩	-12.8113
寔	-12.8113
頞	-12.8116
概	-12.8116
颺	-12.8116
筵	-12.8118
凋	-12.812
鸎	-12.8122
嚧	-12.8136
嗢	-12.8158
丸	-12.9721
奸	-13.0033
弦	-13.0046
犍	-13.005
踞	-13.0054
靺	-13.0057
銜	-13.0057
煒	-13.0058
粉	-13.006
睒	-13.0061
尉	-13.0063
軛	-13.0063
駭	-13.0066
咏	-13.0069
抂	-13.007
懶	-13.007
釜	-13.007
艷	-13.007
暝	-13.0071
湧	-13.0071
誣	-13.0071
熊	-13.0072
鴨	-13.0072
押	-13.0072
傴	-13.0073
汙	-13.0074
烟	-13.0075
哺	-13.0075
羝	-13.0075
屣	-13.0075
柴	-13.0076
怗	-13.0076
氛	-13.0076
疼	-13.0077
麟	-13.0077
騏	-13.0077
隥	-13.0079
眸	-13.0079
摘	-13.0079
罽	-13.0079
炫	-13.0079
喫	-13.008
魂	-13.008
催	-13.008
酷	-13.008
鍮	-13.008
朔	-13.008
迢	-13.0081
配	-13.0081
跢	-13.0082
院	-13.0082
睞	-13.0082
埃	-13.0082
豺	-13.0082
吳	-13.0082
瞽	-13.0082
脅	-13.0083
構	-13.0083
婁	-13.0083
薦	-13.0084
閤	-13.0084
蜣	-13.0084
㷀	-13.0085
憫	-13.0086
亙	-13.0086
騁	-13.0087
泄	-13.0087
蒼	-13.0087
戊	-13.0088
槖	-13.0088
瀆	-13.0089
𧂐	-13.0089
慌	-13.0089
拱	-13.009
肚	-13.009
恰	-13.009
糅	-13.0091
帙	-13.0091
揮	-13.0092
懇	-13.0092
婿	-13.0093
縶	-13.0093
衝	-13.0093
股	-13.0094
串	-13.0094
趨	-13.0094
饕	-13.0094
模	-13.0095
柳	-13.0095
雉	-13.0096
猫	-13.0096
姤	-13.0096
曷	-13.0099
肪	-13.0099
凍	-13.0099
囂	-13.0099
梗	-13.01
惺	-13.01
悵	-13.01
棟	-13.01
轍	-13.0102
謔	-13.0103
梅	-13.0104
聿	-13.0104
錫	-13.0105
醒	-13.0105
庇	-13.0105
揆	-13.0106
削	-13.0106
訑	-13.0106
跟	-13.0107
乙	-13.0108
嗽	-13.0109
舅	-13.0109
嬉	-13.011
雌	-13.011
悒	-13.0112
弼	-13.0112
罕	-13.0113
阻	-13.0113
齧	-13.0113
頷	-13.0114
廬	-13.0116
緇	-13.0116
焜	-13.012
柰	-13.0121
凹	-13.0123
讌	-13.0125
霓	-13.0126
憣	-13.013
薑	-13.014
儜	-13.0148
仡	-13.0161
𠾆	-13.0166
抗	-13.2524
瀁	-13.2533
控	-13.2547
鉀	-13.2549
佩	-13.2551
渥	-13.2555
溷	-13.2556
璣	-13.2558
唧	-13.2559
埿	-13.2563
塘	-13.2563
𢤱	-13.2563
蹴	-13.2565
詢	-13.2565
邇	-13.2566
箸	-13.2566
輿	-13.2566
癭	-13.2566
鴝	-13.2566
癤	-13.2566
燕	-13.2567
課	-13.2567
剌	-13.2569
踴	-13.2569
蓬	-13.2569
謵	-13.2569
蝎	-13.257
邈	-13.257
釐	-13.257
允	-13.2572
譊	-13.2572
鉗	-13.2572
泝	-13.2573
寵	-13.2573
泊	-13.2574
瘳	-13.2574
鞍	-13.2574
幰	-13.2574
臾	-13.2574
瑜	-13.2575
欻	-13.2576
摑	-13.2576
竿	-13.2576
岐	-13.2577
徊	-13.2577
羣	-13.2578
莚	-13.2578
慄	-13.2579
丑	-13.2579
槌	-13.2579
汲	-13.2579
膾	-13.258
趾	-13.258
慴	-13.2581
芒	-13.2581
廂	-13.2581
綰	-13.2583
搥	-13.2583
娠	-13.2583
訂	-13.2583
洎	-13.2583
榻	-13.2583
恢	-13.2584
勗	-13.2584
秖	-13.2584
覈	-13.2584
梓	-13.2585
兇	-13.2585
囓	-13.2585
誚	-13.2585
贈	-13.2585
犢	-13.2587
嘴	-13.2587
袟	-13.2587
餐	-13.2587
衲	-13.2587
䩕	-13.2587
懾	-13.2588
駄	-13.2588
潭	-13.2588
髆	-13.2588
惰	-13.2588
􂑞	-13.2588
糸	-13.2588
𥎞	-13.2588
鉉	-13.2588
僂	-13.2589
羆	-13.259
呈	-13.259
酉	-13.259
毗	-13.259
呻	-13.2591
剝	-13.2591
璖	-13.2591
職	-13.2591
瘢	-13.2591
褐	-13.2592
臠	-13.2592
遼	-13.2592
匡	-13.2592
廩	-13.2592
窒	-13.2592
匐	-13.2593
頴	-13.2594
瞎	-13.2594
氈	-13.2594
郊	-13.2594
壇	-13.2595
􂌦	-13.2596
藻	-13.2597
髦	-13.2597
喬	-13.2597
管	-13.2597
賦	-13.2597
趁	-13.2597
岳	-13.2597
讖	-13.2597
楊	-13.2597
塚	-13.2597
冐	-13.2598
倪	-13.2599
啄	-13.2599
裘	-13.2599
箏	-13.2599
簸	-13.2599
織	-13.2599
托	-13.2599
虹	-13.2599
𠯗	-13.2601
倨	-13.2601
携	-13.2601
詑	-13.2601
澈	-13.2601
甄	-13.2601
舛	-13.2602
鑑	-13.2602
噎	-13.2602
欬	-13.2603
蟇	-13.2603
倏	-13.2604
旭	-13.2604
玅	-13.2605
誥	-13.2605
蛭	-13.2605
拋	-13.2606
汪	-13.2608
憩	-13.2608
呂	-13.2608
洒	-13.2608
篇	-13.2608
蠟	-13.2609
崛	-13.261
刪	-13.261
俞	-13.261
撓	-13.261
劉	-13.2613
淹	-13.2613
㯪	-13.2613
漚	-13.2615
評	-13.2616
咬	-13.2617
驛	-13.2619
嬭	-13.262
熬	-13.2621
蒭	-13.2621
忒	-13.2623
〈	-13.2624
〉	-13.2624
嘩	-13.263
咃	-13.263
臏	-13.2634
叱	-13.2638
枲	-13.2641
銘	-13.2656
鎩	-13.2696
曬	-13.2715
牧	-13.5378
錠	-13.5856
閇	-13.5873
弈	-13.5874
舶	-13.5878
彎	-13.588
椎	-13.588
鵄	-13.5882
茹	-13.5883
耘	-13.5884
綶	-13.5886
颯	-13.5887
綽	-13.5888
俄	-13.5888
貲	-13.5888
餔	-13.589
叩	-13.5892
琰	-13.5892
甥	-13.5892
愴	-13.5894
寞	-13.5894
潘	-13.5895
懟	-13.5896
輙	-13.5896
几	-13.5896
侯	-13.5896
埋	-13.5896
樵	-13.5896
廛	-13.5897
姨	-13.5898
寅	-13.5898
笞	-13.5898
綫	-13.5898
槽	-13.59
㶿	-13.59
蓏	-13.59
儉	-13.59
羖	-13.5901
昱	-13.5901
穩	-13.5901
𪏭	-13.5902
㹅	-13.5902
黿	-13.5904
沿	-13.5904
邀	-13.5905
暐	-13.5905
豕	-13.5905
嫂	-13.5905
協	-13.5905
松	-13.5906
􂙥	-13.5906
笥	-13.5906
裨	-13.5906
痊	-13.5906
蝶	-13.5906
鎚	-13.5906
匃	-13.5907
惘	-13.5907
昞	-13.5907
舫	-13.5907
岑	-13.5907
癃	-13.5907
蘿	-13.5907
諳	-13.5907
鑛	-13.5907
𢷄	-13.5907
勌	-13.5908
裕	-13.5908
媒	-13.5909
鈞	-13.5909
槐	-13.5909
儩	-13.5909
誅	-13.5909
僚	-13.591
坊	-13.591
捔	-13.5911
韜	-13.5911
舘	-13.5911
翹	-13.5911
掖	-13.5912
毯	-13.5913
糖	-13.5913
猷	-13.5913
萃	-13.5913
揖	-13.5913
繡	-13.5914
僊	-13.5915
謦	-13.5915
挫	-13.5915
侈	-13.5915
戌	-13.5915
揲	-13.5915
昌	-13.5915
航	-13.5916
擘	-13.5917
嗤	-13.5917
摽	-13.5917
唵	-13.5917
閏	-13.5918
丙	-13.5918
椑	-13.5918
霽	-13.5918
喟	-13.5919
霍	-13.5919
廿	-13.5919
忝	-13.592
剜	-13.5921
黧	-13.5921
罄	-13.5921
擅	-13.5921
隴	-13.5921
􂍦	-13.5921
仲	-13.5921
臧	-13.5922
軫	-13.5923
曦	-13.5923
愶	-13.5923
伯	-13.5923
兢	-13.5923
𤻀	-13.5923
艾	-13.5925
嘷	-13.5925
帒	-13.5925
杓	-13.5925
蟬	-13.5925
仕	-13.5925
征	-13.5925
厨	-13.5927
瑤	-13.5927
藂	-13.5927
轅	-13.5927
郭	-13.5928
晷	-13.5929
冶	-13.5929
眺	-13.5929
峰	-13.5929
溟	-13.5929
抧	-13.5929
葻	-13.5929
駈	-13.5929
䭾	-13.5929
廊	-13.5929
膿	-13.593
魁	-13.5931
戟	-13.5931
柯	-13.5931
拷	-13.5932
虺	-13.5932
煢	-13.5933
瘻	-13.5933
壹	-13.5933
瘀	-13.5933
謌	-13.5934
倣	-13.5934
敻	-13.5934
勱	-13.5934
蹶	-13.5934
嶺	-13.5934
懿	-13.5934
苔	-13.5936
匈	-13.5936
鋸	-13.5936
瞢	-13.5936
蓄	-13.5936
衡	-13.5937
迂	-13.5938
亥	-13.5938
竦	-13.5938
榆	-13.5938
珮	-13.5938
胤	-13.5938
闈	-13.5938
輻	-13.5939
筌	-13.594
萄	-13.594
昂	-13.594
澓	-13.5942
侫	-13.5942
慍	-13.5942
劓	-13.5942
豬	-13.5942
廝	-13.5942
僅	-13.5942
銖	-13.5942
丕	-13.5943
蔗	-13.5944
嚙	-13.5944
笙	-13.5944
苽	-13.5944
磬	-13.5944
壑	-13.5946
皰	-13.5947
嫡	-13.5948
珪	-13.5948
頡	-13.5948
紐	-13.595
謁	-13.595
忤	-13.595
癖	-13.595
皯	-13.595
慟	-13.5952
季	-13.5953
咩	-13.5954
柘	-13.5954
䵴	-13.5956
孟	-13.5958
輟	-13.5958
圃	-13.5958
殂	-13.5958
秘	-13.596
凸	-13.5961
碧	-13.5961
派	-13.5961
欠	-13.5961
噬	-13.5963
森	-13.5963
抽	-13.5967
萠	-13.5967
鞋	-13.5969
迪	-13.5969
脛	-13.5971
洄	-13.5971
坡	-13.5973
瑿	-13.5975
椀	-13.5977
嗚	-13.5984
眵	-13.5986
肋	-13.599
灆	-13.5994
鍋	-13.601
妮	-13.6039
憧	-14.0838
塢	-14.0841
悢	-14.0859
痒	-14.0864
儐	-14.0866
弃	-14.0872
悽	-14.0879
宙	-14.0882
措	-14.0885
吁	-14.0888
䫛	-14.0888
嘲	-14.0888
圊	-14.0888
妾	-14.0891
䘖	-14.0891
刮	-14.0894
吮	-14.0894
怳	-14.0894
婇	-14.0897
倭	-14.0899
㜸	-14.0901
堦	-14.0901
唄	-14.0904
稼	-14.0904
吻	-14.0904
愜	-14.0904
挓	-14.0904
孚	-14.0905
墀	-14.0907
插	-14.0907
嚚	-14.0907
旌	-14.0907
卜	-14.091
卍	-14.091
旗	-14.0911
券	-14.0912
剡	-14.0912
咄	-14.0912
怜	-14.0913
偉	-14.0913
卯	-14.0913
幘	-14.0913
崙	-14.0915
嵠	-14.0916
拓	-14.0916
靴	-14.0916
班	-14.0919
墻	-14.092
宦	-14.092
丞	-14.092
拈	-14.0921
慨	-14.0923
㣲	-14.0923
㿈	-14.0923
伀	-14.0923
寮	-14.0923
彤	-14.0923
臚	-14.0923
咒	-14.0923
旒	-14.0925
撻	-14.0926
塼	-14.0926
妍	-14.0926
宸	-14.0926
芥	-14.0927
剬	-14.0927
寓	-14.0929
夾	-14.0929
恂	-14.0929
粲	-14.0929
壙	-14.0932
ィ	-14.0932
嘿	-14.0932
圌	-14.0932
慊	-14.0935
喑	-14.0935
唇	-14.0938
堵	-14.0938
磲	-14.0938
咳	-14.0942
愱	-14.0942
愻	-14.0942
敝	-14.0942
徼	-14.0945
嬌	-14.0945
惆	-14.0945
芝	-14.0945
虻	-14.0948
帽	-14.0948
悞	-14.0948
斤	-14.0948
帷	-14.0954
刖	-14.0957
俳	-14.0957
尹	-14.096
喰	-14.0961
崔	-14.0967
剩	-14.0967
幣	-14.097
徽	-14.097
劑	-14.0973
嘔	-14.0976
墳	-14.0976
昃	-14.0986
卌	-14.0989
慠	-14.0989
䏶	-14.0995
呢	-14.1005
挮	-14.1039
冑	-14.4954
攣	-15.0752
擒	-15.0753
撲	-15.0754
撐	-15.0755
搪	-15.0756
搒	-15.0757
揬	-15.0758
扉	-15.0759
恡	-15.076
彬	-15.0761
幟	-15.0762
巾	-15.0763
巇	-15.0764
岵	-15.0765
岌	-15.0766
宏	-15.0767
孺	-15.0768
孥	-15.0769
媾	-15.077
媛	-15.0771
埴	-15.0772
埏	-15.0773
圂	-15.0774
囈	-15.0775
囀	-15.0776
嚬	-15.0777
噯	-15.0778
嘹	-15.0779
喨	-15.078
呿	-15.0781
勛	-15.0782
凞	-15.0783
儴	-15.0784
倐	-15.0785
俾	-15.0786
侚	-15.0787
估	-15.0788
介	-15.0789
亶	-15.079
亟	-15.0791
䳇	-15.0792
㽄	-15.0793
㝵	-15.0794
㘁	-15.0795
々	-15.0796
𤥭	-15.0797
𠼝	-15.0798
𠣏	-15.0799
釣	-15.08
謟	-15.0801
謚	-15.0802
蝦	-15.0803
蘂	-15.0804
蒺	-15.0805
萊	-15.0806
胮	-15.0807
肧	-15.0808
窯	-15.0809
碾	-15.081
確	-15.0811
睛	-15.0812
璟	-15.0813
犛	-15.0814
熅	-15.0815
櫓	-15.0816
樚	-15.0817
楹	-15.0818
棔	-15.0819
梏	-15.082
桎	-15.0821
晏	-15.0822
捍	-15.0823
怔	-15.0824
嶷	-15.0825
屐	-15.0826
寇	-15.0827
姚	-15.0828
匍	-15.0829
劈	-15.083
凰	-15.0831
佇	-15.0832
硨	-15.0833
䔧	-15.0833
㸌	-15.0834
鸜	-15.0835
髭	-15.0836
驥	-15.0837
驎	-15.0838
陌	-15.0839
闐	-15.084
巍	-15.0841
蹔	-15.0841
詪	-15.0842
蛣	-15.0843
蘆	-15.0844
茯	-15.0845
繽	-15.0846
窕	-15.0847
矬	-15.0848
睟	-15.0849
盎	-15.085
畺	-15.0851
檻	-15.0852
曝	-15.0853
昆	-15.0854
姻	-15.0855
嘶	-15.0856
匂	-15.0857
𦙽	-15.0858
鋪	-15.0859
賺	-15.086
蚋	-15.0861
蕅	-15.0862
菉	-15.0863
肖	-15.0864
猨	-15.0865
橙	-15.0866
晶	-15.0867
悷	-15.0868
彗	-15.0869
孾	-15.087
麞	-15.0871
鵒	-15.0872
髑	-15.0873
髏	-15.0874
駱	-15.0875
餮	-15.0876
迸	-15.0877
貸	-15.0878
胚	-15.0879
粳	-15.088
詈	-15.0881
燸	-15.0881
构	-15.0882
懞	-15.0883
巘	-15.0884
媮	-15.0885
壬	-15.0886
堆	-15.0887
獷	-15.0888
圄	-15.0888
嬾	-15.0889
囹	-15.0889
鬢	-15.089
躑	-15.0891
蛾	-15.0892
笈	-15.0893
璧	-15.0894
擻	-15.0895
抖	-15.0896
慞	-15.0897
墟	-15.0898
刷	-15.0899
菽	-15.09
癲	-15.0901
琶	-15.0902
琵	-15.0903
嬪	-15.0904
炳	-15.0904
殟	-15.0905
喘	-15.0906
+	-15.0907
髠	-15.0908
逋	-15.0909
訾	-15.091
繖	-15.0911
腋	-15.0911
瓈	-15.0912
台	-15.0913
叔	-15.0913
旛	-15.0913
憺	-15.0914
鷺	-15.0915
晡	-15.0916
扼	-15.0917
-	-15.0918
鄭	-15.0919
技	-15.092
恍	-15.0921
妊	-15.0922
丐	-15.0923
𡣽	-15.0924
鳧	-15.0925
硬	-15.0926
懊	-15.0927
藪	-15.0928
惔	-15.0929
薝	-15.0929
犀	-15.093
戇	-15.0931
庠	-15.0932
醐	-15.0933
醍	-15.0934
絺	-15.0935
貰	-15.0936
肌	-15.0937
倡	-15.0938
憔	-15.0939
窣	-15.094
碼	-15.0941
悠	-15.0942
奕	-15.0943
洋	-15.0944
闓	-15.0945
熙	-15.0946
箜	-15.0947
篌	-15.0948
琥	-15.0949
鴛	-15.095
薜	-15.0951
鵡	-15.0952
鸚	-15.0953
湖	-15.0953
鶖	-15.0954
淤	-15.0955
蕉	-15.0956
芭	-15.0957
饉	-15.0958
芸	-15.0959
艱	-15.096
獼	-15.0961
郁	-15.0962
料	-15.0963
頒	-15.0964
訊	-15.0965
沓	-15.0966
諛	-15.0967
楞	-15.0968
桓	-15.0969
珀	-15.097
[	-15.0971
罣	-15.0972
瑙	-15.0973
溥	-15.0974
蠕	-15.0975
裟	-15.0976
袈	-15.0977
瑚	-15.0978
瑠	-15.0979
忉	-15.098
睺	-15.0981
o	-15.0982
N	-15.0983
珞	-15.0984
誹	-15.0985
琉	-15.0986
韋	-15.0987
閦	-15.0988
璃	-15.0989
胝	-15.099
—	-15.0991
沼	-15.0992
耨	-15.0992
