<unk>	0
<s>	0
</s>	0
之	-4.04512
於	-5.01285
以	-5.11834
)	-5.16494
(	-5.16507
不	-5.24693
爲	-5.30063
有	-5.33324
上	-5.39293
天	-5.39434
而	-5.3947
一	-5.41654
人	-5.46482
神	-5.48037
生	-5.53461
者	-5.56186
道	-5.60672
中	-5.60982
/	-5.65484
也	-5.66087
三	-5.6693
無	-5.68068
其	-5.69517
靈	-5.72539
符	-5.79879
臣	-5.83642
大	-5.83845
心	-5.87896
日	-5.89936
玄	-5.92297
法	-5.9326
下	-5.94293
眞	-5.97836
行	-6.0029
九	-6.00458
五	-6.03733
此	-6.06529
身	-6.07419
自	-6.0785
明	-6.0885
所	-6.12365
炁	-6.14389
在	-6.15259
得	-6.15556
則	-6.19506
如	-6.19902
經	-6.20875
至	-6.21241
玉	-6.21539
入	-6.25508
或	-6.27934
仙	-6.29125
時	-6.31179
氣	-6.3126
化	-6.3131
曰	-6.33003
二	-6.33921
四	-6.34198
文	-6.34372
山	-6.35029
諸	-6.36212
名	-6.36292
君	-6.37125
光	-6.37425
金	-6.39793
水	-6.4004
是	-6.4165
地	-6.42905
宫	-6.42909
元	-6.43261
子	-6.44111
聖	-6.45403
今	-6.46036
度	-6.46616
形	-6.46978
與	-6.46994
精	-6.47043
雲	-6.4764
受	-6.48232
通	-6.48382
當	-6.49305
萬	-6.4959
見	-6.50134
言	-6.51471
師	-6.51785
常	-6.51996
用	-6.52381
出	-6.52423
某	-6.52614
同	-6.52749
令	-6.53743
相	-6.5391
前	-6.54693
次	-6.55833
命	-6.55944
來	-6.5676
書	-6.56872
章	-6.57778
若	-6.58883
開	-6.59102
故	-6.59132
▁	-6.59159
成	-6.5941
七	-6.59792
合	-6.60688
真	-6.61348
陽	-6.619
天尊	-6.62421
丹	-6.62808
六	-6.63116
華	-6.63316
帝	-6.64032
未	-6.64988
流	-6.65329
及	-6.65337
非	-6.6596
願	-6.66319
皆	-6.66732
司	-6.67132
主	-6.68262
念	-6.69018
方	-6.69388
門	-6.6948
八	-6.70613
乃	-6.70886
長	-6.71113
清	-6.71175
即	-6.71342
右	-6.71449
分	-6.72322
隂	-6.72364
龍	-6.7267
景	-6.73036
運	-6.73249
和	-6.74299
飛	-6.74529
善	-6.74956
内	-6.75002
降	-6.75072
年	-6.75118
妙	-6.75662
應	-6.7616
火	-6.76833
福	-6.76983
本	-6.77359
字	-6.77931
星	-6.78308
後	-6.78695
事	-6.79142
我	-6.7947
可	-6.79914
寳	-6.80087
罪	-6.8016
眞人	-6.80803
正	-6.81553
風	-6.82359
王	-6.82852
十	-6.83524
又	-6.84087
巳	-6.84144
青	-6.85221
宣	-6.85738
等	-6.85941
官	-6.86508
洞	-6.87198
觀	-6.87213
從	-6.87372
死	-6.88215
月	-6.8858
亦	-6.88648
能	-6.88998
白	-6.89001
使	-6.89223
衆	-6.89251
壇	-6.89456
鬼	-6.89687
存	-6.89796
復	-6.9075
請	-6.91643
作	-6.91665
德	-6.9253
安	-6.92625
過	-6.92692
先	-6.93733
香	-6.94388
重	-6.94546
修	-6.95624
黄	-6.96271
矣	-6.96657
立	-6.9699
太上	-6.97381
知	-6.97952
傳	-6.99005
奉	-6.99233
太	-6.99394
一切	-6.99569
髙	-6.9961
世	-6.99907
十方	-7.00163
千	-7.00804
齋	-7.00951
百	-7.01148
欲	-7.01562
各	-7.0265
然	-7.03248
聞	-7.03388
魂	-7.04114
家	-7.04523
何	-7.04693
散	-7.05123
空	-7.0688
解	-7.07153
府	-7.08186
召	-7.08207
除	-7.1
)(	-7.105
惡	-7.11379
定	-7.11875
云	-7.12086
靈寳	-7.12369
功	-7.12551
儀	-7.12825
隨	-7.1286
食	-7.13803
位	-7.13867
外	-7.14002
去	-7.14063
朝	-7.14159
依	-7.14445
禮	-7.14616
自然	-7.14631
關	-7.15169
因	-7.15895
左	-7.17101
永	-7.1759
九天	-7.17829
奏	-7.17852
苦	-7.17892
取	-7.18012
處	-7.18036
口	-7.18272
歸	-7.1849
將	-7.18701
物	-7.19222
紫	-7.19711
幽	-7.19827
多	-7.20855
色	-7.21304
尊	-7.21459
虚	-7.21768
結	-7.22438
治	-7.23133
北	-7.23751
數	-7.23876
仰	-7.24037
无	-7.24408
居	-7.24505
呪	-7.25417
告	-7.26026
極	-7.26331
眞君	-7.27173
都	-7.27568
離	-7.28097
並	-7.29745
御	-7.30146
畢	-7.30162
難	-7.30581
攝	-7.30629
邪	-7.30637
滅	-7.31033
恩	-7.31057
普	-7.31134
皇	-7.31172
不得	-7.31221
發	-7.31302
㑹	-7.31329
乗	-7.31777
慈	-7.31855
謹	-7.31911
石	-7.32101
周	-7.3222
衣	-7.32568
赤	-7.33193
服	-7.33255
始	-7.33309
啓	-7.34109
照	-7.3448
南	-7.34673
列	-7.34733
起	-7.34884
凡	-7.35991
根	-7.36357
具	-7.36472
災	-7.37921
伏	-7.38126
意	-7.38376
還	-7.38499
簡	-7.38775
登	-7.39276
業	-7.39528
變	-7.40079
樂	-7.40189
上清	-7.40382
轉	-7.40888
垂	-7.41312
劫	-7.41328
戒	-7.41463
土	-7.41559
聲	-7.41972
宗	-7.4242
玉女	-7.42478
盡	-7.42674
東	-7.4268
廣	-7.42685
求	-7.42697
品	-7.4272
體	-7.43272
向	-7.43341
執	-7.43576
教	-7.44289
兩	-7.44326
目	-7.44794
天地	-7.45121
節	-7.45267
信	-7.4592
諸天	-7.46191
吾	-7.46499
塵	-7.46532
濟	-7.46748
羅	-7.47687
守	-7.48179
致	-7.48591
思	-7.48978
備	-7.49243
咸	-7.49419
小	-7.50189
臨	-7.50245
公	-7.50277
西	-7.50594
部	-7.50633
遊	-7.50744
耀	-7.52455
必	-7.52565
深	-7.52734
對	-7.52783
宿	-7.5308
已	-7.5317
女	-7.53253
三界	-7.53336
表	-7.5343
斗	-7.53524
息	-7.53597
力	-7.53768
凝	-7.53874
悉	-7.54164
遂	-7.54317
狀	-7.54588
十二	-7.54719
威	-7.54738
隱	-7.54942
微	-7.5538
科	-7.55498
號	-7.55547
惟	-7.55605
訣	-7.55888
素	-7.55965
保	-7.56237
理	-7.56257
誦	-7.5648
夜	-7.57149
持	-7.57313
直	-7.57466
慶	-7.57594
木	-7.57711
承	-7.5787
殺	-7.58222
燈	-7.58398
消	-7.58631
升	-7.58644
録	-7.58688
病	-7.58693
拜	-7.58838
圖	-7.58862
國	-7.5902
道士	-7.59307
室	-7.59315
醮	-7.59375
玉清	-7.5961
俱	-7.59672
莫	-7.60029
音	-7.6005
靜	-7.60143
積	-7.60183
朱	-7.60635
期	-7.6069
昭	-7.60752
舉	-7.60897
謝	-7.60968
回	-7.6104
海	-7.61316
坐	-7.61526
申	-7.61657
牒	-7.61818
敷	-7.62245
交	-7.62342
謂	-7.62464
性	-7.63341
報	-7.63529
終	-7.63675
辰	-7.6374
藏	-7.63778
造	-7.63905
實	-7.64001
老	-7.64099
旣	-7.64131
建	-7.64189
齊	-7.64561
引	-7.6478
澤	-7.6488
不可	-7.65303
領	-7.65385
須	-7.65445
考	-7.65719
耳	-7.65816
說	-7.66046
弟子	-7.66976
壽	-7.67067
平	-7.6726
施	-7.67271
上帝	-7.6805
足	-7.6859
元始	-7.68794
便	-7.6881
之中	-7.68957
異	-7.69146
恭	-7.69155
延	-7.6921
制	-7.69269
頭	-7.69309
界	-7.69335
首	-7.69427
蓋	-7.69469
獄	-7.69846
魔	-7.69957
注	-7.70138
神仙	-7.70271
縁	-7.70493
庭	-7.70512
動	-7.70619
錬	-7.70622
乎	-7.7066
勑	-7.70894
感	-7.7138
止	-7.71603
職	-7.71637
日月	-7.71641
授	-7.71739
破	-7.72096
初	-7.72373
乞	-7.72734
象	-7.72908
䰟	-7.72969
地獄	-7.73001
焚	-7.73196
民	-7.7323
絶	-7.73527
祈	-7.7374
淨	-7.73796
法師	-7.74228
州	-7.74378
進	-7.7441
式	-7.74493
林	-7.74665
胎	-7.74705
諱	-7.75372
衆生	-7.75494
超	-7.75596
真人	-7.75816
祝	-7.7632
疾	-7.76354
誠	-7.76561
陳	-7.76715
臺	-7.76833
由	-7.77021
面	-7.77063
親	-7.77186
穢	-7.77264
焉	-7.77353
雖	-7.7749
布	-7.77743
映	-7.77794
使者	-7.78038
開度	-7.78166
護	-7.78454
輝	-7.78535
大道	-7.78848
圓	-7.79068
指	-7.79718
落	-7.79766
功德	-7.79805
手	-7.80667
天帝	-7.80734
籙	-7.81125
春	-7.81249
果	-7.81752
救	-7.81871
更	-7.82027
犯	-7.82037
兵	-7.82102
三元	-7.82252
夫	-7.82991
境	-7.83258
天尊志心朝禮	-7.8356
伏願	-7.83789
侍	-7.84026
獲	-7.84243
詣	-7.84373
滿	-7.84453
于	-7.84461
行道	-7.84501
問	-7.84921
稱	-7.84978
座	-7.85517
張	-7.85566
容	-7.85702
情	-7.8591
五帝	-7.8601
帝君	-7.86624
霞	-7.86678
嚴	-7.86746
集	-7.8687
鍊	-7.86942
但	-7.87034
傷	-7.87126
籍	-7.87169
印	-7.87261
河	-7.87284
惠	-7.87666
害	-7.87672
源	-7.87874
失	-7.88014
駕	-7.88205
瓊	-7.88225
至眞	-7.88285
共	-7.88459
利	-7.88459
三天	-7.8872
汝	-7.88777
識	-7.88851
投	-7.88852
煥	-7.89012
晨	-7.89156
歩	-7.89385
資	-7.89625
遍	-7.8963
旛	-7.89657
勤	-7.89847
黃	-7.89888
仁	-7.90062
大神	-7.90408
曹	-7.90538
路	-7.90787
少	-7.90788
速	-7.90924
餘	-7.9098
紀	-7.91178
藥	-7.91354
志	-7.9139
屬	-7.91471
卷	-7.91519
吏	-7.91884
禁	-7.91966
靈官	-7.92042
東方	-7.92349
著	-7.92511
賜	-7.92812
闕	-7.9286
南方	-7.93028
九幽	-7.93117
隂陽	-7.93219
長生	-7.93374
違	-7.93642
童子	-7.94046
敬	-7.94121
亡	-7.94239
間	-7.94275
宅	-7.94444
雨	-7.94793
祥	-7.95114
毒	-7.95368
呪曰	-7.95373
切	-7.95414
易	-7.95576
悟	-7.95595
設	-7.9567
曲	-7.95729
返	-7.96168
馬	-7.96638
宮	-7.97083
北方	-7.97225
收	-7.97525
典	-7.97766
古	-7.97889
煙	-7.97966
魄	-7.98154
母	-7.98631
崇	-7.99034
▲	-7.99037
星君	-7.99118
冠	-7.992
詞	-7.99266
混	-7.99578
歳	-7.99713
黒	-7.99751
養	-7.99808
要	-7.99851
之炁	-8.00018
興	-8.00132
質	-8.00555
聽	-8.00694
房	-8.00824
蒙	-8.00993
學	-8.01011
遇	-8.01014
按	-8.01141
珠	-8.01611
義	-8.01723
城	-8.01924
全	-8.02163
朗	-8.02286
想	-8.02441
愛	-8.02751
堂	-8.03016
生死	-8.03024
昇	-8.03034
望	-8.03269
昌	-8.03403
輪	-8.03448
三寳	-8.03747
祖	-8.03803
梵	-8.03867
功曹	-8.0399
霄	-8.04033
泉	-8.04254
宜	-8.04352
到	-8.04378
佩	-8.04813
不能	-8.05151
冥	-8.05734
左右	-8.06152
㝠	-8.06202
供養	-8.06527
中有	-8.06692
急	-8.06718
西方	-8.07079
總	-8.07097
三十六	-8.0736
封	-8.07421
鑒	-8.07484
榮	-8.07498
斷	-8.07521
庶	-8.07637
再	-8.07785
太一	-8.07884
覺	-8.07901
姓	-8.08143
被	-8.08173
監	-8.08311
露	-8.08654
累	-8.09084
迎	-8.09531
鎭	-8.09784
吉	-8.1024
大聖	-8.10536
爾	-8.10561
語	-8.10681
遷	-8.1159
午	-8.11693
徃	-8.11701
洪	-8.12055
稽首	-8.12176
覆	-8.12262
浮	-8.12313
好	-8.12469
固	-8.12651
無上	-8.12948
宻	-8.13033
育	-8.13299
順	-8.13416
童	-8.13746
大將軍	-8.13911
車	-8.13963
尸	-8.1402
無量	-8.1415
逺	-8.14157
殿	-8.1419
蕩	-8.14215
顯	-8.14356
凶	-8.14795
送	-8.15354
士	-8.15566
愆	-8.15835
種	-8.1588
道君	-8.16051
别	-8.16268
勿	-8.16399
忽	-8.16489
負	-8.16515
調	-8.16546
加	-8.16626
天尊志心敬禮	-8.168
頌	-8.16925
夫人	-8.172
北斗	-8.17296
達	-8.17336
騰	-8.17477
遣	-8.17481
敢	-8.17596
五嶽	-8.1763
厄	-8.17654
證	-8.17699
載	-8.17871
徧	-8.1799
三洞	-8.18003
端	-8.18147
掌	-8.18158
貴	-8.18246
賢	-8.18377
大帝	-8.18536
拔	-8.18586
迴	-8.1877
寧	-8.19073
曜	-8.19384
放	-8.1992
住	-8.201
中央	-8.20171
留	-8.20269
益	-8.20399
泰	-8.20578
得道	-8.20584
敕	-8.20674
猶	-8.20818
澄	-8.21132
无上	-8.21148
恐	-8.21235
誓	-8.21243
英	-8.21273
羽	-8.2129
會	-8.21372
輔	-8.21433
尺	-8.21512
沉	-8.21529
妄	-8.21709
臣等	-8.21942
天下	-8.21963
視	-8.21981
斯	-8.22205
光明	-8.22264
克	-8.22393
揚	-8.22511
無極	-8.2261
二十四	-8.22612
契	-8.22911
鳯	-8.23219
雷	-8.23344
祕	-8.23354
却	-8.2337
律	-8.23374
履	-8.23617
甚	-8.23732
輕	-8.2423
衞	-8.24409
金闕	-8.24458
扶	-8.24653
聚	-8.24737
懴	-8.24814
如是	-8.24815
閉	-8.24823
院	-8.24825
玄壇	-8.24852
唯	-8.2505
爽	-8.25478
格	-8.25626
刑	-8.25811
獻	-8.25917
盟	-8.26017
父母	-8.26106
懴悔	-8.26107
久	-8.26154
休	-8.26195
像	-8.26356
男女	-8.26394
唱	-8.26838
勝	-8.26847
殃	-8.26916
徹	-8.26947
江	-8.26973
徒	-8.2748
彼	-8.27538
度人	-8.27693
寸	-8.27808
機	-8.27931
急急如律令	-8.27952
武	-8.27954
盛	-8.2796
統	-8.28
紫微	-8.28017
妖	-8.28269
憂	-8.2844
營	-8.28845
停	-8.28845
呼	-8.28878
寒	-8.2895
新	-8.29001
俾	-8.2906
遵	-8.29465
老君	-8.2972
今日	-8.2986
内外	-8.29874
既	-8.30028
豈	-8.30045
虛	-8.30071
兹	-8.30529
禍	-8.3053
乾	-8.30666
迷	-8.30694
先生	-8.30821
貪	-8.31293
哉	-8.31854
患	-8.31868
仙官	-8.32156
并	-8.32498
以今	-8.32589
𡨚	-8.3278
鳳	-8.32841
代	-8.32919
血	-8.3293
旋	-8.3306
宇	-8.3309
班	-8.33145
昔	-8.33233
寂	-8.33466
酒	-8.33713
喜	-8.33907
潜	-8.33963
赦	-8.34009
符命	-8.34124
里	-8.34715
奉行	-8.34762
天門	-8.35172
芝	-8.35199
瑞	-8.35339
群	-8.35624
將軍	-8.357
縣	-8.35764
他	-8.35799
不知	-8.35916
第二	-8.3613
花	-8.36405
腎	-8.36684
骨	-8.36768
父	-8.36865
連	-8.36981
之道	-8.36994
五方	-8.37072
徳	-8.37122
俯	-8.37398
炎	-8.37455
第一	-8.37479
滯	-8.37729
條	-8.37748
兆	-8.37842
歌	-8.37975
專	-8.38095
幕	-8.38114
玄都	-8.38337
示	-8.3839
綱	-8.38418
就	-8.38481
三官	-8.38628
近	-8.38682
俗	-8.38728
虎	-8.3888
置	-8.38887
干	-8.39173
祐	-8.39566
提	-8.39575
獨	-8.39686
智	-8.40042
鳴	-8.40046
萬神	-8.4012
任	-8.40166
津	-8.40223
逆	-8.40346
司命	-8.40472
良	-8.40499
慧	-8.40662
讃	-8.407
漢	-8.40731
省	-8.4091
披	-8.4107
尚	-8.41198
往	-8.41223
瞻	-8.41278
五行	-8.4139
緑	-8.41596
辭	-8.41716
演	-8.41761
甲	-8.41964
釋	-8.42183
太極	-8.42204
具位	-8.42477
水火	-8.42497
孝	-8.42511
免	-8.42573
接	-8.42908
逍遥	-8.42945
眞文	-8.43101
含	-8.43227
篆	-8.43406
衛	-8.43411
痛	-8.43484
許	-8.43548
移	-8.43619
肅	-8.4385
田	-8.44025
退	-8.44126
錢	-8.44231
味	-8.44339
禄	-8.44356
天人	-8.44366
均	-8.44846
康	-8.45154
池	-8.4522
變化	-8.45422
救苦	-8.45547
逐	-8.4557
斬	-8.45706
太陽	-8.45712
鬼神	-8.46035
融	-8.46098
幸	-8.46247
追	-8.46259
薦	-8.46261
之後	-8.46286
第三	-8.46288
淵	-8.46454
靈寳領教濟度金書卷之	-8.46456
計	-8.46598
蒼	-8.46622
潤	-8.46624
潔	-8.46778
慮	-8.46895
嶽	-8.46898
天師	-8.46931
了	-8.47172
郷	-8.47195
毎	-8.47272
碧	-8.47596
案	-8.47696
財	-8.47946
律令	-8.48055
候	-8.48076
付	-8.48171
燒香	-8.48405
燭	-8.48448
域	-8.4855
參	-8.48576
而不	-8.48711
三光	-8.48818
慈悲	-8.4912
亡魂	-8.49186
差	-8.493
太清	-8.49353
徑	-8.49442
筆	-8.49832
範	-8.49866
反	-8.49866
如此	-8.50151
佐	-8.50302
驗	-8.5036
檢	-8.50635
酆都	-8.50758
寅	-8.50982
鼻	-8.51005
記	-8.511
元君	-8.51307
輿	-8.51356
若有	-8.51521
充	-8.51525
魔王	-8.51705
原	-8.51956
廻	-8.52033
冀	-8.52073
之所	-8.52417
秋	-8.52652
酉	-8.52665
訖	-8.52688
天尊至心朝禮	-8.52705
所以	-8.52722
影	-8.52723
頒	-8.52864
傾	-8.53077
野	-8.5312
岀	-8.53194
井	-8.53347
副	-8.53424
上元	-8.53445
推	-8.53781
萬物	-8.54602
驚	-8.54732
以爲	-8.54858
舊	-8.54898
廟	-8.54917
跡	-8.55144
弘	-8.55152
篇	-8.55207
告下	-8.5532
希	-8.55326
奔	-8.5554
窮	-8.55609
無爲	-8.55651
脫	-8.55697
亂	-8.5571
禀	-8.55746
吐	-8.5576
仍	-8.55851
經云	-8.56151
卿	-8.56236
導	-8.563
齋主	-8.5658
伏以	-8.56744
樹	-8.56891
響	-8.57103
忘	-8.57209
夷	-8.57315
三十	-8.57436
善男子	-8.57452
神虎	-8.57456
現	-8.57506
遐	-8.57516
冝	-8.57526
丁	-8.57596
太隂	-8.57678
勞	-8.57697
為	-8.57718
丑	-8.57934
竟	-8.58173
波	-8.58291
己	-8.5831
黄籙	-8.58463
萬劫	-8.58661
助	-8.58676
特	-8.58713
逢	-8.58881
階	-8.59502
巨	-8.59697
因縁	-8.59906
然後	-8.6011
讀	-8.60217
舍	-8.60251
志心	-8.60263
元陽	-8.60478
享	-8.60705
論	-8.60731
逹	-8.60747
鐵	-8.60905
羣	-8.60932
戸	-8.61081
之法	-8.61086
招	-8.61124
紙	-8.61254
愚	-8.61291
賛	-8.6136
際	-8.61378
夏	-8.61433
掐	-8.6161
哀	-8.61738
且	-8.6175
肺	-8.61768
捨	-8.61787
灌	-8.61936
亥	-8.62041
尋	-8.62156
正一	-8.62505
智慧	-8.62681
察	-8.628
咽	-8.63043
肝	-8.63082
緫	-8.63211
男	-8.636
清淨	-8.63619
可以	-8.63642
元始天尊	-8.63671
爰	-8.63863
懷	-8.63877
再拜	-8.63985
絳	-8.6417
眼	-8.64288
靖	-8.64369
震	-8.64464
竒	-8.64506
帶	-8.6464
只	-8.64723
丈人	-8.64754
青玄	-8.64786
太玄	-8.64817
陵	-8.64845
鎮	-8.65033
神王	-8.65175
振	-8.65367
亡靈	-8.65402
修齋	-8.65467
乆	-8.65529
罰	-8.6553
彰	-8.65762
殊	-8.65769
允	-8.65805
五色	-8.65959
䟽	-8.66238
急急如	-8.66265
夕	-8.66407
背	-8.66431
無邊	-8.66457
㫖	-8.66607
豐	-8.6664
仗	-8.66841
卯	-8.66865
億	-8.66978
洗	-8.6708
鬱	-8.6709
拘	-8.67091
臻	-8.67106
之至	-8.67165
秀	-8.67251
於是	-8.67308
飲	-8.67409
是也	-8.67421
下降	-8.67442
土地	-8.67484
黙	-8.675
威儀	-8.67566
鼓	-8.68167
曷	-8.68213
飛仙	-8.68397
鶴	-8.68537
長夜	-8.68563
皈依	-8.68702
之人	-8.68723
沐浴	-8.68822
上聖	-8.68834
馳	-8.68859
危	-8.68872
䇿	-8.689
真君	-8.69041
彩	-8.69291
液	-8.69379
玊	-8.69467
夢	-8.69496
之時	-8.69607
户	-8.69683
芒	-8.69743
驅	-8.69887
烟	-8.69961
谷	-8.6999
謂之	-8.70102
歷	-8.70584
納	-8.70679
弟子某	-8.70785
高	-8.70863
辛	-8.70881
無窮	-8.70911
丈	-8.71054
術	-8.71084
䖍	-8.71088
本命	-8.7117
旦	-8.71314
維	-8.71349
拱	-8.71373
錫	-8.71383
歡	-8.715
蘭	-8.71537
嬰	-8.71572
庸	-8.71595
宴	-8.71754
二十	-8.71788
摧	-8.72006
飛天	-8.72267
損	-8.7227
序	-8.72378
盈	-8.7251
書符	-8.72606
暗	-8.72647
每	-8.72698
抱	-8.72934
草	-8.73068
脾	-8.73142
生神	-8.73395
頂	-8.73437
三炁	-8.73554
荷	-8.73589
李	-8.7405
刻	-8.7429
所謂	-8.74314
函	-8.74437
侯	-8.74509
樓	-8.74638
燒	-8.74706
遺	-8.74794
世界	-8.74843
歩虚	-8.74889
吹	-8.74965
縱	-8.75053
眞靈	-8.75061
混合	-8.75113
无量	-8.75134
太微	-8.75624
二百	-8.75674
紅	-8.75742
咎	-8.75842
髙上	-8.75849
伯	-8.75907
疑	-8.75965
朱陵	-8.76049
錬度	-8.76289
禱	-8.76458
向來	-8.76707
辟	-8.76713
刀	-8.76839
遠	-8.76904
越	-8.76941
墮	-8.76964
翠	-8.77013
葉	-8.77214
役	-8.77272
史	-8.77362
无極	-8.77482
假	-8.78195
身中	-8.78683
悲	-8.78724
髙功	-8.78817
覩	-8.79113
寫	-8.79367
此經	-8.79422
隆	-8.79483
瑶	-8.79559
網	-8.79659
梁	-8.79929
障	-8.80138
陶	-8.80148
唐	-8.8035
劵	-8.80358
道場	-8.80518
黑	-8.8062
鸞	-8.80681
眞符	-8.8076
三清	-8.80884
翳	-8.8095
空洞	-8.80976
中元	-8.81051
皇帝	-8.81063
錦	-8.8121
天中	-8.81361
漏	-8.81575
訟	-8.81809
湯	-8.8185
眷屬	-8.819
拯	-8.81905
赴	-8.82004
半	-8.82006
増	-8.8203
懇	-8.82031
御前	-8.8228
一百	-8.82531
四十	-8.82543
齡	-8.82676
奉爲	-8.82684
丘	-8.82899
夀	-8.82954
學道	-8.82986
松	-8.83106
戊	-8.83119
旨	-8.83198
虚皇	-8.83199
玄元	-8.83211
劒	-8.83373
舌	-8.83376
之日	-8.83377
吟	-8.83461
削	-8.83696
顧	-8.83717
習	-8.83725
汝等	-8.83802
杖	-8.83924
主者	-8.8401
上香	-8.84044
應感	-8.84131
天曹	-8.8414
聖衆	-8.84317
氏	-8.84389
忠	-8.84436
堅	-8.84452
細	-8.8455
七祖	-8.84581
濁	-8.84764
角	-8.85013
騎	-8.85238
𩔖	-8.85272
天尊信禮	-8.85308
北極	-8.85388
之功	-8.85427
信禮	-8.85672
愈	-8.85706
詠	-8.85709
委	-8.85746
將吏	-8.85746
髮	-8.85804
敎	-8.86058
之妙	-8.86063
水府	-8.86227
客	-8.86318
祖師	-8.86551
仙人	-8.86567
禳	-8.86808
歸命	-8.8706
伸	-8.87115
量	-8.87244
給	-8.87557
西北	-8.8777
貞	-8.8788
侵	-8.87936
疾病	-8.87972
十五	-8.88008
邊	-8.88054
之内	-8.88062
朱書	-8.88116
塞	-8.88177
川	-8.88195
飛行	-8.88198
法事	-8.88234
之氣	-8.88365
道德	-8.884
冬	-8.88459
九炁	-8.88515
祭	-8.88629
衰	-8.88797
鐘	-8.88832
十四	-8.88845
鳥	-8.88946
吞	-8.8896
聖前	-8.89109
金籙	-8.89464
沖	-8.89515
厚	-8.89548
軍	-8.89641
精神	-8.89657
懼	-8.89781
凌	-8.90066
東華	-8.90112
拔度	-8.90122
臣聞	-8.90192
曽	-8.90332
恒	-8.90336
横	-8.90372
束	-8.90384
基	-8.90388
東南	-8.90448
末	-8.90618
罔	-8.90635
霧	-8.90638
據	-8.90642
枝	-8.90646
悃	-8.90656
名曰	-8.90705
一人	-8.90889
貺	-8.90919
無有	-8.90947
皈命	-8.91075
十八	-8.91098
校	-8.91115
尊神	-8.91195
類	-8.91446
乘	-8.91517
魂魄	-8.91631
地府	-8.9168
蛇	-8.91713
繫	-8.91734
行之	-8.91875
趣	-8.91876
友	-8.92006
衝	-8.92046
五靈	-8.92104
超度	-8.92279
昧	-8.92314
泥丸	-8.92325
神明	-8.92402
暉	-8.92571
牛	-8.92572
坤	-8.92817
六甲	-8.92866
勸	-8.92873
六十	-8.92988
謁	-8.93059
雜	-8.93446
生天	-8.93476
靈光	-8.9348
玉京	-8.93599
斤	-8.93698
宸	-8.93759
宰	-8.93944
幽魂	-8.93964
一切衆生	-8.93968
壞	-8.93991
蟲	-8.94045
垢	-8.94057
寶	-8.94186
建齋	-8.94214
漸	-8.9429
郡	-8.94491
與道合眞	-8.94522
東極	-8.94606
科儀立成品	-8.94609
坎	-8.94654
甘	-8.948
三塗	-8.94819
南宫	-8.94845
之恩	-8.95021
太虚	-8.95139
毀	-8.9518
誦經	-8.95212
世間	-8.9534
懸	-8.9542
最	-8.95455
比	-8.95465
之上	-8.95509
宫中	-8.9559
染	-8.95744
預	-8.95966
峯	-8.95978
墨	-8.96035
孤	-8.96197
主宰	-8.96198
度命	-8.96233
簿	-8.96285
兼	-8.96308
幾	-8.96315
續	-8.96348
十一	-8.96505
詔	-8.96622
祖炁	-8.9663
翼	-8.96649
金光	-8.96682
爾時	-8.96801
滋	-8.96937
早	-8.97155
西南	-8.97162
衆等	-8.97188
人間	-8.97437
熱	-8.97536
祝曰	-8.97553
五炁	-8.97705
彌	-8.97743
忌	-8.97764
屋	-8.9779
罡	-8.97907
官將	-8.97951
賊	-8.9797
夙	-8.9812
甘露	-8.98251
顔	-8.98418
神君	-8.98465
答	-8.98636
吏兵	-8.98658
觸	-8.98658
誅	-8.98664
巾	-8.98684
齎	-8.98709
匪	-8.98725
於此	-8.98735
五星	-8.98831
政	-8.98866
天官	-8.98948
沈	-8.98961
鍾	-8.98971
普度	-8.98979
昏	-8.98985
一炁	-8.9927
十六	-8.99308
整	-8.99315
名爲	-8.99341
管	-8.99371
京	-8.99376
乙	-8.99379
旁	-8.99598
皈	-8.99658
受度	-8.99671
掃	-8.99844
湛	-8.9992
激切	-8.99958
之神	-9.00099
沙	-9.00163
寜	-9.00185
服之	-9.00212
焚香	-9.00238
供	-9.00297
芳	-9.00422
貫	-9.00454
庚	-9.00488
看	-9.005
閑	-9.00503
仙公	-9.00517
附	-9.00705
陸	-9.0078
産	-9.008
五道	-9.0101
冲	-9.01165
后	-9.01278
官吏	-9.0135
棄	-9.01421
採	-9.01483
上章	-9.01488
出入	-9.01747
層	-9.01752
吸	-9.01759
茂	-9.0177
修行	-9.01919
善惡	-9.0208
至心	-9.02415
大羅	-9.02421
同前	-9.02459
銀	-9.02529
五十	-9.0263
詳	-9.02646
待	-9.02658
沐	-9.02675
單	-9.02679
席	-9.02726
太平	-9.0274
受生	-9.02758
輪轉	-9.02885
走	-9.02992
乾坤	-9.03054
造化	-9.0307
玉帝	-9.03111
化生	-9.03243
況	-9.0326
賤	-9.03292
卧	-9.03352
見有	-9.03409
開明	-9.03519
太上无極大道	-9.03587
枯	-9.03603
姓某	-9.03611
亡故某	-9.0367
第四	-9.03679
齒	-9.03898
三日	-9.03952
左手	-9.04065
不勝	-9.04215
又有	-9.04293
一名	-9.04344
人民	-9.04387
下元	-9.04486
生人	-9.04501
南斗	-9.04544
棲	-9.04563
天君	-9.04925
種種	-9.04949
樞	-9.04977
大洞	-9.05027
係	-9.05175
長存	-9.05234
散花	-9.0527
墓	-9.05295
衆聖	-9.05397
筭	-9.05484
故曰	-9.05754
七寳	-9.05804
元皇	-9.05898
之罪	-9.05962
呈	-9.0616
罄	-9.06184
南極	-9.06311
上眞	-9.06436
權	-9.06452
上方	-9.06461
存亡	-9.06563
大小	-9.06721
保命	-9.06799
長跪	-9.0692
試	-9.07041
市	-9.07073
一日	-9.07269
爐	-9.07338
慈尊	-9.07388
醫	-9.0743
祚	-9.07431
解脫	-9.07437
玉字	-9.07501
遥	-9.07505
九宫	-9.07547
途	-9.07758
憲	-9.07778
孔	-9.07819
子孫	-9.0791
一如告命	-9.08095
飄	-9.0812
藹	-9.08162
之精	-9.08186
劉	-9.08357
灰	-9.08379
玉皇	-9.08404
竹	-9.08425
似	-9.08501
頓	-9.08744
值	-9.08761
更生	-9.08776
務	-9.08776
廓	-9.08785
魚	-9.08797
太素	-9.08968
誥	-9.09012
形神	-9.09027
衡	-9.09445
四方	-9.09475
天眞	-9.09588
叩齒	-9.09788
欣	-9.09827
上天	-9.09877
徐	-9.10135
局	-9.10272
是故	-9.10328
旬	-9.10433
慕	-9.1044
擁	-9.10465
玉虚	-9.10529
嘉	-9.10758
洞玄	-9.10766
蓮	-9.10809
器	-9.10817
捧	-9.10841
寳籙	-9.1098
安鎭	-9.11067
植	-9.11069
東北	-9.11093
怒	-9.11113
阿	-9.11132
三師	-9.11305
甲子	-9.11374
慾	-9.11427
太上洞玄靈寳	-9.11499
直符	-9.11504
三五	-9.11595
是以	-9.1196
尤	-9.121
畏	-9.12149
赤書	-9.12179
大慈	-9.1231
雷霆	-9.1251
卒	-9.12791
改	-9.12806
衆官	-9.12966
肉	-9.13063
神呪	-9.1315
誤	-9.13192
舒	-9.13193
第五	-9.1322
晝夜	-9.13276
十華	-9.13463
布施	-9.13474
扣	-9.13512
不敢	-9.13539
砂	-9.13555
四時	-9.13591
太乙	-9.13616
八景	-9.1383
無不	-9.13886
丙	-9.13907
怨	-9.13948
髙眞	-9.14092
上下	-9.14213
神靈	-9.14235
繒	-9.14262
水官	-9.14263
吿	-9.14564
煉	-9.14573
伐	-9.1459
竅	-9.1461
慢	-9.14937
一如	-9.14951
氛	-9.1497
令人	-9.15022
法輪	-9.15028
編	-9.15289
妃	-9.15311
龜	-9.15371
太空	-9.15386
濟度	-9.1554
㧞	-9.15683
膺	-9.15715
私	-9.15927
婦	-9.15971
生成	-9.16017
一時	-9.16139
念呪	-9.16147
龍王	-9.16309
攺	-9.16345
鴻	-9.1637
殫	-9.16383
知磬舉	-9.1639
藉	-9.16394
不見	-9.1645
言功	-9.1653
榜	-9.16604
上生	-9.16614
蜀	-9.16663
雪	-9.167
獸	-9.16703
和與道合眞	-9.16704
叅	-9.16717
美	-9.16729
鼎	-9.16781
環	-9.1711
臣某	-9.17122
毋	-9.17377
我身	-9.17378
玉文	-9.17534
畫	-9.17761
百二十	-9.17798
翔	-9.1782
若見	-9.17969
勢	-9.1811
孰	-9.18147
齋主某	-9.18408
句	-9.18491
誠惶誠恐稽首頓首	-9.18608
流光	-9.18608
門下	-9.18741
限	-9.18757
適	-9.18877
分别	-9.18901
補	-9.18916
㸃	-9.1901
姓名	-9.19233
奉請	-9.19311
眞仙	-9.19328
蠲	-9.19334
道言	-9.19435
不信	-9.19503
魁	-9.19655
今故燒香	-9.19703
修奉	-9.19877
稽	-9.1991
丹田	-9.19915
梵炁	-9.19918
告文	-9.20028
舞	-9.20037
軒	-9.203
巖	-9.20352
烏	-9.20357
飛天神王	-9.20362
威靈	-9.20406
繞	-9.20415
黄帝	-9.20451
㝷	-9.20705
淪	-9.20705
迹	-9.20707
嗣	-9.20734
妙經	-9.20757
效	-9.2076
米	-9.20769
廬	-9.20777
亡人	-9.20783
世人	-9.20864
之境	-9.20932
億劫	-9.20946
鍊度	-9.20983
遭	-9.21095
𡨋	-9.2113
金書	-9.21137
快樂	-9.21173
熟	-9.21226
伏聞	-9.21304
五老	-9.21414
寄	-9.21432
丸	-9.21434
塗	-9.21437
金龍	-9.21455
灑	-9.21523
罪福	-9.21699
説	-9.2174
賔	-9.21894
珍	-9.21896
清微	-9.21904
柱	-9.21908
躡	-9.21932
淫	-9.21946
忍	-9.21953
十三	-9.21963
眞炁	-9.2198
莫不	-9.22067
神名	-9.22149
驛	-9.22206
磬	-9.22244
存思	-9.22244
受持	-9.22249
萬靈	-9.22251
約	-9.2226
恪	-9.22262
那	-9.22269
神霄	-9.22293
戌	-9.22337
尾	-9.22338
飢	-9.22356
兵馬	-9.22437
工	-9.22589
毛	-9.22617
矜	-9.22662
朔	-9.2267
旌	-9.22954
纒	-9.2302
握	-9.23044
偈	-9.23054
化爲	-9.23066
三十二	-9.23159
之鬼	-9.23176
赤帝	-9.23243
山川	-9.23275
玄虚	-9.2335
逸	-9.23403
溟	-9.23408
責	-9.2341
誕	-9.23434
如法	-9.23465
齋壇	-9.23485
衆眞	-9.23505
不死	-9.23539
孫	-9.23574
碧落	-9.23622
嘗	-9.23657
耶	-9.23727
皓	-9.23772
銷	-9.23781
輙	-9.23801
纏	-9.23804
煞	-9.23837
正眞	-9.23901
玉晨	-9.2395
壁	-9.2414
萬里	-9.24162
避	-9.2417
眉	-9.24177
摩	-9.2418
岸	-9.24181
包	-9.24218
死魂	-9.24258
懴謝	-9.24401
擊	-9.24512
風雨	-9.24558
之士	-9.24586
至道	-9.24739
消災	-9.24904
壘	-9.24905
洞天	-9.25158
混元	-9.25261
率	-9.25276
敗	-9.25351
嘯	-9.25603
激	-9.25676
台	-9.2568
油	-9.26077
手執	-9.26117
笈	-9.26124
游	-9.2616
陞壇	-9.26169
是名	-9.26178
十極	-9.26302
溪	-9.26457
唵	-9.26474
頼	-9.26498
鏡	-9.26555
癸	-9.2659
陛	-9.26628
所有	-9.26767
忱	-9.26776
者也	-9.26858
行持	-9.26887
斗中	-9.26898
胞	-9.26907
某人	-9.26946
皇君	-9.27088
凡有	-9.27119
聖人	-9.27202
荒	-9.27321
効	-9.27386
右符	-9.27611
泥	-9.27703
醜	-9.27732
暢	-9.2774
軿	-9.27753
五苦	-9.27985
劔	-9.28064
𩲸	-9.28077
倒	-9.28098
竊	-9.28115
舟	-9.28115
雞	-9.28152
無所	-9.28177
三天門下	-9.28196
人身	-9.28408
之門	-9.28413
霑	-9.28496
訓	-9.28519
徘徊	-9.28537
腹	-9.28546
八難	-9.2857
天上	-9.28676
道炁	-9.28819
下方	-9.28884
短	-9.289
虚无	-9.28977
憑	-9.29312
欺	-9.29317
衍	-9.2933
百神	-9.29338
亦不	-9.29351
第十	-9.29611
怪	-9.29653
之間	-9.29658
玉符	-9.2967
毫	-9.29752
躬	-9.29767
威神	-9.29797
設醮	-9.29949
諒	-9.30113
殘	-9.3018
以來	-9.30307
各有	-9.30423
追魂	-9.3056
沾	-9.30569
上請	-9.30616
九天生神	-9.30876
亦可	-9.30888
虧	-9.30961
謀	-9.30972
山林	-9.31001
神光	-9.31005
三千	-9.31007
自在	-9.3101
綵	-9.3102
閣	-9.31022
洞神	-9.31223
所在	-9.31256
葛	-9.31296
惑	-9.31382
族	-9.3139
審	-9.314
巍巍	-9.31401
普濟	-9.31688
天醫	-9.31711
託	-9.31792
溥	-9.31806
三月	-9.31833
配	-9.31852
四海	-9.31947
榖	-9.31986
滌	-9.32177
瘟	-9.32179
題	-9.32201
伺	-9.32278
七十	-9.32396
神將	-9.32448
六丁	-9.32539
天尊志心歸命	-9.32543
富	-9.3258
上詣	-9.32585
施行	-9.3263
煩惱	-9.32669
神功	-9.3269
三禮	-9.32721
號曰	-9.32774
八極	-9.32838
强	-9.33463
神仙諸靈官	-9.33571
天尊志心信禮	-9.33647
而去	-9.33729
爲一	-9.33742
不生	-9.33887
戴	-9.33889
雄	-9.33922
䕃	-9.33922
憫	-9.33931
蕭	-9.33934
純	-9.33944
虚空	-9.34032
攝召	-9.34063
至真	-9.34174
歲	-9.34196
郎	-9.34303
腰	-9.34339
雙	-9.34374
億萬	-9.34496
六合	-9.34531
剛	-9.3464
銅	-9.34715
頃	-9.3476
楊	-9.34761
禹	-9.34764
厭	-9.3482
伏冀	-9.34944
一心	-9.34988
答曰	-9.34993
爲人	-9.35055
祈恩	-9.35058
開光	-9.35071
謹請	-9.35166
方無極太上靈寳天尊	-9.35216
增	-9.35217
宣告	-9.35231
云何	-9.35445
年月日	-9.35582
貧	-9.35592
某日	-9.3562
撫	-9.35636
曉	-9.35675
三年	-9.35789
九地	-9.35829
所啓	-9.35987
貌	-9.36022
怠	-9.36044
繁	-9.3606
勒	-9.36072
癘	-9.36073
勲	-9.36111
斷絶	-9.36206
監齋	-9.36569
一一	-9.3667
大法	-9.36821
訪	-9.3686
逮	-9.3691
薄	-9.36918
成就	-9.36997
登眞	-9.37073
崇建	-9.37386
璧	-9.3739
簡文	-9.37478
天罡	-9.37672
一身	-9.37715
正法	-9.37743
太上道君	-9.37865
粹	-9.37894
人也	-9.37963
幽㝠	-9.37999
大梵	-9.38064
橋	-9.38073
笑	-9.38224
三景	-9.38257
浴	-9.38269
地官	-9.38273
恱	-9.38281
才	-9.38323
名山	-9.3842
飲食	-9.38482
禮拜	-9.38562
穴	-9.386
骸	-9.38604
茅	-9.38691
寰	-9.38736
濯	-9.38738
圍	-9.38819
太歳	-9.38987
幽顯	-9.38994
悔	-9.3902
轉經	-9.39023
三業	-9.39031
壬	-9.39123
絲	-9.39142
黄素	-9.39149
磨	-9.39206
紛	-9.39226
上品	-9.3923
追攝	-9.39336
黄庭	-9.39408
玉簡	-9.39496
身心	-9.39532
祠	-9.39562
二人	-9.39564
洲	-9.39569
誰	-9.3961
俓	-9.39617
秘	-9.39636
柔	-9.3968
寥	-9.40085
胃	-9.40128
鉛	-9.40219
眞經	-9.40287
十七	-9.40435
標	-9.40497
猛	-9.40518
祗	-9.40525
闢	-9.40582
不任	-9.40629
經法	-9.40663
南昌	-9.40704
社	-9.40843
旋行	-9.40847
鋒	-9.4095
復有	-9.40971
算	-9.40971
勵	-9.40979
赫	-9.40984
虔	-9.40987
湖	-9.40988
肇	-9.40996
脚	-9.41004
紫虚	-9.41161
侍衞	-9.4117
今有	-9.4134
七日	-9.41368
腦	-9.414
有一	-9.41479
太上無極大道	-9.41514
一百二十	-9.41808
泄	-9.41883
今齋主某	-9.42032
解釋	-9.42115
受錬	-9.42288
飾	-9.42291
駐	-9.42349
至於	-9.42387
側	-9.42725
肆	-9.42802
帛	-9.42818
控	-9.42829
消除	-9.42867
牀	-9.42923
天寳	-9.42947
電	-9.43206
若不	-9.43243
奪	-9.43258
消滅	-9.43274
千里	-9.43292
馭	-9.43309
大王	-9.43435
黄華	-9.43542
白帝	-9.43664
苦惱	-9.4371
虞	-9.43722
盖	-9.43738
齋意	-9.43739
烈	-9.4374
盤	-9.43745
輦	-9.43799
元始符命	-9.43832
帝王	-9.43839
司馬	-9.43863
咽液	-9.43878
東井	-9.43962
妻	-9.44016
諸司	-9.44036
日中	-9.44082
季	-9.44179
第六	-9.44248
竭	-9.44307
飛歩	-9.44336
吳	-9.44621
具法位	-9.44656
焦	-9.44675
依科	-9.44736
即是	-9.44739
大將	-9.44819
上昇	-9.44956
曰此	-9.45074
血湖	-9.45099
宿啓	-9.45122
凡夫	-9.45125
宏	-9.45207
操	-9.45211
治病	-9.45284
上願	-9.4533
戒者	-9.45397
歸依	-9.45408
筵	-9.4558
皮	-9.45648
漠	-9.4565
倉	-9.45655
軌	-9.45655
東北方	-9.45669
琅	-9.45676
幅	-9.45683
七星	-9.45726
五藏	-9.45784
浩	-9.45984
赤明	-9.46119
狂	-9.46169
北帝	-9.46169
扇	-9.46179
無極大道	-9.46245
右手	-9.46258
天堂	-9.46482
靈寳天尊	-9.46486
上有	-9.46537
功徳	-9.46543
否	-9.46618
上聞	-9.46618
叨	-9.46628
繼	-9.46643
儲	-9.46652
麗	-9.46653
項	-9.46654
萬炁	-9.46779
有所	-9.46971
盜	-9.4723
者則	-9.47256
謹召	-9.47343
昇天	-9.47388
明眞	-9.47452
牙	-9.47547
暴	-9.4756
瑩	-9.47605
促	-9.47644
萬福	-9.47686
青帝	-9.47695
疫	-9.47881
出離	-9.47906
科曰	-9.47909
善功	-9.47929
三百	-9.48008
縈	-9.48064
戍	-9.48089
隔	-9.48099
温	-9.48104
聞經	-9.48178
䖍誠	-9.48213
明堂	-9.48267
城隍	-9.48329
斛	-9.48556
截	-9.4859
玉童玉女	-9.48608
幽明	-9.48612
百年	-9.48682
侍經	-9.48881
家國	-9.48894
東嶽	-9.48958
冰	-9.49049
枚	-9.49119
詩	-9.49156
人天	-9.49197
寳光	-9.49335
攸	-9.49613
出家	-9.49846
爛	-9.50019
上宫	-9.5003
膽	-9.50041
綿	-9.50061
困	-9.50074
上仙	-9.50087
喪	-9.50094
鄉	-9.50127
上升	-9.5015
靈符	-9.50188
洞明	-9.50302
上啓	-9.50403
不復	-9.5042
安寧	-9.50437
三十二天	-9.50442
押	-9.50472
之郷	-9.50488
兒	-9.50497
韻	-9.50525
桑	-9.50533
奥	-9.50547
溢	-9.50582
其所	-9.50632
把	-9.50639
三宫	-9.50777
青華	-9.50928
其中	-9.50968
跪	-9.50991
没	-9.51081
霜	-9.51158
世世	-9.51223
泉曲	-9.51231
儀卷	-9.5137
無形	-9.51456
香火	-9.51538
准	-9.51557
仙道	-9.5156
蛟	-9.51563
議	-9.5158
幢	-9.51608
防	-9.51633
歴	-9.51643
九祖	-9.517
破獄	-9.51759
白日	-9.51807
齋功	-9.51808
次第	-9.51878
之處	-9.51888
或有	-9.51911
曆	-9.51963
彈	-9.52042
翊	-9.52071
爭	-9.52121
乃至	-9.52161
過去	-9.52192
君諱	-9.52279
太眞	-9.5231
字道	-9.52337
之事	-9.52428
宥	-9.52594
晏	-9.52641
練	-9.52643
亡過某	-9.52643
正炁	-9.52791
黒帝	-9.52818
判	-9.52891
皆得	-9.52995
虚無	-9.53004
叩	-9.53074
乖	-9.53088
羊	-9.53089
述	-9.53104
西南方	-9.53105
氷	-9.53109
愍	-9.53115
巽	-9.53131
佑	-9.53132
秉	-9.53136
憐	-9.53139
亭	-9.53147
宿命	-9.53156
仲	-9.53162
知其	-9.53189
飛玄	-9.5326
玉札	-9.53262
若干	-9.53521
嵗	-9.53523
伏惟	-9.5362
競	-9.5363
卑	-9.5364
逃	-9.53651
之心	-9.53652
第七	-9.53662
胡	-9.53675
某月	-9.53675
九壘	-9.53694
衷	-9.53699
官屬	-9.53817
九十	-9.53845
神人	-9.53877
龍漢	-9.54004
賞	-9.54114
支	-9.54161
三途	-9.54168
冒	-9.54175
炁吹	-9.54191
八門	-9.54194
帝眞	-9.54277
十餘	-9.544
眞人道士	-9.54427
纂	-9.54523
射	-9.54599
折	-9.54639
戰	-9.54666
楚	-9.54718
堪	-9.54733
今故燒香自皈依師尊大聖衆至眞之	-9.54764
神祇	-9.54914
如前	-9.54916
緯	-9.54977
立功	-9.55009
而爲	-9.55016
及諸	-9.55129
闊	-9.55185
至尊	-9.55211
混沌	-9.55218
璇璣	-9.55235
魅	-9.5524
盍	-9.55259
攀	-9.55269
眞官	-9.55292
額	-9.5558
旗	-9.55666
正神	-9.55714
騫	-9.55718
杜	-9.55761
鮮	-9.55767
趙	-9.55775
大魔王	-9.558
此法	-9.55835
九玄	-9.5596
玄師	-9.56006
我今	-9.5612
陽光	-9.56276
欽	-9.56301
區	-9.56302
芽	-9.56398
諸大	-9.56474
睿	-9.56769
祀	-9.5682
邁	-9.56826
蘂	-9.5684
帀	-9.56841
水中	-9.56845
脉	-9.56846
垣	-9.56866
請命	-9.56872
漿	-9.56904
裙	-9.56908
兩手	-9.56964
六道	-9.57013
之誠	-9.57097
神符	-9.57274
剌	-9.57376
惜	-9.57382
東南方	-9.57401
希夷	-9.57441
十方三界	-9.57507
仙靈	-9.5754
齋官	-9.57679
弗	-9.57807
太皇	-9.5781
微妙	-9.5784
兇	-9.57862
遏	-9.57933
化育	-9.57983
稽首禮	-9.58251
桃	-9.58352
之儀	-9.58387
渉	-9.58392
萬聖	-9.58396
鐡	-9.58398
農	-9.58421
錯	-9.58469
惱	-9.58549
以此	-9.58652
伏望	-9.58757
二者	-9.58771
延生	-9.5897
玄中大法師	-9.5898
拂	-9.59003
國王	-9.59027
燦	-9.59029
天王	-9.5913
三寸	-9.592
北向	-9.59239
牌	-9.59345
羅酆	-9.59367
某處	-9.59473
熈	-9.5953
清虚	-9.59535
選	-9.59538
災厄	-9.59611
九霄	-9.59638
眞授靈寳通玄弘教水南先生林靈眞編	-9.5966
志心敬禮	-9.5969
常以	-9.597
天關	-9.59702
吉凶	-9.59742
力士	-9.59793
宋	-9.60032
庫	-9.60053
西北方	-9.60058
符吏	-9.60072
泛	-9.60081
方便	-9.6019
見在	-9.60318
上登	-9.60351
經緯	-9.60381
保舉	-9.60469
報應	-9.60527
盗	-9.60541
天文	-9.60639
六天	-9.60642
藴	-9.60654
𠔃	-9.60732
升壇	-9.60902
九府	-9.60949
準	-9.61092
債	-9.61188
願得	-9.61194
互	-9.61202
裳	-9.61233
猷	-9.61238
矣道言	-9.61388
寒庭	-9.61394
神通	-9.61423
本靖	-9.6151
黃籙	-9.61537
玉訣	-9.61641
罪根	-9.61659
屏	-9.61744
福地	-9.61773
亶	-9.61804
靈寶	-9.61988
感通	-9.62128
埋	-9.62286
鈞	-9.62299
闡	-9.62318
度厄	-9.62383
生生	-9.62391
不同	-9.62414
關啓	-9.62556
乏	-9.62852
溺	-9.62882
大齋	-9.63015
八卦	-9.63043
之府	-9.63207
回向	-9.63383
檄	-9.63385
祟	-9.63399
作用	-9.63421
絹	-9.63474
奠	-9.63475
俟	-9.6349
某人靈䰟	-9.63643
太白	-9.63778
弟	-9.63804
身形	-9.63831
七元	-9.63874
福田	-9.63879
二年	-9.63885
八方	-9.63894
齋法	-9.63919
五日	-9.63942
甲申	-9.63964
符呪曰	-9.6398
東向	-9.64037
某家	-9.64041
圎	-9.64042
祅	-9.64046
綺	-9.64088
無極世界	-9.64091
嬰兒	-9.64127
一寸	-9.64181
▲▲	-9.64253
一者	-9.64399
四大	-9.6441
分野	-9.64421
之者	-9.64422
受鍊	-9.64455
金華	-9.64507
邑	-9.64509
兢	-9.64657
好生	-9.64679
禽	-9.64688
諸靈官	-9.64986
秦	-9.65097
几	-9.65105
蹤	-9.65143
活	-9.65195
雍	-9.65195
九色	-9.65196
喉	-9.65209
夭	-9.65225
徼	-9.65233
乳	-9.65243
酬	-9.65257
郷神仙諸靈官	-9.65297
百日	-9.65465
上相	-9.65549
之澤	-9.65614
太上老君	-9.65618
具足	-9.65645
牢	-9.65654
衢	-9.6567
歎	-9.65704
崖	-9.65792
稽首皈依	-9.65894
恨	-9.65899
者皆	-9.659
侍衛	-9.65927
中天	-9.65976
天尊言	-9.66049
陛下	-9.66156
之尊	-9.66244
萬人	-9.66258
晨君	-9.66294
龍虎	-9.66298
例	-9.66301
婆	-9.66321
茶	-9.66322
逝	-9.6637
懽	-9.66403
八十	-9.66478
分明	-9.66513
國土	-9.66535
土府	-9.66539
監生	-9.66593
之苦	-9.66686
齋戒	-9.66757
翻	-9.6693
三過	-9.66952
劄	-9.66991
躍	-9.66994
猶如	-9.67119
汞	-9.67137
普天	-9.67251
第	-9.67275
照耀	-9.67313
正月	-9.67429
天道	-9.67453
絳宫	-9.67477
黄籙大齋	-9.67491
郭	-9.67544
介	-9.67548
完	-9.67589
杳	-9.67597
凝神	-9.6767
太和	-9.67702
草木	-9.6771
普及	-9.67717
女青	-9.67776
九靈	-9.67778
十月	-9.67889
清靜	-9.67961
三十六部尊經玄中大法師	-9.68107
栢	-9.68118
恊	-9.68132
以聞	-9.68145
倫	-9.68158
綸	-9.6817
衣服	-9.68179
艮	-9.68182
恣	-9.68215
催	-9.6823
火鈴	-9.68287
謹爲	-9.68355
是爲	-9.68381
紫極	-9.684
無礙	-9.68403
所居	-9.68529
香花	-9.68579
延年	-9.68581
千二百	-9.68666
吒	-9.68672
靈壇	-9.68693
犬	-9.68713
曾	-9.68718
捕	-9.68752
索	-9.68754
弱	-9.6878
傳授	-9.68855
學仙	-9.6909
各一	-9.69096
經寳	-9.6915
上玄	-9.69161
瀆	-9.69233
心不	-9.69233
眞王	-9.6924
僧	-9.69266
八節	-9.69282
齋用	-9.69284
邦	-9.69355
翹	-9.69393
件	-9.69403
動植	-9.69468
洪恩	-9.69657
成眞	-9.69658
三魂	-9.69678
感應	-9.69687
不可思議	-9.69943
鑪	-9.69946
精誠	-9.69967
僞	-9.69972
何以故	-9.70003
符使	-9.70009
捉	-9.7006
正道	-9.70251
九光	-9.70362
解除	-9.70463
五神	-9.70573
宛	-9.70575
飽	-9.70595
歛	-9.70603
祉	-9.70623
莊嚴	-9.70627
二十八宿	-9.70627
自今以去	-9.70652
无極大道	-9.70667
元帥	-9.70767
丹誠	-9.70915
某乙	-9.7097
勑命	-9.71029
第八	-9.71092
晶	-9.71177
飈	-9.71182
淺	-9.71202
而成	-9.71204
所行	-9.71211
淡	-9.71214
誡	-9.7122
静	-9.71229
孕	-9.71237
淳	-9.71255
度師	-9.71276
上皇	-9.71281
扶桑	-9.71292
死者	-9.71352
天光	-9.71374
而行	-9.7142
玄靈	-9.7146
星宿	-9.71645
華蓋	-9.71662
奏請	-9.71684
星辰	-9.71741
賦	-9.71782
輒	-9.71796
尅	-9.71803
掠	-9.71814
愚癡	-9.71824
蘇	-9.71826
曠	-9.7186
軫	-9.71866
瘥	-9.71901
某甲	-9.72001
眞道	-9.72158
不用	-9.72162
玄恩	-9.72358
無復	-9.72388
暫	-9.7243
研	-9.72457
穆	-9.72466
當願	-9.72476
洞淵	-9.7252
蕩除	-9.72643
金眞	-9.72694
穹	-9.7283
俯垂	-9.72848
九州	-9.7296
四極	-9.73027
躋	-9.73073
併	-9.73095
割	-9.73104
文字	-9.7311
迅	-9.73114
葆	-9.73117
究	-9.73131
千萬	-9.73144
倍	-9.73184
六根	-9.73302
大衆	-9.73336
玉章	-9.73359
四十九	-9.73381
通靈	-9.73436
云云	-9.73443
八威	-9.73627
符召	-9.73667
彭	-9.73717
漱	-9.73728
惶	-9.73734
今月某日	-9.7376
幽夜	-9.73775
所犯	-9.73782
眸	-9.73785
天符	-9.738
嗔	-9.73801
冠帶	-9.73844
侍香	-9.7389
而生	-9.73946
火池	-9.73948
洞陽	-9.74014
神化	-9.74115
妙道	-9.74125
浪	-9.74187
急急	-9.74265
和平	-9.74292
莊	-9.74304
姦	-9.74368
壯	-9.74385
収	-9.74408
枉	-9.74412
金剛	-9.74605
天帝君	-9.74609
腸	-9.74626
也其	-9.74667
入室	-9.74754
救度	-9.74789
中來	-9.74812
麟	-9.75003
懴主某	-9.7501
膏	-9.75029
仙都	-9.75046
中黄	-9.75247
用之	-9.75273
閉氣	-9.75287
福堂	-9.75288
臣等皈身皈神皈命首體投地仰依	-9.75338
流火	-9.75377
錬形	-9.75428
六畜	-9.75455
周圓	-9.75477
囚	-9.75563
稍	-9.75563
周天	-9.75572
飛雲	-9.75585
之外	-9.75609
鑊湯	-9.75609
之際	-9.75627
襲	-9.75638
孟	-9.75651
沉淪	-9.75712
蓬	-9.75718
歩武	-9.75849
洞玄靈寳	-9.75894
第九	-9.75981
元年	-9.76056
魂神	-9.76116
若能	-9.76176
廢	-9.76226
紫庭	-9.76227
缺	-9.7625
韓	-9.76267
欵	-9.76293
僚	-9.76294
發願	-9.76297
洽	-9.76321
寢	-9.76323
三百六十	-9.76364
上眞道君	-9.76378
而來	-9.76392
祈禳	-9.76417
超凌	-9.76422
福慶	-9.76461
六情	-9.76548
官君	-9.76684
口中	-9.76717
三拜	-9.76761
髙尊	-9.7678
一旦	-9.7687
盧	-9.76875
眞名	-9.76927
太乙救苦天尊	-9.76942
鋪	-9.76943
伏念	-9.77052
曹治	-9.77111
十九	-9.77161
道者	-9.77242
三境	-9.77425
靡	-9.77441
鬼王	-9.77497
覃	-9.77541
盻	-9.77588
五月	-9.77591
踈	-9.77622
良久	-9.77642
黍	-9.77642
趨	-9.7765
師寳	-9.77832
列位	-9.77857
精思	-9.77933
天地之	-9.77938
原赦	-9.77987
上奏	-9.78064
生炁	-9.78075
蠶	-9.7808
晝	-9.78134
亦有	-9.78154
貼	-9.78156
鹿	-9.78208
博	-9.78227
傍	-9.78246
勉	-9.78258
其人	-9.7828
赫奕	-9.78289
羣生	-9.78289
祭鍊	-9.78332
恢	-9.78358
慶雲	-9.78364
世之	-9.78462
山中	-9.78734
道衆	-9.78815
余	-9.78832
開圖	-9.7886
籠	-9.78906
晦	-9.78908
洒	-9.78915
罪業	-9.78916
紹	-9.78979
歡喜	-9.78992
利益	-9.79124
合屬	-9.7914
奉戒	-9.79238
大乗	-9.79278
光照	-9.7937
煩	-9.79525
三台	-9.79533
商	-9.79564
戈	-9.7957
𡻕	-9.79575
圭	-9.79599
勾	-9.796
怖	-9.79627
度世	-9.79651
福德	-9.79671
轉輪	-9.79682
亦復如是	-9.79685
豁落	-9.79743
道法	-9.79838
各各	-9.79913
金液	-9.80114
百姓	-9.80142
茲	-9.80258
低	-9.80267
穀	-9.80297
禁忌	-9.80328
滓	-9.80329
九夜	-9.80378
謝過	-9.80463
靈文	-9.80468
功曹使者	-9.80579
安鎮	-9.80594
開通	-9.80732
恭惟	-9.80774
請稱法位具位	-9.80801
注生	-9.80817
終不	-9.80862
元炁	-9.80864
或爲	-9.80882
勃	-9.80913
呵	-9.80943
耗	-9.80953
挺	-9.80954
萬化	-9.80956
刃	-9.80962
九清	-9.80976
巳上	-9.81001
堯	-9.81009
寳符	-9.81011
里域	-9.81017
髪	-9.81021
五臓	-9.81058
弼	-9.81089
靈旛	-9.8128
逕	-9.81288
十二月	-9.8132
旱	-9.81487
龍神	-9.81569
搯	-9.81574
也故	-9.8159
竈	-9.81609
峻	-9.81617
縛	-9.817
是時	-9.81725
辱	-9.81729
又云	-9.81804
一切威靈	-9.81828
二十五	-9.81856
法門	-9.82016
淨明	-9.8211
謹當	-9.82137
卦	-9.82173
晉	-9.82236
前後	-9.82284
倚	-9.8231
擇	-9.82321
涵	-9.82334
囊	-9.82344
請降	-9.82348
屍	-9.82353
剪	-9.82366
水池	-9.8238
聮	-9.82383
而無	-9.82403
白簡	-9.82426
五臟	-9.8253
等身中	-9.82536
超生	-9.82698
可漏	-9.82719
愼	-9.82789
流精	-9.82909
禁戒	-9.8295
存神	-9.82981
死入	-9.82982
不祥	-9.82999
牽	-9.83035
虚无自然	-9.83037
別	-9.8305
裏	-9.83082
譬如	-9.83165
空中	-9.83172
預修	-9.83234
志心朝禮	-9.83314
赦罪	-9.83416
髙明	-9.83463
然燈	-9.83526
某與臨壇官衆等謹同誠上啓	-9.83643
羅列	-9.83658
謡	-9.83743
玉匱	-9.83793
洞煥	-9.83806
亡䰟	-9.83937
三寶	-9.83982
判官	-9.83998
之初	-9.84086
修設	-9.84193
天恩	-9.84262
自非	-9.84302
森	-9.84314
罪學士及百姓子	-9.84319
炭	-9.84349
略	-9.84411
渥	-9.84446
書之	-9.84457
也若	-9.84466
朝禮	-9.84557
修之	-9.84563
之根	-9.84568
飛昇	-9.84705
地下	-9.84939
碑	-9.84942
垂慈	-9.84944
降眞	-9.85
先亡	-9.85061
濛	-9.85089
厥	-9.85121
殄	-9.85131
一十二	-9.8517
婬	-9.8522
遁	-9.8525
關告	-9.85271
生於	-9.85345
天皇	-9.85567
某等	-9.8568
呉	-9.85713
日夜	-9.85717
脩	-9.85791
之罪學者及百姓子	-9.85802
朽	-9.85807
狼	-9.85823
輩	-9.85832
黎	-9.85868
全形	-9.8593
鬱勃	-9.85935
獅子	-9.8596
者當	-9.85983
見存	-9.86079
俯仰	-9.86136
玄上	-9.86168
幽靈	-9.8621
是經	-9.86211
錬質	-9.86243
言之	-9.86532
教化	-9.8655
豫	-9.86561
墜	-9.86585
遲	-9.86585
閭	-9.86593
命魔	-9.86596
永離	-9.86598
冐	-9.86603
骨肉	-9.86608
佳	-9.86629
七魄	-9.86646
雌	-9.86674
無任	-9.8668
金童	-9.86688
此是	-9.86747
接引	-9.86749
學者	-9.86817
諸法	-9.86932
無間	-9.87005
北府	-9.87023
之數	-9.87023
二炁	-9.87067
之仁	-9.87187
命元	-9.87198
俄	-9.87201
鑿	-9.87234
抑	-9.87238
謝恩	-9.87256
和合	-9.8726
其神	-9.87287
之下	-9.87297
旡	-9.87322
孚	-9.8735
可得	-9.87431
洞房	-9.87445
仙眞	-9.8759
師尊	-9.87644
礙	-9.87668
章奏	-9.87704
風雷	-9.87787
玄妙	-9.87874
惡根	-9.87965
三塗五苦	-9.87966
麻	-9.88017
崑崙	-9.88018
浄	-9.8805
九重	-9.88205
疾速	-9.88345
見之	-9.88428
應化	-9.88434
具位姓某	-9.88512
一念	-9.8857
皆有	-9.88579
邈	-9.8875
剋	-9.88762
謬	-9.88764
皈身皈神皈命	-9.88766
鑄	-9.88774
蓮花	-9.88805
飛龍	-9.8882
醴	-9.88869
受經	-9.88922
南嶽	-9.88983
者是	-9.89035
玄眞	-9.8912
地獄主者	-9.89182
九月	-9.892
丹天	-9.8926
曰吾	-9.89322
惟願	-9.89347
講	-9.89368
測	-9.89397
九龍	-9.89408
由是	-9.89484
焰	-9.89485
五體	-9.89503
魏	-9.89505
憎	-9.89528
當知	-9.89528
材	-9.89544
戀	-9.89581
無常	-9.89665
又曰	-9.89926
符勑呪	-9.89934
玉童	-9.89936
入夜	-9.89942
平坐	-9.89944
眞形	-9.90025
八十一	-9.9006
行事	-9.90074
腑	-9.90121
鄭	-9.90125
紏	-9.90179
神郷	-9.90181
澄清	-9.90183
船	-9.9022
今奉爲	-9.9023
桂	-9.90247
臭	-9.90252
僕	-9.90265
逼	-9.90267
卜	-9.90268
戮	-9.90272
零	-9.90292
傷亡	-9.90305
五老上帝	-9.90363
聖位	-9.90449
無量度人	-9.90459
依法	-9.90548
陽明	-9.90685
玄科	-9.9072
昇入	-9.90747
常行	-9.90762
七炁	-9.90809
拜章	-9.90878
一年	-9.9095
罷	-9.90953
釁	-9.90965
署	-9.90971
秩	-9.9098
療	-9.90987
掩	-9.9099
紛紜	-9.91004
痊	-9.91012
大乘	-9.91029
老子	-9.91164
之音	-9.91245
我等	-9.91246
无爲	-9.91354
誦之	-9.91361
幽關	-9.91407
大道君	-9.91479
太上靈寳	-9.91527
六洞	-9.91582
叔	-9.91673
頗	-9.9169
屈	-9.9174
之義	-9.91755
喻	-9.91756
太帝	-9.91773
呪畢	-9.91804
宵	-9.91809
熒惑	-9.91825
地戸	-9.91827
箕	-9.9184
郷貫	-9.91843
一拜	-9.91857
等伏聞	-9.9189
之期	-9.91946
普告	-9.91951
三素	-9.91959
心中	-9.92027
亡故某人	-9.92078
明皇	-9.92227
丹元	-9.92258
飛空	-9.92277
擾	-9.92447
周流	-9.92461
仙曹	-9.92465
潭	-9.92503
邇	-9.92516
覲	-9.92531
之理	-9.92533
椿	-9.92539
之地	-9.92547
始青	-9.92575
決	-9.92579
不可思議功德	-9.92602
添	-9.92678
奉道	-9.9268
得一	-9.92717
身中三五功曹左右官使者	-9.92815
部衞	-9.92844
道塲	-9.92942
流行	-9.92977
陽精	-9.93023
性命	-9.93168
土皇	-9.93175
䝉	-9.93244
三皇	-9.93255
䕶	-9.93296
冷	-9.93298
富貴	-9.93302
亨	-9.93336
元氣	-9.93344
天皇大帝	-9.93375
玉籙	-9.93381
大有	-9.93424
從官	-9.93531
青龍	-9.93533
口舌	-9.93611
受福	-9.93661
特降	-9.93696
服食	-9.93776
開化	-9.938
安樂	-9.93822
得見	-9.93836
妙有	-9.93856
次法師	-9.93948
夜半	-9.9396
借	-9.94026
平等	-9.94028
復爐	-9.94043
即得	-9.94075
無私	-9.94076
丞	-9.94091
至于	-9.94093
暮	-9.94093
人物	-9.94097
臘	-9.94124
得其	-9.94125
恭望	-9.9435
之衆	-9.94493
四明	-9.9452
遊行	-9.94605
里域眞官	-9.94632
佩之	-9.94634
朝元	-9.94685
十天	-9.94731
耕	-9.94765
惡人	-9.94769
換	-9.94834
闇	-9.94837
脱	-9.94849
員	-9.9486
長樂	-9.94887
恬	-9.94895
怡	-9.949
循環	-9.94925
投簡	-9.94966
群生	-9.94975
經曰	-9.95019
火錬	-9.9507
長生大帝	-9.95076
紫炁	-9.95093
眞元	-9.95226
當以	-9.95231
之文	-9.9531
也此	-9.95401
大夫	-9.95455
度脫	-9.95493
無由	-9.9551
早朝	-9.95524
百八十	-9.95557
飛度	-9.95567
恰	-9.95585
覽	-9.9561
餓鬼	-9.95619
驕	-9.95626
陟	-9.95631
瑕	-9.95647
諷	-9.9565
慰	-9.95659
禪	-9.95664
百里	-9.9568
着	-9.95693
七十二	-9.95724
成人	-9.95761
眞師	-9.95829
隨事	-9.95948
此符	-9.96009
靈風	-9.96015
敢有	-9.96068
罪咎	-9.96109
清齋	-9.96115
刀山	-9.96152
救苦天尊	-9.96287
甞	-9.96364
叩頭	-9.96408
霍	-9.96412
自生	-9.96415
奚	-9.96417
展	-9.96456
今有齋主某	-9.96472
淸	-9.96483
汙	-9.96533
虚無自然	-9.96557
聽法	-9.96588
四司	-9.96675
受化	-9.96788
監臨	-9.96861
承符	-9.96922
某甲子	-9.96985
白虎	-9.96986
事畢	-9.97018
酆	-9.97067
尹	-9.97133
苟	-9.97181
嶺	-9.97187
枕	-9.97206
淩	-9.97206
刋	-9.97217
循	-9.97224
輅	-9.97249
禦	-9.97254
盲	-9.97263
昭昭	-9.9727
玉華	-9.97274
臍	-9.97314
鑑	-9.97323
之樂	-9.97365
北酆	-9.97411
天機	-9.9744
隂陽之	-9.97468
使人	-9.97492
隱書	-9.97632
九過	-9.97653
天樞	-9.97762
主執	-9.97816
喬	-9.97933
撰	-9.97941
法衆	-9.97989
偶	-9.97999
六府	-9.97999
壤	-9.98001
冶	-9.98041
捻香	-9.9809
忠孝	-9.98111
行年	-9.98268
某身	-9.98314
分位	-9.98472
天威	-9.9849
經典	-9.98501
之宫	-9.98513
蕩蕩	-9.98559
昊天	-9.98562
赤天	-9.98626
進拜	-9.98754
城隍司	-9.98767
忤	-9.98777
抜	-9.98778
帔	-9.98802
携	-9.98805
步	-9.98819
腥	-9.98857
胤	-9.98859
眞宰	-9.98862
天蓬	-9.98886
姿	-9.9889
精進	-9.98909
聚形	-9.98954
發爐	-9.9903
六腑	-9.99071
修齋行道	-9.99075
生神章	-9.991
羽蓋	-9.99135
三者	-9.99179
九陽	-9.99236
紫清	-9.99256
報對	-9.99436
九年	-9.99614
𥙷	-9.99683
縹緲	-9.99684
狗	-9.99697
叩齒九通	-9.99711
經文	-9.99715
繡	-9.99735
永保	-9.99735
五百	-9.9983
遊宴	-9.99839
並同	-9.99909
寳經	-9.99927
不爲	-10.0017
帥	-10.0018
紫府	-10.0025
領教	-10.0032
有情	-10.0032
甲乙	-10.0046
炬	-10.0047
謹録狀上奏	-10.0047
姑	-10.0047
嵩	-10.0049
軀	-10.005
告盟	-10.0052
郊	-10.0053
挹	-10.0054
慎	-10.0055
俓上	-10.0055
玄功	-10.0057
嚥	-10.0059
讃詠	-10.0059
裁成	-10.0063
地户	-10.0064
靈山	-10.007
之名	-10.0073
雨露	-10.0074
開悟	-10.0074
玄司	-10.0075
幽暗	-10.0078
照臨	-10.0086
至今	-10.0087
同卷	-10.0088
攝魄	-10.0096
金門	-10.0098
西靈	-10.01
百餘	-10.0101
受事	-10.0104
今世	-10.0105
絡	-10.0107
元洞	-10.0113
昊天玉皇上帝	-10.0113
七月	-10.0114
二十七	-10.0121
陣	-10.0122
二儀	-10.0123
寓	-10.0124
人所	-10.0126
寡	-10.013
哭	-10.0131
減	-10.0131
百病	-10.0131
洛	-10.0133
葵	-10.0134
訴	-10.0135
虹	-10.0136
岳	-10.0136
歆	-10.0136
偃	-10.0138
奸	-10.0139
解厄	-10.0144
之物	-10.0155
等衆	-10.0162
天丁	-10.0171
妙化	-10.0174
仙品	-10.018
神燈	-10.0188
符籙	-10.0195
快	-10.0212
匿	-10.0212
餐	-10.0216
棺	-10.0217
願以是功德	-10.0218
髓	-10.0221
仙靈官吏	-10.0223
輕慢	-10.0223
今當	-10.0224
日月星宿	-10.0225
亡者	-10.0228
紫雲	-10.023
啓白	-10.0234
玉皇上帝	-10.0237
生靈	-10.0241
大吉	-10.0245
焚符	-10.025
死生	-10.0253
淨供	-10.0261
黄籙齋	-10.0267
殺害	-10.027
當願一切	-10.027
生身	-10.0273
洞眞	-10.0281
百關	-10.0295
窺	-10.0299
徴	-10.03
具位姓某謹據	-10.0301
蔽	-10.0301
也夫	-10.0302
兊	-10.0303
䘮	-10.0304
訶	-10.0305
天仙	-10.0328
醮筵	-10.0335
演說	-10.0338
之忱	-10.0342
役使	-10.0344
道君曰	-10.0345
壇場	-10.0345
悉皆	-10.0368
證明	-10.0374
次舉	-10.0381
偏	-10.0381
煎	-10.0381
眷	-10.0384
肌	-10.0384
內	-10.0385
𡨚仇	-10.039
涯	-10.039
孛	-10.0391
尉	-10.0391
襟	-10.0392
月十五日	-10.0392
聾	-10.0393
羅敷	-10.0393
企	-10.0395
南上	-10.0397
次存	-10.0412
法界	-10.0413
曹仙官	-10.0414
超昇	-10.0416
切切	-10.0418
病者	-10.0421
之先	-10.0432
地祇	-10.0436
元精	-10.0437
常住	-10.044
建立	-10.0448
修眞	-10.0449
九眞	-10.0458
穩	-10.0463
梓	-10.0465
牧	-10.0466
之災	-10.0467
而巳	-10.047
玉闕	-10.0472
赫赫	-10.0475
揖	-10.0475
合同	-10.0477
叩齒三通	-10.0477
洞照	-10.0478
浩劫	-10.0492
時有	-10.0493
延壽	-10.0498
謹上請	-10.0499
午朝	-10.0501
罪魂	-10.0506
三尺	-10.0506
東方青	-10.0508
尊願以是功德歸流	-10.0519
疆	-10.0528
惡道	-10.0537
壇前	-10.0537
名字	-10.0539
廣大	-10.0542
無遺	-10.0542
故云	-10.0556
之前	-10.0557
圃	-10.0558
丙丁	-10.0559
繇	-10.0559
揺	-10.056
八月	-10.056
館	-10.0561
妨	-10.0562
廉	-10.0562
諦聽	-10.0563
提携	-10.0564
都講	-10.0565
透	-10.0565
賴	-10.0565
采	-10.0566
之科	-10.0567
流鈴	-10.0574
朝謁	-10.0589
土皇君	-10.0591
之光	-10.0593
苦爽	-10.0597
皆當	-10.0602
之象	-10.0605
三十九	-10.0608
通眞	-10.0611
三靈	-10.0615
告行	-10.0618
小兆	-10.0622
不絶	-10.0625
者從	-10.0626
長齋	-10.0638
恩光	-10.064
老人	-10.0643
尼	-10.0644
棗	-10.0644
昨	-10.0644
稼	-10.0648
戎	-10.0648
恭敬	-10.0649
說戒	-10.0649
穿	-10.0649
擲	-10.0649
革	-10.0649
斧	-10.0652
汁	-10.0653
譴	-10.0654
此文	-10.0661
平安	-10.0671
幽爽	-10.0689
讀誦	-10.069
洞章	-10.0698
財物	-10.07
洞微髙士開光救苦眞人寗全	-10.0707
引至	-10.0707
謹按	-10.0709
髙仙	-10.0711
起死	-10.0718
仙吏	-10.0719
三才	-10.0721
須至	-10.0723
書名	-10.0725
又請	-10.0725
斥	-10.0729
儼	-10.0731
醉	-10.0733
兄弟	-10.0734
巳得道大聖衆至眞諸君丈人	-10.0738
南昌上宫	-10.0739
匡	-10.0742
蟻	-10.0742
呪詛	-10.0743
宣行	-10.0771
法橋	-10.0773
境界	-10.0776
不聞	-10.0778
功成	-10.0779
六親	-10.0779
而後	-10.0789
告命	-10.0797
奏聞	-10.0808
勑呪	-10.0811
而有	-10.0811
玄黄	-10.0814
無方	-10.082
况	-10.082
逾	-10.0821
三官九府	-10.0824
嶽瀆	-10.0825
姻	-10.0825
戲	-10.0826
寵	-10.0829
程	-10.0829
馨	-10.0831
靈寳淨明	-10.0832
之機	-10.0835
而下	-10.0848
覆載	-10.0851
願得玉清道炁靈寳妙光下降流入	-10.0852
自從	-10.0854
必有	-10.0858
守一	-10.0863
敢忘	-10.0866
亦無	-10.0867
如儀	-10.087
萬罪	-10.0871
生根	-10.0881
太極眞人	-10.0883
華夏	-10.0894
村	-10.09
即使	-10.09
瘡	-10.0901
五寸	-10.0903
製	-10.0905
十里	-10.0906
数	-10.0908
天尊告	-10.0912
寛	-10.0913
上朝	-10.0915
丕	-10.0915
命門	-10.0916
鎖	-10.0918
得道之後昇入無形	-10.0918
須㬰	-10.092
歘	-10.0921
永無	-10.0923
持戒	-10.0928
鳴法鼓二十四通	-10.0931
丹書	-10.0935
玄元始	-10.0939
朱章	-10.0943
四十二	-10.0944
孤魂	-10.0946
後世	-10.0951
視之	-10.0956
如何	-10.0957
開啓	-10.0957
風雲	-10.0963
見世	-10.0983
殺鬼	-10.0983
眞司	-10.0986
級	-10.0995
煑	-10.0997
皎	-10.1001
凖	-10.1002
滄	-10.1003
熏	-10.1004
玄武	-10.1005
二十八	-10.1005
逍遙	-10.1005
濕	-10.1006
罹	-10.1007
劫運	-10.1008
亞獻	-10.1009
緣	-10.1011
神吏	-10.1025
九玄七祖	-10.1041
中宫	-10.1041
萬魔	-10.1052
道力	-10.1055
君字	-10.1057
生門	-10.1061
札	-10.1071
无形	-10.1072
太上三尊	-10.1075
庶得	-10.1078
飛騰	-10.1087
版	-10.109
慿	-10.1093
與道合眞鳴法鼓二十四通	-10.1094
陋	-10.1097
擲火	-10.1097
括	-10.1101
胷	-10.1101
膝	-10.1104
排	-10.1104
承受	-10.1106
十萬人	-10.1108
罪人	-10.1112
萬眞	-10.1116
二月	-10.1124
至誠	-10.1126
合用	-10.1131
奉爲齋主某	-10.1134
落滅	-10.1148
殺人	-10.1149
九轉	-10.1155
者乃	-10.1161
諸衆生	-10.1171
當境	-10.1179
天子	-10.1182
玉樓	-10.1183
茭	-10.1183
煥耀	-10.1187
祛	-10.119
晴	-10.119
板	-10.1191
𩀱	-10.1191
就某處	-10.1192
踐	-10.1194
等今故燒香皈身皈神皈命	-10.1194
蕩滌	-10.1196
畜生	-10.1199
四司五帝	-10.12
晚朝	-10.1205
臣今	-10.1206
某謹重誠上啓	-10.1206
金丹	-10.1209
聖帝	-10.1213
鬱儀	-10.1228
莫能	-10.1231
事理	-10.1234
三極	-10.1237
所言	-10.1241
流布	-10.1267
之憂	-10.1267
赤子	-10.1268
九氣	-10.1275
爲齋主某	-10.1275
功過	-10.1278
沼	-10.128
給付	-10.1282
戾	-10.1282
勇	-10.1282
仙翁	-10.1285
謄	-10.1286
梅	-10.1287
𢹂	-10.1287
靄	-10.1287
畜	-10.1288
弄	-10.1289
辯	-10.1291
袍	-10.1292
五嶽四瀆	-10.1293
朱雀	-10.1293
之方	-10.1295
十方靈寳天尊	-10.1303
萬鬼	-10.1314
祥光	-10.1315
所願	-10.1316
三獻	-10.1325
辰星	-10.1333
祖玄	-10.1334
三捻上香	-10.1334
圓成	-10.1336
蒙恩	-10.1342
主人	-10.1347
召魂	-10.1352
翁	-10.1355
方函	-10.1359
仇	-10.1374
篤	-10.1375
迫	-10.1375
雅	-10.1376
征	-10.1376
随	-10.1377
驛吏	-10.1379
澗	-10.1379
曵	-10.1379
片	-10.1379
盜賊	-10.138
擬	-10.138
諦	-10.1381
倦	-10.1381
驂	-10.1382
垓	-10.1382
打	-10.1382
結璘	-10.1384
陰	-10.1385
公子	-10.1385
萬方	-10.1385
太歳年月日	-10.1386
紋	-10.1386
請福	-10.1387
太極左	-10.1401
四瀆	-10.1403
病人	-10.1414
千眞	-10.1415
幽䰟	-10.143
鈴	-10.1445
於碧落	-10.1451
死亡	-10.1458
築	-10.1462
汗	-10.147
幻	-10.147
溟泠	-10.1472
峨	-10.1472
廷	-10.1472
傅	-10.1473
倐	-10.1473
策	-10.1473
慳貪	-10.1474
虬	-10.1475
廕	-10.1475
騫林	-10.1477
場	-10.148
尸解	-10.1485
神兵	-10.1488
特爲	-10.1493
亦如	-10.1496
恩惟太上	-10.1504
煥明	-10.1506
大魔	-10.1506
導引	-10.1506
昇仙	-10.1509
黃庭	-10.1512
開張	-10.1523
分形	-10.1523
萬象	-10.1534
晚	-10.1556
同北	-10.1561
保護	-10.1566
洞府	-10.1567
不足	-10.1567
轡	-10.1571
貽	-10.1571
扄	-10.1571
恕	-10.1572
園	-10.1577
謗	-10.1578
子午	-10.1583
出堂頌	-10.1586
從官十	-10.1586
玄珠	-10.1599
无上黄籙大齋	-10.1606
龍虎君侍香諸靈官當令臣	-10.1619
青宫	-10.1626
成仙	-10.1634
承天	-10.1638
玄冥	-10.164
入意	-10.1644
說法	-10.1644
日宫	-10.1647
塜	-10.1647
獅	-10.1659
洎	-10.1659
勿令	-10.166
以昭宸貺	-10.1663
蝗	-10.167
擎	-10.167
幡	-10.1671
罷對	-10.1673
汚	-10.1674
筋	-10.1675
仙童玉女	-10.1675
三清上聖	-10.1676
權衡	-10.1677
辨	-10.1679
胞胎	-10.1685
運度	-10.1692
道路	-10.1693
寒暑	-10.1701
風刀	-10.1707
塲	-10.1713
仙聖	-10.1714
三災	-10.1722
成形	-10.1724
依按	-10.1725
玉宸	-10.1741
玄曹	-10.1744
受戒	-10.1755
玄關	-10.1759
袐	-10.176
珮	-10.176
經教	-10.1761
蠻	-10.1762
辤	-10.1762
銅柱	-10.1764
殁	-10.1765
擣	-10.1765
泰玄樞機三省	-10.1765
卓	-10.1767
二捻上香	-10.1767
寳誥	-10.1768
遨	-10.1768
飯	-10.177
壷	-10.177
旙	-10.1772
三田	-10.1774
頌曰	-10.1785
不干	-10.179
滅度	-10.1793
多少	-10.1838
黄書	-10.1839
苦魂	-10.1839
裝	-10.1851
清都	-10.1859
妙行眞人	-10.1861
軸	-10.1862
青紙	-10.1863
玩	-10.1864
巧	-10.1865
火鍊	-10.1866
覬	-10.1866
㦸	-10.1867
闘	-10.1867
帳	-10.1868
扉	-10.187
是一病	-10.187
安穩	-10.1871
料	-10.1875
作禮	-10.1875
者謂	-10.1878
聰明	-10.188
詩曰	-10.188
呼吸	-10.1882
濟物	-10.1884
社令	-10.1893
之所自然生金液丹碧	-10.1897
法信	-10.1899
衆神	-10.1908
玉陛下	-10.191
形體	-10.1925
當令	-10.1929
玄臺	-10.1932
褐	-10.1956
法衆運誠	-10.1959
皆是	-10.196
膚	-10.1962
貨	-10.1962
衘	-10.1962
朱陵火府	-10.1963
辟斥	-10.1964
初捻上香	-10.1964
錄	-10.1965
婁	-10.1965
麤	-10.1966
之類	-10.1966
饌	-10.1967
飄飄	-10.1971
得道之後昇入无形和與道合眞	-10.1975
紐	-10.1975
宻呪	-10.1982
勑符呪	-10.1986
懴罪	-10.1988
微祝曰	-10.1991
地仙	-10.2003
一切眞靈	-10.2006
序立	-10.2008
北嶽	-10.2013
極狀	-10.2019
含靈	-10.202
二景	-10.2029
朝眞	-10.203
年命	-10.2036
不動	-10.2049
是一藥	-10.2053
軄	-10.2056
一如告命風火驛傳	-10.206
朴	-10.206
國主	-10.206
廵	-10.2061
裂	-10.2064
疋	-10.2064
旅	-10.2064
墟	-10.2067
六道四生	-10.2067
渠	-10.2067
同學	-10.2068
說經	-10.2069
暎	-10.2069
癡	-10.2071
釐	-10.2071
等歸身歸命首體投地仰依太上三	-10.2074
慧光	-10.2076
與道合真	-10.2078
無量無邊	-10.2079
利貞	-10.2081
庚申	-10.2085
無所不	-10.209
奏章	-10.2095
十戒	-10.2117
不敬	-10.2118
萬年	-10.2119
復連	-10.2121
髙下	-10.2122
香官使者左右龍虎君侍香諸靈官當令	-10.2122
可謂	-10.2134
次髙功	-10.2142
幽隂	-10.2148
尚書	-10.2155
祇	-10.2161
繩	-10.2162
兄	-10.2163
謹狀	-10.2165
陀	-10.2165
禾	-10.2165
鬰	-10.2166
冩	-10.2167
金龍驛傳	-10.2167
弘道	-10.2168
傲	-10.2169
三界官屬一切眞靈	-10.2169
夜壑	-10.2173
泣	-10.2173
表裏	-10.2177
監察	-10.2183
流通	-10.2202
宣化	-10.221
羽衣	-10.2212
白素	-10.2212
肉人	-10.2213
惠澤	-10.2218
光華	-10.2221
斷除	-10.2241
考對	-10.2242
普照	-10.2242
黃帝	-10.2244
豁	-10.2259
揮	-10.2262
四面	-10.2262
禎	-10.2267
餌	-10.2268
禮懴	-10.2268
隠	-10.2269
諭	-10.227
奕	-10.2272
泯	-10.2273
鱗	-10.2274
恃	-10.2274
舜	-10.2275
劒樹	-10.2276
萬國	-10.2277
社稷	-10.2277
禎祥	-10.2279
與我	-10.2279
轉經行道	-10.2286
使我	-10.2292
州縣	-10.2293
駕景	-10.23
散壇	-10.2306
赴壇	-10.2323
懇祈	-10.2329
未能	-10.2334
修道	-10.2339
去來	-10.2343
隨方	-10.2347
河源	-10.2352
華池	-10.2354
浮空	-10.2355
敬聽	-10.2361
將來	-10.2364
梵炁天君	-10.2371
替	-10.2371
贖	-10.2372
琳琅	-10.2375
敦	-10.2376
疇	-10.2376
播	-10.2377
後聖	-10.2378
罵	-10.2378
奴婢	-10.2378
蠢動	-10.2379
凋	-10.2383
四象	-10.2384
无量度人	-10.2384
展轉	-10.2386
帝東華南極西靈北眞玄都玉京金闕七	-10.2392
泰山	-10.2398
萬姓	-10.2406
昇度	-10.2409
衣食	-10.2411
之所自然生金液丹碧芝英百靈衆	-10.2418
投誠	-10.2422
離苦	-10.2437
寂然	-10.2439
乗晨	-10.2446
求乞	-10.2452
所見	-10.2454
厄難	-10.2456
欲望	-10.2458
災凶	-10.246
符告文	-10.2472
攻	-10.2475
隻	-10.2475
壬癸	-10.2476
顏	-10.2476
叱	-10.2478
崔	-10.2478
費	-10.2478
戢	-10.248
城隍社令	-10.2481
道果	-10.2482
浹	-10.2482
耽	-10.2483
蹈	-10.2485
點	-10.2486
貧窮	-10.2487
青詞	-10.2488
公私	-10.2492
紫陽	-10.2496
黙念	-10.2503
愼之	-10.2508
疫鬼	-10.2512
具法位姓某	-10.2527
靈寳符命	-10.2528
皇后	-10.2544
修建	-10.2551
輕重	-10.2553
前世	-10.2554
隂精	-10.2563
賣	-10.2578
掾	-10.2578
玄㝠	-10.258
五雷	-10.258
毁	-10.2581
叙	-10.2582
荆	-10.2582
侣	-10.2582
仰惟	-10.2586
謫	-10.2586
鼔	-10.2586
湧	-10.2587
霓	-10.2588
暦	-10.2592
飬	-10.2593
占	-10.2594
指揮	-10.2595
无常	-10.2595
恚	-10.2597
鍊形	-10.2598
暘谷	-10.26
書章	-10.2603
考校	-10.2603
孝道	-10.2605
資薦	-10.261
六月	-10.261
昇玄	-10.261
甲寅	-10.2611
刀兵	-10.2613
告齋	-10.2619
靈音	-10.2627
閉目	-10.263
結成	-10.2633
諸獄	-10.2635
返生	-10.2637
吾今	-10.2638
飛升	-10.2652
中嶽	-10.2662
生成之	-10.2665
宣揚	-10.2668
一丈	-10.267
所屬	-10.2683
的	-10.2687
瀛	-10.2691
拔贖	-10.2692
遽	-10.2695
讎	-10.2699
燒香頌	-10.2705
皇夫人	-10.2722
聦明	-10.2722
回靈	-10.2744
二尺	-10.2761
所說	-10.2764
乗雲	-10.2774
籍師	-10.2787
存想	-10.2793
素靈	-10.2798
詐	-10.2801
度人上品妙經	-10.2803
嘘	-10.2804
優	-10.2804
炷	-10.2806
璇	-10.2808
簾	-10.2811
焼香	-10.2812
炁一口	-10.2815
下土	-10.2817
齋事	-10.2818
壬午	-10.2822
千年	-10.2833
壽域	-10.2836
甲午	-10.2838
妻子	-10.284
六趣	-10.2853
超升	-10.2857
縣城隍	-10.287
行道請法衆等運兹	-10.2881
布化	-10.2883
萬民	-10.2888
髙上玉皇十方巳得道大聖衆至眞諸君	-10.2901
陞	-10.2903
碎	-10.2905
阜	-10.2906
橫	-10.2906
開泰	-10.2909
囚徒	-10.2912
銖	-10.2912
酸	-10.2912
汎	-10.2913
灼	-10.2913
聿	-10.2913
朋	-10.2913
鎻	-10.2914
謙	-10.2915
愧	-10.2916
禮方懴方	-10.2917
家庭	-10.2917
蕃	-10.2918
竪	-10.292
肘	-10.2924
騎吏	-10.2927
頓首	-10.2938
靈童	-10.294
來臨	-10.2942
升入	-10.2947
三洞法師	-10.2951
終獻	-10.2955
惡鬼	-10.2957
二十三	-10.2958
流輝	-10.2962
聖旨	-10.298
慈雲	-10.2997
耳目	-10.3003
門外	-10.3005
鬼官	-10.3008
持齋	-10.301
兆身	-10.3013
上宰	-10.3015
照應	-10.3019
七曜	-10.3019
苦海	-10.3022
藩	-10.3022
瓶	-10.3023
奮	-10.3025
廣成先生杜光庭	-10.3026
至心皈命	-10.3032
島	-10.3032
身與我神	-10.3033
旺	-10.3034
徃來	-10.3037
虎狼	-10.3041
𡨚愆	-10.3043
女子	-10.3049
官事	-10.3049
學士	-10.3051
兆民	-10.3053
考官	-10.3062
威光	-10.3065
紫戸	-10.3067
善縁	-10.3068
賢者	-10.3072
存念	-10.308
某上啓	-10.3098
皆由	-10.3101
十一月	-10.3107
鬼兵	-10.3107
伏乞	-10.3108
年月	-10.3109
聦	-10.3113
法雨	-10.3114
流演	-10.3115
隅	-10.3118
饑	-10.3125
底	-10.3132
警	-10.3134
脂	-10.3134
瀹	-10.3135
恠	-10.3136
蒸	-10.3138
陶鎔	-10.3138
嚴裝	-10.3138
三天大法師	-10.314
斗極	-10.3142
厨	-10.3143
饗	-10.3145
建壇	-10.3145
寃	-10.3145
般	-10.3145
流浪	-10.3163
青玄黄籙	-10.3169
仰荷	-10.3176
甲辰	-10.3181
去處	-10.3199
更相	-10.32
解穢	-10.3208
大慈大悲	-10.3211
並用	-10.3213
幽冥	-10.3222
五濁	-10.324
鈕	-10.3242
合屬去處	-10.3243
巢	-10.3246
黨	-10.3247
眇	-10.3249
爵	-10.325
記名	-10.325
遶	-10.325
佇	-10.3251
悠悠	-10.3252
闔	-10.3253
九龍符命	-10.3253
預修弟子某	-10.326
讓	-10.3262
逺近	-10.3263
方隅	-10.3264
兮	-10.3268
三界官屬	-10.327
雷電	-10.327
百千萬	-10.3275
靡不	-10.328
瑶壇	-10.3296
白鶴	-10.3297
累劫	-10.3307
輪廻	-10.3322
紫金	-10.3328
福禄	-10.333
門庭	-10.3333
衣食自然	-10.3334
一枚	-10.3337
許君	-10.3338
太上大道君	-10.3338
掘	-10.3347
登壇	-10.3351
嘆	-10.3355
五尺	-10.3355
掛	-10.3356
天眞皇人	-10.3357
噀	-10.3362
濫	-10.3363
驅邪院	-10.3363
蛻	-10.3364
眄	-10.3365
績	-10.3366
菲	-10.3367
下情無任	-10.3368
敵	-10.3369
淮	-10.3369
隴	-10.3369
十二河源	-10.337
官君將吏	-10.3371
煥爛	-10.3373
碧玉	-10.3375
樞機	-10.3382
彌羅	-10.3387
星君北斗	-10.3405
金科	-10.3406
土地里域眞官正神急上關啓	-10.3409
德得道之後	-10.3464
涼	-10.3468
汲	-10.3469
葬	-10.3472
憶	-10.3473
柄	-10.3473
嗟	-10.3477
渴	-10.3478
灾	-10.348
澡	-10.3481
萃	-10.3482
漫	-10.3482
霽	-10.3482
緋	-10.3483
㳙	-10.3483
金石	-10.3483
藻	-10.3484
栖	-10.3485
轅	-10.3486
鄕	-10.3486
強	-10.3486
剔	-10.3486
幾晝夜	-10.3487
墀	-10.3489
顚倒	-10.349
香燈	-10.349
衆等志心皈命	-10.3493
洞天仙官	-10.3498
森羅	-10.3508
愚人	-10.3511
追䰟	-10.3511
符醫	-10.3512
初獻	-10.3522
不肯	-10.3523
衣冠	-10.3537
五榖	-10.3546
千災	-10.3549
動靜	-10.3565
東海	-10.3571
則上明天尊大慈之化下副	-10.3575
即俾	-10.3576
邪魔	-10.3583
隣	-10.3595
度人經	-10.3595
構	-10.3596
仙化成人	-10.3596
據齋意	-10.3596
托	-10.3597
懈	-10.3599
倘	-10.3599
唎	-10.3601
頥	-10.3601
九天普度院	-10.3601
銜	-10.3603
口訣	-10.3603
郷里	-10.3605
良乆	-10.3608
賀	-10.3616
誦詠	-10.3622
俯賜	-10.3626
驅除	-10.3652
表文	-10.3664
暑	-10.3668
宣詞	-10.3698
萬丈	-10.3707
二十一	-10.3708
翫	-10.3715
痾	-10.3715
諸君丈人	-10.3715
熾	-10.3716
得道之後升入無形	-10.3716
岱	-10.3716
斡	-10.3717
蝕	-10.3717
諧	-10.3718
喚	-10.3718
燕	-10.3719
叛	-10.3719
鞅	-10.3721
貢	-10.3721
猛獸	-10.3722
床	-10.3723
死籍	-10.3723
嗜	-10.3724
國祚	-10.3742
洞微髙士開光救苦眞人𡩋全	-10.3786
江河	-10.3794
先世	-10.3806
三十六部尊經	-10.3813
十惡	-10.3814
徵	-10.3827
壑	-10.3829
徽	-10.3831
頻	-10.3833
𦤺	-10.3834
蓬萊	-10.3834
註	-10.3835
叶	-10.3836
酌	-10.3836
琴	-10.3837
壓	-10.3838
䢖	-10.3838
沛	-10.3838
纎	-10.3838
霹	-10.3839
渺	-10.3839
聳	-10.384
萌	-10.384
四肢	-10.3845
覩光明	-10.3848
金童玉女	-10.385
尚慮	-10.3855
靈寳大法司	-10.3856
鬱絶	-10.386
稱揚	-10.3873
歸依師尊大聖衆至眞之德得道之後	-10.3874
齋醮	-10.3876
玉曆	-10.3888
重泉	-10.3917
安泰	-10.3928
後學	-10.394
攝醫	-10.3946
辦	-10.3951
誹謗	-10.3954
瓦	-10.3956
姓某承誥奉行	-10.3956
寺	-10.3958
亘	-10.396
泊	-10.396
肅清	-10.3962
睦	-10.3964
羙	-10.3964
瑤	-10.3965
擒	-10.3965
仞	-10.3968
思念無量普	-10.3969
顛倒	-10.3969
書刀一口	-10.3969
九炁天君	-10.397
𡨚債	-10.3972
吐納	-10.3972
尺二寸	-10.3972
鄧	-10.3973
升度	-10.3976
黒簿	-10.3978
三十二天帝君	-10.3986
惡業	-10.4008
具載	-10.4013
帝庭	-10.4015
君官將百二十人	-10.4016
關奏	-10.403
朱表	-10.4055
兵士十萬	-10.4062
門戸	-10.4067
聖母	-10.407
豆	-10.4072
儒	-10.4074
仕	-10.4075
駭	-10.4078
拒	-10.4079
屠割	-10.4079
舘	-10.4083
濡	-10.4083
炳	-10.4084
麥	-10.4085
浮黎	-10.4085
億曽萬祖	-10.4088
君一人官將百二十人上請	-10.4088
凢	-10.4089
娑	-10.4089
躭	-10.4089
莫測	-10.4096
愆尤	-10.4096
益筭	-10.4098
動主	-10.4099
削落	-10.4108
四十八	-10.4109
三官大帝	-10.411
四寸	-10.4115
妄想	-10.412
出者嚴裝關啓玄壇天帝神君當召此間	-10.4123
種民	-10.4126
道德天尊	-10.4127
等皈身皈神皈命首體投地	-10.4137
金銀	-10.4138
救護	-10.4143
輝華	-10.4148
事竟	-10.4158
飛潜	-10.4178
粒	-10.4193
混洞	-10.4196
賈	-10.4199
羲	-10.42
盆	-10.4201
銘	-10.4203
探	-10.4204
名山洞府	-10.4205
塡	-10.4205
冨	-10.4208
弓	-10.4208
麾	-10.4208
大慈大悲大聖大願隨機赴感發誓度人	-10.4208
盂	-10.4211
鍳	-10.4211
誘	-10.4212
頑	-10.4212
瞋	-10.4214
饒	-10.4214
誑	-10.4215
本𣲖	-10.4217
奎	-10.4217
恍	-10.4222
護持	-10.4228
尊卑	-10.4231
太歲	-10.4234
歡樂	-10.4246
下愚	-10.425
運限	-10.4257
真人玉清	-10.4265
玄穹	-10.4269
窮魂	-10.4273
歸位	-10.4295
攝書符唵	-10.4297
等至心稽首禮	-10.4305
三十六部尊經玄中大法師上相上宰	-10.4318
畔	-10.4323
浩蕩	-10.4327
笥	-10.4332
汨	-10.4334
飛龍騎吏	-10.4335
鄙	-10.4335
漂	-10.4335
生身受度	-10.4336
迓	-10.4336
瀝	-10.4337
葩	-10.4337
三萬六千	-10.4338
蔵	-10.4342
鼓舞	-10.4342
抽	-10.4344
凰	-10.4345
鉞	-10.4346
日月星辰	-10.4353
甲戌	-10.4356
宅舍	-10.4357
送迎	-10.4366
善果	-10.4368
紫宸	-10.4369
元始天尊太上大道君太上老君	-10.4371
无邊	-10.4379
無疆	-10.4386
空歌	-10.44
皇家	-10.4406
制魔	-10.4407
官將百二十人	-10.4418
五篇	-10.4425
國家	-10.4427
者見世	-10.4429
申狀	-10.4431
卯文	-10.4436
引魂	-10.4442
輸	-10.4453
南向	-10.4457
道都大主者	-10.4459
垠	-10.4463
廚	-10.4464
重稱法位具位	-10.4465
今故燒香自皈依師尊大聖衆至	-10.4467
无上三天玄元始三炁太上道君召出	-10.4467
道德日	-10.4468
晃	-10.4468
綴	-10.4468
超淩	-10.4468
后土皇地祇	-10.4469
絕	-10.447
亢	-10.4472
光芒	-10.4473
炎光	-10.448
率土	-10.4484
昭回	-10.4524
玉局	-10.4536
黄紙	-10.4543
和釋	-10.4553
裁	-10.4582
冤	-10.4583
梯	-10.4583
冥冥	-10.4584
孽	-10.459
肥	-10.459
蘿	-10.4592
歸身歸神歸命	-10.4592
顚	-10.4593
善男子善女人	-10.4594
諸省府院司	-10.4595
帷	-10.4595
學道得道求仙得仙齋主受福幽顯	-10.4595
沸	-10.4595
髴	-10.4597
駟	-10.4597
榆	-10.4597
𨇠	-10.4598
曹僚	-10.46
津梁	-10.4605
校録	-10.4618
切慮	-10.462
百骸	-10.4625
元始上帝	-10.4665
永斷	-10.4684
劫劫	-10.4703
罵詈	-10.4718
𨽻	-10.4719
三清上聖十極髙眞	-10.4729
渺渺	-10.4729
綿綿	-10.473
琳	-10.473
撓	-10.4733
神龍王	-10.4733
葷	-10.4735
烹	-10.4735
黄華蕩形	-10.4737
臨軒	-10.4743
興隆	-10.4744
平旦	-10.4757
蕩穢	-10.4773
鬼賊	-10.4786
禍福	-10.4833
火車	-10.4838
洋	-10.4845
妾	-10.4847
庚辛	-10.4851
迢	-10.4855
扃	-10.4855
捐	-10.4857
眠	-10.4858
鴈	-10.4858
太一救苦天尊	-10.4859
天地水三官	-10.486
穰	-10.486
鄰	-10.4861
渡	-10.4861
係薦	-10.4863
狐	-10.4863
乍	-10.4863
稽首皈依䖍誠讃詠	-10.4864
窈	-10.4864
煌	-10.4865
天丁力士	-10.4866
籥	-10.4866
五炁天君	-10.4866
縳	-10.4868
寂寂	-10.4884
几前	-10.4897
西嶽	-10.49
㝠㝠	-10.4926
玉皇上帝御前	-10.4968
思惟	-10.4974
兵士	-10.4975
靈寳玉鑑卷之	-10.4983
太一救苦天尊至心朝禮	-10.4986
霈	-10.4989
熖	-10.499
涵濡	-10.4992
不測	-10.4994
干冐	-10.4994
霓旌	-10.4995
琅函	-10.4995
愁	-10.4995
上祝皇帝陛下伏願	-10.4995
逍遥快樂天尊	-10.4995
咀	-10.4996
禧	-10.4997
閻	-10.4999
三部八景	-10.5005
遷賞	-10.5006
祭酒	-10.501
輪迴	-10.5014
故次之以	-10.502
證品	-10.5052
七政	-10.5055
破地獄	-10.5056
救苦眞人	-10.5079
演教	-10.5099
傾光	-10.5114
粮	-10.5122
屢	-10.5122
埃	-10.5124
談	-10.5128
寥廓	-10.5131
抄	-10.5132
梨	-10.5133
即得免	-10.5134
崇建某齋	-10.5134
各禮師存念如法	-10.5136
鳥獸	-10.5136
隨我神運	-10.5137
翩	-10.5138
摇	-10.5139
司主管天下	-10.5139
案判官嶽府第	-10.5139
倐忽	-10.514
三炁天君	-10.5141
不知所	-10.5148
黒鬱	-10.5153
悔過	-10.5156
灌注	-10.5157
玉女五帝直符直日香官各三十二人出	-10.5162
齋主某家	-10.518
正薦	-10.5216
請臣等	-10.5229
九幽地獄	-10.5235
譬	-10.524
譯文	-10.5253
杯	-10.5253
復次善男子	-10.5256
急急如上帝律令	-10.5259
太歲年月日	-10.526
夾	-10.5264
塗炭	-10.5264
粟	-10.5266
苗	-10.5266
以昭宸貺干冒	-10.5267
遼	-10.5268
皇中元祈請大齋臣等誠愚誠魯非賛大	-10.5268
或民庶之多難覩此物	-10.5268
洞神之法立墠設位象三十六天燒香然	-10.5268
用叩天恩冀社稷之尊隆庶民物之康阜	-10.5268
海災消禎祥雲集八節安和一切羣生咸	-10.5268
臨億兆任重嵩恒道慕堯舜旣纉承於大	-10.5268
於鴻覆生靈曷遂於燕安或旱澇之所災	-10.5268
恠夢消除二儀交泰則七曜調明風雨以	-10.5268
先亡同得離幽苦上昇福堂轉輪成眞利	-10.5268
爍	-10.5269
蔣	-10.527
毓	-10.5271
疊	-10.5272
苑	-10.5272
抗	-10.5272
蠱	-10.5273
蔚	-10.5274
溟涬	-10.5274
沴	-10.5275
枷	-10.5275
馥	-10.5275
燧	-10.5276
過去生	-10.5288
謹上啓	-10.5288
追薦	-10.529
清涼	-10.5292
天王姓	-10.5294
月一日	-10.5299
碧霞	-10.5306
瓊輪	-10.5312
告下具法位	-10.5321
詩書	-10.5323
天帝君上清	-10.5324
引旛	-10.5345
謹重誠上啓	-10.535
不得妄	-10.5353
削罪	-10.5369
中三五功曹左右官使者侍香金童傳言	-10.5374
上清靈寳行司	-10.5401
塚	-10.5403
暖	-10.5403
髙上玉皇	-10.5406
偷	-10.5407
七祖一切	-10.5408
當今皇帝遇荷玄恩幸藉餘慶屬當萬機	-10.5409
燈應三十六地消釋幽闇招引神明爲某	-10.5409
罔極之澤垂救度之福賜更造之仁使道	-10.5409
悔丹誠以是功德歸流某七廟之靈九玄	-10.5409
暄涼應節黎庶咸安兵戈止息天下太平	-10.5409
挾	-10.5409
捲	-10.5409
吕	-10.5412
宇宙	-10.5412
邀	-10.5412
粲	-10.5412
脊	-10.5413
哺	-10.5413
勘	-10.5415
鷄	-10.5417
霐	-10.5417
滛	-10.5418
靜黙堂	-10.5419
笏	-10.5421
勾陳	-10.5427
詞㫖	-10.5432
歷劫	-10.5449
經絡	-10.5452
嘯命	-10.5466
得解脫	-10.5473
肅建	-10.549
福郷	-10.5502
福地主仙録君	-10.5514
認	-10.5545
須至申聞者右謹具狀上申	-10.5547
七宿星君	-10.5551
鬱單	-10.5551
郁	-10.5551
畧	-10.5552
摽露眞文揚旛請命披心散	-10.5552
三啓頌	-10.5552
腫	-10.5553
裘	-10.5553
渇	-10.5553
六道四生孤魂滯魄	-10.5553
盞	-10.5553
𥿄	-10.5554
紋繒	-10.5554
學道得道求仙得仙	-10.5555
經籍度師	-10.5556
茫茫	-10.5556
崐	-10.5557
逰	-10.5559
匠	-10.5561
奬	-10.5561
𥘉	-10.5562
殗	-10.5567
觸犯	-10.557
睿號	-10.557
司額	-10.5576
水旱	-10.5587
如上法	-10.5609
流芳	-10.5621
九圍	-10.5635
昊	-10.5641
洞徹	-10.5655
燈燭	-10.5667
纔	-10.5682
規	-10.5693
簮	-10.5696
三界應感一切眞靈	-10.5696
攄	-10.5697
靣	-10.5698
粉	-10.5698
硯	-10.57
敢不上聞	-10.57
搆	-10.5702
韜	-10.5704
姓某上表	-10.5706
懇禱	-10.5709
各稱法位	-10.5714
輕泄	-10.5714
等皈身皈神皈命首體投地仰依太上三	-10.5716
召役	-10.5718
隱語	-10.5755
至心朝禮	-10.5771
増延	-10.5774
災衰	-10.5819
與道合	-10.5824
蠲消	-10.5835
懿	-10.5835
薰	-10.5836
八紘	-10.5843
崩	-10.5843
辜	-10.5844
駒	-10.5845
悅	-10.5846
乞丐	-10.5849
嫉	-10.585
洞天福地	-10.585
艱	-10.585
貟	-10.5852
吉慶	-10.5852
无上黃籙大齋	-10.5855
䰟𩲸	-10.5858
齋官上香	-10.5864
稽首再拜	-10.5864
戊已	-10.5871
歩罡	-10.5877
頭戴	-10.5882
靈寳大法	-10.5885
吉祥	-10.5888
詞旨	-10.5889
紫户	-10.5896
元始天尊太上道君太上老君	-10.594
焼	-10.5968
箭	-10.5975
臟	-10.5975
本命元辰	-10.5985
暁	-10.5985
馘	-10.5988
䂓	-10.5991
箇	-10.5991
閱	-10.5992
遂成金剛體超度三界難地	-10.5992
屯	-10.5992
獵	-10.5993
弊	-10.5993
浣	-10.5994
評	-10.5995
㓜	-10.5996
奴	-10.5996
謹啓以聞	-10.5997
默	-10.5998
掾吏	-10.6002
罏	-10.6007
治病功曹	-10.601
小兒	-10.6013
講說	-10.6019
玊女	-10.602
覺悟	-10.6036
佐國	-10.6107
疼	-10.6129
墳	-10.6132
餓	-10.6136
搏	-10.6137
檀	-10.6138
金童傳言散花玉女五帝直符直日香官	-10.6139
援	-10.6143
險	-10.6145
予	-10.6145
柳	-10.6145
醜虜歸降某所苦某病即蒙差愈或官司	-10.6145
戚	-10.6146
討	-10.6147
忱恂	-10.6148
緒	-10.6149
奕奕	-10.6149
𦍙	-10.6151
奈	-10.6152
隱韻	-10.6157
年月日具位	-10.6165
丁卯	-10.6181
錢馬	-10.6184
殺害衆生或	-10.6193
形和與道合眞	-10.6227
各三十二人出出者嚴裝關啓	-10.6265
潰	-10.6289
刺	-10.6289
戶	-10.6289
廊	-10.6292
鐵圍	-10.6294
扆	-10.6295
寔	-10.6295
等身中即使玄壇清淨内外成眞天	-10.6298
猷之人特念巳叨	-10.6298
馮	-10.6298
煒燁	-10.6299
嫌	-10.6299
巳忝敢負登盟之誓謹共精嚴	-10.6299
福生無量天尊	-10.6299
真授靈寳通玄弘教水南先生林靈真編	-10.63
彚	-10.63
乂	-10.63
唵吽吽	-10.6301
魯	-10.6302
韶	-10.6302
囘	-10.6305
初捻上香願此香煙騰空	-10.6305
恍惚	-10.631
翊衞	-10.631
䑕	-10.6312
陶冶	-10.6312
芬	-10.6313
臂	-10.6321
燒香行道	-10.633
仍乞	-10.6333
飢寒	-10.6407
芝英百靈衆眞交㑹在此香火爐前令臣	-10.641
央	-10.6415
暇	-10.6452
忝	-10.6452
裔	-10.6452
航	-10.6452
緬	-10.6452
普告三界	-10.6453
㓂	-10.6453
鞭	-10.6453
睡	-10.6454
剥	-10.6454
皂	-10.6455
孩	-10.6455
殷	-10.6456
緲入大乗因心立福田靡	-10.6456
鍚	-10.6456
燈以照	-10.6457
迸	-10.6458
下情不勝	-10.6458
熒	-10.6458
儔	-10.6458
踊	-10.6458
落滅惡根	-10.6458
杓	-10.6459
肩	-10.646
各禮師存念如法衞靈	-10.646
吽	-10.6461
慙	-10.6461
胥	-10.6462
璃	-10.6462
綬	-10.6463
飴	-10.6463
父毋	-10.6464
沈淪	-10.6464
勤拳	-10.6467
瘟疫	-10.6473
鬱秀	-10.6474
之至謹稽首再拜	-10.6477
津液	-10.6482
朗徹	-10.6498
天帝君太清	-10.6507
叟	-10.66
濤	-10.6605
蠟	-10.6606
稱法位	-10.6608
疑惑	-10.6608
存神燒香香官使者左右	-10.6608
飮	-10.6609
同誠上啓	-10.661
凛	-10.6611
受化更生	-10.6612
督	-10.6614
漑	-10.6614
創	-10.6614
烽	-10.6615
飢渴	-10.6617
拳	-10.6618
鎔	-10.6619
匝	-10.6619
阻	-10.6619
桃康	-10.6619
抵	-10.662
架	-10.662
灌沐	-10.662
訾	-10.662
亡過某靈䰟	-10.6624
七炁天君	-10.6625
柰	-10.6625
四直功曹	-10.6631
三十二天上帝	-10.6631
夫妻	-10.6635
碧漢	-10.6638
飲酒	-10.664
魔試	-10.6645
霄衢	-10.6645
鬱羅	-10.6661
鞠	-10.6772
幼	-10.6773
山洞府得道神仙三界官屬一切眞靈臣	-10.6775
廟貌	-10.6777
巡	-10.6778
矯	-10.6781
糞	-10.6782
眷序	-10.6782
冉	-10.6783
嫉妬	-10.6784
稽首歸依	-10.6789
躔	-10.679
翊衛	-10.6791
河伯	-10.6797
志心朝禮大慈大悲	-10.6839
桐栢	-10.6917
樵	-10.6928
遜	-10.6929
偉	-10.6929
址	-10.6933
恭望聖慈允兹申請特降聖㫖	-10.6935
須至專牒者	-10.6936
亮	-10.6937
嗚	-10.6939
沒	-10.6939
鬱鬱家國盛濟濟經道興天人同其願縹	-10.694
剖	-10.694
义	-10.6941
竿	-10.6941
膀胱	-10.6942
莽	-10.6942
峙	-10.6944
司命六神	-10.6948
六十甲子	-10.6948
旋遶	-10.6949
上清天樞院	-10.695
噉	-10.6954
願得長生	-10.6954
五帝直符	-10.696
遷拔	-10.6977
小腸	-10.7054
漬	-10.7098
岡	-10.7099
欠	-10.7099
狄	-10.7102
矢	-10.7102
上無無至眞無上無爲大道應感眞精第	-10.7102
殞	-10.7103
奄	-10.7104
玉女五帝直符直日香官各三十六人出	-10.7104
呌	-10.7105
三途五苦	-10.7105
飜	-10.7105
蒙福慶俱服正教同歸自然得道之後與	-10.7105
寳瓊臺紫微上宫靈寳至眞明皇道君	-10.7107
北隂玄天酆都大帝	-10.7108
人各恭敬	-10.7108
干戈	-10.7109
流金火鈴	-10.711
酣	-10.7111
羞	-10.7111
羡	-10.7113
諾	-10.7113
翼翼	-10.7114
譽	-10.7114
寅卯	-10.7114
焚燎	-10.7115
梯航	-10.7115
十方救苦天尊	-10.7119
清泠	-10.7123
章從事	-10.7132
董	-10.7265
陁	-10.7266
泠	-10.7268
巫	-10.7269
畿	-10.7269
歷關諸天	-10.7271
踏	-10.7271
葺	-10.7273
楓	-10.7274
緘	-10.7275
囿	-10.7275
擢	-10.7275
髻	-10.7276
搜	-10.7276
丈人三十二天帝君玉虚上帝玉帝大	-10.7276
上生天堂	-10.7277
馳騁	-10.7278
祧	-10.7279
二捻上香願此香煙騰空	-10.728
咨	-10.728
豪	-10.728
蹕	-10.728
籟	-10.728
氲	-10.7281
挽	-10.7281
慚	-10.7282
玄都玉京	-10.7284
槖籥	-10.7284
劎	-10.7285
兎	-10.7287
羅絡	-10.7294
堅固	-10.7295
滯爽	-10.7301
厲	-10.7433
釘	-10.7437
雀	-10.744
拾	-10.7441
無色界	-10.7441
拭	-10.7441
析	-10.7442
顙	-10.7445
償	-10.7446
歟	-10.7447
針	-10.7447
洋洋	-10.7447
該	-10.7448
慘	-10.7448
瀾	-10.7448
須臾	-10.7449
斿	-10.7449
岫	-10.745
三啓三禮重稱法位具位	-10.745
爻	-10.7451
以是義故	-10.7452
跨	-10.7452
誠惶誠恐	-10.7452
東嶽泰山	-10.7454
燃	-10.7455
捷	-10.7456
妬	-10.7457
臭穢	-10.7459
澆	-10.746
呈祥	-10.7472
壬辰	-10.7473
今故燒香自歸依師尊大聖衆至	-10.7569
㓕	-10.7618
浸	-10.7619
志心歸命	-10.762
稻	-10.762
虐	-10.7621
除巳具奏諸天上帝申牒三界真司外	-10.7621
街	-10.7622
陷	-10.7622
達神氣和合靈官衛護	-10.7623
淑	-10.7625
皷	-10.7625
玉冠衣	-10.7626
稟	-10.7626
綂	-10.7628
往生神仙界	-10.7631
稔	-10.7631
錦帔	-10.7635
溉	-10.7635
都講舉	-10.7636
鹽	-10.7637
脇	-10.7637
偷盜	-10.7639
見有國王	-10.7678
元始天尊无極大道太上道君太上老君	-10.7777
𣈆	-10.7784
峩峩	-10.7793
吊	-10.7797
填	-10.7797
廼	-10.7798
啖	-10.7798
段	-10.7799
疫毒	-10.78
眞之德得道之後升入無形和與道合眞	-10.7801
鬢	-10.7801
獄五苦解悉歸太上經靜念稽首禮三禮	-10.7802
坑	-10.7802
𡨚親平等	-10.7802
昬	-10.7803
儉	-10.7803
寮	-10.7806
攪	-10.7806
籲	-10.7807
甫	-10.7808
讃歎	-10.781
形神俱妙	-10.7811
幷	-10.7811
㓗	-10.7811
雌雄	-10.7812
瞋怒	-10.7823
丁亥	-10.7936
樊	-10.7974
遮	-10.7975
彦	-10.798
太歳年月日具位姓某狀申申	-10.798
斜	-10.7983
德得道之後保天長存和與道合眞	-10.7984
儀璘	-10.7984
突	-10.7985
刼	-10.7985
輟	-10.7986
善哉善哉	-10.7986
鴻濛	-10.7989
眇眇	-10.7989
曇	-10.7989
彤	-10.799
醮詞伏以	-10.7991
熈熈	-10.7991
仗劒	-10.7992
彗	-10.7993
縮	-10.7994
蠕	-10.7997
牢獄	-10.7998
眞人志心朝禮大慈大悲大惠眞人	-10.7998
萬二千	-10.8001
𣗳	-10.8159
庇	-10.816
買	-10.8162
涕	-10.8162
恭望聖慈允兹申請	-10.8164
太歲年月日具位姓某狀申申	-10.8165
吁	-10.8166
酷	-10.8167
謐	-10.8167
塑	-10.8167
莖	-10.8168
菩	-10.8168
茫	-10.8169
旂	-10.817
等志心稽首禮三十六部尊經	-10.817
拊	-10.8171
篝	-10.8171
终	-10.8172
俞	-10.8172
旄	-10.8175
燄	-10.8176
洗滌	-10.8182
愼勿	-10.8182
丁酉	-10.8207
牘	-10.8209
岑	-10.8349
年歳次月日	-10.8349
中元玉籙簡文神仙品曰詣師威儀	-10.835
翰	-10.835
坦	-10.8351
話	-10.8351
九幽拔罪天尊	-10.8353
姓某狀奏	-10.8354
朱陵度命天尊	-10.8354
曁	-10.8354
一通上詣	-10.8355
香官使者	-10.8356
凉	-10.8356
冊	-10.8357
霏	-10.8357
織	-10.8357
蟾	-10.8357
方无極世界一切	-10.8358
𣗥	-10.8358
戹	-10.8359
祭祀	-10.8359
擕	-10.836
誨	-10.8361
㐲	-10.8361
囂	-10.8367
玲瓏	-10.8367
劣	-10.8368
魁罡	-10.8369
挑	-10.837
鈎	-10.8374
學上道	-10.8383
肯	-10.8469
薪	-10.8537
摶	-10.8539
狹	-10.854
墻	-10.854
褒	-10.8546
覧	-10.8546
簫	-10.8546
軰	-10.8547
啄	-10.8547
髙上神霄玉清眞王	-10.8548
渾	-10.8548
隊	-10.8549
駢	-10.855
劇	-10.855
𡖖	-10.8551
徨	-10.8551
伍	-10.8551
飊	-10.8552
志心稽首禮玄中大法師重稱法位具位	-10.8553
唾	-10.8553
弦	-10.8553
溷	-10.8553
君一人官將百二十人	-10.8554
九眞妙戒	-10.8555
疰	-10.8555
弔	-10.8555
南極長生大帝	-10.8556
燒香然燈	-10.8556
僣	-10.8557
飛仙眞人名山洞府得道神仙諸靈官	-10.8557
亡故某乙	-10.8559
天樞院	-10.8559
兔	-10.856
亦得飛仙	-10.8707
臓	-10.8724
存神燒香	-10.8729
聰	-10.8729
癩	-10.8731
粗	-10.8735
刄	-10.8736
襄	-10.8738
應干合屬去處	-10.8739
䧟	-10.8741
賫	-10.8742
左右龍虎君	-10.8742
禆	-10.8742
腐	-10.8743
廻骸起死	-10.8743
窟	-10.8744
鄷	-10.8744
澹	-10.8745
某誠惶誠恐稽首頓首再拜上言	-10.8747
疵	-10.8747
萬變混沌玄元老君	-10.8747
見在使陵廟墳基肅寧殃注斷絶宫宅安	-10.8748
魍魎	-10.8748
濳	-10.8748
疲	-10.8748
飡	-10.8748
啼	-10.8748
擔	-10.8749
亡親某乙	-10.8749
璨	-10.875
喝	-10.875
詵詵	-10.8751
槐	-10.8754
次都講唱	-10.8754
謌	-10.8755
昇入无形和與道合眞	-10.876
大聖衆至眞諸君丈人	-10.8768
儀卷一百	-10.8771
速達徑御	-10.8775
虎豹	-10.8785
至心稽首禮三十六部尊經	-10.8787
等皈命之誠謹啓以聞	-10.8899
十尺	-10.8918
系	-10.8932
等身中三五功曹左右官使者侍香	-10.8933
悌	-10.8934
硤	-10.8936
褁	-10.8937
宦	-10.8937
歇	-10.8937
告下具位姓某承誥奉行謹封	-10.8938
飛天神王長生大聖無量度人君	-10.8942
天玉闕宣化扶敎上仙昭靈博濟髙明弘	-10.8942
顛	-10.8943
菜	-10.8943
璣	-10.8943
巵	-10.8945
儻	-10.8946
滴	-10.8946
璫	-10.8946
蒲	-10.8946
袖	-10.8949
薫	-10.8949
忿	-10.895
訛	-10.895
貧賤	-10.895
閬	-10.895
悶	-10.8952
裹	-10.8953
七月七日	-10.8956
㡬	-10.8956
無量劫來	-10.8956
稷	-10.8958
叩齒三十六通	-10.8958
囉	-10.8959
竇	-10.8963
鉛汞	-10.8977
薛	-10.9132
迨	-10.9138
粘	-10.9138
燥	-10.9139
偕	-10.914
各禮師存念如法宣衛靈呪	-10.9141
厠	-10.9142
朕	-10.9144
屠	-10.9144
年月日牒具法師衘位姓押	-10.9145
玄壇天帝神君當召此間土地里域眞官	-10.9145
諮	-10.9146
靜冲湛妙應仁惠輔國佑民洪恩眞君	-10.9146
弧矢	-10.9146
出家法身	-10.9146
鷺	-10.9147
軒轅	-10.9148
嚼	-10.9148
掐中指	-10.9149
醮詞伏聞	-10.9149
纓	-10.915
供飬	-10.9151
頽	-10.9151
翩翻	-10.9152
德得道之後保天長存	-10.9152
左右捧香驛龍騎吏侍香金童傳言	-10.9152
来	-10.9152
經籍度三師	-10.9154
縷	-10.9155
拳拳	-10.9155
侮	-10.9157
寐	-10.9158
蕃釐	-10.9159
謹言年月日具位	-10.9161
岐	-10.9163
卿司命茅君定録保命二眞人名	-10.9244
瘧	-10.9339
貯	-10.9349
捻	-10.9349
蜜	-10.9352
肚	-10.9352
掣	-10.9354
莅	-10.9355
懐	-10.9355
燼	-10.9355
堆	-10.9355
栁	-10.9355
綍	-10.9357
白日昇天	-10.9357
梧	-10.9357
飭	-10.9358
北方无極太上靈寳天尊	-10.9358
噴	-10.9358
恭望聖慈允茲申請	-10.9358
𣲖	-10.9358
圜	-10.9359
清萬魔不干眞誠上徹令	-10.9359
九江水帝	-10.9359
憇	-10.936
向來所啓之誠速達俓御	-10.936
鋉	-10.9361
貸	-10.9361
無上三天玄元始三炁太上老君召出	-10.9361
旒	-10.9362
絞	-10.9362
一合來下	-10.9362
詮	-10.9362
妹	-10.9363
梵炁彌羅	-10.9364
掖	-10.9365
恡	-10.9365
應時下降	-10.9367
曹仙官下元	-10.9367
圍繞	-10.9375
牝	-10.9377
浩浩	-10.9389
炁入符	-10.9442
北極紫微大帝	-10.9504
瀑	-10.9554
瀉	-10.9557
匱	-10.9558
亹	-10.9563
蔡	-10.9564
以爲效信	-10.9565
璈	-10.9565
侃	-10.9565
无上黄籙大齋立成儀卷之	-10.9565
㣲	-10.9566
鋤	-10.9566
𧵥	-10.9566
蒨	-10.9568
較	-10.9568
某身原赦宿新無量罪咎矜奬即今	-10.957
徊	-10.9571
痢	-10.9571
南方无極太上靈寳天尊	-10.9571
逈	-10.9572
柯	-10.9573
雕	-10.9573
長一尺二寸	-10.9573
箱	-10.9573
幘	-10.9574
叩齒十二通	-10.9574
瑟	-10.9574
轝	-10.9575
閤	-10.9575
紛葩	-10.9575
疾除罪簿	-10.9576
甄	-10.9578
鴛	-10.9578
梵監須延天	-10.958
俠	-10.958
耿	-10.9582
今謹有黄籙大齋主某	-10.9584
鶉	-10.9587
昏衢	-10.9587
眞交㑹在此香火爐前令	-10.9654
黃籙大齋	-10.974
緩	-10.9773
淚	-10.978
喃	-10.9781
九州社令	-10.9784
頴	-10.9784
蓊	-10.9785
咫尺	-10.9785
陪	-10.9786
一如靈寳玄壇律令	-10.9787
北極四聖眞君	-10.9787
溥濟清微洞玄冲虚妙感慈惠	-10.9787
喧	-10.9788
寸二分	-10.9788
未敢擅便須至申聞者右謹具狀上申	-10.9789
𩥵	-10.979
日積月累	-10.979
蠢	-10.9791
揆	-10.9791
賁	-10.9792
百姓子男女人	-10.9792
禹餘天	-10.9793
三河四海	-10.9794
迴骸起死	-10.9794
今日道場大衆人各運心	-10.9795
所啓速達俓御	-10.9795
各二十四人出	-10.9795
螭	-10.9796
兠	-10.9796
千乗萬騎	-10.9798
悠	-10.9799
蟠	-10.9801
瞑	-10.9809
等謹同誠上啓	-10.9989
肢	-10.9991
竄	-10.9994
匹	-10.9995
邵	-11
欎	-11
鏘	-11.0002
凍	-11.0003
詳前項事理疾速	-11.0003
北魁玄範府	-11.0004
袋	-11.0004
監眞度生	-11.0005
芥	-11.0006
鏤	-11.0007
以是因縁	-11.0007
女青詔書	-11.0008
清衆運誠	-11.0009
芙蓉	-11.0009
九天金闕明道達德大仙顯靈	-11.001
護國庇民洪恩眞君志心皈	-11.001
三日三夜	-11.001
地道功曹	-11.0011
衆災度脫壽命延長	-11.0011
帯	-11.0011
總眞王君太乙眞人東嶽上	-11.0011
僊	-11.0011
棟	-11.0011
蒂	-11.0012
翺翔	-11.0013
等志心稽首禮太上无極大道	-11.0013
躁	-11.0013
猿	-11.0014
缸	-11.0016
范	-11.0016
璇璣玉衡	-11.0018
卵	-11.0018
邃	-11.0021
姚	-11.0202
豹	-11.0203
槌	-11.0214
撥	-11.0225
諶姆	-11.0227
膿	-11.0229
轉輪聖王天尊	-11.0231
仭	-11.0233
八萬四千	-11.0234
願神願仙	-11.0235
蒿	-11.0235
殆	-11.0236
絃	-11.0236
泓	-11.0236
未敢擅便須至奏聞者右	-11.0236
杳杳	-11.0238
𠃔	-11.0239
社稷尊靈	-11.0239
璞	-11.0239
汪	-11.024
㐫	-11.0241
藪	-11.0242
九老仙都	-11.0242
昆	-11.0243
無鞅數衆	-11.0243
健	-11.0243
湘	-11.0246
巴	-11.0246
竺	-11.0248
閶闔	-11.025
翅	-11.0252
謹言年月日具位臣姓某上表	-11.0252
緊	-11.0254
娥	-11.0255
痒	-11.0287
願以是功德歸流	-11.0357
當須讃歎	-11.0446
膠	-11.0464
干冒聖威下情无任惶懼之至謹狀	-11.0465
崑	-11.0466
轗	-11.0467
帖	-11.0467
以今晚朝行道請法衆等運兹	-11.047
普及幽冥𡨚親平等	-11.047
姊	-11.0471
按如詞言	-11.0471
聆	-11.0471
謹封方函	-11.0471
犂	-11.0472
逭	-11.0474
宣詞按如詞言	-11.0474
葱	-11.0474
裴	-11.0474
徤	-11.0476
監齋大法師	-11.0476
席二領	-11.0477
謨	-11.0477
軟	-11.0479
嬪	-11.0481
解𡨚釋結	-11.0485
與臨壇官衆等謹重誠上啓	-11.0553
三捻上香願此香	-11.0583
太上老君太上丈人	-11.0689
漆	-11.0691
譜	-11.0696
庻	-11.0699
叚	-11.0701
聊	-11.0701
术	-11.0701
謳	-11.0705
惻	-11.0706
廽	-11.0707
億劫種親	-11.0708
擅	-11.0708
名山大川	-11.0708
毎省惕於眇躬道俗凌夷淳化難振隂翊	-11.0708
浙	-11.0708
笙	-11.0709
囑	-11.0709
昇天堂衣食自然	-11.0709
蘋蘩	-11.071
蜃	-11.0711
潘	-11.0713
凄	-11.0714
上相上宰上保上傅	-11.0715
好生度命天尊	-11.0716
恭望洪慈	-11.0716
石景水母	-11.072
决	-11.072
誣	-11.0722
杏	-11.0724
升入無形和與道合眞	-11.0725
韋	-11.0935
詰	-11.0939
同登福境	-11.0943
暘	-11.0944
淹	-11.0945
夣	-11.0945
綜	-11.0947
壅	-11.0947
青靈始老	-11.0948
三官九署	-11.0949
臣某等上啓太	-11.0949
具位臣姓某謹據	-11.0949
沃	-11.0949
月日時生行年若干歳伏念某	-11.0949
跛	-11.0949
閃	-11.095
咸乞蕩除	-11.095
作是念	-11.0951
唵吽吒唎	-11.0951
暝	-11.0952
今醮官某	-11.0952
⬤	-11.0953
靈寳五師眞君	-11.0954
鯨	-11.0954
昻	-11.0955
𢘆	-11.0957
翮	-11.0957
天尊志心敬禮太一救苦天尊志心敬禮	-11.0958
人志心敬禮大慈救苦真人志心敬禮大	-11.0959
麒	-11.096
熒煌	-11.096
戯	-11.0961
模	-11.0963
媾	-11.0965
團	-11.0965
鼈	-11.0967
觜	-11.0967
席一領	-11.0973
俟命之至	-11.1184
幣	-11.1189
無始以來	-11.119
僉	-11.1192
直日香官	-11.1198
祿	-11.1199
太妙至極	-11.12
涉	-11.1202
斂	-11.1202
鈔	-11.1202
今將聖德	-11.1202
𤑔	-11.1202
告文太上符命告下	-11.1203
刷	-11.1203
𠂻	-11.1203
守一之元	-11.1204
无上黃籙大齋立成儀卷之	-11.1204
徇	-11.1204
遍十方際盡玄虚界	-11.1205
三捻上香願此香煙騰空	-11.1207
上元金籙簡文眞仙品曰然燈威儀	-11.1207
覔	-11.1208
上官典者	-11.1208
普慈護國天尊志心敬禮	-11.1209
純嘏	-11.1209
伽	-11.121
晻	-11.1211
氐	-11.1211
藝	-11.1211
度爲弟子某	-11.1212
叉	-11.1215
速逹俓御太上无極大道至眞玉皇上帝	-11.1217
靖廬仙官	-11.1228
某與臨壇官衆等	-11.1384
香一斤	-11.1444
自今月某日爲始	-11.1453
盥	-11.1453
䆫	-11.1453
沿	-11.1453
粤	-11.1454
章具法位上言謹按文書	-11.1454
靈寳監齋大法師眞君	-11.1454
牖	-11.1456
上品妙經人各一	-11.1456
結至謹狀	-11.1459
䖍誠讃願賜威光鑒此忱願共諸有情同	-11.1459
命禮威震雷霆澤垂雨露神通自在	-11.1459
轍	-11.1459
靡法輪昇七祖生天堂我身白日騰	-11.1461
無氛穢地絶妖塵琳琅振響十方肅	-11.1461
僻	-11.1462
涌	-11.1462
方无極飛天神王長生大聖无量度人君	-11.1462
庠	-11.1462
一行官吏	-11.1462
猪	-11.1462
呬	-11.1464
衮衮	-11.1464
玄一三眞人	-11.1465
志心敬禮隨願往生天尊志心敬禮	-11.1465
州社令司主者	-11.1465
諂	-11.1465
不勝䖍祝之至	-11.1465
太上洞淵神呪經卷之	-11.1465
紋之繒	-11.1468
曹太玄下元	-11.1469
曹太玄中元	-11.147
眀	-11.147
煦	-11.1471
批	-11.1478
玉皇大天尊玄穹髙上帝	-11.1644
先生林靈眞編科儀立成品	-11.1686
司判官志心敬禮	-11.1698
捍	-11.1706
蒭	-11.1714
隙	-11.1714
叢	-11.1714
霖	-11.1716
恭望道慈	-11.1716
滑	-11.1717
畒	-11.1717
皁	-11.1718
将	-11.1718
紗	-11.172
袂	-11.172
鏞	-11.172
蟬	-11.172
㗸	-11.1721
金馬驛程	-11.1721
秤	-11.1721
米一石二斗	-11.1722
皈無上道志心皈命禮	-11.1722
上保上傅太平下教二十四眞人西城	-11.1722
至眞玉皇上帝御前請稱法位具位	-11.1723
浦	-11.1723
惕	-11.1723
四念同志學人早得仙道更相開度	-11.1724
登道岸	-11.1724
潛	-11.1725
玉清降福天尊志心敬禮尋聲救苦天尊	-11.1725
迂	-11.1725
薩	-11.1725
頰	-11.1726
巍峩	-11.1726
寳華圓滿天尊	-11.1727
彷	-11.1727
籌	-11.1727
韞	-11.1728
南嶽衡山	-11.1728
以今清旦行道請法衆等運兹	-11.1728
社稷尊靈宗祧先聖	-11.1728
波羅尼宻不驕樂天	-11.173
之至謹奉表陳啓以聞	-11.173
糜	-11.1733
喫	-11.1735
課	-11.1736
玄壇天帝神君當召此間	-11.1926
諸凡夫一切衆生	-11.1931
侍香金童傳言玉女五帝直符直日香官	-11.1955
佛	-11.1959
急急如元始度人律令	-11.1964
贈	-11.1974
剡	-11.1976
東嶽天齊大生仁聖帝	-11.1977
矩	-11.1978
靴	-11.1981
摽	-11.1981
𧷤	-11.1984
冕	-11.1986
蘋	-11.1987
醒	-11.1987
風火無停	-11.1988
度品南宫	-11.1988
釣	-11.1988
棒	-11.1988
懃	-11.1988
西王母	-11.1989
桐	-11.1989
覩見光明	-11.1989
赴旛受度焚符太乙救苦天尊謹召	-11.1989
壺	-11.1989
時刻升遷	-11.1989
哲	-11.199
傷亡復舊還形	-11.199
猒	-11.1991
度仙上聖天尊	-11.1991
刹	-11.1992
杜光庭	-11.1992
姪	-11.1992
兌	-11.1993
勛	-11.1993
翌	-11.1993
時刻昇遷	-11.1993
四直玉文功曹	-11.1994
唇	-11.1994
櫛	-11.1994
受其發揚萬物滋生國儲民豐九	-11.1995
趍	-11.1995
濃	-11.1995
逓	-11.1996
矅	-11.1997
恭望天慈	-11.1997
派	-11.1998
飲酒食肉	-11.1998
白帝侍魄	-11.1998
惡口兩舌	-11.1999
彊	-11.2
庵	-11.2001
西嶽華山	-11.2003
茯苓	-11.2252
贍	-11.226
坊	-11.2261
躅	-11.2263
踰	-11.2264
粥	-11.2266
䙱	-11.2266
霆	-11.2268
洞微髙士開光救苦真人寗全	-11.2268
君降大慈之恩流	-11.2268
諸天至極上聖	-11.2269
毗	-11.227
長八尺	-11.227
德配乾坤功叅日月神通妙用正直	-11.227
謝過自新伏願天帝君降大慈之恩流	-11.227
穡	-11.227
十方仙童玉女接侍蘭煙傳	-11.227
棊	-11.2271
蒙如丹禱	-11.2272
峰	-11.2272
廪	-11.2273
瘵	-11.2273
願五嶽各安其方巍巍包藏長爲仙宫安	-11.2273
風披拂	-11.2274
咏	-11.2274
彫	-11.2274
潢	-11.2274
黻	-11.2274
出者嚴裝顯服冠帶垂纓關啓	-11.2275
綺言妄語	-11.2276
脣	-11.2276
宫左府主生太陽火官	-11.2277
靈化梵輔天	-11.2277
倪	-11.228
脯	-11.2282
拆	-11.2282
謹具表奏聞者臣伏以	-11.2283
𦋇	-11.2283
復爐香官使者左右	-11.2373
訊	-11.2537
亊	-11.2537
罕	-11.254
恵	-11.2541
弭	-11.2546
犴	-11.2548
衿	-11.2549
遙	-11.2549
閽	-11.255
回靈養素天尊	-11.2551
某下情無任惶懼之至謹狀年月日	-11.2551
黔	-11.2552
甦	-11.2552
桓	-11.2552
鬚	-11.2552
以昭玄貺	-11.2553
𩲸將軍明承符命追攝	-11.2553
迍	-11.2553
懺	-11.2554
須至奏聞者右	-11.2554
保天長存	-11.2555
運應滅度	-11.2555
伴	-11.2556
籖	-11.2556
伊	-11.2556
如意萬司	-11.2557
挿	-11.2557
培	-11.2558
喘	-11.2558
諫	-11.2558
悼	-11.2558
靜黙天魔並敬護世世享大福	-11.2558
五念九親和睦好尚仁義貴道賤財行	-11.2559
巳得道大聖衆	-11.2559
情念道遣所欲澹泊正氣停蕭然神	-11.256
騶	-11.256
各禮師存念如法衛靈	-11.2561
無鞅聖衆	-11.2561
葳	-11.2562
金闕化身天尊	-11.2562
密	-11.2563
芻	-11.2563
顆	-11.2566
嗃	-11.2566
抃	-11.2568
之厄次解	-11.2573
復六十日	-11.2585
今奉爲入齋意以今	-11.2663
太上三尊十方衆聖	-11.2677
某謹同誠上啓	-11.269
願諸凡夫	-11.269
謹同誠上啓太上无極大道虚无自然	-11.2752
太玄都省	-11.2806
廡	-11.2829
溝	-11.2835
譯	-11.2835
羽飛衣	-11.2837
峭	-11.284
罩	-11.2841
逞	-11.2842
犢	-11.2842
厖	-11.2843
漁	-11.2844
瘖	-11.2845
遯	-11.2845
彛	-11.2845
刪	-11.2846
陽造隂謀	-11.2847
拷	-11.2847
苖	-11.2847
太子諸王	-11.2848
虚空鑒察	-11.2848
鐶	-11.2849
禮此懴文五體投地	-11.2849
檻	-11.285
飛浮元始集神天地交周	-11.285
什	-11.285
縊	-11.2851
萬神咸聞	-11.2852
九祖七玄	-11.2853
煙飛空髙澄䕃覆玄玄隱	-11.2853
鷹	-11.2853
某嶽先生	-11.2853
今奉爲入意以今	-11.2853
上章詞表靈官	-11.2853
度世司馬大神好生韓君丈人	-11.2854
满	-11.2854
墠	-11.2854
繪	-11.2854
爕	-11.2855
翦	-11.2855
綾	-11.2855
孜	-11.2855
三十六天帝君玉虚上帝玉帝	-11.2856
髙虚清明天	-11.2856
釀	-11.2856
悖	-11.2858
尋聲救苦	-11.2859
死䰟符追	-11.2859
靈書中篇	-11.286
旻	-11.286
掌醮司	-11.2862
邕	-11.2862
眞明皇道君三十六部尊經玄中大法師	-11.2928
太上玉經隱注曰	-11.3124
眩	-11.3138
渚	-11.314
吴	-11.3141
陲	-11.3144
幹	-11.3145
梟	-11.3145
晚朝陞壇行道	-11.3145
叩齒七通	-11.3147
具位姓某狀申申	-11.3149
憤	-11.315
餅	-11.315
瞳	-11.315
隨機赴感	-11.315
耐	-11.3151
爲如上縁請聖作證	-11.3151
憚	-11.3152
繕	-11.3152
今以至心回向大道歸依天帝委命至眞	-11.3153
虚皇玉晨大道君	-11.3153
三啓三禮	-11.3154
曝	-11.3154
五星列照煥明五方水星却災木	-11.3155
門下君一人官將百二十人上請天曹勑	-11.3155
懲	-11.3155
攬	-11.3155
蕘	-11.3156
須至申聞者右某謹具狀申	-11.3156
三啓樂法以爲妻愛經如珠玉持戒制六	-11.3156
蕆	-11.3157
玉寳皇上天尊	-11.3157
徙	-11.3157
愽	-11.3157
願此香煙騰空俓上供養无上至眞經寳	-11.3157
稀	-11.3157
輯	-11.3157
燒香散華	-11.3159
䦨	-11.3159
赤帝養炁	-11.316
守雄抱雌二大將	-11.3161
凈	-11.3168
縫	-11.3171
鬱單無量天	-11.3194
與臨壇官衆等謹同誠上啓	-11.3219
太上无極大道虚无自然元始天尊	-11.3323
岩	-11.3449
欄	-11.3459
勑制地祇	-11.346
虜	-11.346
渙	-11.346
故三洞弟子某	-11.3461
法天象地	-11.3462
敘	-11.3462
茹	-11.3463
牛頭獄卒	-11.3463
今以至心回向大道歸依土皇委命至眞	-11.3464
翕	-11.3464
自作教他心生口語	-11.3465
茍	-11.3466
覊	-11.3466
光八衝迸威包羅交變萬方	-11.3466
某謹焚香上啓	-11.3466
装	-11.3467
丹靈朱火炎霞激風赤輪剛運天	-11.3467
綉	-11.3467
賷	-11.3468
十願江海蕩蕩	-11.3468
芹	-11.3468
雉	-11.3468
恭望天慈允兹奏請特降勑命	-11.3469
冒犯聖威	-11.3469
敞	-11.3469
三洞四輔經籙法科	-11.3469
太上三尊十方衆聖願以是香功德	-11.347
黒帝通血	-11.347
要修科儀戒律鈔	-11.347
際天尊志心敬禮功徳海天尊志心敬禮	-11.3471
青帝護魂	-11.3471
無想無結無愛天	-11.3471
攘	-11.3472
筆一管	-11.3473
蕤	-11.3473
坐在立亡	-11.3473
消災散禍	-11.3474
渟	-11.3474
伎	-11.3474
杵	-11.3474
曹太玄上元	-11.3475
瑛	-11.3477
隳	-11.3477
府主生太陽火官	-11.3478
紀羣靈裁成萬化今有某精心扣地稽首	-11.3484
帝天中神仙和諸靈官伏聞	-11.3485
壇而法象神輝𤑔香彛而關通帝闕歸命	-11.3485
天牢地獄	-11.349
歷關天中度命登眞焚符	-11.3497
午朝陞壇行道	-11.3556
職惟領敎理難抑違敬依所卜日辰肅建	-11.3692
下情无任惶懼之至謹狀	-11.3701
柈	-11.3749
沓	-11.3771
禮二十拜若	-11.3772
輻	-11.3772
漲	-11.3772
隋	-11.3773
誌	-11.3774
塊	-11.3776
荀	-11.3779
茨	-11.3779
滂	-11.378
瘴	-11.378
蕪	-11.3781
娛	-11.3781
璋	-11.3783
在㑹係薦	-11.3784
錐	-11.3784
鳴法皷二十四通	-11.3785
倣	-11.3785
價	-11.3786
丹靈眞老	-11.3786
刁	-11.3787
桒	-11.3787
姓某謹重封	-11.3788
駿	-11.3789
皆從四願日月二景髙明無有	-11.3789
腴	-11.3789
預以同學普得升虚與天相保長存無憂	-11.3789
太上三尊願以是功徳皈流	-11.379
臣等身中令臣所啓之誠速達俓御	-11.379
悴	-11.3791
漙	-11.3791
風火驛傳	-11.3791
悦	-11.3792
鳩	-11.3792
賦形以來紀録黒籍厭世之後	-11.3792
三台華蓋星君	-11.3792
扶衰度厄	-11.3792
舄	-11.3792
𣑽	-11.3794
右府主死太隂水官中府主生死罪録官	-11.3795
昴	-11.3795
无上正眞大道	-11.3796
伏須告報	-11.3796
闌	-11.3796
蔕	-11.3797
聞元始開圖	-11.3799
囬	-11.38
筌	-11.3801
不可稱量	-11.3803
𥮅	-11.3809
願以是功德皈流	-11.3994
自皈依師尊大聖衆至眞之徳得道之後	-11.4088
斫	-11.4101
𠋣	-11.4104
荐	-11.4105
迄	-11.4107
撞	-11.4107
挈	-11.4109
轟	-11.4109
䘏	-11.4113
不勝䖍禱之至	-11.4114
疽	-11.4115
轄	-11.4116
嚧	-11.4116
靈寳天仙内院	-11.4116
魑	-11.4117
簇	-11.4117
扁	-11.4117
慨	-11.4118
柏	-11.4118
誇	-11.4119
藿	-11.4119
謹據某郷貫住居奉道弟子姓某本命	-11.4119
一如吿命	-11.412
樂法以爲妻愛經如珠玉持戒制六	-11.412
皇合眞臣某等上啓	-11.412
鵲	-11.412
撿	-11.412
嘿	-11.412
清衆運誠平坐如法平坐讃	-11.4121
驢	-11.4122
二官直使正一功曹左右官	-11.4123
㑹散花太空神化	-11.4123
䄂	-11.4124
則無爲散則彌天神仙同居結友衆眞惠	-11.4124
盪	-11.4124
俊	-11.4125
醋	-11.4126
以今晚朝陞壇行道請法衆等運兹	-11.4126
覓	-11.4127
碍	-11.4127
杞	-11.4128
降臨醮座	-11.4128
沭	-11.4129
徯	-11.4129
綏	-11.413
椀	-11.413
直符直事	-11.4131
裊	-11.4133
蚊	-11.4137
儛	-11.4137
魈	-11.4138
陞壇行道之所自然生金液丹碧	-11.4227
无極大道至眞玉皇上帝御前出堂頌	-11.4284
牓	-11.4427
州刺史	-11.4441
睛	-11.4444
臥	-11.445
墉	-11.4452
芝英百靈衆眞交㑹在此香火爐前	-11.4454
綃	-11.4456
撲	-11.4456
燎	-11.4457
𠡠	-11.4457
嗽	-11.4458
菴	-11.4458
塘	-11.4459
顓	-11.4459
熊	-11.446
䑓	-11.4461
碓	-11.4465
北隂酆都大帝	-11.4465
至心稽首禮玄中大法師重稱法位具位	-11.4465
遊宴十方五雲浮	-11.4466
奢	-11.4466
礪	-11.4466
靡法輪升七祖生天堂我身白日騰	-11.4466
願以是功德皈流齋主某伏願	-11.4467
嚮	-11.4467
跂行一切衆生咸蒙成就八念赦	-11.4467
渤	-11.4467
氣候調節四運和平國安民豐普天	-11.4467
璿	-11.4468
燁	-11.4468
好生韓君丈人	-11.4468
薈	-11.4468
椒	-11.4469
凾	-11.4469
巳奏聞諸天上帝申牒三界眞司外	-11.4469
无上三天玄元始三炁太上老君召出	-11.4469
跳	-11.4469
紱	-11.447
紂	-11.4471
堦	-11.4472
褥	-11.4472
三洞四輔經籙	-11.4472
中嶽嵩山	-11.4473
蜂	-11.4473
青玄老君太乙救苦天尊運明保元上帝	-11.4473
以今午朝行道請法衆等運兹	-11.4473
踵	-11.4474
沾恩十方仙童玉女侍衛蘭煙傳	-11.4474
捨身受身	-11.4474
天曹諸司眞君	-11.4475
簽	-11.4478
豬	-11.4481
猥	-11.4482
橐	-11.4482
釜	-11.4483
死之訟訴其	-11.4484
衆等至心皈命无上自然	-11.4487
姧	-11.4489
之物或盜	-11.4502
早朝陞壇行道	-11.4629
大齋法事小兆臣某與臨壇官衆等	-11.4773
稚	-11.4796
兜	-11.4799
文檄發放品	-11.4806
亟	-11.4807
淋	-11.4809
驟	-11.4811
傑	-11.4813
金木水火土	-11.4813
寗	-11.4814
羸	-11.4815
蔬	-11.4816
筞	-11.4817
以昭宸貺干冐聖威	-11.4818
匣	-11.4818
颺	-11.4819
緜	-11.4819
槁	-11.4819
様	-11.482
裸	-11.482
榛	-11.482
泝	-11.482
臯	-11.4821
晩	-11.4821
五族六親	-11.4822
祼	-11.4822
啗	-11.4822
伯叔兄弟	-11.4823
無上三天玄元始三炁太上道君召出	-11.4824
迪	-11.4824
某下情無任激切之至謹狀	-11.4824
氛穢地絶祅塵琳琅振響十方	-11.4824
黍稷非馨	-11.4825
上元一品賜福天官	-11.4825
二願諸天結炁澄清髙虚廣覆保眞固靈	-11.4825
鎭家國無有災傷四海	-11.4825
僅	-11.4825
𧇊	-11.4826
靈童子明承	-11.4826
紺	-11.4826
梵寳昌陽	-11.4826
願此香煙騰空俓上供養无上至眞道寳	-11.4826
舛	-11.4827
紫微中天北極大帝	-11.4828
魘	-11.4829
魒	-11.483
惒	-11.483
寞	-11.4832
𥙿	-11.4832
轂	-11.4834
迦	-11.4839
姹	-11.4853
璘	-11.515
艾	-11.5178
狴	-11.518
菊	-11.5181
巔	-11.5182
㮣	-11.5182
券	-11.5184
弩	-11.5186
榦	-11.5188
鵬	-11.5188
僮	-11.5189
殯	-11.5189
協	-11.519
曩	-11.5191
簷	-11.5192
砌	-11.5192
縠	-11.5192
耄	-11.5193
寤	-11.5193
䕫	-11.5193
潦	-11.5193
慳	-11.5194
縹	-11.5194
謾	-11.5194
暈	-11.5194
貿	-11.5195
措	-11.5195
穗	-11.5195
攣	-11.5196
昂	-11.5196
恙	-11.5197
璽	-11.5198
烜	-11.5199
遞	-11.5199
詭	-11.52
窕	-11.52
僖	-11.52
攷	-11.5201
胚	-11.5202
瘁	-11.5202
頸	-11.5206
銓	-11.5207
泳	-11.5208
幃	-11.5214
榻	-11.5232
圵	-11.5559
膳	-11.5564
鄂	-11.5565
諠	-11.5566
恤	-11.5568
詛	-11.5568
霾	-11.557
袁	-11.5572
酥	-11.5573
届	-11.5573
鎚	-11.5574
械	-11.5575
勅	-11.5576
兀	-11.5576
斑	-11.5577
爪	-11.5577
伶	-11.5578
瓜	-11.5578
册	-11.5579
㵸	-11.558
葑	-11.5581
豎	-11.5583
瘦	-11.5584
䆳	-11.5584
遡	-11.5585
繳	-11.5586
櫳	-11.5587
玃	-11.5588
曳	-11.5588
𠉀	-11.5592
暨	-11.5593
瞬	-11.5597
拓	-11.5606
㕹	-11.5943
噠	-11.5963
两	-11.5967
癎	-11.5968
荅	-11.5968
鵠	-11.597
蹟	-11.5971
騁	-11.5972
爓	-11.5972
穎	-11.5972
淘	-11.5972
炙	-11.5973
𤓰	-11.5974
婚	-11.5974
甎	-11.5976
隷	-11.5977
潮	-11.5977
叵	-11.5977
𢢽	-11.5977
黯	-11.5979
搖	-11.5981
舎	-11.5981
股	-11.5982
螟	-11.5983
姤	-11.5983
抛	-11.5986
昩	-11.5987
嚩	-11.5988
晡	-11.5989
𠜍	-11.5991
离	-11.5994
姆	-11.636
堰	-11.6378
粧	-11.6379
萊	-11.6379
慊	-11.638
摙	-11.6383
租	-11.6383
棘	-11.6384
殮	-11.6384
蓐	-11.6386
鰲	-11.6386
庥	-11.6387
悵	-11.6388
檐	-11.6389
縉	-11.639
兖	-11.6392
潺	-11.6392
敖	-11.6392
販	-11.6392
臼	-11.6394
哩	-11.6394
巍	-11.6395
蕚	-11.6395
巻	-11.6396
黜	-11.6398
捫	-11.6399
貳	-11.6399
鈍	-11.6399
縦	-11.64
啞	-11.64
笳	-11.6401
嶠	-11.6402
屑	-11.6402
糧	-11.6403
鵝	-11.6404
技	-11.6405
𥫄	-11.6405
裕	-11.6406
捜	-11.6407
鳶	-11.6409
蟄	-11.6413
樸	-11.6803
龕	-11.6814
醇	-11.6815
簟	-11.6815
牲	-11.6816
峽	-11.6817
癰	-11.6818
脹	-11.6821
翥	-11.6821
巒	-11.6822
馴	-11.6823
鏗	-11.6823
熬	-11.6824
乹	-11.6825
衮	-11.6825
𢡖	-11.6826
聴	-11.6827
線	-11.6828
涸	-11.6828
矚	-11.6829
挫	-11.6829
洩	-11.683
𥨸	-11.683
恥	-11.6831
慇	-11.6831
拽	-11.6831
簴	-11.6831
刳	-11.6832
緱	-11.6833
荼	-11.6833
鞏	-11.6833
襪	-11.6834
砥	-11.6834
棹	-11.6835
竦	-11.6835
鉤	-11.6836
剉	-11.6836
弁	-11.6836
株	-11.6836
䑛	-11.6836
詎	-11.684
泗	-11.684
斾	-11.684
吠	-11.6841
矛	-11.6843
𠅘	-11.6843
膈	-11.6843
竃	-11.6843
陌	-11.6845
蝎	-11.6856
鮑	-11.7258
鼇	-11.727
𨓜	-11.727
娶	-11.7271
漓	-11.7272
縶	-11.7273
稠	-11.7274
孳	-11.7274
衙	-11.7274
𥬇	-11.7275
噬	-11.7275
燔	-11.7275
撻	-11.7275
梗	-11.7276
娱	-11.7277
菓	-11.7278
瞽	-11.7278
燌	-11.7279
丧	-11.728
蹔	-11.728
迤	-11.7281
緲	-11.7281
詢	-11.7281
劑	-11.7281
焕	-11.7282
阮	-11.7282
懋	-11.7285
閒	-11.7285
紈	-11.7285
慄	-11.7286
窻	-11.7286
澣	-11.7287
姨	-11.7287
栗	-11.7287
蔓	-11.7288
屇	-11.7288
跋	-11.729
蛸	-11.7293
莭	-11.7294
球	-11.7294
稅	-11.7297
虺	-11.7299
扈	-11.7302
炊	-11.7304
猖	-11.7305
豺	-11.7306
袱	-11.7311
臉	-11.7316
楪	-11.7739
攔	-11.7742
疏	-11.7745
惰	-11.7747
吼	-11.7748
踴	-11.7749
嶮	-11.7752
榭	-11.7752
侈	-11.7752
劈	-11.7752
籬	-11.7752
怱	-11.7753
幄	-11.7754
侔	-11.7755
耆	-11.7756
巷	-11.7756
壹	-11.7757
甖	-11.7757
餉	-11.7757
泒	-11.7758
哆	-11.7758
需	-11.7758
陂	-11.7758
肹	-11.7759
翛	-11.776
煖	-11.776
楷	-11.7761
櫝	-11.7761
蹄	-11.7761
躑	-11.7763
貰	-11.7764
迭	-11.7765
痕	-11.7766
閟	-11.7766
柴	-11.7766
峒	-11.7767
𥝠	-11.7767
囷	-11.7768
渭	-11.7768
敏	-11.7768
奇	-11.777
摘	-11.777
𡜍	-11.777
専	-11.7772
麴	-11.7773
噐	-11.7774
愡	-11.778
蚩	-11.7783
惚	-11.7784
歉	-11.8238
礫	-11.8239
鐫	-11.824
髭	-11.8243
頊	-11.8246
態	-11.8247
盱	-11.8248
畆	-11.8248
殂	-11.8249
麓	-11.8249
瞿	-11.8251
隍	-11.8251
抹	-11.8252
晷	-11.8253
属	-11.8254
徂	-11.8255
怛	-11.8255
筦	-11.8257
肖	-11.8257
姜	-11.8258
埏	-11.8258
擷	-11.8258
縻	-11.8258
珪	-11.8259
鋸	-11.8259
孾	-11.8259
牎	-11.8259
瘂	-11.826
蹇	-11.826
羌	-11.826
緝	-11.8261
弈	-11.8261
鑾	-11.8262
㢘	-11.8262
妓	-11.8262
欻	-11.8263
鹹	-11.8263
舋	-11.8263
筍	-11.8264
争	-11.8264
碩	-11.8264
𩛙	-11.8265
悋	-11.8267
顒	-11.8268
忻	-11.8269
髯	-11.8269
遑	-11.827
腭	-11.827
鵷	-11.827
閫	-11.8272
莾	-11.8276
愉	-11.8276
枸	-11.8277
揷	-11.8277
揉	-11.8284
腋	-11.8297
甕	-11.8751
㕔	-11.8756
店	-11.8759
剱	-11.8762
蘆	-11.8765
遒	-11.8766
勁	-11.8767
撼	-11.8771
藍	-11.8772
碣	-11.8772
閩	-11.8772
憩	-11.8773
距	-11.8773
斃	-11.8775
姬	-11.8777
偽	-11.8779
丐	-11.8779
堕	-11.878
畝	-11.878
瓣	-11.8782
螫	-11.8782
悽	-11.8783
咄	-11.8784
窒	-11.8784
鞋	-11.8784
嚢	-11.8785
琰	-11.8785
糺	-11.8786
劬	-11.8786
樣	-11.8786
努	-11.8787
卭	-11.8787
泬	-11.8788
麵	-11.8789
薑	-11.8789
倶	-11.8789
匀	-11.879
搶	-11.879
櫃	-11.879
灝	-11.879
蹠	-11.8791
萱	-11.8791
繹	-11.8792
撩	-11.8793
𧇖	-11.8793
掇	-11.8794
讚	-11.8795
繿	-11.8799
硃	-11.8801
膓	-11.8809
梳	-11.881
眚	-11.8812
毳	-11.9315
漣	-11.9322
瓢	-11.9322
幞	-11.9329
拙	-11.933
犀	-11.933
劍	-11.9331
猴	-11.9332
刈	-11.9332
𡵨	-11.9332
廂	-11.9333
樽	-11.9334
槨	-11.9334
琢	-11.9334
鑚	-11.9335
蘄	-11.9336
締	-11.9337
磐	-11.9338
舅	-11.9338
劃	-11.9339
驪	-11.9339
產	-11.9339
颷	-11.9339
抺	-11.9341
蔭	-11.9341
粱	-11.9341
蘖	-11.9342
艶	-11.9342
攅	-11.9342
諌	-11.9343
緼	-11.9343
懾	-11.9343
磑	-11.9344
犮	-11.9344
裾	-11.9344
嘻	-11.9344
紳	-11.9344
鉦	-11.9344
𥚑	-11.9345
癲	-11.9345
匃	-11.9345
枵	-11.9345
𥠖	-11.9345
殖	-11.9345
𣸸	-11.9346
煆	-11.9347
檜	-11.9347
迮	-11.9348
謟	-11.9348
栽	-11.9348
確	-11.9349
𨗉	-11.9349
蝸	-11.935
𩲃	-11.9352
歐	-11.9352
幔	-11.9353
蜎	-11.9354
翟	-11.9355
㝢	-11.9355
橘	-11.9355
燋	-11.9357
搗	-11.936
閏	-11.9361
嵐	-11.9363
佞	-11.9363
皥	-11.9368
蝦	-11.9374
篋	-11.9907
蛾	-11.9908
琪	-11.9912
嫗	-11.9912
撮	-11.9914
尭	-11.9916
鬻	-11.9917
遘	-11.9917
坡	-11.9918
霶	-11.9919
嫁	-11.992
湮	-11.992
盃	-11.992
繋	-11.9921
鯉	-11.9921
眥	-11.9923
爇	-11.9923
杭	-11.9925
唳	-11.9925
諄	-11.9926
寨	-11.9926
蓄	-11.9926
捶	-11.9927
谿	-11.9928
亳	-11.9929
岷	-11.9929
櫟	-11.9929
悮	-11.993
庖	-11.993
趾	-11.9931
箋	-11.9931
餚	-11.9932
嵎	-11.9932
冡	-11.9932
斚	-11.9932
璠	-11.9932
颻	-11.9932
殻	-11.9932
譛	-11.9933
琉	-11.9933
胄	-11.9933
廳	-11.9935
訕	-11.9936
拖	-11.9936
豊	-11.9936
愊	-11.9937
豚	-11.9937
繚	-11.9937
欬	-11.9938
枌	-11.9938
苞	-11.9939
搥	-11.994
逋	-11.9941
甑	-11.9941
碭	-11.9942
蠅	-11.9943
膂	-11.9943
𦆵	-11.9947
禺	-11.9949
㤙	-11.995
屐	-11.9951
攜	-11.9953
猫	-11.9958
璝	-12.0515
崗	-12.0519
堵	-12.0528
篩	-12.0531
涓	-12.0534
濵	-12.0538
悚	-12.0539
鰥	-12.0542
籣	-12.0543
紊	-12.0543
机	-12.0546
吝	-12.0547
娘	-12.0548
甸	-12.0549
拍	-12.0549
兾	-12.055
笞	-12.055
鉢	-12.055
燿	-12.0552
睇	-12.0552
紆	-12.0553
冗	-12.0554
邉	-12.0554
飼	-12.0555
讒	-12.0556
獰	-12.0556
譏	-12.0557
圻	-12.0557
魃	-12.0557
踞	-12.0557
怳	-12.0557
羗	-12.0558
瘳	-12.0558
掲	-12.0558
狸	-12.0558
玷	-12.0558
痼	-12.0559
跂	-12.0559
匐	-12.056
㳟	-12.0561
鈐	-12.0562
粛	-12.0562
狎	-12.0563
廩	-12.0563
杻	-12.0563
荘	-12.0563
麈	-12.0564
磅	-12.0564
祺	-12.0565
尖	-12.0566
弋	-12.0566
帡	-12.0566
𢊍	-12.0566
蛆	-12.0567
蜒	-12.0567
彿	-12.0569
礴	-12.0569
揀	-12.0569
濶	-12.057
閙	-12.0572
麽	-12.0572
瓮	-12.0575
鍵	-12.0576
貝	-12.0577
你	-12.0583
募	-12.1192
涇	-12.1201
怙	-12.1205
噏	-12.1207
犒	-12.1208
瘞	-12.1208
槿	-12.1209
姥	-12.1209
嚀	-12.121
鴨	-12.1211
泡	-12.1212
炫	-12.1212
𦔳	-12.1212
𤁋	-12.1213
鵰	-12.1214
𠎝	-12.1214
舐	-12.1214
豕	-12.1216
闈	-12.1216
珊	-12.1218
屹	-12.1219
楫	-12.1219
狩	-12.1219
桉	-12.122
壝	-12.122
壊	-12.122
稜	-12.1222
祓	-12.1223
㳺	-12.1225
綽	-12.1226
鎗	-12.1226
畎	-12.1226
蕋	-12.1226
堤	-12.1228
臆	-12.1228
湊	-12.1229
冦	-12.1229
禋	-12.1229
甓	-12.123
譔	-12.123
剏	-12.1232
陬	-12.1232
坳	-12.1233
淅	-12.1233
糠	-12.1234
惣	-12.1237
蚤	-12.124
婉	-12.124
沌	-12.1241
疪	-12.1242
曖	-12.1244
匙	-12.1247
杲	-12.1898
㪷	-12.1902
㨿	-12.1912
婢	-12.1913
状	-12.1916
嶂	-12.1917
藤	-12.1917
钁	-12.1918
嬉	-12.1919
瓠	-12.1921
悸	-12.1921
汾	-12.1922
查	-12.1922
涎	-12.1922
諶	-12.1922
呻	-12.1923
闐	-12.1924
婺	-12.1924
綠	-12.1925
仆	-12.1925
瑚	-12.1927
港	-12.1927
娠	-12.1928
鑊	-12.1929
咬	-12.193
訝	-12.1931
禴	-12.1931
闓	-12.1932
泮	-12.1932
㘅	-12.1932
彬	-12.1933
痺	-12.1933
墊	-12.1933
鐺	-12.1933
貅	-12.1933
鴟	-12.1934
番	-12.1934
瀟	-12.1935
蜺	-12.1935
埸	-12.1936
𡏖	-12.1936
騭	-12.1936
畋	-12.1936
矧	-12.1936
歿	-12.1937
灸	-12.1937
蛙	-12.1937
旃	-12.1937
揭	-12.1937
桴	-12.1937
薤	-12.1937
圗	-12.1937
楮	-12.1938
餒	-12.1938
售	-12.1938
㣧	-12.1939
箸	-12.1939
佗	-12.194
枽	-12.194
踪	-12.194
拄	-12.1941
靑	-12.1941
疹	-12.1942
諳	-12.1942
悞	-12.1943
慟	-12.1943
閡	-12.1943
核	-12.1944
媚	-12.1944
覷	-12.1945
阨	-12.1945
臈	-12.1945
弃	-12.1945
賑	-12.1945
丗	-12.1946
寕	-12.1946
筠	-12.1946
倏	-12.1946
嬌	-12.1947
咒	-12.1947
揣	-12.1947
戞	-12.1947
鳬	-12.1949
賖	-12.1951
郵	-12.1951
縑	-12.1951
沮	-12.1951
溲	-12.1954
亞	-12.1955
珂	-12.1957
脅	-12.1959
耻	-12.196
圊	-12.1963
壟	-12.1967
炅	-12.1967
鴿	-12.1968
杉	-12.2675
夘	-12.2679
邢	-12.268
毅	-12.2683
湫	-12.2685
嬴	-12.2688
冽	-12.269
蜚	-12.2691
蠡	-12.2691
㓙	-12.2691
倂	-12.2691
芸	-12.2692
甯	-12.2694
詹	-12.2696
寘	-12.2697
雹	-12.2698
屨	-12.2698
昱	-12.2699
鑠	-12.2699
鐸	-12.2699
晋	-12.27
蕳	-12.27
䜟	-12.27
扎	-12.27
歧	-12.27
櫺	-12.2701
蒞	-12.2702
繭	-12.2703
湍	-12.2703
熙	-12.2703
狠	-12.2703
凭	-12.2704
豉	-12.2704
顱	-12.2704
减	-12.2704
鮒	-12.2704
俸	-12.2705
硬	-12.2705
凱	-12.2705
搬	-12.2705
牟	-12.2705
厦	-12.2705
鑰	-12.2705
羈	-12.2706
詵	-12.2706
妍	-12.2707
毬	-12.2707
肱	-12.2708
圈	-12.2708
魓	-12.2708
磕	-12.2708
溫	-12.2709
牡	-12.2709
虵	-12.2709
夐	-12.2709
倩	-12.271
廖	-12.271
歙	-12.271
㗖	-12.271
牆	-12.2711
尢	-12.2711
饍	-12.2711
𠆸	-12.2711
冢	-12.2711
峩	-12.2711
栲	-12.2711
煒	-12.2712
淒	-12.2712
譚	-12.2712
氊	-12.2713
苔	-12.2714
曦	-12.2714
喑	-12.2714
脗	-12.2714
亰	-12.2715
糾	-12.2716
釆	-12.2716
砭	-12.2716
螺	-12.2717
賃	-12.2717
挂	-12.2718
䧺	-12.2719
衫	-12.2719
絢	-12.2719
迥	-12.2722
秪	-12.2722
邅	-12.2723
闗	-12.2723
鶱	-12.2726
𦍒	-12.2728
騾	-12.2729
薙	-12.2729
飇	-12.2733
蠆	-12.2737
筏	-12.2738
腕	-12.2787
雇	-12.3505
贏	-12.3507
悛	-12.3513
磿	-12.3516
琥	-12.3517
撒	-12.352
拈	-12.352
婿	-12.3521
澁	-12.3523
俛	-12.3524
蜿	-12.3525
帙	-12.3526
輾	-12.3526
暄	-12.3526
脆	-12.3528
栴	-12.3528
賓	-12.353
颯	-12.353
膻	-12.353
壠	-12.3531
鴉	-12.3531
癆	-12.3532
囹	-12.3533
衒	-12.3534
圄	-12.3534
䌓	-12.3534
𨼆	-12.3534
濬	-12.3535
撤	-12.3536
耒	-12.3536
噫	-12.3536
种	-12.3536
卻	-12.3536
酪	-12.3537
僥	-12.3537
澍	-12.3538
臰	-12.3539
鬬	-12.3539
歃	-12.354
旭	-12.3541
菖	-12.3541
𤥭	-12.3541
儵	-12.3541
蔑	-12.3541
鯀	-12.3541
髠	-12.3542
淬	-12.3542
𩵄	-12.3542
朶	-12.3543
炮	-12.3543
䘙	-12.3543
泆	-12.3543
膜	-12.3543
滕	-12.3543
軆	-12.3544
斁	-12.3544
蓆	-12.3544
誹	-12.3544
隘	-12.3545
蹲	-12.3545
螘	-12.3545
𠑽	-12.3545
䄄	-12.3546
驤	-12.3546
鏁	-12.3547
䙝	-12.3547
茄	-12.3548
𡨥	-12.3548
样	-12.3549
㸔	-12.3549
諍	-12.355
宂	-12.3551
捾	-12.3553
牋	-12.3554
宼	-12.3554
狡	-12.3554
潄	-12.3555
藕	-12.3555
廁	-12.3558
腪	-12.3559
猊	-12.3559
潑	-12.3559
蚓	-12.356
㕑	-12.3561
謔	-12.3562
参	-12.3563
鉅	-12.3564
𩃇	-12.3574
蚌	-12.3578
媿	-12.442
穫	-12.4422
勦	-12.4423
愕	-12.4423
戟	-12.4428
㰱	-12.443
𥩈	-12.4431
巓	-12.4431
槩	-12.4431
戕	-12.4432
繆	-12.4432
娯	-12.4433
賂	-12.4434
穏	-12.4434
慱	-12.4435
犁	-12.4435
槖	-12.4436
擺	-12.4436
譎	-12.4436
簸	-12.4437
凜	-12.4437
郤	-12.4438
綰	-12.4438
䆁	-12.4438
笋	-12.4439
巿	-12.4439
耘	-12.4439
緾	-12.444
皿	-12.444
箚	-12.444
蒜	-12.444
覇	-12.4441
㕘	-12.4441
妊	-12.4442
謠	-12.4442
隕	-12.4442
醯	-12.4442
滚	-12.4443
纍	-12.4443
鍤	-12.4443
叮	-12.4444
塋	-12.4444
䥫	-12.4445
串	-12.4445
𣏌	-12.4446
畚	-12.4446
鞘	-12.4446
瀣	-12.4446
袵	-12.4447
嗅	-12.4447
樗	-12.4448
𩳐	-12.4448
䰢	-12.4448
喙	-12.4449
檝	-12.4449
慝	-12.4449
秖	-12.445
従	-12.445
㴠	-12.445
閨	-12.4451
觧	-12.4451
嗇	-12.4451
儕	-12.4451
湔	-12.4451
薨	-12.4453
𧷢	-12.4454
俢	-12.4454
闥	-12.4455
旍	-12.4455
躃	-12.4455
柝	-12.4455
盩	-12.4455
脛	-12.4456
奧	-12.4457
弢	-12.4457
㗶	-12.4458
斟	-12.4458
丄	-12.4458
匆	-12.4458
賚	-12.4458
遝	-12.4458
蓽	-12.446
幙	-12.4461
矝	-12.4463
呢	-12.4464
躊	-12.4465
磴	-12.4466
臊	-12.4468
憧	-12.4471
㨂	-12.4472
靉	-12.4474
苒	-12.4483
荏	-12.4485
胴	-12.4486
蝨	-12.449
崿	-12.5414
煨	-12.5415
藜	-12.5417
楣	-12.5418
舁	-12.5421
侖	-12.5422
巋	-12.5423
擘	-12.5426
譟	-12.5426
𩃱	-12.5427
薜	-12.5427
鍜	-12.5429
塍	-12.543
悄	-12.5431
弑	-12.5431
嶼	-12.5431
敭	-12.5432
羯	-12.5432
偁	-12.5432
畨	-12.5432
麝	-12.5432
糟	-12.5433
瘨	-12.5434
柩	-12.5434
做	-12.5435
糓	-12.5435
羶	-12.5435
繄	-12.5435
楠	-12.5435
圯	-12.5436
卉	-12.5438
媒	-12.5438
晹	-12.5438
遅	-12.5438
扺	-12.5439
孑	-12.5439
鄒	-12.5439
殼	-12.5439
蘊	-12.5439
帕	-12.544
啜	-12.544
坼	-12.544
沽	-12.5441
筒	-12.5442
殟	-12.5442
掯	-12.5442
邏	-12.5442
它	-12.5444
睠	-12.5444
寬	-12.5445
昕	-12.5445
鋩	-12.5445
誼	-12.5446
舫	-12.5446
啟	-12.5448
𡩋	-12.5448
朦	-12.5448
曄	-12.5449
肴	-12.5449
楹	-12.5449
戺	-12.545
剰	-12.545
𤼵	-12.545
逍	-12.545
眺	-12.5451
畦	-12.5451
浚	-12.5452
覈	-12.5452
洿	-12.5452
礬	-12.5453
罣	-12.5453
疐	-12.5453
饋	-12.5453
爟	-12.5453
渝	-12.5454
刧	-12.5454
襯	-12.5455
謦	-12.5455
愓	-12.5455
𠒋	-12.5456
愴	-12.5456
瀘	-12.5456
曺	-12.5457
銳	-12.5458
夲	-12.5458
怕	-12.5458
鼠	-12.5459
鯤	-12.5459
閲	-12.5459
讟	-12.5459
𦕈	-12.5459
仐	-12.5459
煮	-12.546
煇	-12.546
噓	-12.546
澈	-12.546
𥹭	-12.5461
敲	-12.5461
觴	-12.5461
琚	-12.5462
羨	-12.5462
藎	-12.5464
薬	-12.5464
倖	-12.5466
烱	-12.5468
俵	-12.5468
另	-12.5469
臧	-12.5473
芋	-12.5475
潯	-12.5481
侁	-12.5487
腿	-12.5574
窨	-12.6516
桔	-12.6522
攫	-12.6523
廨	-12.6531
昜	-12.6532
沱	-12.6536
嚏	-12.6536
桀	-12.6538
邸	-12.6538
哂	-12.6539
複	-12.6539
躓	-12.6541
侶	-12.6541
撃	-12.6542
缶	-12.6542
囓	-12.6543
頤	-12.6544
溶	-12.6545
叡	-12.6545
澳	-12.6545
鍪	-12.6546
摭	-12.6546
嶷	-12.6546
癭	-12.6547
咤	-12.6548
拌	-12.6548
訂	-12.6548
曙	-12.6549
毐	-12.655
污	-12.655
覘	-12.6551
瀰	-12.6551
裒	-12.6551
鶯	-12.6552
磧	-12.6552
瑰	-12.6552
貔	-12.6552
棠	-12.6553
黷	-12.6553
梭	-12.6553
諜	-12.6554
鸐	-12.6554
萎	-12.6554
龎	-12.6555
圠	-12.6555
苐	-12.6555
窓	-12.6555
虗	-12.6555
佯	-12.6555
僵	-12.6556
篡	-12.6556
喨	-12.6556
款	-12.6556
籩	-12.6557
椎	-12.6557
組	-12.6557
鞫	-12.6558
衾	-12.6558
酋	-12.6559
套	-12.6559
媱	-12.6559
摺	-12.6559
豢	-12.656
膩	-12.656
竣	-12.656
茆	-12.656
脈	-12.6561
皡	-12.6561
𨤲	-12.6562
玫	-12.6562
攙	-12.6562
辠	-12.6563
蜕	-12.6563
簧	-12.6563
謚	-12.6563
㫁	-12.6564
夔	-12.6564
霔	-12.6564
亾	-12.6564
閼	-12.6565
汩	-12.6565
澇	-12.6565
凊	-12.6566
𣺌	-12.6566
䟦	-12.6566
薇	-12.6566
𦤀	-12.6566
嶤	-12.6566
殽	-12.6566
柬	-12.6566
㠀	-12.6566
倡	-12.6567
玖	-12.6567
䛕	-12.6568
癱	-12.6569
鷙	-12.6569
鏧	-12.6569
荊	-12.6569
闚	-12.657
黿	-12.6571
酢	-12.6571
禠	-12.6572
碽	-12.6572
槃	-12.6573
醪	-12.6573
佪	-12.6574
獺	-12.6574
捏	-12.6575
牕	-12.6575
曕	-12.6576
鞍	-12.6576
艷	-12.6576
尿	-12.6577
憍	-12.6577
筮	-12.6577
朞	-12.6578
蛭	-12.6579
懹	-12.658
蟇	-12.658
痁	-12.6584
晞	-12.6584
禇	-12.6585
净	-12.6586
埴	-12.6587
紜	-12.659
輜	-12.659
塹	-12.6592
籃	-12.6606
斸	-12.7767
笛	-12.777
睨	-12.7772
寇	-12.7774
癖	-12.7774
茱	-12.7774
掬	-12.7779
搦	-12.7779
蕉	-12.7781
蹙	-12.7781
粳	-12.7782
跽	-12.7783
滸	-12.7784
邳	-12.7785
屣	-12.7786
薊	-12.7786
㪚	-12.7787
跌	-12.7787
鍋	-12.7788
𦈢	-12.7788
驥	-12.7788
嘔	-12.779
𩲓	-12.779
斵	-12.7792
揄	-12.7792
皺	-12.7793
𠖇	-12.7794
璉	-12.7794
穌	-12.7794
餧	-12.7796
詬	-12.7796
燠	-12.7797
〇	-12.7798
穪	-12.7798
繢	-12.7798
甿	-12.7798
𤔵	-12.7799
哦	-12.7799
饕	-12.78
鎬	-12.78
誚	-12.7801
耦	-12.7801
䭾	-12.7801
肓	-12.7801
髫	-12.7801
禰	-12.7801
窘	-12.7802
帽	-12.7802
傖	-12.7802
缾	-12.7803
㬌	-12.7803
秧	-12.7803
絆	-12.7803
桶	-12.7803
烕	-12.7804
隄	-12.7805
徉	-12.7805
烝	-12.7805
拏	-12.7805
硝	-12.7806
㬢	-12.7807
褰	-12.7807
楨	-12.7807
螢	-12.7807
閔	-12.7807
㤗	-12.7808
槎	-12.7808
鷰	-12.7809
揲	-12.7809
㽔	-12.7809
贊	-12.7811
幟	-12.7811
彜	-12.7811
炒	-12.7811
怯	-12.7811
纸	-12.7811
夤	-12.7811
𡪹	-12.7811
睟	-12.7811
煤	-12.7811
賄	-12.7811
䓁	-12.7812
攴	-12.7812
聒	-12.7812
秫	-12.7812
躐	-12.7812
諼	-12.7813
堙	-12.7813
茵	-12.7813
龐	-12.7813
鳧	-12.7813
熛	-12.7813
䢫	-12.7813
逄	-12.7814
飆	-12.7814
罐	-12.7815
惔	-12.7815
帬	-12.7815
揩	-12.7815
蝶	-12.7815
珞	-12.7816
賝	-12.7817
麞	-12.7818
盼	-12.7818
曈	-12.7818
擿	-12.7818
曼	-12.7819
覿	-12.782
喗	-12.782
澮	-12.782
沍	-12.7821
𣻌	-12.7821
誷	-12.7821
○	-12.7821
㬰	-12.7821
趂	-12.7824
氳	-12.7824
㳂	-12.7825
䘖	-12.7827
幀	-12.7827
妣	-12.7829
豔	-12.783
愫	-12.7832
䜛	-12.7832
佺	-12.7834
𥞫	-12.7834
𡨕	-12.7837
𡊮	-12.7839
㵼	-12.7841
鬛	-12.7842
膊	-12.7845
餽	-12.9174
靚	-12.9187
芷	-12.9196
卹	-12.9198
溜	-12.9202
咳	-12.9205
愜	-12.9208
駝	-12.9208
諤	-12.9208
漉	-12.9209
讖	-12.9209
痿	-12.9211
磵	-12.9211
郝	-12.9213
筐	-12.9214
𥧌	-12.9215
𦕅	-12.9215
尒	-12.9216
莎	-12.9216
贅	-12.9216
惹	-12.9217
殍	-12.9217
箓	-12.9217
輧	-12.9217
蹴	-12.9218
黠	-12.9218
𢑴	-12.9219
魍	-12.922
涖	-12.922
噤	-12.922
芃	-12.922
𥨊	-12.922
𥿈	-12.9221
蠹	-12.9221
隸	-12.9221
孱	-12.9221
刦	-12.9222
𢌞	-12.9222
淆	-12.9223
甥	-12.9223
譁	-12.9223
傭	-12.9223
菌	-12.9223
獠	-12.9223
炯	-12.9224
騖	-12.9225
蛤	-12.9226
秃	-12.9227
嚇	-12.9228
些	-12.9229
涿	-12.9229
椹	-12.9229
陡	-12.923
竸	-12.9231
赭	-12.9231
耨	-12.9231
鲁	-12.9231
罅	-12.9232
巘	-12.9232
𥼶	-12.9232
鍼	-12.9232
簣	-12.9232
獷	-12.9232
忖	-12.9232
税	-12.9233
苛	-12.9234
㔶	-12.9234
銚	-12.9234
簞	-12.9234
胸	-12.9235
𢈔	-12.9235
忙	-12.9235
攖	-12.9235
摛	-12.9235
坂	-12.9235
鱉	-12.9236
糊	-12.9236
吻	-12.9237
頋	-12.9237
哽	-12.9238
袄	-12.9238
餔	-12.9238
瘕	-12.9239
懵	-12.924
塩	-12.924
嗷	-12.9241
曀	-12.9241
茸	-12.9241
荄	-12.9241
崙	-12.9241
沆	-12.9241
邠	-12.9242
艘	-12.9242
褻	-12.9243
沬	-12.9243
柿	-12.9243
仔	-12.9244
緇	-12.9244
漾	-12.9244
爺	-12.9244
懌	-12.9244
苕	-12.9244
芟	-12.9244
蕙	-12.9244
㓛	-12.9245
瀬	-12.9246
蓼	-12.9246
濠	-12.9247
欝	-12.9247
訌	-12.9247
𦍑	-12.9247
淊	-12.9247
㚄	-12.9247
歠	-12.9248
匕	-12.9249
慜	-12.9249
鱔	-12.9249
罙	-12.9249
眹	-12.925
蝮	-12.925
夬	-12.9251
餞	-12.9251
礎	-12.9252
𩅺	-12.9252
旰	-12.9253
祲	-12.9253
滃	-12.9254
阡	-12.9254
䔥	-12.9254
檠	-12.9254
瑪	-12.9255
断	-12.9256
貲	-12.9256
瀏	-12.9256
瓫	-12.9257
羇	-12.9258
醖	-12.9261
蠧	-12.9262
妒	-12.9264
箔	-12.9265
貍	-12.9265
姙	-12.9266
蚰	-12.9274
膁	-12.9298
𡍼	-13.0836
駞	-13.0859
鐍	-13.0861
齧	-13.0862
鐄	-13.0865
緍	-13.0868
痩	-13.087
窪	-13.087
沅	-13.0872
衲	-13.0872
㸑	-13.0873
魉	-13.0873
孺	-13.0873
莢	-13.0874
蹉	-13.0874
岌	-13.0874
磋	-13.0876
泂	-13.0877
磚	-13.0877
卞	-13.0877
薯	-13.0879
壮	-13.0879
𨵗	-13.0879
煴	-13.088
稌	-13.088
喎	-13.0881
煻	-13.0881
仝	-13.0884
𩲕	-13.0885
擧	-13.0885
灣	-13.0885
𠮷	-13.0885
䏻	-13.0885
塔	-13.0886
灘	-13.0886
昉	-13.0887
蹷	-13.0887
癤	-13.0888
駁	-13.0889
蹊	-13.089
㢠	-13.0891
𦆑	-13.0891
亷	-13.0891
嘶	-13.0891
耰	-13.0891
寖	-13.0892
獎	-13.0892
筯	-13.0892
鋌	-13.0893
𥵂	-13.0893
黥	-13.0893
皦	-13.0893
𩲲	-13.0893
羆	-13.0893
胙	-13.0894
蹻	-13.0894
璜	-13.0895
磊	-13.0895
鄴	-13.0895
麋	-13.0895
絛	-13.0895
扵	-13.0896
𡖥	-13.0896
翱	-13.0896
怜	-13.0896
槳	-13.0896
甍	-13.0897
撝	-13.0897
昳	-13.0898
瓌	-13.0898
饁	-13.0898
墁	-13.0898
錀	-13.0899
篕	-13.0899
燬	-13.09
磁	-13.09
驎	-13.09
瘇	-13.09
菟	-13.09
閈	-13.09
這	-13.09
䔍	-13.0901
湄	-13.0901
猾	-13.0901
穽	-13.0901
舩	-13.0902
窄	-13.0902
菑	-13.0902
𨚫	-13.0902
慼	-13.0902
饈	-13.0903
聘	-13.0903
惋	-13.0903
觚	-13.0903
嫰	-13.0903
鬲	-13.0903
詈	-13.0904
欹	-13.0904
䧏	-13.0904
焱	-13.0905
栝	-13.0905
詿	-13.0905
沔	-13.0905
眏	-13.0905
逯	-13.0906
𨗿	-13.0906
撾	-13.0907
甌	-13.0907
傴	-13.0907
犇	-13.0907
垜	-13.0907
礼	-13.0907
爝	-13.0907
捩	-13.0907
恂	-13.0908
陜	-13.0908
蝀	-13.0908
絙	-13.0908
澟	-13.0909
抒	-13.0909
潼	-13.0909
棋	-13.0909
熺	-13.091
笠	-13.091
雩	-13.091
䨱	-13.0911
𣢾	-13.0911
濮	-13.0911
嶓	-13.0911
訧	-13.0911
贄	-13.0911
|	-13.0912
湎	-13.0912
瑯	-13.0913
腠	-13.0913
慣	-13.0913
㖟	-13.0913
侗	-13.0914
漕	-13.0914
庄	-13.0915
蚕	-13.0916
氈	-13.0916
苓	-13.0916
莱	-13.0916
蚋	-13.0916
摳	-13.0917
奩	-13.0917
麺	-13.0917
𢖍	-13.0917
胯	-13.0919
珉	-13.0919
爱	-13.092
剗	-13.092
𡒄	-13.0921
剽	-13.0922
甆	-13.0923
藂	-13.0924
俻	-13.0924
𡖉	-13.0924
蹰	-13.0925
壻	-13.0926
叠	-13.0926
䫙	-13.0929
㩲	-13.093
咈	-13.0934
跧	-13.0936
鼉	-13.0937
蟹	-13.0939
瞰	-13.0939
欒	-13.0945
桫	-13.0948
䂖	-13.0953
淦	-13.0958
顴	-13.0961
芮	-13.2816
駱	-13.2834
縋	-13.2841
闍	-13.2846
蘸	-13.2847
芎	-13.2847
泚	-13.2848
泌	-13.2853
袪	-13.2857
圡	-13.286
襦	-13.2861
璟	-13.2863
紿	-13.2863
擠	-13.2864
蜦	-13.2865
郞	-13.2868
尫	-13.2869
惺	-13.287
愬	-13.2871
竚	-13.2871
惸	-13.2872
䋲	-13.2873
萸	-13.2874
壼	-13.2875
体	-13.2877
槽	-13.2877
堞	-13.2877
庾	-13.2878
鱠	-13.2878
瘠	-13.2879
聵	-13.2879
愔	-13.2879
癥	-13.288
蠒	-13.288
釵	-13.2881
耋	-13.2881
擴	-13.2881
掦	-13.2881
鄔	-13.2882
晟	-13.2883
𦵏	-13.2883
堊	-13.2884
搐	-13.2885
闞	-13.2886
磻	-13.2886
𩔗	-13.2887
冋	-13.2887
瘼	-13.2887
俘	-13.2887
㹠	-13.2887
觕	-13.2888
芘	-13.2888
势	-13.2888
玻	-13.2889
窠	-13.2889
嶸	-13.289
鬟	-13.289
𢣷	-13.289
晣	-13.289
朒	-13.289
櫻	-13.2891
徠	-13.2891
紬	-13.2891
栱	-13.2891
哮	-13.2892
鋼	-13.2892
窹	-13.2892
沫	-13.2892
朂	-13.2893
菱	-13.2893
寝	-13.2893
輳	-13.2893
梏	-13.2893
俳	-13.2893
龞	-13.2893
葦	-13.2894
臃	-13.2894
珎	-13.2894
裨	-13.2895
呴	-13.2896
譲	-13.2896
扞	-13.2897
旴	-13.2897
吃	-13.2897
瘤	-13.2897
冑	-13.2897
釭	-13.2897
玲	-13.2898
𡾓	-13.2898
糝	-13.2899
剩	-13.2899
龔	-13.2899
雛	-13.2899
濘	-13.2899
頷	-13.29
掉	-13.29
邂	-13.29
丰	-13.29
洵	-13.29
洶	-13.29
顥	-13.29
帟	-13.2901
疚	-13.2901
嚕	-13.2902
𧆛	-13.2902
脘	-13.2902
瀨	-13.2902
壌	-13.2903
逅	-13.2903
䂊	-13.2903
𣡡	-13.2903
酗	-13.2903
𥚹	-13.2904
邐	-13.2904
楝	-13.2905
鋟	-13.2905
懶	-13.2905
閹	-13.2905
蜮	-13.2905
箒	-13.2906
万	-13.2906
碯	-13.2906
㨗	-13.2906
璚	-13.2906
沂	-13.2906
甜	-13.2906
聼	-13.2906
黝	-13.2907
萇	-13.2907
碁	-13.2907
勳	-13.2908
殛	-13.2908
饘	-13.2908
驀	-13.2908
釡	-13.2908
荃	-13.2908
楔	-13.2909
窅	-13.2909
萋	-13.2909
𠋫	-13.2909
賽	-13.291
愠	-13.291
竢	-13.291
㝡	-13.291
侑	-13.291
劾	-13.291
矻	-13.291
噎	-13.2911
祁	-13.2911
漳	-13.2911
輈	-13.2911
𣊻	-13.2911
懊	-13.2911
膲	-13.2912
椅	-13.2912
犲	-13.2912
梢	-13.2912
惨	-13.2912
闻	-13.2912
呑	-13.2912
袤	-13.2912
𡱈	-13.2912
𤊨	-13.2912
懦	-13.2913
慤	-13.2913
蛀	-13.2913
彪	-13.2913
忡	-13.2913
滲	-13.2913
糿	-13.2915
翎	-13.2916
醻	-13.2916
僂	-13.2917
𤙖	-13.2917
鉗	-13.2917
阔	-13.2918
䦕	-13.2918
尻	-13.2918
坰	-13.2918
𠕋	-13.2918
睹	-13.292
輭	-13.292
佃	-13.292
綘	-13.2921
羮	-13.2922
糶	-13.2922
杪	-13.2923
棓	-13.2923
溘	-13.2923
𤣥	-13.2924
彞	-13.2924
羹	-13.2924
呀	-13.2924
瘗	-13.2925
熠	-13.2925
楗	-13.2925
灜	-13.2925
埀	-13.2926
嵌	-13.2927
𠊱	-13.2927
戱	-13.2928
荔	-13.2928
幬	-13.2929
踣	-13.2929
亀	-13.2929
洊	-13.293
鍔	-13.2931
堠	-13.2931
趺	-13.2932
勻	-13.2932
蜓	-13.2933
繙	-13.2933
悰	-13.2933
侫	-13.2934
㪍	-13.2934
爼	-13.2934
𡵯	-13.2934
菡	-13.2934
鑽	-13.2935
拇	-13.2936
瞖	-13.2937
偟	-13.2937
䗫	-13.2938
闃	-13.294
躶	-13.294
郄	-13.294
獐	-13.2943
飫	-13.2947
蜣	-13.2965
踝	-13.2969
澧	-13.2973
蝱	-13.2975
捺	-13.2997
埦	-13.5287
旼	-13.5313
闆	-13.5319
迕	-13.5327
踉	-13.5349
袴	-13.5352
枳	-13.5352
苧	-13.5353
刮	-13.5356
倅	-13.5356
蘗	-13.5357
爨	-13.5359
䜴	-13.536
洫	-13.5363
瑋	-13.5364
篷	-13.5366
蹶	-13.5367
搓	-13.5367
屡	-13.5368
憊	-13.537
熨	-13.537
洄	-13.5373
塼	-13.5374
毆	-13.5375
扳	-13.5375
撹	-13.5375
殱	-13.5375
蟊	-13.5377
駑	-13.5377
儆	-13.5378
頹	-13.5378
覯	-13.5378
騃	-13.5379
𧙓	-13.538
𨹧	-13.538
眎	-13.538
哪	-13.538
勺	-13.5381
刎	-13.5381
淤	-13.5381
霤	-13.5381
㡌	-13.5381
汴	-13.5381
摴	-13.5381
攧	-13.5382
伹	-13.5382
巉	-13.5382
佚	-13.5384
纖	-13.5385
鷃	-13.5385
診	-13.5385
蔀	-13.5385
煜	-13.5386
盬	-13.5386
婣	-13.5386
砧	-13.5386
玦	-13.5387
瘢	-13.5388
潙	-13.5388
蒯	-13.5388
𨑰	-13.5388
𨷖	-13.5388
杼	-13.5388
軺	-13.5389
詫	-13.5389
猜	-13.5389
墅	-13.539
鷦	-13.5391
漪	-13.5391
简	-13.5391
㝃	-13.5391
摯	-13.5391
啇	-13.5391
藐	-13.5391
涂	-13.5391
腆	-13.5392
韭	-13.5392
莚	-13.5392
嚙	-13.5392
暌	-13.5393
忉	-13.5393
嗑	-13.5393
䞋	-13.5393
摹	-13.5393
澀	-13.5393
釧	-13.5395
罸	-13.5395
愻	-13.5395
豸	-13.5396
騷	-13.5396
噷	-13.5396
晬	-13.5396
㒺	-13.5396
㝎	-13.5396
奐	-13.5396
顰	-13.5396
凂	-13.5397
鍛	-13.5397
扼	-13.5397
獬	-13.5398
榼	-13.5398
櫓	-13.5398
𠏉	-13.5398
硫	-13.5399
鼙	-13.5399
犧	-13.5399
篁	-13.54
爆	-13.54
尔	-13.54
洙	-13.54
鬐	-13.54
𣊬	-13.54
奂	-13.54
玆	-13.54
煬	-13.54
苻	-13.54
劌	-13.54
謇	-13.54
癈	-13.5401
篠	-13.5402
蜆	-13.5402
蕕	-13.5402
𦦨	-13.5403
暵	-13.5403
㗭	-13.5403
蓉	-13.5403
駌	-13.5403
竽	-13.5403
椽	-13.5403
𨺚	-13.5404
蒺	-13.5404
㘭	-13.5404
㫒	-13.5404
䏈	-13.5404
迺	-13.5404
卽	-13.5406
拋	-13.5406
滎	-13.5406
蝢	-13.5406
逗	-13.5406
跑	-13.5406
汜	-13.5407
懀	-13.5407
癃	-13.5407
慥	-13.5407
轆	-13.5407
熹	-13.5409
倨	-13.5409
睽	-13.5409
軼	-13.5409
嵉	-13.5409
筴	-13.5409
墝	-13.5409
豋	-13.5409
覉	-13.541
丅	-13.541
掊	-13.541
衹	-13.541
䖏	-13.5411
黽	-13.5411
郜	-13.5411
酧	-13.5411
孃	-13.5413
賾	-13.5413
僑	-13.5414
𥁞	-13.5414
虢	-13.5414
週	-13.5414
鵶	-13.5414
捽	-13.5414
擯	-13.5414
嘏	-13.5415
廐	-13.5416
鋾	-13.5416
奨	-13.5416
牃	-13.5417
朧	-13.5417
湌	-13.5417
嗉	-13.5417
艫	-13.5418
滉	-13.5418
侠	-13.542
拉	-13.542
爀	-13.542
琬	-13.542
撽	-13.542
仿	-13.5421
柞	-13.5421
藁	-13.5421
翺	-13.5421
皛	-13.5422
窶	-13.5422
儜	-13.5422
撟	-13.5422
綆	-13.5422
褊	-13.5422
隗	-13.5422
堲	-13.5424
瓖	-13.5424
剮	-13.5425
嚚	-13.5425
揵	-13.5427
芩	-13.5427
𥫽	-13.5427
啒	-13.5427
隼	-13.5428
苾	-13.5428
纜	-13.5428
勗	-13.5428
疢	-13.5429
□	-13.5429
婌	-13.5429
𤨏	-13.5429
蚖	-13.5429
櫈	-13.5432
釤	-13.5432
刖	-13.5433
劘	-13.5434
飱	-13.5434
綳	-13.5434
箠	-13.5435
㩀	-13.5437
楼	-13.5438
貶	-13.5439
蘚	-13.5439
𤇆	-13.5439
𤤠	-13.544
黏	-13.5441
阎	-13.5442
郫	-13.5443
隐	-13.5443
棐	-13.5444
嵇	-13.5445
瞩	-13.5445
琛	-13.545
胛	-13.5453
𧗊	-13.5454
槍	-13.5458
肋	-13.546
𧍒	-13.5464
帑	-13.5479
呇	-13.5485
燖	-13.5504
臀	-13.5586
𨳕	-13.8639
紘	-13.8658
壕	-13.8664
嶲	-13.8664
闋	-13.8666
媪	-13.8666
魴	-13.8666
閶	-13.8669
秣	-13.8674
箏	-13.8674
礦	-13.8677
茟	-13.8679
斆	-13.8683
讙	-13.8683
枤	-13.8683
殲	-13.8683
臠	-13.8685
璬	-13.8687
銲	-13.8687
牗	-13.8689
糗	-13.8689
噪	-13.8691
埒	-13.8691
鴆	-13.8691
簪	-13.8691
桁	-13.8693
箆	-13.8693
軋	-13.8693
駮	-13.8693
矇	-13.8693
㢮	-13.8695
睢	-13.8695
倬	-13.8695
麁	-13.8695
霊	-13.8697
儁	-13.8697
撑	-13.8697
毘	-13.8697
傘	-13.8697
篾	-13.8698
删	-13.8699
埜	-13.8699
襁	-13.8701
𡙎	-13.8701
驍	-13.8701
讌	-13.8702
䈥	-13.8703
妥	-13.8703
𥱊	-13.8703
㓨	-13.8703
喁	-13.8703
瑾	-13.8703
砰	-13.8704
鏖	-13.8704
昺	-13.8704
妵	-13.8704
啣	-13.8706
犖	-13.8706
罽	-13.8708
薏	-13.8708
鬒	-13.8708
迁	-13.871
齠	-13.871
呷	-13.871
隈	-13.871
婇	-13.871
陔	-13.871
𨷂	-13.8711
揔	-13.8712
菰	-13.8712
顫	-13.8712
崒	-13.8712
昃	-13.8712
棃	-13.8713
胱	-13.8714
帊	-13.8714
矦	-13.8714
蓍	-13.8716
萍	-13.8716
敝	-13.8716
褉	-13.8716
蜑	-13.8716
刊	-13.8716
穣	-13.8716
韈	-13.8718
彥	-13.8718
腔	-13.8718
嬀	-13.8718
薺	-13.8718
茁	-13.8718
縢	-13.8718
壙	-13.872
宕	-13.872
氓	-13.872
玠	-13.872
䦘	-13.872
榔	-13.872
硏	-13.872
蒐	-13.872
𠾱	-13.872
𩚑	-13.8722
咷	-13.8722
酖	-13.8722
漻	-13.8722
樁	-13.8722
汹	-13.8722
𥜗	-13.8722
矟	-13.8722
𣀮	-13.8724
茗	-13.8724
肧	-13.8724
芙	-13.8724
関	-13.8724
鴽	-13.8724
壚	-13.8724
梘	-13.8724
嶪	-13.8724
縵	-13.8724
纁	-13.8724
勣	-13.8725
鞞	-13.8726
㠶	-13.8726
襌	-13.8726
塟	-13.8726
娉	-13.8726
沇	-13.8726
𤤽	-13.8726
憾	-13.8726
棣	-13.8726
緗	-13.8727
营	-13.8728
𩳀	-13.8728
闉	-13.8728
粃	-13.8728
抉	-13.8728
橅	-13.8728
浛	-13.8728
㯶	-13.8728
囌	-13.8728
霣	-13.8728
𩬊	-13.8728
曚	-13.8729
殢	-13.8729
餋	-13.873
枿	-13.873
蟆	-13.873
巇	-13.873
曒	-13.8731
沗	-13.8731
纹	-13.8731
畊	-13.8731
塢	-13.8731
蒋	-13.8731
詘	-13.8731
霳	-13.8731
䥴	-13.8731
搒	-13.8731
晅	-13.8731
顗	-13.8731
㓊	-13.8732
瞞	-13.8732
宙	-13.8733
躚	-13.8733
絓	-13.8733
麪	-13.8733
廛	-13.8733
呂	-13.8733
摟	-13.8733
洹	-13.8733
跖	-13.8733
涔	-13.8734
狭	-13.8735
嵓	-13.8735
㮏	-13.8735
咯	-13.8735
緻	-13.8735
𠐻	-13.8735
圏	-13.8735
栰	-13.8735
餗	-13.8735
匈	-13.8736
氯	-13.8737
煽	-13.8737
仄	-13.8737
瓞	-13.8737
舸	-13.8737
懟	-13.8737
晁	-13.8737
艽	-13.8737
撈	-13.8739
懣	-13.8739
曡	-13.8739
渰	-13.8739
㒒	-13.8739
咲	-13.8739
瞤	-13.8739
𨵈	-13.8741
恁	-13.8741
濾	-13.8741
襞	-13.8741
璪	-13.8741
姝	-13.8741
遀	-13.8741
嗤	-13.8741
杇	-13.8741
糅	-13.8741
愷	-13.8741
莧	-13.8743
櫬	-13.8743
嫂	-13.8743
纛	-13.8743
蛉	-13.8743
掀	-13.8743
睫	-13.8743
䚴	-13.8743
䄛	-13.8743
琮	-13.8743
㩦	-13.8743
烘	-13.8743
猩	-13.8743
𨵦	-13.8743
僎	-13.8745
躕	-13.8745
丨	-13.8745
誔	-13.8745
舂	-13.8745
隰	-13.8745
栶	-13.8745
濺	-13.8745
髀	-13.8747
圑	-13.8747
牷	-13.8747
埡	-13.8747
崧	-13.8747
啚	-13.8747
罇	-13.8747
鮓	-13.8747
詒	-13.8749
郍	-13.8749
僭	-13.8749
䘵	-13.8749
霸	-13.8749
阪	-13.8751
蛣	-13.8751
雝	-13.8751
㢤	-13.8751
圌	-13.8751
孿	-13.8751
雋	-13.8751
𥴩	-13.8751
撚	-13.8753
鬥	-13.8753
荣	-13.8753
藺	-13.8753
唏	-13.8753
讁	-13.8753
扛	-13.8753
䈁	-13.8754
琨	-13.8755
㠊	-13.8755
謮	-13.8755
簨	-13.8755
㖿	-13.8755
嗏	-13.8755
矬	-13.8756
跢	-13.8756
瑜	-13.8757
䓗	-13.8757
賮	-13.8757
棧	-13.8757
肭	-13.8757
儈	-13.8757
呶	-13.8757
洮	-13.8758
櫪	-13.8758
㱼	-13.8758
狖	-13.8758
殀	-13.8758
䞇	-13.8758
迯	-13.8758
厮	-13.8758
釗	-13.8758
鯈	-13.8758
縲	-13.876
劊	-13.876
叫	-13.876
𤯹	-13.876
瓷	-13.8762
蔗	-13.8762
殤	-13.8762
婴	-13.8762
𧰟	-13.8764
屎	-13.8764
擡	-13.8764
劂	-13.8764
张	-13.8764
趋	-13.8764
𢙫	-13.8766
簀	-13.8766
雒	-13.8766
泱	-13.8766
椷	-13.8768
窗	-13.8768
鬣	-13.8768
摝	-13.8768
坵	-13.877
擦	-13.877
汵	-13.877
睱	-13.877
褔	-13.8771
𥲤	-13.8771
罝	-13.8772
禙	-13.8772
𧻞	-13.8772
莬	-13.8774
郴	-13.8774
糖	-13.8776
仵	-13.8776
遄	-13.8776
灔	-13.8776
汀	-13.8776
雑	-13.8776
鈌	-13.8778
怍	-13.8778
丱	-13.8778
焈	-13.8778
鏃	-13.8779
缘	-13.878
壩	-13.878
浼	-13.878
经	-13.878
賭	-13.8782
咭	-13.8785
觔	-13.8787
剜	-13.8789
盝	-13.8789
咪	-13.8789
叹	-13.8789
綫	-13.8791
拗	-13.8793
蜴	-13.8795
悒	-13.8795
焙	-13.8799
橈	-13.8801
芁	-13.8801
祑	-13.8807
鏹	-13.8811
壍	-13.8812
䲭	-13.8816
蛛	-13.882
蝂	-13.883
膞	-13.8834
𧋍	-13.8868
轎	-14.3613
閠	-14.3619
僁	-14.3623
鎰	-14.3626
菷	-14.363
㥽	-14.3632
閘	-14.3632
湜	-14.3635
呱	-14.3645
蕈	-14.3645
玡	-14.3651
鈿	-14.3651
㡠	-14.3651
僦	-14.3654
嶻	-14.3654
崦	-14.3654
鞴	-14.3657
媛	-14.3657
愒	-14.3664
痳	-14.3664
夆	-14.3664
莘	-14.3667
鈲	-14.3667
昄	-14.3667
翬	-14.367
貂	-14.367
惴	-14.367
樾	-14.3673
烖	-14.3676
颲	-14.3676
攤	-14.3679
偰	-14.3679
墼	-14.3679
虫	-14.3679
姫	-14.3682
偘	-14.3682
杷	-14.3683
拝	-14.3683
廿	-14.3683
欘	-14.3683
琱	-14.3683
謪	-14.3683
娬	-14.3685
澒	-14.3685
昵	-14.3686
凳	-14.3686
虯	-14.3686
罾	-14.3686
菀	-14.3689
瓏	-14.3689
厝	-14.3689
挼	-14.3689
屦	-14.3689
瞎	-14.3689
勌	-14.3689
繤	-14.3689
嵲	-14.3689
畹	-14.3689
荳	-14.3689
莒	-14.3689
闖	-14.3692
蝻	-14.3692
聯	-14.3692
矌	-14.3692
噰	-14.3692
岨	-14.3695
侚	-14.3695
匚	-14.3695
矺	-14.3695
隩	-14.3695
㫿	-14.3695
抝	-14.3695
誾	-14.3698
跎	-14.3698
戻	-14.3698
欀	-14.3698
坏	-14.3698
饔	-14.3698
沠	-14.3698
畛	-14.3698
紉	-14.3698
蔫	-14.3701
殕	-14.3701
娃	-14.3701
隤	-14.3701
挍	-14.3701
楞	-14.3701
觝	-14.3701
甁	-14.3701
驇	-14.3701
詃	-14.3701
瘀	-14.3704
躄	-14.3704
腊	-14.3705
墯	-14.3705
霪	-14.3705
鄖	-14.3705
餱	-14.3705
盾	-14.3705
蒔	-14.3705
褫	-14.3705
鑣	-14.3705
翽	-14.3705
衽	-14.3705
俲	-14.3705
懞	-14.3705
鹰	-14.3705
琯	-14.3708
慞	-14.3708
曬	-14.3708
疸	-14.3708
蕊	-14.3708
穸	-14.3708
兕	-14.3708
刘	-14.3708
尓	-14.3708
淍	-14.3708
穉	-14.3708
緌	-14.3708
耜	-14.3708
覦	-14.3708
郗	-14.3708
鵾	-14.3708
諺	-14.3711
皞	-14.3711
虩	-14.3711
穠	-14.3711
㡭	-14.3711
泫	-14.3711
洸	-14.3711
猱	-14.3711
腧	-14.3711
崷	-14.3711
挌	-14.3711
竂	-14.3711
篟	-14.3711
馗	-14.3714
灭	-14.3714
瓘	-14.3714
疝	-14.3714
頳	-14.3714
㠓	-14.3714
捃	-14.3714
㖡	-14.3714
睴	-14.3714
騏	-14.3714
嘍	-14.3714
瓓	-14.3714
町	-14.3714
㨷	-14.3714
㿗	-14.3714
单	-14.3714
嗾	-14.3714
嫵	-14.3714
尠	-14.3714
滻	-14.3714
皭	-14.3714
肄	-14.3714
軃	-14.3714
鐖	-14.3714
鬍	-14.3714
闠	-14.3717
酹	-14.3717
醎	-14.3717
銭	-14.3717
歯	-14.3717
滹	-14.3717
驊	-14.3717
䯽	-14.3717
閾	-14.3717
䤋	-14.3717
枋	-14.3717
檟	-14.3717
玏	-14.3719
枇	-14.372
狷	-14.372
繖	-14.372
贜	-14.372
鄽	-14.372
埧	-14.372
斐	-14.372
么	-14.372
嬈	-14.372
舖	-14.372
屛	-14.372
欂	-14.372
沲	-14.372
淇	-14.372
炤	-14.372
帤	-14.372
罥	-14.372
槤	-14.3723
蹝	-14.3723
爂	-14.3723
酤	-14.3723
煫	-14.3723
痰	-14.3723
籝	-14.3723
芨	-14.3723
薕	-14.3723
嫠	-14.3723
晈	-14.3723
灊	-14.3723
蜩	-14.3723
貙	-14.3723
剚	-14.3723
篬	-14.3723
謢	-14.3725
㜸	-14.3727
囦	-14.3727
隟	-14.3727
逵	-14.3727
唼	-14.3727
嫓	-14.3727
䇺	-14.3727
桞	-14.3727
俌	-14.3727
慠	-14.3727
扭	-14.3727
搔	-14.3727
澂	-14.3727
繊	-14.3727
鈇	-14.3727
韯	-14.3727
飀	-14.3727
絺	-14.373
綌	-14.373
㤅	-14.373
儿	-14.373
卸	-14.373
磹	-14.373
儌	-14.373
众	-14.373
佉	-14.373
彙	-14.373
梱	-14.373
樍	-14.373
芾	-14.373
鋳	-14.373
頬	-14.373
㧕	-14.3731
蠙	-14.3731
揑	-14.3733
蜻	-14.3733
㹸	-14.3733
嚌	-14.3733
屭	-14.3733
崪	-14.3733
譙	-14.3733
偑	-14.3733
椘	-14.3733
璲	-14.3733
蓂	-14.3733
辣	-14.3733
鈛	-14.3733
捋	-14.3735
蕡	-14.3736
须	-14.3736
鐃	-14.3736
蝉	-14.3736
劭	-14.3736
扑	-14.3736
箴	-14.3736
紞	-14.3736
詼	-14.3736
鍮	-14.3736
鶻	-14.3736
鷗	-14.3736
灈	-14.3738
訢	-14.3739
憬	-14.3739
鬽	-14.3739
樑	-14.3739
狙	-14.3739
賙	-14.3739
鎸	-14.3739
䆒	-14.3739
䰠	-14.3739
仃	-14.3739
剸	-14.3739
壐	-14.3739
菁	-14.3739
貉	-14.3739
鏕	-14.3739
鯁	-14.3739
麄	-14.3739
窆	-14.3742
䡖	-14.3742
傒	-14.3742
魎	-14.3742
憀	-14.3742
柚	-14.3742
紓	-14.3742
倮	-14.3742
璆	-14.3742
笻	-14.3742
罍	-14.3742
頡	-14.3742
鶩	-14.3742
㗣	-14.3742
䨙	-14.3742
抨	-14.3742
樛	-14.3742
粵	-14.3742
糯	-14.3742
蔦	-14.3742
鍠	-14.3742
襃	-14.3745
蠏	-14.3745
绝	-14.3745
羾	-14.3745
描	-14.3745
笄	-14.3745
逥	-14.3745
駛	-14.3745
㶚	-14.3745
簜	-14.3745
佊	-14.3745
厎	-14.3745
閥	-14.3745
幌	-14.3745
訉	-14.3745
䌫	-14.3745
呰	-14.3745
喏	-14.3745
嘸	-14.3745
庬	-14.3745
惙	-14.3745
殰	-14.3745
狻	-14.3745
簔	-14.3745
羿	-14.3745
葅	-14.3745
颭	-14.3745
緃	-14.3747
涬	-14.3748
坌	-14.3749
儘	-14.3749
圴	-14.3749
怔	-14.3749
鑕	-14.3749
嘷	-14.3749
忓	-14.3749
萆	-14.3749
銊	-14.3749
頺	-14.3749
㮒	-14.3749
烙	-14.3749
磷	-14.3749
賻	-14.3749
【	-14.375
・	-14.375
鑛	-14.3751
絀	-14.3752
䯻	-14.3752
蚪	-14.3752
鮫	-14.3752
囙	-14.3752
埠	-14.3752
旝	-14.3752
湋	-14.3752
湏	-14.3752
琤	-14.3752
畟	-14.3752
綖	-14.3752
萧	-14.3752
蒃	-14.3752
蝇	-14.3752
訅	-14.3752
跼	-14.3752
轇	-14.3752
徘	-14.3755
见	-14.3755
閧	-14.3755
巠	-14.3755
竉	-14.3755
变	-14.3755
喊	-14.3755
斝	-14.3755
偹	-14.3755
卬	-14.3755
捿	-14.3755
悍	-14.3755
曯	-14.3755
汋	-14.3755
滭	-14.3755
皐	-14.3755
糴	-14.3755
毖	-14.3755
莞	-14.3755
閇	-14.3755
琞	-14.3758
禕	-14.3758
耍	-14.3758
辮	-14.3758
獒	-14.3758
攢	-14.3758
璐	-14.3758
凮	-14.3758
吘	-14.3758
帆	-14.3758
恟	-14.3758
裭	-14.3758
讞	-14.3758
朢	-14.3761
絣	-14.3761
鉸	-14.3761
臑	-14.3761
蜝	-14.3761
賡	-14.3761
杰	-14.3761
竞	-14.3761
说	-14.3761
隧	-14.3761
Z	-14.3761
佶	-14.3761
穈	-14.3761
笮	-14.3761
疎	-14.3764
票	-14.3764
语	-14.3764
瓴	-14.3764
搸	-14.3764
戡	-14.3764
檣	-14.3764
靛	-14.3764
鶄	-14.3764
湟	-14.3764
癯	-14.3764
閴	-14.3764
煅	-14.3764
禫	-14.3764
莆	-14.3764
虀	-14.3764
嗸	-14.3764
圉	-14.3764
栿	-14.3764
皜	-14.3764
楶	-14.3767
麫	-14.3767
瑣	-14.3767
纊	-14.3768
鵁	-14.3768
丫	-14.3768
柲	-14.3768
棌	-14.3768
曍	-14.3768
菅	-14.3768
菽	-14.3769
抶	-14.3771
窃	-14.3771
雰	-14.3771
䦝	-14.3771
椂	-14.3771
埛	-14.3771
饜	-14.3771
髄	-14.3771
估	-14.3771
袓	-14.3771
飰	-14.3771
峥	-14.3771
濽	-14.3771
窩	-14.3771
顀	-14.3771
臏	-14.3771
廌	-14.3774
眛	-14.3774
麕	-14.3774
僝	-14.3774
迟	-14.3774
両	-14.3774
膀	-14.3774
蒹	-14.3774
峡	-14.3777
䡠	-14.3777
盎	-14.3777
猝	-14.3777
廾	-14.378
烥	-14.378
嗥	-14.378
孶	-14.378
撢	-14.3783
气	-14.3783
蠋	-14.3783
劖	-14.3783
伉	-14.3786
腮	-14.3786
鍬	-14.3788
冏	-14.3789
韛	-14.3789
濩	-14.379
䆠	-14.379
搭	-14.379
煟	-14.379
侓	-14.379
搫	-14.379
粦	-14.379
旐	-14.3793
夑	-14.3793
汶	-14.3793
袒	-14.3793
蹺	-14.3793
酵	-14.3793
昶	-14.3795
颜	-14.3796
曛	-14.3796
郢	-14.3796
箂	-14.3796
琦	-14.3796
鸇	-14.3799
佘	-14.3799
鞲	-14.3799
鴐	-14.3799
涙	-14.3799
㩴	-14.3801
碾	-14.3802
柘	-14.3802
筊	-14.3802
唤	-14.3802
澠	-14.3802
漚	-14.3805
撙	-14.3805
幇	-14.3805
頦	-14.3809
鷂	-14.3811
换	-14.3812
饅	-14.3821
捎	-14.3821
賨	-14.3827
硾	-14.3829
岵	-14.3837
呿	-14.3837
呐	-14.384
䈪	-14.3843
螯	-14.3881
㹨	-14.3884
绛	-14.3891
麀	-15.3352
鷸	-15.3353
鵜	-15.3354
鱓	-15.3355
鰕	-15.3356
鯢	-15.3357
鬴	-15.3358
鬭	-15.3359
髦	-15.336
餺	-15.3361
餮	-15.3362
飪	-15.3363
飥	-15.3364
頫	-15.3365
頞	-15.3366
韮	-15.3367
韙	-15.3368
靆	-15.3369
隮	-15.337
陴	-15.3371
陖	-15.3372
錘	-15.3373
銑	-15.3374
鉏	-15.3375
醑	-15.3376
鄲	-15.3377
郪	-15.3378
郃	-15.3379
邴	-15.338
邯	-15.3381
逬	-15.3382
轢	-15.3383
輱	-15.3384
輥	-15.3385
輓	-15.3386
蹁	-15.3387
踠	-15.3388
跬	-15.3389
趐	-15.339
觽	-15.3391
覼	-15.3392
襫	-15.3393
襜	-15.3394
襘	-15.3395
襏	-15.3396
襈	-15.3397
裌	-15.3398
袟	-15.3399
蟣	-15.34
螽	-15.3401
蝘	-15.3402
蝑	-15.3403
蜙	-15.3404
蜘	-15.3405
蛹	-15.3406
蚛	-15.3407
蘅	-15.3408
藟	-15.3409
薔	-15.341
蔎	-15.3411
蓿	-15.3412
蓞	-15.3413
葭	-15.3414
葂	-15.3415
萏	-15.3416
荑	-15.3417
苴	-15.3418
苡	-15.3419
苜	-15.342
艇	-15.3421
臒	-15.3422
胼	-15.3423
胝	-15.3424
肕	-15.3425
耔	-15.3426
翾	-15.3427
翇	-15.3428
罌	-15.3429
纈	-15.343
綟	-15.3431
簦	-15.3432
篈	-15.3433
箄	-15.3434
筩	-15.3435
笫	-15.3436
穜	-15.3437
禔	-15.3438
祔	-15.3439
矮	-15.344
矞	-15.3441
瞪	-15.3442
睺	-15.3443
睘	-15.3444
眵	-15.3445
眙	-15.3446
皋	-15.3447
癏	-15.3448
痞	-15.3449
痔	-15.345
痏	-15.3451
疳	-15.3452
疔	-15.3453
畞	-15.3454
甃	-15.3455
瑨	-15.3456
瑑	-15.3457
琭	-15.3458
琊	-15.3459
珥	-15.346
珙	-15.3461
珏	-15.3462
獍	-15.3463
爏	-15.3464
熳	-15.3465
潞	-15.3466
漭	-15.3467
渦	-15.3468
淝	-15.3469
淄	-15.347
泅	-15.3471
櫗	-15.3472
檔	-15.3473
橰	-15.3474
槹	-15.3475
楸	-15.3476
棕	-15.3477
梔	-15.3478
栳	-15.3479
权	-15.348
朏	-15.3481
曏	-15.3482
晧	-15.3483
旈	-15.3484
撕	-15.3485
撋	-15.3486
搴	-15.3487
搧	-15.3488
揶	-15.3489
扯	-15.349
戣	-15.3491
懤	-15.3492
慷	-15.3493
愿	-15.3494
愨	-15.3495
惧	-15.3496
惆	-15.3497
彀	-15.3498
弹	-15.3499
廙	-15.35
嶁	-15.3501
崼	-15.3502
崛	-15.3503
岣	-15.3504
屁	-15.3505
寀	-15.3506
宄	-15.3507
孥	-15.3508
囁	-15.3509
嚅	-15.351
嘇	-15.3511
喰	-15.3512
吡	-15.3513
剞	-15.3514
凸	-15.3515
兗	-15.3516
儳	-15.3517
傃	-15.3518
偓	-15.3519
倜	-15.352
俶	-15.3521
俜	-15.3522
伋	-15.3523
䳒	-15.3524
䧳	-15.3525
䦒	-15.3526
䡗	-15.3527
㾋	-15.3528
㼁	-15.3529
㴎	-15.353
㲹	-15.3531
㘕	-15.3532
】	-15.3533
𨪏	-15.3534
𤭁	-15.3535
𤄵	-15.3536
𢡠	-15.3537
𠸎	-15.3538
𠯲	-15.3539
𠜇	-15.354
﨑	-15.3541
齅	-15.3542
麂	-15.3543
鴦	-15.3544
鮧	-15.3545
饙	-15.3546
韁	-15.3547
阯	-15.3548
閿	-15.3549
鏫	-15.355
鋭	-15.3551
轤	-15.3552
豭	-15.3553
袷	-15.3554
蟯	-15.3555
蝴	-15.3556
蚳	-15.3557
蕣	-15.3558
蕢	-15.3559
萼	-15.356
菉	-15.3561
茰	-15.3562
茀	-15.3563
舳	-15.3564
腯	-15.3565
翡	-15.3566
翃	-15.3567
籯	-15.3568
籤	-15.3569
磽	-15.357
矍	-15.3571
瘓	-15.3572
瓔	-15.3573
瑄	-15.3574
琶	-15.3575
琵	-15.3576
燉	-15.3577
烊	-15.3578
濣	-15.3579
涪	-15.358
曨	-15.3581
斌	-15.3582
擻	-15.3583
抖	-15.3584
愇	-15.3585
嶙	-15.3586
嶇	-15.3587
峋	-15.3588
孀	-15.3589
媸	-15.359
奭	-15.3591
堋	-15.3592
勠	-15.3593
凙	-15.3594
䵟	-15.3595
䱌	-15.3596
䖟	-15.3597
㿈	-15.3598
𩃻	-15.3599
𧏙	-15.36
𣿖	-15.3601
𣿄	-15.3602
髟	-15.3603
譸	-15.3604
褓	-15.3605
螄	-15.3606
藭	-15.3607
蕷	-15.3608
胳	-15.3609
肸	-15.361
聶	-15.3611
羃	-15.3612
窬	-15.3613
稉	-15.3614
礱	-15.3615
碼	-15.3616
硨	-15.3617
癬	-15.3618
癉	-15.3619
瓈	-15.362
玎	-15.3621
狽	-15.3622
狢	-15.3623
煢	-15.3624
潧	-15.3625
淼	-15.3626
沚	-15.3627
檏	-15.3628
樟	-15.3629
桎	-15.363
枓	-15.3631
恓	-15.3632
嶒	-15.3633
崢	-15.3634
夥	-15.3635
塏	-15.3636
噍	-15.3637
嘢	-15.3638
嗡	-15.3639
咢	-15.364
劓	-15.3641
䏶	-15.3642
㻂	-15.3643
㫮	-15.3644
𡅗	-15.3645
齓	-15.3646
臾	-15.3647
鯸	-15.3647
驃	-15.3648
馹	-15.3649
酡	-15.365
郛	-15.3651
覡	-15.3652
蠛	-15.3653
蠓	-15.3654
螮	-15.3655
蜋	-15.3656
緦	-15.3657
礲	-15.3658
磲	-15.3659
确	-15.366
睪	-15.3661
癢	-15.3662
疥	-15.3663
玘	-15.3664
猗	-15.3665
楯	-15.3666
枲	-15.3667
嫡	-15.3668
倥	-15.3669
𧴀	-15.367
𠗂	-15.3671
駸	-15.3672
蹂	-15.3673
芭	-15.3674
臚	-15.3675
縞	-15.3676
紵	-15.3677
粢	-15.3678
穨	-15.3679
癕	-15.368
瑙	-15.3681
瑘	-15.3682
濱	-15.3683
濊	-15.3684
桅	-15.3685
憨	-15.3686
慽	-15.3687
坱	-15.3688
啾	-15.3689
𠯐	-15.369
鏑	-15.3691
踟	-15.3692
襠	-15.3693
蝜	-15.3694
笁	-15.3695
畯	-15.3696
榴	-15.3697
掗	-15.3698
憔	-15.3699
徜	-15.37
媧	-15.3701
坻	-15.3702
俙	-15.3703
䄡	-15.3704
駘	-15.3705
隲	-15.3706
鎧	-15.3707
鄞	-15.3708
蹌	-15.3709
蝝	-15.371
蜈	-15.3711
蚣	-15.3712
箎	-15.3713
痍	-15.3714
濜	-15.3715
嵳	-15.3716
崚	-15.3717
塤	-15.3718
厔	-15.3719
錙	-15.372
醐	-15.3721
醍	-15.3722
躇	-15.3723
翶	-15.3724
敡	-15.3725
婪	-15.3726
娩	-15.3727
咺	-15.3728
𦧇	-15.3729
鄱	-15.373
茯	-15.3731
讜	-15.3731
蟒	-15.3732
蝣	-15.3733
蜉	-15.3734
蚯	-15.3735
蚑	-15.3736
罟	-15.3737
瑝	-15.3738
弧	-15.3739
珀	-15.3739
嵬	-15.374
鋋	-15.3741
跣	-15.3742
葫	-15.3743
榑	-15.3744
咫	-15.3745
丏	-15.3745
𢭎	-15.3746
祊	-15.3747
邡	-15.3748
蕝	-15.3749
簁	-15.375
玕	-15.3751
啻	-15.3752
碌	-15.3753
瀼	-15.3754
忒	-15.3755
嚳	-15.3756
嗈	-15.3757
逶	-15.3758
幪	-15.3759
匍	-15.376
邙	-15.3761
錮	-15.3762
螣	-15.3763
窿	-15.3764
繽	-15.3765
湲	-15.3766
嵋	-15.3767
崆	-15.3768
絪	-15.3769
饉	-15.377
燾	-15.3771
嘹	-15.3772
蠁	-15.3773
滔	-15.3774
嚨	-15.3775
徬	-15.3776
逡	-15.3777
㬋	-15.3778
鹵	-15.3779
嗊	-15.378
禬	-15.3781
璀	-15.3782
䪃	-15.3783
螻	-15.3784
岧	-15.3785
黼	-15.3786
蝖	-15.3787
軻	-15.3788
嵯	-15.3789
瑠	-15.379
崘	-15.3791
氤	-15.3792
纉	-15.3793
靂	-15.3794
蘩	-15.3795
髣	-15.3795
