<unk>	0
<s>	0
</s>	0
。	-2.44423
,	-3.31891
者	-4.70675
、	-4.74298
故	-4.8488
▁	-4.94796
也	-4.97017
為	-5.10431
之	-5.15831
有	-5.28427
以	-5.28888
*	-5.30875
不	-5.32063
是	-5.32753
無	-5.33388
佛	-5.34209
法	-5.38716
於	-5.4126
此	-5.43983
二	-5.44414
心	-5.52468
(	-5.57823
如	-5.58227
)	-5.59651
生	-5.61903
若	-5.62548
即	-5.63135
行	-5.64021
相	-5.64283
中	-5.64433
一	-5.67193
而	-5.68121
;	-5.68465
非	-5.77643
見	-5.78763
三	-5.80104
說	-5.82311
等	-5.82655
名	-5.83189
菩薩	-5.86378
得	-5.8654
人	-5.88466
其	-5.90639
謂	-5.95636
彼	-5.97352
言	-5.97822
諸	-5.99159
!	-5.99784
身	-6.02551
大	-6.06342
如是	-6.08105
:「	-6.09945
明	-6.11193
四	-6.12553
一切	-6.12637
時	-6.12833
所	-6.13647
如來	-6.15276
則	-6.17943
及	-6.18575
我	-6.18636
義	-6.18992
觀	-6.19865
智	-6.2221
經	-6.23476
云	-6.25846
因	-6.27762
?	-6.29333
眾生	-6.29678
自	-6.32587
皆	-6.3315
▁南无	-6.3385
下	-6.33949
空	-6.34961
從	-6.38077
上	-6.38721
入	-6.38789
能	-6.38814
意	-6.39329
處	-6.44078
起	-6.44383
亦	-6.45096
性	-6.45285
離	-6.45349
道	-6.45405
知	-6.46166
常	-6.46303
今	-6.47566
與	-6.47976
成	-6.48742
。」	-6.4934
事	-6.49677
至	-6.49847
初	-6.51956
後	-6.52238
問	-6.52654
已	-6.53903
前	-6.54886
當	-6.54896
作	-6.57605
修	-6.57845
受	-6.59058
善	-6.59795
欲	-6.60131
。】「	-6.60245
滅	-6.61333
又	-6.6177
住	-6.61857
本	-6.628
在	-6.63616
世尊	-6.64837
地	-6.65926
眾	-6.6646
依	-6.66893
樂	-6.68788
色	-6.6928
。「	-6.71248
教	-6.71769
應	-6.72512
識	-6.72673
天	-6.73919
五	-6.74399
王	-6.74423
令	-6.74776
淨	-6.74893
果	-6.75707
現	-6.76233
覺	-6.76699
正	-6.76845
釋	-6.77305
出	-6.77541
分別	-6.78824
同	-6.78963
多	-6.79918
然	-6.8135
或	-6.81654
云何	-6.82057
緣	-6.82359
分	-6.82499
復	-6.83014
。」【	-6.83094
清淨	-6.84286
理	-6.85263
解	-6.85266
勝	-6.85526
通	-6.86135
隨	-6.86335
念	-6.87689
曰	-6.87881
由	-6.89097
斷	-6.90142
證	-6.9118
顯	-6.92025
雖	-6.92567
苦	-6.92906
用	-6.93357
定	-6.93603
但	-6.93718
文	-6.94289
論	-6.94338
既	-6.94402
即是	-6.94728
可	-6.96095
業	-6.96593
涅槃	-6.97304
慧	-6.97457
具	-6.97859
盡	-6.98095
種種	-6.99713
體	-7.00065
次	-7.0019
􂏥	-7.00427
別	-7.0059
惡	-7.01302
大慧	-7.01339
無量	-7.02154
巳	-7.03989
取	-7.04617
求	-7.0479
真	-7.05445
聞	-7.05668
難	-7.05951
來	-7.05977
方便	-7.05988
無有	-7.06391
功德	-7.0743
門	-7.07827
六	-7.08827
想	-7.08917
諸法	-7.0938
過	-7.10266
異	-7.10784
寶	-7.11282
力	-7.12382
答	-7.12397
破	-7.12779
解脫	-7.13539
耶	-7.13745
佛南無	-7.14066
妄想	-7.14158
名為	-7.14506
轉	-7.1483
乃	-7.16988
先	-7.17185
德	-7.1748
實	-7.1807
境	-7.18074
爾時	-7.18685
俱	-7.18977
境界	-7.19069
何	-7.19765
疏	-7.19869
示	-7.19982
唯	-7.20395
是故	-7.20431
食	-7.21182
化	-7.22012
生死	-7.22924
外	-7.23635
光	-7.23754
未	-7.23928
願	-7.2395
發	-7.24038
七	-7.25026
菩	-7.25076
合	-7.25112
愛	-7.25144
喻	-7.25741
對	-7.25799
攝	-7.26396
持	-7.27856
妙	-7.27912
乃至	-7.28043
汝	-7.28292
悉	-7.28368
水	-7.28944
餘	-7.28976
世間	-7.29121
世	-7.29245
因緣	-7.29538
聲	-7.29849
捨	-7.31025
煩惱	-7.33635
便	-7.3433
句	-7.34587
病	-7.3461
十	-7.34615
除	-7.35164
?」	-7.35691
約	-7.35907
方	-7.36213
戒	-7.36612
耳	-7.36698
善男子	-7.38082
語	-7.38289
施	-7.39096
內	-7.39597
數	-7.39991
根	-7.40492
不能	-7.40632
成就	-7.40717
華	-7.41203
信	-7.4136
度	-7.41849
八	-7.41972
】	-7.42515
南無	-7.43031
菩提	-7.43449
立	-7.43694
利	-7.43791
重	-7.44229
諸佛	-7.44285
圓	-7.44412
不生	-7.44806
去	-7.45291
無明	-7.45291
故云	-7.46316
光明	-7.46375
會	-7.46665
是名	-7.47524
不可	-7.47611
:『	-7.47621
報	-7.47638
他	-7.47872
智慧	-7.4793
結	-7.49704
品	-7.50607
廣	-7.51483
子	-7.51632
供養	-7.53084
具足	-7.53231
種	-7.53418
法身	-7.542
平等	-7.54221
山	-7.55569
外道	-7.55693
師	-7.56227
位	-7.56255
三昧	-7.56373
著	-7.56741
妄	-7.56772
宗	-7.56901
大乘	-7.579
小	-7.58038
月	-7.58367
聖	-7.5888
火	-7.59262
自在	-7.59889
聲聞	-7.6007
深	-7.60654
藏	-7.60677
物	-7.61127
世界	-7.61465
還	-7.61939
無常	-7.61991
執	-7.62207
共	-7.62379
自性	-7.62741
學	-7.6279
幻	-7.62829
修行	-7.63651
指	-7.64327
稱	-7.64418
一切法	-7.64546
舉	-7.64939
障	-7.65273
邪	-7.65441
不得	-7.65464
字	-7.65803
記	-7.65804
日	-7.6598
極	-7.66125
界	-7.66167
莊嚴	-7.66619
矣	-7.6673
使	-7.66839
香	-7.67023
所謂	-7.67063
止	-7.67219
譬如	-7.67316
趣	-7.68506
命	-7.68986
總	-7.69661
亦不	-7.70006
悟	-7.70026
死	-7.70422
罪	-7.70461
壞	-7.70588
國	-7.70899
集	-7.71047
:	-7.71102
照	-7.71452
各	-7.71592
比丘	-7.71988
安	-7.72163
眼	-7.72443
普	-7.73558
必	-7.73561
辨	-7.74395
引	-7.7456
斯	-7.74802
所以	-7.75047
劫	-7.77528
開	-7.7813
法性	-7.78275
不知	-7.78728
順	-7.79238
疑	-7.79325
第一	-7.79406
法界	-7.79507
樹	-7.79982
說法	-7.80058
動	-7.80728
二乘	-7.81227
流	-7.81506
無所	-7.81609
須	-7.81905
一切眾生	-7.81968
土	-7.82349
精進	-7.82575
更	-7.82635
第二	-7.83009
形	-7.83357
乎	-7.83675
迷	-7.84163
滿	-7.84167
計	-7.8459
長	-7.84807
尊	-7.84891
家	-7.85052
海	-7.85117
女	-7.85253
了	-7.85254
不同	-7.85468
惑	-7.8557
佛言	-7.86668
向	-7.86895
風	-7.86919
所說	-7.87231
兩	-7.87384
略	-7.87458
就	-7.88112
菩薩摩訶薩	-7.88925
墮	-7.8899
究竟	-7.89127
習	-7.89243
失	-7.90008
第三	-7.9026
乘	-7.90275
無生	-7.90368
凡夫	-7.90477
福	-7.90956
忍	-7.9097
喜	-7.91092
請	-7.91406
少	-7.9151
往	-7.91755
主	-7.92082
神	-7.92631
護	-7.92663
金	-7.92997
不見	-7.93253
之所	-7.93377
將	-7.93941
禪	-7.93974
魔	-7.95124
歸	-7.95365
音	-7.95639
復次	-7.9579
此經	-7.95853
足	-7.95976
真如	-7.96269
所有	-7.96735
輪	-7.96992
復有	-7.97016
塵	-7.97156
屬	-7.97462
▁初	-7.97594
益	-7.97934
九	-7.98033
百	-7.98438
坐	-7.99238
差別	-8.00229
貪	-8.00583
真實	-8.00671
假	-8.00904
遍	-8.01651
而不	-8.01729
圓覺	-8.01808
羅	-8.02136
造	-8.0223
等者	-8.02463
要	-8.02491
好	-8.02591
生滅	-8.02606
寂	-8.02974
類	-8.03099
達	-8.03136
言說	-8.03218
慈	-8.03454
。』	-8.0353
思	-8.03579
十方	-8.03674
皆是	-8.0391
二者	-8.04057
凡	-8.0409
故名	-8.04096
遠離	-8.04316
亦無	-8.04658
如來南無	-8.04862
那	-8.04961
猶	-8.05131
觀察	-8.05161
縛	-8.05769
四大	-8.06276
之法	-8.06716
僧	-8.06845
以為	-8.07278
舍利弗	-8.0765
蓋	-8.07716
白	-8.07835
思惟	-8.08029
目	-8.08086
經云	-8.08138
一者	-8.08375
始	-8.08693
讚	-8.08903
次第	-8.09068
量	-8.09181
般若	-8.09322
爾	-8.09524
是為	-8.09734
無相	-8.09767
龍	-8.09788
高	-8.09805
於此	-8.09974
頭	-8.10364
所作	-8.10646
且	-8.11006
花	-8.1132
不思議	-8.11345
味	-8.11662
寂滅	-8.11864
。【	-8.119
猶如	-8.12535
歡喜	-8.13193
機	-8.13238
歎	-8.13364
相續	-8.13373
直	-8.1353
遠	-8.14194
正法	-8.14229
染	-8.14592
金剛	-8.1467
豈	-8.15144
一一	-8.15309
建立	-8.15515
何以故	-8.15765
阿難	-8.15768
息	-8.16005
到	-8.16237
天子	-8.16962
▁二	-8.16963
三界	-8.17105
千	-8.17351
散	-8.17431
無礙	-8.17465
親	-8.1821
章	-8.18213
)。】「	-8.1832
諸天	-8.18367
情	-8.18385
致	-8.19076
出家	-8.19533
疾	-8.19534
城	-8.19611
法門	-8.20102
表	-8.20701
聚	-8.20732
若有	-8.20988
無我	-8.2107
夫	-8.21411
譬	-8.21766
口	-8.21812
陰	-8.22543
有無	-8.22681
像	-8.22803
當知	-8.2338
地獄	-8.2381
相應	-8.25543
母	-8.26727
亦復如是	-8.26887
淨名	-8.26975
獨	-8.2714
二種	-8.27206
號	-8.27223
此是	-8.27467
一心	-8.27676
三種	-8.27993
。」【(	-8.28143
文殊師利	-8.28226
實相	-8.28424
所以者何	-8.28937
近	-8.29056
和合	-8.29222
變	-8.29355
虛空	-8.3022
計著	-8.30406
標	-8.30454
終	-8.3048
莫	-8.30546
財	-8.32006
故曰	-8.32106
自然	-8.32343
勸	-8.32392
有情	-8.32496
不動	-8.32526
寂靜	-8.32969
手	-8.3299
沙門	-8.33254
彌勒	-8.33285
阿	-8.3368
因果	-8.33692
敬	-8.34098
脫	-8.34174
萬	-8.34212
反	-8.34229
尊者	-8.34397
居	-8.34862
雲	-8.3501
不可思議	-8.35032
第四	-8.35087
過去	-8.35412
加	-8.35817
本無	-8.35897
竟	-8.35916
聽	-8.3604
頓	-8.3607
十二	-8.36285
何故	-8.36522
恒	-8.36556
父母	-8.3657
弟子	-8.36936
神通	-8.3702
吾	-8.37183
雙	-8.37368
衣	-8.37889
。○	-8.3789
梵	-8.38243
被	-8.38358
王佛	-8.38476
增	-8.38606
摩	-8.38608
和	-8.38719
邊	-8.38891
無上	-8.39064
進	-8.39262
尚	-8.39507
不應	-8.39702
俗	-8.39728
名曰	-8.3987
壽	-8.40316
隨順	-8.40661
禮	-8.40729
諦	-8.40855
佛說	-8.40888
設	-8.4089
漸	-8.41173
無為	-8.41181
殺	-8.41468
絕	-8.41476
似	-8.41477
如此	-8.41545
利益	-8.4166
緣起	-8.41786
四句	-8.42081
治	-8.42277
三乘	-8.42556
而生	-8.4256
垢	-8.42571
癡	-8.42665
伏	-8.42799
無邊	-8.43222
。△	-8.43223
諸眾生	-8.43379
答曰	-8.43707
存	-8.4394
興	-8.44147
贊曰	-8.44668
未來	-8.4472
首	-8.44746
如幻	-8.4495
全	-8.45001
無性	-8.451
於彼	-8.45226
我今	-8.45271
雜	-8.45317
于	-8.45554
獲	-8.45656
堅	-8.46021
現在	-8.46138
無所有	-8.46401
志	-8.46497
觸	-8.46774
雨	-8.46913
奉	-8.47194
之相	-8.47195
支	-8.47206
年	-8.47248
決定	-8.47321
小乘	-8.47587
三者	-8.47841
覆	-8.47985
不可得	-8.48077
顛倒	-8.48325
例	-8.48494
告	-8.48519
器	-8.48832
陀	-8.48928
成佛	-8.49061
故言	-8.49381
昔	-8.49744
燒	-8.49883
誰	-8.49903
不淨	-8.50066
林	-8.50196
權	-8.50201
悲	-8.50351
有二	-8.50366
序	-8.50738
靜	-8.50758
列	-8.50832
易	-8.50992
況	-8.51064
久	-8.51193
無漏	-8.51204
兼	-8.51493
佛法	-8.51698
五陰	-8.51702
中道	-8.51722
藥	-8.519
第一義	-8.51957
述	-8.5207
印	-8.52214
冥	-8.52363
眷屬	-8.52665
如實	-8.52999
之人	-8.5323
甚	-8.53338
亂	-8.53447
以此	-8.53618
如來藏	-8.53748
圓滿	-8.53853
傳	-8.54185
亦非	-8.54214
自心	-8.54354
增長	-8.54438
一切諸法	-8.5449
淨土	-8.54525
邪見	-8.54756
超	-8.55073
末	-8.55365
諸菩薩	-8.55441
於是	-8.5553
惟	-8.55801
害	-8.55865
佛告	-8.55888
大悲	-8.55905
可知	-8.5593
不離	-8.56628
脩	-8.56763
修習	-8.57275
面	-8.57317
遮	-8.5796
身心	-8.57964
皆悉	-8.58158
婆	-8.58384
虗空	-8.5844
攝受	-8.58642
半	-8.58661
發心	-8.59111
燈	-8.59267
嚴	-8.593
.	-8.59384
偏	-8.59419
我等	-8.59455
所見	-8.59493
不起	-8.59499
不二	-8.59503
蓮華	-8.59595
不覺	-8.59609
善根	-8.59677
最	-8.59702
頌	-8.59712
波	-8.59818
之義	-8.60254
不住	-8.60672
辯	-8.60908
非有	-8.61067
譯	-8.6119
鬼	-8.61282
之中	-8.61347
迦	-8.61791
退	-8.61843
無盡	-8.61892
有三	-8.61943
座	-8.61945
文殊	-8.61976
偈	-8.62165
遊	-8.6251
百千	-8.62984
持戒	-8.63054
汝等	-8.63074
遣	-8.6338
肇曰	-8.63419
舍	-8.63469
室	-8.63512
間	-8.6412
真諦	-8.6413
齊	-8.64485
如是等	-8.64516
國土	-8.64575
並	-8.64598
密	-8.6466
最勝	-8.64693
內外	-8.64823
宜	-8.65185
而有	-8.6541
〕」【	-8.6559
文句	-8.65614
此云	-8.65697
佛土	-8.65745
「	-8.65908
布施	-8.66154
甚深	-8.66729
一時	-8.66745
科	-8.67012
之心	-8.67134
童子	-8.67202
放逸	-8.67331
亦如是	-8.67418
。】「〔	-8.67421
無畏	-8.67888
有為	-8.68316
唐云	-8.68331
何等	-8.68366
三世	-8.68515
其心	-8.6853
於中	-8.68543
智者	-8.68683
五百	-8.68836
象	-8.69105
遂	-8.69292
愚夫	-8.69329
氣	-8.69423
頂	-8.69899
注	-8.69908
父	-8.70274
愚	-8.70312
據	-8.70329
四種	-8.70556
所生	-8.70569
尋	-8.70716
夢	-8.70746
懺悔	-8.70818
示現	-8.70821
行者	-8.70904
迦葉	-8.71082
是人	-8.71291
不壞	-8.71319
惱	-8.71445
恐	-8.71695
》	-8.71871
所行	-8.71947
。」【【	-8.71977
則無	-8.72084
懷	-8.72466
速	-8.72582
含	-8.72649
是則	-8.72699
梵天	-8.72797
愚癡	-8.7285
珠	-8.72972
而為	-8.73004
并	-8.73021
微	-8.73025
根本	-8.73119
肉	-8.73274
調	-8.73277
節	-8.73581
勤	-8.73613
熱	-8.74058
不為	-8.74118
提	-8.74233
婆羅門	-8.74492
此中	-8.74635
果報	-8.7468
沒	-8.74695
呵	-8.74727
簡	-8.74733
四者	-8.74747
礙	-8.75161
長者	-8.75273
翻	-8.75348
細	-8.75365
積	-8.75416
望	-8.7546
哉	-8.75576
名字	-8.75618
三寶	-8.75694
部	-8.75777
禪定	-8.75814
餓鬼	-8.75978
毒	-8.76371
遇	-8.766
不斷	-8.77034
畢竟	-8.77048
影	-8.77201
消	-8.77505
瞋	-8.77608
無間	-8.77839
敘	-8.77859
習氣	-8.7786
沙	-8.78152
答言	-8.7819
種性	-8.78382
徧	-8.78408
華嚴	-8.78488
亦名	-8.78508
種子	-8.78737
焰	-8.78742
大眾	-8.78778
音聲	-8.78789
▁後	-8.78802
違	-8.78827
了知	-8.78967
憂	-8.7912
論云	-8.79152
調伏	-8.79417
剎那	-8.7986
患	-8.80077
光佛	-8.80119
助	-8.80175
一切智	-8.80238
若人	-8.80423
故知	-8.80632
受持	-8.80673
制	-8.81056
輕	-8.81184
微妙	-8.8152
勿	-8.81868
及諸	-8.81941
彰	-8.81947
飲食	-8.82459
亡	-8.82585
路	-8.82601
若不	-8.82693
宮	-8.82702
永	-8.82877
感	-8.82886
無始	-8.82905
卷	-8.82914
所得	-8.83249
橫	-8.8343
忘	-8.83986
詣	-8.84025
法華	-8.84036
經文	-8.84173
三藏	-8.84435
十地	-8.84458
鉢	-8.8447
何謂	-8.8466
許	-8.84735
亦是	-8.84793
段	-8.84905
老	-8.84934
亦爾	-8.85041
厭	-8.85065
河	-8.85092
救	-8.8532
比	-8.85332
骨	-8.85359
何者	-8.85567
十六	-8.86066
恩	-8.86125
四諦	-8.86219
資	-8.86479
古	-8.8688
畏	-8.86959
天女	-8.87016
佛性	-8.87033
又云	-8.87173
不捨	-8.87234
犯	-8.8749
然後	-8.87776
平	-8.87957
推	-8.88232
王佛南無	-8.88235
夜	-8.88311
所依	-8.88389
賢	-8.8839
法中	-8.88393
却	-8.88542
——	-8.88672
備	-8.88733
福德	-8.88796
常住	-8.88823
置	-8.89278
鳥	-8.89301
律	-8.89414
殊	-8.89517
各各	-8.89662
能生	-8.89705
堅固	-8.89824
師子	-8.89882
一念	-8.89985
億	-8.90103
己	-8.9012
不異	-8.90249
毀	-8.90321
釋曰	-8.90343
安住	-8.90902
善哉	-8.91224
周	-8.91329
旨	-8.91389
蘊	-8.91413
神力	-8.9149
尼	-8.9154
訶	-8.91545
帝	-8.91663
壽命	-8.92418
怨	-8.92465
無垢	-8.92468
文字	-8.92563
安樂	-8.92565
宿	-8.92593
覩	-8.92734
可得	-8.9282
元	-8.9284
曾	-8.92877
而得	-8.92881
聖人	-8.92903
棄	-8.92904
出世	-8.93095
互	-8.93097
云云	-8.9325
安隱	-8.93502
倒	-8.93535
窮	-8.93537
都	-8.93581
而起	-8.9373
視	-8.93753
者即	-8.93957
供	-8.94045
註	-8.94153
迹	-8.94626
惡業	-8.94719
大海	-8.9472
白佛言	-8.94905
畜生	-8.95075
強	-8.95218
木	-8.95379
牛	-8.95423
▁南無	-8.95433
熟	-8.95448
又復	-8.95523
輪迴	-8.95564
變化	-8.95725
大士	-8.9599
通達	-8.96014
熏	-8.96087
悔	-8.96247
日月	-8.96401
不著	-8.96563
南	-8.96571
釋迦	-8.96663
不生不滅	-8.96745
懺	-8.96748
有四	-8.96828
待	-8.96941
無作	-8.97151
切	-8.97276
有所	-8.97316
應當	-8.97327
寧	-8.98048
慢	-8.98153
或有	-8.98174
流轉	-8.98427
守	-8.98457
虗	-8.98634
微塵	-8.98692
由此	-8.98862
十八	-8.98905
展轉	-8.98917
又問	-8.98923
〕	-8.98936
宣	-8.98983
於諸	-8.99046
若能	-8.99071
圓教	-8.99178
第五	-8.99217
威德	-8.9931
幢	-8.99452
恭敬	-8.99545
隱	-8.99593
此二	-8.99909
天王	-9
不善	-9.00287
陀羅尼	-9.00451
」	-9.00529
佛告大慧	-9.00541
諸根	-9.00574
謂之	-9.00653
執著	-9.00678
菩薩南無	-9.00765
悉皆	-9.00774
精	-9.00841
亦有	-9.00849
中有	-9.00962
授	-9.01108
之處	-9.01113
意識	-9.01213
人天	-9.01607
無不	-9.01694
無異	-9.01783
是時	-9.01795
舌	-9.0188
善法	-9.01941
道場	-9.01972
相似	-9.02007
損	-9.02018
不定	-9.02103
見佛	-9.02158
新	-9.02219
離於	-9.02273
離諸	-9.02358
遊戲	-9.02363
廣大	-9.02445
慈悲	-9.02461
劣	-9.02633
對治	-9.02795
三觀	-9.03058
不滅	-9.03106
逆	-9.03208
功	-9.03302
甘露	-9.03367
苦惱	-9.03454
十一	-9.03781
舊	-9.03905
容	-9.03911
濟	-9.04353
鐵	-9.04476
此即	-9.04497
不退	-9.04631
歷	-9.04821
辭	-9.04848
不了	-9.0487
而無	-9.04936
亦復	-9.05009
藏識	-9.05035
現前	-9.05039
能知	-9.05208
最上	-9.05259
炎	-9.05588
馬	-9.05743
際	-9.05819
盛	-9.0592
第六	-9.05956
不可說	-9.05991
▁南无寶	-9.06022
鏡	-9.06075
穢	-9.0626
蟲	-9.06351
是謂	-9.06509
清	-9.06524
玄	-9.06535
無數	-9.06667
只	-9.06719
怖畏	-9.06875
何所	-9.07083
維摩	-9.0717
飯	-9.0721
無二	-9.07271
法者	-9.07449
怖	-9.07738
?』	-9.07747
放	-9.07799
七寶	-9.07887
女人	-9.07894
故說	-9.08203
不說	-9.08223
咸	-9.08299
準	-9.08318
所證	-9.08328
初地	-9.08709
悅	-9.08833
龍王	-9.08876
廣說	-9.08972
源	-9.09002
留	-9.09008
我說	-9.09099
如何	-9.09118
波羅蜜	-9.09267
非是	-9.09383
金光明	-9.09872
本來	-9.09872
一乘	-9.10009
陳	-9.1009
捨離	-9.10152
判	-9.1017
縱	-9.10194
破壞	-9.10202
無因	-9.1043
帝釋	-9.1052
應知	-9.10528
一句	-9.10629
顯示	-9.10646
大小	-9.10759
前後	-9.1078
網	-9.10928
池	-9.10982
唯識	-9.1099
不取	-9.1112
導	-9.11132
各有	-9.11161
幾	-9.11266
決	-9.11446
《	-9.11467
承	-9.11564
第七	-9.11699
有二種	-9.11758
美	-9.11805
終不	-9.11844
生於	-9.11858
如前	-9.12001
善知識	-9.12027
石	-9.12603
亦然	-9.12861
不受	-9.12941
貪欲	-9.13205
虗妄	-9.13216
滿足	-9.13603
威儀	-9.13644
服	-9.14301
演	-9.14351
所知	-9.14602
繫	-9.14778
貧	-9.14995
之時	-9.15131
故名為	-9.15134
讚歎	-9.15135
一切諸	-9.15173
斥	-9.153
之理	-9.15328
相者	-9.15455
度無極	-9.15596
專	-9.15633
爾時世尊	-9.15716
車	-9.15758
演說	-9.15848
八識	-9.15901
謗	-9.15934
誠	-9.16045
其身	-9.16065
第十	-9.16162
及以	-9.16204
假名	-9.16206
孝	-9.16222
不實	-9.16313
剎	-9.16349
善業	-9.16401
不出	-9.16496
聲聞緣覺	-9.16498
轉變	-9.16547
此法	-9.16623
六度	-9.17006
之事	-9.17033
鼻	-9.17287
一法	-9.17379
靈	-9.17416
今此	-9.17549
妄計	-9.17659
拔	-9.17804
則為	-9.17895
三德	-9.17964
毛	-9.18008
虛妄	-9.18046
阿羅漢	-9.18075
為二	-9.18287
三身	-9.18396
相故	-9.18563
者謂	-9.18877
名之為	-9.18897
伽	-9.19177
揀	-9.19229
亦如	-9.19267
第八	-9.194
聞法	-9.19561
善惡	-9.1961
梵王	-9.19625
飲	-9.19745
我所	-9.19749
士	-9.19772
瓔珞	-9.19782
增上	-9.19861
勝佛南無	-9.19902
自相	-9.19933
善女人	-9.20175
契	-9.20289
親近	-9.2044
為說	-9.20462
誦	-9.2049
有一	-9.20498
書	-9.20585
佛所	-9.20678
下明	-9.2074
辯才	-9.20744
須彌	-9.20878
五者	-9.20916
佛道	-9.21028
而說	-9.21205
五欲	-9.21303
但是	-9.21396
忍辱	-9.21412
句非	-9.21594
融	-9.21625
行相	-9.21709
賢聖	-9.21803
不復	-9.21904
若無	-9.21997
法相	-9.22009
殊勝	-9.22089
▁三	-9.22144
鬼神	-9.22153
青	-9.22179
其所	-9.2219
別教	-9.22294
不以	-9.22318
毘	-9.22521
無分別	-9.22738
身子	-9.22755
降	-9.22968
雖有	-9.22992
何況	-9.23079
領	-9.23083
諸行	-9.23138
期	-9.23261
漸次	-9.23341
受用	-9.23407
乞	-9.23648
力故	-9.23652
威	-9.23768
運	-9.23898
能所	-9.23979
修行者	-9.24131
徵	-9.24255
東方	-9.24364
則有	-9.24569
總持	-9.24651
問曰	-9.24662
能令	-9.24813
。〔	-9.24826
闇	-9.24835
摩尼	-9.25289
所緣	-9.25443
二明	-9.25513
姓	-9.25567
巧	-9.25673
葉	-9.25875
瞋恚	-9.25953
刀	-9.26048
入於	-9.26287
善知	-9.26288
富	-9.26329
念念	-9.26384
信解	-9.26531
賊	-9.26551
無色	-9.26717
纏	-9.26821
舍利	-9.26828
通教	-9.26829
若以	-9.26892
作是念	-9.26937
詳	-9.27032
皆有	-9.27132
盲	-9.27259
得道	-9.27287
自他	-9.27336
人中	-9.27358
皆得	-9.27361
底	-9.27384
二邊	-9.27441
呪	-9.27568
初明	-9.27573
何以	-9.27574
目連	-9.27584
四教	-9.27703
今日	-9.27842
緣覺	-9.27905
布	-9.27915
天人	-9.2795
乖	-9.27954
觀心	-9.27964
之行	-9.2808
住於	-9.28103
乳	-9.28127
所言	-9.28226
降伏	-9.28233
實有	-9.2827
心不	-9.28632
復次大慧	-9.28685
臣	-9.28705
諸外道	-9.28715
不成	-9.28726
聖智	-9.28872
不作	-9.2892
收	-9.28944
三諦	-9.2899
法師	-9.29094
潤	-9.29114
空中	-9.29346
濁	-9.29358
養	-9.29372
閻浮提	-9.29414
諸有情	-9.29495
則不	-9.29542
觀行	-9.29548
塔	-9.29587
凡愚	-9.29626
未曾	-9.29968
翳	-9.30074
焉	-9.30129
差	-9.30252
須菩提	-9.30253
彌	-9.3027
有漏	-9.30354
弘	-9.30389
。」「	-9.30533
仁	-9.30554
自身	-9.30639
徹	-9.30658
。』「	-9.30666
赤	-9.30785
何得	-9.30832
發菩提心	-9.30939
法故	-9.30951
中間	-9.31049
攀緣	-9.31097
辟支佛	-9.31153
如如	-9.31258
是法	-9.31295
此三	-9.31466
勢	-9.31735
宣說	-9.31748
配	-9.31851
痛	-9.31926
此則	-9.3199
星	-9.32294
七識	-9.32597
端	-9.32626
多聞	-9.32769
相好	-9.32943
二初	-9.32966
蒙	-9.33
拘	-9.33025
覺性	-9.33103
阿修羅	-9.33176
虛	-9.33179
蓮花	-9.33247
有人	-9.33272
欲界	-9.33313
之言	-9.33319
權實	-9.33379
唯有	-9.33622
乃是	-9.33735
云何為	-9.3379
酒	-9.33847
發起	-9.33907
在於	-9.34091
性相	-9.34167
儀	-9.34261
恒沙	-9.34394
!」	-9.34419
其中	-9.34475
饒益	-9.34535
無別	-9.34558
純	-9.34606
詮	-9.34676
慈心	-9.34691
麤	-9.34715
題	-9.34722
諸惡	-9.34731
所攝	-9.34785
得解脫	-9.3494
及與	-9.34991
適	-9.35023
為因	-9.35236
金色	-9.35239
乾	-9.35242
居士	-9.3536
故有	-9.354
迴	-9.35404
施設	-9.35433
二諦	-9.35499
一切皆	-9.35529
迴向	-9.35555
質	-9.35599
魚	-9.3564
鼓	-9.3585
畢	-9.35853
我當	-9.35856
義也	-9.35889
八萬四千	-9.35897
草	-9.3613
黑	-9.3614
西	-9.36171
令得	-9.36322
奢摩他	-9.36414
記曰	-9.36489
止觀	-9.36555
勞	-9.36684
麁	-9.36747
維摩詰	-9.36791
知見	-9.36973
不墮	-9.37033
如彼	-9.37174
名相	-9.37549
落	-9.37575
彼人	-9.37585
改	-9.37629
自覺聖智	-9.38004
羅漢	-9.38171
天眾	-9.38228
佛剎	-9.38335
諸比丘	-9.3836
我見	-9.38379
愛樂	-9.38575
色相	-9.38732
二句	-9.38757
恚	-9.3882
此義	-9.38959
背	-9.3909
呼	-9.39219
步	-9.39226
歲	-9.39286
自體	-9.39357
▁南无大	-9.39371
牒	-9.3946
男	-9.39802
所成	-9.39819
神足	-9.39857
天眼	-9.39899
自心現	-9.39937
三千大千世界	-9.39949
佛國	-9.40011
命終	-9.4007
汝今	-9.40085
戲論	-9.40353
六根	-9.40401
此明	-9.40555
飛	-9.4057
非法	-9.40631
他人	-9.40679
無量無邊	-9.40741
十種	-9.40791
胎	-9.40811
哀	-9.40978
緣生	-9.40999
亦云	-9.41051
何處	-9.41194
人民	-9.41239
仙	-9.41302
逮	-9.41396
其義	-9.4146
寺	-9.41538
園	-9.41651
衰	-9.4177
皆由	-9.41842
髮	-9.41889
是菩薩	-9.42344
有三種	-9.42505
婬	-9.4275
不信	-9.42785
談	-9.42879
譬喻	-9.42883
滅度	-9.42903
交	-9.42963
勇	-9.4308
大王	-9.43102
祖	-9.43153
何因	-9.43166
倍	-9.43521
不空	-9.43561
傷	-9.43589
田	-9.43616
暫	-9.43642
公	-9.43651
然此	-9.43715
貪著	-9.43798
囉	-9.43851
未得	-9.43908
二釋	-9.43948
得名	-9.44003
奪	-9.44025
梵行	-9.44174
角	-9.4431
佛身	-9.44322
泥	-9.44332
住持	-9.4436
欲令	-9.44462
勝佛	-9.4463
可見	-9.4477
責	-9.44775
血	-9.44795
訖	-9.44914
守護	-9.44952
忽	-9.45174
自覺	-9.45217
▁南无善	-9.45375
唯心	-9.45457
體性	-9.45588
徒	-9.45632
無能	-9.45808
東	-9.45811
十二因緣	-9.45826
瑜伽	-9.45871
漏	-9.4589
誓	-9.45908
正見	-9.45924
作佛	-9.45965
微細	-9.4603
之道	-9.46087
一人	-9.46184
幻化	-9.46196
三業	-9.46262
北	-9.46315
經典	-9.46347
斷滅	-9.46359
貴	-9.46441
憶念	-9.46502
三明	-9.4667
若見	-9.46697
不在	-9.46796
短	-9.46835
希有	-9.46856
申	-9.46983
世論	-9.47089
令其	-9.47099
依止	-9.47357
至於	-9.47366
樓	-9.47435
有餘	-9.47508
當得	-9.47529
減	-9.47597
單	-9.47663
法也	-9.47671
不失	-9.47737
普賢	-9.47821
為一	-9.47867
為人	-9.47894
有五	-9.47908
永斷	-9.47915
正明	-9.48072
稽首	-9.4808
是以	-9.48168
大師	-9.48276
連	-9.48366
之性	-9.48372
不入	-9.48422
淺	-9.48458
心無	-9.48466
非無	-9.48467
覺知	-9.48488
故也	-9.48584
是經	-9.48717
般涅槃	-9.48718
但以	-9.48811
即得	-9.48902
其人	-9.4897
於一切	-9.48985
吉祥	-9.48993
跡	-9.48995
妄見	-9.49045
黃	-9.49061
解釋	-9.49178
本性	-9.49241
一向	-9.49365
笑	-9.49426
則是	-9.49438
輩	-9.49587
講	-9.49627
闕	-9.49648
太	-9.49671
無自性	-9.49925
而能	-9.49968
問答	-9.49978
葢	-9.50069
七日	-9.50156
兒	-9.50189
而言	-9.50314
下文	-9.50435
菩薩行	-9.50475
寄	-9.50612
光明佛	-9.50653
垂	-9.50681
摩訶	-9.50826
唱	-9.50838
二十	-9.50846
是也	-9.50907
懈怠	-9.50941
殿	-9.50958
法無我	-9.50985
越	-9.51031
如意	-9.51072
授記	-9.51104
。「『	-9.51176
宮殿	-9.51192
臥	-9.51283
法輪	-9.51287
鈔	-9.51326
衣服	-9.51329
亦可	-9.51718
六塵	-9.51933
以是	-9.51992
名稱	-9.52049
不盡	-9.52181
心量	-9.52295
故不	-9.52413
為本	-9.52419
唐	-9.52579
勇猛	-9.52656
六者	-9.5266
正念	-9.52709
亦應	-9.52852
障礙	-9.52873
族姓子	-9.52873
默	-9.52915
諸經	-9.52933
心生	-9.53011
染淨	-9.5303
文云	-9.5308
夜叉	-9.5311
代	-9.53143
不自	-9.53145
轉法輪	-9.53537
什曰	-9.53537
一切諸佛	-9.53563
十力	-9.53577
二約	-9.53706
不樂	-9.53739
任	-9.53743
光明佛南無	-9.53791
顯現	-9.53863
教化	-9.53876
折	-9.54018
嘆	-9.54082
無知	-9.54109
遺	-9.54154
義故	-9.54332
累	-9.54347
堂	-9.54423
妙法	-9.54436
曉	-9.54567
正受	-9.54642
侍	-9.54698
不與	-9.54702
長行	-9.54857
不如	-9.55248
所修	-9.55399
此之	-9.55441
之身	-9.5545
擇	-9.55469
為欲	-9.5547
出世間	-9.55562
群	-9.55598
十四	-9.55629
右	-9.55645
五蘊	-9.5579
惡趣	-9.55853
佛語	-9.55948
塵勞	-9.56095
而說偈言	-9.56123
但有	-9.56127
惠	-9.56263
總結	-9.56328
今現在	-9.56402
典	-9.56463
暗	-9.56492
所起	-9.56626
德佛	-9.56659
接	-9.56674
隨緣	-9.5676
為體	-9.56788
世俗	-9.56834
老死	-9.56836
災	-9.56983
夏	-9.57052
何等為	-9.57262
文中	-9.57417
經中	-9.5746
良	-9.57484
六識	-9.57577
固	-9.57579
五種	-9.57615
若依	-9.57625
上來	-9.57652
仰	-9.57661
荊溪云	-9.57709
大地	-9.57826
唯是	-9.57902
化佛	-9.57908
正觀	-9.57932
值	-9.57938
豈非	-9.57994
招	-9.58001
現行	-9.58022
薄	-9.58027
天下	-9.58045
限	-9.58152
快樂	-9.58163
走	-9.5827
國王	-9.58315
原	-9.58357
若干	-9.58414
須陀洹	-9.58485
十三	-9.58499
誡	-9.58539
初中	-9.58609
所問	-9.58675
人間	-9.58678
瓶	-9.58697
見有	-9.58734
特	-9.58858
太子	-9.58874
有大	-9.59011
畫	-9.59109
我於	-9.59119
察	-9.59126
不相	-9.59175
不共	-9.59196
惑亂	-9.59264
泯	-9.59307
不依	-9.59311
三有	-9.59322
妄語	-9.59355
菩薩言	-9.59384
福田	-9.594
從此	-9.59416
欲得	-9.59503
云何菩薩	-9.59503
既無	-9.59539
【	-9.59551
無住	-9.59589
無差別	-9.5959
曲	-9.59965
作是	-9.6003
於法	-9.60089
之本	-9.60156
有世界名	-9.60234
慮	-9.60313
言語	-9.60358
苦樂	-9.60442
欣	-9.60562
菩提心	-9.60646
急	-9.60714
蘇	-9.60817
王子	-9.60843
有何	-9.6092
一切世間	-9.60925
十善	-9.6113
非真	-9.61237
唐譯	-9.61272
以其	-9.61299
八十	-9.61452
是名菩薩	-9.61475
諸識	-9.61496
於佛	-9.61552
如實知	-9.61558
不行	-9.61641
屈	-9.61743
此句	-9.62044
受樂	-9.62088
該	-9.62094
皮	-9.62103
正覺	-9.62119
即空	-9.62175
分明	-9.62231
七地	-9.62249
佛地	-9.62453
實際	-9.62479
八地	-9.62571
此下	-9.62589
二法	-9.62644
仍	-9.62656
道理	-9.6269
若約	-9.62694
不現	-9.6272
○	-9.62783
相違	-9.62787
之境	-9.62801
正道	-9.62823
住處	-9.62906
語言	-9.6292
竝	-9.62944
▁南无普	-9.62966
有異	-9.6298
六十	-9.62988
末世	-9.63009
世諦	-9.63214
泥洹	-9.63235
見者	-9.63235
威神	-9.63256
珍寶	-9.63265
之意	-9.63297
慶	-9.63316
正釋	-9.63433
三摩地	-9.6346
堪	-9.63509
五法	-9.63533
自行	-9.63563
說言	-9.63727
依此	-9.63737
」【	-9.63745
隨喜	-9.63861
不然	-9.6396
露	-9.63983
方等	-9.64038
以明	-9.64052
檀	-9.64081
十五	-9.64184
三十	-9.64241
受生	-9.64285
民	-9.64316
諸有	-9.64328
三毒	-9.64409
若爾	-9.64413
長者子	-9.64457
敷	-9.64504
修多羅	-9.64681
食肉	-9.64692
歸依	-9.64757
雖復	-9.6483
諸地	-9.64855
普照	-9.64857
免	-9.64896
空華	-9.64904
天上	-9.65004
鹿	-9.6501
陽	-9.65179
清涼	-9.65189
勅	-9.65301
幢佛	-9.65319
化身	-9.65386
諸煩惱	-9.65422
一切性	-9.65463
男女	-9.65598
作者	-9.65607
生起	-9.65647
不退轉	-9.65728
自共相	-9.65755
空無	-9.65769
薩	-9.65777
及餘	-9.65793
護持	-9.65799
浮	-9.65812
准	-9.65816
驚	-9.65944
飾	-9.66052
性自性	-9.66081
而行	-9.66248
審	-9.66282
妨	-9.66376
師子吼	-9.66481
憍慢	-9.66506
第九	-9.6667
經南無	-9.66692
無餘	-9.66713
無所得	-9.66724
彼處	-9.66739
陰界入	-9.66872
快	-9.67292
未曾有	-9.67298
修道	-9.67331
光佛南無	-9.67356
得聞	-9.67389
則能	-9.6748
闍	-9.6748
不及	-9.67565
妄想自性	-9.67583
一切有情	-9.67604
醉	-9.67612
憎	-9.67644
凡聖	-9.67646
戲	-9.67693
依於	-9.67708
不變	-9.67784
至真	-9.6784
本覺	-9.67844
圍遶	-9.67952
二障	-9.68111
毗	-9.68315
利他	-9.68376
是事	-9.68385
如夢	-9.68494
度脫	-9.68557
釋云	-9.68559
受苦	-9.68562
彼諸	-9.68594
勝義	-9.68671
開示	-9.68697
等正覺	-9.68705
於我	-9.68901
之名	-9.6895
是佛	-9.68977
吉	-9.69023
楞伽	-9.69107
九十	-9.69155
智力	-9.69186
色身	-9.69295
行人	-9.6933
如法	-9.69439
非我	-9.69465
俱生	-9.69473
臨	-9.69505
玅	-9.69507
正智	-9.69529
實無	-9.69571
吼	-9.69598
無著	-9.69615
善巧	-9.69674
懸	-9.69739
熏習	-9.69747
六種	-9.69783
證得	-9.69812
一百	-9.69872
身中	-9.69875
彼佛	-9.69882
之體	-9.69972
成熟	-9.69981
所現	-9.70019
之智	-9.7002
隨其	-9.70128
官	-9.70143
即能	-9.70297
皆為	-9.70379
生曰	-9.70479
託	-9.70587
詞	-9.70692
名號	-9.70698
又如	-9.70719
魏譯	-9.70741
應身	-9.70908
琉璃	-9.71007
發願	-9.71026
以彼	-9.71033
聞是	-9.71184
悉檀	-9.71191
不聞	-9.71248
污	-9.71304
惡道	-9.71433
作如是言	-9.7146
園林	-9.7147
次名	-9.71531
非性	-9.71687
之因	-9.71688
侵	-9.71712
聞此	-9.71963
所詮	-9.71972
作意	-9.72005
魏云	-9.72042
臺	-9.72049
諍	-9.72198
皆從	-9.72223
今明	-9.72251
欲求	-9.72251
未能	-9.72558
於一	-9.72589
彼天	-9.72766
里	-9.7277
名色	-9.72779
聖道	-9.72822
啟	-9.72826
有四種	-9.72865
自心現量	-9.72872
經論	-9.72904
下釋	-9.73026
而作	-9.73026
返	-9.73048
本自	-9.73074
柔軟	-9.73102
讀	-9.73157
互相	-9.73184
此言	-9.73338
無智	-9.73361
投	-9.73422
流通	-9.73434
初標	-9.73444
成道	-9.73464
本有	-9.73556
丈夫	-9.73569
如上	-9.73652
彼岸	-9.73714
讀誦	-9.73753
銷	-9.73759
結成	-9.73764
迷惑	-9.73767
諸菩薩摩訶薩	-9.73808
此乃	-9.7391
􂛳	-9.73981
相也	-9.74061
諸如來	-9.74093
彈	-9.74149
多羅	-9.74224
出生	-9.74228
歌	-9.74306
蛇	-9.74335
由是	-9.74717
怒	-9.74893
別有	-9.7506
法施	-9.75083
若於	-9.75104
缺	-9.75105
疏云	-9.75139
等覺	-9.75141
若菩薩	-9.75191
而巳	-9.7524
響	-9.75273
驗	-9.75277
此等	-9.75288
亦無所	-9.75394
復白佛言	-9.7542
附	-9.75511
髻	-9.75514
所化	-9.75534
合掌	-9.75655
隨所	-9.75686
族	-9.75686
說有	-9.75712
亦得	-9.7579
貧窮	-9.7581
恐怖	-9.75833
所聞	-9.75858
諸佛如來	-9.75953
此人	-9.75977
大智	-9.75991
故非	-9.76112
假使	-9.76148
入涅槃	-9.76225
測	-9.76226
修學	-9.76281
佛子	-9.76363
常無常	-9.76426
床	-9.76442
界內	-9.76451
業障	-9.76455
四天王	-9.7646
謬	-9.76508
導師	-9.76531
梨	-9.76565
故須	-9.76571
聲佛南無	-9.76696
於一切法	-9.76716
沈	-9.7677
言之	-9.76825
昇	-9.76846
尊重	-9.76895
無實	-9.76997
塗	-9.77061
至心	-9.77087
獸	-9.77096
莫不	-9.772
為眾生	-9.77314
是身	-9.77339
移	-9.7738
此文	-9.77427
二義	-9.77482
歸命	-9.7755
四相	-9.77559
始終	-9.77603
離一切	-9.77661
番	-9.77662
逐	-9.77749
略說	-9.77819
無想	-9.77824
解云	-9.77828
之文	-9.77866
異相	-9.77884
此身	-9.7791
七者	-9.78004
多有	-9.78017
者即是	-9.78171
變易	-9.78172
了義	-9.78187
眼識	-9.78227
眾會	-9.7825
能作	-9.78262
請問	-9.78269
虎	-9.78271
廢	-9.78271
天地	-9.78272
懼	-9.78279
出離	-9.78413
分段	-9.78431
說名	-9.78435
無記	-9.78497
菩薩曰	-9.78528
無緣	-9.78551
其有	-9.7857
造作	-9.78602
頌曰	-9.78636
四門	-9.78678
惡見	-9.78727
▁「	-9.78734
云云一句	-9.78769
寂然	-9.78835
能得	-9.78945
阿耨多羅三藐三菩提	-9.79056
卑	-9.79112
四德	-9.79224
勝妙	-9.79272
問疾	-9.79332
所造	-9.79395
法體	-9.79399
默然	-9.79442
當為汝說	-9.79451
愛欲	-9.79461
寶積	-9.79485
二合	-9.79602
影像	-9.79701
唐譯云	-9.79712
了達	-9.79928
妙覺	-9.79967
本願	-9.79984
墮於	-9.80015
樹下	-9.8006
旋	-9.80062
阿僧祇	-9.80085
錯	-9.80143
蔽	-9.8015
關	-9.80168
不念	-9.80176
竪	-9.8031
獄	-9.80358
氏	-9.80424
是諸	-9.80455
滯	-9.80498
不求	-9.8054
載	-9.80613
初約	-9.80615
勢力	-9.80647
疏曰	-9.8099
祇	-9.81019
端正	-9.81028
星宿	-9.81042
空寂	-9.81063
為我	-9.81075
真心	-9.8111
離有無	-9.81156
常樂	-9.81225
宿命	-9.81243
化眾生	-9.81384
即無	-9.81584
可愛	-9.81645
杖	-9.81676
妻子	-9.81686
別釋	-9.81726
流注	-9.81737
諸相	-9.81816
非有非無	-9.81904
豐	-9.81948
能斷	-9.81981
說此	-9.81982
法空	-9.82022
如人	-9.82072
以顯	-9.82096
憶	-9.82145
百億	-9.8216
事理	-9.82211
一相	-9.82275
報身	-9.82286
續	-9.82346
而自	-9.82384
十七	-9.82415
妻	-9.82435
兵	-9.82497
狀	-9.82573
今經	-9.82632
分齊	-9.82656
洲	-9.82674
再	-9.82685
萬物	-9.82687
是名為	-9.82716
渴	-9.82738
三法	-9.82753
此品	-9.82865
借	-9.82875
故以	-9.82903
世人	-9.82913
生天	-9.82943
索	-9.82982
岸	-9.82982
誓願	-9.83069
因緣故	-9.83091
勤修	-9.8315
枯	-9.83398
剎土	-9.83418
是菩提	-9.83419
十九	-9.83451
非不	-9.83567
即便	-9.83568
自有	-9.83636
善友	-9.83649
界外	-9.83687
法行	-9.83687
醫	-9.83741
天台	-9.8377
當來	-9.83777
枝	-9.83785
財物	-9.83787
佛南無寶	-9.83858
此意	-9.83877
羅剎	-9.83881
頃	-9.83909
經曰	-9.83981
性空	-9.84027
應供	-9.84091
永離	-9.84255
宅	-9.84258
活	-9.84261
乾闥婆	-9.84286
實法	-9.84319
由旬	-9.84366
善逝	-9.84453
過患	-9.84516
蜜	-9.8452
灌頂	-9.84597
即以	-9.84612
任運	-9.84622
通別	-9.84634
也若	-9.84673
無量百千	-9.84694
充滿	-9.847
貫	-9.84704
罪人	-9.84759
天中	-9.84823
道者	-9.84825
所明	-9.84873
乃能	-9.84879
三十二	-9.84879
往昔	-9.84963
不識	-9.85029
認	-9.851
立名	-9.85191
此四	-9.85219
六道	-9.85304
長短	-9.85434
誹謗	-9.85439
即為	-9.85569
心念	-9.85705
說是	-9.85779
▁南无法	-9.85779
得果	-9.85818
打	-9.85873
除滅	-9.8591
四禪	-9.8592
禪那	-9.8594
大涅槃	-9.85988
非實	-9.86114
究	-9.86125
者是	-9.86132
往來	-9.86194
麼	-9.86211
更有	-9.86232
或云	-9.86357
延	-9.8639
能證	-9.86417
晝夜	-9.86534
思議	-9.86629
豈不	-9.86654
之力	-9.86848
鳴	-9.86909
聚落	-9.86935
舍利子	-9.87048
優	-9.87068
大德	-9.87108
七種	-9.87117
若有眾生	-9.87173
割	-9.87214
故得	-9.87225
憎愛	-9.87257
身相	-9.87368
三結	-9.87397
所執	-9.87417
四十	-9.87418
喜樂	-9.87425
故能	-9.87503
西方	-9.87505
斷見	-9.87653
萬行	-9.87694
令彼	-9.87705
根塵	-9.87833
法樂	-9.87857
八者	-9.87868
狂	-9.87882
一劫	-9.8799
驚怖	-9.87992
三千	-9.87992
此土	-9.88115
加行	-9.88147
五根	-9.88244
處處	-9.88468
若言	-9.8856
化他	-9.88566
擊	-9.88609
無窮	-9.88673
是我	-9.887
大慈	-9.88718
三句	-9.88825
皆空	-9.88854
安立	-9.88877
眾人	-9.88972
以是因緣	-9.89154
十界	-9.89198
術	-9.89285
昧	-9.8932
閉	-9.89366
掌	-9.89391
何等為十	-9.89412
▁南无智	-9.89467
即時	-9.89503
無形	-9.89581
苾芻	-9.89592
夫人	-9.89628
揚	-9.89629
皆名	-9.89656
議	-9.89672
靜慮	-9.89684
義者	-9.89685
一異	-9.89793
異名	-9.89793
發阿耨多羅三藐三菩提心	-9.89877
能見	-9.89899
鈍	-9.89958
顧	-9.89972
佗	-9.89981
濕	-9.89982
慚愧	-9.89997
盜	-9.90042
法王	-9.90131
今云	-9.90247
說者	-9.90324
若欲	-9.90328
染著	-9.90389
行處	-9.90585
▁四	-9.9067
離垢	-9.9068
經說	-9.90708
亦同	-9.90738
圍繞	-9.90741
茲	-9.90834
左	-9.9084
繫縛	-9.90855
故無	-9.9096
無非	-9.90997
佛南無善	-9.91105
一切人	-9.91239
念處	-9.91254
苦行	-9.91288
得此	-9.91364
色等	-9.91368
明了	-9.91414
四事	-9.91459
盧	-9.91569
無障礙	-9.91603
大臣	-9.91759
唯願	-9.9177
誑	-9.91827
生死涅槃	-9.9187
都無	-9.91986
聞說	-9.92059
其意	-9.92094
隨意	-9.92126
當體	-9.92244
一切煩惱	-9.92354
俗諦	-9.92392
諦聽	-9.92494
非常	-9.92516
開二	-9.92574
惜	-9.9265
誤	-9.92651
故今	-9.92672
即此	-9.92712
貌	-9.92899
藉	-9.9292
更無	-9.92965
幢佛南無	-9.92984
不隨	-9.92998
不從	-9.93076
見道	-9.931
暢	-9.9323
起於	-9.93252
初發心	-9.93267
依他	-9.93273
今文	-9.93276
摧	-9.93343
爛	-9.93351
看	-9.9336
恨	-9.93375
成正覺	-9.93446
色界	-9.93453
前文	-9.93475
斷煩惱	-9.93611
則知	-9.93633
不達	-9.93639
大慧白佛言	-9.93652
梵志	-9.93655
博	-9.93665
能破	-9.93726
三教	-9.93908
深心	-9.93922
離欲	-9.93939
一切外道	-9.93962
牽	-9.94009
得生	-9.94104
慕	-9.942
身見	-9.94273
乞食	-9.94367
二見	-9.94383
稟	-9.94387
。▲	-9.94419
其實	-9.94438
納	-9.94544
炬	-9.9459
於空	-9.94667
於其	-9.94692
波羅	-9.94699
敗	-9.94735
我身	-9.94746
臂	-9.94846
初心	-9.94873
共相	-9.94899
諸天眾	-9.94913
可以	-9.9492
生處	-9.94978
文為二初	-9.94978
君	-9.94978
一味	-9.94983
非道	-9.94983
五十	-9.9507
真空	-9.95094
以無	-9.95104
澤	-9.95157
林中	-9.95158
涉	-9.95184
第一義諦	-9.95271
▁南无無邊	-9.95389
滅故	-9.954
隔	-9.9543
脚	-9.95473
五道	-9.95503
同時	-9.95554
遍滿	-9.95591
我我所	-9.95618
日光	-9.95619
如虛空	-9.95626
無上菩提	-9.95667
六入	-9.95691
九者	-9.95698
具如	-9.95849
善哉善哉	-9.9587
委	-9.95875
過失	-9.95904
腹	-9.95926
最後	-9.95968
傍	-9.96003
錄	-9.96026
有此	-9.96038
漢	-9.96061
滅盡	-9.9615
有知	-9.96196
各別	-9.96236
□	-9.9624
曉了	-9.96253
帶	-9.96282
不解	-9.96503
是其	-9.96512
自利	-9.96532
知識	-9.96566
以何	-9.96598
心者	-9.96622
軍	-9.96638
貪愛	-9.96639
登	-9.96661
尸	-9.96675
內心	-9.96718
白佛	-9.9675
而住	-9.9683
若復	-9.96901
建	-9.96943
穀	-9.97053
皆以	-9.97207
同名	-9.97235
心意	-9.97328
不可以	-9.97382
若得	-9.9739
開悟	-9.97428
脩行	-9.97436
無垢稱	-9.97447
酬	-9.97453
生者	-9.97469
之教	-9.97507
生故	-9.97514
厚	-9.97517
道品	-9.97529
慳	-9.9761
本末	-9.9763
能為	-9.97643
統	-9.97664
直心	-9.97674
奉行	-9.97704
的	-9.97716
比丘尼	-9.97784
竭	-9.97831
佛告阿難	-9.9788
猛	-9.97952
自知	-9.97969
四王	-9.97975
同一	-9.97976
般	-9.9803
諸天子	-9.98053
恒河沙	-9.98094
蘭	-9.98112
須彌山	-9.98148
所不能	-9.98163
愛見	-9.98185
齒	-9.98201
煩惱障	-9.98215
五戒	-9.98269
二相	-9.9831
自下	-9.98325
州	-9.98335
愍	-9.98371
王菩	-9.98376
孔	-9.98407
修證	-9.98416
今初	-9.98419
散亂	-9.98484
曇	-9.98653
初釋	-9.98748
諸大眾	-9.9875
非一	-9.98829
若在	-9.98833
問言	-9.98984
聲佛	-9.9902
豈有	-9.99028
今以	-9.99055
定意	-9.9906
四法	-9.99132
復生	-9.99157
學者	-9.99178
禁	-9.99185
次明	-9.99204
但云	-9.99243
前三	-9.99254
心中	-9.99303
佛教	-9.99338
甚多	-9.99367
妄心	-9.99449
斷常	-9.99499
喚	-9.99532
得見	-9.99577
二十五	-9.99592
我法	-9.99707
潔	-9.99735
得入	-9.99764
覺了	-9.9978
大道	-9.99808
十方諸佛	-9.99825
行於	-9.99851
而復	-9.99891
幽	-9.9995
無比	-10.0007
如水	-10.0018
夢中	-10.002
意者	-10.002
嗔	-10.0024
舍利弗言	-10.0028
不堪	-10.0029
未盡	-10.0041
聲聞乘	-10.0045
上下	-10.0048
二無我	-10.0049
二字	-10.0056
波浪	-10.0057
眾苦	-10.0062
▁南无無量	-10.0062
寒	-10.0063
正行	-10.0065
大法	-10.0068
正遍知	-10.0069
不忘	-10.0075
當知是人	-10.0076
鬘	-10.0077
而現	-10.008
三十二相	-10.0083
牙	-10.0084
諸大	-10.0091
之類	-10.0095
得自在	-10.0096
次釋	-10.0109
依正	-10.0109
▁南无金剛	-10.011
聽法	-10.0122
覺心	-10.0123
一切菩薩	-10.0126
所應	-10.0133
若諸菩薩	-10.0137
即有	-10.0142
局	-10.0148
一生	-10.0152
豈可	-10.0159
無得	-10.0159
是真	-10.016
一云	-10.0167
正說	-10.0173
熾	-10.0173
能說	-10.0177
人所	-10.0178
如我	-10.0183
本際	-10.0192
娑	-10.0193
文二	-10.0193
真性	-10.0197
眾僧	-10.0202
無所著	-10.0202
復更	-10.0203
疑惑	-10.0204
於如來	-10.0207
有其	-10.0214
而去	-10.0215
聞已	-10.0216
諸幻	-10.0216
佛果	-10.0216
是中有佛	-10.0228
有為法	-10.0232
注云	-10.0233
取相	-10.0236
聽受	-10.0243
等也	-10.0247
四天下	-10.0247
已得	-10.0248
發意	-10.0258
四明	-10.0259
性非性	-10.0263
諸見	-10.0264
觀身	-10.0264
。」【○	-10.0269
所取	-10.0272
大願	-10.0274
敬禮	-10.0284
希	-10.029
流布	-10.0291
灰	-10.0298
此名	-10.0305
白言	-10.0305
同於	-10.032
謝	-10.0325
形相	-10.0331
得大	-10.0332
去來	-10.034
何者是	-10.0341
明佛	-10.0342
身體	-10.0357
波頭摩	-10.0361
必有	-10.0375
相對	-10.0385
而非	-10.0385
定慧	-10.0389
法寶	-10.0397
朝	-10.0399
)。」【	-10.04
清淨故	-10.0403
為緣	-10.0405
避	-10.0406
繩	-10.0412
復問	-10.0426
途	-10.0434
信心	-10.0434
漏盡	-10.0435
見其	-10.0436
為宗	-10.0438
希望	-10.0441
油	-10.0451
為實	-10.0452
諸佛菩薩	-10.0454
不爾	-10.0461
境智	-10.0466
婦	-10.0474
頓教	-10.0482
殺生	-10.0484
求法	-10.0487
叉	-10.0494
故此	-10.0498
參	-10.0507
不言	-10.0508
仙人	-10.0509
梵語	-10.051
如大	-10.0512
飢渴	-10.0514
每	-10.0514
不殺	-10.0517
逢	-10.0523
體相	-10.0534
不敢	-10.0539
為三	-10.0539
得脫	-10.0541
形像	-10.0553
於諸法	-10.0554
澄	-10.0559
未有	-10.0565
不須	-10.0568
破戒	-10.0569
階	-10.0573
或復	-10.0574
愈	-10.0576
教化眾生	-10.0582
付	-10.0583
入道	-10.0586
擁護	-10.059
良由	-10.059
此翻	-10.0594
仁者	-10.0601
我相	-10.0602
柔	-10.0604
中無	-10.0607
大力	-10.0609
所觀	-10.0618
法無	-10.0623
四方	-10.0623
般若波羅蜜	-10.0628
:「『	-10.0629
即知	-10.063
解說	-10.0633
亦能	-10.0636
現身	-10.0646
身命	-10.0646
丹	-10.0657
厭離	-10.0658
善不善	-10.0661
見聞	-10.0662
無言	-10.0672
於生死	-10.0678
有幾種	-10.0682
▁南无勝	-10.0685
邊際	-10.0685
言無	-10.0689
所求	-10.0694
奇	-10.0698
等法	-10.0704
馳	-10.071
優婆塞	-10.0713
知其	-10.0716
攝取	-10.0726
春	-10.0734
度眾生	-10.0737
初問	-10.0742
科竟	-10.0746
後世	-10.075
正因	-10.0759
復以	-10.0761
防	-10.0764
榮	-10.0778
毫	-10.0779
既云	-10.078
性故	-10.0783
在家	-10.0787
非謂	-10.0788
說之	-10.0794
栴檀	-10.0797
餘如上說	-10.08
增上慢	-10.0801
威力	-10.0802
意佛	-10.0805
持世	-10.0813
一分	-10.0813
▁南无一切	-10.0814
大品	-10.0816
作禮	-10.0816
八種	-10.0817
人身	-10.0822
心性	-10.0828
周遍	-10.0828
既是	-10.0831
錢	-10.0833
流水	-10.0836
能除	-10.0843
乏	-10.0866
自證	-10.0867
能詮	-10.0868
難得	-10.087
若知	-10.087
出入	-10.0871
會中	-10.0878
二答	-10.0879
同居	-10.0882
見思	-10.0895
三道	-10.0896
不思議解脫	-10.0899
一切如來	-10.0902
授無上道記	-10.0905
自見	-10.0906
增減	-10.091
所受	-10.0914
而成	-10.0918
寂光	-10.0925
菩薩得	-10.0936
人法	-10.0943
高下	-10.0948
聞佛	-10.0954
之德	-10.0954
逮得	-10.0955
須臾	-10.096
裏	-10.0961
心意意識	-10.0975
危	-10.0978
嫉	-10.098
弊	-10.098
初文	-10.0984
眾寶	-10.0987
十者	-10.0992
履	-10.0992
下二	-10.0995
某	-10.0996
三義	-10.0996
成佛道	-10.0997
身口意	-10.1001
斷除	-10.1001
為他	-10.1005
諸聖	-10.1005
濫	-10.101
輪轉	-10.1011
娛樂	-10.1014
毛孔	-10.1015
善行	-10.1019
不染	-10.1022
於他	-10.1026
北方	-10.1027
而彼	-10.1031
地前	-10.1033
負	-10.1034
噉	-10.1042
畜	-10.1045
奮迅	-10.105
追	-10.1058
訓	-10.1063
窟	-10.1064
相即	-10.107
預	-10.1073
處所	-10.1077
喪	-10.1082
大種	-10.1083
實性	-10.1101
通曰	-10.1108
無極	-10.1114
無量功德	-10.1115
御	-10.1124
悟入	-10.1125
宋	-10.1126
心常	-10.1126
諸功德	-10.113
析	-10.1132
八萬	-10.1139
偽	-10.1147
拂	-10.1158
章句	-10.1158
生善	-10.1159
無憂	-10.1159
正是	-10.1165
利養	-10.1167
從是	-10.1174
我所說	-10.1174
利根	-10.1175
之果	-10.118
捨身	-10.1184
生住滅	-10.1184
品云	-10.1184
本空	-10.1185
所念	-10.1185
塞	-10.1186
樂說	-10.1187
一身	-10.1192
伴	-10.1193
自性相	-10.1193
此諸	-10.1196
此約	-10.1198
少分	-10.12
七十	-10.1202
軌	-10.1203
是為四	-10.1203
苟	-10.1204
邪正	-10.1205
化生	-10.1205
洗	-10.1208
有十	-10.1215
何不	-10.1216
一切佛法	-10.1219
儒	-10.1221
則非	-10.1222
友	-10.1231
心識	-10.1235
不久	-10.1245
宴坐	-10.1253
汝當	-10.1256
種種相	-10.1263
何有	-10.1263
無復	-10.1268
善解	-10.1273
六波羅蜜	-10.1275
大千	-10.1276
安居	-10.1278
為彼	-10.1285
為正	-10.1286
雷	-10.1298
烏	-10.131
眾多	-10.1314
亦無有	-10.1314
曜	-10.1326
別圓	-10.1326
財寶	-10.1338
況復	-10.1344
空觀	-10.1344
厄	-10.1345
前二	-10.1346
男子	-10.1346
非但	-10.1346
為大	-10.1348
一切種智	-10.1356
便能	-10.1356
遭	-10.1364
一切法不生	-10.1367
如空	-10.1367
根性	-10.1373
我為	-10.1373
覺者	-10.1374
法藏	-10.1377
恣	-10.1384
符	-10.1389
無色界	-10.1389
逼	-10.1391
文殊師利言	-10.1392
慧眼	-10.1395
相見	-10.1396
▁二釋	-10.1396
云何名	-10.1399
閑	-10.1404
六通	-10.141
無所畏	-10.1413
觀眾生	-10.1421
不名	-10.1425
不畏	-10.1425
不妨	-10.1426
所住	-10.1429
〔	-10.1431
積集	-10.1434
火燒	-10.1436
所說法	-10.1437
頂禮佛足	-10.1454
震	-10.1456
漸漸	-10.1461
令人	-10.1462
修行菩薩	-10.1463
下結	-10.1465
虫	-10.1466
兔角	-10.1468
信相	-10.1474
輪王	-10.1475
諸聲聞	-10.1476
南方	-10.1479
自心所現	-10.1479
以法	-10.1488
侍者	-10.1493
煩	-10.1494
也又	-10.1504
諸世間	-10.1506
念佛	-10.151
淨穢	-10.1512
客	-10.1516
即於	-10.1516
禮拜	-10.1521
▁南无師子	-10.1527
俱舍	-10.1528
超越	-10.1529
若此	-10.1537
如來所	-10.1538
見之	-10.1544
充	-10.1547
信樂	-10.1557
超過	-10.1565
無上道	-10.1566
如來法身	-10.1567
慈氏	-10.1568
亦當	-10.1572
計有	-10.1573
真理	-10.1576
一名	-10.1577
天帝	-10.158
欲樂	-10.1586
多少	-10.1586
自下第二	-10.1587
功德佛	-10.1592
心境	-10.1592
見已	-10.1597
其相	-10.1615
非彼	-10.1619
人無我	-10.1623
甘	-10.1624
之後	-10.1627
無人	-10.1629
常不思議	-10.1634
草木	-10.1634
謂此	-10.1644
野	-10.1647
一處	-10.1649
二空	-10.165
以下	-10.165
思量	-10.1662
端嚴	-10.1663
覺悟	-10.1668
尊特	-10.1671
同體	-10.1679
不具	-10.168
壽量	-10.1683
出現	-10.1691
讚佛	-10.1692
▁南无月	-10.1698
聖教	-10.1699
無等	-10.1703
知是	-10.1703
饒	-10.1706
空也	-10.1713
增益	-10.1718
神名	-10.1729
臭	-10.1732
暴	-10.1737
辦	-10.1738
觀於	-10.1738
之業	-10.1738
一往	-10.1745
奉持	-10.1745
一日	-10.1746
心所	-10.1752
賢者	-10.1752
嚴飾	-10.1755
觀之	-10.1765
善能	-10.1767
我言	-10.177
大聖	-10.1771
無央數	-10.1772
取捨	-10.1773
釋迦牟尼佛	-10.1775
壁	-10.1778
疲	-10.1782
無染	-10.1785
繁	-10.1785
名聞	-10.1787
行道	-10.1787
眾中	-10.1795
嚴淨	-10.18
八難	-10.1801
釋義	-10.1804
欺	-10.1806
嫉妬	-10.1808
因此	-10.181
飢	-10.1811
真俗	-10.1814
赴	-10.1818
常為	-10.1818
業報	-10.1823
記云	-10.1834
或見	-10.1837
是為六	-10.1837
二智	-10.1841
軟	-10.1842
所引	-10.1845
一切法無	-10.1845
隨機	-10.1847
不可見	-10.1855
若是	-10.1858
號曰	-10.186
與諸	-10.1871
有佛	-10.1873
色像	-10.1873
擬	-10.1878
怪	-10.1883
或以	-10.189
便得	-10.1891
殃	-10.1903
五識	-10.1907
輔	-10.1918
染污	-10.192
是道場	-10.1926
事相	-10.1934
因故	-10.1935
知足	-10.1939
無心	-10.194
誘	-10.1944
刺	-10.1945
上上	-10.195
佛南無大	-10.1952
銅	-10.1953
恃	-10.1956
獲得	-10.1958
陀羅	-10.1962
若聞	-10.1962
困	-10.1968
釋名	-10.1969
得阿耨多羅三藐三菩提	-10.197
能觀	-10.1977
心外	-10.1979
點	-10.1996
解曰	-10.1998
我是	-10.2004
睡	-10.2007
▁【	-10.2007
入定	-10.2013
謂於	-10.2014
如理	-10.2021
梁	-10.2022
珍	-10.2024
得涅槃	-10.2027
不放逸	-10.2032
伊	-10.2032
種姓	-10.2034
救護	-10.2042
淨心	-10.2044
或時	-10.2047
往詣	-10.2047
受記	-10.2049
妄執	-10.2052
場	-10.2053
私	-10.206
如是如是	-10.2062
為是	-10.2066
三性	-10.2067
意生身	-10.2068
冷	-10.2069
此中間	-10.2071
網明	-10.2071
意云	-10.2079
金剛藏	-10.2081
諸天女	-10.2083
大鈔	-10.2083
保	-10.2088
爾時世尊欲重宣此義而說偈言	-10.2089
如是觀	-10.2091
人王	-10.2099
休息	-10.2101
如是我聞	-10.2102
不生滅	-10.2103
藏佛	-10.2116
三事	-10.2116
卿	-10.2118
召	-10.2118
瘡	-10.2122
彌勒菩薩	-10.2125
轉輪王	-10.2128
摩羅	-10.2129
擾	-10.2134
惡人	-10.2142
放光	-10.2152
而入	-10.2157
天宮	-10.2159
得無生法忍	-10.2161
意樂	-10.2167
積聚	-10.2172
泉	-10.2172
於中有二	-10.2183
諸法無	-10.2183
百千萬億	-10.2184
伎樂	-10.2189
剎至	-10.219
佛出世	-10.219
『	-10.22
】【	-10.2204
無厭	-10.2206
三十三天	-10.2213
皆依	-10.2214
學道	-10.2218
罪福	-10.2229
無念	-10.2233
若善男子	-10.2233
心行	-10.2234
譬如有人	-10.2239
尺	-10.224
長養	-10.2248
無體	-10.2254
時節	-10.2256
復言	-10.2256
而來	-10.2264
門中	-10.2276
事業	-10.2276
柱	-10.2278
最初	-10.2287
通相	-10.2291
棄捨	-10.2293
戰	-10.2294
應云	-10.2294
無定	-10.2296
之曰	-10.2297
電	-10.23
外境	-10.2302
妄想不生	-10.2312
補	-10.2315
二俱	-10.2316
疎	-10.232
唯然	-10.2323
鎧	-10.2329
孤	-10.233
不能知	-10.2342
聞者	-10.2343
或可	-10.2343
地中	-10.2349
者則	-10.2351
因緣生	-10.2364
謂有	-10.237
回	-10.2371
諸業	-10.2371
說經	-10.2373
未斷	-10.2373
能持	-10.2378
眾生心	-10.238
休	-10.2381
既不	-10.2384
真金	-10.2388
唯一	-10.2392
天人師	-10.2394
如佛	-10.2399
此亦	-10.2403
寶藏	-10.2414
大迦葉	-10.2418
五性	-10.2421
於世間	-10.2421
淨信	-10.2426
遷	-10.2426
唯佛	-10.2427
報恩	-10.243
既有	-10.2439
莊	-10.244
中初	-10.2443
信受	-10.2447
一種	-10.2448
最為	-10.2449
7	-10.245
今言	-10.2453
徑	-10.2455
心故	-10.2458
以偈	-10.2461
能取	-10.2463
萬法	-10.2463
亦為	-10.2466
藏佛南無	-10.2466
能現	-10.2469
箇	-10.2472
得菩提	-10.2472
藏菩	-10.2475
諦觀	-10.2481
由彼	-10.2482
作此	-10.2483
而白佛言	-10.2484
令眾生	-10.2488
弱	-10.249
哩	-10.2493
法忍	-10.2494
生時	-10.2494
弟	-10.2505
末世眾生	-10.2513
燃	-10.2518
令他	-10.2525
有六	-10.2536
此釋	-10.254
色心	-10.2541
病者	-10.2543
蕩	-10.2545
之說	-10.2546
十法	-10.2548
若復有人	-10.2549
如是知	-10.2557
劫中	-10.2561
轉輪聖王	-10.2572
有性	-10.2573
自性清淨	-10.258
愁	-10.2583
秋	-10.2583
生法	-10.2585
已下	-10.2587
庶	-10.2589
王舍城	-10.2602
淺深	-10.2604
皆無	-10.2607
夷	-10.2616
瑠璃	-10.2618
始覺	-10.2619
他方	-10.2627
世間解	-10.2627
勒	-10.2632
起信	-10.2633
江	-10.2643
有我	-10.2645
磨	-10.2646
四眾	-10.2647
有相	-10.2652
而取	-10.2658
祕密	-10.2662
生身	-10.2669
慎	-10.2675
我聞	-10.2675
狗	-10.2683
往生	-10.2688
稱佛	-10.2689
施與	-10.2689
何謂為	-10.2691
▁南无妙	-10.2692
所為	-10.27
吒	-10.2702
飲酒	-10.2703
雜染	-10.2704
佛所說	-10.2706
穿	-10.272
吹	-10.2726
即真	-10.2728
修善	-10.2731
吐	-10.2732
若離	-10.2735
斷諸	-10.2736
空故	-10.2738
非色	-10.2742
寶蓋	-10.2743
空有	-10.2746
給	-10.2748
皆能	-10.2749
俱胝	-10.2755
無學	-10.2756
手足	-10.2762
不能得	-10.2765
作如是	-10.2766
來生	-10.2769
禍	-10.2771
可解	-10.2772
萬歲	-10.2773
跋	-10.2775
隣	-10.2775
象馬	-10.2784
牟尼	-10.2786
別明	-10.2797
上方	-10.2803
梵音	-10.2805
眼佛	-10.2808
見此	-10.2808
村	-10.2813
妄念	-10.2813
三釋	-10.2816
我執	-10.2826
是為菩薩	-10.2827
優婆夷	-10.2829
何法	-10.2829
王如來	-10.2835
光照	-10.2836
教法	-10.2845
得成	-10.2848
熾然	-10.2856
深密	-10.286
報應	-10.2867
化作	-10.2871
諸佛世尊	-10.2873
游	-10.2886
賢劫	-10.2887
覺觀	-10.2887
熾盛	-10.2888
薪	-10.2891
此心	-10.2893
有兩	-10.2901
張	-10.2902
法華經	-10.2902
𦦨	-10.2912
勝解	-10.2915
取著	-10.2919
大經	-10.292
自在佛南無	-10.2927
域	-10.2932
圓明	-10.2933
是三昧	-10.2943
前云	-10.2944
氷	-10.2944
罵	-10.2947
明其	-10.2951
阿含	-10.2953
不違	-10.2956
一闡提	-10.2956
佛名	-10.2958
起滅	-10.2963
頓漸	-10.2966
不虛	-10.2969
所顯	-10.2978
水中	-10.2981
一明	-10.2987
諮	-10.2993
不貪	-10.2993
其餘	-10.2993
香積	-10.2999
得益	-10.2999
昏	-10.3
法眼	-10.3
己身	-10.3002
。《	-10.3003
沉	-10.3005
即名	-10.3009
為作	-10.3012
密嚴	-10.3013
盖	-10.3014
秪	-10.3018
迷悟	-10.3027
殘	-10.3028
諂	-10.3032
金光明經	-10.3035
深法	-10.3036
諸苦	-10.3042
說一切法	-10.3048
上佛	-10.3057
常在	-10.3068
自在佛	-10.3071
一類	-10.3072
遍照	-10.3072
淚	-10.3076
下劣	-10.3077
依他起	-10.3078
流出	-10.3082
不絕	-10.3085
法華云	-10.3086
以自	-10.3088
種類	-10.3089
顏	-10.3093
虛空中	-10.3094
當於	-10.3099
慳貪	-10.31
5	-10.3109
聖諦	-10.311
□□	-10.3113
正定	-10.3114
眾生故	-10.3123
難可	-10.3126
因地	-10.3127
耶答	-10.313
之外	-10.3135
悉能	-10.3137
合成	-10.3137
隨入	-10.3141
金銀	-10.3151
耀	-10.3151
答云	-10.3157
墜	-10.3166
后	-10.3167
如虗空	-10.3167
彌留	-10.317
功用	-10.3179
天主	-10.318
心意識	-10.3182
未來世	-10.3185
護法	-10.3189
□□□	-10.3189
諸魔	-10.319
耆	-10.3191
變異	-10.3201
八千	-10.3202
空者	-10.3202
丈	-10.3205
令我	-10.3207
芽	-10.3207
離相	-10.3207
諸人	-10.3209
冠	-10.3211
無行	-10.3219
有七	-10.3219
三藏教	-10.3226
皆云	-10.3236
停	-10.3242
是一	-10.3244
溺	-10.3251
此事	-10.3251
曠野	-10.3256
諸弟子	-10.326
譏	-10.3261
知諸法	-10.3267
吾我	-10.3268
鈍根	-10.3271
敢	-10.3272
寶珠	-10.3275
下至	-10.3278
言教	-10.3283
說法者	-10.3289
佛國土	-10.3289
之上	-10.3292
碎	-10.3296
無諍	-10.3298
意也	-10.3302
群生	-10.3303
為我說	-10.3305
地獄中	-10.3308
邪行	-10.3308
結集	-10.3309
識藏	-10.3311
滋	-10.3312
世世	-10.3312
阿僧祇劫	-10.3313
自相共相	-10.3315
淨戒	-10.3316
稍	-10.3318
今當	-10.3319
。』」「	-10.3325
十信	-10.3328
良以	-10.3332
不令	-10.3338
務	-10.3338
縱廣	-10.3339
▁一	-10.3345
所在	-10.3349
月光	-10.335
長壽	-10.3352
道中	-10.3362
銀	-10.3364
經言	-10.3364
三字	-10.3369
求那	-10.3372
狹	-10.3374
所以然者	-10.3374
今謂	-10.3374
心淨	-10.3376
引證	-10.3377
不相應	-10.3378
廣釋	-10.3384
得度	-10.339
所居	-10.3394
』	-10.3398
隨心	-10.34
意在	-10.3402
所熏	-10.3405
十千	-10.3405
性無性	-10.3407
妄想分別	-10.3412
慚	-10.3421
豈得	-10.3422
如幻夢	-10.3425
寶莊嚴	-10.3425
異者	-10.3436
而見	-10.3439
生生	-10.3439
皆同	-10.3441
釋迦牟尼	-10.3444
論中	-10.3449
能入	-10.3453
而修	-10.3454
滅定	-10.3455
捉	-10.346
亦不見	-10.3463
善住	-10.3463
緊那羅	-10.3463
如經	-10.3465
三塗	-10.3467
6	-10.3468
意謂	-10.3474
即入	-10.3483
相現	-10.3483
出於	-10.3488
檢	-10.3489
料簡	-10.3489
智斷	-10.349
一約	-10.3496
恥	-10.3499
當有	-10.3503
胡	-10.3515
不善業	-10.3517
觀佛	-10.3524
遊行	-10.3525
惟願	-10.3525
道法	-10.3526
必須	-10.3529
羊	-10.3537
無上士	-10.3539
得佛	-10.3541
其體	-10.3543
受諸	-10.3544
然則	-10.3545
有生	-10.3549
墮地獄	-10.3563
供養佛	-10.3564
賤	-10.3565
不見有	-10.3568
卒	-10.3575
與彼	-10.3579
佛南無勝	-10.3583
睡眠	-10.3584
異熟	-10.3585
圓融	-10.3587
善人	-10.3593
騰	-10.3594
因生	-10.3596
神變	-10.3596
身者	-10.3602
玉	-10.3613
只是	-10.3613
愚癡凡夫	-10.3622
威德佛南無	-10.3624
無生滅	-10.3632
執持	-10.3635
無所不	-10.3642
商	-10.3644
圓成	-10.3646
說為	-10.3646
音佛	-10.3649
問也	-10.3651
三惡道	-10.3653
從初	-10.3655
羣	-10.3658
諸趣	-10.3658
常樂我淨	-10.366
菩薩白佛言	-10.3663
譽	-10.3665
麻	-10.3666
其性	-10.3666
方得	-10.3686
性者	-10.3687
有見	-10.37
忽然	-10.3703
獨覺	-10.3703
冬	-10.3703
攝所攝	-10.3703
但說	-10.3705
文義	-10.3705
三十六	-10.3719
愚人	-10.372
不當	-10.3721
糞	-10.3724
娑婆	-10.3726
宛然	-10.373
謙	-10.3735
外性非性	-10.375
圓頓	-10.3751
動搖	-10.3752
佛世尊	-10.3753
燈佛	-10.3754
後二	-10.3755
贊	-10.3756
一行	-10.3759
廣明	-10.3767
分二	-10.3768
婦女	-10.3776
現見	-10.3778
及諸菩薩	-10.3782
麤重	-10.3783
自巳	-10.3788
法供養	-10.3792
差別相	-10.3795
當作	-10.3797
因相	-10.3803
哀愍	-10.3806
一品	-10.3808
來至	-10.3812
種種諸	-10.3813
何等為四	-10.3819
其事	-10.3824
婆羅	-10.3826
方名	-10.3828
雖無	-10.3828
洞	-10.3829
常見	-10.3833
本淨	-10.3837
瞻	-10.3838
婬怒癡	-10.3838
初分文	-10.384
受持讀誦	-10.3843
童	-10.3844
竹	-10.3847
有所得	-10.3847
下三	-10.3848
酥	-10.3849
脈	-10.3855
無願	-10.3856
初二	-10.3859
可取	-10.3859
應化	-10.3869
利物	-10.3873
正答	-10.3876
自恣	-10.3879
不必	-10.3895
過於	-10.3898
之物	-10.3903
思念	-10.3904
偈云	-10.3904
而出	-10.3905
鬪	-10.3906
齋	-10.3909
扶	-10.3911
聞經	-10.3918
人也	-10.392
於是頌曰	-10.3921
輒	-10.3925
作用	-10.3926
正宗	-10.3934
無為法	-10.394
之異	-10.3943
食之	-10.395
按	-10.3954
一切功德	-10.3956
樹神	-10.3959
禁戒	-10.3968
眾緣	-10.3971
一體	-10.3979
初正釋	-10.3979
妙吉祥	-10.3995
所願	-10.4001
觀也	-10.4002
為名	-10.4002
依彼	-10.4004
有八	-10.4006
法執	-10.4008
身口	-10.4012
其本	-10.4013
窮盡	-10.4014
二門	-10.4016
資生	-10.4021
虗妄分別	-10.4022
下方	-10.4027
頓悟	-10.4029
摩訶衍	-10.4033
無動	-10.4033
及末世眾生	-10.4035
升	-10.4039
但為	-10.404
初住	-10.4042
如來所說	-10.4046
夜摩天	-10.4053
意業	-10.4054
是無常	-10.4055
▁南无功德	-10.4056
善吉	-10.4056
苦諦	-10.4056
頻	-10.4061
便生	-10.4062
勇健	-10.4067
聞如是	-10.4068
以有	-10.4073
憂惱	-10.4073
消滅	-10.4076
大論	-10.4079
更不	-10.4081
有二義	-10.4082
觀者	-10.4091
何謂菩薩	-10.4097
翻為	-10.4098
維摩詰言	-10.4104
契經	-10.4105
樂欲	-10.4113
之門	-10.4113
敵	-10.4123
佛慧	-10.4123
入空	-10.4125
於後	-10.4128
憐愍	-10.4137
堅意	-10.4137
無可	-10.4142
開發	-10.4143
覓	-10.4145
意菩	-10.4146
瞿曇	-10.4148
條	-10.4152
凡有	-10.4153
頂禮	-10.4154
知一切法	-10.416
此方	-10.4161
以成	-10.4168
此菩薩者	-10.417
取證	-10.4172
鄙	-10.4173
亦說	-10.4176
何名	-10.4178
上妙	-10.4184
肉眼	-10.4188
能起	-10.419
封	-10.419
護世	-10.4191
為五	-10.4192
4	-10.4199
理事	-10.4209
降魔	-10.4218
二十八	-10.422
於三界	-10.4223
於意云何	-10.4228
護念	-10.4228
迎	-10.4229
佛眼	-10.423
忿	-10.423
展轉相	-10.4232
嫌	-10.4233
所縛	-10.4236
是菩薩行	-10.4238
所立	-10.4238
即前	-10.4241
婆沙	-10.4242
思想	-10.4245
斷惑	-10.4248
見彼	-10.4259
之地	-10.426
十方世界	-10.4263
離言說	-10.4263
者荊溪云	-10.4265
稱佛南無	-10.4265
龜	-10.4274
涅槃者	-10.4281
佛種	-10.4282
塵垢	-10.4282
是心	-10.4286
實義	-10.4291
針	-10.4291
伐	-10.4293
依報	-10.4296
得失	-10.43
密意	-10.4301
佉	-10.4301
別相	-10.4302
後一	-10.431
精勤	-10.431
初總	-10.4315
佛南無無邊	-10.4316
肩	-10.4318
惡心	-10.4318
離自性	-10.4323
歡	-10.4325
娑羅	-10.4327
妄想相	-10.4327
觀法	-10.4329
不死	-10.4331
智也	-10.4331
前世	-10.4332
或為	-10.4335
皇	-10.4337
金光	-10.434
咎	-10.4341
潛	-10.4341
滅除	-10.4343
遵	-10.4343
不待	-10.4344
名義	-10.4344
相待	-10.4347
箭	-10.4352
素	-10.4364
晉	-10.4366
四念處	-10.4366
無量眾生	-10.4367
如斯	-10.4373
筋	-10.4375
無量劫	-10.4375
所持	-10.4375
言說妄想	-10.4382
能與	-10.4383
之過	-10.4384
善思念之	-10.4385
之樂	-10.4386
地上	-10.4387
十萬	-10.4388
無生忍	-10.439
離我我所	-10.4391
結示	-10.4401
度無極有六事	-10.4412
漂	-10.4414
常得	-10.4417
如海	-10.4417
五無間	-10.4418
悲心	-10.4418
計我	-10.442
聞之	-10.442
盈	-10.4424
三時	-10.4434
滅者	-10.4436
徧滿	-10.4439
觀門	-10.4439
戀	-10.4444
述成	-10.4444
無見	-10.4446
中說	-10.4455
第	-10.446
不假	-10.4462
雄	-10.4467
至此	-10.4471
云何名為	-10.4473
後三	-10.4474
船	-10.4475
解脫者	-10.4479
甲	-10.448
聖眾	-10.448
皆令	-10.4483
不分別	-10.4486
不修	-10.4488
?」「	-10.449
上文	-10.4499
稱讚	-10.4504
嬈	-10.4507
又曰	-10.4511
常行	-10.4514
故稱	-10.4515
至誠	-10.4519
於人	-10.452
神通力	-10.4523
久住	-10.453
五逆	-10.453
解了	-10.4534
形處	-10.4536
律儀	-10.4542
作業	-10.4545
如日	-10.4545
楞嚴	-10.4545
至靜	-10.4546
成唯識	-10.4549
如是說	-10.455
悕望	-10.4552
為首	-10.4555
上首	-10.4556
否	-10.4558
險	-10.4561
十方佛	-10.4561
肇	-10.4562
作如是說	-10.4566
抱	-10.4571
才	-10.4573
無諸	-10.4574
無滅	-10.4575
屋	-10.4577
可說	-10.458
皆當	-10.4588
邑	-10.4588
諸佛所	-10.459
幡	-10.459
內身	-10.4591
下次	-10.4593
禮佛	-10.4593
方能	-10.4594
有疾	-10.4602
阿那含	-10.4604
鳩	-10.4607
或說	-10.4612
貪瞋癡	-10.4613
名為涅槃	-10.4614
業故	-10.4614
武	-10.4618
非異非不異	-10.4624
勝鬘	-10.4629
開化	-10.4629
真常	-10.463
心也	-10.4631
不足	-10.4634
那羅延	-10.4637
箋	-10.4639
誰為	-10.4639
浪	-10.4646
有無量	-10.4647
孫	-10.4647
十住	-10.4647
踊	-10.465
倚	-10.4661
亦滅	-10.4663
截	-10.4666
為涅槃	-10.4666
二別	-10.4666
怛	-10.4667
善分別	-10.4673
遙	-10.4689
佛之	-10.469
兩句	-10.4702
真珠	-10.4707
說偈言	-10.4708
掉	-10.4712
正等覺	-10.4721
劍	-10.4721
是有	-10.4722
云何得	-10.4725
業識	-10.4725
其數	-10.4727
五分	-10.4727
藥王	-10.4729
南無寶	-10.4737
獻	-10.4737
離幻	-10.4739
音樂	-10.4742
賓	-10.4742
三月	-10.4744
當為	-10.4746
能滅	-10.4756
若作	-10.4761
渡	-10.4762
佛智	-10.4763
步佛	-10.4764
風吹	-10.4765
有為無為	-10.4766
波羅蜜多	-10.4768
魔王	-10.4769
我慢	-10.4773
䟽	-10.4773
圖	-10.4779
與其	-10.478
緣故	-10.478
利鈍	-10.478
三昧樂	-10.4781
三世諸佛	-10.4784
三摩鉢提	-10.4789
初禪	-10.479
欲見	-10.479
說偈	-10.4795
是知	-10.4803
來世	-10.4805
彼以聞慧或以天眼見	-10.4805
聞佛所說	-10.4805
盆	-10.481
孰	-10.4812
轉識	-10.4815
勸請	-10.4821
佛南無普	-10.4826
滿中	-10.4827
心數	-10.4831
塵沙	-10.4837
有差別	-10.4838
憙	-10.4844
我亦	-10.4855
詐	-10.4857
五法自性	-10.4859
真妄	-10.4859
釋也	-10.4865
因也	-10.4868
毘琉璃	-10.4868
荷	-10.487
士夫	-10.4878
勤苦	-10.4879
能壞	-10.4884
又有	-10.4887
問佛	-10.489
熱惱	-10.4891
三約	-10.4892
之用	-10.4893
其福	-10.4895
文為二	-10.4896
行也	-10.4896
為令	-10.4898
湯	-10.49
受者	-10.49
王如來南無	-10.4901
中有二	-10.4902
植	-10.4903
眾德	-10.4903
巳上	-10.4903
聲聞辟支佛	-10.4905
應以	-10.4907
非人	-10.4907
即彼	-10.4908
句義	-10.4919
薩埵	-10.4922
圍	-10.4924
稱為	-10.4939
如火	-10.4945
鑛	-10.4946
謂彼	-10.4947
閻浮	-10.4948
包	-10.495
辱	-10.4953
於餘	-10.4959
產	-10.496
爪	-10.4962
何者為	-10.4963
悉令	-10.4965
愧	-10.4968
形色	-10.4971
遠離諸	-10.4975
誨	-10.4976
二正	-10.4978
其名	-10.498
我人	-10.4981
自念	-10.4984
或作	-10.4986
二隨釋	-10.4987
聖賢	-10.499
所知障	-10.4991
衣食	-10.4993
得清淨	-10.4994
一切佛	-10.4996
猗	-10.4999
我者	-10.5003
經者	-10.5004
若有善男子	-10.5009
時彼	-10.5016
願力	-10.5018
墮落	-10.5024
輕安	-10.5025
多所	-10.5025
而為說法	-10.5026
亦不得	-10.503
實智	-10.5031
眾魔	-10.5032
唯除	-10.5033
那由他	-10.5036
富貴	-10.5037
下文云	-10.5037
束	-10.5038
從何	-10.5044
實慧	-10.5046
以智慧	-10.5047
是智	-10.5049
諸法實相	-10.505
遍知	-10.5051
猶未	-10.5051
怯弱	-10.5052
二教	-10.5055
已來	-10.5058
普現	-10.5058
是實	-10.506
弘誓	-10.507
為說法	-10.5072
能於	-10.5074
白佛言世尊	-10.5074
能以	-10.5076
世界中	-10.5079
大經云	-10.5079
藥師	-10.5085
省	-10.5087
無疑	-10.5087
曷	-10.5094
令諸	-10.5095
識滅	-10.5095
業相	-10.5098
慰	-10.5098
緩	-10.5102
豎	-10.5102
復見	-10.5108
時有	-10.5112
滅諦	-10.5117
圓成實	-10.5121
健	-10.5122
圓照	-10.5124
畢竟空	-10.513
五句	-10.5133
菩薩如是	-10.5134
中尊	-10.5134
迦羅	-10.5136
諸教	-10.5142
不亂	-10.515
自覺聖	-10.5158
猶有	-10.516
如來身	-10.5162
不食	-10.5163
性自性相	-10.5167
不實妄想	-10.5168
佛為	-10.5171
到彼岸	-10.5172
纔	-10.5175
實語	-10.518
虗偽	-10.5181
不息	-10.5182
▁初明	-10.5182
即非	-10.5182
空理	-10.5183
女身	-10.5185
不來	-10.5187
分三	-10.5193
虛妄分別	-10.5193
三智	-10.5196
不有	-10.5198
酪	-10.5201
殺害	-10.5202
二名	-10.5213
忘失	-10.5213
神我	-10.5217
之旨	-10.5217
卷云	-10.5221
不可盡	-10.5224
入不二法門	-10.5227
功德佛南無	-10.5229
聖者	-10.5233
亦不能	-10.5237
數息	-10.5243
稻	-10.5243
便是	-10.5243
大苦	-10.5262
出體	-10.5264
深妙	-10.5267
崇	-10.527
過故	-10.5276
教授	-10.5276
就此	-10.5284
有因	-10.5289
無方	-10.5289
踰	-10.5291
釋成	-10.5294
不觀	-10.5297
觀此	-10.5299
迭	-10.5301
何異	-10.5302
初句	-10.5303
空假	-10.5304
利樂	-10.5306
之間	-10.5306
同異	-10.5309
衛	-10.5315
作是思惟	-10.5316
是為入不二法門	-10.5319
我心	-10.5323
來者	-10.5325
陵	-10.5326
中有三	-10.5331
工	-10.5332
八部	-10.5334
癡愛	-10.5346
與佛	-10.535
飽	-10.5355
用心	-10.5358
五色	-10.5367
抑	-10.5369
禪師	-10.5371
具三	-10.5388
若彼	-10.539
秖	-10.5393
化人	-10.5397
正理	-10.54
知覺	-10.5402
為其	-10.5405
普眼	-10.5408
不可得故	-10.541
門也	-10.541
蜂	-10.5412
大慈悲	-10.5415
莖	-10.5417
有種種	-10.5421
攝一切	-10.5421
體是	-10.5422
紅	-10.5427
作法	-10.5427
南無無量	-10.5431
速疾	-10.5431
於諸眾生	-10.5433
妙香	-10.5434
三十七品	-10.5435
▁二明	-10.5436
乃為	-10.5437
薰	-10.5439
能成	-10.544
三十七	-10.5441
以是義故	-10.5458
從彼	-10.5458
世尊告	-10.546
彩	-10.5462
證入	-10.5464
行菩薩	-10.5466
兄弟	-10.5467
促	-10.5472
師子座	-10.5476
於前	-10.5481
曼	-10.5485
不疑	-10.5487
現世	-10.5488
縣	-10.5493
聾	-10.5494
所愛	-10.5496
汝於	-10.5496
瑞	-10.5498
勝劣	-10.5498
非作	-10.5503
承事	-10.5511
賴耶	-10.5514
苦集	-10.5514
永滅	-10.5516
當生	-10.552
雪	-10.5523
則以	-10.5525
無際	-10.5531
分別說	-10.5532
因中	-10.5535
聽聞	-10.5537
一切時	-10.5538
寬	-10.5546
自生	-10.5546
黨	-10.5563
娑婆世界	-10.5564
月佛	-10.5566
芥子	-10.557
逸	-10.557
未知	-10.5572
業果	-10.5572
餘人	-10.5588
詰	-10.559
大悲心	-10.5592
住地	-10.5594
亦不可得	-10.5595
圓覺性	-10.5598
何因緣	-10.5599
或現	-10.56
彼比丘	-10.5601
善修	-10.5602
眾行	-10.5604
映	-10.5604
歸於	-10.5614
作所作	-10.5614
撿	-10.5616
十八界	-10.5617
實體	-10.562
助道	-10.5624
一一皆	-10.5625
鑒	-10.5628
前白佛言	-10.5632
病苦	-10.564
今者	-10.5644
搖	-10.5648
實叉云	-10.5649
大地獄	-10.5656
晝	-10.5669
妄想計著	-10.5676
妄分別	-10.5682
在彼	-10.5685
乃得	-10.5686
隨逐	-10.5688
聚集	-10.569
九地	-10.5694
秦	-10.5695
療	-10.5697
釋提桓因	-10.5698
與此	-10.57
灌	-10.5701
照明	-10.5701
即成	-10.5703
南無大	-10.5712
復說	-10.5715
空義	-10.5722
四等	-10.5724
無所生	-10.5727
一切世界	-10.5727
慰喻	-10.5729
三品	-10.5729
明鏡	-10.5729
三禪	-10.5731
不可量	-10.5733
伺	-10.5735
婬欲	-10.5738
雅	-10.5738
果也	-10.5741
賜	-10.5745
經王	-10.5747
怨家	-10.5748
何時	-10.575
即從座起	-10.575
相分	-10.5753
尚不	-10.5753
若有人	-10.5756
不顛倒	-10.5758
具有	-10.5758
巍巍	-10.5758
貢高	-10.5759
坑	-10.576
我以	-10.5766
懈	-10.5766
此室	-10.5774
道人	-10.5777
彼經	-10.5781
宗通	-10.5784
起諸	-10.5785
無主	-10.5786
文三	-10.5789
一千	-10.579
歌舞	-10.5792
所趣	-10.5792
不轉	-10.5792
彼土	-10.5797
自通	-10.5801
其文	-10.5801
魏	-10.5802
則生	-10.5803
所歸	-10.5808
令諸眾生	-10.5809
無差	-10.5813
不能自	-10.5813
長老	-10.5821
試	-10.5824
天魔	-10.5825
佛乘	-10.5832
能發	-10.5834
釋之	-10.5838
焦	-10.5842
亦以	-10.5843
是曰智慧	-10.5845
惡口	-10.5845
具云	-10.5847
恭敬供養	-10.5848
戶	-10.5849
之藏	-10.585
總別	-10.585
佛南無智	-10.5852
不別	-10.5855
各異	-10.5855
有法	-10.586
光菩	-10.5861
左右	-10.5865
善思	-10.5867
諷誦	-10.5867
如文	-10.587
萬二千	-10.5876
眠	-10.5881
了了	-10.5882
亦空	-10.5882
諸善	-10.5884
妙音	-10.5888
旦	-10.5889
又解	-10.5889
通於	-10.589
山中	-10.5891
九種	-10.5896
一頌	-10.5899
何緣	-10.5899
狐疑	-10.5901
轉依	-10.5902
非常非無常	-10.5903
如說	-10.5907
是曰布施	-10.5917
覺支	-10.5918
百千萬	-10.5923
▁初釋	-10.5924
親友	-10.5926
千歲	-10.5927
這	-10.5929
奈	-10.5929
莫能	-10.5931
生天上	-10.5935
數數	-10.5938
諸波羅蜜	-10.5946
深入	-10.5947
無分別智	-10.595
肇公曰	-10.5956
奇特	-10.5957
尋思	-10.5959
無有異	-10.5961
受報	-10.5962
五通	-10.5963
生也	-10.5968
上中下	-10.5968
兩舌	-10.597
佛事	-10.5978
無失	-10.5979
諸菩薩等	-10.5979
無常者	-10.598
正報	-10.5982
今既	-10.5983
燈明	-10.5983
!』	-10.5984
天竺	-10.5986
海中	-10.5988
是曰精進	-10.5989
諸菩薩眾	-10.5992
頭陀	-10.5995
競	-10.5997
何為	-10.6
雙非	-10.6002
空性	-10.6003
大菩提	-10.6004
此說	-10.6008
孔雀	-10.6011
二十四	-10.6012
結使	-10.6012
四攝	-10.6014
本迹	-10.602
智佛南無	-10.6022
山峯	-10.6025
是曰持戒	-10.6026
是曰一心	-10.6026
徵釋	-10.6026
此五	-10.6031
此問	-10.6034
和尚	-10.6035
無量種	-10.6035
十五日	-10.6039
法義	-10.6045
曼殊尸利	-10.6045
四病	-10.6047
抄	-10.6047
不用	-10.6048
度生	-10.6051
姊	-10.6053
徒眾	-10.6056
無處	-10.6056
遍計所執	-10.6056
總名	-10.6058
於世	-10.6058
豪	-10.6059
神呪	-10.6064
當以	-10.6067
調順	-10.607
覺想	-10.6073
不應食肉	-10.608
考	-10.6082
作是言	-10.6083
此初也	-10.6083
應有	-10.6086
不過	-10.6088
佛答	-10.6099
槃	-10.6103
亦復然	-10.6103
終不能	-10.6105
受大苦惱	-10.6107
經意	-10.6111
繞	-10.6126
所覆	-10.6127
醜	-10.6132
上明	-10.6135
眾色	-10.6137
論師	-10.6143
淵	-10.6144
勤精進	-10.6151
後明	-10.6151
幻滅	-10.6151
也經言	-10.6156
作涅槃想	-10.6157
遠離一切	-10.6158
莊嚴佛	-10.6158
常以	-10.6161
是曰忍辱	-10.6173
所能	-10.6173
為性	-10.6175
皆因	-10.6175
眼佛南無	-10.6181
弗	-10.6181
五力	-10.6182
不善法	-10.6184
眾生界	-10.6187
斷德	-10.6188
四果	-10.619
五義	-10.6192
千萬	-10.6198
智德	-10.6203
所由	-10.6207
心體	-10.621
是非	-10.6211
普遍	-10.6211
毒蛇	-10.6215
泡	-10.6219
諍訟	-10.6224
非時	-10.6226
六十二見	-10.6228
總相	-10.6231
如下	-10.6233
篇	-10.6234
三障	-10.6237
眾惡	-10.6238
善心	-10.6239
羅睺	-10.6239
▁南无日	-10.624
嗟	-10.6241
卷第二	-10.6241
整	-10.6242
不相違	-10.6242
英	-10.6244
營	-10.6248
子曰	-10.6249
勝義諦	-10.6249
來意	-10.6259
一切處	-10.626
方廣	-10.626
均	-10.6263
自得	-10.6263
無減	-10.6264
不由	-10.6265
滴	-10.6265
華嚴云	-10.6265
是故如來	-10.6268
坐禪	-10.6269
天帝釋	-10.6272
定性	-10.6276
常念	-10.6282
能解	-10.6283
黎	-10.629
廣如	-10.629
率	-10.6293
至于	-10.6302
滅則	-10.6302
斷絕	-10.6308
優波離	-10.6309
彼法	-10.6314
菴	-10.6319
前說	-10.6319
須知	-10.6322
隨時	-10.6326
奔	-10.6326
釋梵	-10.6327
辛	-10.6328
而不能	-10.6328
是故我說	-10.6328
未見	-10.6329
生歡喜	-10.6335
訛	-10.6339
妙色	-10.6339
喜王	-10.6339
所須	-10.6343
請佛	-10.6345
擔	-10.6346
如鏡	-10.6346
之與	-10.6347
有緣	-10.6348
天神	-10.6352
餘處	-10.6354
執有	-10.6354
悉是	-10.6356
是等	-10.6359
自受用	-10.6363
無有是處	-10.6366
薩婆若	-10.637
發明	-10.6371
則得	-10.6371
伽羅	-10.6379
不肯	-10.6384
城中	-10.639
無病	-10.639
價	-10.6394
如前所說	-10.6395
約教	-10.6397
成就眾生	-10.6399
房	-10.6399
書寫	-10.6399
憍	-10.6403
亦皆	-10.6409
種種色	-10.6411
惡行	-10.6413
迦葉佛	-10.6415
偷盜	-10.6417
除去	-10.6417
言辭	-10.6421
佛號	-10.6422
水火	-10.6422
見諦	-10.6424
故問	-10.6427
他受用	-10.6429
胸	-10.643
所樂	-10.6433
復於	-10.6433
資糧	-10.6434
浴	-10.6435
虛偽	-10.6437
皆大歡喜	-10.6437
斯陀含	-10.6439
位中	-10.644
無數劫	-10.644
集會	-10.6443
闡提	-10.6444
妄想生	-10.645
唯說	-10.6453
離念	-10.6455
攬	-10.6461
依法	-10.6463
世親	-10.6466
值佛	-10.6475
能捨	-10.6476
從本	-10.6478
為諸眾生	-10.6478
多種	-10.648
藥叉	-10.6482
▁五	-10.6485
無限	-10.6486
因者	-10.6489
十惡	-10.6489
剋	-10.6491
爾時世尊告	-10.6494
非想	-10.6494
即當	-10.6505
釋論	-10.6505
得阿羅漢	-10.6506
大論云	-10.6506
施主	-10.6508
如今	-10.6511
在前	-10.6516
採	-10.6516
欲重宣此義	-10.6519
初示	-10.6528
地水火風	-10.6529
鏡像	-10.6532
之想	-10.6535
諸陰	-10.6538
▁南无淨	-10.6538
妄法	-10.6538
身業	-10.6539
祐	-10.654
除諸	-10.6546
異生	-10.6548
流支	-10.6549
用之	-10.6549
射	-10.6551
▁南无無垢	-10.6552
自在王佛	-10.6554
瑜伽論	-10.6555
寫	-10.6558
總標	-10.6561
旃	-10.6564
混	-10.6565
於未來世	-10.6571
舟	-10.6574
匝	-10.6574
汁	-10.6577
皆應	-10.6577
品中	-10.6578
震動	-10.6583
忉利天	-10.6586
就初	-10.659
悉得	-10.6594
上品	-10.6596
自妄想	-10.6598
心起	-10.6599
七覺	-10.6603
若使	-10.6604
師云	-10.6605
聰	-10.6607
如來應供等正覺	-10.6607
得樂	-10.6609
勸修	-10.6614
註云	-10.6615
於大眾中	-10.6621
疾得	-10.6624
無所住	-10.6625
其地	-10.6626
如次	-10.6627
甞	-10.6631
別名	-10.6637
由前	-10.6638
臥具	-10.6638
終教	-10.664
但約	-10.6643
大城	-10.6645
若說	-10.6646
四土	-10.665
迦旃延	-10.665
右膝著地	-10.6651
佛弟子	-10.6652
是何	-10.6654
遶	-10.6657
哭	-10.666
寤	-10.6661
疏二	-10.6662
涅槃經	-10.6665
此皆	-10.6666
彼此	-10.6667
政	-10.6668
了因	-10.6669
無名	-10.6671
唯然受教	-10.6676
宰	-10.6677
峯	-10.6678
貪恚癡	-10.6678
眾善	-10.6678
怨賊	-10.6678
出家者	-10.6679
香氣	-10.668
拔苦	-10.668
諸師	-10.6681
淨覺	-10.6682
顯理	-10.6687
今約	-10.6687
生疑	-10.6687
然燈	-10.6689
在此	-10.6695
絕待	-10.6706
佛復告	-10.6711
煙	-10.6712
六地	-10.6715
而立	-10.6718
地神	-10.6719
了別	-10.6727
菩薩所行	-10.673
證真	-10.6732
攝大乘	-10.6732
商主	-10.6733
眾鳥	-10.6734
如實修行	-10.6741
百由旬	-10.6741
財施	-10.6742
阿鼻	-10.6744
被呵	-10.6745
四佛	-10.6748
作諸	-10.6751
皆非	-10.6759
眾香	-10.6765
口業	-10.677
而此	-10.6777
應時	-10.6781
8	-10.6782
什公	-10.6782
披	-10.6789
現量	-10.6792
雖行	-10.6792
說名為	-10.6793
皆具	-10.6798
諸大菩薩	-10.6801
何能	-10.6801
如月	-10.6801
體用	-10.6802
尸羅	-10.6803
真法	-10.6805
而作是言	-10.6808
聰明	-10.6811
現識	-10.6812
天曰	-10.6815
德本	-10.6818
灑	-10.6819
惱亂	-10.6821
悉知	-10.6821
來去	-10.6824
精舍	-10.6831
起行	-10.6833
清淨心	-10.6835
其國	-10.6839
一切悉	-10.6839
已上	-10.684
能離	-10.6845
舊云	-10.6845
是則名為	-10.6847
智度論	-10.685
未生	-10.6852
所施	-10.6852
恩愛	-10.6859
羅網	-10.686
後有	-10.6866
過惡	-10.6871
有生滅	-10.6875
所照	-10.6875
世尊說	-10.6878
二十一	-10.688
威德佛	-10.6881
諸緣	-10.6882
煖	-10.6882
天龍	-10.6883
頗梨	-10.6885
所入	-10.6885
隨其所	-10.6892
應是	-10.6892
大疏	-10.6894
倦	-10.6895
證涅槃	-10.6907
低	-10.6907
所斷	-10.6913
眉	-10.6914
恭	-10.6916
當說	-10.6916
時眾	-10.6918
於外	-10.6919
生因	-10.692
所覺	-10.6921
而實	-10.6926
一部	-10.6927
名言	-10.6935
佛菩提	-10.6935
丈六	-10.6936
不可言	-10.6938
述曰	-10.6939
華佛	-10.694
迷悶	-10.6942
所感	-10.6944
非唯	-10.6947
聚佛	-10.6948
無障	-10.6949
稱歎	-10.6951
是故大慧	-10.6952
何等法	-10.6955
放光明	-10.6956
廟	-10.6958
百劫	-10.6959
你	-10.696
穢土	-10.6964
未甞	-10.6964
等事	-10.6968
湛然	-10.6969
曼殊室利	-10.6971
諂曲	-10.6978
醫王	-10.6979
所出	-10.698
羸	-10.6981
大火	-10.6981
天樂	-10.6981
猶是	-10.6983
生空	-10.6985
自謂	-10.6985
而求	-10.6986
是故名為	-10.6989
丘	-10.699
弓	-10.6994
維	-10.6995
諸佛法	-10.6996
玄義	-10.6997
▁南无香	-10.7002
一事	-10.7002
深淺	-10.7003
必定	-10.7005
▁初標	-10.7007
五塵	-10.7008
也然	-10.701
作大	-10.7011
出生死	-10.7015
踊躍	-10.7016
如金	-10.7016
無罪	-10.7019
辨才	-10.7022
所計	-10.7022
造業	-10.7023
此即初也	-10.7023
婆伽婆	-10.7025
無生法忍	-10.7025
摧伏	-10.703
幻師	-10.7032
阿彌陀	-10.7036
西域	-10.7042
無受	-10.7042
剎利	-10.7046
百八	-10.7051
大威德	-10.7055
為證	-10.7056
世界名	-10.7062
正士	-10.7065
翅	-10.7066
義同	-10.7071
佛陀	-10.7071
為求	-10.7074
或言	-10.7078
諸禪	-10.7078
滅惡	-10.7084
祭	-10.709
智度	-10.7092
功能	-10.7098
此語	-10.7101
溫	-10.7102
然彼	-10.7104
如是之人	-10.7107
▁○	-10.7109
佛南無師子	-10.7111
二人	-10.7114
利益眾生	-10.7115
修羅	-10.7116
觀音	-10.7118
海水	-10.7118
史	-10.7118
種種異	-10.7119
腸	-10.712
空閑	-10.7121
我今當	-10.7123
廣博	-10.7126
壞者	-10.7129
不盜	-10.713
其光	-10.7131
禮敬	-10.7131
問訊	-10.7132
伸	-10.7138
力士	-10.7142
什	-10.7145
難思	-10.715
川	-10.7157
應當修學	-10.7157
彼云	-10.7158
遍計	-10.7163
亦名為	-10.7164
不立	-10.7165
從於	-10.7169
菩提涅槃	-10.7173
外道說	-10.7174
趣向	-10.7175
是即	-10.7177
一切境界	-10.7178
別異	-10.7179
倫	-10.7181
雜集	-10.7183
逼迫	-10.7183
下約	-10.7184
殖	-10.7184
伎	-10.7185
還復	-10.7188
後結	-10.7189
通名	-10.719
華嚴經	-10.7191
作佛事	-10.7195
以何為	-10.7195
山頂	-10.7196
撰	-10.7197
大鈔云	-10.7205
悉見	-10.7206
受教	-10.7208
止息	-10.7209
能了	-10.721
陀羅尼門	-10.7214
冤	-10.7215
頌云	-10.7215
善巧方便	-10.7218
一偈	-10.7218
斷疑	-10.7224
發生	-10.7226
生厭離	-10.7229
性淨	-10.7229
道諦	-10.723
香象	-10.723
彼國	-10.7232
循	-10.7235
令知	-10.7238
修福	-10.7239
自作	-10.7242
為種	-10.7246
憑	-10.7247
能了知	-10.7253
不盡有為	-10.7254
上根	-10.7254
悋	-10.7258
之病	-10.726
作種種	-10.7261
千由旬	-10.7262
龍樹	-10.7266
罪業	-10.7266
及彼	-10.7267
之功	-10.7273
頗	-10.7276
欲知	-10.7276
苑	-10.7277
便有	-10.728
鮮	-10.7282
輕重	-10.7283
無礙智	-10.7286
疏中	-10.7286
無起	-10.7287
撥	-10.7287
朗	-10.729
雖是	-10.7293
裂	-10.73
五千	-10.7306
斯則	-10.7306
膝	-10.7306
似有	-10.7314
補處	-10.7316
畢竟無	-10.7316
染法	-10.7317
囊	-10.7318
未聞	-10.7325
一標	-10.7326
大段	-10.7326
不曾	-10.7327
變現	-10.7331
秘密	-10.7332
壇	-10.7333
而後	-10.7333
妄生	-10.7337
何由	-10.7337
光嚴	-10.7337
令入	-10.7338
動轉	-10.7339
之患	-10.734
堅牢	-10.7342
勝法	-10.7342
髓	-10.7344
愚者	-10.7345
枝葉	-10.7348
2	-10.7349
侶	-10.735
而坐	-10.7357
早	-10.7362
入地獄	-10.737
空空	-10.7372
善見	-10.7373
善男子善女人	-10.7373
周匝	-10.7373
隨宜	-10.7379
大德須菩提	-10.738
奴	-10.738
思之	-10.7381
之宗	-10.7384
生老病死	-10.7392
聞慧	-10.7396
愚夫妄想	-10.74
紛	-10.7408
推求	-10.741
悞	-10.7412
權智	-10.7412
國中	-10.7414
衍	-10.7421
種善根	-10.7421
今欲	-10.7422
即法身	-10.7422
相隨	-10.7427
比丘僧	-10.7428
修梵行	-10.7431
側	-10.7433
實非	-10.7437
內證	-10.7439
願為	-10.7444
得無生忍	-10.7444
所治	-10.7444
昭	-10.745
自在王佛南無	-10.7455
阿修羅王	-10.7458
□□□□	-10.7459
緣因	-10.7461
諸苾芻	-10.7462
十億	-10.7463
持此	-10.7463
輸	-10.7468
高廣	-10.7471
即滅	-10.7475
育	-10.7476
之辭	-10.7477
如幻化	-10.7478
我已	-10.7483
五眼	-10.7485
得受記	-10.7489
無益	-10.7491
勝進	-10.7493
異於	-10.7497
眼見	-10.7504
護國	-10.7506
偈頌	-10.7506
因陀羅	-10.7516
如風	-10.7518
示其	-10.7519
盧舍那	-10.7523
不住無為	-10.7523
屠	-10.7524
二百	-10.7527
法爾	-10.7529
正顯	-10.7532
稱性	-10.7538
則墮	-10.7538
疾病	-10.7541
佛界	-10.7542
滅盡定	-10.7554
校	-10.7557
無餘涅槃	-10.7559
愛著	-10.7561
女言	-10.7564
汝今諦聽	-10.7567
香華	-10.7575
帝王	-10.7575
兜率天	-10.7577
堪任	-10.7578
䟦	-10.7578
相生	-10.758
足下	-10.7581
常寂	-10.7582
之子	-10.7595
俱是	-10.7597
腦	-10.7597
。』」	-10.7599
百年	-10.7603
式	-10.7605
初正明	-10.7609
諦聽諦聽	-10.7615
正解	-10.7616
受想行識	-10.7618
應作	-10.7619
正使	-10.7622
孝順	-10.7625
而知	-10.7629
所可	-10.763
自業	-10.7631
乃可	-10.7635
後時	-10.7643
深廣	-10.7643
前五	-10.7648
鞞	-10.7649
能使	-10.7651
下第二	-10.7651
難陀	-10.7653
外法	-10.7653
地大	-10.7654
恒河	-10.7659
所逼	-10.7659
限量	-10.7677
上句	-10.7678
別說	-10.7678
初分科	-10.7679
則成	-10.7679
主宰	-10.768
鉤	-10.7681
無取	-10.7688
對曰	-10.7691
策	-10.7696
王言	-10.7702
斷一切	-10.7702
爾時大慧菩薩摩訶薩	-10.7703
何用	-10.7705
執為	-10.771
所讚	-10.7716
墮於地獄	-10.7717
之謂也	-10.7718
與我	-10.772
成立	-10.7729
無物	-10.7729
驢	-10.7734
送	-10.7737
新說云	-10.7739
餘三	-10.774
豆	-10.774
一面	-10.7741
圭峯	-10.7744
福慧	-10.7747
舒	-10.7747
無始虗偽	-10.775
全體	-10.7751
諸方	-10.7755
首楞嚴三昧	-10.7756
不愛	-10.7756
生死苦	-10.7765
不但	-10.7766
集諦	-10.777
覺自心現量	-10.7772
此喻	-10.7773
不合	-10.7773
斯經	-10.7774
紺	-10.778
辟支佛南無	-10.7782
牟修樓陀	-10.7783
麥	-10.7789
井	-10.7792
彼宗	-10.7794
如幻三昧	-10.7799
隨類	-10.7802
繫念	-10.7803
之位	-10.7804
彼論	-10.7806
生信	-10.7807
複	-10.7807
可畏	-10.7813
3	-10.7816
如是乃至	-10.7818
麗	-10.7818
正思惟	-10.7818
永無	-10.782
救濟	-10.7826
頭面	-10.7827
雖知	-10.7828
如實了知	-10.783
四分	-10.783
一音	-10.7833
若能如是	-10.7833
何須	-10.7834
殊妙	-10.7835
無情	-10.7837
或在	-10.7841
不還	-10.7841
性自	-10.7848
一生補處	-10.7855
雜色	-10.7855
一實	-10.7858
楞伽王	-10.7858
寂照	-10.786
空慧	-10.7862
作是說	-10.7862
手執	-10.7864
涌	-10.787
幸	-10.7872
刑	-10.7875
彼時	-10.7878
癡人	-10.788
以神力	-10.7884
更相	-10.7885
不犯	-10.7891
三藐三佛陀	-10.7894
茂	-10.7898
斫	-10.79
答中	-10.79
憂苦	-10.7901
朽	-10.7903
善說	-10.7909
賴	-10.791
揭	-10.791
賣	-10.7915
顯揚	-10.7921
教他	-10.7924
悔過	-10.7931
今時	-10.7932
講說	-10.7937
紫	-10.7942
分為二	-10.7944
算	-10.7944
而作佛事	-10.7949
本具	-10.7951
纏縛	-10.7957
谷	-10.7957
正等正覺	-10.7961
願佛	-10.7965
而以	-10.7967
藏通	-10.7968
徧計	-10.797
聞其	-10.7971
遠離於	-10.7972
作惡	-10.7974
凝	-10.7974
又言	-10.7975
遊戲受樂	-10.7976
偏袒右肩	-10.7981
▁初約	-10.7988
有幾	-10.7993
或謂	-10.7994
米	-10.7998
無功用	-10.8001
習近	-10.8007
薄伽梵	-10.8008
諸物	-10.8011
雖殊	-10.8025
五事	-10.8025
君子	-10.8028
儞	-10.8029
擲	-10.803
魏譯云	-10.8039
誰能	-10.804
說此經	-10.8044
勉	-10.8047
曠	-10.805
但言	-10.8057
嘉	-10.8058
化物	-10.8062
惠施	-10.8068
無有生	-10.8071
出世間上上	-10.8071
妙吉祥菩薩	-10.8074
尊貴	-10.8075
寶華	-10.8077
1	-10.8083
之語	-10.8085
楚	-10.8085
雞	-10.8085
荒	-10.8095
性德	-10.8097
探	-10.8099
以大悲	-10.8106
終無	-10.8106
不是	-10.8106
婇女	-10.8107
既知	-10.8107
河沙	-10.8108
心生歡喜	-10.8111
相貌	-10.8113
如是名為	-10.8116
智論	-10.8117
惑業	-10.812
不可稱	-10.8128
今依	-10.8128
僧伽	-10.813
烟	-10.8133
願我	-10.8134
卵	-10.8143
閡	-10.8147
白衣	-10.8149
管	-10.8151
沒生	-10.8155
雖現	-10.8158
牢	-10.8165
大莊嚴	-10.8168
焚	-10.8171
眼根	-10.8171
能造	-10.8174
獲益	-10.8198
六處	-10.8202
安置	-10.8204
九界	-10.8206
壯	-10.821
四明聰講師	-10.8212
拏	-10.8215
菩薩亦爾	-10.8224
如水中月	-10.8228
巳下	-10.8231
觀成	-10.8233
三門	-10.8238
何義	-10.8241
序分	-10.8242
妙喜	-10.8249
終始	-10.8251
離苦	-10.8254
隨眠	-10.8254
正論	-10.8255
見一切法	-10.8259
了悟	-10.826
嬰兒	-10.8261
犯戒	-10.8266
瞋恨	-10.8267
華香	-10.8267
久遠	-10.8268
水月	-10.8268
不可計	-10.827
善利	-10.8271
曹	-10.8274
先明	-10.8277
。」《	-10.8281
格	-10.8286
功德如來南無	-10.8288
兄	-10.8289
感應	-10.8289
既爾	-10.8298
陸	-10.8305
當學	-10.8307
五體投地	-10.8313
損減	-10.8315
如法華	-10.8315
末那	-10.8316
振	-10.8317
卷第四	-10.832
折伏	-10.8331
邪道	-10.8335
舉一	-10.8335
優劣	-10.8336
父王	-10.8341
分析	-10.8343
權教	-10.8355
顯真	-10.8358
臭穢	-10.8361
卷第三	-10.8362
復能	-10.8365
叉手	-10.8365
百萬	-10.8371
則無有	-10.8374
併	-10.8374
法合	-10.8385
教門	-10.8386
而說頌曰	-10.8386
妬	-10.8389
諸乘	-10.839
離妄想	-10.8394
就中	-10.8396
佛南無無垢	-10.8399
山河	-10.8402
有二意	-10.8408
業道	-10.8409
余	-10.8411
疊	-10.8414
生長	-10.8421
欲使	-10.8426
諸凡夫	-10.8427
衰惱	-10.843
大富	-10.8432
總明	-10.8432
空室	-10.8434
顯發	-10.8438
怙	-10.8439
城邑	-10.8443
變為	-10.845
不厭	-10.8456
報佛	-10.846
攝論	-10.846
成辦	-10.8461
口中	-10.8462
為諸菩薩	-10.8468
若生人中	-10.8469
永不	-10.8469
墮有無	-10.847
下句	-10.8475
十里	-10.8483
三解脫	-10.8485
無自性性	-10.8495
久近	-10.8496
大弟子	-10.8497
第八識	-10.8503
南無善	-10.8509
淫	-10.8511
八解脫	-10.8512
何故不	-10.8517
能照	-10.852
佛南無妙	-10.8532
值遇	-10.8535
現相	-10.8537
唾	-10.8546
慧命	-10.8546
真相	-10.8553
佛像	-10.8558
以為莊嚴	-10.8561
業果報	-10.8565
山林	-10.8566
諸論	-10.8568
雖然	-10.8573
四十九	-10.8574
淨妙	-10.8574
億那由他	-10.8578
揵	-10.8581
竊	-10.8586
離文字	-10.8587
微塵數	-10.8588
若諸眾生	-10.8589
篋	-10.8592
楊	-10.8593
頂上	-10.8594
富樓那	-10.8601
筆	-10.8605
無生無滅	-10.8605
正教	-10.8607
心心所	-10.8608
真實義	-10.8612
大同	-10.8615
百千劫	-10.8616
苦果	-10.8618
一切大眾	-10.8619
對待	-10.862
彼外道	-10.862
一念心	-10.8629
開敷	-10.8636
猴	-10.8642
德佛南無	-10.8644
讖	-10.8644
猶如虗空	-10.8645
愛心	-10.8649
中陰	-10.865
之殊	-10.8651
小兒	-10.8652
令住	-10.8655
此法門	-10.8655
於佛前	-10.8657
實報	-10.8659
能治	-10.8664
妙智	-10.8667
所著	-10.8669
菩薩藏	-10.8669
不覺知	-10.8676
終日	-10.8676
叫	-10.8676
脇	-10.8677
十二緣	-10.8678
於一切眾生	-10.8678
合掌恭敬	-10.8678
高山	-10.8679
呵責	-10.8684
而言之	-10.8684
結云	-10.8685
不許	-10.8685
占	-10.8695
練	-10.8696
忻	-10.8697
呪術	-10.8698
逈	-10.87
此第二	-10.8701
修因	-10.8705
六師	-10.8706
江河	-10.871
後際	-10.8712
渴愛	-10.8712
一切善法	-10.8722
捐	-10.8725
三百	-10.8725
三細	-10.8727
日出	-10.8731
怯	-10.8733
權疾	-10.874
巨	-10.874
諸漏	-10.8741
非實有	-10.8743
安處	-10.8747
二別釋	-10.875
能救	-10.8756
未悟	-10.8757
四陰	-10.8757
心懷	-10.876
豈能	-10.8763
佛南無月	-10.8768
淨佛國土	-10.8768
楞伽經	-10.8771
結勸	-10.8773
外緣	-10.8779
禽獸	-10.878
刻	-10.8781
驅	-10.8782
謀	-10.8789
初果	-10.8791
戒行	-10.8796
泥團	-10.8798
▁南无梵	-10.8798
恒常	-10.8799
說一乘	-10.8799
雙照	-10.8804
惡知識	-10.8805
三昧正受	-10.8806
焚燒	-10.8806
三昧門	-10.8807
了義經	-10.8808
諸佛國土	-10.8817
根本無明	-10.8817
體空	-10.8819
飯食	-10.882
能緣	-10.8822
鎖	-10.8822
諸善男子	-10.8823
在世	-10.8823
而不知	-10.8824
掃	-10.8824
涼	-10.8824
假說	-10.8825
又為二初	-10.8829
荼	-10.883
未證	-10.8836
爭	-10.884
種種莊嚴	-10.8843
達磨	-10.8849
諸天人	-10.8862
無所依	-10.8863
摩睺羅伽	-10.8864
今且	-10.887
此偈	-10.8873
勝利	-10.8874
難勝	-10.8878
六事	-10.8881
斯等	-10.8881
其德	-10.8882
不容	-10.8885
無厭足	-10.889
湛	-10.8891
池中	-10.8891
僧寶	-10.8896
未嘗	-10.8897
得福	-10.8898
付囑	-10.8903
出現於世	-10.8914
於其中	-10.8916
外道見	-10.8916
妙行	-10.8918
靡	-10.8918
調御	-10.8921
因緣和合	-10.8921
迅	-10.8922
不以為	-10.8925
二十七	-10.8927
鄉	-10.8929
即假	-10.8932
威佛	-10.8932
善思惟	-10.8934
為佛事	-10.8935
三重	-10.8935
室內	-10.8941
爾乃	-10.8944
眼目	-10.8953
未必	-10.8955
是故菩薩	-10.8959
劫數	-10.896
三土	-10.8967
眾病	-10.8968
葛	-10.8969
誑惑	-10.8971
出三界	-10.8972
兜率	-10.8975
』「	-10.8979
逝	-10.898
苗	-10.8983
兔	-10.8984
刃	-10.8985
歡喜踊躍	-10.8987
克	-10.8987
行願	-10.899
供養諸佛	-10.8991
非有無	-10.8991
長夜	-10.8992
研	-10.8993
各自	-10.8993
創	-10.8997
身壞命終	-10.9
總釋	-10.9007
融通	-10.9008
五品	-10.9016
遠近	-10.9019
為眾生說	-10.9021
梵天言	-10.9027
捺	-10.9028
百二十	-10.9031
意根	-10.9039
自在王	-10.904
第二明	-10.9041
大慧菩薩復白佛言	-10.905
善惡業	-10.9054
▁南无蓮花	-10.9055
新學	-10.906
甚深法	-10.9061
幻夢	-10.9061
佛滅後	-10.9063
老病死	-10.9065
弟子等	-10.9068
不懷	-10.907
萬億	-10.9071
寶山	-10.9073
所變	-10.9074
跋陀	-10.9079
大悲世尊	-10.9079
醍	-10.9081
正意	-10.9084
善來	-10.9084
本不生	-10.9084
尤	-10.9085
行施	-10.9086
佛告文殊師利	-10.9086
三輪	-10.9093
紙	-10.9093
慧菩	-10.9095
餘經	-10.9099
迷真	-10.9102
亦復不	-10.9106
瞿	-10.9109
文殊問	-10.9113
巖	-10.9115
六句	-10.9117
之義也	-10.9129
是名菩薩摩訶薩	-10.913
威光	-10.9134
見聞覺知	-10.9139
南無普	-10.9139
右手	-10.9141
刼	-10.9146
普光	-10.9148
善財	-10.9149
而得解脫	-10.9153
五趣	-10.9154
得不退轉	-10.9158
四聖諦	-10.9162
一切眾生皆	-10.9165
淳	-10.9172
嗜	-10.9174
三摩提	-10.918
電光	-10.918
陶	-10.919
若諸有情	-10.9191
今世	-10.9198
仁王	-10.9199
為佛作禮	-10.9208
三千大千	-10.9209
珊	-10.9211
深信	-10.9213
死屍	-10.9228
若有菩薩	-10.9231
牛角	-10.9236
約觀心	-10.9243
汎	-10.9243
發無上正真道意	-10.9244
由斯	-10.9248
發無上	-10.9251
▁南无華	-10.9254
迦樓羅	-10.9257
數量	-10.9257
瞻仰	-10.9262
長跪	-10.9263
膩	-10.9264
靡不	-10.9266
火輪	-10.9269
唎	-10.9269
涕	-10.927
步佛南無	-10.9272
福報	-10.9279
幢菩	-10.9279
賢善	-10.9281
遲	-10.9281
到此	-10.929
諸善根	-10.9299
三萬二千	-10.9299
勸助	-10.9301
謂諸菩薩	-10.9302
餘皆	-10.9304
從他	-10.9305
▁南无虛空	-10.9311
西北方	-10.9317
]	-10.9319
必當	-10.9319
約理	-10.932
大仙	-10.9321
得法眼淨	-10.9323
無有差別	-10.9327
縷	-10.9331
鈎	-10.9331
無量無數	-10.9336
異不異	-10.9336
如華嚴	-10.9338
莊嚴佛南無	-10.9343
嶮	-10.9346
山曰	-10.9347
所集	-10.9347
阿賴耶識	-10.9351
如影	-10.9354
屎	-10.9355
耽	-10.9355
亦通	-10.9361
赫	-10.9363
王曰	-10.9363
偏真	-10.9365
動念	-10.9365
大圓覺	-10.9366
拜	-10.9371
欲顯	-10.9372
綺語	-10.9375
翼	-10.9377
冀	-10.938
下品	-10.9382
佛一百	-10.9383
寸	-10.9385
速得	-10.9386
通釋	-10.9387
佛地論	-10.9387
虧	-10.9388
寶樹	-10.939
天中天	-10.9392
深遠	-10.9395
諍論	-10.9398
菴羅	-10.9407
行布施	-10.9411
執我	-10.9411
加持	-10.9412
百歲	-10.9418
彼諸菩薩	-10.942
四魔	-10.9421
摩尼珠	-10.9424
黠慧	-10.9428
殷	-10.943
▁初總	-10.9436
饑	-10.9436
古今	-10.9439
閻魔羅人	-10.9439
五濁	-10.9442
報障	-10.9445
極微	-10.9449
幢幡	-10.945
娛	-10.9454
冰	-10.9456
色陰	-10.9457
自在力	-10.9458
皆悉具足	-10.9463
長跪叉手	-10.9468
淨國	-10.9473
聖慧	-10.9476
命根	-10.9482
悅樂	-10.9483
皈	-10.9486
眾生來生其國	-10.9487
舉喻	-10.9488
三昧起	-10.949
破無明	-10.9504
無滯	-10.9507
審諦	-10.9507
假觀	-10.9516
奴婢	-10.9516
十法界	-10.9517
自下第三	-10.9519
二十二	-10.9525
洗浴	-10.9525
比丘𡰱	-10.9526
將欲	-10.9529
軀	-10.953
伽陀	-10.9534
津	-10.9535
祈	-10.9539
六情	-10.9539
歇	-10.9544
首楞嚴	-10.9548
黃金	-10.9554
欺誑	-10.9558
瑟	-10.9563
提婆	-10.9564
疏文	-10.9564
檀波羅蜜	-10.9569
猶如虛空	-10.9572
安慰	-10.9582
弄	-10.9583
貞	-10.9587
滅罪	-10.9587
沙彌	-10.959
能令眾生	-10.9593
未至	-10.9598
無上正真之道	-10.9601
洛	-10.9601
猶若	-10.9603
分別事識	-10.9606
不聽	-10.9612
胎藏	-10.9613
十事	-10.9614
袈裟	-10.9615
山佛南無	-10.9616
瑕	-10.9619
月佛南無	-10.962
屍	-10.9626
怨敵	-10.9627
一段	-10.9627
敷演	-10.9632
閒	-10.9633
照耀	-10.9634
獵	-10.9635
阿賴耶	-10.9638
離四句	-10.964
塗香	-10.9641
栴檀香	-10.9644
雪山	-10.9645
不殊	-10.9648
聞正法	-10.9657
樂著	-10.966
厭足	-10.9661
毀禁	-10.9661
散華	-10.9667
此法門者	-10.9667
其子	-10.9668
開合	-10.9671
放逸行	-10.9681
吞	-10.9681
躁	-10.9686
淪	-10.9686
敬重	-10.9693
意趣	-10.9693
四大種	-10.9699
大雲	-10.97
拙	-10.9702
渠	-10.9703
退轉	-10.9703
始教	-10.9703
日夜	-10.9707
視之	-10.971
文為三	-10.9715
下中上	-10.9718
經卷	-10.9721
妃	-10.9727
半頌	-10.9728
微笑	-10.9729
壞滅	-10.973
百八句	-10.9731
放大光明	-10.9734
貝	-10.9735
傾	-10.9735
三摩	-10.9736
摩訶薩	-10.9737
供給	-10.9738
菩提分法	-10.9739
正性	-10.9745
絲	-10.9749
照曜	-10.975
佛告舍利弗	-10.975
尋伺	-10.9752
彼見聞知	-10.9756
喻顯	-10.9759
燒香	-10.9767
神王	-10.977
九品	-10.9774
得安隱	-10.9774
閻	-10.9777
咽	-10.9777
能護	-10.9783
聞聲	-10.9788
經中說	-10.9789
道德	-10.9789
藍	-10.9795
羅睺羅	-10.9797
醫藥	-10.9798
啼	-10.98
較	-10.9801
林樹	-10.9803
垂髮	-10.9807
聖果	-10.9808
別示	-10.981
遊步	-10.9813
擇滅	-10.9822
有五種	-10.9823
断	-10.9837
舞	-10.9839
於過去	-10.9839
雞兜	-10.984
皆共	-10.9841
琴	-10.9841
繼	-10.9844
所學	-10.9846
魂	-10.9848
菩薩阿耨多羅三藐三菩提記	-10.9848
大智慧	-10.9849
入城	-10.9856
撮	-10.9857
如來說法	-10.9863
一剎那	-10.9864
二乘人	-10.9864
增進	-10.9878
本來成佛	-10.9878
二初明	-10.9882
毘羅	-10.9889
德菩	-10.9896
擎	-10.9899
分文	-10.99
光如來南無	-10.9901
此諸菩薩	-10.9902
四大造色	-10.9905
囑	-10.9908
無因生	-10.9909
惟願為說	-10.991
於佛法中	-10.9915
毗尼	-10.9915
如說修行	-10.9916
妙寶	-10.9916
身土	-10.9917
金山	-10.9917
一行半	-10.993
現在前	-10.9944
棘	-10.9945
地持	-10.9946
過去未來現在	-10.9946
尸棄	-10.9947
苦痛	-10.9951
頑	-10.9952
隨眾生	-10.9952
忠	-10.9954
喜悅	-10.9958
疑悔	-10.9959
淨名云	-10.9964
彈呵	-10.9972
巳還	-10.9974
四重	-10.9975
開導	-10.9979
諸善法	-10.998
樹木	-10.9987
設有	-10.9987
嗅	-10.999
日日	-10.9994
謹	-11.0001
餓	-11.0002
十二部經	-11.0003
如何是	-11.0003
今就	-11.0004
席	-11.0009
逆順	-11.0015
諸佛子	-11.0015
諦理	-11.0017
如汝所說	-11.0024
大海水	-11.0025
夢見	-11.0026
不礙	-11.003
聞此經	-11.0031
如是思惟	-11.0032
爾𦦨	-11.0033
先世	-11.0035
魔事	-11.0039
補特伽羅	-11.004
任持	-11.0044
躡	-11.0047
莎訶	-11.0051
流入	-11.0059
明行成	-11.0062
纖	-11.0063
寂定	-11.0065
自性涅槃	-11.0075
增上緣	-11.0078
阿闍世	-11.0078
是菩薩淨土	-11.0079
滿月	-11.0087
迴轉	-11.0088
億百千	-11.0089
世間出世間	-11.009
隨念	-11.0094
緣起自性	-11.0095
能度	-11.0095
略示	-11.0097
晃	-11.0099
墮惡道	-11.0099
難解	-11.0099
坐道場	-11.01
如雲	-11.0103
悲智	-11.0104
罰	-11.0108
八十種好	-11.0109
波旬	-11.0109
墮在	-11.0113
證悟	-11.0117
巳來	-11.0118
無違	-11.0119
疲厭	-11.0119
有疾菩薩	-11.0121
罔	-11.0123
紹	-11.0124
正問	-11.0126
決擇	-11.0126
圭峰	-11.0127
淨除	-11.0128
▁後釋	-11.013
成等正覺	-11.0131
乍	-11.0133
所緣境	-11.0136
在大眾中	-11.0144
註曰	-11.0147
周徧	-11.0151
始得	-11.0152
觀解者	-11.0155
非剎那	-11.0173
現在說法	-11.0181
百千億	-11.0181
文殊師利菩薩	-11.0186
初二句	-11.0187
應物	-11.0194
並是	-11.0194
「『	-11.0199
正信	-11.02
重罪	-11.0202
羅婆	-11.0203
悲愍	-11.0204
係	-11.0205
稱量	-11.0206
夢幻	-11.0207
設使	-11.0215
巷	-11.0216
醯	-11.0221
此頌	-11.0223
匿	-11.0226
所行境界	-11.0228
如前說	-11.0237
照了	-11.0238
如恒河沙	-11.0244
不淨觀	-11.0244
當知此	-11.0247
過去世	-11.0248
進退	-11.0251
第十一	-11.0255
▁初科	-11.0256
二十三	-11.0259
文可知	-11.026
皆屬	-11.0267
阿蘭若	-11.0268
羞	-11.0269
同歸	-11.0273
戒定慧	-11.0275
祕	-11.0276
四無所畏	-11.0277
輕慢	-11.0281
尾	-11.0286
螺	-11.0288
施戒	-11.0288
鬪諍	-11.0293
能取所取	-11.0294
求菩提	-11.0298
僧祇	-11.0298
根緣	-11.0299
實無有	-11.03
十年	-11.0301
勸令	-11.0306
觀世音	-11.0306
引發	-11.0307
▁南无須	-11.032
是身如	-11.0326
肥	-11.0328
功德莊嚴	-11.033
奧	-11.0331
甚難	-11.0332
苦報	-11.0335
陁羅	-11.0338
貪等	-11.0338
序品	-11.0339
彼如來授名	-11.034
嘗	-11.0347
邪婬	-11.0349
自思惟	-11.0361
陰陽	-11.0362
卷第一	-11.0368
消除	-11.037
音菩	-11.037
不二法門	-11.0375
如佛所說	-11.0377
當知是	-11.038
世尊告曰	-11.0384
但取	-11.0385
劇	-11.0385
然燈佛南無	-11.0391
須菩提言	-11.0392
不毀	-11.0398
其母	-11.04
法御	-11.0402
若不爾者	-11.0404
行乞食	-11.0405
告言	-11.0406
凡所	-11.041
鵝	-11.041
根境	-11.0411
廣分別	-11.0417
垢淨	-11.0417
於佛法	-11.0417
樹林	-11.0425
法器	-11.0429
種諸善根	-11.0433
親屬	-11.044
燭	-11.0447
卜	-11.0453
奏	-11.0454
案	-11.0459
能障	-11.0462
自歸	-11.0469
佛塔	-11.0473
聞佛說	-11.0474
金鼓	-11.0477
叫喚	-11.0478
涅槃經云	-11.048
除蓋障菩薩	-11.0487
之意也	-11.0489
妓	-11.0496
菓	-11.0506
色聲香味觸	-11.0507
說如來藏	-11.0512
虛空界	-11.0515
鑽	-11.0516
遙見	-11.0516
環	-11.0519
我無我	-11.052
為上首	-11.0522
隨情	-11.0522
且約	-11.0526
讚嘆	-11.0531
貪瞋	-11.0531
一切法如幻	-11.0537
古人	-11.0546
浴池	-11.0547
肺	-11.0552
漸修	-11.0553
楞嚴云	-11.0553
相續不斷	-11.0554
客塵	-11.0555
無罣礙	-11.0555
幼	-11.0561
偶	-11.0564
耨	-11.0569
合為一	-11.057
覈	-11.0573
聖凡	-11.0575
伹	-11.0584
大小乘	-11.0589
善權	-11.0593
度世	-11.0594
觀世自在	-11.0598
恐懼	-11.0605
頸	-11.0606
無所受	-11.0607
郡	-11.061
直指	-11.0612
陁	-11.0613
偷	-11.0614
千二百五十	-11.0617
指前	-11.0617
柔和	-11.0621
重擔	-11.0624
▁初正	-11.0625
四無量心	-11.063
計度	-11.0632
採集	-11.0633
進止	-11.0634
四十二	-11.0637
出假	-11.0641
三年	-11.0642
大神通	-11.0644
□□□□□□□	-11.0653
何必	-11.0657
鈴	-11.066
假立	-11.0663
唵	-11.0664
人法無我	-11.0666
美妙	-11.0671
得成佛	-11.0676
懃	-11.0679
不能盡	-11.0682
少欲	-11.0693
眴	-11.0693
賢首	-11.07
資財	-11.0705
尚不能	-11.0705
超出	-11.0705
略釋	-11.0706
啼哭	-11.071
光明照	-11.0711
最正覺	-11.0713
瞿那	-11.0716
一切諸眾生	-11.0718
卷上	-11.0719
祠	-11.0728
不增不減	-11.073
識陰	-11.0731
肅	-11.0734
綺	-11.0735
起信論	-11.0737
猛火	-11.0737
洪	-11.074
捕	-11.0741
無常性	-11.0746
利益安樂	-11.0748
豁	-11.075
爾時世尊欲重宣此義	-11.0752
阿難陀	-11.0765
業力	-11.0766
俱離	-11.0766
其間	-11.0768
如實觀	-11.0768
如電	-11.0774
隨順覺性	-11.078
除病	-11.0783
一日一夜	-11.0784
有三義	-11.0785
摩訶迦葉	-11.0792
帛	-11.0794
勵	-11.0795
掘	-11.0798
雷音	-11.0798
買	-11.0802
淨命	-11.0804
於諸法中	-11.0804
司	-11.0806
諸佛所說	-11.0811
詩	-11.0811
到已	-11.0813
弘經	-11.0819
比丘知業果報	-11.0821
合會	-11.0821
下賤	-11.0823
治病	-11.0826
希求	-11.083
以是之故	-11.0837
如汝所	-11.084
唯願世尊	-11.0843
進趣	-11.0843
聽經	-11.0846
將來	-11.0858
佛南無波頭摩	-11.0859
涯	-11.086
算數	-11.086
恒河沙等	-11.0863
枉	-11.0865
最大	-11.0866
耳根	-11.0866
無二無別	-11.0874
十方界	-11.0879
富樂	-11.088
之一字	-11.0882
沫	-11.0883
願求	-11.0884
凡夫二乘	-11.0886
成阿耨多羅三藐三菩提	-11.0894
崖	-11.0902
外道計	-11.0903
南謨	-11.091
飄	-11.0914
血肉	-11.0915
大圓鏡智	-11.0915
某甲	-11.0916
果位	-11.0917
所獲	-11.0921
王宮	-11.0922
忌	-11.0922
論議	-11.0922
諸禪定	-11.0923
鑑	-11.0927
杜	-11.0931
讓	-11.0932
十二年	-11.0934
堪能	-11.0937
不懈	-11.0939
四倒	-11.0944
脂	-11.095
思惑	-11.0959
仗	-11.0961
六萬	-11.0961
三十四	-11.0969
拘留孫	-11.097
祥	-11.0974
逗	-11.0982
五蓋	-11.0985
奮迅佛南無	-11.0985
陀那	-11.0985
諸仁者	-11.099
為根本	-11.0995
漚	-11.0996
入假	-11.0999
千億	-11.1005
行菩薩道	-11.1006
發露	-11.1011
法王子	-11.1011
不免	-11.1014
明行足	-11.1017
斯由	-11.1018
嚕	-11.1024
文略	-11.1032
皆不可得	-11.1036
團	-11.1036
緣覺乘	-11.1053
非一非異	-11.1054
鍠	-11.1066
億劫	-11.1066
何等四	-11.1066
所表	-11.1067
泣	-11.1076
洋	-11.1082
第七識	-11.1082
歎德	-11.1085
剛	-11.1086
彼惑亂	-11.1088
我等今者	-11.1088
戴	-11.1089
摩竭	-11.1091
毘尼	-11.1092
闡	-11.11
燄	-11.1103
韻	-11.1103
所誑	-11.1112
甚麼	-11.1114
卷下	-11.1117
假實	-11.1118
摩耶	-11.112
痛痒	-11.1124
隱覆	-11.1127
末香	-11.113
不能了	-11.1133
良醫	-11.1134
二空觀	-11.1135
庫	-11.1141
如來南無善	-11.1144
閱	-11.1152
瑞應	-11.1156
卷第十	-11.1163
寶幢	-11.1167
愛敬	-11.1168
卦	-11.1169
佛名經	-11.1173
諭	-11.1176
為汝說	-11.1178
皆歸	-11.118
八百	-11.1183
淨佛土	-11.1183
不減	-11.1187
失壞	-11.1189
慼	-11.119
功勳	-11.1191
繒	-11.1198
鵝王	-11.1207
無起滅	-11.1208
鼠	-11.121
說是法時	-11.121
不復更	-11.1213
通妨	-11.1215
佛南無一切同名	-11.1217
菩薩成佛時	-11.1221
欠	-11.1221
覩見	-11.1222
楞	-11.1224
醒	-11.1228
灾	-11.1232
孤山	-11.1232
拳	-11.1235
慈愍	-11.1238
亂意	-11.124
二十五有	-11.1251
頌上	-11.1251
△	-11.1251
益物	-11.1252
寶蓮華	-11.1255
中有一	-11.126
外塵	-11.1265
豫	-11.1268
扇	-11.127
時維摩詰	-11.1273
不驚	-11.1275
福業	-11.1276
童真	-11.1277
還來	-11.1282
羯	-11.1284
以何因緣	-11.1286
綿	-11.1286
虎狼	-11.1287
廓	-11.129
憶想	-11.1297
蓮	-11.1301
不墮邪見	-11.1307
此岸	-11.1314
不可壞	-11.1316
是故當知	-11.1321
幾種	-11.1323
怡	-11.1323
除遣	-11.1324
所依止	-11.1329
天親	-11.1331
苾芻當知	-11.1331
大慈大悲	-11.1333
毘舍	-11.1337
諸部	-11.134
然燈佛	-11.1346
於阿耨多羅三藐三菩提	-11.1348
宿世	-11.1348
下二句	-11.1353
釋疑	-11.1354
八聖道	-11.1357
福聚	-11.1358
文殊師利白佛言	-11.1361
修行者內身循身觀	-11.1366
堪忍	-11.1367
永盡	-11.137
師子奮迅	-11.1373
優鉢羅	-11.138
朋	-11.1381
受快樂	-11.1388
債	-11.1392
膚	-11.1397
百味	-11.14
罪垢	-11.1401
府	-11.1402
恐畏	-11.1403
引喻	-11.1403
秘	-11.1408
香味觸	-11.1412
前際	-11.1413
執取	-11.1415
伽藍	-11.1417
正知見	-11.1418
無增減	-11.1419
京	-11.1422
各隨	-11.1423
魅	-11.1425
燈王	-11.1425
歎未曾有	-11.1427
東方去此	-11.1428
同類	-11.1429
醫方	-11.143
不應作	-11.1431
引導	-11.1433
我昔	-11.1438
翻譯	-11.1438
調御丈夫	-11.144
悕	-11.1442
鷲	-11.1449
惡友	-11.1454
四卷	-11.1455
憐	-11.1457
荊	-11.1462
青黃赤白	-11.1463
作如是念	-11.1464
拈	-11.1471
東西	-11.1473
不般涅槃	-11.1473
如意珠	-11.1481
一切諸法皆	-11.1481
晦	-11.1482
毘曇	-11.1494
分為三	-11.1497
□□□□□	-11.1499
疲倦	-11.15
巧方便	-11.1503
猪	-11.1513
千子	-11.1513
淤泥	-11.1519
茶	-11.1521
佛滅度後	-11.1524
漿	-11.1524
愁憂	-11.1525
眾生之類	-11.1529
登地	-11.1532
寢	-11.1537
菩提之心	-11.1555
問疾品	-11.1555
離性非性	-11.1574
得安樂	-11.1577
臍	-11.1577
脣	-11.1579
世出世間	-11.1582
種種差別	-11.1583
智論云	-11.1587
妙幢	-11.1589
鞭	-11.159
歡喜奉行	-11.1591
三七日	-11.1592
慎勿	-11.1592
爾時大慧菩薩	-11.1602
楞伽阿䟦多羅寶經	-11.1604
訟	-11.1618
挍	-11.1631
惓	-11.1632
善女天	-11.1634
從因緣生	-11.164
欝	-11.1641
或有眾生	-11.1641
廁	-11.1643
智度論云	-11.1647
傾動	-11.1649
蚊	-11.1651
緣慮	-11.1655
當願眾生	-11.1655
魔軍	-11.1657
百六十	-11.1661
毀謗	-11.1669
伽他	-11.1674
個	-11.1674
增損	-11.1675
垢穢	-11.1697
南無師子	-11.1702
樓閣	-11.1705
閣	-11.1707
肝	-11.1709
自心妄想	-11.171
佐	-11.1711
展	-11.1719
一實諦	-11.172
是經典	-11.1722
犍	-11.1722
建立誹謗	-11.1724
無邊際	-11.1726
實疾	-11.173
如上所說	-11.1731
至佛所	-11.1732
復有菩薩名曰	-11.1738
毛輪	-11.1742
准此	-11.1748
西蜀復庵暉禪師曰	-11.1751
初總標	-11.1755
無所從來	-11.1758
全同	-11.1766
三途	-11.1772
天竺三藏	-11.1773
化導	-11.1781
漫	-11.1781
自證聖智	-11.1787
暇	-11.1788
兔無角	-11.1792
都無所	-11.1792
私註	-11.1793
牀	-11.1793
添	-11.1797
頓證	-11.1797
區	-11.1801
愚痴	-11.1802
計著相續	-11.1804
未免	-11.1808
辭不堪	-11.1809
辟支	-11.1819
五識身	-11.182
能通達	-11.1823
澁	-11.1827
夜摩天王	-11.1829
無數百千	-11.1833
珂	-11.1836
養育	-11.184
霧	-11.1846
獄卒	-11.1847
受苦惱	-11.1849
說是經	-11.1851
炭	-11.1853
傍生	-11.1855
莊嚴其身	-11.1859
界內外	-11.186
所住處	-11.1861
本來寂靜	-11.1861
稱揚	-11.1862
縱橫	-11.1867
正智如如	-11.1868
外道二乘	-11.1875
大哀	-11.1879
不停	-11.1879
妄想習氣	-11.1881
雜亂	-11.1883
叵得	-11.1887
閻羅	-11.1891
哆	-11.1902
逃	-11.1903
▁南无無㝵	-11.1904
諷	-11.1912
鈔云	-11.1914
丸	-11.1915
泰	-11.1916
氣力	-11.1922
伯	-11.1923
識浪	-11.1924
外道惡見	-11.1925
持禁戒	-11.1927
佛法僧	-11.1929
如上說	-11.1931
如實知身	-11.1933
疾得阿耨多羅三藐三菩提	-11.1934
無法可	-11.1934
從緣生	-11.1939
繫屬	-11.194
欝單越	-11.1957
沸	-11.196
怛薩阿竭	-11.1961
分衛	-11.1965
奢	-11.197
駕	-11.1973
善哉世尊	-11.1974
填	-11.1975
青色	-11.1977
怠	-11.1979
若生若滅	-11.1981
削	-11.1984
作是念已	-11.1987
惡鬼	-11.1992
吼聲	-11.1998
虛誑	-11.2
化佗	-11.2004
儀式	-11.2005
波離	-11.2012
薩婆多	-11.2013
戾	-11.2026
=	-11.2029
不惜身命	-11.2033
迫	-11.2036
立宗	-11.2044
盂蘭盆	-11.2044
啞	-11.2048
夭	-11.2049
奉教歡喜	-11.2055
如如智	-11.2055
何等為六	-11.2055
剛強	-11.2056
二十九	-11.2056
根量	-11.2057
彼地獄人	-11.2068
婁	-11.2069
合文上科共成	-11.2071
判教	-11.2091
釋經文	-11.2092
猶豫	-11.2096
過去諸佛	-11.2096
藥師琉璃光如來	-11.2103
償	-11.2104
梵網	-11.2105
暖	-11.2107
諸佛剎土	-11.2109
療治	-11.211
吸	-11.2113
瞖	-11.2116
斬	-11.2117
顏色	-11.212
拒	-11.213
評曰	-11.2132
西蜀復菴暉禪師	-11.2138
一由旬	-11.2138
汝當知	-11.2149
第八地	-11.2156
香飯	-11.2159
西南方	-11.2167
東北方	-11.2172
二種無我	-11.2174
半偈	-11.218
裹	-11.2181
平等性智	-11.2183
悲泣	-11.2183
盤	-11.2184
聽許	-11.2185
規	-11.2186
宣揚	-11.2186
更無別	-11.2193
輪迴根本	-11.2224
難測	-11.2228
從座而起	-11.2229
孛	-11.2229
調達	-11.2231
檀越	-11.2234
於一切處	-11.2236
跪	-11.2238
十由旬	-11.2243
修治	-11.225
侯	-11.2252
粗	-11.2254
世出世	-11.228
魔怨	-11.2281
黠	-11.2282
精氣	-11.2295
坦	-11.2306
鎮	-11.2307
額	-11.2308
秦言	-11.2311
弗沙	-11.2316
陷	-11.2319
逼惱	-11.232
亦有亦無	-11.2321
霜	-11.2323
三十一	-11.2324
從空入假	-11.2327
叵	-11.2333
阿閦佛	-11.2334
苦哉	-11.2337
從假入空	-11.2339
品類	-11.2356
實諦	-11.2358
不斷絕	-11.2358
見佛性	-11.236
頗有	-11.2363
箜篌	-11.2372
三十五	-11.2376
發道心	-11.2379
云何菩薩得	-11.2379
莎羅	-11.2381
尸利	-11.2382
真陀羅	-11.2384
質直	-11.2386
籠	-11.2393
云何名菩薩	-11.2395
排	-11.2395
容受	-11.2397
校量	-11.2401
退失	-11.2417
正法念處經	-11.2419
尋求	-11.2422
圓鏡	-11.2423
天子復問	-11.2424
將護	-11.2433
躡前	-11.2437
欣樂	-11.2439
人非人等	-11.2441
竺	-11.2446
日月光	-11.2446
得未曾有	-11.2455
芥	-11.2455
彌樓	-11.2461
緒	-11.2462
差別之相	-11.2462
四洲	-11.2464
唯心所現	-11.2468
端坐	-11.2469
尅	-11.247
鼻舌	-11.247
自覺聖趣	-11.247
綱	-11.2473
八正道	-11.2481
有無二見	-11.2483
生法二空	-11.2495
善權方便	-11.2499
泥犁	-11.2503
憒閙	-11.2504
變壞	-11.2505
甜	-11.2505
後得智	-11.2507
慇懃	-11.2508
白銀	-11.2509
炙	-11.2512
摶	-11.2514
壓	-11.2514
解脫知見	-11.2516
躬	-11.2519
隋	-11.2522
覆藏	-11.2522
舍宅	-11.253
皷	-11.253
思益	-11.2533
調伏其心	-11.2535
殊特	-11.2537
心源	-11.2541
若干種	-11.2542
當何所	-11.2552
供養恭敬	-11.2552
姟	-11.2556
無處所	-11.2557
領受	-11.256
釋迦文佛	-11.2573
憍尸迦	-11.2578
徐	-11.2578
肘	-11.259
詔	-11.2594
毗盧遮那	-11.2594
斗	-11.2598
永寂	-11.2598
韋	-11.2601
如世尊說	-11.2601
乃可取食	-11.2612
墮惡趣	-11.2612
樂行多作	-11.2617
中有四	-11.2621
方便善巧	-11.2627
卷第五	-11.2629
斡	-11.2631
妨礙	-11.2633
羅什	-11.2635
覺所覺	-11.2636
月蓋	-11.2644
囑累	-11.2647
背捨	-11.2651
叢林	-11.2651
尊者阿難	-11.2652
萌	-11.2652
諫	-11.2655
求佛道	-11.2656
剃	-11.2657
鋒	-11.2657
是故說言	-11.2658
三脫門	-11.2661
邏	-11.2664
好醜	-11.2665
初牒	-11.2677
觀世音菩薩	-11.2681
軌則	-11.2682
最尊	-11.2686
時天帝釋	-11.2687
決了	-11.2692
篤	-11.2703
野干	-11.2709
妹	-11.2709
為人說	-11.271
鑊	-11.2712
9	-11.2722
歸趣	-11.2723
穴	-11.2726
踐	-11.2728
甘蔗	-11.2728
十二部	-11.2728
荷負	-11.2733
庭	-11.2735
拔濟	-11.2735
孟	-11.2735
我不堪任詣彼問疾	-11.2739
衢	-11.2739
惛	-11.274
無漏界	-11.2745
受決	-11.2746
等無有異	-11.2747
三番	-11.275
華鬘	-11.2755
略舉	-11.2761
形狀	-11.2762
磨滅	-11.2769
所牽	-11.2776
教誨	-11.2779
皆同一	-11.2787
那庾多	-11.2787
狼	-11.2789
0	-11.2791
陽焰	-11.2793
畫師	-11.2797
鷄	-11.28
汗	-11.28
寒熱	-11.2803
阿羅漢果	-11.2814
肇公	-11.2816
供具	-11.2819
毗鉢舍那	-11.2821
宗密	-11.2828
日輪	-11.2835
從世尊聞如是	-11.285
承上	-11.2856
諸通慧	-11.2857
在其中	-11.2865
隆	-11.2867
耆闍崛山	-11.287
違順	-11.2871
膿血	-11.2874
為他說	-11.2875
膏	-11.2878
嘿	-11.288
院	-11.2881
牛王	-11.2882
入正位	-11.2883
敗壞	-11.2885
鄰	-11.2886
第十地	-11.2886
斤	-11.2889
羂	-11.291
麤細	-11.291
㲲	-11.2912
眾生何業生於彼	-11.2913
曾聞	-11.2916
無上正真道	-11.2922
僕	-11.2931
瘦	-11.2931
渚	-11.2939
充足	-11.2941
須彌山王	-11.2945
於其中間	-11.2953
毀犯	-11.2953
音響	-11.2954
範	-11.2955
涅	-11.2956
汝行詣維摩詰問疾	-11.2959
皆無自性	-11.2961
最勝子	-11.2963
橫竪	-11.2964
阿那律	-11.2964
千劫	-11.2972
有菩薩名	-11.2973
度人無量	-11.298
一心三觀	-11.2994
劫生死之罪	-11.2999
師資	-11.3
文為三初	-11.301
醜陋	-11.3011
惶	-11.3011
輕賤	-11.3013
彌陀	-11.3017
魔界	-11.3018
貨	-11.3022
墨	-11.3024
二偈頌	-11.3024
躭	-11.303
若有比丘	-11.3033
基	-11.3036
所問經	-11.3049
後二句	-11.306
通達佛道	-11.306
當為汝	-11.3061
大菩薩眾	-11.307
器世間	-11.3072
耗	-11.3081
忉利	-11.3084
完	-11.3084
當得作佛	-11.3085
堅實	-11.3088
項	-11.3088
旃陀羅	-11.3094
自他俱	-11.31
感動	-11.3101
百倍	-11.3107
去來今	-11.3107
叔	-11.3108
器界	-11.3117
當文二句	-11.312
自行化他	-11.312
以餘業故	-11.3137
棄捐	-11.3142
悴	-11.3143
周旋	-11.3147
說是語已	-11.3147
慳悋	-11.3153
億歲	-11.3154
遵修	-11.3158
疫	-11.316
蔭	-11.316
成所作智	-11.3161
杵	-11.3165
二十五輪	-11.3167
離異不異	-11.3171
遞	-11.3172
市	-11.3174
毒藥	-11.3179
從無始來	-11.3188
今鈔	-11.3191
譬如大海	-11.3195
沙門婆羅門	-11.3198
曰眾祐	-11.3202
白象	-11.3204
方丈	-11.3205
成熟眾生	-11.3216
自心現妄想	-11.3217
瘂	-11.3221
帳	-11.3226
說是語時	-11.3229
賈	-11.323
勤修習	-11.3231
一切身分	-11.3232
▁初舉經	-11.3238
毀壞	-11.3239
信受奉行	-11.324
比量	-11.3242
籍	-11.3243
牛羊	-11.3246
燈佛南無	-11.3252
名相妄想	-11.3254
逾	-11.3257
臨終	-11.3259
何妨	-11.3275
文為四	-11.3284
而為上首	-11.3285
合掌向佛	-11.3296
城邑聚落	-11.3298
鬚	-11.3298
般泥洹	-11.33
白毫	-11.3306
與大比丘眾	-11.3307
瓦	-11.331
跛	-11.331
穢惡	-11.3314
憂悲苦惱	-11.3317
躍	-11.3319
夕	-11.3321
食噉	-11.3321
墮二邊	-11.3324
散脂	-11.3325
覽	-11.3329
瓦礫	-11.333
釋題	-11.333
青黃	-11.3333
因地法行	-11.334
天冠	-11.3352
猛利	-11.3355
究盡	-11.3357
瑕穢	-11.3372
巨海	-11.3377
火所燒	-11.3378
黑闇	-11.3383
野馬	-11.3384
泊	-11.3387
瓦石	-11.3391
煮	-11.3391
損害	-11.3396
鍊	-11.3402
我及諸佛	-11.3408
楔	-11.3413
發大心	-11.3418
惟願世尊	-11.342
品題	-11.342
佛國因果	-11.3433
一毛孔	-11.3439
宗旨	-11.3445
作是語已	-11.3452
鐵圍山	-11.3455
塚間	-11.3456
祖師	-11.3458
更互	-11.346
趺	-11.3461
領解	-11.3462
爾時大慧菩薩摩訶薩復白佛言	-11.3464
軍眾	-11.3472
無明緣行	-11.3472
顛	-11.3474
棃	-11.3478
官屬	-11.3478
毗曇	-11.3486
片	-11.3494
其國有佛	-11.3503
彼彼空	-11.3503
此即第二	-11.3506
卷第六	-11.3507
魅鬼	-11.3511
濡首	-11.3523
選擇	-11.3527
財富	-11.3534
厭生死	-11.3535
崩	-11.3536
嚩	-11.3537
蠱	-11.3539
牟	-11.354
間錯	-11.354
▁二結	-11.3542
倒懸	-11.3546
異熟果	-11.3549
泛	-11.356
𧗪	-11.3578
三千世界	-11.358
法華文句	-11.3586
變易生死	-11.3604
轉女身	-11.3607
阿閦	-11.3608
東南方	-11.361
裸	-11.3611
莎	-11.3611
吳	-11.3629
筏	-11.3634
膿	-11.3685
稠	-11.3686
賒	-11.3689
警	-11.3703
掩	-11.3704
仲	-11.3716
汙	-11.3768
牆	-11.3769
馱	-11.3782
皎	-11.3784
揮	-11.3788
痴	-11.3797
製	-11.3798
頞	-11.3858
康	-11.3861
耐	-11.3862
骸	-11.3863
役	-11.3864
欽	-11.3864
捷	-11.395
線	-11.3952
藝	-11.4019
辰	-11.4024
兆	-11.4026
選	-11.4031
艱	-11.4086
橋	-11.4095
祿	-11.41
𡰱	-11.4102
魯	-11.4103
虔	-11.411
燋	-11.4176
央	-11.4177
稽	-11.4177
宛	-11.418
絡	-11.4184
吏	-11.4189
咨	-11.419
逕	-11.4196
溢	-11.4198
李	-11.4199
腰	-11.4269
祀	-11.4269
軸	-11.4269
渾	-11.4285
懅	-11.4327
莂	-11.4345
瑩	-11.4346
峰	-11.4347
踏	-11.4347
腐	-11.4351
籤	-11.4351
趨	-11.4353
鄣	-11.4354
把	-11.4355
料	-11.4365
肯	-11.441
陣	-11.4422
鴿	-11.4435
厥	-11.4438
藤	-11.4441
炳	-11.4446
犁	-11.4492
澡	-11.4503
兜	-11.4505
臘	-11.4514
凶	-11.4517
懇	-11.4523
惣	-11.4527
俯	-11.4527
揣	-11.4537
睺	-11.4585
萎	-11.4591
呬	-11.4593
姝	-11.46
奚	-11.4609
紀	-11.4623
攀	-11.4673
狐	-11.4681
斧	-11.4687
搏	-11.4691
壤	-11.4693
函	-11.4699
陋	-11.4701
蹈	-11.4762
蔔	-11.4767
梯	-11.4776
溪	-11.4779
駛	-11.4781
諾	-11.4784
壅	-11.4792
歟	-11.4794
巴	-11.4858
沐	-11.4861
畔	-11.4875
爐	-11.4942
縮	-11.4952
疆	-11.4969
扣	-11.497
剝	-11.5028
喇	-11.5036
恬	-11.5039
㝡	-11.505
粟	-11.5053
旁	-11.5055
喧	-11.5055
譚	-11.5058
筌	-11.5062
慇	-11.5064
尿	-11.5116
瞬	-11.5131
坌	-11.5133
蕉	-11.5138
隙	-11.5141
職	-11.5145
憒	-11.5212
朱	-11.5218
咄	-11.5223
討	-11.5231
丁	-11.5231
茫	-11.5237
喉	-11.5316
藐	-11.5319
勘	-11.5341
蟻	-11.5396
𢙣	-11.5401
拄	-11.5416
倣	-11.5428
鄭	-11.5428
綸	-11.543
耕	-11.5489
夙	-11.5497
臆	-11.5505
轍	-11.5512
枷	-11.5578
貢	-11.5587
季	-11.559
羽	-11.5592
脹	-11.5594
評	-11.5595
翫	-11.5598
予	-11.5599
斛	-11.5603
桃	-11.5609
干	-11.5664
景	-11.5687
姿	-11.5688
吠	-11.5702
祗	-11.571
傲	-11.5778
妖	-11.578
藪	-11.5788
緊	-11.5791
嗣	-11.5793
模	-11.5795
纂	-11.5801
禱	-11.5801
芬	-11.5867
旬	-11.5872
曩	-11.5879
禽	-11.5879
攻	-11.588
寡	-11.5885
話	-11.5886
絃	-11.5886
昨	-11.5889
汲	-11.589
憫	-11.5894
輭	-11.5898
瘖	-11.5962
蠅	-11.5975
矜	-11.5976
拾	-11.5991
刪	-11.5996
煞	-11.6008
鶖	-11.6017
胃	-11.606
渧	-11.6063
洹	-11.6074
鷹	-11.6077
邦	-11.6081
鹽	-11.6085
殞	-11.6089
候	-11.6089
䇿	-11.6093
繇	-11.6114
革	-11.617
塊	-11.6173
犬	-11.6174
戮	-11.6178
監	-11.6178
湧	-11.6186
輙	-11.619
詠	-11.6269
滑	-11.6277
荅	-11.6277
暮	-11.6281
歿	-11.6284
秉	-11.6284
僻	-11.6289
魄	-11.6292
舜	-11.6293
俾	-11.6294
晚	-11.6296
透	-11.63
喘	-11.638
匠	-11.6386
辟	-11.6387
輝	-11.6389
鐘	-11.6403
癈	-11.6412
怕	-11.6476
薜	-11.6476
謨	-11.6477
儻	-11.6482
宇	-11.6488
彊	-11.6489
肆	-11.649
万	-11.6494
匪	-11.6496
剖	-11.6572
戟	-11.6573
嬰	-11.6588
宴	-11.6597
肢	-11.6598
劉	-11.6608
昆	-11.6613
岳	-11.6617
街	-11.6685
脾	-11.6686
坊	-11.6688
栗	-11.6693
賞	-11.6695
栖	-11.6704
叡	-11.6713
慤	-11.6719
嘴	-11.6771
惒	-11.6779
捶	-11.6781
葬	-11.6793
棲	-11.6805
亘	-11.6806
釆	-11.689
胝	-11.6899
勳	-11.6899
s	-11.6903
技	-11.6904
奕	-11.6909
帖	-11.6922
旛	-11.6925
􂛱	-11.7012
突	-11.7016
沾	-11.7017
晨	-11.7017
社	-11.7025
淡	-11.7028
燥	-11.7103
湏	-11.7126
嶽	-11.7128
販	-11.7129
矩	-11.7135
琰	-11.7136
槌	-11.7147
浩	-11.7149
沮	-11.7227
恱	-11.723
咒	-11.7236
决	-11.7238
綵	-11.7238
裁	-11.7243
括	-11.7253
齎	-11.7333
哺	-11.7352
雕	-11.7353
柰	-11.7357
企	-11.7359
枳	-11.736
槩	-11.7368
艾	-11.7372
蹔	-11.7374
覲	-11.7446
掠	-11.7454
署	-11.7462
鴦	-11.7467
煥	-11.7468
訪	-11.7477
剌	-11.7479
垣	-11.7483
托	-11.7486
級	-11.7486
鎻	-11.7493
沓	-11.7561
敏	-11.7565
悶	-11.7567
暑	-11.7572
㝵	-11.7575
暉	-11.7577
賀	-11.758
鑿	-11.7593
踞	-11.7595
衡	-11.7597
闥	-11.7689
膾	-11.7689
隷	-11.7697
貶	-11.7698
迮	-11.7699
戚	-11.77
騎	-11.7704
秤	-11.7717
層	-11.7717
勃	-11.7793
醎	-11.7802
燕	-11.7804
濡	-11.7807
秀	-11.7823
蹄	-11.7824
享	-11.7829
薦	-11.7832
蝕	-11.7836
着	-11.7907
无	-11.7916
叢	-11.7918
㮈	-11.7918
瓔	-11.7922
棺	-11.7929
錫	-11.7933
喝	-11.7937
妾	-11.7942
牧	-11.7943
疣	-11.7945
猿	-11.7945
暹	-11.797
廂	-11.8013
痰	-11.8047
鼈	-11.8054
鳳	-11.8055
零	-11.8056
農	-11.8063
葱	-11.8068
兮	-11.8072
剩	-11.8075
薗	-11.8086
頰	-11.8171
寐	-11.8176
擯	-11.8181
矯	-11.8183
郎	-11.8184
愆	-11.8186
煎	-11.819
孩	-11.819
甄	-11.819
劑	-11.8192
鶴	-11.8192
脊	-11.8285
眷	-11.8285
蔑	-11.8289
稼	-11.8292
棒	-11.8295
灼	-11.8301
霑	-11.8303
搆	-11.8306
殆	-11.8308
噬	-11.8309
鍾	-11.831
激	-11.8313
愜	-11.8316
劒	-11.8317
呈	-11.8322
饍	-11.8397
庠	-11.8403
酸	-11.8413
班	-11.8418
沼	-11.8418
輿	-11.8419
巡	-11.8428
抵	-11.8436
喫	-11.8436
澹	-11.8528
馥	-11.8533
婢	-11.8534
腎	-11.8542
諱	-11.8553
敕	-11.8573
埵	-11.8593
擁	-11.864
髀	-11.8656
挽	-11.8658
肌	-11.8664
匱	-11.8665
裳	-11.8668
吟	-11.8668
稚	-11.8672
倉	-11.868
郭	-11.8681
鏁	-11.8688
躄	-11.8791
膽	-11.8804
諧	-11.8806
溈	-11.8807
挾	-11.881
饉	-11.8819
恁	-11.882
閙	-11.882
谿	-11.8821
埋	-11.8823
允	-11.8831
<	-11.8841
i	-11.8841
m	-11.8841
g	-11.8842
踈	-11.8929
盂	-11.8941
蔓	-11.8945
幹	-11.8946
乙	-11.8955
橛	-11.9048
蹙	-11.9055
惰	-11.9057
峻	-11.9062
蒲	-11.9071
編	-11.9075
遏	-11.9084
蒼	-11.9085
誥	-11.9091
雹	-11.9201
態	-11.9209
凌	-11.9212
腋	-11.9213
佇	-11.9213
睛	-11.9216
墳	-11.9221
庸	-11.9225
森	-11.9233
拶	-11.9327
獷	-11.933
瑙	-11.9335
錦	-11.9338
啄	-11.9344
松	-11.9349
嚧	-11.9351
程	-11.9352
鴻	-11.9355
隅	-11.9367
齧	-11.9469
囇	-11.9474
凍	-11.9478
雀	-11.9481
織	-11.9481
誣	-11.9489
屏	-11.949
窺	-11.9494
籌	-11.9501
毱	-11.9506
蠕	-11.9599
撾	-11.9603
㝹	-11.9606
姦	-11.961
板	-11.9614
忖	-11.9616
懶	-11.9617
偃	-11.9617
嚮	-11.9617
綠	-11.9622
鑄	-11.9628
趙	-11.9634
銳	-11.9634
虹	-11.9634
竅	-11.9642
駝	-11.9752
訾	-11.9761
褒	-11.9763
摸	-11.9766
怱	-11.977
銜	-11.9774
栽	-11.9774
巾	-11.9776
鹹	-11.9778
苾	-11.9783
脉	-11.9784
亭	-11.9785
闊	-11.9787
換	-11.979
琦	-11.9889
赦	-11.9907
义	-11.9916
雌	-11.9918
塚	-11.9919
飡	-11.9919
蹤	-11.9922
礫	-11.9922
岐	-11.9925
柯	-11.9926
缾	-11.9928
傘	-12.0038
貿	-12.004
矛	-12.0052
挺	-12.0054
錠	-12.0055
釘	-12.0057
弦	-12.0063
跳	-12.0066
昌	-12.0067
遽	-12.0069
銖	-12.0073
撻	-12.0199
匹	-12.02
拍	-12.0201
炷	-12.0205
拭	-12.0208
粒	-12.0211
燧	-12.0216
操	-12.0217
爽	-12.022
隻	-12.0222
憚	-12.0224
俟	-12.0224
阻	-12.0235
涸	-12.0346
抂	-12.0349
椎	-12.035
吽	-12.035
瀑	-12.0351
摽	-12.0355
徃	-12.0358
夾	-12.036
慘	-12.0365
賦	-12.0366
効	-12.0369
撫	-12.0369
鬱	-12.0374
措	-12.0384
翹	-12.0508
曳	-12.0514
臻	-12.0515
菜	-12.0516
墓	-12.052
䭾	-12.052
嫁	-12.0526
碧	-12.0526
詢	-12.0527
鄔	-12.0528
柳	-12.0528
朔	-12.0528
姚	-12.0532
傅	-12.0535
坻	-12.0648
誼	-12.0654
晡	-12.0656
膖	-12.066
蒸	-12.0668
讎	-12.067
搜	-12.0672
崛	-12.0679
刊	-12.0679
穆	-12.0681
粳	-12.0682
坎	-12.0684
午	-12.0689
恢	-12.0689
燼	-12.0694
蝶	-12.0706
劈	-12.0803
饌	-12.0817
涎	-12.0819
熊	-12.0819
胞	-12.082
沃	-12.082
芻	-12.0832
摘	-12.0834
厨	-12.0836
帀	-12.0836
闢	-12.0837
覔	-12.0852
癩	-12.0977
弭	-12.098
祝	-12.0987
誕	-12.0987
袒	-12.0991
蠶	-12.0992
姪	-12.0995
介	-12.0997
稷	-12.1001
埿	-12.1018
呻	-12.1132
台	-12.1149
讐	-12.1151
叩	-12.1153
裔	-12.1158
坤	-12.1163
梅	-12.1163
爰	-12.1164
庵	-12.1167
燿	-12.1292
奮	-12.1299
靣	-12.1316
蟒	-12.1316
竇	-12.1324
砂	-12.1327
恕	-12.1327
猫	-12.1328
熙	-12.1466
喃	-12.1477
脆	-12.1483
葦	-12.1486
酌	-12.1487
魁	-12.1487
娜	-12.1488
哲	-12.149
膳	-12.1491
誅	-12.1492
虞	-12.1497
湖	-12.1498
罷	-12.1505
胤	-12.1506
緯	-12.1508
蘆	-12.1508
飜	-12.1519
拯	-12.1648
儉	-12.1648
株	-12.1649
棗	-12.1649
虻	-12.165
睫	-12.1657
恍	-12.1657
鱗	-12.166
捧	-12.1665
屢	-12.1672
綖	-12.1676
餉	-12.1677
竿	-12.1678
訂	-12.1681
費	-12.1686
遐	-12.1689
蒭	-12.1694
癹	-12.1813
蚖	-12.1822
恪	-12.1823
栴	-12.1824
徙	-12.1825
戈	-12.1838
媚	-12.1839
滌	-12.1839
嵐	-12.1839
驕	-12.184
綴	-12.1841
螫	-12.1841
欻	-12.1842
溉	-12.1843
膠	-12.1848
儼	-12.186
砧	-12.186
枕	-12.2004
匃	-12.2006
湊	-12.201
陌	-12.201
馨	-12.2012
邁	-12.2016
濃	-12.2017
旱	-12.2018
嚙	-12.2019
笛	-12.2021
癰	-12.2022
狸	-12.2024
芳	-12.2026
蒜	-12.2028
汪	-12.2034
派	-12.2035
烈	-12.2039
挫	-12.204
􂌴	-12.2062
謎	-12.2169
尠	-12.2173
倡	-12.2184
娶	-12.2193
号	-12.2194
寔	-12.2202
濤	-12.2204
卓	-12.2205
抽	-12.2205
袪	-12.2226
憔	-12.2354
豹	-12.2365
撲	-12.2365
鬲	-12.2374
孕	-12.2375
斟	-12.2376
疇	-12.2378
缽	-12.2382
洄	-12.2382
眩	-12.2382
跟	-12.2384
茅	-12.2387
婉	-12.2389
襲	-12.239
姑	-12.2397
堯	-12.2399
鬬	-12.2399
鉗	-12.2544
酤	-12.255
杓	-12.2555
慾	-12.2557
餅	-12.2561
囚	-12.2566
攘	-12.2567
辜	-12.2571
繕	-12.2573
羨	-12.2576
呾	-12.2577
奘	-12.2584
鎔	-12.2585
肖	-12.2587
稅	-12.2726
沌	-12.275
膜	-12.2751
鴈	-12.2753
縈	-12.2758
挑	-12.2758
淑	-12.2758
珀	-12.2759
齗	-12.2768
糓	-12.2773
矚	-12.2774
曆	-12.2779
呌	-12.278
訥	-12.278
禳	-12.2781
宏	-12.2782
揆	-12.2785
皺	-12.2932
蛾	-12.2945
疼	-12.2948
惚	-12.2951
釧	-12.2952
窠	-12.2953
潮	-12.2953
顙	-12.2954
讒	-12.2954
􂜠	-12.2956
甕	-12.2959
熈	-12.2959
彗	-12.2966
嚼	-12.2967
贍	-12.297
貯	-12.297
亨	-12.2971
剪	-12.2971
嵗	-12.3
鴨	-12.314
掣	-12.3144
唼	-12.3148
虐	-12.3151
𦟛	-12.3151
薝	-12.3155
效	-12.3158
梓	-12.3158
玩	-12.316
爵	-12.3164
掛	-12.3165
敦	-12.317
援	-12.317
昊	-12.3173
液	-12.3181
僅	-12.3185
祚	-12.3333
邃	-12.335
蜎	-12.3353
溝	-12.3355
翔	-12.3361
褥	-12.3362
陛	-12.3363
奄	-12.3364
蹴	-12.3364
冲	-12.3369
舅	-12.3371
虺	-12.3373
禦	-12.3374
耻	-12.3375
唇	-12.3376
握	-12.3377
緇	-12.3379
聊	-12.3379
恠	-12.3386
揑	-12.3392
閫	-12.3545
酢	-12.3556
羆	-12.3558
擣	-12.3562
仇	-12.3566
誐	-12.3567
c	-12.3568
飼	-12.3569
縵	-12.357
嗢	-12.3573
埃	-12.3575
属	-12.3578
佩	-12.3583
厲	-12.3583
邈	-12.3584
瞑	-12.359
蕭	-12.3594
晴	-12.3599
釁	-12.3761
弩	-12.3764
窓	-12.3769
澍	-12.3769
倨	-12.3774
采	-12.3775
澆	-12.3778
𢝫	-12.3781
f	-12.3781
霹	-12.3781
欄	-12.3782
隘	-12.3782
嶺	-12.3786
抗	-12.3789
朕	-12.379
廬	-12.3792
滓	-12.3793
猒	-12.3803
殫	-12.3803
檗	-12.3805
悒	-12.3967
梟	-12.3995
璧	-12.3996
惻	-12.3999
琥	-12.3999
鐙	-12.3999
播	-12.4007
朴	-12.401
跨	-12.4012
猨	-12.4013
闐	-12.4018
糠	-12.402
㲉	-12.4022
核	-12.4024
撓	-12.4024
溥	-12.4024
確	-12.4026
屑	-12.4027
筭	-12.4028
顰	-12.4199
鋸	-12.4204
榻	-12.4207
舐	-12.4214
僚	-12.4215
疵	-12.4217
材	-12.4219
抖	-12.422
悠	-12.4222
踴	-12.4225
腫	-12.4225
矧	-12.4232
璞	-12.4232
儔	-12.4234
慟	-12.4237
遜	-12.424
㩲	-12.4251
狄	-12.4252
獅	-12.4262
兇	-12.4427
巢	-12.4434
咏	-12.4436
藕	-12.4441
禰	-12.4453
忙	-12.446
癸	-12.4461
桓	-12.4462
挂	-12.4467
做	-12.447
𦘕	-12.4472
倘	-12.4472
麟	-12.4482
樞	-12.4484
䗍	-12.4656
塹	-12.4663
蠲	-12.4664
酷	-12.4671
犀	-12.4677
釐	-12.4678
斂	-12.4678
軒	-12.468
􂌞	-12.4681
豊	-12.4683
艶	-12.4686
噫	-12.4687
矢	-12.4687
詺	-12.4691
綜	-12.4694
擅	-12.4694
纓	-12.4695
裴	-12.4699
臚	-12.47
瞥	-12.4708
凉	-12.4708
錐	-12.4708
楷	-12.4715
鵄	-12.4896
陂	-12.4903
捍	-12.4907
窈	-12.4908
謦	-12.4913
盾	-12.4915
杌	-12.4917
翠	-12.4919
謁	-12.4925
紜	-12.4925
酉	-12.4929
粹	-12.4934
壑	-12.4935
訣	-12.4935
寓	-12.4937
妍	-12.494
恡	-12.4944
俄	-12.4946
燸	-12.4948
収	-12.4948
僉	-12.5141
㵎	-12.5152
繡	-12.5154
械	-12.5156
迸	-12.5162
嬉	-12.5163
征	-12.5167
糜	-12.5173
詎	-12.5173
寅	-12.5177
課	-12.5177
玻	-12.5178
揖	-12.5178
芝	-12.5179
鍼	-12.5183
衲	-12.5184
駭	-12.5186
督	-12.5191
些	-12.5192
徤	-12.5194
瓜	-12.5202
餝	-12.5209
菀	-12.5212
栰	-12.5402
糧	-12.5404
禾	-12.5416
惹	-12.5417
躰	-12.5418
舶	-12.5422
悌	-12.5422
釜	-12.5423
倐	-12.5428
罄	-12.5428
韓	-12.5432
蚋	-12.5433
虱	-12.5434
啻	-12.5435
淮	-12.5438
臟	-12.5439
墻	-12.5447
鋡	-12.5657
鏘	-12.566
輦	-12.5662
踝	-12.5663
殄	-12.5664
翰	-12.5664
牖	-12.5665
蚤	-12.5667
彫	-12.5668
桴	-12.5669
硨	-12.5669
騃	-12.5669
磲	-12.5671
衝	-12.5675
繪	-12.5677
丑	-12.568
戌	-12.5681
卉	-12.5683
彥	-12.5683
菽	-12.569
鑪	-12.5691
匡	-12.5699
苞	-12.5702
蟣	-12.5714
愕	-12.591
隸	-12.5913
揩	-12.5916
睒	-12.5929
裝	-12.5932
鏤	-12.5933
漬	-12.5934
替	-12.5937
縫	-12.5937
咀	-12.594
燎	-12.5944
粉	-12.5944
獎	-12.5948
晏	-12.5952
亞	-12.5955
皓	-12.5961
鍮	-12.5981
䩕	-12.6178
邠	-12.6183
妊	-12.6184
霍	-12.619
銕	-12.6191
-	-12.6197
瑜	-12.6197
欬	-12.6199
庚	-12.6201
悚	-12.6203
憤	-12.6203
錍	-12.6203
仞	-12.6205
紐	-12.6208
羼	-12.621
芸	-12.6211
稀	-12.6212
俛	-12.6214
廿	-12.6214
銘	-12.6215
牝	-12.6216
蠢	-12.6216
洽	-12.6218
裕	-12.6218
叨	-12.6221
牲	-12.6236
𤘽	-12.6241
竄	-12.6444
芙	-12.6465
努	-12.6465
豺	-12.6465
澓	-12.6475
耄	-12.6476
攢	-12.6477
穌	-12.648
睦	-12.6482
壬	-12.6486
押	-12.6491
皰	-12.6492
瘀	-12.6494
謚	-12.6496
卯	-12.6501
冶	-12.6504
寥	-12.6509
呂	-12.6519
筒	-12.6744
脛	-12.6757
副	-12.676
黯	-12.6761
蹋	-12.6762
叛	-12.6763
絺	-12.6765
輞	-12.6768
丙	-12.6776
慨	-12.6776
瀉	-12.6779
噵	-12.678
驟	-12.6781
禹	-12.6784
襄	-12.6785
暎	-12.6786
臼	-12.6786
悖	-12.6786
捲	-12.679
袋	-12.679
桂	-12.6791
偕	-12.6791
詶	-12.6791
諒	-12.6792
迢	-12.6796
双	-12.6805
螢	-12.6931
黿	-12.7037
憩	-12.7042
魍	-12.7054
蹉	-12.7055
匐	-12.7055
廉	-12.7057
􂛽	-12.706
佞	-12.706
鵲	-12.7061
羈	-12.7063
閭	-12.7067
慣	-12.7067
佳	-12.7069
潦	-12.707
叱	-12.7071
煉	-12.7071
鼎	-12.7072
摭	-12.7072
糟	-12.7074
謟	-12.7074
邀	-12.7075
詭	-12.7075
鹵	-12.7076
攪	-12.7077
韮	-12.7078
莽	-12.7081
櫓	-12.7081
涓	-12.7083
祧	-12.7085
賖	-12.7086
齅	-12.7099
樵	-12.7334
坏	-12.7345
肚	-12.7346
駃	-12.7349
哽	-12.7349
慞	-12.7351
雉	-12.7351
憺	-12.7353
矟	-12.7353
浣	-12.7354
狎	-12.7355
幅	-12.7356
辣	-12.7357
叚	-12.7358
肪	-12.7359
築	-12.736
蓬	-12.7362
堆	-12.7364
慙	-12.7369
翁	-12.737
驃	-12.7371
甫	-12.7372
訴	-12.7375
愽	-12.7377
嚬	-12.7377
昂	-12.738
胷	-12.7382
絆	-12.7382
鵠	-12.7384
鞠	-12.7393
諺	-12.7401
颰	-12.7655
刈	-12.7662
瞢	-12.7668
枚	-12.7669
諳	-12.767
魎	-12.767
餚	-12.7673
廐	-12.7673
鵰	-12.7674
崙	-12.7675
柴	-12.7676
勗	-12.7676
磁	-12.7677
膺	-12.7678
桑	-12.7678
磬	-12.7683
構	-12.7683
簫	-12.7685
寵	-12.7686
漁	-12.7689
爍	-12.769
軫	-12.7693
洎	-12.7696
勑	-12.7698
漠	-12.7698
誹	-12.7699
惺	-12.7701
弃	-12.7702
体	-12.7702
庖	-12.7704
蝱	-12.7707
兀	-12.7708
紂	-12.7715
暝	-12.7976
蝦	-12.7978
昱	-12.7982
屣	-12.7985
殑	-12.7989
曀	-12.7989
鐶	-12.7991
漱	-12.7991
幔	-12.7995
吱	-12.7995
贖	-12.7998
潰	-12.7998
􂛿	-12.7998
机	-12.7999
駄	-12.8001
龕	-12.8004
擘	-12.8004
餐	-12.8006
仕	-12.8008
拱	-12.8009
斜	-12.8009
囂	-12.8012
孚	-12.8014
罕	-12.8014
纜	-12.8018
毋	-12.802
褁	-12.802
碑	-12.8023
菟	-12.8039
徇	-12.8044
頤	-12.8321
慠	-12.8323
陪	-12.8323
絓	-12.8323
駱	-12.8323
鉀	-12.8324
匍	-12.8325
黍	-12.8327
濯	-12.8328
瀆	-12.8329
碯	-12.833
亮	-12.833
塲	-12.833
碼	-12.8333
歛	-12.8333
郁	-12.8333
繭	-12.8334
璫	-12.8335
疽	-12.8335
俍	-12.8335
倩	-12.8336
哢	-12.8337
惙	-12.8339
蔬	-12.834
啖	-12.8341
紋	-12.8342
穩	-12.8342
腥	-12.8344
窒	-12.8345
麵	-12.8346
嵩	-12.8347
幟	-12.8348
聳	-12.8349
躃	-12.835
顒	-12.8351
挈	-12.8353
亥	-12.8354
緘	-12.8359
灯	-12.8359
婚	-12.8363
耎	-12.8379
眚	-12.8388
恙	-12.8651
癊	-12.8655
繖	-12.8656
僂	-12.8659
嬾	-12.8662
緻	-12.8666
儲	-12.8667
噎	-12.8669
蝮	-12.867
荔	-12.8672
俊	-12.8677
董	-12.868
麞	-12.868
簸	-12.868
帥	-12.868
航	-12.8685
悼	-12.8687
炤	-12.8687
毉	-12.869
跏	-12.8691
几	-12.8694
棟	-12.8695
縠	-12.8697
煗	-12.87
騁	-12.87
霞	-12.8702
霄	-12.8703
蔡	-12.8709
瀾	-12.8717
迊	-12.8741
驪	-12.8743
捄	-12.8996
掬	-12.9008
凋	-12.9018
礦	-12.9018
僥	-12.9019
𧂐	-12.9021
贈	-12.9023
痒	-12.9028
蠻	-12.903
柄	-12.9036
瑪	-12.9036
溷	-12.9036
悷	-12.9037
腨	-12.9038
眇	-12.9042
笈	-12.9043
瑣	-12.9044
舛	-12.9045
傭	-12.9046
股	-12.9048
壺	-12.9048
嫡	-12.9049
串	-12.9049
溼	-12.9049
滄	-12.905
旅	-12.905
貽	-12.905
爻	-12.9052
蜀	-12.9055
潭	-12.9059
輟	-12.906
廻	-12.906
龐	-12.9061
樣	-12.9062
稈	-12.9063
弼	-12.9068
攸	-12.907
迂	-12.9071
鈞	-12.9072
簧	-12.908
墠	-12.9083
喬	-12.939
鸞	-12.9395
犢	-12.9395
淹	-12.9401
遁	-12.9402
熒	-12.9405
𢤱	-12.9405
攞	-12.9406
惕	-12.9408
奸	-12.9409
員	-12.941
雇	-12.9413
漉	-12.9418
頡	-12.9419
洒	-12.9419
詈	-12.9425
泮	-12.9426
溟	-12.943
碩	-12.9433
陟	-12.9434
杳	-12.9438
榍	-12.9439
籥	-12.9473
鼉	-12.9762
㘁	-12.9764
煒	-12.9771
慄	-12.9776
吃	-12.9779
鐸	-12.9782
瞪	-12.9786
𠮧	-12.9788
輻	-12.9791
萄	-12.9793
浦	-12.9795
蹇	-12.9795
頷	-12.9796
鳧	-12.9798
豕	-12.9799
窄	-12.98
䖍	-12.98
箱	-12.98
柏	-12.9801
拓	-12.9801
頴	-12.9802
吝	-12.9803
拕	-12.9804
墯	-12.9805
罸	-12.9805
沖	-12.9808
粕	-12.9808
羝	-12.981
趂	-12.981
憨	-12.9811
羶	-12.9812
饗	-12.9812
鶉	-12.9812
鄴	-12.9814
藻	-12.9815
㭊	-12.982
聻	-12.9825
控	-12.9837
撗	-13.0162
𤦲	-13.0164
臾	-13.0165
眄	-13.0172
吁	-13.0176
詛	-13.0178
墟	-13.0179
咃	-13.0179
伍	-13.018
堤	-13.0185
尖	-13.0186
妷	-13.0192
架	-13.0195
鍱	-13.0196
殻	-13.0199
鍛	-13.0199
疱	-13.02
帙	-13.0201
倪	-13.0201
咩	-13.0202
瘥	-13.0203
璅	-13.0204
憲	-13.0205
穬	-13.0206
釣	-13.0206
洩	-13.0207
笙	-13.0207
雍	-13.0208
娠	-13.0209
窣	-13.021
酧	-13.0212
郊	-13.0215
窹	-13.0215
貼	-13.0216
僊	-13.0221
黏	-13.0224
邇	-13.0225
騐	-13.0226
寰	-13.0228
傴	-13.0581
臗	-13.0588
蟇	-13.0593
疥	-13.0599
搥	-13.0601
粥	-13.0602
杻	-13.0602
噓	-13.0603
朦	-13.0604
醋	-13.0605
禿	-13.0605
繽	-13.0605
寇	-13.0606
嗚	-13.0609
吻	-13.0612
瓈	-13.0613
踵	-13.0614
睹	-13.0614
軛	-13.0615
覿	-13.0617
迺	-13.0617
姻	-13.0619
籬	-13.0619
釵	-13.062
岩	-13.062
衾	-13.0623
軻	-13.0624
畵	-13.0625
㽵	-13.0625
孱	-13.0625
泐	-13.0625
迄	-13.0626
祛	-13.0626
恤	-13.0628
聯	-13.0632
塘	-13.0632
硬	-13.064
顆	-13.0654
鏞	-13.0656
珪	-13.0657
湩	-13.1005
拷	-13.101
轢	-13.1013
瞤	-13.1019
蜚	-13.102
劬	-13.1022
碓	-13.1029
靖	-13.1031
募	-13.1033
悍	-13.1033
痢	-13.1035
濬	-13.104
淤	-13.1043
麾	-13.1045
亟	-13.1045
携	-13.1047
徊	-13.1047
篾	-13.1049
崑	-13.1051
姨	-13.1051
尒	-13.1054
餌	-13.1055
尉	-13.1055
弈	-13.1055
瘧	-13.1056
粮	-13.1056
搩	-13.1058
峙	-13.106
紆	-13.1062
懲	-13.1062
闚	-13.1062
頹	-13.1063
犂	-13.1064
蒿	-13.1064
琢	-13.1066
怜	-13.1067
閇	-13.1067
慜	-13.1072
鐄	-13.1091
窶	-13.1472
髖	-13.148
塼	-13.148
舂	-13.1484
轂	-13.1485
泆	-13.1486
俠	-13.1487
凰	-13.1487
琶	-13.1489
騫	-13.1492
栢	-13.1493
屯	-13.1493
愴	-13.1494
彷	-13.1496
催	-13.1497
薨	-13.1497
旹	-13.1497
黜	-13.15
槁	-13.15
戊	-13.15
閤	-13.1501
哮	-13.1502
瞽	-13.1503
撞	-13.1503
館	-13.1504
亢	-13.1505
礼	-13.1505
髣	-13.1506
烹	-13.1506
姥	-13.1507
凢	-13.1508
娉	-13.1508
卅	-13.1508
芒	-13.1509
諠	-13.1509
剜	-13.151
稗	-13.151
宦	-13.1512
宵	-13.1512
厝	-13.1512
翱	-13.1513
旭	-13.1514
擗	-13.1516
罣	-13.1518
恰	-13.1519
颺	-13.1519
恆	-13.1519
姜	-13.1519
謾	-13.1522
煑	-13.1522
嘻	-13.1523
迥	-13.1526
廼	-13.1532
抳	-13.1532
贅	-13.1533
碾	-13.1534
䨱	-13.1546
叭	-13.1947
蚑	-13.195
枸	-13.1951
估	-13.1955
嚫	-13.1957
蚩	-13.1965
榜	-13.1966
蓄	-13.1967
曝	-13.1971
鋪	-13.1973
熖	-13.1974
殯	-13.1974
侫	-13.1975
旌	-13.1975
痾	-13.1978
淋	-13.1979
㨖	-13.1979
侮	-13.1981
旗	-13.1981
㹅	-13.1982
尓	-13.1983
朵	-13.1983
痘	-13.1983
蛆	-13.1984
筮	-13.1985
喑	-13.1985
叮	-13.1985
它	-13.1987
抹	-13.1988
欵	-13.1988
堦	-13.1988
蠡	-13.1988
鍵	-13.1989
腑	-13.1993
瘳	-13.1993
撩	-13.1995
蔥	-13.1995
銛	-13.1996
戎	-13.1996
棱	-13.1997
㓨	-13.1998
遘	-13.1998
狩	-13.2003
覷	-13.2003
腴	-13.2007
羲	-13.2008
犧	-13.2014
禘	-13.2015
舩	-13.2015
窻	-13.2016
掐	-13.242
葩	-13.2437
綩	-13.2442
騾	-13.2442
佷	-13.2444
𣸪	-13.2449
惔	-13.2449
賺	-13.2452
磣	-13.2452
絞	-13.2454
孺	-13.2457
詡	-13.2459
笞	-13.246
舡	-13.2461
聶	-13.2464
勾	-13.2465
𢙢	-13.2466
楗	-13.2467
鷺	-13.2468
嬪	-13.2468
鞔	-13.2471
濱	-13.2473
舁	-13.2473
暨	-13.2475
枹	-13.2476
姉	-13.2476
嘔	-13.2478
冐	-13.2479
穰	-13.248
蝎	-13.2481
孽	-13.2482
萍	-13.2483
漆	-13.2483
巫	-13.2485
霅	-13.2487
敝	-13.2488
齶	-13.2492
竈	-13.2493
裨	-13.2495
薀	-13.2496
斑	-13.2498
檐	-13.2501
蚌	-13.2502
濵	-13.2502
咬	-13.2503
蟄	-13.2504
銓	-13.2505
樊	-13.2516
峪	-13.2971
咤	-13.2972
搗	-13.2977
卍	-13.298
煌	-13.2981
阜	-13.2984
貸	-13.2986
嘖	-13.2987
眸	-13.2988
鄧	-13.2988
蛟	-13.2991
􂌤	-13.2992
桎	-13.2992
逞	-13.2992
頒	-13.2994
婿	-13.2994
憘	-13.2995
献	-13.2996
󲊛	-13.2997
􂛴	-13.2997
韶	-13.2998
腕	-13.3
岑	-13.3001
髴	-13.3003
箏	-13.3003
擿	-13.3003
椀	-13.3005
釀	-13.3005
衒	-13.3006
粘	-13.3006
櫃	-13.3007
鷂	-13.3008
佯	-13.301
忤	-13.3013
傚	-13.3013
嬌	-13.3013
罥	-13.3016
􂎶	-13.3017
蓼	-13.3017
𡧱	-13.3018
劓	-13.3019
聦	-13.302
駟	-13.302
拋	-13.3025
觜	-13.3026
衫	-13.3027
綮	-13.3029
秩	-13.3032
鵬	-13.3034
拊	-13.3034
蝨	-13.304
紊	-13.3042
橐	-13.3077
襪	-13.3512
肋	-13.3528
觧	-13.3529
猥	-13.353
炮	-13.3534
癲	-13.3535
𤚲	-13.3537
牡	-13.3539
脅	-13.354
苫	-13.3541
絹	-13.3541
掁	-13.3542
娘	-13.3546
嘯	-13.3549
丐	-13.3552
拽	-13.3552
况	-13.3553
駒	-13.3553
蔚	-13.3554
癃	-13.3555
瞳	-13.3555
忒	-13.3555
悽	-13.356
蓐	-13.356
萊	-13.3563
蕃	-13.3565
汰	-13.3566
菉	-13.3566
凊	-13.3568
尫	-13.3568
紇	-13.3569
嚀	-13.3569
敞	-13.3573
彭	-13.3575
臧	-13.3577
檄	-13.358
陞	-13.3582
璃	-13.3584
弑	-13.3584
撒	-13.3585
筵	-13.3586
桀	-13.3586
楯	-13.3587
蜺	-13.359
臰	-13.3611
捩	-13.4107
攣	-13.4109
爇	-13.4117
臠	-13.4118
塜	-13.4124
媿	-13.4125
㗚	-13.4126
姤	-13.4128
洟	-13.413
協	-13.4131
壃	-13.4135
寮	-13.4137
懵	-13.4137
觚	-13.4138
膓	-13.4138
罝	-13.4141
絳	-13.4142
鉾	-13.4143
楹	-13.4143
戍	-13.4144
賄	-13.4144
顫	-13.4145
坼	-13.4145
齡	-13.4146
糅	-13.4148
揔	-13.4148
簾	-13.4149
棚	-13.4149
畋	-13.4151
顓	-13.4152
箕	-13.4152
冝	-13.4153
笋	-13.4154
柵	-13.4154
岌	-13.4155
瘵	-13.4158
甦	-13.4158
咲	-13.416
迯	-13.4162
椽	-13.4164
莪	-13.4164
崔	-13.4166
虵	-13.4167
𠺕	-13.4167
痊	-13.4168
糩	-13.417
瞞	-13.4173
厩	-13.4173
痕	-13.4173
癭	-13.4178
𨳝	-13.418
呀	-13.4182
礿	-13.4185
拿	-13.4718
刷	-13.4721
髭	-13.4735
廩	-13.4744
笮	-13.4747
觝	-13.4747
曚	-13.4749
膀	-13.4751
茹	-13.4752
擒	-13.4752
囹	-13.4755
駈	-13.4755
倖	-13.4755
雛	-13.4758
艸	-13.4759
蠍	-13.476
壟	-13.4761
唧	-13.4763
虜	-13.4763
瞎	-13.4763
冑	-13.4764
祁	-13.4765
𦙆	-13.4765
壹	-13.4766
垓	-13.4767
橙	-13.4768
捫	-13.4768
偉	-13.4771
霔	-13.4771
媒	-13.4772
刳	-13.4773
鱉	-13.4773
繚	-13.4773
憣	-13.4774
駐	-13.4774
灸	-13.4778
哥	-13.4779
諄	-13.4779
烝	-13.478
膊	-13.478
鴟	-13.4782
圭	-13.4782
槨	-13.4784
瓢	-13.4784
皂	-13.4785
鬧	-13.4787
盋	-13.4787
裡	-13.4788
墾	-13.4789
嗽	-13.479
舘	-13.4791
咷	-13.4791
矇	-13.4791
緜	-13.4793
飭	-13.4795
个	-13.4796
庾	-13.4797
蘋	-13.4799
罩	-13.4799
秊	-13.4799
歘	-13.4802
滲	-13.4802
叟	-13.4805
蚡	-13.4809
抅	-13.4821
秫	-13.5358
慌	-13.5404
氈	-13.5412
𥎞	-13.5414
揬	-13.5414
傑	-13.5416
𦰧	-13.5416
瓮	-13.5417
昴	-13.5417
罽	-13.5417
徉	-13.542
店	-13.542
惋	-13.5421
鉛	-13.5423
倏	-13.5425
腭	-13.5426
炊	-13.5427
誇	-13.5427
𠃵	-13.5429
凸	-13.543
冒	-13.5432
㸌	-13.5433
睿	-13.5435
丞	-13.5439
𦿔	-13.544
杯	-13.544
件	-13.5441
樑	-13.5441
蛤	-13.5444
謳	-13.5444
剡	-13.5444
馭	-13.5445
轡	-13.5445
闠	-13.5448
蟾	-13.5448
勁	-13.5449
掖	-13.5449
渺	-13.545
潘	-13.545
巍	-13.5451
瘭	-13.5454
遼	-13.5455
湎	-13.5456
䥫	-13.5456
埏	-13.5456
冢	-13.5457
魘	-13.5458
兢	-13.5458
韭	-13.5461
踪	-13.5462
藩	-13.5462
咳	-13.5463
蘩	-13.5464
𨷂	-13.5464
鞮	-13.5465
驀	-13.5467
璣	-13.5467
愔	-13.5468
敲	-13.547
𢍉	-13.5474
詁	-13.5476
槍	-13.5477
瓠	-13.5478
胥	-13.5479
閏	-13.5481
兌	-13.5484
棹	-13.5488
姬	-13.5491
𦼇	-13.609
蜯	-13.6122
舫	-13.6123
盥	-13.6125
颯	-13.6126
瑰	-13.6129
隊	-13.613
悸	-13.6133
隍	-13.6135
邸	-13.6137
桁	-13.6138
誚	-13.6138
抒	-13.6138
絜	-13.6139
浸	-13.614
馚	-13.6141
慊	-13.6141
蓏	-13.6141
蜋	-13.6142
歐	-13.6142
槵	-13.6143
懌	-13.6143
廚	-13.6143
貰	-13.6144
𤬪	-13.6144
嬭	-13.6144
鞋	-13.6145
郍	-13.6145
鎚	-13.6145
稜	-13.6146
呰	-13.6146
頼	-13.6147
闘	-13.6147
斍	-13.6147
斵	-13.6152
澇	-13.6152
匙	-13.6153
恊	-13.6153
䑛	-13.6153
疋	-13.6155
豉	-13.6156
紈	-13.6156
臊	-13.6156
霆	-13.6156
寘	-13.616
褻	-13.616
毬	-13.616
臯	-13.616
燦	-13.6161
趍	-13.6161
𠛴	-13.6163
誌	-13.6163
碗	-13.6163
猩	-13.6163
緝	-13.6163
斐	-13.6163
歒	-13.6163
堰	-13.6163
簞	-13.6164
氎	-13.6164
攙	-13.6165
𢌞	-13.6166
悳	-13.6166
氐	-13.6168
祜	-13.6169
聘	-13.6169
碁	-13.617
績	-13.6171
襟	-13.6171
隧	-13.6171
叅	-13.6173
蝡	-13.6176
氛	-13.6178
輾	-13.6179
薤	-13.618
弁	-13.6182
殉	-13.6182
詫	-13.6184
袁	-13.6185
薑	-13.6189
閹	-13.6191
煨	-13.6192
艮	-13.6198
票	-13.6203
慪	-13.6203
懣	-13.689
埠	-13.6894
租	-13.6895
跓	-13.6896
犇	-13.6903
僮	-13.6907
寠	-13.6907
餮	-13.6907
耘	-13.6908
抆	-13.6908
涪	-13.691
梢	-13.691
胑	-13.6911
嗤	-13.6913
尻	-13.6914
鵂	-13.6914
罹	-13.6915
賾	-13.6915
珥	-13.6916
𠁅	-13.6916
􂜈	-13.6916
𦒿	-13.6916
渟	-13.6916
俳	-13.6917
蟠	-13.6917
荏	-13.6918
盪	-13.692
澣	-13.6921
剔	-13.6922
貳	-13.6925
穽	-13.6925
瑤	-13.6926
𠃔	-13.6926
俸	-13.6927
駿	-13.6927
闌	-13.6929
組	-13.693
葡	-13.693
衷	-13.693
閴	-13.6932
蠆	-13.6932
痺	-13.6934
瞰	-13.6934
䏶	-13.6934
霓	-13.6934
浙	-13.6935
鑰	-13.6935
隴	-13.6935
澀	-13.6936
堀	-13.6937
袍	-13.6937
癘	-13.6937
毅	-13.6938
蕪	-13.6939
潑	-13.6939
柁	-13.694
概	-13.694
捔	-13.6941
贒	-13.6943
帽	-13.6944
鼷	-13.6945
媸	-13.6951
碍	-13.6952
潁	-13.6954
粧	-13.6955
隕	-13.6961
眵	-13.6963
褚	-13.6966
伶	-13.6977
悄	-13.698
􂟐	-13.7669
蔗	-13.7713
𥇒	-13.7714
哿	-13.772
凾	-13.7724
曄	-13.7724
罐	-13.7726
訕	-13.7728
𡃤	-13.7729
𨄔	-13.7729
幕	-13.773
戢	-13.7732
㷿	-13.7732
帷	-13.7734
蚶	-13.7736
襍	-13.7736
搔	-13.7737
裓	-13.7737
榛	-13.7737
皤	-13.7737
砌	-13.7739
刮	-13.774
䶩	-13.774
剉	-13.774
孜	-13.7741
售	-13.7741
鋌	-13.7742
珞	-13.7744
懿	-13.7744
猷	-13.7745
銐	-13.7745
蒺	-13.7745
抓	-13.7746
閃	-13.7749
賚	-13.7749
􂛻	-13.7749
􂛾	-13.7749
臏	-13.775
琉	-13.7751
䔧	-13.7751
砥	-13.7753
駁	-13.7754
湍	-13.7755
扈	-13.7756
麝	-13.7756
唄	-13.7756
冊	-13.7757
茯	-13.7757
犖	-13.7757
穗	-13.7758
勺	-13.7758
剗	-13.7758
騖	-13.776
頇	-13.776
屆	-13.776
獐	-13.776
圈	-13.7762
翦	-13.7762
餧	-13.7764
瓊	-13.7764
𢭃	-13.7765
儛	-13.7767
繹	-13.7767
宥	-13.7768
妒	-13.7768
叶	-13.7769
塑	-13.7769
髫	-13.777
袖	-13.7771
嶄	-13.7771
蕅	-13.7771
侈	-13.7771
樽	-13.7771
訝	-13.7772
鵶	-13.7773
俻	-13.7774
掇	-13.7776
氳	-13.7776
𠍴	-13.7776
絮	-13.7776
拖	-13.7777
恧	-13.7777
婀	-13.7778
喙	-13.7779
弋	-13.7779
坡	-13.7782
椒	-13.7782
侗	-13.7782
迤	-13.7784
盻	-13.7786
忩	-13.7789
簪	-13.7792
賷	-13.7792
玷	-13.7793
逄	-13.7793
敻	-13.7796
餼	-13.7804
萇	-13.7814
呢	-13.8617
豔	-13.8628
噤	-13.8629
㘓	-13.863
􂌶	-13.8632
呫	-13.8633
𠯗	-13.8633
醬	-13.8636
憧	-13.8637
仆	-13.8639
憾	-13.864
跌	-13.8646
蒱	-13.8647
癢	-13.8648
廷	-13.8652
蘿	-13.8653
瘤	-13.8653
衿	-13.8653
闔	-13.8653
疹	-13.8655
范	-13.8655
􂜻	-13.8655
麋	-13.8656
〉	-13.8657
〈	-13.8657
粖	-13.8658
随	-13.8658
賔	-13.8658
沽	-13.8662
慍	-13.8663
魑	-13.8664
藹	-13.8664
聡	-13.8664
杭	-13.8665
沛	-13.8666
煜	-13.8667
遑	-13.8667
壘	-13.8667
雒	-13.8668
杅	-13.8668
杲	-13.8668
啗	-13.8668
檠	-13.8668
𢙉	-13.8669
猜	-13.8669
葺	-13.8669
懽	-13.867
毳	-13.8672
羮	-13.8673
㒵	-13.8675
嘍	-13.8677
鋟	-13.8678
梗	-13.8679
撈	-13.868
𥧌	-13.868
轅	-13.868
啝	-13.8681
跂	-13.8682
廝	-13.8684
蔕	-13.8684
賃	-13.8685
彿	-13.8685
萠	-13.8686
黛	-13.8688
隄	-13.8688
髦	-13.8689
媕	-13.8689
捻	-13.869
狥	-13.8693
晞	-13.8693
殼	-13.8694
篩	-13.8696
廳	-13.8699
濩	-13.8699
汾	-13.8702
𩬊	-13.8715
巽	-13.8717
簷	-13.872
嫩	-13.9606
寞	-13.9616
羡	-13.9625
樔	-13.9626
搭	-13.9628
󰪠	-13.9629
牸	-13.9633
齩	-13.9633
浚	-13.9633
檻	-13.9634
繢	-13.9635
瘠	-13.9638
忪	-13.9639
嘲	-13.9642
羙	-13.9647
距	-13.9648
蜆	-13.9648
侘	-13.9649
宍	-13.9651
劄	-13.9651
睇	-13.9652
惽	-13.9652
䎡	-13.9655
旡	-13.9655
暈	-13.9656
磓	-13.9656
蓊	-13.9657
扁	-13.9657
􂜎	-13.9658
矅	-13.9658
𦙘	-13.9659
𢿘	-13.9659
緬	-13.9659
暄	-13.9661
貲	-13.9662
亶	-13.9662
糖	-13.9662
帚	-13.9662
霖	-13.9662
冕	-13.9663
磑	-13.9663
峨	-13.9664
𤚼	-13.9664
湘	-13.9664
爆	-13.9664
殟	-13.9664
矬	-13.9665
庇	-13.9665
淆	-13.9665
墀	-13.9666
禎	-13.9666
圃	-13.9666
薛	-13.9666
擢	-13.9666
𠿒	-13.9667
忝	-13.9667
褊	-13.9668
儐	-13.9668
盞	-13.9668
愷	-13.9668
壍	-13.967
穎	-13.967
蚰	-13.9671
鱍	-13.9672
窘	-13.9673
𨒬	-13.9673
焬	-13.9674
韜	-13.9675
噁	-13.9676
䠆	-13.9676
杏	-13.9676
萃	-13.9678
磐	-13.9678
璨	-13.9679
鶵	-13.9679
鞏	-13.968
涵	-13.9681
邕	-13.9682
晈	-13.9682
鬢	-13.9682
蹬	-13.9682
馴	-13.9682
泠	-13.9682
斆	-13.9682
啐	-13.9686
孃	-13.9686
騷	-13.9687
沿	-13.9687
蹲	-13.9688
侜	-13.9688
跬	-13.9688
嚟	-13.9688
拉	-13.9689
匣	-13.969
撤	-13.9692
喰	-13.9693
詵	-13.9693
僭	-13.9694
擕	-13.9698
窯	-13.9699
阤	-13.9699
僣	-13.9699
捏	-13.9701
煬	-13.9713
綟	-13.9714
昰	-13.9721
觴	-13.9731
𤺙	-14.069
痿	-14.0718
昵	-14.0734
蘂	-14.0735
曬	-14.0736
笐	-14.0738
枲	-14.0739
脯	-14.074
堙	-14.0743
踹	-14.0743
瘢	-14.0744
攫	-14.0744
蠚	-14.0745
軾	-14.0746
縶	-14.0747
㜸	-14.0747
􂌦	-14.0748
僵	-14.0751
羹	-14.0754
𡖉	-14.0756
瑳	-14.0756
㘕	-14.0757
港	-14.0757
饕	-14.0759
荻	-14.0759
桐	-14.076
荄	-14.076
囙	-14.076
乱	-14.0761
滂	-14.0763
滁	-14.0763
鉞	-14.0764
惘	-14.0764
軰	-14.0764
􂛬	-14.0765
篅	-14.0765
搪	-14.0765
菁	-14.0765
㘑	-14.0766
𢢔	-14.0767
系	-14.0768
搶	-14.0768
簿	-14.0768
培	-14.0769
􂗆	-14.0769
􂜳	-14.0769
璝	-14.077
插	-14.0771
瓫	-14.0772
舸	-14.0772
呿	-14.0772
泓	-14.0773
粲	-14.0773
蜍	-14.0773
爚	-14.0773
玼	-14.0775
筯	-14.0775
凹	-14.0775
版	-14.0775
黧	-14.0776
髆	-14.0776
鑠	-14.0777
穅	-14.0777
噴	-14.0778
煦	-14.0779
罟	-14.0779
綏	-14.078
臈	-14.0782
怗	-14.0782
隳	-14.0782
􂎈	-14.0782
肴	-14.0783
蜘	-14.0783
懋	-14.0784
羇	-14.0785
駮	-14.0785
蓍	-14.0785
滔	-14.0786
諛	-14.0786
週	-14.0786
仳	-14.0786
蘖	-14.0787
褫	-14.0787
櫼	-14.079
蕳	-14.079
綰	-14.079
渤	-14.0791
洶	-14.0791
苓	-14.0791
抉	-14.0792
需	-14.0793
顗	-14.0795
鵞	-14.0795
閦	-14.0795
耑	-14.0797
苻	-14.0798
擡	-14.0798
鴝	-14.0798
笠	-14.0798
篡	-14.0799
泄	-14.0799
咫	-14.0799
儘	-14.08
豸	-14.0802
覊	-14.0806
蔣	-14.0807
凖	-14.0808
霸	-14.0809
郝	-14.0809
駢	-14.081
鮑	-14.0812
掀	-14.0813
濶	-14.0819
鋤	-14.0825
𠽾	-14.1971
苷	-14.1971
咪	-14.1972
弛	-14.1973
蟬	-14.1975
屐	-14.198
眶	-14.1985
昬	-14.1994
跱	-14.1995
鈸	-14.1995
鈿	-14.1995
泅	-14.1996
諡	-14.1997
麴	-14.1999
祟	-14.1999
島	-14.2
甖	-14.2
麑	-14.2002
怵	-14.2003
藿	-14.2003
謇	-14.2004
韛	-14.2005
鈷	-14.2006
彪	-14.2006
瑯	-14.2007
茵	-14.2007
脬	-14.2007
轆	-14.2008
睞	-14.2008
轤	-14.2008
囿	-14.2009
鰥	-14.201
玫	-14.201
塢	-14.201
彝	-14.2012
蕀	-14.2013
囓	-14.2014
漩	-14.2015
殮	-14.2015
􂛗	-14.2015
渦	-14.2015
𨪏	-14.2016
𥪰	-14.2017
痟	-14.2017
妣	-14.2017
飴	-14.2018
踧	-14.2018
譖	-14.2018
鞍	-14.2018
竚	-14.2018
彚	-14.2019
踉	-14.2019
􂛺	-14.2019
褐	-14.202
鉸	-14.2022
揉	-14.2022
揜	-14.2022
揲	-14.2022
幰	-14.2022
􂍧	-14.2022
嗄	-14.2023
𣣋	-14.2023
簁	-14.2023
䆳	-14.2023
埜	-14.2024
狡	-14.2024
覃	-14.2025
躋	-14.2026
礪	-14.2027
奩	-14.2028
槐	-14.2028
熬	-14.2028
鬣	-14.2029
胄	-14.2029
擥	-14.203
潟	-14.2031
澗	-14.2031
𪾼	-14.2033
侔	-14.2033
閩	-14.2033
蝴	-14.2033
躔	-14.2033
臛	-14.2034
䓗	-14.2034
楮	-14.2035
荳	-14.2036
詆	-14.2036
稔	-14.2037
挹	-14.2037
孳	-14.2037
翩	-14.2037
瀚	-14.2037
歧	-14.2038
蛛	-14.2038
埴	-14.2039
獝	-14.2039
𥢶	-14.2039
蜒	-14.204
雰	-14.2041
佶	-14.2041
晶	-14.2044
苛	-14.2044
蹊	-14.2045
紘	-14.2045
顇	-14.2045
覇	-14.2046
鴣	-14.2046
蜫	-14.2046
潢	-14.2048
𣅀	-14.2048
𡱁	-14.2048
牘	-14.2049
伋	-14.2049
嵬	-14.2049
坋	-14.2049
圜	-14.2049
苔	-14.2051
倮	-14.2051
蠹	-14.2052
尹	-14.2053
慴	-14.2054
綫	-14.2054
􂎥	-14.2055
菌	-14.2055
剏	-14.2055
鞅	-14.2056
旻	-14.2057
㗛	-14.2057
爼	-14.2057
襦	-14.2059
豬	-14.2059
醻	-14.206
凑	-14.2061
槖	-14.2065
坂	-14.2065
麒	-14.2065
懾	-14.2067
箴	-14.2067
柝	-14.2067
郢	-14.2068
剕	-14.207
澌	-14.2079
覞	-14.208
圅	-14.2082
庿	-14.2083
蒔	-14.2085
耒	-14.2089
菑	-14.2092
藂	-14.2098
撦	-14.341
卌	-14.3414
蜥	-14.3415
䠒	-14.3415
躓	-14.3417
犛	-14.3421
瀝	-14.3423
B	-14.3424
C	-14.3424
烔	-14.3424
瘁	-14.3428
狠	-14.3429
㦜	-14.3429
孥	-14.343
悵	-14.343
愶	-14.343
蚓	-14.3432
鎌	-14.3432
㓟	-14.3432
鴛	-14.3433
搒	-14.3433
斃	-14.3434
蠟	-14.3436
扃	-14.3437
嚚	-14.3439
榴	-14.3439
确	-14.3442
樁	-14.3443
聃	-14.3443
㢡	-14.3445
鍐	-14.3446
殂	-14.3447
眥	-14.3447
瑠	-14.3447
蘄	-14.3448
笥	-14.3448
芿	-14.3449
耿	-14.3449
弔	-14.345
幃	-14.345
涶	-14.3451
奎	-14.3451
賽	-14.3451
臉	-14.3451
捴	-14.3452
咓	-14.3452
帆	-14.3452
岡	-14.3453
稿	-14.3453
徼	-14.3454
㯹	-14.3454
襯	-14.3455
渭	-14.3455
巘	-14.3455
擴	-14.3455
嵠	-14.3456
葷	-14.3457
蠧	-14.3457
蛻	-14.3457
懊	-14.3458
閨	-14.3458
稸	-14.3458
蛭	-14.3459
朧	-14.346
聆	-14.346
烱	-14.346
囀	-14.3463
榔	-14.3464
笇	-14.3465
輅	-14.3465
瀨	-14.3465
戕	-14.3465
燔	-14.3466
磚	-14.3466
鏗	-14.3467
嘶	-14.3469
葶	-14.3469
埀	-14.3469
縉	-14.3469
藶	-14.3469
阮	-14.3469
遡	-14.347
斲	-14.347
轝	-14.347
皿	-14.3471
䬸	-14.3473
嬖	-14.3473
篙	-14.3474
醇	-14.3474
俞	-14.3475
盟	-14.3475
筐	-14.3475
絰	-14.3477
縗	-14.3478
斖	-14.3478
刖	-14.348
躑	-14.3481
樗	-14.3481
迬	-14.3481
哳	-14.3482
觔	-14.3484
瑛	-14.3484
涷	-14.3487
灘	-14.3488
閔	-14.3488
螮	-14.349
詬	-14.349
鎗	-14.3492
羚	-14.3493
儆	-14.3496
另	-14.3496
歆	-14.35
翛	-14.35
覧	-14.3502
陜	-14.3503
伇	-14.3507
沚	-14.3517
堵	-14.5135
袈	-14.7103
婇	-14.7121
忉	-14.9607
訊	-15.2949
篌	-15.3011
髏	-15.3027
▲	-15.7105
鵡	-15.7945
裟	-15.7951
—	-16.7932
髑	-16.7936
鸚	-16.794
茘	-16.7966
逶	-16.7967
獯	-16.7968
犙	-16.7969
儱	-16.797
鶹	-16.7971
虬	-16.7972
痍	-16.7973
煻	-16.7974
洴	-16.7975
顢	-16.7976
衟	-16.7977
蜣	-16.7978
瞌	-16.7979
倆	-16.798
𨤲	-16.7981
鯢	-16.7982
蜈	-16.7983
蚣	-16.7984
纛	-16.7985
戇	-16.7986
𠸪	-16.7987
釯	-16.7988
蝠	-16.7989
蝙	-16.799
癬	-16.7991
痆	-16.7992
󰃗	-16.7993
蓱	-16.7994
胱	-16.7995
圄	-16.7996
芉	-16.7997
梏	-16.7998
蠰	-16.7999
牯	-16.8
琵	-16.8001
徘	-16.8002
鑞	-16.8003
蓉	-16.8004
㿇	-16.8005
鞕	-16.8006
逍	-16.8007
擻	-16.8008
靂	-16.8009
>	-16.801
+	-16.8011
伅	-16.8012
獼	-16.8013
瑚	-16.8014
芭	-16.8015
[	-16.8016
醐	-16.8017
|	-16.8018
o	-16.8019
N	-16.802
箜	-16.802
