<unk>	0
<s>	0
</s>	0
之	-4.08559
以	-4.53503
為	-4.58556
其	-5.09577
也	-5.10865
而	-5.17152
/	-5.17414
不	-5.19089
有	-5.20831
(	-5.22639
)	-5.24598
曰	-5.2824
王	-5.3383
者	-5.351
於	-5.3805
人	-5.38281
州	-5.51271
大	-5.63645
,	-5.70755
與	-5.74581
上	-5.74691
至	-5.75436
一	-5.76678
事	-5.78615
子	-5.81526
中	-5.81869
自	-5.83691
所	-5.8707
及	-5.88832
軍	-5.90021
無	-5.9298
使	-5.93411
官	-5.94417
言	-5.97775
行	-5.98563
)(	-5.99319
在	-5.99529
三	-5.99546
國	-6.08269
兵	-6.10004
令	-6.1174
時	-6.12062
則	-6.12496
又	-6.12524
入	-6.1445
文	-6.14959
皆	-6.15652
下	-6.17669
乃	-6.18792
日	-6.22279
天	-6.22806
復	-6.23017
帝	-6.23317
後	-6.23345
城	-6.23585
二	-6.2394
等	-6.23985
出	-6.25043
安	-6.25636
道	-6.26341
公	-6.2745
故	-6.27886
平	-6.28361
立	-6.30156
從	-6.32408
南	-6.32468
臣	-6.33302
相	-6.33574
今	-6.35892
縣	-6.36062
五	-6.36539
于	-6.3684
詔	-6.37956
知	-6.39348
見	-6.40853
得	-6.41083
此	-6.43328
將	-6.45258
分	-6.46382
初	-6.46978
。	-6.47211
書	-6.47909
民	-6.48152
山	-6.48485
命	-6.49567
用	-6.49595
武	-6.50711
▁	-6.51268
如	-6.51476
西	-6.51659
東	-6.52957
四	-6.53444
正	-6.53501
置	-6.5353
同	-6.53927
元	-6.55024
遂	-6.55448
漢	-6.56842
生	-6.57353
明	-6.5774
謂	-6.58414
北	-6.5842
徳	-6.59335
當	-6.60487
亦	-6.61266
長	-6.61546
成	-6.63204
水	-6.63314
名	-6.65135
定	-6.65471
郡	-6.65527
法	-6.65996
多	-6.66092
陽	-6.67143
欲	-6.67216
可	-6.67496
六	-6.67728
義	-6.68317
禮	-6.68485
李	-6.68864
非	-6.69847
已	-6.70437
方	-6.70881
作	-6.71219
前	-6.71565
馬	-6.71886
進	-6.72063
是	-6.72129
何	-6.72334
齊	-6.72422
本	-6.72697
死	-6.73429
府	-6.73658
封	-6.73896
未	-6.74147
加	-6.74581
朝	-6.74608
若	-6.7478
年	-6.75267
侯	-6.75498
字	-6.75794
因	-6.77012
請	-6.77059
歸	-6.77638
諸	-6.77848
周	-6.78127
矣	-6.78481
反	-6.80824
云	-6.80933
居	-6.81578
金	-6.81784
還	-6.8188
司	-6.82165
地	-6.82257
遣	-6.82318
宗	-6.8232
度	-6.82362
張	-6.8245
守	-6.82571
數	-6.82729
主	-6.83323
然	-6.84338
世	-6.84361
先	-6.84745
家	-6.85303
君	-6.85378
都	-6.8583
重	-6.86013
九	-6.86023
遷	-6.86497
内	-6.86687
門	-6.86922
陳	-6.87228
賜	-6.87242
即	-6.87899
通	-6.88034
秦	-6.88098
卒	-6.88189
音	-6.88295
氏	-6.89081
改	-6.8982
少	-6.90041
士	-6.90202
奏	-6.90776
師	-6.9231
興	-6.93763
聞	-6.93969
元年	-6.94294
魏	-6.94964
宋	-6.9604
樂	-6.97069
去	-6.97368
議	-6.97559
師古曰	-6.98624
劉	-6.98976
降	-6.98984
必	-6.99216
晉	-6.99495
傳	-7.00193
常	-7.01046
和	-7.01133
梁	-7.01248
路	-7.01618
光	-7.02076
既	-7.0269
始	-7.02734
親	-7.02902
並	-7.0325
稱	-7.03633
宜	-7.0411
服	-7.04436
七	-7.05255
屬	-7.06143
實	-7.06323
建	-7.06583
餘	-7.07934
陵	-7.08125
舉	-7.08194
拜	-7.08543
外	-7.08944
八	-7.09145
二年	-7.0917
河	-7.09187
或	-7.09268
奉	-7.09966
治	-7.10009
來	-7.10478
經	-7.10537
以為	-7.10861
位	-7.11313
廣	-7.11367
趙	-7.11712
天下	-7.11927
宫	-7.11946
應	-7.12181
次	-7.12615
各	-7.12967
合	-7.13058
兼	-7.13188
制	-7.13679
石	-7.14042
衆	-7.14141
能	-7.14245
神	-7.14325
景	-7.14488
焉	-7.14637
求	-7.14807
食	-7.14968
除	-7.15061
白	-7.15157
取	-7.15243
將軍	-7.15633
善	-7.15806
戰	-7.1582
直	-7.16092
父	-7.16456
授	-7.16772
鎮	-7.16957
田	-7.17345
率	-7.17905
政	-7.18317
代	-7.18406
志	-7.1865
星	-7.18948
孝	-7.19517
殺	-7.20171
舊	-7.20326
雖	-7.20914
髙	-7.2098
心	-7.21149
太	-7.21593
三年	-7.21664
部	-7.22111
信	-7.22788
小	-7.22835
問	-7.23008
起	-7.23325
發	-7.24817
萬	-7.25338
左	-7.25988
楚	-7.26034
論	-7.26135
賊	-7.26191
甚	-7.26298
祖	-7.26654
我	-7.26791
攻	-7.27108
月	-7.27152
兩	-7.27409
史	-7.27468
乎	-7.27491
任	-7.28041
州刺史	-7.2819
盡	-7.28506
領	-7.28643
吏	-7.29423
受	-7.29755
忠	-7.30067
且	-7.31129
錢	-7.31311
古	-7.31326
殿	-7.32756
亡	-7.32807
省	-7.32869
卿	-7.32885
宣	-7.33141
龍	-7.33269
凡	-7.33649
夫	-7.3481
臨	-7.35356
異	-7.35654
易	-7.35819
唐	-7.35844
右	-7.3615
流	-7.36423
引	-7.36818
里	-7.3717
十	-7.37184
罷	-7.3737
坐	-7.37759
伯	-7.3807
過	-7.38155
孫	-7.3817
章	-7.38213
職	-7.38584
思	-7.38818
益	-7.38935
新	-7.39027
節	-7.39294
昌	-7.39424
意	-7.39576
㑹	-7.39602
失	-7.39877
召	-7.4018
儀	-7.40915
百	-7.40988
望	-7.41097
犯	-7.41222
昭	-7.41473
江	-7.41476
物	-7.41987
寧	-7.42717
延	-7.42765
不可	-7.43197
夏	-7.43678
處	-7.4368
廢	-7.43787
爾	-7.43883
逺	-7.44148
獻	-7.44353
永	-7.44399
威	-7.4468
表	-7.44798
海	-7.45032
不能	-7.45202
功	-7.4526
聖	-7.45269
騎	-7.4529
集	-7.45333
弟	-7.45608
給	-7.45664
車	-7.46067
口	-7.46175
嵗	-7.46356
尚	-7.46525
力	-7.46627
按	-7.4738
歴	-7.47508
朔	-7.47559
罪	-7.47626
學	-7.47825
氣	-7.48174
女	-7.48204
清	-7.48353
謀	-7.50899
濟	-7.50995
母	-7.51035
慶	-7.51056
執	-7.51681
太子	-7.51823
太祖	-7.52081
開	-7.52806
止	-7.52869
計	-7.52899
吾	-7.53263
告	-7.53539
承	-7.54029
猶	-7.54247
御	-7.54417
黄	-7.54457
賢	-7.54565
監	-7.54687
權	-7.54935
后	-7.55381
辭	-7.55484
更	-7.5554
○	-7.55691
風	-7.55796
首	-7.56292
固	-7.56481
皇	-7.56556
疾	-7.56559
土	-7.56683
身	-7.56693
仁	-7.56944
将	-7.58136
保	-7.58137
終	-7.58186
擊	-7.58236
幸	-7.58308
致	-7.58311
深	-7.58677
觀	-7.59018
亂	-7.59184
敗	-7.59233
難	-7.59574
理	-7.59743
利	-7.59806
交	-7.59883
尋	-7.60041
破	-7.60272
轉	-7.60362
許	-7.60374
四年	-7.6109
惟	-7.61351
爲	-7.61644
留	-7.62169
順	-7.62262
嘗	-7.6262
左右	-7.62652
圖	-7.62687
仍	-7.62995
靈	-7.63044
衛	-7.6314
修	-7.63684
邑	-7.64142
德	-7.64303
韓	-7.64501
敬	-7.64819
典	-7.64835
布	-7.65179
間	-7.65915
别	-7.66901
於是	-7.67517
克	-7.67559
每	-7.67721
號	-7.68037
業	-7.68061
良	-7.68485
鄭	-7.68645
華	-7.68756
耳	-7.69386
就	-7.69426
徙	-7.69822
誅	-7.69943
第	-7.70258
|	-7.70344
玉	-7.70408
退	-7.70855
備	-7.70955
近	-7.71122
免	-7.71357
廟	-7.71503
勝	-7.7156
納	-7.72319
注	-7.72778
崇	-7.72781
楊	-7.72793
變	-7.72938
恩	-7.73024
朱	-7.73052
色	-7.74076
雲	-7.74261
聲	-7.74375
户	-7.74696
紀	-7.75039
差	-7.75167
伏	-7.75398
充	-7.75613
獨	-7.75639
衣	-7.75692
語	-7.75748
好	-7.75839
悉	-7.76125
禁	-7.7632
皇帝	-7.76381
郎	-7.76621
載	-7.76663
曹	-7.76909
貴	-7.7726
尚書	-7.77348
春	-7.77426
室	-7.777
林	-7.77951
天子	-7.78365
伐	-7.78379
卷	-7.78605
征	-7.78968
太守	-7.79796
減	-7.80281
隂	-7.80366
被	-7.80459
不得	-7.80807
陛下	-7.8087
便	-7.8113
獲	-7.81147
并	-7.81181
老	-7.81345
青	-7.8135
考	-7.81386
才	-7.81395
五年	-7.81847
懐	-7.82241
解	-7.82379
吳	-7.82389
據	-7.82613
病	-7.82759
恐	-7.83014
顯	-7.83418
夜	-7.83671
嗣	-7.8371
疑	-7.83931
遇	-7.84215
酒	-7.84287
追	-7.84417
著	-7.84561
共	-7.85202
設	-7.85364
討	-7.8539
寳	-7.86167
選	-7.86449
往	-7.86721
比	-7.86769
嘉	-7.86812
素	-7.86888
積	-7.86892
高	-7.87412
京	-7.87452
説	-7.87569
末	-7.87587
徐	-7.87724
院	-7.87898
臺	-7.88269
由	-7.88513
營	-7.88638
千	-7.89101
祭	-7.8923
視	-7.89387
俱	-7.89512
掌	-7.89716
詩	-7.89844
胡	-7.8988
夷	-7.899
絶	-7.90307
全	-7.90494
特	-7.90657
宿	-7.90728
咸	-7.90741
約	-7.90825
豈	-7.91187
收	-7.91372
化	-7.91589
魯	-7.91703
列	-7.91858
盛	-7.92052
越	-7.92084
/)	-7.92142
燕	-7.92173
極	-7.9237
仲	-7.9243
副	-7.92444
升	-7.92754
具	-7.93062
存	-7.93325
登	-7.9336
象	-7.93392
康	-7.93571
撰	-7.9394
圍	-7.93952
依	-7.94001
蕭	-7.94173
統	-7.94215
邊	-7.94288
尊	-7.94301
斯	-7.94615
繼	-7.94694
送	-7.94851
闕	-7.94991
隨	-7.95034
三月	-7.95084
察	-7.95303
謝	-7.9564
器	-7.95696
叔	-7.95816
連	-7.95873
甲	-7.96085
諸侯	-7.96164
誠	-7.96235
害	-7.96368
運	-7.96374
十二	-7.96656
厚	-7.96689
博	-7.96752
遺	-7.96803
曲	-7.97095
推	-7.975
達	-7.97773
髙祖	-7.97791
容	-7.98285
願	-7.98493
遣使	-7.98528
動	-7.98612
汝	-7.98626
對	-7.98677
皇后	-7.98969
太后	-7.98977
帥	-7.99104
福	-7.99313
六月	-7.99464
移	-7.99955
走	-7.99973
務	-8.00415
私	-8.00706
木	-8.00741
襲	-8.0101
祀	-8.01126
莫	-8.01166
川	-8.01324
隆	-8.01395
彦	-8.01602
族	-8.01654
足	-8.01737
案	-8.01753
累	-8.02315
火	-8.02478
贈	-8.02542
鄉	-8.02932
性	-8.02987
二月	-8.03211
要	-8.03214
厯	-8.03983
朕	-8.04319
嚴	-8.04361
朝廷	-8.04515
惡	-8.04691
手	-8.04881
榮	-8.04892
阿	-8.04894
屯	-8.04929
刑	-8.04935
六年	-8.0507
澤	-8.05145
京師	-8.05321
所以	-8.05379
憂	-8.05382
五月	-8.05809
哉	-8.05852
九月	-8.05935
侍	-8.06079
律	-8.06289
籍	-8.06457
報	-8.06472
恭	-8.06478
羣	-8.06787
附	-8.07076
造	-8.07132
原	-8.07144
補	-8.07316
會	-8.07353
秋	-8.07746
十一月	-8.07994
班	-8.08037
奔	-8.08112
逆	-8.08438
滅	-8.08551
散	-8.08695
冠	-8.09193
教	-8.09358
戸	-8.09558
八月	-8.10094
蘇	-8.1012
輕	-8.1012
情	-8.10308
怒	-8.10501
半	-8.10651
迎	-8.10691
申	-8.108
乞	-8.10904
參	-8.11172
役	-8.11238
乘	-8.11364
契丹	-8.11371
郭	-8.1145
久	-8.11472
薨	-8.11574
簡	-8.1163
急	-8.11739
果	-8.11794
宮	-8.12006
徒	-8.12296
賞	-8.12392
休	-8.12687
蜀	-8.12779
市	-8.12779
懼	-8.13179
烏	-8.13415
賦	-8.13443
斬	-8.13753
司馬	-8.13832
羅	-8.13966
季	-8.14098
歲	-8.14128
祠	-8.1414
爵	-8.1422
大夫	-8.14358
射	-8.14458
符	-8.14654
十二月	-8.14684
再	-8.14734
愛	-8.15066
一人	-8.15292
持	-8.15405
資	-8.15555
敵	-8.15732
勞	-8.16011
二人	-8.16182
頭	-8.16712
貢	-8.16768
丞	-8.16825
畢	-8.16897
記	-8.16958
勒	-8.17192
唯	-8.17328
哀	-8.17489
孟	-8.17726
鹽	-8.17848
雨	-8.18161
呼	-8.18184
顧	-8.18549
輔	-8.18628
喜	-8.19299
商	-8.20122
叛	-8.20176
庫	-8.20276
客	-8.2058
赴	-8.20778
将軍	-8.21012
戎	-8.21034
吉	-8.21086
即位	-8.21154
但	-8.21438
一卷	-8.21852
總	-8.22019
試	-8.22308
邪	-8.22495
闗	-8.22815
人也	-8.22884
諭	-8.22962
赤	-8.23091
穆	-8.23199
詣	-8.23235
牛	-8.23475
虞	-8.23491
節度使	-8.2365
滿	-8.23682
救	-8.23861
虜	-8.24156
泰	-8.24236
衡	-8.24252
而不	-8.24254
格	-8.24399
丁	-8.24452
姓	-8.24546
惠	-8.24987
刻	-8.2531
庶	-8.25604
肅	-8.25856
薦	-8.25884
期	-8.2591
息	-8.26045
冬	-8.26133
太宗	-8.26244
端	-8.26431
傷	-8.26438
目	-8.26718
尺	-8.27113
美	-8.27159
招	-8.27387
殷	-8.27502
塞	-8.27503
丘	-8.27755
侍中	-8.27881
蔡	-8.28107
乗	-8.28155
棄	-8.28199
雅	-8.28522
術	-8.28664
辰	-8.28722
十月	-8.28788
獄	-8.28823
七年	-8.29092
妻	-8.29222
喪	-8.29347
賀	-8.2942
質	-8.29595
體	-8.29628
野	-8.29698
大將軍	-8.30075
微	-8.30104
武帝	-8.3014
富	-8.30218
僧	-8.30301
責	-8.30399
帶	-8.30457
管	-8.30498
勢	-8.30543
有司	-8.30688
衞	-8.30738
洛	-8.30743
諫	-8.30966
春秋	-8.31075
河南	-8.31635
斷	-8.31736
房	-8.31818
六十	-8.31975
假	-8.32064
兄	-8.32067
委	-8.32156
說	-8.32186
離	-8.32245
真	-8.32286
類	-8.32308
堂	-8.32336
敢	-8.32491
不敢	-8.32696
巴	-8.32801
豐	-8.32807
乾	-8.33136
校	-8.33179
夀	-8.33324
雜	-8.33447
聽	-8.33496
略	-8.33873
危	-8.3395
精	-8.33963
辟	-8.34096
頗	-8.34341
蓋	-8.34429
紹	-8.34488
儒	-8.34523
患	-8.34584
駕	-8.34641
杜	-8.34708
結	-8.34776
撫	-8.34957
候	-8.35084
七月	-8.35751
司徒	-8.35973
貫	-8.36099
寺	-8.3613
㫖	-8.36467
牧	-8.36523
閣	-8.36576
調	-8.3672
四月	-8.36833
葬	-8.37063
孔	-8.37066
淮	-8.37229
盧	-8.37456
眀	-8.37589
配	-8.37628
糧	-8.37748
戍	-8.37763
決	-8.37764
太尉	-8.38012
勇	-8.38021
密	-8.38288
庭	-8.38304
雄	-8.38455
昔	-8.38619
徴	-8.38699
𤣥	-8.38734
来	-8.38847
員	-8.38959
草	-8.39155
襄	-8.3917
崔	-8.39211
待	-8.39243
英	-8.39321
以下	-8.3936
財	-8.39438
聚	-8.39533
養	-8.39598
援	-8.39636
向	-8.3964
百姓	-8.39844
憲	-8.39935
世祖	-8.40094
、	-8.40238
彊	-8.40671
角	-8.40809
振	-8.41018
關	-8.4143
工	-8.41492
崩	-8.41504
遼	-8.41739
八年	-8.41761
丞相	-8.42028
習	-8.42047
伊	-8.42193
負	-8.42269
倉	-8.42389
賈	-8.42423
十五	-8.42426
尹	-8.43025
佐	-8.4321
彼	-8.43234
俗	-8.43382
舞	-8.4395
識	-8.43987
泉	-8.44326
温	-8.44488
郊	-8.44534
奪	-8.4467
歩	-8.44851
禍	-8.44911
姦	-8.45018
:「	-8.45032
慮	-8.45197
避	-8.45492
寵	-8.45893
鼓	-8.46031
赦	-8.46126
竒	-8.46178
從之	-8.46277
旗	-8.46356
雍	-8.46568
境	-8.4663
宰相	-8.46635
勿	-8.46748
秩	-8.47228
虎	-8.47255
吕	-8.47258
歌	-8.47646
銀	-8.47751
馳	-8.47912
形	-8.47936
舍	-8.47956
副使	-8.48108
暴	-8.48231
無所	-8.48423
讓	-8.48449
釋	-8.48464
飛	-8.48497
允	-8.4907
限	-8.49291
玄	-8.49599
湖	-8.4967
友	-8.49709
怨	-8.49778
隋	-8.49779
階	-8.49818
傅	-8.49942
郎中	-8.5003
兒	-8.50068
二十	-8.50088
讀	-8.50103
如此	-8.50165
損	-8.50331
之後	-8.50457
謂之	-8.50477
谷	-8.50626
匈奴	-8.50699
弱	-8.50852
十三	-8.50982
横	-8.51052
署	-8.5118
祥	-8.51511
録	-8.516
勸	-8.51682
増	-8.5181
勲	-8.51852
寇	-8.51873
詳	-8.51973
三百	-8.52116
䇿	-8.52201
饑	-8.52255
尤	-8.52463
熙	-8.52577
督	-8.52614
黨	-8.52822
指	-8.52867
其後	-8.52893
條	-8.52998
例	-8.53108
智	-8.532
農	-8.5332
軍節度使	-8.53321
希	-8.5367
施	-8.53779
五十	-8.53821
放	-8.53926
他	-8.53982
薄	-8.54075
感	-8.54094
池	-8.54105
誤	-8.5425
都督	-8.54326
堅	-8.54331
貞	-8.54536
覆	-8.54774
河東	-8.54783
苦	-8.54941
三十	-8.54963
品	-8.55001
二百	-8.55097
藏	-8.55139
是時	-8.55152
縱	-8.55226
寶	-8.55404
妃	-8.55485
鈔	-8.55576
孤	-8.55953
旦	-8.56544
長史	-8.56637
陸	-8.56848
助	-8.56929
鼎	-8.57149
亭	-8.57156
揚	-8.57209
革	-8.57257
判	-8.57297
面	-8.57333
五百	-8.57351
以上	-8.58023
游	-8.58024
懷	-8.5806
頃	-8.58263
蕃	-8.58283
桓	-8.58679
稍	-8.58704
范	-8.58726
序	-8.59059
疏	-8.59201
。|	-8.59305
洪	-8.59311
侵	-8.59328
壽	-8.5939
館	-8.59622
寛	-8.59688
尉	-8.59708
翼	-8.59763
錄	-8.59804
徵	-8.59955
輿	-8.60006
費	-8.60041
謹	-8.60155
不知	-8.60474
沈	-8.60561
。」	-8.60572
司空	-8.60889
須	-8.60989
擢	-8.6109
呉	-8.61171
增	-8.61222
狀	-8.61259
蠻	-8.6141
大臣	-8.61437
米	-8.61583
禄	-8.61699
高祖	-8.61777
界	-8.61927
接	-8.62062
明年	-8.62199
違	-8.62212
拒	-8.62227
震	-8.62235
防	-8.62338
十六	-8.62435
贊	-8.62542
之所	-8.62608
捕	-8.62631
國公	-8.62989
機	-8.63142
太原	-8.6324
莊	-8.63346
戒	-8.63362
巳	-8.63428
畏	-8.63431
竝	-8.63816
茂	-8.639
虚	-8.63924
逐	-8.63978
適	-8.64224
一巻	-8.64264
宴	-8.64535
篇	-8.64675
珠	-8.6488
弗	-8.64921
一員	-8.64931
脩	-8.65294
回	-8.65499
供	-8.65944
沙	-8.65991
儉	-8.66064
折	-8.6607
專	-8.66126
長安	-8.66187
畧	-8.66251
訓	-8.66599
羽	-8.666
飲	-8.66732
羣臣	-8.66898
豫	-8.66987
築	-8.67218
十一	-8.67479
中書	-8.67501
均	-8.67519
湯	-8.67537
帛	-8.67575
烈	-8.67595
十年	-8.68161
汴	-8.68197
扵	-8.68294
垂	-8.68426
十四	-8.68619
毋	-8.68654
紫	-8.68695
寸	-8.68768
七十	-8.69181
韋	-8.69269
巻	-8.69572
源	-8.69578
𢎞	-8.69736
超	-8.69781
式	-8.69891
藥	-8.69926
九年	-8.69996
粟	-8.69998
遵	-8.70149
斗	-8.70362
旱	-8.70761
皇太子	-8.70844
男	-8.70956
索	-8.70987
殺之	-8.71006
幽	-8.71043
亮	-8.71115
百官	-8.71204
徽	-8.71221
享	-8.71328
策	-8.71359
竟	-8.71425
仕	-8.71551
審	-8.71564
渠	-8.71572
窮	-8.71594
印	-8.71801
屈	-8.72033
爭	-8.72048
刺史	-8.72171
畫	-8.72219
科	-8.72295
魚	-8.72492
殊	-8.72494
對曰	-8.72593
優	-8.72638
錫	-8.72713
夫人	-8.72744
衍	-8.72869
舟	-8.72913
寒	-8.72922
之事	-8.72954
竊	-8.72961
偽	-8.72975
欽	-8.73027
量	-8.73235
額	-8.73247
一百	-8.73421
秀	-8.73716
蘭	-8.73829
占	-8.73971
勤	-8.74189
河北	-8.74233
如故	-8.74253
呂	-8.74369
匹	-8.74568
陷	-8.74699
丹	-8.74731
支	-8.74752
盜	-8.7476
淮南	-8.74866
陰	-8.7495
種	-8.75195
弼	-8.75288
而已	-8.75365
十八	-8.75562
檢校	-8.75657
九十	-8.75826
毁	-8.75836
冊	-8.75955
祐	-8.76277
四十	-8.76547
徃	-8.76726
公主	-8.7687
鄧	-8.77098
八十	-8.77212
婦	-8.77318
文帝	-8.77484
干	-8.77492
輸	-8.77517
學士	-8.77562
循	-8.77652
悦	-8.7782
囚	-8.77898
甘	-8.77963
廬	-8.78002
衰	-8.78019
聞之	-8.7819
禹	-8.78201
謁	-8.78257
述	-8.78404
杖	-8.78484
空	-8.78485
羊	-8.78556
逹	-8.7858
淵	-8.78753
寜	-8.78807
綱	-8.78867
最	-8.79045
散騎常侍	-8.79085
冀	-8.79091
兮	-8.7917
歳	-8.79201
拔	-8.79574
西北	-8.79668
講	-8.79889
晏	-8.79931
井	-8.79934
程	-8.79981
判官	-8.80062
珍	-8.80122
曰吾	-8.80386
强	-8.80473
到	-8.80482
弘	-8.80636
一日	-8.80639
諡	-8.80645
險	-8.80859
謙	-8.80884
示	-8.80978
世宗	-8.81067
兄弟	-8.81324
樹	-8.8134
廷	-8.81352
俊	-8.81525
然後	-8.81549
樓	-8.81804
顔	-8.81988
薛	-8.81995
擇	-8.82174
使者	-8.82482
躬	-8.82688
導	-8.82725
詔曰	-8.82754
繫	-8.82816
災	-8.82827
至於	-8.82978
車駕	-8.83094
行省	-8.83134
夕	-8.83177
正月	-8.8341
恒	-8.83413
西南	-8.83509
驚	-8.83598
御史	-8.83656
輒	-8.83891
䕶	-8.83893
仗	-8.83925
預	-8.84089
由是	-8.84198
者也	-8.84206
産	-8.84489
可以	-8.84505
校尉	-8.84573
宻	-8.84624
諡曰	-8.84683
出為	-8.84818
厲	-8.85356
屢	-8.85413
貧	-8.8549
貶	-8.85701
擒	-8.8571
之地	-8.8574
規	-8.85812
不足	-8.85886
諸軍	-8.86069
銅	-8.86087
改為	-8.86151
仰	-8.86205
没	-8.86287
遠	-8.86312
宅	-8.86416
盗	-8.86462
漸	-8.86469
哈	-8.86847
租	-8.86849
乆	-8.86967
荆	-8.87279
十七	-8.8728
舒	-8.87401
飾	-8.87609
藩	-8.87614
卜	-8.87786
貨	-8.87878
範	-8.87917
陣	-8.8794
裴	-8.88063
節度	-8.88154
彌	-8.88566
天地	-8.88584
單于	-8.8878
岳	-8.89073
罕	-8.89186
予	-8.89207
敏	-8.89212
句	-8.89276
船	-8.89292
東南	-8.89542
背	-8.89617
員外郎	-8.89744
愚	-8.89939
材	-8.90081
御史大夫	-8.90212
倫	-8.90436
鄴	-8.90453
袁	-8.90474
牙	-8.90476
丈	-8.90581
橋	-8.90612
至元	-8.90716
似	-8.90795
己	-8.9095
幾	-8.91041
馮	-8.91216
津	-8.91292
園	-8.91344
攝	-8.91461
付	-8.91517
者皆	-8.9154
邉	-8.91676
兹	-8.91701
壇	-8.91959
鍾	-8.92018
未嘗	-8.92139
掠	-8.92306
賔	-8.92386
早	-8.92477
裕	-8.92727
甫	-8.92765
甲子	-8.9281
諸王	-8.92875
遲	-8.9297
落	-8.92989
幼	-8.93173
𫝊	-8.93201
慎	-8.93217
霸	-8.93418
普	-8.93425
幣	-8.9347
使人	-8.93521
孔子	-8.93686
念	-8.93952
浮	-8.94014
諸將	-8.94054
曰此	-8.94099
切	-8.94258
社	-8.94382
其子	-8.94619
留守	-8.94783
課	-8.94872
忘	-8.95246
前後	-8.9533
踰	-8.9533
䘮	-8.95471
豪	-8.95616
參軍	-8.95664
渡	-8.95666
弓	-8.95741
奴	-8.95778
局	-8.95784
内外	-8.96286
募	-8.96346
總管	-8.96393
單	-8.96435
凶	-8.96468
榖	-8.96564
刺	-8.96612
都尉	-8.96723
盈	-8.96815
忌	-8.97059
國家	-8.97162
露	-8.97178
黎	-8.97306
融	-8.97455
其事	-8.97574
堯	-8.97651
子孫	-8.97998
隷	-8.98029
隸	-8.98062
雷	-8.98086
祚	-8.9818
桑	-8.98211
曾	-8.98366
訪	-8.98579
金人	-8.98588
砦	-8.98696
郡王	-8.98716
距	-8.98983
訖	-8.98988
投	-8.99043
之間	-8.99075
有所	-8.99336
従	-8.99556
逃	-8.99599
文武	-8.99703
耕	-8.99731
董	-8.99731
庸	-8.99803
遊	-9.00006
淳	-9.00241
帳	-9.00257
盖	-9.00304
是也	-9.00365
是以	-9.00413
困	-9.00456
劾	-9.00552
邦	-9.00569
十一年	-9.00678
檢	-9.00802
敕	-9.00811
泣	-9.00835
洛陽	-9.00867
獵	-9.00875
仙	-9.00909
其所	-9.00941
割	-9.01046
潛	-9.01278
禦	-9.01391
幹	-9.01521
刀	-9.01754
陶	-9.01881
東北	-9.01888
忽	-9.01939
龜	-9.01952
苑	-9.01965
厥	-9.02196
嬰	-9.02256
主簿	-9.02263
哭	-9.02348
羌	-9.02359
懿	-9.02458
弊	-9.02486
所謂	-9.02521
妄	-9.02555
俄	-9.02612
太常	-9.02668
基	-9.02811
介	-9.02819
浩	-9.02822
蒙	-9.02916
絳	-9.03099
采	-9.03115
算	-9.03181
宗廟	-9.03247
勅	-9.03393
倍	-9.03443
尾	-9.03476
壁	-9.03578
維	-9.03649
秒	-9.03671
諱	-9.03822
姚	-9.03901
覺	-9.04132
毎	-9.04212
遜	-9.04225
舜	-9.04251
君子	-9.04261
編	-9.04319
驗	-9.04517
提舉	-9.04562
上書	-9.04573
焚	-9.04594
台	-9.04672
祗	-9.04731
死者	-9.04913
啓	-9.04987
寡	-9.04996
愈	-9.05002
蒲	-9.05025
斤	-9.05057
掩	-9.05238
驅	-9.05255
東西	-9.0543
鬼	-9.05604
覽	-9.05738
匡	-9.05841
鳥	-9.05924
環	-9.0599
慰	-9.05999
級	-9.06007
姑	-9.06448
扶	-9.06458
竹	-9.06524
詞	-9.06657
松	-9.0678
博士	-9.06869
江南	-9.06968
步	-9.07134
不許	-9.07235
公子	-9.07319
俟	-9.07353
雪	-9.07355
以來	-9.07387
太師	-9.07413
佛	-9.0747
續	-9.07566
戮	-9.07599
竇	-9.07633
三千	-9.07678
先是	-9.07681
有功	-9.07823
沒	-9.07939
履	-9.08022
陜西	-9.08094
州縣	-9.08243
所在	-9.08294
醫	-9.08376
四人	-9.08762
冬十月	-9.08802
開府儀同三司	-9.09039
冬至	-9.09349
併	-9.09424
寢	-9.09571
四方	-9.0962
十卷	-9.09633
屋	-9.09636
軌	-9.09677
夏四月	-9.09811
累遷	-9.10127
故事	-9.10136
逸	-9.10275
席	-9.10283
側	-9.10291
兵馬	-9.10306
塗	-9.10369
垣	-9.10495
晨	-9.10581
二千	-9.10827
肆	-9.10872
擾	-9.10875
税	-9.10891
致仕	-9.11154
瑞	-9.11176
敦	-9.11274
太廟	-9.1137
御史中丞	-9.11395
鎭	-9.11395
毛	-9.11695
趨	-9.11843
削	-9.11905
詐	-9.11992
四百	-9.12036
十二年	-9.1208
速	-9.12113
是月	-9.12224
徐廣曰	-9.12252
嶺	-9.12275
䧟	-9.12275
貪	-9.12344
三日	-9.12482
純	-9.127
慈	-9.12909
靖	-9.13056
廼	-9.13231
絹	-9.13283
鹿	-9.13295
靡	-9.13381
十九	-9.13451
秋七月	-9.13479
鐵	-9.13569
公卿	-9.13627
稽	-9.13629
毅	-9.1372
况	-9.13766
至是	-9.13907
鳴	-9.13939
壯	-9.14047
皮	-9.14078
以此	-9.1427
逼	-9.14482
黃	-9.14531
二十四	-9.14581
鄂	-9.14582
渾	-9.14915
莫不	-9.15093
荒	-9.15095
宋祁曰	-9.1518
託	-9.15368
静	-9.15376
姬	-9.15513
再拜	-9.15549
遁	-9.15574
隊	-9.15587
以聞	-9.15644
短	-9.15709
彭	-9.15811
日月	-9.15996
知其	-9.16064
以其	-9.16101
卑	-9.16258
社稷	-9.1626
太傅	-9.1637
恵	-9.16394
戚	-9.16489
廵	-9.16525
;	-9.1666
葉	-9.16663
皇太后	-9.16666
傾	-9.16724
矢	-9.16729
蒼	-9.16763
揚州	-9.16803
不及	-9.16848
何以	-9.16925
鳳	-9.17013
也今	-9.17101
罰	-9.17118
擅	-9.17285
渭	-9.17309
抵	-9.17312
妾	-9.1734
奮	-9.17407
隱	-9.17521
宏	-9.1755
王子	-9.17798
聼	-9.17831
占曰	-9.17921
宰	-9.17972
山東	-9.17986
第一	-9.18056
翰	-9.18178
旁	-9.18496
黙	-9.18499
十萬	-9.18594
列傳第	-9.18763
剛	-9.18842
血	-9.18944
不同	-9.19048
破之	-9.19098
耶	-9.19138
徹	-9.19172
夢	-9.19278
誰	-9.19738
進士	-9.19853
香	-9.19953
自是	-9.20065
十餘	-9.20293
輙	-9.20314
兆	-9.2038
笑	-9.20466
開元	-9.20516
㣲	-9.20523
卓	-9.20613
買	-9.20705
千里	-9.20722
既而	-9.20739
十三年	-9.20752
决	-9.20774
潰	-9.20966
賑	-9.20972
效	-9.21226
曽	-9.21262
驍	-9.21448
誕	-9.21486
甲寅	-9.21517
史記	-9.21596
畜	-9.21788
否	-9.21847
三卷	-9.21929
創	-9.21974
齋	-9.22051
薩	-9.22063
辨	-9.22068
筆	-9.22087
出入	-9.22098
坊	-9.22478
驛	-9.22501
漢王	-9.22502
寄	-9.22511
師古	-9.22693
三品	-9.2279
五千	-9.22915
佩	-9.22939
䝉	-9.22993
三人	-9.23059
琳	-9.23136
渉	-9.23178
篤	-9.23284
根	-9.23289
頓	-9.23347
錦	-9.23897
葢	-9.23938
操	-9.23947
錯	-9.23956
儲	-9.23978
奚	-9.24091
虛	-9.24135
護	-9.24329
擬	-9.24416
庚子	-9.24418
又有	-9.24572
六百	-9.24701
赫	-9.24784
吏部	-9.24791
祝	-9.24848
穀	-9.25026
奠	-9.25092
觧	-9.25122
未有	-9.25252
轉運使	-9.25406
輅	-9.25573
茶	-9.25581
之道	-9.25634
鴻	-9.25638
晦	-9.25734
戴	-9.25782
壬寅	-9.25861
旅	-9.25927
乏	-9.25967
提	-9.26101
諸州	-9.26107
之士	-9.26146
二十五	-9.26249
齊王	-9.26258
州節度使	-9.26315
停	-9.26431
尚書令	-9.26574
珪	-9.26689
復為	-9.26731
丁丑	-9.27059
鐘	-9.2716
鑄	-9.27168
丁亥	-9.27292
蝕	-9.27348
其家	-9.27365
誣	-9.27386
壬申	-9.27449
南陽	-9.2746
咎	-9.27462
之時	-9.27532
隠	-9.27564
書曰	-9.27576
賤	-9.27592
中國	-9.27636
甲午	-9.27801
之意	-9.27981
讀曰	-9.2801
閉	-9.28055
壬子	-9.28094
歎	-9.28222
悼	-9.28256
秉	-9.28329
辱	-9.28351
茍	-9.28359
辯	-9.28408
恨	-9.28411
細	-9.28468
盟	-9.28481
翟	-9.28482
不如	-9.28502
庚午	-9.28625
甲申	-9.28675
貞觀	-9.28746
安國	-9.28769
賣	-9.28776
協	-9.2878
抑	-9.28792
時年	-9.28922
辛未	-9.2894
壬辰	-9.29054
彭城	-9.29089
數十	-9.29106
不見	-9.29118
僕	-9.29148
領軍	-9.29258
庚寅	-9.29282
諸路	-9.29304
太平	-9.29309
熒惑	-9.29317
汾	-9.29516
乙亥	-9.29565
黑	-9.29596
裁	-9.29658
聴	-9.29674
子也	-9.29705
武王	-9.2971
之禮	-9.29749
塔	-9.29784
攸	-9.29815
考證	-9.29863
今日	-9.29913
皇子	-9.29938
沛	-9.30033
甲辰	-9.30135
癸酉	-9.30161
晋	-9.30167
十四年	-9.30291
朗	-9.30309
臧	-9.30319
吏部尚書	-9.3035
壬午	-9.30359
牢	-9.3041
乙未	-9.30445
凖	-9.30497
庚申	-9.30527
給事中	-9.3057
▁(	-9.30604
戊申	-9.30659
是為	-9.30663
擊之	-9.30697
照	-9.30716
辛亥	-9.30757
彰	-9.30763
耶律	-9.30765
殘	-9.30864
區	-9.30915
宗室	-9.30946
閏	-9.3114
特穆爾	-9.31282
斛	-9.313
丁酉	-9.31387
歡	-9.31445
辛丑	-9.31535
吴	-9.31598
内史	-9.31656
太白	-9.31719
戊寅	-9.31727
獸	-9.31753
答	-9.31772
不從	-9.31775
不復	-9.31776
旋	-9.31782
亷	-9.31814
癸未	-9.31859
墓	-9.31874
藝	-9.31906
乙丑	-9.32026
劒	-9.32165
戊午	-9.32344
溢	-9.32509
麟	-9.32655
千户	-9.32667
湘	-9.32669
迹	-9.32691
國之	-9.32816
孰	-9.32879
已上	-9.33197
饗	-9.33307
暉	-9.33339
丙午	-9.33369
政事	-9.33538
士卒	-9.33583
趣	-9.33628
岸	-9.33672
之制	-9.33692
饒	-9.33761
惜	-9.33841
哩	-9.33859
析	-9.33864
辛酉	-9.33865
乙酉	-9.33922
漢書	-9.34067
煩	-9.34076
遭	-9.34131
莊宗	-9.34146
江陵	-9.3415
率衆	-9.34188
大将軍	-9.34334
随	-9.34503
祿	-9.34697
屠	-9.34713
恤	-9.34885
慕	-9.35002
漏	-9.35057
某	-9.35083
訟	-9.35133
十五年	-9.35146
育	-9.35201
辛	-9.35239
丁未	-9.35242
明堂	-9.35246
廉	-9.35509
戊子	-9.35552
昏	-9.35577
専	-9.35715
邵	-9.35793
得其	-9.35847
岐	-9.35912
討之	-9.36122
軍節度	-9.36148
幽州	-9.36301
○(	-9.3637
宰臣	-9.36375
驕	-9.36403
三司	-9.36405
羙	-9.36491
也音	-9.36494
溪	-9.36591
勃	-9.36633
令史	-9.36653
狄	-9.36805
二員	-9.36816
悲	-9.3682
伍	-9.36858
入朝	-9.3696
上下	-9.37011
勉	-9.37025
叙	-9.3711
受命	-9.3712
嵩	-9.37138
巨	-9.37197
喇	-9.37255
戊辰	-9.37263
花	-9.37344
誘	-9.37499
黜	-9.37596
惑	-9.37728
用之	-9.37747
七百	-9.37793
括	-9.37799
天下之	-9.38017
宇	-9.3804
舍人	-9.38226
丙申	-9.38238
郢	-9.38335
燒	-9.38337
二卷	-9.38386
貌	-9.38395
繁	-9.3841
南北	-9.38489
已下	-9.38505
旬	-9.38601
閭	-9.38619
偏	-9.38632
綏	-9.38776
尼	-9.38808
之義	-9.38831
髙麗	-9.38968
甲戌	-9.38971
璽	-9.38994
星出	-9.38998
遽	-9.39026
尚書省	-9.39044
肉	-9.39091
曰我	-9.39125
庚辰	-9.39279
徑	-9.39316
上疏	-9.39387
旌	-9.39431
殆	-9.39481
功臣	-9.39483
阻	-9.39539
癸丑	-9.39595
丁巳	-9.39652
侍郎	-9.39659
乙巳	-9.39677
癸亥	-9.39682
其言	-9.39886
丙寅	-9.3992
跪	-9.3998
當時	-9.40029
恃	-9.40054
紹興	-9.40077
之心	-9.40186
敗之	-9.40241
河中	-9.40244
神武	-9.40325
柔	-9.40472
悟	-9.40586
斥	-9.40715
峻	-9.4089
(○	-9.40942
父子	-9.40946
十六年	-9.40948
童	-9.40995
本紀	-9.41089
壘	-9.41329
是嵗	-9.41343
辛巳	-9.41461
京兆	-9.41489
莽	-9.41496
偃	-9.4154
宼	-9.41583
同知	-9.41629
帝曰	-9.41712
哲	-9.41745
曰臣	-9.41775
余	-9.41955
明宗	-9.4198
監察御史	-9.41986
匿	-9.42095
絲	-9.42107
牲	-9.42292
丙子	-9.42341
骨	-9.42375
未幾	-9.42381
丙辰	-9.42397
胥	-9.42416
許之	-9.42427
之言	-9.42481
栁	-9.42539
屯田	-9.42616
湏	-9.42652
脱	-9.42741
俾	-9.42745
㧞	-9.42909
午	-9.42958
而去	-9.43048
猛	-9.43086
趙王	-9.4319
郡縣	-9.43281
秦王	-9.43352
以功	-9.43484
戊戌	-9.43581
植	-9.43634
以兵	-9.43679
數千	-9.43713
二千石	-9.43732
洞	-9.43827
太史	-9.43853
所部	-9.43862
鳯	-9.43869
綬	-9.44025
䖍	-9.44122
於此	-9.4415
數百	-9.44191
欽定四庫全書	-9.44335
壬戌	-9.44351
價	-9.44354
公孫	-9.44385
戲	-9.44397
弩	-9.44455
夾	-9.44586
頻	-9.44643
𨽻	-9.44771
抗	-9.44784
行臺	-9.44819
漕	-9.44822
禽	-9.44907
簿	-9.44976
測	-9.44995
地震	-9.45032
不過	-9.45055
人皆	-9.45062
黒	-9.45114
西京	-9.45126
一曰	-9.45142
頌	-9.45234
掾	-9.45236
大王	-9.45301
泗	-9.45392
而後	-9.45415
却	-9.45481
悔	-9.45499
採	-9.45534
晝	-9.45553
澄	-9.45586
績	-9.45696
霍	-9.45801
宛	-9.4603
徐州	-9.46454
二十八	-9.46476
子弟	-9.46598
堡	-9.46673
太和	-9.46715
小餘	-9.46783
八百	-9.46852
之法	-9.4694
郡國	-9.47094
卒子	-9.47095
陞	-9.47155
者以	-9.47176
韶	-9.472
灌	-9.4752
中書令	-9.47522
整	-9.47555
眞	-9.47704
痛	-9.47721
稼	-9.47751
萬户	-9.47756
父母	-9.47764
而還	-9.47772
妖	-9.47843
癸巳	-9.47942
洗	-9.48005
聖人	-9.4807
踐	-9.48075
逮	-9.48076
斬之	-9.48242
麗	-9.48328
涇	-9.48508
翰林學士	-9.4858
疆	-9.48612
潤	-9.48634
常侍	-9.48647
敎	-9.48692
又曰	-9.48784
冦	-9.48893
竭	-9.48934
齒	-9.48997
懸	-9.4906
數萬	-9.49138
聰	-9.49172
之功	-9.49183
中書侍郎	-9.49191
中山	-9.492
考證欽定四庫全書	-9.49273
參知政事	-9.49345
啟	-9.494
巢	-9.4942
騰	-9.49459
武徳	-9.49529
輦	-9.49548
孝武	-9.49554
圗	-9.49557
爽	-9.49596
壊	-9.49643
束	-9.49671
庚戌	-9.49767
百里	-9.49769
係	-9.49803
廷尉	-9.49882
濁	-9.49901
東都	-9.50121
貳	-9.50174
從事	-9.5027
談	-9.50283
十巻	-9.50316
沮	-9.5034
警	-9.50389
言之	-9.50591
閤門	-9.50593
墨	-9.5068
荆州	-9.50736
其年	-9.50758
俘	-9.50882
其餘	-9.50966
安石	-9.51079
虧	-9.51162
盤	-9.51171
昆	-9.51224
久之	-9.51236
百餘	-9.51263
太保	-9.51309
上言	-9.51408
蔽	-9.51449
偉	-9.51465
臯	-9.51546
度支	-9.51595
祁	-9.51627
稅	-9.51652
諌	-9.51773
昇	-9.51847
厭	-9.51862
熟	-9.51864
第二	-9.51883
夲	-9.51907
譽	-9.51937
突	-9.51959
江淮	-9.52022
托	-9.52055
成都	-9.52105
淫	-9.52174
隴	-9.52241
訛	-9.52269
丙戌	-9.52283
髙宗	-9.52408
錠	-9.52424
琅邪	-9.52435
争	-9.52456
布哈	-9.52525
瓊	-9.52568
翰林	-9.52682
郡太守	-9.52713
食邑	-9.52794
中外	-9.52859
又以	-9.53149
人之	-9.5323
抱	-9.53273
傳曰	-9.53314
嚕	-9.53343
千人	-9.53426
上曰	-9.53555
黄道	-9.53666
氐	-9.53904
軍中	-9.53911
元帥	-9.53973
勑	-9.54002
蠲	-9.54179
巡	-9.54212
東宫	-9.54266
僚	-9.54284
鈞	-9.54387
平章政事	-9.54465
開皇	-9.5455
將兵	-9.54567
城中	-9.54587
葛	-9.54678
遥	-9.54699
乖	-9.54707
至于	-9.54709
倚	-9.54741
曰朕	-9.54772
明帝	-9.54906
靜	-9.54906
三公	-9.5493
立為	-9.54973
幕	-9.55024
鄙	-9.5505
萬人	-9.55164
郡公	-9.55195
湛	-9.55284
曉	-9.55355
長子	-9.55356
貸	-9.55389
爰	-9.5554
江西	-9.55573
効	-9.5582
其地	-9.55838
拘	-9.55973
舎	-9.56036
荀	-9.56073
東平	-9.56223
襄陽	-9.56341
二州	-9.56423
侍御史	-9.56487
閤	-9.56806
駐	-9.5688
鮮	-9.56904
祈	-9.5701
緩	-9.57019
怪	-9.57064
閒	-9.57103
日行	-9.57125
元嘉	-9.57157
二十七	-9.57235
春正月	-9.57273
亞	-9.57435
段	-9.57442
欲以	-9.57512
行營	-9.57565
誓	-9.5763
内侍	-9.5784
屏	-9.57872
祖宗	-9.57893
憚	-9.5809
巖	-9.5816
不行	-9.5825
州郡	-9.58331
十七年	-9.58448
緒	-9.58505
千餘	-9.58545
項羽	-9.58551
安撫	-9.58581
釐	-9.58581
沛公	-9.58711
準	-9.58773
頴	-9.58793
肇	-9.58855
故曰	-9.58928
羽林	-9.5894
自今	-9.58949
二十一	-9.59011
押	-9.59073
敷	-9.59152
冕	-9.59191
皆以	-9.59207
都監	-9.59223
先帝	-9.59299
通鑑	-9.59362
尸	-9.59402
天寳	-9.5942
撃	-9.59422
之子	-9.59438
拉	-9.59489
暑	-9.5952
矜	-9.59559
足以	-9.59645
胄	-9.59703
大司馬	-9.59719
璧	-9.5979
樞	-9.59799
麥	-9.59814
聘	-9.59843
乃以	-9.59899
不肯	-9.60077
浚	-9.60205
訴	-9.60217
箭	-9.60399
㨗	-9.60486
二萬	-9.60495
柱	-9.60528
為人	-9.60598
本作	-9.60608
樞密院	-9.60611
斬首	-9.60642
亟	-9.60655
平陽	-9.60657
二十二	-9.60712
逢	-9.60785
之數	-9.60838
廂	-9.60885
妻子	-9.60956
熊	-9.60978
也言	-9.61007
萬餘	-9.61178
緣	-9.61228
樊	-9.61245
繇	-9.6125
古今	-9.61265
不為	-9.61323
都統	-9.61414
藉	-9.61449
番	-9.61511
契	-9.61517
堪	-9.61575
播	-9.61575
炎	-9.61607
毒	-9.61639
稷	-9.61658
俸	-9.6166
肥	-9.61668
閑	-9.61684
蕩	-9.61702
應劭曰	-9.61746
河間	-9.61751
沖	-9.61767
歛	-9.61842
相國	-9.61855
鸞	-9.61923
擁	-9.61934
縁	-9.61994
復置	-9.62014
巫	-9.62015
百八十	-9.62136
觀察使	-9.62331
狼	-9.62335
不用	-9.62393
各一	-9.6243
更名	-9.62436
豫章	-9.62492
誦	-9.62518
巾	-9.62529
纂	-9.62563
弑	-9.62564
寃	-9.62669
舅	-9.62716
海陵	-9.62794
賂	-9.62833
四海	-9.62852
河陽	-9.62918
己亥	-9.62976
寕	-9.62994
荘	-9.63056
十八年	-9.63103
隙	-9.63135
製	-9.63157
第三	-9.6318
激	-9.63329
跡	-9.63372
中興	-9.63471
滋	-9.63511
諾	-9.63532
蝗	-9.63542
麾	-9.63549
五日	-9.63576
衝	-9.63654
等處	-9.63657
而無	-9.63757
大敗	-9.63807
謨	-9.63812
以前	-9.63866
褒	-9.63927
賓	-9.63947
閲	-9.63969
五人	-9.64094
先生	-9.64174
仇	-9.64215
借	-9.64224
構	-9.64258
引兵	-9.64289
料	-9.64397
恣	-9.64407
都指揮使	-9.64425
矯	-9.64514
宗正	-9.64529
禪	-9.64586
為太子	-9.646
邸	-9.64721
陜	-9.64757
紅	-9.64771
伏誅	-9.64878
璋	-9.64909
仁宗	-9.64998
欣	-9.65085
凝	-9.65111
況	-9.65115
憤	-9.65137
三十六	-9.65197
欺	-9.65291
衛將軍	-9.6535
議者	-9.65369
周公	-9.65701
罔	-9.65711
曰卿	-9.65898
拱	-9.65965
揖	-9.65986
通判	-9.66118
小分	-9.66142
輪	-9.66144
是日	-9.66163
己未	-9.66215
巧	-9.66227
繡	-9.66241
留後	-9.66252
邠	-9.66261
沿	-9.66265
畿	-9.66287
綿	-9.66396
東海	-9.66404
豆	-9.66462
狐	-9.66521
溝	-9.66536
突厥	-9.66552
㡬	-9.66622
桂	-9.66663
潁	-9.66687
秘	-9.66782
含	-9.66794
辦	-9.66798
光武	-9.6687
曜	-9.66947
持節	-9.66949
芝	-9.67204
左傳	-9.67219
岱	-9.67271
亢	-9.67272
乙	-9.67276
喻	-9.67338
衙	-9.67524
雞	-9.67582
縣令	-9.67649
大軍	-9.67729
門外	-9.6776
已而	-9.6777
文王	-9.67878
如淳曰	-9.6788
奏請	-9.67881
塲	-9.67905
皆有	-9.67913
十人	-9.67951
殿中	-9.67973
千餘人	-9.68147
互	-9.68156
婁	-9.68161
無不	-9.68242
也師古曰	-9.68298
者不	-9.68302
祕書	-9.68303
忍	-9.68335
婦人	-9.68409
諸道	-9.68456
黄帝	-9.68471
亦不	-9.68558
濫	-9.68567
少卿	-9.68678
嫁	-9.68714
己丑	-9.68799
萬五千	-9.68832
豹	-9.68913
各一人	-9.68925
三萬	-9.68939
贓	-9.68942
大理	-9.6899
其罪	-9.69066
軍士	-9.6912
君臣	-9.69172
己巳	-9.69183
洽	-9.69243
四品	-9.69249
練	-9.69251
扇	-9.69253
有餘	-9.69366
用事	-9.6939
一度	-9.69391
之上	-9.69398
官吏	-9.69423
傑	-9.69719
中書舍人	-9.6973
金吾	-9.69803
曰今	-9.6982
證	-9.69882
禧	-9.69903
二十年	-9.70182
彪	-9.70292
五星	-9.70459
閔	-9.70533
河西	-9.70538
溫	-9.70542
二十三	-9.70552
不受	-9.70557
競	-9.70576
諸子	-9.70742
牒	-9.70749
必有	-9.7079
可謂	-9.70804
陽縣	-9.70807
賔客	-9.7085
城縣	-9.70876
州防禦使	-9.70882
輩	-9.70954
字子	-9.70995
甚衆	-9.7104
之際	-9.71064
檄	-9.71076
排	-9.71224
軍事	-9.71341
四川	-9.71518
京城	-9.71543
貝	-9.71566
入為	-9.716
不聽	-9.71606
㑹稽	-9.71656
逵	-9.71665
檜	-9.71685
展	-9.71714
郡守	-9.71719
座	-9.71736
乙卯	-9.71789
邢	-9.71792
有大	-9.71847
隂陽	-9.71848
東井	-9.71867
而死	-9.72081
恕	-9.72093
鑒	-9.72106
大都督	-9.72118
紂	-9.72131
小人	-9.72191
詔以	-9.72327
己酉	-9.72374
奢	-9.72419
辛卯	-9.72586
波	-9.72605
有罪	-9.72638
文學	-9.72667
叚	-9.72723
摩	-9.72731
執政	-9.72735
弦	-9.7282
元豐	-9.72937
成王	-9.72952
吐蕃	-9.72954
大明	-9.7299
東京	-9.73008
為大	-9.73078
隔	-9.7309
場	-9.73097
所得	-9.73121
慕容	-9.73199
大破之	-9.73204
與之	-9.73245
國王	-9.73444
進封	-9.73453
有差	-9.7346
墜	-9.7347
昧	-9.73485
劫	-9.73487
清河	-9.73527
糴	-9.73557
發兵	-9.73757
王者	-9.73783
淑	-9.7379
所殺	-9.73819
犬	-9.73856
加時	-9.73958
晉陽	-9.73976
膳	-9.73991
孝文	-9.74019
官至	-9.74054
時人	-9.74061
鋭	-9.74144
代之	-9.7421
之日	-9.74218
億	-9.74234
愍	-9.74308
弟子	-9.74325
三分	-9.74382
大怒	-9.74536
銓	-9.74581
長沙	-9.74678
一時	-9.74721
丁卯	-9.74736
紛	-9.74752
恢	-9.74756
遣人	-9.74778
名也	-9.7481
兗	-9.74815
車騎	-9.74832
知之	-9.75233
南京	-9.7526
中郎將	-9.75284
完	-9.75433
贍	-9.75452
劭	-9.75524
寅	-9.75555
酋	-9.75609
二縣	-9.75696
娶	-9.75799
御史臺	-9.75852
禮部	-9.75905
建武	-9.75941
圓	-9.75977
賜爵	-9.76014
桓公	-9.76112
奇	-9.76156
廣陵	-9.76161
挺	-9.76196
匠	-9.76218
腹	-9.76222
翁	-9.76229
旣	-9.76313
浦	-9.7636
溺	-9.76383
東方	-9.76462
言其	-9.76478
楚王	-9.76632
宣帝	-9.76808
人主	-9.76835
行至	-9.76887
濬	-9.76887
三巻	-9.76933
項	-9.76941
千五百	-9.77029
臣等	-9.77064
大水	-9.77139
光禄大夫	-9.77187
一千	-9.77239
圭	-9.7728
元帝	-9.77318
之徒	-9.77353
缺	-9.77393
膺	-9.77406
狂	-9.77479
自殺	-9.77551
數日	-9.77553
元祐	-9.77556
將士	-9.77561
裏	-9.77612
酌	-9.77673
不然	-9.77705
舉兵	-9.77706
庾	-9.77721
譏	-9.77886
題	-9.78008
僕射	-9.78026
涼	-9.78099
鋒	-9.78146
緯	-9.78148
村	-9.78152
嶽	-9.78205
南郊	-9.78217
一十	-9.78226
銜	-9.78232
率兵	-9.78283
究	-9.78305
不宜	-9.78378
淺	-9.78449
碑	-9.78521
以備	-9.78561
二十六	-9.78563
左丞	-9.78603
綽	-9.78683
謬	-9.78735
來朝	-9.78856
欵	-9.78881
統軍	-9.78972
軒轅	-9.79068
癸卯	-9.79095
慧	-9.79191
黄門	-9.79233
明日	-9.79297
嵗星	-9.79467
五品	-9.79531
不出	-9.79655
掖	-9.79656
亦有	-9.79668
為左	-9.79682
譙	-9.79747
粲	-9.79792
沉	-9.7983
誼	-9.79923
二十九	-9.79935
開府	-9.79965
其衆	-9.80078
其父	-9.80084
初為	-9.80109
行之	-9.80217
六人	-9.80232
滑	-9.80238
以疾	-9.80263
建康	-9.80355
元和	-9.80368
不當	-9.80449
暮	-9.8045
譯	-9.80627
祔	-9.80686
太常卿	-9.80724
綰	-9.80825
芳	-9.80839
直學士	-9.80897
麻	-9.80915
敖	-9.80943
霜	-9.80958
祕	-9.81019
追封	-9.81083
諒	-9.81117
為一	-9.81132
其人	-9.81201
邀	-9.81217
百餘人	-9.81227
蟲	-9.8128
之人	-9.81291
枉	-9.81364
傳云	-9.81406
之外	-9.81409
論語	-9.81538
疎	-9.81594
冢	-9.8166
歆	-9.81665
用兵	-9.81763
亨	-9.81767
萊	-9.81874
觀察	-9.81916
鉞	-9.81972
舊制	-9.81996
依舊	-9.82029
遼東	-9.82119
肅宗	-9.82173
頒	-9.82256
不勝	-9.82264
樞密使	-9.82353
渤海	-9.82378
濮	-9.82445
濟南	-9.82537
青州	-9.82637
琦	-9.82721
梓	-9.8275
滎陽	-9.8275
弔	-9.82851
州諸軍事	-9.82879
裔	-9.82891
卦	-9.82977
雖有	-9.83058
大定	-9.8312
贖	-9.83131
婚	-9.83182
奏曰	-9.83226
太僕	-9.83264
枝	-9.83277
嗟	-9.83283
大小	-9.83289
酉	-9.83338
賴	-9.83362
虐	-9.83391
上表	-9.83423
常山	-9.83438
曠	-9.83491
沃	-9.83516
卒贈	-9.83637
詢	-9.83699
百萬	-9.83755
謀反	-9.83846
禮儀	-9.83891
也故	-9.83955
謚	-9.83958
不至	-9.83975
大將	-9.83977
誅之	-9.84166
寨	-9.84178
孺	-9.84215
建安	-9.84226
斂	-9.84265
彈	-9.8428
戰于	-9.84393
貴人	-9.84423
亳	-9.84477
帝崩	-9.84643
百一十	-9.84647
改封	-9.8468
畝	-9.84693
殿前	-9.84695
雙	-9.84719
耀	-9.84734
卒於	-9.84738
帝即位	-9.84812
瞻	-9.84825
系	-9.84947
壞	-9.8495
桀	-9.84962
繆	-9.84971
無以	-9.85018
筠	-9.85062
然則	-9.85079
詰	-9.85184
列侯	-9.85384
尚書左僕射	-9.8539
僭	-9.85398
不相	-9.85599
王師	-9.85664
國除	-9.85723
丑	-9.85728
好學	-9.85737
竄	-9.8581
艱	-9.85883
月犯	-9.85913
剋	-9.8592
織	-9.86072
二日	-9.86078
旨	-9.86105
刃	-9.86138
一年	-9.8615
為右	-9.86192
特進	-9.86197
靣	-9.86242
沂	-9.86255
僅	-9.86317
中尉	-9.86355
禮樂	-9.86414
劉氏	-9.86477
伺	-9.86489
指揮使	-9.86493
滯	-9.8663
駭	-9.86695
之罪	-9.86723
後漢	-9.86746
強	-9.86877
醉	-9.86896
當作	-9.86972
侯景	-9.87015
庶人	-9.87044
瀛	-9.87047
十九年	-9.87107
十餘萬	-9.87269
曰汝	-9.8732
齡	-9.87335
行事	-9.87403
琴	-9.87581
二十卷	-9.87597
恥	-9.87628
禮部尚書	-9.87702
輝	-9.87715
板	-9.87775
朔方	-9.87907
燕王	-9.88064
姜	-9.88066
自稱	-9.8811
神宗	-9.8818
大赦	-9.88187
人所	-9.88231
進爵	-9.88239
羡	-9.88239
真定	-9.88315
鼔	-9.88335
雀	-9.88353
翊	-9.88363
邕	-9.88413
像	-9.8844
驃騎	-9.88471
潁川	-9.88555
圜	-9.88577
?」	-9.88626
太白犯	-9.88639
包	-9.88684
蹈	-9.8872
其母	-9.88731
殺人	-9.88963
叅	-9.89007
㓜	-9.89022
徐州刺史	-9.89095
項王	-9.89201
状	-9.89212
暇	-9.89313
徇	-9.89313
縣屬	-9.89336
不欲	-9.89361
慢	-9.89443
福建	-9.89443
巴延	-9.89483
不盡	-9.89501
乃止	-9.8954
敞	-9.8958
零	-9.89616
涉	-9.89618
夜半	-9.89632
城下	-9.89669
陽侯	-9.89672
之名	-9.89679
少府	-9.89735
宦	-9.89786
總管府	-9.89827
諷	-9.8985
袍	-9.89893
進退	-9.89959
子曰	-9.89985
軫	-9.90009
檀	-9.9005
上都	-9.90091
扈	-9.90116
二子	-9.90135
浙	-9.90206
上柱國	-9.90228
中書省	-9.90263
虢	-9.90277
墳	-9.90295
又言	-9.90406
遐	-9.9042
勾	-9.90485
吹	-9.90521
帝王	-9.90528
兖	-9.90545
萬物	-9.90565
潘	-9.90624
塵	-9.90737
劍	-9.90757
蛇	-9.90816
同中書門下平章事	-9.90846
平原	-9.90939
《	-9.90985
》	-9.90985
服䖍曰	-9.91025
|||	-9.91055
周禮	-9.91137
僖	-9.91175
豈可	-9.91225
宥	-9.91254
數年	-9.91268
嫌	-9.914
潞	-9.91409
三十五	-9.91465
之中	-9.91476
九百	-9.91484
歎曰	-9.91563
完顔	-9.91567
荅	-9.91634
潔	-9.91704
咸陽	-9.9171
也又	-9.91737
吐	-9.91794
陳留	-9.91821
坦	-9.91841
醜	-9.91842
酷	-9.91845
昴	-9.91852
修撰	-9.91877
見其	-9.91987
謁者	-9.9205
耆	-9.92054
户部	-9.92078
招討使	-9.92195
作亂	-9.92336
號曰	-9.92443
賛	-9.92565
丕	-9.92622
同平章事	-9.92624
熈	-9.92641
斌	-9.92646
諸司	-9.92758
収	-9.92889
鑿	-9.92902
狗	-9.92928
雍州	-9.92985
河内	-9.93006
兵部尚書	-9.93081
庚	-9.93087
不以	-9.93217
睦	-9.93218
汲	-9.93226
太學	-9.93279
時有	-9.93296
後世	-9.93405
鄰	-9.93458
髙帝	-9.93574
瑪	-9.93597
曰昔	-9.936
四十五	-9.93601
工部尚書	-9.93609
佞	-9.93716
昶	-9.93781
其國	-9.93831
十餘年	-9.93833
太康	-9.93882
脫	-9.93883
妙	-9.93936
不忍	-9.93989
未至	-9.94016
中有	-9.94019
古者	-9.94093
冀州	-9.94168
自此	-9.94176
孟康曰	-9.94178
金銀	-9.94181
之衆	-9.94186
奏事	-9.94271
門下	-9.94403
愧	-9.94404
暈	-9.94417
奈何	-9.94424
去之	-9.94457
人心	-9.9448
汝南	-9.94546
吏民	-9.94559
中都	-9.94577
貽	-9.94587
取之	-9.94607
者為	-9.94635
中丞	-9.94683
不與	-9.94687
豫州刺史	-9.94731
捨	-9.94747
十餘人	-9.94759
以示	-9.94801
糾	-9.94852
知制誥	-9.94884
詔書	-9.95034
損益	-9.95064
則天	-9.95076
瓌	-9.95125
文字	-9.95135
晟	-9.95147
數月	-9.95213
萬二千	-9.95283
廢帝	-9.95323
戶	-9.95382
悅	-9.9541
集賢	-9.95417
夏人	-9.95427
牟	-9.95438
域	-9.95474
四時	-9.95521
不應	-9.95591
使持節	-9.95753
淹	-9.95803
湖南	-9.95848
穿	-9.95855
襃	-9.95879
芻	-9.95929
漆	-9.95935
起兵	-9.96119
聞其	-9.96141
陂	-9.96166
故也	-9.96208
讒	-9.96224
輕重	-9.96273
殺其	-9.96343
鐸	-9.9636
脅	-9.96391
||	-9.96402
五行	-9.96443
軍都指揮使	-9.96483
熙寧	-9.96536
不滿	-9.96591
貞元	-9.96635
箕	-9.96797
荷	-9.96813
裳	-9.96831
飢	-9.96875
軒	-9.96886
夙	-9.96889
鷹	-9.9689
惠王	-9.96919
一作	-9.96938
敝	-9.97153
暢	-9.97182
不合	-9.97189
邱	-9.97221
泥	-9.97224
凌	-9.97226
忿	-9.97248
風俗	-9.97262
那	-9.97297
在位	-9.97298
名曰	-9.97303
鄉里	-9.97348
防禦	-9.9737
磨	-9.97403
海内	-9.97428
卧	-9.97497
汗	-9.97569
五帝	-9.97591
晚	-9.97605
并州	-9.97606
詠	-9.97632
可得	-9.9767
挾	-9.97682
之屬	-9.97712
隴西	-9.97724
鐡	-9.97745
以待	-9.97774
儼	-9.97968
齎	-9.98028
言者	-9.98081
柳	-9.98113
昭王	-9.9812
三十二	-9.98171
侈	-9.98175
柄	-9.98289
古之	-9.98337
熹	-9.98421
陛	-9.98466
苗	-9.9849
恪	-9.9854
取其	-9.98546
傍	-9.98625
益州	-9.98776
一百二十	-9.98811
塘	-9.98902
努	-9.98983
譜	-9.99032
䝉古	-9.99132
各有	-9.99183
大名	-9.99189
未能	-9.99236
僉	-9.99433
百户	-9.99488
千三百	-9.99504
册	-9.99538
瀆	-9.99639
瓚	-9.99676
陟	-9.99698
千二百	-9.99712
逋	-9.99749
謗	-9.99766
北面	-9.99778
本名	-9.99802
其弟	-9.99835
叡	-9.99922
冶	-9.99936
笞	-9.99945
繩	-9.99957
寫	-10.0002
下詔	-10.0007
莫敢	-10.0015
繕	-10.0016
熒惑犯	-10.0019
大風	-10.0024
雉	-10.0025
住	-10.0027
請以	-10.0036
其名	-10.0037
漳	-10.0045
諸軍事	-10.0047
姓名	-10.0049
戈	-10.0066
左丞相	-10.0066
鬱	-10.0071
甞	-10.0084
苛	-10.0095
誡	-10.0102
柴	-10.0104
陪	-10.0112
中郎	-10.0122
奄	-10.0125
攻之	-10.013
西域	-10.0132
皷	-10.0138
死之	-10.014
䕶軍	-10.0141
景帝	-10.0141
姊	-10.0147
等州	-10.0151
涿	-10.0158
則有	-10.0159
上黨	-10.016
邁	-10.0162
黔	-10.0168
不利	-10.0177
禱	-10.0181
江東	-10.0184
開封	-10.0193
淄	-10.0193
阜	-10.0198
酈	-10.0199
畔	-10.0203
鬻	-10.0208
來屬	-10.0208
乂	-10.0209
山南	-10.0211
眷	-10.0213
扎	-10.022
定州	-10.022
千戸	-10.0221
其意	-10.0229
未及	-10.023
狩	-10.0236
所居	-10.0238
釋之	-10.0239
未可	-10.0239
誨	-10.0242
劉攽曰	-10.0245
七日	-10.0256
冒	-10.0256
憲宗	-10.0267
閻	-10.0271
待制	-10.0272
家人	-10.0272
雲南	-10.0273
隄	-10.0274
憐	-10.0278
高麗	-10.0279
監軍	-10.028
萬石	-10.0286
鄒	-10.0289
刑部	-10.0292
萬三千	-10.0293
魏王	-10.0294
都督府	-10.0302
府事	-10.0303
豈不	-10.0313
隅	-10.032
之計	-10.0331
左僕射	-10.0336
大事	-10.0337
出身	-10.0338
諸郡	-10.0339
茅	-10.0341
泄	-10.0344
㦸	-10.0345
門下侍郎	-10.0346
噶	-10.0348
禮記	-10.0353
尚書右僕射	-10.0356
泰山	-10.0365
文章	-10.0366
彧	-10.0366
釁	-10.0366
嘉之	-10.0367
猷	-10.0372
人情	-10.0372
燭	-10.0377
由此	-10.0377
始皇	-10.0386
記室	-10.0386
右僕射	-10.0386
矩	-10.0391
尊號	-10.0395
遣其	-10.0397
大餘	-10.0401
召為	-10.0404
消	-10.0406
上帝	-10.0406
賁	-10.0409
劇	-10.0411
中軍	-10.0416
餉	-10.0422
揆	-10.0423
嫡	-10.0429
吏部侍郎	-10.043
庶子	-10.044
足下	-10.0443
自古	-10.0454
償	-10.0455
坤	-10.0458
撥	-10.0466
版	-10.0471
太隂犯	-10.0475
活	-10.0484
西方	-10.0488
師古曰言	-10.0489
第四	-10.0489
武德	-10.0496
之故	-10.0498
赤道	-10.0502
達嚕噶齊	-10.0503
雲中	-10.0514
張晏曰	-10.0516
永興	-10.0522
鹽鐵	-10.0524
分為	-10.0525
五萬	-10.0533
卽	-10.0534
宣王	-10.0535
平章事	-10.0537
晷	-10.0539
曰臣聞	-10.0542
眉	-10.0547
千六百	-10.055
裂	-10.0558
梁王	-10.057
者亦	-10.0576
以獻	-10.059
軍民	-10.0593
㢘	-10.0598
大都	-10.0601
味	-10.0602
隐	-10.0602
丙	-10.0607
輟	-10.0609
桃	-10.062
謂曰	-10.0632
廣州	-10.0638
魁	-10.0639
世子	-10.0639
..「	-10.0642
疋	-10.0647
宇文	-10.0654
庻	-10.0665
柵	-10.067
第五	-10.0672
顥	-10.0676
邈	-10.0678
芒	-10.0678
文公	-10.0682
筵	-10.0686
妹	-10.0687
尚書左丞	-10.0687
富貴	-10.0687
訥	-10.0696
廻	-10.0698
穰	-10.0698
什	-10.0699
鞭	-10.0702
藻	-10.0714
三十三	-10.0721
疫	-10.073
戾	-10.0731
不可以	-10.0734
大同	-10.0734
佗	-10.0736
鴻臚	-10.0739
咨	-10.0739
二十三年	-10.0748
冲	-10.0751
括地志云	-10.0757
如是	-10.0759
制置	-10.0765
萬七千	-10.0781
苟	-10.079
慙	-10.0798
安南	-10.0817
汎	-10.0818
棺	-10.0823
安撫使	-10.0824
飬	-10.0831
安定	-10.0836
罷之	-10.0836
國史	-10.0846
披	-10.0846
即日	-10.0849
鞠	-10.0856
常平	-10.0859
三十卷	-10.086
鬬	-10.0867
起居	-10.0867
寓	-10.0869
禾	-10.0874
縮	-10.0881
鞍	-10.0887
曰君	-10.0895
為亂	-10.0897
其先	-10.0908
閏月	-10.0909
侍衛	-10.091
漢中	-10.0911
神主	-10.0915
朔日有食之	-10.0917
禘	-10.092
施行	-10.0925
辜	-10.0926
蔚	-10.0932
知名	-10.0932
控	-10.094
栗	-10.0942
五卷	-10.0945
號為	-10.0948
惇	-10.0949
江州	-10.095
之臣	-10.0954
奉詔	-10.0957
指揮	-10.0959
第十	-10.096
玄宗	-10.096
是年	-10.0961
昉	-10.0961
開封府	-10.0963
二十一年	-10.0968
綜	-10.0973
非也	-10.0973
兖州	-10.0978
秦州	-10.0978
改元	-10.0982
惡之	-10.0982
牽	-10.0986
寡人	-10.099
永安	-10.099
三十一	-10.0995
天文	-10.0996
卯	-10.0996
何如	-10.0998
一等	-10.0999
徧	-10.1
皇甫	-10.1004
睿	-10.1008
朴	-10.1011
乃遣	-10.1012
乗之	-10.1013
教授	-10.1015
榆	-10.1023
政和	-10.1028
近臣	-10.1036
長公主	-10.1036
得失	-10.1037
蠶	-10.1039
兄子	-10.1041
舎人	-10.1044
俯	-10.1056
未㡬	-10.1058
制度	-10.1072
多所	-10.1073
武定	-10.1081
四十八	-10.1084
郊祀	-10.1092
罵	-10.1095
太平興國	-10.1095
𦵏	-10.1097
公事	-10.1101
八人	-10.1112
頃之	-10.1112
又云	-10.1114
瓦	-10.112
帷	-10.1125
失其	-10.1129
添	-10.1135
晝夜	-10.1136
員外	-10.1137
王氏	-10.1137
璞	-10.1143
函	-10.1147
勁	-10.1147
右丞相	-10.1149
豫州	-10.1149
也夫	-10.1152
女直	-10.1153
二巻	-10.1162
鞫	-10.1168
遏	-10.1169
孚	-10.1171
穴	-10.1174
千八百	-10.1179
利害	-10.1183
之内	-10.1197
千四百	-10.1201
駿	-10.1206
夏至	-10.1206
便宜	-10.1206
較	-10.121
襄王	-10.1214
誥	-10.1216
前書	-10.1224
諸将	-10.1226
属	-10.1229
六品	-10.123
又遣	-10.123
司農	-10.123
撫軍	-10.1231
緋	-10.1232
入見	-10.1233
新書	-10.1233
隕	-10.1237
勘	-10.1245
沔	-10.1247
黍	-10.1255
軰	-10.1255
安西	-10.1257
萬六千	-10.1259
柱國	-10.1269
光祿大夫	-10.1269
宦者	-10.1269
咸平	-10.1272
夔	-10.1275
為丞相	-10.1279
蘄	-10.1285
頼	-10.1309
廩	-10.1316
囊	-10.1324
摧	-10.1351
郤	-10.1352
徼	-10.1364
閩	-10.1375
掃	-10.1378
琛	-10.1386
琰	-10.1392
尒	-10.1393
奕	-10.1395
瑜	-10.1418
譚	-10.1419
怠	-10.1446
詭	-10.1463
褐	-10.1469
倒	-10.1478
牀	-10.1493
慟	-10.1493
紇	-10.1499
混	-10.1527
響	-10.1528
凉	-10.1534
恬	-10.1545
迫	-10.1546
哷	-10.1552
綂	-10.1564
韻	-10.1565
疲	-10.1574
讐	-10.1576
㓂	-10.1583
郁	-10.1597
?	-10.1608
街	-10.1619
衮	-10.1624
鞏	-10.1646
奎	-10.1655
頤	-10.1661
該	-10.167
歟	-10.1675
艾	-10.168
墮	-10.1686
耿	-10.1699
演	-10.173
穎	-10.1769
犀	-10.1775
綸	-10.1783
萌	-10.1788
皓	-10.1791
祫	-10.1793
准	-10.1797
儁	-10.18
沁	-10.1805
弛	-10.1825
甄	-10.1828
洺	-10.183
諤	-10.1835
鉅	-10.1843
匪	-10.1861
磬	-10.1865
戊	-10.189
忤	-10.1901
鄆	-10.1911
翔	-10.1918
褚	-10.1926
棘	-10.1927
貲	-10.1928
堰	-10.1928
紳	-10.1951
彥	-10.1955
洋	-10.1995
姪	-10.2013
纔	-10.2013
溉	-10.2039
紙	-10.2039
堤	-10.2043
肯	-10.2058
唱	-10.2063
斡	-10.2087
薊	-10.2097
琮	-10.21
酬	-10.2119
旒	-10.2152
它	-10.2155
臂	-10.2177
諧	-10.218
耗	-10.219
杲	-10.219
崖	-10.2205
訊	-10.2206
嬪	-10.2208
勵	-10.2208
捷	-10.2214
滄	-10.2225
邇	-10.2238
鮑	-10.2244
換	-10.2247
蓄	-10.2249
窺	-10.2251
羲	-10.2251
潭	-10.2252
裘	-10.2257
亥	-10.2269
賚	-10.2276
溥	-10.2278
乳	-10.229
叟	-10.229
網	-10.236
填	-10.2371
刪	-10.2372
影	-10.2387
懲	-10.2387
隣	-10.2391
㸃	-10.2397
嚮	-10.2404
闔	-10.2404
髪	-10.2405
幷	-10.242
朋	-10.2423
內	-10.2438
栢	-10.2447
盾	-10.2464
饌	-10.2504
薪	-10.2508
撓	-10.2524
曇	-10.2529
彬	-10.2535
壤	-10.2574
𦙍	-10.2594
榷	-10.2596
呈	-10.2602
燾	-10.2615
迺	-10.2618
霧	-10.2644
畤	-10.2648
弋	-10.2651
潼	-10.2654
衢	-10.266
促	-10.2669
拯	-10.2681
玩	-10.2695
確	-10.271
捍	-10.2714
憑	-10.2714
洲	-10.2714
捧	-10.2733
讎	-10.2745
廹	-10.2747
劔	-10.2748
宸	-10.2753
昨	-10.2756
叱	-10.2759
孽	-10.279
饋	-10.2792
琪	-10.2796
鶴	-10.2798
禀	-10.2807
疇	-10.2821
蓬	-10.283
艦	-10.2835
肩	-10.2835
替	-10.2841
埒	-10.2842
儻	-10.2856
銳	-10.2863
嗜	-10.2871
顗	-10.2874
屍	-10.2874
灼	-10.2888
瑾	-10.2901
販	-10.2902
譬	-10.2907
燔	-10.292
綵	-10.2977
璘	-10.2981
醴	-10.2998
碩	-10.3
值	-10.3016
愆	-10.3034
覩	-10.3048
寔	-10.3061
電	-10.3064
汪	-10.3073
焦	-10.3076
央	-10.3092
佑	-10.3107
郵	-10.3109
昻	-10.3111
返	-10.3114
逾	-10.3125
婢	-10.3131
逰	-10.3144
壓	-10.3155
銘	-10.3161
謐	-10.3164
棗	-10.3168
冗	-10.3171
浪	-10.3172
𤓰	-10.3174
躍	-10.3175
侮	-10.3181
潮	-10.3182
攷	-10.3189
轄	-10.3198
滕	-10.3211
途	-10.3211
幘	-10.3213
握	-10.3214
閱	-10.3235
姻	-10.3246
蔣	-10.3257
偶	-10.3263
刋	-10.3266
炳	-10.3274
巷	-10.3279
豎	-10.3281
惶	-10.3284
奬	-10.3287
鄜	-10.329
膠	-10.3296
枚	-10.3298
龎	-10.3309
殄	-10.3309
噐	-10.3312
洎	-10.3344
俠	-10.3347
軾	-10.3362
减	-10.3372
囉	-10.3382
浸	-10.3387
黥	-10.3392
架	-10.3396
韜	-10.3403
匱	-10.3408
羞	-10.341
蠡	-10.3412
翦	-10.3417
弁	-10.3422
潜	-10.3425
黯	-10.3428
揺	-10.343
曼	-10.3432
:	-10.3434
幄	-10.3442
漂	-10.3442
迪	-10.3452
䑓	-10.346
札	-10.3462
械	-10.3463
簒	-10.3485
濠	-10.3497
汙	-10.35
甸	-10.3523
馭	-10.3525
囘	-10.3526
「	-10.3526
廓	-10.3526
漁	-10.3531
觸	-10.3535
剽	-10.356
棣	-10.3564
暨	-10.3576
闢	-10.3579
縛	-10.3579
埋	-10.3582
裝	-10.364
群	-10.3643
闇	-10.366
睢	-10.3675
毫	-10.3678
敘	-10.368
鶻	-10.3685
斧	-10.3693
綾	-10.3698
繒	-10.3699
繪	-10.3706
健	-10.3714
綴	-10.3718
悖	-10.3721
藍	-10.3728
偕	-10.377
伎	-10.3787
鑑	-10.3788
忻	-10.38
臻	-10.3804
聊	-10.3809
鬭	-10.3818
豕	-10.3847
曄	-10.3847
寘	-10.3859
腰	-10.3871
壺	-10.3878
壮	-10.3911
彗	-10.3934
廪	-10.3956
䕫	-10.4014
昊	-10.4023
貎	-10.4026
奸	-10.4037
戌	-10.4039
阮	-10.4049
遞	-10.405
瑀	-10.4071
懇	-10.4073
緡	-10.4081
迷	-10.4087
飯	-10.4089
㤗	-10.4106
卭	-10.4113
瘞	-10.4124
喬	-10.4142
捐	-10.4145
漠	-10.4147
踵	-10.4165
梅	-10.417
岡	-10.4173
梟	-10.4181
恂	-10.4186
姿	-10.4186
陕	-10.4207
球	-10.4217
楷	-10.4233
簽	-10.4239
泛	-10.4266
團	-10.4293
髮	-10.4309
覃	-10.4321
敇	-10.4331
顒	-10.4338
玠	-10.4346
駰	-10.4361
寝	-10.4366
矟	-10.4376
沐	-10.4381
騷	-10.4385
銷	-10.4396
倖	-10.44
囂	-10.4405
輯	-10.4418
隰	-10.4425
膏	-10.444
瓘	-10.4452
蘓	-10.4473
倦	-10.4479
菑	-10.451
倡	-10.4513
穢	-10.4516
胤	-10.4529
笏	-10.4549
筮	-10.4551
岑	-10.4553
昱	-10.4554
脚	-10.4571
刼	-10.4584
礪	-10.4587
淪	-10.4589
膽	-10.459
牌	-10.4596
泊	-10.4597
欒	-10.4623
卞	-10.4623
眼	-10.4627
搆	-10.4628
悍	-10.4638
銖	-10.464
賄	-10.4647
鉤	-10.4659
莒	-10.4663
駟	-10.4664
!	-10.4664
扼	-10.4677
鵲	-10.4692
底	-10.4702
臘	-10.4717
雕	-10.4721
迭	-10.4722
猜	-10.4724
訣	-10.4738
犢	-10.474
熾	-10.4742
譴	-10.476
伸	-10.4778
愿	-10.4817
炭	-10.4833
廐	-10.4833
朒	-10.4859
佳	-10.4872
鏡	-10.4874
飭	-10.4889
抄	-10.4891
趾	-10.4891
謫	-10.4893
籌	-10.4907
陋	-10.4922
濤	-10.4948
龔	-10.495
煥	-10.4955
措	-10.4955
椿	-10.4971
婺	-10.4983
杞	-10.4985
芮	-10.4992
拂	-10.4993
遮	-10.501
紗	-10.5013
澹	-10.5014
鈎	-10.5047
几	-10.5051
燧	-10.5058
爼	-10.5067
壬	-10.5068
壻	-10.5074
豨	-10.509
冡	-10.509
𤼵	-10.5094
槍	-10.5103
朂	-10.511
袴	-10.5116
氷	-10.5149
驪	-10.5149
毗	-10.5153
昬	-10.5168
迄	-10.5173
珂	-10.5186
寂	-10.5197
鞅	-10.5209
殁	-10.5213
掘	-10.5237
絡	-10.5241
染	-10.525
絃	-10.5262
攘	-10.5273
騶	-10.5288
冉	-10.5289
狹	-10.5315
隘	-10.5329
了	-10.5332
冰	-10.5332
㳺	-10.5338
耻	-10.5339
兇	-10.5351
凱	-10.5351
苖	-10.5354
鎔	-10.5369
盎	-10.5392
冐	-10.5394
弄	-10.5395
旄	-10.5416
祉	-10.5429
涕	-10.5454
酣	-10.5456
瓜	-10.5469
鎬	-10.5473
頸	-10.5477
愔	-10.5498
剖	-10.5502
峽	-10.551
贄	-10.5515
哥	-10.5538
款	-10.5545
轅	-10.5551
舌	-10.5561
盥	-10.5569
亰	-10.5579
絕	-10.5588
参	-10.5597
般	-10.56
黼	-10.5612
膝	-10.5616
粗	-10.5621
賻	-10.5642
惲	-10.5646
截	-10.5661
歙	-10.5665
佃	-10.5668
勛	-10.5671
詆	-10.5688
壹	-10.569
劵	-10.5699
懌	-10.5734
殯	-10.5735
桐	-10.5746
綺	-10.575
快	-10.5751
嶠	-10.5751
閼	-10.5772
暫	-10.5794
覇	-10.5797
枕	-10.5799
侃	-10.5803
帯	-10.5803
杭	-10.5807
僻	-10.5835
奐	-10.5837
柩	-10.5838
嶷	-10.584
埶	-10.5845
諮	-10.5848
䕃	-10.585
棟	-10.586
杯	-10.5862
婆	-10.5875
漲	-10.5876
餓	-10.59
燎	-10.5901
苻	-10.5902
埽	-10.592
僮	-10.592
騫	-10.5927
脈	-10.5934
廸	-10.5948
壅	-10.5963
股	-10.5975
貯	-10.5981
恱	-10.5986
贇	-10.5988
柏	-10.6004
汜	-10.6005
駒	-10.601
駱	-10.6027
槩	-10.6027
朞	-10.6036
幡	-10.6039
吞	-10.6053
勣	-10.6066
僑	-10.6067
禎	-10.609
爻	-10.6092
尅	-10.6094
孜	-10.6097
彛	-10.6134
熱	-10.6135
閎	-10.614
晩	-10.6143
枯	-10.616
怯	-10.6163
瑟	-10.6175
禋	-10.6176
畋	-10.6197
褥	-10.6205
軻	-10.6206
俞	-10.6207
义	-10.6224
駮	-10.6227
搜	-10.6229
虹	-10.6237
瑱	-10.6251
拓	-10.6251
諜	-10.6252
纓	-10.6264
牘	-10.6267
櫟	-10.6269
迴	-10.629
渥	-10.6301
顛	-10.6303
陘	-10.6308
魂	-10.6322
酺	-10.6334
翠	-10.634
犧	-10.6342
譲	-10.6364
猾	-10.6371
曷	-10.6388
探	-10.6388
繞	-10.6406
寤	-10.6412
徭	-10.6429
覈	-10.643
蒸	-10.6458
搏	-10.6473
簾	-10.6474
跋	-10.6478
蚤	-10.648
糶	-10.6484
孛	-10.6489
禆	-10.6496
磁	-10.6511
圉	-10.6544
渙	-10.6545
諶	-10.6549
勰	-10.6554
僣	-10.6591
1	-10.6598
洮	-10.6602
轍	-10.6615
俶	-10.6617
闈	-10.6629
碎	-10.664
芬	-10.6643
悌	-10.6661
茹	-10.6662
緝	-10.6663
滛	-10.6665
油	-10.6677
籠	-10.668
濵	-10.6681
廊	-10.6685
俛	-10.6688
帑	-10.6704
獠	-10.6705
障	-10.6709
瑗	-10.6714
澗	-10.6726
艘	-10.674
覲	-10.6755
逞	-10.6779
笛	-10.678
㝠	-10.6786
璠	-10.6799
滔	-10.6814
闊	-10.682
珙	-10.6843
瀘	-10.6843
谿	-10.6849
朽	-10.6854
衫	-10.6868
壝	-10.6873
標	-10.6875
衷	-10.6894
祇	-10.6962
曦	-10.6978
驟	-10.6991
遑	-10.6995
驩	-10.7018
愼	-10.7026
譖	-10.7047
劣	-10.7068
賽	-10.708
渝	-10.7085
殖	-10.7092
產	-10.7101
帖	-10.7111
皎	-10.7119
袖	-10.7134
斃	-10.7134
汶	-10.7135
数	-10.7156
瑩	-10.7161
沆	-10.7163
雎	-10.7177
眾	-10.7178
羈	-10.7182
澶	-10.7183
評	-10.7185
模	-10.719
頡	-10.719
胃	-10.7216
奭	-10.7217
島	-10.7223
舘	-10.7232
奨	-10.7235
臥	-10.7236
錮	-10.7238
亘	-10.7255
莭	-10.7258
瑕	-10.726
蹇	-10.7273
斜	-10.7281
鑾	-10.7283
戢	-10.7285
羸	-10.7289
稚	-10.7313
讜	-10.7316
俎	-10.7323
妨	-10.7333
鄩	-10.7348
」	-10.7353
聶	-10.736
菜	-10.7362
捉	-10.7369
繹	-10.7378
鼠	-10.7381
葵	-10.7386
錡	-10.7395
頂	-10.74
技	-10.7409
厨	-10.7411
躡	-10.7412
際	-10.7425
慨	-10.7439
瓉	-10.744
橫	-10.745
亶	-10.7455
朐	-10.7458
狡	-10.7466
暗	-10.748
篆	-10.7485
槐	-10.7486
涪	-10.7505
媚	-10.7512
寖	-10.7512
闡	-10.7513
翻	-10.7515
曺	-10.752
蔵	-10.754
扞	-10.7541
竿	-10.7549
罹	-10.7562
謡	-10.7572
筭	-10.7577
丸	-10.759
遙	-10.7604
晃	-10.7606
紐	-10.7607
閬	-10.7614
摯	-10.7617
遍	-10.7635
癸	-10.7636
驢	-10.7636
潢	-10.7652
馴	-10.7661
坑	-10.7662
霄	-10.7663
鼻	-10.7666
郝	-10.7685
㳟	-10.7686
翕	-10.7717
㳂	-10.7733
觴	-10.7742
愁	-10.7743
琬	-10.7744
轂	-10.7744
想	-10.7751
坎	-10.7769
稔	-10.7787
蕪	-10.7794
兢	-10.7798
覬	-10.7798
療	-10.78
迥	-10.7817
映	-10.7819
寐	-10.7823
卬	-10.7824
竦	-10.7826
宕	-10.7843
莖	-10.7849
打	-10.7861
崧	-10.7866
稻	-10.7866
榜	-10.7868
伴	-10.7875
寮	-10.789
鴈	-10.791
挫	-10.7924
瑭	-10.7925
蚡	-10.7937
嫉	-10.7952
鋪	-10.7976
昂	-10.7976
5	-10.7983
煙	-10.8005
祧	-10.801
雒	-10.8021
縉	-10.8028
逄	-10.803
殤	-10.8038
組	-10.8048
朏	-10.8052
骸	-10.806
苴	-10.806
愷	-10.8062
狎	-10.8064
椒	-10.8065
鎧	-10.8073
裨	-10.808
夤	-10.8081
爪	-10.8084
胙	-10.8085
澧	-10.8103
䘏	-10.8115
兎	-10.8121
縻	-10.8129
懦	-10.8136
狥	-10.8137
庠	-10.8164
猥	-10.817
煌	-10.8184
鏤	-10.8187
悛	-10.8214
蹕	-10.8219
轡	-10.8219
紏	-10.822
曩	-10.8223
粉	-10.8239
琿	-10.8242
詡	-10.8261
簫	-10.827
藴	-10.8272
闥	-10.8274
嬴	-10.8277
滌	-10.8278
軸	-10.828
湟	-10.8283
驤	-10.8299
譟	-10.8302
渚	-10.8302
稜	-10.8304
㪚	-10.8305
拊	-10.8358
紿	-10.8359
瓠	-10.8362
釣	-10.8385
『	-10.84
蘆	-10.843
朓	-10.8435
夭	-10.8443
幟	-10.8461
碭	-10.8462
漫	-10.8473
把	-10.8492
懋	-10.8495
叢	-10.8495
忝	-10.8497
粹	-10.8499
貂	-10.8499
墟	-10.85
甥	-10.8506
』	-10.8512
犒	-10.8515
貿	-10.852
墾	-10.852
嘆	-10.853
緑	-10.8538
畱	-10.8541
弭	-10.8549
蔬	-10.8558
牐	-10.8558
岌	-10.8581
熲	-10.8583
殞	-10.8586
騁	-10.8587
舛	-10.8608
惻	-10.861
苞	-10.8616
儋	-10.8618
只	-10.8633
繖	-10.8649
犍	-10.8665
棲	-10.8668
悠	-10.8674
鄯	-10.8683
湊	-10.8689
斫	-10.8693
舶	-10.8716
臾	-10.8722
亾	-10.8725
抽	-10.8726
霖	-10.8741
畨	-10.8745
荼	-10.8753
嬖	-10.8754
宵	-10.8779
峒	-10.8794
氊	-10.88
惰	-10.8804
鉉	-10.8807
涓	-10.8808
鵠	-10.8809
祏	-10.881
厮	-10.8833
驥	-10.8841
祜	-10.8854
倣	-10.886
眇	-10.8867
罍	-10.8875
异	-10.8881
㝢	-10.8896
陁	-10.8899
閹	-10.8903
遯	-10.8908
喀	-10.8912
挑	-10.8929
2	-10.8937
稹	-10.8945
欠	-10.8945
埓	-10.8947
旻	-10.8958
嵐	-10.8971
袒	-10.898
竺	-10.8983
蹙	-10.8985
矛	-10.8987
4	-10.8994
梗	-10.9011
蒯	-10.9014
揮	-10.9014
3	-10.9025
藁	-10.9039
戀	-10.9072
聿	-10.9073
璟	-10.9074
冝	-10.9077
郴	-10.9092
顓	-10.9098
偷	-10.9105
鷄	-10.9124
僊	-10.9126
暹	-10.9128
麴	-10.9155
購	-10.916
駞	-10.9179
挽	-10.919
㫁	-10.9191
怡	-10.9194
奥	-10.9195
夘	-10.9196
隗	-10.9203
楫	-10.9214
泌	-10.9216
撤	-10.9218
蠱	-10.9222
緬	-10.9245
窘	-10.925
寗	-10.9256
凍	-10.9273
雩	-10.9275
笙	-10.9279
膚	-10.9283
滁	-10.9299
幅	-10.9301
竈	-10.9312
皂	-10.9326
璣	-10.9339
逝	-10.9348
愉	-10.9351
葆	-10.9372
粥	-10.9373
緊	-10.9397
湣	-10.9397
蠧	-10.9403
莅	-10.9405
踈	-10.941
槃	-10.9411
晞	-10.9411
萇	-10.9412
躔	-10.9423
巒	-10.9441
灰	-10.9459
虔	-10.9459
䖏	-10.9466
鳩	-10.9466
肝	-10.9469
紘	-10.9488
愬	-10.9489
沅	-10.9491
的	-10.9495
泚	-10.9514
种	-10.9525
仆	-10.9528
毆	-10.953
們	-10.9543
鏐	-10.9554
丐	-10.9555
憾	-10.9558
濼	-10.9573
勔	-10.9587
􁀙	-10.9599
瑋	-10.9611
燈	-10.9618
遘	-10.9625
牆	-10.9626
看	-10.9644
珣	-10.9651
塹	-10.9675
䑕	-10.9682
繋	-10.9686
估	-10.9702
陀	-10.971
郷	-10.9711
剏	-10.9712
倪	-10.9713
皁	-10.9734
烝	-10.9742
餽	-10.9743
殃	-10.9782
柰	-10.9788
邳	-10.9804
顏	-10.9806
咽	-10.9809
郯	-10.9809
盆	-10.9812
兀	-10.9828
濶	-10.9835
陌	-10.9836
覘	-10.9837
豳	-10.984
邃	-10.9846
郅	-10.9847
斟	-10.9847
籥	-10.9876
恊	-10.9877
㕔	-10.9898
汚	-10.9909
郃	-10.9916
赭	-10.9938
跨	-10.9939
汰	-10.9964
妓	-10.9967
售	-10.9969
雋	-10.997
瘠	-10.9972
訾	-10.9974
暠	-10.9981
6	-11.0052
闐	-11.0058
碧	-11.0059
蟬	-11.0065
拾	-11.0066
巍	-11.0068
珥	-11.007
詵	-11.0072
叶	-11.0099
怖	-11.01
鱗	-11.0105
診	-11.0112
郞	-11.0126
柯	-11.0127
庇	-11.013
鹵	-11.0131
㐮	-11.0135
楯	-11.0136
噲	-11.0163
縦	-11.0165
懈	-11.0171
慝	-11.0174
馨	-11.0189
葺	-11.0195
疊	-11.0195
穡	-11.0197
洙	-11.0198
複	-11.0198
侔	-11.0203
穹	-11.023
羗	-11.0235
話	-11.0236
箱	-11.0237
縊	-11.0238
檻	-11.0239
簋	-11.0249
畆	-11.0262
耽	-11.0266
䟽	-11.0268
批	-11.0269
鈕	-11.0276
灤	-11.0281
閫	-11.0294
粤	-11.0298
軼	-11.0299
企	-11.0305
帽	-11.031
扁	-11.032
勳	-11.0329
沸	-11.0335
囿	-11.034
騐	-11.0358
慘	-11.0361
磐	-11.0369
珏	-11.0386
7	-11.0386
峯	-11.0392
麤	-11.0404
潦	-11.043
拙	-11.0434
瑒	-11.0436
慤	-11.047
歇	-11.047
爛	-11.0473
舄	-11.0492
茲	-11.0498
㤙	-11.0509
㝷	-11.0534
綠	-11.056
盪	-11.057
莞	-11.0576
傕	-11.0578
殂	-11.0603
挈	-11.0606
怏	-11.0608
瑊	-11.0628
訶	-11.0632
森	-11.0637
脉	-11.0638
岷	-11.0639
灾	-11.0642
蹤	-11.065
恚	-11.0651
禺	-11.0673
昕	-11.0673
絜	-11.0681
髠	-11.0693
𣙜	-11.0705
饉	-11.0707
椎	-11.0709
雌	-11.071
冥	-11.0711
妬	-11.0718
两	-11.0738
雇	-11.074
佚	-11.0743
躁	-11.0745
嘏	-11.0747
綘	-11.0773
梧	-11.0774
脯	-11.0783
彘	-11.0784
羆	-11.0788
樵	-11.0817
翳	-11.0823
梯	-11.0846
巽	-11.0884
瑶	-11.0886
杼	-11.0887
擕	-11.0887
沴	-11.0888
鑠	-11.0889
頽	-11.0893
吟	-11.0897
奈	-11.0906
乍	-11.091
研	-11.0923
床	-11.0953
卵	-11.0957
劄	-11.0981
店	-11.0982
憫	-11.0992
搢	-11.0995
駢	-11.1
牡	-11.1057
蔑	-11.1067
琨	-11.107
廕	-11.1086
邏	-11.1094
蚩	-11.1107
憎	-11.111
墻	-11.1135
猗	-11.1141
纎	-11.1142
煜	-11.1143
澭	-11.1155
腐	-11.117
坂	-11.1171
稟	-11.1178
厠	-11.1181
荔	-11.1202
釗	-11.1205
矦	-11.1208
湜	-11.121
扆	-11.1211
峴	-11.1213
攜	-11.1213
吝	-11.1217
蓮	-11.124
妣	-11.1255
凋	-11.1284
彤	-11.1286
塟	-11.1287
曅	-11.1332
篚	-11.1334
璮	-11.1345
霽	-11.1349
蠟	-11.1354
栖	-11.1359
惕	-11.1361
焯	-11.1365
站	-11.1388
抃	-11.1392
諲	-11.1394
鄢	-11.1397
暐	-11.1399
愕	-11.1432
迨	-11.1435
搖	-11.1458
幢	-11.1462
讞	-11.1466
傲	-11.1471
龕	-11.1505
濯	-11.1512
汀	-11.1537
戩	-11.1538
鎰	-11.1542
揭	-11.1544
鴟	-11.1544
黷	-11.1546
鈴	-11.1547
贏	-11.1547
逗	-11.1555
頁	-11.1575
葭	-11.1577
低	-11.1581
罄	-11.1586
滂	-11.1596
漣	-11.1605
諛	-11.1621
烹	-11.1627
稠	-11.1654
緘	-11.1657
膂	-11.1665
娥	-11.1669
廨	-11.1691
覿	-11.1693
訢	-11.1698
毓	-11.1699
㕘	-11.1733
催	-11.1735
縳	-11.1739
涯	-11.174
穂	-11.1745
叩	-11.1777
藹	-11.1785
餌	-11.1788
貼	-11.1804
莘	-11.1811
邽	-11.1811
鶉	-11.1812
傭	-11.1813
縑	-11.1817
圃	-11.1819
霆	-11.1821
揀	-11.183
蟄	-11.183
榻	-11.1852
壑	-11.1857
鞾	-11.1869
墀	-11.189
葦	-11.1894
濞	-11.1895
株	-11.1929
彫	-11.1938
匏	-11.1938
淡	-11.1938
藺	-11.1958
纘	-11.1984
旂	-11.2007
倩	-11.2011
泓	-11.2015
鏘	-11.2043
崑	-11.2048
窟	-11.2049
刁	-11.2053
灑	-11.2054
虗	-11.2054
醢	-11.2055
霑	-11.2057
觜	-11.2072
鶚	-11.2087
淤	-11.2088
裹	-11.2092
棊	-11.211
䏻	-11.2131
鼂	-11.2132
需	-11.2166
駁	-11.2167
瀕	-11.2171
萃	-11.2172
堵	-11.2172
儔	-11.2172
箴	-11.2176
攀	-11.2177
鞮	-11.2178
邜	-11.2239
槀	-11.225
濱	-11.2251
晁	-11.2293
堆	-11.2293
肄	-11.233
偹	-11.2337
抜	-11.2339
蓺	-11.2342
牖	-11.2342
別	-11.2354
婉	-11.2376
禇	-11.2377
据	-11.2377
秣	-11.2379
佾	-11.2388
簠	-11.2396
鈐	-11.24
簇	-11.2402
寰	-11.2405
碣	-11.2418
彩	-11.2421
航	-11.2421
雹	-11.2422
嶲	-11.245
犇	-11.2453
霞	-11.2458
怙	-11.2462
舂	-11.2498
旺	-11.253
烽	-11.2537
濕	-11.2539
旃	-11.2548
䓁	-11.2582
摇	-11.2583
鄣	-11.2586
濳	-11.2586
8	-11.2612
卻	-11.2613
㽞	-11.2628
註	-11.2666
阬	-11.267
酎	-11.2707
孕	-11.2712
繳	-11.2714
滇	-11.2715
曵	-11.2715
墉	-11.2717
浴	-11.2717
彞	-11.2743
緦	-11.2756
瑄	-11.2793
歐	-11.2794
濡	-11.2794
耒	-11.2796
飽	-11.2798
伶	-11.28
絰	-11.2803
嫂	-11.2806
兾	-11.2846
讖	-11.2848
摭	-11.2881
魄	-11.2884
洩	-11.2885
鬚	-11.2885
甌	-11.2885
楨	-11.2887
姒	-11.2898
剪	-11.2926
絀	-11.2926
牋	-11.2927
軹	-11.2927
輓	-11.2927
卨	-11.293
豺	-11.2933
纒	-11.2933
縝	-11.2935
汭	-11.2966
槖	-11.2967
餞	-11.2968
汧	-11.297
迂	-11.2972
□	-11.2975
紵	-11.3007
拳	-11.3017
娛	-11.3026
匝	-11.3046
桞	-11.3055
辠	-11.3057
襖	-11.3074
琚	-11.3099
嗇	-11.3103
閨	-11.3104
黠	-11.3105
廡	-11.3108
諍	-11.311
旰	-11.311
术	-11.3134
擲	-11.3146
懾	-11.3152
瞽	-11.3153
皋	-11.3186
麋	-11.319
僥	-11.3194
誹	-11.3195
頊	-11.3199
䜛	-11.324
攽	-11.3242
馥	-11.3253
譎	-11.326
䜟	-11.3288
綦	-11.3317
装	-11.3319
洵	-11.3325
酤	-11.3326
孥	-11.3328
棠	-11.3331
鞶	-11.3343
緄	-11.3362
牂	-11.3362
蒐	-11.3368
弃	-11.338
層	-11.3381
縷	-11.3417
噬	-11.3422
摶	-11.3422
徂	-11.3427
軀	-11.3429
讚	-11.343
牓	-11.346
隳	-11.3462
贛	-11.3462
胎	-11.3469
淚	-11.3469
賾	-11.3471
羮	-11.3477
袋	-11.3499
駝	-11.3501
沱	-11.3504
腸	-11.3508
掎	-11.3511
樸	-11.3511
璨	-11.3549
紓	-11.3554
酸	-11.356
腴	-11.3565
樁	-11.3593
猺	-11.3596
亊	-11.3603
喉	-11.3604
媯	-11.3606
侑	-11.3641
袤	-11.3649
鉗	-11.3651
穗	-11.3686
裙	-11.3688
靳	-11.3698
瘡	-11.3698
懽	-11.3699
誚	-11.3701
.	-11.3707
蹲	-11.3715
菽	-11.3748
璜	-11.379
蜚	-11.379
剝	-11.3791
絮	-11.3792
冇	-11.3795
旭	-11.3798
弧	-11.3798
昵	-11.38
纁	-11.3826
紊	-11.3841
兔	-11.3842
夸	-11.3843
樗	-11.3846
虖	-11.3858
紬	-11.3874
覧	-11.3882
銑	-11.3884
迅	-11.3888
漿	-11.3891
鯁	-11.3893
謟	-11.3895
餙	-11.3929
淀	-11.3929
淨	-11.3929
涸	-11.393
玫	-11.3931
籖	-11.3936
飄	-11.3939
恙	-11.3944
0	-11.3969
伉	-11.3978
賫	-11.3983
訐	-11.3984
擿	-11.3986
倨	-11.3987
炬	-11.3987
譔	-11.399
詘	-11.3992
灘	-11.4017
踊	-11.4029
弇	-11.4033
簪	-11.4066
襟	-11.4074
隍	-11.4076
磧	-11.4076
浹	-11.4078
禳	-11.4078
呵	-11.4085
讌	-11.4086
撝	-11.4087
燿	-11.409
玘	-11.4093
慿	-11.4128
涌	-11.4129
澆	-11.4133
詹	-11.4141
黻	-11.4164
貺	-11.4171
眚	-11.4172
煦	-11.4174
携	-11.418
輻	-11.4181
烟	-11.4181
殫	-11.4187
鵬	-11.4226
塋	-11.423
瘳	-11.423
嘯	-11.4231
歷	-11.4265
邯	-11.4268
塡	-11.4269
脂	-11.4279
殽	-11.428
糺	-11.4282
頑	-11.4282
戯	-11.4284
渦	-11.4319
昪	-11.4327
楹	-11.4328
値	-11.4332
渴	-11.4332
藪	-11.4333
嫗	-11.4335
璉	-11.434
鴨	-11.4365
諳	-11.4373
醖	-11.4375
琶	-11.4377
竣	-11.4377
頠	-11.4379
鎛	-11.4382
馘	-11.4425
剡	-11.4427
擣	-11.4427
緜	-11.4431
跣	-11.4433
晡	-11.4433
柘	-11.4473
點	-11.4476
挹	-11.4481
斐	-11.4488
髻	-11.4524
毬	-11.4529
鬯	-11.4531
呌	-11.4535
喝	-11.4538
纛	-11.4571
闌	-11.4577
揣	-11.4582
䧺	-11.4585
糜	-11.4587
㡌	-11.4618
9	-11.4619
疽	-11.4636
幞	-11.4643
紆	-11.4645
忱	-11.4673
臼	-11.4676
琢	-11.4677
畀	-11.4677
沾	-11.4683
羔	-11.4694
宙	-11.4695
藤	-11.4722
瑁	-11.4737
盍	-11.4737
逡	-11.4737
橐	-11.4739
匣	-11.474
蔓	-11.4741
燮	-11.4742
邾	-11.4742
屑	-11.4753
夹	-11.4777
鑰	-11.4784
伽	-11.4784
肺	-11.4785
璹	-11.4791
腦	-11.4791
裒	-11.4793
盂	-11.4838
絢	-11.4844
軺	-11.4846
煎	-11.4849
勍	-11.4885
犂	-11.4892
脊	-11.4893
讙	-11.4897
絁	-11.4907
港	-11.4929
氂	-11.4938
陲	-11.4949
璩	-11.4949
針	-11.4984
蔟	-11.4999
液	-11.5003
擯	-11.5012
砥	-11.5059
虡	-11.5074
潯	-11.5096
杵	-11.5101
廖	-11.5105
愴	-11.5113
媪	-11.5115
褾	-11.5145
淛	-11.5156
貟	-11.516
罽	-11.5162
蟠	-11.5167
僰	-11.5168
誑	-11.5168
澣	-11.5169
諂	-11.5169
眩	-11.5169
邴	-11.517
礬	-11.5171
杳	-11.5176
阼	-11.5176
戡	-11.5218
佯	-11.5227
雝	-11.5261
杓	-11.5263
鰥	-11.5276
匈	-11.5281
籩	-11.5292
緱	-11.532
偵	-11.5323
驂	-11.5326
沼	-11.5327
祼	-11.5332
縫	-11.5332
詎	-11.5332
媛	-11.5335
鴆	-11.5338
䧏	-11.5379
縂	-11.5381
逈	-11.5384
磔	-11.5385
剄	-11.5385
洶	-11.5387
氛	-11.5391
吁	-11.5394
荊	-11.5411
佶	-11.5427
罸	-11.5431
䨇	-11.5434
螭	-11.544
阪	-11.544
倜	-11.5441
妤	-11.5444
誌	-11.5445
醇	-11.5445
菩	-11.5448
媵	-11.545
壕	-11.5483
牝	-11.5494
冩	-11.5498
磾	-11.5498
沽	-11.5498
肱	-11.5499
胷	-11.55
擔	-11.5503
僵	-11.5504
啜	-11.5504
虵	-11.5504
鉦	-11.5541
頥	-11.5547
筋	-11.5551
謇	-11.5553
跳	-11.5554
凰	-11.5556
紱	-11.556
琵	-11.5609
喧	-11.561
蜂	-11.5611
亹	-11.5612
悰	-11.5615
謳	-11.5621
踏	-11.5651
褶	-11.5655
䂓	-11.5663
㠯	-11.5665
蹂	-11.5666
縞	-11.5668
遴	-11.5669
砂	-11.567
聳	-11.5672
慄	-11.5673
岀	-11.5716
詬	-11.5725
欷	-11.5727
鷙	-11.5728
籬	-11.5731
憶	-11.5732
撒	-11.5776
炙	-11.5784
片	-11.5785
榛	-11.5785
昺	-11.5791
叨	-11.5792
靴	-11.5822
衂	-11.583
孳	-11.5838
核	-11.5839
禕	-11.5839
欄	-11.584
覊	-11.584
湮	-11.5842
悝	-11.5845
撻	-11.5848
厄	-11.585
朶	-11.587
郾	-11.5894
硤	-11.5899
崙	-11.5899
巵	-11.5902
袂	-11.5905
禰	-11.5905
荐	-11.5951
郗	-11.5954
曙	-11.5959
䟦	-11.5961
瓛	-11.5967
圯	-11.6004
撲	-11.601
摘	-11.6013
券	-11.6014
樽	-11.6014
炅	-11.6015
啖	-11.6021
唘	-11.6021
驎	-11.6022
餐	-11.6026
湧	-11.6061
鵝	-11.6064
莱	-11.6069
舁	-11.6074
驁	-11.6076
蓍	-11.6078
庖	-11.6082
舋	-11.6083
鋹	-11.6104
芾	-11.613
翹	-11.6131
譌	-11.6133
㽔	-11.6136
齧	-11.6141
捶	-11.6142
騏	-11.6143
啇	-11.6193
鄖	-11.6196
濛	-11.6197
昫	-11.6198
臭	-11.6199
鬲	-11.6201
貰	-11.6201
虬	-11.6205
弒	-11.6207
礙	-11.6253
琯	-11.6254
謠	-11.6254
从	-11.626
羃	-11.6273
蔀	-11.63
鍼	-11.6303
攢	-11.6309
鐃	-11.6312
甕	-11.6315
両	-11.6317
稀	-11.6317
冤	-11.6317
圎	-11.6318
歿	-11.6318
喚	-11.6319
舩	-11.6321
燼	-11.6325
喟	-11.6326
陬	-11.6329
禫	-11.6336
隻	-11.6376
悞	-11.6378
餒	-11.6379
誄	-11.638
攬	-11.6383
踞	-11.6386
晙	-11.6392
堙	-11.6436
枹	-11.6439
蹶	-11.6439
悚	-11.6441
歔	-11.6445
囬	-11.6447
倭	-11.6447
衎	-11.6498
票	-11.6499
葱	-11.6507
肘	-11.6511
鄠	-11.6511
矧	-11.6514
鯀	-11.6517
滹	-11.6558
秃	-11.6558
譁	-11.6566
棻	-11.6568
剥	-11.6572
訕	-11.6572
躋	-11.6574
兠	-11.6624
粢	-11.6625
伋	-11.6628
閠	-11.6628
瑣	-11.6633
疵	-11.6639
偁	-11.6675
郿	-11.6685
逓	-11.6686
蕤	-11.6689
笄	-11.6732
涖	-11.6744
幰	-11.6744
洹	-11.6747
籙	-11.6754
斾	-11.6761
啼	-11.6762
鍪	-11.679
簮	-11.6801
襴	-11.6802
濰	-11.6807
湼	-11.6811
縠	-11.6812
駑	-11.6816
邙	-11.6819
兌	-11.6821
泝	-11.6825
詛	-11.6829
醮	-11.6877
煇	-11.6879
擠	-11.6881
瑠	-11.6885
楮	-11.6887
麓	-11.6889
褘	-11.6945
瘴	-11.6947
暄	-11.6953
翅	-11.6999
鉛	-11.7005
琇	-11.701
豁	-11.7016
譛	-11.7018
騖	-11.7022
劬	-11.7022
瞿	-11.7025
勺	-11.7026
匃	-11.7033
洧	-11.7077
爕	-11.7079
兕	-11.7079
鏃	-11.7082
諺	-11.7085
嚳	-11.7091
態	-11.7093
滉	-11.7132
濓	-11.714
筦	-11.7145
慚	-11.7147
僞	-11.7197
坡	-11.7207
翫	-11.7222
滎	-11.7255
燉	-11.7274
檝	-11.7277
茫	-11.7281
螟	-11.7281
撞	-11.7283
絞	-11.7285
詈	-11.7285
鄗	-11.7291
詮	-11.7292
颺	-11.7293
賕	-11.7342
掊	-11.7343
貊	-11.7345
淇	-11.7346
蟻	-11.7349
莎	-11.7349
髀	-11.7351
惋	-11.7351
殱	-11.7352
誇	-11.7355
㓕	-11.7365
罇	-11.7394
襦	-11.7408
峙	-11.7411
默	-11.7412
蹄	-11.7413
万	-11.7414
摰	-11.742
厝	-11.7425
䋲	-11.7427
逕	-11.7478
衘	-11.7484
菲	-11.7486
艮	-11.7489
咫	-11.7493
鞬	-11.7493
璆	-11.7498
韈	-11.7534
澈	-11.7536
偓	-11.7539
咄	-11.7547
槊	-11.7547
溧	-11.755
箠	-11.7555
扣	-11.7556
蒋	-11.7557
櫓	-11.762
訂	-11.7622
癘	-11.7622
砲	-11.7623
匄	-11.7624
鏑	-11.7637
靺	-11.7676
鎖	-11.7685
顙	-11.7691
閶	-11.7693
噉	-11.7694
冏	-11.7701
豊	-11.7757
件	-11.7759
羯	-11.7762
耜	-11.7763
栻	-11.7764
佇	-11.7765
蕘	-11.7766
蔭	-11.7766
殉	-11.7767
睹	-11.7771
襁	-11.7772
飜	-11.7773
闚	-11.7775
耨	-11.7828
謾	-11.7831
冷	-11.7833
筑	-11.7835
鬰	-11.7842
垢	-11.7845
吠	-11.7846
埸	-11.79
煮	-11.7901
拆	-11.7903
胸	-11.7906
衿	-11.7908
郇	-11.7915
瞋	-11.7916
紜	-11.7918
汨	-11.7926
紺	-11.7965
珽	-11.7974
璿	-11.7975
麒	-11.7978
拭	-11.7985
坫	-11.7986
𨼆	-11.799
嫣	-11.8033
澠	-11.8039
龐	-11.8043
釘	-11.8048
郟	-11.8048
甬	-11.8049
剌	-11.8049
耄	-11.805
雁	-11.8051
猝	-11.8052
纉	-11.8066
粮	-11.8116
釀	-11.8117
彝	-11.812
爐	-11.8123
隧	-11.8124
婿	-11.8125
詁	-11.8132
絫	-11.8132
舸	-11.8191
琅	-11.8194
炫	-11.8194
仞	-11.8194
鐫	-11.8194
淖	-11.8196
挟	-11.8196
跌	-11.82
鈇	-11.8203
剰	-11.8261
狽	-11.8269
洒	-11.8271
垍	-11.8272
閽	-11.8273
嬉	-11.8274
掲	-11.8274
圻	-11.8277
坻	-11.8282
嚭	-11.8286
裾	-11.8336
髦	-11.8342
璵	-11.8344
聨	-11.8344
謩	-11.8346
柬	-11.8348
刎	-11.835
笳	-11.8406
鹹	-11.841
憺	-11.8417
榦	-11.8417
阡	-11.8423
闞	-11.8423
犁	-11.8424
秬	-11.8426
蒿	-11.8428
様	-11.8487
栅	-11.8492
阨	-11.8497
粒	-11.8499
嘿	-11.85
鏗	-11.8503
鉏	-11.8505
沬	-11.8507
彖	-11.8513
縢	-11.8557
嗚	-11.8567
查	-11.8567
篋	-11.8573
贅	-11.8575
褊	-11.8576
縶	-11.8578
媿	-11.8579
悴	-11.858
透	-11.8581
禖	-11.8585
靁	-11.859
耘	-11.863
欝	-11.8634
髓	-11.8643
鏁	-11.8644
僇	-11.8645
晧	-11.8645
刷	-11.8648
錐	-11.8653
蹔	-11.8656
脣	-11.8657
毀	-11.8706
鞨	-11.8713
鼐	-11.8717
湍	-11.8725
刈	-11.8725
佺	-11.8726
糞	-11.8728
鮪	-11.8731
摛	-11.8738
憙	-11.8751
酇	-11.8795
儂	-11.8795
縋	-11.8798
橘	-11.88
簴	-11.88
竪	-11.88
擐	-11.8802
嵬	-11.8804
陴	-11.8804
匕	-11.8805
纖	-11.8805
撾	-11.8807
塢	-11.8808
埀	-11.8808
釡	-11.8809
肴	-11.8812
迸	-11.8879
郄	-11.8879
崤	-11.8882
垓	-11.8882
穫	-11.8884
嫚	-11.8886
綢	-11.8887
鑊	-11.8889
悽	-11.8891
㛰	-11.8894
詧	-11.8898
俚	-11.8898
抹	-11.8927
毐	-11.8951
祺	-11.8955
彚	-11.8963
臠	-11.8964
蓼	-11.8966
炤	-11.8967
認	-11.8968
悵	-11.8973
毳	-11.9032
梨	-11.9039
棓	-11.9042
衾	-11.9044
櫛	-11.9045
祅	-11.9046
翩	-11.9046
蛟	-11.9048
宄	-11.9049
泯	-11.905
覦	-11.9051
蘊	-11.9051
巋	-11.9056
鉢	-11.9113
秪	-11.9116
䍐	-11.9123
瓶	-11.9124
涵	-11.9124
騭	-11.9125
腕	-11.9126
殪	-11.9127
橈	-11.9127
椽	-11.9128
媒	-11.9131
斿	-11.9132
遹	-11.9196
盩	-11.9198
灣	-11.9199
怛	-11.9202
姧	-11.9205
緇	-11.9206
邛	-11.9208
戱	-11.9209
娠	-11.921
敺	-11.921
概	-11.9211
酆	-11.9212
憕	-11.9219
殛	-11.922
豚	-11.922
瑤	-11.9274
驃	-11.9278
耐	-11.9279
臏	-11.928
滏	-11.9281
訃	-11.9281
甯	-11.9282
闍	-11.9282
仄	-11.9282
柷	-11.9287
璇	-11.9289
氓	-11.929
盞	-11.9292
謔	-11.9293
韙	-11.9295
炊	-11.9297
刳	-11.9299
宓	-11.9299
羿	-11.9307
頵	-11.9356
唾	-11.9367
匭	-11.9367
鎻	-11.9367
墅	-11.937
峭	-11.9371
侗	-11.9372
疚	-11.9375
寥	-11.9376
讁	-11.9378
纍	-11.9382
峩	-11.9442
躭	-11.9452
皥	-11.9455
赧	-11.9455
痾	-11.9456
彎	-11.9457
徊	-11.946
傒	-11.9461
鍚	-11.9514
灸	-11.9522
靑	-11.9532
麞	-11.9533
線	-11.9533
幔	-11.9535
摽	-11.9536
繭	-11.9537
詿	-11.9537
頰	-11.9538
塤	-11.9538
刄	-11.9538
僦	-11.954
煑	-11.9542
諠	-11.9548
轝	-11.9613
歉	-11.9617
檐	-11.962
芟	-11.9622
漬	-11.9623
鳬	-11.9626
屨	-11.9634
吸	-11.9634
杏	-11.969
髯	-11.9704
剔	-11.9706
睨	-11.9706
㸑	-11.9707
攄	-11.971
昃	-11.971
畎	-11.9718
鼈	-11.972
瀋	-11.9778
厔	-11.9786
帕	-11.9787
彜	-11.9789
棧	-11.979
䆒	-11.9792
斑	-11.9792
轢	-11.9796
椁	-11.9798
廙	-11.9798
挂	-11.9799
迓	-11.9873
逍	-11.9874
蕚	-11.9878
猖	-11.9882
痍	-11.9883
嵇	-11.9883
貔	-11.9885
粱	-11.9887
窋	-11.9888
縗	-11.9888
豢	-11.9892
蹋	-11.9892
纊	-11.9955
頲	-11.9962
禃	-11.9964
鸚	-11.9965
嘔	-11.9965
飼	-11.9966
愠	-11.9968
輜	-11.9968
肣	-11.9969
暅	-11.997
鍊	-11.997
㒺	-11.997
餅	-11.9972
盱	-11.9972
斆	-11.9982
䛕	-11.9982
叉	-11.9992
闋	-12.0043
迦	-12.0043
鍔	-12.0046
珮	-12.0051
㨿	-12.0053
鷺	-12.0054
祲	-12.0054
浄	-12.0056
鏻	-12.0057
俳	-12.0057
淯	-12.0058
糓	-12.0059
懃	-12.006
黽	-12.0061
觚	-12.0061
嗤	-12.0066
娣	-12.0073
峡	-12.0137
掇	-12.0144
壍	-12.0145
讃	-12.0151
肌	-12.0151
拍	-12.0151
鉷	-12.0155
烜	-12.0224
𥙿	-12.0226
撮	-12.0229
氾	-12.0231
鴦	-12.0234
犨	-12.0234
舫	-12.0236
鯨	-12.0238
怵	-12.024
窄	-12.0303
悆	-12.0317
茨	-12.0324
猪	-12.0325
劓	-12.0326
証	-12.0326
捜	-12.0327
茸	-12.0328
餼	-12.0328
浞	-12.033
渇	-12.0331
儷	-12.0332
椘	-12.0332
溱	-12.0334
瘁	-12.0336
糠	-12.0337
縈	-12.0337
夬	-12.0338
笥	-12.0339
窈	-12.0347
崈	-12.04
縹	-12.0408
珊	-12.0411
贑	-12.0412
灊	-12.0412
孑	-12.0418
祓	-12.0419
闘	-12.0419
薑	-12.0419
捄	-12.042
遒	-12.0428
絛	-12.0497
鑪	-12.0501
軟	-12.0502
硯	-12.0503
繢	-12.0505
汁	-12.0505
鵡	-12.0506
凢	-12.0507
鄄	-12.0508
溼	-12.0508
瑛	-12.0509
厙	-12.0512
蠭	-12.0515
峨	-12.0515
芷	-12.0518
偪	-12.0519
翺	-12.0519
峰	-12.0592
沓	-12.0599
墊	-12.0599
蜺	-12.06
敔	-12.06
饟	-12.0605
璀	-12.0609
酖	-12.0609
戹	-12.0611
莾	-12.0612
顚	-12.0614
襠	-12.0667
鈿	-12.0679
蜜	-12.0693
捲	-12.0693
娑	-12.0694
愽	-12.0698
佟	-12.0702
蒨	-12.0704
珉	-12.0705
虯	-12.0706
澥	-12.0777
債	-12.0788
圈	-12.079
儆	-12.0792
玷	-12.0793
濩	-12.0794
阸	-12.0794
苾	-12.0795
勱	-12.0796
締	-12.08
絪	-12.08
晊	-12.0802
姨	-12.0807
脁	-12.0871
晴	-12.088
澍	-12.0882
娘	-12.0884
豔	-12.0884
窠	-12.0886
鍳	-12.0887
堕	-12.0888
鴉	-12.0891
暕	-12.0893
婕	-12.0894
鯉	-12.0896
箸	-12.0896
眠	-12.0899
冄	-12.0899
豸	-12.0902
綝	-12.0907
篥	-12.0975
徤	-12.0978
篡	-12.0984
齮	-12.0986
摹	-12.0989
裸	-12.0989
槨	-12.0998
哺	-12.1
澮	-12.1065
𣏌	-12.1072
逖	-12.108
凑	-12.1081
煬	-12.1084
盃	-12.1084
鏞	-12.1086
昞	-12.109
珩	-12.1093
梏	-12.1094
无	-12.1095
𫉬	-12.1098
暖	-12.118
蝦	-12.1184
薰	-12.1187
菟	-12.1188
搴	-12.1191
貉	-12.1192
孩	-12.1193
魅	-12.1198
麝	-12.1262
騾	-12.1275
瑚	-12.1278
鶡	-12.1278
飈	-12.128
囷	-12.1281
燠	-12.1288
竅	-12.1289
岫	-12.129
眊	-12.1294
惴	-12.1297
湎	-12.1298
碁	-12.1318
肖	-12.1321
壖	-12.1377
鴛	-12.1379
灃	-12.1381
頔	-12.1384
閟	-12.1386
嶮	-12.1388
尙	-12.1388
穉	-12.1389
臆	-12.139
蜡	-12.1391
桎	-12.1398
軿	-12.1398
茀	-12.1401
帨	-12.1402
詖	-12.1406
釵	-12.1473
乣	-12.1473
瀍	-12.1478
儐	-12.1479
湫	-12.148
堞	-12.1484
翥	-12.1485
脛	-12.1487
迕	-12.1487
聃	-12.1488
崘	-12.149
鍮	-12.1491
徘	-12.1492
踴	-12.1492
糟	-12.1493
帙	-12.1493
埃	-12.1498
岢	-12.1577
泠	-12.158
戟	-12.1584
喙	-12.1587
禜	-12.1588
瀚	-12.1588
鄊	-12.159
𠂻	-12.1592
泳	-12.1593
睚	-12.1598
倕	-12.16
侁	-12.16
眄	-12.1603
鬢	-12.1682
罘	-12.1688
伾	-12.1694
撙	-12.1694
沭	-12.1694
沌	-12.1696
瘼	-12.1697
甿	-12.17
洫	-12.17
缶	-12.1704
媾	-12.1705
襈	-12.1772
楞	-12.179
祟	-12.1797
廆	-12.1797
鼗	-12.1799
蹟	-12.1801
㢮	-12.1801
劑	-12.1802
榭	-12.1802
嶸	-12.1803
腋	-12.1804
鋸	-12.1805
嶧	-12.1806
梵	-12.1809
爱	-12.1811
繚	-12.1814
氅	-12.1875
箋	-12.1901
睠	-12.1902
倅	-12.1902
毌	-12.1902
龠	-12.1902
垠	-12.1903
棒	-12.1904
螽	-12.1904
蹊	-12.1906
鈍	-12.1908
韞	-12.1909
玭	-12.1911
氍	-12.1911
衽	-12.1911
彀	-12.1914
晳	-12.1916
跖	-12.192
耦	-12.1924
琕	-12.1924
觶	-12.1938
磑	-12.2007
党	-12.2008
吿	-12.2009
呪	-12.2009
恠	-12.2012
逌	-12.2013
頎	-12.2013
埭	-12.2015
喋	-12.2016
碌	-12.2016
緹	-12.2017
楙	-12.2018
杠	-12.2021
斵	-12.2021
殲	-12.2022
眦	-12.2023
娱	-12.2025
鷰	-12.2094
竑	-12.2104
絺	-12.211
氈	-12.2116
翮	-12.2118
忒	-12.2121
狠	-12.2123
勦	-12.2123
冨	-12.2125
軄	-12.2125
哇	-12.2125
鍜	-12.2128
瞑	-12.213
蓐	-12.2131
隼	-12.2131
厓	-12.2139
寬	-12.2206
鍵	-12.2209
槽	-12.2219
殳	-12.2221
渤	-12.2223
芥	-12.2229
嗛	-12.2231
繅	-12.2232
勗	-12.2232
媼	-12.2232
嶼	-12.2233
枷	-12.2234
趍	-12.2234
賵	-12.2234
轘	-12.2235
桴	-12.224
迤	-12.224
倐	-12.2241
慾	-12.2242
糗	-12.2244
蘧	-12.2246
壩	-12.2319
獺	-12.2335
玖	-12.2339
圄	-12.2343
爚	-12.2343
濊	-12.2345
癃	-12.2346
窶	-12.2346
茵	-12.2347
噍	-12.2347
溷	-12.2349
煖	-12.2349
􁁊	-12.2353
脇	-12.2353
褓	-12.2355
儛	-12.2356
玢	-12.2438
份	-12.2439
漷	-12.2439
劎	-12.245
愎	-12.2452
摠	-12.2453
賃	-12.2455
熏	-12.2456
菴	-12.2459
琊	-12.246
藜	-12.246
蹻	-12.2462
虺	-12.2466
佽	-12.2552
箇	-12.2562
擎	-12.2564
淆	-12.2565
腫	-12.2566
玦	-12.2567
惔	-12.257
壙	-12.2571
掛	-12.2575
軋	-12.2576
獫	-12.2576
瑑	-12.2578
刊	-12.2586
溲	-12.2658
璝	-12.2686
筐	-12.2686
淘	-12.2688
跂	-12.2689
緤	-12.2689
鍠	-12.2769
傘	-12.2782
熒	-12.279
璫	-12.2794
芍	-12.2795
偘	-12.2795
暘	-12.2802
孱	-12.2803
枋	-12.2804
璡	-12.2804
痺	-12.2804
頋	-12.281
憬	-12.2812
㲄	-12.2813
伃	-12.2828
㮚	-12.2904
殍	-12.2905
朢	-12.2906
礮	-12.2908
崞	-12.2908
狸	-12.2909
匐	-12.2912
塜	-12.2914
甑	-12.2914
刖	-12.2917
羨	-12.2919
蒞	-12.2921
埤	-12.2922
扉	-12.2923
輬	-12.2925
狁	-12.2928
沇	-12.2928
嘲	-12.2928
蠢	-12.2928
菁	-12.293
梲	-12.3016
泮	-12.3029
翬	-12.3035
袞	-12.3035
蟜	-12.3037
迯	-12.3039
燥	-12.3041
褰	-12.3042
侣	-12.3045
綯	-12.3045
曖	-12.3046
輼	-12.3046
箎	-12.3049
畦	-12.3064
焰	-12.3107
曆	-12.3122
藕	-12.3141
嫪	-12.3146
紕	-12.3151
瑇	-12.3156
恟	-12.3157
鷂	-12.3157
猴	-12.3158
頷	-12.3158
煒	-12.3158
筞	-12.3159
䍧	-12.3161
徔	-12.3161
壄	-12.3161
踣	-12.3162
淩	-12.3162
瘦	-12.3163
豬	-12.3163
屣	-12.3166
狃	-12.3168
聵	-12.3261
傔	-12.3267
浣	-12.3272
瀝	-12.3275
遶	-12.3276
鄞	-12.3276
袐	-12.3279
焞	-12.3279
肜	-12.328
夐	-12.328
嶢	-12.328
慴	-12.3281
㦯	-12.3283
侖	-12.3284
煚	-12.3284
獬	-12.3285
悸	-12.3288
卉	-12.3292
鈒	-12.3383
攅	-12.3389
穨	-12.3393
妥	-12.3399
璃	-12.34
腑	-12.3401
佖	-12.3401
緍	-12.3401
郛	-12.3402
梢	-12.3403
掞	-12.3404
諄	-12.3407
鋤	-12.341
觖	-12.3413
悶	-12.3414
塩	-12.3435
鞞	-12.3519
筏	-12.3523
螫	-12.3527
綈	-12.3528
啗	-12.3529
瞰	-12.3529
憸	-12.3529
媫	-12.353
毉	-12.353
苐	-12.353
侠	-12.3532
腥	-12.3534
鏜	-12.354
隤	-12.3541
獅	-12.3628
隲	-12.3648
崗	-12.3649
倘	-12.365
秭	-12.365
鄚	-12.3651
枵	-12.3652
酢	-12.3654
抉	-12.3654
酪	-12.3658
㗖	-12.3659
礫	-12.3659
届	-12.3661
酹	-12.3662
壟	-12.3664
簧	-12.3665
癡	-12.3666
纚	-12.3667
伷	-12.3668
堠	-12.377
擄	-12.377
掣	-12.3775
盲	-12.3776
蓽	-12.3777
懣	-12.3778
璪	-12.3778
濂	-12.3779
妒	-12.378
犛	-12.3784
翀	-12.3786
醒	-12.3786
騑	-12.3786
愜	-12.3787
隃	-12.3789
窳	-12.3789
悳	-12.379
獷	-12.379
蠅	-12.3794
适	-12.3898
鵰	-12.3903
玊	-12.3904
雊	-12.3906
凛	-12.3913
牾	-12.3916
莵	-12.3917
个	-12.3921
瞎	-12.3921
魴	-12.3923
扄	-12.3924
揔	-12.3924
渢	-12.3934
椅	-12.4025
癰	-12.403
韍	-12.4033
卹	-12.4034
娭	-12.4035
醋	-12.4035
鎗	-12.4039
筰	-12.4042
曮	-12.4042
騮	-12.4042
竽	-12.4049
壠	-12.4049
矍	-12.405
躓	-12.4051
烱	-12.4051
醬	-12.4052
瑯	-12.4054
㦲	-12.4054
枳	-12.4063
舖	-12.4158
鑕	-12.4164
霣	-12.4166
徠	-12.4168
聯	-12.417
筴	-12.417
琥	-12.4171
樅	-12.4171
郪	-12.4171
刮	-12.4174
慊	-12.4176
臚	-12.4176
溵	-12.4176
囹	-12.4177
櫂	-12.4178
縡	-12.418
巂	-12.4181
餗	-12.4185
旤	-12.4186
哽	-12.4187
搤	-12.4191
睡	-12.4193
紋	-12.43
擴	-12.4308
坼	-12.4312
磯	-12.4312
剗	-12.4312
粧	-12.4313
娉	-12.4315
紈	-12.4318
穽	-12.4319
簟	-12.432
崎	-12.4321
刹	-12.4322
狷	-12.4325
遨	-12.4328
鐙	-12.4423
鷩	-12.444
淸	-12.4441
􁋢	-12.4443
着	-12.4445
茭	-12.4446
郜	-12.4446
櫬	-12.4447
鑣	-12.445
湓	-12.445
鏖	-12.4451
袵	-12.4451
鋌	-12.4452
颯	-12.4454
葅	-12.4454
漯	-12.4456
靚	-12.4456
删	-12.4458
怱	-12.4458
藿	-12.4467
䄂	-12.4575
觱	-12.4575
碾	-12.4577
蓉	-12.4578
唃	-12.4585
鈆	-12.4585
峘	-12.4585
塊	-12.4586
栩	-12.459
𦍑	-12.4591
狭	-12.4591
䴥	-12.4592
笮	-12.4593
薫	-12.4594
蔕	-12.4594
俁	-12.4595
聪	-12.4596
姥	-12.4597
頫	-12.4599
陿	-12.4601
棐	-12.4601
菹	-12.4605
眺	-12.4606
誖	-12.4609
棹	-12.4713
戕	-12.4716
洄	-12.4718
筩	-12.4719
刅	-12.4724
筍	-12.4726
鋋	-12.4729
𦕈	-12.4733
嶇	-12.4734
噪	-12.4735
衒	-12.4738
蕙	-12.4745
鳶	-12.4854
脾	-12.4863
櫝	-12.487
篾	-12.487
滸	-12.487
宂	-12.4871
荻	-12.4871
溟	-12.4872
娯	-12.4876
弹	-12.4877
姁	-12.4877
喘	-12.4878
裼	-12.4879
嵊	-12.4881
儕	-12.4882
儵	-12.4884
邰	-12.4893
澁	-12.501
蛤	-12.5012
撿	-12.5013
䦨	-12.5014
兑	-12.5016
憊	-12.5023
顕	-12.503
懟	-12.5033
裲	-12.5121
浿	-12.5147
筝	-12.5156
嘍	-12.5158
轓	-12.5159
諴	-12.5159
爨	-12.5159
黶	-12.5159
龑	-12.516
菊	-12.5161
𠡠	-12.5165
捽	-12.5165
掉	-12.5166
駹	-12.5166
喏	-12.5168
陥	-12.5169
唇	-12.5171
揜	-12.5172
蕞	-12.5172
騂	-12.5173
曳	-12.5174
喁	-12.5177
莋	-12.5306
弈	-12.5312
刲	-12.5313
廱	-12.5314
燃	-12.5315
縵	-12.5315
煉	-12.5321
銍	-12.5322
輈	-12.5323
閥	-12.5324
盼	-12.5333
倢	-12.5345
牁	-12.5454
翛	-12.5458
棚	-12.5461
圩	-12.5462
晸	-12.5462
艫	-12.5462
刧	-12.5462
櫃	-12.5464
杅	-12.5464
阽	-12.5465
蟾	-12.5466
郫	-12.5466
芸	-12.5467
滈	-12.5468
霾	-12.5469
啻	-12.5469
犖	-12.5471
派	-12.5473
秸	-12.5474
韡	-12.5476
豉	-12.5476
鑽	-12.5481
潏	-12.5489
磝	-12.5608
醪	-12.561
䙝	-12.5618
肻	-12.5619
窻	-12.562
洿	-12.5624
壼	-12.5625
紲	-12.5625
柟	-12.5626
噫	-12.5627
蹷	-12.5627
闒	-12.5629
黿	-12.5629
㬥	-12.5631
糲	-12.5633
讋	-12.5635
恧	-12.5636
嚢	-12.5638
窕	-12.564
醆	-12.564
墠	-12.5645
胯	-12.5752
碻	-12.5764
皿	-12.5764
珫	-12.5765
犴	-12.5768
爇	-12.5768
絝	-12.5769
恇	-12.5773
捃	-12.5774
児	-12.5775
瀦	-12.5777
窒	-12.5778
斁	-12.5779
髣	-12.5779
駼	-12.578
鉶	-12.5781
鯢	-12.5784
嫄	-12.5785
鄘	-12.5794
魋	-12.5794
㚟	-12.5802
潾	-12.5912
瀧	-12.5916
褕	-12.5917
兜	-12.5921
芙	-12.5924
晈	-12.5934
牱	-12.5934
媮	-12.5935
㩁	-12.5937
諝	-12.5939
賭	-12.5942
覡	-12.5943
紡	-12.5944
熛	-12.5945
稾	-12.5947
螻	-12.5947
沫	-12.5948
駘	-12.595
鞋	-12.6063
卾	-12.6078
莆	-12.6081
箏	-12.6085
倓	-12.609
湩	-12.6092
培	-12.6093
袪	-12.6095
頺	-12.6095
暝	-12.6096
儗	-12.6097
靼	-12.6098
棨	-12.6098
秤	-12.6099
髴	-12.61
皦	-12.61
揷	-12.6101
畵	-12.6103
禅	-12.6104
盭	-12.6105
㢤	-12.6106
晻	-12.6108
麽	-12.611
鍍	-12.6229
澳	-12.6244
籛	-12.6245
􁪒	-12.6246
淦	-12.6248
椹	-12.6249
㬰	-12.6249
郕	-12.625
喆	-12.6252
吻	-12.6253
掦	-12.6255
幃	-12.6255
挿	-12.6262
鍇	-12.6262
猫	-12.6263
讟	-12.6264
㥄	-12.6265
閿	-12.6265
軨	-12.6265
餔	-12.6273
楛	-12.6278
賖	-12.6279
旛	-12.6393
襪	-12.6398
熺	-12.6408
蟣	-12.6411
盝	-12.6416
駵	-12.6416
燬	-12.6418
㩀	-12.6422
糒	-12.6422
倬	-12.6423
齪	-12.6423
媧	-12.6423
萄	-12.6423
屡	-12.6424
悮	-12.6425
縟	-12.6425
褻	-12.6429
恍	-12.6429
廞	-12.6429
翃	-12.6433
槁	-12.6433
祸	-12.6434
飱	-12.6436
棱	-12.6439
櫺	-12.644
戇	-12.6443
畮	-12.6444
湝	-12.6461
廄	-12.6564
㓙	-12.6586
褁	-12.659
虓	-12.6592
莩	-12.6595
憮	-12.6595
岊	-12.6596
憇	-12.66
啄	-12.6601
㐫	-12.6601
扺	-12.6603
齕	-12.6605
蓨	-12.6606
溶	-12.6607
瑨	-12.6611
蝨	-12.6744
襯	-12.6748
獘	-12.6749
篳	-12.6753
洸	-12.6753
昝	-12.6756
㪷	-12.6756
畸	-12.6761
茌	-12.6761
灞	-12.6763
开	-12.6764
琉	-12.6765
遫	-12.6765
錞	-12.6768
騊	-12.6769
翽	-12.6771
䃭	-12.6773
廏	-12.6774
嗷	-12.6774
浟	-12.6776
斮	-12.6778
趺	-12.678
麫	-12.6918
螣	-12.6928
傉	-12.693
桷	-12.6933
挍	-12.6935
蒔	-12.6935
郈	-12.6936
吃	-12.6938
骼	-12.6938
遛	-12.6939
桉	-12.694
躐	-12.6945
蒜	-12.6946
妺	-12.6946
杪	-12.6946
鐔	-12.6947
嘻	-12.6947
屩	-12.6947
屛	-12.6949
崱	-12.6949
櫜	-12.6951
飡	-12.6953
麄	-12.6954
堊	-12.6955
鵞	-12.6956
鄼	-12.6967
痤	-12.7098
恡	-12.7114
鼙	-12.7118
僨	-12.712
终	-12.712
黏	-12.7121
厦	-12.7121
縚	-12.7121
竢	-12.7122
炮	-12.7123
屐	-12.7126
瀏	-12.7127
澂	-12.7129
瑴	-12.7129
慠	-12.713
崐	-12.7131
羖	-12.7131
饕	-12.7133
紼	-12.7139
諦	-12.7143
腎	-12.7277
楗	-12.7289
䱉	-12.7293
熖	-12.7294
梃	-12.7294
棁	-12.7295
吮	-12.7297
皖	-12.7297
拷	-12.7298
訏	-12.7298
佼	-12.7298
澇	-12.7299
胔	-12.7299
泫	-12.7301
愖	-12.7302
藐	-12.7305
臍	-12.7307
慥	-12.7308
僎	-12.7309
甓	-12.7311
繻	-12.7311
籕	-12.7312
貍	-12.7314
拖	-12.7315
埏	-12.7317
蕢	-12.7317
煨	-12.732
塾	-12.732
瞞	-12.7331
遅	-12.7477
玳	-12.748
縲	-12.748
昀	-12.748
褠	-12.7482
燁	-12.7483
棋	-12.7484
淅	-12.7487
旐	-12.749
舳	-12.7491
螺	-12.7492
煴	-12.7493
蘖	-12.7493
剴	-12.7494
瘖	-12.7494
㤀	-12.7494
莧	-12.7496
猿	-12.7496
葷	-12.7496
闟	-12.7496
翡	-12.7499
瓢	-12.7499
觝	-12.75
緼	-12.75
斄	-12.75
墯	-12.7501
眭	-12.7507
皝	-12.765
韐	-12.7662
塈	-12.7662
咱	-12.7665
栽	-12.7666
偲	-12.7666
璲	-12.7666
獮	-12.7669
詒	-12.767
儈	-12.7673
愞	-12.7673
燦	-12.7674
鸇	-12.7675
珝	-12.7676
淬	-12.7676
憒	-12.7678
满	-12.7678
雛	-12.768
剸	-12.7681
撼	-12.7681
宷	-12.7683
塼	-12.7683
遄	-12.7687
繄	-12.7689
刦	-12.7689
痼	-12.7693
嶓	-12.7694
蒱	-12.7695
蒍	-12.7696
虙	-12.7713
澀	-12.785
娼	-12.7852
笠	-12.7861
頟	-12.7863
夥	-12.7863
燄	-12.7864
隟	-12.7864
侏	-12.7867
蹴	-12.7868
霓	-12.7869
辮	-12.7869
濃	-12.787
棃	-12.787
䠞	-12.7871
禨	-12.7872
藎	-12.7873
磊	-12.7874
筒	-12.7878
慍	-12.7878
芋	-12.788
佷	-12.788
矰	-12.788
懔	-12.7881
炯	-12.7881
瞀	-12.7882
翣	-12.7884
鄶	-12.7885
龢	-12.7886
戣	-12.7887
鄃	-12.789
煽	-12.7902
賨	-12.8038
棫	-12.805
㚖	-12.8051
仵	-12.8053
酅	-12.8055
粘	-12.8056
𨳩	-12.8057
𨗳	-12.8059
麈	-12.806
狙	-12.8061
蟇	-12.8062
槥	-12.8065
閡	-12.8065
泱	-12.8066
栒	-12.8066
鬛	-12.8067
褫	-12.8068
嗾	-12.8069
跽	-12.807
噠	-12.8071
祊	-12.8072
霤	-12.8073
晰	-12.8075
洨	-12.8076
歊	-12.8078
轔	-12.8078
慺	-12.8083
瞶	-12.8086
鶩	-12.8092
滴	-12.8243
灝	-12.8249
羹	-12.8249
莢	-12.8255
帔	-12.8257
牷	-12.8259
澱	-12.8259
䞇	-12.8259
垜	-12.8261
斚	-12.8261
鵒	-12.8263
脽	-12.8264
虒	-12.8265
蠆	-12.8265
覔	-12.8267
薈	-12.8269
湔	-12.8269
椀	-12.827
疹	-12.8271
騠	-12.8275
鴞	-12.8277
讇	-12.8278
薇	-12.8281
肸	-12.8281
蹏	-12.8282
猋	-12.8282
攣	-12.8284
麩	-12.8427
緖	-12.8456
圮	-12.8458
尖	-12.846
邲	-12.8461
貙	-12.8462
肹	-12.8467
柚	-12.8469
扑	-12.8471
駃	-12.8472
顆	-12.8473
𣪚	-12.8473
妍	-12.8473
諏	-12.8473
殮	-12.8474
蘋	-12.8474
臝	-12.8475
鄀	-12.8475
塑	-12.8476
諐	-12.8477
菱	-12.8477
址	-12.8479
鄮	-12.8479
蹉	-12.8479
樛	-12.8479
咀	-12.848
雱	-12.8484
瓮	-12.8484
絙	-12.8485
姫	-12.8486
赳	-12.8488
彷	-12.8488
陔	-12.8489
𥘉	-12.849
帀	-12.8652
謄	-12.866
欹	-12.8663
匯	-12.8664
逭	-12.8665
哆	-12.8665
窖	-12.8667
𠫭	-12.8669
鄔	-12.867
卲	-12.867
鸜	-12.8672
栰	-12.8675
祛	-12.8676
鏦	-12.8677
涂	-12.8678
緌	-12.8678
坌	-12.8679
醳	-12.868
鼉	-12.868
杷	-12.8682
奩	-12.8683
嬗	-12.8683
脆	-12.8685
銛	-12.8685
拏	-12.8685
筯	-12.8686
釃	-12.8687
袝	-12.8687
摸	-12.8688
𤯝	-12.8689
傖	-12.869
驊	-12.869
嬙	-12.8694
掆	-12.8862
禡	-12.8864
蘩	-12.8873
堇	-12.8876
萍	-12.8881
蠁	-12.8882
墌	-12.8885
牴	-12.8886
碉	-12.8887
犄	-12.8887
暎	-12.8891
咤	-12.8891
霈	-12.8892
莬	-12.8892
聾	-12.8894
鋗	-12.8894
猨	-12.8895
惬	-12.8895
匍	-12.8895
暱	-12.8896
苫	-12.8897
軛	-12.8898
籞	-12.8902
桁	-12.8902
穪	-12.8903
滓	-12.8905
隁	-12.9074
颶	-12.9079
犲	-12.9089
慬	-12.9089
涅	-12.9093
罃	-12.9094
曁	-12.9095
䡄	-12.9096
羑	-12.9099
滬	-12.91
蕉	-12.9101
帟	-12.9102
鹻	-12.9102
搒	-12.9103
芃	-12.9104
猊	-12.9104
柞	-12.9105
毦	-12.9105
掄	-12.9108
瀉	-12.9108
麃	-12.9108
琁	-12.9109
吼	-12.9109
崛	-12.911
碓	-12.911
蟹	-12.9113
膊	-12.9113
黝	-12.9115
槌	-12.9115
獯	-12.9115
蹵	-12.9116
瘉	-12.9116
惚	-12.9116
岩	-12.9117
蝝	-12.9119
忼	-12.912
倮	-12.9124
髡	-12.9303
楶	-12.9308
霿	-12.9319
秔	-12.9321
鮒	-12.9323
晶	-12.9323
茗	-12.9324
毖	-12.9324
峪	-12.9325
粳	-12.9326
㸔	-12.9326
囑	-12.9327
綖	-12.9327
痊	-12.9328
寀	-12.9329
絓	-12.933
漉	-12.933
墬	-12.933
漼	-12.9332
愀	-12.9332
訝	-12.9332
躅	-12.9333
幻	-12.9334
闓	-12.9335
烙	-12.9336
町	-12.9337
逷	-12.9338
聫	-12.9338
跗	-12.9339
瑰	-12.934
蛾	-12.9341
戞	-12.9341
洊	-12.9342
黌	-12.9343
悊	-12.9344
㟁	-12.9344
蝮	-12.9345
捫	-12.9348
翌	-12.9532
剩	-12.9546
搶	-12.9548
乜	-12.955
鄕	-12.9551
胊	-12.9552
淝	-12.9554
媟	-12.9555
剃	-12.9555
忙	-12.9555
駔	-12.9556
曝	-12.9556
呐	-12.9557
醯	-12.9557
現	-12.9559
橛	-12.956
攤	-12.9564
睒	-12.9566
僂	-12.9567
耤	-12.9568
嚼	-12.9569
萹	-12.9569
杌	-12.957
帢	-12.9572
刓	-12.9576
咩	-12.9769
芊	-12.9772
禩	-12.9774
窴	-12.978
溍	-12.9781
璸	-12.9781
鄲	-12.9781
箔	-12.9782
錬	-12.9784
襜	-12.9784
釜	-12.9786
珦	-12.9787
滻	-12.9788
関	-12.9789
馛	-12.9789
褧	-12.979
缾	-12.979
悒	-12.979
㕑	-12.9791
澡	-12.9792
傜	-12.9792
齓	-12.9792
旼	-12.9793
哂	-12.9794
妲	-12.9794
袛	-12.9795
絨	-12.9797
儺	-12.9798
辥	-12.9799
叫	-12.9799
筈	-12.98
餧	-12.9801
鯫	-12.9803
窆	-12.9808
簞	-12.981
耰	-12.9813
䚢	-13.0005
㝏	-13.0016
鄱	-13.0018
鬪	-13.0019
拽	-13.002
剙	-13.0023
嵯	-13.0024
淶	-13.0025
夣	-13.0026
另	-13.0026
恰	-13.0026
韝	-13.0027
臬	-13.0027
綟	-13.003
滲	-13.003
扛	-13.003
賙	-13.0031
誾	-13.0031
旴	-13.0032
猒	-13.0033
腯	-13.0034
崢	-13.0034
遡	-13.0036
跛	-13.0037
閈	-13.0037
筲	-13.0038
簷	-13.0038
䰞	-13.0038
礎	-13.0039
坪	-13.0039
茝	-13.004
趫	-13.0041
撟	-13.0043
佻	-13.0043
廽	-13.0044
竂	-13.0045
橙	-13.0045
桮	-13.0047
慼	-13.0047
柢	-13.0053
攏	-13.023
抛	-13.0259
鈸	-13.026
圏	-13.026
埜	-13.026
汊	-13.0261
蜑	-13.0263
鵾	-13.0267
昩	-13.0267
晤	-13.0268
梳	-13.0268
湞	-13.0269
櫻	-13.027
揉	-13.0273
渫	-13.0274
鷟	-13.0275
嚚	-13.0276
瘵	-13.0276
眥	-13.0277
飤	-13.0278
漦	-13.0279
蹠	-13.028
逅	-13.028
蝟	-13.0281
叵	-13.0281
忮	-13.0281
欃	-13.0282
輴	-13.0283
磎	-13.0283
榱	-13.0284
㰱	-13.0286
琱	-13.0287
蔗	-13.029
旍	-13.029
泜	-13.029
仿	-13.0292
􁌘	-13.0292
焭	-13.0299
躄	-13.03
蜼	-13.0497
犦	-13.0497
熨	-13.0507
罩	-13.0511
仔	-13.0511
搔	-13.0512
牣	-13.0514
枲	-13.0515
眡	-13.0516
姐	-13.0516
擡	-13.0517
玕	-13.0518
簨	-13.052
姆	-13.052
倔	-13.0521
𬒳	-13.0521
鬴	-13.0523
姉	-13.0523
羝	-13.0523
揵	-13.0523
羇	-13.0525
顱	-13.0525
茄	-13.0527
洌	-13.0528
晢	-13.0529
饘	-13.053
膋	-13.053
詼	-13.0531
矼	-13.0531
摺	-13.0531
尫	-13.0532
祋	-13.0532
旟	-13.0533
洭	-13.0534
兊	-13.054
謼	-13.054
矇	-13.0541
揲	-13.0543
寞	-13.0544
搥	-13.0555
仝	-13.0765
荃	-13.0767
畬	-13.0768
擘	-13.0769
鬷	-13.077
忸	-13.0771
隩	-13.0774
咒	-13.0774
价	-13.0775
塚	-13.0776
盻	-13.0776
鄡	-13.0776
罌	-13.078
酗	-13.078
尠	-13.078
偈	-13.0781
裦	-13.0781
咷	-13.0782
罟	-13.0782
痕	-13.0783
霏	-13.0785
薁	-13.0785
咏	-13.0787
𤾉	-13.0789
怦	-13.0789
矚	-13.0791
輳	-13.0792
檮	-13.0794
腳	-13.0794
榔	-13.0794
檣	-13.0797
逶	-13.0798
冘	-13.08
嬃	-13.1021
盌	-13.1024
觿	-13.1026
禿	-13.1026
缻	-13.1027
淥	-13.1031
鞵	-13.1032
鰓	-13.1033
褏	-13.1035
沗	-13.1036
蓚	-13.1038
禊	-13.1041
趋	-13.1042
惓	-13.1043
荏	-13.1043
肈	-13.1043
韭	-13.1043
奡	-13.1045
冺	-13.1046
𬗟	-13.1047
跼	-13.1051
燋	-13.1052
吒	-13.1054
葘	-13.1057
憝	-13.1059
呴	-13.1065
欎	-13.129
昰	-13.1295
霰	-13.1297
綮	-13.1298
楠	-13.13
筌	-13.1302
膾	-13.1304
塌	-13.1306
瘐	-13.1307
勠	-13.131
鱉	-13.1311
芹	-13.1312
飫	-13.1312
爍	-13.1312
攫	-13.1312
屹	-13.1313
瀬	-13.1313
埳	-13.1315
髹	-13.1317
䭾	-13.1317
嫖	-13.1319
繦	-13.1319
窬	-13.1319
腆	-13.1319
胝	-13.132
啐	-13.1322
惮	-13.1323
㷀	-13.1325
菌	-13.1326
歘	-13.1332
蚊	-13.1333
臑	-13.1344
唶	-13.1547
柑	-13.1556
丌	-13.1571
嵎	-13.1574
吊	-13.1575
菆	-13.1576
嚙	-13.1576
糊	-13.1576
𤦺	-13.1581
冑	-13.1582
柝	-13.1582
鄫	-13.1582
阯	-13.1582
􁨑	-13.1583
靄	-13.1583
挐	-13.1586
饍	-13.1586
栲	-13.1586
毘	-13.1587
臿	-13.1587
痿	-13.1587
鼇	-13.1587
贐	-13.1587
噤	-13.1587
轎	-13.1589
氲	-13.1589
熠	-13.1589
囤	-13.159
畚	-13.159
脰	-13.1591
嘘	-13.1591
嚻	-13.1592
檟	-13.1593
懵	-13.1593
輵	-13.1594
糖	-13.1595
腊	-13.1595
霹	-13.1595
稲	-13.1596
緗	-13.1596
畯	-13.1596
鑚	-13.1598
鮦	-13.1598
靂	-13.1598
橑	-13.1598
帆	-13.1598
唅	-13.1603
䘖	-13.1605
砮	-13.1605
甽	-13.1608
沕	-13.1611
瀾	-13.1611
悺	-13.1619
怳	-13.1621
鞓	-13.1834
崆	-13.1851
鞘	-13.1852
鞌	-13.1855
桶	-13.1864
諉	-13.1865
僄	-13.1867
蝻	-13.1867
珀	-13.1867
蜒	-13.1868
拄	-13.187
翂	-13.1872
俈	-13.1872
眙	-13.1872
檉	-13.1872
蒺	-13.1873
鍤	-13.1873
跬	-13.1873
魔	-13.1874
喈	-13.1875
蘿	-13.1875
虫	-13.1876
些	-13.1876
磻	-13.1878
沍	-13.1879
偫	-13.1879
跱	-13.1881
惛	-13.1881
酳	-13.1884
獍	-13.1885
嶭	-13.1885
鐶	-13.1886
閙	-13.1887
娃	-13.1887
昛	-13.1887
獪	-13.1887
怫	-13.1888
踧	-13.1888
徨	-13.189
憔	-13.1892
堦	-13.1892
螾	-13.1905
薿	-13.2143
廁	-13.2149
靬	-13.2156
疝	-13.2157
溆	-13.2159
􁆸	-13.2161
敻	-13.2162
膢	-13.2162
暍	-13.2162
擗	-13.2163
濘	-13.2163
萼	-13.2163
硬	-13.2164
灅	-13.2165
櫨	-13.2168
𤨏	-13.217
霫	-13.2172
賒	-13.2172
搦	-13.2172
蛭	-13.2173
𢃄	-13.2174
謜	-13.2175
𥙷	-13.2175
謌	-13.2177
聆	-13.2177
𬒮	-13.2178
蜮	-13.2179
喑	-13.218
揄	-13.2184
泲	-13.2186
㺯	-13.2186
皃	-13.2187
齗	-13.2187
麑	-13.219
惵	-13.2192
枌	-13.2194
芈	-13.2194
纈	-13.2433
睶	-13.2443
絍	-13.2453
稗	-13.2455
么	-13.2457
菓	-13.2464
㳙	-13.2466
騃	-13.2466
插	-13.2466
撣	-13.2467
蔞	-13.2467
巔	-13.2467
沲	-13.2469
咳	-13.247
脤	-13.247
睂	-13.247
鄳	-13.2471
戬	-13.2471
柿	-13.2471
瀼	-13.2471
閌	-13.2471
傚	-13.2473
秺	-13.2473
藂	-13.2473
洳	-13.2474
鵶	-13.2474
鶂	-13.2474
恫	-13.2475
􁃵	-13.2475
飴	-13.2475
净	-13.2476
祤	-13.2476
睫	-13.2477
砰	-13.2478
遝	-13.2479
煢	-13.248
磚	-13.2481
苓	-13.2481
萎	-13.2481
潺	-13.2482
咈	-13.2483
澌	-13.2483
剉	-13.2485
粃	-13.2487
䢴	-13.2487
糅	-13.2492
貣	-13.2494
擥	-13.2494
忖	-13.2505
褭	-13.2761
𫀆	-13.2765
黟	-13.2766
换	-13.2767
鑛	-13.2768
闉	-13.2769
偰	-13.2772
嬛	-13.2773
袜	-13.2775
韉	-13.2775
胞	-13.2776
柙	-13.2778
惸	-13.2778
牕	-13.2781
鮫	-13.2782
蚓	-13.2782
麵	-13.2782
腄	-13.2782
攙	-13.2783
芘	-13.2783
戦	-13.2783
廚	-13.2786
㝎	-13.2788
耋	-13.2789
贜	-13.2789
覯	-13.2789
蹌	-13.2789
咺	-13.279
单	-13.279
壌	-13.2791
靦	-13.2791
魑	-13.2791
喤	-13.2791
𤇺	-13.2793
䰟	-13.2794
礿	-13.2794
肓	-13.2794
婪	-13.2795
穸	-13.2795
錙	-13.2795
轜	-13.2795
姞	-13.2796
丱	-13.2797
䑛	-13.2798
磽	-13.2799
厩	-13.28
匽	-13.2801
瞳	-13.2802
茙	-13.2803
翖	-13.2805
髭	-13.2806
蜿	-13.2807
肋	-13.2807
睇	-13.2816
耉	-13.2816
抺	-13.3076
㪺	-13.3082
膿	-13.3082
琸	-13.3083
卸	-13.3083
䥖	-13.3084
㙮	-13.3085
睟	-13.3086
楓	-13.3088
釭	-13.3088
觽	-13.309
虁	-13.3096
欬	-13.3097
漑	-13.3097
嘽	-13.3097
萑	-13.3099
樣	-13.3102
錘	-13.3102
蘢	-13.3103
蘂	-13.3103
騤	-13.3105
倧	-13.3105
艶	-13.3105
歧	-13.3105
堨	-13.3106
葴	-13.3106
帚	-13.3107
你	-13.3107
盬	-13.3108
楪	-13.3108
綫	-13.3108
熬	-13.3109
坰	-13.311
嵕	-13.311
蛙	-13.311
卣	-13.3111
庳	-13.3111
彠	-13.3111
禔	-13.3111
襞	-13.3112
宁	-13.3113
釧	-13.3114
暌	-13.3115
孶	-13.3116
歃	-13.3117
秫	-13.3118
甾	-13.3118
鱣	-13.3118
疥	-13.3119
袷	-13.312
㽅	-13.3121
蛻	-13.3122
薶	-13.3122
䜴	-13.3122
疢	-13.3122
嘶	-13.3123
匜	-13.3126
膓	-13.3131
芰	-13.3132
鷁	-13.3135
娀	-13.3138
睽	-13.3139
柶	-13.3148
攴	-13.3417
賡	-13.3421
彍	-13.3424
蚌	-13.3425
甖	-13.3431
芽	-13.3431
圑	-13.3432
涒	-13.3433
离	-13.3433
薜	-13.3434
螢	-13.3436
珎	-13.3437
虱	-13.3438
鏹	-13.3439
啾	-13.344
薌	-13.3442
瞷	-13.3443
砌	-13.3443
堧	-13.3443
瀨	-13.3443
寑	-13.3444
廛	-13.3444
􁞗	-13.3444
蜩	-13.3446
踔	-13.3446
蹀	-13.3449
廰	-13.3452
婼	-13.3453
榴	-13.3453
耎	-13.3454
仭	-13.3454
霅	-13.3454
繽	-13.3457
悃	-13.3457
壃	-13.3457
怍	-13.3458
焱	-13.3461
輶	-13.3462
漾	-13.3463
䲭	-13.3467
誶	-13.347
狶	-13.3475
鷫	-13.3484
㯶	-13.3753
苣	-13.3763
朘	-13.3767
垕	-13.3769
㬚	-13.3772
㨂	-13.3773
癉	-13.3776
匙	-13.3778
笇	-13.3778
貅	-13.3779
玃	-13.378
玼	-13.3781
幵	-13.3781
晛	-13.3781
懍	-13.3783
緻	-13.3783
杰	-13.3784
确	-13.3784
㒟	-13.3784
簀	-13.3785
挻	-13.3787
鐍	-13.3789
殣	-13.379
炕	-13.3791
搭	-13.3792
菰	-13.3792
蜴	-13.3794
㳫	-13.3794
糵	-13.3795
棰	-13.3795
𧺫	-13.3795
箧	-13.3796
轊	-13.3796
觔	-13.3796
籤	-13.3796
絆	-13.3797
窀	-13.3797
曀	-13.3797
􁁉	-13.3798
黛	-13.3798
惆	-13.3798
冽	-13.3799
箝	-13.3801
仟	-13.3801
酃	-13.3802
鷖	-13.3803
譓	-13.3803
瓴	-13.3807
銚	-13.3811
莠	-13.3811
攔	-13.4103
岵	-13.4115
劈	-13.4119
帬	-13.4123
窑	-13.4126
瑙	-13.4132
埧	-13.4133
嬀	-13.4134
闤	-13.4136
罅	-13.4137
躪	-13.4138
􁂆	-13.4138
榼	-13.4139
騅	-13.4139
嵓	-13.414
禠	-13.4141
萱	-13.4141
舡	-13.4142
媢	-13.4143
慣	-13.4143
凾	-13.4146
侄	-13.4146
眎	-13.4147
倶	-13.4147
憍	-13.4147
菅	-13.4147
旉	-13.4148
迮	-13.4148
蕝	-13.4148
覓	-13.415
逯	-13.415
﨑	-13.4151
􁇚	-13.4153
泆	-13.4153
驒	-13.4155
鰌	-13.4155
衺	-13.4156
惽	-13.4156
騄	-13.4157
櫪	-13.4157
鐺	-13.4157
磷	-13.4157
喫	-13.4157
潄	-13.4158
邅	-13.4158
􁬜	-13.416
忳	-13.416
觳	-13.4161
餮	-13.4161
􁀐	-13.4166
醼	-13.4167
珌	-13.4169
躇	-13.417
慆	-13.4176
眴	-13.4185
黈	-13.448
淙	-13.4484
琖	-13.4488
捺	-13.4493
佪	-13.4496
B	-13.4499
嵳	-13.4502
蕕	-13.4504
訔	-13.4504
㕓	-13.4506
蠒	-13.4507
襚	-13.4507
笈	-13.4508
犠	-13.4508
墩	-13.451
拶	-13.451
璚	-13.451
穣	-13.4513
醊	-13.4514
釳	-13.4515
凟	-13.4515
葑	-13.4515
暵	-13.4517
禝	-13.4517
涔	-13.4517
醍	-13.4517
檛	-13.4518
鎚	-13.4518
廳	-13.4518
忭	-13.4519
袿	-13.4519
嫠	-13.4519
髫	-13.4521
鏄	-13.4521
憩	-13.4522
邶	-13.4523
䐗	-13.4523
慇	-13.4524
攪	-13.4525
窅	-13.4529
倀	-13.453
嵌	-13.4531
饜	-13.4533
弢	-13.4533
惏	-13.4534
扜	-13.4537
棼	-13.4538
塪	-13.4549
蠖	-13.4552
悁	-13.4864
堌	-13.4875
鞉	-13.4881
趂	-13.4885
佔	-13.4885
惎	-13.4886
閘	-13.4889
丼	-13.489
㚇	-13.4892
殻	-13.4892
溜	-13.4892
廌	-13.4892
牸	-13.4892
嶔	-13.4893
􁀮	-13.4893
涘	-13.4893
胐	-13.4894
霠	-13.4894
砭	-13.4894
傃	-13.4896
蟉	-13.4896
葳	-13.4897
氤	-13.4898
錔	-13.4898
甃	-13.4899
枇	-13.49
侲	-13.49
茈	-13.49
詗	-13.4901
綃	-13.4902
侫	-13.4902
軔	-13.4903
胏	-13.4904
淒	-13.4904
帉	-13.4904
逥	-13.4907
顇	-13.4908
蓀	-13.4908
囏	-13.4909
庵	-13.4909
碏	-13.491
套	-13.491
橦	-13.491
壚	-13.491
扃	-13.491
啞	-13.4911
篴	-13.4911
擩	-13.4912
眯	-13.4915
蝸	-13.4915
戛	-13.4915
嘷	-13.4916
臡	-13.4917
仡	-13.4919
佰	-13.492
崟	-13.4921
癕	-13.4924
躊	-13.4925
惙	-13.4928
芉	-13.4932
陝	-13.5265
穩	-13.5273
秏	-13.5275
餫	-13.5279
傋	-13.528
𥜗	-13.5282
廥	-13.5284
㬭	-13.5285
臀	-13.5286
滍	-13.5286
鵕	-13.5286
酥	-13.5287
杉	-13.5287
罼	-13.5289
埆	-13.5289
鈹	-13.529
䴊	-13.529
馹	-13.5291
耏	-13.5291
蠃	-13.5291
䔍	-13.5292
甦	-13.5295
凊	-13.5297
儌	-13.5298
鄏	-13.5298
傴	-13.5298
訞	-13.5301
詫	-13.5301
鶖	-13.5302
杙	-13.5303
㢸	-13.5303
骫	-13.5304
筳	-13.5304
碙	-13.5305
芡	-13.5306
吭	-13.5306
噎	-13.5307
蜃	-13.5307
巘	-13.5307
漪	-13.5307
劘	-13.5309
秖	-13.531
礦	-13.531
蠕	-13.5311
焜	-13.5311
髾	-13.5311
帊	-13.5312
𧖟	-13.5312
篝	-13.5312
皤	-13.5313
蠋	-13.5315
惨	-13.5317
悱	-13.532
􁝜	-13.5336
撁	-13.5633
恆	-13.5676
岔	-13.5681
豭	-13.5689
涑	-13.5689
噩	-13.5693
蕆	-13.5698
䳒	-13.5699
緫	-13.5701
昜	-13.5701
嚇	-13.5702
俵	-13.5702
饎	-13.5703
芑	-13.5704
螘	-13.5704
摎	-13.5705
閧	-13.5705
廮	-13.5706
懶	-13.5706
癭	-13.5706
䜿	-13.5707
躧	-13.5707
翎	-13.5707
轀	-13.5708
薺	-13.5709
邡	-13.571
爟	-13.5712
庀	-13.5713
焴	-13.5714
䆳	-13.5714
餱	-13.5715
躶	-13.5716
禭	-13.5716
饔	-13.5717
賮	-13.5717
鸛	-13.5717
魃	-13.5717
汛	-13.5718
楼	-13.5718
倂	-13.5719
蟀	-13.5719
噭	-13.572
枸	-13.572
叠	-13.572
咮	-13.5721
薆	-13.5721
曍	-13.5723
硜	-13.5723
媻	-13.5723
岨	-13.5723
㫤	-13.5725
痩	-13.5725
抒	-13.5725
桄	-13.5726
蹐	-13.5727
褌	-13.5727
跕	-13.5729
錧	-13.5729
颷	-13.573
憯	-13.573
韣	-13.5732
婭	-13.5734
磋	-13.5734
胾	-13.5736
瘢	-13.5736
阹	-13.5738
眸	-13.5738
楸	-13.574
㷭	-13.5741
仚	-13.5743
趯	-13.5758
篁	-13.6132
熄	-13.6134
哨	-13.6134
燻	-13.6136
縐	-13.6136
韤	-13.6137
鷲	-13.6139
􁐞	-13.6139
俅	-13.6139
泒	-13.614
瘕	-13.6142
机	-13.6142
蒭	-13.6142
敓	-13.6143
蹛	-13.6144
戻	-13.6145
緭	-13.6145
揃	-13.6145
裋	-13.6146
苧	-13.6148
璥	-13.6148
噓	-13.6149
絇	-13.6149
諗	-13.6149
撩	-13.615
纆	-13.615
釂	-13.6151
藳	-13.6152
愒	-13.6153
塏	-13.6153
笋	-13.6153
袓	-13.6154
蟋	-13.6154
柅	-13.6154
杻	-13.6155
訹	-13.6156
眘	-13.6156
僴	-13.6157
䴡	-13.6157
杆	-13.6157
釦	-13.6159
剿	-13.616
凄	-13.6162
篹	-13.6162
檇	-13.6162
孀	-13.6163
楣	-13.6164
欻	-13.6164
紞	-13.6165
尨	-13.6166
涎	-13.6168
琡	-13.6168
籟	-13.617
㩜	-13.6171
檿	-13.6171
驘	-13.6173
蹰	-13.6174
瞢	-13.6175
渟	-13.6175
厖	-13.6176
豋	-13.6182
鮐	-13.6184
咢	-13.6188
焠	-13.657
渌	-13.6585
􁇨	-13.6588
窩	-13.6589
鞦	-13.6591
浃	-13.6592
鼛	-13.6593
荗	-13.6595
騩	-13.6596
苹	-13.6597
鑱	-13.6602
𣲖	-13.6602
􁧯	-13.6602
囓	-13.6602
驆	-13.6603
􁙆	-13.6604
蜯	-13.6604
㠖	-13.6605
鐲	-13.6605
竚	-13.6605
嶂	-13.6606
鍛	-13.6606
甝	-13.6606
隈	-13.6607
邘	-13.6607
徯	-13.6608
憘	-13.6608
珞	-13.661
娵	-13.661
閾	-13.661
濆	-13.661
簣	-13.6611
詶	-13.6611
歜	-13.6611
瘧	-13.6611
姙	-13.6611
艷	-13.6612
苕	-13.6614
蛆	-13.6615
娙	-13.6616
踝	-13.6616
􁋡	-13.6618
潚	-13.6618
璬	-13.6619
幙	-13.6619
蛩	-13.6619
漚	-13.6619
髕	-13.662
韀	-13.662
鷗	-13.6621
襮	-13.6621
厪	-13.6622
傀	-13.6622
塉	-13.6625
啚	-13.6625
蔥	-13.6626
晬	-13.6627
礱	-13.6627
鶬	-13.6627
煞	-13.6628
捎	-13.6629
屮	-13.663
瀣	-13.6633
蚋	-13.6635
壎	-13.6642
瞼	-13.6656
旎	-13.6656
膀	-13.7045
胱	-13.7045
堝	-13.7049
䫇	-13.7051
㬎	-13.7052
鏢	-13.7057
唏	-13.7058
癿	-13.706
襌	-13.7062
彂	-13.7063
埿	-13.7064
韠	-13.7067
醻	-13.7068
梬	-13.7069
嗢	-13.7071
穜	-13.7072
埴	-13.7073
澘	-13.7073
袀	-13.7077
嗔	-13.7077
呻	-13.7078
摐	-13.7078
婣	-13.7079
觥	-13.708
涗	-13.708
邐	-13.708
薤	-13.708
輣	-13.7082
觷	-13.7082
佋	-13.7082
很	-13.7083
裀	-13.7083
敳	-13.7084
綆	-13.7084
簉	-13.7087
謿	-13.7087
瞬	-13.7087
羕	-13.7088
蟆	-13.7088
䄠	-13.709
幬	-13.7091
䄖	-13.7091
甒	-13.7091
芎	-13.7092
胈	-13.7092
倰	-13.7092
藭	-13.7093
礚	-13.7095
芭	-13.7095
旡	-13.7096
鐻	-13.7096
㖫	-13.7097
頞	-13.7098
呀	-13.7098
怗	-13.7099
鍰	-13.71
轑	-13.7102
嵏	-13.7103
箒	-13.7103
輾	-13.7104
愻	-13.7105
鵁	-13.7114
蒹	-13.7538
挨	-13.7543
貤	-13.7546
輛	-13.7549
遬	-13.755
橪	-13.7551
硖	-13.7551
郚	-13.7557
屜	-13.7558
苜	-13.756
鑞	-13.7561
渺	-13.7563
麪	-13.7564
艤	-13.7564
蓿	-13.7564
卺	-13.7565
尭	-13.7566
栘	-13.7566
僿	-13.7567
觕	-13.7568
䂎	-13.757
袠	-13.757
邔	-13.7571
毯	-13.7571
廋	-13.7573
䟱	-13.7574
暾	-13.7575
槱	-13.7575
串	-13.7575
鉄	-13.7576
紑	-13.7576
滙	-13.7577
娖	-13.7577
鼷	-13.7578
㝡	-13.7579
懬	-13.758
訽	-13.7581
抆	-13.7581
㢠	-13.7581
稑	-13.7582
􁣕	-13.7582
嚶	-13.7583
朅	-13.7583
罝	-13.7583
嬈	-13.7583
纜	-13.7583
縯	-13.7584
鄽	-13.7584
淈	-13.7585
䀋	-13.7585
瞍	-13.7585
嗽	-13.7586
抔	-13.7586
敭	-13.7586
鷇	-13.7586
餕	-13.7587
痏	-13.7587
籀	-13.7587
㶏	-13.7587
湄	-13.759
唊	-13.7591
軷	-13.7591
汩	-13.7591
靷	-13.7593
鴇	-13.7593
妳	-13.7594
挏	-13.7595
祍	-13.7596
嚨	-13.7596
敲	-13.7596
旿	-13.7597
蓁	-13.7598
縕	-13.7599
枻	-13.7602
篪	-13.7602
臶	-13.7604
澎	-13.7605
荄	-13.7605
蜕	-13.7611
稭	-13.7612
玈	-13.7613
唼	-13.7614
孅	-13.7617
嗸	-13.7622
鄋	-13.7631
􁐟	-13.8064
㯹	-13.8066
莨	-13.8068
睔	-13.8077
雚	-13.8077
硝	-13.8077
梭	-13.8083
蕡	-13.8083
潟	-13.8084
䛇	-13.8084
卮	-13.8087
薔	-13.8088
鎡	-13.8089
檡	-13.809
騣	-13.809
􁙽	-13.8091
檦	-13.8094
墝	-13.8095
瘤	-13.8096
勮	-13.8097
掬	-13.8097
麯	-13.8098
槎	-13.81
僃	-13.81
昳	-13.81
噴	-13.81
酧	-13.8101
蝎	-13.8101
􁌾	-13.8101
襍	-13.8102
钁	-13.8102
悄	-13.8103
眈	-13.8103
駛	-13.8104
睛	-13.8105
㵒	-13.8105
娟	-13.8106
尞	-13.8107
姣	-13.8107
蓰	-13.8107
猱	-13.8107
驄	-13.8108
苔	-13.8108
郍	-13.8108
􁚠	-13.8109
讕	-13.8109
􁀫	-13.8109
婬	-13.8109
摴	-13.811
楩	-13.811
􁐅	-13.811
蝚	-13.811
湲	-13.8111
緥	-13.8112
噂	-13.8112
蓧	-13.8112
䏰	-13.8112
㬋	-13.8113
糯	-13.8113
姝	-13.8113
簸	-13.8113
篙	-13.8114
薳	-13.8115
釱	-13.8115
墄	-13.8115
漊	-13.8115
犫	-13.8116
屆	-13.8117
椑	-13.8118
惘	-13.8118
韎	-13.8118
倎	-13.8119
䒭	-13.8119
牏	-13.812
郸	-13.8121
樺	-13.8122
蚪	-13.8123
狴	-13.8124
橜	-13.8124
咋	-13.8126
癖	-13.8126
甪	-13.8127
爝	-13.8127
鑌	-13.8128
莪	-13.813
匵	-13.8131
肢	-13.8131
曶	-13.8132
噏	-13.8133
葩	-13.8134
柈	-13.8135
洼	-13.8136
抶	-13.8139
藟	-13.8139
傱	-13.8147
恁	-13.8148
􁑵	-13.861
繯	-13.8615
猩	-13.8621
窌	-13.8633
􁝠	-13.8633
嵒	-13.8633
呦	-13.8636
熉	-13.8637
衲	-13.864
齟	-13.8644
䘲	-13.8646
齰	-13.8646
瀰	-13.8647
笴	-13.8648
獐	-13.8649
璙	-13.865
厎	-13.8651
倳	-13.8652
箙	-13.8653
鸃	-13.8654
銲	-13.8655
栝	-13.8655
膜	-13.8655
盒	-13.8655
濺	-13.8656
蝱	-13.8656
侹	-13.8656
㝛	-13.8656
枃	-13.8657
樟	-13.8657
茬	-13.8657
茜	-13.8657
趄	-13.8658
脹	-13.8659
橚	-13.8659
嗌	-13.8661
糈	-13.8661
溠	-13.8662
棍	-13.8663
聮	-13.8663
窓	-13.8664
䜌	-13.8664
捋	-13.8664
茇	-13.8667
带	-13.8667
儇	-13.8668
剚	-13.8668
甀	-13.8669
㩦	-13.8669
鮭	-13.867
喩	-13.867
觹	-13.867
懊	-13.867
鯤	-13.8671
牗	-13.8671
囙	-13.8673
籯	-13.8673
䆮	-13.8674
懴	-13.8674
涽	-13.8674
谾	-13.8675
禴	-13.8675
頬	-13.8676
荑	-13.8676
諼	-13.8677
橅	-13.8677
蟊	-13.8677
呰	-13.8677
紒	-13.8678
鮆	-13.8678
籲	-13.8679
洟	-13.8679
稺	-13.868
㟭	-13.868
罳	-13.8681
罙	-13.8681
炰	-13.8683
棖	-13.8684
竆	-13.8685
嬾	-13.8685
玹	-13.8686
閜	-13.8687
䪥	-13.8689
䟆	-13.8689
斖	-13.869
鄅	-13.8691
噱	-13.8693
螳	-13.8693
鴐	-13.8694
胳	-13.8695
猘	-13.8696
觡	-13.8697
眛	-13.9212
緅	-13.9215
腠	-13.9217
礟	-13.9219
渰	-13.9221
眜	-13.9225
爺	-13.9225
涞	-13.9229
俔	-13.9229
頍	-13.9231
硰	-13.9231
㴻	-13.9233
䢵	-13.9233
烖	-13.9234
巛	-13.9235
擷	-13.9236
蛉	-13.9237
飶	-13.9237
嚞	-13.9238
桔	-13.9238
袥	-13.924
􁂺	-13.9241
剟	-13.9241
䝠	-13.9241
棝	-13.9241
髤	-13.9243
扳	-13.9244
炷	-13.9245
柤	-13.9246
𣢾	-13.9246
斲	-13.9246
覉	-13.9246
甍	-13.9247
敡	-13.9247
踘	-13.9247
繈	-13.9248
鷸	-13.9248
醑	-13.9249
抨	-13.925
週	-13.925
㐲	-13.925
雰	-13.9251
瓏	-13.9251
葫	-13.9252
堀	-13.9252
蠙	-13.9252
隮	-13.9253
蜥	-13.9254
餬	-13.9254
瑫	-13.9254
穟	-13.9254
劌	-13.9254
畼	-13.9254
嵸	-13.9256
騧	-13.9257
餚	-13.9258
鄷	-13.9258
凜	-13.9259
沘	-13.9259
浥	-13.926
􁇒	-13.926
胛	-13.926
裊	-13.9261
啁	-13.9262
砢	-13.9262
倈	-13.9262
姤	-13.9262
齠	-13.9263
纏	-13.9265
輭	-13.9265
莝	-13.9265
瀁	-13.9266
俀	-13.9267
綷	-13.9267
蓏	-13.9267
鍖	-13.9269
鎩	-13.9269
㻛	-13.9269
擺	-13.9271
萁	-13.9272
礧	-13.9272
鈗	-13.9272
甗	-13.9273
膰	-13.9274
抏	-13.9275
澨	-13.9276
萩	-13.9281
迆	-13.9282
䊸	-13.9282
㜸	-13.9285
嫮	-13.9298
撈	-13.9307
旖	-13.9311
撦	-13.9816
鑼	-13.9836
筤	-13.9837
鱓	-13.9839
蹬	-13.9841
薠	-13.9845
鞲	-13.9845
樝	-13.9848
麰	-13.9856
礨	-13.9856
汋	-13.9857
榘	-13.9858
醞	-13.9859
陗	-13.9861
裶	-13.9862
頏	-13.9862
麊	-13.9863
裻	-13.9865
􁁏	-13.9865
悪	-13.9866
㒒	-13.9867
閺	-13.9867
疐	-13.9868
踶	-13.9869
咥	-13.9869
鵷	-13.987
晫	-13.9871
淋	-13.9871
鵔	-13.9873
鯈	-13.9874
筥	-13.9875
栱	-13.9875
稿	-13.9875
麀	-13.9876
枿	-13.9877
鶵	-13.9878
泂	-13.9878
鉸	-13.9878
闑	-13.9878
髳	-13.9879
慌	-13.9879
餁	-13.9882
蓆	-13.9883
笲	-13.9883
灨	-13.9884
㶚	-13.9884
洑	-13.9884
膴	-13.9885
蹯	-13.9885
噣	-13.9885
銶	-13.9885
鋼	-13.9886
褎	-13.9887
皪	-13.9887
戭	-13.9887
癢	-13.9888
蘘	-13.9888
畊	-13.9888
穄	-13.9888
歠	-13.9889
戅	-13.989
䑽	-13.989
􁚫	-13.989
㧖	-13.9891
鈃	-13.9891
鍉	-13.9892
孌	-13.9892
撇	-13.9893
鵜	-13.9895
􁆲	-13.9896
垝	-13.99
嫕	-13.99
陻	-13.9901
瓆	-13.9901
醤	-13.9902
􁀒	-13.9902
胖	-13.9902
撠	-13.9903
皚	-13.9903
坏	-13.9904
棽	-13.9904
穊	-13.9918
㘰	-13.9923
煕	-14.0499
琄	-14.0501
㒡	-14.0513
􁈞	-14.0514
潩	-14.0515
􁞧	-14.0519
獶	-14.0519
幍	-14.0522
醵	-14.0522
箄	-14.0522
䣛	-14.0523
陡	-14.0523
潑	-14.0525
窯	-14.0525
楡	-14.0525
巇	-14.0525
􁰳	-14.0526
臟	-14.0528
圂	-14.053
㲲	-14.053
畛	-14.053
畹	-14.0531
髆	-14.0531
綀	-14.0531
粵	-14.0533
綧	-14.0534
裵	-14.0535
訿	-14.0536
徉	-14.0536
鐐	-14.0536
姍	-14.0538
涫	-14.0538
甜	-14.0539
𦂳	-14.0539
賧	-14.0539
嵫	-14.0539
謪	-14.0539
蓯	-14.0539
唁	-14.0539
潬	-14.054
澐	-14.054
麕	-14.054
甎	-14.0541
茆	-14.0541
玲	-14.0542
紃	-14.0542
豰	-14.0543
媠	-14.0543
狢	-14.0543
芔	-14.0544
圁	-14.0546
鐬	-14.0546
輞	-14.0547
媱	-14.0548
蚴	-14.0548
瀺	-14.0549
翯	-14.0549
踦	-14.0549
堈	-14.055
忷	-14.055
􁆹	-14.055
淟	-14.055
垤	-14.055
臮	-14.0551
𢷬	-14.0551
搨	-14.0552
珤	-14.0552
嶙	-14.0552
垻	-14.0553
硎	-14.0554
廑	-14.0554
䝿	-14.0554
跇	-14.0554
鞔	-14.0556
迢	-14.0557
𥚹	-14.0557
陼	-14.0557
紉	-14.0557
稸	-14.0558
簦	-14.0558
楔	-14.056
圬	-14.056
𤏡	-14.056
萋	-14.056
䚟	-14.0561
淢	-14.0562
墁	-14.0564
肫	-14.0564
騱	-14.0565
鄛	-14.0565
溴	-14.0566
逑	-14.0567
爓	-14.0568
譊	-14.0568
塍	-14.0568
鸗	-14.0572
晣	-14.0572
踳	-14.0573
箾	-14.0573
瑳	-14.0578
蜉	-14.0581
嶕	-14.0583
餈	-14.0585
兪	-14.0588
轙	-14.0595
孼	-14.119
巿	-14.1196
䙆	-14.1198
蟯	-14.1227
佀	-14.1233
儤	-14.1235
涙	-14.1235
揕	-14.1236
礠	-14.1237
毼	-14.1239
􁀔	-14.1239
愭	-14.1242
岯	-14.1242
菀	-14.1244
揩	-14.1244
泅	-14.1245
諟	-14.1246
霪	-14.1246
剜	-14.1246
溳	-14.1247
聒	-14.1247
繶	-14.1248
瓔	-14.1249
坱	-14.1249
糙	-14.1249
咲	-14.125
侶	-14.125
汐	-14.125
娓	-14.125
齲	-14.1251
矮	-14.1251
夑	-14.1251
菫	-14.1253
搬	-14.1254
慓	-14.1255
灄	-14.1255
諓	-14.1257
叄	-14.1258
籧	-14.1258
丝	-14.1258
鑷	-14.1258
􁑼	-14.1259
簏	-14.1259
疃	-14.126
翾	-14.126
蕳	-14.126
慁	-14.126
􁇋	-14.1261
嫵	-14.1261
碍	-14.1261
鴿	-14.1261
湋	-14.1262
胠	-14.1262
瀟	-14.1262
㠓	-14.1263
隑	-14.1263
暙	-14.1263
懘	-14.1263
晥	-14.1264
踖	-14.1264
䥴	-14.1264
訇	-14.1265
謖	-14.1266
蜋	-14.1266
涊	-14.1266
箯	-14.1268
瞭	-14.1268
箐	-14.1269
惉	-14.127
􁃕	-14.127
衜	-14.1271
毚	-14.1271
柎	-14.1272
熢	-14.1272
珧	-14.1273
瀹	-14.1273
愊	-14.1275
淐	-14.1275
憗	-14.1275
儡	-14.1276
籑	-14.1276
糝	-14.1276
獼	-14.1276
囁	-14.1276
泡	-14.1276
浡	-14.1277
岏	-14.1278
鎌	-14.128
􁘞	-14.1281
蜎	-14.1281
踪	-14.1281
秕	-14.1282
呷	-14.1283
塠	-14.1283
蠚	-14.1284
巉	-14.1286
蘪	-14.1286
訬	-14.1289
芧	-14.129
灕	-14.1295
攡	-14.1301
馺	-14.132
隇	-14.1962
襢	-14.1979
鏚	-14.1982
縿	-14.1986
髽	-14.1987
艨	-14.1992
綳	-14.1996
敫	-14.1996
矻	-14.1998
恮	-14.1999
忉	-14.2002
袚	-14.2003
醸	-14.2005
蓂	-14.2006
禂	-14.2006
駙	-14.2007
嚄	-14.2009
嗉	-14.201
􁱏	-14.2011
峥	-14.2011
懕	-14.2012
􁛀	-14.2012
纑	-14.2012
錚	-14.2013
刾	-14.2013
瓷	-14.2013
茱	-14.2013
堃	-14.2013
鋏	-14.2014
蠹	-14.2015
偟	-14.2015
衯	-14.2015
櫩	-14.2015
=	-14.2015
t	-14.2015
􁥫	-14.2016
躑	-14.2016
裠	-14.2017
䃮	-14.2018
㟧	-14.2018
穯	-14.2019
篨	-14.2019
俣	-14.202
疉	-14.2021
轞	-14.2022
煤	-14.2022
軥	-14.2022
鄑	-14.2022
皐	-14.2023
拑	-14.2023
拕	-14.2024
㬓	-14.2024
膩	-14.2024
耑	-14.2024
砍	-14.2025
脞	-14.2025
摳	-14.2025
漙	-14.2025
憓	-14.2025
俷	-14.2026
谼	-14.2026
崿	-14.2026
偭	-14.2027
矞	-14.2027
朌	-14.2027
綉	-14.2027
㹠	-14.2029
麏	-14.2029
迾	-14.2029
阱	-14.2029
愾	-14.203
韮	-14.203
溘	-14.203
肮	-14.2031
窽	-14.2031
蓴	-14.2031
捭	-14.2031
醨	-14.2031
䦧	-14.2032
柂	-14.2032
𣅿	-14.2033
嶄	-14.2033
宧	-14.2033
骰	-14.2034
澅	-14.2034
浛	-14.2035
趡	-14.2036
鴰	-14.2036
腓	-14.2037
騈	-14.2037
􁀨	-14.2038
呫	-14.2038
骩	-14.2038
螑	-14.2038
憃	-14.204
閴	-14.2041
瘣	-14.2041
鍋	-14.2042
岋	-14.2042
聦	-14.2042
魍	-14.2043
倥	-14.2044
鄪	-14.2045
峗	-14.2045
蒧	-14.2046
鸑	-14.2047
䴏	-14.2048
鼒	-14.2048
描	-14.2049
埼	-14.2049
鬺	-14.2051
䤈	-14.2052
窊	-14.2053
薉	-14.2054
唳	-14.2058
捂	-14.2058
鮌	-14.2058
鴂	-14.2058
磅	-14.2059
痱	-14.206
䵷	-14.2061
阺	-14.2062
鸕	-14.2062
碝	-14.2063
揳	-14.2063
蓊	-14.2069
谽	-14.2069
顩	-14.2077
柸	-14.208
桼	-14.2088
鶼	-14.2088
鷤	-14.2105
犕	-14.2817
綡	-14.2817
溽	-14.2819
貓	-14.2823
艟	-14.2824
磵	-14.2826
茯	-14.2826
枰	-14.2831
鐏	-14.2836
葰	-14.2837
污	-14.2837
㡊	-14.2838
桺	-14.2839
璅	-14.2841
捥	-14.2841
搊	-14.2842
狻	-14.2842
畟	-14.2843
听	-14.2843
焕	-14.2843
籸	-14.2843
嫺	-14.2843
􁄧	-14.2844
憧	-14.2844
㠶	-14.2844
堋	-14.2844
瓖	-14.2844
裭	-14.2846
飊	-14.2846
崍	-14.2847
麛	-14.2848
豻	-14.2848
㮙	-14.2849
傿	-14.2849
轤	-14.2849
>	-14.2849
睺	-14.285
蜍	-14.2851
竸	-14.2851
蠵	-14.2851
緵	-14.2851
袄	-14.2852
窪	-14.2852
眤	-14.2852
羶	-14.2852
齱	-14.2852
餳	-14.2853
𠻳	-14.2853
啑	-14.2853
碇	-14.2854
僾	-14.2855
阤	-14.2855
㷊	-14.2855
潗	-14.2856
蚕	-14.2856
焫	-14.2856
簺	-14.2857
㡳	-14.2857
燀	-14.2857
墐	-14.2857
䛒	-14.2858
葡	-14.2858
獎	-14.2858
跮	-14.2858
閃	-14.2858
鵂	-14.2859
踱	-14.2859
壈	-14.286
剕	-14.286
饁	-14.286
瘍	-14.2861
䥫	-14.2862
澒	-14.2862
嘒	-14.2862
迃	-14.2862
嘑	-14.2862
穭	-14.2863
邨	-14.2864
鷮	-14.2864
迍	-14.2865
篲	-14.2866
㥦	-14.2866
鞕	-14.2868
嫋	-14.2868
􁁦	-14.2868
趹	-14.2869
薙	-14.287
稳	-14.287
婞	-14.287
裯	-14.287
曒	-14.2871
輊	-14.2871
漻	-14.2872
馯	-14.2872
𣆀	-14.2872
萭	-14.2873
滱	-14.2873
痢	-14.2874
瀑	-14.2874
傪	-14.2874
跟	-14.2874
籓	-14.2874
胲	-14.2874
􁆭	-14.2877
磕	-14.2877
苡	-14.2878
忩	-14.2879
珵	-14.2879
倞	-14.2881
魎	-14.2882
竫	-14.2882
抴	-14.2882
鞚	-14.2883
苃	-14.2886
峋	-14.2887
謷	-14.2888
醟	-14.2888
沚	-14.289
蝇	-14.2893
韁	-14.2893
崫	-14.2894
醓	-14.2895
蝘	-14.2897
曬	-14.2898
栿	-14.2899
䆃	-14.2904
硠	-14.2911
䂍	-14.3705
廝	-14.3713
􁎑	-14.3717
鞙	-14.3717
㠋	-14.3732
湑	-14.3737
𪠘	-14.374
嵲	-14.3741
􁡷	-14.3741
騪	-14.3741
塸	-14.3743
辿	-14.3743
渒	-14.3744
穅	-14.3744
槿	-14.3746
嘛	-14.3746
緲	-14.3746
獂	-14.3748
蟃	-14.3748
櫧	-14.3748
𠞰	-14.375
酲	-14.3751
罨	-14.3752
𠢐	-14.3752
􁰺	-14.3752
逴	-14.3753
釴	-14.3753
灈	-14.3753
􁂷	-14.3754
㵼	-14.3754
襆	-14.3754
曏	-14.3757
漓	-14.3758
瘥	-14.3759
殭	-14.3759
屎	-14.3759
􁊯	-14.376
椰	-14.3761
馗	-14.3762
彡	-14.3762
􁀊	-14.3762
鶠	-14.3762
檠	-14.3763
崏	-14.3763
鱄	-14.3764
鏵	-14.3764
靠	-14.3764
绳	-14.3764
蛫	-14.3764
邗	-14.3765
葠	-14.3765
滫	-14.3765
萯	-14.3765
瑝	-14.3765
軮	-14.3766
喣	-14.3767
鎋	-14.3768
逎	-14.3768
岠	-14.3769
幐	-14.3769
䗍	-14.377
􁈩	-14.3771
隝	-14.3771
狨	-14.3772
虀	-14.3772
俑	-14.3772
窣	-14.3773
繙	-14.3773
蚺	-14.3773
衊	-14.3773
㬅	-14.3773
鱏	-14.3774
櫡	-14.3774
瓵	-14.3774
溓	-14.3774
䍦	-14.3775
􁱒	-14.3775
坯	-14.3775
鰲	-14.3775
曛	-14.3775
糇	-14.3776
𩔖	-14.3776
籜	-14.3776
袨	-14.3777
飇	-14.3777
鬉	-14.3777
鄨	-14.3777
勌	-14.3777
栞	-14.3778
駡	-14.3778
漱	-14.3779
蝥	-14.378
癩	-14.3781
郏	-14.3782
􁅩	-14.3782
袑	-14.3782
瀄	-14.3782
聓	-14.3782
雘	-14.3783
佁	-14.3783
戔	-14.3784
齔	-14.3784
縓	-14.3785
樠	-14.3785
玟	-14.3785
臞	-14.3786
瓡	-14.3786
檽	-14.3787
𢾗	-14.3787
磈	-14.3788
幗	-14.3788
豲	-14.3788
櫌	-14.3788
𥚑	-14.3789
犵	-14.3789
肚	-14.3789
碆	-14.379
袘	-14.379
濔	-14.379
嫈	-14.3791
屼	-14.3791
尿	-14.3792
螹	-14.3793
䄡	-14.3793
粽	-14.3796
麨	-14.3796
𡑞	-14.3796
蹢	-14.3796
􁩪	-14.3796
懻	-14.3797
唫	-14.3797
硋	-14.3797
橇	-14.38
幌	-14.3806
㽦	-14.3808
鰒	-14.3808
駍	-14.3808
幓	-14.381
鎣	-14.3814
扐	-14.3815
鷞	-14.3831
嶊	-14.3834
羋	-14.4701
䩺	-14.4713
􁥟	-14.4721
􁑶	-14.4721
皙	-14.4726
甡	-14.4727
戄	-14.473
藨	-14.473
􁍔	-14.4731
赱	-14.4734
拌	-14.4734
裌	-14.4735
拐	-14.4738
浯	-14.4739
洱	-14.4741
􁪳	-14.4742
褖	-14.4744
昢	-14.4744
郉	-14.4745
􁚚	-14.4745
颮	-14.4746
橰	-14.4747
曚	-14.4747
罐	-14.4751
嫭	-14.4752
奫	-14.4752
饅	-14.4753
l	-14.4753
奧	-14.4754
玻	-14.4754
蠼	-14.4754
蕈	-14.4755
爗	-14.4755
㨱	-14.4755
羍	-14.4756
􁱑	-14.4756
羚	-14.4756
􁉌	-14.4756
嘱	-14.4757
䯻	-14.4757
藋	-14.4758
􁠾	-14.4758
鋊	-14.476
㝵	-14.4761
掀	-14.4762
鬟	-14.4762
柺	-14.4762
躈	-14.4763
􁑛	-14.4763
墪	-14.4763
徕	-14.4763
麖	-14.4764
蕎	-14.4764
鬃	-14.4764
䬃	-14.4765
禬	-14.4765
睪	-14.4765
㬇	-14.4765
􁐕	-14.4765
靶	-14.4766
颿	-14.4767
禗	-14.4767
掔	-14.4767
瓿	-14.4767
妊	-14.4768
欑	-14.4769
艇	-14.4769
瑍	-14.4769
瓞	-14.477
㺹	-14.4771
芼	-14.4771
􁀈	-14.4772
唄	-14.4772
籋	-14.4772
鍭	-14.4772
璐	-14.4772
梠	-14.4773
崒	-14.4774
猲	-14.4774
􁗥	-14.4774
疴	-14.4774
䲛	-14.4775
鍬	-14.4775
嶐	-14.4776
湁	-14.4776
莛	-14.4776
鞀	-14.4776
虨	-14.4777
稈	-14.4777
杶	-14.4777
撅	-14.4778
暁	-14.4778
㴞	-14.4778
孊	-14.4778
劼	-14.4779
橡	-14.4779
嫓	-14.4779
蝶	-14.4779
鰐	-14.4779
鷃	-14.478
輄	-14.478
胼	-14.478
楀	-14.478
攖	-14.4781
􁂠	-14.4781
蟂	-14.4781
楬	-14.4781
巚	-14.4782
苒	-14.4782
侐	-14.4782
灂	-14.4783
銙	-14.4783
鄸	-14.4784
䌓	-14.4784
嚬	-14.4784
惷	-14.4784
鼃	-14.4784
甔	-14.4785
悾	-14.4785
嗁	-14.4785
彯	-14.4785
鬩	-14.4785
聸	-14.4785
緺	-14.4786
窐	-14.4787
􁆶	-14.4787
詾	-14.4788
醲	-14.4788
􁏳	-14.479
尢	-14.479
訒	-14.4791
鄁	-14.4792
􁃊	-14.4792
訦	-14.4792
㸐	-14.4792
飂	-14.4793
碕	-14.4793
靸	-14.4794
漴	-14.4794
䧢	-14.4794
鱷	-14.4795
輠	-14.4795
篠	-14.4796
鵩	-14.4796
崣	-14.4796
頳	-14.4796
橤	-14.4796
蓩	-14.4798
薏	-14.4799
鼕	-14.4799
韔	-14.48
蘺	-14.4801
檥	-14.4801
邟	-14.4801
鰬	-14.4802
疣	-14.4804
劋	-14.4804
蒢	-14.4806
鶘	-14.4806
縌	-14.4806
罏	-14.4809
愸	-14.4809
崪	-14.4809
㵯	-14.481
嶻	-14.4812
骭	-14.4813
貏	-14.4814
繐	-14.4816
鱐	-14.4817
􁇟	-14.482
炸	-14.4821
鵑	-14.4879
倴	-14.5833
鴽	-14.5839
缿	-14.5839
滳	-14.5839
庣	-14.584
騼	-14.5841
􁞫	-14.5844
鞢	-14.5847
鵄	-14.5849
蠝	-14.5849
櫚	-14.5852
褔	-14.5854
㑄	-14.5855
齩	-14.5855
㯉	-14.5856
獟	-14.5856
奰	-14.5857
䝱	-14.5858
冣	-14.5859
縰	-14.5859
悻	-14.5861
璯	-14.5861
􁁬	-14.5863
㓗	-14.5863
奅	-14.5863
􁕐	-14.5863
癹	-14.5864
瞠	-14.5864
忔	-14.5864
駻	-14.5864
嶰	-14.5864
韵	-14.5864
湨	-14.5864
旜	-14.5865
悈	-14.5865
廿	-14.5865
􁁲	-14.5865
􁯷	-14.5866
瀵	-14.5866
凴	-14.5867
唆	-14.5867
圌	-14.5867
鞹	-14.5867
堽	-14.5867
巗	-14.5868
艚	-14.5868
邧	-14.5868
鑁	-14.5868
厫	-14.5869
罥	-14.5869
趕	-14.5869
蠺	-14.5869
㢲	-14.587
睍	-14.587
筓	-14.587
献	-14.5871
鶹	-14.5871
嗕	-14.5871
趦	-14.5872
瓫	-14.5872
䍽	-14.5872
殰	-14.5872
捻	-14.5872
􁝉	-14.5872
冪	-14.5872
秅	-14.5872
舐	-14.5873
鱠	-14.5873
旝	-14.5873
弰	-14.5873
枅	-14.5873
凹	-14.5874
斨	-14.5874
鳧	-14.5874
猳	-14.5874
熅	-14.5874
堲	-14.5875
爹	-14.5875
狿	-14.5876
戺	-14.5876
僙	-14.5876
<	-14.5876
闃	-14.5876
T	-14.5876
楱	-14.5877
㑓	-14.5877
㣥	-14.5878
􁌫	-14.5878
綍	-14.5878
漵	-14.5878
瑘	-14.5879
丏	-14.5879
匆	-14.5879
趑	-14.5879
萸	-14.588
駉	-14.5882
鼫	-14.5882
呶	-14.5882
襻	-14.5882
黮	-14.5882
兟	-14.5883
煆	-14.5883
幩	-14.5883
蠓	-14.5884
匀	-14.5884
鍥	-14.5885
齚	-14.5886
鎪	-14.5886
酏	-14.5886
蝡	-14.5886
躩	-14.5886
衵	-14.5886
韲	-14.5887
鷓	-14.5887
丧	-14.5888
㹪	-14.5888
惱	-14.5888
㴔	-14.5889
箬	-14.5889
鼯	-14.589
􁥗	-14.589
愓	-14.589
騕	-14.589
茷	-14.589
畷	-14.589
癥	-14.5891
脡	-14.5891
跎	-14.5891
眕	-14.5891
蕒	-14.5891
頮	-14.5892
膈	-14.5892
姱	-14.5892
佹	-14.5893
慵	-14.5893
堺	-14.5894
跅	-14.5894
鉟	-14.5895
嘄	-14.5895
鮓	-14.5895
㭬	-14.5895
忡	-14.5895
鴒	-14.5896
癯	-14.5897
掫	-14.5897
墼	-14.5897
􁒧	-14.5897
抝	-14.5898
𨵦	-14.5898
崴	-14.5899
鰅	-14.5899
􁑳	-14.59
㹀	-14.5901
魠	-14.5902
关	-14.5902
􁏔	-14.5903
􁍵	-14.5905
疻	-14.5905
矸	-14.5906
搯	-14.5906
傶	-14.5907
檋	-14.5908
轥	-14.5908
瞥	-14.5908
垘	-14.5909
籃	-14.5909
魖	-14.591
㩻	-14.5911
㓻	-14.5911
觩	-14.5912
遟	-14.5913
掜	-14.5913
獝	-14.5914
怕	-14.5915
脟	-14.5917
奘	-14.5917
臛	-14.5919
沄	-14.5919
庄	-14.592
蜓	-14.5926
􁁪	-14.5927
扱	-14.5927
篷	-14.5928
浼	-14.5938
踢	-14.5949
祡	-14.5956
􁞙	-14.5965
䳏	-14.5976
嶟	-14.6018
鐖	-14.7081
鵙	-14.7082
靿	-14.7083
磍	-14.7085
蟈	-14.7091
䮷	-14.7094
轆	-14.7096
懀	-14.7097
愐	-14.7098
絅	-14.7099
惪	-14.7099
𨫼	-14.71
﨣	-14.71
㳄	-14.7102
牥	-14.7102
滶	-14.7103
躒	-14.7104
壐	-14.7104
槧	-14.7107
赐	-14.711
篩	-14.7111
餟	-14.7111
􁊬	-14.7111
姼	-14.7111
譸	-14.7112
輂	-14.7112
拗	-14.7112
䘐	-14.7112
㦧	-14.7113
棡	-14.7113
楟	-14.7114
胹	-14.7114
歫	-14.7114
嫘	-14.7115
罾	-14.7115
瑬	-14.7116
絏	-14.7116
冔	-14.7117
礉	-14.7118
劃	-14.7118
狋	-14.7119
柮	-14.7119
謏	-14.712
泃	-14.712
枘	-14.7121
􁂚	-14.7121
䜭	-14.7121
趐	-14.7121
㮣	-14.7121
拲	-14.7121
椓	-14.7122
凂	-14.7123
侜	-14.7123
枓	-14.7123
綣	-14.7123
􁂴	-14.7124
􁆦	-14.7124
臊	-14.7124
礴	-14.7124
漈	-14.7125
鏠	-14.7125
臩	-14.7126
槻	-14.7126
晌	-14.7126
坁	-14.7127
􁞰	-14.7127
蝀	-14.7127
嚊	-14.7127
𥪡	-14.7128
䆠	-14.7128
䘚	-14.7128
脧	-14.7128
晹	-14.7129
篣	-14.7129
糿	-14.7129
躢	-14.713
粕	-14.713
硏	-14.713
褍	-14.7131
遰	-14.7131
綎	-14.7131
儜	-14.7131
啣	-14.7131
骳	-14.7131
戫	-14.7132
軆	-14.7132
緁	-14.7132
磴	-14.7132
濅	-14.7132
􁂒	-14.7132
毹	-14.7132
轃	-14.7133
㞕	-14.7133
鞂	-14.7133
鍱	-14.7133
蕨	-14.7133
恌	-14.7133
濉	-14.7133
鸎	-14.7133
鐇	-14.7134
褀	-14.7134
􁇳	-14.7135
槲	-14.7135
􁄭	-14.7136
妝	-14.7137
瞱	-14.7137
俴	-14.7137
鏌	-14.7138
朸	-14.7138
瞪	-14.7139
琫	-14.7139
獌	-14.7139
騬	-14.7139
峕	-14.7139
嶶	-14.714
娸	-14.714
絟	-14.7141
艸	-14.7141
焍	-14.7141
暦	-14.7142
凷	-14.7142
瀯	-14.7142
㣧	-14.7143
繿	-14.7143
鶮	-14.7143
鏟	-14.7143
纇	-14.7143
戳	-14.7143
嫳	-14.7143
崕	-14.7143
潎	-14.7144
荇	-14.7144
彄	-14.7144
嚌	-14.7144
瘃	-14.7145
弸	-14.7145
嚏	-14.7145
皬	-14.7145
􁠝	-14.7145
鷦	-14.7147
厷	-14.7148
鈲	-14.7148
鰭	-14.715
嚜	-14.715
嘰	-14.715
痂	-14.715
轠	-14.715
跔	-14.7151
綪	-14.7151
絣	-14.7152
䫫	-14.7152
豽	-14.7152
飰	-14.7154
滭	-14.7154
醎	-14.7154
𠖇	-14.7155
屝	-14.7156
孃	-14.7157
烕	-14.7157
嶚	-14.7157
攃	-14.7157
稆	-14.7157
誷	-14.7158
鷀	-14.7158
挼	-14.7158
斸	-14.7158
臈	-14.7159
慗	-14.7159
坿	-14.716
皜	-14.716
輀	-14.7161
狫	-14.7161
辣	-14.7161
鼲	-14.7162
痟	-14.7162
蝣	-14.7163
蚶	-14.7164
惝	-14.7165
硾	-14.7165
滃	-14.7165
䴵	-14.7165
缚	-14.7166
𣗳	-14.7166
𥅆	-14.7166
狖	-14.7167
棌	-14.7167
韅	-14.7167
峿	-14.7167
唉	-14.7168
嬐	-14.717
痔	-14.7173
姹	-14.7176
踠	-14.7181
爌	-14.7185
鷛	-14.7191
淠	-14.7192
䧴	-14.7193
昒	-14.7198
剞	-14.7202
劂	-14.7202
鵫	-14.7215
僪	-14.8474
撱	-14.8505
澴	-14.8507
㵐	-14.8516
簳	-14.8517
摓	-14.8519
臃	-14.8521
䑹	-14.8523
菖	-14.8524
猼	-14.8526
熯	-14.8529
憻	-14.853
徜	-14.8531
捩	-14.8532
檗	-14.8532
窰	-14.8533
拮	-14.8534
臷	-14.8535
珸	-14.8537
㮈	-14.8538
巹	-14.8538
欖	-14.8538
儘	-14.8539
埇	-14.854
瑲	-14.854
圠	-14.854
暬	-14.854
慳	-14.854
喢	-14.8541
穾	-14.8541
攒	-14.8541
䃶	-14.8541
燖	-14.8542
噌	-14.8542
箆	-14.8543
柹	-14.8543
巠	-14.8544
湳	-14.8544
嘴	-14.8544
喭	-14.8544
枑	-14.8545
汔	-14.8545
獑	-14.8545
勩	-14.8546
㥽	-14.8546
焄	-14.8547
臋	-14.8548
汦	-14.8549
絿	-14.8549
儦	-14.855
繾	-14.855
湆	-14.855
坩	-14.8551
煗	-14.8552
礲	-14.8553
瞫	-14.8553
漅	-14.8553
槳	-14.8553
慜	-14.8553
捴	-14.8553
稌	-14.8554
梱	-14.8555
箘	-14.8556
殈	-14.8556
磼	-14.8556
礏	-14.8556
垾	-14.8556
皞	-14.8556
艴	-14.8556
苽	-14.8557
疪	-14.8558
涣	-14.8558
弮	-14.8558
懺	-14.8559
剻	-14.8559
柁	-14.856
䌫	-14.856
断	-14.856
聈	-14.856
嚾	-14.8561
曕	-14.8562
胍	-14.8562
畺	-14.8562
渼	-14.8563
䙴	-14.8563
惹	-14.8564
惧	-14.8565
溯	-14.8565
絻	-14.8566
櫑	-14.8566
巀	-14.8567
帣	-14.8568
昈	-14.8568
禓	-14.8569
喃	-14.8569
怩	-14.8569
綌	-14.857
嗑	-14.857
獏	-14.857
翲	-14.8571
狺	-14.8571
燹	-14.8572
瑉	-14.8572
粆	-14.8573
亝	-14.8573
榎	-14.8573
殚	-14.8574
㻞	-14.8574
岣	-14.8574
嬌	-14.8574
氿	-14.8574
苪	-14.8575
廧	-14.8575
糚	-14.8575
䖸	-14.8576
瞵	-14.8576
皸	-14.8577
挲	-14.8577
紝	-14.8577
㔻	-14.8577
怜	-14.8578
癎	-14.8578
禈	-14.8578
䔧	-14.8578
嘖	-14.8579
焬	-14.858
櫕	-14.858
哮	-14.858
䫻	-14.8581
槪	-14.8581
嫩	-14.8582
揾	-14.8582
耼	-14.8582
菘	-14.8582
坋	-14.8582
羠	-14.8583
䧿	-14.8584
窫	-14.8585
㛮	-14.8586
㿊	-14.8586
汞	-14.8587
嵔	-14.8588
摟	-14.8588
巃	-14.8589
獾	-14.8589
玏	-14.8589
炔	-14.8589
嬽	-14.8589
茟	-14.8591
懁	-14.8592
㫋	-14.8593
曣	-14.8593
湃	-14.8593
俉	-14.8593
碨	-14.8593
浰	-14.8595
嬓	-14.8601
稂	-14.8601
幺	-14.8604
羱	-14.8604
撚	-14.8608
皭	-14.8609
䱒	-14.861
笫	-14.8612
巆	-14.8613
澔	-14.8617
穏	-14.862
佅	-14.8625
斻	-14.8625
庬	-14.8625
漶	-14.8629
慷	-15.476
僬	-16.3007
齬	-16.3008
韃	-16.3009
詪	-16.301
艋	-16.3011
舴	-16.3012
檳	-16.3013
"	-16.3014
裟	-16.3015
袈	-16.3016
迵	-16.3017
脗	-16.3018
炣	-16.3019
奝	-16.302
偼	-16.3021
昷	-16.3022
㯽	-16.3023
颻	-16.3024
澉	-16.3025
淔	-16.3026
齷	-16.3027
栳	-16.3028
踟	-16.3029
玁	-16.303
蚯	-16.3031
髑	-16.3032
髏	-16.3033
闠	-16.3034
彿	-16.3035
燇	-16.3036
駸	-16.3037
邂	-16.3038
獗	-16.3039
嚈	-16.304
蚄	-16.3041
虸	-16.3042
媳	-16.3043
僶	-16.3044
睥	-16.3045
篌	-16.3046
箜	-16.3047
侂	-16.3048
