<unk>	0
<s>	0
</s>	0
─	-3.58218
之	-4.37783
有	-5.04064
(	-5.06511
以	-5.07469
而	-5.08578
花	-5.21243
不	-5.24617
香	-5.29226
為	-5.31877
一	-5.3239
/	-5.33705
其	-5.38019
中	-5.39943
者	-5.43308
也	-5.44265
)	-5.47852
如	-5.51221
人	-5.52954
生	-5.5853
子	-5.60081
水	-5.70769
山	-5.763
無	-5.78454
於	-5.7846
葉	-5.83495
大	-5.8599
時	-5.89801
春	-5.90827
上	-5.9134
曰	-5.92401
出	-5.93046
風	-5.97099
白	-5.97269
日	-5.97771
石	-6.01388
則	-6.02601
與	-6.02785
作	-6.04278
用	-6.04357
此	-6.08006
黄	-6.0824
自	-6.09818
/)	-6.14805
茶	-6.15198
紅	-6.15386
色	-6.15852
下	-6.17001
得	-6.18016
長	-6.18537
小	-6.20114
三	-6.22445
可	-6.23339
原	-6.23795
見	-6.25655
増	-6.26424
多	-6.26588
入	-6.26923
名	-6.27704
樹	-6.28926
金	-6.30245
亦	-6.31296
云	-6.31372
竹	-6.33579
天	-6.34011
是	-6.36609
成	-6.37074
一名	-6.37947
至	-6.38709
青	-6.39491
草	-6.39968
木	-6.40269
種	-6.40393
玉	-6.40403
在	-6.43107
清	-6.43842
似	-6.44175
開	-6.45395
相	-6.46128
地	-6.46564
秋	-6.47784
氣	-6.48513
枝	-6.48525
州	-6.48797
同	-6.48869
所	-6.49417
又	-6.49658
後	-6.5083
新	-6.50895
方	-6.52164
王	-6.52653
去	-6.52868
皆	-6.52891
雲	-6.53002
未	-6.54288
根	-6.55763
若	-6.5613
食	-6.57754
心	-6.57827
詩	-6.58051
二	-6.59138
紫	-6.59314
月	-6.59941
文	-6.60003
取	-6.60606
然	-6.60661
魚	-6.62366
寒	-6.63264
酒	-6.63284
實	-6.63825
菊	-6.64129
髙	-6.64799
南	-6.65046
乃	-6.65172
五	-6.65283
或	-6.65767
和	-6.65849
宋	-6.66553
今	-6.67662
故	-6.69166
書	-6.70001
明	-6.70179
來	-6.71704
何	-6.71834
硯	-6.72861
前	-6.72934
即	-6.73454
細	-6.73945
華	-6.74096
已	-6.74256
四	-6.74688
▁	-6.7505
頭	-6.75142
雨	-6.75435
家	-6.76
知	-6.76671
增	-6.77261
重	-6.77848
言	-6.79372
初	-6.80283
公	-6.81258
及	-6.81315
兮	-6.81401
松	-6.82481
光	-6.82578
物	-6.82649
老	-6.82734
深	-6.83148
元	-6.83837
欲	-6.83977
非	-6.84796
龍	-6.86164
江	-6.8635
兩	-6.87656
傳	-6.87971
露	-6.89316
行	-6.89363
唐	-6.90282
國	-6.91325
能	-6.92064
分	-6.9346
道	-6.93502
東	-6.94449
異	-6.94904
半	-6.94985
雪	-6.95192
味	-6.9527
宜	-6.95783
墨	-6.95879
正	-6.9593
土	-6.95964
令	-6.96057
處	-6.96218
年	-6.96275
事	-6.97725
間	-6.97902
先	-6.98023
古	-6.98239
林	-6.98665
常	-6.99052
錢	-6.99218
)(	-6.99293
當	-6.9948
陽	-6.99516
西	-6.99784
過	-6.99796
芳	-7.00066
百	-7.00177
熟	-7.00224
梅	-7.00502
落	-7.00683
李	-7.00954
更	-7.01248
内	-7.01717
獨	-7.01773
數	-7.02127
諸	-7.0268
火	-7.03161
外	-7.05507
好	-7.06356
節	-7.06497
盡	-7.07659
矣	-7.07731
平	-7.07813
海	-7.0861
空	-7.09437
品	-7.09564
舊	-7.09856
意	-7.09948
君	-7.09956
滿	-7.10191
本	-7.10381
賦	-7.10723
因	-7.11169
夜	-7.11923
蘭	-7.12009
萬	-7.12068
于	-7.12274
霜	-7.13054
字	-7.13067
合	-7.13494
聞	-7.13786
惟	-7.14381
隂	-7.14546
記	-7.14702
經	-7.15027
客	-7.15411
飛	-7.15581
仙	-7.16375
類	-7.16836
我	-7.17067
来	-7.17101
謂	-7.17917
微	-7.18566
甚	-7.18822
從	-7.19026
朝	-7.19079
輕	-7.19291
緑	-7.19634
千	-7.1986
皮	-7.20049
應	-7.20073
起	-7.2039
張	-7.21006
莖	-7.21414
真	-7.21919
發	-7.22603
衣	-7.2296
餘	-7.23317
復	-7.24224
神	-7.24449
莫	-7.25072
使	-7.25805
九	-7.26238
少	-7.26323
向	-7.26529
世	-7.26924
夏	-7.27666
赤	-7.277
將	-7.28078
始	-7.28326
聲	-7.28525
近	-7.28605
志	-7.28843
通	-7.28894
别	-7.28901
歸	-7.29274
園	-7.31214
雖	-7.31732
翠	-7.31802
法	-7.32977
逺	-7.33064
馬	-7.3311
譜	-7.33147
北	-7.33606
盛	-7.33864
末	-7.34144
安	-7.34145
觀	-7.34146
治	-7.34313
甘	-7.35577
乾	-7.35814
流	-7.35975
勝	-7.36126
易	-7.36234
羅	-7.36616
採	-7.36724
著	-7.36757
每	-7.36884
右	-7.37249
最	-7.37737
藥	-7.37924
猶	-7.38062
凡	-7.38088
桃	-7.38285
美	-7.38643
女	-7.38667
嵗	-7.38938
泉	-7.39783
六	-7.39985
城	-7.40961
池	-7.41195
碧	-7.41582
居	-7.4172
臣	-7.42002
野	-7.4252
面	-7.42929
門	-7.43021
苦	-7.43089
醉	-7.43118
思	-7.43704
形	-7.43798
結	-7.43919
手	-7.43978
蟹	-7.44177
耳	-7.44289
絶	-7.44512
十	-7.44633
乎	-7.44834
柳	-7.45382
珠	-7.45497
陳	-7.46137
筆	-7.46521
冬	-7.48499
誰	-7.48617
太	-7.49091
官	-7.49496
足	-7.49535
但	-7.49697
留	-7.49698
漢	-7.49756
比	-7.50062
氏	-7.506
看	-7.50661
極	-7.50785
佳	-7.50805
録	-7.51037
丹	-7.51079
稱	-7.51465
還	-7.5154
肉	-7.51712
朱	-7.52069
直	-7.52186
冷	-7.52257
帝	-7.52373
靈	-7.52444
焉	-7.52699
含	-7.52936
條	-7.53067
烟	-7.53169
七	-7.53272
次	-7.53679
溪	-7.53805
湯	-7.53951
筍	-7.54102
性	-7.54365
卷	-7.54424
豈	-7.54796
果	-7.55558
許	-7.55737
菜	-7.5575
薄	-7.55766
久	-7.55899
難	-7.56169
竒	-7.56293
夫	-7.5636
折	-7.56434
且	-7.56648
飲	-7.56725
粉	-7.56944
桂	-7.57086
蜜	-7.5732
連	-7.57726
謂之	-7.57744
各	-7.5793
周	-7.57963
必	-7.58263
不可	-7.58292
植	-7.58344
采	-7.58429
叢	-7.58436
英	-7.58633
幽	-7.58822
既	-7.58887
語	-7.58947
散	-7.59079
綠	-7.59218
問	-7.59282
廣	-7.59464
口	-7.60029
身	-7.60201
精	-7.60231
麥	-7.60485
都	-7.60582
嘗	-7.6091
絲	-7.61048
宫	-7.61123
田	-7.61167
眼	-7.61248
對	-7.62396
遂	-7.6282
嘉	-7.62921
帶	-7.62959
八	-7.62963
垂	-7.63033
愛	-7.63069
桑	-7.63475
目	-7.6428
高	-7.64323
影	-7.65149
沙	-7.6565
以為	-7.65734
夢	-7.66203
縣	-7.66314
歌	-7.66386
澤	-7.66386
止	-7.66549
庭	-7.67103
謝	-7.67314
景	-7.67394
照	-7.6775
收	-7.67996
潤	-7.68146
並	-7.68274
浮	-7.68294
吾	-7.68649
隨	-7.68943
裏	-7.69156
雜	-7.69637
宗	-7.69693
吳	-7.69801
盤	-7.70042
笑	-7.7019
畫	-7.70251
服	-7.70351
圓	-7.70497
扵	-7.70652
首	-7.71233
厚	-7.71314
劉	-7.71391
尤	-7.71456
置	-7.71462
須	-7.71584
素	-7.71811
瓜	-7.71822
理	-7.7209
士	-7.72154
題	-7.72227
齊	-7.72627
製	-7.72777
益	-7.73005
詠	-7.73334
錦	-7.73498
病	-7.73534
堅	-7.73629
堂	-7.73892
藏	-7.73969
貴	-7.74029
便	-7.7425
移	-7.74353
淡	-7.74994
一兩	-7.75182
動	-7.75243
蓮	-7.75412
坐	-7.75822
濕	-7.75939
繁	-7.75981
尚	-7.76064
㸃	-7.76126
熱	-7.76205
興	-7.77023
僧	-7.77185
化	-7.77421
骨	-7.77771
主	-7.77982
良	-7.7808
定	-7.78276
肥	-7.78772
注	-7.79013
珍	-7.79055
樂	-7.79097
研	-7.79617
爾	-7.7964
布	-7.79658
寄	-7.79778
解	-7.79806
塵	-7.79832
豆	-7.80069
芽	-7.80156
煙	-7.8038
俗	-7.805
俱	-7.81028
曲	-7.81086
早	-7.81563
命	-7.81697
臺	-7.81705
橘	-7.81844
等	-7.82025
米	-7.82085
牡丹	-7.82167
泥	-7.82184
亭	-7.83051
端	-7.83131
立	-7.83285
銀	-7.83528
質	-7.836
到	-7.83916
造	-7.84053
共	-7.84093
蒸	-7.8414
望	-7.84147
汁	-7.84329
麻	-7.84454
秀	-7.84594
却	-7.85011
蜀	-7.85012
蓋	-7.85019
容	-7.85044
紙	-7.85233
附	-7.85243
遺	-7.85335
器	-7.85516
梁	-7.85956
賞	-7.85974
説	-7.86217
遊	-7.86275
情	-7.86666
河	-7.87191
集	-7.87332
力	-7.87349
楊	-7.87485
致	-7.87502
衆	-7.87751
鳥	-7.88617
蘇	-7.8877
封	-7.88843
臨	-7.89025
御	-7.8905
艶	-7.89274
映	-7.89763
體	-7.8981
孤	-7.89925
識	-7.9026
本草	-7.90364
余	-7.90387
度	-7.90497
棗	-7.90514
變	-7.90737
徳	-7.90768
破	-7.91165
疑	-7.9117
星	-7.91206
終	-7.91869
波	-7.92004
忽	-7.9299
載	-7.93069
利	-7.93184
按	-7.9326
幾	-7.93529
愁	-7.93996
葢	-7.94119
喜	-7.94174
油	-7.94393
榮	-7.94551
曉	-7.94682
瓣	-7.94744
殊	-7.94891
路	-7.95034
母	-7.95702
信	-7.95756
海棠	-7.95897
貢	-7.96032
斷	-7.96218
只	-7.96532
試	-7.96554
房	-7.96595
寳	-7.96601
角	-7.96718
陵	-7.96852
驚	-7.96914
待	-7.96959
引	-7.97114
茂	-7.97123
温	-7.97126
食之	-7.97166
史	-7.97176
血	-7.97211
候	-7.97227
堪	-7.97239
郡	-7.97427
不知	-7.97676
谷	-7.97682
殘	-7.97736
府	-7.98016
晩	-7.98095
洗	-7.98138
交	-7.98465
論	-7.98682
栽	-7.98782
善	-7.98853
宿	-7.99068
賜	-7.99104
刻	-7.99121
樓	-7.9934
加	-7.9955
膏	-7.99552
徑	-7.99824
楚	-7.9983
獻	-7.99888
學	-8.00229
陸	-8.00394
霞	-8.00459
井	-8.00602
燕	-8.00945
晉	-8.00952
離	-8.01074
寺	-8.01112
川	-8.01178
圖	-8.0128
片	-8.01625
送	-8.01667
狀	-8.01681
求	-8.01693
凉	-8.02059
疎	-8.02367
功	-8.02377
染	-8.02437
芝	-8.02502
巖	-8.02635
毛	-8.02903
邊	-8.0313
凝	-8.0321
産	-8.03265
斜	-8.03679
柔	-8.03856
供	-8.03891
鮮	-8.03972
湖	-8.03999
毒	-8.04021
嫩	-8.0421
要	-8.04646
荔支	-8.04692
消	-8.04753
他	-8.04827
煮	-8.05178
民	-8.05338
傷	-8.05381
建	-8.05474
亂	-8.05547
殿	-8.05661
麝香	-8.0569
永	-8.05759
晴	-8.05921
拂	-8.06017
彼	-8.06186
稍	-8.06334
象	-8.06411
晚	-8.06671
再	-8.06708
底	-8.06733
碎	-8.06975
列	-8.07125
𤣥	-8.07249
煎	-8.07437
枯	-8.07491
桐	-8.07642
黒	-8.07898
孫	-8.08008
固	-8.08072
背	-8.08331
號	-8.08623
郎	-8.09195
進	-8.09709
眀	-8.09731
牛	-8.09844
代	-8.09991
持	-8.10242
沈	-8.10337
全	-8.10402
養	-8.1044
灰	-8.10469
麗	-8.10471
覆	-8.10529
除	-8.10578
藤	-8.10849
蒼	-8.11088
武	-8.11256
乳	-8.1127
兒	-8.11284
吐	-8.11405
陶	-8.11431
摘	-8.11768
吹	-8.11907
烏	-8.1196
暮	-8.11987
中有	-8.11991
室	-8.12039
昔	-8.12172
就	-8.12607
密	-8.1261
音	-8.1262
不能	-8.12669
蟲	-8.12779
死	-8.12828
而不	-8.12903
虚	-8.13226
胡	-8.13404
皇	-8.13585
左	-8.13597
妙	-8.13665
浸	-8.13672
轉	-8.13788
徐	-8.14002
遇	-8.14005
指	-8.14622
工	-8.14759
曽	-8.14847
韻	-8.1502
稻	-8.15139
黑	-8.15231
越	-8.15322
煑	-8.15584
里	-8.15805
側	-8.15935
魏	-8.16091
予	-8.16099
盖	-8.16324
秦	-8.16506
大如	-8.17039
燒	-8.17111
章	-8.17686
淺	-8.18158
仲	-8.184
瓊	-8.18449
羣	-8.18493
江南	-8.18592
恨	-8.19079
瑞	-8.1928
濃	-8.19313
漸	-8.19491
接	-8.19744
趙	-8.19929
尋	-8.20081
尾	-8.20102
暖	-8.2054
錄	-8.20752
登	-8.20978
雅	-8.20993
尺	-8.20998
遲	-8.21048
妝	-8.21129
惜	-8.21179
積	-8.21241
翦	-8.21287
㑹	-8.21295
頗	-8.21304
閒	-8.21474
覺	-8.21593
修	-8.21701
梅花	-8.22102
放	-8.2214
横	-8.22156
腹	-8.22175
補	-8.22333
舞	-8.22356
歲	-8.22807
雞	-8.2284
旋	-8.23075
柏	-8.2318
集藻	-8.23376
聖	-8.23484
齋	-8.23487
蒲	-8.23922
斯	-8.23946
倚	-8.23961
團	-8.23964
苑	-8.24086
冠	-8.24116
春風	-8.24389
茗	-8.24417
半兩	-8.24688
特	-8.24828
承	-8.24894
顧	-8.25292
羊	-8.25501
核	-8.25503
甲	-8.25725
被	-8.25758
可以	-8.26002
表	-8.26006
夕	-8.26164
膠	-8.26367
閣	-8.26389
銘	-8.26399
依	-8.26656
車	-8.26853
傍	-8.26951
荷	-8.26997
杏	-8.27239
紋	-8.27271
刺	-8.27619
短	-8.27631
沉香	-8.28006
失	-8.281
師	-8.28108
休	-8.2834
院	-8.2835
嶺	-8.28639
一種	-8.28742
偏	-8.28824
句	-8.29234
亦有	-8.29258
調	-8.2975
寧	-8.29794
二十	-8.29963
丁香	-8.29988
鐫	-8.30155
姿	-8.30283
一枝	-8.30564
恐	-8.30712
感	-8.30748
翁	-8.30975
滋	-8.30976
鹽	-8.31053
檀香	-8.31431
仍	-8.31475
彚考	-8.3159
逐	-8.31661
三月	-8.31983
吟	-8.31995
玊	-8.32097
黃	-8.32153
雙	-8.32214
仁	-8.32586
茅	-8.32747
齒	-8.32864
五月	-8.3317
䨇	-8.33179
寶	-8.33264
盆	-8.33272
梨	-8.33478
屬	-8.33495
具	-8.33964
乆	-8.33972
栗	-8.34233
惡	-8.34297
管	-8.34433
酸	-8.34497
舟	-8.34629
杜	-8.35004
屋	-8.35213
脂	-8.35281
二月	-8.35388
舉	-8.35411
葵	-8.35824
漿	-8.35855
低	-8.35933
洞	-8.35941
蕊	-8.35954
虎	-8.3604
将	-8.36143
受	-8.36422
鳴	-8.36483
餅	-8.36548
斑	-8.36742
疾	-8.36979
呼	-8.3702
爛	-8.37205
夀	-8.37262
焙	-8.37409
斗	-8.37423
昌	-8.37535
槐	-8.37577
卿	-8.37685
憶	-8.37994
苗	-8.38009
瓶	-8.38023
存	-8.38079
丸	-8.3808
友	-8.38567
序	-8.38873
懐	-8.39102
㸔	-8.39284
宻	-8.39381
薦	-8.39572
切	-8.39727
教	-8.39813
伯	-8.40084
任	-8.40156
株	-8.40161
寸	-8.40179
沉	-8.40259
奉	-8.40407
貯	-8.40635
嬌	-8.40692
軟	-8.40937
榖	-8.41003
脚	-8.41243
貞	-8.41276
豐	-8.41405
降	-8.41453
詞	-8.41455
隔	-8.41467
守	-8.41713
紀	-8.4181
佛	-8.4182
弱	-8.41828
桃花	-8.41938
村	-8.41952
蕭	-8.42243
伏	-8.42282
圍	-8.4232
萼	-8.42348
宣	-8.42614
炒	-8.42644
材	-8.42901
侯	-8.43056
祖	-8.43312
曾	-8.43392
視	-8.43785
二兩	-8.43789
坑	-8.44079
磨	-8.44343
殻	-8.44727
栁	-8.44733
損	-8.44763
繞	-8.44767
不得	-8.44769
期	-8.44772
隠	-8.44805
辛	-8.44955
丈	-8.44994
京	-8.45007
端石	-8.45064
瓦	-8.45076
蝶	-8.45583
鑄	-8.45759
約	-8.45854
翻	-8.46055
勿	-8.46071
壓	-8.46146
蠶	-8.46638
逢	-8.46847
二錢	-8.46869
韓	-8.46991
父	-8.47069
羽	-8.47205
鄉	-8.47234
鄭	-8.4725
湏	-8.47539
芙蓉	-8.4772
龜	-8.47896
榦	-8.48014
寛	-8.48027
氷	-8.48159
苔	-8.48233
鳳	-8.48486
龍腦	-8.48519
親	-8.48685
所謂	-8.48696
哉	-8.48772
荒	-8.48952
禁	-8.49025
由	-8.49133
狀如	-8.49224
蔓	-8.49449
延	-8.49549
圃	-8.49586
考	-8.49712
顆	-8.4986
飄	-8.49879
願	-8.49924
制	-8.49945
傾	-8.50141
薑	-8.503
爐	-8.50416
印	-8.5042
旁	-8.5053
岸	-8.50761
升	-8.51012
羙	-8.51028
杯	-8.51094
贈	-8.51108
刀	-8.51126
㣲	-8.51137
荆	-8.51411
柑	-8.51543
十二	-8.51868
憐	-8.51965
幸	-8.52021
環	-8.52401
糞	-8.52492
疏	-8.52503
簾	-8.52541
義	-8.52565
銅	-8.52634
偶	-8.52922
揺	-8.52931
滑	-8.53148
天下	-8.53451
市	-8.53788
軒	-8.5388
葉似	-8.53961
淨	-8.54101
聚	-8.54134
一錢	-8.54186
揚	-8.54273
抱	-8.54412
尖	-8.54427
蘂	-8.54583
洛	-8.54677
鶴	-8.54702
第	-8.54972
把	-8.54989
辭	-8.5503
草木	-8.55114
椒	-8.55234
君子	-8.55477
鱗	-8.5559
巧	-8.55722
忌	-8.55929
續	-8.56251
歩	-8.56308
故名	-8.56442
洪	-8.56568
橋	-8.56604
者為	-8.56858
倒	-8.56883
芍藥	-8.56918
鳯	-8.57074
籠	-8.57192
腸	-8.57494
怪	-8.57563
佩	-8.57941
禮	-8.58074
源	-8.58185
徒	-8.5821
蠟	-8.58731
司	-8.58761
孝	-8.58778
孔	-8.59052
暗	-8.59225
黍	-8.59346
迎	-8.59423
囊	-8.59478
腰	-8.59483
慶	-8.59511
伴	-8.60074
先生	-8.60075
窓	-8.60467
篇	-8.60507
暑	-8.60626
一日	-8.60633
搗	-8.6081
鐵	-8.60824
蘆	-8.61449
穿	-8.6153
籬	-8.61575
盈	-8.6158
漫	-8.61721
山中	-8.61788
令人	-8.61895
四月	-8.61959
鬚	-8.62093
想	-8.62095
勻	-8.62104
扶	-8.6236
烹	-8.62361
顔	-8.62416
穴	-8.62495
麝	-8.6256
季	-8.62715
東風	-8.62717
霧	-8.62755
總	-8.62768
粒	-8.62995
活	-8.63086
冰	-8.63309
殺	-8.63312
肌	-8.63381
賢	-8.63471
粟	-8.63628
兼	-8.63725
負	-8.63733
舍	-8.63749
愈	-8.63772
并	-8.6379
葉如	-8.63893
丁	-8.63903
潔	-8.64135
壁	-8.64167
羮	-8.64331
葛	-8.64438
祥	-8.64466
回	-8.6462
八月	-8.64678
兹	-8.64807
朶	-8.64975
頂	-8.65047
侍	-8.65061
戲	-8.65098
參	-8.65286
飯	-8.65316
舒	-8.6544
贊	-8.65549
邉	-8.65845
態	-8.65852
晨	-8.66102
急	-8.66132
浪	-8.66135
上有	-8.66588
占	-8.66732
蓬	-8.66733
葱	-8.66796
斤	-8.66963
透	-8.6719
爭	-8.67205
說	-8.67329
反	-8.67504
雷	-8.67556
澗	-8.67592
痛	-8.67644
忘	-8.67894
千葉	-8.67998
往	-8.68234
湘	-8.68284
投	-8.68578
歎	-8.68602
息	-8.68618
又有	-8.68643
鬼	-8.68896
為之	-8.68922
户	-8.6893
妃	-8.68936
農	-8.69038
懸	-8.69278
東坡	-8.69364
挺	-8.69401
苞	-8.6962
蒿	-8.69909
蜂	-8.69972
液	-8.69986
之所	-8.70002
蛇	-8.70006
席	-8.70025
耶	-8.70052
差	-8.70121
不見	-8.70195
走	-8.70365
博	-8.70372
九月	-8.70923
㡬	-8.71033
衰	-8.7107
層	-8.71266
絳	-8.7144
静	-8.71495
柯	-8.71532
勁	-8.71559
罷	-8.71838
甘松	-8.7208
傅	-8.72192
才	-8.72194
如此	-8.72211
薰	-8.72239
報	-8.72541
買	-8.72596
人間	-8.73244
滴	-8.73258
辨	-8.73314
况	-8.73321
毎	-8.73405
式	-8.73436
汝	-8.7356
稀	-8.73688
枝葉	-8.73696
抽	-8.73714
窮	-8.73714
開花	-8.7384
閩	-8.7386
宴	-8.73961
弄	-8.74073
味甘	-8.74078
午	-8.7474
插	-8.74767
備	-8.74844
本草綱目	-8.7492
麤	-8.75117
大者	-8.75376
鏡	-8.75521
薔薇	-8.75615
廟	-8.75904
宅	-8.75916
衡	-8.75923
屈	-8.75925
燈	-8.75935
康	-8.75936
塗	-8.76004
此花	-8.76185
苖	-8.76205
蒙	-8.76326
商	-8.76352
游	-8.76668
牙	-8.76709
畧	-8.76754
炭	-8.76897
披	-8.77103
炎	-8.7713
名曰	-8.77389
鼎	-8.77433
少許	-8.77462
蔕	-8.77793
是也	-8.77799
欄	-8.77855
亦可	-8.77974
花開	-8.78021
煩	-8.78183
綴	-8.78185
藻	-8.78204
支	-8.78228
勞	-8.78234
誤	-8.78272
夷	-8.78495
羞	-8.78604
狂	-8.78606
闕	-8.78633
漆	-8.78645
標	-8.787
避	-8.79023
厥	-8.79039
縷	-8.79042
梢	-8.79095
結實	-8.79097
不及	-8.79201
枕	-8.79402
媚	-8.7947
十餘	-8.79631
詩散句	-8.79727
澆	-8.79744
適	-8.79796
欽定四庫全書	-8.79862
顔色	-8.80158
泛	-8.80228
勢	-8.80247
藍	-8.80575
嚴	-8.80607
四兩	-8.80614
菊花	-8.80671
可愛	-8.80723
玩	-8.80728
充	-8.80971
津	-8.80971
請	-8.81011
䕶	-8.81011
烈	-8.81037
其根	-8.8108
孟	-8.81353
伐	-8.81507
爾雅	-8.81645
不同	-8.81755
宮	-8.81777
叔	-8.81785
省	-8.81816
遣	-8.82062
索	-8.82166
芬	-8.82167
辰	-8.822
寫	-8.82284
詩云	-8.82517
丘	-8.82629
掌	-8.82636
鶯	-8.83459
楓	-8.83467
熏	-8.83493
洲	-8.83777
逸	-8.83819
詔	-8.83829
施	-8.84205
櫻桃	-8.8431
仰	-8.84674
黄花	-8.84769
鬱	-8.84908
澄泥	-8.84961
包	-8.85051
七言絶句	-8.85054
擇	-8.85103
桃李	-8.85117
敷	-8.85149
瑩	-8.85167
山谷	-8.85362
争	-8.85436
助	-8.85479
頻	-8.85486
阿	-8.85531
三十	-8.85591
水中	-8.85792
福	-8.85797
醒	-8.859
盧	-8.85935
風吹	-8.8598
嗟	-8.85989
眉	-8.86012
土人	-8.86311
裹	-8.86318
杖	-8.86732
歳	-8.86746
敢	-8.86755
榆	-8.8676
雄	-8.86822
可食	-8.87065
價	-8.87159
拌	-8.87185
唯	-8.87192
符	-8.87282
改	-8.87339
芋	-8.87351
三年	-8.87464
凌	-8.87562
館	-8.87644
錫	-8.8766
柱	-8.87714
檀	-8.87854
簇	-8.88049
計	-8.88061
燭	-8.88392
墻	-8.88473
昭	-8.88486
療	-8.88495
耕	-8.8878
婦	-8.88791
睡	-8.88824
競	-8.88916
船	-8.88931
鹿	-8.88946
五分	-8.89209
三兩	-8.89276
膚	-8.89299
畏	-8.89367
迷	-8.89389
釋	-8.89447
浄	-8.89496
郭	-8.89726
魂	-8.89727
彩	-8.89757
借	-8.89842
者也	-8.89945
洛陽	-8.90002
悉	-8.90205
壺	-8.90234
虞	-8.90238
葩	-8.90294
琴	-8.90357
黄色	-8.90416
棄	-8.90637
渠	-8.90641
頌	-8.9065
紛	-8.90668
漬	-8.90678
所以	-8.90682
那	-8.90707
漁	-8.90726
掃	-8.90731
燥	-8.90768
大小	-8.90855
随	-8.91028
頃	-8.91058
乗	-8.91143
部	-8.91165
圎	-8.91246
石榴	-8.91415
蔡	-8.91546
念	-8.91585
囘	-8.91592
添	-8.91662
種之	-8.91873
雀	-8.91939
徧	-8.91949
魯	-8.91957
設	-8.91975
浦	-8.9198
獲	-8.92003
數十	-8.92012
曹	-8.92444
綿	-8.92465
了	-8.9293
聊	-8.92947
妍	-8.92981
暈	-8.93046
崇	-8.93424
爲	-8.93564
啼	-8.93771
奴	-8.93798
惠	-8.93802
畢	-8.93814
呉	-8.94242
雕	-8.94253
擬	-8.94279
遠	-8.94343
之類	-8.94513
十五	-8.94934
十里	-8.95016
纔	-8.95167
扇	-8.95188
咸	-8.95197
簡	-8.95236
十月	-8.95561
䕃	-8.95758
不足	-8.95798
詳	-8.95949
住	-8.96125
卧	-8.96138
彌	-8.962
脆	-8.96488
幹	-8.96506
硬	-8.96572
編	-8.96577
竟	-8.96584
歴	-8.96585
强	-8.96605
隱	-8.96637
六月	-8.9666
風雨	-8.96679
御製	-8.96816
縁	-8.97055
融	-8.97063
退	-8.9707
巨	-8.97093
律	-8.97101
納	-8.97479
倍	-8.97498
穗	-8.97535
用之	-8.97571
毫	-8.97629
辟	-8.97732
白色	-8.97851
蕙	-8.97909
厯	-8.97976
架	-8.97981
德	-8.9804
枚	-8.98214
菱	-8.98356
晝	-8.98369
麴	-8.98451
資	-8.98456
鄰	-8.98467
壽	-8.98498
甜	-8.98822
觧	-8.98883
業	-8.98895
召	-8.98925
庶	-8.98955
膩	-8.98995
聽	-8.99019
伊	-8.99036
塊	-8.99048
催	-8.99353
乍	-8.9946
瘦	-8.99474
吴	-8.99907
厭	-8.99934
鍾	-8.99984
邪	-9.00235
其葉	-9.00279
纎	-9.00371
鼻	-9.00394
綺	-9.00424
彭	-9.00433
掩	-9.00469
軍	-9.00774
談	-9.00861
番	-9.00898
委	-9.00901
别錄	-9.00921
杏花	-9.00924
木香	-9.01318
飽	-9.01332
恩	-9.01382
二年	-9.01416
粥	-9.01481
為末	-9.01656
悲	-9.01936
五言古詩	-9.02312
侵	-9.02356
澄	-9.02395
儀	-9.02442
箇	-9.02633
畦	-9.02658
歡	-9.02791
吏	-9.02833
束	-9.02844
濟	-9.02929
黄金	-9.03089
韭	-9.03166
紫色	-9.03335
誇	-9.03391
𤓰	-9.03734
其中	-9.03738
自然	-9.03827
禽	-9.03844
階	-9.03898
崔	-9.03903
灑	-9.0391
招	-9.0395
卉	-9.04324
浴	-9.04381
尊	-9.04388
童	-9.04454
七月	-9.04563
吉	-9.0481
遍	-9.04864
遥	-9.04892
𫝊	-9.04947
藕	-9.05314
擁	-9.0538
蕩	-9.05395
焦	-9.05414
鸞	-9.05454
零陵香	-9.05709
芥	-9.0575
蔬	-9.05758
一曰	-9.05761
毬	-9.05828
萍	-9.05868
繡	-9.05875
溫	-9.05893
肅	-9.05902
織	-9.05906
左右	-9.06139
瘡	-9.06171
憂	-9.06373
二寸	-9.06447
窨	-9.06543
千里	-9.06587
姓	-9.06888
不堪	-9.0694
屏	-9.06967
棘	-9.06993
格	-9.07039
曰此	-9.07057
旦	-9.07362
艾	-9.07371
李時珍曰	-9.07413
芒	-9.0742
秋風	-9.0743
政	-9.07867
賔	-9.08026
戴	-9.0805
腦	-9.08095
社	-9.08342
旱	-9.08411
讀	-9.08436
一斤	-9.08471
第一	-9.08601
潛	-9.0907
萌	-9.09073
甫	-9.09129
􁀙	-9.09181
其花	-9.09192
崖	-9.09512
拜	-9.09545
潭	-9.09582
均	-9.09597
削	-9.09597
凍	-9.09623
一株	-9.09624
排	-9.09635
痕	-9.09641
順	-9.09646
棃	-9.09798
蓮花	-9.09819
註	-9.09831
堆	-9.09967
鈴	-9.10026
翼	-9.1004
推	-9.10091
檜	-9.1017
速	-9.10268
五色	-9.10525
葡萄	-9.10582
袖	-9.10585
馥	-9.1065
濯	-9.10678
乞	-9.10688
裁	-9.10695
亞	-9.10752
取出	-9.10853
然後	-9.10952
藿香	-9.11102
甌	-9.11124
碾	-9.11127
陸游	-9.11543
頓	-9.11664
扁	-9.11689
范	-9.11695
禪	-9.11718
帳	-9.11733
撰	-9.11734
效	-9.11742
臭	-9.11746
白花	-9.12116
畝	-9.12135
二字	-9.12157
廻	-9.1224
典	-9.12287
畔	-9.12304
錯	-9.12342
奪	-9.12352
璧	-9.1236
蟠	-9.12457
干	-9.12754
閑	-9.12825
誠	-9.12835
無人	-9.12837
淳	-9.12932
𨽻書	-9.13119
郊	-9.13291
沸	-9.13311
乳香	-9.13339
饑	-9.13345
墜	-9.13361
酌	-9.13363
騎	-9.13382
虛	-9.1343
三四	-9.13465
不敢	-9.13469
上方	-9.13626
維	-9.13655
純	-9.13724
塘	-9.13739
服之	-9.13752
奏	-9.14019
其色	-9.14021
石硯	-9.14177
蘇軾	-9.14325
竹筍	-9.14356
賣	-9.14394
執	-9.1447
筠	-9.14496
敗	-9.14523
摩	-9.14556
僅	-9.14572
假	-9.15069
眠	-9.15098
夾	-9.15154
單	-9.15176
其實	-9.15408
醋	-9.15519
生於	-9.15724
后	-9.16076
瑶	-9.16093
婆	-9.16193
歇	-9.16194
停	-9.16195
長安	-9.16315
几	-9.16326
三錢	-9.16367
稜	-9.16467
茄	-9.16693
髪	-9.16729
盞	-9.16776
乘	-9.16783
射	-9.16786
杵	-9.16887
蓼	-9.17066
啓	-9.17223
不復	-9.17224
清香	-9.17327
鋪	-9.17342
淚	-9.17347
棲	-9.17385
白居易	-9.17698
砂	-9.17866
砌	-9.17889
山海經	-9.17904
峰	-9.17909
樽	-9.17911
覽	-9.17912
貫	-9.17953
一分	-9.18069
螯	-9.18071
四時	-9.18339
鋤	-9.18372
柰	-9.18446
徹	-9.18469
炙	-9.18475
纖	-9.1853
忠	-9.18532
和勻	-9.18658
甕	-9.19018
三日	-9.19037
藉	-9.19038
術	-9.19049
塞	-9.19061
缺	-9.19108
脫	-9.19193
胎	-9.19278
曬	-9.19482
殷	-9.19543
賤	-9.19561
剖	-9.19569
鼓	-9.19638
渾	-9.19666
沃	-9.1969
疊	-9.19722
牀	-9.19733
屑	-9.19735
保	-9.19795
蕉	-9.19812
菌	-9.20121
其名	-9.20183
荔	-9.20334
臘	-9.20559
汲	-9.20821
菖蒲	-9.20823
檻	-9.20866
仙人	-9.21095
又名	-9.21155
貨	-9.21346
寂	-9.2135
姑	-9.21433
以上	-9.21437
腴	-9.21467
蟬	-9.21517
五寸	-9.21743
怨	-9.22019
否	-9.22059
下有	-9.22453
楊柳	-9.22463
晏	-9.22608
示	-9.22662
換	-9.22688
嫌	-9.22701
宋蘇軾	-9.22746
别録	-9.22984
叢生	-9.23039
灌	-9.23138
貧	-9.23212
輙	-9.23251
墮	-9.23256
濶	-9.23292
宛	-9.2332
奇	-9.23475
不用	-9.2375
取其	-9.23771
而已	-9.23775
昏	-9.23821
嚼	-9.23821
耐	-9.23835
卵	-9.23863
拾	-9.23866
餐	-9.23884
鬭	-9.23886
飾	-9.23911
弗	-9.23925
防	-9.23926
十年	-9.24138
廬	-9.24318
年年	-9.24319
之屬	-9.24473
族	-9.24483
腫	-9.245
富	-9.2451
運	-9.2456
風流	-9.24579
皆有	-9.24926
攀	-9.25086
醫	-9.25088
累	-9.25095
縱	-9.25123
簷	-9.25146
逰	-9.2516
甲香	-9.25437
形如	-9.25529
二種	-9.25703
今日	-9.2572
紗	-9.2573
彦	-9.25731
患	-9.25738
剉	-9.25763
免	-9.25764
熙	-9.25812
橙	-9.25814
揚州	-9.25906
馨	-9.25942
箭	-9.25985
草一名	-9.2608
杜甫	-9.26185
徃	-9.26278
智	-9.26344
饒	-9.26345
爇之	-9.2637
擢	-9.26433
裂	-9.26476
螺	-9.26906
減	-9.2691
南方	-9.26964
脱	-9.27038
呼為	-9.27053
西域	-9.27076
劑	-9.27133
之以	-9.27405
結子	-9.2741
酉陽雜俎	-9.27598
敬	-9.27627
藝	-9.27654
繫	-9.27666
界	-9.27689
靡	-9.27691
訪	-9.27735
荔枝	-9.27827
樣	-9.27842
春色	-9.2794
蘋	-9.28181
椀	-9.28207
觸	-9.28247
弟	-9.28254
際	-9.28264
座	-9.28265
汗	-9.28269
介	-9.28278
□	-9.28294
宇	-9.28339
較	-9.2834
耀	-9.2835
舌	-9.28852
答	-9.28896
關	-9.28923
薫	-9.28929
卒	-9.28934
眞	-9.28959
墨池	-9.29061
人家	-9.29525
五言律詩	-9.2953
嗜	-9.2954
機	-9.29558
熬	-9.29651
沈香	-9.29655
零	-9.29933
線	-9.30035
入藥	-9.30168
或云	-9.30187
本草云	-9.30191
渚	-9.30192
者謂之	-9.3025
肯	-9.3027
慎	-9.30271
輝	-9.30286
取之	-9.30417
南海	-9.30508
率	-9.30544
得之	-9.30847
焚	-9.30871
主人	-9.30881
展	-9.30909
託	-9.30948
私	-9.30965
篆	-9.30978
様	-9.31006
數百	-9.31141
小者	-9.31339
西風	-9.3134
斛	-9.31442
衛	-9.31485
攜	-9.31538
付	-9.31547
告	-9.31556
費	-9.31559
呈	-9.31569
剛	-9.31587
人以	-9.31594
觴	-9.31597
凋	-9.31893
禾	-9.31928
燒之	-9.32052
絮	-9.32119
澀	-9.32199
餌	-9.32221
暉	-9.32228
鎮	-9.32243
希	-9.3228
梗	-9.32288
蒜	-9.32772
歙	-9.32788
壅	-9.32825
漏	-9.32851
韋	-9.32857
夲	-9.32859
超	-9.3288
渡	-9.32914
坡	-9.33413
緣	-9.33468
可作	-9.33519
會	-9.3353
柴	-9.33537
縈	-9.3354
臼	-9.33569
壯	-9.33605
聳	-9.33609
腦麝	-9.33612
潮	-9.33635
正月	-9.33635
䖏	-9.3366
北苑	-9.3367
亭亭	-9.3382
嶺南	-9.34022
蓴	-9.34105
勤	-9.34161
七言律詩	-9.34171
肝	-9.34203
相似	-9.34211
案	-9.34219
達	-9.34258
峯	-9.34263
竿	-9.3431
廢	-9.34314
韶	-9.34328
截	-9.34329
粲	-9.34335
匀	-9.34335
不如	-9.34393
武帝	-9.34395
色如	-9.344
氣味	-9.3459
而生	-9.34715
糖	-9.34797
裳	-9.348
祭	-9.34818
掘	-9.34835
渴	-9.34844
跡	-9.34894
有之	-9.34899
給	-9.34913
茸	-9.34929
天子	-9.34933
暇	-9.34962
旬	-9.34981
窺	-9.35008
白芷	-9.35213
山有	-9.3524
隋	-9.35573
銜	-9.35607
務	-9.35638
至於	-9.35863
莊	-9.35879
多少	-9.35894
楊萬里	-9.36211
青青	-9.36234
臙脂	-9.36311
薪	-9.36372
賈	-9.36374
煤	-9.36434
梓	-9.36892
肺	-9.36975
次之	-9.37001
明年	-9.37007
慈	-9.37014
授	-9.37023
蠻	-9.37031
潘	-9.37037
之上	-9.3706
箋	-9.37093
三分	-9.37483
蔗	-9.37524
一年	-9.37526
九日	-9.37541
翰	-9.37649
何處	-9.37656
其下	-9.3769
美人	-9.3769
而小	-9.37702
香氣	-9.37718
其味	-9.37737
奈	-9.37754
隆	-9.37761
圗	-9.37782
十八	-9.37998
古人	-9.3805
大夫	-9.3811
宣和	-9.3818
此物	-9.38185
岳	-9.38236
筋	-9.38333
邑	-9.38391
稠	-9.38423
埋	-9.38466
杉	-9.38509
鵞	-9.3851
鴨	-9.38511
甘草	-9.38596
二分	-9.38804
不過	-9.39022
綃	-9.3912
健	-9.39137
害	-9.39173
妖	-9.39186
翔	-9.39214
三百	-9.3931
未嘗	-9.39337
當時	-9.39471
溝	-9.39812
打	-9.3982
蘿	-9.39821
培	-9.39826
蘇頌曰	-9.39848
皺	-9.39903
恒	-9.39907
巾	-9.39919
蔽	-9.39929
輪	-9.39934
靜	-9.39945
京師	-9.39952
次韻	-9.40029
茹	-9.4042
搖	-9.40564
逆	-9.40572
領	-9.40615
獸	-9.40616
戒	-9.40639
拔	-9.40653
太守	-9.40673
據	-9.40695
板	-9.40732
簪	-9.40769
一寸	-9.40965
清明	-9.41021
榴	-9.41062
重陽	-9.41181
五言絶句	-9.41227
述	-9.41301
猪	-9.41319
岐	-9.4133
響	-9.4133
爽	-9.41383
俟	-9.41388
倫	-9.4142
濤	-9.41428
森	-9.41443
其上	-9.41458
亦不	-9.41636
以其	-9.41781
話	-9.41936
啖	-9.42008
宰	-9.42016
状	-9.42029
履	-9.42095
徴	-9.4211
托	-9.42122
匪	-9.42134
料	-9.42135
大而	-9.42541
拳	-9.42699
范成大	-9.42707
朔	-9.42721
懷	-9.42764
唐杜甫	-9.42776
攪	-9.42776
陂	-9.42786
遷	-9.42831
愧	-9.42841
瑤	-9.42861
步	-9.42902
一百	-9.4295
於此	-9.42969
花譜	-9.43165
元年	-9.43409
啜	-9.4345
窠	-9.43511
庚	-9.43542
匣	-9.43545
曬乾	-9.43551
斧	-9.4356
偃	-9.43608
姬	-9.43635
位	-9.43637
可憐	-9.43689
之則	-9.43693
萬里	-9.44009
其香	-9.44017
欣	-9.44269
議	-9.4429
可為	-9.44308
開時	-9.44324
於是	-9.44339
竊	-9.4434
茉莉	-9.44371
之曰	-9.44376
朽	-9.44376
五六	-9.4444
淮	-9.44795
夫人	-9.44855
十六	-9.44945
旗	-9.44957
兎	-9.44987
閉	-9.44989
挂	-9.45018
育	-9.45048
蕃	-9.4509
匠	-9.45142
婦人	-9.45185
者名	-9.45357
刈	-9.45633
之後	-9.45661
之為	-9.45662
黏	-9.45697
犀	-9.45708
五錢	-9.4573
隴	-9.45803
黎	-9.45814
澹	-9.45861
勒	-9.4587
石上	-9.45962
尺餘	-9.46164
茅香	-9.46177
端溪	-9.46271
恵	-9.46481
薛	-9.46537
禹	-9.4655
鴻	-9.46565
娥	-9.46591
壤	-9.46611
謹	-9.46628
之不	-9.46803
/)(	-9.47023
稷	-9.47052
間有	-9.47071
蝦	-9.47095
操	-9.47276
輿	-9.47336
程	-9.47354
儒	-9.47357
幕	-9.47393
孰	-9.47428
監	-9.47461
硯銘	-9.47501
欵	-9.47511
天地	-9.47518
人謂之	-9.47732
三寸	-9.47851
楊梅	-9.47883
而無	-9.48001
収	-9.48021
淵	-9.48064
鬢	-9.48143
益氣	-9.48147
穆	-9.48192
拌勻	-9.48223
鈐寳	-9.48408
琢	-9.48587
穂	-9.48685
之名	-9.48822
蕪	-9.48827
釵	-9.48845
巴	-9.48856
捲	-9.48865
浙	-9.48868
撲	-9.48873
夭	-9.48882
綵	-9.48897
术	-9.48919
宋梅堯臣	-9.48951
梧	-9.48965
僕	-9.48987
闗	-9.49003
境	-9.49032
上下	-9.49241
四寸	-9.49384
泰	-9.49401
某	-9.49622
焚香	-9.49625
申	-9.49661
驛	-9.49699
纒	-9.49708
兵	-9.49729
霄	-9.49757
郁	-9.4976
洞庭	-9.49764
五銖	-9.50097
味苦	-9.50235
覆手	-9.50261
戎	-9.50375
種植	-9.50422
牽	-9.50472
營	-9.50484
困	-9.50491
駕	-9.50498
袁	-9.50515
牆	-9.50518
銷	-9.50548
色白	-9.50551
危	-9.5057
也其	-9.50581
脊	-9.50581
帖	-9.50603
又云	-9.5063
寸許	-9.50719
仿	-9.50733
受墨處	-9.50774
荷花	-9.50855
無毒	-9.5098
為上	-9.5098
四十	-9.5108
去皮	-9.51149
痰	-9.51173
不宜	-9.51213
者皆	-9.51269
襄	-9.51281
追	-9.5129
香爐	-9.51296
七言古詩	-9.51302
滌	-9.5132
鐘	-9.51341
翳	-9.51348
略	-9.51349
山茶	-9.51399
棠	-9.51485
學士	-9.51489
唐書	-9.51541
樵	-9.52096
探	-9.5211
偷	-9.52114
者曰	-9.52144
巢	-9.52166
祠	-9.52175
山之	-9.52508
尚書	-9.52916
芸	-9.5292
荅	-9.52942
量	-9.52959
揀	-9.53014
摧	-9.53016
煉蜜	-9.53138
一尺	-9.53164
百餘	-9.53291
色黄	-9.533
十日	-9.53383
紫花	-9.53406
製用	-9.53533
貝	-9.53568
明月	-9.53574
酥	-9.53711
鴈	-9.53783
擊	-9.53791
寂寞	-9.53803
滅	-9.53834
擅	-9.53894
不甚	-9.54102
𢃄	-9.54503
暴	-9.54526
宵	-9.5455
怕	-9.54562
幽人	-9.54607
堦	-9.54614
二尺	-9.54666
屢	-9.5467
晦	-9.54701
奚	-9.54702
五年	-9.54777
天然	-9.5478
一二	-9.548
千年	-9.54806
西湖	-9.54987
為度	-9.55064
南山	-9.55249
嘉禾	-9.5535
日月	-9.55389
驗	-9.55419
威	-9.55458
瞻	-9.55469
笛	-9.55475
賛	-9.55477
輔	-9.55489
籜	-9.55494
繼	-9.55494
脉	-9.55499
島	-9.55507
爰	-9.5551
鯉	-9.55557
輒	-9.55563
參差	-9.55592
大抵	-9.55614
二首	-9.55657
四年	-9.55678
水浸	-9.55724
山下	-9.55955
曰吾	-9.56144
莖葉	-9.56154
佳人	-9.56206
薺	-9.56234
春秋	-9.56237
髮	-9.56306
芳菲	-9.56346
葦	-9.56362
斫	-9.56363
痩	-9.56432
風味	-9.56463
作餅	-9.56503
花葉	-9.56661
故曰	-9.56826
棃花	-9.56829
硯背	-9.56865
寒食	-9.5694
之間	-9.56999
恭	-9.57127
揮	-9.57158
祗	-9.57164
彈	-9.57176
道人	-9.5718
選	-9.57191
涼	-9.57216
遶	-9.57218
喬	-9.57227
時有	-9.57327
萬物	-9.57334
自是	-9.57382
盛開	-9.57434
至今	-9.57486
茶之	-9.57544
小兒	-9.5782
渇	-9.57862
餉	-9.5789
隂乾	-9.57938
𢎞	-9.57955
稽	-9.57966
陰	-9.58006
鑿	-9.58015
淑	-9.58032
䑕	-9.5805
騰	-9.58051
筵	-9.58055
釣	-9.58058
雨露	-9.58098
神仙	-9.58206
有一	-9.58208
亦名	-9.58223
鷄	-9.58228
東南	-9.58278
是硯	-9.58471
一宿	-9.58697
釀	-9.58737
權	-9.5879
寜	-9.58858
酣	-9.58873
沒	-9.58892
貼	-9.58914
衍	-9.58931
割	-9.5894
捜	-9.58978
寓	-9.58988
岩	-9.59002
署	-9.59022
茱萸	-9.59033
以此	-9.59075
姚	-9.59286
馮	-9.59588
沾	-9.59714
茯苓	-9.59727
暫	-9.59785
輸	-9.59787
穎	-9.59803
邦	-9.59816
振	-9.59832
𦂳	-9.59853
筒	-9.59909
堯	-9.59941
金錢	-9.6007
爇	-9.60105
化為	-9.60194
襲	-9.60257
蚌	-9.60462
胃	-9.60509
鈎	-9.60569
庾	-9.60577
靖	-9.6062
快	-9.60652
滯	-9.60655
菴	-9.60662
詩人	-9.60662
廷	-9.60737
司馬	-9.60796
甑	-9.60799
五十	-9.61065
視之	-9.61255
茶經	-9.61258
之法	-9.61386
黄白	-9.61415
太平	-9.61418
瓠	-9.61427
右件	-9.61437
二三	-9.61493
巳	-9.6152
乏	-9.61525
歛	-9.61545
遮	-9.6157
揉	-9.61633
觔	-9.61726
一樹	-9.61881
蛤	-9.62173
芹	-9.62174
妻	-9.62322
色青	-9.62344
亡	-9.62402
區	-9.62442
習	-9.62444
瑣	-9.62445
岡	-9.62449
提	-9.6247
翫	-9.62479
一莖	-9.62522
顯	-9.62575
東籬	-9.62686
者以	-9.62839
深紅	-9.62884
江東	-9.63092
有毒	-9.63135
炊	-9.63279
磁	-9.63334
整	-9.63369
班	-9.6337
播	-9.63373
壑	-9.63382
盌	-9.63383
緩	-9.63434
鏤	-9.63483
拾遺記	-9.6361
有白	-9.6364
或以	-9.64093
裙	-9.64135
槎	-9.64182
筐	-9.64211
莽	-9.64261
魁	-9.64268
何人	-9.64271
莢	-9.64271
茴香	-9.64291
蔚	-9.64322
俯	-9.64353
模	-9.64383
粗	-9.64387
愚	-9.64391
出於	-9.64452
梧桐	-9.64554
玉堂	-9.64738
而長	-9.6475
冬月	-9.64851
莧	-9.65001
捧	-9.65162
隐	-9.65168
趣	-9.65243
征	-9.65264
互	-9.65305
規	-9.65318
雍	-9.6532
徘徊	-9.65321
清風	-9.65356
八分	-9.65371
發墨	-9.65509
爾雅云	-9.65517
芬芳	-9.65519
其子	-9.65541
醬	-9.66013
喚	-9.66035
怒	-9.66069
欺	-9.66107
般	-9.66111
爪	-9.66121
臥	-9.66124
而為	-9.66135
鞭	-9.66161
􁁊	-9.66164
網	-9.66197
鬬	-9.66242
螭	-9.66276
男	-9.66291
扶疎	-9.66338
别有	-9.66346
楊花	-9.66544
南人	-9.66841
蕨	-9.66858
值	-9.67004
悦	-9.67074
絡	-9.67079
熊	-9.67083
泣	-9.67086
柘	-9.67098
賴	-9.67146
穠	-9.67152
慰	-9.67161
堤	-9.67162
草增	-9.67179
平生	-9.67342
相對	-9.67366
篆書	-9.67512
曝	-9.67904
籍	-9.67961
踰	-9.67973
菰	-9.67999
豪	-9.68029
者如	-9.68038
踏	-9.68044
腎	-9.68049
顛	-9.68067
塲	-9.6808
壇	-9.68082
拆	-9.6811
尉	-9.68117
尺許	-9.68171
往往	-9.68195
忍	-9.68224
未有	-9.68249
刷	-9.68281
飲之	-9.68342
花落	-9.68395
無所	-9.68478
緑葉	-9.68518
雜記	-9.68733
有三	-9.68757
五日	-9.68818
勸	-9.68891
無毒治	-9.68953
湛	-9.68968
滓	-9.68978
科	-9.68981
額	-9.69013
噉	-9.69066
踈	-9.69138
如常法	-9.69144
長生	-9.69581
陌	-9.69642
多情	-9.69712
故人	-9.69735
四分	-9.69801
天上	-9.69825
賀	-9.69831
糟	-9.6991
訛	-9.69958
詎	-9.69976
覩	-9.69988
腐	-9.69991
得其	-9.70008
靣	-9.7002
大葉	-9.70143
土中	-9.70192
千金	-9.70256
二曰	-9.70365
相思	-9.70487
今人	-9.7055
皆可	-9.70589
涯	-9.70788
四五	-9.70821
芭蕉	-9.70837
叚	-9.70891
纍纍	-9.70934
偽	-9.70962
悴	-9.70965
濡	-9.70965
慙	-9.7099
色紫	-9.71388
月令	-9.71494
七分	-9.71525
李白	-9.71605
今年	-9.71609
自有	-9.71664
枇杷	-9.71679
荔子	-9.71701
嵗寒	-9.71826
竅	-9.7188
蔥	-9.71917
萎	-9.71951
絹	-9.71969
蘇合油	-9.72087
所産	-9.72287
則不	-9.72314
鬱金	-9.72441
人多	-9.72498
處處有之	-9.72849
瘴	-9.72854
初生	-9.72875
築	-9.72875
鴛鴦	-9.72916
貌	-9.72927
握	-9.72929
酬	-9.72932
蘿蔔	-9.72935
縹	-9.7297
者有	-9.72975
味辛	-9.73012
蟻	-9.7302
欹	-9.73021
細葉	-9.73027
突	-9.7303
其後	-9.73031
混	-9.73035
五兩	-9.73217
一本	-9.73597
痺	-9.73819
單葉	-9.73851
瀉	-9.73888
臯	-9.73899
掇	-9.73906
犯	-9.73911
佐	-9.73924
輩	-9.73934
浩	-9.73935
遼	-9.73958
障	-9.73963
述異記	-9.73978
卑	-9.73997
枝上	-9.74268
御製題	-9.74297
處處	-9.74398
焚之	-9.74484
如何	-9.74493
者不	-9.74516
一夜	-9.74583
菘	-9.74621
羅紋	-9.74649
脾	-9.74854
叟	-9.74926
咏	-9.74927
職	-9.74937
淘	-9.74959
兄	-9.75008
寵	-9.75021
像	-9.7506
隅	-9.75067
圭	-9.75114
𣝕香	-9.7524
人呼為	-9.75593
流水	-9.75613
飢	-9.75796
不勝	-9.75819
犬	-9.75887
春光	-9.75938
鉛	-9.75943
鉢	-9.75964
驅	-9.75986
榛	-9.75996
曝乾	-9.76058
縮	-9.76084
有餘	-9.76087
婆娑	-9.76105
跗	-9.76137
各一	-9.76167
木蘭	-9.76354
粉紅	-9.76487
而有	-9.76641
十兩	-9.76728
槿	-9.76863
昨	-9.76961
襟	-9.76971
專	-9.77006
壊	-9.77006
莎	-9.77032
如玉	-9.77039
返	-9.77039
七日	-9.77042
者其	-9.7707
寡	-9.77074
併	-9.77101
殆	-9.77102
撫	-9.77116
霜雪	-9.77196
秘	-9.77199
一物	-9.77366
今之	-9.77392
木犀	-9.7741
枝頭	-9.77511
注云	-9.77596
勿令	-9.77632
十四	-9.77783
天香	-9.7797
之地	-9.78016
蒔	-9.78043
開元	-9.78051
痢	-9.78068
瓊花	-9.78087
臉	-9.78088
淹	-9.78111
雉	-9.78129
峽	-9.78133
優	-9.78134
狗	-9.78135
輭	-9.78139
董	-9.78171
罕	-9.78181
富貴	-9.78252
也又	-9.78451
生者	-9.78478
當年	-9.78487
松柏	-9.78605
人所	-9.78618
香草	-9.78761
玉蘂	-9.78795
葉青	-9.78888
薇	-9.7892
此君	-9.78927
昬	-9.78952
楷書	-9.78987
凄	-9.79066
濁	-9.79077
百里	-9.79118
循	-9.7912
㕔	-9.79171
遐	-9.79175
渭	-9.79201
子如	-9.79205
傲	-9.79216
鑒	-9.79223
五味	-9.79224
蠧	-9.79229
不相	-9.79234
海南	-9.79237
鵲	-9.79303
篩	-9.79324
見之	-9.79362
廣州	-9.79462
多食	-9.79527
成都	-9.79617
不為	-9.80116
遭	-9.80184
各有	-9.80194
祐	-9.80198
竈	-9.80207
的	-9.80211
亦曰	-9.80212
㫖	-9.80232
吕	-9.8025
馳	-9.80268
膽	-9.80274
蓄	-9.80274
賓	-9.80285
袋	-9.80304
抑	-9.80307
柄	-9.80316
皎	-9.80347
迹	-9.80368
故有	-9.80481
者亦	-9.80489
金鈴	-9.80757
百年	-9.81075
寅	-9.81214
藜	-9.81218
遙	-9.81265
奔	-9.81292
膝	-9.81294
懼	-9.81295
妾	-9.81299
喧	-9.81326
彰	-9.81348
腥	-9.81355
陀	-9.81357
嶽	-9.81368
艷	-9.81421
右為細末	-9.81538
建安	-9.81641
淵明	-9.81641
焙乾	-9.81731
雨後	-9.81736
西山	-9.81742
其所	-9.81844
三尺	-9.81885
芳草	-9.81888
也今	-9.81913
中國	-9.81963
諸香	-9.82006
羊肉	-9.82088
名醫别録	-9.82223
倉	-9.82227
齊民要術	-9.8225
尹	-9.82308
倦	-9.8235
數日	-9.82386
煉	-9.82387
沫	-9.82393
繩	-9.824
歐陽	-9.82424
哀	-9.82427
濵	-9.82431
沼	-9.82445
㝠	-9.8245
汎	-9.82468
擘	-9.82472
舜	-9.82478
浥	-9.82485
雌	-9.82528
厚一寸	-9.82769
綠葉	-9.83102
紅花	-9.8315
道士	-9.83187
牧	-9.83317
剝	-9.83389
甞	-9.83397
怯	-9.83495
乙	-9.83532
翹	-9.83555
契	-9.83576
臍	-9.83579
爾雅翼	-9.83581
憑	-9.83589
另	-9.83599
髻	-9.836
皓	-9.8361
梔子	-9.83616
零落	-9.83685
麺	-9.83721
朱子	-9.83803
白菊	-9.83927
春日	-9.8406
一枚	-9.84072
沉水	-9.84077
所出	-9.8416
生苗	-9.84168
閩中	-9.84206
之精	-9.84419
其間	-9.8453
慕	-9.84544
烘	-9.84585
薤	-9.84607
慢	-9.84637
花如	-9.84673
兆	-9.84714
嵓	-9.84727
剪	-9.84735
玲瓏	-9.84742
不識	-9.84743
楮	-9.84767
白者	-9.84859
形似	-9.84913
延年	-9.84947
木𤓰	-9.85007
初開	-9.85237
好事	-9.85259
粱	-9.85295
一切	-9.85478
之至	-9.85578
栢	-9.85631
忙	-9.85676
勃	-9.85682
預	-9.85723
金顔香	-9.85725
慮	-9.85738
赤色	-9.85765
雁	-9.85772
紛紛	-9.85795
唱	-9.85807
柿	-9.85817
而大	-9.85869
異香	-9.85895
詩話	-9.85912
之狀	-9.85963
銙	-9.85976
一時	-9.86107
使君	-9.86142
右為末	-9.86188
龍尾	-9.86548
一笑	-9.86607
香味	-9.86743
不可食	-9.86821
武夷	-9.86857
荼	-9.8689
髓	-9.86897
朋	-9.86906
讓	-9.86909
震	-9.86952
配	-9.86956
惹	-9.86963
徙	-9.86975
穢	-9.86981
唐白居易	-9.87028
逾	-9.87059
得名	-9.87067
蕭蕭	-9.87097
紫薇	-9.87166
七八	-9.87184
離離	-9.87189
相類	-9.87199
安得	-9.87207
二三尺	-9.87261
荷葉	-9.87438
記云	-9.87516
江湖	-9.87605
植之	-9.8778
岕	-9.87879
咽	-9.87992
溢	-9.88034
劣	-9.8806
帷	-9.88061
邀	-9.88095
啄	-9.88125
己	-9.88135
涵	-9.88165
鷺	-9.88184
暢	-9.882
十分	-9.88202
茍	-9.88213
物之	-9.88306
𤣥參	-9.88408
和香	-9.88686
不凋	-9.88767
千萬	-9.88853
紅梅	-9.88886
皆有之	-9.88941
改元	-9.8899
古今	-9.89002
酪	-9.89005
涎	-9.89035
纂	-9.89172
岑	-9.89199
擷	-9.89207
畨	-9.89219
㳺	-9.8922
寢	-9.89241
逼	-9.89257
䦨	-9.89269
慚	-9.89279
迥	-9.8929
惱	-9.89297
撥	-9.89297
陸羽	-9.89307
貪	-9.8931
杪	-9.89317
徽	-9.8934
叙	-9.89348
笋	-9.89357
攢	-9.89389
邵	-9.89406
之氣	-9.89421
篁	-9.89453
辛夷	-9.89468
而成	-9.89548
其形	-9.89619
七年	-9.89853
乾隆	-9.89967
文曰	-9.89975
丈餘	-9.90007
詩曰	-9.90224
好事者	-9.9031
瑟	-9.9039
繭	-9.90409
虀	-9.90415
紅紫	-9.90415
十二月	-9.90422
蘚	-9.90427
鴉	-9.90444
將軍	-9.90471
祝	-9.90472
普	-9.90483
駐	-9.90497
綻	-9.90515
一片	-9.90519
匹	-9.90522
粤	-9.90523
蹙	-9.90525
瓢	-9.90543
朗	-9.90555
惟有	-9.90589
終日	-9.90613
倣	-9.90691
知其	-9.90885
半斤	-9.91033
半錢	-9.9121
不然	-9.91306
祀	-9.91477
皁	-9.91534
簫	-9.91605
脈	-9.9162
壬	-9.91622
取汁	-9.91637
衝	-9.91661
拘	-9.91665
穀	-9.9167
秉	-9.9167
瀝	-9.91671
襯	-9.91675
練	-9.91691
故謂之	-9.91692
察	-9.91708
荼䕷	-9.91709
幄	-9.91721
炷	-9.91734
斂	-9.91783
鍋	-9.91826
楠	-9.91826
四字	-9.92049
十一	-9.92127
十三	-9.92395
數尺	-9.92585
白雲	-9.92611
者多	-9.92659
東海	-9.92683
苧	-9.92685
漢書	-9.92704
芰	-9.92738
峻	-9.9281
覓	-9.92868
泊	-9.92894
剥	-9.92917
紹	-9.92939
笙	-9.92941
縫	-9.93025
何如	-9.9306
杳	-9.93069
廷珪	-9.93082
白芨	-9.93091
水晶	-9.93111
藿	-9.93508
甚多	-9.93676
南史	-9.937
甘露	-9.93766
相傳	-9.93767
晉書	-9.93769
造化	-9.93773
海中	-9.93786
獨立	-9.93882
丞	-9.9389
荇	-9.9401
為佳	-9.94064
翅	-9.94097
救	-9.94108
芡	-9.9411
䝉	-9.94133
精神	-9.94134
拭	-9.94139
霑	-9.94154
蒂	-9.94159
洩	-9.94173
滄	-9.94176
筯	-9.9419
天台	-9.94223
御史	-9.9438
依依	-9.94429
亦如	-9.94492
然而	-9.94971
蕈	-9.94977
蘓	-9.95219
野人	-9.9529
禦	-9.95316
裴	-9.95317
椿	-9.95331
缸	-9.95331
博物志	-9.95337
又曰	-9.95339
擲	-9.95345
槁	-9.95379
豚	-9.9538
狹	-9.95398
強	-9.95399
歟	-9.95406
珊瑚	-9.95407
矯	-9.95412
不必	-9.95415
蔵	-9.95417
妬	-9.95417
朴	-9.95419
妄	-9.9542
靄	-9.95434
鈿	-9.95435
綱	-9.95436
攅	-9.95479
嵩	-9.95506
亮	-9.9552
淮南子	-9.95554
甘菊	-9.95587
何以	-9.95644
一丈	-9.95781
少年	-9.95815
羣芳	-9.9582
側面	-9.95989
白玉	-9.96015
草生	-9.96099
見其	-9.96145
二百	-9.96188
秫	-9.96286
文章	-9.96305
菽	-9.96374
蕚	-9.96557
棹	-9.96583
従	-9.966
八九	-9.96618
琉璃	-9.9663
不是	-9.96634
坊	-9.96636
厨	-9.96642
曄	-9.96647
鵝	-9.96652
淋	-9.96689
紅色	-9.96689
耿	-9.96694
没	-9.96697
茲	-9.967
敵	-9.96712
基	-9.96713
黛	-9.96718
閲	-9.96725
沐	-9.96734
净	-9.96751
允	-9.96789
捻	-9.96812
有人	-9.96988
百花	-9.97038
物也	-9.97219
子孫	-9.97351
歸去	-9.97394
樹下	-9.97484
去其	-9.97586
宋史	-9.97609
所在	-9.97653
銖	-9.97668
績	-9.97744
鄴	-9.97857
緋	-9.97874
俄	-9.97881
搜	-9.97888
㧞	-9.97892
色深	-9.97896
卓	-9.97897
闌	-9.9792
桓	-9.97925
酉	-9.97942
激	-9.97944
訝	-9.97951
冶	-9.97973
粘	-9.9801
統	-9.98016
逮	-9.98027
石渠	-9.98034
滿地	-9.98074
牋	-9.98195
百草	-9.98271
瑞香	-9.98388
梨花	-9.98572
即此	-9.98707
行人	-9.98759
而後	-9.988
無情	-9.989
入水	-9.98913
龍涎	-9.9893
枳	-9.98976
黄庭堅	-9.99021
三四尺	-9.99051
㯶	-9.99106
脯	-9.9913
俎	-9.99176
昇	-9.99199
荘	-9.9922
吞	-9.99229
着	-9.9924
認	-9.99242
駢	-9.99245
曜	-9.99255
唇	-9.99276
舶	-9.99297
撒	-9.993
脩	-9.99329
児	-9.99368
硏	-9.99407
武陵	-9.99437
無毒主	-9.9959
園中	-9.99607
棧香	-9.99725
附子	-9.99869
四面	-10.0003
實如	-10.0008
北人	-10.0024
秧	-10.003
味酸	-10.0043
酢	-10.0043
杜鵑	-10.0045
寥	-10.0046
杞	-10.0049
卜	-10.0049
雨過	-10.005
糧	-10.0051
售	-10.0052
魄	-10.0052
埤雅	-10.0052
崑崙	-10.0054
齡	-10.0054
悟	-10.0054
遽	-10.0055
羌	-10.0055
羲	-10.0055
矜	-10.0056
霽	-10.0057
幼	-10.0057
旅	-10.0061
陋	-10.0061
豫章	-10.0067
幅	-10.0071
小而	-10.0071
慢火	-10.0078
未知	-10.0093
人也	-10.0093
洪志	-10.0094
二十四	-10.0105
龍涎香	-10.0109
數枝	-10.0109
枝幹	-10.012
一㸃	-10.0121
俗呼	-10.0147
下方	-10.0153
枝條	-10.0156
月明	-10.016
㯽榔	-10.0165
馨香	-10.0168
北方	-10.017
不成	-10.0177
蘄	-10.0182
赴	-10.0185
黙	-10.0187
局	-10.0189
嗅	-10.0189
鬻	-10.0189
煎茶	-10.0191
孕	-10.0192
多葉	-10.0192
帛	-10.0193
琅玕	-10.0196
蛟	-10.0197
拒	-10.0197
周禮	-10.0205
之時	-10.0205
西南	-10.0206
濾	-10.0206
其樹	-10.0219
或曰	-10.0228
採蓮	-10.0232
故也	-10.0242
大黄	-10.0249
尤佳	-10.0251
夏月	-10.0255
而味	-10.0257
胸	-10.0275
不待	-10.0298
台	-10.0303
戰	-10.0313
戊	-10.0315
域	-10.0317
癖	-10.0318
臂	-10.032
氣味辛	-10.0321
誦	-10.0322
鱸	-10.0324
庵	-10.0324
匙	-10.0325
校	-10.0325
娘	-10.0325
氣味苦	-10.0328
廊	-10.0328
糊	-10.033
燦	-10.033
麫	-10.0335
𢷬	-10.034
同食	-10.0343
十一月	-10.0347
南北	-10.0353
隂陽	-10.0358
風霜	-10.0381
千載	-10.0382
有兩	-10.0382
硯面	-10.0393
六分	-10.0406
足以	-10.0424
醃	-10.0439
枸杞	-10.0448
睂	-10.0453
禁中	-10.0456
鬛	-10.0457
旌	-10.0458
趨	-10.046
嘆	-10.046
人皆	-10.046
漉	-10.0462
克	-10.0462
絃	-10.0462
肇	-10.0463
楸	-10.047
藹	-10.047
扣	-10.0471
天涯	-10.0482
以竹	-10.0497
去年	-10.0499
和劑	-10.0499
合歡	-10.0501
而細	-10.0506
一首	-10.0508
連理	-10.0518
根如	-10.0521
天氣	-10.0524
百尺	-10.0542
前後	-10.0566
者佳	-10.0584
罪	-10.0584
羡	-10.0587
鹹	-10.0587
脹	-10.059
棟	-10.0593
衫	-10.0593
皮日休	-10.0595
谿	-10.0596
丙	-10.0598
㦸	-10.0599
醅	-10.0599
緗	-10.0599
燃	-10.0599
一人	-10.06
頰	-10.06
儼	-10.0602
鼈	-10.0603
綸	-10.0604
沸湯	-10.0605
曠	-10.0605
恰	-10.0606
栖	-10.0606
係	-10.0607
熈	-10.0609
寛三寸	-10.0627
不受	-10.0627
未必	-10.0629
極細	-10.0631
素馨	-10.0632
生薑	-10.0644
因以	-10.0649
金盤	-10.0657
一卷	-10.0679
木之	-10.07
芷	-10.071
長條	-10.0715
公子	-10.0716
罌	-10.0721
卯	-10.0728
諫	-10.0728
俗名	-10.0728
糝	-10.0729
瓤	-10.0732
舂	-10.0733
兔	-10.0737
霏	-10.0738
垣	-10.0739
巷	-10.0739
陣	-10.074
為誰	-10.074
鷗	-10.0741
裝	-10.0744
欽	-10.0745
荻	-10.0746
鎖	-10.0747
婢	-10.0749
䕫	-10.0755
矢	-10.0757
弓	-10.0759
樓子	-10.0763
移植	-10.0801
輕身	-10.0816
行書	-10.0819
堂前	-10.0851
門外	-10.0858
此草	-10.0859
寒熱	-10.0864
本草拾遺	-10.0864
韓愈	-10.0866
緒	-10.0867
疇	-10.087
箬	-10.0872
晋	-10.0872
矮	-10.0875
水仙	-10.0876
挿	-10.0879
葅	-10.0879
聼	-10.088
故事	-10.088
劍	-10.088
書云	-10.0884
海上	-10.0886
鵠	-10.0888
裊	-10.0888
潜	-10.0893
捕	-10.0895
之下	-10.0895
徵	-10.0899
明日	-10.0902
塩	-10.0907
無異	-10.0907
波斯	-10.091
移栽	-10.0911
其法	-10.0935
蔓生	-10.0943
豈無	-10.0946
殿前	-10.0964
􁈣	-10.1008
瘧	-10.1012
淮南	-10.1013
貽	-10.1014
證	-10.1019
衙	-10.1021
猩	-10.1021
盂	-10.1021
忩	-10.1022
五臟	-10.1022
謫	-10.1023
判	-10.1023
獵	-10.1023
袍	-10.1025
挹	-10.1026
天竺	-10.1027
惆悵	-10.1028
援	-10.1029
園林	-10.1033
項	-10.1034
雞冠	-10.1034
移根	-10.1036
煥	-10.1037
宋宋祁	-10.1038
為君	-10.1038
婉	-10.104
浮萍	-10.1047
蜀葵	-10.1056
神農	-10.1056
猶有	-10.1071
五榖	-10.1071
熟時	-10.1073
蠟梅	-10.1088
說硯	-10.1102
白檀	-10.1106
燒香	-10.1116
童子	-10.114
采之	-10.1146
椹	-10.1147
其性	-10.1156
七十	-10.1161
或有	-10.1163
林下	-10.1163
不盡	-10.1164
辣	-10.1166
詣	-10.1167
泡	-10.1168
劒	-10.117
躬	-10.1171
敏	-10.1172
隣	-10.1173
產	-10.1174
誰知	-10.1178
迸	-10.118
汚	-10.1182
癡	-10.1185
灼	-10.1186
黑色	-10.1187
鮫	-10.1189
萱草	-10.1193
一斗	-10.1207
花發	-10.1214
幽香	-10.1215
其地	-10.1226
芝草	-10.1234
如今	-10.124
含笑	-10.1244
腦子	-10.1262
類也	-10.1268
王孫	-10.1289
無窮	-10.1301
四方	-10.1304
橘柚	-10.1306
得所	-10.1307
何事	-10.1308
擎	-10.1311
飲食	-10.1312
然則	-10.1312
豹	-10.132
茁	-10.1325
無不	-10.1327
其質	-10.1328
昆	-10.1328
嘯	-10.1329
洋	-10.1329
肖	-10.133
蕤	-10.1332
老人	-10.1333
翡翠	-10.1333
鐫御題銘一首楷書鈐寳	-10.1333
肩	-10.1338
食貨志	-10.134
紹興	-10.134
難得	-10.1347
江淮	-10.135
不減	-10.1361
采根	-10.1367
下氣	-10.138
樹髙	-10.1394
尋常	-10.1397
為第一	-10.1432
日暮	-10.1457
月下	-10.1457
䇿	-10.1462
抱朴子	-10.1462
牡	-10.1464
爵	-10.1466
世人	-10.1466
阮	-10.1468
訖	-10.1469
泠	-10.1469
蛾	-10.147
勾	-10.1471
謁	-10.1471
怡	-10.1471
猛	-10.1475
不與	-10.1476
閱	-10.1477
蠲	-10.1478
荀	-10.1478
偉	-10.1479
粹	-10.1479
釘	-10.1479
减	-10.148
十斤	-10.148
狀似	-10.1481
拍	-10.1482
嚢	-10.1484
謬	-10.1485
啟	-10.1485
喻	-10.1487
緻	-10.1492
微風	-10.1495
不須	-10.1499
第二	-10.1503
昔人	-10.1504
圖經	-10.1507
内有	-10.1511
花瓣	-10.1514
深黄	-10.1535
夕陽	-10.1539
太子	-10.154
冬至	-10.1542
池中	-10.1543
所載	-10.1544
是以	-10.1551
説文	-10.1553
荆州	-10.1553
蜀中	-10.1555
冬青	-10.1566
不死	-10.1579
一層	-10.1603
修竹	-10.161
穫	-10.1613
千餘	-10.1613
穰	-10.1614
庭前	-10.1618
躍	-10.1619
蘸	-10.1621
鍼	-10.1622
劉禹錫	-10.1624
鄙	-10.1624
玉盤	-10.1624
誕	-10.1628
噴	-10.163
饌	-10.163
異物志	-10.163
裛	-10.1632
黯	-10.1632
劈	-10.1632
侍郎	-10.1633
針	-10.1633
紺	-10.1636
桂花	-10.1637
麟	-10.1637
拱	-10.1638
遜	-10.1639
蔣	-10.164
函	-10.164
馬蹄	-10.1643
圓如	-10.1643
箔	-10.1644
飲酒	-10.1646
宋陸游	-10.1648
其皮	-10.1648
亁	-10.1654
即今	-10.1658
西施	-10.1679
誰家	-10.1682
福州	-10.1683
新茶	-10.1685
亦自	-10.1691
碧玉	-10.1742
落花	-10.1744
第三	-10.1755
北山	-10.1757
以來	-10.176
鳩	-10.177
逄	-10.1776
涪	-10.1777
曙	-10.1778
鼠	-10.1781
汀	-10.1781
彚	-10.1783
謀	-10.1784
審	-10.1784
匝	-10.1788
泄	-10.179
吸	-10.1791
戀	-10.1792
蝕	-10.1793
冒	-10.1794
鳬	-10.18
彤	-10.1803
萱	-10.1924
鄧	-10.1927
災	-10.1931
塢	-10.1939
坎	-10.1941
浣	-10.1944
蒨	-10.1946
個	-10.1948
蹊	-10.1948
辱	-10.1949
淒	-10.1956
墀	-10.1956
𥙷	-10.1956
奕	-10.1958
寮	-10.1961
樸	-10.1964
滚	-10.2098
珪	-10.2098
祈	-10.2099
訣	-10.2099
瀹	-10.21
葭	-10.21
珮	-10.2101
菲	-10.2101
講	-10.2101
墓	-10.2102
舎	-10.2103
仕	-10.2104
宏	-10.2104
段	-10.2104
酘	-10.2105
蟾	-10.2105
例	-10.2105
閨	-10.2108
鬆	-10.2109
麓	-10.211
隙	-10.2112
祕	-10.2113
竇	-10.2115
繪	-10.2117
僊	-10.2118
訓	-10.2123
騷	-10.2226
潑	-10.2252
疥	-10.2256
殖	-10.2258
閭	-10.226
簿	-10.2261
勅	-10.2265
綬	-10.2265
掬	-10.2267
牢	-10.2267
腮	-10.2268
擔	-10.2269
尼	-10.2272
攻	-10.2273
妓	-10.2274
煖	-10.2275
醇	-10.2275
鋸	-10.2278
戸	-10.2278
梵	-10.2282
噐	-10.229
櫻	-10.2389
藷	-10.2402
麋	-10.2409
彫	-10.2417
蹄	-10.2421
牖	-10.2422
櫟	-10.2424
享	-10.2429
鐡	-10.2429
藴	-10.2431
窟	-10.2432
梳	-10.2433
袂	-10.2433
股	-10.2437
峭	-10.2437
牕	-10.2437
挽	-10.2438
驪	-10.2449
瑕	-10.2454
凹	-10.2456
棣	-10.2456
籃	-10.2583
喫	-10.2594
渉	-10.2599
挑	-10.2599
陪	-10.2599
策	-10.2601
巫	-10.2601
促	-10.2602
耘	-10.2603
擣	-10.2603
纈	-10.2603
暄	-10.2605
慘	-10.2605
括	-10.2606
癸	-10.2606
檢	-10.2606
趁	-10.2607
駭	-10.2607
瀛	-10.2609
廵	-10.261
刑	-10.261
晁	-10.2614
篛	-10.2615
纓	-10.2616
峩	-10.2616
掖	-10.2618
畜	-10.2751
㪚	-10.2766
湧	-10.2769
狐	-10.2774
鋭	-10.2774
嶠	-10.2775
憲	-10.2775
算	-10.2775
亥	-10.2777
酲	-10.2777
侈	-10.2778
奩	-10.2778
衢	-10.2779
悠	-10.2781
緘	-10.2782
亨	-10.2783
颯	-10.2787
魴	-10.2787
粧	-10.2792
諒	-10.2797
慿	-10.2941
冲	-10.2942
敲	-10.2946
賊	-10.295
簮	-10.2951
薊	-10.2952
巵	-10.2952
副	-10.2953
祇	-10.2954
逹	-10.2954
鑑	-10.2959
邁	-10.296
竭	-10.2961
卦	-10.2961
範	-10.2961
稚	-10.2962
猷	-10.2964
穹	-10.2968
汴	-10.2968
幻	-10.2969
榕	-10.297
紉	-10.2971
祁	-10.3116
帚	-10.3123
演	-10.3123
毋	-10.3123
琳	-10.3127
剔	-10.313
淪	-10.313
虹	-10.3131
醴	-10.3131
員	-10.3132
頴	-10.3132
鬟	-10.3134
茵	-10.3134
膜	-10.3134
欠	-10.3135
悶	-10.3135
皂	-10.3137
詢	-10.3138
滇	-10.3139
甆	-10.3143
鈐	-10.3145
狼	-10.3294
黨	-10.3298
儉	-10.33
評	-10.3301
膾	-10.3302
街	-10.3305
冽	-10.3306
違	-10.3306
繇	-10.3308
床	-10.3308
斟	-10.3308
扉	-10.3309
汙	-10.3312
躅	-10.3312
苕	-10.3313
協	-10.3314
險	-10.3315
咀	-10.3317
漳	-10.3319
盒	-10.3321
聴	-10.3321
塔	-10.3321
霰	-10.3323
庫	-10.3324
匡	-10.3324
涓	-10.3325
虬	-10.3333
稗	-10.3482
畆	-10.3484
尸	-10.3492
輦	-10.3492
溜	-10.3492
樊	-10.3493
晞	-10.3499
嫁	-10.3499
赫	-10.35
蓊	-10.3501
麵	-10.3501
汪	-10.3501
肆	-10.3502
欒	-10.3502
庇	-10.3502
禎	-10.3502
裔	-10.3502
縛	-10.3503
璣	-10.3505
飴	-10.3506
迴	-10.3506
嬰	-10.3507
雛	-10.3508
聨	-10.3509
熒	-10.351
俾	-10.3511
篠	-10.3513
罐	-10.3514
硝	-10.3523
系	-10.3525
杭	-10.3672
漲	-10.3676
綘	-10.3683
掛	-10.3683
完	-10.3684
鋒	-10.3686
薩	-10.3686
鮑	-10.3687
疫	-10.3687
豔	-10.3687
豉	-10.3689
嗣	-10.369
劚	-10.369
跋	-10.3692
恍	-10.3693
俞	-10.3695
敦	-10.3696
醪	-10.3697
紐	-10.37
萃	-10.3703
黝	-10.371
糯	-10.384
限	-10.3848
樝	-10.3861
璞	-10.3864
桞	-10.3864
叩	-10.387
参	-10.387
冀	-10.3875
枸	-10.3877
屠	-10.3877
逕	-10.3878
樗	-10.3879
仝	-10.3879
竦	-10.388
噫	-10.388
歐	-10.3881
昻	-10.3882
瓷	-10.3884
槃	-10.3885
簟	-10.3888
豫	-10.3893
鄒	-10.3898
課	-10.4058
戚	-10.4064
儲	-10.4065
𨽻	-10.4065
督	-10.4066
帽	-10.4068
庖	-10.407
撚	-10.407
酷	-10.4073
箕	-10.4074
窗	-10.4078
汾	-10.4079
驢	-10.4079
鸚	-10.4081
札	-10.4085
創	-10.4085
岫	-10.409
版	-10.4093
顏	-10.4118
礬	-10.4238
褐	-10.4246
耆	-10.4247
餳	-10.425
壠	-10.4254
韌	-10.426
箱	-10.4262
椰	-10.4265
匏	-10.427
倘	-10.4271
懶	-10.4272
溶	-10.4274
拈	-10.4274
琦	-10.4275
姜	-10.4276
荑	-10.4276
衞	-10.4279
秤	-10.4281
淇	-10.4282
什	-10.4282
蛀	-10.4283
徂	-10.4283
電	-10.4285
毁	-10.429
悵	-10.4291
禀	-10.4294
樟	-10.4301
喙	-10.4305
穉	-10.4471
饋	-10.4472
拙	-10.4472
碩	-10.4473
咎	-10.4474
佇	-10.4479
杓	-10.4479
弼	-10.448
醢	-10.448
騐	-10.4482
漪	-10.4483
傑	-10.4484
漾	-10.4484
倩	-10.4485
縠	-10.4485
裕	-10.4486
宸	-10.4486
苐	-10.4486
斬	-10.4489
壞	-10.4489
丑	-10.45
蓍	-10.4675
謙	-10.4675
稼	-10.4677
樞	-10.4681
填	-10.4683
褒	-10.4685
莆	-10.4685
裘	-10.4685
枉	-10.4687
蘅	-10.4688
僻	-10.469
革	-10.4691
胥	-10.4692
曷	-10.4692
詰	-10.4693
靨	-10.4695
靑	-10.4698
灘	-10.4699
毅	-10.47
邇	-10.4702
夹	-10.4703
鴟	-10.4703
踐	-10.4706
叠	-10.4706
旣	-10.4707
鍊	-10.4707
鉤	-10.4709
菁	-10.4869
欬	-10.4889
専	-10.489
盗	-10.4891
决	-10.4896
譬	-10.4896
攤	-10.4897
析	-10.4899
驟	-10.4899
冥	-10.4899
爼	-10.4901
禄	-10.4901
猿	-10.4903
抛	-10.4903
髯	-10.4903
暝	-10.4904
銚	-10.4904
查	-10.4904
䖍	-10.4904
捐	-10.4905
婺	-10.4905
苓	-10.4906
垢	-10.4906
碗	-10.4909
稟	-10.491
琪	-10.4911
絞	-10.4912
匾	-10.4914
剡	-10.4918
苣	-10.5086
抵	-10.5089
帥	-10.5103
朕	-10.5107
敎	-10.5108
㫁	-10.5112
嘔	-10.5115
煨	-10.5117
潄	-10.5117
仗	-10.5118
柚	-10.5118
醜	-10.5119
渺	-10.5122
洽	-10.5123
丰	-10.5123
庸	-10.5124
茝	-10.5124
耗	-10.5125
渥	-10.5127
沿	-10.5127
醖	-10.5127
頑	-10.5128
曵	-10.5128
羃	-10.5129
攸	-10.5131
冗	-10.5135
栝	-10.5135
駁	-10.5144
槍	-10.5322
荚	-10.5323
䑓	-10.5323
鬯	-10.5326
刮	-10.5328
縞	-10.5329
麪	-10.533
煠	-10.5335
瑰	-10.5336
途	-10.5337
礙	-10.5337
蓀	-10.5338
距	-10.5338
嘲	-10.5339
槩	-10.534
厲	-10.5341
硃	-10.5342
燼	-10.5342
㵼	-10.5342
沁	-10.5344
蚓	-10.5344
攝	-10.5344
澁	-10.5345
阜	-10.5345
鱠	-10.5346
籟	-10.5347
搴	-10.5347
覿	-10.5347
碑	-10.535
皴	-10.535
恣	-10.5351
楹	-10.5351
複	-10.5353
遵	-10.5354
斵	-10.5356
荈	-10.5542
瀑	-10.5544
膈	-10.555
漂	-10.5552
綽	-10.5562
亟	-10.5562
瀘	-10.5562
疰	-10.5563
戌	-10.5564
俊	-10.5564
榻	-10.5566
燎	-10.5568
鷹	-10.5572
藁	-10.5573
迄	-10.5573
嵐	-10.5576
究	-10.5577
慧	-10.5577
楝	-10.5577
邈	-10.5577
瑛	-10.5577
堇	-10.5578
些	-10.5579
旎	-10.558
効	-10.5587
紳	-10.5588
躁	-10.5589
孺	-10.5779
億	-10.578
喉	-10.5788
磚	-10.579
幃	-10.5792
勲	-10.5792
璫	-10.5792
隈	-10.5796
揖	-10.5796
測	-10.5797
謾	-10.5797
貺	-10.5798
檐	-10.5798
導	-10.58
欝	-10.58
濺	-10.5801
捨	-10.5801
昂	-10.5801
税	-10.5801
爍	-10.5802
蹋	-10.5802
役	-10.5803
哲	-10.5804
閟	-10.5805
刋	-10.5806
盜	-10.5807
藩	-10.5807
椽	-10.5811
頸	-10.5811
攷	-10.5811
釡	-10.5811
豬	-10.5814
曼	-10.5816
麄	-10.5816
橢	-10.5826
妨	-10.5938
蔞	-10.6012
晶	-10.6018
刃	-10.6022
阻	-10.6024
臻	-10.6024
糜	-10.6026
飬	-10.6027
携	-10.6027
嚥	-10.6029
虢	-10.6031
撩	-10.6032
颺	-10.6032
隰	-10.6032
鞠	-10.6033
儂	-10.6033
装	-10.6034
蟄	-10.6034
責	-10.6035
詵	-10.6039
茫	-10.604
菩	-10.6042
鈞	-10.6042
瞿	-10.6044
箆	-10.6044
顰	-10.6044
猗	-10.6044
賽	-10.6047
侔	-10.6048
飇	-10.6049
騫	-10.6052
嵌	-10.6052
隻	-10.6052
窪	-10.6061
禺	-10.6061
厄	-10.6258
濛	-10.6268
屯	-10.6269
駒	-10.6271
挼	-10.6275
輟	-10.6275
芎	-10.6277
眩	-10.6278
組	-10.6278
構	-10.6278
淄	-10.6279
婁	-10.6279
磬	-10.6281
敞	-10.6283
帆	-10.6284
瓮	-10.6284
諧	-10.6284
伽	-10.6285
慣	-10.6286
閏	-10.6287
肚	-10.6288
疲	-10.6288
邕	-10.6289
萊	-10.6291
蠣	-10.6291
逓	-10.6291
螖	-10.6292
糠	-10.6296
陟	-10.6297
闊	-10.6303
枲	-10.6506
膳	-10.651
茈	-10.6515
凛	-10.6521
嬾	-10.6522
凖	-10.6524
盟	-10.6524
崑	-10.6525
搔	-10.6525
羸	-10.6525
滲	-10.6526
鞍	-10.6527
涕	-10.6528
虧	-10.653
冩	-10.6531
罩	-10.6532
廉	-10.6533
誥	-10.6533
苒	-10.6533
跨	-10.6533
瘁	-10.6535
辯	-10.6535
昧	-10.6536
蠅	-10.6537
懿	-10.654
遞	-10.6543
筩	-10.6543
呂	-10.6544
泓	-10.6551
棉	-10.6758
諺	-10.6766
沽	-10.6772
𠻳	-10.6773
磊	-10.6775
黔	-10.6781
鉉	-10.6781
桷	-10.6782
罅	-10.6784
瘠	-10.6784
做	-10.6786
仞	-10.6787
頼	-10.6787
霖	-10.6788
奮	-10.6789
綰	-10.679
逞	-10.679
冕	-10.6791
榭	-10.6791
儔	-10.6791
崩	-10.6791
抹	-10.6791
榜	-10.6792
埃	-10.6792
羨	-10.6792
濫	-10.6793
巻	-10.6793
嘴	-10.6793
蹤	-10.6795
擾	-10.6797
淫	-10.6797
呵	-10.6797
蜃	-10.6797
瀾	-10.6799
迨	-10.6801
姝	-10.6801
遁	-10.6801
榨	-10.6801
哥	-10.6809
夘	-10.7036
𣺌	-10.7036
雋	-10.7039
墳	-10.7039
赬	-10.704
葷	-10.7042
畵	-10.7043
倪	-10.7044
凶	-10.7045
峙	-10.7047
茨	-10.7047
竪	-10.7048
恱	-10.7049
攬	-10.7049
販	-10.7049
堕	-10.705
寐	-10.7051
牒	-10.7053
肢	-10.7054
聰	-10.7056
絨	-10.7057
邢	-10.7057
鳶	-10.7057
㸑	-10.7058
碁	-10.7058
悔	-10.706
毗	-10.706
鞏	-10.7064
虯	-10.7064
銳	-10.7065
芩	-10.7071
摶	-10.7072
柤	-10.7303
辦	-10.7306
巡	-10.7306
坼	-10.7307
掠	-10.7312
寔	-10.7315
頒	-10.7318
鐸	-10.7318
秔	-10.7318
禱	-10.7319
僚	-10.7321
顒	-10.7321
涉	-10.7323
癘	-10.7323
痔	-10.7324
孚	-10.7324
疆	-10.7324
頫	-10.7326
驕	-10.7326
慨	-10.7326
膺	-10.7328
姊	-10.7329
盎	-10.7331
匕	-10.7331
甄	-10.7334
刓	-10.7336
翥	-10.7338
佞	-10.7339
搓	-10.7345
轅	-10.7358
漚	-10.7568
飼	-10.7569
稅	-10.757
两	-10.7582
迦	-10.7583
鐺	-10.7586
弦	-10.7589
煌	-10.759
氛	-10.7592
呌	-10.7593
扈	-10.7594
櫳	-10.7594
軸	-10.7595
癭	-10.7595
儻	-10.7595
姥	-10.7595
荽	-10.7597
繒	-10.7597
剰	-10.7598
沮	-10.7598
恥	-10.7599
撼	-10.7599
炯	-10.76
摭	-10.7602
奎	-10.7602
伸	-10.7602
跪	-10.7602
蓽	-10.7603
伶	-10.7607
韜	-10.7607
靚	-10.7608
卽	-10.7609
棚	-10.7609
夸	-10.761
盃	-10.7611
麯	-10.7611
泔	-10.7612
礲	-10.7612
睿	-10.7614
瑪	-10.762
篋	-10.7622
毳	-10.7622
棧	-10.7856
柞	-10.7859
苴	-10.786
鰻	-10.7861
租	-10.7869
嶼	-10.7869
罈	-10.787
緜	-10.7871
囬	-10.7872
譏	-10.7876
拖	-10.7877
箸	-10.7878
訶	-10.788
义	-10.788
款	-10.7882
鈔	-10.7883
囿	-10.7883
賁	-10.7884
旺	-10.7884
篔	-10.7884
鯨	-10.7885
兠	-10.7885
逝	-10.7886
準	-10.7886
鼔	-10.7888
斸	-10.7889
癬	-10.7889
鄂	-10.789
芻	-10.789
炳	-10.789
缾	-10.789
麩	-10.789
迭	-10.7891
緯	-10.7892
罽	-10.7892
卭	-10.7893
鯤	-10.7894
泫	-10.7896
潯	-10.7896
蠡	-10.7896
熖	-10.7897
濱	-10.7898
柟	-10.7898
凱	-10.7904
凸	-10.7908
圈	-10.7911
甎	-10.7913
鱟	-10.7917
芼	-10.8155
溺	-10.8159
憎	-10.8169
郵	-10.8169
賚	-10.817
兖	-10.8173
蔴	-10.8174
㡌	-10.8175
艱	-10.8175
蚤	-10.8177
隄	-10.8177
悄	-10.8177
槽	-10.8178
霍	-10.8178
掲	-10.8179
揭	-10.818
罨	-10.8181
緇	-10.8181
醤	-10.8181
抄	-10.8182
妒	-10.8182
姸	-10.8185
緝	-10.8186
溟	-10.8186
沛	-10.8186
惑	-10.8187
唾	-10.8188
㶚	-10.8188
翩	-10.8188
跳	-10.8188
奢	-10.8189
芊	-10.819
衮	-10.8193
臆	-10.8199
蹲	-10.8202
闔	-10.8469
潁	-10.8471
恬	-10.8472
潦	-10.8473
薹	-10.8473
檉	-10.8475
夙	-10.8475
縑	-10.8479
昊	-10.848
逃	-10.848
紈	-10.848
護	-10.8481
螫	-10.8481
帙	-10.8482
芟	-10.8483
戯	-10.8484
坤	-10.8485
猫	-10.8486
軰	-10.8486
莱	-10.8486
亘	-10.8488
疉	-10.8489
巔	-10.8489
冐	-10.849
摹	-10.8491
稉	-10.8491
脛	-10.8493
葆	-10.8493
漕	-10.8494
頤	-10.8495
㕘	-10.8495
篾	-10.8497
藂	-10.8497
蛛	-10.85
擕	-10.8502
拏	-10.8502
鱧	-10.8518
鯽	-10.8774
𣙜	-10.8774
牟	-10.8778
楷	-10.8778
灣	-10.878
咬	-10.8782
勉	-10.8782
蓂	-10.8785
咨	-10.8786
赭	-10.8786
瘟	-10.8787
噀	-10.8787
稔	-10.8789
攣	-10.879
膓	-10.8791
濇	-10.8791
財	-10.8792
蹇	-10.8792
劇	-10.8794
麈	-10.8795
瀨	-10.8795
伺	-10.8795
蘖	-10.8796
娃	-10.8796
厦	-10.8797
獅	-10.8797
坂	-10.8797
隕	-10.8798
樛	-10.8798
娱	-10.88
侣	-10.88
勺	-10.8801
槌	-10.8802
炫	-10.8802
飈	-10.8803
儘	-10.8803
趺	-10.8803
娟	-10.8804
斥	-10.8804
邸	-10.8804
偁	-10.8805
矗	-10.8806
吻	-10.8807
撮	-10.8808
涸	-10.8809
坦	-10.881
茜	-10.8811
墟	-10.8813
狎	-10.8819
椏	-10.9105
䟽	-10.9108
笠	-10.9111
兀	-10.9112
蒻	-10.9112
娛	-10.9114
獺	-10.9114
曇	-10.9116
眷	-10.9117
莞	-10.9119
偕	-10.912
覔	-10.9121
蚶	-10.9122
慵	-10.9122
牘	-10.9122
駿	-10.9122
伍	-10.9122
旭	-10.9122
癎	-10.9123
訴	-10.9123
昀	-10.9127
縟	-10.9128
現	-10.9138
橡	-10.9402
蘩	-10.9404
餽	-10.9425
笻	-10.9427
滷	-10.9434
窖	-10.9435
羔	-10.9436
蔆	-10.9438
鵬	-10.9439
挈	-10.944
趾	-10.9441
鮓	-10.9442
睛	-10.9442
㾗	-10.9442
溉	-10.9443
僮	-10.9445
珣	-10.9445
篤	-10.9447
傘	-10.9447
彪	-10.9448
沅	-10.9448
矧	-10.9448
㺯	-10.9449
魔	-10.9449
昉	-10.945
曦	-10.945
斕	-10.945
幢	-10.945
乖	-10.9451
軀	-10.9452
隊	-10.9453
蘤	-10.9453
笥	-10.9453
藪	-10.9453
巒	-10.9453
媿	-10.9454
刳	-10.9454
紆	-10.9454
場	-10.9454
鮒	-10.9454
貎	-10.9457
秪	-10.9457
禍	-10.9458
悅	-10.946
媒	-10.946
誌	-10.9461
芃	-10.9462
搥	-10.9462
軫	-10.9463
鱣	-10.9463
渝	-10.9463
煜	-10.9467
煆	-10.9467
蕋	-10.947
鯊	-10.9489
蟳	-10.9508
莠	-10.9779
喘	-10.978
猴	-10.9781
滂	-10.9782
疹	-10.9783
夣	-10.9784
杼	-10.9785
勇	-10.9786
凭	-10.9789
店	-10.979
秃	-10.979
紡	-10.979
腕	-10.9791
雒	-10.9791
盻	-10.9791
繚	-10.9791
臧	-10.9791
寕	-10.9792
酵	-10.9792
沂	-10.9793
蕖	-10.9794
瘥	-10.9795
確	-10.9795
贅	-10.9798
楫	-10.9798
梯	-10.9798
溥	-10.9798
緬	-10.9799
叱	-10.9799
譽	-10.9799
弁	-10.9799
訟	-10.98
串	-10.98
汶	-10.9801
鑾	-10.9803
嗤	-10.9806
裾	-10.9806
誅	-10.9806
鎔	-10.9806
詭	-10.9807
闢	-10.9807
髄	-10.9808
彥	-10.9809
祚	-10.9809
猊	-10.9809
罔	-10.981
瓌	-10.981
釐	-10.9812
憤	-10.9817
洮	-10.9821
叶	-10.9821
討	-10.9822
穄	-11.0122
醺	-11.0129
𣝕	-11.0133
瘕	-11.0136
腑	-11.0137
揷	-11.0137
櫚	-11.0138
瘻	-11.0139
蠱	-11.0139
鶻	-11.0139
嬉	-11.014
峒	-11.0145
彬	-11.0145
惲	-11.0146
梭	-11.0147
臞	-11.0148
嗔	-11.0148
廼	-11.0149
勵	-11.015
峡	-11.0151
鴛	-11.0152
闍	-11.0152
盪	-11.0153
叅	-11.0153
袪	-11.0153
橫	-11.0153
糅	-11.0154
墅	-11.0156
岷	-11.0156
憩	-11.0156
冊	-11.0156
繄	-11.0158
椎	-11.0158
轂	-11.0158
仇	-11.0159
兜	-11.0159
熾	-11.016
闇	-11.016
褭	-11.016
閙	-11.016
頷	-11.0161
虱	-11.0162
抗	-11.0162
璀	-11.0164
釜	-11.0165
䟦	-11.0165
辜	-11.0166
縦	-11.0166
鑠	-11.0166
閤	-11.0166
敝	-11.017
詹	-11.0171
駝	-11.0173
決	-11.0179
捺	-11.018
荏	-11.0481
燔	-11.0499
奠	-11.0499
蓆	-11.05
茭	-11.0502
圜	-11.0506
宦	-11.0506
屐	-11.0508
洎	-11.0509
蕎	-11.051
哭	-11.0513
襪	-11.0514
糕	-11.0514
杲	-11.0515
㽔	-11.0515
繖	-11.0516
壮	-11.0516
蕾	-11.0517
饗	-11.0517
鞋	-11.0518
𤨏	-11.0518
曺	-11.0518
讌	-11.0519
睨	-11.0519
潺	-11.0519
蟇	-11.0519
饞	-11.0519
㝷	-11.0519
趂	-11.052
拄	-11.052
肎	-11.0521
妹	-11.0522
綏	-11.0523
軌	-11.0524
警	-11.0524
菀	-11.0524
諱	-11.0525
亷	-11.0525
棋	-11.0526
篝	-11.0526
厓	-11.0527
鱉	-11.0527
焰	-11.0528
觜	-11.0528
嶰	-11.0529
摛	-11.053
綈	-11.0531
嵇	-11.0531
詫	-11.0533
珊	-11.0535
遯	-11.0536
鮎	-11.0536
蹟	-11.0536
瑒	-11.0538
礪	-11.0538
閬	-11.0539
砧	-11.0542
鮪	-11.0548
莒	-11.0888
茇	-11.0891
豕	-11.0894
炬	-11.0895
鎗	-11.0895
頬	-11.0896
衾	-11.0896
竝	-11.0897
哈	-11.0898
滕	-11.0898
朧	-11.09
橈	-11.09
碌	-11.0902
缶	-11.0903
㤀	-11.0903
窻	-11.0904
肪	-11.0904
鑽	-11.0905
氊	-11.0905
誓	-11.0905
頡	-11.0906
槖	-11.0907
秬	-11.0908
罰	-11.0908
囀	-11.0909
鱓	-11.0909
迤	-11.091
癰	-11.0911
壘	-11.0912
戞	-11.0912
岱	-11.0913
罍	-11.0913
箒	-11.0914
鈍	-11.0915
懋	-11.0916
椘	-11.0917
嬪	-11.0917
廹	-11.0917
癯	-11.0918
鶉	-11.0918
炮	-11.0919
況	-11.0919
仄	-11.0919
彛	-11.0921
廕	-11.0922
芾	-11.0924
瓏	-11.0926
矩	-11.0926
駮	-11.0957
泌	-11.1276
疋	-11.128
齧	-11.1288
羶	-11.1288
腋	-11.1289
嚙	-11.1292
蘘	-11.1295
寘	-11.1295
苻	-11.1295
貍	-11.1297
藋	-11.1298
猥	-11.1298
凜	-11.1299
琖	-11.13
簸	-11.13
臈	-11.1301
毓	-11.1301
鉅	-11.1301
賒	-11.1301
措	-11.1303
飣	-11.1303
甸	-11.1304
航	-11.1305
芑	-11.1305
艇	-11.1306
諭	-11.1306
瀋	-11.1306
秩	-11.1307
恃	-11.1307
湼	-11.1308
咫	-11.1309
獄	-11.1309
囂	-11.1309
葺	-11.131
􁁜	-11.1311
煒	-11.1311
黼	-11.1311
甃	-11.1312
㨗	-11.1312
褥	-11.1313
週	-11.1313
徼	-11.1313
瀟	-11.1315
贏	-11.1315
柢	-11.1316
描	-11.1316
訊	-11.1317
悽	-11.1317
頽	-11.1317
虗	-11.1318
仆	-11.1318
咮	-11.1319
軼	-11.1321
濩	-11.1321
球	-11.1321
窰	-11.1322
鰌	-11.1322
洒	-11.1322
鬐	-11.1323
疵	-11.1325
洵	-11.1327
綾	-11.1331
礫	-11.1333
忿	-11.1333
箘	-11.1339
螃	-11.1341
菅	-11.1682
苹	-11.17
釅	-11.1702
抃	-11.1703
菹	-11.1706
琅	-11.1708
劔	-11.171
亹	-11.1712
剌	-11.1712
陜	-11.1713
霸	-11.1714
豨	-11.1714
腊	-11.1715
郢	-11.1715
茆	-11.1715
衲	-11.1717
閔	-11.1718
悞	-11.1718
擦	-11.1719
嬴	-11.172
椅	-11.172
漣	-11.1721
燄	-11.1722
眺	-11.1722
笈	-11.1723
磈	-11.1723
寤	-11.1723
件	-11.1726
菂	-11.1726
澡	-11.1726
痿	-11.1727
峨	-11.1728
纍	-11.1728
巍	-11.1729
僵	-11.173
渤	-11.1731
蘗	-11.1731
桶	-11.1731
搆	-11.1731
鏗	-11.1732
捫	-11.1733
敘	-11.1733
泳	-11.1733
蒹	-11.1735
挾	-11.1735
寰	-11.1737
鱖	-11.1739
褪	-11.1739
霓	-11.174
𦙍	-11.174
楛	-11.174
从	-11.1741
吁	-11.1741
聯	-11.1744
倐	-11.1747
縉	-11.1752
鮆	-11.1753
囚	-11.1773
蠵	-11.2089
棺	-11.2121
侃	-11.2125
淤	-11.2137
港	-11.2143
惻	-11.2144
睦	-11.2146
闈	-11.2149
耨	-11.2149
无	-11.2149
蕡	-11.2149
厠	-11.2149
舫	-11.2151
俚	-11.2151
嶮	-11.2151
翟	-11.2152
榧	-11.2152
鱮	-11.2152
蠙	-11.2153
蝠	-11.2155
需	-11.2155
滁	-11.2155
酈	-11.2156
璇	-11.2156
穟	-11.2157
肱	-11.2158
亳	-11.2158
蔫	-11.2158
娜	-11.2158
翎	-11.2158
羗	-11.2159
鼉	-11.216
葳	-11.216
刪	-11.2161
燧	-11.2163
攫	-11.2163
貶	-11.2165
螢	-11.2165
荄	-11.2166
牌	-11.2166
筥	-11.2166
琵	-11.2167
翕	-11.2167
籩	-11.2168
嶧	-11.217
諤	-11.2171
曖	-11.2172
弊	-11.2173
搏	-11.2174
𨼆	-11.2175
䃮	-11.2175
淅	-11.2177
瞳	-11.2177
倭	-11.2177
斐	-11.2182
礱	-11.2183
笏	-11.2185
圅	-11.2193
黻	-11.2195
琛	-11.2569
筮	-11.2581
㝡	-11.2586
嫗	-11.259
戈	-11.259
晷	-11.2591
糾	-11.2592
瑯	-11.2595
償	-11.2595
壟	-11.2596
翃	-11.2596
枿	-11.2597
齎	-11.2599
諳	-11.26
侶	-11.2604
殫	-11.2607
蝨	-11.2608
刼	-11.2609
􁎐	-11.2609
牲	-11.2609
掾	-11.261
榿	-11.261
挲	-11.261
虺	-11.2611
癥	-11.2611
緡	-11.2612
膿	-11.2613
繽	-11.2613
圑	-11.2613
虵	-11.2613
澈	-11.2614
躡	-11.2614
龔	-11.2614
䔩	-11.2614
鸛	-11.2615
襍	-11.2616
馴	-11.2617
粳	-11.2618
誣	-11.2618
荃	-11.262
畹	-11.262
寝	-11.262
煦	-11.2621
塌	-11.2621
邨	-11.2621
胭	-11.2622
窄	-11.2622
羈	-11.2623
蓉	-11.2625
綯	-11.2626
槲	-11.2627
繆	-11.2627
憇	-11.2627
赩	-11.2629
漓	-11.2631
幙	-11.2631
嵬	-11.2634
罏	-11.2634
押	-11.2635
贍	-11.2642
篚	-11.3065
葬	-11.3067
鵶	-11.3072
髩	-11.3072
臟	-11.3074
薌	-11.3077
龎	-11.3078
餙	-11.3079
爆	-11.3079
荳	-11.3079
葑	-11.308
薈	-11.3082
熨	-11.3083
驂	-11.3083
昱	-11.3084
疸	-11.3084
溼	-11.3085
謨	-11.3086
鞓	-11.3086
䄂	-11.3087
暘	-11.3089
赦	-11.3089
挫	-11.3089
燠	-11.3089
莘	-11.3089
疼	-11.309
佺	-11.309
恠	-11.309
礶	-11.3091
訂	-11.3091
犁	-11.3092
諷	-11.3092
澳	-11.3093
濓	-11.3093
佗	-11.3093
幡	-11.3093
喪	-11.3094
鹵	-11.3095
愷	-11.3095
潰	-11.3096
嫵	-11.3098
芮	-11.3098
冡	-11.3098
鑚	-11.3098
莨	-11.31
么	-11.3101
錐	-11.3101
肘	-11.3103
翺	-11.3103
襦	-11.3104
軋	-11.3107
憚	-11.3107
俶	-11.311
弋	-11.3115
袤	-11.3121
㝛	-11.3139
鯪	-11.3167
葚	-11.3558
繋	-11.3564
孜	-11.3564
烝	-11.357
溷	-11.3576
捉	-11.3578
瘀	-11.3579
瘤	-11.358
瑜	-11.358
嘶	-11.358
値	-11.3582
賖	-11.3582
鎻	-11.3583
絺	-11.3583
踵	-11.3584
嗽	-11.3584
猜	-11.3585
磯	-11.3585
册	-11.3586
筤	-11.3586
懽	-11.3587
噪	-11.3589
蚊	-11.3589
冉	-11.3589
謔	-11.359
㨂	-11.3591
絢	-11.3591
羯	-11.3593
馢	-11.3593
泚	-11.3593
劭	-11.3594
婚	-11.3595
縳	-11.3595
倡	-11.3596
菝	-11.3596
儕	-11.3597
黿	-11.3597
襞	-11.3597
該	-11.3597
筭	-11.3598
妳	-11.3598
霆	-11.3599
賸	-11.36
奥	-11.3601
幣	-11.3601
迺	-11.3602
替	-11.3602
菼	-11.3603
氳	-11.3604
灔	-11.3606
鰥	-11.3612
彊	-11.3613
鵒	-11.3614
卸	-11.3614
箴	-11.3615
栘	-11.3617
惕	-11.362
梔	-11.4069
萞	-11.4071
樺	-11.4081
覃	-11.4088
苨	-11.4091
盍	-11.4091
撈	-11.4092
聘	-11.4093
豳	-11.4094
𡨕	-11.41
嶂	-11.4101
逅	-11.4101
塹	-11.4101
乂	-11.4102
廸	-11.4102
皷	-11.4102
搯	-11.4103
吠	-11.4103
楨	-11.4103
徤	-11.4103
卞	-11.4103
概	-11.4104
哇	-11.4104
稊	-11.4105
晳	-11.4105
迫	-11.4106
戾	-11.4106
邃	-11.4106
帯	-11.4106
狭	-11.4107
澧	-11.4108
搦	-11.4108
疳	-11.4108
薏	-11.4108
誚	-11.4109
痞	-11.4109
瀆	-11.4109
贄	-11.411
罥	-11.4111
嗁	-11.4111
侑	-11.4112
貿	-11.4112
堵	-11.4112
魅	-11.4113
竄	-11.4113
鉏	-11.4114
窑	-11.4114
佚	-11.4115
夥	-11.4115
恙	-11.4115
爻	-11.4116
苺	-11.4116
韞	-11.4116
褰	-11.4117
愼	-11.4118
曛	-11.4118
鼐	-11.4118
菑	-11.4119
葶	-11.412
巘	-11.412
樾	-11.4122
詮	-11.4122
購	-11.4122
毘	-11.4123
㤗	-11.4123
綢	-11.4123
曩	-11.4125
珂	-11.4125
廡	-11.4126
葯	-11.4126
摸	-11.4127
騁	-11.4127
夔	-11.4128
穏	-11.4128
涌	-11.413
埏	-11.4131
迅	-11.4136
蛙	-11.4139
阬	-11.4141
舅	-11.4143
翊	-11.4146
韡	-11.4149
蜞	-11.4163
䱜	-11.4186
丫	-11.4644
鮧	-11.4646
禿	-11.4647
㗖	-11.4647
湍	-11.465
檟	-11.465
陛	-11.4651
宕	-11.4651
紵	-11.4652
焯	-11.4653
珏	-11.4654
鱒	-11.4654
涇	-11.4655
饕	-11.4656
謡	-11.4657
擺	-11.4658
㓜	-11.4658
禊	-11.4658
咄	-11.4659
幘	-11.466
瓚	-11.4663
嬝	-11.4663
櫛	-11.4664
盥	-11.4665
潞	-11.4666
塼	-11.4666
槭	-11.4667
衷	-11.4667
耒	-11.4668
鎡	-11.4668
鑴	-11.4668
旄	-11.4668
衒	-11.467
瀼	-11.467
繹	-11.4671
胯	-11.4672
鏘	-11.4672
龕	-11.4672
陁	-11.4672
嫦	-11.4673
蹏	-11.4673
䘮	-11.4674
躭	-11.4674
飫	-11.4675
蘧	-11.4675
珥	-11.4675
儆	-11.4676
愴	-11.4676
廓	-11.4677
倅	-11.4678
別	-11.4678
逈	-11.4678
恕	-11.4679
渙	-11.468
肋	-11.4682
攘	-11.4682
盼	-11.4683
頎	-11.4684
苾	-11.4684
蘢	-11.4685
俛	-11.4686
鰱	-11.4688
衿	-11.4689
睹	-11.4692
鷰	-11.4692
礦	-11.4692
踞	-11.4693
欖	-11.4696
簽	-11.4698
鰣	-11.4698
鎚	-11.47
儷	-11.4708
褁	-11.4709
璜	-11.474
塜	-11.5215
莪	-11.5218
閶	-11.5225
㹠	-11.5226
薟	-11.5228
耙	-11.5229
􁑭	-11.5236
臾	-11.5238
嗇	-11.5238
轍	-11.524
蜕	-11.524
蝸	-11.524
鬲	-11.5241
􁐓	-11.5245
瀰	-11.5246
萸	-11.5246
疝	-11.5246
溲	-11.5248
冦	-11.5249
黟	-11.5249
鸎	-11.5249
雚	-11.5251
脁	-11.5255
湄	-11.5255
癩	-11.5256
𧖟	-11.5257
蓑	-11.5258
撤	-11.5258
厴	-11.5258
眸	-11.5258
弔	-11.5259
瀕	-11.5259
謠	-11.5259
耬	-11.5259
椑	-11.5259
廿	-11.526
栻	-11.526
髭	-11.5261
䱐	-11.5261
頳	-11.5261
罄	-11.5261
惬	-11.5261
蕕	-11.5261
觕	-11.5262
忝	-11.5262
攽	-11.5262
斚	-11.5263
祉	-11.5263
僉	-11.5263
蟛	-11.5267
䏻	-11.5268
愆	-11.5269
邱	-11.5269
冝	-11.527
技	-11.5271
砥	-11.5272
璨	-11.5273
偈	-11.5274
蘑	-11.5275
莭	-11.5275
㢘	-11.5276
晒	-11.5278
蓯	-11.5278
瓞	-11.5279
拊	-11.5279
庻	-11.528
烰	-11.5284
簜	-11.5291
淞	-11.5298
鰼	-11.5324
䕡	-11.5848
嫣	-11.5849
阡	-11.5852
莩	-11.5858
搭	-11.5862
誡	-11.5863
闘	-11.5865
瘍	-11.5867
耽	-11.587
晾	-11.5871
醯	-11.5872
醑	-11.5872
聾	-11.5873
璚	-11.5873
彎	-11.5873
檄	-11.5875
鴂	-11.5876
寃	-11.5876
拇	-11.5877
壻	-11.5877
骸	-11.5877
叫	-11.5877
賭	-11.5878
忤	-11.5879
祓	-11.588
邯	-11.588
匿	-11.588
驩	-11.588
蠢	-11.5881
澠	-11.5881
菡	-11.5882
蝎	-11.5882
鋌	-11.5882
點	-11.5883
堰	-11.5884
繅	-11.5884
鶗	-11.5885
聿	-11.5885
萆	-11.5885
涴	-11.5886
宼	-11.5887
賫	-11.5887
牝	-11.5887
幔	-11.5888
它	-11.5889
螻	-11.589
藶	-11.589
閻	-11.589
䋲	-11.5891
隷	-11.5891
怎	-11.5891
逶	-11.5891
蜊	-11.5891
琚	-11.5892
崗	-11.5893
泗	-11.5893
嘘	-11.5895
沓	-11.5896
戍	-11.5896
詡	-11.5896
廂	-11.5896
誘	-11.5897
撏	-11.5898
遨	-11.5898
跌	-11.5899
闥	-11.59
歘	-11.59
謳	-11.59
撓	-11.5901
窩	-11.5901
鮠	-11.5902
媛	-11.5902
巽	-11.5903
衂	-11.5903
撐	-11.5903
琱	-11.5904
俸	-11.5905
歆	-11.5906
鰉	-11.5906
嚮	-11.5906
籌	-11.591
簵	-11.5911
鯿	-11.5913
睇	-11.5914
禧	-11.5914
岀	-11.5919
淸	-11.5924
墾	-11.6507
沱	-11.6518
犢	-11.6518
癢	-11.6519
据	-11.6521
籞	-11.6523
臓	-11.6525
畯	-11.6525
狄	-11.6527
蒟	-11.6533
栩	-11.6533
○	-11.6536
㗋	-11.6536
菔	-11.6537
踪	-11.6537
秈	-11.6538
藟	-11.6539
薙	-11.6541
叨	-11.6542
棫	-11.6544
這	-11.6544
鱺	-11.6544
殞	-11.6544
磵	-11.6545
縂	-11.6546
萏	-11.6547
佃	-11.6547
湔	-11.6547
吝	-11.6547
砑	-11.6548
箧	-11.6548
耻	-11.6548
稃	-11.6548
譚	-11.6549
旨	-11.6549
湫	-11.6549
陷	-11.6549
臠	-11.6549
酡	-11.6549
埴	-11.655
蜓	-11.655
壌	-11.6551
嫋	-11.6551
暾	-11.6553
豢	-11.6553
臛	-11.6554
蟚	-11.6555
泝	-11.6555
呪	-11.6555
縝	-11.6555
榼	-11.6556
焜	-11.6556
慳	-11.6556
匱	-11.6557
剜	-11.6557
巗	-11.6557
佑	-11.6557
勑	-11.6558
熠	-11.6558
煼	-11.6559
篸	-11.656
拚	-11.656
鸂	-11.6561
氤	-11.6561
鯢	-11.6562
祛	-11.6562
适	-11.6562
屹	-11.6562
肻	-11.6562
晃	-11.6563
姪	-11.6563
阯	-11.6563
舘	-11.6564
驥	-11.6564
芫	-11.6566
洧	-11.6566
薁	-11.6566
闐	-11.6566
麒	-11.6567
竽	-11.6568
嘏	-11.6568
凢	-11.6569
暹	-11.6569
曳	-11.6571
屛	-11.6572
餞	-11.6572
罟	-11.6572
簧	-11.6573
帕	-11.6574
郝	-11.6574
哺	-11.6574
闡	-11.6576
琰	-11.6577
劃	-11.6579
魟	-11.658
鷃	-11.658
笄	-11.658
鯈	-11.6583
乹	-11.6585
瑁	-11.717
稂	-11.7194
稭	-11.7224
蘽	-11.7226
蜨	-11.7227
圻	-11.7232
癧	-11.7236
麰	-11.724
瘙	-11.7241
醎	-11.7241
忒	-11.7242
啇	-11.7244
餑	-11.7244
軾	-11.7244
櫨	-11.7246
㩦	-11.7247
稈	-11.7247
忭	-11.7248
苫	-11.725
噎	-11.725
瘞	-11.725
沍	-11.7251
汞	-11.7251
馭	-11.7251
胞	-11.7252
粽	-11.7252
疽	-11.7252
飱	-11.7253
梂	-11.7253
彞	-11.7253
暨	-11.7254
諌	-11.7254
儋	-11.7255
脣	-11.7255
控	-11.7256
脇	-11.7256
泮	-11.7256
陕	-11.7257
萐	-11.7257
餒	-11.7257
摯	-11.7258
菖	-11.7258
璠	-11.7258
鯖	-11.7258
剩	-11.7258
吃	-11.7259
啾	-11.7259
矛	-11.726
頹	-11.726
企	-11.7261
彘	-11.7261
齅	-11.7261
揜	-11.7261
疴	-11.7261
顫	-11.7262
菓	-11.7262
姢	-11.7262
瘳	-11.7263
縐	-11.7264
蓓	-11.7264
悼	-11.7264
櫺	-11.7264
醲	-11.7265
殢	-11.7265
恤	-11.7265
遏	-11.7266
痼	-11.7266
砍	-11.7266
諲	-11.7266
澼	-11.7266
愔	-11.7266
顙	-11.7267
艮	-11.7268
挟	-11.7268
幌	-11.7268
帔	-11.7268
鑱	-11.7268
豎	-11.7269
轡	-11.7269
鶚	-11.7269
蒡	-11.7269
弇	-11.7269
洄	-11.727
剏	-11.727
亢	-11.7271
狸	-11.7271
妆	-11.7271
沚	-11.7271
恂	-11.7272
肴	-11.7272
滸	-11.7272
褊	-11.7272
斃	-11.7272
滛	-11.7272
棕	-11.7272
罇	-11.7272
顥	-11.7273
个	-11.7274
聫	-11.7274
蘊	-11.7275
覯	-11.7276
弆	-11.7276
蹈	-11.7277
颭	-11.7277
豁	-11.7277
淬	-11.7278
釧	-11.7278
癃	-11.7278
璋	-11.7278
譲	-11.7278
蕳	-11.7278
鯁	-11.7279
芘	-11.7279
奄	-11.728
魮	-11.728
逗	-11.7281
醸	-11.7281
蹶	-11.7282
竚	-11.7282
礧	-11.7283
雹	-11.7284
鴿	-11.7285
醮	-11.7285
孩	-11.7286
鏁	-11.7286
徠	-11.7286
跂	-11.7287
濆	-11.729
洱	-11.7292
劵	-11.7293
鱷	-11.73
鱅	-11.731
鮯	-11.7313
擀	-11.7327
鮝	-11.7328
琯	-11.7994
葒	-11.7994
榔	-11.7998
蝗	-11.7998
彗	-11.8002
樨	-11.8009
萁	-11.8009
鼂	-11.8009
覧	-11.801
俠	-11.8011
蛣	-11.8013
亶	-11.8016
芭	-11.8016
蠃	-11.8018
髠	-11.8018
蔭	-11.802
鉗	-11.8021
煞	-11.8022
㽞	-11.8022
瓔	-11.8022
甓	-11.8022
漙	-11.8022
祿	-11.8023
骰	-11.8023
蘜	-11.8023
蒭	-11.8024
旻	-11.8024
讚	-11.8025
螘	-11.8025
廩	-11.8025
蝟	-11.8027
菉	-11.8027
韮	-11.8028
貓	-11.8029
蛩	-11.803
薷	-11.803
晡	-11.8031
紥	-11.8031
冄	-11.8031
濠	-11.8031
攄	-11.8031
㬰	-11.8032
䰟	-11.8033
簳	-11.8033
噙	-11.8033
迂	-11.8033
攙	-11.8034
虐	-11.8034
鎭	-11.8034
槳	-11.8035
奭	-11.8035
仭	-11.8035
稌	-11.8035
蠕	-11.8035
袒	-11.8035
胷	-11.8036
皿	-11.8036
咳	-11.8036
奶	-11.8036
錬	-11.8037
嬈	-11.8037
芣	-11.8037
玦	-11.8037
埓	-11.8039
墩	-11.804
菶	-11.804
㢤	-11.8041
哦	-11.8041
斁	-11.8042
斾	-11.8043
蛻	-11.8043
峴	-11.8043
涘	-11.8043
圞	-11.8043
畱	-11.8044
磴	-11.8044
鷂	-11.8045
痾	-11.8045
陬	-11.8045
籖	-11.8046
級	-11.8047
揩	-11.8047
沖	-11.8047
胄	-11.8049
鑰	-11.805
祜	-11.8052
孽	-11.8052
頋	-11.8052
筴	-11.8053
駱	-11.8054
昶	-11.8056
揣	-11.8056
鮞	-11.8057
篘	-11.806
鑛	-11.806
葜	-11.8065
暎	-11.8066
魼	-11.8067
鰕	-11.807
舷	-11.8072
鰐	-11.8075
虇	-11.8089
郷	-11.8815
澇	-11.8815
喂	-11.8819
粢	-11.8824
鷸	-11.883
檿	-11.8831
觚	-11.8837
葙	-11.8837
朅	-11.8842
畛	-11.8842
鬰	-11.8843
勰	-11.8843
掉	-11.8844
薅	-11.8844
畿	-11.8846
澣	-11.8846
髦	-11.8847
廨	-11.8847
綌	-11.8848
扃	-11.8848
篲	-11.885
酋	-11.885
偎	-11.885
豇	-11.8851
葍	-11.8852
枌	-11.8853
瞰	-11.8854
鯶	-11.8854
癲	-11.8855
檝	-11.8856
籙	-11.8856
拓	-11.8856
鋩	-11.8857
萑	-11.8858
廽	-11.8858
慷	-11.8859
譯	-11.886
啗	-11.886
霹	-11.886
䜴	-11.8861
撿	-11.8861
鎬	-11.8861
騖	-11.8862
楙	-11.8862
鍜	-11.8863
扎	-11.8864
摻	-11.8864
霤	-11.8864
琮	-11.8865
渗	-11.8866
磐	-11.8867
凈	-11.8867
汨	-11.8867
綜	-11.8867
犧	-11.8868
賡	-11.8868
凰	-11.8868
諾	-11.8868
掀	-11.8868
㦯	-11.8869
鶡	-11.8869
珎	-11.8869
饀	-11.887
姮	-11.887
搨	-11.8871
亰	-11.8871
靛	-11.8872
屣	-11.8872
鯔	-11.8872
堠	-11.8874
穤	-11.8874
駟	-11.8874
溯	-11.8875
烜	-11.8875
蜩	-11.8876
枰	-11.8878
鵷	-11.8878
偹	-11.8879
戕	-11.8879
𨫼	-11.8879
漠	-11.8879
耜	-11.8879
派	-11.8879
瑾	-11.888
姒	-11.888
蘺	-11.888
珉	-11.8881
熹	-11.8881
鎸	-11.8882
喟	-11.8883
遒	-11.8884
嫰	-11.8884
羇	-11.8885
鍇	-11.8887
蠔	-11.8887
灝	-11.8889
笴	-11.889
鱏	-11.8892
燿	-11.8893
謗	-11.8893
麁	-11.8894
棐	-11.8898
卬	-11.8898
娠	-11.8905
騏	-11.8906
梣	-11.8907
籪	-11.8908
鯷	-11.8908
芺	-11.891
纑	-11.9709
穡	-11.9725
絛	-11.973
椇	-11.9731
蔊	-11.9733
蜆	-11.9738
葽	-11.9738
裒	-11.974
鄘	-11.9742
櫪	-11.9743
債	-11.9746
穬	-11.9747
党	-11.9747
淛	-11.9748
碓	-11.9749
棖	-11.975
蔤	-11.9751
鈺	-11.9752
棬	-11.9752
筌	-11.9752
椵	-11.9755
縚	-11.9755
橦	-11.9757
挐	-11.9757
駞	-11.9757
㢲	-11.9758
唼	-11.9759
獠	-11.9759
墉	-11.976
柹	-11.976
璘	-11.976
蹉	-11.976
稳	-11.976
甖	-11.9762
虋	-11.9762
頺	-11.9764
㬠	-11.9764
閃	-11.9765
駛	-11.9765
雩	-11.9765
飡	-11.9766
靂	-11.9766
纊	-11.9766
噤	-11.9767
媪	-11.9767
寖	-11.9768
觥	-11.9768
竺	-11.9768
姹	-11.9769
䖝	-11.9769
鱘	-11.9769
唳	-11.977
夐	-11.9771
𬎼	-11.9771
囷	-11.9772
磧	-11.9772
譌	-11.9772
伎	-11.9772
蕘	-11.9773
捎	-11.9773
䱥	-11.9774
刹	-11.9774
躋	-11.9774
䘖	-11.9775
葡	-11.9775
𣲖	-11.9776
鯇	-11.9776
譙	-11.9776
劬	-11.9776
埽	-11.9777
楥	-11.9777
醁	-11.9777
藺	-11.9778
瞑	-11.9778
訥	-11.9778
宓	-11.9778
䱡	-11.9779
悮	-11.9779
逋	-11.9779
杻	-11.9779
姨	-11.978
璽	-11.978
疣	-11.978
詐	-11.978
尠	-11.9781
睢	-11.9781
惨	-11.9782
綦	-11.9782
廖	-11.9783
爬	-11.9783
侮	-11.9784
宥	-11.9784
鉞	-11.9784
萋	-11.9784
貲	-11.9785
塍	-11.9786
舄	-11.9786
崦	-11.9787
睠	-11.9787
蜿	-11.9787
旒	-11.9787
鍤	-11.9787
獬	-11.9788
㕓	-11.9788
菟	-11.9789
屎	-11.9789
稿	-11.9789
芙	-11.9789
耩	-11.979
晰	-11.979
矚	-11.979
邽	-11.9791
蒐	-11.9792
瞥	-11.9792
惶	-11.9792
晼	-11.9793
聮	-11.9794
鴽	-11.9794
玳	-11.9795
裨	-11.9795
屩	-11.9795
槀	-11.9795
恧	-11.9795
忻	-11.9796
批	-11.9796
姙	-11.9796
畚	-11.9796
楯	-11.9796
楩	-11.9796
蔑	-11.9797
颸	-11.9798
煅	-11.9799
纛	-11.9799
㫰	-11.9799
覊	-11.9803
鷟	-11.9803
鶩	-11.9803
枋	-11.9804
舁	-11.9804
泐	-11.9804
榎	-11.9805
殃	-11.9808
鰲	-11.9809
秣	-11.9819
簁	-11.9827
䱟	-11.9832
鰒	-11.9837
􁂶	-11.9838
苽	-12.0715
恪	-12.0725
尅	-12.0737
摽	-12.0743
驄	-12.0745
琨	-12.0745
媧	-12.0747
鱁	-12.0747
沬	-12.075
茋	-12.0752
矞	-12.0753
桋	-12.0754
瑋	-12.0754
篻	-12.0754
糭	-12.0754
繰	-12.0755
鳧	-12.0755
綂	-12.0758
藨	-12.0758
蠘	-12.0759
粃	-12.0759
揑	-12.0759
歉	-12.076
愿	-12.076
薜	-12.0761
稲	-12.0762
渌	-12.0762
巉	-12.0763
禳	-12.0763
恡	-12.0763
劄	-12.0764
屧	-12.0764
舸	-12.0766
灞	-12.0766
踴	-12.0766
籊	-12.0767
餓	-12.0767
鱀	-12.0767
弧	-12.0767
碕	-12.0767
桀	-12.0767
櫂	-12.0768
吼	-12.0768
䥥	-12.0768
纜	-12.0768
鄆	-12.0769
檠	-12.0769
逖	-12.077
属	-12.077
壚	-12.077
窈	-12.0771
鑊	-12.0771
弩	-12.0771
䵟	-12.0771
繢	-12.0771
庠	-12.0771
鏨	-12.0771
廪	-12.0771
笵	-12.0772
狥	-12.0772
㤙	-12.0772
顱	-12.0773
両	-12.0773
孑	-12.0773
􁘥	-12.0774
􁅳	-12.0775
捋	-12.0775
靭	-12.0775
蠞	-12.0775
偓	-12.0776
簣	-12.0776
縋	-12.0776
篙	-12.0776
澌	-12.0776
怠	-12.0776
淆	-12.0776
䱽	-12.0777
渣	-12.0777
坻	-12.0777
勛	-12.0777
䑃	-12.0778
寞	-12.0778
蠌	-12.0778
盲	-12.0778
眎	-12.0778
逵	-12.0779
顚	-12.078
黽	-12.0781
狩	-12.0782
贋	-12.0782
楞	-12.0782
溽	-12.0782
殽	-12.0783
楪	-12.0783
渟	-12.0784
厮	-12.0784
簋	-12.0784
氐	-12.0784
愍	-12.0785
皚	-12.0786
届	-12.0786
犂	-12.0786
蔌	-12.0786
遑	-12.0786
晻	-12.0787
鳲	-12.0787
鱔	-12.0787
琭	-12.0787
䱤	-12.0788
抝	-12.0788
玖	-12.0788
鼊	-12.0789
坌	-12.0789
窣	-12.0789
蜯	-12.0791
媼	-12.0791
榱	-12.0791
苯	-12.0792
郫	-12.0792
准	-12.0792
琉	-12.0793
茎	-12.0793
彧	-12.0794
紇	-12.0794
炰	-12.0795
霅	-12.0796
佶	-12.0796
棊	-12.0796
湮	-12.0797
慤	-12.0798
畮	-12.0799
嘻	-12.0799
鄊	-12.0799
𦕈	-12.0799
愉	-12.0802
獰	-12.0802
笆	-12.0802
窅	-12.0803
簞	-12.0803
脞	-12.0803
掣	-12.0803
鏞	-12.0803
翮	-12.0805
琲	-12.0805
圉	-12.0805
諦	-12.0806
慄	-12.0807
埒	-12.0807
䭱	-12.0808
溱	-12.0808
孌	-12.0808
艧	-12.0809
隳	-12.0813
枻	-12.0817
籦	-12.0826
簩	-12.0833
䈚	-12.0834
鱯	-12.0858
蜡	-12.1827
韲	-12.1847
藾	-12.185
瞞	-12.1853
藐	-12.1855
塚	-12.1859
隃	-12.1859
鮭	-12.186
估	-12.186
芉	-12.186
蟶	-12.1861
蠒	-12.1861
杴	-12.1863
檾	-12.1863
誨	-12.1863
蓏	-12.1863
㠶	-12.1864
贑	-12.1864
薯	-12.1865
酎	-12.1867
笮	-12.1867
蛸	-12.1868
狡	-12.1871
諡	-12.1871
謐	-12.1871
郤	-12.1871
蘠	-12.1872
㟁	-12.1872
嬖	-12.1872
絆	-12.1873
鍳	-12.1873
襜	-12.1873
驤	-12.1873
瞭	-12.1875
蚩	-12.1876
籓	-12.1876
蒯	-12.1876
纏	-12.1876
浚	-12.1877
蠏	-12.1878
脰	-12.1878
懊	-12.1878
憫	-12.1879
﨑	-12.188
餔	-12.188
狙	-12.188
雈	-12.188
揆	-12.1881
紿	-12.1881
兌	-12.1881
氓	-12.1882
鏃	-12.1883
熁	-12.1883
嶇	-12.1883
朿	-12.1883
緊	-12.1884
窊	-12.1884
洶	-12.1884
桴	-12.1884
捍	-12.1885
綆	-12.1885
䙀	-12.1885
蜚	-12.1885
篷	-12.1886
鄲	-12.1886
嶙	-12.1886
砮	-12.1887
躚	-12.1887
蔦	-12.1887
屨	-12.1887
涿	-12.1887
蘼	-12.1888
痊	-12.1888
炕	-12.1888
鰅	-12.1889
䔲	-12.1889
炤	-12.1889
桁	-12.189
浡	-12.189
糁	-12.189
眇	-12.1891
峋	-12.1891
枵	-12.1891
讒	-12.1891
讃	-12.1891
􁫣	-12.1892
畬	-12.1893
櫓	-12.1893
舖	-12.1893
悰	-12.1894
麞	-12.1894
輯	-12.1894
帨	-12.1895
擒	-12.1895
貂	-12.1895
塡	-12.1896
摺	-12.1896
騮	-12.1896
蟣	-12.1896
嵯	-12.1896
撃	-12.1896
閼	-12.1896
麽	-12.1896
纚	-12.1896
擂	-12.1897
隸	-12.1897
瓉	-12.1897
鮬	-12.1898
𦍑	-12.1898
廞	-12.1898
暵	-12.1899
遝	-12.1899
慾	-12.1899
笳	-12.1899
鄱	-12.1901
􁗀	-12.1901
蔀	-12.1901
崕	-12.1901
籥	-12.1902
鍑	-12.1903
杰	-12.1904
䱀	-12.1904
鸇	-12.1904
嫓	-12.1905
䖀	-12.1906
黜	-12.1907
鰾	-12.1907
膂	-12.1907
刄	-12.1907
搘	-12.1908
稧	-12.1908
鯧	-12.1908
歜	-12.1909
寨	-12.1909
濂	-12.191
哆	-12.191
褫	-12.191
栴	-12.1911
璲	-12.1911
缷	-12.1911
馗	-12.1912
斲	-12.1912
窘	-12.1912
鵙	-12.1914
磷	-12.1914
褚	-12.1915
棒	-12.1918
舛	-12.1918
罾	-12.192
堞	-12.1921
泖	-12.1923
犖	-12.1925
覈	-12.1928
冢	-12.1929
憾	-12.193
鯋	-12.193
䲛	-12.1935
藙	-12.1937
榝	-12.1939
輻	-12.194
䰽	-12.1986
惰	-12.3071
柈	-12.3086
嘬	-12.3093
蚘	-12.3097
瑗	-12.3098
􁥀	-12.31
􁬡	-12.3104
敕	-12.3104
磑	-12.3105
㵎	-12.3109
昴	-12.311
飰	-12.3111
朮	-12.3111
蘞	-12.3112
糴	-12.3115
鬖	-12.3115
灤	-12.3117
筅	-12.3118
貸	-12.3119
惋	-12.3119
抺	-12.3119
饜	-12.3119
氲	-12.3119
畎	-12.3119
瘢	-12.3119
蓐	-12.3121
闞	-12.3121
憨	-12.3121
茺	-12.3122
萇	-12.3124
栲	-12.3124
珝	-12.3125
輅	-12.3125
愕	-12.3125
懌	-12.3125
繕	-12.3125
鄞	-12.3125
滔	-12.3126
戢	-12.3126
罡	-12.3126
漈	-12.3126
唘	-12.3127
檖	-12.3127
佯	-12.3128
賂	-12.3128
郴	-12.3128
抖	-12.3128
弭	-12.3128
撾	-12.3128
璹	-12.3128
酤	-12.3129
涏	-12.3129
穩	-12.313
悍	-12.313
彿	-12.313
薐	-12.313
毯	-12.313
畤	-12.313
淖	-12.3131
祟	-12.3131
飀	-12.3131
沔	-12.3131
噓	-12.3132
顓	-12.3132
隘	-12.3132
撇	-12.3132
酹	-12.3133
瞬	-12.3134
郄	-12.3134
煿	-12.3134
恊	-12.3134
煕	-12.3134
奐	-12.3134
甍	-12.3134
幛	-12.3134
蟧	-12.3134
忱	-12.3135
鷁	-12.3135
凑	-12.3136
紝	-12.3136
恢	-12.3136
鎌	-12.3136
浹	-12.3136
潏	-12.3136
跎	-12.3137
荂	-12.3137
杷	-12.3138
診	-12.3138
渦	-12.3138
􁊨	-12.3138
弛	-12.3138
㝢	-12.3139
葇	-12.3139
宙	-12.3139
恁	-12.3139
􁇩	-12.3139
閴	-12.3139
轄	-12.314
媸	-12.314
銓	-12.3141
傚	-12.3141
壹	-12.3141
䧟	-12.3141
棱	-12.3141
爕	-12.3142
碍	-12.3142
芄	-12.3142
儗	-12.3143
禇	-12.3143
凟	-12.3143
靳	-12.3143
鱐	-12.3144
􁑀	-12.3144
町	-12.3145
蠆	-12.3145
搊	-12.3145
淩	-12.3146
懃	-12.3146
緼	-12.3146
悁	-12.3146
籯	-12.3146
豊	-12.3147
鰫	-12.3148
鵑	-12.3148
坳	-12.3149
掐	-12.3149
麾	-12.3149
碪	-12.3149
翬	-12.3149
蓺	-12.315
怖	-12.315
䧏	-12.315
橑	-12.315
撑	-12.3151
鹺	-12.3151
鐙	-12.3151
膨	-12.3152
窿	-12.3154
旛	-12.3154
鱭	-12.3154
􁵂	-12.3154
囓	-12.3156
貳	-12.3156
􁇪	-12.3156
悸	-12.3157
懲	-12.3157
禋	-12.3158
薍	-12.3158
鎪	-12.3158
姣	-12.3158
蠯	-12.3158
僭	-12.3159
倕	-12.3159
櫸	-12.316
鱊	-12.3161
塑	-12.3161
腳	-12.3161
譁	-12.3161
諠	-12.3162
鱨	-12.3165
緱	-12.3167
悚	-12.3167
䱇	-12.3167
盱	-12.3167
嫉	-12.3168
湓	-12.317
銹	-12.317
魵	-12.3174
鑪	-12.3175
潢	-12.3177
卅	-12.3177
喊	-12.3177
鯼	-12.3181
璉	-12.3182
僰	-12.3184
㓨	-12.3185
砦	-12.3194
䱱	-12.3197
諼	-12.3199
卣	-12.3201
旃	-12.4482
秕	-12.4493
薸	-12.4498
膊	-12.4518
嗚	-12.4524
檽	-12.4525
顗	-12.4526
畀	-12.4527
蓛	-12.4527
梀	-12.4528
蔎	-12.453
磔	-12.4532
隖	-12.4532
􁡜	-12.4534
藭	-12.4534
葴	-12.4534
稏	-12.454
姻	-12.454
痒	-12.454
櫐	-12.4541
捃	-12.4541
嶷	-12.4541
釁	-12.4542
咒	-12.4542
蔏	-12.4543
㙡	-12.4543
崒	-12.4543
拽	-12.4543
糗	-12.4544
蒳	-12.4544
醞	-12.4545
泱	-12.4546
腠	-12.4547
努	-12.4547
穊	-12.4547
窳	-12.4547
邐	-12.4548
霎	-12.4548
䌫	-12.4549
鷲	-12.4549
冺	-12.4549
滉	-12.4549
䕩	-12.455
蕺	-12.4551
傭	-12.4551
戱	-12.4551
扦	-12.4551
㕑	-12.4552
哂	-12.4553
耮	-12.4553
麕	-12.4554
圏	-12.4554
莙	-12.4555
蒚	-12.4555
懦	-12.4555
啞	-12.4556
鍛	-12.4556
蔔	-12.4556
葹	-12.4557
慟	-12.4557
籧	-12.4557
埤	-12.4557
㬉	-12.4557
茒	-12.4557
呀	-12.4558
麏	-12.4558
裼	-12.4558
醨	-12.4558
茟	-12.4558
筝	-12.4559
濬	-12.4559
徉	-12.456
翾	-12.456
籝	-12.4561
緌	-12.4561
棼	-12.4561
䬼	-12.4562
艸	-12.4562
阪	-12.4562
愜	-12.4562
擡	-12.4563
莓	-12.4563
疔	-12.4563
䜿	-12.4564
搽	-12.4564
枹	-12.4564
簀	-12.4564
耦	-12.4564
㫄	-12.4564
荍	-12.4564
姦	-12.4564
斡	-12.4564
蒋	-12.4564
蜒	-12.4565
醆	-12.4565
你	-12.4565
眄	-12.4565
㘭	-12.4565
頩	-12.4566
橛	-12.4566
址	-12.4566
噏	-12.4567
贖	-12.4567
紱	-12.4567
澱	-12.4567
覲	-12.4568
緹	-12.4568
蝉	-12.4568
搬	-12.4569
妺	-12.4569
抉	-12.4569
聒	-12.457
薨	-12.457
詆	-12.457
䲙	-12.457
皦	-12.457
韈	-12.4571
㰖	-12.4571
綉	-12.4571
虫	-12.4572
瓝	-12.4572
兗	-12.4572
贗	-12.4573
椶	-12.4573
渫	-12.4573
彝	-12.4574
鮀	-12.4574
朂	-12.4575
滙	-12.4575
瀦	-12.4575
媯	-12.4575
飭	-12.4576
奸	-12.4576
爨	-12.4576
箏	-12.4576
䭲	-12.4576
鈕	-12.4576
樅	-12.4576
嶄	-12.4577
崧	-12.4577
鼇	-12.4577
跛	-12.4578
阨	-12.4578
羆	-12.4578
吒	-12.4578
蜷	-12.4579
泯	-12.4579
秠	-12.4579
臊	-12.458
栭	-12.458
薔	-12.4581
氅	-12.4581
粼	-12.4581
磥	-12.4581
䜟	-12.4581
漱	-12.4581
鄕	-12.4582
娶	-12.4582
僖	-12.4582
晤	-12.4582
瀬	-12.4582
頥	-12.4583
潼	-12.4583
䳄	-12.4584
虆	-12.4584
汜	-12.4584
鱳	-12.4584
杬	-12.4585
誼	-12.4585
郯	-12.4585
娑	-12.4585
瞠	-12.4586
寇	-12.4586
兢	-12.4587
窒	-12.4587
䕷	-12.4588
㪷	-12.4588
闋	-12.4588
槮	-12.4589
娯	-12.4589
㛰	-12.459
鬈	-12.459
蕹	-12.459
湊	-12.4591
罹	-12.4591
曈	-12.4591
徊	-12.4593
璆	-12.4593
㡳	-12.4593
寬	-12.4593
栯	-12.4594
鰸	-12.4594
沲	-12.4596
輈	-12.4597
儵	-12.4597
跬	-12.4599
跖	-12.4599
斆	-12.46
閽	-12.46
􁐍	-12.46
魶	-12.4601
撻	-12.4602
􁩌	-12.4604
槧	-12.4606
締	-12.4607
磋	-12.4607
擠	-12.4612
魾	-12.4612
朐	-12.4612
捶	-12.4613
琬	-12.462
胫	-12.4631
篃	-12.464
鰽	-12.4644
棪	-12.4647
􁉨	-12.4661
鮸	-12.471
央	-12.6113
稞	-12.6142
鯸	-12.6158
稑	-12.6161
穜	-12.6161
饔	-12.618
蒴	-12.6185
犍	-12.6186
旂	-12.6186
韵	-12.619
噦	-12.6191
􁙯	-12.6192
㷔	-12.6195
嘿	-12.6195
剗	-12.6196
匽	-12.6196
恚	-12.6197
箐	-12.6198
秸	-12.6199
灃	-12.6201
霈	-12.6202
郍	-12.6202
昵	-12.6202
縶	-12.6204
蓫	-12.6204
甦	-12.6204
䨲	-12.6205
觱	-12.6205
硫	-12.6207
燖	-12.6207
聃	-12.6207
蝑	-12.6207
莕	-12.6207
顋	-12.6208
𣪚	-12.6208
咤	-12.6209
郛	-12.621
袐	-12.621
頔	-12.6211
騩	-12.6211
蘵	-12.6212
㓂	-12.6212
􁟝	-12.6212
丐	-12.6213
夬	-12.6213
蒁	-12.6213
昕	-12.6214
殁	-12.6214
黠	-12.6214
症	-12.6214
婪	-12.6214
豌	-12.6215
滳	-12.6216
娼	-12.6216
蛹	-12.6216
蕣	-12.6217
釭	-12.6217
皃	-12.6218
塋	-12.6218
㵸	-12.6218
募	-12.6218
隲	-12.6219
胝	-12.6219
荸	-12.6219
馞	-12.6219
璟	-12.6219
鉸	-12.6219
皥	-12.6219
䘂	-12.6219
薋	-12.6219
麨	-12.622
􁫂	-12.622
頊	-12.622
㐮	-12.6221
饁	-12.6221
臕	-12.6222
歊	-12.6222
婿	-12.6222
媺	-12.6223
縢	-12.6223
魑	-12.6223
种	-12.6224
姫	-12.6224
朹	-12.6224
霾	-12.6225
蝤	-12.6226
䑛	-12.6226
坰	-12.6226
稡	-12.6226
懈	-12.6227
戮	-12.6227
蝥	-12.6227
礎	-12.6227
戶	-12.6228
嚲	-12.6228
腿	-12.6228
挨	-12.6228
鰍	-12.6228
叵	-12.6229
岧	-12.6229
换	-12.6229
蓁	-12.6229
鞾	-12.623
壒	-12.623
綳	-12.623
浃	-12.623
􁞟	-12.623
嵒	-12.6231
獐	-12.6231
霉	-12.6231
櫖	-12.6232
壖	-12.6232
裀	-12.6232
屍	-12.6232
㳫	-12.6232
齕	-12.6233
槊	-12.6233
劎	-12.6233
簴	-12.6233
咃	-12.6234
嶔	-12.6234
蓲	-12.6234
灧	-12.6234
咍	-12.6234
菪	-12.6234
􁸎	-12.6234
劾	-12.6235
蹴	-12.6236
佘	-12.6236
杆	-12.6236
燋	-12.6236
譎	-12.6236
撘	-12.6236
絙	-12.6236
䙝	-12.6236
弹	-12.6237
笪	-12.6237
鱤	-12.6238
汧	-12.624
壍	-12.624
䱓	-12.624
榣	-12.6241
䭔	-12.6241
濼	-12.6241
媵	-12.6241
䱢	-12.6242
蚏	-12.6242
窞	-12.6242
鞚	-12.6242
鷖	-12.6242
驃	-12.6242
箣	-12.6243
矻	-12.6243
藘	-12.6243
覘	-12.6245
泬	-12.6245
俘	-12.6245
櫾	-12.6246
廌	-12.6246
蔟	-12.6246
蟺	-12.6247
􁜍	-12.6247
崛	-12.6247
錠	-12.6247
隧	-12.6248
飜	-12.6248
滎	-12.6249
牓	-12.625
扄	-12.625
垠	-12.625
馜	-12.6251
㲲	-12.6252
妊	-12.6254
腓	-12.6254
鵓	-12.6255
糓	-12.6255
妥	-12.6255
喇	-12.6255
慝	-12.6255
箎	-12.6255
櫧	-12.6256
筏	-12.6256
枮	-12.6256
鶬	-12.6256
柵	-12.6258
漵	-12.6258
􁬈	-12.6258
飶	-12.6258
􁫗	-12.6258
沆	-12.6259
彖	-12.6259
腔	-12.6259
檕	-12.626
淙	-12.626
憬	-12.626
垓	-12.6261
褵	-12.6261
睪	-12.6263
扳	-12.6263
掄	-12.6263
鵜	-12.6263
鵰	-12.6264
輥	-12.6264
橿	-12.6265
濳	-12.6265
斿	-12.6266
瑚	-12.6268
蛑	-12.6269
岏	-12.6269
嬛	-12.6269
􁉤	-12.627
詁	-12.6271
籀	-12.6273
簍	-12.6273
帟	-12.6275
沴	-12.6275
蛉	-12.6279
綫	-12.628
悌	-12.628
矴	-12.6282
􁉩	-12.6283
豸	-12.6285
欏	-12.6287
􁬊	-12.6288
鯾	-12.6302
簄	-12.6305
鰨	-12.6306
瑑	-12.8104
歠	-12.8155
葈	-12.816
惇	-12.8163
藇	-12.817
㙲	-12.8171
魧	-12.8174
㮚	-12.8175
菵	-12.8176
壷	-12.8177
縕	-12.8181
餗	-12.8185
擯	-12.8186
蟯	-12.8188
䆒	-12.8189
萯	-12.8189
紓	-12.8191
灸	-12.8191
撆	-12.8191
瀍	-12.8194
櫬	-12.8194
躔	-12.8195
醹	-12.8195
撝	-12.8196
茴	-12.8196
杕	-12.8198
咋	-12.8199
鞮	-12.8199
脅	-12.82
蜇	-12.8201
皋	-12.8201
糈	-12.8202
拉	-12.8202
髀	-12.8203
諮	-12.8203
熲	-12.8203
虌	-12.8203
霪	-12.8204
繳	-12.8204
䕭	-12.8204
夌	-12.8205
竆	-12.8205
箄	-12.8205
𠂻	-12.8205
尿	-12.8205
􁱔	-12.8207
桔	-12.8207
桮	-12.8208
濮	-12.8208
洹	-12.8209
䔛	-12.8209
鼯	-12.821
犒	-12.8211
撞	-12.8211
睫	-12.8212
莵	-12.8212
犲	-12.8213
囑	-12.8214
瀧	-12.8214
庋	-12.8214
幰	-12.8214
歔	-12.8214
憒	-12.8214
薀	-12.8214
䧺	-12.8214
暁	-12.8215
鴆	-12.8215
慥	-12.8215
泞	-12.8215
諗	-12.8215
湟	-12.8215
羿	-12.8216
氾	-12.8216
杌	-12.8216
讐	-12.8216
葎	-12.8216
餁	-12.8217
嚇	-12.8217
鏐	-12.8217
欷	-12.8218
蜠	-12.8219
嫫	-12.8219
墐	-12.8221
尨	-12.8221
㓗	-12.8221
鱎	-12.8221
嶒	-12.8223
袴	-12.8223
愠	-12.8223
騅	-12.8223
异	-12.8224
莟	-12.8224
黮	-12.8224
屡	-12.8225
裡	-12.8225
賅	-12.8225
搾	-12.8225
淥	-12.8225
怳	-12.8225
熇	-12.8225
鏽	-12.8225
荓	-12.8226
瘵	-12.8226
墊	-12.8226
楣	-12.8226
鑣	-12.8226
跧	-12.8227
㟧	-12.8227
琤	-12.8227
隼	-12.8227
塾	-12.8227
碏	-12.8227
䱾	-12.8228
昃	-12.8228
氍	-12.8228
耎	-12.8228
崿	-12.8228
勘	-12.8228
􁀧	-12.8228
呷	-12.8229
撅	-12.8229
覬	-12.823
叉	-12.823
菣	-12.823
坪	-12.8231
套	-12.8231
澘	-12.8231
蠖	-12.8231
䘌	-12.8231
舵	-12.8232
剽	-12.8232
􁉧	-12.8232
渲	-12.8232
燬	-12.8232
戔	-12.8232
鬴	-12.8235
爚	-12.8235
漑	-12.8235
薿	-12.8235
蓷	-12.8235
鍪	-12.8235
滃	-12.8236
砰	-12.8236
獒	-12.8236
珽	-12.8236
燾	-12.8236
痂	-12.8236
砘	-12.8236
姞	-12.8237
陔	-12.8237
黧	-12.8237
軻	-12.8237
鷴	-12.8237
肄	-12.8238
莤	-12.8238
机	-12.8239
葪	-12.8239
茀	-12.824
洑	-12.824
抒	-12.824
猱	-12.824
癱	-12.824
楱	-12.824
饐	-12.8241
芍	-12.8241
嬋	-12.8241
苟	-12.8241
饙	-12.8242
厪	-12.8242
鮊	-12.8242
姱	-12.8243
僂	-12.8243
扛	-12.8244
穭	-12.8244
臝	-12.8244
愽	-12.8244
鵯	-12.8245
崐	-12.8245
丕	-12.8245
盝	-12.8245
睍	-12.8245
玷	-12.8245
鉎	-12.8245
聶	-12.8246
扆	-12.8246
鎰	-12.8246
瞪	-12.8246
覇	-12.8246
鯮	-12.8246
鬂	-12.8246
鏟	-12.8247
㳂	-12.8248
嶁	-12.8248
梟	-12.8248
躓	-12.8249
陲	-12.8249
垜	-12.8249
鮰	-12.8249
棎	-12.8249
陡	-12.8249
鑵	-12.8249
証	-12.8249
帡	-12.825
籕	-12.825
笱	-12.825
漶	-12.8251
㚄	-12.8251
帘	-12.8251
萹	-12.8251
鄣	-12.8251
貟	-12.8252
粮	-12.8254
澨	-12.8254
餻	-12.8254
輾	-12.8255
廛	-12.8255
摇	-12.8255
䭾	-12.8256
噱	-12.8256
廐	-12.8256
茱	-12.8257
茳	-12.8257
槱	-12.8257
檣	-12.8258
塟	-12.8258
甯	-12.8258
蚳	-12.8258
螟	-12.8259
嫮	-12.8259
懾	-12.8259
巇	-12.8259
䬣	-12.8259
遡	-12.826
鷦	-12.8261
簢	-12.8261
帬	-12.8262
澥	-12.8263
􁩉	-12.8264
諶	-12.8265
猨	-12.8266
遄	-12.8266
鰟	-12.8266
傴	-12.8267
鼾	-12.8267
緤	-12.8267
鰋	-12.8268
碣	-12.8269
汰	-12.8269
嚬	-12.8269
雎	-12.8269
檛	-12.8269
刁	-12.827
幷	-12.827
械	-12.827
璺	-12.827
鰩	-12.8272
鷯	-12.8272
疚	-12.8274
䦕	-12.8276
邅	-12.8276
桌	-12.8277
飥	-12.8278
昩	-12.8278
綍	-12.8279
􁟢	-12.828
餮	-12.8281
吮	-12.8281
捩	-12.8282
櫜	-12.8283
鉄	-12.8283
蕷	-12.8284
㠋	-12.8284
眙	-12.8286
瞽	-12.8288
埔	-12.8289
叛	-12.829
廙	-12.83
軿	-12.832
琥	-13.0655
圩	-13.0661
藠	-13.0665
匭	-13.0667
蟞	-13.0671
䴡	-13.0674
掊	-13.0674
扺	-13.0676
􁖊	-13.0678
悖	-13.0679
䪥	-13.0679
玭	-13.0679
銛	-13.068
瑀	-13.0681
魿	-13.0681
褶	-13.0683
𥪡	-13.0685
揲	-13.0685
㩎	-13.0686
􁪜	-13.0686
樑	-13.0689
凳	-13.0689
茖	-13.0689
韀	-13.0692
隗	-13.0692
俳	-13.0693
葞	-13.0693
詧	-13.0694
溈	-13.0694
靠	-13.0694
藫	-13.0694
襕	-13.0696
玘	-13.0696
滫	-13.0697
暍	-13.0697
䔒	-13.0697
蹯	-13.0697
馣	-13.0698
鞵	-13.0698
桿	-13.0698
虜	-13.0699
糶	-13.07
㨿	-13.07
雊	-13.07
閡	-13.0701
茰	-13.0701
藄	-13.0701
獮	-13.0703
㫋	-13.0703
挍	-13.0703
焕	-13.0703
舩	-13.0703
禆	-13.0703
葫	-13.0704
姧	-13.0704
薲	-13.0704
齁	-13.0704
餖	-13.0705
蹔	-13.0705
碭	-13.0705
煇	-13.0705
藑	-13.0705
訕	-13.0707
塸	-13.0707
洊	-13.0707
􁆜	-13.0707
悪	-13.0708
埭	-13.0708
雇	-13.0708
踆	-13.0708
蒓	-13.071
脡	-13.071
􁠴	-13.0711
駔	-13.0712
彷	-13.0712
怍	-13.0712
喝	-13.0712
㷀	-13.0712
䲭	-13.0714
袵	-13.0714
烙	-13.0714
薚	-13.0714
洌	-13.0715
閫	-13.0715
瑊	-13.0715
瘋	-13.0715
鈹	-13.0715
裸	-13.0715
煻	-13.0716
韝	-13.0716
赧	-13.0716
􁪾	-13.0716
螿	-13.0717
􁆛	-13.0717
䝁	-13.0718
賾	-13.0718
褷	-13.0718
􁍴	-13.0718
悒	-13.0719
沭	-13.0719
型	-13.0719
潎	-13.0719
鮇	-13.0719
数	-13.0719
藦	-13.0721
濞	-13.0721
劙	-13.0721
籮	-13.0721
穇	-13.0721
灕	-13.0722
蝘	-13.0722
瞖	-13.0722
瀚	-13.0722
鼏	-13.0722
杔	-13.0723
啅	-13.0723
劲	-13.0723
瘖	-13.0725
纉	-13.0725
箑	-13.0725
柜	-13.0725
韙	-13.0725
􁌻	-13.0725
眊	-13.0725
膻	-13.0726
焼	-13.0726
矦	-13.0726
胛	-13.0727
鶄	-13.0728
籛	-13.0728
叡	-13.0728
錮	-13.0728
鱄	-13.0728
鼃	-13.0729
靴	-13.0729
僣	-13.0729
寗	-13.0729
懇	-13.0729
賄	-13.0729
槨	-13.0729
徇	-13.0729
僑	-13.0729
卻	-13.0729
翣	-13.0729
胹	-13.0729
醍	-13.073
醽	-13.073
縻	-13.073
菭	-13.073
􁣸	-13.073
笞	-13.073
馡	-13.0732
瀣	-13.0732
􁊼	-13.0732
踊	-13.0732
馚	-13.0732
樁	-13.0732
􁡡	-13.0732
鱬	-13.0732
皜	-13.0733
傋	-13.0733
簦	-13.0733
钁	-13.0733
匐	-13.0733
楂	-13.0733
臑	-13.0733
薕	-13.0733
埀	-13.0734
韁	-13.0734
箈	-13.0735
錘	-13.0735
􁈴	-13.0735
斮	-13.0736
幬	-13.0736
樷	-13.0736
栒	-13.0736
紏	-13.0736
蝱	-13.0736
橅	-13.0736
㒺	-13.0737
穽	-13.0739
賨	-13.0739
鵻	-13.0739
麹	-13.0739
摟	-13.074
韉	-13.074
憮	-13.074
㶑	-13.074
梏	-13.074
櫝	-13.074
訾	-13.074
䒒	-13.074
䈥	-13.0741
􁴭	-13.0741
鋹	-13.0741
豋	-13.0743
汋	-13.0743
籸	-13.0743
群	-13.0743
䘏	-13.0743
湎	-13.0743
稹	-13.0743
櫩	-13.0744
孃	-13.0744
綷	-13.0744
鍔	-13.0744
眡	-13.0744
闖	-13.0746
痗	-13.0746
􁓨	-13.0746
宷	-13.0746
洿	-13.0746
瘇	-13.0746
睆	-13.0746
鰶	-13.0746
藊	-13.0746
郿	-13.0747
螽	-13.0747
雰	-13.0747
啣	-13.0747
揄	-13.0747
杶	-13.0747
倬	-13.0747
耉	-13.0747
舠	-13.0747
瑳	-13.0747
藳	-13.0748
菥	-13.0748
㩁	-13.0748
㐫	-13.0749
栱	-13.075
􁚐	-13.075
漩	-13.075
楔	-13.075
澂	-13.075
蹌	-13.075
痓	-13.0751
􁸈	-13.0751
窽	-13.0751
殄	-13.0753
䈏	-13.0753
咂	-13.0753
墪	-13.0754
鬘	-13.0754
禩	-13.0754
懔	-13.0754
􁎅	-13.0754
誑	-13.0755
鶹	-13.0755
怛	-13.0755
楟	-13.0755
惺	-13.0757
擥	-13.0757
敡	-13.0757
刴	-13.0757
壩	-13.0757
襃	-13.0757
袷	-13.0758
轣	-13.0758
迪	-13.0758
膘	-13.0759
紶	-13.0759
烽	-13.0759
遘	-13.0759
默	-13.0759
靧	-13.0759
麂	-13.076
靶	-13.0761
瘃	-13.0761
騶	-13.0761
庥	-13.0761
聆	-13.0761
劫	-13.0761
鈆	-13.0761
竣	-13.0762
玠	-13.0762
錡	-13.0762
莛	-13.0762
岌	-13.0764
罵	-13.0764
䲋	-13.0765
盾	-13.0765
龑	-13.0765
觳	-13.0766
㪍	-13.0766
篐	-13.0766
嫻	-13.0768
䔅	-13.0768
遅	-13.0768
侖	-13.0769
焫	-13.0769
冤	-13.077
帉	-13.0771
畞	-13.0771
鯝	-13.0771
虷	-13.0772
炁	-13.0772
皪	-13.0773
渰	-13.0773
颶	-13.0773
鮦	-13.0773
敻	-13.0773
䈄	-13.0773
莉	-13.0773
啁	-13.0775
遴	-13.0775
鮡	-13.0776
哢	-13.0776
幞	-13.0777
箛	-13.0777
輳	-13.0779
沜	-13.078
孥	-13.0782
菆	-13.0782
扞	-13.0784
鑢	-13.0784
蚪	-13.0784
巂	-13.0786
丱	-13.0786
橀	-13.0787
鐮	-13.0787
黳	-13.0789
煁	-13.079
鰹	-13.0793
謚	-13.0798
瀏	-13.0804
蒕	-13.0811
爺	-13.0815
挖	-13.0818
䈛	-13.0834
䉋	-13.0857
鮂	-13.0867
橉	-13.0883
薓	-13.395
玫	-13.3961
僱	-13.3964
蒢	-13.3969
穈	-13.3971
瓛	-13.3971
莜	-13.3971
葖	-13.3977
䓞	-13.3979
瓴	-13.3986
捷	-13.3987
䞇	-13.3987
堋	-13.3989
鰮	-13.3993
孀	-13.3995
䗯	-13.3995
颷	-13.3996
􁳃	-13.3996
撦	-13.3998
樲	-13.4
珩	-13.4
檓	-13.4
椈	-13.4002
讜	-13.4004
騣	-13.4006
胾	-13.4006
沗	-13.4008
兾	-13.4008
㧓	-13.4008
甒	-13.4008
拐	-13.4008
聪	-13.4008
氿	-13.401
􁷳	-13.401
􁤹	-13.401
暱	-13.401
秒	-13.401
璡	-13.401
醵	-13.4012
邴	-13.4012
餵	-13.4012
􁷴	-13.4012
馦	-13.4013
腂	-13.4014
趕	-13.4014
滏	-13.4016
澒	-13.4016
蝝	-13.4016
䕠	-13.4016
醙	-13.4016
溆	-13.4017
􁟥	-13.4017
􁦝	-13.4019
轟	-13.4019
馧	-13.4019
磻	-13.4019
楰	-13.402
喋	-13.4023
譍	-13.4023
茢	-13.4023
芐	-13.4023
餚	-13.4025
馪	-13.4025
戬	-13.4025
揾	-13.4025
鑞	-13.4025
黴	-13.4027
侠	-13.4027
涂	-13.4029
瘑	-13.4029
俁	-13.4029
鮚	-13.4029
耰	-13.4031
朞	-13.4031
澑	-13.4031
𦵏	-13.4031
􁅋	-13.4033
䒽	-13.4033
屴	-13.4033
崱	-13.4033
麦	-13.4035
廋	-13.4035
皛	-13.4035
凂	-13.4035
貊	-13.4035
闃	-13.4035
絜	-13.4035
爹	-13.4035
烱	-13.4037
鬃	-13.4037
肛	-13.4037
匊	-13.4037
鎧	-13.4037
蜺	-13.4037
甿	-13.4037
紃	-13.4037
髹	-13.4037
䅺	-13.4037
扭	-13.4037
搰	-13.4037
搶	-13.4038
馝	-13.4039
跱	-13.4039
柎	-13.4039
譛	-13.4039
蒘	-13.4039
馛	-13.4041
硾	-13.4041
􁎈	-13.4041
盬	-13.4041
苛	-13.4041
黦	-13.4041
唶	-13.4041
孛	-13.4043
艤	-13.4044
骫	-13.4045
骳	-13.4045
鴇	-13.4045
戛	-13.4046
馠	-13.4046
螳	-13.4046
畸	-13.4046
繙	-13.4047
殛	-13.4047
纘	-13.4047
訢	-13.4047
鯥	-13.4047
䰵	-13.4047
穮	-13.4047
蓘	-13.4047
虉	-13.4047
伉	-13.4048
馩	-13.4048
猧	-13.4048
扒	-13.4048
蘴	-13.4048
囤	-13.4048
柷	-13.4048
删	-13.405
薾	-13.405
棁	-13.405
蚱	-13.405
賃	-13.405
咿	-13.405
桵	-13.405
箠	-13.4052
衘	-13.4052
蟉	-13.4052
崟	-13.4052
螕	-13.4052
鞅	-13.4052
瞢	-13.4052
蔈	-13.4052
齆	-13.4052
䓑	-13.4052
􁡠	-13.4052
笲	-13.4054
鐶	-13.4054
刧	-13.4054
淀	-13.4054
谺	-13.4056
鶘	-13.4056
鍬	-13.4056
嚅	-13.4056
櫄	-13.4056
隍	-13.4056
掞	-13.4056
芴	-13.4058
?	-13.4058
謎	-13.4058
孳	-13.4058
纇	-13.4058
敖	-13.4058
鵀	-13.4058
茛	-13.4058
薧	-13.4058
炅	-13.4058
謌	-13.4058
􁃛	-13.4058
鰷	-13.4059
砒	-13.406
䤖	-13.406
鋋	-13.406
賺	-13.406
緍	-13.406
䱼	-13.406
朙	-13.406
譔	-13.406
耄	-13.406
鋟	-13.406
奘	-13.406
戽	-13.406
鯞	-13.406
䱝	-13.406
胐	-13.406
訏	-13.406
鵊	-13.4061
剋	-13.4062
僦	-13.4062
䲃	-13.4062
餠	-13.4062
䐈	-13.4062
􁓾	-13.4062
蹕	-13.4063
峪	-13.4064
㶸	-13.4064
黲	-13.4064
墁	-13.4064
耋	-13.4064
􁣚	-13.4064
䫫	-13.4064
嵻	-13.4064
㢠	-13.4065
涔	-13.4066
鑌	-13.4066
羹	-13.4066
帑	-13.4066
馟	-13.4066
鶱	-13.4066
尭	-13.4066
懍	-13.4066
罳	-13.4066
蠨	-13.4066
柀	-13.4066
諍	-13.4066
􁵒	-13.4066
漼	-13.4066
煔	-13.4066
犇	-13.4068
癉	-13.4068
劖	-13.4068
份	-13.4068
簏	-13.4068
蠐	-13.4068
毖	-13.4068
崯	-13.4068
蛆	-13.4069
笯	-13.407
矟	-13.407
噲	-13.407
澮	-13.407
閈	-13.407
踒	-13.407
藡	-13.407
冨	-13.4071
薆	-13.4072
浼	-13.4072
䔷	-13.4072
譴	-13.4072
搠	-13.4072
䲊	-13.4072
藬	-13.4072
噬	-13.4072
鴡	-13.4072
㷊	-13.4073
磕	-13.4074
䓈	-13.4074
埜	-13.4074
蔖	-13.4074
鞘	-13.4074
驌	-13.4074
凴	-13.4074
厔	-13.4075
灺	-13.4075
萟	-13.4075
闚	-13.4075
媱	-13.4075
諂	-13.4075
􁷰	-13.4075
蕐	-13.4075
􁫩	-13.4075
􁰖	-13.4075
鑲	-13.4076
胕	-13.4077
鵹	-13.4077
齪	-13.4077
兕	-13.4077
噍	-13.4077
獳	-13.4077
錚	-13.4077
鮌	-13.4077
鸕	-13.4077
􁟪	-13.4077
塤	-13.4077
筦	-13.4077
䓴	-13.4077
甥	-13.4077
碨	-13.4077
跚	-13.4079
杈	-13.4079
跼	-13.4079
􁈽	-13.4079
皐	-13.4079
駰	-13.4079
䭯	-13.4079
馤	-13.4079
贛	-13.4079
醥	-13.4079
裠	-13.4079
鮨	-13.4079
檎	-13.408
䗺	-13.4081
䨴	-13.4081
霮	-13.4081
瘓	-13.4081
纁	-13.4081
鷀	-13.4081
䗶	-13.4081
艘	-13.4083
􁇖	-13.4083
㳙	-13.4083
䆳	-13.4083
蒞	-13.4083
䒭	-13.4083
蘱	-13.4083
蚰	-13.4083
媠	-13.4085
郗	-13.4085
崤	-13.4085
蹐	-13.4085
􁲣	-13.4085
掎	-13.4085
晟	-13.4085
㳟	-13.4085
洙	-13.4085
䎡	-13.4085
弃	-13.4085
柬	-13.4085
篼	-13.4085
崙	-13.4087
畊	-13.4087
軃	-13.4087
䱉	-13.4087
紬	-13.4087
繂	-13.4087
偸	-13.4087
爁	-13.4087
髣	-13.4088
秷	-13.4089
頵	-13.4089
鷩	-13.4089
捆	-13.4089
晬	-13.4089
麸	-13.4089
􁉥	-13.4089
葐	-13.4091
釃	-13.4091
鳸	-13.4091
狖	-13.4091
棨	-13.4091
怵	-13.4091
㓕	-13.4091
䒠	-13.4091
帀	-13.4091
蛋	-13.4092
䈽	-13.4093
亾	-13.4093
棓	-13.4093
滬	-13.4094
齾	-13.4095
儺	-13.4095
䱰	-13.4095
䴵	-13.4097
燁	-13.4097
郃	-13.4097
粆	-13.4097
罁	-13.4097
裯	-13.4097
􁴵	-13.4097
吵	-13.4097
輜	-13.4098
􁛖	-13.4098
抆	-13.4098
螂	-13.4099
懴	-13.4099
䦧	-13.4099
瀅	-13.4099
􁄄	-13.4099
孠	-13.41
萄	-13.41
䰲	-13.41
櫈	-13.41
襌	-13.41
飃	-13.4101
鷇	-13.4101
穣	-13.4102
迓	-13.4102
鏇	-13.4102
埂	-13.4102
宂	-13.4104
檰	-13.4104
蜋	-13.4104
鴘	-13.4104
䗫	-13.4106
諛	-13.4106
帇	-13.4106
蜌	-13.4106
窶	-13.4108
雝	-13.4108
邠	-13.411
罋	-13.411
邏	-13.411
𤾉	-13.411
􁟤	-13.411
蝌	-13.4112
垤	-13.4112
厎	-13.4112
􁬅	-13.4112
鏖	-13.4114
摥	-13.4114
佀	-13.4116
􁸊	-13.4116
㬌	-13.4116
鸘	-13.4116
嗷	-13.4116
鯆	-13.4118
倮	-13.4118
覦	-13.4118
螗	-13.4118
䇘	-13.4118
􁉦	-13.4118
􁫃	-13.4118
膴	-13.412
銃	-13.412
戺	-13.4122
㪺	-13.4122
絣	-13.4122
罶	-13.4122
䰷	-13.4122
鱴	-13.4125
鮤	-13.4125
擗	-13.4127
勌	-13.4128
榽	-13.4129
涙	-13.4129
儁	-13.4133
鱝	-13.4135
萩	-13.4135
䱑	-13.4139
堙	-13.4139
頮	-13.4139
鰦	-13.4145
掗	-13.4145
臀	-13.4145
餱	-13.4151
鰈	-13.4164
熄	-13.4164
鞕	-13.4172
胠	-13.4181
䱁	-13.4187
鰵	-13.4199
耖	-13.8882
眴	-13.8923
黂	-13.8929
緧	-13.8936
藲	-13.8945
䰕	-13.8951
荖	-13.8954
􁈸	-13.8954
魨	-13.8958
􁁏	-13.8961
􁪸	-13.8964
蹷	-13.8967
掯	-13.8967
􁥽	-13.8967
䱙	-13.8967
􁬇	-13.8967
硜	-13.8967
萉	-13.8967
餾	-13.897
蔲	-13.8972
饎	-13.8973
桅	-13.8976
籤	-13.898
嘹	-13.8983
菇	-13.8983
輮	-13.8986
匄	-13.8986
荎	-13.8986
懨	-13.8986
檘	-13.8986
欇	-13.8986
莅	-13.8986
􁂰	-13.8986
缽	-13.8989
妲	-13.8989
攔	-13.8989
拴	-13.8989
瑿	-13.8989
􁰒	-13.8989
倨	-13.8992
䱒	-13.8992
孱	-13.8992
怦	-13.8992
濏	-13.8992
猺	-13.8995
葝	-13.8995
蓱	-13.8995
鄅	-13.8995
奧	-13.8995
刖	-13.8995
茥	-13.8995
蕢	-13.8995
錔	-13.8995
臙	-13.8996
艦	-13.8998
媾	-13.8998
玢	-13.8998
鯚	-13.8998
亲	-13.8998
檍	-13.8998
􁦛	-13.9001
陘	-13.9002
䔧	-13.9002
焸	-13.9002
䵖	-13.9002
鏢	-13.9002
隹	-13.9002
栟	-13.9004
叮	-13.9005
騾	-13.9005
愫	-13.9005
鰀	-13.9005
鷞	-13.9008
姤	-13.9008
磽	-13.9008
闉	-13.9008
蕫	-13.9011
奬	-13.9011
袿	-13.9011
怱	-13.9011
䩾	-13.9011
堘	-13.9011
騌	-13.9011
􁸋	-13.9011
拗	-13.9014
眥	-13.9014
癊	-13.9014
唫	-13.9014
鰓	-13.9014
㸤	-13.9014
奓	-13.9014
閠	-13.9014
􁊸	-13.9014
亍	-13.9017
簠	-13.9017
薠	-13.9017
豓	-13.9017
釤	-13.9017
咈	-13.9017
鮅	-13.9017
䜶	-13.9017
懞	-13.9017
曁	-13.9017
𥜗	-13.902
湩	-13.902
窋	-13.902
撋	-13.902
爿	-13.902
捄	-13.902
𬒮	-13.902
㯸	-13.902
䲧	-13.902
佻	-13.902
􁋬	-13.902
螓	-13.9023
矇	-13.9024
黷	-13.9024
芧	-13.9024
暅	-13.9024
瀠	-13.9024
簌	-13.9024
詶	-13.9024
踔	-13.9024
拯	-13.9027
觝	-13.9027
珈	-13.9027
匳	-13.9027
饉	-13.9027
囁	-13.9027
眯	-13.9027
埼	-13.9027
􁂻	-13.9027
漘	-13.903
􁡎	-13.903
轢	-13.903
餫	-13.903
饠	-13.903
滺	-13.903
眈	-13.903
驁	-13.903
黁	-13.903
鼕	-13.903
呿	-13.9033
裌	-13.9033
腆	-13.9033
尢	-13.9033
䂓	-13.9033
殭	-13.9033
抜	-13.9033
郈	-13.9033
􁁵	-13.9033
䘲	-13.9036
埧	-13.9036
橐	-13.9036
嚳	-13.9036
􁊭	-13.9036
笇	-13.9036
痙	-13.9036
蠚	-13.9036
鶂	-13.9036
妦	-13.9036
斖	-13.9036
櫱	-13.9036
莃	-13.9036
蝡	-13.9036
鬪	-13.9039
醻	-13.9039
䔖	-13.9039
穅	-13.9039
扯	-13.9039
閧	-13.9039
熝	-13.9039
呝	-13.9039
嗉	-13.9039
戩	-13.9039
篢	-13.9039
騕	-13.9039
𬞞	-13.9039
鎛	-13.9042
謩	-13.9042
􁣔	-13.9042
膄	-13.9042
嬭	-13.9042
繻	-13.9042
愬	-13.9042
耑	-13.9042
靦	-13.9042
蹩	-13.9042
絁	-13.9042
䇤	-13.9042
攲	-13.9042
爀	-13.9042
蜅	-13.9042
鶼	-13.9042
蒺	-13.9045
桫	-13.9045
䒷	-13.9045
揠	-13.9045
淰	-13.9045
枍	-13.9046
栺	-13.9046
甗	-13.9046
蟫	-13.9046
鬵	-13.9046
惝	-13.9046
敧	-13.9046
砭	-13.9046
苃	-13.9046
贐	-13.9046
􁝞	-13.9046
灇	-13.9046
鯟	-13.9046
椭	-13.9048
􁳊	-13.9049
㯽	-13.9049
籹	-13.9049
槅	-13.9049
緫	-13.9049
蚨	-13.9049
􁊿	-13.9049
偘	-13.9049
葥	-13.9049
鼄	-13.9049
𥙿	-13.9049
㼸	-13.9049
䐄	-13.9049
䗚	-13.9049
灎	-13.9049
蹀	-13.9049
鷊	-13.9049
褻	-13.9051
儿	-13.9052
嶓	-13.9052
怙	-13.9052
椐	-13.9052
輠	-13.9052
袢	-13.9052
聓	-13.9052
壕	-13.9052
栾	-13.9052
鷤	-13.9052
􁀼	-13.9052
褾	-13.9052
騃	-13.9052
巋	-13.9053
籭	-13.9055
胙	-13.9055
佷	-13.9055
杙	-13.9055
隤	-13.9055
䳓	-13.9055
耡	-13.9055
蜮	-13.9055
鑷	-13.9055
汭	-13.9055
黶	-13.9055
䱺	-13.9055
僶	-13.9055
凾	-13.9055
哠	-13.9055
嗛	-13.9055
沄	-13.9055
淠	-13.9055
飂	-13.9055
鰧	-13.9055
𥚹	-13.9055
􁎊	-13.9055
僞	-13.9058
吭	-13.9058
瓿	-13.9058
葰	-13.9058
罯	-13.9058
屮	-13.9058
庀	-13.9058
彴	-13.9058
憭	-13.9058
旍	-13.9058
箝	-13.9058
糲	-13.9058
􁙞	-13.9058
􁙟	-13.9058
㙬	-13.9058
怊	-13.9058
戣	-13.9058
殲	-13.9058
碟	-13.9058
籋	-13.9058
蕛	-13.9058
轓	-13.9058
銠	-13.9058
鰬	-13.9058
尃	-13.9061
鼒	-13.9061
梠	-13.9061
堡	-13.9061
迕	-13.9061
呫	-13.9061
嗶	-13.9061
潠	-13.9061
讖	-13.9061
閥	-13.9061
䔉	-13.9061
珀	-13.9061
蕞	-13.9061
􁃯	-13.9061
縗	-13.9061
軺	-13.9061
鄷	-13.9061
廆	-13.9061
抨	-13.9061
昳	-13.9061
暌	-13.9061
洸	-13.9061
漇	-13.9061
饆	-13.9061
􁅨	-13.9061
􁑽	-13.9061
􁡚	-13.9061
􁲈	-13.9061
􁓁	-13.9063
懟	-13.9064
襚	-13.9064
蕟	-13.9064
桼	-13.9064
𥅆	-13.9064
蕸	-13.9064
䈙	-13.9064
憙	-13.9064
掺	-13.9064
僎	-13.9064
麑	-13.9064
䧽	-13.9064
儈	-13.9064
堀	-13.9064
撱	-13.9064
晱	-13.9064
酆	-13.9064
珙	-13.9064
蚴	-13.9064
㡩	-13.9064
䃋	-13.9064
䆫	-13.9064
壙	-13.9064
奨	-13.9064
帊	-13.9064
慼	-13.9064
輶	-13.9064
餧	-13.9064
魘	-13.9064
𫐠	-13.9064
柸	-13.9064
鏹	-13.9064
妁	-13.9067
䓻	-13.9068
瞎	-13.9068
䇶	-13.9068
憀	-13.9068
賮	-13.9068
􁁌	-13.9068
䔰	-13.9068
晅	-13.9068
橆	-13.9068
燻	-13.9068
襠	-13.9068
覷	-13.9068
鶊	-13.9068
􁜔	-13.9068
檥	-13.9071
梃	-13.9071
瑱	-13.9071
勣	-13.9071
摠	-13.9071
梡	-13.9071
蝀	-13.9071
䗤	-13.9071
倀	-13.9071
喏	-13.9071
廳	-13.9071
沕	-13.9071
濊	-13.9071
紘	-13.9071
洫	-13.9074
倥	-13.9074
䍐	-13.9074
袚	-13.9074
瞶	-13.9074
䕬	-13.9074
劘	-13.9074
貙	-13.9074
浯	-13.9074
蓤	-13.9074
姆	-13.9074
漭	-13.9074
秖	-13.9074
稴	-13.9074
貉	-13.9074
鸐	-13.9074
𠡠	-13.9074
楬	-13.9074
縰	-13.9074
覉	-13.9074
蹼	-13.9074
陞	-13.9074
忡	-13.9074
徭	-13.9077
庳	-13.9077
仡	-13.9077
鍠	-13.9077
厖	-13.9077
憃	-13.9077
襁	-13.9077
幟	-13.9077
􁃼	-13.9077
㢕	-13.9077
䕸	-13.9077
昜	-13.9077
糚	-13.9077
繀	-13.9077
髽	-13.9077
􁃉	-13.9077
侗	-13.9077
刲	-13.9077
牗	-13.9077
痁	-13.9077
痡	-13.9077
鏵	-13.908
蹬	-13.908
趠	-13.908
髫	-13.908
㷈	-13.908
哤	-13.908
殉	-13.908
讎	-13.908
􁒬	-13.908
柝	-13.908
苷	-13.908
鵴	-13.908
𫀆	-13.908
嘕	-13.908
夊	-13.908
娣	-13.908
泙	-13.908
磎	-13.908
蹖	-13.908
釉	-13.908
稬	-13.9083
柁	-13.9083
鴺	-13.9083
蘥	-13.9083
䱻	-13.9083
䍢	-13.9083
疢	-13.9083
􁷧	-13.9083
冇	-13.9083
冪	-13.9083
嘈	-13.9083
淝	-13.9083
澷	-13.9083
甔	-13.9083
繬	-13.9083
薃	-13.9083
鮹	-13.9083
􁘤	-13.9083
襴	-13.9086
鬒	-13.9086
絫	-13.9086
离	-13.9086
熛	-13.9086
􁫆	-13.9086
舳	-13.9087
凘	-13.9087
嶪	-13.9087
綖	-13.9087
㜑	-13.9087
䅘	-13.9087
䖟	-13.9087
堁	-13.9087
媞	-13.9087
漤	-13.9087
趯	-13.9087
閹	-13.9087
鬑	-13.9087
珵	-13.9089
殯	-13.909
覻	-13.909
掿	-13.909
縿	-13.909
罧	-13.909
鶠	-13.909
㬪	-13.909
焮	-13.909
蒍	-13.909
蒫	-13.909
鱞	-13.909
􁯨	-13.909
髴	-13.9091
魦	-13.9093
挶	-13.9093
曶	-13.9093
盭	-13.9093
硠	-13.9093
綣	-13.9093
蕝	-13.9093
踶	-13.9093
踽	-13.9093
飋	-13.9093
枅	-13.9096
槙	-13.9096
踸	-13.9096
玲	-13.9096
曆	-13.9096
趄	-13.9096
釂	-13.9096
劐	-13.9096
蕂	-13.9096
􁛲	-13.9096
扑	-13.9096
葼	-13.9096
蔙	-13.9096
㵝	-13.9098
茞	-13.9099
㽟	-13.9099
迮	-13.9099
䴥	-13.9099
踣	-13.9099
羝	-13.9099
愾	-13.9099
邙	-13.9099
􁂝	-13.9099
㐲	-13.9099
䵄	-13.9099
嶻	-13.9099
濈	-13.9099
酧	-13.9099
崌	-13.9102
鄖	-13.9102
媌	-13.9102
僃	-13.9102
䔍	-13.9102
蒀	-13.9102
魺	-13.9102
􁠋	-13.9102
峕	-13.9102
濘	-13.9102
痏	-13.9102
銑	-13.9102
𠢐	-13.9102
􁈏	-13.9102
􁠥	-13.9102
􁪠	-13.9105
􁁑	-13.9105
蹂	-13.9105
􁍮	-13.9105
蚼	-13.9105
􁵷	-13.9105
䇣	-13.9105
樠	-13.9105
楦	-13.9105
䐑	-13.9105
埶	-13.9105
杮	-13.9105
蝹	-13.9105
鳱	-13.9105
坯	-13.9108
鰿	-13.9108
㲮	-13.9108
偪	-13.9108
􁂳	-13.9109
圯	-13.9109
屆	-13.9109
蜑	-13.9109
樆	-13.9109
櫠	-13.9109
珬	-13.9109
矬	-13.9109
鴷	-13.9109
􁘗	-13.9109
簰	-13.9111
䞉	-13.9112
逥	-13.9112
薝	-13.9112
羭	-13.9112
䱋	-13.9112
汛	-13.9112
璵	-13.9112
鱵	-13.9112
槄	-13.9112
鵽	-13.9112
睎	-13.9115
爱	-13.9115
吪	-13.9115
堊	-13.9115
弴	-13.9115
􁉬	-13.9115
鯦	-13.9118
嘷	-13.9118
㝎	-13.9118
胈	-13.9118
䂒	-13.9118
悳	-13.9118
鷽	-13.9118
𦦨	-13.9118
暠	-13.9121
杹	-13.9121
燀	-13.9124
蘐	-13.9124
鴦	-13.9124
旉	-13.9124
穪	-13.9124
邛	-13.9124
醭	-13.9124
薥	-13.9124
躪	-13.9127
魈	-13.9127
汍	-13.9127
毉	-13.9127
鸜	-13.913
踠	-13.9131
裵	-13.9131
罛	-13.9131
煏	-13.9131
燙	-13.9134
霛	-13.9134
鯜	-13.9134
􁏁	-13.9134
柠	-13.9137
􁜛	-13.9137
嶃	-13.9137
蜾	-13.9137
熻	-13.9137
醐	-13.914
􁳏	-13.914
􁎾	-13.9143
螠	-13.9143
鶃	-13.9143
万	-13.9146
䲐	-13.9146
饍	-13.9149
皖	-13.9149
蘷	-13.915
蔩	-13.9156
頟	-13.9156
㔶	-13.9156
澶	-13.9156
煴	-13.9156
灾	-13.9162
􁉏	-13.9165
藼	-13.9168
􁀆	-13.9171
􁍄	-13.9175
鰳	-13.9178
鎩	-13.918
縧	-13.9184
傖	-13.919
淦	-13.9194
魪	-13.9196
籐	-13.9197
鱂	-13.9203
孶	-13.9213
􁉣	-13.9232
魛	-13.9244
嫈	-13.925
􁚡	-14.8748
􁓿	-14.8749
齗	-14.875
鼢	-14.8751
黥	-14.8752
鷫	-14.8753
鳷	-14.8754
鱕	-14.8755
鰜	-14.8756
鰛	-14.8757
鯌	-14.8758
鯀	-14.8759
鮷	-14.876
鮢	-14.8761
髿	-14.8762
骹	-14.8763
驦	-14.8764
馱	-14.8765
餺	-14.8766
顴	-14.8767
鞨	-14.8768
靺	-14.8769
隩	-14.877
隥	-14.8771
鎊	-14.8772
錙	-14.8773
鋑	-14.8774
釄	-14.8775
醱	-14.8776
醰	-14.8777
酏	-14.8778
酇	-14.8779
躗	-14.878
蹹	-14.8781
蹣	-14.8782
踉	-14.8783
跣	-14.8784
贔	-14.8785
贉	-14.8786
貰	-14.8787
豺	-14.8788
豩	-14.8789
譟	-14.879
諝	-14.8791
裓	-14.8792
袨	-14.8793
蠁	-14.8794
蟁	-14.8795
螄	-14.8796
蝭	-14.8797
虖	-14.8798
蘮	-14.8799
蘦	-14.88
藈	-14.8801
薽	-14.8802
薱	-14.8803
蕿	-14.8804
蕀	-14.8805
蔧	-14.8806
蒱	-14.8807
蒬	-14.8808
蒩	-14.8809
葀	-14.881
萲	-14.8811
莌	-14.8812
艨	-14.8813
艟	-14.8814
艌	-14.8815
舐	-14.8816
腽	-14.8817
腝	-14.8818
脗	-14.8819
胼	-14.882
胏	-14.8821
胊	-14.8822
肸	-14.8823
肭	-14.8824
肫	-14.8825
耼	-14.8826
缹	-14.8827
繤	-14.8828
㾭	-14.8829
縡	-14.8829
綮	-14.883
絰	-14.8831
筞	-14.8832
筑	-14.8833
笭	-14.8834
笤	-14.8835
竮	-14.8836
楳	-14.8837
竛	-14.8837
穋	-14.8838
祺	-14.8839
礰	-14.884
确	-14.8841
盫	-14.8842
盩	-14.8843
癜	-14.8844
䓁	-14.8845
瘾	-14.8845
瘼	-14.8846
瘲	-14.8847
瘛	-14.8848
痟	-14.8849
甋	-14.885
甀	-14.8851
瑠	-14.8852
塕	-14.8853
珷	-14.8853
玞	-14.8854
玓	-14.8855
獪	-14.8856
猯	-14.8857
牣	-14.8858
熥	-14.8859
熀	-14.886
冏	-14.8861
厙	-14.8861
焱	-14.8861
瀡	-14.8862
澎	-14.8863
漮	-14.8864
漋	-14.8865
溧	-14.8866
湃	-14.8867
渂	-14.8868
䁔	-14.8869
䷆	-14.8869
䷰	-14.8869
彂	-14.8869
扷	-14.8869
揳	-14.8869
摰	-14.8869
涮	-14.8869
涫	-14.887
汐	-14.8871
汊	-14.8872
毺	-14.8873
毹	-14.8874
殮	-14.8875
歧	-14.8876
揪	-14.8877
杍	-14.8877
歈	-14.8877
櫑	-14.8878
櫋	-14.8879
檵	-14.888
檦	-14.8881
橺	-14.8882
橰	-14.8883
橚	-14.8884
㮣	-14.8885
樬	-14.8885
槪	-14.8886
楜	-14.8887
椌	-14.8888
梬	-14.8889
梫	-14.889
柂	-14.8891
杝	-14.8892
慜	-14.8893
橱	-14.8893
杄	-14.8893
朢	-14.8894
朏	-14.8895
晌	-14.8896
斨	-14.8897
斌	-14.8898
攧	-14.8899
攟	-14.89
䅳	-14.8901
嫪	-14.8901
晥	-14.8901
攗	-14.8901
撧	-14.8902
摴	-14.8903
搪	-14.8904
搢	-14.8905
搙	-14.8906
揔	-14.8907
捅	-14.8908
䑨	-14.8909
咦	-14.8909
墢	-14.8909
櫶	-14.8909
愎	-14.8909
惄	-14.891
庬	-14.8911
巑	-14.8912
嵲	-14.8913
嵎	-14.8914
崎	-14.8915
崃	-14.8916
苡	-14.8916
䋏	-14.8917
䪤	-14.8917
䱌	-14.8917
呺	-14.8917
嚀	-14.8917
棰	-14.8917
峚	-14.8917
屓	-14.8918
嫖	-14.8919
嫏	-14.892
婑	-14.8921
奝	-14.8922
墰	-14.8923
墄	-14.8924
檳	-14.8924
㛠	-14.8925
吷	-14.8925
妸	-14.8925
悛	-14.8925
惔	-14.8925
捘	-14.8925
暐	-14.8925
桒	-14.8925
垍	-14.8925
坏	-14.8926
囅	-14.8927
嚻	-14.8928
嗒	-14.8929
咼	-14.893
单	-14.8931
匈	-14.8932
㴱	-14.8933
䄈	-14.8933
䆛	-14.8933
圌	-14.8933
彳	-14.8933
攕	-14.8933
勍	-14.8933
刎	-14.8934
僬	-14.8935
倜	-14.8936
倆	-14.8937
俜	-14.8938
乩	-14.8939
䶎	-14.894
䖤	-14.8941
䲎	-14.8941
嘅	-14.8941
嘩	-14.8941
媟	-14.8941
撣	-14.8941
䵠	-14.8941
䳭	-14.8942
䳇	-14.8943
䱷	-14.8944
䰸	-14.8945
䠓	-14.8946
䜛	-14.8947
䙰	-14.8948
㨵	-14.8949
㯿	-14.8949
㴞	-14.8949
倌	-14.8949
妯	-14.8949
娌	-14.8949
嵂	-14.8949
摖	-14.8949
斒	-14.8949
朒	-14.8949
櫽	-14.8949
䙞	-14.8949
䖴	-14.895
䔺	-14.8951
䔟	-14.8952
䓠	-14.8953
䓗	-14.8954
䊵	-14.8955
䈝	-14.8956
听	-14.8957
尻	-14.8957
嵳	-14.8957
慲	-14.8957
戡	-14.8957
柙	-14.8957
桉	-14.8957
蓿	-14.8957
䆡	-14.8957
䃘	-14.8958
䂬	-14.8959
䂪	-14.896
㴙	-14.8961
㴑	-14.8962
㫤	-14.8963
㧫	-14.8964
㴸	-14.8965
䐘	-14.8965
䐜	-14.8965
䒱	-14.8965
䖃	-14.8965
䙫	-14.8965
冱	-14.8965
圊	-14.8965
妣	-14.8965
岞	-14.8965
幺	-14.8965
惘	-14.8965
摔	-14.8965
晛	-14.8965
枘	-14.8965
榰	-14.8965
㗐	-14.8965
㐨	-14.8966
􁛹	-14.8967
麚	-14.8968
鶺	-14.8969
鵁	-14.897
鱆	-14.8971
鰠	-14.8972
䤈	-14.8973
䰍	-14.8973
䴷	-14.8973
丏	-14.8973
偫	-14.8973
儐	-14.8973
塪	-14.8973
崍	-14.8973
敳	-14.8973
昘	-14.8973
栵	-14.8973
桗	-14.8973
棍	-14.8973
楢	-14.8973
楶	-14.8973
榾	-14.8973
鯩	-14.8973
魳	-14.8974
魢	-14.8975
驊	-14.8976
駑	-14.8977
餭	-14.8978
餦	-14.8979
鞞	-14.898
㘽	-14.8981
㠂	-14.8981
㡛	-14.8981
㷱	-14.8981
䰼	-14.8981
偟	-14.8981
呴	-14.8981
唤	-14.8981
嚏	-14.8981
峘	-14.8981
幈	-14.8981
悢	-14.8981
憹	-14.8981
旴	-14.8981
梴	-14.8981
鐳	-14.8981
鈸	-14.8982
鄯	-14.8983
鄪	-14.8984
郸	-14.8985
邳	-14.8986
迍	-14.8987
轕	-14.8988
㹱	-14.8989
䔏	-14.8989
儇	-14.8989
凃	-14.8989
凥	-14.8989
卐	-14.8989
啘	-14.8989
嗢	-14.8989
垐	-14.8989
嬢	-14.8989
峳	-14.8989
愇	-14.8989
撡	-14.8989
暧	-14.8989
枽	-14.8989
桚	-14.8989
楼	-14.8989
轇	-14.8989
躶	-14.899
跫	-14.8991
跑	-14.8992
豍	-14.8993
譸	-14.8994
觫	-14.8995
褧	-14.8996
哮	-14.8997
尫	-14.8997
懆	-14.8997
挅	-14.8997
蟆	-14.8997
蘪	-14.8998
蘈	-14.8999
藎	-14.9
薳	-14.9001
蕻	-14.9002
蔠	-14.9003
蓶	-14.9004
㕙	-14.9005
㢮	-14.9005
㬅	-14.9005
㭬	-14.9005
䅻	-14.9005
䐢	-14.9005
䕴	-14.9005
䖳	-14.9005
䗻	-14.9005
䣃	-14.9005
䱦	-14.9005
䳸	-14.9005
东	-14.9005
垈	-14.9005
屜	-14.9005
拲	-14.9005
揶	-14.9005
搤	-14.9005
枷	-14.9005
棆	-14.9005
槤	-14.9005
蓇	-14.9005
葟	-14.9006
菾	-14.9007
菤	-14.9008
荶	-14.9009
荁	-14.901
芕	-14.9011
艽	-14.9012
㮶	-14.9013
㲄	-14.9013
㼎	-14.9013
㿅	-14.9013
䁓	-14.9013
䊧	-14.9013
䖂	-14.9013
䳵	-14.9013
劁	-14.9013
勗	-14.9013
勴	-14.9013
吰	-14.9013
喆	-14.9013
嗊	-14.9013
嘱	-14.9013
噌	-14.9013
垎	-14.9013
埆	-14.9013
墝	-14.9013
嫘	-14.9013
岻	-14.9013
惢	-14.9013
梲	-14.9013
樚	-14.9013
脝	-14.9013
脖	-14.9014
緦	-14.9015
綹	-14.9016
紕	-14.9017
紊	-14.9018
簨	-14.9019
笊	-14.902
玕	-14.902
䡆	-14.9021
䲅	-14.9021
䴉	-14.9021
冑	-14.9021
勩	-14.9021
哱	-14.9021
嚵	-14.9021
夻	-14.9021
奫	-14.9021
尞	-14.9021
弸	-14.9021
彔	-14.9021
抔	-14.9021
礨	-14.9021
秭	-14.9021
礜	-14.9022
碡	-14.9023
碚	-14.9024
硼	-14.9025
眭	-14.9026
癮	-14.9027
痎	-14.9028
㫪	-14.9029
㲼	-14.9029
㵳	-14.9029
㼕	-14.9029
㿔	-14.9029
䋣	-14.9029
䰅	-14.9029
䳏	-14.9029
䵸	-14.9029
偞	-14.9029
噆	-14.9029
噇	-14.9029
噶	-14.9029
嚦	-14.9029
坭	-14.9029
堈	-14.9029
壜	-14.9029
崞	-14.9029
掦	-14.9029
昐	-14.9029
橊	-14.9029
璪	-14.9029
璐	-14.903
猙	-14.9031
牱	-14.9032
牁	-14.9033
爝	-14.9034
燹	-14.9035
蜍	-14.9036
潩	-14.9036
㜮	-14.9037
㷶	-14.9037
㸐	-14.9037
㺐	-14.9037
䔭	-14.9037
䲓	-14.9037
伻	-14.9037
侜	-14.9037
傀	-14.9037
嬲	-14.9037
拶	-14.9037
挮	-14.9037
橃	-14.9037
焄	-14.9037
跽	-14.9037
湋	-14.9037
汸	-14.9038
歪	-14.9039
櫔	-14.904
檮	-14.9041
檫	-14.9042
檇	-14.9043
樳	-14.9044
㙮	-14.9045
㢧	-14.9045
㬎	-14.9045
㲣	-14.9045
䀪	-14.9045
䔇	-14.9045
䟫	-14.9045
䳡	-14.9045
佾	-14.9045
倓	-14.9045
唽	-14.9045
妮	-14.9045
婵	-14.9045
峗	-14.9045
嵹	-14.9045
廑	-14.9045
惛	-14.9045
敺	-14.9045
朵	-14.9045
栂	-14.9045
榹	-14.9045
箵	-14.9045
楄	-14.9045
梹	-14.9046
桎	-14.9047
栳	-14.9048
攴	-14.9049
揎	-14.905
廅	-14.9051
帢	-14.9052
徘	-14.9053
䄜	-14.9053
䇲	-14.9053
䥴	-14.9053
佪	-14.9053
傃	-14.9053
僴	-14.9053
刦	-14.9053
呑	-14.9053
咆	-14.9053
垕	-14.9053
嬗	-14.9053
尘	-14.9053
愀	-14.9053
憺	-14.9053
搐	-14.9053
攏	-14.9053
攛	-14.9053
晧	-14.9053
橁	-14.9053
檞	-14.9053
鑼	-14.9053
嶡	-14.9053
嵰	-14.9054
崪	-14.9055
崚	-14.9056
岣	-14.9057
嫛	-14.9058
婥	-14.9059
埞	-14.906
㔢	-14.9061
㖶	-14.9061
㨷	-14.9061
㻛	-14.9061
㽃	-14.9061
䃈	-14.9061
䃜	-14.9061
䅀	-14.9061
䩉	-14.9061
䰐	-14.9061
䵶	-14.9061
卍	-14.9061
嚕	-14.9061
圮	-14.9061
坿	-14.9061
埯	-14.9061
娵	-14.9061
屼	-14.9061
岔	-14.9061
峍	-14.9061
崽	-14.9061
帋	-14.9061
弨	-14.9061
戹	-14.9061
搻	-14.9061
攑	-14.9061
曮	-14.9061
柧	-14.9061
棂	-14.9061
咯	-14.9061
匍	-14.9062
勦	-14.9063
儡	-14.9064
僽	-14.9065
僝	-14.9066
侏	-14.9067
仃	-14.9068
橄	-14.9069
桄	-14.9069
㯳	-14.9069
㴜	-14.9069
䃁	-14.9069
䘐	-14.9069
䙬	-14.9069
䲆	-14.9069
䲚	-14.9069
䴊	-14.9069
侅	-14.9069
俣	-14.9069
倂	-14.9069
凊	-14.9069
剷	-14.9069
劊	-14.9069
劌	-14.9069
勳	-14.9069
嗾	-14.9069
嚌	-14.9069
囙	-14.9069
岤	-14.9069
恼	-14.9069
憕	-14.9069
拑	-14.9069
擫	-14.9069
擴	-14.9069
曏	-14.9069
栅	-14.9069
櫲	-14.9069
䖱	-14.9069
䕲	-14.907
䒻	-14.9071
䍧	-14.9072
㰂	-14.9073
㯆	-14.9074
㮕	-14.9075
㬜	-14.9076
婀	-14.9077
枇	-14.9077
㥵	-14.9077
㬢	-14.9077
㯭	-14.9077
䕔	-14.9077
䖺	-14.9077
䛕	-14.9077
亱	-14.9077
仐	-14.9077
剿	-14.9077
啚	-14.9077
圬	-14.9077
婕	-14.9077
婬	-14.9077
巏	-14.9077
弈	-14.9077
懺	-14.9077
暪	-14.9077
柩	-14.9077
栧	-14.9077
桺	-14.9077
棡	-14.9077
齶	-14.9077
㥏	-14.9077
􁪄	-14.9078
饘	-14.9079
餛	-14.908
飩	-14.9081
頏	-14.9082
鄼	-14.9083
鄢	-14.9084
蓞	-14.9085
㠁	-14.9085
㨶	-14.9085
㲨	-14.9085
㻌	-14.9085
㾕	-14.9085
䉉	-14.9085
䓆	-14.9085
䱠	-14.9085
䱴	-14.9085
丢	-14.9085
伹	-14.9085
伾	-14.9085
兑	-14.9085
厈	-14.9085
媕	-14.9085
嫚	-14.9085
尙	-14.9085
巣	-14.9085
幀	-14.9085
幇	-14.9085
庄	-14.9085
忮	-14.9085
慴	-14.9085
憏	-14.9085
戃	-14.9085
摝	-14.9085
攉	-14.9085
昪	-14.9085
昫	-14.9085
曊	-14.9085
梮	-14.9085
樏	-14.9085
誾	-14.9085
裟	-14.9086
袈	-14.9087
蠛	-14.9088
䟎	-14.9089
蠓	-14.9089
蝮	-14.909
㭊	-14.9091
蜝	-14.9091
蛱	-14.9092
卄	-14.9093
㕞	-14.9093
㙞	-14.9093
㩻	-14.9093
㬦	-14.9093
䎘	-14.9093
䐗	-14.9093
䙚	-14.9093
䟱	-14.9093
䤌	-14.9093
䮑	-14.9093
䵩	-14.9093
丌	-14.9093
佈	-14.9093
侚	-14.9093
厢	-14.9093
厩	-14.9093
囦	-14.9093
埡	-14.9093
埻	-14.9093
堫	-14.9093
岨	-14.9093
峿	-14.9093
崘	-14.9093
嶭	-14.9093
嶱	-14.9093
幐	-14.9093
幵	-14.9093
开	-14.9093
悝	-14.9093
惮	-14.9093
懭	-14.9093
捴	-14.9093
敇	-14.9093
晹	-14.9093
暦	-14.9093
曯	-14.9093
枏	-14.9093
栔	-14.9093
樻	-14.9093
櫉	-14.9093
蛭	-14.9093
蚎	-14.9094
蘡	-14.9095
蘀	-14.9096
喭	-14.9097
蕰	-14.9097
蕁	-14.9098
蒝	-14.9099
茩	-14.91
㦄	-14.9101
㮇	-14.9101
䄖	-14.9101
䉁	-14.9101
䟐	-14.9101
佉	-14.9101
儳	-14.9101
勔	-14.9101
嚧	-14.9101
坱	-14.9101
垝	-14.9101
垞	-14.9101
娏	-14.9101
嵫	-14.9101
庅	-14.9101
愓	-14.9101
慱	-14.9101
戇	-14.9101
扼	-14.9101
揰	-14.9101
臃	-14.9101
腱	-14.9102
胚	-14.9103
綟	-14.9104
糙	-14.9105
禕	-14.9106
祼	-14.9107
磄	-14.9108
㶟	-14.9109
㻧	-14.9109
䇮	-14.9109
䏰	-14.9109
䗒	-14.9109
䘍	-14.9109
仟	-14.9109
佖	-14.9109
刅	-14.9109
匧	-14.9109
啑	-14.9109
喁	-14.9109
噞	-14.9109
墆	-14.9109
嫡	-14.9109
宁	-14.9109
幨	-14.9109
摳	-14.9109
栮	-14.9109
梌	-14.9109
梐	-14.9109
椓	-14.9109
楕	-14.9109
槸	-14.9109
樿	-14.9109
皵	-14.9109
畋	-14.911
玗	-14.9111
湒	-14.9112
渢	-14.9113
毸	-14.9114
毶	-14.9115
毰	-14.9116
㢸	-14.9117
䬙	-14.9117
䭳	-14.9117
䰄	-14.9117
䱵	-14.9117
匜	-14.9117
吊	-14.9117
帩	-14.9117
廚	-14.9117
翡	-14.9117
橪	-14.9117
槻	-14.9118
梪	-14.9119
枤	-14.912
茉	-14.9121
曨	-14.9121
擻	-14.9122
挱	-14.9123
拮	-14.9124
僇	-14.9125
冮	-14.9125
姘	-14.9125
嶫	-14.9125
慓	-14.9125
揫	-14.9125
曕	-14.9125
椷	-14.9125
舀	-14.9125
慍	-14.9125
悤	-14.9126
忉	-14.9127
嶤	-14.9128
崷	-14.9129
屭	-14.913
寀	-14.9131
婭	-14.9132
䉈	-14.9133
䌓	-14.9133
䑸	-14.9133
䧳	-14.9133
䭅	-14.9133
䱎	-14.9133
仳	-14.9133
仵	-14.9133
傒	-14.9133
哾	-14.9133
唹	-14.9133
峞	-14.9133
隟	-14.9133
娓	-14.9133
塏	-14.9134
喃	-14.9135
哩	-14.9136
吺	-14.9137
匼	-14.9138
僥	-14.9139
价	-14.914
㣣	-14.9141
㺄	-14.9141
䉽	-14.9141
䪫	-14.9141
傯	-14.9141
堧	-14.9141
岝	-14.9141
椆	-14.9141
鷓	-14.9141
䒗	-14.9141
㼐	-14.9142
齲	-14.9143
鴒	-14.9144
鱃	-14.9145
鯺	-14.9146
踘	-14.9147
螵	-14.9148
㖡	-14.9149
䭀	-14.9149
䳺	-14.9149
剚	-14.9149
壈	-14.9149
岪	-14.9149
巓	-14.9149
摷	-14.9149
斀	-14.9149
桯	-14.9149
檯	-14.9149
蘹	-14.9149
蔛	-14.915
蒾	-14.9151
蒥	-14.9152
荗	-14.9153
篨	-14.9154
竑	-14.9155
碼	-14.9156
侻	-14.9157
倞	-14.9157
塉	-14.9157
媢	-14.9157
屺	-14.9157
怏	-14.9157
憪	-14.9157
扅	-14.9157
曚	-14.9157
楤	-14.9157
碯	-14.9157
碔	-14.9158
硎	-14.9159
砆	-14.916
灉	-14.9161
櫃	-14.9162
榷	-14.9163
枒	-14.9164
凓	-14.9165
晫	-14.9165
旡	-14.9165
芨	-14.9165
徬	-14.9166
巃	-14.9167
嵸	-14.9168
嵕	-14.9169
嵋	-14.917
崈	-14.9171
塿	-14.9172
㟑	-14.9173
䲔	-14.9173
券	-14.9173
楗	-14.9173
哽	-14.9173
呻	-14.9174
劂	-14.9175
剞	-14.9176
䥶	-14.9177
䤵	-14.9178
䔾	-14.9179
䓘	-14.918
㨨	-14.9181
䅖	-14.9181
儜	-14.9181
呶	-14.9181
墠	-14.9181
墡	-14.9181
嬿	-14.9181
桱	-14.9181
㴩	-14.9181
齬	-14.9182
齟	-14.9183
鍍	-14.9184
躇	-14.9185
跏	-14.9186
贇	-14.9187
諄	-14.9188
䂥	-14.9189
嗑	-14.9189
圡	-14.9189
岊	-14.9189
廏	-14.9189
棻	-14.9189
蟪	-14.9189
蟋	-14.919
蟀	-14.9191
蛄	-14.9192
薴	-14.9193
蒒	-14.9194
茼	-14.9195
艻	-14.9196
聦	-14.9197
糢	-14.9198
篣	-14.9199
筡	-14.92
禰	-14.9201
畟	-14.9202
璛	-14.9203
璁	-14.9204
濰	-14.9205
㡡	-14.9205
䰂	-14.9205
埳	-14.9205
滹	-14.9206
湑	-14.9207
淼	-14.9208
槵	-14.9209
梈	-14.921
摐	-14.9211
愐	-14.9212
徜	-14.9213
內	-14.9214
嫿	-14.9214
娬	-14.9214
嚶	-14.9215
嘖	-14.9216
嘒	-14.9217
䔄	-14.9218
䍥	-14.9219
䆉	-14.922
㕮	-14.9221
􁘩	-14.9222
􁘨	-14.9223
鸑	-14.9224
鬅	-14.9225
駙	-14.9226
醾	-14.9227
躊	-14.9228
蹁	-14.9229
囏	-14.923
姶	-14.923
惸	-14.923
蜴	-14.923
蘝	-14.9231
薞	-14.9232
薘	-14.9233
葧	-14.9234
絪	-14.9235
琇	-14.9236
獷	-14.9237
䱂	-14.9238
䱄	-14.9238
䱮	-14.9238
䲀	-14.9238
䲄	-14.9238
彜	-14.9238
猢	-14.9238
欓	-14.9239
朦	-14.924
旰	-14.9241
慇	-14.9242
徨	-14.9243
徕	-14.9244
廧	-14.9245
崆	-14.9246
峥	-14.9247
宧	-14.9248
娩	-14.9249
呦	-14.925
倖	-14.9251
􁡯	-14.9252
𥻘	-14.9253
鵪	-14.9254
鰂	-14.9255
邾	-14.9256
蜥	-14.9257
蕓	-14.9258
臚	-14.9259
箊	-14.926
筀	-14.9261
睥	-14.9262
猻	-14.9263
抓	-14.9264
憧	-14.9265
幪	-14.9266
崢	-14.9267
嬙	-14.9268
噰	-14.9269
柅	-14.927
喎	-14.927
鴞	-14.9271
驎	-14.9272
蟕	-14.9273
苢	-14.9274
箖	-14.9275
痘	-14.9276
牂	-14.9277
䱗	-14.9278
桕	-14.9278
摵	-14.9279
唧	-14.928
仔	-14.9281
䍦	-14.9282
鷙	-14.9283
鴝	-14.9284
頲	-14.9285
靃	-14.9286
薖	-14.9287
茘	-14.9288
翌	-14.9289
珧	-14.929
珞	-14.9291
瀲	-14.9292
沌	-14.9293
櫞	-14.9294
惚	-14.9295
痃	-14.9296
燉	-14.9297
魫	-14.9298
駸	-14.9299
鄠	-14.93
謖	-14.9301
橝	-14.9302
蜈	-14.9302
蚣	-14.9303
礴	-14.9304
磾	-14.9305
癤	-14.9306
瘰	-14.9307
瑇	-14.9308
昺	-14.9309
媫	-14.931
妤	-14.9311
咱	-14.9312
㛹	-14.9313
𣏌	-14.9314
駘	-14.9315
轤	-14.9316
薢	-14.9317
磅	-14.9318
皤	-14.9319
榠	-14.932
鶒	-14.9321
鄜	-14.9322
蜻	-14.9323
瓈	-14.9324
狻	-14.9325
颻	-14.9326
轆	-14.9327
輞	-14.9328
藒	-14.9329
洳	-14.933
榅	-14.9331
桲	-14.9332
朓	-14.9333
鷥	-14.9334
顇	-14.9335
菠	-14.9336
琊	-14.9337
湲	-14.9338
櫰	-14.9339
喈	-14.934
顦	-14.9341
韆	-14.9342
㽅	-14.9343
鞦	-14.9343
蕒	-14.9344
膀	-14.9345
胱	-14.9346
紜	-14.9347
糵	-14.9348
嶸	-14.9349
驀	-14.935
酩	-14.9351
酊	-14.9352
邂	-14.9353
蚯	-14.9354
唵	-14.9355
叭	-14.9356
蝙	-14.9357
啻	-14.9358
䔿	-14.9359
煬	-14.936
逌	-14.9361
砢	-14.9362
琶	-14.9363
毿	-14.9364
蜘	-14.9365
蛺	-14.9366
踟	-14.9367
萵	-14.9368
雘	-14.9369
蹰	-14.937
玻	-14.9371
饅	-14.9372
緲	-14.9373
逡	-14.9374
婷	-14.9375
夤	-14.9376
娉	-14.9377
簹	-14.9378
瑙	-14.9379
鸝	-14.938
颼	-14.9381
熳	-14.9382
匆	-14.9383
鵡	-14.9384
旖	-14.9385
逍	-14.9386
躑	-14.9387
憔	-14.9388
迢	-14.9389
窕	-14.939
苜	-14.9391
鴣	-14.9392
翛	-14.9393
蝴	-14.9394
惆	-14.9395
璃	-14.9396
茯	-14.9397
醿	-14.9398
婐	-14.9399
嫇	-14.9399
酴	-14.9399
