<unk>	0
<s>	0
</s>	0
之	-3.92134
以	-4.78246
為	-4.90141
有	-4.91427
其	-4.95682
而	-5.01704
曰	-5.03312
人	-5.04241
也	-5.0781
不	-5.09232
者	-5.14183
/	-5.19744
一	-5.27153
於	-5.30622
(	-5.35673
中	-5.38034
)	-5.43871
至	-5.57929
上	-5.61741
大	-5.64409
王	-5.65399
子	-5.65803
出	-5.65941
無	-5.69136
自	-5.69265
公	-5.7166
所	-5.77438
與	-5.7757
時	-5.78291
見	-5.78661
乃	-5.78701
云	-5.8726
此	-5.87598
言	-5.91196
事	-5.94641
在	-5.95346
得	-5.97249
後	-5.98674
如	-5.99421
行	-6.00593
生	-6.01684
皆	-6.02233
山	-6.04255
亦	-6.04533
則	-6.05911
州	-6.0674
又	-6.08811
相	-6.09941
日	-6.11109
矣	-6.11938
文	-6.13793
名	-6.15908
官	-6.16244
下	-6.16843
書	-6.17872
及	-6.18852
道	-6.19752
入	-6.20397
因	-6.22064
知	-6.22249
遂	-6.22937
是	-6.23021
即	-6.23045
三	-6.23236
然	-6.23308
令	-6.26449
家	-6.2694
作	-6.29188
天	-6.30682
于	-6.32003
可	-6.32765
水	-6.32924
)(	-6.33202
李	-6.33977
來	-6.36032
方	-6.36184
將	-6.38037
當	-6.38183
謂	-6.38649
去	-6.38827
復	-6.39546
前	-6.39832
今	-6.39842
使	-6.40432
故	-6.40904
已	-6.43266
二	-6.43647
多	-6.44766
年	-6.44941
何	-6.47024
門	-6.47824
聞	-6.48648
張	-6.49054
爲	-6.49862
甚	-6.50059
長	-6.50232
命	-6.52163
君	-6.53162
欲	-6.53486
字	-6.54757
國	-6.5592
若	-6.574
明	-6.57655
非	-6.57711
石	-6.58436
元	-6.59197
白	-6.59787
常	-6.60384
死	-6.62817
用	-6.63144
未	-6.6345
神	-6.64751
歸	-6.6501
居	-6.66124
臣	-6.66653
成	-6.67006
我	-6.67149
同	-6.67438
問	-6.68404
女	-6.68896
金	-6.69189
安	-6.70287
初	-6.70504
▁	-6.71491
馬	-6.72801
能	-6.73248
先	-6.74506
取	-6.75175
四	-6.75935
世	-6.76099
從	-6.76137
南	-6.76993
正	-6.77193
食	-6.77812
焉	-6.79123
經	-6.79215
嘗	-6.79691
語	-6.79931
既	-6.8004
數	-6.80329
五	-6.80616
小	-6.80871
地	-6.81699
吾	-6.81778
必	-6.83878
西	-6.84016
耳	-6.84214
東	-6.85597
間	-6.86636
唐	-6.86718
或	-6.87759
心	-6.88007
士	-6.88039
請	-6.89026
且	-6.90028
處	-6.90938
朝	-6.91006
乎	-6.91664
風	-6.92304
城	-6.92348
意	-6.9247
坐	-6.92633
異	-6.92898
過	-6.9373
氏	-6.9479
師	-6.9489
平	-6.94979
詩	-6.95212
善	-6.9549
劉	-6.96057
本	-6.96208
帝	-6.96505
諸	-6.96773
龍	-6.97372
盡	-6.98056
立	-6.98906
主	-6.99446
少	-6.99516
夜	-6.99586
軍	-6.99865
玉	-7.00798
髙	-7.00886
雖	-7.01148
僧	-7.0165
陳	-7.01871
舉	-7.02652
外	-7.02681
起	-7.02899
求	-7.02958
法	-7.04443
還	-7.04702
重	-7.04858
兩	-7.05451
物	-7.05674
色	-7.0646
衣	-7.06784
宗	-7.06915
陽	-7.07645
身	-7.07977
府	-7.0814
老	-7.0835
始	-7.08364
記	-7.08796
不可	-7.08841
北	-7.09295
客	-7.0958
清	-7.10012
内	-7.10206
酒	-7.10738
聲	-7.11164
頭	-7.11703
黄	-7.12017
縣	-7.1284
光	-7.15067
武	-7.16456
好	-7.16464
禮	-7.16672
兵	-7.16712
民	-7.17641
進	-7.17802
萬	-7.17831
傳	-7.18023
父	-7.18119
古	-7.18504
稱	-7.18577
思	-7.18722
雲	-7.19072
錢	-7.1969
九	-7.2008
吏	-7.20142
周	-7.2049
應	-7.20538
但	-7.21103
都	-7.21244
氣	-7.21266
忽	-7.21312
召	-7.21324
以為	-7.21391
江	-7.21725
學	-7.22143
通	-7.22661
樂	-7.23086
百	-7.24196
汝	-7.24358
木	-7.2484
等	-7.25158
便	-7.25186
不能	-7.25222
每	-7.25441
深	-7.25826
直	-7.26096
觀	-7.26832
花	-7.27451
開	-7.2749
目	-7.27618
青	-7.27658
獨	-7.27771
夫	-7.28109
月	-7.28465
實	-7.29058
止	-7.29176
親	-7.29995
更	-7.3018
首	-7.30427
卒	-7.30862
謝	-7.31674
發	-7.31704
流	-7.31787
拜	-7.31836
郡	-7.32112
手	-7.32154
近	-7.3239
定	-7.32796
卿	-7.3296
論	-7.3321
太	-7.33716
徳	-7.33782
許	-7.33825
奏	-7.3387
合	-7.34101
致	-7.34134
果	-7.34516
往	-7.34747
分	-7.3526
義	-7.35443
孫	-7.35609
遇	-7.35868
志	-7.3598
寺	-7.36358
舊	-7.36642
宋	-7.36766
對	-7.3689
漢	-7.37381
失	-7.37616
夢	-7.37799
疾	-7.38369
華	-7.38554
服	-7.38691
别	-7.38728
守	-7.38916
望	-7.39132
六	-7.39188
真	-7.39234
爾	-7.3974
草	-7.3983
引	-7.40155
母	-7.40192
火	-7.40569
㑹	-7.40771
新	-7.41963
司	-7.42477
聖	-7.42795
任	-7.43359
某	-7.43615
海	-7.44039
和	-7.44274
持	-7.44339
凡	-7.44352
楊	-7.44486
史	-7.44553
林	-7.4462
逺	-7.44873
堂	-7.45188
殿	-7.45277
衆	-7.45335
宫	-7.45401
魚	-7.46105
向	-7.4641
次	-7.46549
信	-7.46549
惟	-7.46605
路	-7.4679
病	-7.46871
卷	-7.47582
絶	-7.48064
置	-7.48082
賜	-7.48363
録	-7.4875
力	-7.49185
伯	-7.49522
宣	-7.49774
理	-7.49797
受	-7.50342
留	-7.509
易	-7.50912
章	-7.51214
妻	-7.5165
十	-7.5186
口	-7.52234
具	-7.52305
終	-7.52686
集	-7.5278
餘	-7.53193
趙	-7.53318
猶	-7.5344
河	-7.53964
就	-7.54134
視	-7.54207
興	-7.54401
奉	-7.54729
載	-7.54819
辭	-7.55034
天下	-7.5521
極	-7.55407
足	-7.5541
廣	-7.55854
才	-7.56535
告	-7.56664
音	-7.56705
兒	-7.56763
八	-7.56909
隨	-7.57175
節	-7.57235
素	-7.57247
七	-7.57336
春	-7.57355
著	-7.57398
殺	-7.574
制	-7.57511
景	-7.57629
尚	-7.57934
郎	-7.58093
靈	-7.58109
解	-7.58119
豈	-7.58338
呼	-7.58432
固	-7.58476
美	-7.58933
賢	-7.59009
似	-7.59575
里	-7.59733
第	-7.60131
顧	-7.6027
仲	-7.60482
試	-7.60673
室	-7.60841
喜	-7.60886
祖	-7.60888
號	-7.61692
登	-7.61703
梁	-7.61947
耶	-7.62097
難	-7.62202
曰此	-7.62705
一日	-7.6286
議	-7.63238
如此	-7.63269
香	-7.63342
度	-7.63553
飛	-7.63747
容	-7.64008
遣	-7.64313
畫	-7.64433
鬼	-7.64658
詔	-7.64852
嵗	-7.64856
延	-7.65411
治	-7.65514
飲	-7.65808
晉	-7.65953
送	-7.66211
宜	-7.66747
陵	-7.66775
封	-7.66993
忠	-7.67199
徐	-7.67308
遺	-7.67481
朱	-7.67859
報	-7.68103
千	-7.68143
臨	-7.6829
蜀	-7.68388
遊	-7.6842
唯	-7.6862
性	-7.68654
臺	-7.69033
執	-7.69369
廟	-7.69382
獻	-7.69758
益	-7.69805
説	-7.69863
雨	-7.70109
鄭	-7.70457
崔	-7.70459
韓	-7.70733
貴	-7.71464
院	-7.71477
盛	-7.71625
詞	-7.71906
精	-7.71921
牛	-7.72059
虎	-7.72144
笑	-7.72236
土	-7.72434
左	-7.72447
驚	-7.72534
到	-7.72583
余	-7.72599
仙	-7.72875
𤣥	-7.73092
形	-7.73096
修	-7.73373
皇	-7.73564
亡	-7.73845
政	-7.74278
恐	-7.74314
省	-7.74355
建	-7.7441
孝	-7.74548
/)	-7.74629
共	-7.74672
京	-7.74811
各	-7.74892
仁	-7.74896
悉	-7.74916
願	-7.75718
田	-7.76067
改	-7.76138
藥	-7.7616
幸	-7.76325
魏	-7.76344
並	-7.76779
敬	-7.76872
不得	-7.7696
俱	-7.76999
位	-7.77024
厚	-7.77026
樹	-7.77224
功	-7.77227
罪	-7.773
車	-7.7754
德	-7.77584
授	-7.77614
面	-7.77748
由	-7.77848
叔	-7.78423
表	-7.78452
適	-7.78958
不知	-7.79163
頗	-7.79409
業	-7.8064
疑	-7.80822
先生	-7.80822
被	-7.81257
識	-7.81291
代	-7.81305
落	-7.81561
吳	-7.81764
指	-7.81851
胡	-7.82322
不敢	-7.82376
除	-7.82857
宿	-7.82862
左右	-7.83418
久	-7.83442
齊	-7.83477
詣	-7.84032
夏	-7.84171
說	-7.8432
舟	-7.84431
葉	-7.84626
圖	-7.84631
比	-7.8471
加	-7.84834
賊	-7.84951
御	-7.85023
哉	-7.85182
器	-7.85183
市	-7.85198
鳥	-7.8562
羅	-7.8587
覺	-7.8589
筆	-7.8589
謂之	-7.86042
亂	-7.86195
尋	-7.86728
末	-7.86977
注	-7.87314
狀	-7.8809
教	-7.88298
動	-7.88356
蘇	-7.8837
莫	-7.88375
交	-7.8866
尚書	-7.88908
苦	-7.89064
半	-7.8918
承	-7.89185
曰吾	-7.89283
宅	-7.89513
空	-7.89797
於是	-7.89822
来	-7.90414
罷	-7.90535
懼	-7.9064
寳	-7.91001
闕	-7.91037
畢	-7.91084
侍	-7.91116
造	-7.91185
化	-7.91198
野	-7.91664
竹	-7.91674
杜	-7.91724
情	-7.91867
甲	-7.92103
赤	-7.92335
隂	-7.92411
怪	-7.92727
投	-7.92831
計	-7.9297
放	-7.92985
曹	-7.93125
體	-7.93152
姓	-7.93337
竟	-7.93458
怒	-7.93955
竒	-7.94155
羣	-7.9439
恩	-7.94458
秦	-7.94489
屬	-7.94645
曲	-7.94871
歌	-7.94891
高	-7.94902
他	-7.95041
昔	-7.95849
題	-7.96441
庭	-7.96761
婦	-7.96904
有一	-7.96941
降	-7.97075
俗	-7.97158
伏	-7.97177
設	-7.97361
右	-7.9743
再	-7.97433
鎮	-7.97612
列	-7.97671
滿	-7.9775
僕	-7.97869
賦	-7.98184
乞	-7.98409
走	-7.98648
工	-7.98674
夫人	-7.98706
而去	-7.98871
中有	-7.98913
變	-7.99009
佛	-7.99048
謁	-7.99124
須	-7.99135
昌	-7.99146
韋	-7.99638
部	-8.00146
福	-8.0027
紫	-8.00305
永	-8.00345
惡	-8.00447
舍	-8.0056
利	-8.00709
符	-8.00767
蛇	-8.00818
亭	-8.00982
勝	-8.01114
良	-8.0132
備	-8.01397
弟	-8.01518
蓋	-8.01534
盧	-8.01562
連	-8.01775
尤	-8.01993
陸	-8.02211
退	-8.02337
反	-8.0287
職	-8.02949
遷	-8.03679
珠	-8.03748
藏	-8.03772
秋	-8.04196
閣	-8.05288
端	-8.05517
盖	-8.06297
屋	-8.06339
崇	-8.06501
獲	-8.06759
寒	-8.06892
𩔖	-8.0736
念	-8.07427
侯	-8.07464
感	-8.07912
誠	-8.08387
彦	-8.08446
散	-8.08681
愛	-8.08848
嚴	-8.0902
負	-8.09115
全	-8.09222
監	-8.09364
破	-8.09367
權	-8.09673
咸	-8.09721
要	-8.10153
肉	-8.10591
害	-8.10652
輕	-8.1075
迎	-8.10854
昭	-8.11596
特	-8.11605
温	-8.11678
儀	-8.11717
越	-8.12297
樓	-8.12369
期	-8.12689
考	-8.12815
微	-8.12946
推	-8.12981
率	-8.13192
兄	-8.13582
富	-8.13818
嘉	-8.14029
泉	-8.14248
紀	-8.14413
追	-8.14475
急	-8.15101
博	-8.15161
丹	-8.15239
友	-8.15308
醉	-8.15839
歲	-8.15931
轉	-8.16208
濟	-8.16302
慶	-8.16341
郭	-8.16822
休	-8.16827
遽	-8.17358
愈	-8.17525
曾	-8.17612
房	-8.1762
池	-8.17633
術	-8.17897
待	-8.1805
簡	-8.18457
道士	-8.18486
布	-8.18543
否	-8.18548
葢	-8.18741
存	-8.18784
避	-8.19163
憂	-8.1918
約	-8.19311
累	-8.19446
宴	-8.19511
毛	-8.19838
彼	-8.19841
予	-8.20092
朝廷	-8.20152
羊	-8.20393
納	-8.20646
輩	-8.20659
達	-8.2096
燕	-8.21093
案	-8.21217
却	-8.21424
積	-8.2168
訪	-8.21708
兼	-8.21767
談	-8.21849
齋	-8.2194
范	-8.22171
郭曰	-8.22521
骨	-8.22566
裴	-8.22974
蔡	-8.23006
雜	-8.23391
薦	-8.2346
尺	-8.23848
康	-8.23859
杖	-8.24046
夕	-8.24159
私	-8.24314
楚	-8.2443
選	-8.24638
乗	-8.24683
無所	-8.24748
冠	-8.24986
移	-8.25244
曰我	-8.25418
保	-8.25486
收	-8.25573
席	-8.25759
壁	-8.25879
偶	-8.26105
寧	-8.26137
船	-8.26178
斷	-8.26243
吕	-8.26244
獄	-8.26286
巳	-8.26417
回	-8.26464
賞	-8.26518
英	-8.26671
敢	-8.26686
懐	-8.26817
帶	-8.27061
族	-8.27127
斯	-8.27165
赴	-8.27279
撰	-8.27495
紅	-8.27521
鳴	-8.2765
息	-8.27653
幾	-8.27732
沈	-8.27855
尾	-8.28019
謀	-8.2804
角	-8.28054
邑	-8.28081
丁	-8.28294
館	-8.28471
窮	-8.28735
傷	-8.28745
仍	-8.29169
籍	-8.29187
典	-8.29196
衛	-8.29481
可以	-8.29564
騎	-8.29564
澤	-8.29946
曽	-8.29994
而已	-8.30008
鄉	-8.30008
贈	-8.30044
差	-8.30099
雪	-8.30419
養	-8.30479
索	-8.30541
雷	-8.30689
丞相	-8.30816
離	-8.30852
禁	-8.3093
候	-8.30988
不復	-8.31012
未嘗	-8.31104
户	-8.31277
原	-8.31286
季	-8.31393
巨	-8.31394
敗	-8.31395
幽	-8.3141
讀	-8.31626
戒	-8.31765
升	-8.32225
視之	-8.32257
明日	-8.32646
免	-8.32951
洛	-8.33073
奴	-8.33134
天子	-8.33306
徃	-8.33583
進士	-8.338
戲	-8.33804
象	-8.34114
毎	-8.34177
寢	-8.3425
帥	-8.34353
責	-8.34404
患	-8.34405
二十	-8.3441
尊	-8.34543
邊	-8.34644
婦人	-8.34777
后	-8.34808
資	-8.34967
之後	-8.35028
誰	-8.35061
一人	-8.35151
雅	-8.35302
數十	-8.35409
輒	-8.35465
枝	-8.35475
虚	-8.35501
儒	-8.35613
依	-8.35929
宰相	-8.35998
不見	-8.36013
妾	-8.36047
吉	-8.36053
其事	-8.36089
貧	-8.36146
妙	-8.36226
結	-8.36249
稍	-8.36265
歴	-8.36411
徒	-8.36584
二人	-8.36777
申	-8.36875
孟	-8.37263
顔	-8.37292
陛下	-8.37374
照	-8.37711
誤	-8.37802
而不	-8.37823
寸	-8.37914
薄	-8.38077
繼	-8.3809
翁	-8.38141
釋	-8.38335
勢	-8.38517
井	-8.38757
句	-8.38812
最	-8.38928
側	-8.39001
像	-8.39013
充	-8.39068
假	-8.39114
犬	-8.39208
浮	-8.39355
誅	-8.39546
婢	-8.39891
莊	-8.40029
泣	-8.40139
其家	-8.40215
按	-8.40267
刀	-8.4028
曉	-8.40284
射	-8.40301
祠	-8.40346
血	-8.40605
𨼆	-8.4072
歳	-8.40839
姑	-8.4092
希	-8.40925
堅	-8.40956
覆	-8.41077
乆	-8.41372
人也	-8.41654
運	-8.41674
廢	-8.41701
步	-8.41781
阿	-8.4179
殊	-8.41939
棄	-8.42538
折	-8.42558
邪	-8.42615
領	-8.4263
孔	-8.42667
三年	-8.42683
夀	-8.42804
雄	-8.42914
榮	-8.42961
勿	-8.4313
哀	-8.43344
園	-8.43471
并	-8.43472
蕭	-8.43485
所以	-8.4369
松	-8.43894
賈	-8.43941
川	-8.43995
刻	-8.44001
其人	-8.4405
墓	-8.44135
聽	-8.44177
科	-8.44322
威	-8.44328
數日	-8.44555
村	-8.44576
二年	-8.44699
接	-8.44703
夷	-8.44755
游	-8.44875
太宗	-8.44931
智	-8.45041
貢	-8.45477
寄	-8.4577
錄	-8.45777
竊	-8.45935
星	-8.45983
畏	-8.46121
㫖	-8.46268
察	-8.46378
切	-8.46399
給	-8.46448
商	-8.46457
垂	-8.46458
衡	-8.46585
漸	-8.46592
俊	-8.46637
紙	-8.46708
背	-8.46817
恨	-8.46834
施	-8.46939
亦不	-8.46957
所謂	-8.46966
恭	-8.46981
御史	-8.47124
司馬	-8.47332
丈	-8.47779
滅	-8.4788
逸	-8.47886
顯	-8.48082
葬	-8.48171
救	-8.48248
洞	-8.48288
虞	-8.48708
擊	-8.48919
甘	-8.4902
忘	-8.4911
隱	-8.49153
惠	-8.49175
𫝊	-8.49177
銀	-8.49363
獸	-8.49409
龜	-8.497
丘	-8.49723
看	-8.49726
乾	-8.49785
寶	-8.50092
種	-8.50095
質	-8.50149
冬	-8.50169
逢	-8.50198
細	-8.5054
尹	-8.5054
只	-8.50652
驗	-8.50728
既而	-8.50903
侍郎	-8.51
調	-8.51079
對曰	-8.51098
任臣案	-8.51357
駕	-8.51605
秀	-8.51631
露	-8.5167
其後	-8.5179
撫	-8.5184
味	-8.51942
湯	-8.52045
甫	-8.52288
腹	-8.52413
孤	-8.52465
宻	-8.52602
童	-8.52792
曰某	-8.52864
烏	-8.53094
述	-8.53169
學士	-8.53364
沙	-8.53366
雞	-8.53547
營	-8.53623
谷	-8.53921
溪	-8.53981
戰	-8.54218
掌	-8.54227
旦	-8.54491
惜	-8.54635
聚	-8.54687
早	-8.54803
歎	-8.54933
乘	-8.55074
附	-8.55314
逐	-8.55389
有人	-8.55505
佐	-8.55577
薛	-8.55609
悟	-8.55908
麗	-8.5599
卧	-8.56061
州刺史	-8.56397
痛	-8.56454
祭	-8.56558
貫	-8.5664
禍	-8.56666
嗣	-8.56728
暴	-8.56804
刺	-8.56836
將軍	-8.57017
盤	-8.5748
墨	-8.57664
黑	-8.57723
犯	-8.57945
管	-8.58049
買	-8.58154
程	-8.58168
雙	-8.5828
岸	-8.58466
略	-8.58557
洪	-8.58591
見之	-8.58709
己	-8.5885
京師	-8.59307
聞之	-8.5934
尉	-8.59342
厯	-8.59948
之所	-8.5998
務	-8.60156
牀	-8.60293
湖	-8.60543
印	-8.6076
妄	-8.60778
今日	-8.60781
塵	-8.60877
哭	-8.60936
曰汝	-8.61192
賀	-8.61212
貞	-8.61351
長安	-8.61705
其所	-8.61716
栁	-8.61752
肅	-8.61973
扵	-8.61977
鐵	-8.62252
敏	-8.6226
太守	-8.62355
見一	-8.62561
家人	-8.62663
座	-8.62682
羽	-8.62776
醫	-8.62945
貌	-8.63063
碑	-8.63399
刑	-8.63433
穆	-8.63584
宇	-8.63592
屈	-8.63728
穴	-8.6385
篇	-8.63894
條	-8.63923
苑	-8.6414
憲	-8.64174
太子	-8.64176
誦	-8.64211
鍾	-8.64236
謹	-8.6426
鼓	-8.6431
序	-8.64558
預	-8.64672
狐	-8.65107
熟	-8.65148
品	-8.6525
勞	-8.65289
輔	-8.65494
示	-8.65576
班	-8.65716
名曰	-8.65834
殺之	-8.65922
皮	-8.66059
陶	-8.66295
詳	-8.66322
源	-8.66373
續	-8.66398
校	-8.66449
太祖	-8.66643
豐	-8.66686
據	-8.66693
啓	-8.66697
燭	-8.66715
旁	-8.66798
庶	-8.66835
機	-8.67247
殷	-8.67264
徑	-8.67354
當時	-8.67538
住	-8.67783
慮	-8.67995
泰	-8.68054
蒙	-8.68219
順	-8.68289
環	-8.68451
銅	-8.68454
判	-8.6847
其子	-8.68695
了	-8.68723
毒	-8.68896
佳	-8.6927
横	-8.69334
辨	-8.6935
覽	-8.69352
震	-8.69362
吟	-8.69379
悲	-8.69557
茂	-8.69697
仕	-8.69754
跡	-8.69784
履	-8.69815
畧	-8.69919
三十	-8.70021
十二	-8.70069
茶	-8.70237
淮	-8.70282
役	-8.70348
䇿	-8.7071
米	-8.70822
辟	-8.70936
歡	-8.70958
於此	-8.70963
呉	-8.70964
三日	-8.70968
財	-8.71025
勤	-8.71034
壽	-8.71087
歩	-8.71134
暮	-8.71468
鹿	-8.71519
敵	-8.71811
叟	-8.71816
祥	-8.72029
久之	-8.72165
講	-8.72214
與之	-8.72259
黨	-8.72411
縱	-8.72716
旣	-8.72823
自是	-8.73161
魯	-8.73339
眼	-8.73363
繫	-8.73432
祐	-8.73516
詩曰	-8.7352
食之	-8.73609
詩云	-8.73651
委	-8.73803
鼎	-8.73931
供	-8.73954
人皆	-8.74263
馳	-8.74517
淵	-8.74599
碧	-8.74646
由是	-8.7472
橋	-8.74769
辛	-8.7485
短	-8.74876
之事	-8.74895
斗	-8.74988
兄弟	-8.75054
密	-8.7506
託	-8.75112
知其	-8.75157
時人	-8.75549
付	-8.75801
伐	-8.76051
翼	-8.76054
波	-8.7617
桓	-8.76174
君子	-8.76527
十餘	-8.76644
元年	-8.76682
喪	-8.7737
圍	-8.77512
答曰	-8.77518
笑曰	-8.77547
問之	-8.77567
曰君	-8.77651
翰	-8.77711
飾	-8.78
編	-8.78001
亮	-8.78002
賣	-8.7813
妖	-8.78203
韻	-8.78241
抱	-8.78254
習	-8.78375
賔	-8.78401
堯	-8.78575
仰	-8.78698
參	-8.78701
干	-8.78791
棺	-8.78831
何以	-8.79277
黒	-8.79346
勸	-8.79456
辰	-8.79716
舞	-8.79794
階	-8.79836
諫	-8.79928
鶴	-8.80072
捕	-8.80195
根	-8.80231
話	-8.80235
關	-8.80447
戎	-8.80486
午	-8.80579
亦有	-8.80752
强	-8.80843
琴	-8.80941
牧	-8.80994
以此	-8.81005
招	-8.81078
丞	-8.81103
不及	-8.81173
燒	-8.81209
及第	-8.81215
百餘	-8.8126
揚	-8.81564
支	-8.81781
境	-8.82217
速	-8.82224
盜	-8.8234
會	-8.82345
有所	-8.82463
馮	-8.82579
檢	-8.82682
五十	-8.8277
十年	-8.82883
錦	-8.83005
上有	-8.83005
律	-8.83038
巖	-8.83083
宰	-8.83201
桑	-8.83233
蘭	-8.83257
潛	-8.83608
旋	-8.83664
危	-8.83725
齒	-8.8374
舎	-8.83753
詠	-8.83757
桃	-8.8384
幕	-8.83873
奔	-8.83961
傍	-8.84007
鄰	-8.84512
得一	-8.84546
鏡	-8.84658
朕	-8.84917
珍	-8.85089
征	-8.85168
採	-8.85181
殆	-8.85183
卜	-8.85191
俄	-8.85744
絲	-8.85891
隆	-8.85922
亟	-8.85958
活	-8.8612
一時	-8.86168
岳	-8.86364
㣲	-8.86366
如是	-8.8643
須臾	-8.86759
倒	-8.86767
燈	-8.86776
巫	-8.86796
困	-8.86889
紹	-8.86935
庫	-8.87317
詢	-8.87579
補	-8.87698
晦	-8.87821
江南	-8.87825
豪	-8.87859
禄	-8.87909
欽定四庫全書	-8.87933
數百	-8.88019
四十	-8.88067
主人	-8.88124
姓名	-8.88347
振	-8.88632
㕔	-8.88668
懷	-8.88923
費	-8.89027
𢎞	-8.89072
優	-8.89165
塞	-8.89166
訖	-8.89169
大夫	-8.89184
揖	-8.89344
蒼	-8.89467
貶	-8.89568
頃	-8.89604
産	-8.89608
姚	-8.89866
驢	-8.89878
覩	-8.90011
慎	-8.90142
驛	-8.9015
唱	-8.90249
怨	-8.90279
巾	-8.90295
然後	-8.90456
麻	-8.90561
塗	-8.9058
晝	-8.90613
東坡	-8.90779
少年	-8.90867
脚	-8.91136
為人	-8.91295
禹	-8.91365
扶	-8.91392
訴	-8.91397
遍	-8.91403
舒	-8.91411
之言	-8.91452
愚	-8.91488
導	-8.91677
損	-8.92093
慈	-8.92122
狂	-8.92226
荒	-8.92272
皇帝	-8.92389
祈	-8.92519
闗	-8.92541
戴	-8.92684
閉	-8.92782
克	-8.9291
傾	-8.92956
父母	-8.9318
又曰	-8.93188
逆	-8.93212
攻	-8.93386
遭	-8.93387
平生	-8.93447
妓	-8.93524
助	-8.93531
趨	-8.93638
界	-8.93651
閒	-8.93776
柱	-8.93778
屢	-8.9378
祝	-8.93804
徵	-8.93942
之間	-8.93981
忌	-8.94061
不足	-8.94129
鹽	-8.9423
書曰	-8.94629
飯	-8.94686
寵	-8.94752
昇	-8.94802
貨	-8.94805
他日	-8.95011
郊	-8.95052
欽	-8.95091
臂	-8.95098
無不	-8.95143
奪	-8.95239
廷	-8.95254
又有	-8.95386
庾	-8.9555
審	-8.95653
統	-8.95701
總	-8.95758
文章	-8.95925
纔	-8.95958
使人	-8.96001
量	-8.96121
時有	-8.96136
至今	-8.96172
是也	-8.96206
謂曰	-8.96226
署	-8.96257
僚	-8.96388
坊	-8.96519
答	-8.96561
朔	-8.96832
輿	-8.96953
泥	-8.9699
荆	-8.97187
祀	-8.97411
影	-8.97439
允	-8.97536
烈	-8.97583
超	-8.97755
妃	-8.97838
蟲	-8.97977
眞	-8.9812
彈	-8.98152
墜	-8.98156
㸃	-8.98178
嶺	-8.9826
幼	-8.98483
肆	-8.98495
恒	-8.98507
屏	-8.98536
太尉	-8.9854
良久	-8.98594
得之	-8.98709
隋	-8.99063
晚	-8.99087
之山	-8.99095
明年	-8.9915
以爲	-8.99188
數年	-8.99193
男	-8.99195
毁	-8.99215
娶	-8.99227
而死	-8.99393
乙	-8.99541
寫	-8.99686
使者	-8.99688
操	-8.99689
製	-8.9984
如何	-8.99866
異記	-8.99924
吐	-8.99993
狗	-8.99999
寛	-9.00006
郎中	-9.00009
巡	-9.00109
見其	-9.00291
訓	-9.00555
弟子	-9.00685
子孫	-9.0074
知之	-9.00924
鳳	-9.00937
融	-9.0094
衰	-9.01038
𤣥宗	-9.01058
董	-9.0146
髪	-9.01805
判官	-9.0181
倫	-9.0195
焚	-9.01974
諭	-9.02125
藝	-9.02265
縁	-9.02273
嫁	-9.02295
牙	-9.02403
懸	-9.0244
錫	-9.0258
擇	-9.02599
人間	-9.02669
者皆	-9.0281
况	-9.03048
逹	-9.03061
材	-9.03062
春秋	-9.03065
俟	-9.03228
專	-9.03338
桂	-9.03381
其妻	-9.03574
千里	-9.03835
湘	-9.03868
爭	-9.04155
三百	-9.04167
茍	-9.0417
潔	-9.04178
伺	-9.04298
窺	-9.04474
囊	-9.04796
惑	-9.04973
兮	-9.05098
銜	-9.05267
嗟	-9.05285
鼻	-9.053
雍	-9.05429
争	-9.05463
鄧	-9.05783
十八	-9.05826
至於	-9.05862
獵	-9.05899
枕	-9.05928
打	-9.06105
眉	-9.06257
彌	-9.06259
緑	-9.06406
借	-9.06417
寓	-9.06428
采	-9.06715
脱	-9.06726
維	-9.06854
壯	-9.07017
甞	-9.07033
凝	-9.07071
遲	-9.07408
迹	-9.07707
慕	-9.07718
十五	-9.0778
没	-9.07843
提	-9.0791
相公	-9.08055
渡	-9.08163
中書	-9.08193
裏	-9.08238
僕射	-9.08243
吹	-9.08257
而卒	-9.08273
女子	-9.08405
倉	-9.08471
澄	-9.08605
介	-9.08672
寃	-9.08701
靖	-9.08711
黃	-9.08825
逃	-9.08845
有大	-9.0885
旬	-9.09289
疏	-9.09356
是時	-9.09447
舜	-9.09527
梅	-9.09576
公主	-9.09604
斬	-9.09642
戸	-9.09667
之子	-9.09745
玄	-9.09893
尸	-9.10005
公曰	-9.10148
大如	-9.10161
俄而	-9.10201
讓	-9.10244
諱	-9.10256
不然	-9.10285
稽	-9.10302
植	-9.1036
襄	-9.10388
悦	-9.1041
禪	-9.10448
宏	-9.10511
躍	-9.10522
競	-9.10558
問曰	-9.10615
昏	-9.10873
帖	-9.10884
太后	-9.11007
例	-9.11038
弗	-9.11043
劍	-9.11051
格	-9.11069
盈	-9.11212
傅	-9.11318
異之	-9.11362
沉	-9.11378
髮	-9.1141
廬	-9.11538
迴	-9.11539
返	-9.11559
彭	-9.11645
價	-9.11734
自此	-9.11827
一夕	-9.12149
擢	-9.12188
㝠	-9.12243
巧	-9.12255
莫不	-9.12275
裕	-9.12334
兆	-9.12361
沒	-9.12406
天地	-9.12407
蒲	-9.12441
晏	-9.12464
掘	-9.12562
僅	-9.12746
五年	-9.12919
抵	-9.13067
潤	-9.13087
瑞	-9.13089
掩	-9.13105
偽	-9.1311
帳	-9.13115
驅	-9.13125
榻	-9.13264
叙	-9.13277
厭	-9.13447
決	-9.13448
脩	-9.1347
第一	-9.1349
純	-9.13496
軒	-9.13605
俾	-9.13769
百姓	-9.14071
悔	-9.14144
堪	-9.14145
束	-9.14322
築	-9.14459
厲	-9.14485
敕	-9.14496
副	-9.14839
踰	-9.14866
頓	-9.14968
兹	-9.15023
占	-9.15027
小兒	-9.15307
相國	-9.15312
規	-9.15378
士人	-9.1553
辱	-9.15531
鳯	-9.15558
鮮	-9.15562
倚	-9.15569
飲酒	-9.15607
歎曰	-9.15637
徽	-9.15936
類	-9.16063
輙	-9.16271
圓	-9.16307
二百	-9.16409
鞭	-9.1644
翰林	-9.16549
弼	-9.16652
朗	-9.16653
局	-9.16839
寂	-9.16988
討	-9.17146
化為	-9.17185
辯	-9.1719
之士	-9.17231
讀書	-9.17311
墮	-9.17331
静	-9.17528
其中	-9.17672
爵	-9.17697
魂	-9.17711
神仙	-9.17837
之意	-9.17839
愧	-9.179
忍	-9.17918
将	-9.18081
邀	-9.18084
百里	-9.18167
防	-9.18255
敦	-9.18263
决	-9.18442
芳	-9.18459
四年	-9.18545
節度使	-9.18556
捨	-9.18631
徙	-9.18797
誣	-9.18962
效	-9.18988
相見	-9.19012
弓	-9.1914
壻	-9.19189
秀才	-9.1924
士大夫	-9.19272
劒	-9.19347
勉	-9.19361
竇	-9.1937
武帝	-9.19687
板	-9.19714
斤	-9.19736
帛	-9.19873
饌	-9.19919
暫	-9.19922
脫	-9.20095
翠	-9.20119
芝	-9.20134
往往	-9.2017
冀	-9.20303
謙	-9.20451
紹興	-9.20553
忽有	-9.2064
逼	-9.20662
叱	-9.20803
河南	-9.20841
躬	-9.20843
腰	-9.20847
謫	-9.2086
違	-9.21009
逰	-9.2101
擲	-9.21016
巢	-9.21039
門外	-9.21103
則天	-9.21161
儉	-9.21261
黙	-9.21287
幹	-9.21406
渠	-9.21483
牽	-9.2157
洲	-9.21595
觀之	-9.21671
剛	-9.21682
未有	-9.21695
八十	-9.21739
革	-9.21747
不如	-9.21865
十三	-9.21891
拒	-9.2198
子弟	-9.22036
開元	-9.22054
崖	-9.22172
配	-9.2229
詰	-9.22363
一名	-9.22425
未幾	-9.22511
殘	-9.22555
其父	-9.22662
而出	-9.22708
牒	-9.22721
含	-9.22893
偉	-9.23093
袁	-9.23099
途	-9.23107
漁	-9.23154
㡬	-9.23201
大臣	-9.23226
遵	-9.23532
循	-9.23863
至此	-9.23867
寜	-9.23886
東南	-9.2402
薨	-9.24073
穿	-9.24101
長史	-9.24179
誕	-9.24453
閑	-9.24647
勇	-9.24657
䕶	-9.24832
榜	-9.25047
蕃	-9.25075
十七	-9.25174
伊	-9.25216
擁	-9.25407
𣗳	-9.25638
襲	-9.25766
瓦	-9.25792
故事	-9.2581
晨	-9.25815
之際	-9.25847
不肯	-9.26018
者也	-9.2613
孔子	-9.26195
洗	-9.26229
盗	-9.264
一旦	-9.26485
徴	-9.26588
值	-9.26607
抑	-9.26632
牓	-9.26842
諸公	-9.26871
駭	-9.2696
籠	-9.26995
罵	-9.27037
其上	-9.27173
隔	-9.27183
枯	-9.27203
潘	-9.27218
鑿	-9.27396
婚	-9.27431
憐	-9.27443
大笑	-9.27499
洛陽	-9.27517
擒	-9.27604
六十	-9.27671
不同	-9.27746
茅	-9.27802
出酉陽	-9.27803
瞻	-9.27815
拂	-9.27826
仁宗	-9.27857
老人	-9.27897
孰	-9.28017
勒	-9.28202
浙	-9.2822
何如	-9.2824
所居	-9.28261
囚	-9.28386
杯	-9.28446
嘆	-9.28505
又云	-9.28576
邦	-9.28596
姦	-9.28596
秉	-9.28601
銘	-9.28626
此人	-9.28781
一作	-9.28795
禱	-9.28798
舅	-9.28816
擬	-9.28823
啟	-9.28858
簿	-9.28912
皆有	-9.29362
陰	-9.29449
縣令	-9.29479
岀	-9.29843
遜	-9.29862
榖	-9.29901
員	-9.29923
契	-9.3
洎	-9.30007
鑒	-9.30247
頂	-9.3026
有司	-9.30302
烟	-9.30433
聖人	-9.30465
數千	-9.30641
執政	-9.30728
從事	-9.30836
熱	-9.3106
彩	-9.31079
激	-9.31089
出入	-9.31109
停	-9.31269
寡	-9.31498
隅	-9.3171
鄙	-9.3171
晩	-9.31928
扣	-9.31956
以其	-9.32006
贊	-9.32126
寤	-9.3213
不覺	-9.32167
賓	-9.32214
絹	-9.32325
倍	-9.32376
也又	-9.32502
旅	-9.32529
貯	-9.32556
翌日	-9.32625
粉	-9.32768
雀	-9.32933
披	-9.32946
語曰	-9.33073
𥘉	-9.33159
荷	-9.3318
富貴	-9.3323
十六	-9.33306
碎	-9.33376
蠻	-9.33583
綱	-9.33591
磨	-9.33599
揮	-9.3374
譽	-9.33791
峻	-9.33828
姬	-9.33869
弱	-9.34421
姿	-9.34463
言之	-9.34497
所見	-9.34559
忽見	-9.34567
不識	-9.34785
䘮	-9.34883
底	-9.35072
岐	-9.35089
衞	-9.3509
卑	-9.35097
漏	-9.35099
塔	-9.35137
草木	-9.35145
問其	-9.35196
嫗	-9.35318
娘	-9.35377
太平	-9.35433
庚	-9.35566
柳	-9.35567
昨	-9.35724
其名	-9.35775
扇	-9.35779
汴	-9.35937
冷	-9.35974
秩	-9.36173
押	-9.36181
佩	-9.36197
壇	-9.36201
樞	-9.36203
何為	-9.36336
旱	-9.36388
赦	-9.3639
凌	-9.36398
觸	-9.36404
門下	-9.36511
匹	-9.36614
衫	-9.36623
熊	-9.36636
宮	-9.36639
誓	-9.36645
酬	-9.36648
庸	-9.3679
汗	-9.36821
貪	-9.36823
均	-9.36831
先是	-9.36842
禽	-9.3685
侍中	-9.36883
不為	-9.37012
偕	-9.37084
所在	-9.3713
丗	-9.37227
險	-9.37272
遠	-9.37289
相與	-9.37661
終不	-9.37671
丙	-9.37699
援	-9.37721
十四	-9.37772
前後	-9.3786
喚	-9.37901
簾	-9.37928
騰	-9.37929
安石	-9.37995
潭	-9.38163
粟	-9.38174
街	-9.38177
凶	-9.38356
曰卿	-9.38386
得其	-9.38443
奈何	-9.38486
五百	-9.38504
畜	-9.38596
箭	-9.3861
太原	-9.38805
山中	-9.3885
膏	-9.38854
主簿	-9.3893
西北	-9.38993
藩	-9.39041
黜	-9.39287
李公	-9.39328
王氏	-9.39379
州人	-9.39402
月餘	-9.39445
戚	-9.39468
厥	-9.3947
奇	-9.39511
徹	-9.39541
呼為	-9.39587
一百	-9.39755
大怒	-9.39777
刺史	-9.39856
竄	-9.39916
賛	-9.39942
嶽	-9.39971
埋	-9.39977
餅	-9.39998
享	-9.40164
状	-9.40178
筵	-9.40199
子也	-9.40269
數人	-9.40283
祖父	-9.40349
文字	-9.40363
虜	-9.40377
元祐	-9.40442
單	-9.40449
淚	-9.40454
取之	-9.40473
其言	-9.40517
再拜	-9.40533
尼	-9.40549
斥	-9.40627
普	-9.40644
社	-9.40649
四方	-9.40731
糧	-9.40855
下有	-9.40864
酉	-9.40877
戮	-9.4089
必有	-9.41062
成都	-9.41089
巴	-9.4113
店	-9.41142
之地	-9.41155
已而	-9.41175
逾	-9.41302
饑	-9.4131
竟不	-9.41325
睡	-9.4156
賤	-9.41578
豫	-9.41715
繁	-9.41753
減	-9.41784
以來	-9.41801
吏部	-9.41834
古人	-9.41879
二子	-9.41993
㓜	-9.42014
憶	-9.42016
暗	-9.42027
靡	-9.42028
邸	-9.42035
云此	-9.42121
諷	-9.42209
之則	-9.42295
姪	-9.42451
陷	-9.4271
鸞	-9.42716
不勝	-9.42757
其母	-9.42802
俯	-9.42931
淺	-9.42957
衙	-9.43125
爽	-9.43149
三月	-9.43171
削	-9.43173
有二	-9.4327
荆公	-9.43337
消	-9.43362
可謂	-9.43365
玩	-9.43403
阮	-9.43462
藉	-9.43627
耕	-9.43893
霜	-9.43894
廊	-9.44082
瘡	-9.44131
五六	-9.44183
言訖	-9.44192
吴	-9.44314
者亦	-9.44319
勲	-9.44327
枚	-9.44356
排	-9.44367
溺	-9.44569
不過	-9.44609
虛	-9.44612
猪	-9.4462
朋	-9.4482
薪	-9.4482
妹	-9.44859
段	-9.44871
七十	-9.45128
三人	-9.45352
無以	-9.45354
太常	-9.45439
河東	-9.45496
潜	-9.45555
譏	-9.45562
之時	-9.45653
五月	-9.45683
水出焉	-9.45892
其間	-9.45964
乳	-9.45967
鑄	-9.45988
鬚	-9.46256
之𩔖	-9.46487
探	-9.465
煩	-9.46514
練	-9.46724
額	-9.46742
瓊	-9.46749
肥	-9.46778
衣冠	-9.46815
然而	-9.46914
津	-9.46968
灰	-9.47022
愁	-9.47042
偏	-9.47473
几	-9.47498
旗	-9.47507
拾遺	-9.4753
或云	-9.47571
不知所	-9.47599
基	-9.47712
郎君	-9.47722
錯	-9.47737
勅	-9.47985
掃	-9.48024
婆	-9.48027
篆	-9.48036
日月	-9.48118
項	-9.48186
聴	-9.48205
整	-9.48209
汲	-9.48209
冦	-9.48242
災	-9.48432
邵	-9.48473
浪	-9.48484
鐘	-9.48488
侵	-9.48706
把	-9.48712
惶	-9.48732
毅	-9.4875
魁	-9.48756
萬里	-9.48756
風雨	-9.48862
逮	-9.4892
五色	-9.48949
隣	-9.48978
㑹稽	-9.49052
從之	-9.49127
叩	-9.4913
宛	-9.49174
髙祖	-9.49192
團	-9.49242
熈	-9.49411
荆州	-9.49421
恃	-9.49448
場	-9.49468
僉載	-9.49524
策	-9.4968
不已	-9.49681
繞	-9.49707
繩	-9.49728
魅	-9.49736
十餘年	-9.49765
之道	-9.49849
暑	-9.49944
捧	-9.5001
即位	-9.50049
𬒳	-9.50138
弊	-9.50198
擾	-9.50428
限	-9.50454
偃	-9.50462
寐	-9.50465
拔	-9.50479
何不	-9.50492
揚州	-9.505
袖	-9.50506
崩	-9.50514
遁	-9.50707
鴻	-9.50725
無人	-9.50886
泊	-9.50937
欺	-9.50951
輦	-9.50965
駐	-9.51201
渾	-9.51224
範	-9.51461
憤	-9.51465
渭	-9.51471
完	-9.51479
不食	-9.51561
狀如	-9.51636
蔣	-9.5169
疎	-9.51729
水中	-9.51916
上曰	-9.5195
緩	-9.51956
丸	-9.51959
慰	-9.51991
攝	-9.51995
七日	-9.5202
衣服	-9.52041
浩	-9.5224
毫	-9.52243
喻	-9.52259
令人	-9.52291
䑕	-9.52458
蕩	-9.52468
垣	-9.52488
霞	-9.52498
舌	-9.52536
數月	-9.52597
莫能	-9.52866
曠	-9.53026
正月	-9.53061
刃	-9.5325
旬日	-9.53367
許之	-9.53502
歟	-9.53508
攜	-9.53511
檀	-9.53512
訟	-9.53524
祕	-9.53534
式	-9.53634
甚多	-9.53689
齡	-9.53751
輪	-9.53759
如故	-9.53765
掠	-9.53778
謬	-9.53792
也今	-9.53801
嵩	-9.53864
用之	-9.53898
曰臣	-9.53919
○	-9.53922
臯	-9.54035
繡	-9.54088
缺	-9.54264
髙宗	-9.54285
叛	-9.54286
漆	-9.54314
究	-9.54349
際	-9.54508
爛	-9.5456
禦	-9.54562
摩	-9.54565
副使	-9.54819
裂	-9.55045
屍	-9.55057
諾	-9.55087
篤	-9.55094
拱	-9.55095
己見	-9.55096
矢	-9.55305
青衣	-9.55433
西南	-9.55478
飲食	-9.55505
農	-9.55546
介甫	-9.55596
軸	-9.55614
寅	-9.5562
慙	-9.55628
拘	-9.55638
氷	-9.55642
懿	-9.55661
割	-9.55667
亦無	-9.55672
國家	-9.55744
訝	-9.55892
染	-9.55911
桐	-9.55972
迨	-9.56168
煙	-9.56181
片	-9.56215
酷	-9.56406
涉	-9.56442
之上	-9.56562
増	-9.56648
遼	-9.56674
育	-9.56689
􁀙	-9.56739
網	-9.56929
而歸	-9.5694
泛	-9.56947
荀	-9.56949
真宗	-9.5695
珪	-9.57003
道人	-9.5702
中丞	-9.57169
誌	-9.57185
廵	-9.57189
腦	-9.57225
聞其	-9.57228
鬼神	-9.5729
司空	-9.57305
台	-9.57308
魏公	-9.57353
從容	-9.57512
匿	-9.57514
未知	-9.57631
拾	-9.57697
邁	-9.57769
壺	-9.57774
吞	-9.57791
雜俎	-9.57802
壊	-9.57993
犀	-9.58029
所得	-9.58038
軰	-9.58044
罰	-9.58052
淳	-9.5825
𡊮	-9.58283
囘	-9.58351
以示	-9.58391
七年	-9.5846
槐	-9.58533
洽	-9.58541
巷	-9.58577
蔽	-9.58579
饒	-9.58601
閩	-9.58613
書生	-9.588
無他	-9.58805
鼠	-9.58807
既至	-9.5881
舍人	-9.58819
快	-9.58821
靜	-9.58853
展	-9.58856
言其	-9.5891
魯公	-9.59087
擅	-9.59094
宦	-9.59098
叢	-9.59104
邉	-9.59135
織	-9.59137
匠	-9.59139
油	-9.59142
荅	-9.59331
呌	-9.59361
麥	-9.59371
爐	-9.59419
鱗	-9.59425
挈	-9.5944
王公	-9.59467
博士	-9.59556
李氏	-9.59576
丈夫	-9.59588
東北	-9.59607
酌	-9.59683
孺	-9.59764
翔	-9.59882
恕	-9.59943
濤	-9.59956
眀	-9.59958
翻	-9.59978
貴人	-9.60131
仗	-9.60151
柔	-9.60172
猛	-9.60187
汾	-9.60262
京兆	-9.60277
標	-9.60292
乏	-9.60462
料	-9.60505
掾	-9.60518
韶	-9.60545
袍	-9.60555
證	-9.60762
霧	-9.60766
亷	-9.60773
足下	-9.60789
墳	-9.60801
黎	-9.60826
而後	-9.60983
弄	-9.61039
呈	-9.61073
穢	-9.61086
鬻	-9.6109
瑩	-9.61091
往來	-9.61271
葛	-9.61298
者以	-9.61329
栢	-9.61357
言曰	-9.6138
不知其	-9.61511
十九	-9.61525
棲	-9.61587
天下之	-9.61592
曰公	-9.61609
此事	-9.61626
遥	-9.61646
六年	-9.6165
警	-9.61887
父子	-9.61888
藻	-9.61933
旌	-9.62193
着	-9.62232
督	-9.62365
搜	-9.6246
二十年	-9.62575
而無	-9.6263
竭	-9.62724
頻	-9.6277
太學	-9.62838
處士	-9.62838
自然	-9.62839
胥	-9.63005
不許	-9.63058
緡	-9.63091
自言	-9.63153
已見	-9.63211
炎	-9.63225
致仕	-9.63244
屠	-9.63309
隙	-9.63318
慧	-9.63342
餌	-9.63348
纂	-9.63348
嫌	-9.6337
寺僧	-9.63456
官至	-9.63512
政事	-9.63519
至于	-9.63568
至一	-9.63586
司徒	-9.63632
不欲	-9.63632
絳	-9.63669
因以	-9.63747
取其	-9.63751
然則	-9.63803
喬	-9.63898
怖	-9.63913
䖍	-9.6392
秘	-9.63979
曰若	-9.64034
陋	-9.64176
出於	-9.64179
狼	-9.64183
奮	-9.64185
響	-9.64194
蓬	-9.64238
之心	-9.6431
癸	-9.64481
鵲	-9.64528
之聲	-9.64563
冢	-9.64693
安得	-9.64717
卦	-9.64795
其下	-9.6481
淮南	-9.64843
大喜	-9.64861
嗜	-9.64982
出門	-9.64992
節度	-9.65039
頌	-9.6504
童子	-9.65064
閭	-9.65077
在此	-9.6508
姜	-9.65096
八月	-9.65101
蓮	-9.6529
元和	-9.65304
問其故	-9.65336
䖏	-9.65623
褒	-9.65637
併	-9.65649
或有	-9.65738
千餘	-9.65854
函	-9.6593
壬	-9.66213
翰林學士	-9.66253
之遂	-9.66284
旨	-9.66489
健	-9.66496
縛	-9.66514
峯	-9.66518
傑	-9.66529
醒	-9.66531
廉	-9.66541
鷹	-9.66755
駢	-9.66757
狀元	-9.66814
其意	-9.66816
倦	-9.66828
禁中	-9.66859
塲	-9.66873
遂以	-9.66976
想	-9.67124
如其言	-9.67252
恱	-9.67393
遣使	-9.67412
盃	-9.67419
促	-9.67434
傳曰	-9.6748
出朝野	-9.67624
有異	-9.67637
笏	-9.67689
挾	-9.67732
靣	-9.67741
妻子	-9.67866
之術	-9.67988
豆	-9.67994
捉	-9.68052
以手	-9.68079
禮部	-9.68096
無復	-9.68194
有此	-9.68272
辦	-9.68309
寘	-9.68336
東西	-9.68481
熙	-9.68591
乃以	-9.68593
徧	-9.68609
測	-9.68751
祚	-9.68873
而入	-9.68873
皆不	-9.68886
諧	-9.68898
裁	-9.68922
斛	-9.68934
賴	-9.68936
圗	-9.68953
戊	-9.68962
死者	-9.69053
文帝	-9.69148
訊	-9.69202
飄	-9.69212
恵	-9.69226
欵	-9.69231
麟	-9.69243
作詩	-9.69287
中國	-9.69462
屯	-9.69491
従	-9.69515
而行	-9.69529
盆	-9.69534
挽	-9.69534
空中	-9.69726
不至	-9.6976
嬰	-9.69766
明皇	-9.69811
邕	-9.69812
乆之	-9.69819
三四	-9.69829
蛟	-9.69884
閱	-9.70089
朴	-9.70132
罕	-9.70151
昆	-9.70151
迷	-9.70175
布衣	-9.70231
▁(	-9.70272
人有	-9.7042
契丹	-9.70439
出廣	-9.70473
裝	-9.70485
不相	-9.7058
有聲	-9.70751
媚	-9.70753
閲	-9.70756
又問	-9.70889
不合	-9.70905
號為	-9.70933
山下	-9.7101
凉	-9.7103
踐	-9.71043
古今	-9.71056
舘	-9.71091
十里	-9.71112
硯	-9.71115
而退	-9.71128
不與	-9.7134
耀	-9.71342
浴	-9.71365
頴	-9.71375
遐	-9.71391
本朝	-9.71407
何也	-9.71436
大驚	-9.71579
浦	-9.71706
以告	-9.71867
八年	-9.71881
宣和	-9.71887
或曰	-9.71945
焦	-9.71949
鄉里	-9.71954
釣	-9.72008
突	-9.72014
神宗	-9.72046
豹	-9.72257
皇后	-9.72264
㧞	-9.72266
指揮	-9.72297
俸	-9.72304
𦵏	-9.7232
廻	-9.72323
眠	-9.72344
豫章	-9.72362
數里	-9.72497
衍	-9.7258
換	-9.7259
漫	-9.72613
暇	-9.72706
懇	-9.72923
詐	-9.73202
牢	-9.73244
苗	-9.73267
菜	-9.73275
陣	-9.73499
揺	-9.73571
灌	-9.73574
圃	-9.73604
卓	-9.73871
峰	-9.73899
鬱	-9.7391
邢	-9.7415
趣	-9.74166
枉	-9.7417
挺	-9.74225
緒	-9.74246
衢	-9.74471
跳	-9.74518
冥	-9.74541
鄴	-9.74546
涕	-9.74756
頸	-9.74831
評	-9.75159
抗	-9.75169
梨	-9.7522
卵	-9.75783
炙	-9.75834
諌	-9.76139
姊	-9.76152
亥	-9.76155
株	-9.76465
島	-9.76468
腸	-9.76482
璟	-9.76498
冊	-9.76737
淫	-9.76771
勾	-9.76772
鴈	-9.76805
柄	-9.77098
渚	-9.77432
矜	-9.77443
鑑	-9.77473
創	-9.77721
澗	-9.77745
它	-9.77767
㳺	-9.77823
斃	-9.78066
況	-9.78068
疋	-9.7807
播	-9.78117
祿	-9.78124
羞	-9.78459
喫	-9.7847
雕	-9.78767
算	-9.78777
劾	-9.79062
夾	-9.79103
潮	-9.79154
壞	-9.794
璧	-9.79412
裹	-9.79413
輟	-9.79457
齎	-9.7946
嶠	-9.79461
忿	-9.8007
勃	-9.80089
丑	-9.80101
綵	-9.80137
跪	-9.8014
床	-9.80436
膝	-9.8045
儼	-9.80455
閤	-9.80543
掖	-9.80779
忤	-9.80809
繇	-9.81092
乖	-9.81094
壓	-9.81101
眷	-9.81103
肯	-9.81117
阻	-9.81172
寇	-9.81431
包	-9.81818
肩	-9.81819
𨽻	-9.82155
厨	-9.82179
恥	-9.82187
狄	-9.82447
漕	-9.82475
搆	-9.82478
𤓰	-9.82491
仆	-9.82516
斜	-9.82539
淡	-9.82551
粒	-9.82569
廡	-9.828
奕	-9.82824
褐	-9.82826
伸	-9.82851
截	-9.82884
紛	-9.8317
訣	-9.8321
綿	-9.83234
綽	-9.83238
聰	-9.8337
飽	-9.83534
賂	-9.83539
滑	-9.83544
絃	-9.83546
甕	-9.83546
𥙷	-9.83549
強	-9.83558
爪	-9.83863
憚	-9.83882
緋	-9.83937
棗	-9.83956
那	-9.8401
群	-9.84261
聘	-9.84267
償	-9.84271
揆	-9.84282
謗	-9.84559
斧	-9.84587
憑	-9.84642
皷	-9.8483
斫	-9.84953
劇	-9.84956
侈	-9.84959
低	-9.85287
戈	-9.85314
嘲	-9.85322
箇	-9.85334
寮	-9.85344
梓	-9.85345
謨	-9.85349
吿	-9.85359
毋	-9.8536
坡	-9.85541
弔	-9.85667
緣	-9.85672
啼	-9.85683
輸	-9.8569
羲	-9.85701
瘞	-9.85713
属	-9.85997
宵	-9.86033
批	-9.86037
億	-9.86047
捷	-9.86055
亞	-9.86347
膺	-9.86358
歛	-9.86376
什	-9.86385
恣	-9.86401
醜	-9.86415
姥	-9.86441
勘	-9.86747
俞	-9.8678
莖	-9.86787
仇	-9.86815
措	-9.87094
戍	-9.87106
艱	-9.87428
閻	-9.87442
鋒	-9.87477
沮	-9.87483
貽	-9.87841
姻	-9.87853
𧰼	-9.87874
淑	-9.88178
烹	-9.88198
暢	-9.88209
霄	-9.88213
皓	-9.88231
脂	-9.88252
傲	-9.88257
㕘	-9.88577
綺	-9.88579
蓄	-9.88581
雉	-9.88622
汁	-9.88876
鈎	-9.88922
喧	-9.88925
刼	-9.88926
騐	-9.88937
浸	-9.8896
筠	-9.88972
邈	-9.89277
棊	-9.8928
鼔	-9.89329
冲	-9.89669
朽	-9.89673
戯	-9.90073
蔵	-9.90404
斂	-9.90438
鈞	-9.9047
飢	-9.90795
殯	-9.90822
濕	-9.90829
呵	-9.9084
冡	-9.91123
僉	-9.91153
伍	-9.91182
墻	-9.912
幅	-9.91238
鋪	-9.91261
泗	-9.91537
驟	-9.91556
咨	-9.91574
塟	-9.91609
娥	-9.91643
彊	-9.91653
儲	-9.91927
替	-9.91928
蒸	-9.91943
伴	-9.91946
坦	-9.91972
呪	-9.9198
粧	-9.92013
淹	-9.92282
穀	-9.92303
涇	-9.92305
互	-9.92306
箱	-9.92332
冩	-9.92345
逝	-9.92375
迫	-9.92667
鎭	-9.92771
恠	-9.93098
樊	-9.93098
禧	-9.9316
樵	-9.93164
陜	-9.93171
叅	-9.93306
咎	-9.93431
鉉	-9.93433
牆	-9.93457
猴	-9.93473
剖	-9.93488
寨	-9.93828
衝	-9.93831
筮	-9.93841
汚	-9.93956
猿	-9.94246
煮	-9.94248
専	-9.94266
溢	-9.9428
映	-9.94309
棠	-9.94696
誥	-9.95006
柴	-9.95043
緘	-9.95048
績	-9.95078
湛	-9.95402
汪	-9.95408
霍	-9.95425
棘	-9.95433
猫	-9.95436
裔	-9.95439
滋	-9.95441
笛	-9.95451
渉	-9.9584
隴	-9.96099
塘	-9.96162
奚	-9.96223
觴	-9.96228
鷄	-9.96249
煎	-9.96281
邱	-9.9661
霽	-9.9662
楷	-9.96643
昉	-9.96657
酣	-9.96898
肇	-9.97008
滯	-9.97042
蜂	-9.97057
聊	-9.97435
拳	-9.97437
媪	-9.97451
態	-9.97801
膳	-9.97847
罔	-9.98202
虵	-9.9827
陟	-9.98272
遙	-9.98277
譚	-9.98599
零	-9.98647
鬭	-9.98654
杭	-9.98708
恪	-9.9899
爰	-9.99451
耆	-9.99459
携	-9.99461
縷	-9.99471
滄	-9.99478
逵	-9.99525
晴	-9.99817
狎	-9.99867
厄	-9.99868
牌	-9.99871
謔	-9.99874
札	-9.99887
瑶	-9.99888
稚	-10.0023
括	-10.0027
諡	-10.0027
溝	-10.0028
覲	-10.0028
鞍	-10.0028
粲	-10.0028
祗	-10.0029
帷	-10.003
艾	-10.0031
軌	-10.0032
雌	-10.0033
甥	-10.0033
裳	-10.0064
勑	-10.007
坑	-10.0072
偷	-10.0074
障	-10.0109
驕	-10.011
混	-10.0112
嘯	-10.0113
骸	-10.0114
紗	-10.0118
暉	-10.0146
郷	-10.0151
涼	-10.0152
煥	-10.0152
牘	-10.0155
綠	-10.0156
粥	-10.016
俠	-10.0225
輝	-10.0235
療	-10.024
炭	-10.028
剪	-10.0284
匡	-10.0318
豕	-10.0322
昧	-10.0323
竿	-10.0323
随	-10.0327
闢	-10.036
数	-10.0361
圭	-10.0362
祁	-10.0365
贍	-10.0365
劄	-10.0411
厠	-10.0411
慢	-10.0448
誡	-10.045
臥	-10.0451
緯	-10.0452
觧	-10.049
距	-10.0493
瓶	-10.0495
協	-10.0535
莽	-10.054
譜	-10.054
踈	-10.0541
阜	-10.0581
沃	-10.0582
係	-10.0583
綴	-10.0585
蘓	-10.0624
敎	-10.0624
握	-10.0626
滕	-10.0629
疊	-10.0666
鏁	-10.0666
贖	-10.067
膽	-10.0671
慘	-10.0672
曙	-10.0674
檄	-10.0711
售	-10.0712
駿	-10.0714
誘	-10.0715
穎	-10.0716
梧	-10.0719
䧟	-10.0754
簷	-10.0757
臭	-10.0758
髯	-10.08
裘	-10.0802
栗	-10.0803
箕	-10.0806
䕫	-10.0807
収	-10.0846
勵	-10.0846
的	-10.0848
伶	-10.0889
儻	-10.0892
潰	-10.0893
漿	-10.0895
羙	-10.0895
隻	-10.0896
彬	-10.0926
昻	-10.0932
較	-10.0934
㫁	-10.0936
顛	-10.0937
戌	-10.0938
瓌	-10.0948
愍	-10.098
寔	-10.0982
帽	-10.0982
刋	-10.0982
誨	-10.0983
禾	-10.0983
叚	-10.0983
笞	-10.0985
慟	-10.0985
稷	-10.0985
糞	-10.099
鼈	-10.1026
鐡	-10.1028
児	-10.1029
股	-10.1029
灑	-10.1031
奢	-10.1031
貝	-10.1034
護	-10.1072
孜	-10.1072
湜	-10.1073
貲	-10.1076
璋	-10.1077
填	-10.1081
域	-10.1111
械	-10.1118
𨕖	-10.1121
髻	-10.1122
沂	-10.1125
泄	-10.1164
赫	-10.1165
歐	-10.1165
䜟	-10.1165
彰	-10.1169
呂	-10.1171
僻	-10.121
濁	-10.1257
啖	-10.1261
滴	-10.1265
蜜	-10.127
攸	-10.1303
踵	-10.1306
奠	-10.1307
侮	-10.1308
卯	-10.1309
凢	-10.1348
誼	-10.1352
欄	-10.1354
効	-10.1356
跨	-10.1356
慚	-10.1356
涯	-10.1357
確	-10.1359
斑	-10.14
托	-10.1401
檻	-10.1402
番	-10.1404
盟	-10.1406
釵	-10.1411
謚	-10.1411
闔	-10.1448
版	-10.1451
僖	-10.1451
卞	-10.1452
翊	-10.1491
柯	-10.1495
峽	-10.1496
哲	-10.1496
鄂	-10.1496
洋	-10.1501
屑	-10.1541
矯	-10.1543
繪	-10.1547
增	-10.155
裙	-10.155
釘	-10.1551
璞	-10.1589
丐	-10.1592
敷	-10.1592
岡	-10.1593
㝷	-10.1593
衮	-10.1597
蟻	-10.1639
針	-10.164
亨	-10.1641
鳩	-10.1643
壑	-10.1643
纎	-10.1644
霸	-10.1647
禺	-10.1651
酸	-10.1652
般	-10.1654
砂	-10.1689
虹	-10.169
蹤	-10.1691
冕	-10.1691
詆	-10.1691
羮	-10.1698
濫	-10.1737
閽	-10.1741
踏	-10.1742
曇	-10.1743
蹄	-10.179
蘆	-10.1792
模	-10.1834
沛	-10.1839
紳	-10.1841
層	-10.1842
冒	-10.1842
龎	-10.1843
詭	-10.1846
撥	-10.1887
潁	-10.189
婁	-10.189
蹇	-10.189
癡	-10.1891
璽	-10.1893
䟽	-10.1931
奄	-10.1938
魄	-10.1939
訛	-10.1983
噐	-10.1986
茫	-10.1992
冶	-10.1993
㸔	-10.1993
倡	-10.1993
塜	-10.1993
鵠	-10.1994
黍	-10.2032
妨	-10.2034
輅	-10.2036
庵	-10.2037
粗	-10.2042
冰	-10.2045
磬	-10.2088
咽	-10.2088
湏	-10.209
募	-10.209
窟	-10.2092
添	-10.2092
兖	-10.2093
瑟	-10.2093
膚	-10.2139
杏	-10.214
哥	-10.2141
梵	-10.2142
電	-10.2144
鄒	-10.2144
姨	-10.2145
藍	-10.2187
肝	-10.219
皂	-10.2196
沸	-10.2196
羡	-10.2196
翟	-10.2197
餉	-10.2198
鞠	-10.2237
皎	-10.2242
篋	-10.2248
鯉	-10.2248
脉	-10.229
泌	-10.2292
翺	-10.2292
贓	-10.2294
摧	-10.2294
縮	-10.2298
犢	-10.2299
竦	-10.2302
拯	-10.2344
縑	-10.2347
貸	-10.2348
壘	-10.2349
盞	-10.2349
暖	-10.2351
胸	-10.24
膠	-10.2401
贄	-10.2402
摘	-10.2402
悼	-10.2404
猷	-10.2406
佞	-10.2449
傭	-10.2454
攀	-10.2454
襟	-10.2457
欣	-10.2479
濶	-10.2507
區	-10.2509
两	-10.2511
疆	-10.2551
悅	-10.2554
你	-10.2555
㦸	-10.2557
翅	-10.2557
胎	-10.2558
伎	-10.2558
耗	-10.2562
倅	-10.2566
甄	-10.2613
燃	-10.2614
晁	-10.2615
研	-10.2617
竈	-10.2618
軀	-10.2664
液	-10.2666
擔	-10.2666
兔	-10.2667
沾	-10.2668
敘	-10.2668
轡	-10.2715
歇	-10.2718
伽	-10.2719
様	-10.2721
庖	-10.2723
槩	-10.2725
溫	-10.2737
冝	-10.2767
濬	-10.2768
曜	-10.2772
架	-10.2775
溥	-10.2776
綬	-10.2776
幘	-10.2776
勁	-10.2777
藤	-10.2777
鎖	-10.2781
沆	-10.2786
歷	-10.2829
蟬	-10.2829
戱	-10.283
跋	-10.283
幡	-10.2833
詹	-10.2833
怡	-10.2835
荘	-10.2879
怠	-10.2884
課	-10.2885
掛	-10.2885
祜	-10.2887
饋	-10.2887
級	-10.2888
蹈	-10.2938
恤	-10.2938
嬪	-10.2941
巻	-10.2943
聨	-10.2946
藁	-10.2947
淨	-10.2993
菴	-10.2993
棟	-10.2995
吁	-10.2998
匣	-10.3
柩	-10.3002
核	-10.3003
騷	-10.3051
虐	-10.3053
簫	-10.3053
狹	-10.3057
寝	-10.3102
畋	-10.3104
耿	-10.3105
宸	-10.3106
罹	-10.3109
駱	-10.3111
臘	-10.3113
凍	-10.3159
做	-10.316
頼	-10.3161
凖	-10.3161
疫	-10.3165
認	-10.3166
演	-10.3173
幣	-10.3218
曼	-10.3219
臧	-10.3219
譴	-10.3219
蔓	-10.3221
誇	-10.3223
乂	-10.3232
扈	-10.3271
鵝	-10.3273
撲	-10.3277
暨	-10.3279
蟠	-10.3279
沿	-10.3279
抽	-10.328
搏	-10.3282
恬	-10.3283
橘	-10.3293
迄	-10.3336
戀	-10.334
沖	-10.3344
貟	-10.3388
賄	-10.339
湧	-10.3392
郵	-10.3393
鍊	-10.3394
悵	-10.3397
炳	-10.3397
軟	-10.3397
碩	-10.3399
餓	-10.3447
佑	-10.3449
毬	-10.3452
畔	-10.3452
蔬	-10.3454
註	-10.346
藪	-10.3509
筋	-10.3563
牖	-10.3563
藴	-10.3564
闈	-10.3569
紿	-10.3571
竅	-10.3572
狸	-10.3622
禀	-10.3624
麈	-10.3624
逕	-10.3626
堦	-10.3627
闊	-10.3628
妬	-10.3629
舁	-10.363
夭	-10.3633
曳	-10.3634
抄	-10.3636
顒	-10.3642
胄	-10.3681
漂	-10.3681
銓	-10.3684
腐	-10.3684
譙	-10.3685
隊	-10.3686
森	-10.3688
陪	-10.3688
悶	-10.3689
牋	-10.3695
袋	-10.3701
庠	-10.374
䝉	-10.3744
泚	-10.3745
鞫	-10.3746
殂	-10.3747
柏	-10.3748
浚	-10.3749
擕	-10.3749
濵	-10.3749
濯	-10.3749
夙	-10.375
躡	-10.3751
唾	-10.3755
矩	-10.3802
飼	-10.3807
喉	-10.3809
鴨	-10.381
炬	-10.381
灼	-10.381
閔	-10.3812
夘	-10.3816
禇	-10.3865
沐	-10.3867
飬	-10.3867
汙	-10.3869
梟	-10.387
醮	-10.3871
貎	-10.3872
芒	-10.3874
琳	-10.3875
軾	-10.3929
邠	-10.3932
陂	-10.3935
忝	-10.3935
琰	-10.3985
孕	-10.3988
壤	-10.3989
堆	-10.399
瀆	-10.399
郁	-10.3991
殁	-10.3991
捜	-10.3993
脯	-10.3993
兎	-10.3993
䑓	-10.3993
甌	-10.3994
嵇	-10.3994
禳	-10.3994
彪	-10.3996
貳	-10.4048
椒	-10.405
遮	-10.4052
鐸	-10.4052
俛	-10.4053
宥	-10.4054
僞	-10.4103
撃	-10.411
畿	-10.4111
疲	-10.4116
檜	-10.4116
梯	-10.4118
綸	-10.412
窓	-10.4121
恢	-10.4172
惇	-10.4172
麾	-10.4174
羸	-10.4174
减	-10.4176
睦	-10.4178
濡	-10.4178
捐	-10.418
艶	-10.4187
謡	-10.4236
瑜	-10.4236
賫	-10.424
邇	-10.424
淪	-10.4241
窠	-10.4241
窻	-10.4241
奥	-10.4242
諒	-10.4243
瘦	-10.4244
㨗	-10.4244
蠶	-10.425
摭	-10.4268
辜	-10.4298
脊	-10.4301
彛	-10.4302
褥	-10.4303
衾	-10.4308
線	-10.4362
勣	-10.4363
噬	-10.4366
肌	-10.4366
楮	-10.4366
琦	-10.4367
愼	-10.4367
疇	-10.4367
噉	-10.4368
雋	-10.4369
鬛	-10.437
蟹	-10.437
翫	-10.4371
撤	-10.4427
噫	-10.4429
茗	-10.443
憫	-10.4431
筭	-10.4431
奸	-10.4433
熾	-10.4437
綜	-10.4439
稻	-10.4441
隐	-10.4495
拆	-10.4497
鱠	-10.4501
僮	-10.4507
稅	-10.4552
鮑	-10.4553
旻	-10.4555
奬	-10.4556
籬	-10.4558
催	-10.4558
腥	-10.4562
挍	-10.4562
聳	-10.4562
撓	-10.4562
墟	-10.4563
虬	-10.4564
濮	-10.4565
隸	-10.4568
悽	-10.4622
脅	-10.4622
稼	-10.4624
鈔	-10.4624
鬬	-10.4628
侃	-10.463
紋	-10.463
馴	-10.4682
陞	-10.4683
廼	-10.4687
構	-10.4687
吠	-10.4688
婺	-10.4689
遶	-10.4691
弘	-10.4692
枷	-10.4692
郢	-10.4692
岑	-10.4694
羌	-10.4698
鬢	-10.4698
韜	-10.4704
鉅	-10.4754
絡	-10.4756
戾	-10.4758
析	-10.4759
媿	-10.4761
坤	-10.4762
梳	-10.4763
覘	-10.4818
芻	-10.4822
鏤	-10.4823
欠	-10.4823
毗	-10.4826
豎	-10.4827
鉢	-10.4827
杞	-10.483
頥	-10.4832
殻	-10.4833
綏	-10.4886
婉	-10.4888
詬	-10.4889
餞	-10.489
忻	-10.4893
該	-10.4895
笙	-10.4895
朶	-10.4895
琛	-10.4953
囑	-10.4954
塊	-10.4955
滌	-10.4957
䕃	-10.4957
鉞	-10.4958
霖	-10.4958
蔚	-10.4959
鎬	-10.4959
搖	-10.496
縫	-10.4962
拭	-10.4963
蚤	-10.4963
訥	-10.4966
睿	-10.5002
亶	-10.5019
螺	-10.5028
蠟	-10.5032
悠	-10.5032
躁	-10.5032
鈴	-10.5093
匪	-10.5094
庇	-10.5095
狩	-10.5097
弩	-10.5098
袂	-10.5099
菊	-10.51
諤	-10.5159
蝶	-10.5161
冨	-10.5162
寥	-10.5163
渴	-10.5163
恚	-10.5165
喙	-10.5165
吼	-10.5165
敝	-10.5167
毆	-10.5167
窘	-10.5168
筯	-10.5169
銷	-10.5169
榆	-10.517
牟	-10.5175
瑤	-10.5211
郝	-10.522
悴	-10.5228
釐	-10.523
炊	-10.5231
奎	-10.5235
闇	-10.5235
蕪	-10.5235
蹙	-10.5236
潞	-10.5273
控	-10.5299
稜	-10.53
渥	-10.53
浄	-10.5303
籙	-10.5303
㓂	-10.5305
醴	-10.5305
豁	-10.5306
箸	-10.5307
敞	-10.537
讐	-10.5372
懽	-10.5372
販	-10.5376
揭	-10.5378
曵	-10.5379
汎	-10.5441
痕	-10.5443
轍	-10.5443
杳	-10.5443
廓	-10.5445
綾	-10.5447
攘	-10.5447
椀	-10.5448
吝	-10.5449
卻	-10.5449
覔	-10.545
璫	-10.5454
栖	-10.5512
粹	-10.5515
孚	-10.5516
縳	-10.5517
透	-10.552
亢	-10.5522
瀛	-10.5524
葵	-10.5525
媒	-10.5528
迅	-10.5583
璠	-10.5584
漳	-10.5587
岩	-10.5588
馭	-10.5591
餐	-10.5595
陀	-10.5595
閬	-10.5597
頲	-10.56
臻	-10.5652
扉	-10.5657
坎	-10.566
憇	-10.5661
誚	-10.5662
掲	-10.5663
怯	-10.5667
柰	-10.5668
頷	-10.5669
俶	-10.5671
駒	-10.5734
惻	-10.5735
埃	-10.5735
瓜	-10.5736
聶	-10.574
瞿	-10.574
繆	-10.5803
鑾	-10.5806
僊	-10.5806
蠱	-10.5807
憩	-10.5807
瑾	-10.5808
籌	-10.5809
拙	-10.5809
扁	-10.5812
𧖟	-10.5814
萊	-10.5837
昶	-10.5871
兇	-10.5873
畝	-10.588
漠	-10.5881
齧	-10.5882
煖	-10.5882
啜	-10.5885
苖	-10.5887
浣	-10.5888
鵰	-10.5888
準	-10.5942
蠅	-10.5949
廨	-10.595
倪	-10.5952
楹	-10.5953
慿	-10.5954
稹	-10.5956
廂	-10.5956
弦	-10.5956
芬	-10.5959
乍	-10.596
堵	-10.6026
鴟	-10.6028
幻	-10.603
殞	-10.6031
挂	-10.6032
稀	-10.6032
債	-10.6033
技	-10.6034
摶	-10.6035
洒	-10.6035
灘	-10.6036
劵	-10.6038
税	-10.61
遏	-10.6105
黔	-10.6106
軫	-10.6109
詵	-10.611
谿	-10.6112
煇	-10.6168
闐	-10.6178
潼	-10.6183
愴	-10.6183
遞	-10.6184
彘	-10.6188
悰	-10.6189
鶯	-10.6194
吸	-10.6254
虢	-10.6256
覓	-10.6259
葺	-10.6259
咄	-10.626
侣	-10.626
倖	-10.6261
簪	-10.6262
牲	-10.6264
鑰	-10.6264
虧	-10.6332
僣	-10.6337
羈	-10.6338
悸	-10.6339
剥	-10.634
繒	-10.634
抛	-10.6341
豚	-10.6341
愷	-10.6342
驪	-10.6344
嫉	-10.6344
陛	-10.6393
濃	-10.6418
薰	-10.6419
羔	-10.6422
翹	-10.6423
航	-10.6434
惋	-10.6492
翳	-10.6493
曩	-10.6493
倘	-10.6495
孩	-10.6496
頰	-10.6496
醋	-10.6497
牝	-10.6499
瑣	-10.6548
苔	-10.6565
涓	-10.6573
袒	-10.6574
胷	-10.6576
踞	-10.6576
鳬	-10.6581
祟	-10.6581
琯	-10.6594
臆	-10.6647
租	-10.6648
隘	-10.6649
唇	-10.6653
醇	-10.6654
別	-10.6654
寕	-10.6654
悍	-10.6655
舶	-10.6655
㢘	-10.6657
撻	-10.6662
㡌	-10.6663
愕	-10.67
頒	-10.6732
燼	-10.6732
縈	-10.6733
沽	-10.6733
慄	-10.6734
麄	-10.6734
嚮	-10.6737
种	-10.6739
蘄	-10.6803
弁	-10.681
洩	-10.6817
漲	-10.6819
夸	-10.6819
劣	-10.682
騶	-10.682
央	-10.682
凱	-10.6821
憾	-10.6821
拍	-10.6821
漬	-10.6824
憎	-10.6824
煉	-10.6887
瓘	-10.6891
玠	-10.6892
儔	-10.6893
鵬	-10.6895
煬	-10.6898
苐	-10.69
陌	-10.6902
槖	-10.6903
茵	-10.6905
竺	-10.6965
禎	-10.6975
礪	-10.6976
准	-10.6977
琪	-10.6979
噪	-10.698
這	-10.698
閨	-10.6986
奩	-10.6986
麋	-10.6986
閹	-10.6987
敖	-10.6993
嘏	-10.6997
刹	-10.7061
睢	-10.7064
沼	-10.7064
氊	-10.7067
郗	-10.7072
葱	-10.7073
璘	-10.7078
悚	-10.7146
畨	-10.7146
倩	-10.7148
堤	-10.7149
顗	-10.715
皁	-10.7151
珣	-10.7153
匝	-10.7157
峴	-10.7158
譯	-10.7218
椽	-10.7227
煌	-10.723
塑	-10.7233
萃	-10.7235
盍	-10.7236
臠	-10.7237
夲	-10.724
靴	-10.7241
笥	-10.7243
滂	-10.7308
蹕	-10.7309
蘿	-10.7317
耽	-10.7318
鋭	-10.7318
叶	-10.732
爇	-10.7321
棹	-10.7322
旄	-10.7323
顥	-10.7324
倣	-10.7325
䟦	-10.7402
庻	-10.7403
騫	-10.7403
箠	-10.7403
愔	-10.7403
晋	-10.7404
騁	-10.7406
麤	-10.7406
貼	-10.7407
綃	-10.7408
簽	-10.7408
怕	-10.7409
簮	-10.7409
杵	-10.7411
湫	-10.7412
奈	-10.7467
琬	-10.748
琮	-10.7484
迦	-10.7485
垢	-10.7485
酋	-10.7487
瞑	-10.7489
拽	-10.7492
娠	-10.7492
翕	-10.7492
系	-10.75
絮	-10.7574
熒	-10.7575
悞	-10.7576
滔	-10.7578
悖	-10.7578
愿	-10.7578
頑	-10.7579
幄	-10.758
妍	-10.7581
霑	-10.7586
迪	-10.7586
耻	-10.7663
劫	-10.7665
櫃	-10.7665
現	-10.7667
佯	-10.7667
蝗	-10.7669
隷	-10.767
鄆	-10.7671
駝	-10.7674
諺	-10.7674
蠧	-10.7677
紂	-10.7678
勛	-10.7687
點	-10.7753
𥿄	-10.7754
釀	-10.7756
桞	-10.7756
霆	-10.7758
嫂	-10.7758
譬	-10.7758
軻	-10.776
澹	-10.776
匈	-10.7762
頊	-10.7762
麝	-10.7765
忙	-10.7772
殮	-10.7841
捫	-10.7843
捲	-10.7844
吻	-10.7845
懲	-10.7846
躭	-10.7847
祇	-10.7847
彥	-10.7849
馥	-10.785
揷	-10.7853
咏	-10.7854
燧	-10.7933
挑	-10.7935
鬟	-10.7936
拊	-10.7936
弋	-10.7936
稔	-10.7939
饗	-10.7939
纓	-10.7941
捶	-10.7941
濛	-10.7942
帑	-10.7942
雛	-10.7942
嬌	-10.7944
縊	-10.7944
懌	-10.7944
凋	-10.7947
叉	-10.7948
臼	-10.7949
禆	-10.8025
覃	-10.8026
奭	-10.8026
洙	-10.8027
訶	-10.8029
髭	-10.8029
啇	-10.8029
暝	-10.803
攫	-10.8032
礙	-10.8032
櫛	-10.8032
榴	-10.8033
賁	-10.8034
樽	-10.8035
巵	-10.8114
葦	-10.8116
峭	-10.8119
驩	-10.8122
琢	-10.8123
朂	-10.8124
翩	-10.8125
淄	-10.8126
􁁊	-10.8127
棋	-10.8132
脈	-10.8211
瑗	-10.8211
轅	-10.8212
鞏	-10.8212
駮	-10.8212
浹	-10.8214
詎	-10.8215
鉤	-10.822
掇	-10.822
貂	-10.822
蝦	-10.8223
顆	-10.83
壮	-10.8308
册	-10.8308
讎	-10.8308
鞋	-10.8309
絢	-10.8309
迥	-10.8309
瑀	-10.831
諦	-10.8311
拓	-10.8311
瀟	-10.8312
裸	-10.8312
晟	-10.8313
泠	-10.8315
迭	-10.8317
劭	-10.8317
攷	-10.832
旭	-10.8324
卽	-10.8399
蟾	-10.8401
龔	-10.8401
渙	-10.8401
邃	-10.8402
棒	-10.8402
釡	-10.8403
嚙	-10.8404
仞	-10.8405
侔	-10.8406
駞	-10.8406
潯	-10.8409
砌	-10.8409
杲	-10.8412
讌	-10.8412
錡	-10.8413
楓	-10.8422
觜	-10.8494
蛙	-10.8499
腫	-10.85
囂	-10.85
噴	-10.8502
娛	-10.8502
鎻	-10.8502
黥	-10.8503
芸	-10.8503
猥	-10.8503
恍	-10.8504
茹	-10.8505
剡	-10.8506
雁	-10.851
賚	-10.8592
尅	-10.8593
隠	-10.8595
亘	-10.8596
涎	-10.8598
徤	-10.8598
昀	-10.8599
裾	-10.8605
菌	-10.8606
珙	-10.8618
狡	-10.8688
忱	-10.8692
扄	-10.8694
旃	-10.8694
刁	-10.8695
蹟	-10.8696
亳	-10.8698
柟	-10.87
澆	-10.87
瞽	-10.8701
睛	-10.8705
昊	-10.8778
堰	-10.8791
巽	-10.8792
佇	-10.8794
衘	-10.8794
僭	-10.8794
罄	-10.8795
黿	-10.8795
娼	-10.8795
劔	-10.8796
蠡	-10.8796
甑	-10.8796
煑	-10.8798
墀	-10.88
迂	-10.8801
髓	-10.8888
濠	-10.8892
購	-10.8894
曺	-10.8894
䘏	-10.8897
譲	-10.8898
歿	-10.8898
碁	-10.89
叨	-10.8901
龕	-10.8991
薊	-10.8991
灾	-10.8992
髠	-10.8994
匕	-10.8996
餒	-10.8996
僥	-10.8997
琚	-10.8999
貺	-10.8999
屨	-10.9001
歙	-10.9002
諮	-10.9002
嘔	-10.9003
袴	-10.9003
轄	-10.9004
蚓	-10.9004
診	-10.9087
鹵	-10.9089
昂	-10.9097
駁	-10.9098
塚	-10.9098
鵞	-10.9099
瀝	-10.9099
嚢	-10.91
幃	-10.91
魔	-10.9101
頤	-10.9102
剌	-10.9102
眩	-10.9103
掣	-10.9103
驍	-10.9104
繹	-10.9105
尓	-10.9107
陁	-10.9107
銳	-10.9194
膾	-10.92
鐫	-10.9202
衲	-10.9203
囬	-10.9203
昱	-10.9203
昬	-10.9204
槽	-10.9204
舂	-10.9205
筒	-10.9205
擎	-10.9205
歆	-10.9207
轂	-10.9208
纒	-10.9209
複	-10.9217
郄	-10.9218
堡	-10.9293
証	-10.9293
釁	-10.9299
鶻	-10.93
赭	-10.9304
蚊	-10.9307
詈	-10.9308
卭	-10.931
綯	-10.9315
蹶	-10.9405
萌	-10.9407
桀	-10.9409
义	-10.941
盂	-10.941
邯	-10.9411
廩	-10.9421
黠	-10.9513
□	-10.9514
刪	-10.9516
惕	-10.9516
糜	-10.952
牡	-10.9521
繳	-10.9522
逞	-10.9522
僦	-10.9525
絕	-10.9527
荔	-10.9527
泳	-10.9532
岱	-10.9618
涸	-10.962
匱	-10.9621
喘	-10.9622
曄	-10.9624
亊	-10.9626
惱	-10.9627
劑	-10.9627
莭	-10.9628
孽	-10.9628
螫	-10.9629
叫	-10.9629
綰	-10.9631
獠	-10.9632
巍	-10.9632
廹	-10.9634
屐	-10.9635
闌	-10.9635
倐	-10.9708
頋	-10.9723
裒	-10.9724
汶	-10.973
鴿	-10.973
愜	-10.9732
需	-10.9733
厮	-10.9735
挫	-10.9735
澣	-10.9736
闋	-10.9739
肱	-10.9739
閏	-10.974
蛾	-10.9743
瓠	-10.9745
鑊	-10.983
辤	-10.9835
企	-10.9838
幞	-10.9842
砥	-10.9842
竪	-10.9843
瘠	-10.9845
愆	-10.9845
曷	-10.9846
睨	-10.9846
覧	-10.9848
蛤	-10.9848
帙	-10.9849
懦	-10.9849
淸	-10.985
鐺	-10.985
艷	-10.9851
沔	-10.9851
瑋	-10.9938
粮	-10.995
泓	-10.9951
矛	-10.9952
寖	-10.9953
贅	-10.9953
儋	-10.9954
焰	-10.9955
幢	-10.9955
嶷	-10.9958
遘	-10.9959
涵	-10.996
黼	-10.996
缾	-10.9961
蒨	-10.9972
瓢	-11.0057
肺	-11.0063
磚	-11.0064
脇	-11.007
嗤	-11.0071
撒	-11.0072
脛	-11.0072
滛	-11.0073
謐	-11.0073
僑	-11.0073
覿	-11.0082
恰	-11.0172
騾	-11.0175
玊	-11.0176
喝	-11.0178
潦	-11.0179
羨	-11.0181
苟	-11.0181
呻	-11.0184
啻	-11.0184
稠	-11.0185
鷂	-11.0186
謾	-11.0187
𡨕	-11.0189
榛	-11.0191
戩	-11.0284
煜	-11.0286
徼	-11.0287
郤	-11.0289
澶	-11.029
虺	-11.029
圉	-11.0291
訐	-11.0291
夣	-11.0293
爼	-11.0293
鏗	-11.0293
蚌	-11.0293
渇	-11.0293
俘	-11.0294
頽	-11.0295
驥	-11.0296
𤨏	-11.0296
帔	-11.0298
逓	-11.0298
衷	-11.0298
兠	-11.0301
笠	-11.0302
澧	-11.0302
邅	-11.0303
球	-11.0305
嚼	-11.0305
恂	-11.0308
縶	-11.0402
畆	-11.0403
稟	-11.0406
猩	-11.0408
酹	-11.0409
圎	-11.0409
匙	-11.0412
鈿	-11.0412
摹	-11.0412
澈	-11.0413
滁	-11.0414
蕙	-11.0414
戢	-11.0414
桶	-11.0415
鼉	-11.0416
鎔	-11.0417
逋	-11.0417
椎	-11.0418
䦨	-11.0418
姝	-11.042
兀	-11.0423
珮	-11.0424
虱	-11.0513
圜	-11.0522
耐	-11.0526
笈	-11.0527
鄜	-11.0527
壅	-11.0528
扼	-11.0529
嵬	-11.0529
丕	-11.0531
佚	-11.0532
笄	-11.0534
眇	-11.0535
忩	-11.0535
峕	-11.0536
肚	-11.0537
鳶	-11.0539
秃	-11.0539
洵	-11.0638
址	-11.0645
岷	-11.0646
梗	-11.0646
臟	-11.0646
盼	-11.0647
縦	-11.0648
努	-11.0649
繋	-11.065
晶	-11.0652
杪	-11.0653
癘	-11.0654
鴉	-11.0656
嬉	-11.0658
畱	-11.0659
覬	-11.076
珏	-11.076
黯	-11.0762
偈	-11.0764
儕	-11.0765
莘	-11.0766
啄	-11.0768
彷	-11.0769
柘	-11.0769
譁	-11.077
槃	-11.0771
俚	-11.0771
肘	-11.0772
幷	-11.0772
攬	-11.0774
螭	-11.0774
畵	-11.0774
迺	-11.0776
汰	-11.0777
塋	-11.0778
哂	-11.0779
覇	-11.0782
緫	-11.0879
瑕	-11.0886
犒	-11.0889
雇	-11.089
驃	-11.089
諳	-11.0891
㩦	-11.0891
眺	-11.0892
腕	-11.0892
讒	-11.0893
尖	-11.0893
縉	-11.0893
胃	-11.0894
斟	-11.0895
莢	-11.0899
嗔	-11.0899
燎	-11.0902
拄	-11.0903
襦	-11.0904
哈	-11.0906
㳂	-11.1006
觔	-11.1009
鷰	-11.101
箔	-11.1012
濱	-11.1013
紇	-11.1016
羿	-11.1016
鎰	-11.1017
閙	-11.1017
弇	-11.1017
痩	-11.1018
寞	-11.1019
宙	-11.1019
鯀	-11.102
箴	-11.1022
寰	-11.1022
隲	-11.1029
塼	-11.113
肴	-11.1133
廐	-11.1133
湊	-11.1134
嬖	-11.1138
峩	-11.1138
秣	-11.1139
鏹	-11.114
渝	-11.1144
褚	-11.1144
迓	-11.1149
霓	-11.1152
萇	-11.1157
嫡	-11.1252
兾	-11.1262
挹	-11.1262
愬	-11.1264
麫	-11.1264
麞	-11.1265
邏	-11.1266
猜	-11.1266
蒿	-11.1266
鷟	-11.1268
俳	-11.1271
麵	-11.1276
△	-11.1345
関	-11.1386
綘	-11.1386
装	-11.1388
𦙍	-11.1388
隗	-11.1389
闘	-11.1391
疽	-11.1393
㗖	-11.1394
儁	-11.1395
蔑	-11.1395
翥	-11.1396
啗	-11.1397
兢	-11.1398
猗	-11.1398
顙	-11.1398
麓	-11.1399
薇	-11.1399
槎	-11.1401
顏	-11.1402
瓮	-11.1406
肖	-11.1441
崑	-11.1495
獺	-11.1515
苛	-11.1517
趂	-11.1519
羆	-11.1521
醖	-11.1521
琅	-11.1521
拉	-11.1522
吃	-11.1523
芥	-11.1523
歘	-11.1523
鷺	-11.1525
娑	-11.1526
緇	-11.1526
扆	-11.1526
敲	-11.1526
隕	-11.1526
飭	-11.1527
腴	-11.1528
栽	-11.1528
醪	-11.1528
盌	-11.1529
碌	-11.1529
蛻	-11.1531
寗	-11.1533
甜	-11.1534
盥	-11.1539
踣	-11.1646
豬	-11.1649
艮	-11.165
撾	-11.165
馨	-11.165
継	-11.1651
諂	-11.1651
弭	-11.1652
佺	-11.1654
鎗	-11.1654
糟	-11.1654
淋	-11.1655
件	-11.1655
飡	-11.1656
聼	-11.1656
箋	-11.1657
瑄	-11.1658
暄	-11.1659
誑	-11.1661
𢃄	-11.1661
瑰	-11.1663
术	-11.1669
暦	-11.1778
咒	-11.1783
悒	-11.1783
冉	-11.1784
冤	-11.1784
閫	-11.1785
汭	-11.1787
晡	-11.1787
穹	-11.1787
溟	-11.1788
虫	-11.1789
卉	-11.179
岫	-11.179
薫	-11.1791
遑	-11.1793
捍	-11.1794
暈	-11.1799
扃	-11.1802
晞	-11.1803
儂	-11.1913
嘶	-11.1913
釜	-11.1915
餽	-11.1918
敇	-11.1919
汀	-11.1921
靚	-11.1923
冗	-11.1923
旺	-11.1924
堊	-11.1924
彚	-11.1924
甦	-11.1925
殖	-11.1926
坂	-11.1926
涿	-11.1928
瘴	-11.1928
亹	-11.1929
淘	-11.1929
筍	-11.1929
剽	-11.193
瑁	-11.193
巒	-11.193
皿	-11.1931
繕	-11.1931
熹	-11.1933
煒	-11.1934
賃	-11.1937
昕	-11.1938
廖	-11.2055
婿	-11.2056
逈	-11.2058
愽	-11.206
跣	-11.206
冐	-11.2061
瑪	-11.2061
迤	-11.2061
鋤	-11.2062
鋸	-11.2066
皋	-11.2068
雹	-11.2069
廙	-11.2069
断	-11.2074
歹	-11.2163
鉛	-11.2194
趾	-11.2194
鴆	-11.2195
謩	-11.2195
硬	-11.2196
舫	-11.2196
嵐	-11.2196
紆	-11.2197
徇	-11.2197
賭	-11.2198
儷	-11.2198
涌	-11.2198
懴	-11.22
錮	-11.22
翦	-11.2201
絛	-11.2201
苞	-11.2201
揣	-11.2203
萄	-11.2205
隳	-11.2205
曦	-11.2205
滉	-11.2209
楫	-11.2209
隄	-11.2213
錐	-11.2338
曝	-11.2338
緝	-11.2339
竝	-11.2341
娃	-11.2342
瞰	-11.2343
樗	-11.2345
梢	-11.2345
彫	-11.2346
泝	-11.2346
蝕	-11.2346
簒	-11.2347
糾	-11.2347
賑	-11.2349
牕	-11.235
楯	-11.2468
茲	-11.2476
瘳	-11.2478
襆	-11.2479
謳	-11.248
擠	-11.248
倜	-11.248
欷	-11.2481
麴	-11.2481
鈍	-11.2482
廸	-11.2482
僵	-11.2483
撮	-11.2484
殃	-11.2484
碣	-11.2485
嵓	-11.2486
帆	-11.2487
聮	-11.249
蹲	-11.249
贑	-11.2493
溷	-11.2497
暹	-11.2498
勺	-11.262
腊	-11.2625
殽	-11.2629
鮓	-11.2629
俎	-11.263
撞	-11.263
洶	-11.2631
杻	-11.2631
闥	-11.2631
迸	-11.2631
睹	-11.2632
糊	-11.2633
讜	-11.2633
涪	-11.2635
轎	-11.2636
无	-11.2637
酧	-11.2637
聿	-11.2754
𫀆	-11.2766
矧	-11.2767
抃	-11.2769
薑	-11.2771
組	-11.2773
倨	-11.2774
璣	-11.2774
黷	-11.2774
雱	-11.2776
窗	-11.2778
譎	-11.2779
豺	-11.2779
龐	-11.2779
臍	-11.2779
謠	-11.2779
湍	-11.278
槌	-11.2781
晃	-11.2781
苕	-11.2783
褰	-11.2783
鄲	-11.2785
薩	-11.2785
㸑	-11.2813
躋	-11.2913
鶉	-11.2917
甸	-11.2918
舛	-11.2919
斵	-11.292
檝	-11.2921
溉	-11.2923
粘	-11.2923
酪	-11.2923
鍼	-11.2924
甃	-11.2924
聦	-11.2925
簟	-11.2925
頡	-11.2926
値	-11.2926
靳	-11.2927
菱	-11.2929
褊	-11.2931
驂	-11.2932
杓	-11.2932
䏻	-11.2933
蘂	-11.2935
鏐	-11.2936
羯	-11.305
郴	-11.3066
熖	-11.3066
殫	-11.3067
斐	-11.3068
璆	-11.307
椅	-11.3072
蓍	-11.3073
剔	-11.3075
欒	-11.3076
葆	-11.3077
弛	-11.3077
峨	-11.3077
纍	-11.3078
癖	-11.3078
声	-11.3078
珉	-11.3082
懶	-11.3083
棚	-11.3084
紱	-11.3222
㪚	-11.3226
伉	-11.3227
豢	-11.3228
譛	-11.323
摯	-11.3231
紺	-11.3231
纏	-11.3232
哺	-11.3233
㐮	-11.3234
鯤	-11.3235
燾	-11.3236
掉	-11.3237
珥	-11.3237
糠	-11.3239
聯	-11.3242
傘	-11.3243
煞	-11.3372
盲	-11.3379
惰	-11.3381
歔	-11.3383
鷗	-11.3383
搗	-11.3385
裨	-11.3385
怙	-11.3386
墅	-11.3387
楼	-11.3387
諶	-11.3387
澳	-11.3387
秤	-11.3387
諠	-11.3388
輻	-11.3388
拈	-11.3389
聾	-11.339
刳	-11.339
雒	-11.3391
劈	-11.3391
攪	-11.3392
髀	-11.3393
鴣	-11.3393
蜃	-11.3396
舄	-11.34
埽	-11.3538
縻	-11.3541
閎	-11.3542
簇	-11.3542
喏	-11.3542
颺	-11.3543
絞	-11.3544
槨	-11.3544
囓	-11.3545
縞	-11.3546
拏	-11.3546
湼	-11.3547
捽	-11.3548
瀾	-11.3548
軼	-11.3548
瘧	-11.355
襍	-11.355
佗	-11.3551
苻	-11.3551
帚	-11.3551
佶	-11.3552
斌	-11.3553
踪	-11.3556
盎	-11.3556
璹	-11.3556
孑	-11.3696
柞	-11.3697
鑪	-11.37
恊	-11.37
跛	-11.3701
愠	-11.3702
廿	-11.3703
虀	-11.3703
靑	-11.3705
汧	-11.3705
悌	-11.3705
笋	-11.3705
欹	-11.3705
峙	-11.3706
鶚	-11.3706
剃	-11.3708
掬	-11.3709
弃	-11.371
毓	-11.371
禕	-11.3711
腋	-11.3712
覊	-11.3713
踊	-11.3714
駟	-11.3716
缶	-11.3718
蕉	-11.3719
慨	-11.3847
崟	-11.3855
鍤	-11.386
慤	-11.386
崗	-11.3861
窣	-11.3863
嶮	-11.3864
撼	-11.3864
查	-11.3865
悪	-11.3866
彧	-11.3867
榭	-11.3867
㩀	-11.3868
觥	-11.3869
縝	-11.3871
晷	-11.3872
秪	-11.3873
膩	-11.3873
净	-11.3873
飴	-11.3874
鸛	-11.3874
豔	-11.3875
䨇	-11.3877
囿	-11.3877
拖	-11.388
鯁	-11.3881
脆	-11.3881
鮫	-11.3881
䭾	-11.4031
榼	-11.4032
噀	-11.4032
踴	-11.4034
筌	-11.4034
刈	-11.4034
幙	-11.4035
彎	-11.4036
鎧	-11.4036
瞬	-11.4036
慾	-11.4036
貿	-11.4037
烽	-11.4038
欝	-11.4039
悄	-11.404
抹	-11.4042
柬	-11.4044
襪	-11.4044
䄂	-11.4046
熏	-11.4048
綉	-11.4048
葷	-11.405
芋	-11.4052
澁	-11.4053
陲	-11.419
臾	-11.4197
珂	-11.42
遯	-11.42
蝟	-11.4203
訕	-11.4203
紈	-11.4205
瑛	-11.4208
耄	-11.4208
赧	-11.4208
璨	-11.4209
懾	-11.4209
氐	-11.4209
㓙	-11.4209
銖	-11.421
翡	-11.4211
㟁	-11.4211
樸	-11.4212
譖	-11.4212
餗	-11.4213
韭	-11.422
夐	-11.4221
弧	-11.4368
鏃	-11.4369
愉	-11.437
逄	-11.437
鍔	-11.437
拷	-11.4373
款	-11.4373
爨	-11.4374
狠	-11.4374
刄	-11.4376
邳	-11.4377
脣	-11.4378
糖	-11.4378
墉	-11.4379
鉗	-11.4379
蒜	-11.438
鯖	-11.438
繭	-11.4382
淩	-11.4383
屣	-11.4384
蹴	-11.4384
㓕	-11.4386
沱	-11.4387
癭	-11.439
顓	-11.4391
酢	-11.4399
鍇	-11.4543
鵒	-11.4548
醬	-11.4548
腑	-11.4549
荻	-11.455
趍	-11.455
偓	-11.455
衒	-11.4553
藜	-11.4554
瀉	-11.4554
甓	-11.4554
筐	-11.4555
輯	-11.4555
蜒	-11.4556
玳	-11.4556
榦	-11.4556
褁	-11.4557
擣	-11.4558
紐	-11.4558
芽	-11.4558
剝	-11.456
堕	-11.456
凭	-11.4561
搔	-11.4561
冏	-11.4561
姙	-11.4564
籖	-11.4568
脾	-11.4569
蝎	-11.4717
頔	-11.4725
譌	-11.4726
揀	-11.4726
憔	-11.4727
璿	-11.4728
偵	-11.4728
訃	-11.4729
朞	-11.4731
誄	-11.4731
陬	-11.4732
疵	-11.4733
杉	-11.4734
彿	-11.4735
擘	-11.4735
鯨	-11.4736
肢	-11.4736
邙	-11.4736
䑛	-11.4736
蜿	-11.4737
黛	-11.4738
眸	-11.4738
彖	-11.474
肋	-11.4741
餙	-11.4743
懈	-11.4743
藕	-11.475
蕈	-11.4751
楨	-11.4761
鷙	-11.4905
瀘	-11.4907
乱	-11.4909
聆	-11.491
顚	-11.491
帕	-11.491
晳	-11.4913
膜	-11.4913
巔	-11.4914
玷	-11.4914
燥	-11.4915
匍	-11.4917
鱉	-11.4918
趺	-11.4919
臉	-11.4919
鹹	-11.4919
港	-11.492
􁦚	-11.4923
蠏	-11.4925
菩	-11.4926
淛	-11.4937
蜕	-11.5088
霅	-11.5088
絆	-11.509
咀	-11.5091
壙	-11.5092
毘	-11.5093
鄩	-11.5095
輜	-11.5097
讚	-11.5097
蹔	-11.5097
汜	-11.5098
轝	-11.5099
潄	-11.51
碗	-11.51
廪	-11.5101
怍	-11.5101
癰	-11.5101
糺	-11.5102
摸	-11.5102
蠲	-11.5103
茸	-11.5104
骰	-11.5106
灸	-11.5106
鬂	-11.5108
衿	-11.5118
翌	-11.5265
攽	-11.5273
廏	-11.5279
翎	-11.5279
倭	-11.528
芾	-11.528
攺	-11.5281
櫬	-11.5282
磧	-11.5283
閃	-11.5286
嗇	-11.5287
鍳	-11.5287
畦	-11.5287
錬	-11.5288
蜚	-11.5288
从	-11.5289
囷	-11.5289
狥	-11.5289
昩	-11.529
匐	-11.529
襁	-11.5291
炷	-11.5291
諜	-11.5292
派	-11.5294
鷓	-11.5295
徂	-11.5296
泯	-11.5296
虗	-11.5298
靄	-11.5304
〇	-11.5377
咋	-11.5467
觚	-11.5467
奐	-11.5471
紓	-11.5472
昫	-11.5475
咬	-11.5476
瞋	-11.5477
祅	-11.5478
柑	-11.5478
殄	-11.5479
斸	-11.548
穡	-11.5481
瞪	-11.5482
估	-11.5483
箧	-11.5484
侑	-11.5484
煨	-11.5484
塩	-11.5484
傪	-11.5485
兕	-11.5486
穽	-11.5487
尔	-11.5487
偹	-11.5488
櫟	-11.549
叠	-11.5491
旹	-11.5495
蝠	-11.5496
崧	-11.5663
毳	-11.5664
棣	-11.5665
佃	-11.5669
橐	-11.5671
蹋	-11.5672
酥	-11.5673
飜	-11.5674
縹	-11.5675
凄	-11.5675
爍	-11.5675
洮	-11.5675
邐	-11.5675
澥	-11.5675
懋	-11.5676
眄	-11.5677
彤	-11.5679
跌	-11.5679
譔	-11.5681
篙	-11.5682
汨	-11.5684
穉	-11.5684
窖	-11.5685
荼	-11.5686
壠	-11.5688
襖	-11.5693
畚	-11.5867
据	-11.587
紘	-11.5872
諛	-11.5873
肄	-11.5874
諍	-11.5875
椿	-11.5875
刮	-11.5877
髑	-11.5878
髏	-11.5879
瓏	-11.588
凛	-11.5881
軋	-11.5881
鬰	-11.5881
瑙	-11.5881
插	-11.5886
鴞	-11.5886
罽	-11.5886
產	-11.5887
茟	-11.589
蝙	-11.5896
宼	-11.6063
炤	-11.6063
漾	-11.6073
渺	-11.6077
墩	-11.6077
鏘	-11.6079
擯	-11.6079
憮	-11.608
磁	-11.608
遒	-11.608
燿	-11.608
菽	-11.608
儆	-11.6081
嵌	-11.6081
刷	-11.6082
殛	-11.6083
痊	-11.6084
瓉	-11.6084
畀	-11.6087
蒯	-11.6087
猾	-11.6087
蘋	-11.6089
覈	-11.609
莒	-11.6091
鞅	-11.6091
璉	-11.6276
磊	-11.6278
棧	-11.628
㤗	-11.6281
稿	-11.6281
苴	-11.6282
諴	-11.6282
矍	-11.6282
懵	-11.6284
彞	-11.6285
鋌	-11.6286
堞	-11.6286
幟	-11.6286
埸	-11.6287
訾	-11.6287
剋	-11.6288
磐	-11.6288
駛	-11.6288
柵	-11.6288
畼	-11.6289
券	-11.629
儈	-11.629
褓	-11.6291
膊	-11.6292
彂	-11.6293
圮	-11.6293
妝	-11.6293
蚣	-11.6294
怛	-11.6294
兗	-11.6295
澡	-11.6295
撿	-11.6295
萍	-11.6296
涔	-11.6299
蕘	-11.63
魘	-11.63
廁	-11.6301
喇	-11.6301
喈	-11.6302
窈	-11.6305
腎	-11.6314
嘷	-11.6481
剏	-11.6492
螻	-11.6495
髦	-11.6497
嘘	-11.6498
槍	-11.65
盱	-11.6501
輓	-11.6501
𥙿	-11.6501
褘	-11.6502
躑	-11.6502
沫	-11.6502
蟄	-11.6504
埶	-11.6504
槊	-11.6504
歉	-11.6505
糈	-11.6506
緱	-11.6507
嘻	-11.6507
絪	-11.6507
遨	-11.6508
㪷	-11.6508
罇	-11.6509
慝	-11.6509
烘	-11.6509
芭	-11.651
糴	-11.651
狌	-11.6511
菖	-11.6513
燔	-11.6515
郇	-11.6518
麽	-11.652
膂	-11.6707
諝	-11.6713
楸	-11.6713
璵	-11.6713
勔	-11.6714
沅	-11.6716
獼	-11.6716
螢	-11.6717
磻	-11.6717
酈	-11.6717
糓	-11.6718
憬	-11.6718
炫	-11.6719
昵	-11.6719
萱	-11.6719
窒	-11.672
荐	-11.672
媛	-11.672
琨	-11.6721
橫	-11.6721
杼	-11.6722
塡	-11.6723
鍜	-11.6723
逖	-11.6725
啾	-11.6726
燋	-11.6726
曆	-11.6727
妒	-11.6728
賽	-11.6729
咤	-11.673
鉄	-11.6732
霏	-11.6733
瘤	-11.6733
穰	-11.6734
柤	-11.6737
鞾	-11.6932
痢	-11.6934
貍	-11.6936
祔	-11.6937
犁	-11.6938
澠	-11.694
詼	-11.694
㕑	-11.694
駑	-11.6941
窶	-11.6941
瞳	-11.6942
些	-11.6942
叵	-11.6942
默	-11.6942
莱	-11.6942
燦	-11.6943
翮	-11.6943
蟒	-11.6945
爻	-11.6945
椹	-11.6945
樟	-11.6947
盻	-11.6947
惲	-11.6948
睫	-11.6949
苧	-11.6949
粤	-11.6951
驤	-11.6952
瀑	-11.6952
穗	-11.6953
譟	-11.6953
嘴	-11.6957
嬾	-11.6959
鋋	-11.7155
屹	-11.7157
驄	-11.716
莅	-11.7161
湮	-11.7163
藹	-11.7163
徨	-11.7165
劃	-11.7165
芮	-11.7166
蓐	-11.7167
釧	-11.7167
邴	-11.7168
翛	-11.717
𣙜	-11.717
禰	-11.7171
斾	-11.7171
遗	-11.7172
窳	-11.7173
醵	-11.7174
双	-11.7175
芰	-11.7175
䙝	-11.7175
竢	-11.7177
艘	-11.7178
穏	-11.7178
莎	-11.7179
烝	-11.7179
猝	-11.7181
郾	-11.7181
垍	-11.7185
莾	-11.719
憊	-11.7389
悛	-11.739
爺	-11.7393
㓗	-11.7393
魑	-11.7396
奨	-11.7396
漓	-11.7397
沓	-11.7398
鶹	-11.7398
抉	-11.7399
菲	-11.7401
培	-11.7401
瓚	-11.7401
艤	-11.7401
概	-11.7401
閴	-11.7401
玲	-11.7403
廳	-11.7405
媧	-11.7405
嫩	-11.7405
酤	-11.7407
郯	-11.7407
㳙	-11.7407
懃	-11.7408
𦂳	-11.7409
槁	-11.7411
窄	-11.7411
阼	-11.7421
媵	-11.7632
稗	-11.7632
晅	-11.7634
耒	-11.7635
䖝	-11.7637
儛	-11.7637
謟	-11.7637
蕚	-11.7638
艦	-11.7638
伷	-11.7639
鈐	-11.7639
㒺	-11.7641
惘	-11.7643
䨼	-11.7643
腳	-11.7643
個	-11.7644
緍	-11.7644
飫	-11.7644
㯶	-11.7647
彗	-11.766
鵶	-11.7661
吊	-11.7876
鄠	-11.7877
璀	-11.7877
鐶	-11.7878
鈕	-11.788
禋	-11.788
蜺	-11.788
豊	-11.788
瑊	-11.7881
弑	-11.7881
晤	-11.7882
啞	-11.7882
揔	-11.7883
謇	-11.7883
滓	-11.7885
鞬	-11.7885
紊	-11.7885
殉	-11.7885
鱣	-11.7886
鼇	-11.7886
艇	-11.7886
裡	-11.7887
擺	-11.7887
絙	-11.7887
茄	-11.7889
脹	-11.7889
嘿	-11.7889
幔	-11.7891
䰟	-11.7892
窆	-11.7892
蛩	-11.7893
驎	-11.7894
怱	-11.7894
郞	-11.7894
薤	-11.7896
韞	-11.7902
㛰	-11.8116
愎	-11.8122
蜴	-11.8124
峒	-11.8124
毉	-11.8124
妺	-11.8126
闡	-11.8128
惴	-11.8128
袵	-11.8128
紉	-11.8129
櫓	-11.8129
瘁	-11.813
堇	-11.8131
壌	-11.8132
縋	-11.8132
裊	-11.8132
熨	-11.8133
岌	-11.8134
纊	-11.8134
摽	-11.8134
蔗	-11.8134
旰	-11.8135
粱	-11.8135
塹	-11.8135
謎	-11.8135
轟	-11.8136
搦	-11.8136
剉	-11.8137
柿	-11.8137
鯢	-11.8138
蚋	-11.8139
菓	-11.814
嬴	-11.8141
襯	-11.8141
闍	-11.8143
瘥	-11.8144
哮	-11.8144
癩	-11.8145
迢	-11.8148
螯	-11.815
漣	-11.8151
篌	-11.8153
箜	-11.8154
妳	-11.8158
窑	-11.8172
巋	-11.8377
躓	-11.8379
噤	-11.8383
纜	-11.8383
鐍	-11.8384
騩	-11.8384
傴	-11.8384
羶	-11.8384
罩	-11.8385
罟	-11.8386
讙	-11.8386
䆒	-11.8387
蝮	-11.8389
黏	-11.839
喟	-11.8391
睂	-11.8391
暎	-11.8392
𬞞	-11.8392
矚	-11.8393
縗	-11.8394
蔕	-11.8394
氛	-11.8394
蠢	-11.8396
娯	-11.8396
㦯	-11.8397
疥	-11.8397
訂	-11.8398
毀	-11.8398
碓	-11.8398
籃	-11.8398
撚	-11.84
酺	-11.84
盪	-11.8401
礦	-11.8402
礬	-11.8403
蠙	-11.8405
諲	-11.8406
䋲	-11.8637
罌	-11.8639
諗	-11.864
隼	-11.8643
塢	-11.8643
虖	-11.8647
䛕	-11.8647
菁	-11.8647
礎	-11.8647
巘	-11.8648
螽	-11.865
厦	-11.865
溜	-11.865
颯	-11.8653
徭	-11.8655
薈	-11.8655
玭	-11.8656
唧	-11.8656
扺	-11.8656
孀	-11.8657
沌	-11.8657
鐙	-11.8658
縠	-11.8658
醢	-11.8658
泫	-11.8658
嗅	-11.8659
恡	-11.8659
匆	-11.8664
燄	-11.8669
纈	-11.8669
㱕	-11.8673
魃	-11.891
暐	-11.8914
娟	-11.8915
眙	-11.8915
䡖	-11.8915
訢	-11.8915
鑠	-11.8917
緜	-11.8917
炒	-11.8917
暱	-11.8918
宕	-11.8918
榔	-11.8918
洹	-11.8919
綢	-11.8919
緻	-11.892
閶	-11.8921
鮪	-11.8921
疼	-11.8921
紵	-11.8921
飱	-11.8923
戶	-11.8923
沇	-11.8924
舖	-11.8924
歧	-11.8924
穩	-11.8924
犍	-11.8925
涂	-11.8925
磔	-11.8926
掄	-11.8926
箒	-11.8927
舸	-11.8927
圏	-11.8928
珎	-11.8928
壹	-11.8928
爆	-11.893
杰	-11.893
碾	-11.893
綂	-11.8934
灣	-11.8935
葭	-11.8935
詫	-11.8936
玫	-11.8936
袞	-11.8939
党	-11.8941
袐	-11.9181
藺	-11.9184
缸	-11.9187
臛	-11.9189
鎚	-11.9194
鵂	-11.9194
葩	-11.9196
袤	-11.9196
逗	-11.9197
亾	-11.9197
莆	-11.9197
餳	-11.9197
鵑	-11.9197
蠕	-11.9199
錠	-11.9199
穫	-11.92
睇	-11.92
蒱	-11.9201
詡	-11.9202
薔	-11.9202
韙	-11.9203
曛	-11.9204
惔	-11.9204
膓	-11.9205
盾	-11.9207
鋼	-11.9208
壷	-11.9208
𠖇	-11.9209
献	-11.9209
蝸	-11.9211
皥	-11.9211
芟	-11.9211
㽔	-11.9213
罅	-11.9213
曬	-11.9215
檐	-11.9477
梭	-11.9479
篠	-11.9479
緬	-11.948
𣣔	-11.9481
珽	-11.9481
灞	-11.9482
鉏	-11.9482
僂	-11.9483
惎	-11.9483
襃	-11.9483
藿	-11.9483
仝	-11.9484
猖	-11.9484
燉	-11.9484
襴	-11.9484
箏	-11.9485
閧	-11.9486
躅	-11.9486
蕋	-11.9488
燮	-11.9489
茨	-11.949
娱	-11.949
蜮	-11.949
繚	-11.949
蔔	-11.9491
瀕	-11.9491
閿	-11.9491
阡	-11.9492
硫	-11.9493
鸎	-11.9493
菅	-11.9494
捻	-11.9496
矮	-11.9496
橿	-11.9496
蔭	-11.9498
弈	-11.9499
枳	-11.95
槿	-11.9502
郍	-11.9503
藂	-11.9505
羇	-11.9767
㚟	-11.9768
牸	-11.977
擄	-11.9773
弹	-11.9773
玃	-11.9773
筝	-11.9774
鄞	-11.9775
慣	-11.9775
鑚	-11.9777
嚬	-11.9777
撩	-11.978
橙	-11.9781
甖	-11.9781
筩	-11.9781
蹊	-11.9781
褶	-11.9783
鑷	-11.9783
吒	-11.9783
帯	-11.9783
玗	-11.9783
坌	-11.9784
􁑴	-11.9784
嚳	-11.9785
邽	-11.9785
跂	-11.9785
閥	-11.9786
聫	-11.9787
鏞	-11.9787
纖	-11.9788
剰	-11.9788
噎	-11.9789
狷	-11.9789
胤	-11.9789
扎	-11.9791
夤	-11.9792
埒	-11.9796
籥	-11.9796
隰	-11.9801
杷	-11.9808
穠	-12.0069
詧	-12.0071
釗	-12.0074
郛	-12.0075
遹	-12.0075
鄢	-12.0076
焙	-12.0076
蜥	-12.0077
犧	-12.0078
氓	-12.0078
鸚	-12.0079
磑	-12.0079
両	-12.008
鍛	-12.0082
鮒	-12.0083
賻	-12.0084
搭	-12.0084
鱸	-12.0085
繖	-12.0085
鑣	-12.0085
饕	-12.0085
唄	-12.0086
棃	-12.0086
陔	-12.0086
􁁜	-12.0087
鰲	-12.0087
叡	-12.0088
麩	-12.0088
楔	-12.0088
丱	-12.0091
慇	-12.0093
暠	-12.0093
讃	-12.0095
璃	-12.0095
禅	-12.0095
揩	-12.0096
撑	-12.0097
蓆	-12.0099
詁	-12.0099
侖	-12.01
䂮	-12.0111
胯	-12.0115
恙	-12.033
瑴	-12.034
凾	-12.0375
闓	-12.0376
墊	-12.0381
掀	-12.0384
兜	-12.039
戕	-12.0391
璡	-12.0393
甿	-12.0393
萎	-12.0394
蘖	-12.0394
甆	-12.0394
涅	-12.0396
㾗	-12.0396
㵼	-12.0396
貰	-12.0397
㐫	-12.0397
睥	-12.0397
讞	-12.0397
笳	-12.0398
菰	-12.0398
竽	-12.0398
敺	-12.0399
竣	-12.0399
屛	-12.0399
鈆	-12.0399
煦	-12.0399
暁	-12.04
藷	-12.04
炯	-12.04
攄	-12.0401
潑	-12.0401
朏	-12.0402
毯	-12.0402
偁	-12.0403
涖	-12.0405
噱	-12.0407
茱	-12.0408
串	-12.0408
􁌽	-12.041
勍	-12.0412
樣	-12.0424
瑒	-12.043
鴘	-12.0684
滎	-12.0692
蒞	-12.0701
鍵	-12.0707
琊	-12.0709
揜	-12.071
届	-12.071
姒	-12.0714
鱓	-12.0714
慥	-12.0714
詛	-12.0714
衂	-12.0714
蛛	-12.0715
堠	-12.0715
曅	-12.0715
䱉	-12.0716
璩	-12.0716
澀	-12.0717
捃	-12.0717
囉	-12.0718
絰	-12.0718
黽	-12.0718
紡	-12.0718
蜍	-12.0718
薜	-12.0718
裵	-12.0719
戡	-12.0719
騃	-12.0719
瘢	-12.072
簧	-12.072
壚	-12.072
鴛	-12.072
飰	-12.0721
㺯	-12.0721
倬	-12.0722
蓼	-12.0722
紬	-12.0722
瞥	-12.0723
滸	-12.0723
妥	-12.0724
礫	-12.0727
瓣	-12.0727
麢	-12.0729
鬐	-12.0729
桮	-12.073
傚	-12.0732
逍	-12.0733
旂	-12.0734
瓷	-12.0734
姐	-12.0737
篡	-12.1036
憒	-12.1037
獬	-12.1042
蹉	-12.1044
璜	-12.1044
壟	-12.1046
䓁	-12.1047
咲	-12.1047
凑	-12.1048
朓	-12.1049
軿	-12.105
詮	-12.1052
櫝	-12.1052
軄	-12.1052
梃	-12.1054
鰕	-12.1054
魈	-12.1054
磯	-12.1055
柚	-12.1055
裼	-12.1055
蕨	-12.1056
頎	-12.1056
倀	-12.1056
賙	-12.1057
褫	-12.1057
筦	-12.1057
喑	-12.1057
﨑	-12.1057
聒	-12.1058
摺	-12.1058
挿	-12.1059
滻	-12.1059
酲	-12.1065
酆	-12.1067
磴	-12.1074
鰐	-12.1077
礱	-12.1078
迯	-12.1378
凈	-12.1385
鏑	-12.1385
胞	-12.1387
鸜	-12.1388
漚	-12.1388
罍	-12.1388
刎	-12.1389
喋	-12.139
顰	-12.1391
跖	-12.1392
俅	-12.1392
劬	-12.1393
剗	-12.1394
磎	-12.1394
頹	-12.1394
賾	-12.1394
朐	-12.1395
糶	-12.1396
蓽	-12.1396
嶓	-12.1397
􁈍	-12.1398
懣	-12.1398
楣	-12.1398
綣	-12.14
暘	-12.14
莞	-12.14
攅	-12.1401
崐	-12.1401
騮	-12.1402
樁	-12.1402
窫	-12.1402
醯	-12.1403
糗	-12.1403
㳟	-12.1403
猱	-12.1403
仭	-12.1404
卲	-12.1404
蛆	-12.1404
鞘	-12.1405
楪	-12.1406
慵	-12.1406
燬	-12.1407
沁	-12.1409
犂	-12.1409
諄	-12.141
甯	-12.1413
慊	-12.1416
捩	-12.173
夹	-12.1736
楠	-12.1736
勻	-12.1738
誹	-12.1741
旛	-12.1743
頠	-12.1743
轢	-12.1747
憧	-12.1747
滏	-12.1747
琇	-12.1748
濳	-12.1748
狨	-12.1749
攣	-12.1749
堙	-12.175
纛	-12.1751
圯	-12.1752
禠	-12.1752
贐	-12.1753
隟	-12.1754
猨	-12.1755
陡	-12.1755
鵁	-12.1756
鱖	-12.1756
旒	-12.1756
鉦	-12.1757
抒	-12.1757
㫤	-12.1758
瑱	-12.1758
嶇	-12.1759
万	-12.176
鬲	-12.176
唁	-12.176
蘧	-12.1761
簣	-12.1761
妣	-12.1764
檟	-12.1764
斡	-12.1764
櫪	-12.1764
么	-12.1767
攔	-12.1767
鍋	-12.1767
㒒	-12.1767
濺	-12.1768
餻	-12.1771
鹺	-12.1776
籀	-12.1779
蠖	-12.1786
盩	-12.2106
䆠	-12.2108
彝	-12.2111
怳	-12.2111
勗	-12.2112
翾	-12.2112
蚺	-12.2113
孃	-12.2113
𦕈	-12.2114
卨	-12.2115
勦	-12.2115
隧	-12.2116
蝴	-12.2118
垜	-12.2119
仔	-12.2119
寀	-12.2119
鶵	-12.2119
漉	-12.212
抜	-12.2121
芎	-12.2121
鯽	-12.2121
桷	-12.2121
哩	-12.2121
鮎	-12.2122
瑯	-12.2122
䲭	-12.2122
㝡	-12.2123
鬪	-12.2123
厝	-12.2124
嚇	-12.2124
鸇	-12.2124
囙	-12.2124
溧	-12.2124
崛	-12.2125
辝	-12.2125
眦	-12.2125
齪	-12.2126
擐	-12.2126
潢	-12.2127
砍	-12.2128
頫	-12.2129
瀚	-12.2129
銍	-12.2131
簞	-12.2131
鄊	-12.2131
騟	-12.2131
咳	-12.2132
佻	-12.2132
廽	-12.2132
挟	-12.2133
閼	-12.2133
蓊	-12.2134
瘵	-12.2134
茘	-12.2135
茈	-12.2135
䆳	-12.2135
騅	-12.2136
慳	-12.2137
蒭	-12.2138
玘	-12.2138
枸	-12.2148
畬	-12.215
綫	-12.2486
鞵	-12.2494
紏	-12.2495
祧	-12.2498
摛	-12.2498
哽	-12.2501
沴	-12.2501
篲	-12.2502
殪	-12.2503
蹂	-12.2503
瞞	-12.2503
禿	-12.2504
籟	-12.2504
畤	-12.2504
蹰	-12.2504
厓	-12.2505
洧	-12.2506
嚥	-12.2506
鸕	-12.2506
櫜	-12.2506
餚	-12.2507
鄣	-12.2507
蘚	-12.2507
鞴	-12.2507
簸	-12.2507
鷀	-12.2508
嶸	-12.2509
変	-12.2509
蕖	-12.251
涙	-12.251
儗	-12.2512
掐	-12.2512
砲	-12.2512
懊	-12.2513
矗	-12.2513
擡	-12.2514
錞	-12.2514
輞	-12.2514
汞	-12.2514
蜼	-12.2515
皤	-12.2516
㹠	-12.2517
痺	-12.2517
刲	-12.2517
棨	-12.2517
奘	-12.2517
淝	-12.2517
卄	-12.2519
鷁	-12.252
銛	-12.252
隈	-12.2521
僎	-12.2522
綦	-12.2522
斆	-12.2524
烱	-12.2525
祼	-12.2525
窕	-12.2526
溲	-12.2528
盒	-12.2528
輳	-12.2529
倰	-12.2531
匭	-12.2862
癢	-12.289
嶂	-12.2893
檠	-12.2894
佾	-12.2899
娣	-12.29
唳	-12.2901
鼾	-12.2901
殱	-12.2901
闞	-12.2902
賡	-12.2904
搶	-12.2904
戅	-12.2904
顱	-12.2904
贏	-12.2904
覡	-12.2904
阯	-12.2905
陕	-12.2905
苒	-12.2905
橛	-12.2905
劎	-12.2906
泡	-12.2906
溶	-12.2907
殤	-12.2907
墾	-12.2908
壼	-12.2909
鷩	-12.2909
湎	-12.2909
羬	-12.2909
描	-12.291
贇	-12.291
荃	-12.291
祛	-12.291
韵	-12.291
聓	-12.2911
褌	-12.2911
昺	-12.2911
荳	-12.2913
睚	-12.2913
糲	-12.2914
纘	-12.2914
膿	-12.2915
蚩	-12.2915
窩	-12.2916
獰	-12.2918
伋	-12.2918
韉	-12.2919
暌	-12.292
襠	-12.2922
賍	-12.2922
肻	-12.2923
稌	-12.2923
菟	-12.2924
潺	-12.2924
泑	-12.2924
蹬	-12.2925
倕	-12.2926
恆	-12.2927
蒂	-12.2927
蕡	-12.2931
搃	-12.2938
庄	-12.3303
埏	-12.3305
滬	-12.3308
閘	-12.3309
悝	-12.331
嶲	-12.331
鰍	-12.3313
蒐	-12.3314
摠	-12.3316
嚕	-12.3316
敳	-12.3318
婣	-12.3318
巉	-12.3318
鴝	-12.3319
犖	-12.3319
萼	-12.332
咍	-12.332
𨗳	-12.3321
媼	-12.3322
桌	-12.3322
粳	-12.3324
䞇	-12.3324
荏	-12.3324
欻	-12.3324
凜	-12.3325
嗾	-12.3325
綈	-12.3326
痔	-12.3327
侏	-12.3327
溱	-12.3327
与	-12.3327
餬	-12.3328
臚	-12.3328
鰩	-12.3328
俻	-12.3328
讖	-12.3328
躊	-12.3328
腮	-12.3329
踘	-12.333
鄘	-12.333
豸	-12.333
肓	-12.3331
羹	-12.3331
攢	-12.3331
搢	-12.3332
蜑	-12.3332
內	-12.3333
楞	-12.3333
坼	-12.3333
駔	-12.3334
芑	-12.3334
薺	-12.3334
殍	-12.3334
鸂	-12.3335
㲄	-12.3336
狒	-12.3336
謄	-12.3337
廕	-12.3338
昪	-12.3338
槀	-12.3338
塾	-12.3338
曖	-12.3339
鵷	-12.3339
茭	-12.334
囯	-12.3341
皺	-12.3341
痒	-12.3342
煤	-12.3342
醼	-12.3342
盝	-12.3343
帢	-12.3346
靸	-12.3347
椁	-12.3743
魎	-12.3744
聃	-12.3744
撝	-12.3745
炮	-12.3748
掊	-12.3748
淦	-12.3749
殭	-12.3749
幌	-12.3751
柈	-12.3752
捋	-12.3752
螟	-12.3753
趕	-12.3755
飈	-12.3755
舡	-12.3755
泅	-12.3756
冺	-12.3756
甎	-12.3757
蝨	-12.3757
珝	-12.3757
綖	-12.3757
頺	-12.3757
孛	-12.3758
藭	-12.3758
糚	-12.376
熬	-12.376
裀	-12.376
称	-12.3761
漱	-12.3761
欖	-12.3761
栲	-12.3761
怏	-12.3763
嶼	-12.3763
䂓	-12.3763
壖	-12.3763
涴	-12.3763
嗚	-12.3763
緊	-12.3763
搴	-12.3763
氲	-12.3763
椐	-12.3764
筑	-12.3764
辣	-12.3764
刅	-12.3764
闚	-12.3765
菑	-12.3765
袪	-12.3765
搬	-12.3766
参	-12.3766
仄	-12.3767
㕓	-12.3767
崦	-12.3768
玦	-12.3768
閟	-12.3769
萸	-12.3769
詘	-12.3772
熲	-12.3772
噲	-12.3773
滹	-12.3774
翃	-12.3774
鼐	-12.3775
匀	-12.3776
圄	-12.3776
㫄	-12.3777
痰	-12.378
爕	-12.3781
腿	-12.3783
篾	-12.3786
陴	-12.3787
䜿	-12.379
棬	-12.4192
淬	-12.4192
忳	-12.42
睽	-12.42
聱	-12.4204
塌	-12.4204
晙	-12.4207
炁	-12.4207
喀	-12.421
瀍	-12.421
蛭	-12.421
屡	-12.421
撅	-12.4211
躔	-12.4211
狙	-12.4211
𥪡	-12.4211
捄	-12.4212
瀨	-12.4213
搥	-12.4213
囀	-12.4213
踉	-12.4213
飣	-12.4213
穟	-12.4214
捴	-12.4214
𣲖	-12.4215
蓑	-12.4215
斚	-12.4215
帟	-12.4216
扞	-12.4216
䜛	-12.4216
侶	-12.4217
齕	-12.4217
嘱	-12.4217
楛	-12.4217
烜	-12.4217
祏	-12.4218
埤	-12.4218
机	-12.4218
埜	-12.4218
櫺	-12.4218
醺	-12.4219
㙮	-12.422
羗	-12.422
締	-12.4221
佖	-12.4221
苾	-12.4221
蜓	-12.4221
飥	-12.4222
荚	-12.4224
夥	-12.4225
牂	-12.4225
餼	-12.4225
騊	-12.4227
呦	-12.4227
蘸	-12.4228
艸	-12.4229
蟆	-12.4231
嶧	-12.4232
觝	-12.4232
椰	-12.4233
𥚹	-12.4234
髩	-12.4234
𧦬	-12.4234
騏	-12.4235
鄯	-12.4235
砧	-12.4244
厰	-12.4262
廰	-12.4674
窅	-12.4674
勮	-12.4675
篚	-12.4677
惺	-12.4677
𣢾	-12.4679
蹷	-12.468
䭔	-12.468
狖	-12.4681
鶩	-12.4681
璪	-12.4682
餛	-12.4683
秫	-12.4684
鷲	-12.4684
昝	-12.4684
磋	-12.4685
腔	-12.4686
揄	-12.4686
頵	-12.4687
蠃	-12.4687
壕	-12.4687
丒	-12.4687
屎	-12.4688
霈	-12.4688
氈	-12.4688
醸	-12.4688
踟	-12.4688
䧏	-12.4688
疣	-12.4689
湄	-12.4689
衎	-12.4689
眯	-12.469
輥	-12.4691
剜	-12.4692
牾	-12.4692
尫	-12.4692
劼	-12.4692
畎	-12.4692
昴	-12.4693
罥	-12.4693
扛	-12.4694
淒	-12.4695
婪	-12.4695
腆	-12.4695
簏	-12.4696
䱱	-12.4696
謌	-12.4697
屩	-12.4697
濓	-12.4698
阨	-12.4698
羝	-12.4698
雩	-12.4698
䧺	-12.4699
䳜	-12.47
憨	-12.47
淇	-12.47
朦	-12.47
趋	-12.47
鬯	-12.47
烙	-12.47
蠒	-12.4701
檣	-12.4701
禊	-12.4703
儐	-12.4703
篁	-12.4704
鰥	-12.4707
饅	-12.4708
獐	-12.4708
舷	-12.4709
拗	-12.4709
貊	-12.471
縂	-12.5164
爬	-12.5164
鉷	-12.5168
站	-12.5169
驊	-12.517
綆	-12.5172
獪	-12.5175
哨	-12.5176
啣	-12.5178
皐	-12.5179
淖	-12.518
簀	-12.518
瘖	-12.5182
蚡	-12.5182
洳	-12.5182
芃	-12.5183
鶖	-12.5185
臓	-12.5185
嬙	-12.5185
贛	-12.5187
憸	-12.5188
瀰	-12.5189
釭	-12.5189
矟	-12.5189
𦵔	-12.5189
芫	-12.5189
猳	-12.5189
韁	-12.5189
齟	-12.5189
臊	-12.519
糕	-12.519
緹	-12.519
勰	-12.5191
繽	-12.5192
磾	-12.5192
婬	-12.5192
悮	-12.5194
頳	-12.5194
焯	-12.5194
𥜗	-12.5194
芷	-12.5195
躇	-12.5195
价	-12.5196
馘	-12.5197
兊	-12.5197
翽	-12.5197
葅	-12.5198
栝	-12.5198
擿	-12.5198
紕	-12.5198
羃	-12.5199
豉	-12.5199
蓀	-12.52
陘	-12.5201
跼	-12.5201
臀	-12.5202
珤	-12.5202
詨	-12.5202
榣	-12.5202
絜	-12.5202
晢	-12.5203
黻	-12.5203
囁	-12.5203
苓	-12.5203
軨	-12.5204
蹭	-12.5205
欤	-12.5205
湟	-12.5207
蝤	-12.5209
嚚	-12.5209
錚	-12.5211
濆	-12.5213
廞	-12.5217
枋	-12.5222
昞	-12.5244
夔	-12.5692
麪	-12.5701
酖	-12.5701
嵎	-12.5702
胙	-12.5702
矦	-12.5703
髹	-12.5704
澦	-12.5704
竚	-12.5706
犇	-12.5706
拌	-12.5708
宓	-12.5708
纉	-12.5709
蠆	-12.5709
畒	-12.571
闠	-12.571
𬒮	-12.571
㯽	-12.5711
洱	-12.5711
皴	-12.5711
燠	-12.5711
藇	-12.5712
廄	-12.5712
顇	-12.5712
鑼	-12.5713
渦	-12.5714
翬	-12.5714
糝	-12.5714
戞	-12.5715
縲	-12.5715
蕞	-12.5716
䣛	-12.5717
碍	-12.5717
擴	-12.5719
珊	-12.5719
薬	-12.5719
靨	-12.5719
痁	-12.5721
蘼	-12.5721
熺	-12.5722
鏖	-12.5722
髽	-12.5722
賸	-12.5722
餤	-12.5722
酎	-12.5723
巗	-12.5723
泮	-12.5723
鋹	-12.5724
櫾	-12.5724
媾	-12.5724
閈	-12.5724
濦	-12.5725
傖	-12.5725
􁰽	-12.5726
鍍	-12.5726
濩	-12.5726
饘	-12.5726
縢	-12.5727
瘟	-12.5727
扑	-12.5728
貉	-12.5728
㨿	-12.5728
獮	-12.5729
瀦	-12.573
惹	-12.573
鶒	-12.573
媟	-12.573
揉	-12.5731
蹌	-12.5731
擷	-12.5732
駼	-12.5733
扳	-12.5733
箆	-12.5735
鰼	-12.5738
峡	-12.5739
倔	-12.5739
㤙	-12.574
芹	-12.5744
渤	-12.5745
􁝜	-12.5758
璇	-12.6238
灤	-12.6243
馹	-12.625
貓	-12.6254
竑	-12.6257
丰	-12.6257
痼	-12.6258
筴	-12.6259
侁	-12.6259
悙	-12.626
肪	-12.6261
籮	-12.6262
钁	-12.6262
摴	-12.6262
讋	-12.6262
褾	-12.6263
饜	-12.6263
儘	-12.6263
耙	-12.6264
閾	-12.6265
榷	-12.6266
潏	-12.6266
蕊	-12.6268
垕	-12.6269
闒	-12.6269
猊	-12.6269
徠	-12.6269
雎	-12.627
賖	-12.627
鰒	-12.627
匏	-12.627
郅	-12.6271
㢤	-12.6271
匾	-12.6272
耘	-12.6272
冽	-12.6272
吮	-12.6272
篩	-12.6273
棐	-12.6273
凂	-12.6274
䍶	-12.6274
榱	-12.6274
覷	-12.6274
饉	-12.6274
皃	-12.6274
朧	-12.6275
蟣	-12.6275
橡	-12.6276
驀	-12.6276
㶚	-12.6276
諢	-12.6277
鞮	-12.6277
澍	-12.6277
嵫	-12.6278
鬃	-12.6278
慴	-12.6278
淆	-12.6278
緄	-12.6279
罏	-12.6279
幵	-12.6279
韈	-12.6279
斁	-12.628
笻	-12.628
惓	-12.628
苣	-12.628
昃	-12.6282
臷	-12.6282
䗫	-12.6282
瑠	-12.6282
豳	-12.6283
丏	-12.6283
柁	-12.6283
縚	-12.6284
妆	-12.6284
攤	-12.6284
萯	-12.6284
卸	-12.6287
遴	-12.6287
綻	-12.6288
揑	-12.6289
痍	-12.6289
忖	-12.6289
醤	-12.6289
癉	-12.629
磕	-12.6291
鵓	-12.6291
淂	-12.6292
异	-12.6293
峘	-12.6297
殳	-12.6298
抺	-12.6308
矻	-12.6841
鄽	-12.6843
酴	-12.6845
䏿	-12.6846
彠	-12.6846
蛄	-12.6846
灔	-12.6848
滈	-12.6848
霤	-12.6848
嗷	-12.685
詗	-12.6852
霰	-12.6852
妊	-12.6852
戦	-12.6852
怜	-12.6853
楢	-12.6853
湔	-12.6853
崆	-12.6854
湓	-12.6854
徯	-12.6855
鶡	-12.6855
狭	-12.6855
唫	-12.6856
瘕	-12.6856
瓤	-12.6856
靦	-12.6856
䆫	-12.6856
ခ	-12.6856
軺	-12.6857
哄	-12.6857
㮣	-12.6857
塤	-12.6858
敭	-12.6858
踧	-12.6859
嶤	-12.6859
踖	-12.6859
䁮	-12.6859
隤	-12.6859
薙	-12.6859
偪	-12.6859
凹	-12.6859
紼	-12.6859
匄	-12.686
䍐	-12.686
囹	-12.6861
􁀾	-12.6861
浯	-12.6862
鑽	-12.6862
駈	-12.6862
瀧	-12.6862
庳	-12.6864
怫	-12.6864
崙	-12.6864
葯	-12.6864
靼	-12.6864
鵸	-12.6865
邾	-12.6865
漪	-12.6865
怎	-12.6865
梦	-12.6865
单	-12.6865
宂	-12.6866
顫	-12.6867
醻	-12.6867
牁	-12.6867
獷	-12.6867
𣑽	-12.6867
餧	-12.6868
蝉	-12.6868
跑	-12.6868
鐃	-12.6868
畛	-12.6869
蒺	-12.6869
遄	-12.6869
彄	-12.687
鱟	-12.687
虨	-12.687
饔	-12.687
搨	-12.6872
骼	-12.6872
鞦	-12.6873
贗	-12.6874
祲	-12.6874
蜊	-12.6875
孳	-12.6876
癯	-12.6877
珧	-12.6878
菔	-12.6881
㤀	-12.6881
傀	-12.6881
儵	-12.6882
僴	-12.6885
荇	-12.6888
掞	-12.689
廋	-12.6898
罘	-12.7446
孥	-12.745
淤	-12.7464
濼	-12.7465
嘈	-12.7465
賺	-12.7467
圻	-12.7472
朢	-12.7472
祉	-12.7473
腯	-12.7473
麕	-12.7473
臈	-12.7475
闖	-12.7475
蜣	-12.7475
癬	-12.7475
爹	-12.7476
濘	-12.7476
偘	-12.7476
沬	-12.7477
祫	-12.7477
栱	-12.7477
蟇	-12.7478
綮	-12.7479
痴	-12.7479
壐	-12.7479
桔	-12.7479
瀬	-12.7479
噏	-12.748
苹	-12.748
尽	-12.748
蹻	-12.7481
灊	-12.7481
鵩	-12.7481
瞢	-12.7481
猎	-12.7482
恟	-12.7482
枿	-12.7482
鍬	-12.7483
柝	-12.7483
呿	-12.7483
蕝	-12.7483
耨	-12.7484
蠓	-12.7484
僶	-12.7484
焜	-12.7485
襕	-12.7485
瑫	-12.7485
逶	-12.7485
拚	-12.7486
醲	-12.7487
𪠘	-12.7487
釂	-12.7487
彀	-12.7488
逭	-12.7488
圬	-12.7488
郫	-12.7488
瑇	-12.7488
尠	-12.7488
惙	-12.7489
鈒	-12.7489
嘑	-12.7489
趁	-12.7489
蜉	-12.7489
縟	-12.7489
餵	-12.749
捭	-12.749
躄	-12.749
搘	-12.749
祓	-12.749
圈	-12.7491
礴	-12.7491
巂	-12.7491
氤	-12.7492
枰	-12.7492
饍	-12.7493
筞	-12.7493
攏	-12.7493
穂	-12.7494
孱	-12.7495
魨	-12.7495
郃	-12.7495
忒	-12.7495
鸐	-12.7495
偎	-12.7496
眎	-12.7497
滚	-12.7497
氅	-12.7497
鷃	-12.7498
蒔	-12.7499
霾	-12.7499
緼	-12.7499
刓	-12.75
宁	-12.7501
薯	-12.7501
趫	-12.7501
摇	-12.7502
蠣	-12.7502
氾	-12.7504
罝	-12.7504
岏	-12.7504
儡	-12.7505
鮭	-12.7505
套	-12.7506
秭	-12.7508
漯	-12.7508
􁨇	-12.751
梔	-12.7511
咆	-12.7511
黝	-12.7511
芡	-12.7512
篥	-12.7512
獅	-12.8123
鷸	-12.8123
杌	-12.8128
輀	-12.8136
猒	-12.8139
岧	-12.814
猢	-12.814
𥚑	-12.8141
欎	-12.8141
鐐	-12.8143
䌫	-12.8143
疹	-12.8143
隍	-12.8144
疉	-12.8144
柎	-12.8144
个	-12.8144
蕕	-12.8145
愒	-12.8146
徊	-12.8146
桎	-12.8146
絁	-12.8146
梏	-12.8148
䖟	-12.8148
硃	-12.8149
凊	-12.8149
崢	-12.8149
韲	-12.815
鵉	-12.815
哆	-12.8151
窹	-12.8151
耦	-12.8152
橦	-12.8152
齠	-12.8152
𧺫	-12.8152
睞	-12.8152
譓	-12.8152
瀵	-12.8153
鯔	-12.8153
􁑮	-12.8153
阪	-12.8153
珫	-12.8154
葫	-12.8154
衊	-12.8154
晒	-12.8154
瀹	-12.8154
溘	-12.8155
衽	-12.8155
鞚	-12.8155
鰌	-12.8156
睍	-12.8156
脰	-12.8156
狻	-12.8156
蓁	-12.8157
蕳	-12.8157
貔	-12.8157
瓔	-12.8157
礼	-12.8157
刦	-12.8157
鏟	-12.8157
鮐	-12.8157
珞	-12.8158
繢	-12.8158
鯸	-12.8158
忭	-12.8158
𦦨	-12.8158
瓻	-12.8158
輈	-12.8159
蓴	-12.8159
麂	-12.8159
頞	-12.8159
棫	-12.816
綳	-12.8162
鶘	-12.8162
嫚	-12.8162
拇	-12.8163
呀	-12.8163
慱	-12.8165
柢	-12.8165
抝	-12.8165
賨	-12.8167
踢	-12.8167
茆	-12.8167
粃	-12.8167
棖	-12.8168
柂	-12.8169
碭	-12.8171
綝	-12.8171
鉸	-12.8172
踆	-12.8172
㡓	-12.8173
埭	-12.8175
玕	-12.8175
繰	-12.8175
鄔	-12.8176
麯	-12.8182
瑑	-12.8183
轆	-12.8193
轤	-12.8195
諞	-12.8195
鶬	-12.8827
噶	-12.8834
菉	-12.885
𬗋	-12.8852
涘	-12.8852
覦	-12.8852
馗	-12.8853
搯	-12.8854
癥	-12.8856
蚨	-12.8856
懔	-12.8856
滙	-12.8856
淯	-12.8857
眥	-12.8858
鮆	-12.8858
沭	-12.8858
顕	-12.8858
迁	-12.8861
媽	-12.8861
棼	-12.8861
髫	-12.8862
祺	-12.8862
橈	-12.8862
蜋	-12.8862
崤	-12.8862
魴	-12.8862
棓	-12.8862
恁	-12.8863
蜻	-12.8863
睪	-12.8864
迍	-12.8864
漼	-12.8865
邜	-12.8866
勌	-12.8866
凸	-12.8867
㠶	-12.8867
秔	-12.8867
桉	-12.8867
掎	-12.8867
櫨	-12.8867
蠪	-12.8868
趄	-12.8868
鮯	-12.8868
櫳	-12.8869
桁	-12.8869
膨	-12.8869
尻	-12.8869
楙	-12.887
窪	-12.887
睠	-12.887
獙	-12.8871
籹	-12.8871
薏	-12.8871
雘	-12.8871
芙	-12.8871
􁈡	-12.8871
籜	-12.8872
畞	-12.8872
臞	-12.8872
挼	-12.8873
𠂻	-12.8873
𣺌	-12.8873
碪	-12.8873
週	-12.8874
郿	-12.8874
蠵	-12.8875
萋	-12.8875
駰	-12.8875
絀	-12.8875
緦	-12.8875
鱅	-12.8875
餠	-12.8877
蚳	-12.8877
尙	-12.8877
娩	-12.8877
蜡	-12.8877
鑱	-12.8878
埀	-12.8878
韌	-12.8879
艫	-12.8881
洊	-12.8882
邡	-12.8882
襜	-12.8882
儦	-12.8882
觱	-12.8883
莵	-12.8884
珓	-12.8884
嘖	-12.8885
旐	-12.8885
𠻳	-12.8886
跟	-12.8887
娉	-12.8887
遅	-12.8888
茁	-12.8888
臮	-12.889
瘍	-12.8893
䦘	-12.8897
㝵	-12.891
佽	-12.961
螂	-12.961
鄖	-12.9616
鬍	-12.9617
甍	-12.9617
椉	-12.9618
峪	-12.9618
懟	-12.9619
裭	-12.9619
窬	-12.962
䏶	-12.9621
闉	-12.9622
蘺	-12.9623
躶	-12.9623
糵	-12.9624
侄	-12.9624
痾	-12.9625
躐	-12.9625
諉	-12.9625
帊	-12.9626
嚏	-12.9626
蜾	-12.9627
摳	-12.9627
嗽	-12.9628
騖	-12.9629
慼	-12.9629
票	-12.9629
迩	-12.9629
崕	-12.9629
瞩	-12.963
呷	-12.9631
趯	-12.9632
鐔	-12.9632
𡵨	-12.9632
刖	-12.9633
擗	-12.9633
瑚	-12.9633
嬋	-12.9634
秖	-12.9634
蠚	-12.9635
珩	-12.9635
愳	-12.9635
簴	-12.9636
蹀	-12.9636
枵	-12.9636
訇	-12.9636
戺	-12.9637
遡	-12.9637
椑	-12.9637
桴	-12.9638
鸑	-12.9638
藐	-12.9638
埴	-12.9639
崍	-12.9639
鮧	-12.9639
䉋	-12.9639
儺	-12.9639
菡	-12.964
倮	-12.964
麑	-12.964
傔	-12.9641
櫚	-12.9642
嶢	-12.9642
紲	-12.9643
罨	-12.9643
劚	-12.9643
蓺	-12.9643
侠	-12.9643
爱	-12.9644
􁄭	-12.9644
砭	-12.9644
摻	-12.9645
砑	-12.9645
咈	-12.9645
蔲	-12.9646
悃	-12.9646
瞎	-12.9646
茜	-12.9646
虓	-12.9647
颶	-12.9647
蜞	-12.9647
䘖	-12.9647
戣	-12.9647
㦲	-12.9648
肈	-12.9648
邨	-12.9648
萹	-12.9649
􁫢	-12.9649
藎	-12.965
鱷	-12.9651
酩	-12.9652
頏	-12.9652
韐	-12.9653
僃	-12.9653
狪	-12.9656
貆	-12.9656
纁	-12.9657
㴩	-12.9657
淙	-12.9659
戬	-12.9662
煅	-12.9664
銕	-12.9668
焼	-12.9673
罳	-13.0419
􁌻	-13.0436
鬘	-13.0448
侗	-13.045
嫣	-13.045
仵	-13.0451
菘	-13.0453
曁	-13.0455
􁏢	-13.0456
矴	-13.0456
很	-13.0456
􁩪	-13.0457
䥫	-13.0458
挐	-13.0458
洿	-13.0459
?	-13.0459
剩	-13.0459
鴒	-13.046
啁	-13.046
璝	-13.046
槧	-13.046
号	-13.046
穄	-13.0461
䬃	-13.0461
幛	-13.0463
哦	-13.0463
滲	-13.0463
籞	-13.0463
瞍	-13.0463
贜	-13.0464
倏	-13.0464
薿	-13.0464
洼	-13.0464
鷇	-13.0464
詖	-13.0464
䳌	-13.0465
塍	-13.0465
弥	-13.0465
糯	-13.0465
㬰	-13.0466
捺	-13.0466
鍰	-13.0466
􁏏	-13.0466
垠	-13.0466
墁	-13.0467
鷖	-13.0467
峥	-13.0467
牎	-13.0467
賵	-13.0467
蠭	-13.0468
删	-13.0468
噦	-13.0468
釃	-13.0468
鳧	-13.0469
眈	-13.047
㩁	-13.047
垤	-13.047
斕	-13.0471
邛	-13.0471
錙	-13.0472
葌	-13.0472
瓛	-13.0473
旟	-13.0473
訏	-13.0474
呶	-13.0474
牴	-13.0474
㝢	-13.0474
絺	-13.0475
廚	-13.0475
誗	-13.0475
椶	-13.0475
雊	-13.0475
秬	-13.0475
豋	-13.0476
鼙	-13.0477
炅	-13.0477
晬	-13.0477
嗌	-13.0478
袷	-13.0478
欬	-13.0478
淼	-13.0478
軏	-13.0479
鍠	-13.0479
萏	-13.0479
脞	-13.0479
歕	-13.048
鷮	-13.048
鯪	-13.048
摰	-13.0481
淅	-13.0481
迕	-13.0481
鯈	-13.0481
搒	-13.0481
靛	-13.0482
檉	-13.0482
硤	-13.0482
勳	-13.0482
輾	-13.0482
蚪	-13.0483
鋟	-13.0483
狺	-13.0483
丫	-13.0484
壈	-13.0484
駘	-13.0485
聪	-13.0485
莓	-13.0487
煆	-13.0488
訆	-13.0488
圌	-13.0489
愐	-13.049
醅	-13.049
舐	-13.0491
愻	-13.0491
鍮	-13.0495
裛	-13.0495
昜	-13.0497
卅	-13.0514
瀣	-13.0517
滷	-13.0521
杙	-13.134
燁	-13.1346
罡	-13.1351
㬇	-13.1354
耜	-13.1354
銑	-13.1355
褭	-13.1357
璥	-13.1359
郟	-13.136
栩	-13.136
砆	-13.1362
恧	-13.1364
䄄	-13.1364
炉	-13.1364
牣	-13.1365
忮	-13.1366
䌓	-13.1367
鳲	-13.1367
爚	-13.1367
渌	-13.1368
咂	-13.1368
匯	-13.1368
婭	-13.1369
竆	-13.1369
􁒍	-13.137
鼃	-13.137
罸	-13.137
蚰	-13.137
㒷	-13.137
姆	-13.1371
杆	-13.1371
屆	-13.1371
鑛	-13.1372
稳	-13.1372
𠡠	-13.1373
篷	-13.1373
阬	-13.1373
粛	-13.1373
赬	-13.1373
朌	-13.1373
燻	-13.1374
沲	-13.1374
泜	-13.1375
䓘	-13.1376
璈	-13.1377
姫	-13.1377
芘	-13.1377
燖	-13.1377
杠	-13.1378
跧	-13.1378
蔥	-13.1379
鄱	-13.1379
琹	-13.1379
裩	-13.1379
鶼	-13.1379
篴	-13.138
砢	-13.1381
舳	-13.1381
螗	-13.1381
汐	-13.1381
蠐	-13.1381
齔	-13.1381
臝	-13.1382
曈	-13.1382
靶	-13.1382
顦	-13.1383
蔌	-13.1383
吭	-13.1383
撙	-13.1383
􁃄	-13.1384
禩	-13.1384
鄼	-13.1384
皛	-13.1384
惬	-13.1384
耍	-13.1384
􁂚	-13.1384
擦	-13.1384
帋	-13.1385
杅	-13.1385
簳	-13.1385
桄	-13.1385
䱻	-13.1386
嫠	-13.1386
炰	-13.1386
莧	-13.1386
峳	-13.1386
憕	-13.1387
煽	-13.1387
灋	-13.1387
㡳	-13.1388
洺	-13.1389
眊	-13.1389
䱜	-13.139
栅	-13.139
柷	-13.1391
恝	-13.1391
嚲	-13.1392
跏	-13.1395
幍	-13.1396
愊	-13.1397
戛	-13.1397
㣧	-13.1397
繍	-13.1397
櫻	-13.1398
鸝	-13.1398
硎	-13.1398
份	-13.1399
紞	-13.1399
汛	-13.14
跚	-13.14
狴	-13.1401
瞠	-13.1402
旴	-13.1403
郪	-13.141
潨	-13.1412
跽	-13.1422
雏	-13.1428
偌	-13.1459
洸	-13.2301
櫄	-13.2328
嵊	-13.2336
䛆	-13.2336
枻	-13.2347
蕎	-13.2351
桕	-13.2353
螘	-13.2354
瑝	-13.2354
􁇔	-13.2355
箝	-13.2355
满	-13.2357
尭	-13.2357
俜	-13.2359
昷	-13.2359
㬢	-13.236
嗑	-13.2362
撇	-13.2362
棕	-13.2363
洫	-13.2363
㑭	-13.2363
僇	-13.2365
灝	-13.2365
􁁅	-13.2366
▫	-13.2366
鞹	-13.2366
剸	-13.2366
厩	-13.2366
逥	-13.2366
偲	-13.2367
墼	-13.2367
霎	-13.2367
凟	-13.2367
蛣	-13.2367
媯	-13.2368
缽	-13.2368
膈	-13.2368
瓴	-13.2368
峋	-13.2369
潬	-13.2369
𫐠	-13.2369
浥	-13.2369
膞	-13.2369
滇	-13.237
羕	-13.2371
兌	-13.2371
斮	-13.2371
隥	-13.2371
徕	-13.2372
檇	-13.2372
鷴	-13.2372
蠹	-13.2373
稲	-13.2373
苡	-13.2373
𨫼	-13.2373
讟	-13.2374
礮	-13.2374
粽	-13.2375
嬸	-13.2375
櫂	-13.2375
鶂	-13.2375
鋩	-13.2376
磈	-13.2376
𤯝	-13.2376
踔	-13.2376
飮	-13.2376
駃	-13.2377
洑	-13.2377
鏊	-13.2377
觷	-13.2377
瑨	-13.2377
嵯	-13.2378
穣	-13.2378
劘	-13.2378
􁡤	-13.2379
􁳜	-13.2379
饞	-13.238
璲	-13.238
鴦	-13.238
菹	-13.238
颼	-13.238
坰	-13.238
寬	-13.238
鼷	-13.238
狃	-13.2381
湩	-13.2381
韀	-13.2381
鱔	-13.2381
繅	-13.2381
傒	-13.2381
絝	-13.2381
朘	-13.2381
鍪	-13.2381
刉	-13.2382
琶	-13.2382
緗	-13.2382
茙	-13.2382
􁪳	-13.2382
曀	-13.2383
郜	-13.2383
鵾	-13.2383
鴸	-13.2383
獳	-13.2383
雚	-13.2384
宄	-13.2384
祸	-13.2384
賕	-13.2385
沍	-13.2385
鱃	-13.2385
孌	-13.2386
瞭	-13.2386
荽	-13.2386
捎	-13.2386
黟	-13.2386
䊸	-13.2386
褉	-13.2386
猙	-13.2386
胛	-13.2387
坻	-13.2387
輛	-13.2387
􁪽	-13.2387
㞐	-13.2388
熄	-13.2388
蹏	-13.2388
粕	-13.2389
鏜	-13.2389
确	-13.2389
臙	-13.239
蒍	-13.2391
寚	-13.2391
螃	-13.2392
肫	-13.2392
髄	-13.2393
茰	-13.2393
魋	-13.2393
籪	-13.2394
挲	-13.2395
蘊	-13.2395
牯	-13.2396
旤	-13.2396
鵽	-13.2396
狁	-13.2396
􁘠	-13.2396
澱	-13.2397
龢	-13.2397
齁	-13.2397
颷	-13.2398
蟋	-13.2398
醎	-13.2399
􁔺	-13.2399
苫	-13.24
您	-13.24
靠	-13.2401
懺	-13.2401
䍧	-13.2402
岵	-13.2403
緤	-13.2404
瞤	-13.2405
适	-13.2406
蔞	-13.2406
𣏌	-13.2406
齩	-13.2407
鄕	-13.2407
舩	-13.2407
另	-13.241
稈	-13.2411
鎡	-13.2413
芍	-13.2415
畹	-13.2415
秊	-13.2433
嫖	-13.2438
􁀳	-13.3454
繄	-13.3455
餡	-13.3456
塿	-13.3459
㐲	-13.3459
􁃻	-13.3462
鄏	-13.3462
蟜	-13.3463
厷	-13.3464
齓	-13.3465
囝	-13.3465
􁍄	-13.347
縡	-13.3471
蹠	-13.3472
𣪚	-13.3472
棉	-13.3473
坏	-13.3473
枲	-13.3473
嶄	-13.3474
泔	-13.3474
筲	-13.3475
暍	-13.3475
輶	-13.3476
麺	-13.3476
丨	-13.3476
謖	-13.3477
劊	-13.3479
頁	-13.3479
騘	-13.3479
鏵	-13.3479
癲	-13.3479
㮚	-13.348
鎌	-13.348
逌	-13.348
􁂄	-13.3481
砦	-13.3481
猺	-13.3481
繂	-13.3482
睒	-13.3482
㹅	-13.3482
鈃	-13.3482
邰	-13.3483
饀	-13.3483
卹	-13.3484
酇	-13.3485
癎	-13.3485
襚	-13.3485
狢	-13.3485
痓	-13.3485
穜	-13.3485
騭	-13.3486
骭	-13.3486
澇	-13.3486
砟	-13.3486
楶	-13.3487
肹	-13.3487
翶	-13.3487
軛	-13.3487
鬿	-13.3487
憀	-13.3487
窰	-13.3487
韮	-13.3487
礜	-13.3488
皦	-13.3488
痿	-13.3488
穪	-13.3488
罐	-13.3488
峚	-13.3489
蚶	-13.3489
恓	-13.3489
惨	-13.349
憝	-13.349
詒	-13.349
臬	-13.349
褢	-13.349
丌	-13.349
䳋	-13.3491
垓	-13.3491
瑿	-13.3491
䔄	-13.3491
稺	-13.3492
咮	-13.3492
櫧	-13.3492
㛮	-13.3492
聵	-13.3492
揕	-13.3493
狍	-13.3493
璚	-13.3493
鸓	-13.3493
䏰	-13.3493
􁃇	-13.3493
樾	-13.3493
檿	-13.3494
舗	-13.3494
𥅆	-13.3494
惚	-13.3494
嗉	-13.3495
箬	-13.3495
瘼	-13.3495
轔	-13.3495
鵫	-13.3495
跗	-13.3496
贔	-13.3496
籛	-13.3497
猧	-13.3497
鰻	-13.3497
閡	-13.3497
覯	-13.3497
媱	-13.3498
癙	-13.3498
騤	-13.3498
汊	-13.3498
嘹	-13.3498
曏	-13.3498
抨	-13.3499
暏	-13.3499
盬	-13.3499
鐻	-13.3499
耴	-13.3499
琈	-13.3499
譫	-13.35
暾	-13.35
蝡	-13.35
逑	-13.3501
穨	-13.3501
獋	-13.3501
銚	-13.3501
鋺	-13.3501
滽	-13.3502
櫰	-13.3502
麨	-13.3502
柜	-13.3502
俁	-13.3502
哇	-13.3502
姧	-13.3502
蝇	-13.3503
渢	-13.3503
瞀	-13.3503
霪	-13.3503
謦	-13.3503
􁡖	-13.3504
町	-13.3504
泪	-13.3505
笴	-13.3505
躧	-13.3506
惣	-13.3506
蚕	-13.3506
蜯	-13.3506
渟	-13.3507
虔	-13.3507
瘻	-13.3508
尿	-13.3509
蠍	-13.3509
䴡	-13.3509
渲	-13.3509
攧	-13.3509
鳷	-13.3509
璅	-13.3511
攙	-13.3512
􁂫	-13.3514
墖	-13.3515
騙	-13.3516
鵜	-13.3519
换	-13.352
辠	-13.3521
縵	-13.3523
􁅥	-13.3526
埓	-13.3528
絇	-13.3531
䕷	-13.3533
仿	-13.3534
􁟆	-13.3564
蠋	-13.4636
暕	-13.4685
悊	-13.4688
䌈	-13.4695
囈	-13.4711
蟛	-13.4712
咫	-13.4716
宧	-13.4717
剨	-13.4717
渰	-13.4719
饟	-13.472
涑	-13.4722
蝻	-13.4725
軆	-13.4725
甬	-13.4726
鵪	-13.4726
忼	-13.4728
􁍯	-13.4728
冑	-13.4728
轓	-13.4728
􁙻	-13.4729
噓	-13.4729
牗	-13.4729
獍	-13.4729
荗	-13.473
孿	-13.473
椆	-13.473
樷	-13.473
睱	-13.473
徉	-13.473
鞈	-13.4731
赶	-13.4731
辿	-13.4731
汔	-13.4731
㶌	-13.4731
絨	-13.4732
溽	-13.4732
逯	-13.4732
藳	-13.4732
鷫	-13.4732
瘉	-13.4732
鈸	-13.4732
㹮	-13.4732
犳	-13.4733
紒	-13.4733
騄	-13.4734
蛀	-13.4734
壍	-13.4734
汹	-13.4734
恇	-13.4735
胗	-13.4735
桅	-13.4735
􁬸	-13.4735
楬	-13.4735
颿	-13.4735
幀	-13.4736
縧	-13.4736
熇	-13.4736
犛	-13.4736
鑞	-13.4736
幗	-13.4736
缻	-13.4737
鎪	-13.4737
疚	-13.4738
遟	-13.4738
琤	-13.4738
佉	-13.4739
牷	-13.4739
漙	-13.4739
蜩	-13.4739
茝	-13.4739
踶	-13.474
韃	-13.474
琲	-13.4741
俵	-13.4741
眤	-13.4742
荈	-13.4742
閠	-13.4742
唤	-13.4742
􁏉	-13.4742
躩	-13.4743
肸	-13.4743
倂	-13.4743
眘	-13.4743
澌	-13.4743
揎	-13.4743
怵	-13.4744
蜆	-13.4744
賷	-13.4744
柸	-13.4745
啚	-13.4745
泆	-13.4745
妲	-13.4745
羭	-13.4745
坯	-13.4745
卬	-13.4745
灧	-13.4745
菠	-13.4745
楄	-13.4746
薌	-13.4747
䃌	-13.4748
鬅	-13.4748
攴	-13.4748
圊	-13.4749
亰	-13.4749
黁	-13.4749
畊	-13.4749
黧	-13.4749
蒹	-13.475
胖	-13.475
剚	-13.4751
歊	-13.4751
眚	-13.4751
獎	-13.4751
胝	-13.4752
苨	-13.4752
𦍑	-13.4752
呫	-13.4752
㗸	-13.4753
搊	-13.4753
㷔	-13.4753
籲	-13.4753
臑	-13.4753
輭	-13.4754
鬷	-13.4754
䗤	-13.4754
藟	-13.4754
莪	-13.4755
凰	-13.4755
襤	-13.4755
棁	-13.4756
鑕	-13.4756
夬	-13.4757
耎	-13.4758
簑	-13.4758
銙	-13.4758
趠	-13.4758
毡	-13.4758
檛	-13.4759
栒	-13.4759
樿	-13.4759
濂	-13.4759
鶋	-13.476
鄮	-13.4761
獫	-13.4762
蓉	-13.4762
􁋙	-13.4762
􁔼	-13.4763
訑	-13.4764
雝	-13.4764
揵	-13.4764
秧	-13.4764
眨	-13.4765
㢮	-13.4765
􁨊	-13.4767
廱	-13.4768
㨂	-13.4769
鬒	-13.4769
鰓	-13.477
悱	-13.477
榕	-13.4771
萆	-13.4773
倞	-13.4775
摑	-13.4782
繶	-13.4783
嚨	-13.4785
頧	-13.4833
咺	-13.606
𡼏	-13.6122
湋	-13.6126
璐	-13.6126
坈	-13.6127
嗓	-13.6128
畸	-13.6131
􁦍	-13.6137
䟎	-13.614
帬	-13.614
􁁙	-13.614
㲲	-13.6141
壎	-13.6142
鶱	-13.6142
楩	-13.6142
榿	-13.6143
揾	-13.6143
痏	-13.6144
泐	-13.6145
旎	-13.6146
隃	-13.6147
噆	-13.6149
耼	-13.6149
龠	-13.6149
嬿	-13.6149
訹	-13.6149
圑	-13.615
􁏈	-13.615
鞞	-13.6151
憍	-13.6151
淊	-13.6152
开	-13.6152
矰	-13.6153
㫋	-13.6153
桯	-13.6153
㛐	-13.6153
渷	-13.6153
羚	-13.6153
庋	-13.6154
㺊	-13.6155
鷦	-13.6155
薁	-13.6155
宐	-13.6155
笁	-13.6155
儇	-13.6155
珵	-13.6155
􁋢	-13.6155
獒	-13.6156
賮	-13.6157
樺	-13.6157
冇	-13.6158
霣	-13.6158
碟	-13.6158
絏	-13.6158
佀	-13.6158
膴	-13.6158
雰	-13.6159
蝘	-13.6159
􁙼	-13.6159
糁	-13.616
樝	-13.616
䠞	-13.616
欀	-13.616
飦	-13.616
豨	-13.6161
宝	-13.6161
綌	-13.6161
麖	-13.6161
疴	-13.6161
栯	-13.6161
渊	-13.6161
㽵	-13.6163
僰	-13.6163
惸	-13.6164
洄	-13.6164
耋	-13.6164
胅	-13.6164
黌	-13.6164
巇	-13.6164
䔥	-13.6164
粢	-13.6164
躞	-13.6164
墠	-13.6165
薲	-13.6165
鰾	-13.6165
迃	-13.6165
筥	-13.6165
皈	-13.6165
嫵	-13.6165
錘	-13.6166
沗	-13.6166
璺	-13.6166
鼬	-13.6166
蕣	-13.6166
篪	-13.6167
忸	-13.6167
䜴	-13.6167
嵘	-13.6167
搓	-13.6167
螄	-13.6167
僱	-13.6167
蚘	-13.6167
䰠	-13.6168
貘	-13.6168
敡	-13.6168
晠	-13.6168
􁐰	-13.6169
㛗	-13.6169
琵	-13.6169
瀏	-13.6169
𬋩	-13.6169
𤞞	-13.6169
琁	-13.6169
樅	-13.6169
蕐	-13.6169
堲	-13.6169
剟	-13.617
卣	-13.617
鎛	-13.617
􁖅	-13.617
䖀	-13.617
苃	-13.6171
􁀊	-13.6171
袄	-13.6171
摉	-13.6171
溍	-13.6171
𢋫	-13.6171
姁	-13.6171
魮	-13.6171
碔	-13.6172
􁙯	-13.6172
莩	-13.6173
嗛	-13.6173
弢	-13.6173
刧	-13.6173
辮	-13.6173
晊	-13.6174
􁁱	-13.6174
醑	-13.6174
濰	-13.6175
霹	-13.6175
餺	-13.6175
葶	-13.6175
攲	-13.6175
鞲	-13.6176
貙	-13.6176
譾	-13.6176
煗	-13.6176
灂	-13.6176
嶔	-13.6177
􁙹	-13.6177
篘	-13.6177
嬈	-13.6177
籧	-13.6177
餕	-13.6177
燐	-13.6177
狳	-13.6177
杬	-13.6178
旼	-13.6178
硌	-13.6178
珀	-13.6178
蘢	-13.618
塪	-13.618
鯥	-13.618
剮	-13.618
蕷	-13.6181
纑	-13.6181
簌	-13.6181
𫾣	-13.6181
离	-13.6181
襧	-13.6181
礧	-13.6181
茇	-13.6181
㻬	-13.6181
樕	-13.6182
记	-13.6182
艧	-13.6182
頮	-13.6183
曨	-13.6183
澮	-13.6184
􁂣	-13.6184
鄷	-13.6184
䖺	-13.6184
䓗	-13.6184
㗋	-13.6184
蟞	-13.6185
喭	-13.6185
阽	-13.6185
唼	-13.6186
趐	-13.6186
舵	-13.6187
洈	-13.6189
覉	-13.6189
躰	-13.6189
棪	-13.6189
􁧑	-13.619
䳐	-13.6191
剄	-13.6192
蹣	-13.6194
搕	-13.6194
麀	-13.6196
栻	-13.6196
熠	-13.6196
佋	-13.6197
硝	-13.6198
􁲕	-13.6198
譍	-13.6199
㹥	-13.6199
踝	-13.62
禨	-13.6201
晛	-13.6202
扯	-13.6203
筓	-13.6203
鬆	-13.6203
禔	-13.6203
餖	-13.6204
翆	-13.6207
蠔	-13.6218
灮	-13.6221
鄄	-13.6237
􁅃	-13.6244
鐲	-13.7729
􁊃	-13.777
􁉘	-13.7784
禫	-13.7785
侲	-13.7791
姢	-13.7792
渫	-13.7795
篰	-13.7797
瞚	-13.7797
邍	-13.7798
賒	-13.7799
櫸	-13.78
龑	-13.78
䣙	-13.7801
沚	-13.7803
籤	-13.7804
莠	-13.7804
瓆	-13.7805
黶	-13.7805
鮀	-13.7805
囏	-13.7806
㬙	-13.7808
鯾	-13.7808
鷯	-13.781
涣	-13.781
蹯	-13.7811
惝	-13.7811
眶	-13.7811
餁	-13.7811
媮	-13.7812
槲	-13.7813
埻	-13.7815
扱	-13.7815
箑	-13.7816
榘	-13.7816
􁑰	-13.7816
鱧	-13.7816
䁀	-13.7817
􁂁	-13.7817
鷔	-13.7817
醊	-13.7817
篐	-13.7818
鞔	-13.7818
溈	-13.7818
嚶	-13.7819
蚖	-13.7819
楦	-13.782
􁞙	-13.782
坳	-13.782
帨	-13.7821
嘅	-13.7822
籕	-13.7822
糙	-13.7822
踦	-13.7823
琖	-13.7823
綟	-13.7823
䍺	-13.7824
篨	-13.7824
奧	-13.7824
􁐜	-13.7824
国	-13.7824
􁂧	-13.7824
輗	-13.7824
竸	-13.7825
葳	-13.7825
窽	-13.7825
捏	-13.7825
蓨	-13.7825
舠	-13.7826
㒵	-13.7826
㘦	-13.7826
礟	-13.7826
担	-13.7827
蕢	-13.7827
胾	-13.7827
姖	-13.7827
瞶	-13.7827
籩	-13.7827
玢	-13.7828
抔	-13.7828
梠	-13.7828
檷	-13.7828
蓻	-13.7828
䔍	-13.7828
皜	-13.7828
鱄	-13.7828
祍	-13.7829
紃	-13.7829
袿	-13.7829
䃤	-13.7829
餫	-13.7829
撈	-13.783
鈇	-13.783
瓿	-13.783
慠	-13.7831
贋	-13.7831
劓	-13.7831
闃	-13.7831
霔	-13.7831
窊	-13.7831
裲	-13.7831
􁫕	-13.7832
􁊲	-13.7833
姉	-13.7833
蓂	-13.7833
訞	-13.7833
翣	-13.7833
総	-13.7834
竞	-13.7834
鼯	-13.7834
蝯	-13.7834
俑	-13.7835
𠢐	-13.7835
ဂ	-13.7835
餈	-13.7835
凳	-13.7835
抶	-13.7835
鮸	-13.7835
蓇	-13.7835
晰	-13.7835
崿	-13.7836
晻	-13.7836
荄	-13.7836
姹	-13.7836
縄	-13.7836
眭	-13.7836
􁅔	-13.7836
詾	-13.7836
崌	-13.7837
擂	-13.7837
酗	-13.7837
啅	-13.7837
寑	-13.7837
襞	-13.7837
麛	-13.7837
􁒷	-13.7837
尨	-13.7837
􁯛	-13.7837
䐁	-13.7838
枃	-13.7838
蘩	-13.7838
嫰	-13.7838
㡩	-13.7839
筏	-13.7839
絍	-13.7839
闑	-13.7839
􁑼	-13.7839
濞	-13.7839
穋	-13.7839
萟	-13.784
繐	-13.784
挨	-13.784
珦	-13.784
娵	-13.784
㘭	-13.7841
憣	-13.7841
􁄻	-13.7842
簋	-13.7842
搽	-13.7842
㳫	-13.7842
氍	-13.7843
頦	-13.7843
鱤	-13.7843
輴	-13.7843
觶	-13.7843
榎	-13.7843
幬	-13.7843
䴅	-13.7843
鞉	-13.7843
翀	-13.7843
卺	-13.7844
豗	-13.7844
叜	-13.7844
糒	-13.7844
蜨	-13.7844
㰱	-13.7844
宷	-13.7845
蝀	-13.7845
􁇭	-13.7845
樛	-13.7846
􁁑	-13.7846
㵸	-13.7846
奶	-13.7846
硜	-13.7846
氂	-13.7846
棷	-13.7846
潕	-13.7846
鰧	-13.7846
犰	-13.7846
螮	-13.7847
狶	-13.7847
憙	-13.7847
犴	-13.7847
磽	-13.7847
瀋	-13.7848
庀	-13.7848
糢	-13.7848
胚	-13.7848
䗶	-13.7849
澷	-13.7849
笆	-13.7849
煕	-13.785
噂	-13.785
􁀨	-13.785
髢	-13.785
栰	-13.785
訌	-13.785
兑	-13.785
妗	-13.7851
嬲	-13.7851
碏	-13.7851
莬	-13.7852
廆	-13.7852
漑	-13.7852
䯻	-13.7853
拴	-13.7853
跱	-13.7853
幰	-13.7854
嶙	-13.7854
㳅	-13.7855
棱	-13.7855
鼵	-13.7855
硾	-13.7856
尢	-13.7856
蛮	-13.7856
磶	-13.7856
溼	-13.7857
杮	-13.7857
偬	-13.7857
􁁪	-13.7857
䱐	-13.7858
褧	-13.7859
罋	-13.786
犨	-13.786
􁎀	-13.786
嶰	-13.786
襌	-13.786
鯿	-13.7861
慍	-13.7862
簉	-13.7862
􁂶	-13.7862
厎	-13.7863
琥	-13.7863
䧿	-13.7864
魶	-13.7864
呆	-13.7865
騑	-13.7865
堨	-13.7865
䵷	-13.7866
􁒓	-13.7868
騧	-13.7868
閗	-13.787
鬨	-13.787
挻	-13.7871
袱	-13.7871
菶	-13.7873
蚏	-13.7874
袝	-13.7875
龞	-13.7876
桿	-13.788
䎶	-13.7882
􁐾	-13.7883
䀾	-13.7884
鯶	-13.7903
啷	-13.7905
菆	-13.9762
扠	-13.9785
抳	-13.979
勱	-13.979
堝	-13.9792
􁆁	-13.9793
􁡡	-13.9799
瑮	-13.98
濙	-13.9802
撐	-13.9803
􁩹	-13.9804
饆	-13.9804
橑	-13.9805
􁎗	-13.9805
錔	-13.9805
黳	-13.9805
莉	-13.9806
惮	-13.9806
鈲	-13.9806
磷	-13.9807
溴	-13.9808
剞	-13.9808
揲	-13.981
碕	-13.981
珷	-13.981
儧	-13.9811
噩	-13.9812
􁣌	-13.9812
萁	-13.9812
苪	-13.9812
䳼	-13.9813
齶	-13.9813
秸	-13.9813
嬢	-13.9813
禓	-13.9813
􁭤	-13.9813
㢠	-13.9813
䳵	-13.9814
禡	-13.9815
埧	-13.9815
佷	-13.9815
饠	-13.9815
猓	-13.9815
龣	-13.9815
蟨	-13.9816
碙	-13.9816
㪺	-13.9816
唶	-13.9816
􁙰	-13.9816
厫	-13.9816
岠	-13.9817
嚗	-13.9817
鏨	-13.9818
醁	-13.9819
䂊	-13.9819
鍱	-13.982
韤	-13.982
蜇	-13.982
觕	-13.982
虯	-13.9821
讕	-13.9821
攖	-13.9821
矞	-13.9821
蟁	-13.9822
踠	-13.9823
萝	-13.9823
帰	-13.9823
旡	-13.9823
㠯	-13.9824
􁗁	-13.9824
餦	-13.9824
濜	-13.9824
􁙷	-13.9824
磅	-13.9825
竁	-13.9825
􁊬	-13.9825
澒	-13.9825
颭	-13.9825
􁱘	-13.9825
罾	-13.9825
崎	-13.9826
􁑛	-13.9826
熂	-13.9826
弞	-13.9827
仐	-13.9827
焕	-13.9827
蓧	-13.9827
𤾉	-13.9828
厘	-13.9828
􁵬	-13.9828
㴻	-13.9828
䁥	-13.9828
醆	-13.9828
衕	-13.9828
礹	-13.9828
幪	-13.9829
痠	-13.9829
蔴	-13.9829
貛	-13.983
櫈	-13.983
梐	-13.983
戻	-13.983
椵	-13.9831
霶	-13.9831
筇	-13.9831
葪	-13.9831
鈷	-13.9831
鱏	-13.9831
􁖔	-13.9831
暵	-13.9831
瞷	-13.9832
夋	-13.9833
㶑	-13.9833
䘵	-13.9833
胔	-13.9833
􁤝	-13.9833
抆	-13.9833
嫻	-13.9833
洌	-13.9833
侫	-13.9834
蒻	-13.9834
柹	-13.9834
蟮	-13.9834
䍸	-13.9835
豰	-13.9835
昐	-13.9835
齚	-13.9835
箎	-13.9835
餔	-13.9835
䖴	-13.9835
韝	-13.9835
䀋	-13.9836
蘪	-13.9836
萑	-13.9836
鵌	-13.9836
剳	-13.9837
躃	-13.9837
􁁄	-13.9837
鮨	-13.9837
頬	-13.9837
榑	-13.9837
㔮	-13.9837
絣	-13.9838
皖	-13.9838
撘	-13.9838
簠	-13.9838
􁃪	-13.9838
􁠣	-13.9838
纕	-13.9838
􁙵	-13.9838
拐	-13.9838
癤	-13.9838
窨	-13.9839
瀼	-13.9839
慆	-13.9839
体	-13.9839
笮	-13.9839
飃	-13.9839
栭	-13.9839
夯	-13.984
漊	-13.984
彜	-13.984
鍚	-13.984
􁀗	-13.984
􁎐	-13.9841
䐈	-13.9841
􁐨	-13.9841
时	-13.9841
辞	-13.9841
鏌	-13.9841
呢	-13.9842
浃	-13.9842
謷	-13.9842
䵟	-13.9842
柙	-13.9842
鼗	-13.9843
喁	-13.9843
蘀	-13.9843
鴢	-13.9843
獂	-13.9843
枹	-13.9844
甝	-13.9844
䮝	-13.9844
􁆞	-13.9844
禈	-13.9844
惷	-13.9844
餱	-13.9844
厖	-13.9844
碇	-13.9844
墦	-13.9844
䲃	-13.9845
葚	-13.9845
􁨑	-13.9845
傜	-13.9846
珚	-13.9846
觡	-13.9846
􁇨	-13.9846
􁡎	-13.9846
􁱈	-13.9846
䖪	-13.9846
痤	-13.9847
螾	-13.9847
疢	-13.9847
庥	-13.9847
蘤	-13.9847
鵺	-13.9848
蹵	-13.9848
膻	-13.9848
坟	-13.9848
彍	-13.9848
舲	-13.9848
萵	-13.9848
􁐍	-13.9849
禬	-13.9849
鬕	-13.985
匃	-13.985
㫺	-13.985
佟	-13.985
倧	-13.985
貐	-13.985
墙	-13.9851
亝	-13.9851
刜	-13.9851
詶	-13.9851
臋	-13.9851
膋	-13.9852
讁	-13.9852
釴	-13.9853
惽	-13.9853
酔	-13.9853
斲	-13.9853
愓	-13.9854
胆	-13.9854
琱	-13.9854
戹	-13.9854
㑺	-13.9855
靿	-13.9856
袽	-13.9856
褙	-13.9856
狽	-13.9856
砮	-13.9857
佪	-13.9857
篝	-13.9857
凴	-13.9857
㐨	-13.9857
㺄	-13.9858
㝎	-13.9858
肎	-13.9858
纇	-13.9858
訿	-13.9858
慽	-13.9858
䰽	-13.9859
禭	-13.9859
噇	-13.9859
栟	-13.9859
荑	-13.986
魟	-13.986
屓	-13.9861
滃	-13.9861
灺	-13.9862
搐	-13.9863
慷	-13.9863
紖	-13.9864
倥	-13.9865
晫	-13.9865
􁅨	-13.9865
􁉓	-13.9866
蟢	-13.9867
灶	-13.9868
􁦹	-13.987
􁒂	-13.9871
蟺	-13.9872
薷	-13.9874
鞓	-13.9874
麹	-13.9875
䴵	-13.9876
巙	-13.9877
茴	-13.9879
裓	-13.9883
䈥	-13.9885
㲪	-13.9886
隖	-13.9887
􁧏	-13.99
􁇜	-13.9909
􁧕	-13.9909
葖	-13.9961
靁	-14.2207
蘗	-14.2217
呱	-14.2252
嗁	-14.2265
䛒	-14.2272
戔	-14.2275
㣼	-14.2276
寉	-14.2276
髁	-14.2286
􁱪	-14.2286
燑	-14.2288
荣	-14.2288
毖	-14.229
昈	-14.2291
縆	-14.2291
澋	-14.2291
忺	-14.2293
唘	-14.2293
婇	-14.2294
䄡	-14.2295
嶪	-14.2295
茞	-14.2296
㪯	-14.2297
􁋊	-14.2297
􁱔	-14.2297
軔	-14.2298
槪	-14.2299
慌	-14.2301
瘋	-14.2301
骹	-14.2302
䲻	-14.2302
鼊	-14.2303
卾	-14.2304
垞	-14.2305
嵒	-14.2305
屧	-14.2305
鞗	-14.2306
㞦	-14.2306
嶁	-14.2306
蜱	-14.2306
嵸	-14.2306
眡	-14.2306
瞹	-14.2308
溆	-14.2309
傫	-14.2309
壩	-14.2309
掦	-14.2309
􁘔	-14.2309
菀	-14.231
賠	-14.231
鏻	-14.2311
栔	-14.2311
驁	-14.2312
㪍	-14.2312
嫓	-14.2313
䃜	-14.2313
濾	-14.2313
猕	-14.2313
䈙	-14.2313
墐	-14.2315
泿	-14.2315
慓	-14.2316
礠	-14.2316
蝱	-14.2316
騸	-14.2316
䘿	-14.2316
啐	-14.2316
􁓵	-14.2316
犲	-14.2316
鼣	-14.2317
枓	-14.2317
伾	-14.2317
踨	-14.2317
繙	-14.2318
𢷬	-14.2319
苽	-14.2319
唏	-14.2319
芤	-14.2319
訔	-14.232
㭊	-14.232
磪	-14.232
袜	-14.232
斈	-14.232
汯	-14.232
嘵	-14.2321
歜	-14.2322
惄	-14.2322
疈	-14.2322
蝹	-14.2322
磓	-14.2322
斨	-14.2323
颸	-14.2323
氁	-14.2323
擈	-14.2323
𬈑	-14.2323
㻫	-14.2323
􁼿	-14.2323
鏄	-14.2324
孶	-14.2324
瀙	-14.2324
簨	-14.2324
駉	-14.2324
䈄	-14.2324
駚	-14.2325
昡	-14.2326
饁	-14.2326
抅	-14.2326
䔩	-14.2326
愸	-14.2326
籓	-14.2326
幐	-14.2326
怘	-14.2326
処	-14.2326
鵴	-14.2326
欓	-14.2326
ဃ	-14.2327
င	-14.2327
晌	-14.2327
鏝	-14.2327
囤	-14.2327
􁗀	-14.2327
􁛲	-14.2327
汳	-14.2327
餪	-14.2327
􁳟	-14.2327
䟣	-14.2328
笟	-14.2328
鵡	-14.2329
崒	-14.2329
猯	-14.2329
蔀	-14.2329
炕	-14.2329
豦	-14.233
㧾	-14.233
顐	-14.233
椘	-14.233
篔	-14.233
怮	-14.233
鵙	-14.2331
棰	-14.2331
栿	-14.2331
埳	-14.2331
穅	-14.2331
巏	-14.2331
轊	-14.2331
剭	-14.2331
薻	-14.2333
蟊	-14.2333
澨	-14.2333
􁁶	-14.2333
朒	-14.2333
􁀍	-14.2333
嫫	-14.2333
鱯	-14.2333
􁦦	-14.2333
淶	-14.2334
雑	-14.2334
髆	-14.2334
陥	-14.2334
黰	-14.2334
􁚠	-14.2334
済	-14.2334
癃	-14.2334
赩	-14.2334
􁤮	-14.2334
祙	-14.2334
鎩	-14.2335
鱑	-14.2335
咿	-14.2335
䊧	-14.2335
楟	-14.2335
嚵	-14.2335
玖	-14.2335
珹	-14.2335
薳	-14.2335
鱮	-14.2335
坵	-14.2336
酅	-14.2336
橚	-14.2336
隮	-14.2336
􁡅	-14.2336
􁈅	-14.2337
縐	-14.2337
蘃	-14.2337
廌	-14.2337
榨	-14.2337
䙜	-14.2337
蛫	-14.2338
汵	-14.2338
蓲	-14.2338
誾	-14.2338
泖	-14.2338
袠	-14.2338
唅	-14.2338
矇	-14.2338
蹺	-14.2338
猲	-14.2338
䐆	-14.2338
䳅	-14.2338
􁙸	-14.2339
䞋	-14.234
鄳	-14.234
檞	-14.234
􁊢	-14.234
蛸	-14.234
􁑈	-14.234
猬	-14.234
塈	-14.2341
罣	-14.2341
巑	-14.2341
挕	-14.2341
􁉨	-14.2341
匽	-14.2341
伈	-14.2341
硏	-14.2341
䳩	-14.2342
喊	-14.2342
畯	-14.2342
熝	-14.2342
馱	-14.2342
蟶	-14.2342
胜	-14.2343
埵	-14.2343
桵	-14.2343
爝	-14.2344
誶	-14.2344
瓀	-14.2344
胘	-14.2344
㹀	-14.2344
鴂	-14.2344
㬥	-14.2344
艴	-14.2344
􁙳	-14.2344
㱔	-14.2344
爥	-14.2344
儌	-14.2345
愾	-14.2345
搤	-14.2345
玹	-14.2345
礲	-14.2345
羓	-14.2345
顴	-14.2345
滫	-14.2345
􁒝	-14.2345
鴅	-14.2346
蛦	-14.2346
枣	-14.2346
簥	-14.2347
絓	-14.2347
􁀲	-14.2347
䱹	-14.2347
幈	-14.2347
胕	-14.2348
歠	-14.2348
繤	-14.2348
􁃃	-14.2348
倳	-14.2348
窿	-14.2348
黮	-14.2348
憃	-14.2348
䔭	-14.2348
忡	-14.2349
巓	-14.2349
煠	-14.2349
栴	-14.2349
矼	-14.2349
悾	-14.2349
鰠	-14.2349
畣	-14.235
咦	-14.2351
鐷	-14.2351
鞁	-14.2351
􁂳	-14.2351
溠	-14.2351
樻	-14.2351
鴖	-14.2351
笪	-14.2352
匜	-14.2352
媢	-14.2352
崈	-14.2352
楂	-14.2352
箘	-14.2352
䃡	-14.2352
埱	-14.2352
榠	-14.2352
㫒	-14.2352
趼	-14.2353
瘂	-14.2353
乹	-14.2353
亁	-14.2354
􁚔	-14.2354
䝟	-14.2354
秕	-14.2355
嶝	-14.2355
軃	-14.2355
盭	-14.2355
麸	-14.2355
鯩	-14.2356
鏬	-14.2356
䛇	-14.2356
鬣	-14.2356
怔	-14.2356
􁓓	-14.2356
㷀	-14.2356
囗	-14.2358
鄑	-14.2358
軷	-14.2358
嫜	-14.2358
鑢	-14.2359
娜	-14.2359
胣	-14.2359
悳	-14.236
蚿	-14.236
婼	-14.236
矌	-14.236
􁪸	-14.236
飪	-14.2362
匳	-14.2362
䝿	-14.2363
疸	-14.2363
沜	-14.2363
焞	-14.2363
毿	-14.2363
慜	-14.2365
凨	-14.2365
査	-14.2365
䬅	-14.2366
躳	-14.2366
杇	-14.2366
哅	-14.2366
痸	-14.2367
耑	-14.2367
蝍	-14.2367
瘰	-14.2368
稭	-14.2369
騣	-14.2369
􁬾	-14.2369
𡡉	-14.2369
■	-14.237
搪	-14.237
􁀒	-14.237
蓯	-14.2371
㽞	-14.2372
娭	-14.2373
褵	-14.2373
躪	-14.2373
䨴	-14.2374
踽	-14.2374
猘	-14.2374
滜	-14.2374
鉟	-14.2376
糰	-14.2376
􁵃	-14.2376
騂	-14.2376
們	-14.2377
庿	-14.2378
蛹	-14.2379
暅	-14.238
􁐑	-14.2381
柠	-14.2381
耏	-14.2381
獃	-14.2383
拿	-14.2383
媺	-14.2384
陖	-14.2384
弅	-14.2384
虙	-14.2388
嫋	-14.2392
叄	-14.2392
邹	-14.2393
泱	-14.2396
抖	-14.2402
芲	-14.2407
䀌	-14.2409
靧	-14.2412
楝	-14.2413
僨	-14.2413
喆	-14.2417
唖	-14.2427
懛	-14.2428
㬑	-14.2447
浟	-14.2452
耇	-14.5576
僛	-14.5578
呐	-14.5586
鴙	-14.5586
𢾗	-14.5595
㘅	-14.5603
蟫	-14.5603
􁈴	-14.5609
帀	-14.5609
屼	-14.5609
悁	-14.5611
橰	-14.5613
蝂	-14.5613
蝜	-14.5613
剺	-14.5613
崚	-14.5615
彡	-14.5617
㧓	-14.5621
􁃶	-14.5621
䵎	-14.5621
翱	-14.5622
腷	-14.5624
爊	-14.5625
㒹	-14.5626
膀	-14.5626
藾	-14.5626
臰	-14.5628
騍	-14.5628
嘍	-14.5628
岣	-14.5628
􁋚	-14.5628
㒦	-14.5628
蚔	-14.5629
敱	-14.563
􁁃	-14.563
􁣿	-14.563
􁤀	-14.563
俲	-14.5632
􁒐	-14.5632
㚔	-14.5632
􁏌	-14.5632
鋃	-14.5634
霫	-14.5634
蒌	-14.5634
噭	-14.5634
枘	-14.5635
暪	-14.5636
骷	-14.5636
􁀐	-14.5636
鍧	-14.5636
緺	-14.5638
儿	-14.5638
壒	-14.5638
胱	-14.5638
臏	-14.5638
潙	-14.5638
鉶	-14.5638
稾	-14.5638
謢	-14.5638
簄	-14.5638
鉘	-14.5638
淈	-14.5639
桲	-14.564
榅	-14.564
葽	-14.564
晧	-14.564
浼	-14.5642
􁂴	-14.5642
豭	-14.5642
玅	-14.5642
☰	-14.5642
嗢	-14.5642
餭	-14.5642
㹈	-14.5643
垝	-14.5644
瘃	-14.5644
䬣	-14.5644
偰	-14.5644
嚂	-14.5644
觳	-14.5644
蒡	-14.5646
膎	-14.5646
䖳	-14.5646
庯	-14.5646
逴	-14.5646
㭍	-14.5647
墄	-14.5647
窞	-14.5647
褲	-14.5647
饊	-14.5648
聡	-14.5648
膄	-14.5648
臿	-14.5648
䘐	-14.5648
臇	-14.5648
嗄	-14.5648
􁇋	-14.5648
嬀	-14.5648
繟	-14.5648
响	-14.5649
胠	-14.565
晹	-14.565
醽	-14.565
韎	-14.565
蕺	-14.565
椓	-14.565
殏	-14.565
蓞	-14.565
􁗉	-14.565
榧	-14.565
輆	-14.565
摝	-14.565
惏	-14.5651
枅	-14.5651
餂	-14.5651
寠	-14.5651
氄	-14.5651
稃	-14.5651
姸	-14.5651
穵	-14.5651
蹁	-14.5651
埠	-14.5651
嵻	-14.5651
痞	-14.5651
禘	-14.5651
啑	-14.5653
髒	-14.5653
滀	-14.5653
胳	-14.5653
划	-14.5653
蕤	-14.5653
􁳋	-14.5653
呇	-14.5653
瀁	-14.5653
籝	-14.5653
鑴	-14.5653
􁟝	-14.5654
釱	-14.5655
杈	-14.5655
篅	-14.5655
䪊	-14.5655
仳	-14.5655
劳	-14.5655
㨾	-14.5655
騕	-14.5655
􁆜	-14.5655
伹	-14.5655
簩	-14.5655
裠	-14.5655
嫪	-14.5657
鴷	-14.5657
嘨	-14.5657
媍	-14.5657
㸙	-14.5657
屭	-14.5657
簵	-14.5657
鄚	-14.5657
𢡟	-14.5657
鱘	-14.5658
􁪨	-14.5658
鶽	-14.5658
葑	-14.5658
喎	-14.5659
淞	-14.5659
􁸈	-14.5659
僝	-14.5659
玁	-14.5659
纆	-14.5659
咯	-14.5659
疝	-14.5659
蛂	-14.5659
哳	-14.5659
繯	-14.5659
􁊕	-14.5659
廑	-14.5659
皞	-14.5659
獓	-14.5659
汋	-14.566
蚼	-14.566
箙	-14.566
㴉	-14.5661
浜	-14.5661
齲	-14.5661
睟	-14.5661
㻛	-14.5661
䥴	-14.5661
悤	-14.5661
䥈	-14.5661
畻	-14.5661
綍	-14.5661
諐	-14.5661
錤	-14.5661
鮹	-14.5661
㴞	-14.5661
嘩	-14.5661
漦	-14.5662
檳	-14.5663
􁈎	-14.5663
熁	-14.5663
𠞰	-14.5663
誖	-14.5663
諆	-14.5663
􁘀	-14.5663
眹	-14.5663
醨	-14.5663
觿	-14.5663
獜	-14.5663
擥	-14.5664
侻	-14.5664
􁐻	-14.5664
鰅	-14.5665
䴥	-14.5665
喃	-14.5665
蹍	-14.5665
湑	-14.5665
咡	-14.5665
騋	-14.5665
芉	-14.5665
軹	-14.5665
􁋜	-14.5665
呴	-14.5665
嶭	-14.5667
拲	-14.5667
徘	-14.5667
鼍	-14.5667
贉	-14.5667
槅	-14.5667
曚	-14.5667
㫪	-14.5667
癱	-14.5667
繮	-14.5667
􁎾	-14.5667
䳒	-14.5667
眵	-14.5667
蕰	-14.5667
􁂰	-14.5667
麒	-14.5667
卝	-14.5667
䱎	-14.5668
礨	-14.5668
􁬋	-14.5669
峿	-14.5669
坪	-14.5669
㦧	-14.5669
俺	-14.5669
蛱	-14.5669
緐	-14.5669
囦	-14.5669
殕	-14.5669
儓	-14.5669
墯	-14.5669
狚	-14.5669
砒	-14.5669
蝺	-14.5669
褪	-14.5669
桒	-14.5669
獑	-14.5669
􁡠	-14.5669
蒾	-14.567
㮨	-14.5671
渑	-14.5671
惛	-14.5671
坍	-14.5671
揳	-14.5671
捆	-14.5671
㿿	-14.5671
䴑	-14.5671
鮚	-14.5671
觟	-14.5672
蠗	-14.5672
蝄	-14.5673
蟪	-14.5673
蹡	-14.5673
梴	-14.5673
䞉	-14.5673
嵳	-14.5673
吽	-14.5673
簹	-14.5673
鰂	-14.5673
潾	-14.5673
澂	-14.5673
牥	-14.5673
笱	-14.5673
蘷	-14.5673
獶	-14.5673
䄫	-14.5673
撣	-14.5674
槭	-14.5674
猰	-14.5674
祑	-14.5674
􁇛	-14.5675
蒟	-14.5675
釅	-14.5675
玎	-14.5675
褕	-14.5675
磵	-14.5675
轜	-14.5675
􁨳	-14.5675
㪅	-14.5675
礸	-14.5675
篊	-14.5675
馲	-14.5675
􁍜	-14.5675
狕	-14.5675
嬻	-14.5675
鮇	-14.5675
熯	-14.5675
㷊	-14.5676
甗	-14.5676
盔	-14.5677
􁡶	-14.5677
樏	-14.5677
嬒	-14.5677
輊	-14.5677
媸	-14.5677
褎	-14.5677
􁚁	-14.5677
濇	-14.5677
潐	-14.5678
鵕	-14.5678
􁏮	-14.5678
虻	-14.5678
歗	-14.5678
䄍	-14.5678
酃	-14.5678
欃	-14.5678
胲	-14.5678
篟	-14.5678
䗱	-14.5679
栘	-14.5679
㬠	-14.568
擫	-14.568
噙	-14.568
惂	-14.568
䴦	-14.568
蠨	-14.568
軥	-14.568
䠶	-14.568
蕇	-14.568
薎	-14.5681
齦	-14.5681
菼	-14.5682
曕	-14.5682
滦	-14.5682
陊	-14.5682
枌	-14.5682
鰈	-14.5682
殈	-14.5682
獦	-14.5683
鱭	-14.5684
跫	-14.5684
貤	-14.5684
謪	-14.5684
戇	-14.5684
溵	-14.5684
跰	-14.5684
鑵	-14.5684
喓	-14.5684
懞	-14.5684
􁬌	-14.5684
鄗	-14.5685
鴳	-14.5685
㬂	-14.5686
􁝕	-14.5686
芨	-14.5686
伭	-14.5686
邲	-14.5686
疰	-14.5686
􁏄	-14.5686
虆	-14.5686
袚	-14.5686
踳	-14.5686
閇	-14.5686
瑍	-14.5686
檖	-14.5686
䱇	-14.5687
鴽	-14.5688
忞	-14.5688
鬀	-14.5688
緷	-14.5688
鴐	-14.5688
疃	-14.5688
矃	-14.5688
鯆	-14.5689
糅	-14.5689
蹮	-14.569
砰	-14.569
麦	-14.569
塐	-14.569
咱	-14.569
鮝	-14.569
顣	-14.569
髐	-14.569
裱	-14.569
棍	-14.569
蝑	-14.5691
縕	-14.5692
斍	-14.5692
琡	-14.5692
􁧥	-14.5692
㭬	-14.5692
綀	-14.5692
戄	-14.5692
汩	-14.5692
剙	-14.5693
掤	-14.5694
䆮	-14.5694
䛻	-14.5694
驆	-14.5694
􁈭	-14.5694
螋	-14.5694
蠼	-14.5694
鑌	-14.5694
褻	-14.5694
麏	-14.5694
吚	-14.5694
嬭	-14.5694
鐇	-14.5694
薢	-14.5696
􁒭	-14.5696
园	-14.5696
訩	-14.5696
箐	-14.5696
摐	-14.5696
枮	-14.5696
羫	-14.5696
犵	-14.5696
醡	-14.5696
􁡒	-14.5697
曮	-14.5698
刊	-14.5698
膁	-14.5698
鱬	-14.5698
􁆢	-14.5698
嵰	-14.5698
帗	-14.5698
謏	-14.5698
釪	-14.57
䔧	-14.57
洚	-14.57
踡	-14.57
峱	-14.57
洔	-14.57
蘘	-14.57
豌	-14.5701
檏	-14.5702
􁁬	-14.5702
瑳	-14.5702
訽	-14.5702
曶	-14.5702
顩	-14.5702
嗊	-14.5703
搉	-14.5703
菷	-14.5704
窴	-14.5704
鶢	-14.5704
􁐡	-14.5705
晣	-14.5707
􁏩	-14.5707
􁆾	-14.5707
乚	-14.5709
佔	-14.5709
繻	-14.5709
輷	-14.5709
簁	-14.5709
竉	-14.5711
鬵	-14.5711
㢧	-14.5711
廮	-14.5711
􁱨	-14.5711
纯	-14.5713
銿	-14.5713
禖	-14.5713
鱨	-14.5715
玈	-14.5715
瓖	-14.5715
薾	-14.5717
舴	-14.5717
艋	-14.5717
腪	-14.5717
醳	-14.5717
􁥯	-14.5717
矬	-14.5719
璮	-14.5719
儜	-14.5719
棵	-14.5719
煢	-14.5719
摏	-14.5721
擻	-14.5721
魧	-14.5721
佼	-14.5723
灵	-14.5723
䗋	-14.5725
鰣	-14.5725
㠓	-14.5725
篼	-14.5727
鞌	-14.5727
蟈	-14.5727
喂	-14.5727
网	-14.5727
芦	-14.5729
㱾	-14.5729
㕍	-14.573
蘅	-14.5732
䘚	-14.5734
鸋	-14.5734
拮	-14.5734
㯭	-14.5734
螖	-14.5734
稊	-14.5736
㻌	-14.5738
焸	-14.5738
㜕	-14.5742
磂	-14.5748
劂	-15.0581
䖷	-15.0587
吱	-15.0587
儭	-15.059
垻	-15.059
帍	-15.059
刾	-15.0593
䭿	-15.0593
儸	-15.0596
䍪	-15.06
刘	-15.06
喔	-15.06
嚞	-15.0603
㳤	-15.0606
壝	-15.0606
䬾	-15.0606
岪	-15.0615
㗳	-15.0615
幇	-15.0618
䮍	-15.0618
屇	-15.0618
㕳	-15.0618
坁	-15.0622
䳱	-15.0622
嶒	-15.0625
倓	-15.0625
㬅	-15.0628
䟱	-15.0628
㫬	-15.0629
䦠	-15.063
蜘	-15.0631
㩧	-15.0631
侜	-15.0631
唵	-15.0631
唽	-15.0631
㟻	-15.0631
䙞	-15.0631
嘛	-15.0631
岨	-15.0634
㮰	-15.0634
弆	-15.0634
䫙	-15.0634
嚭	-15.0634
䙱	-15.0634
壜	-15.0634
嚘	-15.0637
【	-15.0637
㧣	-15.0637
亱	-15.0637
䀻	-15.0637
埂	-15.0637
帉	-15.0637
㩴	-15.064
妵	-15.064
塸	-15.0641
廛	-15.0644
崽	-15.0644
噽	-15.0644
㜑	-15.0644
㮄	-15.0644
䶵	-15.0644
岊	-15.0647
傕	-15.0647
嶅	-15.0647
巃	-15.0647
勩	-15.0647
"	-15.0648
峦	-15.065
䍦	-15.065
佈	-15.065
3	-15.065
䜱	-15.065
哊	-15.065
劦	-15.0652
䁑	-15.0653
巣	-15.0653
䨲	-15.0653
䀨	-15.0653
䩫	-15.0653
嶃	-15.0653
咻	-15.0656
䧙	-15.0656
丮	-15.0656
壵	-15.0656
屝	-15.0656
䗡	-15.0658
屮	-15.0659
䍃	-15.0659
㘽	-15.0659
㙭	-15.0659
嚾	-15.0659
䰝	-15.066
圠	-15.0663
坱	-15.0663
䪡	-15.0663
儃	-15.0663
丼	-15.0666
圅	-15.0666
听	-15.0666
喩	-15.0666
埡	-15.0666
䞼	-15.0666
䰀	-15.0666
傺	-15.0666
唬	-15.0666
髣	-15.0666
㦬	-15.0666
䀈	-15.0667
䓑	-15.0667
䲰	-15.0667
嘄	-15.0667
嶕	-15.0668
仃	-15.0669
宀	-15.0669
偫	-15.0669
㟧	-15.0669
㭉	-15.0669
䍫	-15.0669
僢	-15.0669
刴	-15.0669
唌	-15.0669
埼	-15.0669
庹	-15.0669
髴	-15.0669
㯏	-15.0669
嵹	-15.0669
䱤	-15.067
䳆	-15.067
㬭	-15.067
䒽	-15.067
䲀	-15.067
䲛	-15.067
俈	-15.0671
䲽	-15.0672
䘲	-15.0672
咊	-15.0672
墍	-15.0672
妭	-15.0672
㸇	-15.0672
䦧	-15.0672
哵	-15.0672
奤	-15.0672
姍	-15.0672
䗁	-15.0673
䶘	-15.0674
尒	-15.0675
㩗	-15.0675
䤪	-15.0675
偼	-15.0675
叮	-15.0675
嚀	-15.0675
㠝	-15.0675
姤	-15.0675
䌰	-15.0675
亙	-15.0675
夌	-15.0675
㣚	-15.0677
䳑	-15.0677
䧑	-15.0678
惆	-15.0678
叁	-15.0678
䴏	-15.0678
裟	-15.0678
圩	-15.0678
幫	-15.0678
䈤	-15.0678
㰘	-15.0678
䓤	-15.0678
စ	-15.0681
ဆ	-15.0681
巿	-15.0681
䶉	-15.0681
屁	-15.0681
㡠	-15.0681
䱥	-15.0681
啽	-15.0681
崷	-15.0681
凥	-15.0681
嗺	-15.0681
嵍	-15.0681
庱	-15.0685
型	-15.0685
㢲	-15.0685
㴬	-15.0685
婗	-15.0685
孆	-15.0685
匵	-15.0688
袈	-15.0688
㹸	-15.0688
屦	-15.0688
噞	-15.0688
崪	-15.0689
势	-15.0691
㳿	-15.0691
㟭	-15.0691
䝞	-15.0694
俏	-15.0694
劙	-15.0694
䋈	-15.0694
䔁	-15.0694
厪	-15.0694
唊	-15.0697
嵪	-15.0697
墆	-15.0697
弝	-15.0697
壄	-15.0701
唉	-15.0703
墪	-15.0703
婑	-15.0703
嗃	-15.0703
䣀	-15.0705
㸦	-15.0707
嗸	-15.0707
䓇	-15.071
㧍	-15.071
堥	-15.071
㖶	-15.0711
咼	-15.0713
㷩	-15.0716
奰	-15.0716
僔	-15.0719
㠾	-15.0722
㜈	-15.0722
㒞	-15.0722
䯞	-15.0726
哤	-15.0726
姣	-15.0729
䔫	-15.0735
倵	-15.0738
䀟	-15.0738
䧹	-15.0741
巹	-15.0741
㹻	-15.0744
厶	-15.0751
䃂	-15.0751
䀡	-15.076
亀	-15.0763
凧	-15.0785
䉕	-15.0792
靂	-16.0613
幧	-16.0623
尀	-16.0624
圿	-16.0625
勷	-16.0626
劌	-16.0627
乕	-16.0628
䭫	-16.0629
䩱	-16.063
䡢	-16.0631
䙀	-16.0632
䓞	-16.0633
㿀	-16.0634
㬉	-16.0635
㕎	-16.0636
鍫	-16.0637
菪	-16.0638
莨	-16.0639
簺	-16.064
稡	-16.0641
磄	-16.0642
硉	-16.0643
瞧	-16.0644
氉	-16.0645
毷	-16.0646
毌	-16.0647
欘	-16.0648
櫑	-16.0649
仡	-16.065
䰷	-16.0651
㱆	-16.0652
㝈	-16.0653
鷒	-16.0654
鎞	-16.0655
鎁	-16.0656
鈠	-16.0657
鄅	-16.0658
跅	-16.0659
趑	-16.066
趌	-16.0661
譸	-16.0662
觖	-16.0663
覼	-16.0664
袨	-16.0665
螱	-16.0666
蛈	-16.0667
蕓	-16.0668
蕒	-16.0669
茉	-16.067
脗	-16.0671
聻	-16.0672
耉	-16.0673
羜	-16.0674
缿	-16.0675
粔	-16.0676
篳	-16.0677
秄	-16.0678
祤	-16.0679
祋	-16.068
磢	-16.0681
碬	-16.0682
瞫	-16.0683
瞌	-16.0684
琉	-16.0685
眕	-16.0685
皭	-16.0686
皪	-16.0687
甾	-16.0688
甪	-16.0689
狟	-16.069
爞	-16.0691
洓	-16.0692
殣	-16.0693
櫽	-16.0694
檽	-16.0695
榹	-16.0696
撆	-16.0697
慫	-16.0698
慂	-16.0699
妴	-16.07
妘	-16.0701
坋	-16.0702
䭃	-16.0703
䡾	-16.0704
㶿	-16.0705
㱙	-16.0706
㥄	-16.0707
鶌	-16.0708
騞	-16.0709
蓰	-16.071
蓏	-16.0711
腽	-16.0712
胼	-16.0713
肭	-16.0714
筀	-16.0715
礝	-16.0716
犄	-16.0717
燹	-16.0718
瀺	-16.0719
濝	-16.072
毹	-16.0721
掯	-16.0722
嫄	-16.0723
俙	-16.0724
侢	-16.0725
䑏	-16.0726
鸘	-16.0727
鷥	-16.0728
鬙	-16.0729
轘	-16.073
蟕	-16.0731
蘡	-16.0732
薐	-16.0733
蕆	-16.0734
蒢	-16.0735
窀	-16.0736
瞼	-16.0737
猼	-16.0738
檮	-16.0739
槥	-16.074
梪	-16.0741
旖	-16.0742
悻	-16.0743
怩	-16.0744
岢	-16.0745
媳	-16.0746
婷	-16.0747
咃	-16.0748
剴	-16.0749
僬	-16.075
䚯	-16.0751
㰖	-16.0752
㙔	-16.0753
􁡓	-16.0754
􁙴	-16.0755
鶺	-16.0756
遝	-16.0757
蹐	-16.0758
蝣	-16.0759
羑	-16.076
竫	-16.0761
禝	-16.0762
牱	-16.0763
湲	-16.0764
徜	-16.0765
屺	-16.0766
媫	-16.0767
鞶	-16.0768
鋏	-16.0769
轗	-16.077
貅	-16.0771
譊	-16.0772
蜪	-16.0773
蜢	-16.0774
蚱	-16.0775
蚍	-16.0776
羖	-16.0777
纚	-16.0778
繿	-16.0779
笊	-16.078
碼	-16.0781
碯	-16.0782
癐	-16.0783
塏	-16.0784
坷	-16.0785
噰	-16.0786
咷	-16.0787
䱰	-16.0788
䤵	-16.0789
趦	-16.079
蟀	-16.0791
螬	-16.0792
芊	-16.0793
礐	-16.0794
熳	-16.0795
忉	-16.0796
齷	-16.0797
韆	-16.0798
輠	-16.0799
赳	-16.08
螣	-16.0801
穸	-16.0802
眢	-16.0803
夗	-16.0804
囅	-16.0805
䬪	-16.0806
遛	-16.0807
螉	-16.0808
砉	-16.0809
瓈	-16.081
嵋	-16.0811
姮	-16.0812
妁	-16.0813
嚅	-16.0814
䳇	-16.0815
䲹	-16.0816
䔲	-16.0817
騢	-16.0818
酊	-16.0819
衩	-16.082
螳	-16.0821
獗	-16.0822
潸	-16.0823
栳	-16.0824
倆	-16.0825
颻	-16.0826
鞨	-16.0827
靺	-16.0828
醐	-16.0829
醍	-16.083
揶	-16.0831
徬	-16.0832
鼕	-16.0833
醿	-16.0834
詿	-16.0835
蠮	-16.0836
薝	-16.0837
胭	-16.0838
窸	-16.0839
棻	-16.084
嫦	-16.0841
蠁	-16.0842
蛑	-16.0843
崘	-16.0844
鶄	-16.0845
駸	-16.0846
噍	-16.0847
齬	-16.0848
跎	-16.0849
蠛	-16.085
蛉	-16.0851
澘	-16.0852
檎	-16.0853
㐌	-16.0854
闤	-16.0855
緲	-16.0856
葡	-16.0857
痂	-16.0858
厔	-16.0859
魍	-16.086
蛺	-16.0861
㸲	-16.0862
跬	-16.0863
餮	-16.0864
蓿	-16.0865
苜	-16.0866
飩	-16.0867
玻	-16.0868
猻	-16.0869
捀	-16.087
桻	-16.0871
繾	-16.0872
橄	-16.0873
枇	-16.0874
唃	-16.0875
婕	-16.0876
蚯	-16.0877
妤	-16.0878
愀	-16.0879
邂	-16.088
逅	-16.0881
蜈	-16.0882
紜	-16.0883
駙	-16.0884
侂	-16.0885
茯	-16.0886
逡	-16.0886
