<unk>	0
<s>	0
</s>	0
之	-3.82499
也	-4.03465
而	-4.36646
者	-4.48465
以	-4.62216
不	-4.75536
其	-4.78889
爲	-4.79807
有	-4.92094
則	-4.93425
/	-4.99943
於	-5.07669
無	-5.0939
人	-5.1922
一	-5.29192
)	-5.30134
(	-5.31597
故	-5.32655
生	-5.48128
道	-5.50072
大	-5.51941
矣	-5.6013
曰	-5.60999
言	-5.69434
此	-5.70737
天	-5.73525
乎	-5.7471
心	-5.77114
自	-5.77756
知	-5.8008
中	-5.80138
上	-5.80712
用	-5.8139
子	-5.82672
非	-5.8812
是	-5.9237
下	-5.93275
物	-5.9331
至	-5.9335
神	-5.93426
能	-5.94221
行	-5.94259
得	-5.94393
與	-5.94532
如	-5.95574
若	-5.96533
然	-6.05211
所	-6.07023
明	-6.07817
成	-6.09545
)(	-6.10582
氣	-6.1138
三	-6.11721
見	-6.13541
名	-6.18136
可	-6.20288
皆	-6.21064
在	-6.212
水	-6.2355
亦	-6.24825
事	-6.2572
形	-6.27056
相	-6.27448
時	-6.30049
身	-6.30098
德	-6.30966
眞	-6.32898
常	-6.33844
同	-6.34026
即	-6.3439
乃	-6.36049
,	-6.3634
又	-6.36635
夫	-6.37003
欲	-6.37134
善	-6.38282
而不	-6.38815
出	-6.40631
日	-6.41536
入	-6.42436
法	-6.44551
作	-6.46153
化	-6.47083
吾	-6.47519
反	-6.50105
謂	-6.51803
方	-6.5235
○	-6.53939
二	-6.54856
今	-6.55139
我	-6.55561
王	-6.56921
去	-6.57066
多	-6.57318
云	-6.57472
治	-6.58186
使	-6.58489
死	-6.58545
何	-6.58713
地	-6.59628
五	-6.60152
内	-6.61156
天下	-6.61322
本	-6.61781
焉	-6.6218
合	-6.62473
當	-6.62872
或	-6.63324
四	-6.64621
不可	-6.6562
必	-6.6625
取	-6.66605
先	-6.66946
正	-6.67202
和	-6.6726
雖	-6.6753
處	-6.67764
通	-6.68013
將	-6.68162
外	-6.69496
已	-6.70368
君	-6.70415
哉	-6.71081
及	-6.71229
安	-6.71565
理	-6.71821
主	-6.72384
聖人	-6.73445
復	-6.74009
火	-6.74956
世	-6.75515
▁	-6.75529
精	-6.75815
分	-6.76219
性	-6.76317
後	-6.76372
未	-6.76748
山	-6.7743
經	-6.79101
令	-6.79114
猶	-6.79513
金	-6.80186
萬物	-6.80211
因	-6.80424
小	-6.80486
民	-6.80571
長	-6.81089
玄	-6.81119
虚	-6.82781
從	-6.83116
實	-6.83448
文	-6.83877
白	-6.83927
易	-6.84261
所以	-6.85123
惡	-6.85647
天地	-6.85957
不能	-6.86199
利	-6.876
應	-6.87691
耳	-6.88139
居	-6.8814
來	-6.88204
音	-6.88561
服	-6.88633
聖	-6.89271
風	-6.89526
九	-6.90011
為	-6.90035
陽	-6.91278
食	-6.91649
靈	-6.92737
體	-6.9335
六	-6.93603
命	-6.94393
國	-6.94762
立	-6.95419
石	-6.95595
樂	-6.9625
彼	-6.96566
觀	-6.97266
動	-6.98489
萬	-6.98542
難	-6.98597
貴	-6.98663
求	-6.99
之所	-6.99729
始	-7.00195
既	-7.00883
重	-7.01594
前	-7.01718
不知	-7.02214
公	-7.02488
盡	-7.02552
衆	-7.03013
數	-7.0341
失	-7.03559
師	-7.04303
異	-7.04895
足	-7.06909
意	-7.07571
藥	-7.08005
過	-7.08448
諸	-7.0861
色	-7.09285
无	-7.09741
歸	-7.09902
以爲	-7.10689
全	-7.12143
光	-7.12443
七	-7.12741
存	-7.129
守	-7.13125
仙	-7.13535
故曰	-7.13818
變	-7.14031
流	-7.1435
平	-7.14751
養	-7.14826
義	-7.14965
智	-7.15171
高	-7.15323
年	-7.15418
臣	-7.15573
止	-7.16066
教	-7.16264
自然	-7.16495
己	-7.16587
聞	-7.17851
信	-7.18189
䟽	-7.18726
書	-7.18769
丹	-7.19074
好	-7.19584
極	-7.19795
妙	-7.19845
清	-7.20228
力	-7.21953
解	-7.22439
黄	-7.22749
受	-7.23105
蓋	-7.23289
益	-7.23334
執	-7.24302
忘	-7.24401
勝	-7.24614
百	-7.24684
邪	-7.2487
元	-7.24975
學	-7.25459
各	-7.25851
微	-7.2693
深	-7.2696
所謂	-7.27522
字	-7.27589
功	-7.27707
致	-7.27816
定	-7.28021
凡	-7.28258
注	-7.28399
木	-7.28758
病	-7.29119
。	-7.29438
兩	-7.29686
家	-7.29954
順	-7.29967
害	-7.30113
章	-7.30586
八	-7.30641
禮	-7.30662
靜	-7.31072
固	-7.31389
聲	-7.31519
者也	-7.32058
門	-7.32518
謂之	-7.32684
傳	-7.32883
亡	-7.33069
說	-7.33279
終	-7.33417
亂	-7.33469
起	-7.33745
由	-7.34045
目	-7.34404
玉	-7.35333
志	-7.35768
情	-7.35802
周	-7.36012
陰	-7.3624
根	-7.36608
唯	-7.37009
且	-7.37386
開	-7.38
散	-7.38318
愛	-7.38635
發	-7.38861
切	-7.39171
斯	-7.3933
惟	-7.39691
强	-7.39734
土	-7.39882
問	-7.40083
修	-7.40294
于	-7.40298
制	-7.40625
任	-7.40797
無所	-7.41054
宫	-7.41595
口	-7.41692
莫	-7.41905
藏	-7.42256
遂	-7.42317
仁	-7.42882
無爲	-7.43031
少	-7.43123
遠	-7.4388
豈	-7.44519
甚	-7.44561
⬤	-7.44573
帝	-7.44641
度	-7.45086
炁	-7.45537
不得	-7.45947
符	-7.46064
獨	-7.46191
兵	-7.4621
離	-7.46463
可以	-7.466
官	-7.46624
華	-7.46651
美	-7.46742
馬	-7.46812
似	-7.4769
古	-7.48087
爾	-7.48164
汝	-7.48326
絶	-7.49053
人之	-7.4972
直	-7.49817
象	-7.49987
傷	-7.5027
宜	-7.50453
次	-7.50578
青	-7.50764
隨	-7.51243
視	-7.51325
但	-7.51496
末	-7.51585
舉	-7.51891
親	-7.52099
母	-7.52849
老	-7.53565
容	-7.53661
是以	-7.54013
太	-7.54125
齊	-7.54182
龍	-7.55128
之道	-7.55161
雲	-7.55519
士	-7.55914
適	-7.55952
窮	-7.55968
而已	-7.56159
俗	-7.56761
語	-7.56908
著	-7.57007
殺	-7.57009
空	-7.57046
稱	-7.58372
運	-7.58707
註	-7.5907
飛	-7.59257
損	-7.59393
思	-7.60164
節	-7.60724
須	-7.60758
初	-7.60948
達	-7.61055
往	-7.61401
降	-7.62054
十	-7.62078
月	-7.62605
更	-7.63113
州	-7.63404
積	-7.63418
鬼	-7.63545
交	-7.63567
尊	-7.64249
息	-7.64287
福	-7.64422
輕	-7.65648
伏	-7.65854
要	-7.66483
寳	-7.67057
其所	-7.67609
識	-7.67773
隱	-7.67936
熱	-7.6794
持	-7.68393
進	-7.68875
等	-7.69315
遊	-7.70552
頭	-7.71222
論	-7.7154
結	-7.71568
南	-7.71683
厚	-7.71709
賢	-7.71876
尚	-7.7214
器	-7.72317
右	-7.72323
位	-7.72585
朝	-7.72932
患	-7.72996
宗	-7.73395
寒	-7.74103
感	-7.74505
向	-7.74933
指	-7.75096
苦	-7.75523
氏	-7.75754
間	-7.75816
並	-7.76019
東	-7.76034
還	-7.76219
保	-7.77089
赤	-7.77094
乆	-7.7723
如此	-7.77334
施	-7.77513
爭	-7.78021
近	-7.78269
毒	-7.78274
篇	-7.78523
累	-7.79267
草	-7.79271
而無	-7.79518
號	-7.79659
葉	-7.79782
西	-7.79937
俱	-7.80319
疾	-7.8036
眞人	-7.80695
至於	-7.80831
紫	-7.8084
魚	-7.80869
滿	-7.81054
也夫	-7.81269
廣	-7.81315
衣	-7.81386
也故	-7.8149
加	-7.81654
迹	-7.81786
除	-7.82068
屬	-7.82124
汞	-7.82274
轉	-7.82945
乾	-7.82966
辯	-7.83117
載	-7.83163
細	-7.83378
不足	-7.83394
海	-7.84182
待	-7.84191
便	-7.84998
勿	-7.85044
憂	-7.8548
酒	-7.85597
北	-7.86275
陰陽	-7.87046
果	-7.87124
有所	-7.87191
而後	-7.87359
勞	-7.8757
花	-7.87885
遺	-7.88191
餘	-7.8826
仁義	-7.88373
顯	-7.88396
血	-7.8924
誠	-7.8925
妄	-7.89332
首	-7.89679
辭	-7.8986
機	-7.90034
别	-7.90065
味	-7.90205
故能	-7.90286
一名	-7.90401
禍	-7.90869
温	-7.9126
政	-7.91333
室	-7.91371
奉	-7.91386
滅	-7.91899
車	-7.9226
洞	-7.92288
愚	-7.93715
照	-7.93821
皇	-7.93826
道之	-7.93955
夢	-7.94198
星	-7.94232
天下之	-7.94447
遇	-7.95198
棄	-7.95485
悟	-7.9573
請	-7.96275
類	-7.96706
愈	-7.96857
都	-7.96871
會	-7.96983
戒	-7.97419
逆	-7.9764
女	-7.97795
聽	-7.9801
假	-7.98366
父	-7.98544
陳	-7.98579
就	-7.98747
柔	-7.9881
造	-7.99096
代	-7.99707
念	-7.99738
具	-8.00227
千	-8.00451
曲	-8.00801
備	-8.0107
壽	-8.0121
御	-8.01412
興	-8.0151
罪	-8.01546
盛	-8.01741
香	-8.01999
喜	-8.02326
大道	-8.02519
是謂	-8.02531
畏	-8.03526
張	-8.03642
消	-8.04164
鉛	-8.04311
夜	-8.04313
之人	-8.0438
惑	-8.05213
然後	-8.05241
敗	-8.05459
半	-8.05463
喪	-8.06097
汁	-8.06137
是非	-8.06141
徒	-8.06958
不爲	-8.07248
故云	-8.07539
老子	-8.08246
授	-8.08489
覺	-8.08554
業	-8.08896
濟	-8.08979
迷	-8.09214
了	-8.0961
退	-8.09656
素	-8.09819
乗	-8.09859
救	-8.10085
兮	-8.10379
莊子	-8.11279
砂	-8.11574
君子	-8.11716
推	-8.11737
薄	-8.12165
疑	-8.12206
貪	-8.12326
覆	-8.12334
堅	-8.12441
老君	-8.12977
調	-8.13246
天地之	-8.13257
巳	-8.13353
盈	-8.13484
手	-8.13499
巧	-8.13504
再	-8.1352
刑	-8.13796
依	-8.13931
良	-8.14369
澤	-8.14405
告	-8.14593
黑	-8.14602
是也	-8.14638
夏	-8.14684
道者	-8.14708
坐	-8.14807
示	-8.14856
務	-8.14866
武	-8.1502
却	-8.15126
殊	-8.15182
骨	-8.15189
資	-8.15278
喻	-8.15314
奚	-8.15592
先生	-8.15946
引	-8.16028
并	-8.16128
湯	-8.16213
察	-8.16852
蟲	-8.16857
驚	-8.16956
寧	-8.17671
共	-8.17907
司	-8.18405
孔子	-8.18775
面	-8.18974
質	-8.19025
釋	-8.19096
對	-8.19393
左	-8.19879
道德	-8.19891
威	-8.19998
丘	-8.20302
魂	-8.20326
冷	-8.20421
私	-8.20708
太上	-8.20884
關	-8.21176
肉	-8.21319
役	-8.21379
鼎	-8.21462
河	-8.21478
卷	-8.21491
報	-8.21515
谷	-8.21594
懷	-8.21614
不以	-8.21849
變化	-8.21857
比	-8.22617
歲	-8.2269
每	-8.22742
建	-8.22893
之以	-8.22916
無不	-8.23117
願	-8.23363
未嘗	-8.23387
舍	-8.23415
昔	-8.2386
新	-8.239
含	-8.23967
物之	-8.24191
塵	-8.24257
慮	-8.24289
不敢	-8.24417
端	-8.24456
怨	-8.24581
弱	-8.24761
慈	-8.24884
之心	-8.24965
伯	-8.25039
幽	-8.25521
游	-8.26065
權	-8.26418
廢	-8.26446
危	-8.26688
長生	-8.27035
煮	-8.27073
恐	-8.27086
聚	-8.27497
臨	-8.27522
矜	-8.27608
斗	-8.2773
境	-8.27812
逐	-8.27986
十二	-8.28018
原	-8.28445
句	-8.28595
寂	-8.28842
差	-8.28973
敬	-8.29
冬	-8.29107
之中	-8.29159
祖	-8.29362
淵	-8.29486
富	-8.29732
幾	-8.29846
登	-8.29847
府	-8.29941
魄	-8.30023
望	-8.30053
孰	-8.30081
採	-8.30524
景	-8.30569
者不	-8.30769
樸	-8.3083
期	-8.31144
縁	-8.31224
以此	-8.31644
急	-8.31662
謀	-8.3192
春	-8.32051
痛	-8.32217
忽	-8.32333
留	-8.3301
灰	-8.33174
李	-8.33378
真	-8.33469
封	-8.33471
林	-8.33512
不見	-8.33836
嘗	-8.3387
計	-8.34064
衰	-8.34071
泰	-8.34168
榮	-8.3424
抱	-8.34251
旣	-8.34331
牛	-8.34381
之意	-8.34411
設	-8.34542
賤	-8.34622
烏	-8.34716
田	-8.34838
被	-8.3485
於道	-8.34919
圖	-8.35545
夷	-8.35604
源	-8.35786
日月	-8.3579
冥	-8.36055
於人	-8.36077
無形	-8.36233
堯	-8.36332
鍊	-8.36409
集	-8.36618
甲	-8.36671
破	-8.36674
齋	-8.3674
術	-8.36993
謙	-8.37507
皮	-8.37817
縣	-8.37903
哀	-8.38049
召	-8.3807
奇	-8.38357
於物	-8.38517
許	-8.38746
其身	-8.38791
得之	-8.38859
塞	-8.38909
畢	-8.38928
凝	-8.38982
閉	-8.38994
表	-8.39045
之則	-8.39205
放	-8.39311
圓	-8.39542
辱	-8.39665
久	-8.39783
服之	-8.39883
無名	-8.39935
耶	-8.39958
種	-8.40052
是以聖人	-8.40052
老子曰	-8.40134
生於	-8.40194
則無	-8.4038
爲之	-8.40462
列	-8.40731
無窮	-8.40848
宿	-8.41037
而爲	-8.41125
銀	-8.41446
才	-8.41565
有餘	-8.41606
候	-8.4161
其心	-8.41696
也䟽	-8.42084
一兩	-8.4218
夫子	-8.42197
:「	-8.42217
之間	-8.42461
紀	-8.42615
以其	-8.42872
不可以	-8.42931
塗	-8.42933
浮	-8.43049
腹	-8.43076
之事	-8.43116
收	-8.43424
徐	-8.43476
野	-8.43866
專	-8.43978
有爲	-8.43997
之言	-8.4402
甘	-8.44198
漢	-8.4424
契	-8.44308
不同	-8.44372
貌	-8.44385
足以	-8.4451
淳	-8.44673
斷	-8.44675
唐	-8.44691
衛	-8.44901
布	-8.45002
戰	-8.45384
卑	-8.45475
卒	-8.4556
怒	-8.45748
伐	-8.45827
百姓	-8.45886
弟子	-8.45889
出於	-8.45961
約	-8.46245
用之	-8.46507
置	-8.4677
永	-8.46923
楚	-8.46988
兼	-8.47009
死生	-8.47087
於是	-8.47092
勢	-8.47093
他	-8.47103
飲	-8.47271
補	-8.4738
記	-8.47523
無心	-8.47636
上下	-8.47873
狀	-8.47945
返	-8.48429
鳥	-8.48466
暴	-8.48511
恩	-8.48677
遣	-8.48784
虎	-8.49268
笑	-8.49396
濁	-8.4943
熟	-8.49441
予	-8.49459
苟	-8.4948
垂	-8.50102
偏	-8.50138
特	-8.50205
路	-8.50215
宋	-8.50593
充	-8.50895
隂	-8.50953
羊	-8.5123
悲	-8.51315
知其	-8.51393
財	-8.5159
雄	-8.5165
休	-8.51697
仰	-8.51868
弗	-8.51889
然而	-8.52057
移	-8.5229
可謂	-8.52293
疏	-8.52465
也言	-8.52558
落	-8.52587
之時	-8.52701
禁	-8.52954
不足以	-8.52978
剛	-8.53003
則不	-8.53175
簡	-8.53215
辰	-8.53366
之理	-8.53583
投	-8.53593
於此	-8.53742
接	-8.53915
聖人之	-8.54002
勤	-8.54157
朱	-8.54241
道也	-8.54375
效	-8.54459
燒	-8.54469
角	-8.5447
越	-8.54505
違	-8.54591
孝	-8.54616
量	-8.54623
無有	-8.54658
而生	-8.54793
人也	-8.54838
咸	-8.54889
秋	-8.54921
與之	-8.55053
雜	-8.55185
盜	-8.55277
二十	-8.55379
申	-8.55744
煩	-8.55824
純	-8.55832
承	-8.55933
研	-8.56041
按	-8.56163
蛇	-8.56174
而有	-8.56251
品	-8.56274
知之	-8.56342
弊	-8.56342
丸	-8.56597
郭	-8.5667
粉	-8.56786
走	-8.56901
至人	-8.56997
滯	-8.5708
必有	-8.57113
得其	-8.57384
城	-8.57385
誰	-8.5748
胎	-8.57702
尺	-8.58032
古之	-8.58325
回	-8.58365
;	-8.58389
胡	-8.58612
博	-8.58792
住	-8.59156
一日	-8.59366
精神	-8.59495
寄	-8.59617
魯	-8.59631
營	-8.59698
寡	-8.59755
混	-8.59786
與物	-8.59842
吉	-8.59853
録	-8.59879
錢	-8.59979
柔弱	-8.60009
堂	-8.60069
珠	-8.60145
序	-8.60449
賜	-8.60511
然則	-8.60516
遷	-8.60555
萬物之	-8.60626
羣	-8.60689
恃	-8.60959
犯	-8.60966
況	-8.61121
某	-8.61171
雨	-8.61332
鼻	-8.62044
冠	-8.62085
也若	-8.62149
訣	-8.62149
姓	-8.62245
鄉	-8.62437
譽	-8.62454
昏	-8.62565
循	-8.62608
履	-8.62981
陵	-8.62988
七日	-8.63126
連	-8.63141
參	-8.63164
徳	-8.63225
乘	-8.63338
納	-8.63362
天道	-8.63574
丁	-8.63621
僞	-8.63756
臺	-8.63963
敢	-8.64063
言其	-8.64068
勇	-8.64074
漸	-8.64162
自得	-8.64326
改	-8.64337
升	-8.64974
飾	-8.65143
鹽	-8.6517
懼	-8.65328
造化	-8.65339
賊	-8.65536
鐵	-8.65713
凶	-8.6576
無事	-8.65823
敵	-8.6599
經云	-8.66048
均	-8.66078
泉	-8.66173
工	-8.66455
驗	-8.66524
兆	-8.66624
秦	-8.66655
謹	-8.6671
羅	-8.66884
彰	-8.67106
呼	-8.67116
泥	-8.67318
只	-8.67409
瘡	-8.67683
枝	-8.67909
奏	-8.68269
商	-8.68411
梁	-8.68443
五行	-8.68542
紅	-8.68548
最	-8.68667
歷	-8.68895
莊子曰	-8.68945
里	-8.68946
縱	-8.6909
群	-8.69157
惠	-8.69367
禀	-8.69389
畜	-8.69396
避	-8.69665
川	-8.69852
者必	-8.70014
孫	-8.70024
尤	-8.70056
總	-8.70151
到	-8.70182
而不知	-8.7042
係	-8.7045
鼓	-8.70653
毛	-8.70782
生死	-8.70797
延	-8.70864
蒙	-8.70925
四時	-8.70964
清靜	-8.71106
助	-8.71376
故無	-8.71444
者皆	-8.71497
使人	-8.71526
庭	-8.7158
其德	-8.71686
言之	-8.717
悦	-8.71763
密	-8.71838
背	-8.72206
折	-8.72261
客	-8.72282
希	-8.72521
衆人	-8.72534
也故曰	-8.72629
忠	-8.72637
禹	-8.72646
療	-8.72747
卷之	-8.72772
屈	-8.72869
則有	-8.72897
是故	-8.72917
神仙	-8.72945
習	-8.73023
無欲	-8.73073
匱	-8.73115
吐	-8.73164
爲天下	-8.73327
第二	-8.73499
樹	-8.737
拜	-8.73777
之士	-8.74002
歌	-8.7407
默	-8.74187
曾	-8.74257
包	-8.74269
黄帝	-8.74296
庶	-8.74317
令人	-8.74443
水銀	-8.74485
責	-8.74543
獲	-8.74661
淫	-8.74729
無以	-8.74878
㫖	-8.74925
吏	-8.75093
髮	-8.75147
曰吾	-8.7515
舜	-8.75241
列子	-8.75271
史	-8.75585
仍	-8.7565
啓	-8.75808
不善	-8.75906
不爭	-8.7634
攝	-8.7649
尋	-8.7652
竊	-8.76524
崇	-8.76743
一切	-8.76754
雖有	-8.7713
貧	-8.77267
歟	-8.77283
捨	-8.77418
劫	-8.7748
負	-8.77725
不及	-8.77727
莫不	-8.77844
免	-8.78052
侯	-8.78093
忌	-8.78236
人之所	-8.78328
舊	-8.78401
况	-8.78513
者非	-8.78536
謝	-8.78775
職	-8.78851
侍	-8.78992
煎	-8.79109
委	-8.79303
宰	-8.79719
河曰	-8.79749
之謂	-8.79785
祥	-8.79786
怪	-8.79893
耳目	-8.79955
蕩	-8.80029
辛	-8.8013
井	-8.80133
早	-8.80139
治國	-8.80139
神明	-8.80295
跡	-8.80427
其性	-8.80651
射	-8.80741
一斤	-8.80766
髙	-8.80835
食之	-8.80919
徹	-8.81189
而成	-8.81201
壇	-8.81387
嚴	-8.81403
佳	-8.81572
孔	-8.81721
迎	-8.81852
淨	-8.81915
豆	-8.81923
之所以	-8.82035
者爲	-8.82648
齒	-8.82665
名曰	-8.8275
爲一	-8.82996
世之	-8.83082
顧	-8.83346
户	-8.83392
其道	-8.8347
軍	-8.83479
陸	-8.83487
輔	-8.83519
宣	-8.8364
遍	-8.83682
溺	-8.83768
劍	-8.83957
之後	-8.83963
竹	-8.83991
證	-8.83993
託	-8.841
淺	-8.84225
羽	-8.84445
攻	-8.84563
鳴	-8.84565
奪	-8.84639
水火	-8.84729
影	-8.84733
躁	-8.85116
條	-8.85135
材	-8.85141
護	-8.85405
露	-8.85435
乳	-8.85436
也此	-8.85739
舟	-8.85884
附	-8.85989
考	-8.85992
以道	-8.8608
庚	-8.86268
傾	-8.86341
童	-8.8635
超	-8.8637
㝠	-8.86552
育	-8.86573
宅	-8.86588
之名	-8.86634
米	-8.86793
矣故	-8.86877
干	-8.86952
鬼神	-8.87112
不用	-8.87129
昇	-8.87182
不自	-8.87307
殿	-8.8733
洗	-8.87431
昭	-8.87466
讓	-8.8749
旦	-8.87524
尸	-8.87571
昌	-8.87575
子曰	-8.87639
壯	-8.87922
亦不	-8.88157
至道	-8.88234
房	-8.88313
道士	-8.88382
趨	-8.88428
虧	-8.88491
黃	-8.88794
速	-8.89279
而不能	-8.89454
逺	-8.89489
丹砂	-8.8949
中有	-8.89517
刻	-8.89584
朴	-8.89605
彌	-8.89625
夭	-8.89715
略	-8.8978
雞	-8.89783
經曰	-8.89788
雌	-8.89854
扶	-8.89904
世人	-8.89958
諸侯	-8.90175
竭	-8.90213
勸	-8.90221
驕	-8.90232
貨	-8.90261
亦有	-8.90809
之功	-8.91173
趣	-8.91215
慕	-8.91312
而不可	-8.91388
擇	-8.91604
不欲	-8.9183
眼	-8.91835
友	-8.91886
無知	-8.91936
之於	-8.92009
不生	-8.9207
困	-8.92077
見其	-8.92152
詐	-8.92163
膏	-8.92181
與人	-8.92201
逃	-8.92569
觀其	-8.92583
之外	-8.92748
之法	-8.9282
在於	-8.93288
左右	-8.93361
三日	-8.93397
波	-8.93545
馳	-8.93565
毁	-8.93963
答	-8.94141
三年	-8.94162
染	-8.94308
帶	-8.94393
儉	-8.94412
虛	-8.94436
天之	-8.94526
無所不	-8.94619
江	-8.94637
而能	-8.94736
所以爲	-8.9491
而自	-8.94941
卧	-8.94971
議	-8.95111
詳	-8.95345
天尊至心信禮	-8.95411
旋	-8.95561
桑	-8.95811
輿	-8.96037
殆	-8.96112
有形	-8.96118
審	-8.96134
辟	-8.96172
涉	-8.96211
狂	-8.96241
無極	-8.96429
得一	-8.96497
又云	-8.96517
沉	-8.96718
二兩	-8.96733
晋	-8.9675
决	-8.96773
不如	-8.97053
父母	-8.97144
脩	-8.97177
之德	-8.9743
未有	-8.97496
魏	-8.97577
生之	-8.97677
泄	-8.9778
而非	-8.97797
禄	-8.97809
競	-8.97819
部	-8.97836
劉	-8.97873
滑	-8.97921
不知其	-8.9795
普	-8.98064
第一	-8.98104
祭	-8.98159
人皆	-8.98368
也故云	-8.984
腎	-8.98573
晦	-8.98876
午	-8.98962
據	-8.99007
咽	-8.99099
擊	-8.99145
恭	-8.99251
儀	-8.99303
季	-8.9939
不相	-8.99486
不死	-8.99488
爐	-8.9958
者是	-8.99593
者亦	-8.99596
偽	-8.99651
之用	-8.99706
刀	-8.99743
肝	-8.99809
濕	-8.99865
腫	-9.00029
潤	-9.00159
懸	-9.00159
點	-9.00204
之上	-9.00295
譬	-9.0031
脚	-9.0032
宇	-9.00342
想	-9.00443
蜜	-9.00508
不言	-9.0051
學者	-9.00669
陶	-9.00708
四兩	-9.00714
爲末	-9.00883
厭	-9.00949
巨	-9.00994
天子	-9.01004
於外	-9.01059
三十	-9.01091
者有	-9.01194
故不	-9.01221
讀	-9.01295
河上公曰	-9.01355
體道	-9.01366
爲人	-9.01412
池	-9.01446
潜	-9.01519
治天下	-9.01661
聞之	-9.01693
塊	-9.01767
拘	-9.01806
麻	-9.02179
儒	-9.02401
昧	-9.02466
繼	-9.02468
寸	-9.02528
之道也	-9.02702
銅	-9.02785
慶	-9.02924
龜	-9.02924
市	-9.03017
穢	-9.03127
辨	-9.03167
步	-9.03188
大夫	-9.03203
短	-9.0321
有無	-9.03354
活	-9.03426
滋	-9.03512
眞君	-9.03783
鄭	-9.04046
域	-9.04057
脱	-9.04129
化爲	-9.04158
人君	-9.04332
搗	-9.04373
若是	-9.04466
述	-9.04606
試	-9.04697
義曰	-9.04708
何以	-9.0487
壞	-9.04979
虚無	-9.05037
此言	-9.05135
取出	-9.05262
尾	-9.05307
幸	-9.05433
祕	-9.05558
小人	-9.05608
莊	-9.05661
吹	-9.0567
苗	-9.05678
而天下	-9.05704
導	-9.05989
而已矣	-9.0602
印	-9.06186
通玄經曰	-9.06394
不信	-9.06706
恒	-9.06736
律	-9.06774
殃	-9.06811
司馬云	-9.06955
草木	-9.06957
悉	-9.06959
揚	-9.06986
逸	-9.06987
醫	-9.06993
以為	-9.07131
繫	-9.0715
於天下	-9.07166
國之	-9.07201
克	-9.07396
之地	-9.07403
用兵	-9.07498
之妙	-9.0752
十五	-9.07661
輪	-9.07707
隂陽	-9.07765
咎	-9.07816
雷	-9.07846
者謂	-9.07901
生者	-9.07944
墨	-9.07948
翼	-9.08158
御註	-9.08384
英	-9.084
無私	-9.08598
詩	-9.08646
統	-9.08693
未能	-9.0878
岀	-9.0881
觀之	-9.08851
之義	-9.08905
出入	-9.08945
顔	-9.09095
得道	-9.09222
賔	-9.09408
蜀	-9.09584
枯	-9.09737
莖	-9.0982
膽	-9.09824
遭	-9.09922
浸	-9.10028
籙	-9.1009
淡	-9.10159
邊	-9.10166
操	-9.10195
道而	-9.10501
率	-9.10532
冲	-9.1056
煑	-9.10653
也今	-9.10706
肆	-9.10779
際	-9.10808
沖	-9.10854
愼	-9.10907
界	-9.11042
蔽	-9.11044
駕	-9.11238
獸	-9.11255
芒	-9.11269
之精	-9.1138
叔	-9.1143
之類	-9.11432
牙	-9.11707
。」	-9.11717
管	-9.1181
頂	-9.11933
繩	-9.11971
五色	-9.11986
慎	-9.12007
京	-9.12118
介	-9.12148
而行	-9.12192
盖	-9.12752
貫	-9.12768
十八	-9.12841
廉	-9.12852
皆有	-9.12931
也又	-9.12997
之主	-9.13001
獻	-9.13058
吕	-9.13202
此章	-9.13243
趙	-9.13352
蘇	-9.13383
往來	-9.13501
卿	-9.13678
如是	-9.13738
物物	-9.13748
不然	-9.13775
余	-9.13821
失其	-9.13853
後世	-9.13876
闕	-9.13905
鹿	-9.13966
其形	-9.13978
富貴	-9.14046
無爲而	-9.141
澄	-9.14107
兹	-9.14116
將軍	-9.142
又曰	-9.14351
民之	-9.14441
屋	-9.14528
肺	-9.14588
寵	-9.14698
四十	-9.14741
紙	-9.14808
入於	-9.14853
看	-9.1486
曹	-9.15004
飢	-9.15206
不失	-9.15266
領	-9.15491
底	-9.15637
不離	-9.15879
灾	-9.15968
荒	-9.16013
十六	-9.16119
增	-9.16148
殘	-9.16159
三十六	-9.16196
賞	-9.16313
穀	-9.16315
頓	-9.16431
蒸	-9.16444
此道	-9.16486
寓	-9.16607
嶽	-9.16633
燕	-9.16637
否	-9.16655
之情	-9.1666
分别	-9.16699
卦	-9.16769
第三	-9.16887
雱曰	-9.16943
誅	-9.16972
人間	-9.17025
明皇曰	-9.17075
誦	-9.17252
貞	-9.17401
醋	-9.17786
夫人	-9.17867
玉女	-9.17909
仲	-9.18065
歸之	-9.18317
内外	-9.18344
丈	-9.18365
郡	-9.18384
小兒	-9.18468
耀	-9.18479
不過	-9.18656
災	-9.18672
没	-9.1868
此之謂	-9.18706
於天	-9.18715
缺	-9.1878
式	-9.18822
孰能	-9.18909
鍾	-9.19012
産	-9.19023
十四	-9.19029
者言	-9.19148
聰明	-9.19151
故聖人	-9.19239
功成	-9.19241
人能	-9.19292
尹	-9.19333
詔	-9.19377
貴賤	-9.19389
停	-9.19489
及其	-9.19528
利害	-9.19602
抑	-9.19675
眞武	-9.19776
竟	-9.19825
鑒	-9.19844
李云	-9.19844
衆生	-9.19974
其名	-9.20001
招	-9.20014
莫能	-9.20017
堯舜	-9.20059
不可得而	-9.20156
之氣	-9.20356
太極	-9.20523
亦無	-9.20595
五藏	-9.20839
添	-9.20885
同於	-9.20966
霜	-9.21207
四方	-9.21382
掌	-9.21465
太清	-9.21566
傅	-9.21573
亦可	-9.21596
防	-9.21642
人心	-9.21755
澆	-9.21805
三月	-9.21926
奔	-9.21953
二十四	-9.22
妻	-9.22056
物也	-9.22167
行之	-9.22221
不在	-9.22543
弘	-9.22686
吴	-9.22796
春秋	-9.22814
后	-9.22819
還丹	-9.22833
餌	-9.2294
庸	-9.22995
液	-9.22997
楊	-9.2308
禍福	-9.23146
則爲	-9.23446
潔	-9.2348
炭	-9.2348
祈	-9.23495
侯王	-9.23577
孟	-9.23836
狗	-9.23844
靡	-9.23872
仲尼	-9.23879
偶	-9.24009
省	-9.24188
大小	-9.24195
人所	-9.24484
之徒	-9.24627
之行	-9.24733
徇	-9.24824
基	-9.25006
洪	-9.25041
見之	-9.25181
閑	-9.25228
之内	-9.25247
戴	-9.25364
萌	-9.25377
御䟽	-9.25525
毫	-9.25527
訖	-9.25547
雖然	-9.25603
舌	-9.2571
弟	-9.2586
沙	-9.2606
誤	-9.26072
哭	-9.26084
其功	-9.26259
死者	-9.26371
穴	-9.26448
老氏	-9.26489
不出	-9.26532
鑿	-9.26603
徧	-9.26604
之本	-9.26905
虞	-9.26956
觸	-9.26992
其言	-9.27075
不聞	-9.27147
相與	-9.27238
斤	-9.27261
夕	-9.27289
刺	-9.27305
妖	-9.27467
豐	-9.27506
終始	-9.27563
廟	-9.27603
故也	-9.27655
性命	-9.27712
大國	-9.27843
祝	-9.27872
嬰兒	-9.27889
帝王	-9.27909
柱	-9.27991
規	-9.28007
曉	-9.28016
奢	-9.28164
動而	-9.28268
生而	-9.284
其生	-9.28434
限	-9.28516
究	-9.2852
善惡	-9.28587
矣夫	-9.28634
乎其	-9.28652
不成	-9.28737
松	-9.29191
竅	-9.29368
抱一	-9.29411
徑	-9.29421
徵	-9.29606
歸於	-9.29621
訓	-9.29634
各有	-9.2965
司馬	-9.29697
腰	-9.29769
醮	-9.29933
逍遥	-9.29971
乖	-9.29979
有道	-9.30036
子孫	-9.30051
暗	-9.30153
天尊志心朝禮	-9.30219
打	-9.30281
籍	-9.30317
十三	-9.30346
其神	-9.30379
現	-9.30476
霞	-9.30487
杜	-9.30678
之謂也	-9.30732
君臣	-9.30782
校	-9.30861
詞	-9.30883
帛	-9.30969
故有	-9.3105
孔子曰	-9.31059
配	-9.31066
魔	-9.31069
使之	-9.31096
之至也	-9.31198
能知	-9.31308
下同	-9.31346
響	-9.31404
犬	-9.31418
族	-9.31498
千里	-9.31658
割	-9.31918
以明	-9.31988
德之	-9.32055
第十	-9.32089
像	-9.32112
鄙	-9.32155
厄	-9.32276
也聖人	-9.32484
焦	-9.32543
侵	-9.32696
牝	-9.32717
蒼	-9.32743
腸	-9.32801
瓦	-9.33049
費	-9.33066
四海	-9.33103
得而	-9.33164
欺	-9.33287
兒	-9.33297
圍	-9.33438
而求	-9.33477
古今	-9.33625
莫之	-9.3363
煉	-9.33631
擣	-9.33687
敦	-9.3375
徼	-9.33761
於世	-9.33864
借	-9.34052
水之	-9.34075
畫	-9.34186
佐	-9.34191
恣	-9.34453
碧	-9.34466
鶴	-9.34759
罔	-9.34785
呪	-9.34847
?	-9.34886
其中	-9.34906
矯	-9.34942
拔	-9.34961
鳳	-9.34991
歎	-9.34995
擾	-9.35102
則知	-9.35139
戊	-9.35155
豫	-9.35296
不止	-9.35544
逝	-9.35672
北斗	-9.35696
與天地	-9.35775
嘉	-9.35917
枉	-9.35928
名也	-9.36019
衍義云	-9.36068
送	-9.36143
網	-9.36284
子之	-9.36296
無常	-9.3631
御注曰	-9.36322
睹	-9.36357
其所以	-9.36567
支	-9.36644
成䟽	-9.36711
自生	-9.3678
乙	-9.37017
渾	-9.37017
男	-9.37044
冰	-9.37053
側	-9.37086
錯	-9.37088
造物	-9.37135
視之	-9.37192
錫	-9.37215
峰	-9.37243
此乃	-9.37546
養生	-9.37622
紛	-9.37653
所在	-9.37714
者乃	-9.37763
脂	-9.37808
暢	-9.37864
禮樂	-9.37886
爲善	-9.37929
付	-9.37969
與道	-9.38017
無爲之	-9.38029
十日	-9.3811
鮮	-9.38198
使民	-9.38212
綱	-9.38231
席	-9.38234
赤子	-9.38328
夫唯	-9.38434
則民	-9.38461
一氣	-9.38522
稽	-9.38636
即是	-9.38694
徽宗註曰	-9.3873
在我	-9.38768
標	-9.38818
鏡	-9.38851
殷	-9.38852
偃	-9.38868
之門	-9.38873
其實	-9.38899
物而	-9.38996
一人	-9.39041
則是	-9.39185
味甘	-9.39272
五臟	-9.39421
陶隱居云	-9.39421
康	-9.39469
歡	-9.39487
不動	-9.39511
痢	-9.39581
守其	-9.39626
津	-9.39821
此皆	-9.39917
修身	-9.40003
索	-9.40056
芝	-9.40091
臣義曰	-9.40179
瑞	-9.40222
以成	-9.40286
喜怒	-9.40313
碎	-9.40365
知者	-9.40423
葛	-9.4059
環	-9.40607
脾	-9.40652
邑	-9.40667
鈔	-9.40731
豈有	-9.40759
天之道	-9.40793
之物	-9.40857
技	-9.40901
至矣	-9.40914
震	-9.41008
何謂	-9.41009
煙	-9.4101
䟽義曰	-9.41015
又何	-9.41021
晝	-9.41191
筋	-9.41206
晝夜	-9.41236
漏	-9.41249
寢	-9.41276
可得	-9.41341
鼠	-9.41425
革	-9.4146
再拜	-9.4149
朕	-9.41518
天尊	-9.41574
十七	-9.416
太一	-9.41618
給	-9.41659
治之	-9.41685
有名	-9.41695
不勝	-9.41726
用也	-9.41889
?」	-9.41972
榮曰	-9.4221
應物	-9.42291
恬	-9.42379
阿	-9.42415
墮	-9.42445
有此	-9.42567
遠矣	-9.42693
巖	-9.4272
道德眞經	-9.42778
沈	-9.42884
不行	-9.43042
不肖	-9.43166
撓	-9.43211
不得已	-9.43226
慢	-9.43258
墜	-9.43337
之君	-9.43348
緩	-9.4338
之迹	-9.43401
而況	-9.43437
自有	-9.43439
鎭	-9.43444
險	-9.43466
典	-9.43518
其事	-9.43569
矢	-9.4357
硫黄	-9.43585
飲食	-9.43605
無物	-9.4368
暫	-9.4371
彊	-9.43711
卵	-9.43716
知足	-9.43831
而得	-9.43851
悔	-9.43902
倫	-9.44193
也然	-9.44221
油	-9.44263
科	-9.44306
爲主	-9.44416
慧	-9.44423
道則	-9.44457
爵	-9.44515
生成	-9.44516
奥	-9.44528
膠	-9.44706
不可得	-9.44721
臂	-9.44737
削	-9.4474
天門	-9.44757
第四	-9.44801
者道之	-9.44872
固濟	-9.4489
麗	-9.44931
以求	-9.44942
寇	-9.44993
終日	-9.45028
合於	-9.4506
眀	-9.45119
牧	-9.45163
長乆	-9.45169
盞	-9.4525
吞	-9.45252
霄	-9.4535
横	-9.45356
亥	-9.45397
之至	-9.45435
六十	-9.4549
溢	-9.4557
謁	-9.45579
外物	-9.45686
追	-9.45747
歩	-9.45749
德者	-9.45775
鷄	-9.4578
孤	-9.45781
寬	-9.45789
元氣	-9.45812
自化	-9.45818
而民	-9.45835
!	-9.45888
一物	-9.45916
諱	-9.45958
朱砂	-9.46049
勑	-9.46071
者無	-9.46138
弼曰	-9.46204
其本	-9.4622
漿	-9.46232
北方	-9.46308
暮	-9.46416
求之	-9.46581
故言	-9.46594
多少	-9.46625
十九	-9.46664
治身	-9.46713
棗	-9.4678
桃	-9.46788
之患	-9.46852
曠	-9.46903
蓬	-9.46908
弓	-9.46931
二年	-9.46993
礙	-9.47041
姦	-9.47072
三兩	-9.47111
粗	-9.47186
之極	-9.47201
酸	-9.47229
以自	-9.4723
肅	-9.47278
夫道	-9.4739
十一	-9.47471
國家	-9.47526
鬱	-9.47534
人有	-9.47662
寅	-9.4769
筆	-9.47702
之始	-9.47792
胥	-9.47805
嗣	-9.47944
失之	-9.48067
續	-9.48071
自然之	-9.48107
焚	-9.48111
於心	-9.48114
戎	-9.48131
者乎	-9.48213
無毒	-9.48251
襲	-9.48317
耕	-9.48385
戮	-9.48618
矣故曰	-9.48658
之術	-9.4868
婦人	-9.48745
自以爲	-9.48795
於内	-9.48818
跂	-9.48992
知道	-9.4906
異於	-9.4917
厲	-9.49236
之說	-9.49318
徃	-9.49433
江海	-9.49479
俄	-9.49672
未始	-9.49701
不求	-9.49703
學道	-9.49708
金石	-9.49802
瓊	-9.49828
賢人	-9.49843
豈不	-9.49912
復歸	-9.49974
壬	-9.50089
樞	-9.50107
故謂之	-9.50132
昩	-9.5015
炒	-9.50231
鑑	-9.50326
無方	-9.50412
所見	-9.50528
饑	-9.5053
所欲	-9.50565
飽	-9.50601
百日	-9.507
之性	-9.50841
聲色	-9.50888
覽	-9.50932
杖	-9.50983
融	-9.51009
鄰	-9.51014
而去	-9.51228
圖經曰	-9.51235
稍	-9.51235
未始有	-9.51327
之變	-9.51342
依前	-9.51498
奈何	-9.51502
五日	-9.51557
釜	-9.51573
盤	-9.51863
曰子	-9.51956
可見	-9.5196
天師	-9.52082
裂	-9.52141
然也	-9.52233
雪	-9.52238
堪	-9.52241
甫	-9.52283
有一	-9.52318
雄黄	-9.52319
摩	-9.52352
不通	-9.52356
虚而	-9.52506
日夜	-9.52507
崖	-9.52584
元年	-9.52608
皇帝	-9.52664
測	-9.52708
垢	-9.52735
則天下	-9.52792
舞	-9.52826
又有	-9.52903
▁(	-9.52971
不厭	-9.53078
撫	-9.5322
上德	-9.53249
一升	-9.53308
刃	-9.53324
農	-9.53446
聰	-9.53682
形而	-9.53735
、	-9.53752
緑	-9.53889
在上	-9.53902
一身	-9.53944
惜	-9.5395
監	-9.53958
以生	-9.54032
德也	-9.54056
胃	-9.54128
則其	-9.54224
生萬物	-9.54231
化而	-9.54242
其大	-9.54304
於身	-9.54316
枚	-9.54362
闇	-9.544
忍	-9.54405
醜	-9.54414
汗	-9.54453
陰陽之	-9.54506
妙本	-9.54507
渴	-9.54558
不待	-9.54601
闔	-9.54612
天地之間	-9.54672
脉	-9.54813
倚	-9.54816
賦	-9.54861
之際	-9.54877
談	-9.54877
坤	-9.54969
淋	-9.55007
寒暑	-9.55082
不見其	-9.55244
物無	-9.5525
如字	-9.55454
衍義曰	-9.55529
男女	-9.55598
忘其	-9.5576
禽	-9.55834
拱	-9.55992
世俗	-9.56047
小便	-9.56126
所不能	-9.56242
詣	-9.56291
肥	-9.56322
倪	-9.56323
若能	-9.56355
聾	-9.56429
舊註	-9.5647
穿	-9.56507
不仁	-9.56546
衡	-9.56716
自知	-9.56727
仲尼曰	-9.56749
繁	-9.56754
與天	-9.56804
使者	-9.56965
於無	-9.57071
倒	-9.57198
炙	-9.57202
不復	-9.57256
之數	-9.57286
我獨	-9.57331
〇	-9.57341
味苦	-9.57401
道無	-9.57459
芽	-9.5756
老聃	-9.57661
邦	-9.57695
欲以	-9.57769
古人	-9.57792
動靜	-9.57826
日華子云	-9.57875
互	-9.57933
旬	-9.5794
清淨	-9.58077
文王	-9.58261
無用	-9.58369
茅	-9.58378
而復	-9.58381
出乎	-9.58474
太平	-9.58533
段	-9.58674
惡乎	-9.58717
在乎	-9.58736
不必	-9.5878
腦	-9.58891
藉	-9.58914
不祥	-9.58978
眞經	-9.5905
逢	-9.59101
晨	-9.59104
騰	-9.59136
易曰	-9.59151
三皇	-9.59333
裹	-9.5934
酉	-9.59364
莫大於	-9.59371
弦	-9.59372
故知	-9.59498
氏之	-9.59535
臭	-9.59564
人不	-9.59636
其用	-9.59721
修之	-9.59796
眞常	-9.5983
是知	-9.59889
鎮	-9.60036
座	-9.60121
暇	-9.60125
裏	-9.6028
如何	-9.60437
思慮	-9.6045
䟽夫	-9.60453
幻	-9.60523
聽之	-9.60527
世間	-9.60539
厥	-9.60553
卯	-9.60554
鴻	-9.60591
荆	-9.60596
乾坤	-9.60607
砒	-9.60677
古者	-9.6073
若此	-9.60823
太虚	-9.60898
可名	-9.60959
夫惟	-9.61001
堅强	-9.61011
倍	-9.61039
山谷	-9.61062
光明	-9.61067
於己	-9.6107
而不爲	-9.61079
驅	-9.61092
珍	-9.61306
五帝	-9.61308
修道	-9.61439
無爲也	-9.61464
相生	-9.61514
之貌	-9.61518
八月	-9.61536
箇	-9.61557
之使	-9.61654
爲大	-9.61703
煅	-9.61742
傍	-9.61814
披	-9.61829
匀	-9.6201
二人	-9.62114
本作	-9.62159
盧曰	-9.62252
曰夫	-9.62263
老君曰	-9.62286
漠	-9.62332
茂	-9.62335
無聲	-9.62423
匠	-9.62462
無為	-9.62516
鋭	-9.62586
問曰	-9.62616
自是	-9.62777
旁	-9.62796
嘆	-9.62803
生生	-9.62898
若有	-9.62912
遁	-9.63101
成功	-9.63164
五月	-9.63168
而言	-9.63204
五兩	-9.63344
鍋	-9.63471
善人	-9.63477
強	-9.63525
撰	-9.63625
樓	-9.63669
丙	-9.63848
以至	-9.63941
坎	-9.63959
礬	-9.64014
桀	-9.64034
不得不	-9.64063
徙	-9.64077
丑	-9.6429
遊於	-9.64311
名爲	-9.64353
好惡	-9.64405
可欲	-9.64443
火候	-9.64484
瓶	-9.64494
篤	-9.64557
我之	-9.64589
以下	-9.64621
非我	-9.64657
享	-9.64857
殺人	-9.65071
澹	-9.65077
葬	-9.65082
不與	-9.65223
嗇	-9.65236
神人	-9.65317
故以	-9.6532
者以其	-9.6549
片	-9.65583
汎	-9.65592
人事	-9.65673
何也	-9.65737
爛	-9.65803
埋	-9.65821
非道	-9.65858
戌	-9.65866
失道	-9.65993
而無所	-9.65999
所言	-9.66119
而不得	-9.66153
因其	-9.66176
六合	-9.66258
五十	-9.66393
預	-9.66396
惠子	-9.6645
砂子	-9.66504
爲道	-9.66547
南方	-9.66558
麥	-9.66612
所爲	-9.6664
怠	-9.66706
至于	-9.66774
麤	-9.66888
燈	-9.66894
號曰	-9.67036
神丹	-9.67138
理也	-9.67159
黨	-9.67223
子貢	-9.6738
柳	-9.67407
不若	-9.67538
取其	-9.67549
甲子	-9.67792
无所	-9.67839
有心	-9.67923
爲度	-9.68198
湛	-9.6823
玄元	-9.68244
㑹	-9.68466
賴	-9.68474
絲	-9.68498
則人	-9.68525
有生	-9.68586
仙人	-9.68665
隆	-9.68732
泯	-9.68749
格	-9.68785
不明	-9.68863
取天下	-9.69004
漆	-9.69026
注云	-9.69066
耗	-9.6924
赴	-9.69261
單	-9.69279
九天	-9.69303
脫	-9.69315
祀	-9.69319
之可	-9.69339
不識	-9.69359
本無	-9.6938
婦	-9.6944
殺之	-9.69481
握	-9.69527
案	-9.6954
誘	-9.69558
矣此	-9.69562
不傷	-9.69566
將欲	-9.69582
踐	-9.69602
人以	-9.69619
前後	-9.69648
和氣	-9.69821
若夫	-9.69835
薪	-9.69851
謬	-9.69874
有道者	-9.69908
則非	-9.69915
玄牝	-9.69929
靈砂	-9.69932
解曰	-9.69969
是爲	-9.70006
黄芽	-9.70062
凌	-9.70081
入藥	-9.70088
內	-9.70145
太上老君	-9.7017
水中	-9.70214
天理	-9.70222
罰	-9.70293
無情	-9.70307
浪	-9.70387
禦	-9.70418
有三	-9.70441
沸	-9.706
常存	-9.70601
不入	-9.70711
七月	-9.70723
途	-9.70905
也吾	-9.71136
拙	-9.71147
悶	-9.71159
秀	-9.71173
歳	-9.71179
挫	-9.7119
須臾	-9.71204
磨	-9.71213
此章明	-9.71224
終身	-9.71269
兊	-9.71383
覩	-9.71401
一時	-9.71405
大聖	-9.71418
俯	-9.71443
頃	-9.71454
雙	-9.71468
遽	-9.71489
稽首	-9.71502
其意	-9.71523
聖智	-9.71593
不免	-9.71596
躬	-9.7175
恍惚	-9.71758
至理	-9.71762
迴	-9.7177
菜	-9.71777
亦如	-9.71847
爽	-9.71989
糞	-9.71996
小國	-9.72043
駭	-9.72044
戚	-9.72057
非有	-9.7209
也凡	-9.72139
判	-9.72177
殉	-9.72263
壤	-9.72324
硫	-9.72459
不化	-9.72526
采	-9.72552
題	-9.72588
乞	-9.72593
應之	-9.72648
百年	-9.72681
之與	-9.72766
同乎	-9.72767
束	-9.72847
而死	-9.72852
未知	-9.72907
出而	-9.72922
關尹子曰	-9.73106
勉	-9.73111
曰此	-9.7317
莫知	-9.7318
瞻	-9.73184
不知所	-9.73186
無間	-9.73213
人主	-9.73375
牽	-9.73443
筭	-9.73571
佩	-9.73588
丹田	-9.73606
盲	-9.7362
静	-9.73629
十年	-9.73636
牡	-9.73656
其子	-9.73715
與我	-9.73762
猛	-9.73877
燭	-9.73948
供	-9.73961
誕	-9.73967
爲用	-9.73982
中央	-9.74076
億	-9.74176
而未	-9.74181
道德之	-9.74204
措	-9.74224
行而	-9.7432
攪	-9.74378
方治	-9.74532
演	-9.75044
父子	-9.75103
而忘	-9.75308
淪	-9.75313
知止	-9.75325
山林	-9.75329
祠	-9.75344
泣	-9.75364
對曰	-9.75376
兄	-9.75412
生物	-9.75434
人身	-9.75441
非常	-9.75545
聖人不	-9.75635
二月	-9.75686
自見	-9.75731
聖人之道	-9.75873
暖	-9.75904
黃帝	-9.76102
有德	-9.76136
排	-9.76198
猪	-9.76201
痹	-9.76212
唱	-9.76235
炎	-9.76267
以知	-9.7628
者即	-9.76343
浩	-9.76495
振	-9.76523
彩	-9.76542
也蓋	-9.76597
靜而	-9.76622
魂魄	-9.76623
存亡	-9.76643
不窮	-9.76646
東方	-9.76715
泊	-9.76736
不測	-9.76743
窺	-9.76805
今日	-9.76928
五味	-9.76957
未必	-9.77009
禱	-9.77056
盟	-9.77102
於一	-9.77192
道以	-9.77235
以德	-9.77282
侮	-9.77322
提	-9.77374
則失	-9.7741
膝	-9.77412
棲	-9.7742
禽獸	-9.77474
凡人	-9.77545
飄	-9.77687
名之	-9.77737
智者	-9.77887
抽	-9.77919
社	-9.77921
不盈	-9.77923
維	-9.77935
而知	-9.78008
萬物皆	-9.78045
之要	-9.78062
得失	-9.78106
之辭	-9.78135
延年	-9.78157
金丹	-9.78256
仕	-9.78315
九日	-9.78329
天下皆	-9.78332
陰乾	-9.78362
而動	-9.78384
養之	-9.7841
曜	-9.78467
在人	-9.78772
終身不	-9.78811
不息	-9.78882
物皆	-9.78887
韓	-9.78899
隔	-9.79064
此是	-9.79103
祐	-9.79116
狙	-9.79217
崔云	-9.79229
伏火	-9.7923
崔	-9.7925
一百	-9.79285
十月	-9.79327
鋪	-9.79333
若不	-9.79335
亦猶	-9.79351
道不	-9.79365
健	-9.79396
一年	-9.79421
諫	-9.79473
風雨	-9.79512
植	-9.79595
以水	-9.7964
錦	-9.79712
不至	-9.79738
其有	-9.79799
丹陽	-9.7981
何爲	-9.79863
上古	-9.80021
不失其	-9.80023
美惡	-9.80178
醉	-9.80318
以無爲	-9.80394
神農	-9.80424
無非	-9.80453
是之謂	-9.80454
常以	-9.80521
而反	-9.80523
上清	-9.80551
絳	-9.80565
癸	-9.80571
陽氣	-9.80588
將以	-9.80592
輒	-9.80604
不忘	-9.80623
溪	-9.80631
有物	-9.80701
西方	-9.80723
可不	-9.80755
往而不	-9.80842
侈	-9.80888
太陽	-9.80894
寥	-9.80898
烈	-9.80909
欣	-9.80933
三者	-9.80938
鉤	-9.80965
襄	-9.81231
説	-9.81272
妙用	-9.81279
四月	-9.81398
進退	-9.81514
虚靜	-9.8152
吉凶	-9.8154
善者	-9.81784
曰我	-9.81807
真人	-9.8182
理國	-9.81821
元君	-9.819
上有	-9.81925
乆矣	-9.81967
囊	-9.82085
斬	-9.82126
莫之能	-9.82139
曰道	-9.82147
上帝	-9.82262
聞道	-9.82286
其根	-9.82519
書云	-9.8253
寒熱	-9.82563
亭	-9.82726
匿	-9.82765
仞	-9.82789
則可以	-9.82833
若無	-9.82852
萬里	-9.82936
銖	-9.83004
無我	-9.83006
芻狗	-9.8303
飯	-9.83033
衍	-9.83062
此明	-9.8307
其理	-9.83136
長春	-9.83238
有言	-9.83271
璧	-9.83286
舒	-9.83311
忿	-9.83376
教之	-9.83459
取之	-9.83507
三五	-9.8359
斂	-9.83638
以致	-9.83691
可知	-9.8372
彭	-9.83728
便是	-9.83732
形容	-9.83759
不受	-9.83854
之狀	-9.83895
𤣥	-9.83933
碑	-9.8401
有大	-9.84056
倉	-9.84232
銷	-9.8426
階	-9.84273
凉	-9.84277
章第十	-9.84277
肌	-9.84287
洛	-9.84303
薦	-9.84303
旱	-9.84314
瓜	-9.8456
糧	-9.84647
而應	-9.8469
自矜	-9.84701
九月	-9.84814
情欲	-9.84851
萬世	-9.84853
壁	-9.84857
崩	-9.84912
蹈	-9.84912
止於	-9.84938
精氣	-9.84964
靜則	-9.8504
寡人	-9.85134
製	-9.85228
喉	-9.85239
豈能	-9.85253
卜	-9.85262
之國	-9.85345
豈非	-9.85384
不能自	-9.85417
金闕	-9.8542
牢	-9.85521
策	-9.85561
三元	-9.85673
此則	-9.85681
則必	-9.85917
僕	-9.85925
乎天	-9.85987
九轉	-9.86004
公曰	-9.86019
於我	-9.86067
守之	-9.86097
迫	-9.86154
輝	-9.86193
三界	-9.86316
自爲	-9.86398
之下	-9.86423
□	-9.8648
濡	-9.86501
事之	-9.86546
而用之	-9.86649
虚心	-9.86672
長存	-9.86688
可得而	-9.86731
莫若	-9.86759
荷	-9.86828
何所	-9.86902
從之	-9.87054
吸	-9.87071
以至於	-9.8708
爲上	-9.87086
言者	-9.87087
下士	-9.87095
第六	-9.87101
汙	-9.87117
元始	-9.87118
唐本注云	-9.87125
戲	-9.87194
神氣	-9.87258
譬如	-9.87342
金液	-9.87369
桂	-9.87388
綿	-9.87426
忘言	-9.87441
視聽	-9.87466
性之	-9.87492
翔	-9.87493
味辛	-9.87527
生化	-9.87568
瀉	-9.87695
或作	-9.87696
全其	-9.87741
其人	-9.87861
一錢	-9.87909
通於	-9.88041
常有	-9.88071
高下	-9.88075
各自	-9.88091
朔	-9.88122
北極	-9.8827
逹	-9.88388
孟子	-9.88391
理之	-9.88402
竒	-9.88403
蔓	-9.88411
許由	-9.88417
以來	-9.88455
爲君	-9.88634
之處	-9.88647
空虚	-9.88676
金玉	-9.88689
編	-9.88761
而歸	-9.88838
邪氣	-9.88858
崑崙	-9.88993
眉	-9.89044
自此	-9.89147
乎此	-9.89194
文武	-9.89334
天下之至	-9.89355
遥	-9.89392
激	-9.89393
嗜欲	-9.8953
不為	-9.89577
狐	-9.89702
鑄	-9.89707
夸	-9.89746
所能	-9.89747
也是以	-9.89839
也且	-9.8992
當時	-9.8993
此二	-9.8997
利器	-9.89993
誓	-9.90035
鑪	-9.90047
仁者	-9.90061
不絶	-9.9009
萬事	-9.90157
亦然	-9.90266
敝	-9.90267
爻	-9.90321
頌曰	-9.90322
天人	-9.90441
賈	-9.90446
台	-9.90454
三才	-9.90538
五千	-9.9059
銳	-9.90635
誇	-9.9064
搏	-9.90752
則物	-9.90819
賢者	-9.90835
安得	-9.90907
不去	-9.9092
慾	-9.91025
固有	-9.91138
而不自	-9.91214
郊	-9.91374
把	-9.91383
相似	-9.91436
爲本	-9.91477
盆	-9.91626
駢	-9.91659
至德	-9.91679
認	-9.91684
彼我	-9.91703
核	-9.91704
梧	-9.91711
則雖	-9.91713
安靜	-9.91745
叙	-9.91755
程	-9.91792
終不	-9.9186
强梁	-9.91894
者豈	-9.91938
大人	-9.91982
不容	-9.92066
幼	-9.92081
不言而	-9.92119
玄妙	-9.92248
而无	-9.92332
蒿	-9.92349
壅	-9.92364
勿令	-9.92365
衝	-9.92372
存焉	-9.92376
不畏	-9.92388
胸中	-9.9239
箭	-9.92448
无爲	-9.92512
不恃	-9.92578
眞空	-9.92655
蓮	-9.92685
雀	-9.92703
不堪	-9.9271
騎	-9.92726
丈夫	-9.92818
者不能	-9.92823
不已	-9.92849
守一	-9.92867
躍	-9.93027
沐浴	-9.93033
隅	-9.93054
川谷	-9.93095
而欲	-9.93118
華池	-9.93141
文云	-9.93212
萬物而	-9.93257
踵	-9.93354
其國	-9.93377
之聲	-9.93384
殻	-9.93395
轂	-9.93405
僻	-9.93427
欲得	-9.93486
者蓋	-9.93507
星君	-9.93541
者所以	-9.93682
無言	-9.9371
龍虎	-9.93718
敕	-9.93729
粒	-9.93733
物我	-9.93735
檢	-9.93736
正一	-9.93742
不安	-9.93882
微妙	-9.93883
下文	-9.9398
之位	-9.93991
政和	-9.94018
闢	-9.94075
而立	-9.9408
秘	-9.94093
獨立	-9.94122
社稷	-9.94125
不居	-9.94205
以養	-9.94244
而常	-9.94397
手足	-9.94436
贊	-9.94447
戾	-9.94448
始也	-9.94474
十方	-9.94534
子列子	-9.94569
完	-9.9472
葵	-9.94749
小大	-9.94761
訪	-9.94781
陷	-9.94787
曆	-9.94788
灌	-9.9479
南華	-9.94881
至此	-9.94982
歌曰	-9.95012
俾	-9.95081
以正	-9.95108
紂	-9.95124
不盡	-9.95185
南華經曰	-9.95224
第五	-9.95289
未嘗不	-9.95375
所生	-9.95392
問之	-9.95494
昔者	-9.95507
哉故	-9.95617
之域	-9.95757
之境	-9.95776
般	-9.95797
琴	-9.95805
功名	-9.95847
大丹	-9.95933
之初	-9.96035
妙道	-9.9608
谿	-9.96099
莫知其	-9.96117
運動	-9.96121
佛	-9.96129
粟	-9.9615
君之	-9.96153
乃能	-9.96217
則神	-9.96274
哀樂	-9.96322
硃砂	-9.96366
消息	-9.96419
未可	-9.96424
院	-9.96477
狹	-9.96496
纔	-9.965
姑	-9.96526
三千	-9.96543
器中	-9.96551
遵	-9.96553
盜賊	-9.96561
轍	-9.96562
玄同	-9.96565
其眞	-9.96604
也謂	-9.96687
十五日	-9.96809
頑	-9.96832
奸	-9.96892
恥	-9.96901
十兩	-9.97014
極則	-9.97053
萬民	-9.97078
臧	-9.97188
曰汝	-9.97222
王者	-9.97229
靑	-9.9724
顔色	-9.97434
供養	-9.97507
非人	-9.9754
减	-9.97563
蘭	-9.97589
成形	-9.97616
講	-9.97639
上士	-9.97643
六月	-9.97713
髓	-9.97833
贅	-9.97843
心無	-9.97885
善行	-9.98093
己之	-9.98107
威儀	-9.9844
本命	-9.98466
反又	-9.98477
不變	-9.98501
不應	-9.98507
孕	-9.98623
第八	-9.98638
的	-9.98674
逮	-9.9868
華蓋	-9.987
其上	-9.98738
乎道	-9.9879
其色	-9.98863
由是	-9.9891
雅	-9.9897
章第七	-9.98979
賞罰	-9.98982
遲	-9.99031
行者	-9.9912
皆是	-9.99172
童子	-9.99251
盗	-9.99259
軟	-9.99298
沖虚	-9.99301
道術	-9.99352
胸	-9.99372
而萬物	-9.994
嚮	-9.99403
蹄	-9.99416
山中	-9.99428
又以	-9.99454
王曰	-9.99469
不殆	-9.99536
事也	-9.99595
而心	-9.99631
非所	-9.99654
混元	-9.99714
頗	-9.9973
性命之	-9.99759
銘	-9.99769
形骸	-9.99915
桓公	-9.99995
章第三十	-10.0002
妨	-10.0004
正月	-10.0005
眩	-10.0007
廬	-10.0007
今之	-10.0008
不治	-10.001
自然之理	-10.0016
知此	-10.0017
以智	-10.0017
之器	-10.0025
之師	-10.0034
羸	-10.0038
敷	-10.0038
終無	-10.0038
也既	-10.0042
妾	-10.0051
顔回	-10.0051
鵬	-10.0056
所居	-10.0056
太子	-10.0057
硝	-10.006
丸如	-10.0075
帥	-10.0081
章第四	-10.0083
霧	-10.0084
有功	-10.0085
或云	-10.0085
其次	-10.0106
寓言	-10.0106
忠信	-10.0111
黄金	-10.0112
未足	-10.0113
杵	-10.0113
多食	-10.0114
根本	-10.0114
服食	-10.0114
而下	-10.0118
天之所	-10.0122
展	-10.0123
當其	-10.0125
器也	-10.0137
未嘗有	-10.0138
爲物	-10.0148
閲	-10.0154
有欲	-10.0155
將恐	-10.0156
章第五	-10.0156
四肢	-10.0159
行注	-10.016
無迹	-10.0166
不妄	-10.0167
復命	-10.017
則能	-10.0174
腹中	-10.0188
毎	-10.0191
東西	-10.0196
遐	-10.0198
不亂	-10.0209
歸根	-10.0227
屑	-10.023
園	-10.023
筋骨	-10.0234
陋	-10.0235
大道之	-10.0237
以示	-10.0243
智慧	-10.0243
止也	-10.0247
所用	-10.0249
可道	-10.0254
其志	-10.0259
絹	-10.026
脆	-10.026
鉛汞	-10.0262
彈	-10.0265
而化	-10.0265
讎	-10.0266
之教	-10.0267
例	-10.0267
乏	-10.0268
攖	-10.027
豪	-10.0273
有毒	-10.028
無憂	-10.0282
謂其	-10.0294
有人	-10.0296
不言之教	-10.0297
恬淡	-10.0297
摇	-10.0303
痔	-10.0304
拂	-10.0306
嗟	-10.0307
築	-10.0308
湛然	-10.031
日中	-10.0313
山川	-10.0315
豈可	-10.033
章第六	-10.0334
動也	-10.0335
褐	-10.0343
寐	-10.0344
盜跖	-10.0344
蕃	-10.0346
世俗之	-10.0347
腐	-10.0347
擁	-10.0348
盡其	-10.0352
之分	-10.0353
不違	-10.0357
可以爲	-10.0362
長短	-10.037
滌	-10.0371
去其	-10.0376
茍	-10.0377
用心	-10.038
疲	-10.0382
輕身	-10.0388
形體	-10.0388
白虎	-10.0393
蜂	-10.0416
蒲	-10.0417
函	-10.0418
今人	-10.0427
無味	-10.0428
件	-10.0445
距	-10.0451
者道也	-10.0456
析	-10.0457
於事	-10.0462
山之	-10.0463
猶有	-10.0464
自正	-10.0469
利物	-10.0479
雖復	-10.0487
之哉	-10.0489
十餘	-10.0492
之累	-10.0493
巾	-10.0496
肩	-10.05
剛强	-10.0509
至大	-10.0511
藏於	-10.0516
所由	-10.0518
以告	-10.0527
擬	-10.053
百餘	-10.0532
魁	-10.0533
我者	-10.0536
隨時	-10.0536
成而	-10.0538
籠	-10.0538
物有	-10.0544
其情	-10.0545
天下者	-10.0556
異也	-10.0558
者不可	-10.0567
戸	-10.0571
芳	-10.0575
欽	-10.0576
捐	-10.0578
始於	-10.0584
命也	-10.0586
獄	-10.0589
法師	-10.0593
覆載	-10.0596
不定	-10.0597
跨	-10.0598
二者	-10.0599
甚易	-10.06
章第二十	-10.0604
燥	-10.0606
揣	-10.0607
肯	-10.0607
貸	-10.0608
嬰	-10.0609
疵	-10.0609
眞性	-10.061
憐	-10.0617
紫微	-10.0632
帝君	-10.0635
不貴	-10.0636
鹹	-10.0637
廓	-10.0643
性也	-10.0647
受命	-10.0649
朽	-10.065
此意	-10.0651
冀	-10.0653
謹按	-10.0653
悅	-10.0656
不覺	-10.0666
問於	-10.0671
一體	-10.0676
浴	-10.0684
晚	-10.0686
隸	-10.0687
憑	-10.0688
巢	-10.0688
靈寳	-10.0688
睡	-10.069
與汝	-10.0692
第七	-10.0693
生焉	-10.0699
爲器	-10.0708
混沌	-10.0721
快	-10.0725
伸	-10.0726
硝石	-10.0728
韋	-10.0729
選	-10.0731
之罪	-10.0735
女子	-10.0735
於萬物	-10.0737
之末	-10.0739
法度	-10.0741
不由	-10.0742
者能	-10.0753
篩	-10.0758
漬	-10.0761
道之人	-10.0772
相和	-10.0782
者雖	-10.0783
和之	-10.0791
天地萬物	-10.0794
之日	-10.0798
痰	-10.08
换	-10.0801
如前	-10.0802
韜	-10.0802
軒	-10.0806
匡	-10.0808
以喻	-10.0815
道不可	-10.0831
七十二	-10.0831
椒	-10.0835
全而	-10.084
卓	-10.0842
大者	-10.0843
竈	-10.0843
常道	-10.0845
釣	-10.0849
百二十	-10.0851
已上	-10.0852
儻	-10.0853
蜩	-10.0853
谷神	-10.0867
而行之	-10.0868
恍	-10.0873
熬	-10.088
揮	-10.0882
庵	-10.0886
囿	-10.0887
愚者	-10.0888
而止	-10.0894
黍	-10.0917
自然也	-10.0918
相去	-10.0918
急急如律令	-10.0919
亢	-10.0922
屠	-10.0938
愛之	-10.0939
清虚	-10.0956
准	-10.0957
人之心	-10.0961
五金	-10.0964
太山	-10.0965
偕	-10.0968
遊乎	-10.097
之㫖	-10.0972
强名	-10.0979
而物	-10.0985
八兩	-10.0986
如此則	-10.0988
棄之	-10.1
瑕	-10.1001
輩	-10.1003
之象	-10.1004
蒼生	-10.1004
此經	-10.1006
者也故	-10.1007
噫	-10.1007
靖	-10.1009
修行	-10.1019
王公	-10.1036
可乎	-10.1038
太和	-10.1039
障	-10.1041
藴	-10.1045
玄德	-10.1048
也雖	-10.1048
五年	-10.1055
可用	-10.1063
萬化	-10.1067
故爲	-10.1082
嫌	-10.1086
血氣	-10.1086
死地	-10.1089
故雖	-10.1091
銜	-10.1093
禮義	-10.1099
益氣	-10.1101
大患	-10.1107
橐籥	-10.112
梅	-10.112
脊	-10.1122
坦	-10.1123
探	-10.1125
霸	-10.1125
烹	-10.1125
寶	-10.1127
冶	-10.1127
豕	-10.113
塵垢	-10.1132
碧虚註	-10.1137
自然而	-10.1148
者多	-10.1157
黒	-10.1159
於中	-10.1163
物自	-10.1165
蠶	-10.1169
者當	-10.1173
叛	-10.1177
楊朱	-10.1183
太初	-10.1187
不當	-10.1196
爲而不恃	-10.1198
黄白	-10.1204
圃	-10.1208
昭昭	-10.1208
尅	-10.1209
苛	-10.1211
隨之	-10.1213
君曰	-10.1217
異乎	-10.1223
閒	-10.1223
天下之人	-10.1228
其行	-10.1237
不得已而	-10.1245
樂也	-10.1246
葱	-10.1249
耽	-10.1249
愆	-10.125
其間	-10.1253
揺	-10.1253
佚	-10.1254
而出	-10.1254
百里	-10.1264
鬼名	-10.1266
而未嘗	-10.1283
不易	-10.1285
桐	-10.1285
弼	-10.1287
閣	-10.1287
其迹	-10.1293
籟	-10.1312
命之	-10.1318
天機	-10.1321
之爲物	-10.1328
言道	-10.1329
武王	-10.133
半兩	-10.1332
佞	-10.1336
取汁	-10.1339
斥	-10.1341
安能	-10.1344
七十	-10.1353
死矣	-10.136
吾之	-10.1362
孰爲	-10.1363
悶悶	-10.1364
行道	-10.1373
爲事	-10.1381
不亦	-10.1382
相應	-10.1382
世之人	-10.1403
惚	-10.1405
涯	-10.1409
朗	-10.1413
攘	-10.1413
稷	-10.1416
秉	-10.1416
剖	-10.1417
此謂	-10.1417
於彼	-10.1424
頤	-10.1425
范曰	-10.1427
敢問	-10.1434
所遇	-10.1437
之民	-10.1446
吾身	-10.1451
名山	-10.1451
御註曰	-10.1451
淳樸	-10.1452
五嶽	-10.1454
魅	-10.1458
悖	-10.1458
猒	-10.1459
奴	-10.1459
倦	-10.146
闊	-10.146
在天	-10.1461
則不能	-10.1466
身中	-10.1471
庖	-10.1475
者謂之	-10.1477
纂	-10.1491
䟽此	-10.1494
蕭	-10.1503
一月	-10.1503
養神	-10.1504
於前	-10.1508
動作	-10.1513
以應	-10.1517
或有	-10.1529
文子	-10.1532
枕	-10.1537
項	-10.1544
掃	-10.1544
俟	-10.1545
太玄	-10.1546
晏	-10.1549
死而	-10.1549
是已	-10.1559
胎息	-10.1561
功曹	-10.1575
先後	-10.158
藥性論云	-10.1582
驟	-10.1583
愧	-10.1585
一曰	-10.1593
時有	-10.1596
察察	-10.1598
任其	-10.1613
罡	-10.1616
六甲	-10.162
朋	-10.1628
畔	-10.1628
詭	-10.1634
千金	-10.1634
受之	-10.1639
肖	-10.1641
嗜	-10.1647
教人	-10.1649
日新	-10.1654
而不知其	-10.1656
忽然	-10.166
不以爲	-10.1667
未免	-10.1668
虐	-10.1672
者可以	-10.168
其分	-10.1682
第	-10.1684
受其	-10.1688
冒	-10.171
祚	-10.1711
沖和	-10.1713
憎	-10.1713
館	-10.1714
緒	-10.1715
疑獨註	-10.1715
憲	-10.1715
洞天	-10.1719
虚空	-10.1721
此所以	-10.1723
不虧	-10.1725
而不失	-10.173
男子	-10.1733
方可	-10.1736
文字	-10.174
昇天	-10.1745
占	-10.1748
此三	-10.175
如嬰兒	-10.1759
視之不見	-10.1765
傳曰	-10.1765
研細	-10.1765
齋戒	-10.1772
俗人	-10.1774
自然之道	-10.1776
狀如	-10.1777
九竅	-10.1778
薑	-10.178
明道	-10.178
始終	-10.1784
誡	-10.1796
玄帝	-10.18
而後能	-10.1801
層	-10.1802
賣	-10.1804
成云	-10.1811
己而	-10.1821
合子	-10.1823
其義	-10.1826
所以能	-10.1832
此亦	-10.1833
或以	-10.1839
征	-10.1842
郭註	-10.1843
左手	-10.1843
而弗	-10.1845
不顧	-10.1851
之體	-10.1852
以靜	-10.1863
使天下	-10.1878
天下也	-10.1883
範	-10.1884
無厭	-10.1888
扇	-10.189
繞	-10.1892
三升	-10.1895
葉似	-10.1902
壺子	-10.1905
則生	-10.1922
狼	-10.1931
寵辱	-10.1932
土地	-10.1933
爪	-10.1934
若然者	-10.1935
爰	-10.1938
寫	-10.1938
死之徒	-10.1949
其民	-10.1952
自勝	-10.196
有常	-10.196
愁	-10.1976
何有	-10.1986
爲臣	-10.2004
不食	-10.2007
跖	-10.2013
昊	-10.2014
鎔	-10.2016
范	-10.2016
迭	-10.2017
罷	-10.2019
括	-10.2025
兄弟	-10.2026
廣大	-10.2029
盈虚	-10.203
莽	-10.2032
空心	-10.2033
在内	-10.2045
從而	-10.2048
一尺	-10.2051
無爲則	-10.2052
謫	-10.2055
翠	-10.2057
三王	-10.206
態	-10.2064
朝廷	-10.2067
岐	-10.2069
青龍	-10.2073
於地	-10.2076
香火	-10.2076
而巳	-10.2086
訣曰	-10.2097
化人	-10.2098
拌	-10.21
岸	-10.2105
皂	-10.2106
斧	-10.2111
起於	-10.2111
贍	-10.2112
古之人	-10.2118
兩忘	-10.2124
名利	-10.2139
凡有	-10.2139
亦得	-10.214
也右	-10.2144
泛	-10.2151
詎	-10.2155
修眞	-10.2162
所好	-10.2163
其中有	-10.2172
自爾	-10.2173
且夫	-10.218
七年	-10.2184
三十日	-10.2186
褁	-10.2192
人家	-10.2198
拒	-10.22
歛	-10.2202
二儀	-10.2204
兔	-10.2204
無功	-10.2223
此三者	-10.2233
爲我	-10.2235
臍	-10.2241
終南	-10.2243
此法	-10.2244
逰	-10.2244
班	-10.2244
必須	-10.2247
雕	-10.2248
不勞	-10.228
碧虚子陳景元曰	-10.2281
呼爲	-10.2288
癰	-10.2289
𩔖	-10.2293
緯	-10.2294
黜	-10.2295
縛	-10.2295
日用	-10.2298
何以知	-10.2303
脹	-10.2334
狄	-10.2334
下降	-10.2337
翳	-10.2338
飲之	-10.234
頌	-10.2343
惡瘡	-10.2343
之本也	-10.2353
各得其	-10.2358
宗師	-10.2363
以待	-10.2366
在下	-10.2367
丈人	-10.2376
柴	-10.2379
夾	-10.2384
敖	-10.2393
千萬	-10.2395
神者	-10.2399
二錢	-10.2402
不處	-10.2405
皆由	-10.2407
於其間	-10.2408
古之善	-10.2422
至樂	-10.2424
鐘	-10.2428
規矩	-10.2429
一種	-10.2437
法天	-10.2439
南北	-10.2441
則心	-10.2442
君子之	-10.2448
三尺	-10.2449
盧	-10.245
聖賢	-10.2451
兼忘	-10.2455
任物	-10.246
宻	-10.2471
曷	-10.2474
三寳	-10.2478
南華眞經	-10.2479
太古	-10.248
以生爲	-10.2485
金銀	-10.2489
滯於	-10.2491
元炁	-10.2492
甘草	-10.2494
傷人	-10.2497
付之	-10.2499
方且	-10.2512
污	-10.2515
孩	-10.2518
形質	-10.2518
宇宙	-10.2521
電	-10.2524
勃	-10.2524
眇	-10.2525
導引	-10.2533
九年	-10.2533
爲盜	-10.2538
纂微	-10.2547
大藥	-10.256
盈滿	-10.256
徴	-10.2561
所貴	-10.2564
額	-10.2565
跪	-10.2568
物之所	-10.257
於國	-10.257
不知所以	-10.2574
存乎	-10.258
劉曰	-10.2597
玄武	-10.2611
粥	-10.2615
茫	-10.2616
值	-10.2618
雍	-10.2619
透	-10.2619
兀	-10.2621
不可見	-10.2624
譏	-10.2624
本經	-10.2625
僚	-10.2625
何如	-10.2628
超然	-10.264
相反	-10.2647
乃是	-10.2648
無所用	-10.2651
煆	-10.2659
翁	-10.2663
屢	-10.2665
赫	-10.2667
喫	-10.2667
八十一	-10.2668
愛民	-10.2674
莫測	-10.2674
也䟽夫	-10.2685
之義也	-10.2686
老聃曰	-10.2691
東海	-10.271
漫	-10.2715
疥	-10.2716
準	-10.2717
第九	-10.2721
告之	-10.2723
明目	-10.2732
請問	-10.2736
無上	-10.2737
之炁	-10.2739
天帝	-10.2748
性命之情	-10.275
惟其	-10.275
掘	-10.2753
眞道	-10.276
煞	-10.2761
蘄	-10.2761
翻	-10.2762
減	-10.2765
順物	-10.2767
德之人	-10.2772
姓名	-10.2773
難治	-10.2774
所聞	-10.278
爲義	-10.2786
三寸	-10.2787
聖人所以	-10.2796
茶	-10.2803
以慈	-10.2805
榖	-10.2806
方寸	-10.281
軌	-10.281
蟻	-10.281
宥	-10.2811
南華眞經義海纂微卷之	-10.2811
悠	-10.2811
捕	-10.2811
吟	-10.2813
人情	-10.282
所適	-10.2829
教化	-10.2835
亦非	-10.2841
嶺	-10.2842
二日	-10.2846
亦何	-10.2847
柏	-10.2851
蘆	-10.2852
夀	-10.2852
併	-10.2853
日月之	-10.2859
細研	-10.2862
關尹	-10.2869
神符	-10.2881
所施	-10.2881
者是也	-10.2882
相類	-10.2888
了悟	-10.2889
復於	-10.2896
而不見	-10.2898
巫	-10.2901
論之	-10.2903
叢	-10.2904
瘦	-10.2905
蹶	-10.2905
諭	-10.2907
箕	-10.2908
鈞	-10.2913
之勢	-10.2914
天命	-10.2914
二子	-10.2916
以道爲	-10.2922
篇云	-10.2924
上元	-10.2936
人之生也	-10.2936
潁濱蘇轍曰	-10.2945
隳	-10.2946
渾沌	-10.2952
絞	-10.2953
絡	-10.2955
墓	-10.2956
自在	-10.2957
之喻	-10.2959
形形	-10.2966
夜半	-10.2974
殊不知	-10.298
!」	-10.2986
相忘	-10.299
李曰	-10.299
諸天	-10.2991
亦將	-10.2998
臻	-10.2999
尖	-10.3001
俞	-10.3002
二升	-10.3008
有情	-10.3011
無量	-10.3021
心腹	-10.3027
至極	-10.3035
孟子曰	-10.3035
映	-10.3049
綿綿	-10.305
昆	-10.3052
斛	-10.3053
劒	-10.3053
之始也	-10.3054
墻	-10.3054
在己	-10.3054
織	-10.3055
書曰	-10.3065
兩手	-10.3074
神靈	-10.3078
名實	-10.3082
同異	-10.3085
積德	-10.3085
暑	-10.3089
不可測	-10.3099
橋	-10.31
天地之道	-10.3103
纏	-10.3107
栗	-10.3107
區	-10.3109
儒墨	-10.3109
道家	-10.3112
結成	-10.3115
本草	-10.3125
此所謂	-10.3126
道德經	-10.314
壘	-10.3145
濫	-10.3149
也義曰	-10.315
軀	-10.3152
屎	-10.3154
藝	-10.3155
本末	-10.3156
謚	-10.3156
之弊	-10.3156
任其自	-10.3157
帝王之	-10.316
道徳	-10.3161
傲	-10.3162
二氣	-10.3169
幾何	-10.3174
澗	-10.3192
杯	-10.3193
八石	-10.3195
寒無毒主	-10.3196
平無毒主	-10.3198
扁	-10.3198
瀆	-10.32
弔	-10.3201
雌雄	-10.3213
五音	-10.3213
三清	-10.3216
呪曰	-10.3222
支離	-10.3222
臟	-10.3233
口中	-10.3233
歙	-10.3245
馳騁	-10.3245
裁	-10.3247
頻	-10.3247
一家	-10.3248
為天下	-10.3248
腑	-10.3248
火養	-10.3249
鼈	-10.325
黎	-10.3252
艾	-10.3252
鈎	-10.3253
榆	-10.3253
自足	-10.3256
揖	-10.3256
殖	-10.3259
萬人	-10.3265
尚書	-10.3277
造化之	-10.3282
不敢爲	-10.3299
壑	-10.33
癥	-10.33
亦是	-10.3301
掩	-10.3301
巡	-10.3304
忤	-10.3306
欲求	-10.3306
半斤	-10.3306
神室	-10.3314
犧	-10.3315
子路	-10.3322
公子	-10.3325
右手	-10.3334
萬變	-10.3334
相合	-10.3338
海内	-10.3342
着	-10.3343
功德	-10.3345
膿	-10.3351
逼	-10.3352
相隨	-10.3353
五穀	-10.3354
捉	-10.3354
羞	-10.3355
蟬	-10.3355
峻	-10.3356
欲令	-10.3358
虚極	-10.3358
喘	-10.3362
門人	-10.3365
二寸	-10.3368
然後能	-10.3376
其死也	-10.3381
壺	-10.3382
滓	-10.3383
薰	-10.3399
所宜	-10.3401
迕	-10.3403
将	-10.3408
玩	-10.3409
不肯	-10.3413
穆王	-10.3421
使我	-10.343
尊卑	-10.3439
援	-10.3448
叩	-10.345
佑	-10.3451
妻子	-10.3451
一國	-10.3451
他人	-10.3453
之所能	-10.3458
只是	-10.3462
淮南	-10.3465
猶未	-10.3467
江南	-10.3475
桓	-10.3481
此藥	-10.3487
前章	-10.3491
人民	-10.35
必先	-10.35
黙	-10.3501
顆	-10.3503
禪	-10.3503
郎	-10.3506
火燒	-10.351
鋒	-10.3511
橫	-10.3513
凡物	-10.3519
而不知其所	-10.3534
知之所	-10.3536
窈	-10.3537
板	-10.3551
儼	-10.3551
嘘	-10.3554
疫	-10.3554
洋	-10.3554
以賤爲本	-10.3559
捷	-10.356
自伐	-10.3561
傷寒	-10.3562
杳	-10.3566
未得	-10.3569
不可名	-10.3577
合道	-10.3581
異名	-10.3587
彼此	-10.3594
十二月	-10.36
萬方	-10.3607
稀	-10.3607
濃	-10.3609
整	-10.3612
憂患	-10.3614
旨	-10.3614
子綦	-10.3615
禾	-10.3616
大盜	-10.3625
亦不能	-10.3629
每服	-10.363
生而不有	-10.3636
成寳	-10.3646
秋冬	-10.3648
一伏時	-10.3652
湖	-10.3656
俗學	-10.3656
鱗	-10.3662
屏	-10.3663
呼吸	-10.3665
二字	-10.3666
鳩	-10.367
雖欲	-10.3675
榮辱	-10.368
服氣	-10.3685
重陽	-10.369
司命	-10.3694
寂然	-10.3702
温無毒主	-10.3703
五百	-10.3708
霍亂	-10.371
疆	-10.3714
赦	-10.3714
輻	-10.3716
言教	-10.3721
暈	-10.3743
淘	-10.3754
針	-10.3759
恐其	-10.3763
僧	-10.3765
懐	-10.3765
道之所	-10.3768
烟	-10.3769
雷霆	-10.377
莊子所謂	-10.3776
方圓	-10.3777
料	-10.3782
河車	-10.3796
傅之	-10.3798
守靜	-10.3809
其德乃	-10.3814
鼻口	-10.3814
著書	-10.3816
等分	-10.3823
無敵	-10.3824
揭	-10.3824
瘧	-10.3826
成汁	-10.383
自來	-10.3834
一本作	-10.384
三代	-10.3842
養火	-10.3847
役使	-10.3864
精誠	-10.3867
乆服	-10.3868
訟	-10.387
創	-10.3871
錬	-10.3871
喪其	-10.3872
瑩	-10.3873
産後	-10.3873
匪	-10.3875
贈	-10.3876
四時之	-10.3883
御曰	-10.3886
二十五	-10.3887
上昇	-10.3893
夫聖人	-10.39
無由	-10.3903
兼愛	-10.3903
史記	-10.3904
硃	-10.3907
硇砂	-10.3913
中國	-10.3923
緊	-10.3923
踰	-10.3927
栢	-10.3929
疰	-10.3931
鬻	-10.3934
五星	-10.3948
如是則	-10.3956
大吉	-10.3958
疾病	-10.3963
者不以	-10.3965
匹	-10.3965
忒	-10.397
癇	-10.3978
餅	-10.3978
問道	-10.3979
芻	-10.398
劣	-10.3981
閭	-10.3986
秋毫	-10.3994
何足以	-10.3997
黑色	-10.4003
不免於	-10.4005
遠近	-10.4008
輕重	-10.4009
莊周	-10.4011
嵩	-10.4034
瑶	-10.4035
綺	-10.4037
槩	-10.4038
熊	-10.4041
宮	-10.4043
道之士	-10.4047
貼	-10.405
也〇	-10.4051
暴乾	-10.4055
春夏	-10.4058
五寸	-10.4063
三斤	-10.407
西北	-10.4072
無爲而無不爲	-10.4081
下德	-10.4086
凋	-10.409
摶	-10.4092
衞	-10.4094
尹子曰	-10.41
危殆	-10.41
豈知	-10.4101
唯聖人	-10.4109
坐忘	-10.4116
玄黄	-10.4117
甚多	-10.4121
赤白	-10.4129
先天地生	-10.4135
愛人	-10.4135
本亦作	-10.4136
林氏曰	-10.4137
坑	-10.4141
副	-10.4143
河上公	-10.4145
該	-10.4148
聘	-10.4149
旌	-10.415
九州	-10.4151
泠	-10.4153
船	-10.4154
有時而	-10.4156
庶幾	-10.4162
數十	-10.4165
不尚賢	-10.4171
太微	-10.4186
白馬	-10.4186
與道合	-10.419
禳	-10.4191
縮	-10.4196
械	-10.4199
優	-10.42
馮	-10.4201
柄	-10.4201
怖	-10.4204
鵲	-10.4205
應變	-10.4211
群生	-10.4215
謙下	-10.4217
窮極	-10.4221
沖氣	-10.4222
碧虚	-10.4235
少許	-10.4239
陳藏器云	-10.4255
剋	-10.4256
播	-10.4256
涕	-10.4256
大將軍	-10.4257
盛德	-10.4258
見聞	-10.4259
幣	-10.4261
法令	-10.4261
杏	-10.4265
結繩	-10.427
去來	-10.4292
雌黄	-10.4295
磁石	-10.4303
全眞	-10.4305
衆人之	-10.4307
外臺秘要	-10.4307
局	-10.4308
幹	-10.4309
芥	-10.431
庫	-10.4311
馭	-10.4312
鸞	-10.4312
孽	-10.4313
矩	-10.4313
子産	-10.4314
寤	-10.4314
斲	-10.4317
漱	-10.4317
邀	-10.4318
鳥獸	-10.4319
嗜慾	-10.4319
附子	-10.4335
情性	-10.4341
前章明	-10.4342
百官	-10.4345
橘	-10.4357
不怒	-10.4358
硬	-10.4359
軸	-10.4362
守道	-10.4362
祭祀	-10.4363
去皮	-10.4364
蛤	-10.4364
酌	-10.4368
禍患	-10.4368
糠	-10.4369
恤	-10.437
未有不	-10.4373
之所由	-10.4374
尹喜	-10.4379
又方治	-10.4407
賢愚	-10.442
遞	-10.4426
白礬	-10.443
爾雅云	-10.4431
宛	-10.4431
衆人之所	-10.4432
相傾	-10.4438
非道也	-10.4443
不與物	-10.4448
而爲之	-10.4465
也若夫	-10.4478
憫	-10.4479
枯槁	-10.448
脛	-10.4482
叩齒	-10.4482
伊	-10.4483
江湖	-10.4483
弄	-10.4485
不拘	-10.4486
並作	-10.4493
希夷	-10.4496
本來	-10.4497
窈冥	-10.4501
孰知其	-10.451
焰	-10.4534
脅	-10.4536
醇	-10.4536
几	-10.4538
宴	-10.4539
隙	-10.4539
咬	-10.454
郞	-10.4542
註夫	-10.4543
不可勝	-10.4546
屯	-10.4546
一箇	-10.4549
骸	-10.4563
言語	-10.4573
粉霜	-10.4587
答曰	-10.4587
爲天下式	-10.4588
藤	-10.4589
曝	-10.4595
旅	-10.4596
棺	-10.4596
毋	-10.4597
溟	-10.4599
諾	-10.4601
毀	-10.4604
齧缺	-10.4605
礬石	-10.4614
失其所	-10.4624
一寸	-10.4625
南面	-10.4641
隨物	-10.4641
蒂	-10.4645
紫色	-10.465
祇	-10.4652
趾	-10.4653
詰	-10.4654
唾	-10.4655
籌	-10.4656
挈	-10.4658
練	-10.4661
焚香	-10.4663
爵禄	-10.4663
耆	-10.4665
黄色	-10.4683
莊子云	-10.4684
微寒	-10.4694
牀	-10.4704
何氏曰	-10.4705
百病	-10.4705
斑	-10.4705
臼	-10.4709
象帝之先	-10.4711
纖	-10.4712
養七日	-10.4717
圭	-10.4722
何嘗	-10.4725
白雪	-10.473
治亂	-10.4738
恠	-10.474
守雌	-10.4749
功用	-10.4753
長生乆視	-10.4756
寂然不動	-10.4761
熒	-10.4763
太素	-10.4764
筒	-10.4765
洽	-10.4772
肘	-10.4772
萬象	-10.4773
偷	-10.4774
慄	-10.4776
不離於	-10.4777
裘	-10.4784
雞子	-10.4792
穆	-10.4796
樂推	-10.4804
伏願	-10.4815
人倫	-10.4822
直符	-10.4823
挾	-10.4826
恨	-10.4831
窒	-10.4832
癢	-10.4833
啼	-10.4833
駘	-10.4833
絶學	-10.4834
孝慈	-10.4834
醴	-10.4835
燒香	-10.4853
每日	-10.4861
一丸	-10.4861
葉如	-10.4876
口訣	-10.4877
千年	-10.4883
萊	-10.4885
貪求	-10.4887
兕	-10.4888
渡	-10.489
墟	-10.4891
無不爲	-10.4891
疼	-10.4892
歇	-10.4892
奮	-10.4892
獨化	-10.4893
臘	-10.4893
甘露	-10.4893
抱一子曰	-10.4894
蚊	-10.4895
綸	-10.4898
億萬	-10.4902
轡	-10.4909
忘我	-10.4925
䘮	-10.4938
吕氏曰	-10.4938
巽	-10.4939
之大者	-10.4946
駐	-10.4948
瘻	-10.4949
灑	-10.4949
允	-10.495
屨	-10.4951
蘧	-10.4951
餓	-10.4953
玉皇	-10.496
去滓	-10.4961
在位	-10.4968
八卦	-10.4978
飲酒	-10.4978
配天	-10.4984
兩句	-10.4996
榮華	-10.4997
失性	-10.5
十有三	-10.5001
芸芸	-10.5004
飮	-10.5005
有爲之	-10.5007
協	-10.5011
渠	-10.5011
詠	-10.5015
皮膚	-10.5017
曾青	-10.503
骨肉	-10.5031
令乾	-10.5046
㸃	-10.5057
較	-10.5068
眠	-10.5074
泥丸	-10.5093
六兩	-10.5109
天下莫不	-10.5114
無名之樸	-10.5119
純粹	-10.5122
戈	-10.5125
簿	-10.5125
蝕	-10.5128
太陰	-10.5128
獵	-10.5128
截	-10.5129
旺	-10.5131
亢倉子	-10.5132
刳	-10.5132
桀紂	-10.5133
胞	-10.5137
邈	-10.5138
四象	-10.514
而不窮	-10.5147
何由	-10.5161
道之體	-10.5175
銚	-10.518
彫	-10.5188
門户	-10.5188
逾	-10.5189
別	-10.519
構	-10.5194
頸	-10.5195
蔡	-10.5197
怵	-10.52
從事於	-10.5202
千二百	-10.5209
守柔	-10.5217
千歲	-10.5241
音聲	-10.5243
玉清	-10.5246
邇	-10.5249
犀	-10.5249
裳	-10.525
場	-10.5252
貝	-10.5253
酬	-10.5254
擅	-10.5254
鬳齋云	-10.5258
蠻	-10.5259
狸	-10.5261
敏	-10.5262
菌	-10.5262
貧賤	-10.5265
星辰	-10.5282
第三十	-10.5293
積聚	-10.5295
籥	-10.5302
梵	-10.5305
藜	-10.5308
挺	-10.5308
膚	-10.5309
此章言	-10.5312
鬚	-10.5313
促	-10.5314
不善人	-10.5314
羹	-10.5314
不傷人	-10.5315
汲	-10.5316
曼	-10.5323
生育	-10.5323
彭祖	-10.5323
昭王	-10.533
接物	-10.5346
瘟	-10.5367
三尸	-10.537
與道同	-10.537
動之死地	-10.537
秤	-10.537
艮	-10.5373
摧	-10.5374
湧	-10.5375
東南	-10.5377
囚	-10.5378
螫	-10.5379
五斤	-10.5379
點化	-10.5382
血脉	-10.5388
掇	-10.539
樓觀	-10.5401
鐺	-10.5422
智巧	-10.5422
潰	-10.5439
闡	-10.544
物莫能	-10.5442
剪	-10.5444
陛下	-10.5451
羿	-10.5452
墨子	-10.5479
開元	-10.5488
苦酒	-10.5493
鼔	-10.5496
匕	-10.5497
山澤	-10.5499
崔本作	-10.5499
祛	-10.5502
戒者不得	-10.5504
僅	-10.5504
蕪	-10.5506
不雜	-10.5514
調和	-10.5537
修鍊	-10.5553
江河	-10.556
剥	-10.556
粹	-10.5564
鮑叔	-10.5565
齡	-10.5566
拾	-10.5566
肌膚	-10.5568
尊貴	-10.5569
姬	-10.5573
滴	-10.5574
運轉	-10.5577
棘	-10.5577
抵	-10.5589
惠施	-10.5599
惟聖人	-10.5603
曲則全	-10.5618
鄕	-10.5618
嘔	-10.562
吿	-10.5626
樊	-10.5628
誥	-10.5629
封固	-10.563
瘕	-10.5631
蛟	-10.5632
厨	-10.5633
湯武	-10.5657
得道之	-10.5678
牛馬	-10.5682
模	-10.5686
三百六十	-10.5687
䰟	-10.5689
低	-10.5691
攫	-10.5692
叟	-10.5693
嚥	-10.5696
龍芽	-10.5696
蜕	-10.5697
稼	-10.5703
滋味	-10.5703
土釜	-10.5707
人之性	-10.5719
冥冥	-10.572
各有所	-10.5736
是謂玄德	-10.5747
清濁	-10.5747
知其所	-10.5751
渝	-10.5752
奕	-10.5756
沐	-10.5757
墳	-10.5758
謗	-10.5758
閉氣	-10.5759
篆	-10.5764
不竭	-10.5769
管仲	-10.5771
名譽	-10.5776
妙理	-10.5777
貨財	-10.5793
上善若水	-10.5796
不輟	-10.5804
河伯	-10.5813
賀	-10.5817
赤石脂	-10.5818
鞭	-10.582
零	-10.5822
喙	-10.5823
皓	-10.5824
有道之士	-10.5825
遯	-10.5825
偉	-10.5828
渺	-10.5828
攝生	-10.5828
八極	-10.5832
諧	-10.5837
未聞	-10.5844
雲母	-10.5857
詩曰	-10.5862
忠臣	-10.5866
其鬼不神	-10.5868
莫見其	-10.5878
亨	-10.5878
茯苓	-10.5882
甘鍋	-10.5883
無疵	-10.5884
什	-10.5885
罕	-10.5888
脯	-10.5889
恢	-10.5892
消渴	-10.5893
玄珠	-10.5895
燒灰	-10.592
有物混成	-10.5935
甲兵	-10.5935
黄庭	-10.594
訥	-10.594
腹痛	-10.5941
縫	-10.5941
難得之貨	-10.5944
戀	-10.595
雷公	-10.5952
金瘡	-10.5955
慰	-10.5955
隋	-10.5958
瓠	-10.596
壽夭	-10.5974
道本無	-10.5981
争	-10.6014
床	-10.6015
抗	-10.6017
歸往	-10.6018
羲	-10.602
羡	-10.6022
虎狼	-10.6022
刑罰	-10.6023
遜	-10.6024
詮	-10.6026
衣食	-10.6028
剛柔	-10.6033
誰能	-10.6034
太白	-10.6041
十斤	-10.6045
長久	-10.6052
五升	-10.6054
勤行	-10.6073
恱	-10.6078
王元澤曰	-10.608
躡	-10.6082
齎	-10.6085
虔	-10.6085
討	-10.6086
歎曰	-10.6088
豉	-10.6089
六丁	-10.6092
繡	-10.6094
無爲之道	-10.6104
尚賢	-10.6114
祝曰	-10.6115
蠟	-10.6144
肇	-10.615
壓	-10.6151
劑	-10.6151
仗	-10.6152
酢	-10.6153
循環	-10.6158
阜	-10.6161
顚	-10.6163
輕敵	-10.6181
爲物所	-10.6182
久服	-10.6188
混成	-10.6192
容貌	-10.6199
懇	-10.6211
禹錫云按	-10.6215
呈	-10.6218
藍	-10.6222
憊	-10.6226
誨	-10.6228
漸漸	-10.6231
章句	-10.6238
往往	-10.6246
槐	-10.6279
癡	-10.6285
兩儀	-10.6291
企	-10.6291
鹵	-10.6294
臣某	-10.6315
曰吾聞	-10.6316
渾淪	-10.6348
梨	-10.6348
癖	-10.6352
而忘其	-10.6353
裝	-10.6354
腥	-10.6355
拯	-10.6355
陣	-10.6357
臭腐	-10.6357
股	-10.636
俯仰	-10.636
廣成子	-10.6366
楊子	-10.6376
一粒	-10.6402
天下有道	-10.641
盒	-10.6411
婢	-10.6423
托	-10.6425
憚	-10.6426
搜	-10.6429
忘功	-10.643
第一百	-10.6435
伯夷	-10.6453
團	-10.6486
道生一	-10.6491
軒冕	-10.6494
凍	-10.6497
竿	-10.6499
鬥	-10.6499
十里	-10.6515
不知其所	-10.6516
樸散	-10.6518
勾	-10.6564
屈伸	-10.6565
邁	-10.6568
讚	-10.6569
麟	-10.657
槁木	-10.6581
委蛇	-10.6581
鼓琴	-10.6583
宫室	-10.6586
天尊志心歸命	-10.6606
袋	-10.6624
垣	-10.6626
南海	-10.6629
曽	-10.6629
甞	-10.663
四句	-10.663
同其塵	-10.6631
衆妙之門	-10.6631
呵	-10.6632
冝	-10.6634
伏羲	-10.6635
陟	-10.6638
隴	-10.6638
蹇	-10.6638
槁	-10.6639
嘻	-10.6639
蠱毒	-10.6639
琅	-10.664
學士	-10.6652
煎取	-10.6657
願聞	-10.667
百川	-10.6683
疣	-10.6695
線	-10.6696
玄之又玄	-10.6698
豹	-10.6699
炊	-10.6699
大宗師	-10.6703
踈	-10.6706
疇	-10.6707
二十日	-10.6709
昨	-10.6709
梓	-10.6714
夫何故	-10.6721
夫至人	-10.6723
良乆	-10.6729
道場	-10.6756
苑	-10.677
六一泥	-10.6773
滌除	-10.6774
武帝	-10.678
揆	-10.6781
牒	-10.6791
祖師	-10.6803
可知矣	-10.6814
杳冥	-10.6829
陜	-10.6841
勒	-10.6845
裕	-10.6847
饒	-10.6851
拭	-10.6851
這	-10.6851
鱉	-10.6853
繆	-10.6857
愍	-10.6857
貼身	-10.6858
無涯	-10.6861
巵	-10.6862
悉皆	-10.6864
庚申	-10.6869
橐	-10.6913
淮	-10.6916
亘	-10.6921
术	-10.6922
攀	-10.6922
栖	-10.6924
貽	-10.6925
轅	-10.6925
督	-10.6926
子貢曰	-10.6929
十一月	-10.6957
建立	-10.6959
戰勝	-10.6981
損之又損	-10.6986
蒜	-10.6986
和其光	-10.6988
瞿	-10.6991
反司馬云	-10.6994
疼痛	-10.6996
攘臂	-10.6997
猛獸	-10.6998
冉	-10.7002
宗廟	-10.7011
握固	-10.7019
貢	-10.7043
爲天下正	-10.7043
同謂之玄	-10.7058
枝葉	-10.7062
詩云	-10.7064
而民自	-10.7066
而任之	-10.7071
疳	-10.7072
聖惠方治	-10.7073
控	-10.7073
磁	-10.7117
夫婦	-10.7121
卯酉	-10.713
毗	-10.7131
綵	-10.7132
蓄	-10.7139
暉	-10.7144
輸	-10.7144
冲和	-10.7145
疽	-10.7146
曳	-10.7147
熙	-10.7147
貺	-10.7149
膺	-10.7149
餐	-10.715
萬物莫不	-10.7152
徐徐	-10.7162
百八十	-10.7165
地獄	-10.7171
姜	-10.7212
捧	-10.7215
株	-10.7216
澀	-10.7216
鄧	-10.7216
鮑	-10.7217
顛	-10.7219
携	-10.722
吝	-10.722
宏	-10.7221
禍亂	-10.7248
不畏死	-10.7252
世界	-10.7273
消滅	-10.7274
酥	-10.7291
濱	-10.7291
夙	-10.7292
豁	-10.7293
侔	-10.7294
緘	-10.73
西南	-10.7341
純陽	-10.7345
道常無名	-10.7356
璽	-10.7364
耻	-10.7365
填	-10.7366
韶	-10.7368
拳	-10.7375
衒	-10.7375
倚伏	-10.7376
鈔莊子	-10.7383
未始有物	-10.7429
毬	-10.7432
胷	-10.7435
二斤	-10.7436
鉢	-10.7439
茹	-10.744
本又作	-10.744
丞	-10.7444
寂寞	-10.7446
畝	-10.7449
匱養	-10.7453
自然而然	-10.7453
灼	-10.7454
生薑	-10.7457
以天下爲	-10.7457
候冷	-10.746
鄧析	-10.7463
藻	-10.7463
比干	-10.7468
觔	-10.7508
册	-10.7514
孤寡不穀	-10.7516
熙熙	-10.752
誣	-10.7522
寰	-10.7522
穗	-10.7527
曾史	-10.7528
洎	-10.753
犢	-10.7531
椿	-10.7533
沫	-10.7534
珪	-10.754
不自知	-10.7572
此兩者	-10.7579
以喪禮處之	-10.7584
𤇨	-10.7589
道眞仁靜先生曹道冲曰	-10.7591
村	-10.7595
懴	-10.7596
廼	-10.7597
蠱	-10.7597
怯	-10.7598
郤	-10.7598
窅	-10.7601
津液	-10.7601
表裏	-10.7606
蛻	-10.7607
帔	-10.7609
逆旅	-10.7612
孔丘	-10.7623
弩	-10.7627
匠石	-10.7629
迷惑	-10.7644
伎	-10.7663
率性	-10.7664
嗽	-10.7671
蟾	-10.7675
警	-10.7678
嵗	-10.7679
危亡	-10.768
啖	-10.7682
浮丘	-10.7703
大抵	-10.7721
百歲	-10.7734
莫能與之爭	-10.7742
字之曰道	-10.7743
鎖	-10.7747
雷公云凡使	-10.7748
摘	-10.7754
提點	-10.7754
炳	-10.7757
哲	-10.7757
瞽	-10.7757
洲	-10.7759
翦	-10.7759
襌	-10.776
徂	-10.7761
飛昇	-10.7795
平旦	-10.7804
萬物之母	-10.7804
莫知其所	-10.7815
剉	-10.7823
皦	-10.7825
成其私	-10.7826
吴氏曰	-10.7826
聦	-10.7829
徽	-10.7831
亳	-10.7832
眷	-10.7834
諛	-10.7836
它	-10.7838
熏	-10.7841
孚	-10.7842
決	-10.7848
武侯	-10.7878
妃	-10.7911
阻	-10.7912
嗄	-10.7913
濯	-10.7917
髪	-10.792
僂	-10.792
不敢爲天下先	-10.7922
休息	-10.7963
師曠	-10.7964
罐	-10.7982
秪	-10.799
姚	-10.7991
莢	-10.7993
細剉	-10.7993
茨	-10.7993
穹	-10.7994
寺	-10.7998
溝	-10.7999
叅	-10.8001
漂	-10.8003
話	-10.8004
怡	-10.8005
餘怨	-10.8012
候乾	-10.803
不貴難得之貨	-10.8068
駟馬	-10.8069
瀝	-10.807
巴	-10.8071
功成不居	-10.8071
爾雅	-10.8074
伺	-10.8075
篋	-10.8076
喬	-10.8077
買	-10.808
漁	-10.8081
突	-10.8083
柰何	-10.8084
苴	-10.8085
鯤	-10.8089
十丸	-10.8091
祖庭	-10.8095
河東	-10.8097
小腸	-10.8106
載營魄	-10.8149
吁	-10.8158
汨	-10.8158
杜光庭	-10.816
睢	-10.816
牖	-10.816
甕	-10.8162
董	-10.8164
懈	-10.8165
嘗試	-10.8176
盛衰	-10.8195
精粗	-10.8209
蘿	-10.8226
生之畜之	-10.8227
有名萬物之母	-10.8229
上德不德	-10.8229
清源子劉驥曰	-10.8232
効	-10.8232
匙	-10.8238
洩	-10.824
葆	-10.8242
貯	-10.8245
尉	-10.8245
猨	-10.8246
訾	-10.8249
味鹹	-10.8254
曩	-10.8256
鯉	-10.8261
醯	-10.8263
匹夫	-10.8272
楮	-10.8315
兵者不祥之器	-10.8316
撮	-10.8324
釐	-10.8325
勇敢	-10.8325
郷	-10.8325
丗	-10.8327
梗	-10.8327
褚伯秀	-10.833
千餘	-10.8386
黃茂材曰	-10.8395
劌	-10.8396
舎	-10.8399
涎	-10.8401
十一年	-10.8407
孤寡	-10.8407
譎	-10.841
刖	-10.841
研如粉	-10.8413
晉	-10.8413
憍	-10.8413
辜	-10.8414
郢	-10.8415
公孫龍	-10.8415
替	-10.8415
媒	-10.8418
伊尹	-10.842
潤澤	-10.8425
太史	-10.8438
那	-10.8488
菊	-10.8489
擢	-10.8492
毅	-10.8493
蠢	-10.8493
怕	-10.8493
紹	-10.8493
擲	-10.8494
邵	-10.8496
憤	-10.8497
瞀	-10.8499
埃	-10.85
亮	-10.8502
冤	-10.8502
裙	-10.8506
胡蝶	-10.8511
樂殺人	-10.8513
莖葉	-10.8522
動植	-10.8524
吕吉甫曰	-10.8567
殁	-10.8572
千變萬化	-10.8573
代大匠斲	-10.8573
呴	-10.8574
肘後方	-10.8575
顙	-10.858
拊	-10.8582
西昇經	-10.8583
蕩蕩	-10.8589
:	-10.8597
種種	-10.8601
瓷	-10.8651
知常曰明	-10.8657
檀	-10.8657
浥	-10.8658
陀	-10.8659
囂	-10.8661
増	-10.8663
糟	-10.8665
倡	-10.8666
秩	-10.867
確	-10.867
姿	-10.867
攣	-10.867
員	-10.8671
鬭	-10.8674
萬物之宗	-10.8684
德經注云	-10.873
各安其	-10.8745
痿	-10.8748
耐	-10.875
衮	-10.8751
斃	-10.8751
膈	-10.8752
和光同塵	-10.8755
蟹	-10.8758
婆	-10.8759
百骸	-10.8763
勇於敢	-10.8826
動而愈出	-10.883
愉	-10.8831
煖	-10.8833
茱萸	-10.8833
沛	-10.8835
軫	-10.8835
涸	-10.8836
婁	-10.8837
系	-10.8839
趎	-10.884
咳	-10.8841
黔	-10.8842
裴	-10.8843
亟	-10.8846
旗	-10.8847
鶉	-10.8854
有道之君	-10.889
恬惔	-10.8918
反者道之動	-10.8926
腸胃	-10.8927
妍	-10.8927
絃	-10.8927
遏	-10.893
掊	-10.8933
此一句	-10.8933
瞑	-10.8938
通玄經	-10.8939
驪	-10.8945
果敢	-10.8961
沌	-10.9009
麝	-10.9011
朴硝	-10.9012
妬	-10.9012
糝	-10.9012
煥	-10.9013
天長地乆	-10.9014
㣲	-10.9014
刀圭	-10.9017
瓢	-10.9017
闚	-10.9018
屍	-10.902
嘯	-10.9025
甲乙	-10.9026
纘義	-10.9028
遨	-10.9028
蔬	-10.9029
閼	-10.9029
默默	-10.9034
我與若	-10.9036
怛	-10.9103
償	-10.9104
燧	-10.9106
拇	-10.9107
桎梏	-10.9108
巍巍	-10.9109
瑟	-10.9112
擒	-10.9113
解其紛	-10.9115
仙翁	-10.9123
寵辱若驚	-10.9191
艱	-10.9197
鵠	-10.9199
驥	-10.9202
傑	-10.9203
僖	-10.9204
虎豹	-10.9205
樗	-10.9205
爨	-10.9207
牲	-10.9209
昏昏	-10.9218
故爲天下貴	-10.9271
有虞氏	-10.9281
耦	-10.9283
換	-10.9287
南榮趎	-10.9288
宸	-10.9289
櫛	-10.9293
聊	-10.9294
沃	-10.9294
頽	-10.9294
鑽	-10.9296
癰腫	-10.9296
蹤	-10.9297
弑	-10.9297
鬢	-10.9299
叩頭	-10.9305
坎離	-10.9305
次第	-10.9368
天下樂推而不厭	-10.9369
李氏曰	-10.9376
署	-10.9379
翛	-10.9382
豚	-10.9383
訛	-10.9387
薛	-10.9387
庚辛	-10.9389
譚	-10.9392
好憎	-10.94
筴	-10.9466
和大怨	-10.9467
緫	-10.9472
隻	-10.9472
嗔	-10.9475
十九年	-10.9475
至德之世	-10.9476
酷	-10.9477
不得已而用之	-10.9478
攸	-10.948
棟	-10.948
尼	-10.9481
節解曰謂	-10.9483
皈	-10.9483
嗚呼	-10.9484
迂	-10.9484
貳	-10.9487
莫大焉	-10.9487
顔闔	-10.9492
吐納	-10.9496
居善地	-10.9553
惵惵	-10.9561
潭	-10.9566
祅	-10.9569
驛	-10.9573
睿	-10.9574
逕	-10.9575
睫	-10.9578
来	-10.958
睦	-10.958
恂	-10.9586
穆公	-10.9619
財貨	-10.9642
礜石	-10.9658
聃	-10.966
谷神不死	-10.9661
晩	-10.9662
廣雅云	-10.9662
癬	-10.9666
晶	-10.9669
右件	-10.967
媚	-10.9671
甲寅	-10.9674
雉	-10.9675
朱雀	-10.9676
羊角	-10.9687
眾	-10.9696
貴大患若身	-10.975
涣	-10.9751
鯢	-10.9757
米醋	-10.9758
三十輻	-10.9758
蟠	-10.9761
鏌	-10.9762
採無時	-10.9764
蓬萊	-10.9765
袋盛	-10.9766
椎	-10.977
蝸	-10.9774
鄉里	-10.9777
漁父	-10.9784
沾	-10.9849
小國寡民	-10.985
嚼	-10.9853
窟	-10.9856
净	-10.9857
饗	-10.9858
溲	-10.9858
墨翟	-10.9862
懽	-10.9862
猿	-10.9862
叱	-10.9862
劵	-10.9862
觴	-10.9862
饌	-10.9864
晴	-10.9865
繩繩	-10.9865
緒餘	-10.9869
膀胱	-10.9876
譬喻	-10.9881
第五十	-10.9938
心善淵	-10.9939
埴	-10.9948
眹	-10.9948
蓼	-10.9948
瘥	-10.9952
扈	-10.9952
故次之以	-10.9953
狎	-10.9953
菴	-10.9955
鈍	-10.9956
綽	-10.9956
壬癸	-10.9957
璞	-10.9959
捶	-10.996
緡	-10.9961
唇	-10.9961
悸	-10.9962
癘	-10.9963
罟	-10.9965
櫟	-10.9966
臯	-10.9969
弱其志	-10.9978
我無爲而民自化	-11.0045
騁	-11.0057
弋	-11.006
詳道註	-11.0061
三皇五帝	-11.0064
跳	-11.0065
有小毒	-11.0065
乾薑	-11.0066
簫	-11.0069
姑射	-11.0075
魯侯	-11.008
弱者道之用	-11.0085
咒	-11.0143
信言不美	-11.0145
絶學無憂	-11.0147
道可道非常道	-11.0149
箔	-11.0151
窈㝠	-11.0153
甜	-11.0155
輦	-11.0155
績	-11.0156
兇	-11.0156
干戈	-11.0157
不與物爭	-11.0157
儲	-11.0158
口縫	-11.0159
侣	-11.0162
惕	-11.0166
缸	-11.0232
大音希聲	-11.0248
刮	-11.0249
稜	-11.0253
疊	-11.0253
渉	-11.0255
勅	-11.0255
户牖	-11.0255
俛	-11.0256
算	-11.0257
杞	-11.0258
翹	-11.0258
札	-11.0259
掛	-11.0259
無之以爲用	-11.0264
做	-11.0264
鴟	-11.0267
滄	-11.0268
遑	-11.0269
』	-11.0289
娠	-11.0344
稠	-11.0351
庚桑子	-11.0354
乍	-11.0358
猴	-11.036
諂	-11.0363
暨	-11.0364
麫	-11.0364
癸丑	-11.0367
忮	-11.037
影響	-11.0373
毁譽	-11.0376
隱几	-11.0392
骨髓	-11.0395
惚恍	-11.0411
其安易持	-11.0447
大成若缺	-11.0447
長而不宰	-11.0448
碌	-11.0456
蔭	-11.0465
倏	-11.0471
詹	-11.0473
堝	-11.0543
芋	-11.0559
杭	-11.0561
竺	-11.0564
窪	-11.0564
牟	-11.0566
洒	-11.057
尿	-11.0572
迨	-11.0577
樽	-11.0579
稻	-11.0654
煌	-11.0668
嗌	-11.067
焼	-11.0671
蔣	-11.0673
韻	-11.0677
嫉	-11.0678
諜	-11.0678
鳶	-11.0682
顏	-11.0694
奈	-11.0757
扎	-11.0766
苔	-11.0773
亶	-11.0773
楷	-11.0774
爍	-11.0775
怳	-11.0777
鳯	-11.078
繕	-11.078
覓	-11.0783
恕	-11.0784
吳	-11.0787
刊	-11.0791
絕	-11.0794
遶	-11.0879
褒	-11.0883
碗	-11.0883
蘂	-11.0885
麵	-11.0887
皎	-11.0888
菑	-11.0888
峯	-11.0889
苞	-11.089
央	-11.0953
寛	-11.0986
懲	-11.0988
竄	-11.0991
盱	-11.0991
膩	-11.0992
諦	-11.0993
派	-11.0995
倕	-11.0996
挹	-11.0997
槨	-11.0999
遼	-11.0999
縈	-11.1
麋	-11.1005
赭	-11.1094
鵝	-11.1094
糊	-11.1096
粱	-11.1098
糖	-11.1103
螻	-11.1106
羶	-11.1106
荀	-11.1109
綏	-11.1111
宵	-11.1111
眄	-11.1111
夔	-11.1115
舄	-11.1118
妊	-11.1205
穩	-11.121
渇	-11.1213
孺	-11.1213
甑	-11.1214
堵	-11.1214
趍	-11.1215
酆	-11.1215
裔	-11.1222
恚	-11.1222
斫	-11.1224
鰌	-11.1225
笋	-11.1225
枳	-11.1316
泮	-11.132
饕	-11.132
鷇	-11.1324
莅	-11.1325
柢	-11.1325
勵	-11.1326
焕	-11.1328
森	-11.1329
唤	-11.1329
嗚	-11.1333
級	-11.1334
忻	-11.1334
瘳	-11.1335
蹴	-11.1338
葦	-11.1339
鴨	-11.1424
冨	-11.1425
諄	-11.1435
琢	-11.1441
衢	-11.1441
醬	-11.1442
個	-11.1442
弛	-11.1442
娛	-11.1445
璣	-11.1445
娱	-11.1448
廻	-11.1449
吠	-11.1452
潘	-11.1457
稚	-11.1458
羌	-11.155
漉	-11.1552
嫩	-11.1555
仇	-11.1556
價	-11.1557
殫	-11.1557
藩	-11.1558
叫	-11.1562
哺	-11.1665
畋	-11.167
悴	-11.1671
汩	-11.1673
枸	-11.1673
蹙	-11.1674
脣	-11.1674
罹	-11.1676
詢	-11.1678
翟	-11.1687
咦	-11.1769
緋	-11.1783
榴	-11.1784
隗	-11.1786
玊	-11.1786
紋	-11.1788
翕	-11.1789
沮	-11.179
纉	-11.1792
扣	-11.1793
翫	-11.1794
伍	-11.1796
奄	-11.1797
騫	-11.18
踶	-11.1806
韭	-11.1808
櫃	-11.1897
斡	-11.1902
粘	-11.1904
熾	-11.1909
寜	-11.1913
跋	-11.1914
鑠	-11.1915
膳	-11.1915
坡	-11.192
綦	-11.1943
窠	-11.2026
襟	-11.2027
慙	-11.2028
栽	-11.2029
髻	-11.203
靣	-11.2031
頡	-11.2032
駒	-11.2033
𩐎	-11.2035
藪	-11.2035
寔	-11.2036
栩	-11.2045
虱	-11.2051
鉞	-11.2148
涓	-11.2149
峨	-11.215
鞅	-11.2152
煬	-11.2153
咀	-11.2153
饋	-11.2155
版	-11.2156
霑	-11.2156
翅	-11.2157
倣	-11.2158
挽	-11.2158
嫁	-11.2158
蠡	-11.2159
贏	-11.2161
瞬	-11.2163
弢	-11.2177
浄	-11.226
硇	-11.2265
戟	-11.2268
蚌	-11.2268
荘	-11.227
沬	-11.2271
税	-11.2272
虹	-11.2275
蛙	-11.2277
圎	-11.2277
旡	-11.2279
畛	-11.228
尻	-11.2283
閱	-11.2284
蚩	-11.2287
糯	-11.2377
捍	-11.2387
拆	-11.2389
鈴	-11.2392
頼	-11.2393
釀	-11.2395
糾	-11.2396
倖	-11.2398
歴	-11.2399
庇	-11.2399
慘	-11.24
娥	-11.2402
勁	-11.2403
抄	-11.2405
纓	-11.241
需	-11.241
惴	-11.2412
躇	-11.2412
凰	-11.2412
鼃	-11.2414
芫	-11.2512
捻	-11.2518
薺	-11.2524
豢	-11.2524
澁	-11.2524
撥	-11.2525
潛	-11.2526
惱	-11.2526
瓮	-11.2527
膜	-11.2528
䖍	-11.2529
憾	-11.253
蝶	-11.253
醒	-11.253
芮	-11.2532
鏤	-11.2534
汴	-11.2534
冕	-11.2534
讃	-11.2534
翰	-11.2535
蓉	-11.2536
誑	-11.2538
悌	-11.2542
鐡	-11.2577
椀	-11.2633
彦	-11.2646
踏	-11.2646
硼	-11.2648
炮	-11.2648
蟄	-11.2649
柚	-11.2649
鳧	-11.2649
碩	-11.2652
璇	-11.2652
揀	-11.2652
彘	-11.2652
釁	-11.2653
繒	-11.2654
袍	-11.2654
劇	-11.2655
瘴	-11.2659
礴	-11.2659
賓	-11.2661
妹	-11.2663
汾	-11.2668
謾	-11.2668
琳	-11.2782
蹷	-11.2783
衷	-11.2786
秃	-11.2786
啄	-11.2786
淹	-11.2787
諒	-11.2789
萍	-11.2792
馴	-11.2793
冢	-11.2795
緇	-11.2801
縵	-11.2801
萃	-11.2801
薊	-11.2809
肚	-11.2908
劔	-11.2909
捲	-11.2912
架	-11.2912
飴	-11.2914
菟	-11.2916
簇	-11.2917
欠	-11.2917
塘	-11.2917
舛	-11.2919
筌	-11.292
隘	-11.2921
款	-11.2923
勘	-11.2923
鷙	-11.2924
亞	-11.2926
匝	-11.2931
螳	-11.2932
珀	-11.3029
些	-11.3033
緣	-11.3038
兢	-11.3046
疸	-11.3047
驢	-11.3047
葷	-11.3048
鴈	-11.305
潁	-11.305
羈	-11.305
奠	-11.3051
聳	-11.3052
痼	-11.3053
驂	-11.3053
廪	-11.3053
輜	-11.3055
粃	-11.3056
沒	-11.3057
猷	-11.306
樵	-11.306
蚿	-11.307
樣	-11.3169
肢	-11.3172
韄	-11.3178
敎	-11.3179
鍛	-11.3182
夲	-11.3182
涬	-11.3182
祟	-11.3183
駿	-11.3188
島	-11.319
繇	-11.3191
讒	-11.3193
畦	-11.3193
謨	-11.3196
弃	-11.3311
詛	-11.3312
婬	-11.3317
街	-11.332
浙	-11.3321
撲	-11.3321
蝦	-11.3322
蹔	-11.3324
䇿	-11.3326
紐	-11.3326
憶	-11.3326
蕉	-11.3327
沴	-11.3328
𨼆	-11.3329
茸	-11.333
祗	-11.3331
譴	-11.3333
欬	-11.3333
睨	-11.3341
薤	-11.3444
藿	-11.3454
慚	-11.3454
曬	-11.3456
肱	-11.3458
陂	-11.346
輙	-11.3462
荅	-11.3462
翊	-11.3462
岳	-11.3463
渭	-11.3463
廊	-11.3464
筩	-11.3468
燔	-11.3469
躊	-11.3471
盎	-11.3476
「	-11.3478
吻	-11.349
痊	-11.3592
寃	-11.3593
戢	-11.3595
蠹	-11.3596
迄	-11.3597
厠	-11.3597
掠	-11.3598
倘	-11.3598
攬	-11.3599
梯	-11.36
岑	-11.36
搆	-11.3601
凑	-11.3603
帳	-11.3604
涵	-11.3605
偈	-11.3606
磬	-11.3606
粲	-11.3606
拍	-11.3608
僊	-11.3731
笈	-11.3733
啍	-11.3737
誌	-11.3739
虻	-11.3745
癧	-11.3746
纍	-11.375
眸	-11.375
刋	-11.3751
虜	-11.3751
卻	-11.3755
輅	-11.3762
踞	-11.3885
脇	-11.3886
稅	-11.3886
殞	-11.3886
栝	-11.3887
俎	-11.3887
巷	-11.3888
穎	-11.3889
涌	-11.3891
竇	-11.3892
隍	-11.3893
氛	-11.3893
涇	-11.3894
菽	-11.3897
咨	-11.3899
蠆	-11.3901
濛	-11.3902
蛛	-11.3903
滚	-11.4018
孜	-11.4024
㘽	-11.4025
辦	-11.4027
猫	-11.4028
杓	-11.4029
穰	-11.4031
躭	-11.4033
閔	-11.4034
塡	-11.4035
僨	-11.4037
廡	-11.4039
逞	-11.4039
邃	-11.404
邴	-11.4041
繳	-11.4042
濠	-11.4044
盻	-11.4045
瀛	-11.4054
柿	-11.4057
賾	-11.418
堊	-11.4182
飈	-11.4183
灸	-11.4183
悍	-11.4184
傴	-11.4184
飬	-11.4185
憒	-11.4185
惛	-11.4185
駟	-11.4186
癲	-11.4187
臆	-11.4188
閬	-11.4189
狩	-11.4193
扃	-11.4193
倨	-11.4195
昉	-11.4199
鏃	-11.4201
漚	-11.4211
蓍	-11.4223
蔻	-11.4318
蔚	-11.4323
䑕	-11.4324
邠	-11.4329
𧏾	-11.4329
脗	-11.433
揩	-11.4332
惶	-11.4332
窗	-11.4333
𡨚	-11.4335
娶	-11.4336
謷	-11.4336
澼	-11.4339
躋	-11.4339
岱	-11.434
莧	-11.434
枘	-11.4342
絮	-11.4342
漓	-11.4342
鷹	-11.4343
欻	-11.4343
叶	-11.4344
榔	-11.447
綴	-11.4483
勳	-11.4484
騖	-11.4488
癭	-11.4489
稊	-11.4489
淄	-11.449
俊	-11.4492
頒	-11.4493
沓	-11.4494
錙	-11.4495
噴	-11.4495
芙	-11.4497
銛	-11.4497
狶	-11.4498
峒	-11.45
逍	-11.45
狡	-11.45
隧	-11.45
榦	-11.45
錐	-11.4502
《	-11.4542
》	-11.4542
粳	-11.4634
番	-11.4639
苓	-11.4639
址	-11.4643
廷	-11.4643
媾	-11.4644
蚤	-11.4644
軋	-11.4645
鄒	-11.4645
壹	-11.4646
僥	-11.4647
遮	-11.4649
芍	-11.4651
幕	-11.4652
岩	-11.4652
餒	-11.4654
斟	-11.4654
澡	-11.4655
迺	-11.4658
浣	-11.4659
囑	-11.4665
煦	-11.48
髀	-11.4806
鋸	-11.4806
覲	-11.4807
芴	-11.4808
繪	-11.4808
姝	-11.4809
栀	-11.4809
慊	-11.481
萎	-11.4811
凈	-11.4811
跣	-11.4813
儵	-11.4814
蜋	-11.4817
伴	-11.4818
檜	-11.4955
氷	-11.4957
訶	-11.4958
柯	-11.496
嗅	-11.4961
芬	-11.4963
髭	-11.4964
霍	-11.4965
閽	-11.4965
婚	-11.4965
摯	-11.4966
蜚	-11.4967
粮	-11.4967
縷	-11.4969
燼	-11.4969
慨	-11.497
葺	-11.4971
鍼	-11.4972
吃	-11.4972
泪	-11.4972
褚	-11.4972
叨	-11.4973
戹	-11.4973
竪	-11.4981
菁	-11.5114
捺	-11.5121
埏	-11.5122
藕	-11.5124
賄	-11.5124
瘁	-11.5126
挼	-11.5127
炫	-11.513
啇	-11.5131
罄	-11.5131
湮	-11.5132
擔	-11.5133
盪	-11.5134
蔕	-11.5134
臓	-11.5134
逡	-11.5135
謡	-11.5135
蹢	-11.5136
纇	-11.5137
昂	-11.5138
瞋	-11.5138
楗	-11.5139
俠	-11.5142
輯	-11.5147
窶	-11.5155
覃	-11.5288
碾	-11.5289
禺	-11.529
淚	-11.5291
黥	-11.5291
鴞	-11.5292
宦	-11.5296
轄	-11.5296
頰	-11.5297
畧	-11.5298
羔	-11.5298
翣	-11.5299
礫	-11.53
芷	-11.5302
袖	-11.5304
圜	-11.5305
黼	-11.5305
玕	-11.5311
酪	-11.5311
鋤	-11.5317
腋	-11.545
皁	-11.5455
岡	-11.5456
皺	-11.5458
劓	-11.546
疹	-11.5462
佗	-11.5463
戶	-11.5463
插	-11.5464
熨	-11.5465
斜	-11.5465
堇	-11.5466
矉	-11.5467
蚓	-11.5468
蝱	-11.5468
產	-11.5468
猜	-11.547
彀	-11.5472
諺	-11.5472
泳	-11.5473
惻	-11.5473
殄	-11.548
蜘	-11.5481
諷	-11.5485
愷	-11.5494
紏	-11.5618
齕	-11.5633
茵	-11.5633
戕	-11.5634
溥	-11.5635
恰	-11.5636
螺	-11.5639
擎	-11.564
賂	-11.5641
閡	-11.5642
胠	-11.5643
搖	-11.5643
鍵	-11.5643
吊	-11.5644
潮	-11.5644
狠	-11.5644
溉	-11.5647
濤	-11.5647
謳	-11.5648
譙	-11.5649
潦	-11.5649
閎	-11.565
忝	-11.5653
蛄	-11.5654
券	-11.5654
蚋	-11.5656
扼	-11.5657
侗	-11.5662
炷	-11.5797
坯	-11.58
催	-11.5805
瘍	-11.5806
剔	-11.5811
筮	-11.5811
訴	-11.5812
葢	-11.5812
槌	-11.5813
槃	-11.5815
汪	-11.5816
袤	-11.5817
鼇	-11.5818
覬	-11.5819
盍	-11.5819
懿	-11.5821
萇	-11.5822
喑	-11.5823
聴	-11.5824
蛾	-11.5826
嗛	-11.5827
殤	-11.5831
鈃	-11.5832
蠐	-11.5833
偊	-11.5835
糜	-11.598
噀	-11.5984
繟	-11.5984
挑	-11.5985
惰	-11.5991
緼	-11.5993
賁	-11.5994
昬	-11.5995
罏	-11.5995
瘰	-11.5995
晃	-11.5996
淩	-11.5996
㧞	-11.5996
帷	-11.5997
燦	-11.5997
逄	-11.5998
訊	-11.5998
湘	-11.5999
慤	-11.6
詬	-11.6001
孳	-11.6002
瞳	-11.6002
礪	-11.6004
撻	-11.6008
躅	-11.601
蹍	-11.6012
姤	-11.6164
袁	-11.6167
眎	-11.6169
甓	-11.6171
痕	-11.6172
媧	-11.6172
噤	-11.6174
蕤	-11.6174
挂	-11.6175
芎	-11.6177
耜	-11.6177
郵	-11.6179
宙	-11.618
擘	-11.618
懦	-11.618
驁	-11.6181
祿	-11.6185
弭	-11.6187
麾	-11.6187
耄	-11.6188
终	-11.6189
闘	-11.6353
汋	-11.6354
蹊	-11.6357
矧	-11.6358
噓	-11.6358
懺	-11.6359
噲	-11.6361
馨	-11.6361
眯	-11.6362
峙	-11.6362
丕	-11.6363
浹	-11.6364
悼	-11.6364
貶	-11.6365
繹	-11.6365
藐	-11.6366
㳺	-11.6367
璃	-11.6368
迅	-11.6369
綬	-11.6369
盂	-11.637
譆	-11.6374
瘙	-11.6377
獺	-11.6385
躑	-11.6388
俏	-11.6389
痺	-11.6543
圈	-11.6545
誶	-11.6547
鐻	-11.6548
霹	-11.6549
診	-11.6549
麽	-11.655
蔑	-11.6551
旛	-11.6551
畸	-11.6552
沼	-11.6553
詒	-11.6557
鉗	-11.6557
䕶	-11.6557
舂	-11.6559
鴉	-11.656
鬬	-11.6563
憯	-11.6565
螬	-11.657
𥐼	-11.6723
瘢	-11.6725
菰	-11.6729
芹	-11.673
迥	-11.6732
癩	-11.6738
頥	-11.6739
雁	-11.6739
篡	-11.674
蹲	-11.6743
昃	-11.6744
噬	-11.6745
軿	-11.6745
淸	-11.6746
壙	-11.6748
泆	-11.6749
疝	-11.6751
黿	-11.6754
弇	-11.6772
檳	-11.6914
鬰	-11.6926
箸	-11.6928
塚	-11.6929
瀨	-11.693
棠	-11.6931
罽	-11.6932
曏	-11.6934
凖	-11.6935
僵	-11.6937
啻	-11.6937
㬠	-11.6938
粤	-11.6938
掖	-11.6938
髯	-11.6939
痃	-11.694
僣	-11.6941
紳	-11.6941
臚	-11.6941
楹	-11.6944
紜	-11.6945
㓕	-11.6946
嬪	-11.6949
軰	-11.695
甆	-11.695
梱	-11.6952
呻	-11.6953
祁	-11.7124
斵	-11.7126
蛔	-11.713
臠	-11.7131
稗	-11.7132
桁	-11.7133
壊	-11.7137
簧	-11.7137
稔	-11.7139
橛	-11.7141
燿	-11.7141
㝷	-11.7142
阮	-11.7145
霖	-11.7147
膾	-11.7148
梳	-11.7148
坼	-11.7152
慝	-11.7152
汚	-11.7329
剌	-11.7331
蔞	-11.7332
憩	-11.7332
笛	-11.7333
蜣	-11.7333
謐	-11.7336
舶	-11.7339
燋	-11.7339
榭	-11.7339
穡	-11.7341
彙	-11.7342
皥	-11.7342
桎	-11.7343
禎	-11.7344
貲	-11.7345
殽	-11.7347
稟	-11.7348
悚	-11.735
擿	-11.7352
愕	-11.7353
眥	-11.7355
薇	-11.7356
芩	-11.7539
冐	-11.754
纆	-11.7544
槽	-11.7545
隕	-11.7549
歉	-11.7549
絜	-11.7552
祉	-11.7554
蒐	-11.7555
橡	-11.7555
黻	-11.7555
㡬	-11.7555
涼	-11.7555
羨	-11.7556
蠲	-11.7556
佯	-11.7557
猗	-11.7557
崑	-11.7557
硋	-11.7558
闉	-11.7558
濮	-11.7559
懟	-11.7562
喟	-11.7562
嬴	-11.7566
頁	-11.7751
黏	-11.7755
罩	-11.7756
兑	-11.7757
戍	-11.7758
菉	-11.7758
蛆	-11.7758
竦	-11.7759
筵	-11.776
詘	-11.776
謟	-11.7761
淖	-11.7761
彷	-11.7764
兜	-11.7764
概	-11.7764
培	-11.7766
霆	-11.7766
閏	-11.7768
叉	-11.7769
郁	-11.7769
暝	-11.7769
裒	-11.777
汰	-11.7772
摭	-11.7773
帀	-11.7774
餔	-11.7775
滛	-11.7776
莒	-11.7783
鶩	-11.7966
踴	-11.7972
揵	-11.7972
榜	-11.7974
鉅	-11.7975
噉	-11.7976
珮	-11.7977
蝎	-11.7978
售	-11.7978
梏	-11.7978
蓽	-11.7979
熈	-11.7979
靄	-11.7979
冦	-11.7979
囘	-11.798
胚	-11.798
坊	-11.798
苣	-11.7981
蜈	-11.7981
霓	-11.7982
摳	-11.7982
劄	-11.7982
螂	-11.7983
騏	-11.7985
蚣	-11.7985
芸	-11.7986
顓	-11.7986
丐	-11.7987
渤	-11.7987
愀	-11.7987
閻	-11.7988
蚹	-11.7988
紘	-11.7989
幢	-11.7991
嘿	-11.7992
蟆	-11.7992
筠	-11.7993
耨	-11.7996
歅	-11.8006
輟	-11.8043
磚	-11.8184
匈	-11.8188
咄	-11.8191
葫	-11.8191
孑	-11.8192
𥙷	-11.8193
鯽	-11.8195
泔	-11.8197
匣	-11.8199
漻	-11.8199
煨	-11.8205
衂	-11.8205
藭	-11.8206
奬	-11.8207
肛	-11.8209
㦸	-11.821
阨	-11.821
耒	-11.8211
嚳	-11.8211
歧	-11.8215
砥	-11.8216
皋	-11.8218
撝	-11.8218
拓	-11.822
迪	-11.822
洫	-11.8222
欄	-11.8415
蝗	-11.8422
評	-11.8423
吒	-11.8423
紺	-11.8424
揉	-11.8425
楯	-11.8426
鍜	-11.8426
茄	-11.8426
賛	-11.8428
䏻	-11.8429
髴	-11.8429
髣	-11.8429
梟	-11.8429
罵	-11.843
虬	-11.843
閩	-11.8431
駁	-11.8431
𩲸	-11.8431
胝	-11.8431
礦	-11.8432
櫻	-11.8433
偁	-11.8434
飂	-11.8435
粕	-11.8435
亷	-11.8435
刁	-11.844
燄	-11.844
諔	-11.8444
鷃	-11.8444
鴳	-11.8444
仆	-11.8446
埒	-11.8449
蒺	-11.8635
纒	-11.8646
鈇	-11.8648
𨥥	-11.8649
瀾	-11.8652
専	-11.8652
轝	-11.8655
虺	-11.8656
陪	-11.8658
籬	-11.8658
摻	-11.8659
泓	-11.8659
廕	-11.866
諌	-11.866
柤	-11.8661
珞	-11.8661
蘖	-11.8664
㝢	-11.8665
譜	-11.8666
盥	-11.8669
剽	-11.8669
獅	-11.8669
沍	-11.8669
儔	-11.867
窘	-11.8671
綢	-11.8671
愠	-11.8672
鸇	-11.8672
麴	-11.8673
旒	-11.8674
批	-11.8677
澶	-11.8681
謦	-11.8683
聶	-11.8685
玷	-11.8876
淬	-11.8889
燠	-11.889
奎	-11.889
跬	-11.8891
䘒	-11.8892
箱	-11.8893
懃	-11.8895
忙	-11.8895
笥	-11.8896
恪	-11.8899
滀	-11.8901
幘	-11.8903
燮	-11.8904
僉	-11.8904
噎	-11.8904
隠	-11.8905
涿	-11.8907
郄	-11.8907
瘤	-11.8907
删	-11.8909
塩	-11.8909
鐍	-11.8909
弧	-11.8909
喧	-11.891
菹	-11.891
笙	-11.8911
蠅	-11.8911
蹩	-11.8911
嫗	-11.8912
跌	-11.8912
遙	-11.8913
你	-11.8915
鶂	-11.8922
軼	-11.8925
鞴	-11.9136
溶	-11.914
鬳	-11.914
弁	-11.9141
呬	-11.9142
厢	-11.9145
汜	-11.9145
剩	-11.9145
渚	-11.9145
謌	-11.9145
壼	-11.9146
珊	-11.9146
蔵	-11.9147
歆	-11.9147
慴	-11.9147
鎁	-11.9149
闋	-11.9149
幡	-11.9149
醪	-11.915
隤	-11.915
翌	-11.915
齧	-11.9152
酣	-11.9154
郝	-11.9158
誹	-11.9158
雹	-11.9161
縞	-11.9161
怍	-11.9166
垠	-11.9166
釡	-11.9372
鍮	-11.9373
塑	-11.9375
柰	-11.9376
牌	-11.9378
噏	-11.9382
譊	-11.9382
麩	-11.9384
迦	-11.9384
雒	-11.9385
簞	-11.9387
芘	-11.9387
觚	-11.9387
痒	-11.9388
苨	-11.9389
悞	-11.9389
暘	-11.9389
冑	-11.9392
黯	-11.9392
抛	-11.9393
蝨	-11.9394
烝	-11.9396
沿	-11.9397
凱	-11.9397
涅	-11.9398
鼉	-11.9401
綜	-11.9401
豳	-11.9401
荔	-11.9403
桴	-11.9404
鯨	-11.9404
繚	-11.9404
箋	-11.9405
蟪	-11.9408
殛	-11.941
攓	-11.941
馘	-11.9412
掣	-11.9412
藋	-11.942
萆	-11.9637
薏	-11.9639
蝍	-11.9641
矛	-11.9641
悗	-11.9644
傖	-11.9646
賫	-11.9647
枷	-11.9648
炬	-11.9648
欵	-11.9651
宄	-11.9651
頯	-11.9651
瘞	-11.9653
甄	-11.9653
腴	-11.9653
苧	-11.9654
毓	-11.9654
胼	-11.9655
纊	-11.9657
懾	-11.9657
課	-11.9657
嗤	-11.9658
鮓	-11.9658
𡨕	-11.9659
旄	-11.9659
鵰	-11.9659
悮	-11.966
哽	-11.9661
鮒	-11.9668
軦	-11.9672
坳	-11.9677
陛	-11.9876
蛸	-11.9888
觜	-11.9896
瓣	-11.9897
埳	-11.9901
汶	-11.9904
釵	-11.9906
鞋	-11.9906
兎	-11.9908
錄	-11.9909
兖	-11.991
菘	-11.9913
痞	-11.9914
搶	-11.9915
玲	-11.9916
滔	-11.9916
啞	-11.9917
嚙	-11.9917
聯	-11.9917
蠓	-11.9922
撞	-11.9923
莨	-11.9923
芧	-11.9924
嚇	-11.9925
胤	-11.9925
躓	-11.9926
諍	-11.9926
筐	-11.9927
躠	-11.9927
牘	-11.9927
賑	-11.9928
嗒	-11.9928
蹟	-11.9928
龔	-11.993
飭	-11.993
斄	-11.9938
塜	-12.0176
棋	-12.0179
錘	-12.0179
啜	-12.018
輳	-12.0182
兌	-12.0182
惔	-12.0182
踊	-12.0182
儛	-12.0183
頊	-12.0184
敞	-12.0186
俚	-12.0188
藹	-12.019
痾	-12.0191
袂	-12.0191
竽	-12.0193
絖	-12.0194
絯	-12.0195
咫	-12.0196
豺	-12.0198
欒	-12.02
焱	-12.02
犁	-12.0201
穉	-12.0203
罘	-12.0204
扞	-12.0206
檗	-12.0433
贄	-12.0437
蒞	-12.0444
焙	-12.0445
誙	-12.0451
衄	-12.0451
勛	-12.0451
飫	-12.0454
懋	-12.0454
汒	-12.0455
茗	-12.0456
押	-12.0456
濾	-12.0457
駑	-12.0458
巍	-12.0458
䧟	-12.046
搢	-12.046
溜	-12.0461
缾	-12.0461
拈	-12.0461
慳	-12.0462
傚	-12.0463
航	-12.0463
萄	-12.0463
徭	-12.0463
魍	-12.0464
猥	-12.0464
筍	-12.0467
駡	-12.0468
鱠	-12.0468
墉	-12.047
蓏	-12.0471
堆	-12.0471
磅	-12.0472
粢	-12.0473
馥	-12.0473
癤	-12.0474
鴝	-12.0474
葂	-12.0475
抉	-12.0476
鍔	-12.0476
𣗳	-12.0477
緬	-12.0478
枋	-12.0481
虫	-12.0483
鎚	-12.073
棱	-12.0736
衿	-12.0737
嬉	-12.0738
昴	-12.0738
耿	-12.074
檻	-12.0741
肴	-12.0744
笏	-12.0744
儋	-12.0745
槢	-12.0745
溷	-12.0745
匐	-12.0746
巒	-12.0746
隣	-12.0748
芚	-12.0749
壷	-12.0749
寨	-12.0751
䝉	-12.0751
鶚	-12.0751
隄	-12.0752
聵	-12.0752
唵	-12.0753
膻	-12.0753
韞	-12.0755
廵	-12.0755
隊	-12.0756
組	-12.0756
彖	-12.0756
衺	-12.0757
嶮	-12.0757
鴦	-12.0758
扉	-12.0758
狌	-12.0758
喚	-12.0759
鬲	-12.0759
涘	-12.076
鵷	-12.0761
萑	-12.0763
蠸	-12.077
䑛	-12.0776
▲	-12.0779
陌	-12.103
衾	-12.1031
悛	-12.1031
娘	-12.1032
蘸	-12.1032
翩	-12.1037
秫	-12.1037
豬	-12.1037
翮	-12.1037
倐	-12.1039
椄	-12.104
蕎	-12.104
屣	-12.1041
賅	-12.1042
廳	-12.1043
畎	-12.1043
柩	-12.1043
飼	-12.1044
鏑	-12.1045
瓏	-12.1045
殂	-12.1047
宎	-12.1047
瘖	-12.105
痀	-12.105
疋	-12.105
謵	-12.1051
鐔	-12.1051
嵇	-12.1052
巓	-12.1052
隼	-12.1052
菓	-12.1054
淑	-12.1054
町	-12.1056
顫	-12.1058
罝	-12.1058
坂	-12.106
紿	-12.1061
蠙	-12.1068
捽	-12.1075
倶	-12.1318
鸛	-12.1322
籤	-12.1326
悃	-12.1329
栁	-12.133
氐	-12.1331
㬰	-12.1332
苡	-12.1332
綉	-12.1335
疎	-12.1335
鱔	-12.1335
哇	-12.1337
椹	-12.1338
峭	-12.1338
渦	-12.1341
憺	-12.1342
摸	-12.1342
獐	-12.1342
擠	-12.1343
軻	-12.1344
圉	-12.1345
歘	-12.1346
蠕	-12.1347
喁	-12.1348
黷	-12.1348
汧	-12.1348
卞	-12.1349
查	-12.1349
逗	-12.135
潞	-12.1351
菱	-12.1351
桔	-12.1352
鐶	-12.1353
釘	-12.1353
嶠	-12.1353
緝	-12.1355
縢	-12.1355
楸	-12.1357
虢	-12.1361
窾	-12.1364
佹	-12.1365
皯	-12.1367
翏	-12.137
鷂	-12.1371
聒	-12.1372
杉	-12.1386
觭	-12.1388
悵	-12.1621
怙	-12.1647
筦	-12.1647
蒔	-12.1647
暄	-12.1647
刷	-12.1648
黛	-12.1648
劈	-12.1648
牂	-12.1652
跛	-12.1652
闐	-12.1654
皷	-12.1654
寮	-12.1654
凛	-12.1656
紊	-12.1656
甦	-12.1657
駴	-12.1657
盃	-12.1657
䂓	-12.166
寘	-12.166
荽	-12.166
悽	-12.166
縳	-12.1661
艷	-12.1661
褊	-12.1663
魎	-12.1663
迤	-12.1664
茆	-12.1664
鏗	-12.1666
嬌	-12.1666
嘶	-12.1667
詆	-12.1668
藁	-12.1668
爝	-12.167
翐	-12.1671
翂	-12.1671
朵	-12.1672
慟	-12.1673
冗	-12.1674
洴	-12.1675
繙	-12.168
瀵	-12.1694
衹	-12.1695
雱	-12.1928
3	-12.1959
簣	-12.1968
攺	-12.1971
惘	-12.1973
氾	-12.1974
离	-12.1975
躔	-12.1975
袐	-12.1976
罨	-12.1976
簾	-12.1977
縶	-12.1977
数	-12.1977
崐	-12.1977
蹵	-12.1978
鑊	-12.1978
擯	-12.1979
葡	-12.1979
堤	-12.198
拏	-12.1981
墊	-12.1982
紗	-12.1982
倩	-12.1983
譔	-12.1983
扵	-12.1984
贖	-12.1987
腠	-12.1989
缶	-12.1989
訝	-12.199
靳	-12.1991
呉	-12.1992
衽	-12.1992
販	-12.1992
軾	-12.1993
禧	-12.1993
壠	-12.1993
騷	-12.1995
晬	-12.1996
槍	-12.1996
誚	-12.1999
卹	-12.2005
荑	-12.2005
㡭	-12.2011
硎	-12.2013
纛	-12.2299
喝	-12.2299
𩲃	-12.2302
蘁	-12.2305
艽	-12.2305
崗	-12.2306
鴆	-12.2306
龐	-12.2306
梭	-12.2307
讙	-12.2308
魒	-12.2309
瓤	-12.231
攢	-12.231
𡨋	-12.2311
獷	-12.2311
皿	-12.2311
鈐	-12.2311
萹	-12.2311
闈	-12.2311
畿	-12.2313
扆	-12.2314
噐	-12.2315
邢	-12.2316
箠	-12.2317
黮	-12.2317
鑰	-12.2317
闗	-12.2318
誼	-12.2318
庻	-12.2321
彝	-12.2321
渥	-12.2322
悪	-12.2323
𦍙	-12.2323
讁	-12.2323
臛	-12.2325
裸	-12.2326
鶵	-12.2333
睛	-12.2334
胈	-12.2334
畚	-12.2334
騞	-12.2335
呺	-12.2337
揲	-12.2338
璋	-12.2338
巿	-12.2339
駝	-12.234
蜍	-12.234
邕	-12.234
釅	-12.2632
瞠	-12.2642
菀	-12.2646
澈	-12.2648
簪	-12.2648
餳	-12.2649
䰢	-12.2651
耎	-12.2653
匍	-12.2654
随	-12.2655
忱	-12.2655
乂	-12.2656
㸔	-12.2657
岫	-12.2657
掲	-12.2658
卉	-12.2659
扔	-12.2659
蛭	-12.2659
呷	-12.2659
纎	-12.266
戯	-12.266
榛	-12.266
螢	-12.266
爚	-12.266
俘	-12.2661
紈	-12.2661
膂	-12.2661
薾	-12.2661
磷	-12.2662
㕮	-12.2662
䧺	-12.2662
藺	-12.2664
柘	-12.2665
愿	-12.2665
甌	-12.2666
肪	-12.2667
圾	-12.2668
陞	-12.2669
儕	-12.2669
傀	-12.2669
罾	-12.267
吷	-12.2673
仿	-12.2673
驩	-12.2673
慹	-12.2675
鷽	-12.2678
滂	-12.2993
瞰	-12.2997
烘	-12.3
譯	-12.3002
擦	-12.3003
槖	-12.3004
搉	-12.3005
䜴	-12.3006
搥	-12.3006
膲	-12.3007
沂	-12.3007
騮	-12.3007
徤	-12.301
緜	-12.3011
蚛	-12.3012
覧	-12.3012
塋	-12.3012
楓	-12.3013
𤺋	-12.3013
痂	-12.3013
斁	-12.3014
諠	-12.3014
状	-12.3014
掉	-12.3016
榻	-12.3019
虵	-12.302
餮	-12.302
蒭	-12.302
窩	-12.3023
荐	-12.3024
遘	-12.3024
詵	-12.3025
蘘	-12.3025
䵟	-12.3026
眡	-12.3026
溫	-12.3026
掾	-12.3026
刈	-12.3027
潄	-12.3028
浦	-12.3028
蘅	-12.303
恑	-12.3031
翱	-12.3032
鬛	-12.3034
悝	-12.3035
偎	-12.3038
瑋	-12.305
凢	-12.3357
熔	-12.3362
伽	-12.3364
翺	-12.3366
蒡	-12.337
噭	-12.3371
脤	-12.3373
曵	-12.3373
楞	-12.3375
煒	-12.3375
姻	-12.3376
箴	-12.3379
訢	-12.3383
繭	-12.3383
䕃	-12.3384
貉	-12.3386
捜	-12.3386
怫	-12.3387
璨	-12.3387
呌	-12.3387
剡	-12.3389
燎	-12.3389
癮	-12.3389
蜺	-12.3389
鎰	-12.339
厦	-12.3391
聆	-12.3393
婉	-12.3393
孛	-12.3394
蒯	-12.3395
驎	-12.3395
巋	-12.3395
搰	-12.3396
桶	-12.34
覈	-12.3402
魭	-12.3403
餽	-12.3404
螟	-12.3407
穫	-12.3408
頷	-12.3408
耘	-12.3413
廚	-12.3422
蝡	-12.3743
鵂	-12.3747
茲	-12.3748
蔔	-12.3754
㤀	-12.3755
凄	-12.3755
訞	-12.3756
鵜	-12.3757
崘	-12.3758
鴯	-12.3758
豨	-12.376
貟	-12.3762
鯀	-12.3762
佇	-12.3763
湍	-12.3763
潑	-12.3764
棧	-12.3764
泡	-12.3764
檄	-12.3766
芨	-12.3766
菲	-12.3766
寞	-12.3767
隩	-12.3768
奭	-12.3769
蚉	-12.377
恁	-12.377
棒	-12.3771
瀹	-12.3771
虗	-12.3772
塼	-12.3772
迸	-12.3772
様	-12.3773
䛕	-12.3773
諮	-12.3773
婪	-12.3773
債	-12.3774
鎸	-12.3774
跈	-12.3775
涽	-12.3775
撃	-12.3775
擴	-12.3775
笱	-12.3775
愴	-12.3776
醷	-12.3777
宂	-12.3779
蓯	-12.3779
縑	-12.378
楫	-12.378
貿	-12.3781
鯁	-12.3781
魘	-12.3781
腊	-12.3781
簳	-12.3781
肋	-12.3783
募	-12.3784
葭	-12.3784
遡	-12.3784
摽	-12.3785
傘	-12.3785
杼	-12.3788
憰	-12.3791
蔗	-12.3791
擺	-12.3792
愜	-12.3793
鷦	-12.3795
僓	-12.3795
蒴	-12.3798
綮	-12.3799
蠍	-12.3799
参	-12.3801
耰	-12.3803
豎	-12.3805
泌	-12.3813
菔	-12.4143
砌	-12.4152
殯	-12.4158
𩵄	-12.4158
潼	-12.416
囷	-12.416
鷾	-12.416
坏	-12.416
黶	-12.4161
嘷	-12.4161
菪	-12.4162
麄	-12.4162
聿	-12.4163
艶	-12.4163
㓗	-12.4163
毳	-12.4163
垛	-12.4163
訂	-12.4164
鐃	-12.4166
蟯	-12.4166
樠	-12.4167
漕	-12.4167
滕	-12.4167
糺	-12.4168
簷	-12.4169
廖	-12.4169
蓂	-12.4169
雛	-12.417
嫡	-12.417
橰	-12.4172
縉	-12.4174
翶	-12.4175
噦	-12.4175
晞	-12.4176
楝	-12.4177
韙	-12.4177
矰	-12.4178
瘵	-12.4178
輾	-12.4178
鋣	-12.4179
勲	-12.4179
飡	-12.4179
墀	-12.418
歐	-12.418
揄	-12.4182
冩	-12.4183
匆	-12.4183
阬	-12.4185
砉	-12.4185
籩	-12.4186
蹻	-12.4189
腓	-12.4192
橈	-12.4192
溼	-12.4193
蒓	-12.4558
努	-12.4569
麓	-12.4575
杪	-12.4575
薫	-12.4576
餉	-12.4579
錠	-12.458
蜎	-12.458
瘀	-12.4581
觳	-12.4581
晷	-12.4581
盼	-12.4582
弅	-12.4582
撒	-12.4583
睆	-12.4583
𩳐	-12.4583
覦	-12.4583
餞	-12.4583
赧	-12.4586
畤	-12.4586
届	-12.4587
檐	-12.4587
瑠	-12.4588
儘	-12.4588
叚	-12.4589
刄	-12.459
蛀	-12.459
覿	-12.4591
眚	-12.4591
覷	-12.4591
孀	-12.4592
幅	-12.4592
渙	-12.4593
樟	-12.4593
蕘	-12.4593
拄	-12.4593
琉	-12.4594
黬	-12.4596
勺	-12.4596
憔	-12.4596
瀘	-12.4596
迓	-12.4598
刦	-12.4601
漲	-12.4601
蹉	-12.4602
劬	-12.4602
褥	-12.4602
嶷	-12.4603
鋏	-12.4604
儃	-12.4608
鷗	-12.461
挐	-12.461
鷯	-12.461
駙	-12.4613
痟	-12.4625
聏	-12.4628
峕	-12.4631
衙	-12.5003
葳	-12.5003
机	-12.5003
鞠	-12.5004
俋	-12.5005
麈	-12.5006
魑	-12.5008
胲	-12.5009
魓	-12.501
謖	-12.5013
朐	-12.5014
蘩	-12.5014
砧	-12.5014
莪	-12.5015
栅	-12.5015
燁	-12.5016
滲	-12.5016
邉	-12.5016
梢	-12.5017
惺	-12.5017
膍	-12.5017
趺	-12.5017
㓜	-12.5018
圄	-12.5018
燻	-12.5019
禆	-12.5019
磔	-12.502
鰻	-12.502
鄆	-12.5022
眴	-12.5022
罯	-12.5025
薨	-12.5026
胜	-12.5026
跰	-12.5026
覡	-12.5027
賒	-12.5027
鋼	-12.5027
䠓	-12.5028
攦	-12.5028
濬	-12.5028
睽	-12.5028
椽	-12.5029
澂	-12.5029
嗃	-12.503
笠	-12.5031
蜃	-12.5032
僑	-12.5033
搔	-12.5034
戛	-12.5035
厝	-12.5036
荼	-12.5037
複	-12.5038
窖	-12.5038
阪	-12.5039
鑚	-12.504
堥	-12.504
晡	-12.5041
𫝊	-12.5042
庾	-12.5042
羖	-12.5043
蒹	-12.5044
騾	-12.5047
鬐	-12.5051
霏	-12.5452
敲	-12.5456
柑	-12.5456
甃	-12.5457
閃	-12.5457
犠	-12.5458
渟	-12.546
珥	-12.546
閤	-12.5461
迍	-12.5461
胄	-12.5463
粧	-12.5466
幷	-12.5468
霽	-12.5469
䋲	-12.5469
茯	-12.547
宕	-12.5471
芭	-12.5471
痩	-12.5473
泗	-12.5474
琪	-12.5474
洺	-12.5474
齏	-12.5474
薯	-12.5474
髢	-12.5474
軹	-12.5475
徉	-12.5476
罅	-12.5476
斔	-12.5476
蒟	-12.5476
詈	-12.5477
愽	-12.5478
畀	-12.5478
嵐	-12.548
奂	-12.548
鰥	-12.548
阫	-12.548
鼷	-12.548
黠	-12.548
陬	-12.5481
萼	-12.5482
慼	-12.5482
嬙	-12.5483
週	-12.5483
醍	-12.5484
秖	-12.5484
伋	-12.5484
异	-12.5485
舐	-12.5486
蝮	-12.5487
隰	-12.5487
臥	-12.5489
鋟	-12.5489
㫁	-12.5489
满	-12.5489
揜	-12.5489
氈	-12.549
暍	-12.5491
邸	-12.5492
蹎	-12.5493
蓑	-12.5495
篲	-12.5495
蝙	-12.5496
鎻	-12.55
拸	-12.5501
殗	-12.5928
荏	-12.593
杷	-12.5932
玃	-12.5936
鶘	-12.5939
臰	-12.5942
碁	-12.5942
鄂	-12.5943
倮	-12.5943
殭	-12.5944
熹	-12.5944
蛣	-12.5944
𣻏	-12.5946
囹	-12.5946
覕	-12.5946
吼	-12.5947
靚	-12.5947
紬	-12.5948
疱	-12.5948
縻	-12.5948
獼	-12.5948
彤	-12.595
帽	-12.5951
瘑	-12.5951
柙	-12.5952
廐	-12.5952
遹	-12.5952
澠	-12.5952
瀟	-12.5953
懌	-12.5954
恙	-12.5954
蓊	-12.5954
筯	-12.5955
䃣	-12.5955
尓	-12.5955
踣	-12.5955
鞍	-12.5955
勗	-12.5956
瑰	-12.5956
逶	-12.5956
玦	-12.5957
癱	-12.5957
洿	-12.5958
侅	-12.5958
葈	-12.5958
譖	-12.5959
襁	-12.5959
覯	-12.5959
犍	-12.596
雩	-12.596
徨	-12.596
蠛	-12.596
狥	-12.5961
莛	-12.5961
笞	-12.5961
綆	-12.5961
琰	-12.5962
癃	-12.5962
莎	-12.5962
拽	-12.5962
逭	-12.5962
佒	-12.5963
劾	-12.5963
洼	-12.5964
凭	-12.5966
猵	-12.5968
謑	-12.5974
軱	-12.5975
綟	-12.6406
陁	-12.6409
甥	-12.6425
碢	-12.643
螘	-12.6432
嗑	-12.6432
曄	-12.6434
阡	-12.6435
舘	-12.6437
疢	-12.644
𧵥	-12.6441
奧	-12.6442
㳙	-12.6444
驊	-12.6444
樅	-12.6446
鎗	-12.6447
妣	-12.6448
駮	-12.6448
𢎞	-12.6449
棣	-12.6449
恊	-12.645
潢	-12.645
邱	-12.645
臊	-12.6451
彗	-12.6451
芰	-12.6451
瞞	-12.6451
恡	-12.6451
茜	-12.6452
苕	-12.6452
欐	-12.6453
譹	-12.6454
逌	-12.6455
迢	-12.6456
湩	-12.6457
帖	-12.6457
絪	-12.6458
誸	-12.6459
嚆	-12.6461
槿	-12.6461
慿	-12.6461
噆	-12.6461
輐	-12.6462
跐	-12.6463
醨	-12.6463
眶	-12.6466
覤	-12.6466
蠧	-12.6467
蜳	-12.6467
螴	-12.6467
蚕	-12.6468
蘋	-12.6468
暱	-12.6473
掬	-12.6473
愔	-12.6474
謋	-12.6479
娑	-12.6481
貊	-12.6481
犿	-12.6486
妸	-12.6492
泅	-12.6492
璉	-12.6958
骰	-12.696
溞	-12.696
暁	-12.6961
笄	-12.6961
歃	-12.6962
篦	-12.6962
曇	-12.6962
収	-12.6963
垍	-12.6963
煴	-12.6964
硏	-12.6964
㓂	-12.6965
窬	-12.6968
惹	-12.6968
萱	-12.697
㜸	-12.6971
垓	-12.6972
嵬	-12.6972
跟	-12.6973
霈	-12.6973
眺	-12.6974
屐	-12.6974
捏	-12.6974
狃	-12.6975
螯	-12.6975
蕷	-12.6976
訕	-12.6977
搽	-12.6977
糵	-12.6979
蘼	-12.698
屛	-12.6981
遄	-12.6983
惋	-12.6983
卬	-12.6983
抹	-12.6983
䕡	-12.6984
醢	-12.6984
犂	-12.6984
芊	-12.6984
浚	-12.6985
徊	-12.6985
駸	-12.6985
闞	-12.6986
謞	-12.6987
窿	-12.6987
攤	-12.6987
縠	-12.6988
糲	-12.699
牆	-12.699
恵	-12.699
睥	-12.699
墠	-12.6992
泝	-12.6992
椏	-12.6993
塔	-12.6994
哂	-12.6995
俍	-12.6996
咤	-12.6997
撤	-12.6997
跫	-12.6998
义	-12.6999
窢	-12.7
蝟	-12.7003
濳	-12.7004
仵	-12.7009
莓	-12.7516
甸	-12.7519
滷	-12.752
殢	-12.7521
熖	-12.7521
湣	-12.7521
瘉	-12.7522
瀑	-12.7522
鋌	-12.7523
蕊	-12.7523
皴	-12.7524
絆	-12.7524
帑	-12.7525
蜒	-12.7526
詫	-12.7526
叠	-12.7526
窨	-12.7526
綫	-12.7527
慣	-12.7527
薢	-12.7528
枲	-12.7528
憧	-12.7529
碣	-12.7529
閶	-12.7529
矼	-12.7531
巻	-12.7531
鮭	-12.7532
体	-12.7532
娯	-12.7533
繲	-12.7533
璫	-12.7533
蘽	-12.7534
趼	-12.7534
𠂻	-12.7534
賽	-12.7535
彎	-12.7535
鑾	-12.7535
燃	-12.7535
縰	-12.7536
琊	-12.7536
袪	-12.7536
縊	-12.7538
莘	-12.7538
鎬	-12.7538
䘏	-12.7539
湊	-12.754
翥	-12.754
釿	-12.754
捫	-12.754
锐	-12.754
𤓰	-12.7541
璘	-12.7541
蕨	-12.7542
怱	-12.7542
朂	-12.7542
絰	-12.7542
濵	-12.7543
雚	-12.7543
輇	-12.7543
顒	-12.7544
棊	-12.7544
屹	-12.7544
轟	-12.7545
饜	-12.7545
姊	-12.7545
羆	-12.7546
吡	-12.7549
蒻	-12.7549
瞚	-12.7551
掜	-12.7552
蚱	-12.7553
鼬	-12.7553
匏	-12.7555
黣	-12.7557
掔	-12.7561
惝	-12.7563
譍	-12.7571
帆	-12.7587
幀	-12.8094
衘	-12.8094
属	-12.8099
鈆	-12.8106
啗	-12.8106
馽	-12.8107
鴿	-12.8108
蠖	-12.8108
飊	-12.811
姪	-12.811
杙	-12.8112
峩	-12.8112
襯	-12.8113
串	-12.8114
閫	-12.8114
貎	-12.8114
澧	-12.8116
覘	-12.8116
辣	-12.8117
篠	-12.8117
齟	-12.8118
腞	-12.8118
沆	-12.8118
瀣	-12.8118
唳	-12.8118
緍	-12.8119
槎	-12.812
菥	-12.812
炯	-12.812
丧	-12.812
舋	-12.812
猾	-12.8121
絀	-12.8122
菩	-12.8122
鶡	-12.8122
㤗	-12.8123
磐	-12.8123
窄	-12.8124
茁	-12.8124
茭	-12.8124
韌	-12.8125
鶻	-12.8125
紆	-12.8126
瘠	-12.8126
鬪	-12.8127
沽	-12.8128
呿	-12.8128
殟	-12.8128
旂	-12.8128
龕	-12.8129
諤	-12.8129
𢂽	-12.8129
两	-12.8129
趕	-12.813
姒	-12.8131
埌	-12.8133
壟	-12.8133
蕆	-12.8133
竝	-12.8133
荻	-12.8134
巘	-12.8134
彪	-12.8135
槲	-12.8136
璿	-12.8136
蜄	-12.8137
侑	-12.8138
仄	-12.8138
坰	-12.8139
硌	-12.8141
踉	-12.8142
豊	-12.8143
鼪	-12.8145
頴	-12.8146
嫂	-12.8146
蜴	-12.8152
蜥	-12.8154
薔	-12.8155
芣	-12.8155
扑	-12.8165
跗	-12.8717
蠋	-12.8722
欖	-12.8726
咶	-12.873
蕙	-12.873
鵒	-12.8732
薩	-12.8732
酲	-12.8732
騶	-12.8733
熠	-12.8733
棰	-12.8734
戡	-12.8734
諳	-12.8734
䕫	-12.8734
薷	-12.8735
羙	-12.8736
㼜	-12.8737
兾	-12.8737
㢘	-12.8737
塢	-12.8738
塪	-12.8738
悒	-12.874
㐫	-12.8741
珉	-12.8741
饉	-12.8742
圮	-12.8742
轢	-12.8743
椁	-12.8744
鉉	-12.8745
裾	-12.8746
慇	-12.8746
臝	-12.8746
嶂	-12.8746
茀	-12.8746
褻	-12.8747
荄	-12.8747
棅	-12.8747
嬖	-12.8748
頞	-12.8748
膊	-12.8749
噪	-12.8749
葩	-12.8749
譛	-12.8749
捄	-12.875
鯈	-12.875
惇	-12.875
喎	-12.8751
𨇤	-12.8751
鸜	-12.8751
搦	-12.8751
驀	-12.8751
球	-12.8753
咺	-12.8753
灝	-12.8754
耼	-12.8754
蹠	-12.8755
璜	-12.8756
葍	-12.8756
幃	-12.8757
嗋	-12.8757
碏	-12.8757
縹	-12.8758
埅	-12.8758
与	-12.8758
吽	-12.8758
諉	-12.8759
𨽻	-12.8759
蕈	-12.876
拷	-12.876
惓	-12.876
啟	-12.8761
旻	-12.8761
廛	-12.8761
槔	-12.8762
閟	-12.8763
碭	-12.8764
誒	-12.8764
髁	-12.8765
袠	-12.8766
飱	-12.8766
仧	-12.8767
乱	-12.8767
舅	-12.8771
澇	-12.8774
刼	-12.8774
堈	-12.8789
奓	-12.879
罌	-12.9379
儷	-12.9381
虷	-12.9383
薟	-12.9387
橄	-12.939
楪	-12.9391
<	-12.9393
t	-12.9394
氲	-12.9394
滁	-12.9394
隷	-12.9395
麂	-12.9396
蠣	-12.9396
麪	-12.9397
鴣	-12.9398
鱧	-12.9398
瓞	-12.9399
攷	-12.9399
嘖	-12.9399
跱	-12.9399
觧	-12.9401
硯	-12.9401
鞏	-12.9402
茺	-12.9405
䙱	-12.9405
鍳	-12.9405
奩	-12.9407
墼	-12.9407
輓	-12.9407
餬	-12.9408
鷀	-12.9408
脰	-12.9409
韵	-12.9409
嵒	-12.9411
璈	-12.9411
茴	-12.9412
鬃	-12.9413
崎	-12.9413
櫨	-12.9413
澒	-12.9413
瘲	-12.9415
劎	-12.9415
譁	-12.9415
糅	-12.9415
齬	-12.9417
抜	-12.9417
漑	-12.9417
釬	-12.9418
扄	-12.9418
睠	-12.9418
齲	-12.9418
鷰	-12.9418
茙	-12.9419
閨	-12.9419
詁	-12.9419
樃	-12.9421
跽	-12.9421
袵	-12.9421
抃	-12.9422
鏁	-12.9422
峽	-12.9422
祜	-12.9422
黈	-12.9422
旭	-12.9422
鄠	-12.9422
鎒	-12.9423
蠪	-12.9423
旃	-12.9423
渻	-12.9426
僬	-12.9427
襦	-12.9427
苻	-12.9429
瑗	-12.9429
髐	-12.9429
𥝠	-12.9429
緳	-12.943
叡	-12.943
儆	-12.943
姣	-12.9431
怎	-12.9431
踦	-12.9432
詡	-12.9433
飦	-12.9433
稺	-12.9433
猬	-12.9434
喣	-12.9434
鋩	-12.9436
挨	-12.9436
龢	-12.9439
蹋	-12.944
鄱	-12.9442
弈	-12.9442
媪	-12.9444
痤	-12.9445
奡	-12.9452
倜	-13.0059
虆	-13.0081
瑯	-13.0098
犒	-13.0103
拉	-13.0108
臏	-13.0109
賃	-13.011
蚷	-13.011
橙	-13.0114
髲	-13.0114
攛	-13.0115
葜	-13.0117
嶸	-13.0118
曦	-13.0118
鷸	-13.0119
鴛	-13.0119
躩	-13.0119
烽	-13.0121
燾	-13.0121
䠱	-13.0121
邙	-13.0122
闌	-13.0122
𠃔	-13.0122
誫	-13.0123
估	-13.0124
䑓	-13.0124
攄	-13.0125
嵌	-13.0125
惾	-13.0125
顪	-13.0125
喋	-13.0125
搧	-13.0125
鰓	-13.0126
螭	-13.0126
虀	-13.0127
逈	-13.0127
菝	-13.0128
偆	-13.0129
礱	-13.0129
颺	-13.013
瘼	-13.0131
倀	-13.0132
軛	-13.0132
𥐻	-13.0132
帚	-13.0133
賚	-13.0134
万	-13.0134
肔	-13.0134
熳	-13.0135
絺	-13.0136
蕢	-13.0136
抶	-13.0136
簟	-13.0136
櫚	-13.0137
僭	-13.0137
奶	-13.0137
締	-13.0137
翎	-13.0138
芡	-13.0138
諈	-13.0138
叵	-13.0139
棕	-13.0139
爇	-13.014
胙	-13.0141
厯	-13.0141
顱	-13.0141
捋	-13.0141
揔	-13.0142
濩	-13.0143
眂	-13.0143
箰	-13.0143
夬	-13.0144
隈	-13.0146
甎	-13.0146
讖	-13.0147
裨	-13.0148
訐	-13.0151
鮫	-13.0152
攩	-13.0152
擷	-13.0152
痓	-13.0152
呂	-13.0154
圊	-13.0156
丰	-13.0168
恆	-13.0168
䜟	-13.0168
『	-13.0172
嚗	-13.0172
苢	-13.0173
訑	-13.018
蠏	-13.0842
稌	-13.085
㐲	-13.0855
痍	-13.0863
蘚	-13.0865
焫	-13.0868
瑱	-13.0869
譲	-13.0873
煢	-13.0875
坵	-13.0876
鷓	-13.0878
悄	-13.0878
諶	-13.0878
瘇	-13.0879
邅	-13.0881
曖	-13.0882
凹	-13.0883
檮	-13.0883
嶇	-13.0883
墾	-13.0884
佃	-13.0884
灘	-13.0885
蜇	-13.0885
悋	-13.0886
黂	-13.0886
簠	-13.0886
腮	-13.0887
崤	-13.0887
豀	-13.0888
逓	-13.0889
鐸	-13.0889
撑	-13.089
謇	-13.0891
猖	-13.0891
塹	-13.0891
杌	-13.0892
鄽	-13.0892
歔	-13.0892
錡	-13.0893
𤴯	-13.0893
穅	-13.0894
踒	-13.0894
踆	-13.0894
闥	-13.0895
嘲	-13.0896
腪	-13.0897
㹖	-13.0897
邳	-13.0898
揠	-13.0898
腭	-13.0899
痱	-13.09
趁	-13.0901
曁	-13.0901
偯	-13.0901
磑	-13.0901
殙	-13.0902
廩	-13.0902
囉	-13.0902
嘴	-13.0902
欝	-13.0902
疔	-13.0903
爼	-13.0903
庥	-13.0903
擪	-13.0903
袒	-13.0904
卸	-13.0905
鏘	-13.0905
撿	-13.0905
楅	-13.0905
皃	-13.0905
隲	-13.0906
卭	-13.0907
瓌	-13.0908
扢	-13.0908
磻	-13.0908
泙	-13.091
蹕	-13.0911
愎	-13.0911
勌	-13.0912
伉	-13.0912
幟	-13.0913
稯	-13.0913
侫	-13.0913
邂	-13.0914
囯	-13.0914
喀	-13.0915
䗪	-13.0915
桷	-13.0915
肓	-13.0918
暋	-13.0918
㧙	-13.0919
帠	-13.0919
蝓	-13.092
懵	-13.0921
䖟	-13.0921
抌	-13.0922
伇	-13.0922
懁	-13.0922
璀	-13.0922
禋	-13.0922
椑	-13.0923
」	-13.0924
婩	-13.0924
擉	-13.0924
駱	-13.0925
蹀	-13.0926
𧓽	-13.0928
蛉	-13.0928
犗	-13.0929
蒁	-13.0934
媵	-13.0936
丌	-13.0937
羭	-13.0939
蚈	-13.094
豔	-13.0942
𣎭	-13.0944
咋	-13.1685
蕡	-13.17
𨭊	-13.1702
汀	-13.171
壮	-13.1713
晁	-13.1714
蚧	-13.1714
韮	-13.1714
㲉	-13.1715
媌	-13.1715
紱	-13.1716
碍	-13.1716
鑛	-13.1717
彚	-13.1717
鏐	-13.1718
婿	-13.1719
澍	-13.1721
乹	-13.1721
瑿	-13.1721
羮	-13.1721
岷	-13.1721
秬	-13.1721
伶	-13.1723
柝	-13.1723
祒	-13.1723
勖	-13.1724
濰	-13.1724
鑣	-13.1725
藾	-13.1725
鷺	-13.1725
簋	-13.1725
篙	-13.1726
舩	-13.1726
㓙	-13.1726
駞	-13.1728
碓	-13.1728
謄	-13.1729
嵯	-13.1729
屩	-13.173
鄴	-13.173
儡	-13.173
緲	-13.173
蹏	-13.1731
断	-13.1731
琦	-13.1732
儌	-13.1733
橑	-13.1733
琚	-13.1734
巇	-13.1735
洄	-13.1735
翬	-13.1736
謢	-13.1736
褰	-13.1736
崛	-13.1737
祼	-13.1737
冇	-13.1738
嘽	-13.1738
租	-13.1738
琬	-13.1738
渫	-13.1739
轊	-13.1739
庠	-13.1739
菠	-13.1739
餚	-13.1739
呦	-13.174
氓	-13.1742
拖	-13.1742
另	-13.1743
噞	-13.1743
俸	-13.1743
礨	-13.1745
睪	-13.1745
掀	-13.1745
貍	-13.1745
蓐	-13.1748
垺	-13.1749
惙	-13.1749
瑣	-13.1749
䏶	-13.175
脈	-13.175
𠎝	-13.1752
皞	-13.1753
窕	-13.1753
媿	-13.1754
眲	-13.1754
刹	-13.1754
芿	-13.1756
裋	-13.1756
雽	-13.1759
䈽	-13.1764
𤓸	-13.1766
醖	-13.1767
麃	-13.1792
礜	-13.2603
簽	-13.2609
獦	-13.2609
廨	-13.2612
㵼	-13.2612
蜿	-13.2616
夥	-13.2617
渌	-13.2618
尭	-13.2618
抇	-13.2618
殳	-13.2619
朏	-13.2619
磈	-13.262
弸	-13.262
讐	-13.2621
衫	-13.2621
麯	-13.2622
嚚	-13.2623
齅	-13.2624
榱	-13.2625
聮	-13.2625
滎	-13.2627
鶬	-13.2628
䡖	-13.2628
荃	-13.263
眦	-13.263
飥	-13.263
湏	-13.2631
詖	-13.2631
阼	-13.2632
皡	-13.2632
鮀	-13.2632
怊	-13.2632
祧	-13.2633
㳂	-13.2634
蚺	-13.2634
㡳	-13.2635
洮	-13.2635
蕖	-13.2636
䱔	-13.2636
綖	-13.2636
腧	-13.2637
鱺	-13.2637
囈	-13.2637
揷	-13.2637
鞫	-13.2637
啽	-13.2637
𤬏	-13.2637
煿	-13.2638
壌	-13.2638
臾	-13.2638
鈕	-13.2638
慜	-13.2638
簸	-13.2639
籲	-13.2639
晻	-13.264
峗	-13.2641
鰕	-13.2641
灣	-13.2641
陔	-13.2641
夣	-13.2641
圯	-13.2642
夐	-13.2643
嶲	-13.2644
摺	-13.2644
厓	-13.2644
鬯	-13.2645
泏	-13.2645
獒	-13.2645
盩	-13.2645
哮	-13.2646
店	-13.2647
躄	-13.2648
肄	-13.2648
齦	-13.2649
趂	-13.2649
嘏	-13.2649
厔	-13.265
搯	-13.265
穬	-13.265
宓	-13.265
檝	-13.2651
甀	-13.2652
淆	-13.2652
𥘉	-13.2653
㖟	-13.2653
褓	-13.2653
綰	-13.2654
纘	-13.2655
旆	-13.2655
淛	-13.2655
杻	-13.2655
螿	-13.2655
冡	-13.2655
凊	-13.2655
賭	-13.2656
㰱	-13.2657
擗	-13.2657
枅	-13.2658
獰	-13.2659
玻	-13.2659
嚏	-13.266
懣	-13.2661
癕	-13.2661
咯	-13.2663
飜	-13.2664
躐	-13.2664
鞨	-13.2664
痙	-13.2665
窊	-13.2666
蛞	-13.2667
琮	-13.2669
賙	-13.267
嬀	-13.2671
踔	-13.2672
蓁	-13.2672
皐	-13.2673
邾	-13.2674
咲	-13.2675
𡷮	-13.2675
藊	-13.2677
謔	-13.268
䖝	-13.3599
銲	-13.3601
瞥	-13.3605
瑘	-13.3607
鼹	-13.3607
盬	-13.3608
唏	-13.3613
𡖖	-13.3614
褙	-13.3617
塲	-13.3619
煻	-13.3619
荳	-13.3619
獯	-13.3622
澮	-13.3623
嗷	-13.3623
暦	-13.3624
噣	-13.3624
舁	-13.3626
俶	-13.3627
両	-13.3627
坭	-13.3627
𤸷	-13.3628
裛	-13.3628
剜	-13.3629
摹	-13.3629
瑛	-13.363
蟇	-13.363
沁	-13.363
疚	-13.3631
忖	-13.3631
矮	-13.3631
𧮒	-13.3631
儽	-13.3632
牋	-13.3632
涫	-13.3632
狢	-13.3633
岌	-13.3633
醎	-13.3634
弰	-13.3634
慓	-13.3634
瑁	-13.3634
桉	-13.3634
楠	-13.3634
飆	-13.3635
䚦	-13.3635
佾	-13.3636
僮	-13.3636
虓	-13.3636
䒽	-13.3637
昱	-13.3637
冺	-13.3637
𪒟	-13.3638
啘	-13.3638
徜	-13.3639
㹠	-13.3639
檉	-13.3639
穊	-13.3639
扛	-13.364
湫	-13.364
瞍	-13.364
鸒	-13.364
旙	-13.364
𨇠	-13.364
齆	-13.364
浼	-13.3642
襖	-13.3643
捩	-13.3643
闍	-13.3643
撚	-13.3643
㟪	-13.3645
湎	-13.3646
雇	-13.3646
讟	-13.3646
勦	-13.3647
鉏	-13.3647
荗	-13.3647
蟣	-13.3647
媸	-13.3648
寖	-13.3648
帕	-13.3648
莱	-13.3648
櫸	-13.3648
蠃	-13.3649
巉	-13.3649
踠	-13.3649
菆	-13.3649
㒺	-13.3649
薳	-13.365
杲	-13.365
剸	-13.3652
瞢	-13.3653
埶	-13.3653
罍	-13.3653
閈	-13.3653
殲	-13.3654
薹	-13.3654
园	-13.3654
㨿	-13.3655
齓	-13.3655
撽	-13.3655
躶	-13.3656
烙	-13.3656
逋	-13.3657
勣	-13.3658
辴	-13.3659
撼	-13.366
㸑	-13.3661
𣙁	-13.3662
薌	-13.3664
𡜍	-13.3664
亹	-13.3665
媠	-13.3666
畆	-13.3666
黧	-13.3668
媱	-13.3669
傭	-13.3672
捃	-13.3673
踟	-13.3675
椅	-13.3676
榷	-13.3677
蜻	-13.3678
敚	-13.3698
堡	-13.37
鮧	-13.4707
佘	-13.4715
慱	-13.4717
姥	-13.4717
薁	-13.4721
孾	-13.4721
蘡	-13.4722
麺	-13.4722
鄜	-13.4725
紵	-13.4726
J	-13.4729
変	-13.473
穄	-13.473
N	-13.473
U	-13.473
颯	-13.4731
錮	-13.4731
臉	-13.4731
𩀱	-13.4732
A	-13.4732
綾	-13.4734
詶	-13.4735
笳	-13.4735
晳	-13.4736
哯	-13.4737
睟	-13.4739
簁	-13.4739
鰲	-13.4739
蠁	-13.474
㪷	-13.474
欹	-13.474
乕	-13.474
紇	-13.474
挻	-13.4741
錣	-13.4741
燬	-13.4741
痴	-13.4742
箒	-13.4742
贐	-13.4743
隽	-13.4743
顥	-13.4744
獪	-13.4744
㨂	-13.4744
莠	-13.4744
烜	-13.4745
鍰	-13.4745
厖	-13.4745
篁	-13.4746
辤	-13.4746
咈	-13.4746
霫	-13.4746
㕝	-13.4747
撩	-13.4747
蚖	-13.4747
堁	-13.4747
蒨	-13.4747
擂	-13.4747
荇	-13.4747
爕	-13.4748
荂	-13.4748
囬	-13.4748
繻	-13.4748
熛	-13.4748
哥	-13.4748
獮	-13.4749
欸	-13.4749
搭	-13.475
俵	-13.475
坪	-13.4751
𩑺	-13.4751
漣	-13.4751
唉	-13.4751
朦	-13.4752
𡻕	-13.4752
秕	-13.4752
緱	-13.4752
軬	-13.4752
祓	-13.4753
怜	-13.4753
杘	-13.4753
呰	-13.4753
軺	-13.4753
鵾	-13.4755
疪	-13.4755
巔	-13.4756
銓	-13.4756
冽	-13.4756
厘	-13.4757
嚢	-13.4758
隹	-13.4758
縗	-13.4758
号	-13.4758
𩐋	-13.4759
瑙	-13.4759
懶	-13.4759
柞	-13.4759
鐐	-13.4759
痣	-13.476
籧	-13.476
犇	-13.476
涖	-13.4761
邐	-13.4761
虖	-13.4762
闓	-13.4762
懯	-13.4762
憋	-13.4763
攜	-13.4763
叮	-13.4763
瘛	-13.4763
睱	-13.4763
遟	-13.4764
砰	-13.4764
麞	-13.4764
惼	-13.4765
芟	-13.4765
煤	-13.4765
靴	-13.4766
笮	-13.4767
咏	-13.4767
猋	-13.4768
㺒	-13.4768
藂	-13.477
壻	-13.477
訃	-13.477
穽	-13.4771
昀	-13.4771
剗	-13.4771
蓆	-13.4773
昵	-13.4774
刎	-13.4774
溏	-13.4777
魋	-13.4777
敍	-13.4778
胣	-13.4779
嚬	-13.4779
猘	-13.4782
腿	-13.4783
秱	-13.4783
塤	-13.4783
娉	-13.4785
腔	-13.4786
墝	-13.4787
甔	-13.4788
暹	-13.479
堦	-13.4792
姙	-13.5924
鼺	-13.5937
腽	-13.5949
螃	-13.5954
羗	-13.5964
螤	-13.5967
淀	-13.5967
飰	-13.5969
哪	-13.5969
攔	-13.5971
煇	-13.5971
侃	-13.5972
𣈆	-13.5975
𢖍	-13.5975
䄂	-13.5976
憣	-13.5977
秔	-13.5978
嘅	-13.5979
彬	-13.598
淒	-13.5981
詧	-13.5982
絢	-13.5985
垤	-13.5986
矌	-13.5986
种	-13.5986
尪	-13.5987
攙	-13.5987
䙝	-13.5988
郗	-13.5988
肸	-13.5988
丫	-13.5988
謪	-13.5988
嵁	-13.5988
沚	-13.5988
𩐒	-13.5988
鶯	-13.599
抬	-13.599
煽	-13.599
輭	-13.5991
熄	-13.5991
𢶞	-13.5991
𠕏	-13.5992
酈	-13.5992
姹	-13.5992
窑	-13.5992
遌	-13.5992
䗫	-13.5992
弣	-13.5992
薉	-13.5992
殍	-13.5993
莆	-13.5993
颼	-13.5993
秠	-13.5993
泒	-13.5994
禇	-13.5994
籖	-13.5994
祺	-13.5994
吮	-13.5994
蜆	-13.5995
鼐	-13.5995
塈	-13.5996
痎	-13.5996
侶	-13.5996
矗	-13.5996
幄	-13.5996
顇	-13.5996
癜	-13.5996
鉟	-13.5996
綈	-13.5997
磕	-13.5997
淊	-13.5997
苽	-13.5998
鴽	-13.5998
𡱁	-13.5998
䦨	-13.5998
晒	-13.5998
俔	-13.5998
齔	-13.5999
衲	-13.5999
覇	-13.5999
憙	-13.6
壍	-13.6
蚑	-13.6
殼	-13.6001
㩉	-13.6001
櫾	-13.6003
氅	-13.6003
髏	-13.6003
螣	-13.6005
惽	-13.6005
霰	-13.6005
坌	-13.6005
柟	-13.6005
鱓	-13.6005
狷	-13.6005
羇	-13.6006
麇	-13.6006
尙	-13.6006
悱	-13.6006
蟮	-13.6006
鋋	-13.6006
繄	-13.6006
楨	-13.6007
殰	-13.6007
棼	-13.6007
蠊	-13.6007
阸	-13.6007
鎧	-13.6007
枹	-13.6007
鄢	-13.6007
徯	-13.6008
髫	-13.6008
嶼	-13.6008
籛	-13.6009
謭	-13.6009
輴	-13.601
宼	-13.601
済	-13.601
紼	-13.601
摰	-13.6011
涂	-13.6011
翡	-13.6013
薈	-13.6013
趻	-13.6013
瞶	-13.6014
𡟬	-13.6014
蜾	-13.6014
蛺	-13.6014
購	-13.6015
汹	-13.6016
蕳	-13.6016
珂	-13.6017
婑	-13.6017
跎	-13.6018
嚀	-13.6019
栲	-13.602
胕	-13.602
賖	-13.6021
螋	-13.6022
惸	-13.6022
菵	-13.6023
妓	-13.6023
氿	-13.6023
㿉	-13.6024
耑	-13.6024
䜛	-13.6024
崙	-13.6024
勻	-13.6024
棹	-13.6025
遒	-13.6027
㤉	-13.6028
澱	-13.6029
磎	-13.6029
禨	-13.6029
繰	-13.603
愡	-13.6032
窻	-13.6033
椰	-13.6034
椆	-13.6035
蓺	-13.6036
靨	-13.6037
蜓	-13.604
殶	-13.6047
鯪	-13.6054
軵	-13.606
𢮞	-13.6066
珓	-13.7355
𦕈	-13.7366
朒	-13.7376
菣	-13.7376
顴	-13.7377
芄	-13.7383
氤	-13.7384
稈	-13.7385
帯	-13.7389
塌	-13.739
兠	-13.7391
糈	-13.7392
菅	-13.7394
綃	-13.7395
竃	-13.7396
鋃	-13.7399
㾓	-13.7402
琭	-13.7403
餺	-13.7404
鼢	-13.7407
儂	-13.7408
圀	-13.7408
蝤	-13.741
徠	-13.741
纜	-13.7411
蜉	-13.7411
㱕	-13.7412
姧	-13.7413
磧	-13.7413
隐	-13.7414
鬧	-13.7415
鵙	-13.7415
瀕	-13.7415
禰	-13.7415
苐	-13.7415
輈	-13.7415
霾	-13.7415
矻	-13.7415
揪	-13.7416
鏟	-13.7416
𤊨	-13.7416
烊	-13.7417
倅	-13.7417
湔	-13.7418
醺	-13.7419
姮	-13.7419
躰	-13.7421
漙	-13.7421
㮣	-13.7421
礎	-13.7421
鬆	-13.7421
栱	-13.7422
闃	-13.7422
髦	-13.7422
郟	-13.7423
暵	-13.7423
鞘	-13.7423
樏	-13.7423
糗	-13.7424
釭	-13.7424
涪	-13.7424
栟	-13.7424
䆴	-13.7425
秣	-13.7426
洸	-13.7426
瘈	-13.7426
燉	-13.7427
驃	-13.7427
癯	-13.7427
磒	-13.7427
顦	-13.7428
薐	-13.7428
崒	-13.7428
眊	-13.7429
檏	-13.7429
萋	-13.7429
苘	-13.7429
襪	-13.7429
籃	-13.743
仝	-13.743
扺	-13.743
絛	-13.743
旴	-13.743
棖	-13.7431
恫	-13.7431
斐	-13.7431
崿	-13.7431
朞	-13.7432
髑	-13.7432
盾	-13.7432
馹	-13.7432
胖	-13.7432
卽	-13.7433
軨	-13.7433
痪	-13.7433
晤	-13.7433
饘	-13.7433
桄	-13.7435
俳	-13.7435
箬	-13.7435
瀚	-13.7436
搣	-13.7436
剝	-13.7436
礲	-13.7436
蕺	-13.7437
棁	-13.7437
簒	-13.7437
冊	-13.7437
秊	-13.7438
㯓	-13.7439
螽	-13.7439
軤	-13.7439
𠔃	-13.7441
剃	-13.7441
㳟	-13.7441
芺	-13.7441
堙	-13.7441
珎	-13.7442
扳	-13.7442
炅	-13.7442
幪	-13.7442
慬	-13.7442
鄔	-13.7442
铘	-13.7442
墆	-13.7443
搐	-13.7444
霶	-13.7444
飪	-13.7444
缷	-13.7444
湢	-13.7445
篾	-13.7445
䵷	-13.7445
戄	-13.7445
蟧	-13.7445
賡	-13.7445
殮	-13.7446
腕	-13.7446
蛁	-13.7447
埿	-13.7448
娗	-13.7448
昡	-13.7448
㖥	-13.7448
帙	-13.7448
眈	-13.7448
曡	-13.7449
昰	-13.745
簑	-13.745
蕚	-13.7451
嚨	-13.7451
凾	-13.7451
婺	-13.7452
眵	-13.7453
櫝	-13.7453
瑄	-13.7454
洙	-13.7454
㤋	-13.7454
嘹	-13.7455
礼	-13.7456
臞	-13.7456
穏	-13.7457
譌	-13.746
貙	-13.746
癊	-13.746
逵	-13.7461
磊	-13.7462
氂	-13.7463
喏	-13.7465
装	-13.7465
淤	-13.7466
仭	-13.747
胑	-13.7471
墯	-13.7479
繋	-13.7482
欎	-13.9043
葘	-13.9048
鮎	-13.9049
佻	-13.905
惵	-13.9055
𤚩	-13.9057
閾	-13.906
硤	-13.9061
醽	-13.9065
魃	-13.9065
袌	-13.9066
娟	-13.9066
蚝	-13.9066
亣	-13.9067
斿	-13.9068
惆	-13.9068
癎	-13.9069
樿	-13.9069
攵	-13.9071
昜	-13.9072
棃	-13.9073
蹂	-13.9073
桲	-13.9073
挿	-13.9073
炤	-13.9074
𥨸	-13.9076
髠	-13.9076
捘	-13.9076
艘	-13.9076
㢤	-13.9077
鑴	-13.9078
鑢	-13.9078
蒳	-13.9078
泱	-13.9079
囟	-13.908
坩	-13.908
騂	-13.9081
幬	-13.9081
狁	-13.9081
爬	-13.9081
瓚	-13.9081
蜊	-13.9082
縟	-13.9082
𡈗	-13.9082
苒	-13.9083
鑞	-13.9084
彧	-13.9084
蚶	-13.9084
俓	-13.9085
曙	-13.9085
蒚	-13.9085
犴	-13.9086
𧆐	-13.9086
𢹂	-13.9087
堕	-13.9087
腆	-13.9087
鳬	-13.9087
熯	-13.9087
橓	-13.9087
樁	-13.9088
狖	-13.9088
嘈	-13.9088
髼	-13.9088
搬	-13.9089
鱸	-13.9089
圏	-13.9089
傜	-13.9089
𥿄	-13.9089
𥺀	-13.9089
邯	-13.9089
𦽏	-13.9089
梔	-13.909
燖	-13.909
揃	-13.909
橜	-13.909
雋	-13.9091
蚘	-13.9091
咮	-13.9091
鏹	-13.9091
𧮼	-13.9091
俆	-13.9091
齪	-13.9091
猱	-13.9092
韁	-13.9092
痁	-13.9092
脘	-13.9092
㗖	-13.9092
尟	-13.9093
懹	-13.9093
飩	-13.9093
嶢	-13.9093
欀	-13.9093
薜	-13.9093
磵	-13.9094
餛	-13.9094
繽	-13.9094
倆	-13.9094
碟	-13.9094
姆	-13.9095
罥	-13.9095
苪	-13.9095
轗	-13.9095
縲	-13.9095
鬟	-13.9095
檽	-13.9095
蕕	-13.9096
踪	-13.9096
獗	-13.9096
菾	-13.9096
幛	-13.9097
牁	-13.9097
亾	-13.9097
圻	-13.9098
噩	-13.9099
㪚	-13.9099
懔	-13.9099
惧	-13.9099
鸚	-13.91
毉	-13.91
湄	-13.91
覊	-13.91
牯	-13.91
蠼	-13.9101
瀬	-13.9101
澣	-13.9101
綠	-13.9101
蘹	-13.9101
蓴	-13.9102
儁	-13.9102
匾	-13.9102
䨱	-13.9102
嫄	-13.9102
徬	-13.9102
牓	-13.9103
佪	-13.9103
恓	-13.9103
覔	-13.9104
鬽	-13.9104
蚰	-13.9104
鈸	-13.9104
糶	-13.9105
咂	-13.9105
寗	-13.9106
葒	-13.9106
夤	-13.9106
矚	-13.9107
麹	-13.9107
埜	-13.9108
噍	-13.9108
樲	-13.9108
擡	-13.9109
叓	-13.9109
耋	-13.9111
斆	-13.9111
澌	-13.9111
癉	-13.9111
騃	-13.9111
慵	-13.9111
沭	-13.9111
綻	-13.9112
蝭	-13.9112
鈺	-13.9112
滾	-13.9113
罋	-13.9113
么	-13.9114
栘	-13.9114
楔	-13.9114
庳	-13.9114
声	-13.9115
獘	-13.9115
餠	-13.9115
覼	-13.9116
鱐	-13.9116
𧷤	-13.9117
懊	-13.9118
腒	-13.9118
罦	-13.9118
貰	-13.9118
㩁	-13.9118
暌	-13.9119
魴	-13.9119
㱙	-13.9119
酩	-13.912
搓	-13.912
歿	-13.9121
㕔	-13.9121
綌	-13.9122
𢡚	-13.9122
伹	-13.9123
耍	-13.9124
礛	-13.9124
瘭	-13.9126
崞	-13.9127
旰	-13.9127
昕	-13.9127
鉼	-13.913
濼	-13.913
燐	-13.9132
劃	-13.9133
虙	-13.9134
𨅊	-13.9141
猯	-13.9142
蕒	-13.9142
䵍	-13.9143
瀰	-13.9145
掯	-13.9153
攴	-13.9159
妎	-13.9177
籮	-14.1037
焠	-14.1044
廋	-14.1044
焊	-14.1049
㴠	-14.1051
鍖	-14.1054
㬋	-14.1054
魖	-14.1054
鯸	-14.1055
榅	-14.1056
蜮	-14.1057
昻	-14.1063
鍚	-14.1063
𢍆	-14.1063
醶	-14.1064
聤	-14.1065
𨤲	-14.1067
䃩	-14.1068
鰿	-14.107
囓	-14.107
秆	-14.107
罇	-14.1071
蛹	-14.1071
䘵	-14.1072
姐	-14.1072
弶	-14.1072
膨	-14.1072
𦵧	-14.1072
瞎	-14.1073
菼	-14.1073
鍍	-14.1073
𩨒	-14.1073
楂	-14.1076
玆	-14.1076
祫	-14.1076
撙	-14.1078
睇	-14.1079
竚	-14.108
鰒	-14.108
驍	-14.108
蕁	-14.1081
辝	-14.1081
鉺	-14.1081
嵳	-14.1081
糒	-14.1081
沲	-14.1081
酎	-14.1081
陲	-14.1081
驤	-14.1081
畒	-14.1082
朶	-14.1083
砑	-14.1083
贜	-14.1083
鞾	-14.1084
膓	-14.1084
曈	-14.1084
藳	-14.1084
尠	-14.1084
賻	-14.1084
壩	-14.1084
抨	-14.1084
𠾱	-14.1084
敺	-14.1084
甯	-14.1084
齠	-14.1085
惒	-14.1085
㗳	-14.1085
𤑔	-14.1085
孱	-14.1086
𦐒	-14.1086
鑱	-14.1087
櫪	-14.1087
葑	-14.1087
雎	-14.1087
孥	-14.1088
畊	-14.1088
偪	-14.1088
尔	-14.1088
扱	-14.1088
熁	-14.1088
訒	-14.1088
㜽	-14.1089
矦	-14.1089
樛	-14.1089
皛	-14.1089
聼	-14.1089
佟	-14.1089
肶	-14.109
胵	-14.109
蓧	-14.109
靶	-14.109
慽	-14.109
堮	-14.109
惣	-14.1091
茈	-14.1091
鷖	-14.1091
蔢	-14.1091
鸂	-14.1091
餧	-14.1092
籜	-14.1092
駛	-14.1093
䳺	-14.1093
瞪	-14.1094
袴	-14.1094
禬	-14.1094
㽔	-14.1094
泫	-14.1094
鵡	-14.1095
洵	-14.1095
煏	-14.1095
頫	-14.1095
甍	-14.1095
仩	-14.1095
𩦲	-14.1095
飧	-14.1095
刅	-14.1095
蝣	-14.1096
餗	-14.1096
捭	-14.1096
曒	-14.1096
鰍	-14.1096
葝	-14.1096
訙	-14.1096
柎	-14.1097
烱	-14.1097
襜	-14.1097
蘺	-14.1097
縦	-14.1097
閴	-14.1097
剕	-14.1097
墽	-14.1097
鬣	-14.1097
蹌	-14.1097
嫰	-14.1098
緾	-14.1098
梘	-14.1098
霤	-14.1098
琱	-14.1099
擕	-14.1099
荊	-14.1099
帡	-14.11
蟁	-14.11
橇	-14.11
㩀	-14.1101
䆒	-14.1101
槳	-14.1101
貘	-14.1101
翾	-14.1101
彛	-14.1101
鏜	-14.1102
筏	-14.1102
涙	-14.1103
邲	-14.1103
箑	-14.1104
胇	-14.1104
皤	-14.1104
𢊍	-14.1104
琛	-14.1104
鯇	-14.1105
呶	-14.1105
戇	-14.1105
辠	-14.1105
桮	-14.1107
坻	-14.1107
欷	-14.1107
栨	-14.1107
苶	-14.1107
騭	-14.1107
𧮈	-14.1107
顗	-14.1107
莬	-14.1108
箎	-14.1108
蓀	-14.1108
䆫	-14.1108
舑	-14.1108
朧	-14.1108
鵓	-14.1109
毖	-14.1109
罣	-14.1109
峥	-14.1109
葅	-14.1109
迯	-14.1109
幞	-14.1109
嗥	-14.111
𥹋	-14.111
圗	-14.111
嶕	-14.111
蜞	-14.111
垽	-14.1111
藫	-14.1111
蟒	-14.1111
娫	-14.1111
仔	-14.1111
遻	-14.1111
餵	-14.1112
旍	-14.1112
蔾	-14.1113
磲	-14.1113
尢	-14.1113
錚	-14.1114
妒	-14.1114
庀	-14.1114
緗	-14.1114
羝	-14.1115
羃	-14.1115
掞	-14.1116
䲭	-14.1116
廿	-14.1116
摠	-14.1116
确	-14.1116
䐇	-14.1116
疴	-14.1116
喃	-14.1117
蔿	-14.1117
鐄	-14.1117
𡫩	-14.1117
栴	-14.1118
皸	-14.1118
饅	-14.1118
胯	-14.1118
寕	-14.1118
櫬	-14.1118
軆	-14.1118
襴	-14.1118
柵	-14.112
郿	-14.1121
駈	-14.1121
汭	-14.1121
雘	-14.1121
鄫	-14.1121
糴	-14.1122
盭	-14.1122
妲	-14.1123
筥	-14.1123
酗	-14.1123
喨	-14.1124
泚	-14.1124
𧙍	-14.1124
甿	-14.1125
頏	-14.1125
淣	-14.1126
稿	-14.1128
柬	-14.1129
𧣾	-14.1129
肧	-14.1131
蜡	-14.1131
丄	-14.1134
搴	-14.1135
絫	-14.1135
謠	-14.1136
晰	-14.1137
莙	-14.1137
柸	-14.1137
㕑	-14.1138
処	-14.1139
蘦	-14.1139
赩	-14.1141
犖	-14.1141
躃	-14.1142
翜	-14.1143
抔	-14.1145
絙	-14.1145
㨗	-14.1146
䢉	-14.115
錎	-14.1156
𥳑	-14.1157
䋤	-14.1161
爺	-14.1163
𣀮	-14.1167
檛	-14.351
疕	-14.3523
营	-14.3534
鏵	-14.3534
槵	-14.3542
臬	-14.3549
𦤺	-14.3553
蠉	-14.3554
𨫼	-14.3554
葇	-14.3556
癆	-14.3557
𥰾	-14.3557
棚	-14.3559
呢	-14.356
雰	-14.3561
䪻	-14.3561
屧	-14.3563
溽	-14.3564
祲	-14.3564
貂	-14.3565
𦔳	-14.3566
蔦	-14.3566
趯	-14.3566
𠨱	-14.3567
毘	-14.3567
愓	-14.3567
凸	-14.3568
夂	-14.3568
儐	-14.357
曀	-14.357
蜬	-14.357
蹐	-14.357
禘	-14.357
刓	-14.3571
劂	-14.3571
箆	-14.3572
鼯	-14.3574
蘞	-14.3574
忓	-14.3575
揫	-14.3575
躣	-14.3575
耔	-14.3576
鈹	-14.3577
弥	-14.3577
彄	-14.3577
摓	-14.3577
釗	-14.3578
塏	-14.3578
昳	-14.3578
仃	-14.3578
蚪	-14.3579
摙	-14.3579
獫	-14.3579
侏	-14.3581
沱	-14.3581
壝	-14.3581
嗈	-14.3581
哼	-14.3581
籀	-14.3582
盳	-14.3582
儇	-14.3582
唶	-14.3582
䀹	-14.3582
䢖	-14.3582
菖	-14.3583
彺	-14.3584
跼	-14.3584
鄲	-14.3584
䦘	-14.3584
醲	-14.3585
𠾑	-14.3585
晢	-14.3585
傋	-14.3585
帨	-14.3585
耴	-14.3585
莭	-14.3585
𦳓	-14.3586
潺	-14.3586
廱	-14.3586
淼	-14.3586
簜	-14.3586
䳵	-14.3586
湲	-14.3588
壄	-14.3588
纁	-14.3588
蓰	-14.3588
惲	-14.3588
焜	-14.3588
櫅	-14.3588
蘓	-14.3588
蟦	-14.3588
譾	-14.3589
𦵏	-14.3589
硜	-14.3589
駃	-14.3589
𥧌	-14.359
蟀	-14.359
蟋	-14.359
麰	-14.359
咥	-14.359
淇	-14.359
霣	-14.359
勔	-14.359
䈥	-14.359
粽	-14.359
蟖	-14.359
䌓	-14.3592
漭	-14.3592
厮	-14.3592
餙	-14.3592
昶	-14.3592
蛓	-14.3592
棓	-14.3592
㦧	-14.3592
螉	-14.3593
则	-14.3593
阯	-14.3593
惷	-14.3593
痠	-14.3593
褫	-14.3593
漳	-14.3593
蛅	-14.3593
錍	-14.3595
蠮	-14.3595
鱟	-14.3595
胰	-14.3595
枻	-14.3595
汐	-14.3595
淝	-14.3595
暭	-14.3595
剱	-14.3596
轑	-14.3596
瑪	-14.3596
泂	-14.3596
玠	-14.3596
肫	-14.3596
苖	-14.3596
据	-14.3596
蕓	-14.3596
漾	-14.3597
嫠	-14.3597
濓	-14.3597
魈	-14.3597
皶	-14.3597
𦼮	-14.3597
璹	-14.3599
羯	-14.3599
㾗	-14.3599
厤	-14.3599
苾	-14.3599
骿	-14.3599
㪍	-14.3599
頎	-14.3599
囁	-14.36
胴	-14.36
暐	-14.36
榧	-14.36
撅	-14.36
䓗	-14.36
沔	-14.36
筑	-14.36
鍤	-14.36
琯	-14.36
汛	-14.36
墅	-14.3601
烕	-14.3602
㶸	-14.3602
欂	-14.3602
輞	-14.3603
鵩	-14.3603
扭	-14.3604
瑜	-14.3604
邏	-14.3604
𧏙	-14.3604
鷲	-14.3604
篷	-14.3604
藙	-14.3604
菺	-14.3604
壎	-14.3606
𧄹	-14.3606
潯	-14.3606
𨋁	-14.3606
髄	-14.3607
鞹	-14.3607
镺	-14.3607
蕞	-14.3607
价	-14.3608
踁	-14.3608
爆	-14.3608
蹯	-14.3608
杆	-14.3609
歹	-14.3609
黽	-14.361
𤜦	-14.361
䬪	-14.361
軏	-14.361
皰	-14.361
萏	-14.361
輀	-14.361
韛	-14.361
饍	-14.361
柹	-14.361
菡	-14.3611
艫	-14.3611
酹	-14.3611
唆	-14.3611
詺	-14.3611
窆	-14.3613
𨓜	-14.3613
甽	-14.3613
莾	-14.3613
餋	-14.3613
魡	-14.3614
砭	-14.3614
刲	-14.3614
筎	-14.3614
𢇁	-14.3614
籄	-14.3614
蝛	-14.3614
塟	-14.3614
腂	-14.3615
猝	-14.3615
褭	-14.3615
𢬵	-14.3615
幔	-14.3617
誄	-14.3617
媛	-14.3617
獠	-14.3617
禩	-14.3617
鐙	-14.3618
䥶	-14.3618
𢽹	-14.3619
顉	-14.362
擥	-14.362
郯	-14.362
尫	-14.362
薙	-14.362
鞮	-14.362
嘒	-14.362
渑	-14.362
瘓	-14.362
謏	-14.3621
㿌	-14.3621
罳	-14.3621
竢	-14.3622
暎	-14.3622
蓻	-14.3622
遅	-14.3622
朘	-14.3622
勍	-14.3622
灤	-14.3622
𥉂	-14.3622
灞	-14.3624
戭	-14.3624
郴	-14.3624
餤	-14.3624
㒒	-14.3624
頺	-14.3624
緻	-14.3625
𥙿	-14.3625
闤	-14.3625
酊	-14.3625
嵎	-14.3626
刪	-14.3628
鵶	-14.3628
䖏	-14.3628
沅	-14.3629
篚	-14.3629
紉	-14.3629
垸	-14.363
𢘆	-14.3631
誾	-14.3631
呱	-14.3631
慠	-14.3631
訩	-14.3631
鰈	-14.3631
麛	-14.3632
㹨	-14.3632
蜱	-14.3632
瑤	-14.3632
匯	-14.3633
洑	-14.3633
窽	-14.3633
攅	-14.3635
黳	-14.3636
愬	-14.3636
鱖	-14.3636
㒷	-14.3638
䪡	-14.3638
𥻓	-14.3638
嗏	-14.3639
嶁	-14.3639
哨	-14.364
芼	-14.3642
獱	-14.3642
𠉣	-14.3643
楽	-14.3643
抐	-14.3643
迮	-14.3643
齗	-14.3644
捂	-14.3646
緹	-14.3646
榼	-14.3649
𪀢	-14.3652
蹰	-14.3654
腯	-14.3656
瀼	-14.3658
濂	-14.3662
鄖	-14.3663
薚	-14.3664
垝	-14.367
湌	-14.3672
淙	-14.3699
𡊨	-14.3758
嵸	-14.6822
䴢	-14.6853
凟	-14.6874
䤾	-14.6876
搨	-14.6878
幺	-14.688
䫥	-14.6882
嬋	-14.6885
胱	-14.6885
櫞	-14.6885
洊	-14.6887
犲	-14.6887
杴	-14.6887
溯	-14.6891
拋	-14.6893
怚	-14.6895
怗	-14.6895
样	-14.6895
堰	-14.6897
㘅	-14.6899
剏	-14.6899
嚕	-14.6899
奐	-14.6901
扒	-14.6903
濔	-14.6903
巗	-14.6903
戬	-14.6905
嶄	-14.6905
梂	-14.6905
汏	-14.6905
䪥	-14.6905
偵	-14.6907
㘭	-14.6907
宀	-14.6907
垕	-14.6907
孋	-14.6909
氍	-14.6909
汍	-14.6909
喰	-14.6909
坸	-14.6909
忲	-14.6909
揳	-14.6909
㧾	-14.691
咼	-14.6911
嬾	-14.6912
崧	-14.6912
怏	-14.6912
沷	-14.6912
㟡	-14.6912
嶔	-14.6914
敭	-14.6914
俙	-14.6914
厶	-14.6914
悁	-14.6914
楬	-14.6916
吥	-14.6918
寝	-14.6918
倥	-14.692
廽	-14.692
㿔	-14.692
䞇	-14.692
㩢	-14.692
湃	-14.692
妮	-14.692
毱	-14.692
【	-14.6921
㞢	-14.6922
牸	-14.6922
嘑	-14.6922
淰	-14.6922
㤥	-14.6922
囦	-14.6922
敘	-14.6922
桿	-14.6922
忪	-14.6924
俲	-14.6924
媙	-14.6924
娣	-14.6926
呀	-14.6926
洚	-14.6926
漪	-14.6926
牎	-14.6928
港	-14.6928
喂	-14.693
樺	-14.693
㿗	-14.693
悻	-14.693
曍	-14.693
啾	-14.693
䔍	-14.6932
唅	-14.6932
抺	-14.6932
濶	-14.6932
拶	-14.6934
澳	-14.6934
㑺	-14.6934
憮	-14.6934
噢	-14.6934
捆	-14.6934
呤	-14.6934
嗢	-14.6934
埀	-14.6934
枙	-14.6934
欓	-14.6935
滃	-14.6936
洳	-14.6936
妥	-14.6936
忉	-14.6936
嫚	-14.6937
妳	-14.6937
丱	-14.6937
殪	-14.6938
䜿	-14.6938
嶗	-14.6939
凳	-14.6939
憇	-14.6939
冏	-14.6939
幙	-14.6941
嘍	-14.6941
呲	-14.6941
䯻	-14.6941
槴	-14.6941
呆	-14.6943
䲴	-14.6943
㮏	-14.6943
咆	-14.6943
嚵	-14.6943
凷	-14.6945
䌝	-14.6945
啐	-14.6945
婣	-14.6945
嚲	-14.6945
斸	-14.6945
䐴	-14.6947
喆	-14.6947
䔲	-14.6947
堋	-14.6949
濺	-14.6949
爈	-14.6949
䱒	-14.6949
惉	-14.6951
兗	-14.6951
偄	-14.6951
崦	-14.6953
戱	-14.6953
挌	-14.6953
斌	-14.6953
牕	-14.6955
攉	-14.6955
榠	-14.6955
㭼	-14.6955
揍	-14.6957
撦	-14.6957
圑	-14.6959
杇	-14.6961
涔	-14.6961
傒	-14.6961
撕	-14.6963
呑	-14.6964
灊	-14.6964
䕋	-14.6964
斾	-14.6964
劳	-14.6966
恧	-14.6966
瀦	-14.6966
劙	-14.6968
檯	-14.6968
嚶	-14.6968
旤	-14.697
奣	-14.697
堌	-14.697
从	-14.6975
浡	-14.6978
䓪	-14.6978
嫦	-14.6978
峷	-14.6978
㱪	-14.6978
䂖	-14.698
峴	-14.698
椓	-14.698
䣩	-14.698
旧	-14.6982
栳	-14.6988
檠	-14.6991
劘	-14.6992
戳	-14.6995
浞	-14.6997
噁	-14.7003
搘	-14.7005
䌤	-14.7011
坋	-14.7011
槫	-14.7026
茱	-15.1918
膀	-15.1918
萸	-15.2003
慆	-16.1852
僿	-16.1853
㖒	-16.1854
𣧑	-16.1855
頣	-16.1856
硨	-16.1857
卨	-16.1858
䃴	-16.1859
㘨	-16.186
𨕣	-16.1861
暓	-16.1862
伀	-16.1863
鑲	-16.1864
恟	-16.1865
錕	-16.1866
鋙	-16.1867
郕	-16.1868
昲	-16.1869
𧣴	-16.187
颻	-16.1871
碼	-16.1872
碯	-16.1873
玳	-16.1874
狽	-16.1875
崢	-16.1876
閿	-16.1877
癹	-16.1878
𪀊	-16.1879
鶹	-16.188
瘂	-16.1881
逅	-16.1882
輆	-16.1883
慷	-16.1884
恝	-16.1885
鸕	-16.1886
萵	-16.1887
枇	-16.1888
嵛	-16.1889
>	-16.189
=	-16.1891
蝠	-16.1892
葙	-16.1893
檎	-16.1894
醐	-16.1895
蝴	-16.1896
蓿	-16.1897
苜	-16.1898
豌	-16.1899
蓖	-16.19
羑	-16.1901
嵋	-16.1902
衎	-16.1903
彿	-16.1904
"	-16.1905
蔯	-16.1906
螵	-16.1907
羚	-16.1908
麒	-16.1909
蚯	-16.191
靂	-16.1911
藶	-16.1912
葶	-16.1913
瑚	-16.1914
崆	-16.1915
琥	-16.1916
徘	-16.1917
涑	-16.1917
