<unk>	0
<s>	0
</s>	0
。	-1.90566
之	-4.47105
▁	-5.12859
以	-5.13003
曰	-5.1735
為	-5.20796
有	-5.22444
而	-5.29109
不	-5.29652
也	-5.3041
於	-5.35106
其	-5.36739
者	-5.37175
人	-5.44397
一	-5.48911
)	-5.6068
(	-5.61528
無	-5.65685
大	-5.6957
至	-5.79595
道	-5.80224
師	-5.81132
中	-5.86002
,	-5.86359
見	-5.87235
時	-5.9481
此	-5.94935
法	-5.95655
自	-5.95744
王	-5.97378
云	-6.02203
所	-6.02551
行	-6.02899
得	-6.0458
*	-6.04738
佛	-6.05808
生	-6.06332
心	-6.09123
寺	-6.0913
經	-6.10247
是	-6.10997
即	-6.12732
如	-6.13672
山	-6.13877
三	-6.14268
言	-6.17078
上	-6.17962
乃	-6.18303
出	-6.20608
後	-6.20809
在	-6.21408
與	-6.22141
則	-6.22884
來	-6.23309
僧	-6.26453
明	-6.29766
事	-6.30392
我	-6.31477
天	-6.34995
故	-6.36965
相	-6.37032
名	-6.38358
子	-6.38567
非	-6.41986
又	-6.42202
若	-6.43229
二	-6.43824
然	-6.44109
入	-6.46256
今	-6.46984
問	-6.47784
皆	-6.50159
因	-6.51602
下	-6.52012
及	-6.52875
聞	-6.54444
公	-6.56046
作	-6.56106
身	-6.56235
日	-6.56299
世	-6.56555
從	-6.58665
矣	-6.59013
可	-6.59124
諸	-6.59326
國	-6.59804
文	-6.6024
遂	-6.60313
當	-6.60517
眾	-6.60621
四	-6.62955
復	-6.63688
亦	-6.63813
同	-6.65442
五	-6.67282
本	-6.6787
知	-6.68665
成	-6.68693
神	-6.68695
處	-6.69177
何	-6.6962
欲	-6.70255
方	-6.70332
等	-6.71015
善	-6.72005
令	-6.72226
教	-6.73671
去	-6.73979
吾	-6.74036
前	-6.75148
汝	-6.75152
初	-6.75246
光	-6.75725
多	-6.76722
乎	-6.77189
安	-6.7926
宗	-6.79536
帝	-6.79553
論	-6.79983
義	-6.80116
化	-6.80252
書	-6.80635
未	-6.81493
正	-6.8279
常	-6.82955
居	-6.83154
請	-6.83354
說	-6.83374
門	-6.83425
將	-6.83717
高	-6.85016
傳	-6.85593
通	-6.86013
德	-6.8618
既	-6.86923
州	-6.8708
真	-6.88389
歸	-6.88507
立	-6.8883
年	-6.9044
住	-6.90613
往	-6.90753
能	-6.90818
謂	-6.90879
地	-6.9111
觀	-6.92526
焉	-6.92991
禪師	-6.94092
或	-6.94363
語	-6.94443
聖	-6.95174
還	-6.97202
命	-6.97538
學	-6.97734
會	-6.98473
法師	-7.01476
主	-7.0215
重	-7.02922
已	-7.02948
使	-7.03285
起	-7.03434
元	-7.03939
水	-7.04034
受	-7.04709
遠	-7.05392
金	-7.06248
便	-7.0665
異	-7.06822
開	-7.07333
信	-7.0829
應	-7.08637
禮	-7.09022
用	-7.10097
空	-7.10154
南	-7.10507
修	-7.10712
智	-7.10961
于	-7.11194
祖	-7.11527
家	-7.12048
意	-7.12079
西	-7.1309
盡	-7.13093
長	-7.133
願	-7.13424
求	-7.14119
風	-7.14185
雖	-7.14527
理	-7.14936
先	-7.15291
深	-7.16572
始	-7.16629
慧	-7.17544
必	-7.18286
過	-7.19245
物	-7.19266
隨	-7.19819
寶	-7.20142
定	-7.20598
巳	-7.20881
東	-7.21757
▁|	-7.23081
坐	-7.23453
清	-7.23621
雲	-7.23893
流	-7.23899
石	-7.24194
難	-7.24758
稱	-7.25491
玄	-7.26043
死	-7.26402
興	-7.27033
白	-7.27069
禪	-7.27111
著	-7.27154
六	-7.2723
業	-7.27527
聲	-7.28195
造	-7.28278
取	-7.28535
像	-7.2854
食	-7.29218
度	-7.29433
悟	-7.29482
覺	-7.29941
周	-7.30269
耳	-7.30346
分	-7.30626
奉	-7.31076
內	-7.32977
海	-7.33193
發	-7.33353
解	-7.33513
果	-7.33559
靈	-7.33673
七	-7.3403
十	-7.34316
廣	-7.34412
衣	-7.3446
萬	-7.34525
沙門	-7.35484
藏	-7.35772
氏	-7.36214
別	-7.36824
九	-7.36954
八	-7.37042
菩薩	-7.37222
字	-7.37321
彼	-7.37498
依	-7.3763
性	-7.38173
外	-7.38475
龍	-7.38788
數	-7.39003
詔	-7.39075
持	-7.39227
斯	-7.39354
頭	-7.39407
念	-7.39575
甚	-7.39756
舉	-7.3983
號	-7.40511
止	-7.40576
集	-7.4081
建	-7.41051
妙	-7.41517
小	-7.41824
形	-7.41841
夫	-7.4193
遊	-7.42049
弟子	-7.42234
戒	-7.42677
塔	-7.4291
且	-7.42922
實	-7.43638
向	-7.43827
福	-7.43978
出家	-7.44135
更	-7.44232
思	-7.44959
少	-7.45057
具	-7.45115
華	-7.45204
記	-7.46091
力	-7.46101
.	-7.46867
志	-7.47153
施	-7.47544
唐	-7.47569
夜	-7.4758
淨	-7.47685
凡	-7.47698
城	-7.47968
耶	-7.48069
釋	-7.48798
苦	-7.49578
忽	-7.50394
俗	-7.5063
朝	-7.51096
月	-7.5113
講	-7.52542
終	-7.54038
兩	-7.54161
合	-7.54879
達	-7.55028
絕	-7.55313
老	-7.55373
滅	-7.55805
和尚	-7.55968
哉	-7.56056
次	-7.56383
但	-7.56451
部	-7.56577
識	-7.56608
尋	-7.57076
緣	-7.57721
親	-7.57851
並	-7.58049
手	-7.58077
樂	-7.58491
每	-7.58637
錄	-7.58659
君	-7.58883
照	-7.58974
勝	-7.59548
平	-7.5965
色	-7.59714
誦	-7.59716
惡	-7.6002
林	-7.60144
間	-7.60538
敬	-7.60736
官	-7.60857
利	-7.61288
唯	-7.6186
百	-7.62182
漢	-7.62478
感	-7.6255
○	-7.62953
北	-7.63592
元年	-7.63643
堂	-7.63812
陳	-7.64203
口	-7.64487
莫	-7.64508
致	-7.64815
爾	-7.6494
足	-7.64988
齊	-7.65101
首	-7.65311
火	-7.65381
報	-7.65606
猶	-7.65863
遇	-7.65881
母	-7.6615
共	-7.66191
辭	-7.66233
要	-7.66446
甞	-7.66524
體	-7.6661
豈	-7.66613
歲	-7.66873
進	-7.67136
情	-7.67138
惟	-7.67273
路	-7.6729
參	-7.67318
天下	-7.67402
宜	-7.67823
香	-7.67889
極	-7.6791
夢	-7.6796
目	-7.6804
不可	-7.6806
昔	-7.68212
一日	-7.68294
不能	-7.68718
獨	-7.6881
都	-7.69069
餘	-7.69564
各	-7.69889
現	-7.70002
指	-7.70322
疑	-7.70637
好	-7.70659
顯	-7.71292
到	-7.71518
久	-7.7164
氣	-7.71987
千	-7.72004
女	-7.73321
懷	-7.73911
弘	-7.73968
服	-7.74061
羅	-7.74154
聽	-7.7425
宋	-7.74473
臣	-7.75906
和	-7.75916
殿	-7.75973
蓋	-7.75978
載	-7.76226
隱	-7.76246
離	-7.76275
寂	-7.76392
失	-7.76465
對	-7.76465
如來	-7.76584
姓	-7.76845
古	-7.77049
尚	-7.77287
院	-7.77334
由	-7.7793
俱	-7.7831
佛法	-7.78895
士	-7.789
加	-7.79004
勅	-7.79683
被	-7.79841
他	-7.7987
以為	-7.79902
卷	-7.80472
民	-7.80729
告	-7.80751
於是	-7.80921
治	-7.81339
乘	-7.81583
陽	-7.81639
張	-7.81742
壽	-7.82158
了	-7.82164
梁	-7.82625
嚴	-7.82765
病	-7.83078
尊	-7.83164
太	-7.8326
代	-7.83286
須	-7.83719
留	-7.83805
二年	-7.84243
師云	-7.84271
濟	-7.84478
就	-7.84941
宣	-7.85361
三年	-7.85425
證	-7.8563
永	-7.85632
賢	-7.86018
不得	-7.86128
望	-7.86137
益	-7.86225
樹	-7.86419
精	-7.8654
誠	-7.86884
盛	-7.87125
表	-7.87283
李	-7.87817
直	-7.8786
滿	-7.87864
許	-7.88008
遺	-7.88416
新	-7.88423
斷	-7.88725
咸	-7.89564
一切	-7.89857
罪	-7.89884
魏	-7.90293
賜	-7.90388
父	-7.90459
疾	-7.90537
如是	-7.90872
執	-7.90981
轉	-7.91103
引	-7.91495
却	-7.91673
登	-7.91957
易	-7.92061
室	-7.92185
晉	-7.92325
置	-7.9243
師曰	-7.92455
崇	-7.92747
臨	-7.92794
玉	-7.93389
舊	-7.9369
捨	-7.9399
孝	-7.94563
承	-7.95048
馬	-7.95735
旨	-7.95759
夏	-7.96064
破	-7.96214
動	-7.96378
功	-7.96394
圓	-7.96553
慈	-7.96584
普	-7.96597
守	-7.96712
眼	-7.96933
宮	-7.97801
改	-7.98478
宿	-7.98586
愛	-7.98908
延	-7.99046
位	-7.99369
江	-7.99495
存	-7.99575
土	-7.99707
河	-8.00259
武	-8.00404
音	-8.00763
亡	-8.00921
機	-8.01125
容	-8.012
授	-8.01754
素	-8.01826
供養	-8.01853
設	-8.0248
送	-8.02503
習	-8.02975
密	-8.02988
示	-8.03165
遣	-8.03165
并	-8.03593
靜	-8.03613
遷	-8.03863
召	-8.0425
遍	-8.0459
降	-8.04712
近	-8.04902
略	-8.0508
寧	-8.05507
惠	-8.05632
喜	-8.05928
木	-8.05953
座	-8.06045
儀	-8.06196
微	-8.0638
律	-8.06498
那	-8.06659
塵	-8.06678
悉	-8.06922
結	-8.07391
制	-8.0751
歷	-8.07541
順	-8.07642
皇	-8.07701
面	-8.08028
亂	-8.08742
譯	-8.08843
仁	-8.09196
散	-8.0937
雨	-8.09692
種	-8.09953
息	-8.10114
末	-8.10154
里	-8.1046
伏	-8.11935
品	-8.11971
辯	-8.12149
太子	-8.12156
齋	-8.1225
吳	-8.1234
源	-8.12754
變	-8.13098
任	-8.13151
畢	-8.13208
而不	-8.1337
護	-8.13517
疏	-8.13584
迎	-8.13832
峯	-8.13891
仰	-8.1429
境	-8.14375
念佛	-8.14422
卒	-8.14467
資	-8.14558
徒	-8.14562
答	-8.14674
眾生	-8.15051
舍	-8.15311
垂	-8.15357
兵	-8.15412
謝	-8.15444
黃	-8.15619
虎	-8.15875
殺	-8.16744
舍利	-8.16897
花	-8.17227
備	-8.17236
屬	-8.18565
視	-8.18645
所以	-8.18701
迹	-8.18989
期	-8.19151
除	-8.19256
拜	-8.19277
放	-8.19294
固	-8.19412
人也	-8.19493
府	-8.19617
投	-8.19688
慶	-8.19808
嗣	-8.19822
回	-8.19935
虛	-8.20234
史	-8.20609
殊	-8.20771
說法	-8.2091
不知	-8.20979
妄	-8.21178
景	-8.21277
詣	-8.21407
經一卷	-8.21782
類	-8.21905
超	-8.21939
端	-8.22034
劫	-8.22041
待	-8.22159
飛	-8.22189
秦	-8.22442
序	-8.22611
述	-8.2266
曾	-8.22717
菴	-8.23153
全	-8.23204
草	-8.23235
臺	-8.23464
巖	-8.23723
器	-8.23788
廢	-8.2379
群	-8.2406
供	-8.24312
啟	-8.24392
冥	-8.24513
章	-8.24555
幽	-8.24621
尊者	-8.24724
如此	-8.24822
青	-8.24978
印	-8.25295
接	-8.25299
恩	-8.25668
泉	-8.26414
窮	-8.26619
尼	-8.26834
毀	-8.26964
兼	-8.27036
比丘	-8.27215
儒	-8.27432
節	-8.27497
交	-8.27509
反	-8.27539
總	-8.27691
謁	-8.27984
看	-8.28024
大師	-8.28074
圖	-8.28207
波	-8.28283
獲	-8.28384
梵	-8.28478
退	-8.28521
奏	-8.28575
落	-8.29118
錢	-8.29217
運	-8.29408
鬼	-8.29671
推	-8.29913
淨土	-8.30643
根	-8.30748
恒	-8.30857
涅槃	-8.30933
積	-8.31054
象	-8.3116
昭	-8.31194
專	-8.31506
顧	-8.31518
美	-8.31742
脫	-8.31937
之所	-8.31942
特	-8.32026
驚	-8.32094
右	-8.3231
才	-8.32501
隋	-8.32812
談	-8.33029
蒙	-8.33137
布	-8.33327
郡	-8.33741
關	-8.33777
勸	-8.33926
似	-8.34055
貴	-8.34342
累	-8.34367
忘	-8.34523
兒	-8.34596
漸	-8.34786
政	-8.34853
阿	-8.35185
法華	-8.35362
邪	-8.35448
付	-8.3572
半	-8.35852
縣	-8.35869
仙	-8.35898
恐	-8.35987
誰	-8.36103
典	-8.3634
三藏	-8.36378
追	-8.3659
胡	-8.36867
華嚴	-8.36899
四年	-8.37069
封	-8.37146
提	-8.37157
侍	-8.37268
惑	-8.37343
棄	-8.37361
摩	-8.37724
議	-8.38113
彌	-8.38557
計	-8.38577
軍	-8.38649
辨	-8.3867
假	-8.38709
仍	-8.39074
七日	-8.39102
乞	-8.39335
隆	-8.39394
越	-8.39528
無所	-8.39855
偈	-8.39939
再	-8.40093
比	-8.40168
覩	-8.40199
功德	-8.40276
澄	-8.40516
秀	-8.4063
牛	-8.40714
移	-8.41026
陵	-8.41068
劉	-8.41323
驗	-8.41452
威	-8.41677
京	-8.41705
奇	-8.41873
骨	-8.41994
房	-8.42061
嘉	-8.42062
休	-8.42123
答曰	-8.42123
導	-8.42244
有一	-8.42363
愚	-8.42378
撰	-8.42463
悲	-8.42553
忠	-8.4265
頂	-8.42869
孫	-8.42928
御	-8.43318
婆	-8.43352
救	-8.43435
田	-8.43557
藥	-8.43611
領	-8.43619
迷	-8.44041
洞	-8.44047
簡	-8.44085
良	-8.44206
天竺	-8.44243
曇	-8.44422
步	-8.44499
池	-8.44559
左	-8.44575
句	-8.44787
讀	-8.44789
幸	-8.44948
輕	-8.45075
否	-8.45372
適	-8.45577
燈	-8.45667
勤	-8.45718
春	-8.46312
沒	-8.46522
列	-8.46574
榮	-8.46798
珠	-8.4688
權	-8.47032
谷	-8.47762
道士	-8.48017
雜	-8.48232
客	-8.48261
陀	-8.48264
聖人	-8.48371
問曰	-8.48426
昌	-8.48516
笑	-8.4899
邊	-8.49435
負	-8.49501
父母	-8.49691
揚	-8.50366
支	-8.50443
務	-8.50663
輪	-8.5075
松	-8.5088
覆	-8.51229
天台	-8.51318
生死	-8.51481
卿	-8.51583
不見	-8.51597
跡	-8.5177
陰	-8.51985
勞	-8.52204
切	-8.52255
嘗	-8.52346
契	-8.52352
味	-8.52413
只	-8.52498
臥	-8.52922
況	-8.53165
賊	-8.53171
頓	-8.53261
茲	-8.53501
司	-8.53703
原	-8.53785
尤	-8.54004
悅	-8.54221
愈	-8.54228
害	-8.545
打	-8.54539
一曰	-8.54576
唱	-8.54721
聚	-8.54772
大乘	-8.55012
省	-8.55114
如何	-8.55176
據	-8.55264
友	-8.55992
竟	-8.56004
世尊	-8.56125
詩	-8.56435
詳	-8.56596
養	-8.56637
庭	-8.56661
十二	-8.56684
般若	-8.56684
紀	-8.56799
約	-8.56807
給	-8.57184
金剛	-8.57198
連	-8.57278
攝	-8.57535
影	-8.57795
哀	-8.57795
增	-8.58069
庵	-8.58158
西方	-8.5819
朗	-8.58192
勿	-8.58201
今日	-8.58214
於此	-8.58242
界	-8.58314
慕	-8.58416
大士	-8.5872
游	-8.58794
繼	-8.58822
統	-8.59421
量	-8.59475
野	-8.59714
乾	-8.59772
喪	-8.59893
底	-8.599
幾	-8.59937
歎	-8.6015
冠	-8.60177
道場	-8.60338
五年	-8.60469
博	-8.60489
徵	-8.60501
患	-8.60633
符	-8.60759
楊	-8.60824
幼	-8.60874
想	-8.60984
墮	-8.61266
瑞	-8.61469
預	-8.61521
徹	-8.61765
英	-8.61826
五百	-8.61859
恭	-8.62069
寒	-8.62173
雪	-8.62212
舟	-8.62216
誓	-8.62432
寄	-8.62485
車	-8.62726
試	-8.62786
趣	-8.62804
虗	-8.62829
沙	-8.63515
充	-8.63815
六年	-8.63846
戶	-8.63879
呼	-8.64013
壞	-8.64618
續	-8.64689
康	-8.64896
光明	-8.6505
席	-8.6523
箇	-8.65314
最	-8.65365
堅	-8.6545
裏	-8.65523
川	-8.65589
弟	-8.65589
肉	-8.65916
三昧	-8.65958
、	-8.66667
禁	-8.66683
余	-8.66837
碑	-8.66909
溪	-8.67059
訪	-8.67181
菩提	-8.67512
衛	-8.67547
狀	-8.67639
趙	-8.67643
鉢	-8.67683
筆	-8.67801
欽	-8.67873
潛	-8.67949
決	-8.68205
注	-8.68484
納	-8.68659
赤	-8.68764
收	-8.68876
鼓	-8.68971
曉	-8.68976
鐵	-8.69086
所謂	-8.69278
浮	-8.69399
而去	-8.69762
泰	-8.69765
謹	-8.70037
園	-8.70109
諸佛	-8.70165
一人	-8.70208
闕	-8.70548
寫	-8.70753
忍	-8.71199
因緣	-8.71437
露	-8.71863
晚	-8.71887
背	-8.71937
鄉	-8.71951
居士	-8.72202
經云	-8.7227
演	-8.72329
早	-8.72549
屈	-8.72576
京師	-8.72674
孤	-8.72692
蜀	-8.72721
頗	-8.72807
三十	-8.72861
營	-8.72916
伯	-8.73019
至於	-8.73042
夷	-8.73203
朕	-8.73228
懼	-8.73258
廟	-8.73317
蘇	-8.73406
紫	-8.73425
側	-8.73497
閑	-8.73598
訓	-8.73827
之曰	-8.74177
釋迦	-8.74264
違	-8.74449
髮	-8.74465
宇	-8.74489
道俗	-8.74578
沈	-8.74589
祐	-8.746
附	-8.7471
出世	-8.74779
朱	-8.7487
頌	-8.7518
厚	-8.75483
涉	-8.75636
赴	-8.75661
鏡	-8.75662
敢	-8.75781
術	-8.76056
傷	-8.76268
基	-8.76408
祥	-8.76442
十年	-8.76459
宅	-8.76783
避	-8.76884
逢	-8.76939
曲	-8.7701
鎮	-8.77064
迴	-8.77345
輒	-8.77366
率	-8.77377
徐	-8.77697
躬	-8.777
呪	-8.7795
者也	-8.77967
三日	-8.78032
獻	-8.78142
融	-8.78213
保	-8.78258
縱	-8.78276
其所	-8.78307
遵	-8.78573
葉	-8.78617
阿難	-8.78789
皇帝	-8.79013
返	-8.79088
畫	-8.7911
學者	-8.79127
迦葉	-8.79175
天地	-8.79219
魚	-8.79396
詞	-8.79485
私	-8.79508
剎	-8.79559
吏	-8.7961
考	-8.79781
妻	-8.79802
補	-8.79854
邑	-8.79859
雅	-8.79897
默	-8.7993
二十	-8.80018
按	-8.8012
含	-8.803
究	-8.80324
葬	-8.80384
免	-8.80536
讚	-8.80589
爭	-8.80626
七年	-8.80676
黑	-8.80835
鳥	-8.80996
兄	-8.81026
振	-8.81226
澤	-8.81236
魔	-8.81238
觀音	-8.81492
掌	-8.81589
老子	-8.8173
」	-8.81751
。】「	-8.81863
西域	-8.81929
強	-8.81931
慮	-8.82132
莫不	-8.8216
洪	-8.82212
輩	-8.82372
痛	-8.82817
毒	-8.82862
之道	-8.829
徧	-8.83034
楚	-8.83045
秋	-8.8311
擊	-8.83188
峰	-8.83481
怪	-8.83581
財	-8.83678
折	-8.8368
急	-8.83695
希	-8.83774
謂之	-8.83807
刻	-8.84061
文殊	-8.84109
差	-8.84286
而逝	-8.84528
損	-8.84794
助	-8.84828
某	-8.84862
篇	-8.84906
屋	-8.84948
飲	-8.84968
翻	-8.85031
迦	-8.85105
鳴	-8.85178
懺	-8.85232
智者	-8.85322
莊	-8.85333
履	-8.85431
第一	-8.8559
犯	-8.85645
尺	-8.85744
之後	-8.85798
自然	-8.8581
質	-8.85844
雙	-8.8621
傾	-8.86419
烏	-8.86457
一卷	-8.86651
拔	-8.86895
世間	-8.87181
旦	-8.8727
閱	-8.87289
披	-8.87517
走	-8.87569
童	-8.87817
血	-8.87838
覽	-8.87991
長安	-8.8815
星	-8.88469
三寶	-8.8852
擬	-8.88587
己	-8.88641
冬	-8.88727
貫	-8.88759
嶺	-8.88806
憂	-8.88851
何以	-8.88919
溫	-8.88943
委	-8.89054
一時	-8.89176
。」【	-8.8918
大眾	-8.8929
倫	-8.89815
稟	-8.89821
值	-8.90078
弗	-8.90339
訖	-8.90381
夕	-8.90432
禮拜	-8.90679
清淨	-8.90818
律師	-8.90886
染	-8.90921
途	-8.91135
工	-8.91285
毛	-8.91749
祇	-8.9178
升	-8.9189
廬山	-8.92015
刀	-8.92126
壇	-8.92202
閣	-8.92378
孔	-8.92407
大德	-8.9259
不敢	-8.92632
法門	-8.92692
無量	-8.92699
懸	-8.93055
:「	-8.93335
淵	-8.93412
索	-8.93562
題	-8.9357
顏	-8.93694
頃	-8.93707
外道	-8.9391
天子	-8.93915
壁	-8.94104
橫	-8.94475
勢	-8.94538
陛下	-8.94675
話	-8.94735
丘	-8.94794
諱	-8.9489
三月	-8.94977
厭	-8.95026
飯	-8.95045
喻	-8.95221
贊	-8.95245
乃至	-8.95701
庶	-8.95755
昇	-8.95811
洛	-8.95812
錫	-8.95837
薄	-8.96206
刑	-8.96307
罷	-8.96664
偽	-8.96748
門人	-8.96773
標	-8.96874
祖曰	-8.9703
條	-8.97043
左右	-8.97327
地獄	-8.97684
點	-8.97891
童子	-8.97926
舌	-8.98181
可以	-8.98407
樓	-8.98491
逆	-8.98495
如何是	-8.98573
苟	-8.98581
製	-8.98628
焚	-8.98701
誦經	-8.98707
十八	-8.98709
伽藍	-8.98735
申	-8.98815
竊	-8.98826
纔	-8.98945
世界	-8.99029
僧云	-8.99075
予	-8.99229
上座	-8.9923
伊	-8.99247
第二	-8.99378
而化	-8.99417
仲	-8.99461
角	-8.99513
季	-8.9955
偏	-8.99556
對曰	-8.99589
中有	-8.996
師子	-8.99668
什	-8.99749
泥	-8.99796
合掌	-8.99902
莊嚴	-9.00027
飾	-9.00045
氏子	-9.0015
經論	-9.00192
丈	-9.00204
諦	-9.00473
酒	-9.00532
孔子	-9.00691
潤	-9.00995
杖	-9.01297
十六	-9.01479
富	-9.01498
旋	-9.017
貧	-9.01791
方便	-9.01988
敘	-9.02076
肅	-9.02678
由是	-9.02702
侍者	-9.02794
偈曰	-9.02875
彌陀	-9.02999
速	-9.03103
竹	-9.03295
精舍	-9.03302
五十	-9.03462
輔	-9.03512
麼	-9.03991
蕭	-9.04094
觸	-9.04223
又曰	-9.04445
範	-9.04518
郎	-9.04702
是以	-9.04785
岸	-9.04927
扶	-9.05072
這	-9.05109
夫人	-9.05133
屢	-9.05261
停	-9.05423
貌	-9.05476
你	-9.05588
滯	-9.05696
怒	-9.05928
十四	-9.06167
謙	-9.06268
貪	-9.06271
淳	-9.06343
寸	-9.06358
馳	-9.06626
蘭	-9.06707
第	-9.06779
歌	-9.06792
毘	-9.06814
市	-9.06855
昏	-9.06895
俄	-9.06957
熟	-9.07096
駕	-9.07391
域	-9.07444
船	-9.07528
責	-9.0753
為之	-9.07584
編	-9.07606
活	-9.07756
彌勒	-9.07972
倒	-9.08009
▁|(	-9.08013
貞	-9.0802
岳	-9.08094
正法	-9.08247
甘	-9.08285
招	-9.0837
蓮華	-9.08406
族	-9.08446
網	-9.08469
燒	-9.08559
逐	-9.08898
勒	-9.09068
宏	-9.09138
羅漢	-9.09213
偶	-9.0922
貞觀	-9.09256
亦不	-9.09551
侯	-9.09796
誕	-9.0981
臨濟	-9.09855
無不	-9.09926
獄	-9.10034
鑒	-9.1015
老僧	-9.10424
商	-9.10449
讓	-9.10487
不同	-9.10499
往生	-9.10602
綱	-9.10696
伐	-9.10743
八年	-9.10744
暴	-9.11095
侶	-9.11397
託	-9.11482
燕	-9.11592
潔	-9.11621
嵩	-9.1166
創	-9.1177
震	-9.11806
競	-9.1207
盜	-9.1225
拘	-9.1231
鹿	-9.12332
敷	-9.1275
時有	-9.12753
爾時	-9.12769
十方	-9.12783
棲	-9.12794
紙	-9.13029
撫	-9.13193
紹	-9.13202
湖	-9.13274
畏	-9.13549
十一	-9.13583
久之	-9.13645
蛇	-9.13674
陸	-9.13846
翁	-9.14005
塗	-9.14308
遽	-9.14355
優	-9.14383
作麼生	-9.14412
曹	-9.14478
即是	-9.14721
克	-9.1481
解脫	-9.14828
魯	-9.14842
杜	-9.14867
衡	-9.14882
當時	-9.15146
聰	-9.15272
歎曰	-9.15303
逸	-9.15372
案	-9.15374
細	-9.1538
眉	-9.15428
丹	-9.15524
柱	-9.15715
吉	-9.15755
奪	-9.15956
籍	-9.15977
以此	-9.16023
恨	-9.16038
后	-9.16298
崩	-9.16383
吐	-9.16438
歡喜	-9.1647
我今	-9.1657
乖	-9.16676
盧	-9.16805
僧尼	-9.16841
之言	-9.16994
際	-9.17026
障	-9.1713
尚書	-9.17226
伽	-9.17429
謚	-9.1764
內外	-9.17643
自是	-9.17659
調	-9.17748
聞之	-9.17991
不是	-9.18319
荷	-9.18395
騰	-9.18406
沙彌	-9.18434
村	-9.1848
抱	-9.18517
寢	-9.18543
未甞	-9.18806
喚	-9.18827
國師	-9.18919
傍	-9.18948
役	-9.19063
道人	-9.19081
蓮	-9.1926
法界	-9.1929
悔	-9.19303
繫	-9.19314
豐	-9.19327
叔	-9.19442
齒	-9.19495
諸天	-9.19507
。「	-9.19591
監	-9.19593
日月	-9.19604
十五	-9.19655
凝	-9.19998
然後	-9.20027
未幾	-9.20166
長者	-9.20253
憑	-9.20317
其事	-9.20342
諫	-9.20503
曠	-9.2052
示寂	-9.20802
盤	-9.20846
巨	-9.20876
行道	-9.2092
稍	-9.20923
婆羅門	-9.20955
不為	-9.21026
雄	-9.21092
穢	-9.21159
瞻	-9.2117
科	-9.2118
消	-9.21256
君子	-9.21763
幻	-9.21891
先生	-9.21976
繁	-9.22048
亮	-9.22075
脩	-9.22123
趨	-9.2221
枝	-9.22243
操	-9.22276
珍	-9.22325
麗	-9.22377
自在	-9.22384
鑑	-9.22438
井	-9.22472
昧	-9.22508
有所	-9.22611
第三	-9.22658
道者	-9.2273
一部	-9.2278
有大	-9.22867
十九	-9.2287
尸	-9.23074
遣使	-9.23186
何不	-9.23192
見一	-9.23252
惜	-9.23264
即位	-9.23492
住持	-9.23543
干	-9.23649
遁	-9.23705
雷	-9.23872
又問	-9.23909
選	-9.23936
之間	-9.23943
洗	-9.2395
是時	-9.24035
歟	-9.24045
雲門	-9.24057
空中	-9.24151
五月	-9.24161
衰	-9.24205
燭	-9.24379
湯	-9.24458
徑山	-9.24513
八月	-9.24513
旁	-9.24517
帶	-9.24524
明日	-9.24557
純	-9.24698
瓶	-9.24725
盈	-9.24817
鐘	-9.24857
晦	-9.25105
毫	-9.2519
鍾	-9.25249
普賢	-9.2527
而巳	-9.25303
逾	-9.25384
九月	-9.25459
銘	-9.25469
賓	-9.25626
響	-9.25723
武帝	-9.25866
十三	-9.25905
脚	-9.25976
謀	-9.26119
熙	-9.26141
竭	-9.26174
米	-9.26204
三千	-9.2624
孰	-9.26327
檀	-9.26584
六月	-9.26722
擇	-9.26818
二人	-9.26832
是也	-9.27168
暢	-9.27252
不復	-9.2733
為人	-9.27367
賞	-9.27422
八十	-9.27429
橋	-9.2743
修行	-9.27499
塞	-9.27548
彥	-9.27561
龕	-9.27632
可謂	-9.27754
國王	-9.27929
)○	-9.28008
戰	-9.28067
猛	-9.28123
暮	-9.28158
恁麼	-9.28175
奔	-9.28254
既而	-9.28277
十二年	-9.28297
九年	-9.28447
渡	-9.2854
暫	-9.28649
無有	-9.28705
洲	-9.28807
堪	-9.28816
四十	-9.28851
祭	-9.28905
闡	-9.29132
戲	-9.29248
不識	-9.29312
其人	-9.29494
敗	-9.29516
鄭	-9.29624
寺僧	-9.29694
見之	-9.29698
減	-9.2986
謬	-9.29979
津	-9.30095
達磨	-9.30347
床	-9.30483
篤	-9.30728
銀	-9.30756
竺	-9.30964
陶	-9.3098
四月	-9.31346
是故	-9.31349
式	-9.31472
言訖	-9.31676
不及	-9.31801
欣	-9.3186
謗	-9.32055
之事	-9.32076
晝夜	-9.32159
太祖	-9.32178
郭	-9.32185
誅	-9.32242
翼	-9.32391
階	-9.32667
徑	-9.32954
眾僧	-9.33166
又云	-9.33303
洛陽	-9.33443
云云	-9.33522
規	-9.33621
俊	-9.33825
法華經	-9.33831
曜	-9.33915
臨終	-9.34191
須臾	-9.34294
禍	-9.34308
茂	-9.34318
縛	-9.34397
良久	-9.34501
逮	-9.34517
有人	-9.34556
相見	-9.34655
乳	-9.3466
泣	-9.34688
十七	-9.34933
億	-9.34954
逝	-9.35192
云何	-9.35244
狂	-9.35368
暗	-9.35457
佛教	-9.35579
軌	-9.35623
哭	-9.35749
殷	-9.35767
何為	-9.35839
十月	-9.35916
之人	-9.35942
七月	-9.35958
不信	-9.35958
。」	-9.36011
祈	-9.36017
危	-9.36065
見佛	-9.36257
輿	-9.36337
蕩	-9.36468
抵	-9.36527
奧	-9.36603
採	-9.36603
遙	-9.36676
韓	-9.3675
而已	-9.36803
管	-9.36819
靡	-9.36825
遭	-9.36884
棒	-9.36961
祀	-9.37039
種種	-9.37246
嗟	-9.37252
甲	-9.37375
十一年	-9.37456
袈裟	-9.37478
函	-9.37509
峻	-9.37631
諸方	-9.37749
婦	-9.37755
卓	-9.37779
前後	-9.37788
晨	-9.37807
無常	-9.3784
精進	-9.37896
文字	-9.37974
額	-9.3808
例	-9.38099
鬼神	-9.38245
宰	-9.38317
慈悲	-9.38335
佛經	-9.38363
革	-9.38395
何處	-9.38445
謂曰	-9.3857
百年	-9.38581
十卷	-9.38773
之時	-9.38816
譯經	-9.3893
其道	-9.38999
墜	-9.39035
無為	-9.39272
紛	-9.39295
有二	-9.3936
僧問	-9.39382
嶽	-9.39389
寬	-9.39409
匠	-9.39418
祠	-9.39458
審	-9.39551
浮圖	-9.39658
倍	-9.39675
穴	-9.39881
阿羅漢	-9.39903
汝等	-9.40084
掩	-9.40096
太宗	-9.40202
羊	-9.40216
孟	-9.40241
祕	-9.40336
是年	-9.40403
胎	-9.40413
豈不	-9.40476
銅	-9.40626
哲	-9.40654
葢	-9.40672
琳	-9.40672
頻	-9.40741
牧	-9.40808
大聖	-9.40932
廬	-9.4101
烈	-9.41077
麻	-9.41131
彰	-9.41198
蘊	-9.41292
受戒	-9.41343
弊	-9.41367
敏	-9.41417
抗	-9.41561
四方	-9.41585
思惟	-9.41597
其中	-9.41623
允	-9.41625
三界	-9.41627
晝	-9.41635
罔	-9.41638
察	-9.41647
不足	-9.41651
山中	-9.4168
數百	-9.41712
佛像	-9.41736
毗	-9.41856
錯	-9.419
拈	-9.42012
誡	-9.42036
祝	-9.42076
測	-9.42086
喝	-9.42181
崖	-9.42249
檢	-9.42299
其言	-9.42383
不許	-9.4244
厥	-9.42442
一百	-9.42486
兮	-9.42594
呈	-9.42618
文帝	-9.42638
知其	-9.42696
維	-9.42733
三百	-9.42927
答言	-9.42945
怨	-9.43198
浪	-9.43296
展	-9.43359
譽	-9.43382
騎	-9.43422
鳳	-9.43488
茶	-9.43533
二十年	-9.43622
隔	-9.43686
亦無	-9.43916
十二月	-9.4392
此云	-9.43928
勑	-9.43937
釋氏	-9.43956
智慧	-9.4413
此是	-9.44168
十一月	-9.44251
一心	-9.44263
高祖	-9.44316
荒	-9.44343
之心	-9.44347
數十	-9.44367
候	-9.44367
臂	-9.4441
灰	-9.44558
端坐	-9.44628
之中	-9.44703
亭	-9.44893
法身	-9.44906
帝曰	-9.45045
混	-9.45079
荊	-9.45174
遲	-9.45226
見其	-9.45248
無生	-9.45251
囑	-9.45271
墨	-9.45294
憶	-9.45325
甚麼	-9.45705
三十年	-9.45757
未有	-9.45968
祿	-9.45977
頴	-9.45998
費	-9.46024
若不	-9.46085
受具	-9.46225
浩	-9.46258
賴	-9.463
跪	-9.46421
擲	-9.46464
十五年	-9.46857
誘	-9.46947
在位	-9.46947
枯	-9.46966
和上	-9.47045
苑	-9.47089
大悲	-9.47109
漏	-9.47115
懺悔	-9.47183
校	-9.47197
止觀	-9.47262
視之	-9.47295
環	-9.47423
皮	-9.47431
腹	-9.47528
熱	-9.47639
穆	-9.4776
磨	-9.47921
般	-9.47927
亦有	-9.48017
】	-9.48044
抑	-9.4807
研	-9.48122
隣	-9.48259
道德	-9.48502
寡	-9.48535
大法	-9.48603
緒	-9.48629
討	-9.4866
虞	-9.48682
二月	-9.48742
紅	-9.48768
災	-9.48816
虗空	-9.48821
天人	-9.48855
薦	-9.48868
諮	-9.48897
長老	-9.48996
忌	-9.49048
叢林	-9.49114
踰	-9.49124
歡	-9.49174
中國	-9.49201
短	-9.49295
金色	-9.49382
閉	-9.4939
殘	-9.49497
棺	-9.49509
之說	-9.4953
之法	-9.49543
于時	-9.49548
場	-9.49599
煩惱	-9.49741
窟	-9.49752
植	-9.49807
誤	-9.49951
一念	-9.50103
鼻	-9.5024
牙	-9.50333
斬	-9.50374
不動	-9.50536
遮	-9.50538
有僧	-9.50577
大王	-9.50609
諸人	-9.50615
暇	-9.50714
不然	-9.50736
俾	-9.50843
浴	-9.50865
至是	-9.5094
十三年	-9.51269
拂	-9.51375
成佛	-9.51382
禹	-9.51527
羽	-9.51561
詰	-9.51595
淺	-9.51624
夙	-9.51691
七十	-9.51736
大小	-9.51776
判	-9.51878
芳	-9.52003
忽見	-9.52089
舜	-9.52095
所見	-9.52172
而無	-9.52291
驅	-9.52467
慢	-9.52571
十四年	-9.52675
至今	-9.52678
開皇	-9.52744
之徒	-9.52951
後世	-9.53038
粒	-9.5312
不出	-9.53192
寓	-9.53249
涼	-9.53311
耆	-9.53319
鑄	-9.53468
裕	-9.53469
醫	-9.5347
誨	-9.53476
)(	-9.53577
甘露	-9.53766
開元	-9.53958
上堂	-9.54039
掃	-9.54087
其後	-9.54087
所說	-9.54172
牀	-9.54321
斥	-9.54502
射	-9.54523
酬	-9.54853
朔	-9.54871
居之	-9.55021
壯	-9.55028
扣	-9.55056
詢	-9.551
白雲	-9.5511
韋	-9.55113
呂	-9.55118
殆	-9.5517
韶	-9.55231
旬	-9.55232
以其	-9.55245
勇	-9.55396
氷	-9.55472
限	-9.55641
栖	-9.55643
詮	-9.55755
一千	-9.5592
維摩	-9.55933
的	-9.5611
僧道	-9.56146
太守	-9.56184
慰	-9.56209
育	-9.56212
贈	-9.56266
其徒	-9.56296
釋慧	-9.56327
百餘	-9.56432
祖師	-9.56438
愍	-9.56441
不覺	-9.56446
所居	-9.56643
僧曰	-9.5671
具足	-9.5677
把	-9.5688
作禮	-9.56961
人間	-9.56984
圍	-9.57258
戴	-9.57291
逼	-9.57295
平生	-9.57415
帛	-9.57428
循	-9.57441
老人	-9.57496
鋒	-9.57502
程	-9.57511
阿育王	-9.57555
羣	-9.57695
僧伽	-9.57714
黨	-9.57719
將軍	-9.5776
冀	-9.57791
鶴	-9.57861
軀	-9.58032
感應	-9.5804
因果	-9.58047
之士	-9.58128
舒	-9.58139
禱	-9.58437
改元	-9.58491
鮮	-9.58569
清涼	-9.58594
何所	-9.58716
若有	-9.58729
巧	-9.58739
擁	-9.58754
神通	-9.58806
社	-9.58884
王曰	-9.58949
慎	-9.58982
首座	-9.5902
古今	-9.59081
㵎	-9.59092
洞山	-9.59099
奴	-9.5925
彩	-9.59376
丁	-9.59514
耀	-9.59521
爽	-9.5953
駭	-9.59593
為僧	-9.59794
互	-9.59884
罕	-9.59966
爛	-9.60174
男	-9.60205
二百	-9.60224
崔	-9.60379
爰	-9.60414
第四	-9.60447
探	-9.60457
愧	-9.60466
煩	-9.60476
姚	-9.6052
禪定	-9.60542
緇	-9.6061
千里	-9.60692
所在	-9.60724
春秋	-9.60781
龜	-9.60866
四明	-9.60891
均	-9.60912
萬物	-9.6092
渠	-9.60984
之教	-9.61033
大業	-9.61066
整	-9.61146
儼	-9.61197
數日	-9.6133
名曰	-9.6133
往來	-9.61351
辰	-9.61393
鼎	-9.6153
入室	-9.61602
此經	-9.61733
小乘	-9.61808
偉	-9.61979
尾	-9.62099
某甲	-9.62222
曆	-9.62265
然則	-9.62405
笑曰	-9.62407
蹤	-9.62419
祚	-9.62566
藉	-9.62588
不如	-9.62657
單	-9.627
善惡	-9.62701
鄙	-9.62708
法眼	-9.6272
疎	-9.62726
職	-9.62735
太平	-9.62831
黃龍	-9.6287
十九年	-9.62948
之日	-9.6298
征	-9.63027
傑	-9.6306
鈔	-9.63082
午	-9.63086
南嶽	-9.63102
正月	-9.63148
屏	-9.63184
卑	-9.63205
無上	-9.6321
十餘	-9.63276
遐	-9.63369
淚	-9.63401
勉	-9.6346
奘	-9.63536
襲	-9.63712
從之	-9.63739
懇	-9.63782
逃	-9.639
會稽	-9.63957
五色	-9.64156
辱	-9.64156
讖	-9.64164
范	-9.64174
之地	-9.64179
六十	-9.64203
異之	-9.64203
阿彌陀佛	-9.64215
而為	-9.64235
湘	-9.64263
陷	-9.64371
放光	-9.64592
綿	-9.64709
割	-9.64727
有省	-9.6511
吞	-9.65116
霜	-9.65174
劍	-9.65222
人之	-9.65225
踐	-9.6526
薪	-9.65404
策	-9.65521
黎	-9.65549
欺	-9.6558
家人	-9.65614
皓	-9.65646
而出	-9.65744
古人	-9.65747
摧	-9.65859
邦	-9.65893
濫	-9.65905
趙州	-9.66087
何故	-9.66096
猷	-9.66182
自此	-9.66299
稽首	-9.66434
產	-9.66436
遠近	-9.66443
之旨	-9.66483
東南	-9.66498
霞	-9.66537
異香	-9.66546
傳法	-9.66603
煙	-9.66633
三卷	-9.6664
牒	-9.66679
蔽	-9.66735
繞	-9.66741
排	-9.66744
誦法華	-9.66769
杭州	-9.66964
佛道	-9.67063
幢	-9.67112
之際	-9.67127
學士	-9.67217
七寶	-9.67225
練	-9.67261
險	-9.6728
雞	-9.67286
何得	-9.67307
訶	-9.67332
有三	-9.67385
詠	-9.67601
斗	-9.67641
竪	-9.68005
懿	-9.68088
妖	-9.68146
溺	-9.68309
番	-9.68326
溈山	-9.68367
虛空	-9.68391
厲	-9.68412
有司	-9.68414
金陵	-9.68444
又有	-9.68551
怖	-9.68552
岩	-9.68655
無礙	-9.68667
庸	-9.688
靈隱	-9.68867
受持	-9.68884
馬祖	-9.69076
十萬	-9.6919
徙	-9.69211
勵	-9.69219
侍郎	-9.69237
畜	-9.6948
鄴	-9.69488
繩	-9.6956
有異	-9.69633
幡	-9.69677
格	-9.69686
靖	-9.69689
肆	-9.69842
桓	-9.69851
從此	-9.69873
遼	-9.69884
闍	-9.69887
至此	-9.70033
巡	-9.70065
屠	-9.70076
傅	-9.70112
與麼	-9.70154
檀越	-9.70169
誌	-9.70188
傳燈	-9.702
閩	-9.70207
荊州	-9.7025
【	-9.70337
人天	-9.70489
礙	-9.70513
西北	-9.70567
告曰	-9.70614
忽然	-9.70751
屍	-9.7078
甫	-9.70877
威儀	-9.71016
東西	-9.71103
安樂	-9.71133
邁	-9.71299
段	-9.71309
然而	-9.71347
所得	-9.71429
偃	-9.71438
德山	-9.71445
玄奘	-9.71474
湛	-9.71607
穀	-9.71619
快	-9.71657
遠公	-9.71701
貧道	-9.71763
四海	-9.71769
衍	-9.71791
即便	-9.71805
;	-9.72023
胸	-9.72058
明年	-9.72143
刃	-9.72235
名為	-9.72246
天王	-9.7225
熈	-9.72268
不會	-9.72327
蟲	-9.72391
諭	-9.72579
󲊛	-9.72698
借	-9.72733
佛性	-9.72854
兆	-9.72995
瓦	-9.731
必有	-9.73138
過去	-9.73164
弱	-9.73245
摩訶	-9.73507
映	-9.73664
三十二	-9.73693
麟	-9.73766
七歲	-9.73803
碧	-9.73856
喫	-9.73858
仕	-9.74008
蒲	-9.74028
成就	-9.74086
築	-9.74182
得其	-9.74241
三世	-9.74248
之功	-9.74304
次第	-9.74335
館	-9.7436
世之	-9.74413
冷	-9.74465
金剛經	-9.74536
窺	-9.74575
建塔	-9.74604
龍樹	-9.74617
佛祖	-9.74656
梵僧	-9.74701
樹下	-9.74865
石頭	-9.74982
肯	-9.75023
不肯	-9.75118
困	-9.75231
買	-9.75314
聲聞	-9.7533
與之	-9.75467
僕	-9.75683
萬里	-9.75718
之外	-9.75801
虧	-9.75859
是佛	-9.76001
佛之	-9.76007
副	-9.76015
之意	-9.76034
大臣	-9.76038
十七年	-9.76039
坊	-9.7607
豈非	-9.7626
剌	-9.76281
此事	-9.76314
纏	-9.76416
防	-9.76428
巳而	-9.76454
未曾	-9.76539
慚	-9.76569
罰	-9.76583
西南	-9.76613
咎	-9.76628
生淨土	-9.76646
膝	-9.76652
叉	-9.76765
不食	-9.76765
發願	-9.76821
有餘	-9.76897
飢	-9.77032
襄	-9.77046
百丈	-9.77131
得法	-9.77177
衲	-9.77364
介	-9.77373
勘	-9.77577
諸法	-9.77577
復有	-9.77607
浙	-9.77614
華嚴經	-9.77636
准	-9.77703
焚香	-9.77717
桑	-9.77761
軒	-9.77935
杭	-9.77942
諍	-9.78014
百千	-9.78062
箭	-9.78132
倚	-9.78205
賤	-9.78279
占	-9.78493
韻	-9.78595
辛	-9.78625
一句	-9.78815
堯	-9.78852
不以	-9.78885
敕	-9.78914
答云	-9.78921
帥	-9.78928
妃	-9.78968
無相	-9.78986
忽有	-9.79011
而終	-9.79045
釋法	-9.79056
捉	-9.79115
拳	-9.79153
聖賢	-9.7916
之義	-9.79194
顗	-9.79266
郊	-9.79269
警	-9.79296
江陵	-9.79369
五臺	-9.79394
諸經	-9.79487
呵	-9.79508
杲	-9.79592
暉	-9.796
尉	-9.79759
什麼	-9.79774
丞相	-9.79842
遶	-9.79848
狗	-9.79878
】【	-9.80041
其身	-9.80094
僅	-9.80094
翻譯	-9.80242
歸依	-9.8034
使人	-9.80343
竝	-9.80405
匡	-9.80435
可得	-9.80492
十地	-9.80514
發心	-9.80542
鑿	-9.80651
秉	-9.80676
睡	-9.80721
而後	-9.80763
大明	-9.80784
而至	-9.80819
至于	-9.80825
王子	-9.80921
翰	-9.80955
掘	-9.81004
而生	-9.81009
是非	-9.81015
十六年	-9.81015
冲	-9.81042
不應	-9.8105
九十	-9.8109
司馬	-9.81122
分別	-9.81183
柳	-9.81233
無盡	-9.81234
本無	-9.81348
先師	-9.81474
牽	-9.81536
廓	-9.81631
辦	-9.81651
一夕	-9.8173
神力	-9.81732
虔	-9.81869
卜	-9.81886
或云	-9.81958
以手	-9.82011
涌	-9.82015
覓	-9.82058
問道	-9.82225
層	-9.82235
翠	-9.82236
激	-9.82263
為大	-9.82315
龍王	-9.82322
國人	-9.82363
天童	-9.82393
方等	-9.82399
準	-9.82442
俗姓	-9.82489
曹溪	-9.82492
南北	-9.82525
群臣	-9.82527
大道	-9.8264
無人	-9.82652
不相	-9.82686
以來	-9.82702
碎	-9.82858
捧	-9.82859
携	-9.82869
垢	-9.83043
揮	-9.83096
黃檗	-9.8315
紹興	-9.83156
而來	-9.8317
百餘里	-9.83197
攻	-9.832
第十	-9.83205
扇	-9.83206
僧徒	-9.83212
時人	-9.83222
肩	-9.83243
蔭	-9.83254
或有	-9.83259
儉	-9.8326
凌	-9.83462
臘	-9.83462
巢	-9.83484
吟	-9.83533
街	-9.83754
寔	-9.83832
台	-9.83845
東北	-9.83873
衢	-9.84008
賦	-9.84178
肇	-9.84197
區	-9.84201
使者	-9.84397
珪	-9.84426
墳	-9.84496
入內	-9.84533
齎	-9.84633
其心	-9.84667
缺	-9.84688
知之	-9.84692
大夫	-9.84797
汗	-9.84813
而卒	-9.84838
百姓	-9.84923
猶如	-9.84996
三人	-9.85029
噉	-9.8508
雪竇	-9.85115
䇿	-9.85187
叡	-9.85191
炎	-9.85381
釋僧	-9.8547
舞	-9.85503
闍維	-9.85522
法藏	-9.85531
之力	-9.85535
誦法華經	-9.85553
新羅	-9.85619
惱	-9.85775
隅	-9.8586
削	-9.85864
咨	-9.8593
五日	-9.86066
擾	-9.86131
不受	-9.86258
獵	-9.8631
終日	-9.86524
圓通	-9.8653
囊	-9.86538
祥符	-9.86553
不絕	-9.86656
濁	-9.86687
釋道	-9.86753
兜率	-9.86784
飲食	-9.86889
癡	-9.86893
甚處	-9.86903
洽	-9.86911
該	-9.86946
驢	-9.86988
上下	-9.87009
一生	-9.87038
佛名	-9.87113
南山	-9.87121
凡夫	-9.87269
豫	-9.87295
賣	-9.87326
奚	-9.87331
二卷	-9.87393
不生	-9.87411
不空	-9.8743
生於	-9.87453
譬	-9.87528
戎	-9.87541
不在	-9.87545
語言	-9.87697
洎	-9.87704
受業	-9.8786
仙人	-9.87864
宗旨	-9.87908
班	-9.87966
入滅	-9.87976
得一	-9.88038
嘆	-9.88089
派	-9.88107
犬	-9.88121
鴻	-9.88134
太后	-9.8816
丞	-9.88201
捐	-9.88228
行者	-9.88284
朝廷	-9.88449
無心	-9.8858
姑	-9.8865
言之	-9.88764
尹	-9.88786
匪	-9.8881
觀世音	-9.88828
俯	-9.88852
在此	-9.88897
莫能	-9.88916
問之	-9.89
滋	-9.89019
楞嚴	-9.89038
淫	-9.8907
乞食	-9.89107
先是	-9.89113
炬	-9.89243
油	-9.89258
仰山	-9.89264
帝王	-9.89335
門外	-9.89393
常住	-9.89422
身心	-9.89645
臻	-9.89668
皆有	-9.89696
訛	-9.89805
淪	-9.89849
皆是	-9.89874
得度	-9.89924
佐	-9.90087
付囑	-9.90094
由旬	-9.9011
伸	-9.90115
□□	-9.90127
包	-9.90145
是為	-9.90197
命終	-9.90202
仁壽	-9.90212
州刺史	-9.9024
我等	-9.90259
十里	-9.90263
藝	-9.90273
蒼	-9.90284
非常	-9.90332
淨業	-9.90351
輝	-9.90353
滅度	-9.90357
蓮花	-9.9046
一名	-9.90484
截	-9.90565
這裏	-9.90575
玅	-9.90582
四眾	-9.90596
元和	-9.90607
五祖	-9.90689
利益	-9.90889
甲子	-9.90901
大覺	-9.90913
之子	-9.90989
人皆	-9.91135
苦行	-9.91182
二十五	-9.91371
稽	-9.91435
諸國	-9.91468
罵	-9.91481
天宮	-9.91669
賜號	-9.91685
偕	-9.91689
請師	-9.91691
譏	-9.9183
擔	-9.91901
佛言	-9.91993
時如何	-9.92077
法嗣	-9.92264
趺坐	-9.92339
州人	-9.92354
南岳	-9.92397
透	-9.924
方丈	-9.9243
兄弟	-9.92454
未來	-9.92551
闢	-9.92581
十餘里	-9.926
天寶	-9.92646
濕	-9.92696
陋	-9.92721
將來	-9.92754
撥	-9.92755
躍	-9.92775
課	-9.92816
此土	-9.92838
豪	-9.92914
貢	-9.9292
他日	-9.92922
▁宋	-9.93005
淮	-9.93052
板	-9.93154
農	-9.93204
慈雲	-9.93265
起塔	-9.93319
一僧	-9.9333
耶舍	-9.9335
釋教	-9.93363
永明	-9.93373
眠	-9.93395
構	-9.93406
算	-9.93428
吹	-9.93571
教化	-9.93588
聞者	-9.93689
終不	-9.93699
▁唐	-9.93751
播	-9.93834
講說	-9.93836
葛	-9.94046
臭	-9.94075
不起	-9.94195
數千	-9.942
涅槃經	-9.94244
無以	-9.94278
年正月	-9.94287
無異	-9.94318
吳越	-9.94409
蔡	-9.94504
嫌	-9.94508
搖	-9.94558
譬如	-9.94621
若是	-9.94726
眷屬	-9.94756
而行	-9.94758
其家	-9.94769
乏	-9.94775
齡	-9.9479
八萬四千	-9.94875
報恩	-9.94925
褒	-9.94974
敵	-9.94983
即以	-9.94989
旱	-9.94996
未聞	-9.95041
全身	-9.95104
聖教	-9.95107
禮佛	-9.95122
辟	-9.95224
沉	-9.95335
頭陀	-9.95364
闇	-9.95411
搜	-9.95416
弓	-9.95417
菜	-9.95465
王氏	-9.9548
邀	-9.95505
□	-9.95515
粥	-9.95734
憲	-9.95778
敦	-9.95827
說偈	-9.95829
示眾	-9.95833
巾	-9.95882
真如	-9.95904
各有	-9.95935
實相	-9.95994
誣	-9.96144
不可得	-9.96163
二十四	-9.96454
何人	-9.96487
此人	-9.96506
錦	-9.96577
得道	-9.96595
山寺	-9.96623
三教	-9.9664
有何	-9.96652
年二十	-9.96715
為我	-9.96773
儲	-9.96803
俄而	-9.96817
明帝	-9.96821
武德	-9.9686
灌	-9.9698
女人	-9.96986
替	-9.97058
是何	-9.97094
育王	-9.97176
歇	-9.97188
入道	-9.97287
雲居	-9.97383
潭	-9.97388
坐禪	-9.97406
岐	-9.97469
男女	-9.9753
不壞	-9.97532
剛	-9.97649
諡	-9.97662
乃曰	-9.9769
大曆	-9.97694
若此	-9.97715
爐	-9.97725
剪	-9.9774
羅國	-9.97807
分明	-9.97855
遜	-9.97964
聞其	-9.98003
出入	-9.98036
豈有	-9.98113
戀	-9.98167
括	-9.98168
東林	-9.98192
歿	-9.98312
境界	-9.98339
仁義	-9.98362
裂	-9.98517
寇	-9.98586
庫	-9.98675
十八年	-9.98689
未嘗	-9.98689
三乘	-9.98693
顒	-9.98704
衣服	-9.98716
二十餘	-9.98718
觀之	-9.98722
有四	-9.98726
入涅槃	-9.98757
五千	-9.98767
饒	-9.9887
匹	-9.9889
不聞	-9.98925
枕	-9.98937
天上	-9.9901
南泉	-9.99018
且道	-9.9904
入定	-9.99098
識者	-9.99117
相國	-9.99176
盖	-9.99181
不可以	-9.99302
較	-9.99303
壽七十	-9.99309
巴	-9.99379
寤	-9.99413
跋	-9.99419
高宗	-9.99447
賈	-9.99522
落髮	-9.9957
赦	-9.9958
這箇	-9.99584
糧	-9.99613
贊曰	-9.99631
拒	-9.99664
世祖	-9.9971
享	-9.99809
一切眾生	-9.99821
穿	-9.99885
墓	-9.99916
學徒	-9.99953
石室	-10
已來	-10
倦	-10.0004
牢	-10.0005
刺	-10.0048
善哉	-10.0049
無數	-10.005
梅	-10.0054
西天	-10.0055
王公	-10.0063
刊	-10.0073
泛	-10.0077
灑	-10.0078
拄杖	-10.0078
略曰	-10.0078
耕	-10.0081
大地	-10.0085
上人	-10.0085
徽	-10.0091
嗜	-10.0108
京兆	-10.0122
俟	-10.0125
凶	-10.0126
嗚呼	-10.013
所有	-10.0132
翔	-10.0132
醉	-10.0134
入山	-10.0135
雍	-10.0138
坦	-10.0149
揖	-10.0154
江南	-10.0162
護持	-10.0171
賀	-10.0171
効	-10.0172
於中	-10.0173
叟	-10.0179
奮	-10.0181
佛所	-10.0184
成都	-10.0186
侵	-10.0199
旻	-10.02
語曰	-10.0215
芝	-10.024
未能	-10.0244
拾	-10.0244
豁然	-10.0248
羅什	-10.025
隷	-10.0251
叩	-10.0257
絲	-10.0257
不自	-10.026
之門	-10.026
藏經	-10.0262
帝釋	-10.027
高僧	-10.027
佛事	-10.0271
裴	-10.0271
諷	-10.0275
飄	-10.0277
師乃	-10.0278
多羅	-10.028
之處	-10.0281
漁	-10.0302
大慧	-10.0306
夜夢	-10.0312
第五	-10.0318
道也	-10.0319
道之	-10.0319
本傳	-10.0319
說偈曰	-10.0325
大慈	-10.034
瑩	-10.0346
寵	-10.0347
陰陽	-10.0363
貨	-10.0364
價	-10.0371
不離	-10.0389
劒	-10.0394
膺	-10.0395
束	-10.04
輦	-10.0401
高僧傳	-10.0408
發明	-10.0417
茅	-10.0419
析	-10.0424
秘	-10.0424
而言	-10.0425
不勝	-10.0447
污	-10.0452
未知	-10.0454
汝當	-10.0461
所作	-10.0466
之理	-10.0466
太原	-10.0468
嚮	-10.0475
等經	-10.048
外國	-10.0481
撿	-10.0493
爪	-10.0495
軸	-10.0496
於世	-10.0512
高座	-10.0527
護法	-10.053
嬰	-10.0547
筵	-10.0549
正覺	-10.0551
則有	-10.0554
梨	-10.0562
來迎	-10.0569
薛	-10.0571
國家	-10.0582
如今	-10.0587
柔	-10.0592
高麗	-10.0592
蕃	-10.06
師之	-10.06
為師	-10.0604
四大	-10.0611
往往	-10.0612
數年	-10.0623
籠	-10.0627
自稱	-10.063
汝今	-10.0635
群生	-10.0642
奉佛	-10.0642
小兒	-10.0647
級	-10.0649
瓊	-10.0651
閒	-10.0653
弄	-10.0656
其志	-10.066
法王	-10.066
建立	-10.0665
印度	-10.0667
仁者	-10.0686
有情	-10.0688
江西	-10.0695
麁	-10.07
與汝	-10.0705
碩	-10.0705
年七十	-10.0709
有五	-10.0719
拱	-10.0724
焰	-10.0727
烟	-10.0729
囚	-10.0733
亟	-10.0734
揭	-10.0742
國公	-10.0743
不久	-10.0745
大海	-10.0747
旌	-10.0751
布施	-10.0753
生滅	-10.0756
柏	-10.0758
伴	-10.0759
陀羅尼	-10.0761
熾	-10.0774
廉	-10.0775
二千	-10.0784
訥	-10.0797
未審	-10.0805
究竟	-10.0808
圓覺	-10.0809
乙	-10.0816
之內	-10.0819
無對	-10.0822
相與	-10.0823
局	-10.0826
之上	-10.0837
年八十	-10.0839
東山	-10.0842
見者	-10.0844
之下	-10.0849
赫	-10.085
殃	-10.0854
鸞	-10.0856
挺	-10.0858
貞元	-10.086
本來	-10.0874
坑	-10.0876
天下之	-10.0886
慈恩	-10.0896
善知識	-10.09
渴	-10.0903
蹈	-10.0907
覲	-10.091
雪峯	-10.091
靈山	-10.0917
多少	-10.0921
十日	-10.0922
便打	-10.0925
故也	-10.0934
員	-10.0938
一一	-10.0944
若能	-10.0945
法雲	-10.0951
化胡	-10.0953
四月八日	-10.0961
憐	-10.0963
之風	-10.0964
個	-10.097
不遠	-10.0971
閻浮提	-10.0976
怠	-10.0987
此山	-10.0989
不言	-10.0994
四卷	-10.0999
寶塔	-10.1007
搆	-10.1012
綜	-10.1014
饑	-10.1019
鎖	-10.1023
》	-10.1024
無邊	-10.1034
師因	-10.104
片	-10.1043
《	-10.105
成道	-10.1058
輸	-10.1059
絹	-10.1067
為法	-10.1069
為一	-10.1073
白衣	-10.1079
其母	-10.1091
無窮	-10.1092
矜	-10.1093
二十八	-10.1093
書曰	-10.1116
溢	-10.1116
捕	-10.1117
仗	-10.1117
埋	-10.1127
彈	-10.1129
於佛	-10.1131
灌頂	-10.1137
集眾	-10.114
獎	-10.1141
邈	-10.1147
署	-10.1148
出於	-10.1148
聖人之	-10.1151
為業	-10.1151
沐浴	-10.1152
其名	-10.1154
頃之	-10.1158
及諸	-10.1161
修淨業	-10.1164
詐	-10.1167
六祖	-10.1169
掛	-10.1174
其間	-10.1176
電	-10.1181
真實	-10.119
無明	-10.1193
其國	-10.1198
門下	-10.1198
戮	-10.1199
提婆	-10.1201
讀誦	-10.1201
榻	-10.1202
燒香	-10.1204
千餘	-10.1212
欝	-10.1217
迄	-10.1217
鈍	-10.1223
陟	-10.1223
山林	-10.1225
徒眾	-10.1227
=	-10.123
同學	-10.1233
劣	-10.1243
獸	-10.1248
奕	-10.1249
盲	-10.125
殺之	-10.1261
所造	-10.1269
瑜伽	-10.127
庾	-10.1274
許之	-10.1276
諾	-10.1277
愁	-10.128
熏	-10.128
叱	-10.1281
雪山	-10.1303
聊	-10.1306
衣鉢	-10.1316
其上	-10.132
不測	-10.1328
錢塘	-10.1336
現前	-10.1336
無疾	-10.1338
神人	-10.1341
不用	-10.1358
輙	-10.1364
將欲	-10.1377
何如	-10.1378
姿	-10.1387
示疾	-10.139
几	-10.1392
廊	-10.1395
泥洹	-10.1397
號曰	-10.1397
雖有	-10.1405
阻	-10.141
不輟	-10.1423
既至	-10.1428
聰明	-10.1433
袁	-10.1435
洋	-10.1441
旅	-10.1448
維那	-10.1449
四百	-10.145
其意	-10.1456
三十六	-10.1457
慈氏	-10.1457
骸	-10.1464
一字	-10.1465
詎	-10.1469
歸宗	-10.1484
其文	-10.1486
裁	-10.1491
吉祥	-10.1497
併	-10.1497
大悟	-10.15
吼	-10.1501
襄陽	-10.1504
四部	-10.1514
御史	-10.1515
永嘉	-10.152
如意	-10.1525
壑	-10.1527
號為	-10.1538
平等	-10.155
元嘉	-10.155
桂	-10.1556
牟	-10.1564
諸僧	-10.1567
悉皆	-10.1572
足以	-10.1575
法席	-10.1575
閻	-10.1576
壤	-10.1577
粗	-10.1579
波羅	-10.1587
持戒	-10.16
大事	-10.16
與諸	-10.1612
之類	-10.1614
)。(	-10.1617
佛陀	-10.1617
恥	-10.1624
自知	-10.1629
公卿	-10.1632
贍	-10.1636
逈	-10.1639
冤	-10.1644
繇	-10.1645
藍	-10.1651
之名	-10.1657
窣堵波	-10.1658
安置	-10.1658
援	-10.1662
付法	-10.1664
艱	-10.1668
大千	-10.1669
子也	-10.1671
優波笈多	-10.1672
帙	-10.1683
二十七	-10.1685
福田	-10.1687
魂	-10.1697
京城	-10.1699
天監	-10.1705
綽	-10.1718
梓	-10.1718
玄宗	-10.1722
項	-10.1724
未盡	-10.1729
本國	-10.1735
長沙	-10.1737
亦云	-10.1741
老君	-10.1741
汲	-10.1746
材	-10.1752
子孫	-10.1753
此語	-10.1754
淨名	-10.1757
其本	-10.1774
之前	-10.1777
非一	-10.1783
傳云	-10.1783
恣	-10.1784
湧	-10.1787
不解	-10.1787
皇太子	-10.1793
之盛	-10.1796
漫	-10.1804
名僧	-10.1805
彭城	-10.1812
第六	-10.1815
福寺	-10.1821
帳	-10.183
十人	-10.1831
得之	-10.1832
公曰	-10.1832
暑	-10.1836
稠	-10.1836
亦非	-10.184
李氏	-10.1843
授以	-10.1845
筆受	-10.1848
一喝	-10.185
所著	-10.1851
上有	-10.1852
顛	-10.1853
遊方	-10.186
始得	-10.1861
朋	-10.1861
如故	-10.1866
婢	-10.1869
梵本	-10.1872
柴	-10.1872
中興	-10.1878
度人	-10.1879
滅後	-10.1883
豈可	-10.1885
最後	-10.1886
寂滅	-10.1891
藻	-10.1915
其年	-10.192
蘇州	-10.1929
妾	-10.1929
暨	-10.1948
馮	-10.1952
沙門釋	-10.1955
定慧	-10.1956
奢	-10.1966
無間	-10.1972
河東	-10.1973
惶	-10.1975
謂其	-10.1978
信心	-10.198
寒暑	-10.1983
之禮	-10.1991
無畏	-10.1991
妻子	-10.1992
冊	-10.2
婬	-10.2003
拯	-10.2008
迫	-10.2015
無著	-10.2033
而死	-10.2033
叢	-10.2034
匝	-10.2035
剖	-10.2042
倉	-10.2043
慧日	-10.2048
作佛	-10.2058
丈六	-10.2058
君臣	-10.2058
而立	-10.206
終身	-10.2068
正宗	-10.2073
法輪	-10.2091
邃	-10.2091
註	-10.2092
轍	-10.2095
填	-10.2099
知見	-10.21
皎	-10.21
月十五日	-10.21
人民	-10.21
宴坐	-10.2103
南海	-10.2104
三十餘	-10.2106
鼠	-10.2108
涯	-10.2125
效	-10.2129
訣	-10.2131
剃	-10.2139
故知	-10.2142
宗本紀	-10.2147
五戒	-10.2164
當有	-10.2166
由此	-10.2166
慨	-10.2167
國土	-10.2172
竺法	-10.2182
踵	-10.2184
翹	-10.2186
不須	-10.2187
霄	-10.2189
甲寅	-10.2194
之文	-10.2204
東都	-10.2205
啼	-10.2213
慟	-10.2214
戚	-10.2215
皇后	-10.2217
萬法	-10.222
舶	-10.2223
難陀	-10.2231
大笑	-10.2246
泊	-10.2246
瘡	-10.2248
眾人	-10.2249
踏	-10.225
何謂	-10.2251
知識	-10.2261
叛	-10.227
欣然	-10.2271
醜	-10.2276
終於	-10.2281
長生	-10.2286
其法	-10.2297
更無	-10.2299
憚	-10.2307
邪見	-10.2327
戒行	-10.2328
疲	-10.233
經二卷	-10.2331
懈	-10.2338
報應	-10.2343
相似	-10.2351
設齋	-10.2361
掖	-10.2363
疊	-10.2366
不忘	-10.2367
握	-10.2367
又見	-10.2368
抄	-10.2385
是歲	-10.2387
乃以	-10.2394
福州	-10.2402
庚子	-10.2414
之流	-10.2417
未詳	-10.2421
一言	-10.2422
所知	-10.2422
憤	-10.2423
仲尼	-10.2427
而成	-10.2429
飽	-10.2429
行之	-10.2441
不思議	-10.245
沐	-10.2453
西來	-10.2472
庚申	-10.2473
少時	-10.2475
地藏	-10.248
千餘人	-10.2482
而退	-10.2483
恃	-10.2484
猪	-10.2494
大品	-10.2508
五人	-10.2509
長慶	-10.251
其教	-10.2512
毋	-10.252
宰相	-10.2522
頌曰	-10.2523
托	-10.2524
一乘	-10.2536
會昌	-10.2537
卒於	-10.2539
夫子	-10.2547
總持	-10.2555
胤	-10.2571
裔	-10.2573
嘆曰	-10.2578
六百	-10.2581
古之	-10.2582
不二	-10.2601
眾皆	-10.2605
震旦	-10.2608
佩	-10.261
認	-10.261
主人	-10.2613
去也	-10.2625
四人	-10.2626
開悟	-10.2626
難提	-10.2635
虜	-10.2638
萬歲	-10.2641
無知	-10.2644
道安	-10.2654
第七	-10.2658
會麼	-10.2667
沼	-10.2669
頒	-10.267
默然	-10.2675
棘	-10.2676
龍門	-10.2688
父子	-10.2698
袖	-10.2698
鹽	-10.2699
矯	-10.2701
令人	-10.2702
山川	-10.2702
銷	-10.2703
道理	-10.2707
自爾	-10.2716
彭	-10.272
和尚者	-10.2724
爵	-10.273
山谷	-10.2731
而下	-10.2735
諸子	-10.2735
於大	-10.2736
皆悉	-10.274
草木	-10.2758
其子	-10.2766
奈何	-10.2766
模	-10.2768
之謂	-10.2781
法性	-10.28
其地	-10.28
不定	-10.2806
夢見	-10.2809
其僧	-10.2811
百餘人	-10.2815
須彌	-10.282
芬	-10.2821
世人	-10.2826
擎	-10.2831
二日	-10.2841
其義	-10.2842
壽八十	-10.2842
其說	-10.2845
而有	-10.2847
妙法	-10.2851
而坐	-10.2853
糞	-10.2854
昆	-10.2856
阜	-10.2861
變化	-10.2863
禪師者	-10.2867
佛號	-10.2871
藥山	-10.2872
文章	-10.2875
健	-10.2882
涕	-10.2884
愆	-10.2886
霑	-10.2887
閭	-10.2893
之志	-10.2895
鷄	-10.2896
具戒	-10.2903
後有	-10.291
死生	-10.2911
觀其	-10.2917
未見	-10.2922
度僧	-10.2924
佛日	-10.2929
記云	-10.2932
頂禮	-10.2932
炳	-10.2946
晏	-10.2947
纂	-10.2947
淹	-10.295
〕	-10.2952
故曰	-10.2953
頹	-10.2955
憫	-10.2959
山僧	-10.296
更有	-10.2966
唯識	-10.2978
千餘里	-10.298
系	-10.2982
跏趺	-10.2982
王聞	-10.2993
一年	-10.3009
狐	-10.3012
不顧	-10.3013
弼	-10.3017
係	-10.3018
娑婆	-10.3019
法智	-10.3022
寐	-10.3023
當為	-10.3023
醒	-10.3025
禁中	-10.3028
未至	-10.3035
朽	-10.3041
五卷	-10.3042
桃	-10.3048
流通	-10.305
牛頭	-10.3054
餅	-10.3055
不殺	-10.3061
石霜	-10.3063
神明	-10.3064
吒	-10.307
不與	-10.3071
恢	-10.3081
剋	-10.3083
簿	-10.3084
刺史	-10.3085
至德	-10.3102
詔曰	-10.3104
而能	-10.3108
隴	-10.3112
一萬	-10.3114
傲	-10.3115
仁王	-10.3117
無復	-10.3121
七卷	-10.3123
風雨	-10.3127
論曰	-10.3132
未及	-10.3138
何必	-10.314
心要	-10.314
述曰	-10.3144
感通	-10.3147
悼	-10.3148
粟	-10.3148
淡	-10.3149
有聲	-10.3152
蔬食	-10.3155
壬申	-10.3159
莫測	-10.3162
二十一	-10.3167
莫知	-10.3169
鄧	-10.3174
太史	-10.3174
陳氏	-10.3177
浦	-10.3182
廣大	-10.3187
建康	-10.3196
侍中	-10.3201
金像	-10.3206
如前	-10.321
黃金	-10.3212
奉勅	-10.3213
焦	-10.3217
城中	-10.3218
璉	-10.3218
噫	-10.3219
唐言	-10.3221
神異	-10.3224
鄰	-10.3224
問如何是	-10.3227
益州	-10.3231
當知	-10.3238
僧傳	-10.3244
不滅	-10.3245
論云	-10.3249
行脚	-10.3256
玄沙	-10.3257
低	-10.3257
禪宗	-10.3264
學人	-10.3267
只是	-10.3267
無語	-10.3269
我當	-10.327
後於	-10.3272
方知	-10.3273
二教	-10.3275
大同	-10.3282
神光	-10.3283
行業	-10.3284
是知	-10.3287
五里	-10.3288
別有	-10.3292
及其	-10.3302
不合	-10.3309
銳	-10.3314
子之	-10.3315
舍利弗	-10.3315
太和	-10.3323
所至	-10.3325
吾將	-10.3325
不忍	-10.3334
寂然	-10.3334
禪寺	-10.3345
其先	-10.335
觀察	-10.3363
之始	-10.3371
僕射	-10.3372
慧遠	-10.3375
誥	-10.3376
畢竟	-10.3379
堯舜	-10.338
禮敬	-10.3387
至矣	-10.339
室中	-10.3395
六日	-10.3398
雖復	-10.3403
擅	-10.3406
有緣	-10.3408
佛寺	-10.3408
大中	-10.3408
佛祖統紀	-10.3412
瞋	-10.3413
狼	-10.3414
經律	-10.3415
其為	-10.3416
斂	-10.3419
百歲	-10.3422
入京	-10.3424
水中	-10.3435
三皇	-10.3441
放生	-10.3452
莖	-10.3455
為國	-10.3458
於彼	-10.3459
丁未	-10.3465
東方	-10.3477
泯	-10.3478
拙	-10.3478
經典	-10.3481
恬	-10.3484
與我	-10.3484
無事	-10.349
九歲	-10.3493
住處	-10.3493
拂子	-10.3499
今之	-10.3499
為眾	-10.35
便喝	-10.3501
戒律	-10.3505
朴	-10.351
為善	-10.3514
西山	-10.3514
僧眾	-10.3526
豁	-10.3528
令其	-10.353
日夜	-10.3539
王之	-10.3543
謂眾曰	-10.3553
而歸	-10.3554
河南	-10.3556
安得	-10.3557
經像	-10.3558
一見	-10.3559
了也	-10.356
同時	-10.3564
毱多	-10.3571
亘	-10.3578
完	-10.3579
娶	-10.3583
圓悟	-10.3584
衲子	-10.3585
求之	-10.3587
無量壽	-10.3592
入城	-10.3598
以聞	-10.3601
中夜	-10.3602
為說法	-10.3602
沙門法	-10.3603
亦名	-10.3607
謨	-10.3614
致敬	-10.3614
何者	-10.3619
枉	-10.3619
腰	-10.362
女子	-10.3631
一旦	-10.3632
自號	-10.3632
恭敬	-10.3632
後人	-10.3634
又以	-10.3639
道行	-10.3639
藤	-10.3644
淨慈	-10.3644
配	-10.3646
楞伽	-10.3647
誑	-10.3649
飡	-10.3649
進士	-10.3651
宮殿	-10.3653
精勤	-10.3656
者乎	-10.3656
其一	-10.366
韓子	-10.3663
太上	-10.3664
之本	-10.3664
夾	-10.3666
昨	-10.3667
王者	-10.367
亦可	-10.3672
甲午	-10.3672
而未	-10.3677
僚	-10.368
萬餘	-10.3682
宵	-10.3689
禮懺	-10.3691
咄	-10.3692
天樂	-10.3707
剡	-10.3711
其餘	-10.3719
錢唐	-10.372
磬	-10.3721
其父	-10.3722
妨	-10.3723
佛為	-10.3729
示之	-10.3734
廣州	-10.3737
護國	-10.3738
二十六	-10.3747
相傳	-10.3747
孕	-10.3748
用心	-10.3748
於地	-10.3748
宴	-10.375
斫	-10.375
苗	-10.3751
眷	-10.3754
燼	-10.3757
光照	-10.3762
無我	-10.3763
梵語	-10.377
之妙	-10.378
忿	-10.3781
什麼處	-10.3782
隻	-10.3783
張氏	-10.3783
麤	-10.3786
不異	-10.3787
山下	-10.3788
攀	-10.379
沸	-10.3792
輟	-10.3794
則無	-10.3798
經行	-10.3805
「	-10.3805
故名	-10.3808
生而	-10.381
般若經	-10.3811
琴	-10.3815
狹	-10.3818
粲	-10.382
詭	-10.3824
為道	-10.3825
極樂	-10.3832
修道	-10.3834
眾經	-10.3835
十歲	-10.3846
之罪	-10.3846
現在	-10.3849
不從	-10.3859
太尉	-10.3861
三觀	-10.3863
滴	-10.3866
挽	-10.3868
弘法	-10.3868
天尊	-10.3873
諸寺	-10.3882
嵩山	-10.3885
霧	-10.3887
不容	-10.3888
法堂	-10.3888
承天	-10.3896
汝可	-10.3896
相應	-10.3898
壬午	-10.391
縱橫	-10.391
丙子	-10.3917
貶	-10.3924
夭	-10.3925
相好	-10.3928
禦	-10.3929
不淨	-10.393
乍	-10.3931
豫章	-10.3931
目前	-10.3932
如生	-10.3943
京邑	-10.3947
唯有	-10.395
何能	-10.395
之書	-10.3952
霍	-10.3953
大教	-10.3955
于闐	-10.3957
此言	-10.3959
遂以	-10.3961
華言	-10.3961
贖	-10.3962
虐	-10.3962
聾	-10.3962
幹	-10.3963
棟	-10.3964
百官	-10.3965
斛	-10.3965
以示	-10.3966
緇素	-10.3969
此則	-10.3979
又於	-10.398
諸侯	-10.3982
罽賓	-10.3983
去來	-10.3994
下座	-10.3995
耽	-10.3996
匿	-10.4
釋智	-10.4001
佳	-10.4001
鱗	-10.4005
枚	-10.4005
不死	-10.4006
不行	-10.4007
辛酉	-10.4018
攸	-10.4027
薨	-10.403
其所出法嗣	-10.4035
五臺山	-10.4036
盆	-10.4037
化為	-10.4037
林寺	-10.4049
所住	-10.405
齋戒	-10.406
羲	-10.4062
綴	-10.4069
明州	-10.4069
菩提樹	-10.4071
勃	-10.4073
渾	-10.4074
其旨	-10.4074
伹	-10.4078
挾	-10.4082
百里	-10.409
并州	-10.4091
之宗	-10.4093
三聖	-10.4102
陀羅	-10.4104
泗	-10.4104
潮	-10.4106
架	-10.4108
千人	-10.411
處處	-10.4111
舉似	-10.4114
憩	-10.4114
不知何許人	-10.4116
微妙	-10.4118
凡聖	-10.4119
還有	-10.4121
行至	-10.4127
荼	-10.4131
摩羅	-10.4134
廷	-10.4138
膚	-10.4139
北齊	-10.4139
關中	-10.4142
剃髮	-10.4142
此乃	-10.4145
翳	-10.4146
償	-10.4148
行於世	-10.415
之世	-10.4152
大智	-10.4154
瑞應	-10.4154
生天	-10.4157
乙未	-10.4157
壽六十	-10.4158
四日	-10.4158
寺中	-10.4164
少林	-10.4164
本紀	-10.4164
講法華	-10.4169
大唐	-10.4169
安養	-10.4169
何事	-10.417
吳興	-10.4174
豆	-10.4177
儻	-10.4179
存焉	-10.4181
食肉	-10.4188
鍾山	-10.4189
丁卯	-10.4197
南方	-10.4199
癸亥	-10.4201
中天竺	-10.4207
請益	-10.421
勗	-10.4213
偷	-10.4213
剏	-10.4214
決定	-10.4218
抽	-10.4219
富貴	-10.4231
文殊師利	-10.4231
念念	-10.4234
大興	-10.4235
戊申	-10.4235
便是	-10.4236
十善	-10.4239
講經	-10.4241
白馬	-10.4245
十三日	-10.4251
隱居	-10.4252
飲酒	-10.4253
捷	-10.4254
千年	-10.4254
厨	-10.4254
真諦	-10.4257
二十三	-10.427
梵天	-10.4278
董	-10.4287
漆	-10.4291
僧正	-10.4295
不著	-10.4299
與人	-10.4302
庚戌	-10.4303
言語	-10.4311
至元	-10.4322
斤	-10.4324
造寺	-10.4329
塔於	-10.4332
微言	-10.4332
不易	-10.4344
性命	-10.4348
大驚	-10.4348
薩	-10.435
學道	-10.4357
此身	-10.4359
裝	-10.436
釋門	-10.4365
供給	-10.4377
於前	-10.4379
或曰	-10.4381
為說	-10.4386
曷	-10.4393
多聞	-10.4396
酷	-10.4401
諸王	-10.4402
舘	-10.4403
茶毗	-10.4409
奄	-10.441
十餘年	-10.4419
丁亥	-10.4419
適來	-10.4419
迺	-10.4429
郁	-10.4434
金光明	-10.4438
代宗	-10.4439
四十九	-10.444
晃	-10.4441
─	-10.4443
一食	-10.445
玉泉	-10.445
於人	-10.4452
壬辰	-10.4453
寺主	-10.4459
璧	-10.4462
聯	-10.4462
乙巳	-10.4465
然也	-10.4466
揚州	-10.4472
闍黎	-10.4472
歛	-10.4475
願力	-10.4476
森	-10.4477
脇	-10.4483
景德	-10.4487
豈得	-10.4491
指示	-10.4493
年中	-10.4497
雀	-10.4502
大集	-10.4508
饌	-10.4509
久矣	-10.4511
彼國	-10.4511
善根	-10.4513
釋曇	-10.4514
能仁	-10.4516
因而	-10.4517
擬議	-10.4519
不樂	-10.4522
靈巖	-10.4528
受具戒	-10.4538
建元	-10.4539
嗣法	-10.4539
去矣	-10.454
知是	-10.454
毅	-10.4543
頸	-10.455
雉	-10.4551
愽	-10.4551
仁宗	-10.4553
問訊	-10.4554
雖然	-10.4555
猶未	-10.4557
興化	-10.4557
夢中	-10.4567
乙卯	-10.4569
子曰	-10.4574
鬪	-10.4576
擒	-10.4577
促	-10.4579
行矣	-10.4582
萬人	-10.4582
七百	-10.4584
稱為	-10.4585
周孔	-10.4586
駐	-10.4587
展轉	-10.4588
大興善寺	-10.4589
身長	-10.4605
梵行	-10.461
跋陀	-10.4613
觀者	-10.4614
邕	-10.4614
凡有	-10.4616
恕	-10.4616
煥	-10.4617
林中	-10.4619
天神	-10.462
不變	-10.462
致書	-10.462
二子	-10.4621
佛者	-10.4623
欲以	-10.4625
薰	-10.4626
何也	-10.4626
不聽	-10.4626
是日	-10.4627
神仙	-10.4634
作佛事	-10.4636
馬鳴	-10.4636
師事	-10.464
希有	-10.4641
戊辰	-10.4644
以自	-10.4644
六時	-10.4647
穆王	-10.4648
無二	-10.4648
佛殿	-10.465
帝師	-10.4653
貽	-10.4656
刪	-10.4656
後學	-10.4657
跨	-10.4659
之聲	-10.4678
大通	-10.4678
乙酉	-10.4681
般涅槃	-10.4685
髻	-10.469
之相	-10.4693
石門	-10.4695
不可思議	-10.4695
此國	-10.4696
不曾	-10.4697
有無	-10.4698
銜	-10.4698
丁巳	-10.4699
驛	-10.4704
禽	-10.4704
不亦	-10.4705
最為	-10.4716
不過	-10.4722
司徒	-10.4726
琉璃	-10.4727
宮中	-10.4728
南陽	-10.473
綸	-10.4734
忻	-10.4735
以偈	-10.4735
蔬	-10.4737
玩	-10.474
乾坤	-10.4741
二十九	-10.4743
既無	-10.4745
諸弟子	-10.4748
受之	-10.4761
戊午	-10.4761
誦金剛經	-10.4761
五部	-10.4762
禪者	-10.4767
不盡	-10.4768
雁	-10.4769
下詔	-10.4771
千載	-10.4775
之號	-10.4779
綵	-10.4781
二十二	-10.4781
六道	-10.4786
安坐	-10.4796
壬子	-10.4798
三十三	-10.4798
丁酉	-10.4799
有道	-10.4801
顏色	-10.4801
晚年	-10.4801
真人	-10.4801
寶林	-10.4802
荊溪	-10.4808
自謂	-10.4809
蔚	-10.4811
翻經	-10.4814
溈	-10.4815
學佛	-10.4816
旛	-10.4819
十六日	-10.482
賢聖	-10.4823
若無	-10.4824
見性	-10.483
宛	-10.483
龍宮	-10.4833
癸未	-10.4836
甲申	-10.4836
庚午	-10.4838
賾	-10.4844
牆	-10.4854
行化	-10.4855
募	-10.4857
𦘕	-10.4859
劇	-10.486
受苦	-10.4868
丙午	-10.4871
明旦	-10.4871
壬寅	-10.4874
蔣山	-10.4874
其德	-10.4877
三載	-10.4879
嫉	-10.4882
文武	-10.4884
教觀	-10.4885
書云	-10.4887
矢	-10.4893
踞	-10.4894
靈異	-10.4894
故能	-10.4895
震動	-10.4899
做	-10.4901
丹陽	-10.4902
向上	-10.4904
而得	-10.4909
上表	-10.4915
奄然	-10.4917
則天	-10.4917
驚異	-10.492
楷	-10.4925
逍遙	-10.4928
讚曰	-10.4928
此處	-10.493
塚	-10.4931
未可	-10.4932
曳	-10.4936
有旨	-10.4939
可知	-10.4942
蜜	-10.4945
大悅	-10.495
名字	-10.4954
煬帝	-10.4965
湛然	-10.4969
畔	-10.4971
迅	-10.4972
老師	-10.4972
我是	-10.4975
東土	-10.4975
面西	-10.498
與師	-10.498
亦是	-10.4985
也無	-10.4987
洪武	-10.4989
丙辰	-10.4991
綺	-10.5004
隨緣	-10.5004
耳目	-10.5006
岡	-10.5006
釆	-10.5008
得舍利	-10.501
?」	-10.5012
岑	-10.5013
儼然	-10.5015
衣冠	-10.5015
城西	-10.5023
賢首	-10.5023
書偈	-10.5024
庚辰	-10.5027
手執	-10.5028
金銀	-10.5029
不入	-10.5031
癸卯	-10.5034
福德	-10.5036
一物	-10.5037
夾山	-10.5041
績	-10.5041
咽	-10.5046
若人	-10.5047
所生	-10.505
謾	-10.5052
故來	-10.5052
不知其	-10.5054
覧	-10.5054
無餘	-10.5057
敬之	-10.5059
國清	-10.5065
辛丑	-10.5066
羯磨	-10.5075
梵志	-10.5077
末後	-10.5079
即為	-10.5083
入寺	-10.5086
之術	-10.5091
終于	-10.5095
聞法	-10.5097
恰	-10.5098
心印	-10.5118
儔	-10.5122
丈夫	-10.5127
或問	-10.5131
丁丑	-10.5143
佛心	-10.5144
城東	-10.5144
每日	-10.515
寰	-10.5159
挹	-10.5161
但以	-10.5161
姦	-10.5163
乃問	-10.5169
奈	-10.5171
名山	-10.5172
多矣	-10.5176
賢者	-10.5177
陞座	-10.5178
大迦葉	-10.5183
丈餘	-10.5184
將終	-10.5185
丙寅	-10.519
金山	-10.5194
以事	-10.5195
問其故	-10.5195
王宮	-10.5197
始終	-10.5202
金剛般若	-10.5203
別傳	-10.5206
終南山	-10.5212
聞空中	-10.5213
第八	-10.5213
彈指	-10.5215
百億	-10.5222
喚作	-10.5229
求出家	-10.5232
士庶	-10.5234
厄	-10.5241
巷	-10.5244
了無	-10.525
這僧	-10.5256
癸丑	-10.5268
乙亥	-10.5268
至如	-10.5275
心地	-10.5282
繡	-10.5282
諸比丘	-10.5284
嗔	-10.5287
稚	-10.5288
療	-10.5294
蚤	-10.5296
辭去	-10.5303
不免	-10.5304
捨身	-10.5304
癸酉	-10.5308
戒壇	-10.5309
年二月	-10.5321
龐	-10.5321
辛巳	-10.5325
次日	-10.5326
若以	-10.5328
餐	-10.5329
韜	-10.5329
而止	-10.533
禮樂	-10.5331
陜	-10.5331
杯	-10.5336
喜曰	-10.534
心念	-10.5342
故有	-10.5344
是名	-10.5345
辛亥	-10.5347
春秋六十	-10.5349
中間	-10.5352
甲辰	-10.5354
東晉	-10.5364
祗	-10.5365
昂	-10.5365
悚	-10.5368
甯	-10.5369
眾咸	-10.537
龜茲	-10.5371
團	-10.5373
根本	-10.5374
曾無	-10.5377
禪觀	-10.5377
閻浮	-10.5381
未得	-10.5386
丙申	-10.5391
之德	-10.5391
謂之曰	-10.5399
城南	-10.5403
此地	-10.5405
綠	-10.5408
僉	-10.5411
鞭	-10.5414
此間	-10.5414
受菩薩戒	-10.5416
大會	-10.5417
八部	-10.5418
臘五十	-10.5418
所感	-10.5418
故云	-10.5419
至道	-10.5421
道家	-10.5423
之學	-10.5427
尊宿	-10.543
庚寅	-10.5432
籌	-10.5443
香氣	-10.5445
麓	-10.5447
遙見	-10.5447
鈴	-10.5448
相繼	-10.5449
而入	-10.5451
拋	-10.5453
其書	-10.5455
大鑒之	-10.5456
生平	-10.5457
靡不	-10.546
雪峰	-10.5467
名德	-10.547
自性	-10.547
婁	-10.5477
戊子	-10.5478
評	-10.548
瞻禮	-10.5483
汴	-10.5483
斧	-10.5489
?	-10.549
其有	-10.5495
不取	-10.5506
司空	-10.5508
遷化	-10.5511
皆為	-10.5512
甲戌	-10.5517
鄉里	-10.5518
果報	-10.5519
不知所	-10.5521
六度	-10.5521
之情	-10.5523
澆	-10.5525
鄉人	-10.5527
措	-10.5533
隙	-10.5535
溟	-10.5536
价	-10.5538
甦	-10.5541
迎之	-10.5548
乃云	-10.5552
無情	-10.5553
相續	-10.5555
無他	-10.5557
節度使	-10.5561
拏	-10.5561
白蓮	-10.5565
西京	-10.5568
確	-10.5577
諧	-10.5581
授記	-10.5582
禪林	-10.56
辛未	-10.5601
亨	-10.5607
汪	-10.5614
汎	-10.5614
多有	-10.5615
躡	-10.5617
滄	-10.5619
訴	-10.5623
二十一年	-10.5624
薦福	-10.5637
一月	-10.5639
潭州	-10.5642
見聞	-10.5645
寫經	-10.5645
琛	-10.5655
廁	-10.5663
宣帝	-10.5667
年六十	-10.568
念佛三昧	-10.568
永安	-10.568
乃是	-10.5681
一切法	-10.5685
吳郡	-10.5688
鑽	-10.5697
鍊	-10.5697
入宮	-10.5699
教法	-10.5702
住世	-10.5707
悲泣	-10.5707
從容	-10.5711
丙戌	-10.5724
無益	-10.5732
麥	-10.5732
釐	-10.5733
瞿	-10.5734
塑	-10.5734
孚	-10.5734
稜	-10.5738
之性	-10.5739
柰	-10.574
神曰	-10.5742
僻	-10.5742
吾今	-10.5743
遣人	-10.5745
御製	-10.5746
緩	-10.5748
武宗	-10.5749
我心	-10.5751
無方	-10.5756
論師	-10.5764
乙丑	-10.5767
之業	-10.5774
是則	-10.5775
州剌史	-10.5776
大義	-10.5777
諒	-10.5786
貴賤	-10.5787
律儀	-10.579
法花	-10.5796
詩云	-10.5803
文王	-10.5805
通達	-10.581
形像	-10.5811
栴檀	-10.5814
不失	-10.5815
沮	-10.5817
足下	-10.5819
師資	-10.582
周武	-10.582
千萬	-10.5822
毘尼	-10.5822
百六十	-10.5822
釋種	-10.5824
福業	-10.5824
湊	-10.5824
睦	-10.5824
在家	-10.5834
所能	-10.584
歷代	-10.5841
消息	-10.5846
戊戌	-10.5851
偈云	-10.5851
太極	-10.5855
真宗	-10.5856
(〔	-10.5858
祖云	-10.5859
是什麼	-10.5859
姬	-10.5863
吾師	-10.5864
換	-10.5875
八百	-10.5876
精神	-10.5879
少年	-10.5885
為沙門	-10.59
作麼	-10.5901
著述	-10.5901
螺	-10.5906
萬言	-10.591
文宣	-10.5914
奏曰	-10.5915
唄	-10.5915
都督	-10.5916
肖	-10.5917
翌日	-10.592
二親	-10.5925
宗門	-10.5925
不必	-10.5931
之境	-10.5932
睿	-10.5933
琮	-10.5938
辛卯	-10.594
竇	-10.5948
迨	-10.595
永平	-10.5955
汾陽	-10.5956
圍繞	-10.5957
不斷	-10.5967
開法	-10.5968
守護	-10.5972
如常	-10.5974
請住	-10.5977
戊寅	-10.5979
數萬	-10.5985
奇之	-10.5987
闊	-10.5989
沖	-10.5991
圓明	-10.5992
瞿曇	-10.5993
縷	-10.5994
聖旨	-10.5997
餌	-10.5998
沙門慧	-10.5999
即今	-10.6002
天龍	-10.6004
無言	-10.6005
祝髮	-10.6011
覔	-10.6011
毗尼	-10.6013
諸眾生	-10.602
再拜	-10.6025
再三	-10.6028
十五日	-10.6029
罪福	-10.603
文義	-10.6032
至期	-10.6033
優劣	-10.6034
士大夫	-10.6042
比丘尼	-10.6042
頑	-10.6047
西夏	-10.6047
周公	-10.6047
心法	-10.6054
頓悟	-10.6054
目連	-10.6054
輪王	-10.6063
青衣	-10.6068
之初	-10.6073
槃	-10.6076
蘭若	-10.6078
二師	-10.6079
樞	-10.608
開示	-10.6083
拍	-10.6085
不獲	-10.6087
桐	-10.6087
鷹	-10.6088
一行	-10.609
驟	-10.6093
孟子	-10.6101
至誠	-10.6103
法要	-10.6106
其數	-10.6107
僧祇	-10.6108
萬年	-10.6111
一聲	-10.6113
無遺	-10.6119
差別	-10.6122
天皇	-10.6123
孺	-10.6124
二十四年	-10.6125
甚多	-10.6127
宸	-10.6129
顛倒	-10.6132
有一人	-10.6133
開寶	-10.6134
寮	-10.6135
春秋八十	-10.6136
尋常	-10.6139
坐具	-10.6142
示滅	-10.6154
月八日	-10.6171
料	-10.6172
汰	-10.6172
織	-10.6172
瞎	-10.6172
擯	-10.6173
萃	-10.6174
鬱	-10.6175
年三十	-10.6176
挂	-10.6177
猿	-10.6178
越州	-10.6178
仆	-10.6183
有疾	-10.6186
莫之	-10.6186
數人	-10.6191
乃於	-10.6199
魔王	-10.6203
春秋七十	-10.6204
妙喜	-10.6205
熊	-10.6211
歸心	-10.6212
貯	-10.6215
胥	-10.6216
元祐	-10.6218
窓	-10.622
不問	-10.6222
二乘	-10.6227
蜜多	-10.624
公案	-10.6243
八歲	-10.6246
癸巳	-10.6247
鳩	-10.6251
漂	-10.6252
斌	-10.6253
▁齊	-10.6257
針	-10.6258
縉	-10.6258
峨	-10.626
航	-10.6264
邵	-10.6264
妹	-10.6265
五帝	-10.6265
喧	-10.6266
賜紫	-10.6267
闔	-10.6271
雍州	-10.6271
之餘	-10.6273
無別	-10.6276
父王	-10.6285
門徒	-10.6293
沃	-10.6294
北山	-10.6297
參禪	-10.6302
所言	-10.6303
侮	-10.6303
昔有	-10.6304
憲宗	-10.6304
山云	-10.6305
自古	-10.6309
梯	-10.6309
海內	-10.6319
枷	-10.6325
洪州	-10.6327
當來	-10.6329
四十八	-10.6335
何有	-10.6343
圭	-10.6344
珍寶	-10.635
廼	-10.6354
叫	-10.6358
猶有	-10.6365
宗師	-10.6368
寶雲	-10.6375
西歸	-10.638
山水	-10.6382
老宿	-10.6386
建寺	-10.6387
鬚	-10.6391
風俗	-10.6393
不思	-10.6399
白佛言	-10.64
殺人	-10.6401
萬行	-10.6402
昨日	-10.6416
上竺	-10.6422
壬戌	-10.6425
二字	-10.643
忉利天	-10.6431
懃	-10.6439
自言	-10.644
佛告	-10.6444
襟	-10.6445
膏	-10.6446
示眾云	-10.6447
山神	-10.6448
髓	-10.6448
結集	-10.6451
已後	-10.6456
一法	-10.6457
普照	-10.6459
五十餘	-10.6461
八萬	-10.6466
不巳	-10.6469
餓	-10.648
添	-10.6484
緘	-10.6487
陣	-10.6488
沾	-10.649
請僧	-10.6491
聳	-10.6491
梁武	-10.6493
忤	-10.6493
日誦	-10.6493
神變	-10.6498
吾當	-10.6498
我身	-10.6504
金剛般若經	-10.6523
開口	-10.6526
翫	-10.653
忽聞	-10.6531
竦	-10.6532
放下	-10.6532
畜生	-10.6552
有窣堵波	-10.6557
鳳翔	-10.6565
拓	-10.6566
不善	-10.6567
戈	-10.6574
澡	-10.6577
唾	-10.6577
裳	-10.6579
馴	-10.658
天祠	-10.6582
翰林	-10.6588
佛理	-10.6591
座下	-10.6594
悔過	-10.6596
大將軍	-10.6597
四分	-10.66
欲求	-10.66
第九	-10.6606
日用	-10.661
始知	-10.661
行世	-10.6614
柯	-10.6616
陪	-10.6617
四諦	-10.6618
雕	-10.6621
寺院	-10.6623
遑	-10.6624
事佛	-10.6625
孝武	-10.6625
罄	-10.6626
告眾曰	-10.6628
以求	-10.6628
寺塔	-10.6629
尊者曰	-10.6646
振錫	-10.6651
空寂	-10.6654
俱舍	-10.6667
遞	-10.6667
峙	-10.6667
奉詔	-10.6667
焚之	-10.6674
撲	-10.6677
阿含	-10.669
金輪	-10.6694
開元寺	-10.6704
朝夕	-10.6708
瓔珞	-10.6709
餓鬼	-10.6712
聖寺	-10.672
傳燈錄	-10.6722
株	-10.6724
西向	-10.6727
諸聖	-10.6729
公主	-10.673
正念	-10.6735
黃帝	-10.6739
四天王	-10.6743
相承	-10.6744
狀如	-10.6748
三尺	-10.6749
語錄	-10.6751
栗	-10.676
紂	-10.6761
自得	-10.6766
東坡	-10.6771
彼岸	-10.6771
聽者	-10.6773
白馬寺	-10.6773
慈明	-10.6775
蔣	-10.6783
流布	-10.6785
延慶	-10.6795
還家	-10.6801
迴向	-10.6803
中宗	-10.6803
慚愧	-10.6808
隨喜	-10.6812
弘道	-10.6812
肥	-10.6814
向西	-10.6819
法華三昧	-10.6825
世俗	-10.6826
明月	-10.6826
都無	-10.6836
譜	-10.6837
咸通	-10.6838
失其	-10.6839
谿	-10.685
白言	-10.6852
厲聲	-10.6852
伺	-10.6854
千五百	-10.6855
菩薩戒	-10.6856
飯僧	-10.6857
老氏	-10.686
遂得	-10.6861
弱冠	-10.6867
蒼生	-10.6869
七佛	-10.6869
攝論	-10.687
虎丘	-10.6871
六根	-10.6873
讀書	-10.6873
持經	-10.6879
龍象	-10.6882
博士	-10.6884
文句	-10.6888
自非	-10.6888
後漢	-10.6888
江州	-10.6891
塔寺	-10.6895
一家	-10.6896
雙林	-10.6898
概	-10.69
筠	-10.6901
各各	-10.6904
炭	-10.6905
達摩	-10.6906
邪正	-10.6906
零	-10.6906
濤	-10.691
彼此	-10.6912
天寧	-10.6915
宣宗	-10.6916
同歸	-10.6917
禪門	-10.6917
時號	-10.6928
不少	-10.6934
二十三年	-10.694
敬禮	-10.6945
酌	-10.6947
鉤	-10.6953
專心	-10.6953
渚	-10.6955
衣食	-10.6958
五六	-10.6958
愕	-10.6962
機緣	-10.6967
欲得	-10.6968
惡業	-10.6969
罽賓國	-10.6976
坐逝	-10.6977
端正	-10.6981
為什麼	-10.6982
回向	-10.6987
入門	-10.699
諸部	-10.6992
縣人	-10.6992
開堂	-10.6992
九日	-10.6992
疆	-10.6995
媼	-10.6997
雲棲	-10.7
裹	-10.7006
泊然	-10.7007
四十年	-10.7008
其實	-10.7013
塔于	-10.7013
佛說	-10.7019
肅宗	-10.7022
剌史	-10.7024
放光明	-10.7028
念誦	-10.703
轉法輪	-10.7038
中印度	-10.7039
垣	-10.7043
不契	-10.7045
娛	-10.7048
如初	-10.7049
掠	-10.7049
丹霞	-10.705
褐	-10.7053
袍	-10.7054
禪院	-10.7055
三衣	-10.7057
四面	-10.7057
復何	-10.7058
頤	-10.7059
萬壽	-10.7061
可乎	-10.7084
不答	-10.7089
詩曰	-10.709
可見	-10.7096
䖍	-10.7101
恍	-10.7104
莊嚴寺	-10.7107
聲色	-10.7109
謂人曰	-10.711
法寶	-10.7114
:	-10.7118
汝能	-10.7119
頭上	-10.7121
寺觀	-10.7123
兜率天	-10.7131
百家	-10.7136
䟦	-10.7138
堂中	-10.7141
宦	-10.7143
邇	-10.7143
伍	-10.7149
豈能	-10.7154
不堪	-10.7154
世宗	-10.7156
告之曰	-10.716
亦然	-10.7161
己丑	-10.7176
唯願	-10.7177
異僧	-10.7192
羸	-10.7195
問答	-10.7196
藹	-10.7197
能知	-10.7198
繪	-10.7199
呼為	-10.72
榜	-10.7201
跳	-10.7201
所傳	-10.7204
釋典	-10.7205
聽法	-10.7208
得免	-10.7208
講堂	-10.7209
一室	-10.721
怡	-10.7221
教門	-10.7224
羅剎	-10.7225
傳授	-10.7228
賢劫	-10.7229
未足	-10.7231
藪	-10.7238
彫	-10.7239
采	-10.7245
讚歎	-10.7246
卵	-10.7247
天帝	-10.7254
大溈	-10.7269
若夫	-10.7272
長子	-10.7272
後住	-10.7274
下勅	-10.7278
寶藏	-10.7279
卒于	-10.728
九流	-10.7284
揆	-10.7285
阿彌陀	-10.7286
胄	-10.729
疇	-10.7294
殞	-10.7296
兔	-10.7297
總管	-10.7298
債	-10.7298
持金剛經	-10.73
庶幾	-10.7302
少出家	-10.7307
婦人	-10.7311
稱之	-10.7314
求法	-10.7316
互相	-10.7318
手足	-10.7319
年十三	-10.7326
曼	-10.7331
舉手	-10.7333
竟不	-10.7335
葱嶺	-10.7339
三歲	-10.7341
布衣	-10.7341
頂上	-10.7343
草堂	-10.7347
圓滿	-10.7349
佛牙	-10.7353
西國	-10.7354
殺生	-10.7357
叅	-10.7358
香爐	-10.7361
雲集	-10.7369
入寂	-10.7378
士女	-10.7378
琰	-10.7381
微塵	-10.7383
㲲	-10.7383
萌	-10.7383
〔	-10.7391
三十一	-10.7393
衝	-10.7394
窠	-10.7396
靈寶	-10.7397
投子	-10.7398
杳	-10.7399
已上	-10.7402
不拜	-10.7402
梵王	-10.7403
壽命	-10.7406
一代	-10.7409
何足	-10.7412
談論	-10.7417
石上	-10.7418
泰山	-10.742
印可	-10.7427
丕	-10.7427
百萬	-10.7431
灼	-10.7436
西明寺	-10.7439
蓄	-10.7441
蓬	-10.7443
歸命	-10.7456
二部	-10.7456
三十五	-10.7457
沙門道	-10.7462
誦持	-10.7465
至理	-10.7468
奇特	-10.7469
己卯	-10.7471
長齋	-10.7473
寶積	-10.7476
王舍城	-10.7478
鎧	-10.7483
三十七	-10.7484
突	-10.7486
璨	-10.749
僧祐	-10.7494
纖	-10.7495
粉	-10.7497
蓮社	-10.7498
又復	-10.7503
六卷	-10.7504
謝曰	-10.7515
內典	-10.7519
便出	-10.752
帝崩	-10.7521
優婆塞	-10.7527
安隱	-10.753
古佛	-10.7533
褚	-10.7534
水陸	-10.7535
習禪	-10.7538
歐陽	-10.7541
無由	-10.7541
絃	-10.7543
濯	-10.7545
灾	-10.7546
佇	-10.7546
二十卷	-10.7558
衲僧	-10.7572
閔	-10.7576
娑	-10.7576
己酉	-10.7579
摩騰	-10.7584
冕	-10.7588
那羅	-10.759
精誠	-10.7593
諗	-10.7605
獅子	-10.7607
旬日	-10.7615
圓光	-10.762
第一座	-10.7621
孰能	-10.7623
悟入	-10.7628
太常	-10.7633
郡守	-10.7634
年十五	-10.7634
正法眼藏	-10.7638
虹	-10.7641
燃	-10.7642
縫	-10.7643
六經	-10.7645
樵	-10.7645
冐	-10.7648
商量	-10.7651
遂使	-10.7656
栢	-10.7656
佛前	-10.7659
第一義	-10.7663
廿	-10.7676
帖	-10.7696
欵	-10.7697
葷	-10.7703
巫	-10.7704
狎	-10.7705
畵	-10.771
杵	-10.775
稅	-10.775
鋪	-10.775
廳	-10.777
樊	-10.7793
卦	-10.7794
挫	-10.7796
勳	-10.7796
旗	-10.7796
僊	-10.7834
桀	-10.784
芥	-10.7897
甄	-10.7898
戾	-10.7898
蠻	-10.79
仞	-10.7907
鈞	-10.7949
姊	-10.7965
廡	-10.7966
顆	-10.8009
聘	-10.8013
椎	-10.8053
覈	-10.8053
踊	-10.8057
沿	-10.8063
洹	-10.8157
篆	-10.8163
潘	-10.8164
釣	-10.8169
慘	-10.8172
籤	-10.8175
恠	-10.8179
袋	-10.8218
粹	-10.822
璋	-10.8221
懶	-10.8223
翊	-10.8226
屯	-10.8227
慾	-10.823
佗	-10.8256
霸	-10.8268
昊	-10.8276
屆	-10.8277
寥	-10.8279
驀	-10.8281
鑪	-10.8285
件	-10.8318
濱	-10.8324
珣	-10.8328
燾	-10.8328
秩	-10.8332
翱	-10.8334
攘	-10.8335
閏	-10.8338
謫	-10.8342
辜	-10.8382
魅	-10.8387
軫	-10.8387
拊	-10.8393
穩	-10.8395
貝	-10.8431
馱	-10.8434
詵	-10.8436
惻	-10.8442
錐	-10.8444
壓	-10.8446
羯	-10.8483
喬	-10.8487
璟	-10.8496
憎	-10.8504
炙	-10.8505
盂	-10.8508
仇	-10.855
滔	-10.8552
訟	-10.8553
繒	-10.8557
駒	-10.8559
瞽	-10.8606
滑	-10.861
魁	-10.8612
恪	-10.8615
蟻	-10.8616
秊	-10.8616
鷲	-10.8656
諲	-10.8667
筌	-10.8668
邸	-10.867
丸	-10.8671
渭	-10.8675
侃	-10.8677
挍	-10.8708
亞	-10.8719
竈	-10.8719
肘	-10.8719
竿	-10.8721
膠	-10.8725
瓚	-10.8726
蟒	-10.8727
鬻	-10.8779
鵲	-10.878
竄	-10.8787
欠	-10.8788
凉	-10.8827
曩	-10.8829
郢	-10.883
梗	-10.8839
忝	-10.8842
邱	-10.8845
馭	-10.8887
羞	-10.8894
蒸	-10.8897
瞬	-10.8899
稔	-10.8901
摸	-10.8901
瓜	-10.8905
暖	-10.8905
塊	-10.8906
佉	-10.8933
殂	-10.8936
璽	-10.8938
虫	-10.8949
鐸	-10.8951
茹	-10.8953
弔	-10.8955
睛	-10.8956
岫	-10.8956
禳	-10.8957
啖	-10.8959
倏	-10.896
晴	-10.8961
霽	-10.8963
盥	-10.8966
恚	-10.9006
舅	-10.9015
葺	-10.9016
醮	-10.9016
釘	-10.9018
蹟	-10.9061
滌	-10.9074
糜	-10.9075
腸	-10.9076
煉	-10.9079
媿	-10.908
庠	-10.9127
鑊	-10.9128
冶	-10.913
腦	-10.9132
揀	-10.9133
幣	-10.9133
縮	-10.9135
敲	-10.9135
渥	-10.9183
脂	-10.9189
陞	-10.9189
崛	-10.919
衷	-10.9192
璞	-10.9195
!	-10.9218
悖	-10.9242
篋	-10.9244
迭	-10.9244
俞	-10.9246
紳	-10.925
殯	-10.925
収	-10.9251
督	-10.9251
兇	-10.9253
衫	-10.9261
踈	-10.9303
塘	-10.9308
蠢	-10.931
漳	-10.9312
簪	-10.9313
忙	-10.9314
鉅	-10.9314
柄	-10.9322
禾	-10.9358
誇	-10.9368
狄	-10.9369
瘳	-10.9371
裘	-10.9374
鞋	-10.9374
勾	-10.9377
1	-10.9383
迸	-10.9383
籙	-10.9428
趂	-10.9429
鞠	-10.9432
皷	-10.9437
擢	-10.9438
晟	-10.9442
瀆	-10.9485
浹	-10.9491
愜	-10.9494
槌	-10.9495
舁	-10.9496
嫁	-10.95
塢	-10.9502
渤	-10.9551
軾	-10.9551
帽	-10.9562
倡	-10.9564
莽	-10.9611
漠	-10.9613
賷	-10.9617
潰	-10.9617
冒	-10.962
嘯	-10.962
鵝	-10.9621
笠	-10.9622
𦦨	-10.9633
緝	-10.967
沛	-10.9676
繕	-10.9676
恤	-10.9678
兀	-10.968
疋	-10.9683
肝	-10.9685
洒	-10.9686
覿	-10.9687
栽	-10.9687
烹	-10.9689
坡	-10.9732
澧	-10.9736
蔑	-10.974
屑	-10.9741
犍	-10.9742
僣	-10.9745
豹	-10.9753
囉	-10.9786
邏	-10.9789
豎	-10.9794
蘄	-10.9798
膽	-10.9803
峽	-10.9803
輻	-10.9806
臼	-10.9807
懲	-10.9808
線	-10.9813
娘	-10.9822
芻	-10.9863
矩	-10.9867
嶷	-10.9868
緯	-10.9872
姪	-10.9873
漿	-10.9874
琦	-10.9935
駿	-10.9994
豕	-10.9996
漱	-10.9999
撞	-11.0001
訝	-11.0002
咲	-11.0007
峭	-11.0009
絡	-11.0061
蘆	-11.0064
撓	-11.0067
煎	-11.0067
簾	-11.0068
棗	-11.0073
弑	-11.0106
娠	-11.0125
瑕	-11.013
埃	-11.0132
殮	-11.0139
2	-11.0146
旃	-11.0171
揵	-11.0171
瑜	-11.0183
拭	-11.0189
趾	-11.0192
樣	-11.0198
瑀	-11.0198
悶	-11.0199
丙	-11.0225
趺	-11.0242
亥	-11.0251
央	-11.0251
墟	-11.0261
撒	-11.0269
荀	-11.0318
酉	-11.0319
絳	-11.0323
遏	-11.0325
浸	-11.033
呌	-11.0333
徊	-11.0334
呾	-11.0369
哆	-11.0376
瑟	-11.0388
距	-11.0389
臧	-11.0393
俸	-11.04
槩	-11.0404
犢	-11.0449
伎	-11.045
舛	-11.0451
稻	-11.0454
挑	-11.0455
黜	-11.0456
狩	-11.046
酪	-11.0461
謐	-11.0461
銓	-11.0462
搭	-11.0463
琅	-11.0469
臆	-11.0526
葱	-11.0527
窆	-11.0528
控	-11.0532
撮	-11.0532
藩	-11.0535
溝	-11.0537
剝	-11.0538
怛	-11.0578
衒	-11.0591
冉	-11.0595
眇	-11.0598
鐫	-11.0599
翅	-11.06
崑	-11.0601
悵	-11.0604
怕	-11.0612
覃	-11.0657
萇	-11.0659
疫	-11.0661
潞	-11.0664
協	-11.0666
殄	-11.0669
瘦	-11.0669
股	-11.067
屨	-11.0671
堆	-11.0673
繹	-11.0727
膳	-11.0729
鏤	-11.0732
譚	-11.0734
壘	-11.0734
猥	-11.0734
鎻	-11.0746
吠	-11.0802
牲	-11.0803
袒	-11.081
恂	-11.0817
炤	-11.082
秖	-11.0868
艾	-11.0874
徇	-11.0879
魄	-11.0934
耿	-11.0949
饗	-11.0954
􃕝	-11.0957
橛	-11.0957
煖	-11.0958
戍	-11.1011
侈	-11.1014
蘿	-11.1016
馥	-11.1018
笛	-11.102
奠	-11.102
䞋	-11.102
拽	-11.1021
島	-11.1027
租	-11.1027
貸	-11.103
倘	-11.1031
爇	-11.1033
甎	-11.1086
晤	-11.1086
箴	-11.1087
屎	-11.1088
逕	-11.1094
慳	-11.1094
軟	-11.1155
矛	-11.1161
紺	-11.1161
蠲	-11.1163
缾	-11.1163
蜂	-11.1166
婚	-11.1234
堵	-11.1236
槐	-11.1236
澹	-11.1237
牖	-11.1238
隘	-11.124
悴	-11.1242
貲	-11.1242
諠	-11.1244
頷	-11.1248
朵	-11.1252
倐	-11.1254
技	-11.1298
詆	-11.1314
憨	-11.1318
茫	-11.1366
卯	-11.1377
佞	-11.1379
瑤	-11.1381
餉	-11.1384
着	-11.1387
讒	-11.1392
鴈	-11.1392
劈	-11.1448
讎	-11.1455
騫	-11.1456
犀	-11.1456
𨽻	-11.146
怙	-11.1461
惺	-11.1462
筋	-11.1463
腥	-11.1463
个	-11.1482
脣	-11.1529
汁	-11.1529
譙	-11.153
蠶	-11.1531
炫	-11.1531
叶	-11.1531
殫	-11.1533
罹	-11.1534
俛	-11.1535
斜	-11.1541
汙	-11.1544
艸	-11.1547
菓	-11.1594
纓	-11.1603
瀉	-11.1605
扈	-11.1608
賁	-11.1672
婉	-11.1683
賚	-11.1688
瘞	-11.1688
衙	-11.1691
凍	-11.1691
痕	-11.1693
璣	-11.17
箱	-11.1705
鄂	-11.1748
淑	-11.1756
煮	-11.1763
肌	-11.1763
臯	-11.1765
畝	-11.1768
抃	-11.1837
摘	-11.1837
驕	-11.1838
雌	-11.1841
縈	-11.1843
裨	-11.1844
哥	-11.1845
版	-11.1847
裙	-11.1847
萎	-11.1847
宼	-11.1853
秪	-11.1887
輯	-11.1905
濬	-11.1911
澗	-11.1912
匱	-11.1914
屣	-11.1917
札	-11.1918
吸	-11.1918
掉	-11.192
蛻	-11.1921
妓	-11.1987
龔	-11.1994
弉	-11.1994
皐	-11.1995
撤	-11.1997
嚼	-11.1998
蚊	-11.2001
巋	-11.2002
脉	-11.2005
稀	-11.2005
啄	-11.201
0	-11.2028
暹	-11.2067
梧	-11.2073
酥	-11.2074
箕	-11.2074
羈	-11.2075
涇	-11.2077
挈	-11.2083
甕	-11.2083
倭	-11.2085
嫗	-11.2087
醍	-11.215
沓	-11.2152
禎	-11.2154
䭾	-11.2154
茨	-11.2156
腐	-11.2156
趍	-11.2156
悠	-11.2161
蟠	-11.2161
劄	-11.2162
濂	-11.2163
扁	-11.2164
氈	-11.2167
鑰	-11.2233
晞	-11.2235
蕪	-11.2238
敞	-11.2238
苞	-11.2238
廩	-11.2239
鍼	-11.2245
欄	-11.2256
篡	-11.2308
愔	-11.2308
宥	-11.231
厝	-11.2313
孩	-11.2316
皈	-11.2317
楹	-11.2317
亹	-11.2318
慍	-11.2321
琢	-11.2321
凜	-11.2324
瀑	-11.2327
馨	-11.2393
庖	-11.2394
誚	-11.2404
蟬	-11.2404
鑾	-11.2407
汾	-11.2441
磐	-11.2473
阮	-11.2477
稷	-11.2477
邢	-11.2478
脊	-11.2481
凋	-11.2482
逞	-11.249
販	-11.2491
駝	-11.2491
筭	-11.2494
斃	-11.2494
詬	-11.2494
昱	-11.2554
批	-11.256
泄	-11.2563
聦	-11.2563
腋	-11.2563
緬	-11.2565
顙	-11.2567
漲	-11.2574
鋤	-11.2575
矧	-11.2647
悋	-11.2649
犧	-11.2651
盍	-11.2654
昉	-11.2656
態	-11.2657
掇	-11.266
煑	-11.2672
岱	-11.2726
轅	-11.2727
瀾	-11.2732
逵	-11.2734
侔	-11.2735
琬	-11.2736
盟	-11.2736
吻	-11.274
癘	-11.2741
爍	-11.2742
嵓	-11.2743
冰	-11.2743
蹄	-11.2743
飜	-11.2811
鄒	-11.2816
拶	-11.2819
礪	-11.2819
鴿	-11.2822
􂎫	-11.2829
瞑	-11.2831
瑗	-11.2889
憍	-11.2895
暠	-11.2896
脈	-11.2903
殖	-11.2906
黔	-11.2908
牌	-11.2909
躁	-11.2913
猴	-11.2914
隕	-11.2917
隊	-11.2919
掬	-11.2992
勁	-11.2992
愴	-11.2995
搏	-11.2996
閫	-11.2998
𡨥	-11.2999
漚	-11.3
蝦	-11.3004
騁	-11.3075
吝	-11.3079
貳	-11.308
丐	-11.3086
矚	-11.3088
賑	-11.3092
檗	-11.3098
芒	-11.3169
忉	-11.3169
跣	-11.3171
杉	-11.3171
奐	-11.3172
佑	-11.3173
瞳	-11.3173
蹲	-11.3176
械	-11.3176
浚	-11.3176
鴨	-11.318
瞥	-11.3188
笈	-11.3249
瓌	-11.3256
媚	-11.3259
它	-11.326
靄	-11.3261
泓	-11.3265
盞	-11.3265
圃	-11.3266
簷	-11.3281
禿	-11.3338
黷	-11.3344
溥	-11.3345
帀	-11.3345
妬	-11.3345
姜	-11.3348
彝	-11.3348
嫡	-11.3348
掣	-11.3351
竅	-11.3353
砂	-11.3353
噬	-11.3355
戟	-11.3358
銕	-11.3358
惕	-11.336
惰	-11.3433
裸	-11.3439
眩	-11.344
繆	-11.3441
鈎	-11.3442
瑯	-11.3446
嘲	-11.3451
痊	-11.3451
鏗	-11.3452
些	-11.3517
吁	-11.3532
庇	-11.3533
壺	-11.3535
扉	-11.3537
皂	-11.3539
需	-11.3553
誹	-11.3617
倣	-11.3617
髭	-11.362
諺	-11.3625
喉	-11.3626
墻	-11.3627
燎	-11.3627
迂	-11.3628
衿	-11.3632
怯	-11.3636
椀	-11.3705
渺	-11.3711
駢	-11.3711
訊	-11.3712
剔	-11.3715
拆	-11.3716
桶	-11.372
坂	-11.3721
袪	-11.3723
猫	-11.3724
睹	-11.3724
憾	-11.3724
泡	-11.3724
遯	-11.3729
浣	-11.3809
逗	-11.381
幅	-11.3812
劬	-11.3814
羨	-11.3815
餞	-11.3815
笏	-11.382
𢹂	-11.3829
丑	-11.3888
鬘	-11.3889
梟	-11.3904
囂	-11.3907
膜	-11.3908
液	-11.3909
聆	-11.3912
樸	-11.3914
咬	-11.3916
隍	-11.3916
鎔	-11.3997
貿	-11.3999
膩	-11.4
涸	-11.4002
弭	-11.4003
複	-11.4004
嶠	-11.4005
霅	-11.4006
纊	-11.4007
剩	-11.4009
飼	-11.4011
筏	-11.4092
迪	-11.4095
舡	-11.4096
濡	-11.4097
巒	-11.4097
祁	-11.4099
彊	-11.41
悽	-11.4101
踴	-11.4103
匣	-11.4105
攬	-11.4108
店	-11.4109
愿	-11.411
啞	-11.4112
嘿	-11.4115
企	-11.4184
椒	-11.4191
蒨	-11.4192
嶮	-11.4193
卞	-11.4193
躄	-11.4194
寅	-11.4197
兗	-11.4197
戢	-11.4198
穹	-11.4198
棹	-11.4202
酸	-11.4203
裡	-11.4216
聃	-11.4279
萊	-11.4297
濛	-11.4298
涓	-11.4304
菽	-11.4306
󰢍	-11.4306
烽	-11.4309
槁	-11.4311
濵	-11.4313
晁	-11.4387
湮	-11.4388
聿	-11.4392
幕	-11.4393
鎚	-11.4397
漕	-11.4401
弈	-11.4403
饋	-11.4404
帆	-11.4405
尿	-11.4411
醯	-11.4479
紐	-11.4488
秣	-11.4489
濃	-11.4491
釁	-11.4497
澈	-11.4498
綾	-11.4501
茆	-11.4505
躅	-11.4506
轡	-11.4508
剗	-11.4508
醇	-11.4512
禧	-11.4571
瓘	-11.459
杏	-11.4592
闥	-11.4594
穎	-11.4596
儞	-11.4596
献	-11.4601
麵	-11.4601
襴	-11.4609
鄞	-11.4611
唇	-11.4613
𥨊	-11.4614
檜	-11.4695
兢	-11.4696
址	-11.4698
押	-11.4703
錠	-11.4709
屹	-11.4712
璪	-11.4793
昶	-11.4802
泌	-11.4802
綏	-11.4803
嶼	-11.4806
弦	-11.4809
曄	-11.4812
撼	-11.4815
鄮	-11.4815
泠	-11.4818
椽	-11.4818
鐺	-11.4821
炊	-11.4823
佚	-11.4904
箋	-11.4905
瀛	-11.4909
躭	-11.491
沫	-11.491
柩	-11.4911
鮑	-11.4911
隸	-11.4912
縑	-11.4914
諳	-11.4916
翩	-11.4918
陛	-11.5002
袂	-11.5017
渙	-11.5017
驪	-11.5026
聻	-11.5031
嗚	-11.5119
寞	-11.5119
欻	-11.5124
舂	-11.5127
淄	-11.5127
畿	-11.5128
霆	-11.5129
顓	-11.5131
歆	-11.5132
羌	-11.5132
簫	-11.5133
悞	-11.5133
湫	-11.5134
缽	-11.5135
踪	-11.5146
訂	-11.5225
稼	-11.5228
揣	-11.523
蛙	-11.5232
釜	-11.5233
耐	-11.5242
毳	-11.5248
凱	-11.5249
瞞	-11.525
冏	-11.5337
彪	-11.5342
插	-11.5344
磧	-11.5349
塼	-11.535
傭	-11.5352
螢	-11.5353
坎	-11.5354
催	-11.5354
杓	-11.5355
嬉	-11.5356
膿	-11.5358
閙	-11.5362
滕	-11.5446
腴	-11.5446
駁	-11.5449
頰	-11.545
蚩	-11.5453
姻	-11.5454
麾	-11.5455
渝	-11.5457
畋	-11.5462
妍	-11.5556
驥	-11.556
球	-11.556
蠧	-11.5568
霖	-11.5568
蹕	-11.5568
腫	-11.5571
潼	-11.5572
拄	-11.5573
袞	-11.5573
謠	-11.5576
堦	-11.5576
揑	-11.558
敝	-11.5582
6	-11.5636
恙	-11.5653
捫	-11.5686
冑	-11.5692
碓	-11.5692
眸	-11.5692
煨	-11.5695
5	-11.575
珂	-11.578
蹉	-11.579
懌	-11.5795
嚫	-11.5796
蹋	-11.5798
耄	-11.5799
曙	-11.5799
耗	-11.58
怤	-11.5806
貺	-11.5811
庚	-11.5878
噓	-11.5906
緡	-11.5907
譴	-11.5908
尖	-11.5909
鵬	-11.5914
倩	-11.5916
漉	-11.5916
劃	-11.5919
咫	-11.5921
寘	-11.5921
覷	-11.5924
艶	-11.5924
脅	-11.5925
徃	-11.5934
瑛	-11.6026
盾	-11.6028
黍	-11.6028
紆	-11.6029
弛	-11.6032
嘔	-11.6032
帔	-11.6036
蹇	-11.6037
蔓	-11.6037
䆳	-11.6038
糠	-11.6038
壅	-11.6038
檻	-11.6039
鼈	-11.604
陂	-11.6041
跖	-11.6137
璿	-11.6139
沂	-11.6139
彬	-11.6141
訾	-11.6141
斑	-11.6144
兜	-11.6147
褰	-11.6149
叨	-11.615
圈	-11.6153
嚙	-11.6153
諂	-11.6153
淘	-11.6154
丱	-11.6154
奯	-11.6156
赧	-11.6252
爻	-11.6263
枳	-11.6263
粳	-11.6265
燦	-11.6266
倪	-11.6267
饉	-11.6267
亢	-11.6268
彚	-11.6269
鵠	-11.6273
榆	-11.6273
纘	-11.6275
钁	-11.6275
閤	-11.6276
泝	-11.6276
窗	-11.6284
尅	-11.6293
苕	-11.6379
詹	-11.6384
刈	-11.6386
燋	-11.6388
掀	-11.639
詶	-11.639
帷	-11.6394
巔	-11.6397
颺	-11.6399
耻	-11.6404
哺	-11.6405
迢	-11.6413
摭	-11.6509
締	-11.651
豺	-11.6511
瑾	-11.6514
羶	-11.6517
籬	-11.6517
擕	-11.6522
砌	-11.6522
禺	-11.6523
㳂	-11.6523
陌	-11.6523
啻	-11.6524
頔	-11.6528
牓	-11.6532
跏	-11.6545
贄	-11.6613
䂮	-11.6624
闞	-11.6628
煦	-11.6632
檄	-11.6633
雋	-11.6634
摹	-11.6643
暄	-11.6649
岷	-11.6759
讐	-11.6767
軻	-11.6769
鯨	-11.6771
哮	-11.6771
慄	-11.6771
硬	-11.6773
髫	-11.6778
愷	-11.678
莒	-11.678
捶	-11.6783
譖	-11.6783
嵬	-11.6884
葦	-11.6888
斟	-11.6893
氛	-11.6895
嵐	-11.6896
妊	-11.6896
痾	-11.69
縻	-11.6903
鏘	-11.6903
閃	-11.6904
褥	-11.6905
喆	-11.6906
潦	-11.6908
弁	-11.6912
蠅	-11.6912
頊	-11.7021
煌	-11.7021
崗	-11.7022
燧	-11.7023
莾	-11.7023
儕	-11.7026
緋	-11.7027
鳧	-11.7028
撝	-11.703
窘	-11.7033
袴	-11.7034
蠡	-11.7034
謔	-11.7036
霹	-11.704
脛	-11.7041
滲	-11.7041
紇	-11.7142
犁	-11.7151
芽	-11.7155
涵	-11.7157
慙	-11.7159
卉	-11.7162
翛	-11.7164
拖	-11.7165
緊	-11.7169
硯	-11.718
聶	-11.726
𨤲	-11.7277
蔗	-11.7279
蛤	-11.7283
泚	-11.7285
晶	-11.7293
遘	-11.7294
鍮	-11.7296
荐	-11.7296
粮	-11.7297
殉	-11.7297
爼	-11.7301
酢	-11.7303
茗	-11.7304
旽	-11.7326
鵞	-11.7421
㝢	-11.7423
巽	-11.7423
繢	-11.7425
祉	-11.7426
跛	-11.7426
筒	-11.7429
籃	-11.7431
筯	-11.7431
猜	-11.7433
喟	-11.7434
筮	-11.7435
舫	-11.7435
酋	-11.755
閬	-11.7553
刳	-11.7553
鹵	-11.7555
堤	-11.7557
晷	-11.7558
叵	-11.7562
鍵	-11.7563
胃	-11.7563
跟	-11.7564
歐	-11.7565
熒	-11.7565
酧	-11.757
悛	-11.7572
訃	-11.7577
楮	-11.7581
廻	-11.7583
帚	-11.7694
瘂	-11.7697
霈	-11.7697
珊	-11.7699
擘	-11.77
橘	-11.7701
玷	-11.7704
羹	-11.7706
楫	-11.7707
鉗	-11.7708
擡	-11.7712
喃	-11.7717
餧	-11.772
壹	-11.7826
頵	-11.7826
秤	-11.7833
椿	-11.7835
虬	-11.784
姨	-11.7844
攢	-11.7845
沌	-11.7846
蹙	-11.7847
粘	-11.7848
蒞	-11.7849
詈	-11.7851
狥	-11.7853
劾	-11.7858
𡉏	-11.7978
綬	-11.798
串	-11.7982
揩	-11.7982
珉	-11.7985
槽	-11.7987
摛	-11.7988
躋	-11.7989
燬	-11.7989
鞍	-11.799
眄	-11.7991
洩	-11.7992
蹶	-11.7992
滓	-11.7996
蠕	-11.7997
餒	-11.8
訢	-11.8002
駄	-11.8114
璩	-11.812
冡	-11.8122
囿	-11.8126
潑	-11.8127
冢	-11.813
嘻	-11.813
奸	-11.8132
髠	-11.8132
惋	-11.8133
滂	-11.8134
稿	-11.8136
塟	-11.8137
俠	-11.8137
榛	-11.8139
穌	-11.8139
􂌞	-11.8253
𤀹	-11.8259
嬈	-11.8262
紋	-11.8263
騷	-11.8266
萱	-11.8268
卍	-11.8269
鄔	-11.827
髦	-11.8271
鍛	-11.8272
摶	-11.8273
孑	-11.8276
郝	-11.8278
睠	-11.8279
笥	-11.8279
燥	-11.8282
諄	-11.8282
弋	-11.8282
徤	-11.8283
吊	-11.8285
靴	-11.8285
肢	-11.8285
眺	-11.8286
莞	-11.8289
璹	-11.8332
賔	-11.8383
檐	-11.8421
郗	-11.8421
炷	-11.8424
嵒	-11.8425
誼	-11.8425
雒	-11.8425
屐	-11.8427
砥	-11.843
鯉	-11.843
盃	-11.843
抉	-11.843
鄱	-11.8431
疽	-11.8432
賄	-11.8433
睫	-11.8434
箸	-11.8436
姥	-11.8436
沽	-11.8438
玲	-11.8445
僖	-11.8487
└	-11.8552
翌	-11.8559
翕	-11.856
俶	-11.8568
俚	-11.8571
峴	-11.8572
絮	-11.8573
欒	-11.8573
塹	-11.8575
坤	-11.8575
鴆	-11.8575
颯	-11.8575
慷	-11.8576
汀	-11.858
悌	-11.8582
顥	-11.8582
豬	-11.8584
徂	-11.8584
薊	-11.8586
弃	-11.8587
泳	-11.8589
灘	-11.859
岵	-11.8591
呻	-11.8593
毬	-11.8594
叚	-11.8719
斡	-11.8724
苾	-11.8727
雹	-11.8728
齓	-11.8731
愉	-11.8731
轂	-11.8732
甜	-11.8732
蒿	-11.8734
纍	-11.8734
扃	-11.8734
苔	-11.8735
塋	-11.8736
雇	-11.8738
爆	-11.874
釵	-11.874
瓢	-11.8745
痢	-11.8754
衾	-11.8755
闐	-11.8848
緫	-11.8849
嬪	-11.8869
銑	-11.8876
慼	-11.8877
壟	-11.8886
郄	-11.889
酣	-11.8892
僮	-11.8893
磚	-11.8893
幞	-11.8893
瀟	-11.8899
甌	-11.8901
粵	-11.903
悰	-11.9034
紵	-11.9044
碣	-11.9048
氤	-11.9048
裒	-11.9049
搥	-11.9049
靳	-11.9051
癩	-11.9052
迁	-11.9052
燔	-11.9052
捋	-11.9053
肚	-11.9053
牘	-11.9053
佯	-11.9056
敻	-11.9057
迥	-11.9057
銖	-11.9059
禰	-11.9066
3	-11.9159
<	-11.9194
i	-11.9195
g	-11.9195
m	-11.9195
耨	-11.9198
饍	-11.9202
譎	-11.9202
瀝	-11.9204
侫	-11.9207
貼	-11.9207
脆	-11.9209
懵	-11.9211
妣	-11.9212
亳	-11.9212
賺	-11.9215
瞰	-11.9215
窄	-11.9215
倖	-11.922
啜	-11.9221
殤	-11.9357
哽	-11.9357
噎	-11.936
翦	-11.9366
廈	-11.9367
涅	-11.9368
斐	-11.9368
猗	-11.9368
乂	-11.9369
溉	-11.9369
麒	-11.937
夔	-11.937
哩	-11.9371
譁	-11.9373
泐	-11.9373
懾	-11.9374
轢	-11.9377
鞞	-11.9377
䟽	-11.9378
迤	-11.938
楯	-11.9381
潁	-11.9381
胞	-11.9382
掦	-11.9382
迓	-11.9388
拉	-11.9388
雛	-11.9389
廝	-11.939
褁	-11.9395
婺	-11.9506
胝	-11.9518
崎	-11.9526
弩	-11.9528
曦	-11.953
苻	-11.9532
訕	-11.9534
淩	-11.9534
騖	-11.9534
氳	-11.9534
􂍓	-11.9539
闈	-11.9539
售	-11.9539
糅	-11.954
捺	-11.9541
捔	-11.9545
褊	-11.9547
查	-11.9548
爺	-11.9552
㕘	-11.9654
糺	-11.9696
彗	-11.9699
抹	-11.97
灯	-11.9701
盎	-11.9701
罽	-11.9702
窣	-11.9704
惛	-11.9705
縊	-11.9705
懽	-11.9705
壙	-11.9706
銛	-11.9707
笙	-11.9708
窈	-11.9709
珙	-11.971
奩	-11.971
鏐	-11.9712
菊	-11.9714
黿	-11.9714
郵	-11.9717
蠟	-11.9717
蠱	-11.9718
捲	-11.9727
壬	-11.9847
奎	-11.9872
嬾	-11.9873
翟	-11.9878
捍	-11.9881
婿	-11.9886
徼	-11.9886
煞	-11.9886
𧦬	-11.9888
撾	-11.9888
𣏌	-11.9889
踢	-11.9889
冗	-11.989
晡	-11.9893
瓮	-11.9905
鞏	-12.0041
睢	-12.0045
憧	-12.0048
瑣	-12.0055
霏	-12.0056
鐙	-12.0058
泮	-12.006
瑚	-12.006
褫	-12.0062
瘠	-12.0062
牕	-12.0063
僵	-12.0067
槖	-12.0068
虱	-12.0069
涪	-12.0071
喘	-12.0076
琇	-12.0222
賒	-12.0223
籥	-12.0232
懋	-12.0233
怱	-12.0233
磵	-12.0235
濮	-12.0235
旒	-12.0235
匙	-12.0237
礫	-12.0237
薜	-12.0237
麋	-12.0238
虢	-12.0238
翥	-12.0239
廛	-12.0241
扆	-12.0242
孽	-12.0242
隳	-12.0243
巍	-12.0244
湍	-12.0244
薑	-12.0253
襍	-12.0255
瑫	-12.04
惲	-12.0402
盪	-12.0402
嬴	-12.0407
杼	-12.0407
匈	-12.0409
怳	-12.0412
羡	-12.0416
瓠	-12.0417
漬	-12.0419
淆	-12.0423
屙	-12.0428
昕	-12.0429
芮	-12.0429
趁	-12.043
疼	-12.0435
鴦	-12.0592
衎	-12.0592
菲	-12.0592
蟄	-12.0594
夸	-12.0598
紊	-12.0599
虵	-12.06
咀	-12.0602
蒜	-12.0604
鷺	-12.0605
轟	-12.0606
嶂	-12.0608
肱	-12.0609
噴	-12.0611
飈	-12.0612
悍	-12.0613
糟	-12.0614
閨	-12.0615
培	-12.0615
羿	-12.0778
摑	-12.0779
襯	-12.0782
誄	-12.0784
寖	-12.0785
澁	-12.0786
溷	-12.0786
摳	-12.0788
磕	-12.079
欹	-12.0791
覇	-12.0792
槨	-12.0792
磁	-12.0794
凾	-12.0794
鬢	-12.0794
甸	-12.0795
蕖	-12.0796
喏	-12.0802
卻	-12.0802
胷	-12.0953
頞	-12.0959
慊	-12.0969
澍	-12.0973
閟	-12.0976
鱉	-12.0976
彷	-12.0978
勍	-12.0979
觜	-12.098
恧	-12.0981
刮	-12.0985
蛟	-12.0985
爝	-12.0985
醬	-12.0986
紈	-12.0986
縶	-12.0987
芟	-12.0988
逋	-12.0988
攪	-12.099
幘	-12.0991
熹	-12.0993
瓏	-12.0994
怏	-12.0995
頎	-12.0996
闌	-12.0999
撕	-12.1002
4	-12.1132
驍	-12.116
懍	-12.1165
毓	-12.1166
琯	-12.1166
棊	-12.1169
藁	-12.117
兕	-12.1171
鉉	-12.1172
葵	-12.1175
抖	-12.1176
狸	-12.1176
糓	-12.1178
岌	-12.1178
鋸	-12.1178
腕	-12.1179
鎗	-12.1183
覘	-12.1185
隰	-12.1185
駛	-12.1185
羗	-12.1186
尠	-12.1187
穉	-12.1188
駱	-12.1188
瘖	-12.119
𠃔	-12.119
宕	-12.119
墅	-12.1191
噪	-12.1191
螻	-12.1191
檝	-12.1347
孛	-12.1356
臍	-12.1361
砧	-12.137
帑	-12.1371
霔	-12.1376
夥	-12.1381
藜	-12.1381
淅	-12.1381
蓼	-12.1383
僭	-12.1384
歘	-12.1388
洙	-12.1388
蒭	-12.1389
咏	-12.1391
悸	-12.1392
祟	-12.1393
鬬	-12.1394
慤	-12.1394
諛	-12.1562
贇	-12.1566
閹	-12.1571
鹹	-12.1572
戌	-12.1575
縞	-12.1576
睨	-12.158
昺	-12.158
朞	-12.1581
兖	-12.1582
祛	-12.1582
閽	-12.1583
鷂	-12.1583
牝	-12.1584
淋	-12.1585
觴	-12.1585
汶	-12.1585
獅	-12.1585
旭	-12.1586
杪	-12.159
盻	-12.159
苛	-12.159
核	-12.159
笞	-12.159
噩	-12.1591
罩	-12.1591
坌	-12.1591
窹	-12.1592
涘	-12.1592
邯	-12.1593
款	-12.1594
閴	-12.1595
鬧	-12.1596
跑	-12.1598
矍	-12.1598
閶	-12.1603
縝	-12.1769
蘖	-12.1774
奭	-12.178
獷	-12.1781
贅	-12.1785
遒	-12.1786
脯	-12.1792
賻	-12.1792
戡	-12.1793
芋	-12.1794
黯	-12.1795
疵	-12.1796
忞	-12.1796
蹊	-12.1797
媒	-12.1797
癈	-12.1797
机	-12.1798
菁	-12.1798
悝	-12.1801
蝕	-12.1801
搉	-12.1802
糲	-12.1802
廂	-12.1802
鴉	-12.1802
蹴	-12.1805
臠	-12.1805
涎	-12.1807
覬	-12.1807
溜	-12.1808
逅	-12.1809
瓣	-12.1811
囀	-12.1819
譔	-12.1988
錍	-12.1991
鍬	-12.1992
簣	-12.1994
棧	-12.2001
駟	-12.2001
螫	-12.2002
娉	-12.2002
猨	-12.2003
莎	-12.2004
憙	-12.2005
喙	-12.2009
螟	-12.201
紿	-12.201
鎬	-12.2013
惹	-12.2014
鷙	-12.2014
芙	-12.2014
殻	-12.2015
柘	-12.2015
劭	-12.2206
毱	-12.2206
軼	-12.2212
賂	-12.2213
匃	-12.2214
淤	-12.2214
𧹞	-12.2215
掾	-12.2216
蔔	-12.2218
凄	-12.2221
縗	-12.2221
嵋	-12.2221
詡	-12.2224
穗	-12.2228
粃	-12.2228
巗	-12.2229
櫓	-12.223
彖	-12.2232
傘	-12.2233
撻	-12.2233
鶻	-12.2235
搊	-12.2235
甓	-12.2235
孥	-12.2236
窶	-12.2413
亶	-12.2422
闤	-12.2437
剽	-12.2439
徭	-12.2439
珮	-12.2439
躓	-12.244
褻	-12.2441
慣	-12.2442
組	-12.2445
陁	-12.2445
墾	-12.2446
瘁	-12.2452
黠	-12.2452
鄲	-12.2453
棠	-12.2453
頡	-12.2455
磊	-12.2457
刷	-12.2457
襦	-12.2459
劵	-12.2459
沔	-12.246
炮	-12.2464
偁	-12.2466
圌	-12.2469
瑱	-12.265
鑠	-12.266
磔	-12.2663
璀	-12.2666
昵	-12.2667
仔	-12.2668
彙	-12.267
驃	-12.2671
勛	-12.2671
紏	-12.2671
鴟	-12.2672
涿	-12.2673
憔	-12.2673
鏃	-12.2674
輭	-12.2675
璡	-12.2676
購	-12.2676
詁	-12.2679
痴	-12.268
扭	-12.2681
汩	-12.2684
擺	-12.2685
騾	-12.2688
嫂	-12.2689
犂	-12.269
棚	-12.2691
潢	-12.2699
瑋	-12.2877
蘧	-12.2879
拗	-12.2897
廸	-12.2898
擻	-12.2899
齠	-12.2899
憒	-12.29
猊	-12.2901
匐	-12.2902
券	-12.2904
閿	-12.2906
爨	-12.2906
剜	-12.2907
倜	-12.2907
廕	-12.2908
肓	-12.2908
羮	-12.2908
韞	-12.2909
嚚	-12.2909
劑	-12.291
捃	-12.291
鯁	-12.291
錮	-12.2913
悄	-12.2913
惘	-12.2915
輳	-12.2917
諜	-12.292
瘴	-12.2924
梢	-12.2924
攔	-12.2925
姒	-12.2926
恱	-12.3104
孜	-12.3121
埵	-12.3125
鉞	-12.313
齧	-12.3133
棃	-12.3135
碾	-12.3136
慜	-12.3137
鷃	-12.3138
僥	-12.3139
詧	-12.314
匍	-12.314
裩	-12.3141
讜	-12.3142
闉	-12.3142
鉛	-12.3143
淛	-12.3143
埏	-12.3143
忒	-12.3143
曝	-12.3146
彎	-12.3146
顰	-12.3147
菌	-12.3147
疹	-12.3148
漓	-12.3148
惇	-12.3148
卭	-12.3149
峩	-12.3151
𥧌	-12.3152
罣	-12.3152
双	-12.3153
鴛	-12.3153
蛛	-12.3154
瘥	-12.3154
遨	-12.3154
蝨	-12.3155
煬	-12.3349
甥	-12.337
睒	-12.337
櫛	-12.3375
唵	-12.3376
燁	-12.3377
恊	-12.3378
鞴	-12.3378
輅	-12.3378
薙	-12.3383
惆	-12.3384
闠	-12.3384
攣	-12.3384
茵	-12.3384
紕	-12.3385
𧂐	-12.3385
俘	-12.3386
嶸	-12.3387
䘏	-12.3387
罟	-12.3387
蟾	-12.3388
跌	-12.3389
碍	-12.3389
甃	-12.3389
邠	-12.339
愻	-12.3391
濠	-12.3391
幃	-12.3392
睇	-12.3395
蝶	-12.3402
杻	-12.3408
9	-12.3586
』	-12.3591
『	-12.3594
閦	-12.361
硎	-12.3621
墀	-12.3623
霓	-12.3625
皋	-12.3625
勰	-12.3626
窅	-12.3627
𩬊	-12.3628
娥	-12.3628
覯	-12.3631
酤	-12.3633
竣	-12.3634
蝗	-12.3635
嵆	-12.3637
豚	-12.3638
繽	-12.3638
欷	-12.3639
閎	-12.364
嘶	-12.3641
葫	-12.3642
洮	-12.3644
縵	-12.3644
廨	-12.3645
攫	-12.3646
藕	-12.3647
魑	-12.3647
哈	-12.3647
礎	-12.3649
儗	-12.3649
姙	-12.3652
鵶	-12.3655
飭	-12.3656
筍	-12.3658
暐	-12.3875
歧	-12.3882
崙	-12.3883
禋	-12.3883
釰	-12.3885
肺	-12.389
搬	-12.3891
幄	-12.3891
瘵	-12.3892
𤣱	-12.3895
蠹	-12.3898
勌	-12.3898
罏	-12.3899
怎	-12.39
瑙	-12.3901
瞪	-12.3902
碗	-12.3903
碁	-12.3903
蛆	-12.3903
擿	-12.3904
贓	-12.3904
郍	-12.4135
渧	-12.414
釗	-12.4142
皤	-12.4144
淥	-12.4147
傚	-12.4148
稗	-12.415
忖	-12.4151
驤	-12.4153
崕	-12.4153
綰	-12.4154
廠	-12.4155
朮	-12.4155
樝	-12.4155
粧	-12.4156
憮	-12.4157
怜	-12.4158
紗	-12.4159
羔	-12.416
慝	-12.416
􂌸	-12.4161
罸	-12.4161
眴	-12.4162
藿	-12.4162
伶	-12.4163
橈	-12.4164
煅	-12.4165
髯	-12.4166
濶	-12.4166
暎	-12.4169
匾	-12.417
楔	-12.417
髀	-12.4172
苴	-12.4173
騐	-12.4174
痒	-12.4175
萍	-12.4183
甖	-12.4413
隄	-12.4415
殲	-12.4416
寗	-12.4417
嶇	-12.4417
礴	-12.4418
堙	-12.4419
輥	-12.442
𨁝	-12.4424
罐	-12.4426
竚	-12.4426
凭	-12.4427
堞	-12.4427
縲	-12.4427
闚	-12.4428
鏁	-12.4428
駮	-12.4429
艮	-12.4429
簸	-12.4429
蕕	-12.4433
苓	-12.4433
袤	-12.4434
彿	-12.4436
估	-12.4436
璫	-12.444
儁	-12.444
湻	-12.4441
褶	-12.4451
幟	-12.4678
蒐	-12.4679
趯	-12.4695
耘	-12.4696
嚳	-12.4697
縟	-12.4698
巘	-12.47
茸	-12.4703
贏	-12.4704
佃	-12.4704
脾	-12.4705
纜	-12.4706
䰂	-12.4706
楞	-12.4706
皖	-12.4706
阬	-12.4706
搔	-12.4707
翮	-12.4709
虻	-12.4709
癢	-12.4709
嘴	-12.471
膊	-12.4712
醴	-12.4712
瑪	-12.4712
泫	-12.4714
氓	-12.4715
顱	-12.4717
磴	-12.472
絢	-12.4721
頫	-12.4722
䑛	-12.4722
躶	-12.4729
憊	-12.4731
戊	-12.4948
萸	-12.4951
卅	-12.4964
猒	-12.4965
僑	-12.4978
滁	-12.4981
糾	-12.4984
懦	-12.4984
碌	-12.4984
揜	-12.4984
毉	-12.4984
㒵	-12.4987
嗅	-12.4988
紘	-12.4989
肴	-12.499
孳	-12.4991
甍	-12.4991
驩	-12.4992
牡	-12.4993
陲	-12.4994
癰	-12.4995
鍋	-12.4997
瀕	-12.4999
逶	-12.5
狁	-12.5001
綉	-12.5002
糊	-12.5003
篁	-12.5006
曖	-12.5007
畦	-12.5008
孃	-12.5009
蜆	-12.5011
唎	-12.5225
7	-12.5233
8	-12.5234
另	-12.5258
勦	-12.5269
釧	-12.527
摽	-12.5271
杙	-12.5272
笻	-12.5276
緜	-12.5278
氐	-12.5278
篩	-12.5279
寨	-12.528
燿	-12.5281
燄	-12.5281
靠	-12.5284
恁	-12.5289
繳	-12.5292
蔕	-12.5294
偘	-12.5295
蚌	-12.5295
啗	-12.5296
􃆵	-12.5296
醻	-12.5296
噀	-12.5298
薇	-12.5299
蘂	-12.5311
蘽	-12.5556
珏	-12.5564
漣	-12.5565
澣	-12.5565
莠	-12.5568
璘	-12.557
琨	-12.5572
繭	-12.5573
琶	-12.5574
䗍	-12.5574
鄯	-12.5576
悱	-12.5577
鑛	-12.5578
聒	-12.5579
𡩋	-12.5579
歙	-12.5581
誵	-12.5582
苫	-12.5583
罅	-12.5584
歉	-12.5585
訐	-12.5585
皿	-12.5586
覊	-12.5586
圜	-12.5587
葩	-12.5587
窒	-12.559
讌	-12.559
麈	-12.559
眚	-12.5591
擐	-12.5592
斵	-12.5592
鶯	-12.5593
汭	-12.5593
沱	-12.5596
縹	-12.5597
轝	-12.56
膓	-12.5601
豔	-12.5603
楓	-12.5603
襆	-12.5604
謳	-12.5605
詫	-12.5607
麴	-12.5608
舩	-12.5861
呬	-12.5877
傉	-12.5882
屺	-12.5882
瞢	-12.5883
嗤	-12.5889
鶉	-12.5889
刁	-12.5889
葆	-12.5891
絛	-12.5894
臟	-12.5895
癹	-12.5895
癭	-12.5896
裓	-12.5897
攷	-12.5897
倨	-12.5897
笳	-12.5898
瑒	-12.5899
垠	-12.5899
篾	-12.5899
扄	-12.5902
舖	-12.5902
殑	-12.5902
閾	-12.5903
匕	-12.5903
獠	-12.5903
蓐	-12.5904
暈	-12.5904
揄	-12.5905
蓊	-12.5907
娩	-12.5908
描	-12.5909
港	-12.591
圊	-12.591
窻	-12.5911
鉏	-12.5912
玻	-12.5913
癯	-12.5916
籟	-12.5919
䢼	-12.5931
靺	-12.6195
漪	-12.6202
豊	-12.6205
豢	-12.6206
璇	-12.6212
穽	-12.6212
箠	-12.6213
祜	-12.6214
欬	-12.6215
餽	-12.6216
槍	-12.6217
赭	-12.6218
絆	-12.6218
扼	-12.622
鄠	-12.6221
髏	-12.6222
蕘	-12.6222
嗷	-12.6223
塏	-12.6225
妥	-12.6226
瑄	-12.6228
壻	-12.6229
紡	-12.623
餚	-12.623
襪	-12.6233
俳	-12.6235
猱	-12.6235
虺	-12.6238
遄	-12.6238
撑	-12.6238
萼	-12.6238
决	-12.6239
拷	-12.6239
嚬	-12.6239
隈	-12.624
噤	-12.624
莆	-12.624
椅	-12.6242
洄	-12.6246
茱	-12.6518
閼	-12.6532
㮈	-12.6535
鰕	-12.6536
靚	-12.6538
諤	-12.654
邴	-12.6542
啇	-12.6544
衮	-12.6544
疣	-12.6545
烱	-12.6548
埿	-12.6548
穰	-12.6548
槎	-12.6549
逖	-12.6549
蛾	-12.6549
汨	-12.655
蹬	-12.655
痼	-12.655
摵	-12.655
腑	-12.655
勣	-12.6551
疚	-12.6553
桴	-12.6554
叮	-12.6554
洵	-12.6555
跂	-12.6556
黥	-12.6558
牋	-12.6558
㐫	-12.656
挐	-12.656
杌	-12.6561
橡	-12.6562
廖	-12.6562
笋	-12.6562
祅	-12.6563
塾	-12.6564
撩	-12.6565
敖	-12.6566
鳶	-12.6566
柵	-12.6567
踣	-12.6567
滏	-12.6569
霾	-12.6577
覡	-12.6577
鞨	-12.6874
茄	-12.6875
鋟	-12.6878
湎	-12.6887
蠎	-12.689
愎	-12.689
斆	-12.689
々	-12.689
擣	-12.6891
賽	-12.6891
盋	-12.6892
軋	-12.6893
黼	-12.6894
轆	-12.6894
耋	-12.6895
蜊	-12.6895
鞅	-12.6896
哂	-12.6896
肄	-12.69
鈸	-12.6901
剞	-12.6902
謊	-12.6902
衽	-12.6904
狡	-12.6904
衘	-12.6905
盌	-12.6905
膾	-12.6906
峒	-12.6907
喇	-12.691
畬	-12.6912
筐	-12.6914
頺	-12.6914
蟇	-12.6916
轄	-12.6917
虀	-12.6917
闋	-12.6922
艤	-12.6924
飴	-12.6925
暅	-12.6925
痺	-12.6928
暝	-12.6928
肹	-12.693
冝	-12.7201
㖿	-12.7205
煒	-12.7231
誾	-12.7234
湜	-12.7235
滬	-12.724
貂	-12.7243
彛	-12.7245
抂	-12.7247
醋	-12.725
玦	-12.7252
瀘	-12.7253
診	-12.7253
彘	-12.7255
甑	-12.7256
鼇	-12.7256
矮	-12.7257
舸	-12.7259
溘	-12.726
嬖	-12.7261
蟭	-12.7261
劂	-12.7261
屩	-12.7262
唼	-12.7262
蟆	-12.7263
棣	-12.7263
韙	-12.7264
滎	-12.7265
僂	-12.7266
鎰	-12.7266
玠	-12.7267
楖	-12.727
櫃	-12.727
簀	-12.727
吽	-12.7271
檉	-12.7271
縠	-12.7271
梭	-12.7273
毆	-12.7273
獘	-12.7274
曬	-12.7275
濩	-12.7275
飫	-12.7276
慞	-12.7276
鞫	-12.7276
捻	-12.7277
儷	-12.7288
嚕	-12.7598
嗢	-12.7602
惚	-12.7603
諶	-12.7607
蹰	-12.7608
慥	-12.7611
鄜	-12.7614
虓	-12.7617
猖	-12.7619
釀	-12.7622
邐	-12.7622
鍔	-12.7624
煜	-12.7625
穫	-12.7625
嬌	-12.7626
惔	-12.7626
舐	-12.7628
痍	-12.7629
犇	-12.763
粕	-12.763
嘖	-12.7631
絺	-12.7631
醪	-12.7632
姉	-12.7632
嚥	-12.7633
㸑	-12.7634
媳	-12.7635
矇	-12.7639
蝠	-12.764
庄	-12.7643
蚓	-12.7643
裰	-12.7644
荻	-12.7644
墖	-12.7646
鱠	-12.7648
韵	-12.7651
蓆	-12.7659
糍	-12.7663
烙	-12.7667
畺	-12.7969
墉	-12.7987
粱	-12.7996
瑰	-12.7996
蕙	-12.7997
鵄	-12.7997
刖	-12.7998
踟	-12.7998
阯	-12.7999
邳	-12.8002
遡	-12.8004
誷	-12.8005
坼	-12.8005
鐔	-12.8005
濾	-12.8005
瓔	-12.8005
骼	-12.8007
聵	-12.8009
緻	-12.801
鵒	-12.8011
燠	-12.8013
紲	-12.8013
梳	-12.8013
莘	-12.8014
厓	-12.8015
巉	-12.8015
褘	-12.8015
咦	-12.8016
熄	-12.8016
裾	-12.8016
崆	-12.8016
瀚	-12.8017
璠	-12.8018
撈	-12.8018
蹔	-12.8018
珥	-12.802
蚋	-12.8021
傴	-12.8021
耒	-12.8022
暘	-12.8022
鑱	-12.8024
廚	-12.8025
媧	-12.8027
蜚	-12.8027
觚	-12.803
肋	-12.8035
鐃	-12.8038
伉	-12.8046
􂋧	-12.8386
岬	-12.8387
袟	-12.839
黻	-12.8398
簟	-12.84
万	-12.8404
悒	-12.8405
頲	-12.8407
剉	-12.8407
錙	-12.8408
坥	-12.8408
琚	-12.841
簉	-12.8411
稊	-12.8412
狠	-12.8412
啐	-12.8413
兌	-12.8414
恡	-12.8414
旵	-12.8415
庿	-12.8415
詛	-12.8415
脹	-12.8416
蜿	-12.8417
帋	-12.8418
􂑒	-12.8418
遴	-12.8418
汞	-12.8418
瀋	-12.8418
咤	-12.8419
蕚	-12.8419
祔	-12.842
阪	-12.842
獫	-12.8422
謟	-12.8423
阡	-12.8423
鞵	-12.8424
歊	-12.8424
觝	-12.8427
悆	-12.8428
郯	-12.843
唳	-12.8431
㹠	-12.8432
頟	-12.8432
麇	-12.8432
簇	-12.8435
咋	-12.8436
瀞	-12.8466
瑘	-12.8795
袾	-12.8799
癸	-12.8799
旹	-12.8801
圉	-12.8805
鏌	-12.8807
阨	-12.8808
彧	-12.881
晈	-12.8812
隗	-12.8813
蚕	-12.8816
䗫	-12.8817
噍	-12.8817
悕	-12.8818
儆	-12.8822
輾	-12.8823
嶄	-12.8823
蕉	-12.8823
囹	-12.8825
隲	-12.8825
洺	-12.8826
𠕋	-12.8826
鬲	-12.8826
厩	-12.8828
辣	-12.8828
炁	-12.8828
喰	-12.8828
騏	-12.8829
邙	-12.8829
侁	-12.883
揉	-12.8831
愬	-12.8833
藐	-12.8833
絰	-12.8833
繄	-12.8833
卸	-12.8834
飱	-12.8834
冽	-12.8835
輞	-12.8835
窖	-12.8835
荏	-12.8835
洟	-12.8836
擠	-12.8836
眨	-12.8836
筦	-12.8837
熠	-12.8837
繚	-12.8839
椹	-12.8839
爬	-12.8839
匏	-12.8842
璃	-12.8844
儂	-12.8844
鯢	-12.8847
漾	-12.8849
瞠	-12.8858
啾	-12.8858
媛	-12.8874
塩	-12.9219
噐	-12.9231
睎	-12.9232
羼	-12.9237
澂	-12.9238
眹	-12.9239
懅	-12.9242
浞	-12.9243
鎡	-12.9243
灝	-12.9244
羂	-12.9246
攄	-12.9246
灣	-12.9247
暕	-12.9247
矦	-12.9249
蓍	-12.9249
擷	-12.9249
獰	-12.9249
忱	-12.9249
㝹	-12.9251
狷	-12.9252
𢌞	-12.9254
盱	-12.9254
綫	-12.9256
蝸	-12.9256
朦	-12.9257
澠	-12.9259
縢	-12.9261
緱	-12.9262
咳	-12.9262
柿	-12.9263
曛	-12.9264
璵	-12.9265
蹻	-12.9265
萠	-12.9265
瞀	-12.9269
昃	-12.9269
猾	-12.927
祺	-12.9272
忭	-12.9273
趒	-12.9273
珈	-12.9274
騶	-12.9275
𣗖	-12.9275
駈	-12.9275
徉	-12.9276
艦	-12.9276
蝟	-12.9277
仄	-12.9278
䥫	-12.9278
鍱	-12.9278
瀅	-12.9278
拇	-12.928
瀨	-12.928
霰	-12.928
茘	-12.9281
鎩	-12.9281
呀	-12.9282
迮	-12.9282
艘	-12.9284
楩	-12.9285
貊	-12.9289
涂	-12.9291
潄	-12.9298
尫	-12.9301
軏	-12.9307
P	-12.9668
鍇	-12.9695
鎁	-12.9695
薀	-12.9703
譌	-12.9704
腆	-12.9704
熬	-12.9705
檮	-12.9709
棋	-12.9709
躇	-12.9709
綢	-12.971
荅	-12.9711
㦬	-12.9712
咷	-12.9712
磋	-12.9712
厖	-12.9713
媲	-12.9714
襖	-12.9715
韮	-12.9716
摝	-12.9716
齪	-12.9716
莅	-12.9717
螘	-12.9718
謎	-12.9718
鯤	-12.9718
惙	-12.9718
犖	-12.972
埒	-12.972
窬	-12.9721
畆	-12.9722
皃	-12.9722
炯	-12.9722
沁	-12.9723
櫺	-12.9725
澇	-12.9725
沅	-12.9725
渟	-12.9726
鬣	-12.9726
躑	-12.9727
娼	-12.9729
豳	-12.9729
鎣	-12.9731
堰	-12.9731
埜	-12.9733
膂	-12.9734
𨍏	-12.9735
倕	-12.9735
荄	-12.9737
戕	-12.9737
蘗	-12.9737
賡	-12.9737
鏟	-12.9738
籲	-12.974
磾	-12.974
鷗	-12.9742
錘	-12.9743
郤	-12.9743
􂸝	-12.9749
洶	-12.975
搦	-13.0179
髑	-13.018
宄	-13.018
乩	-13.0181
閡	-13.0181
煆	-13.0182
捩	-13.0185
袵	-13.0187
黌	-13.0189
逭	-13.0189
懡	-13.019
刎	-13.019
薈	-13.0191
桷	-13.0192
蜒	-13.0192
狙	-13.0192
臊	-13.0193
𣧩	-13.0194
郴	-13.0194
絓	-13.0194
匇	-13.0194
鰲	-13.0195
侄	-13.0195
跽	-13.0195
涖	-13.0195
簧	-13.0197
噏	-13.0198
騃	-13.0198
焜	-13.02
󰑁	-13.0201
礦	-13.0201
驎	-13.0201
窯	-13.0202
吃	-13.0202
銚	-13.0204
醎	-13.0205
幔	-13.0205
㗖	-13.0206
醞	-13.0206
簦	-13.0207
埭	-13.0208
仝	-13.021
㸦	-13.021
鬮	-13.0212
慇	-13.0212
筴	-13.0213
鉸	-13.0215
凞	-13.0217
嘷	-13.0218
藞	-13.0219
孱	-13.0219
圩	-13.0219
滾	-13.0221
蕤	-13.0224
瑃	-13.0257
嶧	-13.0658
菩	-13.0664
宙	-13.067
彤	-13.0675
佺	-13.0676
暀	-13.0678
坻	-13.068
瀰	-13.068
烝	-13.0684
驂	-13.0685
邡	-13.0685
淦	-13.0685
吮	-13.0687
柬	-13.0687
􂏬	-13.0688
昞	-13.0692
闒	-13.0692
甬	-13.0693
衂	-13.0693
頇	-13.0693
掊	-13.0693
灸	-13.0695
俻	-13.0695
癊	-13.0697
倅	-13.0697
栝	-13.0697
埴	-13.0697
緗	-13.0698
尀	-13.0701
蟹	-13.0701
榭	-13.0701
鯀	-13.0701
囷	-13.0702
瀏	-13.0702
箔	-13.0702
栲	-13.0703
刲	-13.0704
畊	-13.0704
耜	-13.0704
僶	-13.0705
晢	-13.0707
抒	-13.0709
颶	-13.0711
趕	-13.0711
綻	-13.0711
窰	-13.0711
殛	-13.0712
咆	-13.0714
癲	-13.0716
堀	-13.0718
椶	-13.0721
閧	-13.0725
崦	-13.0726
㘞	-13.0733
嚧	-13.0746
􂐔	-13.1173
皝	-13.1177
漝	-13.1189
淒	-13.1196
藺	-13.12
鸜	-13.1205
怍	-13.1205
纛	-13.1205
蒂	-13.1206
猢	-13.1206
錚	-13.1207
鞮	-13.1209
躃	-13.1209
嚩	-13.121
离	-13.121
彀	-13.1211
紱	-13.1212
侗	-13.1214
擴	-13.1215
矟	-13.1218
隤	-13.1218
胾	-13.1218
曚	-13.1221
馗	-13.1221
雱	-13.1222
玼	-13.1222
夤	-13.1222
儋	-13.1223
讟	-13.1223
蜃	-13.1224
听	-13.1225
楠	-13.1226
詖	-13.1226
缶	-13.1227
扎	-13.1227
糖	-13.1228
嗽	-13.1228
崐	-13.1229
斸	-13.123
黏	-13.1231
雩	-13.1231
氾	-13.1231
捿	-13.1232
鬀	-13.1236
饕	-13.1237
湓	-13.1237
拪	-13.1237
蜘	-13.1238
滹	-13.1238
泪	-13.1239
賭	-13.1239
縕	-13.1242
樽	-13.1245
努	-13.1247
唧	-13.1252
嘛	-13.1253
莂	-13.173
湑	-13.1755
玭	-13.1755
浿	-13.1756
徨	-13.1757
哇	-13.1757
𥁞	-13.1757
紬	-13.1761
旺	-13.1762
倀	-13.1762
鄆	-13.1762
怗	-13.1765
隩	-13.1766
祲	-13.1767
脗	-13.1769
樗	-13.1769
滻	-13.1771
畎	-13.1771
还	-13.1772
蒺	-13.1772
􃒲	-13.1772
㲉	-13.1773
玕	-13.1773
攙	-13.1773
璚	-13.1773
硤	-13.1773
嶢	-13.1775
昝	-13.1775
溲	-13.1776
讋	-13.1777
顇	-13.1777
闘	-13.1778
枋	-13.1778
媵	-13.1778
餈	-13.1778
栳	-13.1779
鑣	-13.1779
贐	-13.1779
顢	-13.178
㶚	-13.178
壠	-13.178
盩	-13.178
羆	-13.1781
俺	-13.1781
瘤	-13.1781
翾	-13.1782
轤	-13.1782
拕	-13.1783
笮	-13.1783
斁	-13.1783
氅	-13.1783
磑	-13.1783
躳	-13.1784
挨	-13.1785
苒	-13.1785
溍	-13.1787
菑	-13.1787
樺	-13.1787
鋩	-13.1787
迯	-13.1788
侑	-13.1789
崿	-13.179
闖	-13.1791
䘖	-13.1791
丰	-13.1792
霶	-13.1792
郪	-13.1794
麞	-13.1795
埽	-13.1798
颷	-13.1799
槊	-13.18
凑	-13.1801
栱	-13.1802
瘧	-13.1808
滇	-13.1809
絪	-13.1812
虖	-13.1812
皁	-13.1814
肻	-13.2314
𦏰	-13.232
􂏈	-13.2331
┤	-13.2341
𢤱	-13.2342
摯	-13.2342
鰥	-13.2345
䴥	-13.2348
窪	-13.2348
莢	-13.2349
繖	-13.2349
臰	-13.2351
况	-13.2351
嵯	-13.2354
週	-13.2354
刼	-13.2354
箜	-13.2355
廗	-13.2355
顫	-13.2357
􂑱	-13.2357
塲	-13.2357
蓽	-13.2358
禬	-13.236
鷓	-13.236
㝡	-13.236
簞	-13.2361
栻	-13.2362
攉	-13.2362
袠	-13.2364
楨	-13.2364
嵇	-13.2365
蜺	-13.2366
咯	-13.2367
頏	-13.2368
藂	-13.2368
倔	-13.2368
鴣	-13.2368
閈	-13.2368
踝	-13.2369
餬	-13.2369
敺	-13.2369
榔	-13.237
絞	-13.237
鈐	-13.237
􂏖	-13.237
斮	-13.237
醲	-13.2371
盒	-13.2371
魎	-13.2371
葡	-13.2371
喑	-13.2371
掐	-13.2372
怫	-13.2373
皺	-13.2373
坪	-13.2373
豸	-13.2375
艇	-13.2377
薤	-13.2379
駑	-13.238
牗	-13.2381
癱	-13.2382
囓	-13.2383
牸	-13.2383
滸	-13.2383
噱	-13.2384
鶩	-13.2385
𧏙	-13.2386
蹂	-13.2386
辤	-13.2388
葭	-13.2392
澋	-13.2395
圻	-13.2401
坩	-13.2421
廆	-13.2939
玗	-13.2951
璝	-13.2953
笯	-13.2957
惴	-13.296
尓	-13.2963
壖	-13.2964
凖	-13.2966
菷	-13.2967
朅	-13.2967
垤	-13.2968
罇	-13.2969
悃	-13.2971
玢	-13.2972
墊	-13.2973
弇	-13.2975
桉	-13.2975
幀	-13.2976
櫬	-13.2976
喋	-13.2977
綦	-13.2979
懣	-13.2979
媯	-13.2979
蚖	-13.298
鐶	-13.298
氍	-13.298
罝	-13.2981
嗄	-13.2982
縳	-13.2982
涔	-13.2983
墼	-13.2984
赳	-13.2985
殍	-13.2985
韃	-13.2985
矗	-13.2986
疥	-13.2986
撐	-13.2986
牷	-13.2986
窩	-13.2987
歃	-13.299
篙	-13.299
麪	-13.299
埀	-13.299
疱	-13.2991
栴	-13.2991
檳	-13.2991
橐	-13.2992
坏	-13.2992
梏	-13.2994
蛉	-13.2995
劓	-13.2995
惓	-13.2995
礱	-13.2997
孀	-13.2997
攛	-13.2997
玳	-13.2999
𡎺	-13.2999
嘹	-13.2999
邾	-13.3
苧	-13.3001
瑁	-13.3001
嚭	-13.3001
櫚	-13.3003
迍	-13.3005
腮	-13.3005
聱	-13.3006
猩	-13.3007
俎	-13.3007
牣	-13.3007
𨳝	-13.3007
瞭	-13.3008
鼯	-13.3008
糇	-13.3009
睟	-13.301
嵿	-13.301
𢌿	-13.3011
諝	-13.3012
蜣	-13.3013
濺	-13.3016
姆	-13.302
黧	-13.3022
嚗	-13.3023
腔	-13.3033
倮	-13.3048
跱	-13.3627
謇	-13.3627
弧	-13.3629
柢	-13.3632
䆫	-13.3633
褎	-13.3633
玨	-13.3634
湲	-13.3635
泒	-13.3635
攞	-13.3637
筞	-13.3637
呫	-13.3638
澥	-13.3638
槧	-13.3638
慴	-13.364
晰	-13.3641
鍤	-13.3642
戽	-13.3643
懂	-13.3645
侘	-13.3646
薝	-13.3648
嗒	-13.3648
沆	-13.3649
輓	-13.3649
椑	-13.3651
麕	-13.3651
邛	-13.3652
褓	-13.3653
憕	-13.3653
臈	-13.3654
罌	-13.3654
黛	-13.3655
蝮	-13.3656
殼	-13.3657
薯	-13.3658
菟	-13.3658
軔	-13.3659
沴	-13.366
姝	-13.366
猝	-13.366
蠁	-13.3661
羇	-13.3662
榼	-13.3662
觕	-13.3662
掞	-13.3662
巵	-13.3663
蹠	-13.3664
郛	-13.3664
刧	-13.3664
眎	-13.3664
慺	-13.3665
蒔	-13.3666
癖	-13.3666
鐍	-13.3666
皴	-13.3667
蘋	-13.3667
瀹	-13.3667
柝	-13.3668
僦	-13.3668
螄	-13.367
鑼	-13.3671
炅	-13.3672
擗	-13.3672
抝	-13.3673
淖	-13.3674
痰	-13.3674
旂	-13.3675
珵	-13.3676
捽	-13.3676
𨗉	-13.3677
轎	-13.3677
莓	-13.3678
垓	-13.3679
葳	-13.3679
咍	-13.368
攖	-13.368
樾	-13.3682
賖	-13.3682
偲	-13.3682
莪	-13.3684
矻	-13.3684
詒	-13.369
郫	-13.3705
頼	-13.4319
喁	-13.4337
馹	-13.4342
朏	-13.4348
榴	-13.4348
譟	-13.4349
餼	-13.435
憬	-13.435
緹	-13.4351
玫	-13.4351
鶖	-13.4351
榱	-13.4353
靦	-13.4354
㜸	-13.4356
贒	-13.4358
凳	-13.4358
楸	-13.4359
矬	-13.436
鄗	-13.436
臾	-13.436
詺	-13.436
璜	-13.4362
辠	-13.4363
襵	-13.4363
蜓	-13.4364
嗇	-13.4365
畟	-13.4367
寀	-13.4367
𩕳	-13.4367
耦	-13.4367
櫻	-13.4367
颻	-13.4368
螭	-13.4368
醨	-13.4369
琪	-13.437
磅	-13.4371
腎	-13.4371
韛	-13.4372
櫩	-13.4372
鵾	-13.4372
禘	-13.4372
魋	-13.4373
敫	-13.4373
躔	-13.4373
榷	-13.4373
嫩	-13.4374
䆮	-13.4374
摐	-13.4374
廙	-13.4374
猻	-13.4374
搯	-13.4375
跼	-13.4375
扳	-13.4375
徠	-13.4376
檣	-13.4377
齔	-13.4378
噇	-13.438
婪	-13.438
洫	-13.4381
簽	-13.4381
篨	-13.4382
貍	-13.4383
餵	-13.4383
紓	-13.4384
憺	-13.4384
腨	-13.4385
𠒋	-13.4386
𠎝	-13.4386
翬	-13.4386
蜉	-13.4386
絙	-13.4387
睞	-13.4387
洌	-13.4387
昴	-13.4388
斾	-13.4389
斲	-13.4389
豉	-13.4389
蹌	-13.439
獃	-13.4391
淞	-13.4391
芿	-13.4391
觔	-13.4392
糴	-13.4393
芾	-13.4394
絏	-13.4394
蟣	-13.4395
搗	-13.4396
􂖷	-13.4397
卛	-13.4398
覰	-13.4399
盼	-13.4399
洿	-13.44
蠏	-13.4407
薌	-13.4408
灋	-13.5084
誂	-13.5105
怵	-13.5105
媮	-13.5112
稹	-13.5115
﨟	-13.5115
堊	-13.512
忸	-13.512
搕	-13.512
陬	-13.5121
塜	-13.5122
閇	-13.5122
拿	-13.5122
睽	-13.5123
艫	-13.5123
緉	-13.5124
鏕	-13.5126
玎	-13.5128
勔	-13.513
餔	-13.5131
墠	-13.5132
柞	-13.5132
覦	-13.5132
髆	-13.5133
羃	-13.5133
侚	-13.5133
悢	-13.5134
賃	-13.5135
抅	-13.5135
榾	-13.5136
蚪	-13.5136
珩	-13.5137
蠆	-13.5137
垛	-13.5137
髼	-13.5139
撇	-13.5141
袷	-13.5141
鸇	-13.5142
墌	-13.5142
𤨏	-13.5142
綆	-13.5142
勺	-13.5143
絜	-13.5144
襠	-13.5145
𦵔	-13.5145
岨	-13.5145
樁	-13.5145
琉	-13.5146
摟	-13.5146
犒	-13.5146
昳	-13.5146
煽	-13.5146
𨅊	-13.5147
櫨	-13.5147
箏	-13.5147
茁	-13.5147
酆	-13.5148
𧮂	-13.5149
眥	-13.5149
鸎	-13.5149
淬	-13.515
佶	-13.515
旄	-13.515
䨱	-13.5151
颼	-13.5152
嶔	-13.5152
菰	-13.5153
塤	-13.5154
凟	-13.5154
揕	-13.5154
駘	-13.5154
噵	-13.5155
爕	-13.5155
嶁	-13.5155
犙	-13.5155
岣	-13.5156
櫝	-13.5156
茜	-13.5157
隧	-13.5158
墩	-13.5159
饘	-13.516
蝣	-13.5161
玃	-13.5163
溼	-13.5163
邅	-13.5164
煢	-13.5164
籜	-13.5166
峪	-13.5167
媟	-13.5167
忩	-13.5168
醼	-13.5169
鋌	-13.5172
俵	-13.5176
惒	-13.5914
咒	-13.5915
呆	-13.5943
肜	-13.5944
捏	-13.5944
𣗥	-13.5946
樻	-13.5948
浼	-13.5948
蔾	-13.595
义	-13.595
𥚚	-13.5953
緄	-13.5953
蒱	-13.5955
淼	-13.5958
緦	-13.596
貓	-13.5961
殀	-13.5962
砰	-13.5963
櫟	-13.5965
泆	-13.5966
蕳	-13.5966
柮	-13.5966
韭	-13.5967
躂	-13.5968
𦚾	-13.5969
祓	-13.5969
旰	-13.5969
砍	-13.5969
㭊	-13.5969
沍	-13.597
𠻳	-13.597
韈	-13.597
媾	-13.5971
苡	-13.5971
廐	-13.5972
鍪	-13.5973
昬	-13.5973
杈	-13.5974
洊	-13.5974
竢	-13.5974
饔	-13.5975
酇	-13.5975
皦	-13.5975
癃	-13.5975
畚	-13.5976
呱	-13.5976
爚	-13.5976
皡	-13.5976
嚝	-13.5976
𠲿	-13.5976
氀	-13.5977
裛	-13.5977
栩	-13.5978
僨	-13.5979
砭	-13.5979
麝	-13.5979
漭	-13.5979
笔	-13.5981
嘈	-13.5981
堡	-13.5981
嵌	-13.5981
匯	-13.5982
蘚	-13.5983
㪷	-13.5983
蛩	-13.5983
搴	-13.5983
齩	-13.5983
獺	-13.5983
肫	-13.5984
哦	-13.5984
躐	-13.5985
嬭	-13.5985
腠	-13.5985
枲	-13.5986
臉	-13.5986
餮	-13.5987
菱	-13.5987
偹	-13.5988
芷	-13.5989
鍠	-13.5989
呶	-13.5991
蕈	-13.5991
儘	-13.5992
陴	-13.5994
楗	-13.5995
忡	-13.5996
籧	-13.5997
廋	-13.5997
淝	-13.5998
异	-13.5999
𩥇	-13.6
歒	-13.6001
仡	-13.6005
讁	-13.6019
􃒤	-13.6821
a	-13.6835
婕	-13.6848
孾	-13.6848
勠	-13.6852
鵰	-13.6854
郟	-13.6856
麑	-13.6856
訩	-13.6857
鈿	-13.6859
鼷	-13.6859
悷	-13.6859
䆊	-13.6861
澶	-13.6862
鉼	-13.6863
綣	-13.6863
扮	-13.6864
賸	-13.6864
謄	-13.6865
圅	-13.6866
熨	-13.6868
畯	-13.687
抳	-13.687
糗	-13.687
扞	-13.687
邽	-13.6872
姞	-13.6872
彴	-13.6872
摠	-13.6873
舳	-13.6874
鄢	-13.6875
珀	-13.6876
鬯	-13.6876
澒	-13.6876
駞	-13.6877
舃	-13.6878
禕	-13.6878
篦	-13.6878
嵎	-13.6879
姐	-13.688
魘	-13.6881
簋	-13.6881
囅	-13.6881
塐	-13.6881
膈	-13.6881
狃	-13.6881
曯	-13.6882
瓫	-13.6883
懟	-13.6883
幪	-13.6884
岠	-13.6884
斕	-13.6884
瞼	-13.6885
輠	-13.6886
郇	-13.6886
澘	-13.6887
朧	-13.6887
溽	-13.6888
襜	-13.6889
𣵠	-13.689
鎦	-13.689
瓴	-13.6891
琁	-13.6891
篠	-13.6891
俐	-13.6891
雰	-13.6891
仵	-13.6892
橾	-13.6892
笄	-13.6892
輶	-13.6893
哢	-13.6894
凸	-13.6894
鴞	-13.6894
咂	-13.6894
帕	-13.6895
騮	-13.6895
儐	-13.6896
呿	-13.6897
狶	-13.6898
穡	-13.6898
渦	-13.6899
点	-13.6899
窳	-13.6899
黽	-13.69
祧	-13.6901
絀	-13.6903
曀	-13.6905
蒯	-13.6905
硃	-13.6905
玁	-13.6906
簏	-13.6906
霤	-13.6907
㢡	-13.6914
瑝	-13.6916
獪	-13.6917
膴	-13.6919
皰	-13.692
藟	-13.6931
鬍	-13.6958
珞	-13.7824
儇	-13.7845
涑	-13.7849
姤	-13.7852
銍	-13.7852
殪	-13.7854
鍍	-13.786
杰	-13.786
舷	-13.786
竉	-13.786
舄	-13.7863
龑	-13.7863
祑	-13.7864
𢂁	-13.7864
戔	-13.7865
腲	-13.7865
󰝟	-13.7866
􂨊	-13.7866
犴	-13.7866
脮	-13.7867
崒	-13.7868
芸	-13.7869
湣	-13.7869
酈	-13.7869
晒	-13.7869
偪	-13.7869
蹀	-13.787
穸	-13.787
芹	-13.7871
慵	-13.7872
䆠	-13.7872
鞁	-13.7872
躰	-13.7873
熅	-13.7873
鷦	-13.7873
烜	-13.7874
芭	-13.7874
鬆	-13.7875
噦	-13.7876
踳	-13.7876
眡	-13.7876
囦	-13.7876
爥	-13.7876
蜾	-13.7877
柁	-13.7878
蓑	-13.7878
嚇	-13.7879
稂	-13.7879
陡	-13.788
綈	-13.788
漶	-13.788
硋	-13.788
媸	-13.7881
荔	-13.7881
諟	-13.7881
栰	-13.7881
郃	-13.7881
𨶳	-13.7881
𢏺	-13.7882
餿	-13.7882
磷	-13.7882
噠	-13.7882
鰻	-13.7883
揬	-13.7883
柚	-13.7883
耑	-13.7883
囤	-13.7883
𨈭	-13.7883
鎌	-13.7884
喎	-13.7885
妷	-13.7886
醢	-13.7887
􂩇	-13.7887
鬅	-13.7887
蹭	-13.7888
汐	-13.7888
韲	-13.7889
鏵	-13.7889
妒	-13.789
𩯭	-13.7891
纁	-13.7891
疴	-13.7891
愓	-13.7891
晬	-13.7891
齕	-13.7892
壍	-13.7892
覻	-13.7892
瀦	-13.7892
慠	-13.7892
屇	-13.7894
馘	-13.7894
瀍	-13.7895
伋	-13.7896
眯	-13.7896
乱	-13.7896
獦	-13.7896
𥪰	-13.7896
槀	-13.7896
瞶	-13.7897
塌	-13.7897
驊	-13.7898
瓷	-13.7898
杷	-13.7898
澓	-13.7898
閥	-13.7898
甿	-13.7899
蛭	-13.7899
睚	-13.7899
灤	-13.7899
鶋	-13.79
惧	-13.7901
憃	-13.7901
訏	-13.7902
戞	-13.7902
逴	-13.7902
眙	-13.7905
涶	-13.7905
鑵	-13.7906
檇	-13.7907
詿	-13.7909
癬	-13.7909
㘅	-13.7914
澀	-13.7914
痿	-13.792
豓	-13.7921
肎	-13.7921
偵	-13.7923
㽵	-13.7924
觱	-13.7926
嫚	-13.7928
赩	-13.7929
𧷤	-13.7935
鱔	-13.7939
悳	-13.8935
鋹	-13.8943
-	-13.896
円	-13.8961
􂜉	-13.8961
瑳	-13.8963
軬	-13.8964
崧	-13.8965
靸	-13.8965
柟	-13.8966
湄	-13.8967
𣯃	-13.8968
鮌	-13.897
宓	-13.8971
葑	-13.8973
緰	-13.8973
橧	-13.8974
莧	-13.8975
傜	-13.8979
擦	-13.898
捎	-13.898
􂎶	-13.8981
誶	-13.8981
櫪	-13.8982
軛	-13.8982
踔	-13.8983
忮	-13.8983
窀	-13.8983
踖	-13.8983
蜎	-13.8984
鶵	-13.8984
羚	-13.8985
𨶮	-13.8985
嘵	-13.8985
蕋	-13.8986
賝	-13.8986
潯	-13.8987
墯	-13.8987
姹	-13.8988
羝	-13.8989
扑	-13.8989
𨷂	-13.899
丫	-13.899
踧	-13.899
响	-13.8991
腊	-13.8991
摺	-13.8991
轕	-13.8992
崤	-13.8992
秕	-13.8992
鎛	-13.8994
𨿅	-13.8994
鏨	-13.8995
昪	-13.8995
餝	-13.8995
瓛	-13.8995
号	-13.8995
哿	-13.8996
囋	-13.8997
燮	-13.8997
饜	-13.8997
柸	-13.8997
硜	-13.8997
庀	-13.8997
臬	-13.8998
濆	-13.8998
狴	-13.8999
澮	-13.8999
䓗	-13.8999
骰	-13.8999
讙	-13.8999
芘	-13.9
蝎	-13.9
㗚	-13.9002
隒	-13.9002
箬	-13.9002
䏶	-13.9003
􂖄	-13.9003
杇	-13.9003
鱓	-13.9003
頠	-13.9004
搶	-13.9004
薗	-13.9004
軆	-13.9006
𥧲	-13.9008
娟	-13.9009
􂔿	-13.901
跗	-13.901
喔	-13.901
妝	-13.901
碼	-13.901
帊	-13.9011
眦	-13.9011
晣	-13.9012
邨	-13.9012
訒	-13.9012
桁	-13.9014
酎	-13.9014
剴	-13.9014
栓	-13.9017
厰	-13.9017
趼	-13.9017
荳	-13.9018
飃	-13.9018
霪	-13.9019
踉	-13.9019
鯽	-13.902
戇	-13.902
繈	-13.902
罥	-13.902
餗	-13.9021
匆	-13.9021
搨	-13.9021
鄽	-13.9022
鉄	-13.9022
襁	-13.9023
窑	-13.9023
嫋	-13.9029
紼	-13.9031
凹	-13.9031
籓	-13.9032
卬	-13.9032
柑	-13.9033
汛	-13.9034
莚	-13.9039
珎	-13.905
􂔇	-13.9051
􃒙	-13.908
鬨	-14.0186
c	-14.0193
蔥	-14.0195
籀	-14.0205
竑	-14.0206
􃓛	-14.0209
䂓	-14.0211
鼉	-14.0211
鶚	-14.0213
𢪛	-14.0213
瀁	-14.0214
蓻	-14.0214
樅	-14.0214
腯	-14.0215
磎	-14.0216
粤	-14.0217
鼐	-14.0219
糕	-14.022
𨫼	-14.0222
璲	-14.0223
縚	-14.0223
繙	-14.0223
薺	-14.0223
􂯰	-14.0223
𨵃	-14.0224
岾	-14.0224
肪	-14.0224
諏	-14.0225
侏	-14.0225
蜋	-14.0226
幖	-14.0227
獽	-14.0227
􃒟	-14.0227
馝	-14.0227
鍜	-14.0228
窂	-14.0228
毯	-14.0228
㒒	-14.0228
蘸	-14.0229
𠏉	-14.0229
歹	-14.0229
眘	-14.0231
􂨨	-14.0232
殽	-14.0233
􂩗	-14.0233
躧	-14.0233
齗	-14.0235
􂗓	-14.0235
涴	-14.0235
蜫	-14.0235
崟	-14.0235
畛	-14.0235
𦣱	-14.0237
誧	-14.0237
仾	-14.0237
懊	-14.0237
枻	-14.0239
楣	-14.0239
𠗦	-14.0239
咈	-14.0239
嫰	-14.0239
桅	-14.0239
鏹	-14.024
蜻	-14.024
霫	-14.024
勻	-14.024
很	-14.024
枿	-14.0241
攧	-14.0242
梠	-14.0242
汧	-14.0242
忓	-14.0243
蓁	-14.0244
􂁭	-14.0244
胔	-14.0244
盔	-14.0244
􂐈	-14.0244
瘀	-14.0244
窊	-14.0244
旴	-14.0245
歬	-14.0246
溯	-14.0246
牴	-14.0247
臛	-14.0247
沗	-14.0248
鉦	-14.0248
㠋	-14.0248
墎	-14.0249
懱	-14.0249
儭	-14.0249
烋	-14.0249
迃	-14.025
滉	-14.025
􂍨	-14.025
餙	-14.025
羑	-14.025
鑴	-14.0251
湏	-14.0252
慓	-14.0252
蜯	-14.0252
獹	-14.0253
缸	-14.0253
膻	-14.0253
謌	-14.0253
竁	-14.0255
跎	-14.0255
搢	-14.0255
佪	-14.0255
埠	-14.0255
刓	-14.0255
晹	-14.0255
檎	-14.0256
糝	-14.0256
牾	-14.0257
皙	-14.0258
宁	-14.0258
柈	-14.0258
晧	-14.0259
袱	-14.0259
騑	-14.0259
焞	-14.0259
灨	-14.026
鄘	-14.0263
礭	-14.0263
𢬵	-14.0263
苪	-14.0263
倧	-14.0264
偎	-14.0264
䔧	-14.0264
饀	-14.0264
淙	-14.0265
篷	-14.0265
芦	-14.0265
唶	-14.0266
糶	-14.0267
畀	-14.0267
漼	-14.0268
碯	-14.0268
隥	-14.0269
胙	-14.0271
檛	-14.0272
砲	-14.0272
瀲	-14.0274
縡	-14.0274
䖃	-14.0276
鑷	-14.0276
󳯟	-14.0277
焴	-14.0278
綌	-14.028
艙	-14.0283
扯	-14.0283
樑	-14.0287
腿	-14.0289
嘅	-14.0289
鵷	-14.0291
聀	-14.0291
躲	-14.0293
箍	-14.0305
篹	-14.1596
碏	-14.1606
遹	-14.1616
b	-14.1622
瑎	-14.1626
𡺸	-14.1631
厮	-14.1631
湩	-14.1634
𩚅	-14.1636
綖	-14.1638
秏	-14.1639
勐	-14.1641
驄	-14.1641
敭	-14.1642
坯	-14.1643
蔘	-14.1644
䰟	-14.1644
驁	-14.1646
峘	-14.1646
吧	-14.1648
􂜪	-14.1649
譊	-14.165
鬐	-14.1652
醭	-14.1652
訇	-14.1653
䋏	-14.1654
釅	-14.1654
謩	-14.1654
綯	-14.1655
庋	-14.1655
匄	-14.1657
愒	-14.1657
陊	-14.1658
酊	-14.1658
嗈	-14.1659
确	-14.1659
滙	-14.166
瘼	-14.166
鍚	-14.1661
痘	-14.1662
鄣	-14.1663
笊	-14.1664
笴	-14.1664
鈆	-14.1665
狌	-14.1666
瞍	-14.1667
缻	-14.1667
臏	-14.1667
熸	-14.1668
􂒖	-14.1668
惸	-14.1668
溶	-14.1669
𢫫	-14.1669
蓂	-14.1669
屧	-14.1669
庥	-14.167
轔	-14.167
苽	-14.167
醺	-14.167
蠖	-14.167
鉀	-14.167
矰	-14.167
䞉	-14.1671
鎪	-14.1671
鬙	-14.1671
瘍	-14.1672
鄖	-14.1672
塈	-14.1673
儱	-14.1673
旍	-14.1673
巇	-14.1673
碪	-14.1673
袈	-14.1673
呴	-14.1673
趄	-14.1674
髣	-14.1674
棱	-14.1675
瑊	-14.1675
瓿	-14.1676
篅	-14.1676
𣣋	-14.1676
榸	-14.1676
琓	-14.1676
柹	-14.1677
迊	-14.1677
毺	-14.1678
术	-14.1678
韁	-14.1678
迕	-14.1679
汹	-14.1679
賙	-14.1679
邗	-14.1679
胊	-14.168
綝	-14.168
鸚	-14.168
旆	-14.1681
礡	-14.1681
妲	-14.1681
扛	-14.1681
舋	-14.1682
幌	-14.1682
劊	-14.1682
螮	-14.1682
篪	-14.1684
丳	-14.1685
箎	-14.1685
鴂	-14.1685
篲	-14.1685
𥘿	-14.1685
娜	-14.1686
桔	-14.1686
黶	-14.1686
嘩	-14.1686
鋼	-14.1687
囁	-14.1687
􂨘	-14.1688
壜	-14.1688
𨓍	-14.1688
套	-14.1688
棕	-14.1689
釭	-14.1689
攜	-14.169
筧	-14.1692
鏻	-14.1693
怌	-14.1694
唔	-14.1694
𧩙	-14.1694
􂫓	-14.1695
耹	-14.1697
厶	-14.1697
獯	-14.1699
佼	-14.1699
邰	-14.17
酔	-14.17
嵸	-14.1701
樛	-14.1702
緍	-14.1702
籕	-14.1704
搘	-14.1705
坳	-14.1706
喈	-14.1707
縧	-14.1709
焭	-14.1709
揶	-14.171
竽	-14.1711
鼾	-14.1711
瘢	-14.1713
捱	-14.1714
贛	-14.1714
紉	-14.1714
㴱	-14.1714
鞔	-14.1716
噽	-14.1717
狢	-14.1718
籮	-14.1718
濊	-14.1723
惽	-14.1729
嵫	-14.1732
襞	-14.1735
盇	-14.3267
𢤁	-14.327
㟧	-14.3283
䮚	-14.3288
祩	-14.3288
晼	-14.3291
悊	-14.3292
蚡	-14.3297
鍰	-14.3297
蛄	-14.3298
蠃	-14.3299
絁	-14.33
狺	-14.3302
綃	-14.3302
鞟	-14.3302
掙	-14.3307
屁	-14.3308
􃒞	-14.3309
澉	-14.3309
噲	-14.331
獗	-14.3312
蹎	-14.3312
旙	-14.3312
鶡	-14.3313
畹	-14.3313
㓨	-14.3313
癥	-14.3313
燀	-14.3313
焱	-14.3313
獮	-14.3314
姧	-14.3316
磣	-14.3316
礰	-14.3316
䑳	-14.3317
艨	-14.3317
癉	-14.3318
酩	-14.3318
珽	-14.3318
昫	-14.3319
眭	-14.332
圞	-14.332
蝍	-14.3322
棍	-14.3322
撚	-14.3323
詘	-14.3325
囕	-14.3325
搪	-14.3325
轀	-14.3326
壩	-14.3327
隟	-14.3327
亐	-14.3327
惄	-14.3328
陗	-14.3328
餕	-14.3329
麏	-14.3329
槵	-14.333
曒	-14.3331
淀	-14.3331
枘	-14.3331
鉠	-14.3332
螽	-14.3332
􂷿	-14.3333
輈	-14.3333
秔	-14.3334
炟	-14.3334
畤	-14.3334
馚	-14.3335
杞	-14.3336
螳	-14.3336
潠	-14.3336
樟	-14.3337
罋	-14.3337
蹐	-14.3337
糩	-14.3337
呦	-14.3337
晳	-14.3337
欖	-14.3338
􂎈	-14.3338
嶪	-14.3338
拼	-14.3338
膖	-14.3339
賵	-14.3339
鼕	-14.334
臚	-14.334
筈	-14.334
菅	-14.3341
篚	-14.3341
騄	-14.3341
鷰	-14.3342
嚌	-14.3343
剳	-14.3343
闃	-14.3343
㡧	-14.3343
轘	-14.3343
侻	-14.3344
篝	-14.3344
侖	-14.3344
焙	-14.3345
㬭	-14.3345
𤼭	-14.3345
剸	-14.3345
懆	-14.3346
虅	-14.3346
襃	-14.3346
棼	-14.3347
玘	-14.3347
霂	-14.3348
螾	-14.3348
胛	-14.3348
刵	-14.3348
瀧	-14.3348
宷	-14.3349
跧	-14.3349
䫻	-14.3349
槹	-14.3349
儺	-14.335
酗	-14.335
匳	-14.335
桌	-14.335
筩	-14.335
灊	-14.3352
䈥	-14.3352
䗈	-14.3352
􃒼	-14.3352
璆	-14.3352
岏	-14.3353
訹	-14.3353
爞	-14.3353
潀	-14.3354
觳	-14.3354
嘮	-14.3354
譸	-14.3354
搽	-14.3354
鶿	-14.3355
阼	-14.3356
洧	-14.3356
犲	-14.3356
𦨣	-14.3356
揁	-14.3356
塍	-14.3356
𢯱	-14.3357
誖	-14.3357
枵	-14.3357
葊	-14.3358
頮	-14.3358
䢴	-14.3358
􂸹	-14.3358
摣	-14.3359
糵	-14.336
𠁼	-14.336
嘏	-14.3361
槱	-14.3361
蕨	-14.3362
螂	-14.3362
罡	-14.3363
蘩	-14.3364
髹	-14.3364
櫂	-14.3364
壈	-14.3364
勖	-14.3365
禔	-14.3367
掄	-14.3367
淈	-14.3367
鄺	-14.3368
隼	-14.3369
胗	-14.3369
鷖	-14.3371
郕	-14.3371
㶑	-14.3372
騣	-14.3372
阱	-14.3373
敀	-14.3375
餁	-14.3375
衋	-14.3376
磉	-14.3378
辮	-14.338
檠	-14.338
蠓	-14.3383
𨚗	-14.3387
藋	-14.3388
𡑞	-14.3388
堠	-14.3389
砒	-14.3395
蔴	-14.3397
症	-14.34
堛	-14.34
擄	-14.34
𠒎	-14.3402
醵	-14.3405
鴝	-14.3409
糒	-14.5259
瞖	-14.527
𤓰	-14.5271
䅳	-14.5285
爟	-14.5285
玞	-14.5288
㖀	-14.5288
㨗	-14.5288
𩅦	-14.5288
谹	-14.5289
􂗘	-14.5292
霛	-14.5295
憝	-14.5296
齆	-14.5298
􂞲	-14.5298
壼	-14.5299
𣇄	-14.5299
齅	-14.53
脰	-14.53
貰	-14.5301
裎	-14.5301
苣	-14.5302
軺	-14.5303
𢁈	-14.5303
鸑	-14.5304
佰	-14.5305
鮪	-14.5305
軰	-14.5306
楪	-14.5307
偓	-14.5307
䧟	-14.5307
堇	-14.5308
柅	-14.5308
􂢄	-14.5308
鷁	-14.5309
戩	-14.5309
蹍	-14.5309
鏞	-14.5309
磽	-14.531
橇	-14.531
蓉	-14.5311
躞	-14.5312
瞙	-14.5312
昰	-14.5312
胠	-14.5313
嶋	-14.5313
弶	-14.5314
褪	-14.5315
瞾	-14.5315
渣	-14.5316
􃐓	-14.5316
站	-14.5317
坵	-14.5317
貙	-14.5317
廑	-14.5317
躕	-14.5317
幰	-14.5318
掎	-14.5319
帢	-14.5319
抔	-14.5319
幙	-14.532
礚	-14.532
珦	-14.532
梃	-14.532
适	-14.5321
彯	-14.5322
靶	-14.5323
蹣	-14.5323
攤	-14.5323
玖	-14.5323
瘻	-14.5323
穠	-14.5324
爓	-14.5324
嗛	-14.5324
頙	-14.5325
坈	-14.5326
畸	-14.5326
蟟	-14.5327
逍	-14.5327
亷	-14.5328
摻	-14.5328
輜	-14.5328
倛	-14.5328
䭔	-14.5329
佷	-14.5329
鞘	-14.533
鈇	-14.533
莛	-14.533
郿	-14.533
蜩	-14.533
阽	-14.5331
􂖂	-14.5331
闓	-14.5331
玡	-14.5332
􃒻	-14.5332
糸	-14.5333
󳼶	-14.5333
仿	-14.5333
訽	-14.5333
洼	-14.5334
劘	-14.5334
蘘	-14.5334
諐	-14.5336
𨏦	-14.5336
罾	-14.5336
蓀	-14.5337
湢	-14.5337
儈	-14.5337
𨂲	-14.5337
廌	-14.5337
菘	-14.5337
諴	-14.5337
胼	-14.5338
𢠵	-14.5338
咼	-14.5338
鷸	-14.5338
纇	-14.5338
呷	-14.5338
酖	-14.5339
遝	-14.5339
檟	-14.5339
㪍	-14.5339
濰	-14.5339
尒	-14.5339
騙	-14.534
弒	-14.534
萹	-14.534
耰	-14.534
𧦪	-14.534
䠒	-14.534
鵡	-14.534
胖	-14.5341
憇	-14.5341
擪	-14.5341
黲	-14.5341
􂰜	-14.5342
瓖	-14.5342
𢥠	-14.5343
鵂	-14.5343
咃	-14.5343
趲	-14.5343
簑	-14.5343
婭	-14.5344
殢	-14.5344
窴	-14.5344
熲	-14.5345
蟪	-14.5345
􃓖	-14.5345
瞹	-14.5346
愾	-14.5346
峇	-14.5347
筊	-14.5347
瑠	-14.5347
蘤	-14.5348
獍	-14.5348
籞	-14.5348
諉	-14.5348
𦤎	-14.535
戹	-14.535
囏	-14.535
蝥	-14.5351
寉	-14.5351
𩭄	-14.5352
㯭	-14.5353
戱	-14.5354
圬	-14.5354
柎	-14.5354
匊	-14.5354
唍	-14.5354
俍	-14.5354
熛	-14.5354
𥇒	-14.5355
窞	-14.5355
𥿭	-14.5355
鉾	-14.5356
餱	-14.5356
顴	-14.5356
僱	-14.5356
剺	-14.5356
蓰	-14.5357
剿	-14.5357
槥	-14.5357
盰	-14.5357
暍	-14.5358
酲	-14.5358
嚑	-14.5358
旟	-14.5358
澌	-14.5359
繻	-14.5359
么	-14.5359
艑	-14.5359
矌	-14.5359
构	-14.536
琱	-14.536
坰	-14.536
胭	-14.5361
灞	-14.5361
懞	-14.5361
沚	-14.5361
湟	-14.5362
捄	-14.5362
綘	-14.5362
种	-14.5362
楂	-14.5363
壃	-14.5363
麀	-14.5364
鞕	-14.5364
㴾	-14.5364
蒻	-14.5364
菸	-14.5364
荂	-14.5364
届	-14.5365
荇	-14.5365
軄	-14.5365
甆	-14.5365
㓟	-14.5366
髴	-14.5366
愞	-14.5366
揲	-14.5366
岊	-14.5366
汜	-14.5366
唅	-14.5366
屼	-14.5367
𠷐	-14.5368
礨	-14.5368
麩	-14.5368
檏	-14.5368
孠	-14.5368
穅	-14.5369
挌	-14.5369
膋	-14.5369
啁	-14.537
洳	-14.537
抓	-14.537
鬂	-14.537
蠛	-14.5371
鞱	-14.5372
䬸	-14.5372
睪	-14.5372
􂑓	-14.5372
帒	-14.5372
橙	-14.5373
佈	-14.5373
巃	-14.5373
荈	-14.5374
儅	-14.5374
糙	-14.5375
囱	-14.5375
嚅	-14.5375
𪗋	-14.5375
賕	-14.5375
痬	-14.5376
泖	-14.5377
儵	-14.5377
烘	-14.5377
鬷	-14.5377
喀	-14.5378
沬	-14.5378
𦭞	-14.5379
礘	-14.538
䴏	-14.5381
噁	-14.5381
㸌	-14.5381
鮭	-14.5382
􃒵	-14.5383
爹	-14.5385
纈	-14.5385
蛺	-14.5388
痁	-14.5388
棉	-14.5389
塸	-14.539
琲	-14.539
从	-14.5391
桎	-14.5396
􂙠	-14.54
詗	-14.5401
夌	-14.5404
豏	-14.5407
噭	-14.5408
眊	-14.541
堲	-14.5411
仼	-14.5434
狖	-14.7774
穪	-14.7775
虯	-14.7781
擭	-14.7785
曮	-14.7787
f	-14.7788
竮	-14.7789
鐲	-14.779
欀	-14.779
翷	-14.7792
—	-14.7792
籄	-14.7794
颸	-14.7796
枰	-14.7797
埸	-14.7797
圝	-14.7798
煗	-14.7798
鵑	-14.7799
䏑	-14.7799
嘇	-14.7801
婣	-14.7801
𢎿	-14.7801
慽	-14.7802
琡	-14.7806
輛	-14.7806
裊	-14.7808
萋	-14.7808
秫	-14.7809
蓱	-14.781
鞶	-14.781
悏	-14.781
葪	-14.7812
鏺	-14.7812
㶦	-14.7812
禊	-14.7812
淇	-14.7813
楛	-14.7813
濘	-14.7813
矝	-14.7813
瞱	-14.7814
騅	-14.7814
踹	-14.7815
睍	-14.7815
藮	-14.7816
岺	-14.7816
㘁	-14.7816
𢷤	-14.7816
𦵮	-14.7817
馞	-14.7817
溱	-14.7817
攎	-14.7817
𣃆	-14.7817
昀	-14.7818
殳	-14.7819
撅	-14.7819
𩗺	-14.7819
㸐	-14.7819
靃	-14.7819
贗	-14.782
罘	-14.782
罻	-14.782
鎞	-14.782
繾	-14.782
慁	-14.7821
軿	-14.7822
僜	-14.7822
襻	-14.7823
䥴	-14.7823
汔	-14.7823
癤	-14.7823
𧜼	-14.7824
熢	-14.7824
剠	-14.7824
B	-14.7824
C	-14.7824
鄶	-14.7826
鮫	-14.7826
𥢶	-14.7827
∴	-14.7827
塠	-14.7827
礓	-14.7827
扙	-14.7828
璁	-14.7828
籛	-14.7828
荽	-14.7828
秸	-14.7829
鍑	-14.7829
茞	-14.783
嚏	-14.783
鯹	-14.783
錡	-14.7831
飥	-14.7831
蟜	-14.7831
䠱	-14.7831
銼	-14.7831
凷	-14.7833
掁	-14.7833
槳	-14.7833
蔌	-14.7833
薾	-14.7833
霣	-14.7833
飤	-14.7833
愶	-14.7834
𢼨	-14.7834
磈	-14.7834
㞧	-14.7834
䵟	-14.7834
鏖	-14.7834
蔀	-14.7834
陝	-14.7834
褲	-14.7835
縆	-14.7835
庳	-14.7835
栟	-14.7835
寑	-14.7836
巑	-14.7837
痂	-14.7837
鯈	-14.7837
泅	-14.7837
㥏	-14.7837
懕	-14.7838
搓	-14.7838
饈	-14.7838
姍	-14.7839
皭	-14.784
榘	-14.7841
褌	-14.7841
鷴	-14.7841
䍧	-14.7841
缼	-14.7842
飧	-14.7842
抦	-14.7842
繯	-14.7842
啝	-14.7842
𡱰	-14.7842
韡	-14.7843
彡	-14.7844
螗	-14.7844
覉	-14.7844
祫	-14.7844
轥	-14.7844
縋	-14.7845
㦎	-14.7845
榧	-14.7845
吨	-14.7845
頥	-14.7845
耡	-14.7845
贋	-14.7845
𧩡	-14.7845
榍	-14.7846
鬖	-14.7846
餤	-14.7846
鋈	-14.7847
湔	-14.7847
𨵗	-14.7848
惷	-14.7848
餂	-14.7848
礲	-14.7848
𡨔	-14.7848
芊	-14.7848
剄	-14.7848
趐	-14.7849
韌	-14.7849
殭	-14.7849
憜	-14.7849
鼃	-14.785
渢	-14.785
磻	-14.7851
薉	-14.7851
𥉌	-14.7851
噞	-14.7852
燻	-14.7852
偰	-14.7852
庙	-14.7853
蠭	-14.7853
翎	-14.7853
㗸	-14.7853
繐	-14.7853
蕂	-14.7853
枸	-14.7853
寠	-14.7853
靘	-14.7854
粇	-14.7855
衖	-14.7856
㔁	-14.7856
們	-14.7856
臞	-14.7856
囌	-14.7856
矱	-14.7856
暾	-14.7856
慱	-14.7857
拐	-14.7857
𦙁	-14.7858
𣔻	-14.7858
菆	-14.7858
譍	-14.7858
汏	-14.7858
駃	-14.7859
嶲	-14.7859
氊	-14.7859
囲	-14.7859
耎	-14.7859
榦	-14.7859
傖	-14.7859
洴	-14.7859
𦤞	-14.786
哪	-14.786
壎	-14.7863
厈	-14.7863
煇	-14.7863
篱	-14.7863
慌	-14.7863
鞲	-14.7863
猘	-14.7863
嫠	-14.7864
礿	-14.7865
醆	-14.7865
匜	-14.7866
錞	-14.7866
齲	-14.7866
茇	-14.7866
墪	-14.7866
黈	-14.7866
泞	-14.7867
銃	-14.7867
哳	-14.7867
蚘	-14.7867
餳	-14.7867
証	-14.7869
焯	-14.7869
渰	-14.7869
曤	-14.7869
鬟	-14.7869
斝	-14.787
鮐	-14.787
舀	-14.787
綩	-14.787
𦟛	-14.787
𨺗	-14.787
喨	-14.787
栍	-14.787
杅	-14.787
牂	-14.7871
痞	-14.7871
芰	-14.7871
墄	-14.7871
柂	-14.7873
荑	-14.7874
嫫	-14.7874
獐	-14.7876
麫	-14.7876
暵	-14.7876
詃	-14.7877
蕢	-14.7878
𢍉	-14.7878
贜	-14.788
鷇	-14.7881
稾	-14.7881
鞾	-14.7881
魈	-14.7881
蚿	-14.7883
●	-14.7883
踽	-14.7884
倥	-14.7884
㗋	-14.7884
拚	-14.7885
犳	-14.7887
煠	-14.7887
棐	-14.7888
懨	-14.7888
斖	-14.7888
鄷	-14.7894
暯	-14.7894
麂	-14.7895
鬭	-14.7896
絫	-14.7898
焂	-14.7898
䂐	-14.7898
䩫	-14.7898
虣	-14.7898
搠	-14.7901
𧩰	-14.7902
㑺	-14.7905
挪	-14.7905
燖	-14.7906
票	-14.7906
袜	-14.7908
灔	-14.791
䀸	-14.7911
毖	-14.7913
嵦	-14.7921
峧	-14.7924
賮	-14.7924
䃜	-14.7924
凰	-15.1161
獼	-15.6122
綂	-15.6144
倆	-15.6216
𦳃	-16.6083
𤛆	-16.6084
鷟	-16.6085
鶹	-16.6086
骾	-16.6087
馟	-16.6088
餛	-16.6089
飩	-16.609
雘	-16.6091
鑕	-16.6092
遛	-16.6093
趑	-16.6094
蚑	-16.6095
蕷	-16.6096
菉	-16.6097
芍	-16.6098
耙	-16.6099
簌	-16.61
畐	-16.6101
珷	-16.6102
烊	-16.6103
炆	-16.6104
瀜	-16.6105
淴	-16.6106
浺	-16.6107
樨	-16.6108
嶀	-16.6109
婓	-16.611
妁	-16.6111
墡	-16.6112
剟	-16.6113
僬	-16.6114
倻	-16.6115
䤬	-16.6116
䙡	-16.6117
䖟	-16.6118
䍌	-16.6119
㨖	-16.612
┼	-16.6121
𢈔	-16.6122
𡵙	-16.6123
𡵆	-16.6124
𠿒	-16.6125
𠺕	-16.6126
麛	-16.6127
輬	-16.6128
贑	-16.6129
觽	-16.613
蟋	-16.6131
蟀	-16.6132
蕝	-16.6133
蕅	-16.6134
莩	-16.6135
臙	-16.6136
胯	-16.6137
糢	-16.6138
粢	-16.6139
簠	-16.614
痏	-16.6141
濙	-16.6142
歅	-16.6143
枇	-16.6144
戄	-16.6145
恓	-16.6146
怩	-16.6147
岧	-16.6148
孌	-16.6149
咿	-16.615
伅	-16.6151
䓻	-16.6152
𣱦	-16.6153
𠽋	-16.6154
鷯	-16.6155
鱍	-16.6156
饡	-16.6157
颰	-16.6158
鋙	-16.6159
輊	-16.616
襮	-16.6161
蜱	-16.6162
蜍	-16.6163
蘅	-16.6164
蒹	-16.6165
脞	-16.6166
磲	-16.6167
硿	-16.6168
硨	-16.6169
棻	-16.617
栂	-16.6171
抆	-16.6172
惵	-16.6173
庬	-16.6174
幵	-16.6175
呰	-16.6176
儴	-16.6177
䳌	-16.6178
𡽀	-16.6179
鱷	-16.618
顦	-16.6181
蝴	-16.6182
薔	-16.6183
蒢	-16.6184
熳	-16.6185
溧	-16.6186
毹	-16.6187
撙	-16.6188
徬	-16.6189
㗭	-16.619
𩜁	-16.6191
轇	-16.6192
茢	-16.6193
磤	-16.6194
潸	-16.6195
椸	-16.6196
徜	-16.6197
嵊	-16.6198
媽	-16.6199
剚	-16.62
鸝	-16.6201
燉	-16.6202
鷥	-16.6202
鶗	-16.6203
螃	-16.6204
睥	-16.6205
挲	-16.6206
彔	-16.6207
妤	-16.6208
嚷	-16.6209
㔜	-16.621
𢶍	-16.6211
𠢐	-16.6212
饅	-16.6213
蜈	-16.6214
蚣	-16.6215
薏	-16.6216
纚	-16.6217
磓	-16.6218
琥	-16.6219
櫳	-16.622
齬	-16.6221
齟	-16.6222
狻	-16.6223
涬	-16.6224
厔	-16.6225
馲	-16.6226
菖	-16.6227
覼	-16.6228
綮	-16.6229
搐	-16.623
奝	-16.6231
塿	-16.6232
齁	-16.6233
靼	-16.6234
茯	-16.6235
翡	-16.6236
篌	-16.6237
娓	-16.6238
儡	-16.6239
𥦽	-16.624
魍	-16.6241
鈯	-16.6242
襤	-16.6243
瓈	-16.6244
傀	-16.6245
靉	-16.6246
靆	-16.6247
緲	-16.6248
痆	-16.6249
齷	-16.625
鏑	-16.6251
跬	-16.6252
燹	-16.6253
椰	-16.6254
鵓	-16.6255
窕	-16.6256
萏	-16.6257
菡	-16.6258
圄	-16.6259
嚀	-16.626
躊	-16.6261
棙	-16.6262
蚯	-16.6263
瑭	-16.6264
蝙	-16.6265
蛣	-16.6266
窿	-16.6267
狽	-16.6268
俙	-16.6269
駸	-16.627
潺	-16.6271
琵	-16.6272
謦	-16.6273
歔	-16.6274
愀	-16.6275
萄	-16.6276
瞌	-16.6277
崢	-16.6278
邂	-16.6279
┐	-16.628
┘	-16.6281
>	-16.6282
牯	-16.6283
駙	-16.6284
婇	-16.6285
┌	-16.6286
靂	-16.6287
琊	-16.6288
紜	-16.6289
醐	-16.629
+	-16.6291
│	-16.6292
徘	-16.6293
o	-16.6294
N	-16.6295
睺	-16.6296
裟	-16.6297
|	-16.6298
逡	-16.6298
