<unk>	0
<s>	0
</s>	0
之	-4.17021
/	-4.56201
(	-4.56667
)	-4.56667
不	-5.01682
者	-5.04413
也	-5.09314
一	-5.2159
以	-5.22971
有	-5.23046
爲	-5.25084
人	-5.36093
上	-5.41015
中	-5.41036
無	-5.41835
大	-5.44596
其	-5.4857
而	-5.51588
天	-5.54626
兩	-5.57734
生	-5.58007
心	-5.61041
三	-5.65929
於	-5.68543
得	-5.69025
下	-5.71141
道	-5.71241
行	-5.73561
方	-5.75812
神	-5.76555
氣	-5.80805
如	-5.81474
子	-5.91874
自	-5.93356
則	-5.94173
此	-5.98758
治	-5.99755
在	-6.0513
出	-6.05775
明	-6.06159
五	-6.06477
日	-6.06757
是	-6.07946
用	-6.08147
水	-6.11581
二	-6.11623
四	-6.14794
身	-6.1574
時	-6.17389
故	-6.21611
至	-6.21711
經	-6.23958
當	-6.24333
風	-6.2446
入	-6.25289
令	-6.26241
見	-6.267
若	-6.26968
法	-6.27951
眞	-6.28734
内	-6.31205
所	-6.31279
相	-6.31699
言	-6.32481
去	-6.33259
成	-6.3375
常	-6.34598
地	-6.3471
與	-6.35804
真	-6.35859
靈	-6.36125
服	-6.3762
來	-6.37743
山	-6.37799
又	-6.38318
主	-6.38882
玉	-6.38886
作	-6.39741
或	-6.40626
九	-6.42842
合	-6.44622
仙	-6.46149
名	-6.46563
文	-6.4662
事	-6.48486
知	-6.4859
玄	-6.48616
病	-6.49502
善	-6.50312
白	-6.51198
金	-6.51493
火	-6.51836
分	-6.52291
通	-6.52601
後	-6.52714
正	-6.53767
皆	-6.56268
同	-6.56619
)(	-6.5694
即	-6.58286
師	-6.58492
陽	-6.59835
六	-6.602
取	-6.60728
復	-6.60761
可	-6.60838
書	-6.61419
雲	-6.6272
前	-6.62967
精	-6.63145
清	-6.64348
長	-6.64568
非	-6.64954
光	-6.6572
乃	-6.66016
能	-6.66171
青	-6.66415
食	-6.67287
符	-6.67336
黄	-6.68355
及	-6.68467
▁	-6.68494
七	-6.68949
君	-6.69566
惡	-6.69649
使	-6.69736
今	-6.70727
曰	-6.70748
過	-6.70767
諸	-6.72035
欲	-6.72348
我	-6.74611
多	-6.74822
和	-6.7532
散	-6.75493
重	-6.75703
亦	-6.75864
處	-6.75984
受	-6.76297
藥	-6.77267
矣	-6.77583
開	-6.7775
先	-6.77964
頭	-6.78236
年	-6.78418
八	-6.78704
從	-6.78974
未	-6.79209
命	-6.81957
本	-6.82925
死	-6.82934
然	-6.8321
小	-6.83888
熱	-6.84103
外	-6.84916
盡	-6.85929
萬	-6.86319
空	-6.86854
月	-6.87256
湯	-6.87407
王	-6.88198
起	-6.88767
門	-6.89133
痛	-6.8923
發	-6.90063
安	-6.90068
度	-6.90276
應	-6.90732
十	-6.91236
右	-6.91925
化	-6.92169
何	-6.926
難	-6.92831
元	-6.92943
樂	-6.92974
物	-6.94568
炁	-6.94728
便	-6.94907
口	-6.95655
更	-6.96087
意	-6.96748
半	-6.96958
不得	-6.96966
形	-6.97196
數	-6.97394
好	-6.9764
字	-6.98077
教	-6.98456
虚	-6.99352
將	-7.00892
凡	-7.01037
傳	-7.01139
已	-7.01347
家	-7.01796
各	-7.02216
解	-7.02357
天地	-7.02561
丹	-7.02816
存	-7.02847
自然	-7.0289
世	-7.03347
加	-7.0367
鬼	-7.03734
宫	-7.03804
性	-7.04111
因	-7.0457
念	-7.04723
隨	-7.0479
邪	-7.049
急	-7.05172
飛	-7.05355
不可	-7.0561
云	-7.0584
理	-7.05964
乎	-7.06461
德	-7.06508
色	-7.07402
立	-7.07423
妙	-7.07761
流	-7.07798
結	-7.07898
高	-7.0808
苦	-7.08298
百	-7.08674
華	-7.09382
觀	-7.09964
陰	-7.11471
酒	-7.1167
次	-7.11824
根	-7.12463
紫	-7.12663
吾	-7.12735
歸	-7.13216
香	-7.1368
平	-7.13735
要	-7.15442
目	-7.15554
血	-7.16079
少	-7.16223
赤	-7.16894
寒	-7.17113
脉	-7.17221
動	-7.17497
衆	-7.1768
龍	-7.18649
耳	-7.18666
无	-7.18686
修	-7.20963
反	-7.21438
體	-7.21538
傷	-7.21584
絶	-7.21597
思	-7.21933
石	-7.22084
須	-7.22155
公	-7.22383
止	-7.22383
居	-7.22755
願	-7.22921
骨	-7.2294
洞	-7.2306
還	-7.23593
除	-7.24061
會	-7.2428
滿	-7.25103
變	-7.25592
求	-7.25681
實	-7.26149
微	-7.26879
著	-7.272
雷	-7.28202
轉	-7.28705
宜	-7.30111
極	-7.30259
深	-7.30987
升	-7.3147
共	-7.31587
等	-7.31989
功	-7.32001
手	-7.32106
學	-7.32535
問	-7.33267
真人	-7.3338
養	-7.33462
面	-7.33842
甘草	-7.34065
星	-7.34952
運	-7.358
力	-7.36318
但	-7.36342
足	-7.36401
夫	-7.36851
定	-7.36976
說	-7.37438
聞	-7.37584
降	-7.37712
帝	-7.3867
飲	-7.39313
又方	-7.39815
老	-7.39929
向	-7.40043
休	-7.40551
致	-7.41003
藏	-7.41247
利	-7.41294
衣	-7.4138
滅	-7.4141
都	-7.41496
信	-7.42011
不能	-7.42581
冷	-7.42977
聖	-7.43243
戒	-7.4346
離	-7.43928
景	-7.44263
千	-7.44398
久	-7.44887
圓	-7.44891
易	-7.46355
毒	-7.46547
太	-7.46722
煎	-7.47181
失	-7.47351
閑	-7.47936
馬	-7.48249
疾	-7.48275
土	-7.48577
各一	-7.48967
初	-7.49073
别	-7.49328
悉	-7.49359
遊	-7.4957
間	-7.50439
必	-7.50566
木	-7.51178
關	-7.51239
守	-7.51321
海	-7.5174
塵	-7.51751
悟	-7.51944
召	-7.5218
臣	-7.52233
異	-7.52287
交	-7.5232
各二	-7.5279
品	-7.5285
論	-7.53225
莫	-7.53315
斷	-7.53447
肉	-7.54696
攝	-7.54879
太上	-7.55091
某	-7.55426
俱	-7.55795
到	-7.5605
積	-7.56313
遠	-7.56381
了	-7.56383
志	-7.56428
甚	-7.56666
官	-7.57345
國	-7.57574
聲	-7.5807
枚	-7.58087
呪	-7.5935
乾	-7.5948
裏	-7.59718
覺	-7.59797
皇	-7.59936
始	-7.6027
隱	-7.60357
贈	-7.60428
消	-7.6044
丸	-7.60638
坐	-7.61217
罪	-7.61223
章	-7.61251
且	-7.61697
女	-7.61709
夜	-7.62486
勿	-7.62939
愛	-7.63096
獨	-7.63224
灸	-7.6342
朝	-7.63467
虛	-7.64024
斗	-7.64249
温	-7.64257
汁	-7.64708
奉	-7.65549
興	-7.6575
西	-7.66435
錢	-7.66591
福	-7.66606
東	-7.66876
民	-7.6689
亂	-7.66953
隂	-7.67518
南	-7.67623
當歸	-7.67672
腫	-7.67816
勞	-7.67899
喜	-7.67971
花	-7.68586
各三	-7.6861
桂心	-7.68643
黑	-7.68711
順	-7.69019
却	-7.69082
象	-7.69857
直	-7.69956
周	-7.7035
腎	-7.70773
皮	-7.71151
舉	-7.71467
逆	-7.71538
親	-7.71637
語	-7.71947
訣	-7.72024
鍊	-7.7204
乘	-7.7215
北	-7.72217
引	-7.72473
破	-7.72476
雖	-7.72577
寳	-7.72621
煑	-7.728
輕	-7.72852
節	-7.7328
春	-7.73318
照	-7.73378
畢	-7.73434
義	-7.73879
既	-7.7393
天下	-7.73956
全	-7.74054
宿	-7.74142
由	-7.74268
依	-7.74301
十二	-7.7477
報	-7.74799
左	-7.75136
首	-7.76387
瘡	-7.76495
末	-7.76568
靜	-7.7677
並	-7.76867
路	-7.77381
兒	-7.77662
室	-7.77835
蟲	-7.77842
果	-7.78122
收	-7.78961
壽	-7.79377
齋	-7.79815
先生	-7.80039
似	-7.80221
情	-7.80457
調	-7.80459
餘	-7.80657
持	-7.80687
哉	-7.80954
府	-7.81227
速	-7.81355
縁	-7.81424
并	-7.8161
指	-7.817
救	-7.81706
忘	-7.82223
吐	-7.82941
茯苓	-7.83126
布	-7.83183
伏	-7.83259
具	-7.83802
住	-7.84377
音	-7.84589
進	-7.84726
經云	-7.84734
種	-7.84869
人參	-7.84908
任	-7.85106
雨	-7.85231
味	-7.85253
良	-7.85343
息	-7.85551
遇	-7.86363
賢	-7.86453
魔	-7.8646
眞人	-7.86761
號	-7.87027
肝	-7.87257
天尊	-7.87365
愈	-7.87391
臺	-7.87587
害	-7.87888
一切	-7.8791
不知	-7.87961
肺	-7.8861
眼	-7.8908
寶	-7.89427
夢	-7.89447
看	-7.89768
告	-7.89858
幽	-7.90037
益	-7.90046
仁	-7.90112
位	-7.90677
登	-7.90748
張	-7.9104
尊	-7.91212
保	-7.91287
母	-7.91443
稱	-7.91531
容	-7.91916
施	-7.92028
服之	-7.92056
神仙	-7.92438
對	-7.9258
貪	-7.92588
感	-7.92837
部	-7.93135
臨	-7.93202
新	-7.93445
堅	-7.93581
請	-7.93659
日月	-7.94038
業	-7.94214
達	-7.94253
證	-7.94331
再	-7.94559
他	-7.94892
患	-7.95568
視	-7.95579
素	-7.95591
九天	-7.95796
歲	-7.96319
房	-7.96323
細	-7.96323
盛	-7.96421
强	-7.96847
上清	-7.97195
萬物	-7.97323
殺	-7.97443
爲末	-7.98159
膏	-7.98432
燒	-7.98657
堂	-7.98668
禁	-7.98672
魂	-7.99176
迷	-7.99268
劫	-7.99488
俗	-7.99519
曲	-7.99627
勝	-7.99864
勸	-8.00024
勑	-8.00074
就	-8.00215
集	-8.00639
附子	-8.00787
草	-8.0079
紅	-8.00872
犯	-8.00883
辭	-8.00892
芍藥	-8.01128
古	-8.01389
聽	-8.01537
乾薑	-8.01568
許	-8.01608
也故	-8.01995
終	-8.02443
浮	-8.02638
凶	-8.02937
卧	-8.03038
謂	-8.03179
帝王	-8.0319
葉	-8.03313
聚	-8.03801
損	-8.04003
脾	-8.0404
承	-8.04416
廣	-8.04864
之人	-8.05008
迴	-8.05034
落	-8.05118
效	-8.05384
刺	-8.05747
屬	-8.05852
恩	-8.05993
遂	-8.0605
補	-8.06076
望	-8.06585
恐	-8.07013
顯	-8.0719
永	-8.07301
父母	-8.07349
録	-8.07417
投	-8.07995
禮	-8.0801
胎	-8.08085
尚	-8.08314
蓋	-8.08338
把	-8.08583
兵	-8.08657
卷	-8.0878
羅	-8.08986
甲	-8.09019
所以	-8.09025
放	-8.09611
之道	-8.09924
備	-8.10098
焉	-8.10343
唯	-8.10407
秋	-8.10409
河	-8.10488
霞	-8.10693
二十	-8.10697
祕	-8.10849
威	-8.11082
助	-8.11187
熟	-8.11259
而不	-8.11286
篇	-8.11726
無爲	-8.11807
留	-8.12131
昇	-8.1221
虎	-8.12212
境	-8.12219
大黄	-8.12872
弟子	-8.131
壇	-8.1347
珠	-8.14309
惟	-8.14475
冬	-8.14735
猶	-8.14979
走	-8.15129
于	-8.15223
尋	-8.15335
辰	-8.15561
謹	-8.1572
不敢	-8.15729
長生	-8.15863
宗	-8.15872
牛	-8.16034
候	-8.16034
智	-8.16167
禍	-8.16274
令人	-8.1642
切	-8.16493
灰	-8.16497
司	-8.16542
往	-8.16843
斤	-8.16857
細辛	-8.17043
步	-8.17051
窮	-8.17553
類	-8.17675
識	-8.17809
煞	-8.17819
吉	-8.18084
大道	-8.18175
洗	-8.18406
瓊	-8.18431
黄芩	-8.18617
道德	-8.18637
州	-8.18931
驚	-8.18933
客	-8.18935
做	-8.19352
奏	-8.19549
謝	-8.19655
敕	-8.19842
士	-8.2007
妄	-8.20119
閉	-8.20174
早	-8.20766
憂	-8.21004
没	-8.21007
想	-8.21023
圖	-8.2107
使者	-8.21093
鼻	-8.21196
只	-8.21209
總	-8.21276
造	-8.21456
背	-8.21566
又云	-8.21805
舌	-8.21866
祖	-8.21922
最	-8.22225
慈	-8.22289
亡	-8.22345
注	-8.22548
遍	-8.22874
授	-8.22888
晨	-8.22967
車	-8.23098
隂陽	-8.23127
大神	-8.23279
夏	-8.23351
己	-8.23378
被	-8.23382
忽	-8.23492
制	-8.23682
科	-8.23686
疑	-8.23701
防風	-8.23758
超	-8.23875
期	-8.23877
脚	-8.24174
豈	-8.24371
朱	-8.24473
三界	-8.24628
懷	-8.24629
一升	-8.24629
巳	-8.25257
仰	-8.25464
陳	-8.25502
執	-8.25534
固	-8.25715
愚	-8.26367
近	-8.26472
第一	-8.26572
乳	-8.26698
慧	-8.26714
專	-8.26769
修行	-8.26771
鐵	-8.26964
箇	-8.27176
端	-8.27186
腹	-8.2747
如此	-8.27529
貴	-8.27572
誠	-8.27606
源	-8.2766
齊	-8.27974
敬	-8.28044
記	-8.28277
午	-8.28479
髮	-8.28564
白术	-8.28898
生薑	-8.28926
假	-8.29001
户	-8.29584
呼	-8.29709
寧	-8.2982
汗	-8.29844
薄	-8.30268
覆	-8.30394
上下	-8.30858
湯治	-8.30897
一兩	-8.31105
堪	-8.3162
冠	-8.31665
漸	-8.31711
太平	-8.31742
凝	-8.31756
日三	-8.31956
烏	-8.32081
笑	-8.32252
鳳	-8.33082
芎藭	-8.33185
機	-8.33222
狂	-8.33273
庭	-8.33494
塗	-8.33548
誰	-8.33572
遣	-8.33585
三十	-8.33622
待	-8.33819
衰	-8.33928
徹	-8.34062
列	-8.34152
汝	-8.34339
鄉	-8.34556
尺	-8.34619
第二	-8.34663
天尊至心信禮	-8.34972
擣	-8.35014
沉	-8.35078
為	-8.35301
之所	-8.35338
之中	-8.35564
孝	-8.35582
條	-8.35673
名爲	-8.35744
免	-8.35999
林	-8.36005
弱	-8.36246
違	-8.36277
帝君	-8.36286
輪	-8.36424
衝	-8.36461
松	-8.36472
靈寳	-8.36942
歌	-8.37025
勤	-8.37167
現	-8.3722
灾	-8.37339
針	-8.37454
瘥	-8.37592
敗	-8.37913
連	-8.38083
建	-8.38345
其人	-8.38468
兆	-8.38844
置	-8.39045
濟	-8.39281
每	-8.39318
得道	-8.39586
天上	-8.39793
李	-8.39838
簡	-8.4001
怒	-8.40129
啓	-8.4069
付	-8.40733
醫	-8.4121
城	-8.41273
十方	-8.41325
以爲	-8.41509
帶	-8.41741
中有	-8.41768
玉清	-8.41875
迎	-8.42377
普	-8.4248
狀	-8.42549
魚	-8.42635
腹中	-8.42735
波	-8.42983
筋	-8.43042
米	-8.43061
雪	-8.43239
脫	-8.43468
忌	-8.43508
蒙	-8.43568
壯	-8.43598
光明	-8.43716
增	-8.43853
穴	-8.44302
含	-8.44349
逍遥	-8.44356
仍	-8.44409
天師	-8.44853
研	-8.44891
封	-8.44919
角	-8.4495
谷	-8.44996
映	-8.45255
煙	-8.45389
童	-8.45426
辛	-8.45543
泉	-8.46012
可以	-8.46251
拜	-8.46442
暗	-8.46457
道士	-8.46507
示	-8.46509
秀	-8.4676
黒	-8.46762
蜜	-8.46941
塞	-8.4731
徒	-8.47543
齒	-8.47613
棄	-8.47744
澤	-8.4792
炒	-8.47933
計	-8.4803
天道	-8.48299
垂	-8.48318
傅	-8.48502
泄	-8.48575
陰陽	-8.48657
廼	-8.48762
燈	-8.48786
元始	-8.49635
不止	-8.49688
劉	-8.49807
唯唯	-8.49812
代	-8.49822
斯	-8.49956
甘	-8.49983
尸	-8.50001
碧	-8.50022
索	-8.50129
諸天	-8.5016
咽	-8.502
駕	-8.50443
考	-8.50497
杏仁	-8.50616
刀	-8.50733
移	-8.50797
卒	-8.50911
比	-8.50955
衆生	-8.50997
欺	-8.5147
田	-8.51499
淨	-8.51611
然後	-8.51738
誦	-8.51846
爭	-8.51918
回	-8.52161
胃	-8.52234
昏	-8.52288
朗	-8.52291
詩	-8.52332
銖	-8.52573
參	-8.52924
羽	-8.53207
寂	-8.53238
密	-8.53253
露	-8.53408
遺	-8.53687
榮	-8.5386
按	-8.53983
退	-8.54042
第三	-8.54078
紙	-8.54098
粉	-8.54147
寸	-8.5415
中央	-8.54594
累	-8.54637
諱	-8.54863
鳴	-8.54984
急急如律令	-8.55018
赴	-8.55174
雞	-8.55483
黄連	-8.5558
漢	-8.55593
財	-8.55737
爛	-8.56116
舊	-8.56149
父	-8.5626
昔	-8.56626
敢	-8.56765
四肢	-8.5684
之氣	-8.5712
籙	-8.57126
厚	-8.57222
竹	-8.5749
無有	-8.57514
太陽	-8.57544
鬼神	-8.57871
領	-8.57871
畏	-8.57967
亦可	-8.58322
穢	-8.58539
接	-8.58552
玉女	-8.58671
渴	-8.58785
覩	-8.59327
太極	-8.59432
謂之	-8.59581
寄	-8.59862
附	-8.59926
一名	-8.5996
停	-8.60216
伯	-8.60258
詳	-8.60324
耀	-8.60345
▲	-8.60471
飲食	-8.6067
輔	-8.60681
二十四	-8.60728
逐	-8.60917
宣	-8.60923
洪	-8.60943
濁	-8.60996
佳	-8.61074
腸	-8.61078
南方	-8.61184
活	-8.61212
護	-8.61272
曉	-8.61314
武	-8.61506
醉	-8.61544
吸	-8.61549
那	-8.61602
生死	-8.61604
賜	-8.6161
左右	-8.61741
寅	-8.61925
縣	-8.61951
麻黄	-8.62058
里	-8.62256
乞	-8.62273
之法	-8.62511
學道	-8.62653
東方	-8.62896
卯	-8.62969
竟	-8.6304
賊	-8.63164
漏	-8.63187
横	-8.6336
蓬萊	-8.63368
充	-8.63382
丁	-8.63501
幾	-8.636
延	-8.63637
産	-8.64133
吹	-8.64165
夫人	-8.64434
職	-8.64524
愼	-8.64527
聖人	-8.64529
灌	-8.64682
界	-8.64748
鎮	-8.64753
申	-8.64823
載	-8.6483
耶	-8.64902
半夏	-8.64911
輸	-8.65051
偏	-8.65158
邊	-8.65174
干	-8.65185
羊	-8.65334
友	-8.65361
樹	-8.65514
煩	-8.65646
穀	-8.65694
混	-8.65736
精神	-8.6574
蒸	-8.65838
小便	-8.65859
碎	-8.66188
嶽	-8.66213
彼	-8.66353
是故	-8.66432
斬	-8.66562
五帝	-8.66567
巽	-8.66588
去滓	-8.66597
人也	-8.66607
送	-8.6664
察	-8.66657
舍	-8.66677
麥門冬	-8.66832
手足	-8.6684
摩	-8.66886
之時	-8.66933
刑	-8.67051
金光	-8.67053
四時	-8.67089
危	-8.6735
縱	-8.67365
丘	-8.67375
姓	-8.67506
器	-8.67586
災	-8.68029
侍	-8.68047
吏	-8.68048
爾	-8.68251
貧	-8.68345
慶	-8.68427
敷	-8.6847
館	-8.68608
卷之	-8.69045
孔	-8.69087
三元	-8.69098
乾地黄	-8.69119
頓	-8.69254
曾	-8.69459
黃	-8.69586
名曰	-8.6965
毛	-8.69811
闕	-8.69876
差	-8.6995
池	-8.69979
五行	-8.7012
驅	-8.70139
唵	-8.70185
捉	-8.70196
忠	-8.70331
捨	-8.70429
濕	-8.70626
醋	-8.70708
三日	-8.70739
石膏	-8.70743
雙	-8.70761
般	-8.70761
釋	-8.70808
徧	-8.70953
愁	-8.70975
沸	-8.71015
决	-8.71054
鬱	-8.71096
負	-8.71199
棗	-8.71315
也夫	-8.71339
吞	-8.71508
習	-8.71599
十八	-8.718
趣	-8.71886
三光	-8.7212
小兒	-8.72233
鶴	-8.72264
群	-8.72311
知之	-8.72331
表	-8.72549
樓	-8.72564
御	-8.72709
殊	-8.72759
騰	-8.72893
追	-8.72925
野	-8.72993
披	-8.73003
各四	-8.73046
怨	-8.73098
推	-8.73124
惑	-8.7357
北方	-8.73592
江	-8.7375
談	-8.73841
四十	-8.73944
散治	-8.73954
膽	-8.74014
牙	-8.74146
緊	-8.74183
天地之	-8.74346
掌	-8.74521
這	-8.74621
儀	-8.74755
大棗	-8.74916
黄耆	-8.75284
芝	-8.7535
分明	-8.75711
十四	-8.75712
管	-8.75756
兼	-8.7581
不通	-8.75914
物外	-8.76
桃	-8.76004
驗	-8.76142
招	-8.76195
句	-8.76252
霄	-8.76266
改	-8.76296
也今	-8.76374
腰	-8.76379
上帝	-8.76523
蕩	-8.76543
緑	-8.76609
津	-8.76613
猪	-8.76779
膿	-8.76922
曜	-8.76994
顔	-8.77369
余	-8.77389
鼓	-8.77427
法師	-8.77484
蜀椒	-8.77713
痺	-8.778
旦	-8.77803
雜	-8.77914
妖	-8.78024
井	-8.78168
筆	-8.78206
孤	-8.78233
寒熱	-8.78284
太一	-8.78326
二兩	-8.78399
婦人	-8.78583
性命	-8.78719
折	-8.79073
祝	-8.79313
每服	-8.79322
傷寒	-8.79525
沙	-8.79536
元帥	-8.79705
麻	-8.7976
比若	-8.79875
透	-8.7989
三升	-8.80103
點	-8.80154
右出洞真	-8.80318
統	-8.80365
得之	-8.80584
震	-8.8059
天之	-8.80635
履	-8.80776
一日	-8.80827
因縁	-8.81004
莫不	-8.8102
豆	-8.81119
底	-8.81147
僞	-8.81159
胷	-8.81165
人間	-8.81195
打	-8.81488
泥	-8.81505
返	-8.81629
郎	-8.82005
輒	-8.8244
太清	-8.82575
吟	-8.82649
高上	-8.82694
枝	-8.82758
酸	-8.82835
帥	-8.82874
不復	-8.83003
七日	-8.83204
緩	-8.83261
印	-8.83312
嚴	-8.83346
短	-8.83518
衛	-8.83635
枯	-8.8365
搜	-8.83708
營	-8.83757
序	-8.83762
白芷	-8.84002
變化	-8.8418
悲	-8.84184
監	-8.84194
審	-8.84244
大小	-8.84395
不足	-8.84496
厥	-8.84526
遲	-8.84572
顧	-8.84616
美	-8.84623
宅	-8.84638
凡人	-8.84691
揚	-8.85004
男	-8.8512
沈	-8.85144
二升	-8.85192
燒香	-8.85257
歷	-8.854
讀	-8.85599
炙	-8.85687
役	-8.8571
蛇	-8.86259
慮	-8.86277
銀	-8.86319
五臟	-8.86512
五十	-8.86546
無所	-8.8661
吒	-8.86693
訖	-8.8675
浸	-8.86761
自在	-8.86763
逢	-8.87021
行道	-8.87112
液	-8.87143
策	-8.87316
行之	-8.88058
蒼	-8.8813
哀	-8.88225
詠	-8.88571
幸	-8.88664
汗出	-8.88901
丈人	-8.88927
膝	-8.89014
訪	-8.8909
暴	-8.89145
不用	-8.89481
怪	-8.89748
詞	-8.89971
溪	-8.89979
觸	-8.89998
第四	-8.90098
獄	-8.90266
之後	-8.90386
罡	-8.90452
籍	-8.90499
傾	-8.90508
跡	-8.90523
重陽	-8.90657
肯	-8.90811
五色	-8.9085
拔	-8.90869
十一	-8.90969
量	-8.91012
煮	-8.91272
瑩	-8.91324
霜	-8.91329
真君	-8.91353
懸	-8.91376
亥	-8.91405
刻	-8.91477
咎	-8.91488
胡	-8.91598
染	-8.91694
十五	-8.91709
奔	-8.91811
占	-8.91861
丹陽	-8.91921
五嶽	-8.92172
杖	-8.92255
予	-8.92334
巨	-8.92352
各五	-8.92413
也其	-8.9272
猛	-8.92775
冥	-8.92804
相應	-8.92806
採	-8.92807
内外	-8.92977
百日	-8.93019
響	-8.93207
厄	-8.9324
英	-8.93277
急急如	-8.93619
是也	-8.93624
設	-8.9381
也又云	-8.93857
佩	-8.93991
油	-8.94054
洞玄	-8.94151
一者	-8.94397
如是	-8.94443
之間	-8.94519
第十	-8.94555
恒	-8.94622
錦	-8.94668
爲善	-8.94739
滯	-8.94757
善惡	-8.94781
將軍	-8.94784
稍	-8.94889
座	-8.94924
童子	-8.95035
鹽	-8.95046
坎	-8.95083
旋	-8.95095
用之	-8.95107
滑	-8.95156
伐	-8.95159
省	-8.95474
得其	-8.95516
男女	-8.95575
壞	-8.95654
磨	-8.95656
韻	-8.95684
純	-8.95736
川	-8.95774
西方	-8.9586
心中	-8.96015
頂	-8.96068
療	-8.96168
兩手	-8.96433
脂	-8.96469
律	-8.96499
者是	-8.96508
律令	-8.96647
无極	-8.96659
越	-8.96708
有所	-8.96728
十六	-8.96736
抱	-8.96748
世間	-8.96812
不見	-8.97109
慢	-8.97184
趙	-8.97213
梁	-8.97267
自有	-8.97351
屎	-8.9747
瑞	-8.97497
其所	-8.97525
一點	-8.97748
升麻	-8.97882
灸法	-8.98048
原	-8.9819
爲人	-8.98192
務	-8.98309
電	-8.98356
傅之	-8.98427
獨活	-8.98611
梵	-8.9869
右二味	-8.98799
臟	-8.98838
術	-8.9905
於是	-8.99106
覓	-8.99126
飢	-8.99153
奇	-8.99158
三兩	-8.99169
天君	-8.99209
昧	-8.99213
者爲	-8.99252
漬	-8.99286
是以	-8.99331
拘	-8.99509
橘皮	-8.99514
側	-8.99635
認	-8.99673
昌	-8.99712
誡	-8.9976
治之	-8.99771
造化	-8.9992
眠	-9.0009
傍	-9.00148
不欲	-9.0015
瀉	-9.00216
昭	-9.00282
三十六	-9.00291
臍	-9.00365
各有	-9.0037
二者	-9.00494
彩	-9.00711
牢	-9.00738
尤	-9.00747
上皇	-9.00804
扶	-9.0096
多少	-9.01069
澄	-9.01076
單	-9.01193
龜	-9.01749
淵	-9.01753
影	-9.01778
厭	-9.01796
呪曰	-9.01957
癰	-9.02033
疼	-9.02101
道君	-9.02145
廉	-9.02147
炎	-9.02249
丑	-9.02266
冤	-9.02306
無極	-9.02368
蓮	-9.02558
貼	-9.02699
賤	-9.02834
第五	-9.02964
分三服	-9.03028
十日	-9.03059
陵	-9.03084
催	-9.03251
倒	-9.03316
酉	-9.03316
殃	-9.03347
畫	-9.03388
出家	-9.03458
道之	-9.0347
主之	-9.03484
霹靂	-9.03534
魄	-9.03555
桔梗	-9.03701
喘	-9.03773
欬	-9.03777
悅	-9.03885
咸	-9.03892
之以	-9.03907
五方	-9.04155
此方	-9.04286
之日	-9.04313
鏡	-9.04371
雄黄	-9.04397
崇	-9.04419
瘧	-9.04441
神靈	-9.04731
厚朴	-9.04773
腦	-9.04827
者皆	-9.04985
無常	-9.05087
各半	-9.05101
契	-9.05524
遷	-9.05537
萬里	-9.05553
孫	-9.05865
所謂	-9.06001
試	-9.06013
射	-9.06034
三寸	-9.06132
金闕	-9.06249
使人	-9.0631
暖	-9.06413
三月	-9.06491
戀	-9.06501
焚	-9.0654
略	-9.06545
案	-9.06565
出入	-9.0685
烏頭	-9.07007
盈	-9.07031
唱	-9.07097
包	-9.07099
筭	-9.07103
疏	-9.07109
京	-9.07401
爲其	-9.07407
責	-9.07518
剔	-9.07582
遭	-9.0765
常以	-9.07653
富	-9.07655
約	-9.07666
限	-9.07735
柱	-9.07748
分别	-9.07983
不及	-9.08026
潤	-9.08137
錯	-9.08162
暮	-9.08209
穿	-9.08222
遠志	-9.08242
政	-9.08334
清浄	-9.08424
圓治	-9.08541
緣	-9.08584
吴茱萸	-9.08597
校	-9.08633
項	-9.08674
者方	-9.08677
巾	-9.08719
特	-9.08727
日二	-9.08889
水火	-9.08947
不瘥	-9.08992
牛膝	-9.09211
古今	-9.09215
舞	-9.09215
雷霆	-9.09222
三者	-9.09225
以水	-9.09292
老君	-9.09305
酒服	-9.09595
老子	-9.0964
身中	-9.09759
殿	-9.09781
五味子	-9.09793
飯	-9.09801
宮	-9.09823
侯	-9.09854
弦	-9.09878
惠	-9.09925
廢	-9.09971
浄	-9.10138
洞天	-9.10196
翁	-9.10355
避	-9.10438
雄	-9.10459
桂	-9.10512
導	-9.10916
適	-9.11045
五升	-9.11083
便是	-9.11106
於此	-9.11344
今日	-9.11353
百壯	-9.11472
功德	-9.11497
擊	-9.11578
雞子	-9.11867
憑	-9.12065
胞	-9.12076
醮	-9.12095
鎖	-9.12114
屋	-9.12132
紀	-9.12225
病人	-9.12297
道人	-9.12298
無上	-9.12364
絳	-9.12521
淡	-9.12616
質	-9.12751
治小兒	-9.12751
獲	-9.12772
淺	-9.12797
無窮	-9.12867
身體	-9.12893
豉	-9.13069
歡	-9.131
絲	-9.13254
孫眞人備急千金要方卷之	-9.13296
唾	-9.13494
祥	-9.13643
尾	-9.13845
悔	-9.13863
纏	-9.13879
盟	-9.13951
柔	-9.14022
漿	-9.1403
肩	-9.14388
須臾	-9.14438
羣	-9.14552
治下篩	-9.14638
人人	-9.14664
虚空	-9.14679
嘔	-9.14696
一枚	-9.14791
鼎	-9.14913
劇	-9.1509
題	-9.15106
誤	-9.1516
三寳	-9.15367
悶	-9.15438
脹	-9.15479
竈	-9.15582
臭	-9.15582
左手	-9.15618
小腹	-9.15637
剛	-9.15641
游	-9.15669
是非	-9.15685
之炁	-9.15968
續	-9.16186
銅	-9.16242
振	-9.16261
希	-9.16263
郡	-9.1631
清凉	-9.16314
市	-9.16319
供養	-9.16346
智慧	-9.16426
熬	-9.16572
元君	-9.16586
格	-9.16673
减	-9.16686
也此	-9.16701
曹	-9.16782
而已	-9.16804
殘	-9.1681
蓬	-9.16827
戲	-9.1685
繫	-9.16908
髓	-9.17289
尿	-9.17347
肥	-9.17415
暉	-9.17421
戰	-9.17491
霧	-9.17714
心下	-9.17728
功成	-9.17815
若有	-9.1792
拆	-9.17946
三年	-9.17954
三皇	-9.18279
飽	-9.18607
兔	-9.1864
輿	-9.18642
柳	-9.18655
萬神	-9.18676
誓	-9.18715
兮	-9.19061
頻	-9.19234
眉	-9.19245
舟	-9.19299
潔	-9.19331
生地黄	-9.19469
之事	-9.19476
爲度	-9.19676
往來	-9.19779
燥	-9.19904
萬劫	-9.19912
隔	-9.19933
徑	-9.19939
五雷	-9.19954
片	-9.19966
困	-9.19969
典	-9.1998
口中	-9.20054
姜	-9.20122
其中	-9.20126
三天	-9.20217
元氣	-9.20283
者則	-9.20362
時時	-9.20439
峰	-9.20502
添	-9.20517
冰	-9.2054
如何	-9.2054
清靜	-9.20594
珍	-9.20612
可得	-9.20671
其上	-9.20788
也若	-9.20905
奪	-9.21152
姑	-9.21191
頌	-9.21209
氏	-9.21232
太玄	-9.21398
者以	-9.21455
焦	-9.21495
者乃	-9.215
心痛	-9.21765
弄	-9.2181
玉皇	-9.21821
三洞	-9.21846
綱	-9.21847
一服	-9.21986
一人	-9.22054
上元	-9.22303
戌	-9.22414
報應	-9.22897
之上	-9.22939
毫	-9.2305
縛	-9.23094
盤	-9.23096
乾坤	-9.2313
前後	-9.23202
第七	-9.2325
玉帝	-9.23437
而生	-9.23477
一寸	-9.23599
功行	-9.23668
道友	-9.23758
上昇	-9.2378
呵	-9.23782
一作	-9.23806
四方	-9.23896
怎	-9.23992
書符	-9.24072
祈	-9.24267
人之	-9.24276
握	-9.24298
繞	-9.24383
乗	-9.2443
你	-9.24459
㝠	-9.24465
朱書	-9.24509
急急	-9.24661
有餘	-9.2471
伴	-9.24872
雷神	-9.24889
淋	-9.24923
金丹	-9.2494
取汁	-9.25046
丹田	-9.25216
不肯	-9.25272
才	-9.25339
食之	-9.25402
頭痛	-9.25457
知其	-9.25485
億	-9.25603
祟	-9.25624
牽	-9.2564
勢	-9.25672
鍾	-9.25687
此文	-9.25705
工	-9.25722
禄	-9.25778
第六	-9.25795
蜜和	-9.25974
防	-9.26182
支	-9.26223
繩	-9.26229
恣	-9.26306
軒	-9.26317
菴	-9.26321
軀	-9.26328
浪	-9.26337
貌	-9.26343
喪	-9.26408
此爲	-9.26785
囊	-9.26919
不同	-9.26927
膈	-9.2693
膠	-9.26945
菜	-9.26965
者死	-9.2706
疼痛	-9.27065
五藏	-9.27155
上氣	-9.27462
枳實	-9.27507
蘇	-9.27513
桑	-9.27574
恭	-9.27668
啼	-9.27687
睡	-9.2769
禀	-9.2769
卿	-9.2773
迹	-9.2775
晝夜	-9.27757
以此	-9.27783
講	-9.278
飛仙	-9.27828
三五	-9.27928
○	-9.28152
浴	-9.28204
綿	-9.28259
誅	-9.28262
不死	-9.28271
巖	-9.28415
詣	-9.2849
携	-9.28562
當以	-9.2857
兩半	-9.2864
太空	-9.28735
腹痛	-9.28768
龍骨	-9.28817
日再	-9.28877
快	-9.28894
癢	-9.28902
之精	-9.28902
墨	-9.28933
病者	-9.29023
爽	-9.29033
渾	-9.29033
彌	-9.29045
賞	-9.29052
髙	-9.29101
慈悲	-9.29155
不須	-9.29369
即是	-9.29385
人民	-9.29399
攪	-9.2959
勿令	-9.29606
消息	-9.29622
玄都	-9.29755
激	-9.29773
燭	-9.29784
或有	-9.30003
大聖	-9.30177
右出	-9.30235
茶	-9.3032
西北	-9.30392
惜	-9.30424
提	-9.30444
東南	-9.30481
祐	-9.30536
竒	-9.30546
道者	-9.30628
仙人	-9.30876
貫	-9.31061
嬰	-9.31063
翠	-9.31066
茅	-9.31079
忍	-9.31084
潜	-9.31085
天帝	-9.31095
團	-9.31127
臂	-9.31131
暫	-9.31137
亭	-9.31147
庶	-9.31161
子孫	-9.3131
阿膠	-9.31687
脊	-9.31724
六十	-9.31845
賢者	-9.31869
六甲	-9.32066
水中	-9.32223
不動	-9.32268
服藥	-9.3228
罪學士及百姓子	-9.32285
麥	-9.32333
軍	-9.32354
溺	-9.32467
淫	-9.32481
委	-9.32506
秘	-9.32511
十三	-9.3254
北斗	-9.32552
慕	-9.32556
妻	-9.32606
資	-9.32636
像	-9.32667
丈	-9.32972
裹	-9.3308
述	-9.33128
痰	-9.33131
不生	-9.33235
飄	-9.33235
騎	-9.33261
麻子	-9.33359
洞真	-9.33382
雲水	-9.33411
不失	-9.3357
中風	-9.33657
一方	-9.33665
清淨	-9.33675
疰	-9.33858
掃	-9.33864
坤	-9.33895
網	-9.33907
圍	-9.33908
給	-9.33967
請問	-9.33972
稽首	-9.34005
議	-9.34046
嘉	-9.34212
男子	-9.34395
凉	-9.34489
是爲	-9.34516
院	-9.34521
皇天	-9.34583
屈	-9.34653
焕	-9.34676
短氣	-9.34763
富貴	-9.34791
際	-9.34844
私	-9.34881
北帝	-9.34922
摧	-9.35302
墮	-9.35316
繒	-9.35343
巧	-9.35414
檢	-9.35462
七十	-9.35583
各十	-9.35625
地黄	-9.35685
而無	-9.35824
痔	-9.35972
不解	-9.36028
瓦	-9.36047
預	-9.36139
神明	-9.36148
倍	-9.36169
慾	-9.36231
輝	-9.36263
面目	-9.36324
天門	-9.36392
核	-9.36627
纔	-9.36784
測	-9.36808
鸞	-9.36824
赫	-9.3683
屍	-9.3683
與天	-9.36852
鳥	-9.36892
儒	-9.36893
階	-9.36896
歩	-9.36905
毁	-9.36944
大豆	-9.3701
弟	-9.37137
答曰	-9.37369
真道	-9.37457
粥	-9.37486
巴豆	-9.37494
柴胡	-9.37506
者當	-9.37527
魁	-9.3753
八景	-9.37614
竭	-9.37623
育	-9.3763
鑪	-9.37631
貞	-9.37642
大將	-9.37714
嘗	-9.3831
侵	-9.38338
地上	-9.38416
弗	-9.38436
五合	-9.38484
忠孝	-9.38536
胸	-9.38563
歸去	-9.38663
人有	-9.3872
之士	-9.38777
長春	-9.38787
右符	-9.38952
此藥	-9.3896
掐	-9.39006
焰	-9.39052
愆	-9.39085
競	-9.39094
罰	-9.39116
辯	-9.392
三千	-9.39233
手執	-9.39261
姦	-9.39261
飛行	-9.39443
更相	-9.39455
字起	-9.39504
崑崙	-9.39705
秦	-9.39829
攻	-9.3985
煉	-9.39873
宜服	-9.40124
君子	-9.40351
於天	-9.40377
大便	-9.40448
至於	-9.4045
地獄	-9.40463
鼠	-9.40477
本來	-9.40511
泰	-9.40522
幻	-9.40529
陸	-9.40584
削	-9.40594
而爲	-9.40641
宇	-9.40658
礬石	-9.40687
雷火	-9.4073
陷	-9.4087
爲惡	-9.40907
飲之	-9.40993
答	-9.41057
千金翼	-9.41238
善人	-9.41244
艾	-9.41275
上天	-9.4128
麝香	-9.41304
恁	-9.41361
熏	-9.41365
化爲	-9.41428
席	-9.41435
陽氣	-9.41497
之内	-9.41506
弘	-9.41509
脇	-9.41687
司命	-9.41775
人所	-9.41866
轟	-9.4202
學者	-9.42042
後生	-9.42109
逃	-9.42125
摇	-9.42138
本類	-9.42152
默	-9.42164
所致	-9.42168
詔	-9.42181
懈	-9.42279
正一	-9.4234
有三	-9.42342
白雲	-9.42398
其身	-9.42455
劑	-9.42505
死生	-9.42589
清風	-9.42589
餘方	-9.42606
者也	-9.42645
酢	-9.42757
無形	-9.42769
九玄	-9.42776
无上	-9.42798
三清	-9.42852
拂	-9.42872
餐	-9.42896
鹿	-9.42904
的	-9.42933
徐	-9.42957
欣	-9.42967
百病	-9.42968
頑	-9.43004
雷公	-9.43102
再拜	-9.43176
吉凶	-9.43192
芒	-9.43283
上有	-9.43342
莖	-9.43605
又有	-9.43606
净	-9.43606
毋	-9.43727
愚生	-9.43738
换	-9.43755
泥丸	-9.43841
五日	-9.43865
八十	-9.43875
又灸	-9.43888
棲	-9.439
輩	-9.43917
痢	-9.4404
奉行	-9.44104
桃仁	-9.44425
宴	-9.44478
淨明	-9.44515
散見	-9.44517
三官	-9.44522
史	-9.44561
障	-9.44613
玄妙	-9.44745
天中	-9.44776
第八	-9.44779
胷中	-9.44892
亦有	-9.45062
化生	-9.45152
道學不得	-9.45205
瑶	-9.45222
葛	-9.45234
五老	-9.45248
而行	-9.45345
癡	-9.45391
無名者	-9.45402
右三味	-9.45439
一時	-9.45478
心意	-9.45718
九轉	-9.46002
苗	-9.46029
澤瀉	-9.46043
浩	-9.46056
竹葉	-9.46078
願聞	-9.46116
虧	-9.46142
宻	-9.46153
權	-9.46167
沖和	-9.46224
癰疽	-9.46285
聖賢	-9.46298
守一	-9.46374
復有	-9.46388
疽	-9.46621
腑	-9.4663
百年	-9.46637
明月	-9.46667
穩	-9.46721
膀胱	-9.46799
翻	-9.46827
鉛	-9.46866
凡事	-9.46891
究	-9.47027
别有	-9.47395
中和	-9.47429
翼	-9.47685
夷	-9.47703
束	-9.47711
阿	-9.47741
餌	-9.4776
芳	-9.47773
辟	-9.47774
顛倒	-9.47777
康	-9.4778
混沌	-9.47795
本命	-9.47914
辱	-9.47938
塗之	-9.48049
猿	-9.48115
了了	-9.48151
諸神	-9.48253
日日	-9.48504
納	-9.48508
闡	-9.48535
寬	-9.48539
刀圭	-9.48599
寫	-9.4862
否	-9.4875
度人	-9.48872
爲之	-9.48946
烈	-9.49024
唎	-9.49297
蘆	-9.49301
雷電	-9.49338
仲	-9.4935
循	-9.49363
罷	-9.49402
促	-9.49407
話	-9.49407
割	-9.49415
婆	-9.49437
㫖	-9.49443
燕	-9.49449
丹砂	-9.49494
一斗	-9.49801
亦不	-9.49989
無量	-9.49993
絡	-9.50069
神王	-9.50123
菖蒲	-9.50158
局	-9.5019
黄帝	-9.50213
一斤	-9.50241
禪	-9.50264
遥	-9.5028
環	-9.503
彰	-9.50319
況	-9.50325
演	-9.50351
粒	-9.50401
喉	-9.50511
何故	-9.50519
也又	-9.50558
上真	-9.50715
紫微	-9.50734
行持	-9.50783
不出	-9.50866
栀子	-9.50879
砂	-9.50901
也凡	-9.50956
誇	-9.51023
枕	-9.51084
者可	-9.51095
繼	-9.51103
七壯	-9.51179
天心	-9.51641
則爲	-9.51658
小腸	-9.51662
右四味	-9.51675
所言	-9.51743
清虚	-9.51752
長安	-9.51755
古者	-9.51901
呈	-9.51911
籠	-9.51912
倦	-9.51933
憐	-9.51957
夕	-9.51958
崩	-9.51981
吴	-9.51987
問曰	-9.52003
各六	-9.5243
神人	-9.52513
葱	-9.5255
元初	-9.52679
石斛	-9.52731
日中	-9.52731
不過	-9.52754
嬰兒	-9.52766
不安	-9.52792
岸	-9.52809
垢	-9.52831
四者	-9.52838
融	-9.52878
文書	-9.52887
平旦	-9.52917
七寳	-9.52955
少陽	-9.53342
瓜	-9.53592
陶	-9.53643
獸	-9.53669
也子	-9.53675
壁	-9.5381
一身	-9.53887
九十	-9.54024
萬事	-9.54078
七祖	-9.54176
赤書	-9.54227
我身	-9.5423
修眞	-9.54243
方便	-9.54246
皆有	-9.54377
也是	-9.54393
栝蔞根	-9.54498
鮮	-9.54556
簿	-9.54588
隆	-9.54673
於人	-9.54696
日夜	-9.54729
何以	-9.54745
腹滿	-9.54877
爲天	-9.55149
女人	-9.55188
號曰	-9.55252
恍惚	-9.55398
効	-9.55405
乙	-9.55413
段	-9.5544
葛根	-9.55442
壘	-9.55528
酆都	-9.55688
全眞	-9.55832
可謂	-9.55851
靈寶	-9.55888
嚥	-9.55911
天雄	-9.55917
太微	-9.56003
論曰	-9.56119
人身	-9.5612
不絶	-9.56144
裙	-9.56196
憎	-9.56262
郭	-9.56319
整	-9.56364
掩	-9.56373
荒	-9.56375
帛	-9.56383
是其	-9.56579
風雨	-9.56583
南極	-9.56629
以水一斗	-9.56639
神氣	-9.56745
脣	-9.571
俠	-9.57171
排	-9.57189
殻	-9.5719
劒	-9.57249
琴	-9.5725
例	-9.57266
園	-9.57272
虚無	-9.5728
商	-9.57297
夭	-9.57298
暢	-9.57325
自知	-9.5738
入室	-9.57524
煑取三升分三服	-9.57613
不下	-9.57729
二錢	-9.57777
之則	-9.57784
門户	-9.57791
何所	-9.57833
穴在	-9.57849
祖師	-9.57865
癇	-9.5797
濃	-9.58062
使其	-9.58077
燒灰	-9.58116
袍	-9.58132
仗	-9.58138
蕭	-9.58153
判	-9.58168
歎	-9.58174
崖	-9.58178
彊	-9.58225
表裏	-9.58247
二首	-9.58341
善者	-9.58389
千里	-9.58491
三十二	-9.58518
中黄	-9.58555
上古	-9.58572
不信	-9.58909
一百	-9.58913
天文	-9.58926
硭硝	-9.58946
雅	-9.5901
缺	-9.59042
填	-9.5905
唤	-9.59061
一合	-9.59088
減	-9.59093
豐	-9.59106
右手	-9.59113
脩	-9.59138
右出洞玄	-9.59206
可知	-9.59342
何以故	-9.5952
十七	-9.59584
發熱	-9.59631
芽	-9.59663
太隂	-9.59679
知母	-9.59796
無復	-9.59866
牡蠣	-9.59875
即愈	-9.59893
酥	-9.59959
其意	-9.59963
擒	-9.59967
經曰	-9.5998
謾	-9.59981
閣	-9.60003
之神	-9.60013
尖	-9.6003
沐浴	-9.6003
若能	-9.60065
谿	-9.60068
下降	-9.60272
世界	-9.60289
二寸	-9.60293
入符	-9.60429
德君	-9.60459
者即	-9.60474
叩齒	-9.60848
匀	-9.60872
踏	-9.60905
馳	-9.60921
嗔	-9.6095
恬	-9.60974
靖	-9.60976
淪	-9.6102
葱白	-9.61046
忿	-9.61076
季	-9.61162
仙官	-9.61168
吽	-9.61172
金剛	-9.61207
治病	-9.61225
天下之	-9.61392
草木	-9.61487
麴	-9.61696
赤石脂	-9.61732
讚	-9.61748
九年	-9.61753
霍亂	-9.61797
絹	-9.61813
粗	-9.6183
攀	-9.61846
廟	-9.61849
丹陽繼韻	-9.61867
栢	-9.61867
晝	-9.61868
禱	-9.61881
恨	-9.61892
爲使	-9.61912
失其	-9.61931
無不	-9.61944
逸	-9.6195
自是	-9.62107
飲酒	-9.62268
教化	-9.6232
東華	-9.62454
十九	-9.62603
甲子	-9.62636
有一	-9.62701
卦	-9.62723
楊	-9.6276
澀	-9.62761
白歛	-9.62764
乏	-9.62768
蜀	-9.62814
着	-9.62817
无上祕要卷之	-9.62818
湧	-9.62828
灑	-9.6285
惱	-9.62879
前胡	-9.62957
未能	-9.63186
天皇	-9.63204
通靈	-9.6332
礙	-9.63394
愼之	-9.63591
天罡	-9.63609
度世	-9.63628
竅	-9.63631
些	-9.63706
防己	-9.63734
攣	-9.63743
椎	-9.63756
式	-9.63829
不仁	-9.63906
不相	-9.63972
以酒	-9.63977
混合	-9.64197
空心	-9.64238
東北	-9.64251
吾書	-9.64296
靈明	-9.64319
口口	-9.64325
八方	-9.64517
猪脂	-9.6463
鍾乳	-9.64631
生於	-9.64668
蠟	-9.64693
蟾	-9.64707
跨	-9.64714
盜	-9.64741
縮	-9.64747
嘆	-9.64768
額	-9.64773
舒	-9.64777
佐	-9.64778
託	-9.64797
大羅	-9.64816
斧	-9.64821
積聚	-9.6493
入道	-9.64984
金蓮	-9.65128
洞神	-9.65183
浮華	-9.65255
也天	-9.65352
一曰	-9.65627
汞	-9.65676
雷局	-9.65723
囚	-9.6574
潰	-9.65753
翳	-9.65757
烹	-9.65763
一炁	-9.65784
山侗	-9.65788
憶	-9.65788
彭	-9.65801
者亦	-9.65865
疝	-9.65868
晋	-9.65875
一丸	-9.65897
寥	-9.65982
魂魄	-9.65988
爐	-9.66124
將來	-9.66174
已上	-9.66216
具足	-9.66306
炁入	-9.66412
病在	-9.66442
拭	-9.66591
仙公	-9.66594
治産後	-9.66596
姓名	-9.66622
杜	-9.66643
剋	-9.66667
彈	-9.66688
謁	-9.66689
蹤	-9.66721
世人	-9.66727
大洞	-9.66776
叔	-9.66778
炭	-9.66779
祭	-9.66844
爲道	-9.66854
基	-9.66865
右五味	-9.67058
北極	-9.67135
賢聖	-9.67376
無可	-9.67433
眩	-9.67485
火急	-9.67541
愚人	-9.67603
其脉	-9.67636
屑	-9.6764
秦芁	-9.67669
畜	-9.67691
肘後	-9.67701
戊	-9.67726
痿	-9.67731
捧	-9.67773
齎	-9.67808
孰	-9.67814
故能	-9.67854
爲一	-9.67927
故天	-9.67928
般般	-9.67937
此法	-9.6795
晴	-9.68259
者有	-9.68367
無毒	-9.68554
犀角	-9.6865
靈官	-9.68702
犬	-9.68724
歇	-9.68726
倚	-9.68729
淳	-9.68744
兹	-9.68847
丹參	-9.68899
取三升	-9.68912
匿	-9.68938
太素	-9.69003
如前	-9.69044
故云	-9.69311
肘	-9.69526
滓	-9.69556
杜仲	-9.69604
狗	-9.69612
搯	-9.69617
心腹	-9.69648
顛	-9.69666
攢	-9.69691
膿血	-9.69734
蝕	-9.69735
伸	-9.69736
輪迴	-9.69833
諫	-9.69864
謙	-9.69885
承負	-9.69897
飛天	-9.70062
龍虎	-9.70169
肌	-9.7017
六銖	-9.70234
治妊娠	-9.70265
東向	-9.70274
盞	-9.70318
頓服	-9.70366
各等	-9.70475
去皮	-9.7056
大腸	-9.70663
喫	-9.70754
空洞	-9.7076
豁	-9.70773
荆	-9.70781
牒	-9.7079
邪氣	-9.70797
埋	-9.70808
苦參	-9.70883
訓	-9.7093
篆	-9.7094
爲子	-9.71328
而成	-9.71485
熨	-9.71617
紫菀	-9.71666
血脉	-9.71698
太虚	-9.71706
程	-9.71716
烟	-9.7173
去滓内	-9.71735
醒	-9.71759
疫	-9.71817
毎	-9.71817
冒	-9.71832
宋朝	-9.71844
率	-9.71849
邀	-9.71851
宰	-9.71858
疾病	-9.71866
罔	-9.71878
少卿	-9.71907
軟	-9.71916
師父	-9.71919
校正	-9.71962
玉京	-9.72049
朝元	-9.72063
第九	-9.72072
之文	-9.72125
青龍	-9.72148
愁苦	-9.72175
又方取	-9.72232
温服	-9.72234
修持	-9.72281
樞	-9.72394
善哉善哉	-9.72449
亦得	-9.72488
薯蕷	-9.72673
靈光	-9.72762
暑	-9.72773
赤白	-9.72801
川芎	-9.72828
不利	-9.72896
癸	-9.72896
懼	-9.72925
五星	-9.72942
饑	-9.72954
之屬	-9.72966
者加	-9.72976
乖	-9.72978
十年	-9.72988
不成	-9.72996
廬	-9.72996
偶	-9.73007
而反	-9.73013
死者	-9.73015
三田	-9.73026
也然	-9.73052
三四	-9.73054
至道	-9.73068
爲末以	-9.73179
杳	-9.73308
七星	-9.73371
守太	-9.73506
云何	-9.73576
殺人	-9.73652
四兩	-9.73807
歘火	-9.73819
蒜	-9.7384
長存	-9.7388
希夷	-9.73895
沫	-9.73898
庚	-9.73913
濛	-9.73916
乍	-9.73919
掛	-9.73926
獻	-9.73938
天人	-9.73942
林億	-9.7395
滋	-9.73952
副	-9.73954
宋	-9.73976
冠衣	-9.74085
空腹	-9.74225
若不	-9.74368
壺	-9.74431
生瘡	-9.74525
金玉	-9.74652
小人	-9.74686
茯神	-9.74803
瘦	-9.74905
骸	-9.74934
結成	-9.74984
山茱萸	-9.75019
朔	-9.75027
劍	-9.75031
遵	-9.75037
享	-9.75047
編	-9.7505
噫	-9.75054
墜	-9.7506
係	-9.75063
蘂	-9.75066
九日	-9.75071
屏	-9.75073
真文	-9.75092
場	-9.75132
此是	-9.75332
以傳	-9.75448
斷絶	-9.75792
静	-9.7592
鼻中	-9.75923
槐	-9.75998
四海	-9.76001
森	-9.76005
赤小豆	-9.7604
捷	-9.76084
眀	-9.76146
途	-9.76163
皂	-9.76191
不調	-9.76237
中元	-9.76342
榮華	-9.76387
爲大	-9.76397
誦經	-9.76513
者從	-9.76663
玉晨	-9.76901
完	-9.77055
椒	-9.77065
下古	-9.7714
艮	-9.77176
莊	-9.77179
翫	-9.77186
蘭	-9.7719
聾	-9.77194
朽	-9.77217
橋	-9.77236
裂	-9.77252
三百	-9.77259
血氣	-9.77279
署	-9.77312
元始天尊	-9.77421
次念	-9.77431
皆是	-9.77469
一箇	-9.77497
西南	-9.77502
故曰	-9.77536
以自	-9.776
延年	-9.77672
之謂	-9.77694
後世	-9.77722
生滅	-9.77806
白虎	-9.77978
而死	-9.7798
太眞	-9.7817
續斷	-9.78298
濇	-9.78319
苟	-9.78385
上士	-9.78415
九色	-9.78451
五寸	-9.78482
下元	-9.78504
三分	-9.78604
地下	-9.78616
過去	-9.78747
不爲	-9.78751
修鍊	-9.78926
相隨	-9.79007
調和	-9.7914
社	-9.79286
漆	-9.79327
慎	-9.79377
涎	-9.79395
搗	-9.79414
兄	-9.79414
徳	-9.79441
塊	-9.79459
六畜	-9.79475
洒	-9.79478
唐	-9.79494
怠	-9.79538
四時五行	-9.7956
害風	-9.79631
起於	-9.79741
相傳	-9.79752
相去	-9.79758
兆身	-9.79774
針灸	-9.79891
薑	-9.79939
不盡	-9.79966
六合	-9.80072
名利	-9.80094
通草	-9.80208
下血	-9.803
釜	-9.80402
二七	-9.80523
擲	-9.80537
嗽	-9.80541
鐘	-9.80562
雲霞	-9.80564
荷	-9.80602
煩惱	-9.80616
擇	-9.80625
瞻	-9.80629
逮	-9.80642
供	-9.80651
一尺	-9.80687
乆	-9.80688
前程	-9.80695
不覺	-9.80717
右爲末	-9.80736
清閑	-9.80779
亦治	-9.8078
半兩	-9.80822
五六	-9.8086
不樂	-9.81174
一宿	-9.81188
也是故	-9.81295
煑取一升	-9.81448
四升	-9.81481
麫	-9.81549
瀝	-9.81598
少氣	-9.81619
四大	-9.81664
妨	-9.8168
晃	-9.81688
日用	-9.8169
抵	-9.81698
蔽	-9.81799
神丹	-9.81833
明師	-9.81932
故也	-9.82127
灸之	-9.82144
天丁	-9.8216
言之	-9.82215
天王	-9.82333
各自	-9.82485
之下	-9.82539
蠶	-9.82666
戴	-9.82766
甲乙	-9.82831
□	-9.82843
醜	-9.8287
溢	-9.82916
鋪	-9.8292
尅	-9.82941
庵	-9.82943
僻	-9.82951
劔	-9.8296
溟	-9.82967
辨	-9.82971
勉	-9.83043
緫	-9.83062
加至	-9.8307
符命	-9.83156
人情	-9.83444
失之	-9.83451
丸如梧子大	-9.83543
即止	-9.83658
神光	-9.83659
天眞	-9.83836
皂莢	-9.83884
平等	-9.83926
頃	-9.83948
皓	-9.83958
五者	-9.8399
欲得	-9.83999
蒲黄	-9.84003
▲▲	-9.8401
軿	-9.8401
誥	-9.84028
橫	-9.84031
一錢	-9.84035
鞭	-9.84043
凌	-9.84071
維	-9.84075
糞	-9.84077
繁	-9.84085
其道	-9.8409
奥	-9.84092
枉	-9.84119
闇	-9.84134
三教	-9.84168
衆聖	-9.84208
上仙	-9.84249
疾速	-9.84318
百姓	-9.84386
行事	-9.84419
酒服方寸七日三	-9.84428
九月	-9.8455
婦	-9.84631
東西	-9.8486
而得	-9.84876
十丸	-9.84921
綿裹	-9.84978
何處	-9.85025
二十七	-9.85033
不自	-9.8507
主人	-9.85099
沖	-9.85144
旱	-9.85183
合和	-9.85191
丙	-9.85206
兌	-9.85219
旬	-9.85257
一月	-9.85264
亦無	-9.85271
也但	-9.85289
琅	-9.85292
借	-9.85317
釣	-9.85351
盜賊	-9.85371
細細	-9.85385
嗣	-9.85388
可用	-9.85562
無漏	-9.85645
身心	-9.85835
一年	-9.85858
其次	-9.85899
苦海	-9.86047
台	-9.86141
與人	-9.86148
一事	-9.86231
癲	-9.86243
王者	-9.86384
先生曰	-9.86393
鷄	-9.86405
見其	-9.86421
班	-9.86431
無名	-9.86435
勿食	-9.86446
據	-9.8649
薦	-9.86504
太乙	-9.86522
腰痛	-9.86636
無憂	-9.86649
喻	-9.86659
二斗	-9.86752
之術	-9.86825
君所居	-9.86868
其治	-9.86971
與天地	-9.86991
真王	-9.87026
北向	-9.87085
大乘	-9.87183
不治	-9.87335
八銖	-9.87343
㕮咀	-9.87348
俗人	-9.87456
不如	-9.87522
法海遺珠卷之	-9.87545
餅	-9.87553
村	-9.87599
街	-9.87609
此經	-9.87624
來往	-9.87678
俯	-9.8768
準	-9.87696
惡人	-9.87697
髻	-9.87714
域	-9.87734
鹹	-9.8774
圓明	-9.87751
牀	-9.8776
三氣	-9.87801
)○(	-9.87811
臍下	-9.87981
虚實	-9.88044
西山	-9.88051
治婦人	-9.8808
九宫	-9.88139
成就	-9.8815
下利	-9.8815
人自	-9.88237
故使	-9.88523
馬風	-9.88629
所居	-9.88715
思之	-9.88751
五十壯	-9.88849
天門冬	-9.88849
番	-9.88868
展	-9.8887
酬	-9.88882
窗	-9.88921
頰	-9.88928
躍	-9.88944
魏	-9.89
不識	-9.89028
不祥	-9.89067
豫	-9.89092
上宫	-9.89218
空中	-9.89222
十月	-9.8923
少許	-9.89313
土皇	-9.89485
尊神	-9.89642
㕮咀以水	-9.89874
相得	-9.89912
瘡上	-9.89981
太平經	-9.90031
善哉	-9.90046
煥	-9.90047
雀	-9.90074
岀	-9.90096
脱	-9.90101
衡	-9.90109
惺惺	-9.90124
練	-9.9013
健	-9.90141
寢	-9.90141
卜	-9.902
纖	-9.90206
鋒	-9.90213
剉	-9.9022
配	-9.90226
竊	-9.90227
謀	-9.90231
壬	-9.90238
值	-9.90252
選	-9.90254
晶	-9.90295
嘔吐	-9.90314
賢明	-9.90355
等分	-9.90379
祝曰	-9.90511
用藥	-9.90527
八月	-9.90629
大帝	-9.90653
久久	-9.9069
元陽	-9.9103
如法	-9.91114
水銀	-9.91125
次灸	-9.91127
人心	-9.91127
六升	-9.91128
天堂	-9.91186
吾奉	-9.91189
羸	-9.91247
兇	-9.91311
馘	-9.91317
截	-9.91335
方見	-9.91358
松脂	-9.91361
旗	-9.91372
洩	-9.91395
㑹	-9.91432
玲瓏	-9.91437
船	-9.91439
不順	-9.91458
恃	-9.91464
蛻	-9.91467
有功	-9.91488
之言	-9.91511
法門	-9.91637
顔色	-9.91644
種種	-9.91743
中間	-9.91759
得仙	-9.91771
乳香	-9.9179
又方燒	-9.9194
者必	-9.92174
土地	-9.92183
凡有	-9.9223
一粒	-9.92331
行此	-9.92394
其事	-9.92397
娑訶	-9.9253
赤帝	-9.92537
澤蘭	-9.92539
脛	-9.92557
肚	-9.92585
菟絲子	-9.92587
藜蘆	-9.92591
曝乾	-9.92622
耐	-9.92637
無生	-9.92653
唇	-9.9266
擁	-9.92665
晚	-9.92675
綿綿	-9.9271
劣	-9.92731
謫	-9.92754
麤	-9.92759
右出洞眞	-9.9279
皆當	-9.92797
博	-9.9281
寸口	-9.92811
言語	-9.92872
六丁	-9.92895
太上道君	-9.92911
三部	-9.92977
明堂	-9.93021
无量	-9.93043
熱病	-9.93149
不孝	-9.93281
方寸七	-9.93358
正月	-9.93458
太陰	-9.93469
下部	-9.93608
按之	-9.93675
邪精	-9.93713
真炁	-9.93776
何有	-9.93845
無益	-9.9385
嚼	-9.93863
腹脹	-9.93884
腕	-9.93893
鼈甲	-9.9391
猪膏	-9.93955
雌	-9.93961
狐	-9.93964
蟠	-9.93976
祕閣校理	-9.93986
稀	-9.93991
炷	-9.94
袋	-9.9401
爲丸	-9.94026
殷	-9.94056
嗟	-9.94064
僧	-9.941
遐	-9.94103
社令	-9.94114
妃	-9.94115
旣	-9.94124
法服	-9.94163
何也	-9.94176
精氣	-9.94383
肌肉	-9.94399
下痢	-9.94431
天氣	-9.94531
以成	-9.94544
發汗	-9.94635
所生	-9.94866
次第	-9.94868
方右用	-9.94952
三塗	-9.9498
三合	-9.95129
咒	-9.95133
隨年壯	-9.95164
葶藶	-9.95208
默默	-9.95241
拈	-9.95286
到處	-9.95288
焙	-9.95291
箭	-9.9533
疊	-9.95332
嶺	-9.95369
旨	-9.95375
所行	-9.95384
勃	-9.95387
郞	-9.95403
無毒主	-9.95487
人皆	-9.9549
湯下	-9.95521
方取	-9.95539
吐血	-9.9568
者此	-9.95701
又以	-9.95712
從來	-9.95724
不明	-9.95742
頭上	-9.9578
之本	-9.95826
役使	-9.95839
此人	-9.95903
玉字	-9.95954
又曰	-9.96087
頭面	-9.96143
二十五	-9.96167
天有	-9.96329
至眞	-9.96418
𥿄	-9.96539
併	-9.96587
坑	-9.96594
國家	-9.96621
圓成	-9.9663
三十日	-9.96656
撥	-9.9666
欽	-9.96671
喝	-9.96674
天意	-9.96683
湯治産後	-9.96687
虹	-9.96731
侣	-9.96737
仕	-9.96737
標	-9.96737
開悟	-9.96744
不食	-9.96753
卑	-9.96764
一二	-9.96765
漸漸	-9.96811
相生	-9.96814
女子	-9.9682
讓	-9.96852
水雲	-9.96987
陷中	-9.97101
諸藥	-9.97107
無事	-9.97142
終日	-9.97202
萬物之	-9.9721
右二十	-9.97238
三焦	-9.9728
不犯	-9.97308
得見	-9.97417
清齋	-9.97521
右用	-9.97562
人生	-9.97622
苦酒	-9.97627
胎仙	-9.97656
自得	-9.97735
精進	-9.97812
魁罡	-9.97932
蓬島	-9.97935
倉	-9.97938
頤	-9.97963
霸	-9.9798
梅	-9.97989
鬢	-9.98002
叉	-9.98013
踈	-9.98015
勒	-9.98029
恚	-9.98054
戸	-9.98056
范	-9.98063
巢	-9.98066
功滿	-9.98122
澄清	-9.98129
肅	-9.9813
鬥	-9.98141
内音	-9.98152
篤	-9.98154
飾	-9.98219
不能自	-9.98263
所爲	-9.98272
科曰凡	-9.98352
諸公	-9.98525
煙霞	-9.98656
先以	-9.98668
味甘	-9.98728
皆以	-9.98793
六月	-9.98827
衣食	-9.98857
四分	-9.98929
神霄	-9.98935
萬靈	-9.99128
天神	-9.99138
不離	-9.99141
大法	-9.99168
其心	-9.99217
争	-9.99268
之家	-9.99271
嘯	-9.99296
鄧	-9.99297
脉浮	-9.99306
其德	-9.99314
規	-9.99327
徘徊	-9.99339
嘘	-9.99345
祈雨	-9.99351
嘔逆	-9.99364
若見	-9.99369
稽	-9.9937
層	-9.99379
詐	-9.99406
頭戴	-9.99422
訶	-9.99424
壓	-9.99429
賓	-9.9944
均	-9.99449
眷	-9.99453
紋	-9.99462
材	-9.99465
功曹	-9.99492
和氣	-9.99507
檀	-9.99512
奸	-9.99558
億萬	-9.99701
八極	-9.99733
一首	-9.99737
其氣	-9.99849
萬丈	-9.99905
玄玄	-9.99947
即瘥	-9.99995
稍稍	-10.0006
鄰	-10.003
下一寸	-10.0032
魔王	-10.0044
八節	-10.0046
服食	-10.0047
凶惡	-10.0049
不必	-10.0049
通天	-10.0051
囉	-10.0056
道學不得教人	-10.0058
牡丹	-10.0058
以何	-10.0059
各一兩	-10.0067
瘟	-10.0067
盆	-10.0068
莽草	-10.0069
烏梅	-10.0069
盖	-10.0072
糊	-10.0072
各八	-10.0073
扇	-10.0074
闊	-10.0076
幼	-10.0078
經法	-10.0079
佑	-10.0079
躡	-10.008
太上大道君	-10.0081
駭	-10.0093
範	-10.0094
汙	-10.0099
生涯	-10.0099
開度	-10.0101
金書	-10.0101
二十八	-10.0111
之心	-10.0114
亦然	-10.0114
是我大病	-10.0115
灾害	-10.0121
脹滿	-10.0125
象天	-10.0126
相似	-10.0134
紙上	-10.0138
閑閑	-10.0139
省悟	-10.014
白蜜	-10.0147
三服	-10.0154
後聖	-10.0156
玉訣	-10.017
修道	-10.0176
黄蘖	-10.0198
火光	-10.02
蠱	-10.0204
以知爲度	-10.0205
二十日	-10.0209
薰	-10.0212
剪	-10.0212
門人	-10.0214
譚	-10.0214
天關	-10.0214
活計	-10.0215
褐	-10.0217
盧	-10.0217
乃可	-10.0219
搏	-10.0226
撰	-10.0227
行也	-10.0228
滑石	-10.0228
因而	-10.0229
聦明	-10.0229
厨	-10.0232
南嶽	-10.0239
日三服	-10.024
之故	-10.0263
問之	-10.0263
得其意	-10.0264
根源	-10.0269
用心	-10.0282
奉道	-10.0283
一卷	-10.0284
外臺	-10.0288
其言	-10.031
出於	-10.032
衆賢	-10.033
他人	-10.0334
終不	-10.0339
术	-10.0344
得天心	-10.0345
蓬瀛	-10.0353
津液	-10.0356
溉	-10.0357
洲	-10.0359
咄	-10.0362
遁	-10.0362
渡	-10.0362
涉	-10.0367
閭	-10.037
三十丸	-10.0373
凡物	-10.0375
者主	-10.0378
直符	-10.0379
賔	-10.0388
逝	-10.039
眞道	-10.0392
壯熱	-10.0407
物物	-10.0424
脇下	-10.043
産後	-10.0433
衆多	-10.0433
煎取	-10.0435
怎生	-10.0438
所在	-10.0451
不和	-10.0454
功夫	-10.0455
陰氣	-10.0463
冷水	-10.0474
五分	-10.0482
即爲	-10.0484
實則	-10.0485
檄	-10.0486
款	-10.0489
睛	-10.0493
袖	-10.0495
騁	-10.0499
病苦	-10.0501
曠	-10.0501
帔	-10.0502
頸	-10.0502
瓶	-10.0505
押	-10.051
鈎	-10.051
警	-10.0512
盲	-10.0512
道衆	-10.0512
洽	-10.0516
威儀	-10.052
七枚	-10.0522
上聖	-10.0525
出世	-10.0531
寧海	-10.0536
黄芽	-10.055
黄金	-10.0554
扶風	-10.0563
五味	-10.0571
黄籙	-10.0573
煎湯	-10.0584
速起	-10.059
之治	-10.0593
帝勑	-10.0594
服方寸七	-10.06
千萬	-10.0606
以來	-10.0615
作用	-10.0626
真經	-10.0628
次存	-10.0634
竹瀝	-10.0634
凖	-10.0637
之宫	-10.0639
魅	-10.0642
股	-10.0644
藍	-10.0645
朵	-10.0646
漫	-10.0648
三炁	-10.065
些兒	-10.0654
腐	-10.0655
襟	-10.0655
同心	-10.0657
忙	-10.0659
猾	-10.0661
逼	-10.0663
所以然者	-10.0665
壹	-10.0667
兊	-10.0668
裝	-10.0668
諾	-10.0672
兄弟	-10.0673
修仙	-10.0675
殆	-10.0677
入腹	-10.0684
帝敕	-10.0695
虎龍	-10.0709
天地人	-10.0709
一分	-10.0718
者常	-10.0728
今古	-10.0729
入符中	-10.0734
卷云	-10.0742
雖有	-10.0747
認得	-10.0749
頓服之	-10.0749
黙	-10.0763
玉真	-10.0765
益氣	-10.0765
害人	-10.0776
某甲	-10.0776
傅之又方	-10.0777
道法	-10.0785
孽	-10.0786
爲法	-10.0789
滌	-10.079
硫黄	-10.079
札	-10.0791
至誠	-10.0793
伊	-10.0794
遮	-10.0796
八素	-10.0798
杯	-10.0799
晩	-10.0803
萬化	-10.0804
咒曰	-10.0806
革	-10.0812
逺	-10.0816
無知	-10.0817
未有	-10.0826
三島	-10.0827
小麥	-10.0829
不行	-10.0832
三十九	-10.0835
氣神	-10.0837
從此	-10.0839
未嘗	-10.0839
恒山	-10.0848
太真	-10.0848
耳中	-10.0869
其本	-10.087
學士	-10.0871
之意	-10.0872
東海	-10.0873
凢	-10.0873
食飲	-10.0877
何時	-10.0879
先天	-10.0884
元炁	-10.0887
保命	-10.0896
夜半	-10.0899
曰夫	-10.0908
道學	-10.0909
皆由	-10.091
服方寸七日三	-10.0916
故名	-10.0922
一片	-10.0924
八日	-10.0925
方寸匕	-10.0929
世世	-10.093
疥	-10.0933
悸	-10.0939
一大	-10.0944
腥	-10.0944
眥	-10.0947
至真	-10.0947
朋	-10.0947
菊花	-10.0948
五兩	-10.0948
耕	-10.0949
天蓬	-10.0949
㸃	-10.095
風火	-10.0951
迸	-10.0952
挺	-10.0953
后	-10.0955
刃	-10.0957
桑白皮	-10.0957
羸瘦	-10.0958
令使	-10.0958
錬	-10.096
煩悶	-10.0966
清酒	-10.097
鑿	-10.0973
下手	-10.0976
能生	-10.0979
匠	-10.098
寸口脉	-10.0981
也吾	-10.0983
四五	-10.0984
不愈	-10.0993
福田	-10.0995
自己	-10.1
不宜	-10.1002
之始	-10.1003
不言	-10.1006
九炁	-10.1007
長短	-10.1008
方大黄	-10.1016
得失	-10.1016
不然	-10.1027
七十二	-10.1029
將吏	-10.1029
正道	-10.1036
陽明	-10.1037
胃中	-10.1053
丹成	-10.1061
以是	-10.1072
吞下	-10.1081
下之	-10.1086
患人	-10.1093
三十二天	-10.1101
撮	-10.1103
懽	-10.1103
臟腑	-10.1103
擎	-10.1105
郊	-10.1106
煅	-10.1108
皮膚	-10.1108
栽	-10.1108
嗜	-10.1112
隅	-10.1113
丙丁	-10.1115
互	-10.1121
消渴	-10.1122
不在	-10.1124
玄元	-10.1134
不可不	-10.1135
瘡口	-10.1136
靈靈	-10.1141
電光	-10.1142
其二	-10.1159
之物	-10.1161
太虛	-10.1168
名山	-10.1168
知音	-10.1172
之理	-10.1173
山川	-10.1174
齋戒	-10.1175
何不	-10.1176
眞文	-10.1177
之門	-10.1179
傷人	-10.1183
終南	-10.1196
宫中	-10.1203
山林	-10.121
其内	-10.1212
煞文	-10.1214
乎哉	-10.1215
酒下	-10.1217
五氣	-10.1236
呪畢	-10.124
難治	-10.1246
説	-10.1246
法身	-10.1246
之處	-10.1248
族	-10.1259
診	-10.1259
腰脊	-10.126
恰	-10.1261
縳	-10.1261
叢	-10.1262
飄飄	-10.1262
弊	-10.1262
慵	-10.1263
口噤	-10.1263
脅	-10.1265
滴	-10.1266
不問	-10.1267
泯	-10.1268
無所不	-10.127
吾道	-10.1272
腴	-10.1272
茂	-10.1273
腰背	-10.1273
祀	-10.1278
丈夫	-10.128
永永	-10.1282
徵	-10.1283
三百六十	-10.1284
不可以	-10.1287
白日	-10.1288
腫痛	-10.1291
八卦	-10.1292
有病	-10.1295
養性	-10.1302
也真人	-10.1306
與我	-10.1307
以示	-10.1314
三台	-10.1316
傳授	-10.1321
此皆	-10.1327
一旦	-10.1328
守道	-10.1342
敢有	-10.1344
雷鳴	-10.1355
周流	-10.1363
風雷	-10.1367
天真	-10.1368
實者	-10.1369
微妙	-10.1372
右四味㕮咀	-10.1374
有心	-10.1376
得遇	-10.1379
七寶	-10.1385
一云	-10.139
天元	-10.1391
吾文	-10.1393
故有	-10.1395
二曰	-10.1399
有德	-10.1401
可爲	-10.1403
何謂	-10.1404
金華	-10.1416
韭	-10.1418
九幽	-10.1418
二十丸	-10.142
𩀱	-10.142
天使	-10.142
五炁	-10.142
抽	-10.1421
鄕	-10.1421
哺	-10.1421
廓	-10.1422
泛	-10.1422
佛	-10.1422
漠	-10.1423
瑶臺	-10.1424
突	-10.1424
惹	-10.1424
尼	-10.1424
長夜	-10.1425
其文	-10.1426
閉塞	-10.1429
如上法	-10.1429
吕	-10.143
藉	-10.1431
植	-10.1433
侍衛	-10.1434
操	-10.1435
何爲	-10.1436
青帝	-10.1438
隱書	-10.144
呼吸	-10.1443
二氣	-10.1446
妙用	-10.1446
无爲	-10.145
十分	-10.1451
欲樂	-10.1463
老人	-10.1465
拘校	-10.1466
施行	-10.1475
千金	-10.1478
也不	-10.1479
乃得	-10.1486
故爲	-10.1491
煑取二升	-10.1492
者生	-10.1492
惡寒	-10.1492
仙道	-10.1498
心猿	-10.1499
三曰	-10.1511
一味	-10.1512
皆可	-10.1514
其形	-10.1515
右八味㕮咀	-10.1517
大指	-10.1523
始終	-10.1523
無私	-10.1533
蜜丸如梧子	-10.155
大神言	-10.1554
茱萸	-10.1558
道成	-10.1558
白帝	-10.1558
粟	-10.157
萊	-10.1572
揺	-10.1573
荆芥	-10.1574
肆	-10.1578
梨	-10.1579
床	-10.1579
漱	-10.158
澆	-10.158
陀	-10.158
撫	-10.1582
抛	-10.1582
半升	-10.1583
銜	-10.1583
道學當念	-10.1584
斑	-10.1584
枳殻	-10.1585
威靈	-10.1586
翔	-10.1587
紛紛	-10.1587
躭	-10.1588
哭	-10.1588
涕	-10.159
六天	-10.159
胃管	-10.159
怖	-10.159
聴	-10.1592
鉛汞	-10.1594
終身	-10.1607
三人	-10.161
也以	-10.1615
靈臺	-10.1617
七分	-10.162
尸解	-10.1633
通玄	-10.1638
欲死	-10.1639
頌曰	-10.164
陽九	-10.1653
說之	-10.1653
天官	-10.1655
隨縁	-10.1671
是謂	-10.1673
身熱	-10.1687
右八味	-10.1692
何謂也	-10.1704
也人	-10.1712
爲佳	-10.1724
無心	-10.1725
白皮	-10.1734
血出	-10.1735
掣	-10.1738
買	-10.1742
已成	-10.1743
坦	-10.1743
饒	-10.1744
十五日	-10.1744
畔	-10.1745
婬	-10.1745
逹	-10.1747
事事	-10.1748
京兆	-10.1749
祠	-10.1749
於中	-10.1751
孟	-10.1752
無情	-10.1752
癥	-10.1753
鑑	-10.1754
子午	-10.1754
風仙	-10.1754
厲	-10.1754
冀	-10.1755
朱砂	-10.1755
扶桑	-10.1756
在上	-10.1762
乃至	-10.1763
長跪	-10.1764
小便不利	-10.1767
可不	-10.1767
羊肉	-10.1769
火鈴	-10.177
取二升	-10.1772
右六味	-10.1774
若欲	-10.178
内有	-10.1783
百六	-10.1783
失道	-10.1785
何須	-10.1785
方可	-10.1787
認取	-10.179
與神	-10.1793
太極真人	-10.1794
出血	-10.1798
七轉	-10.1803
君臣	-10.1805
而後	-10.1811
純陽	-10.1818
照耀	-10.1829
昇天	-10.1831
念道	-10.1833
大夫	-10.1847
問事	-10.1852
而自	-10.1857
日三夜一	-10.1858
十里	-10.1861
胃氣	-10.1862
玄機	-10.1883
輕重	-10.1887
更生	-10.1887
玄參	-10.1888
形容	-10.1892
紫石英	-10.1894
射干	-10.1903
貯	-10.1904
耳聾	-10.191
瘥止	-10.1911
見在	-10.1912
加之	-10.1912
此乃	-10.1916
葵子	-10.1918
潮	-10.1919
鑒	-10.1919
非常	-10.192
費	-10.1921
賦	-10.1921
欬逆	-10.1923
瓊漿	-10.1923
元始天王	-10.1924
誕	-10.1924
璧	-10.1929
不能言	-10.193
愍	-10.1931
皆須	-10.1936
十枚	-10.194
常行	-10.1947
悅喜	-10.1949
二日	-10.195
四面	-10.1956
右七味	-10.1966
太和	-10.1977
木香	-10.1978
六者	-10.1979
光陰	-10.1983
其功	-10.1983
火燒	-10.1985
光照	-10.1988
氣不足	-10.1988
一氣	-10.1991
吐下	-10.1992
深知	-10.2014
萬象	-10.2035
一道	-10.2037
惡瘡	-10.2045
流水	-10.2046
三沸	-10.2047
也善哉善哉	-10.2052
秋冬	-10.2053
一團	-10.2055
與道	-10.2056
水和	-10.2061
鈴	-10.2064
今朝	-10.2069
藜	-10.2071
磁石	-10.2071
亘	-10.2071
精思	-10.2071
敦	-10.2071
刮	-10.2072
眞常	-10.2074
胡粉	-10.2074
耳目	-10.2075
浮生	-10.2075
替	-10.2076
奴	-10.2077
揮	-10.2078
學仙	-10.2079
粘	-10.2079
中来經曰	-10.2082
長齋	-10.2085
神通	-10.2086
幡	-10.2086
捲	-10.2087
服之又方	-10.2087
錫	-10.2089
瀟	-10.2089
青木香	-10.209
俯仰	-10.2092
黎	-10.2093
知道	-10.2095
抑	-10.2095
如有	-10.2096
努力	-10.2101
三七	-10.2106
五苦	-10.2109
九靈	-10.2109
識破	-10.2114
紅塵	-10.2138
地仙	-10.214
此書	-10.2142
風冷	-10.2143
以致	-10.2149
九霄	-10.2152
人君	-10.2161
當時	-10.2162
根本	-10.2163
萬萬	-10.2163
乃止	-10.2165
牛黄	-10.2172
出離	-10.2173
良又方	-10.2179
不去	-10.2179
毒氣	-10.2187
温酒	-10.219
好生	-10.219
不除	-10.2197
吾言	-10.2199
律令敕	-10.22
有熱	-10.2201
去滓下	-10.221
甚者	-10.222
礬	-10.2222
枸杞	-10.2232
元神	-10.2242
萎蕤	-10.2243
井花水	-10.2244
咳	-10.2246
上詣	-10.2247
瀛洲	-10.2251
炊	-10.2252
麗	-10.2253
爪	-10.2253
綺	-10.2253
不受	-10.2254
潭	-10.2256
覽	-10.2258
勾	-10.2258
邑	-10.2259
又方以	-10.2259
梯	-10.226
洞眞	-10.2261
窌	-10.2261
克	-10.2261
家風	-10.2262
淹	-10.2262
久服	-10.2264
柄	-10.2265
嫉妬	-10.2266
綵	-10.2267
步步	-10.2275
相通	-10.2277
凈	-10.2278
及諸	-10.228
又方治	-10.2281
酒調	-10.2289
齋堂	-10.2291
一切衆生	-10.2292
譬如	-10.2304
衣服	-10.2305
不消	-10.2305
者但	-10.2309
不過三	-10.231
玄中	-10.2311
九道	-10.2314
玉液	-10.2318
回頭	-10.2329
入於	-10.2332
清明	-10.2345
利名	-10.2345
金童	-10.2348
無邊	-10.2371
爲帝王	-10.2391
唵吽吽	-10.24
真形	-10.2403
叩	-10.241
者是也	-10.2411
之名	-10.2415
此符	-10.242
膜	-10.2421
瘕	-10.2421
糖	-10.2422
甫	-10.2422
伍	-10.2424
拙	-10.2428
傲	-10.2428
碗	-10.2428
農	-10.2431
扁鵲	-10.2432
求仙	-10.2433
穹	-10.2433
嫌	-10.2434
喘息	-10.2439
人我	-10.2439
者謂	-10.2439
恢	-10.244
真仙	-10.244
箕	-10.2442
奈何	-10.2444
古者聖人	-10.2446
處處	-10.2447
刑罰	-10.2457
孔中	-10.2457
取三升分三服	-10.2459
何等	-10.2463
炁吹	-10.2464
禮拜	-10.2464
妊娠	-10.2494
四月	-10.2506
以水九升煑	-10.2514
在其中	-10.2521
脉來	-10.2527
心香	-10.2532
明眞	-10.2536
三才	-10.2541
瘥又方	-10.2548
星君	-10.2549
皆得	-10.2555
天法	-10.2561
神君	-10.2561
不忘	-10.2564
眞珠	-10.257
飛雲	-10.2578
白薇	-10.2592
風月	-10.2593
使得	-10.2595
澼	-10.2595
圭	-10.26
雲中	-10.2602
爲末蜜丸	-10.2604
衂	-10.2604
澁	-10.2605
匝	-10.2605
栀子仁	-10.2608
兩邊	-10.2609
系	-10.2609
齡	-10.261
禳	-10.261
製	-10.2612
栗	-10.2613
逕	-10.2613
肌膚	-10.2614
禹	-10.2616
險	-10.2616
端的	-10.2616
譽	-10.2617
琳	-10.2617
述懷	-10.2618
賴	-10.2618
逍遥自在	-10.2619
構	-10.2623
如小豆	-10.2623
先人	-10.2624
之教	-10.2626
歡喜	-10.2627
死人	-10.263
寒暑	-10.2632
歸來	-10.2635
貴賤	-10.2636
清清	-10.2637
補之	-10.2652
上經	-10.2653
當願一切	-10.2654
高下	-10.2658
國王	-10.2663
成功	-10.2664
右十味	-10.2671
遠近	-10.2675
金銀	-10.268
更服	-10.2682
冷熱	-10.2683
罪福	-10.2684
上登	-10.2698
行功	-10.27
迴頭	-10.2708
以水五升	-10.2711
在内	-10.2718
五種	-10.2722
其狀	-10.2722
洗之	-10.2722
立功	-10.2726
服十丸	-10.2726
不悟	-10.2733
當先	-10.2733
二年	-10.2736
萬病	-10.2736
本文	-10.274
萬民	-10.2752
葵	-10.2768
煑取四升	-10.2769
之外	-10.277
而有	-10.2771
和合	-10.2771
道家	-10.2777
芫花	-10.278
不可勝	-10.2781
癖	-10.2782
弓	-10.2782
瀆	-10.2784
烊	-10.2785
鞋	-10.2786
綻	-10.2787
八十一	-10.2789
閻	-10.2789
几	-10.2792
堆	-10.2792
澹	-10.2793
人能	-10.2793
𦋇	-10.2793
硬	-10.2793
朴	-10.2794
噎	-10.2794
捐	-10.2795
溝	-10.2799
亘初	-10.2799
冲	-10.2801
昨	-10.2806
柔弱	-10.2817
清静	-10.282
只是	-10.282
少陰	-10.282
丁香	-10.2827
玉童	-10.2839
仙家	-10.284
絳宫	-10.2847
解脫	-10.2852
論曰凡	-10.2862
飛昇	-10.2863
寂然	-10.2863
玄臺	-10.2867
有人	-10.2875
同煎	-10.2884
右七味㕮咀	-10.2892
壇前	-10.2895
九升	-10.2907
中古	-10.2913
上書	-10.2916
治在	-10.2925
跳	-10.2927
風毒	-10.2929
黒炁	-10.293
心煩	-10.2936
相見	-10.2949
如今	-10.2959
地骨皮	-10.2961
瘰癧	-10.2962
竹茹	-10.2968
歳	-10.297
檳榔	-10.2971
㯃	-10.2974
蠱毒	-10.2975
豪	-10.2976
韓	-10.2977
太微天帝君	-10.2978
督	-10.2978
太帝	-10.2978
賀	-10.2979
百神	-10.298
忤	-10.2981
阻	-10.2982
勇	-10.2982
拯	-10.2984
靡	-10.2985
眇	-10.2985
裳	-10.2985
宛	-10.2986
佞	-10.2987
咽喉	-10.2989
相與	-10.299
金瘡	-10.2991
依法	-10.2993
晦	-10.2994
明珠	-10.2994
受命	-10.2999
内踝	-10.3004
脚氣	-10.3011
眞仙	-10.3024
布施	-10.3025
風寒	-10.3026
一聲	-10.3027
曰吾	-10.3029
不善	-10.3041
妄語	-10.3043
經戒	-10.3054
邪鬼	-10.3067
不以	-10.3071
與地	-10.3081
色界	-10.3083
動靜	-10.309
之類	-10.3091
天將	-10.3092
不正	-10.3095
良因	-10.3097
臣等	-10.3104
爲末蜜丸如梧子大	-10.3106
不定	-10.3108
先煑	-10.3118
妙玄	-10.3128
爲害	-10.313
每日	-10.3139
天書	-10.3142
一歲	-10.3143
雲遊	-10.315
洞陽	-10.3153
壅	-10.3154
縫	-10.3157
㧞	-10.3157
縈	-10.3158
艾葉	-10.3159
滄	-10.3161
甜	-10.3161
同前	-10.3162
芥	-10.3162
三里	-10.3162
濡	-10.3163
哥	-10.3163
線	-10.3164
冗	-10.3164
肋	-10.3164
柏	-10.3165
洋	-10.3165
治下篩酒服方寸七	-10.3166
天涯	-10.3168
偷	-10.3168
奕	-10.3168
麟	-10.3169
泣	-10.317
怕	-10.317
嗚	-10.3172
黄疸	-10.3173
▲▲▲	-10.3173
板	-10.3173
玉童玉女	-10.3173
卓	-10.3175
鼈	-10.3175
玉文	-10.3176
囑	-10.3176
導引	-10.3181
趨	-10.3181
薪	-10.3184
大羅天	-10.3188
通達	-10.3193
龍膽	-10.3195
一處	-10.3195
昇仙	-10.3195
乳汁	-10.3196
謹請	-10.3197
箇箇	-10.3197
善哉子	-10.3203
成仙	-10.3204
三尸	-10.3208
語言	-10.3209
流注	-10.3221
一方用	-10.3224
七月	-10.3225
青霄	-10.3225
玉京山	-10.3229
金門	-10.3234
佩身	-10.3235
去來	-10.3239
虛皇	-10.3241
无窮	-10.3242
蹄	-10.3248
石南	-10.3248
三斗	-10.3251
安寧	-10.3255
各有所	-10.3262
民臣	-10.3264
百歲	-10.3268
昇玄	-10.3286
古人	-10.3288
安得	-10.3288
因果	-10.3295
七合	-10.3299
南宫	-10.3302
雷聲	-10.3319
邪惡	-10.3327
腋	-10.3329
靈童	-10.3333
五勞七傷	-10.3337
爲細末	-10.3342
地户	-10.3344
髮際	-10.3345
白石英	-10.3345
一家	-10.3346
麵	-10.3346
微火	-10.3348
枷	-10.3352
撞	-10.3352
羚羊角	-10.3353
肛	-10.3355
鬚	-10.3357
陪	-10.3357
托	-10.3358
紛	-10.3359
矣故	-10.336
頗	-10.336
炎炎	-10.336
何者	-10.3361
身形	-10.3362
巨闕	-10.3365
耗	-10.3367
版	-10.3371
築	-10.3372
二味	-10.3373
師弟子	-10.3374
㝠㝠	-10.3375
五月	-10.3379
月經	-10.3381
神符	-10.3382
悟徹	-10.3386
歡樂	-10.3399
通明	-10.3404
五神	-10.3404
一具	-10.3406
口乾	-10.3416
一物	-10.3421
以意	-10.3422
養就	-10.3426
之義	-10.3437
也眞人	-10.3439
忽然	-10.3448
八升	-10.3449
形長	-10.3453
十二月	-10.3455
右十一味㕮咀	-10.3457
誦之	-10.346
春夏	-10.3465
咽之	-10.3478
三宫	-10.3479
二合	-10.3481
如大豆	-10.3482
其間	-10.3483
之際	-10.3484
方寸	-10.3486
第	-10.3492
内藥	-10.3492
不住	-10.3492
狀如	-10.35
雲路	-10.3503
而言	-10.3505
自在逍遥	-10.3506
和傅之	-10.3512
熱毒	-10.3523
高聖	-10.3524
發於	-10.3526
而不止	-10.3526
何必	-10.3528
訣曰	-10.3529
鯉魚	-10.3533
旛	-10.3537
分五服	-10.3542
吏兵	-10.3545
癆	-10.3546
懶	-10.3549
續命湯	-10.355
喬	-10.3552
隻	-10.3552
濤	-10.3554
右爲細末	-10.3554
屢	-10.3555
拾	-10.3556
甘遂	-10.3556
者悉	-10.3557
這箇	-10.3558
迫	-10.3559
賈	-10.356
叱	-10.3561
冶	-10.3562
路上	-10.3563
蟬	-10.3563
洛	-10.3564
二十八宿	-10.3568
拱	-10.3569
返照	-10.3571
兒孫	-10.3572
天雷	-10.3577
禁忌	-10.3577
萬縁	-10.3585
三寶	-10.3588
承負之	-10.3588
微火煎	-10.3591
煩滿	-10.3591
賢人	-10.3595
二分	-10.3597
召雷	-10.3601
大千	-10.3605
跳出	-10.3609
大定	-10.362
飲水	-10.3623
周天	-10.3637
三乘	-10.3648
洞極	-10.3652
八百	-10.3654
得長生	-10.3658
數十	-10.3662
道言	-10.3665
亦是	-10.3667
絞	-10.3671
小指	-10.3675
胸中	-10.3683
真靈	-10.3688
圓光	-10.3701
四季	-10.3703
生姜	-10.371
死亡	-10.372
思念	-10.3722
茵芋	-10.3732
卵	-10.3734
食不消	-10.3738
藁本	-10.3738
記之	-10.3739
粳米	-10.3739
飴	-10.3744
氣血	-10.3744
醬	-10.3745
金色	-10.3745
之師	-10.3746
神驗	-10.3749
百二十	-10.3749
臘	-10.3749
墓	-10.3749
豈不	-10.375
道士女冠	-10.3751
拳	-10.3752
以水八升煑	-10.3754
竿	-10.3754
大將軍	-10.3756
况	-10.3756
遊行	-10.3756
蜈蚣	-10.3756
旁	-10.3757
優	-10.3757
窟	-10.3759
圃	-10.376
五錢	-10.3761
滋味	-10.3761
丞	-10.3762
蟻	-10.3762
派	-10.3763
湖	-10.3764
誘	-10.3765
匪	-10.3767
玄天	-10.3769
十洲	-10.3769
此之謂也	-10.377
鄭	-10.377
癲疾	-10.3771
多食	-10.3772
知之邪唯唯	-10.3773
罪賜	-10.3776
神祇	-10.3778
芝草	-10.3778
虞	-10.3781
已下	-10.3782
陳皮	-10.3794
福地	-10.3795
下愚	-10.3796
長吏	-10.38
恩愛	-10.3804
三徧	-10.3806
靈文	-10.3813
隨意	-10.3818
良久	-10.3819
機關	-10.382
妙理	-10.3827
一百二十	-10.3832
教人	-10.3833
取一斗	-10.3835
存亡	-10.3837
孝子	-10.3839
不堪	-10.3845
風雲	-10.3847
紫府	-10.3853
虚皇	-10.3853
火輪	-10.386
風流	-10.3863
一石	-10.3866
二儀	-10.387
名字	-10.3879
即出	-10.3881
論方	-10.3884
後學	-10.3888
口訣	-10.3903
致太平	-10.3906
上帝敕	-10.3913
妄言	-10.3916
萬法	-10.3919
正炁	-10.3923
真性	-10.3927
三魂	-10.393
歸依	-10.3934
瘻	-10.3938
不能食	-10.3941
遞	-10.3942
羹	-10.3948
羊脂	-10.3949
膩	-10.3951
薤白	-10.3952
蠻雷	-10.3952
爇	-10.3953
憨	-10.3954
帖	-10.3954
遶	-10.3954
呪唵	-10.3954
捕	-10.3957
瑶池	-10.3959
瘀血	-10.3959
骷髏	-10.396
郷	-10.3961
覺悟	-10.3962
猛吏	-10.3963
樸	-10.3963
寳經	-10.3963
謬	-10.3964
分再服	-10.3965
馨香	-10.3966
諦	-10.3967
繡	-10.3967
邈	-10.3968
魯	-10.3969
劎	-10.3969
躬	-10.3971
禦	-10.398
水一盞	-10.3986
亂髮	-10.3987
聰明	-10.3989
方云	-10.4001
筋骨	-10.4005
是以真人	-10.4006
箇中	-10.4006
石灰	-10.4009
悟眞	-10.4012
太白	-10.4013
輪轉	-10.4016
二月	-10.4021
相引	-10.4021
清貧	-10.4023
頓覺	-10.4028
然燈	-10.4036
夫婦	-10.4037
天機	-10.4038
青童	-10.404
寂寂	-10.4041
爲義	-10.4041
盛則	-10.4049
卷中	-10.4052
達理	-10.4058
無礙	-10.4062
煑取二升半	-10.4063
經教	-10.4066
頭建	-10.407
我今	-10.4077
光輝	-10.4079
數日	-10.408
真符	-10.4084
玉花	-10.4088
右法	-10.4099
不負	-10.4133
切一	-10.4134
價	-10.4136
譬	-10.4136
化成	-10.4141
哩	-10.4142
𥿄朱書	-10.415
栢子仁	-10.4153
車前子	-10.4155
苓	-10.4155
驢	-10.4156
昆	-10.4156
千年	-10.4158
覷	-10.4158
戮	-10.4158
趖	-10.416
煨	-10.4161
捻	-10.4161
絆	-10.4162
劈	-10.4162
柴	-10.4162
岑	-10.4163
赤色	-10.4165
軫	-10.4165
四聖	-10.4165
焚香	-10.4165
姿	-10.4165
墟	-10.4166
宵	-10.4168
躁	-10.417
綂	-10.417
絞痛	-10.417
空外	-10.417
訟	-10.4171
叅	-10.4171
怡	-10.4173
金甲	-10.4173
訣第一百	-10.4175
函	-10.4176
萌	-10.4176
謗	-10.4177
僕	-10.4177
臍中	-10.4194
右九味㕮咀	-10.4195
不肖	-10.4197
亦名	-10.4203
火院	-10.4209
常住	-10.4209
朝禮	-10.4212
再服	-10.4213
飛騰	-10.4216
七魄	-10.4218
煩熱	-10.4222
力士	-10.4225
八會	-10.4226
塵情	-10.4231
俱忘	-10.4232
傷損	-10.4239
魂神	-10.4239
芒消	-10.4247
服一升	-10.4254
瑞應	-10.4256
長壽	-10.4264
小豆	-10.4266
漬之	-10.4271
不退	-10.4287
酒服方寸七	-10.4289
始生	-10.4293
如意	-10.4295
而行之	-10.4299
吾今	-10.4304
定志	-10.4306
太歲	-10.4312
欲使	-10.4317
杏	-10.4331
食後	-10.4333
與之	-10.4335
篩	-10.4337
二千	-10.434
杵	-10.4345
其餘	-10.4352
飛龍	-10.4353
道理	-10.436
動作	-10.4367
低	-10.4367
炮	-10.4367
鹿角	-10.4369
分二服	-10.437
正真	-10.437
直上	-10.4371
陣	-10.4372
歛	-10.4373
蜂	-10.4375
隴	-10.4376
罩	-10.4376
鴻	-10.4377
藤	-10.4378
麽	-10.4378
辦	-10.4378
蔭	-10.4379
十轉	-10.4379
騰騰	-10.438
屈伸	-10.438
葬	-10.4381
榮衛	-10.4382
勘	-10.4384
擾	-10.4385
相對	-10.4385
馬鈺	-10.4387
悒悒	-10.4391
偈	-10.4395
三素	-10.4396
株	-10.4398
旦夕	-10.4399
境界	-10.4406
赤炁	-10.4407
速至	-10.4409
青童君	-10.4409
忘機	-10.4412
房室	-10.4417
須當	-10.4434
坐卧	-10.4435
熬令	-10.444
玉符	-10.4444
人參甘草	-10.4451
仙都	-10.4457
勿使	-10.4457
閉目	-10.4458
所說	-10.4474
南星	-10.4478
猶如	-10.4484
明旦	-10.449
黄庭	-10.4496
仙鄉	-10.4503
尺脉	-10.4516
關元	-10.453
法輪	-10.4551
三十年	-10.4554
善之人	-10.4561
應化	-10.4567
痞	-10.4567
未知	-10.4568
水洗	-10.4569
靈源	-10.457
安坐	-10.457
家書	-10.4574
三尺	-10.4576
狼	-10.4581
福無	-10.4582
貝母	-10.4583
漏蘆	-10.4583
釀	-10.4583
牡	-10.4584
安樂	-10.4586
愚者	-10.4589
崔氏	-10.459
輙	-10.459
沐	-10.4591
梳	-10.4592
飈	-10.4593
咳嗽	-10.4596
裁	-10.4596
赦	-10.4597
衮	-10.4597
黨	-10.4597
岐	-10.4597
五臟六腑	-10.4598
秤	-10.46
䰟	-10.4601
峯	-10.4602
倫	-10.4606
零	-10.4606
本際經云	-10.4611
究竟	-10.4618
家縁	-10.4618
須知	-10.4619
拘急	-10.4621
腋下	-10.4623
悟來	-10.4631
東嶽	-10.4632
堅固	-10.4634
也所以	-10.4636
教令	-10.4638
豈可	-10.4647
一盞	-10.4649
養氣	-10.4652
生肌	-10.4655
發背	-10.4662
勿復	-10.4665
速降	-10.4667
妖精	-10.4668
亦佳	-10.4671
赤芍藥	-10.4674
無爭	-10.4682
運轉	-10.4686
誰能	-10.4694
寒冷	-10.4698
妻子	-10.4699
者即是	-10.47
裏面	-10.47
玄武	-10.4702
酒一斗	-10.4704
萬古	-10.4717
任意	-10.4723
所願	-10.4738
從今	-10.4744
五石	-10.4746
唯有	-10.4755
氣逆	-10.4755
道陵	-10.4755
虚寒	-10.4757
白礬	-10.476
星宿	-10.4763
右九味	-10.4765
酒三升	-10.4768
十二部	-10.4769
眼前	-10.4771
冥冥	-10.4784
文字	-10.4785
日三又方	-10.4786
勑呪	-10.4791
黑帝	-10.4803
右十三味	-10.4803
絞取汁	-10.4805
俟	-10.4805
帀	-10.4812
斛	-10.4813
模	-10.4813
崔	-10.4814
淚	-10.4815
戎	-10.4815
疲	-10.4817
料	-10.4817
勘破	-10.4818
涌泉	-10.4819
崑	-10.4819
桐	-10.482
婁	-10.4821
下士	-10.4822
山頭	-10.4822
聊	-10.4823
藴	-10.4824
修完	-10.4828
百里	-10.4833
寃	-10.4834
脚弱	-10.4835
進退	-10.4856
一劑	-10.4858
直待	-10.4861
煞炁	-10.4866
壽命	-10.4872
謹召	-10.4878
乃能	-10.4879
孝道	-10.4884
財物	-10.4886
千古	-10.4887
不爾	-10.4888
於其内	-10.4888
一寸半	-10.4895
一般	-10.4904
天樞	-10.4905
風吹	-10.4905
思惟	-10.4913
青黄	-10.4928
必死	-10.4932
修真	-10.4932
世事	-10.4953
春秋	-10.4954
霞光	-10.4956
煑取三升去滓	-10.4958
太元	-10.4978
尋常	-10.4992
癰腫	-10.4995
過多	-10.4998
白馬	-10.5
小小	-10.5007
栝蔞	-10.5016
島	-10.5017
玄母	-10.5018
念呪曰	-10.5019
矣夫	-10.5021
了眞	-10.5022
土瓜根	-10.5027
轄	-10.503
海藻	-10.5031
禹餘粮	-10.5031
漬一宿	-10.5032
腹内	-10.5033
右十四味	-10.5034
噴	-10.5034
疔	-10.5035
霍	-10.5039
廻	-10.504
惺	-10.504
綬	-10.5041
銷	-10.5042
簇	-10.5043
祚	-10.5043
灼	-10.5044
鱗	-10.5045
壬癸	-10.5047
讖	-10.5047
痛不可忍	-10.5048
曳	-10.5048
滚	-10.5048
右件	-10.5049
戈	-10.505
豁落	-10.5052
尹	-10.5052
西王母	-10.5052
介	-10.5053
䇿	-10.5053
晏	-10.5054
𥙷	-10.5055
爻	-10.5055
仲景	-10.5057
膺	-10.5057
惶	-10.5057
黄帝云	-10.5062
遊宴	-10.5062
千二百	-10.5064
拷	-10.5066
寡	-10.5067
渺	-10.5068
說法	-10.5084
四直	-10.509
力學	-10.5094
思慮	-10.5096
玉華	-10.5096
湯洗	-10.5099
衆眞	-10.5102
方麻黄	-10.511
驅雷	-10.5122
從前	-10.5123
音聲	-10.5129
洞房	-10.5131
道眼	-10.5132
塵縁	-10.5133
元皇	-10.5136
應物	-10.5141
不得卧	-10.5146
吾身	-10.5146
歲月	-10.5149
壺中	-10.5153
月華	-10.5154
吏民	-10.5156
骨節	-10.5159
大小便	-10.5169
姓某	-10.5172
轉輪	-10.5177
玄關	-10.5191
踝	-10.5197
感應	-10.5201
流光	-10.521
誰知	-10.5229
又方擣	-10.5233
月一日	-10.5236
趾	-10.5244
甑	-10.5255
祛	-10.5259
妬	-10.5263
石韋	-10.5264
曝	-10.5267
巴戟天	-10.5267
銅器中	-10.5269
胡洽	-10.527
擺	-10.527
鎭	-10.5271
沾	-10.5272
奴婢	-10.5272
轡	-10.5273
驕	-10.5274
空虚	-10.5274
態	-10.5274
澄澄	-10.5277
柯	-10.5277
庸	-10.5277
梧	-10.5277
擔	-10.5278
寐	-10.5279
瓢	-10.5279
拍	-10.5279
聯	-10.528
齋直	-10.5281
賣	-10.5281
伽	-10.5282
天蓬呪	-10.5282
餓	-10.5282
渠	-10.5282
尉	-10.5283
七月七日	-10.5284
孩	-10.5284
頭眩	-10.5286
曆	-10.5286
内補	-10.5287
五千文	-10.5293
至心歸命	-10.5294
騫	-10.5296
瘵	-10.5296
奚	-10.5299
虚无	-10.5304
喉痺	-10.5305
太上老君	-10.5316
蛟龍	-10.5317
榜	-10.5319
无形	-10.5323
縣官	-10.5328
祥雲	-10.5337
深處	-10.5338
第十一	-10.5348
治卒	-10.535
右五味㕮咀	-10.535
仁義	-10.5371
靈章	-10.5372
器中	-10.5376
結就	-10.5378
老子曰	-10.5383
脾胃	-10.5385
持戒	-10.5386
莫能	-10.5393
漿水	-10.5397
感動	-10.54
凡夫	-10.5402
五斗	-10.5413
唵吽	-10.5422
十五丸	-10.5436
杳冥	-10.5437
五辛	-10.5458
雖然	-10.5463
服五丸	-10.5464
文章	-10.5476
功名	-10.5478
塵世	-10.5479
四味	-10.5483
瞿麥	-10.5501
貝	-10.5505
萆薢	-10.5505
祈晴	-10.5506
撒	-10.5508
噀	-10.5509
癤	-10.551
債	-10.5512
霓	-10.5512
瘖	-10.5517
訴	-10.5517
蔣	-10.5518
蛾	-10.5519
玉臺	-10.5519
暇	-10.552
儔	-10.552
窈	-10.5521
宸	-10.5521
趁	-10.5522
擬	-10.5522
漂	-10.5523
追魂	-10.5525
沃	-10.5526
各各	-10.5526
草烏	-10.5527
萬不失一	-10.5527
巍巍	-10.5527
搜尋	-10.5527
禽	-10.5528
靴	-10.5528
嬉	-10.5529
太上洞玄靈寳	-10.5529
腸鳴	-10.5529
降臨	-10.5531
坊	-10.5532
羅列	-10.5535
開闢	-10.5536
歟	-10.554
懃	-10.5541
中和之	-10.5543
一顆	-10.5545
黒雲	-10.5549
六腑	-10.5551
骨髓	-10.5552
治少小	-10.5552
積久	-10.5556
胷滿	-10.5557
瓊花	-10.556
燒末	-10.5561
遊歷	-10.5562
經絡	-10.5563
喜怒	-10.5568
丸如梧子	-10.5571
亦不可	-10.5589
自責	-10.5592
邪僞	-10.5597
火炙	-10.5601
生萬物	-10.5606
塵勞	-10.5621
不染	-10.5621
㕮咀以	-10.5622
玉泉	-10.5638
桂心甘草	-10.5644
天地之間	-10.5659
午文	-10.5661
法界	-10.5662
相連	-10.5689
目前	-10.5692
疾苦	-10.5707
無限	-10.571
下焦	-10.5713
湛	-10.5716
訖下	-10.572
陷者中	-10.5721
有箇	-10.573
跪	-10.5738
父子	-10.5742
搔	-10.5743
伏龍肝	-10.5746
泔	-10.5746
錦帔	-10.575
蒿	-10.575
緋	-10.5751
衢	-10.5752
適寒温	-10.5753
右十六味	-10.5754
泡	-10.5755
嚥液	-10.5756
詮	-10.5759
巴	-10.5759
决烈	-10.576
濯	-10.576
鈞	-10.5762
九寸	-10.5762
淘	-10.5762
神珠	-10.5766
庚辛	-10.5768
焙乾	-10.5771
落魄	-10.5771
愧	-10.5773
欻	-10.5773
翕	-10.5775
姹女	-10.5776
㧞度	-10.5781
夀	-10.5782
雌黄	-10.5784
耶唯唯	-10.5786
吐納	-10.5787
其要意	-10.5789
皮毛	-10.579
服三丸	-10.5812
響應	-10.584
消亡	-10.5841
收攝	-10.5845
召呪	-10.5845
脉沉	-10.5872
金簡	-10.5876
念念	-10.5882
瘥後	-10.5885
右十味㕮咀	-10.5891
酒浸	-10.5906
骨肉	-10.5919
節度	-10.5938
敕召	-10.5949
萬歲	-10.5964
地黄汁	-10.5973
王公	-10.5977
鵝	-10.5988
柰	-10.5992
火急奉行	-10.5994
脯	-10.5995
念呪	-10.5995
叩齒九通	-10.5998
世俗	-10.5998
驀	-10.6
趺	-10.6001
髀	-10.6001
迅	-10.6001
斑猫	-10.6001
挽	-10.6001
泠	-10.6003
棘	-10.6004
寒水石	-10.6005
缺盆	-10.6005
挑	-10.6006
征	-10.6006
孕	-10.6006
水蛭	-10.6007
嬌	-10.6007
凍	-10.6007
惻	-10.6007
禽獸	-10.6009
普天	-10.601
亨	-10.6012
艱	-10.6013
痊	-10.6013
坡	-10.6013
環堵	-10.6014
旌	-10.6016
痾	-10.6018
探	-10.6018
兀	-10.6018
下篩	-10.6018
楚	-10.6019
灾變	-10.6021
飮	-10.6021
香煙	-10.6021
馮	-10.6021
金花	-10.6028
紫蘇	-10.6031
小童	-10.6033
思其意	-10.6047
卷之六	-10.6053
形骸	-10.6054
諧	-10.6057
生地黄汁	-10.6066
具位	-10.6067
嚥氣	-10.6071
神吏	-10.6074
奉勸	-10.6076
長久	-10.6077
愼勿	-10.6077
何曾	-10.6084
玉虛	-10.6094
川烏	-10.6098
右六味㕮咀	-10.6103
全真	-10.6107
真人知之耶唯唯	-10.6122
宿命	-10.6124
幾何	-10.6134
利益	-10.6147
瑞氣	-10.616
方半夏	-10.6173
西東	-10.618
二升半	-10.6188
素靈	-10.619
震動	-10.6194
各異	-10.6222
臘月猪脂	-10.6236
郄	-10.6241
端正	-10.6242
豬	-10.6243
驚悸	-10.6247
蛇牀子	-10.625
茵	-10.625
連翹	-10.6251
頂上	-10.6252
掣電	-10.6255
頻頻	-10.6257
羗活	-10.6257
离	-10.6258
盃	-10.6258
裊	-10.626
區區	-10.6262
斡運	-10.6262
蓮花	-10.6262
微咒曰	-10.6263
巫	-10.6263
拒	-10.6263
敲	-10.6264
斜	-10.6264
拖	-10.6264
狸	-10.6264
樣	-10.6265
牧	-10.6265
欬嗽	-10.6265
旺	-10.6266
虔	-10.6267
輦	-10.6267
糧	-10.6267
穎	-10.6268
地榆	-10.6268
膚	-10.6268
忻	-10.6268
梢	-10.6269
織	-10.627
准	-10.627
堯	-10.6272
岡	-10.6272
乾漆	-10.6273
矜	-10.6274
戰鬥	-10.6274
浩劫	-10.6275
如斯	-10.6277
漁	-10.6278
扃	-10.6278
黍米	-10.6279
歌舞	-10.628
此箇	-10.628
髪	-10.628
嵩	-10.6283
録籍	-10.6283
林泉	-10.6284
叛	-10.6286
無涯	-10.6286
尹喜	-10.6287
湛然	-10.6289
煑取三升去滓分三服	-10.6291
鑄	-10.6296
打破	-10.6296
西嶽	-10.6297
所不能	-10.6297
洞淵	-10.6302
服二丸	-10.6306
憂愁	-10.6325
幽微	-10.6331
明效	-10.6338
雲步	-10.6341
晴空	-10.6342
龍吟	-10.6344
格法	-10.6345
食後服	-10.6355
超然	-10.6389
民間	-10.6389
相逢	-10.6392
奉戒	-10.6396
喉中	-10.6414
十銖	-10.6433
携雲	-10.6439
五穀	-10.6443
福德	-10.6451
絶滅	-10.6459
坦蕩	-10.6459
君父	-10.6462
修齋	-10.648
死魂	-10.648
久視	-10.6486
太上曰	-10.6486
𧏾	-10.6487
閃	-10.6499
不自知	-10.6505
蒲	-10.6507
古今録驗	-10.6508
癬	-10.651
疳	-10.6514
天地隂陽	-10.6516
蜜丸	-10.6516
遍身	-10.6517
慘	-10.6517
㗶	-10.6517
分四服	-10.6519
艶	-10.6521
疸	-10.6521
喧	-10.6522
朴硝	-10.6522
岳	-10.6522
墻	-10.6522
撼	-10.6524
南向	-10.6524
挾	-10.6525
癘	-10.6525
討	-10.6525
批	-10.6526
呢	-10.6526
控	-10.6527
水七升	-10.6527
叩齒三通	-10.6527
眸	-10.6528
挫	-10.6528
道場	-10.6529
目眩	-10.6529
猜	-10.653
衒	-10.6531
戾	-10.6532
綱紀	-10.6533
黍	-10.6534
飛行上清	-10.6535
涌	-10.6535
貨	-10.6535
循環	-10.6536
虎嘯	-10.6536
奢	-10.6537
嚮	-10.6537
日月星辰	-10.6537
灸三壯	-10.6538
手太陰	-10.6541
攺	-10.6542
集驗	-10.6542
鼇	-10.6542
天地開闢以來	-10.6544
甲乙云	-10.6545
軌	-10.6547
夷狄	-10.6548
贊	-10.6548
雕	-10.6548
關上脉	-10.6549
郡界	-10.6556
皓月	-10.6557
收捉	-10.656
述意	-10.6562
右㕮咀	-10.6567
遜	-10.6568
米飲	-10.6571
日三夜二	-10.6578
頂門	-10.6579
如此矣	-10.6581
九竅	-10.6581
無價	-10.6584
轉筋	-10.6584
灾異	-10.6588
丹霄	-10.659
財色	-10.6597
忘情	-10.66
故名爲	-10.6602
司馬	-10.6603
欲知其	-10.6606
腸胃	-10.6608
清油	-10.6608
足少陰	-10.6616
華蓋	-10.6642
故稱	-10.6644
炁一口	-10.6651
霹靂震	-10.6659
國土	-10.6662
以水四升	-10.6667
訖次	-10.6667
右十二味㕮咀	-10.6669
消石	-10.6679
浮腫	-10.6686
陰乾	-10.6692
不得息	-10.6698
右三味㕮咀以	-10.6707
第十二	-10.6709
嘉祥	-10.6711
搜玄	-10.675
四十九	-10.6759
蛇床子	-10.6777
酷	-10.6791
酌	-10.6791
豹	-10.6792
浩浩	-10.6795
𡨚	-10.6795
俊	-10.6795
優游	-10.6797
撲	-10.6798
筆書	-10.6802
駐	-10.6804
掉	-10.6805
徃來	-10.6805
白日昇天	-10.6805
銳	-10.6806
贖	-10.681
算	-10.6811
奪筭	-10.6812
愚癡	-10.6813
朱雀	-10.6814
恰似	-10.6815
半夏湯	-10.6818
萬二千物	-10.6818
輝輝	-10.6822
枝葉	-10.6823
湛湛	-10.6823
雲朋	-10.6828
亦復如是	-10.6829
大洞真經	-10.6832
内諸藥	-10.6837
各自有	-10.6838
與道合	-10.6838
叩頭	-10.6841
官將	-10.6845
浮雲	-10.6845
因緣	-10.6847
九天之上	-10.6855
墨書	-10.6857
忠信	-10.6864
利小便	-10.6867
吐逆	-10.6869
終始	-10.6884
神光燦	-10.6887
七寸	-10.6892
燦	-10.6897
尋思	-10.6902
以水三升煑取一升	-10.6904
功圓	-10.6911
虚損	-10.6918
子知之耶唯唯	-10.6937
洞照	-10.6952
爾時	-10.6991
皮肉	-10.7016
去滓分三服	-10.7044
鬼賊	-10.7052
爪甲	-10.706
囂	-10.7062
閬苑	-10.7064
吼	-10.7066
蝦	-10.7066
霹𩆝	-10.7066
㣲	-10.7067
濾	-10.7068
鉢	-10.7069
嫉	-10.707
啖	-10.7071
漚	-10.7071
菊	-10.7073
𡻕	-10.7076
裘	-10.7076
盈盈	-10.7077
隍	-10.7077
巡	-10.7078
矯	-10.7079
韁	-10.7079
戊己	-10.7079
拽	-10.708
交媾	-10.7081
廷	-10.7081
胷脇	-10.7082
泊	-10.7083
偏枯	-10.7083
絮	-10.7083
汲	-10.7085
粧	-10.7085
鎻	-10.7085
剖	-10.7085
鐶	-10.7086
醴	-10.7086
偃	-10.7089
慇懃	-10.7089
栖	-10.7089
縱横	-10.709
幹	-10.7092
踐	-10.7092
殿試	-10.7093
掖	-10.7095
厥逆	-10.7098
牖	-10.7101
庚申	-10.7101
香豉	-10.7105
味辛	-10.7107
細切	-10.711
加减	-10.7111
受之於	-10.712
宫殿	-10.7124
七百年	-10.7131
須憑	-10.7132
良醫	-10.7141
息肉	-10.7159
汝等	-10.7166
現形	-10.7171
然谷	-10.7178
爲鄰	-10.7185
足太陰	-10.7186
先食服	-10.7202
小便數	-10.7202
目視	-10.7204
霞友	-10.7204
西向	-10.7208
唾血	-10.722
一斗二升	-10.7226
卷之八	-10.724
太古	-10.7252
可不愼	-10.7284
酒調服	-10.7291
腹脹滿	-10.7292
官屬	-10.7292
右三味治下篩	-10.7295
蛟	-10.7303
薑汁	-10.7325
瞳	-10.7347
驚癇	-10.7349
瑟	-10.7351
娑	-10.7352
虚羸	-10.7352
擣篩	-10.7353
皂角	-10.7354
叩齒十二通	-10.7354
五月五日	-10.736
跨鶴	-10.736
臘月	-10.736
粮	-10.7361
朴消	-10.7361
驛	-10.7361
呬	-10.7362
悴	-10.7363
羡	-10.7363
擘	-10.7364
弩	-10.7364
聳	-10.7366
完全	-10.7368
污	-10.7369
寵	-10.737
叙	-10.7371
品科曰凡是道學當知	-10.7372
駡	-10.7372
忒	-10.7373
夙	-10.7374
臻	-10.7375
四極明科	-10.7377
劵	-10.7379
脆	-10.7379
碧落	-10.7379
乞丐	-10.7381
遼	-10.7381
鬭	-10.7383
尊卑	-10.7383
男兒	-10.7387
遏	-10.7388
錢重	-10.7396
擣末	-10.7399
右二味爲末	-10.7425
作伴	-10.7433
服一升日三	-10.7437
加至三十丸	-10.744
絞去滓	-10.7441
重樓	-10.7455
超昇	-10.7486
各等分	-10.7487
洞府	-10.7503
急急奉	-10.7546
唯天師	-10.7595
十斤	-10.7619
件	-10.764
蓄	-10.7647
爍	-10.7649
翅	-10.7651
蕪	-10.7652
晡	-10.7652
喚	-10.7652
頷	-10.7652
太歳	-10.7652
括	-10.7653
猪苓	-10.7654
迢	-10.7654
簪	-10.7656
緯	-10.7656
鳥獸	-10.7658
如梧桐子大	-10.7659
摘	-10.7659
鄙	-10.7659
日月星宿	-10.766
牌	-10.7661
不失銖分	-10.7662
觜	-10.7663
瞋	-10.7663
鯨	-10.7664
蟠桃	-10.7666
靄	-10.7666
增損	-10.7668
耿	-10.7668
懇	-10.767
劒訣	-10.7671
勅	-10.7672
歸蓬島	-10.7673
爵	-10.7674
擾擾	-10.7674
右呪畢	-10.7677
右二味㕮咀	-10.7679
寺	-10.7679
倏	-10.7679
隸	-10.768
早早	-10.7687
長生久視	-10.7688
詩詞	-10.7688
右二味治下篩	-10.7694
東井	-10.7695
快樂	-10.7699
吽吽	-10.7702
拆起	-10.7706
杏人	-10.7707
泰山	-10.7726
太衝	-10.7726
湯治小兒	-10.7729
如梧子	-10.7743
反覆	-10.7744
桂枝湯	-10.7746
消魔	-10.7752
流霞	-10.7777
天君言	-10.7785
凢婦人	-10.7818
妻男	-10.7822
幽冥	-10.7843
煑取五	-10.7875
姹	-10.7903
調塗	-10.7915
空心服	-10.7919
姜汁	-10.793
叁	-10.7937
痙	-10.7937
㿗	-10.7939
奉北帝敕	-10.7943
蝱蟲	-10.7944
蕪荑	-10.7946
噠	-10.7946
猫	-10.7946
烏賊骨	-10.7948
䕡茹	-10.7949
藹	-10.7949
葫	-10.7949
薏苡仁	-10.7949
野葛	-10.7951
稠	-10.7951
椀	-10.7952
衞	-10.7953
胥	-10.7956
蛤	-10.7956
蒼术	-10.7956
勑煞攝	-10.7957
夾	-10.7958
巔	-10.7958
肓	-10.7959
搬	-10.7959
瘤	-10.796
牟	-10.796
外臺云	-10.796
喆	-10.796
絃	-10.796
咬	-10.7961
羞	-10.7961
蜂房	-10.7961
奮	-10.7961
董	-10.7963
吒唎	-10.7963
邁	-10.7964
啄	-10.7964
昊	-10.7964
蔬	-10.7965
復六十日	-10.7966
讎	-10.7966
稚	-10.7966
諭	-10.7967
躋	-10.7967
羨	-10.7968
雷雨	-10.7969
挈	-10.7972
忍辱	-10.7973
滿庭芳	-10.7975
較	-10.7976
誨	-10.7977
冠帶	-10.7982
廕	-10.7982
食頃	-10.7982
氤氲	-10.7985
羽蓋	-10.7988
瓊林	-10.7988
貧窮	-10.7989
捉住	-10.799
黑豆	-10.7992
顯現	-10.7994
大戟	-10.7995
煎取三升	-10.7999
補益	-10.8004
别研	-10.8006
江海	-10.8011
固固	-10.8015
當歸桂心	-10.8015
端坐	-10.8039
神人言	-10.804
侍香	-10.8041
右五味㕮咀以水	-10.8041
金鼎	-10.8043
稍加至	-10.805
右四味治下篩	-10.808
斗煑取	-10.8114
雲霧	-10.8138
等分爲末	-10.8142
足太陽	-10.8216
律令勑	-10.8225
霆	-10.8228
天天王姓	-10.8234
劄	-10.8248
俞	-10.8248
柏子仁	-10.8252
殭	-10.8256
薤	-10.8256
辛夷	-10.8259
足厥陰	-10.8259
腠理	-10.8261
溶	-10.8263
萎	-10.8263
姚	-10.8264
獅	-10.8264
噦	-10.8266
鹿茸	-10.8266
麻油	-10.8266
藿香	-10.8267
罐	-10.8268
窺	-10.827
倒顛	-10.8272
垣	-10.8273
凋	-10.8274
吿	-10.8276
樞機	-10.8277
汗不出	-10.8277
叫	-10.8277
翹	-10.8278
采	-10.8279
阜	-10.828
塵埃	-10.8281
門下獄	-10.8281
彦	-10.8282
塵寰	-10.8283
鬼臼	-10.8283
暈	-10.8285
孜	-10.8285
措	-10.8286
肉桂	-10.8287
無從得	-10.8287
密封	-10.8289
級	-10.8289
陛	-10.829
熟擣	-10.8292
乾嘔	-10.8294
右六味㕮咀以	-10.8297
億劫	-10.8297
針刺	-10.8299
輕慢	-10.8299
貧賤	-10.8299
肩背	-10.83
支滿	-10.8306
猪肉	-10.8311
浸一宿	-10.8315
恣意	-10.8315
回首	-10.8319
大聖衆	-10.8326
以水二斗	-10.8328
卷之七	-10.833
右十二味	-10.8338
胡麻	-10.834
崑崙山	-10.8343
服一劑	-10.8355
乳癰	-10.8367
百餘	-10.837
故能成	-10.837
右十一味	-10.8401
變怪	-10.8425
十八銖	-10.8436
甘露	-10.848
雷部	-10.8485
小便難	-10.8505
戟	-10.8549
絹袋盛	-10.8578
匕	-10.8579
遇重陽	-10.858
槌	-10.8582
狼毒	-10.8582
痼	-10.8583
代赭	-10.8585
鴨	-10.8586
右十八味	-10.8586
踵	-10.8587
筵	-10.8587
淡竹葉	-10.8587
五加皮	-10.8589
換	-10.8589
聻	-10.859
簾	-10.8591
璫	-10.8591
姙娠	-10.8591
棋	-10.8592
艷	-10.8592
戚	-10.8593
已知之矣	-10.8594
衲	-10.8594
竝	-10.8594
鬧	-10.8594
癭	-10.8595
茟	-10.8595
歲兒	-10.8595
欠	-10.8596
毀	-10.8596
龐	-10.8596
掘	-10.8597
嬰姹	-10.8598
匱	-10.8598
抄	-10.8599
蒂	-10.86
熊	-10.8601
槁	-10.8601
頃刻	-10.8603
帳	-10.8603
指揮	-10.8603
寓	-10.8604
緒	-10.8606
嚤	-10.8607
淮	-10.8609
恭敬	-10.8609
一卷上清	-10.8611
俾	-10.8613
棗膏	-10.8614
猿馬	-10.8615
各從其	-10.8617
輪回	-10.8619
搽	-10.862
此其致也	-10.8621
舜	-10.8624
以類相從	-10.8624
守一之法	-10.8626
依舊	-10.8634
遇風仙	-10.8636
展轉	-10.8641
畢竟	-10.8644
愚迷	-10.8647
每服三錢	-10.868
紫微宫	-10.8696
烈火	-10.8751
服三合	-10.8795
燦燦	-10.8804
桂枝	-10.8823
者見世	-10.8874
皇道君	-10.8876
竹筒	-10.8888
大將軍敕	-10.8895
秃	-10.8908
筒	-10.8914
叟	-10.8921
蝸	-10.8921
穰	-10.8922
熒惑	-10.8923
澡	-10.8924
癃	-10.8924
虐	-10.8924
伎	-10.8924
燦爛	-10.8925
涼	-10.8926
挂	-10.8926
磬	-10.8927
兀兀	-10.8927
漉	-10.8928
揩	-10.8929
悠	-10.8929
嚩	-10.8929
狡	-10.893
允	-10.893
環墻	-10.893
衫	-10.8931
綴	-10.8931
獵	-10.8932
縹	-10.8932
枸杞根	-10.8932
地祇	-10.8933
牡丹皮	-10.8934
戹	-10.8934
俏	-10.8935
木蘭	-10.8935
壑	-10.8936
慚	-10.8936
罕	-10.8937
罏	-10.8937
至心稽首	-10.8937
倣	-10.8939
矢	-10.894
玩	-10.894
蹈	-10.8942
虎狼	-10.8943
偉	-10.8944
慳貪	-10.8947
城郭	-10.8947
天猷	-10.8947
俄	-10.8951
桃花	-10.8952
右十二味㕮咀以水一斗	-10.8955
馭	-10.8956
㤥	-10.8965
羊腎	-10.8965
危亡	-10.8968
安穩	-10.8968
坎離	-10.8969
腎輸	-10.897
尺澤	-10.8971
周旋	-10.8972
福慶	-10.8977
祖宗	-10.8979
妄想	-10.898
甲申	-10.8983
黙念	-10.8992
産婦	-10.9004
登州	-10.9019
服二合	-10.9188
月十五日	-10.9196
君頭建	-10.9198
顆	-10.9218
光射	-10.923
榆	-10.9235
疹	-10.925
肢	-10.9253
蠻	-10.9255
泄痢	-10.9256
羌活	-10.9258
奈	-10.926
蹉	-10.9261
留人門	-10.9265
璇璣	-10.9265
澗	-10.9266
雹	-10.9266
蝎	-10.9267
窠	-10.9267
芋	-10.9268
屠	-10.9268
悠悠	-10.9269
無罣礙	-10.9271
協	-10.9271
儉	-10.9271
男左女右	-10.9271
昂	-10.9271
斡旋	-10.9272
亟	-10.9272
猛烈	-10.9272
佗	-10.9273
蘿	-10.9273
咱	-10.9273
上相青童君	-10.9275
抹	-10.9275
屯	-10.9275
寇	-10.9277
𣑽	-10.9277
桓	-10.9278
宥	-10.9279
厮	-10.9279
慄	-10.9279
樊	-10.928
咳逆	-10.9281
蔡	-10.9281
之例是也	-10.9281
勵	-10.9282
地軸	-10.9283
手少陰	-10.9284
邇	-10.9284
毬	-10.9284
架	-10.9284
三天正法	-10.9285
萬二千國	-10.9285
太倉	-10.9286
噉	-10.9286
熾	-10.9286
銘	-10.929
魚際	-10.929
憎愛	-10.9294
幾箇	-10.9296
柰何	-10.9297
姹嬰	-10.9318
做箇	-10.9319
太極真人曰修靈寳飛行三界之道當	-10.9319
右六味治下篩	-10.9321
實核	-10.9328
千杵	-10.9336
取北炁	-10.9468
香爐	-10.9477
加至二十丸	-10.9543
䵟	-10.9594
瘢	-10.9603
瓠	-10.9606
猪蹄	-10.9607
白石脂	-10.9608
蒴藋	-10.9608
薩	-10.961
魈	-10.9611
糜	-10.9611
醇	-10.9613
捺	-10.9613
蕤	-10.9614
狼牙	-10.9616
分四服日三夜一	-10.9619
右八味㕮咀以水一斗	-10.9619
旋復花	-10.962
甆	-10.9621
白芨	-10.9622
痹	-10.9623
分爲三服	-10.9623
笠	-10.9625
飆	-10.9625
夾脊	-10.9626
餳	-10.9626
傚	-10.9627
涓	-10.9628
訾	-10.9628
不拘時	-10.9628
耍	-10.9628
員	-10.9629
變化七十四方	-10.9629
鞅	-10.9629
疔瘡	-10.9629
詛	-10.9629
敕煞攝	-10.963
竹瀝湯	-10.9631
宿字君	-10.9631
哮吼	-10.9631
麾	-10.9631
冬瓜	-10.9632
鐺	-10.9632
飡	-10.9633
宇宙	-10.9634
吊	-10.9634
飛行羽經	-10.9634
迦	-10.9635
敵	-10.9636
哽	-10.9638
亢	-10.9638
緘	-10.9639
棺	-10.9639
仇	-10.9642
三天玉童	-10.9642
掠	-10.9642
迭	-10.9642
隴州	-10.9643
故古者聖賢	-10.9644
圈	-10.9644
煌	-10.9646
玉珮	-10.9647
毛髮	-10.9647
霄漢	-10.9649
刊	-10.965
丙午	-10.9651
)▲(	-10.9653
窒	-10.9653
碧霄	-10.9656
朝夕	-10.9656
聽予	-10.966
江河	-10.9675
宿上治	-10.9702
人民萬物	-10.9704
千丈	-10.9743
速降臨	-10.9745
右十五味	-10.9758
重陽師父	-10.9802
塗之又方	-10.985
寂寥	-10.9904
婦人産後	-10.9949
耆	-10.9976
燒作灰	-10.998
堪歎	-10.9982
何首烏	-10.9982
凛	-10.9987
無上祕要卷之	-10.9988
鍜鍊	-10.9989
癩	-10.9989
右十味㕮咀以水一斗	-10.9989
醴泉	-10.9992
蠅	-10.9992
墳	-10.9993
蜚	-10.9993
奄	-10.9994
喎	-10.9996
如彈丸	-10.9997
摶	-10.9998
厠	-10.9998
雞屎	-10.9999
籬	-11
雲朋霞友	-11.0003
琢	-11.0003
副帥	-11.0004
瞑目	-11.0005
其支者	-11.0005
翛然	-11.0005
䟽	-11.0007
鴈	-11.0008
皇后	-11.001
隙	-11.001
煩疼	-11.0012
圎	-11.0013
懺	-11.0013
庫	-11.0013
赴蓬萊	-11.0014
惕	-11.0015
禾	-11.0016
七祖父母	-11.0016
翊聖	-11.0017
濕痺	-11.0018
𥘉	-11.0018
辰戌	-11.0019
動揺	-11.0021
參差	-11.0021
琅玕	-11.0022
腰脚	-11.0026
渚	-11.0026
洪波	-11.003
者取訣於	-11.0047
祥瑞	-11.0149
以水七升煑取三升	-11.0224
者早已成真道	-11.0255
服七丸	-11.0257
這般	-11.0332
方寸七日三	-11.0344
聰	-11.0349
足大趾	-11.0356
徃	-11.0357
飛天神王	-11.0359
痂	-11.0372
欵冬花	-11.0373
猥	-11.0373
防葵	-11.0374
吻	-11.0374
𡅗	-11.0374
筠	-11.0376
輭	-11.0376
顱	-11.0376
囉哩㖫哩囉㖫	-11.0377
臼	-11.0377
熱熱則	-11.0377
謌	-11.0378
魘	-11.0378
帽	-11.0379
匡	-11.0379
齗	-11.0379
恥	-11.0379
江湖	-11.0379
魒	-11.038
潑	-11.038
肘後方云	-11.038
叮	-11.038
紏	-11.0382
馥郁	-11.0382
一日一夜	-11.0383
頽	-11.0383
匙	-11.0383
嫩	-11.0383
㦸	-11.0383
眄	-11.0384
囬	-11.0384
蟹	-11.0385
嶂	-11.0385
盻	-11.0386
足陽明	-11.0386
鷹	-11.0386
陌	-11.0387
煖	-11.0387
鍛鍊	-11.039
墮落	-11.0391
磚	-11.0391
年月日時	-11.0391
譜	-11.0392
評	-11.0393
惰	-11.0393
慨	-11.0394
秦川	-11.0394
客忤	-11.0395
插	-11.0397
裴	-11.0397
三元玉檢	-11.0397
松峰	-11.0397
該	-11.0398
噏	-11.0399
詰	-11.0399
財貨	-11.0401
敏	-11.0401
貟	-11.0403
憫	-11.0404
嗌	-11.0404
陋	-11.0405
牽牛	-11.0405
馳騁	-11.0411
券	-11.0415
區	-11.0425
以水七升煑	-11.0575
右十五味㕮咀	-11.0613
㕮咀以水五升煑取二升	-11.0614
右㕮咀每服	-11.068
三上香	-11.0701
今報其	-11.0721
呪曰唵	-11.0725
擂	-11.0759
贰	-11.076
蒺藜子	-11.0763
胳	-11.0764
者死病人	-11.0765
商陸	-11.0765
懊	-11.0769
尻	-11.077
雷霆都司	-11.0771
煎取一升	-11.0773
治虛勞	-11.0773
援	-11.0775
哪	-11.0777
拌	-11.0777
覆取汗	-11.0777
颺	-11.0779
椿	-11.0779
姜三片	-11.0779
茹	-11.0779
錐	-11.0781
癰疽發背	-11.0781
菉豆	-11.0781
泪	-11.0781
葷	-11.0781
糯米	-11.0781
咭	-11.0782
秉	-11.0782
儘	-11.0783
曽	-11.0783
拂袖	-11.0783
搨	-11.0783
暨	-11.0784
頸項	-11.0784
哆	-11.0785
仆	-11.0786
軒轅	-11.0786
內	-11.0786
凑	-11.0786
苛	-11.0786
鎚	-11.0786
遨遊	-11.0787
茫茫	-11.0787
紐	-11.0787
宦	-11.0787
貸	-11.0789
髣	-11.0789
剥	-11.079
汞鉛	-11.079
販骨	-11.0791
腿	-11.0792
韜	-11.0794
迥	-11.0794
琉	-11.0795
綸	-11.0795
幕	-11.0795
閏	-11.0796
伶	-11.0796
叩頭搏頰各	-11.0796
以水六升煑取	-11.0797
祅	-11.0798
乹	-11.0799
瑕	-11.0799
伺	-11.0799
拜長跪願曰	-11.08
熙	-11.0801
妊	-11.0801
有德之君	-11.0803
優劣	-11.0807
治上應	-11.0811
不可思議	-11.0814
酒服二十丸日	-11.0815
秀才	-11.0818
所以者何	-11.082
貧富	-11.0822
馬蹄	-11.0962
卷之三十	-11.1017
北酆	-11.1109
椎下兩傍各一寸半	-11.1153
地膚子	-11.1177
跟	-11.1182
瓜蒂	-11.1186
肪	-11.1188
百草霜	-11.119
右九味㕮咀以水一斗	-11.1191
右十七味	-11.1191
荆瀝	-11.1191
淩	-11.1192
酆	-11.1192
誑	-11.1193
鳩尾	-11.1193
蔚	-11.1193
煑取三升分四服	-11.1193
惚	-11.1194
幅	-11.1194
卉	-11.1195
盂	-11.1195
奏地仙得道上學之人言名於四天之王	-11.1195
蓑	-11.1196
濱	-11.1197
縷	-11.1197
徐徐	-11.1198
弼	-11.1198
南極上元君	-11.1199
超彼岸	-11.1201
愼之愼之	-11.1202
纓	-11.1203
丹陽次韻	-11.1203
邦	-11.1203
另	-11.1203
頒	-11.1204
鈔	-11.1204
鶯	-11.1205
十二時中	-11.1205
憩	-11.1206
裔	-11.1206
欄	-11.1206
斟酌	-11.1208
旅	-11.1209
黄鶴洞中仙	-11.121
鑽	-11.121
紹	-11.1212
顚倒	-11.1212
焦枯	-11.1216
汎	-11.1216
賁	-11.1217
鈍	-11.1218
臨泣	-11.1218
爰	-11.1218
刄	-11.1219
揖	-11.1219
内傳云	-11.1221
蔕	-11.1222
上德之君	-11.1229
昇玄經云	-11.123
瘈瘲	-11.1238
共成一	-11.1243
莊嚴	-11.1254
大赤天	-11.129
西江月	-11.1608
汾	-11.1614
甦	-11.1621
蔞	-11.1622
穗	-11.1622
麥糵	-11.1624
臑	-11.1626
宛宛中	-11.1626
躑躅	-11.1628
如棗核大	-11.1628
樵	-11.1629
粟米	-11.1629
淬	-11.163
右七味㕮咀以水一斗	-11.1631
夏至之日	-11.1632
悮	-11.1632
踪	-11.1632
住行坐卧	-11.1632
小便赤黄	-11.1633
傻	-11.1633
賽	-11.1633
冬至之日	-11.1634
濫	-11.1636
蓼	-11.1636
鳩	-11.1636
忙忙	-11.1636
魁𩲃𩵄䰢魓𩳐魒	-11.1636
酒服方寸匕日三	-11.1637
功成行滿	-11.1638
一輪明月	-11.1639
温酒調下	-11.1639
歴	-11.164
急急如律令右呪畢	-11.164
鋭	-11.164
怛	-11.164
三萬六千	-11.1642
竟其天年	-11.1643
釘	-11.1643
誌	-11.1643
宂	-11.1644
馨	-11.1644
綫	-11.1645
誹謗	-11.1646
竇	-11.1647
狹	-11.1647
賁豚	-11.1648
道學傳第	-11.1648
原赦	-11.1651
垂拱	-11.1651
動一止	-11.1654
口訣云是	-11.1656
耽	-11.1657
悌	-11.1659
善哉子之言也	-11.1659
原缺	-11.1659
碑	-11.1659
鏤	-11.1662
承負之厄	-11.1675
逍遥坦蕩	-11.1768
取二升分三服	-11.1919
聦	-11.2072
春分之日	-11.2076
右十九味	-11.2076
炓	-11.2077
萍	-11.2077
取七升	-11.208
大小便不通	-11.208
閼	-11.2081
粱	-11.2081
零陵香	-11.2081
臓	-11.2082
秦椒	-11.2083
寵辱	-11.2084
陽陵泉	-11.2084
瘴	-11.2085
𢬵	-11.2085
免輪回	-11.2086
勦	-11.2087
咭唎	-11.2087
搶	-11.2089
鍋	-11.2089
募	-11.209
右手劒訣	-11.2091
娱	-11.2093
詢	-11.2094
恭惟某	-11.2095
么	-11.2095
陜	-11.2095
驟	-11.2098
恍	-11.2098
镇	-11.2098
鳳凰	-11.21
缾	-11.21
建中湯	-11.21
穆	-11.21
憚	-11.2101
𠔃	-11.2102
鳯	-11.2102
儲	-11.2104
拄	-11.2104
憲	-11.2105
諫而不從因而消亡矣	-11.2106
鈺	-11.2106
稷	-11.2106
扉	-11.2107
諷	-11.2108
猖	-11.2108
戍	-11.2108
決	-11.2109
太霄琅書	-11.2114
稜	-11.2117
宫右在	-11.2148
糵	-11.2538
哩囉	-11.254
嚧	-11.2542
蚘	-11.2545
罪學上道	-11.2548
麝	-11.2549
煎三上三下	-11.2549
別	-11.2549
燃	-11.2551
榆白皮	-11.2553
寰	-11.2553
楮	-11.2553
酪	-11.2554
痕	-11.2554
襖	-11.2554
嚙	-11.2554
立夏之日	-11.2554
羶	-11.2554
芒硝	-11.2555
焚香關召	-11.2555
魑	-11.2555
襲	-11.2556
流金火鈴	-11.2557
黜	-11.2558
立冬之日	-11.2559
悦	-11.2561
胻	-11.2561
挹	-11.2562
乍寒乍熱	-11.2562
葩	-11.2563
霽	-11.2563
啞	-11.2563
怱	-11.2564
立春之日	-11.2564
苑	-11.2564
擦	-11.2564
勳	-11.2565
菩提	-11.2567
嶮	-11.2567
昏昏默默	-11.2568
捏	-11.2568
抗	-11.2569
鵬	-11.2569
憒憒	-11.2569
寞	-11.257
諳	-11.257
翮	-11.2571
姪	-11.2571
粲	-11.2571
今故燒香自歸	-11.2572
鵲	-11.2572
隊	-11.2572
妾	-11.2573
暘谷	-11.2573
以手按	-11.2573
踴	-11.2573
岫	-11.2574
外國放品	-11.2575
帙	-11.2577
闔	-11.2579
蝶	-11.2579
承負之責	-11.2579
棟	-11.2582
不驕樂天	-11.2582
秪	-11.2582
葆	-11.2582
寔	-11.2583
䘮	-11.2584
豐隆	-11.2584
遽	-11.2584
孕婦	-11.2585
貽	-11.2587
宏	-11.2587
書辭而行之即太平矣	-11.2589
文相似各從其俗記吾	-11.2589
鉤	-11.2591
諮	-11.2603
是癇候	-11.2615
閃電	-11.2623
噤	-11.3023
穴遠近法第	-11.3029
王不留行	-11.3039
夾縛	-11.304
楓	-11.3044
薔薇根	-11.3045
錦飛裙	-11.3047
蔓	-11.3049
葦	-11.305
舌拄上腭	-11.305
烜	-11.305
蝟	-11.3051
白頭翁	-11.3056
逗	-11.3056
駃	-11.3056
碾	-11.3058
虢	-11.3058
不嗜食	-11.3058
芬芳	-11.306
金間隔	-11.3061
叩齒三十六通	-11.3061
摻	-11.3061
黄氣陽精	-11.3061
癥瘕	-11.3062
飴糖	-11.3062
太素三元君	-11.3062
澄湛	-11.3062
嘶	-11.3063
斂	-11.3063
薊	-11.3063
馥	-11.3064
溏	-11.3065
娘	-11.3065
三九素語	-11.3065
斡	-11.3066
長一丈	-11.3066
猴	-11.3066
跋	-11.3066
皎潔	-11.3068
角弓反張	-11.3068
簫	-11.3068
沓	-11.3068
犢	-11.3069
撚	-11.307
删	-11.307
曇	-11.307
籟	-11.307
庇	-11.3071
寤	-11.3071
撇	-11.3072
衷	-11.3073
掇	-11.3073
幢	-11.3073
鉞	-11.3073
麩	-11.3073
賒	-11.3073
趓	-11.3074
嵗	-11.3074
䖏	-11.3075
郵	-11.3076
黯	-11.3076
皈	-11.3077
逋	-11.3077
蚌	-11.3078
複	-11.3079
儻	-11.3081
汨	-11.3082
峻	-11.3082
輟	-11.3082
肇	-11.3085
恕	-11.3086
𩔖	-11.309
諍	-11.3094
顖	-11.3565
皰	-11.3567
鱉	-11.3568
腨	-11.3575
銚	-11.3576
膳	-11.3578
瞖	-11.358
皺	-11.358
萆	-11.3583
嵐	-11.3583
槎	-11.3583
扁	-11.3583
螂	-11.3584
悽	-11.3585
笻	-11.3586
檗	-11.3586
禧	-11.3586
刳	-11.3586
溜	-11.3587
綽	-11.3588
喗	-11.3588
膊	-11.3588
塡	-11.359
攘	-11.359
逞	-11.359
氛	-11.359
螫	-11.3591
瞑	-11.3591
輥	-11.3592
茆	-11.3592
傑	-11.3592
煆	-11.3593
毗	-11.3593
韶	-11.3593
讒	-11.3593
奎	-11.3594
陟	-11.3594
戶	-11.3596
扣	-11.3597
貢	-11.3598
跛	-11.3599
甕	-11.3599
憤	-11.3599
吃	-11.3601
蠢	-11.3601
凄	-11.3601
驂	-11.3601
踰	-11.3602
稼	-11.3603
郝	-11.3603
婢	-11.3603
竺	-11.3603
苞	-11.3604
蚤	-11.3605
饌	-11.3605
彎	-11.3607
莽	-11.3608
冝	-11.3611
臉	-11.3612
儛	-11.3612
紗	-11.3614
忝	-11.3615
笞	-11.3623
刷	-11.363
跂	-11.3638
溲	-11.4123
悄	-11.4123
喙	-11.4126
癉	-11.4129
軸	-11.4135
嘲	-11.4138
釐	-11.4139
𩵄	-11.4141
揀	-11.4141
鋼	-11.4141
檻	-11.4142
魍	-11.4143
娠	-11.4143
闃	-11.4144
疆	-11.4145
虬	-11.4147
顏	-11.4147
蜴	-11.4147
塚	-11.4147
炅	-11.4147
斫	-11.4148
咀	-11.4148
跌	-11.4149
秩	-11.4149
巒	-11.4149
徊	-11.4149
硏	-11.4149
沽	-11.415
亞	-11.4151
兜	-11.4151
襯	-11.4152
闌	-11.4152
皎	-11.4152
騾	-11.4152
蘧	-11.4155
羲	-11.4157
贍	-11.4159
壼	-11.4159
渘	-11.416
䕶	-11.4161
儼	-11.4161
瘈	-11.4161
潘	-11.4162
纂	-11.4163
氐	-11.4165
徴	-11.4167
倡	-11.4168
閒	-11.4168
鴉	-11.4169
翰	-11.4171
縵	-11.4175
牝	-11.4184
侮	-11.4195
歧	-11.4705
莎	-11.4716
掀	-11.4717
霖	-11.472
斟	-11.4722
黛	-11.4723
藕	-11.4724
䚴	-11.4725
趕	-11.4725
硯	-11.4726
塔	-11.4726
瘭	-11.4727
鄠	-11.4728
䰢	-11.4728
鏁	-11.4729
訛	-11.4731
笛	-11.4734
霐	-11.4735
謡	-11.4735
逾	-11.4736
靉	-11.4737
疣	-11.4737
概	-11.4738
阮	-11.4738
榴	-11.474
麒	-11.474
氈	-11.4741
豚	-11.4741
濼	-11.4741
繆	-11.4744
哲	-11.4744
墉	-11.4746
嵛	-11.4746
屨	-11.4749
檜	-11.4749
櫛	-11.4749
鮑	-11.4751
闚	-11.4752
衍	-11.4757
峙	-11.4758
僅	-11.4759
榻	-11.4763
愉	-11.477
涯	-11.5201
猬	-11.5329
雚	-11.5332
䖍	-11.5333
鮓	-11.5335
贏	-11.5336
濰	-11.5341
蠲	-11.5342
憒	-11.5343
羈	-11.5343
芩	-11.5344
覃	-11.5346
瀾	-11.5347
啜	-11.5347
籌	-11.5347
菌	-11.5349
課	-11.5349
萼	-11.535
鑚	-11.5351
訝	-11.5351
醺	-11.5351
怯	-11.5352
拏	-11.5352
妒	-11.5352
酩	-11.5352
筯	-11.5354
笈	-11.5355
赶	-11.5357
培	-11.5358
鷰	-11.5358
殞	-11.5359
鍛	-11.5359
璞	-11.536
瞽	-11.536
綾	-11.536
幘	-11.5362
壤	-11.5362
珮	-11.5362
幃	-11.5362
氷	-11.5363
沌	-11.5363
橘	-11.5364
塘	-11.5364
窻	-11.5365
僚	-11.5365
韋	-11.5365
薺	-11.5365
窄	-11.5365
皤	-11.5366
詈	-11.5367
寛	-11.5367
閬	-11.5368
稔	-11.5368
吝	-11.5368
聆	-11.5369
葺	-11.537
杼	-11.5373
袴	-11.5373
臆	-11.5374
郁	-11.5375
曷	-11.5376
薛	-11.5376
畝	-11.5377
貲	-11.5377
棹	-11.5377
瞥	-11.5378
漓	-11.538
胤	-11.5382
塩	-11.5382
廊	-11.5384
攸	-11.5385
丫	-11.5386
嘈	-11.5386
姊	-11.5396
豕	-11.5398
瞿	-11.5401
賄	-11.5402
瘑	-11.5998
稻	-11.6006
魓	-11.6007
嘻	-11.6007
硝	-11.6008
鑊	-11.6008
䑕	-11.6009
髯	-11.6009
嚏	-11.601
醖	-11.6011
芤	-11.6012
荏	-11.6015
勁	-11.6015
奼	-11.6015
磁	-11.6015
恤	-11.6017
悒	-11.6018
楸	-11.6019
椹	-11.6019
潛	-11.6019
瘙	-11.602
堊	-11.602
魃	-11.602
霹	-11.602
惔	-11.6021
糠	-11.6021
随	-11.6021
雍	-11.6022
嚀	-11.6023
痱	-11.6024
販	-11.6024
迮	-11.6024
店	-11.6025
袂	-11.6026
聒	-11.6026
蘸	-11.6027
晒	-11.6027
繚	-11.6027
殢	-11.6028
罵	-11.6028
鶉	-11.6028
譴	-11.6029
姻	-11.6029
兢	-11.6029
燼	-11.6029
𩲕	-11.603
諕	-11.6031
甄	-11.6031
牋	-11.6032
𤓰	-11.6032
坼	-11.6033
蠡	-11.6033
闓	-11.6033
什	-11.6034
臥	-11.6034
螘	-11.6034
隋	-11.6035
剌	-11.6035
藝	-11.6036
鼔	-11.6036
亮	-11.6036
罣	-11.6037
呻	-11.6038
婚	-11.6038
腭	-11.6039
欹	-11.6039
俺	-11.604
綜	-11.604
鄷	-11.6041
昴	-11.6041
慙	-11.6042
簷	-11.6043
䄂	-11.6043
蟄	-11.6044
𧵥	-11.6044
杓	-11.6044
劃	-11.6045
蜃	-11.6046
迺	-11.6046
橐	-11.6048
播	-11.6048
讃	-11.6049
睦	-11.605
烘	-11.6053
耻	-11.6059
恊	-11.6061
妹	-11.6068
祇	-11.6629
䕡	-11.6718
叨	-11.6724
䖟	-11.6726
揭	-11.6726
𤮴	-11.6727
個	-11.6727
娥	-11.6729
恪	-11.6729
翟	-11.6729
槲	-11.673
朒	-11.673
鯉	-11.673
蘘	-11.6731
暝	-11.6731
篦	-11.6733
榖	-11.6733
噓	-11.6733
骭	-11.6734
鍼	-11.6734
燎	-11.6734
璨	-11.6735
佚	-11.6735
刹	-11.6735
梗	-11.6736
攤	-11.6736
䑛	-11.6736
僵	-11.6736
埃	-11.6737
甯	-11.6738
糟	-11.6738
捜	-11.674
岩	-11.674
吁	-11.674
𩲃	-11.674
咨	-11.6741
霑	-11.6742
蚊	-11.6743
嫁	-11.6744
酘	-11.6744
闢	-11.6744
咖	-11.6745
盥	-11.6745
懐	-11.6745
飬	-11.6746
蹇	-11.6746
嶒	-11.6746
珪	-11.6747
臛	-11.6747
趍	-11.6747
梭	-11.6747
笙	-11.6748
膂	-11.6748
螻	-11.6749
攬	-11.6749
址	-11.6749
懵	-11.675
梓	-11.675
摸	-11.6751
迤	-11.6751
鄽	-11.6752
齲	-11.6752
觧	-11.6752
湘	-11.6753
抜	-11.6753
彷	-11.6753
渭	-11.6754
舐	-11.6754
臧	-11.6756
衿	-11.6756
簞	-11.6757
褥	-11.6758
腮	-11.6759
畧	-11.6763
悼	-11.6763
暘	-11.6766
慊	-11.6771
斥	-11.6773
礫	-11.6774
龕	-11.678
羙	-11.6781
央	-11.7413
砒	-11.7477
硃	-11.7481
鹵	-11.7485
嵯	-11.749
㬋	-11.7494
箴	-11.7495
瘀	-11.7497
冽	-11.7498
痒	-11.7498
酣	-11.7499
跗	-11.75
祗	-11.7501
舂	-11.7501
肶	-11.7503
㗸	-11.7503
癧	-11.7503
匣	-11.7503
妥	-11.7505
鈆	-11.7506
懣	-11.7506
殫	-11.7507
礦	-11.7508
謔	-11.7509
皁	-11.7509
憔	-11.7509
仞	-11.751
懴	-11.751
辜	-11.751
枳	-11.751
汩	-11.7511
獺	-11.7511
辣	-11.7512
唳	-11.7513
釵	-11.7513
哦	-11.7513
寮	-11.7514
轅	-11.7515
咤	-11.7515
忖	-11.7515
膨	-11.7517
鎔	-11.7518
榭	-11.7518
帕	-11.7519
槃	-11.7519
攅	-11.7519
芎	-11.7519
妓	-11.7519
鳧	-11.752
悵	-11.7521
鎗	-11.7522
矇	-11.7522
勲	-11.7523
邵	-11.7523
顙	-11.7524
擅	-11.7524
沼	-11.7525
曩	-11.7526
増	-11.7526
巷	-11.7526
惓	-11.7527
鞍	-11.7527
疵	-11.7528
棒	-11.7528
彫	-11.7528
紈	-11.7528
潄	-11.7528
逰	-11.7529
創	-11.7529
𣲖	-11.7529
褒	-11.753
雉	-11.7531
垓	-11.7532
駢	-11.7533
諒	-11.7533
窩	-11.7533
熈	-11.7535
鈕	-11.7535
徙	-11.7536
叚	-11.7539
嵋	-11.7539
鼽	-11.754
藿	-11.7548
薇	-11.8299
麞	-11.8311
愊	-11.8313
唫	-11.8322
弔	-11.8324
秖	-11.8327
髃	-11.8331
唏	-11.8333
雯	-11.8333
鵠	-11.8335
蛸	-11.8336
咈	-11.8336
燾	-11.8336
涇	-11.8337
䐜	-11.8337
譁	-11.8338
惙	-11.8338
遨	-11.8338
钁	-11.8339
鳶	-11.8339
様	-11.834
瓷	-11.8341
㨿	-11.8341
飜	-11.8341
瑰	-11.8341
噙	-11.8341
瓮	-11.8341
檐	-11.8343
廛	-11.8343
箸	-11.8344
睹	-11.8344
偎	-11.8345
遯	-11.8345
躔	-11.8346
顚	-11.8346
齧	-11.8347
仔	-11.8348
哂	-11.8348
疋	-11.8348
槩	-11.8349
拊	-11.8349
茫	-11.835
紂	-11.835
菽	-11.8351
眺	-11.8351
樗	-11.8351
殄	-11.8352
罄	-11.8352
斃	-11.8352
徨	-11.8352
鷓	-11.8352
倪	-11.8352
澶	-11.8352
桶	-11.8352
踞	-11.8352
欵	-11.8353
闘	-11.8353
倘	-11.8354
朕	-11.8354
褁	-11.8356
梟	-11.8356
玷	-11.8356
糝	-11.8357
牓	-11.8358
咍	-11.8358
矩	-11.836
姬	-11.836
倐	-11.8361
諂	-11.8361
飼	-11.8361
崆	-11.8362
廳	-11.8362
箱	-11.8363
甌	-11.8363
袁	-11.8363
絕	-11.8364
瑛	-11.8365
胯	-11.8365
嗷	-11.8366
捩	-11.837
析	-11.8371
歆	-11.8372
蠒	-11.8374
搐	-11.8376
滛	-11.8377
矛	-11.8378
歘	-11.9216
捌	-11.9222
䧺	-11.9225
踢	-11.9227
菩	-11.9227
啡	-11.9228
皴	-11.9231
沿	-11.9231
瘲	-11.9234
胛	-11.9235
椽	-11.9235
躄	-11.9236
朦	-11.9236
堤	-11.9236
囓	-11.9237
虵	-11.9237
旂	-11.9237
賾	-11.9238
虱	-11.9238
䧟	-11.9239
竪	-11.924
蓐	-11.924
轂	-11.924
㖿	-11.924
雁	-11.9241
芃	-11.9241
碣	-11.9242
廵	-11.9244
賛	-11.9244
黶	-11.9245
箍	-11.9246
棚	-11.9246
摺	-11.9246
筌	-11.9246
瓣	-11.9246
愠	-11.9249
冢	-11.9249
駒	-11.9249
𨼆	-11.9249
璋	-11.925
湊	-11.9251
痟	-11.9251
誣	-11.9251
揉	-11.9252
軻	-11.9252
渟	-11.9252
暎	-11.9253
絓	-11.9253
炳	-11.9253
𩲓	-11.9253
驪	-11.9253
鄒	-11.9254
芪	-11.9254
瘠	-11.9254
騶	-11.9255
燔	-11.9255
呌	-11.9256
鸛	-11.9256
嘿	-11.9257
璈	-11.9257
挨	-11.9258
臏	-11.9258
灧	-11.9259
蕉	-11.9259
⬤	-11.926
瘂	-11.926
媒	-11.9261
茋	-11.9261
稟	-11.9262
踊	-11.9262
䭀	-11.9262
莧	-11.9263
纛	-11.9263
叵	-11.9264
慰	-11.9264
彀	-11.9265
邃	-11.9265
匹	-11.9265
掞	-11.9265
痓	-11.9266
陞	-11.9266
卞	-11.9266
帷	-11.9267
饗	-11.9267
虻	-11.9267
灣	-11.9268
伫	-11.9268
䏶	-11.9272
巿	-11.9274
顴	-11.9274
蓍	-11.9274
悃	-11.9275
笋	-11.9277
蝨	-11.9281
舄	-11.9282
拉	-11.9283
航	-11.9284
渣	-11.9285
懲	-11.9286
𨽻	-11.9289
骰	-11.9292
俛	-12.0212
萹	-12.022
痘	-12.0222
靨	-12.0223
盼	-12.0224
揣	-12.0227
獰	-12.023
炬	-12.023
螋	-12.0231
鬾	-12.0233
猘	-12.0234
薏	-12.0236
兖	-12.0238
沁	-12.0239
烙	-12.024
詭	-12.024
靠	-12.024
搭	-12.0241
咜	-12.0242
侗	-12.0243
襪	-12.0244
漕	-12.0245
芬	-12.0245
劾	-12.0246
浦	-12.0246
慳	-12.0247
漲	-12.0247
仵	-12.0247
峭	-12.0248
蘚	-12.0248
爕	-12.0249
蛙	-12.025
搖	-12.025
晉	-12.0251
滂	-12.0251
袐	-12.0251
砌	-12.0251
鑰	-12.0252
紿	-12.0252
蓊	-12.0254
贅	-12.0254
崐	-12.0254
讁	-12.0255
肱	-12.0255
澈	-12.0255
遄	-12.0255
謳	-12.0255
閴	-12.0255
冩	-12.0255
錘	-12.0256
惒	-12.0257
撻	-12.0257
兠	-12.0258
浣	-12.0258
疇	-12.0258
僂	-12.0259
搦	-12.0259
㝷	-12.0259
摭	-12.0259
淑	-12.026
濬	-12.026
倖	-12.026
蛄	-12.026
焮	-12.026
殯	-12.0261
頼	-12.0261
㹠	-12.0261
崘	-12.0262
瞬	-12.0262
𥹋	-12.0262
飭	-12.0262
鷗	-12.0263
撙	-12.0263
刁	-12.0263
羌	-12.0263
粹	-12.0264
糲	-12.0264
犀	-12.0265
陡	-12.0266
怳	-12.0266
奬	-12.0266
挼	-12.0267
襄	-12.0268
閱	-12.0269
痠	-12.0269
犍	-12.0269
旭	-12.027
彤	-12.027
悚	-12.0271
潢	-12.0271
虜	-12.0271
懂	-12.0272
錚	-12.0272
嗇	-12.0273
翊	-12.0274
浹	-12.0274
註	-12.0276
狄	-12.0277
瘳	-12.0278
佃	-12.0281
娶	-12.0282
鍔	-12.0284
旃	-12.0286
蹙	-12.0288
詺	-12.029
殗	-12.0291
隳	-12.0296
昩	-12.03
鴟	-12.1319
壻	-12.1321
啒	-12.1326
餒	-12.1329
𥐻	-12.1329
菟	-12.133
麋	-12.1333
杆	-12.1334
碌	-12.1334
茸	-12.1341
匐	-12.1344
楝	-12.1345
苡	-12.1345
苔	-12.1346
鑠	-12.1348
潼	-12.1348
茗	-12.135
苧	-12.1351
嶠	-12.1351
驥	-12.1351
捋	-12.1351
磑	-12.1352
熖	-12.1352
孺	-12.1354
軋	-12.1354
羯	-12.1355
泓	-12.1355
髭	-12.1356
鱠	-12.1356
查	-12.1356
𨔼	-12.1357
鼕	-12.1357
簟	-12.1358
蹔	-12.136
蓽	-12.136
偽	-12.136
搥	-12.1361
恓	-12.1361
觴	-12.1361
豊	-12.1362
熳	-12.1362
璽	-12.1362
隘	-12.1363
績	-12.1363
妍	-12.1363
藩	-12.1364
蓂	-12.1364
煻	-12.1365
殁	-12.1365
鈐	-12.1365
芰	-12.1365
髏	-12.1365
姤	-12.1366
𣗳	-12.1367
寗	-12.1367
鞠	-12.1367
槽	-12.1367
駟	-12.1367
岱	-12.1367
竄	-12.1368
撈	-12.1368
栁	-12.1369
棕	-12.1369
巵	-12.1369
餞	-12.137
詶	-12.137
墀	-12.1371
盗	-12.1371
燁	-12.1371
颯	-12.1372
繋	-12.1372
掾	-12.1372
庖	-12.1372
狠	-12.1373
䐃	-12.1373
缸	-12.1373
蝗	-12.1373
簑	-12.1374
晷	-12.1375
閤	-12.1376
礪	-12.1376
儵	-12.1377
僣	-12.1377
閫	-12.1378
俓	-12.1378
陂	-12.1378
嚲	-12.1379
綦	-12.1379
邉	-12.138
瞤	-12.138
謄	-12.138
佯	-12.1381
訞	-12.1381
媚	-12.1381
懿	-12.1382
喑	-12.1382
遑	-12.1383
壟	-12.1383
孚	-12.1384
冑	-12.1384
鉅	-12.1384
衾	-12.1385
埪	-12.1385
釁	-12.1385
畦	-12.1387
賃	-12.1388
柿	-12.139
賡	-12.1393
崗	-12.1394
嗅	-12.1395
汴	-12.1399
碍	-12.1399
餉	-12.1403
齏	-12.1405
粃	-12.1426
蛔	-12.2561
肖	-12.2562
穊	-12.2569
糯	-12.2584
週	-12.2584
猷	-12.2584
嗏	-12.2584
撩	-12.2586
苽	-12.2586
膕	-12.2588
𠰢	-12.2589
糾	-12.2591
泮	-12.2593
丿	-12.2594
癎	-12.2595
㢘	-12.2597
𦆵	-12.2598
轝	-12.2599
戇	-12.2599
曄	-12.2599
羃	-12.2599
傘	-12.2599
械	-12.26
啹	-12.26
錄	-12.26
廪	-12.2601
縻	-12.2602
罹	-12.2602
嘍	-12.2604
茄	-12.2604
閲	-12.2604
𠺕	-12.2604
緬	-12.2605
騮	-12.2605
筍	-12.2605
樽	-12.2606
冕	-12.2607
偕	-12.2607
刼	-12.2608
虀	-12.2608
饙	-12.2608
岌	-12.2609
弃	-12.261
謐	-12.261
衹	-12.261
疱	-12.261
嵒	-12.2611
菘	-12.2612
丐	-12.2614
昬	-12.2614
笳	-12.2614
槨	-12.2614
軺	-12.2614
煇	-12.2615
怜	-12.2615
蘖	-12.2616
臊	-12.2616
斲	-12.2617
𩲸	-12.2617
㡌	-12.2617
鷇	-12.2617
暄	-12.2618
恱	-12.2618
涬	-12.2619
荄	-12.2619
屣	-12.2619
篋	-12.2619
諏	-12.2619
鉗	-12.262
謨	-12.262
僉	-12.2621
淄	-12.2622
鷺	-12.2622
盍	-12.2622
呮	-12.2623
洊	-12.2623
盪	-12.2623
芫	-12.2624
誼	-12.2625
惛	-12.2625
叹	-12.2625
淀	-12.2625
搆	-12.2625
綝	-12.2626
斕	-12.2626
鋤	-12.2626
骼	-12.2627
醪	-12.2627
朶	-12.2627
槍	-12.2627
爨	-12.2628
徼	-12.2628
耨	-12.2628
娉	-12.2629
朞	-12.2629
阡	-12.263
搓	-12.263
舛	-12.2631
㾬	-12.2631
欒	-12.2631
酹	-12.2632
劬	-12.2632
僊	-12.2632
饋	-12.2633
厦	-12.2633
轍	-12.2635
瘍	-12.2635
霎	-12.2637
擗	-12.2638
孛	-12.2638
賑	-12.2638
竦	-12.2638
儷	-12.2638
叶	-12.2638
牆	-12.2639
慼	-12.2639
駿	-12.2641
肴	-12.2641
曦	-12.2642
狩	-12.2642
笥	-12.2644
譏	-12.2645
圄	-12.2645
頡	-12.2653
帯	-12.266
臀	-12.3978
卹	-12.4001
满	-12.4006
鯁	-12.4008
霶	-12.4009
蛀	-12.4011
詫	-12.4016
償	-12.4018
亶	-12.4021
螢	-12.4022
匈	-12.4022
菓	-12.4023
滎	-12.4024
啘	-12.4024
赭	-12.4024
醯	-12.4025
靂	-12.4025
淸	-12.4026
麨	-12.4026
畿	-12.4026
匆	-12.4028
厢	-12.4028
擫	-12.4028
悖	-12.4028
喂	-12.4028
曈	-12.4029
僥	-12.403
洎	-12.4031
遘	-12.4032
櫻	-12.4033
鸕	-12.4033
晻	-12.4033
剜	-12.4033
罌	-12.4034
庾	-12.4034
姙	-12.4036
餚	-12.4036
珂	-12.4036
扎	-12.4036
澳	-12.4037
殂	-12.4037
窖	-12.4037
裾	-12.4037
𢖍	-12.4037
鵰	-12.4038
帆	-12.4038
湲	-12.4039
觥	-12.4039
悍	-12.4039
鶩	-12.4039
睿	-12.404
党	-12.4041
痣	-12.4041
貰	-12.4041
脘	-12.4041
竚	-12.4042
菲	-12.4042
謟	-12.4043
揜	-12.4043
糺	-12.4043
媾	-12.4044
𤑔	-12.4044
疃	-12.4044
桕	-12.4046
杞	-12.4046
嬴	-12.4046
臯	-12.4048
墅	-12.4048
恙	-12.4049
邯	-12.4049
燌	-12.4049
呉	-12.4049
慟	-12.4049
閨	-12.4049
𨦲	-12.4049
賫	-12.405
璣	-12.405
唆	-12.4051
爆	-12.4051
賂	-12.4052
藻	-12.4052
𠷈	-12.4052
摽	-12.4053
樟	-12.4053
𤷍	-12.4053
咦	-12.4054
喃	-12.4055
皋	-12.4055
爺	-12.4056
迄	-12.4056
潁	-12.4057
縉	-12.4057
覇	-12.4058
瞀	-12.4058
緇	-12.4059
巍	-12.406
撓	-12.4061
驎	-12.4061
旻	-12.4061
壠	-12.4062
笏	-12.4062
跧	-12.4063
紺	-12.4063
詒	-12.4063
迪	-12.4063
悛	-12.4063
剡	-12.4064
愴	-12.4064
稅	-12.4065
囿	-12.4065
擢	-12.4065
裒	-12.4065
嚞	-12.4065
瘁	-12.4066
筴	-12.4067
熒	-12.4068
吮	-12.4068
䢖	-12.4069
繕	-12.4069
𨵙	-12.4069
庠	-12.407
夸	-12.407
崛	-12.407
裕	-12.4072
瀑	-12.4072
腠	-12.4072
萃	-12.4073
窑	-12.4073
摹	-12.4074
迨	-12.4074
儕	-12.4075
沛	-12.4075
獠	-12.4075
渝	-12.4079
楹	-12.4081
朂	-12.4081
懆	-12.4088
醵	-12.409
彪	-12.4103
届	-12.4156
塜	-12.5659
茯	-12.5664
黧	-12.5666
碓	-12.5669
价	-12.5674
膾	-12.5674
屛	-12.5676
鑛	-12.568
癱	-12.568
騷	-12.5681
荅	-12.5681
萸	-12.5682
颭	-12.5683
蓆	-12.5686
机	-12.5687
鼉	-12.5687
粳	-12.5687
璇	-12.5689
攄	-12.569
紆	-12.569
甖	-12.569
靣	-12.5691
属	-12.5691
晅	-12.5692
鞶	-12.5692
綢	-12.5693
栰	-12.5695
纒	-12.5695
肫	-12.5696
柞	-12.5696
撤	-12.5696
藺	-12.5697
轆	-12.5697
犂	-12.5698
慣	-12.5698
餔	-12.5698
呾	-12.5699
譯	-12.5699
訥	-12.57
瀋	-12.57
瞰	-12.5701
欎	-12.5701
倨	-12.5702
穽	-12.5702
熠	-12.5703
泝	-12.5703
窘	-12.5703
弈	-12.5703
蠍	-12.5703
熁	-12.5704
唧	-12.5704
悁	-12.5704
霟	-12.5704
睫	-12.5705
筮	-12.5705
菱	-12.5705
擿	-12.5706
滲	-12.5706
収	-12.5706
荀	-12.5706
㬠	-12.5707
蔗	-12.5707
万	-12.5707
棊	-12.5707
眦	-12.5708
翎	-12.5708
隄	-12.5708
皚	-12.5708
𠸎	-12.5708
痴	-12.5708
琪	-12.5708
確	-12.5708
䙱	-12.5709
籜	-12.5709
苖	-12.5709
蹊	-12.571
隰	-12.571
堵	-12.571
汀	-12.5711
嶷	-12.5711
矮	-12.5711
芘	-12.5711
鬲	-12.5711
杪	-12.5711
銓	-12.5711
儸	-12.5712
愕	-12.5712
邂	-12.5712
邐	-12.5713
泒	-12.5713
閔	-12.5713
敖	-12.5715
迍	-12.5716
舅	-12.5716
謦	-12.5716
慱	-12.5716
蝀	-12.5717
嵎	-12.5717
拐	-12.5717
荻	-12.5718
霈	-12.5718
崞	-12.5718
瞞	-12.5718
隈	-12.5718
描	-12.5719
剗	-12.5719
荼	-12.5719
勺	-12.572
埏	-12.572
諺	-12.572
吠	-12.572
畋	-12.572
泆	-12.5721
霾	-12.5721
啗	-12.5721
彿	-12.5721
憊	-12.5722
蠧	-12.5722
罟	-12.5722
霳	-12.5722
幙	-12.5722
奠	-12.5723
燿	-12.5723
頥	-12.5725
义	-12.5725
鏗	-12.5726
需	-12.5726
怵	-12.5726
攛	-12.5727
嵓	-12.5727
冨	-12.5727
杉	-12.5727
呴	-12.5727
駙	-12.5728
謎	-12.5728
纍	-12.5728
塑	-12.5729
侈	-12.5729
涸	-12.5729
筲	-12.5729
詎	-12.573
桀	-12.5731
滕	-12.5731
溫	-12.5732
莭	-12.5732
紘	-12.5733
顒	-12.5733
顫	-12.5734
耄	-12.5734
饍	-12.5734
舎	-12.5735
紊	-12.5735
剃	-12.5736
藪	-12.5736
来	-12.5737
揆	-12.5737
峩	-12.5737
峽	-12.5738
芭	-12.5738
籥	-12.5739
蹲	-12.5739
綉	-12.5739
黠	-12.5741
捶	-12.5741
尪	-12.5742
憾	-12.5742
佇	-12.5743
礱	-12.5743
涵	-12.5743
怙	-12.5744
奧	-12.5745
罽	-12.5745
甎	-12.5747
彙	-12.5747
胄	-12.575
殟	-12.575
聶	-12.5751
綏	-12.5751
郜	-12.5761
吙	-12.5761
襆	-12.5772
俌	-12.5772
紵	-12.5796
扄	-12.5801
蛭	-12.7632
憧	-12.7658
貎	-12.7659
鐄	-12.7662
踒	-12.7667
熛	-12.767
穄	-12.767
齁	-12.7672
哮	-12.7673
焱	-12.7675
嫂	-12.7675
、	-12.7675
灘	-12.7678
彗	-12.7679
蟇	-12.7679
裸	-12.7679
坌	-12.7679
乂	-12.768
妳	-12.7684
茇	-12.7684
𩲁	-12.7685
痪	-12.7686
炕	-12.7686
鎧	-12.7687
茱	-12.7687
葈	-12.7687
蜉	-12.7687
距	-12.7688
鎊	-12.7688
𠂢	-12.769
㾦	-12.769
菡	-12.7691
繹	-12.7691
豸	-12.7692
糶	-12.7693
嚇	-12.7694
簸	-12.7694
掲	-12.7694
婉	-12.7696
睾	-12.7696
藋	-12.7696
咯	-12.7697
圜	-12.7699
犖	-12.77
姆	-12.77
蕷	-12.77
躑	-12.77
瑜	-12.77
篙	-12.7701
洮	-12.7701
蚪	-12.7702
謇	-12.7702
軾	-12.7702
沮	-12.7703
繭	-12.7703
蘋	-12.7703
墾	-12.7703
迓	-12.7703
鯤	-12.7703
糴	-12.7703
噬	-12.7704
湍	-12.7704
炲	-12.7705
玃	-12.7706
嘧	-12.7706
齦	-12.7706
寜	-12.7706
埿	-12.7706
巓	-12.7706
莢	-12.7707
誹	-12.7707
懌	-12.7707
淼	-12.7707
两	-12.7708
惆	-12.7709
厖	-12.7709
企	-12.771
垠	-12.771
箔	-12.771
渥	-12.7711
倩	-12.7711
翡	-12.7711
椅	-12.7711
諌	-12.7711
苒	-12.7713
桔	-12.7713
獐	-12.7713
醁	-12.7713
賸	-12.7713
緝	-12.7713
俻	-12.7713
沴	-12.7714
攖	-12.7715
臠	-12.7715
鐸	-12.7715
鏑	-12.7715
儂	-12.7716
鏳	-12.7716
敝	-12.7717
鋸	-12.7717
圏	-12.7718
鋅	-12.7718
隣	-12.7719
荔	-12.7719
凾	-12.772
渉	-12.7721
磐	-12.7721
圊	-12.7721
獬	-12.7721
靳	-12.7721
龔	-12.7722
冐	-12.7722
噪	-12.7722
舘	-12.7722
瀨	-12.7723
靊	-12.7723
胭	-12.7723
串	-12.7724
棠	-12.7724
檝	-12.7724
翦	-12.7724
蛆	-12.7725
皷	-12.7725
黿	-12.7725
㾓	-12.7725
閽	-12.7725
㓕	-12.7726
箒	-12.7726
𠑽	-12.7726
泳	-12.7726
諄	-12.7727
册	-12.7727
飱	-12.7727
鯢	-12.7728
淆	-12.7729
渇	-12.7729
醎	-12.7729
犒	-12.7729
塌	-12.7729
𠯐	-12.773
縞	-12.773
戢	-12.7731
淇	-12.7731
躅	-12.7731
馴	-12.7731
抬	-12.7732
剸	-12.7732
杲	-12.7732
晟	-12.7733
孳	-12.7733
戯	-12.7734
貺	-12.7734
榦	-12.7734
漾	-12.7734
湏	-12.7734
甞	-12.7734
蔵	-12.7736
覿	-12.7737
燧	-12.7737
髫	-12.7738
琰	-12.7738
瞠	-12.7739
鶚	-12.7739
脗	-12.774
繇	-12.774
彖	-12.774
綃	-12.774
曼	-12.7741
雩	-12.7741
湮	-12.7742
盎	-12.7742
𥬇	-12.7743
錡	-12.7743
庄	-12.7745
攧	-12.7745
鬍	-12.7745
胇	-12.7745
耎	-12.7746
黔	-12.7748
瑣	-12.7749
蚕	-12.7751
𢘆	-12.7752
屐	-12.7753
祁	-12.7757
咏	-12.7759
訊	-12.7761
蕊	-12.7761
蹌	-12.7764
蹶	-12.7766
詆	-12.7766
榛	-12.7767
輅	-12.7769
芻	-12.7769
譔	-12.7771
繪	-12.7781
㡧	-12.7835
胠	-13.0129
牯	-13.0132
瘃	-13.0132
𠲰	-13.0136
䜟	-13.0152
醅	-13.0161
姥	-13.0162
畹	-13.0165
剩	-13.0165
㾴	-13.0172
叠	-13.0173
譎	-13.0174
纜	-13.0176
倶	-13.0177
𠱸	-13.0177
厪	-13.0179
趄	-13.018
蕙	-13.0181
鬬	-13.0182
𨊧	-13.0182
玎	-13.0183
盾	-13.0186
藭	-13.0186
蘊	-13.0186
櫟	-13.0186
聘	-13.0187
麯	-13.0187
琯	-13.0188
𠺗	-13.0189
釤	-13.0189
荊	-13.0189
唦	-13.0189
撅	-13.0189
儹	-13.019
篁	-13.019
㗭	-13.019
榰	-13.019
旄	-13.0191
㩉	-13.0191
𡜍	-13.0191
箋	-13.0193
狎	-13.0194
澇	-13.0194
姮	-13.0194
𠺒	-13.0194
軃	-13.0195
螺	-13.0195
邢	-13.0195
侶	-13.0195
鞚	-13.0195
嘟	-13.0197
仃	-13.0197
碽	-13.0197
撾	-13.0197
駸	-13.0197
筏	-13.0197
藐	-13.0197
奶	-13.0198
駞	-13.0198
瀲	-13.0198
涂	-13.0198
迂	-13.0199
𠻗	-13.02
愜	-13.02
汚	-13.0201
麪	-13.0201
牘	-13.0202
幷	-13.0202
烖	-13.0202
蕃	-13.0202
浥	-13.0204
駁	-13.0204
駝	-13.0204
癫	-13.0204
牲	-13.0204
紬	-13.0204
拿	-13.0204
韮	-13.0205
曖	-13.0205
㙛	-13.0205
咥	-13.0205
𠰸	-13.0205
偯	-13.0205
綠	-13.0205
袷	-13.0205
茨	-13.0205
溷	-13.0206
忺	-13.0206
黥	-13.0207
犁	-13.0207
呤	-13.0207
臈	-13.0207
俸	-13.0207
吳	-13.0207
臰	-13.0207
菒	-13.0208
𡨋	-13.0208
汹	-13.0208
黷	-13.0208
堦	-13.0208
闐	-13.0208
哯	-13.0209
㘅	-13.0209
闍	-13.0209
拓	-13.0209
𥐼	-13.0209
瘮	-13.0209
簮	-13.0209
蔑	-13.0209
𨾏	-13.0209
貶	-13.0211
胱	-13.0211
捍	-13.0211
斝	-13.0211
碁	-13.0211
鱔	-13.0212
蠹	-13.0212
鶻	-13.0212
柒	-13.0212
萄	-13.0212
熔	-13.0212
呆	-13.0213
楗	-13.0213
蕕	-13.0213
纈	-13.0213
迯	-13.0215
鵷	-13.0215
黏	-13.0215
鏘	-13.0215
諠	-13.0215
旍	-13.0215
賭	-13.0215
愔	-13.0215
曚	-13.0215
縑	-13.0215
燋	-13.0216
諶	-13.0216
赳	-13.0216
啊	-13.0216
𨚧	-13.0216
絁	-13.0216
蕖	-13.0216
旒	-13.0218
禎	-13.0218
窶	-13.0218
蓴	-13.0218
蠎	-13.0218
鍜	-13.0219
疢	-13.0219
挿	-13.0219
閡	-13.0219
䂓	-13.0219
籤	-13.0219
睎	-13.022
輻	-13.022
咆	-13.0222
瀰	-13.0222
軰	-13.0222
晞	-13.0222
綰	-13.0222
衃	-13.0222
匏	-13.0222
挐	-13.0223
哄	-13.0223
捫	-13.0223
璀	-13.0223
徽	-13.0223
強	-13.0223
鬨	-13.0223
逭	-13.0224
咷	-13.0224
袒	-13.0225
覈	-13.0225
砲	-13.0225
盱	-13.0225
翩	-13.0226
擯	-13.0226
闈	-13.0226
抃	-13.0226
撆	-13.0226
摙	-13.0227
甸	-13.0227
湫	-13.0227
籃	-13.0228
汧	-13.0229
湎	-13.0229
琬	-13.0229
琚	-13.0229
拗	-13.023
琦	-13.023
捱	-13.023
桴	-13.023
鷃	-13.023
塋	-13.023
彝	-13.023
蒞	-13.023
讌	-13.023
喊	-13.023
憍	-13.023
瞎	-13.023
贄	-13.0231
㑺	-13.0231
濳	-13.0231
藁	-13.0232
絛	-13.0233
曬	-13.0233
俚	-13.0233
朢	-13.0233
睠	-13.0233
檠	-13.0233
疴	-13.0234
阤	-13.0234
褰	-13.0235
戕	-13.0236
技	-13.0236
碩	-13.0236
瞪	-13.0236
宙	-13.0236
嗄	-13.0237
禋	-13.0237
胝	-13.0238
稈	-13.0238
禺	-13.024
霰	-13.024
簀	-13.0241
庻	-13.0241
㦬	-13.0241
燮	-13.0242
絜	-13.0242
犗	-13.0243
紲	-13.0243
槿	-13.0244
蠆	-13.0244
裩	-13.0244
觔	-13.0245
禬	-13.0245
蜩	-13.0245
靚	-13.0245
嚕	-13.0247
尓	-13.0247
膓	-13.025
柈	-13.025
櫃	-13.025
締	-13.0251
氲	-13.0251
薙	-13.0255
𧷤	-13.0258
傖	-13.0259
刖	-13.0259
紳	-13.0261
寨	-13.0262
懟	-13.0263
穫	-13.0263
䘙	-13.0266
痎	-13.027
訂	-13.0273
漣	-13.0277
仿	-13.0279
楯	-13.0279
攴	-13.0287
盒	-13.0287
眵	-13.0301
桞	-13.3401
踹	-13.3446
蜒	-13.3475
緜	-13.348
邅	-13.3486
渌	-13.349
尔	-13.3496
馺	-13.35
鱓	-13.35
孑	-13.3502
𡀎	-13.3502
刈	-13.3502
奰	-13.3502
吱	-13.3503
渤	-13.3504
滇	-13.3504
裛	-13.3504
芹	-13.3505
簉	-13.3507
泗	-13.3507
隕	-13.3507
豔	-13.3509
鰲	-13.3511
垛	-13.3511
𠷉	-13.3511
逯	-13.3511
蒓	-13.3513
盔	-13.3515
瘋	-13.3515
枸	-13.3515
租	-13.3515
它	-13.3515
竽	-13.3515
焜	-13.3515
癜	-13.3517
駱	-13.3517
暦	-13.3519
莞	-13.3519
喏	-13.3519
胗	-13.3519
䜴	-13.3519
襌	-13.3519
楷	-13.3519
㖵	-13.3519
齪	-13.3521
嗛	-13.3523
瘼	-13.3523
薯	-13.3523
搤	-13.3523
濵	-13.3523
壮	-13.3523
将	-13.3523
漩	-13.3523
櫓	-13.3525
𤙖	-13.3525
徭	-13.3525
凹	-13.3525
咺	-13.3525
祿	-13.3525
衙	-13.3525
軔	-13.3525
蘩	-13.3525
𤤴	-13.3525
廁	-13.3527
殤	-13.3527
鑾	-13.3527
𡺿	-13.3527
璹	-13.3527
虯	-13.3527
敎	-13.3527
鐮	-13.3527
斸	-13.3529
𢠾	-13.3529
蚣	-13.3529
彘	-13.3529
麑	-13.3529
㕮	-13.353
罅	-13.3531
滉	-13.3531
昺	-13.3531
赧	-13.3531
澠	-13.3532
徤	-13.3532
蟣	-13.3532
蕺	-13.3532
𡼳	-13.3532
吩	-13.3532
狺	-13.3532
隷	-13.3532
痤	-13.3534
煦	-13.3534
埴	-13.3534
窬	-13.3534
蒨	-13.3534
藎	-13.3534
繽	-13.3534
嵇	-13.3534
蹷	-13.3534
釗	-13.3536
撑	-13.3536
簽	-13.3536
𡂑	-13.3536
褚	-13.3536
璺	-13.3538
蜮	-13.3538
瓌	-13.3538
髖	-13.3538
輓	-13.3538
贔	-13.3538
鬽	-13.354
喋	-13.354
苕	-13.354
悋	-13.354
箎	-13.354
緹	-13.354
𣏌	-13.354
柘	-13.3542
趯	-13.3542
坂	-13.3542
沂	-13.3542
𠻳	-13.3542
倅	-13.3542
套	-13.3542
殠	-13.3542
洸	-13.3542
炖	-13.3542
傴	-13.3542
枋	-13.3542
枰	-13.3542
瀘	-13.3542
鏃	-13.3542
覘	-13.3544
粢	-13.3544
酴	-13.3544
鷙	-13.3544
㶟	-13.3544
凭	-13.3544
峴	-13.3544
郢	-13.3544
陁	-13.3544
顰	-13.3544
墯	-13.3546
囷	-13.3546
抉	-13.3546
俎	-13.3546
啨	-13.3546
購	-13.3546
㗖	-13.3546
蜎	-13.3546
譛	-13.3546
鴿	-13.3546
橰	-13.3546
呶	-13.3548
腔	-13.3548
兑	-13.3548
鄂	-13.3548
俶	-13.3548
雛	-13.3548
玕	-13.3549
慇	-13.355
瘰	-13.355
抓	-13.355
綆	-13.355
槊	-13.355
睆	-13.355
㕤	-13.355
冼	-13.355
潦	-13.3552
嗃	-13.3552
幈	-13.3552
翺	-13.3552
剬	-13.3552
廖	-13.3554
𦔳	-13.3554
烱	-13.3554
瞷	-13.3554
斁	-13.3554
駑	-13.3554
曙	-13.3554
栲	-13.3554
頴	-13.3554
倬	-13.3554
呿	-13.3555
騏	-13.3555
哧	-13.3555
祓	-13.3555
䐴	-13.3556
麓	-13.3556
杭	-13.3556
珞	-13.3556
贓	-13.3556
氊	-13.3556
纊	-13.3556
昻	-13.3556
矓	-13.3556
殳	-13.3557
肰	-13.3557
弧	-13.3558
旙	-13.3558
汶	-13.3558
繿	-13.3558
𨤲	-13.3558
幌	-13.3559
坰	-13.3559
𢘤	-13.3559
凱	-13.3559
痏	-13.3559
玳	-13.3559
䪼	-13.3559
佺	-13.3559
濶	-13.3559
齶	-13.3559
硫	-13.356
墠	-13.3561
斒	-13.3561
呑	-13.3561
眴	-13.3561
凟	-13.3561
鋟	-13.3561
淖	-13.3561
憁	-13.3561
悰	-13.3563
碪	-13.3563
嵌	-13.3563
扈	-13.3563
璉	-13.3563
曵	-13.3563
𢡖	-13.3563
𥊺	-13.3563
霤	-13.3565
隥	-13.3565
浚	-13.3565
䏚	-13.3565
嗒	-13.3565
貳	-13.3565
麄	-13.3567
鰥	-13.3567
𠯈	-13.3567
抨	-13.3567
飊	-13.3567
卭	-13.3567
眶	-13.3569
蕆	-13.3569
峪	-13.3571
霔	-13.3571
恡	-13.3571
瑑	-13.3571
禇	-13.3571
匳	-13.3571
玻	-13.3573
鰕	-13.3573
桄	-13.3573
祼	-13.3575
矧	-13.3575
瘞	-13.3575
尙	-13.3575
蜆	-13.3575
耘	-13.3575
𠰉	-13.3575
槧	-13.3575
汰	-13.3577
偁	-13.3577
搢	-13.3577
邸	-13.3579
售	-13.3579
摛	-13.3579
丕	-13.3579
遙	-13.3579
孀	-13.3579
釡	-13.3579
嫗	-13.3581
殖	-13.3581
鉉	-13.3581
鵶	-13.3581
鍳	-13.3581
諛	-13.3583
幔	-13.3585
鋌	-13.3585
啟	-13.3585
愬	-13.3585
𡅵	-13.3585
愽	-13.3586
臞	-13.3586
弛	-13.3586
涿	-13.3586
泚	-13.3586
逈	-13.3586
韵	-13.3586
矚	-13.3588
匃	-13.359
䯻	-13.359
筐	-13.3594
啀	-13.3596
莅	-13.3596
覲	-13.3596
窓	-13.3598
尢	-13.3607
壊	-13.361
蕨	-13.3612
躶	-13.3612
𦛗	-13.3613
藇	-13.3614
脈	-13.3615
蹋	-13.3617
褻	-13.3623
礎	-13.3625
貿	-13.3633
努	-13.3634
袠	-13.3637
隠	-13.3657
倀	-13.3687
嘙	-13.8443
䂊	-13.8443
𠿗	-13.8446
暍	-13.8447
鱍	-13.8447
䯒	-13.8456
𢜬	-13.8459
𩆵	-13.8459
𤉖	-13.8462
𦵔	-13.8462
傭	-13.8462
忱	-13.8465
畒	-13.8465
嗈	-13.8469
餎	-13.8472
毆	-13.8472
瞢	-13.8472
溥	-13.8472
酵	-13.8472
骶	-13.8472
吺	-13.8475
毖	-13.8478
噖	-13.8481
嵥	-13.8481
絙	-13.8481
妝	-13.8484
汜	-13.8484
囁	-13.8487
廨	-13.8487
葜	-13.8487
玼	-13.8487
圇	-13.8487
㨗	-13.8487
鉍	-13.8487
檣	-13.849
嗍	-13.8491
煽	-13.8491
𠮷	-13.8491
贜	-13.8491
麕	-13.8491
袄	-13.8494
鈃	-13.8494
嚅	-13.8496
穏	-13.8497
呀	-13.8497
蒐	-13.8497
塺	-13.8497
𧹞	-13.8497
㔶	-13.85
蝡	-13.85
窨	-13.85
儜	-13.85
莬	-13.85
䅋	-13.85
栀	-13.8502
𤍿	-13.8503
𠕂	-13.8503
爬	-13.8503
盌	-13.8503
嗞	-13.8503
榼	-13.8503
飂	-13.8503
栝	-13.8506
魆	-13.8506
篡	-13.8506
瞌	-13.8506
罍	-13.8506
劓	-13.8506
㤿	-13.8506
喤	-13.8506
恠	-13.8506
紉	-13.8506
胰	-13.8506
蠮	-13.8506
菖	-13.8509
囤	-13.8509
霙	-13.8509
睨	-13.8509
產	-13.8509
柑	-13.8509
檽	-13.8509
踼	-13.8512
垍	-13.8513
埵	-13.8513
熹	-13.8513
砭	-13.8513
暠	-13.8513
騃	-13.8515
𦚟	-13.8516
胴	-13.8516
莠	-13.8516
䲭	-13.8516
𥁞	-13.8516
哳	-13.8516
蒯	-13.8516
忸	-13.8519
须	-13.8519
𠳿	-13.8519
枿	-13.8519
䱉	-13.8519
笓	-13.8519
㯶	-13.8519
窅	-13.8519
肧	-13.8519
蛹	-13.8519
螭	-13.8519
鍍	-13.8519
馱	-13.8519
鴽	-13.8519
𥝠	-13.8519
菉	-13.8521
䱇	-13.8522
瞭	-13.8522
氓	-13.8522
缶	-13.8522
鋩	-13.8522
㫁	-13.8522
煬	-13.8522
蘄	-13.8522
垊	-13.8522
尃	-13.8522
犧	-13.8522
輾	-13.8522
鷴	-13.8522
墼	-13.8522
气	-13.8525
沬	-13.8525
蹬	-13.8525
蜈	-13.8525
𧏙	-13.8525
鰍	-13.8525
宝	-13.8525
廽	-13.8525
捥	-13.8525
趂	-13.8525
𥚛	-13.8525
愗	-13.8525
踽	-13.8525
𤻊	-13.8528
崒	-13.8528
惣	-13.8528
箚	-13.8528
堙	-13.8528
徂	-13.8528
榧	-13.8528
輞	-13.8528
俘	-13.8528
您	-13.8528
栱	-13.8528
殮	-13.8528
𥆧	-13.8528
伋	-13.8528
夤	-13.8528
揄	-13.8528
摳	-13.8528
矟	-13.8528
袿	-13.8528
𩴩	-13.8528
燄	-13.8531
銑	-13.8531
卻	-13.8531
廱	-13.8531
澱	-13.8531
羔	-13.8531
虫	-13.8531
蹠	-13.8531
漦	-13.8531
潞	-13.8531
爓	-13.8531
猊	-13.8531
簁	-13.8531
錠	-13.8531
瀛	-13.8533
踖	-13.8534
鞕	-13.8534
尒	-13.8535
蠷	-13.8535
挪	-13.8535
桒	-13.8535
㢤	-13.8535
擕	-13.8535
鼯	-13.8535
㵪	-13.8535
䬍	-13.8535
圌	-13.8535
姧	-13.8535
寖	-13.8535
縶	-13.8535
茁	-13.8535
輯	-13.8535
顋	-13.8535
鏹	-13.8538
耦	-13.8538
顥	-13.8538
宄	-13.8538
詹	-13.8538
㕭	-13.8538
愡	-13.8538
揵	-13.8538
摝	-13.8538
炫	-13.8538
珎	-13.8538
盬	-13.8538
磺	-13.8538
税	-13.8538
䄡	-13.8538
塹	-13.8538
婺	-13.8538
撿	-13.8538
瓏	-13.8538
疿	-13.8538
痩	-13.8538
衠	-13.8538
𠺌	-13.8538
𠾬	-13.8538
𡄼	-13.8538
猨	-13.8541
敭	-13.8541
嶓	-13.8541
檔	-13.8541
鬆	-13.8541
晤	-13.8541
厩	-13.8541
藂	-13.8541
覔	-13.8541
鑷	-13.8541
𠯜	-13.8541
惷	-13.8541
欝	-13.8541
淙	-13.8541
灕	-13.8541
癈	-13.8541
睺	-13.8541
罇	-13.8541
萱	-13.8541
訐	-13.8541
鄴	-13.8541
靛	-13.8541
尠	-13.8544
吭	-13.8544
𦍒	-13.8544
磋	-13.8544
䕃	-13.8544
樺	-13.8544
綈	-13.8544
柎	-13.8544
䬃	-13.8544
喁	-13.8544
攔	-13.8544
澧	-13.8544
眚	-13.8544
砧	-13.8544
貔	-13.8544
酎	-13.8544
𢛄	-13.8544
𩳀	-13.8544
䆫	-13.8546
𠻣	-13.8547
剱	-13.8547
甓	-13.8547
樁	-13.8547
㷰	-13.8547
胼	-13.8547
颷	-13.8547
𩲩	-13.8547
㬢	-13.8547
偘	-13.8547
匯	-13.8547
呱	-13.8547
敞	-13.8547
疎	-13.8547
蝠	-13.8547
崿	-13.855
咧	-13.855
蕡	-13.855
郗	-13.855
錮	-13.855
閩	-13.855
窞	-13.855
鄞	-13.855
䑓	-13.855
徇	-13.855
璿	-13.855
禕	-13.855
醑	-13.855
装	-13.8553
卸	-13.8553
𣿉	-13.8553
櫨	-13.8553
跱	-13.8553
駘	-13.8553
㓂	-13.8553
隃	-13.8553
磽	-13.8553
劊	-13.8554
惋	-13.8554
憢	-13.8554
癯	-13.8554
芟	-13.8554
怍	-13.8557
煤	-13.8557
縠	-13.8557
璜	-13.8557
藟	-13.8557
喔	-13.8557
噔	-13.8557
檮	-13.8557
糍	-13.8557
螳	-13.8557
芷	-13.8558
寘	-13.856
𡣕	-13.856
䕫	-13.856
嫰	-13.856
玦	-13.856
塈	-13.856
媸	-13.856
葮	-13.856
蹂	-13.856
隗	-13.856
椱	-13.856
涴	-13.856
顗	-13.856
𧍒	-13.8561
珉	-13.8563
嬈	-13.8563
椰	-13.8563
焋	-13.8563
鐡	-13.8563
㓗	-13.8563
搴	-13.8563
糗	-13.8563
㞐	-13.8563
揫	-13.8563
朏	-13.8563
枲	-13.8563
禊	-13.8563
纚	-13.8563
肬	-13.8563
鏨	-13.8563
髠	-13.8563
𪙉	-13.8563
逍	-13.8565
丧	-13.8566
圉	-13.8566
漯	-13.8566
瀚	-13.8566
𢹂	-13.8566
窣	-13.8566
檟	-13.8566
嘌	-13.8566
偓	-13.8566
湜	-13.8566
磴	-13.8566
苫	-13.8566
茭	-13.8566
奭	-13.8569
邠	-13.8569
䨌	-13.8569
雰	-13.8569
鮭	-13.8569
憋	-13.8569
籛	-13.8569
扆	-13.8569
笄	-13.8569
儈	-13.8569
愷	-13.8569
螟	-13.8569
鉏	-13.8569
𤔵	-13.8569
斾	-13.8569
韡	-13.8569
鐙	-13.8572
䨴	-13.8572
慤	-13.8572
譙	-13.8572
𩴮	-13.8572
啥	-13.8572
帚	-13.8572
㡬	-13.8572
甃	-13.8572
畨	-13.8572
眹	-13.8572
飪	-13.8572
鼬	-13.8575
勌	-13.8575
懾	-13.8575
䔧	-13.8576
頏	-13.8576
胂	-13.8576
瑋	-13.8576
票	-13.8576
筶	-13.8576
馡	-13.8576
垽	-13.8579
𠰹	-13.8579
媱	-13.8579
漳	-13.8579
涅	-13.8579
𣳚	-13.8579
扳	-13.8579
旡	-13.8579
焞	-13.8579
辤	-13.8579
𡎎	-13.8579
撝	-13.8582
殜	-13.8582
閙	-13.8582
峕	-13.8582
殽	-13.8582
亷	-13.8582
㵱	-13.8582
扞	-13.8582
栩	-13.8582
烋	-13.8582
茲	-13.8582
𢙢	-13.8582
𤸇	-13.8582
闋	-13.8585
鎬	-13.8585
忡	-13.8585
欖	-13.8585
糅	-13.8585
丱	-13.8588
䞋	-13.8588
灞	-13.8588
嫋	-13.8588
烽	-13.8588
郍	-13.8588
鑢	-13.8588
𥨸	-13.8588
畀	-13.8591
謪	-13.8591
餧	-13.8591
蚝	-13.8591
貊	-13.8591
趢	-13.8591
踧	-13.8591
簣	-13.8594
幣	-13.8594
廩	-13.8594
洹	-13.8594
鉸	-13.8594
臾	-13.8596
𧇊	-13.8597
旆	-13.8598
磯	-13.8598
氂	-13.8598
髍	-13.8598
㓜	-13.8598
奘	-13.8598
菰	-13.8598
褶	-13.8598
飫	-13.8598
雇	-13.8601
𦍙	-13.8601
嵬	-13.8601
渙	-13.8601
磔	-13.8601
汏	-13.8604
汋	-13.8604
弭	-13.8604
楠	-13.8607
娓	-13.8607
稗	-13.861
慿	-13.861
鷂	-13.861
麈	-13.861
噲	-13.861
碏	-13.861
𤺍	-13.861
䭾	-13.8613
屆	-13.8613
异	-13.8616
埒	-13.8616
嚰	-13.8617
躐	-13.8617
騖	-13.8619
鬻	-13.862
袪	-13.8623
侔	-13.8626
兎	-13.8629
揠	-13.8629
楔	-13.8632
軷	-13.8635
稸	-13.8648
鐫	-13.8651
蔌	-13.8658
𩳌	-14.8254
𩕄	-14.8255
𨹧	-14.8256
𧕏	-14.8257
𦍩	-14.8258
𦋺	-14.8259
𤓎	-14.826
𡵟	-14.8261
𠵇	-14.8262
𠆸	-14.8263
鼙	-14.8264
鼐	-14.8265
鴦	-14.8266
鴇	-14.8267
鯸	-14.8268
鮫	-14.8269
鮆	-14.827
髎	-14.8271
骹	-14.8272
驤	-14.8273
饘	-14.8274
饁	-14.8275
飧	-14.8276
頦	-14.8277
頞	-14.8278
霡	-14.8279
霂	-14.828
雋	-14.8281
陘	-14.8282
閾	-14.8283
鎰	-14.8284
鎞	-14.8285
鍚	-14.8286
醿	-14.8287
醲	-14.8288
鄢	-14.8289
邴	-14.829
輈	-14.8291
躟	-14.8292
躃	-14.8293
跏	-14.8294
貍	-14.8295
譫	-14.8296
譖	-14.8297
譊	-14.8298
謑	-14.8299
謏	-14.83
諤	-14.8301
誷	-14.8302
覼	-14.8303
裟	-14.8304
袈	-14.8305
蟪	-14.8306
蜾	-14.8307
蚿	-14.8308
蚰	-14.8309
藦	-14.831
蔥	-14.8311
蒡	-14.8312
莘	-14.8313
莒	-14.8314
荴	-14.8315
苐	-14.8316
臖	-14.8317
腓	-14.8318
腌	-14.8319
腆	-14.832
啣	-14.832
脥	-14.8321
緦	-14.8322
紥	-14.8323
粕	-14.8324
籯	-14.8325
籀	-14.8326
簳	-14.8327
箄	-14.8328
㷍	-14.8328
禫	-14.8329
禈	-14.833
祉	-14.8331
礲	-14.8332
磉	-14.8333
磅	-14.8334
矃	-14.8335
眈	-14.8336
盯	-14.8337
皙	-14.8338
瓔	-14.8339
瑱	-14.834
琊	-14.8341
珏	-14.8342
獷	-14.8343
狽	-14.8344
狙	-14.8345
煿	-14.8346
濮	-14.8347
濠	-14.8348
淛	-14.8349
氅	-14.835
櫪	-14.8351
槳	-14.8352
䀝	-14.8352
咢	-14.8352
噱	-14.8352
槜	-14.8353
梏	-14.8354
桎	-14.8355
柮	-14.8356
柚	-14.8357
晢	-14.8358
挻	-14.8359
拶	-14.836
壷	-14.836
抝	-14.8361
扭	-14.8362
懀	-14.8363
慞	-14.8364
愀	-14.8365
惘	-14.8366
怫	-14.8367
怗	-14.8368
怔	-14.8369
徠	-14.837
廐	-14.8371
嶢	-14.8372
嵳	-14.8373
媧	-14.8374
婷	-14.8375
娃	-14.8376
䘾	-14.8376
佪	-14.8376
勗	-14.8376
姨	-14.8377
奲	-14.8378
夼	-14.8379
夔	-14.838
塼	-14.8381
塤	-14.8382
堠	-14.8383
垡	-14.8384
嘹	-14.8385
喼	-14.8386
喟	-14.8387
唬	-14.8388
哿	-14.8389
哨	-14.839
咁	-14.8391
厯	-14.8392
芮	-14.8392
坯	-14.8392
刎	-14.8393
僮	-14.8394
亊	-14.8395
䰧	-14.8396
䗫	-14.8397
䁾	-14.8398
䁝	-14.8399
㸑	-14.84
㰱	-14.8401
㩌	-14.8402
㘉	-14.8403
ム	-14.8404
𦚐	-14.8405
𥌰	-14.8406
𡹝	-14.8407
鱺	-14.8408
姐	-14.8408
鰻	-14.8409
鮧	-14.841
髄	-14.8411
髁	-14.8412
饉	-14.8413
鑲	-14.8414
鈹	-14.8415
醶	-14.8416
䑲	-14.8416
鄱	-14.8417
躇	-14.8418
趑	-14.8419
賖	-14.842
讝	-14.8421
蜍	-14.8422
藊	-14.8423
葡	-14.8424
姱	-14.8424
聃	-14.8425
耋	-14.8426
芨	-14.8426
翶	-14.8427
縲	-14.8428
緼	-14.8429
簦	-14.843
篾	-14.8431
篷	-14.8432
䦧	-14.8432
竮	-14.8433
竛	-14.8434
秔	-14.8435
磣	-14.8436
碙	-14.8437
砥	-14.8438
甪	-14.8439
甥	-14.844
㝎	-14.844
䬠	-14.844
咣	-14.844
嗑	-14.844
藶	-14.844
瑘	-14.8441
毸	-14.8442
毰	-14.8443
毈	-14.8444
櫚	-14.8445
橔	-14.8446
昳	-14.8447
擻	-14.8448
㶺	-14.8448
抖	-14.8449
戞	-14.845
懡	-14.8451
怏	-14.8452
廡	-14.8453
峝	-14.8454
岷	-14.8455
蠣	-14.8456
嬋	-14.8456
嫦	-14.8457
娟	-14.8458
塲	-14.8459
嘏	-14.846
吔	-14.8461
凸	-14.8462
兕	-14.8463
儆	-14.8464
㕹	-14.8464
䧏	-14.8464
呣	-14.8464
哏	-14.8464
唼	-14.8464
喈	-14.8464
嚟	-14.8464
僑	-14.8465
亰	-14.8466
䢫	-14.8467
䐐	-14.8468
蝱	-14.8468
㽲	-14.8469
㕑	-14.847
𤃉	-14.8471
𠹋	-14.8472
㘑	-14.8472
厔	-14.8472
嘇	-14.8472
噞	-14.8472
嚫	-14.8472
𠸯	-14.8473
齆	-14.8474
鴛	-14.8475
鴆	-14.8476
鮀	-14.8477
髼	-14.8478
髑	-14.8479
餺	-14.848
㕘	-14.848
㘕	-14.848
㤙	-14.848
㵼	-14.848
䡇	-14.848
䡩	-14.848
䡿	-14.848
佻	-14.848
嗯	-14.848
嚭	-14.848
飥	-14.8481
顓	-14.8482
頊	-14.8483
雒	-14.8484
闥	-14.8485
閶	-14.8486
逡	-14.8487
轤	-14.8488
蒴	-14.8488
㐲	-14.8488
㘈	-14.8488
㻫	-14.8488
㻱	-14.8488
䘓	-14.8488
䠷	-14.8488
丅	-14.8488
嚂	-14.8488
婇	-14.8488
蝌	-14.8489
蚱	-14.849
蚍	-14.8491
蚋	-14.8492
虺	-14.8493
薹	-14.8494
薷	-14.8495
蓞	-14.8496
㖏	-14.8496
㝃	-14.8496
㳟	-14.8496
䀕	-14.8496
䕙	-14.8496
䗤	-14.8496
䝘	-14.8496
凜	-14.8496
刪	-14.8496
呃	-14.8496
嚚	-14.8496
坻	-14.8496
埛	-14.8496
萋	-14.8497
纎	-14.8498
簧	-14.8499
礠	-14.85
猻	-14.8501
燠	-14.8502
灤	-14.8503
潎	-14.8504
㖨	-14.8504
㗓	-14.8504
伈	-14.8504
体	-14.8504
侳	-14.8504
卄	-14.8504
嘷	-14.8504
嚝	-14.8504
蚓	-14.8504
渼	-14.8505
涔	-14.8506
欿	-14.8507
櫸	-14.8508
栴	-14.8509
攙	-14.851
懦	-14.8511
悾	-14.8512
徘	-14.8512
㗚	-14.8512
㜸	-14.8512
㤗	-14.8512
䗜	-14.8512
俍	-14.8512
刂	-14.8512
咂	-14.8512
啾	-14.8512
堡	-14.8512
婭	-14.8512
婿	-14.8512
蚯	-14.8512
邏	-14.8512
巉	-14.8513
妁	-14.8514
嗊	-14.8515
㿔	-14.8516
㾫	-14.8517
𩃱	-14.8518
𨽾	-14.8519
𤢟	-14.852
㬊	-14.852
㹸	-14.852
䇇	-14.852
唭	-14.852
嗢	-14.852
嗼	-14.852
嘄	-14.852
嘰	-14.852
埽	-14.852
堈	-14.852
娜	-14.852
猢	-14.852
鼷	-14.8521
驃	-14.8522
陲	-14.8523
陬	-14.8524
鏇	-14.8525
逅	-14.8526
訕	-14.8527
螮	-14.8528
㕧	-14.8528
㩢	-14.8528
㳙	-14.8528
㶸	-14.8528
䊮	-14.8528
䨩	-14.8528
䶎	-14.8528
优	-14.8528
冂	-14.8528
勍	-14.8528
呧	-14.8528
呯	-14.8528
哈	-14.8528
嘩	-14.8528
堓	-14.8528
堞	-14.8528
墡	-14.8528
壙	-14.8528
壳	-14.8528
嬀	-14.8528
璩	-14.8528
螣	-14.8529
蝴	-14.853
蝮	-14.8531
蚩	-14.8532
蚧	-14.8533
蓰	-14.8534
菥	-14.8535
膞	-14.8536
㳅	-14.8536
㵎	-14.8536
㽷	-14.8536
䑀	-14.8536
僰	-14.8536
啤	-14.8536
囟	-14.8536
圞	-14.8536
垕	-14.8536
堇	-14.8536
娛	-14.8536
嫡	-14.8536
胕	-14.8537
聤	-14.8538
翣	-14.8539
稉	-14.854
碼	-14.8541
碯	-14.8542
眯	-14.8543
眨	-14.8544
㧕	-14.8544
㯓	-14.8544
䊶	-14.8544
䋫	-14.8544
䌅	-14.8544
䐈	-14.8544
䝨	-14.8544
䭜	-14.8544
勛	-14.8544
唷	-14.8544
嗤	-14.8544
嗾	-14.8544
嘱	-14.8544
囌	-14.8544
圯	-14.8544
垞	-14.8544
堀	-14.8544
媿	-14.8544
孠	-14.8544
玲	-14.8544
羾	-14.8544
癮	-14.8545
璝	-14.8546
瑯	-14.8547
獪	-14.8548
猳	-14.8549
猱	-14.855
濜	-14.8551
沲	-14.8552
荑	-14.8552
㕱	-14.8552
勣	-14.8552
哼	-14.8552
唶	-14.8552
噺	-14.8552
娀	-14.8552
孱	-14.8552
陔	-14.8552
掬	-14.8553
挲	-14.8554
壍	-14.8555
嗶	-14.8556
咋	-14.8557
倜	-14.8558
羗	-14.8558
䭷	-14.8559
䪃	-14.856
㐰	-14.856
㘇	-14.856
㡤	-14.856
㦗	-14.856
㲄	-14.856
䙝	-14.856
仳	-14.856
冺	-14.856
刲	-14.856
呹	-14.856
唊	-14.856
垤	-14.856
妣	-14.856
榔	-14.856
㾮	-14.8561
㱡	-14.8562
㮣	-14.8563
鸚	-14.8564
鷀	-14.8565
鵡	-14.8566
顢	-14.8567
鄲	-14.8568
㗛	-14.8568
䦎	-14.8568
䦨	-14.8568
䨨	-14.8568
䯞	-14.8568
伭	-14.8568
冡	-14.8568
刓	-14.8568
嗡	-14.8568
圚	-14.8568
塿	-14.8568
墊	-14.8568
踟	-14.8569
贛	-14.857
蜋	-14.8571
蔔	-14.8572
臁	-14.8573
窿	-14.8574
翛	-14.8574
窕	-14.8575
礴	-14.8576
𩆝	-14.8576
㨂	-14.8576
㹥	-14.8576
䏼	-14.8576
䰡	-14.8576
佉	-14.8576
佼	-14.8576
侏	-14.8576
剏	-14.8576
咐	-14.8576
圮	-14.8576
硌	-14.8577
猗	-14.8578
沱	-14.8579
歃	-14.858
朧	-14.8581
慺	-14.8582
忪	-14.8583
彬	-14.8584
㖠	-14.8584
㡭	-14.8584
䘵	-14.8584
䠱	-14.8584
书	-14.8584
偑	-14.8584
咡	-14.8584
埤	-14.8584
奩	-14.8584
妤	-14.8584
姒	-14.8584
婕	-14.8584
孥	-14.8585
嚶	-14.8586
唻	-14.8587
亹	-14.8588
鵑	-14.8589
鬐	-14.859
驊	-14.8591
頇	-14.8592
㖂	-14.8592
㫊	-14.8592
䂷	-14.8592
䫟	-14.8592
傒	-14.8592
咴	-14.8592
噐	-14.8592
圗	-14.8592
埳	-14.8592
埸	-14.8592
堝	-14.8592
壶	-14.8592
夬	-14.8592
釭	-14.8593
邙	-14.8594
轗	-14.8595
豌	-14.8596
蠊	-14.8597
蘼	-14.8598
蕘	-14.8599
茺	-14.86
㘞	-14.86
㪷	-14.86
㷋	-14.86
㸊	-14.86
伉	-14.86
匭	-14.86
叻	-14.86
吲	-14.86
唓	-14.86
喡	-14.86
嚁	-14.86
翱	-14.8601
縊	-14.8602
痍	-14.8603
晬	-14.8604
巇	-14.8605
嚳	-14.8606
𠯲	-14.8607
颼	-14.8608
氤	-14.8608
䓪	-14.8608
䰰	-14.8608
个	-14.8608
倌	-14.8608
僇	-14.8608
颻	-14.8609
釅	-14.861
躊	-14.8611
茜	-14.8612
艽	-14.8613
漐	-14.8614
棣	-14.8615
崱	-14.8616
䐢	-14.8616
䨘	-14.8616
䨚	-14.8616
侄	-14.8616
咕	-14.8616
唝	-14.8616
噻	-14.8616
嚷	-14.8616
墦	-14.8616
嫣	-14.8616
啻	-14.8617
匍	-14.8618
倲	-14.8619
仝	-14.862
𩩲	-14.8621
鯪	-14.8622
蹰	-14.8623
蠼	-14.8624
㗒	-14.8624
㮏	-14.8624
䌝	-14.8624
倮	-14.8624
厓	-14.8624
圠	-14.8624
坈	-14.8624
堰	-14.8624
墁	-14.8624
壚	-14.8624
娩	-14.8624
嬪	-14.8624
揲	-14.8624
蜘	-14.8625
蓿	-14.8626
苜	-14.8627
翌	-14.8628
紜	-14.8629
瑪	-14.863
瑙	-14.8631
嶇	-14.8632
㗌	-14.8633
䔉	-14.8633
坱	-14.8633
塍	-14.8633
崢	-14.8633
崎	-14.8634
囹	-14.8635
饕	-14.8636
杷	-14.8637
抺	-14.8638
恟	-14.8639
嚨	-14.864
㖟	-14.8641
㢮	-14.8641
埜	-14.8641
啇	-14.8641
䩺	-14.8642
䚡	-14.8643
鴣	-14.8644
譩	-14.8645
譆	-14.8646
膲	-14.8647
淅	-14.8648
憹	-14.8649
㖆	-14.8649
䆒	-14.8649
䝉	-14.8649
嘴	-14.8649
坩	-14.8649
姫	-14.8649
幞	-14.865
呷	-14.8651
鯽	-14.8652
顳	-14.8653
顬	-14.8654
豺	-14.8655
蟯	-14.8656
荽	-14.8657
㖃	-14.8657
䴉	-14.8657
僭	-14.8657
劥	-14.8657
膻	-14.8658
瑚	-14.8659
沅	-14.866
枇	-14.8661
崚	-14.8662
岧	-14.8663
鋥	-14.8664
蹻	-14.8665
劼	-14.8665
嘸	-14.8665
蛛	-14.8666
蔻	-14.8667
葳	-14.8668
胵	-14.8669
峒	-14.867
凰	-14.867
儡	-14.8671
傀	-14.8672
詵	-14.8673
偒	-14.8673
剽	-14.8673
圻	-14.8673
媛	-14.8673
蜕	-14.8674
苣	-14.8675
秫	-14.8676
磊	-14.8677
峥	-14.8678
喨	-14.8679
㤜	-14.868
霏	-14.8681
酊	-14.8682
蝖	-14.8683
蜺	-14.8684
莪	-14.8685
苨	-14.8686
璘	-14.8687
杻	-14.8688
倆	-14.8689
傃	-14.8689
俐	-14.869
魎	-14.8691
飍	-14.8692
靆	-14.8693
蘅	-14.8694
芙	-14.8695
猩	-14.8696
潺	-14.8697
僨	-14.8697
慷	-14.8698
㬰	-14.8699
𪒟	-14.87
蜥	-14.8701
羖	-14.8702
琥	-14.8703
珀	-14.8704
拇	-14.8705
跣	-14.8706
煒	-14.8707
冉	-14.8708
蟆	-14.8709
滔	-14.871
臚	-14.8711
珊	-14.8712
跎	-14.8713
塢	-14.8713
巻	-14.8714
𦚠	-14.8715
蜣	-14.8716
緲	-14.8717
髴	-14.8718
邕	-14.8719
螵	-14.872
葙	-14.8721
蔯	-14.8722
菪	-14.8723
嶸	-14.8724
蠐	-14.8725
螬	-14.8726
薔	-14.8727
汪	-14.8728
梔	-14.8729
圑	-14.8729
塏	-14.8729
莨	-14.873
芸	-14.8731
瑠	-14.8732
蠕	-14.8733
醐	-14.8734
醍	-14.8735
磻	-14.8736
䗪	-14.8737
茴	-14.8738
咫	-14.8739
菁	-14.874
婪	-14.8741
薢	-14.8742
蚑	-14.8743
礜	-14.8744
璃	-14.8745
㶼	-14.8745
夐	-14.8745
羚	-14.8746
骷	-14.8747
𩳐	-14.8748
檳	-14.8749
蒺	-14.875
峨	-14.8751
𥆨	-14.8752
葶	-14.8753
芁	-14.8754
㖫	-14.8755
菀	-14.8756
硭	-14.8757
膀	-14.8758
蓯	-14.8759
蓉	-14.876
崙	-14.8761
䐩	-14.8762
芍	-14.8762
