<unk>	0
<s>	0
</s>	0
(	-3.42863
/	-3.49188
)	-3.59757
之	-4.65208
以	-4.95559
者	-4.95718
也	-5.00813
而	-5.03129
一	-5.16203
兩	-5.26075
用	-5.27082
治	-5.32244
不	-5.32305
/)	-5.42351
其	-5.45494
則	-5.48703
氣	-5.48928
為	-5.49677
有	-5.53349
如	-5.59137
熱	-5.60186
中	-5.62772
下	-5.65717
大	-5.65998
生	-5.66936
或	-5.69305
去	-5.74173
方	-5.75222
水	-5.80046
)(	-5.8011
上	-5.83517
三	-5.8599
入	-5.88674
服	-5.89281
病	-5.93688
分	-5.94813
二	-5.96114
散	-5.96347
湯	-5.97853
此	-5.98306
於	-5.98597
子	-6.01508
出	-6.01614
血	-6.02697
藥	-6.09238
内	-6.09844
無	-6.09987
白	-6.10948
半	-6.11144
若	-6.11285
人	-6.11694
風	-6.14206
痛	-6.14346
故	-6.17131
寒	-6.20159
炒	-6.2047
心	-6.23075
甘草	-6.25446
五	-6.2555
即	-6.27011
後	-6.27075
加	-6.27079
至	-6.27685
及	-6.27876
丸	-6.29875
▁	-6.30429
食	-6.30949
在	-6.32175
火	-6.32425
曰	-6.33084
陽	-6.35368
和	-6.3613
取	-6.37963
作	-6.39094
與	-6.39285
錢	-6.411
多	-6.42295
隂	-6.42335
一兩	-6.42525
時	-6.42571
經	-6.4549
亦	-6.4717
主	-6.47745
又	-6.49604
云	-6.50672
是	-6.5078
同	-6.50907
脉	-6.52695
黄	-6.54901
見	-6.56084
當	-6.5645
得	-6.5732
皆	-6.57973
四	-6.58575
酒	-6.58877
皮	-6.59359
日	-6.6073
發	-6.60733
煎	-6.60891
毒	-6.6129
頭	-6.62042
自	-6.63724
令	-6.63749
炙	-6.65131
宜	-6.6553
合	-6.67408
温	-6.68893
右	-6.68938
瘡	-6.69502
研	-6.6987
可	-6.72035
冷	-6.72198
乃	-6.73058
行	-6.73553
傷	-6.74657
實	-6.7526
腫	-6.75372
飲	-6.7563
虚	-6.75729
矣	-6.76017
所	-6.7647
因	-6.77232
小	-6.77277
末	-6.7864
未	-6.80295
石	-6.80399
少	-6.82631
肉	-6.83063
根	-6.83507
人參	-6.83771
各	-6.84307
外	-6.84332
各一	-6.8505
成	-6.85764
骨	-6.86289
數	-6.8635
通	-6.86548
乾	-6.86793
當歸	-6.87344
微	-6.88454
法	-6.8852
必	-6.88609
赤	-6.90046
目	-6.90263
先	-6.90297
能	-6.90361
邪	-6.92369
止	-6.9293
清	-6.93087
肝	-6.93286
汁	-6.95321
不可	-6.96257
不能	-6.96493
然	-6.97004
胃	-6.9742
補	-6.97746
證	-6.98462
草	-6.98669
口	-7.00225
諸	-7.0067
已	-7.02407
腎	-7.02712
急	-7.03536
葉	-7.03855
脾	-7.04077
利	-7.04089
重	-7.04929
動	-7.05092
化	-7.05468
身	-7.05537
肺	-7.06178
木	-7.06338
言	-7.06787
脈	-7.0701
非	-7.07685
從	-7.08433
復	-7.08756
凡	-7.08978
神	-7.11251
土	-7.11252
七	-7.11506
結	-7.11943
濕	-7.13369
療	-7.1341
前	-7.13445
金	-7.13479
六	-7.13888
消	-7.14002
但	-7.14128
愈	-7.14329
足	-7.14577
明	-7.15026
天	-7.15811
耳	-7.1681
今	-7.17015
相	-7.1707
吐	-7.17546
為末	-7.17612
便	-7.1779
二兩	-7.17999
細	-7.18349
欲	-7.18577
痰	-7.18591
死	-7.19344
色	-7.19415
間	-7.19473
青	-7.19816
切	-7.19844
剉	-7.19874
年	-7.20281
本	-7.20632
白术	-7.21239
甚	-7.21836
名	-7.22018
汗	-7.22397
半兩	-7.22718
盛	-7.23276
傷寒	-7.23504
平	-7.23506
更	-7.23641
正	-7.23939
謂	-7.242
調	-7.2432
長	-7.24793
服之	-7.2485
附子	-7.25026
十	-7.25073
黄連	-7.26354
半夏	-7.26547
解	-7.27332
花	-7.27569
使	-7.29336
刺	-7.29736
膏	-7.30532
患	-7.30727
防風	-7.30742
香	-7.31025
物	-7.31113
虛	-7.31288
木香	-7.32316
發熱	-7.33853
穴	-7.34087
處	-7.34267
○	-7.35062
反	-7.35356
常	-7.35499
盡	-7.35535
苦	-7.35851
于	-7.35959
疾	-7.363
久	-7.36585
灸	-7.3695
過	-7.37029
㣲	-7.37216
論	-7.38051
一錢	-7.383
並	-7.39028
大黄	-7.39416
燥	-7.3957
洗	-7.39834
黄芩	-7.40424
難	-7.40738
極	-7.41029
手	-7.416
不得	-7.41651
精	-7.41843
安	-7.42166
地	-7.42541
生薑	-7.42591
升	-7.42618
别	-7.42906
積	-7.4335
蟲	-7.43451
眼	-7.44465
開	-7.44683
黒	-7.45072
熟	-7.45151
乳	-7.45456
八	-7.45825
又方	-7.45831
醫	-7.46401
雖	-7.46438
滿	-7.46798
屬	-7.47095
乾薑	-7.47167
再	-7.47375
俱	-7.47387
門	-7.47835
陰	-7.4807
新	-7.48333
藏	-7.48821
似	-7.48864
小兒	-7.49234
起	-7.49678
候	-7.49934
寒熱	-7.5005
爲	-7.51003
去皮	-7.5109
煮	-7.51375
知	-7.51818
兼	-7.52062
茯苓	-7.52834
註	-7.53078
焙	-7.53354
疼痛	-7.53638
次	-7.53683
逆	-7.53946
丹	-7.53954
不止	-7.54086
燒	-7.54365
等	-7.54787
形	-7.54991
胎	-7.55775
二錢	-7.56251
味	-7.56712
忌	-7.57013
傳	-7.57081
惡	-7.57184
山	-7.5805
易	-7.58088
柴胡	-7.5884
炮	-7.5918
泄	-7.59337
膿	-7.59791
勞	-7.60091
節	-7.60091
右為末	-7.60318
效	-7.60337
九	-7.60594
除	-7.60752
出聖	-7.60771
衇	-7.60869
小便	-7.61664
并	-7.61946
紅	-7.62002
表	-7.62178
汗出	-7.6261
百	-7.62677
蜜	-7.63947
裏	-7.64153
痢	-7.64202
飲食	-7.64328
麻黄	-7.64517
定	-7.64551
浸	-7.6503
三分	-7.65607
塗	-7.65858
變	-7.65935
弱	-7.6602
破	-7.66028
面	-7.66506
餘	-7.66546
芍藥	-7.66683
桂心	-7.66818
手足	-7.67114
驚	-7.67454
浮	-7.67458
養	-7.67513
散治	-7.68143
滑	-7.68532
三兩	-7.68854
初	-7.68963
月	-7.69606
每服	-7.69621
厥	-7.69772
麝香	-7.69917
攻	-7.70315
杏仁	-7.70417
類	-7.70916
甘	-7.70939
四肢	-7.71345
勝	-7.71514
夫	-7.71539
一名	-7.71699
劑	-7.71956
脾胃	-7.72143
蒸	-7.7217
益	-7.72816
真	-7.72898
粉	-7.73105
將	-7.73517
家	-7.73571
何	-7.74
隨	-7.74333
每	-7.75312
瀉	-7.75334
鹽	-7.75415
指	-7.75682
筋	-7.75866
連	-7.75906
婦人	-7.76074
一分	-7.7624
太	-7.76344
醋	-7.76841
流	-7.76904
搗	-7.77135
絶	-7.77213
緩	-7.77574
須	-7.77793
夜	-7.77885
灰	-7.7847
失	-7.79056
一升	-7.79292
按	-7.79307
損	-7.79341
漸	-7.79363
兒	-7.79454
應	-7.79463
痘	-7.79469
各二	-7.79493
立	-7.79497
致	-7.79501
引	-7.80005
腹	-7.81129
頭痛	-7.81242
鼻	-7.81304
爛	-7.81393
馬	-7.81556
道	-7.81629
來	-7.82043
桂	-7.8211
米	-7.82236
細辛	-7.82719
良	-7.82908
治之	-7.83342
各半	-7.83469
閉	-7.83975
惟	-7.83998
注	-7.85142
元	-7.85311
大便	-7.85777
煑	-7.85838
疳	-7.86043
右為細末	-7.86397
要	-7.86796
附	-7.86988
湯治	-7.87429
陳皮	-7.87544
喘	-7.88141
舌	-7.88155
嘔	-7.88273
仁	-7.8843
太陽	-7.88524
伏	-7.88601
始	-7.89189
辛	-7.89323
脹	-7.89514
川芎	-7.89577
之氣	-7.8971
堅	-7.89736
州	-7.9005
冬	-7.90223
瘧	-7.90321
乎	-7.90358
空心	-7.90461
麥門冬	-7.9063
少許	-7.90634
枚	-7.90934
好	-7.91019
性	-7.91066
聲	-7.91304
紫	-7.91586
海	-7.91649
煩	-7.91827
善	-7.91927
疼	-7.92057
桔梗	-7.92177
背	-7.92229
受	-7.92289
魚	-7.92552
各三	-7.92687
理	-7.92727
令人	-7.92913
下之	-7.93171
而不	-7.93296
痺	-7.93408
不足	-7.93525
體	-7.93821
薑	-7.93838
黑	-7.93998
由	-7.94212
油	-7.94423
酸	-7.94448
石膏	-7.94607
異	-7.94667
豆	-7.95098
五分	-7.95195
片	-7.95249
産	-7.95694
左	-7.9582
枳殻	-7.96512
文	-7.96827
陽明	-7.96854
症	-7.97061
腹痛	-7.97141
㵼	-7.97291
退	-7.97569
暴	-7.9774
温服	-7.97961
寸	-7.98
乆	-7.98006
隂陽	-7.98307
五錢	-7.98777
滯	-7.99044
轉	-7.99131
湯下	-7.99295
許	-7.99778
歸	-7.99867
事	-8.0026
丸治	-8.00403
全	-8.00516
升麻	-8.00553
厚朴	-8.01052
深	-8.01132
陽氣	-8.01286
春	-8.0134
夏	-8.01825
惠方	-8.02013
針	-8.02307
而愈	-8.02786
遂	-8.03001
毛	-8.03261
輕	-8.03506
固	-8.0373
尺	-8.04139
去滓	-8.04401
度	-8.0461
覺	-8.0462
食之	-8.04831
貼	-8.04854
四兩	-8.05095
强	-8.05295
牙	-8.05567
既	-8.05743
部	-8.06037
著	-8.06195
二十	-8.06305
種	-8.06491
腸	-8.06639
南	-8.06671
恐	-8.06687
主之	-8.07014
齒	-8.07186
三錢	-8.07296
直	-8.07578
差	-8.07808
衣	-8.07813
交	-8.08421
書	-8.08506
桂枝	-8.08662
膽	-8.08853
淋	-8.08995
㸃	-8.09078
留	-8.09114
雞	-8.09264
近	-8.09292
莖	-8.09472
脚	-8.0955
謂之	-8.09596
稍	-8.09598
鍼	-8.09697
中風	-8.09916
誤	-8.09918
腦	-8.10938
力	-8.11061
卷	-8.11127
腰	-8.11343
且	-8.11797
獨	-8.12019
鬱	-8.12943
渴	-8.13032
壯	-8.13787
熬	-8.1396
白芷	-8.14379
息	-8.14387
黄耆	-8.14669
運	-8.14882
盖	-8.14948
蛇	-8.14979
氣血	-8.15426
沉	-8.15769
棗	-8.15984
仍	-8.15995
渇	-8.16007
五味子	-8.16166
角	-8.16539
王	-8.16847
牛膝	-8.16964
臍	-8.17332
邪氣	-8.1736
老	-8.17849
字	-8.18089
用之	-8.18175
薄	-8.18252
潰	-8.18331
感	-8.18372
膈	-8.18514
方見	-8.1872
絡	-8.18982
牛	-8.19197
巴豆	-8.19355
音	-8.19383
發汗	-8.19401
最	-8.1946
秋	-8.19485
脂	-8.1952
雄黄	-8.19779
各一兩	-8.19805
所以	-8.19825
亦可	-8.19949
沸	-8.20036
澁	-8.2012
走	-8.20297
白茯苓	-8.20689
臟	-8.20804
血氣	-8.2082
丁香	-8.2094
母	-8.21397
涎	-8.2156
治小兒	-8.21679
細研	-8.21872
少陽	-8.21907
進	-8.21951
烏	-8.22346
製	-8.22348
粥	-8.22585
毎服	-8.22591
腹中	-8.22638
之類	-8.22797
去蘆	-8.22941
嘔吐	-8.23044
焦	-8.23378
碎	-8.23403
條	-8.23701
妙	-8.24021
勿	-8.24048
潤	-8.24186
喜	-8.24291
收	-8.24359
茶	-8.24464
弦	-8.24466
圓	-8.24503
暑	-8.25036
鬼	-8.25476
産後	-8.25517
氏	-8.25564
不通	-8.25722
芎藭	-8.25779
順	-8.26164
命	-8.26168
惡寒	-8.26464
酒浸	-8.2649
遲	-8.26735
効	-8.26742
悶	-8.27374
意	-8.28012
居	-8.28039
膀胱	-8.28649
津液	-8.28876
塞	-8.28935
卒	-8.29145
𦂳	-8.29413
陳	-8.29586
桃仁	-8.29806
為度	-8.29832
厚	-8.30463
一切	-8.30844
之劑	-8.31212
者為	-8.31412
川	-8.31538
志	-8.31661
舉	-8.31678
羊	-8.31683
溫	-8.31777
癰	-8.31805
闗	-8.31914
知母	-8.32257
名曰	-8.32899
蓋	-8.33128
胃氣	-8.3336
羌活	-8.33766
二升	-8.33855
生地黄	-8.3398
葢	-8.34189
救	-8.34676
濇	-8.34871
黃	-8.35067
不知	-8.35794
卧	-8.36157
枯	-8.36271
三日	-8.36821
髙	-8.36972
元氣	-8.37205
少隂	-8.37547
之藥	-8.37599
榮	-8.37716
驗	-8.37742
胸	-8.37798
麻	-8.37937
傅	-8.37988
偏	-8.38232
猶	-8.38324
菜	-8.38737
去心	-8.38929
甲	-8.38937
食前	-8.39041
詳	-8.39095
禁	-8.39118
嵗	-8.39251
却	-8.3945
煨	-8.39464
竹	-8.39479
衰	-8.39594
功	-8.39611
張	-8.39911
是也	-8.3994
軟	-8.40326
漿	-8.40695
下利	-8.41106
集	-8.41135
宿	-8.41471
右㕮咀	-8.41559
痞	-8.4159
器	-8.41727
仲景	-8.41838
也若	-8.41883
薄荷	-8.41911
參	-8.41981
玉	-8.421
核	-8.42294
府	-8.42336
停	-8.42366
忽	-8.42372
余	-8.42475
世	-8.42723
瘥	-8.42809
只	-8.42819
臭	-8.42858
蘆	-8.43182
昏	-8.43226
壅	-8.43341
枳實	-8.43419
一枚	-8.43608
減	-8.43972
布	-8.44379
日三	-8.44515
木通	-8.44535
歌	-8.44585
皮膚	-8.44679
腹脹	-8.4469
十二	-8.44708
投	-8.44779
睡	-8.44965
李	-8.45075
杵	-8.45433
食後	-8.45482
腫痛	-8.45606
痒	-8.45606
循	-8.4563
狀	-8.45742
两	-8.45867
蘇	-8.46266
龍	-8.46319
落	-8.46356
痿	-8.46436
聞	-8.46606
視	-8.46665
身熱	-8.46706
不利	-8.46729
水煎	-8.46805
出聖濟	-8.46869
果	-8.47281
肥	-8.47379
一方	-8.47593
狂	-8.47968
女	-8.48132
風熱	-8.48188
者宜	-8.48341
蒼术	-8.48579
塊	-8.48822
一日	-8.48883
亦有	-8.49002
乳香	-8.49053
斷	-8.49305
制	-8.49318
咽	-8.4934
疽	-8.49401
猪	-8.49523
空	-8.49569
首	-8.49683
降	-8.49752
澤	-8.49827
黄茋	-8.5002
枝	-8.50203
淡	-8.50414
欬	-8.50568
肌肉	-8.50621
箇	-8.5082
粒	-8.50861
亂	-8.50962
膝	-8.51064
原	-8.51209
早	-8.51301
怒	-8.51349
腹滿	-8.51353
㯽榔	-8.51774
砂	-8.51783
獨活	-8.51787
葱	-8.51923
阿膠	-8.5202
心腹	-8.52185
飯	-8.52224
胞	-8.52835
燒灰	-8.52837
關	-8.53671
斤	-8.53763
痔	-8.53793
紙	-8.53863
硃砂	-8.54076
聚	-8.54532
沈	-8.54537
唾	-8.54597
辨	-8.546
所謂	-8.54637
尚	-8.54839
東	-8.54854
乗	-8.54862
語	-8.54918
滋	-8.54979
遇	-8.55089
榖	-8.5522
宜服	-8.55278
折	-8.55479
尖	-8.55639
端	-8.55765
靈	-8.56002
各五	-8.56011
七日	-8.56012
共	-8.56049
桃	-8.56334
身體	-8.56396
故也	-8.56421
露	-8.56428
一服	-8.56448
悉	-8.56503
陷	-8.56525
赤芍藥	-8.5663
風寒	-8.56642
華	-8.56728
喉	-8.56849
犀角	-8.56849
葛根	-8.5685
北	-8.56935
項	-8.57129
傅之	-8.57454
尾	-8.57814
診	-8.57964
濁	-8.58023
得之	-8.58023
爾	-8.58131
此方	-8.58145
向	-8.58175
此藥	-8.58423
三十	-8.58556
問	-8.58732
煎服	-8.5912
大腸	-8.59259
千	-8.59331
苗	-8.5934
両	-8.59492
等分	-8.59595
為細末	-8.59694
對	-8.599
煩躁	-8.60078
古	-8.60111
按之	-8.60112
畏	-8.60183
焉	-8.603
衝	-8.60326
髪	-8.60327
其人	-8.60532
心痛	-8.60572
速	-8.60882
滑石	-8.61021
敗	-8.61334
宣	-8.614
之所	-8.61434
日三服	-8.6147
凉	-8.61504
羅	-8.61525
臂	-8.61591
龍骨	-8.61873
銅	-8.61917
赤茯苓	-8.61959
小便不利	-8.62171
則為	-8.62274
焙乾	-8.62292
肌	-8.62441
故曰	-8.62554
思	-8.62559
雜	-8.62644
總録	-8.62856
頓	-8.63044
坐	-8.63128
帶	-8.63234
飛	-8.63327
如此	-8.63356
經云	-8.63413
小腸	-8.63416
荆芥	-8.63468
五臟	-8.63663
客	-8.63824
千金	-8.63926
十丸	-8.64022
瘦	-8.6407
廣	-8.64097
睛	-8.64188
助	-8.64287
橘皮	-8.64357
續	-8.64474
漏	-8.64526
主治	-8.64572
都	-8.64574
妄	-8.64592
臨	-8.64744
連翹	-8.64941
之病	-8.64953
塗之	-8.65157
泥	-8.65258
時珍曰	-8.65389
心下	-8.65438
青皮	-8.65848
覆	-8.65901
梔子	-8.65919
聖	-8.65961
濕熱	-8.65979
任	-8.66009
素	-8.66083
再服	-8.66089
乘	-8.66324
湯主之	-8.66475
上下	-8.66512
液	-8.66589
右用	-8.66674
旋	-8.66727
導	-8.66797
終	-8.67009
秘	-8.67095
氣虚	-8.67098
半錢	-8.6711
屎	-8.67213
活	-8.67314
經絡	-8.67357
勢	-8.67389
地黄	-8.67444
萬	-8.67496
酒服	-8.67624
俞	-8.67655
膿血	-8.67706
君	-8.678
胸中	-8.68075
不同	-8.68455
逺	-8.68516
霍亂	-8.68817
殺	-8.69088
三焦	-8.69132
恵方	-8.69277
諸藥	-8.69315
殻	-8.69382
刀	-8.694
厥隂	-8.69436
大棗	-8.69468
位	-8.69562
盞	-8.69723
脱	-8.6979
白礬	-8.69878
待	-8.69904
太隂	-8.69931
光	-8.70072
求	-8.7033
唇	-8.70442
作痛	-8.70445
逐	-8.70534
病人	-8.71001
者以	-8.71056
佳	-8.71061
濟	-8.71335
薑汁	-8.71568
糞	-8.71598
毎	-8.71598
以水	-8.71785
尤	-8.71806
又云	-8.71933
竅	-8.71997
下血	-8.72107
五味	-8.72318
自汗	-8.72342
以為	-8.7264
穀	-8.72662
天麻	-8.72776
躁	-8.72869
肉桂	-8.72958
舊	-8.72998
各等	-8.73002
艾	-8.7301
𫝊	-8.73078
飲之	-8.73347
銀	-8.73741
也故	-8.73811
公	-8.73879
澀	-8.73928
磨	-8.74189
五藏	-8.74351
麵	-8.74377
録	-8.74568
鳴	-8.74635
胡	-8.74748
洪	-8.74845
一丸	-8.74903
㪚	-8.74967
予	-8.75038
所致	-8.75105
短	-8.75244
了	-8.75387
不用	-8.7555
之證	-8.75579
葱白	-8.75772
甚者	-8.75859
水一盞	-8.76061
還	-8.76078
喫	-8.76118
犯	-8.76121
肩	-8.76167
周	-8.76308
西	-8.76373
疹	-8.76398
然後	-8.76418
水煎服	-8.76592
無力	-8.76785
腸胃	-8.76979
酒下	-8.77124
小腹	-8.77158
依	-8.77514
病者	-8.77535
採	-8.77541
牛黄	-8.7755
熱毒	-8.77684
硬	-8.77802
椒	-8.77839
凝	-8.77849
風邪	-8.7786
麩炒	-8.77946
不安	-8.78116
量	-8.78122
前胡	-8.78297
封	-8.78414
㑹	-8.78505
保	-8.78517
透	-8.78561
白芍藥	-8.78703
大小	-8.78738
裹	-8.78856
生瘡	-8.79024
硫黄	-8.79035
丁	-8.79214
吐血	-8.79403
膠	-8.79461
二分	-8.79615
糊	-8.79621
取汁	-8.79648
擣	-8.79667
不調	-8.7986
筋骨	-8.79874
呼	-8.80043
一盞	-8.80143
有餘	-8.80193
涼	-8.80334
之間	-8.80357
瘀血	-8.8039
豈	-8.80513
倍	-8.80541
義	-8.80834
二十丸	-8.81023
孔	-8.81078
一斤	-8.81483
綿	-8.8161
具	-8.81698
置	-8.81912
鷄	-8.81941
味苦	-8.81996
守	-8.82278
側	-8.82407
其氣	-8.82477
疝	-8.82545
脊	-8.82568
腐	-8.82603
表裏	-8.82744
癎	-8.82777
樹	-8.82791
口乾	-8.82845
灌	-8.82901
沙	-8.83242
論曰	-8.8325
逺志	-8.83256
吹	-8.83354
頻	-8.83445
臟腑	-8.83601
胃中	-8.83782
絲	-8.83807
人参	-8.83829
危	-8.83856
之後	-8.84001
苓	-8.84015
經曰	-8.84083
脚氣	-8.84121
术	-8.84248
者死	-8.84492
膜	-8.84699
桑	-8.8481
攪	-8.85095
本草	-8.8513
湯洗	-8.85222
遍	-8.85314
牡蠣	-8.85427
即愈	-8.85618
鐵	-8.85775
其病	-8.85827
宜用	-8.85873
男子	-8.86017
珍	-8.86251
者此	-8.86252
𢷬	-8.86494
者有	-8.86595
烏梅	-8.86645
珠	-8.86702
他	-8.86744
緊	-8.86813
翳	-8.86942
觀	-8.86976
十四	-8.87053
地骨皮	-8.87055
敷	-8.87181
治法	-8.87649
取出	-8.87881
研細	-8.88037
疑	-8.88091
五升	-8.88194
已上	-8.88246
無所	-8.8831
癰疽	-8.88317
治婦人	-8.88366
咳𠻳	-8.88569
補之	-8.88914
莫	-8.89017
减	-8.89017
錢半	-8.89018
腰痛	-8.89042
本經	-8.89168
有熱	-8.89225
竭	-8.89256
篇	-8.89368
者是	-8.89369
無時	-8.89488
麫	-8.89542
味甘	-8.89612
又有	-8.89633
癖	-8.89644
可以	-8.89745
芒硝	-8.89745
之法	-8.89767
斑	-8.89813
一寸	-8.90014
不治	-8.9013
横	-8.9013
害	-8.90265
慎	-8.90283
虎	-8.90316
煖	-8.90349
象	-8.9059
臣	-8.90592
竹葉	-8.90689
一二	-8.90863
用藥	-8.90992
雄	-8.91157
三四	-8.91183
湯調下	-8.91196
先以	-8.91198
仙	-8.91229
雞子	-8.91233
婦	-8.91328
右以	-8.91499
沉香	-8.91572
不出	-8.91576
巳	-8.91636
煩悶	-8.91868
山梔	-8.91985
説	-8.92065
益氣	-8.92066
茯神	-8.92155
朝	-8.92218
含	-8.9224
不行	-8.92293
豉	-8.92386
洩	-8.92416
無汗	-8.92574
被	-8.92597
曰此	-8.92688
湯浸	-8.92693
總	-8.92695
入藥	-8.92898
㕮咀	-8.92926
治傷寒	-8.92963
麥	-8.92964
嗽	-8.93088
霜	-8.93096
頂	-8.93177
脫	-8.93255
煩熱	-8.93302
歲	-8.93464
溢	-8.93722
者用	-8.9374
哉	-8.93822
先用	-8.93871
加減	-8.94136
載	-8.94141
治風	-8.94183
遺	-8.94254
毒氣	-8.94336
紫蘇	-8.94535
下焦	-8.94638
淫	-8.94641
困	-8.94813
煆	-8.9487
糯米	-8.94938
三五	-8.9495
不解	-8.95188
熟地黄	-8.95259
貝母	-8.95266
輕粉	-8.95392
脹滿	-8.9549
併	-8.95509
鹹	-8.95638
泉	-8.95647
去白	-8.95676
浴	-8.95927
漬	-8.95932
炒各	-8.96047
出血	-8.96243
㣲炒	-8.96301
脇	-8.96314
癢	-8.96364
屑	-8.96392
胸膈	-8.96401
脉浮	-8.96471
而為	-8.9681
惡瘡	-8.9683
米飲下	-8.96897
𠻳	-8.96927
将	-8.97202
鬚	-8.97365
越	-8.97488
墜	-8.97531
酥	-8.9754
推	-8.97638
谷	-8.97755
兩半	-8.97909
松	-8.98193
稀	-8.98301
曲	-8.98381
上氣	-8.98388
治一切	-8.98462
各半兩	-8.98546
熱病	-8.98555
而成	-8.98574
咽喉	-8.98581
皮臍	-8.98725
桑白皮	-8.9876
髮	-8.98803
取之	-8.98843
溺	-8.99058
陳橘皮	-8.99082
憂	-8.99285
不下	-8.993
蒜	-8.99365
歳	-8.9943
津	-8.99478
尸	-8.99479
井	-8.99515
移	-8.99575
虚實	-8.99804
嘔逆	-8.99844
龍腦	-8.99854
五十	-8.99918
咳	-8.99993
惡風	-9.00131
分三服	-9.00157
者皆	-9.00175
觧	-9.0023
方治	-9.0024
嚼	-9.00435
下痢	-9.00535
衆	-9.00678
縮	-9.00798
強	-9.00906
野	-9.01001
充	-9.01007
俗	-9.01021
蠟	-9.01044
審	-9.01046
靣	-9.01114
三寸	-9.01182
機	-9.0134
尿	-9.01467
煎至	-9.01539
倒	-9.01599
雨	-9.01622
也其	-9.01622
烏頭	-9.01677
存	-9.01741
甚則	-9.01839
拌	-9.01868
髓	-9.01873
壯熱	-9.01921
葛	-9.02107
鞕	-9.02121
宗	-9.02346
不及	-9.02526
水銀	-9.02528
者加	-9.02543
不和	-9.02992
皂角	-9.03235
各四	-9.03251
品	-9.03252
虚寒	-9.0329
不食	-9.0334
炙各	-9.03351
粗	-9.0341
微炒	-9.03464
煎湯	-9.03621
約	-9.03757
子大	-9.03796
午	-9.03819
左右	-9.0384
匕	-9.03931
不愈	-9.04067
承	-9.04089
看	-9.04109
淨	-9.04415
每服三錢	-9.0442
期	-9.04462
唐	-9.04486
士	-9.04493
血虚	-9.04557
味辛	-9.04856
三升	-9.04875
遍身	-9.04965
榮衛	-9.05106
不已	-9.05129
摩	-9.05135
咬	-9.05278
短氣	-9.05362
服藥	-9.05532
精神	-9.05553
調下	-9.05579
一兩半	-9.05769
内外	-9.05809
胷	-9.05904
餅	-9.05938
氣逆	-9.06071
嚥	-9.06104
為主	-9.0613
上焦	-9.06149
前藥	-9.06435
吞	-9.06676
亦得	-9.06764
不拘時候	-9.06772
水氣	-9.06772
豬	-9.0681
說	-9.06818
彼	-9.06886
支	-9.07496
懸	-9.0782
十五	-9.07864
丸如	-9.07865
鼈甲	-9.08089
離	-9.08099
以上	-9.0821
之時	-9.08324
濡	-9.08397
出本	-9.0841
瓶	-9.08629
三月	-9.0869
蝕	-9.08947
每用	-9.09045
五兩	-9.09187
常服	-9.09274
代	-9.09335
瓦	-9.09409
患處	-9.09461
湏	-9.09499
勿令	-9.09512
星	-9.09651
去皮尖	-9.09888
病也	-9.09938
腿	-9.10018
▁(	-9.10091
為丸	-9.1016
沫	-9.10163
飽	-9.10193
中有	-9.10225
净	-9.10263
衛	-9.10385
氣不足	-9.10408
𤓰	-9.10496
辟	-9.10584
増	-9.1059
肚	-9.10698
荆	-9.10811
大者	-9.10819
腑	-9.10891
納	-9.10928
瘀	-9.10935
浮腫	-9.10976
江	-9.10998
房	-9.11227
一人	-9.11323
以致	-9.11345
五日	-9.11407
比	-9.11428
個	-9.11434
積聚	-9.11444
二味	-9.11473
心煩	-9.11495
者必	-9.11546
同煎	-9.11565
車	-9.1159
信	-9.11633
囊	-9.11658
專	-9.11881
肘	-9.12016
為散	-9.12083
夢	-9.12122
来	-9.12249
桂枝湯	-9.12299
眩	-9.12334
一合	-9.12369
太過	-9.12506
官	-9.12567
風濕	-9.12578
赤白	-9.1259
乍	-9.12689
暈	-9.12952
孫	-9.13005
女子	-9.13105
丹砂	-9.13152
口噤	-9.13164
單	-9.13466
口中	-9.13468
營	-9.13503
病在	-9.13549
齊	-9.13597
夾	-9.13633
藿香	-9.13713
咳嗽	-9.13793
斯	-9.13798
頰	-9.1382
内熱	-9.13829
礬	-9.14301
大熱	-9.14415
又曰	-9.14455
掌	-9.14531
陶	-9.14558
卷中	-9.14613
之則	-9.14661
黄色	-9.14693
住	-9.14718
熏	-9.14719
右為散	-9.1487
旦	-9.152
衂	-9.15216
四時	-9.1523
拘急	-9.15252
稠	-9.15313
十日	-9.1537
属	-9.15475
紅花	-9.15503
打	-9.15507
山藥	-9.15527
里	-9.15603
男	-9.15863
高	-9.16049
脛	-9.16065
各一錢	-9.16125
隔	-9.16155
澤瀉	-9.16194
快	-9.16224
茴香	-9.16264
着	-9.16307
延	-9.1648
潮熱	-9.16502
騐	-9.16531
生地	-9.16696
例	-9.16805
嘗	-9.16806
臥	-9.16815
苦參	-9.16822
其脉	-9.16843
欽定四庫全書	-9.16886
藤	-9.16893
三陽	-9.16915
車前子	-9.17109
不應	-9.17133
傍	-9.17216
隂氣	-9.17401
包	-9.17681
飲水	-9.17715
所傷	-9.17746
脇下	-9.17746
四十	-9.17803
三十丸	-9.17845
斂	-9.17853
木𤓰	-9.17855
赤石脂	-9.1793
黄丹	-9.17955
小柴胡湯	-9.17963
不計時候	-9.18036
此為	-9.18128
難治	-9.18291
宻	-9.18301
氣不	-9.18559
杜仲	-9.18582
冷氣	-9.18634
𤣥	-9.18676
解毒	-9.18689
丹溪	-9.18738
雲	-9.18786
碗	-9.18828
者亦	-9.18837
每服一錢	-9.18919
麻子	-9.19008
熱則	-9.19165
帛	-9.19172
暖	-9.19249
溫服	-9.19251
送下	-9.19299
白附子	-9.19385
大豆	-9.19493
五丸	-9.19509
加味	-9.19521
鼻中	-9.19537
殊	-9.19576
人之	-9.19881
虚弱	-9.1995
河	-9.20001
柔	-9.20027
耗	-9.20108
佐	-9.20118
癥	-9.20294
槐	-9.20301
瘕	-9.20371
此證	-9.20383
亡	-9.20465
粟	-9.20536
察	-9.20617
一劑	-9.20626
一箇	-9.20644
斗	-9.20738
竒	-9.20798
决	-9.20892
牡丹皮	-9.21158
神效	-9.21164
不拘時	-9.21227
犬	-9.21406
南星	-9.21528
不能食	-9.21583
下部	-9.21588
天南星	-9.21754
師	-9.21906
良方	-9.21914
蜀	-9.21968
或因	-9.22012
就	-9.22035
之以	-9.22123
楊	-9.22135
冷水	-9.22138
米飲	-9.22223
每服五錢	-9.22228
美	-9.22251
挾	-9.22313
適	-9.22383
一婦人	-9.22445
也然	-9.22581
竹瀝	-9.22772
有所	-9.22797
銖	-9.22858
腎氣	-9.22984
之人	-9.23015
湯方	-9.23044
國	-9.23114
不仁	-9.23153
不宜	-9.23153
疎	-9.23221
瘡口	-9.23322
即止	-9.23337
宫	-9.23471
也用	-9.23476
者也	-9.23518
驚悸	-9.23527
熨	-9.23575
琥珀	-9.2376
檳榔	-9.23767
各等分	-9.23775
去粗皮	-9.23791
龜	-9.23885
滓	-9.23978
日二	-9.24033
五十丸	-9.24202
石斛	-9.24581
烟	-9.24607
防	-9.24758
一字	-9.2486
膚	-9.24921
入於	-9.2524
肝經	-9.25273
虚而	-9.25292
臓	-9.25367
金方	-9.25387
虚則	-9.25398
一宿	-9.25495
泡	-9.25547
鼠	-9.25662
五苓散	-9.25676
蠱	-9.25701
証	-9.25743
心中	-9.25824
過多	-9.25834
麥冬	-9.25851
狀如	-9.25873
疫	-9.25938
十餘	-9.25971
皂莢	-9.26067
東垣	-9.26106
邊	-9.26135
縱	-9.2615
施	-9.26181
盆	-9.26185
金瘡	-9.26188
䜴	-9.26208
貫	-9.26213
自然	-9.26219
去苗	-9.26237
耳聾	-9.26265
劇	-9.26323
生用	-9.26375
空心服	-9.26475
青黛	-9.26554
涕	-9.26577
頸	-9.26578
冝	-9.26579
吉	-9.2664
雪	-9.26652
附方	-9.26813
隂乾	-9.26893
乙	-9.26968
搐	-9.27229
三丸	-9.27276
不效	-9.27313
悸	-9.27343
悲	-9.27497
炙甘草	-9.27524
痰涎	-9.27545
不過	-9.27624
不見	-9.2767
旁	-9.27773
稱	-9.27894
羚羊角	-9.28259
丸如梧桐子大	-9.28283
少腹	-9.28309
頭疼	-9.28311
觸	-9.28358
空腹	-9.28472
有毒	-9.28549
二三	-9.28596
滴	-9.28657
淺	-9.28705
不消	-9.2872
正氣	-9.28795
五六	-9.28863
佐以	-9.28957
温酒	-9.28982
寸口	-9.28985
内傷	-9.29028
持	-9.2911
徐	-9.29143
菖蒲	-9.29146
設	-9.29215
粘	-9.29334
𤣥參	-9.2941
之脉	-9.29543
噦	-9.2959
刮	-9.29674
啼	-9.29774
出千	-9.29785
臍下	-9.29837
吸	-9.2985
雀	-9.29876
也又	-9.29923
澤㵼	-9.29971
寳	-9.29995
蠶	-9.30033
朱	-9.30118
備	-9.30213
換	-9.30389
室	-9.30454
腎水	-9.30564
干	-9.30574
朴硝	-9.30604
梔子仁	-9.30606
亁	-9.30623
半盞	-9.3064
水一盞半	-9.3076
管	-9.30781
擦	-9.31102
蒲黄	-9.31141
耶	-9.31157
熱服	-9.31363
煎取	-9.31379
白芍	-9.31456
脾氣	-9.31468
葶藶	-9.31498
而安	-9.31531
六分	-9.31541
時時	-9.3156
肺氣	-9.31614
半升	-9.31746
壮	-9.31864
容	-9.31955
一種	-9.32022
疏	-9.3218
瘡上	-9.32239
一百	-9.3225
科	-9.32343
成膏	-9.32346
天門冬	-9.32368
畜	-9.3241
四物湯	-9.32414
狗	-9.3246
川大黄	-9.32595
牽牛	-9.32628
痰飲	-9.32696
面赤	-9.32714
三味	-9.32912
醉	-9.32937
在内	-9.33078
鮮	-9.33138
者可	-9.33238
薛	-9.33462
痙	-9.3356
貼之	-9.33714
灸之	-9.33824
已上各	-9.3388
别研	-9.33886
濃	-9.33909
利小便	-9.33913
瘻	-9.33924
散治小兒	-9.3393
大抵	-9.34039
四分	-9.34151
十枚	-9.34213
匙	-9.34546
綿裹	-9.34583
傷於	-9.34633
太陽病	-9.34681
也此	-9.34717
藍	-9.34761
辰	-9.34763
數日	-9.34842
羸	-9.34859
識	-9.34933
脾土	-9.34974
煅	-9.34998
赤小豆	-9.35035
煉蜜	-9.35095
陰陽	-9.35358
穢	-9.35468
緑	-9.35475
䧟	-9.3553
扵	-9.35586
飢	-9.35623
状	-9.35701
托裏	-9.35714
貴	-9.35783
去皮臍	-9.35788
之邪	-9.3579
記	-9.35811
申	-9.35845
熱氣	-9.3594
姙娠	-9.35985
另	-9.36033
疔	-9.36044
者乃	-9.36163
裂	-9.36216
葵	-9.36243
噎	-9.36259
等證	-9.36283
二服	-9.3642
頭面	-9.36423
是以	-9.36509
荳	-9.36524
地榆	-9.3654
乏	-9.36652
塩	-9.36658
鹿茸	-9.36782
旺	-9.36889
漿水	-9.36901
者當	-9.36904
防己	-9.37028
股	-9.37043
第十	-9.37068
半斤	-9.37092
七分	-9.37115
隂虚	-9.37159
明目	-9.37223
絹	-9.37323
温酒調下	-9.37561
奪	-9.37668
梅	-9.37669
少氣	-9.37677
去黒	-9.37679
八分	-9.37681
生於	-9.37719
補中益氣湯	-9.37741
而反	-9.37784
淚	-9.37813
百日	-9.37827
觔	-9.37922
二寸	-9.37925
濾	-9.38048
寒邪	-9.38107
煉	-9.38125
骨節	-9.38186
實者	-9.38248
試	-9.3828
水調	-9.38385
錯	-9.38425
墨	-9.38434
蜀椒	-9.38445
隠	-9.38473
香附	-9.38498
虗	-9.38537
五合	-9.38541
臨卧	-9.38623
一斗	-9.38636
純	-9.38676
三服	-9.3897
厥逆	-9.38997
撮	-9.39003
而後	-9.39005
素問	-9.39006
多少	-9.3912
温酒下	-9.39185
蕪荑	-9.39281
每服三錢水一盞	-9.39306
足陽明	-9.39446
而痛	-9.39497
食前服	-9.39568
方用	-9.39673
右二味	-9.39763
調服	-9.39961
穴也	-9.39991
劉	-9.40083
心火	-9.401
皆有	-9.40118
疰	-9.40167
癰腫	-9.40208
蜜和	-9.40327
以酒	-9.40368
喘急	-9.40387
接	-9.40468
者則	-9.40489
䑕	-9.40526
格	-9.40565
大如	-9.40591
鍾	-9.40613
發於	-9.40633
永	-9.40636
十八	-9.4076
衞	-9.40886
二劑	-9.4092
下氣	-9.40941
畧	-9.40944
浄	-9.40983
寒氣	-9.40989
三隂	-9.41126
圖	-9.41167
眉	-9.41271
燈心	-9.41325
右為末煉蜜	-9.41383
羊肉	-9.414
者不可	-9.41513
風冷	-9.4153
達	-9.41533
脈浮	-9.41533
瘰癧	-9.41575
面色	-9.41702
陸	-9.41715
漆	-9.41821
摻	-9.41832
治産後	-9.41898
頓服	-9.4192
侵	-9.41944
酸棗仁	-9.42003
黄蘗	-9.42261
一方用	-9.42317
膩粉	-9.42398
飲酒	-9.42404
冒	-9.42552
粟米	-9.42583
芫花	-9.42655
卵	-9.42728
眥	-9.42811
饑	-9.42857
實熱	-9.42865
喉痺	-9.43147
蒼	-9.43294
猪脂	-9.43337
芩	-9.43368
情	-9.43384
靨	-9.43394
甘遂	-9.43404
十全大補湯	-9.4341
如前	-9.43461
訶子	-9.43464
也凡	-9.43562
去粗	-9.43587
欝	-9.43611
學	-9.43655
久服	-9.43675
百病	-9.43688
加减	-9.43723
七枚	-9.43878
冷熱	-9.4388
至於	-9.44036
藥也	-9.44122
猪苓	-9.44174
之若	-9.44218
瘍	-9.44575
不痛	-9.44578
黄栢	-9.4462
滲	-9.44642
粳米	-9.44758
各二兩	-9.44869
恍惚	-9.44895
無毒	-9.44923
訖	-9.45069
肌膚	-9.451
官桂	-9.45112
多食	-9.45112
健	-9.45194
司	-9.45197
仲	-9.45215
疸	-9.4525
雙	-9.45271
傷風	-9.45288
吾	-9.45376
痩	-9.45409
皮毛	-9.4542
箭	-9.45455
當以	-9.45489
羸瘦	-9.45495
采	-9.45504
煮取	-9.45559
在表	-9.45635
少陰	-9.45657
為病	-9.45683
欲死	-9.45726
梁	-9.45781
放	-9.45921
煎至六分去滓	-9.46211
亦不	-9.46244
戒	-9.46391
上攻	-9.46394
伸	-9.46398
癬	-9.46438
蜂	-9.4646
七次	-9.46504
舍	-9.4655
風毒	-9.46581
水浸	-9.46714
溏	-9.46743
底	-9.46751
五七	-9.46832
研末	-9.46898
料	-9.46958
堂	-9.47012
額	-9.47093
起於	-9.47118
源	-9.47147
結胸	-9.47251
日夜	-9.4735
不差	-9.47387
右三味	-9.47448
集解	-9.47472
如常	-9.47558
腠理	-9.4757
胸滿	-9.47583
内經	-9.47613
惡血	-9.47631
續斷	-9.47662
四五	-9.47663
己	-9.47694
腹内	-9.47783
痛不可忍	-9.47879
虚熱	-9.47916
證也	-9.4797
丸如梧桐子大每服	-9.48092
則愈	-9.48155
何以	-9.48197
肉蓯蓉	-9.48206
而生	-9.4822
回	-9.4839
炒令	-9.48598
隱	-9.48714
参	-9.48923
垂	-9.48973
足太陽	-9.49148
可用	-9.49179
又用	-9.49234
相似	-9.49234
尅	-9.49242
炮去	-9.49316
二丸	-9.4936
飲子	-9.49586
羗活	-9.49738
噫	-9.49772
寐	-9.49843
不化	-9.49872
一月	-9.49899
十粒	-9.49901
水腫	-9.49927
林	-9.49961
之候	-9.50068
蘸	-9.50083
右搗	-9.50151
百合	-9.50157
毎服二錢	-9.50163
取其	-9.50182
之中	-9.5021
傾	-9.50241
陵	-9.50337
乳汁	-9.50373
心神	-9.50378
積熱	-9.50492
右四味	-9.50534
湯浸去	-9.50651
柴	-9.50661
者謂	-9.50665
藥末	-9.50701
絞	-9.50823
酢	-9.50944
蔵	-9.51177
韭	-9.51224
吐下	-9.51289
不瘥	-9.51319
大人	-9.51329
水中	-9.51371
攝	-9.51474
在上	-9.51546
偶	-9.51549
假	-9.51627
殺人	-9.51721
去滓温服	-9.51721
虚損	-9.51751
後方	-9.51772
刻	-9.51788
細切	-9.51815
上行	-9.51823
頭風	-9.51885
錄	-9.51938
釋名	-9.5195
季	-9.52095
以其	-9.52185
腕	-9.52195
夕	-9.5227
自愈	-9.52277
氣味	-9.52331
每服二錢	-9.52367
蔓	-9.52376
錫	-9.5242
切焙	-9.52426
生薑汁	-9.52429
藁本	-9.52623
壓	-9.52632
熱者	-9.52679
而無	-9.52743
射	-9.52746
苦寒	-9.52842
氣之	-9.52881
工	-9.52937
譫語	-9.5305
今人	-9.5312
商	-9.5313
簡	-9.53162
調理	-9.53203
蒿	-9.53224
吐逆	-9.53302
晚	-9.5332
理中湯	-9.53412
輕身	-9.53441
徹	-9.53506
竹茹	-9.53567
麻油	-9.53585
以生	-9.53627
孕	-9.53634
瘴	-9.53661
漢	-9.53739
不思飲食	-9.53741
擊	-9.53809
八珍湯	-9.53865
况	-9.53898
倉	-9.53972
諸症	-9.5413
二月	-9.54204
梗	-9.54273
又療	-9.54313
湯送下	-9.54338
染	-9.54355
又以	-9.54359
而已	-9.54428
川烏	-9.54463
十六	-9.54481
牡	-9.54513
細剉	-9.54519
生葱	-9.54549
特	-9.54563
也今	-9.54716
蜈蚣	-9.54726
寒則	-9.54733
更以	-9.54753
加至	-9.54815
扁	-9.54936
静	-9.54984
其所	-9.54993
拭	-9.55186
重者	-9.55191
池	-9.55457
用補中益氣湯	-9.55521
麩	-9.55561
朱砂	-9.55612
老人	-9.55634
互	-9.55646
知其	-9.5578
驚風	-9.55817
枕	-9.55889
苖	-9.5591
和勻	-9.55977
建	-9.56
昔	-9.56032
熱而	-9.56064
肢體	-9.56066
寒濕	-9.56087
篩	-9.56099
另研	-9.56114
勻	-9.56123
蓄	-9.56193
醒	-9.56196
去穰	-9.56197
芎	-9.56299
邪熱	-9.56299
新汲水	-9.56349
白皮	-9.56387
痂	-9.56392
暗	-9.56392
抑	-9.56533
而死	-9.56566
紫苑	-9.5663
繫	-9.56655
忘	-9.5675
収	-9.56803
一處	-9.56871
累	-9.56893
帝曰	-9.56952
全蝎	-9.57033
四物	-9.57131
也宜	-9.5715
耳中	-9.57259
五靈脂	-9.57265
喉中	-9.57297
五月	-9.57343
唯	-9.57345
肝火	-9.57359
在裏	-9.57394
一大	-9.57466
宋	-9.57531
能食	-9.57588
環	-9.57647
尋	-9.57857
中焦	-9.57926
虚勞	-9.57948
灸三壯	-9.57974
寛	-9.58084
麄	-9.58088
神麯	-9.58098
修	-9.5811
膏治	-9.58156
扶	-9.58163
十五丸	-9.58163
吐利	-9.583
去毛	-9.58303
二合	-9.58393
虧	-9.58398
杏	-9.58428
辰砂	-9.58494
秤	-9.58579
瀝	-9.58701
禀	-9.58732
與之	-9.59001
為之	-9.59009
每日	-9.59083
赤色	-9.59107
突	-9.59159
為陽	-9.59177
小麥	-9.59217
精氣	-9.59354
益甚	-9.59381
客於	-9.59405
秦	-9.59415
目赤	-9.59478
大小便	-9.59481
者多	-9.5951
氷	-9.59529
外感	-9.59648
一小兒	-9.59762
遊	-9.59824
泄瀉	-9.59853
一两	-9.59865
麴	-9.59912
徳	-9.59916
屈	-9.59967
中之	-9.59973
發明	-9.60011
杖	-9.60045
蠱毒	-9.60118
發散	-9.6024
每服一丸	-9.60277
春夏	-9.60292
地黄丸	-9.60314
射干	-9.60375
可治	-9.60393
褁	-9.60449
晩	-9.60454
癸	-9.60462
路	-9.60507
寧	-9.60547
發背	-9.60612
標	-9.60665
煩渴	-9.607
京	-9.607
皆可	-9.60709
鈎	-9.60721
三合	-9.60722
惡心	-9.60742
雷	-9.60774
我	-9.60941
痘瘡	-9.60944
餌	-9.6102
畢	-9.61058
菊花	-9.61063
紫草	-9.61177
時氣	-9.61208
牽	-9.61224
川椒	-9.61235
細末	-9.61276
搽	-9.61364
攣	-9.61393
言之	-9.61448
增	-9.61532
天雄	-9.61569
相和	-9.61626
夏月	-9.61728
剛	-9.61762
之狀	-9.61773
吳	-9.61799
犀角屑	-9.61824
艾葉	-9.61841
又名	-9.61869
七月	-9.61892
不定	-9.61904
山谷	-9.61917
煩渇	-9.61959
煮取二升	-9.62055
解之	-9.62055
氏方	-9.62068
計	-9.62126
慢火	-9.62143
消毒	-9.6215
月餘	-9.62165
振	-9.62174
瘤	-9.62206
胷中	-9.62275
煎至七分去滓	-9.62379
白蜜	-9.62391
白色	-9.62446
臍腹	-9.62463
附論	-9.62603
䕶	-9.6261
三稜	-9.62617
灌之	-9.6263
研勻	-9.62654
日再	-9.62682
風氣	-9.62749
吐瀉	-9.628
面目	-9.62821
脾虚	-9.62879
止痛	-9.62903
煎七分	-9.62977
欬嗽	-9.63013
促	-9.63026
督	-9.63048
腰脚	-9.63076
寒水石	-9.63185
猪肉	-9.63193
之症	-9.63284
頗	-9.63299
胸脇	-9.63406
則氣	-9.63432
七錢	-9.63449
右搗篩	-9.63476
右件	-9.63479
以水一斗	-9.63492
疥	-9.63596
良久	-9.63606
醫者	-9.63618
丸服	-9.63722
其證	-9.63735
謹	-9.63767
曽	-9.63774
前後	-9.63808
砂仁	-9.63814
按此	-9.63829
相搏	-9.63886
之意	-9.63925
添	-9.63947
磁石	-9.63964
酒調下	-9.63977
熟地	-9.63985
初起	-9.63992
綱	-9.64015
權	-9.64096
肝木	-9.64106
口瘡	-9.6413
鹽湯	-9.64144
硝	-9.64329
二穴	-9.64379
蘆頭	-9.64404
之物	-9.64416
橘	-9.64431
削	-9.64448
蘆薈	-9.64449
鳥	-9.6449
截	-9.64664
炎	-9.64696
眠	-9.64791
熱甚	-9.64815
列	-9.64821
蘭	-9.64855
分作	-9.64861
密	-9.6491
出汗	-9.6494
貯	-9.64944
痓	-9.64998
右剉散	-9.65007
丸治小兒	-9.65046
薏苡仁	-9.65079
吐之	-9.65159
古人	-9.65182
翅	-9.65196
入腹	-9.65216
免	-9.65261
庶	-9.65525
數劑	-9.65564
谿	-9.6557
預	-9.65589
熱也	-9.65714
煮取三升	-9.65786
萬物	-9.65809
荆芥穗	-9.65824
或用	-9.65966
血脉	-9.66023
微黄	-9.66147
浸一宿	-9.66161
不必	-9.66188
舒	-9.66232
橘紅	-9.66246
戰	-9.66264
乾地黄	-9.66291
大寒	-9.66303
第一	-9.66304
剉碎	-9.66347
忍	-9.66349
頃	-9.66394
腎虚	-9.66412
五色	-9.66447
虚冷	-9.66463
兩手	-9.66478
鎊	-9.66508
之屬	-9.66548
二日	-9.66598
溼	-9.6668
須臾	-9.66701
腥	-9.66718
六兩	-9.66745
好酒	-9.66808
天地	-9.66897
不復	-9.66931
水二盞	-9.66936
造	-9.66958
慢	-9.67078
頭目	-9.67082
立效	-9.67095
鼓	-9.67182
實則	-9.67217
桑根白皮	-9.67224
之義	-9.67252
㣲黄	-9.67264
溲	-9.67266
初生	-9.67319
而復	-9.67477
者其	-9.67533
圍	-9.67548
四味	-9.67596
顧	-9.67675
欬逆	-9.6772
隂中	-9.67723
堪	-9.67773
腸鳴	-9.67798
童便	-9.67883
病之	-9.67883
受病	-9.67915
之道	-9.67945
六十	-9.67983
吐㵼	-9.68003
麵糊	-9.68021
肝腎	-9.68044
紫色	-9.68087
者即	-9.68144
眞	-9.68199
惑	-9.68243
不欲	-9.68349
寅	-9.68543
身重	-9.68587
維	-9.6859
椀	-9.68629
一方無	-9.68631
童	-9.6866
水調下	-9.68688
丙	-9.68742
聖散	-9.68756
去根	-9.68774
調和	-9.68775
去節	-9.68777
淘	-9.68787
術	-9.68909
泄㵼	-9.68928
狐	-9.68972
骨蒸	-9.69176
腰脊	-9.69182
撰	-9.6921
月水	-9.69234
黒色	-9.69247
政	-9.69251
可知	-9.69258
縫	-9.69261
峻	-9.69306
笑	-9.69328
去渣	-9.69384
食少	-9.69424
鼻塞	-9.6944
四錢	-9.69467
第二	-9.69526
天行	-9.69584
烏藥	-9.69664
去殻	-9.69705
前症	-9.69721
哭	-9.69761
􁀙	-9.69765
符	-9.69781
生肌	-9.69818
食後服	-9.69831
診之	-9.69926
有汗	-9.69962
崩	-9.70012
治姙娠	-9.70021
生薑三片	-9.7008
法當	-9.70086
受邪	-9.70214
仰	-9.70227
雖有	-9.70247
此皆	-9.70249
没藥	-9.70254
郡	-9.70283
生乾地黄	-9.70297
消渴	-9.70304
刺痛	-9.70384
線	-9.70408
吳茱茰	-9.70492
去鬚	-9.70615
空心食前	-9.70781
相火	-9.70787
鍊	-9.70838
壅滯	-9.70845
靜	-9.70885
煙	-9.70924
心肺	-9.70947
骨髓	-9.70983
鐡	-9.71045
屋	-9.71121
田	-9.71125
於内	-9.71141
未盡	-9.71181
脉沉	-9.712
瞖	-9.71255
牙齒	-9.71294
香附子	-9.71308
葉似	-9.71313
痛者	-9.71332
缺	-9.71354
酥炙	-9.71427
紀	-9.71432
洗之	-9.71488
暮	-9.71539
揩	-9.71601
硇砂	-9.71655
酉	-9.71663
延年	-9.71673
蒲	-9.71693
輸	-9.71719
賊	-9.71743
瘡瘍	-9.71813
麻仁	-9.71863
真氣	-9.71892
乾葛	-9.71964
虚者	-9.71964
帶下	-9.7198
七丸	-9.72008
心氣	-9.7201
臼	-9.72021
等藥	-9.72046
治諸	-9.72052
袋	-9.72099
藴	-9.72177
盛則	-9.7219
以此	-9.72212
輕重	-9.72259
嫩	-9.72304
有力	-9.72327
脣	-9.72337
迷	-9.72357
庚	-9.72389
煩滿	-9.72422
腧	-9.72444
産婦	-9.72472
送	-9.7248
或有	-9.72487
而痊	-9.72528
亦治	-9.72572
赤腫	-9.72575
以下	-9.7261
萆薢	-9.72865
不禁	-9.7287
若不	-9.72992
為寒	-9.73056
栁	-9.73071
閉塞	-9.73074
虚也	-9.73088
化痰	-9.73215
用此	-9.7322
太陰	-9.73254
之功	-9.73293
羽	-9.73435
金匱	-9.73443
龍膽	-9.73531
方論	-9.73564
内經曰	-9.73574
其脈	-9.73592
顔色	-9.73631
炭	-9.73682
自出	-9.73688
窠	-9.73699
煎至五分去滓	-9.73709
訣	-9.7373
亷	-9.73739
黄疸	-9.73758
一半	-9.73759
丸如梧子大	-9.7378
御	-9.73793
脾肺	-9.73833
親	-9.73843
癲	-9.73851
腰背	-9.74001
束	-9.74033
水一大盞	-9.74089
磁	-9.74097
冐	-9.74117
到	-9.74129
乾嘔	-9.74146
各七	-9.74154
問曰	-9.74193
巨	-9.74227
丹參	-9.74254
所生	-9.74319
過度	-9.74447
墮	-9.74505
言語	-9.74571
生姜	-9.74588
下後	-9.74592
四逆湯	-9.74601
目眩	-9.74669
調塗	-9.74671
臣禹錫等謹按	-9.74717
棗肉	-9.74723
存性	-9.74749
十一	-9.74792
右先	-9.74816
户	-9.74836
小便利	-9.74861
陷中	-9.74925
麝	-9.74934
氣滯	-9.74944
經脉	-9.75094
阻	-9.75133
清熱	-9.7515
樞	-9.75181
不生	-9.75199
是謂	-9.75215
白殭蠶	-9.75233
暴乾	-9.75233
陽虚	-9.75237
瞿麥	-9.75405
妊娠	-9.75481
胡粉	-9.755
鬰	-9.75656
先生	-9.75703
鉛	-9.75721
炒黄	-9.75777
垢	-9.75863
不散	-9.75879
瓜	-9.75905
茅	-9.75929
不收	-9.75931
服此	-9.75972
郁李仁	-9.75976
餳	-9.76021
齋	-9.76024
礬石	-9.76025
蔓荆子	-9.76042
轉筋	-9.76057
苦酒	-9.76205
倦	-9.76219
去核	-9.76289
怯	-9.76321
邪在	-9.76384
専	-9.76398
去苖	-9.764
屈伸	-9.76466
水下	-9.76597
魂	-9.76603
右五味	-9.76661
痊	-9.76661
五臓	-9.76689
人參白术	-9.76723
八月	-9.76935
者名	-9.7695
小便赤	-9.76993
補脾	-9.77011
為君	-9.77027
中氣	-9.77094
作渴	-9.77102
秋冬	-9.77387
炒去	-9.7742
衂血	-9.77464
民	-9.77513
米醋	-9.77524
月經	-9.776
者是也	-9.77604
盤	-9.77696
序	-9.7774
索	-9.77752
十九	-9.77796
匀	-9.778
濃煎	-9.77825
松脂	-9.77846
蓮	-9.77911
熾	-9.7794
之理	-9.77942
歛	-9.78034
酒調	-9.78093
眀	-9.78105
二枚	-9.78112
宿食	-9.78205
否	-9.78252
虧損	-9.78263
乾漆	-9.78293
出於	-9.78581
一味	-9.78626
壬	-9.78693
急痛	-9.78714
晒乾	-9.78738
女人	-9.78799
誠	-9.78825
武	-9.78831
桐	-9.78833
嗜	-9.78875
掣	-9.78878
秦芁	-9.78936
后	-9.78953
蒸餅	-9.79005
為熱	-9.79013
令勻	-9.79058
盜汗	-9.7907
立愈	-9.79077
六月	-9.79087
穿	-9.79135
酒炒	-9.7921
米飲調下	-9.79262
輔	-9.79353
驚癎	-9.79377
十三	-9.79388
杜	-9.79398
乳食	-9.79469
麻黄湯	-9.79476
注云	-9.79479
兩脇	-9.79484
執	-9.7952
也當	-9.79612
化為	-9.79622
古方	-9.79624
頭眩	-9.79693
乾燥	-9.7987
舌上	-9.7993
資	-9.79965
在下	-9.7997
發黄	-9.79979
又方用	-9.79989
白虎湯	-9.80016
半日	-9.8003
莖葉	-9.80043
汗之	-9.80119
鹿	-9.80128
毎服一錢	-9.80148
甜	-9.80225
七情	-9.80229
澄	-9.80236
後用	-9.80246
陽明病	-9.80284
小便不通	-9.80285
衇浮	-9.80334
南方	-9.80383
衛氣	-9.80391
呼吸	-9.80412
羅為散	-9.80451
若因	-9.80567
六七日	-9.80637
冬月	-9.8071
此乃	-9.80745
加附子	-9.80802
蝎	-9.80869
潄	-9.80897
更服	-9.80962
鷄子	-9.81056
以手	-9.81097
詩	-9.81108
第三	-9.81117
丹皮	-9.81123
令匀	-9.81126
麪	-9.81147
色白	-9.81261
和丸	-9.81313
獸	-9.81329
熟乾地黄	-9.8133
故名	-9.81332
一男子	-9.81365
顆	-9.81403
八九	-9.81419
心下痞	-9.81476
晝	-9.81492
薑棗	-9.81494
揚	-9.81563
避	-9.81573
圖經曰	-9.81678
縁	-9.81743
鹽湯下	-9.81776
胡椒	-9.81873
泣	-9.8191
四逆	-9.8192
血出	-9.81991
𤼵	-9.82
涌	-9.82022
夀	-9.8205
於外	-9.82073
諸病	-9.82089
人迎	-9.8209
丸如桐子大	-9.82092
姜	-9.82168
為隂	-9.82179
故令	-9.82207
攻之	-9.82287
癭	-9.82305
十七	-9.82305
足少隂	-9.82347
一片	-9.82356
百壯	-9.82414
七遍	-9.82456
捻	-9.82464
完	-9.82677
如是	-9.82703
二百	-9.82781
自利	-9.82857
攤	-9.82863
景	-9.82937
於肺	-9.82942
釋	-9.82981
蹄	-9.83091
傷脾	-9.83116
更加	-9.83122
易之	-9.83247
之下	-9.83249
相摶	-9.83276
椎	-9.83302
鼻衂	-9.83493
五寸	-9.83617
用六君	-9.83661
也夫	-9.83717
肉豆蔲	-9.8373
慮	-9.83748
聖濟	-9.83762
五行	-9.83827
一塊	-9.83859
如膏	-9.83903
水道	-9.83923
挺	-9.83962
此病	-9.84016
七壯	-9.8416
口苦	-9.84174
研各	-9.84199
外邪	-9.84346
生冷	-9.84352
大補	-9.84352
敷之	-9.84356
心主	-9.84364
石灰	-9.84398
吳茱萸	-9.84411
右除	-9.84508
紋	-9.84576
滚	-9.84592
欲絶	-9.84616
不明	-9.84624
每服四錢	-9.84625
枳	-9.84628
纒	-9.84639
慄	-9.84693
咽乾	-9.8472
各有	-9.84748
不問	-9.84767
色黄	-9.84902
水榖	-9.84913
不盡	-9.84997
伐	-9.85035
川升麻	-9.85037
崩中	-9.85039
戊	-9.85108
證治	-9.85114
教	-9.85162
作一服	-9.85173
胡黄連	-9.85193
雌	-9.85234
其中	-9.85246
補中益氣	-9.85269
係	-9.85273
肘後	-9.85282
藜蘆	-9.85308
日二服	-9.85338
以苦	-9.85353
癥瘕	-9.85367
鎮	-9.85396
筋脉	-9.85448
牢	-9.85467
頌曰	-9.85475
陽也	-9.8548
僧	-9.85566
犀	-9.85635
搏	-9.85695
司天	-9.85705
六味	-9.85715
形如	-9.85729
梨	-9.85761
摶	-9.85793
抱	-9.85794
丸如菉豆大	-9.85834
麫糊	-9.85878
温中	-9.8591
竟	-9.85919
八味丸	-9.86028
九月	-9.86061
黒豆	-9.86163
吞下	-9.86196
號	-9.86263
擇	-9.86381
鍋	-9.8644
出肘	-9.86472
謹按	-9.86508
旬	-9.86597
四君子湯	-9.86637
者由	-9.86641
經水	-9.86665
普	-9.86734
窮	-9.86763
履	-9.86769
流注	-9.86771
其毒	-9.86812
黄蠟	-9.86824
脇痛	-9.86851
方寸匕	-9.86884
痞滿	-9.86889
煎至七分	-9.8689
地龍	-9.86897
通利	-9.86935
燈	-9.86938
妄行	-9.86941
編	-9.86986
三部	-9.87027
其性	-9.87072
不起	-9.87101
而數	-9.87108
此是	-9.87128
月採	-9.87219
血熱	-9.87263
七八	-9.87285
色赤	-9.87287
補腎	-9.87367
四月	-9.87391
把	-9.87456
足少陽	-9.87474
脹痛	-9.87488
已成	-9.87494
仆	-9.87505
沒藥	-9.87535
榮衞	-9.87552
生者	-9.87596
右同	-9.87629
癩	-9.87644
㫁	-9.87647
同研	-9.87671
器中	-9.8768
梧桐	-9.87724
所在	-9.87728
繼	-9.87729
握	-9.87742
秦艽	-9.87771
質	-9.87809
晝夜	-9.87825
有人	-9.87828
盗汗	-9.87829
不過三	-9.87866
即瘥	-9.879
下行	-9.87915
嘉	-9.87924
傷損	-9.87925
安神	-9.87959
述	-9.87989
大㦸	-9.88004
拘	-9.8806
局方	-9.88071
俠	-9.88178
如無	-9.88194
温無毒主	-9.8822
故以	-9.88278
休	-9.88288
寫	-9.88324
丈	-9.88414
改	-9.8845
漫	-9.88471
論云	-9.88496
灼	-9.88525
據	-9.88533
而有	-9.88554
徃	-9.88626
不時	-9.88701
烈	-9.88741
童子小便	-9.88837
有寒	-9.88875
懐	-9.88923
伯	-9.88926
乳母	-9.88966
肺金	-9.8905
菉豆	-9.8918
壊	-9.89192
徧	-9.89283
考	-9.89336
乆服	-9.89353
不得眠	-9.89376
汗下	-9.89435
黄蘖	-9.89449
栢	-9.89449
其色	-9.89487
豆大	-9.89542
嚏	-9.89542
請	-9.89574
斜	-9.89582
承氣湯	-9.89636
如泥	-9.89654
不語	-9.89668
喘息	-9.89701
氣虛	-9.89722
寶	-9.89739
洗去	-9.89814
讝語	-9.89878
甘菊花	-9.89882
常山	-9.89884
脉之	-9.89911
腎經	-9.8993
茵陳	-9.89944
當用	-9.89973
糓	-9.89985
必有	-9.90009
者不	-9.90136
鯉魚	-9.90145
加人參	-9.90205
黄帝	-9.90246
之令	-9.90299
㫖	-9.90325
四升	-9.9033
丑	-9.90347
消渇	-9.9041
一兩去	-9.90425
炮製	-9.90439
糖	-9.90449
水穀	-9.90467
肺痿	-9.90521
仍用	-9.90589
搗碎	-9.90613
多用	-9.90614
心胸	-9.90626
和匀	-9.90642
不勝	-9.90662
䖝	-9.90702
癤	-9.90707
塵	-9.90709
腫滿	-9.90715
皂	-9.90741
英	-9.90782
假令	-9.90784
不快	-9.90983
悶亂	-9.9101
細嚼	-9.91051
六七	-9.91079
各二錢	-9.91096
薫	-9.91363
少隂病	-9.914
為衣	-9.91461
漸漸	-9.91471
壹	-9.91487
系	-9.915
炭火	-9.91565
薑三片	-9.91587
再用	-9.91614
一法	-9.91624
俟	-9.91632
千金方	-9.91714
醋炙	-9.91772
七十	-9.91774
迎	-9.91803
次用	-9.91807
小便數	-9.9182
撲	-9.91826
水洗	-9.91919
不拘多少	-9.91923
飲冷	-9.91932
為末以	-9.9194
備急	-9.91942
堅硬	-9.9195
柏	-9.91989
鱗	-9.92022
日華子云	-9.92051
不可下	-9.92073
虞	-9.92091
剉各	-9.92169
酒洗	-9.92174
米泔	-9.92178
山查	-9.92225
中惡	-9.92241
芎歸	-9.92254
帝	-9.9235
愚	-9.9236
五加皮	-9.92366
法也	-9.92406
右剉	-9.92469
内有	-9.92493
顛	-9.92514
之疾	-9.92531
腸風	-9.92572
勞役	-9.92575
地黃	-9.92624
蓯蓉	-9.9265
燒存性	-9.92681
蒂	-9.92724
則病	-9.92734
瘡疹	-9.92739
毎服五錢	-9.92745
腋	-9.92837
丈夫	-9.92865
冲	-9.92962
未解	-9.9302
鴨	-9.93041
白虎	-9.93044
跌	-9.93077
二斗	-9.93118
凶	-9.9316
治卒	-9.93205
栢子仁	-9.93242
而喘	-9.9332
章	-9.93321
奔	-9.93342
一條	-9.93436
心脾	-9.93439
海藻	-9.93476
不能言	-9.93542
搔	-9.93609
煎至一盞去滓	-9.93612
省	-9.93641
庭	-9.93689
杯	-9.93747
吐出	-9.93758
各六	-9.93766
而出	-9.93793
使人	-9.93822
和之	-9.93921
之經	-9.93973
拔	-9.93986
選	-9.93986
右為末煉蜜和	-9.94016
步	-9.94103
腫毒	-9.94157
去土	-9.94165
蚘	-9.94166
随	-9.94188
小者	-9.94202
作渇	-9.94266
柱	-9.94435
水一中盞	-9.94443
幾	-9.94482
右六味	-9.94519
障	-9.94527
板	-9.94536
吐痰	-9.9457
辛熱	-9.94596
其根	-9.94623
略	-9.94637
二穴在	-9.94638
即差	-9.94812
之精	-9.94843
温補	-9.94847
厥陰	-9.94862
青橘皮	-9.94934
穰	-9.94972
大腹皮	-9.95026
炮製去	-9.95119
煩燥	-9.95145
屢	-9.95258
治中風	-9.9526
何也	-9.95268
兼治	-9.95279
漏蘆	-9.95282
水煮	-9.95338
承氣	-9.95358
勞倦	-9.95362
良薑	-9.95378
螫	-9.9542
一方有	-9.95559
勞傷	-9.95572
蟬	-9.95579
中寒	-9.95607
慢驚	-9.95615
呼為	-9.95654
肋	-9.95691
煎至七分去滓温服	-9.95742
彈	-9.95808
倦怠	-9.95813
丸梧子大	-9.95849
發熱惡寒	-9.9585
石榴	-9.95877
膓	-9.95938
何首烏	-9.96002
不堪	-9.96021
甚多	-9.96042
風痰	-9.96047
炮薑	-9.96107
綱目	-9.96122
阿魏	-9.96129
半分	-9.9615
十餘劑	-9.96167
黯	-9.96276
色青	-9.96286
命門	-9.96296
通草	-9.96354
或以	-9.9638
諸證	-9.96399
梹榔	-9.96467
便血	-9.96543
右七味	-9.96563
實也	-9.96576
升降	-9.96586
酒調服	-9.96634
會	-9.96639
右粗搗篩	-9.96659
三年	-9.96685
照	-9.96734
燕	-9.96753
麯	-9.96794
醎	-9.96824
次日	-9.96859
謬	-9.96882
人多	-9.96924
口燥	-9.9697
八兩	-9.96986
不相	-9.97176
結核	-9.97266
爪	-9.97295
丸桐子大	-9.97418
壁	-9.97418
大青	-9.97512
三次	-9.97576
白歛	-9.97605
提	-9.97607
丹治	-9.97637
大風	-9.97653
史	-9.97682
薤白	-9.97778
一婦	-9.97805
二七	-9.97814
孟	-9.9782
缺盆	-9.97836
芍	-9.97945
蛇床子	-9.97966
手太隂	-9.97974
生薑湯下	-9.97977
茱茰	-9.98069
煩疼	-9.98084
蜜丸	-9.98119
石菖蒲	-9.98143
之本	-9.98162
廉	-9.98184
決	-9.98187
祕	-9.98376
面黄	-9.98385
煮汁	-9.98449
等症	-9.98478
於上	-9.98495
大便不通	-9.98513
變為	-9.98522
三里	-9.98584
四劑	-9.98605
清水	-9.98623
去黑	-9.98737
纔	-9.98766
之外	-9.98767
煎八分	-9.9879
入胃	-9.98825
兎絲子	-9.98831
薰	-9.98855
厭	-9.98922
六腑	-9.98938
蓼	-9.98942
棗三枚	-9.98969
足厥隂	-9.99081
髀	-9.99133
炊	-9.99179
黍	-9.99186
欵冬花	-9.99189
樂	-9.99218
闕	-9.99361
飲食少思	-9.99377
不可用	-9.99393
委	-9.99407
呷	-9.9946
繩	-9.99506
黍米	-9.99571
而致	-9.99584
上衝	-9.99585
而不能	-9.99636
神効	-9.99637
肝脾	-9.99672
芝	-9.99675
楚	-9.99684
皆由	-9.99708
表證	-9.99777
抵	-9.99796
搜	-9.99809
靈樞	-9.99847
發之	-9.99886
縣	-9.99994
藏府	-10.0005
痛處	-10.0006
不開	-10.0015
𢷬篩	-10.0018
等分為末	-10.002
二經	-10.0021
寒無毒主	-10.0021
六味地黄丸	-10.0022
勝則	-10.0025
叔	-10.0029
普濟方卷	-10.0031
服此藥	-10.0032
諸疾	-10.0033
稟	-10.0037
多有	-10.0039
一匙	-10.0042
曝乾	-10.0045
妨	-10.0053
一尺	-10.0055
引飲	-10.0058
之故	-10.0059
歸脾湯	-10.0066
煉蜜和	-10.007
以意	-10.0075
形氣	-10.0076
句	-10.0081
各五錢	-10.0082
溪	-10.0085
補氣	-10.0086
行於	-10.0087
仍以	-10.0088
脉弦	-10.0093
三百	-10.0101
碾	-10.0101
五更	-10.0106
以水五升	-10.0106
望	-10.011
或時	-10.0112
癘	-10.0116
諸風	-10.0135
酒煮	-10.0137
迺	-10.0142
總錄	-10.0145
水二鍾	-10.0146
於心	-10.0149
一粒	-10.0149
輕者	-10.015
踈	-10.0154
二種	-10.0161
延胡索	-10.0166
因而	-10.017
白濁	-10.0172
牀	-10.018
毎服三錢	-10.0183
汗不出	-10.0184
岐伯曰	-10.0187
筆	-10.0192
澤蘭	-10.0193
半两	-10.0194
搗篩	-10.0196
刺之	-10.0197
牛蒡子	-10.0198
甑	-10.02
亥	-10.0214
者非	-10.0223
痼	-10.024
别録	-10.0242
火燒	-10.0242
耳鳴	-10.0242
香薷	-10.0246
抽	-10.0251
不惡寒	-10.0258
神仙	-10.0264
圖經	-10.0266
鹿角	-10.0266
民病	-10.0266
一具	-10.0268
又方治	-10.0274
粥飲下	-10.0278
罷	-10.0278
得其	-10.028
食前温服	-10.0281
病則	-10.0284
洒	-10.0291
其狀	-10.0292
建中湯	-10.0294
聾	-10.0306
如故	-10.0309
水飛	-10.0312
症也	-10.0313
壽	-10.0316
洪大	-10.0318
均	-10.0319
左手	-10.032
臘	-10.0321
往	-10.0324
萎	-10.0325
五倍子	-10.0325
摇	-10.0327
異功散	-10.0327
湧	-10.0327
病後	-10.0333
不得卧	-10.0333
大黃	-10.0337
瓷	-10.0337
前方	-10.0342
有痰	-10.0347
一握	-10.0355
襲	-10.0358
受之	-10.0367
右為細末煉蜜	-10.0369
奉	-10.0369
淋瀝	-10.0371
巴㦸	-10.0375
不可以	-10.0375
义	-10.0376
銚	-10.0384
服方寸匕	-10.0386
如神	-10.039
興	-10.039
𥙷	-10.0394
擾	-10.0394
肝氣	-10.04
痛甚	-10.0424
膿水	-10.0427
此疾	-10.0435
絞取汁	-10.0441
水服	-10.0442
鼈	-10.0448
參术	-10.0451
填	-10.0453
草烏	-10.0456
其候	-10.0465
四日	-10.0478
父	-10.0479
涸	-10.0497
坑	-10.0501
補益	-10.0502
烏蛇	-10.0505
䓻	-10.0505
赤白痢	-10.0513
六君子湯	-10.0514
蘓	-10.0515
竈	-10.0526
浮大	-10.0533
繞	-10.0535
調中	-10.0536
十二經	-10.0537
沸湯	-10.0538
一物	-10.0538
釀	-10.0542
此法	-10.0542
又治	-10.0544
揺	-10.0546
破血	-10.0546
右為粗末	-10.0548
呌	-10.0548
才	-10.0558
咽痛	-10.056
甆	-10.0561
歇	-10.0566
不去	-10.057
翻	-10.057
山茱茰	-10.057
癃	-10.0572
衍義曰	-10.0573
栗	-10.0577
眩暈	-10.0577
加柴胡	-10.0582
少時	-10.0582
夭	-10.0585
案	-10.0589
氣喘	-10.0592
愚按	-10.0593
頷	-10.0595
男女	-10.0596
歧伯曰	-10.0598
炙令	-10.0599
便秘	-10.0614
日晡	-10.0627
蓬	-10.0629
治肺	-10.0632
耐	-10.0633
可服	-10.0637
加大黄	-10.0639
浮而	-10.0641
藕	-10.0645
眼目	-10.0645
亡陽	-10.0653
搗羅為末	-10.0655
順氣	-10.0659
惡物	-10.0659
為使	-10.0661
急用	-10.0662
天氣	-10.0663
面青	-10.0664
認	-10.0664
視之	-10.0667
鱉甲	-10.0669
薊	-10.067
茵蔯	-10.0671
枸杞	-10.0671
於此	-10.0678
足太隂	-10.0678
頑	-10.0678
揀	-10.068
螺	-10.0681
㸔	-10.0686
三枚	-10.0691
肘後方	-10.0693
瘖	-10.0699
統	-10.0702
以水七升	-10.0705
禹	-10.0705
不甚	-10.0714
多汗	-10.0717
筯	-10.072
右為末用	-10.0722
血分	-10.0724
拘攣	-10.0726
陳藏器	-10.0731
輪	-10.074
死者	-10.0743
中央	-10.0744
葵子	-10.0756
潔	-10.0759
盲	-10.0765
一碗	-10.0767
虫	-10.0771
投之	-10.0771
腹大	-10.0772
焮	-10.0773
活血	-10.078
皮肉	-10.0781
一時	-10.0786
去蘆頭	-10.0799
食飲	-10.0801
之火	-10.0804
熬成膏	-10.0807
弱者	-10.081
楝	-10.0813
損傷	-10.0822
蛤粉	-10.0822
不敢	-10.0823
博	-10.0828
芤	-10.0834
參茋	-10.0844
腹脇	-10.0845
臓腑	-10.0848
發搐	-10.0849
育	-10.0851
硼砂	-10.0853
新校正云按	-10.0854
遏	-10.086
亦能	-10.0862
瘈瘲	-10.0863
研匀	-10.0864
即是	-10.0865
軍	-10.0867
淬	-10.0867
黄蓍	-10.0874
多服	-10.0878
候冷	-10.088
雜病	-10.0882
濕氣	-10.0883
氣急	-10.0892
川烏頭	-10.0895
逼	-10.0897
煎七分去滓	-10.0901
破故紙	-10.0905
追	-10.0908
無毒主	-10.0912
四十九	-10.0912
生地黄汁	-10.0914
瘧疾	-10.0915
熱盛	-10.0919
拳	-10.0919
各三分	-10.0934
解毒湯	-10.0934
失音	-10.0935
菊	-10.0938
鍾乳	-10.0948
議	-10.095
市	-10.0959
麤	-10.096
愛	-10.0961
不然	-10.0965
瘡腫	-10.0969
煮取一升	-10.0972
附子湯	-10.0972
化下	-10.0973
氣味甘	-10.0976
人參甘草	-10.0978
廢	-10.0978
師曰	-10.0978
内踝	-10.0978
四十丸	-10.0981
地氣	-10.0985
味酸	-10.0985
五六日	-10.0985
某	-10.099
其形	-10.0997
寒凉	-10.0998
岀	-10.1
惡露	-10.1
羚羊角屑	-10.1005
表邪	-10.1011
陽盛	-10.1022
發其汗	-10.1023
此症	-10.1032
止血	-10.1034
中滿	-10.1035
一両	-10.1036
巴	-10.105
食積	-10.1057
去瓤	-10.1064
腫脹	-10.1065
數十	-10.1065
呉	-10.1066
授	-10.1067
兎	-10.1069
願	-10.1072
上有	-10.1079
徐徐	-10.1082
枇杷葉	-10.1095
山茱萸	-10.1098
一作	-10.1105
可也	-10.1107
蘗	-10.111
除熱	-10.1111
去麄皮	-10.1111
出危	-10.1116
寄	-10.112
去滓内	-10.112
邉	-10.1121
凝滯	-10.1123
槐花	-10.1126
火上	-10.1126
相合	-10.1127
青鹽	-10.1131
研為末	-10.1132
瘢	-10.1135
六日	-10.1136
故能	-10.1138
棗二枚	-10.1148
肢節	-10.115
趙	-10.1151
氣弱	-10.1154
漸愈	-10.1156
漏下	-10.116
詵	-10.1165
歩	-10.1175
讀	-10.1182
外臺	-10.1186
不信	-10.1193
青木香	-10.1198
燒令	-10.12
君子	-10.1205
無度	-10.1209
薑湯下	-10.121
㧞	-10.1212
醬	-10.1213
麸炒	-10.1218
鎔	-10.1224
柳	-10.1224
燥熱	-10.1225
二陳湯	-10.1227
為佳	-10.1227
量大小	-10.1234
只用	-10.1234
名為	-10.124
脾腎	-10.1242
而渴	-10.1242
晒	-10.1247
甦	-10.1261
訶梨勒	-10.1271
大腹	-10.1272
虛實	-10.1273
肺癰	-10.1273
不救	-10.1274
用人參	-10.1294
故知	-10.1295
縮砂仁	-10.1299
慾	-10.13
茅根	-10.1303
發時	-10.1305
蜘蛛	-10.1309
再煎	-10.1313
平無毒主	-10.1313
則無	-10.1316
藥力	-10.132
鋪	-10.1323
叅	-10.1332
生薑五片	-10.1342
口鼻	-10.135
之處	-10.1352
芩連	-10.1353
殭蠶	-10.1356
傷食	-10.1364
腋下	-10.1369
括	-10.1372
加茯苓	-10.1374
大便秘	-10.1378
滅	-10.1383
暢	-10.1386
結實	-10.1388
不至	-10.1392
蠍	-10.1397
不渴	-10.1399
顯	-10.14
升麻湯	-10.1409
補虚	-10.1409
枸杞子	-10.141
味鹹	-10.141
是為	-10.1413
六氣	-10.1415
有聲	-10.1418
中脘	-10.1421
丸如梧桐子大毎服	-10.1423
蒺藜	-10.1429
其血	-10.1431
心經	-10.1431
心腹脹滿	-10.1435
右件藥	-10.1436
殆	-10.1442
傷人	-10.1445
泔	-10.1446
灸五壯	-10.1451
禍	-10.1453
姑	-10.1453
無灰酒	-10.1456
亦名	-10.1457
雙仁	-10.1463
不退	-10.1475
結於	-10.1475
沃	-10.148
烏梅肉	-10.1481
𤓰蔞	-10.1483
率	-10.1484
小豆	-10.1488
驢	-10.1488
欠	-10.1489
諸瘡	-10.149
八十	-10.149
降火	-10.1493
八味	-10.1494
醫家	-10.1499
飲下	-10.1508
先煮	-10.1509
金銀花	-10.1509
四物湯加	-10.151
自止	-10.1511
告	-10.1514
其子	-10.1519
不寧	-10.1521
葉如	-10.1523
炮各	-10.1524
熨之	-10.1532
夜卧	-10.1532
二錢半	-10.1533
鈎藤	-10.1535
龍齒	-10.1539
𢎞景曰	-10.154
客熱	-10.1541
察其	-10.1546
錢氏	-10.155
半合	-10.1555
方云	-10.156
利之	-10.1561
心腹痛	-10.1561
目中	-10.1563
飬	-10.1564
圓治	-10.1566
藥性論云	-10.1568
必死	-10.1588
剪	-10.1594
唐本注云	-10.1594
淵	-10.1596
十月	-10.1599
戌	-10.1602
團	-10.1603
之上	-10.1612
青蒿	-10.1616
木賊	-10.1621
依前	-10.1624
牡丹	-10.1629
魄	-10.163
城	-10.1631
脾經	-10.1633
辛温	-10.1633
痃癖	-10.1633
淡竹葉	-10.1642
日再服	-10.1644
消食	-10.1647
驅	-10.1652
頸項	-10.1652
温病	-10.1664
徒	-10.1665
右等分	-10.1667
翼	-10.1672
之變	-10.1677
負	-10.1679
痞悶	-10.168
割	-10.168
丹毒	-10.1681
濾去滓	-10.1682
喘促	-10.1684
戴	-10.1687
際	-10.1688
每服三十丸	-10.1695
洞	-10.1696
毎用	-10.1697
煎令	-10.1705
腰膝	-10.1706
黄水	-10.1708
砭	-10.171
下一寸	-10.1712
羸痩	-10.1712
召	-10.1713
未成	-10.1719
研令勻	-10.1729
烙	-10.173
水和	-10.173
尤妙	-10.1732
立止	-10.1735
各八	-10.1735
配	-10.1738
含之	-10.1743
脅	-10.1743
鵝	-10.1746
千金翼	-10.1746
胡桃	-10.1748
桑螵蛸	-10.1748
鄭	-10.175
别錄	-10.175
血崩	-10.1752
九竅	-10.1758
禮	-10.1762
伏龍肝	-10.1764
壞	-10.1767
不知人	-10.177
為之使	-10.1771
熱結	-10.1778
胡麻	-10.178
七合	-10.1782
草木	-10.1783
迫	-10.1784
水蛭	-10.1785
三嵗	-10.1786
欲飲水	-10.1786
分温三服	-10.1788
稍熱服	-10.179
蟾酥	-10.1791
言其	-10.1796
滛	-10.1796
藏器曰	-10.1802
右手	-10.1804
胷膈	-10.1806
曉	-10.1808
血痢	-10.1826
六十日	-10.183
病源	-10.1831
忌海藻菘菜	-10.1831
陽明之	-10.1832
穗	-10.1834
五枚	-10.1835
小便難	-10.1838
熱藥	-10.1845
不計時	-10.1846
内消	-10.1849
所出	-10.1852
各三錢	-10.1854
惕	-10.1857
下陷	-10.186
真珠	-10.1865
解散	-10.1869
各一分	-10.1872
悞	-10.188
翕	-10.1881
怪	-10.1882
初服	-10.1883
手陽明	-10.1887
沈香	-10.1888
癲疾	-10.189
反胃	-10.1891
明堂	-10.1891
虛勞	-10.1897
除濕	-10.1901
十年	-10.1905
穴在	-10.1906
熬令	-10.1913
皺	-10.1924
莧	-10.1927
頭上	-10.1928
搐搦	-10.193
筋攣	-10.1932
穿山甲	-10.1933
床	-10.1937
當歸川芎	-10.1942
聖惠方	-10.1943
數服	-10.1943
半去滓	-10.1946
欬𠻳	-10.1948
旋覆花	-10.1954
煎至一盞	-10.1959
散主之	-10.1959
須用	-10.1959
形體	-10.1967
炙剉	-10.1975
或作	-10.1979
矣故	-10.1983
楮	-10.1983
所勝	-10.1985
補其	-10.1985
益智	-10.1986
後人	-10.1992
人身	-10.1993
茱萸	-10.1993
在外	-10.1994
養血	-10.1995
日久	-10.1998
縮砂	-10.1999
而長	-10.2001
餅子	-10.2005
湯化下	-10.2007
齗	-10.2008
蒼耳	-10.2011
十兩	-10.2013
產	-10.2014
六味丸	-10.2015
腹中痛	-10.2019
薯蕷	-10.2024
逆氣	-10.2029
王氏	-10.2034
亡血	-10.2036
外用	-10.2037
丸如彈子大	-10.2042
入裏	-10.2046
鐺	-10.2049
温水下	-10.2049
文仲	-10.2056
方見本門	-10.2056
積滯	-10.2057
曾	-10.2057
汪	-10.2061
椎下	-10.2062
進飲食	-10.2062
碧	-10.2066
京三稜	-10.2068
責	-10.2079
丸如桐子大每服	-10.2083
獲	-10.2084
轉側	-10.2092
髭	-10.2093
脈沈	-10.2095
風癎	-10.2098
垣	-10.2117
暫	-10.212
相應	-10.2121
次下	-10.2123
肯	-10.2125
件	-10.2127
皮尖	-10.2133
揉	-10.2134
狼	-10.2139
油調	-10.2139
麻木	-10.2141
二三日	-10.2142
補中	-10.2143
毎服四錢	-10.2144
㣲赤剉	-10.2154
患者	-10.2163
撚	-10.2163
等物	-10.2164
何如	-10.2169
肩背	-10.2176
日乾	-10.2182
舌本	-10.2183
僕	-10.2183
得汗	-10.2187
第四	-10.2188
龍膽草	-10.2189
繁	-10.2189
肝膽	-10.2203
不思	-10.2203
半月	-10.2203
不拘	-10.2208
瓤	-10.2209
每服五錢水一盞半	-10.221
心熱	-10.2213
右水煎服	-10.2214
腮	-10.2223
多因	-10.2224
而嘔	-10.2224
痛止	-10.2227
本方	-10.2233
氣上衝	-10.2234
湖	-10.2238
狂言	-10.2242
癍	-10.2243
凈	-10.2244
自然汁	-10.2247
平旦	-10.2257
癉	-10.2258
爪甲	-10.2261
滿悶	-10.2262
惡氣	-10.2262
勿食	-10.2263
班	-10.2264
忽然	-10.2268
呉茱茰	-10.228
何謂	-10.2281
柿	-10.2282
鬱金	-10.229
搗爛	-10.229
患此	-10.2295
古今	-10.2295
氣短	-10.2299
手足厥冷	-10.23
者屬	-10.2301
一夜	-10.2307
神農	-10.2312
二斤	-10.2313
益精	-10.2317
食後温服	-10.232
戴人	-10.233
膏藥	-10.2333
大承氣湯	-10.2333
嘔噦	-10.2335
不可忍	-10.2336
補骨脂	-10.2343
白芨	-10.235
釡	-10.2353
紫石英	-10.2355
血虛	-10.2358
淹	-10.2359
炮裂去	-10.2365
混	-10.2366
空心温服	-10.2369
血竭	-10.2379
五味異功散	-10.2379
即出	-10.2379
氣衰	-10.2379
濕痺	-10.2381
次入	-10.2384
不能行	-10.2397
車前	-10.2406
金銀	-10.2414
黄檗	-10.2414
傷寒論	-10.2418
食後臨卧	-10.2425
七粒	-10.2426
潮	-10.2427
蜜陀僧	-10.2432
蟹	-10.2435
黃芩	-10.2439
肛門	-10.2442
虛弱	-10.2443
痟	-10.2444
棘	-10.2445
唇口	-10.2449
恒	-10.2449
挑	-10.2452
臘月	-10.2453
煎至八分去滓	-10.2465
拾	-10.2467
輩	-10.247
去油	-10.2471
甫	-10.2473
諸般	-10.2473
厲	-10.2475
逢	-10.2477
砒	-10.2483
戎	-10.2494
菌	-10.2507
醋淬	-10.2508
乳癰	-10.251
淮	-10.2511
彌	-10.2512
山梔子	-10.2514
動氣	-10.2517
爲末	-10.2522
微赤剉	-10.2524
凡使	-10.2527
毋	-10.253
即吐	-10.2532
赤芍	-10.2533
以醋	-10.2535
收之	-10.2536
絞汁	-10.2537
従	-10.2538
聖人	-10.2539
當先	-10.2543
血脈	-10.2543
不可食	-10.2545
無子	-10.256
停滯	-10.2567
清酒	-10.2575
啖	-10.258
氣壅	-10.2581
安胎	-10.2586
麺	-10.2588
殺蟲	-10.259
内托	-10.259
鬲	-10.2593
湯調	-10.2595
根皮	-10.2596
薄荷湯下	-10.2597
小指	-10.2597
右為細散	-10.2608
康	-10.2609
切片	-10.2612
者良	-10.2613
食不消	-10.2619
敗毒散	-10.2625
務	-10.2626
托	-10.2629
令兒	-10.2631
内障	-10.2642
無常	-10.2647
發表	-10.2653
湯泡	-10.2657
皆因	-10.2658
以綿	-10.2659
榮氣	-10.266
尤佳	-10.266
少食	-10.2661
五勞七傷	-10.2666
白术茯苓	-10.2668
㸃之	-10.267
亦佳	-10.2671
蘆根	-10.2676
焼	-10.2677
夫人	-10.2678
噤	-10.268
□	-10.2681
祛	-10.2687
肢	-10.2701
有形	-10.2701
面上	-10.2702
儒	-10.2703
喜怒	-10.2708
脚膝	-10.2708
水火	-10.2713
百餘	-10.2719
祖	-10.2721
潰爛	-10.2721
賢	-10.2723
疝氣	-10.2724
治脚氣	-10.2727
滌	-10.2733
於腎	-10.2734
敗血	-10.2739
入口	-10.2744
赤眼	-10.2744
不死	-10.2751
衝心	-10.2751
震	-10.2752
究	-10.2754
荷葉	-10.2762
数	-10.2767
加半夏	-10.2779
手少隂	-10.2783
兆	-10.2789
筒	-10.2792
一觔	-10.2797
聽	-10.2802
陽邪	-10.2802
體重	-10.2805
為佐	-10.2807
壅塞	-10.281
紫金	-10.2822
欲吐	-10.2822
蛀	-10.2828
藥性	-10.2831
右剉如麻豆	-10.2831
桂枝加	-10.2838
血不止	-10.2838
相類	-10.2843
相去	-10.2843
賦	-10.2848
中指	-10.286
客氣	-10.286
淚出	-10.2861
滴水	-10.2862
鞭	-10.2862
有小毒	-10.2862
肺熱	-10.2866
痘疹	-10.2867
不大便	-10.2876
奈何	-10.2876
鍋内	-10.2878
乃可	-10.288
帖	-10.2883
毫	-10.2885
不絶	-10.2888
耆	-10.2888
嶺南	-10.2891
胃脘	-10.2894
榆	-10.2895
牛蒡	-10.2905
剉炒	-10.2907
濟生	-10.2913
不除	-10.2914
右八味	-10.2921
可與	-10.2922
下之則	-10.2923
精血	-10.2924
者謂之	-10.2925
神氣	-10.2925
冷痛	-10.2927
隂盛	-10.293
幸	-10.2932
瀉之	-10.2942
者何也	-10.2943
之為病	-10.2944
煎至六分去滓不計時候温服	-10.2947
懼	-10.2948
湯調服	-10.295
水一小盞	-10.295
風痺	-10.2952
棗一枚	-10.2954
體倦	-10.2955
嬰	-10.2957
硝石	-10.296
智	-10.2961
並出第	-10.2961
右為末每服二錢	-10.2961
解肌	-10.2963
黄芪	-10.2963
必先	-10.2965
瘰	-10.2969
火煆	-10.297
薑五片	-10.2972
分二服	-10.2974
猛	-10.2976
妻	-10.2979
同前	-10.298
拾遺	-10.298
虎骨	-10.2985
研極細	-10.2987
其功	-10.2987
漬之	-10.2992
虚煩	-10.2992
罐	-10.3001
痛引	-10.3004
脆	-10.301
尖雙仁	-10.3018
喘滿	-10.3022
雅	-10.3024
者佳	-10.3028
不欲食	-10.3028
醋煮	-10.3029
第六	-10.3035
七十丸	-10.3036
金箔	-10.3038
塌	-10.3043
頓服之	-10.3045
補血	-10.3047
皆能	-10.3048
尺寸	-10.3054
丸如麻子大	-10.3055
噉	-10.3055
變成	-10.3059
第	-10.3068
時行	-10.3072
昬	-10.3076
嚴	-10.3079
汗多	-10.3083
卯	-10.3087
思慮	-10.3089
發狂	-10.3091
没	-10.3091
相得	-10.3095
切作	-10.3097
猫	-10.31
席	-10.3104
量兒大小加減	-10.3107
聖惠	-10.3109
取汗	-10.311
麥蘖	-10.3111
得所	-10.3112
白薇	-10.3116
胃熱	-10.3118
腦子	-10.3127
去根節	-10.3133
爾雅	-10.3137
地黄汁	-10.3137
埋	-10.3138
冰	-10.314
陷者中	-10.3143
憊	-10.3144
三斗	-10.3145
成瘡	-10.3145
不下食	-10.3147
積年	-10.3151
泛	-10.3161
每服半錢	-10.3162
消痰	-10.3162
掃	-10.3171
粥飲調下	-10.3175
唐本	-10.3186
澄清	-10.3188
腫硬	-10.3189
辣	-10.319
幽	-10.3193
目昏	-10.3194
死矣	-10.3199
不渇	-10.3203
外臺秘要	-10.3205
北方	-10.3206
嗌	-10.3208
入蜜	-10.3214
每服四錢水一盞	-10.3215
查	-10.3219
一方加	-10.3219
油膩	-10.3219
丸如菉豆大每服	-10.3222
昌	-10.3222
煩心	-10.3225
腹脹滿	-10.3225
六錢	-10.3226
因怒	-10.3228
汝	-10.3228
胸腹	-10.3228
視其	-10.323
經言	-10.3234
黃連	-10.3237
肉豆䓻	-10.3239
搖	-10.3241
而渇	-10.3241
登	-10.3244
而愈一小兒	-10.3255
脾胃虚弱	-10.3255
故云	-10.3258
口舌生瘡	-10.3259
鉢	-10.3269
裏急	-10.3269
大蒜	-10.327
攣急	-10.327
錦	-10.3273
外踝	-10.3274
瞑	-10.3274
復作	-10.3276
筋急	-10.3277
平胃散	-10.3277
跳	-10.3282
搗汁	-10.3287
二便	-10.3293
發寒熱	-10.3293
不遂	-10.3294
𤓰蒂	-10.3295
稻	-10.3297
者名曰	-10.3305
妳	-10.3307
項强	-10.3308
白湯下	-10.3313
少頃	-10.3318
自消	-10.3318
習	-10.3323
鵞	-10.3325
築	-10.3328
徃來	-10.333
脉數	-10.333
徧身	-10.333
咸	-10.3331
午後	-10.3331
溝	-10.3332
沉重	-10.3334
神驗	-10.3348
肺經	-10.3349
香油	-10.3351
糊丸	-10.3352
脇肋	-10.3353
盧	-10.3357
解表	-10.3357
僻	-10.3361
昏憒	-10.3366
芥子	-10.3372
鈴	-10.3374
消息	-10.3383
掘	-10.3387
痠	-10.3387
一二日	-10.339
茸	-10.3391
川芎當歸	-10.3396
生薑自然汁	-10.3398
元參	-10.3401
右為細末每服二錢	-10.3402
酒浸一宿	-10.3413
膩	-10.3414
一嵗	-10.3415
介	-10.3426
鑑	-10.3426
結聚	-10.3434
秃	-10.3435
者此為	-10.3436
四五日	-10.3438
糜	-10.3441
吞酸	-10.3444
輒	-10.3446
夲	-10.3449
桃花	-10.345
七八日	-10.345
第五	-10.345
紙上	-10.3452
此物	-10.3456
如梧子	-10.3469
日漸	-10.3469
濃汁	-10.3469
余謂	-10.3476
吻	-10.3479
裡	-10.348
升陽	-10.3483
炮裂	-10.3485
答曰	-10.3486
擣篩	-10.3507
茄	-10.3508
二物	-10.3511
爽	-10.3511
炷	-10.3514
手太陽	-10.352
右麄搗篩	-10.353
全愈	-10.3532
卽	-10.3533
貝	-10.3538
鬱結	-10.3548
頭項	-10.3549
急驚	-10.3552
岐	-10.3555
進食	-10.3562
難産	-10.3574
絹袋盛	-10.3575
語言	-10.3579
哺	-10.3579
搗末	-10.3588
外證	-10.359
吃	-10.3596
𦍑活	-10.3596
天竺黄	-10.3597
麻黃	-10.3597
可見	-10.3601
霧	-10.3601
陶隱居云	-10.3602
祐	-10.3604
各三兩	-10.3607
癮疹	-10.3616
修治	-10.3616
薑附	-10.3621
莽草	-10.3625
天地之	-10.3627
腎主	-10.363
遂以	-10.3631
擘	-10.3631
盈	-10.3638
篇曰	-10.3639
蘿蔔	-10.3642
白蒺藜	-10.3643
鯽魚	-10.3644
瘡疥	-10.3644
虛寒	-10.3645
不能飲食	-10.3647
十片	-10.3648
拌勻	-10.365
愁	-10.3651
侮	-10.3656
怫	-10.3659
桑寄生	-10.3664
五月五日	-10.3665
隨證	-10.3672
崔氏	-10.3674
福	-10.3679
臑	-10.3683
紫菀	-10.3683
虚羸	-10.3696
也經曰	-10.3699
不須	-10.3699
唾血	-10.3701
噙	-10.3702
菓	-10.3702
胆	-10.3703
乾蝎	-10.3717
之象	-10.3724
幼	-10.3725
櫻	-10.3738
痕	-10.3738
丸如梧桐子大每服三十丸	-10.3741
根本	-10.3744
勿用	-10.3752
錠	-10.3753
牛乳	-10.3753
藿香葉	-10.3765
潰後	-10.3766
却用	-10.3767
如麻豆	-10.3772
凢	-10.3772
畔	-10.3773
厯	-10.3774
麥芽	-10.3775
鎮心	-10.3784
疥癬	-10.3795
有蟲	-10.3796
宣通	-10.3796
胃虚	-10.3797
跟	-10.38
青龍	-10.3802
大麥	-10.3802
冬𤓰	-10.3802
治霍亂	-10.3805
壮熱	-10.3807
馬牙硝	-10.3808
皆屬	-10.3808
當歸芍藥	-10.3811
相引	-10.3813
小便澁	-10.3815
消石	-10.3818
用六君子湯	-10.3819
尿血	-10.3819
恣	-10.3829
噐	-10.3831
孔中	-10.3832
蘇子	-10.3832
羮	-10.3833
奇	-10.3839
平無毒	-10.384
憑	-10.3842
半兩炙	-10.3843
時珍	-10.3844
偏枯	-10.3846
茂	-10.3858
攪勻	-10.3858
排	-10.386
代之	-10.3861
打撲	-10.3864
濕紙	-10.3865
髙良薑	-10.3866
芍藥甘草	-10.387
起居	-10.3873
人參茯苓	-10.3875
太陽經	-10.3877
摘	-10.3883
治下篩	-10.3892
有效	-10.3893
鶴	-10.3894
夜啼	-10.3895
草豆蔲	-10.3905
盒	-10.3907
歴	-10.3908
火盛	-10.3918
丸主之	-10.3924
瞤	-10.3936
俗名	-10.3937
中暑	-10.3939
之説	-10.394
沉細	-10.3949
努	-10.3955
期門	-10.3958
君火	-10.3959
沐	-10.3963
去黒皮	-10.3965
立効	-10.3966
硏	-10.3967
綠	-10.3968
次服	-10.3972
月采	-10.3973
縛	-10.3973
般	-10.3974
錬	-10.3977
為害	-10.3978
每服五十丸	-10.3978
晡熱	-10.3978
寒疝	-10.3994
大便難	-10.3997
選方	-10.3998
客忤	-10.4003
右細剉	-10.4011
右將	-10.4015
蹻	-10.4022
以水三升	-10.4023
痔漏	-10.4026
乃止	-10.403
為妙	-10.4031
入生薑半分	-10.4031
飱泄	-10.4034
明日	-10.4043
隨其	-10.4059
瀉心湯	-10.4061
蕩	-10.4061
磁器	-10.4064
欬而	-10.4065
蒙	-10.4077
郭	-10.4078
齦	-10.408
隂毒	-10.409
驚恐	-10.4092
萆	-10.4092
甚效	-10.4095
誤矣	-10.4097
遺尿	-10.4104
氣衝	-10.411
咽中	-10.4111
留飲	-10.4114
神麴	-10.4115
黄芩黄連	-10.4115
水一斗	-10.4121
六經	-10.4121
共末	-10.4122
放冷	-10.4125
十餘日	-10.4125
諸毒	-10.4128
㣲寒	-10.4129
鈆	-10.4129
魅	-10.413
當歸身	-10.4133
俛仰	-10.4135
各五分	-10.4137
斑猫	-10.4143
莪术	-10.4147
一隻	-10.4153
芥	-10.4157
漸加至	-10.4157
手少陽	-10.4161
流行	-10.4161
破傷風	-10.4166
盌	-10.4169
呉茱萸	-10.417
溜	-10.4172
凝結	-10.4174
黑色	-10.4177
不潰	-10.4178
衝任	-10.4181
氣促	-10.4193
肅	-10.4194
尤甚	-10.4195
四寸	-10.4198
𩕄	-10.42
洗淨	-10.4201
無他	-10.4203
針刺	-10.4204
膈氣	-10.4207
嗜卧	-10.421
)【	-10.4219
去裙襴	-10.4221
蘇木	-10.4221
右為末蜜	-10.4222
膈上	-10.4222
孕婦	-10.4224
齒痛	-10.4226
朴	-10.4229
之㑹	-10.4231
五種	-10.4233
緩急	-10.4236
的	-10.4241
丼	-10.4246
痰盛	-10.4247
經驗方	-10.4247
恭	-10.4249
平復	-10.426
芒	-10.4268
直視	-10.4271
江南	-10.4271
水六升	-10.4273
二十四	-10.4276
往往	-10.428
雲母	-10.4281
御纂醫宗金鑑卷	-10.4287
發動	-10.4292
二十五	-10.4297
之際	-10.4297
諸經	-10.4298
較	-10.43
革	-10.4303
俱虚	-10.4305
傷肺	-10.4306
郎	-10.4312
棄	-10.4315
矢	-10.4317
不拘時服	-10.4318
踰	-10.432
表裏俱	-10.4323
屍	-10.4324
失其	-10.4333
喎	-10.4333
半身不遂	-10.4339
陽明經	-10.4339
栢葉	-10.4352
臍中	-10.4353
研如粉	-10.4354
失血	-10.4355
如人行	-10.4356
疔瘡	-10.436
張仲景	-10.4369
氣血虚	-10.4377
徤	-10.439
勒	-10.439
並宜服之	-10.439
自然銅	-10.4391
狗脊	-10.4394
房室	-10.4394
愈甚	-10.4405
此由	-10.4406
丘	-10.4407
茯	-10.4411
焮痛	-10.4416
條下	-10.4418
校正	-10.4419
寒暑	-10.442
瘙	-10.4422
欬逆上氣	-10.443
腠	-10.4431
不得息	-10.4432
酌	-10.4432
巔	-10.4433
二陳	-10.4434
變化	-10.4444
天花粉	-10.4445
弗	-10.4454
盡為度	-10.4461
渾身	-10.4461
棗大	-10.4467
調傅	-10.4474
舟	-10.4474
菘	-10.4481
井花水	-10.4484
有竒	-10.4492
廼	-10.4498
商陸	-10.4503
不識	-10.4508
名醫	-10.4512
叢	-10.4518
安息香	-10.452
周身	-10.4525
餘毒	-10.4528
稍稍	-10.4535
手足逆冷	-10.4542
心悶	-10.4543
糊為丸如梧桐子大	-10.4544
卿	-10.4544
吴	-10.4544
神昏	-10.4547
予曰	-10.4559
作嘔	-10.456
小柴胡	-10.4563
葛根湯	-10.4563
去麄	-10.4563
慈	-10.4565
亂髪	-10.4568
墮胎	-10.4569
兔絲子	-10.4581
袪	-10.4583
遂成	-10.4583
瘵	-10.4603
陣	-10.4619
雌黄	-10.4623
秦皮	-10.4633
二十日	-10.4634
癧	-10.4639
一錢匕	-10.4648
散治婦人	-10.4654
蘿	-10.4656
湯浸去皮尖	-10.4657
丸如小豆大	-10.4669
脈弦	-10.4673
右九味	-10.4674
黑豆	-10.4675
蚯蚓	-10.4675
成膿	-10.4675
脯	-10.4675
凍	-10.4676
川谷	-10.4679
蓮子	-10.4686
之源	-10.4693
宗奭曰	-10.4699
不省人事	-10.47
㿗	-10.4712
撥	-10.4718
坎	-10.4719
蛤	-10.4721
包絡	-10.4723
不樂	-10.4726
蚕	-10.4733
括蔞	-10.4733
支滿	-10.474
東方	-10.4748
毎服三錢水一盞	-10.4749
顱	-10.4753
光明	-10.476
並皆治之	-10.4769
孫真人	-10.4773
衡	-10.4777
鄉	-10.478
不計時候以	-10.4781
百杵	-10.4782
木瓜	-10.4783
舎	-10.4783
者宜用	-10.4791
絞去滓	-10.4792
牽牛子	-10.4792
寒涼	-10.4792
賁	-10.4801
暍	-10.4814
勞復	-10.4814
水三升	-10.4814
禽	-10.4815
排膿	-10.4816
乖	-10.4816
良乆	-10.4819
草烏頭	-10.4825
此條	-10.4826
衇沉	-10.4831
振寒	-10.4831
猪膏	-10.4835
羊腎	-10.4847
踝	-10.4849
每服二錢水一盞	-10.4853
淅	-10.4853
細細	-10.4861
温瘧	-10.4862
臍上	-10.4862
薄荷葉	-10.4862
少力	-10.4864
不休	-10.4866
䘌	-10.4869
子母	-10.4869
侯	-10.487
口舌	-10.4882
哽	-10.4896
青色	-10.4897
爭	-10.49
校	-10.4906
控	-10.4916
瘳	-10.4918
挼	-10.4928
減半	-10.4929
坐卧	-10.493
晨	-10.4932
多致	-10.4933
犀角地黄湯	-10.4935
紙裹	-10.4938
刑	-10.4954
稜	-10.4959
肛	-10.4962
瓠	-10.4963
藉	-10.4973
崔	-10.4978
亮	-10.4991
飴	-10.501
篤	-10.5011
昧	-10.5036
黏	-10.5048
僵	-10.5051
弓	-10.5052
殭	-10.5067
翁	-10.5075
歟	-10.508
忤	-10.5089
輭	-10.5095
示	-10.5096
悟	-10.5119
芋	-10.512
孩	-10.5134
呪	-10.5161
顔	-10.5162
甕	-10.517
掉	-10.5177
臺	-10.5183
蛾	-10.5212
梢	-10.5215
瑞	-10.5216
晉	-10.5272
亢	-10.5286
刷	-10.529
忪	-10.5296
尻	-10.5306
渠	-10.5316
槩	-10.5321
髎	-10.5326
險	-10.5337
釣	-10.5338
圎	-10.534
輙	-10.5375
練	-10.5376
德	-10.5382
孤	-10.5399
兔	-10.5399
佛	-10.54
頌	-10.5403
㢘	-10.5408
魏	-10.5415
爍	-10.5442
曝	-10.5447
芽	-10.5453
剥	-10.5456
苑	-10.5458
羣	-10.5463
燔	-10.5471
波	-10.5475
擂	-10.5484
徵	-10.5491
渾	-10.5494
報	-10.5504
桔	-10.5506
莢	-10.5519
凌	-10.5526
逹	-10.5527
富	-10.5551
硃	-10.5562
蔲	-10.5563
領	-10.5567
椿	-10.5586
探	-10.5593
劈	-10.5605
竊	-10.5613
熊	-10.5622
鬢	-10.5623
徑	-10.5629
拒	-10.5632
寡	-10.5674
些	-10.5732
澹	-10.5738
騰	-10.5742
劣	-10.5752
啞	-10.5761
培	-10.5781
坤	-10.5784
孰	-10.5852
亟	-10.5872
辭	-10.5893
膂	-10.5919
琖	-10.5932
兹	-10.5937
䖟	-10.5946
囘	-10.5956
肓	-10.5958
楓	-10.5973
葳	-10.5976
芡	-10.5976
斃	-10.5977
凖	-10.6
隆	-10.6001
驟	-10.6003
刼	-10.6025
脘	-10.6031
現	-10.606
鏡	-10.6084
寢	-10.609
窒	-10.6106
佗	-10.6112
鋭	-10.6122
奴	-10.6123
懷	-10.6132
盃	-10.6132
茋	-10.6147
薤	-10.617
燭	-10.6171
敢	-10.6174
蕪	-10.6195
掠	-10.6195
酪	-10.6222
獺	-10.6242
葦	-10.6243
遷	-10.6255
跗	-10.626
謝	-10.6263
槌	-10.6264
婆	-10.6264
寜	-10.6265
貳	-10.6287
占	-10.6288
茜	-10.629
敦	-10.6291
悪	-10.6303
苟	-10.6315
念	-10.6316
辯	-10.6336
亭	-10.6348
值	-10.6355
汚	-10.6358
溶	-10.6377
菴	-10.6401
孝	-10.6401
樗	-10.6422
梔	-10.6422
争	-10.6431
硫	-10.6457
層	-10.6492
姚	-10.6493
韓	-10.6516
談	-10.6521
遠	-10.6522
哀	-10.6526
翎	-10.6536
勁	-10.6543
嗣	-10.6547
膨	-10.6559
祥	-10.6569
展	-10.6584
芳	-10.6589
漉	-10.6629
抄	-10.6635
閃	-10.6638
泰	-10.6658
瓣	-10.6658
侍	-10.6659
菪	-10.668
瞼	-10.6683
庸	-10.6691
脬	-10.671
糯	-10.6714
旣	-10.6734
耎	-10.6759
臉	-10.6783
桞	-10.6838
个	-10.6845
䵟	-10.6847
匈	-10.6913
茹	-10.6916
沒	-10.6916
𢎞	-10.692
皰	-10.6926
笋	-10.694
釐	-10.6949
豁	-10.6953
陀	-10.6964
麋	-10.697
噴	-10.697
遽	-10.6977
䐜	-10.6978
叉	-10.6994
衍	-10.6996
㓜	-10.6998
稽	-10.7017
膊	-10.7044
戸	-10.7047
蹇	-10.7069
膺	-10.7073
卑	-10.7091
冠	-10.7113
薇	-10.7114
式	-10.7145
虀	-10.7164
皇	-10.7165
蓐	-10.7184
剋	-10.7193
纂	-10.7195
逾	-10.7196
闔	-10.7221
醤	-10.7239
弟	-10.7242
段	-10.7289
嘴	-10.7289
悴	-10.729
監	-10.731
浙	-10.7311
刪	-10.7313
徴	-10.7323
顴	-10.7326
莭	-10.7337
樓	-10.7342
斛	-10.7348
兵	-10.7365
響	-10.7371
痹	-10.7375
眵	-10.7397
濈	-10.7399
膕	-10.7406
擁	-10.7417
掩	-10.744
苧	-10.744
褐	-10.7441
扇	-10.7441
姓	-10.7441
呃	-10.7476
齲	-10.7489
蟾	-10.7514
吮	-10.7522
腨	-10.7527
宛	-10.7544
荅	-10.7554
几	-10.7566
汲	-10.7567
嚨	-10.7578
礙	-10.7599
凋	-10.762
児	-10.7623
緣	-10.7624
逰	-10.7644
羙	-10.7665
􁁊	-10.7671
鷹	-10.7695
蚌	-10.77
寃	-10.7703
譫	-10.7729
搶	-10.7748
糝	-10.7751
遮	-10.7754
返	-10.7754
憒	-10.7771
魘	-10.7771
臀	-10.7785
勃	-10.7808
想	-10.7809
爐	-10.7824
夷	-10.7826
韮	-10.7827
弩	-10.7856
斆	-10.786
瞳	-10.7869
莨	-10.7883
㗋	-10.7885
糟	-10.7886
募	-10.789
畫	-10.7904
啜	-10.7938
兊	-10.7943
院	-10.7944
蘖	-10.796
畨	-10.7963
聰	-10.7967
災	-10.7967
淳	-10.799
譬	-10.7996
秫	-10.8015
􁥥	-10.8039
甄	-10.8047
踵	-10.8047
漱	-10.8048
㡬	-10.8054
膻	-10.8055
䝉	-10.8073
繆	-10.8079
樟	-10.8095
槁	-10.8104
郄	-10.811
錐	-10.8129
􁣲	-10.8146
鯁	-10.8165
禦	-10.821
夘	-10.8212
悦	-10.8213
穣	-10.8241
疲	-10.8243
豚	-10.8243
狸	-10.8259
貧	-10.827
芫	-10.8279
蔞	-10.8285
絃	-10.8297
杲	-10.8321
怕	-10.8322
兮	-10.8329
烘	-10.8347
灑	-10.8348
違	-10.8377
惜	-10.8378
揑	-10.8401
豐	-10.8433
貞	-10.8436
藿	-10.8447
霍	-10.8459
臁	-10.8461
杉	-10.8462
怖	-10.8464
詢	-10.8471
俾	-10.8493
絮	-10.8515
桶	-10.8516
廓	-10.8524
園	-10.854
舶	-10.8543
羌	-10.8545
欎	-10.8546
鼔	-10.858
蔥	-10.86
倚	-10.8605
蝥	-10.8633
僅	-10.8637
檀	-10.8644
局	-10.8646
箆	-10.8654
虱	-10.8657
倘	-10.8663
摸	-10.8668
瘲	-10.8692
稷	-10.871
葶	-10.8715
鑿	-10.8716
寤	-10.8719
芭	-10.872
阿	-10.874
伍	-10.8772
沬	-10.8774
嶺	-10.8789
街	-10.8792
律	-10.8801
鮑	-10.8802
縳	-10.8803
梧	-10.8804
菔	-10.8809
鮓	-10.8828
懶	-10.8837
芹	-10.8837
頥	-10.884
蔴	-10.8854
妊	-10.8864
潛	-10.8897
翹	-10.8908
點	-10.8912
芸	-10.8916
捕	-10.892
旱	-10.8921
竄	-10.893
粱	-10.8943
薪	-10.8956
偃	-10.8956
蕭	-10.8979
梳	-10.898
域	-10.8981
䓤	-10.8982
釵	-10.9007
限	-10.9009
葫	-10.9013
顫	-10.9014
柰	-10.9018
絳	-10.9033
借	-10.9041
測	-10.9073
睫	-10.9073
界	-10.9098
奄	-10.9103
殘	-10.9105
悍	-10.9109
癜	-10.9121
緋	-10.9122
閒	-10.9128
喙	-10.9128
牝	-10.9131
鼎	-10.9133
賤	-10.9137
裙	-10.9159
銳	-10.9168
叙	-10.917
搥	-10.9186
㗜	-10.9194
淸	-10.9195
疣	-10.92
鱉	-10.9216
漐	-10.922
訛	-10.9223
瘟	-10.9225
瘈	-10.9225
疱	-10.9259
胕	-10.9263
洛	-10.927
蝨	-10.928
嘈	-10.9283
菰	-10.9308
倣	-10.9315
皷	-10.9318
慘	-10.932
㽔	-10.9344
苣	-10.9345
苔	-10.9376
斧	-10.9396
蔕	-10.9402
遶	-10.9404
巵	-10.9413
蟻	-10.9431
蝦	-10.9434
罨	-10.9436
幹	-10.9464
供	-10.9469
低	-10.9469
況	-10.9475
烊	-10.9496
磚	-10.9496
駭	-10.9507
克	-10.9509
𣪚	-10.9533
巻	-10.9562
台	-10.9563
業	-10.9563
愼	-10.9564
籠	-10.9564
晦	-10.9565
瑩	-10.9588
糠	-10.9589
帯	-10.9654
椹	-10.9655
程	-10.9659
兄	-10.9663
蔽	-10.9665
輯	-10.9666
判	-10.9687
瞀	-10.9695
鱠	-10.9718
罔	-10.9719
鈐	-10.9721
瘛	-10.9759
胯	-10.9763
抹	-10.9785
廹	-10.979
姙	-10.98
印	-10.9818
職	-10.9823
巢	-10.9842
匝	-10.9847
茱	-10.9851
燎	-10.9853
蠧	-10.9884
激	-10.9887
冩	-10.9888
穏	-10.9917
訶	-10.9924
刃	-10.9942
薹	-10.9948
蟄	-10.995
胻	-10.9954
宮	-10.9979
滎	-10.9992
樸	-11.0008
霞	-11.0008
娠	-11.0013
𨗳	-11.0019
掺	-11.0039
臛	-11.0041
茗	-11.0054
掛	-11.0075
蛔	-11.0108
墟	-11.0111
捲	-11.0111
瘇	-11.0121
彭	-11.0139
薔	-11.0141
巧	-11.0153
纍	-11.0178
蕉	-11.018
巖	-11.0207
梓	-11.0207
妬	-11.0212
惠	-11.0232
鞋	-11.0244
材	-11.0251
澼	-11.0265
朽	-11.028
瘁	-11.028
啄	-11.0282
禾	-11.0285
鹵	-11.0306
萃	-11.0314
挽	-11.0315
㨗	-11.0316
喻	-11.032
蚛	-11.0342
游	-11.0352
恙	-11.0355
芷	-11.0363
鉄	-11.0381
蝱	-11.0381
肆	-11.0383
祟	-11.0386
艸	-11.0387
鋒	-11.0393
偽	-11.0413
萊	-11.042
荷	-11.0436
週	-11.0452
辜	-11.0454
尊	-11.0454
喚	-11.0481
肪	-11.0485
朮	-11.0486
威	-11.0486
撫	-11.0493
皁	-11.0522
噯	-11.0523
黧	-11.0524
恚	-11.0555
吏	-11.058
礶	-11.0586
招	-11.0592
瘑	-11.0609
鉤	-11.0626
濯	-11.0627
䨇	-11.0658
拜	-11.0663
叚	-11.0663
壺	-11.0665
費	-11.0669
煿	-11.0695
厠	-11.0699
銜	-11.0726
戾	-11.0767
亨	-11.077
趾	-11.0773
汞	-11.0799
鋸	-11.0801
茍	-11.0808
炳	-11.0832
秀	-11.0836
范	-11.0836
渗	-11.0836
渣	-11.0838
蔗	-11.0839
隧	-11.0842
縷	-11.0875
丞	-11.0876
贅	-11.0878
紛	-11.0902
焚	-11.0907
藺	-11.0908
喪	-11.0914
嘶	-11.0915
恱	-11.094
准	-11.0942
㹠	-11.095
𧖟	-11.097
奏	-11.0984
忿	-11.0989
冄	-11.1017
濶	-11.102
準	-11.1021
途	-11.1022
趨	-11.1027
儀	-11.1089
様	-11.1092
協	-11.1095
遁	-11.1131
黎	-11.1168
慶	-11.117
勤	-11.1203
弔	-11.1205
㮣	-11.1207
員	-11.1209
麸	-11.1236
狹	-11.1237
聴	-11.1273
搨	-11.1273
菁	-11.131
踡	-11.1317
孽	-11.1346
宅	-11.1348
脩	-11.1349
嚙	-11.1349
鴉	-11.1353
友	-11.1359
蛆	-11.1389
撒	-11.142
釘	-11.1429
拂	-11.1463
巾	-11.1464
癱	-11.1465
蔡	-11.1466
貪	-11.1468
植	-11.1491
礪	-11.1496
礞	-11.1504
壳	-11.1504
剌	-11.1508
胛	-11.1509
鼽	-11.1513
咀	-11.1541
希	-11.1542
䗪	-11.1542
雉	-11.1543
咎	-11.1586
批	-11.1618
蓽	-11.1623
弛	-11.1626
咯	-11.1629
獖	-11.1652
零	-11.1652
􁐍	-11.1658
吕	-11.1659
肭	-11.1695
賔	-11.1701
鴈	-11.1729
銷	-11.1732
煤	-11.1737
殁	-11.174
悮	-11.174
罕	-11.1741
骸	-11.1745
賴	-11.1776
評	-11.1779
析	-11.1779
恵	-11.1818
迴	-11.1851
囓	-11.1852
晴	-11.1854
寓	-11.1857
乂	-11.1888
複	-11.1926
茈	-11.1933
飮	-11.1941
寺	-11.197
竝	-11.1972
概	-11.1973
弊	-11.1975
薺	-11.1977
棟	-11.2007
䕡	-11.2007
胭	-11.2008
甞	-11.2009
珣	-11.2013
䟽	-11.2014
影	-11.2015
雍	-11.205
訪	-11.2093
𢃄	-11.2095
鷰	-11.2122
毬	-11.2127
絍	-11.2131
飼	-11.2131
凑	-11.2137
倫	-11.2138
沾	-11.2138
逸	-11.2139
逍	-11.2142
窌	-11.2142
菽	-11.2142
檢	-11.2174
蔚	-11.2175
護	-11.2178
嗇	-11.2178
渉	-11.2179
謀	-11.218
琇	-11.2184
鳩	-11.2211
􁁜	-11.2214
踏	-11.2214
彊	-11.2214
罪	-11.2218
昭	-11.2218
遭	-11.2221
髃	-11.2228
匱	-11.2247
貨	-11.2247
皴	-11.2259
誰	-11.2259
拆	-11.2259
彰	-11.2261
玩	-11.2268
邑	-11.2288
婢	-11.2296
頤	-11.2308
䯒	-11.2312
膁	-11.2332
櫚	-11.2341
農	-11.2369
陜	-11.2378
鬆	-11.2383
蠡	-11.242
墻	-11.2422
齧	-11.2424
荒	-11.2427
奚	-11.2463
揭	-11.2465
答	-11.2468
喝	-11.2468
敬	-11.2475
掲	-11.2506
枸	-11.251
瀆	-11.2514
蚊	-11.255
奭	-11.2556
䋲	-11.2558
菀	-11.2585
閣	-11.259
遣	-11.2636
瘠	-11.2636
確	-11.264
賜	-11.2675
萍	-11.2675
婁	-11.2677
涉	-11.2678
啓	-11.2681
謙	-11.2685
蓍	-11.2695
閩	-11.2716
嚢	-11.2721
澡	-11.2724
呂	-11.2734
勇	-11.2767
泠	-11.2768
痬	-11.277
糵	-11.2771
洽	-11.2802
嗔	-11.2805
惱	-11.2808
蚤	-11.2813
隴	-11.2813
蜆	-11.285
痃	-11.2852
網	-11.2855
圭	-11.2892
臾	-11.2893
虺	-11.2895
軰	-11.2898
蘄	-11.2899
饒	-11.2934
典	-11.2943
髄	-11.2977
崖	-11.2978
挿	-11.2984
杞	-11.2987
蜒	-11.3022
冦	-11.303
顋	-11.3032
誦	-11.3039
玄	-11.3064
鏃	-11.3068
扎	-11.3068
弄	-11.3074
攀	-11.3076
繭	-11.3111
魯	-11.3115
鵲	-11.3115
莊	-11.3127
訂	-11.3129
軀	-11.3164
兀	-11.3166
㕘	-11.3169
燃	-11.3206
麗	-11.3206
攅	-11.3214
尹	-11.3216
賣	-11.3246
船	-11.3253
顖	-11.3258
廷	-11.326
尉	-11.3296
羖	-11.3297
薦	-11.3297
釜	-11.3298
貌	-11.3299
整	-11.3307
莪	-11.3342
祗	-11.3354
魁	-11.339
艱	-11.3431
蕤	-11.3432
抝	-11.3434
覽	-11.3438
闊	-11.3438
蒔	-11.3477
蚰	-11.3477
盪	-11.3481
羚	-11.3481
鞠	-11.3483
欵	-11.3483
昇	-11.3484
仝	-11.3485
蕃	-11.3485
无	-11.3486
慧	-11.3486
村	-11.3488
獻	-11.3527
鳯	-11.3528
疙	-11.3528
龎	-11.3537
圊	-11.3542
株	-11.3574
剖	-11.3575
焰	-11.3578
窩	-11.3579
睪	-11.3585
捫	-11.359
襄	-11.3617
蚺	-11.3617
紗	-11.3621
茰	-11.3622
叩	-11.3624
杼	-11.3624
瘹	-11.3629
憤	-11.3634
槲	-11.3666
澆	-11.3669
臈	-11.3669
曹	-11.3669
􁤹	-11.367
苐	-11.3679
朔	-11.3679
胠	-11.368
撞	-11.3683
荏	-11.3712
捜	-11.3719
邈	-11.3725
橋	-11.3726
恃	-11.3726
翌	-11.3726
捉	-11.3764
燋	-11.3765
胵	-11.3768
歿	-11.3769
萸	-11.3769
拍	-11.381
芃	-11.3811
萌	-11.3812
蕋	-11.3815
囬	-11.3818
遵	-11.382
聤	-11.3855
豹	-11.3859
抓	-11.3863
䖏	-11.3863
擬	-11.3871
㿀	-11.3872
靑	-11.3875
衄	-11.3875
隻	-11.3893
鎻	-11.391
楸	-11.391
叄	-11.3914
蜥	-11.3943
蟯	-11.3945
蝮	-11.3958
幷	-11.3959
殷	-11.3961
翠	-11.3962
沖	-11.3963
遥	-11.3967
哲	-11.397
蘂	-11.4008
躄	-11.4008
薟	-11.4008
付	-11.4014
舂	-11.4058
劄	-11.4062
該	-11.4063
痏	-11.4063
臚	-11.411
罵	-11.4116
耑	-11.4118
醇	-11.4137
蚱	-11.4149
粹	-11.4157
􁟍	-11.4157
搓	-11.4162
殞	-11.4207
㿔	-11.4211
溉	-11.4212
胗	-11.4214
迅	-11.4253
緒	-11.426
俯	-11.4263
酷	-11.4264
􁦝	-11.4265
槽	-11.4304
㪷	-11.4305
糧	-11.4307
癆	-11.431
瞻	-11.4312
揮	-11.4313
歧	-11.4321
箱	-11.4353
藜	-11.4355
豫	-11.4357
刋	-11.4362
翰	-11.4362
勉	-11.4364
㨂	-11.4409
屏	-11.441
奥	-11.4417
菟	-11.4419
蜚	-11.4455
覩	-11.4458
賈	-11.4458
罌	-11.4461
忠	-11.4464
襯	-11.4464
埃	-11.4468
菉	-11.4468
凹	-11.447
斫	-11.4511
螋	-11.4514
祝	-11.4516
啟	-11.4519
役	-11.4554
浪	-11.457
橄	-11.4572
駝	-11.4605
犢	-11.4632
澗	-11.4667
䀮	-11.4667
悔	-11.467
𬎼	-11.4671
苽	-11.4672
嗚	-11.4675
捷	-11.4676
卦	-11.468
絕	-11.4708
曬	-11.4715
疿	-11.472
赴	-11.4723
枉	-11.4723
岳	-11.4724
拈	-11.4724
詞	-11.4724
恍	-11.4724
茺	-11.4725
牖	-11.4728
蔬	-11.4777
莎	-11.4777
串	-11.4778
族	-11.4778
操	-11.4779
熖	-11.4779
殃	-11.4781
駛	-11.4781
羹	-11.4824
>	-11.4828
荔	-11.4829
痱	-11.483
蕈	-11.4832
呵	-11.4835
鯉	-11.4873
鶩	-11.4877
綴	-11.4877
臊	-11.4879
堇	-11.488
弹	-11.4881
皯	-11.4976
副	-11.4985
鰻	-11.4985
奈	-11.4986
瓮	-11.499
臆	-11.4993
巫	-11.4993
嫌	-11.4995
竇	-11.5001
妾	-11.5007
柚	-11.5032
朗	-11.5037
菝	-11.5038
嫰	-11.504
韶	-11.5042
豕	-11.5053
㯶	-11.5098
簇	-11.5098
蓴	-11.5101
殼	-11.5102
鳳	-11.5105
猴	-11.5148
蛟	-11.5153
凸	-11.5155
坡	-11.5159
躍	-11.5159
楠	-11.5207
柑	-11.5209
駐	-11.521
悽	-11.5214
㿉	-11.5217
橡	-11.526
箕	-11.5271
羞	-11.5313
剜	-11.5321
廩	-11.5322
棕	-11.5322
圗	-11.5322
宰	-11.5324
朙	-11.5328
癡	-11.5329
瘂	-11.5329
冇	-11.537
牆	-11.5372
鎖	-11.5377
璣	-11.5378
繋	-11.5378
疊	-11.5378
頦	-11.5379
掖	-11.5428
乞	-11.5432
噀	-11.5435
閲	-11.5436
寔	-11.5444
拽	-11.545
籬	-11.549
䘮	-11.5492
蒺	-11.5492
晬	-11.5494
暇	-11.5494
襍	-11.5495
葜	-11.5539
貢	-11.554
𨼆	-11.554
裁	-11.5548
彦	-11.5551
肖	-11.5553
董	-11.5553
靡	-11.5554
貓	-11.5555
私	-11.5556
瑁	-11.5599
搭	-11.5601
卜	-11.5603
渫	-11.5604
技	-11.561
匿	-11.5613
赭	-11.5649
螯	-11.5655
岸	-11.5661
哮	-11.5665
痣	-11.5666
涓	-11.567
邱	-11.5675
滳	-11.5708
柘	-11.5713
黨	-11.5716
竺	-11.5717
偹	-11.5717
鐘	-11.5723
苺	-11.5772
斬	-11.5777
鴿	-11.5777
渚	-11.5782
綻	-11.5783
紹	-11.5787
换	-11.5831
融	-11.5833
宇	-11.5839
閟	-11.5843
憲	-11.5845
搯	-11.5846
韋	-11.5885
鸛	-11.5891
䑓	-11.5893
隙	-11.5896
醴	-11.5897
哯	-11.5899
韻	-11.59
騎	-11.5903
黙	-11.5906
缾	-11.5951
葷	-11.5954
給	-11.5955
啘	-11.5956
眶	-11.5958
夣	-11.5959
顙	-11.5964
挫	-11.5964
劫	-11.5965
怠	-11.5998
題	-11.6016
蕘	-11.6016
買	-11.6017
馳	-11.6021
宂	-11.6023
粳	-11.6032
蠼	-11.6078
瘜	-11.6079
邀	-11.6081
晏	-11.6085
畱	-11.609
駁	-11.6139
愆	-11.6144
訓	-11.6144
傴	-11.6146
􁜖	-11.6195
单	-11.6197
蠲	-11.62
軒	-11.6203
區	-11.6206
催	-11.6227
煠	-11.6251
觜	-11.6257
麞	-11.6258
伊	-11.6261
芪	-11.631
碁	-11.6315
措	-11.6321
萹	-11.6323
俚	-11.638
濼	-11.6385
旨	-11.6385
榔	-11.6385
函	-11.6393
粮	-11.6428
藻	-11.6443
䚡	-11.6443
苡	-11.6447
敵	-11.6453
僂	-11.6456
瘭	-11.6504
飡	-11.6506
聳	-11.6508
蕚	-11.651
穂	-11.651
嚲	-11.6514
赫	-11.6514
碍	-11.6514
䘐	-11.6519
內	-11.6519
馮	-11.6519
蠻	-11.6569
艮	-11.657
烹	-11.6572
㾦	-11.6572
紥	-11.6573
関	-11.6577
湊	-11.6581
兑	-11.6583
鱓	-11.6629
飾	-11.6631
駮	-11.6632
瘩	-11.6632
怔	-11.6635
勸	-11.6638
蠅	-11.6638
窘	-11.6639
懈	-11.6641
兠	-11.6642
頬	-11.6652
榴	-11.6687
娘	-11.67
剝	-11.67
螂	-11.6702
􁏣	-11.6704
逮	-11.6705
皶	-11.6706
醸	-11.676
蘹	-11.676
圃	-11.676
藁	-11.6761
堆	-11.6761
撃	-11.6762
蓖	-11.6763
窻	-11.6768
聶	-11.677
棺	-11.677
繇	-11.6826
䰟	-11.6828
遟	-11.6829
􁋄	-11.6832
荽	-11.6833
庻	-11.6834
欖	-11.6837
嘘	-11.6892
煻	-11.6892
廬	-11.6896
苛	-11.6899
寮	-11.69
慿	-11.6903
蘅	-11.6944
筍	-11.6944
㳟	-11.6955
兜	-11.6958
尼	-11.6962
歡	-11.6965
襴	-11.7027
渙	-11.7027
雹	-11.7032
痧	-11.7036
隅	-11.7093
臙	-11.7093
瑚	-11.7094
祭	-11.7094
沿	-11.7096
茇	-11.7101
規	-11.7101
糕	-11.7159
嘿	-11.7159
珊	-11.7161
蛭	-11.7187
趺	-11.7213
萞	-11.7223
珀	-11.7225
堕	-11.7225
裩	-11.7227
梟	-11.723
慓	-11.7235
嗢	-11.7237
譆	-11.7238
廻	-11.7239
臏	-11.7239
杓	-11.729
醍	-11.7292
攢	-11.7297
崇	-11.7297
郁	-11.7297
蔣	-11.7298
􁷙	-11.7298
暄	-11.7301
番	-11.7301
鄙	-11.7303
譩	-11.7308
茨	-11.736
詔	-11.7363
貽	-11.7367
頞	-11.7367
叫	-11.737
戚	-11.7373
顚	-11.7374
憎	-11.7413
朶	-11.7434
焠	-11.7434
玊	-11.7434
剔	-11.7435
毉	-11.7436
㝠	-11.7437
飄	-11.7437
俛	-11.7437
棠	-11.744
黅	-11.7449
蘞	-11.7501
迭	-11.7501
壤	-11.7501
漠	-11.7502
􁱫	-11.7503
蠏	-11.7504
彩	-11.7504
攷	-11.7505
謌	-11.7512
悅	-11.7567
醖	-11.757
薏	-11.7571
殿	-11.7574
璐	-11.7579
檗	-11.7604
雚	-11.7631
滄	-11.7634
醐	-11.7639
蝉	-11.7641
孺	-11.7641
䪿	-11.7643
荗	-11.7645
鎭	-11.7648
逃	-11.7652
㾗	-11.7654
財	-11.7708
蘼	-11.771
替	-11.7711
佩	-11.7715
輟	-11.7716
邵	-11.7717
峯	-11.7717
隐	-11.7718
冥	-11.7725
鱺	-11.7781
境	-11.7783
缸	-11.7786
蛸	-11.7787
芬	-11.7787
薢	-11.7787
􁳚	-11.7789
鑠	-11.779
欺	-11.7793
樝	-11.7797
蜴	-11.7839
飱	-11.7848
膾	-11.7852
袐	-11.7854
㬠	-11.7854
麹	-11.7857
冀	-11.7858
允	-11.786
諧	-11.7863
晡	-11.7865
歎	-11.787
價	-11.7927
巽	-11.793
堊	-11.793
尫	-11.7932
憔	-11.7935
譜	-11.7993
悒	-11.7999
鷀	-11.8002
諱	-11.8003
寕	-11.8003
裝	-11.8004
縂	-11.8004
穩	-11.8006
蜣	-11.8009
揣	-11.8009
瞪	-11.8014
鳶	-11.8072
黶	-11.8073
苞	-11.8075
俄	-11.8077
榧	-11.8077
萵	-11.8078
創	-11.8078
矧	-11.8078
披	-11.8079
歪	-11.8082
盜	-11.8097
􁪷	-11.8136
郵	-11.8142
駒	-11.8157
磣	-11.8159
鸕	-11.8223
靛	-11.8224
攧	-11.8224
迹	-11.8228
娩	-11.8229
墓	-11.8233
鼾	-11.8235
疵	-11.8296
奶	-11.8299
億	-11.8301
阜	-11.8302
㑊	-11.8309
鰾	-11.8372
葅	-11.8373
嫁	-11.8373
􁚲	-11.8373
扣	-11.8374
齆	-11.8376
萱	-11.8377
頼	-11.8382
搦	-11.8433
𥘉	-11.8444
氊	-11.8445
碌	-11.8446
斡	-11.8447
縊	-11.845
版	-11.8451
􁟖	-11.8452
甌	-11.8453
飩	-11.8453
恊	-11.8455
逈	-11.8458
樺	-11.8524
曷	-11.8525
猘	-11.8528
遼	-11.8528
㾬	-11.8531
惺	-11.8531
趂	-11.8534
棱	-11.8535
蛻	-11.854
䧺	-11.8597
熛	-11.8601
浆	-11.8603
嵐	-11.8605
槿	-11.8606
茫	-11.8607
捨	-11.8608
話	-11.8608
怵	-11.8609
鰕	-11.8611
涙	-11.8615
嵩	-11.8677
窟	-11.8679
嗆	-11.8684
諦	-11.8686
錘	-11.8688
餐	-11.8688
􁨛	-11.8689
詈	-11.869
迨	-11.8692
齁	-11.8695
恨	-11.8696
橫	-11.87
鱧	-11.876
鳬	-11.876
揾	-11.8762
兌	-11.8762
鴻	-11.8763
貍	-11.8765
優	-11.8765
紐	-11.8768
閭	-11.8771
㦸	-11.8807
闇	-11.8835
罯	-11.8837
爆	-11.8837
浣	-11.8838
䗫	-11.8839
杭	-11.884
𬗋	-11.8843
麦	-11.8846
潜	-11.8846
惶	-11.8847
眯	-11.8848
毁	-11.8849
嬌	-11.8851
骭	-11.8858
晶	-11.8913
羔	-11.8919
蝠	-11.8919
桕	-11.8922
契	-11.8924
瀾	-11.8926
趣	-11.893
柹	-11.8932
贊	-11.8933
蟠	-11.9002
竿	-11.9002
擲	-11.9006
螵	-11.9007
豶	-11.9008
昨	-11.9012
矩	-11.9015
毅	-11.9016
鑚	-11.908
濫	-11.9084
藊	-11.9089
秉	-11.9089
睾	-11.9096
餹	-11.9096
惰	-11.9151
恩	-11.9162
洲	-11.9163
跡	-11.9163
蒡	-11.9165
羯	-11.9166
頴	-11.9166
隋	-11.9166
獵	-11.9167
講	-11.917
詣	-11.9171
袖	-11.9172
籍	-11.9173
虵	-11.9179
膲	-11.9243
澈	-11.9244
䴸	-11.925
辦	-11.925
敏	-11.9252
踐	-11.9254
吁	-11.9257
淖	-11.926
櫟	-11.9325
鱔	-11.9328
玳	-11.9333
霹	-11.9334
蠆	-11.9335
庫	-11.9335
蕊	-11.934
䪼	-11.9348
虢	-11.9408
橙	-11.9412
熒	-11.9418
靂	-11.9418
榻	-11.9419
悖	-11.9421
覔	-11.9422
蛛	-11.9423
潘	-11.9423
圏	-11.9424
蝸	-11.9482
社	-11.9498
蝙	-11.9498
鎚	-11.9499
鵶	-11.9502
賓	-11.9502
挟	-11.9506
緻	-11.9506
姪	-11.9507
髆	-11.9514
熁	-11.9578
塘	-11.9581
蘽	-11.9583
嗟	-11.9584
砧	-11.9586
琅	-11.9586
芄	-11.9586
荻	-11.9587
巡	-11.9587
螌	-11.9587
彚	-11.9597
壘	-11.9673
􁋜	-11.9673
洋	-11.9674
聼	-11.9676
囚	-11.9677
袁	-11.9677
靖	-11.9678
拄	-11.9696
􁑭	-11.9758
冶	-11.9759
彬	-11.9761
劍	-11.9762
隣	-11.9764
寇	-11.9765
範	-11.9768
鈹	-11.9772
廟	-11.9839
挹	-11.9844
薜	-11.9848
蔾	-11.9849
餛	-11.9849
曵	-11.9849
款	-11.985
茵	-11.985
扺	-11.9852
苜	-11.9852
燠	-11.9852
膳	-11.9852
疴	-11.9854
䧏	-11.9855
龔	-11.9855
拱	-11.9857
莾	-11.9929
潑	-11.9929
莵	-11.993
菱	-11.9934
蓿	-11.9938
粽	-11.9939
譚	-11.994
瓢	-11.9942
嘆	-11.9947
屠	-12.0019
柄	-12.002
妖	-12.0022
澱	-12.0024
柞	-12.0025
劒	-12.0027
幕	-12.0028
閑	-12.0028
禄	-12.0031
蠕	-12.0035
茛	-12.0105
菩	-12.0109
櫸	-12.011
別	-12.0113
嶽	-12.0115
衘	-12.0116
蹉	-12.0116
鵬	-12.0117
蓂	-12.0117
熇	-12.0119
衮	-12.0119
渡	-12.0123
基	-12.0127
覃	-12.0145
潞	-12.0199
薩	-12.0203
螢	-12.0203
瞿	-12.0205
肶	-12.0205
鄰	-12.0206
盂	-12.0208
態	-12.0218
叟	-12.0218
骶	-12.0225
懊	-12.0292
璧	-12.0293
熔	-12.0295
帳	-12.0296
擡	-12.0298
陟	-12.0299
栽	-12.0299
簽	-12.0299
敲	-12.0299
鄧	-12.0299
秔	-12.0305
篾	-12.0308
蝓	-12.0371
㓙	-12.0378
欒	-12.0379
鎰	-12.0387
蝟	-12.0392
鑒	-12.0392
腭	-12.0393
蘊	-12.0394
拯	-12.0396
兪	-12.0396
誅	-12.0396
倐	-12.0404
映	-12.0472
蠣	-12.0479
援	-12.048
蛹	-12.0481
捺	-12.0481
厄	-12.0483
鑽	-12.0485
軸	-12.0485
岩	-12.0487
祈	-12.0489
嚮	-12.049
禱	-12.0492
浥	-12.0492
慕	-12.0493
䇿	-12.0493
呻	-12.0496
䏶	-12.0567
枇	-12.0573
呀	-12.0576
簿	-12.0578
穬	-12.058
欹	-12.0582
譌	-12.0586
闢	-12.0587
鴟	-12.0587
㽲	-12.0609
㓕	-12.0659
蒻	-12.0662
腽	-12.0668
胱	-12.0669
仔	-12.0674
薈	-12.0675
嗄	-12.0676
札	-12.0677
舞	-12.0682
㬰	-12.0765
坯	-12.0767
擔	-12.0767
徽	-12.0769
䔧	-12.0771
菖	-12.0773
鶻	-12.0773
硼	-12.0775
需	-12.0778
閱	-12.0778
籐	-12.0779
倪	-12.078
盗	-12.081
駃	-12.0863
它	-12.0865
褥	-12.0868
痍	-12.0868
汴	-12.0871
蹷	-12.0871
寂	-12.0877
胖	-12.0881
鴆	-12.0884
窨	-12.0952
蒟	-12.0955
贈	-12.0963
吼	-12.0967
灾	-12.0967
坦	-12.0967
迸	-12.0969
撩	-12.097
溽	-12.0972
像	-12.0972
栀	-12.0973
悗	-12.0978
礦	-12.1048
耕	-12.1052
塜	-12.106
蛜	-12.1063
勺	-12.1064
仕	-12.1067
酲	-12.1073
餒	-12.1074
濬	-12.1077
眴	-12.1079
琴	-12.1159
嗅	-12.116
葯	-12.1162
黔	-12.1163
醺	-12.1165
䆒	-12.1165
衃	-12.1166
齡	-12.1166
諄	-12.1166
摧	-12.1168
喬	-12.1169
椏	-12.1169
杷	-12.1258
𬒳	-12.1261
遞	-12.1262
僉	-12.1266
揆	-12.1267
爬	-12.1269
戲	-12.127
縦	-12.1271
痤	-12.1273
猬	-12.1276
瓊	-12.1364
轄	-12.1365
謇	-12.1368
誕	-12.1369
蜕	-12.1369
臠	-12.137
蕓	-12.137
䑛	-12.1371
綂	-12.1377
髖	-12.1389
䟦	-12.1461
叁	-12.1463
蛙	-12.1464
稳	-12.1466
踠	-12.1467
霄	-12.1468
距	-12.1469
汙	-12.1471
咂	-12.1472
旅	-12.1475
􁋋	-12.1476
祇	-12.1478
峰	-12.1479
瀕	-12.1479
僊	-12.1567
棉	-12.1568
亞	-12.1571
箬	-12.1574
飥	-12.1574
甖	-12.1574
匪	-12.1576
膀	-12.1578
猝	-12.1579
算	-12.1579
藝	-12.1588
姻	-12.1674
棓	-12.1675
緫	-12.1675
蓆	-12.1679
謨	-12.1681
蕨	-12.1684
惙	-12.1685
頽	-12.1686
檎	-12.1689
座	-12.1692
詐	-12.1692
嫗	-12.1694
䡖	-12.1773
糁	-12.1777
聊	-12.1779
断	-12.1781
掬	-12.1782
葈	-12.1783
帕	-12.1783
勾	-12.1784
蕎	-12.1786
斟	-12.1788
醮	-12.1791
做	-12.1792
亶	-12.1792
孚	-12.1793
墀	-12.18
睥	-12.1804
【	-12.1827
伺	-12.1887
蘝	-12.1888
階	-12.1888
愽	-12.1893
戍	-12.1893
泊	-12.1895
啇	-12.1899
縈	-12.1901
肱	-12.1903
疤	-12.1905
蝪	-12.1986
筵	-12.1999
瑣	-12.2002
臋	-12.2005
㿠	-12.2005
竪	-12.201
諭	-12.2014
葙	-12.2109
㳺	-12.211
軺	-12.211
叠	-12.2113
㝷	-12.2115
溷	-12.2115
廿	-12.2117
窺	-12.2117
曳	-12.2118
廪	-12.212
臯	-12.2121
跪	-12.2123
凛	-12.2127
倮	-12.2217
蕡	-12.2222
踞	-12.2222
蒌	-12.2223
卓	-12.2224
踒	-12.2224
酘	-12.2225
髲	-12.2227
沮	-12.2227
帥	-12.2228
稼	-12.2229
庠	-12.223
帚	-12.2234
鬐	-12.231
檉	-12.2322
揷	-12.2327
仇	-12.2328
競	-12.233
婚	-12.2333
䕃	-12.2339
􁫻	-12.234
簷	-12.2341
漚	-12.2342
演	-12.2346
蘘	-12.2424
莬	-12.2424
煞	-12.244
兖	-12.2442
痾	-12.2444
豪	-12.2446
晋	-12.2446
榼	-12.2447
癮	-12.2447
膞	-12.2449
飰	-12.2449
掀	-12.2453
禳	-12.2454
㭍	-12.2455
恬	-12.2455
欣	-12.246
昀	-12.2463
蛞	-12.2546
鑵	-12.2549
璃	-12.2549
柯	-12.2557
螳	-12.2557
賀	-12.2559
磊	-12.256
逓	-12.256
塡	-12.2561
鍚	-12.2564
􁵂	-12.2564
攘	-12.2564
蕙	-12.2567
芦	-12.2568
館	-12.2568
曠	-12.2568
蘩	-12.2568
荼	-12.2572
簾	-12.2575
屁	-12.2576
戕	-12.258
裛	-12.267
黛	-12.2674
燻	-12.2674
栝	-12.2675
顳	-12.2675
岡	-12.2682
吊	-12.2683
構	-12.2686
蒁	-12.269
褚	-12.269
􁕲	-12.2696
躽	-12.2696
稚	-12.2697
鶉	-12.2785
􁪱	-12.2789
鮎	-12.279
顬	-12.2791
閏	-12.2792
鍜	-12.2793
瑟	-12.2793
玕	-12.2796
諺	-12.2797
駱	-12.2798
娶	-12.2798
拗	-12.2798
詰	-12.2799
鑱	-12.2801
菥	-12.2802
怨	-12.2806
踹	-12.2807
窄	-12.2813
宦	-12.2815
茴	-12.2911
禪	-12.2911
躭	-12.2912
呑	-12.2914
􁗒	-12.2915
樵	-12.2917
敎	-12.2919
謐	-12.292
漂	-12.292
詀	-12.2929
稈	-12.2929
詹	-12.3034
餠	-12.3036
蜞	-12.3037
塲	-12.3037
鋌	-12.3038
欽	-12.3039
蘧	-12.3039
篋	-12.304
拙	-12.3041
葎	-12.3041
棃	-12.3046
翔	-12.3046
匠	-12.3046
滾	-12.3047
捩	-12.3134
鮧	-12.3142
勅	-12.3152
眚	-12.3153
佚	-12.3154
筭	-12.3155
那	-12.3157
鉗	-12.3158
溻	-12.3159
署	-12.3159
鑄	-12.3159
潦	-12.316
妥	-12.3162
恪	-12.3163
簮	-12.3163
霖	-12.3163
咒	-12.3168
莽	-12.3255
桓	-12.3273
梂	-12.3273
蜋	-12.3273
蠊	-12.3274
櫨	-12.3275
蹙	-12.328
􁫙	-12.3282
捧	-12.3282
淀	-12.3284
裳	-12.3284
征	-12.3285
鎌	-12.3285
擅	-12.3286
寝	-12.3287
䓁	-12.3287
饌	-12.3287
撓	-12.3288
迂	-12.3288
誣	-12.3289
稿	-12.3292
疕	-12.3296
炅	-12.3315
鮫	-12.3398
鼉	-12.3399
豨	-12.3401
蠒	-12.3402
勘	-12.3405
爼	-12.3406
爵	-12.3408
舛	-12.3408
吟	-12.3409
磕	-12.3412
矛	-12.3415
臻	-12.3416
淆	-12.3417
徙	-12.3419
愧	-12.3422
摺	-12.3423
刄	-12.3521
鞍	-12.3529
毗	-12.353
扯	-12.3531
螻	-12.3534
刈	-12.3535
藹	-12.3536
湛	-12.3537
耽	-12.3539
冊	-12.354
杮	-12.3651
織	-12.3654
藋	-12.3658
戀	-12.3659
榛	-12.366
績	-12.3662
􁩍	-12.3662
㯽	-12.3666
螄	-12.3666
掇	-12.3667
遙	-12.3668
磠	-12.3668
餓	-12.3668
愊	-12.3669
纎	-12.3669
託	-12.367
埤	-12.3672
涇	-12.3673
宏	-12.3674
俊	-12.3677
􁔇	-12.3678
蝶	-12.3766
淄	-12.378
嵌	-12.3786
齩	-12.3789
盥	-12.3789
陋	-12.3789
鄲	-12.3789
簪	-12.379
仗	-12.3791
􁗀	-12.3793
叧	-12.3795
􁷚	-12.3799
牧	-12.3801
肫	-12.3802
顀	-12.3811
罅	-12.3814
粢	-12.3904
睂	-12.3918
䗶	-12.392
靴	-12.3921
騾	-12.3921
誌	-12.3921
𣏌	-12.3922
疞	-12.3922
饅	-12.3923
簸	-12.3925
歙	-12.3925
胰	-12.3925
厨	-12.3926
蹶	-12.3926
𤨏	-12.3926
跛	-12.3928
輿	-12.3928
昆	-12.3933
腊	-12.3933
憶	-12.3935
膹	-12.3937
冽	-12.3939
撈	-12.4047
𣣔	-12.4051
茭	-12.4053
讝	-12.4055
樣	-12.4056
趐	-12.4057
堵	-12.4058
翦	-12.4059
珎	-12.4059
淤	-12.4062
臖	-12.4062
僣	-12.4063
䏻	-12.4066
凥	-12.4072
􁝥	-12.4175
俎	-12.4188
蚓	-12.4188
葡	-12.4193
墳	-12.4193
篐	-12.4194
謾	-12.4195
蕺	-12.4195
嵇	-12.4196
璇	-12.4197
郤	-12.42
硇	-12.42
拉	-12.4201
炁	-12.4201
怏	-12.4202
槖	-12.4205
央	-12.432
畦	-12.4322
碩	-12.4323
燼	-12.4323
廵	-12.4324
炲	-12.4326
喧	-12.4327
瘾	-12.4331
罩	-12.4333
羶	-12.4333
愓	-12.4334
綸	-12.4336
緜	-12.4336
詎	-12.4339
􁳌	-12.4342
彫	-12.4456
爇	-12.4464
駕	-12.4467
怱	-12.4467
薁	-12.4468
策	-12.4468
麢	-12.4468
胚	-12.4469
騫	-12.447
燾	-12.447
鍛	-12.4473
瘉	-12.4476
茲	-12.4477
燧	-12.4477
憐	-12.4479
漁	-12.4483
剃	-12.4485
頄	-12.4491
漓	-12.4598
朋	-12.4605
瀋	-12.4605
羗	-12.4609
伽	-12.461
髯	-12.4611
腳	-12.4612
攸	-12.4614
淪	-12.4615
挈	-12.4616
醜	-12.4616
剰	-12.4619
涯	-12.4628
􁏋	-12.4635
椅	-12.4742
擺	-12.4743
架	-12.4749
祀	-12.475
隊	-12.4751
􁈍	-12.4752
龞	-12.4753
餺	-12.4755
阮	-12.4757
裕	-12.4758
賛	-12.4759
㬥	-12.476
梃	-12.4761
亾	-12.4763
秩	-12.4763
簒	-12.4772
群	-12.4887
蓯	-12.4888
簳	-12.4889
播	-12.4891
垽	-12.4893
擴	-12.4893
褊	-12.4897
荑	-12.4898
殗	-12.4899
郊	-12.4899
賞	-12.49
蜊	-12.4902
惚	-12.4902
疆	-12.4902
菇	-12.4903
堯	-12.4905
討	-12.4907
錍	-12.5025
冤	-12.5031
煌	-12.5035
娑	-12.5037
犍	-12.5039
隘	-12.504
䈽	-12.5041
暝	-12.5041
邕	-12.5041
售	-12.5045
葒	-12.5045
漩	-12.5045
詮	-12.5046
䟱	-12.5047
㓗	-12.5047
湘	-12.5049
蹈	-12.505
滁	-12.505
夙	-12.5051
摠	-12.5052
捋	-12.5052
掐	-12.5053
憫	-12.5054
楫	-12.5054
䐃	-12.5055
穄	-12.5159
蜓	-12.5174
􁌕	-12.5182
電	-12.5189
茘	-12.5191
挂	-12.5194
庵	-12.5194
㒺	-12.5195
昻	-12.5197
隕	-12.5197
矯	-12.5197
祁	-12.5197
菵	-12.5198
闡	-12.5198
鴣	-12.5198
抜	-12.5198
凄	-12.5198
襠	-12.5201
躬	-12.5201
諳	-12.5202
鰂	-12.5202
砍	-12.5202
奎	-12.5204
􁫫	-12.532
琉	-12.5333
飜	-12.5336
恠	-12.5338
棊	-12.534
套	-12.5344
蘡	-12.5344
棲	-12.5345
宙	-12.5345
瞶	-12.5346
蜃	-12.5347
篁	-12.5349
佃	-12.5349
彎	-12.5349
蚖	-12.5349
櫛	-12.535
摭	-12.535
模	-12.5352
押	-12.5352
頏	-12.5364
蠵	-12.5469
衢	-12.5495
迄	-12.5498
鯽	-12.5498
嘯	-12.5499
懇	-12.55
荘	-12.5501
熈	-12.5501
㓂	-12.5502
懣	-12.5503
獄	-12.5504
籥	-12.551
䤵	-12.5512
釅	-12.5525
塼	-12.5631
秬	-12.5641
匹	-12.5645
壇	-12.5648
䀋	-12.565
椶	-12.565
擗	-12.5653
瞥	-12.5657
緛	-12.5659
芰	-12.566
僭	-12.566
鷓	-12.5661
惹	-12.5663
葍	-12.5663
皸	-12.5664
䭇	-12.5665
悵	-12.5667
鬬	-12.5668
焞	-12.5671
訝	-12.5806
蠃	-12.5808
眇	-12.581
猥	-12.5812
梵	-12.5814
莞	-12.5815
雛	-12.5815
㡳	-12.5815
轅	-12.5817
驕	-12.5817
枋	-12.582
冗	-12.5831
螉	-12.5953
􁤥	-12.5961
筎	-12.5969
魃	-12.597
槎	-12.5974
誥	-12.5974
雁	-12.5974
虜	-12.5977
邁	-12.5979
匾	-12.5979
桴	-12.5979
蘋	-12.598
殠	-12.5981
泌	-12.5982
貎	-12.5983
醃	-12.5984
苴	-12.5984
坩	-12.5993
憚	-12.5995
獅	-12.6123
誘	-12.6131
懆	-12.6134
燖	-12.6135
芮	-12.6136
莱	-12.6136
穎	-12.6137
骾	-12.6137
恰	-12.6137
瑕	-12.6138
苕	-12.6138
邯	-12.6138
稗	-12.6138
荀	-12.6139
紊	-12.614
歠	-12.614
裴	-12.614
坼	-12.6141
欄	-12.6142
麟	-12.6142
殂	-12.6145
謁	-12.6147
綜	-12.6148
禇	-12.6148
慰	-12.615
侔	-12.615
浦	-12.6152
媪	-12.6152
牕	-12.6153
柤	-12.6262
箔	-12.6272
鮀	-12.6293
狄	-12.6295
灶	-12.6296
愠	-12.63
册	-12.63
歐	-12.6302
痎	-12.6303
􁷫	-12.6303
䐴	-12.6307
潭	-12.6307
鸎	-12.6309
燄	-12.6309
岑	-12.6309
妃	-12.631
彷	-12.6311
彿	-12.6312
瞭	-12.6315
􁋰	-12.6316
櫃	-12.6317
汨	-12.6318
派	-12.6319
怡	-12.6319
厘	-12.6466
缽	-12.6472
酣	-12.6473
罰	-12.6475
椰	-12.6476
鎗	-12.6476
揖	-12.6476
帙	-12.6476
閇	-12.6477
綽	-12.6477
燙	-12.6478
矇	-12.6479
鹼	-12.6479
蔔	-12.6479
耀	-12.6479
囑	-12.6483
杴	-12.6483
嬭	-12.649
􁁬	-12.6491
蜩	-12.6635
蛉	-12.6635
枲	-12.6637
黴	-12.6639
敕	-12.6641
牯	-12.6643
滔	-12.6645
銘	-12.6646
伴	-12.6646
霑	-12.6646
誡	-12.6647
繳	-12.6647
殜	-12.6648
埀	-12.6648
蛋	-12.6649
纏	-12.6649
跋	-12.6651
慱	-12.6652
閻	-12.6652
倂	-12.6653
虐	-12.6656
酬	-12.6658
瑇	-12.6808
猻	-12.6812
猢	-12.6814
藳	-12.6819
拓	-12.6819
叱	-12.6819
啑	-12.682
􁴖	-12.6822
枣	-12.6823
豭	-12.6823
捍	-12.6824
幃	-12.6825
癊	-12.6825
偉	-12.6829
帋	-12.6829
喑	-12.6832
邦	-12.6832
浩	-12.6832
蕒	-12.6833
衾	-12.6836
稌	-12.6847
蟕	-12.6971
呴	-12.6983
删	-12.6985
㐫	-12.6993
熳	-12.6995
秪	-12.6996
碓	-12.6997
沭	-12.6998
陕	-12.6998
禿	-12.6999
島	-12.7
炕	-12.7001
苒	-12.7002
朞	-12.7002
鱖	-12.7002
浹	-12.7003
娥	-12.7004
瞽	-12.7005
痴	-12.7006
㕔	-12.7007
曜	-12.7008
涵	-12.701
値	-12.7011
闌	-12.7011
撏	-12.7011
悠	-12.7013
烝	-12.7013
嗞	-12.702
䏚	-12.7032
皃	-12.7175
軫	-12.7175
欓	-12.7175
鋼	-12.7178
峽	-12.718
撤	-12.718
饋	-12.718
焫	-12.7181
胳	-12.7181
鼷	-12.7181
棒	-12.7181
矮	-12.7182
葇	-12.7184
騷	-12.7185
忙	-12.7185
彘	-12.7185
􁨇	-12.7186
鈍	-12.7187
叮	-12.7187
蹲	-12.7188
沛	-12.7188
肇	-12.7189
瘓	-12.7189
眊	-12.7189
迢	-12.7189
窓	-12.719
鏽	-12.7193
偕	-12.7208
覈	-12.735
鼃	-12.7358
炖	-12.7363
啻	-12.7363
熄	-12.7364
噬	-12.7364
蟇	-12.7364
蚵	-12.7366
歷	-12.7366
貟	-12.7367
椑	-12.7367
鄂	-12.7367
檳	-12.7368
㦯	-12.7368
籮	-12.7369
嘻	-12.7369
鵒	-12.7371
轍	-12.7372
隄	-12.7373
鴦	-12.7373
逄	-12.7377
戯	-12.7379
姬	-12.7383
脽	-12.7392
紺	-12.7538
默	-12.7548
綘	-12.7549
䓗	-12.755
装	-12.7551
蓉	-12.7553
爰	-12.7554
懵	-12.7555
舁	-12.7555
軌	-12.7557
塚	-12.7557
啾	-12.7558
駿	-12.7558
婺	-12.7559
忡	-12.7559
警	-12.7561
𩔖	-12.7562
朕	-12.7562
皎	-12.7562
􁁄	-12.7562
膍	-12.7563
箸	-12.7567
妹	-12.7569
嬾	-12.7569
忩	-12.7584
瑿	-12.7729
韌	-12.7735
啣	-12.7738
擒	-12.7743
鐶	-12.7746
邇	-12.7746
帷	-12.7748
裸	-12.7749
匏	-12.7749
兢	-12.775
椇	-12.7753
媾	-12.7753
蝌	-12.7753
絆	-12.7755
諒	-12.7756
庖	-12.7759
菠	-12.7759
愴	-12.7759
享	-12.7762
䪺	-12.7768
崗	-12.7933
蜻	-12.7939
昜	-12.794
樊	-12.7941
匡	-12.7942
枮	-12.7942
穆	-12.7943
芻	-12.7945
暨	-12.7946
􁳂	-12.7947
蔻	-12.795
雕	-12.7951
熙	-12.7952
惻	-12.7953
儻	-12.7954
搆	-12.7956
超	-12.7957
徇	-12.7961
嗍	-12.8136
熻	-12.8138
鴞	-12.8138
宕	-12.8138
鑰	-12.8138
繡	-12.814
麂	-12.8142
艷	-12.8142
遐	-12.8143
蚶	-12.8143
鋤	-12.8143
䅽	-12.8144
虆	-12.8144
呈	-12.8145
璞	-12.8145
筴	-12.8146
覧	-12.8147
馴	-12.8148
錮	-12.8148
撼	-12.8149
藘	-12.8149
凰	-12.8151
場	-12.8152
繹	-12.8152
瘋	-12.8153
袍	-12.8153
遜	-12.8154
插	-12.8155
篆	-12.8155
韞	-12.8158
舅	-12.8162
蕳	-12.8164
鬛	-12.8338
黿	-12.8339
媚	-12.8342
􁶘	-12.8346
淑	-12.8347
祠	-12.8348
擠	-12.8349
肬	-12.8351
薯	-12.8351
瞋	-12.8351
斥	-12.8352
劃	-12.8353
寵	-12.8354
痁	-12.8356
㰖	-12.8356
球	-12.8357
汎	-12.8358
鍵	-12.8359
眸	-12.8359
癈	-12.8359
聨	-12.836
喃	-12.8361
簟	-12.8362
轆	-12.8363
朦	-12.8364
潼	-12.8366
蛄	-12.854
屡	-12.8541
釭	-12.8548
詠	-12.8549
蜉	-12.8549
骰	-12.855
覷	-12.8553
陂	-12.8553
郷	-12.8554
㨶	-12.8554
庾	-12.8554
鏵	-12.8556
驛	-12.8556
双	-12.8556
驪	-12.8559
榦	-12.8559
籜	-12.856
魔	-12.8561
籌	-12.8561
䒽	-12.8561
衊	-12.8562
夹	-12.8562
棣	-12.8562
忒	-12.8562
㽞	-12.8562
鴛	-12.8566
齀	-12.8566
敝	-12.8567
汩	-12.8569
諫	-12.857
醪	-12.8571
漑	-12.8572
噓	-12.8761
鯸	-12.8763
恂	-12.8763
齘	-12.8764
笮	-12.8766
螽	-12.8767
饙	-12.8769
鷺	-12.8769
泗	-12.877
嫂	-12.8772
旡	-12.8773
慨	-12.8773
㶸	-12.8775
㨿	-12.8776
棋	-12.8776
艶	-12.8777
澒	-12.8781
偷	-12.8782
甥	-12.8784
偈	-12.8785
胂	-12.8791
謗	-12.8799
繪	-12.8975
鷂	-12.8981
豇	-12.8984
尢	-12.8986
慌	-12.8986
撅	-12.8987
桄	-12.8988
刅	-12.8989
唏	-12.899
蕧	-12.899
覓	-12.8991
奠	-12.8992
蒴	-12.8992
褓	-12.8993
宵	-12.8994
臧	-12.8998
埜	-12.8998
髁	-12.9002
惋	-12.9003
墊	-12.9004
鯇	-12.9197
蓑	-12.9202
􁟓	-12.9204
萼	-12.9206
爁	-12.9208
窖	-12.9209
蝗	-12.921
藩	-12.9213
􁳑	-12.9214
醯	-12.9216
襁	-12.9216
矜	-12.9218
禎	-12.9218
䖍	-12.9219
癔	-12.922
銓	-12.9221
郝	-12.9222
嶼	-12.9224
攜	-12.9224
𨽻	-12.9224
糱	-12.9237
柸	-12.9421
堝	-12.9425
儉	-12.943
􁟡	-12.943
瀹	-12.943
臌	-12.9431
晰	-12.9432
鬂	-12.9433
耿	-12.9433
蚾	-12.9434
倅	-12.9435
芺	-12.9435
儲	-12.9435
訟	-12.9436
総	-12.9437
骫	-12.9439
菅	-12.944
琢	-12.9441
斵	-12.9442
盫	-12.9443
踊	-12.9445
筩	-12.9445
戞	-12.9445
逝	-12.9446
楞	-12.9447
裘	-12.9448
佑	-12.9448
儼	-12.9451
陡	-12.9455
餉	-12.9459
侠	-12.9462
藭	-12.9575
縞	-12.9635
臰	-12.9642
劔	-12.9652
劳	-12.966
􁇨	-12.9662
噏	-12.9662
騣	-12.9664
䁾	-12.9664
㩉	-12.9665
􁢔	-12.9666
碑	-12.9666
舩	-12.9668
𣲖	-12.9668
鰍	-12.9669
鬭	-12.967
閙	-12.9671
痄	-12.9671
㢮	-12.9672
坊	-12.9672
嚇	-12.9672
迦	-12.9672
逕	-12.9673
惵	-12.9673
腴	-12.9673
戈	-12.9676
靳	-12.9677
耦	-12.9678
壜	-12.9678
拿	-12.9679
惨	-12.968
懿	-12.9682
璆	-12.9682
迥	-12.9685
傑	-12.9687
緯	-12.9687
缶	-12.969
你	-12.969
笄	-12.9692
猯	-12.9886
栘	-12.9891
濵	-12.9901
儘	-12.9903
箄	-12.9906
掞	-12.9908
馨	-12.9908
奮	-12.9908
莝	-12.991
蜖	-12.9914
昩	-12.9914
㳄	-12.9915
㤀	-12.9915
氐	-12.9915
㽵	-12.9915
棧	-12.9916
綫	-12.9918
桲	-12.9918
店	-12.9918
豎	-12.9921
鬻	-12.9922
森	-12.9923
蓏	-12.9927
奕	-12.9927
蝘	-13.0116
級	-13.0116
鼹	-13.0125
􁉣	-13.0137
粧	-13.014
鮠	-13.0142
栻	-13.0143
胍	-13.0145
慝	-13.0146
圈	-13.0147
翟	-13.0147
渭	-13.0147
湍	-13.0147
稂	-13.015
捐	-13.015
糾	-13.0151
葑	-13.0152
廽	-13.0154
馥	-13.0154
轂	-13.0154
荇	-13.0155
寗	-13.0155
辱	-13.0156
峒	-13.0156
响	-13.0157
眷	-13.0158
灣	-13.0158
鈔	-13.0159
麨	-13.0159
㢲	-13.0159
跨	-13.0162
𤯝	-13.0163
瀘	-13.0164
粤	-13.0165
􁰖	-13.0172
蔆	-13.0183
藷	-13.037
鑛	-13.0383
罈	-13.0384
糗	-13.0388
顏	-13.0388
槀	-13.039
溱	-13.0393
蠐	-13.0393
緡	-13.0394
鯪	-13.0396
芐	-13.0398
勑	-13.0398
􁌸	-13.0399
詭	-13.0399
纓	-13.04
繒	-13.04
􁖉	-13.0401
惛	-13.0401
砥	-13.0401
孀	-13.0402
瀛	-13.0403
抗	-13.0404
瘃	-13.0405
滷	-13.0407
佀	-13.0407
擷	-13.0408
袒	-13.0408
狶	-13.0409
轤	-13.0412
襪	-13.0412
綬	-13.0412
鏤	-13.0414
丐	-13.0414
鮝	-13.0415
筌	-13.0416
瞎	-13.0418
敘	-13.0422
闐	-13.0636
猩	-13.0644
鱣	-13.0645
嬴	-13.0647
醶	-13.065
芙	-13.065
伎	-13.065
弃	-13.0651
衫	-13.0652
撿	-13.0652
𦙍	-13.0652
蚍	-13.0654
蟮	-13.0654
唱	-13.0654
茖	-13.0657
漯	-13.0658
蜇	-13.0659
鬾	-13.0659
鵠	-13.066
拖	-13.0661
鄆	-13.0662
譽	-13.0662
銕	-13.0662
蚪	-13.0662
氲	-13.0663
憺	-13.0663
惽	-13.0664
瞞	-13.0664
榠	-13.0665
濺	-13.0668
寘	-13.0668
䶎	-13.0671
胬	-13.0672
腓	-13.0675
濳	-13.068
鸚	-13.0888
􁚾	-13.0901
蝤	-13.0904
蔤	-13.0906
鹻	-13.0907
拴	-13.0911
蚝	-13.0911
栲	-13.0913
㡌	-13.0914
課	-13.0916
餞	-13.0918
揔	-13.0919
鱟	-13.0919
刳	-13.092
􁐭	-13.0922
虙	-13.0923
抺	-13.0923
藶	-13.0924
慣	-13.0925
誑	-13.0926
舜	-13.0927
厓	-13.0927
鵰	-13.0928
戢	-13.0929
猜	-13.0929
呆	-13.093
汀	-13.093
捏	-13.0931
愕	-13.0931
壻	-13.0931
澧	-13.0933
㬷	-13.0934
沓	-13.0935
蘚	-13.1185
毆	-13.1186
捶	-13.1188
舖	-13.1189
鈞	-13.1191
嘲	-13.1192
泯	-13.1192
翣	-13.1193
祿	-13.1195
氤	-13.1196
什	-13.1197
潁	-13.1197
駢	-13.1197
拊	-13.1199
髦	-13.12
癇	-13.12
俳	-13.12
荄	-13.1202
漲	-13.1202
邜	-13.1205
憹	-13.1205
􁏘	-13.1238
蠮	-13.1458
聦	-13.1461
匣	-13.1462
呬	-13.1463
垍	-13.1464
禺	-13.1466
碟	-13.1466
誇	-13.1467
曼	-13.1467
滇	-13.1467
靭	-13.1467
捣	-13.1467
巷	-13.1468
茆	-13.1469
耘	-13.147
盾	-13.147
汶	-13.1472
媒	-13.1472
穹	-13.1472
筠	-13.1472
悌	-13.1472
麕	-13.1473
苄	-13.1474
妓	-13.1475
从	-13.1476
鱸	-13.1476
湮	-13.1479
邸	-13.1481
宴	-13.1485
劆	-13.1489
榰	-13.1503
珂	-13.1734
蟷	-13.1738
擎	-13.1741
癕	-13.1743
禆	-13.1746
隰	-13.1746
䲭	-13.1746
坂	-13.1746
猳	-13.175
嫉	-13.175
翮	-13.1751
晃	-13.1751
牟	-13.1752
騁	-13.1754
倨	-13.1755
埿	-13.1755
煽	-13.1756
綳	-13.1756
挨	-13.1756
䑃	-13.1758
剩	-13.1758
疢	-13.1758
嚀	-13.1761
倖	-13.1762
泆	-13.1762
窑	-13.1762
笠	-13.1762
抉	-13.1762
藦	-13.1762
緘	-13.1763
拏	-13.1764
皓	-13.1764
鍉	-13.1764
泪	-13.1764
犛	-13.1767
􁷛	-13.1777
鷃	-13.2018
鼢	-13.2025
棍	-13.2036
𡵨	-13.2039
鯷	-13.204
莉	-13.204
磧	-13.204
秠	-13.204
牌	-13.2042
噪	-13.2043
腌	-13.2043
組	-13.2044
狭	-13.2044
嚾	-13.2044
邢	-13.2044
𥚹	-13.2045
恥	-13.2046
攔	-13.2047
殫	-13.2048
莕	-13.2048
歉	-13.205
颼	-13.205
銹	-13.205
輝	-13.205
疪	-13.2052
虹	-13.2052
鸞	-13.2055
蕕	-13.2056
猖	-13.2056
卻	-13.2057
濤	-13.2057
髻	-13.2059
吝	-13.206
蒐	-13.206
軃	-13.2061
薴	-13.2065
梯	-13.2066
凳	-13.207
楗	-13.208
礜	-13.2328
皿	-13.2335
礠	-13.2335
条	-13.2337
鰌	-13.2338
㗖	-13.2338
幅	-13.2342
箋	-13.2343
銲	-13.2344
𦍑	-13.2345
㾓	-13.2346
莘	-13.2346
昉	-13.2346
尔	-13.2347
蓁	-13.2348
獐	-13.2348
砌	-13.2348
豺	-13.2352
热	-13.2352
陛	-13.2353
羆	-13.2353
綏	-13.2353
􁳪	-13.2354
稭	-13.2354
鄒	-13.2354
茒	-13.2354
籃	-13.2355
鉅	-13.2355
崑	-13.2356
悁	-13.2356
聵	-13.2357
帆	-13.2358
弼	-13.2358
撙	-13.2359
魍	-13.236
恤	-13.236
潠	-13.2361
蚋	-13.2364
鶡	-13.2364
逗	-13.2366
磬	-13.2366
頒	-13.2372
螟	-13.2641
鴽	-13.2642
闘	-13.265
𦵔	-13.2653
鑷	-13.2655
僞	-13.2657
閔	-13.2659
攬	-13.266
芣	-13.2661
滕	-13.2662
濛	-13.2663
䔉	-13.2664
刦	-13.2664
蕷	-13.2665
盅	-13.2665
蜈	-13.2665
挖	-13.2665
訊	-13.2667
捌	-13.2667
郢	-13.2667
槃	-13.2667
閤	-13.2669
閨	-13.2669
歹	-13.267
稔	-13.2671
濠	-13.2671
唧	-13.2671
撻	-13.2671
懦	-13.2672
貘	-13.2672
􁩊	-13.2672
姥	-13.2673
萄	-13.2674
攖	-13.2678
糢	-13.2678
霿	-13.2684
鋥	-13.2689
曩	-13.2691
弁	-13.2693
弥	-13.2974
牒	-13.2975
猗	-13.2976
漳	-13.2976
筐	-13.2977
燉	-13.2978
哥	-13.2979
塹	-13.2979
秈	-13.298
鰓	-13.298
咨	-13.2981
枹	-13.2982
讐	-13.2983
廱	-13.2983
酵	-13.2984
蜯	-13.2986
獠	-13.2986
蛣	-13.2986
􁷜	-13.2987
彤	-13.2988
楷	-13.2989
匐	-13.2989
睦	-13.2989
輾	-13.2989
㯃	-13.299
旗	-13.2991
廊	-13.2993
徼	-13.2994
痳	-13.2994
韜	-13.2996
奸	-13.2997
衙	-13.2999
蝍	-13.3
蚑	-13.3
媳	-13.3002
䦨	-13.3006
扑	-13.3012
鷸	-13.3295
餙	-13.3298
猨	-13.3298
􁴙	-13.3299
沂	-13.3307
鞘	-13.3311
沔	-13.3313
赦	-13.3314
軆	-13.3314
靤	-13.3315
蹤	-13.3317
讓	-13.3318
脗	-13.3318
龐	-13.3319
鮭	-13.3319
淒	-13.3319
􁇖	-13.332
蟣	-13.332
屐	-13.332
哈	-13.3322
譔	-13.3323
繰	-13.3324
瓘	-13.3324
杪	-13.3324
褌	-13.3325
陥	-13.3326
稸	-13.3326
囂	-13.3326
衷	-13.3326
蟈	-13.3327
䕫	-13.3328
瞬	-13.3328
迤	-13.3329
聯	-13.333
堦	-13.333
㐲	-13.3331
嵓	-13.3332
賾	-13.3332
忻	-13.3333
饍	-13.3334
昝	-13.3335
餻	-13.3336
企	-13.3338
綮	-13.3344
肐	-13.3348
艽	-13.365
狎	-13.3652
荚	-13.3653
楔	-13.3655
箒	-13.3655
羲	-13.3656
腲	-13.3656
攙	-13.3656
骩	-13.3657
泮	-13.3658
鏁	-13.3659
鶚	-13.3661
誨	-13.3661
蔑	-13.3662
煇	-13.3663
揜	-13.3663
葠	-13.3663
亘	-13.3664
栖	-13.3665
􁋑	-13.3667
笥	-13.3669
燮	-13.3669
挐	-13.367
鈕	-13.3671
窗	-13.3671
㕁	-13.3672
沼	-13.3675
瑙	-13.3677
鵙	-13.3677
晞	-13.3679
譴	-13.3682
髏	-13.3682
橛	-13.3683
譏	-13.3684
剽	-13.3685
閧	-13.3686
爻	-13.3703
藎	-13.4003
阯	-13.4005
鼄	-13.4006
瑠	-13.4007
􁪎	-13.4008
醢	-13.4011
砑	-13.4012
渤	-13.4012
玅	-13.4013
兕	-13.4016
狥	-13.4017
㷔	-13.4017
渝	-13.4017
琳	-13.4017
𥿄	-13.4017
雒	-13.4018
鄜	-13.4019
紆	-13.4019
鑊	-13.4019
汾	-13.4019
檐	-13.4019
蒳	-13.402
䐈	-13.402
蕐	-13.4021
撾	-13.4021
跖	-13.4021
涪	-13.4021
庇	-13.4021
鳧	-13.4022
沴	-13.4024
虋	-13.4024
讎	-13.4025
獾	-13.4026
騖	-13.4027
繖	-13.4027
魎	-13.4028
趕	-13.4028
煥	-13.4028
蜱	-13.4028
鯹	-13.4029
喊	-13.4029
璫	-13.4029
姤	-13.403
屯	-13.4031
諾	-13.4031
遡	-13.4031
胘	-13.4031
顒	-13.4032
捄	-13.4033
窈	-13.4034
榨	-13.4035
氂	-13.4035
懾	-13.404
脝	-13.4041
嬉	-13.4048
扛	-13.405
拇	-13.4305
蚨	-13.4349
鯢	-13.4368
黝	-13.4369
蹋	-13.4373
馭	-13.4377
鷙	-13.4379
叶	-13.4379
膋	-13.4382
藨	-13.4384
耵	-13.4385
稨	-13.4385
峭	-13.4386
閼	-13.4387
甸	-13.4387
輻	-13.4387
犁	-13.4388
綺	-13.4388
凾	-13.4389
蘺	-13.439
菾	-13.439
聹	-13.4391
􁁙	-13.4391
羡	-13.4391
玲	-13.4392
鬯	-13.4392
􁓝	-13.4392
瀁	-13.4393
癗	-13.4393
縐	-13.4394
蕂	-13.4394
鵜	-13.4394
鶯	-13.4394
洎	-13.4395
瓏	-13.4395
􁊨	-13.4396
磥	-13.4396
瘼	-13.4397
鉉	-13.4398
幻	-13.44
薐	-13.4401
霎	-13.4401
姿	-13.4401
溥	-13.4401
粃	-13.4401
昂	-13.4402
婉	-13.4402
瑪	-13.4404
蚣	-13.4405
盼	-13.4405
畵	-13.4405
躋	-13.4406
殢	-13.4407
霏	-13.441
懽	-13.4413
軾	-13.4414
􁒡	-13.4764
駞	-13.4765
筮	-13.4769
帽	-13.477
櫬	-13.4771
陁	-13.4771
悚	-13.4771
楪	-13.4772
磈	-13.4772
芁	-13.4773
䖸	-13.4773
幔	-13.4774
螃	-13.4775
䵴	-13.4775
葺	-13.4775
莄	-13.4775
罄	-13.4775
㺯	-13.4776
葭	-13.4776
壟	-13.4776
懨	-13.4776
㓨	-13.4776
衒	-13.4777
蟱	-13.4777
眨	-13.4777
舄	-13.4777
𬞞	-13.4778
楂	-13.4778
嶠	-13.4779
􁷗	-13.4779
漀	-13.478
䁎	-13.478
聘	-13.478
孜	-13.478
頁	-13.478
葧	-13.4781
粇	-13.4781
攄	-13.4781
驀	-13.4782
臞	-13.4783
騏	-13.4783
豢	-13.4784
齶	-13.4785
擢	-13.4787
羈	-13.4789
僮	-13.4794
姊	-13.4795
蒚	-13.5142
芨	-13.5151
狠	-13.5152
閬	-13.5155
蛩	-13.5157
羱	-13.516
栟	-13.516
稞	-13.516
荣	-13.5161
睢	-13.5162
蜾	-13.5165
栳	-13.5166
墯	-13.5167
𨫼	-13.5169
櫞	-13.5169
畝	-13.517
咋	-13.5171
􁬼	-13.5171
鰒	-13.5172
櫧	-13.5172
啗	-13.5173
硵	-13.5173
蜘	-13.5173
勣	-13.5174
搧	-13.5175
蠹	-13.5175
􁒓	-13.5175
咄	-13.5176
檽	-13.5176
琥	-13.5177
䥥	-13.5177
逥	-13.5178
䖦	-13.5178
瘄	-13.5179
趁	-13.5179
毘	-13.518
鷥	-13.518
榜	-13.5181
㐮	-13.5181
靠	-13.5182
躡	-13.5182
紝	-13.5183
琊	-13.5183
孿	-13.5184
晁	-13.5185
𡨕	-13.5185
沌	-13.5187
憾	-13.5188
湫	-13.5188
緼	-13.5188
竦	-13.5188
鋟	-13.5188
担	-13.5189
緝	-13.5189
頺	-13.519
甎	-13.5194
貺	-13.5199
鼺	-13.557
䏆	-13.5574
㚷	-13.5578
攴	-13.5578
􁁻	-13.5579
梫	-13.558
㳂	-13.5581
蟪	-13.5582
訥	-13.5584
蠷	-13.5585
朐	-13.5586
恢	-13.5586
沍	-13.5586
冺	-13.5588
撇	-13.5589
梭	-13.5589
胥	-13.5589
慚	-13.559
蔦	-13.559
桌	-13.559
販	-13.5591
煴	-13.5592
盍	-13.5592
䎡	-13.5593
濮	-13.5594
􁶄	-13.5595
珪	-13.5595
絨	-13.5595
扭	-13.5595
洮	-13.5596
抛	-13.5596
恕	-13.5596
稬	-13.5597
􁋴	-13.5598
苨	-13.5598
􁃛	-13.5599
泝	-13.5599
掾	-13.5599
囱	-13.5599
炬	-13.5602
哂	-13.5603
䳡	-13.5604
篡	-13.5604
仿	-13.5605
戮	-13.5605
償	-13.5608
裨	-13.5609
疇	-13.561
凜	-13.561
呿	-13.5612
擫	-13.5615
囟	-13.5977
鵪	-13.5995
菂	-13.6
螖	-13.6004
弋	-13.6005
黽	-13.6008
矃	-13.601
廧	-13.6012
礱	-13.6013
􁊼	-13.6014
曄	-13.6015
涅	-13.6016
瑶	-13.602
堤	-13.602
蛓	-13.6021
玻	-13.6021
齝	-13.6021
洟	-13.6022
鶵	-13.6022
澣	-13.6023
誓	-13.6024
琨	-13.6024
弭	-13.6024
霆	-13.6025
藪	-13.6025
尠	-13.6026
摟	-13.6028
荸	-13.6028
貸	-13.6029
鶘	-13.6029
夥	-13.6029
煦	-13.603
硯	-13.603
祼	-13.6031
縻	-13.6031
糙	-13.6031
莙	-13.6032
罹	-13.6032
戶	-13.6032
蠜	-13.6032
丫	-13.6033
宼	-13.6034
遯	-13.6035
丰	-13.6035
􁁓	-13.6036
㝡	-13.6036
翫	-13.6037
朧	-13.6037
勲	-13.6037
􁨌	-13.6038
顑	-13.6039
􁷮	-13.604
盻	-13.604
縉	-13.604
霽	-13.6041
杳	-13.6042
跣	-13.6042
冢	-13.6045
虬	-13.6045
讃	-13.6046
蛕	-13.6047
滂	-13.6047
葬	-13.6063
綵	-13.6465
稃	-13.6465
鱅	-13.6466
蹴	-13.6467
貉	-13.6469
汰	-13.6469
鱘	-13.6469
菡	-13.647
堥	-13.647
萇	-13.6473
柟	-13.6474
銑	-13.6475
璋	-13.6475
瘘	-13.6476
离	-13.6476
倭	-13.6476
蠋	-13.6476
䏎	-13.6478
仄	-13.6478
蹠	-13.6479
藙	-13.648
糅	-13.6481
檞	-13.6481
􁱀	-13.6481
諉	-13.6481
晾	-13.6481
陪	-13.6482
沁	-13.6483
逞	-13.6483
瞢	-13.6484
胝	-13.6485
薷	-13.6485
䆫	-13.6485
檻	-13.6486
紳	-13.6486
澇	-13.6486
徊	-13.6487
㕮	-13.6487
塔	-13.6488
朏	-13.6488
喂	-13.6488
􁂭	-13.6489
縑	-13.6489
吠	-13.6489
狽	-13.6489
瘅	-13.649
鸂	-13.6491
牲	-13.6492
旻	-13.6492
覊	-13.6494
鉑	-13.6494
蓳	-13.6494
樑	-13.6496
鷩	-13.6496
賖	-13.6498
实	-13.6498
狡	-13.65
佈	-13.6502
厦	-13.6512
脖	-13.6513
剡	-13.6515
􁨠	-13.6516
􁣝	-13.6572
蝰	-13.6928
苪	-13.6938
胑	-13.6939
㳙	-13.6945
鳸	-13.6946
桿	-13.6947
樽	-13.6947
芑	-13.6947
􁮅	-13.6947
跂	-13.6948
瑰	-13.6948
傘	-13.6948
盎	-13.6948
鬃	-13.695
茳	-13.695
畿	-13.695
礧	-13.6951
醨	-13.6951
訴	-13.6952
髴	-13.6952
髣	-13.6952
􁀧	-13.6952
坵	-13.6952
鄞	-13.6953
鑼	-13.6953
􁐦	-13.6953
狒	-13.6954
裒	-13.6954
机	-13.6955
葩	-13.6955
卬	-13.6956
鏟	-13.6956
蟺	-13.6956
魴	-13.6956
炤	-13.6956
膛	-13.6957
焱	-13.6957
齎	-13.6957
蒭	-13.6958
昳	-13.6959
寖	-13.696
嚐	-13.696
挪	-13.696
圡	-13.696
髕	-13.6961
晌	-13.6961
寥	-13.6961
寨	-13.6962
蓀	-13.6963
恇	-13.6963
薞	-13.6964
嚶	-13.6965
芼	-13.6965
冉	-13.6965
萑	-13.6965
疋	-13.6966
貒	-13.6966
􁈛	-13.6966
洄	-13.6967
鐮	-13.6967
鴂	-13.6968
皛	-13.6968
幙	-13.6968
轎	-13.6968
屧	-13.6969
裔	-13.6969
冼	-13.6969
桷	-13.6969
購	-13.697
篦	-13.697
梣	-13.6972
粲	-13.6972
醅	-13.6973
絪	-13.6974
巓	-13.6974
届	-13.6976
凟	-13.6983
媼	-13.6984
埂	-13.6985
蟛	-13.7436
豳	-13.744
鱯	-13.7442
罽	-13.7442
乱	-13.7445
綰	-13.7445
鐸	-13.7453
兾	-13.7453
燦	-13.7453
􁷧	-13.7454
餵	-13.7454
䘀	-13.7454
㾏	-13.7455
襟	-13.7455
鵩	-13.7456
綉	-13.7457
犲	-13.7457
隍	-13.7457
蒨	-13.746
昡	-13.746
䂓	-13.7461
茢	-13.7461
􁄄	-13.7461
戱	-13.7461
姦	-13.7461
齄	-13.7462
僚	-13.7462
飪	-13.7462
蓷	-13.7462
罏	-13.7462
絙	-13.7463
搃	-13.7463
􁓨	-13.7463
􁷯	-13.7463
洵	-13.7464
𢾗	-13.7464
箠	-13.7465
鸀	-13.7465
懲	-13.7466
湿	-13.7466
犂	-13.7467
碱	-13.7467
遅	-13.7467
檟	-13.7467
􁀋	-13.7468
携	-13.7468
疚	-13.7469
捽	-13.7469
刴	-13.7469
摽	-13.747
漕	-13.747
遘	-13.747
驥	-13.747
癯	-13.7474
袴	-13.7475
凭	-13.7483
睘	-13.7486
䱉	-13.7964
踪	-13.7968
劾	-13.7969
㪍	-13.797
榕	-13.7971
􁧍	-13.7972
􁘙	-13.7972
豊	-13.7972
紡	-13.7973
髑	-13.7975
税	-13.7977
碪	-13.7977
愍	-13.7978
舡	-13.7979
穫	-13.7979
瘐	-13.798
鸊	-13.7981
毓	-13.7981
憧	-13.7981
臗	-13.7982
鵓	-13.7982
鉚	-13.7982
嘬	-13.7982
蠢	-13.7983
蟶	-13.7983
誼	-13.7984
蔟	-13.7984
榝	-13.7984
峨	-13.7984
鸜	-13.7986
踢	-13.7987
蒋	-13.7987
敖	-13.7987
紉	-13.7987
据	-13.7988
癨	-13.7988
撘	-13.7989
呢	-13.7989
撁	-13.799
殤	-13.799
瓈	-13.7991
熯	-13.7991
遑	-13.7991
睹	-13.7992
誚	-13.7993
睜	-13.7994
眦	-13.7994
霾	-13.7994
鳿	-13.7995
渥	-13.7997
箍	-13.7998
紿	-13.8
桒	-13.8001
謳	-13.8002
莠	-13.8002
䐐	-13.8003
汛	-13.8003
觴	-13.8004
吤	-13.8004
佯	-13.8004
霪	-13.8005
贖	-13.8006
櫐	-13.8018
䪥	-13.8485
橐	-13.8509
飭	-13.8511
鵡	-13.8513
垜	-13.8515
搕	-13.8519
厴	-13.852
􁉄	-13.8522
咮	-13.8522
颯	-13.8524
菣	-13.8525
螿	-13.8527
龠	-13.8527
癌	-13.8528
搘	-13.8528
蟦	-13.8529
驎	-13.8529
敊	-13.8529
􁏩	-13.853
胙	-13.853
苻	-13.853
椽	-13.8533
葚	-13.8534
咫	-13.8535
嶲	-13.8535
愉	-13.8535
蟢	-13.8536
皀	-13.8537
涏	-13.8537
秖	-13.8538
笙	-13.8539
鱡	-13.8539
璽	-13.8539
獱	-13.8539
憨	-13.8541
駸	-13.8541
閫	-13.8541
蘃	-13.8541
酈	-13.8541
瑯	-13.8541
貂	-13.8542
蜮	-13.8543
嶁	-13.8544
軋	-13.8545
餔	-13.8545
桎	-13.8545
鄴	-13.8545
蔛	-13.8546
暘	-13.8546
儔	-13.8546
麓	-13.8546
礐	-13.8547
橊	-13.8547
旄	-13.8547
􁖊	-13.8547
棖	-13.8547
枌	-13.8548
汋	-13.8548
殮	-13.8548
凊	-13.8548
菼	-13.8549
埽	-13.8549
蹔	-13.8549
紵	-13.855
笛	-13.8551
㤗	-13.8551
襕	-13.8552
邃	-13.8553
岌	-13.8553
豸	-13.8555
婬	-13.8555
詬	-13.8555
觝	-13.8556
糺	-13.8559
􁷵	-13.856
倡	-13.8561
絜	-13.8561
謔	-13.8564
䲰	-13.8589
豌	-13.9085
螈	-13.9085
龕	-13.9098
蛑	-13.9104
摯	-13.9112
揵	-13.9113
擿	-13.9115
諌	-13.9117
魮	-13.9118
狨	-13.9118
扈	-13.9119
楼	-13.912
縠	-13.9121
卭	-13.9122
蛅	-13.9123
猾	-13.9123
嗉	-13.9124
篛	-13.9124
囙	-13.9125
骼	-13.9126
鰥	-13.9126
灘	-13.9127
鼅	-13.9128
饉	-13.9128
㩌	-13.9128
慼	-13.9128
癓	-13.9128
尓	-13.9129
笈	-13.9129
牸	-13.9129
刧	-13.9129
䳄	-13.913
莃	-13.9132
妍	-13.9132
烺	-13.9132
懋	-13.9133
􁃉	-13.9133
枷	-13.9134
雋	-13.9134
馗	-13.9134
洳	-13.9134
􁩱	-13.9136
鵂	-13.9136
欀	-13.9136
㘅	-13.9136
膶	-13.9136
糍	-13.9137
羝	-13.9137
賽	-13.9137
旌	-13.9137
璚	-13.9138
䔋	-13.9138
伶	-13.9139
耄	-13.914
郗	-13.914
悼	-13.914
〇	-13.9141
灯	-13.9141
輳	-13.9141
殽	-13.9141
扞	-13.9143
蘑	-13.9143
杌	-13.9144
牶	-13.9145
葴	-13.9147
鞾	-13.9147
痝	-13.9148
迵	-13.9149
幞	-13.9149
㗁	-13.915
騙	-13.915
葖	-13.9151
腔	-13.9152
撬	-13.9152
撑	-13.9155
饘	-13.9157
稅	-13.9165
櫈	-13.9168
蠑	-13.9706
櫓	-13.9708
牂	-13.9724
栩	-13.9726
鼊	-13.9727
轡	-13.9731
䐬	-13.9733
葞	-13.9733
鑪	-13.9734
庄	-13.9735
窹	-13.9736
麰	-13.9737
砲	-13.9738
隹	-13.9738
羃	-13.9738
鶬	-13.974
纈	-13.9741
箘	-13.9743
瀼	-13.9743
蔭	-13.9743
皻	-13.9744
賂	-13.9748
鮪	-13.9748
廕	-13.9748
迮	-13.9749
笏	-13.9749
傚	-13.9749
丗	-13.9751
喇	-13.9751
苢	-13.9752
蘠	-13.9752
霸	-13.9752
磷	-13.9752
蓫	-13.9753
螬	-13.9753
蘵	-13.9753
楯	-13.9753
簁	-13.9754
圜	-13.9754
沽	-13.9755
鉏	-13.9755
蝭	-13.9755
籖	-13.9755
愡	-13.9756
衲	-13.9757
豔	-13.9757
蝣	-13.9758
裠	-13.9758
饀	-13.9758
𥪡	-13.9759
攛	-13.9759
綟	-13.9759
紕	-13.9761
慙	-13.9761
耻	-13.9765
􁁑	-13.9765
壌	-13.9765
胦	-13.9766
裀	-13.9766
菷	-13.9767
􁷝	-13.9767
屨	-13.9767
鏇	-13.9769
𦦨	-13.9769
兇	-13.9769
菲	-13.9769
潯	-13.977
稲	-13.9771
魫	-13.9772
躇	-13.9774
躊	-13.9774
窅	-13.9775
覡	-13.9777
畀	-13.9778
􁕳	-13.9784
聫	-13.9785
曙	-13.9791
鏐	-14.0388
麁	-14.0388
蜍	-14.0391
銗	-14.0392
玃	-14.0393
螗	-14.04
蒾	-14.04
樲	-14.0402
糸	-14.0403
麽	-14.0404
㬽	-14.0404
贄	-14.0405
啡	-14.0405
氈	-14.0406
瘮	-14.0407
僦	-14.0408
籙	-14.041
陌	-14.041
貛	-14.041
暁	-14.0411
仞	-14.0412
􁓿	-14.0412
讚	-14.0412
盟	-14.0412
蠳	-14.0413
蟖	-14.0414
齅	-14.0414
䖳	-14.0415
􁀶	-14.0416
鍘	-14.0417
毳	-14.0417
鏬	-14.0417
傖	-14.0418
縋	-14.0418
䲙	-14.0418
絺	-14.0418
􁊽	-14.0418
扒	-14.0419
曛	-14.0419
礫	-14.0419
婿	-14.0419
䕯	-14.042
筲	-14.042
湼	-14.042
餫	-14.0421
脰	-14.0421
蒯	-14.0422
抬	-14.0422
纊	-14.0422
䔖	-14.0423
孳	-14.0423
娯	-14.0423
癅	-14.0423
櫰	-14.0424
莒	-14.0424
樳	-14.0424
􁅳	-14.0425
倩	-14.0425
徘	-14.0425
紬	-14.0425
鵑	-14.0426
檜	-14.0426
岱	-14.0426
鮐	-14.0427
餽	-14.0427
雰	-14.0427
楙	-14.0427
槍	-14.0427
硭	-14.0428
穉	-14.0428
拐	-14.0429
冡	-14.0429
磔	-14.043
浚	-14.0431
柩	-14.0432
扼	-14.0432
鬈	-14.0433
耒	-14.0433
䗯	-14.0433
蕁	-14.0433
荈	-14.0434
玠	-14.0434
柀	-14.0434
蜢	-14.0434
􁡠	-14.0436
謫	-14.0436
絀	-14.0436
鄱	-14.0436
諷	-14.0436
偎	-14.0436
詆	-14.0438
斳	-14.0438
瘨	-14.0439
􁎊	-14.0442
塟	-14.0442
罡	-14.0442
斸	-14.0442
餧	-14.0445
濓	-14.0449
髩	-14.0449
䳇	-14.1084
縹	-14.1113
蕖	-14.1115
糨	-14.1117
潎	-14.1118
仭	-14.1119
訮	-14.1119
煏	-14.112
殖	-14.1121
胴	-14.1122
変	-14.1125
枵	-14.1126
磺	-14.1126
鞦	-14.1126
涶	-14.1126
刁	-14.1126
𦵏	-14.1126
鱁	-14.1127
戟	-14.1127
殯	-14.1128
皤	-14.113
繚	-14.113
猿	-14.113
頲	-14.113
箐	-14.1131
䬪	-14.1131
鷉	-14.1131
箧	-14.1131
穌	-14.1131
蔯	-14.1131
尰	-14.1131
陞	-14.1132
葀	-14.1132
樛	-14.1132
阪	-14.1132
莆	-14.1133
痸	-14.1133
􁗁	-14.1133
藫	-14.1133
戻	-14.1134
輦	-14.1134
㹀	-14.1134
懔	-14.1135
舐	-14.1135
夯	-14.1135
靱	-14.1135
螘	-14.1137
蝇	-14.1137
螣	-14.1138
尙	-14.1138
勰	-14.1138
蠭	-14.1138
鯔	-14.1139
迪	-14.1139
碙	-14.1139
毡	-14.1139
韈	-14.114
臃	-14.1141
畋	-14.1141
矞	-14.1141
這	-14.1141
怳	-14.1141
洶	-14.1141
淩	-14.1141
椵	-14.1141
睟	-14.1142
茩	-14.1143
胄	-14.1143
鏨	-14.1143
㧓	-14.1143
㰦	-14.1144
䙀	-14.1145
翡	-14.1145
摹	-14.1145
巒	-14.1145
冨	-14.1146
鬄	-14.1146
齕	-14.1148
螁	-14.1148
蹏	-14.1148
菑	-14.1149
霤	-14.115
迯	-14.115
箴	-14.115
槵	-14.115
蘢	-14.1151
棚	-14.1151
曺	-14.1151
漾	-14.1152
􁛾	-14.1153
柢	-14.1155
昴	-14.1155
圑	-14.1156
愐	-14.1156
顓	-14.1157
殄	-14.1158
黮	-14.1158
漣	-14.116
饗	-14.1161
壑	-14.1164
侄	-14.1164
蜟	-14.1164
蜎	-14.1167
壷	-14.1871
􁅋	-14.1872
檿	-14.1873
檾	-14.1876
􁟦	-14.188
啀	-14.1881
璺	-14.1885
鍳	-14.1886
葝	-14.1888
鴇	-14.1889
祚	-14.189
鶹	-14.189
柈	-14.1891
䊀	-14.1892
鍮	-14.1892
綖	-14.1892
螲	-14.1892
昶	-14.1892
磐	-14.1892
芉	-14.1893
棑	-14.1893
䱒	-14.1894
躑	-14.1894
嗝	-14.1894
揄	-14.1896
蜼	-14.1896
蚳	-14.1896
耨	-14.1897
橉	-14.1897
噍	-14.1897
暹	-14.1897
汜	-14.1897
唤	-14.1897
琪	-14.1897
徂	-14.1897
鄕	-14.1897
蛐	-14.1898
卉	-14.1898
䐗	-14.1899
怛	-14.1899
褒	-14.1899
窿	-14.19
􁣎	-14.1901
濱	-14.1901
㝛	-14.1901
𫾣	-14.1903
嚵	-14.1904
覘	-14.1904
蟆	-14.1904
頳	-14.1904
泳	-14.1904
􁁺	-14.1905
壼	-14.1905
飫	-14.1905
羨	-14.1905
愿	-14.1906
叵	-14.1906
柵	-14.1906
蕇	-14.1906
涿	-14.1906
煬	-14.1907
掜	-14.1908
譙	-14.1908
㺅	-14.1909
醲	-14.1909
笞	-14.1909
蹹	-14.1909
墩	-14.1909
娼	-14.191
礴	-14.191
慳	-14.191
﨑	-14.191
囿	-14.191
飋	-14.191
釁	-14.1911
孑	-14.1911
碜	-14.1911
眎	-14.1912
躰	-14.1912
畆	-14.1912
萋	-14.1913
糲	-14.1913
繕	-14.1913
剗	-14.1914
糭	-14.1914
朹	-14.1914
擕	-14.1914
硐	-14.1914
䓆	-14.1915
芟	-14.1915
翥	-14.1915
歆	-14.1915
秣	-14.1916
􁓾	-14.1917
戛	-14.1917
趍	-14.1918
椋	-14.1918
佞	-14.1919
坌	-14.1919
亊	-14.1919
暉	-14.192
裊	-14.192
峙	-14.1921
鸐	-14.1921
廂	-14.1922
滀	-14.1925
鷴	-14.1926
徨	-14.1926
毖	-14.1929
牦	-14.193
棎	-14.1933
柂	-14.2701
痜	-14.2703
壍	-14.2708
㿂	-14.271
熠	-14.271
蝢	-14.2713
鵅	-14.2715
侏	-14.2715
鯆	-14.2716
㵕	-14.2716
录	-14.2718
搊	-14.2718
㤙	-14.2718
淇	-14.2719
凴	-14.272
琦	-14.2721
幘	-14.2722
跎	-14.2725
歘	-14.2726
㕓	-14.2726
茁	-14.2726
蟀	-14.2726
􁥄	-14.2727
肴	-14.2727
綃	-14.2728
塸	-14.2728
劙	-14.2728
鷗	-14.2728
韲	-14.2728
𠫭	-14.2728
腆	-14.2728
磑	-14.2729
满	-14.2729
㿍	-14.2729
黼	-14.2729
航	-14.273
㫰	-14.273
笴	-14.2731
褰	-14.2732
鸇	-14.2734
劭	-14.2734
䍽	-14.2735
餬	-14.2735
荴	-14.2736
侈	-14.2737
薍	-14.2737
翊	-14.2738
挲	-14.2738
吺	-14.2738
号	-14.2738
䝁	-14.2738
屆	-14.2738
呦	-14.2738
臝	-14.2739
恡	-14.2739
蓞	-14.274
黜	-14.274
訾	-14.274
抒	-14.2741
􁍹	-14.2741
拚	-14.2741
卞	-14.2742
蠔	-14.2742
瘊	-14.2742
戡	-14.2742
斕	-14.2743
渺	-14.2743
搬	-14.2743
骻	-14.2743
䌫	-14.2744
蘦	-14.2744
蠓	-14.2744
酋	-14.2746
剷	-14.2746
逅	-14.2746
邂	-14.2746
澑	-14.2746
彖	-14.2747
顗	-14.2748
猒	-14.2748
徭	-14.2748
肻	-14.2748
䭔	-14.275
翺	-14.275
䰅	-14.275
譁	-14.275
鮒	-14.275
稉	-14.275
踿	-14.2751
聮	-14.2751
􁋣	-14.2751
櫪	-14.2751
牗	-14.2752
昊	-14.2752
壠	-14.2752
􁆛	-14.2752
晛	-14.2753
橚	-14.2753
㗸	-14.2753
遄	-14.2754
䳱	-14.2754
囀	-14.2754
抖	-14.2754
丕	-14.2755
鷟	-14.2755
宸	-14.2756
㝃	-14.2758
惆	-14.2759
舘	-14.2759
孛	-14.2759
􁞷	-14.2763
蹟	-14.2764
檄	-14.2766
􁠴	-14.3557
􁇚	-14.3608
薚	-14.3613
汐	-14.3614
蒒	-14.3614
鯮	-14.3615
逵	-14.3618
氍	-14.3621
姨	-14.3621
襆	-14.3621
圻	-14.3622
鰋	-14.3624
匆	-14.3629
鶗	-14.363
皋	-14.3631
闍	-14.3631
輞	-14.3632
淂	-14.3633
煼	-14.3633
吒	-14.3634
脑	-14.3634
贏	-14.3634
朘	-14.3634
鏭	-14.3635
薾	-14.3636
蛈	-14.3636
瀧	-14.3636
幣	-14.3637
􁁟	-14.3637
骹	-14.3637
㿅	-14.3637
碢	-14.3638
廸	-14.3638
穭	-14.3639
燿	-14.3639
懌	-14.3639
絫	-14.3639
刹	-14.364
䳌	-14.364
縵	-14.364
肧	-14.364
蟊	-14.364
揠	-14.364
蚡	-14.364
膇	-14.3641
驉	-14.3641
挻	-14.3642
窽	-14.3642
鱒	-14.3642
鉞	-14.3643
棹	-14.3643
寰	-14.3643
械	-14.3643
迕	-14.3643
蜺	-14.3644
笓	-14.3644
樃	-14.3644
貙	-14.3645
篠	-14.3645
笱	-14.3645
燬	-14.3645
跼	-14.3646
薬	-14.3646
㱔	-14.3646
昃	-14.3646
氛	-14.3647
緗	-14.3647
凓	-14.3647
綦	-14.3647
餂	-14.3648
黟	-14.3648
廡	-14.3648
蕹	-14.3648
慟	-14.3648
餾	-14.365
艌	-14.3651
雇	-14.3651
嵎	-14.3651
卸	-14.3651
侣	-14.3651
疒	-14.3651
鳲	-14.3652
䱱	-14.3652
􁔁	-14.3652
蚯	-14.3652
賺	-14.3652
荍	-14.3652
荎	-14.3653
终	-14.3653
凔	-14.3653
硤	-14.3653
廋	-14.3654
颺	-14.3656
筝	-14.3656
瑛	-14.3656
傲	-14.3656
巍	-14.3658
擱	-14.3658
朢	-14.3658
魨	-14.3659
偪	-14.3659
劬	-14.366
溯	-14.3661
墼	-14.3661
昕	-14.3662
姧	-14.3662
霓	-14.3662
鐙	-14.3662
痪	-14.3662
惓	-14.3663
竣	-14.3664
瑤	-14.3664
鶂	-14.3666
琰	-14.3666
伹	-14.3666
蓧	-14.3667
鏗	-14.3667
㪯	-14.3667
䖅	-14.3667
鷘	-14.3667
牾	-14.367
㵪	-14.367
􁊕	-14.367
妒	-14.3671
隼	-14.3672
嫡	-14.3672
翩	-14.3673
膃	-14.3673
眈	-14.3674
赶	-14.3675
𣺌	-14.3675
洙	-14.3681
媵	-14.3692
薃	-14.3692
窳	-14.3697
䵖	-14.4573
􁷶	-14.4603
惏	-14.4604
䕋	-14.461
茞	-14.4612
缻	-14.4616
􁘥	-14.4617
桺	-14.4619
猱	-14.4622
膒	-14.4622
䈥	-14.4622
㧺	-14.4623
闈	-14.4624
盯	-14.4624
謄	-14.4626
踧	-14.4627
栨	-14.4627
獮	-14.4629
醙	-14.4632
鰲	-14.4632
堿	-14.4632
檰	-14.4632
㸑	-14.4632
牁	-14.4632
􁐑	-14.4633
?	-14.4634
鱭	-14.4634
􁊦	-14.4634
筤	-14.4634
鐫	-14.4634
紓	-14.4634
禧	-14.4635
鏑	-14.4635
藐	-14.4635
倓	-14.4636
鈿	-14.4636
籧	-14.4636
膸	-14.4637
簀	-14.4637
駏	-14.4637
􁨸	-14.4637
鶖	-14.4638
晳	-14.4638
鞏	-14.4638
䀽	-14.4639
喩	-14.4639
瀑	-14.4639
涣	-14.464
鮆	-14.4641
幪	-14.4641
厮	-14.4641
􁠆	-14.4641
幡	-14.4641
柜	-14.4641
蚧	-14.4642
睒	-14.4642
珧	-14.4642
蟋	-14.4643
磅	-14.4643
牋	-14.4643
蜰	-14.4643
篨	-14.4643
䐢	-14.4644
􁇷	-14.4644
貿	-14.4644
唅	-14.4644
蔜	-14.4644
鱤	-14.4645
劊	-14.4645
珮	-14.4645
撕	-14.4645
忝	-14.4645
篲	-14.4646
墅	-14.4646
􁷭	-14.4646
烽	-14.4646
􁱺	-14.4647
琬	-14.4647
􁕆	-14.4647
釃	-14.4647
􁮓	-14.4648
黳	-14.4649
􁋶	-14.4649
餿	-14.4649
蚦	-14.4649
韆	-14.4649
擰	-14.465
㿏	-14.4651
樁	-14.4651
睿	-14.4651
彪	-14.4651
騌	-14.4652
紂	-14.4652
揲	-14.4652
纖	-14.4652
蔊	-14.4652
峡	-14.4652
苹	-14.4653
萡	-14.4653
楛	-14.4653
䀯	-14.4653
誖	-14.4653
蚿	-14.4654
檔	-14.4654
噼	-14.4654
墡	-14.4654
瘞	-14.4654
茼	-14.4654
皏	-14.4654
晤	-14.4655
餲	-14.4655
緌	-14.4655
𠖇	-14.4655
礵	-14.4655
饞	-14.4657
􁠽	-14.4657
貲	-14.4658
怎	-14.4658
甯	-14.4658
贍	-14.4659
牴	-14.4659
鰣	-14.4659
􁅪	-14.4659
咤	-14.466
鼫	-14.466
檓	-14.466
尽	-14.4661
唼	-14.4661
槨	-14.4661
穵	-14.4662
㙡	-14.4662
坏	-14.4662
歔	-14.4664
㽷	-14.4664
驤	-14.4664
蜿	-14.4664
嫋	-14.4664
榲	-14.4665
䕲	-14.4665
塤	-14.4665
垤	-14.4665
磞	-14.4665
鱢	-14.4666
炯	-14.4667
秧	-14.4668
鑞	-14.4668
彛	-14.467
聆	-14.4672
爹	-14.4672
萉	-14.4674
冕	-14.4674
扳	-14.4675
㶏	-14.4675
咻	-14.4676
駚	-14.4678
槪	-14.4678
腄	-14.468
肄	-14.4681
薕	-14.4686
犧	-14.4689
莔	-14.5695
鰎	-14.5696
曈	-14.5715
􁱔	-14.5716
袠	-14.5717
麳	-14.5724
蜡	-14.5728
蟟	-14.5728
瘺	-14.573
􁁐	-14.573
骽	-14.5732
䘒	-14.5732
蕸	-14.5733
襖	-14.5733
竽	-14.5734
胊	-14.5734
旃	-14.5735
䍧	-14.5736
牱	-14.5736
蛵	-14.5737
秭	-14.5738
孹	-14.5738
囃	-14.5738
摙	-14.5739
鮅	-14.5739
刖	-14.574
勔	-14.5741
憟	-14.5742
􁖌	-14.5742
蠰	-14.5743
籩	-14.5743
諼	-14.5743
㦎	-14.5743
磰	-14.5744
莐	-14.5744
蟒	-14.5745
舵	-14.5745
渦	-14.5745
踴	-14.5745
抿	-14.5745
勌	-14.5746
㿋	-14.5746
嵸	-14.5747
慊	-14.5747
畛	-14.5747
𦕈	-14.5748
幄	-14.5748
嶷	-14.5748
㓛	-14.5748
酙	-14.5749
欶	-14.5749
邏	-14.575
党	-14.575
㬾	-14.575
􁉺	-14.575
䘖	-14.5751
蘀	-14.5751
媧	-14.5752
瘚	-14.5752
鰩	-14.5752
䘓	-14.5753
袵	-14.5753
䭾	-14.5753
搌	-14.5753
叛	-14.5753
扉	-14.5754
营	-14.5754
撡	-14.5754
褫	-14.5755
禈	-14.5756
曆	-14.5756
蚹	-14.5757
廖	-14.5757
㾾	-14.5757
鯖	-14.5757
佉	-14.5758
筀	-14.5758
趼	-14.5758
簫	-14.5758
邠	-14.5759
賫	-14.5759
獷	-14.5759
􁄺	-14.576
䜿	-14.576
炫	-14.576
晢	-14.576
曇	-14.576
倶	-14.576
閹	-14.576
鵽	-14.576
丄	-14.5761
聪	-14.5761
揪	-14.5762
扃	-14.5762
躃	-14.5763
郛	-14.5763
罟	-14.5763
帬	-14.5763
螔	-14.5763
頮	-14.5763
蠚	-14.5764
媱	-14.5764
鍇	-14.5764
􁚌	-14.5764
嶇	-14.5764
掏	-14.5766
窣	-14.5766
梹	-14.5766
彄	-14.5767
蓎	-14.5767
鬡	-14.5767
㩀	-14.5768
柬	-14.5768
𠢐	-14.5769
慽	-14.5769
咏	-14.5769
庥	-14.5769
嘵	-14.577
夤	-14.577
岣	-14.577
暌	-14.5772
鈚	-14.5772
摳	-14.5773
篳	-14.5774
㸺	-14.5774
夔	-14.5774
牘	-14.5774
鼬	-14.5774
栱	-14.5775
誹	-14.5775
徬	-14.5775
蚩	-14.5775
浡	-14.5776
釧	-14.5776
韙	-14.5778
腂	-14.5778
諟	-14.5779
与	-14.5779
蝏	-14.5779
㬌	-14.5779
銃	-14.578
址	-14.5781
叨	-14.5783
茟	-14.5784
黤	-14.5786
杠	-14.5787
爕	-14.5788
淦	-14.5789
隳	-14.5789
鶾	-14.5792
􁄪	-14.5794
䙝	-14.5805
沱	-14.5809
薠	-14.5822
岕	-14.6928
䥶	-14.6954
萏	-14.697
䃋	-14.6972
揫	-14.6973
䰿	-14.6973
穾	-14.6979
蔱	-14.698
躅	-14.6981
狖	-14.6982
䰲	-14.6982
䶊	-14.6982
杇	-14.6983
櫅	-14.6985
懴	-14.6986
蛁	-14.6987
晟	-14.6988
篷	-14.6988
坈	-14.699
脤	-14.699
廅	-14.6992
瞧	-14.6992
楹	-14.6993
烜	-14.6993
㳿	-14.6994
巃	-14.6994
棬	-14.6995
桵	-14.6995
㙠	-14.6996
䔾	-14.6996
圉	-14.6996
嘱	-14.6997
体	-14.6998
嶄	-14.6998
檵	-14.6998
㙜	-14.6999
藚	-14.6999
挍	-14.6999
囷	-14.7
紏	-14.7
檑	-14.7001
菹	-14.7001
僑	-14.7001
楨	-14.7001
䭷	-14.7001
脡	-14.7001
淊	-14.7002
喀	-14.7002
羿	-14.7002
庳	-14.7002
沅	-14.7003
搰	-14.7003
荊	-14.7004
䵹	-14.7004
㟁	-14.7004
爨	-14.7004
繙	-14.7005
莜	-14.7006
膘	-14.7007
罾	-14.7007
忱	-14.7007
惘	-14.7008
㒹	-14.7008
盱	-14.7008
梠	-14.7009
蚼	-14.7009
􁞃	-14.701
擀	-14.701
瀰	-14.701
䒻	-14.7011
窰	-14.7011
瓌	-14.7011
㵸	-14.7011
茝	-14.7011
蕏	-14.7012
㳛	-14.7012
狃	-14.7012
孥	-14.7012
瀟	-14.7012
怜	-14.7012
苃	-14.7012
穤	-14.7013
傀	-14.7013
栒	-14.7013
粿	-14.7013
哆	-14.7014
溧	-14.7014
湎	-14.7014
炸	-14.7014
艻	-14.7014
睨	-14.7014
藾	-14.7015
葆	-14.7015
胼	-14.7015
穅	-14.7016
眺	-14.7016
崧	-14.7017
蓲	-14.7017
租	-14.7017
唳	-14.7017
岷	-14.7018
楤	-14.7018
獗	-14.7018
勵	-14.7018
菧	-14.7018
哇	-14.7018
旭	-14.7019
蕍	-14.7019
䄂	-14.702
犡	-14.702
蕢	-14.702
葓	-14.702
斐	-14.7021
疉	-14.7021
巂	-14.7022
纜	-14.7022
楬	-14.7022
儕	-14.7022
欷	-14.7024
嶮	-14.7024
媍	-14.7024
偻	-14.7024
爿	-14.7024
狤	-14.7024
僃	-14.7025
蘬	-14.7025
蕽	-14.7026
矴	-14.7026
䴷	-14.7026
忖	-14.7026
葹	-14.7026
俸	-14.7027
孱	-14.7027
藠	-14.7029
蒹	-14.7029
緍	-14.7029
湔	-14.703
皈	-14.703
眛	-14.703
娱	-14.7033
挣	-14.7033
薓	-14.7034
煔	-14.7034
梖	-14.7035
懃	-14.7037
慇	-14.7037
牓	-14.7037
憩	-14.7037
虻	-14.7039
綣	-14.7041
撐	-14.7042
帘	-14.7045
栭	-14.7056
崙	-14.8432
怢	-15.0077
僥	-15.0078
珤	-15.0079
薘	-15.008
鶄	-15.0081
鵁	-15.0082
駙	-15.0083
匍	-15.0084
邐	-15.0085
蝴	-15.0086
睍	-15.0087
彧	-15.0088
鴝	-15.0089
矂	-15.009
榅	-15.0091
獼	-15.0092
曦	-15.0093
紜	-15.0094
穡	-15.0095
逡	-15.0096
彣	-15.0097
粕	-15.0098
麒	-15.0098
