<unk>	0
<s>	0
</s>	0
(	-3.82135
/)	-4.26388
/	-4.78022
)	-5.00893
韻	-5.03037
句	-5.12855
人	-5.2721
花	-5.42399
一	-5.47027
不	-5.47804
春	-5.50862
有	-5.58366
又	-5.63444
雲	-5.70143
香	-5.78269
之	-5.78874
風	-5.78943
無	-5.80604
詞	-5.81541
玉	-5.85661
月	-5.89522
山	-5.90221
紅	-5.90883
中	-5.92272
天	-5.93283
上	-5.93811
字	-5.99984
)(	-6.01125
也	-6.04085
為	-6.05281
愁	-6.06037
如	-6.06298
是	-6.06906
水	-6.10971
空	-6.11333
酒	-6.1232
前調	-6.145
下	-6.15701
時	-6.1702
清	-6.19015
雨	-6.19345
作	-6.19585
小	-6.19651
去	-6.20516
寒	-6.22154
得	-6.22912
自	-6.23064
見	-6.23524
金	-6.23708
似	-6.25146
與	-6.27468
子	-6.29013
未	-6.29557
長	-6.29986
來	-6.30497
處	-6.31585
日	-6.31939
飛	-6.32267
更	-6.33035
秋	-6.33052
我	-6.33067
相	-6.3385
心	-6.34113
此	-6.35684
醉	-6.36867
前	-6.37061
情	-6.38425
三	-6.40148
新	-6.41328
盡	-6.42743
輕	-6.42826
聲	-6.44072
後	-6.44514
正	-6.45674
在	-6.46179
難	-6.4644
讀	-6.46496
翠	-6.46729
▁	-6.46791
夢	-6.47338
歌	-6.48322
成	-6.48343
誰	-6.50464
歸	-6.5079
雪	-6.51223
同	-6.51271
生	-6.51337
夜	-6.53921
行	-6.54161
重	-6.55185
兒	-6.57737
江	-6.58274
好	-6.58427
恨	-6.58802
意	-6.60475
其	-6.61287
滿	-6.61565
向	-6.61705
道	-6.62025
和	-6.62275
家	-6.62308
曲	-6.62518
以	-6.63053
了	-6.63129
初	-6.65119
知	-6.65964
名	-6.66039
老	-6.66466
還	-6.66761
看	-6.67372
逺	-6.68877
深	-6.68969
半	-6.69288
路	-6.69491
入	-6.69648
髙	-6.69788
到	-6.70023
頭	-6.7104
栁	-6.71561
他	-6.71705
者	-6.71844
問	-6.7189
多	-6.72432
過	-6.73271
来	-6.7331
事	-6.73585
笑	-6.74255
開	-6.7441
落	-6.74484
詩	-6.75612
煙	-6.76076
青	-6.7613
起	-6.76262
平	-6.7648
可	-6.7795
客	-6.78254
休	-6.78584
别	-6.79686
影	-6.79866
明	-6.7998
欲	-6.80027
分	-6.8063
西	-6.80955
梅	-6.81297
閒	-6.81395
對	-6.81935
碧	-6.82023
云	-6.82672
調	-6.82685
語	-6.83032
的	-6.83052
都	-6.8378
把	-6.84211
而	-6.84477
黄	-6.84617
裏	-6.85409
殘	-6.85599
莫	-6.86792
四	-6.87455
兩	-6.87613
暗	-6.90815
書	-6.91201
南	-6.91479
王	-6.91528
君	-6.91598
舊	-6.92648
應	-6.92806
白	-6.93902
却	-6.95165
衣	-6.95226
那	-6.95451
曉	-6.95975
望	-6.96056
又一體	-6.9615
東	-6.96259
雙	-6.96754
燕	-6.97497
着	-6.976
萬	-6.98005
緑	-6.98423
然	-6.99506
舞	-6.99581
霜	-6.99608
千	-6.99833
冷	-6.99987
想	-7.002
烟	-7.00434
共	-7.00629
思	-7.00671
外	-7.01027
露	-7.01125
何	-7.01147
吹	-7.01262
仙	-7.02036
出	-7.02429
大	-7.0284
光	-7.03574
待	-7.03671
草	-7.04228
倚	-7.0444
嬌	-7.04459
宫	-7.05084
波	-7.06212
便	-7.06546
五	-7.07049
亦	-7.07491
則	-7.08632
記	-7.09005
葉	-7.09012
城	-7.09444
馬	-7.09997
用	-7.10207
色	-7.10598
間	-7.10629
送	-7.10996
傳	-7.11214
驚	-7.11621
樂	-7.12168
樹	-7.12242
樓	-7.12482
東風	-7.13503
故	-7.13613
竹	-7.14124
元	-7.1498
但	-7.15539
淚	-7.16318
二	-7.16373
林	-7.16381
斷	-7.16608
錦	-7.16678
朝	-7.16801
今	-7.17192
塵	-7.17786
邊	-7.18275
流	-7.18446
暮	-7.18723
已	-7.19051
門	-7.19139
地	-7.19201
芳	-7.19442
且	-7.19947
年	-7.20733
猶	-7.2077
憶	-7.2187
孤	-7.21927
溪	-7.22009
早	-7.2245
近	-7.23729
只	-7.24035
公	-7.24187
賦	-7.24354
文	-7.24589
眼	-7.24604
細	-7.24793
六	-7.25017
寄	-7.25659
怨	-7.25786
粉	-7.25957
照	-7.2642
女	-7.27107
景	-7.27438
手	-7.27848
帶	-7.27998
轉	-7.28001
州	-7.28015
漸	-7.28391
度	-7.29071
低	-7.29246
非	-7.29311
龍	-7.29313
氣	-7.29864
你	-7.30261
堪	-7.30335
枝	-7.30345
身	-7.305
華	-7.30742
方	-7.31135
留	-7.31507
相思	-7.32313
因	-7.32407
郎	-7.32526
古	-7.32725
晚	-7.32857
海	-7.32986
先	-7.33011
簾	-7.33138
至	-7.33299
離	-7.33372
柳	-7.33434
何處	-7.34202
怕	-7.34703
吟	-7.35052
餘	-7.35087
歡	-7.35135
異	-7.35286
少	-7.35695
散	-7.35797
亂	-7.36057
燈	-7.36277
晴	-7.3667
面	-7.36731
綠	-7.37264
遊	-7.37401
將	-7.37652
張	-7.37866
幽	-7.38011
聽	-7.38022
真	-7.38108
陽	-7.38116
令	-7.38795
甚	-7.3913
斜	-7.39136
這	-7.39581
喜	-7.39586
李	-7.39732
皆	-7.39814
所	-7.39915
幾	-7.40798
當	-7.40929
㑹	-7.40997
破	-7.41075
亭	-7.41475
獨	-7.41905
将	-7.42005
絲	-7.42017
枕	-7.42453
集	-7.42601
楚	-7.43451
動	-7.43609
百	-7.43745
於	-7.44093
九	-7.44155
題	-7.44182
若	-7.44368
從	-7.44391
淺	-7.44617
信	-7.44953
巻	-7.45168
畫	-7.4523
能	-7.45484
羅	-7.4621
曰	-7.4629
微	-7.46394
鴈	-7.46964
石	-7.47083
數	-7.47229
児	-7.47396
回	-7.47706
隂	-7.47781
催	-7.48009
淡	-7.48183
隔	-7.48344
須	-7.48548
北	-7.49265
風流	-7.49684
隨	-7.50092
暖	-7.50191
臺	-7.5054
蘭	-7.52284
世	-7.52617
愛	-7.52683
鬢	-7.52697
濃	-7.52705
晩	-7.52764
垂	-7.52899
安	-7.52962
素	-7.53221
念	-7.53406
坐	-7.53682
紫	-7.53728
結	-7.53739
本	-7.53824
聞	-7.53923
星	-7.54129
池	-7.54207
眉	-7.54247
珠	-7.54348
鸞	-7.5485
約	-7.55305
俱	-7.5532
吳	-7.55695
曽	-7.56258
官	-7.56279
尋	-7.56459
于	-7.56738
添	-7.57015
折	-7.57065
著	-7.57276
鳳	-7.57356
箇	-7.57391
合	-7.57697
體	-7.577
庭	-7.57825
言	-7.58181
横	-7.58351
橋	-7.59387
江南	-7.59427
魚	-7.59506
常	-7.59556
解	-7.59869
勝	-7.60032
○	-7.60319
繡	-7.60429
試	-7.60509
定	-7.6086
薄	-7.61186
浪	-7.61536
短	-7.6164
苦	-7.61664
引	-7.61797
凝	-7.62118
消	-7.62418
取	-7.62984
誤	-7.63355
鶯	-7.63869
沙	-7.64345
浮	-7.64535
春風	-7.64564
教	-7.64909
凉	-7.65147
飲	-7.65249
霞	-7.65462
舟	-7.65729
容	-7.66113
伴	-7.66738
堂	-7.66858
惜	-7.67345
國	-7.67426
啼	-7.67503
迷	-7.67617
興	-7.67654
住	-7.67687
臨	-7.6778
要	-7.67802
連	-7.67902
唱	-7.67984
神	-7.68163
高	-7.68382
太	-7.68401
管	-7.68731
被	-7.68944
朱	-7.6967
妝	-7.69989
八	-7.70018
人間	-7.70351
閑	-7.70388
怎	-7.7074
絶	-7.7075
收	-7.70791
野	-7.71064
閣	-7.71923
粧	-7.71956
翻	-7.72098
即	-7.72104
首	-7.72673
睡	-7.72758
放	-7.73092
頻	-7.73566
音	-7.7373
曾	-7.73752
使	-7.74439
此詞	-7.74663
説	-7.74869
學	-7.74897
銀	-7.75017
觀	-7.752
弄	-7.75397
比	-7.75516
西風	-7.75644
松	-7.75794
巳	-7.7597
按	-7.7605
鳯	-7.76138
謝	-7.7619
矣	-7.76225
湖	-7.763
千里	-7.76856
乍	-7.77202
宴	-7.77265
最	-7.7762
梅花	-7.77715
㡬	-7.77926
疎	-7.78046
病	-7.78542
偏	-7.79021
佳	-7.79193
賞	-7.7953
芳草	-7.80066
做	-7.80628
爭	-7.8066
羞	-7.80765
立	-7.80781
指	-7.80841
㸃	-7.81059
㸔	-7.81062
歸去	-7.81385
劉	-7.8167
宜	-7.81765
英	-7.82015
霧	-7.82242
瓊	-7.8237
七	-7.82561
河	-7.82888
醒	-7.8294
鏡	-7.83487
移	-7.83731
任	-7.84138
多少	-7.84195
再	-7.84734
杯	-7.84917
天涯	-7.8492
沈	-7.8502
明月	-7.85184
魂	-7.85203
飄	-7.85324
慢	-7.85447
寳	-7.85609
才	-7.87256
就	-7.87331
舉	-7.8754
期	-7.877
乃	-7.87752
氷	-7.87827
尚	-7.88119
狂	-7.88432
說	-7.88496
易	-7.8876
字平聲	-7.89017
覺	-7.89311
罷	-7.89538
十	-7.89602
宿	-7.89859
懐	-7.90034
或	-7.90201
陳	-7.90491
直	-7.90809
蓮	-7.91482
耳	-7.91869
通	-7.91876
字仄聲	-7.92603
岸	-7.93012
宋	-7.93164
籠	-7.93184
寫	-7.93486
映	-7.93496
唐	-7.94092
透	-7.94161
角	-7.94232
喚	-7.94316
鴛鴦	-7.94474
經	-7.9454
燭	-7.94656
漫	-7.94741
翁	-7.94746
畔	-7.94845
憐	-7.9552
交	-7.95561
黄昏	-7.9574
復	-7.9582
眠	-7.96026
芲	-7.96143
口	-7.96649
窗	-7.96755
掩	-7.97485
傍	-7.97865
載	-7.98902
悲	-7.99131
越	-7.99135
鳴	-7.9937
不知	-7.99638
倒	-7.99865
拂	-7.99876
尾	-8.00116
奈	-8.00258
永	-8.00368
換	-8.00392
全	-8.00573
村	-8.00648
蝶	-8.00897
船	-8.01016
齊	-8.01018
二首	-8.01087
歸來	-8.01899
歲	-8.01954
伊	-8.01973
染	-8.02129
趙	-8.02387
節	-8.02617
桃	-8.03307
屏	-8.03425
終	-8.03476
萬里	-8.03519
荷	-8.03649
追	-8.03677
腰	-8.04109
底	-8.04253
洗	-8.04274
漢	-8.04436
吾	-8.04506
湘	-8.04529
内	-8.04586
贈	-8.04762
相逢	-8.05266
謂	-8.05297
些	-8.05424
居	-8.05459
倦	-8.05859
筆	-8.05872
歎	-8.05873
瘦	-8.06133
爲	-8.06895
疊	-8.06911
凨	-8.07087
巧	-8.07094
惟	-8.07202
鶴	-8.07401
臣	-8.07429
及	-8.07519
主	-8.07545
園	-8.07782
許	-8.07923
卿	-8.08224
恁	-8.08402
流水	-8.0855
聴	-8.08587
當時	-8.08795
虚	-8.0891
多情	-8.09006
殿	-8.09092
斜陽	-8.09402
遲	-8.09549
碎	-8.09795
刻	-8.1003
痕	-8.10041
静	-8.10124
遥	-8.10217
徑	-8.1026
鼓	-8.10487
泛	-8.10513
剪	-8.1052
前後	-8.10613
秀	-8.10766
稱	-8.11213
注	-8.11357
遍	-8.11436
物	-8.11587
登	-8.11753
秦	-8.11953
譜	-8.12118
傷	-8.12157
故人	-8.12942
遺	-8.13441
孫	-8.13473
雁	-8.13599
楊	-8.13815
梁	-8.13834
士	-8.14122
種	-8.14307
漁	-8.14366
願	-8.14427
火	-8.14444
纔	-8.14523
此調	-8.14528
平仄	-8.14631
㫁	-8.14793
理	-8.14895
步	-8.15246
各	-8.15487
揺	-8.15489
總	-8.15492
如今	-8.15583
墜	-8.16122
第	-8.16805
歩	-8.16849
夫	-8.16921
絮	-8.16962
雖	-8.17156
紗	-8.17361
足	-8.17538
偷	-8.17551
占	-8.17692
海棠	-8.17724
無人	-8.17862
感	-8.17912
臉	-8.17919
桂	-8.18006
袖	-8.18112
穿	-8.18114
忍	-8.18235
風雨	-8.18243
逰	-8.18273
周	-8.18307
沉	-8.18338
絃	-8.18339
泉	-8.1839
㣲	-8.18522
依舊	-8.18575
論	-8.1869
話	-8.18801
涼	-8.18968
久	-8.19082
擁	-8.19345
夀	-8.19471
煞	-8.19603
笛	-8.19646
目	-8.19724
呉	-8.19763
改	-8.19862
裡	-8.20145
争	-8.20256
算	-8.20346
扇	-8.20357
捲	-8.20404
車	-8.20423
囘	-8.20516
豈	-8.20583
親	-8.20623
睂	-8.21219
蘇	-8.21333
琴	-8.21393
徧	-8.21421
田	-8.21541
痩	-8.21712
恰	-8.2174
妙	-8.21821
負	-8.22036
鴻	-8.22181
麗	-8.22395
叶	-8.2247
諸	-8.22536
年年	-8.22542
章	-8.22575
守	-8.22581
不見	-8.22671
嵗	-8.22728
困	-8.22736
帳	-8.22744
芙蓉	-8.22746
慵	-8.22753
雅	-8.22844
逐	-8.23049
前段	-8.23151
扶	-8.23247
圍	-8.23347
渡	-8.23365
泥	-8.23568
鄉	-8.23621
發	-8.23666
軟	-8.23745
二字	-8.23804
索	-8.23836
呼	-8.23975
減	-8.24125
十二	-8.24215
命	-8.2431
等	-8.2477
嫩	-8.24778
鎖	-8.24893
游	-8.24992
遶	-8.25206
逢	-8.25589
晝	-8.25861
急	-8.25978
桃花	-8.26005
回首	-8.26255
漏	-8.26399
丹	-8.26428
端	-8.26642
謾	-8.26673
時節	-8.26691
苑	-8.26748
釵	-8.27009
迎	-8.27043
縈	-8.27077
宗	-8.27113
窓	-8.27171
浦	-8.27176
遮	-8.27185
盤	-8.27197
志	-8.27365
春色	-8.27958
打	-8.28333
菊	-8.28491
詠	-8.28542
濕	-8.28588
友	-8.28775
里	-8.29403
陰	-8.29475
疑	-8.29523
整	-8.29597
院	-8.29604
傾	-8.29609
皇	-8.29725
京	-8.29749
豔	-8.29829
靈	-8.29943
懷	-8.30039
鳥	-8.30103
瑞	-8.30289
惹	-8.30296
踈	-8.30737
無限	-8.30773
觴	-8.30812
一枝	-8.3091
繞	-8.30927
闕	-8.30932
忽	-8.31026
美	-8.31032
機	-8.31137
陵	-8.31358
報	-8.31486
顧	-8.31606
勸	-8.31845
雙調	-8.31906
原	-8.31942
西湖	-8.32268
恐	-8.32334
遇	-8.32551
画	-8.32559
仄	-8.32617
拍	-8.3273
錢	-8.33037
識	-8.33103
燕子	-8.3322
戲	-8.33231
寂寞	-8.33258
背	-8.33368
仲	-8.334
極	-8.33422
茶	-8.33481
俺	-8.33517
鴉	-8.33713
列	-8.33802
嘆	-8.33857
衾	-8.33865
牽	-8.33941
態	-8.33948
禁	-8.33991
後段	-8.34072
夏	-8.34147
峰	-8.34154
佳人	-8.34158
落花	-8.34419
荒	-8.34484
腸	-8.34677
靜	-8.34777
侵	-8.34818
冰	-8.34849
蒼	-8.3489
圖	-8.35051
悄	-8.35233
竒	-8.35238
齋	-8.35284
並	-8.35399
滴	-8.35432
當年	-8.35517
慶	-8.35523
鴛	-8.35741
川	-8.35813
盃	-8.35817
料	-8.35983
銷	-8.36305
柔	-8.36491
牎	-8.36678
程	-8.37038
午	-8.37491
繫	-8.37674
段	-8.38022
蜂	-8.38182
歇	-8.38202
渾	-8.38228
塞	-8.3829
氏	-8.38409
楼	-8.38412
次	-8.38494
簷	-8.38558
綵	-8.38569
一片	-8.38619
杜	-8.38795
般	-8.38802
變	-8.38911
䦨	-8.39103
號	-8.39158
媚	-8.39334
悶	-8.39624
壁	-8.39712
憑	-8.39723
斗	-8.39783
憔悴	-8.39861
娘	-8.40049
棹	-8.40237
一首	-8.40406
尊	-8.40424
羽	-8.40509
聖	-8.40556
叢	-8.40635
堤	-8.40823
失	-8.41193
必	-8.41294
五字	-8.41506
顔	-8.41802
史	-8.42004
展	-8.42206
關	-8.42298
壓	-8.42398
裙	-8.42474
工	-8.42569
杏	-8.43109
嘗	-8.43593
烏	-8.43929
縱	-8.43943
潮	-8.43961
選	-8.44003
一百	-8.44035
擬	-8.4438
牕	-8.44399
停	-8.44764
昏	-8.44769
武	-8.44809
點	-8.449
木	-8.44994
一聲	-8.45103
招	-8.45149
彈	-8.45277
圓	-8.45382
六字	-8.45561
深處	-8.45612
席	-8.45633
忘	-8.45864
房	-8.45876
征	-8.45942
虎	-8.46042
夕	-8.46092
條	-8.4625
蕭	-8.46775
省	-8.46779
趂	-8.47063
瑶	-8.471
片	-8.47273
藏	-8.47307
堆	-8.47313
樂府	-8.47372
一箇	-8.47428
綉	-8.47602
儘	-8.47681
別	-8.47712
止	-8.4784
青山	-8.48168
寛	-8.48205
懶	-8.48228
伯	-8.48344
少年	-8.48503
冠	-8.4851
彩	-8.48553
壺	-8.48572
無情	-8.48769
韓	-8.48834
釣	-8.48861
怯	-8.48861
鬟	-8.49079
切	-8.49284
徹	-8.4953
思量	-8.49571
力	-8.49744
羙	-8.4978
倩	-8.49837
澹	-8.49956
蕩	-8.50019
一笑	-8.50105
今日	-8.50564
尊前	-8.50635
市	-8.50983
辭	-8.50989
垂楊	-8.51064
死	-8.51229
筵	-8.51275
屋	-8.51297
受	-8.51357
襟	-8.5148
余	-8.51497
鈎	-8.51702
遣	-8.51884
商	-8.51925
旋	-8.51947
買	-8.52072
良	-8.52479
註	-8.52704
昔	-8.52738
清明	-8.52922
府	-8.53013
叔	-8.5313
計	-8.53401
苔	-8.53534
輪	-8.53934
姿	-8.53966
遂	-8.53972
認	-8.54045
實	-8.54097
鼎	-8.54228
匆匆	-8.5453
風月	-8.5454
響	-8.54577
随	-8.54612
翦	-8.54647
修	-8.5466
館	-8.5467
縷	-8.54931
封	-8.55024
髻	-8.55221
寶	-8.55221
艶	-8.55387
斷腸	-8.55515
月明	-8.55626
骨	-8.55902
綺	-8.55959
賢	-8.56055
序	-8.5606
潤	-8.56065
側	-8.56359
陶	-8.56363
黛	-8.56427
忙	-8.56473
含	-8.56528
邉	-8.56635
簇	-8.56637
風吹	-8.56649
㱕	-8.56678
偶	-8.5682
肯	-8.57019
扁舟	-8.57615
况	-8.5769
乆	-8.57778
團	-8.57847
户	-8.5785
呵	-8.5806
帝	-8.58101
胡	-8.5818
如此	-8.58236
霽	-8.5835
雞	-8.58364
恩	-8.58395
不可	-8.5842
一曲	-8.58471
江上	-8.58806
損	-8.58846
行人	-8.58956
悠悠	-8.59056
牆	-8.59503
牛	-8.60096
楊栁	-8.60184
今夜	-8.60419
桞	-8.60423
除	-8.60491
爐	-8.60653
盈盈	-8.6084
怪	-8.61007
師	-8.61061
稀	-8.61084
依	-8.6163
奏	-8.61723
殺	-8.61749
酔	-8.61786
采	-8.61842
持	-8.61849
惆悵	-8.61854
宵	-8.61885
屬	-8.62013
蓬	-8.62128
始	-8.62146
無語	-8.62193
勞	-8.6274
心事	-8.62801
聚	-8.62829
撲	-8.62926
惡	-8.6305
掃	-8.63073
凄凉	-8.63151
蟬	-8.63217
闌	-8.6323
騎	-8.63275
功名	-8.63295
妓	-8.63366
而今	-8.63513
求	-8.63669
腸斷	-8.63703
味	-8.63761
抱	-8.64216
遠	-8.64419
咲	-8.64459
天氣	-8.64569
相見	-8.64698
䦨干	-8.64757
壽	-8.64834
温	-8.65025
嗟	-8.65036
俊	-8.65047
裁	-8.65047
嚴	-8.65166
一字	-8.65189
去年	-8.65314
鞭	-8.65347
長安	-8.65358
䑓	-8.65899
杳	-8.65938
慣	-8.66133
洞	-8.66236
何事	-8.66284
平生	-8.66389
四字	-8.66457
記得	-8.66606
吐	-8.66622
攜	-8.66846
軒	-8.66887
幃	-8.67
鐘	-8.67205
致	-8.67225
訴	-8.67239
父	-8.67337
一體	-8.67442
予	-8.67443
否	-8.67459
惟有	-8.67459
堦	-8.67843
寒食	-8.6786
塘	-8.67893
東君	-8.67944
每	-8.67987
盟	-8.68153
渚	-8.6819
梧桐	-8.68262
𬒳	-8.68298
不是	-8.68302
盛	-8.68327
根	-8.68472
尾聲	-8.68472
徐	-8.68482
洲	-8.68486
付	-8.68564
珠簾	-8.68571
春光	-8.68748
拜	-8.6878
走	-8.69042
功	-8.69052
消息	-8.69368
燒	-8.69441
鈿	-8.69606
鋪	-8.69607
校	-8.69704
時候	-8.69708
性	-8.6975
黃	-8.69758
笙歌	-8.69801
窺	-8.7011
東坡	-8.70145
天上	-8.70275
法	-8.70344
徳	-8.7043
淮	-8.70526
檻	-8.70615
表	-8.70708
頓	-8.70713
翆	-8.70906
澄	-8.7093
砌	-8.70947
不似	-8.70992
様	-8.71114
毛	-8.71228
踏	-8.7136
借	-8.71463
梨花	-8.71529
陣	-8.71558
仍	-8.71734
酌	-8.71738
乎	-8.71768
蟾	-8.71859
往	-8.71865
暑	-8.71874
杏花	-8.72025
善	-8.72041
駕	-8.72053
篇	-8.72242
何時	-8.72698
十年	-8.72829
惱	-8.72943
織	-8.7296
犯	-8.73057
嶺	-8.73061
庭院	-8.73175
接	-8.73242
人生	-8.73397
豪	-8.73545
司	-8.73587
簫	-8.73588
無數	-8.73874
為誰	-8.73887
續	-8.74013
乾	-8.7403
十里	-8.74247
民	-8.74392
又名	-8.74467
隠	-8.74525
鵲	-8.74528
窮	-8.7459
琵琶	-8.74613
進	-8.74672
代	-8.74708
峯	-8.74726
䖏	-8.74787
衰	-8.74817
無名氏	-8.74854
靄	-8.75072
蕊	-8.75226
金縷	-8.75289
憂	-8.75425
夕陽	-8.75681
採	-8.75723
社	-8.75925
昨夜	-8.76064
俗	-8.76123
䄂	-8.76125
牀	-8.76425
嬾	-8.76431
黄花	-8.76619
井	-8.76621
御	-8.76757
顰	-8.76805
神仙	-8.76921
戀	-8.76934
末	-8.76993
宮	-8.77047
盈	-8.77135
第一	-8.77151
曹	-8.77265
冬	-8.77325
暈	-8.77449
尤	-8.77485
幕	-8.77489
可憐	-8.77628
三字	-8.77713
録	-8.77831
欄	-8.77995
投	-8.77999
暫	-8.78035
蓋	-8.78048
不堪	-8.78139
闗	-8.7818
悵	-8.78219
繁	-8.78307
陸	-8.78313
藥	-8.78339
卧	-8.78382
先生	-8.78535
酒醒	-8.78615
么	-8.78639
推	-8.78719
奴	-8.78912
由	-8.79131
坡	-8.7929
枉	-8.79766
填	-8.80132
裊	-8.80675
敲	-8.8104
蒲	-8.81047
侍	-8.81138
娥	-8.81158
闌干	-8.81183
熏	-8.81208
床	-8.81382
榮	-8.81408
甘	-8.81491
佩	-8.81571
不如	-8.81583
蜀	-8.81742
漲	-8.81756
觧	-8.81758
姬	-8.81925
年少	-8.81982
霄	-8.82298
㝷	-8.82298
哀	-8.82474
錯	-8.8248
街	-8.82661
鎮	-8.82683
桃李	-8.82728
尺	-8.82845
挂	-8.82862
談	-8.82906
盖	-8.83032
秋風	-8.8308
飛絮	-8.83107
吕	-8.83164
第三句	-8.83349
閨	-8.83458
敢	-8.83613
巾	-8.83784
凄	-8.84095
危	-8.84212
承	-8.84339
七字	-8.84339
羣	-8.84363
環	-8.84426
咽	-8.84534
無言	-8.84643
品	-8.84724
纎	-8.84899
鍾	-8.84905
格	-8.85049
縁	-8.85067
牡丹	-8.8507
掛	-8.85273
熟	-8.85285
箋	-8.85649
如何	-8.85661
梢	-8.85859
零	-8.85922
隱	-8.86026
促	-8.86062
太平	-8.86149
詞云	-8.86191
兵	-8.86221
楊花	-8.86305
鷗	-8.86447
羊	-8.86602
驛	-8.86731
强	-8.8697
費	-8.86987
賀	-8.86991
凍	-8.87178
今宵	-8.87295
嘉	-8.87354
池塘	-8.87425
化	-8.87505
聊	-8.87627
仁	-8.87904
梳	-8.87918
凡	-8.87991
别後	-8.88124
幸	-8.88168
人在	-8.88185
訪	-8.88532
甲	-8.88532
籬	-8.88535
軍	-8.88588
象	-8.88725
墮	-8.88731
密	-8.88841
四仄韻	-8.88875
何人	-8.89053
離愁	-8.89066
駐	-8.89135
遙	-8.89138
凭	-8.89485
棲	-8.8951
刀	-8.8952
層	-8.89571
兼	-8.89674
又是	-8.89712
福	-8.89716
酥	-8.8973
南浦	-8.89902
梁州	-8.90098
際	-8.90105
領	-8.90108
帆	-8.90265
編	-8.90274
無奈	-8.90296
布	-8.90314
丁	-8.90543
慘	-8.90699
湏	-8.90742
缺	-8.90917
玊	-8.91274
據	-8.91302
供	-8.91305
迴	-8.91314
檀	-8.91443
𥘉	-8.91456
敎	-8.91534
千古	-8.91703
煖	-8.91751
押	-8.91804
土	-8.91909
披	-8.91917
綃	-8.92044
咱	-8.92112
張炎	-8.92152
只有	-8.92219
不同	-8.92259
厮	-8.9231
牙	-8.92431
快	-8.92509
既	-8.92513
蛾	-8.92636
江山	-8.92738
三首	-8.92811
宻	-8.92895
緩	-8.92909
誰家	-8.92932
加	-8.9294
乗	-8.93061
紋	-8.93122
斂	-8.93135
甫	-8.93247
貴	-8.93308
業	-8.93329
衫	-8.93386
辛棄疾	-8.93535
深院	-8.9354
門外	-8.93853
墨	-8.93948
旅	-8.93948
風光	-8.94088
一夜	-8.94264
寺	-8.94329
存	-8.94343
一㸃	-8.94355
律	-8.94401
人家	-8.94406
印	-8.9455
弱	-8.9456
稍	-8.94596
抛	-8.94752
摘	-8.9478
無計	-8.94812
行雲	-8.95018
不到	-8.95117
泪	-8.95263
婦	-8.95364
汀	-8.95386
拚	-8.95399
細雨	-8.95591
膩	-8.9561
參差	-8.9562
蕋	-8.95626
寧	-8.95752
阻	-8.9587
蕭蕭	-8.95967
簟	-8.95973
雕	-8.95979
容易	-8.96017
断	-8.96156
侯	-8.96163
此與	-8.96197
閉	-8.96197
杖	-8.96416
競	-8.96438
巢	-8.96443
褪	-8.96447
竟	-8.96465
差	-8.9661
退	-8.96651
不成	-8.96667
凌	-8.96766
閙	-8.96862
鱗	-8.96873
息	-8.96949
浸	-8.96998
拈	-8.97066
喧	-8.97297
銅	-8.97452
義	-8.97459
避	-8.97463
睡起	-8.97492
一句	-8.97582
桐	-8.976
排	-8.97661
絳	-8.97684
沒	-8.97685
小樓	-8.97705
搖	-8.97728
笙	-8.9784
往事	-8.97889
月下	-8.97893
參	-8.98074
秋千	-8.98222
帽	-8.98313
樽	-8.98411
舊時	-8.98447
墻	-8.98548
十分	-8.98558
詞之	-8.98562
濤	-8.98568
闋	-8.98569
陌	-8.987
僧	-8.98752
一名	-8.98949
梦	-8.99024
樓上	-8.99144
洪	-8.99193
雙調一百	-8.99199
宣	-8.99288
進士	-8.99329
吳文英	-8.99421
袂	-8.9943
製	-8.99456
暝	-8.99632
篆	-8.99641
中秋	-8.99736
獨自	-8.99737
紀	-8.9985
獻	-8.99857
練	-8.99866
標	-8.99876
果	-8.99885
夢魂	-8.9992
政	-9.00045
碧雲	-9.0024
奉	-9.00249
座	-9.00285
郊	-9.00294
覓	-9.00297
周邦彦	-9.00313
辛	-9.00467
辰	-9.00509
人去	-9.00641
徘徊	-9.00728
王孫	-9.00733
懸	-9.00739
句法	-9.00815
滿地	-9.0113
脚	-9.01215
傷心	-9.01345
厭	-9.01378
廊	-9.01391
飄零	-9.01463
佳期	-9.01566
精	-9.01603
昌	-9.01608
貪	-9.01643
饒	-9.02068
花枝	-9.0208
不得	-9.02154
二句	-9.02219
一時	-9.02281
禽	-9.02294
十七字	-9.02347
不管	-9.02606
分付	-9.02668
囬	-9.02673
捧	-9.02777
花前	-9.02891
明朝	-9.02929
揮	-9.02958
祖	-9.03172
賜	-9.03181
泣	-9.03203
強	-9.03206
結句	-9.03351
丘	-9.03378
融	-9.03386
朩	-9.03422
母	-9.03432
花影	-9.03464
蝴蝶	-9.03663
秋水	-9.03841
津	-9.03858
鬼	-9.03879
皺	-9.04087
呀	-9.04267
提	-9.04279
殊	-9.04286
蓬萊	-9.04306
牋	-9.0459
斟	-9.04597
五仄韻	-9.04669
會	-9.0476
揚州	-9.04855
巖	-9.04989
姑	-9.0505
施	-9.05105
寂	-9.05206
花開	-9.0524
覔	-9.05246
枯	-9.05248
瀟湘	-9.05253
囱	-9.05471
鬂	-9.0575
簮	-9.05915
斑	-9.05943
探	-9.05981
古今	-9.06053
柱	-9.06194
蠟	-9.06398
勻	-9.06402
鬬	-9.06417
二十	-9.06432
戸	-9.06579
嫌	-9.06634
夷	-9.06701
侣	-9.06823
珮	-9.0702
爛	-9.07074
歌舞	-9.07098
蛩	-9.07113
暮雲	-9.07125
夜深	-9.07135
揚	-9.07275
縹緲	-9.07327
谷	-9.07517
長亭	-9.07542
眞	-9.07554
偎	-9.07581
慿	-9.07586
板	-9.07613
兮	-9.07659
左	-9.07743
翼	-9.07799
黄金	-9.07909
春水	-9.08009
酬	-9.08033
夢裏	-9.08138
蠻	-9.08265
虛	-9.08267
舍	-9.08285
趁	-9.08502
撥	-9.08803
幾度	-9.08885
第四句	-9.08983
有人	-9.09097
芳心	-9.09132
輝	-9.09243
正是	-9.09348
舒	-9.09438
欺	-9.09463
臥	-9.09721
凌波	-9.09823
妃	-9.09932
廣	-9.09983
仗	-9.09989
仄韻	-9.10055
栁永	-9.10055
▁(	-9.10066
纖	-9.1007
年華	-9.1019
祝	-9.10222
艷	-9.10223
□	-9.1029
不盡	-9.10352
禮	-9.10381
重重	-9.10425
況	-9.10467
考	-9.10469
鎻	-9.10648
射	-9.10653
芳菲	-9.10706
相對	-9.10738
十五字	-9.10854
妾	-9.10892
澤	-9.10935
畫堂	-9.1097
雜	-9.11174
春寒	-9.11333
紛紛	-9.11399
枝上	-9.11424
第二句	-9.11453
類	-9.11549
部	-9.11566
赴	-9.11635
葢	-9.11641
降	-9.11663
今古	-9.11686
十三字	-9.11755
只恐	-9.118
階	-9.11902
明日	-9.12041
幾時	-9.12057
蕙	-9.12145
何日	-9.12179
簾櫳	-9.12196
蘋	-9.12317
情緒	-9.12349
又一體雙調	-9.12367
数	-9.12404
霓裳	-9.12423
怎生	-9.12464
美人	-9.12532
沾	-9.12549
登臨	-9.12556
玉人	-9.12572
教人	-9.12603
綿	-9.1263
蘇軾	-9.12642
依然	-9.12802
平韻	-9.12958
叚	-9.13072
虹	-9.13084
簡	-9.13105
犀	-9.13155
别離	-9.13196
建	-9.13315
阿	-9.13359
食	-9.13389
姓	-9.13612
雙燕	-9.13652
綻	-9.13666
癡	-9.13869
暗香	-9.13974
西樓	-9.14036
如許	-9.1407
梧	-9.14096
離恨	-9.14208
四句	-9.14219
十八字	-9.14233
㺯	-9.14405
富貴	-9.14412
灑	-9.14421
羅衣	-9.14426
并	-9.14449
塲	-9.14519
支	-9.1464
血	-9.14652
跡	-9.14881
雷	-9.14885
誇	-9.1489
楊柳	-9.14967
夜來	-9.15161
冷落	-9.15208
依依	-9.15216
赤	-9.15357
積	-9.1539
衆	-9.15401
黯	-9.15403
窻	-9.15427
殢	-9.15441
一日	-9.15463
迢迢	-9.15469
利	-9.15587
妍	-9.15665
荆	-9.15695
量	-9.15768
童	-9.15804
請	-9.15874
戯	-9.15905
瑤	-9.1591
馮	-9.16139
薦	-9.16146
剛	-9.16148
質	-9.16164
撰	-9.16186
價	-9.16188
干	-9.16231
春歸	-9.16413
菴	-9.16422
障	-9.16658
免	-9.1671
遷	-9.16868
風前	-9.16905
席上	-9.1726
俏	-9.17462
弓	-9.17464
較	-9.17474
没	-9.17477
應是	-9.17534
夣	-9.17539
肌	-9.17614
雄	-9.17672
炎	-9.17701
旗	-9.17705
緊	-9.17718
爾	-9.1774
忠	-9.17948
花落	-9.17949
箭	-9.17953
紅塵	-9.18136
麝	-9.18198
康	-9.18262
重陽	-9.18326
攜手	-9.1838
脱	-9.18475
形	-9.18497
試問	-9.18583
妻	-9.18716
延	-9.18744
十四字	-9.18791
金釵	-9.18806
豆	-9.18925
今朝	-9.1897
履	-9.18997
今年	-9.19026
挑	-9.1903
精神	-9.19108
歌聲	-9.19211
劉郎	-9.19283
悔	-9.19285
簾幙	-9.19446
盡日	-9.19457
數聲	-9.19538
槐	-9.19555
離别	-9.19578
紙	-9.1959
線	-9.19635
叅	-9.1965
落日	-9.19811
不住	-9.19812
的是	-9.19815
畵	-9.19827
徒	-9.19831
歳	-9.19873
瑟	-9.19882
廢	-9.2008
欹	-9.20339
浴	-9.20367
磨	-9.20608
緣	-9.2063
桑	-9.20632
瞻	-9.20641
描	-9.20688
付與	-9.20847
逸	-9.20889
髪	-9.21001
殘紅	-9.21071
等閒	-9.21126
湯	-9.21133
肩	-9.21145
零落	-9.21156
綴	-9.21169
瓦	-9.21183
熱	-9.21444
學士	-9.21451
年時	-9.21574
廬	-9.21664
収	-9.21702
咏	-9.21714
分明	-9.21717
還是	-9.22115
樽前	-9.22254
當日	-9.22304
行樂	-9.22415
朶	-9.22519
竿	-9.2253
此情	-9.22625
八字	-9.2297
闊	-9.23081
園林	-9.2317
過了	-9.23275
枝頭	-9.23297
濟	-9.23374
無端	-9.23402
淒	-9.23594
使君	-9.23598
另	-9.23625
忩	-9.23633
幾許	-9.23905
鄰	-9.24201
文章	-9.24411
靑	-9.24423
漾	-9.2444
呈	-9.24443
酣	-9.24459
羡	-9.24472
英雄	-9.24525
千金	-9.24624
哉	-9.24733
溜	-9.24738
歸路	-9.24926
鄭	-9.24992
蹙	-9.25012
清風	-9.25247
汝	-9.25289
徃	-9.25453
祥	-9.25543
玲瓏	-9.25605
昭	-9.2569
都是	-9.25724
萍	-9.2579
盧	-9.25853
樵	-9.26136
棄	-9.26159
簪	-9.26172
春來	-9.26429
貌	-9.2644
明年	-9.26543
裳	-9.26622
那堪	-9.26678
卷	-9.26683
覷	-9.26695
鮮	-9.26745
臘	-9.26758
携	-9.26935
假	-9.26952
渺	-9.27012
掌	-9.27044
無力	-9.27098
卒	-9.27208
吴	-9.27284
魄	-9.27286
繁華	-9.27439
魏	-9.27573
减	-9.27575
勒	-9.27577
襯	-9.27594
夢中	-9.27612
逺山	-9.27871
茫茫	-9.2789
西園	-9.28014
腮	-9.28036
一葉	-9.28123
眀	-9.28159
朋	-9.28203
三月	-9.28205
不勝	-9.28411
㳺	-9.28435
盻	-9.28435
埋	-9.28455
滅	-9.28624
䕶	-9.28744
胭脂	-9.28748
五句	-9.28754
桃源	-9.28798
清香	-9.28872
陪	-9.29006
春去	-9.29006
厭厭	-9.29039
殷勤	-9.29054
殘月	-9.29067
囘首	-9.292
詞一巻	-9.2926
十二字	-9.29267
右	-9.29286
無處	-9.29315
歸期	-9.29365
銷魂	-9.29405
不覺	-9.29557
辨	-9.29648
四平韻	-9.29694
鐙	-9.29826
個	-9.29847
南北	-9.29858
鑑	-9.29921
歛	-9.29927
新愁	-9.29946
尋芳	-9.30105
班	-9.30221
穏	-9.30232
靣	-9.30246
銜	-9.3025
候	-9.30311
把酒	-9.30407
百年	-9.3042
瑩	-9.30454
榭	-9.30463
晨	-9.30474
陳允平	-9.30486
沉沉	-9.30534
畫樓	-9.30595
緒	-9.30659
重來	-9.30685
邀	-9.30806
觸	-9.30814
藍	-9.31055
噴	-9.31104
豐	-9.31199
如水	-9.31268
束	-9.31342
叶韻	-9.31363
不能	-9.31366
可惜	-9.31417
何妨	-9.31453
燈火	-9.31523
喬	-9.31647
千秋	-9.31774
朱顔	-9.31823
夢斷	-9.31843
腔	-9.31847
召	-9.31895
縣	-9.3194
囊	-9.3195
孟	-9.3201
肥	-9.32024
江梅	-9.32186
麻	-9.32269
栽	-9.32271
毫	-9.32312
一年	-9.32348
南枝	-9.3238
春愁	-9.32452
潘	-9.32509
声	-9.32548
煩	-9.32559
洛	-9.32577
賣	-9.32589
郭	-9.32608
十字	-9.32717
去聲	-9.32893
彎	-9.329
樓臺	-9.32901
汗	-9.32904
儂	-9.32912
筝	-9.32939
晉	-9.33165
第五句	-9.33181
舊遊	-9.332
窄	-9.33207
乾坤	-9.33223
耶	-9.33226
畧	-9.33234
判	-9.33457
夫人	-9.33479
威	-9.33498
穩	-9.33502
境	-9.33502
冶	-9.33707
悵望	-9.33743
猿	-9.33763
淨	-9.33813
額	-9.34095
趣	-9.34104
璧	-9.34132
乘	-9.34132
秋色	-9.34137
花下	-9.34218
飛去	-9.34321
來時	-9.34347
趙長卿	-9.34459
固	-9.34473
訛	-9.34494
起句	-9.34533
雨過	-9.34675
冉冉	-9.34731
中有	-9.34739
花間	-9.34789
蕪	-9.34928
源	-9.34961
此時	-9.35005
茅	-9.35026
卜	-9.35043
拖	-9.35083
雀	-9.35086
鷺	-9.35098
閒愁	-9.3524
泊	-9.35243
攀	-9.35334
毎	-9.3536
靨	-9.35367
巫山	-9.35536
特	-9.35604
鐵	-9.35635
馳	-9.35667
雙調九	-9.35674
芭蕉	-9.35682
鞋	-9.35683
途	-9.35722
江頭	-9.35731
到如今	-9.35842
銀河	-9.35852
浩	-9.35853
呌	-9.35981
擲	-9.35993
雲雨	-9.36026
鶯聲	-9.36036
日暮	-9.3604
雙雙	-9.36154
不禁	-9.36178
十六字	-9.36244
儀	-9.36261
峭	-9.36274
廟	-9.3629
漠漠	-9.3629
何在	-9.36349
張先	-9.36386
單	-9.36408
鴨	-9.36445
以為	-9.36446
輕寒	-9.36594
風露	-9.36655
安排	-9.36726
疾	-9.36934
壑	-9.36934
秦樓	-9.36952
花飛	-9.37014
天地	-9.37054
害	-9.37193
鬭	-9.37272
臯	-9.37283
翠袖	-9.3743
此際	-9.37475
寓	-9.37509
抹	-9.3755
埽	-9.37552
蘭舟	-9.37555
廻	-9.37567
欵	-9.37583
從今	-9.377
郡	-9.37803
一枝花	-9.37846
運	-9.37861
托	-9.37877
頗	-9.37902
簾外	-9.37917
贏得	-9.37949
晁	-9.38142
沼	-9.38199
喚起	-9.38394
盞	-9.38485
季	-9.38524
萼	-9.38543
獨倚	-9.38666
雙調四十	-9.38758
鬆	-9.38832
晁補之	-9.38833
宅	-9.3885
新月	-9.38865
賔	-9.38894
鞍	-9.38974
不用	-9.39219
江湖	-9.3959
勾	-9.39723
室	-9.39781
順	-9.39808
滑	-9.39835
三仄韻	-9.39941
撚	-9.40063
授	-9.40081
誠	-9.40094
㬉	-9.40097
嬋娟	-9.4013
鹿	-9.40164
猛	-9.40444
别來	-9.40446
浣溪沙	-9.40456
詔	-9.40462
落紅	-9.40496
鶯啼	-9.40509
知音	-9.40573
與前	-9.40602
銀燭	-9.40679
鼔	-9.40776
薫	-9.40776
壯	-9.40778
猜	-9.4078
平聲	-9.41041
忒	-9.41099
孝	-9.41112
蘂	-9.41123
光隂	-9.41181
弟	-9.41236
東籬	-9.41266
岳	-9.41374
澗	-9.41387
青青	-9.41428
擊	-9.4144
刺	-9.41456
附	-9.41463
酸	-9.41475
調見	-9.41559
陌上	-9.41632
蘆	-9.41706
潜	-9.41765
補	-9.41768
艇	-9.41819
春意	-9.41864
堅	-9.42071
乞	-9.42094
辜負	-9.42095
營	-9.42095
凋	-9.42146
脫	-9.42153
第七句	-9.4216
龜	-9.42458
溼	-9.42489
翹	-9.42494
值	-9.42513
暮雨	-9.42609
無窮	-9.42729
獸	-9.42778
誰與	-9.42797
彭	-9.42798
諧	-9.42805
深深	-9.42903
三句	-9.42943
日日	-9.43064
敗	-9.4308
挽	-9.43125
灰	-9.43134
春夢	-9.43209
厯	-9.4332
驟	-9.43384
同心	-9.43513
用平	-9.43531
架	-9.43775
鸚鵡	-9.4379
劍	-9.43807
一枕	-9.43928
天下	-9.43962
有情	-9.44038
置	-9.44095
勢	-9.44096
怒	-9.4411
湖上	-9.44118
欽定四庫全書	-9.44168
荷花	-9.44319
淡月	-9.44346
賴	-9.44473
擎	-9.44488
幅	-9.44512
皎	-9.44513
傷春	-9.44522
騷	-9.44791
委	-9.44804
萬事	-9.44916
不須	-9.44926
㸃㸃	-9.44963
不道	-9.45069
花隂	-9.45108
譜内	-9.45111
隊	-9.45121
許多	-9.45131
厎	-9.45132
㡌	-9.45144
飛來	-9.45182
青春	-9.45276
四十	-9.45441
誰知	-9.45442
蓑	-9.45472
輦	-9.45482
増	-9.45511
自有	-9.45671
彦	-9.45814
釀	-9.45829
筭	-9.45893
世間	-9.4596
紅葉	-9.46049
第六句	-9.46136
瓶	-9.46138
眸	-9.46168
騰	-9.46187
丹青	-9.4625
猶在	-9.46265
宇	-9.46358
難忘	-9.46405
舌	-9.46538
天香	-9.46659
知道	-9.46726
巷	-9.46817
相憶	-9.4682
設	-9.46903
懽	-9.46931
圖譜	-9.47104
用韻	-9.47159
箏	-9.47171
莊	-9.47183
驚起	-9.47187
鬚	-9.47199
依稀	-9.47256
踏青	-9.47293
寸	-9.47441
吹簫	-9.47544
脂	-9.47563
繼	-9.47567
目斷	-9.47698
薄倖	-9.47931
富	-9.47937
妬	-9.48
何如	-9.48032
老去	-9.48065
夜月	-9.48079
又還	-9.48113
何似	-9.48167
棃花	-9.48215
用仄	-9.4822
渭	-9.48301
芝	-9.48303
道是	-9.48389
髮	-9.48472
淹	-9.48494
秋光	-9.48564
蔡	-9.48587
衡	-9.48598
焉	-9.48637
草堂	-9.48804
零亂	-9.48837
斜日	-9.4884
無聊	-9.48844
德	-9.48913
千萬	-9.4892
叟	-9.49017
叠	-9.49063
依約	-9.49137
白雲	-9.49215
誓	-9.49307
戴	-9.49351
嫁	-9.49366
貧	-9.49409
望斷	-9.49545
章臺	-9.49592
晏	-9.49683
主人	-9.49687
小院	-9.49689
飯	-9.49702
念奴嬌	-9.49724
髙樓	-9.49743
維	-9.49754
查	-9.49784
界	-9.49988
一番	-9.50024
覆	-9.50045
蹤	-9.50047
拆	-9.50066
撫	-9.50088
蕚	-9.50095
九十	-9.50102
舊日	-9.50251
尖	-9.50312
婉	-9.50434
鞦韆	-9.50469
綺羅	-9.50538
双	-9.50745
袍	-9.50763
蔵	-9.50814
故園	-9.50827
我這	-9.50848
新聲	-9.51062
春衫	-9.51161
告	-9.51165
適	-9.51189
悽	-9.51198
十句	-9.512
凨流	-9.51244
以下	-9.51364
䏻	-9.5148
摩	-9.51496
青樓	-9.51507
麥	-9.51527
淸	-9.51554
厚	-9.51892
妖	-9.51893
淒涼	-9.51921
一任	-9.51936
滿庭芳	-9.52117
夜雨	-9.52128
好夢	-9.52173
飛花	-9.52229
関	-9.52232
驅	-9.52234
黄鸝	-9.5227
配	-9.52275
岫	-9.52278
南樓	-9.52359
陽臺	-9.52381
三十	-9.52415
隴	-9.52558
儒	-9.52663
風味	-9.52817
相識	-9.52822
丈	-9.52967
逞	-9.52985
悞	-9.53007
愚	-9.53008
圗	-9.53023
無心	-9.53173
咫尺	-9.53333
荅	-9.53348
閃	-9.53353
離情	-9.53449
悄悄	-9.53487
舊事	-9.53518
簾捲	-9.53667
歴	-9.53689
虞	-9.53691
仕	-9.53722
捱	-9.53746
油	-9.53751
耐	-9.53751
健	-9.53759
濶	-9.5376
蒼苔	-9.53814
風景	-9.53819
菱	-9.53982
笑語	-9.54021
痛	-9.54031
囀	-9.54132
助	-9.54133
不斷	-9.54414
權	-9.54468
詞名	-9.54482
夾	-9.5462
薰	-9.54744
符	-9.54872
烘	-9.54874
綰	-9.54894
屏山	-9.55048
總是	-9.5505
雲鬟	-9.55093
輕盈	-9.55266
奩	-9.55275
段九句	-9.55278
換頭	-9.55287
造	-9.55366
洒	-9.5546
雲山	-9.55502
黒	-9.55616
輿	-9.55641
寵	-9.55659
更有	-9.55679
東西	-9.55698
十三	-9.558
賓	-9.55987
葛	-9.56012
纒	-9.5603
瑣	-9.56036
迥	-9.56047
十一字	-9.56158
春山	-9.56183
聲聲	-9.56192
羅綺	-9.56219
四首	-9.56283
十五	-9.56361
颺	-9.56401
跨	-9.56404
螺	-9.5641
毛滂	-9.56427
耕	-9.56433
五更	-9.56501
嘶	-9.56567
南山	-9.56592
金蓮	-9.56674
煙雨	-9.5669
亡	-9.56716
謀	-9.56777
妒	-9.56792
猶未	-9.56801
腰肢	-9.56837
故國	-9.56947
無際	-9.56985
茸	-9.57127
裘	-9.57178
芽	-9.57182
甌	-9.57184
三更	-9.57307
夜寒	-9.5735
詞有	-9.57387
醪	-9.57558
錄	-9.57923
酲	-9.57929
水龍吟	-9.57941
兩句	-9.57943
網	-9.5795
秋聲	-9.57969
反	-9.57973
鸎	-9.57985
院落	-9.58242
枕上	-9.58246
淚眼	-9.58249
祐	-9.58266
日長	-9.58276
顯	-9.58288
皮	-9.58302
醉裏	-9.58322
朦朧	-9.58348
圃	-9.58366
韶華	-9.58434
菱花	-9.58471
白髪	-9.58491
月華	-9.58555
潛	-9.58709
例	-9.58733
博	-9.58832
憑誰	-9.58951
重門	-9.58991
留連	-9.59002
膽	-9.59097
劒	-9.59112
島	-9.5912
悉	-9.59129
臂	-9.59134
㡬時	-9.59219
滿眼	-9.59332
韋	-9.59439
前後段	-9.59463
一春	-9.59467
輸	-9.59526
欠	-9.59527
嗔	-9.59542
繡簾	-9.59547
㠶	-9.59549
匀	-9.59575
珍	-9.59606
韶	-9.59736
私	-9.59839
獨立	-9.59881
緑楊	-9.59892
臨江仙	-9.59913
帷	-9.59934
橫	-9.59944
玉樓	-9.60081
煙水	-9.60114
疎影	-9.60158
紅樓	-9.60283
瀟灑	-9.60304
作者	-9.60626
堯	-9.60655
旦	-9.60679
稼軒	-9.60733
首句	-9.60767
猶自	-9.60845
心情	-9.60989
山中	-9.61195
嘯	-9.61297
落梅	-9.61456
濺	-9.61542
壘	-9.61544
滿院	-9.61576
六仄韻	-9.61758
奔	-9.61886
閤	-9.61898
庾	-9.61907
笋	-9.61956
鷓鴣天	-9.62167
楓	-9.62261
梅苑	-9.62291
崔	-9.62323
特地	-9.62424
櫻桃	-9.62542
清歌	-9.62547
終日	-9.62609
兩三	-9.62645
公子	-9.62648
崖	-9.627
抵	-9.62704
日月	-9.62709
恰便似	-9.62712
仰	-9.62732
詳	-9.62763
又一	-9.62905
紅粉	-9.63109
一半	-9.63121
㕘	-9.63128
視	-9.63138
黄庭堅	-9.63166
穠	-9.63168
羨	-9.63195
評	-9.63205
翰	-9.63465
流鶯	-9.63542
籌	-9.63544
賀新郎	-9.63546
男	-9.63555
可平可仄	-9.63558
吉	-9.63561
腹	-9.63577
執	-9.63585
山谷	-9.63674
插	-9.63983
爽	-9.63998
尚書	-9.64022
玉簫	-9.64233
鷗鷺	-9.64241
跳	-9.64357
庵	-9.64358
膏	-9.64373
傲	-9.64381
翫	-9.64412
煩惱	-9.64466
朝雲	-9.64557
不語	-9.64591
螢	-9.64703
一簾	-9.64733
范	-9.64754
懨懨	-9.64785
窈窕	-9.64828
灣	-9.6483
杜宇	-9.64837
山色	-9.64898
猶有	-9.64951
渠	-9.65194
天然	-9.65197
人歸	-9.65296
鷓鴣	-9.65351
東流	-9.6539
藕	-9.65635
便是	-9.65661
擔	-9.65663
為我	-9.65672
它	-9.6569
斷魂	-9.65703
錢塘	-9.65709
餘香	-9.65723
其詞	-9.65761
胸	-9.65961
斯	-9.65987
月上	-9.66026
齒	-9.66061
茵	-9.66082
㾗	-9.66115
不忍	-9.6632
灘	-9.6646
挿	-9.66464
居士	-9.66569
後起	-9.66666
小橋	-9.66764
何許	-9.66766
魯	-9.6685
保	-9.66857
養	-9.66904
天際	-9.66913
剰	-9.66931
係	-9.67046
與君	-9.67199
可平	-9.67219
向人	-9.67279
温柔	-9.67299
一醉	-9.67317
喫	-9.67317
治	-9.67341
檢	-9.67347
針	-9.67348
眷	-9.67352
誰念	-9.67352
帥	-9.6736
一闋	-9.67362
題詩	-9.6752
洞庭	-9.67526
春事	-9.67557
極目	-9.67724
姚	-9.67735
清平樂	-9.67781
寂寂	-9.67788
看花	-9.67931
䡖	-9.68101
▁按	-9.68124
頂	-9.68146
三平韻	-9.68209
效	-9.68221
溶溶	-9.68226
盼	-9.68228
别有	-9.68307
去後	-9.68371
香消	-9.68377
仙子	-9.68443
夢回	-9.68475
備	-9.68482
銀屏	-9.68506
載酒	-9.68538
祠	-9.6859
敬	-9.68647
壷	-9.68661
滿目	-9.6879
春思	-9.68844
梭	-9.69008
蟻	-9.69048
牢	-9.69061
香霧	-9.69069
鮫綃	-9.69093
邦	-9.69101
陽關	-9.69309
監	-9.6941
浮雲	-9.69433
吞	-9.69448
腕	-9.69477
坊	-9.69497
槎	-9.69505
眼前	-9.6952
馥	-9.69563
新詞	-9.69815
九字	-9.69921
翅	-9.69931
藻	-9.69932
菜	-9.69933
心頭	-9.69944
紛	-9.69987
詞别首	-9.70017
教我	-9.70073
疎雨	-9.70142
兀	-9.70314
翩翩	-9.70369
輩	-9.70389
燼	-9.70394
帯	-9.70405
雕鞍	-9.70429
清曉	-9.70492
楚天	-9.70552
凝竚	-9.70595
重見	-9.70621
淚痕	-9.70698
畫船	-9.70727
臨風	-9.70728
當初	-9.70776
益	-9.7079
字俱仄聲	-9.70805
樣	-9.70825
翡翠	-9.70828
覩	-9.7086
送春	-9.70894
也不	-9.71094
今夕	-9.71226
笠	-9.71228
服	-9.71231
何須	-9.71245
處處	-9.71265
粘	-9.71306
一段	-9.71372
蕭索	-9.71389
門前	-9.71438
累	-9.71643
潭	-9.71691
迹	-9.71703
瓜	-9.71739
戰	-9.71742
韵	-9.71753
削	-9.71757
西山	-9.71772
好景	-9.71798
周密	-9.71831
春心	-9.71842
東風吹	-9.71868
蛾眉	-9.71946
顛	-9.72123
屢	-9.72142
顫	-9.72165
新詩	-9.7219
疑是	-9.72255
影裏	-9.72376
香風	-9.72456
扵	-9.7253
妖嬈	-9.72602
筠	-9.72615
蘸	-9.72615
掠	-9.72623
習	-9.72631
玉堂	-9.72644
舘	-9.7269
仄聲	-9.7271
此恨	-9.72844
恩情	-9.72856
𥿄	-9.73042
䇿	-9.73056
篷	-9.7306
經年	-9.73078
薔薇	-9.73079
一縷	-9.73079
藤	-9.73096
蟲	-9.73113
驄	-9.73113
拘	-9.73129
歸時	-9.73343
乳	-9.73412
兄	-9.73481
娉婷	-9.7352
去也	-9.73527
一作	-9.73587
十九字	-9.73685
情懐	-9.73704
前腔	-9.73763
瑶池	-9.73785
燈前	-9.73788
簾幕	-9.73841
宋人	-9.73867
露冷	-9.73891
崇	-9.73934
圎	-9.73977
塗	-9.74004
陸游	-9.74046
第八句	-9.74065
歸来	-9.74118
做了	-9.7424
麽	-9.74394
孤山	-9.74404
從來	-9.74426
巷陌	-9.74426
賀鑄	-9.7443
唾	-9.74452
世事	-9.74465
遲遲	-9.74606
彩雲	-9.74628
顔色	-9.74732
丁香	-9.74735
議	-9.74827
霏	-9.74834
護	-9.74869
科	-9.74879
賽	-9.74894
多時	-9.74895
綸	-9.74912
弔	-9.74932
知他	-9.74958
畫橋	-9.7507
亂紅	-9.75105
聞道	-9.75128
周詞	-9.7516
阮	-9.75216
殘照	-9.75239
佛	-9.75288
弹	-9.75366
晏殊	-9.7539
樓前	-9.75605
花底	-9.75715
滋味	-9.75795
伏	-9.75816
飛燕	-9.75828
撇	-9.75838
畱	-9.7585
楊无咎	-9.75856
宋詞	-9.75857
雙調八	-9.75908
三千	-9.75982
五湖	-9.76004
自古	-9.76076
水雲	-9.76177
誦	-9.7621
巴	-9.76259
茂	-9.76278
潔	-9.76281
湧	-9.76295
速	-9.763
冩	-9.76304
人静	-9.76345
䨇	-9.76362
未了	-9.76451
和氣	-9.76468
萬頃	-9.76503
風輕	-9.76517
元宵	-9.76566
入聲	-9.76663
略	-9.76677
屈	-9.76692
恣	-9.76716
柴	-9.76735
敵	-9.76741
七十	-9.76764
逼	-9.76782
宰	-9.76791
汀洲	-9.76798
玩	-9.76803
箇人	-9.76808
藍橋	-9.76814
頃	-9.769
第二	-9.76905
流年	-9.77051
陽春	-9.77148
哥	-9.77185
宛	-9.77185
希	-9.77205
聳	-9.77232
統	-9.77244
逕	-9.77247
幄	-9.77253
雍	-9.77255
顆	-9.77269
戦	-9.77274
了些	-9.77275
宛轉	-9.77316
一點	-9.77336
韶光	-9.77345
音信	-9.7741
至今	-9.77446
秦觀	-9.77485
衰草	-9.77495
君王	-9.77539
舎	-9.77689
巵	-9.77722
砧	-9.77724
史達祖	-9.77727
聼	-9.7774
呂	-9.77749
滿江紅	-9.77751
良辰	-9.7779
千載	-9.77793
瑶臺	-9.77905
欲去	-9.77936
一般	-9.77952
金屋	-9.77957
如夢	-9.77989
熙	-9.78079
禪	-9.78119
邨	-9.78164
託	-9.78167
迤邐	-9.78179
水邊	-9.78215
張翥	-9.78218
多病	-9.78219
詞為正體	-9.78292
樂事	-9.78331
鶯花	-9.78375
緑隂	-9.78409
自是	-9.7841
尉	-9.78614
杜鵑	-9.78657
衢	-9.78669
森	-9.78695
不肯	-9.78698
良宵	-9.78719
不解	-9.78833
倦客	-9.78861
門掩	-9.78909
有誰	-9.78964
最苦	-9.79057
債	-9.79104
桃葉	-9.7914
覽	-9.79154
㡬度	-9.79155
紅日	-9.79157
隣	-9.79158
周紫芝	-9.79164
番	-9.79184
幽香	-9.79203
相看	-9.79295
畨	-9.79459
臨水	-9.79492
見了	-9.79498
横斜	-9.79581
案	-9.79601
賺	-9.79619
那更	-9.79632
長是	-9.79638
貼	-9.79647
遭	-9.79662
此體	-9.79991
塵土	-9.80053
返	-9.80062
溪山	-9.8007
飽	-9.80072
包	-9.80079
浄	-9.80116
扉	-9.80149
千山	-9.8017
愁腸	-9.80354
泰	-9.80541
恍	-9.80543
郷	-9.80557
牧	-9.80557
脩	-9.80564
納	-9.80569
菩薩蠻	-9.80584
御選歴代詩餘	-9.80604
橘	-9.80613
鷄	-9.80616
千年	-9.80643
濛濛	-9.80647
水流	-9.80681
猶記	-9.80691
江水	-9.80731
次韻	-9.80828
雙調六	-9.80839
長生	-9.80955
從前	-9.8106
央	-9.81065
錦字	-9.81079
熈	-9.81085
炷	-9.81112
鬱	-9.81119
險	-9.8112
硯	-9.81129
方千里	-9.81146
添一字	-9.81147
流光	-9.81349
此意	-9.81361
十八	-9.81439
宋玉	-9.81451
嬉	-9.8149
數㸃	-9.81504
鉛	-9.81525
皓月	-9.81528
不拘	-9.8153
程垓	-9.81575
沁	-9.81578
溝	-9.81595
九日	-9.81796
碧天	-9.81826
香塵	-9.81911
青衫	-9.81924
制	-9.82001
錫	-9.82054
榆	-9.82055
奪	-9.82058
謳	-9.82067
梨	-9.8207
辦	-9.82087
衝	-9.82105
端的	-9.82296
南陌	-9.823
徃事	-9.82303
醉鄉	-9.8236
㟁	-9.82511
舜	-9.82525
徽	-9.8257
攪	-9.82577
娃	-9.82578
揉	-9.82598
葱	-9.82626
朱户	-9.82674
無事	-9.82676
紅杏	-9.82718
前段起句	-9.82759
此亦	-9.82781
司馬	-9.82827
三年	-9.82843
微雨	-9.8298
詞前段	-9.82995
寢	-9.83035
百花	-9.83063
驕	-9.8307
𤣥	-9.8307
絡	-9.83094
一杯	-9.83095
捨	-9.83099
蝶戀花	-9.83106
蘆花	-9.83185
詞話	-9.8324
前事	-9.83272
后	-9.83485
塢	-9.83565
屐	-9.83569
隻	-9.83579
活	-9.83583
梯	-9.83586
轡	-9.83606
似水	-9.83654
為君	-9.83851
回頭	-9.83931
夢窗	-9.84037
雙飛	-9.84047
鳯凰	-9.84065
擺	-9.8407
彼	-9.8407
窩	-9.84074
西江月	-9.84088
局	-9.8409
第三	-9.84141
麟	-9.84141
征鴻	-9.84203
瀟瀟	-9.84417
暢	-9.84556
岩	-9.84599
藝	-9.84599
撒	-9.846
两	-9.84612
縦	-9.84621
貫	-9.84627
離人	-9.84653
暇	-9.84666
江東	-9.84694
携手	-9.8472
亭亭	-9.84758
未老	-9.84791
一詞	-9.84929
旌	-9.85017
甚時	-9.85025
淡淡	-9.85046
汪	-9.85107
四時	-9.85187
奇	-9.85199
端的是	-9.85364
飛瓊	-9.85443
衮	-9.8552
舊家	-9.85546
雙調七	-9.85553
孔	-9.85588
六十	-9.85593
焦	-9.85606
毬	-9.85606
雛	-9.85616
液	-9.8565
逍遥	-9.85675
漁父	-9.85702
有恨	-9.85752
烟雨	-9.85875
拾	-9.85896
三十六	-9.85997
一畨	-9.86018
人情	-9.86022
樓外	-9.86041
焚	-9.86106
杭	-9.8613
嫦娥	-9.86138
蕉	-9.86139
颭	-9.86142
亞	-9.86149
髩	-9.86162
兔	-9.86164
裝	-9.86187
段八句	-9.86195
天外	-9.86232
真箇	-9.86234
兩兩	-9.86326
知何處	-9.86374
何必	-9.86495
無聲	-9.86577
沁園春	-9.86651
現	-9.8666
繩	-9.86674
四海	-9.86707
幾番	-9.86711
時時	-9.86762
景物	-9.86802
陽闗	-9.86902
無憑	-9.86907
啼鳥	-9.86926
管絃	-9.86927
不定	-9.8698
倚樓	-9.87026
所謂	-9.87029
和淚	-9.8708
濁	-9.87117
米	-9.87125
恰似	-9.87161
従	-9.87162
纓	-9.87179
旁	-9.87202
行客	-9.8722
前村	-9.87232
幙	-9.8724
人心	-9.87292
春恨	-9.87373
曉來	-9.87389
溪橋	-9.87396
消得	-9.87502
籍	-9.87607
五平韻	-9.8764
洛陽	-9.87665
伶	-9.87669
字俱平聲	-9.87675
答	-9.87676
藉	-9.87692
蒙	-9.87701
荼䕷	-9.8771
篝	-9.87714
塵埃	-9.8772
淵明	-9.87725
白髮	-9.87799
月色	-9.87894
無定	-9.87932
白雪	-9.87967
惱人	-9.87968
馬嘶	-9.88015
柯	-9.88106
詞同惟	-9.88145
賈	-9.88159
池上	-9.88166
甜	-9.88214
亦有	-9.88218
痴	-9.88229
蘓	-9.88232
一巻	-9.88259
些兒	-9.88275
落盡	-9.88436
畫角	-9.88469
歐	-9.88692
漪	-9.88741
揾	-9.88752
新來	-9.88756
言語	-9.88773
釵頭	-9.88785
一夢	-9.88798
耀	-9.88811
哭	-9.88817
段六句	-9.88836
小山	-9.88956
春暮	-9.8915
燈花	-9.89237
寒梅	-9.89243
尹	-9.89254
閬苑	-9.89275
漿	-9.8928
可仄	-9.89309
逗	-9.89313
蔣	-9.89326
段七句	-9.89341
屈指	-9.89342
露華	-9.89428
重簾	-9.89544
春情	-9.8956
心腸	-9.89587
庚	-9.89715
春草	-9.89728
月滿	-9.89733
匹	-9.89811
檐	-9.89813
䰟	-9.89847
濛	-9.89853
荷葉	-9.89857
滿城	-9.89864
夜夜	-9.89951
鶯鶯	-9.89976
夜永	-9.90019
院宇	-9.90166
年來	-9.90228
盆	-9.90258
尋常	-9.90302
暉	-9.90303
草草	-9.90316
愁絶	-9.90332
浣	-9.90332
棟	-9.90347
快活	-9.9035
姮娥	-9.90353
磯	-9.90373
周美成	-9.90438
夢覺	-9.9046
巫	-9.90559
青鸞	-9.90646
是處	-9.90692
靖	-9.9086
埀	-9.90887
朔	-9.9089
勤	-9.90907
漢宫	-9.90916
客裏	-9.91125
消魂	-9.91293
咸	-9.91344
柳永	-9.9137
摧	-9.91403
笳	-9.91415
嫰	-9.91457
兎	-9.91485
忘了	-9.915
懐抱	-9.91543
錦瑟	-9.91599
纎手	-9.9163
底事	-9.91683
淚珠	-9.91716
老子	-9.91737
後結	-9.91801
錦帳	-9.91851
傅	-9.91882
髯	-9.91935
浥	-9.91973
涙	-9.91973
農	-9.91996
燕語	-9.92032
謬	-9.92038
杳杳	-9.92085
西子	-9.92119
人物	-9.92165
醉倒	-9.92246
人逺	-9.92333
人意	-9.92399
留得	-9.92412
良夜	-9.92495
升	-9.92507
後段起句	-9.92519
不動	-9.92521
昇平	-9.92579
湖山	-9.9259
有時	-9.92662
李白	-9.92685
更漏	-9.92784
青門	-9.92961
或作	-9.93048
肉	-9.93057
水晶	-9.93058
劇	-9.9307
洞仙歌	-9.93081
琉璃	-9.93085
婆娑	-9.93091
休問	-9.93091
狀	-9.93107
𤓰	-9.93116
役	-9.9312
一天	-9.93124
從容	-9.93135
幽恨	-9.93142
洞房	-9.93145
金盞	-9.93154
消磨	-9.93159
白石	-9.93168
兩結	-9.93314
青天	-9.93407
老矣	-9.93475
述	-9.93639
羈	-9.93643
鏡裏	-9.9366
燦	-9.93662
祗	-9.9367
虞美人	-9.93679
寄與	-9.93735
寐	-9.93885
畫屏	-9.93889
幌	-9.94163
醑	-9.94173
曳	-9.94199
欣	-9.94216
栖	-9.94217
玉鈎	-9.9432
風清	-9.94351
五十字	-9.94605
金陵	-9.94648
水調歌頭	-9.94717
畢竟	-9.94723
蘿	-9.94734
𣺌	-9.94746
幾多	-9.94762
紈	-9.94771
愁人	-9.94873
七夕	-9.94985
玉樹	-9.95064
簫聲	-9.95092
帰	-9.95253
㝠	-9.95267
噪	-9.95291
鵉	-9.95299
芍藥	-9.953
苞	-9.95302
菰	-9.95304
冥	-9.95322
店	-9.95324
閗	-9.95365
超	-9.95372
驪	-9.95435
與此	-9.95435
五首	-9.9544
来時	-9.95532
長江	-9.9554
連天	-9.95734
雨後	-9.9577
作平	-9.9577
連環	-9.95794
平沙	-9.95798
重到	-9.95833
春雨	-9.95858
鐡	-9.9586
片片	-9.95862
具	-9.95883
遅	-9.95893
餞	-9.95905
一寸	-9.95922
石孝友	-9.95932
沉醉	-9.96
團扇	-9.96025
不足	-9.96159
昨	-9.96332
細細	-9.96396
僕	-9.96412
講	-9.96439
几	-9.96455
乙	-9.96457
互	-9.96467
餉	-9.96499
歡娛	-9.96535
一朶	-9.96551
工夫	-9.96621
五十	-9.9664
曉風	-9.96675
如畫	-9.9671
河漢	-9.96747
凝望	-9.96772
危樓	-9.96782
未成	-9.96811
兒女	-9.96821
煙波	-9.96824
舊恨	-9.96917
典	-9.96987
張元幹	-9.96994
葩	-9.97026
个	-9.97039
卓	-9.97039
碾	-9.97046
鳬	-9.97051
榻	-9.97052
腦	-9.97064
後段第	-9.97087
孫光憲	-9.97092
西廂	-9.97127
何限	-9.97159
金井	-9.97203
玉樓春	-9.97274
簫鼓	-9.97378
晝永	-9.97421
相如	-9.97439
望中	-9.97455
孤鴻	-9.97497
亮	-9.97544
遊人	-9.97569
眺	-9.97595
黍	-9.97697
小桃	-9.97741
素娥	-9.97778
欹枕	-9.9778
一生	-9.97906
鶯語	-9.97919
羅帶	-9.97924
徙	-9.98092
早是	-9.98101
段十一句	-9.98114
斧	-9.98162
煎	-9.9817
申	-9.98178
惠	-9.98198
搔首	-9.98209
檣	-9.98215
宦	-9.98216
壇	-9.98224
優	-9.9824
月照	-9.98375
醉中	-9.98413
清淺	-9.98442
花外	-9.98659
酴醿	-9.9872
風波	-9.98735
詞同惟前段	-9.98769
嚲	-9.98779
萋萋	-9.9878
壮	-9.98781
玄	-9.98802
天公	-9.98805
弦	-9.98889
生涯	-9.98891
清江	-9.99041
春睡	-9.9909
人靜	-9.99099
山川	-9.99148
更那堪	-9.99196
清秋	-9.99222
清夜	-9.99318
浪淘沙	-9.99367
瀉	-9.9939
天寒	-9.99427
)○	-9.99432
花梢	-9.99494
兩行	-9.99632
花謝	-9.99642
後段第二句	-9.99718
倚䦨干	-9.9976
二體	-9.99785
斷雲	-9.99875
芳信	-9.9988
金風	-9.99885
熬	-9.99916
倍	-9.99939
慮	-9.99952
十四	-9.99953
蓴	-9.99954
趙彦端	-9.99998
嘲	-10
餘音	-10.0001
皓	-10.0002
留住	-10.0009
一調	-10.0011
平蕪	-10.002
自號	-10.0027
無據	-10.0028
武陵	-10.0029
大夫	-10.004
詩餘	-10.0045
紅袖	-10.0046
淳	-10.005
杪	-10.0053
準	-10.0053
驂	-10.0054
妨	-10.0055
謁金門	-10.0055
黙	-10.0056
生香	-10.0056
乖	-10.0057
陳迹	-10.0057
柔腸	-10.0059
空自	-10.0059
人世	-10.0061
十載	-10.0066
凭欄	-10.0072
合歡	-10.0082
長記	-10.0082
他年	-10.0084
唇	-10.0108
悟	-10.0111
得意	-10.0111
不敢	-10.0112
看看	-10.0112
馬上	-10.0113
靚	-10.0115
稿	-10.0115
皋	-10.0116
杜安世	-10.0121
混	-10.0123
千丈	-10.0123
前歡	-10.0127
寄語	-10.0133
對酒	-10.0137
惜花	-10.0144
好是	-10.0152
記取	-10.0153
棠	-10.0169
示	-10.0173
准	-10.0174
蓬莱	-10.0175
段各四句	-10.0176
甃	-10.0177
兩平韻	-10.0177
礙	-10.0178
珊瑚	-10.0178
違	-10.0178
淑	-10.0181
甚麽	-10.0182
沽酒	-10.0187
留春	-10.0194
烟水	-10.0202
絃管	-10.0211
奈何	-10.0213
半掩	-10.0214
傾城	-10.0224
車馬	-10.0226
隨風	-10.023
秪	-10.0231
韓淲	-10.0231
汚	-10.0234
尋思	-10.0238
籟	-10.0238
臙脂	-10.0239
無恙	-10.0239
築	-10.0241
翰林	-10.0245
夭桃	-10.0246
登髙	-10.0262
誰共	-10.0263
丞	-10.0268
重九	-10.0269
鏡中	-10.0277
生怕	-10.0279
千縷	-10.0284
好事	-10.029
柄	-10.0292
瓢	-10.0297
脉脉	-10.0299
隆	-10.0299
張詞	-10.0313
難禁	-10.0318
限	-10.032
照人	-10.0325
何䖏	-10.033
如雪	-10.0339
八十	-10.034
傷情	-10.0343
小小	-10.0351
柰	-10.0352
鳩	-10.0352
不妨	-10.0352
小園	-10.0353
橙	-10.036
姜	-10.0363
好事近	-10.0363
拗	-10.0365
初試	-10.0386
有意	-10.0386
旗亭	-10.0389
沈沈	-10.0391
詩云	-10.0392
秋波	-10.0399
歐陽修	-10.0405
丙	-10.0415
顦顇	-10.0416
舫	-10.0417
婆	-10.0417
減一字	-10.0418
帖	-10.0418
緜	-10.0418
葦	-10.042
蜜	-10.0421
遼	-10.0422
鈴	-10.0423
沉香	-10.0425
次第	-10.0427
歌之	-10.0427
勲	-10.0428
喉	-10.0428
聲裏	-10.0435
未知	-10.0444
前結	-10.0447
㡬許	-10.0452
么篇	-10.046
翠被	-10.0461
白玉	-10.0467
鵝	-10.0479
踪	-10.0479
冷清清	-10.0482
脆	-10.049
萬種	-10.0492
不必	-10.0498
可以	-10.0498
横塘	-10.05
雨餘	-10.0501
百尺	-10.0502
風細	-10.0506
風情	-10.0512
心期	-10.0514
幾回	-10.0514
寸心	-10.0516
月影	-10.0522
孤負	-10.0528
第十	-10.0538
調名	-10.0541
罪	-10.0544
鳳凰	-10.0545
脈脈	-10.0545
綠楊	-10.0546
獵	-10.0546
单	-10.0547
陂	-10.0547
竹枝	-10.0547
禄	-10.0547
霏霏	-10.0548
涉	-10.0548
頰	-10.0548
𫾣	-10.0548
亂山	-10.055
鉛華	-10.055
縱有	-10.0557
須信	-10.0561
凝眸	-10.0561
朝來	-10.0574
太守	-10.0574
與後	-10.0575
此去	-10.0575
春信	-10.058
一霎	-10.0586
梅子	-10.0587
第四	-10.0595
為主	-10.06
老人	-10.0602
電	-10.0605
因此上	-10.0608
觥	-10.0608
無多	-10.0609
渺渺	-10.061
一雙	-10.061
耿耿	-10.0611
漂	-10.0612
戎	-10.0614
痛飲	-10.0617
斜暉	-10.0619
興亡	-10.0619
花信	-10.0619
萬㸃	-10.0619
莫惜	-10.0623
音書	-10.0624
羅裙	-10.0627
魂夢	-10.0632
也應	-10.0644
粉面	-10.0648
知否	-10.0653
不起	-10.0654
秋月	-10.0659
洞天	-10.066
相同	-10.0661
㫖	-10.0661
黏	-10.0663
江城	-10.0666
翩	-10.0667
烹	-10.0669
頼	-10.067
姝	-10.0671
簾影	-10.0672
譙	-10.0673
羅幃	-10.0673
香車	-10.0681
江天	-10.0689
箔	-10.069
栁絮	-10.0694
黄菊	-10.07
起來	-10.0701
認得	-10.0702
佳節	-10.0705
誰能	-10.0705
二十四	-10.0713
飛過	-10.0716
不識	-10.072
湛	-10.0724
樞	-10.0726
攬	-10.0731
离	-10.0732
儔	-10.0732
無緒	-10.0734
小雨	-10.0734
位	-10.0735
相望	-10.0736
靠	-10.0738
長空	-10.0738
勿	-10.0741
一陣	-10.0747
看取	-10.0754
心兒	-10.076
新晴	-10.0775
一川	-10.0776
幾日	-10.0783
仄韻後段九句	-10.0784
難留	-10.0785
清淚	-10.0791
𫀆	-10.0797
晩來	-10.0798
㦸	-10.0799
槽	-10.08
隱隱	-10.08
霎時	-10.08
併	-10.0802
朱門	-10.0807
黃昏	-10.0807
雲散	-10.0808
欄干	-10.0809
白蘋	-10.0812
對景	-10.0822
玉漏	-10.0831
樓頭	-10.0844
唐人	-10.0846
眉黛	-10.0848
收拾	-10.0849
溪上	-10.0849
新水令	-10.0852
子野	-10.0854
潑	-10.0858
彫	-10.086
慰	-10.0863
蹤跡	-10.0864
劉基	-10.0865
熊	-10.0866
葵	-10.0867
寜	-10.087
滄浪	-10.0872
山下	-10.0874
到處	-10.0875
斜月	-10.0892
詞律	-10.0897
依前	-10.09
望極	-10.0901
拾翠	-10.0904
起舞	-10.0911
小桃紅	-10.0918
克	-10.0921
蟹	-10.0923
碩	-10.0924
玉容	-10.0925
務	-10.0927
晦	-10.0928
幹	-10.0928
覺來	-10.093
髙觀國	-10.0933
握	-10.0933
萬縷	-10.0933
漁樵	-10.0935
詩話	-10.0937
伴侣	-10.0943
千頃	-10.0947
浩然	-10.0947
二月	-10.0952
海上	-10.0953
待得	-10.0954
横笛	-10.096
人散	-10.0963
人何處	-10.0967
佳處	-10.0978
紹興	-10.0983
所作	-10.0985
襄	-10.0986
鼻	-10.0986
郞	-10.0986
吹笛	-10.0988
遜	-10.0989
不怕	-10.099
幔	-10.0991
媒	-10.0991
陡	-10.0995
篁	-10.0996
相將	-10.0998
竊	-10.0998
月夜	-10.1002
還又	-10.1003
金尊	-10.1022
因甚	-10.1029
落葉	-10.1036
不來	-10.1036
説與	-10.1039
流霞	-10.104
别恨	-10.1043
粟	-10.1049
杜詩	-10.1057
魁	-10.1058
鈞	-10.1058
凖	-10.1061
舡	-10.1061
從此	-10.1061
㝎	-10.1062
馬蹄	-10.1062
踏莎行	-10.1063
梅香	-10.1063
只是	-10.1073
西風吹	-10.1076
香閨	-10.1078
銀蟾	-10.108
醉眼	-10.1089
聲斷	-10.1095
莫教	-10.1101
雲間	-10.1104
察	-10.1113
香羅	-10.1113
何用	-10.1114
夜半	-10.1115
驀	-10.1116
那里	-10.1119
慳	-10.1124
正與此同	-10.1126
防	-10.1126
振	-10.1127
尚有	-10.1127
冲	-10.1127
罩	-10.1128
寥	-10.1128
袁	-10.113
漁家傲	-10.113
歸夢	-10.1135
玉壺	-10.1142
緑水	-10.1142
凭䦨	-10.1158
遺恨	-10.1158
幽夢	-10.1158
詩人	-10.116
宣和	-10.1166
絲絲	-10.117
幾㸃	-10.1181
遵	-10.1182
橈	-10.1184
基	-10.1186
淂	-10.1191
感皇恩	-10.1193
董	-10.1193
替	-10.1194
星星	-10.1195
昻	-10.1195
濯	-10.1197
拙	-10.1199
石榴	-10.1201
山河	-10.1207
晴空	-10.1208
白鷺	-10.1208
蟠桃	-10.121
魚龍	-10.121
掩映	-10.1225
飄飄	-10.1227
上元	-10.1232
開時	-10.1236
新妝	-10.1244
一庭	-10.1248
小異	-10.1251
犬	-10.1253
乱	-10.1254
材	-10.1254
斷橋	-10.1257
拭	-10.1257
隙	-10.1259
啓	-10.1261
木蘭花	-10.1262
擡	-10.1262
撩亂	-10.1265
喜遷鶯	-10.1267
瑶琴	-10.1274
白頭	-10.128
無塵	-10.1287
著意	-10.1287
煙樹	-10.1288
斜照	-10.1293
漏聲	-10.1305
黄鍾	-10.1319
禹	-10.1321
生日	-10.1322
嵐	-10.1325
膠	-10.1325
裂	-10.1326
醜	-10.1328
墀	-10.1329
均	-10.1329
蔡伸	-10.1329
薄情	-10.1332
句七字	-10.1332
羅襪	-10.1335
風絮	-10.1341
才子	-10.1344
說與	-10.1345
歌罷	-10.1352
香銷	-10.1356
羅袖	-10.1362
月底	-10.1363
爐香	-10.1367
後段第三句	-10.1375
謫	-10.1376
小令	-10.1376
株	-10.1388
夭	-10.1389
恠	-10.139
貞	-10.1392
證	-10.1392
攅	-10.1394
抽	-10.1394
栁絲	-10.1396
趙師俠	-10.14
梅梢	-10.14
的我	-10.14
兹	-10.1402
阿誰	-10.1408
單調	-10.1408
只在	-10.1408
採蓮	-10.1415
風急	-10.142
素手	-10.142
仙家	-10.1424
向晚	-10.143
作六字	-10.1433
層樓	-10.1444
修竹	-10.1455
廷	-10.1457
璫	-10.1462
激	-10.1462
操	-10.1464
躍	-10.1464
懐古	-10.1465
氊	-10.1465
鄊	-10.1466
冤家	-10.1469
五雲	-10.147
前段第二句	-10.1472
誰是	-10.1474
關山	-10.148
怎禁	-10.1484
消遣	-10.1487
數枝	-10.1488
不曽	-10.1489
不合	-10.149
啼痕	-10.1502
楽	-10.1524
何處是	-10.1527
烈	-10.153
嶂	-10.1532
心上	-10.1532
薇	-10.1533
三山	-10.1533
審	-10.1535
鰲	-10.1535
縠	-10.1536
涵	-10.1538
情懷	-10.154
証	-10.1542
榴花	-10.1551
留不住	-10.1553
雨聲	-10.1556
是也	-10.1558
有感	-10.1569
闗山	-10.1574
竚立	-10.1577
好在	-10.1581
舊曲	-10.1584
病酒	-10.1588
早梅	-10.1589
金谷	-10.1592
中原	-10.1595
西東	-10.1597
長短句	-10.1598
不的	-10.1599
瀾	-10.16
鯉	-10.16
愈	-10.1602
蠶	-10.1603
蘚	-10.1603
綢繆	-10.1604
是非	-10.1609
菊花	-10.1621
忘却	-10.1623
上林	-10.163
又云	-10.1631
字俱	-10.1634
芳意	-10.1635
未必	-10.1641
談笑	-10.1646
粉香	-10.165
過盡	-10.1656
簿	-10.1666
字平	-10.1668
僅	-10.1669
寡	-10.167
職	-10.1671
捻	-10.1671
搗	-10.1672
澆	-10.1674
月冷	-10.1676
玉骨	-10.1677
隠隠	-10.168
樓閣	-10.1682
音律	-10.1695
池館	-10.1699
薰風	-10.17
歡笑	-10.1703
春晚	-10.1714
相遇	-10.1715
一尊	-10.1726
紅粧	-10.1727
魔	-10.1735
雪裏	-10.1737
鹽	-10.1739
虧	-10.1743
肅	-10.1743
温庭筠	-10.1744
撼	-10.1745
斚	-10.1746
棊	-10.1746
鏤	-10.1747
朗	-10.1748
沐	-10.1748
光景	-10.1748
張子野	-10.1749
漸老	-10.1749
三五	-10.1752
古人	-10.1756
誰信	-10.1758
滿庭	-10.1763
舊歡	-10.1766
頭上	-10.1766
仙人	-10.1769
過雨	-10.1773
不放	-10.1794
橋邊	-10.1795
探春	-10.1805
溫	-10.1809
賸	-10.181
在否	-10.1811
炊	-10.1812
宸	-10.1815
炬	-10.1815
曙	-10.1815
化作	-10.182
中書	-10.1829
詩酒	-10.1839
飄香	-10.1839
明珠	-10.1839
小閣	-10.1842
清絶	-10.1844
無寐	-10.1851
歌扇	-10.186
浮生	-10.1862
渾似	-10.1863
晏幾道	-10.1866
情味	-10.1875
慈	-10.1881
吏	-10.1881
幼	-10.1883
脣	-10.1885
鵞	-10.1886
呉文英	-10.1887
增	-10.1887
卸	-10.189
徵	-10.1891
侍郎	-10.1902
燕燕	-10.1904
二詞	-10.1907
五十二字	-10.1908
惜春	-10.1909
遊絲	-10.1912
紅牙	-10.1913
各家	-10.1917
銀漢	-10.1925
解語	-10.1925
自然	-10.1931
酒旗	-10.1935
新粧	-10.1937
十六	-10.1938
多才	-10.1939
耆卿	-10.1946
漸覺	-10.1952
𬗋	-10.1955
吕渭老	-10.1956
毅	-10.1957
荘	-10.1958
呆	-10.196
此亦與	-10.1964
清光	-10.1965
裊裊	-10.1969
其餘	-10.1976
換頭句	-10.1979
畫閣	-10.1984
長恨	-10.1986
遥山	-10.1987
長相思	-10.1994
閒情	-10.2001
三分	-10.2006
仄韻後段八句	-10.2014
不應	-10.2016
萊	-10.2023
生查子	-10.2027
域	-10.2027
樊	-10.2028
緘	-10.2029
躭	-10.203
六么	-10.2031
椒	-10.2031
若是	-10.2033
扣	-10.2033
慕	-10.2034
第九句	-10.2046
之類	-10.2056
兩岸	-10.2059
東山	-10.2063
捲簾	-10.2067
廣寒	-10.2069
可堪	-10.207
本是	-10.2078
沉吟	-10.2082
欽定四庫全書御選歴代詩餘巻	-10.2098
攤破	-10.2098
耗	-10.2102
軆	-10.2102
翔	-10.2102
鼇	-10.2103
雙蛾	-10.2117
兩仄韻	-10.2119
留取	-10.2119
蜂蝶	-10.2126
字仄	-10.2129
暗想	-10.213
聚散	-10.2137
未足	-10.2139
不許	-10.2141
想見	-10.2149
蚤	-10.2166
蛇	-10.2166
殷	-10.2172
晃	-10.2172
攘	-10.2173
孤村	-10.2173
峽	-10.2175
達	-10.2175
彌	-10.2175
墙	-10.2176
場	-10.2177
衛	-10.2177
醖	-10.2178
齡	-10.2178
貯	-10.2179
截	-10.218
襟袖	-10.2189
孤舟	-10.2198
雲外	-10.221
歸鴻	-10.2212
櫻	-10.2216
文君	-10.2223
蓼	-10.2226
名利	-10.2234
高樓	-10.2236
隋	-10.2241
敧	-10.2245
忺	-10.2245
孤眠	-10.2249
摇	-10.225
碧桃	-10.2251
佐	-10.2251
封侯	-10.2253
凛	-10.2253
罍	-10.2253
辱	-10.2254
寳釵	-10.2254
净	-10.2255
滿路	-10.226
檀板	-10.226
柴門	-10.226
帶雨	-10.2261
今生	-10.2263
未醒	-10.2268
三體	-10.227
諸家	-10.2275
羣芳	-10.2279
押韻	-10.2281
有誰知	-10.2293
清溪	-10.2299
翠屏	-10.2302
不比	-10.2313
撩	-10.2314
鑪	-10.2317
餅	-10.2319
此曲	-10.232
控	-10.232
旌旗	-10.2321
南鄉子	-10.2322
成陣	-10.2323
身在	-10.2323
蛟	-10.2323
髙歌	-10.2324
棋	-10.2325
點絳唇	-10.2328
紈扇	-10.2335
此地	-10.2341
只愁	-10.235
不叶	-10.2358
鶯燕	-10.2362
角聲	-10.2368
榴	-10.2376
是箇	-10.2389
俯	-10.2393
篙	-10.2393
櫓	-10.2395
救	-10.2396
稽	-10.2398
深夜	-10.2399
蜨	-10.2399
縞	-10.2399
芒	-10.24
掬	-10.2401
兆	-10.2401
衍	-10.2403
留戀	-10.2406
萬年	-10.2406
隂隂	-10.241
昨日	-10.241
連雲	-10.2411
私語	-10.242
悲秋	-10.242
人不見	-10.2427
漫漫	-10.2438
照影	-10.2441
只為	-10.2445
到此	-10.2447
倩誰	-10.245
心緒	-10.2457
正好	-10.2465
佇	-10.2468
鯨	-10.247
掀	-10.2472
卜算子	-10.2472
模様	-10.2473
勁	-10.2474
軸	-10.2474
楊澤民	-10.2475
蘭堂	-10.2476
苕溪	-10.2478
誰道	-10.248
憎	-10.248
嵬	-10.2481
次句	-10.2494
巳刻	-10.2499
秋思	-10.2504
紅綃	-10.2506
涯	-10.2506
十一	-10.2507
髙唐	-10.2507
佳麗	-10.2508
東南	-10.2512
簾垂	-10.2514
嫵	-10.2518
十七	-10.2525
讀書	-10.2534
只怕	-10.2535
灯	-10.2544
甕	-10.2545
鱸	-10.2547
汴	-10.2548
十九	-10.255
串	-10.2551
絆	-10.2552
王沂孫	-10.2555
粲	-10.2555
策	-10.2557
揷	-10.2557
錦屏	-10.2564
丞相	-10.2564
㫁腸	-10.2577
翠羽	-10.2578
真珠	-10.2583
凉生	-10.2596
藕花	-10.2597
易老	-10.2603
沙鷗	-10.2606
飛鴻	-10.2614
詞可校	-10.2616
茫	-10.2617
浙	-10.2621
舊約	-10.2621
難尋	-10.2625
垣	-10.2626
襪	-10.2627
嗅	-10.263
隄	-10.263
丰	-10.2631
蒹葭	-10.2632
蔣捷	-10.2632
沸	-10.2632
嬉遊	-10.2635
遐	-10.2635
夢到	-10.2644
一派	-10.2645
孤城	-10.2648
廣寒宫	-10.2649
晚來	-10.265
瓊花	-10.2658
芳容	-10.2658
則是	-10.2664
再不	-10.2667
莫問	-10.2672
一線	-10.2673
殘燈	-10.269
淵	-10.2691
賊	-10.2701
餐	-10.2702
碑	-10.2703
花草粹編	-10.2703
資	-10.2705
顏	-10.2706
演	-10.2706
擅	-10.2706
劣	-10.2707
嗚咽	-10.2708
器	-10.2708
韋莊	-10.2718
離思	-10.2724
單衣	-10.2734
目送	-10.2737
欲寄	-10.2742
萬古	-10.2743
折腰	-10.2747
千般	-10.2764
䕃	-10.2775
驢	-10.2779
炙	-10.278
剔	-10.2781
蹴	-10.2782
窟	-10.2782
賞心	-10.2783
鞵	-10.2783
霓	-10.2784
匝	-10.2785
中興	-10.2785
艾	-10.2786
逃	-10.2787
筍	-10.2788
僊	-10.2788
從頭	-10.2789
幻	-10.2789
青玉案	-10.279
蝉	-10.2791
年光	-10.2796
氷肌	-10.2798
香肌	-10.2801
重疊	-10.2802
臺榭	-10.2804
錦繡	-10.2805
傾國	-10.2819
幽怨	-10.2835
牆頭	-10.2847
槳	-10.2862
屑	-10.2863
丸	-10.2863
𦂳	-10.2863
耍	-10.2866
戚	-10.2867
竝	-10.2934
簧	-10.2936
谿	-10.2937
沿	-10.294
暎	-10.294
罵	-10.2941
禍	-10.2942
叙	-10.2943
訂	-10.2944
笻	-10.2944
專	-10.2946
傑	-10.2951
斛	-10.3018
隐	-10.3018
綱	-10.3022
啇	-10.3023
岡	-10.3024
鉄	-10.3025
閲	-10.3101
嚼	-10.3104
鑾	-10.3175
衷	-10.3178
舸	-10.3179
賤	-10.3187
綾	-10.3188
狐	-10.3193
撞	-10.3261
茗	-10.3261
智	-10.3264
綘	-10.3265
彤	-10.3265
泠	-10.3267
縫	-10.3271
莖	-10.3271
稠	-10.3272
戍	-10.3273
台	-10.3326
尽	-10.3333
羮	-10.3334
梗	-10.3343
掉	-10.3345
播	-10.3347
珂	-10.3347
膝	-10.3347
爇	-10.3348
韤	-10.3348
逋	-10.335
愧	-10.3351
滯	-10.3354
晋	-10.342
闘	-10.3423
介	-10.3423
醫	-10.3426
埃	-10.3426
輔	-10.3427
邪	-10.3429
模	-10.3429
鄧	-10.343
膓	-10.3431
檜	-10.3431
鍼	-10.3432
套	-10.3434
榜	-10.3434
醅	-10.3437
鱠	-10.3437
財	-10.3505
恭	-10.3514
紺	-10.3514
斾	-10.3517
俎	-10.3519
逝	-10.352
飾	-10.3521
己	-10.3595
某	-10.3596
麈	-10.3597
逹	-10.3598
俞	-10.3598
壚	-10.36
謹	-10.3601
妄	-10.3609
鵬	-10.3679
稜	-10.3683
擘	-10.3684
帘	-10.3684
岐	-10.3685
楫	-10.3685
薛	-10.3685
緫	-10.3686
筯	-10.3686
惻	-10.3693
醸	-10.3696
唯	-10.3737
割	-10.3767
薩	-10.3769
辜	-10.3774
釋	-10.3775
馭	-10.3777
像	-10.385
肝	-10.3857
件	-10.3858
鑿	-10.3858
震	-10.3859
苗	-10.3861
汎	-10.3863
剩	-10.3863
挼	-10.3863
漬	-10.3864
股	-10.3942
秉	-10.3943
曠	-10.3944
疇	-10.3945
巒	-10.3946
㓕	-10.3952
霎	-10.3975
岑	-10.403
勇	-10.4031
綽	-10.4031
羲	-10.4033
麓	-10.4034
普	-10.4037
霑	-10.4037
軰	-10.4038
迅	-10.4038
冝	-10.404
墓	-10.404
滄	-10.4101
完	-10.4118
飢	-10.412
充	-10.4122
纏	-10.4123
寅	-10.4123
侶	-10.4123
裹	-10.4125
啟	-10.4127
粗	-10.4127
莎	-10.4127
嚢	-10.4128
賖	-10.4128
霖	-10.4129
瞬	-10.421
兠	-10.421
畢	-10.4211
釭	-10.4215
黑	-10.4215
涴	-10.4215
軃	-10.4217
飬	-10.4217
庶	-10.4219
掲	-10.422
攸	-10.4223
菩	-10.4301
肚	-10.4301
灞	-10.4304
頽	-10.4304
預	-10.4305
軀	-10.4306
突	-10.4307
諳	-10.4307
偃	-10.4308
巨	-10.4309
淋	-10.431
屯	-10.4311
沽	-10.4371
規	-10.4383
廂	-10.4389
戈	-10.4392
謙	-10.4393
蔌	-10.4395
狼	-10.4397
綬	-10.4397
閩	-10.4397
頑	-10.4398
朧	-10.44
訝	-10.44
率	-10.44
万	-10.4473
壬	-10.448
屠	-10.4483
嘹	-10.4486
擇	-10.449
㪚	-10.449
莭	-10.4492
鮫	-10.4493
煮	-10.4495
􁱷	-10.4495
孃	-10.4568
貢	-10.4578
輯	-10.4582
揭	-10.4582
駒	-10.4584
邁	-10.4585
括	-10.4585
謡	-10.4586
屛	-10.4587
醺	-10.4588
芬	-10.4671
蒸	-10.4676
衙	-10.4678
駿	-10.4678
戒	-10.4679
偉	-10.4681
曵	-10.4684
瘴	-10.4768
咨	-10.4769
肆	-10.4772
卉	-10.4774
滋	-10.4774
洽	-10.4775
昬	-10.4775
稚	-10.4775
苕	-10.4862
滕	-10.4864
厨	-10.4865
閭	-10.4869
貂	-10.4869
藜	-10.4872
糝	-10.4874
褰	-10.4875
荔	-10.4954
汲	-10.496
跋	-10.496
歟	-10.4961
慚	-10.4967
嚦	-10.4967
窣	-10.4968
暄	-10.4968
纍	-10.4975
甞	-10.5053
擢	-10.5053
吸	-10.5057
逈	-10.506
椽	-10.5061
羇	-10.5065
灩	-10.5067
徴	-10.5067
倉	-10.5069
誕	-10.5069
諡	-10.5135
叩	-10.5156
羃	-10.516
奚	-10.5162
馨	-10.5163
伸	-10.5163
項	-10.5164
肻	-10.5168
鋒	-10.5168
艤	-10.5171
硬	-10.5261
疏	-10.5262
航	-10.5264
祿	-10.5266
囑	-10.5271
􁀙	-10.5331
暁	-10.5354
刑	-10.5354
蝸	-10.5364
疉	-10.5365
警	-10.5365
範	-10.5365
蹊	-10.5365
剖	-10.5365
廵	-10.5366
紹	-10.5455
寰	-10.5457
燃	-10.5463
豹	-10.5463
鵠	-10.5466
翳	-10.5467
群	-10.5467
畏	-10.5467
倫	-10.5467
椘	-10.5468
猩	-10.5468
倡	-10.5468
荻	-10.5468
襲	-10.5469
牌	-10.547
羔	-10.547
虬	-10.547
惶	-10.5471
遽	-10.5471
芸	-10.5472
函	-10.5473
椿	-10.5474
逓	-10.5475
抑	-10.5478
毒	-10.5563
漣	-10.5566
瀛	-10.5566
塊	-10.5568
繋	-10.5569
桒	-10.557
創	-10.5571
冤	-10.5659
循	-10.5661
允	-10.5664
瞞	-10.5665
俟	-10.5665
竚	-10.5668
耆	-10.5669
耿	-10.567
協	-10.5672
謁	-10.5672
聒	-10.5672
緯	-10.5672
敞	-10.5673
軋	-10.5676
畝	-10.5677
刋	-10.5678
瞿	-10.5684
倅	-10.5775
媛	-10.5775
飈	-10.5777
頸	-10.5779
蔓	-10.5779
妥	-10.5781
蒂	-10.5782
婢	-10.5783
嬴	-10.5783
溢	-10.5784
純	-10.5876
榖	-10.5879
敷	-10.5883
听	-10.5884
疼	-10.5884
飡	-10.5884
萱	-10.5884
篩	-10.5885
幢	-10.5885
墅	-10.5886
櫂	-10.5886
蔽	-10.5887
鶩	-10.5887
棗	-10.5888
灔	-10.5888
竈	-10.5889
窈	-10.5891
嘴	-10.599
卦	-10.5991
閱	-10.5992
邵	-10.5993
佯	-10.5994
娯	-10.5997
研	-10.5998
蠅	-10.5998
㴱	-10.6
蟠	-10.6084
溟	-10.6096
纂	-10.6097
啄	-10.61
荳	-10.6102
煗	-10.6104
趨	-10.6104
讓	-10.6106
享	-10.6106
㕠	-10.611
鮑	-10.611
穆	-10.6204
勉	-10.6205
詹	-10.6205
拌	-10.6206
稼	-10.621
孩	-10.6211
奸	-10.6211
彊	-10.6212
藴	-10.6212
刪	-10.6213
龎	-10.6214
罥	-10.6215
鬧	-10.6216
醁	-10.6216
琅	-10.6218
吁	-10.6306
昇	-10.6308
狠	-10.6312
副	-10.6317
坎	-10.6318
婚	-10.6318
揣	-10.6319
槩	-10.6319
癸	-10.632
籖	-10.6323
譽	-10.6324
聮	-10.6324
酹	-10.6325
暘	-10.6327
該	-10.6328
偕	-10.6328
式	-10.633
嵩	-10.633
裀	-10.6331
崑	-10.6341
棃	-10.6344
廉	-10.6427
拱	-10.6428
蔥	-10.6429
殆	-10.643
俄	-10.6433
峨	-10.6434
膾	-10.6434
磧	-10.6435
聰	-10.6435
靴	-10.6435
嶼	-10.6438
聨	-10.6438
曼	-10.6438
濫	-10.6442
欽	-10.6442
丑	-10.6546
躡	-10.6546
裛	-10.6552
扄	-10.6552
栢	-10.6557
悠	-10.6649
淩	-10.6659
植	-10.6661
鋤	-10.6663
榔	-10.6665
坼	-10.6666
哨	-10.6668
逅	-10.6669
巡	-10.667
祭	-10.6767
頌	-10.6774
奕	-10.6776
謊	-10.6777
怜	-10.6777
姊	-10.6777
鎭	-10.6777
獅	-10.6779
騮	-10.6779
匳	-10.6782
拏	-10.6785
挾	-10.679
囉	-10.6877
駸	-10.689
辟	-10.6893
膺	-10.6893
爵	-10.6895
憲	-10.6895
黎	-10.6896
伎	-10.6898
猷	-10.6898
滔	-10.69
篋	-10.7009
涎	-10.7012
桓	-10.7012
摸	-10.7014
繭	-10.7015
蛙	-10.7017
塔	-10.7017
洋	-10.7018
愴	-10.7022
確	-10.7027
帕	-10.7104
搜	-10.7131
挨	-10.7132
煤	-10.7132
孰	-10.7134
穴	-10.7134
襦	-10.7135
狗	-10.7135
胎	-10.7137
匣	-10.7138
契	-10.714
渉	-10.7141
陋	-10.7143
酉	-10.7254
阜	-10.7254
韁	-10.7258
閬	-10.7258
鎗	-10.7258
搭	-10.726
霰	-10.726
奢	-10.726
轂	-10.726
幡	-10.7262
䝉	-10.7265
掣	-10.7267
罇	-10.7269
貶	-10.7373
慧	-10.7375
秘	-10.7376
矜	-10.7379
拽	-10.7379
鷹	-10.738
鄙	-10.738
皂	-10.738
複	-10.7381
杵	-10.7382
箕	-10.7384
憨	-10.7384
瑕	-10.7384
姨	-10.7386
豊	-10.7386
絕	-10.7388
摺	-10.7392
宝	-10.7496
饑	-10.7497
覻	-10.75
䖍	-10.75
茆	-10.7501
斍	-10.7502
揀	-10.7503
昵	-10.7504
塩	-10.7506
疆	-10.7508
葆	-10.7509
蒨	-10.7509
屨	-10.7628
亥	-10.7628
繇	-10.7629
烽	-10.763
餌	-10.7631
檥	-10.7632
秖	-10.7632
蔕	-10.7633
寃	-10.7633
渇	-10.7634
妹	-10.7636
遞	-10.7637
旣	-10.7638
搓	-10.7639
娜	-10.7641
讌	-10.7641
竭	-10.7641
泄	-10.7642
両	-10.7644
討	-10.7754
芊	-10.7758
擕	-10.7758
熖	-10.776
荀	-10.776
嗚	-10.7761
款	-10.7762
唳	-10.7763
鑄	-10.7763
咎	-10.7764
瞥	-10.7765
祇	-10.7769
賭	-10.777
鷁	-10.7771
邑	-10.7773
􁗠	-10.7885
柘	-10.7887
抺	-10.7887
紆	-10.7889
您	-10.789
潄	-10.7891
臾	-10.7891
攏	-10.7892
煉	-10.7893
蹇	-10.7893
導	-10.7894
悪	-10.7894
𨳩	-10.7897
贏	-10.8006
訊	-10.801
斬	-10.8015
蛛	-10.8017
挹	-10.8018
涕	-10.8019
悴	-10.8019
塹	-10.802
禊	-10.802
嶠	-10.802
灌	-10.8022
峻	-10.8024
侑	-10.8024
庸	-10.8025
椀	-10.8025
柑	-10.8025
誚	-10.8026
郁	-10.8027
扃	-10.8028
箱	-10.8029
遏	-10.803
嬝	-10.8032
拄	-10.8148
胷	-10.8149
瀲	-10.8153
腥	-10.8153
覇	-10.8155
渴	-10.8155
庄	-10.8155
倪	-10.8156
謔	-10.8156
姹	-10.8156
牖	-10.8156
啞	-10.8157
芙	-10.8157
昧	-10.8157
雌	-10.8157
忡	-10.8158
莽	-10.8158
臆	-10.8158
芷	-10.8161
檠	-10.8164
膚	-10.8274
鵷	-10.8282
拳	-10.8286
黨	-10.8286
缸	-10.8292
虗	-10.8292
坑	-10.8293
寮	-10.8295
繊	-10.8296
乏	-10.8296
吊	-10.8297
稳	-10.83
鄒	-10.8303
釧	-10.8337
翎	-10.8415
状	-10.8418
麾	-10.8419
堕	-10.8421
磬	-10.8424
苧	-10.8425
勘	-10.8425
腴	-10.8426
𢎞	-10.8426
劃	-10.8426
懊	-10.8428
淘	-10.843
銖	-10.843
喝	-10.843
㓜	-10.8431
澌	-10.8432
佀	-10.8432
棘	-10.8432
圭	-10.8434
琢	-10.8435
閏	-10.8439
逄	-10.8556
援	-10.8559
煥	-10.8561
寨	-10.8562
絨	-10.8563
无	-10.8563
茜	-10.8564
撮	-10.8565
逆	-10.8566
灧	-10.8567
詢	-10.8567
煑	-10.8567
􁂼	-10.8567
悮	-10.8568
鑰	-10.8568
踞	-10.8569
鏘	-10.8569
瓣	-10.857
篘	-10.8571
裾	-10.8571
漆	-10.8571
暴	-10.8573
枚	-10.8574
㶑	-10.8575
狎	-10.8578
属	-10.8703
閻	-10.8703
换	-10.8704
垓	-10.8704
璚	-10.8704
蝦	-10.8705
韈	-10.8706
攔	-10.8708
酷	-10.8709
塡	-10.871
區	-10.8711
稷	-10.8711
嗣	-10.8712
冨	-10.8713
濵	-10.872
瞳	-10.8839
挺	-10.884
鄕	-10.8844
戊	-10.8849
翛	-10.8849
禾	-10.885
簔	-10.8851
拴	-10.8853
憔	-10.8853
緗	-10.8854
剥	-10.8855
祁	-10.8855
俚	-10.8857
飇	-10.8858
倘	-10.8865
蕤	-10.8873
郵	-10.8988
嚮	-10.8989
挫	-10.8992
粱	-10.8992
嫋	-10.8992
隘	-10.8992
㢤	-10.8993
丢	-10.8994
譏	-10.8995
晞	-10.8995
仇	-10.8995
訟	-10.8996
淅	-10.8996
亷	-10.8998
啾	-10.8999
嶽	-10.9001
姢	-10.9003
荼	-10.9003
籹	-10.9003
舩	-10.9003
欸	-10.9007
猊	-10.913
冗	-10.9135
怏	-10.9136
滚	-10.9137
莢	-10.9138
抖	-10.9138
熨	-10.9139
邱	-10.9141
酧	-10.9141
伐	-10.9142
搬	-10.9142
旬	-10.9142
䕫	-10.9142
迸	-10.9142
簌	-10.9142
哽	-10.9144
署	-10.9145
蠧	-10.9146
皱	-10.9147
憤	-10.9148
蒿	-10.9149
責	-10.915
韜	-10.9156
与	-10.9266
敏	-10.9276
襖	-10.9286
闈	-10.9287
卯	-10.9287
幘	-10.9288
濱	-10.9289
貨	-10.9289
窠	-10.9289
杼	-10.9292
邸	-10.9293
攲	-10.9293
忖	-10.9293
剡	-10.9295
蹰	-10.9295
麴	-10.9298
踐	-10.9298
藹	-10.9299
怡	-10.9303
給	-10.9432
禱	-10.9435
隅	-10.9439
籃	-10.944
稔	-10.9441
摶	-10.9443
羯	-10.9443
婷	-10.9444
諾	-10.9444
姻	-10.9444
寕	-10.9446
糊	-10.9446
爼	-10.9448
敝	-10.9448
㐮	-10.945
詵	-10.9451
犢	-10.9451
墳	-10.9452
蛮	-10.9583
𣣔	-10.9584
䟦	-10.9589
甸	-10.959
歹	-10.9593
帊	-10.9594
刼	-10.9594
懋	-10.9595
攛	-10.9595
栗	-10.9595
珥	-10.9596
纈	-10.9596
睛	-10.9597
㩦	-10.9598
呪	-10.9599
瞰	-10.9599
潢	-10.9599
鶼	-10.9601
逡	-10.9602
菡	-10.9602
筒	-10.9602
汾	-10.9603
矮	-10.9604
憀	-10.9605
措	-10.9607
処	-10.9736
祕	-10.9739
禅	-10.9743
缾	-10.9748
参	-10.975
尼	-10.9751
扯	-10.9751
迓	-10.9754
塜	-10.9755
肺	-10.9756
裴	-10.9757
週	-10.9757
攙	-10.9758
搊	-10.9759
僚	-10.9759
唧	-10.9761
褒	-10.9762
闔	-10.9762
鏁	-10.9763
搦	-10.9763
娟	-10.9764
毋	-10.9769
霸	-10.9772
獄	-10.9905
矯	-10.9909
㕔	-10.9909
簑	-10.991
患	-10.9912
術	-10.9912
港	-10.9914
纜	-10.9915
罨	-10.9916
娶	-10.9917
攻	-10.9917
蕖	-10.9917
砑	-10.9918
抄	-10.9918
樷	-10.9918
穗	-10.9919
禎	-10.9925
􁁊	-11.0037
劔	-11.0065
眄	-11.0066
渰	-11.0067
戌	-11.0068
皷	-11.0068
炯	-11.0069
荑	-11.007
騁	-11.0072
鼉	-11.0072
坦	-11.0073
昀	-11.0075
䄄	-11.0076
蹋	-11.0077
凢	-11.0078
醇	-11.0078
㝡	-11.008
組	-11.0081
飜	-11.0081
蹅	-11.0082
褭	-11.0082
蹄	-11.0231
淫	-11.0233
洩	-11.0235
誅	-11.0235
鉤	-11.0235
椉	-11.0237
脾	-11.024
瓮	-11.024
諕	-11.0241
㶚	-11.0241
䔩	-11.0242
頋	-11.0243
迭	-11.0244
閶	-11.025
訣	-11.0254
髭	-11.0392
胥	-11.0394
娉	-11.0396
祈	-11.0399
郯	-11.0399
餓	-11.0401
丗	-11.0401
芰	-11.0404
償	-11.0404
㒷	-11.0404
檝	-11.0405
巘	-11.0405
靡	-11.0405
鈔	-11.0406
迢	-11.0406
壻	-11.0407
莓	-11.0407
昆	-11.0407
萄	-11.0409
捉	-11.041
薺	-11.0413
銘	-11.0413
㢘	-11.0415
崙	-11.0423
娛	-11.0551
珊	-11.056
輒	-11.0567
䴡	-11.0568
耒	-11.0568
賡	-11.0572
睫	-11.0572
埸	-11.0573
蓉	-11.0573
亊	-11.0573
奠	-11.0574
旧	-11.0577
澀	-11.0578
壊	-11.0579
擷	-11.058
琪	-11.0582
畦	-11.0734
悦	-11.0741
盌	-11.0744
斤	-11.0744
糟	-11.0745
愼	-11.0745
潯	-11.0746
珀	-11.0746
瞧	-11.0746
褥	-11.0747
陛	-11.0747
冽	-11.0748
柬	-11.0749
騘	-11.0749
矗	-11.0751
装	-11.0752
欝	-11.0753
捷	-11.0754
磊	-11.0755
嚬	-11.0756
穹	-11.0758
噫	-11.091
躱	-11.0914
䑕	-11.0914
跌	-11.0918
瀰	-11.0918
褁	-11.0919
澁	-11.0919
艸	-11.0919
搯	-11.092
掇	-11.092
億	-11.0921
培	-11.0922
啜	-11.0922
爪	-11.0922
揖	-11.0923
攢	-11.0925
筦	-11.0925
杓	-11.0928
庠	-11.0928
喃	-11.1091
韀	-11.1094
軾	-11.1094
帛	-11.1094
彛	-11.1095
族	-11.1095
泞	-11.1096
凱	-11.1096
員	-11.1096
雉	-11.1097
帙	-11.1099
漕	-11.11
爆	-11.11
琳	-11.11
灺	-11.1101
恬	-11.1102
刮	-11.1103
蕃	-11.1105
熳	-11.1106
罕	-11.1106
吿	-11.1106
嵓	-11.1107
縹	-11.1107
酡	-11.1108
咄	-11.1109
淼	-11.1109
轍	-11.111
㵼	-11.111
鸚	-11.111
漳	-11.1264
葺	-11.1272
剗	-11.1272
稻	-11.1275
扮	-11.1275
轟	-11.1278
㧞	-11.128
漉	-11.1281
宏	-11.1282
桺	-11.1283
粒	-11.1284
麋	-11.1284
溶	-11.1284
梓	-11.1286
嶇	-11.1287
畹	-11.1287
𦍑	-11.1288
蚕	-11.129
䌫	-11.129
煌	-11.1291
櫳	-11.1432
粹	-11.1453
裔	-11.1454
蹬	-11.1455
巉	-11.1456
樸	-11.1457
譚	-11.146
茰	-11.146
㽞	-11.1462
胭	-11.1462
俠	-11.1463
愜	-11.1464
儲	-11.1466
潦	-11.1466
擾	-11.1466
楸	-11.1467
滌	-11.1468
泓	-11.1469
瀝	-11.147
螯	-11.147
蹀	-11.147
蘄	-11.147
獲	-11.1471
髓	-11.1471
棧	-11.1472
鵶	-11.1473
祅	-11.1473
籜	-11.1475
淪	-11.1482
醄	-11.1487
昉	-11.1647
篌	-11.165
驥	-11.1653
泮	-11.1654
紉	-11.1655
亟	-11.1655
豚	-11.1655
氛	-11.1655
煜	-11.1656
昂	-11.1656
縛	-11.1657
珪	-11.1657
絛	-11.1658
鑒	-11.1658
恢	-11.1658
笏	-11.1658
醆	-11.1658
驗	-11.1658
卑	-11.1659
义	-11.166
狹	-11.1661
邈	-11.1661
讃	-11.1662
悅	-11.1662
趕	-11.1664
旛	-11.1664
嗏	-11.1667
諌	-11.1832
皁	-11.1839
遨	-11.1841
僥	-11.1841
陀	-11.1844
焰	-11.1844
刷	-11.1844
鶚	-11.1845
虀	-11.1847
瀑	-11.1847
歪	-11.1849
罰	-11.1849
聘	-11.185
盒	-11.1851
嘱	-11.1851
峙	-11.1853
遡	-11.1855
爱	-11.1855
誥	-11.1856
􁈯	-11.1857
㕍	-11.1859
翥	-11.2003
鸝	-11.2034
讐	-11.2036
𬒮	-11.2036
聡	-11.2038
弁	-11.2039
娼	-11.204
顚	-11.2041
摹	-11.2043
諱	-11.2043
琶	-11.2044
拓	-11.2046
姐	-11.2047
攷	-11.2047
冕	-11.2047
畆	-11.2048
炒	-11.205
漠	-11.205
棚	-11.2054
蛺	-11.2054
蘅	-11.2054
躬	-11.2225
艱	-11.2234
撐	-11.2236
槃	-11.2236
訶	-11.2239
挲	-11.224
柏	-11.2242
譁	-11.2243
郢	-11.2244
僻	-11.2244
瑰	-11.2244
謨	-11.2244
儕	-11.2244
楞	-11.2244
煦	-11.2245
啣	-11.2245
麄	-11.2246
棐	-11.2247
叫	-11.2247
葬	-11.2249
碍	-11.2249
瞢	-11.225
炭	-11.225
藩	-11.225
恵	-11.2255
贊	-11.244
蒜	-11.2443
觜	-11.2444
恱	-11.2447
悼	-11.2448
駁	-11.2449
踟	-11.2449
究	-11.2449
蔬	-11.245
軿	-11.2451
櫺	-11.2451
鵾	-11.2451
技	-11.2451
霅	-11.2452
餳	-11.2452
弗	-11.2453
忌	-11.2453
㳙	-11.2453
愽	-11.2453
倣	-11.2454
樁	-11.2456
恊	-11.2461
囗	-11.2469
螿	-11.2646
覿	-11.2649
邅	-11.265
蔻	-11.2651
穣	-11.2652
㤀	-11.2653
惑	-11.2653
茘	-11.2656
裕	-11.2656
𥙷	-11.2657
萸	-11.2657
凹	-11.2659
羸	-11.266
徤	-11.266
熒	-11.266
氅	-11.266
衲	-11.266
謠	-11.2661
兢	-11.2663
卽	-11.2663
課	-11.2664
㽔	-11.27
撾	-11.2856
儼	-11.2857
咳	-11.2858
黔	-11.2862
惺	-11.2862
貟	-11.2863
囂	-11.2866
决	-11.2866
屧	-11.2868
躋	-11.2868
釅	-11.2868
絢	-11.2868
轅	-11.287
麯	-11.287
炉	-11.2871
駭	-11.2871
敻	-11.2871
虜	-11.2872
戶	-11.2872
鉢	-11.2872
褐	-11.2873
檄	-11.2873
袴	-11.2874
砂	-11.2874
碁	-11.2879
掖	-11.3066
貝	-11.3078
鵰	-11.3078
䘮	-11.3079
凰	-11.308
峩	-11.308
奎	-11.3082
錐	-11.3082
饞	-11.3083
賛	-11.3084
軫	-11.3085
啚	-11.3085
惲	-11.3086
卭	-11.3086
玎	-11.3087
恕	-11.3089
磚	-11.309
佑	-11.3091
舅	-11.3092
伍	-11.3092
銓	-11.3092
冒	-11.3094
箆	-11.3095
厲	-11.3096
搔	-11.3292
湄	-11.3296
孺	-11.3299
欒	-11.3299
卮	-11.3299
倖	-11.3301
瞑	-11.3302
詣	-11.3302
詰	-11.3303
慎	-11.3305
吼	-11.3305
譌	-11.3306
醴	-11.3307
醽	-11.3307
蹈	-11.3308
婺	-11.3308
闐	-11.3309
岷	-11.3309
簸	-11.331
烱	-11.331
牒	-11.331
槿	-11.3311
﨑	-11.3311
㗋	-11.3313
竄	-11.3313
拒	-11.3315
諫	-11.3315
冦	-11.3316
賒	-11.3316
挈	-11.3316
􁬸	-11.3317
堞	-11.3317
彥	-11.332
撑	-11.332
斫	-11.3526
体	-11.3529
灾	-11.3529
䟎	-11.3531
眩	-11.3532
墟	-11.3534
詫	-11.3535
慌	-11.3535
丕	-11.3536
啻	-11.3536
躞	-11.3536
慙	-11.3536
紵	-11.3538
扛	-11.3539
繪	-11.3539
釃	-11.354
帚	-11.354
芹	-11.354
嬰	-11.354
秣	-11.3542
砕	-11.3544
俛	-11.3545
淥	-11.3547
産	-11.3549
夲	-11.3557
瀟	-11.3625
拐	-11.3757
臞	-11.3759
輞	-11.3759
駝	-11.3765
朽	-11.3766
俐	-11.3766
鉅	-11.3769
沖	-11.3769
艋	-11.377
旨	-11.377
洶	-11.377
擻	-11.377
騃	-11.3771
鞚	-11.3771
􁒭	-11.3772
藁	-11.3772
喻	-11.3772
諭	-11.3772
濡	-11.3773
駟	-11.3773
蛻	-11.3774
哦	-11.3776
督	-11.3777
緋	-11.3782
鵑	-11.3994
昼	-11.3995
潁	-11.3998
糧	-11.4
批	-11.4001
􁑴	-11.4001
曇	-11.4002
儉	-11.4003
嵌	-11.4004
朕	-11.4004
泫	-11.4005
祓	-11.4006
嚥	-11.4007
慨	-11.4007
癯	-11.4008
缷	-11.4008
版	-11.4008
緱	-11.4009
糾	-11.4009
鉉	-11.401
喨	-11.4011
釘	-11.4012
帔	-11.4012
揑	-11.4013
哄	-11.4013
媿	-11.4014
䧟	-11.4014
効	-11.4014
睁	-11.4016
㨂	-11.4016
碌	-11.4018
吠	-11.4233
喒	-11.4238
哈	-11.4238
廽	-11.4238
葭	-11.424
姪	-11.424
鑚	-11.4241
夔	-11.4242
颯	-11.4242
謎	-11.4242
廖	-11.4243
貽	-11.4244
揪	-11.4244
焙	-11.4244
泗	-11.4245
䟽	-11.4246
𣲖	-11.4247
覊	-11.4247
篤	-11.4248
斕	-11.4248
湮	-11.4248
箬	-11.4248
績	-11.4249
掂	-11.4249
驊	-11.4249
嬈	-11.425
撅	-11.4252
矦	-11.4252
寝	-11.4252
蹁	-11.4253
輙	-11.4253
琱	-11.4254
犂	-11.4254
糖	-11.4254
瑹	-11.4256
筋	-11.4256
掄	-11.4256
鎡	-11.4257
決	-11.4257
囚	-11.4258
穉	-11.4258
矩	-11.4259
蔲	-11.4259
忻	-11.426
􁋑	-11.4261
儗	-11.4261
𤨏	-11.4262
掾	-11.449
竇	-11.449
袋	-11.449
鏜	-11.4491
朦	-11.4494
耘	-11.4495
瓚	-11.4496
睇	-11.4497
琚	-11.4497
販	-11.4498
榛	-11.4498
槁	-11.4498
夙	-11.4498
霍	-11.4499
㨿	-11.45
諷	-11.45
撏	-11.45
鳷	-11.4501
岀	-11.4501
恥	-11.4501
喘	-11.4501
豁	-11.4502
叱	-11.4502
悒	-11.4503
罅	-11.4504
扭	-11.4504
囪	-11.4506
圻	-11.4507
㪅	-11.4507
㤙	-11.4508
彞	-11.4508
譲	-11.4515
〇	-11.4735
髄	-11.475
鞓	-11.4751
菲	-11.4753
睢	-11.4753
琤	-11.4754
穀	-11.4755
勺	-11.4756
輟	-11.4756
濠	-11.4757
歷	-11.4759
丫	-11.476
凈	-11.476
雋	-11.4762
頥	-11.4762
腑	-11.4762
皪	-11.4763
薪	-11.4764
鎔	-11.4764
亨	-11.4764
幰	-11.4764
厦	-11.4764
瀣	-11.4764
扳	-11.4764
罏	-11.4766
鼙	-11.4767
舛	-11.4772
派	-11.4985
鏝	-11.5009
泳	-11.501
楹	-11.5011
孚	-11.5013
鬖	-11.5015
羗	-11.5016
捕	-11.5017
匈	-11.5017
厖	-11.5017
綫	-11.5017
仞	-11.5018
玳	-11.5018
赶	-11.5019
蜕	-11.502
璇	-11.502
佚	-11.5021
漚	-11.5021
觚	-11.5021
壤	-11.5022
鑠	-11.5022
搽	-11.5022
紇	-11.5022
祀	-11.5022
瑯	-11.5023
曛	-11.5023
輭	-11.5024
燠	-11.5025
汙	-11.5026
紏	-11.5027
㬠	-11.5028
盂	-11.5028
覧	-11.503
橊	-11.5034
夗	-11.5034
澡	-11.5273
嗽	-11.5277
腿	-11.5283
恋	-11.5283
庫	-11.5284
縮	-11.5285
揩	-11.5285
嬪	-11.5286
磣	-11.5286
徊	-11.5286
迂	-11.5286
鄂	-11.5287
赭	-11.5287
頴	-11.5288
舄	-11.5288
栩	-11.5289
腋	-11.529
抗	-11.529
秃	-11.529
颿	-11.5291
垢	-11.5293
蓞	-11.5293
敦	-11.5294
冊	-11.5295
熹	-11.5295
捐	-11.5297
銕	-11.5297
娩	-11.5298
寇	-11.5299
隈	-11.53
胄	-11.53
䓁	-11.5301
􁡾	-11.5303
磕	-11.5308
党	-11.5309
嫣	-11.555
竦	-11.5551
夘	-11.5553
衞	-11.5554
鏗	-11.5555
爍	-11.5555
沃	-11.5557
灼	-11.5559
蔗	-11.5559
涇	-11.5559
磻	-11.556
猗	-11.556
䭾	-11.556
峥	-11.5562
邯	-11.5563
肖	-11.5563
劫	-11.5563
簞	-11.5564
罄	-11.5564
跪	-11.5565
湔	-11.5565
愠	-11.5565
萋	-11.5565
扆	-11.5566
繚	-11.5566
仃	-11.5568
輾	-11.557
玦	-11.557
頒	-11.5571
櫽	-11.5572
搴	-11.5572
恒	-11.5572
鼠	-11.5572
臍	-11.5573
璞	-11.5578
忿	-11.5579
俾	-11.5838
眇	-11.5839
瑜	-11.584
絹	-11.5844
独	-11.5844
㡳	-11.5847
唤	-11.5847
臭	-11.5848
曈	-11.5849
笔	-11.585
輳	-11.585
鼐	-11.5851
喪	-11.5852
瓏	-11.5852
療	-11.5852
災	-11.5853
萏	-11.5853
曺	-11.5854
脯	-11.5854
踰	-11.5855
揔	-11.5855
鋼	-11.5855
鐸	-11.5856
訓	-11.5856
衠	-11.5856
儡	-11.5856
珌	-11.5858
枰	-11.5858
苐	-11.5859
芦	-11.5859
籤	-11.586
淙	-11.586
矢	-11.5863
磴	-11.5864
颸	-11.5868
睨	-11.5868
肘	-11.613
懿	-11.6132
摭	-11.6134
杉	-11.6135
撃	-11.6138
弩	-11.6138
崦	-11.6139
吻	-11.6139
崩	-11.6139
弇	-11.6141
寍	-11.6142
懼	-11.6143
淞	-11.6144
婿	-11.6144
称	-11.6144
傒	-11.6145
惋	-11.6146
鬲	-11.6147
芋	-11.6147
莆	-11.6147
駢	-11.6147
系	-11.6148
筑	-11.6148
矛	-11.6149
厥	-11.6149
樨	-11.6149
乂	-11.6149
諒	-11.615
悰	-11.6152
撋	-11.6152
劈	-11.6153
繒	-11.6153
邙	-11.6153
傀	-11.6154
総	-11.6155
縐	-11.6155
壠	-11.6155
匡	-11.6158
裯	-11.6158
籙	-11.6162
堵	-11.6166
哎	-11.6427
腌	-11.6434
妳	-11.6442
仝	-11.6442
樾	-11.6444
奮	-11.6444
址	-11.6445
册	-11.6445
箑	-11.6446
尙	-11.6448
緇	-11.6448
敕	-11.6449
逮	-11.6449
丧	-11.6449
梵	-11.6449
蹟	-11.645
飮	-11.645
琹	-11.6451
鈍	-11.6451
溽	-11.6451
擂	-11.6451
儧	-11.6451
􁈼	-11.6452
韭	-11.6452
革	-11.6452
漱	-11.6453
酺	-11.6453
椎	-11.6453
脃	-11.6453
狨	-11.6454
摔	-11.6455
滳	-11.6455
篱	-11.6455
竅	-11.6456
皤	-11.6456
旺	-11.6456
䋲	-11.6458
廿	-11.6459
踘	-11.6459
跟	-11.6463
蠏	-11.6464
鞏	-11.6748
忤	-11.675
苫	-11.6754
駞	-11.6754
冐	-11.6754
豓	-11.6756
饌	-11.6756
襴	-11.6758
䓻	-11.6758
荇	-11.6759
薜	-11.6759
懵	-11.676
婁	-11.676
掘	-11.676
刘	-11.6761
狻	-11.6761
瑾	-11.6762
聯	-11.6762
溺	-11.6762
褶	-11.6762
噎	-11.6763
篛	-11.6763
鳶	-11.6763
趄	-11.6764
琲	-11.6764
脉	-11.6764
螭	-11.6764
泚	-11.6765
穎	-11.6765
騐	-11.6766
嘈	-11.6766
貎	-11.6767
蘼	-11.6767
哩	-11.6767
核	-11.6768
噀	-11.6768
沆	-11.6768
錚	-11.6768
擣	-11.6769
冀	-11.6769
郸	-11.6769
卞	-11.6769
珏	-11.6769
侭	-11.677
􁅘	-11.677
盎	-11.677
僃	-11.6771
慇	-11.6771
俳	-11.6771
珎	-11.6772
卟	-11.6772
騶	-11.6772
凴	-11.6775
燄	-11.6775
愿	-11.7068
溆	-11.7069
搆	-11.707
鉗	-11.707
阡	-11.7071
娱	-11.7073
扁	-11.7074
贍	-11.7075
鐺	-11.7076
菁	-11.7078
捫	-11.7078
輅	-11.7079
粥	-11.708
嫂	-11.708
珞	-11.7081
踅	-11.7081
笄	-11.7081
腐	-11.7082
耽	-11.7084
摟	-11.7084
鶻	-11.7084
齅	-11.7084
瘞	-11.7085
筐	-11.7085
湓	-11.7085
鋏	-11.7085
辯	-11.7086
剜	-11.7086
甍	-11.7086
盗	-11.7087
吃	-11.7088
陟	-11.7088
𬋩	-11.7088
棒	-11.7089
顋	-11.709
拔	-11.7091
甆	-11.7091
担	-11.7092
搶	-11.7092
敘	-11.7092
圈	-11.7094
憩	-11.7096
匏	-11.7096
赫	-11.7103
献	-11.74
覃	-11.7401
囯	-11.7405
湍	-11.7406
酪	-11.7409
甥	-11.7409
憾	-11.741
斥	-11.741
舷	-11.7411
嶸	-11.7411
捜	-11.7414
踢	-11.7414
覲	-11.7414
攤	-11.7414
儆	-11.7416
雏	-11.7417
紳	-11.7417
琖	-11.7417
誌	-11.7417
䗶	-11.7417
暌	-11.7418
鈆	-11.7418
紐	-11.7419
俻	-11.7419
扎	-11.7419
緖	-11.7419
楷	-11.742
䯳	-11.742
哲	-11.742
盪	-11.742
朙	-11.7421
闢	-11.7421
禧	-11.7422
惮	-11.7422
謗	-11.7423
汞	-11.7423
擦	-11.7424
塟	-11.7424
迫	-11.7425
挐	-11.7425
竺	-11.7425
裵	-11.7426
莱	-11.7427
拉	-11.7428
渌	-11.7428
蒋	-11.7431
颻	-11.7432
勛	-11.7433
晶	-11.7738
鞘	-11.7755
祚	-11.7756
簽	-11.7758
檎	-11.7758
斈	-11.7758
涪	-11.7759
蠢	-11.776
郴	-11.776
詐	-11.7761
汐	-11.7761
肱	-11.7762
吝	-11.7762
䌓	-11.7762
徨	-11.7762
惚	-11.7763
僮	-11.7764
誣	-11.7765
叵	-11.7765
彬	-11.7765
聶	-11.7766
滉	-11.7766
槊	-11.7766
窅	-11.7766
沂	-11.7767
篠	-11.7767
龔	-11.7768
蚨	-11.7768
恃	-11.7769
傚	-11.7769
灝	-11.7769
噤	-11.777
彚	-11.777
咿	-11.777
瀆	-11.7773
頤	-11.7773
繹	-11.7774
煨	-11.7774
測	-11.7775
蕾	-11.7775
鍬	-11.7776
叨	-11.7776
壞	-11.7777
邃	-11.7777
瑛	-11.7778
尔	-11.8105
刁	-11.8106
稹	-11.8108
蒻	-11.811
霹	-11.8113
娑	-11.8114
笥	-11.8115
冉	-11.8115
氐	-11.8115
躔	-11.8116
晧	-11.8116
疋	-11.8117
琮	-11.8117
鞾	-11.8117
鯖	-11.8117
蕨	-11.8118
臈	-11.8118
顱	-11.8119
啖	-11.8119
碗	-11.8119
槍	-11.812
餚	-11.812
䆫	-11.8121
掙	-11.8121
宕	-11.8121
􁋍	-11.8122
匿	-11.8122
憇	-11.8122
鬰	-11.8122
㬰	-11.8123
豫	-11.8123
衿	-11.8124
𨽻	-11.8124
貰	-11.8124
遯	-11.8124
猫	-11.8124
滙	-11.8125
概	-11.8125
㨗	-11.8126
逾	-11.8127
㘽	-11.8127
寉	-11.8128
炫	-11.8128
褉	-11.8128
厓	-11.8129
衘	-11.813
蓀	-11.813
箸	-11.813
幛	-11.8131
鉏	-11.8133
贅	-11.8134
堠	-11.8135
撈	-11.8137
構	-11.8137
肇	-11.8464
茨	-11.8469
䔥	-11.8474
駛	-11.8474
偽	-11.8475
咬	-11.8477
䳌	-11.8477
礬	-11.848
僉	-11.8481
秩	-11.8484
喊	-11.8485
夥	-11.8485
訖	-11.8485
毁	-11.8486
搧	-11.8487
値	-11.8487
峡	-11.8488
韉	-11.8489
沫	-11.8489
莘	-11.849
圜	-11.8491
詎	-11.8492
騅	-11.8493
渦	-11.8493
沱	-11.8493
齁	-11.8494
睿	-11.8494
潼	-11.8494
紬	-11.8495
醋	-11.8495
擒	-11.8495
郤	-11.8495
搏	-11.8495
弊	-11.8496
琯	-11.8496
艣	-11.8497
穰	-11.8498
磵	-11.8498
戱	-11.8498
䆒	-11.85
裠	-11.85
匠	-11.8501
辞	-11.8502
廓	-11.8503
篔	-11.8503
耨	-11.8504
戛	-11.8505
攧	-11.8505
匆	-11.8508
滲	-11.8855
璨	-11.8858
畿	-11.8865
紜	-11.8867
槖	-11.8868
札	-11.8869
揎	-11.8869
偓	-11.887
尸	-11.8871
兜	-11.8872
抃	-11.8872
渥	-11.8872
猱	-11.8872
糞	-11.8872
靂	-11.8873
襍	-11.8873
閧	-11.8873
翮	-11.8873
伽	-11.8874
繍	-11.8874
儻	-11.8875
颩	-11.8875
鶉	-11.8875
緝	-11.8875
謟	-11.8875
轆	-11.8875
忪	-11.8876
鐃	-11.8877
揆	-11.8877
痒	-11.8878
寞	-11.8878
炕	-11.8878
鏖	-11.8879
菽	-11.8879
拊	-11.888
隕	-11.888
霆	-11.888
毹	-11.8881
樗	-11.8882
袞	-11.8882
徉	-11.8882
璈	-11.8883
胖	-11.8883
疵	-11.8884
罳	-11.8884
巍	-11.8885
薬	-11.8885
崕	-11.8886
僝	-11.8886
庻	-11.8887
缶	-11.8887
搵	-11.8887
􁦷	-11.8887
綜	-11.9256
萌	-11.9258
龕	-11.9265
崧	-11.9265
匙	-11.9265
腆	-11.9265
錬	-11.9266
璃	-11.9267
蠡	-11.9269
嫉	-11.9269
醮	-11.9269
燧	-11.927
佞	-11.927
崗	-11.927
滁	-11.927
釐	-11.927
椅	-11.9271
􁑶	-11.9271
鮹	-11.9272
筩	-11.9272
頺	-11.9273
幺	-11.9273
茍	-11.9274
桶	-11.9274
薊	-11.9274
皐	-11.9274
舂	-11.9274
倐	-11.9274
禀	-11.9274
傘	-11.9275
鄱	-11.9276
浯	-11.9277
哂	-11.9278
撿	-11.9279
轎	-11.9281
搂	-11.9282
柁	-11.9283
臼	-11.9284
旡	-11.9284
癖	-11.9285
䂓	-11.9285
旭	-11.9286
誼	-11.9286
閫	-11.9286
僽	-11.9286
蓄	-11.9286
贖	-11.9287
􁊨	-11.9287
訕	-11.9672
陜	-11.9672
瀨	-11.968
渲	-11.968
邴	-11.9681
甄	-11.9682
脊	-11.9682
嗜	-11.9682
唼	-11.9684
們	-11.9686
秫	-11.9686
鱖	-11.9686
旱	-11.9687
旂	-11.9687
騖	-11.9687
糚	-11.9688
爺	-11.9688
騫	-11.9688
泝	-11.9689
屍	-11.9689
椰	-11.969
虯	-11.969
妺	-11.969
鐶	-11.969
坤	-11.9691
嵇	-11.9691
撓	-11.9692
蔭	-11.9692
噐	-11.9692
俸	-11.9692
澘	-11.9693
塑	-11.9693
蝨	-11.9693
羹	-11.9694
赦	-11.9695
蕣	-11.9696
蕐	-11.9696
􁍇	-11.9697
捎	-11.9697
讎	-11.9699
曖	-11.97
鍊	-11.97
砥	-11.97
杷	-11.9702
仿	-11.9702
蜃	-11.9703
宼	-11.9704
汨	-11.9705
厺	-11.9705
圵	-11.9706
漙	-11.9709
譬	-11.9714
煬	-11.9722
什	-12.0106
蹔	-12.0106
陞	-12.0112
馴	-12.0119
磐	-12.0119
适	-12.0119
圏	-12.012
懂	-12.012
鑷	-12.012
牡	-12.0121
鍋	-12.0121
滂	-12.0121
璣	-12.0122
嬋	-12.0122
粳	-12.0122
犁	-12.0123
薌	-12.0125
燎	-12.0125
􁢡	-12.0125
韞	-12.0125
鄴	-12.0126
曩	-12.0127
婭	-12.0127
彀	-12.0127
攝	-12.0127
揄	-12.0128
曨	-12.0129
撧	-12.0129
析	-12.0129
蔫	-12.0129
咤	-12.0129
鸘	-12.013
葓	-12.013
弼	-12.0131
牟	-12.0131
遁	-12.0132
榼	-12.0133
爕	-12.0133
蓓	-12.0133
磁	-12.0134
㓗	-12.0135
姥	-12.0135
剝	-12.0135
颷	-12.0135
玷	-12.0136
迪	-12.0136
曦	-12.0137
聫	-12.0137
闥	-12.0137
欷	-12.0138
曷	-12.0138
鑼	-12.0138
鈐	-12.0139
楝	-12.014
𥚑	-12.014
噥	-12.0143
摻	-12.0143
厄	-12.0564
渝	-12.0564
勃	-12.0565
邇	-12.0568
呷	-12.0569
还	-12.057
遟	-12.0573
曬	-12.0573
瑠	-12.0575
鴦	-12.0576
徂	-12.0577
䖝	-12.0577
鬛	-12.0577
陷	-12.0577
䕷	-12.0577
偢	-12.0578
窨	-12.0578
纛	-12.0578
縑	-12.0578
峴	-12.0579
辝	-12.0579
嵯	-12.0579
薲	-12.0579
軺	-12.0579
鉞	-12.058
頷	-12.0581
螳	-12.0581
淆	-12.0581
􁬙	-12.0582
鬒	-12.0582
孕	-12.0583
瓔	-12.0583
晤	-12.0584
扈	-12.0584
樺	-12.0585
溯	-12.0585
麤	-12.0585
砍	-12.0586
爻	-12.0587
壼	-12.0587
租	-12.0588
㮣	-12.0588
躊	-12.0588
症	-12.0588
肢	-12.0588
綖	-12.0589
靆	-12.0589
楮	-12.059
歔	-12.0591
蘧	-12.0592
礪	-12.0593
膁	-12.0593
踵	-12.0595
辤	-12.0595
鸂	-12.0603
縝	-12.1033
税	-12.1034
変	-12.1036
卵	-12.1038
站	-12.1038
孏	-12.1039
舵	-12.1042
狄	-12.1044
喑	-12.1046
懨	-12.1046
芥	-12.1048
蜚	-12.1048
躅	-12.1048
棣	-12.1049
薑	-12.105
戮	-12.1051
喂	-12.1051
肴	-12.1051
馿	-12.1053
孌	-12.1053
罌	-12.1054
萃	-12.1055
尓	-12.1055
帬	-12.1055
駘	-12.1055
臚	-12.1055
禦	-12.1056
惨	-12.1056
嬙	-12.1056
舠	-12.1056
彝	-12.1056
榕	-12.1056
蠒	-12.1056
旒	-12.1057
秧	-12.1058
𥜗	-12.1058
鐫	-12.1058
幇	-12.1059
咒	-12.1059
槌	-12.1059
鍪	-12.1059
釂	-12.106
岧	-12.106
桁	-12.1061
蟄	-12.1061
揜	-12.1061
逥	-12.1062
􁎐	-12.1062
䑃	-12.1063
僵	-12.1063
蘺	-12.1064
轔	-12.1064
晒	-12.1064
淇	-12.1064
昴	-12.1065
㪯	-12.1066
迄	-12.1067
髠	-12.1068
頦	-12.1069
芍	-12.1071
葳	-12.1072
狡	-12.1072
蹺	-12.1074
藳	-12.1078
凮	-12.1523
􁞤	-12.1541
邢	-12.1542
迤	-12.1544
盾	-12.1546
㫤	-12.1546
瓘	-12.1546
裌	-12.1548
攄	-12.1548
姦	-12.155
琰	-12.155
􁊢	-12.1551
嚇	-12.1551
錠	-12.1552
䦰	-12.1552
黠	-12.1553
竽	-12.1553
璉	-12.1553
骰	-12.1554
嗊	-12.1554
専	-12.1555
捍	-12.1555
璹	-12.1555
曜	-12.1555
嘔	-12.1556
凑	-12.1556
妆	-12.1556
螂	-12.1556
殻	-12.1557
刃	-12.1558
隼	-12.1558
篴	-12.1559
跎	-12.1559
湿	-12.1559
坰	-12.156
饈	-12.1562
揶	-12.1562
浹	-12.1562
刊	-12.1562
䙝	-12.1563
掐	-12.1563
碣	-12.1564
紞	-12.1565
鰕	-12.1566
粮	-12.1568
鼂	-12.1568
柝	-12.1568
畜	-12.1568
趋	-12.1569
䆳	-12.1569
摠	-12.1572
响	-12.1573
畣	-12.1573
闉	-12.1574
脗	-12.1574
弃	-12.1575
貺	-12.1584
蹉	-12.2052
廕	-12.2063
葯	-12.2064
湜	-12.2069
窘	-12.2069
茱	-12.2069
縳	-12.207
杲	-12.2071
溥	-12.2072
睜	-12.2072
觔	-12.2072
翬	-12.2073
觱	-12.2073
睃	-12.2076
瀼	-12.2076
牘	-12.2077
甎	-12.2077
猪	-12.2077
闇	-12.2078
冢	-12.2078
􁳊	-12.2081
唫	-12.2082
幟	-12.2082
叧	-12.2082
纘	-12.2082
㓂	-12.2083
芻	-12.2084
劎	-12.2084
崎	-12.2084
琦	-12.2084
酴	-12.2085
滹	-12.2085
瘁	-12.2085
嘻	-12.2086
鼕	-12.2086
媽	-12.2086
芡	-12.2086
薨	-12.2086
璟	-12.2087
毶	-12.2087
凜	-12.2087
鬪	-12.2088
豳	-12.2089
􁁅	-12.209
􁂨	-12.209
尢	-12.209
俫	-12.2091
壌	-12.2092
劳	-12.2092
㗸	-12.2093
􁵨	-12.2094
瓌	-12.2094
皚	-12.2095
戞	-12.2095
縉	-12.2097
誑	-12.2097
聦	-12.2097
粤	-12.2099
赱	-12.21
傖	-12.2102
盱	-12.2103
澑	-12.2112
烛	-12.2612
恙	-12.2614
隹	-12.2616
灵	-12.2617
汁	-12.2617
栂	-12.2621
豸	-12.2622
毘	-12.2624
骸	-12.2625
羶	-12.2627
媪	-12.2628
穢	-12.2629
赸	-12.263
雱	-12.263
瘢	-12.263
䜟	-12.263
猧	-12.263
內	-12.2631
濩	-12.2632
亝	-12.2632
寘	-12.2632
駱	-12.2633
寤	-12.2633
惆	-12.2633
蓂	-12.2633
嘘	-12.2633
裒	-12.2634
蚓	-12.2634
甑	-12.2635
渙	-12.2635
刎	-12.2635
籐	-12.2635
忔	-12.2636
諠	-12.2636
旄	-12.2636
惇	-12.2637
尭	-12.2637
級	-12.2637
籞	-12.2638
凶	-12.2639
􁈍	-12.2639
貔	-12.264
謌	-12.264
穂	-12.264
舀	-12.264
趺	-12.264
泱	-12.2641
憫	-12.2641
哏	-12.2641
􁁉	-12.2641
咭	-12.2643
盹	-12.2643
牥	-12.2644
藂	-12.2644
鞲	-12.2644
璵	-12.2644
躁	-12.2644
虐	-12.2644
繆	-12.2645
摑	-12.2645
閟	-12.2645
䪨	-12.2646
醥	-12.2646
廸	-12.2646
侮	-12.2646
磔	-12.2647
鏃	-12.2648
㕑	-12.2648
寬	-12.2648
胆	-12.2648
孽	-12.2648
蜍	-12.2649
桄	-12.2649
頳	-12.2649
炮	-12.2649
琊	-12.2649
瀚	-12.2649
姫	-12.265
砲	-12.265
緲	-12.265
飣	-12.265
蒱	-12.2651
鬯	-12.2651
叛	-12.2651
巗	-12.2655
搥	-12.2655
蓛	-12.2656
髫	-12.2656
怊	-12.2656
閽	-12.2658
撤	-12.2658
劵	-12.2661
鷥	-12.2663
詆	-12.3193
蓺	-12.3203
蹕	-12.3208
荃	-12.3209
紂	-12.3212
鎬	-12.3212
弋	-12.3213
篥	-12.3214
􁢒	-12.3215
瓠	-12.3215
衩	-12.3216
摵	-12.3217
䧺	-12.3217
盍	-12.3218
憚	-12.3218
勍	-12.3219
犇	-12.3221
姸	-12.3222
肋	-12.3222
秤	-12.3222
鏑	-12.3223
澠	-12.3225
亳	-12.3225
輻	-12.3225
鞠	-12.3225
􁅳	-12.3226
艘	-12.3227
潞	-12.3227
奥	-12.3227
儷	-12.3228
翺	-12.3229
弯	-12.3229
牗	-12.3229
忝	-12.323
膊	-12.323
爹	-12.323
捺	-12.3231
覰	-12.3231
爨	-12.3231
圉	-12.3232
巔	-12.3232
鵪	-12.3232
歈	-12.3232
橛	-12.3232
鯽	-12.3233
踼	-12.3233
軼	-12.3233
庒	-12.3234
絞	-12.3235
糠	-12.3236
躰	-12.3237
坵	-12.3238
篸	-12.3238
殃	-12.3238
湾	-12.3239
㱔	-12.3239
􁁶	-12.3242
伬	-12.3243
搃	-12.3243
酢	-12.3244
叮	-12.3245
翃	-12.3246
猾	-12.3246
㩀	-12.3246
抝	-12.3248
哢	-12.3249
􁚐	-12.326
奶	-12.3261
鬻	-12.3812
鴆	-12.3822
昊	-12.3827
鎧	-12.3827
洙	-12.3828
盔	-12.3835
涓	-12.3837
汜	-12.3837
鵓	-12.3838
睦	-12.3839
𪷟	-12.3839
緡	-12.384
𡵨	-12.384
盜	-12.3841
繳	-12.3841
滇	-12.3842
䰅	-12.3842
黼	-12.3842
肓	-12.3842
蚊	-12.3843
泖	-12.3844
猥	-12.3845
罔	-12.3846
慾	-12.3846
邕	-12.3847
奨	-12.3848
奄	-12.3848
雹	-12.3848
屣	-12.3849
沛	-12.3849
寔	-12.3849
貍	-12.385
耻	-12.3851
鷖	-12.3851
襜	-12.3851
璽	-12.3851
畊	-12.3852
埜	-12.3852
螻	-12.3852
𧺫	-12.3852
􁢤	-12.3852
釡	-12.3853
黦	-12.3853
諢	-12.3853
頹	-12.3854
𦵏	-12.3854
亢	-12.3854
燻	-12.3854
墩	-12.3855
畞	-12.3855
稅	-12.3855
萧	-12.3855
緻	-12.3856
羌	-12.3856
邏	-12.3856
􁳼	-12.3857
袜	-12.3857
蘢	-12.3857
頡	-12.3857
垜	-12.3858
慟	-12.3858
皃	-12.3858
鷫	-12.3859
澈	-12.3859
􁑰	-12.3859
􁮻	-12.3859
槅	-12.3859
狩	-12.3859
莾	-12.386
豕	-12.3861
釚	-12.3861
輈	-12.3862
輥	-12.3863
媧	-12.3863
霾	-12.3864
歊	-12.3864
冇	-12.3865
楨	-12.3865
潇	-12.3866
翌	-12.3867
蜺	-12.3869
朴	-12.387
簘	-12.387
䳵	-12.387
蛄	-12.3872
㙜	-12.3875
謖	-12.3877
迦	-12.3877
晻	-12.4472
鎚	-12.449
讒	-12.4494
閔	-12.4496
艦	-12.4496
鋭	-12.4498
膳	-12.45
斉	-12.4501
筞	-12.4505
獬	-12.4505
亘	-12.4505
肎	-12.4505
瀘	-12.4507
侃	-12.4507
㷼	-12.4508
鷲	-12.4509
疲	-12.4509
馗	-12.4509
趾	-12.451
拿	-12.451
妮	-12.451
挣	-12.451
枻	-12.451
猴	-12.451
礴	-12.4511
郜	-12.4511
綆	-12.4511
㝢	-12.4511
胃	-12.4511
迯	-12.4511
弭	-12.4512
酩	-12.4512
蜘	-12.4512
逶	-12.4513
榦	-12.4513
哺	-12.4514
蛆	-12.4514
舶	-12.4515
儺	-12.4515
胯	-12.4515
企	-12.4516
醲	-12.4516
呸	-12.4516
爰	-12.4516
胞	-12.4516
雩	-12.4517
豉	-12.4517
慥	-12.4517
陲	-12.4519
糯	-12.4519
圯	-12.452
暨	-12.4521
􁂬	-12.4521
洧	-12.4521
􁂗	-12.4522
罾	-12.4522
茟	-12.4522
剏	-12.4522
瀹	-12.4522
恤	-12.4522
鋸	-12.4522
塚	-12.4523
柚	-12.4523
摛	-12.4523
獺	-12.4523
鉦	-12.4525
匾	-12.4525
廡	-12.4526
棉	-12.4526
墊	-12.4526
呑	-12.4526
梔	-12.4527
聾	-12.4528
窖	-12.4528
糓	-12.4529
荣	-12.4529
苖	-12.4529
蔚	-12.453
緬	-12.453
沍	-12.453
丼	-12.453
斐	-12.453
幬	-12.4531
繙	-12.4531
􁄑	-12.4531
澱	-12.4532
昶	-12.4532
苓	-12.4532
嶮	-12.4532
𢷬	-12.4533
倀	-12.4534
弧	-12.4534
亾	-12.4535
愡	-12.4535
徭	-12.4536
豺	-12.4537
实	-12.4537
沅	-12.4538
璠	-12.4542
𠂻	-12.4544
沮	-12.4546
嗷	-12.4558
脞	-12.4577
􁁜	-12.5151
甓	-12.5187
咍	-12.5204
釁	-12.5206
漵	-12.5212
懇	-12.5213
孛	-12.5219
菟	-12.522
亹	-12.522
鷃	-12.5221
芾	-12.5221
狸	-12.5221
薤	-12.5221
燥	-12.5223
屡	-12.5224
癭	-12.5224
閴	-12.5225
舖	-12.5226
迁	-12.5226
嵳	-12.5227
婪	-12.5228
玫	-12.5228
泡	-12.5228
桴	-12.5228
旻	-12.5228
濮	-12.5229
劾	-12.523
鳧	-12.523
諦	-12.523
詭	-12.523
咂	-12.523
鍔	-12.523
㤗	-12.5232
毯	-12.5232
袢	-12.5232
偁	-12.5232
靳	-12.5232
冣	-12.5232
亰	-12.5233
瀬	-12.5233
藐	-12.5233
璋	-12.5234
祟	-12.5234
􂀞	-12.5235
嫺	-12.5236
覉	-12.5236
愬	-12.5237
祜	-12.5237
諄	-12.5238
捴	-12.5238
蘃	-12.5238
襞	-12.5238
遑	-12.5238
糜	-12.5239
袒	-12.5239
估	-12.5239
鸕	-12.524
变	-12.5241
矁	-12.5241
鼯	-12.5241
杞	-12.5242
偌	-12.5242
籀	-12.5242
燔	-12.5242
匪	-12.5242
珉	-12.5243
飼	-12.5243
摽	-12.5243
酎	-12.5243
艎	-12.5243
𬎼	-12.5244
据	-12.5245
倬	-12.5245
凸	-12.5246
紱	-12.5246
譯	-12.5246
鯢	-12.5246
嚶	-12.5247
俶	-12.5247
酤	-12.5248
曝	-12.5248
鶄	-12.5249
臻	-12.525
縂	-12.5252
縧	-12.5254
覈	-12.5257
猒	-12.5967
疃	-12.5971
夤	-12.5972
唆	-12.5979
傭	-12.5982
䁀	-12.5984
荄	-12.5987
賄	-12.5987
鰥	-12.5987
濳	-12.5988
騏	-12.5989
軌	-12.5989
育	-12.599
嫗	-12.599
譍	-12.5992
皴	-12.5992
氲	-12.5992
蝕	-12.5992
醍	-12.5993
剉	-12.5993
号	-12.5993
删	-12.5994
兊	-12.5994
柂	-12.5995
驃	-12.5995
僑	-12.5995
翕	-12.5996
嚙	-12.5996
奬	-12.5996
屩	-12.5996
醐	-12.5997
劬	-12.5997
彷	-12.5998
刹	-12.5998
滛	-12.5999
茒	-12.5999
謅	-12.5999
騙	-12.5999
屹	-12.6
購	-12.6
棺	-12.6001
彰	-12.6002
闖	-12.6003
繖	-12.6003
喔	-12.6003
牓	-12.6004
距	-12.6004
􁩉	-12.6004
飱	-12.6005
臊	-12.6005
蝎	-12.6006
攫	-12.6006
僛	-12.6006
懃	-12.6007
嶰	-12.6007
蹲	-12.6008
琬	-12.6009
凘	-12.6009
顒	-12.601
扺	-12.6013
礎	-12.6013
尫	-12.6014
戢	-12.6015
矧	-12.6015
努	-12.6016
摯	-12.6017
塌	-12.6018
繅	-12.6021
兇	-12.6022
殽	-12.6023
瀏	-12.6028
硃	-12.603
郝	-12.6031
晌	-12.6776
跖	-12.6803
誘	-12.6805
渊	-12.6808
鸛	-12.6812
鬌	-12.6813
廨	-12.6813
仔	-12.6814
囷	-12.6814
㸑	-12.6815
𡨕	-12.6815
崆	-12.6817
墖	-12.6817
嚐	-12.6817
毳	-12.6818
尿	-12.6818
滾	-12.6819
懴	-12.682
茹	-12.682
祉	-12.682
勅	-12.682
銑	-12.6821
囿	-12.6821
嶔	-12.6821
譴	-12.6821
媸	-12.6821
圑	-12.6822
罟	-12.6822
琵	-12.6822
殉	-12.6822
愆	-12.6824
筌	-12.6825
蛤	-12.6826
嵋	-12.6827
睹	-12.6827
枋	-12.6828
峒	-12.6828
鏟	-12.6828
閎	-12.6829
蒯	-12.683
嶷	-12.683
乩	-12.683
晡	-12.6831
轄	-12.6832
枒	-12.6832
締	-12.6832
徬	-12.6832
湫	-12.6832
妤	-12.6832
珙	-12.6832
怱	-12.6833
熾	-12.6833
饅	-12.6833
匕	-12.6833
斡	-12.6833
翊	-12.6834
箒	-12.6835
顇	-12.6835
耦	-12.6836
夹	-12.6836
需	-12.6836
禂	-12.6837
炳	-12.6837
沌	-12.6838
侈	-12.6838
蝗	-12.6839
茁	-12.6839
怳	-12.6839
尀	-12.684
拶	-12.684
孱	-12.684
櫪	-12.6841
㕓	-12.6841
棍	-12.6841
蝣	-12.6841
謄	-12.6842
虢	-12.6842
楶	-12.6843
瘡	-12.6843
䍦	-12.6843
蠆	-12.6844
嚨	-12.6844
澧	-12.6844
鍳	-12.6845
􁏫	-12.6845
藪	-12.6846
訢	-12.6846
鴣	-12.6847
艫	-12.6847
翟	-12.6847
礫	-12.6848
殄	-12.6848
靶	-12.6848
颼	-12.6848
菂	-12.6849
頬	-12.6849
盲	-12.685
箧	-12.6851
摴	-12.6853
攴	-12.6853
届	-12.6854
噱	-12.6855
夸	-12.6856
蜩	-12.6857
惬	-12.6857
遹	-12.6857
术	-12.6857
䜛	-12.6857
艮	-12.6857
搠	-12.6859
沔	-12.686
褃	-12.6862
遒	-12.6863
鍚	-12.6865
蓍	-12.6866
【	-12.768
澂	-12.77
楠	-12.7708
逵	-12.7713
佃	-12.7714
暾	-12.7715
喇	-12.7716
殁	-12.7717
堰	-12.7718
逩	-12.7719
蜿	-12.7719
塤	-12.772
笈	-12.7721
偹	-12.7722
渤	-12.7722
撁	-12.7722
跗	-12.7723
覘	-12.7724
墉	-12.7724
􁬁	-12.7724
軻	-12.7725
残	-12.7726
趲	-12.7726
僣	-12.7726
盥	-12.7726
袤	-12.7727
葫	-12.7727
麪	-12.7727
驤	-12.7728
宥	-12.7729
腫	-12.7729
袈	-12.773
遛	-12.7731
痼	-12.7731
􁒷	-12.7731
裟	-12.7732
迺	-12.7734
糴	-12.7734
矻	-12.7735
驩	-12.7735
搢	-12.7736
嗓	-12.7736
弥	-12.7736
薖	-12.7737
鈚	-12.7738
㢲	-12.7738
蒭	-12.7739
兕	-12.7739
雒	-12.7739
竪	-12.774
獐	-12.7741
捋	-12.7741
栞	-12.7741
綢	-12.7741
迱	-12.7741
窵	-12.7741
欎	-12.7741
邠	-12.7741
麖	-12.7743
刈	-12.7743
􁦸	-12.7743
刳	-12.7743
脛	-12.7744
旃	-12.7744
幀	-12.7745
彪	-12.7745
忭	-12.7746
撕	-12.7746
孥	-12.7746
鶒	-12.7746
迨	-12.7747
詼	-12.7748
溷	-12.7748
擫	-12.7748
茲	-12.7749
袪	-12.7749
瓈	-12.7749
䲭	-12.7749
洵	-12.7751
髏	-12.7751
驑	-12.7751
媾	-12.7751
籪	-12.7751
貸	-12.7752
醞	-12.7752
濬	-12.7752
𬞞	-12.7752
酕	-12.7753
涸	-12.7753
窑	-12.7753
䓤	-12.7753
叡	-12.7753
笞	-12.7753
䁔	-12.7753
螓	-12.7753
菖	-12.7753
擗	-12.7754
筲	-12.7754
猖	-12.7754
碪	-12.7754
蜉	-12.7755
苟	-12.7755
籛	-12.7755
鯤	-12.7756
惓	-12.7756
笆	-12.7757
籮	-12.7757
陬	-12.7758
惘	-12.7758
眶	-12.7759
霙	-12.776
搘	-12.776
蝤	-12.776
幷	-12.776
娣	-12.7761
藿	-12.7761
边	-12.7761
喏	-12.7762
侔	-12.7763
艖	-12.7763
扒	-12.7764
洄	-12.7764
𬈑	-12.7764
嵒	-12.7764
俘	-12.7767
睠	-12.7767
竆	-12.8689
琛	-12.8706
菅	-12.8717
燁	-12.8718
殞	-12.8723
蝟	-12.8723
蘖	-12.8724
闡	-12.8724
儋	-12.8724
嵎	-12.8724
蝠	-12.8724
贑	-12.8725
鄞	-12.8725
嗑	-12.8725
蛉	-12.8726
跧	-12.8727
崈	-12.8728
哇	-12.8729
泌	-12.8731
皈	-12.8731
嗹	-12.8731
蜒	-12.8732
詮	-12.8732
雇	-12.8732
掿	-12.8733
槧	-12.8733
鴇	-12.8733
􁊬	-12.8733
琨	-12.8733
偈	-12.8734
糕	-12.8734
蹌	-12.8734
庖	-12.8734
灕	-12.8735
玠	-12.8736
隲	-12.8736
庇	-12.8736
坂	-12.8737
躧	-12.8737
潸	-12.8738
筮	-12.8738
軛	-12.8738
萁	-12.8738
黜	-12.8739
葷	-12.8739
煇	-12.874
賁	-12.874
酃	-12.8741
騕	-12.8741
问	-12.8741
醯	-12.8741
鞅	-12.8741
燾	-12.8742
􁅔	-12.8742
嬷	-12.8743
緉	-12.8743
愫	-12.8743
鞦	-12.8743
櫛	-12.8744
雰	-12.8744
廹	-12.8744
啁	-12.8744
䧏	-12.8744
愷	-12.8744
帢	-12.8744
嗤	-12.8745
稲	-12.8745
愰	-12.8745
壕	-12.8745
趍	-12.8745
滓	-12.8745
㷔	-12.8746
蘊	-12.8746
殤	-12.8746
茭	-12.8746
蔔	-12.8746
脈	-12.8747
俙	-12.8747
喋	-12.8747
袷	-12.8748
灎	-12.8748
駈	-12.8748
烝	-12.8748
埒	-12.8748
玖	-12.8748
㫄	-12.8749
鮓	-12.8749
崚	-12.875
咷	-12.875
丐	-12.875
眨	-12.875
歕	-12.8751
蚌	-12.8751
沬	-12.8751
簹	-12.8751
頏	-12.8751
枵	-12.8752
孜	-12.8752
垤	-12.8752
贛	-12.8752
蟒	-12.8752
糲	-12.8753
悌	-12.8754
噲	-12.8754
黟	-12.8754
厠	-12.8754
磈	-12.8755
侠	-12.8756
箎	-12.8756
跑	-12.8757
弘	-12.8757
翀	-12.8758
睥	-12.8758
藎	-12.8758
间	-12.8759
嬢	-12.8759
毡	-12.876
蝀	-12.8761
䢴	-12.8761
貲	-12.8761
蝇	-12.8762
笊	-12.8762
歧	-12.8763
癢	-12.8765
鞴	-12.8766
懌	-12.8766
澷	-12.8772
旎	-12.9805
騾	-12.9807
苛	-12.9814
幞	-12.9821
廩	-12.9821
跛	-12.9825
譔	-12.9827
庐	-12.9829
跚	-12.9829
蜾	-12.9834
璜	-12.9834
殫	-12.9834
螟	-12.9834
咀	-12.9837
鴂	-12.9837
𧖟	-12.9837
难	-12.9837
戾	-12.9838
甬	-12.9838
􁸲	-12.9838
枷	-12.9839
抓	-12.984
懣	-12.9841
斸	-12.9841
鈕	-12.9841
絺	-12.9842
篪	-12.9843
鼈	-12.9843
罡	-12.9843
晷	-12.9844
惰	-12.9844
塍	-12.9844
孀	-12.9845
鍤	-12.9845
柵	-12.9845
捩	-12.9845
壟	-12.9845
鹵	-12.9846
勵	-12.9846
楯	-12.9846
羆	-12.9846
剽	-12.9846
賃	-12.9847
輛	-12.9847
圇	-12.9847
𦕈	-12.9847
辣	-12.9848
淛	-12.9848
綂	-12.9848
䯻	-12.9848
燐	-12.9848
懦	-12.9849
醃	-12.9849
齧	-12.9849
縢	-12.9849
桔	-12.9849
玲	-12.9849
蓽	-12.985
箵	-12.985
祺	-12.985
亀	-12.9851
窪	-12.9851
饗	-12.9851
臠	-12.9852
伉	-12.9852
懾	-12.9852
􁈋	-12.9852
腳	-12.9852
濂	-12.9853
矟	-12.9853
捏	-12.9853
廼	-12.9853
鞬	-12.9853
䰗	-12.9853
擄	-12.9854
鰐	-12.9854
剮	-12.9855
幈	-12.9856
􁫣	-12.9856
姒	-12.9856
鵒	-12.9856
哮	-12.9857
璿	-12.9857
蕢	-12.9857
营	-12.9857
构	-12.9857
􁏏	-12.9857
笭	-12.9858
亜	-12.9858
䣃	-12.9859
諍	-12.986
箫	-12.986
悸	-12.986
紕	-12.986
韝	-12.986
湟	-12.986
槲	-12.9861
湊	-12.9861
型	-12.9861
劑	-12.9861
瓓	-12.9862
瓷	-12.9862
褓	-12.9863
滸	-12.9863
賂	-12.9863
歗	-12.9863
穟	-12.9863
涌	-12.9864
齎	-12.9864
􁐻	-12.9864
售	-12.9865
萎	-12.9865
殂	-12.9865
敖	-12.9866
縚	-12.9866
吭	-12.9867
犖	-12.9867
祬	-12.9867
袱	-12.9867
愇	-12.9868
昜	-12.9869
晰	-12.9872
稗	-12.9873
噉	-12.9873
鋩	-12.9873
鼪	-12.9876
炧	-12.9876
琉	-12.9877
靸	-12.9877
沓	-12.9877
洺	-12.988
鏦	-12.988
烬	-12.9881
睚	-12.9883
芟	-12.9883
餙	-12.9884
忑	-12.9886
惧	-12.9888
抒	-12.989
袵	-12.9898
䟱	-12.9907
擐	-13.1032
黥	-13.1047
珣	-13.107
亶	-13.107
僖	-13.1071
淝	-13.1073
鼾	-13.1075
坷	-13.1077
摰	-13.1077
殯	-13.1079
蠃	-13.1079
涘	-13.1079
斁	-13.1084
鉸	-13.1084
豎	-13.1084
矰	-13.1084
劖	-13.1084
畛	-13.1085
灤	-13.1086
箠	-13.1086
慍	-13.1087
餽	-13.1087
祲	-13.1087
㘅	-13.1088
銚	-13.1088
鱉	-13.1088
势	-13.1088
舲	-13.1089
趷	-13.109
澇	-13.109
硎	-13.1091
鋟	-13.1091
桿	-13.1091
鴟	-13.1091
媻	-13.1091
璘	-13.1092
苍	-13.1092
凂	-13.1093
姆	-13.1093
卻	-13.1093
楣	-13.1093
綈	-13.1094
嚏	-13.1094
􁩊	-13.1094
嶢	-13.1094
俜	-13.1094
眊	-13.1094
歙	-13.1094
嵘	-13.1095
瞎	-13.1096
祛	-13.1096
抬	-13.1097
棨	-13.1097
犗	-13.1097
苣	-13.1098
瑚	-13.1099
靛	-13.1099
鴒	-13.11
櫜	-13.11
吚	-13.1101
枳	-13.1101
魅	-13.1101
疁	-13.1101
縆	-13.1101
蠲	-13.1102
鯿	-13.1102
𢾗	-13.1102
禺	-13.1102
汶	-13.1102
㵄	-13.1102
蟣	-13.1103
桅	-13.1103
嚎	-13.1104
聃	-13.1104
倭	-13.1105
蚪	-13.1105
壅	-13.1105
眵	-13.1106
丨	-13.1107
𠻳	-13.1107
拯	-13.1107
閘	-13.1107
冺	-13.1107
鑊	-13.1108
螘	-13.1108
默	-13.1108
紓	-13.1109
嶒	-13.1109
􁎘	-13.111
鬔	-13.111
襶	-13.1111
孳	-13.1111
吒	-13.1111
箴	-13.1111
鼍	-13.1111
媵	-13.1111
憮	-13.1111
褦	-13.1111
糁	-13.1112
咫	-13.1112
睞	-13.1113
罹	-13.1114
袚	-13.1114
埭	-13.1114
醤	-13.1114
澦	-13.1115
㦲	-13.1115
髼	-13.1115
蒐	-13.1116
歜	-13.1116
侗	-13.1116
怠	-13.1117
貊	-13.1117
刅	-13.1117
蹶	-13.1117
■	-13.1118
鏞	-13.1118
􁋆	-13.1118
螀	-13.1119
洮	-13.112
跂	-13.112
闲	-13.112
黝	-13.112
􁑭	-13.112
璁	-13.1122
溍	-13.1122
瞋	-13.1123
噹	-13.1124
抅	-13.1125
茉	-13.1126
遘	-13.1127
秔	-13.113
㢠	-13.113
僞	-13.1131
麵	-13.1131
濘	-13.1131
剌	-13.1132
蓿	-13.1133
刦	-13.1135
􁏳	-13.1135
茯	-13.1135
骷	-13.1138
闍	-13.1139
獪	-13.1139
􁕖	-13.1172
杆	-13.2202
翡	-13.2459
岏	-13.2459
桷	-13.2489
猻	-13.2493
袄	-13.2495
飫	-13.2497
奐	-13.2498
痊	-13.2501
鴿	-13.2501
鰾	-13.2501
醿	-13.2503
蕯	-13.2504
园	-13.2504
堊	-13.2505
騑	-13.2505
杴	-13.2506
顕	-13.2507
甦	-13.2508
㮚	-13.2508
愍	-13.2509
歆	-13.251
鯫	-13.2511
巽	-13.2512
曄	-13.2512
贋	-13.2513
毗	-13.2513
疚	-13.2513
冡	-13.2514
湲	-13.2514
鄜	-13.2514
鷴	-13.2514
歉	-13.2514
􁗒	-13.2515
魲	-13.2515
甖	-13.2515
氓	-13.2516
礶	-13.2516
彜	-13.2516
棖	-13.2517
􁔡	-13.2518
𦦨	-13.2518
礼	-13.2518
淄	-13.2518
瞭	-13.2518
豌	-13.2519
沲	-13.2519
撻	-13.252
簏	-13.252
罽	-13.252
喟	-13.252
㖔	-13.252
薗	-13.2521
泒	-13.2522
韮	-13.2522
裨	-13.2522
樅	-13.2522
覯	-13.2523
蔑	-13.2523
鬃	-13.2524
麩	-13.2524
烙	-13.2525
爬	-13.2525
刄	-13.2525
轓	-13.2526
隧	-13.2526
婕	-13.2526
僭	-13.2526
誨	-13.2526
彘	-13.2527
滎	-13.2527
篭	-13.2527
棼	-13.2527
鍍	-13.2527
閠	-13.2527
麐	-13.2527
饀	-13.2528
岱	-13.2529
嫓	-13.2529
藺	-13.2529
扢	-13.2529
暪	-13.253
球	-13.253
夐	-13.253
筴	-13.253
髑	-13.253
譎	-13.253
鶘	-13.2531
鶺	-13.2531
栱	-13.2531
𠺕	-13.2531
虵	-13.2532
幫	-13.2533
㳽	-13.2533
隸	-13.2533
饋	-13.2533
鬘	-13.2533
燮	-13.2534
潰	-13.2534
耰	-13.2534
炤	-13.2535
咮	-13.2535
􁋚	-13.2535
鷓	-13.2535
汰	-13.2535
㛰	-13.2536
徇	-13.2536
莉	-13.2536
慊	-13.2537
毀	-13.2537
戧	-13.2537
坳	-13.2537
㼭	-13.2538
縟	-13.2538
襇	-13.2538
錡	-13.2539
禇	-13.254
㴞	-13.254
矱	-13.254
􁭤	-13.2541
盏	-13.2541
殖	-13.2542
垞	-13.2542
鎪	-13.2542
眎	-13.2542
钁	-13.2542
沚	-13.2542
脹	-13.2542
瀕	-13.2542
膘	-13.2543
餔	-13.2543
份	-13.2544
􁰽	-13.2544
浚	-13.2544
劲	-13.2545
窊	-13.2545
蔾	-13.2545
萹	-13.2545
砭	-13.2545
鎰	-13.2545
懲	-13.2546
姍	-13.2546
撗	-13.2546
㠯	-13.2547
􁊭	-13.2547
唏	-13.2547
㳟	-13.2547
搨	-13.2548
剷	-13.2548
􁐨	-13.2548
䛏	-13.2549
畸	-13.2549
斵	-13.255
媟	-13.255
羝	-13.2551
騒	-13.2551
獰	-13.2551
耙	-13.2551
窰	-13.2552
劄	-13.2552
鰣	-13.2552
昃	-13.2552
篦	-13.2552
髀	-13.2553
䔧	-13.2553
脰	-13.2554
柿	-13.2555
勑	-13.2555
䀨	-13.2556
鏇	-13.2557
揲	-13.2558
倏	-13.2559
椶	-13.256
梟	-13.256
啅	-13.256
􁄪	-13.2563
聱	-13.2565
撦	-13.2569
伺	-13.2576
閆	-13.2577
剙	-13.2578
橇	-13.2579
赬	-13.2579
偲	-13.2589
愐	-13.4098
忱	-13.4121
倥	-13.4126
潺	-13.4142
洤	-13.4148
臧	-13.415
淰	-13.4159
柩	-13.4161
龐	-13.4163
紡	-13.4163
鑱	-13.4165
热	-13.4165
飴	-13.4166
輓	-13.4168
􁸠	-13.4168
檏	-13.4168
屎	-13.4168
稊	-13.4169
黿	-13.417
虽	-13.417
褵	-13.417
唵	-13.4171
皥	-13.4172
哿	-13.4172
嬸	-13.4172
􁁻	-13.4173
嬖	-13.4174
徼	-13.4174
㳂	-13.4174
薿	-13.4174
懆	-13.4175
氤	-13.4175
㮄	-13.4175
賫	-13.4175
磋	-13.4176
簍	-13.4176
絍	-13.4177
鐔	-13.4177
跣	-13.4178
飩	-13.4178
甯	-13.4178
晫	-13.4179
庿	-13.4179
囙	-13.4179
莬	-13.418
辮	-13.418
娠	-13.4181
歿	-13.4181
瘳	-13.4181
髽	-13.4181
蚿	-13.4181
噭	-13.4182
虫	-13.4182
􁯤	-13.4182
捶	-13.4183
􁦲	-13.4183
銳	-13.4183
橰	-13.4183
顗	-13.4184
銛	-13.4184
霪	-13.4184
嘏	-13.4184
稭	-13.4184
薏	-13.4184
𦙍	-13.4184
􁄀	-13.4185
訥	-13.4185
膂	-13.4185
狷	-13.4186
鰍	-13.4186
狽	-13.4186
涅	-13.4187
瓴	-13.4187
穽	-13.4187
踉	-13.4187
䦘	-13.4187
嘷	-13.4187
唓	-13.4188
漭	-13.4188
噆	-13.4189
輜	-13.4189
隷	-13.4189
攖	-13.4189
㯭	-13.4189
咆	-13.419
㽜	-13.4191
摳	-13.4191
魘	-13.4192
罐	-13.4193
跐	-13.4193
鷰	-13.4193
閹	-13.4194
蠱	-13.4194
膨	-13.4194
隃	-13.4194
鄔	-13.4195
諺	-13.4195
蕕	-13.4195
揝	-13.4195
覡	-13.4197
悱	-13.4197
猨	-13.4197
麼	-13.4197
絣	-13.4197
鯁	-13.4197
継	-13.4197
譟	-13.4198
樟	-13.4199
􁗀	-13.4199
阑	-13.4199
倸	-13.42
􁝴	-13.42
䗫	-13.42
簥	-13.42
蛬	-13.42
拷	-13.42
芘	-13.42
㟳	-13.4201
濾	-13.4201
笴	-13.4201
綏	-13.4202
蓧	-13.4202
咶	-13.4202
枮	-13.4202
㷱	-13.4203
􁑱	-13.4203
滏	-13.4203
颶	-13.4203
朣	-13.4203
􁵉	-13.4204
勳	-13.4204
碭	-13.4204
曚	-13.4204
仆	-13.4205
欤	-13.4205
葑	-13.4205
洎	-13.4205
菉	-13.4206
㝛	-13.4206
㳤	-13.4206
谺	-13.4207
缕	-13.4207
眯	-13.4208
涿	-13.4208
瀋	-13.4208
擋	-13.4208
瞤	-13.4208
瓤	-13.4208
䜴	-13.4209
趖	-13.4209
餻	-13.4209
􁉤	-13.4209
䨓	-13.4209
圚	-13.4209
屇	-13.4209
纇	-13.4209
楙	-13.421
鶵	-13.4211
硜	-13.4211
匱	-13.4211
抉	-13.4211
靦	-13.4212
枣	-13.4212
劚	-13.4212
薝	-13.4212
袙	-13.4212
瘠	-13.4212
恪	-13.4212
婵	-13.4212
綳	-13.4213
宓	-13.4213
瘐	-13.4213
誡	-13.4213
斌	-13.4214
䄡	-13.4215
瀁	-13.4215
稡	-13.4215
陔	-13.4216
悖	-13.4216
桀	-13.4216
蚩	-13.4217
仭	-13.4217
毉	-13.4217
髹	-13.4218
朂	-13.4218
􁏠	-13.4219
脇	-13.4219
綯	-13.422
瀠	-13.422
桯	-13.422
棱	-13.422
菌	-13.422
儍	-13.4221
絰	-13.4221
蘩	-13.4221
兖	-13.4221
蛸	-13.4221
鍜	-13.4221
矍	-13.4221
旹	-13.4222
醎	-13.4222
腷	-13.4222
戡	-13.4223
凳	-13.4223
眙	-13.4223
緼	-13.4224
挱	-13.4225
􁶋	-13.4225
佻	-13.4227
眤	-13.4227
騌	-13.4228
􁁺	-13.4229
爉	-13.4229
犒	-13.423
饕	-13.4233
纚	-13.4235
巇	-13.4236
轝	-13.4236
冄	-13.4237
踽	-13.4238
䬃	-13.4241
腎	-13.6118
饜	-13.6129
冋	-13.614
諵	-13.614
圞	-13.6144
齦	-13.6147
賑	-13.6147
赧	-13.6148
擠	-13.615
鑛	-13.6152
苡	-13.6153
娬	-13.6156
昝	-13.6157
种	-13.6158
悍	-13.6161
啉	-13.6162
爁	-13.6162
鋙	-13.6163
挍	-13.6164
䥏	-13.6164
耑	-13.6164
鸇	-13.6165
椷	-13.6166
􁞬	-13.6166
􁩰	-13.6166
燬	-13.6166
祼	-13.6168
􁂍	-13.6168
􁁬	-13.6168
虺	-13.6169
泐	-13.6169
諞	-13.617
鵊	-13.617
獠	-13.6171
鯈	-13.6172
跼	-13.6172
諛	-13.6172
㫒	-13.6172
丱	-13.6173
斝	-13.6174
蟫	-13.6174
㕙	-13.6174
􁎒	-13.6174
㧓	-13.6174
洼	-13.6174
邽	-13.6174
彗	-13.6175
綣	-13.6176
泯	-13.6176
朓	-13.6176
昩	-13.6177
釦	-13.6177
譛	-13.6177
襕	-13.6178
佗	-13.6178
耄	-13.6178
櫃	-13.6178
賍	-13.6178
膈	-13.6178
凊	-13.6179
亸	-13.6179
罣	-13.618
跕	-13.618
屜	-13.6181
讖	-13.6181
䰀	-13.6182
疥	-13.6182
癩	-13.6182
狥	-13.6183
貳	-13.6183
綍	-13.6183
怖	-13.6183
塋	-13.6184
勦	-13.6185
飰	-13.6185
胾	-13.6185
懈	-13.6185
鷂	-13.6186
訃	-13.6186
酋	-13.6186
壳	-13.6187
妁	-13.6187
鹹	-13.6188
弛	-13.6188
暦	-13.6188
熄	-13.6188
㔩	-13.6188
縊	-13.6189
竜	-13.619
嶄	-13.619
叭	-13.619
襠	-13.619
噷	-13.619
鞶	-13.6191
悃	-13.6191
玻	-13.6191
靧	-13.6192
瘤	-13.6192
嫻	-13.6192
捥	-13.6192
賚	-13.6193
儸	-13.6194
矚	-13.6194
鱼	-13.6194
痾	-13.6194
械	-13.6194
䏊	-13.6195
丶	-13.6195
噍	-13.6195
麦	-13.6195
􁮺	-13.6195
䛕	-13.6195
晀	-13.6196
隰	-13.6196
顓	-13.6196
鄖	-13.6196
耎	-13.6196
执	-13.6196
牲	-13.6197
牝	-13.6197
廋	-13.6197
蕈	-13.6197
喈	-13.6197
􁋊	-13.6197
廱	-13.6197
簺	-13.6198
唖	-13.6198
楂	-13.6198
髥	-13.6198
芉	-13.6198
􁄞	-13.6198
柟	-13.6199
􁒽	-13.6199
嘿	-13.6199
肄	-13.6199
廳	-13.6199
惝	-13.6199
秌	-13.6199
崛	-13.62
鳫	-13.62
鶿	-13.62
謐	-13.62
􁐍	-13.62
輊	-13.6201
㓙	-13.6201
憊	-13.6201
啀	-13.6201
愀	-13.6201
嘅	-13.6201
迍	-13.6201
靿	-13.6202
喙	-13.6203
汩	-13.6203
朏	-13.6203
艟	-13.6203
砉	-13.6204
唉	-13.6204
椹	-13.6205
玼	-13.6205
帋	-13.6205
􁀿	-13.6205
偑	-13.6206
躇	-13.6206
贄	-13.6206
籢	-13.6206
銼	-13.6206
觶	-13.6206
踠	-13.6206
闃	-13.6206
鄆	-13.6207
蕳	-13.6207
芃	-13.6207
蕰	-13.6207
褚	-13.6207
筓	-13.6208
汛	-13.6208
禳	-13.6208
闚	-13.6208
虱	-13.6208
佾	-13.6208
䜿	-13.6208
餱	-13.6209
菑	-13.6209
勌	-13.6209
尅	-13.6209
慽	-13.6209
麌	-13.6209
櫩	-13.621
鎩	-13.621
􁱘	-13.621
愕	-13.6211
褫	-13.6211
褌	-13.6211
罶	-13.6211
榨	-13.6211
咊	-13.6211
噓	-13.6211
樝	-13.6212
㺅	-13.6212
瀧	-13.6212
喞	-13.6213
崐	-13.6213
㪷	-13.6213
嬿	-13.6214
畎	-13.6214
儇	-13.6214
醬	-13.6214
沭	-13.6214
芭	-13.6215
窯	-13.6215
恝	-13.6215
俑	-13.6216
囓	-13.6216
灸	-13.6217
弈	-13.6217
篓	-13.6218
􂀧	-13.6218
讜	-13.6219
曆	-13.6219
產	-13.622
邳	-13.622
褘	-13.622
蔟	-13.622
寗	-13.622
畤	-13.622
綦	-13.622
顙	-13.622
扼	-13.622
鈸	-13.6221
膄	-13.6221
穪	-13.6223
幮	-13.6223
鷯	-13.6225
頫	-13.6225
鍵	-13.6226
凾	-13.6226
釤	-13.6227
丳	-13.6227
嗈	-13.6228
桮	-13.6229
冮	-13.6229
尻	-13.623
􁱗	-13.623
坌	-13.623
􁩘	-13.6232
捽	-13.6233
􁰵	-13.6233
岌	-13.6235
澶	-13.6235
髅	-13.6236
餵	-13.6236
竸	-13.6237
顦	-13.6237
汊	-13.624
髦	-13.6241
喳	-13.6243
鴃	-13.6247
緹	-13.6249
杰	-13.6251
汭	-13.6254
蕘	-13.627
嫪	-13.8598
刓	-13.8605
鍮	-13.8617
淲	-13.862
簳	-13.862
瑄	-13.8624
廛	-13.8631
齶	-13.8636
黲	-13.864
􁛮	-13.8642
韆	-13.8644
淬	-13.8647
矬	-13.8648
蚰	-13.8649
旓	-13.8651
瘥	-13.8652
噙	-13.8653
榱	-13.8653
犴	-13.8655
獾	-13.8655
闤	-13.8655
妲	-13.8655
欏	-13.8655
彿	-13.8659
愉	-13.8659
刚	-13.8659
孑	-13.8659
报	-13.866
淦	-13.8662
纉	-13.8662
鞔	-13.8663
駑	-13.8663
杠	-13.8663
覌	-13.8663
屦	-13.8663
吖	-13.8663
鵯	-13.8663
堁	-13.8663
嫚	-13.8664
澣	-13.8664
糶	-13.8665
詁	-13.8666
嗡	-13.8666
舁	-13.8666
郍	-13.8666
券	-13.8666
􁗷	-13.8667
𣸪	-13.8667
蟢	-13.8667
墁	-13.8669
錕	-13.8669
刴	-13.8669
穷	-13.8669
飥	-13.867
俲	-13.867
蒔	-13.867
谁	-13.867
闠	-13.8671
涔	-13.8671
玕	-13.8671
聆	-13.8672
墾	-13.8673
劓	-13.8673
畀	-13.8673
覬	-13.8673
廐	-13.8673
捃	-13.8673
偬	-13.8674
􁶁	-13.8674
圮	-13.8675
㞘	-13.8675
䩞	-13.8676
雎	-13.8676
㳫	-13.8676
稟	-13.8676
峦	-13.8676
粃	-13.8677
瘂	-13.8677
碀	-13.8677
鬐	-13.8678
韲	-13.8678
爊	-13.8679
蓆	-13.868
惷	-13.868
璆	-13.868
􁆒	-13.868
􁐾	-13.868
陘	-13.868
礲	-13.868
鐲	-13.8681
㲲	-13.8681
壄	-13.8681
徯	-13.8681
珽	-13.8681
􁽩	-13.8681
裸	-13.8682
鎞	-13.8683
㡡	-13.8683
􁉥	-13.8683
䲧	-13.8683
踭	-13.8683
橐	-13.8683
𣑽	-13.8683
扅	-13.8684
槀	-13.8684
嵿	-13.8684
嵊	-13.8684
瘵	-13.8684
蹡	-13.8684
栲	-13.8684
㜞	-13.8685
瘸	-13.8685
萦	-13.8685
筇	-13.8685
澳	-13.8687
淤	-13.8687
狃	-13.8687
㹸	-13.8687
胝	-13.8688
鶮	-13.8688
燿	-13.8688
堝	-13.8688
葅	-13.8688
呻	-13.8688
炁	-13.8688
禋	-13.8689
枲	-13.869
兾	-13.869
䏑	-13.869
褏	-13.869
筏	-13.869
綁	-13.869
轇	-13.8691
麂	-13.8691
槨	-13.8691
驍	-13.8691
茄	-13.8691
蠺	-13.8691
硏	-13.8691
枸	-13.8691
褡	-13.8691
綮	-13.8692
蒺	-13.8692
邐	-13.8692
鉊	-13.8692
刖	-13.8692
􁨇	-13.8692
漓	-13.8693
窕	-13.8694
娄	-13.8694
詈	-13.8694
詡	-13.8694
毆	-13.8694
螽	-13.8694
遄	-13.8694
魋	-13.8695
䑛	-13.8695
楖	-13.8695
门	-13.8695
廚	-13.8696
㮶	-13.8696
餂	-13.8696
姉	-13.8697
𩮰	-13.8697
隖	-13.8697
牸	-13.8698
􁈔	-13.8698
鮭	-13.8698
吮	-13.8699
栻	-13.8699
眦	-13.8699
貉	-13.8699
􁂁	-13.8699
韔	-13.87
詬	-13.87
膛	-13.8701
鷦	-13.8701
䓗	-13.8701
皖	-13.8701
紿	-13.8701
夯	-13.8701
櫟	-13.8701
釄	-13.8701
𥙿	-13.8701
幣	-13.8701
禿	-13.8702
駃	-13.8702
旖	-13.8702
蘗	-13.8702
翾	-13.8703
釜	-13.8703
􁁂	-13.8703
卲	-13.8703
暱	-13.8703
㧾	-13.8704
𣙜	-13.8704
􁨔	-13.8704
棕	-13.8705
莩	-13.8705
矇	-13.8705
帨	-13.8705
袛	-13.8705
􁱀	-13.8705
􁚣	-13.8705
隳	-13.8705
噬	-13.8706
茀	-13.8706
嘍	-13.8706
郛	-13.8706
鮦	-13.8706
徠	-13.8706
烮	-13.8706
彂	-13.8708
毓	-13.8708
粽	-13.8708
郄	-13.8708
髒	-13.8708
宁	-13.8708
偪	-13.8708
籓	-13.8709
􁤪	-13.8709
艢	-13.8709
撡	-13.871
㜮	-13.871
复	-13.871
襭	-13.871
骳	-13.871
籥	-13.8711
宙	-13.8711
穫	-13.8712
煠	-13.8713
圅	-13.8713
禰	-13.8713
梆	-13.8713
恡	-13.8713
娓	-13.8714
鋹	-13.8715
玞	-13.8715
挟	-13.8715
鐝	-13.8715
𢋫	-13.8715
莄	-13.8716
栾	-13.8716
閥	-13.8716
惛	-13.8716
玨	-13.8717
勗	-13.8717
歘	-13.8717
湥	-13.8717
婇	-13.8719
姤	-13.8719
蟇	-13.8719
颾	-13.8719
搐	-13.8719
闒	-13.8719
萤	-13.872
叉	-13.872
募	-13.8721
鞽	-13.8721
膜	-13.8722
煿	-13.8722
螃	-13.8722
潾	-13.8722
麞	-13.8723
鬮	-13.8723
䥷	-13.8723
帀	-13.8723
臙	-13.8724
肐	-13.8724
恂	-13.8724
岔	-13.8724
畒	-13.8724
耔	-13.8724
菓	-13.8725
醾	-13.8726
霈	-13.8726
囈	-13.8726
匯	-13.8727
荊	-13.8727
誶	-13.8727
聿	-13.8728
蔴	-13.8728
馟	-13.8729
膿	-13.873
㦯	-13.873
鍧	-13.8731
屭	-13.8731
贔	-13.8731
嶲	-13.8732
录	-13.8733
禆	-13.8734
墯	-13.8734
幵	-13.8735
搀	-13.8735
雊	-13.8735
鶬	-13.8735
嬭	-13.8735
矑	-13.8735
珩	-13.8739
芮	-13.8739
撙	-13.8741
䌥	-13.8742
暐	-13.8742
呶	-13.8746
澟	-13.8746
憒	-13.8749
濓	-13.8754
莞	-13.8755
檮	-13.876
􁉓	-13.878
諂	-14.1888
闞	-14.1906
牁	-14.1907
癉	-14.1911
馣	-14.1917
閼	-14.1932
溲	-14.1932
亍	-14.1933
杻	-14.1936
槮	-14.1936
煽	-14.1936
覂	-14.1938
犧	-14.1941
籩	-14.1944
鰜	-14.1944
戔	-14.1952
艑	-14.1952
甿	-14.1953
蹮	-14.1954
檗	-14.1956
逭	-14.1957
謦	-14.196
騂	-14.196
箝	-14.196
頔	-14.1961
畋	-14.1963
讙	-14.1963
𣅿	-14.1963
鍖	-14.1965
誹	-14.1965
嶓	-14.1965
齔	-14.1965
獮	-14.1967
逖	-14.1967
衒	-14.1967
兌	-14.1967
韂	-14.1971
􁃇	-14.1971
豢	-14.1973
衱	-14.1973
磅	-14.1975
桩	-14.1975
邰	-14.1975
餒	-14.1977
仵	-14.1977
齬	-14.1977
枹	-14.1978
薔	-14.1978
襻	-14.1978
欖	-14.1979
臀	-14.1979
嫡	-14.1979
餡	-14.198
氈	-14.1982
茇	-14.1984
磷	-14.1984
鞞	-14.1985
黻	-14.1985
鱣	-14.1986
璡	-14.1986
疴	-14.1986
斃	-14.1987
昪	-14.1987
莒	-14.1987
囤	-14.1988
条	-14.1988
殱	-14.199
蠎	-14.199
庙	-14.199
旰	-14.1992
胼	-14.1992
􁪽	-14.1992
隗	-14.1992
朞	-14.1992
珈	-14.1992
寀	-14.1992
苒	-14.1994
憸	-14.1994
嫱	-14.1994
瑱	-14.1994
廌	-14.1994
縻	-14.1994
詾	-14.1994
媳	-14.1994
踮	-14.1994
紊	-14.1996
􁌫	-14.1996
䑀	-14.1996
碓	-14.1996
躐	-14.1996
㬅	-14.1996
艭	-14.1998
洌	-14.1998
缻	-14.1998
郗	-14.1998
侄	-14.1998
狙	-14.1998
焼	-14.1998
葊	-14.1998
癬	-14.2
妣	-14.2
掞	-14.2
蹻	-14.2
餤	-14.2002
攣	-14.2002
惸	-14.2002
澥	-14.2002
狰	-14.2002
牯	-14.2002
骼	-14.2002
倂	-14.2003
輗	-14.2004
鑞	-14.2004
唦	-14.2004
醨	-14.2004
澍	-14.2004
满	-14.2004
倴	-14.2006
㒒	-14.2006
鄠	-14.2006
渢	-14.2006
瞹	-14.2006
麒	-14.2007
妸	-14.2008
羿	-14.2008
齟	-14.2008
媼	-14.2008
塼	-14.2008
憁	-14.2008
终	-14.2008
●	-14.2009
奡	-14.201
踊	-14.201
􁊥	-14.201
屁	-14.201
擯	-14.201
湎	-14.201
􁑬	-14.201
圄	-14.201
挪	-14.201
籧	-14.201
邍	-14.201
勔	-14.201
綹	-14.201
蕡	-14.201
顴	-14.2011
殮	-14.2011
愔	-14.2011
􁬃	-14.2012
皜	-14.2012
䰐	-14.2012
唄	-14.2012
獧	-14.2012
𤱔	-14.2012
臏	-14.2013
儵	-14.2013
剞	-14.2014
劂	-14.2014
贐	-14.2015
跏	-14.2015
樛	-14.2015
詛	-14.2015
欞	-14.2015
棑	-14.2015
濆	-14.2015
窹	-14.2015
㫺	-14.2015
徘	-14.2017
賙	-14.2017
簦	-14.2017
柈	-14.2017
芎	-14.2017
㛃	-14.2017
楦	-14.2017
􁁣	-14.2017
㪸	-14.2017
䕨	-14.2017
禡	-14.2017
鵡	-14.2018
彧	-14.2018
呤	-14.2019
諏	-14.2019
㒺	-14.2019
喽	-14.2019
燉	-14.2019
畮	-14.2019
烜	-14.202
轢	-14.2021
敇	-14.2021
謪	-14.2021
櫬	-14.2021
袐	-14.2021
鳺	-14.2021
􁵞	-14.2022
荐	-14.2023
显	-14.2023
醢	-14.2023
餺	-14.2023
寖	-14.2023
髸	-14.2023
媱	-14.2023
橡	-14.2023
艓	-14.2023
莚	-14.2023
哆	-14.2023
榘	-14.2024
呢	-14.2025
碯	-14.2025
慼	-14.2025
坨	-14.2025
逑	-14.2025
鴝	-14.2025
袠	-14.2025
鎊	-14.2025
狖	-14.2025
厶	-14.2025
踄	-14.2025
謷	-14.2027
岕	-14.2027
㫪	-14.2027
􂀯	-14.2027
𨫼	-14.2027
蛱	-14.2029
僂	-14.2029
殍	-14.2029
蘞	-14.2029
图	-14.2029
霂	-14.2029
頩	-14.2029
䔍	-14.2029
奼	-14.2029
柮	-14.2029
煅	-14.2029
翿	-14.2031
蓐	-14.2031
弑	-14.2031
卄	-14.2031
耋	-14.2031
矉	-14.2031
鍇	-14.2031
傴	-14.2031
坻	-14.2031
榰	-14.2031
槭	-14.2031
饁	-14.2031
仚	-14.2031
帟	-14.2031
鬣	-14.2031
魈	-14.2033
􁈲	-14.2033
肪	-14.2033
穡	-14.2033
袿	-14.2033
豨	-14.2033
諜	-14.2033
蹣	-14.2033
􁈡	-14.2033
碜	-14.2033
豅	-14.2033
壙	-14.2033
栳	-14.2033
耜	-14.2034
懟	-14.2035
儓	-14.2035
徍	-14.2035
绳	-14.2035
菔	-14.2035
㗖	-14.2035
嗥	-14.2035
抧	-14.2035
栀	-14.2035
鉋	-14.2035
孿	-14.2035
禕	-14.2035
菘	-14.2035
祧	-14.2036
弰	-14.2037
楔	-14.2037
蠖	-14.2037
峪	-14.2037
㐫	-14.2037
䋈	-14.2037
繐	-14.2037
􁋌	-14.2037
軏	-14.2039
儈	-14.2039
駔	-14.2039
巃	-14.2039
蠭	-14.2039
屆	-14.2039
櫕	-14.2039
鐮	-14.2039
謩	-14.2039
􁩐	-14.204
衎	-14.204
韙	-14.204
炰	-14.204
畬	-14.204
讋	-14.204
鶗	-14.204
鴞	-14.204
螙	-14.204
邛	-14.2041
澮	-14.2041
焕	-14.2041
銍	-14.2041
麑	-14.2041
䘵	-14.2042
㐅	-14.2042
湃	-14.2042
惥	-14.2042
慫	-14.2042
笱	-14.2042
餮	-14.2042
艼	-14.2042
㿱	-14.2042
醵	-14.2042
椾	-14.2042
抔	-14.2043
􁐟	-14.2043
开	-14.2043
郾	-14.2044
剿	-14.2044
幪	-14.2044
䡎	-14.2044
糨	-14.2044
阯	-14.2044
胍	-14.2044
趐	-14.2044
瑎	-14.2046
咚	-14.2046
悾	-14.2046
皦	-14.2046
臓	-14.2046
鄣	-14.2046
阽	-14.2046
坯	-14.2046
頟	-14.2046
骫	-14.2046
𣏌	-14.2046
棬	-14.2047
笨	-14.2047
驔	-14.2047
过	-14.2048
頊	-14.2048
槹	-14.2048
偻	-14.2048
襃	-14.2048
䞉	-14.2048
趜	-14.2049
嵸	-14.205
􂀭	-14.205
峕	-14.205
誆	-14.205
帡	-14.205
扊	-14.205
枌	-14.205
轃	-14.205
靘	-14.205
􁓈	-14.2052
隍	-14.2052
憧	-14.2052
衹	-14.2052
蜻	-14.2052
㸐	-14.2052
洊	-14.2052
匵	-14.2052
瑽	-14.2052
躲	-14.2052
􁃹	-14.2052
唘	-14.2054
煴	-14.2054
儛	-14.2054
蛑	-14.2054
蔞	-14.2054
馹	-14.2054
鶹	-14.2056
㜑	-14.2056
掦	-14.2056
蕎	-14.2056
划	-14.2056
䘖	-14.2056
楪	-14.2056
灋	-14.2056
鋌	-14.2056
􁩑	-14.2056
㰏	-14.2058
纊	-14.2058
擛	-14.2059
怙	-14.206
嚻	-14.206
譊	-14.206
慷	-14.206
􁕙	-14.206
儁	-14.206
㻬	-14.206
猙	-14.206
螮	-14.206
㫫	-14.2061
贓	-14.2062
磉	-14.2062
斲	-14.2062
掺	-14.2062
甪	-14.2062
蓊	-14.2062
厰	-14.2062
踔	-14.2062
磽	-14.2063
厫	-14.2063
蝥	-14.2064
膴	-14.2064
􁯣	-14.2064
􁂫	-14.2064
抜	-14.2064
灊	-14.2064
疽	-14.2064
罝	-14.2064
舃	-14.2066
屝	-14.2066
陁	-14.2066
駌	-14.2067
鈄	-14.2068
㩲	-14.2068
魴	-14.2068
躓	-14.2069
闺	-14.2069
㢝	-14.2069
珷	-14.2069
尶	-14.2069
簉	-14.2069
丄	-14.2071
覥	-14.2071
䔒	-14.2071
䁱	-14.2071
綀	-14.2072
誄	-14.2073
鈒	-14.2073
𣆀	-14.2073
􁋱	-14.2073
嬛	-14.2075
銮	-14.2075
䍡	-14.2075
聣	-14.2075
茝	-14.2075
髿	-14.2075
跹	-14.2077
苴	-14.2079
墦	-14.2081
輧	-14.2081
􁇨	-14.2081
嬲	-14.2081
碻	-14.2083
磝	-14.2083
揬	-14.2084
謚	-14.2085
计	-14.2087
􁕰	-14.2087
喓	-14.209
黮	-14.2091
􁕗	-14.2094
杌	-14.2096
橤	-14.21
瑮	-14.21
芼	-14.2106
憕	-14.2113
眢	-14.2123
䅧	-14.6801
疝	-14.681
綄	-14.6826
戩	-14.6832
燖	-14.6851
彖	-14.6857
㵾	-14.6878
丣	-14.6888
姙	-14.6888
喭	-14.6888
娌	-14.6889
牂	-14.6891
䓑	-14.6897
䋎	-14.6898
礦	-14.6901
瘮	-14.6904
懔	-14.6904
傯	-14.6907
彇	-14.6907
䰉	-14.691
縵	-14.691
鄲	-14.6914
筧	-14.6914
䘲	-14.692
痯	-14.692
疤	-14.692
轤	-14.692
畇	-14.692
廪	-14.6923
畚	-14.6923
埏	-14.6929
瘖	-14.6932
蜓	-14.6933
荏	-14.6935
旙	-14.6936
紘	-14.6936
惔	-14.6938
憺	-14.6939
瞽	-14.6939
朘	-14.6941
揞	-14.6942
嚭	-14.6942
戽	-14.6942
痂	-14.6942
檑	-14.6942
垠	-14.6945
痳	-14.6945
宄	-14.6945
䘏	-14.6945
瓛	-14.6948
毚	-14.6948
旐	-14.6948
磲	-14.6948
伈	-14.6951
汕	-14.6951
尠	-14.6954
淖	-14.6954
剠	-14.6957
檾	-14.6958
斎	-14.6958
炘	-14.6958
栴	-14.696
悛	-14.6963
獍	-14.6964
瓞	-14.6964
埴	-14.6967
嫭	-14.6967
筤	-14.697
縋	-14.697
柢	-14.6973
㦬	-14.6973
槞	-14.6973
筅	-14.6975
柤	-14.6976
瑳	-14.6976
㬥	-14.6976
戳	-14.6976
庥	-14.6976
絟	-14.6977
棻	-14.6979
䩠	-14.698
䙚	-14.698
祡	-14.698
檉	-14.6983
繃	-14.6983
胙	-14.6983
匃	-14.6983
惴	-14.6983
瑇	-14.6983
貅	-14.6983
粛	-14.6986
疣	-14.6986
蟀	-14.6986
蟋	-14.6986
矕	-14.6986
䞇	-14.6989
胊	-14.6989
侏	-14.6992
篡	-14.6992
囏	-14.6992
坏	-14.6992
楉	-14.6992
砦	-14.6995
塾	-14.6995
癘	-14.6995
嚅	-14.6995
曡	-14.6995
妩	-14.6995
咻	-14.6998
纑	-14.6999
晛	-14.6999
磑	-14.6999
籯	-14.6999
汅	-14.6999
悋	-14.7001
呾	-14.7002
慱	-14.7002
纕	-14.7002
岹	-14.7002
憋	-14.7005
䘭	-14.7005
兗	-14.7005
眚	-14.7008
庬	-14.7008
婹	-14.7008
塏	-14.7008
泅	-14.7008
乹	-14.7008
橂	-14.7008
摝	-14.7008
昫	-14.7008
揵	-14.7011
瞠	-14.7011
櫨	-14.7011
廈	-14.7011
滷	-14.7011
櫑	-14.7011
穵	-14.7011
尨	-14.7011
暸	-14.7011
溉	-14.7011
瓿	-14.7011
椊	-14.7012
䋔	-14.7014
㺄	-14.7014
姣	-14.7014
兑	-14.7014
慔	-14.7014
昱	-14.7014
縲	-14.7014
傞	-14.7014
屖	-14.7014
慺	-14.7014
嗇	-14.7017
氂	-14.7017
嚞	-14.7017
壹	-14.7017
幖	-14.7017
榾	-14.7017
髴	-14.7017
䴊	-14.702
玅	-14.702
岵	-14.702
絇	-14.702
旤	-14.7021
桉	-14.7021
栝	-14.7021
籨	-14.7021
傻	-14.7021
奧	-14.7021
怍	-14.7021
樯	-14.7021
玃	-14.7021
疙	-14.7021
礱	-14.7021
吷	-14.7024
呫	-14.7024
噩	-14.7024
纁	-14.7024
掗	-14.7024
㗛	-14.7024
孅	-14.7024
䈴	-14.7024
幗	-14.7024
懞	-14.7024
桹	-14.7024
㒰	-14.7024
啕	-14.7024
玘	-14.7024
瑢	-14.7024
侻	-14.7027
岢	-14.7027
晬	-14.7027
繰	-14.7027
䁐	-14.7027
緌	-14.7027
聁	-14.7027
兪	-14.7027
挷	-14.7027
柦	-14.703
䂖	-14.703
栅	-14.703
埓	-14.703
剸	-14.703
孄	-14.703
巂	-14.703
价	-14.703
惕	-14.703
杀	-14.703
梏	-14.703
椁	-14.703
洫	-14.703
牴	-14.703
牾	-14.703
皡	-14.703
窌	-14.703
濼	-14.703
燹	-14.7033
婣	-14.7033
噾	-14.7033
嫖	-14.7033
媆	-14.7033
璐	-14.7033
幨	-14.7033
瞷	-14.7033
㓛	-14.7033
狵	-14.7033
玒	-14.7033
紲	-14.7033
㧕	-14.7033
㶁	-14.7033
捖	-14.7033
撆	-14.7033
旉	-14.7033
氳	-14.7035
嘌	-14.7036
忼	-14.7036
歠	-14.7036
狚	-14.7036
禓	-14.7036
俩	-14.7036
傪	-14.7036
嗒	-14.7036
梩	-14.7036
穑	-14.7036
緍	-14.7036
嘒	-14.7036
囹	-14.7036
擪	-14.7036
済	-14.7036
笫	-14.7037
儥	-14.7039
璅	-14.7039
癱	-14.7039
掜	-14.7039
抆	-14.7039
奍	-14.7039
棤	-14.7039
漘	-14.7039
㒟	-14.704
倨	-14.704
劭	-14.704
嗄	-14.704
璩	-14.7041
䳄	-14.7042
䁑	-14.7043
繢	-14.7043
卬	-14.7043
嘑	-14.7043
繄	-14.7043
洿	-14.7043
聧	-14.7043
㡠	-14.7043
壈	-14.7043
楺	-14.7043
縀	-14.7043
巓	-14.7043
剃	-14.7045
崢	-14.7046
碼	-14.7046
攽	-14.7046
櫝	-14.7046
琇	-14.7046
䳱	-14.7046
仳	-14.7046
帑	-14.7046
戅	-14.7046
敉	-14.7046
絁	-14.7046
眂	-14.7046
庽	-14.7049
簀	-14.7049
緃	-14.7049
撘	-14.7049
䀤	-14.7049
堐	-14.7049
熠	-14.7049
䯀	-14.7049
倈	-14.7049
嶧	-14.7049
璮	-14.7049
糢	-14.7052
剣	-14.7052
戕	-14.7052
繮	-14.7052
㪣	-14.7052
刲	-14.7052
嘵	-14.7052
劌	-14.7053
緦	-14.7054
忛	-14.7055
枽	-14.7055
澼	-14.7055
碟	-14.7055
㘘	-14.7055
䕺	-14.7055
临	-14.7055
哴	-14.7055
朳	-14.7055
罗	-14.7055
㰱	-14.7055
很	-14.7055
懢	-14.7055
焬	-14.7058
旴	-14.7058
哳	-14.7058
䐁	-14.7058
掤	-14.7058
槗	-14.7058
潏	-14.7058
瀫	-14.7058
嘨	-14.7058
嚄	-14.7058
愾	-14.7058
柸	-14.7058
氁	-14.7058
佘	-14.7061
窿	-14.7062
偸	-14.7062
洏	-14.7062
焷	-14.7062
犮	-14.7062
竮	-14.7062
㠋	-14.7065
亱	-14.7065
籭	-14.7065
嫠	-14.7065
㬒	-14.7065
佼	-14.7065
瘟	-14.7065
竛	-14.7065
䀻	-14.7068
歀	-14.7068
疪	-14.7068
捞	-14.7071
巣	-14.7071
摏	-14.7071
䦱	-14.7071
惙	-14.7071
壩	-14.7073
脅	-14.7073
篳	-14.7074
朢	-14.7074
瑋	-14.7074
儿	-14.7074
橅	-14.7074
匍	-14.7074
槯	-14.7076
拠	-14.7077
㐲	-14.7077
䁠	-14.7077
嘖	-14.7077
曍	-14.7077
㘭	-14.7083
翱	-14.7084
壜	-14.7084
僜	-14.7084
吵	-14.7084
冑	-14.7085
佟	-14.7087
坱	-14.7087
怫	-14.7087
夌	-14.7087
珢	-14.7087
絖	-14.7087
斆	-14.709
羜	-14.709
檛	-14.709
"	-14.709
3	-14.709
漻	-14.709
罸	-14.709
匄	-14.7093
刌	-14.7093
嚆	-14.7093
廜	-14.7093
滬	-14.7096
煢	-14.7096
瑀	-14.7099
䥴	-14.7099
憹	-14.7101
窒	-14.7102
肸	-14.7102
涰	-14.7103
曀	-14.7111
檳	-14.7115
籝	-14.7115
搪	-14.7118
䰄	-14.7128
浼	-14.7128
僦	-14.7131
稌	-14.7137
掏	-14.7146
潬	-14.7147
獒	-14.715
烋	-14.7178
狺	-14.7191
酊	-15.6876
繶	-15.6884
絀	-15.6885
籲	-15.6886
簴	-15.6887
筈	-15.6888
禬	-15.6889
礰	-15.689
礕	-15.6891
磹	-15.6892
碔	-15.6893
砆	-15.6894
睐	-15.6895
痎	-15.6896
痁	-15.6897
疔	-15.6898
珫	-15.6899
熲	-15.69
洑	-15.6901
殭	-15.6902
桌	-15.6903
枿	-15.6904
杇	-15.6905
捚	-15.6906
扑	-15.6907
惏	-15.6908
彔	-15.6909
嶴	-15.691
嵜	-15.6911
嫫	-15.6912
媂	-15.6913
埿	-15.6914
嚷	-15.6915
唽	-15.6916
咧	-15.6917
匜	-15.6918
剳	-15.6919
剨	-15.692
凃	-15.6921
仡	-15.6922
䲴	-15.6923
䰒	-15.6924
䙀	-15.6925
䓿	-15.6926
䄌	-15.6927
㡧	-15.6928
㟢	-15.6929
㟓	-15.693
㜻	-15.6931
逤	-15.6932
蝃	-15.6933
紼	-15.6934
糈	-15.6935
矶	-15.6936
玥	-15.6937
櫚	-15.6938
栟	-15.6939
扐	-15.694
嵫	-15.6941
堧	-15.6942
堢	-15.6943
嚌	-15.6944
鶂	-15.6945
馚	-15.6946
鄏	-15.6947
郟	-15.6948
賮	-15.6949
蠨	-15.695
蚯	-15.6951
虔	-15.6952
艨	-15.6953
簨	-15.6954
窴	-15.6955
瘧	-15.6956
瀍	-15.6957
欃	-15.6958
檇	-15.6959
曕	-15.696
斒	-15.6961
恚	-15.6962
巑	-15.6963
崞	-15.6964
媫	-15.6965
媓	-15.6966
嘐	-15.6967
嗾	-15.6968
嗻	-15.6969
匼	-15.697
倜	-15.6971
㯽	-15.6972
㞧	-15.6973
黌	-15.6974
餛	-15.6975
鞨	-15.6976
靺	-15.6977
錙	-15.6978
谽	-15.6979
繾	-15.698
諝	-15.698
蚡	-15.6981
艅	-15.6982
膻	-15.6983
竑	-15.6984
稏	-15.6985
睩	-15.6986
獗	-15.6987
瑁	-15.6988
煆	-15.6988
洹	-15.6989
泬	-15.699
槱	-15.6991
墄	-15.6992
塙	-15.6993
堍	-15.6994
䆉	-15.6995
㫹	-15.6996
㦷	-15.6997
齷	-15.6998
齪	-15.6999
鸜	-15.7
鞿	-15.7001
趦	-15.7002
趔	-15.7003
谹	-15.7004
袨	-15.7005
蝙	-15.7006
舳	-15.7007
笪	-15.7008
猢	-15.7009
忉	-15.701
巋	-15.7011
􁕭	-15.7012
𡺸	-15.7013
鸑	-15.7014
鷟	-15.7015
迕	-15.7016
褧	-15.7017
蟪	-15.7018
苜	-15.7019
珝	-15.702
渼	-15.7021
泂	-15.7022
桕	-15.7023
坫	-15.7024
呐	-15.7025
卺	-15.7026
䍥	-15.7027
髧	-15.7028
軔	-15.7029
躑	-15.703
蹭	-15.7031
蠙	-15.7032
囫	-15.7033
嘩	-15.7034
佺	-15.7035
㓦	-15.7036
蠐	-15.7037
腼	-15.7038
緺	-15.7039
瞪	-15.704
睍	-15.7041
睆	-15.7042
瓉	-15.7043
澒	-15.7044
涂	-15.7045
摐	-15.7046
嫦	-15.7047
姗	-15.7047
䯼	-15.7048
鞮	-15.7049
轣	-15.705
荎	-15.7051
蒹	-15.7052
茪	-15.7052
溱	-15.7053
鵜	-15.7054
鬙	-15.7055
鈉	-15.7056
擞	-15.7057
呦	-15.7058
鷀	-15.7059
鵁	-15.706
蔷	-15.7061
嶤	-15.7062
􁕱	-15.7063
髣	-15.7064
雝	-15.7064
籕	-15.7065
朅	-15.7066
忰	-15.7067
餖	-15.7068
彴	-15.7069
侂	-15.707
喁	-15.7071
璀	-15.7072
倆	-15.7073
𥻘	-15.7074
枇	-15.7075
晼	-15.7076
嶙	-15.7077
峋	-15.7078
駙	-15.7079
馡	-15.708
毿	-15.7081
徜	-15.7082
溧	-15.7083
毺	-15.7084
粼	-15.7084
旟	-15.7085
乜	-15.7086
罘	-15.7087
瑪	-15.7088
瑙	-15.7089
繽	-15.709
鬅	-15.7091
靉	-15.7092
舴	-15.7093
婀	-15.7094
氍	-15.7095
箜	-15.7096
躚	-15.7097
鑣	-15.7098
晟	-15.7099
琥	-15.71
恓	-15.7101
邂	-15.7102
悤	-15.7103
嚀	-15.7104
諲	-15.7105
姮	-15.7106
逍	-15.7107
葡	-15.7108
蝴	-15.7108
