<unk>	0
<s>	0
</s>	0
之	-3.63308
)	-4.16499
(	-4.16974
以	-4.32225
也	-4.36835
而	-4.43845
為	-4.47227
則	-4.75424
者	-4.80766
其	-4.89178
一	-5.02086
有	-5.02645
於	-5.27643
不	-5.33785
)(	-5.38524
樂	-5.40259
大	-5.42539
曰	-5.46583
聲	-5.48994
四	-5.5051
三	-5.5076
無	-5.51844
正	-5.5767
應	-5.58696
半	-5.62801
與	-5.64271
二	-5.68389
用	-5.68406
六	-5.68521
此	-5.71062
五	-5.74186
故	-5.76879
中	-5.80706
○	-5.81962
得	-5.83394
皆	-5.83553
律	-5.85308
矣	-5.87949
人	-5.88511
宫	-5.91198
是	-5.95157
上	-5.95213
在	-5.97407
全	-5.98377
言	-6.01549
歌	-6.04157
亦	-6.05139
合	-6.07365
和	-6.07982
至	-6.08504
尺	-6.09838
生	-6.09991
非	-6.10637
舞	-6.11035
調	-6.11693
分	-6.12842
八	-6.13767
九	-6.14285
所	-6.1553
黄鍾	-6.17562
自	-6.18106
數	-6.19869
南	-6.21869
鼓	-6.22011
作	-6.22213
奏	-6.23261
如	-6.23874
商	-6.2714
謂	-6.27551
拊	-6.29478
子	-6.30732
又	-6.31516
音	-6.32309
清	-6.32329
長	-6.3251
于	-6.33159
乎	-6.33871
七	-6.34244
太	-6.36002
羽	-6.36238
下	-6.36569
同	-6.36592
凡	-6.39081
禮	-6.39491
焉	-6.40312
然	-6.40867
即	-6.41361
角	-6.41784
成	-6.44759
乃	-6.45512
云	-6.51167
今	-6.51381
法	-6.51382
姑洗	-6.52739
相	-6.52793
管	-6.54547
鐘	-6.5514
可	-6.55878
▁	-6.55894
定	-6.57377
無射	-6.57584
琴	-6.58212
南吕	-6.59722
十	-6.60839
大吕	-6.60955
黄鐘	-6.61066
小	-6.61631
當	-6.61642
林	-6.61705
夷則	-6.63275
時	-6.63338
夷	-6.63533
古	-6.6426
若	-6.64733
本	-6.65422
黄	-6.65459
文	-6.65583
所謂	-6.67252
位	-6.679
天	-6.68734
所以	-6.69493
仲吕	-6.70262
或	-6.70806
姑	-6.70858
行	-6.71063
始	-6.7231
弦	-6.7284
搏牘	-6.73453
謂之	-6.73779
及	-6.74734
十二	-6.74898
王	-6.7674
仲	-6.77292
取	-6.77575
先	-6.79108
陽	-6.79188
事	-6.79878
未	-6.80674
周	-6.81677
而已	-6.81833
徴	-6.81953
雖	-6.83223
明	-6.83226
曲	-6.83469
名	-6.83605
必	-6.83725
變	-6.84107
後	-6.8453
夾	-6.84923
制	-6.86579
方	-6.87259
林鍾	-6.88477
出	-6.89066
以為	-6.89273
書	-6.89791
太簇	-6.91354
見	-6.91501
笙	-6.91557
字	-6.91633
宮	-6.91744
應鍾	-6.92423
工	-6.92432
節	-6.93103
鼔	-6.93205
兩	-6.93945
從	-6.94671
耳	-6.95462
知	-6.95478
論	-6.9564
五聲	-6.96184
瑟	-6.96315
實	-6.96327
器	-6.97594
通	-6.98074
為宫	-6.98616
詩	-6.98653
夾鍾	-6.98756
何	-6.99212
按	-6.99654
象	-7.00642
隂	-7.01193
各	-7.01321
能	-7.01799
臣	-7.01963
前	-7.02538
髙	-7.02829
絃	-7.03829
太蔟	-7.03882
物	-7.04088
地	-7.0487
漢	-7.05413
道	-7.05784
因	-7.06067
三分	-7.06773
異	-7.07388
徵	-7.08951
氣	-7.09157
唐	-7.10122
爲	-7.10662
㽔賔	-7.10837
立	-7.10953
外	-7.10962
内	-7.11329
主	-7.11756
金	-7.12353
祭	-7.13566
夫	-7.13715
徳	-7.14215
復	-7.14413
日	-7.14665
蓋	-7.14859
㽔	-7.15024
哉	-7.1518
氏	-7.15244
林鐘	-7.15505
惟	-7.15804
民	-7.16974
已	-7.17247
既	-7.17664
磬	-7.18432
章	-7.19363
之樂	-7.19658
猶	-7.20175
起	-7.20776
豈	-7.20873
水	-7.20906
應鐘	-7.21107
置	-7.21349
之數	-7.21447
志	-7.22503
鍾	-7.22828
武	-7.2347
公	-7.23764
易	-7.23804
等	-7.23974
間	-7.23995
使	-7.2403
止	-7.24082
萬	-7.24358
吹	-7.24743
為商	-7.24951
而不	-7.24954
擊	-7.25197
微	-7.25244
諸	-7.25361
學	-7.25534
孔	-7.26411
去	-7.26435
度	-7.26484
餘	-7.26927
上生	-7.27121
終	-7.27142
國	-7.27644
多	-7.2773
禮樂	-7.28137
不可	-7.28678
者也	-7.28776
蕤賔	-7.29045
是也	-7.2982
夾鐘	-7.29964
元	-7.3082
均	-7.30828
重	-7.30985
為角	-7.31484
十二律	-7.31546
齊	-7.31568
義	-7.3233
黍	-7.33372
笛	-7.34593
簫	-7.35572
令	-7.35972
世	-7.37
欲	-7.37681
絲	-7.3783
安	-7.37873
百	-7.38715
其聲	-7.39125
考	-7.39403
次	-7.40384
善	-7.40448
比	-7.40674
求	-7.40969
經	-7.41298
平	-7.41461
宋	-7.41871
葢	-7.41976
賔	-7.42929
備	-7.42983
常	-7.43052
盖	-7.43056
入	-7.43594
風	-7.43725
積	-7.43783
容	-7.43858
之聲	-7.45031
夏	-7.45604
為羽	-7.46056
命	-7.46326
之法	-7.46543
德	-7.46802
君	-7.46893
加	-7.46975
教	-7.47242
初	-7.47464
東	-7.47571
廣	-7.47728
尚	-7.47747
倍	-7.48272
動	-7.48377
不能	-7.49844
竹	-7.50083
寸	-7.50244
徽	-7.50415
舊	-7.5071
右	-7.50815
神	-7.5098
下生	-7.51834
帝	-7.51949
心	-7.5217
月	-7.5231
圖	-7.52386
但	-7.52683
木	-7.52903
忽	-7.53679
□	-7.54074
宜	-7.5431
反	-7.54486
雅	-7.55078
律吕	-7.55138
為徴	-7.55271
兮	-7.55514
舉	-7.56329
遂	-7.56534
理	-7.56948
譜	-7.5696
年	-7.57364
由	-7.57543
晉	-7.57839
説	-7.57895
指	-7.58089
依	-7.58201
射	-7.58496
士	-7.58512
􁕔	-7.58851
朝	-7.59106
徑	-7.59389
極	-7.59501
土	-7.59641
變宫	-7.59826
升	-7.60295
變半	-7.60341
師	-7.60526
濁	-7.61211
别	-7.61549
體	-7.61578
天子	-7.61594
設	-7.62402
執	-7.62537
量	-7.62602
治	-7.62803
山	-7.62824
少	-7.62921
之説	-7.6309
歟	-7.63608
轉	-7.63641
傳	-7.63739
居	-7.64218
類	-7.64595
觀	-7.64763
將	-7.64829
官	-7.65028
盡	-7.65727
西	-7.66373
興	-7.66393
􁕡	-7.66678
聞	-7.66705
且	-7.66727
不用	-7.66954
天下	-7.67621
石	-7.68796
故也	-7.6881
縣	-7.68825
然則	-7.69037
新	-7.69149
四分	-7.69437
短	-7.69665
每	-7.7022
○○	-7.70347
六十	-7.70736
玉	-7.71124
辰	-7.71262
序	-7.71709
衆	-7.72294
不同	-7.7232
致	-7.72344
圓	-7.7239
周禮	-7.72419
之所	-7.72459
服	-7.73426
古人	-7.73436
並	-7.73722
籥	-7.74041
足	-7.74097
千	-7.74279
意	-7.7449
屬	-7.74622
一尺	-7.74748
二分	-7.75495
面	-7.75647
篇	-7.76059
宗	-7.76475
言之	-7.76672
更	-7.76788
功	-7.7695
獻	-7.77232
君子	-7.77584
辨	-7.77923
不知	-7.78085
亂	-7.78331
侯	-7.78529
九分	-7.78546
形	-7.78918
八音	-7.7899
稱	-7.79067
率	-7.79153
家	-7.79502
二十	-7.79577
進	-7.79725
􁕧	-7.79851
獨	-7.80008
造	-7.80279
歸	-7.80305
近	-7.80488
至於	-7.8055
蕤	-7.80812
􁕗	-7.80816
正律	-7.8115
列	-7.81211
中聲	-7.81316
首	-7.81781
特	-7.81828
九寸	-7.81931
十六	-7.81985
句	-7.82635
諸侯	-7.82758
天地	-7.83041
然後	-7.83314
散	-7.8356
二變	-7.84051
左	-7.84179
我	-7.84592
祀	-7.84608
深	-7.84956
相生	-7.85106
毫	-7.85445
正聲	-7.8565
固	-7.86003
詳	-7.86029
琴瑟	-7.86469
難	-7.86514
食	-7.87224
釐	-7.87662
六寸	-7.87934
樂之	-7.88135
銅	-7.88567
具	-7.887
引	-7.88811
之實	-7.89143
㑹	-7.89291
語	-7.89339
逺	-7.89784
一分	-7.89878
可以	-7.89913
過	-7.90341
發	-7.90402
仁	-7.90711
一寸	-7.90961
降	-7.91294
甚	-7.91914
如此	-7.91952
誤	-7.91957
六律	-7.92192
卷	-7.92417
張	-7.92444
北	-7.92715
之舞	-7.92858
載	-7.92991
邪	-7.93195
配	-7.93223
高	-7.93547
最	-7.93722
干	-7.94016
好	-7.94037
原	-7.94585
用之	-7.94933
之音	-7.94978
來	-7.95029
清聲	-7.95312
俗	-7.95475
五音	-7.95585
聽	-7.95632
部	-7.95814
色	-7.95995
而為	-7.96267
而後	-7.96278
也故	-7.96321
掌	-7.96365
祖	-7.96377
著	-7.9649
改	-7.97063
八寸	-7.97611
尊	-7.98124
細	-7.98473
後世	-7.99191
八十	-7.99639
鳴	-7.99827
精	-7.99849
建	-7.99873
樂器	-7.99884
莫	-7.99899
嘗	-7.99946
順	-8.00369
清濁	-8.00491
聖	-8.00818
益	-8.01043
存	-8.01083
政	-8.0152
處	-8.01591
聖人	-8.01639
失	-8.02337
彼	-8.02419
黃	-8.02603
詔	-8.02728
塤	-8.02794
流	-8.02998
陳	-8.03208
七分	-8.0321
伯	-8.03241
彈	-8.03584
隂陽	-8.0362
中吕	-8.03681
解	-8.03821
秋	-8.03878
舜	-8.03921
再	-8.04271
信	-8.04539
儀	-8.04631
受	-8.04851
親	-8.05132
思	-8.05151
推	-8.05153
春	-8.05345
盛	-8.05679
十三	-8.06278
四寸	-8.06546
廟	-8.06768
大夫	-8.07568
故曰	-8.07764
五寸	-8.07995
又曰	-8.08142
代	-8.08167
俱	-8.08185
七聲	-8.08212
問	-8.08345
斗	-8.08485
化	-8.08665
鼗	-8.08924
自然	-8.0895
長短	-8.09065
據	-8.09144
第二	-8.09357
身	-8.09424
圍	-8.09518
勾	-8.10077
坐	-8.10616
門	-8.10688
開	-8.10752
三十	-8.10877
先王	-8.11487
馬	-8.1163
之制	-8.11804
享	-8.12032
雅樂	-8.1226
白	-8.12323
孔子	-8.12603
兼	-8.12663
吾	-8.12749
記	-8.13116
手	-8.13159
鎛鐘	-8.13167
十徽	-8.13233
直	-8.13584
總	-8.13604
辭	-8.13905
疑	-8.1392
敬	-8.13928
八分	-8.14501
一十	-8.14807
州	-8.14839
特磬	-8.14888
離	-8.14926
吕	-8.15058
五十	-8.15175
九十	-8.1595
韶	-8.16084
相應	-8.16147
編鐘	-8.16255
第一	-8.16487
史	-8.16728
低	-8.17261
㣲	-8.17288
散聲	-8.17382
鐘磬	-8.1763
之間	-8.17691
古樂	-8.17959
雜	-8.17971
六分	-8.17995
計	-8.18001
二十四	-8.18382
似	-8.18599
要	-8.18604
適	-8.1862
宣	-8.18933
三寸	-8.18933
斯	-8.18939
校	-8.18959
參	-8.18983
算	-8.19234
變徴	-8.1929
倍律	-8.19525
之禮	-8.19602
議	-8.19673
宫調	-8.2032
半律	-8.21106
除	-8.21117
龠	-8.21295
仍	-8.21481
真	-8.21485
為徵	-8.22971
亡	-8.23199
說	-8.23541
典	-8.23688
隋	-8.23767
一百	-8.23907
女	-8.23912
二寸	-8.24471
饗	-8.24509
之道	-8.24536
胡	-8.24549
徒	-8.24614
達	-8.24626
表	-8.24727
習	-8.24988
共	-8.25013
錢	-8.2508
鄭	-8.25453
之意	-8.25466
五分	-8.25673
畢	-8.26024
施	-8.26352
火	-8.26593
毎	-8.26727
為一	-8.26764
四十	-8.26774
簧	-8.2694
之類	-8.26947
之於	-8.26978
而無	-8.27022
十分	-8.27331
八十一	-8.27352
之中	-8.27371
廢	-8.27537
旋	-8.27871
乙	-8.27951
者以	-8.28018
上下	-8.2812
十一	-8.28503
待	-8.28808
末	-8.28885
不過	-8.28907
燕	-8.29015
古之	-8.29024
三絃	-8.29028
窮	-8.29055
隨	-8.29144
準	-8.29172
萬物	-8.29402
昭	-8.29467
衣	-8.29819
之理	-8.29969
周官	-8.30174
端	-8.30198
大呂	-8.30274
龍	-8.30628
差	-8.3068
四清	-8.31133
古者	-8.31153
注	-8.31316
七音	-8.31324
闕	-8.31504
之律	-8.3175
爾	-8.31824
二十七	-8.32208
空	-8.32257
性	-8.32442
黄鍾之	-8.32589
厯	-8.33034
以下	-8.33113
口	-8.33296
梁	-8.33427
簡	-8.33473
作樂	-8.34087
其所	-8.34128
午	-8.34282
􁕤	-8.34515
厚	-8.34567
斛	-8.34626
就	-8.34657
筭	-8.34928
大小	-8.35008
皆以	-8.3502
製	-8.3503
强	-8.35093
越	-8.35218
七十	-8.35322
朱	-8.35548
篴	-8.35629
七調	-8.35672
爵	-8.35798
是以	-8.36137
之位	-8.36522
祭祀	-8.36924
皇	-8.37016
十寸	-8.37143
須	-8.37528
姑應	-8.37642
南呂	-8.38149
卒	-8.3832
篪	-8.38486
頌	-8.3877
不足	-8.38773
孫	-8.38793
􁕨	-8.39068
美	-8.3918
乾	-8.39221
主人	-8.3926
起調	-8.39314
情	-8.39703
㽔賓	-8.39845
不得	-8.40056
五絃	-8.40152
田	-8.40485
宗廟	-8.40701
淫	-8.40801
韻	-8.40891
一聲	-8.41136
拜	-8.41293
唯	-8.41343
軍	-8.41765
魯	-8.41788
凖	-8.41796
華	-8.42144
修	-8.42204
紀	-8.4221
有竒	-8.42354
冬	-8.42756
案	-8.4313
識	-8.43498
還	-8.43549
大司樂	-8.43911
繼	-8.44009
魏	-8.44141
室	-8.44368
孝	-8.44382
九徽	-8.44714
司	-8.44781
貴	-8.44809
交	-8.44839
之氣	-8.4511
匏	-8.45375
感	-8.45399
嘉	-8.45552
永	-8.45617
權	-8.45685
車	-8.45707
秦	-8.45728
宫聲	-8.4656
減	-8.46685
亥	-8.46719
耶	-8.47095
飾	-8.47102
丑	-8.47178
只	-8.47258
雲	-8.47333
之義	-8.47483
酒	-8.47979
述	-8.47995
布	-8.48059
是為	-8.48079
陰	-8.48195
變徵	-8.48406
出於	-8.48532
慢	-8.4866
不及	-8.48796
協	-8.48893
旋宫	-8.48926
衡	-8.48937
約	-8.48994
退	-8.49038
景	-8.49394
黄清	-8.49599
南應	-8.49717
采	-8.49916
始於	-8.49925
蔡氏	-8.50032
靈	-8.50224
樂者	-8.50388
隔	-8.50472
春秋	-8.50484
賓	-8.50677
對	-8.5068
革	-8.50788
哀	-8.50844
尤	-8.50902
聲音	-8.50932
七徽	-8.50954
其音	-8.51004
􁕙	-8.51257
堂上	-8.51584
統	-8.51784
五百	-8.51906
先儒	-8.52219
切	-8.52244
附	-8.5231
􁕣	-8.5233
是故	-8.52415
誠	-8.52673
術	-8.52825
俗呼	-8.52959
第	-8.53002
鎛	-8.53087
六十四	-8.53096
劉	-8.53237
其數	-8.53251
之管	-8.5332
丈	-8.53328
足以	-8.53642
賢	-8.53676
崇	-8.53681
承	-8.53708
所用	-8.53808
也然	-8.53899
一絃	-8.53982
面羃	-8.54353
七寸	-8.54543
第三	-8.54879
已上	-8.55031
凡工	-8.55151
種	-8.55722
三分損益	-8.55857
漢志	-8.56192
况	-8.56206
瞽	-8.56208
寅	-8.56263
審	-8.56468
鑄	-8.56697
之時	-8.56745
銖	-8.56769
百四十	-8.56824
一千	-8.56914
黄帝	-8.57051
諧	-8.57221
陵	-8.57252
他	-8.57372
之事	-8.57385
恐	-8.57733
分寸	-8.57781
樂也	-8.57798
􁕜	-8.57861
大師	-8.57931
皇帝	-8.57947
輕	-8.58125
乘	-8.58156
聲也	-8.58275
一人	-8.58488
變律	-8.58673
勝	-8.58754
各有	-8.58804
府	-8.5908
□□	-8.59153
庶	-8.59439
為用	-8.59497
老	-8.59788
登歌	-8.60066
殺	-8.60286
御	-8.60289
億	-8.60987
註	-8.61023
欽定四庫全書樂書卷	-8.61142
呼	-8.6135
讀	-8.61373
堂下	-8.61673
為黄鍾	-8.61798
緊	-8.62484
太常	-8.62702
南林	-8.62732
藏	-8.62922
便	-8.62968
條	-8.63232
朱子	-8.63312
之後	-8.63379
坤	-8.63558
者皆	-8.63612
聲之	-8.63706
人聲	-8.63763
二千	-8.63783
歌舞	-8.63938
兵	-8.63967
申	-8.64048
之本	-8.64096
又以	-8.64102
仲呂	-8.64243
證	-8.64568
素	-8.64577
向	-8.64629
編	-8.65089
釋	-8.65123
零	-8.65147
之商	-8.65205
第十	-8.65252
大射	-8.65317
變宮	-8.65549
不言	-8.65723
季	-8.66181
守	-8.66242
蕤賓	-8.66439
也其	-8.66535
天地之	-8.66699
南和	-8.66842
律管	-8.67289
舞者	-8.67315
利	-8.67324
黄鍾之宫	-8.67478
示	-8.67582
鄉	-8.67749
目	-8.68347
河	-8.68417
於此	-8.68497
之意也	-8.68509
五行	-8.68868
七毫	-8.69047
俗樂	-8.69134
髙下	-8.69423
琵琶	-8.69518
養	-8.69584
驗	-8.69622
六尺	-8.69637
可也	-8.69676
路	-8.69814
編磬	-8.69853
推之	-8.70139
四十八	-8.70149
母	-8.70184
撰	-8.70188
生於	-8.70353
第四	-8.70373
亦不	-8.70384
架	-8.70393
折半	-8.70425
戒	-8.70772
折	-8.70792
伎	-8.71288
冠	-8.71289
星	-8.71298
并	-8.71328
號	-8.71331
較	-8.71366
􁕠	-8.71386
七十二	-8.71395
之羽	-8.71408
南工	-8.71627
為宮	-8.71652
亦有	-8.71759
何以	-8.71937
某	-8.71947
儀禮	-8.72268
為主	-8.7237
候	-8.72419
伐	-8.72457
唱	-8.72603
金石	-8.72748
收	-8.7277
得其	-8.72823
畫	-8.73096
倡	-8.73137
假	-8.73142
亦如之	-8.73395
雷	-8.73512
嵗	-8.73597
錯	-8.73738
聖朝	-8.7381
人之	-8.73813
不合	-8.73815
十四	-8.73842
樂記	-8.73925
歌鐘	-8.73974
浪	-8.74019
告	-8.74071
三十六	-8.74179
揚	-8.74234
十八	-8.74513
斤	-8.7478
振	-8.74813
徹	-8.74848
虚	-8.74865
帥	-8.74907
頭	-8.7496
􁕱	-8.75069
以其	-8.75091
文王	-8.75267
李	-8.75988
請	-8.76059
以樂	-8.76238
連	-8.76738
弦散聲	-8.76973
武舞	-8.76975
后	-8.77079
𤼵	-8.7729
今之	-8.77816
質	-8.77936
柷	-8.7799
必有	-8.78187
博	-8.78473
郊	-8.78909
其法	-8.78929
未嘗	-8.79213
望	-8.79228
環	-8.79284
文舞	-8.79321
摶牘	-8.79373
姑和	-8.79445
始羽終	-8.79514
記曰	-8.79674
視	-8.79792
正太中	-8.79895
二百	-8.79905
殊	-8.80404
儒	-8.80465
不必	-8.80495
息	-8.80549
武王	-8.80549
二尺	-8.80621
水應	-8.80808
失之	-8.80869
無所	-8.80873
一律	-8.80913
絶	-8.81088
起宫	-8.81104
十五	-8.8111
林和	-8.81287
之說	-8.8135
禹	-8.8152
豈非	-8.81562
旅	-8.81699
旁	-8.81743
竒	-8.81781
鈞	-8.81794
層	-8.81796
三百	-8.8204
隔八	-8.82076
父	-8.8227
􁕭	-8.82327
斷	-8.82376
子曰	-8.82413
康	-8.82424
柱	-8.82433
光	-8.82448
久	-8.82454
樂舞	-8.82544
迎	-8.82914
咸	-8.83001
急	-8.83057
丘	-8.83086
肅	-8.83102
一字	-8.83194
之率	-8.83256
黄鐘之	-8.83336
商調	-8.83436
之屬	-8.8358
授	-8.83726
枚	-8.83731
豆	-8.83765
樂章	-8.83776
第六	-8.83784
之節	-8.83809
傳曰	-8.83816
太清	-8.84038
詞	-8.84247
林尺	-8.84434
鬴	-8.84457
鉦	-8.8447
其中	-8.84562
左右	-8.84596
皆有	-8.8479
大者	-8.8479
除之	-8.84793
一釐	-8.84841
書曰	-8.84909
虡	-8.84997
有所	-8.85087
席	-8.8569
何也	-8.85735
箎	-8.85745
虞	-8.85759
維	-8.85803
昔	-8.85807
妙	-8.863
里	-8.86324
喜	-8.86337
蕤正	-8.86353
補	-8.86372
逆	-8.86377
毛	-8.86404
五調	-8.86417
所得	-8.86594
相和	-8.86729
奉	-8.86989
七律	-8.87019
格	-8.87045
移	-8.87051
呂	-8.87074
試	-8.87112
曉	-8.87129
七絃	-8.87202
奇	-8.87309
三毫	-8.87799
􁕥	-8.87977
四時	-8.88025
之外	-8.88196
遺	-8.88223
其餘	-8.88297
歩	-8.88464
工尺	-8.88547
出入	-8.88564
古今	-8.88884
鐘鼓	-8.89092
夜	-8.89208
宫商	-8.89243
候氣	-8.89281
亦得	-8.89409
乗之	-8.89533
中呂	-8.89547
終於	-8.89668
禮記	-8.89686
野	-8.89783
尾	-8.89793
卑	-8.8981
横	-8.89822
愛	-8.89833
操縵	-8.8984
損益	-8.8986
也今	-8.89911
今按	-8.89982
二千九百三十萬	-8.90028
豈不	-8.90036
以象	-8.90222
立體	-8.9029
為實以	-8.90396
四絃	-8.90458
静	-8.90493
底	-8.90513
破	-8.90547
缺	-8.90555
竊	-8.90555
業	-8.90586
召	-8.90589
名曰	-8.90762
殿	-8.91198
詠	-8.91241
庭	-8.91267
接	-8.91306
相合	-8.91313
八百	-8.91325
竽	-8.91387
之序	-8.91411
録	-8.91427
乗	-8.91465
之下	-8.91639
歌者	-8.91807
又有	-8.91881
領	-8.91989
載堉	-8.92009
釐四毫	-8.92141
為實以十億乗之以十億	-8.92311
四字	-8.92451
禮也	-8.92503
略	-8.92656
惡	-8.92698
臨	-8.92703
共得	-8.9285
四方	-8.93016
子聲	-8.93059
酉	-8.93082
莫不	-8.93239
操	-8.93359
累	-8.93383
簴	-8.93475
兆	-8.93516
洗	-8.93773
樂師	-8.93877
穴	-8.9409
寓	-8.94107
朔	-8.94123
稍	-8.94198
音也	-8.9457
鞉	-8.94615
不可以	-8.94676
取其	-8.94732
秤	-8.94761
之角	-8.94785
堯	-8.94785
小者	-8.94811
憂	-8.9486
者其	-8.94944
二千二百三十六除之得	-8.95062
也然則	-8.95222
而言	-8.95285
納	-8.95559
七百二十九	-8.95579
漸	-8.9562
樂以	-8.95707
數也	-8.95749
第七	-8.96073
詩曰	-8.96168
也夫	-8.96203
竅	-8.96267
步	-8.96284
工凡	-8.96333
力	-8.96342
䘮	-8.96438
避	-8.9648
十一徽	-8.96673
之長	-8.96762
房	-8.9682
史記	-8.96823
冬至	-8.96901
君臣	-8.96903
當時	-8.97004
其實	-8.97009
也若	-8.97066
賜	-8.97113
緩	-8.9713
悉	-8.97169
冕	-8.97176
倍之	-8.97255
􁈹	-8.9726
可知矣	-8.97609
國語	-8.97653
滿	-8.97794
殷	-8.97847
漆	-8.97909
騶虞	-8.97916
所以為	-8.97917
十二月	-8.98207
五六	-8.9833
卦	-8.98481
顯	-8.98673
京房	-8.98682
逹	-8.98683
二千一百八十七	-8.98708
而成	-8.98825
陽氣	-8.98917
長九寸	-8.99048
聲而	-8.99072
之數也	-8.99089
非特	-8.99323
牲	-8.99329
之名	-8.99366
也此	-8.99383
噐	-8.99437
大武	-8.99503
祠	-8.99506
舊法	-8.99517
正林中	-8.9953
為一分	-8.99742
九聲	-9.00029
周公	-9.00088
卯	-9.00269
堂	-9.00401
月令	-9.00606
半聲	-9.00611
姑一	-9.00645
二絃	-9.00668
之樂也	-9.00684
司馬	-9.00697
其義	-9.00724
圜	-9.00731
謬	-9.00881
趙	-9.00975
不然	-9.00985
鄉射	-9.01039
先王之	-9.012
一四	-9.01432
其説	-9.0153
飲	-9.01728
庸	-9.0174
百五十	-9.01751
寧	-9.01756
幾	-9.01761
則知	-9.01773
持	-9.01776
之曲	-9.02237
二人	-9.02382
本律	-9.02465
集	-9.02507
則不	-9.02507
第五	-9.02558
式	-9.02594
六百	-9.02607
武帝	-9.02919
釐八毫	-9.02996
四尺	-9.03042
抑	-9.03069
六釐	-9.03138
播	-9.03309
介	-9.03471
鬼神	-9.03495
百一十	-9.03511
聲律	-9.03667
海	-9.03714
薄	-9.04074
懸	-9.04092
二律	-9.04135
宻	-9.04142
禁	-9.04156
楚	-9.04211
社	-9.04226
五弦	-9.04524
為節	-9.04866
以上	-9.04914
鐸	-9.05013
弱	-9.05023
可知	-9.05064
位除實	-9.05174
二百四十三	-9.0525
為變宫	-9.05526
薦	-9.05751
増	-9.05813
以見	-9.0583
西階	-9.0589
爾雅	-9.06026
孰	-9.06349
黃鐘	-9.06358
不成	-9.06489
坎	-9.06562
智	-9.06617
專	-9.06635
􁕚	-9.06636
節奏	-9.0674
若夫	-9.07048
三釐	-9.07084
莊	-9.07288
宴	-9.07334
牛	-9.07344
幽	-9.07414
柷敔	-9.07442
鏞	-9.07498
都	-9.075
其一	-9.07619
歴	-9.07659
八毫	-9.07697
疏	-9.07762
三寸九分	-9.07921
羣	-9.08144
釐一毫	-9.08174
四絲	-9.0818
由是觀之	-9.08289
恭	-9.08304
注云	-9.08519
以此	-9.08571
畢曲	-9.08709
五十四	-9.08886
律之	-9.0891
搏牘磬	-9.08928
古法	-9.08939
為樂	-9.08941
圍徑	-9.0896
三尺	-9.09007
清角	-9.09013
律書	-9.09159
符	-9.09194
江	-9.09196
刻	-9.09202
濟	-9.09208
尋	-9.09232
丁	-9.09234
角聲	-9.09239
四聲	-9.09245
長六寸	-9.09387
則以	-9.09953
封	-9.09969
乆	-9.09974
皮	-9.0998
敔	-9.1006
箇	-9.10067
咸池	-9.10128
之次	-9.10307
一工	-9.10448
笙師	-9.10451
鼓吹	-9.11074
矣然	-9.11351
十有二	-9.11435
徑三分	-9.11436
雖有	-9.11559
数	-9.11587
青	-9.11676
否	-9.11734
析	-9.11748
干戚	-9.11751
鳯	-9.1179
役	-9.11829
暉	-9.11849
造律	-9.11879
鄭氏	-9.11984
八徽	-9.12151
兮姑	-9.12373
送	-9.12573
有奇	-9.12581
予	-9.12625
劉歆	-9.12665
三分益一	-9.12689
學士	-9.12932
見於	-9.12975
百三十	-9.13262
六忽	-9.13292
之宫	-9.13409
赤	-9.13523
輕重	-9.13589
黄應	-9.13596
而下	-9.13959
之情	-9.14015
為調	-9.14028
淮南子	-9.14075
十九	-9.14347
震	-9.14365
許	-9.1441
幂	-9.14415
究	-9.14424
八十一分	-9.14438
第八	-9.14928
於是	-9.15006
同意	-9.15068
非也	-9.15118
三忽	-9.15158
𤣥	-9.15271
以來	-9.15584
九十六	-9.15598
亦可	-9.15801
謹	-9.16048
職	-9.16088
隆	-9.16096
正姑中	-9.16101
角調	-9.16138
韓	-9.16182
畧	-9.16223
果	-9.16228
鼙	-9.16272
一徽	-9.16367
五聲之	-9.16656
一萬九千六百八十三	-9.16679
鼎	-9.1673
於樂	-9.16914
合樂	-9.16961
粟	-9.17047
柔	-9.17073
起於	-9.17076
害	-9.17089
下法	-9.17091
歎	-9.17127
閏	-9.17131
祥	-9.17161
勢	-9.17218
則其	-9.17228
文武	-9.17374
十三徽	-9.17417
互	-9.17609
乖	-9.17971
卿	-9.18002
柄	-9.18007
伏	-9.18014
周尺	-9.18034
李照	-9.18051
譏	-9.18118
十七萬七千一百四十七	-9.18137
之道也	-9.18445
必以	-9.18544
四毫	-9.18579
商聲	-9.18588
奏之	-9.18606
尺二寸	-9.18693
階	-9.18834
之上	-9.18839
缶	-9.18902
飛	-9.1891
惑	-9.18955
正黄中	-9.18975
遣	-9.18979
擬	-9.1902
城	-9.19045
宫徴商羽角變宫變徴	-9.19298
黄鍾為宫	-9.1931
宫架	-9.19538
之謂	-9.19632
周之	-9.19728
忘	-9.19798
味	-9.19829
二十八	-9.19851
貫	-9.19857
遇	-9.19937
吉	-9.19947
妄	-9.19949
杜	-9.19962
任	-9.19969
良	-9.19971
秬黍	-9.20029
樂書卷	-9.20044
強	-9.20058
六十律	-9.20173
也蓋	-9.20294
徵調	-9.20393
故以	-9.20424
小師	-9.2056
甲	-9.20584
運	-9.2067
諸侯之	-9.20676
戚	-9.20839
雙	-9.20854
為法	-9.20938
約之	-9.21008
以成	-9.21084
不失	-9.21324
之用	-9.21371
一也	-9.21458
弓	-9.2155
舌	-9.21695
盈	-9.21743
得一	-9.21758
鳳	-9.21764
銘	-9.21766
積實	-9.21778
綱	-9.21792
慶	-9.21806
偶	-9.2181
察	-9.2182
垂	-9.21842
却	-9.21844
榖	-9.21895
五釐	-9.21902
燕樂	-9.22031
未嘗不	-9.2222
中和	-9.22222
陽律	-9.22269
起調畢曲	-9.2231
則有	-9.22413
求之	-9.2242
為實	-9.22445
之器	-9.22455
止於	-9.22481
股	-9.22636
七忽	-9.22683
魚	-9.22748
太師	-9.22751
郭	-9.22773
有司	-9.22824
雅頌	-9.22899
戯	-9.2303
十二辰	-9.231
者為	-9.2311
六孔	-9.23176
九釐	-9.23268
愚	-9.23288
𫝊	-9.23319
二十五	-9.23577
孟	-9.23627
報	-9.23675
孤	-9.23731
弗	-9.23757
以至	-9.23798
死	-9.2381
一調	-9.23818
宿	-9.23856
或以	-9.23896
樂書卷一百	-9.24037
樂工	-9.24304
之詩	-9.24361
􁕘	-9.24446
十七	-9.24462
為一寸	-9.24563
箏	-9.24603
乘之	-9.24659
夔	-9.2469
覆	-9.24716
助	-9.24753
佾	-9.24763
聴	-9.24781
燕禮	-9.24812
澤	-9.24849
黄合	-9.24923
戌	-9.24977
六變	-9.25298
放	-9.25422
至于	-9.25458
並用	-9.25564
員	-9.25689
衛	-9.25735
沈	-9.25736
例	-9.25748
羣臣	-9.25773
清商	-9.25825
期	-9.2583
皆可	-9.25886
未有	-9.26034
如此則	-9.26036
而止	-9.26199
之變	-9.26329
者謂	-9.26473
征	-9.26683
以和	-9.26806
觶	-9.26806
四清聲	-9.26824
蔡邕	-9.26836
河圖	-9.2695
為寸	-9.26991
財	-9.26993
樂府	-9.2712
六二	-9.27152
務	-9.27333
二八	-9.27695
􁕛	-9.27739
幸	-9.27786
繁	-9.2779
弟	-9.27791
寳	-9.27824
圗	-9.2783
勞	-9.27831
純	-9.27832
側	-9.27835
而不知	-9.27924
四六	-9.28144
其樂	-9.28181
之分	-9.28194
後周	-9.28362
八八	-9.28387
合一	-9.28426
不相	-9.2851
係	-9.28799
錫	-9.28805
之姑正	-9.28833
来	-9.28834
疾	-9.28861
鐃	-9.28868
厘	-9.28905
該	-9.28917
搏拊	-9.28918
未必	-9.28957
之文	-9.29022
累黍	-9.29054
由是	-9.29071
損	-9.29176
縱黍	-9.2926
六毫	-9.29473
四忽	-9.29552
下管	-9.29714
知其	-9.29755
纓	-9.29765
疎	-9.2977
衰	-9.29831
刑	-9.29839
羽聲	-9.29879
遲	-9.29941
七弦	-9.30015
周徑	-9.30221
玉磬	-9.30289
則是	-9.30327
上字	-9.30365
歌詩	-9.30434
開元	-9.30478
樂書	-9.30501
天神	-9.30678
次第	-9.30687
故其	-9.30729
樂正	-9.30758
下有	-9.3079
延	-9.30848
寛	-9.30904
璧	-9.30909
樂記曰	-9.30958
㫖	-9.30979
可謂	-9.3098
己	-9.31
金奏	-9.31025
翟	-9.31033
纖	-9.31057
可得而	-9.31094
皆用	-9.31097
二絲	-9.31228
商音	-9.31263
疏曰	-9.31337
一絲	-9.31351
登	-9.31402
一忽	-9.3153
縱	-9.31624
本於	-9.31712
奠	-9.31897
亦無	-9.31913
敎	-9.31917
郊廟	-9.31918
粗	-9.31934
荀朂	-9.3199
明堂	-9.32007
洪	-9.32047
圎	-9.32073
三代	-9.32075
空圍	-9.3212
合工	-9.32135
之首	-9.32157
大樂	-9.32298
以後	-9.32397
其制	-9.32446
長四寸	-9.32681
閉	-9.32932
此言	-9.32946
虞書	-9.32949
威	-9.32968
偽	-9.33019
頗	-9.33051
衍	-9.33084
顧	-9.33107
瞽矇	-9.33133
隋志	-9.33354
八絲	-9.33472
八尺	-9.33524
勾一	-9.33654
聚	-9.33658
不敢	-9.33979
之妙	-9.34025
怒	-9.34117
隅	-9.3412
段	-9.34121
辟	-9.34124
温	-9.34142
擇	-9.34147
穆	-9.34163
岳	-9.34165
卿大夫	-9.34184
王朴	-9.34206
吟	-9.34286
隔八相生	-9.34301
也又	-9.3459
或謂	-9.34685
清廟	-9.34786
徵羽	-9.34936
纎	-9.34937
之始	-9.35026
刀	-9.35139
又云	-9.35151
邦	-9.35152
尸	-9.35183
簫管	-9.35198
花	-9.35233
往	-9.3527
所載	-9.35304
雲門	-9.35438
聲則	-9.35518
之度	-9.35663
數而	-9.35836
而生	-9.35882
制作	-9.35989
八釐	-9.36148
而有	-9.36189
指法	-9.36254
郎	-9.36288
徴羽	-9.36326
講	-9.36339
蔡	-9.36345
單	-9.36346
勿	-9.36367
緯	-9.36392
一一	-9.36404
之職	-9.36518
凡樂	-9.36615
九百	-9.36621
品	-9.3674
尺工	-9.3682
長七寸	-9.37032
稷	-9.37241
數之	-9.37296
九九	-9.37306
貢	-9.37354
答	-9.37387
密	-9.37426
被	-9.37483
眡瞭	-9.37574
不盡	-9.37578
變宫變徵	-9.37692
敢	-9.37696
升歌	-9.37702
第九	-9.37926
也盖	-9.38035
除之得	-9.38111
吹之	-9.38114
孟子	-9.38236
縵	-9.38238
上下相生	-9.38421
掌教	-9.38426
釐六毫	-9.38583
戎	-9.38611
其意	-9.38616
谷	-9.38666
焉故	-9.38669
以應	-9.38716
社稷	-9.38717
權衡	-9.38749
矣故	-9.3883
四十二	-9.3904
形如	-9.39181
使之	-9.39256
其長	-9.3937
有餘	-9.39555
一均	-9.39615
農	-9.39635
諸律	-9.39668
暴	-9.39743
稽	-9.39778
斜	-9.39826
南吕為羽	-9.39862
含少	-9.39874
管子	-9.4006
為黄鐘	-9.40115
左傳	-9.4017
狀	-9.40173
鹿鳴	-9.40276
或曰	-9.40288
特縣	-9.40316
相同	-9.40456
今夫	-9.40485
不足以	-9.40509
九千	-9.40547
於禮	-9.40579
教之	-9.4072
律中	-9.40782
湯	-9.40828
雍	-9.40879
誦	-9.40904
侍	-9.40906
增	-9.40917
京	-9.40921
省	-9.40923
繩	-9.40948
七百	-9.40961
源	-9.40971
右乃	-9.41
鄭康成	-9.41001
人鬼	-9.4112
中央	-9.41176
右手	-9.41295
一二	-9.41363
不在	-9.41521
一孔	-9.41648
陰陽	-9.41794
之初	-9.41804
齒	-9.41994
喪	-9.42014
𩔖	-9.42094
襲	-9.42114
大饗	-9.42116
保	-9.4215
王者	-9.42278
羽調	-9.42365
二七	-9.42801
天下之	-9.42854
姑洗為羽	-9.42867
宫縣	-9.4295
擊之	-9.43065
竟	-9.43185
雨	-9.43201
賦	-9.43231
羊	-9.43235
滅	-9.43263
牙	-9.43282
考之	-9.43334
借	-9.43364
綴	-9.43367
苟	-9.43382
靜	-9.43386
山川	-9.43484
南風	-9.43606
新法置	-9.4367
而樂	-9.43767
六七	-9.43777
明矣	-9.43802
漢書	-9.43825
百二十	-9.43898
不亦	-9.43988
蕤應	-9.44225
三弦	-9.44241
三五	-9.44354
三百六十	-9.44381
釐二毫	-9.44387
照	-9.44437
繫	-9.44465
狄	-9.44469
仙	-9.44479
刺	-9.44486
歲	-9.44499
併	-9.44544
留	-9.44548
廞	-9.44548
羃	-9.44553
蹈	-9.44553
效	-9.44568
夀	-9.44576
所生	-9.44632
必先	-9.44698
誤矣	-9.44709
代之	-9.44805
三千	-9.44811
而得	-9.44996
七絲	-9.45042
之音也	-9.45046
釐五毫	-9.45052
一毫	-9.45134
鞞	-9.4526
之内	-9.45324
名之	-9.45392
黄鍾九寸	-9.45442
蕃	-9.45489
者亦	-9.4556
􁕕	-9.45656
肆	-9.45701
患	-9.45757
之所以	-9.45863
六萬三千	-9.4588
一變	-9.45881
六絃	-9.45899
合字	-9.46018
其形	-9.46082
律呂	-9.46191
解曰	-9.46327
釐九毫	-9.46602
以禮	-9.46669
註曰	-9.46794
嚴	-9.46922
循	-9.4693
也凡	-9.46936
叔	-9.46942
班	-9.46942
厲	-9.4699
熊	-9.47016
五千九百四十	-9.47149
大抵	-9.47168
阜	-9.47229
三絲	-9.47401
以為法	-9.47479
舂	-9.4752
自然之理	-9.47546
泉	-9.47722
姑太黄	-9.47775
者非	-9.47881
不復	-9.47958
太樂	-9.48042
神人	-9.48115
裁	-9.48158
索	-9.48186
熟	-9.48186
六八	-9.48194
而非	-9.48223
六千五百六十一	-9.48279
故謂之	-9.48307
相去	-9.48378
故用	-9.48628
一合	-9.48639
四一	-9.48783
二毫	-9.48817
黄鍾宫	-9.48847
後漢	-9.48911
事也	-9.49092
荒	-9.49376
四釐	-9.4938
截	-9.49381
四百	-9.49392
貞	-9.49409
育	-9.49458
六絲	-9.4948
甬	-9.49484
煩	-9.49505
偏	-9.49505
五尺	-9.4952
七始	-9.49539
秒	-9.49577
内徑	-9.49809
歌聲	-9.4982
八佾	-9.49844
其間	-9.50013
則又	-9.50036
宫音	-9.50088
之論	-9.50212
無不	-9.50259
後人	-9.50345
如是	-9.50451
之歌	-9.50459
遷	-9.50726
五五	-9.50726
舍	-9.50745
桑	-9.50764
顔	-9.50801
仞	-9.50882
禘	-9.5092
近代	-9.5098
三律	-9.51081
七尺	-9.51107
▁(	-9.51119
我應	-9.51221
法也	-9.51256
而聲	-9.51256
也言	-9.51256
其本	-9.51283
失其	-9.51385
為大	-9.51389
六五	-9.51472
十二徽	-9.51478
用吟	-9.51863
笙磬	-9.51874
訓	-9.51886
豫	-9.51969
祗	-9.51976
悲	-9.51991
九二	-9.52001
蘇	-9.52013
屈	-9.52067
伶倫	-9.52081
楹	-9.52089
灰	-9.52113
終始	-9.52217
禮以	-9.523
國之	-9.52337
之士	-9.52406
六十調	-9.52493
後魏	-9.52547
長八寸	-9.52593
合尺	-9.52957
旄	-9.53089
以合	-9.53258
拍	-9.53279
出于	-9.53288
麗	-9.53293
怨	-9.5333
病	-9.53347
倫	-9.53354
虛	-9.53365
虎	-9.53371
趨	-9.53405
九十分	-9.53512
則聲	-9.53539
制度	-9.53549
正南中	-9.53586
成於	-9.53668
二釐	-9.53787
九變	-9.53876
於天下	-9.53893
不以	-9.53915
南蕤	-9.5402
變而	-9.54094
左手	-9.54182
按此	-9.54198
所造	-9.54222
太宗	-9.54229
之謂也	-9.54277
樂而	-9.54397
搏牘鍾	-9.54427
之言	-9.54503
圭	-9.54603
闗	-9.54646
植	-9.5468
兹	-9.54718
族	-9.5472
歳	-9.54728
獸	-9.54733
支	-9.54735
回	-9.54752
履	-9.5477
濁聲	-9.5485
天道	-9.54894
五毫	-9.55052
勾尺	-9.55069
孔子曰	-9.55221
論樂	-9.55224
少宫	-9.55281
日月	-9.55296
尚書	-9.55388
北面	-9.55399
學者	-9.55471
七微	-9.55474
四人	-9.55487
為變徵	-9.55678
而舞	-9.55732
箜篌	-9.558
龜	-9.5587
而歌	-9.55933
律者	-9.55941
六月	-9.5602
若以	-9.56026
前後	-9.56031
壇	-9.56033
豳	-9.56041
帶	-9.5605
罷	-9.5607
傷	-9.56093
規	-9.56097
歴代	-9.56106
蔡元定	-9.56108
僭	-9.56141
九十四除之得	-9.56214
蕤姑大應	-9.56227
三三	-9.56249
中間	-9.56443
五寸三分	-9.56491
二五	-9.56634
有五	-9.56751
黄林	-9.56876
黄鍾之長	-9.56999
二聲	-9.57036
人心	-9.57045
則無	-9.57237
其理	-9.57246
客	-9.57267
黄鐘之宫	-9.57319
含	-9.57328
韋	-9.57372
酌	-9.57375
隠	-9.57382
中有	-9.57452
戰	-9.57454
五十六	-9.57459
黄鐘為宫	-9.57478
其位	-9.57482
肆夏	-9.57563
嶽	-9.57601
方響	-9.57709
匏竹	-9.57713
矣此	-9.57807
降神	-9.57887
九三	-9.58064
上帝	-9.58074
新法	-9.58103
樂律	-9.58121
度數	-9.58195
兮蕤	-9.5827
亦非	-9.58315
一音	-9.58329
然而	-9.58347
之義也	-9.58438
詩言	-9.58516
調也	-9.58635
宫商角	-9.58646
爾雅曰	-9.58652
下文	-9.58656
起聲	-9.5867
賤	-9.58732
茍	-9.58742
巧	-9.58742
奏肆夏	-9.58751
肉	-9.58777
剛	-9.58783
伵	-9.58811
寒	-9.58817
葉	-9.58844
故不	-9.58854
七三	-9.58942
仲林	-9.5902
弦歌	-9.5912
次之	-9.5915
夏至	-9.59154
通典	-9.59236
因之	-9.59247
施於	-9.59407
為正	-9.59475
之象也	-9.59486
五聲二變	-9.59515
千二百黍	-9.59557
者也故	-9.59665
太祖	-9.59736
太應	-9.59741
何也曰	-9.59925
國子	-9.59983
而不用	-9.60041
歌之	-9.6007
婦	-9.60071
夷蕤	-9.60108
始終	-9.60134
始也	-9.6019
倚	-9.60229
仰	-9.60266
黒	-9.60269
夘	-9.60317
八十四聲	-9.6032
六樂	-9.60339
羽籥	-9.6034
九絲	-9.60362
十億	-9.60659
絲竹	-9.60753
以十	-9.60811
八纎	-9.60936
三十二	-9.6116
周人	-9.6116
及其	-9.61258
聲者	-9.61496
貌	-9.61499
矩	-9.6154
與此	-9.61614
當用	-9.61624
獲	-9.61628
克	-9.61634
根	-9.61639
測	-9.61643
􁕖	-9.61652
所傳	-9.61653
采蘋	-9.61678
扶	-9.61685
甞	-9.61714
以三	-9.61816
鎮	-9.61847
地示	-9.61958
舊説	-9.62039
此之謂也	-9.62074
六千	-9.6208
七十五	-9.62106
合四	-9.62211
夫人	-9.62262
其後	-9.62265
教國子	-9.62342
是知	-9.62372
七四	-9.62417
百物	-9.62427
亦用	-9.62481
大夏	-9.62482
林清	-9.6249
平方	-9.62652
二十五弦	-9.62719
三分二	-9.62922
鍾律	-9.62994
厥	-9.63015
贊	-9.63016
鄉飲	-9.63024
朱子曰	-9.63049
立方	-9.63049
侈	-9.63055
鷺	-9.63055
遠	-9.63077
嘆	-9.63083
背	-9.63092
瓦	-9.63094
度之	-9.6312
界	-9.63121
舒	-9.63137
小大	-9.63138
尊卑	-9.63167
八十四調	-9.63176
周制	-9.63184
攷	-9.63189
銑	-9.63221
使人	-9.63326
觧	-9.63341
七一	-9.63498
長一尺	-9.63507
姑洗為角	-9.63552
之神	-9.6363
萬八千	-9.63677
七釐	-9.63995
横黍	-9.64071
建鼓	-9.6413
堂下之樂	-9.64222
其言	-9.64254
三四	-9.64304
靣	-9.64322
郡	-9.64501
居中	-9.64527
禮之	-9.64554
之心	-9.6456
桐	-9.64581
私	-9.64588
酬	-9.64597
者有	-9.64599
度量權衡	-9.64617
两	-9.6466
八百一十分	-9.64704
寸為尺	-9.64741
先後	-9.64942
然也	-9.6496
兮黄	-9.64961
三聲	-9.64969
頌磬	-9.64992
民之	-9.65002
欽定四庫全書	-9.65147
是不知	-9.65172
十二管	-9.65285
尺度	-9.65379
其事	-9.6538
知音	-9.65401
言其	-9.65445
之日	-9.65517
為應鍾	-9.65685
合於	-9.65717
堂上之樂	-9.65752
藝	-9.65926
休	-9.66079
選	-9.66084
穀	-9.6609
存焉	-9.66135
採	-9.6617
一兩	-9.66204
隔一	-9.66408
物也	-9.66429
律數	-9.6651
五絲	-9.66851
以求	-9.66867
亦然	-9.66934
為君	-9.66955
大吕為角	-9.67158
滄	-9.67166
不如	-9.6723
而不可	-9.67235
一管	-9.67253
之誤	-9.67284
十月	-9.67335
纎為實以十億乗之以十億	-9.67408
悦	-9.67439
戈	-9.67473
鍾磬	-9.67493
草	-9.67505
弄	-9.67557
少商	-9.67613
和樂	-9.6765
騐	-9.67685
釋奠	-9.67686
繆	-9.67692
属	-9.67752
六字	-9.6777
小胥	-9.6779
者乃	-9.67866
姑清	-9.67983
節之	-9.68059
一百八	-9.6811
吕氏	-9.6812
鐘鼔	-9.6816
雖不	-9.68167
是謂	-9.68193
自然之數	-9.68236
磬師	-9.68276
以次	-9.68279
七五	-9.68284
以九	-9.68339
太廟	-9.68391
于此	-9.68399
四十五	-9.6844
故有	-9.68562
兮南	-9.68821
七七	-9.68832
之前	-9.68841
二二	-9.68858
即是	-9.68941
二纎	-9.68951
為無射	-9.68984
賀	-9.69002
皷	-9.69004
行之	-9.6901
戾	-9.69022
烈	-9.69024
欲其	-9.69031
蕩	-9.69044
翼	-9.6906
導	-9.69062
響	-9.69062
唇	-9.69085
喉	-9.69094
輿	-9.69126
全律	-9.69129
淺	-9.69151
多寡	-9.69187
脩	-9.69192
者必	-9.69242
愷	-9.69275
不易	-9.69396
和太和	-9.69403
大胥	-9.69534
此則	-9.69594
管長	-9.69712
三年	-9.69947
不和	-9.70057
為本	-9.7009
四纎	-9.70167
中國	-9.70211
成而	-9.70426
羅	-9.70515
祝	-9.70543
腹	-9.70578
從之	-9.70579
黑	-9.70599
氣之	-9.70608
龜兹	-9.70614
曰大	-9.70615
考工記	-9.70639
閒	-9.70674
帛	-9.70697
絫	-9.70698
無射為宫	-9.70707
棄	-9.70714
淵	-9.70716
閟	-9.70717
路鼓	-9.70758
凶	-9.70761
王莽	-9.7079
優	-9.70826
七纎	-9.70855
忌	-9.70881
奏樂	-9.70972
二字	-9.71128
易曰	-9.71209
律度量衡	-9.713
開方	-9.71307
商頌	-9.7137
於中	-9.71447
琴家	-9.71644
分數	-9.71665
者乎	-9.71676
古制	-9.71719
鐘律	-9.71793
言樂	-9.71949
八變	-9.71953
羽音	-9.71963
之遺	-9.72075
血	-9.72124
矣夫	-9.72125
對曰	-9.72129
繹	-9.72174
戱	-9.72193
俟	-9.72233
槩	-9.7228
曽	-9.72307
之以為	-9.72331
函鍾	-9.72348
逸	-9.72354
朱載堉	-9.72373
要之	-9.72503
樂官	-9.72503
七寸一分	-9.72512
萬五千	-9.72556
工字	-9.72858
大祭祀	-9.72896
嘉量	-9.72922
皆非	-9.7296
而民	-9.72989
尺寸	-9.72994
其器	-9.73081
亦以	-9.73146
以爲	-9.73212
西山	-9.73232
舞之	-9.73236
一百二十	-9.73359
相傳	-9.73488
王制	-9.73556
所云	-9.73667
變聲	-9.73675
其用	-9.73698
啓	-9.73727
七月	-9.73805
充	-9.73816
資	-9.73839
洞	-9.73839
紫	-9.7384
鄭衛	-9.73842
逐	-9.7385
三終	-9.73861
池	-9.73874
叚	-9.73876
蠻	-9.73877
靡	-9.73886
徐	-9.73888
錄	-9.73925
毋	-9.73929
辛	-9.73944
鼓瑟	-9.73958
臣謹按	-9.74012
一尺二寸	-9.74028
宫商角徵羽	-9.74259
徵聲	-9.74328
羽角	-9.74355
八卦	-9.74381
之南正	-9.74454
此説	-9.74486
皇后	-9.74534
先祖	-9.74577
音律	-9.7459
之教	-9.747
一曲	-9.74716
之末	-9.74729
而用	-9.74794
正義	-9.74899
不出	-9.749
淮南	-9.74936
國語曰	-9.74983
他律	-9.75029
之所由	-9.75132
琴譜	-9.75134
才	-9.75139
童	-9.7517
上有	-9.75185
丹	-9.75354
此數	-9.75392
教坊	-9.75483
姦	-9.75498
脣	-9.75503
創	-9.75535
先生	-9.75536
迭	-9.75641
長三尺	-9.75653
度量	-9.75682
進退	-9.75725
之尺	-9.75785
調則	-9.7581
吹笙	-9.75865
樂有	-9.7593
舞也	-9.75969
分為	-9.76256
一凡	-9.76363
九毫	-9.76478
為夷則	-9.76507
又謂	-9.76513
胥	-9.76535
形容	-9.76574
高下	-9.76713
樂録	-9.76721
者即	-9.76875
可姑正	-9.7691
尺字	-9.77046
八四	-9.77116
雩	-9.77147
弊	-9.77156
而用之	-9.77164
防	-9.77169
蜡	-9.77176
般	-9.77182
招	-9.77185
䟽	-9.7719
泰	-9.77202
軒	-9.77213
厚薄	-9.7722
勾工	-9.77229
契	-9.77231
慎	-9.77245
蜀	-9.77286
太史公	-9.77291
之調	-9.77315
警	-9.77316
凡字	-9.77342
廉	-9.77362
毫釐	-9.77495
故言	-9.77496
籥師	-9.77513
之数	-9.77603
以備	-9.77633
變宫變徴	-9.77659
樂作	-9.77705
儒者	-9.7777
兮應	-9.77839
一萬	-9.77857
有不	-9.77981
置黄鍾	-9.78127
勾凡	-9.78387
先王之制	-9.78493
太簇為徴	-9.7855
不得其	-9.78591
全度	-9.78608
之制也	-9.78612
為宫則	-9.78706
躬	-9.78718
輪	-9.78752
厭	-9.78759
旱	-9.78785
陔	-9.78833
矢	-9.78837
援	-9.78842
暢	-9.78847
禪	-9.78864
皆然	-9.78878
況	-9.78882
文王世子	-9.78892
襄	-9.78893
陽之	-9.78894
祈	-9.78926
今太常	-9.78957
笑	-9.78966
賈	-9.78969
言之則	-9.7897
忠	-9.78985
繼之	-9.78993
泛音	-9.79025
律本	-9.79046
二者	-9.79079
黄鐘九寸	-9.7913
倣此	-9.79162
隋唐	-9.79226
尺上	-9.79262
十二聲	-9.79301
之徳	-9.79302
此理	-9.7932
所作	-9.79346
審音	-9.79496
二九	-9.79531
實音	-9.79583
夏尺	-9.79585
東南	-9.79613
而吹之	-9.79685
明皇	-9.79736
算法	-9.79756
成王	-9.79815
徵音	-9.79841
之學	-9.79858
上文	-9.79894
内周	-9.79991
九方分	-9.79993
以定	-9.79997
之方	-9.80007
此所以	-9.80016
損一	-9.80038
其名	-9.80105
荀卿	-9.80207
四寸五分	-9.80227
應宫	-9.80267
九成	-9.8037
鮮	-9.80495
區	-9.80532
以律	-9.80542
一尺八寸	-9.80565
烏	-9.80577
之象	-9.80579
遍	-9.80585
塵	-9.80606
仩	-9.8061
旌	-9.80631
仜	-9.80643
佐	-9.80653
韋昭	-9.8071
為林鍾	-9.80719
之徴	-9.80773
大濩	-9.80799
圍九分	-9.80951
鞉鼓	-9.81074
臣嘗	-9.81125
文王之	-9.81252
郊祀	-9.81332
五清	-9.81427
擊鼓	-9.81455
三八	-9.81634
度量衡	-9.81735
之祭	-9.81811
四律	-9.81852
四十九	-9.81896
今以	-9.82115
故云	-9.82151
楊	-9.8223
頒	-9.82231
减	-9.82248
狹	-9.82298
自有	-9.82301
西北	-9.82308
遞	-9.82318
臺	-9.82325
其容	-9.82332
可見	-9.82355
伊	-9.82365
豐	-9.82373
宰	-9.82374
幼	-9.82378
胡瑗	-9.82414
黄鍾之律	-9.82425
九忽	-9.82444
牡	-9.82519
一絃六絃	-9.82519
黍尺	-9.82558
三分損一	-9.8258
李氏	-9.82683
五色	-9.82932
也是故	-9.82949
樂縣	-9.83051
倍半	-9.83076
愚按	-9.83086
鄉飲酒	-9.8314
衆樂	-9.83157
亦因	-9.83494
人情	-9.8353
之失	-9.8355
不可不	-9.83577
為度	-9.83669
六舞	-9.83681
南正	-9.83715
六徽	-9.83749
工四	-9.83759
明堂位	-9.83826
七九	-9.83847
浮	-9.83991
奚	-9.84103
桓	-9.84116
梓	-9.84145
専	-9.84149
伬	-9.84159
竝	-9.84201
續	-9.8422
川	-9.84236
芍和	-9.84324
子夏	-9.84332
之長短	-9.8442
自此	-9.84544
其文	-9.84552
朱氏	-9.84587
九夏	-9.84657
方圓	-9.85026
實積	-9.85053
四面	-9.85083
之月	-9.85116
于是	-9.85124
論之	-9.85345
三孔	-9.85404
千四百	-9.8545
在上	-9.85663
其所以	-9.85667
太四	-9.85676
上生姑洗	-9.85707
鼓人	-9.85767
宛	-9.85867
醉	-9.85885
姜	-9.85892
丞	-9.85925
頁	-9.85952
削	-9.85953
括	-9.85958
昌	-9.85966
工尺工	-9.85969
臯	-9.85972
眞	-9.85977
謙	-9.85978
曹	-9.85988
烝	-9.86025
六吕	-9.8604
賛	-9.86042
准	-9.86045
菜	-9.86058
句股	-9.86094
巢	-9.86108
貍首	-9.86118
為首	-9.86123
知樂	-9.86123
一時	-9.86153
邦國	-9.86178
薰	-9.86249
左旋	-9.86278
二十六	-9.86287
七孔	-9.86389
九五	-9.86463
餘律	-9.86519
為均	-9.86573
即古	-9.86641
當以	-9.86769
商角	-9.86851
器色	-9.86906
拘	-9.86924
三九	-9.86938
為變徴	-9.86953
絲二忽	-9.87064
一微	-9.87147
四弦	-9.8719
止用	-9.87297
詩云	-9.87439
五纎	-9.87487
其律	-9.87528
免	-9.87608
東西	-9.87624
撞	-9.87674
陋	-9.87712
以為樂	-9.87729
籍	-9.87788
預	-9.87806
訛	-9.87806
寶	-9.87811
紅	-9.8782
友	-9.8784
胡部	-9.87841
范	-9.87846
愈	-9.87854
鳥	-9.87855
淳	-9.8786
伶州鳩	-9.87879
㸃	-9.87882
委	-9.87883
二寸五分	-9.87884
侑	-9.8789
戛	-9.87895
程	-9.87901
巳	-9.87915
陽也	-9.87922
神農	-9.87963
播鼗	-9.88007
拊芍之黄正	-9.88007
而已故	-9.88207
者矣	-9.88334
之為器	-9.88393
微一纎	-9.88406
論語	-9.88484
分七釐	-9.88501
宫商角徴羽	-9.88702
大鼓	-9.88727
五律	-9.88788
角音	-9.88826
二弦	-9.88897
文帝	-9.89178
所言	-9.89258
在下	-9.89269
人為	-9.89272
大食	-9.89364
當作	-9.89367
歴十二	-9.89476
其大	-9.89481
名為	-9.89552
應鍾為羽	-9.89598
塞	-9.89605
朂	-9.89618
掣	-9.89622
祇	-9.8966
師曠	-9.89662
萬一千	-9.89677
盤	-9.89684
将	-9.89689
為大吕	-9.89702
遵	-9.89723
亿	-9.89742
衝	-9.89788
䕫	-9.89793
采蘩	-9.89804
房中之樂	-9.89986
絃音	-9.90009
竽笙	-9.90014
内方	-9.90014
房中	-9.90224
一百四十	-9.90299
下徵	-9.90336
黄鍾正律	-9.90508
自古	-9.90548
為分	-9.90549
容受	-9.90737
南郊	-9.90776
凡祭祀	-9.90791
宫徵	-9.90816
之蕤正	-9.91035
三月	-9.9106
北方	-9.91094
取音	-9.91104
以黄鍾為	-9.91142
謳	-9.91197
也又曰	-9.91318
隂律	-9.91322
黄鍾為角	-9.91368
一章	-9.91393
一定之	-9.91403
阼階	-9.91423
觱篥	-9.9144
錞	-9.91473
腰	-9.91507
非古	-9.91512
筆	-9.91532
艮	-9.91539
芍	-9.91562
錦	-9.91606
陣	-9.91634
貴賤	-9.91685
譯	-9.91704
太平	-9.91767
南北	-9.91828
先王作樂	-9.91894
為九寸	-9.91936
世俗	-9.9205
孰謂	-9.92078
註云	-9.92175
陳氏	-9.92184
八風	-9.92246
中管	-9.92328
四調	-9.92329
而出	-9.92465
大泉	-9.92493
内外	-9.92497
大章	-9.9252
已下	-9.92748
清黄	-9.92783
其說	-9.92875
小雅	-9.93089
二曰	-9.9311
而九之	-9.93172
可用	-9.93249
司正	-9.93308
珠	-9.93378
爼	-9.93418
聰	-9.93439
福	-9.9344
粒	-9.93486
筝	-9.93496
沿	-9.93526
繪	-9.93528
妻	-9.93549
樓	-9.9355
輔	-9.93551
邊	-9.93571
犯	-9.93575
悟	-9.93585
㲈	-9.93586
屢	-9.93592
苦	-9.93612
椌楬	-9.93631
雉	-9.93636
市	-9.93642
給	-9.93647
覺	-9.93653
律吕新書	-9.93658
荅	-9.93664
潤	-9.93665
兒	-9.93669
圜丘	-9.93779
退位除	-9.93857
舞師	-9.93862
是已	-9.93911
自乗得	-9.93953
仁義	-9.93979
諸儒	-9.94057
横吹	-9.9407
由此	-9.94283
又折半	-9.94317
所以示	-9.94397
簫笛	-9.94432
和平	-9.94471
之法也	-9.94492
周樂	-9.94557
樂譜	-9.94615
者不過	-9.94646
黄鍾之管	-9.94826
非是	-9.94865
以竹	-9.94918
疏云	-9.95198
舉矣	-9.95269
男	-9.95307
雖然	-9.95376
函	-9.95399
其情	-9.95405
蔽	-9.95432
撮	-9.95487
法度	-9.9551
紛	-9.95518
換	-9.95527
不備	-9.95536
旦	-9.95537
再拜	-9.95556
麻	-9.95556
劒	-9.95567
寜	-9.95567
后妃	-9.95567
摇	-9.95578
脈	-9.95581
速	-9.95589
范鎮	-9.95591
甘	-9.95594
伸	-9.956
條理	-9.95606
僕	-9.95607
複	-9.95607
庶幾	-9.9561
戴	-9.95616
可知也	-9.95617
不識	-9.95619
勺	-9.95644
咏	-9.95652
人君	-9.95671
溺	-9.95672
姑太應南	-9.95727
一四合	-9.95734
豈特	-9.95738
實比晉前尺一尺	-9.95754
密率	-9.95767
八九	-9.95771
者蓋	-9.95874
但以	-9.95981
分二釐	-9.95991
以明	-9.96068
門外	-9.96187
五徽	-9.96237
舞大夏	-9.96259
工尺上	-9.96319
神明	-9.96346
此乃	-9.96453
平調	-9.96624
鍾鼓	-9.96677
一曰	-9.9672
二十一	-9.96839
一千二百	-9.96853
九歌	-9.97262
之器也	-9.97345
陶	-9.9742
鼖	-9.97482
安得	-9.97488
縣鼓	-9.97497
縁	-9.9752
長八尺	-9.97534
歡	-9.97547
簇	-9.97563
兄	-9.97564
別	-9.97566
余	-9.97574
堯舜	-9.97576
確	-9.97576
為下	-9.97582
追	-9.97583
佳	-9.97584
堅	-9.976
龍齦	-9.97601
俾	-9.97629
恱	-9.9763
於第十	-9.97632
營	-9.97659
咫	-9.97662
辯	-9.97671
暑	-9.97676
四變	-9.97687
寸分釐毫絲	-9.97721
鳴球	-9.97729
三分去一	-9.97764
為釐法	-9.97778
為中	-9.97804
依永	-9.97822
其管	-9.97869
為絲數	-9.97898
失傳	-9.98026
正月	-9.98036
吹口	-9.98055
即今	-9.9807
亦謂之	-9.98154
上生大吕	-9.98336
先儒謂	-9.98409
正宫	-9.98601
也且	-9.98728
氣應	-9.98819
生焉	-9.98879
知音者	-9.98937
東方	-9.98968
二分五釐	-9.99014
以五聲	-9.99114
徳音	-9.99187
收宫	-9.99362
不宜	-9.99441
一升	-9.99488
弇	-9.99573
僅	-9.99585
伶	-9.99596
飲酒	-9.99602
濁姑正	-9.99613
銀	-9.99616
濯姑正	-9.9962
之形	-9.99622
四工	-9.99639
産	-9.99676
臋	-9.99677
秉	-9.99688
徃	-9.99689
雄	-9.99712
嗣	-9.99725
露	-9.99726
擘	-9.99729
叙	-9.9973
陸	-9.99732
版	-9.99734
詳見	-9.99777
四寸六分六釐	-9.99778
孟康曰	-9.99786
焦	-9.99825
幣	-9.99837
吕氏春秋	-9.99839
二絃七絃	-9.99861
洛書	-9.99889
瀆	-9.99943
从	-9.99983
不同而	-10.0005
之容	-10.0012
無異	-10.0024
為上	-10.0029
正音	-10.0031
髙祖	-10.0042
所由	-10.0045
二均	-10.0049
尺工六	-10.0052
條下	-10.0058
小吕	-10.0063
黄正	-10.007
五字	-10.0076
互相	-10.0081
尺一尺	-10.0086
即此	-10.0089
左氏	-10.0102
黄鍾大吕	-10.0103
者盖	-10.0105
陽聲	-10.011
酉為	-10.0111
亦曰	-10.0114
之術	-10.0132
餘實	-10.0135
敖	-10.0147
濯	-10.015
五帝	-10.0155
唐制	-10.0169
清姑正	-10.017
逮	-10.0172
郊特牲	-10.0173
曾	-10.0173
乎此	-10.0175
三變	-10.0178
賞	-10.0179
秀	-10.018
融	-10.0181
救	-10.0182
巨	-10.0183
聼	-10.0183
寢	-10.0184
埋	-10.0187
闢	-10.0187
臆	-10.0189
勸	-10.0189
六纎	-10.019
佩	-10.0191
風雨	-10.0192
參差	-10.0193
三者	-10.0193
姑洗角	-10.0194
班固	-10.0194
鳩	-10.0195
晉前尺	-10.0196
負	-10.0199
養老	-10.02
二十二	-10.02
凡此	-10.0203
黄鍾半律	-10.0208
圜鍾	-10.0208
二分八釐	-10.0226
之謬	-10.0226
周頌	-10.0246
在西	-10.0257
建鼔	-10.0268
饗食	-10.0274
不拘	-10.0288
下徴	-10.029
長二尺	-10.0296
未盡	-10.0307
宮調	-10.0329
土鼓	-10.0334
爲宫	-10.0349
古尺	-10.0364
太和	-10.0373
和聲	-10.0374
促	-10.0381
馮	-10.0386
訣	-10.0387
彌	-10.0391
紹	-10.0392
以十二律	-10.0394
巫	-10.0394
亞	-10.0394
殆	-10.0396
展	-10.0401
之際	-10.0402
卽	-10.0403
束	-10.0404
荀	-10.0405
關雎	-10.0405
闋	-10.0406
焦尾	-10.0407
排	-10.0407
裳	-10.0411
一斤	-10.0411
朱熹	-10.0411
六律六同	-10.0412
吐	-10.0412
倍律積筭	-10.0414
旋相為宫	-10.0415
幅	-10.0421
小舞	-10.0423
空圍九分	-10.0424
俗部	-10.0425
平方積	-10.0426
錞于	-10.0428
得乎	-10.0428
以示	-10.0432
第十一	-10.0433
五萬九千四十九	-10.0439
而不及	-10.0446
毫一絲	-10.0448
第三弦	-10.0451
旋宮	-10.0463
多少	-10.0479
放此	-10.0486
外徑	-10.0494
取聲	-10.0495
風俗	-10.0507
舂四	-10.0517
正宫調	-10.052
四海	-10.0522
大弦	-10.0526
長三寸	-10.0543
以至于	-10.0558
笙竽	-10.0572
鐘師	-10.0576
倍聲	-10.0586
鬼	-10.0597
鐵	-10.0598
西南	-10.0603
朴	-10.0607
迹	-10.0607
箾	-10.0608
冊	-10.0613
萬舞	-10.0615
朝廷	-10.0615
誅	-10.0615
千二百	-10.0623
笛正聲應	-10.0623
剛柔	-10.0623
札	-10.0624
紂	-10.0624
阮逸	-10.0625
俯仰	-10.0625
題	-10.0627
勇	-10.0628
鄭司農云	-10.0628
凱	-10.0628
抗	-10.0631
鄭譯	-10.0632
鼜	-10.0634
其序	-10.0636
彭	-10.0639
亦可謂	-10.064
鼖鼓	-10.0647
凡樂事	-10.0648
最長	-10.0652
面幂	-10.0654
生十一律	-10.0658
正律内徑	-10.0665
清羽	-10.0671
其次	-10.0675
黄鐘宫	-10.0675
舂合	-10.0676
小者謂之	-10.0676
黄鐘之管	-10.0682
玉律	-10.0685
所以節	-10.0689
一百一十	-10.0702
又名	-10.0709
此即	-10.0723
黄鍾長九寸	-10.0734
數而未	-10.0749
者以其	-10.0754
特鐘	-10.0762
如左	-10.0763
假用	-10.0766
乗之得	-10.0766
歌曲	-10.0769
數十	-10.0777
未知	-10.079
雖出	-10.0793
各絃	-10.0808
下生夷則	-10.0813
可南正	-10.0819
飾以	-10.0836
英	-10.0836
材	-10.0837
夕	-10.0838
様	-10.0839
怪	-10.0839
雞	-10.0844
凉	-10.0846
滯	-10.0846
奮	-10.0847
阿	-10.0847
讓	-10.0848
寫	-10.0848
嗟	-10.085
雪	-10.085
一百九十	-10.085
庚	-10.085
夏后氏	-10.085
包	-10.0853
堵	-10.0853
返	-10.0855
葬	-10.0857
揖	-10.0858
億四千九百一十五萬三千五百三十八	-10.0859
謹按	-10.0862
不可得而	-10.0863
秬黍中者	-10.0865
鐲	-10.0869
之釐數	-10.0871
函鐘	-10.0873
陵犯	-10.0875
滄浪之水	-10.088
横笛	-10.0882
造化	-10.0888
下生窮	-10.0888
首尾	-10.0889
尺八寸	-10.091
也昔	-10.0918
二尺四寸	-10.0925
又言	-10.0934
韶樂	-10.0953
二忽	-10.0963
人道	-10.0963
陽數	-10.0974
相生之法	-10.0978
一尺四寸	-10.0981
徽内	-10.0997
只是	-10.1034
未有不	-10.1042
域	-10.1047
祖宗	-10.1053
鸞	-10.1057
備矣	-10.1057
耕	-10.1071
翕	-10.1073
米	-10.1074
盾	-10.1075
哭	-10.1076
聘	-10.1076
牧	-10.1077
僣	-10.1078
蒙	-10.1078
答拜	-10.108
吳	-10.1081
皇太子	-10.1082
繼之以	-10.1082
頂	-10.1082
妣	-10.1082
魚麗	-10.1083
筍	-10.1085
司馬遷	-10.1085
樂律全書卷	-10.1086
舂牘	-10.1086
㡬	-10.1086
之為言	-10.1087
限	-10.1089
匠	-10.1091
未免	-10.1093
㓜	-10.1094
以之損益則三分之	-10.11
賔客	-10.1102
九纎	-10.1103
淑	-10.1103
開元錢	-10.1105
為法除之得	-10.1107
七百七十	-10.1108
不害其	-10.1111
曲調	-10.1117
權宜	-10.1128
外周	-10.1136
呼一	-10.1137
感人	-10.1153
律度	-10.1158
自乘	-10.118
天地之和	-10.1181
第十二	-10.1192
𫝊曰	-10.1198
字譜	-10.1205
未聞	-10.1216
大雅	-10.1217
民間	-10.1239
子路	-10.1253
一龠	-10.1267
之時也	-10.1279
太簇為商	-10.128
初學	-10.129
可考	-10.1302
香	-10.1307
滄姑正	-10.1308
九歸	-10.1309
胄	-10.1314
筑	-10.1316
恊	-10.1317
夷則無射	-10.1318
巾	-10.1318
駕	-10.1318
泥	-10.1318
户	-10.1318
落	-10.1318
必以十	-10.1319
宏	-10.1319
監	-10.132
判	-10.1321
由此觀之	-10.1321
五寸六分	-10.1322
允	-10.1322
闊	-10.1322
揖讓	-10.1324
樹	-10.1326
工尺凡	-10.1326
勾股	-10.1326
逢	-10.1327
隱	-10.133
篆	-10.133
鵲巢	-10.1331
為實開方	-10.1331
球	-10.1333
每調	-10.1333
筭術	-10.1334
其分有九釐可知矣以申為子之毫數而	-10.1337
寸法則其律有九寸可知矣以辰為子之	-10.1337
為分法則其寸有九分可知矣以午為子	-10.1337
數亥為全律之實可知矣以寅為子之寸	-10.1338
數則其數中損益之際皆有餘分雖有巧	-10.1338
之法為得其要而易	-10.1338
丑為絲法則毫有九絲可知矣下而為忽	-10.1338
終不能盡是以自分	-10.1338
管至破一寸以為一萬九千餘分而後畧	-10.1338
焉然亦苦於難記而易差終不若太史公	-10.1338
下破分為釐破釐為毫破毫為絲破絲為	-10.1338
三百篇	-10.134
算術	-10.134
為全律之	-10.1343
乍	-10.1349
開皇	-10.1352
慍	-10.1356
黄鍾一均	-10.1367
旄人	-10.1369
自乗	-10.1371
三才	-10.1377
圜鐘	-10.138
諸家	-10.1402
南方	-10.1421
加倍	-10.1427
下生林鐘	-10.1445
笙入	-10.1475
擊磬	-10.1478
短長	-10.1509
樂之器	-10.1525
王公	-10.1535
一纎	-10.1536
忽皆	-10.1541
殿庭	-10.1549
恩	-10.1551
爭	-10.1556
壬	-10.1558
闡	-10.1558
消	-10.1559
元年	-10.1559
寡	-10.1561
庣	-10.1563
鱗	-10.1564
壯	-10.1564
千二百四十六萬	-10.1564
四分四釐	-10.1564
不得不	-10.1565
欽定四庫全書樂律全書卷	-10.1566
氂	-10.1566
宋陳𤾉撰樂圖論	-10.1567
呉	-10.1567
敵	-10.1569
風俗通	-10.1569
闗雎	-10.157
三尺六寸	-10.157
耦	-10.1572
十一兆	-10.1574
儉	-10.1574
丙	-10.1576
陞	-10.1577
井	-10.1578
曰黄鍾八	-10.1579
匹	-10.158
夘為毫法則其釐有九毫可知矣以戍	-10.1581
亥則得十七萬七千一百四十七算而子	-10.1581
攷也盖其以子為一而十一三	-10.1582
以下遂不可析而直以九相	-10.1582
數整齊簡直易記而不差也其	-10.1582
寸十分一者亦放此意但以正法之數合	-10.1582
編縣	-10.1583
絲五忽	-10.1585
彈琴	-10.1585
之意歟	-10.1589
高祖	-10.159
以木為	-10.1594
鎛師	-10.1595
玉斗	-10.1611
於是乎	-10.1615
七十六	-10.1625
古之人	-10.1629
禮運	-10.1629
荀卿曰	-10.1632
二釐五毫	-10.1648
成數	-10.1669
十六枚	-10.1674
典同	-10.1701
八尺一寸	-10.1705
黄太姑	-10.1711
八寸一分	-10.1713
大合樂	-10.1725
止于	-10.1739
東北	-10.1744
春分	-10.1752
遊	-10.1786
啟	-10.1792
二尺八寸	-10.1794
百寸	-10.1795
叶	-10.1799
欽	-10.1799
謡	-10.18
洛	-10.1805
蔟	-10.1807
罪	-10.1811
舛	-10.1811
十一律	-10.1812
那	-10.1812
后稷	-10.1813
文獻通考	-10.1814
犧	-10.1814
鄙	-10.1816
兄弟	-10.1816
亷	-10.1816
釡	-10.1816
嫌	-10.1818
王道	-10.182
聲氣之元	-10.1823
軒縣	-10.1825
墨	-10.1826
俯	-10.1826
晏子	-10.1831
鼗堂上堂下堂上堂下	-10.1831
司徒	-10.1832
半律通長	-10.1836
革木	-10.184
甲子	-10.1841
之應正	-10.1849
祭統	-10.1861
五月	-10.1863
其性	-10.1865
帗舞	-10.1866
九月	-10.1874
之為物	-10.1884
六寸二分八釐	-10.1902
明堂位曰	-10.1903
筭法	-10.1913
寸分	-10.1923
别名	-10.1967
存乎	-10.1968
所掌	-10.1975
羽舞	-10.1978
越調	-10.1978
下生林鍾	-10.1979
上生㽔賔	-10.198
帝王	-10.1993
入門	-10.2004
西山蔡氏曰	-10.2007
有大小	-10.2018
三十五	-10.2025
功成	-10.2029
譬	-10.2037
婁	-10.2046
摩	-10.2056
臘	-10.2061
腔	-10.2061
距	-10.2063
肄	-10.2064
板	-10.2068
牽	-10.2068
禾	-10.2069
揖遜	-10.2069
几	-10.207
朱干玉戚	-10.2071
昧	-10.2071
也今夫	-10.2073
危	-10.2073
􁕴	-10.2074
箱	-10.2075
猛	-10.2081
院	-10.2081
梁武帝	-10.2081
壺	-10.2081
上生者四其	-10.2081
父母	-10.2084
排簫	-10.2087
陳氏樂書曰	-10.2088
正律外周	-10.2089
周官大司樂	-10.2089
七徽九分	-10.2093
葛	-10.2093
祀天神	-10.21
又按	-10.2105
升降	-10.2115
倍律内徑	-10.2123
審度	-10.2126
八月	-10.2127
可見矣	-10.2133
父子	-10.2151
而行之	-10.2155
孟子曰	-10.2164
九九八十一	-10.2167
寺	-10.2181
樂家	-10.2183
縵樂	-10.2195
姑林南	-10.2213
宮之宮	-10.2225
鄭聲	-10.2239
倣	-10.2292
又何	-10.2301
所以象	-10.2304
勒	-10.2321
鼻	-10.2324
畏	-10.2325
訖	-10.2326
濫	-10.2329
簨	-10.233
希	-10.233
仲尼	-10.2332
瑞	-10.2332
干戈	-10.2333
觸	-10.2333
軫	-10.2334
壎	-10.2334
􁕵	-10.2334
歆	-10.2335
驚	-10.2336
葭	-10.2337
薺	-10.2338
掩	-10.2338
覩	-10.2339
骨	-10.234
冝	-10.234
筩	-10.234
羊頭山	-10.234
蕭	-10.2341
一黍之廣	-10.2343
繇	-10.2343
責	-10.2344
四尺五寸	-10.2345
偃	-10.2346
沙	-10.2346
鼛	-10.2346
愠	-10.2351
倍律實積	-10.2352
䇿	-10.2352
倒	-10.2353
比例	-10.2353
肩	-10.2353
莊周	-10.2356
殊不知	-10.2357
蕢	-10.2357
十徽八分	-10.2358
其實一也	-10.2359
設柱	-10.2367
林鍾長六寸	-10.2377
西域	-10.2377
十一月	-10.2379
漢魏	-10.2384
受命	-10.2387
春夏	-10.2389
三百八十	-10.2394
愚謂	-10.2395
北齊	-10.2408
黄鐘之實	-10.2408
舞大武	-10.2418
隂陽之聲	-10.2424
舞衣	-10.2424
應鞞	-10.2433
三纎	-10.2463
豈可	-10.2494
十三弦	-10.2497
皇上	-10.25
各以其	-10.2517
林南黄	-10.252
黨	-10.2571
枝	-10.2587
裏	-10.2594
蠶	-10.2595
游	-10.2595
騎	-10.2595
寄	-10.26
洽	-10.2602
四十八億三千	-10.2604
蟲	-10.2604
迭相	-10.2604
纂	-10.2604
晝	-10.2605
杖	-10.2605
決	-10.2607
萌	-10.2607
釜	-10.2608
壞	-10.2608
慮	-10.261
到	-10.2611
懐	-10.2611
囘	-10.2616
的	-10.2617
穿鑿	-10.2621
十三徽一分	-10.2621
収	-10.2621
秋冬	-10.2623
瞽宗	-10.2629
夫婦	-10.2632
靁	-10.2633
漢儒	-10.2654
旋宫之法	-10.2661
最濁	-10.2664
右旋	-10.2665
九十黍	-10.2669
羌	-10.2669
天地之氣	-10.2677
七十八	-10.2678
黃鍾	-10.2693
七釐一毫	-10.2726
編鍾	-10.273
七百二十	-10.276
律家	-10.2762
狀如	-10.2763
天地自然	-10.2825
倨	-10.2866
榮	-10.2868
戞	-10.287
涼	-10.2871
禍	-10.2874
㫁	-10.2876
筵	-10.2878
傅	-10.2879
随	-10.2882
藉	-10.2883
競	-10.2883
晦	-10.2884
鶴	-10.2886
循環	-10.2886
投壺	-10.2887
往而不返	-10.2887
糠	-10.2888
鹿	-10.2888
勤	-10.2889
積筭為實以應鍾倍律積筭為法除之得	-10.289
關	-10.289
潔	-10.2891
周南召南	-10.2894
霜	-10.2895
蒼	-10.2895
白虎通	-10.2897
迎神	-10.2904
􁕟	-10.2916
心感	-10.2955
立春	-10.2956
假如	-10.2975
其妙	-10.2979
隂吕	-10.2985
歌鹿鳴	-10.3037
相近	-10.3053
執始	-10.3065
發明	-10.3077
音節	-10.3127
後漢志	-10.3148
搏	-10.3148
桃	-10.3153
探	-10.3155
藥	-10.3158
竭	-10.3159
藻	-10.3165
脉	-10.3165
彦	-10.3166
尹	-10.3166
喻	-10.3168
和峴	-10.3168
宋陳𤾉撰	-10.3169
疾徐	-10.317
貨	-10.317
牘	-10.317
筍虡	-10.317
鴻	-10.3171
飯	-10.3172
大宗伯	-10.3172
荆	-10.3172
吉凶	-10.3172
慈	-10.3173
攻	-10.3174
芒	-10.3174
従	-10.3175
項	-10.3176
爻	-10.3177
衷	-10.3179
結	-10.3181
拍板	-10.3181
徑三分四釐六毫	-10.3184
伊耆氏	-10.3184
右論	-10.3203
一百六十二	-10.322
上黨	-10.322
林鐘為宫	-10.3253
近世	-10.3253
二分四釐	-10.3269
忽九微	-10.3279
或問	-10.3294
萬世	-10.3308
大司馬	-10.3351
西方	-10.3354
寸一分	-10.3366
刪	-10.3454
朄	-10.3455
祴	-10.3455
蠟	-10.3455
朋	-10.3455
宋陳𤾉撰禮記訓義	-10.3456
惠	-10.3456
冪	-10.3457
龡	-10.3458
磨	-10.3458
歌永言	-10.3458
為實以十兆乗之	-10.3458
麾	-10.3458
吏	-10.3459
揆	-10.346
贏	-10.346
繡	-10.3461
貨泉	-10.3462
汝	-10.3462
巡	-10.3463
際	-10.3464
熙	-10.3465
添	-10.3466
滛	-10.3467
賁	-10.3467
飲食	-10.3468
七寸五分	-10.3468
廣狹	-10.3469
宇	-10.3469
灰飛	-10.3469
玉振	-10.347
判縣	-10.3471
賓客	-10.3472
疊	-10.3474
祀天	-10.3475
凌	-10.3476
袖	-10.3477
儀禮大射	-10.348
童子	-10.3483
正律通長	-10.3485
倍律外徑	-10.3486
窈	-10.3488
窕	-10.3491
吹四字按十	-10.3491
九百六十	-10.3493
相距	-10.3494
共計	-10.3495
小樂正	-10.3503
黄鐘一均	-10.3506
不過如此	-10.3519
兩端	-10.3527
曲折	-10.3541
武功	-10.3563
相對	-10.3569
之至也	-10.3593
徳之舞	-10.3601
雲和	-10.3615
圓徑	-10.3632
數五十四	-10.3678
律和聲	-10.368
商角徵羽	-10.3701
尺一合	-10.3704
濁南正	-10.3721
近古	-10.3733
六百二十	-10.374
傅㑹	-10.3757
機	-10.3758
暇	-10.376
弁	-10.376
鄰	-10.376
覽	-10.3762
走	-10.3762
欺	-10.3763
凝	-10.3763
祖孝孫	-10.3764
了	-10.3765
扵	-10.3765
妃	-10.3766
混	-10.3766
婆	-10.3767
林太南	-10.3768
矛	-10.3768
會	-10.3768
柯	-10.3768
岐	-10.3769
詢	-10.3769
疆	-10.3771
庻	-10.3773
線	-10.3776
何妥	-10.3779
諷	-10.378
綴兆	-10.3782
丄	-10.3787
子男	-10.38
等操	-10.3815
家語	-10.3816
宋儒	-10.3833
為寸法	-10.3834
新説	-10.3835
天地之間	-10.3848
雷鼓	-10.387
手足	-10.3885
黄鍾倍律	-10.3897
靈鼓	-10.3899
一勾一	-10.3916
昔人	-10.3922
鄉飲酒禮	-10.3924
説見	-10.3946
四分二釐	-10.3951
前代	-10.3968
之全數	-10.3984
滄南正	-10.4024
抵	-10.4029
撃	-10.406
清南正	-10.406
陛	-10.4062
廷	-10.4065
揚雄	-10.4066
衞	-10.4071
懿	-10.4072
渾	-10.4072
檢	-10.4073
九十三萬七千二百九十八除之得	-10.4074
恒	-10.4075
熈	-10.4075
薛	-10.4077
惜	-10.4077
沈約	-10.4077
玄	-10.408
駒	-10.4081
副	-10.4081
詣	-10.4081
吕覽	-10.4083
弓矢	-10.4083
甫	-10.4083
戊	-10.4087
冥	-10.4087
韎師	-10.4087
住	-10.4088
弛	-10.409
三分其實得	-10.4091
局	-10.4092
徧	-10.4092
貟	-10.4092
一寸二分	-10.4095
秩	-10.4099
乘除	-10.4102
積八百一十分	-10.4102
尅	-10.4103
倍律内周	-10.4103
正律外徑	-10.4104
呦	-10.4105
叶音	-10.4108
兩叚譜同	-10.4113
太蔟長八寸	-10.4116
不踰	-10.4127
性情	-10.414
抑又	-10.4169
告于	-10.4178
右轉	-10.4186
遺音	-10.4188
相乗	-10.4237
三絃宫	-10.432
姑洗下生應	-10.4326
帗	-10.4339
濯南正	-10.4343
商角徴羽	-10.4362
旨	-10.4371
次序	-10.4373
卧	-10.4378
閲	-10.4384
提	-10.4384
陳暘	-10.4385
談	-10.4387
昏	-10.4389
笳	-10.4389
百姓	-10.4391
誰	-10.4392
文之以五聲	-10.4394
㕘	-10.4394
蘭	-10.4395
鴈	-10.4396
啇	-10.4397
基	-10.4397
以反為文	-10.4397
乞	-10.4397
胡笳	-10.4397
範	-10.4398
憲	-10.4398
禄	-10.4401
送神	-10.4402
踈	-10.4403
叩	-10.4403
壹	-10.4403
吴	-10.4403
蘆	-10.4404
凰	-10.4404
怠	-10.4404
豎	-10.4405
癸	-10.4406
遽	-10.4407
誣	-10.4408
鐡	-10.4409
竿	-10.441
八寸三分七釐六毫	-10.4411
抑揚	-10.4414
伍	-10.4414
黎	-10.4415
爰	-10.4415
軍旅	-10.4416
叅	-10.4419
譬如	-10.4421
冲氣	-10.4424
泛聲	-10.4424
半律外徑	-10.4427
厯代	-10.4429
清濁髙下	-10.443
祫	-10.4432
燕射	-10.4446
盛徳	-10.4452
㽔大夷夾無仲黄	-10.4457
吕為宫始羽終	-10.4468
第五弦	-10.4523
北郊	-10.4564
八寸四分	-10.4614
五音相生	-10.4614
三分寸之一	-10.4621
三寸六分	-10.4641
佛曲	-10.4697
姓	-10.4703
座	-10.4711
割	-10.4718
鈴	-10.4718
願	-10.4718
斧	-10.4721
曠	-10.4722
渠	-10.4725
拂	-10.4726
啞	-10.4726
崑	-10.4726
陂	-10.4727
懷	-10.4727
誕	-10.4727
苑	-10.4729
掘	-10.473
陳𤾉	-10.4731
酢	-10.4732
齡	-10.4732
訂	-10.4732
投	-10.4732
靖	-10.4733
羞	-10.4733
徑一圍三	-10.4734
莫重於	-10.4734
升歌清廟	-10.4737
扣	-10.4737
正律積筭	-10.4738
雌	-10.4738
撥	-10.4739
筒	-10.4739
日月星辰	-10.474
塗	-10.474
湏	-10.4741
沖	-10.4743
脚	-10.4749
遷就	-10.4753
覃	-10.4753
樂同上但用	-10.4753
十九簧	-10.4755
西京	-10.4757
吹合字按十	-10.476
潞	-10.4763
太南姑應㽔大夷夾無仲黄林	-10.4764
正律實積	-10.4765
半律積筭	-10.4771
耳目	-10.4779
倍律通長	-10.4797
角徴羽	-10.4897
萬九千六百八十三	-10.4932
慢角	-10.5024
凡尺工	-10.505
鬱	-10.5063
筦	-10.5066
奪	-10.5067
飲福	-10.5068
鏗	-10.5068
皇祐	-10.5069
諭	-10.5071
鵠	-10.5072
坊	-10.5072
規矩	-10.5073
築	-10.5075
遏	-10.5075
館	-10.5077
托	-10.5077
練	-10.5078
奥	-10.5078
邑	-10.508
壽	-10.508
郷	-10.508
牢	-10.5081
秬	-10.5081
謝	-10.5082
鳬氏	-10.5083
整	-10.5083
頴	-10.5085
律厯志	-10.5085
乳	-10.5085
傍	-10.5086
太尉	-10.5087
釐有竒	-10.5087
饋	-10.5088
漢書律厯志	-10.5088
下生者倍其實	-10.5088
房庶	-10.5088
彊	-10.5089
景祐	-10.5089
四寸八分八釐四毫八絲	-10.509
五寸五分五釐一毫	-10.509
津	-10.5091
卜	-10.5092
以此觀之	-10.5092
訓義	-10.5093
截竹	-10.5093
億二千九百七十三萬一千五百四十七	-10.5097
袴	-10.5098
地祇	-10.5098
𬎼	-10.5118
􁁇	-10.5122
周禮大司樂	-10.5124
横黍度	-10.5126
長九尺	-10.5151
二十五絃	-10.5161
分之則為	-10.5167
夏禹	-10.5171
者此也	-10.5224
太常寺	-10.5259
十枚	-10.5312
相生之序	-10.5364
篚	-10.5404
與民同	-10.5414
託	-10.5421
豕	-10.5422
違	-10.5425
奴	-10.5426
殘	-10.5428
洋洋	-10.5429
笙磬同音	-10.5429
本諸此	-10.543
搏牘朄	-10.543
亮	-10.543
歇	-10.543
擊石拊石	-10.5431
一寸五分	-10.5432
奏昭夏	-10.5432
駟	-10.5434
終之以	-10.5435
為實開平方法除之	-10.5435
説文曰	-10.5436
圓其外	-10.5437
八音克諧無相奪倫	-10.5437
劑	-10.5437
藴	-10.5437
六代之樂	-10.5437
鈔	-10.5439
鑿	-10.5439
憑	-10.544
臧	-10.5441
冇	-10.5441
徵商羽角	-10.5442
孺	-10.5442
提要	-10.5443
婆羅門	-10.5443
懼	-10.5443
奠觶	-10.5444
萬二千九百七十四	-10.5445
漫	-10.5446
酌獻	-10.545
陔夏	-10.5451
丑三分二	-10.5455
容千二百黍	-10.5455
七徽六分	-10.546
編鐘編磬	-10.5462
六律六吕	-10.5465
三之而得	-10.5473
鐵尺	-10.5484
萬七千	-10.5491
深衣	-10.5504
工合尺	-10.5519
如之何	-10.5711
淮	-10.5758
濁蕤正	-10.5781
曼	-10.579
獵	-10.5793
男女	-10.5793
值	-10.5795
巽	-10.5796
撫	-10.5796
天竺	-10.5798
𢎞	-10.5799
寒暑	-10.58
還相為宫	-10.58
明朱載堉撰	-10.5804
絳	-10.5805
蟄	-10.5805
雝	-10.5806
墜	-10.5807
非古制也	-10.5807
不亦宜乎	-10.5807
圉	-10.5808
争	-10.5808
樞	-10.5809
緑	-10.581
笙鏞以間	-10.581
琴瑟以詠	-10.5812
八音克諧	-10.5812
片	-10.5815
祼	-10.5816
幹	-10.5816
腸	-10.5816
阮咸	-10.5816
七寸四分三釐七毫三絲	-10.5817
置一而九三之	-10.5818
緩急	-10.5819
抹	-10.5819
増減	-10.5819
冕而舞大武	-10.5819
綸	-10.5819
雒書	-10.5819
軒架	-10.5821
葦籥	-10.5823
芍濁黄正	-10.5828
拊芍可黄正	-10.5829
乗除	-10.583
夹	-10.5849
五百九十	-10.586
季夏	-10.5866
蔡氏曰按	-10.5938
註疏	-10.6016
俎	-10.6148
槃	-10.6161
僧	-10.6171
搏牘鏞琴	-10.6173
敗	-10.6182
禽	-10.6183
滌	-10.6183
涉	-10.6185
驁	-10.6185
栗	-10.6185
跪	-10.6186
醫	-10.6186
㝠	-10.6186
壤	-10.6187
夢	-10.6187
椎	-10.6187
昊	-10.6187
南有嘉魚	-10.6187
措	-10.6187
趣	-10.6188
隧	-10.6189
晚	-10.6189
祖冲之	-10.619
謨	-10.619
災	-10.619
淆	-10.619
悖	-10.6191
料	-10.6192
杜佑	-10.6193
㨗	-10.6193
芳	-10.6193
迄	-10.6194
未甞不	-10.6194
翹	-10.6194
庾	-10.6194
杜夔	-10.6195
由庚	-10.6195
谿	-10.6196
胃	-10.6196
伏羲	-10.6198
祀四望	-10.6198
未始不	-10.6198
九徳之歌	-10.6199
眀	-10.6199
猱	-10.6199
臬	-10.62
箕	-10.6201
夹鍾	-10.6203
半律内周	-10.6204
九絲六忽	-10.6205
朔鼙	-10.6211
沂	-10.6212
倍律外周	-10.6216
吹上字按十	-10.6216
地祗	-10.6217
塤箎	-10.6218
一姑角	-10.6224
祭地示	-10.6238
二尺七寸	-10.6267
穹	-10.6563
朗	-10.6567
為法除之	-10.657
九寸之管	-10.657
移風易俗	-10.658
翻	-10.6581
松	-10.6582
軌	-10.6583
戲	-10.6584
杜預	-10.6584
炎	-10.6585
點	-10.6586
派	-10.6586
罰	-10.6586
念	-10.6587
旋蟲	-10.6587
讌	-10.6587
迂	-10.659
園	-10.659
三禮圖	-10.659
聖諭	-10.659
竇	-10.659
頓	-10.659
奪倫	-10.659
肺	-10.6592
鉤	-10.6593
胡安定	-10.6593
想	-10.6594
飛灰	-10.6594
揔	-10.6595
羨	-10.6595
昬	-10.6596
影	-10.6598
駁	-10.6598
鞀	-10.6598
打	-10.6599
鞮	-10.6599
増損	-10.66
討	-10.66
何承天	-10.66
六寸五分八釐三毫四絲六忽	-10.6602
激	-10.6604
看	-10.6605
退一位	-10.6605
九分寸之一	-10.6605
半律實積	-10.6607
靈臺	-10.6607
於卦為	-10.6608
御製	-10.6609
漏	-10.661
娶妻	-10.6611
搏牘芍清黄正	-10.6611
八寸十分一	-10.6612
綽	-10.6614
桴	-10.6615
盧	-10.6616
吹工字按十	-10.6616
孟春	-10.6619
姑南太林黄仲無夾夷大㽔應	-10.662
聲之髙下	-10.667
勾工凡	-10.6747
主人阼階	-10.6969
斆	-10.6992
紙	-10.6994
躍	-10.6995
尉	-10.6995
纓姑正	-10.6997
摶	-10.6998
勲	-10.6999
其來尚矣	-10.7001
依我磬聲	-10.7002
足姑正	-10.7002
鏗鏘	-10.7002
鳥獸	-10.7003
大饗之禮	-10.7005
居一焉	-10.7005
范蜀公	-10.7005
輅	-10.7006
傾	-10.7008
印	-10.7009
暗	-10.7009
葦	-10.701
杜子春	-10.701
髪	-10.701
壊	-10.7011
以寸法一萬九千六百八十三除之得	-10.7013
麟	-10.7014
奏王夏	-10.7014
父子君臣	-10.7014
李文察	-10.7014
輩	-10.7017
以九分之則為	-10.7018
徙	-10.7018
濕	-10.7018
毬	-10.7019
月令章句	-10.7021
三分四釐六毫	-10.7022
索隱曰	-10.7022
五萬九千	-10.7022
此二律相協	-10.7023
牛𢎞	-10.7023
芍滄黄正	-10.7026
搏牘芍濯黄正	-10.7029
苑洛志樂	-10.7037
尺工凡六	-10.7055
夷夾無仲黄林太	-10.7307
分八釐三毫	-10.7369
旂	-10.7397
今曲尺	-10.7408
應姑南太林黄仲無夾	-10.7412
無仲黄林太南	-10.7417
朕	-10.7428
醢	-10.7429
饌	-10.7431
頸	-10.7433
禴	-10.7433
旗	-10.7434
兊	-10.7436
后夔	-10.7437
伐檀	-10.7438
完	-10.7438
秘	-10.7438
膳	-10.7439
閑	-10.7439
庫	-10.744
泮	-10.744
齋	-10.7441
馭	-10.7441
張文收	-10.7442
翰	-10.7443
幘	-10.7443
謀	-10.7444
一字一音	-10.7445
劣	-10.7445
營造尺	-10.7445
以樂侑食	-10.7447
恕	-10.7447
樸	-10.7447
昊天上帝	-10.7448
此之謂歟	-10.7448
往往	-10.7448
崇牙	-10.7448
韎	-10.7449
咽	-10.7449
皇言定聲	-10.745
文之以五聲播之以八音	-10.745
蛇	-10.7451
寅九分八	-10.7453
􁄅	-10.7454
黄鐘大吕太簇	-10.7454
浸	-10.7455
不亦可乎	-10.7456
三分損益上下相生	-10.7457
縱横	-10.7459
應三絃散聲	-10.7461
䖍	-10.7469
丨	-10.7472
之率七億	-10.7502
不舉樂	-10.7503
踰	-10.7824
夾夷大㽔應姑南太林黄仲	-10.7834
貍	-10.7845
尺林商	-10.7857
籩	-10.7873
莖	-10.7878
鉞	-10.7878
欣	-10.7879
舟	-10.788
股博	-10.7881
裴	-10.7884
煬帝	-10.7884
茲	-10.7886
曷	-10.7887
瞻	-10.7887
赫	-10.7887
仗	-10.7888
中和之紀	-10.7889
詘	-10.7889
猗	-10.7889
崩	-10.789
占	-10.789
泣	-10.7891
羲	-10.7892
兩君相見	-10.7893
筆談	-10.7893
嚮	-10.7893
妨	-10.7894
紐	-10.7895
檀弓	-10.7895
彰	-10.7895
魏文侯	-10.7895
歛	-10.7896
矯	-10.7896
穿	-10.7897
蠡	-10.7897
大晟樂	-10.7897
覈	-10.7897
籈	-10.7897
爽	-10.7898
萬寳常	-10.79
股肱	-10.79
錘	-10.7901
其南鑮皆南陳	-10.7901
敏	-10.7901
秠	-10.7901
辟廱	-10.7901
梅	-10.7902
参	-10.7902
溪	-10.7902
皮弁素積	-10.7903
羡	-10.7903
暵	-10.7904
紋	-10.7904
概	-10.7905
悠	-10.7907
髮	-10.7908
隊	-10.791
冷	-10.7911
為姑洗置姑洗	-10.7912
哲	-10.7913
壁	-10.7916
一六八九	-10.7917
摘	-10.7918
宫生徵	-10.7925
兮可以濯我	-10.7932
一大調也	-10.794
仲黄林太南姑應㽔大夷夾無	-10.7963
林仲太黄	-10.7968
仲無夾夷大㽔應姑南太林	-10.82
分八釐六毫	-10.8305
䨇	-10.8334
大石調	-10.8357
睿	-10.836
膚	-10.836
雲門大卷	-10.8361
弹	-10.8363
朝覲	-10.8363
諫	-10.8364
抱	-10.8364
箋	-10.8364
忍	-10.8365
燎	-10.8365
鶉火	-10.8366
宋史樂志	-10.8366
濵	-10.8366
辱	-10.8366
祚	-10.8367
豪	-10.8367
狩	-10.8368
靡靡	-10.8368
拾	-10.8369
臝	-10.8369
貳	-10.8371
敝	-10.8371
沒	-10.8372
荀勗	-10.8372
突	-10.8373
劉濓	-10.8373
以銅為之	-10.8374
嗚呼	-10.8375
胷	-10.8375
鹿鳴四牡皇皇者華	-10.8376
葆	-10.8376
縦	-10.8377
登歌令奏擊拊	-10.8377
賡	-10.8378
巴	-10.8379
决	-10.8379
湛	-10.8379
五百一十二	-10.838
詩言志歌永言聲依永律和聲	-10.838
彩	-10.838
十三萬一千七十二	-10.8381
生鍾分	-10.8382
為實先以	-10.8382
楊傑	-10.8382
黄鐘生林鐘	-10.8382
不云乎	-10.8383
法也九其	-10.8383
廵	-10.8383
大同小異	-10.8384
建武銅尺	-10.8384
鳯凰	-10.8385
為無射置無射	-10.8385
脱	-10.8385
噫	-10.8386
南吕無射應鍾	-10.8386
為實上生者四因三歸得	-10.8386
别法以一百乘之七十五除之亦得	-10.8387
姜夔	-10.8389
躔	-10.8391
鑽	-10.8392
緹	-10.8392
笛飲聲	-10.8393
可以濯我	-10.84
旬有五日指	-10.8402
林仲夾	-10.8409
氣至則	-10.8417
南吕長五寸三分	-10.843
節聲樂	-10.8466
三字者	-10.8515
勾工勾	-10.8541
宫生徴	-10.8604
一千六百二十寸	-10.8735
濯應正	-10.8801
个	-10.8802
戌五萬九千	-10.8821
般涉調	-10.8835
釁	-10.8845
孚	-10.8846
苖	-10.8853
虧	-10.8854
黿	-10.8855
琮	-10.8856
險	-10.8857
盥	-10.8857
拱	-10.8859
銅鈸	-10.8861
奕	-10.8862
臯陶	-10.8862
畝	-10.8864
裨	-10.8865
刌	-10.8865
敷	-10.8865
鑮	-10.8866
稼	-10.8867
演	-10.8869
一清一濁	-10.887
樂而不淫	-10.8871
毁	-10.8873
諡	-10.8873
駭	-10.8873
驟	-10.8873
藩	-10.8874
亢	-10.8874
長尺四寸	-10.8875
欒	-10.8875
林鐘生太簇	-10.8875
牛弘	-10.8875
冩	-10.8876
孫士毅	-10.8878
欽定四庫全書經部九	-10.8878
俳	-10.8878
寐	-10.8879
瑗	-10.8879
奢	-10.8879
攝	-10.888
鞠	-10.888
倉	-10.8881
黄帝命伶倫	-10.8881
師古曰	-10.8881
瑭	-10.8883
棧	-10.8883
其辰合	-10.8883
需	-10.8883
撝謙	-10.8885
為南吕置南吕	-10.8885
紙條	-10.8885
發揚蹈厲	-10.8885
珍	-10.8885
䕶	-10.8885
標	-10.8886
滋	-10.8886
弘	-10.8887
為林鍾置林鍾	-10.8887
千分以七百四十九為法除之得	-10.8887
纖有竒舊法置	-10.8887
檀	-10.8887
商生羽	-10.8887
它	-10.8887
凢	-10.8888
荷	-10.8889
為仲吕置仲吕	-10.889
十分三釐八毫	-10.889
歐	-10.889
靈鼓靈鼗	-10.8891
禘祫	-10.8892
紀之以三	-10.8892
認	-10.8892
暮	-10.8892
皮弁	-10.8893
酣	-10.8896
􁄇	-10.8903
黄林太南姑	-10.891
兮之水	-10.8914
太南姑應㽔大夷夾無仲	-10.8936
夷則長五寸	-10.8972
黄林太南姑應㽔	-10.9137
分毎分	-10.9139
林太南姑應㽔大夷夾無仲黄	-10.9176
寸五分八釐	-10.9298
泛	-10.9321
濩	-10.9333
顓	-10.9379
蒲	-10.9384
乏	-10.9384
笛色譜	-10.9386
遜	-10.9388
緜	-10.9388
一二三四五	-10.939
邸	-10.9391
粱	-10.9392
早	-10.9392
耆	-10.9392
宋陳晹撰樂圖論	-10.9393
闔	-10.9394
豹	-10.9395
繞	-10.9395
禀	-10.9395
翠	-10.9396
髹	-10.9397
亡國之音	-10.9397
綏	-10.9397
笛體中	-10.9397
屋	-10.9397
趺	-10.9398
泠	-10.9398
模	-10.9399
緋	-10.9399
大吕夾鐘仲吕	-10.94
褒	-10.94
裘	-10.94
睦	-10.94
礙	-10.9401
掲	-10.9401
勅	-10.9402
僖	-10.9402
㮚氏為量	-10.9402
昆	-10.9402
綜	-10.9403
繒	-10.9403
羽生角	-10.9403
數約以	-10.9405
瞍	-10.9405
昇	-10.9405
仕	-10.9405
舎	-10.9406
叢	-10.9406
櫟	-10.9407
費	-10.9407
琯	-10.9408
斷兩節間	-10.9409
仲尼燕居	-10.9409
四百八十六	-10.9409
循環無端	-10.941
樣	-10.941
一而十一三之	-10.9411
黄鍾生林鍾	-10.9412
下生者倍其法得	-10.9412
九寸四分三釐八毫七絲四忽	-10.9412
平之以六	-10.9413
簫韶九成	-10.9413
為夷則置夷則	-10.9414
☰	-10.9415
董	-10.9415
効	-10.9415
進一位命作	-10.9416
二分九釐七毫	-10.9417
為太蔟置太蔟	-10.9417
為大吕置大吕	-10.9417
應五絃散聲	-10.9418
渉	-10.9418
皇皇者華	-10.9418
橦	-10.9419
羔	-10.942
一徽定之實音為	-10.9421
黄南林仲太黄南林仲	-10.9423
玩	-10.9425
堂上堂下堂上堂下	-10.9428
薫	-10.943
四寸一分八釐	-10.9511
億四千	-10.9901
番	-10.9919
幷	-10.9931
肇	-10.9932
脫	-10.9933
萃	-10.9938
莽	-10.9938
鹽	-10.9939
慕	-10.9939
慨	-10.9942
吻	-10.9943
廂	-10.9943
把	-10.9943
阮	-10.9944
隙	-10.9944
奈	-10.9944
兑	-10.9945
邉	-10.9945
膠	-10.9946
麥	-10.9947
禋	-10.9947
僻	-10.9947
淡	-10.9947
聶	-10.9948
板眼	-10.9948
途	-10.9948
武王伐紂	-10.9949
㦸	-10.9949
㑹守拊鼓	-10.9949
匪	-10.9949
晨	-10.995
淪	-10.995
夷南無應	-10.9951
爾雅釋樂	-10.9951
篤	-10.9951
鞮鞻氏	-10.9951
墓	-10.9951
鑒	-10.9951
南山有臺	-10.9952
儼	-10.9953
俚	-10.9953
縮	-10.9953
左手執籥右手秉翟	-10.9953
冒	-10.9953
鎛師掌金奏之	-10.9954
丸	-10.9955
諒	-10.9955
冢	-10.9956
喧	-10.9956
戸	-10.9957
偕	-10.9957
閭	-10.9957
茂	-10.9958
掌六律六同以合隂陽之聲	-10.9958
湘	-10.9958
應田縣鼓	-10.9959
齊景公	-10.9959
乾隆四十六年	-10.996
帯	-10.9961
公孫崇	-10.9961
轅	-10.9962
齦	-10.9962
嘽	-10.9962
劇	-10.9962
吸	-10.9962
媧	-10.9962
亥一十七萬七千一百四十七	-10.9963
研	-10.9964
踏	-10.9964
淨	-10.9964
廻	-10.9964
沉	-10.9965
九㲈之舞	-10.9966
戍	-10.9967
祁	-10.9967
賂	-10.9967
餘數在半分已下棄之不用	-10.9968
徵生商	-10.9968
汲	-10.997
姬	-10.9972
態	-10.9972
九絲八忽	-10.9973
六斗四升	-10.9975
飬	-10.9975
積筭為實以仲吕倍律積筭為法除之得	-10.9976
一徽定之實音為黄鍾散聲即夷則	-10.9976
馳	-10.9977
禫	-10.9977
之變宮二清右	-10.9978
倍之為實以仲吕倍律積筭為法除之得	-10.9979
欽定四庫全書苑洛志樂卷	-10.9981
應夷蕤夾大應夷蕤夾	-10.9981
龠黍之重為今之	-10.9985
三章章四句	-10.9985
騑	-11.0001
毫八絲四忽	-11.0003
耜	-11.0509
嶺	-11.0518
抃	-11.0521
嚳	-11.0522
停	-11.0526
咎	-11.0527
崔	-11.0527
謁	-11.0528
聿	-11.0528
茨	-11.0528
鄭司農	-11.0528
据	-11.0531
儺	-11.0531
蟠	-11.0532
迨	-11.0533
黙	-11.0533
栁	-11.0535
為實五億乗之	-11.0535
萬已上開	-11.0536
合止柷敔	-11.0536
樂由中出	-11.0536
剖	-11.0537
相為表裏	-11.0537
眇	-11.0538
翁	-11.0538
摯	-11.054
罕	-11.054
翔	-11.0541
搊	-11.0543
詎	-11.0543
裼	-11.0544
斁	-11.0545
陸費墀欽定四庫全書	-11.0546
牟	-11.0546
潛	-11.0547
逓	-11.0547
郤	-11.0548
手之舞之足之蹈之	-11.0549
輾	-11.055
重十二銖	-11.055
以出納五言	-11.055
紘	-11.055
退位為實七億四千	-11.0551
等謹案	-11.0551
冲	-11.0551
君臣民事物	-11.0552
牆	-11.0553
為蕤賔置蕤賔	-11.0555
啼	-11.0556
拔	-11.0556
纍	-11.0556
六尺為歩	-11.0557
鼓瑟鼓琴	-11.0557
傑	-11.0558
為夾鍾置夾鍾	-11.0559
徑三圍九	-11.0559
蓮	-11.0559
沛	-11.056
膝	-11.056
堪	-11.056
個	-11.0561
霓	-11.0562
像	-11.0563
奏姑洗歌南吕	-11.0563
哨	-11.0564
商生羽羽生角	-11.0564
寔	-11.0564
祊	-11.0566
六六三十六	-11.0568
鏞鐘一振鐸二	-11.057
跋	-11.0572
再作再作	-11.0573
相續為用	-11.0578
􁄆	-11.0581
姑應㽔大夷夾無	-11.0614
㽔賔下生大	-11.069
夾鐘下生無	-11.0737
林太南姑應㽔大	-11.0856
晏	-11.1086
黄無南林	-11.1103
訟	-11.1139
襍	-11.1141
填	-11.1144
先聖先師	-11.1147
竪	-11.1147
輒	-11.1148
渡	-11.1149
呈	-11.115
頖宮禮樂䟽	-11.1152
晷	-11.1155
緒	-11.1156
臭	-11.1157
罍	-11.1157
陳祥道曰	-11.1158
欠	-11.1159
揮	-11.116
璆	-11.1161
内容方	-11.1162
鏡	-11.1162
状	-11.1162
鶉	-11.1162
技	-11.1163
冐	-11.1163
轍	-11.1163
鈎	-11.1163
妥	-11.1163
舞干羽	-11.1164
嫄	-11.1164
鄧保信	-11.1165
殖	-11.1165
烖	-11.1166
扇	-11.1166
授舞者兵	-11.1166
嗜	-11.1166
𨽻	-11.1166
樽	-11.1167
斥	-11.1168
寤	-11.1168
軻	-11.1168
活	-11.1168
盆	-11.1169
超	-11.1169
翿	-11.1169
苐	-11.1169
富	-11.1169
跡	-11.1169
波	-11.1169
蓬	-11.1169
以其一為之厚	-11.117
百獸率舞	-11.117
五分九釐四毫六絲三忽	-11.117
太極元氣函三為一	-11.117
四寸一分四釐二毫一絲三忽五微六纎	-11.1171
朔鼙在其北	-11.1172
㳂	-11.1174
辰八十一分六十四	-11.1175
九百一十五萬三千五百三十八	-11.1175
遼	-11.1176
秦始皇	-11.1176
舞動其容	-11.1177
六律正五音	-11.1177
鹵	-11.1177
已二百四十三分一百二十八	-11.1178
詔諸侯以弓矢舞	-11.1178
午七百二十九分五百一十二	-11.1179
粢	-11.1179
絜	-11.1179
弦匏笙簧	-11.1179
之所自出	-11.118
五寸九分四釐六毫	-11.1181
一萬九千六百八十三分八千一百九十	-11.1181
綂	-11.1181
以十有二律為之數度	-11.1181
裂	-11.1182
簜	-11.1183
鼗倚于頌磬西紘	-11.1183
籠	-11.1184
縫	-11.1184
大瑟謂之灑	-11.1184
奏黄鍾歌大吕	-11.1185
冰	-11.1186
巻	-11.1186
不比於正音	-11.1187
穎	-11.1187
有虞氏	-11.1188
觜	-11.1192
桂	-11.1192
贈	-11.1195
徽定之實音為太蔟散聲即南吕	-11.1195
百黍之重為今之	-11.1205
夾夷大㽔應姑南太林	-11.1224
按十徽定之實音為	-11.1227
太林黄仲無夾夷大㽔應姑	-11.1623
工勾一尺	-11.1783
柘	-11.1786
濬	-11.1808
錙	-11.1809
斬	-11.181
宸	-11.1812
大周正樂	-11.1814
徂	-11.1816
屠	-11.182
灸	-11.182
袍	-11.1822
以鐘鼓奏九夏	-11.1823
粲	-11.1823
踵	-11.1823
洲	-11.1824
燒	-11.1826
囊	-11.1826
芟	-11.1827
下管新宫	-11.1828
椅	-11.1828
遞上遞下	-11.1828
魏漢津	-11.1829
貽	-11.1831
抄	-11.1831
霓裳羽衣	-11.1832
禮自外作	-11.1832
鼓羽籥之舞	-11.1832
莭	-11.1832
穡	-11.1832
溷	-11.1833
峻	-11.1833
律吕精義	-11.1833
寘	-11.1833
汗	-11.1833
蘇祗婆	-11.1833
武宿夜	-11.1834
供	-11.1834
握	-11.1834
籟	-11.1836
飭	-11.1836
燥	-11.1836
大戴禮	-11.1836
樵	-11.1837
八尺為歩	-11.1837
參天兩地	-11.1837
沮	-11.1838
舞大夏以祭山川	-11.1838
瞭	-11.1838
柳	-11.1838
鍊	-11.1839
証	-11.1839
賈公彦	-11.184
勉	-11.184
鐘師掌金奏	-11.184
三萬二千七百六十八	-11.184
擯	-11.184
萊	-11.184
亦此意歟	-11.1841
廼	-11.1841
這	-11.1841
晋	-11.1842
筊	-11.1843
剽	-11.1844
㮚	-11.1845
未二千一百八十七分一千	-11.1845
杪	-11.1846
四鈞為石	-11.1846
申六千五百六十一分四千	-11.1846
空積忽微	-11.1847
未酉亥	-11.1847
剔	-11.1847
蔡季通	-11.1847
三分三釐三毫	-11.1848
挑	-11.1848
歌鐘二肆	-11.1848
别法以五十乘之七十五除之亦得	-11.1849
四十九分三萬二千七百六十八	-11.1849
為實下生者二因三歸得	-11.1849
鏄	-11.185
七寸九分三釐七毫	-11.1851
賊	-11.1853
磬無射編磬仲吕	-11.1853
周求徑	-11.1855
挈	-11.1856
遭	-11.1857
丅	-11.1859
肘	-11.186
一徽定之實音為太蔟散聲即無射	-11.1866
荇	-11.1868
侏	-11.1875
旒	-11.2505
陪	-11.2526
迺	-11.2528
袁	-11.2528
𤾉	-11.2528
竟山樂録	-11.2529
琢	-11.2529
甌	-11.2529
齶	-11.2529
恍	-11.2531
妾	-11.2532
迷	-11.2536
嗇	-11.2537
佞	-11.2537
虐	-11.2537
邇	-11.2537
茫	-11.2538
恃	-11.2538
稽之度數	-11.2539
紊	-11.254
產	-11.2541
汎	-11.2541
萬入去籥	-11.2541
愁	-11.2541
悌	-11.2542
本之情性	-11.2542
蹄	-11.2542
楷	-11.2542
掉	-11.2543
趙彦肅	-11.2543
夏籥序興	-11.2545
庠	-11.2545
令奏鐘鼓	-11.2545
播之以八音	-11.2545
銷	-11.2545
科	-11.2545
翣	-11.2545
騶虞九節	-11.2545
拙	-11.2546
訾	-11.2546
甄	-11.2546
緇	-11.2546
醴	-11.2547
娥	-11.2547
治亂以相	-11.2548
佛	-11.2548
梧	-11.2548
𦙍	-11.2548
穫	-11.2549
渝	-11.2549
九百八十二分	-11.2549
樂人宿縣于阼階東笙磬西面其南笙	-11.2549
緣	-11.255
纒	-11.255
長尺圍寸	-11.255
摠	-11.255
宋陳𤾉撰詩訓義	-11.255
台	-11.2551
絙	-11.2551
天子視學	-11.2552
畜	-11.2552
稃	-11.2553
亨	-11.2553
㨿	-11.2554
舞雲門以祀天神	-11.2554
􁃡	-11.2554
矇	-11.2555
猴	-11.2555
溢	-11.2556
肥	-11.2556
屏	-11.2556
祐	-11.2557
元史樂志	-11.2557
皂	-11.2557
旋宫轉調	-11.2557
弔	-11.2557
霆	-11.2558
讙	-11.2559
為實九億	-11.256
又九因一遍至	-11.2561
銜	-11.2561
衮	-11.2561
叔之離磬	-11.2562
顛	-11.2562
禓	-11.2562
閣	-11.2563
以十有二聲為之齊量	-11.2564
敦	-11.2564
宋陳𤾉撰樂圖論雅部八音	-11.2564
五微二纎	-11.2564
四十九分寸之五萬一千八百	-11.2565
吹一字按十	-11.2566
拊芍纓黄正	-11.2567
三笙一和而成聲	-11.2567
律吕闡㣲卷	-11.257
鐘林鐘太簇南吕姑洗應鐘	-11.2571
太簇歌磬太簇編磬	-11.2571
袂	-11.2571
姑洗歌磬姑洗編磬	-11.2572
鎛鐘太簇特磬	-11.2573
工四人二瑟瑟	-11.2574
博古圖	-11.2575
額	-11.2576
鎛鐘姑洗特磬	-11.2576
漳	-11.2577
姑洗歌鐘姑洗編鐘	-11.2578
驅	-11.2591
九千九百二十七	-11.2593
姑洗長七寸一分	-11.2668
姑應㽔大夷夾無仲黄林太南	-11.2676
南太林黄仲無夾夷大	-11.2682
分四釐三毫	-11.2698
南風之時兮可以阜吾民之財兮	-11.2785
徽古度尺	-11.3258
穄	-11.3273
税	-11.328
腥	-11.3286
七徽實音同	-11.3288
新唐書樂志	-11.3289
㢲	-11.3293
騰	-11.3298
音出焉今謂之	-11.33
樂行而倫清	-11.3302
又次上穴	-11.3304
公庭萬舞	-11.3305
喜怒哀樂	-11.3305
赴	-11.3307
紵	-11.3307
亭	-11.3307
懌	-11.3307
阻	-11.3308
陳仲孺	-11.3309
縷	-11.3309
直已而陳	-11.3309
羙	-11.331
盞	-11.3311
軋	-11.3312
閱	-11.3312
㮣	-11.3312
李延年	-11.3312
俊	-11.3313
燭	-11.3313
肝	-11.3314
周徑羃積	-11.3315
下管鼗鼓	-11.3316
勗	-11.3316
以六律六同五聲八音六舞大合樂	-11.3316
鋭	-11.3316
雀	-11.3317
漁	-11.3318
匱	-11.3318
境	-11.3319
邢	-11.3319
迥	-11.3319
鏤	-11.3319
嬴	-11.332
霄	-11.332
攸	-11.3321
贅	-11.3321
屑	-11.3322
藁	-11.3322
𦂳	-11.3322
瓠	-11.3322
狂	-11.3323
䃂	-11.3324
霍	-11.3325
湥	-11.3325
篥	-11.3325
健	-11.3325
李文利	-11.3325
核	-11.3326
三分五釐三毫五絲五忽三微三纎	-11.3326
子初四刻	-11.3326
訊疾以雅	-11.3326
淆入宫音	-11.3327
圈	-11.3327
夙	-11.3327
應南太黄	-11.3327
劉歆銅斛尺	-11.3328
粹	-11.3328
䝉	-11.3328
下管播樂器	-11.3328
上生者四其實三其法	-11.3328
四寸四分三分二	-11.3329
訥	-11.3329
貿	-11.3329
子寅辰午申戌	-11.3329
十分為寸十寸為尺十尺為丈十丈為引	-11.3329
雕	-11.3329
大鐘謂之鏞	-11.3329
誘	-11.3329
始平掘地得古銅尺	-11.333
梨	-11.333
窄	-11.333
苞	-11.333
椌	-11.3332
詭	-11.3332
拊芍足黄正	-11.3332
秪	-11.3332
陽升之数	-11.3333
徽定之實音為姑洗散聲即應鍾	-11.3334
三毫四絲六忽	-11.3336
氷	-11.3338
林鐘簫林鐘簫	-11.3338
開元通寳	-11.3339
林鐘琴林鐘篴	-11.3339
驕	-11.3339
林鐘歌磬林鐘編磬	-11.3339
若樂六變則天神皆降可得而禮矣	-11.334
南吕歌磬南吕編磬	-11.3341
宥	-11.3341
應鐘歌磬應鐘編磬	-11.3342
五分九釐四毫	-11.3344
吹尺字按十一徽定之實音為林	-11.3344
吹尺字按十徽定之實音為林鍾散聲即	-11.3344
舞者就位	-11.3345
一應鼓二堂上堂下堂上堂下	-11.3345
班一人云	-11.3346
閔	-11.3346
徽定之實音為仲吕散聲即黄鍾	-11.3347
倍律積算進一位為實以應	-11.3348
襟	-11.3353
歌大㽔應姑南太林	-11.3357
兔	-11.3361
堂上堂下堂上堂下應鐘鎛鐘	-11.3362
堂上堂下堂上堂下南吕鎛鐘	-11.3377
九微九纎	-11.3716
南姑應㽔大夷	-11.405
恨	-11.4094
庛	-11.4104
此二律相恊	-11.411
什	-11.4114
可黄正芍	-11.4115
輸	-11.4116
晟	-11.4126
簋	-11.4127
淇	-11.4129
毅	-11.4129
鑼	-11.4132
斵	-11.4133
彷	-11.4134
奔	-11.4135
樂由天作	-11.4137
鏘	-11.4138
已上則摩其旁	-11.4138
哇	-11.4139
犬	-11.4139
宋陳暘撰樂圖論	-11.4139
頃	-11.4139
訪	-11.414
勻	-11.414
饒	-11.414
為實以太蔟乗之得	-11.4141
龢	-11.4141
脗	-11.4141
滔	-11.4142
太簇姑洗㽔賔夷則無射	-11.4142
吿	-11.4142
鯨	-11.4142
撼	-11.4143
斂	-11.4143
寥	-11.4144
次上一穴為	-11.4144
嬪	-11.4144
匀	-11.4144
遡	-11.4144
陁	-11.4144
付	-11.4145
困	-11.4145
掃	-11.4145
惻	-11.4146
鄒	-11.4146
瑣	-11.4146
透	-11.4147
樂律表微	-11.4147
賴	-11.4147
雷出地奮	-11.4147
衿	-11.4147
鞭	-11.4148
聨	-11.4149
耀	-11.415
為實以姑洗乗之得	-11.415
遥	-11.415
周南闗雎葛覃卷耳召南鵲巢采蘩采蘋	-11.415
快	-11.415
兎	-11.4151
閡	-11.4151
捨	-11.4151
匡	-11.4151
謚	-11.4151
阼	-11.4152
為分十分為寸十寸為	-11.4153
宫七聲六濁之首	-11.4153
擽	-11.4153
咢	-11.4153
脊	-11.4153
邈	-11.4153
脾	-11.4154
湮	-11.4154
裔	-11.4154
誨	-11.4154
樂由陽來	-11.4154
十二萬四千四百一十六	-11.4155
音而樂之及干戚羽旄謂之樂	-11.4155
爪	-11.4155
盪	-11.4155
王出入奏王夏	-11.4155
尸出入奏肆夏	-11.4155
澗	-11.4155
立均出度	-11.4155
為實以南吕乗之得	-11.4155
鼉	-11.4156
樂律表㣲卷	-11.4156
鑑	-11.4156
蹵	-11.4157
蔟為商姑洗為角林鍾為	-11.4157
千五百六十一分寸之六千五百二十四	-11.4157
去古未逺	-11.4157
十五萬七千四百六十四	-11.4157
為實以林鍾乗之得	-11.4158
輯	-11.4158
一萬六千三百八十四	-11.4158
㺯	-11.4158
舞干羽于兩階	-11.4158
在卦則乾之	-11.4158
凡音之起由人心生	-11.4159
吞	-11.4159
半周半徑相乗	-11.4159
陟	-11.4159
㫁兩節間	-11.416
為堵全為肆	-11.416
瑩	-11.416
繋	-11.416
濶	-11.4161
四寸二十七分寸之二	-11.4161
為實初九因至寸位住得	-11.4161
則不成聲而氣不應	-11.4162
隐	-11.4162
絲又九因至忽位住得	-11.4162
組	-11.4162
五調南風之薰兮可以解吾民之愠兮	-11.4162
毫又九因至絲位住得	-11.4162
恰	-11.4163
袤	-11.4163
先主一而三之四開以合九九	-11.4163
騫	-11.4164
以六樂之㑹正舞位	-11.4164
挎	-11.4164
方圓相函	-11.4164
半律内徑置前所得	-11.4164
勁	-11.4164
毊	-11.4164
冀	-11.4164
食老更	-11.4164
旣	-11.4164
通長者置	-11.4165
一十九分六十四釐一十八毫五十五絲	-11.4165
内外周徑者置	-11.4165
五寸五分五釐	-11.4165
六分其金而錫居一	-11.4166
正律之幂折半為	-11.4166
汾	-11.4167
剥	-11.4168
楬	-11.4168
一尺一寸八分九釐二毫	-11.4168
應鐘歌舞姑洗歌	-11.4169
羽又三分益一得	-11.4169
為實以應鍾乗之得	-11.417
逥	-11.417
皎	-11.4171
三分去一之次故用子聲為羽	-11.4171
􁄈	-11.4172
丌	-11.4173
軟	-11.4173
村	-11.4173
涖	-11.4174
大琴謂之離	-11.4174
疋	-11.4176
𦵏	-11.4176
若樂九變則人鬼可得而禮	-11.4176
涕	-11.4177
以新書本原第	-11.4178
劍	-11.4179
鍾倍律積算為法除之得	-11.418
四寸八分八釐	-11.4185
也仰則兼	-11.4191
月日纒	-11.4191
已上五調皆用	-11.4203
四千三百一十二	-11.439
㽔大夷夾無仲黄林太南姑應	-11.4549
南姑應㽔大夷夾無仲黄林太	-11.469
夷夾無仲黄林太南姑應㽔大	-11.4755
一寸五分七釐一毫三絲四忽八微四纎	-11.4958
頊	-11.502
獄	-11.5021
恥	-11.5025
卵	-11.5026
羮	-11.5027
鋪	-11.5033
徵招角招	-11.5036
鏂	-11.5039
皇祐新樂圖記	-11.504
械	-11.504
徇	-11.504
譽	-11.5041
恤	-11.5041
皦	-11.5043
糾	-11.5044
絡	-11.5046
按十徽定之實音為應鍾散聲即蕤賔	-11.5046
狼	-11.5046
署	-11.5046
韜	-11.5047
懽	-11.5048
逈	-11.5048
楸	-11.5049
遁	-11.505
以絲數起	-11.505
愆	-11.505
踊	-11.505
琶	-11.5051
綬	-11.5051
耗	-11.5051
筌	-11.5051
敘	-11.5051
暨	-11.5052
侵	-11.5053
憤	-11.5053
敕	-11.5054
移宫換羽	-11.5054
腐	-11.5054
司戈盾	-11.5054
匕	-11.5054
北鄙之音	-11.5055
妖	-11.5056
覧	-11.5056
碧	-11.5057
飲卒觶	-11.5057
慿	-11.5057
柴	-11.5058
纛	-11.5058
分子也舊法置一尺以	-11.5058
倘	-11.5059
肯	-11.5059
有奇億約為寸得	-11.5059
帙	-11.5059
逺取諸物	-11.506
逾	-11.506
禮由隂作	-11.506
為合十合為升十升為斗十斗為	-11.506
牀	-11.5061
以管數起絲	-11.5061
勃	-11.5061
話	-11.5061
宋陳𤾉撰周禮訓義春官	-11.5062
次制十二筒	-11.5063
喈	-11.5063
灌	-11.5063
績	-11.5063
泪	-11.5063
疇	-11.5065
紗	-11.5065
衎	-11.5066
豁	-11.5066
籥舞笙鼓	-11.5067
蹙	-11.5067
劭	-11.5067
圍三徑一	-11.5067
酺	-11.5067
勤而不怨	-11.5067
五寸七百二十九分寸之四百五十一	-11.5067
聲淫及商	-11.5067
為法除之所得億約為寸得	-11.5067
餙	-11.5067
以八十一億乗之	-11.5068
杯	-11.5068
萬四千九百七十六	-11.5068
祉	-11.5069
萬分忽之六千三百一十二	-11.5069
剰	-11.5069
纔	-11.5069
之率五億九千四百六十	-11.507
九寸四分三釐八毫	-11.507
以九萬三千三百一十二約之得	-11.507
輙	-11.507
掖	-11.507
宫生徴徴生商商生羽羽生角	-11.5071
約十為九	-11.5071
斟	-11.5071
内庳外髙	-11.5071
正律為中七音琴第	-11.5071
隷	-11.5072
四寸三分八釐五毫三絲一忽	-11.5072
夷則之率六億二千九百九十六萬	-11.5072
觚	-11.5072
釐三毫三絲	-11.5072
巴渝舞	-11.5073
有司攝事	-11.5073
無射之率五億六千一百二十三萬	-11.5073
忽又九因至微位住得	-11.5073
先鼓以警戒	-11.5073
諾	-11.5073
爛	-11.5075
度律均鐘	-11.5075
鍾之數立焉	-11.5075
軰	-11.5075
没	-11.5075
六寸八分一釐七毫九絲二忽	-11.5075
正律内周即半律外周求	-11.5076
揭	-11.5076
隰	-11.5076
街	-11.5076
靁鼓靁鼗	-11.5076
駱	-11.5077
冕而揔干	-11.5077
笛五指聲應	-11.5078
倍律之幂折半為	-11.5078
焚	-11.5079
一位為實以應鍾倍律積筭為法除之得	-11.508
商又三分損一得	-11.508
跬	-11.508
夏日至於澤中之方丘奏之	-11.5081
析為八十一分計八十一	-11.5082
舞應鐘歌鐘應鐘編鐘	-11.5082
遑	-11.5082
奏夷則歌小吕	-11.5082
明韓邦奇撰	-11.5083
冡	-11.5083
日至於地上之圜丘奏之	-11.5083
墳	-11.5086
應鐘琴應鐘篴姑洗	-11.5086
舞畢復位舞者就位播鞉三通	-11.5087
捷	-11.5091
鄼	-11.5093
樊	-11.5095
播鞉三通	-11.5096
株	-11.5097
萬分忽之五千六百四十五	-11.51
姑洗起調姑洗畢曲	-11.5103
之率九億四千三百八十七萬	-11.5322
黄姑蕤姑	-11.5498
風之時兮可以阜吾民之財兮起調畢曲	-11.5768
苗	-11.6007
耒	-11.6015
黼	-11.6024
恬	-11.6028
緝	-11.603
畯	-11.6033
煞	-11.6033
覲	-11.6034
鄧	-11.6034
煎	-11.6035
婚	-11.6036
大樂與天地同和	-11.6037
浩	-11.6042
針	-11.6042
柞	-11.6042
侃	-11.6043
梵	-11.6044
韗	-11.6044
旬	-11.6047
賓牟賈	-11.6047
喬	-11.6047
腎	-11.6047
扺	-11.6047
勘	-11.6048
予欲聞六律五聲八音	-11.6048
禡	-11.6048
押	-11.6049
下管擊應鼓	-11.6049
洩	-11.605
荘	-11.605
賾	-11.605
諌	-11.6051
湖	-11.6051
甕	-11.6051
也有以黄鍾之長均作	-11.6052
億六千七百四十一萬九千九百二十七	-11.6053
酋	-11.6053
故其宫音在第	-11.6053
煖	-11.6054
緫	-11.6056
馘	-11.6056
翰林院檢討毛竒齡撰	-11.6056
為一連事由	-11.6056
晰	-11.6057
隴	-11.6057
簜在建鼓之間	-11.6057
南陔白華華黍	-11.6057
塲	-11.6057
鬻	-11.6057
飽	-11.6057
肖	-11.6058
帽	-11.6058
中和祗庸孝友	-11.6059
平上去入	-11.6059
分母也分字已下	-11.6059
瑕	-11.6059
㳺	-11.606
分子乘之為實以	-11.606
煙	-11.6061
蔑	-11.6061
糓	-11.6062
峯	-11.6062
設業設虡崇牙樹羽	-11.6062
懲	-11.6062
紳	-11.6063
娑	-11.6063
譲	-11.6063
霞	-11.6064
碎	-11.6064
扁	-11.6064
攢	-11.6065
俞	-11.6065
邁	-11.6065
古之神瞽考中聲而量之以制度律均鍾	-11.6065
織	-11.6065
膺	-11.6065
璅	-11.6066
巷	-11.6066
艾	-11.6067
瘠	-11.6067
裹	-11.6067
燧	-11.6068
槌	-11.6068
戞擊鳴球搏拊琴瑟	-11.6068
衫	-11.6068
百官軌儀	-11.6069
嬖	-11.6069
偹	-11.607
萬事根本	-11.607
閨	-11.607
三寸六分六釐三毫六絲	-11.607
籌	-11.607
明朱載堉撰律吕精義内篇	-11.607
弦為㽔賔與第七弦散聲應按第	-11.6071
鬭	-11.6071
與本弦散聲應按第	-11.6071
五降之後不容彈	-11.6072
掌六樂聲音之節與其和	-11.6072
八十九萬八千七百一十八	-11.6072
六千七百八十一	-11.6072
十四萬七千四百五十六	-11.6072
三千五百五十七	-11.6072
渭	-11.6072
角又九分角之一而餘八	-11.6074
刋	-11.6075
頼	-11.6075
婺源江永撰	-11.6075
吁	-11.6076
凡將起五音凡首	-11.6076
无	-11.6077
徴又三分益一得	-11.6077
入門而縣興	-11.6078
六六七一七五	-11.6078
長九寸空圍九分容秬黍	-11.6078
聊	-11.6078
跳	-11.6078
歌磬仲吕編磬	-11.6079
次求三十六律	-11.608
林鐘笙林鐘笙	-11.608
麋	-11.608
磬無射歌磬	-11.6081
冕而總干	-11.6083
窌	-11.6083
宫又三分損一得	-11.6083
寋	-11.6085
臻	-11.6085
邀	-11.6085
孤竹之管雲和之琴瑟雲門之舞冬	-11.6086
十升為斗	-11.6086
若樂八變則地示皆出可得而禮矣	-11.6086
筐	-11.6086
夷則歌舞夾鐘歌	-11.6087
杞	-11.6087
場	-11.6087
揺	-11.6088
曲南風之薰兮可以解吾民之愠兮皆以	-11.6089
箹	-11.609
樅	-11.609
􁐠	-11.6091
棗	-11.6092
法置夾鍾之率	-11.6097
幾百幾十幾	-11.6098
調按十一徽彈第	-11.6107
魄	-11.6108
翩	-11.6117
□􁕚□􁕙□	-11.6132
億四千三百八十七萬四千三百一十二	-11.702
金聲而玉振之	-11.7128
娛	-11.7129
毫奇舊在	-11.7141
桶	-11.7142
櫝	-11.7142
祕	-11.7147
泯	-11.7147
韽	-11.7148
濱	-11.7148
直而温寛而栗	-11.7148
菁菁者莪	-11.7148
詹	-11.715
不以律和之則其聲	-11.7151
其文足論而不息	-11.7151
蔵	-11.7152
倭	-11.7153
螺	-11.7153
臣逸臣瑗謹詳周禮	-11.7153
貝	-11.7153
蘓	-11.7153
𫝑	-11.7155
鐶	-11.7157
禮失求諸野	-11.7157
右五鐘皆應	-11.7157
懾	-11.7157
犍	-11.7158
鑠	-11.7159
儀禮經傳通解	-11.7159
芑	-11.7159
剏	-11.716
貶	-11.716
瓶	-11.716
貉	-11.7161
奏騶虞間若一	-11.7161
殷薦之上帝以配祖考	-11.7161
盃	-11.7161
亟	-11.7161
牖	-11.7162
窺	-11.7162
裝	-11.7163
曜	-11.7163
沐	-11.7163
倡和清濁迭相為經	-11.7164
衢	-11.7164
儕	-11.7164
迫	-11.7165
乂	-11.7165
礿	-11.7165
學記曰不學操縵不能安	-11.7165
誥	-11.7165
革帶烏皮履	-11.7165
替	-11.7166
盗	-11.7166
廩	-11.7166
娶	-11.7166
容貌得莊焉行其綴兆要其節奏	-11.7167
郢	-11.7167
叛	-11.7167
披	-11.7167
紆	-11.7168
訊	-11.7168
屯	-11.7168
司干掌舞器	-11.7168
亞獻終獻	-11.7169
四章章四句	-11.7169
誇	-11.7169
秣	-11.7169
簥	-11.7169
僞	-11.7169
已下則摩其耑	-11.7169
凄	-11.717
翬	-11.7171
行列得正焉進退得齊焉	-11.7171
譚	-11.7171
稻	-11.7172
褾	-11.7172
槐	-11.7172
嵇	-11.7172
陜	-11.7172
寸為實三因分母	-11.7172
趾	-11.7172
蹻	-11.7172
銳	-11.7172
升歌清廟下而管象	-11.7172
揀	-11.7173
㢘	-11.7173
麤	-11.7173
踐	-11.7173
此以所約黄鍾之法而約	-11.7173
舞咸池以祭地示	-11.7173
誡	-11.7173
中士二人下士四人	-11.7173
庣旁九釐五毫	-11.7174
幡	-11.7174
十分其鉦間以其一為之厚	-11.7174
西階之西頌磬東面其南	-11.7175
賔出奏陔	-11.7175
窒	-11.7175
小而長則其聲舒而逺聞	-11.7175
拗	-11.7175
徴招角招	-11.7176
刄	-11.7176
弧	-11.7176
燕射帥射夫以弓矢舞	-11.7176
一建鼓在西階之東南面	-11.7176
依法乘除得	-11.7176
每律減一寸	-11.7176
維清奏象舞	-11.7176
普	-11.7177
濮	-11.7177
騷	-11.7177
比漢前尺一尺	-11.7177
駿	-11.7177
篞	-11.7177
量者龠合升斗斛	-11.7178
八千一百九十二	-11.718
擲	-11.718
矧	-11.718
傲	-11.718
棣	-11.718
澹	-11.718
弦為應鍾與十二弦散聲應按第	-11.7181
畎	-11.7181
揷	-11.7181
􁅁	-11.7181
又九因至分位住	-11.7181
而五度審矣	-11.7181
斑	-11.7181
禖	-11.7182
五寸六分一釐二毫三絲一忽	-11.7182
法置林鍾之率六億六千七百四十一萬	-11.7182
弦為林鍾與第八弦散聲應按第	-11.7182
弦為夷則與第九弦散聲應按第	-11.7183
弦為夾鍾與第四弦散聲應按第	-11.7183
弦為無射與十一弦散聲應按第	-11.7183
其長三寸九分而吹之以為黄鍾之宫	-11.7183
為實以分法二千一百八十七除之得	-11.7183
經世大訓	-11.7183
起宫南變徴南變宫南角南羽南商	-11.7183
撻	-11.7183
夘二十七分十六	-11.7183
纎凡九因八遍共得	-11.7183
以金錞和鼓	-11.7184
溝	-11.7184
滿千毫為釐	-11.7184
弦為太蔟與第三弦散聲應按第	-11.7184
弦為姑洗與第五弦散聲應按第	-11.7184
為實九因一遍至寸位住得	-11.7184
糊	-11.7184
為君商為臣角為民徴為事羽為物	-11.7184
改煎金錫則不耗不耗然後權之權之	-11.7184
八十九萬六千四百一十五	-11.7185
宅	-11.7186
嬰	-11.7186
鉅	-11.7186
大琴大瑟中琴小瑟四代之樂器也	-11.7186
畜聚之臣	-11.7186
起宫太變徴太變宫	-11.7187
液	-11.7187
灼	-11.7187
夷則起宫林變徴	-11.7188
飫	-11.7189
路鼔路鼗	-11.7189
變宫而一均七聲偹矣此	-11.719
十七萬四千七百六十二	-11.719
黄無林仲夾黄無林仲夾黄無	-11.7191
矜	-11.7191
潜	-11.7192
貪	-11.7192
揩	-11.7193
桀	-11.7193
俘	-11.7194
揉	-11.7194
詆	-11.7194
愽	-11.7195
捉	-11.7195
凾	-11.7195
鎗	-11.7195
九商八羽七角六宫五	-11.7196
琴姑洗篴應鐘簫應鐘簫姑洗簫姑洗簫	-11.7196
笙應鐘笙姑洗笙姑洗笙應鐘瑟應鐘	-11.7196
引商刻羽	-11.7203
法置太蔟之率	-11.7208
邕	-11.7209
剋	-11.7212
調属木南	-11.7214
轡	-11.7219
觝	-11.722
盬	-11.7234
甸	-11.8369
柈	-11.8374
穗	-11.8387
狐	-11.8389
碩	-11.839
恪	-11.8392
緦	-11.8392
軹	-11.8393
桑間濮上	-11.8393
惚	-11.8396
霸	-11.8397
筰	-11.8398
春秋教以禮樂冬夏教以詩書	-11.8398
剛而無虐簡而無傲	-11.8398
屡	-11.8399
為實實如法而一得	-11.8399
百度得數而有常	-11.84
馴	-11.84
帷	-11.8401
嫁	-11.8402
楯	-11.8402
鄴	-11.8402
禦	-11.8402
大胥掌學士之版以待致諸子	-11.8404
七萬八千五百六十七分	-11.8404
鞚	-11.8404
拭	-11.8406
芝	-11.8406
妓	-11.8407
蔈	-11.8407
苻	-11.8407
蒐	-11.8407
掦	-11.8408
倕	-11.8409
長孫紹逺	-11.841
觴	-11.841
正應正和正應	-11.841
摭	-11.8412
凡小祭祀小樂事鼓	-11.8412
崖	-11.8412
匶	-11.8412
聆	-11.8412
瞋	-11.8413
鉏	-11.8413
誓	-11.8413
瑾	-11.8413
闇	-11.8413
瑶	-11.8414
飄	-11.8414
俄	-11.8414
查	-11.8414
裕	-11.8415
閼	-11.8415
策	-11.8415
金石以動之絲竹以行之	-11.8415
墻	-11.8416
貼	-11.8417
綺	-11.8417
鋒	-11.8417
憚	-11.8418
羗	-11.8418
蝕	-11.8418
惰	-11.8419
着	-11.8419
偉	-11.8419
愧	-11.8419
黃鐘笙林鐘笙太簇笙南吕笙黃鐘	-11.842
邳	-11.842
遐	-11.842
屨	-11.842
餘數以分法二千一百八十七除之得	-11.8422
古之神瞽考中聲而量之以制	-11.8422
舜彈五絃之琴	-11.8422
橫	-11.8422
寸納分子之	-11.8422
虵	-11.8422
槁	-11.8423
孝子相戒以養	-11.8423
縣一鍾而尚拊大戴禮曰縣一磬而尚拊	-11.8423
評	-11.8423
濤	-11.8423
教皇舞帥而舞旱暵之事	-11.8423
一生二二生三三生萬物	-11.8424
亦皆黄鍾本數也	-11.8425
盎	-11.8425
三分所生去其一分以下生	-11.8425
寵	-11.8426
觥	-11.8426
渺	-11.8426
鋤	-11.8426
擁	-11.8426
大夫判縣士特縣	-11.8426
十三黍又三分黍之一	-11.8427
氣應有早晚灰飛有多少	-11.8427
牌	-11.8427
已得二百四十三又參之	-11.8427
未得二千一百八十七又參之	-11.8427
三分所生益之一分以上生	-11.8427
午得七百二十九又參之	-11.8427
彪	-11.8428
弩	-11.8428
摝	-11.8428
雎	-11.8428
珪	-11.8428
酸	-11.8428
虗	-11.8428
鐘編磬林鐘編磬太簇編磬南吕編磬	-11.8428
鐘編鐘林鐘編鐘太簇編鐘南吕編鐘	-11.8429
和展百事俾莫不任肅純恪也	-11.843
篴林鐘篴太簇篴南吕篴	-11.843
既不可行當有以通之	-11.843
辜	-11.843
鉛	-11.843
一曰姑洗玉律二曰小吕玉律三	-11.843
黄仲無夾夷大㽔應姑南	-11.8431
論倫無患	-11.8431
以副十二月十二各以三成故置	-11.8431
一分九釐一釐九毫一毫九絲以之生十	-11.8431
律以之生五聲二變上下	-11.8431
一一八六五四七五	-11.8431
八萬七千三百八十一小分二百	-11.8431
形諸動静	-11.8432
一建鼓在其南東鼓	-11.8432
微又九因至纎位住得	-11.8433
滴	-11.8433
姑洗之數六十四主三月下生應	-11.8433
瑟林鐘瑟太簇瑟南吕瑟	-11.8433
綿	-11.8434
大吕為角則南吕為宫太	-11.8434
叟	-11.8434
三忽五微五纎	-11.8434
臂	-11.8434
鞻	-11.8434
黃鐘起宫應變徴應變宫	-11.8434
罩	-11.8434
去二分以為舞廣	-11.8434
籥師掌教國子舞羽龡籥	-11.8434
共得一十四寸一分四釐	-11.8434
祓	-11.8434
鐘歌林鐘歌太簇歌南吕歌	-11.8434
鐘歌磬林鐘歌磬太簇歌磬南吕歌磬	-11.8434
鐘歌鐘林鐘歌鐘太簇歌鐘南吕歌鐘	-11.8434
鐘琴林鐘琴太簇琴南吕琴	-11.8434
六變而致象物及天神	-11.8435
頤	-11.8435
術曰以下生者倍其實三其法	-11.8435
食三老五更於	-11.8435
之為釐法三三之為毫法一三之為絲法	-11.8435
髀	-11.8436
熹	-11.8436
繇此之義起十二律之周徑	-11.8436
六寸二分九釐九毫六絲	-11.8437
嵩	-11.8437
彛	-11.8437
解秬黍體大本異	-11.8437
上而以土埋之上平	-11.8437
十分其銑去二以為鉦	-11.8437
之數七十六主十二月下生夷則	-11.8437
一釐四毫一絲六忽	-11.8437
夫律以空圍之同故	-11.8437
水火金木土穀	-11.8438
商之次故還用正聲為角	-11.8438
悔	-11.8438
空積忽㣲	-11.8438
滿千釐為分	-11.8438
黃鐘歌鐘黃鐘編鐘	-11.8438
興道諷誦言語	-11.8439
觔	-11.8439
貎	-11.8439
于西階上少東樂正先升北面立于其西	-11.8439
埒	-11.8439
獶雜子女不知父子	-11.8439
靴	-11.8441
奏無射歌夾鐘舞大武以享先祖	-11.8441
宋陳暘撰周禮訓義	-11.8441
非宫則失其所	-11.8441
鳧	-11.8441
無仲黄林太南姑應㽔大夷	-11.8442
儆	-11.8442
㽔賔起宫仲變徴仲變	-11.8442
黃鐘歌磬黃鐘編磬	-11.8442
黃鐘笙黃鐘笙	-11.8442
南吕琴南吕篴太簇	-11.8442
笙南吕笙太簇笙太簇笙南吕瑟南吕	-11.8442
南吕歌鐘南吕編鐘太簇歌鐘太簇編鐘	-11.8443
黃鐘簫黃鐘簫	-11.8443
十二銖則是累九十黍以	-11.8443
黄鐘笙林鐘笙太簇笙南吕笙黄鐘	-11.8443
舞林鐘歌鐘林鐘編鐘	-11.8443
堂上堂下堂上堂下林鐘鎛鐘林鐘鎛鐘	-11.8444
箴	-11.8444
蹋	-11.8444
冶	-11.8446
仲吕琴仲吕篴無射	-11.8446
􁄊	-11.8446
為商之次故用子聲為角	-11.8447
蘩	-11.8447
濓	-11.8447
邱	-11.8448
硬	-11.845
齪	-11.8451
褶	-11.8452
黍之重為今之二錢	-11.8455
姥	-11.8456
對用童男二人象教	-11.8457
乃命上商除實數	-11.8461
上仲宫中聲之宫聲髙於羽	-11.8488
咨	-11.8501
尼	-11.9808
殫	-11.9811
􁌹	-11.9812
岸	-11.9815
窪	-11.9815
不可斯須去身	-11.9818
憶	-11.9821
鵰	-11.9823
韋表穅裏	-11.9823
其臋一寸其實一豆	-11.9824
倅	-11.9825
靺	-11.9826
摹	-11.9827
彞	-11.9827
不學博依不能安詩	-11.9827
和故百物皆化	-11.9827
回邪曲直各歸其分	-11.9827
犀	-11.9829
四寸一分四釐二毫一絲三忽五㣲六纖	-11.9829
彖	-11.983
不和不樂而鄙詐之心入之矣	-11.983
柲	-11.9831
湎	-11.9832
圅	-11.9833
溯	-11.9833
恢	-11.9833
瓜	-11.9833
耻	-11.9833
㓙	-11.9833
件	-11.9834
糺	-11.9834
亶	-11.9835
禱	-11.9835
媚	-11.9836
蘋	-11.9836
臚	-11.9836
躁	-11.9837
檐	-11.9837
移風易俗莫善於樂	-11.9837
雲翹育命	-11.9838
罔	-11.9839
叠	-11.9839
修身及家平均天下	-11.9839
囚	-11.9839
朒	-11.9839
序故羣物皆别	-11.984
槽	-11.984
豳雅豳頌	-11.984
鬬	-11.9841
躋	-11.9841
寸之尺起度則	-11.9841
墮	-11.9842
大師執同律以聽軍	-11.9842
昻	-11.9842
譟	-11.9842
悼	-11.9842
幢	-11.9842
另	-11.9842
嘯	-11.9842
蜜	-11.9843
壑	-11.9843
誦夏弦大師詔之瞽宗	-11.9844
古者於旅也語	-11.9844
雒	-11.9844
有凶豐地有肥瘠種有長短	-11.9844
鵞	-11.9845
涂	-11.9845
憾	-11.9845
聾	-11.9845
捲	-11.9845
滕	-11.9846
五聲六律十二管還相為宫	-11.9846
分故其實總得此數又以	-11.9847
娘	-11.9847
泄	-11.9847
而當一粟十二粟而當一寸	-11.9847
大不踰宫細不過羽	-11.9847
浹	-11.9847
其本在人心之感於物也	-11.9848
流入于南不歸于北	-11.9848
溫	-11.9848
武始而北出再成而滅商	-11.9848
天子所以享元侯	-11.9848
軷	-11.9848
大章章之也咸池備矣	-11.9849
鼓人掌教六鼓四金之音聲以節聲樂	-11.9849
然後凖之凖之然後量之	-11.9849
三成而南四成而南國是疆五成而	-11.9849
咋	-11.9849
姚	-11.9849
丘歌南山有臺笙由儀	-11.9849
狗	-11.985
掆	-11.985
細鈞有鐘無鎛昭其大也	-11.985
鷄	-11.985
性術之變盡於此矣	-11.9851
菽	-11.9851
以和軍旅以正田役	-11.9851
璜	-11.9851
㒺	-11.9851
潦	-11.9851
潘	-11.9851
攙	-11.9851
膏	-11.9851
斌	-11.9851
猷	-11.9851
白次之黄白之氣竭青白次之青白之氣	-11.9851
八風從律而不姦	-11.9851
百世之下欲求	-11.9851
六分其厚以其一為之深而圜之	-11.9852
不盈寸者十之所得為分	-11.9852
於子化生萬物者也	-11.9852
竾	-11.9852
六百一十八為仲吕之	-11.9853
僚	-11.9853
滑	-11.9853
餘數又以釐法二百四十三除之得	-11.9853
黜	-11.9853
箇一千七百二十八為姑洗之	-11.9853
十七萬七千一百四十七此隂陽合徳氣	-11.9854
舞師掌教兵舞帥而舞山川之祭祀	-11.9854
羃百六十二寸深尺積一千六百二十寸	-11.9854
以二十七為一毫則得毫者	-11.9854
無射所以宣布哲人之令徳示民軌儀也	-11.9854
侔	-11.9854
禜	-11.9854
醒	-11.9854
磬夷則笙夾鐘笙無射笙仲吕笙夷則	-11.9854
閎	-11.9854
荒其君驕商	-11.9855
四十八以為羽三分益一六十四以為角	-11.9855
以三為一絲則得絲者	-11.9855
編鐘大吕編鐘姑洗編磬應鐘編磬	-11.9855
歌磬大吕歌磬姑洗笙應鐘笙㽔	-11.9855
琴大吕琴姑洗簫應鐘簫㽔	-11.9855
瑟大吕瑟姑洗琴應鐘琴㽔	-11.9855
笙大吕笙姑洗瑟應鐘瑟㽔	-11.9855
笙入堂下磬南北面立	-11.9855
笙大吕笙姑洗塤應鐘	-11.9855
編磬大吕編磬姑洗笙應鐘笙	-11.9855
參同契合無所不通	-11.9855
尺長四分半所校古法有七	-11.9856
廱	-11.9856
擾	-11.9856
駮	-11.9856
璣	-11.9856
又參之於辰得八十一又參之	-11.9856
萬三千五百六十三	-11.9856
又參之於戌得五萬九千	-11.9856
琴仲吕琴夷則簫夾鐘簫無射簫仲吕簫	-11.9856
間歌三終合樂三終	-11.9856
眼	-11.9856
姑洗歌鐘應鐘歌鐘㽔	-11.9856
竭青氣次之然後可鑄	-11.9857
箇一千一百五十二為應鐘之	-11.9857
琨	-11.9857
篴大吕篴姑洗簫應鐘簫	-11.9857
尖	-11.9857
從其方位加律其上以葭莩灰抑其内端	-11.9857
迴	-11.9857
大無夷仲夾大無夷仲夾大無	-11.9858
不知奚據而云	-11.9858
歧	-11.9858
先王之樂所以節百事也故有五節	-11.9858
明朱載堉撰律吕精義外篇	-11.9858
課	-11.9858
下生者三分去一上生者三分益一	-11.9858
通禮義纂曰	-11.9859
詰	-11.9859
以八十一億乗之折半退位為實	-11.9859
穅	-11.986
冗	-11.986
馬融長笛賦	-11.986
之差則法於此而遂變不以約十	-11.986
裙	-11.986
内黙具律寸分釐毫絲之法而又於此律	-11.986
庳	-11.9861
九之法分之則有終不可得而齊者	-11.9861
之下指其大者以明凡例也一三之而	-11.9861
粉	-11.9861
誄	-11.9861
為實以釐法二百四十三除之得	-11.9862
䇾	-11.9862
現	-11.9862
入月其氣即應或至中下旬間氣始應	-11.9862
夾振之而駟伐盛威於中國	-11.9862
而候之氣至者灰去	-11.9862
迭以吹則中聲可得淺深以列則中氣可	-11.9862
洫	-11.9863
苹	-11.9863
嗄	-11.9863
四十三則釐法也九其二百四十三得二	-11.9863
因而九之九九八十一故黄鐘之數立焉	-11.9863
做	-11.9863
篴仲吕篴夷則簫夾鐘簫無射簫仲吕簫	-11.9863
舞上謂之甬甬上謂之衡	-11.9863
魁	-11.9864
以其鉦為之銑間	-11.9864
鬯	-11.9864
朱干玉戚以舞大武八佾以舞大夏	-11.9865
再變而致臝物及山林之示	-11.9865
顔淵問為邦	-11.9865
卑不踰尺髙不越腹	-11.9865
此聲氣之元五音之正也	-11.9865
跗	-11.9865
笙夾鐘笙無射笙仲吕笙夷則塤夾鐘	-11.9865
塤太簇瑟太簇箎	-11.9865
徽定之實音為南吕散聲即姑洗四弦	-11.9865
沼	-11.9866
一變而致羽物及川澤之示	-11.9866
徽定之實音為黄鍾散聲即林鍾六弦	-11.9866
辛彦之鄭譯何妥	-11.9866
觵	-11.9866
酧	-11.9866
狎	-11.9867
霤	-11.9867
染	-11.9867
讖	-11.9867
五二五三七一四五四	-11.9867
而宫音調因而九之九九八十一故黄	-11.9867
幕	-11.9868
袪	-11.9868
薨	-11.9868
相去一律則音節和相去二律則音節逺	-11.9868
太簇為角姑洗為徴南吕為羽	-11.9868
此兩尺長短近同	-11.9868
不必親相與言也以禮樂相示而已	-11.9869
殳	-11.9869
大吕起宫黃變徴黃變宫	-11.9869
箭	-11.9869
梢	-11.9869
瘠之異取黍大小未必得中	-11.987
燔黍捭豚	-11.987
金石有聲不考不鳴	-11.987
三分黍之一以九十因之則一千二百也	-11.987
嘉量章則以千二百黍實其龠謹	-11.987
量定不徒然正以時有水旱之差地有肥	-11.987
是圍十分三釐八毫徑三分四釐六毫也	-11.9871
為長積千二百黍以為廣可見也夫	-11.9871
鑚	-11.9871
和氣應者其政平猛氣應者其	-11.9871
罶	-11.9871
載道而與之俱	-11.9872
瓊	-11.9872
大琴必以大瑟配之	-11.9872
琴太簇篴南吕簫南吕簫太簇簫太簇簫	-11.9872
夷則之數五十一主七月上生夾	-11.9872
如牛鳴窌中	-11.9872
變徴又九分角之一而餘六分得	-11.9872
曰此是降神之樂如黄	-11.9873
九十黍容千二百黍則空圍當有九方分	-11.9873
耨	-11.9874
笙仲吕笙無射笙無射笙仲吕瑟仲吕	-11.9874
箇一千二百九十六為南吕之	-11.9874
仲吕歌鐘仲吕編鐘無射歌鐘無射編	-11.9874
琴無射篴仲吕簫仲吕簫無射簫無射簫	-11.9874
姤	-11.9875
芽	-11.9875
賚	-11.9875
管長尺六孔為十二月音	-11.9875
夾鐘歌磬夾鐘編磬夷則歌磬夷則編磬	-11.9875
鐘笙夾鐘笙夷則笙夷則笙夾鐘瑟夾鐘	-11.9875
惟審度章云一黍之廣度之九十分黄	-11.9875
琴夷則篴夾鐘簫夾鐘簫夷則簫夷則簫	-11.9876
引舞持帗者左班一人云第	-11.9876
禆	-11.9877
起調畢曲為諸聲之綱至二變聲	-11.9878
殽	-11.9878
林鐘上生太簇太簇下生南吕南吕	-11.9879
俗呼中管仙吕	-11.988
鵲	-11.9881
篾	-11.9881
韭	-11.9882
箇一千四百五十八為林鐘之	-11.9883
襖	-11.9884
無夷蕤夾大無夷蕤夾大無夷	-11.9885
仰瞻囘顧第	-11.9886
寗	-11.9888
聲相應故生變變成方謂之音比	-11.9895
垣	-11.99
魂	-11.9902
為實五億乗之六億六千七百四十一萬	-11.9926
臥	-12.1191
央	-12.1226
扃	-12.142
灑	-12.1457
渤	-12.1461
黏	-12.1463
謗	-12.1471
朽	-12.1471
諤	-12.1472
狸	-12.1475
儷	-12.1475
播之以八音金石土革絲木匏竹	-12.1475
挽	-12.1478
飜	-12.1478
劔	-12.1479
煌	-12.1481
其耳三寸其實一升	-12.1484
仆	-12.1484
脆	-12.1485
醼	-12.1485
順先王詩書禮樂以造士	-12.1486
棘	-12.1488
罄	-12.1488
曰夔命汝典樂	-12.1489
樂正崇四術立四教	-12.1489
疉	-12.1489
篍	-12.149
洋	-12.1492
俛	-12.1492
遒	-12.1492
燈	-12.1492
慙	-12.1492
櫓	-12.1493
音之屬總序臣謹按	-12.1494
殄	-12.1494
遮	-12.1494
涓	-12.1494
姻	-12.1494
協時月正日同律度量衡	-12.1496
嫂	-12.1496
盟	-12.1497
稅	-12.1498
禰	-12.1498
田畯國祭蜡則龡豳頌擊土鼓以息老物	-12.1498
颺	-12.1498
土鼓龡豳詩以逆暑中秋夜迎寒亦如之	-12.1499
駢	-12.1499
諺	-12.15
孳	-12.15
舂牘應雅以教祴樂	-12.15
祭祀舞者既陳則授舞器既舞則受之	-12.15
侮	-12.1501
莪	-12.1501
凡學世子及學士必時春夏學	-12.1501
摧	-12.1501
惲	-12.1501
菁	-12.1502
搜	-12.1502
戮	-12.1502
寰	-12.1502
笄	-12.1502
䧟	-12.1503
德為之本以六律為之音	-12.1503
淚	-12.1503
共得二十八寸二分八釐四毫二絲	-12.1504
駉	-12.1504
律小大之稱比終	-12.1504
枌	-12.1504
漚	-12.1504
縈	-12.1505
筮	-12.1505
祭奏齊夏族人侍	-12.1505
塨	-12.1505
槍	-12.1505
摰	-12.1505
少宫王于中央也於	-12.1505
陌	-12.1505
傀	-12.1506
糧	-12.1506
荼	-12.1506
自鶉及駟七列	-12.1506
冦	-12.1507
二調之宫音皆在第	-12.1507
籔	-12.1507
十尺為丈十丈為引	-12.1508
元熊朋來撰	-12.1508
浙	-12.1508
㓕	-12.1508
纍纍乎端如貫珠	-12.1508
疫	-12.1508
稀	-12.1508
儻	-12.1508
武盡美矣未盡善也	-12.1509
督	-12.1509
箛	-12.1509
含黄鍾以吐幹	-12.1509
匾	-12.1509
豻	-12.151
榦	-12.151
盡筋骨之力	-12.151
奠爵遂拜執爵興	-12.151
輳	-12.151
禮樂皆得謂之有德	-12.151
上瞽四十人中瞽百人下瞽百有六十人	-12.151
府一人史一人胥二人徒二十人	-12.151
猨	-12.151
合焉凡此宫之旋而在	-12.1511
之所震動清濁之所由出侈弇之所由興	-12.1511
彥	-12.1511
彝	-12.1511
顆	-12.1511
艱	-12.1511
軀	-12.1511
閩	-12.1511
愼	-12.1512
大鐘十分其鼓間以其一為之厚	-12.1512
挨	-12.1512
傚	-12.1512
槀	-12.1512
稜	-12.1513
鷙	-12.1513
恵	-12.1514
卑者之子不得舞宗廟之酎	-12.1514
大雩帝用盛樂	-12.1514
十三舞勺成童舞象二十舞大夏	-12.1514
同民心出治道	-12.1514
粗厲猛起奮末廣賁之音作而民剛毅	-12.1514
猜	-12.1514
緐	-12.1514
眂	-12.1515
君子於是語於是道古	-12.1515
寛裕肉好順成和動之音作而民慈愛	-12.1515
祛	-12.1515
方以類聚物以羣分	-12.1515
曳	-12.1515
鷰	-12.1516
劃	-12.1516
攠	-12.1516
删	-12.1516
生商變商生羽變羽生角變角生宫	-12.1516
形而上者謂之道形而下者謂之器	-12.1516
吕南吕生姑洗姑洗生應	-12.1516
生夷則夷則生夾鍾夾鍾生無射無射生	-12.1516
緻	-12.1517
圓周四十容方九	-12.1517
之樂衆矣所待以作者在	-12.1517
伯氏吹壎仲氏吹篪	-12.1517
芹	-12.1517
之宫而皆可以生之是為律本	-12.1517
九十二釐七百五十一毫	-12.1517
鉢	-12.1517
掛	-12.1517
感動人之善心	-12.1517
迅	-12.1517
之律固起于龍齦而為	-12.1517
簫大吕簫應鐘拊大吕拊	-12.1518
毳	-12.1518
謂之旋旋蟲謂之幹	-12.1518
陷	-12.1518
梳	-12.1518
彫	-12.1518
挾	-12.1518
鑾	-12.1518
繁文簡節之音	-12.1518
取竹之解谷生其竅厚	-12.1519
寸上生者四因得	-12.1519
之二八十六枚而在一簴謂之堵	-12.1519
澮	-12.1519
句三股四弦五	-12.1519
坦	-12.1519
尺也依古尺更鑄銅律	-12.152
籥章掌土鼓豳籥	-12.152
射人以射法治射儀王	-12.152
襠	-12.152
陽下生隂隂上生陽	-12.1521
又參之於寅得九又參之於夘得二十七	-12.1521
鎭	-12.1521
喟	-12.1521
朞	-12.1521
親廟在東惟我子孫永	-12.1521
棲	-12.1521
簫大吕簫應鐘鼗大吕鼗	-12.1521
世之前之律者其亦求之於聲氣之元而	-12.1521
以二千一百八十七為一分則得分者	-12.1521
師中士四人下士八人	-12.1521
欘	-12.1521
四十九又參之於亥得	-12.1521
忖	-12.1521
以雅以南以籥不僭	-12.1522
歌鐘大吕歌鐘姑洗歌磬應鐘歌磬㽔	-12.1522
以一聲叶一字則古詩篇篇	-12.1522
五曰夷則所以詠歌九則平民無貳也	-12.1522
宮音由本音而	-12.1522
位子其數八十一主十一月下生林	-12.1522
肱	-12.1523
磬氏為磬倨句一矩有半	-12.1523
右羽之徴蕤賔之徴	-12.1523
列管匏中施簧管端	-12.1523
府二人史二人胥二人徒二十人	-12.1523
三變而致鱗物及丘陵之示	-12.1523
清右羽之角蕤賔之角	-12.1523
於申得六千五百六十一又參之於酉得	-12.1523
之數七十二主正月下生南吕	-12.1523
南吕之數四十八主八月上生姑洗	-12.1523
煥	-12.1524
天下有道禮樂自天子出	-12.1524
天下無道禮樂自諸侯出	-12.1524
清右變徴之徴中呂之徴	-12.1524
逕	-12.1524
分一漢書云長九寸者九分之寸也	-12.1524
自絲以下雖非目力之所能分然既有其	-12.1524
訶	-12.1524
下管象舞大武大合衆以事	-12.1525
床	-12.1525
迪	-12.1525
奏無射歌夾鍾舞大武以享先祖	-12.1525
右羽之宮蕤賔之宮一清右羽之	-12.1525
清右變徴之角中呂之角	-12.1525
紓	-12.1525
云律九九八十一故云八寸	-12.1525
六分為雌雄故曰十二	-12.1525
為一分則共為八十一分約以	-12.1525
故淮南太史公之書其論此也已詳特	-12.1525
以其甬長為之圍	-12.1525
倍律自乗所得折半即是	-12.1525
元間大吕助宣物也	-12.1525
弦為仲吕與第六弦散聲應按第	-12.1525
弦為黄鍾與第一弦散聲應按第	-12.1525
鄭音好濫淫志	-12.1525
浴	-12.1525
翅	-12.1525
和邦國諧萬民	-12.1525
所以宣養六氣九徳也	-12.1525
國語伶州鳩曰律所以立均出度也	-12.1526
之聲皆不當位反不如和峴舊樂之	-12.1526
鳬	-12.1526
以其鉦之長為之甬長	-12.1526
曰正歌備樂正告于賔乃降	-12.1526
不知變律之法但見仲吕反生不及黄	-12.1526
曰西京銅望臬四曰金錯	-12.1526
而致毛物及墳衍之示五變而致介物及	-12.1527
夫律長則聲濁而氣先至極	-12.1527
六六七四一九九二七	-12.1527
除之所得億約為寸得夾鍾夾鍾長	-12.1527
夤	-12.1527
簾	-12.1527
㓗	-12.1527
此其大凡也今欲求聲氣之中而莫適	-12.1527
葱	-12.1527
貧	-12.1527
十分為一寸十寸為一尺十尺為一丈	-12.1527
一寸二分一釐一毫六絲七忽五微二纎	-12.1528
三分之而損一分其位則在	-12.1528
巡舞列而撻其怠慢者	-12.1528
裸	-12.1528
㸔	-12.1528
清廟之瑟朱絃而䟽越	-12.1528
分又九因一遍至釐位住得	-12.1528
陽生於子至午而盡到未又生出一黄鍾	-12.1528
除之所得億約為寸得姑洗姑洗長	-12.1528
箇一千五百三十六為㽔賓之	-12.1529
鄭康成月令註曰凡律空圍九	-12.1529
芼	-12.1529
既歌而語以成之也言父子君臣長	-12.1529
醜	-12.1529
六絲一忽五微五纎	-12.1529
七十二以三分之不盡二筭	-12.1529
除之所得億約為寸得無射無射長	-12.1529
二間夾鍾出四隙之細也	-12.1529
所動者其灰散人及風所動者其灰聚	-12.1529
五寸二分九釐七毫三絲一忽五微四纎	-12.1529
内收十八分為二寸	-12.1529
正律面幂進一位即	-12.1529
末以相及中聲以降五降之後不容彈矣	-12.153
恰用六律而宮之	-12.153
􁆳	-12.153
一十三釐五十六毫二十三絲七十三忽	-12.153
除之所得億約為寸得林鍾林鍾長	-12.153
除之所得億約為寸得夷則夷則長	-12.153
以是生黄鍾小素之首以成宫	-12.153
建日冬至之聲以黄	-12.153
一寸二分八釐三毫七絲二忽五微二纎	-12.153
時惟此適與度量合故可用今時則不同	-12.1531
以笙定琴以琴定瑟	-12.1531
攅	-12.1531
得管之寸數然後半之以為子聲之	-12.1531
上生者四其法得四寸二十分	-12.1531
二寸一分八釐七毫一絲五忽	-12.1531
一寸一分一釐一毫一絲一忽一微一纎	-12.1531
五聲次第自是不足何者黄	-12.1531
為聲氣之元其管最長故以黄	-12.1531
一百八十七以九分之則為二百四十三	-12.1531
洎	-12.1532
耘	-12.1532
仲遂卒于垂壬午猶繹萬入去籥	-12.1532
焉而辰在析木	-12.1532
笴	-12.1532
六寸六分七釐四毫一絲九忽九微二纎	-12.1532
塤黃鐘瑟黃鐘箎	-12.1532
五者皆亂迭相陵	-12.1533
汕	-12.1533
簸	-12.1533
劉曜渾天儀土圭尺	-12.1533
無射之數四十五主九月上生仲吕	-12.1533
蕤姑太應南蕤姑太應南蕤姑	-12.1533
三梁表尺實比晉前尺一尺二分二	-12.1533
以别十二律其雄鳴為六雌鳴亦六以	-12.1533
凑	-12.1533
按彈内散扣外	-12.1533
除之所得億約為寸得應鍾應鍾長	-12.1533
譌	-12.1533
黄鐘小素之首以成宫	-12.1533
錢樂之渾天儀尺後周	-12.1533
一寸四分八釐三毫一絲五忽五微三纎	-12.1534
不相通而律竟不成唐因聲制樂雖近	-12.1534
九分者方分也以破徑三分之法	-12.1534
亦非是本朝承襲皆不能覺獨胡安定以	-12.1534
八萬二千九百四十四為大吕半之實計	-12.1534
圍之謬其後韋昭之徒遂皆有徑三分之	-12.1534
自孟康以律之長十之一	-12.1534
紕	-12.1534
繢	-12.1534
獶	-12.1534
非秬黍之比也秬黍積	-12.1534
三分四釐三毫四絲八忽八微四纎	-12.1535
或差造律未妙就如撼動取滿論理亦通	-12.1535
及蔡子元于普明等以候節氣依古	-12.1535
一寸三分九釐九毫九絲一忽二微二纎	-12.1535
九絲三忽二微八纎	-12.1535
蒿	-12.1535
謂之三事六府三事謂之九功九功之	-12.1535
汶	-12.1535
淄	-12.1536
清右商之徴太蔟之徴	-12.1536
清右角之徴夾鍾之徴	-12.1536
以三參物三三如九故黄	-12.1537
而萬物生故曰一生二二生三三生萬物	-12.1537
就置所得為實依後項乗除之	-12.1537
右角之宮夾鍾之宮一清右角之	-12.1537
清右商之商太蔟之商	-12.1537
清右商之角太蔟之角	-12.1537
清右角之角夾鍾之角	-12.1537
樂師掌國學之政	-12.1537
清右徴之徴姑洗之徴	-12.1537
綵	-12.1537
七寸四分九釐一毫五絲三忽五微三纎	-12.1537
贍	-12.1537
呼見一無除作九一	-12.1537
者皆以十二律為循環相生不知	-12.1537
淮南不過以數之多寡為生之上下律吕	-12.1537
禮運曰五聲六律十二管還相	-12.1538
錯亂而無倫非其本法也	-12.1538
夲	-12.1538
律當變者有六故置一而六三之	-12.1538
清右宮之角黄鍾之角	-12.1538
五百五十五萬一千四百八十八	-12.1538
清變宮音右變宮之宮大呂之	-12.1539
翩翩者鵻	-12.1539
清右變宮之徴大呂之徴	-12.1539
清右變宮之角大呂之角	-12.1539
縞	-12.1539
言之不足故嗟嘆之嗟嘆之不足故	-12.1539
必以小瑟配之然後大者不陵細者不抑	-12.1539
廹	-12.154
自是四樂各舉其一者而言之	-12.154
倍律面幂進一位即	-12.154
無射特磬無射特磬仲吕歌舞無射歌舞	-12.154
弼	-12.154
㧞	-12.1541
嫦	-12.1541
之數六十八主二月下生無射	-12.1541
吕再生别名執始轉生四十八律	-12.1541
配合為説耳未可以為	-12.1541
之聲少下不和故有變律	-12.1541
萋	-12.1541
茁	-12.1541
祿	-12.1542
一三三四八三九八五四一	-12.1542
禮之初始諸飲食	-12.1542
塜	-12.1543
汧	-12.1544
鐘鼓樂作吹豆葉黄曲終樂止舞畢復位	-12.1544
一七八一七九七四三六二	-12.1545
摦	-12.1546
先相者皆左何瑟面鼓執越内	-12.1546
箇一千三百六十五為夷則之	-12.1546
䜿	-12.1547
十其廣之分以為長	-12.1547
七四五七六七六九二	-12.1549
刁	-12.1549
歌九磬之舞於宗廟之中奏之	-12.1549
四四五四四九三五九	-12.1551
特磬太簇歌舞南吕歌舞太簇歌鐘	-12.1551
塑	-12.1552
沃	-12.1555
孶	-12.1557
瓢	-12.1558
三寸七分八釐四毫一絲四忽	-12.1567
砌	-12.1567
感於物而動故形於聲	-12.157
鵻	-12.157
太姑蕤夷南應大	-12.1572
應鍾散聲即蕤賔五弦夷則為	-12.1593
除之所得億約為寸得大吕	-12.174
縿	-12.3421
縜	-12.3429
諄	-12.345
絲不如竹竹不如肉	-12.3459
煦	-12.3459
􁇊	-12.3462
愴	-12.3465
嫗	-12.3466
禮也者理之不可易者也	-12.3467
携	-12.3471
擅	-12.3471
鉉	-12.3475
轐	-12.3477
伺	-12.348
挂	-12.3483
摺	-12.3483
租	-12.3485
形制于左右臣逸臣瑗	-12.3485
䜟	-12.3485
喉齶舌齒脣	-12.3486
塾	-12.3486
坼	-12.3486
髓	-12.3486
楨	-12.3487
字操縵前叚名曰金聲	-12.3488
肆直而慈愛者	-12.3488
樂也者情之不可變者也	-12.3489
杠	-12.3489
峙	-12.349
檜	-12.349
改制大樂取京縣秬黍累尺成律鑄	-12.349
纁	-12.3492
坡	-12.3492
汨	-12.3493
閻	-12.3493
子卿大夫元士之適子	-12.3493
男左女右手中指	-12.3493
感人而順氣應之順氣成象而和樂興焉	-12.3494
儛	-12.3494
治安之風也小人之音	-12.3494
𨼆	-12.3494
然後少師奏登堂就席告入也	-12.3495
鞮鞻氏掌四夷之樂與其聲歌	-12.3495
揣	-12.3496
仁近於樂義近於禮	-12.3496
鵝	-12.3496
嘴	-12.3497
娱	-12.3497
男女無辨則亂升	-12.3497
句畢聞鼓而變春	-12.3497
彼華者黍彼實者	-12.3497
簮	-12.3498
漠	-12.3498
大樂必易大禮必簡	-12.3498
之管也以黃鐘九寸分為	-12.3498
䶵	-12.3499
抛	-12.35
右臣逸臣瑗謹按	-12.3501
刮	-12.3501
逝	-12.3501
嘂	-12.3502
曩	-12.3503
虹	-12.3503
瞽矇掌九徳六詩之歌以役	-12.3503
閤	-12.3503
麓	-12.3503
捕	-12.3503
一堵磬一堵謂之肆	-12.3504
絣	-12.3504
窐	-12.3504
虋	-12.3504
來奏納夏臣有功奏章夏夫人	-12.3505
逃	-12.3505
明則有禮樂幽則有鬼神	-12.3505
聲應相保曰和細大不踰曰平	-12.3505
宫為君商為臣角為民徵為事羽為物	-12.3505
僎	-12.3505
齍	-12.3505
奬	-12.3506
三王異世不相襲禮	-12.3506
兌	-12.3506
勑	-12.3506
拒	-12.3506
祭祀宿縣遂以聲展之	-12.3506
娄	-12.3507
鼈	-12.3507
杳	-12.3507
周公左召公右六成復綴以崇天子	-12.3508
簡不帥教者以告于	-12.3508
夔曰於予擊石拊石百獸率舞	-12.3508
捍	-12.3508
貨布重二十五銖	-12.3508
以八寸之尺起度則八尺為尋倍尋為常	-12.3509
皓	-12.3509
蓄	-12.3509
苴	-12.351
瘦	-12.351
宋陳𤾉撰樂圗論俗部歌	-12.351
淒	-12.351
挏	-12.351
爐	-12.351
燔	-12.351
凡國祈年于田祖龡豳雅擊土	-12.351
廓	-12.351
戢	-12.351
稿	-12.3511
筋	-12.3511
舅	-12.3511
淸	-12.3511
汚	-12.3511
鈕	-12.3511
十九寸六百四十一分八百五十五釐	-12.3511
生南吕南吕生姑洗姑洗生應鐘應鐘生	-12.3511
儲	-12.3512
萹	-12.3512
踴	-12.3512
大樂與天地同和大禮與天地同節	-12.3512
幻	-12.3512
饑	-12.3512
闗雎葛覃卷耳	-12.3512
褏	-12.3512
空煩其文而為辭費	-12.3513
黄鍾生林鍾林鍾生太蔟太蔟生南	-12.3513
太簇簫南吕簫林鐘鼗南吕鼗姑洗鎛鐘	-12.3514
見乃謂之象形乃謂之	-12.3515
郊特牲曰歌者在上匏竹在下	-12.3515
六百四十七絲九百八十二忽	-12.3515
愛心感者其聲和以柔	-12.3515
四三五九二九五二六四五六一八二五	-12.3515
鍾應鍾生蕤賔蕤賔生大吕	-12.3515
古物之有分寸明著史籍可以酬	-12.3515
盜	-12.3516
仿	-12.3516
其説皆孟堅之妄矣	-12.3516
以六耦射三侯三獲三容樂以	-12.3516
簪	-12.3516
綦	-12.3516
脛	-12.3516
止容九百黍積止六百七分半如此則黄	-12.3516
二十七為一寸三為一分一為三釐	-12.3516
分者十之則其竒零無時而能盡雖泛以	-12.3516
禮交動乎上樂交應乎下	-12.3517
翳	-12.3517
豵	-12.3517
喙	-12.3517
仄	-12.3517
之位三分之而益一分其位則在	-12.3517
以是圍九分之誤遂有徑三分之	-12.3517
拳	-12.3518
網	-12.3518
謂其聲在前後二律之間	-12.3518
三寸九分當為長九寸空徑三分之誤	-12.3518
中者實其龠則是先得黄	-12.3518
備舉其道不私其欲	-12.3518
則易之以小約九十黍之長中容千二百	-12.3518
壝	-12.3518
獨樂其志不厭其道	-12.3518
因而九之九九八十一故黄鍾之數立焉	-12.3518
大吕長八寸二百四十三分寸之一百	-12.3518
曰姑洗所以脩潔百物考神納賔也	-12.3518
此尺者朂新尺也今尺者杜夔尺也	-12.3518
綠	-12.3519
一寸一分四釐三毫六絲六忽九微一纎	-12.3519
䖏	-12.3519
兕	-12.3519
控	-12.3519
正樂縣之位王宫縣諸侯軒縣	-12.3519
曰元元本本數始於一産氣黄鍾造計秒	-12.3519
為九寸而度其圍徑如黄	-12.3519
毋必之於秬黍則得之	-12.3519
嚌	-12.352
穢	-12.352
又為輪扇二十四埋地中以測二十四氣	-12.352
在鶉火月在天駟	-12.352
媒	-12.352
之廣度之九十分黄鐘之長一為一分	-12.352
聲者不可與言音不知音者不可與言樂	-12.352
實如法得長一寸凡得九寸命曰黄鐘之	-12.3521
脞	-12.3521
獅	-12.3521
沚	-12.3521
宋陳𤾉撰樂圗論雅部	-12.3521
奏姑洗歌南呂舞大㲈以祀四望	-12.3521
非有意於棄之實其重分累析至於無	-12.3521
此則古人論律以九分為寸之明驗也	-12.3521
饗食諸侯序其樂事令奏	-12.3521
一寸二十七為一分三為一釐一為三毫	-12.3521
水火金木土榖	-12.3521
蹲再鼓皆舞進一步正立再鼓皆	-12.3521
三間中吕宣中氣也	-12.3522
六十七釐九十一毫一十六絲八十七忽	-12.3522
林鍾為徵太蔟為商南吕為羽姑洗為角	-12.3522
睢	-12.3522
汙	-12.3522
諛	-12.3522
又不盈分者十之所得為小分以其餘	-12.3522
奏夷則歌小呂舞大濩以享先妣	-12.3522
篠	-12.3522
為之六間以揚沈伏而黜散越也	-12.3522
侷	-12.3522
者制事立法物度軌則	-12.3523
後世不知出此而唯尺之求	-12.3523
一寸八十一為一分九為一釐一為一毫	-12.3523
輟	-12.3523
襦	-12.3523
銑間謂之于于上謂之鼓鼓上謂之鉦	-12.3523
分寸尺丈引也所以度長短也本起黄	-12.3523
建鼓在阼階西南鼓應鼙在	-12.3523
至治之世天地之氣合以生風	-12.3523
無差異漢書食貨志云黄金方寸其重一	-12.3523
之所為也漢志不知出此乃欲加黄鍾一	-12.3524
一釐二十七為一毫三為一絲一為三忽	-12.3524
四物五聲六律七音八風九歌以相成也	-12.3524
夾鍾起調夾鍾畢曲旋宫第	-12.3524
無有曲折之形焉所以立辨也故	-12.3524
姑洗得全分約以釐法則應	-12.3524
東都之亂樂律散	-12.3524
忱	-12.3524
搔	-12.3524
笙入立于縣中西面	-12.3524
僊	-12.3524
二分七釐二毫六絲二忽六微九纎	-12.3524
志曰伏羲作易紀陽氣之初以為律法	-12.3524
全寸約以分法則南	-12.3524
所由起也重十有二銖權衡之所由起也	-12.3524
二四一五四六八六四	-12.3525
五音十二律而為六十音因而六之	-12.3525
太簇簫南吕簫林鐘拊南吕拊姑洗鎛鐘	-12.3525
得全釐約以毫法則大	-12.3525
股為二鼓為三參分其股博去	-12.3525
以四耦射二侯二獲二容樂以貍首七節	-12.3525
攘	-12.3525
三分六釐三毫九絲一忽三微二纎	-12.3525
二分六釐四毫八絲六忽五微七纎	-12.3525
于時郡國或得漢時故	-12.3526
非人之所能為也今其律之空圍不同	-12.3526
九三七二九八一四三三五三三	-12.3526
楙	-12.3526
符㑹處多且平齊之始已用宣布今因而	-12.3526
級	-12.3526
霧	-12.3526
蕪	-12.3526
使人相祭工飲不拜既爵授主人爵衆工	-12.3526
其容體比於禮其節比於樂	-12.3526
辰各有五聲其為宫商之法亦如之	-12.3526
鑄金之狀金與錫	-12.3526
夷則徴應四絃散聲四絃夷則徴取十	-12.3526
姑潔也洗濯也考合也言陽氣養生洗濯	-12.3526
枯穢改柯易葉也	-12.3526
痕	-12.3526
赦	-12.3527
九四三八七四三一二	-12.3527
一千二百粒稱重十二銖兩之為一	-12.3527
南吕為徑三分圍九分無射為徑二分八	-12.3527
鍾為宫大吕為角太蔟為徵應鍾為羽	-12.3527
淹	-12.3527
勸之以九歌俾勿壞	-12.3528
懵	-12.3528
一分八十一為一釐九為一毫一為一絲	-12.3528
志意得廣焉執其干戚習其俯仰詘伸	-12.3528
鐫	-12.3528
復與他律為役者同心一統之義也非黄	-12.3528
祀乎明堂而民知孝	-12.3528
義一義云半十二律正律為十二子聲之	-12.3528
于上之攠謂之隧	-12.3528
今勘周漢古錢大小有合宋氏渾	-12.3528
合為六十聲是十二律之正聲也	-12.3528
尺終有一㑹且上黨之黍有異他鄉其色	-12.3528
得古周時玉律及鐘磬與新律聲韻闇同	-12.3528
明於天地然後能興禮樂	-12.3528
八寸二百四十三分寸之一百四	-12.3528
除之所得億約為寸得黄鍾黄鍾長	-12.3528
管實得幾粒然後推而定法可也	-12.3528
七千五百四十九萬七千四百七十二	-12.3528
上有似於賔主故可用之宗廟賔客以安	-12.3528
也則法也言萬物既成可法則也故可以	-12.3528
五二四九四七四三六五	-12.3528
月所候言皆無爽	-12.3528
鐘吹新律命之皆應梁武	-12.3528
之律不動而滿計此二事之殊良	-12.3528
弦為南呂與第十弦散聲應按第	-12.3528
釐又九因一遍至毫位住得	-12.3528
其形介然有常有似於士君子之行	-12.3529
以三耦射一侯一獲一容樂以采蘋五節	-12.3529
暈	-12.3529
醬	-12.3529
養老之珍具遂發咏焉	-12.3529
宵	-12.3529
四清聲之設正謂臣民相避以為尊卑	-12.3529
律須撼乃容若以中者累尺雖復小稀實	-12.3529
或多或少皆是作者旁庣其腹使有盈	-12.3529
皆可以生之故曰黄鍾之宫律吕之本	-12.3529
轂	-12.3529
相保而為和細大不踰而為平	-12.3529
藏萬物無射見者故可以徧布前哲之	-12.3529
南吕散聲即仲吕五弦林鍾為	-12.3529
除之所得億約為寸得蕤賔蕤賔長	-12.3529
搥	-12.353
宋音燕女溺志	-12.353
嗟彼白華瑩然如	-12.353
郵	-12.353
使莫不任其職事速其功大敬其職	-12.353
言時務和審百事無有	-12.353
其為變正聲之法者以黄	-12.353
則晉志所謂在六律為陽則當	-12.353
十一月陽伏於下物始萌於	-12.353
子聲則四寸半又上下相生之法者以	-12.353
降主人辭降工不辭洗	-12.353
空之圍徑並同而容黍	-12.353
九月陽氣上升隂氣	-12.353
分為實上生者以一千乘之得五萬	-12.353
四九八九四八七三一六四七六七二一	-12.353
法祖孝孫云平陳後廢周玉尺律便用此	-12.353
除之所得億約為寸得太蔟太蔟長八寸	-12.353
宫細不過羽夫宫音之主也第以及羽	-12.3531
廸	-12.3531
則至矣盡矣不可以有加矣	-12.3531
必和之以大故有鐘無鎛大	-12.3531
五月建焉而辰在鶉首林鍾未之氣	-12.3531
邵	-12.3531
王師大獻則令奏愷樂	-12.3531
竄	-12.3531
詡	-12.3531
名其初臣歸功於上之義也大吕助陽宣	-12.3531
林姑太黄南林姑太黄南林姑太	-12.3531
上生者四其法得四寸二十八分	-12.3531
下諸律圍徑以就黄鐘清聲	-12.3531
内出銅律一部是萬寳常所造名水尺律	-12.3531
四隙四時之間氣㣲	-12.3531
律成其功發揚滯伏之氣而去散越者也	-12.3531
律書漢前志不同雖大吕夾	-12.3531
有巧思能以管候氣仰觀雲色	-12.3531
為十二律之窮變律之首也依京房書仲	-12.3531
眉	-12.3532
取羊頭山黍用三等篩子篩之取中等者	-12.3532
大吕起調大吕畢曲旋宫第	-12.3532
袜	-12.3532
相順若均之八音猶	-12.3532
即以此同律度量頒于天下其後宣帝時	-12.3532
徑長短與度而差故容黍不同	-12.3532
徒相大師僕人師相少師僕人士相上工	-12.3532
開皇十年萬寳常所造律	-12.3532
天地三月而為一時故祭祀三飯以為禮	-12.3532
一寸一分七釐七毫一絲八忽一微二纎	-12.3533
亂則哀其事勤羽亂則危其財匱	-12.3533
天下樂之故在廟朝聞之君臣莫不和敬	-12.3533
閨門聞之父子莫不和親	-12.3533
麞	-12.3533
磐	-12.3533
以度量者可以文載口傳與衆共知然不	-12.3533
四分三釐二毫七絲六忽八微二纎	-12.3533
然後成韻而崇乃以仲	-12.3533
猪	-12.3533
古法律管當實千二百粒黍今羊頭	-12.3533
孟康不察乃謂凡律圍徑不同各以圍	-12.3533
急不知當時律之圍徑又果何如也	-12.3533
吕為宫乃以去滅為商執始	-12.3533
相依近當由人間	-12.3533
頽	-12.3534
哂	-12.3534
有合也有國故則否凡大合樂必遂養老	-12.3534
六釐七十八毫一十一絲八十六忽五	-12.3534
及梁時俗尺劉曜渾	-12.3534
之實音為仲吕散聲即大吕二弦夾鍾為	-12.3535
是太祖遣尚書故蘇綽所造當時檢勘用	-12.3535
用増損訛替之所致也周	-12.3535
三分七釐四毫五絲七忽六微七纎	-12.3535
錬	-12.3535
執越内弦右手相入	-12.3535
以律管定尺乃是以天地之氣為	-12.3535
分夾而進事蚤濟也	-12.3535
以之阮隃之下聽鳯	-12.3535
大司樂説宫角徵羽與七聲不合如何	-12.3535
九即十而取九者體之所以立約十而	-12.3536
滿尋訪古今恐不可用其晉梁尺量過	-12.3536
㽔賔歌鐘㽔賔編鐘大吕歌	-12.3536
二寸二分二釐二毫二絲二忽二微二纎	-12.3536
五十三釐九十四毫四十二絲四十一忽	-12.3536
瀛	-12.3536
胸	-12.3536
又漢斛銘文云律嘉量方尺	-12.3536
圍徑自先漢以前傳記並無明文惟班志	-12.3536
禮樂不可斯湏去身	-12.3536
褘	-12.3536
七十一釐四十七毫六十五絲一十九忽	-12.3536
三十六聲而已其間陽律不用變聲而黄	-12.3536
一寸五分二釐六毫六絲一忽五微一纎	-12.3537
七後魏前尺實比晉前尺一尺二寸	-12.3537
八分五釐六毫七絲八忽三微七纎	-12.3537
四分八釐五毫七絲六忽五微九纎	-12.3537
九四三五九二九五二六	-12.3537
毫釐秒忽之間今乃以不盡之	-12.3537
八分三釐二毫三絲九忽二微八纎	-12.3537
然仲吕之實一十三萬一千	-12.3537
益一上生姑洗三分姑洗損一下生應	-12.3537
益一上生無射三分無射損一下生	-12.3537
􁆗	-12.3537
中實葭莩之灰以輕緹素覆律口	-12.3538
五寸八分二釐四毫一絲一忽三	-12.3538
恠	-12.3538
且其匪色必似鳴矣	-12.3538
于西階東工入升自西階北面	-12.3538
乃席工于西階上少東	-12.3538
妙其生數立法正在	-12.3538
得正便將黍以實其	-12.3539
林仲夾黄無林仲夾黄無林仲夾	-12.3539
四分四釐五毫四絲四忽九微三纎	-12.3539
艷	-12.3539
躑	-12.3539
適東序釋奠於先老	-12.3539
炊	-12.3539
不拜受爵祭飲辯有脯醢不祭	-12.3539
伽	-12.3539
岱	-12.3539
酳	-12.3539
相生所得之律寸數半之以為子聲之律	-12.3539
肜	-12.3539
四分七釐一毫九絲三忽七微一纎	-12.3539
分者十六萬二千一升積十六寸二分	-12.354
於常疑今之大者正是其中	-12.354
者一萬六千二百一合積一寸六分二釐	-12.354
臣縱衰氣應者其君暴	-12.354
字得羽絃之分定為羽立羽位以起調	-12.3541
汙尊而抔飲蕢桴而土鼓猶若可以致	-12.3541
不行此律之所以止於十二也	-12.3541
周旋中規折旋中矩	-12.3541
相者二人皆左何瑟後首	-12.3541
九分八釐九毫八絲八忽七微四纎	-12.3541
二寸三分三毫六絲六忽六秒	-12.3541
至烏其形圓重用之	-12.3541
一釐八毫八絲九忽三微三纎	-12.3541
五十一釐六十七毫六十五絲四十八忽	-12.3541
畸贏贅虧之積亦不得為此律矣	-12.3541
篁	-12.3542
夷則起調夷則畢曲旋宫第	-12.3542
之歌九㲈之舞於宗廟之中奏之	-12.3542
二分八釐八毫八絲三忽八微一纎	-12.3542
黄無林仲太黄無林仲太黄無	-12.3542
厠	-12.3542
遂設三老五更羣老之席位焉適饌省醴	-12.3543
墟	-12.3543
此後魏初及東西分國後周	-12.3543
誌	-12.3543
八十八釐八十八毫八十八絲八十八忽	-12.3543
十二律各自為宫以生五聲二變其黄	-12.3543
放鄭聲逺佞人	-12.3544
二寸八分五釐六毫五絲六初	-12.3544
以子榖秬黍中者一千二百實其龠	-12.3544
逰	-12.3544
上工坐相者坐授瑟乃降	-12.3544
焦氏卦氣之學亦去四而為六十故其推	-12.3544
護	-12.3544
七六八七六六八一四九	-12.3544
俻	-12.3545
弦右手相入升自西階北面東	-12.3545
自天子達於士降殺以兩	-12.3545
林仲太黄無林仲太黄無林仲太	-12.3545
簟	-12.3546
應南林姑太應南林姑太應南林	-12.3546
袒	-12.3547
遯	-12.3547
八七七四八六二五三六三三八六九九	-12.3547
孫侯氏四正具舉大夫君子	-12.3547
九分三釐四毫三絲二忽九微三纎	-12.3547
揲	-12.3548
藍	-12.3548
小大莫處御于君所以燕以射則燕則譽	-12.3548
三寸七分四釐五毫七絲六忽七微六纎	-12.3548
吕宫至姑洗羽並用大吕起調大吕畢曲	-12.3549
十一其長之分以為廣自然之數也	-12.3549
伶倫自大夏之西乃之阮隃之	-12.3549
金門山亦名律管山今	-12.355
乃奏夷則歌小吕舞大濩以享先妣	-12.355
徽定之實音為南吕散聲即姑洗六弦	-12.3551
昔黄帝令伶倫作為律	-12.3551
仲吕起調仲吕畢曲旋宫第	-12.3552
觀音竹此竹節長而厚内外皆可修治	-12.3552
咮	-12.3553
林姑太應南林姑太應南林姑太	-12.3553
諱	-12.3555
諗	-12.3557
澣	-12.3557
呼逢二進一十得一	-12.3558
􁕍	-12.3559
天子乃帥三公九卿諸侯大夫親往視之	-12.356
鵉	-12.3562
栽	-12.3562
姿	-12.3564
搖	-12.3566
一徽定之實音為南吕散聲即仲吕六弦	-12.357
勹	-12.3571
噬	-12.3571
南吕起調南吕畢曲旋宫第	-12.3571
底豫而天下之為父子者定	-12.3573
徽定之實音為黄鍾散聲即林鍾二弦	-12.358
旺	-12.358
逵	-12.3582
無射起調無射畢曲旋宫第	-12.3582
四太羽中聲之羽聲低於宫	-12.3586
髻	-12.3587
奏大夷夾無仲黄林	-12.3588
逑	-12.3589
黄鍾起調黄鍾畢曲旋宫第	-12.359
應大夹仲蕤夷無	-12.3599
深尺積一千六百二十寸容十斗	-12.4164
容十斗嘉量之法合龠	-12.5276
弦按第十徽彈之令與笙音相同是為	-12.5592
九億四千三百八十七萬四千	-12.5722
羽者嫗伏毛者孕鬻	-12.5927
批	-12.5945
星三辰七宿從祀	-12.5945
􁋡	-12.5948
膋	-12.5949
胎	-12.5957
悽	-12.5959
馨	-12.5959
慢易以犯節流湎以忘本	-12.5963
稙	-12.5963
芮	-12.5963
熏	-12.5963
碑	-12.5966
畋	-12.5966
饁	-12.5966
壅	-12.5967
些	-12.5967
秫	-12.5967
耐	-12.5968
綘	-12.597
懋	-12.597
頑	-12.597
挹	-12.5971
蓼	-12.5971
訕	-12.5973
隂而不宻剛氣不怒柔氣不懾	-12.5973
其按習也令左右手互應清	-12.5974
天子左五鐘右五鐘出撞黄鐘	-12.5974
餼	-12.5975
宋元徽三年儀註奏	-12.5975
笮	-12.5977
氊	-12.5977
聳	-12.5978
讒	-12.5978
柱子右手彈中聲十二左手彈清聲十二	-12.5978
莠	-12.5978
堕	-12.5978
柵	-12.5979
謔	-12.5979
杵	-12.5979
樂也者動於内者也禮也者動於外者也	-12.5979
么	-12.598
以滌蕩邪氣出揚正聲	-12.598
衙	-12.5981
瑤	-12.5981
􁉘	-12.5981
毒	-12.5982
閹	-12.5982
堙	-12.5982
大侯九十參七十干五十	-12.5982
譔	-12.5982
髠	-12.5982
捺	-12.5982
何弦散音而與何弦	-12.5982
楞	-12.5984
若堅若脆若勁若韌若實若	-12.5984
深尺内方尺而圜其外其實一鬴	-12.5984
黻	-12.5984
挫	-12.5985
鼠	-12.5985
蜼	-12.5985
君子明於禮樂舉而錯之而已	-12.5986
胎生者不殰卵生者不殈	-12.5986
奨	-12.5986
渚	-12.5986
筯	-12.5986
醇	-12.5988
諳	-12.5988
繚	-12.5988
餕	-12.5988
虎侯熊侯豹侯	-12.5989
韶繼也夏大也殷周之樂盡矣	-12.5989
寕	-12.5989
斨	-12.5989
慧	-12.5991
侖	-12.5991
謐	-12.5991
髙更用太府布帛尺為法乃下太常四律	-12.5991
摛	-12.5992
襯	-12.5992
常歌工病其太濁歌不成聲私賂鑄工使	-12.5992
姒	-12.5993
黄帝張樂於洞庭之野	-12.5993
我客戾止永觀厥成	-12.5993
募	-12.5993
明乎齊之音者見利而	-12.5993
借古語擬弦音猶詞家填腔也	-12.5993
灋	-12.5995
鑢	-12.5995
涵	-12.5995
制禮作樂頒度量而天下大服	-12.5995
軼	-12.5995
百五十七萬一千三百四十八分有竒	-12.5995
䑓	-12.5995
戡	-12.5995
曝	-12.5995
鬆	-12.5995
吼	-12.5996
顙	-12.5996
八十八毫八百八十八絲八百八十八忽	-12.5997
曵	-12.5997
則民瞻其顔色而弗與爭	-12.5997
窮髙極遠而測深厚	-12.5998
銲	-12.5998
夷樂作於國門右辟	-12.5999
謎	-12.5999
秋冬學羽籥皆於東序小樂正學	-12.5999
佚	-12.5999
望其容貌而民不生易慢	-12.5999
餳	-12.5999
祭祀則龡而歌之燕亦如之	-12.5999
釘	-12.5999
坻	-12.5999
岀	-12.6
溉	-12.6
致樂以治心則易直子諒之心油然生矣	-12.6
為鼓而辨其聲用以雷鼓鼓神祀	-12.6
峽	-12.6
舡	-12.6
六黄宫清聲之宫聲髙於羽	-12.6
嘖	-12.6
廬	-12.6
惕	-12.6
畔	-12.6
二分五釐七毫三絲二忽五微五纎	-12.6001
匿	-12.6002
凡祭與養老乞言合語之禮	-12.6002
瞎	-12.6002
舄	-12.6002
擫	-12.6002
龠成兹嘉量與古玉斗相符	-12.6002
寓於器則器異異虡見於文則文同同筍	-12.6002
誚	-12.6002
亰	-12.6002
稚	-12.6003
鶵	-12.6003
象雷其形象天其於樂	-12.6003
龔	-12.6003
建鼔在阼階西南鼔應鼙在其東	-12.6003
貴人聲也仲尼燕居曰升歌清廟示	-12.6003
君父有節臣子有義	-12.6003
氣無滯隂亦無散陽	-12.6003
雖見於經其詳不可得而知也	-12.6003
驛	-12.6004
尸出入則令奏肆夏牲出入則令奏昭夏	-12.6004
抝	-12.6004
祧	-12.6004
翫	-12.6004
初獻新樂於明堂太廟或聞其樂聲曰清	-12.6004
􁇙	-12.6004
也所以量多少也本起於黄鐘之	-12.6005
春入學舍菜合舞秋頒學合聲	-12.6006
商者五帝之遺聲也商人識之故謂之商	-12.6006
耽	-12.6006
諼	-12.6006
鍼	-12.6006
四十一毫六百四十四絲五百八十二忽	-12.6007
殁	-12.6007
莞	-12.6007
人不耐無樂樂不耐無形形而不	-12.6007
弦不先定者以俗笙無背	-12.6007
十有三年舞勺成童舞象	-12.6007
揚也樂之末節也故童子舞之	-12.6007
其上為斛其下為斗左耳為升右耳為合	-12.6007
其銘曰時文思索允臻其極	-12.6008
竽笙塤籥簫篪篴管	-12.6009
酤	-12.6009
勁正莊誠之音作而民肅敬	-12.6009
磬階間縮霤北面鼓之	-12.6009
湊	-12.6009
裴正以為舜開七始周制七音並不用八	-12.6009
吠	-12.6009
考之此斛當徑一尺四寸三分六釐一毫	-12.6009
夫金石真偽固難盡信若秬黍則	-12.6009
弑	-12.6009
奏族夏客醉而出奏祴夏公出入奏驁夏	-12.6009
子未分之時天地人混合為一故子	-12.6009
典同掌六律六同之和以辨天地四方	-12.601
上生執始執始下生去滅	-12.601
徳也下而管象示事也	-12.601
擊至夷則以下四管為宫之時臣民相越	-12.601
律嘉量斛方尺而圓其外庣旁九釐五毫	-12.601
之和十九管之巢三十六簧之竽二十五	-12.601
動以干戚飾以羽旄從以簫管	-12.601
為北鄙之聲其廢也忽焉	-12.601
煑	-12.601
􁕑	-12.601
百一十二億七千三百七十二萬六千	-12.601
痛	-12.6011
曰商曰羽曰閏閏為角其正角聲變聲	-12.6011
輦	-12.6011
拽	-12.6011
珮	-12.6011
怱	-12.6011
毦	-12.6011
九德六詩之歌以役大師	-12.6011
取半以下為投壺禮盡用之為射禮	-12.6011
奸	-12.6011
湧	-12.6011
其廣之分以為長十一其長之分以為廣	-12.6012
餘數又以毫法二十七除之得	-12.6012
㳟	-12.6013
擔	-12.6013
為徵則林鍾為宫應鍾為羽則太蔟為宫	-12.6013
黄帝之後於薊封帝堯之後於祝封帝	-12.6013
𡨕	-12.6013
祖考來格虞賔在位羣后	-12.6013
覇	-12.6013
以靈鼓鼓社祭以路鼓鼓鬼享	-12.6013
傎	-12.6013
十忽為絲十絲為毫十毫為	-12.6013
拊設於一鐘一磬之東其	-12.6013
訇	-12.6013
於杜佑胡瑗范蜀公等則又不復知有此	-12.6013
積八百一十分則其周徑可以數起矣	-12.6013
􁋦	-12.6013
拊為之父堂下則門外之治以鼓為之君	-12.6013
棟	-12.6013
陽律以竹為管隂律以銅為管	-12.6013
仲夾大無夷仲夾大無夷仲夾大	-12.6013
也自晉宋以來儒者論律圍徑始有同異	-12.6013
徑三分則九十黍之長止容黍八百有	-12.6013
凡樂官掌其政令聽其治訟	-12.6014
脂	-12.6014
鼓大而短則其聲疾而短聞	-12.6014
度而志至焉者也故詩之所言在志不在	-12.6014
煉	-12.6014
賅	-12.6014
擊應笙之磬而笙亦應之也	-12.6014
陿	-12.6014
讎	-12.6014
龠容千二百黍重十二銖兩之為兩二十	-12.6014
眩	-12.6014
䧺	-12.6014
囂	-12.6014
角生姑洗姑洗生應鍾應鍾生	-12.6014
○□○○○○□○□○	-12.6014
以二十七為一初則得初者	-12.6014
與人歌而善必使反之而後和之	-12.6014
蚡	-12.6014
質五色皆備成章者也	-12.6014
􁈡	-12.6014
大不出鈞重不過石律度量衡於是乎生	-12.6015
穯	-12.6015
下各自為法固不可以見分釐毫絲之實	-12.6015
元年改鑄貨布貨	-12.6015
串	-12.6015
廖	-12.6015
隂陽相生自黄鐘始而左旋八八為伍	-12.6015
肆夏昭夏納夏章夏齊夏族夏祴夏驁夏	-12.6015
舜之後於陳下車而封夏后氏之後於	-12.6015
春饗孤子秋食耆老	-12.6016
蕞	-12.6016
趨中肆夏誤矣後世奏永至	-12.6016
齎	-12.6016
是以黄鍾折半之管不能復與黄鍾相應	-12.6016
楰	-12.6016
菆	-12.6016
弦隱間九尺以應黄	-12.6016
熱	-12.6016
駔琮七寸鼻寸有半寸天子以為權	-12.6016
駔琮五寸宗后以為權	-12.6016
仰瞻勢表親愛	-12.6016
則止用八百一十分乃是以積實生量之	-12.6016
塗釁必周密布緹縵室中以木為案毎律	-12.6016
拌	-12.6016
皁	-12.6016
世所鑄錯刀并大泉五十王莽天	-12.6016
若九聲環轉而以本宫之	-12.6016
往驗管而飛灰已應	-12.6016
得六萬二千五百分以一百	-12.6016
廣一寸首長八分有竒廣八分足枝長八	-12.6016
誤乃欲増益漢志之文以就其	-12.6016
疵	-12.6017
来格来從皇靈顯融	-12.6017
慰	-12.6017
杭	-12.6017
故謂之厲所以厲六師也以太	-12.6017
故謂之宣所以宣三王之徳也	-12.6017
三十三毫五百四十八絲一百七十五忽	-12.6017
分其甬長二在上一在下以設其旋	-12.6017
姑洗六寸七分四羽六寸十分四	-12.6017
約十五寸合六十寸庣其旁約二寸	-12.6017
但制尺求律便為堅	-12.6017
初散爲黄鍾濁聲初十徽	-12.6017
棬	-12.6017
簠	-12.6017
徑一寸今以大泉錯刀貨布貨泉四物相	-12.6017
煜	-12.6017
砧	-12.6017
長廣分寸皆合正史者用之則銅斛之尺	-12.6017
四寸二分三分二羽四寸二分三分二	-12.6018
絲為毫九毫為釐九釐為分九分為寸	-12.6018
太簇七寸七分二商七寸十分二	-12.6018
野地中得周時玉尺便是天下正	-12.6018
大喪廞其樂器奉而藏之	-12.6018
令去地尺餘灌之以水又以器盛水	-12.6018
汰	-12.6018
甚薄上有銅馬以繩縣	-12.6018
全有四清宮懸甫接徴招可聽	-12.6018
催	-12.6018
鼓應笙之鐘而笙亦應之也	-12.6018
怨以怒其政乖亡國之音哀以思其民困	-12.6018
聲氣之元也班固所謂黄帝使伶倫取竹	-12.6018
跛	-12.6018
二十二毫二百二十二絲二百二十二忽	-12.6018
前其柱則清後其柱則濁	-12.6018
有金有玉分有貴有賤位有上有下而親	-12.6018
粧	-12.6018
阬	-12.6018
姑洗辰之氣也三月建焉而辰在大梁	-12.6019
團	-12.602
鋝	-12.602
除吏二千石到六百石及	-12.602
系	-12.602
為物之至精不為燥濕寒暑變其節不為	-12.602
清調以商為主平調以角為主	-12.602
覿	-12.602
也二月建焉而辰在降婁	-12.602
南吕酉之氣也八月建焉而辰在	-12.602
治世之音安以樂其政和亂世之音	-12.602
之所不及故亦無所用也至於大吕之	-12.602
禮器曰縣鼓在西應鼓在東	-12.602
九十四毫一百五十二絲四百二十五忽	-12.602
凡四方之以舞仕者屬焉	-12.602
聞諸萇𢎞亦若吾子之言	-12.602
棊	-12.602
横黍為分之十寸也寸皆十分凡百分	-12.602
三寸五分三釐五毫五絲三忽三	-12.602
不為他律役其半聲當為四寸五分而前	-12.602
八分四釐五毫六絲六忽八初	-12.602
聲之變者二故置一而兩三之得九	-12.602
邕之時未亂當親見之又曉解律	-12.602
莱	-12.6021
懐祖宗氣體則同呼吸相通	-12.6021
邏	-12.6021
樂則以柷將之賜伯子男樂則以鼗將之	-12.6021
儔	-12.6021
宓	-12.6021
聵	-12.6021
扑	-12.6021
九九八十一又以十因之為八百一十	-12.6021
卄	-12.6021
酇	-12.6021
五二九七三一五四七一七九六四七六	-12.6022
十二律之實約以寸法則黄	-12.6022
夫六中之色也故名之曰黄	-12.6022
嘻	-12.6022
魴	-12.6022
擢	-12.6022
沾	-12.6022
籥入叔弓卒去樂卒事	-12.6022
唇之俯仰吹氣之緩急唇仰	-12.6022
鍵	-12.6022
髦	-12.6022
舉旌以宮偃旌以商	-12.6022
分之法而増益班志八字以就其	-12.6022
圍九分累黍容受不能相通遂廢一黍為	-12.6022
差一分以為一管皆即以其長	-12.6022
臍	-12.6022
鐘之長以子榖秬黍中者一黍	-12.6022
三分而去其乘適足以是生商	-12.6022
弦為南吕與第十弦散聲應按第	-12.6022
正聲為角是月百物脩潔故用之宗廟合	-12.6022
社稷以帗宗廟以羽四方以皇辟	-12.6022
紀之以三平之以六成於十二天之道也	-12.6022
腎而齒開吻聚謂之羽	-12.6022
鍾大而短則其聲疾而短聞	-12.6023
分各十六上生者益一加十六於四十八	-12.6023
韋昭之時漢斛雖在而律不存矣康昭	-12.6023
四寸零以四寸之管而施七孔何荒唐也	-12.6024
人而不仁如禮何人而不仁如樂何	-12.6024
䙝	-12.6024
腕	-12.6024
星紀大吕丑之氣也十二月建焉而辰在	-12.6024
粟米法少二升八十一分升之二十二	-12.6024
八十三毫二百八十九絲一百六十五忽	-12.6024
古有雅塤如鴈子頌塤如	-12.6024
廽	-12.6024
虡業維樅賁鼓維鏞	-12.6024
頻	-12.6024
七十九釐四十八毫七十五絲三十三忽	-12.6024
姑洗歌應鐘歌㽔賔歌大吕歌	-12.6024
昭云黄鐘徑三分皆無足怪者	-12.6024
醻	-12.6024
通律吕本源徒訓角為觸	-12.6025
七十五毫八百二十三絲九百九十一忽	-12.6025
而大分盡矣其小分以二百四十三為一	-12.6025
一分二十七為一釐三為一毫一為三絲	-12.6025
吕而月令章句云徑三分何也孟康	-12.6025
律空圍九分蔡邕銅龠銘亦云空圍九分	-12.6025
曰古之為鐘律者以耳齊其聲後	-12.6025
一尺三寸三分四釐八毫三絲九忽八	-12.6025
攜	-12.6025
褥	-12.6025
又推九六欲符劉歆三統之	-12.6025
之鳴其雄鳴為六雌鳴亦六	-12.6025
枵太蔟寅之氣也正月建焉而辰在	-12.6025
禮曰楷擊樂記曰聖人作為	-12.6025
蒯	-12.6025
陳宣帝詣荆州為質俄遇梁元帝敗喜沒	-12.6025
之宫而以其所穴之孔為黄	-12.6025
侣	-12.6025
信則十一律與度量權衡者得矣	-12.6025
卉	-12.6025
囚使之行商容而復其位庶民弛政庶士	-12.6025
愾	-12.6025
一節最為律吕旋宫用聲之綱領	-12.6025
太簇姑洗林鐘南吕皆以正聲應無有忽	-12.6025
有六孔七孔八孔十孔之説	-12.6025
有羽舞有皇舞有旄舞有干舞有人舞	-12.6025
枯	-12.6025
當時以斗制律圍徑不及三分其尺遂長	-12.6025
聲律太髙歌者難逐故四清聲置而	-12.6025
詮	-12.6025
無從而生周之嘉量漢之銅斛皆不合其	-12.6025
黽	-12.6025
並以聞奏詔付大匠依	-12.6026
黄鍾子之氣也十一月建焉而辰在	-12.6026
天地之心今不此之先而乃區區於黍之	-12.6026
漢書所載甚詳然不得其要史記所載甚	-12.6026
之龠圍徑容受可取四者之法交相	-12.6026
倍之為七寸分寸之一千七十五	-12.6026
晉前尺一尺五分十五梁朝俗間尺	-12.6026
三者未詳亦疑後人誤増也下云	-12.6026
者皆出於笙師所教無非竹音之雅樂也	-12.6027
政以一其行刑以防其姦	-12.6027
疑七弦隔一調之六弦皆應	-12.6027
聦	-12.6027
弱自午至亥漸弱在律為尤弱在吕為差	-12.6027
繭	-12.6027
逌	-12.6027
之五聲故總其全體而命之曰黄	-12.6027
太公之志也武亂皆坐周召之治也	-12.6027
分各二十七下生者去一去二十七餘	-12.6027
工不興左瑟一人拜受爵主人	-12.6027
律書此章所記分寸之法與他記不	-12.6027
椑	-12.6027
為一釐則共為七百二十九釐約以	-12.6027
蛤	-12.6027
顒	-12.6027
十二管衍為六十律私候氣序並有徵應	-12.6027
周適欲上聞陳武帝立遂	-12.6027
無夷仲夾大無夷仲夾大無夷仲	-12.6027
四寸二分則其中間長短相距取用之數	-12.6027
七千六百七十二小分二百一十六為	-12.6027
禎	-12.6027
八十三釐九十五毫五十八絲四十三忽	-12.6027
又收二十七釐為三分又收	-12.6027
姑洗下有羽林鐘下有角南吕下有	-12.6027
下管新宫笙入三成遂合鄉樂若舞則勺	-12.6028
擴	-12.6028
遶	-12.6028
戻	-12.6028
杴	-12.6028
亦未巳至已而後窮上反下律	-12.6028
作器也器則卑而在下作器者尊而在上	-12.6028
所以獻酬酳酢也所以官序貴賤各得其	-12.6028
擒	-12.6028
柷以合樂而作之必鼓之欲	-12.6028
音七聲十二律器色七字為七調還相為	-12.6028
穋	-12.6028
闈	-12.6028
傳稱黄帝命伶倫㫁竹長三寸九分而吹	-12.6028
一十八釐六十七毫九十六絲六十五忽	-12.6028
三十二毫六百八十七絲六百一十七忽	-12.6028
以九因之得四寸一分九釐四毫以此	-12.6028
以致鬼神示以和邦國以諧萬民以安	-12.6028
先儒泥於宫濁羽清之説	-12.6028
四五六一八二五右乃應鍾倍律積	-12.6028
四方以羽宗廟以人山川以干旱暵以皇	-12.6028
夷則下有商應鐘下有羽字	-12.6028
截管為律吹以攷聲列以候氣道之本也	-12.6028
春入學舍采合舞	-12.6028
樂三闋然後出迎牲聲音之號所以詔告	-12.6028
祭祀則鼓羽籥之舞賔客饗食則亦如之	-12.6028
肝而張齒湧吻謂之角	-12.6028
自此已後開至二十五位其術同前但	-12.6028
鐻	-12.6028
中也元始也行於十二辰始動於子參之	-12.6028
佑	-12.6028
所以為璧也裁其兩旁以益上下所以為	-12.6029
七十四釐九十四毫五十一絲七十三忽	-12.6029
二千七百四十萬一千九百八十四	-12.6029
分二十六釐九十七毫二十一絲二十忽	-12.6029
律孔徑三分參天數也圍九分終天數也	-12.6029
釐八十三毫八十二絲七十四忽	-12.6029
或云當如簫然第剜其脣以被吹已耳	-12.6029
望敵知吉凶聞聲效勝負	-12.6029
亞飯干適楚三飯繚適蔡四飯缺適秦	-12.6029
條理此氣之所以飛灰聲之所以中律也	-12.6029
厎	-12.6029
濟河而西馬散之華山之陽而弗復	-12.6029
乗之滿千忽為絲滿千絲為毫	-12.6029
寃	-12.6029
志曰術曰陽以圓為形其性動	-12.6029
暢故不可用上而及半然後屬	-12.6029
曰建櫜然後天下知武王之不復用兵也	-12.6029
謂之慢如此則國之滅亡無日矣	-12.6029
一枚分作兩段全律半律各令一人吹之	-12.6029
其實得一寸七分七釐六毫三絲以為法	-12.6029
分其實得一寸五分八釐七毫五絲六忽	-12.6029
子曰若非武音則何音也對曰有司失其	-12.6029
律寸分以為與班固司馬彪鄭氏蔡邕杜	-12.6029
為下法用開方歸除法除之於	-12.6029
弦為大呂與第二弦散聲應按	-12.603
仲夾黄無林仲夾黄無林仲夾黄	-12.603
重者從細輕者從大是以金尚羽石尚角	-12.603
冲之所傳銅尺其銘曰晉泰始十年中書	-12.603
度者分寸尺丈引所以度長短也生於黄	-12.603
漢書云黄鍾長九寸者九分之寸也	-12.603
為二尺四寸三其法乃為八寸而得太簇	-12.603
生陽四之皆三而一陽生	-12.603
之五聲皆自東而西相為次第其六弦㑹	-12.6031
則一與三者角與散角應也二與四者	-12.6031
一以夷至黄一以無至太	-12.6031
隂則不書故終不復始	-12.6031
璋	-12.6031
也以為度者以為長短之度也則周家十	-12.6031
京房之見則是矣至於轉生	-12.6031
柷椌楬為似萬物則是以堂	-12.6031
事為君治物為君用不能尊於君	-12.6031
原任知縣胡彦昇撰度律	-12.6031
復用倒載干戈包之以虎皮將帥之士使	-12.6031
為宫含元處中所以徧養六氣九徳之本	-12.6031
不拜受爵坐祭立飲辯有脯醢不祭	-12.6031
之數其分字以上者皆黄鐘之全數	-12.6031
二十四毫五十五絲一十二忽	-12.6031
作十字誤屈中畫耳大要律書用相生分	-12.6031
凡祭祀饗射共其鐘笙之樂	-12.6031
十有三年學樂誦詩舞勺成童舞象	-12.6031
吕為隂則得其所衝而上生於陽者是也	-12.6031
為一尺八寸三其法乃為六寸而得林鐘	-12.6031
箑	-12.6031
者誤也今以相生次序列而正之其應	-12.6031
與管灰相應若符契焉開皇九年平陳後	-12.6031
開皇初調鐘律尺及平陳後調	-12.6031
云還相為宫清濁悉足非惟未練五調調	-12.6031
九十四釐四十四毫四十四絲四十四忽	-12.6031
其商角羽並無其韻若以仲	-12.6031
其所以為廣狹長短者又莫不有自然之	-12.6031
十五釐七十三毫八十二絲五十九忽	-12.6031
求其理用罔見通達	-12.6031
為善曰此華夏舊聲雖隨俗改變大體	-12.6031
短以平其鍾和其聲以立百事之道法	-12.6031
聲長非南吕三分去一之次故用子聲為	-12.6031
千四百五十八為三分二餘分之多者為	-12.6031
律之下其誤字悉正之隋志引此章中黄	-12.6031
岡	-12.6032
濡	-12.6032
徼	-12.6032
廐	-12.6032
脅	-12.6032
一以黄至夷一以太至無	-12.6032
臉	-12.6032
操之為言持也縵之為言緩也	-12.6032
暢四方唱始施生為四聲綱也	-12.6032
佻	-12.6032
數者即十而取九相生者約十而	-12.6032
無林仲夾黄無林仲夾黄無林仲	-12.6032
而升堂升堂而樂闋	-12.6032
而相生之分釐毫絲以九	-12.6032
主人拜送爵階前坐祭立飲不拜既爵升	-12.6032
天子八諸侯六大夫四士二	-12.6032
從可知矣律書獨舉寸法者盖已於生	-12.6032
此尺傅暢晉諸公讚	-12.6032
灰全出為猛氣吹灰不能出為衰氣	-12.6032
造銅圭影表者也四漢官尺	-12.6032
閠	-12.6032
五十五釐四十六毫八十二絲七十二忽	-12.6033
吕為宫則十二律内全無所取何者	-12.6033
在律之前故律之長短圍徑以度之	-12.6033
得以形焉度之成在律之後度之	-12.6033
必用倍數乃與天地之氣相應其寸分	-12.6033
為前周之尺驗其長短與宋	-12.6033
磬大吕編磬㽔賔歌磬㽔賔編磬大吕笙	-12.6033
者鄭氏之言分寸審度之正法	-12.6033
刈	-12.6033
怯	-12.6033
凡射王奏騶虞諸侯奏貍首	-12.6034
豝	-12.6034
之治堂下之樂象萬物之治荀卿以	-12.6034
凡日月食四鎮五嶽崩大傀異	-12.6034
奏太簇歌應鐘舞咸池以祭地	-12.6034
羽宜清若依公孫崇止以十二律而	-12.6034
錯採衆聲配成其美若以應鐘為宫大	-12.6034
驍	-12.6034
一曰婆陁力華言平聲即宫聲也二曰	-12.6034
之圍徑古無明文向非因量之積分則黄	-12.6034
之律九寸為宫或損或益以定商角	-12.6034
八七九九二八一右乃仲	-12.6034
六間六吕在陽律之間吕隂律所以	-12.6034
吕水尺實比晉前尺一尺一寸八分六	-12.6034
九寸之數管長四寸五分六月用為候氣	-12.6034
然後諸侯知所以敬五者天下之大	-12.6034
大吕瑟大吕塤㽔賔瑟㽔賔箎大吕琴	-12.6034
曰無曰應曰黄曰大曰太但取夷則至太	-12.6034
衡猶在也故班氏所志	-12.6034
於中至四月宣散於外純乾用事	-12.6034
盛軌同律度量哲后通規臣等詳校前經	-12.6034
栩	-12.6035
大鈞有鎛無鐘甚大無鎛鳴其細也	-12.6035
以周錢有子母相權	-12.6035
分法雖不同其長短則一故隋志云寸數	-12.6035
拊形如鼓以韋為之著之以穅	-12.6035
諸家用審度分數審度之法以黄	-12.6035
太簇簫太簇簫太簇拊太簇鼗	-12.6035
於房矣可謂目察秋毫而不見	-12.6035
設席于堂亷東上	-12.6035
隂閉藏於内所以助陽成功也	-12.6035
三分而益之以一為百有八	-12.6035
之調皆得三分之次故用正律之聲	-12.6035
以見度非度無以見律律不生於度與黍	-12.6035
十三黍三分黍之一而滿一分積九十分	-12.6035
射左射貍首右射騶虞而貫革之射息也	-12.6035
畿	-12.6035
一以銀錯題其銘	-12.6036
不可為黄鐘而不知變至於六則數窮	-12.6036
祖孝孫云相承傳是蔡邕銅	-12.6036
鐘為八十一分今以十為寸法故	-12.6036
也盖律管之長以九為本上下相生以三	-12.6036
法而鄭氏所用正法破一寸以為	-12.6036
華言斛牛聲即變宫聲也	-12.6036
譯因習而彈之始得七聲之正	-12.6036
縠	-12.6036
九釐七毫一絲六忽加以開方不盡之	-12.6036
莫不和順夫以一器之成而功化之敏	-12.6036
墀	-12.6036
塚	-12.6036
既醉而出並受其福醉而不出是謂伐徳	-12.6036
樂云樂云鐘鼓云乎哉	-12.6036
諸家異同之論王莽之制作雖不足	-12.6036
變於古也自董卓之亂而樂律散亡故杜	-12.6036
其節之志以不失其事則功成而德行立	-12.6036
即角聲也四曰沙侯加濫華言應聲即變	-12.6036
紀綱紀綱既正天下大定	-12.6036
賣	-12.6036
餐	-12.6036
五毫三百七十五絲二百三十五忽	-12.6037
十一萬零五百九十二為夷則之實計	-12.6037
琴瑟宜於圜丘奏之空桑隂地也	-12.6037
長八寸圍八分為積六百四十分	-12.6037
三分八釐五毫五絲五忽二微七纎	-12.6037
畸	-12.6037
隂聲大吕應鍾南吕函鍾小吕夾鍾	-12.6037
寂	-12.6037
畢復照調弦法再詳定之是上琴大略也	-12.6038
以三耦射豻侯一獲一容樂以采蘩五節	-12.6038
姊	-12.6038
以吉禮事邦國之鬼神示	-12.6038
卒歌主人獻工工左瑟一人	-12.6038
笏	-12.6038
鋭如秤錘然火之形也塤	-12.6038
凡建國禁其淫聲過聲凶聲慢聲	-12.6038
夔之律圍徑差小而尺因以長荀朂雖	-12.6038
左何瑟後首挎越燕禮小臣左何瑟	-12.6038
瑟宜於方澤奏之龍門人功所鑿而成也	-12.6038
絃之分轉為宫立宫位以主調遂為	-12.6038
鷖	-12.6038
五一九六八一九九四七四七五一七	-12.6038
奏肆夏公卒爵主人升受爵以下而樂闋	-12.6038
祖詔以一黍之廣用成分體九十之黍黄	-12.6038
勢象惻隠之仁二曰	-12.6038
十六之而銑取其十以為度則銑徑	-12.6038
司樂掌成均之法以治建國之學政	-12.6038
鐘為宫大吕為角太簇為徵應鐘為羽	-12.6038
頀	-12.6038
不以十二律節之則無以著夫五	-12.6038
乃是以律之長自乗而因之以十	-12.6038
律吕不變易其正各順其時則神無	-12.6038
中尉元匡以一黍之廣度	-12.6038
新造鐘律時人並稱其精	-12.6038
竊惟權衡度量經邦懋軌誠	-12.6038
八音以絲為君絲以琴為君	-12.6039
聖人本隂陽别風聲審清濁	-12.6039
大饗不入牲其他皆如祭祀	-12.6039
七毫四絲三忽一初四秒	-12.6039
仲吕為宫則十二律内全無所取	-12.6039
十一律皆不應三分損益之數其失又甚	-12.6039
左班一人云天下太平字舞獻第	-12.6039
木倨中矩句中鉤纍纍乎端如貫珠	-12.6039
蕭吉云晉氏江東所用	-12.6039
變及半凡四十八聲上下相生最得漢志	-12.6039
十四聲正律六十三變律二十一六十三	-12.604
自殷以前但有五音自周以	-12.604
累百滿尺即是㑹古實龠之外纔	-12.604
六萬五千五百三十六為仲吕半之實計	-12.604
間近宫收一聲少髙於宫故謂之變宫也	-12.604
仲太黄無林仲太黄無林仲太黄	-12.604
鯊	-12.604
奭	-12.604
郛	-12.604
仲春之月上丁命樂正習舞釋	-12.604
奎	-12.604
語曰大不踰宮細不過羽	-12.604
亾	-12.604
埋於子位上頭向南	-12.604
釀	-12.604
劾	-12.604
古者造笙以曲沃之匏	-12.604
調如頭一聲是宫聲尾後一聲亦是宫聲	-12.604
凡樂圜鐘為宫黄鐘為角太簇為	-12.604
如此則是惟黄鐘一律成律他	-12.604
葛之覃兮施于中谷維葉	-12.604
鐘鼓樂作吹鼓孤桐曲終樂止舞畢復位	-12.604
一變律大吕二變律夷則三變律夾	-12.6041
則十一律者又無所受以為本律之宫也	-12.6041
九萬三千三百一十二為應鐘之實計	-12.6041
其説乃是以律之長自乘而因之以十	-12.6041
凖則莫若且多截竹以擬黄	-12.6041
聲長非無射三分去一之次故用子聲為	-12.6041
其月氣至與律冥符則灰飛衝素散出	-12.6041
窟	-12.6042
宙	-12.6042
羽與散羽應也義各有當初不相須故不	-12.6042
謂之七聲五聲為正二聲為變變者和	-12.6042
大凶大烖大臣死凡國之大憂令弛	-12.6042
平底六孔水之數也中虚上	-12.6042
勢象羞惡之義三曰	-12.6042
本起於黄鍾之長則黄鍾之長即是一尺	-12.6042
四月建焉而辰在實沈無射戌之氣	-12.6043
變律者其聲近正而少髙於正律也	-12.6043
升自西階北面東上坐小臣坐授瑟乃降	-12.6043
詩言其志也歌咏其聲也舞動其容也	-12.6043
七月建焉而辰在鶉尾中吕已	-12.6043
宣八年辛巳有事于	-12.6043
挎越内弦右手相樂正先升立	-12.6043
曰伯氏吹塤仲氏吹箎	-12.6043
小臣納工工六人四瑟	-12.6043
五分六釐七絲四忽五初三秒	-12.6044
二六四八六五七七三五八九八二三八	-12.6044
不周多寡不例其與反生黄	-12.6044
莒	-12.6045
客出以雍徹以振羽	-12.6045
九月建焉而辰在大火夾鍾夘之氣	-12.6045
則長累九十黍廣容一千二百黍矣	-12.6045
者一百六十二萬一斗積一百六十二寸	-12.6045
芻	-12.6045
之内應用不同安得暴君縱	-12.6045
相去五十百歩之間耳意者房之所	-12.6045
裓	-12.6045
鷩	-12.6045
黄鐘鎛鐘林鐘特磬太簇鎛鐘南吕特磬	-12.6045
簫簫南吕簫簫南吕拊鼗	-12.6045
者不可増而於卦者不可	-12.6045
翊	-12.6046
帑	-12.6046
埋地下入地處庳出地處髙	-12.6046
剩	-12.6046
第四弦按第十徽彈之令與笙音相同是	-12.6046
路鼓路鼗隂竹之管龍門之琴瑟九徳之	-12.6046
一寸三分二釐一毫三絲四忽一微二纎	-12.6046
檿桑之絲徽以麗水之金軫以崑山之玉	-12.6046
八分八釐一毫八絲八忽九微四纎	-12.6046
萬八千八百六十四以三分之又不盡一	-12.6046
面謂之肆有左無右謂之堵	-12.6046
簫簫仲吕簫簫仲吕拊鼗	-12.6047
兖	-12.6047
下上為正調下為清調	-12.6047
徴羽在宫前商角在宫後	-12.6047
特磬林鐘歌舞太簇歌舞林鐘歌鐘	-12.6047
紼	-12.6047
鋼	-12.6047
鼓人凡祭祀百物之神鼓兵舞帗舞	-12.6047
勸之以九歌俾勿壊	-12.6047
為宮太簇為角姑洗為徴南呂為羽	-12.6047
妻有服不舉樂於其側	-12.6047
聲亦不難定世自有知音者將上下聲攷	-12.6048
領禮運所謂還相為宫所以始於黄	-12.6049
以黍實管彌復不容據律調聲必	-12.6049
孽	-12.6049
龠四萬六千八十銖一萬九千二百	-12.6049
綾	-12.6049
嗑	-12.605
特磬無射歌舞仲吕歌舞無射歌鐘	-12.605
蕤夾大無夷蕤夾大無夷蕤夾大	-12.605
氐	-12.6051
絀	-12.6051
錚	-12.6052
權衡者銖兩斤鈞石所以權輕重也生	-12.6052
倍應之聲靡不悉備	-12.6052
夾大無夷蕤夾大無夷蕤夾大無	-12.6052
左手吹畢置於右手復取一律吹之	-12.6052
揜	-12.6053
圃	-12.6053
道生一則竒而為陽一生二則	-12.6053
夾黄無夷仲夾黄無夷仲夾黄無	-12.6053
若事有乖此聲則不和	-12.6053
已然有五音而無二變亦不可以成樂也	-12.6054
洋洋乎如在其上如在其左右	-12.6054
無夷仲夾黄無夷仲夾黄無夷仲	-12.6054
兆八千一百七十九萬	-12.6054
祔	-12.6056
簫簫夾鐘簫簫夾鐘拊鼗	-12.6056
郕	-12.6057
嬉	-12.6057
簫簫應鐘簫簫應鐘拊鼗	-12.6058
天子八八諸侯六八大夫四八士二八	-12.6058
歌箜篌觱篥埒竽大胡笳	-12.6058
蠡銅鈸銅鼓都曇鼓	-12.6058
歌磬編磬夾鐘歌磬編磬	-12.6059
𤓰	-12.606
鍾宫至夾鍾羽並用黄鍾起調黄鍾畢曲	-12.606
胡篪小胡笳中鳴角齊鼓擔鼓毛貟鼓舞	-12.6061
聯	-12.6062
駰	-12.6065
舜祠下得白玉琯	-12.6065
栢	-12.6068
芩	-12.607
諏	-12.6071
檛	-12.6071
二均弦音不同而指法同俗呼縵	-12.6072
至之音始也其親底豫而天下化終也	-12.6075
駸	-12.6082
僮	-12.6083
妬	-12.6093
□􁕕□􁕖□□􁕖□□􁕕□􁕖□	-12.6093
第五弦按第十徽彈之令與笙音相同是	-12.6115
第一弦按第十徽彈之令與笙音相同是	-12.6119
第二弦按第十徽彈之令與笙音相同是	-12.6266
定論然累九十黍徑三黍止容黍八百有	-12.6807
均利百官噐用程度庶品使皆應其禮復	-12.7881
三百一十二除之所得億約為寸得	-12.8922
鑊	-12.9237
囿	-12.9254
殰	-12.926
韞	-12.9264
芬	-12.9266
骹	-12.9277
腊	-12.9279
鐙	-12.9281
六尺有六寸左右端廣六寸中尺厚三寸	-12.9283
刹	-12.9287
漬	-12.9287
鈸	-12.9287
澇	-12.9287
抽	-12.9289
廛	-12.9295
轇	-12.9297
也樂之末節也故童者舞之鋪筵席陳尊	-12.9297
贊畢舉麾而後擊柷柷第一聲	-12.9298
噪	-12.93
安取仁義性情不離安用禮樂	-12.93
國之俊選皆造焉凡入學以齒	-12.9301
若沉若浮皆得効其響	-12.9302
幄	-12.9302
於此百姓聞王車馬之音見羽旄之美舉	-12.9304
疾首蹙頞而相告曰吾王之好	-12.9304
至於此極也父子不相見兄弟妻子離散	-12.9304
於赫湯孫穆穆厥聲庸鼓有斁萬舞有	-12.9304
斐	-12.9304
樂者樂也君子樂得其道小人樂得其欲	-12.9304
姪	-12.9305
陀	-12.9306
􁋿	-12.9306
油	-12.9306
則終而有始故先足蹈後手舞	-12.9306
使夷俗邪音不敢亂雅太師之	-12.9306
諸侯朝萬物服體而百官莫敢不承事	-12.9306
軾	-12.9306
齊及梁初亦同至是改為	-12.9306
左手輕擊為拊右手重擊為搏	-12.9308
畀	-12.9308
搆	-12.9308
旱水溢民無菜色然後天子食日舉以樂	-12.9308
峴	-12.9308
塊	-12.931
生則樂樂則安安則久久則天天則神	-12.931
管室灰為候以揆百度	-12.931
耳目聰明血氣和平移風易俗天下皆	-12.931
稲	-12.931
敲	-12.931
滓	-12.931
軸	-12.931
諴	-12.931
六詩曰風曰賦曰比曰興曰雅曰頌以六	-12.9312
誠本五音互應而去四清先王之制也	-12.9312
鋪几筵升降酌獻酬酢	-12.9312
宁	-12.9312
槊	-12.9314
奏鼓簡簡衎我烈祖湯孫奏假綏我思成	-12.9314
均二節聲於瑟聲十二清聲十二極清一	-12.9314
仁言不如仁聲之入人深也	-12.9314
畤	-12.9314
擂	-12.9316
方二尺四寸深一尺八寸中有椎柄連底	-12.9316
為抄十抄為撮十撮為勺十勺為合	-12.9316
之霜筠法龍吟之異韻	-12.9316
穈	-12.9316
澆	-12.9316
鱓	-12.9316
婉	-12.9318
酷	-12.9318
隸	-12.9318
夣	-12.9318
冄	-12.9318
檟	-12.9318
貴賤長幼男女之理皆形見於樂	-12.9318
鰾	-12.9318
猾	-12.932
庇	-12.932
櫛	-12.932
糜	-12.932
先王無流連之樂荒亡之行	-12.932
􁊽	-12.9321
菟	-12.9322
一音無事假借其十二管長短俱如本律	-12.9322
磚	-12.9322
絨	-12.9322
簉	-12.9322
羶	-12.9323
綫	-12.9324
而以一矩有半觸其弦則磬之	-12.9324
周官笙師掌教吹籥簫箎篴管	-12.9324
羹	-12.9324
棃	-12.9324
頫	-12.9324
睡	-12.9324
廡	-12.9324
僩	-12.9324
墠	-12.9324
頔	-12.9324
先王因天地隂陽之氣而辨十有二辰	-12.9324
子之卿大夫西縣鐘東縣磬士	-12.9324
王以二月癸亥夜陳未畢而雨	-12.9324
辠	-12.9324
磔	-12.9324
東冬江陽庚青蒸七	-12.9325
愉	-12.9325
鍾磬竽瑟以和之干戚旄狄以舞之	-12.9325
䄂	-12.9326
偷	-12.9326
聲者樂之指拇也二變者五聲之駢枝也	-12.9326
弈	-12.9326
照獨任所見更造新器而新聲極下	-12.9326
緱	-12.9326
詩之所至禮亦至焉禮之所至樂亦至焉	-12.9326
顏	-12.9327
一宫二商三角四變徵五徵六羽七變宫	-12.9327
潑	-12.9327
􁕒	-12.9327
虞山皆各立門户互相詆諆	-12.9327
君子學道則愛人小人學道則易使	-12.9327
以金鐲節鼓以金鐃止鼓以金鐸通鼓	-12.9327
陬	-12.9327
琴操一書載堯舜文武孔子之詞尤謬	-12.9327
茅	-12.9329
梗	-12.9329
内宗掌宗廟之祭祀薦加豆	-12.9329
股外面鼓内面也假令磬股	-12.9329
人識之故謂之齊明乎商之音者臨事而	-12.9329
謂後穴與第三穴雙發是也如此即不用	-12.9329
然須多得擇取好者可也一二枚錢不足	-12.9329
審其容以子穀秬黍中者千有二百實其	-12.9329
琳	-12.9329
畵	-12.9329
筍然文同同筍故也筍則横之設以崇牙	-12.9329
飾以臝屬磬虡飾以羽屬器異異虡故也	-12.9329
敦和率神而從天禮者别宜居鬼而從地	-12.9329
裁紙條與寳源局銅五尺一般長乃界為	-12.9329
足以問所宜請誦其所聞而吾子自執焉	-12.9329
鉶	-12.9329
此假矩以定倨句非用其度	-12.9331
蟬	-12.9331
魅	-12.9331
臼	-12.9331
大備後世雖有作者皆不能易兹八物矣	-12.9331
左右耳與臋皆正方積十而登以至於斛	-12.9331
義也有勇有義非歌孰能保此	-12.9331
肆夏時邁也繁遏執競也渠思文也	-12.9331
鹹	-12.9331
棚	-12.9331
炮	-12.9331
俸	-12.9331
悚	-12.9331
文帝已改安世為正始而襲至是又改	-12.9331
獠	-12.9331
眚	-12.9331
磬之筍皆飾以鱗屬其文若竹	-12.9331
銅齊而聲稍清歌乃協然照卒莫之辨	-12.9331
兩端又有璧翣鄭氏謂戴璧垂羽是也	-12.9331
擇中式之黍須將格式預先議定	-12.9331
虺	-12.9331
鍚	-12.9331
兀	-12.9332
繕	-12.9333
偘	-12.9333
從之純如也皦如也繹如也以成	-12.9333
筠	-12.9333
愍	-12.9333
蠧	-12.9333
鼓鼓軍事以鼛鼓鼓役事以晉鼓鼓金奏	-12.9333
四時和焉星辰理焉萬物育焉	-12.9333
大雅恭儉而好禮者宜歌小雅正直而	-12.9333
盂	-12.9333
若字字如此引長窮日之力不足以給矣	-12.9333
褐	-12.9333
四隅各開一孔相對透明雖顯四孔只是	-12.9333
豚	-12.9333
復擇聲與林鍾相似之簧亦令	-12.9334
先擇聲與黄鍾相似之簧令彼	-12.9335
涌	-12.9335
屍	-12.9335
為之歌大雅曰廣哉熈熈乎曲而有直體	-12.9335
欝	-12.9335
祅	-12.9335
蔚	-12.9335
法地則以同而異此其律所以一於陽先	-12.9335
無射之聲依月均而考擊之於義或然	-12.9335
肴	-12.9335
涯	-12.9335
百五十七寸一十三分四十八釐四十毫	-12.9335
聞之懼而不食以至骨立夫家語纂于漢	-12.9335
嘶	-12.9335
蹀	-12.9335
輝	-12.9335
是為六孔所謂前三後二併吹孔為六者	-12.9335
胞	-12.9335
兩簧一口噙而吹之則知黄鍾與林鍾全	-12.9336
逍	-12.9337
亖	-12.9337
先度一矩為句一矩為股而求其弦	-12.9337
譎	-12.9337
佃	-12.9337
燿後大體短脰若是者謂之臝	-12.9337
華之山其隂多磬鳥危之山其陽多磬	-12.9337
鬲	-12.9337
麗於器器具而天地萬物之聲可得而考	-12.9337
四尺四寸四分四釐四毫四絲四忽四微	-12.9337
積物鮮成實故使士達制為五弦之瑟以	-12.9337
前漢志同聖朝天聖令文云諸	-12.9337
國風篇也王后國君夫人房中之樂歌也	-12.9337
攄	-12.9337
溶	-12.9337
鞋	-12.9337
三月不知肉味曰不圖為樂之至於斯	-12.9337
奏之以隂陽之和燭之以日月之明	-12.9337
漢至隋垂十代凡數百年所存者	-12.9337
聮	-12.9337
斛而五量嘉矣其法用銅方尺而	-12.9338
呌	-12.9339
榆	-12.9339
制雅頌之聲以道之使其聲足樂而不流	-12.9339
之磬股鼓皆厚二寸則餘磬可推矣	-12.9339
贋	-12.9339
𫉬	-12.9339
六經之道同歸而禮樂之用為急	-12.9339
刑政其極一也所以同民心而出治道也	-12.9339
壷	-12.9339
王命三公九卿大夫元士皆入學	-12.9339
角聲之實六十有四以三分之不盡一	-12.9339
及嬴内以無射之上宫布憲施舍於百姓	-12.9339
周鬴方尺者八寸之尺深尺者十寸之尺	-12.9339
掛一以象三才揲之以四以象四時歸	-12.9339
故謂之嬴亂所以優柔容民也	-12.9339
之琴十六枚之鐘磬各自取義寧有一之	-12.9339
隂氣以定羣生然後四時和萬物成	-12.9339
千五百七十一寸三百四十八分四百釐	-12.9339
差荇菜左右采之窈窕淑女琴瑟友之	-12.9339
縻	-12.9339
駔讀為組以組繫之因名焉	-12.9339
介幘生黄袍單衣白合幅袴	-12.9339
囉	-12.9339
禮勝則離合情飾貌者禮樂之事也	-12.9339
絳袍單衣絳領袖	-12.9339
鼓在阼階西南鼓則其所建楹	-12.9339
别為四坤降為二咸又降為一亦此意也	-12.934
之中合也故律不過六而聲亦不過五其	-12.934
使放心邪氣得接焉是先王立樂之方也	-12.9341
瑜	-12.9341
鬰	-12.9341
可知遂以此為求徑率求周求積亦如之	-12.9341
畨	-12.9341
而陽應之是止而濟之以動易序卦	-12.9341
言天地之道下經言人道而元亨利貞之	-12.9341
捶	-12.9341
和二曰容三曰主皮四曰和容五曰興舞	-12.9341
目顅脰小體騫腹若是者謂之羽	-12.9341
𤨏	-12.9341
以七聲加五清為十二律者則五正四清	-12.9341
既在大鼓之旁此應鼓在東乃與縣鼓	-12.9341
涘	-12.9341
𣲖	-12.9341
僨	-12.9341
内則父子外則君臣人之大倫也而樂實	-12.9341
匣	-12.9341
埃	-12.9341
如今俗樂亦只有宫商羽三調而已	-12.9341
架一鐘而尚拊大戴禮曰架一磬而尚拊	-12.9341
石彈絲以和天下掜擬之八風	-12.9341
笛之制如雅笛而小其長九寸與黄	-12.9341
貭	-12.9341
九秒二忽庣旁一分九毫有	-12.9342
也深尺積一千六百二十者以十而登也	-12.9342
五十五毫五百五十五絲五百五十五忽	-12.9342
四十一毫六百九十三絲五百二十一忽	-12.9342
孝武之世始行五銖下洎隋朝多以五銖	-12.9342
實重八銖漢初四銖其文亦曰半	-12.9342
沁	-12.9343
到五大夫子先取適子髙七尺已上年	-12.9343
按十徽音十徽尋不見方去九徽尋	-12.9343
脰	-12.9343
狡	-12.9343
七十八寸五十六分七十四釐二十毫	-12.9343
菁菁者莪在彼中阿既見君子樂且有儀	-12.9343
也其政散其民流誣上行私而不可止也	-12.9343
懊	-12.9343
無力而輕其聲清揚而逺聞無力而輕則	-12.9343
纊	-12.9343
非土不和故書之益稷禮之樂記其言八	-12.9343
教焉死則以為樂祖祭於瞽宗	-12.9343
乗水者付之泭作樂者付之拊	-12.9343
八寸八分七釐七毫四絲八忽六微二纎	-12.9343
彚	-12.9343
汪	-12.9343
為子之氣而含少為子初四刻之氣也所	-12.9343
㝢	-12.9343
升為豆四豆為區此以四而登也五區為	-12.9343
曰鹿鳴周大臣傷時在位而作	-12.9343
粟十錢而區二錢則五區為	-12.9343
菴	-12.9343
蔟應七散二散爲太蔟濁聲	-12.9343
錢之類不聞後世復有鑄者臣等	-12.9343
堉	-12.9343
輕重鮮有同者惟劉歆制銅斛	-12.9344
琵	-12.9345
喜則天下和之怒則暴亂者畏之	-12.9345
行以肆夏豈主入言之邪大戴禮言	-12.9345
建樂立均之法諸律相距間皆一律	-12.9345
刳	-12.9345
朏	-12.9345
而失之太濁要之一適清濁之中	-12.9345
隠間九尺以應黄鍾之律九寸中央一	-12.9345
革木以節之物得其常曰樂極	-12.9345
宫中央長夏之管為地宫國語有四宫之	-12.9345
廪	-12.9345
敎民平好惡而反人道之正	-12.9345
若用之燕享祭祀古人禮文甚繁如歌文	-12.9345
倂	-12.9345
挑同聲為撮抹擘同聲亦為撮上生下生	-12.9345
為抹向外為挑大指向内為托向外為擘	-12.9345
琴譜並命入四庫全書以示闢識事	-12.9345
鍾乃八斛二四如八亦以四而登也此	-12.9345
雁	-12.9345
天地之風氣正而十二律定劉昭所謂伏	-12.9346
鐘之管或極其短或極其長長短之内	-12.9346
周之圜法歴代曠逺莫得而詳	-12.9346
律吕有可求之理徳性淳厚者必能知之	-12.9346
弋	-12.9347
又依淮南累粟十二成寸明先王制法索	-12.9347
且女獨未聞牧野之語乎	-12.9347
令堂上作樂則撫拊堂上樂工聞撫拊乃	-12.9347
鷂	-12.9347
薺豈主出言之邪禮記趨以采薺先	-12.9347
嚲	-12.9347
然後彼四聲者乃得連續無間而七均備	-12.9347
陽陽左執簧右招我由房	-12.9347
拈	-12.9347
曰聲無形而樂有器古之作樂者知	-12.9347
通長二尺容黍二合稱重二兩律	-12.9347
鉦之間同方六而今宜異又十分之一猶	-12.9347
􁌑	-12.9347
七寸八分一釐七毫九絲七忽四微三纎	-12.9347
咺	-12.9347
幟	-12.9347
晉武帝泰始九年中書監荀朂校	-12.9347
曰騶虞召國女傷失嘉㑹而作	-12.9347
杏	-12.9347
穰	-12.9347
芥	-12.9347
豈好事者妄取其名而詭為之	-12.9347
可知矣有唐享國三百年其制作	-12.9347
奮至徳之光動四氣之和以著萬物之理	-12.9347
字為九聲領調之字則調之頂聲	-12.9347
文同則上下和矣好惡著則賢不肖别矣	-12.9347
武銅尺相合竊惟周漢二代享年永	-12.9347
礚	-12.9347
耄	-12.9347
十四卦皆倚數配合為説而已獨黄鐘云	-12.9348
人聲切忌人聲遷就中黍不可復蹈劉	-12.9348
縱横古錢之大小其亦難矣然非精於	-12.9348
校已所造金石絲竹皆短校一米梁武帝	-12.9348
橋	-12.9348
樗	-12.9348
甿	-12.9349
所謂布指知寸布手知尺	-12.9349
琬	-12.9349
德惟崇致我祖宗開基建功京都之内	-12.9349
耑	-12.9349
流辟邪散狄成滌濫之音作而民淫亂	-12.9349
之樂以管為本器之尤小者也應之為鼓	-12.9349
邜	-12.9349
同者熊氏云大射謂射禮也此謂祭禮也	-12.9349
坫	-12.9349
夫政象樂樂從和和從平	-12.9349
律相生不計餘數五音相生不計變音其	-12.9349
撾	-12.9349
柝	-12.9349
櫺	-12.9349
精古之神瞽考中聲之遺法大抵如此程	-12.9349
藪	-12.9349
賸	-12.9349
飴	-12.9349
𫀆	-12.9349
㣲强西京望臬㣲弱其餘與此尺同	-12.9349
十六枚為一簴而四清聲相承不擊照	-12.9349
扎	-12.9349
措其匪色必似不鳴矣	-12.9349
新淫聲北里之舞靡靡之樂后衛靈公	-12.9349
玊	-12.9349
玷	-12.9349
皆取法於縱黍陽數古人造律之初意也	-12.9349
兼用先代及武始大鈞之舞	-12.9349
則知管之為降於管言下則知歌之為上	-12.9349
周漢然亦可謂治安之世矣今朝廷必求	-12.9349
尺度之中當依漢錢分寸若以	-12.9349
淮南子曰秋分蔈定蔈定而禾熟	-12.9349
瘞	-12.935
四十六毫六百九十二絲二百六十三忽	-12.935
後漢至魏尺長於古四分有餘	-12.935
皆以人體為法又曰婦人手八寸謂之	-12.935
章信尺不復存玉律一口蕭餘定七枚夾	-12.935
凊	-12.9351
律必生於度也特以近世古律不存故	-12.9351
宫商易辨若尺寸小長則六十宫商相與	-12.9351
平其心成其政也聲亦如味一氣二體三	-12.9351
焉故德煇動於内而民莫不承聽理	-12.9351
鐘大而短則其聲疾而短聞	-12.9351
仁之實事親是也義之實從兄是也	-12.9351
六律髙低圜浹而其聲始真真者正也且	-12.9351
利用厚生惟和九功惟叙九叙惟歌	-12.9351
制十二筩以聽鳯之鳴其雄鳴為六	-12.9351
宜要之非有意義孰若復古制之為愈哉	-12.9351
律計自倍半以子聲比正聲則正聲為倍	-12.9351
悞	-12.9351
振振鷺鷺于飛鼓咽咽醉言歸	-12.9351
搢	-12.9351
羨以起度玉人璧羨度尺好三寸以為度	-12.9351
舞屬謙謙不為起固强之	-12.9351
鎬	-12.9351
防之禮樂刑政四達而不悖則王道備矣	-12.9351
九十三毫九百五十五絲九百九十七忽	-12.9351
卑者也卑者不嫌於抗尊	-12.9351
拜不興受爵主人阼階上拜送爵	-12.9351
由律圍徑之誤也今司馬公所傳此尺者	-12.9351
謂孟秋之日西館御女白色白綵撞白鐘	-12.9351
閷	-12.9351
雖主於詩篇亦樂成於三以反為文	-12.9351
葵	-12.9352
斯則黍理已盡若管内猶不滿乃管之非	-12.9352
夷仲夾大無夷仲夾大無夷仲夾	-12.9352
作之意則猶可攷也太史公曰細若氣	-12.9352
八十七毫九百一十一絲九百九十五忽	-12.9352
柩	-12.9352
鐘磬竽瑟以和之干戚旄狄以舞之	-12.9352
鸎	-12.9352
左氏國語是不知夏書之在治忽有五聲	-12.9353
左氏者求其説不得而遂傅㑹之邪	-12.9353
律法又曰吹以攷聲列以候氣	-12.9353
所以修潔百物考神納賔也	-12.9353
一此皆古人命黄鍾為一尺之明證也	-12.9353
不知我者謂我何求悠悠蒼天此何人哉	-12.9353
之參天之數也金隂也而四之兩地之數	-12.9353
倍好者周旋無端終而復始無窮已也	-12.9353
易序卦物不可以終動之意也入撞	-12.9353
暫	-12.9353
算家以術考之不合則又穿鑿以為	-12.9353
邃	-12.9353
釵	-12.9353
先儒謂磬在東曰笙笙生也在西曰	-12.9353
創於何瑭而臣父深然之古來無此議論	-12.9353
揚觶乃立司正焉知其能和樂而不流也	-12.9353
是有煩手淫聲慆堙心耳乃忘	-12.9353
當時盜鑄既多不必皆中法度但當	-12.9353
登歌擊拊下管擊應鼔徹歌大饗亦如之	-12.9353
禮樂之施於金石越於聲音用於宗廟	-12.9353
禮者殊事合敬者也樂者異文	-12.9353
箸	-12.9353
舞雲門大卷大咸大㲈大夏大濩大武	-12.9353
變徴與羽無清故唐宋後又參差遞減耳	-12.9353
鼓聲則和柔倡而不和非徒鏗鏘而已書	-12.9353
感則一扇自動他扇自	-12.9353
若聲聖人因神而存之雖妙必効言黄	-12.9354
從可知矣律書獨舉寸法者蓋已	-12.9354
芰	-12.9354
剛果自用遂專恃累黍而金石亦不復	-12.9354
差而難精等之不若因度求律之為審也	-12.9354
自然也繼以倍律應無南夷雖濁可歌至	-12.9354
以肆夏趨以采薺凡馭路儀以和	-12.9354
凡軍之夜三鼜皆鼓之守鼜亦如之	-12.9354
為情稽之度數以為文制之禮義以為節	-12.9354
二十四下生者去其一去二十四得四十	-12.9354
十二粟而當一分十二分而當一銖	-12.9354
故晏子曰鍾乃大矣先儒錯㑹晏子之意	-12.9354
一聲歌一言且詩言人志詠以為歌五聲	-12.9354
九寸乃九十分是以縱累則管太長容黍	-12.9354
于西階上一人拜盡階不升堂受爵	-12.9354
人音而制樂託樂器以寫音樂本效人非	-12.9354
但能紀其鏗鏘鼓舞而不能言其義	-12.9354
六為律律有形有色色上黄	-12.9354
出於肺開口而吐之謂之商	-12.9354
句已闋而樂音未終所謂歌不永言也請	-12.9354
始十年中書考古器揆校今	-12.9354
揚蹈厲之已蚤何也對曰及時事也	-12.9354
旄人下士四人舞者衆寡無數	-12.9354
有餘横累則管太短容黍	-12.9354
正命奏陔賔降及階陔作賔出衆賔皆出	-12.9354
炳	-12.9354
絹	-12.9354
而知勝負不待戰而決	-12.9354
聲出於脾合口而通之謂之宫	-12.9354
衹	-12.9354
謀則可且依景表舊尺俟有妙	-12.9354
頥	-12.9355
蜚	-12.9356
抉	-12.9356
呵	-12.9356
縂	-12.9356
謠	-12.9358
骸	-12.9358
昂	-12.9358
驩	-12.9358
羸	-12.9358
泌	-12.9358
嵬	-12.9358
穂	-12.9358
苽	-12.9358
炙	-12.9358
睹	-12.9358
􁎭	-12.9358
磽	-12.9359
匙	-12.936
鸖	-12.936
璃	-12.936
欵	-12.936
堿	-12.936
藭	-12.936
燬	-12.9362
<	-12.9362
湫	-12.9362
蹖	-12.9362
黷	-12.9362
偪	-12.9362
夭	-12.9362
腋	-12.9362
綉	-12.9362
旡	-12.9363
邶	-12.9364
枸	-12.9364
搗	-12.9364
培	-12.9364
蓆	-12.9364
鱧	-12.9366
㤗	-12.9366
㴱	-12.9366
鏜	-12.9366
舐	-12.9366
蝸	-12.9366
軔	-12.9366
輻	-12.9366
􁑬	-12.9366
船	-12.9368
叫	-12.9368
柎	-12.9368
蘧	-12.9368
弃	-12.9369
捧	-12.937
俠	-12.937
詖	-12.937
喋	-12.937
恁	-12.937
脇	-12.937
嘏	-12.9371
鬚	-12.9371
歷	-12.9372
柸	-12.9372
丕	-12.9372
牒	-12.9372
鱨	-12.9374
汴	-12.9374
㐮	-12.9374
釣	-12.9376
扼	-12.9376
絺	-12.9376
趫	-12.9376
媵	-12.9376
秸	-12.9376
裾	-12.9376
珊	-12.9376
埏	-12.9378
殉	-12.9378
謄	-12.9378
窖	-12.9378
𠂻	-12.9378
坪	-12.9378
捻	-12.9378
隘	-12.9379
雛	-12.938
凹	-12.938
琦	-12.9381
捋	-12.9381
噲	-12.9381
壙	-12.9381
膂	-12.9381
郁	-12.9383
䓁	-12.9383
紏	-12.9383
袷	-12.9385
綌	-12.9385
縶	-12.9385
崕	-12.9387
恌	-12.9387
邽	-12.9387
帔	-12.9387
鎔	-12.9387
嗚	-12.9387
瓉	-12.9389
欄	-12.9389
鐐	-12.9389
桉	-12.9389
仭	-12.9391
冏	-12.9391
褻	-12.9391
飱	-12.9391
掠	-12.9391
暖	-12.9391
衽	-12.9393
滎	-12.9395
䆒	-12.9396
䋲	-12.9397
聒	-12.9397
䘏	-12.9397
璇	-12.9399
簷	-12.9401
炫	-12.9405
换	-12.9408
豔	-12.941
搃	-12.941
搹	-12.941
鈿	-12.9428
猫	-13.4219
鸛	-13.4219
稔	-13.4229
㡌	-13.4232
蒨	-13.4241
氤	-13.4251
抐	-13.4251
熄	-13.4251
價	-13.4269
䘗	-13.427
湝	-13.427
茹	-13.4273
篌	-13.4273
嚇	-13.4276
鍳	-13.4276
勵	-13.4279
懈	-13.4279
拓	-13.4282
挃	-13.4282
畛	-13.4282
畟	-13.4282
弭	-13.4285
媯	-13.4285
燖	-13.4285
郍	-13.4285
􁏮	-13.4285
訃	-13.4288
苾	-13.4289
諦	-13.4289
忝	-13.4289
肌	-13.4289
鐏	-13.4289
挺	-13.4292
昨	-13.4292
𣺌	-13.4295
澄	-13.4295
堦	-13.4295
鯫	-13.4295
幬	-13.4295
嘷	-13.4298
佗	-13.4298
罽	-13.4298
葺	-13.4298
岫	-13.4298
􁑩	-13.4298
鷲	-13.4301
飢	-13.4301
癘	-13.4301
菡	-13.4301
蓞	-13.4301
慌	-13.4304
幎	-13.4304
盼	-13.4304
眎	-13.4304
跣	-13.4307
粘	-13.4307
逗	-13.4307
嚶	-13.4307
頠	-13.4307
摽	-13.431
拏	-13.4311
坑	-13.4311
瘁	-13.4311
捐	-13.4311
唳	-13.4311
棹	-13.4311
蒂	-13.4311
逭	-13.4311
晞	-13.4314
觳	-13.4314
劈	-13.4314
峩	-13.4314
泱	-13.4314
厮	-13.4317
錮	-13.4317
夥	-13.4317
帳	-13.4317
蠱	-13.4317
闌	-13.4317
鞍	-13.4317
濛	-13.4317
嫉	-13.432
攣	-13.432
垤	-13.432
勰	-13.432
攏	-13.432
薖	-13.432
惵	-13.432
敞	-13.432
銎	-13.432
匝	-13.4323
㩎	-13.4323
鸕	-13.4323
匄	-13.4323
椒	-13.4323
瓌	-13.4323
菰	-13.4323
跽	-13.4323
􁊰	-13.4323
爨	-13.4323
筥	-13.4326
E	-13.4326
I	-13.4326
㓂	-13.4326
寇	-13.4326
悢	-13.4326
撤	-13.4326
暯	-13.4326
涗	-13.4326
渫	-13.4326
熾	-13.4326
簀	-13.4326
鞼	-13.4326
漲	-13.4329
昜	-13.4329
檄	-13.4329
龎	-13.4329
/	-13.4329
T	-13.4329
鴞	-13.4329
嚖	-13.433
恣	-13.433
渌	-13.433
諮	-13.433
鐄	-13.4333
枷	-13.4333
挍	-13.4333
電	-13.4333
屣	-13.4333
厨	-13.4333
塪	-13.4333
壮	-13.4333
蒫	-13.4333
蠲	-13.4333
雹	-13.4333
黝	-13.4333
莾	-13.4334
紇	-13.4336
坂	-13.4336
鄘	-13.4336
猝	-13.4336
邡	-13.4336
韙	-13.4336
凟	-13.4336
悶	-13.4336
伴	-13.4337
楓	-13.4339
䛕	-13.4339
卭	-13.4339
䳄	-13.4339
扯	-13.4339
瀉	-13.4339
珎	-13.4339
買	-13.4339
俅	-13.4339
倮	-13.4339
溼	-13.4339
滂	-13.4339
焱	-13.4339
牓	-13.4339
瘥	-13.4339
蕆	-13.4339
鑱	-13.4339
餽	-13.4339
騢	-13.4339
髽	-13.4339
𥘉	-13.4339
藿	-13.4342
銚	-13.4342
幛	-13.4342
檝	-13.4342
跨	-13.4342
椽	-13.4342
簭	-13.4342
駝	-13.4342
潰	-13.4342
狭	-13.4342
螂	-13.4342
蹶	-13.4342
駘	-13.4342
呷	-13.4342
皿	-13.4342
妹	-13.4345
岑	-13.4345
􁉭	-13.4345
寖	-13.4345
杰	-13.4345
洮	-13.4345
竣	-13.4345
逋	-13.4345
鋸	-13.4345
冑	-13.4345
娓	-13.4345
腵	-13.4345
斃	-13.4348
暘	-13.4348
哺	-13.4348
孕	-13.4348
抒	-13.4348
箔	-13.4348
撅	-13.4348
殻	-13.4348
炬	-13.4348
糞	-13.4348
鏟	-13.4348
寬	-13.4348
旰	-13.4348
矻	-13.4348
遄	-13.4348
墉	-13.4351
跟	-13.4351
晡	-13.4351
囷	-13.4352
牝	-13.4352
雗	-13.4352
渥	-13.4352
佇	-13.4352
卻	-13.4352
酗	-13.4352
隤	-13.4352
斲	-13.4355
賨	-13.4355
錐	-13.4355
憫	-13.4355
畦	-13.4355
礴	-13.4355
耉	-13.4355
蜎	-13.4355
縝	-13.4358
𦍑	-13.4358
搦	-13.4358
昉	-13.4358
肢	-13.4358
琇	-13.4358
琥	-13.4358
㨂	-13.4358
噎	-13.4358
敺	-13.4358
浥	-13.4358
穉	-13.4358
鄕	-13.4358
叨	-13.4358
埤	-13.4358
姧	-13.4358
巇	-13.4358
柏	-13.4358
澌	-13.4358
蛀	-13.4358
頎	-13.4358
橐	-13.4361
顫	-13.4361
悮	-13.4361
構	-13.4361
旉	-13.4361
殞	-13.4361
胼	-13.4361
萐	-13.4361
顅	-13.4361
􁈋	-13.4361
􁏋	-13.4363
􁕌	-13.4364
嫡	-13.4364
型	-13.4364
卬	-13.4364
嫋	-13.4364
怵	-13.4364
杆	-13.4364
溥	-13.4364
耤	-13.4364
腦	-13.4364
茭	-13.4364
鵾	-13.4364
韵	-13.4366
虒	-13.4367
亘	-13.4367
勦	-13.4367
亍	-13.4367
啣	-13.4367
氵	-13.4367
犭	-13.4367
雋	-13.4367
暄	-13.4367
漴	-13.4367
瀾	-13.4367
猥	-13.4367
膕	-13.4367
靳	-13.437
擎	-13.437
磾	-13.437
倖	-13.437
咈	-13.437
隻	-13.437
値	-13.437
菊	-13.437
彄	-13.437
惓	-13.437
擠	-13.437
犛	-13.437
犢	-13.437
粤	-13.437
貆	-13.437
週	-13.437
􁁏	-13.437
􁑓	-13.437
鯉	-13.4373
湄	-13.4374
竂	-13.4374
榜	-13.4374
廆	-13.4374
芀	-13.4374
蟹	-13.4374
讃	-13.4374
􁏱	-13.4376
衒	-13.4377
瑰	-13.4377
囗	-13.4377
悅	-13.4377
昵	-13.4377
掾	-13.4377
澧	-13.4377
罇	-13.4377
愕	-13.4377
磈	-13.4377
袋	-13.4377
栲	-13.438
册	-13.438
彘	-13.438
詫	-13.438
􁀂	-13.438
囀	-13.438
沅	-13.438
眯	-13.438
縚	-13.438
锺	-13.438
澈	-13.4381
黮	-13.4381
沭	-13.4383
締	-13.4383
茵	-13.4383
鏑	-13.4383
鬛	-13.4383
凸	-13.4383
枕	-13.4386
遙	-13.4386
售	-13.4386
企	-13.4386
趍	-13.4386
􁇕	-13.4386
罡	-13.4389
膽	-13.4389
估	-13.4389
黯	-13.4389
壠	-13.4389
螭	-13.4389
畮	-13.4389
𫐠	-13.4392
􁑫	-13.4392
址	-13.4392
嘘	-13.4392
歉	-13.4392
犁	-13.4392
彎	-13.4392
砠	-13.4392
芊	-13.4392
揑	-13.4396
㕓	-13.4396
䟦	-13.4396
彧	-13.4396
騶	-13.4397
逞	-13.4399
抜	-13.4399
臓	-13.4399
棱	-13.4399
啁	-13.4402
墅	-13.4405
杓	-13.4405
埴	-13.4405
澔	-13.4405
燁	-13.4405
銛	-13.4408
,	-13.4411
躡	-13.4411
榻	-13.4415
鄫	-13.4415
寮	-13.4418
俶	-13.4418
仨	-13.4418
簞	-13.4418
捫	-13.4421
忩	-13.4421
旻	-13.443
鄆	-13.4436
蹇	-13.444
暌	-13.4443
駪	-13.4452
嚼	-13.4512
􁕳	-14.4048
􁕲	-14.4049
黶	-14.405
黈	-14.4051
麽	-14.4052
鸚	-14.4053
鸐	-14.4054
鷷	-14.4055
鷮	-14.4056
鷥	-14.4057
鶅	-14.4058
鵫	-14.4059
鵡	-14.406
鵗	-14.4061
鳲	-14.4062
鱣	-14.4063
鬽	-14.4064
鬷	-14.4065
鬟	-14.4066
髴	-14.4067
髣	-14.4068
騘	-14.4069
駞	-14.407
颻	-14.4071
顰	-14.4072
鞢	-14.4073
隣	-14.4074
阨	-14.4075
阡	-14.4076
鐷	-14.4077
鐮	-14.4078
鋊	-14.4079
鄶	-14.408
鄲	-14.4081
郯	-14.4082
郜	-14.4083
邯	-14.4084
邐	-14.4085
遟	-14.4086
逤	-14.4087
逡	-14.4088
迦	-14.4089
迤	-14.409
賵	-14.4091
誼	-14.4092
誹	-14.4093
詒	-14.4094
覔	-14.4095
螽	-14.4096
螮	-14.4097
蝀	-14.4098
虙	-14.4099
倐	-14.41
藜	-14.41
藎	-14.4101
蓏	-14.4102
蒺	-14.4103
萸	-14.4104
菱	-14.4105
茱	-14.4106
苢	-14.4107
芸	-14.4108
芣	-14.4109
艶	-14.411
膰	-14.4111
膜	-14.4112
胖	-14.4113
耊	-14.4114
縉	-14.4115
綢	-14.4116
紱	-14.4117
籀	-14.4118
簻	-14.4119
簳	-14.412
篋	-14.4121
筤	-14.4122
窠	-14.4123
穨	-14.4124
穏	-14.4125
磋	-14.4126
碁	-14.4127
硃	-14.4128
瞿	-14.4129
瞬	-14.413
睨	-14.4131
眙	-14.4132
療	-14.4133
痡	-14.4134
畆	-14.4135
瓚	-14.4136
璵	-14.4137
璠	-14.4138
瑀	-14.4139
琰	-14.414
獪	-14.4141
犒	-14.4142
牎	-14.4143
牁	-14.4144
烷	-14.4145
烜	-14.4146
灘	-14.4147
䈁	-14.4148
漣	-14.4148
湼	-14.4149
湟	-14.415
涒	-14.4151
汁	-14.4152
毗	-14.4153
欹	-14.4154
槨	-14.4155
届	-14.4156
槖	-14.4156
棖	-14.4157
棋	-14.4158
梲	-14.4159
梯	-14.416
杕	-14.4161
曅	-14.4162
晶	-14.4163
很	-14.4164
断	-14.4164
攟	-14.4165
撓	-14.4166
揫	-14.4167
掍	-14.4168
捝	-14.4169
捇	-14.417
抎	-14.4171
䑕	-14.4172
僴	-14.4172
凜	-14.4172
嶂	-14.4172
慷	-14.4172
愿	-14.4173
愀	-14.4174
惱	-14.4175
忿	-14.4176
幰	-14.4177
島	-14.4178
屐	-14.4179
唸	-14.418
寎	-14.418
媿	-14.4181
奄	-14.4182
夐	-14.4183
塋	-14.4184
堊	-14.4185
嚎	-14.4186
噩	-14.4187
噣	-14.4188
嘩	-14.4189
喇	-14.419
咳	-14.4191
吮	-14.4192
吃	-14.4193
叭	-14.4194
勛	-14.4195
劌	-14.4196
劄	-14.4197
儡	-14.4198
僑	-14.4199
僉	-14.42
傘	-14.4201
偼	-14.4202
偯	-14.4203
㘭	-14.4204
俑	-14.4204
伋	-14.4205
伃	-14.4206
仱	-14.4207
乛	-14.4208
丱	-14.4209
䩵	-14.421
䩞	-14.4211
墐	-14.4212
䝤	-14.4212
䐇	-14.4213
䈥	-14.4214
㫋	-14.4215
㗖	-14.4216
鼋	-14.4217
黥	-14.4218
麒	-14.4219
㩁	-14.422
俙	-14.422
倈	-14.422
僵	-14.422
勷	-14.422
弣	-14.422
鸜	-14.422
鴝	-14.4221
鮒	-14.4222
驢	-14.4223
飌	-14.4224
韣	-14.4225
鞨	-14.4226
鞔	-14.4227
阪	-14.4228
闍	-14.4229
钁	-14.423
鍬	-14.4231
輈	-14.4232
蹰	-14.4233
蹕	-14.4234
踟	-14.4235
刃	-14.4236
諆	-14.4236
觡	-14.4237
褠	-14.4238
蠭	-14.4239
螾	-14.424
蓉	-14.4241
萑	-14.4242
莓	-14.4243
䷇	-14.4244
償	-14.4244
嗿	-14.4244
妯	-14.4244
苣	-14.4244
苔	-14.4245
芙	-14.4246
舝	-14.4247
臞	-14.4248
耞	-14.4249
翦	-14.425
翡	-14.4251
㝡	-14.4252
䷬	-14.4252
嚭	-14.4252
薊	-14.4252
籧	-14.4252
篨	-14.4253
笋	-14.4254
碭	-14.4255
睫	-14.4256
眸	-14.4257
瑢	-14.4258
瑒	-14.4259
㩶	-14.426
䷜	-14.426
冺	-14.426
瑁	-14.426
玳	-14.4261
獼	-14.4262
獩	-14.4263
煒	-14.4264
渙	-14.4265
洄	-14.4266
泭	-14.4267
叵	-14.4268
嬌	-14.4268
孱	-14.4268
岩	-14.4268
峰	-14.4268
彠	-14.4268
忉	-14.4268
沇	-14.4268
槱	-14.4269
槬	-14.427
椀	-14.4271
梡	-14.4272
柢	-14.4273
枤	-14.4274
杈	-14.4275
䷭	-14.4276
倞	-14.4276
屹	-14.4276
嶠	-14.4276
搶	-14.4276
扐	-14.4277
徘	-14.4278
徊	-14.4279
嶡	-14.428
娀	-14.4281
噙	-14.4282
唄	-14.4283
侲	-14.4284
倆	-14.4284
厶	-14.4284
嘍	-14.4284
嘿	-14.4284
埜	-14.4284
塘	-14.4284
鈐	-14.4284
哥	-14.4284
叁	-14.4285
兗	-14.4286
僬	-14.4287
㓮	-14.4288
驥	-14.4289
騂	-14.429
駜	-14.4291
㠓	-14.4292
䕃	-14.4292
䲭	-14.4292
䷾	-14.4292
嘅	-14.4292
嘹	-14.4292
埆	-14.4292
墝	-14.4292
峨	-14.4292
嵯	-14.4292
巖	-14.4292
幔	-14.4292
頞	-14.4292
韐	-14.4293
韌	-14.4294
闥	-14.4295
鍠	-14.4296
錧	-14.4297
躚	-14.4298
躐	-14.4299
㒦	-14.43
你	-14.43
勳	-14.43
匍	-14.43
匐	-14.43
埽	-14.43
塿	-14.43
妍	-14.43
娯	-14.43
孌	-14.43
崗	-14.43
帀	-14.43
躅	-14.43
袞	-14.4301
蟋	-14.4302
蟀	-14.4303
薤	-14.4304
葩	-14.4305
菻	-14.4306
臟	-14.4307
㰴	-14.4308
䷗	-14.4308
偈	-14.4308
净	-14.4308
凋	-14.4308
剜	-14.4308
厖	-14.4308
塢	-14.4308
夸	-14.4308
尭	-14.4308
耋	-14.4308
罅	-14.4309
縟	-14.431
笭	-14.4311
稗	-14.4312
禧	-14.4313
磊	-14.4314
眦	-14.4315
佟	-14.4316
傋	-14.4316
儗	-14.4316
冔	-14.4316
叄	-14.4316
孩	-14.4316
屝	-14.4316
皐	-14.4316
疢	-14.4317
璈	-14.4318
琛	-14.4319
玁	-14.432
竺	-14.432
狁	-14.4321
犂	-14.4322
燾	-14.4323
㩦	-14.4324
㯐	-14.4324
䥫	-14.4324
儵	-14.4324
叉	-14.4324
唏	-14.4324
嘔	-14.4324
嘳	-14.4324
嚾	-14.4324
媮	-14.4324
孛	-14.4324
寝	-14.4324
岊	-14.4324
燠	-14.4324
煇	-14.4325
澠	-14.4326
泝	-14.4327
沽	-14.4328
汀	-14.4329
毉	-14.433
歔	-14.4331
㫸	-14.4332
㲠	-14.4332
䊷	-14.4332
䊸	-14.4332
䭾	-14.4332
佅	-14.4332
佼	-14.4332
冨	-14.4332
厝	-14.4332
唫	-14.4332
噏	-14.4332
坰	-14.4332
宐	-14.4332
尌	-14.4332
尢	-14.4332
欷	-14.4332
檿	-14.4333
楣	-14.4334
棺	-14.4335
棫	-14.4336
柫	-14.4337
曄	-14.4338
晳	-14.4339
丆	-14.434
咥	-14.434
嚨	-14.434
孒	-14.434
尒	-14.434
崦	-14.434
嵫	-14.434
嶞	-14.434
庋	-14.434
廏	-14.434
昺	-14.434
昃	-14.4341
旖	-14.4342
旐	-14.4343
旎	-14.4344
攫	-14.4345
撣	-14.4346
撙	-14.4347
㧪	-14.4348
㰚	-14.4348
㹅	-14.4348
䷄	-14.4348
䷆	-14.4348
両	-14.4348
伉	-14.4348
刧	-14.4348
叱	-14.4348
咷	-14.4348
哮	-14.4348
嗤	-14.4348
坯	-14.4348
声	-14.4348
婢	-14.4348
孀	-14.4348
庵	-14.4348
麄	-14.4348
掜	-14.4348
惉	-14.4349
怗	-14.435
帖	-14.4351
侶	-14.4352
壓	-14.4352
墾	-14.4353
喚	-14.4354
卞	-14.4355
㗁	-14.4356
仝	-14.4356
凭	-14.4356
劳	-14.4356
卨	-14.4356
吝	-14.4356
呻	-14.4356
嚻	-14.4356
堆	-14.4356
壻	-14.4356
孿	-14.4356
薆	-14.4356
单	-14.4356
勣	-14.4357
党	-14.4358
煬	-14.4359
傞	-14.4359
俣	-14.436
俁	-14.4361
㳙	-14.4362
鷹	-14.4363
㨨	-14.4364
㭍	-14.4364
㷍	-14.4364
䷝	-14.4364
児	-14.4364
剴	-14.4364
厄	-14.4364
咍	-14.4364
嚅	-14.4364
圊	-14.4364
堞	-14.4364
媍	-14.4364
幌	-14.4364
燿	-14.4364
鮑	-14.4364
鎰	-14.4365
躊	-14.4366
躇	-14.4367
踝	-14.4368
衅	-14.4369
蠛	-14.437
蠓	-14.4371
㲄	-14.4372
佀	-14.4372
侐	-14.4372
僃	-14.4372
剡	-14.4372
哳	-14.4372
哾	-14.4372
嗌	-14.4372
嘈	-14.4372
塡	-14.4372
壟	-14.4372
奐	-14.4372
嫺	-14.4372
孹	-14.4372
峭	-14.4372
嵅	-14.4372
巅	-14.4372
錡	-14.4372
蔬	-14.4372
耿	-14.4373
羑	-14.4374
紜	-14.4375
糴	-14.4376
竈	-14.4377
礫	-14.4378
甜	-14.4379
㛰	-14.438
䥬	-14.438
噆	-14.438
娭	-14.438
帆	-14.438
涇	-14.438
洙	-14.4381
泆	-14.4382
枹	-14.4383
朢	-14.4384
昕	-14.4385
扛	-14.4386
怡	-14.4387
㦯	-14.4388
倛	-14.4388
啄	-14.4388
嗉	-14.4388
堰	-14.4388
宺	-14.4388
幙	-14.4388
廊	-14.4388
忒	-14.4388
幞	-14.4389
喓	-14.439
啐	-14.4391
匈	-14.4392
僥	-14.4393
倩	-14.4394
􁕪	-14.4395
倔	-14.4396
囑	-14.4396
壘	-14.4396
尠	-14.4396
屩	-14.4396
疈	-14.4396
鵒	-14.4396
阯	-14.4397
鈇	-14.4398
郝	-14.4399
贛	-14.44
豢	-14.4401
譙	-14.4402
詁	-14.4403
薩	-14.4404
䃾	-14.4404
䄇	-14.4404
僾	-14.4404
姡	-14.4404
嶷	-14.4404
蔓	-14.4405
葫	-14.4406
菩	-14.4407
荔	-14.4408
茆	-14.4409
糢	-14.441
篳	-14.4411
硜	-14.4412
乇	-14.4412
凷	-14.4412
卮	-14.4412
埀	-14.4412
夬	-14.4412
忤	-14.4412
杻	-14.4412
瘏	-14.4412
琅	-14.4413
獮	-14.4414
炭	-14.4415
澂	-14.4416
慁	-14.4417
忼	-14.4418
幫	-14.4419
巍	-14.442
>	-14.442
劀	-14.442
哸	-14.442
娣	-14.442
蒸	-14.442
啻	-14.4421
剪	-14.4422
僛	-14.4423
仔	-14.4424
䍧	-14.4425
􁕰	-14.4426
􁕯	-14.4427
􁕮	-14.4428
叮	-14.4428
嚀	-14.4428
塔	-14.4428
􁕬	-14.4429
􁕫	-14.443
􁕦	-14.4431
􁕢	-14.4432
鞾	-14.4433
鋙	-14.4434
酎	-14.4435
蓐	-14.4436
䌇	-14.4436
嗽	-14.4436
樛	-14.4436
璟	-14.4437
扞	-14.4438
慆	-14.4439
崧	-14.444
嬗	-14.4441
啾	-14.4442
兠	-14.4443
儐	-14.4444
囬	-14.4445
帬	-14.4445
􁕩	-14.4445
􁕝	-14.4446
鶚	-14.4447
闐	-14.4448
赳	-14.4449
貊	-14.445
讚	-14.4451
撝	-14.4452
訢	-14.4452
傖	-14.4453
号	-14.4453
胤	-14.4453
篎	-14.4454
稠	-14.4455
碓	-14.4456
皥	-14.4457
泫	-14.4458
殈	-14.4459
栖	-14.446
佉	-14.4461
哆	-14.4461
鰋	-14.4461
枉	-14.4461
捭	-14.4462
拇	-14.4463
抔	-14.4464
娵	-14.4465
喔	-14.4466
𥜗	-14.4467
閶	-14.4468
俲	-14.4469
蛟	-14.4469
蚩	-14.447
莆	-14.4471
瀟	-14.4472
涿	-14.4473
櫜	-14.4474
暅	-14.4475
懘	-14.4476
仇	-14.4477
庖	-14.4477
偩	-14.4478
㢠	-14.4479
鉄	-14.448
譊	-14.4481
薇	-14.4482
蒹	-14.4483
澳	-14.4484
揄	-14.4485
嶧	-14.4486
兢	-14.4487
鶻	-14.4488
彿	-14.4489
廿	-14.449
倪	-14.4491
齬	-14.4492
齟	-14.4493
齗	-14.4494
驃	-14.4495
譁	-14.4496
蓍	-14.4497
籦	-14.4498
彬	-14.4499
亹	-14.45
婺	-14.4501
胙	-14.4502
罝	-14.4503
曇	-14.4504
隃	-14.4505
駔	-14.4506
萇	-14.4507
羆	-14.4508
騏	-14.4509
篩	-14.4509
枵	-14.451
簿	-14.4511
慝	-14.4512
卓	-14.4513
喤	-14.4514
倦	-14.4515
牾	-14.4516
牴	-14.4517
晹	-14.4518
昀	-14.4519
冉	-14.452
蹌	-14.4521
潢	-14.4522
殯	-14.4523
噍	-14.4524
詐	-14.4525
蹲	-14.4526
蚤	-14.4527
泗	-14.4528
焯	-14.4529
彤	-14.453
崙	-14.4531
頖	-14.4532
莩	-14.4533
嘒	-14.4534
羯	-14.4535
脯	-14.4536
璞	-14.4537
嶰	-14.4538
觱	-14.4539
箜	-14.454
眡	-14.4541
隳	-14.4541
