<unk>	0
<s>	0
</s>	0
。	-2.46268
,	-2.8722
、	-3.0466
!	-4.58704
故	-4.83343
者	-4.87568
若	-4.9723
?	-5.12668
也	-5.17732
;	-5.18997
是	-5.26753
為	-5.29939
以	-5.37551
有	-5.40461
無	-5.43783
不	-5.45345
之	-5.47363
法	-5.48885
。「	-5.51761
即	-5.55014
行	-5.56809
於	-5.58093
:「	-5.60577
何以故	-5.61759
心	-5.67834
此	-5.69388
如	-5.73807
中	-5.75231
世尊	-5.75853
非	-5.78936
善現	-5.8158
相	-5.81977
而	-5.83616
空	-5.83837
菩薩	-5.88448
說	-5.88852
佛	-5.89051
二	-5.91213
得	-5.91309
一	-5.9354
如是	-5.93938
等	-5.93991
)	-5.94556
(	-5.98676
言	-6.00061
名	-6.04406
生	-6.07331
身	-6.08537
人	-6.11508
時	-6.12686
須菩提	-6.15937
見	-6.19202
三	-6.2173
▁	-6.24063
亦	-6.24155
。」	-6.24266
受	-6.25138
謂	-6.25881
我	-6.26704
諸	-6.33163
則	-6.33657
色	-6.34919
經	-6.36179
無二	-6.36276
大	-6.39241
明	-6.39547
及	-6.39624
應	-6.42025
無別	-6.42185
觀	-6.42331
能	-6.43341
所	-6.43839
其	-6.44234
住	-6.44729
如來	-6.45194
無二分	-6.46673
彼	-6.47057
皆	-6.47308
義	-6.47861
想	-6.47894
無斷故	-6.48119
眾生	-6.48882
識	-6.51136
一切	-6.52922
復次	-6.53323
四	-6.54107
乃至	-6.5424
離	-6.54431
自	-6.54561
智	-6.55965
滅	-6.58052
入	-6.58147
云	-6.62062
與	-6.63483
:	-6.63642
道	-6.63855
若一切智智清淨	-6.66189
至	-6.67305
上	-6.67575
?」	-6.68183
下	-6.6981
後	-6.7056
處	-6.70973
▁*	-6.71281
性	-6.71509
修	-6.71799
因	-6.72116
知	-6.72224
起	-6.73038
般若	-6.74867
。】「	-6.75473
初	-6.75663
」	-6.75875
前	-6.76689
。」【	-6.77404
今	-6.77449
無相	-6.77838
當	-6.78155
從	-6.7995
已	-6.80061
作	-6.80298
欲	-6.8161
問	-6.82641
耳	-6.84676
真如	-6.85153
雖	-6.86405
云何	-6.87735
?」「	-6.87909
常	-6.8797
又	-6.88895
事	-6.89319
分	-6.89396
般若波羅蜜多	-6.89473
多	-6.90222
或	-6.90567
證	-6.92347
依	-6.92359
菩薩摩訶薩	-6.92959
般若波羅蜜	-6.9367
成	-6.94186
果	-6.94811
解	-6.95126
求	-6.96051
:『	-6.96219
在	-6.97678
由	-6.98048
五	-6.98604
正	-7.01067
令	-7.0129
定	-7.01392
釋	-7.02423
清淨	-7.02437
意	-7.02705
苦	-7.02756
然	-7.04091
「	-7.04429
出	-7.04588
善	-7.05127
舌	-7.06177
教	-7.06753
取	-7.06851
鼻	-7.0699
可	-7.07139
地	-7.07332
舍利子	-7.0738
念	-7.07521
不也	-7.07816
淨	-7.09591
本	-7.09894
勝	-7.10232
盡	-7.10986
但	-7.11735
佛言	-7.12633
曰	-7.12894
斷	-7.13121
復	-7.14787
學	-7.16024
即是	-7.16113
顯	-7.16258
來	-7.16317
隨	-7.17669
眾	-7.18246
聞	-7.18978
論	-7.19385
耶	-7.1972
精進	-7.19722
觸	-7.19899
天	-7.21053
同	-7.21491
不見	-7.21678
憍尸迦	-7.22044
集	-7.22135
無量	-7.22189
聲	-7.22382
法界	-7.23465
既	-7.23603
樂	-7.24501
實	-7.2492
真	-7.25226
未	-7.25297
諸法	-7.26076
清淨故一切智智清淨	-7.27177
功德	-7.27613
答	-7.28155
一切法	-7.28841
所以者何	-7.29139
難	-7.29143
體	-7.29391
香	-7.29519
用	-7.29583
諸佛	-7.2965
不可得	-7.29938
是菩薩摩訶薩	-7.3058
緣	-7.30973
是故	-7.31392
】	-7.31676
具	-7.31855
水	-7.32174
何	-7.32321
理	-7.32502
爾時	-7.33009
疏	-7.33222
通	-7.33534
法性	-7.3415
菩提	-7.34359
慧	-7.34472
異	-7.35039
不能	-7.35544
汝	-7.35992
!」「	-7.36334
便	-7.36797
修行	-7.36826
文	-7.36958
語	-7.37099
現	-7.37585
王	-7.37641
乃	-7.37931
味	-7.38558
著	-7.39369
施	-7.39832
名為	-7.40188
破	-7.41248
六	-7.41845
一切智	-7.4189
有情	-7.42166
分別	-7.42414
信	-7.42716
布施	-7.43655
亦不	-7.44044
餘	-7.44427
。』	-7.44652
別	-7.4595
疑	-7.4671
三昧	-7.47093
不得	-7.47159
攝	-7.47234
火	-7.48336
位	-7.48805
覺	-7.48828
忍	-7.49166
轉	-7.49659
門	-7.5021
具足	-7.50333
涅槃	-7.5039
業	-7.50949
外	-7.51078
合	-7.5204
智慧	-7.53072
無明	-7.53303
化	-7.54255
執	-7.54311
巳	-7.54383
一切相智	-7.54437
矣	-7.54696
故云	-7.5478
是名	-7.55034
持	-7.55406
先	-7.55526
世間	-7.55883
靜慮	-7.57151
捨	-7.57213
。」「	-7.5738
因緣	-7.57754
俱	-7.58153
供養	-7.58346
次	-7.5865
無有	-7.59086
福	-7.59319
除	-7.59467
唯	-7.60138
界	-7.6025
成就	-7.60598
可得	-7.60832
度	-7.60937
方	-7.61834
自性	-7.62148
發	-7.6237
深	-7.63026
字	-7.6325
種種	-7.63536
力	-7.638
若菩薩摩訶薩	-7.6383
愛	-7.64103
品	-7.64274
淨戒	-7.64306
道相智	-7.64447
風	-7.6461
妙	-7.64615
安忍	-7.64691
廣	-7.64732
所謂	-7.6482
法身	-7.64882
遠離	-7.65479
一切智智清淨故	-7.6601
不可	-7.66415
過	-7.66725
聲聞	-7.67624
境	-7.67807
十	-7.68248
七	-7.70255
五眼	-7.70631
大乘	-7.71061
八	-7.7244
福德	-7.72636
亦無	-7.72921
引	-7.7333
甚深般若波羅蜜多	-7.73485
舉	-7.73667
布施波羅蜜多	-7.74417
四無量	-7.74466
重	-7.74486
惡	-7.74857
喻	-7.74958
示	-7.75098
諸菩薩摩訶薩	-7.75176
煩惱	-7.75225
去	-7.75651
四無色定	-7.75949
世界	-7.75998
方便	-7.76003
戒	-7.76681
生死	-7.76822
性空	-7.77565
.	-7.77855
自性空	-7.78305
他	-7.7848
第二	-7.78489
受持	-7.78636
願	-7.78811
根	-7.79192
所以	-7.79218
金剛	-7.793
。【	-7.79859
物	-7.80883
大悲	-7.81177
平等	-7.81181
四靜慮	-7.81234
寶	-7.81589
利	-7.82087
於意云何	-7.82223
所有	-7.82429
九次第定	-7.82803
數	-7.83154
結	-7.8348
六神通	-7.84071
善女人等	-7.84712
少	-7.85711
悟	-7.85751
無所	-7.86017
所說	-7.86091
一切智智	-7.86178
會	-7.86187
當知	-7.86188
不生	-7.86252
內	-7.86263
不著	-7.86345
實際	-7.86432
佛十力	-7.87374
▁|	-7.87481
解脫	-7.8861
趣	-7.88739
內空	-7.8881
照	-7.89179
無願解脫門	-7.89487
第一	-7.89798
了	-7.90026
記	-7.90468
師	-7.90632
不住	-7.91378
四念住	-7.91416
德	-7.91562
必	-7.92672
道聖諦	-7.92991
極	-7.93189
還	-7.93426
三摩地	-7.93528
眼	-7.94475
障	-7.94878
百	-7.95042
無我	-7.95088
說法	-7.95387
約	-7.95625
種	-7.95756
日	-7.96569
世	-7.96747
要	-7.97045
光	-7.97353
實相	-7.97965
》	-7.98258
總	-7.98553
譬如	-7.98616
此經	-7.98629
舍利弗	-7.99115
是為	-7.99341
悉	-7.99676
增語是菩薩摩訶薩不	-7.99693
此中	-7.99964
八勝處	-8.00261
小	-8.00599
立	-8.00791
恒住捨性	-8.01009
無所有	-8.01499
思惟	-8.01762
。△	-8.0251
報	-8.02824
不應觀	-8.02887
八解脫	-8.0309
不應	-8.0311
此是	-8.0342
華	-8.03624
略	-8.03832
無忘失法	-8.03879
第三	-8.0446
習	-8.04529
亦如是	-8.04602
是菩薩	-8.04655
善男子	-8.04841
四無所畏	-8.04842
就	-8.04881
更	-8.05128
一切眾生	-8.05752
乎	-8.06227
開	-8.06384
聖	-8.06433
對	-8.06745
共	-8.06898
故名	-8.0701
甚深	-8.07213
相應	-8.07796
大慈	-8.07885
善根	-8.07991
滿	-8.08466
各	-8.08483
無生	-8.08522
本性空	-8.08609
兩	-8.0876
迴向一切智智	-8.08926
不行	-8.09078
色界	-8.09256
十遍處	-8.09364
凡夫	-8.09424
圓滿	-8.09537
畢竟空	-8.09659
眼界	-8.11058
使	-8.11114
假	-8.11217
答曰	-8.11232
於此	-8.11544
不還	-8.11936
宗	-8.12144
妄	-8.12213
無常	-8.12255
國	-8.12385
佛法	-8.12867
空解脫門	-8.12965
眼處	-8.13716
善女人	-8.13747
大喜	-8.13778
五根	-8.14128
意界	-8.1453
無所得為方便	-8.14575
劫	-8.146
無為	-8.14878
苦聖諦	-8.14909
歸	-8.15168
莊嚴	-8.15366
正等覺	-8.15378
大捨	-8.15471
壞	-8.15698
子	-8.15753
到	-8.15816
!」	-8.16093
問曰	-8.16357
屬	-8.16381
而不	-8.17532
法處	-8.17683
四無礙解	-8.17756
識界	-8.17825
色處	-8.17884
塵	-8.18236
自在	-8.18383
顛倒	-8.18633
過去	-8.18711
終	-8.19441
阿羅漢	-8.19796
意處	-8.19818
不可得故	-8.20362
若常若無常	-8.20515
無邊	-8.20566
一切陀羅尼門	-8.20629
魔	-8.20737
無漏	-8.208
須菩提言	-8.2095
無二為方便	-8.21345
稱	-8.21595
山	-8.21713
若樂若苦	-8.22092
若我若無我	-8.22332
安	-8.22389
句	-8.22434
藏	-8.22469
究竟	-8.22484
乘	-8.22562
平等性	-8.22637
動	-8.22745
無生為方便	-8.22864
歎	-8.23002
獨覺	-8.23328
不離	-8.2334
若淨若不淨	-8.23399
將	-8.2359
指	-8.23699
之法	-8.23746
九	-8.24066
三界	-8.24253
。○	-8.24397
現在	-8.24439
印	-8.25737
十八佛不共法	-8.25864
向	-8.25914
安住	-8.26024
諦	-8.26158
等者	-8.26505
地界	-8.26697
死	-8.26795
失	-8.26967
不為	-8.27029
五力	-8.27127
諸菩薩	-8.27971
斯	-8.2867
類	-8.28817
若善男子	-8.291
一來	-8.29603
始	-8.29729
千	-8.29733
讀誦	-8.29949
順	-8.30092
若有	-8.30137
思	-8.302
食	-8.30343
病	-8.30437
四神足	-8.30493
不知	-8.30674
護	-8.30755
二乘	-8.30896
一切三摩地門	-8.31211
圓	-8.31398
《	-8.31576
是善男子	-8.31863
神	-8.32088
自相空	-8.32114
家	-8.32386
流	-8.32593
遍	-8.32634
僧	-8.3267
由此	-8.33036
巳下	-8.33081
讚	-8.33081
罪	-8.33432
須	-8.33727
散	-8.33814
是人	-8.33882
▁初	-8.34545
足	-8.34672
月	-8.35311
虛空	-8.35366
差別	-8.35448
十方	-8.35505
諸佛無上正等菩提	-8.35678
佛告善現	-8.35716
辨	-8.35839
邪	-8.35884
未來	-8.35987
一切法空	-8.36364
主	-8.36406
亦復如是	-8.36796
七等覺支	-8.37264
無所得	-8.37596
豈	-8.38006
慶喜	-8.38751
凡	-8.38828
阿羅漢果	-8.38973
偈	-8.39019
空空	-8.39159
發心	-8.3931
獨覺菩提	-8.39658
論云	-8.39734
遠	-8.3975
形	-8.39765
不應住	-8.40047
卷	-8.4009
墮	-8.40348
迷	-8.40518
況	-8.40604
四正斷	-8.40671
幻	-8.40832
迴向	-8.41288
波羅蜜多	-8.41761
猶	-8.42037
普	-8.4219
好	-8.42643
八聖道支	-8.42719
達	-8.43009
無上	-8.43209
近	-8.43228
勸	-8.43265
誰	-8.43312
邊	-8.43991
內外空	-8.44081
不同	-8.44564
諸天	-8.4512
法住	-8.45154
爾	-8.45154
波羅蜜	-8.45374
命	-8.4547
長	-8.45563
不可思議	-8.45656
尚	-8.45728
修習	-8.4573
無際空	-8.46037
之心	-8.46157
萬	-8.46297
甚多	-8.46423
喜	-8.46563
阿耨多羅三藐三菩提	-8.46599
故說	-8.46932
真空	-8.4733
外空	-8.47757
金	-8.47828
設	-8.48245
大空	-8.48421
阿難	-8.48642
一切有情	-8.48675
量	-8.48822
辟支佛	-8.48842
寂	-8.48946
益	-8.49045
善法	-8.49091
止	-8.49211
二者	-8.49346
無為空	-8.49672
眼觸為緣所生諸受	-8.49939
且	-8.50062
直	-8.50597
有為空	-8.50705
皆不可得	-8.50809
不可得空	-8.51043
蓋	-8.51098
微塵	-8.51201
非有	-8.51319
坐	-8.51623
生滅	-8.51672
得阿耨多羅三藐三菩提	-8.51772
往	-8.51804
情	-8.52835
勝義空	-8.53029
皆是	-8.53187
頭	-8.5338
白	-8.53552
無住	-8.53915
高	-8.53983
神通	-8.5405
惑	-8.54379
所作	-8.54412
貪	-8.54443
遣	-8.54599
夫	-8.54759
一者	-8.54952
▁二	-8.55125
名色	-8.55193
經云	-8.55229
佛告須菩提	-8.55427
寂靜	-8.55478
五陰	-8.55653
持戒	-8.5571
無著	-8.55738
莫	-8.55759
無性空	-8.55836
散空	-8.55874
諸天子	-8.55933
以是故	-8.55989
我當	-8.56055
正法	-8.56478
一切菩薩摩訶薩行	-8.56632
亦非	-8.56727
共相空	-8.56897
離故	-8.5729
真實	-8.57304
法定	-8.5742
作是念	-8.57612
因果	-8.57618
須菩提白佛言	-8.57658
五蘊	-8.57736
不變異性	-8.58008
羅	-8.58047
超	-8.5833
非離	-8.58692
虛空界	-8.58749
。』「	-8.59069
不虛妄性	-8.59125
故言	-8.59273
久	-8.59327
?「	-8.59382
離生性	-8.59392
請	-8.59482
花	-8.59588
有為	-8.59697
似	-8.59941
佛說	-8.60034
何故	-8.60283
音	-8.60392
染	-8.60447
禪	-8.60511
畢竟淨故	-8.60673
果報	-8.60687
無變異空	-8.61059
十二	-8.61087
亦不可得	-8.6109
之人	-8.61317
如是等	-8.61389
次第	-8.61703
何況	-8.62143
無性	-8.6239
獨	-8.62507
造	-8.62888
無礙	-8.62983
善現當知	-8.63007
哉	-8.63315
口	-8.63368
於一切法	-8.63458
復有	-8.63463
是法	-8.63709
土	-8.64333
即非	-8.64816
恐	-8.64914
歡喜	-8.65149
無性自性空	-8.65644
之所	-8.65822
不思議界	-8.65843
波若	-8.66047
目	-8.66222
十地	-8.66538
第四	-8.66783
二合	-8.66902
預流果	-8.67242
那	-8.67686
三世	-8.67768
應求	-8.67939
樹	-8.67947
蘊	-8.67977
變	-8.68004
意觸為緣所生諸受	-8.68075
無色	-8.686
名字	-8.68671
如幻	-8.68784
虗	-8.69186
故曰	-8.69314
不異	-8.69415
有所	-8.69479
▁後	-8.69508
欲界	-8.69645
無所有故	-8.69649
法門	-8.69761
執著	-8.69836
海	-8.69871
不取	-8.69926
無願	-8.70055
三乘	-8.70176
鼻界	-8.70592
尊	-8.70601
輪	-8.70657
況有	-8.70746
身界	-8.70908
舌界	-8.70928
不動	-8.70949
年	-8.71141
聚	-8.71171
有所得	-8.71221
攝受	-8.71256
弟子	-8.71476
耳界	-8.71523
首	-8.7195
光明	-8.72002
離相	-8.72145
此云	-8.72529
六波羅蜜	-8.72742
受想行識	-8.72831
諸有情類	-8.73165
以為	-8.73475
標	-8.73551
部	-8.73617
信解	-8.73856
無得	-8.74057
舍利子言	-8.74284
存	-8.744
夢	-8.74534
經文	-8.74675
大般若波羅蜜多經	-8.74859
何以	-8.7502
敬	-8.75236
於中	-8.75305
恒	-8.75436
諸有情	-8.75541
六處	-8.75716
如來說	-8.75738
反	-8.76273
何等	-8.76474
利益	-8.76528
善哉	-8.76585
書	-8.76587
法中	-8.76628
和合	-8.76748
之義	-8.76846
雙	-8.77103
虗空	-8.77177
誦	-8.77256
被	-8.77385
法相	-8.77486
全	-8.77645
絕	-8.77872
一一	-8.77888
宣說	-8.77909
親	-8.78261
白佛言	-8.7831
惟	-8.78317
脫	-8.78401
像	-8.78612
聽	-8.7872
云何菩薩摩訶薩	-8.78916
文字	-8.79044
表	-8.79085
無作	-8.79204
增	-8.79299
退	-8.79305
比丘	-8.79347
行般若波羅蜜	-8.7936
方便善巧	-8.79365
若菩薩	-8.7944
悲	-8.79523
城	-8.79615
十八	-8.79815
降伏	-8.79912
不起	-8.80055
遮	-8.80139
自然	-8.80161
女	-8.80554
手	-8.80722
計	-8.80755
傳	-8.80779
書寫	-8.80897
瞋	-8.81044
如實知	-8.81202
有漏	-8.81283
以此	-8.81305
我所	-8.815
阿	-8.82301
不可說	-8.82304
境界	-8.82346
其心	-8.82866
一念	-8.82927
進	-8.83419
是時	-8.83445
禪定	-8.83868
本性	-8.83957
有相	-8.8399
並	-8.84245
如此	-8.84588
無上正等菩提	-8.84751
小乘	-8.84891
都	-8.85135
感	-8.8522
細	-8.85317
決定	-8.85473
易	-8.85476
十六	-8.85552
頌	-8.85604
害	-8.85673
加	-8.8581
龍	-8.85905
希有	-8.86053
之相	-8.86233
靜慮波羅蜜多	-8.86322
薩婆若	-8.86391
二種	-8.86806
恭敬	-8.87088
末	-8.87118
四句	-8.87144
無生無滅	-8.87406
則為	-8.87438
不受	-8.87477
修學	-8.88023
是為菩薩摩訶薩	-8.88108
所得	-8.88301
空故	-8.88339
本無	-8.88641
永	-8.88832
供養恭敬	-8.89118
科	-8.89158
廣大	-8.89247
惱	-8.89445
只	-8.89488
輕	-8.89492
注	-8.89659
外道	-8.89723
不生不滅	-8.90281
七寶	-8.90288
沒	-8.90339
中道	-8.90498
亦名	-8.90563
慈	-8.90757
如是般若波羅蜜多	-8.9081
三千大千世界	-8.9091
竟	-8.90943
根本	-8.91004
不淨	-8.91078
婆	-8.91102
意識界	-8.91471
我等	-8.91538
摩	-8.91607
雲	-8.91683
遂	-8.91845
發起	-8.91883
支	-8.91895
色身	-8.91901
中有	-8.92041
衣	-8.92125
彼岸	-8.92789
母	-8.93083
疾	-8.93142
居	-8.93318
尊重讚歎	-8.9333
三十二相	-8.93471
地獄	-8.93786
息	-8.93802
亂	-8.93826
速	-8.94014
四正斷乃至八聖道支	-8.94132
顯示	-8.94172
三摩地門	-8.94309
無盡	-8.94465
終不	-8.94501
頂	-8.94545
旨	-8.94561
外空乃至無性自性空	-8.9466
應觀	-8.94731
安忍波羅蜜多	-8.9489
比	-8.94941
據	-8.94945
俗	-8.94979
可知	-8.95124
兼	-8.95284
毀	-8.9531
相故	-8.95311
伏	-8.95346
三種	-8.95433
畢竟	-8.95576
須陀洹	-8.95737
最勝	-8.95776
無數	-8.95781
眼識界	-8.95903
四相	-8.96217
密	-8.96279
厭	-8.96397
淨戒波羅蜜多	-8.96446
沙	-8.9647
段	-8.96584
雜	-8.96644
寂滅	-8.97052
以是	-8.97282
一切如來	-8.97387
通達	-8.97393
一切種智	-8.974
成佛	-8.97496
聖人	-8.97519
度眾生	-8.97913
經中	-8.97933
列	-8.97935
不說	-8.98006
之中	-8.98037
善現答言	-8.98086
不二	-8.98125
甚	-8.98142
置	-8.98266
空中	-8.9853
如何	-8.98797
增語	-8.98941
梵	-8.99022
能生	-8.99057
機	-8.99167
出家	-8.9942
佛告	-8.99422
陀羅尼門	-8.99455
不與	-8.99655
觀察	-8.99765
是行般若波羅蜜多	-8.99873
財	-8.99891
國土	-9.00042
精進波羅蜜多	-9.0009
授	-9.00778
得菩提	-9.00941
大王	-9.01192
一心	-9.01457
獲	-9.01647
預流	-9.01704
邪見	-9.01987
真性	-9.02042
波	-9.02161
汝等	-9.02191
不捨	-9.02196
路	-9.02213
漸	-9.02293
堅	-9.02366
翻	-9.02403
有人	-9.0273
譯	-9.0297
間	-9.03098
癡	-9.03129
忘	-9.03338
亦有	-9.03672
釋曰	-9.03809
本來	-9.041
廣說	-9.0439
眼觸	-9.04394
若不	-9.04434
以無所得而為方便	-9.04578
於彼	-9.04759
假名	-9.04773
忍辱	-9.05
嚴	-9.05128
初地	-9.05235
而為	-9.05482
所行	-9.05637
隨順	-9.05644
義也	-9.05701
礙	-9.05763
有二	-9.05789
周	-9.05973
出世	-9.06035
無所有不可得	-9.06269
摩訶衍	-9.06331
法空	-9.06495
序	-9.06514
面	-9.06517
實有	-9.06646
言說	-9.06729
有菩薩摩訶薩	-9.06815
容	-9.06834
我今	-9.06839
無量無邊	-9.06865
是般若波羅蜜	-9.06908
無異	-9.06955
佛所	-9.07104
勿	-9.07115
而生	-9.07169
古	-9.0727
陀	-9.07491
若人	-9.07556
并	-9.07655
有三	-9.07783
不可以	-9.07808
意觸	-9.07848
?』	-9.07916
亦不見	-9.07916
十四	-9.07926
法界乃至不思議界	-9.08619
施設	-9.08861
法師	-9.08875
提	-9.08877
無等等	-9.09029
行者	-9.09107
藥	-9.09369
隨喜	-9.09611
述	-9.09673
第五	-9.09975
器	-9.10395
呪	-9.1057
座	-9.10613
夜	-9.10834
見者	-9.11198
亡	-9.11234
亦爾	-9.11256
昔	-9.11277
大眾	-9.11382
云何以	-9.11431
陰	-9.11518
而無	-9.11693
殊	-9.11754
最上	-9.11893
無法	-9.11901
▁|(	-9.12197
謂之	-9.12237
依止	-9.12293
尚畢竟不可得	-9.12294
有無	-9.12405
亦是	-9.12573
取相	-9.1259
對治	-9.12609
彰	-9.12631
契	-9.12956
佛道	-9.13116
清	-9.13182
法者	-9.13182
徵	-9.1323
影	-9.13417
法故	-9.13582
微	-9.13636
此法	-9.13804
不壞	-9.13888
何所	-9.13981
頌曰	-9.13985
不以	-9.14043
不退	-9.14084
滅度	-9.14294
奉	-9.14295
第六	-9.14421
無分別	-9.14487
嚴淨佛土	-9.14758
堅固	-9.14814
無為法	-9.14907
則無	-9.1498
於諸	-9.15005
色相	-9.15055
住處	-9.15096
檀波羅蜜	-9.15212
頓	-9.15329
讀	-9.15682
是學一切智智不	-9.16101
玄	-9.16132
故知	-9.16216
而有	-9.16219
垢	-9.16275
無二無二分故	-9.16494
如實	-9.16502
受者	-9.16575
諸相	-9.16728
未得	-9.16898
遇	-9.16902
▁「	-9.16994
不作	-9.1713
偏	-9.17382
覆	-9.1748
伽	-9.17512
二諦	-9.17581
微妙	-9.17736
徧	-9.17795
告	-9.17833
佛土	-9.18872
如何可言	-9.189
最	-9.18996
如虛空	-9.19045
倒	-9.19113
縛	-9.19143
釋提桓因	-9.19171
曾	-9.1924
及諸	-9.19355
無不	-9.19381
半	-9.19475
舍	-9.19532
有二種	-9.19606
雖有	-9.19716
含	-9.19872
作是	-9.20027
六塵	-9.20073
于	-9.20193
惡魔	-9.20474
慢	-9.20542
亦復	-9.20546
若無	-9.20656
宜	-9.20677
一時	-9.21241
如汝所說	-9.21333
故名為	-9.2136
吾	-9.21491
雨	-9.21494
是諸菩薩	-9.21536
此二	-9.2157
不如	-9.21811
八十隨好	-9.21966
行乃至老死愁歎苦憂惱	-9.21989
愚	-9.22067
所修	-9.22093
壽	-9.22139
歲	-9.22184
具壽善現復白佛言	-9.2237
性非有故	-9.22389
內外	-9.22762
意云	-9.22795
降	-9.22797
行相	-9.22885
珠	-9.22975
不空	-9.22982
了知	-9.23155
許	-9.23402
受持讀誦	-9.23472
證得	-9.23499
望	-9.23561
章	-9.23591
空生	-9.23622
殺	-9.23849
所言	-9.23991
功	-9.24045
菩薩摩訶薩行般若波羅蜜	-9.24054
眼識界及眼觸	-9.24117
老	-9.24152
而修	-9.24249
善逝	-9.24262
耳識界及耳觸	-9.24386
極喜地	-9.24503
實無	-9.24575
底	-9.24586
身識界及身觸	-9.24645
淨土	-9.24785
舌識界及舌觸	-9.24944
善知	-9.24961
助	-9.25049
鼻識界及鼻觸	-9.25063
意識界及意觸	-9.25071
而得	-9.25435
成熟有情	-9.25461
違	-9.25901
天眼	-9.26051
四念處	-9.26169
河	-9.26287
五眾	-9.26428
解曰	-9.26572
出生	-9.26672
示現	-9.27118
尋	-9.27165
殊勝	-9.27313
却	-9.27318
葢	-9.27408
呼	-9.27435
興	-9.27506
焉	-9.27545
非法	-9.27779
薩云若	-9.27815
一句	-9.27928
靈	-9.27947
可以	-9.2795
虛妄	-9.28307
現前	-9.28373
如夢	-9.28375
第一義	-9.28395
欲得	-9.28444
諸如來	-9.28609
尼	-9.28676
精勤修學	-9.28754
如如	-9.28781
註	-9.28825
六度	-9.28876
四諦	-9.28894
心不	-9.28954
鉢	-9.28975
無畏	-9.28992
是事	-9.28993
聲界	-9.29014
齊	-9.29443
中說	-9.29453
老死愁歎苦憂惱	-9.29509
沙門	-9.29692
林	-9.29727
觸界	-9.29992
應知	-9.30005
和	-9.30078
香界	-9.30251
燈	-9.30262
諸法實相	-9.30473
十一	-9.3051
治	-9.30547
味界	-9.30547
安立	-9.3055
云云	-9.306
尊者	-9.30618
講	-9.30684
云何名為	-9.30876
象	-9.31155
增長	-9.31186
其中	-9.31328
饒益	-9.31383
第十	-9.31606
第八	-9.31617
得道	-9.31837
因緣故	-9.31915
四無所畏乃至十八佛不共法	-9.31962
讚歎	-9.3208
慶喜當知	-9.32149
一切諸法	-9.32162
佛性	-9.32327
囉	-9.32346
能得	-9.32371
致	-9.32493
證得無上正等菩提	-9.32577
三者	-9.32592
各各	-9.32697
有為法	-9.32773
愚癡	-9.32821
佛果	-9.32904
不信	-9.3311
迦	-9.33121
劣	-9.33122
初明	-9.33174
辯	-9.33196
善勇猛	-9.334
此增語既非有	-9.3348
當得	-9.33564
三藏	-9.3363
作意	-9.33632
詮	-9.33634
當說	-9.33753
又云	-9.33757
故有	-9.33788
相續	-9.3406
懈怠	-9.34081
四大	-9.34139
強	-9.34328
此中尚無	-9.34407
號	-9.34443
所見	-9.34526
梵語	-9.34548
無上菩提	-9.34619
葉	-9.34706
元	-9.34772
自性即非自性	-9.34834
見佛	-9.34842
由此因緣	-9.34958
即為	-9.34962
何況有彼	-9.34983
色等	-9.35037
歷	-9.35055
父母	-9.35132
菩薩摩訶薩行般若波羅蜜多時	-9.35153
則不	-9.35183
例	-9.3522
四種	-9.35351
燒	-9.35513
如理思惟	-9.35558
摩訶	-9.35652
皆空	-9.35799
答言	-9.35899
性空故	-9.35911
毒	-9.35946
若諸菩薩	-9.3597
十五	-9.36013
汝善男子應修	-9.3603
無色界	-9.36132
知見	-9.36191
皆得	-9.36195
衣服	-9.36463
原	-9.3651
平	-9.36685
演說	-9.36705
而說	-9.36945
尊重	-9.36975
天中天	-9.37094
憂	-9.3717
勤	-9.37494
若行	-9.37547
為欲	-9.37596
於法	-9.37608
為說	-9.37699
變化	-9.37701
減	-9.37702
一切相智清淨	-9.37724
有法	-9.37765
石	-9.37813
所依	-9.37901
當知般若波羅蜜多亦	-9.37923
則是	-9.37989
阿羅漢果清淨	-9.38
四無色定清淨	-9.38034
道聖諦清淨	-9.38081
十遍處清淨	-9.38093
檀	-9.38212
不實	-9.3826
配	-9.38275
無願解脫門清淨	-9.38276
猶如	-9.38361
羅漢	-9.38395
化身	-9.38447
釋迦	-9.38519
而言	-9.38531
源	-9.38622
一法	-9.38718
無實	-9.39055
」【	-9.39075
皆悉	-9.39087
真諦	-9.39187
老死	-9.39205
復作是言	-9.39292
此即	-9.39308
節	-9.39318
我見	-9.39348
問答	-9.39395
親近	-9.39423
不善	-9.39438
汝復觀何義言	-9.39676
幾	-9.3974
安隱	-9.39858
出世間	-9.39882
斷疑	-9.40188
無自性	-9.4023
視	-9.40277
亦能	-9.40292
鏡	-9.40415
種性	-9.40434
導	-9.40463
南	-9.40481
於汝意云何	-9.40505
▁三	-9.40537
薄	-9.40664
承	-9.40687
廣說乃至	-9.40738
是故名為	-9.40972
不定	-9.41194
安樂	-9.41221
譬	-9.41245
我能	-9.41271
戲論	-9.4138
)(	-9.41542
令其	-9.41742
可說	-9.41743
棄	-9.41773
亦不以	-9.41809
常住	-9.41838
無想	-9.42012
薩	-9.42017
到彼岸	-9.42033
倍	-9.42051
眷屬	-9.42501
亦應	-9.4255
際	-9.42641
法施	-9.42653
放	-9.42854
不斷	-9.42949
欲令	-9.43058
不可稱量	-9.43134
人天	-9.4321
所證	-9.43288
西	-9.43422
三十二大士相	-9.43451
菩薩摩訶薩行	-9.43517
窮	-9.43535
自他	-9.43601
聲聞乘	-9.43623
青	-9.43793
佛眼	-9.43824
審	-9.43976
四禪	-9.4402
無邊故	-9.44061
不復	-9.44255
不墮	-9.44329
儀	-9.44449
所緣	-9.44546
十三	-9.44578
展轉	-9.44623
如佛	-9.44637
無記	-9.44675
三寶	-9.44792
行施	-9.44917
是修般若波羅蜜多	-9.45071
隱	-9.45128
色空	-9.45203
無所住	-9.45211
作佛	-9.45218
一相	-9.45351
魔事	-9.45392
不作是念	-9.45604
如是乃至	-9.45686
經言	-9.45761
無滅	-9.45795
無餘	-9.46057
恩	-9.46072
士	-9.46301
我於	-9.46369
領	-9.46395
第七	-9.46402
怖	-9.46504
其所	-9.46508
斷滅	-9.46747
自性亦非自性	-9.46814
身心	-9.46849
世諦	-9.469
落	-9.46935
淺	-9.47027
語言	-9.47043
馬	-9.47132
婆羅門	-9.47164
非是	-9.47224
等可得	-9.47244
善友	-9.47309
肉	-9.47343
能所	-9.47392
受用	-9.47468
切	-9.47554
賊	-9.47636
力故	-9.47698
彌勒	-9.47719
自相	-9.47787
聞說	-9.48072
相似	-9.48101
護念	-9.48166
而能	-9.48218
云何菩薩	-9.48298
尸羅波羅蜜	-9.48332
十七	-9.48384
新	-9.48396
虛	-9.48407
句義	-9.48446
或有	-9.48472
不退轉	-9.48483
勝義	-9.48569
二句	-9.48658
前後	-9.48779
園	-9.48792
禮	-9.48965
調伏	-9.48976
舍利	-9.48993
是佛	-9.49036
徹	-9.49248
帝	-9.49257
從此	-9.49505
夢中	-9.49658
香界乃至鼻觸為緣所生諸受	-9.49778
隨喜迴向	-9.49787
申	-9.49823
諸有	-9.49861
不爾	-9.49925
不失	-9.50145
修行般若波羅蜜多	-9.50203
所生	-9.50286
其義	-9.50443
法界乃至意觸為緣所生諸受	-9.50518
資	-9.50568
脩	-9.50642
聲界乃至耳觸為緣所生諸受	-9.50659
特	-9.50722
精	-9.50803
正覺	-9.50807
麁	-9.50896
三十七品	-9.50956
觸界乃至身觸為緣所生諸受	-9.50988
若欲	-9.51002
東	-9.51013
義故	-9.51145
實無有法	-9.5121
亦無所	-9.51297
羼提波羅蜜	-9.51415
闇	-9.51431
然後	-9.51566
之意	-9.5162
令得	-9.51707
今此	-9.5177
菩薩摩訶薩行深般若波羅蜜多時	-9.51853
大菩提	-9.51957
身觸為緣所生諸受	-9.5202
耳觸為緣所生諸受	-9.52025
得聞	-9.52082
施設可得	-9.52121
如是甚深般若波羅蜜多	-9.52143
應當	-9.52279
談	-9.52281
菩薩摩訶薩修行般若波羅蜜多時	-9.52336
詳	-9.52402
國王	-9.5241
繫	-9.52427
盛	-9.52454
怨	-9.52481
離諸	-9.52704
此明	-9.52705
觀照	-9.52705
自性空故	-9.52765
清淨故	-9.52807
言之	-9.52837
瞋恚	-9.52869
異生	-9.52893
鼻觸為緣所生諸受	-9.52925
然此	-9.52984
靜	-9.53023
慧眼	-9.53035
授記	-9.53066
汝若能修如是	-9.53084
如經	-9.53109
亦無所有	-9.53181
悉皆	-9.53284
而住	-9.53517
若非自性即是	-9.53545
則非	-9.53639
不見有	-9.53692
色界乃至眼觸為緣所生諸受	-9.53758
味界乃至舌觸為緣所生諸受	-9.5378
諍	-9.53784
持經	-9.53793
於色	-9.53814
□	-9.53845
宮	-9.53853
校量	-9.53901
之理	-9.53984
天上	-9.54061
救	-9.54117
守	-9.54177
穢	-9.54206
敘	-9.54227
推	-9.54267
飲食	-9.54296
般若波羅蜜中	-9.54316
各有	-9.54349
具壽善現白佛言	-9.54397
遊	-9.544
等持	-9.54575
散亂	-9.54656
譬喻	-9.54661
之福	-9.54665
畏	-9.5473
唯識	-9.54899
露	-9.54909
不念	-9.5491
謗	-9.54937
毛	-9.54963
解釋	-9.55117
五百	-9.55135
轉法輪	-9.55168
待	-9.55233
能令	-9.55387
能知	-9.554
拔	-9.55513
度生	-9.55515
能證	-9.55515
熱	-9.55518
阿那含	-9.55595
大海	-9.55612
所攝	-9.55633
阿耨多羅三耶三菩	-9.5571
一日	-9.55765
三十	-9.55849
若遠離若不遠離	-9.55882
行深般若波羅蜜多	-9.55916
都無	-9.55919
舌觸為緣所生諸受	-9.55942
無說	-9.56035
逆	-9.56055
證無上正等菩提	-9.56158
六波羅蜜多	-9.56218
相好	-9.56263
此文	-9.56306
此人	-9.56308
阿素洛等	-9.56314
陀羅尼	-9.56373
無生滅	-9.56392
何處	-9.56415
神力	-9.56447
慈悲	-9.56459
預流向預流果	-9.56459
端	-9.56484
無見	-9.56701
破壞	-9.5678
建立	-9.56808
辭	-9.56828
見如來	-9.56835
菩薩行	-9.56849
緣起	-9.56901
簡	-9.56993
識清淨	-9.5707
寧	-9.57259
菩薩十地	-9.57324
是諸	-9.57343
陳	-9.57364
辟支佛道	-9.5738
的	-9.57463
諸眾生	-9.57491
損	-9.57523
乞	-9.57662
世間便有	-9.57893
之時	-9.57971
不可見	-9.58064
不出	-9.58197
世俗	-9.58204
冥	-9.58293
性故	-9.58395
謂若住此三摩地時	-9.58513
若能	-9.58643
胎	-9.58736
及餘	-9.58817
般若波羅蜜多清淨	-9.58861
百千	-9.58934
諸行	-9.58949
人法	-9.59064
亦空	-9.59298
瓔珞	-9.59428
不可取	-9.59477
斯陀含	-9.59507
中無	-9.59783
皆有	-9.59906
制	-9.59997
祖	-9.60097
內空乃至無性自性空	-9.60121
能斷	-9.60133
有一	-9.60144
相者	-9.60172
行六波羅蜜	-9.60188
!「	-9.60244
聞法	-9.60308
有四	-9.60339
皆從	-9.60353
若寂靜若不寂靜	-9.60574
信受	-9.6062
乃至一切種智	-9.60673
仁	-9.60845
佛身	-9.60879
教化	-9.60924
狀	-9.61133
越	-9.61333
衰	-9.61344
唯有	-9.61453
識界清淨	-9.61654
禪波羅蜜	-9.61697
毘梨耶波羅蜜	-9.61931
鳥	-9.61942
有人言	-9.6196
惡趣	-9.62023
看	-9.62042
人中	-9.6209
徒	-9.62294
守護	-9.62342
阿修羅	-9.62352
種子	-9.62376
鬼	-9.62376
決	-9.62471
見有	-9.62513
固	-9.62601
無染	-9.62895
發阿耨多羅三藐三菩提心	-9.63112
滿慈子	-9.63222
得果	-9.63287
四念住乃至八聖道支	-9.63289
二明	-9.63306
無染無淨	-9.63425
女人	-9.63594
音聲	-9.63609
信心	-9.63792
付囑	-9.638
檀那波羅蜜	-9.63927
諸煩惱	-9.63936
是也	-9.63998
星	-9.64095
依此	-9.64195
智者	-9.6421
善巧	-9.64239
修道	-9.64298
真如清淨	-9.64439
福田	-9.64586
無能	-9.64615
無量無數	-9.64618
懷	-9.64671
不滅	-9.64698
何等為	-9.64806
骨	-9.64862
備	-9.64884
有異	-9.649
為體	-9.65008
有我	-9.6506
無間	-9.65147
謬	-9.65281
權	-9.65334
以一切法	-9.65456
今明	-9.65672
錯	-9.65677
身相	-9.65686
幻化	-9.65688
誠	-9.65731
即耳	-9.65735
能於	-9.65774
法處清淨	-9.65834
巧	-9.65901
牛	-9.65911
怖畏	-9.6598
淨戒乃至般若波羅蜜多	-9.66088
十九	-9.66098
不盡	-9.66128
非相	-9.66158
攝受一切	-9.66163
於是	-9.6619
意處清淨	-9.6619
於佛	-9.66201
萬法	-9.66218
之處	-9.66219
天親	-9.66397
日月	-9.6645
判	-9.66481
泯	-9.66481
咸	-9.66709
法雲地	-9.66713
如人	-9.66891
珍寶	-9.66982
諸佛無上正等菩提清淨	-9.6701
菩薩摩訶薩眾	-9.67012
『	-9.67082
當知是人	-9.67112
消	-9.67121
內空清淨	-9.67144
為一	-9.67219
預流果清淨	-9.67535
佛答	-9.67575
正見	-9.67594
菩薩十地清淨	-9.67596
後際	-9.67602
利樂	-9.67686
關	-9.67708
拘翼	-9.67798
差	-9.67806
增上緣	-9.67813
一切世間	-9.67814
八解脫清淨	-9.67858
犯	-9.67889
所知	-9.67889
橫	-9.67912
可見	-9.6802
四念住清淨	-9.68054
非色	-9.68107
離欲	-9.68173
。」【【	-9.68175
閻浮提	-9.68184
總結	-9.68224
非行般若波羅蜜多	-9.6828
相違	-9.6828
補特伽羅	-9.68408
氣	-9.68447
無所著	-9.68468
佛十力清淨	-9.68549
肉眼	-9.68629
布施波羅蜜多清淨	-9.68639
五眼清淨	-9.68651
暗	-9.68752
獨覺菩提清淨	-9.68909
四靜慮清淨	-9.69007
所說法	-9.69051
二法	-9.69116
所化	-9.6912
苦聖諦清淨	-9.69156
空寂	-9.69182
恒住捨性清淨	-9.69185
無忘失法清淨	-9.69199
濁	-9.69219
一合相	-9.69343
非無	-9.69351
濟	-9.69369
志	-9.69399
師子	-9.69452
無始	-9.69456
流轉	-9.69522
無差別	-9.69546
相空	-9.69574
凡聖	-9.69676
恒河沙	-9.69776
中間	-9.69785
誡	-9.69807
代	-9.69818
空解脫門清淨	-9.69823
貴	-9.69833
二字	-9.69836
畢竟不生	-9.69849
一切菩薩摩訶薩行清淨	-9.69914
一切三摩地門清淨	-9.69921
菩提心	-9.69934
解說	-9.69946
如來所說	-9.69948
善業	-9.69973
六神通清淨	-9.69979
大士	-9.69997
雜染	-9.70029
積	-9.70057
隨念	-9.70064
一切陀羅尼門清淨	-9.70079
焰	-9.70205
釋云	-9.70217
聞是	-9.70335
大德	-9.70353
自行	-9.70395
空相	-9.70446
棄捨	-9.7056
善知識	-9.7057
是為戲論	-9.70579
如前	-9.70609
恒河	-9.70761
而起	-9.70786
是中	-9.7082
但以	-9.70988
知一切法	-9.71077
臺	-9.71079
為有	-9.71237
仙	-9.71245
再	-9.71249
運	-9.71256
弘	-9.71268
車	-9.71298
非實	-9.71339
空不空	-9.71398
揀	-9.71466
妄想	-9.71538
熟	-9.71592
善吉	-9.71629
緣生	-9.71651
盖	-9.71676
者謂	-9.71739
縱	-9.7191
開示	-9.71915
疾證無上正等菩提	-9.71981
作是言	-9.72006
能行	-9.72203
心也	-9.72221
不執	-9.72303
無知	-9.72321
純	-9.72341
乞食	-9.72471
災	-9.72498
參	-9.72519
無數量	-9.72526
公	-9.72541
不及	-9.72809
是空	-9.72826
作者	-9.72972
五欲	-9.72973
舊	-9.72978
唐	-9.73013
收	-9.73021
漏	-9.73111
相也	-9.73229
名之為	-9.73255
菩薩道	-9.73295
萬行	-9.73326
不思議	-9.73343
一切法皆	-9.73346
何緣	-9.73416
云何名	-9.7344
法眼	-9.73461
五種	-9.73542
亦如	-9.73577
既無	-9.73598
法也	-9.7369
賢聖	-9.73719
教他	-9.73737
如彼	-9.73758
之言	-9.73802
准	-9.73954
當學般若波羅蜜	-9.74005
一切處	-9.74047
善惡	-9.74134
六根	-9.74175
不解	-9.74175
是真	-9.7421
十力	-9.7434
天王	-9.74397
不能得	-9.74449
如是如是	-9.74473
大小	-9.74607
箇	-9.74833
後世	-9.74966
偈云	-9.74991
牒	-9.75005
鎧	-9.75072
而巳	-9.7509
往來	-9.75127
護國	-9.75242
十二因緣	-9.75283
由斯	-9.75302
如實了知	-9.75393
無諍	-9.75481
名相	-9.75511
增益	-9.7552
若復有人	-9.75614
經曰	-9.75684
無自性故	-9.7592
此言	-9.75922
無所從來	-9.75924
則有	-9.76063
為離	-9.7609
美	-9.76102
若離	-9.76148
由此般若波羅蜜多祕密藏中所說法故	-9.76296
詞	-9.76311
般	-9.76328
若有人	-9.76351
應如是	-9.76383
由此故說	-9.76484
姓	-9.76542
化作	-9.76577
漸次	-9.76629
六道	-9.76633
麼	-9.76733
亦不能	-9.76887
畢	-9.76911
逮	-9.77104
得無上正等菩提	-9.77156
深般若波羅蜜	-9.77195
念念	-9.77208
哩	-9.77219
由是	-9.77259
名曰	-9.77327
即是空	-9.77352
有此	-9.7736
心無	-9.77427
無漏法	-9.77523
不在	-9.77532
患	-9.77663
聽受	-9.77715
二十	-9.77731
流通	-9.77782
又復	-9.77818
貪著	-9.77938
十善	-9.77961
自身	-9.78009
獨覺乘	-9.78155
持說	-9.78259
麤	-9.78341
題	-9.78391
頗	-9.78403
發菩提心	-9.78405
響	-9.78468
池	-9.78613
布	-9.78633
諸佛世尊	-9.78641
未曾	-9.78773
惡業	-9.78773
演	-9.78777
能作	-9.7878
為二	-9.78793
貫	-9.78805
刀	-9.7883
天人	-9.78885
威儀	-9.78895
乃是	-9.79066
說般若	-9.7907
勢力	-9.79163
塔	-9.79539
歡喜讚歎	-9.79573
嚩	-9.79599
下文	-9.79762
阿鞞跋致	-9.79786
亦然	-9.79877
六種	-9.79889
大師	-9.79929
野	-9.8001
皆令	-9.80113
當來	-9.80249
【	-9.80284
三業	-9.80331
無生忍	-9.80402
華嚴	-9.80406
諸三昧	-9.80466
誑	-9.80467
寺	-9.80473
不可戲論故不應戲論	-9.8049
互	-9.80568
應圓滿	-9.80594
所執	-9.80643
滯	-9.80678
若於	-9.80723
何法	-9.80733
諸餘	-9.8077
亦無有	-9.8082
取著	-9.80841
隨意	-9.80861
恒沙	-9.80931
說者	-9.80934
諸法空	-9.8094
波羅	-9.80992
索	-9.81005
不共	-9.81012
化眾生	-9.81136
毘	-9.81166
等無間緣	-9.81175
迴	-9.81176
具壽	-9.81238
步	-9.81368
成熟	-9.81404
專	-9.81434
所住	-9.81513
又如	-9.8152
若見	-9.81552
背	-9.81577
正明	-9.81615
此則	-9.81881
他人	-9.81886
所緣緣	-9.81984
血	-9.82155
十方諸佛	-9.82296
迹	-9.82389
付	-9.82445
傍生	-9.82472
億	-9.82532
菩薩行般若波羅蜜	-9.82616
而行	-9.82805
轉輪聖王	-9.82842
以其	-9.8309
離垢地	-9.83132
金剛經	-9.8322
逐	-9.83289
木	-9.83362
東方	-9.83443
大身	-9.8346
說法者	-9.8349
蓮華	-9.83525
無縛無解	-9.83749
富	-9.83763
賢	-9.83769
鬼神	-9.83945
否	-9.8395
此心	-9.8415
常無常	-9.84231
登	-9.84258
不應於	-9.84283
緣覺	-9.84295
○	-9.84331
於諸法	-9.84369
其福	-9.84393
已得	-9.84393
行布施	-9.84484
無相解脫門	-9.84526
虗妄	-9.84555
若有善男子	-9.84632
宿	-9.84787
無形	-9.84974
天子	-9.8509
淨故	-9.85108
。《	-9.85174
滿足	-9.85199
泥	-9.85242
今世	-9.85316
三世諸佛	-9.85398
亦不離	-9.85441
所詮	-9.85462
初標	-9.85541
利他	-9.85677
此三	-9.85701
住於	-9.85818
無人	-9.8605
知諸法	-9.86081
非不	-9.86176
準	-9.86231
布施波羅蜜多乃至般若波羅蜜多	-9.86245
良	-9.86343
非實有	-9.8639
漏盡	-9.86511
諸菩薩摩訶薩眾	-9.86511
善慧地	-9.86534
怛薩阿竭	-9.86558
豈不	-9.86639
十八界	-9.8667
前說	-9.86751
此義	-9.86873
返	-9.87006
有三種	-9.87085
少分	-9.87085
前際	-9.8713
圓成	-9.87215
輪迴	-9.87231
箭	-9.87255
黃	-9.87361
心中	-9.87374
假使	-9.87458
空也	-9.87603
如化	-9.87623
剎那	-9.87632
等法	-9.87714
染淨	-9.87779
其身	-9.87864
妙法	-9.87879
不應離	-9.87893
但有	-9.87994
事故	-9.88019
得名	-9.88132
福聚	-9.88171
色蘊	-9.88188
留	-9.88194
辟支佛地	-9.88261
薩芸若	-9.88266
發光地	-9.88282
纏	-9.88301
十八不共法	-9.88403
不過	-9.88403
玅	-9.88674
中際	-9.88677
驚	-9.88696
能信	-9.88713
非住非不住	-9.88748
出離	-9.88843
入涅槃	-9.89069
永斷	-9.89127
我法	-9.89132
北	-9.89187
不久	-9.89223
蜜	-9.89246
菩薩摩訶薩行般若波羅蜜時	-9.8926
仁王	-9.89334
或說	-9.89363
四者	-9.89446
勢	-9.89465
十八佛不共法清淨	-9.89556
八聖道支清淨	-9.89575
奪	-9.89576
生者	-9.89708
現前地	-9.89709
現行	-9.89716
勤修	-9.89755
不思議界清淨	-9.89772
擇	-9.89797
遠行地	-9.89813
當於	-9.89873
尚不可得	-9.8988
分明	-9.90225
無心	-9.90228
悔	-9.90248
能如是	-9.90301
諸功德	-9.90316
伎樂	-9.90341
一分	-9.90476
令住	-9.90693
意識	-9.90807
無性自性空清淨	-9.90821
佛地	-9.90971
亦得	-9.91008
深般若波羅蜜多	-9.91107
無學	-9.91222
不動地	-9.914
九十	-9.91422
增上	-9.91525
如是菩薩	-9.91533
作如是言	-9.91591
若言	-9.91615
慮	-9.91805
痛痒思想生死識	-9.9185
為大	-9.91922
一切諸佛	-9.91976
說也	-9.92053
宣	-9.92071
有何	-9.92113
仰	-9.92145
若一切法	-9.92183
所起	-9.92186
諸菩薩摩訶薩修行般若波羅蜜多時	-9.92308
」?	-9.92309
質	-9.92404
虛誑	-9.92486
字門	-9.92498
更有	-9.92529
化生	-9.92535
短	-9.9266
迦葉	-9.92688
惠	-9.927
心者	-9.92729
解云	-9.92824
色處清淨	-9.92887
真如乃至不思議界	-9.92942
太	-9.92953
微細	-9.9297
上來	-9.92972
若空若不空	-9.92997
心故	-9.93262
應學	-9.93305
二義	-9.9336
眼處清淨	-9.93413
不言	-9.93423
地界清淨	-9.93428
深心	-9.93494
四果	-9.93502
不隨	-9.93505
黑	-9.93513
具壽善現	-9.93536
三明	-9.93603
先世	-9.93624
次明	-9.93653
耳界清淨	-9.93739
於此般若波羅蜜多	-9.93753
飛	-9.93762
意界清淨	-9.93782
所應	-9.93791
過去未來現在	-9.93838
諸根	-9.93855
舍利弗言	-9.93921
去來	-9.93936
不證	-9.93939
何等是	-9.93948
引發	-9.93974
身界清淨	-9.94052
皆以	-9.94055
畜生	-9.9418
下第二	-9.94191
▁(	-9.94232
作是思惟	-9.94258
曉	-9.94271
舌界清淨	-9.94305
自心	-9.94324
悉知	-9.94365
是名菩薩摩訶薩	-9.94425
若爾	-9.9443
鈔	-9.94453
眼界清淨	-9.94458
一來果	-9.94474
若干	-9.94495
俗諦	-9.94518
貧	-9.94572
遠離故	-9.94573
傷	-9.94581
鼻界清淨	-9.94648
我說	-9.94717
該	-9.94761
至心聽聞	-9.94838
非真	-9.94845
怛	-9.94857
無戲論	-9.94858
菩薩所	-9.95002
無明清淨	-9.95049
一切皆	-9.95069
知者	-9.95096
得大	-9.95142
能為	-9.95143
此般若波羅蜜多	-9.95217
報身	-9.95232
單	-9.95345
不名	-9.95395
帝釋	-9.95452
略說	-9.95473
作證	-9.95554
便是	-9.95596
痛	-9.9563
眾生相	-9.95651
菩薩摩訶薩所行般若波羅蜜多	-9.95681
佛國	-9.95709
某	-9.95717
二空	-9.9575
法執	-9.95857
佛語	-9.95879
不聞	-9.95934
能修	-9.95945
己	-9.95972
亦無所住	-9.96002
天帝釋	-9.96015
實性	-9.96102
若菩薩摩訶薩欲	-9.96104
第九	-9.96181
所求	-9.96184
我相	-9.96219
行般若波羅蜜多	-9.96245
染著	-9.96269
無智	-9.96323
室	-9.96346
增減	-9.9636
點	-9.96389
亦云	-9.96393
何因緣故	-9.96424
妄心	-9.96442
打	-9.96444
跡	-9.96453
心生	-9.96467
豈有	-9.96509
不驚	-9.96719
草	-9.96761
壽命	-9.96899
非相應非不相應	-9.96934
他方	-9.96945
如上	-9.96967
無邊際	-9.97002
默	-9.97145
是名為	-9.972
勇猛	-9.97201
祇	-9.97217
連	-9.97249
從初發心	-9.97287
隨所	-9.97338
一人	-9.97378
受記	-9.97444
諸佛法	-9.97484
見道	-9.97517
碎	-9.97551
三解脫門	-9.97664
二障	-9.97676
覩	-9.97759
休	-9.97783
加行	-9.97799
之體	-9.97836
生信	-9.97957
更無	-9.9802
爾所	-9.9809
說般若波羅蜜	-9.98231
即空	-9.98449
生疑	-9.98547
諸菩薩摩訶薩行深般若波羅蜜多時	-9.98615
較量	-9.98642
入菩薩正性離生	-9.98676
值	-9.98755
真心	-9.98777
成就眾生	-9.98795
所聞	-9.98822
本空	-9.99025
或復	-9.99028
須菩提於意云何	-9.99069
遍知	-9.99116
能見	-9.99128
船	-9.9923
能示諸佛	-9.99234
得自在	-9.99258
是則	-9.99282
以何	-9.99323
五波羅蜜	-9.99408
放光	-9.99411
二邊	-9.99417
於一切	-9.99556
釋也	-9.99627
為因	-9.9975
苾芻	-9.99763
不還果	-9.99765
一向	-9.99841
施者	-9.99906
天地	-9.99994
令彼	-10.0009
行般若	-10.0011
是實	-10.0014
笑	-10.0014
不了	-10.0018
復以	-10.0027
我為	-10.003
般涅槃	-10.0032
佛所說	-10.0035
遺	-10.0039
造作	-10.0041
皆無	-10.0043
亦為	-10.0052
二相	-10.0053
勤精進	-10.0057
仙人	-10.007
堪	-10.0071
諸惡	-10.008
四句偈	-10.008
請問	-10.0085
能破	-10.0088
但說	-10.0103
修般若波羅蜜多	-10.0111
至於	-10.0112
是故說	-10.0113
行人	-10.0121
期	-10.0124
長者	-10.0125
詣	-10.0126
潤	-10.0127
如來可得	-10.0129
生故	-10.0135
剎	-10.0136
諸經	-10.0155
二釋	-10.0159
是心	-10.0161
無非	-10.0167
為趣	-10.0171
阿僧祇	-10.0175
之名	-10.0176
測	-10.0178
住是三昧	-10.0188
以無所得為方便	-10.0189
色心	-10.02
何者	-10.0204
至此	-10.0205
不增不減	-10.0206
父	-10.0213
大地	-10.0215
依他	-10.0217
之身	-10.0227
兵	-10.0237
不求	-10.024
色乃至識	-10.0242
如來者	-10.0262
佛以	-10.0264
輪王	-10.0265
愛樂	-10.0265
此等	-10.0267
文殊師利	-10.0271
三義	-10.0284
之因	-10.0292
淨心	-10.0294
是以	-10.0298
當釋	-10.03
焰慧地	-10.0301
貪欲	-10.031
亦勸他	-10.0315
得解脫	-10.0315
五神通	-10.0316
誓	-10.0325
初發心	-10.0326
瑜伽	-10.0327
形相	-10.0329
為諸有情	-10.0333
彌	-10.0333
三十二	-10.0335
亦無所去	-10.0338
若修	-10.0344
用是	-10.0351
非一	-10.0352
天帝釋言	-10.0353
改	-10.036
學般若波羅蜜	-10.0361
苦樂	-10.0363
施與	-10.0371
無定	-10.0382
。」《	-10.0386
苦行	-10.0388
太子	-10.0393
稱讚	-10.0393
菩薩摩訶薩欲	-10.0393
威力	-10.0393
此為	-10.0397
何謂	-10.04
淨佛國土	-10.0409
汝今	-10.0409
初禪	-10.0409
故得	-10.0418
微塵眾	-10.0421
菩薩摩訶薩無所有不可得	-10.0427
未來世	-10.0436
莫作是念	-10.045
無垢	-10.0453
當學	-10.0463
摩訶薩	-10.0465
度脫	-10.0472
不也世尊	-10.0479
不來	-10.0481
性相	-10.0486
若依	-10.0499
如我	-10.05
之事	-10.0501
地前	-10.0508
然燈	-10.0514
於離	-10.0518
與彼	-10.0519
所成	-10.0524
是為菩薩	-10.0528
有五	-10.053
仍	-10.0533
不染	-10.0549
但是	-10.055
空有	-10.0559
究	-10.0559
亦當	-10.056
認	-10.056
六種波羅蜜多	-10.0567
如理	-10.0568
諸善法	-10.0569
威德	-10.057
別有	-10.0582
軍	-10.0595
變易	-10.0597
過失	-10.0597
如是學	-10.0597
明度	-10.0597
佛之	-10.0597
精勤	-10.0599
聽聞	-10.0604
臣	-10.0605
教人	-10.061
暫	-10.0618
第一義諦	-10.0618
生心	-10.0619
四十	-10.0623
如來十力乃至十八佛不共法	-10.0628
欣	-10.0629
諸善根	-10.0631
自有	-10.0635
上品	-10.0635
教化眾生	-10.0637
如來地	-10.064
累	-10.0645
法輪	-10.0646
缺	-10.0653
不思惟	-10.0667
無取	-10.0669
無所生	-10.0683
辦	-10.0699
此疑	-10.0713
利益眾生	-10.0714
右	-10.0715
知是	-10.0715
極難勝地	-10.0721
經典	-10.0722
天下	-10.0724
憶念	-10.0724
真俗	-10.0727
不分別	-10.0731
於般若波羅蜜多	-10.0734
般若波羅蜜者	-10.0734
熏	-10.074
能說	-10.0741
見性	-10.0747
卷第二	-10.0751
若耳	-10.0752
總持	-10.0753
悅	-10.0754
書持	-10.0756
西方	-10.0759
乃至十八不共法	-10.0769
觀諸法	-10.0771
茲	-10.0778
招	-10.0781
稱量	-10.0783
人相	-10.0783
別釋	-10.0784
皆由	-10.0785
如來真如	-10.0798
經卷	-10.0799
有為無為	-10.0799
今言	-10.0801
懸	-10.081
異熟	-10.0817
曼殊室利	-10.0817
破戒	-10.0822
我執	-10.0828
人身	-10.0834
即有	-10.0835
供	-10.0839
自利	-10.0842
飲	-10.0843
恚	-10.0843
所斷	-10.085
之曰	-10.0859
念佛	-10.0861
退轉	-10.0867
以是因緣故	-10.0875
種善根	-10.0885
不遠離	-10.089
樂說	-10.0893
幡蓋	-10.0895
不和合	-10.0903
此名	-10.0912
寔	-10.092
事業	-10.0926
君	-10.0931
壽者	-10.0932
無縛無脫	-10.0933
臨	-10.0935
服	-10.0936
出現世間	-10.0939
不然	-10.0941
任	-10.0954
以無	-10.0955
覺知	-10.0956
說為	-10.0958
即色	-10.0972
餓鬼	-10.0973
諸法相	-10.0983
彼我無我亦不可得	-10.1004
彼常無常亦不可得	-10.1005
實智	-10.1009
法王	-10.1021
皆為	-10.1022
不依	-10.1025
無增無減	-10.1033
為眾生	-10.1033
受生	-10.1034
彼淨不淨亦不可得	-10.1036
融	-10.1046
無斷	-10.1048
譬如有人	-10.105
所問	-10.1055
迴向阿耨多羅三藐三菩提	-10.1055
經說	-10.1056
執有	-10.1061
三事	-10.1061
陽	-10.1062
釋上	-10.1073
修多羅	-10.1074
一切法皆以	-10.1075
說名	-10.1081
苦惱	-10.1084
未盡	-10.1086
』	-10.1086
身命	-10.1088
非但	-10.1089
蒙	-10.1089
田	-10.109
應以	-10.1094
赤	-10.1096
於前	-10.1098
故不	-10.1113
筏	-10.1117
交	-10.1126
薩埵	-10.1129
白佛	-10.1129
六十	-10.1129
眾中	-10.113
彼樂與苦亦不可得	-10.1132
之智	-10.1138
能學	-10.1147
財施	-10.1154
一切煩惱	-10.1159
如是法	-10.1161
為人	-10.1162
所取	-10.1168
贊曰	-10.117
堂	-10.1186
應修	-10.1188
是謂	-10.1192
八萬四千	-10.1193
是色	-10.1197
即此	-10.12
聖道	-10.1202
法華	-10.1206
或生	-10.1211
之行	-10.1213
以明	-10.1223
今日	-10.1225
秦	-10.1228
有情類	-10.123
希	-10.1231
供養諸佛	-10.1237
若以	-10.1238
妄念	-10.1241
學者	-10.1242
有得	-10.1258
正釋	-10.1272
之性	-10.1275
中有二	-10.1278
色起	-10.128
諸聲聞	-10.1281
寄	-10.1285
拘	-10.1285
三毒	-10.1293
唯佛	-10.1295
有大	-10.1298
所謂無相	-10.13
忽	-10.1308
是故菩薩	-10.1314
活	-10.1316
等諸	-10.1317
無我相	-10.1318
乃至意觸為緣所生諸受	-10.1323
狹	-10.1323
頌云	-10.1338
增語非菩薩摩訶薩	-10.1343
畫	-10.1344
恃	-10.1349
皆應	-10.1349
可謂	-10.1349
網	-10.135
命者	-10.1372
能詮	-10.1374
心行	-10.1374
每	-10.1376
接	-10.138
防	-10.1385
髮	-10.1385
當知是為菩薩魔事	-10.1388
若菩薩摩訶薩修行般若波羅蜜多時	-10.1394
文義	-10.141
上下	-10.1427
一乘	-10.1433
善入	-10.1443
統	-10.1445
調	-10.145
闓士	-10.1461
這	-10.1471
廢	-10.1485
諸善男子	-10.149
惜	-10.1491
留難	-10.1498
色等法	-10.1498
數量	-10.1506
訖	-10.1507
無二無別	-10.153
是畢竟淨	-10.1531
所為	-10.1537
障礙	-10.1537
】【	-10.1538
若相應若不相應	-10.1538
八十	-10.1547
臥具	-10.1548
觀色	-10.155
晝夜	-10.1553
昧	-10.1556
長夜	-10.1557
理趣	-10.1557
聞者	-10.1558
不從	-10.1559
自體	-10.1564
須彌	-10.1566
今初	-10.1572
雖復	-10.1573
正觀	-10.1575
善現對曰	-10.1576
岸	-10.1577
遙	-10.1582
一切種	-10.1592
能以	-10.1594
不取著	-10.1608
幽	-10.1611
恐人	-10.1614
如如不動	-10.1614
必有	-10.1617
攝取	-10.1623
即是非相	-10.1626
一異	-10.1637
文二	-10.1638
大智	-10.164
與佛	-10.1642
得佛	-10.1642
涉	-10.1647
或時	-10.1647
貌	-10.1648
朝	-10.1649
贍部洲	-10.1651
不入	-10.1651
都無自性	-10.1655
之旨	-10.1663
能除	-10.1669
有實	-10.1672
無所有不可得故	-10.1673
上妙	-10.1674
一切佛法	-10.1675
正憶念	-10.1681
上文	-10.1683
謂此是	-10.1707
最後	-10.1709
妄語	-10.171
俱胝	-10.1716
不由	-10.1719
憍慢	-10.172
真理	-10.1723
便能	-10.173
觀一切法	-10.1731
因緣生	-10.1733
聞此	-10.1745
載	-10.175
一切聲聞	-10.1751
正說	-10.1756
地中	-10.1763
當作是	-10.1763
為三	-10.1766
灌頂	-10.1775
掃	-10.1782
之道	-10.1786
乖	-10.1787
一切善法	-10.1792
皆如	-10.1795
塗	-10.1797
世間空	-10.1799
佛教	-10.1805
續	-10.1809
發阿耨多羅三藐三菩提心者	-10.181
禪師	-10.1815
曲	-10.1817
是眾生	-10.1817
即無	-10.1819
為菩薩	-10.1822
能與	-10.1822
不相	-10.1823
諸佛菩薩	-10.1824
作此	-10.1828
此菩薩	-10.1829
鐵	-10.1849
應住	-10.185
又曰	-10.1857
初中	-10.1859
都無所有	-10.1862
若一切智清淨	-10.1868
有色	-10.1874
離垢地乃至法雲地	-10.1886
寶施	-10.1887
男女	-10.1888
漚惒拘舍羅	-10.1893
未能	-10.1902
之文	-10.1902
如是名為	-10.1912
卷第三	-10.1912
平等中	-10.1917
真如相	-10.1922
亦不得	-10.1926
分中	-10.1926
此岸	-10.1926
佛意	-10.1931
多聞	-10.1933
不覺	-10.1934
不須	-10.1939
都無所	-10.194
念處	-10.1942
心經	-10.1944
皆依	-10.1944
慳	-10.195
勞	-10.1954
摧	-10.1956
初問	-10.196
呵	-10.1961
亦離	-10.1961
無有是處	-10.1967
No	-10.199
恐怖	-10.1998
所念	-10.1999
是有	-10.2012
三句	-10.2019
為他人說	-10.2022
疑惑	-10.203
。』」	-10.2032
如是諸法	-10.2036
說此	-10.2044
復說	-10.2047
較	-10.2053
洲	-10.2057
雖多	-10.2058
無著云	-10.2059
罵	-10.2069
二執	-10.2078
不怖	-10.2079
自修	-10.2081
無窮	-10.2086
啟	-10.209
恭敬供養	-10.2091
▁一	-10.2092
渡	-10.2092
適	-10.2095
而自	-10.2095
禪那波羅蜜	-10.2098
妙慧	-10.211
法性可得	-10.211
能圓滿	-10.211
不觀	-10.2114
師云	-10.2114
不退轉菩薩摩訶薩	-10.2114
於空	-10.2119
曇無竭菩薩	-10.2122
士夫	-10.2124
是一	-10.2129
品中	-10.2132
初分	-10.214
能具足	-10.214
則知	-10.2145
非心	-10.2152
我人	-10.2161
下二	-10.2165
意業	-10.2169
蓮花	-10.2169
多少	-10.2169
是經	-10.2169
般若之	-10.217
妨	-10.2171
世人	-10.2178
不現	-10.2185
諸菩薩眾	-10.2187
能取	-10.2192
然燈佛	-10.2198
男	-10.2201
忍辱波羅蜜	-10.2204
五十	-10.2205
佛為	-10.2212
無生法忍	-10.2212
般若波羅蜜多甚深經典	-10.2223
滅故	-10.2226
施福	-10.2227
非人	-10.2231
寧為多不	-10.2234
稍	-10.2242
梵行	-10.2246
四天王	-10.2254
何有	-10.2257
毫	-10.2266
等覺	-10.2267
或以	-10.2273
極喜地乃至法雲地	-10.2273
而來	-10.2274
有差別	-10.228
雖行	-10.228
即得	-10.2287
不樂	-10.2288
無緣	-10.2289
眾苦	-10.2296
餘人	-10.2297
纔	-10.2303
當機	-10.2306
勝解	-10.231
業因緣	-10.231
三藏法師玄奘奉詔譯初分	-10.2313
所獲福聚	-10.2313
居士	-10.2314
忘失	-10.2324
法界乃至意觸為緣所生諸受清淨	-10.2326
境智	-10.2326
卷第四	-10.2329
訶	-10.2342
投	-10.2344
懼	-10.2348
無所有處	-10.2352
同一	-10.2377
法無我	-10.2379
負	-10.2379
注此	-10.2387
卷第五	-10.239
皆能	-10.2391
亦令	-10.2392
作禮	-10.2406
便有	-10.2407
偈言	-10.2407
清淨故般若波羅蜜多清淨	-10.2415
遊戲	-10.2419
盲	-10.2419
▁四	-10.2425
比丘尼	-10.2426
習氣	-10.2428
復問	-10.2428
是謂般若波羅蜜多	-10.2428
作如是	-10.2436
何義	-10.2436
四無量心	-10.2444
不成	-10.2446
客	-10.2451
而無所	-10.2452
十住	-10.2455
如來應正等覺	-10.2455
薄伽梵	-10.2456
無來無去	-10.2459
色界乃至眼觸為緣所生諸受清淨	-10.2469
璃	-10.2489
闕	-10.2492
修除遣	-10.2494
須陀洹果	-10.2497
文三	-10.2498
作如是念	-10.2501
了達	-10.2501
但為	-10.2501
證菩提	-10.2503
成道	-10.2506
無量無數無邊	-10.2506
聲界乃至耳觸為緣所生諸受清淨	-10.2507
觸界乃至身觸為緣所生諸受清淨	-10.2507
若諸有情	-10.2508
結使	-10.2511
有其	-10.2515
如文	-10.2517
衍	-10.2523
不合不散	-10.253
敷	-10.253
得福	-10.2531
法寶	-10.2535
味界乃至舌觸為緣所生諸受清淨	-10.254
財物	-10.2548
定慧	-10.2548
有菩薩	-10.2548
無有法	-10.255
爾時世尊	-10.2556
裏	-10.2557
曼拏羅	-10.2558
電	-10.256
驗	-10.2564
行菩薩道	-10.2566
空學	-10.2566
不令	-10.2576
中生	-10.2578
悟入	-10.258
道中	-10.258
香界乃至鼻觸為緣所生諸受清淨	-10.2581
借	-10.2595
逢	-10.2597
三藏法師玄奘奉詔譯	-10.2601
二地	-10.2602
乏	-10.2603
行乃至老死愁歎苦憂惱清淨	-10.2608
三千	-10.261
如來真如可得	-10.2615
八地	-10.2615
亦以	-10.2618
但有名	-10.262
非謂	-10.2629
大品	-10.2631
我人眾生壽者	-10.2633
一劫	-10.2636
無所見	-10.2643
皆名	-10.2644
梵志	-10.2647
心所	-10.2648
奉持	-10.2653
善現言	-10.2654
不於	-10.2664
得無生法忍	-10.2674
外空乃至無性自性空清淨	-10.2674
以顯	-10.2676
法體	-10.2685
為他	-10.2686
隨其	-10.2696
舍利弗白佛言	-10.2697
言無	-10.2698
不修	-10.271
頃	-10.2712
寒	-10.2715
殑伽沙	-10.2715
不自	-10.2716
一來向一來果	-10.2716
利益安樂	-10.2716
知其	-10.2721
順忍	-10.2725
得是	-10.2728
無上正等覺	-10.2732
下明	-10.2739
諸佛如來	-10.274
無取無捨	-10.2745
沈	-10.2747
之果	-10.2753
發無上正等覺心	-10.2753
退失	-10.2753
論釋	-10.2757
生起	-10.2758
次釋	-10.2761
演曰	-10.2764
大功德	-10.2765
其實	-10.2766
而非	-10.2768
正行	-10.2771
四生	-10.2773
為宗	-10.2775
身子	-10.2776
孤	-10.2786
甘露	-10.2788
淨戒乃至般若波羅蜜多清淨	-10.2795
著相	-10.2799
之本	-10.2807
證得一切智智	-10.2808
於我	-10.2809
第二明	-10.2809
等也	-10.2818
菩薩地	-10.2819
臥	-10.282
無可	-10.2823
潔	-10.2824
阿羅漢向阿羅漢果	-10.2829
大慈大悲	-10.2829
金剛般若	-10.2831
正知	-10.2833
無念	-10.2841
如響	-10.2842
其人	-10.2844
云何言	-10.2845
□□	-10.2847
法界乃至不思議界清淨	-10.285
燈明	-10.2856
能忍	-10.2858
七地	-10.2859
如來所得	-10.2863
正道	-10.2864
皮	-10.2866
答云	-10.2866
浮	-10.2867
我亦	-10.2875
念言	-10.2875
不可盡	-10.2888
四無所畏乃至十八佛不共法清淨	-10.289
當知是	-10.2897
人也	-10.2907
慳貪	-10.292
空者	-10.2922
文云	-10.2924
能觀	-10.2924
處處	-10.2926
憶	-10.2931
州	-10.2934
得成	-10.2936
菩薩住	-10.2936
嗔	-10.2937
蔽	-10.2938
四正斷乃至八聖道支清淨	-10.2946
誐	-10.295
是非	-10.2951
勸助	-10.2952
說經	-10.2955
為實	-10.2962
廣釋	-10.2965
慧命	-10.2967
一切諸	-10.2973
三結	-10.2978
但有假名	-10.2979
有想	-10.2982
不應以	-10.2987
丈夫	-10.2987
卷第一	-10.2992
應生	-10.3
律	-10.3016
三十三天	-10.3017
命終	-10.3031
菩薩乘	-10.3033
尚不	-10.3033
出世間法	-10.3035
實法	-10.3044
勝劣	-10.3045
意謂	-10.305
於一切法如實了知略廣之相	-10.3051
以無相	-10.3052
修證	-10.3056
什	-10.3056
不行色	-10.306
當以	-10.3063
諸菩薩摩訶薩行深般若波羅蜜多	-10.3066
遠離不遠離	-10.3069
有善男子	-10.307
滅盡	-10.3077
後五百歲	-10.3079
無對	-10.3087
而行布施	-10.3088
輩	-10.3092
有餘	-10.3092
如說	-10.3093
依法	-10.3094
凡夫人	-10.3094
恨	-10.3096
得一切種智	-10.3099
寂靜不寂靜	-10.31
即以	-10.3103
於耳	-10.3108
▁【	-10.3113
說有	-10.312
一字	-10.3122
補	-10.3126
中際不可得	-10.3129
渴	-10.3135
章句	-10.3138
應身	-10.3139
受苦	-10.314
謂此	-10.315
尾	-10.3155
是如來	-10.3156
證法	-10.3158
雖無	-10.3158
得此	-10.3161
如是說	-10.3166
性中	-10.3167
無二分故	-10.3169
猛	-10.3169
侍	-10.3172
慈心	-10.3179
遷	-10.3195
。●	-10.3199
見聞	-10.3208
真法界	-10.3209
常行	-10.3209
愈	-10.321
常樂	-10.322
慈氏	-10.3222
諸漏	-10.3228
氏	-10.3233
能度	-10.3233
一體	-10.3237
十信	-10.3242
真如求	-10.3242
色清淨	-10.3242
色處乃至法處	-10.3249
不還向不還果	-10.3253
祕密	-10.3261
瓶	-10.3262
正念	-10.3267
於無上正等菩提	-10.3272
頗有	-10.3276
離色	-10.3277
無復	-10.328
是深般若波羅蜜	-10.3281
揚	-10.3284
洞	-10.3284
眼觸乃至意觸	-10.3287
工	-10.3288
又以	-10.3298
智力	-10.3299
報恩	-10.3315
婬	-10.3315
乃能	-10.3324
尸	-10.3325
湛然	-10.3331
藉	-10.3332
相貌	-10.3332
證真	-10.3335
聞說如是甚深般若波羅蜜多	-10.3336
也又	-10.3337
成辦	-10.3351
能入	-10.3355
途	-10.3365
眼識界乃至意識界	-10.3367
不但	-10.3369
作是說	-10.337
以來	-10.3374
前二	-10.3382
如相	-10.3384
然則	-10.3384
三空	-10.3393
若菩薩摩訶薩能	-10.3397
人間	-10.3402
本有	-10.3404
非身	-10.3406
給	-10.3408
試	-10.341
得入	-10.3412
聽者	-10.3413
亦不可	-10.3415
二事	-10.3417
果也	-10.3423
其有	-10.3428
皆同	-10.3431
人見	-10.3435
非縛非解	-10.3442
文殊	-10.3443
眼處乃至意處	-10.3449
格量	-10.3452
正是	-10.3456
無上乘	-10.3469
真如可得	-10.3479
彼論	-10.348
應學般若波羅蜜多	-10.3484
十善業道	-10.3489
春	-10.349
可度	-10.3495
菩薩摩訶薩住	-10.3497
心境	-10.3505
攝受壞滅故學	-10.3506
所願	-10.3506
方便力	-10.3507
教授	-10.351
不畏	-10.352
皆不	-10.3522
寶幢	-10.3523
揭	-10.3526
俱空	-10.3526
是無	-10.3527
觀空	-10.3527
紙	-10.3528
清淨故法界	-10.3528
須彌山	-10.3528
無所得故	-10.3529
貧窮	-10.3531
意樂	-10.3531
酬	-10.3531
共相	-10.3531
殘	-10.3534
法藏	-10.3536
無為界	-10.3539
說是	-10.3541
清淨心	-10.3542
以有所得為方便故	-10.3545
諸法性	-10.3546
現觀	-10.3546
是我	-10.3548
無眾生	-10.3557
是諸眾生	-10.3563
令眾生	-10.3569
嘆	-10.357
是處	-10.3574
薩陀波崙	-10.3574
無量阿僧祇	-10.3581
此說	-10.3583
資具	-10.3589
世間法	-10.3595
聞已	-10.361
所須	-10.3622
便得	-10.3632
離於	-10.3633
林子曰	-10.3636
能行般若波羅蜜多不	-10.3644
免	-10.3644
十種	-10.3646
儒	-10.3649
非我	-10.365
色界乃至法界	-10.3652
淺深	-10.3658
布施乃至般若波羅蜜多	-10.3658
自知	-10.366
能滅	-10.3674
不學	-10.3675
白言	-10.3683
八部	-10.3688
法性求	-10.3689
眼界乃至意界	-10.3692
他化自在天	-10.3693
合掌	-10.3694
壽者相	-10.3696
若受	-10.3698
種諸善根	-10.3698
科家	-10.37
二別	-10.37
自說	-10.3702
不有	-10.3705
深入	-10.3708
降心	-10.371
無有異	-10.3711
問佛	-10.3712
無盡故	-10.3722
識蘊	-10.3724
承事	-10.3725
明菩薩	-10.373
乃至四句偈等	-10.373
清涼	-10.373
度者	-10.3732
顯現	-10.3738
即時	-10.3739
入菩薩位	-10.3745
正智	-10.3748
互相	-10.3754
及彼	-10.3755
所觀	-10.3762
無疑	-10.3771
疏二	-10.3771
六識	-10.3773
無方便善巧	-10.3777
正宗	-10.3777
菩提道	-10.3782
作大	-10.3782
不可計	-10.3799
娑	-10.3803
不見色	-10.381
不用	-10.3811
以般若	-10.3812
如來有所說法	-10.3815
垂	-10.3816
百分不及一	-10.3816
真如平等	-10.3818
八解脫乃至十遍處	-10.3818
以應一切智智心	-10.382
六祖	-10.3822
由此因緣得福多不	-10.3824
如前所說	-10.3834
有漏法	-10.384
三惡道	-10.3841
妙智	-10.3841
民	-10.3842
獨覺地	-10.3845
如是般若波羅蜜多是	-10.3849
義趣	-10.3852
亦可	-10.3858
華言	-10.3865
心念	-10.3867
陀羅	-10.3868
故無	-10.3877
勤苦	-10.3884
戲	-10.3895
五忍	-10.39
毗	-10.39
銷	-10.3901
優婆塞	-10.3904
此地	-10.3905
下第三	-10.3911
有說	-10.3922
而成	-10.3927
可取	-10.3931
割	-10.3941
起信	-10.3947
化佛	-10.3949
辯才	-10.395
亦不能修	-10.3951
是菩薩摩訶薩於	-10.3952
兩不和合	-10.3953
而於	-10.3978
蕩	-10.3978
若四無量	-10.3981
是故如來說	-10.3983
發趣無上正等菩提	-10.3985
其意	-10.3985
論主	-10.399
一佛	-10.3993
本覺	-10.4006
前三	-10.4009
超過	-10.4016
功德善根	-10.4016
勝前	-10.4017
亦不生	-10.4017
豈非	-10.4018
不相應	-10.402
前云	-10.4022
生實相	-10.4026
於此經中	-10.4027
意也	-10.4029
翳	-10.4031
佛告舍利弗	-10.4033
菩	-10.4037
大乘亦爾	-10.4042
樂苦	-10.4044
百億	-10.4057
一偈	-10.406
普照	-10.4061
之境	-10.4068
持誦	-10.4068
喪	-10.4069
一切世間天	-10.407
謝	-10.4072
卒	-10.4072
由此緣故我作是說	-10.4072
無所有性	-10.4075
一來向乃至阿羅漢果	-10.4077
是菩薩耶	-10.4077
誹謗	-10.4078
者即	-10.4079
別明	-10.4083
所護	-10.4083
資糧	-10.4085
由是因緣	-10.4086
初句	-10.4088
屈	-10.4095
歌	-10.4103
吉	-10.4104
急	-10.4109
我聞	-10.4109
限	-10.4112
中際菩薩摩訶薩不可得	-10.4113
無分別故	-10.4115
符	-10.4116
正答	-10.4117
責	-10.412
也問	-10.4127
報佛	-10.4131
寂靜故	-10.4132
諦聽	-10.4142
在家	-10.4154
如我解佛所說義	-10.4155
折	-10.4155
教誡教授	-10.4157
如意	-10.4162
狂	-10.4164
而去	-10.4174
此身	-10.4176
驚怖	-10.4176
菩薩亦如是	-10.4177
當知是菩薩	-10.4182
阿僧祇劫	-10.4186
文中	-10.4193
一云	-10.4201
速得圓滿	-10.4205
賣	-10.4207
濕	-10.4209
為方便	-10.4217
莊嚴佛土	-10.4226
若聲	-10.423
即能	-10.4231
思議	-10.4232
若道相智	-10.4233
大菩薩	-10.4235
辱	-10.4235
當學般若波羅蜜多	-10.4237
應如是住	-10.4238
隨緣	-10.4239
生法	-10.4243
不垢不淨	-10.4244
令速圓滿	-10.4248
如來藏	-10.4248
為性	-10.425
中有三	-10.4251
利根	-10.4253
護持	-10.4256
】「	-10.4259
不取相	-10.426
疏云	-10.4264
如法	-10.4268
歸依	-10.4271
有兩	-10.4273
不見有法	-10.4276
者何	-10.4278
論曰	-10.4278
捨身	-10.4288
顧	-10.4288
照見	-10.4289
官	-10.4289
循	-10.4291
歡喜踊躍	-10.4294
三品	-10.4294
鬼界	-10.4295
但言	-10.4303
不執著	-10.4304
一經	-10.4308
觀行	-10.4313
無法可說	-10.4316
泡	-10.4329
玉	-10.4329
設有	-10.4334
瑞	-10.4334
此乃	-10.4337
懃	-10.4338
等義	-10.4343
能成辦	-10.4346
亦遣此修	-10.4348
多有	-10.4351
出三界	-10.4353
經者	-10.4358
道理	-10.4366
有四種	-10.4366
佛與	-10.4368
梵天	-10.437
若八勝處	-10.4374
引證	-10.4375
第一希有	-10.4376
術	-10.4379
天子當知	-10.4387
所施	-10.439
明了	-10.4401
譬如虛空	-10.4404
真際	-10.4406
口業	-10.4408
僧寶	-10.441
十方世界	-10.4416
繁	-10.4418
謂有	-10.4421
番	-10.4421
菩提分法	-10.4421
勅	-10.4423
眼見	-10.4425
如水	-10.4426
金剛般若波羅蜜經	-10.4427
本自	-10.4429
飾	-10.443
則能	-10.4431
四眾	-10.4437
叉	-10.4442
萬物	-10.4443
能持	-10.4447
從一	-10.4452
如是我聞	-10.4453
法忍	-10.4455
憎	-10.4462
獸	-10.4466
炎	-10.447
亦不執	-10.4472
故能	-10.4474
深法	-10.4474
行菩薩行	-10.4476
富貴	-10.4476
分段	-10.4478
不顛倒	-10.448
為作	-10.4485
二智	-10.4486
華香	-10.4487
波羅蜜是般若波羅蜜	-10.4491
相見	-10.4493
何等法	-10.4501
不沒	-10.4501
於阿耨多羅三藐三菩提	-10.4506
遍滿	-10.4507
波斯匿王	-10.4509
優	-10.4509
移	-10.4511
別相	-10.4511
帶	-10.4512
議	-10.4513
一味	-10.4513
二約	-10.4513
不可量	-10.4517
佛十八法	-10.4517
發明	-10.4518
離一切相	-10.4519
佛世界	-10.4519
一義	-10.4522
於深般若波羅蜜多	-10.4526
無受	-10.4528
無上道	-10.4528
斷惑	-10.4529
我身	-10.453
有願	-10.4531
倚	-10.4537
後明	-10.4544
一百	-10.4549
人心	-10.455
從此第二	-10.4552
誤	-10.4553
廣令流布	-10.4555
生時	-10.4556
前文	-10.4559
從初發意	-10.4564
大千	-10.4567
之見	-10.4577
亦復不	-10.4581
四天下	-10.4582
位中	-10.4587
體性	-10.4589
所得功德	-10.459
欲求	-10.4591
亦能圓滿	-10.4594
孔	-10.4596
行乃至老死	-10.4605
菩薩摩訶薩中有	-10.4606
此下	-10.461
察	-10.4615
應供	-10.4619
百千萬億	-10.462
發願	-10.4626
無依	-10.4628
無體	-10.463
佛剎	-10.464
唱	-10.4643
角	-10.4646
宣說般若波羅蜜多	-10.4652
多羅	-10.4653
一切法性	-10.4664
非常非無常	-10.4666
善實	-10.4675
無來無去亦復不住	-10.4681
能成	-10.4683
說此經	-10.4684
為人解說	-10.4687
厚	-10.469
甚深法	-10.4692
是名大身	-10.4693
三藐三佛陀	-10.4695
七十	-10.4695
菩薩法	-10.47
)「	-10.47
善現便白佛言	-10.4701
云何為	-10.4706
總名	-10.4707
今經	-10.4709
我無我	-10.4709
身觸為緣所生諸受清淨	-10.4714
即聲	-10.4719
老死愁歎苦憂惱清淨	-10.4723
因中	-10.4726
無佛	-10.4727
非空	-10.4728
毀謗	-10.4731
已來	-10.4731
從此第三	-10.4734
三菩提	-10.4734
竭	-10.4735
豐	-10.4738
昇	-10.4738
信者	-10.4744
之二	-10.4744
空性亦空	-10.4746
迴向無上正等菩提	-10.4749
緣所生法	-10.4753
當為	-10.4755
以上	-10.4756
耳觸為緣所生諸受清淨	-10.4761
眼觸為緣所生諸受清淨	-10.4761
以色	-10.4768
住相布施	-10.4769
不名菩薩	-10.477
現身	-10.4774
意觸為緣所生諸受清淨	-10.4774
釋成	-10.4776
乃至無上正等菩提	-10.4777
錄	-10.4781
大明	-10.4784
優婆夷	-10.4784
是菩薩不能修	-10.4787
人所	-10.479
謂如來	-10.479
若住	-10.4798
欲知	-10.4804
謂於	-10.4804
鼻觸為緣所生諸受清淨	-10.4805
背捨	-10.4806
心住	-10.4811
)。】「	-10.4816
眾生見	-10.4817
有二義	-10.4821
建	-10.4822
大願	-10.4827
何用	-10.4828
化人	-10.4828
見色	-10.4829
初文	-10.483
種姓	-10.4831
盜	-10.4832
斯則	-10.4837
一切有為法	-10.4838
證道	-10.4841
其相	-10.4846
無量功德	-10.4847
舌觸為緣所生諸受清淨	-10.485
諸菩薩摩訶薩修行般若波羅蜜多	-10.4858
寂然	-10.4858
性不可得故	-10.4861
省	-10.4863
得見	-10.4865
。」【△	-10.4866
若一來	-10.4866
淨信	-10.4869
深妙	-10.4883
覺悟	-10.4884
不欲	-10.4887
諸王	-10.489
聲聞法	-10.4894
道場	-10.4896
不合	-10.4896
群	-10.4902
於諸有情	-10.4905
伏忍	-10.4909
不見諸法	-10.4914
如是等種種	-10.4917
為本	-10.4917
勝處	-10.4918
人非人等	-10.492
非法相	-10.492
此法門	-10.492
擔	-10.4925
起如是想	-10.4926
五者	-10.4927
軌	-10.4931
不是	-10.4944
亦無分別	-10.4946
無動	-10.4957
回	-10.4958
顯了	-10.4958
養育者清淨	-10.4959
大莊嚴	-10.4962
闡	-10.4964
飯	-10.4966
柔軟	-10.4969
能證得一切智智	-10.4969
無來	-10.497
鹿	-10.4972
我是	-10.4975
過去諸佛	-10.4979
豈可	-10.4986
奉行	-10.4991
威神	-10.4992
一切獨覺菩提	-10.4993
因故	-10.4997
若作是念	-10.5008
兒	-10.501
侵	-10.5011
何得	-10.5013
族	-10.5014
為難	-10.5015
身業	-10.5015
而作	-10.5015
以是義故	-10.5019
文別有	-10.5023
得福多不	-10.5033
彼人	-10.5051
鈍	-10.5058
樹下	-10.5059
諸善	-10.5062
吾我	-10.5064
疑云	-10.5088
無文字	-10.5098
流出	-10.5102
履	-10.5103
修福	-10.5104
為喻	-10.5104
偽	-10.5108
咎	-10.511
實義	-10.5111
生死苦	-10.5111
險	-10.5111
三百	-10.5117
報言	-10.5124
而觀	-10.5125
久住	-10.5128
能照	-10.513
不住色	-10.5133
後二	-10.5134
磨	-10.5135
為我	-10.5137
行也	-10.5139
異本性空	-10.5139
所現	-10.514
斷見	-10.5149
擊	-10.5154
委	-10.5156
化他	-10.5156
於此經	-10.5156
是諸法	-10.5158
乾	-10.5159
條	-10.516
未曾有	-10.5162
阿惟越致	-10.5164
於其中	-10.5171
養	-10.5172
供養佛	-10.5185
消滅	-10.5186
既是	-10.5187
見眾生	-10.5193
讚說	-10.5199
余	-10.5201
昏	-10.5202
遍計	-10.5202
頌言	-10.5204
逼	-10.5207
得涅槃	-10.521
不可稱	-10.5216
十二入	-10.5218
所度	-10.5219
二十七	-10.523
聽法	-10.5234
經意	-10.5243
沉	-10.5245
為世間	-10.5248
校	-10.5249
繇	-10.5251
色即是空	-10.5252
不名為	-10.5252
梁	-10.5253
截	-10.5254
髓	-10.5257
幻師	-10.5259
之類	-10.5259
經義	-10.5263
嚴淨	-10.5265
令諸	-10.5268
成就如是	-10.5269
論議	-10.527
此四	-10.5273
之義也	-10.5277
故此	-10.5278
難得	-10.528
故須	-10.5281
此事	-10.5285
金色	-10.5293
羣	-10.5294
於其	-10.5294
苟	-10.5296
隔	-10.5299
慶	-10.53
放逸	-10.5301
故今	-10.5301
諸波羅蜜	-10.5302
之後	-10.5304
未嘗	-10.5309
此初也	-10.5311
入定	-10.5314
行檀波羅蜜	-10.5315
趣菩提	-10.5316
之念	-10.532
如來十力	-10.5321
實相般若	-10.5322
妙覺	-10.5323
亦非相應非不相應	-10.5323
之妙	-10.5328
我所說	-10.5329
不具足	-10.5331
令人	-10.5331
持此	-10.5333
愍	-10.5334
若水	-10.534
世世	-10.5344
三性	-10.5344
貪愛	-10.5346
避	-10.5347
舍利子問善現言	-10.5349
等相	-10.5349
無法相	-10.5351
緒	-10.5354
身中	-10.5355
其性	-10.5362
不可思議故	-10.5363
常不遠離	-10.5366
諸佛所	-10.5373
初心	-10.5378
本性空故	-10.5383
此之	-10.5384
是知	-10.5389
持用布施	-10.5394
植	-10.5395
弗	-10.5396
圓覺	-10.5397
地界乃至識界	-10.5397
非如來中	-10.5397
意生	-10.5398
而為方便	-10.5399
即便	-10.54
飢	-10.5401
信解受持	-10.5409
無相故	-10.5418
未知	-10.5418
於受	-10.5431
不緣	-10.5432
為此	-10.5435
等事	-10.5437
無實無虗	-10.5438
遍照	-10.5439
其福勝彼	-10.5441
如金剛	-10.5442
行處	-10.5442
殿	-10.5443
得無生忍	-10.5445
無明乃至老死	-10.5445
出現	-10.5446
不生故	-10.5449
醫藥	-10.5453
罪業	-10.5454
轉輪王	-10.5457
以下	-10.5457
七寶布施	-10.5477
攝持	-10.5478
不可施設	-10.548
佛弟子	-10.548
諸比丘	-10.5481
一切智清淨	-10.5483
令我	-10.5486
餘法	-10.5488
爭	-10.5488
樓	-10.549
煩	-10.5492
何異	-10.5493
勝於	-10.5497
最初	-10.5512
明此	-10.5517
煩惱障	-10.5536
色不異空	-10.5538
求佛道	-10.554
魚	-10.5543
此約	-10.5547
欲使	-10.5552
眾生心	-10.5555
敢	-10.5556
散華	-10.5556
亦不可思議	-10.5564
垢淨	-10.5568
已下	-10.5573
總相	-10.5573
由彼	-10.5577
而後	-10.5578
魏	-10.5584
生處	-10.559
甚為希有	-10.5596
與諸有情平等共有迴向無上正等菩提	-10.5599
禁	-10.5601
及弟子	-10.5604
實無所有	-10.5614
教令	-10.5618
四義	-10.5621
常應	-10.5629
難解	-10.5632
趣無上正等菩提	-10.5637
是有為	-10.5641
廣明	-10.5644
圓明	-10.5646
無量百千	-10.5646
忿恚	-10.5646
非善法	-10.5646
不立	-10.5648
中如來可得	-10.5648
佛在	-10.5652
乳	-10.5656
聚落	-10.5657
此理	-10.5661
世界中	-10.5663
有六	-10.5667
所學	-10.5671
如其	-10.5678
詰	-10.5685
世親	-10.569
漢	-10.5692
諸惡魔	-10.5695
竹	-10.5697
遭	-10.5699
號釋迦牟尼	-10.5703
非菩薩摩訶薩	-10.5704
只是	-10.5709
空即是色	-10.5714
妙行	-10.5714
釋迦牟尼佛	-10.5715
色聲	-10.5718
即真如	-10.5721
不住相	-10.5727
述曰	-10.5727
如是一切	-10.5734
真淨	-10.5737
若色清淨	-10.5737
有智	-10.574
之說	-10.5741
附	-10.5745
眼識	-10.5748
此釋	-10.5748
高下	-10.5749
非有非無	-10.5754
擁護	-10.5755
無生法	-10.5762
形像	-10.5765
唯是	-10.5784
以是因緣	-10.5785
復能	-10.5785
張	-10.5789
圍繞	-10.5792
種種因緣	-10.5795
愁	-10.5796
乃至阿耨多羅三藐三菩提	-10.5801
既有	-10.5802
本末	-10.5802
最為	-10.5802
之也	-10.5809
為破	-10.5817
不礙	-10.5822
自性皆空	-10.5822
具足色身	-10.5825
若有人言	-10.5831
故稱	-10.5831
會中	-10.5832
若集	-10.5838
不識	-10.5839
按	-10.5843
旋	-10.5844
若生若滅	-10.5845
王舍城	-10.5848
來者	-10.5849
四攝	-10.585
究竟涅槃	-10.5851
增上慢	-10.5854
愚夫	-10.5855
人民	-10.5869
資生	-10.5871
不轉	-10.5873
今以	-10.5876
有法可得	-10.5882
怒	-10.5882
若有願若無願	-10.5899
若有相若無相	-10.59
百千俱胝那庾多	-10.59
御	-10.59
他心智	-10.5902
八聖道分	-10.5905
里	-10.5907
無所畏	-10.5909
應引發般若波羅蜜多	-10.5911
若無相	-10.5913
亦不行	-10.5921
修慧	-10.5922
現世	-10.5924
住者	-10.5924
離我	-10.5924
今說	-10.5932
三輪	-10.5933
苦果	-10.5935
大法	-10.5937
證果	-10.5942
無量劫	-10.5943
浪	-10.5945
擬	-10.5947
清淨故一切智清淨	-10.5952
床	-10.5952
我以	-10.5953
佛菩提	-10.5953
拳	-10.5955
菩提薩埵	-10.5958
!』	-10.5963
入於	-10.5963
無倒	-10.5966
無法可得	-10.5971
勝義諦	-10.5973
不變	-10.5973
上言	-10.5975
願力	-10.5975
安住苦	-10.5976
大悲心	-10.5983
是般若	-10.5985
贊	-10.5987
如先說	-10.5988
佛智	-10.599
丈	-10.6
都無所得	-10.6
塵勞	-10.6003
安住真如	-10.6007
如是一切皆無所有	-10.6008
凡有	-10.601
為他說	-10.6017
如上說	-10.6028
此般若	-10.6029
若菩薩摩訶薩行般若波羅蜜多時	-10.6037
常見	-10.604
有無量	-10.6042
時節	-10.6051
如虗空	-10.6052
三時	-10.6054
師子吼	-10.6063
百八	-10.6065
第一波羅蜜	-10.6065
或云	-10.6067
所有眾生	-10.607
左	-10.6073
三昧者	-10.6074
善巧方便	-10.6074
學般若波羅蜜多	-10.6083
實語	-10.6085
住相	-10.6086
生天	-10.6086
思量	-10.6086
一切賢聖	-10.6087
一處	-10.6087
無餘涅槃	-10.6098
色受想行識	-10.6098
是故佛說	-10.61
諸世間	-10.6102
盧	-10.6105
穿	-10.6106
福勝	-10.6107
諷誦	-10.611
疲	-10.6111
等正覺	-10.6115
四無礙智	-10.6117
惡友	-10.6121
知有	-10.6126
下品	-10.6128
觀自在	-10.6133
度無極	-10.6135
生於	-10.6136
殊勝功德	-10.6137
二禪	-10.6138
生長	-10.614
三千大千世界中	-10.6141
太虗	-10.6142
懈	-10.6142
三地	-10.6146
住持	-10.6146
之教	-10.615
川	-10.6152
想著	-10.6153
歡	-10.6156
所引	-10.6156
名為菩薩	-10.6157
之大	-10.6161
衛	-10.6162
無央數	-10.6164
從初	-10.6165
於諸如來	-10.6168
經論	-10.617
無起	-10.6172
方能	-10.6184
空中空尚不	-10.6186
斯陀含果	-10.6188
非異	-10.6198
趣向	-10.62
雪	-10.62
析	-10.6206
菩薩摩訶薩如是學時	-10.6207
一千	-10.6208
虎	-10.6208
正解	-10.6214
勤修學	-10.6214
常修	-10.6224
所獲功德	-10.6224
誓願	-10.623
利養	-10.6231
無生故	-10.6232
一剎那	-10.6236
不達	-10.624
天主	-10.624
復言	-10.6242
長行	-10.6245
淨不淨	-10.6251
之辭	-10.6254
後釋	-10.6257
說是經	-10.6263
畢竟離	-10.6267
且初第一	-10.627
唯一	-10.6275
知眾生	-10.6278
有漏無漏	-10.628
犯戒	-10.6281
不足	-10.6281
之異	-10.6281
難可	-10.6282
南方	-10.6285
於過去	-10.6285
大劫	-10.629
當知是菩薩摩訶薩	-10.6296
逮得	-10.63
二十五	-10.6303
佛母	-10.6307
論文	-10.6309
癡清淨	-10.631
故佛	-10.6311
召	-10.6315
藥叉	-10.6317
拏	-10.6321
契經	-10.6321
閑	-10.6324
三耶三佛	-10.6324
七日	-10.6327
初釋	-10.633
亦名甚深	-10.6338
當有	-10.634
前際不可得	-10.6345
尚無	-10.6348
應作是念	-10.6351
布施時	-10.6359
空性	-10.636
為真	-10.6361
拈	-10.6364
鈍根	-10.6364
分齊	-10.6364
於然燈佛所	-10.6366
在於	-10.6367
男子	-10.637
宅	-10.637
方得	-10.637
右膝著地	-10.6373
愚夫異生	-10.6374
枝	-10.6375
梨	-10.6379
不待	-10.6388
第四禪	-10.6396
猶未	-10.6396
及以	-10.6408
釋之	-10.641
亦同	-10.6411
行住	-10.6411
得圓滿	-10.6418
此意	-10.642
一卷	-10.6422
汝當	-10.6427
〔	-10.6428
充滿	-10.6428
軟	-10.6428
於其中間	-10.6431
佛語須菩提	-10.6432
闍	-10.6433
尋香城	-10.6434
宿命	-10.6439
體也	-10.6441
智度論	-10.6441
無壞	-10.6446
阿那含果	-10.6456
假立	-10.6457
釋經	-10.6459
後時	-10.6463
亦無所得	-10.6463
第	-10.6466
非常	-10.6466
所不能	-10.6476
徑	-10.6477
眼耳鼻舌身意	-10.6481
2	-10.6482
若聞	-10.6486
無變異	-10.6487
即法界	-10.6493
聖法	-10.6495
法界相	-10.6496
謂佛	-10.6501
。」【(	-10.6508
國土中	-10.6512
是無為	-10.6516
」;	-10.6519
勝故	-10.6521
將欲	-10.6529
輕賤	-10.6534
肩	-10.6535
庶	-10.6537
射	-10.6538
不可思量	-10.6539
我清淨	-10.6539
須菩	-10.6543
十八空	-10.6544
知識	-10.6544
獲福	-10.6545
云何得	-10.6549
重說	-10.655
初約	-10.6555
獄	-10.6557
生老病死	-10.6567
嘗	-10.6581
眾人	-10.6585
四事	-10.6589
墮地獄	-10.6589
初舉	-10.6591
勝行	-10.6592
冷	-10.6594
或見	-10.6597
諸人	-10.6599
名為佛	-10.66
瞋恨	-10.66
即真	-10.6602
典	-10.6602
能化	-10.6603
了悟	-10.6604
名真	-10.6607
因此	-10.661
讚曰	-10.6612
解脫知見	-10.662
見其	-10.6628
修習甚深般若波羅蜜多	-10.6631
福德聚	-10.6631
俱生	-10.6638
愛著	-10.6639
伴	-10.6642
童	-10.6643
言教	-10.6644
弱	-10.6645
倦	-10.6647
受持讀誦此經	-10.665
十二處	-10.6652
不必	-10.6653
修行般若波羅蜜多時	-10.6656
記云	-10.6656
執取	-10.6656
釋提桓因白佛言	-10.6659
心常	-10.6663
唵	-10.6664
賢者	-10.6667
為多	-10.6669
意者	-10.6674
無自性不可得	-10.6675
行於布施	-10.6675
結成	-10.6685
一明	-10.6688
個	-10.669
聞佛	-10.6696
見者清淨	-10.6698
宋	-10.6701
成正覺	-10.6712
信樂	-10.6716
一切菩薩	-10.6718
非非法	-10.6722
俱不可得	-10.6735
三千大千	-10.6737
影像	-10.6741
佛設利羅	-10.6745
一切功德	-10.6748
訓	-10.6751
預	-10.6753
顏	-10.6753
聖者	-10.6756
故名示	-10.6757
於是中	-10.676
異相	-10.6764
薩陀波崙菩薩	-10.6764
能發	-10.6765
於聲	-10.6766
佛因	-10.6769
實際相	-10.6772
正定	-10.6777
悟一切法	-10.6781
非世界	-10.6786
地上	-10.6786
十方佛	-10.6786
拔濟	-10.6787
聖賢	-10.679
福慧	-10.6793
若菩薩摩訶薩於	-10.6797
滅聖諦清淨	-10.6797
水中	-10.6802
起者	-10.6805
三觀	-10.6805
納	-10.6806
眾會	-10.6808
古今	-10.6817
須彌山王	-10.6818
寬	-10.6818
過去未來現在諸佛	-10.6818
當知菩薩摩訶薩亦無邊	-10.6818
速證無上正等菩提	-10.6823
如來悉知	-10.6826
不增	-10.6827
神足	-10.6829
復作是說	-10.6831
行道	-10.6832
不攝受	-10.6834
天竺	-10.6835
聞佛所說	-10.6837
別異	-10.6843
喜樂	-10.6851
受樂	-10.6853
儞	-10.6858
不可施設思議	-10.6858
生人中	-10.6859
限量	-10.686
為人演說	-10.686
北方	-10.6866
際自性故	-10.6869
舍利子白佛言	-10.6871
總標	-10.6876
因緣和合	-10.6879
聞般若波羅蜜	-10.6881
自念	-10.6886
不疑	-10.689
須達	-10.6892
具說	-10.6893
三十七	-10.6895
即生	-10.6897
下釋	-10.6898
無罣礙	-10.6906
大意	-10.6906
如是求	-10.6906
之德	-10.6909
此段	-10.6912
平等不平等性	-10.6915
心所法	-10.6915
之力	-10.6916
憐愍	-10.6918
快	-10.6922
未來現在	-10.6925
任運	-10.6926
洗	-10.6929
草木	-10.693
福業事	-10.6934
禮拜	-10.6936
有我相	-10.6937
空理	-10.6937
有情清淨	-10.694
以無所得故	-10.6942
污	-10.6942
人空	-10.6943
先明	-10.6947
自性清淨	-10.6948
廣說乃至一切相智	-10.695
須知	-10.6955
普明	-10.6959
生身	-10.6961
即是本性空	-10.6962
是名菩薩	-10.6968
幢幡	-10.6973
之多	-10.6974
以彼	-10.6974
無縛	-10.6974
修習布施	-10.6978
如實了知所有	-10.6981
於諸法中	-10.6982
彼於是趣不可超越	-10.6983
蛇	-10.6986
不忘	-10.6988
上明	-10.6989
常與無常	-10.699
無有定法	-10.699
天王當知	-10.6995
三身	-10.6996
於一切智	-10.7001
一如	-10.7003
攝心	-10.7003
如說修行	-10.7005
若一切法真如	-10.7006
本性空即是	-10.7008
入無餘涅槃	-10.7009
不明	-10.701
同時	-10.701
功用	-10.7012
如來得阿耨多羅三藐三菩提	-10.7013
當生	-10.7014
一切有情皆	-10.7022
無礙智	-10.7025
大雲	-10.7026
蘇	-10.7032
清淨故預流果清淨	-10.7037
無所住亦非不住	-10.7038
若增若減	-10.7038
無有少法	-10.704
三假	-10.704
又問	-10.7043
擐	-10.7044
善女人等作此等說	-10.7046
清淨故佛十力清淨	-10.7047
頻	-10.7048
尸波羅蜜	-10.7049
最上乘	-10.7049
卵生	-10.7054
自下	-10.7056
此問	-10.7057
心心數法	-10.7058
都不可得	-10.7069
以喻	-10.7071
得度	-10.7079
取捨	-10.7083
清淨故六神通清淨	-10.7083
鉢囉	-10.7085
喚	-10.7089
清淨故苦聖諦清淨	-10.7089
清淨故一切陀羅尼門清淨	-10.7091
畢竟空故	-10.7092
秦言	-10.7093
於無相	-10.7093
能起	-10.7095
有十	-10.7096
清淨故布施波羅蜜多清淨	-10.7096
清淨故五眼清淨	-10.7099
當得阿耨多羅三藐三菩提	-10.7104
善女人等為發無上菩提心者	-10.7105
引發般若波羅蜜多	-10.7106
虛空界清淨	-10.7107
穀	-10.7107
且道	-10.711
無法可	-10.7111
即是一切智智	-10.7113
四法	-10.7115
清淨故菩薩十地清淨	-10.7115
清淨故四念住清淨	-10.7117
復能攝受	-10.7117
以畢竟空	-10.712
清淨故四靜慮清淨	-10.7122
無量故	-10.713
論說	-10.713
如是降伏其心	-10.7131
如恒河沙等	-10.7132
意生清淨	-10.7135
瞻	-10.7138
離障	-10.7143
總明	-10.7148
六入	-10.7154
弟	-10.7155
有為界	-10.7156
銀	-10.7157
二引	-10.7157
淨觀地乃至如來地	-10.7157
肇	-10.7158
非我非無我	-10.7158
無方便	-10.7159
清淨故空解脫門清淨	-10.7159
未有	-10.716
不繫	-10.7162
妄見	-10.7165
清淨故真如清淨	-10.7165
清淨故無忘失法清淨	-10.7166
一段	-10.7166
心數法	-10.7168
不悔	-10.717
四聖諦	-10.7171
發菩提心者	-10.7172
始終	-10.7175
不思惟分別	-10.7176
凡人	-10.7181
清淨故恒住捨性清淨	-10.7182
堅實	-10.7185
甚大	-10.7189
住心	-10.7197
當作	-10.7199
清淨故諸佛無上正等菩提清淨	-10.7199
所造	-10.7201
聖教	-10.7201
其名	-10.7203
清淨故一切菩薩摩訶薩行清淨	-10.7205
川禪師云	-10.7207
儒童清淨	-10.7209
憍	-10.7212
忿	-10.7213
勉	-10.7213
無記法	-10.7213
此論	-10.7214
竝	-10.7214
真智	-10.7214
眾妙	-10.7215
鬘	-10.7215
沙數	-10.7216
齋	-10.7216
生者清淨	-10.7218
取證	-10.7219
清淨故一切三摩地門清淨	-10.7219
儒童	-10.7219
心性	-10.722
淨與不淨	-10.7221
依此等法	-10.7224
則為欲令	-10.7225
一部	-10.7229
所知障	-10.7229
覺性	-10.7235
總是	-10.7236
等故	-10.7236
瞋心	-10.7239
清淨故獨覺菩提清淨	-10.7246
無生智	-10.7246
諸見	-10.7247
補特伽羅清淨	-10.7248
乃至正憶念	-10.7248
?』「	-10.7257
於內	-10.7264
是名莊嚴	-10.7266
命者清淨	-10.7269
常啼	-10.727
當言與般若波羅蜜多相應	-10.727
斷障	-10.727
荷擔	-10.7271
清淨故內空清淨	-10.7271
甞	-10.7271
脩行	-10.7272
早	-10.7272
四大王眾天	-10.7273
言語	-10.7273
受者清淨	-10.7274
無所分別	-10.7274
如來如實覺為無相	-10.7276
無分別智	-10.7277
所受	-10.7279
是為宣說真正	-10.7279
我與無我	-10.728
若有能求如是等法修行	-10.7281
有所作	-10.7282
亦不著	-10.7283
疎	-10.7287
婆沙	-10.7287
福報	-10.7289
云何應住	-10.729
為緣	-10.7291
士夫清淨	-10.7296
善現白佛言	-10.7296
唯然	-10.7297
癡心	-10.7303
佛自說	-10.7309
清淨故八解脫清淨	-10.7311
不貪	-10.7312
三德	-10.7319
九地	-10.7322
天耳	-10.7322
即非菩薩	-10.7325
為令	-10.7327
予	-10.7327
卷五百	-10.7328
壁	-10.7328
損減	-10.733
亦無所有不可得	-10.7333
不變異性清淨	-10.7336
惡不善法	-10.7337
悶	-10.7338
信忍	-10.7339
樂之與苦	-10.7339
若有能依如是等法修行	-10.734
我說名為行有所得相似	-10.734
當知皆是說有所得相似	-10.734
財寶	-10.7343
阿含	-10.7346
三賢	-10.7347
安忍波羅蜜多清淨	-10.735
雖未	-10.7357
瞋清淨	-10.7361
空三昧	-10.7364
捨離	-10.7365
一切法空清淨	-10.7365
之所以	-10.737
梵王	-10.7371
過去世	-10.7371
十善道	-10.7375
內外空清淨	-10.738
作者清淨	-10.738
紅	-10.7388
發意	-10.7389
金剛三昧	-10.7391
朗	-10.7392
刺	-10.7395
耶答	-10.7397
價	-10.7399
慚愧	-10.74
延	-10.74
薩云然	-10.7402
為眾生故	-10.7403
見已	-10.7411
能成就	-10.7412
法住清淨	-10.7417
金剛手	-10.7419
初果	-10.7419
知者清淨	-10.7419
或執	-10.742
甚奇	-10.7427
此方	-10.743
性不可得	-10.7445
我見人見眾生見壽者見	-10.7447
自覺	-10.7447
枯	-10.7448
此即初也	-10.7449
大喜清淨	-10.7452
勝義空清淨	-10.7456
若一切智智真如	-10.7456
尚不能	-10.7457
實際清淨	-10.7461
快樂	-10.7461
貪清淨	-10.7467
手足	-10.7469
於未來世	-10.7474
囑累	-10.7484
大心	-10.7486
梵音	-10.749
體相	-10.749
能如實知	-10.7495
二十二	-10.7495
五力清淨	-10.7495
今欲	-10.7495
佛事	-10.7508
六情	-10.7514
律儀	-10.7516
由此般若波羅蜜多	-10.752
本性空清淨	-10.7521
伹	-10.7521
苦厄	-10.7524
以有所得為方便	-10.7525
空不異色	-10.7526
修行布施	-10.7527
不虛	-10.7531
一生	-10.7537
積集	-10.7549
乃至知者	-10.7555
苦諦	-10.756
為行般若波羅蜜	-10.7561
不敢	-10.7562
鷲	-10.7563
三心	-10.757
牽	-10.7573
識無邊處	-10.7573
不虛妄性清淨	-10.7575
博	-10.7577
又言	-10.7579
作是念言	-10.7582
漸漸	-10.7587
非有想非無想處	-10.7593
即非莊嚴	-10.7593
問意	-10.7594
初總標	-10.7608
此義云何	-10.7614
般若波羅蜜經	-10.7618
則不能	-10.7619
不違	-10.7623
真如中有菩薩摩訶薩	-10.7625
於餘	-10.763
祗	-10.7633
性無知即是清淨	-10.7636
崇	-10.7636
皆一真如無二無別	-10.7637
菩薩乘善男子等	-10.7637
分別義趣令其易解	-10.7639
○)	-10.7639
帝釋天主	-10.764
內空乃至無法有法空	-10.764
覓	-10.764
十行	-10.7644
體用	-10.7648
觀自在菩薩	-10.7652
得益	-10.7654
金剛喻	-10.7663
有量	-10.7664
若能如是	-10.767
本體	-10.7674
第八地	-10.768
如佛所說	-10.7681
是法平等	-10.7686
鼓	-10.7694
後心	-10.7694
孝	-10.7695
苦海	-10.7698
若有菩薩	-10.7699
無染污故般若波羅蜜多清淨	-10.77
聚集	-10.7702
無願有願相	-10.7702
無相有相相	-10.7703
泥洹	-10.7703
般若波羅蜜多心經	-10.7716
頗有眾生	-10.7717
不及一	-10.7722
修諸	-10.7727
我想	-10.7736
斷絕	-10.7739
又諸菩薩如實了知所有	-10.7745
亦不住	-10.7745
荷	-10.7755
故經云	-10.7756
憑	-10.7759
非樂非苦	-10.776
之有	-10.776
如夢所見	-10.7761
噉	-10.7763
測量	-10.7763
著我	-10.7764
世尊告	-10.7764
金銀	-10.7765
隨逐	-10.7768
住菩薩乘諸善男子	-10.777
聞聲	-10.7782
是故須菩提	-10.7783
三際	-10.7783
意明	-10.7786
胎生	-10.7786
修行布施波羅蜜多	-10.7787
方便力故	-10.7797
由旬	-10.7797
徵釋	-10.7799
末世	-10.7801
一種	-10.7803
二門	-10.7808
修遣	-10.7808
□□□	-10.7809
見諸有情	-10.781
大故	-10.7812
應化	-10.7815
雖然	-10.7816
夜摩天	-10.7818
甚麼	-10.7818
住著	-10.7819
塗散等香	-10.782
遵	-10.7821
學人	-10.7823
集聖諦	-10.7823
現在諸佛	-10.7828
江	-10.7828
現在前	-10.7831
行布施波羅蜜多	-10.7836
能捨	-10.7844
即法身	-10.7844
照明	-10.7847
作用	-10.7849
。】「【	-10.7849
大道	-10.7852
救護	-10.7858
諸佛世界	-10.7859
舍衛	-10.7864
河沙	-10.7864
不起分別	-10.7865
一切智智清淨故法界	-10.7865
包	-10.7875
法喻	-10.7876
掌	-10.7877
透	-10.788
添	-10.7881
昭	-10.7881
泉	-10.7883
依世俗	-10.7883
預流果乃至獨覺菩提	-10.7883
今云	-10.7886
尋思	-10.7889
兩句	-10.7891
五戒	-10.7891
品第三十	-10.7892
真佛	-10.7893
俱舍	-10.7905
一合	-10.7906
莫不	-10.7907
菩薩摩訶薩不見	-10.7911
修布施波羅蜜多	-10.7912
著心	-10.7912
立名	-10.7913
法華經	-10.7918
勝天王	-10.7924
嚴飾	-10.7928
惡心	-10.7932
如影	-10.7932
述成	-10.7936
亦無邊	-10.7937
孰	-10.794
應無所住	-10.7943
眉	-10.7944
先說	-10.7945
分別諸法	-10.7946
臭	-10.7946
猶豫	-10.7951
長者女	-10.7952
洗足	-10.7953
道人	-10.7968
復作是念	-10.7971
威	-10.7972
彌陀	-10.7977
滅聖諦	-10.7982
日出	-10.7982
四正斷清淨	-10.7983
所著	-10.7984
之功	-10.7985
圓教	-10.7986
持是	-10.7987
百六十	-10.7988
是名世界	-10.7991
釋經中	-10.7991
諸弟子	-10.7993
斷諸	-10.8
伸	-10.8004
不取於相	-10.8005
谷	-10.8006
不相違	-10.8016
善男子善女人	-10.8016
退轉故名不退轉	-10.8018
能壞	-10.8018
發趣	-10.802
雖修	-10.8023
四蘊	-10.8024
有種種	-10.8027
已說	-10.803
理事	-10.8035
輪轉	-10.8036
最大	-10.8043
外空清淨	-10.8046
乃得	-10.8047
無物	-10.8054
相應之法	-10.8055
第四靜慮	-10.8058
來去	-10.8061
峰	-10.8062
永盡	-10.8068
非有為	-10.8069
刻	-10.8069
走	-10.8071
秋	-10.8073
況有趣非趣	-10.8073
紫	-10.8074
須臾	-10.8074
佛告天帝釋言	-10.8078
流布	-10.8082
超越	-10.8083
食時	-10.8086
諸趣	-10.8086
能如實	-10.8094
二十八	-10.8101
四無所畏清淨	-10.8105
所居	-10.811
蓮	-10.8111
欲證無上正等菩提	-10.8113
巳上	-10.8116
卷四百	-10.8117
澤	-10.8129
曠	-10.8134
法無所有不可得	-10.8135
曠野	-10.8135
云何降伏其心	-10.8139
掉	-10.8142
不住於相	-10.8143
皆大歡喜	-10.8148
不退轉地	-10.8152
滅時	-10.8156
邊際	-10.8156
護法	-10.8158
五道	-10.8166
後二句	-10.8175
九種	-10.8176
示世間	-10.8177
色聲香味觸法	-10.8184
親近供養	-10.8185
真如甚深	-10.8186
為實有	-10.8187
觀如來	-10.8189
釋疑	-10.8192
罪福	-10.8192
拂	-10.8196
以用布施	-10.8197
若合若散	-10.8199
無上正等正覺	-10.8199
速證	-10.8201
諸大眾	-10.8201
5	-10.8202
非淨非不淨	-10.8202
即見如來	-10.8206
十萬	-10.8207
名號	-10.8207
獨覺向獨覺果	-10.821
妙生	-10.8213
而知	-10.8226
三昧門	-10.8231
傍	-10.8232
觀門	-10.8234
婬欲	-10.8242
不減	-10.8252
與前	-10.8255
令生	-10.8255
大臣	-10.8258
無所執著	-10.826
阿耨多羅	-10.8263
割截	-10.827
本性清淨	-10.8271
如次	-10.8273
若爾者	-10.8273
千分不及一	-10.8273
但見	-10.8274
云何應於	-10.8274
求無上正等菩提	-10.8277
其事	-10.8277
盡智	-10.8278
應如是布施	-10.8278
作念	-10.8281
令離	-10.8285
由前	-10.829
分別開示	-10.8292
能信解	-10.8297
珍	-10.8304
天龍	-10.8305
佛法中	-10.8307
薄地	-10.831
不妨	-10.8321
無我法	-10.8324
片	-10.8326
下至	-10.8326
潛	-10.8329
理智	-10.833
戰	-10.8333
忉利天	-10.8333
能行深般若波羅蜜多	-10.8333
妻子	-10.8335
雷	-10.8336
不起作諸行若有若無故學	-10.8337
令諸有情	-10.8338
於此甚深般若波羅蜜多	-10.8338
上至	-10.8344
第三明	-10.8346
滿慈子言	-10.8346
無無明	-10.8347
熏習	-10.8348
得失	-10.8352
王子	-10.8353
不息	-10.8353
。】「○	-10.8363
獲得	-10.8368
聽法者	-10.837
妄執	-10.8377
無去亦復不住	-10.8384
▁初正	-10.8384
常在	-10.8388
學道	-10.8393
丹	-10.8395
信受奉行	-10.8395
溺	-10.8396
清淨故色清淨	-10.8397
珍奇	-10.8397
瘡	-10.8398
泣	-10.8398
此品	-10.84
得預流果	-10.8403
正等正覺	-10.8409
二十四	-10.841
十種力	-10.841
不生則非	-10.8415
梵天王	-10.8417
巧便	-10.8417
雖說	-10.8421
如尋香城	-10.8424
幻事	-10.8426
以一切智智相應作意	-10.8427
地位	-10.843
罣礙	-10.8435
八萬	-10.8436
莊嚴佛土者	-10.8441
假說	-10.8444
修治	-10.8447
大苦	-10.8448
終日	-10.8448
成阿耨多羅三耶三菩	-10.845
抑	-10.8456
生死涅槃	-10.8456
下劣	-10.8457
自巳	-10.8458
停	-10.8459
凡所有相	-10.8463
良以	-10.8464
覺支	-10.8464
嫉	-10.8465
獨覺等地	-10.8465
辰	-10.8466
閻浮	-10.8467
相對	-10.8467
夏	-10.8469
繒	-10.847
惡道	-10.8482
畢竟不可得故	-10.8483
三千大千國土	-10.8486
文字般若	-10.8491
諸菩薩摩訶薩應	-10.85
所顯	-10.85
斷常	-10.8505
何謂菩薩	-10.8509
無失	-10.8514
色等諸法	-10.8518
先世罪業	-10.8521
業障	-10.8521
維	-10.8524
結前	-10.8526
能護	-10.8529
諸法皆	-10.8531
迎	-10.8531
諸苦	-10.8532
羊	-10.8532
弊	-10.8533
舍利子復白佛言	-10.8534
宣示開演顯了	-10.8535
算數	-10.8535
積聚	-10.8535
以何義故	-10.8537
善能	-10.854
百千萬	-10.8542
其功德	-10.8542
斷煩惱	-10.8544
修行六種波羅蜜多	-10.8547
▁五	-10.8549
佛告阿難	-10.8553
勝定	-10.8554
廣略	-10.8559
何名	-10.8559
從此第二明	-10.8564
不能圓滿	-10.8564
異生地	-10.8567
已上	-10.8567
非有想非無想	-10.8583
更不	-10.8583
不去	-10.8585
佛號	-10.8586
圓融	-10.8592
非常非壞	-10.8592
幻有	-10.8598
聲聞或獨覺地	-10.8598
醜	-10.8599
商	-10.86
發趣大乘	-10.8602
悉檀	-10.8612
乃至十八佛不共法	-10.8616
將無	-10.8617
阿惟越致菩薩摩訶薩	-10.8624
不受福德	-10.8627
無減	-10.8627
聲聞人	-10.8629
義理	-10.8632
九品	-10.8632
無邊功德	-10.8633
無異分別	-10.8637
得成佛	-10.8639
你	-10.8654
內心	-10.8658
無所行	-10.8663
滋	-10.8664
發生	-10.8665
無覺知故	-10.8667
託	-10.8668
十方殑伽沙等諸佛世界	-10.8669
斷除	-10.8681
舍衛國	-10.8686
天眾	-10.8692
信心清淨	-10.8693
了了	-10.8695
於諸佛所	-10.8702
佛神力故	-10.8703
唯願	-10.8709
本願	-10.871
前明	-10.8711
常隨	-10.8712
剎土	-10.8713
奴	-10.8721
是虛妄	-10.8723
可解	-10.8725
中分二	-10.8726
有情界	-10.8728
集散	-10.8728
追	-10.8731
大菩提心	-10.8732
能證無上正等菩提	-10.8734
下句	-10.8734
晝	-10.8736
菩薩摩訶薩摩訶衍	-10.8736
震動	-10.8738
阿惟越致菩薩	-10.8741
亦不取	-10.8747
道相智清淨	-10.8749
深生	-10.875
修習一切智	-10.8759
承上	-10.876
當作佛	-10.8771
修習八解脫	-10.8774
愛敬	-10.8774
三諦	-10.8774
無量眾生	-10.8775
無情	-10.8777
故修行般若波羅蜜多	-10.8779
修習四念住	-10.8779
修習佛十力	-10.878
必須	-10.8782
無性為性	-10.8783
修習四靜慮	-10.8783
修習五眼	-10.8787
湛	-10.8789
得是三昧	-10.8792
精舍	-10.8796
奇	-10.8797
若善男子善女人	-10.8798
味著	-10.8799
從緣所生諸法	-10.8799
是有漏	-10.8801
素	-10.8801
暴	-10.8801
此三千大千世界	-10.8801
醫	-10.8804
所獲功德甚多於前	-10.8804
鑒	-10.8805
得聞是經	-10.8805
涌	-10.8809
身口意	-10.8812
伽陀	-10.8815
供具	-10.8817
趣入	-10.8817
忽然	-10.8818
修一切善法	-10.8826
名聲	-10.8832
所種善根	-10.8837
善女人等於此般若波羅蜜多	-10.8851
不應取著	-10.8859
氷	-10.8859
吉祥	-10.8863
悲智	-10.8864
塵界	-10.8865
均	-10.8865
度一切苦厄	-10.8865
灑	-10.8866
敗	-10.8868
所明	-10.8869
城邑	-10.8873
無有高下	-10.8873
飢渴	-10.8874
安住內空	-10.8877
出生死	-10.8879
小兒	-10.8884
聞經	-10.8885
)『	-10.8889
度人	-10.8891
而白佛言	-10.8894
功能	-10.8895
月光	-10.8901
修習一切陀羅尼門	-10.8907
相待	-10.8911
修習無忘失法	-10.8912
無礙解	-10.8913
得阿羅漢果	-10.8913
阿耨	-10.8917
染污	-10.8921
我得阿羅漢道	-10.8933
十年	-10.8933
皆無自性	-10.8935
舟	-10.8935
不滅則非	-10.8936
凝	-10.8936
剛	-10.8938
騰	-10.8938
睡	-10.8938
撰	-10.8941
安置	-10.895
天魔	-10.8953
修習菩薩摩訶薩行	-10.8956
常無常相	-10.8956
所求無上正等菩提	-10.8959
無際	-10.8963
坐臥	-10.8965
當來世	-10.8966
無上覺	-10.8968
變動	-10.8973
得其便	-10.8976
以智慧	-10.8979
利樂有情	-10.8983
窮盡	-10.8984
諸天人	-10.8986
利眾生	-10.899
眾生可度	-10.8994
塞	-10.8994
隨喜心	-10.8997
末後	-10.8998
灰	-10.9003
脚	-10.9003
震	-10.9006
無量諸佛	-10.9009
貢高	-10.9009
爛	-10.901
不苦不樂	-10.901
當得作佛	-10.9011
稟	-10.9012
奧	-10.9013
所攝受故	-10.9013
計我	-10.9017
貪等	-10.9018
說聽	-10.9022
前世	-10.903
如幻士	-10.9031
易解	-10.9037
修安忍波羅蜜多	-10.904
餘經	-10.9042
當云何	-10.9046
六地	-10.9051
下界	-10.9053
寫	-10.9056
無罪	-10.9057
一合相者	-10.9059
第一義中	-10.9063
劍	-10.9072
混	-10.9074
柔	-10.9076
充	-10.9076
若見諸相非相	-10.9077
梵眾天	-10.9078
案	-10.9078
超勝一切世間天	-10.9079
4	-10.908
踊	-10.9081
攀緣	-10.9083
重言	-10.9085
功德勝利	-10.9086
微笑	-10.9088
千倍	-10.9088
受持般若波羅蜜	-10.9091
妙理	-10.9093
無有一法	-10.9094
香華	-10.9094
希求	-10.9098
遠離一切	-10.9098
對曰	-10.91
欲樂	-10.9106
如來真如平等	-10.9117
畢竟不可得	-10.9121
龍王	-10.9135
五逆	-10.9137
撥	-10.9139
修淨戒波羅蜜多	-10.9143
受持此經	-10.9145
保	-10.9145
常自	-10.9146
因緣乃至增上緣	-10.9148
階	-10.915
買	-10.9152
務	-10.9154
在大眾中	-10.9155
修靜慮波羅蜜多	-10.9158
隨眠	-10.9162
顯勝	-10.9162
山王	-10.9164
我不欲令生	-10.9164
應如是學	-10.9165
厭離	-10.917
此翻	-10.9176
般涅槃後	-10.9179
於中有二	-10.9181
無執著	-10.9183
為希有	-10.9184
入聖	-10.9191
我乃至見者	-10.9202
無比	-10.9211
長老	-10.9212
恒正稱揚	-10.9214
本性無縛無脫	-10.9215
前際諸菩薩摩訶薩無所有不可得	-10.922
不能壞	-10.9223
唯假說故般若波羅蜜多清淨	-10.9223
杖	-10.9224
能通達	-10.9225
句義無所有不可得	-10.9226
▁次	-10.9226
娛樂	-10.9229
何以不	-10.9229
修諸菩薩摩訶薩行	-10.9229
麻	-10.9231
非真實	-10.9235
性空中	-10.9242
無限	-10.9243
真常	-10.9243
令他	-10.9244
勿取	-10.9252
第十一	-10.9253
全經	-10.9253
其文	-10.9256
而為說法	-10.9257
諸外道	-10.9263
當依	-10.9274
能說法者	-10.9275
聖凡	-10.928
亦不受	-10.9284
畢竟離故	-10.9285
嚕	-10.9285
故隨如來生	-10.9286
廓	-10.9288
於三界	-10.9291
送	-10.9296
菩薩句義亦復如是實無所有	-10.9297
變異	-10.9299
本淨	-10.93
黠	-10.9301
即是如來	-10.9301
稽首	-10.9302
當知此	-10.9305
解了	-10.9308
不當於中住	-10.932
三十六	-10.9321
彼何謂	-10.9329
十千	-10.9331
修精進波羅蜜多	-10.9334
四無量清淨	-10.9338
邪行	-10.9339
成立	-10.9344
假施設	-10.9344
能緣	-10.9348
隨其所	-10.935
百萬	-10.9359
從他	-10.936
躡	-10.936
散心	-10.9361
紛	-10.9361
六趣	-10.9362
善住	-10.9362
非如來法性中	-10.9363
囑	-10.9365
直至	-10.9368
。「『	-10.9371
業果	-10.9374
正使	-10.9379
於世	-10.9384
能治	-10.9386
常勤修學	-10.9386
真如故隨如來生	-10.9388
所可	-10.9388
修習無上正等菩提	-10.939
曇無竭	-10.94
次答	-10.9401
如是學者	-10.9406
在世	-10.9407
不應觀耳	-10.9412
不曾	-10.9418
亦不應	-10.9418
寂靜不寂靜相	-10.9421
百萬億	-10.9433
粗	-10.9434
本性爾故	-10.9434
亦不見有	-10.9435
領納	-10.9435
乘大乘者亦不	-10.9435
應作如是觀	-10.9436
馳	-10.9436
局	-10.9439
色究竟天	-10.944
若有為若無為	-10.944
般若乃至布施波羅蜜多	-10.9441
其福甚多	-10.9443
若有善男子善女人	-10.9446
下第二明	-10.9447
猶有	-10.9448
嚴土	-10.9448
是誰	-10.945
法爾	-10.9454
阿鞞	-10.9456
不應執著	-10.9459
一往	-10.946
二俱	-10.946
所有功德	-10.9466
初總	-10.9468
或依	-10.9469
其體	-10.9472
真如非相應非不相應	-10.9475
正理	-10.9482
八勝處清淨	-10.9491
能滿	-10.9493
無法有法空	-10.9497
聖果	-10.9497
▁○	-10.9498
指示	-10.9503
隨順般若波羅蜜多	-10.9504
空虛	-10.9505
非如來真如中	-10.9509
澄	-10.951
竊	-10.9511
綱	-10.9512
以要言之	-10.9512
覩史多天	-10.9513
安住般若波羅蜜多	-10.9513
競	-10.9514
宮殿	-10.9515
已盡	-10.9516
濫	-10.9517
踰繕那	-10.9518
令善通利	-10.9518
如來法身	-10.952
宣說如是甚深般若波羅蜜多	-10.9523
引攝	-10.9552
修習空解脫門	-10.9553
壽者見	-10.9562
則能圓滿	-10.9567
不許	-10.9567
令知	-10.9577
爾時須菩提白佛言	-10.9583
又何	-10.9584
戒蘊	-10.9587
如來常說	-10.9588
那由他	-10.9588
若有漏若無漏	-10.9588
煖	-10.9588
甚難	-10.9588
勤求	-10.959
得受記	-10.9591
優劣	-10.9594
了義	-10.9595
三千界	-10.9595
二十一	-10.9596
賀	-10.9596
三門	-10.96
何者是	-10.9607
彌勒菩薩	-10.9609
是輩	-10.9609
百二十	-10.961
根塵	-10.9611
念住	-10.9617
其餘	-10.9626
諸阿羅漢	-10.9627
諸佛土	-10.964
無所取	-10.9642
畜	-10.9642
顯示涅槃	-10.9642
法假	-10.9643
阿耨菩提	-10.9646
得須陀洹果	-10.9648
以三十二相觀如來	-10.9651
非作非不作	-10.9655
行住坐臥	-10.9657
甲	-10.9658
二依經斷疑	-10.9659
是為住習	-10.9661
錢	-10.9662
非寂靜非不寂靜	-10.9665
曜	-10.9665
未生	-10.9666
擾亂	-10.9667
故名如來	-10.9668
終不能	-10.9672
三千世界	-10.968
尊者須菩提	-10.9683
無邊際故	-10.9686
在內	-10.9687
隨機	-10.971
四門	-10.9711
甚深般若	-10.9723
真如是菩薩摩訶薩不	-10.973
動轉	-10.9733
斥	-10.9735
不行受	-10.9736
尸羅	-10.9737
能攝受	-10.9737
勇	-10.9739
能成辦一切智智	-10.9741
見此事已	-10.9743
名利	-10.9745
重罪	-10.9746
若菩薩摩訶薩修行般若波羅蜜多	-10.9747
今依	-10.9747
在外	-10.9749
有三昧名	-10.9755
長老須菩提	-10.9766
妙用	-10.9779
端正	-10.978
覺觀	-10.9781
長大	-10.9781
觀照般若	-10.9794
非不眾生	-10.9794
城中	-10.98
無倒稱揚	-10.9806
如來有肉眼	-10.9808
指疑起處	-10.9813
戀	-10.9814
偏袒右肩	-10.9814
悟解	-10.9814
至一切智智中住	-10.9815
非遠離非不遠離	-10.9816
應薩婆若心	-10.9816
今現在	-10.9821
依教	-10.9822
便作是念	-10.9825
勝妙	-10.983
相應作意	-10.9832
不恐	-10.9832
隨其所應	-10.9832
』(	-10.9834
二百	-10.9835
真如亦非相應非不相應	-10.9836
法性非相應非不相應	-10.9838
修行甚深般若波羅蜜多	-10.9841
既云	-10.9842
諸相具足	-10.9844
能引發	-10.9852
麁重	-10.9854
良由	-10.9858
別解	-10.9866
遠離不遠離相	-10.987
作集散	-10.9872
別教	-10.9872
果德	-10.9874
中如來法性可得	-10.9885
勝德	-10.9885
頑	-10.9885
旦	-10.9886
獻	-10.9886
龜	-10.9889
誨	-10.9889
給孤獨	-10.9892
四念處乃至八聖道分	-10.9893
怪	-10.9893
作集作散	-10.9894
名摩訶薩	-10.9894
作廣作狹	-10.9894
是菩薩摩訶薩由起此想	-10.9895
三禪	-10.9895
釋意云	-10.9897
不亂	-10.9901
度一切眾生	-10.9901
大智度論	-10.991
大千世界	-10.9911
修菩薩行	-10.9915
為諸菩薩說	-10.9915
五通	-10.9916
能證得	-10.9918
復何	-10.9921
我當云何	-10.9921
常應圓滿	-10.9923
見趣	-10.9924
二十九	-10.9929
知恩	-10.9929
淨不淨相	-10.9933
五度	-10.9939
吒	-10.994
惡人	-10.9947
無不皆	-10.9948
哀	-10.9966
轉妙法輪	-10.9967
耀	-10.9968
非有對非無對	-10.9969
非有見非無見	-10.997
鬪諍	-10.997
咸同一相	-10.997
恣	-10.9971
作大作小	-10.9971
臂	-10.9972
四大洲	-10.9972
若作大小	-10.9973
汝若作是念	-10.9973
功德施	-10.9974
甚多世尊	-10.9975
秤	-10.9976
不墮欲界	-10.9976
不作大小	-10.9977
格	-10.9977
賤	-10.9979
名中無	-10.9979
今何以	-10.9982
不為棄捨	-10.9982
法性亦非相應非不相應	-10.9983
能聽法者	-10.9984
曩	-10.9986
此句	-10.9989
能引	-10.9991
作是願言	-10.9996
饒益有情	-10.9997
百歲	-11
安立有情	-11.0002
道品	-11.0003
習氣相續	-11.0007
內身	-11.0019
何事	-11.0019
來世	-11.002
所獲	-11.0022
一切法真如	-11.0026
偈中	-11.0027
尤	-11.0037
把	-11.0039
而取無上正等菩提	-11.004
甚深般若波羅蜜多方便善巧	-11.004
如是迴向	-11.0041
己身	-11.0042
着	-11.0044
皇	-11.0046
實事	-11.0046
非有色非無色	-11.0047
解脫智見蘊	-11.0047
何緣故說	-11.005
輕慢	-11.0051
西域	-11.0051
枝葉	-11.0053
四念處乃至十八不共法	-11.0054
坐道場	-11.0054
當知是為魔事	-11.0055
略明	-11.0058
嚩日囉	-11.006
有法可	-11.0062
我無我相	-11.0063
理實	-11.0068
聲聞獨覺	-11.0073
火燒	-11.0082
長時	-11.0082
同前	-11.0083
佛乘	-11.0084
作廣狹	-11.0086
告之	-11.0089
深義	-11.0091
不作廣狹	-11.0092
厄	-11.0095
不作集散	-11.0095
大歡喜	-11.0101
自高	-11.0106
極微	-11.0112
▁第	-11.0114
讚佛	-11.0115
嘉	-11.0116
墮於	-11.0116
寸	-11.0119
李文會	-11.012
繩	-11.0123
觀菩薩句義無所有不可得亦	-11.0125
竪	-11.0126
酒	-11.0127
甚深故此法甚深	-11.0128
炬	-11.0128
法非法	-11.0129
般泥洹	-11.0135
遣此修	-11.0137
中無名	-11.0141
初發意	-11.0149
無諍三昧	-11.015
不異法界	-11.0156
離欲地	-11.0157
復白佛言	-11.0159
濕生	-11.0167
大城	-11.0171
若不攝受	-11.0171
慧蘊	-11.0177
兄弟	-11.0178
異處	-11.0181
彼諸菩薩	-11.0184
結集	-11.0189
因位	-11.0191
離垢	-11.0193
亂心	-11.0195
娑婆	-11.0196
津	-11.02
不應取法	-11.0202
童子	-11.0204
增減故學	-11.0213
如變化事	-11.0214
即從座起	-11.0224
大梵天	-11.0225
種姓地	-11.0226
惡知識	-11.0228
若有若無	-11.0243
濟拔	-11.0253
不假	-11.0258
為眾生說法	-11.0261
擾	-11.0271
奈	-11.0271
吼	-11.0274
渾	-11.0274
為二初	-11.0277
根性	-11.0278
併	-11.0278
千萬	-11.0278
各自	-11.028
疊	-11.0284
所住處	-11.0286
當知此處	-11.0294
佛寶	-11.0297
何須	-11.03
捺	-11.0304
施設言說	-11.0319
無虗	-11.0321
自度	-11.0322
此一段	-11.0325
寂滅忍	-11.0332
如來說法	-11.0334
福業	-11.0338
滅故學	-11.0344
之間	-11.035
熾盛	-11.0354
敬禮	-11.0356
照見五蘊皆空	-11.0356
換	-11.0358
卑	-11.0361
無住處	-11.0361
嫌	-11.0363
欺	-11.0364
得福甚多	-11.0364
一切皆非相應非不相應	-11.0366
長短	-11.0366
尊貴	-11.0366
如實觀察	-11.0367
盡故學	-11.0367
除遣	-11.0368
於佛無上正等菩提	-11.0369
眾德	-11.037
文句	-11.0378
果位	-11.0379
利物	-11.0379
淨佛世界	-11.0379
久遠	-11.0379
上中下	-11.0382
四天王天	-11.0385
義非義	-11.0385
解脫蘊	-11.0403
傅大士	-11.0405
從初發心乃至	-11.0406
不自在性	-11.0433
捉	-11.0433
▁初標	-11.0435
此間	-11.0436
洛	-11.0436
嬈	-11.0437
整	-11.0438
廣果天	-11.0439
倫	-11.0441
為他演說	-11.0442
謙	-11.0445
持經功德	-11.0446
作有力作無力	-11.0446
牒前	-11.0449
無差	-11.045
亦無性為性	-11.0452
能受持	-11.0452
聞慧	-11.0466
預流向	-11.047
法性清淨	-11.0482
不生法相	-11.0493
上句	-11.0499
故說為	-11.0502
准此	-11.0504
寶藏	-11.0512
四方	-11.0517
燭	-11.0521
花鬘	-11.0522
非當可得	-11.0523
空不壞	-11.0523
皆是虗妄	-11.0524
作有量作無量	-11.0527
難量	-11.0527
匝	-11.0528
憶想分別	-11.0533
最尊	-11.0535
是名說法	-11.0538
獲益	-11.054
以方便力	-11.055
善現復白佛言	-11.0551
行深般若波羅蜜多時	-11.0552
寶珠	-11.0553
欲令眾生	-11.0553
即非佛法	-11.0553
不還果清淨	-11.0557
供養般若波羅蜜	-11.0559
不壞空	-11.056
告言	-11.0563
通教	-11.0566
不當住	-11.0571
是名微塵	-11.0571
內外法	-11.0574
阿素洛	-11.0574
莊	-11.0577
滿月	-11.0582
不能攝受	-11.0583
此土	-11.0583
迷悟	-11.0589
跋	-11.0596
同事	-11.0597
不應住色生心	-11.0603
環	-11.0603
非現可得	-11.0604
是我是我所	-11.0608
銅	-11.0609
以方便力故	-11.0611
不作有力無力	-11.0611
若作有力無力	-11.0611
徵意云	-11.0613
賓	-11.0614
▁初釋	-11.0617
諸聖	-11.0617
想空為不二	-11.0618
幻色	-11.0623
勸持	-11.0623
大捨清淨	-11.063
頓悟	-11.0631
生天上	-11.0639
靜慮波羅蜜多清淨	-11.064
無相解脫門清淨	-11.065
解脫道	-11.0651
諸法真如	-11.0651
安立第一義	-11.0657
卵	-11.0657
諸天子言	-11.0657
本際	-11.0667
虛妄分別	-11.0669
善學	-11.0672
淨名云	-11.0679
作是願	-11.0682
若世間若出世間	-11.0687
復告	-11.0688
依般若波羅蜜多故	-11.0689
與名俱自性空故	-11.0689
虫	-11.069
為他廣說	-11.0691
殖	-11.0692
紹	-11.0693
復持如是	-11.0693
最尊最勝	-11.0697
何況空中有過去	-11.0697
集聖諦清淨	-11.07
普賢	-11.07
諸所有	-11.0702
離故學	-11.0702
生歡喜	-11.0704
當一一釋	-11.0705
無增減	-11.071
不雜	-11.0712
餘處	-11.0719
自下第二	-11.0736
世出世	-11.0739
菩薩摩訶薩大乘相	-11.074
皆共	-11.0747
謗毀	-11.0747
總攝	-11.0757
圭	-11.0758
以恒河沙等身布施	-11.0763
幸	-11.0763
品竟	-11.0763
清淨故身界清淨	-11.0764
饒	-11.0765
清淨故眼界清淨	-11.0765
鮮	-11.0767
想為二	-11.0767
清淨故舌界清淨	-11.0767
卷第十	-11.0768
靡	-11.0769
身命布施	-11.0773
率	-11.0773
六通	-11.0776
與一切有情同共迴向	-11.0777
寂滅相	-11.078
無去來	-11.078
牢固	-11.0782
熱惱	-11.0782
二十三	-11.0784
定蘊	-11.0787
隱沒	-11.0788
清淨故耳界清淨	-11.079
清淨故意界清淨	-11.0795
魔軍	-11.0795
清淨故無明清淨	-11.0805
三塗	-11.0816
作有量無量	-11.0818
不作有量無量	-11.0818
萬德	-11.0819
教導	-11.0822
心無罣礙	-11.0822
▁初明	-11.0822
以一切法皆	-11.0838
慕	-11.0844
應如是知	-11.0845
纖	-11.0846
峯	-11.0846
烏	-11.0847
一來果清淨	-11.0847
仗	-11.0848
耽	-11.0856
勝義諦中	-11.0856
東勝身洲	-11.0856
不能從三界中出	-11.0857
從一佛國至一佛國	-11.0858
幢	-11.0859
疾能證得一切智智	-11.0859
眠	-11.086
壽量	-11.086
不誑	-11.0863
十二部經	-11.0864
苦集滅道	-11.0866
花香	-11.0866
無數劫	-11.0867
釋迦牟尼	-11.0884
之一字	-11.0884
有二意	-11.0893
諸菩薩摩訶薩亦復如是	-11.0895
世間出世間	-11.0899
慈悲心	-11.0903
福德多	-11.0904
悉見是人	-11.0905
吽	-11.0905
清淨故色處清淨	-11.0906
佛陀	-11.0911
七等覺支清淨	-11.0913
清淨故鼻界清淨	-11.0916
實語者	-11.0917
清淨故眼處清淨	-11.0918
大慈悲	-11.0921
陽焰	-11.0922
劫數	-11.0924
不示現	-11.0925
五千	-11.0928
淨佛土	-11.0932
呈	-11.0933
應無所住而生其心	-11.0934
冠	-11.0936
斷三界	-11.0937
諸菩薩摩訶薩於如是	-11.0939
危	-11.0939
是為菩薩摩訶薩應遠離	-11.094
炷	-11.094
可取可著	-11.0941
八十種好	-11.0941
□□□□	-11.0943
遍計所執	-11.0946
清淨故外空	-11.0946
結成疑	-11.0948
文分為	-11.0951
具足六波羅蜜	-11.0951
濡首	-11.0955
翻譯	-11.0956
初標章	-11.0962
智母	-11.0962
若在內若在外若在兩間增語	-11.0963
梵云	-11.0965
我於爾時	-11.0973
各別	-11.0979
神變	-11.0989
萬劫	-11.0993
樂具	-11.0996
以無量門巧妙文義	-11.1001
清淨故地界清淨	-11.1013
如來有佛眼	-11.1013
則不信	-11.1014
層	-11.1018
難思	-11.1019
坑	-11.102
羯	-11.102
燃燈佛	-11.102
真如是謂無上正等菩提	-11.1022
無住無不住	-11.1023
為斷此疑	-11.1024
為眾生說	-11.1026
云何菩薩摩訶薩應遠離	-11.1026
於須菩提意云何	-11.1028
和尚	-11.1031
不可施設不可思議	-11.1033
無等等性	-11.1034
聖智	-11.104
養者	-11.1042
白衣	-11.1048
種種方便	-11.1051
宗旨	-11.1054
能伏	-11.1054
得阿耨菩提	-11.1063
往生	-11.1065
五百歲	-11.1065
見諦	-11.1069
不免	-11.1072
道諦	-11.1076
▁二釋	-11.1077
清淨故四正斷	-11.108
作是念已	-11.1083
淨戒波羅蜜多清淨	-11.1083
虛空無所有故	-11.1092
不離散	-11.1096
無與等	-11.1101
宗泐	-11.1102
出現世間能成辦事	-11.1104
武	-11.1106
九次第定清淨	-11.1107
譽	-11.1107
不觀一切智與	-11.1108
頂禮佛足	-11.1109
算	-11.1109
實信	-11.111
不貴	-11.1111
蟲	-11.1111
為最為勝	-11.1113
所治	-11.1113
放大光明	-11.1114
不惜身命	-11.1116
稱譽	-11.1118
七難	-11.1123
神呪	-11.1124
薩芸若慧	-11.1132
第三句	-11.1139
非大身	-11.1139
最妙	-11.1146
禮敬	-11.115
自性空清淨	-11.115
其猶	-11.1156
性無故	-11.1158
清淨故八勝處	-11.1159
歡喜讚歎修	-11.1168
呼須菩提曰	-11.1171
稱歎	-11.1173
現在世	-11.1176
無四相	-11.1183
不作大不作小	-11.1185
乃至算數譬喻所不能及	-11.1188
有限	-11.1189
變現	-11.119
夷	-11.1191
熾然	-11.1192
甘	-11.1192
全體	-11.1192
種種差別	-11.1193
八十隨形好	-11.1195
遍淨天	-11.1196
勵	-11.1199
腹	-11.1199
眾寶莊嚴	-11.1199
作加行	-11.12
聾	-11.1201
合掌恭敬	-11.1203
亦名麁重	-11.1206
不堪	-11.1208
不異本性空	-11.1208
持此善根	-11.1212
五塵	-11.1213
動搖	-11.1213
畢竟空清淨	-11.1219
不相屬	-11.1224
於此淨戒波羅蜜多	-11.1229
後際不可得	-11.1233
如實觀	-11.124
無作三昧	-11.1242
慈氏菩薩	-11.1254
百年	-11.1255
王位	-11.1262
第二句	-11.1263
請佛	-11.1269
下文云	-11.1275
清淨故四無所畏	-11.1275
吹	-11.1275
區	-11.1277
所在之處	-11.1281
斑足	-11.1281
法尚應捨	-11.1282
陵	-11.1284
名句文	-11.1284
貪瞋癡	-11.1284
無變異空清淨	-11.1284
綺	-11.1285
陸	-11.1288
牢	-11.1288
端嚴	-11.129
繫縛	-11.1292
若菩薩摩訶薩以應一切智智心	-11.1296
清淨故道相智	-11.1297
佛說非身	-11.1297
如是人等	-11.1298
大慈清淨	-11.1304
若菩薩摩訶薩如是學時	-11.131
易得	-11.1311
最極	-11.1314
寧有	-11.1318
止觀	-11.132
無違	-11.132
大空清淨	-11.1325
三惡趣	-11.1326
普令	-11.1329
四無礙解清淨	-11.133
神通力	-11.1332
假設	-11.1339
色無色界	-11.1344
巨	-11.1364
本性空不異	-11.1365
伺	-11.1366
愚人	-11.1367
實無眾生得滅度者	-11.1367
報化	-11.1368
忠	-11.1373
已辦地	-11.1374
八背捨	-11.1374
曼	-11.1374
猗	-11.1375
散空清淨	-11.1375
自性涅槃故學	-11.1375
策	-11.1377
七寶塔	-11.1379
妙吉祥	-11.1381
法定清淨	-11.1381
業報	-11.1387
分限	-11.1388
無生故學	-11.1392
乃至無法有法空	-11.1392
畢竟淨法	-11.1393
無性空清淨	-11.1393
不可得空清淨	-11.1396
精進波羅蜜多清淨	-11.1397
畢定	-11.1406
法華云	-11.1406
萬億	-11.1407
於是處	-11.1419
佛告舍利子	-11.1423
終不離	-11.1425
自相空清淨	-11.1436
第一義空	-11.1441
諸法皆空	-11.1441
何意	-11.1447
問何故	-11.1447
不可壞	-11.145
吠	-11.1456
漚	-11.1463
淨觀地	-11.1465
平等性清淨	-11.1466
本來寂靜故學	-11.1466
牙	-11.1468
十八不共諸佛之法	-11.1468
莖	-11.1468
深生信解	-11.1469
籌量	-11.147
共相空清淨	-11.1473
善付囑諸菩薩	-11.1477
得無障礙	-11.1482
有為空清淨	-11.1482
無際空清淨	-11.1482
所感	-11.1483
當知是為	-11.1484
第十二	-11.1485
復有三昧名曰	-11.1485
無為空清淨	-11.1486
墮惡道	-11.1488
頭陀	-11.1489
是修般若波羅蜜	-11.1493
降伏其心	-11.1501
八千	-11.1504
見者清淨即	-11.1506
嚴淨一切智	-11.1513
幡	-11.1515
無滅故學	-11.1515
閡	-11.1517
空空清淨	-11.1519
如光影	-11.152
作如是說	-11.1522
汝若能修如是般若	-11.1527
諸三昧門	-11.1544
若干種心	-11.1544
清淨故味界	-11.1546
薰	-11.1546
披	-11.1547
夢幻泡影	-11.1548
壇	-11.1549
不共法	-11.1549
無空過者	-11.1549
離生性清淨	-11.1549
北藏作	-11.1552
斬	-11.1553
小千界	-11.1553
當為汝說	-11.1555
正性離生	-11.1556
無眾生相	-11.1556
佛十力乃至十八佛不共法	-11.1557
亦能學	-11.1557
瓦	-11.1559
憂愁	-11.1559
證得所求無上正等菩提	-11.156
清淨故香界	-11.156
求聲聞	-11.156
即非眾生	-11.1564
若非自性即是精進波羅蜜多	-11.1566
四神足清淨	-11.1569
無所從生	-11.1571
清淨故聲界	-11.1573
化一切眾生	-11.1581
清淨故四無量	-11.1582
菩薩摩訶薩不為引發	-11.1583
學不增不減	-11.1585
真如亦不可得	-11.1601
菩薩摩訶薩如是行	-11.1602
常不離	-11.1606
菩薩摩訶薩亦無所有不可得	-11.1617
直下	-11.1622
托	-11.1633
如來有天眼	-11.1634
欠	-11.1636
啼	-11.1637
如來不以具足相故	-11.1638
反顯	-11.1639
才	-11.164
賢首	-11.1641
況觀一切智與	-11.1641
地水火風	-11.1641
健	-11.1645
由如是義	-11.1648
右繞	-11.1649
不可得故般若波羅蜜多清淨	-11.1651
安住內空乃至無性自性空	-11.1654
惡世	-11.1659
畢竟清淨	-11.166
得無上菩提	-11.1662
求趣無上正等菩提	-11.1663
干	-11.1664
一切智智即是	-11.167
相好身	-11.1671
清淨故觸界	-11.1675
新注	-11.1676
修學般若波羅蜜多	-11.1684
五趣	-11.1693
未免	-11.1693
華嚴云	-11.1697
佛知見	-11.1711
鎮	-11.173
盤	-11.1732
採	-11.1733
求阿耨多羅三藐三菩提	-11.1733
圍遶	-11.1734
淪	-11.1734
淚	-11.1736
尚畢竟無所有	-11.1736
哀愍	-11.1738
不染不淨故般若波羅蜜多清淨	-11.1738
達磨	-11.1739
散佛上	-11.1739
及餘無量無邊佛法	-11.174
憂惱	-11.1744
序分	-11.1749
空相應故	-11.1756
亦不思惟	-11.1759
摩賀	-11.1764
所致	-11.1769
傅大士頌	-11.177
勿於	-11.1772
乃至無性自性空	-11.1772
墮落	-11.1772
凡夫之人	-11.1774
雙照	-11.1775
總別	-11.1777
無有實	-11.1781
八百	-11.1784
修行般若波羅蜜多菩薩摩訶薩	-11.1786
導師	-11.1788
多百千	-11.1791
與空相應	-11.1797
第十地	-11.1797
三摩	-11.1802
於當來世	-11.1803
初正釋	-11.1805
不住生死	-11.1805
前二句	-11.1806
大海水	-11.1807
耨	-11.1815
如來有法眼	-11.1817
維摩	-11.1818
勿謂	-11.1821
惡慧	-11.1822
即非一切法	-11.1823
在在處處	-11.1823
是我清淨與	-11.1827
結勸	-11.1827
是有情清淨與	-11.1828
是大神呪	-11.1828
是知者清淨與	-11.1829
菩薩摩訶薩應引般若波羅蜜多	-11.183
是士夫清淨與	-11.183
彼非眾生	-11.1831
是命者清淨與	-11.1831
我昔	-11.1832
不可稱計	-11.1834
不可說故般若波羅蜜多清淨	-11.1835
大品云	-11.1835
亦無窮盡	-11.1837
於大眾中	-11.1838
狐疑	-11.1839
何況非法	-11.184
師子座	-11.1841
施主	-11.1845
從佛聞	-11.1847
不淨觀	-11.1857
一箇	-11.186
曳	-11.1868
十里	-11.1874
香花	-11.1876
往昔	-11.1876
天親論	-11.188
非菩薩摩訶薩中有	-11.1881
日光	-11.1906
智慧力	-11.1907
加持	-11.1907
伊	-11.1907
無處所	-11.1914
不生不滅故學	-11.1915
苑	-11.1915
焚	-11.1917
墜	-11.1918
英	-11.1919
歌利王	-11.1919
是補特伽羅清淨與	-11.192
是大明呪	-11.192
赴	-11.192
諮	-11.1921
量不可得	-11.1921
午	-11.1921
是養育者清淨與	-11.1921
是作者清淨與	-11.1922
由此緣故	-11.1922
是受者清淨與	-11.1923
是生者清淨與	-11.1923
妻	-11.1923
謗佛	-11.1924
卿	-11.1926
敷座而坐	-11.1926
若五根清淨	-11.1926
惟逮波羅蜜	-11.1927
範	-11.1927
三藐	-11.1928
稱揚	-11.1932
真如非菩薩摩訶薩	-11.1934
作者清淨即	-11.1936
開士大士	-11.1936
知者清淨即	-11.1937
受者清淨即	-11.1938
士夫清淨即	-11.1938
意生清淨即	-11.1939
命者清淨即	-11.1939
儒童清淨即	-11.1941
如陽焰	-11.1943
發大心	-11.1945
天人師	-11.1945
開士	-11.195
我清淨即	-11.1953
▁初總	-11.198
不住涅槃	-11.1982
永離	-11.1991
是名阿耨多羅三藐三菩提	-11.2001
先舉	-11.2001
比智	-11.2004
於後末世	-11.2005
樣	-11.2006
為人輕賤	-11.2006
無取無執	-11.2008
戶	-11.2009
所言菩薩摩訶薩者	-11.201
無障礙	-11.2011
皆從此經出	-11.2014
珊	-11.2014
具壽善現白言	-11.2016
甚深故般若波羅蜜多甚深	-11.2016
尺	-11.2016
隙	-11.2016
天台	-11.2018
是見者清淨與	-11.2018
扶	-11.2018
是儒童清淨與	-11.202
」】「	-11.2022
鬪	-11.2024
三脫門	-11.2027
出現於世	-11.2027
有情清淨即	-11.2028
千億	-11.2031
生者清淨即	-11.2034
龍樹	-11.2038
無有邊	-11.2044
至于	-11.2053
養育者清淨即	-11.2058
自性空中若	-11.2059
退屈	-11.206
至誠	-11.2076
下第四	-11.2084
亦應於	-11.2086
習種性	-11.2091
不堅實性能行般若波羅蜜多	-11.2099
如是沙等恒河	-11.2102
致問	-11.2104
灌	-11.2105
私	-11.2106
曇	-11.2106
為欲利樂諸有情故	-11.2108
是意生清淨與	-11.2112
不墮聲聞及獨覺地	-11.2112
發弘誓願	-11.2113
為上為無上	-11.2115
膝	-11.2116
綵	-11.2116
千二百五十人	-11.2116
於無上正等菩提得不退轉	-11.2117
即名諸佛	-11.2117
寒熱	-11.2119
初二句	-11.2122
阿難陀	-11.2122
補特伽羅清淨即	-11.2126
偈曰	-11.2128
無來去	-11.2128
云何當有	-11.2134
但有名字	-11.2134
我不應行	-11.2134
百劫	-11.2136
自致	-11.2137
正遍知	-11.2145
一切皆空	-11.2162
諸天眾	-11.2162
云何菩薩摩訶薩行深般若波羅蜜多時	-11.2168
如說行	-11.217
種類	-11.2174
宿住	-11.2175
成就阿耨多羅三藐三菩提	-11.2182
假令	-11.2184
祖師	-11.2184
但假名	-11.2191
阿闍梨	-11.2196
咄	-11.22
豁	-11.2201
完	-11.2204
蘊處界	-11.2204
左右	-11.2204
圍	-11.2209
暇	-11.221
為妙為微妙	-11.221
沙彌	-11.2211
汝當於此甚深般若波羅蜜多	-11.2211
非想非非想處定	-11.2212
暢	-11.2213
胸	-11.2213
供佛	-11.2214
支節	-11.2217
我當精勤	-11.2219
熾然精進	-11.2222
諸法實性	-11.2226
十迴向	-11.2227
豈不應於	-11.2231
所不能及	-11.2243
阿惟三佛	-11.2246
是菩薩摩訶薩安住	-11.2248
播	-11.2249
是則名為	-11.2253
群生	-11.2262
友	-11.2266
受決	-11.2275
如來於離	-11.228
堪忍	-11.2281
分別執著	-11.2282
搖	-11.2283
不作廣不作狹	-11.2292
不作集不作散	-11.2292
與解脫等	-11.2299
一一皆	-11.2301
若雜染若清淨	-11.2304
光影	-11.2304
蔑	-11.2305
入初靜慮	-11.2307
瑕	-11.2307
此是諦實	-11.2309
不貴重	-11.2309
黨	-11.231
則非過去未來現在	-11.231
聖諦	-11.231
次句	-11.2311
怯弱	-11.2312
敷座	-11.2314
問訊	-11.2314
常無常相不可得	-11.2317
隨喜迴向無上正等菩提	-11.2318
下賤	-11.2326
聞佛說	-11.2334
如來無所說	-11.2338
清淨故色界	-11.2343
般若波羅蜜經卷	-11.2344
尚不得	-11.2347
佛告舍利子言	-11.2347
諸大菩薩	-11.235
比丘僧	-11.2353
勸學	-11.2364
無染著	-11.2378
如來有慧眼	-11.2392
人相眾生相壽者相	-11.24
嗔恨	-11.2402
困	-11.2403
住是定意	-11.2403
趺	-11.2404
齒	-11.2404
獵	-11.2404
湯	-11.2407
逼迫	-11.2407
蔭	-11.2408
不來不去	-11.2411
婦	-11.2412
湏菩提	-11.2413
無數無量無邊	-11.2416
名唯客所攝	-11.2422
薩陀波倫菩薩	-11.2425
可施設	-11.2426
無功用	-11.243
摩羅	-11.2431
所被	-11.2433
直指	-11.2439
生如是心	-11.2439
善護念	-11.2469
化導	-11.2478
是名善法	-11.2484
鈴	-11.2487
佛說般若波羅蜜	-11.2489
吐	-11.2493
入不二無妄法數	-11.2501
彩	-11.2501
非法非非法	-11.2502
育	-11.2504
遲	-11.2504
自相皆空	-11.2504
不二則非	-11.2505
粟	-11.2506
既思惟已	-11.2508
油	-11.251
刀杖	-11.2515
羅什	-11.2517
默然	-11.2533
不能見如來	-11.2543
決定不退	-11.2547
恒河沙等世界	-11.2554
根熟	-11.2558
皆不可取	-11.2559
權實	-11.2576
係	-11.2586
非造非不造	-11.2592
輔	-11.2596
趣不可超越	-11.2598
是諸法空相	-11.2598
溪	-11.2599
乃至受持四句偈等	-11.2599
果報亦不可思議	-11.2599
隣	-11.2599
杜	-11.2599
翁	-11.26
正等覺依深般若波羅蜜多	-11.26
非一非異	-11.2602
賜	-11.2603
禍	-11.2603
三世平等	-11.2604
閱	-11.2604
若心有住	-11.2604
井	-11.2605
無壽者相	-11.2605
慇懃	-11.2607
安住真如乃至不思議界	-11.2607
以一切法自性空故	-11.2607
夜叉	-11.2607
俱胝分不及一	-11.261
羅剎	-11.2615
佛告釋提桓因	-11.2617
無上正真道	-11.2617
不堅實	-11.262
即諸法如義	-11.2622
慈氏菩薩摩訶薩	-11.2625
如來滅後	-11.2629
所作功德	-11.2642
諸佛國土	-11.2646
無閡	-11.2655
不應住此是	-11.2666
鄉	-11.269
奔	-11.2695
無智亦無得	-11.2695
喧	-11.2697
府	-11.2698
品類	-11.2699
王日休曰	-11.2699
圖	-11.27
我人等相	-11.2701
殷	-11.2701
其心不驚不恐不怖	-11.2702
營	-11.2703
不獲教授	-11.2706
甚深理趣	-11.2706
得阿耨多羅三耶三菩	-11.2708
反覆	-11.2712
燃燈	-11.2712
亦無非法相	-11.2713
亦入於	-11.2715
爾許	-11.272
兜率天	-11.272
等名皆	-11.2723
十號	-11.2731
過患	-11.2731
龍首	-11.2738
清淨故一來	-11.274
利鈍	-11.2752
照了	-11.2753
塵沙	-11.2757
性都不可得	-11.2791
若集若散	-11.2796
實際為有異不	-11.2797
即著我人眾生壽者	-11.2798
與如是法相應故	-11.2799
絲	-11.28
若畢竟不生則不名	-11.2801
四無所畏乃至一切相智	-11.2806
無餘依般涅槃界	-11.2806
施諸有情	-11.2806
睡眠	-11.2808
非空非不空	-11.2808
五取蘊	-11.2809
〈	-11.2813
〉	-11.2813
纂要	-11.2814
歸去來	-11.2817
好醜	-11.282
為大事	-11.2821
是假法	-11.2822
僧祇	-11.2822
徧計	-11.2826
殊勝善根	-11.283
堅利	-11.2837
色痛痒思想生死識	-11.2839
捨身命	-11.284
合為一	-11.2846
大乘無所有故	-11.2862
作佛事	-11.2867
答曰巳下	-11.2873
何等名為	-11.2879
引導	-11.2879
聰	-11.2887
踰	-11.2891
翼	-11.29
為發最上乘者說	-11.29
成佛道	-11.2904
皈	-11.2904
覽	-11.2905
領解	-11.2906
貞	-11.2907
諸法鈍故	-11.2908
見種種色	-11.2909
住大乘善男子等	-11.2911
阿素洛等供養恭敬	-11.2911
於中分三	-11.2913
脈	-11.2915
羼波羅蜜	-11.2916
調御	-11.2916
怨賊	-11.2919
阿毘曇	-11.292
目連	-11.2921
道種智	-11.2927
住不退轉地	-11.2933
當知般若波羅蜜亦	-11.2939
佛地論	-11.2944
不如是善男子	-11.2952
及諸弟子	-11.2953
於無上正等菩提有退屈不	-11.2962
不肯	-11.2968
云何菩薩摩訶薩修行般若波羅蜜多時	-11.2968
變化事	-11.2978
以神通力	-11.2983
生淨信	-11.2987
於一切時	-11.2997
周遍	-11.2998
不作有量不作無量	-11.2999
不作有力不作無力	-11.2999
摩尼寶	-11.3003
懺悔	-11.3004
擲	-11.3006
晉	-11.3006
捐	-11.3006
䟦	-11.3008
諂	-11.3008
梵輔天	-11.3008
伎	-11.3008
不應住聲香味觸法生心	-11.3008
當知大乘亦無所有	-11.3008
閉	-11.301
金剛手菩薩	-11.301
冤	-11.3011
真實不虗	-11.3012
穩	-11.3012
滅受想定	-11.3013
那庾多	-11.3016
摶取	-11.3016
孫	-11.3017
宛然	-11.3018
著衣持鉢	-11.302
賢劫	-11.3027
而不棄捨	-11.3028
不墮聲聞	-11.3033
常啼菩薩摩訶薩	-11.3034
無量阿僧祇劫	-11.3034
動靜	-11.3035
光讚	-11.3039
由此般若波羅蜜多清淨	-11.3042
世俗諦	-11.3061
本源	-11.3062
塵垢	-11.3067
無所倚	-11.3069
清淨故淨戒	-11.3071
昔日	-11.3075
推求	-11.308
無少法	-11.3083
彌勒云	-11.3085
畢竟淨	-11.3087
入初禪	-11.3089
相應善根	-11.3096
清淨故水	-11.3101
十方界	-11.3103
菩薩乘諸善男子	-11.3109
閒	-11.311
廣為人說	-11.311
罔	-11.3111
當知虛空亦無所有	-11.3113
與我授記	-11.3113
低	-11.3114
願樂欲聞	-11.3115
不應取非法	-11.3115
不應思惟	-11.3115
辛	-11.3116
空中過去	-11.3118
怨敵	-11.3118
剎帝利大族	-11.3118
謹	-11.3119
筆	-11.3119
毛孔	-11.3119
如來善護念諸菩薩	-11.312
周匝	-11.312
映	-11.312
信般若波羅蜜多時	-11.3121
敗壞	-11.3122
所以然者	-11.3123
有方便善巧故	-11.3126
空無邊處定	-11.3129
十八住	-11.3134
真空實相	-11.3146
居家	-11.315
最第一	-11.3157
隱顯	-11.3166
修行般若波羅蜜多諸菩薩摩訶薩	-11.3184
凡夫二乘	-11.3184
諸結使	-11.3208
顛	-11.3209
菩薩摩訶薩所行般若波羅蜜多亦無量	-11.3221
勘	-11.3222
函	-11.3223
云何有生	-11.3223
圓寂	-11.3224
訛	-11.3224
當知一切法亦無所	-11.3225
發無上菩提心	-11.3226
嫉妬	-11.3227
所起隨喜迴向	-11.3228
泰	-11.3228
胡	-11.3229
空無邊處	-11.323
金剛般若經	-11.3238
惡口	-11.3244
間斷	-11.3259
之謂也	-11.3266
惹	-11.3275
攝取眾生	-11.3276
」、「	-11.3277
西天	-11.3281
第四句	-11.3282
與他人	-11.3316
惑業	-11.3323
𦦨	-11.3323
劒	-11.3325
不異語者	-11.3325
俾	-11.3325
坦	-11.3326
栴檀	-11.3327
得成於忍	-11.3327
霜	-11.3328
六度萬行	-11.3328
〕	-11.3328
色蘊乃至識蘊	-11.3329
薩婆訶	-11.3329
是無上呪	-11.3329
樂變化天	-11.333
詐	-11.3331
肅	-11.3332
搏	-11.3332
製	-11.3332
曹	-11.3333
清淨故受	-11.3333
四意止	-11.3334
淨居天	-11.3335
雜穢	-11.3335
慳悋	-11.3335
是菩薩摩訶薩行深般若波羅蜜多	-11.3339
增長所種善根	-11.3344
六十二見	-11.3345
能信受	-11.3346
聞深般若波羅蜜	-11.3346
若菩薩摩訶薩如實了知	-11.3358
由無所有不可得故	-11.3367
兄	-11.3379
度脫眾生	-11.339
巳竟	-11.3393
命根	-11.3403
法於無上正等菩提有退屈不	-11.3409
於諸法無所	-11.3411
復置	-11.3413
拜	-11.3422
流通分	-11.3426
淵	-11.3429
甲冑	-11.343
牟尼	-11.3435
束	-11.3436
汝今諦聽	-11.3437
極光淨天	-11.3438
常不捨離	-11.3439
奉詔譯	-11.3443
回向	-11.3443
菩薩乘補特伽羅	-11.3444
鳴	-11.3444
能除一切苦	-11.3444
為尊為導	-11.3444
〕-【	-11.3444
還至本處	-11.3445
文二初	-11.3447
與幻有異不	-11.3449
飽	-11.345
有何差別	-11.3451
聽許	-11.3451
斷想不	-11.3452
主宰	-11.3452
聰明	-11.3454
高座	-11.3456
派	-11.3459
▁初引	-11.346
亦不作廣不作狹	-11.3469
亦不作集不作散	-11.3469
亦不作大不作小	-11.3471
清淨故集	-11.3487
幢相	-11.3488
百由旬	-11.3497
何曾	-11.3529
聞是深般若波羅蜜	-11.3534
十億	-11.3541
探	-11.3542
克	-11.3543
亦不見空與	-11.3543
汝於來世	-11.3544
若諸菩薩能如是行	-11.3545
應云何住	-11.3545
庸	-11.3546
誘	-11.3546
封	-11.3546
大乘與虛空等	-11.3547
滿三千大千世界七寶	-11.3547
式	-11.3547
朋	-11.3548
朽	-11.3549
芥子	-11.3549
不相捨離	-11.3549
是無等等呪	-11.355
慈恩	-11.355
涕	-11.355
如來說非眾生	-11.3551
而說偈言	-11.3552
為尊為高	-11.3553
以此為實	-11.3554
後得智	-11.3555
無相為方便	-11.3555
四分別辯	-11.3556
甫	-11.3557
舍利弗問須菩提	-11.356
大千界	-11.3561
不可得故說不可得	-11.3563
知一切法無我	-11.3567
現等覺	-11.357
行深般若波羅蜜多方便善巧	-11.3574
新發意菩薩	-11.3582
少許	-11.3583
不懈	-11.3604
薩哩嚩	-11.3606
敬重	-11.3617
著衣	-11.3626
是學一切智智	-11.3626
散花	-11.3638
當知般若波羅蜜多亦無邊	-11.3639
舞	-11.3643
裂	-11.3651
閣	-11.3653
醒	-11.3656
慎	-11.3657
萌	-11.3658
括	-11.3659
尋伺	-11.366
敵	-11.366
當知是為不退轉菩薩摩訶薩	-11.3661
京	-11.3662
呪術	-11.3663
隣近	-11.3664
佛告文殊師利	-11.3668
四如意足	-11.3672
知是不退轉菩薩摩訶薩	-11.3673
憎愛	-11.3679
護佛果	-11.3699
坐禪	-11.3699
告之曰	-11.3742
唯客所攝	-11.3743
涕淚悲泣	-11.3764
奘	-11.3764
而於中學	-11.3767
冀	-11.3768
而無二想	-11.377
彈	-11.3771
若取法相	-11.3772
若善若非善	-11.3772
若菩薩摩訶薩成就如是諸行	-11.3773
居士大族	-11.3774
具見地	-11.3774
大地獄中	-11.3775
兔	-11.3775
不久當	-11.3778
促	-11.378
禽獸	-11.3782
鄣	-11.3783
憂苦	-11.3797
亦不作有力不作無力	-11.3802
恩德	-11.3805
亦勸他修	-11.3806
流轉生死	-11.3811
三千大千世界諸有情類	-11.3823
聞正法	-11.3844
不可取不可說	-11.3851
佉	-11.3863
團	-11.3874
都無和合自性	-11.3877
如實了知當於中學	-11.3881
洪	-11.3881
得福多	-11.3881
秘密	-11.3882
奏	-11.3883
匿王	-11.3883
說諸法斷滅	-11.3883
如所有性	-11.3884
少光天	-11.3884
新學大乘	-11.3884
六百卷	-11.3885
當來之世	-11.3885
隋	-11.3885
魏譯	-11.3888
乘於大乘	-11.3889
繞	-11.3889
非有相非無相	-11.389
阿羅訶	-11.3892
付屬	-11.3892
即非具足色身	-11.3893
如語者	-11.3897
五百年	-11.39
不在兩間	-11.3901
五百世	-11.3909
恒作是念	-11.3917
章門	-11.3939
近無上正等菩提	-11.3943
萬里	-11.3945
如是等種種因緣	-11.3965
摩訶般若波羅蜜經	-11.3975
江河	-11.3987
汝觀何義言	-11.3991
詔	-11.3995
逈	-11.3996
應知不應著	-11.3997
決擇	-11.3997
楚	-11.3999
繼	-11.4001
篇	-11.4001
域	-11.4001
我乃至見者無所有故	-11.4001
飄	-11.4002
無實體	-11.4003
修行般若波羅蜜多速得圓滿	-11.4004
汎	-11.4004
五蘊皆空	-11.4004
灾	-11.4005
自利利他	-11.4005
莂	-11.4006
跪	-11.4008
我作佛時	-11.4009
風吹	-11.401
千年	-11.4011
清淨故無相	-11.4017
諸菩薩摩訶薩如實了知	-11.4017
苾芻當知	-11.402
暫捨	-11.403
災難	-11.4035
雜毒	-11.4037
離一切諸相	-11.4044
馱	-11.4051
阿惟越致地	-11.4054
深奧	-11.4098
隅	-11.4108
於法實無所得	-11.411
川禪師曰	-11.4111
大悲為上首	-11.4112
古德云	-11.4112
輝	-11.4114
鴿	-11.4115
登彼岸	-11.4115
普能容受無量無數無邊有情	-11.4116
屋	-11.4117
前後際斷	-11.4119
應化非真	-11.4119
如佛塔廟	-11.412
7	-11.412
燋	-11.412
到岸	-11.412
隆	-11.4121
親友	-11.4121
無厭倦	-11.4122
即非身相	-11.4124
狼	-11.4126
十二緣起	-11.4129
遠離不遠離相不可得	-11.4132
無有恐怖	-11.4132
止息	-11.4133
澤香	-11.4139
大智度論釋	-11.4144
亦不作有量不作無量	-11.4148
增進	-11.4153
不及持經	-11.4165
場	-11.4173
觸為緣所生	-11.4221
宛	-11.4222
晚	-11.4223
秪	-11.4227
是人行邪道	-11.423
歟	-11.423
欲為有情宣說開示	-11.423
涯	-11.4231
浴	-11.4232
非趣非不趣	-11.4232
紺	-11.4232
若以色見我	-11.4235
戴	-11.4236
祇陀	-11.4236
1	-11.4236
羼	-11.4236
綱要	-11.4238
翅	-11.4239
世出世間	-11.4239
聞思修	-11.4239
平等性尚不可得	-11.424
鑑	-11.424
不超一切世間天	-11.424
乞士	-11.4241
尊重讚歎諸佛世尊	-11.4241
僕	-11.4241
衢	-11.4242
狗	-11.4242
收衣鉢	-11.4242
最上最妙	-11.4243
電光	-11.4244
婬怒癡	-11.4245
=	-11.4246
聞說是經	-11.4249
欲界繫	-11.4257
勸導	-11.4258
以是名字	-11.426
菩薩摩訶薩遠離般若波羅蜜多	-11.4263
加害	-11.4265
成阿惟三佛	-11.4267
若念有	-11.427
憐愍眾生	-11.427
聲聞緣覺	-11.4311
娜	-11.4333
轉故名不退轉	-11.4338
蹉	-11.4345
針	-11.4346
荊	-11.4347
阿僧祗	-11.4347
旃	-11.4349
觀世音	-11.435
乾坤	-11.4352
碎為微塵	-11.4352
少淨天	-11.4352
無熱天	-11.4352
緩	-11.4353
踊躍	-11.4353
亦無無明盡	-11.4354
慰	-11.4355
升	-11.4355
亦無老死盡	-11.4356
所獲福聚甚多於前	-11.436
毀呰	-11.4362
當生如是心	-11.4362
舍婆提	-11.4363
是名第一波羅蜜	-11.4363
疲乏	-11.4364
七覺分	-11.4367
宿世	-11.4369
云何為人演說	-11.4373
無有邊際	-11.4373
夢幻	-11.438
珍財	-11.4383
謨	-11.4413
常樂我淨	-11.4419
護念付囑	-11.4457
俱行之心	-11.4462
樞	-11.4464
旬	-11.4466
蘭	-11.4467
驅	-11.4469
皆為非心	-11.4469
弄	-11.447
能示世間諸法實相	-11.4471
若時若時	-11.4472
初標章敘疑	-11.4473
無量淨天	-11.4473
無量光天	-11.4473
市	-11.4474
此大乘是尊是	-11.4474
纂	-11.4475
虧	-11.4475
耆	-11.4476
乃至無老死	-11.4477
為可得不	-11.4478
皆是般若波羅蜜多所流出故	-11.4478
祐	-11.4479
十方各如殑伽沙等世界	-11.4482
舍利弗語須菩提	-11.4483
婆伽婆	-11.4484
長養	-11.4485
佛滅度後	-11.4486
善哉善哉	-11.4497
融通	-11.4504
應墮惡道	-11.4515
令我國土	-11.455
慈愍	-11.4558
增彼對治	-11.4586
我念過去	-11.4589
亦不施設為	-11.459
如來說名真是菩薩	-11.4591
景	-11.4593
綿	-11.4594
慈悲喜捨	-11.4594
若有罪若無罪	-11.4596
大悲為首	-11.4597
舍宅	-11.4597
闊	-11.4599
墨	-11.4599
祕	-11.4599
三十七菩提分法	-11.4599
柱	-11.46
腦	-11.46
頂禮雙足	-11.46
糞	-11.4601
隨所生處	-11.4602
囊	-11.4602
臆	-11.4603
稻	-11.4604
莫作是說	-11.4604
身住循身觀	-11.4604
苾芻尼	-11.4605
侶	-11.4606
波羅密	-11.4607
不樂觀察論說	-11.4607
▁第二百	-11.4612
速疾	-11.4612
淨不淨相不可得	-11.4612
遍覆	-11.4627
不寂靜增語是菩薩摩訶薩	-11.4629
逮覺	-11.4634
氣力	-11.4665
一切智智相應作意	-11.4683
文有三	-11.4694
絕待	-11.4706
千萬億	-11.471
文有二	-11.4715
班足	-11.4715
汝當奉持	-11.4716
皎	-11.4716
身如須彌山王	-11.4716
皆以無為法而有差別	-11.4716
若來若去	-11.4717
無成無壞	-11.4718
不驚不怖不畏	-11.4718
如人有目	-11.4718
陳雄	-11.472
際菩薩摩訶薩有異	-11.4722
軀	-11.4722
遶	-11.4723
應生無所住心	-11.4723
餘皆愚妄	-11.4726
善非善	-11.4727
疾得圓滿	-11.4727
千萬億分	-11.4727
順逆	-11.4729
於十方三世無所從來	-11.4729
無所至去亦無所住	-11.4729
化樂天	-11.4729
阿羅呵	-11.473
不可攝受故	-11.473
供給	-11.4732
令勤修學	-11.4732
於諸等持	-11.4735
寂靜不寂靜相不可得	-11.4735
我無我相不可得	-11.4736
挍量	-11.4736
或令安住	-11.4739
任持	-11.4742
流支	-11.4758
持是功德	-11.4758
魏本	-11.4759
菩提資糧	-11.4816
此般若波羅蜜多法門	-11.482
這箇	-11.4834
凌	-11.4836
排	-11.4836
傾	-11.4838
忻	-11.4839
曉了	-11.4839
壯	-11.4839
爐	-11.484
於法不說斷滅相	-11.484
忙	-11.4841
斫	-11.4842
覔	-11.4842
譬如人身長大	-11.4843
非過去非未來非現在	-11.4843
阿脩羅	-11.4844
初隨章敘疑	-11.4844
研	-11.4845
殃	-11.4845
窟	-11.4845
作漸次業	-11.4845
若屬生死若屬涅槃	-11.4846
行漸次行	-11.4846
天帝釋復白佛言	-11.4846
檢	-11.4849
法涌菩薩	-11.4849
若菩薩作是言	-11.485
方盡殑伽沙等世界	-11.485
殑伽沙數大劫	-11.4854
非合非離但假施	-11.4855
休息	-11.4856
一生補處	-11.4858
逆順	-11.4859
忿怒	-11.4861
靈山	-11.4866
皆應供養	-11.4888
□□□□□□□	-11.4895
名為於界善巧	-11.4961
羯磨	-11.4962
線	-11.4963
楞嚴云	-11.4966
是趣不過	-11.4967
筌	-11.4969
橋	-11.4971
是真無漏不墮三界	-11.4972
鉤	-11.4972
編	-11.4972
善見天	-11.4973
矯	-11.4973
盈	-11.4973
比邱	-11.4976
凶	-11.4979
第十八	-11.498
而於其中不	-11.4982
名俱無所有不可得故	-11.4982
色界繫	-11.4988
心與語	-11.4991
瑜伽論	-11.4998
猶如虛空	-11.5023
下半偈	-11.5024
是人以是因緣	-11.5026
七賢	-11.5031
疑悔	-11.5036
威神力	-11.5044
如實知彼諸有情類	-11.5091
四維上下	-11.5092
真如有菩薩摩訶薩不	-11.5093
話	-11.5093
纖毫	-11.5094
怙	-11.5095
若染若淨	-11.5096
日光明照	-11.5096
應如是生清淨心	-11.5097
縣	-11.5097
雅	-11.5098
恭	-11.5098
阿練若	-11.5098
若心取相	-11.5099
若有煩惱若無煩惱	-11.51
振	-11.51
貪嗔	-11.51
無厭足	-11.51
修漸次學	-11.5101
婆羅門大族	-11.5102
縱橫	-11.5102
鳩摩羅什	-11.5103
學菩提道	-11.5103
離生喜樂	-11.5104
傾動	-11.5104
般若波羅蜜多甚深義趣	-11.5104
三摩提	-11.5105
菩薩摩訶薩得阿耨多羅三藐三菩提時	-11.5105
非有非空	-11.5107
爪	-11.5109
資財	-11.5115
題目	-11.5118
遷流	-11.5141
哆	-11.5149
最為第一	-11.5156
有所得為方便	-11.5185
如虛空無盡	-11.5198
從座起	-11.5199
喫	-11.5224
奚	-11.5225
未來心不可得	-11.5225
不足為難	-11.5227
一切法皆是佛法	-11.5228
苗	-11.5228
希望	-11.5229
貪嗔癡	-11.523
狂亂	-11.5231
無上正等菩提不退轉記	-11.5231
妙高山	-11.5232
阿須倫	-11.5233
諸相非相	-11.5234
飯食訖	-11.5235
可於中學	-11.5236
不驚不怖	-11.5237
過去當來今現在	-11.5238
不可攝受則非	-11.5239
是名具足色身	-11.524
半偈	-11.5242
若菩薩摩訶薩修遣	-11.5246
當一一說	-11.5252
隨佛生	-11.5269
如來悉知悉見	-11.527
菩薩摩訶薩安住布施波羅蜜多	-11.5282
阿耨多羅三耶三菩阿惟三佛	-11.5299
無量無邊阿僧祇	-11.5302
不為引發	-11.5327
東西	-11.5338
賴	-11.5341
漂	-11.5355
饑	-11.5356
堪受一切世間	-11.5356
用無所得而為方便	-11.5356
程	-11.5357
教授教誡	-11.5358
刊	-11.5359
規	-11.5359
如來是真語者	-11.536
疾疫	-11.536
占	-11.5362
西牛貨洲	-11.5363
弓	-11.5363
調和	-11.5364
七覺意	-11.5364
青黃赤白	-11.5364
究竟通利	-11.5364
木石	-11.5365
無等無等等	-11.5366
一念淨信	-11.5366
僧那僧涅	-11.5368
債	-11.537
罵詈	-11.537
讚嘆	-11.5375
本性皆空	-11.5377
恒河沙數	-11.5383
使作者	-11.5386
是不生法	-11.5392
悲愍	-11.547
警	-11.5485
做	-11.5487
寤	-11.5488
過去心不可得	-11.5489
役	-11.549
若取若捨	-11.549
南西北方四維上下	-11.5492
餓	-11.5492
淳	-11.5492
愧	-11.5493
榮	-11.5493
宰	-11.5495
泛	-11.5496
輕蔑	-11.5497
]	-11.5498
心不沈沒	-11.5498
都無實事	-11.5499
善女人等教贍部洲	-11.55
迴向趣求一切智智	-11.55
華嚴經云	-11.5501
是名諸相具足	-11.5502
憙	-11.5502
徐	-11.5505
阿毘跋致	-11.5506
損害	-11.5508
相應經典	-11.5509
飯食	-11.5517
䭾	-11.5601
滴	-11.5622
信心不逆	-11.5623
甚可愛樂	-11.5625
金剛杵	-11.5626
一切世間天人阿修羅	-11.5626
調柔	-11.5627
長壽天	-11.5628
以虛空為所趣	-11.5628
是為多不	-11.5629
以有所得而為方便	-11.5629
十方各如殑伽沙界	-11.5629
却住一面	-11.5629
䟽	-11.563
祥	-11.563
能為難事	-11.563
隨喜俱行諸福業事	-11.5631
廟	-11.5631
而得生故	-11.5632
巍巍	-11.5632
富樓那	-11.5633
房舍	-11.5635
非有願非無願	-11.5636
充足	-11.5637
摩尼珠	-11.564
是實相者	-11.564
置贍部洲	-11.5641
雪山	-11.5658
西北	-11.5702
清淨故一切相智清淨	-11.5743
非甚深非微細	-11.5756
僅	-11.5759
嚮	-11.5761
深解義趣	-11.5762
護十地行	-11.5763
掩	-11.5764
断	-11.5764
可思量不	-11.5764
即為謗佛	-11.5765
無得無捨	-11.5766
惶	-11.5767
盡其形壽	-11.5768
此人以是因緣	-11.5768
長者大族	-11.5768
般若波羅蜜多祕密藏中	-11.5769
聲聞及獨覺地	-11.5769
於其城中	-11.5769
藝	-11.577
入無二法數	-11.577
如夢乃至如化	-11.577
舒	-11.5771
由是菩薩摩訶薩故	-11.5771
科判	-11.5773
痛想行識	-11.5773
性自爾	-11.5774
刊定記	-11.5775
不二不別	-11.5775
解脫智見	-11.5775
速能圓滿	-11.5775
弊魔	-11.5783
瞋忿	-11.5784
不為攝取	-11.5786
彌勒菩薩偈	-11.5816
老病死	-11.5837
黃金	-11.5845
恁麼	-11.5894
東南	-11.59
兔角	-11.59
寡	-11.5902
無繁天	-11.5902
結跏趺坐	-11.5902
雄	-11.5902
以音聲求我	-11.5904
奢摩他	-11.5904
貧賤	-11.5904
是故名一切法	-11.5904
在內在外在兩間	-11.5905
鳩	-11.5906
汙	-11.5907
毘奈耶	-11.5907
耆闍崛山	-11.5907
沈沒	-11.5907
創	-11.5908
與虛空等	-11.5908
南北	-11.5909
有菩薩摩訶薩具修六種波羅蜜	-11.5909
拒	-11.5909
螺	-11.591
我緣此意	-11.591
是菩薩摩訶薩由此六種波羅蜜多	-11.591
兢	-11.591
賴耶	-11.591
是菩薩不能證	-11.5911
筋	-11.5911
無聞無見	-11.5911
成就如是方便善巧	-11.5912
髻	-11.5912
為父為母	-11.5912
間雜	-11.5912
以三乘法	-11.5913
四正勤	-11.5913
菩薩摩訶薩所行般若波羅蜜多亦無邊	-11.5914
勒	-11.5915
利益安樂一切有情	-11.5915
豪	-11.5918
色乃至法	-11.5939
頂禮	-11.5991
亘	-11.6033
瞿	-11.6036
趙	-11.6037
狐疑不信	-11.6039
鋒	-11.6039
如恒河中所有沙數	-11.6039
邑	-11.604
不可以身相得見如來	-11.6041
若坐若臥	-11.6041
陋	-11.6043
偶	-11.6043
十方無邊世界	-11.6044
涼	-11.6044
席	-11.6046
無去無來	-11.6046
秦譯	-11.6046
有欲令無相之法有出住者	-11.6046
何緣而說我清淨故	-11.6047
昌	-11.6047
即為有佛	-11.6048
療	-11.6048
鄙	-11.6048
空寂清淨句義是菩薩句義	-11.6049
分別有相無相	-11.6049
不以有相無相分別	-11.6049
不以滅不滅分別	-11.6049
不以生不生分別	-11.6049
分別生不生	-11.6049
分別滅不滅	-11.6049
不以寂靜不寂靜分別	-11.6049
不以空不空分別	-11.605
不以遠離不遠離分別	-11.605
我相即是非相	-11.6051
秋露子	-11.6051
樂苦相不可得	-11.6051
空不空相不可得	-11.6052
憂悔	-11.6053
姚	-11.6054
菩薩摩訶薩行六波羅蜜時	-11.6057
沮	-11.6057
冬	-11.606
如來所說身相	-11.6066
法上菩薩摩訶薩	-11.6076
耳鼻舌身意	-11.612
深細性	-11.6178
子真說	-11.618
成就第一希有功德	-11.6181
若動若住不可得故	-11.6183
蘆	-11.6184
起信論	-11.6185
考	-11.6186
空中無趣	-11.6186
以恒河沙等身命布施	-11.6187
怕	-11.6187
梵會天	-11.6187
趨	-11.6187
作忍辱仙人	-11.6187
駕	-11.6188
藍	-11.6189
塔廟	-11.6189
及壞滅者	-11.6189
亦不見有能攝受	-11.619
慚	-11.619
東北方	-11.619
不離一切智智心	-11.6191
是可攝受	-11.6191
不以有願無願分別	-11.6191
佛種不斷	-11.6193
無所顧戀	-11.6193
非想非非想處天	-11.6194
是名與般若波羅蜜相應	-11.6194
給侍	-11.6197
如幻如化	-11.6197
分別有願無願	-11.6198
無作解脫門	-11.6199
耗	-11.62
星宿	-11.6202
羸	-11.6205
是已生法	-11.6206
殺害	-11.6212
不依勝義	-11.6304
游	-11.6324
東西南北	-11.6324
嬰	-11.6325
踏	-11.633
秘	-11.633
所有一切眾生之類	-11.633
所謂佛法者	-11.6331
遠離顛倒夢想	-11.6331
辟	-11.6333
小千世界	-11.6335
以身布施	-11.6336
有尋有伺	-11.6336
有願無願	-11.6337
產	-11.6338
匠	-11.6338
政	-11.634
為師為導	-11.6341
隨法行	-11.6341
如意珠	-11.6341
資粮	-11.6342
不染不淨	-11.6343
若由此真如施設	-11.6343
𠰥	-11.6343
為過去未來現在諸佛護念	-11.6344
威光	-11.6347
聲香味觸法	-11.6353
為魔所	-11.6381
瞻禮	-11.6394
菩薩摩訶薩名亦復如是	-11.6395
肯	-11.6396
哥	-11.6401
枳	-11.6426
葛	-11.6463
可信行者	-11.647
伐	-11.6471
陷	-11.6472
世間純空相	-11.6472
浩	-11.6473
有生有滅	-11.6473
我當滅度無量眾生	-11.6473
房	-11.6475
若取非法相	-11.6476
世間寂靜相	-11.6478
世間遠離相	-11.6479
可以身相見如來不	-11.6479
少廣天	-11.6479
無量廣天	-11.648
人中最為第一	-11.648
世間無性自性空相	-11.6481
世間畢竟空相	-11.6481
世間不可思議相	-11.6481
歇	-11.6481
有罪無罪	-11.6481
菩薩應離一切相	-11.6482
四意斷	-11.6482
屍	-11.6482
從坐起	-11.6483
常共相應	-11.6483
心之所念	-11.6484
世間無性空相	-11.6484
逾	-11.6484
清淨即果清淨	-11.6486
唐譯	-11.6486
不見少法	-11.6487
癰	-11.6488
天帝釋白佛言	-11.6489
艱	-11.649
生法二空	-11.6491
如來說第一波羅蜜	-11.6491
殑伽沙數世界	-11.6492
安慰	-11.6493
聽聞正法	-11.6498
闓士大士	-11.65
不在內不在外	-11.6501
千里	-11.6568
諸法如義	-11.661
扇	-11.6619
嶽	-11.6621
鬱	-11.6622
所言善法者	-11.6623
捷	-11.6624
即為著我人眾生壽者	-11.6625
無我無人無眾生無壽者	-11.6625
茶	-11.6626
不應以三十二相觀如來	-11.6626
聞此經典	-11.6627
某甲	-11.6627
宴	-11.6628
何緣而說我無邊故	-11.6628
非習非不習	-11.6628
見聞覺知	-11.6628
為遣此疑	-11.6629
異相為可得不	-11.6629
菩薩為利益一切眾生	-11.663
嗟	-11.663
袒	-11.663
聞是章句	-11.6631
健達縛	-11.6632
坐妙菩提座	-11.6632
無垢無淨	-11.6632
隨此法門應	-11.6635
貪著其事	-11.6635
練	-11.6636
為歸為趣	-11.6637
叵	-11.6639
即由此真如施設	-11.664
且初第一標	-11.6645
故而現在前	-11.6647
二百五十	-11.6717
果清淨即	-11.6743
樂阿蘭那行	-11.6774
諾	-11.6774
我應滅度一切眾生	-11.6775
爍	-11.6776
現在心不可得	-11.6777
基	-11.6778
如來說得福德多	-11.6779
怠	-11.678
麗	-11.678
纓絡	-11.678
世間自性空相	-11.6781
以無所住為方便故	-11.6781
窣堵波	-11.6781
項	-11.6781
是空性不	-11.6782
不住不習	-11.6783
沫	-11.6784
魅	-11.6784
鞭	-11.6787
訟	-11.6788
為洲為渚	-11.6788
為明為炬	-11.6789
堅牢	-11.6789
酥	-11.679
折伏	-11.6791
汝意云何	-11.6906
鈎	-11.6913
或有人聞	-11.6928
不能聽受讀誦	-11.6929
管	-11.6931
貝	-11.6931
菩薩所作福德	-11.6931
若樂小法者	-11.6932
史	-11.6932
轉正法輪	-11.6933
無造無作	-11.6934
乍	-11.6934
轉妙法輪度無量眾	-11.6935
如來因般若波羅蜜多故	-11.6935
起空想著	-11.6936
我及我所	-11.6936
屬生死屬涅槃	-11.6937
康	-11.6937
內外空及有無空	-11.6938
叢	-11.6938
實無有法名為菩薩	-11.6938
我佛土中得無	-11.6941
悋	-11.6941
於真如如是學	-11.6942
為救為護	-11.6942
有佛無佛	-11.6942
為智為慧	-11.6942
今時應學不應作證	-11.6942
為燈為照	-11.6942
為解為覺	-11.6943
綸	-11.6943
如汝所言	-11.6944
包含	-11.6944
愁憂	-11.6944
讚勵	-11.6945
則此大乘非尊非勝	-11.6945
陀隣尼	-11.6946
真如即如來真如	-11.6946
毒蛇	-11.6947
為不退轉地菩薩摩訶薩遮遣	-11.695
酪	-11.6952
善現隨如來生	-11.6954
須菩提語舍利弗	-11.6983
宣說法要	-11.6999
奇特	-11.7016
欲得無上正等菩提	-11.7043
貴賤	-11.7049
非想非非想處	-11.7075
絲毫	-11.7083
朱	-11.7085
壞法界耶	-11.7085
不誑語者	-11.7086
是人不解我所說義	-11.7087
無染無淨故清淨	-11.7088
從此以下	-11.7088
我當有所說法	-11.7089
骸	-11.7089
當知無數亦無所有	-11.7089
當知無邊亦無所有	-11.709
屢	-11.709
效	-11.7091
譬喻所不能及	-11.7091
為諸有情宣說開示	-11.7091
真遠離行	-11.7091
人法俱空	-11.7091
及所壞滅	-11.7092
板	-11.7093
恍忽	-11.7094
乾闥婆	-11.7094
不可取故無染污	-11.7096
右遶	-11.7096
幼	-11.7097
於一切眾生中	-11.7097
難行苦行	-11.71
細滑	-11.7101
四部弟子	-11.7102
常無常增語	-11.7104
從本已來	-11.7104
緣一覺	-11.7112
堪任	-11.7115
信行地	-11.7182
弭	-11.7186
戍	-11.7196
狐	-11.7229
新發意	-11.7233
清淨即一切智智清淨	-11.7243
穴	-11.7244
躍	-11.7246
逸	-11.7246
如來說非微塵	-11.7247
尚多無數	-11.7247
宣揚	-11.7248
當何名此經	-11.7248
乃至無有少法可得	-11.7248
當知無量亦無所有	-11.7248
茫	-11.7248
剎利大姓	-11.7249
我是離欲阿羅漢	-11.7249
醉	-11.725
複	-11.725
不證漏盡	-11.7251
詎	-11.7251
渠	-11.7252
迅	-11.7252
祝	-11.7252
吞	-11.7253
來生此間	-11.7254
若時菩薩摩訶薩行深般若波羅蜜多	-11.7255
不恐不怖	-11.7255
不取不捨為方便故	-11.7256
摩訶薩般若波羅蜜多名大波羅蜜多	-11.7256
初分校量功德品第三十之	-11.7257
流出何法	-11.7258
假使充滿	-11.7259
諷	-11.7259
當知般若波羅蜜多亦無自性	-11.7259
此既不生則非	-11.726
泥犁	-11.7262
釋迦文佛	-11.7263
膿	-11.7263
如偈說	-11.7265
轉少分人	-11.7285
莎訶	-11.7304
隨信行	-11.7326
儀軌	-11.7362
養育	-11.7377
相即非相	-11.7395
兮	-11.7395
鶖	-11.7396
抵	-11.7399
與一切智智清淨	-11.7404
菩薩但應如所教住	-11.7404
而生於識	-11.7406
閻	-11.7406
以福德無故	-11.7407
說彼甲冑不屬	-11.7407
寥	-11.7408
後際無所有性	-11.7408
司	-11.741
如來說有我者	-11.741
院	-11.7412
鑿	-11.7412
隨喜迴向亦應如是	-11.7413
雜染清淨增語	-11.7414
廣為有情宣說流布	-11.7415
十方如恒河沙等世界	-11.7415
乃至鄔波尼殺曇分亦	-11.7416
施他讀誦	-11.7416
即說呪曰	-11.7416
斗	-11.7417
亦令解脫無	-11.7417
乃至安坐妙菩提座	-11.7417
有願無願增語	-11.7418
依內依外依兩中間不可得故	-11.7418
甘蔗	-11.7419
受阿耨多羅三藐三菩提記	-11.742
當知般若波羅蜜多亦無滅	-11.7421
有情作大饒益	-11.7421
樂苦增語	-11.7422
荼	-11.7422
以為依附	-11.7424
我無我增語	-11.7424
淨不淨增語	-11.7426
波羅蜜多是般若波羅蜜多	-11.7427
住菩薩不退轉地	-11.7434
清淨即般若波羅蜜多清淨	-11.7479
遠離不遠離增語	-11.7485
在內若在外若在兩間	-11.753
涅	-11.7551
芥	-11.7556
不縛不解	-11.7565
村	-11.7567
如來昔在然燈佛所	-11.7568
菩薩摩訶薩所行般若波羅蜜多亦大	-11.7569
是故如來說福德多	-11.7569
膽	-11.757
非可貪	-11.757
非常亦無散失	-11.7571
非菩薩非甲冑	-11.7572
我今實言告汝	-11.7572
鄰	-11.7572
無願亦無散失	-11.7572
何況其沙	-11.7573
非樂亦無散失	-11.7573
抱	-11.7574
中際無所有性	-11.7574
輸	-11.7574
顏丙	-11.7574
此一節	-11.7574
菴	-11.7574
寂靜亦無散失	-11.7575
料	-11.7575
譏	-11.7576
有增有減	-11.7576
見由是法有取有著	-11.7576
籍	-11.7577
由有菩薩摩訶薩故	-11.7577
當知般若波羅蜜多亦無覺知	-11.7577
復以種種上妙花鬘	-11.7579
屬生死屬涅槃增語	-11.7579
0	-11.7579
有覺有觀	-11.758
證信序	-11.758
不以二故攝受	-11.7581
有相無相增語	-11.7581
若新學大乘菩薩摩訶薩不依般若	-11.7582
清淨與果清淨	-11.7582
蕉	-11.7582
非我亦無散失	-11.7586
調御士	-11.7586
何況空中有未來	-11.7587
明行圓滿	-11.7588
無為亦無散失	-11.7588
有記法	-11.7594
處非處	-11.7603
設利羅	-11.762
寂靜不寂靜增語	-11.7629
裡	-11.7728
皆不可行	-11.773
非合非散	-11.7733
以今世人輕賤故	-11.7736
姑	-11.7736
桃	-11.7738
冰	-11.774
怯	-11.774
圓滿及不圓滿	-11.7741
生實信不	-11.7741
若世界實有者	-11.7741
揮	-11.7742
槃	-11.7742
我等云何奉持	-11.7742
若可得若不可得增語非菩薩摩訶薩	-11.7742
月八日	-11.7743
劇	-11.7749
欝	-11.775
犍	-11.7754
藐	-11.7886
李	-11.7903
些	-11.7904
緊	-11.7906
絡	-11.7911
刃	-11.7911
米	-11.7912
仲	-11.7913
㸦	-11.7916
稽	-11.7916
溫	-11.7917
逕	-11.7922
跛	-11.8053
黎	-11.8057
豎	-11.8075
掛	-11.8076
槩	-11.8077
娛	-11.8078
踐	-11.8079
煉	-11.8079
巖	-11.8079
費	-11.808
棘	-11.8083
暮	-11.8083
幟	-11.8084
6	-11.8085
輒	-11.8085
薪	-11.8086
嗅	-11.8089
脇	-11.8091
襲	-11.8104
倪	-11.8187
珂	-11.8234
杵	-11.8235
潭	-11.8256
拾	-11.8256
聊	-11.8259
祀	-11.8262
3	-11.8262
耐	-11.8266
輻	-11.8267
祈	-11.8273
渧	-11.8273
鑁	-11.8379
悞	-11.8427
滌	-11.8434
諄	-11.8436
洹	-11.8437
饉	-11.8437
鞞	-11.8438
腰	-11.844
側	-11.8441
豆	-11.8443
抄	-11.8446
裸	-11.8447
倘	-11.8612
憫	-11.8612
噫	-11.8612
粒	-11.8615
篋	-11.8617
展	-11.8617
撿	-11.8618
懺	-11.8619
豫	-11.8619
驢	-11.8625
兜	-11.8632
喝	-11.8794
毋	-11.8799
湖	-11.8802
拙	-11.8806
蹈	-11.881
季	-11.8811
虔	-11.8811
漿	-11.8811
煙	-11.8813
鑛	-11.8815
蠢	-11.8985
碧	-11.8988
踪	-11.8989
扣	-11.8989
漫	-11.899
焦	-11.8991
罣	-11.8993
航	-11.8997
晦	-11.8998
膚	-11.8998
烟	-11.8999
嶺	-11.9001
姊	-11.9003
搗	-11.9007
叫	-11.9172
級	-11.9177
轍	-11.9181
恥	-11.9182
9	-11.9183
欽	-11.9184
宏	-11.9185
躬	-11.9188
誼	-11.919
乙	-11.919
雀	-11.9196
丸	-11.9197
汗	-11.9197
麟	-11.9203
丁	-11.936
潑	-11.9371
痴	-11.9374
選	-11.9374
謀	-11.9377
匿	-11.9378
宇	-11.9379
獅	-11.938
刑	-11.938
愆	-11.9382
殆	-11.9383
窺	-11.9383
郭	-11.9383
央	-11.9386
荒	-11.9387
妬	-11.9387
裹	-11.9388
郡	-11.9391
剌	-11.9558
畔	-11.9559
芳	-11.9567
傅	-11.9572
剖	-11.9574
剩	-11.9575
崖	-11.9577
訣	-11.958
兆	-11.9581
呌	-11.9582
c	-11.9583
寢	-11.9584
籠	-11.9586
訾	-11.9589
寅	-11.9589
脹	-11.9591
擁	-11.9696
壤	-11.9757
曷	-11.9767
跟	-11.9785
廬	-11.9785
詩	-11.9785
玩	-11.9786
夕	-11.9787
f	-11.9787
綠	-11.9788
芽	-11.9788
革	-11.9789
鑽	-11.979
剃	-11.9792
塚	-11.9792
鹽	-11.9794
擯	-11.9794
陣	-11.9795
􂏕	-11.9946
棲	-11.9989
夙	-11.999
寐	-11.999
脉	-11.9991
眷	-11.9992
丘	-11.9994
梯	-11.9994
埋	-11.9995
晨	-11.9995
模	-11.9997
梅	-11.9998
釐	-12.0002
溝	-12.0002
揵	-12.0004
猴	-12.0004
燃	-12.0006
葦	-12.0006
忌	-12.0007
惓	-12.0009
僻	-12.0014
瑟	-12.0161
洒	-12.0194
撮	-12.0202
敏	-12.0203
埃	-12.0204
杲	-12.0204
菓	-12.0205
恠	-12.0209
擣	-12.021
俄	-12.0214
牧	-12.0215
剋	-12.0219
攬	-12.0219
綖	-12.0232
埵	-12.025
竺	-12.0358
朕	-12.0407
棒	-12.0413
沾	-12.0413
憐	-12.0416
渺	-12.0416
熾	-12.0418
咦	-12.0419
疫	-12.0421
牆	-12.0421
摸	-12.0422
爰	-12.0422
炤	-12.0426
彚	-12.0426
瘂	-12.0426
罽	-12.0429
俯	-12.0429
呂	-12.043
犢	-12.0435
怡	-12.0436
祠	-12.044
△	-12.0452
鑰	-12.0635
訪	-12.064
后	-12.0641
孟	-12.0644
煞	-12.0644
羽	-12.0647
膠	-12.0647
捧	-12.0647
韻	-12.0648
溼	-12.0649
䇿	-12.065
劬	-12.065
錦	-12.0653
吳	-12.0653
屠	-12.0656
礫	-12.0663
穌	-12.0798
沸	-12.0864
森	-12.0867
佐	-12.0868
梓	-12.0868
羞	-12.0869
握	-12.0869
効	-12.0871
殞	-12.0872
璧	-12.0872
瞞	-12.0872
蹤	-12.0874
秉	-12.0874
酉	-12.0874
甄	-12.0875
湧	-12.0875
卯	-12.0876
悕	-12.0877
秀	-12.0877
飜	-12.088
腳	-12.0883
膩	-12.0884
努	-12.1051
莎	-12.1055
淫	-12.1095
搜	-12.11
竅	-12.1103
晏	-12.1103
枉	-12.1103
洋	-12.1104
庭	-12.1105
薦	-12.1105
瑩	-12.1105
刪	-12.1106
佗	-12.1106
翔	-12.1108
軸	-12.1109
縷	-12.1109
鎖	-12.1111
唾	-12.1115
享	-12.1331
恰	-12.1331
遏	-12.1331
儉	-12.1336
啻	-12.1338
巷	-12.1339
柳	-12.1339
臻	-12.134
阻	-12.1343
劉	-12.1343
激	-12.1343
攻	-12.1345
瑙	-12.1345
嶮	-12.1345
楊	-12.1345
誕	-12.1346
鶴	-12.1347
剝	-12.1347
炙	-12.135
削	-12.1351
眴	-12.1351
麥	-12.1355
呬	-12.1541
訥	-12.1558
唎	-12.1567
僊	-12.157
躭	-12.1576
娘	-12.1578
藤	-12.1578
煥	-12.158
瞖	-12.1581
崩	-12.1581
捕	-12.1582
搆	-12.1582
串	-12.1585
罰	-12.1586
邃	-12.1588
胞	-12.1588
泊	-12.1589
允	-12.1589
隻	-12.159
膏	-12.1591
厥	-12.1593
慼	-12.1594
哭	-12.1594
茂	-12.1595
鍊	-12.1596
贍	-12.1597
睺	-12.1598
蠲	-12.16
禰	-12.1793
邦	-12.1826
粘	-12.183
諫	-12.1836
柰	-12.1836
帙	-12.1837
丑	-12.184
塊	-12.1841
尒	-12.1841
遐	-12.1843
捶	-12.1846
讓	-12.1846
惺	-12.1846
喃	-12.2008
劈	-12.2081
陶	-12.2084
睛	-12.2087
鳳	-12.2089
儻	-12.2093
逗	-12.2094
篤	-12.2095
帳	-12.2097
脊	-12.2098
偃	-12.2098
螢	-12.2099
髏	-12.2099
8	-12.21
勑	-12.2101
頸	-12.2102
倣	-12.2103
瘦	-12.2105
暖	-12.2349
拱	-12.235
鬚	-12.2351
鐘	-12.2353
崙	-12.2357
評	-12.2358
呾	-12.2359
騎	-12.2359
蜂	-12.2361
藪	-12.2361
熈	-12.2362
跏	-12.2362
技	-12.2363
齎	-12.2368
穆	-12.2373
嘿	-12.2376
醯	-12.26
逝	-12.2612
邏	-12.2617
遞	-12.2619
皷	-12.262
沐	-12.262
餅	-12.2621
啞	-12.2622
吸	-12.2622
覲	-12.2623
胝	-12.2624
蒼	-12.2624
囚	-12.2624
㧗	-12.2626
裝	-12.2627
確	-12.2628
逃	-12.2628
鴈	-12.2629
討	-12.263
亢	-12.263
淡	-12.263
零	-12.263
痒	-12.2631
痰	-12.2633
屎	-12.2633
遽	-12.2633
紀	-12.2634
偷	-12.2635
匪	-12.2636
癩	-12.264
厨	-12.2891
翠	-12.2896
鴻	-12.2897
旁	-12.2897
闢	-12.2898
攀	-12.29
職	-12.2904
瞬	-12.2904
婢	-12.2905
惛	-12.2905
抽	-12.2907
戾	-12.2907
嗣	-12.2908
戈	-12.291
凉	-12.291
孽	-12.2911
賈	-12.2913
滑	-12.2914
庠	-12.2916
斤	-12.2916
蒭	-12.3145
週	-12.3173
騐	-12.3175
咨	-12.3183
甯	-12.3183
俟	-12.3183
魂	-12.3184
覷	-12.3186
庵	-12.3186
迢	-12.3187
摘	-12.3187
慾	-12.3187
監	-12.3191
衲	-12.3192
s	-12.3193
砂	-12.3193
諭	-12.3193
霧	-12.3194
屏	-12.3194
拯	-12.3195
諠	-12.3196
聯	-12.3199
傲	-12.3201
嗢	-12.3458
炭	-12.3474
諱	-12.3478
松	-12.3478
瞥	-12.3479
奢	-12.3479
肆	-12.3481
汰	-12.3481
鎔	-12.3483
妃	-12.3484
瑪	-12.3484
衡	-12.3487
栗	-12.3488
腋	-12.3491
戚	-12.3492
澡	-12.3493
鷄	-12.3494
涸	-12.3499
腎	-12.3505
讖	-12.3508
紇	-12.3733
檗	-12.3774
无	-12.3776
寓	-12.3778
措	-12.3783
粉	-12.3783
揣	-12.3786
訂	-12.3786
緇	-12.3786
亥	-12.3787
巾	-12.3789
麵	-12.379
腨	-12.3791
嗚	-12.3791
旱	-12.3793
暑	-12.3796
膖	-12.3796
髀	-12.3798
肝	-12.3799
鏁	-12.38
迭	-12.3802
缽	-12.3822
竿	-12.4089
件	-12.409
街	-12.4092
躶	-12.4094
輙	-12.4096
蓬	-12.4097
肢	-12.4097
濤	-12.4098
稠	-12.4098
赫	-12.4099
罕	-12.41
猿	-12.4103
殄	-12.4103
霞	-12.4104
栰	-12.4106
庫	-12.4106
詢	-12.4107
巡	-12.4109
韋	-12.4111
舜	-12.4393
儼	-12.4405
鷺	-12.4407
汩	-12.4409
筭	-12.4414
閃	-12.4415
貨	-12.4416
爆	-12.4418
另	-12.442
佇	-12.4422
咽	-12.4422
矜	-12.4422
芬	-12.4423
旹	-12.4425
夭	-12.4426
笈	-12.4428
汲	-12.4428
臍	-12.4428
腐	-12.4429
殑	-12.443
捫	-12.4431
雹	-12.444
欄	-12.4743
疣	-12.4745
勃	-12.4746
塹	-12.4748
淑	-12.4751
怎	-12.4752
恕	-12.4756
鬬	-12.4756
溈	-12.4757
煎	-12.4757
鄭	-12.4758
圈	-12.4759
翹	-12.476
杌	-12.476
屑	-12.476
巢	-12.4763
詠	-12.4763
鴦	-12.4766
叡	-12.4767
撫	-12.4768
鍵	-12.4772
唧	-12.502
垣	-12.5078
龐	-12.5088
淤	-12.509
痕	-12.5092
剪	-12.5095
牟	-12.5097
欻	-12.5099
墻	-12.5099
祿	-12.51
㝡	-12.51
沼	-12.51
貯	-12.51
概	-12.5101
炳	-12.5102
圜	-12.5102
操	-12.5102
薜	-12.5102
溢	-12.5102
裁	-12.5102
錫	-12.5102
憨	-12.5104
迫	-12.5109
哲	-12.5115
楷	-12.5115
伯	-12.5117
縮	-12.5117
魯	-12.5444
蘗	-12.5448
鷹	-12.5449
佈	-12.5451
社	-12.5454
跳	-12.5454
烈	-12.5454
晃	-12.5454
額	-12.5455
慨	-12.5455
溥	-12.5456
寰	-12.5457
候	-12.5458
倐	-12.5458
昨	-12.5459
鐸	-12.5459
瘀	-12.5459
咒	-12.5461
卻	-12.5461
蔔	-12.5461
妓	-12.5461
戊	-12.5462
岐	-12.5462
償	-12.5464
躁	-12.5465
戌	-12.5466
曆	-12.5467
羂	-12.5467
豹	-12.547
斛	-12.5472
迤	-12.5476
攞	-12.5695
󲊛	-12.5718
爽	-12.5811
玻	-12.5817
夾	-12.5817
突	-12.5819
蟻	-12.5819
卜	-12.5821
貼	-12.5821
銳	-12.5824
𦘕	-12.5825
郎	-12.5825
栢	-12.5826
譚	-12.5827
孕	-12.5827
誇	-12.5829
吃	-12.5829
壓	-12.583
駭	-12.583
憚	-12.5831
歿	-12.5831
揆	-12.5831
袪	-12.5832
壬	-12.5833
沖	-12.5835
鍾	-12.5836
敕	-12.5836
愕	-12.5836
桓	-12.5837
妖	-12.5837
賞	-12.5839
邐	-12.5842
g	-12.5852
m	-12.5852
<	-12.5852
i	-12.5852
嬭	-12.6151
屹	-12.6153
它	-12.6194
窒	-12.6197
撒	-12.6198
冲	-12.6198
帛	-12.62
恬	-12.62
貢	-12.6203
煮	-12.6204
殻	-12.6206
癘	-12.6206
滄	-12.6208
汁	-12.6212
拭	-12.6212
琴	-12.6215
軛	-12.6216
蚊	-12.6217
鎻	-12.6218
恍	-12.6219
倉	-12.622
㲉	-12.622
廁	-12.6221
呿	-12.6224
膳	-12.6229
溉	-12.623
港	-12.6232
尿	-12.6232
跢	-12.6483
冒	-12.6534
囇	-12.6579
瑜	-12.6598
嬉	-12.6598
肘	-12.6604
昆	-12.6607
尠	-12.6607
怜	-12.6609
栽	-12.661
矧	-12.6611
壑	-12.6611
株	-12.6611
撞	-12.6612
綴	-12.6612
迄	-12.6614
睫	-12.6614
蝶	-12.6617
猜	-12.6617
遜	-12.6618
觧	-12.6618
-	-12.6619
壅	-12.6619
癈	-12.662
縹	-12.6624
膊	-12.6624
賁	-12.6626
暉	-12.6626
勳	-12.6634
攘	-12.6919
橛	-12.7018
澁	-12.7019
濶	-12.7021
坡	-12.7021
妹	-12.7022
箱	-12.7022
堆	-12.7023
洎	-12.7023
贅	-12.7024
矛	-12.7025
亮	-12.7025
侯	-12.7028
輿	-12.7029
胃	-12.7029
醎	-12.703
挽	-12.703
悖	-12.703
陛	-12.703
卓	-12.703
濡	-12.7031
憤	-12.7031
禱	-12.7032
瓜	-12.7034
盂	-12.7034
迂	-12.7035
晞	-12.7035
霑	-12.7036
叩	-12.7036
杳	-12.7037
釘	-12.7037
替	-12.7041
蹄	-12.7046
𤏙	-12.7051
腸	-12.7055
囕	-12.7353
􂏔	-12.7413
冐	-12.7413
祛	-12.7451
馨	-12.7453
挍	-12.7456
挑	-12.7456
斧	-12.7456
妍	-12.7457
態	-12.7458
柴	-12.7459
控	-12.7459
􂏓	-12.7459
淘	-12.746
埽	-12.746
楯	-12.7461
煗	-12.7462
禽	-12.7463
絃	-12.7464
丙	-12.7464
泐	-12.7464
踴	-12.7465
舛	-12.7465
庚	-12.7467
礦	-12.7467
頴	-12.7468
懇	-12.7468
臟	-12.7471
螫	-12.7474
熙	-12.7476
旛	-12.7478
邠	-12.7478
岩	-12.7478
琦	-12.7486
孃	-12.7834
裴	-12.7883
堦	-12.7895
沃	-12.7901
宙	-12.7903
台	-12.7911
貶	-12.7912
雕	-12.7912
蒲	-12.7913
奮	-12.7915
燕	-12.7916
轅	-12.7916
苾	-12.7916
岳	-12.7916
癸	-12.7917
掘	-12.7918
厘	-12.7919
雞	-12.792
擅	-12.7921
鴛	-12.7921
誣	-12.7922
拆	-12.7923
枷	-12.7924
輟	-12.7924
霄	-12.7925
坌	-12.7925
鵝	-12.7925
𤦲	-12.7925
懊	-12.7927
漠	-12.7927
陂	-12.7928
迸	-12.7928
燸	-12.7929
滓	-12.7931
矚	-12.7932
讎	-12.7933
旗	-12.7938
輞	-12.7938
隸	-12.8348
𠺁	-12.8354
聻	-12.838
鑊	-12.8383
軒	-12.8387
衫	-12.8387
蝎	-12.839
竇	-12.839
枕	-12.8391
誌	-12.8392
馥	-12.8393
掇	-12.8393
迨	-12.8394
稿	-12.8395
眩	-12.8396
膜	-12.8397
儔	-12.8397
疥	-12.8398
尅	-12.8399
緯	-12.8402
熊	-12.8403
猪	-12.8403
挾	-12.8404
懅	-12.8405
栴	-12.8409
茅	-12.8409
幅	-12.8411
洽	-12.8413
捲	-12.8414
駄	-12.8791
廿	-12.8837
穰	-12.8866
罄	-12.888
廼	-12.8881
迥	-12.8881
姪	-12.8881
征	-12.8882
昂	-12.8885
籌	-12.8886
帖	-12.8888
朵	-12.8888
堯	-12.8889
諒	-12.8889
拿	-12.889
鎞	-12.889
祭	-12.889
膾	-12.8891
涵	-12.8891
秖	-12.8892
榜	-12.8892
喉	-12.8894
陞	-12.8895
匹	-12.8895
郊	-12.8897
碍	-12.8899
恢	-12.8899
儲	-12.8899
綜	-12.8899
掠	-12.89
嚼	-12.89
肥	-12.8901
蹙	-12.8902
農	-12.8903
蔓	-12.8906
抗	-12.8907
詶	-12.8907
糜	-12.8907
織	-12.8909
疆	-12.8909
覈	-12.8912
褥	-12.8915
●	-12.9096
縵	-12.9402
韓	-12.9406
臼	-12.941
邁	-12.9411
佑	-12.9412
泄	-12.9414
吟	-12.9415
柄	-12.9415
碩	-12.9415
穽	-12.9415
鶯	-12.9415
膺	-12.9416
譌	-12.9416
敦	-12.9418
介	-12.9419
錐	-12.942
驕	-12.942
咲	-12.942
啄	-12.942
坏	-12.9421
逞	-12.9421
脆	-12.9421
嗜	-12.9421
瀑	-12.9421
凍	-12.9422
黏	-12.9422
弁	-12.9422
衷	-12.9422
臚	-12.9422
畵	-12.9422
幹	-12.9424
澗	-12.9425
飼	-12.9425
稚	-12.9429
吏	-12.9429
鼎	-12.943
詭	-12.9432
耕	-12.9433
姝	-12.9434
墳	-12.9436
㲲	-12.9437
脂	-12.9437
臘	-12.9442
肺	-12.9445
矩	-12.9927
爹	-12.9945
鏤	-12.9951
援	-12.9959
囂	-12.996
澹	-12.9963
厲	-12.9963
辜	-12.9966
掣	-12.9966
楫	-12.9966
驀	-12.9966
囿	-12.9969
諧	-12.997
吝	-12.997
嵩	-12.9971
飡	-12.9971
凜	-12.9972
屣	-12.9972
鼠	-12.9973
灼	-12.9974
繭	-12.9974
蜀	-12.9975
燼	-12.9976
悠	-12.9976
姿	-12.9977
抖	-12.9977
耄	-12.9978
擎	-12.9978
邇	-12.9978
翦	-12.9978
翫	-12.9978
肌	-12.9979
惚	-12.9979
谿	-12.998
蝕	-12.9981
蟾	-12.9981
媚	-12.9982
脣	-12.9982
頷	-12.9982
敲	-12.9983
惻	-12.9984
嚬	-12.9984
漲	-12.9984
鱗	-12.9985
硬	-12.9986
轂	-12.999
棟	-12.999
朔	-12.999
侮	-12.9992
貿	-12.9995
叨	-12.9996
撾	-12.9997
軆	-12.9999
拽	-13.0514
􂏖	-13.0536
轆	-13.0549
蕃	-13.055
耻	-13.0551
揑	-13.0551
妾	-13.0552
填	-13.0555
陟	-13.0555
聆	-13.0555
遼	-13.0555
慣	-13.0555
禦	-13.0557
蟒	-13.0559
霈	-13.0559
鄔	-13.0559
縈	-13.0559
刮	-13.0559
盾	-13.056
乩	-13.0561
鉄	-13.0561
贈	-13.0561
晴	-13.0561
塑	-13.0561
雁	-13.0562
企	-13.0562
萎	-13.0563
躄	-13.0564
謾	-13.0564
𦟛	-13.0566
荅	-13.0566
饍	-13.0567
坎	-13.0567
胥	-13.0567
釆	-13.0567
邀	-13.0568
陁	-13.0568
髑	-13.0568
佳	-13.0568
婁	-13.0568
課	-13.0569
瑣	-13.0569
喏	-13.057
售	-13.057
鐫	-13.057
鳧	-13.057
亟	-13.057
謁	-13.0571
亭	-13.0571
頰	-13.0571
舡	-13.0571
繕	-13.0572
歛	-13.0573
睹	-13.0573
宍	-13.0574
班	-13.0574
挺	-13.0575
縫	-13.0576
慟	-13.0577
慜	-13.0577
攢	-13.058
脾	-13.0584
誹	-13.114
迯	-13.1162
虞	-13.1171
玲	-13.1175
憾	-13.1176
抹	-13.118
甜	-13.1181
溟	-13.1182
况	-13.1183
潰	-13.1184
蛾	-13.1184
睒	-13.1185
絮	-13.1185
毅	-13.1185
桑	-13.1186
罷	-13.1187
拋	-13.1187
賾	-13.1187
杭	-13.1188
婉	-13.1189
培	-13.1189
駛	-13.1191
㵎	-13.1191
湏	-13.1191
悴	-13.1191
徇	-13.1192
仔	-13.1193
液	-13.1193
僉	-13.1193
筒	-13.1194
孩	-13.1194
擴	-13.1195
翰	-13.1195
毱	-13.1195
漁	-13.1196
澆	-13.1196
繹	-13.1196
蠶	-13.1196
惰	-13.1197
疽	-13.1198
燎	-13.1199
跨	-13.1201
恤	-13.1201
旅	-13.1201
戮	-13.1202
賒	-13.1204
催	-13.1205
腫	-13.1206
峻	-13.1208
裘	-13.1208
訴	-13.1209
蜫	-13.1224
卅	-13.161
暎	-13.1834
矢	-13.1834
狥	-13.184
嚧	-13.1841
袋	-13.1842
忖	-13.1843
摶	-13.1843
酧	-13.1844
桎	-13.1844
凋	-13.1845
浸	-13.1845
窠	-13.1845
憩	-13.1846
拶	-13.1847
酸	-13.1848
雌	-13.1849
尖	-13.1851
拍	-13.1852
蠱	-13.1853
廉	-13.1854
汪	-13.1855
桶	-13.1856
碑	-13.1856
讒	-13.1857
貽	-13.1857
陌	-13.1859
臝	-13.186
坊	-13.186
皃	-13.186
榻	-13.186
撓	-13.186
襟	-13.1862
械	-13.1862
闥	-13.1863
靠	-13.1863
俞	-13.1864
淮	-13.1864
沽	-13.1864
鋪	-13.1865
鋼	-13.1865
怱	-13.1865
輯	-13.1866
閙	-13.1866
築	-13.1867
彗	-13.1868
罩	-13.1869
踝	-13.1869
掖	-13.1869
踞	-13.187
虻	-13.1874
釵	-13.1875
澍	-13.1877
娶	-13.1878
盟	-13.1879
儗	-13.2517
酤	-13.2554
敝	-13.2558
慘	-13.2558
蒸	-13.2559
勾	-13.2559
獎	-13.2559
晰	-13.256
坤	-13.256
葫	-13.2561
帥	-13.2561
槁	-13.2561
描	-13.2562
禾	-13.2562
募	-13.2565
阜	-13.2565
蠅	-13.2566
顰	-13.2566
蜾	-13.2566
愽	-13.2566
冊	-13.2567
覿	-13.2567
蠡	-13.2567
侔	-13.2568
鸚	-13.2568
猷	-13.2569
姟	-13.257
劂	-13.257
遑	-13.2571
奕	-13.2571
鑪	-13.2571
酌	-13.2572
寇	-13.2572
賦	-13.2573
璨	-13.2573
斑	-13.2573
綽	-13.2573
荻	-13.2575
誅	-13.2576
𨷂	-13.2576
劓	-13.2577
㝹	-13.2577
棺	-13.2577
蹔	-13.2578
籟	-13.2578
鸞	-13.258
巴	-13.258
涎	-13.2581
叶	-13.2582
唇	-13.2582
惒	-13.2583
搥	-13.2584
齡	-13.2584
黜	-13.2585
椽	-13.2585
踈	-13.2586
銜	-13.2587
幔	-13.2588
彫	-13.2588
犀	-13.2591
聶	-13.2618
𠰢	-13.322
􂏥	-13.3235
煬	-13.3307
謚	-13.3313
隷	-13.3317
琅	-13.3321
懵	-13.3323
妊	-13.3326
翛	-13.3329
献	-13.333
梗	-13.3331
刷	-13.3333
詺	-13.3335
僂	-13.3335
恡	-13.3336
祚	-13.3337
糠	-13.3337
虱	-13.3337
掀	-13.3337
舋	-13.3337
頹	-13.3338
蘖	-13.3338
携	-13.3338
跣	-13.3339
嵐	-13.3339
氛	-13.3339
沌	-13.334
琰	-13.3341
曝	-13.3341
挂	-13.3341
攣	-13.3341
股	-13.3343
副	-13.3343
攸	-13.3343
顆	-13.3343
餚	-13.3343
燄	-13.3344
斂	-13.3344
柯	-13.3344
禎	-13.3345
仕	-13.3345
絆	-13.3345
慌	-13.3346
傑	-13.3346
崛	-13.3347
襄	-13.3347
署	-13.3347
峨	-13.3349
蕭	-13.3349
澈	-13.335
譴	-13.335
擘	-13.3351
癢	-13.3351
􂎶	-13.3351
瞎	-13.3351
赦	-13.3352
渚	-13.3352
員	-13.3354
涓	-13.3354
侈	-13.3359
墓	-13.3362
綩	-13.3366
胤	-13.3374
嗽	-13.3375
㗚	-13.41
銘	-13.4101
秫	-13.4113
姤	-13.4135
浙	-13.4146
弩	-13.4157
蕪	-13.4158
緬	-13.4158
輾	-13.4159
瘥	-13.416
閩	-13.416
紐	-13.416
媸	-13.4161
槌	-13.4162
讐	-13.4163
漆	-13.4163
卦	-13.4164
牀	-13.4165
鱉	-13.4165
漉	-13.4166
艸	-13.4167
芻	-13.4169
剜	-13.417
鼈	-13.4171
俊	-13.4171
庾	-13.4172
鋑	-13.4173
軫	-13.4173
呰	-13.4174
蚤	-13.4174
狎	-13.4174
憲	-13.4174
硨	-13.4175
偉	-13.4175
稀	-13.4176
虐	-13.4176
卉	-13.4176
剏	-13.4176
嶷	-13.4176
慠	-13.4176
撤	-13.4177
鵲	-13.4177
磧	-13.4178
婚	-13.4178
聳	-13.4179
挈	-13.418
黍	-13.4181
磕	-13.4181
猫	-13.4182
璞	-13.4182
瀉	-13.4183
萇	-13.4183
衒	-13.4183
稼	-13.4185
臧	-13.4185
餌	-13.4186
仞	-13.4186
孚	-13.4186
睿	-13.4186
邈	-13.4186
憒	-13.4186
疋	-13.4187
湮	-13.4187
估	-13.4187
俠	-13.4189
菜	-13.4191
肪	-13.4192
䥫	-13.4193
瞑	-13.4195
慇	-13.4196
葬	-13.4197
髣	-13.4198
淹	-13.4204
义	-13.4993
𤚥	-13.5011
韈	-13.5023
􂎹	-13.504
儂	-13.5042
簸	-13.5043
巘	-13.5053
彥	-13.5058
慙	-13.5059
頞	-13.5061
袍	-13.5063
搬	-13.5063
盆	-13.5065
㘞	-13.5065
閭	-13.5067
燦	-13.5067
疱	-13.5068
郁	-13.507
傘	-13.507
抳	-13.5071
収	-13.5071
齅	-13.5071
箜	-13.5072
鉗	-13.5072
篌	-13.5073
柁	-13.5074
懽	-13.5074
抉	-13.5074
稗	-13.5074
材	-13.5075
踵	-13.5076
捍	-13.5076
朴	-13.5076
繡	-13.5077
盞	-13.5077
霽	-13.5078
懶	-13.5078
蒂	-13.5078
樵	-13.5078
媿	-13.5078
㭊	-13.5079
匡	-13.5079
粹	-13.508
勁	-13.5081
戎	-13.5081
魄	-13.5081
弼	-13.5082
稷	-13.5082
館	-13.5083
磚	-13.5084
癲	-13.5085
窓	-13.5086
瞭	-13.5086
詒	-13.5086
䐡	-13.5086
兇	-13.5086
鞋	-13.5087
暨	-13.5087
磲	-13.5087
毬	-13.5088
撩	-13.5088
奩	-13.5088
沿	-13.5088
皂	-13.5088
肖	-13.5088
咬	-13.5089
繆	-13.5089
賑	-13.5089
◎	-13.5089
嘶	-13.509
瞽	-13.5091
𠎝	-13.5091
栖	-13.5092
虵	-13.5092
浦	-13.5092
駝	-13.5092
馭	-13.5092
蛆	-13.5094
㒵	-13.5094
閔	-13.5095
犬	-13.5097
咤	-13.5098
餐	-13.51
薝	-13.51
狸	-13.5103
貳	-13.5104
舶	-13.5112
榍	-13.5149
䜝	-13.6037
蟹	-13.605
郝	-13.6059
糊	-13.6062
簇	-13.6066
喘	-13.607
霖	-13.607
濃	-13.607
欵	-13.6071
翱	-13.6072
螻	-13.6073
叱	-13.6073
胄	-13.6073
牖	-13.6074
闐	-13.6074
壺	-13.6074
濠	-13.6075
閇	-13.6076
拖	-13.6077
卍	-13.6077
霔	-13.6077
協	-13.6077
酢	-13.6077
駐	-13.6078
銕	-13.6078
塘	-13.6079
淆	-13.6079
坻	-13.6079
揩	-13.6079
寵	-13.6079
烹	-13.608
錎	-13.6081
菊	-13.6081
萃	-13.6081
鍼	-13.6081
蚖	-13.6082
躋	-13.6082
范	-13.6082
裕	-13.6082
袴	-13.6082
釧	-13.6082
裙	-13.6084
棗	-13.6084
媒	-13.6085
衝	-13.6085
杻	-13.6085
縠	-13.6085
尉	-13.6085
浣	-13.6086
碯	-13.6086
需	-13.6086
糟	-13.6086
洵	-13.6086
槽	-13.6087
棍	-13.6087
鍛	-13.6088
佷	-13.6088
歘	-13.6088
迺	-13.6088
羨	-13.6089
劑	-13.6089
裳	-13.6089
枚	-13.609
仝	-13.609
虜	-13.6091
靖	-13.6092
誥	-13.6092
擡	-13.6092
鎚	-13.6093
頤	-13.6094
蜎	-13.6094
􂎫	-13.6094
潺	-13.6094
琢	-13.6095
軻	-13.6095
粳	-13.6095
沓	-13.6095
挫	-13.6095
糧	-13.6095
〡	-13.6096
湊	-13.6096
丞	-13.6097
毳	-13.6098
叔	-13.61
痆	-13.6105
揖	-13.6105
摽	-13.6105
蝦	-13.6108
脛	-13.6109
捔	-13.6119
絹	-13.612
斆	-13.6135
儜	-13.7113
嚟	-13.712
焬	-13.7133
廚	-13.7165
熬	-13.7165
驟	-13.7167
𧹞	-13.7168
徤	-13.7173
擒	-13.7174
躲	-13.7175
刼	-13.7177
蘿	-13.7178
觜	-13.7178
襪	-13.7179
漱	-13.718
冶	-13.718
韜	-13.7181
朅	-13.7182
鵒	-13.7182
颺	-13.7184
唄	-13.7184
撲	-13.7184
㮈	-13.7185
剔	-13.7186
垓	-13.7186
龔	-13.7186
帽	-13.7186
䬸	-13.7186
呀	-13.7187
構	-13.7187
燥	-13.7188
叟	-13.7188
甦	-13.7188
顇	-13.7188
皰	-13.7189
蓄	-13.7189
犁	-13.7189
崔	-13.7189
菽	-13.719
謎	-13.719
臰	-13.7191
㓔	-13.7192
誚	-13.7192
叛	-13.7192
来	-13.7192
掬	-13.7192
謟	-13.7193
褒	-13.7193
黶	-13.7194
佩	-13.7194
姹	-13.7195
諳	-13.7195
𡱁	-13.7196
随	-13.7196
錘	-13.7197
宵	-13.7198
僣	-13.7198
泆	-13.7198
窗	-13.7198
鋤	-13.7199
姻	-13.7199
猥	-13.7199
邱	-13.7199
𨄔	-13.72
苞	-13.72
盥	-13.72
屆	-13.7201
𩯭	-13.7202
穎	-13.7202
駁	-13.7203
几	-13.7203
饌	-13.7205
迆	-13.7206
拷	-13.7206
柏	-13.7207
晁	-13.7207
恂	-13.7207
羹	-13.7208
蹇	-13.7209
蠟	-13.7209
粧	-13.721
鵄	-13.7211
拄	-13.7211
鉾	-13.7213
鹹	-13.7214
蓐	-13.7215
玷	-13.7217
凾	-13.7219
逶	-13.7223
轡	-13.7223
曀	-13.7242
羝	-13.8309
廝	-13.832
捻	-13.8367
莽	-13.8392
堵	-13.84
磔	-13.841
葷	-13.8414
呆	-13.8418
喇	-13.8419
茹	-13.8419
闌	-13.8419
禹	-13.842
濂	-13.8423
摭	-13.8424
懿	-13.8424
嘴	-13.8424
鋟	-13.8424
堞	-13.8425
跌	-13.8425
濯	-13.8425
棃	-13.8427
痊	-13.8427
諺	-13.843
驪	-13.8431
埏	-13.8432
賖	-13.8434
䆳	-13.8434
貲	-13.8434
泳	-13.8435
系	-13.8436
詁	-13.8436
𠍴	-13.8436
釣	-13.8437
襍	-13.8437
䖍	-13.8437
插	-13.8437
芒	-13.8437
峙	-13.8438
袖	-13.8438
仇	-13.8438
爵	-13.8439
疇	-13.8439
蟬	-13.8439
龕	-13.8439
剗	-13.844
抂	-13.844
瘧	-13.8441
肋	-13.8442
緻	-13.8443
繳	-13.8444
糺	-13.8444
渙	-13.8444
撈	-13.8444
版	-13.8445
鍮	-13.8445
麞	-13.8445
万	-13.8445
沛	-13.8445
慞	-13.8445
霆	-13.8445
駿	-13.8446
𨵗	-13.8446
悚	-13.8447
墀	-13.8447
滾	-13.8448
衿	-13.8448
宸	-13.8449
埿	-13.8449
兀	-13.8449
遁	-13.8449
緘	-13.8449
燿	-13.8449
覃	-13.845
駟	-13.845
涘	-13.845
紆	-13.845
攷	-13.845
稔	-13.845
奸	-13.8451
販	-13.8452
殫	-13.8452
牘	-13.8452
眸	-13.8452
奄	-13.8452
窄	-13.8453
潘	-13.8454
萄	-13.8454
吻	-13.8454
蟣	-13.8454
鹵	-13.8454
匃	-13.8454
諛	-13.8456
魑	-13.8457
弑	-13.8457
暝	-13.8458
粵	-13.8459
褁	-13.8459
彭	-13.8459
潮	-13.8462
熄	-13.8463
漬	-13.8464
癬	-13.8464
黯	-13.8464
徽	-13.8466
稅	-13.8469
盪	-13.8473
錠	-13.8474
蹲	-13.8474
婀	-13.8479
𤸱	-13.8483
咩	-13.9718
笏	-13.9788
曬	-13.9826
劄	-13.9835
櫱	-13.984
敞	-13.9845
簾	-13.9847
妣	-13.9848
廕	-13.9849
惕	-13.985
寮	-13.9851
耑	-13.9851
狩	-13.9857
炅	-13.9857
奠	-13.9858
柝	-13.9858
呻	-13.9861
璋	-13.9861
徼	-13.9861
匙	-13.9861
缾	-13.9862
寘	-13.9863
皺	-13.9863
筵	-13.9863
泠	-13.9865
肚	-13.9867
壍	-13.9868
勗	-13.9868
粥	-13.9868
俛	-13.9868
慊	-13.9868
煌	-13.9869
渰	-13.9871
竣	-13.9871
噵	-13.9872
r	-13.9873
島	-13.9873
秩	-13.9874
僥	-13.9874
侗	-13.9875
狡	-13.9875
殯	-13.9875
湻	-13.9875
罹	-13.9876
梢	-13.9876
牌	-13.9876
丐	-13.9877
樁	-13.9877
溷	-13.9877
扁	-13.9878
查	-13.9878
嚝	-13.9878
架	-13.9879
歐	-13.9879
盎	-13.9879
伶	-13.9881
垠	-13.9881
搦	-13.9882
咀	-13.9882
擺	-13.9882
佞	-13.9883
傚	-13.9884
仆	-13.9884
抒	-13.9884
羈	-13.9885
羆	-13.9886
眵	-13.9887
梟	-13.9887
墼	-13.9887
璅	-13.9888
窈	-13.9888
祁	-13.9888
庖	-13.9891
憣	-13.9893
燧	-13.9899
冉	-13.9902
幃	-13.9903
圻	-13.9903
攪	-13.9906
慄	-13.9908
粮	-13.9917
娠	-13.9918
訊	-14.1519
o	-14.1541
珞	-14.1542
芸	-14.1552
瓔	-14.349
叮	-14.3534
纓	-14.3556
䵻	-14.605
恁	-14.9359
詈	-14.9361
蔗	-14.9365
巍	-14.9375
冑	-15.4359
臾	-15.4372
礰	-16.4322
礔	-16.4323
瞌	-16.4324
漕	-16.4325
斵	-16.4326
颯	-16.4327
聒	-16.4328
碼	-16.4329
犲	-16.433
䫂	-16.4331
魁	-16.4332
薔	-16.4333
薇	-16.4334
繽	-16.4335
晡	-16.4336
憺	-16.4337
弶	-16.4338
奬	-16.4339
茵	-16.434
矻	-16.4341
癎	-16.4342
獃	-16.4343
滎	-16.4344
孜	-16.4345
圄	-16.4346
囹	-16.4347
唳	-16.4348
倆	-16.4349
髴	-16.435
閼	-16.4351
瓈	-16.4352
撕	-16.4353
拇	-16.4354
悍	-16.4355
鱍	-16.4356
萊	-16.4357
梏	-16.4358
剞	-16.4359
鵡	-16.436
璸	-16.4361
絺	-16.4362
刖	-16.4363
哮	-16.4364
蝴	-16.4365
紜	-16.4366
擻	-16.4367
惆	-16.4368
悵	-16.4369
琥	-16.437
蠕	-16.4371
靂	-16.4372
霹	-16.4373
螟	-16.4374
蛉	-16.4375
獼	-16.4376
骷	-16.4377
纜	-16.4378
瘖	-16.4379
荔	-16.438
珀	-16.4381
醐	-16.4382
袈	-16.4383
醍	-16.4383
>	-16.4384
璿	-16.4385
幖	-16.4386
僮	-16.4387
崑	-16.4388
婇	-16.4389
寞	-16.439
嚀	-16.4391
芭	-16.4391
瑠	-16.4392
+	-16.4393
閦	-16.4394
[	-16.4395
瑚	-16.4396
逍	-16.4397
窣	-16.4398
匱	-16.4399
琉	-16.44
忉	-16.4401
N	-16.4402
闓	-16.4403
楞	-16.4404
—	-16.4405
|	-16.4406
*	-16.4407
裟	-16.4407
