<unk>	0
<s>	0
</s>	0
之	-3.91202
以	-4.54813
而	-4.81254
其	-4.84879
為	-4.88161
不	-4.92565
也	-4.97683
於	-5.12437
有	-5.16334
曰	-5.2268
者	-5.24497
人	-5.32712
等	-5.37956
王	-5.46961
至	-5.53555
兵	-5.54724
無	-5.61596
大	-5.62235
自	-5.65007
子	-5.66654
臣	-5.69357
與	-5.69554
一	-5.74642
則	-5.75879
使	-5.79903
行	-5.82908
所	-5.8362
將	-5.87967
事	-5.88003
上	-5.89042
州	-5.90873
公	-5.94283
及	-5.9783
在	-6.03174
國	-6.07313
/	-6.07407
軍	-6.08683
于	-6.08713
令	-6.08837
已	-6.10759
乃	-6.12585
又	-6.13004
三	-6.1346
矣	-6.14227
此	-6.15492
言	-6.15977
中	-6.16311
時	-6.17372
今	-6.17794
出	-6.18325
(	-6.19129
皆	-6.20076
可	-6.20224
得	-6.21437
亦	-6.21929
命	-6.22063
城	-6.23405
入	-6.24679
復	-6.24956
知	-6.25298
即	-6.26127
馬	-6.28493
安	-6.30139
道	-6.3068
如	-6.31181
欲	-6.32746
賊	-6.33002
見	-6.34422
民	-6.34776
必	-6.34917
若	-6.35832
二	-6.3713
下	-6.38565
用	-6.38814
故	-6.39105
請	-6.3976
日	-6.40202
相	-6.4172
我	-6.42443
君	-6.4258
死	-6.44169
天	-6.44219
是	-6.4516
爾	-6.46032
名	-6.46467
前	-6.46577
應	-6.46688
非	-6.46688
何	-6.46773
▁	-6.49726
從	-6.51399
生	-6.51718
來	-6.52005
成	-6.5294
遣	-6.5302
乎	-6.53281
遂	-6.53617
内	-6.53754
山	-6.55674
明	-6.57238
當	-6.57287
多	-6.57766
後	-6.60131
歸	-6.60287
未	-6.60357
聞	-6.61159
帝	-6.6193
因	-6.63258
守	-6.63268
立	-6.63757
議	-6.63841
官	-6.63878
南	-6.64254
文	-6.64327
齊	-6.66223
各	-6.66787
能	-6.68057
平	-6.69183
同	-6.69489
先	-6.69627
東	-6.7007
進	-6.7019
奏	-6.70216
四	-6.70584
西	-6.70916
師	-6.72072
)	-6.72559
地	-6.72566
李	-6.73004
殺	-6.73307
分	-6.74225
張	-6.74486
既	-6.74628
五	-6.74694
方	-6.76116
然	-6.7624
且	-6.76339
往	-6.76435
取	-6.77724
士	-6.7777
)(	-6.80308
陳	-6.80423
謂	-6.80461
戰	-6.81169
書	-6.81602
主	-6.82701
或	-6.8296
實	-6.82991
諸	-6.83383
定	-6.83584
正	-6.84496
克	-6.85701
衆	-6.85786
武	-6.86375
攻	-6.87043
秦	-6.87545
不能	-6.88334
門	-6.88652
外	-6.89383
/)	-6.89694
徳	-6.89808
重	-6.90197
去	-6.90314
北	-6.90516
水	-6.9092
吾	-6.90935
降	-6.91966
盡	-6.92
雖	-6.93705
焉	-6.93906
心	-6.94077
不可	-6.94574
朝	-6.95903
爲	-6.95905
陽	-6.96059
處	-6.96477
長	-6.97172
禮	-6.97194
年	-6.98981
楚	-6.99054
著	-6.99136
還	-6.99412
兩	-6.9984
河	-7.00274
力	-7.0054
數	-7.00747
善	-7.00998
周	-7.0161
營	-7.01658
據	-7.01955
通	-7.0255
親	-7.02607
圖	-7.02814
信	-7.03219
發	-7.03292
朕	-7.0393
將軍	-7.04473
世	-7.05688
義	-7.06856
惟	-7.07901
稱	-7.07941
㑹	-7.08062
食	-7.08098
失	-7.08152
金	-7.08211
元	-7.08436
天下	-7.08471
宜	-7.08629
俱	-7.08723
問	-7.09169
居	-7.1014
夫	-7.10317
甚	-7.10409
府	-7.11187
家	-7.12851
由	-7.13044
過	-7.13195
路	-7.14015
謀	-7.14972
宗	-7.15039
始	-7.15155
晉	-7.15432
作	-7.15805
劉	-7.1592
六	-7.162
逺	-7.16283
難	-7.16311
官兵	-7.1641
敵	-7.16729
計	-7.16755
到	-7.17333
受	-7.17524
起	-7.17553
經	-7.17579
氏	-7.17819
小	-7.17933
以為	-7.18185
加	-7.18304
意	-7.18328
都	-7.18329
留	-7.18713
石	-7.18833
和	-7.18911
合	-7.20002
本	-7.2064
漢	-7.20725
海	-7.20838
政	-7.21421
趙	-7.21932
罪	-7.22242
屬	-7.22514
布	-7.22515
敗	-7.22596
恐	-7.22726
告	-7.23084
興	-7.23249
亂	-7.23416
初	-7.23675
特	-7.2368
諭	-7.23847
常	-7.24144
奉	-7.24147
思	-7.24214
伯	-7.24888
治	-7.2501
求	-7.2544
萬	-7.25632
保	-7.25676
侯	-7.26618
詔	-7.26997
口	-7.27251
服	-7.27488
報	-7.2767
尚	-7.27906
身	-7.28392
任	-7.28649
交	-7.28653
阿	-7.29044
法	-7.30856
亡	-7.31027
再	-7.31054
江	-7.31192
並	-7.31424
仍	-7.31484
少	-7.3216
将	-7.33154
濟	-7.33219
功	-7.33255
舉	-7.33794
木	-7.33851
樂	-7.34238
忠	-7.34512
固	-7.34974
致	-7.35299
獲	-7.35912
封	-7.35949
部	-7.36651
易	-7.36832
共	-7.36878
備	-7.36928
髙	-7.385
制	-7.38903
給	-7.39064
鎮	-7.39142
查	-7.39221
次	-7.39348
父	-7.39516
威	-7.39588
利	-7.39615
魏	-7.39913
伐	-7.40034
餘	-7.40296
司	-7.40544
九	-7.41597
退	-7.41902
恩	-7.42133
隨	-7.42482
召	-7.42743
送	-7.43009
土	-7.43132
卒	-7.43452
赴	-7.4354
但	-7.43732
更	-7.43867
省	-7.43918
賜	-7.44028
勝	-7.44167
執	-7.44255
物	-7.44326
聖	-7.44369
首	-7.4441
反	-7.44707
里	-7.44719
回	-7.44995
楊	-7.45384
光	-7.455
巴	-7.4591
德	-7.46355
白	-7.46662
建	-7.46728
寧	-7.46751
止	-7.46823
犯	-7.47188
縣	-7.473
新	-7.4746
近	-7.47469
宋	-7.47537
間	-7.47632
益	-7.47648
田	-7.47788
左	-7.47877
辭	-7.47995
猶	-7.48048
宫	-7.48423
云	-7.48555
車	-7.48575
逆	-7.48599
衛	-7.48675
京	-7.48729
率	-7.48931
夏	-7.49647
陛下	-7.50253
伊	-7.50312
擊	-7.50535
圍	-7.50942
深	-7.51195
鄭	-7.51619
惡	-7.51629
係	-7.51652
勒	-7.51772
百	-7.52018
達	-7.52286
騎	-7.52365
彼	-7.52529
仁	-7.52675
原	-7.53555
辦理	-7.53615
孫	-7.53712
神	-7.54131
直	-7.54133
望	-7.54286
納	-7.5499
伏	-7.55322
黄	-7.55325
大夫	-7.55396
耳	-7.55546
凡	-7.55744
收	-7.55769
賞	-7.56384
延	-7.56858
設	-7.57426
被	-7.5753
追	-7.57957
解	-7.58184
許	-7.58707
度	-7.59135
金人	-7.59441
兵丁	-7.59723
向	-7.60635
承	-7.60918
調	-7.60989
魯	-7.61277
置	-7.61285
好	-7.61437
悉	-7.61583
坐	-7.62296
宣	-7.62319
俟	-7.62418
而不	-7.62451
位	-7.62625
異	-7.62644
全	-7.62864
逃	-7.63289
并	-7.63615
永	-7.637
女	-7.64069
太	-7.64084
開	-7.64186
春	-7.64271
帥	-7.64742
諸侯	-7.65079
領	-7.6529
遇	-7.65298
梁	-7.65348
除	-7.65601
敢	-7.6581
右	-7.65893
走	-7.66207
舊	-7.66466
論	-7.66509
勢	-7.66676
卿	-7.66781
懼	-7.66885
龍	-7.67127
聲	-7.67395
貴	-7.67939
陵	-7.68327
七	-7.68373
動	-7.68546
拜	-7.68806
林	-7.69177
派	-7.69267
不得	-7.69289
視	-7.69376
破	-7.69497
務	-7.69985
糧	-7.70112
賢	-7.70117
期	-7.70448
集	-7.70543
流	-7.70649
傳	-7.71146
順	-7.71289
誠	-7.71502
哉	-7.71834
足	-7.71947
老	-7.72179
疾	-7.72732
廣	-7.72912
清	-7.73041
獻	-7.73069
終	-7.73345
急	-7.73541
地方	-7.73572
屯	-7.73608
汝	-7.73855
撫	-7.73975
節	-7.74303
福	-7.74352
叔	-7.74368
御	-7.74456
察	-7.74849
古	-7.75953
夜	-7.76021
獨	-7.76129
變	-7.76146
願	-7.76808
吳	-7.77022
不敢	-7.77117
理	-7.7715
要	-7.77213
皇	-7.77351
慶	-7.77492
照	-7.77547
權	-7.77579
疑	-7.77692
良	-7.78019
存	-7.78147
氣	-7.78186
八	-7.78377
唐	-7.78431
誅	-7.78834
莫	-7.78928
風	-7.79067
臨	-7.79397
邊	-7.79532
運	-7.80414
韓	-7.80602
辦	-7.80825
語	-7.8084
嚴	-7.80886
色	-7.81129
滅	-7.81844
大臣	-7.81954
夷	-7.82122
約	-7.82455
授	-7.82597
觀	-7.82832
商	-7.83082
迎	-7.83279
烏	-7.83358
引	-7.83361
修	-7.83396
越	-7.83415
仲	-7.8351
哈	-7.83563
燕	-7.83627
㫖	-7.83649
玉	-7.839
祖	-7.84146
豈	-7.84175
情	-7.84211
怒	-7.85071
久	-7.85183
號	-7.8524
弗	-7.85267
月	-7.85314
傷	-7.8534
於是	-7.85607
章	-7.85769
孝	-7.85833
志	-7.86173
棄	-7.86245
朝廷	-7.86445
乗	-7.86597
敬	-7.87306
私	-7.87475
速	-7.87589
就	-7.87832
厚	-7.87848
天子	-7.88026
現在	-7.88461
免	-7.88812
救	-7.88826
火	-7.88979
待	-7.8899
帶	-7.89
郡	-7.89043
是以	-7.89067
徐	-7.89258
害	-7.89359
太子	-7.8948
比	-7.89615
昭	-7.89778
前往	-7.89853
憂	-7.90061
昌	-7.90174
果	-7.90194
教	-7.90198
乘	-7.90285
所以	-7.90534
督	-7.90614
吉	-7.91
絶	-7.91021
素	-7.9145
臺	-7.91475
代	-7.9177
奔	-7.9179
十	-7.91982
甲	-7.92006
兼	-7.92063
愛	-7.92224
登	-7.92455
説	-7.92611
華	-7.92954
移	-7.93534
散	-7.93707
衣	-7.94017
等語	-7.94117
職	-7.94135
乞	-7.94283
罷	-7.9464
盛	-7.94673
討	-7.94734
具	-7.94817
羅	-7.94969
勞	-7.9519
該	-7.95682
旗	-7.95771
委	-7.9626
管	-7.96634
賊匪	-7.96673
禁	-7.97433
申	-7.97446
川	-7.97469
繼	-7.97718
闗	-7.97742
泰	-7.97825
朱	-7.97958
尚書	-7.97998
輕	-7.98025
連	-7.98113
勇	-7.98198
極	-7.98279
聽	-7.98431
史	-7.98634
叛	-7.98843
景	-7.98973
差	-7.99384
業	-7.99912
盟	-7.99961
養	-8.00063
伊等	-8.00081
對曰	-8.00405
嵗	-8.0068
手	-8.00804
可以	-8.01075
便	-8.01287
不知	-8.01357
遣使	-8.01998
蘇	-8.02117
斬	-8.02237
吏	-8.02264
勿	-8.02354
軍營	-8.02398
擒	-8.03049
額	-8.03097
離	-8.03237
二十	-8.03742
載	-8.03837
化	-8.04296
虎	-8.04523
援	-8.0495
弟	-8.04971
征	-8.05034
卜	-8.05162
襲	-8.0526
爵	-8.05287
呼	-8.05335
尊	-8.05441
遺	-8.05846
監	-8.0592
奏言	-8.0621
徒	-8.06213
噶爾丹	-8.06388
改	-8.06469
患	-8.06581
幸	-8.06613
紀	-8.06874
蜀	-8.07102
員	-8.07168
母	-8.07223
博	-8.07333
斯	-8.07437
接	-8.07671
庶	-8.07981
危	-8.08035
刑	-8.0812
郭	-8.08661
學	-8.08745
畏	-8.08904
供	-8.09026
大兵	-8.09062
選	-8.09131
左右	-8.09245
米	-8.09859
須	-8.10018
頭	-8.10096
病	-8.10215
奪	-8.10219
曹	-8.10351
喇	-8.10459
銀	-8.10627
列	-8.10635
别	-8.10712
殿	-8.10869
每	-8.10876
斷	-8.10926
嘉	-8.10989
邪	-8.11069
抵	-8.1116
第	-8.11255
隆	-8.1141
胡	-8.11463
后	-8.11503
廢	-8.11544
呉	-8.11698
持	-8.11918
君子	-8.11995
秋	-8.12088
侵	-8.12091
怨	-8.12329
駐	-8.12463
之人	-8.12484
候	-8.1256
大將軍	-8.12672
統	-8.12713
責	-8.12755
等處	-8.12964
輔	-8.12978
補	-8.13047
黨	-8.13351
孟	-8.13479
體	-8.13608
藏	-8.13615
示	-8.13795
射	-8.14016
台吉	-8.14102
宻	-8.14163
附	-8.14268
雲	-8.14462
器	-8.14594
喜	-8.14754
謂之	-8.14838
慮	-8.14864
結	-8.14976
室	-8.15024
嗣	-8.15282
格	-8.15408
酌	-8.15571
何以	-8.15575
虞	-8.1587
州刺史	-8.1588
對	-8.16082
彦	-8.1611
遷	-8.16112
稍	-8.16555
顧	-8.16573
掠	-8.16721
撥	-8.16899
蔡	-8.1748
招	-8.1769
聞之	-8.17716
澤	-8.17919
目	-8.17951
防	-8.18034
祭	-8.18382
之事	-8.18565
䇿	-8.18634
轉	-8.18635
儀	-8.18867
弱	-8.18966
施	-8.19108
邑	-8.19534
羣	-8.19707
唯	-8.199
機	-8.20109
節度使	-8.20965
什	-8.21152
容	-8.21318
險	-8.21358
負	-8.21598
聚	-8.21688
逐	-8.21797
庫	-8.21867
塞	-8.21948
適	-8.22077
青	-8.22217
嘗	-8.22279
懐	-8.22435
戎	-8.22613
飛	-8.22712
冬	-8.22717
崇	-8.22779
錢	-8.22818
表	-8.22845
囘	-8.22992
厄魯特	-8.23246
千	-8.23383
之所	-8.23501
三月	-8.23565
来	-8.23587
投	-8.23665
星	-8.24047
喪	-8.24071
穆	-8.24373
息	-8.24461
禍	-8.24495
沙	-8.24575
念	-8.24602
才	-8.24767
船	-8.24959
草	-8.25015
資	-8.25542
舍	-8.25637
予	-8.25696
謝	-8.25867
端	-8.25949
三年	-8.25979
如此	-8.26132
均	-8.26358
公子	-8.26475
殺之	-8.26498
牛	-8.26576
高	-8.26594
酒	-8.26734
廟	-8.27001
二月	-8.27262
造	-8.27542
窮	-8.27656
隂	-8.27812
關	-8.27837
富	-8.27923
馬匹	-8.27933
竟	-8.2821
喀爾喀	-8.28257
族	-8.28698
副	-8.28755
恭	-8.28769
支	-8.28859
畢	-8.29202
季	-8.29909
康	-8.29919
廷	-8.2996
之地	-8.29991
美	-8.30303
豫	-8.30387
堅	-8.30439
助	-8.30454
索	-8.30521
說	-8.30728
面	-8.31202
充	-8.3123
會	-8.31742
指	-8.3218
鄉	-8.3254
滿	-8.3262
智	-8.32648
推	-8.3266
振	-8.3269
積	-8.3272
放	-8.32741
匹	-8.32847
費	-8.33343
縱	-8.3355
專	-8.33824
一人	-8.33987
馳	-8.34622
鄂	-8.34735
靈	-8.34801
鼓	-8.34883
朔	-8.34935
屢	-8.35056
役	-8.35354
尋	-8.35355
市	-8.35627
曰吾	-8.35713
賔	-8.35958
百姓	-8.36019
彊	-8.36074
皇帝	-8.36811
詳	-8.36985
野	-8.3709
現	-8.37218
淮	-8.37274
舟	-8.37296
勸	-8.3739
密	-8.37929
曽	-8.38197
境	-8.38347
按	-8.38559
户	-8.38685
拉	-8.38853
遵	-8.38917
顯	-8.38987
半	-8.39142
丁	-8.39299
副都統	-8.39307
傅	-8.397
情形	-8.39743
二人	-8.39856
諸將	-8.39922
徃	-8.4006
雨	-8.40237
雅	-8.40344
强	-8.40464
莊	-8.40495
賊人	-8.40531
渡	-8.40583
榮	-8.40585
太后	-8.40738
工	-8.40931
三十	-8.40953
戒	-8.41109
堂	-8.41312
寛	-8.41353
兮	-8.41622
尤	-8.41674
早	-8.41712
依	-8.41801
侍郎	-8.41806
郎	-8.42196
財	-8.42374
不足	-8.42591
國家	-8.42814
咸	-8.42817
他	-8.42953
侍衛	-8.4298
詣	-8.43007
虚	-8.43103
爭	-8.43392
曲	-8.44207
昔	-8.44426
訓	-8.44551
精	-8.44703
妻	-8.44748
闕	-8.44916
飭	-8.44928
子曰	-8.44963
署	-8.44965
侍	-8.44965
寳	-8.45088
形	-8.45172
竒	-8.45554
范	-8.45621
臣等	-8.45755
駐劄	-8.45759
避	-8.46523
焚	-8.46571
惠	-8.46719
京師	-8.47023
二百	-8.47077
知之	-8.47258
震	-8.47346
記	-8.47581
無所	-8.47586
毋	-8.4767
佐	-8.47681
福康安	-8.4778
之後	-8.47829
似	-8.48052
困	-8.48079
司馬	-8.48087
陷	-8.48105
冦	-8.48303
牧	-8.48307
仰	-8.48323
習	-8.48384
疆	-8.4843
折	-8.48542
䝉	-8.48643
音	-8.48696
竊	-8.48826
升	-8.48868
九月	-8.48883
温	-8.48998
丘	-8.49021
雄	-8.49308
賦	-8.49407
謹	-8.49474
協	-8.49495
宿	-8.49554
者也	-8.49763
否	-8.49983
偽	-8.50111
乆	-8.5026
孤	-8.50326
靖	-8.50339
審	-8.50353
維	-8.5038
貢	-8.50506
六月	-8.506
然後	-8.50657
衞	-8.51027
使人	-8.51028
幾	-8.51032
遁	-8.51258
戍	-8.51331
從之	-8.51487
殷	-8.51682
驚	-8.51786
淵	-8.51834
翼	-8.51849
拒	-8.51947
累	-8.52167
今日	-8.5219
類	-8.52294
提	-8.5239
潰	-8.52392
釋	-8.52493
殊	-8.52649
邦	-8.52685
客	-8.52735
尹	-8.52866
五月	-8.53013
哀	-8.53383
典	-8.53646
赦	-8.53685
擾	-8.53807
誰	-8.5387
戮	-8.54007
具奏	-8.54451
䕶	-8.54464
總	-8.54557
荆	-8.54662
倉	-8.54848
覆	-8.54878
不過	-8.55093
亮	-8.55138
象	-8.55229
羊	-8.55251
桓	-8.56067
國之	-8.56201
甘	-8.56205
英	-8.56551
覺	-8.56613
策	-8.56631
例	-8.56841
杜	-8.56843
允	-8.56843
皇上	-8.56908
之處	-8.56957
兄	-8.56982
游牧	-8.57046
顔	-8.57051
印	-8.5732
襄	-8.57594
二年	-8.5772
爾等	-8.57815
令其	-8.57825
寵	-8.5794
友	-8.58043
疏	-8.58064
其所	-8.58119
洪	-8.58304
簡	-8.58507
略	-8.58624
咨	-8.58734
五十	-8.58829
夀	-8.58901
上諭	-8.58922
羣臣	-8.58962
泉	-8.5924
之時	-8.59256
趨	-8.59294
寨	-8.59558
質	-8.6012
愚	-8.60137
逸	-8.60148
况	-8.60168
元年	-8.60235
准	-8.60286
所有	-8.60448
以來	-8.60475
丹	-8.60618
之兵	-8.60873
性	-8.6092
苦	-8.61119
程	-8.61259
界	-8.61308
十二月	-8.61533
薄	-8.61746
八月	-8.61799
農	-8.61847
羽	-8.61895
揚	-8.62151
魚	-8.62401
効力	-8.62415
蠻	-8.62457
己	-8.62463
違	-8.62601
契丹	-8.62818
頗	-8.62948
也今	-8.63079
獄	-8.63214
隊	-8.63315
倫	-8.63329
項	-8.63365
革	-8.63369
真	-8.6345
房	-8.63594
李侍堯	-8.63609
姓	-8.63713
先是	-8.63777
奏稱	-8.63915
谷	-8.63975
酌量	-8.63981
切	-8.64142
兹	-8.64267
至是	-8.64371
蘭	-8.64503
恃	-8.64564
識	-8.64577
曾	-8.64609
而已	-8.64638
庭	-8.6468
賀	-8.64685
禄	-8.64737
擇	-8.64757
案	-8.65002
番	-8.65033
希	-8.65034
遲	-8.65063
卷	-8.6523
暫	-8.65314
社稷	-8.65368
量	-8.65434
字	-8.65445
祥	-8.65481
孔	-8.65516
休	-8.65537
三百	-8.65542
領兵	-8.65635
俾	-8.65684
貞	-8.65731
豐	-8.6576
駕	-8.65831
籍	-8.66114
徙	-8.66143
祀	-8.66222
余	-8.66226
築	-8.66316
四十	-8.66545
雍	-8.6672
微	-8.66786
常青	-8.66819
飲	-8.66922
決	-8.6726
進兵	-8.67303
䝉古	-8.67681
天下之	-8.6782
太守	-8.67865
檄	-8.67872
禦	-8.68322
阻	-8.68369
干	-8.68579
種	-8.68613
錫	-8.6862
讓	-8.68622
竄	-8.68663
根	-8.6872
赤	-8.68906
巡	-8.68955
預	-8.68963
橋	-8.69046
都督	-8.69282
臺灣	-8.69282
不如	-8.69319
兒	-8.69504
伊犂	-8.69518
壯	-8.69697
一千	-8.69716
而後	-8.69863
優	-8.70185
需	-8.70283
毎	-8.70302
舒	-8.70337
河南	-8.70349
空	-8.70557
藩	-8.70601
假	-8.70948
狀	-8.71019
考	-8.71174
某	-8.7118
蕭	-8.71222
衰	-8.71291
從前	-8.71434
遣人	-8.7144
背	-8.71521
𠞰	-8.71792
(○	-8.71837
二千	-8.71903
寒	-8.7194
郊	-8.71954
垂	-8.72014
暴	-8.72229
懷	-8.72241
姑	-8.72259
一日	-8.72423
誤	-8.72681
奮	-8.72772
妄	-8.72827
哈薩克	-8.72914
之意	-8.73021
吕	-8.73091
至於	-8.73365
戴	-8.73381
諫	-8.73406
漸	-8.73473
貪	-8.73493
冠	-8.73502
刻	-8.73527
起程	-8.7355
與之	-8.73593
總兵	-8.73638
嶺	-8.7394
賞給	-8.74015
肆	-8.74129
䘚	-8.74137
賈	-8.74158
人之	-8.74258
步	-8.74435
諾	-8.74492
屈	-8.74822
欽	-8.74862
巴里坤	-8.7487
哭	-8.74873
慎	-8.74938
僕	-8.75019
詐	-8.75069
横	-8.75261
尸	-8.75281
兄弟	-8.75354
逼	-8.7536
庸	-8.7548
鼎	-8.755
盜	-8.75724
掌	-8.75792
捕	-8.75792
正月	-8.75899
孰	-8.76112
陸	-8.7616
寶	-8.76169
班	-8.76317
中國	-8.7644
軍前	-8.76458
感	-8.76549
决	-8.76702
單	-8.76716
也故	-8.76795
乾	-8.76818
十一月	-8.77004
之心	-8.77158
操	-8.77488
紹	-8.77629
閒	-8.77909
帶兵	-8.77928
旦	-8.78006
辱	-8.78038
拔	-8.78114
上諭軍機大臣曰	-8.78289
訊	-8.78302
宰	-8.78309
逹	-8.78349
婦	-8.78377
惑	-8.78467
提督	-8.78469
沈	-8.78504
茍	-8.78524
奸	-8.78538
勦	-8.78588
為之	-8.78692
帶領	-8.78778
辟	-8.78846
驅	-8.78958
愈	-8.79162
勤	-8.79171
悔	-8.79199
矢	-8.79209
茂	-8.79366
内地	-8.79399
緩	-8.79657
割	-8.79746
湖	-8.79789
尺	-8.8006
不必	-8.80164
詩	-8.80274
律	-8.80293
稽	-8.80507
盧	-8.80611
塔	-8.80873
潛	-8.80946
肅	-8.80983
夏四月	-8.81017
弓	-8.81079
池	-8.81236
厥	-8.81258
缺	-8.81333
術	-8.81414
虜	-8.81503
姦	-8.81561
參	-8.82046
阿睦爾撒納	-8.82085
寡	-8.82142
符	-8.82174
匪	-8.82263
徴	-8.82272
夫人	-8.82331
士卒	-8.82478
寺	-8.82545
事宜	-8.82558
熟	-8.82701
一百	-8.828
冬十月	-8.82966
諸軍	-8.83096
前進	-8.83116
末	-8.83462
引兵	-8.83475
恤	-8.83533
餉	-8.83556
冀	-8.83681
遽	-8.83699
忽	-8.83706
葬	-8.8371
裕	-8.83823
憲	-8.83863
續	-8.83893
三千	-8.83973
孔子	-8.84194
遼	-8.84264
其餘	-8.84339
伍	-8.84411
所謂	-8.84412
總督	-8.84457
耶	-8.84488
湯	-8.84948
増	-8.85089
黙	-8.85233
扎	-8.85243
君之	-8.85461
董	-8.85463
主人	-8.85496
聖人	-8.85702
輿	-8.85707
忘	-8.85758
伯克	-8.85788
最	-8.85931
榖	-8.86059
畧	-8.8644
薩	-8.86485
不從	-8.86761
桓公	-8.86777
募	-8.86892
将軍	-8.86927
此時	-8.86975
之言	-8.86989
阿桂	-8.87
城中	-8.87004
擬	-8.87258
桑	-8.87259
付	-8.87279
整	-8.87403
災	-8.87584
傳諭	-8.87651
僅	-8.87746
用兵	-8.87891
狄	-8.87982
角	-8.88123
玄	-8.88292
戸	-8.88301
席	-8.88419
幣	-8.88667
誘	-8.88749
噶	-8.88942
效	-8.89001
途	-8.89007
薦	-8.89013
倍	-8.8916
敦	-8.8917
練	-8.89347
春秋	-8.89377
貝勒	-8.89468
泣	-8.89565
五百	-8.89646
卑	-8.89649
標	-8.8965
即位	-8.89736
甫	-8.89812
其子	-8.89991
級	-8.90113
之子	-8.90269
衡	-8.9033
雜	-8.90451
勅	-8.9074
樓	-8.90743
添	-8.90822
崔	-8.90967
畨	-8.91049
鳥	-8.91097
歌	-8.91175
知其	-8.912
賊衆	-8.91288
前來	-8.91357
親王	-8.91399
完	-8.91642
秋七月	-8.91822
公曰	-8.91831
指揮	-8.91861
都統	-8.92091
珠	-8.92197
妃	-8.92269
盗	-8.92397
查明	-8.92454
口糧	-8.92565
忌	-8.9257
咎	-8.92856
寡人	-8.92942
旅	-8.93032
併	-8.93044
準噶爾	-8.93076
撃	-8.93192
禹	-8.9333
借	-8.93547
罕	-8.93667
而無	-8.93672
聴	-8.93764
馮	-8.93838
閣	-8.93845
價	-8.93902
將士	-8.94049
御史	-8.9405
俊	-8.94114
逆賊	-8.94327
即行	-8.94421
使者	-8.94436
烈	-8.94436
由是	-8.94443
元帥	-8.94599
循	-8.94694
三日	-8.94753
乏	-8.94814
弊	-8.94862
較	-8.95172
介	-8.95313
科	-8.95365
津	-8.95507
昨	-8.95512
勲	-8.95646
之間	-8.95704
死者	-8.95833
争	-8.95916
寇	-8.95961
河北	-8.95986
究	-8.9627
弘	-8.9672
厲	-8.96787
葉	-8.96816
王曰	-8.96826
録	-8.96845
享	-8.96892
雪	-8.96912
奚	-8.97083
落	-8.97167
尼	-8.97265
刀	-8.97303
辦事	-8.97342
足以	-8.97407
不及	-8.9748
岸	-8.97573
游	-8.97709
屯田	-8.97749
姬	-8.97821
徑	-8.97836
聼	-8.97918
瑪	-8.9793
慰	-8.97986
溝	-8.98099
用之	-8.98164
突	-8.98165
辰	-8.98188
尾	-8.9822
誓	-8.98271
衝	-8.98292
一切	-8.98435
所奏	-8.98453
之罪	-8.98537
看	-8.98596
部落	-8.98759
此次	-8.98783
弼	-8.98817
回人	-8.98837
吴	-8.98845
歡	-8.9892
損	-8.98972
擊之	-8.99375
州縣	-8.99441
牙	-8.99582
霸	-8.9962
綱	-8.9963
奏聞	-8.99837
多爾濟	-8.99862
住	-9.00055
驕	-9.00072
人等	-9.00142
貨	-9.00163
邀	-9.00252
柱	-9.00297
敏	-9.00453
千餘	-9.0048
遊	-9.00504
細	-9.00512
將兵	-9.00595
壁	-9.00607
大學士	-9.00636
殘	-9.00641
鄧	-9.00708
倘	-9.00781
文武	-9.00784
加恩	-9.00854
毛	-9.01025
是日	-9.0126
壘	-9.01308
源	-9.01416
詞	-9.0145
凶	-9.01509
十二	-9.01743
探	-9.01903
飾	-9.02233
毁	-9.02389
超	-9.02644
蓋	-9.02767
曰此	-9.02969
該處	-9.03218
四年	-9.03339
貫	-9.03418
寜	-9.03436
匿	-9.03449
河東	-9.03465
四方	-9.03551
旋	-9.03788
邉	-9.03807
露	-9.03864
者皆	-9.03885
㕘	-9.03887
陜西	-9.03912
籌	-9.03923
綏	-9.03958
校	-9.03987
許之	-9.04099
材	-9.04154
以待	-9.04214
未有	-9.04235
而去	-9.04239
歩	-9.04327
一面	-9.04595
料	-9.04625
曰我	-9.04859
以示	-9.04895
一帶	-9.05055
葢	-9.05116
序	-9.05323
尉	-9.05332
大王	-9.05338
柴大紀	-9.05376
行走	-9.05412
四月	-9.05472
西安	-9.05479
樹	-9.05505
鳴	-9.05751
鹿	-9.05768
淫	-9.06049
百官	-9.06114
賴	-9.0653
丞相	-9.06548
却	-9.06643
也夫	-9.06645
訪	-9.06702
畫	-9.06716
軍中	-9.0701
陣	-9.0703
如何	-9.07105
寸	-9.0712
十萬	-9.0719
踰	-9.07218
犇	-9.07221
十年	-9.07289
院	-9.07331
試	-9.07577
浮	-9.07584
堡	-9.07586
確	-9.07617
天地	-9.07691
亦不	-9.07758
欽定四庫全書	-9.07759
諌	-9.07841
五年	-9.07897
仇	-9.07927
尚未	-9.07929
編	-9.07968
儒	-9.07973
十五	-9.08018
贊	-9.08026
公孫	-9.0812
占	-9.08128
西路	-9.0819
未嘗	-9.08241
岱	-9.08433
靡	-9.08492
五千	-9.08526
距	-9.08528
上下	-9.08555
臧	-9.08649
厯	-9.08707
陜	-9.08739
秀	-9.08784
○	-9.09047
燒	-9.09117
不許	-9.09135
寢	-9.09188
頃	-9.09292
姚	-9.093
有所	-9.09321
藉	-9.09345
驛	-9.09526
城下	-9.09543
閉	-9.09613
旬	-9.09649
百餘	-9.09787
不為	-9.09902
上曰	-9.09914
井	-9.0992
摺	-9.10026
洛	-9.10046
輸	-9.10128
托	-9.10128
規	-9.10149
必有	-9.10157
滿洲	-9.1026
不然	-9.1027
聘	-9.10341
笑	-9.10349
啟	-9.10356
鹽	-9.10367
擁	-9.10536
慈	-9.10536
官員	-9.10549
不勝	-9.10634
大敗	-9.10822
其後	-9.1116
廬	-9.11272
我兵	-9.11288
奏入報聞	-9.11363
人也	-9.11403
扵	-9.11437
六十	-9.11534
晉侯	-9.11649
截	-9.1168
舜	-9.11736
荒	-9.1184
夢	-9.11903
祝	-9.1211
巡撫	-9.12206
彭	-9.1229
堪	-9.1238
汗	-9.12445
趣	-9.12451
血	-9.12545
太祖	-9.1264
脱	-9.12799
之士	-9.12822
胥	-9.12871
撤	-9.12895
曉諭	-9.12905
袁	-9.13119
十餘	-9.13169
鳯	-9.13233
柔	-9.13249
珍	-9.13391
進𠞰	-9.13394
事務	-9.13396
罰	-9.13577
前鋒	-9.13779
壽	-9.14078
臺站	-9.14357
捐	-9.14391
穀	-9.14393
幽	-9.14447
竭	-9.14544
妻子	-9.14698
掩	-9.14727
貧	-9.14731
長安	-9.14808
夕	-9.14872
率兵	-9.1491
勉	-9.14987
有司	-9.14996
周公	-9.15006
奏請	-9.15085
辨	-9.15242
浙	-9.15247
七十	-9.15298
社	-9.15324
是時	-9.15339
饑	-9.1541
屋	-9.15424
奮勇	-9.15549
刺	-9.15666
副將	-9.15668
禀	-9.15741
妾	-9.15826
之道	-9.15893
岳	-9.15951
減	-9.16096
男	-9.16164
䧟	-9.16183
羌	-9.16291
恒	-9.16384
打	-9.16473
采	-9.16497
痛	-9.16529
於此	-9.16533
閩	-9.16565
隻	-9.16565
渠	-9.16603
宴	-9.16707
耕	-9.16731
義民	-9.168
詢	-9.16844
弑	-9.16852
恨	-9.16857
數萬	-9.16865
中書	-9.1696
亟	-9.1698
買	-9.16983
秦王	-9.17097
而行	-9.17161
宰相	-9.17174
陸續	-9.17192
竹	-9.17218
畜	-9.17282
人心	-9.17329
彌	-9.17425
鍾	-9.175
啓	-9.17508
隴	-9.17613
憤	-9.17619
静	-9.17633
村	-9.17681
之計	-9.17733
祐	-9.17748
黎	-9.17835
薛	-9.18002
呈	-9.18016
俘	-9.18299
十月	-9.18357
注	-9.18379
奈何	-9.18382
皮	-9.18507
賂	-9.18509
僧	-9.18545
防守	-9.18645
徵	-9.18663
階	-9.18708
松	-9.18785
諸羅	-9.18816
縁	-9.18931
傾	-9.19008
官軍	-9.19016
宰桑	-9.19034
扎薩克	-9.19306
太原	-9.19371
父母	-9.19503
堯	-9.19504
齊侯	-9.1953
基	-9.19693
其衆	-9.1982
擒獲	-9.19821
正法	-9.19916
配	-9.20105
一路	-9.20182
子孫	-9.202
降㫖	-9.20286
千里	-9.20309
導	-9.20374
山東	-9.20382
拘	-9.20543
以致	-9.20584
發兵	-9.20613
斬之	-9.20698
沿	-9.20873
史記	-9.21036
削	-9.21204
浚	-9.21243
以其	-9.21469
恥	-9.2156
未可	-9.21607
賤	-9.21622
㑹同	-9.21632
䕶軍	-9.21651
酋	-9.218
隠	-9.21831
舞	-9.21862
貳	-9.22111
遜	-9.2212
小人	-9.22123
崩	-9.22276
剛	-9.22288
二萬	-9.2232
叅	-9.22458
捷	-9.22503
辛	-9.22665
無不	-9.2282
姜	-9.22858
専	-9.22904
俗	-9.23068
抑	-9.23114
殆	-9.23223
旺	-9.23262
四川	-9.23346
徽	-9.2341
裁	-9.23489
謙	-9.23491
沒	-9.23558
脅	-9.23594
父子	-9.23606
萬人	-9.23639
躬	-9.23694
中外	-9.23808
增	-9.23832
淮南	-9.23878
曰今	-9.2388
砲	-9.23983
粟	-9.24278
剿	-9.24392
是故	-9.24398
歲	-9.24405
潜	-9.24685
六年	-9.24714
莽	-9.24837
吐蕃	-9.24847
所屬	-9.24894
之故	-9.24937
蔽	-9.24946
子之	-9.25
歴	-9.25058
未能	-9.25073
鋒	-9.25081
効	-9.25218
頓	-9.25234
兩路	-9.253
貽	-9.25304
何也	-9.25347
攸	-9.25388
文王	-9.25432
巢	-9.25494
擅	-9.25506
其言	-9.256
盤	-9.25666
環	-9.25893
昏	-9.25901
扎卜	-9.25923
而還	-9.25941
數千	-9.26052
七年	-9.26153
皇后	-9.26227
嵩	-9.2644
囚	-9.265
偏	-9.26524
奮勉	-9.26559
京城	-9.26586
嬰	-9.26592
有餘	-9.26627
丕	-9.26657
武王	-9.26683
惜	-9.26722
金川	-9.26749
不肯	-9.26788
舎	-9.26851
盖	-9.26873
盈	-9.26883
有功	-9.26925
不可以	-9.26994
突厥	-9.27003
繫	-9.27097
數百	-9.27167
旁	-9.27215
妥	-9.27474
雲南	-9.27524
以此	-9.27671
七月	-9.27696
履	-9.27866
閲	-9.27899
黒	-9.2792
輒	-9.27966
條	-9.27981
言於	-9.28192
内外	-9.28213
韋	-9.28217
赫	-9.2835
總管	-9.28361
戈	-9.28362
北路	-9.28367
鎗	-9.28383
之衆	-9.28394
猛	-9.28424
欺	-9.28497
總兵官	-9.28934
拏	-9.28962
鮮	-9.28987
其罪	-9.28997
貶	-9.29054
眷	-9.29056
鄰	-9.29138
百里	-9.29217
貯	-9.29264
戚	-9.29276
之功	-9.29284
一員	-9.2931
札	-9.29323
甚多	-9.29388
來京	-9.29554
不可不	-9.29606
道路	-9.29643
陶	-9.29648
肉	-9.29717
邾	-9.2983
索倫	-9.29964
純	-9.30001
茶	-9.30162
帛	-9.30306
□	-9.30366
品	-9.30377
千餘人	-9.30404
平定	-9.30419
卡倫	-9.30455
謁	-9.30487
忍	-9.30494
斃	-9.30569
至于	-9.30578
斗	-9.30643
敕	-9.30651
㨗	-9.30657
人皆	-9.30847
宮	-9.30858
述	-9.30926
渾	-9.30929
懇	-9.31077
晏子	-9.31111
骨	-9.31153
之外	-9.31238
莒	-9.31244
墨	-9.31288
煩	-9.31304
洞	-9.31408
以下	-9.31426
藥	-9.31637
大軍	-9.31661
奴	-9.31675
蕩	-9.3171
仗	-9.31821
側	-9.31928
喇嘛	-9.32039
貿易	-9.32126
算	-9.32161
破之	-9.32355
副使	-9.32377
答	-9.32396
察哈爾	-9.32459
再行	-9.3249
懲	-9.32545
講	-9.3266
傑	-9.32703
祿	-9.32705
入城	-9.32727
進攻	-9.32756
兵馬	-9.32855
麟	-9.3298
我等	-9.33144
従	-9.33188
上言	-9.33241
坦	-9.33248
溪	-9.33255
百餘人	-9.33364
圗	-9.33394
洋	-9.33416
逮	-9.3349
厭	-9.33518
雷	-9.33527
催	-9.33554
舒赫徳	-9.33623
束	-9.3372
粤	-9.33725
以爲	-9.33911
遠	-9.3393
歳	-9.3405
鄙	-9.34056
者不	-9.34156
宗廟	-9.34187
託	-9.34191
統領	-9.34331
統制	-9.34374
四百	-9.34459
駐防	-9.34686
曰君	-9.34712
劒	-9.34729
鐵	-9.34764
也其	-9.34798
不復	-9.34958
卡	-9.34961
前後	-9.34965
覽	-9.35142
站	-9.3516
館	-9.35258
解送	-9.35364
以備	-9.35377
普	-9.35387
包	-9.35395
底	-9.35438
䘏	-9.35553
齒	-9.35666
兆	-9.35716
績	-9.3572
甚屬	-9.3583
眀	-9.35942
莫不	-9.35953
然則	-9.36065
沿途	-9.36124
肯	-9.36266
孔子曰	-9.36278
守備	-9.36295
龜	-9.36412
江南	-9.36454
紂	-9.36519
蒲	-9.36703
浩	-9.3674
那	-9.36744
幼	-9.36751
限	-9.36752
停	-9.36829
斥	-9.36871
大事	-9.36943
悦	-9.37017
八年	-9.37039
擢	-9.37127
奇	-9.37158
汴	-9.37556
輩	-9.37565
帳	-9.37708
扶	-9.37832
禮也	-9.37923
著傳諭	-9.37938
𤣥	-9.37975
得其	-9.37975
一萬	-9.37995
㡬	-9.37997
十六	-9.38012
夫子	-9.38056
不聽	-9.38059
庄	-9.38143
陞	-9.3817
狐	-9.38279
分兵	-9.38316
兵力	-9.38421
悞	-9.3843
兆惠	-9.38638
弁	-9.38661
騰	-9.38688
繁	-9.38708
禪	-9.38718
激	-9.38805
僚	-9.38807
隙	-9.38836
秉	-9.38862
殱	-9.38924
烏魯木齊	-9.3898
祚	-9.39069
分别	-9.39072
狼	-9.39237
並無	-9.39242
之日	-9.39274
萬餘	-9.39401
寄	-9.3952
冒	-9.3956
軍務	-9.39577
鋭	-9.39637
林爽文	-9.39656
萬物	-9.39661
肥	-9.39677
來降	-9.39746
所在	-9.39801
辯	-9.3982
不用	-9.39903
輝	-9.39958
卓	-9.39978
奠	-9.40019
返	-9.40114
短	-9.40122
明日	-9.40136
隘	-9.40139
中原	-9.40188
建康	-9.40213
朗	-9.40214
鳳	-9.40239
江西	-9.40244
君臣	-9.40438
成都	-9.40446
荀	-9.40513
陰	-9.40595
閔	-9.40741
言之	-9.41056
隱	-9.41092
押	-9.41123
創	-9.41226
恵	-9.41234
産	-9.41246
民之	-9.41263
不至	-9.41308
洗	-9.41335
數十	-9.41349
可謂	-9.41407
衍	-9.41419
疲	-9.41637
熊	-9.41808
奏報	-9.4181
糧餉	-9.41829
不見	-9.41895
臯	-9.41947
何如	-9.42005
班第	-9.42077
讀	-9.4209
収	-9.42122
杖	-9.42225
上書	-9.42252
核	-9.42462
不忍	-9.42528
十一年	-9.42539
單于	-9.42554
帯	-9.42631
錯	-9.42665
仙	-9.4267
故曰	-9.42734
瓦	-9.42787
同日	-9.42832
可汗	-9.42921
匈奴	-9.42953
誣	-9.42956
兵部	-9.43058
烏梁海	-9.43106
不出	-9.43211
郡王	-9.43414
學士	-9.43537
書曰	-9.43544
值	-9.43581
往來	-9.43709
徹	-9.43719
駝	-9.43756
既而	-9.43757
灋	-9.43779
三萬	-9.43785
霍	-9.43829
宏	-9.43937
牲	-9.43976
寧夏	-9.44
西北	-9.4409
展	-9.44102
牢	-9.44151
自應	-9.44514
獸	-9.44529
楚子	-9.44549
成功	-9.44619
釁	-9.44724
居住	-9.44736
所請	-9.4484
刼	-9.44847
幹	-9.44864
翟	-9.4488
宇	-9.45
拏獲	-9.45075
滋	-9.45188
十八	-9.45206
六百	-9.45374
潘	-9.4548
授為	-9.4548
尚有	-9.45564
瞻	-9.45608
晏	-9.45802
粮	-9.45823
尼堪	-9.45874
祠	-9.45908
葉爾羌	-9.45915
之際	-9.4593
倚	-9.46004
沮	-9.46013
雖有	-9.46065
懸	-9.46079
數日	-9.46149
豆	-9.46331
瑞	-9.46446
深入	-9.46515
阿克蘇	-9.4652
氏之	-9.46582
懿	-9.46645
其事	-9.46769
測	-9.46829
曰臣	-9.46886
銀兩	-9.46927
打仗	-9.46985
不免	-9.46996
賑	-9.47185
一時	-9.47256
為人	-9.47288
侍中	-9.47323
前赴	-9.47325
十有	-9.47373
殺賊	-9.4738
宥	-9.47585
台	-9.47658
属	-9.47676
屠	-9.47698
勵	-9.47735
軍士	-9.47848
罔	-9.47898
不若	-9.47902
鐘	-9.48195
虐	-9.48285
頒	-9.48297
亦有	-9.48309
毒	-9.48312
偃	-9.48313
文公	-9.48336
四千	-9.48341
儉	-9.48451
諒	-9.48474
脩	-9.48482
哲	-9.48499
鄴	-9.48521
不與	-9.48545
亦可	-9.48572
綽	-9.48607
麻	-9.4861
鎭	-9.48657
只	-9.48696
機宜	-9.48828
先君	-9.48842
三人	-9.49114
詩曰	-9.49256
若不	-9.49264
侍衞	-9.4931
佐領	-9.49319
蕃	-9.49375
四人	-9.49383
丈	-9.4944
將來	-9.49466
而死	-9.4952
政事	-9.49529
糾	-9.49611
迅速	-9.4993
儲	-9.50013
汪	-9.50025
巴圖魯	-9.50078
察罕	-9.50124
憚	-9.50202
觧	-9.50264
哈密	-9.5029
漳	-9.50435
等奏	-9.50452
一體	-9.5065
噶爾	-9.50677
随	-9.50702
各處	-9.50727
豈可	-9.50791
附近	-9.50836
明瑞	-9.50903
如是	-9.50952
斂	-9.50957
璋	-9.5109
彰	-9.51149
所部	-9.51355
大小	-9.51406
迫	-9.51445
況	-9.51465
邦昌	-9.51597
隔	-9.51641
燕王	-9.51666
青海	-9.51714
護	-9.51891
瑾	-9.51899
式	-9.51943
帥師	-9.5195
軍機大臣	-9.51973
十七	-9.52012
另	-9.52023
暇	-9.52081
鑒	-9.52084
固守	-9.52149
齎	-9.52212
箭	-9.52237
取之	-9.52271
調遣	-9.52279
零	-9.52425
欲以	-9.52479
鄭伯	-9.52559
閭	-9.52563
洛陽	-9.52571
治罪	-9.52684
夾	-9.52714
九年	-9.52736
狂	-9.52748
睿	-9.52872
之禮	-9.52953
自成	-9.53021
曠	-9.53037
璧	-9.53058
欵	-9.53063
之役	-9.53328
巧	-9.53549
冊	-9.53551
並未	-9.53558
八百	-9.53572
鹿仔港	-9.5384
旱	-9.54018
抗	-9.54151
寡君	-9.54247
靣	-9.54373
曰子	-9.544
祖宗	-9.54407
漢中	-9.54427
裴	-9.54482
安撫	-9.545
不相	-9.54529
欒	-9.54634
軌	-9.54668
然而	-9.54674
祗	-9.54719
策凌	-9.54977
賫	-9.54994
桀	-9.55023
北面	-9.55095
行在	-9.55116
遭	-9.55171
攝	-9.55172
瓊	-9.55298
晋	-9.55313
大國	-9.55321
受命	-9.55374
曰朕	-9.55383
偹	-9.55425
亨	-9.55436
俄	-9.55613
不足以	-9.55787
婦人	-9.55791
遵㫖	-9.55803
詰	-9.55811
廵	-9.55924
虛	-9.56011
公主	-9.56052
楚王	-9.5608
塗	-9.56313
醜	-9.56378
同知	-9.56422
牽	-9.56466
防範	-9.56595
逢	-9.56606
警	-9.56619
東南	-9.56664
花	-9.5668
屏	-9.56957
播	-9.56977
狡	-9.57005
不言	-9.57056
諱	-9.57133
旌	-9.57155
出力	-9.57191
昆	-9.57273
八十	-9.57301
給與	-9.57307
涉	-9.57497
勘	-9.57528
了	-9.57562
銜	-9.57584
朋	-9.57635
賣	-9.57672
碉	-9.57761
上皇	-9.57838
十五年	-9.57872
阿逆	-9.57922
子産	-9.5801
甘肅	-9.58031
太平	-9.58257
不行	-9.58284
之謂	-9.58444
郤	-9.58476
越王	-9.58478
自是	-9.58526
之勢	-9.58553
此等	-9.58637
十餘人	-9.5876
之師	-9.58967
翰	-9.58983
内大臣	-9.59182
使臣	-9.59233
晟	-9.59325
可得	-9.59337
派兵	-9.59345
枝	-9.59354
皇太后	-9.59365
雅爾哈善	-9.59396
腹	-9.59431
以告	-9.59439
暮	-9.59541
臨清	-9.59574
其地	-9.59624
陣亡	-9.59689
叙	-9.59717
荆州	-9.59727
魏主	-9.59752
豈不	-9.59781
蒙	-9.59852
千人	-9.59867
即令	-9.59894
午	-9.59972
悟	-9.60015
舒赫德	-9.60053
國人	-9.60123
郎中	-9.60155
諭㫖	-9.60158
駭	-9.60195
弔	-9.60223
先生	-9.60344
宅	-9.60389
南北	-9.60464
也若	-9.60468
㓂	-9.60537
諸王	-9.60543
一併	-9.60665
文子	-9.60785
留守	-9.60835
錢糧	-9.60933
謨	-9.60948
疎	-9.6096
可嘉	-9.61043
丞	-9.61119
泥	-9.6124
輙	-9.61245
範	-9.61254
曰善	-9.6129
甘省	-9.6134
挾	-9.61388
犬	-9.61396
䘮	-9.61434
融	-9.61456
鴻	-9.61456
又有	-9.61473
太尉	-9.61489
桂	-9.61531
之民	-9.61718
麥	-9.61759
兆恵	-9.6183
健	-9.61948
大臣等	-9.62041
管仲	-9.6206
劾	-9.62109
以聞	-9.62112
預備	-9.62135
十六年	-9.62139
十里	-9.6215
渡河	-9.62171
加意	-9.62173
澄	-9.62269
入朝	-9.6229
贈	-9.62462
長史	-9.62595
育	-9.62646
恱	-9.62654
旣	-9.62675
以上	-9.62697
不同	-9.62777
一名	-9.62883
明年	-9.62924
縛	-9.62993
行文	-9.62997
悲	-9.63017
凌	-9.63163
人主	-9.63175
巨	-9.63179
相與	-9.6319
賚	-9.63322
扼	-9.63345
夘	-9.6336
遣兵	-9.63414
亭	-9.63421
敖	-9.63523
疋	-9.63541
至此	-9.63579
忠義	-9.63583
二三	-9.63597
成衮扎布	-9.63616
諸路	-9.63708
斬首	-9.63789
故也	-9.63881
賽	-9.63903
此事	-9.63943
而歸	-9.63958
閏	-9.6404
不得已	-9.64105
鼔	-9.64257
轄	-9.64259
禽	-9.64277
披	-9.64428
攻之	-9.64438
塘	-9.64468
賛	-9.64476
之上	-9.64563
司徒	-9.64567
出兵	-9.64579
囘人	-9.64665
不克	-9.64732
耿	-9.64812
帝曰	-9.64881
者何	-9.64962
曉	-9.65084
佛	-9.6516
鬼	-9.6516
無以	-9.65185
接濟	-9.65196
峻	-9.65209
濠	-9.6528
襄陽	-9.6528
苑	-9.65308
兖	-9.65418
渭	-9.6544
讎	-9.65515
相機	-9.6555
晉人	-9.65557
子弟	-9.6561
不利	-9.65704
肅州	-9.65832
黜	-9.65894
踐	-9.65914
裝	-9.6594
十三	-9.65983
駐兵	-9.66041
邢	-9.66061
毅	-9.66244
碩	-9.66327
郢	-9.66447
麗	-9.66523
荷	-9.66638
二子	-9.66684
晝夜	-9.66707
十三年	-9.66802
來歸	-9.66853
軍需	-9.66927
救之	-9.66995
昇	-9.66996
抱	-9.67023
園	-9.67023
言曰	-9.67048
大破之	-9.67128
十二年	-9.67133
苗	-9.67165
何為	-9.67252
𦂳要	-9.67301
霍集占	-9.67373
怯	-9.674
達賴喇嘛	-9.67503
祁	-9.67533
器械	-9.6762
出入	-9.67663
妥協	-9.67674
中軍	-9.67736
匡	-9.67781
率衆	-9.67917
巴爾	-9.68031
㧞	-9.68116
等皆	-9.68266
而出	-9.6846
叔孫	-9.68496
怠	-9.68524
秋八月	-9.68677
觀之	-9.68804
理藩院	-9.68805
進取	-9.68967
軍民	-9.6901
攻城	-9.69043
日月	-9.69082
譽	-9.69114
可也	-9.69154
扈	-9.69237
古之	-9.69241
葛	-9.69292
者必	-9.69346
車駕	-9.69367
熈	-9.69388
事宜上諭軍機大臣曰	-9.69389
珪	-9.69396
巫	-9.69414
大同	-9.69561
四海	-9.69593
諸侯之	-9.69621
紅	-9.69635
矜	-9.69638
沁	-9.69652
著加恩	-9.69672
數人	-9.69707
乾隆	-9.69729
其家	-9.69794
荘	-9.6983
薨	-9.69838
也而	-9.6991
討之	-9.69932
㠯	-9.69942
豹	-9.69999
雞	-9.70003
敷	-9.70119
萬一	-9.70127
之數	-9.70212
先帝	-9.70247
岳鍾琪	-9.70259
馬駝	-9.70391
已經	-9.70395
昧	-9.70426
税	-9.70433
特穆爾	-9.70471
勾	-9.70694
寅	-9.70738
誨	-9.70756
邵	-9.70772
之義	-9.7083
難以	-9.70866
讐	-9.70919
投誠	-9.70997
亦無	-9.71078
精兵	-9.71122
門外	-9.7113
遊擊	-9.71158
革職	-9.71162
山西	-9.71194
銷	-9.71204
十四年	-9.71285
而立	-9.71315
樊	-9.71357
緒	-9.71395
中山	-9.71556
僉	-9.71729
泗	-9.71742
挑	-9.7178
喀什噶爾	-9.71933
都御史	-9.71993
訥	-9.72033
幕	-9.72141
檢	-9.72144
守禦	-9.72269
督撫	-9.72413
誅之	-9.7256
着	-9.72576
奏入得㫖	-9.72701
祈	-9.72703
不受	-9.72784
及其	-9.72815
竣	-9.72822
詭	-9.72923
吐魯番	-9.72926
家口	-9.7294
上命	-9.72973
喀	-9.73031
獵	-9.73056
五日	-9.73068
樞	-9.7326
準	-9.73261
把	-9.73295
貸	-9.73321
揖	-9.73397
張廣泗	-9.73427
柄	-9.73475
掃	-9.73528
倡	-9.73693
未必	-9.73816
詢問	-9.73839
徇	-9.73849
童	-9.73888
楞	-9.73907
頂	-9.74145
齊人	-9.74171
黑	-9.74298
稷	-9.74298
不以	-9.74495
之法	-9.74709
垣	-9.7475
之中	-9.74856
排	-9.7487
其弟	-9.74901
與其	-9.7509
脫	-9.75109
伊犁	-9.75153
俱著	-9.75236
西南	-9.75273
鈞	-9.75278
之初	-9.75279
窺	-9.75284
黔	-9.75302
座	-9.75343
甚衆	-9.75393
歸化城	-9.75406
王倫	-9.75422
該督	-9.75426
段	-9.75482
贖	-9.75493
饗	-9.75501
撲	-9.75598
劫	-9.75699
其人	-9.75734
先王	-9.75743
篇	-9.75749
礮	-9.75831
乙	-9.75924
濬	-9.76083
闔	-9.76085
兵一千	-9.76207
五萬	-9.76293
溺	-9.76297
恣	-9.76486
銳	-9.76493
利害	-9.76546
屬人	-9.76637
無可	-9.76742
貝子	-9.76781
鮑	-9.76875
被賊	-9.76935
𣲖	-9.77025
味	-9.77062
其國	-9.77183
就近	-9.77184
㫁	-9.77192
𨽻	-9.77234
涼	-9.77237
安插	-9.77299
竇	-9.773
攜	-9.77311
阿爾	-9.77331
薩喇爾	-9.77358
綂	-9.77477
醫	-9.77512
邇	-9.77516
七百	-9.77553
刃	-9.7771
十五日	-9.77731
栁	-9.77743
妖	-9.77747
跡	-9.77802
王子	-9.77816
摩	-9.77899
節度	-9.78014
遥	-9.78017
一旦	-9.78032
凉	-9.78057
慕	-9.78072
恪	-9.78103
瑚	-9.78165
奢	-9.78292
矯	-9.7831
豪	-9.78328
没	-9.78333
斌	-9.78335
嗣後	-9.78494
甲子	-9.78542
㣲	-9.78567
租	-9.7857
翁	-9.78587
不致	-9.7865
之利	-9.7866
甸	-9.78713
鬬	-9.7876
皇太子	-9.7888
藍	-9.78937
以兵	-9.78941
偷	-9.7902
扣	-9.7908
誕	-9.79167
庻	-9.79184
大功	-9.79196
械	-9.79204
港	-9.79272
公羊傳	-9.79387
其心	-9.79397
烏什	-9.79437
兵一千名	-9.7954
滿兵	-9.7954
獻忠	-9.79549
之子也	-9.79561
給事中	-9.79594
自古	-9.79687
饒	-9.7979
榜	-9.79801
含	-9.79808
刑部	-9.79809
緑	-9.79816
鑄	-9.79831
曰昔	-9.79997
頭目	-9.80001
宣子	-9.8001
睦	-9.80016
長沙	-9.80048
之國	-9.80053
諸臣	-9.80094
則不	-9.80097
業經	-9.80223
者亦	-9.80235
爰	-9.80237
蓄	-9.80283
虢	-9.80298
靜	-9.803
搶掠	-9.80302
晚	-9.80449
大怒	-9.80609
換	-9.80627
不欲	-9.80665
再拜	-9.80731
諸處	-9.80762
仕	-9.80815
之所以	-9.80871
欣	-9.80879
悖	-9.80888
其黨	-9.80967
勃	-9.81176
渡江	-9.81249
敝	-9.81265
括	-9.81291
奏入上從之	-9.81306
競	-9.81324
未至	-9.81365
緝	-9.81402
十七年	-9.81415
頼	-9.81511
布魯特	-9.8154
左傳	-9.81549
入覲	-9.81596
之徒	-9.81602
成王	-9.8169
侈	-9.81714
大金	-9.81731
恕	-9.81742
跪	-9.81917
植	-9.81943
斤	-9.81958
涇	-9.82141
訖	-9.82152
不敷	-9.82154
裏	-9.82186
起兵	-9.82242
也且	-9.82247
派出	-9.82343
不便	-9.82343
速行	-9.8236
皆有	-9.82365
十餘萬	-9.82433
金主	-9.82465
堵截	-9.82469
偕	-9.82539
夥	-9.82539
宗室	-9.82586
百萬	-9.8263
萬餘人	-9.82786
防禦	-9.82792
驗	-9.82867
其中	-9.82873
寔	-9.82929
滋事	-9.82948
請以	-9.8311
請㫖	-9.8312
查辦	-9.8317
者以	-9.832
乃止	-9.83243
齊王	-9.83303
爽	-9.83322
代之	-9.83436
之語	-9.83609
為一	-9.83636
篤	-9.83668
僖	-9.83669
未知	-9.83677
達瓦齊	-9.83686
即可	-9.83827
舅	-9.83846
拒之	-9.83902
㕘贊大臣	-9.8393
校尉	-9.83932
蒼	-9.84113
壊	-9.84114
奏曰	-9.84126
努	-9.84146
玩	-9.84149
堵	-9.84171
南路	-9.84232
撤回	-9.84255
各路	-9.84292
筆	-9.843
檀	-9.84328
楚人	-9.8434
數年	-9.8435
門下	-9.84402
一年	-9.84451
進勦	-9.84507
克圖	-9.84524
是也	-9.84545
逆匪	-9.84648
二十餘	-9.84705
眞	-9.84733
前去	-9.84795
之例	-9.84833
戰於	-9.84875
沛	-9.84929
墮	-9.8494
副將軍	-9.84969
蒙古	-9.84988
帑	-9.85015
惶	-9.85024
想	-9.85025
費揚古	-9.85142
司空	-9.85158
何不	-9.8521
繩	-9.85257
不肖	-9.85334
行至	-9.85344
十九	-9.85364
府城	-9.85392
勁	-9.85425
永貴	-9.85442
東西	-9.85448
又曰	-9.85461
見之	-9.85475
迹	-9.85506
景公	-9.85622
錡	-9.85623
聰	-9.85659
區	-9.85678
之患	-9.85729
之理	-9.85784
人情	-9.85845
十一	-9.85846
章京	-9.85878
藝	-9.8589
採	-9.8589
淺	-9.85914
之禍	-9.85998
令尹	-9.86067
鬭	-9.86097
賊勢	-9.86106
滑	-9.86112
壤	-9.86128
偉	-9.86151
冐	-9.86234
罵	-9.86291
據實	-9.86304
户部	-9.86332
屬下	-9.86529
忿	-9.86552
以資	-9.86642
之用	-9.86677
紫	-9.86741
夏五月	-9.86764
即將	-9.86777
貝	-9.86821
潮	-9.86865
内有	-9.86916
定議	-9.86968
鼐	-9.86977
絳	-9.86979
招撫	-9.87037
籌畫	-9.87094
暉	-9.87183
𢎞	-9.87196
艱	-9.87196
香	-9.87221
各營	-9.87226
隅	-9.8727
未經	-9.87347
舉兵	-9.87361
西寧	-9.87398
逞	-9.87481
擒拏	-9.87581
劄	-9.87687
璽	-9.87698
太宗	-9.8774
籌辦	-9.87748
敗之	-9.8776
形勢	-9.87773
臣聞	-9.87819
河西	-9.87833
壇	-9.87914
波	-9.87942
渉	-9.87948
又以	-9.87986
汛	-9.88003
者有	-9.88056
家屬	-9.88062
是謂	-9.88098
辜	-9.88195
燕山	-9.88307
無事	-9.88362
之信	-9.88372
其君	-9.8838
廣東	-9.88391
佞	-9.88392
帥衆	-9.88409
官吏	-9.88462
域	-9.88479
安石	-9.88481
逃竄	-9.88565
強	-9.8858
淳	-9.88588
士民	-9.8865
自當	-9.88654
魁	-9.88662
民人	-9.88684
藍元枚	-9.88714
願陛下	-9.88827
其民	-9.88908
緑旗兵	-9.88923
照例	-9.89023
俱係	-9.8907
人員	-9.89097
奉㫖	-9.89143
俯	-9.89296
控	-9.89312
蟲	-9.8934
乃以	-9.89386
歎	-9.8942
尚可	-9.89438
秩	-9.89515
憫	-9.89535
而來	-9.89642
羞	-9.89746
穴	-9.89763
巳	-9.89796
輯	-9.89805
拿	-9.89826
𫝊諭	-9.89845
曰汝	-9.89871
傳曰	-9.89885
叔向	-9.89919
約束	-9.90042
襄公	-9.90136
隋	-9.90227
牌	-9.90243
僕射	-9.90255
其身	-9.90316
之謀	-9.9035
豈有	-9.90421
戾	-9.90465
俸	-9.90476
恒瑞	-9.90601
上年	-9.90656
守之	-9.90673
歛	-9.90681
臂	-9.90696
烏里雅蘇台	-9.90715
怪	-9.90723
湖南	-9.90794
相繼	-9.90828
追之	-9.90896
牲隻	-9.9094
稍有	-9.91151
庚	-9.91242
炎	-9.913
相見	-9.9131
兵二千	-9.91395
芳	-9.91417
應行	-9.91461
止之	-9.91463
扎爾	-9.91482
運米	-9.9149
湘	-9.91494
督率	-9.91528
郡縣	-9.91541
十四	-9.91611
裔	-9.91621
鉞	-9.91627
髪	-9.91633
柵	-9.91666
暑	-9.91698
所得	-9.91719
檜	-9.91757
福建	-9.91866
閻	-9.91868
鐸	-9.91877
子胥	-9.91885
製	-9.91897
全忠	-9.9192
作亂	-9.92032
徼	-9.92065
賄	-9.92077
墓	-9.92077
它	-9.92091
額駙	-9.92094
曰夫	-9.92292
誥	-9.92337
題	-9.92386
地方官	-9.92435
世子	-9.92464
都尉	-9.92519
衷	-9.92608
騾	-9.92638
趙王	-9.9272
趕	-9.92729
艾	-9.92742
我師	-9.92759
王室	-9.92787
生靈	-9.92852
而下	-9.92854
金國	-9.93
錦	-9.93005
生擒	-9.93034
巖	-9.93048
鑿	-9.93057
浦	-9.9309
天之	-9.93097
莫敢	-9.93202
等俱	-9.93211
滋擾	-9.9325
問之	-9.9331
混	-9.93321
繕	-9.9335
富徳	-9.93405
不失	-9.93456
普吉保	-9.93459
億	-9.93537
自稱	-9.93578
矣今	-9.93599
漏	-9.93605
不下	-9.93629
在彼	-9.93652
先後	-9.9372
一事	-9.93727
邁	-9.93768
讒	-9.93777
謬	-9.93799
愧	-9.93812
二十日	-9.93824
都司	-9.93835
之弟	-9.93882
宛	-9.93984
藥師	-9.93986
弩	-9.94023
圭	-9.94032
良玉	-9.94097
沐	-9.94243
遏	-9.94266
悼	-9.94272
夾攻	-9.94277
措置	-9.94281
賊巢	-9.94341
則有	-9.94351
蘭州	-9.94382
土司	-9.94435
力戰	-9.94442
譬	-9.94496
信息	-9.94558
從事	-9.94567
諸軍事	-9.94641
敢不	-9.94675
庫圖克圖	-9.947
四面	-9.94729
胄	-9.94756
柴	-9.94768
之志	-9.94789
兵三千	-9.94921
措	-9.9495
得之	-9.94967
梓	-9.95011
芻	-9.95016
賞銀	-9.9503
駢	-9.95107
仍令	-9.95188
乙亥	-9.9525
有罪	-9.95331
鸞	-9.95391
黼	-9.95428
佩	-9.95434
鞅	-9.95485
搶	-9.95547
料理	-9.95637
㑹合	-9.95642
並不	-9.95657
交與	-9.95684
得以	-9.95715
後世	-9.95755
琳	-9.95837
該犯	-9.95843
臣竊	-9.95883
七千	-9.95902
必須	-9.95943
漢軍	-9.95943
忠臣	-9.95969
衮	-9.95984
六千	-9.96096
先行	-9.96098
訥親	-9.9619
伺	-9.96191
侮	-9.96242
曷為	-9.96244
本朝	-9.96284
用事	-9.96316
應援	-9.96317
何謂	-9.96359
岐	-9.96518
奬	-9.96647
叚	-9.96709
牲畜	-9.96716
契	-9.96723
穿	-9.96736
季孫	-9.96785
銅	-9.96785
如有	-9.9694
揺	-9.96987
竝	-9.97007
五人	-9.97042
江淮	-9.97074
行營	-9.97169
未免	-9.97195
執政	-9.97287
刺史	-9.97305
丗	-9.97397
𫝊	-9.97423
塵	-9.97464
吐	-9.97485
虧	-9.97497
膺	-9.97527
俎	-9.97633
晦	-9.97855
軫	-9.97938
漠	-9.97949
亷	-9.98484
甞	-9.98509
稅	-9.98512
談	-9.98723
翔	-9.98726
活	-9.98736
撰	-9.98737
斧	-9.98744
泄	-9.98755
焦	-9.98756
彬	-9.98795
濮	-9.99021
徧	-9.99282
滇	-9.99481
琴	-9.99517
䖍	-9.99529
搜	-9.99577
認	-9.99596
訟	-9.9975
訴	-9.99769
燭	-9.99781
敎	-9.99825
逰	-9.99991
倖	-10.0004
裘	-10.0008
狗	-10.0027
薪	-10.0054
輪	-10.0055
墜	-10.0081
填	-10.0081
潞	-10.0083
迷	-10.0104
蛇	-10.0104
醉	-10.0109
萌	-10.0109
拱	-10.0132
演	-10.0144
娶	-10.0154
猝	-10.0158
昊	-10.0162
慢	-10.0207
漕	-10.0209
劍	-10.0209
䟽	-10.0209
黃	-10.0217
哨	-10.0232
犒	-10.0232
桃	-10.0247
揆	-10.0262
濫	-10.0266
孽	-10.0269
匱	-10.0289
禆	-10.029
湏	-10.0301
饋	-10.0316
快	-10.0316
攘	-10.0317
弛	-10.0344
俞	-10.0349
宸	-10.0365
榆	-10.0368
宵	-10.0369
嫌	-10.0395
壞	-10.0397
膽	-10.0398
㓜	-10.0418
岡	-10.0423
貌	-10.0426
囊	-10.0449
拾	-10.0471
團	-10.0472
猷	-10.0475
㸃	-10.0476
戲	-10.0476
佑	-10.0479
嗟	-10.0502
􁀙	-10.0503
恊	-10.051
繹	-10.0515
謗	-10.0527
韶	-10.0531
句	-10.0532
乖	-10.0532
鞏	-10.0565
駟	-10.0581
捜	-10.0587
状	-10.0637
擄	-10.0639
宦	-10.0644
飬	-10.0665
吞	-10.0665
浪	-10.0666
頌	-10.0669
掘	-10.0669
倒	-10.067
肇	-10.0699
局	-10.0723
飯	-10.0725
緞	-10.075
灌	-10.075
孺	-10.075
芝	-10.0753
踵	-10.0754
𥙿	-10.078
戕	-10.0786
潭	-10.083
圉	-10.0833
嚮	-10.0834
飢	-10.0834
縮	-10.0836
姪	-10.086
禾	-10.0863
踞	-10.0868
齡	-10.0884
摧	-10.0886
蹈	-10.0891
盾	-10.0891
漁	-10.0893
棟	-10.0895
埶	-10.0895
煽	-10.0902
鞭	-10.0917
譚	-10.0918
䕫	-10.0937
晝	-10.0944
嫁	-10.0945
繞	-10.0949
倭	-10.0962
錄	-10.0974
沃	-10.0975
淹	-10.0982
概	-10.0987
𦵏	-10.1003
邱	-10.1004
愆	-10.1006
馭	-10.1028
寘	-10.1031
譏	-10.1032
騷	-10.1058
牟	-10.106
畿	-10.1084
壓	-10.1097
揔	-10.1117
潁	-10.112
旨	-10.1121
銘	-10.1121
贍	-10.1145
裂	-10.1148
雙	-10.1149
嬖	-10.1205
妨	-10.1209
迨	-10.121
詹	-10.123
緣	-10.1233
肩	-10.1239
騐	-10.1241
曜	-10.1272
冲	-10.1293
屍	-10.1296
呂	-10.1321
斛	-10.1322
鄖	-10.1346
灘	-10.135
蠲	-10.135
韜	-10.1351
琦	-10.1354
迅	-10.1378
蔣	-10.1378
畝	-10.138
箕	-10.1384
酬	-10.1408
偶	-10.141
耆	-10.1433
驟	-10.147
賁	-10.1472
壹	-10.1495
孚	-10.1498
棘	-10.1501
懦	-10.1502
柳	-10.1528
遞	-10.1529
抄	-10.1529
衙	-10.1533
喬	-10.1555
遐	-10.1559
湛	-10.156
絹	-10.1561
匠	-10.1561
件	-10.1565
冕	-10.1584
判	-10.1598
綿	-10.1617
壺	-10.1618
齋	-10.162
挺	-10.1678
絲	-10.168
株	-10.1689
圓	-10.1691
玠	-10.1702
掖	-10.1706
汾	-10.1711
絡	-10.1718
佔	-10.1729
憐	-10.1739
閤	-10.174
沂	-10.1742
紛	-10.1743
握	-10.1746
耀	-10.1772
麾	-10.1779
躍	-10.1803
冰	-10.1807
吹	-10.1839
洩	-10.184
捨	-10.1865
膏	-10.1865
挈	-10.1866
潤	-10.1867
釐	-10.1867
僻	-10.187
稟	-10.1877
捍	-10.1893
婁	-10.1895
廹	-10.1922
耗	-10.1925
閱	-10.1926
誦	-10.1928
熱	-10.1948
舌	-10.1952
筵	-10.1957
茅	-10.1957
艦	-10.1957
牒	-10.1958
綬	-10.1958
杞	-10.1958
跟	-10.1969
无	-10.198
囬	-10.199
梯	-10.1991
陟	-10.202
㳺	-10.2022
衢	-10.2022
糜	-10.2059
曼	-10.2088
挫	-10.2118
兇	-10.2119
埋	-10.2151
叱	-10.218
滯	-10.2183
儆	-10.2189
殄	-10.2211
猜	-10.2211
晨	-10.2212
顛	-10.2212
纔	-10.2212
宼	-10.2214
析	-10.2246
滕	-10.2248
𦂳	-10.2254
纂	-10.228
購	-10.228
抽	-10.2285
消	-10.2337
憑	-10.2342
厰	-10.2347
觶	-10.2354
雒	-10.2373
妹	-10.2399
阜	-10.2399
巷	-10.24
豕	-10.244
踈	-10.2441
卧	-10.2441
蔓	-10.2447
挐	-10.2457
薊	-10.2469
勛	-10.2471
互	-10.2486
楷	-10.2502
伸	-10.2505
沖	-10.2505
悍	-10.2507
綸	-10.2512
黍	-10.2514
氐	-10.2533
促	-10.2536
懋	-10.2542
紳	-10.2569
筮	-10.2582
廸	-10.26
翦	-10.2602
狩	-10.2604
矩	-10.2608
菜	-10.261
洮	-10.2633
褒	-10.2636
坤	-10.2637
坊	-10.2638
奄	-10.2669
諳	-10.267
霜	-10.2673
織	-10.2674
飽	-10.2675
鶴	-10.2702
魂	-10.2708
塲	-10.274
暨	-10.2741
喻	-10.2743
頡	-10.2773
股	-10.2774
墾	-10.2776
陋	-10.2777
枕	-10.2805
庇	-10.2805
尅	-10.2815
佳	-10.284
毫	-10.286
洲	-10.2865
鄆	-10.2876
蔑	-10.2878
浸	-10.2907
縊	-10.294
牆	-10.2942
膳	-10.2947
萊	-10.2973
諡	-10.2976
叩	-10.2976
瑕	-10.2977
逾	-10.2981
懈	-10.2981
彈	-10.2983
技	-10.3018
矛	-10.302
駿	-10.3022
姊	-10.3036
秘	-10.3047
乂	-10.3049
簿	-10.305
隣	-10.3054
奎	-10.3082
瑜	-10.3114
狥	-10.3116
梟	-10.3117
萇	-10.3153
汲	-10.3158
崖	-10.3185
册	-10.3187
輓	-10.3194
杭	-10.3197
板	-10.3225
塹	-10.3227
壅	-10.323
岑	-10.3252
蹙	-10.3258
凱	-10.3259
隄	-10.3261
陲	-10.3261
昻	-10.3262
眉	-10.3264
炳	-10.3265
恢	-10.3277
廉	-10.3294
冉	-10.3297
凍	-10.3298
燬	-10.3308
沅	-10.3309
誼	-10.3329
艘	-10.333
軰	-10.3364
繆	-10.3365
峽	-10.3365
際	-10.3367
僣	-10.3367
胤	-10.3401
侃	-10.3407
稜	-10.3435
償	-10.3437
熾	-10.344
泊	-10.3441
裹	-10.3442
燧	-10.3443
鑾	-10.3475
熙	-10.3475
軒	-10.3478
茲	-10.3479
漫	-10.3482
婢	-10.3499
替	-10.3517
甥	-10.3544
苖	-10.3547
亳	-10.355
隕	-10.355
遍	-10.3551
街	-10.3552
壮	-10.3554
驍	-10.3581
剽	-10.3621
批	-10.3623
撒	-10.3624
彛	-10.3624
暗	-10.3631
奈	-10.3671
滔	-10.3695
种	-10.3696
羸	-10.3698
店	-10.3705
熹	-10.3709
溢	-10.3733
頥	-10.3734
豎	-10.3735
闢	-10.3739
仔	-10.3743
醴	-10.3762
踊	-10.3769
諜	-10.377
鑑	-10.3772
叢	-10.3772
覩	-10.3772
庾	-10.3773
雉	-10.3773
脚	-10.3777
緊	-10.378
壕	-10.3782
寃	-10.3806
裳	-10.3808
姻	-10.3808
携	-10.3809
瓘	-10.3838
蹇	-10.384
哩	-10.3883
骸	-10.3884
彪	-10.3886
琮	-10.3923
僭	-10.3924
惻	-10.3924
蘓	-10.3925
慙	-10.3925
網	-10.3927
癸	-10.3944
譟	-10.3958
羈	-10.3961
梧	-10.3961
惰	-10.3962
棺	-10.3963
遮	-10.3995
鬻	-10.3997
苟	-10.3998
貲	-10.4033
隷	-10.4039
繳	-10.404
涿	-10.4042
輛	-10.4042
輦	-10.4072
鞫	-10.4075
鄒	-10.4082
穫	-10.4084
們	-10.4112
伴	-10.4112
禱	-10.4115
販	-10.4127
畔	-10.4157
貟	-10.4158
曷	-10.4161
嚕	-10.4163
巾	-10.4187
醢	-10.4189
鳩	-10.4194
梅	-10.4233
淑	-10.4238
涕	-10.4261
袒	-10.4264
戌	-10.4265
鼠	-10.427
僃	-10.427
腰	-10.4275
𤓰	-10.4308
弭	-10.4309
灣	-10.431
慨	-10.4315
捉	-10.4352
枯	-10.4353
轍	-10.4354
殖	-10.4383
溥	-10.4386
嘆	-10.4466
頸	-10.4468
佚	-10.447
譯	-10.4472
函	-10.4473
寗	-10.4501
丙	-10.451
亥	-10.4546
場	-10.4551
筭	-10.4554
揮	-10.4587
儻	-10.4587
濁	-10.4592
囂	-10.4594
稼	-10.4633
梗	-10.4635
夙	-10.4636
賠	-10.4638
盍	-10.4713
繇	-10.4722
惇	-10.4723
緯	-10.4754
撓	-10.4755
頻	-10.4755
賓	-10.476
餓	-10.4796
冝	-10.4796
墻	-10.4798
翊	-10.48
殃	-10.48
邠	-10.4837
崧	-10.4838
弃	-10.4841
紇	-10.4868
窘	-10.4877
譖	-10.4878
寓	-10.4878
幟	-10.4879
吿	-10.4881
溫	-10.4883
轡	-10.4885
耦	-10.4908
几	-10.4916
謫	-10.4917
墳	-10.4923
鬱	-10.4925
傍	-10.4926
犀	-10.4927
冶	-10.4929
䭾	-10.4931
繡	-10.4965
帷	-10.4967
郝	-10.4967
模	-10.4969
氷	-10.5005
栗	-10.5005
袍	-10.5007
泚	-10.5011
轅	-10.5049
滄	-10.5049
璘	-10.5049
驪	-10.5049
軀	-10.5052
毗	-10.5053
㕔	-10.5063
牀	-10.5091
鼻	-10.5091
紙	-10.5094
慧	-10.5094
搏	-10.5094
磨	-10.5096
鴈	-10.5097
嬴	-10.51
搗	-10.5106
潼	-10.5129
譙	-10.5133
觸	-10.5134
謚	-10.5135
逋	-10.5137
洽	-10.5139
苛	-10.5139
棗	-10.5143
粲	-10.5149
疇	-10.517
跋	-10.5175
逵	-10.5176
的	-10.5188
蘄	-10.5216
諷	-10.5217
瑟	-10.5224
凖	-10.5232
緡	-10.5265
踪	-10.5266
迪	-10.527
蚤	-10.5273
拂	-10.5309
郵	-10.5309
偵	-10.5311
蕆	-10.5324
弦	-10.5351
偪	-10.5354
愁	-10.5356
荅	-10.5359
鏐	-10.5391
槩	-10.5395
躡	-10.5395
覘	-10.5396
燦	-10.5396
壻	-10.5398
頑	-10.5403
嶲	-10.5439
趾	-10.5442
枉	-10.5446
課	-10.5446
禎	-10.5483
邸	-10.5489
璊	-10.5489
廖	-10.5529
厄	-10.5531
潔	-10.5532
瓌	-10.5536
倦	-10.5572
沔	-10.5572
響	-10.5576
染	-10.5578
霄	-10.558
卦	-10.5587
戢	-10.5623
攀	-10.5625
晰	-10.5635
恬	-10.5664
驃	-10.5664
晩	-10.5666
郷	-10.5709
廂	-10.571
翎	-10.5715
弄	-10.575
佗	-10.5754
殯	-10.5756
栢	-10.5757
灼	-10.5757
鷹	-10.5769
碑	-10.5796
㦸	-10.5801
桐	-10.5801
憾	-10.5801
鉅	-10.5802
鞍	-10.5803
搆	-10.5804
繪	-10.5809
駱	-10.5892
嗜	-10.5893
膚	-10.5894
濶	-10.5898
陛	-10.5927
緬	-10.5938
枚	-10.5939
髮	-10.594
個	-10.5941
漆	-10.5941
鉤	-10.5942
悛	-10.5942
諉	-10.5946
烟	-10.5948
像	-10.5987
藻	-10.5989
喂	-10.5989
雀	-10.5989
孜	-10.599
僑	-10.5991
兔	-10.5996
鉛	-10.5999
拓	-10.6026
隰	-10.603
森	-10.6034
汜	-10.6035
逓	-10.6039
坑	-10.6039
寤	-10.604
佯	-10.6081
朽	-10.6086
隗	-10.6088
遄	-10.6091
苴	-10.612
柏	-10.6129
歟	-10.6132
嬪	-10.6172
冢	-10.6179
霧	-10.618
琿	-10.6182
慝	-10.6183
𥘉	-10.6183
皓	-10.6223
芮	-10.6224
譴	-10.6227
砦	-10.6227
愬	-10.6227
驥	-10.6228
嶽	-10.6231
頴	-10.6234
渝	-10.6274
障	-10.6278
睢	-10.6279
㸔	-10.6285
驤	-10.6316
肝	-10.632
烝	-10.6322
傲	-10.6324
亢	-10.6326
廩	-10.637
灰	-10.6371
聊	-10.6373
灾	-10.6379
懽	-10.6415
秣	-10.6419
閑	-10.642
奕	-10.642
瀆	-10.6423
闇	-10.6424
狹	-10.6425
僱	-10.6439
碎	-10.6466
琛	-10.6468
煌	-10.647
苞	-10.647
鄢	-10.647
寕	-10.6473
圜	-10.6517
跳	-10.6519
諛	-10.652
迄	-10.6524
覲	-10.6547
鐡	-10.656
揣	-10.6572
渥	-10.6574
㮚	-10.6611
鈐	-10.6619
琨	-10.6665
邏	-10.6665
蹂	-10.6713
歐	-10.6715
眼	-10.6717
汰	-10.672
蔵	-10.6723
勣	-10.6757
闥	-10.6758
糗	-10.676
沉	-10.677
劣	-10.6773
迤	-10.6774
澶	-10.6776
忤	-10.6812
曩	-10.6812
竆	-10.6817
䜛	-10.6819
礟	-10.6822
縻	-10.6867
夭	-10.6872
婚	-10.6873
寫	-10.6877
畀	-10.6914
廓	-10.6921
椒	-10.6923
媚	-10.6924
懾	-10.6926
肘	-10.6928
肺	-10.6964
頤	-10.6967
鄜	-10.6973
柯	-10.6973
谿	-10.6973
瀛	-10.6977
煥	-10.6978
夲	-10.6986
弋	-10.7022
版	-10.7022
贄	-10.7023
减	-10.7024
糓	-10.7026
祇	-10.7029
㨿	-10.7042
擯	-10.7068
拖	-10.7072
瑄	-10.7075
氛	-10.708
揑	-10.7086
隸	-10.7124
旂	-10.7126
怙	-10.7128
唱	-10.7128
臻	-10.7129
毓	-10.7181
罹	-10.7181
瀘	-10.7181
逗	-10.7183
凝	-10.7184
朴	-10.7184
陀	-10.7187
脯	-10.7226
糴	-10.7227
紿	-10.7234
龎	-10.7235
般	-10.7235
殫	-10.7236
禧	-10.7238
璠	-10.7243
雇	-10.7244
絰	-10.7283
卞	-10.7286
壬	-10.7361
扞	-10.7388
捧	-10.7389
殤	-10.7391
卭	-10.7397
翻	-10.7403
緫	-10.7441
蘆	-10.7442
魄	-10.7445
蟻	-10.7445
芒	-10.7446
愍	-10.745
膠	-10.7451
憎	-10.7453
瓜	-10.7456
銓	-10.7497
䑕	-10.75
牡	-10.7502
縀	-10.7503
寮	-10.7505
綴	-10.7507
倪	-10.7508
蒯	-10.7547
幄	-10.7557
坎	-10.7557
拊	-10.7557
奨	-10.7559
餒	-10.7562
戊	-10.7577
邕	-10.7604
辠	-10.7607
稹	-10.7607
顒	-10.7611
構	-10.7613
陪	-10.7614
穰	-10.7617
聨	-10.7624
犍	-10.7657
涪	-10.7663
蒐	-10.7665
惕	-10.7667
輟	-10.7667
挖	-10.7691
鈔	-10.772
刁	-10.772
泌	-10.7721
鵬	-10.7723
酣	-10.7724
𤼵	-10.7771
帖	-10.7777
斫	-10.7779
啇	-10.7779
蹤	-10.778
圃	-10.7781
膝	-10.7782
悮	-10.7783
鵲	-10.7784
亞	-10.7828
襃	-10.7829
寝	-10.7832
澗	-10.7833
裨	-10.7835
彝	-10.7835
㤗	-10.7841
儼	-10.7879
觴	-10.7884
粗	-10.7887
紓	-10.789
諮	-10.7892
簒	-10.7893
擲	-10.7894
稔	-10.79
瘦	-10.7945
籠	-10.7947
寂	-10.7947
縳	-10.7947
浴	-10.7951
冥	-10.7953
儘	-10.7957
顏	-10.8004
酷	-10.8005
䑓	-10.8006
椿	-10.8006
雩	-10.8012
曦	-10.8017
吁	-10.8059
㐮	-10.806
凢	-10.8063
剪	-10.8065
逭	-10.8068
歷	-10.8068
暢	-10.8072
忒	-10.8111
濡	-10.8114
駒	-10.8114
夸	-10.8117
陂	-10.8118
彞	-10.8118
鉏	-10.8118
亘	-10.8121
熒	-10.8121
飼	-10.8122
耻	-10.8122
雕	-10.8123
餽	-10.8132
羲	-10.8133
瘠	-10.8179
瑶	-10.818
臾	-10.818
綰	-10.818
妙	-10.8183
駞	-10.8184
謐	-10.8185
磬	-10.8186
鈎	-10.8193
貼	-10.8196
峪	-10.823
馥	-10.8235
廪	-10.8236
腦	-10.8237
卹	-10.824
咽	-10.8245
滎	-10.829
巻	-10.8292
輅	-10.8292
埽	-10.8297
遑	-10.8298
犧	-10.8299
滛	-10.8356
愼	-10.8357
訛	-10.8358
詎	-10.8362
亶	-10.8407
嫡	-10.841
麓	-10.8412
儔	-10.8412
掣	-10.8413
濵	-10.8414
洶	-10.8415
汙	-10.8416
旰	-10.8416
縦	-10.8417
影	-10.8418
電	-10.8418
爪	-10.8471
乳	-10.8473
涖	-10.8474
燮	-10.8476
燔	-10.8476
誡	-10.8479
紏	-10.8482
棧	-10.8482
愷	-10.853
璟	-10.8532
球	-10.8533
鎧	-10.8535
檻	-10.8536
疫	-10.8538
趲	-10.8538
翠	-10.854
装	-10.8542
咱	-10.8542
些	-10.8578
簽	-10.8586
丑	-10.8588
畱	-10.8594
繒	-10.8595
羡	-10.8599
数	-10.8599
諄	-10.8605
埔	-10.8613
汶	-10.8654
瞽	-10.8655
祕	-10.8656
堤	-10.8656
觔	-10.8661
葵	-10.8714
纓	-10.8716
你	-10.8716
筠	-10.8718
揀	-10.8719
愕	-10.872
汚	-10.8777
穎	-10.8778
盆	-10.8779
歆	-10.878
迭	-10.8782
泛	-10.8782
禘	-10.8791
顥	-10.8797
楹	-10.8836
杼	-10.8836
磁	-10.8837
滁	-10.8839
㪚	-10.8839
噐	-10.8842
卻	-10.8842
挿	-10.8845
鱗	-10.8845
閫	-10.8845
屨	-10.8893
蠧	-10.8899
槍	-10.8903
售	-10.8907
畆	-10.8907
幅	-10.8907
噬	-10.8909
粥	-10.891
覔	-10.8912
刦	-10.8913
嶠	-10.892
义	-10.896
貂	-10.8967
彗	-10.8969
磔	-10.897
寰	-10.9018
霖	-10.9024
儁	-10.9025
滚	-10.9029
譛	-10.9029
瑗	-10.9035
證	-10.9035
颺	-10.9037
蠶	-10.9039
寐	-10.9039
燾	-10.9086
蓬	-10.909
囉	-10.9092
竈	-10.9093
敇	-10.9094
殽	-10.9094
拆	-10.9096
擕	-10.9097
蜂	-10.9099
訾	-10.91
菑	-10.9102
劭	-10.9154
剖	-10.9154
叡	-10.9157
慿	-10.9157
琰	-10.916
沾	-10.916
馘	-10.9163
怖	-10.9164
蠱	-10.9164
祜	-10.9164
殉	-10.9165
層	-10.917
臚	-10.9219
亾	-10.922
鑲	-10.9222
聶	-10.9223
靳	-10.9227
悅	-10.9229
油	-10.9231
縉	-10.9285
劔	-10.9285
勑	-10.9286
闖	-10.9287
覬	-10.9292
丸	-10.9292
嚭	-10.9342
套	-10.9344
棲	-10.9349
洺	-10.9351
軻	-10.9352
軼	-10.9352
劇	-10.9353
拯	-10.9356
絞	-10.9356
濳	-10.941
藪	-10.9415
雎	-10.9418
摘	-10.9419
陘	-10.942
愿	-10.942
覿	-10.9421
諂	-10.9422
麋	-10.9422
渙	-10.9425
羮	-10.9426
詆	-10.9481
擴	-10.9481
驢	-10.9486
狎	-10.9488
忻	-10.9489
卵	-10.9548
藤	-10.9553
僥	-10.9554
啜	-10.9604
纛	-10.9613
蹕	-10.9617
旄	-10.962
㒺	-10.9623
扺	-10.9626
墩	-10.9631
扇	-10.9679
犂	-10.9681
黠	-10.9682
㬥	-10.9683
烹	-10.9683
闌	-10.9685
馴	-10.9686
扁	-10.9692
稻	-10.9694
鴟	-10.9695
摯	-10.9752
樵	-10.9754
磐	-10.9754
㢘	-10.9754
荼	-10.9754
腸	-10.9755
樸	-10.9756
蛟	-10.9756
縋	-10.9757
邳	-10.9757
䧏	-10.9758
顙	-10.9758
蠡	-10.9759
莭	-10.976
搬	-10.9768
酈	-10.9811
渤	-10.9818
擣	-10.982
揭	-10.9821
誑	-10.9822
壑	-10.9824
坡	-10.9827
煙	-10.9827
槐	-10.9827
伎	-10.9828
舖	-10.9832
祉	-10.9833
懌	-10.9884
酉	-10.989
彘	-10.9893
釡	-10.9896
組	-10.9899
欠	-10.99
鄫	-10.99
衂	-10.9957
喧	-10.9959
墟	-10.9961
臭	-10.9961
濤	-10.9962
豁	-10.9962
迴	-10.9967
斟	-10.9967
熬	-10.9969
换	-10.9971
漲	-11.003
璜	-11.0031
畋	-11.0032
舘	-11.0035
煦	-11.0083
鎬	-11.0096
卯	-11.0096
閘	-11.0096
岀	-11.0104
淪	-11.0104
脊	-11.0104
諤	-11.0107
兢	-11.0109
单	-11.0118
勍	-11.0166
鹵	-11.0167
㓕	-11.0169
忭	-11.017
簾	-11.0172
餌	-11.0175
戀	-11.0176
忱	-11.0178
蝕	-11.018
搭	-11.0181
遙	-11.024
拳	-11.0246
莘	-11.025
怏	-11.0252
邈	-11.0253
蠢	-11.0316
臕	-11.0316
浹	-11.0319
姒	-11.0321
岌	-11.0326
歉	-11.0326
俶	-11.0381
渚	-11.0387
龔	-11.0389
晞	-11.0394
厪	-11.0396
猗	-11.0442
篚	-11.0451
瑛	-11.0458
戡	-11.046
窟	-11.0461
銑	-11.0462
註	-11.0462
央	-11.0465
喉	-11.0467
駁	-11.0467
豚	-11.047
糶	-11.0473
慘	-11.0528
萃	-11.0529
淄	-11.0534
諧	-11.0536
轂	-11.0536
葦	-11.0536
䖏	-11.0546
臬	-11.0547
琪	-11.0597
駙	-11.0602
跨	-11.0605
漿	-11.0605
吝	-11.0607
話	-11.0611
狽	-11.0614
聦	-11.0617
羙	-11.0618
汎	-11.0622
綵	-11.0673
敘	-11.0677
仆	-11.0678
烽	-11.0678
綦	-11.0681
掲	-11.0682
隐	-11.0682
昬	-11.0683
擔	-11.0683
慄	-11.0683
沸	-11.0688
瓚	-11.069
瑭	-11.0691
挽	-11.0692
霑	-11.0749
瀚	-11.0752
迂	-11.0759
𦙍	-11.0759
杲	-11.076
郁	-11.0764
穢	-11.0765
髠	-11.0766
島	-11.0821
苻	-11.0827
囿	-11.0832
騶	-11.0835
盥	-11.0836
抜	-11.0838
崙	-11.084
冷	-11.0899
豺	-11.0902
閼	-11.0905
竿	-11.0909
驂	-11.0909
幷	-11.091
叟	-11.0912
釗	-11.0912
迺	-11.0913
崑	-11.0916
蕪	-11.0921
濕	-11.0923
侑	-11.0978
釣	-11.0984
評	-11.0986
戯	-11.0992
鎔	-11.0994
羿	-11.0996
蔚	-11.1056
廼	-11.1061
覇	-11.1062
餧	-11.1065
昂	-11.1065
匄	-11.1067
阮	-11.1074
籩	-11.1137
豢	-11.1141
爛	-11.1141
咄	-11.1141
揷	-11.1144
闡	-11.1145
昱	-11.1145
羔	-11.1145
脂	-11.1147
殂	-11.1148
顆	-11.1148
葺	-11.1149
牂	-11.1149
孳	-11.1149
墊	-11.1158
磧	-11.1212
臘	-11.1219
狃	-11.1225
悌	-11.1226
繋	-11.1226
諺	-11.1299
顗	-11.1301
猾	-11.1303
恂	-11.1304
錮	-11.1305
帕	-11.1306
弇	-11.1312
坪	-11.1314
邯	-11.137
堰	-11.1374
䟦	-11.138
徠	-11.1382
搖	-11.1382
漣	-11.1386
悠	-11.1387
矧	-11.1388
冡	-11.1389
稠	-11.14
霆	-11.1455
譁	-11.1458
騫	-11.146
彧	-11.1462
祏	-11.1462
潦	-11.1463
霽	-11.1463
昶	-11.1467
叠	-11.1468
覃	-11.1535
帽	-11.1538
蠟	-11.1542
摶	-11.1543
穡	-11.1546
厮	-11.1623
薳	-11.1623
隧	-11.1624
鞠	-11.1625
軾	-11.1634
涸	-11.1636
帮	-11.1646
墉	-11.1704
楫	-11.1705
孥	-11.1706
恚	-11.1707
芬	-11.1707
脇	-11.1707
傉	-11.1708
泓	-11.1708
甄	-11.171
錐	-11.1713
黷	-11.1713
架	-11.1715
蚶	-11.1725
迥	-11.1728
企	-11.1782
煬	-11.179
頽	-11.1794
僨	-11.1798
鄩	-11.1867
擐	-11.1867
倣	-11.1877
鯀	-11.1878
默	-11.1879
胸	-11.1879
礪	-11.1881
攔	-11.1884
攷	-11.1886
贓	-11.1956
笞	-11.1956
踏	-11.1957
瘁	-11.1958
湊	-11.1959
滌	-11.1961
片	-11.1962
奥	-11.197
蹟	-11.1974
廆	-11.2019
葭	-11.2034
滾	-11.2037
佟	-11.2045
殛	-11.2045
奭	-11.2046
洵	-11.2046
謟	-11.2047
鼈	-11.2047
譲	-11.205
嘯	-11.2051
瞭	-11.2051
陕	-11.2058
慟	-11.2128
仞	-11.213
鉢	-11.2131
肱	-11.2133
嫉	-11.2133
栅	-11.2136
汧	-11.2138
閎	-11.2138
拙	-11.2141
歇	-11.2216
撻	-11.2216
做	-11.2217
縶	-11.222
貺	-11.2221
龐	-11.2223
燎	-11.2223
躁	-11.2224
蒸	-11.2225
藔	-11.2226
驩	-11.2227
縂	-11.2236
筋	-11.2298
澧	-11.23
澹	-11.2302
冗	-11.2305
詠	-11.2308
剳	-11.231
譎	-11.2313
剋	-11.2313
逝	-11.2319
皷	-11.239
瑊	-11.2391
菽	-11.2392
羆	-11.2392
逡	-11.2393
饌	-11.2393
瓉	-11.2394
蒍	-11.2399
蚩	-11.2399
疊	-11.2399
㳟	-11.2403
估	-11.2406
珣	-11.2477
稚	-11.248
琬	-11.2482
棠	-11.2483
寖	-11.2484
鵠	-11.2486
飄	-11.2489
粉	-11.2489
劵	-11.249
孼	-11.2492
釀	-11.2492
苐	-11.2493
雌	-11.2494
瀕	-11.2567
炭	-11.2568
洎	-11.2568
犄	-11.2572
纍	-11.2573
斜	-11.2574
禇	-11.2574
鏖	-11.2576
淚	-11.2576
產	-11.2576
貎	-11.2577
剥	-11.2577
掾	-11.2578
泮	-11.2581
啻	-11.2582
纎	-11.2661
臥	-11.2662
龢	-11.2665
詘	-11.2667
婆	-11.2667
蹶	-11.2667
瘡	-11.2669
峯	-11.267
厦	-11.2671
喙	-11.2671
騁	-11.2671
浄	-11.2674
愔	-11.2753
伋	-11.2754
婺	-11.2755
刋	-11.2756
徂	-11.2756
壩	-11.2758
睹	-11.2763
聿	-11.2763
氓	-11.2764
郞	-11.2837
鏡	-11.2844
歙	-11.2845
礦	-11.2845
胙	-11.2847
詡	-11.2848
旻	-11.2848
薫	-11.2848
籬	-11.2849
郴	-11.285
鷄	-11.285
甯	-11.2852
媵	-11.2852
櫟	-11.2854
悃	-11.2854
勔	-11.2855
么	-11.2856
璫	-11.2856
乍	-11.2859
粹	-11.2865
淖	-11.2917
覈	-11.2934
呌	-11.2943
閬	-11.2943
刎	-11.2944
堆	-11.2948
櫓	-11.2949
毆	-11.295
樽	-11.3019
兑	-11.3033
腐	-11.3037
鋪	-11.3039
廕	-11.304
囑	-11.304
濯	-11.3042
皝	-11.3042
炮	-11.3044
恇	-11.3044
爐	-11.3045
两	-11.3046
璞	-11.3048
研	-11.305
珂	-11.3125
綺	-11.3127
晳	-11.3129
恙	-11.313
氊	-11.3131
殞	-11.3134
兾	-11.3134
覓	-11.3136
餼	-11.3137
鎰	-11.3138
轟	-11.3138
雹	-11.3138
讜	-11.3151
筴	-11.3212
閽	-11.3221
愎	-11.3226
阪	-11.3227
閹	-11.3227
棣	-11.3228
鏤	-11.3228
彤	-11.3228
㤀	-11.323
掛	-11.3232
柩	-11.3236
喟	-11.3237
鰲	-11.3239
笙	-11.3313
党	-11.3323
諶	-11.3326
詬	-11.3327
袖	-11.3327
餞	-11.3327
紆	-11.3327
旃	-11.3327
垓	-11.3328
絃	-11.333
陴	-11.333
犢	-11.333
綝	-11.3334
净	-11.3344
鄯	-11.3409
遛	-11.3426
餐	-11.3427
耼	-11.3428
鍼	-11.3428
犁	-11.3429
闈	-11.3429
瑋	-11.3437
竦	-11.3511
敞	-11.3521
茹	-11.3523
郃	-11.3524
吟	-11.3524
榭	-11.3526
訐	-11.3526
泝	-11.3527
雋	-11.353
饉	-11.3531
汀	-11.3531
逄	-11.3618
倨	-11.3619
巒	-11.3619
慷	-11.3622
綠	-11.3623
牖	-11.3623
嘻	-11.3624
暠	-11.3624
熲	-11.3625
􁁊	-11.3625
藴	-11.3625
叵	-11.3626
榻	-11.3627
黽	-11.3628
据	-11.3632
璣	-11.3633
緜	-11.3713
曏	-11.3721
㸑	-11.3721
渴	-11.3722
𣙜	-11.3723
傕	-11.3723
殪	-11.3724
款	-11.3724
䦨	-11.3727
砍	-11.3728
翕	-11.3728
届	-11.3728
枷	-11.3729
瘴	-11.3732
鶉	-11.3732
糊	-11.3733
贇	-11.3735
邽	-11.3812
玘	-11.382
盱	-11.3823
岷	-11.3824
耽	-11.3826
塊	-11.3827
祔	-11.3828
阨	-11.3829
緘	-11.383
鎻	-11.383
巽	-11.3831
抒	-11.3832
煟	-11.384
婪	-11.3841
凑	-11.3842
詛	-11.392
票	-11.3922
燈	-11.3923
䜟	-11.3928
牘	-11.3928
枹	-11.3931
系	-11.3934
猪	-11.3935
緇	-11.4015
頵	-11.4018
刷	-11.4022
淤	-11.4025
褐	-11.4027
瞿	-11.403
綜	-11.4031
搢	-11.4031
魋	-11.4032
碧	-11.4035
剰	-11.4036
眇	-11.4038
燼	-11.4038
盂	-11.4039
羗	-11.4043
皎	-11.4045
砥	-11.4046
淨	-11.4047
枋	-11.413
坂	-11.4132
攬	-11.4132
珙	-11.4134
彚	-11.4137
圻	-11.4139
愉	-11.4141
麒	-11.4142
堠	-11.4142
珽	-11.4142
凰	-11.4143
昉	-11.4143
晴	-11.4143
糞	-11.4144
稀	-11.4146
俠	-11.415
磺	-11.4157
逖	-11.4234
瑀	-11.4235
宓	-11.4236
鮒	-11.4237
汭	-11.4238
箐	-11.4244
曵	-11.4244
褚	-11.4244
箴	-11.4245
僇	-11.4247
顓	-11.4247
佃	-11.4249
椎	-11.425
萼	-11.4254
誇	-11.4255
遴	-11.4256
螺	-11.4258
曄	-11.4344
侔	-11.4344
彩	-11.4349
㤙	-11.4349
黶	-11.435
駑	-11.4353
籥	-11.4355
罃	-11.4355
讙	-11.4356
毬	-11.4357
謡	-11.4358
翳	-11.4359
宄	-11.436
琯	-11.4361
虹	-11.4363
歪	-11.4363
稿	-11.4367
湟	-11.4445
臼	-11.4453
菹	-11.4455
蒿	-11.4456
酸	-11.4458
鷙	-11.4459
隳	-11.4463
䕃	-11.4465
莖	-11.4562
慤	-11.4563
晃	-11.4567
郈	-11.4568
阬	-11.457
涓	-11.4572
誹	-11.4573
灝	-11.4575
㽞	-11.4576
蓮	-11.4576
鏑	-11.4578
低	-11.4579
㝠	-11.4584
忝	-11.4674
麤	-11.4678
翌	-11.468
歿	-11.4681
苾	-11.4682
眚	-11.4683
悚	-11.4686
瓠	-11.4687
喚	-11.4687
袂	-11.4689
舛	-11.469
异	-11.4711
涵	-11.4788
韐	-11.4789
痩	-11.4793
聫	-11.4794
牝	-11.4795
郟	-11.4797
懣	-11.4798
滂	-11.48
鶚	-11.4802
嚳	-11.4809
窖	-11.481
澳	-11.4812
囧	-11.4817
穹	-11.4888
璁	-11.4895
禕	-11.4898
𬗟	-11.4902
暹	-11.4903
暐	-11.4905
藁	-11.4906
桿	-11.4907
裒	-11.4908
煖	-11.4908
礙	-11.4908
聳	-11.4908
郕	-11.4908
郅	-11.491
胷	-11.4916
翹	-11.4917
蟄	-11.4919
蠕	-11.4922
殲	-11.4922
喘	-11.4923
娘	-11.5007
絀	-11.5016
斾	-11.5018
渇	-11.5024
𫉬	-11.5024
曇	-11.5026
訣	-11.5026
値	-11.5029
頊	-11.503
孩	-11.5035
郯	-11.5038
曺	-11.513
个	-11.5132
卽	-11.5133
殁	-11.5134
蓼	-11.5134
炙	-11.5135
刈	-11.5135
亹	-11.5136
楯	-11.5137
眡	-11.5137
罄	-11.5138
躪	-11.5139
勺	-11.5139
婉	-11.514
祧	-11.5141
謳	-11.5142
炬	-11.5142
抛	-11.5143
態	-11.5144
兎	-11.5144
鞮	-11.5146
赶	-11.5148
碾	-11.5153
煜	-11.5153
縫	-11.5248
淡	-11.525
徭	-11.5251
杏	-11.5251
縞	-11.5253
撞	-11.5255
眙	-11.5256
灑	-11.5256
擺	-11.5256
銖	-11.5256
躋	-11.5261
庖	-11.5264
瘞	-11.5265
篡	-11.5265
憊	-11.5265
鑠	-11.5271
訂	-11.5273
廊	-11.5354
嶷	-11.5367
酖	-11.5371
慚	-11.5371
縠	-11.5373
捲	-11.5374
伽	-11.5375
痘	-11.5378
叨	-11.5379
膂	-11.5381
埸	-11.5381
祺	-11.5381
窩	-11.5388
瑱	-11.5389
夔	-11.5391
卸	-11.5391
娃	-11.54
醮	-11.5488
皋	-11.5492
僮	-11.5494
輻	-11.5494
㝷	-11.5496
竅	-11.5499
疵	-11.55
俛	-11.5504
笏	-11.5505
逕	-11.5512
艮	-11.5616
線	-11.5616
迓	-11.5617
軸	-11.5618
擠	-11.5618
炊	-11.5621
漂	-11.5622
鬪	-11.5622
卬	-11.5623
筏	-11.5624
巍	-11.5631
庠	-11.5635
秃	-11.5737
孑	-11.5739
螽	-11.5741
媯	-11.5741
涯	-11.5742
憨	-11.5743
潯	-11.5744
聾	-11.5745
噪	-11.5745
透	-11.5746
袋	-11.5747
埃	-11.5748
虗	-11.575
凛	-11.575
址	-11.5759
塟	-11.586
弧	-11.5864
航	-11.5864
昵	-11.5867
唇	-11.5868
幵	-11.5869
鑊	-11.587
冩	-11.587
釜	-11.5874
䟎	-11.5878
箇	-11.5879
肸	-11.5981
燥	-11.5991
捶	-11.5991
衘	-11.5992
晡	-11.5993
哷	-11.5994
樗	-11.5996
鎖	-11.5999
腋	-11.6
摰	-11.6003
啼	-11.6114
暱	-11.6115
澠	-11.6116
弈	-11.6118
爨	-11.612
廻	-11.612
猥	-11.612
刳	-11.6121
襟	-11.6121
峰	-11.6123
蓐	-11.6124
垢	-11.6127
遯	-11.613
騏	-11.6134
窄	-11.6135
濛	-11.6235
詵	-11.6239
贛	-11.6241
嗇	-11.6245
黯	-11.6246
詈	-11.6246
媒	-11.6247
贑	-11.6249
佺	-11.625
朂	-11.6252
胆	-11.6255
牋	-11.6257
孕	-11.626
奐	-11.626
茫	-11.626
鉉	-11.6265
澎	-11.6269
訶	-11.6371
牓	-11.6377
鯨	-11.6379
恰	-11.638
皖	-11.6381
瑣	-11.6381
兕	-11.6381
瘳	-11.6382
禺	-11.6383
哥	-11.6384
㡌	-11.6385
蠭	-11.6385
魴	-11.6386
衾	-11.6387
溼	-11.6388
群	-11.6393
蜚	-11.6394
鄱	-11.6398
裡	-11.6399
宙	-11.6504
咺	-11.6507
娣	-11.6509
塢	-11.6513
槊	-11.6514
鬚	-11.6516
藺	-11.6518
荐	-11.6519
譜	-11.6521
凟	-11.6521
煎	-11.6524
幫	-11.6525
証	-11.6527
嫻	-11.6528
蘧	-11.6529
弹	-11.653
麴	-11.6533
湣	-11.6641
杯	-11.6648
彫	-11.6648
悝	-11.6648
􁌆	-11.6649
灤	-11.6649
嵎	-11.6654
鋤	-11.6654
邴	-11.6654
跌	-11.6655
洧	-11.6655
叶	-11.6655
輾	-11.6656
㨂	-11.6657
怛	-11.6658
僞	-11.6659
孛	-11.6661
覦	-11.6665
陡	-11.6666
盎	-11.6779
縷	-11.6784
櫛	-11.6786
濱	-11.6786
菲	-11.6787
刄	-11.6789
麵	-11.6789
毀	-11.679
虺	-11.6791
冨	-11.6792
唾	-11.6793
郛	-11.6795
葸	-11.68
佈	-11.6802
詧	-11.6804
溉	-11.6912
朞	-11.6914
紘	-11.6916
鹹	-11.6923
沽	-11.6924
珏	-11.6925
怡	-11.6927
齧	-11.6927
咫	-11.6927
眩	-11.6928
塌	-11.6928
峴	-11.6928
粱	-11.693
皥	-11.693
獠	-11.6931
犫	-11.6931
脣	-11.6932
鬲	-11.6932
盪	-11.6934
堞	-11.6934
盼	-11.6936
廞	-11.6938
槖	-11.6942
柰	-11.7032
菁	-11.7055
幡	-11.7058
腆	-11.7059
肌	-11.7064
腊	-11.7066
跖	-11.7066
鬯	-11.7066
緦	-11.7067
桶	-11.7067
匕	-11.7068
瞑	-11.7069
磚	-11.707
羯	-11.7071
巔	-11.7071
屆	-11.7071
徊	-11.7077
郄	-11.7078
亊	-11.72
茨	-11.7206
翩	-11.7208
璉	-11.7208
芟	-11.7208
鯉	-11.721
澆	-11.7211
廐	-11.7211
惴	-11.7212
鬍	-11.7214
跣	-11.7215
芥	-11.7216
𨗳	-11.722
壠	-11.7224
赭	-11.7224
埒	-11.7346
刖	-11.7347
爕	-11.7354
紐	-11.7355
邜	-11.7356
駮	-11.7356
斵	-11.7357
贏	-11.7357
閆	-11.7358
粒	-11.7361
僵	-11.7364
躭	-11.7366
妣	-11.7487
玫	-11.7488
鏜	-11.7493
閨	-11.7494
鋸	-11.7494
禳	-11.7497
厠	-11.7497
禰	-11.7498
橫	-11.7501
姿	-11.7504
觚	-11.7505
夹	-11.7505
剌	-11.7505
鉄	-11.7507
猖	-11.7508
暖	-11.7511
梵	-11.7513
覧	-11.7514
刨	-11.7527
舂	-11.7642
闘	-11.7649
纒	-11.765
馨	-11.765
厝	-11.7651
棍	-11.7656
碣	-11.7657
覊	-11.7657
嶇	-11.7658
侗	-11.7659
煮	-11.7669
賭	-11.7683
囗	-11.7694
儋	-11.7796
槃	-11.7799
紊	-11.7801
聵	-11.7802
藜	-11.7802
儕	-11.7802
佇	-11.7802
峙	-11.7803
蟒	-11.7803
屑	-11.7803
拴	-11.7803
慼	-11.7803
耘	-11.7804
鏃	-11.7804
玷	-11.7805
曳	-11.7805
髓	-11.7806
惲	-11.7807
琢	-11.7807
様	-11.7807
糈	-11.7808
䛕	-11.7809
讋	-11.7809
酢	-11.7809
絜	-11.7815
扑	-11.7935
豳	-11.7944
詗	-11.7953
闊	-11.7954
昕	-11.7954
皂	-11.7954
耒	-11.7955
呵	-11.7956
麫	-11.7956
﨑	-11.7956
晷	-11.7957
筦	-11.7957
宂	-11.7959
堙	-11.796
禋	-11.796
橈	-11.7961
貉	-11.7961
匣	-11.7966
蹄	-11.7966
籲	-11.7968
菴	-11.7973
弢	-11.8093
澥	-11.8106
噲	-11.8108
鐇	-11.8111
淅	-11.8113
参	-11.8113
鰥	-11.8113
鑰	-11.8113
躒	-11.8113
蓍	-11.8113
匝	-11.8115
槁	-11.8117
甕	-11.8118
沱	-11.8119
培	-11.8121
渣	-11.8122
阼	-11.8122
楨	-11.8123
篆	-11.8129
撾	-11.8267
緍	-11.8268
櫬	-11.827
旴	-11.827
湫	-11.827
爇	-11.8271
睨	-11.8271
猺	-11.8274
盲	-11.8274
胃	-11.8277
綳	-11.8277
櫜	-11.8277
帙	-11.8278
梏	-11.828
誌	-11.8282
湧	-11.8283
巵	-11.8285
秬	-11.8292
驁	-11.8428
耨	-11.8432
榛	-11.8436
挟	-11.8437
戶	-11.8438
腥	-11.8438
瞋	-11.8439
脛	-11.844
棚	-11.844
遶	-11.844
髀	-11.8442
寥	-11.8443
匏	-11.8444
琚	-11.8588
簋	-11.8588
皁	-11.8589
橐	-11.8593
貍	-11.8593
妓	-11.8593
蔬	-11.8594
竽	-11.8594
箠	-11.8595
峒	-11.8595
賡	-11.8596
胎	-11.8597
嵬	-11.8598
闚	-11.8599
這	-11.8602
凋	-11.8602
徘	-11.8603
䨇	-11.8604
倆	-11.8605
彥	-11.8606
賍	-11.8606
冄	-11.8612
剝	-11.8615
肚	-11.8615
攺	-11.862
讖	-11.8752
樁	-11.8758
陬	-11.8763
暄	-11.8764
陌	-11.8765
劑	-11.8765
厨	-11.8766
黥	-11.8767
薰	-11.8768
旒	-11.8769
愾	-11.8772
鳬	-11.8772
剔	-11.8775
癰	-11.8775
伶	-11.8775
𤦺	-11.8929
惓	-11.8931
廡	-11.8933
掎	-11.8934
萍	-11.8935
廏	-11.8935
複	-11.8936
鞬	-11.8936
𠂻	-11.8938
聯	-11.894
旤	-11.8942
迯	-11.8942
鮪	-11.8945
胞	-11.8951
澈	-11.9092
夤	-11.9102
怵	-11.9102
瞰	-11.9102
吠	-11.9103
丐	-11.9103
冤	-11.9104
渦	-11.9104
腕	-11.9105
羇	-11.9106
糠	-11.9107
莅	-11.9107
伉	-11.9108
淇	-11.9108
欄	-11.911
㢤	-11.9111
嫗	-11.9112
麇	-11.9113
蟬	-11.9114
傒	-11.9115
棉	-11.9118
狠	-11.9123
蝗	-11.9123
甡	-11.9271
倐	-11.9277
愽	-11.9278
霞	-11.9278
蟜	-11.9278
沼	-11.9283
椁	-11.9284
倩	-11.9284
蟠	-11.9284
豨	-11.9285
崗	-11.9286
斐	-11.9286
衽	-11.9287
郜	-11.9289
㳂	-11.929
敉	-11.9291
鴦	-11.9292
傭	-11.9292
嘿	-11.9294
刮	-11.9296
屡	-11.9297
両	-11.9301
趍	-11.9451
珊	-11.9455
薇	-11.9456
癘	-11.9457
衲	-11.9457
敺	-11.9458
燃	-11.9458
訢	-11.9458
珥	-11.9459
祼	-11.9461
掉	-11.9461
鈍	-11.9461
笠	-11.9462
耐	-11.9462
郗	-11.9462
闞	-11.9464
隍	-11.9464
鴆	-11.9465
狸	-11.9465
慆	-11.9465
黿	-11.9466
徤	-11.9466
纘	-11.9467
痤	-11.9468
靼	-11.9468
謾	-11.9471
沴	-11.9473
肖	-11.9554
杰	-11.9626
杵	-11.963
褫	-11.9634
臠	-11.9634
僂	-11.9636
諠	-11.9636
柘	-11.9637
床	-11.9637
盩	-11.9637
稞	-11.9638
兌	-11.9639
捽	-11.9639
耄	-11.9639
黻	-11.964
袞	-11.9641
踣	-11.9641
腴	-11.9641
妬	-11.9642
脉	-11.9644
椽	-11.9644
餙	-11.9647
逈	-11.9648
蜮	-11.9648
蠆	-11.9648
鍳	-11.9649
𬒳	-11.965
湜	-11.98
倬	-11.9813
纁	-11.9813
笄	-11.9813
嚌	-11.982
扆	-11.9822
㝢	-11.9823
悵	-11.9825
冺	-11.9825
嘏	-11.9825
饔	-11.9825
峭	-11.9826
賵	-11.9827
駘	-11.983
鄣	-11.9831
嬉	-11.9831
痊	-11.9832
妒	-11.9832
疽	-11.9832
舸	-11.9835
圄	-11.9835
閙	-11.9836
袵	-11.9836
泯	-11.9838
雱	-11.9838
揜	-11.9841
頠	-11.9847
㓪	-11.9998
俓	-12.0003
炤	-12.0006
諲	-12.0008
嗚	-12.0008
舶	-12.0009
篋	-12.0011
蕚	-12.0012
襚	-12.0013
腫	-12.0013
迦	-12.0013
愠	-12.0014
闓	-12.0014
㲄	-12.0014
邃	-12.0014
刧	-12.0015
筐	-12.0015
沓	-12.0015
欷	-12.0016
潢	-12.0016
匐	-12.0018
僊	-12.002
藐	-12.0022
衿	-12.0024
畎	-12.0024
舁	-12.0024
晤	-12.0037
鱄	-12.0195
痍	-12.0201
絺	-12.0204
砂	-12.0205
鏌	-12.0206
剄	-12.0207
堕	-12.0208
㗖	-12.0208
埤	-12.0208
甌	-12.021
吸	-12.021
邲	-12.0211
鉷	-12.0212
褊	-12.0212
媿	-12.0212
焞	-12.0214
鍋	-12.0215
趂	-12.0216
雝	-12.0218
棒	-12.0218
矦	-12.0224
爻	-12.0391
壌	-12.0393
螻	-12.0394
厓	-12.0399
錠	-12.0399
緋	-12.04
闐	-12.0402
頰	-12.0402
䏻	-12.0403
賻	-12.0404
逍	-12.0406
菅	-12.0406
哺	-12.0408
袴	-12.0411
浞	-12.0412
嵐	-12.0412
𠫭	-12.0413
螳	-12.0415
庒	-12.0416
鴉	-12.0418
䯢	-12.0419
厫	-12.0421
鉶	-12.0591
剡	-12.0597
劓	-12.0598
昴	-12.0601
釘	-12.0604
籖	-12.0605
耜	-12.0606
阯	-12.0606
杆	-12.0606
詒	-12.0606
攄	-12.0607
佾	-12.0609
攫	-12.0609
脈	-12.061
鎛	-12.061
雁	-12.0611
粢	-12.0617
賾	-12.0619
獪	-12.0619
臆	-12.0619
朐	-12.0623
纉	-12.063
㙮	-12.0642
顚	-12.0795
綘	-12.0797
讃	-12.0799
綎	-12.08
鴨	-12.08
苫	-12.08
偓	-12.0801
韻	-12.0802
蒞	-12.0803
綢	-12.0803
疚	-12.0804
襁	-12.0805
𣅿	-12.0805
掊	-12.0805
閶	-12.0806
袤	-12.0808
憶	-12.0808
肄	-12.0809
療	-12.0809
抉	-12.0812
饕	-12.0813
䋲	-12.0813
摠	-12.0814
洙	-12.0816
悶	-12.0818
誚	-12.0818
搃	-12.0821
涂	-12.084
璝	-12.0984
穉	-12.1001
鏞	-12.1002
磊	-12.1006
娛	-12.101
厔	-12.101
匈	-12.1011
竑	-12.1011
貔	-12.1011
瑺	-12.1011
娥	-12.1011
繚	-12.1012
訃	-12.1014
璀	-12.1014
貰	-12.1014
翫	-12.1015
醒	-12.1016
濘	-12.1016
鬛	-12.1017
簇	-12.1018
䜿	-12.1018
跛	-12.1019
糟	-12.1019
嫚	-12.102
尭	-12.102
曙	-12.1021
倂	-12.1022
羨	-12.1022
湎	-12.1023
醯	-12.1024
噫	-12.1026
怎	-12.1026
蹻	-12.1027
怕	-12.1027
桷	-12.1032
銃	-12.1217
瞀	-12.122
洱	-12.1224
焰	-12.1224
祓	-12.1225
瑤	-12.1226
鐃	-12.1226
蕘	-12.1226
脾	-12.1227
喝	-12.1228
慴	-12.1228
酆	-12.1229
龕	-12.1229
魅	-12.123
嗷	-12.1231
矟	-12.1231
髦	-12.1232
冪	-12.1232
撝	-12.1233
痕	-12.1233
嫂	-12.1233
鈇	-12.1233
蕞	-12.1233
塩	-12.1234
娑	-12.1234
簫	-12.1235
鵝	-12.1236
頋	-12.1237
諦	-12.1237
頷	-12.1239
祫	-12.124
碁	-12.1241
峩	-12.1245
仿	-12.1251
鶡	-12.1256
拚	-12.1257
桴	-12.1432
噍	-12.1436
莱	-12.144
柬	-12.144
睡	-12.1441
鯁	-12.1441
鏘	-12.1442
悰	-12.1445
庥	-12.1446
迸	-12.1446
猴	-12.1447
剩	-12.1449
繭	-12.1449
嚚	-12.1449
紜	-12.145
騖	-12.145
絙	-12.1452
虖	-12.1453
玦	-12.1454
墀	-12.1456
鄄	-12.1461
麽	-12.1464
芽	-12.1465
儐	-12.1474
嚢	-12.1659
媾	-12.1659
淝	-12.1661
㺯	-12.1661
葆	-12.1662
輈	-12.1663
甬	-12.1663
媳	-12.1664
罟	-12.1664
祲	-12.1664
匍	-12.1666
飱	-12.1668
吃	-12.1668
桎	-12.1668
諍	-12.1669
歔	-12.1669
萱	-12.167
蹔	-12.167
阡	-12.1671
檝	-12.1671
舋	-12.1672
甦	-12.1672
液	-12.1672
𣢾	-12.1672
榦	-12.1673
屹	-12.1673
䍐	-12.1675
戩	-12.1675
鸜	-12.1676
瀝	-12.1676
伾	-12.1679
畛	-12.168
姧	-12.1682
憒	-12.1683
窑	-12.1683
串	-12.1683
擡	-12.1684
跴	-12.1684
畚	-12.1684
硝	-12.1693
靄	-12.1885
蜺	-12.1885
韭	-12.1888
儂	-12.189
翺	-12.1891
跂	-12.1895
撙	-12.1895
遹	-12.1896
讟	-12.1898
邐	-12.1898
鄶	-12.1898
桞	-12.1899
瀾	-12.1899
鯢	-12.19
訝	-12.19
裸	-12.1903
寬	-12.1903
佶	-12.1903
鵒	-12.1904
郾	-12.1904
薙	-12.1904
映	-12.1909
鳶	-12.1911
螟	-12.1911
潄	-12.1912
炯	-12.1913
煑	-12.1914
埀	-12.1915
䒭	-12.1919
鬢	-12.21
虓	-12.2109
啖	-12.2118
軟	-12.2123
靑	-12.2123
鉗	-12.2123
􁂥	-12.2124
鈴	-12.2124
熖	-12.2127
翅	-12.2128
莠	-12.2128
汁	-12.2129
泠	-12.2129
溷	-12.213
兠	-12.213
嵯	-12.2131
畤	-12.2133
醇	-12.2134
慱	-12.2134
砌	-12.2135
毐	-12.2138
䙝	-12.2139
郿	-12.214
磡	-12.2144
㓙	-12.2344
簞	-12.2354
鉦	-12.2354
滉	-12.2357
靚	-12.2359
拭	-12.2359
馹	-12.236
笮	-12.236
舄	-12.2361
挨	-12.2362
玊	-12.2362
抃	-12.2363
緹	-12.2364
昺	-12.2364
忷	-12.2364
紬	-12.2367
齮	-12.2367
蹷	-12.2369
𦍑	-12.237
拽	-12.2373
纊	-12.2374
躱	-12.2376
槽	-12.2376
頺	-12.2376
璩	-12.2383
扉	-12.2383
籙	-12.2386
􁇳	-12.2594
罍	-12.2596
硬	-12.2597
霈	-12.2598
毖	-12.26
崈	-12.2601
洒	-12.2603
葱	-12.2604
盞	-12.2604
吭	-12.2604
旭	-12.2604
朶	-12.2605
㔻	-12.2606
僰	-12.2607
靦	-12.2608
啐	-12.2609
忙	-12.2609
唁	-12.261
盃	-12.2611
献	-12.2611
涌	-12.2612
軋	-12.2613
淆	-12.2613
掇	-12.2613
莎	-12.2614
赧	-12.2614
訕	-12.2614
衫	-12.2615
珩	-12.2616
轎	-12.2616
晁	-12.2617
鋌	-12.2617
堇	-12.2618
聮	-12.2619
肜	-12.2619
鶻	-12.262
蕤	-12.262
愀	-12.2622
褁	-12.2623
炒	-12.2624
綫	-12.2625
滙	-12.2626
慣	-12.2627
囤	-12.2844
沭	-12.285
箱	-12.2853
禡	-12.2853
惋	-12.2854
嗾	-12.2854
茆	-12.2855
腎	-12.2856
鐩	-12.2857
硤	-12.2857
翀	-12.2858
湮	-12.286
菟	-12.2861
晶	-12.2861
濃	-12.2862
摭	-12.2863
脆	-12.2864
惛	-12.2864
㬰	-12.2865
蹊	-12.2865
腑	-12.2865
尨	-12.2866
剴	-12.2866
褂	-12.2866
悴	-12.2866
豬	-12.2867
睽	-12.2868
湓	-12.2869
陝	-12.2869
婿	-12.2871
窃	-12.2872
娱	-12.2873
焜	-12.2875
圏	-12.2876
辧	-12.2879
幬	-12.2882
枵	-12.2884
蠅	-12.3097
繅	-12.3098
蝟	-12.3105
縯	-12.3107
斡	-12.3107
􁝠	-12.3108
贅	-12.311
崤	-12.311
鐫	-12.311
塡	-12.3112
濼	-12.3112
拍	-12.3113
瀰	-12.3114
茷	-12.3114
懟	-12.3115
狙	-12.3115
愴	-12.3117
瞞	-12.3118
洹	-12.3118
柸	-12.3118
脤	-12.3118
翬	-12.3119
秪	-12.3119
喋	-12.3119
穽	-12.312
剉	-12.3122
鰌	-12.3122
愜	-12.3122
窕	-12.3123
礫	-12.3123
鍊	-12.3123
蛤	-12.3123
碍	-12.3124
寀	-12.3126
忬	-12.3128
燿	-12.3129
査	-12.3129
漬	-12.3129
謄	-12.3132
秒	-12.3136
襍	-12.3143
紈	-12.3352
畮	-12.3364
蜃	-12.337
唘	-12.3372
竺	-12.3378
妺	-12.3379
邛	-12.3381
莾	-12.3381
湍	-12.3382
瑩	-12.3383
縈	-12.3384
尖	-12.3385
曆	-12.3386
㬠	-12.3387
岩	-12.3389
喊	-12.339
匀	-12.339
幻	-12.339
璨	-12.3391
鰓	-12.3391
貙	-12.3392
鯤	-12.3393
鷂	-12.3394
徔	-12.3395
䆳	-12.3423
箝	-12.3434
澣	-12.3638
璿	-12.3639
絢	-12.3641
鬷	-12.3643
穗	-12.3645
諏	-12.3646
袪	-12.3646
謠	-12.3647
壙	-12.3648
昩	-12.3649
倅	-12.3649
獮	-12.3649
憸	-12.365
掦	-12.3651
婼	-12.3651
拷	-12.3651
岔	-12.3654
蕡	-12.3654
茸	-12.3655
暘	-12.3655
荔	-12.3655
鏗	-12.3656
債	-12.3656
庀	-12.3657
蓺	-12.3657
蒋	-12.3657
圎	-12.3658
仄	-12.3658
祟	-12.3658
硫	-12.366
縑	-12.3661
貿	-12.3661
宕	-12.3661
珉	-12.3661
紱	-12.3661
坌	-12.3662
氶	-12.3665
硃	-12.3666
週	-12.3678
膜	-12.39
霤	-12.3917
瓶	-12.392
紵	-12.3921
嫳	-12.3921
軹	-12.3922
楮	-12.3922
廋	-12.3924
侄	-12.3925
撼	-12.3927
酤	-12.3927
綾	-12.3928
侏	-12.3928
攖	-12.3928
滸	-12.3928
鑕	-12.3928
凜	-12.3929
倮	-12.3929
讚	-12.3929
柞	-12.3929
囷	-12.3929
齕	-12.393
磯	-12.3931
獷	-12.3931
噉	-12.3931
啗	-12.3931
柝	-12.3931
开	-12.3932
趋	-12.3932
笥	-12.3933
濰	-12.3934
犨	-12.3934
殮	-12.3934
虡	-12.3934
爌	-12.3936
檔	-12.3937
眠	-12.3939
栰	-12.394
醬	-12.3941
丒	-12.3941
隤	-12.3941
棼	-12.3943
媧	-12.3945
鍵	-12.3945
湆	-12.4196
猊	-12.4197
別	-12.4204
繻	-12.4205
睥	-12.4206
勗	-12.4206
罸	-12.4207
瑑	-12.4209
筓	-12.4209
洫	-12.4211
塜	-12.4213
燄	-12.4213
慾	-12.4213
耑	-12.4215
佻	-12.4215
廿	-12.4215
肢	-12.4216
臍	-12.4216
烙	-12.4217
橘	-12.422
祊	-12.4221
騂	-12.4221
鑼	-12.4221
歧	-12.4222
簟	-12.4222
獅	-12.4224
瑁	-12.4224
万	-12.4225
爍	-12.4227
徕	-12.4227
鼂	-12.4228
栖	-12.4228
𤾉	-12.4229
咏	-12.4231
凃	-12.4234
薯	-12.4236
饜	-12.4492
飫	-12.4492
糺	-12.4497
炅	-12.4499
?	-12.4501
徨	-12.4502
酺	-12.4502
猫	-12.4503
芾	-12.4503
蘩	-12.4505
絮	-12.4505
褥	-12.4505
垜	-12.4507
洸	-12.4509
藎	-12.451
夬	-12.451
餕	-12.451
儷	-12.4511
茵	-12.4511
殳	-12.4514
藿	-12.4515
謖	-12.4515
扃	-12.4516
螭	-12.4516
挹	-12.4517
柤	-12.4517
裼	-12.4517
沬	-12.4517
幘	-12.4518
獒	-12.4519
沌	-12.4521
攤	-12.4521
蜩	-12.4522
杪	-12.4523
腿	-12.4526
骼	-12.4799
駸	-12.4801
蛾	-12.4802
瑯	-12.4805
嘔	-12.4806
濋	-12.4807
濓	-12.4807
娯	-12.4807
丼	-12.4807
誄	-12.4808
梨	-12.4808
幢	-12.4809
飴	-12.4809
煒	-12.4809
霓	-12.4809
翣	-12.4809
萑	-12.4809
悸	-12.4811
櫝	-12.4811
髯	-12.4812
盔	-12.4812
莞	-12.4813
孶	-12.4815
彎	-12.4815
厈	-12.4815
朦	-12.4815
愒	-12.4815
褰	-12.4816
錙	-12.4817
扳	-12.4818
𥙷	-12.4818
帆	-12.4819
饟	-12.482
栽	-12.482
圯	-12.482
氾	-12.4821
蜡	-12.4823
劌	-12.4823
鑽	-12.4827
鋹	-12.4827
杳	-12.4832
慺	-12.4839
鄗	-12.484
瘍	-12.5097
郫	-12.5099
楙	-12.5102
溱	-12.5113
蒺	-12.5114
蜜	-12.5114
𧃊	-12.5114
絕	-12.5116
侁	-12.5116
繄	-12.5117
昃	-12.5117
帊	-12.5118
喁	-12.5118
靴	-12.512
猿	-12.512
聆	-12.5121
輳	-12.5121
褓	-12.5121
兊	-12.5122
艫	-12.5123
躧	-12.5123
騍	-12.5124
缶	-12.5125
蚡	-12.5125
蘖	-12.5126
蘋	-12.5126
鍜	-12.5127
悽	-12.5127
隼	-12.5128
茀	-12.5128
箋	-12.5128
嘴	-12.5131
溘	-12.5131
剏	-12.5131
溯	-12.5131
轘	-12.5132
璆	-12.5132
竪	-12.5133
虵	-12.5134
辮	-12.5134
碭	-12.5134
刪	-12.5135
紡	-12.5137
笁	-12.5138
廙	-12.5141
醤	-12.5141
楅	-12.5406
檐	-12.5422
玖	-12.5429
烜	-12.5434
楠	-12.5434
鄠	-12.5435
峨	-12.5437
関	-12.5437
鼙	-12.5438
藹	-12.544
稾	-12.544
倓	-12.544
姞	-12.5441
璹	-12.5441
針	-12.5441
呐	-12.5442
㰱	-12.5443
湔	-12.5444
韙	-12.5445
幃	-12.5445
溧	-12.5445
鞌	-12.5446
閿	-12.5446
畞	-12.5447
鄊	-12.5447
澮	-12.5448
皿	-12.5449
碌	-12.5449
熏	-12.5451
陿	-12.5451
箸	-12.5451
靺	-12.5451
翥	-12.5452
鞗	-12.5452
町	-12.5452
跽	-12.5453
璇	-12.5453
脰	-12.5454
杕	-12.5454
痾	-12.5454
甑	-12.5455
彄	-12.5457
䓁	-12.5459
樑	-12.546
爼	-12.546
舡	-12.5461
郇	-12.5461
枳	-12.5463
菩	-12.5465
兀	-12.5466
沆	-12.5477
璮	-12.5504
柶	-12.5761
斿	-12.5763
𣏌	-12.5763
畼	-12.5765
騭	-12.5769
簠	-12.5769
獺	-12.577
歜	-12.577
䞇	-12.577
泆	-12.5772
沫	-12.5775
罙	-12.5775
䲭	-12.5776
垍	-12.5777
歂	-12.5777
紗	-12.5778
歃	-12.5778
杓	-12.5778
啄	-12.5779
蠎	-12.5779
玁	-12.578
滹	-12.578
澌	-12.578
搤	-12.578
憝	-12.5781
挂	-12.5781
絛	-12.5781
窠	-12.5782
杌	-12.5782
卉	-12.5782
泳	-12.5783
趯	-12.5783
鞘	-12.5784
祸	-12.5784
恫	-12.5784
棊	-12.5785
毳	-12.5785
啣	-12.5785
𤨏	-12.5786
霾	-12.5787
駹	-12.5788
棻	-12.579
剗	-12.5791
蝥	-12.5792
駛	-12.5792
兗	-12.5793
餅	-12.5793
呪	-12.5795
衎	-12.5796
嫪	-12.5797
瓛	-12.6105
璃	-12.6105
塈	-12.611
澂	-12.6111
琕	-12.6111
遘	-12.6112
銛	-12.6114
璡	-12.6114
烖	-12.6115
勷	-12.6116
嚻	-12.6117
适	-12.6118
拐	-12.6119
阽	-12.6119
頎	-12.6119
偫	-12.6119
掄	-12.612
睫	-12.6121
苓	-12.6122
舳	-12.6123
邙	-12.6123
蹋	-12.6123
躓	-12.6123
偁	-12.6124
鴛	-12.6124
嗢	-12.6125
鞨	-12.6126
縵	-12.6126
癡	-12.6127
媪	-12.6127
嗛	-12.6127
窒	-12.6127
粧	-12.6127
攅	-12.6129
戱	-12.6129
禩	-12.6129
澨	-12.6129
很	-12.6129
躔	-12.613
郳	-12.6131
袐	-12.6131
劈	-12.6133
餱	-12.6133
趫	-12.6134
轝	-12.6135
檮	-12.6138
轢	-12.6139
騈	-12.6144
壄	-12.6154
紞	-12.6462
瑰	-12.647
褘	-12.647
傀	-12.6471
浣	-12.6471
柷	-12.6471
廄	-12.6473
鼉	-12.6473
髻	-12.6473
芈	-12.6475
犖	-12.6476
譆	-12.6476
䄂	-12.6477
豸	-12.6477
捫	-12.6479
翮	-12.6479
齪	-12.6479
疥	-12.6479
贜	-12.648
眦	-12.648
鈕	-12.6481
鷺	-12.6482
筰	-12.6482
槨	-12.6484
締	-12.6484
觜	-12.6485
竢	-12.6485
憖	-12.6486
闋	-12.6486
飧	-12.6487
妲	-12.6487
螫	-12.6488
椘	-12.6488
洊	-12.6489
份	-12.6489
塤	-12.6489
寑	-12.6489
豋	-12.649
蔴	-12.649
醸	-12.6492
芸	-12.6494
盬	-12.6494
鴞	-12.6498
棐	-12.6499
佼	-12.6499
咈	-12.6836
咥	-12.6837
鏊	-12.6838
眄	-12.6841
窪	-12.6841
暈	-12.6843
桔	-12.6843
瑙	-12.6844
莢	-12.6847
謔	-12.6847
皐	-12.6847
濩	-12.6847
墯	-12.6849
捆	-12.6851
陁	-12.6851
蝎	-12.6851
珦	-12.6851
噎	-12.6851
琇	-12.6851
晸	-12.6852
鈹	-12.6852
籐	-12.6852
廨	-12.6853
营	-12.6855
戅	-12.6855
鷇	-12.6855
惧	-12.6856
忮	-12.6857
蠃	-12.6858
卨	-12.6858
貊	-12.6858
璐	-12.686
覯	-12.686
擘	-12.6861
蹌	-12.6861
𦕈	-12.6862
瘼	-12.6862
畸	-12.6863
鄘	-12.6863
眺	-12.6865
匾	-12.6866
鵷	-12.6866
骫	-12.6868
躇	-12.6868
蹴	-12.6869
捏	-12.6875
卣	-12.6881
栻	-12.6896
穣	-12.7192
朏	-12.721
嘽	-12.7215
淘	-12.7217
輜	-12.7218
烘	-12.722
蕢	-12.7221
庵	-12.7222
譔	-12.7224
嘖	-12.7226
壟	-12.7228
嚙	-12.7228
傘	-12.7229
筥	-12.7229
搴	-12.7229
戞	-12.723
猓	-12.7232
堊	-12.7232
倔	-12.7234
蹉	-12.7234
槀	-12.7234
睚	-12.7235
閈	-12.7235
餮	-12.7236
敲	-12.7237
餵	-12.7237
閧	-12.724
廧	-12.724
閠	-12.724
悒	-12.7241
墠	-12.7242
憔	-12.7242
姣	-12.7242
挪	-12.7242
姫	-12.7243
髽	-12.7244
酅	-12.7244
朘	-12.7245
蕙	-12.7246
荻	-12.7247
窳	-12.7247
虒	-12.7247
棹	-12.7248
兜	-12.725
鵞	-12.7252
錬	-12.7252
㟁	-12.7253
懃	-12.7254
冇	-12.7255
徯	-12.7255
􁇔	-12.7265
湝	-12.728
􁱾	-12.7596
蠋	-12.7602
鼃	-12.761
斝	-12.7612
夣	-12.7615
慍	-12.7618
鶩	-12.7624
赳	-12.7625
㛰	-12.7625
鍔	-12.7628
㣧	-12.7628
狭	-12.7629
濙	-12.763
絏	-12.763
煨	-12.763
臏	-12.763
曮	-12.7631
鯈	-12.7631
躐	-12.7631
庳	-12.7633
俅	-12.7633
鄔	-12.7633
羹	-12.7634
窴	-12.7634
瀋	-12.7635
亰	-12.7635
鞞	-12.7636
笫	-12.7636
埓	-12.7636
肓	-12.7637
鷁	-12.7637
羶	-12.7637
帚	-12.7637
楓	-12.7637
鋋	-12.7638
賨	-12.7638
汨	-12.7638
㐫	-12.7639
珮	-12.764
怱	-12.764
痺	-12.764
筑	-12.7641
尫	-12.7642
拕	-12.7643
蔥	-12.7643
抶	-12.7643
搔	-12.7643
躊	-12.7644
牾	-12.7644
儧	-12.7645
蚊	-12.7646
詮	-12.7647
岢	-12.7648
喏	-12.7648
樺	-12.765
勰	-12.765
澍	-12.765
鸇	-12.7651
䆒	-12.7652
糲	-12.7654
綁	-12.7654
炕	-12.7654
絻	-12.7656
桁	-12.7656
鬰	-12.7658
頇	-12.766
㠶	-12.7665
崘	-12.8023
捭	-12.8028
慬	-12.8032
崕	-12.8042
矰	-12.8044
鸛	-12.8045
塾	-12.8046
簧	-12.8047
壼	-12.8047
禜	-12.8047
煤	-12.8048
灞	-12.8048
煇	-12.8049
禫	-12.805
頫	-12.805
瞳	-12.805
斑	-12.805
瞬	-12.8051
襦	-12.8051
恁	-12.8051
滴	-12.8053
琥	-12.8053
葅	-12.8053
襖	-12.8053
旟	-12.8053
踦	-12.8053
塚	-12.8053
簪	-12.8054
蝝	-12.8054
癉	-12.8054
閟	-12.8055
媮	-12.8055
昀	-12.8055
摽	-12.8055
綈	-12.8056
綍	-12.8056
筸	-12.8056
豭	-12.8057
肵	-12.8057
讁	-12.8057
淋	-12.8058
羑	-12.8059
壐	-12.8059
聃	-12.8059
粘	-12.806
甗	-12.806
賃	-12.8061
燝	-12.8061
麛	-12.8062
娼	-12.8063
稳	-12.8064
埕	-12.8065
麕	-12.8065
臝	-12.8066
罝	-12.8067
軏	-12.807
盻	-12.8071
稗	-12.8072
桌	-12.8072
㩀	-12.8072
艋	-12.8076
讞	-12.8077
罽	-12.8079
尙	-12.808
蘿	-12.808
龠	-12.8083
讌	-12.8465
坼	-12.8467
蜻	-12.8471
棋	-12.8475
嵓	-12.8478
哆	-12.8479
喈	-12.848
晙	-12.848
磽	-12.848
彷	-12.8481
棓	-12.8482
琅	-12.8482
貅	-12.8482
嬙	-12.8482
伷	-12.8483
憯	-12.8484
矍	-12.8485
苕	-12.8485
溲	-12.8487
嘷	-12.8487
嚇	-12.8488
芹	-12.8488
酳	-12.8488
馱	-12.8489
戬	-12.8489
氍	-12.8489
軺	-12.8489
恠	-12.8489
敔	-12.8489
邶	-12.849
楪	-12.8491
餗	-12.8492
佽	-12.8493
嚞	-12.8493
診	-12.8496
鼷	-12.8496
撮	-12.8496
屛	-12.8496
惎	-12.8497
翽	-12.8497
机	-12.8499
㐲	-12.85
竚	-12.8501
梭	-12.8501
洄	-12.8503
趁	-12.8503
跬	-12.8503
餔	-12.8503
梢	-12.8503
喑	-12.8503
酗	-12.8505
斁	-12.8505
舵	-12.8506
雛	-12.8506
鍠	-12.8507
窈	-12.8508
膾	-12.8509
揄	-12.8919
娠	-12.892
揉	-12.8923
粃	-12.8927
霫	-12.893
颷	-12.8931
耉	-12.8932
蝨	-12.8935
杉	-12.8935
暾	-12.8936
姨	-12.8937
鍚	-12.8937
啞	-12.8938
脀	-12.8939
窬	-12.8939
穏	-12.8939
吮	-12.8939
躅	-12.894
縗	-12.894
礬	-12.894
旐	-12.894
燉	-12.8941
簮	-12.8941
噤	-12.8942
匜	-12.8942
蔗	-12.8942
裙	-12.8943
憬	-12.8943
慊	-12.8943
楣	-12.8944
茭	-12.8944
跑	-12.8944
鏁	-12.8945
螂	-12.8945
攢	-12.8946
騸	-12.8946
盇	-12.8946
蟣	-12.8947
臊	-12.8947
糒	-12.8948
掬	-12.8948
彀	-12.8948
狷	-12.8949
鞋	-12.8949
暌	-12.8949
豊	-12.895
瘖	-12.895
燹	-12.895
燠	-12.895
捄	-12.895
騑	-12.895
傚	-12.8952
縢	-12.8953
纖	-12.8953
嫺	-12.8954
胾	-12.8954
蚌	-12.8954
埏	-12.8955
蹲	-12.8955
漷	-12.8955
鄤	-12.8956
窽	-12.8958
遡	-12.8958
慓	-12.8958
孱	-12.8959
柟	-12.8959
蔭	-12.8959
譓	-12.8963
罘	-12.8968
菌	-12.8973
黁	-12.9394
傴	-12.9403
矼	-12.9404
泫	-12.9405
嶼	-12.9406
闉	-12.9407
畵	-12.9407
坫	-12.9409
擦	-12.941
勩	-12.941
児	-12.941
薑	-12.941
舫	-12.9411
螘	-12.9411
檣	-12.9412
硯	-12.9412
鼏	-12.9412
瓴	-12.9413
訽	-12.9413
芷	-12.9414
䴡	-12.9415
橛	-12.9415
眊	-12.9415
嗤	-12.9416
肴	-12.9416
煉	-12.9416
㕓	-12.9417
溜	-12.9418
謩	-12.9419
斮	-12.9419
裾	-12.9419
絅	-12.9419
靠	-12.9419
綆	-12.942
爺	-12.942
罋	-12.942
泂	-12.9421
璵	-12.9422
媛	-12.9422
崛	-12.9423
朓	-12.9423
桉	-12.9423
麀	-12.9423
惏	-12.9423
磝	-12.9424
鍪	-12.9424
紲	-12.9425
淶	-12.9425
內	-12.9425
攩	-12.9425
堦	-12.9426
牣	-12.9426
仭	-12.9427
沍	-12.9429
暝	-12.9429
凹	-12.943
坍	-12.943
埴	-12.9431
樛	-12.9431
靁	-12.9431
魔	-12.9432
庲	-12.9433
煚	-12.9434
瑫	-12.9436
棁	-12.9436
茄	-12.9436
䠞	-12.9437
㢮	-12.9441
喫	-12.9441
悄	-12.9443
墈	-12.9452
靷	-12.9458
淞	-12.9892
莪	-12.9898
渢	-12.9903
幔	-12.9903
瘝	-12.9903
呑	-12.9906
藟	-12.9907
矇	-12.9909
贐	-12.9911
梃	-12.9911
綌	-12.9912
瘵	-12.9913
頲	-12.9914
洿	-12.9914
塋	-12.9914
伃	-12.9915
縝	-12.9915
惔	-12.9915
滏	-12.9915
酪	-12.9915
鐲	-12.9916
筍	-12.9916
䂓	-12.9917
隩	-12.9918
缾	-12.9919
嵌	-12.9919
圈	-12.992
㳙	-12.992
劬	-12.992
􁂷	-12.992
麑	-12.9921
戇	-12.9922
斲	-12.9922
櫃	-12.9922
齟	-12.9922
雚	-12.9923
捃	-12.9923
㩦	-12.9923
芊	-12.9924
冏	-12.9924
鼇	-12.9924
厎	-12.9924
霏	-12.9925
溵	-12.9926
瞶	-12.9926
跗	-12.9926
汋	-12.9928
蓆	-12.9928
𣪚	-12.9928
紕	-12.9928
哂	-12.9929
騤	-12.9929
棫	-12.9929
颶	-12.993
謊	-12.993
虬	-12.9931
􁀌	-12.9931
柎	-12.9933
芋	-12.9934
窝	-12.9934
欃	-12.9935
廚	-12.9935
牴	-12.9938
牷	-12.9939
勱	-12.9941
祛	-12.9942
鶂	-12.9951
韠	-13.0394
甿	-13.0401
椉	-13.0415
􁗁	-13.0419
瘧	-13.0422
簀	-13.0428
秫	-13.0429
欬	-13.0433
㽔	-13.0433
擿	-13.0434
諗	-13.0435
厖	-13.0436
琊	-13.0436
蝦	-13.0436
踉	-13.0438
楛	-13.0438
𥚹	-13.0439
繖	-13.0439
莬	-13.044
媟	-13.044
嵇	-13.044
㬇	-13.044
宁	-13.044
丏	-13.0441
姐	-13.0441
篳	-13.0441
壖	-13.0442
迕	-13.0442
椀	-13.0442
肻	-13.0443
魑	-13.0444
禔	-13.0444
儵	-13.0445
遟	-13.0445
璪	-13.0446
隈	-13.0446
怍	-13.0446
惮	-13.0446
姝	-13.0446
㕑	-13.0447
葫	-13.0447
艨	-13.0447
腓	-13.0447
褎	-13.0447
訌	-13.0448
淒	-13.0448
觳	-13.0448
蹠	-13.0449
瀨	-13.0449
枲	-13.0449
軛	-13.0449
忞	-13.0449
笛	-13.0449
匆	-13.045
刅	-13.0452
撘	-13.0452
券	-13.0452
昝	-13.0456
閾	-13.0456
凴	-13.0456
蚝	-13.0456
壝	-13.0457
垠	-13.0458
栩	-13.0461
咮	-13.0462
哱	-13.0463
爬	-13.0464
憺	-13.0464
笳	-13.0465
䓶	-13.0466
凈	-13.0466
淬	-13.0469
鐙	-13.0471
兪	-13.0483
显	-13.0524
晜	-13.0866
咩	-13.0964
插	-13.0969
椅	-13.0978
礱	-13.0979
燇	-13.0984
蹯	-13.0985
鍰	-13.0985
繯	-13.0985
仡	-13.0987
頁	-13.0987
霪	-13.0987
屉	-13.0988
甒	-13.099
儛	-13.099
遒	-13.0991
縡	-13.0991
攣	-13.0991
檇	-13.0992
斶	-13.0992
榷	-13.0992
臀	-13.0993
疢	-13.0994
猨	-13.0995
怦	-13.0995
氂	-13.0996
阱	-13.0996
眥	-13.0997
濺	-13.0998
俳	-13.0998
坻	-13.0999
憇	-13.0999
綯	-13.1
鷰	-13.1
匃	-13.1002
誆	-13.1002
諼	-13.1002
鄟	-13.1002
悁	-13.1003
賕	-13.1004
恧	-13.1004
惹	-13.1004
樣	-13.1005
衒	-13.1006
霣	-13.1006
吻	-13.1006
𢷬	-13.1006
琸	-13.1006
莆	-13.1007
蹵	-13.1008
畦	-13.1008
凄	-13.1008
嚼	-13.1009
忖	-13.1009
奧	-13.101
羖	-13.1012
絓	-13.1012
恍	-13.1012
憩	-13.1013
栝	-13.1014
檛	-13.1015
咳	-13.1015
錞	-13.1015
坰	-13.1015
窶	-13.1017
汊	-13.1017
蓉	-13.1018
漚	-13.1018
溽	-13.1019
秤	-13.1019
雊	-13.1022
攪	-13.1024
刲	-13.1024
芙	-13.1024
霉	-13.1031
醋	-13.1033
翡	-13.1035
觱	-13.1553
琉	-13.1557
瀦	-13.1563
瀍	-13.1572
綑	-13.1573
咒	-13.1574
禠	-13.1575
饘	-13.1576
勳	-13.1576
肫	-13.1577
嗔	-13.1577
熸	-13.1577
椹	-13.158
扱	-13.1581
緱	-13.1581
蔿	-13.1582
柚	-13.1582
篁	-13.1583
鄀	-13.1584
戛	-13.1585
𫀆	-13.1587
䖟	-13.1587
壍	-13.1587
瀏	-13.1588
欝	-13.1588
冽	-13.1589
淦	-13.1589
慌	-13.1589
秭	-13.1589
埜	-13.159
萋	-13.159
崞	-13.159
莋	-13.159
礿	-13.159
窋	-13.159
澱	-13.1592
隃	-13.1592
䰟	-13.1593
鞶	-13.1593
疹	-13.1593
愞	-13.1593
虱	-13.1593
踧	-13.1594
倏	-13.1594
嗎	-13.1595
儇	-13.1595
彲	-13.1595
汏	-13.1595
糅	-13.1597
臑	-13.1597
簷	-13.1597
顱	-13.1598
删	-13.1598
䀋	-13.1599
醪	-13.1599
隲	-13.16
􁚠	-13.16
虀	-13.16
豷	-13.1601
摹	-13.1601
淩	-13.1602
薌	-13.1602
㡳	-13.1602
歠	-13.1603
㝡	-13.1603
膊	-13.1603
萎	-13.1603
哄	-13.1604
勻	-13.1604
霰	-13.1606
繙	-13.1607
珧	-13.1611
臉	-13.1612
闒	-13.1612
閗	-13.1613
怳	-13.1616
矞	-13.1618
􁠷	-13.1619
巇	-13.1622
帟	-13.2176
煴	-13.2176
禬	-13.218
浰	-13.2182
潑	-13.2194
騮	-13.2194
蔟	-13.2196
趎	-13.2196
惬	-13.2198
憙	-13.2198
䵄	-13.2199
罌	-13.22
倜	-13.2201
嶢	-13.2202
睠	-13.2202
鳧	-13.2202
擎	-13.2202
殣	-13.2203
埠	-13.2205
紼	-13.2205
儳	-13.2206
鄅	-13.2206
欎	-13.2206
劃	-13.2207
惨	-13.2207
騅	-13.2207
鬴	-13.2209
嫠	-13.2209
涙	-13.221
弣	-13.221
鷸	-13.221
剃	-13.221
逅	-13.2211
峘	-13.2211
蜉	-13.2212
杙	-13.2213
熺	-13.2213
胼	-13.2214
耰	-13.2214
胝	-13.2214
价	-13.2215
剷	-13.2215
緼	-13.2215
胖	-13.2216
鄋	-13.2216
艟	-13.2216
颯	-13.2216
曖	-13.2217
燀	-13.2217
蓏	-13.2217
抹	-13.2218
塑	-13.2218
甃	-13.2218
鵰	-13.2219
褻	-13.2219
轔	-13.222
呴	-13.222
蕉	-13.222
煞	-13.222
踴	-13.2221
畯	-13.2222
銍	-13.2222
蝮	-13.2222
屣	-13.2222
踔	-13.2222
櫂	-13.2223
閃	-13.2223
鱣	-13.2223
觥	-13.2223
峝	-13.2223
朙	-13.2224
芑	-13.2224
倕	-13.2225
㦯	-13.2226
蕕	-13.2227
僦	-13.2229
瑒	-13.2231
怫	-13.2232
泇	-13.2233
灃	-13.2234
韞	-13.2238
厘	-13.2246
俺	-13.2833
齍	-13.2846
鄕	-13.2847
攙	-13.2853
鈿	-13.2858
陔	-13.286
韎	-13.286
蛉	-13.2861
菀	-13.2862
梱	-13.2864
覡	-13.2865
墅	-13.2868
黛	-13.2868
檟	-13.2869
碗	-13.287
淛	-13.287
蒨	-13.287
穩	-13.287
皦	-13.2871
焼	-13.2871
飪	-13.2871
痌	-13.2871
璙	-13.2871
栲	-13.2871
祍	-13.2872
橒	-13.2873
拄	-13.2874
􁇠	-13.2874
箧	-13.2875
咀	-13.2876
姤	-13.2877
罩	-13.2877
篾	-13.2877
瓢	-13.2877
葑	-13.2877
豔	-13.2878
擗	-13.2879
膴	-13.288
毘	-13.2881
郠	-13.2881
踶	-13.2882
緄	-13.2882
飇	-13.2883
藕	-13.2884
堀	-13.2884
症	-13.2884
罅	-13.2885
鐶	-13.2885
眎	-13.2886
㴶	-13.2886
瑨	-13.2886
幪	-13.2887
獞	-13.2887
籓	-13.2887
姥	-13.2888
邿	-13.2888
渺	-13.2889
俚	-13.2889
艤	-13.2889
蒜	-13.2889
峡	-13.289
踖	-13.2891
鍛	-13.2891
旡	-13.2891
獫	-13.2892
揵	-13.2893
惙	-13.2894
滬	-13.2894
腯	-13.2894
騄	-13.2894
駵	-13.2895
鮌	-13.2895
嚬	-13.2895
澇	-13.2896
蘅	-13.2896
阸	-13.2896
禚	-13.2897
呶	-13.2898
憕	-13.2898
瞍	-13.2899
芰	-13.2902
賮	-13.2904
嶧	-13.2904
駉	-13.2906
唵	-13.2907
繢	-13.2907
擱	-13.2913
糖	-13.2917
鮫	-13.2919
􁡦	-13.296
倀	-13.3562
鄾	-13.3566
絇	-13.3569
鼗	-13.357
瀼	-13.3573
㚟	-13.3573
綉	-13.3579
綪	-13.3579
榱	-13.358
仵	-13.3582
蜼	-13.3582
膓	-13.3583
澁	-13.3583
蘀	-13.3584
憗	-13.3584
暀	-13.3585
茇	-13.3585
醖	-13.3586
筯	-13.3588
廛	-13.3588
霹	-13.3588
侖	-13.3589
斚	-13.3589
泅	-13.3589
螗	-13.359
芣	-13.359
釵	-13.3591
誾	-13.3591
湼	-13.3591
惆	-13.3592
焬	-13.3592
㩁	-13.3592
萄	-13.3592
鑣	-13.3592
籧	-13.3592
呢	-13.3592
槎	-13.3593
逌	-13.3593
曝	-13.3593
邘	-13.3594
羝	-13.3594
漾	-13.3594
邅	-13.3595
䍧	-13.3595
滲	-13.3596
徉	-13.3596
瘈	-13.3596
𬋩	-13.3596
珀	-13.3596
肋	-13.3597
幇	-13.3597
晻	-13.3597
噴	-13.3597
𠡠	-13.3598
迋	-13.3598
慫	-13.3599
荂	-13.3599
佖	-13.3599
燋	-13.3599
鐐	-13.3599
鞚	-13.36
筒	-13.3601
☰	-13.3601
嘘	-13.3602
黧	-13.3602
麝	-13.3602
芃	-13.3603
螣	-13.3603
緤	-13.3603
鍤	-13.3603
䢉	-13.3603
箎	-13.3603
􁁄	-13.3604
鶬	-13.3604
凊	-13.3604
卲	-13.3604
葯	-13.3605
剸	-13.3606
漦	-13.3606
宷	-13.3606
縲	-13.3609
閡	-13.361
縴	-13.3611
駔	-13.3611
澚	-13.3613
𤯝	-13.3613
𢾗	-13.3613
杷	-13.3613
噦	-13.3616
篠	-13.3617
迃	-13.3622
崎	-13.3623
樅	-13.3625
紥	-13.3632
断	-13.3643
灂	-13.4315
猇	-13.4315
箙	-13.4327
悺	-13.4335
纚	-13.4337
幞	-13.4338
頍	-13.4343
鏢	-13.4344
涅	-13.4345
膰	-13.4346
眭	-13.4347
湑	-13.435
蹀	-13.4352
逯	-13.4352
齗	-13.4353
藂	-13.4353
鱉	-13.4355
旉	-13.4355
賙	-13.4356
笴	-13.4356
芉	-13.4356
夐	-13.4357
殍	-13.4358
賷	-13.4358
匙	-13.4358
畒	-13.4359
􁂪	-13.4359
撑	-13.4359
縹	-13.436
苢	-13.436
摛	-13.4361
鷖	-13.4361
漉	-13.4361
尗	-13.4361
譌	-13.4361
唆	-13.4362
曀	-13.4362
殚	-13.4362
虩	-13.4363
錘	-13.4363
猋	-13.4363
碓	-13.4363
葡	-13.4363
搥	-13.4364
鑪	-13.4365
咋	-13.4365
痼	-13.4366
芼	-13.4366
蚋	-13.4366
惚	-13.4366
嵒	-13.4367
蓑	-13.4367
甓	-13.4367
嗌	-13.4367
胔	-13.4367
遨	-13.4368
秕	-13.4368
隮	-13.4368
菆	-13.4368
炫	-13.4368
鍬	-13.4368
洳	-13.4369
浿	-13.4369
沚	-13.4369
鴽	-13.4369
耏	-13.437
闑	-13.4371
樟	-13.4371
鵶	-13.4371
跼	-13.4371
羕	-13.4372
䌓	-13.4372
褏	-13.4372
咤	-13.4372
軿	-13.4373
偝	-13.4373
撅	-13.4373
嫓	-13.4373
㮣	-13.4374
撿	-13.4374
臞	-13.4375
哽	-13.4375
戳	-13.4377
憧	-13.4377
詫	-13.4377
鐔	-13.4378
嘓	-13.4378
蓽	-13.4378
巂	-13.4379
鎸	-13.438
磑	-13.4381
暕	-13.4383
撈	-13.4386
叫	-13.4387
蚓	-13.4387
蒔	-13.4388
匭	-13.4389
鍇	-13.4389
骩	-13.439
鏟	-13.439
嗑	-13.4393
謇	-13.4399
恡	-13.44
䫉	-13.4403
煢	-13.4406
找	-13.4411
􁱶	-13.443
簭	-13.5152
鰍	-13.5163
猱	-13.5172
瞠	-13.5174
翛	-13.5174
棖	-13.5177
􁱴	-13.5177
扛	-13.5178
蹢	-13.5178
􁨄	-13.518
醻	-13.5181
旜	-13.5182
芍	-13.5182
尢	-13.5183
傔	-13.5184
瞢	-13.5184
禼	-13.5184
汔	-13.5185
眯	-13.5185
黝	-13.5185
郲	-13.5186
鏵	-13.5187
駃	-13.5187
焯	-13.5187
蛩	-13.5188
髹	-13.5188
拇	-13.5188
縕	-13.5188
鍍	-13.5189
聒	-13.519
韡	-13.519
廁	-13.519
埭	-13.5191
閥	-13.5191
酧	-13.5191
崱	-13.5191
屝	-13.5191
僬	-13.5192
驊	-13.5192
唶	-13.5192
癬	-13.5192
迢	-13.5192
紟	-13.5192
縟	-13.5192
娀	-13.5193
溟	-13.5193
荏	-13.5194
啚	-13.5194
鐝	-13.5194
脿	-13.5194
飜	-13.5194
嶮	-13.5195
箘	-13.5195
瀬	-13.5195
醊	-13.5197
壚	-13.5197
溴	-13.5197
邰	-13.5197
鄬	-13.5198
酎	-13.5198
屐	-13.5198
蚠	-13.5199
麄	-13.5199
艇	-13.5199
籽	-13.5199
蛭	-13.5199
篷	-13.52
絪	-13.52
饁	-13.5201
嶓	-13.5201
瓆	-13.5201
訏	-13.5202
昈	-13.5202
玢	-13.5202
蘷	-13.5203
磴	-13.5203
鎚	-13.5203
㾗	-13.5203
懵	-13.5204
烱	-13.5205
菱	-13.5205
姆	-13.5205
衅	-13.5205
酏	-13.5206
毡	-13.5206
珵	-13.5206
憮	-13.5206
笈	-13.5207
蟹	-13.5207
溆	-13.5207
穵	-13.5207
玃	-13.5207
疉	-13.5208
媢	-13.5208
繾	-13.5208
楔	-13.5209
觿	-13.5209
釭	-13.521
抇	-13.521
檉	-13.5211
稺	-13.5211
茁	-13.5211
岵	-13.5211
撡	-13.5212
鬥	-13.5213
驎	-13.5215
朾	-13.5216
葷	-13.5216
醲	-13.5216
窵	-13.5217
癲	-13.5217
遫	-13.5218
薁	-13.5219
曁	-13.522
詖	-13.5222
蜎	-13.5223
苪	-13.5223
姁	-13.5224
晊	-13.5225
娟	-13.5225
圮	-13.5225
瀉	-13.5225
哇	-13.5225
坟	-13.5227
忼	-13.5227
螢	-13.5227
崟	-13.5233
槪	-13.6066
蛆	-13.6071
睒	-13.6078
悆	-13.608
稲	-13.6081
棨	-13.6082
鬩	-13.6084
􁏄	-13.6084
漪	-13.6084
醳	-13.609
獬	-13.6091
籟	-13.6091
詁	-13.6092
囓	-13.6093
澡	-13.6093
𬒮	-13.6093
􁀐	-13.6094
鳸	-13.6094
褶	-13.6095
刹	-13.6095
蟾	-13.6095
薺	-13.6095
☷	-13.6096
廱	-13.6096
滻	-13.6097
溶	-13.6097
鋐	-13.6097
𠢐	-13.6098
彜	-13.6098
髑	-13.6098
柙	-13.6099
蔕	-13.61
埧	-13.61
笲	-13.6101
哮	-13.6101
斆	-13.6102
犴	-13.6102
畹	-13.6102
鞾	-13.6103
賖	-13.6104
堌	-13.6104
唳	-13.6104
癃	-13.6104
禴	-13.6104
􁊋	-13.6105
獳	-13.6105
郪	-13.6106
歹	-13.6106
緌	-13.6106
揕	-13.6107
阤	-13.6107
梲	-13.6107
胠	-13.6107
裯	-13.6108
撕	-13.6108
蛙	-13.6108
淙	-13.6108
娵	-13.6109
乜	-13.6109
彖	-13.6109
訿	-13.611
擂	-13.611
柢	-13.611
噠	-13.611
艶	-13.6111
慇	-13.6111
鮓	-13.6111
杠	-13.6111
筲	-13.6111
嘲	-13.6111
襯	-13.6112
埳	-13.6112
狶	-13.6112
垝	-13.6112
蓂	-13.6112
暍	-13.6113
惸	-13.6113
扄	-13.6114
笱	-13.6114
戔	-13.6114
甎	-13.6115
耎	-13.6115
崍	-13.6115
禖	-13.6115
猒	-13.6116
繽	-13.6116
穠	-13.6117
鷲	-13.6117
牐	-13.6118
㟧	-13.6118
蜋	-13.6119
蔀	-13.6119
碕	-13.6121
缷	-13.6121
篙	-13.6122
楸	-13.6122
耔	-13.6122
檿	-13.6122
敳	-13.6123
逷	-13.6123
牼	-13.6124
眴	-13.6125
綣	-13.6125
濊	-13.6126
簴	-13.6126
㳅	-13.6126
茝	-13.6127
絍	-13.6127
昫	-13.6127
捋	-13.6127
拌	-13.6128
嶂	-13.6128
胊	-13.613
讇	-13.6132
麺	-13.6134
稄	-13.6136
鋏	-13.6137
􁁏	-13.6137
芘	-13.6139
鬵	-13.614
姱	-13.6149
籸	-13.615
澒	-13.6162
繶	-13.7054
韍	-13.707
佷	-13.7071
紃	-13.7075
吒	-13.7075
軷	-13.7078
楬	-13.708
婣	-13.708
玀	-13.7083
巉	-13.7084
鍭	-13.7086
鑱	-13.7086
窆	-13.7087
礧	-13.7087
痿	-13.7089
噀	-13.7089
㗋	-13.709
濂	-13.709
瀧	-13.709
嬈	-13.7091
鼬	-13.7091
䁥	-13.7092
曅	-13.7093
隥	-13.7093
窅	-13.7093
萯	-13.7095
鶯	-13.7095
蓁	-13.7095
羃	-13.7096
謏	-13.7096
狌	-13.7096
虔	-13.7097
壷	-13.7097
嘒	-13.7097
衺	-13.7097
殻	-13.7097
戹	-13.7097
鵾	-13.7098
禭	-13.7098
絆	-13.7098
酥	-13.7099
繐	-13.7099
槬	-13.71
曚	-13.71
窰	-13.7101
腵	-13.7102
栳	-13.7104
渰	-13.7104
蟊	-13.7104
紺	-13.7105
櫆	-13.7105
僎	-13.7105
荳	-13.7105
嫫	-13.7105
咆	-13.7105
珈	-13.7106
鴳	-13.7106
楗	-13.7106
欹	-13.7106
亁	-13.7107
呻	-13.7107
垤	-13.7107
猳	-13.7107
媺	-13.7108
禝	-13.7108
􁨑	-13.7108
磋	-13.7108
鄺	-13.7108
裦	-13.7109
熛	-13.7109
駼	-13.711
瑮	-13.711
觩	-13.7111
㷀	-13.7111
槱	-13.7112
俵	-13.7112
澘	-13.7114
虯	-13.7114
噭	-13.7114
忉	-13.7114
玭	-13.7114
蹬	-13.7115
矚	-13.7115
湄	-13.7115
儡	-13.7115
腠	-13.7115
飈	-13.7115
旛	-13.7116
缸	-13.7116
譊	-13.7116
鄞	-13.7117
噣	-13.7118
㬎	-13.7118
佉	-13.7118
薜	-13.7118
吊	-13.7119
碇	-13.7119
樾	-13.7119
瑔	-13.7119
徬	-13.712
荗	-13.712
桅	-13.712
釧	-13.7121
鎡	-13.7121
磻	-13.7122
纜	-13.7122
甖	-13.7122
驘	-13.7122
熄	-13.7122
醵	-13.7122
侠	-13.7122
嘱	-13.7123
陥	-13.7123
鷟	-13.7123
俌	-13.7124
韔	-13.7124
韘	-13.7125
拈	-13.7126
鬆	-13.7127
脡	-13.7127
萴	-13.7128
佹	-13.7128
膀	-13.7129
摐	-13.7129
櫽	-13.713
闟	-13.713
駴	-13.7131
型	-13.7131
槧	-13.7131
蓨	-13.7131
霿	-13.7133
渫	-13.7133
悊	-13.7134
菊	-13.7135
㻛	-13.7135
趼	-13.7135
褲	-13.7136
跕	-13.714
犆	-13.7151
􁱬	-13.7162
狫	-13.7195
犵	-13.7204
嵿	-13.8157
穄	-13.8174
埆	-13.8181
灄	-13.8181
煃	-13.8181
鐺	-13.8185
臡	-13.8193
蝶	-13.8194
韉	-13.8197
禨	-13.8197
瘥	-13.8198
䑛	-13.8198
淯	-13.8198
稭	-13.8198
襪	-13.8199
珤	-13.8199
珝	-13.82
趆	-13.82
倥	-13.8201
簬	-13.8202
蘚	-13.8203
􁇢	-13.8204
燻	-13.8204
癭	-13.8204
笆	-13.8204
☵	-13.8204
梳	-13.8205
澭	-13.8205
䠴	-13.8206
鶵	-13.8206
瘉	-13.8206
窌	-13.8206
䡖	-13.8206
喆	-13.8207
遰	-13.8207
朼	-13.8207
䷍	-13.8207
饎	-13.8207
閷	-13.8208
􁂎	-13.8208
髭	-13.8208
醆	-13.8208
麃	-13.8208
頏	-13.8208
虣	-13.8209
跀	-13.8209
杅	-13.8209
涘	-13.8209
衊	-13.821
咼	-13.8211
耋	-13.8211
奡	-13.8212
𡵨	-13.8212
檡	-13.8213
蔞	-13.8213
猘	-13.8214
玕	-13.8214
倞	-13.8214
陼	-13.8214
鵜	-13.8215
輼	-13.8215
杻	-13.8216
瀟	-13.8216
柣	-13.8216
漓	-13.8216
袝	-13.8216
􁂒	-13.8216
輴	-13.8217
畺	-13.8217
躙	-13.8218
澀	-13.8218
轆	-13.8218
敻	-13.8218
撩	-13.8219
鍥	-13.8219
柑	-13.8219
潏	-13.822
嶔	-13.822
扮	-13.822
鷩	-13.822
顫	-13.822
􁱻	-13.822
爝	-13.822
嘶	-13.8221
鞀	-13.8221
蝸	-13.8221
鑚	-13.8221
翜	-13.8221
濞	-13.8221
稂	-13.8221
鷃	-13.8222
墐	-13.8222
秸	-13.8222
牱	-13.8223
𢡟	-13.8223
聪	-13.8223
鄑	-13.8224
橡	-13.8224
穯	-13.8224
麈	-13.8224
絫	-13.8224
苹	-13.8224
滓	-13.8225
摇	-13.8225
榔	-13.8225
赬	-13.8225
玈	-13.8225
菰	-13.8225
倎	-13.8226
諝	-13.8226
摳	-13.8226
砮	-13.8226
畊	-13.8226
螾	-13.8226
蟁	-13.8226
邨	-13.8227
焱	-13.8228
臟	-13.8228
瞪	-13.8228
嘍	-13.8228
舩	-13.8228
伻	-13.8228
嶸	-13.8229
跦	-13.8229
爹	-13.8229
㓗	-13.823
艷	-13.823
翃	-13.823
侫	-13.823
簣	-13.8231
巣	-13.8231
涔	-13.8231
惷	-13.8231
枸	-13.8231
蔇	-13.8231
韮	-13.8232
矮	-13.8233
郚	-13.8233
輮	-13.8233
蕐	-13.8233
爥	-13.8234
茗	-13.8234
箏	-13.8235
毚	-13.8236
䷥	-13.8236
訩	-13.8237
騊	-13.8237
猩	-13.8237
懔	-13.8238
銕	-13.8239
麦	-13.824
諴	-13.8241
蒹	-13.8241
喤	-13.8242
卾	-13.8247
諰	-13.8249
淀	-13.8251
穂	-13.8252
釃	-13.8259
􁌿	-13.8264
媼	-13.8275
嵊	-13.83
龡	-13.9402
鋝	-13.9404
邆	-13.9404
噩	-13.9405
鼛	-13.9422
匶	-13.9424
瘤	-13.9428
睾	-13.9429
孀	-13.943
擷	-13.9431
餚	-13.9436
粑	-13.9442
鈃	-13.9442
罇	-13.9445
圩	-13.9445
皃	-13.9447
杈	-13.9447
霅	-13.9448
岠	-13.9449
湩	-13.9449
潬	-13.945
蘊	-13.945
賧	-13.9451
疣	-13.9451
􁨓	-13.9451
煊	-13.9451
癩	-13.9451
盌	-13.9452
墝	-13.9453
畬	-13.9453
訔	-13.9453
脞	-13.9455
惪	-13.9455
帡	-13.9455
玝	-13.9455
斄	-13.9456
擋	-13.9456
盭	-13.9457
崐	-13.9457
崦	-13.9458
簨	-13.9459
岫	-13.946
傁	-13.946
籜	-13.946
掫	-13.9462
蟇	-13.9462
荓	-13.9462
涎	-13.9463
屩	-13.9464
玼	-13.9464
秖	-13.9464
蒭	-13.9464
鏦	-13.9464
焠	-13.9464
㶚	-13.9464
紝	-13.9465
穟	-13.9465
忩	-13.9465
縓	-13.9465
憍	-13.9465
偈	-13.9466
狴	-13.9466
斸	-13.9466
鎌	-13.9466
肂	-13.9467
艸	-13.9467
漯	-13.9467
豵	-13.9467
竂	-13.9467
楡	-13.9467
軘	-13.9468
呦	-13.9468
欑	-13.9468
甍	-13.9469
幠	-13.9469
騙	-13.9469
苡	-13.9469
橑	-13.9469
觹	-13.9469
豝	-13.9469
棰	-13.947
嗅	-13.947
睇	-13.947
薿	-13.947
彿	-13.947
涗	-13.947
妊	-13.9471
唤	-13.9471
姙	-13.9471
蚳	-13.9471
儺	-13.9471
蹐	-13.9471
鱠	-13.9472
驌	-13.9472
毌	-13.9472
茤	-13.9472
昳	-13.9472
鈲	-13.9472
藳	-13.9472
郹	-13.9473
􁂠	-13.9473
彍	-13.9473
淸	-13.9473
麪	-13.9473
䣛	-13.9474
寉	-13.9474
蜒	-13.9474
蜿	-13.9474
袛	-13.9474
埿	-13.9474
刓	-13.9474
丰	-13.9474
澞	-13.9475
堨	-13.9475
儈	-13.9476
䙫	-13.9476
楶	-13.9476
漱	-13.9476
躄	-13.9477
軔	-13.9477
冓	-13.9477
銚	-13.9478
嘑	-13.9478
鐻	-13.9478
漼	-13.9478
膞	-13.9478
韣	-13.9479
琱	-13.9479
迮	-13.9479
賸	-13.9479
漅	-13.948
誖	-13.948
躑	-13.948
筩	-13.948
㳫	-13.9481
吧	-13.9481
啾	-13.9481
糝	-13.9481
璸	-13.9482
岍	-13.9482
饍	-13.9482
窻	-13.9482
輹	-13.9483
媽	-13.9483
髄	-13.9483
錕	-13.9483
鞉	-13.9484
襘	-13.9484
􁱝	-13.9484
帨	-13.9485
櫱	-13.9486
纏	-13.9486
裋	-13.9486
洌	-13.9487
幦	-13.9488
埰	-13.9488
傺	-13.9488
熨	-13.9489
鑨	-13.9489
紉	-13.949
欿	-13.949
爓	-13.9491
檠	-13.9491
枻	-13.9492
嚏	-13.9492
掀	-13.9493
粻	-13.9494
洟	-13.9494
艅	-13.9495
朌	-13.9495
䟱	-13.9498
訹	-13.9499
槌	-13.9499
稑	-13.9503
鴇	-13.951
虙	-13.951
銶	-13.9511
蓀	-13.9515
啍	-13.9518
焕	-13.9518
鬋	-13.9531
􁆡	-14.079
丌	-14.081
酇	-14.0827
訑	-14.0845
涫	-14.0852
擩	-14.0853
菓	-14.0859
皙	-14.0861
渳	-14.0862
玟	-14.0864
剚	-14.0866
櫕	-14.0868
薀	-14.0868
䷇	-14.0869
莧	-14.087
齓	-14.087
瑳	-14.0871
渌	-14.0872
堝	-14.0874
抺	-14.0875
咬	-14.0876
狺	-14.0877
搘	-14.0877
爱	-14.0878
凂	-14.0878
蚿	-14.0879
􁕏	-14.088
簸	-14.088
溍	-14.0881
骴	-14.0881
銲	-14.0881
葳	-14.0882
窔	-14.0882
𣺌	-14.0883
縿	-14.0883
輗	-14.0884
飦	-14.0884
昄	-14.0884
茒	-14.0885
墌	-14.0885
酹	-14.0885
鼜	-14.0886
柹	-14.0886
睆	-14.0886
獰	-14.0887
颿	-14.0887
㧾	-14.0887
簍	-14.0887
軄	-14.0887
􁞧	-14.0887
咢	-14.0888
壎	-14.0888
溠	-14.0889
撚	-14.0889
矔	-14.089
箾	-14.089
縚	-14.089
鑛	-14.089
侣	-14.089
艎	-14.089
冞	-14.089
騃	-14.089
虨	-14.089
稸	-14.0891
汩	-14.0891
皡	-14.0891
嶪	-14.0891
鏚	-14.0891
鹻	-14.0891
忸	-14.0891
駾	-14.0891
莩	-14.0891
蕎	-14.0891
惱	-14.0892
蚍	-14.0892
濆	-14.0892
孌	-14.0892
軨	-14.0893
焫	-14.0893
橚	-14.0893
洑	-14.0893
蛻	-14.0893
棜	-14.0894
剺	-14.0894
叧	-14.0894
􁂧	-14.0894
廑	-14.0894
埡	-14.0894
浃	-14.0895
㐀	-14.0895
稆	-14.0895
舗	-14.0895
繦	-14.0895
揃	-14.0895
韈	-14.0896
妍	-14.0896
呱	-14.0897
崒	-14.0897
愓	-14.0897
蠏	-14.0897
􁔨	-14.0897
粳	-14.0898
儹	-14.0898
冔	-14.0898
瑴	-14.0898
羭	-14.0898
絨	-14.0899
宧	-14.0899
稯	-14.0899
謌	-14.0899
簦	-14.0899
荄	-14.0899
僔	-14.0899
穜	-14.0899
痢	-14.0899
皞	-14.0899
眢	-14.0899
蜴	-14.09
菼	-14.09
鄼	-14.09
鐬	-14.09
暅	-14.09
呫	-14.0901
琖	-14.0901
睛	-14.0901
瓖	-14.0902
晭	-14.0902
藋	-14.0902
礴	-14.0903
眸	-14.0903
蚉	-14.0903
詼	-14.0904
魃	-14.0904
麞	-14.0904
尻	-14.0905
掔	-14.0905
唏	-14.0905
祅	-14.0905
犠	-14.0905
謷	-14.0905
僄	-14.0906
慥	-14.0906
䷗	-14.0906
鉥	-14.0906
柿	-14.0906
胹	-14.0907
杝	-14.0907
覉	-14.0907
麰	-14.0907
沇	-14.0908
㭬	-14.0908
枘	-14.0908
皛	-14.0909
髢	-14.0909
儃	-14.0909
鶼	-14.0909
鍧	-14.091
撟	-14.091
瑹	-14.0911
礌	-14.0911
𫝑	-14.0911
悳	-14.0911
筈	-14.0912
悕	-14.0912
痔	-14.0913
㷔	-14.0914
筝	-14.0914
惘	-14.0914
疤	-14.0914
蕰	-14.0914
旆	-14.0915
榴	-14.0915
遝	-14.0915
圳	-14.0916
皈	-14.0916
郔	-14.0916
玥	-14.0917
唅	-14.0918
恝	-14.0919
渟	-14.0919
椆	-14.092
􁱘	-14.0921
緻	-14.0922
玲	-14.0922
輣	-14.0923
擥	-14.0923
酲	-14.0924
蠚	-14.0924
朒	-14.0924
䘖	-14.0925
挶	-14.0926
􁊃	-14.0926
懬	-14.0927
熇	-14.0927
錚	-14.0928
潺	-14.0929
膋	-14.0929
㵼	-14.0929
漻	-14.0929
㬢	-14.093
鋗	-14.0931
鈆	-14.0931
蟈	-14.0932
嬀	-14.0932
甽	-14.0933
凓	-14.0934
亓	-14.0934
輶	-14.0942
缻	-14.0945
捻	-14.0958
雰	-14.0958
韇	-14.1055
婧	-14.2506
㛗	-14.2506
珫	-14.2511
凾	-14.2513
蚼	-14.2519
諓	-14.252
芭	-14.2521
黅	-14.2521
㵯	-14.2521
漒	-14.2524
頨	-14.2525
琀	-14.2526
仳	-14.2528
摉	-14.2528
袗	-14.253
焴	-14.253
犮	-14.253
姍	-14.2531
糌	-14.2532
嫣	-14.2532
咷	-14.2532
矉	-14.2533
砭	-14.2534
􁝜	-14.2534
纑	-14.2536
儗	-14.2537
醓	-14.2537
軥	-14.254
甔	-14.254
皚	-14.254
闍	-14.254
眈	-14.2541
昞	-14.2542
㫤	-14.2542
慭	-14.2542
耡	-14.2542
薶	-14.2544
棃	-14.2544
膿	-14.2544
僈	-14.2544
鋩	-14.2545
𥜗	-14.2545
鎩	-14.2545
稊	-14.2545
拑	-14.2546
鄃	-14.2546
詻	-14.2546
桯	-14.2547
黏	-14.2547
窀	-14.2548
􁞗	-14.2548
昛	-14.2548
爚	-14.2548
憭	-14.2548
贋	-14.2548
蝯	-14.2549
襭	-14.2549
齔	-14.2549
晛	-14.255
邗	-14.255
㪷	-14.255
綖	-14.255
橦	-14.255
搒	-14.2551
纇	-14.2551
黟	-14.2551
迆	-14.2551
匽	-14.2552
扯	-14.2552
潝	-14.2552
☶	-14.2552
䷂	-14.2552
砧	-14.2552
跧	-14.2552
劘	-14.2552
蝱	-14.2553
瘋	-14.2553
菫	-14.2554
轤	-14.2554
栫	-14.2554
疴	-14.2554
湃	-14.2554
曬	-14.2555
抎	-14.2555
髫	-14.2555
䘐	-14.2555
熯	-14.2556
棱	-14.2556
眛	-14.2556
稃	-14.2556
蹏	-14.2556
甜	-14.2557
揩	-14.2558
紋	-14.2558
􁅔	-14.2558
鬃	-14.2558
崿	-14.2558
圬	-14.2559
痁	-14.2559
邥	-14.2559
樠	-14.2559
啁	-14.2559
絝	-14.2559
鼫	-14.256
襮	-14.256
竁	-14.256
賬	-14.256
掞	-14.256
俑	-14.256
鄐	-14.256
敓	-14.256
剬	-14.256
豗	-14.2561
嬃	-14.2561
鋟	-14.2561
愖	-14.2561
蜍	-14.2561
蝀	-14.2562
摎	-14.2563
輤	-14.2563
駰	-14.2563
襜	-14.2563
黈	-14.2564
堈	-14.2564
謦	-14.2564
扒	-14.2564
牿	-14.2564
䷑	-14.2564
踆	-14.2565
扢	-14.2565
囁	-14.2565
縰	-14.2565
儦	-14.2565
殀	-14.2566
齘	-14.2566
窫	-14.2566
吼	-14.2566
襌	-14.2566
桮	-14.2566
尔	-14.2567
黮	-14.2567
袷	-14.2567
騩	-14.2567
𡨕	-14.2567
蛛	-14.2567
怸	-14.2567
皤	-14.2567
裭	-14.2567
矻	-14.2568
萩	-14.2568
秅	-14.2568
箒	-14.2568
貐	-14.2568
旍	-14.2568
戣	-14.2568
蒱	-14.2568
毯	-14.2568
褧	-14.2568
堽	-14.2568
嶭	-14.2569
蕖	-14.2569
點	-14.2569
堧	-14.2569
㻆	-14.2569
犛	-14.2569
庛	-14.2569
鶠	-14.257
挍	-14.257
柲	-14.257
劼	-14.257
餫	-14.2571
臈	-14.2571
俔	-14.2571
􁢱	-14.2571
覷	-14.2572
穈	-14.2572
椸	-14.2572
䥥	-14.2572
蜓	-14.2572
巋	-14.2572
芴	-14.2573
鱓	-14.2573
瑇	-14.2573
浟	-14.2573
朅	-14.2573
檦	-14.2574
骭	-14.2574
嫩	-14.2574
懴	-14.2574
荃	-14.2575
爟	-14.2575
緖	-14.2575
鼖	-14.2575
訞	-14.2575
坏	-14.2575
馺	-14.2575
舐	-14.2576
鱮	-14.2576
獶	-14.2576
炰	-14.2576
苜	-14.2576
蓿	-14.2576
儥	-14.2576
汐	-14.2576
籕	-14.2577
癢	-14.2577
駓	-14.2577
幚	-14.2578
蔈	-14.2578
韅	-14.2579
𬞞	-14.2579
挼	-14.2579
钁	-14.2579
茘	-14.2579
怗	-14.2581
糿	-14.2581
鞹	-14.2581
胏	-14.2581
踝	-14.2581
慠	-14.2582
逴	-14.2582
㬚	-14.2582
烕	-14.2582
鐏	-14.2582
鼾	-14.2583
瀹	-14.2583
煗	-14.2583
礚	-14.2584
遅	-14.2584
騠	-14.2586
籃	-14.2586
硾	-14.2587
餤	-14.259
鸑	-14.259
㘭	-14.259
磕	-14.2591
鄚	-14.2591
㫋	-14.2592
薈	-14.2592
縧	-14.2593
茢	-14.2593
奶	-14.2594
燂	-14.2594
髳	-14.2594
礁	-14.2595
黾	-14.2595
穮	-14.2597
渑	-14.2601
湲	-14.2601
􁎗	-14.2606
摡	-14.2607
脹	-14.2609
䧺	-14.2609
鸖	-14.2614
蝉	-14.2614
􁀇	-14.2614
莵	-14.2614
㬭	-14.2628
劎	-14.2647
菂	-14.4435
膱	-14.4483
熢	-14.4492
蒧	-14.4496
勌	-14.4502
剞	-14.4513
歘	-14.4514
絿	-14.4515
蓷	-14.4518
蛋	-14.4522
􁏂	-14.4522
瀵	-14.4523
㢠	-14.4527
熞	-14.4527
鄪	-14.4527
髤	-14.4531
歕	-14.4532
妷	-14.4533
謼	-14.4534
蘟	-14.4534
茜	-14.4535
悈	-14.4535
觭	-14.4537
􁱧	-14.4538
捘	-14.4538
􁂞	-14.4538
􁆿	-14.4538
膻	-14.4539
揶	-14.454
𧖟	-14.454
牸	-14.454
䱷	-14.4541
頳	-14.4542
貓	-14.4542
漘	-14.4543
􁒷	-14.4543
瑥	-14.4543
􁈑	-14.4543
霦	-14.4543
瀷	-14.4544
謜	-14.4544
嘛	-14.4544
蟨	-14.4544
嚥	-14.4545
嗃	-14.4545
膄	-14.4545
翿	-14.4545
淠	-14.4546
睎	-14.4546
捥	-14.4546
㿽	-14.4546
嘂	-14.4546
暏	-14.4548
浯	-14.4548
帀	-14.4548
穸	-14.4548
禂	-14.4549
蹰	-14.4549
頞	-14.4549
𨼆	-14.4549
樻	-14.4549
琫	-14.455
秆	-14.455
捩	-14.455
唉	-14.455
䶂	-14.455
渻	-14.455
䄠	-14.4551
惽	-14.4551
鬐	-14.4551
麖	-14.4551
㥄	-14.4551
䥶	-14.4552
䣙	-14.4552
嗒	-14.4552
嫆	-14.4553
浥	-14.4553
辝	-14.4553
聄	-14.4554
輊	-14.4554
趄	-14.4554
喭	-14.4554
偊	-14.4554
搰	-14.4555
堲	-14.4555
跱	-14.4555
櫻	-14.4555
獐	-14.4556
綃	-14.4556
噆	-14.4556
蓊	-14.4556
淐	-14.4556
塼	-14.4556
榼	-14.4556
忡	-14.4556
槳	-14.4557
蠖	-14.4557
愅	-14.4557
惄	-14.4557
矗	-14.4558
圌	-14.4558
袱	-14.4558
鄍	-14.4558
􁐇	-14.4558
嫘	-14.4558
睶	-14.4558
䞓	-14.4558
磘	-14.4558
胕	-14.4559
捎	-14.4559
琠	-14.4559
巘	-14.4559
摻	-14.4559
橢	-14.4559
􁂳	-14.4559
䪥	-14.4559
赨	-14.456
鈌	-14.456
輭	-14.456
蹍	-14.456
僾	-14.4561
挃	-14.4561
崆	-14.4561
闤	-14.4561
■	-14.4561
琺	-14.4561
枑	-14.4562
豶	-14.4562
􁅅	-14.4562
幙	-14.4562
薮	-14.4562
嵋	-14.4562
罏	-14.4562
豻	-14.4563
𤱔	-14.4563
郏	-14.4563
妘	-14.4563
傖	-14.4563
悱	-14.4563
晹	-14.4563
旿	-14.4563
﨣	-14.4563
郰	-14.4564
璲	-14.4564
曛	-14.4564
佋	-14.4564
婬	-14.4564
睪	-14.4565
戻	-14.4565
豜	-14.4565
𤇺	-14.4565
鞔	-14.4565
穨	-14.4565
偲	-14.4565
犉	-14.4566
瞎	-14.4566
芡	-14.4566
瘢	-14.4567
旝	-14.4567
菏	-14.4567
洚	-14.4567
鞴	-14.4568
阹	-14.4568
徜	-14.4568
珎	-14.4568
􁂦	-14.4568
㦲	-14.4568
狢	-14.4569
韝	-14.4569
捺	-14.4569
臷	-14.4569
瞷	-14.457
撐	-14.457
噢	-14.457
鄎	-14.457
薏	-14.457
瀸	-14.457
梠	-14.4571
鼯	-14.4571
岣	-14.4571
熿	-14.4571
裻	-14.4571
坳	-14.4571
塏	-14.4572
䦧	-14.4572
鸐	-14.4572
泭	-14.4572
廽	-14.4572
楼	-14.4573
塉	-14.4573
硠	-14.4573
㢸	-14.4573
嶁	-14.4573
歊	-14.4573
幗	-14.4573
贗	-14.4573
頟	-14.4573
纆	-14.4574
􁄧	-14.4574
妮	-14.4574
湳	-14.4574
悙	-14.4574
哿	-14.4575
嶻	-14.4575
􁢌	-14.4575
尃	-14.4575
枌	-14.4575
涑	-14.4575
噓	-14.4576
搦	-14.4576
斕	-14.4576
侘	-14.4576
刜	-14.4576
鋣	-14.4576
囏	-14.4577
睋	-14.4577
羜	-14.4577
堁	-14.4577
踢	-14.4578
鄨	-14.4578
袲	-14.4579
鋛	-14.4579
粼	-14.458
矅	-14.4581
閺	-14.4581
躃	-14.4581
岨	-14.4581
櫪	-14.4582
嚶	-14.4582
嗉	-14.4582
肹	-14.4582
篝	-14.4583
侀	-14.4583
􁥟	-14.4583
胯	-14.4583
箔	-14.4583
掯	-14.4583
犲	-14.4584
諟	-14.4584
炁	-14.4584
釂	-14.4584
綻	-14.4584
枒	-14.4584
斨	-14.4584
鮎	-14.4585
癕	-14.4585
蠓	-14.4585
晣	-14.4585
釴	-14.4585
萁	-14.4585
菔	-14.4585
輬	-14.4586
㢲	-14.4586
确	-14.4587
瀁	-14.4587
悷	-14.4587
駻	-14.4587
唫	-14.4588
惝	-14.4588
畇	-14.4589
稌	-14.4589
􁋊	-14.4589
佪	-14.459
芫	-14.459
㔨	-14.459
鬠	-14.459
踘	-14.4591
􁞡	-14.4591
孊	-14.4592
錩	-14.4592
騧	-14.4593
淈	-14.4594
屎	-14.4594
聀	-14.4594
薤	-14.4594
匯	-14.4594
俏	-14.4595
逶	-14.4595
蠛	-14.4596
濉	-14.4596
頬	-14.4597
鞂	-14.4597
㪍	-14.4597
伙	-14.4598
􁁂	-14.4598
貭	-14.4598
瓏	-14.4598
蒢	-14.4599
燐	-14.4601
襠	-14.4601
篲	-14.4601
賘	-14.4602
苽	-14.4603
旹	-14.4603
慁	-14.4604
抝	-14.4605
抬	-14.4606
呀	-14.4608
錣	-14.4608
䷵	-14.4609
褍	-14.4612
嶤	-14.4613
趡	-14.4613
誶	-14.4614
趺	-14.4615
䵼	-14.4615
腮	-14.4616
􁉛	-14.4617
菉	-14.4618
烤	-14.4619
靶	-14.4623
鸗	-14.4626
㣘	-14.4708
瀌	-14.6962
蝙	-14.6969
槅	-14.6979
殼	-14.699
絖	-14.6997
睍	-14.7
翏	-14.7005
瑲	-14.7007
儞	-14.7007
􁡷	-14.7011
覜	-14.7011
暯	-14.7014
􁡎	-14.7014
騣	-14.7015
躞	-14.7016
簳	-14.7018
觺	-14.7019
櫎	-14.7019
𤏡	-14.7021
毦	-14.7021
齠	-14.7021
㲈	-14.7022
浤	-14.7022
琄	-14.7022
秱	-14.7023
圪	-14.7023
壏	-14.7023
恈	-14.7023
墁	-14.7025
沘	-14.7025
鷔	-14.7025
鑴	-14.7026
夌	-14.7026
蜑	-14.7026
䑸	-14.7026
鱻	-14.7026
觵	-14.7028
􁉤	-14.7028
昜	-14.7029
蝺	-14.7029
胳	-14.7029
歅	-14.7029
珞	-14.7029
滍	-14.703
塍	-14.703
㞯	-14.703
塴	-14.703
荑	-14.7031
葴	-14.7032
袚	-14.7032
垸	-14.7033
炌	-14.7033
梐	-14.7034
嶴	-14.7034
訇	-14.7035
㱔	-14.7035
襢	-14.7035
攓	-14.7036
㴻	-14.7037
轀	-14.7037
嚾	-14.7037
傫	-14.7037
睅	-14.7037
飂	-14.7038
呰	-14.7039
薾	-14.7039
岈	-14.7039
汞	-14.7039
漑	-14.704
槥	-14.704
薧	-14.704
褭	-14.7041
岧	-14.7041
䷁	-14.7042
泲	-14.7043
疐	-14.7043
賅	-14.7043
檑	-14.7043
踟	-14.7043
梡	-14.7044
鱐	-14.7045
鏹	-14.7046
櫑	-14.7046
淂	-14.7046
䠂	-14.7046
罶	-14.7046
駪	-14.7046
鴣	-14.7047
獼	-14.7047
耴	-14.7047
軑	-14.7047
揠	-14.7048
䔩	-14.7048
窞	-14.7048
氌	-14.7048
堩	-14.7048
泜	-14.7048
腒	-14.7049
珌	-14.7049
笰	-14.7049
髕	-14.7049
槷	-14.705
氆	-14.705
鏽	-14.705
䷚	-14.705
萆	-14.705
氅	-14.705
継	-14.7051
㻱	-14.7051
刵	-14.7052
弒	-14.7053
澑	-14.7053
𤾂	-14.7053
愊	-14.7053
☱	-14.7053
眶	-14.7053
殥	-14.7053
畟	-14.7053
醎	-14.7054
嘅	-14.7054
紩	-14.7054
酃	-14.7054
枓	-14.7054
盉	-14.7054
篪	-14.7054
厩	-14.7055
頯	-14.7055
鸎	-14.7055
糇	-14.7055
繘	-14.7055
􁂚	-14.7055
濜	-14.7055
磷	-14.7055
冎	-14.7057
鯽	-14.7057
圂	-14.7057
暸	-14.7057
僴	-14.7057
彃	-14.7057
檖	-14.7057
蓻	-14.7057
俁	-14.7057
瘨	-14.7058
苒	-14.7058
鼪	-14.7058
噏	-14.7058
☴	-14.7058
䴢	-14.7058
嘵	-14.7058
蹞	-14.7058
轓	-14.7058
漭	-14.7058
蚣	-14.7058
垼	-14.7059
蹜	-14.7059
鄷	-14.7059
袀	-14.7059
伹	-14.7059
酁	-14.7059
葩	-14.706
戄	-14.706
骿	-14.706
㑴	-14.7061
䫜	-14.7061
磥	-14.7061
拗	-14.7061
☳	-14.7061
敭	-14.7061
汮	-14.7061
涚	-14.7061
篹	-14.7061
緎	-14.7061
枮	-14.7061
蟪	-14.7061
駬	-14.7062
挋	-14.7062
灉	-14.7062
𩔖	-14.7062
堉	-14.7062
舴	-14.7062
羢	-14.7062
輷	-14.7062
砰	-14.7062
𠻳	-14.7063
頖	-14.7063
蛄	-14.7063
霝	-14.7063
蝃	-14.7063
羫	-14.7063
憃	-14.7064
諞	-14.7064
鷞	-14.7064
膈	-14.7064
潾	-14.7064
榯	-14.7064
銼	-14.7064
蟡	-14.7064
枅	-14.7064
皜	-14.7064
􁇦	-14.7064
踽	-14.7064
忳	-14.7065
遬	-14.7065
頔	-14.7065
驄	-14.7065
淊	-14.7065
閴	-14.7065
鸃	-14.7065
怊	-14.7065
葌	-14.7065
鵻	-14.7065
緗	-14.7066
泐	-14.7066
帗	-14.7066
欘	-14.7066
潸	-14.7066
跐	-14.7066
咻	-14.7066
箄	-14.7066
籔	-14.7066
蠯	-14.7066
衹	-14.7066
湬	-14.7066
貮	-14.7067
幺	-14.7067
鷦	-14.7067
鎦	-14.7068
娓	-14.7068
膇	-14.7068
嵫	-14.7068
盒	-14.7068
鄵	-14.7068
咿	-14.7068
竜	-14.7068
譒	-14.7068
檃	-14.7068
涷	-14.7068
莝	-14.7068
鉊	-14.7068
鼄	-14.7068
蠒	-14.7068
鼽	-14.7068
猈	-14.7068
噰	-14.7069
闠	-14.7069
餠	-14.7069
屇	-14.7069
㡩	-14.7069
碼	-14.7069
慂	-14.7069
鏄	-14.7069
􁌙	-14.7069
栭	-14.707
鷯	-14.707
棕	-14.707
􁥽	-14.7071
䣃	-14.7071
崢	-14.7071
縭	-14.7071
蜣	-14.7071
醼	-14.7071
㸐	-14.7071
眕	-14.7071
亱	-14.7071
犗	-14.7071
麐	-14.7071
蝘	-14.7072
菖	-14.7072
䝟	-14.7072
禅	-14.7072
躳	-14.7072
錁	-14.7072
䍷	-14.7072
櫺	-14.7072
獯	-14.7073
鷫	-14.7073
汕	-14.7073
枿	-14.7073
禓	-14.7073
恆	-14.7073
煆	-14.7073
銔	-14.7073
㴠	-14.7073
􁃊	-14.7073
􁆭	-14.7073
㲼	-14.7073
慅	-14.7073
匊	-14.7073
憋	-14.7073
祋	-14.7074
簜	-14.7074
𨵦	-14.7075
穪	-14.7075
㯽	-14.7075
僪	-14.7075
郼	-14.7075
嗸	-14.7075
豯	-14.7075
驀	-14.7075
棡	-14.7075
馵	-14.7076
厹	-14.7076
担	-14.7076
俀	-14.7076
矴	-14.7076
簉	-14.7076
襆	-14.7076
傞	-14.7076
哖	-14.7076
鴂	-14.7076
箑	-14.7077
鶖	-14.7077
頜	-14.7077
芄	-14.7077
鞓	-14.7077
揲	-14.7077
蘉	-14.7077
踹	-14.7077
鄳	-14.7077
瘐	-14.7077
萐	-14.7077
鞁	-14.7077
竘	-14.7077
􁀱	-14.7079
蠙	-14.7079
楂	-14.7079
嬛	-14.7079
纈	-14.708
蟉	-14.708
瘃	-14.708
翖	-14.708
攽	-14.7081
鐓	-14.7081
䤋	-14.7082
湢	-14.7082
郱	-14.7082
䇲	-14.7082
鈺	-14.7082
胗	-14.7082
􁯫	-14.7082
鴿	-14.7082
籛	-14.7082
搉	-14.7083
蔾	-14.7083
炱	-14.7083
􁁝	-14.7083
䰞	-14.7083
䌫	-14.7084
䷆	-14.7084
㟍	-14.7084
嵻	-14.7084
涣	-14.7084
禊	-14.7084
臿	-14.7084
潟	-14.7084
竫	-14.7084
廥	-14.7084
苔	-14.7086
屮	-14.7086
竞	-14.7086
侻	-14.7086
抆	-14.7086
罐	-14.7086
蓘	-14.7086
霶	-14.7086
珅	-14.7086
罛	-14.7087
姢	-14.7087
吚	-14.7087
炸	-14.7087
筞	-14.7087
吪	-14.7088
騵	-14.7088
堋	-14.7088
蚑	-14.7088
劊	-14.7089
咲	-14.7089
蘁	-14.7089
靽	-14.7089
凸	-14.709
仝	-14.709
罦	-14.7091
戧	-14.7091
濔	-14.7092
畡	-14.7092
硏	-14.7093
鵙	-14.7093
楄	-14.7093
裲	-14.7094
欐	-14.7094
咍	-14.7094
厞	-14.7095
靧	-14.7095
楧	-14.7095
囈	-14.7095
鶪	-14.7096
灸	-14.7097
蒟	-14.7097
顕	-14.7097
艍	-14.7097
逑	-14.7097
凷	-14.7098
蛮	-14.71
戭	-14.71
痡	-14.7101
朧	-14.7101
仂	-14.7101
攃	-14.7101
􁎾	-14.7101
瓿	-14.7102
椑	-14.7102
㚄	-14.7102
筌	-14.7102
瞂	-14.7103
銹	-14.7104
懶	-14.7105
柁	-14.7108
䷒	-14.7109
獾	-14.7111
睴	-14.7111
蜷	-14.7112
嬋	-14.7112
佀	-14.7113
熠	-14.7114
鴡	-14.7115
黌	-14.7115
椗	-14.7118
𢃄	-14.7119
䀹	-14.712
蕳	-14.7123
敶	-14.713
榎	-14.7141
􁍽	-14.7142
俈	-14.7148
懍	-14.7164
俙	-15.0303
孃	-15.0311
䭫	-15.0315
洴	-15.0326
澼	-15.0326
昷	-15.0334
噌	-15.0338
擭	-15.034
灅	-15.0343
㟭	-15.0345
滽	-15.0349
唊	-15.0351
稈	-15.0352
箆	-15.0353
煐	-15.0355
䷮	-15.0355
嫖	-15.0357
泔	-15.0357
淥	-15.0357
汸	-15.0359
坉	-15.0359
燱	-15.0359
帤	-15.0363
燅	-15.0363
橇	-15.0364
昖	-15.0365
泖	-15.0365
硩	-15.0365
潨	-15.0366
橞	-15.0367
狻	-15.0367
䷛	-15.0367
橰	-15.0367
歍	-15.0368
礓	-15.0369
嶫	-15.0369
窊	-15.0369
丢	-15.0369
憼	-15.037
橧	-15.037
礶	-15.0371
秠	-15.0371
哤	-15.0372
墡	-15.0372
抔	-15.0372
僩	-15.0372
愻	-15.0372
倰	-15.0372
畷	-15.0373
獀	-15.0373
嫕	-15.0374
櫄	-15.0374
柅	-15.0374
秔	-15.0374
㧻	-15.0375
冘	-15.0376
墘	-15.0376
狊	-15.0376
琲	-15.0378
攏	-15.0378
毣	-15.0378
唧	-15.0378
琁	-15.0379
䴠	-15.038
㫿	-15.038
划	-15.038
璅	-15.038
㳄	-15.038
䷎	-15.038
傋	-15.038
攴	-15.038
抓	-15.038
䃉	-15.0381
氿	-15.0381
皭	-15.0381
垕	-15.0382
牗	-15.0382
唪	-15.0382
抳	-15.0382
箜	-15.0383
篌	-15.0383
撁	-15.0384
㝎	-15.0384
疼	-15.0384
䵍	-15.0384
奩	-15.0384
弮	-15.0384
梪	-15.0384
椵	-15.0386
睂	-15.0386
丫	-15.0386
牕	-15.0386
䘵	-15.0386
唃	-15.0386
猁	-15.0386
猞	-15.0386
猻	-15.0386
塥	-15.0386
椓	-15.0386
㕙	-15.0387
囮	-15.0388
崓	-15.0388
㒒	-15.0388
俉	-15.0388
傽	-15.0388
冑	-15.0388
扐	-15.0388
泪	-15.0388
峚	-15.0388
榕	-15.0388
洢	-15.0388
牉	-15.039
楝	-15.039
䷳	-15.039
庱	-15.039
巹	-15.039
珓	-15.039
痟	-15.0391
侅	-15.0391
眣	-15.0391
汦	-15.0392
晒	-15.0392
㓛	-15.0393
幎	-15.0393
磵	-15.0393
䮾	-15.0393
嘬	-15.0394
屺	-15.0394
塸	-15.0394
孅	-15.0394
偟	-15.0395
䨘	-15.0395
疈	-15.0396
娉	-15.0396
傿	-15.0396
畾	-15.0396
眅	-15.0396
丠	-15.0396
䷖	-15.0397
榣	-15.0397
冂	-15.0397
栴	-15.0397
䷣	-15.0397
朢	-15.0397
氲	-15.0397
傎	-15.0397
㶏	-15.0397
柂	-15.0397
嚖	-15.0398
嵕	-15.0398
怩	-15.0398
寋	-15.0398
碯	-15.0398
巛	-15.0398
櫾	-15.0399
彴	-15.0399
嘈	-15.0399
槫	-15.0399
刌	-15.0399
玗	-15.0399
篛	-15.0399
悪	-15.0399
䷫	-15.04
炷	-15.0401
窐	-15.0401
慳	-15.0401
湕	-15.0401
狒	-15.0401
瑠	-15.0401
碆	-15.0401
竧	-15.0401
榘	-15.0402
礎	-15.0402
椇	-15.0402
幌	-15.0402
柈	-15.0403
寠	-15.0403
捱	-15.0403
倌	-15.0403
墪	-15.0403
湾	-15.0403
硎	-15.0403
㹥	-15.0404
欻	-15.0405
篥	-15.0405
爆	-15.0405
惥	-15.0405
偯	-15.0405
剠	-15.0405
叉	-15.0405
侇	-15.0406
磌	-15.0406
晢	-15.0407
䴚	-15.0407
桺	-15.0407
倢	-15.0407
䷋	-15.0407
岏	-15.0407
狿	-15.0407
庂	-15.0407
焄	-15.0407
㒧	-15.0407
䌈	-15.0407
旞	-15.0407
盝	-15.0407
堮	-15.0407
獂	-15.0408
娬	-15.0409
暋	-15.0409
牏	-15.0409
悾	-15.0409
囆	-15.0409
櫨	-15.0409
琡	-15.0409
嵸	-15.0409
涒	-15.041
揥	-15.0411
摟	-15.0411
呷	-15.0411
岊	-15.0411
憞	-15.0411
☲	-15.0411
䷓	-15.0411
嚄	-15.0411
湅	-15.0411
䷐	-15.0412
䘲	-15.0413
婾	-15.0413
卺	-15.0413
嚅	-15.0413
獝	-15.0413
碙	-15.0413
檯	-15.0415
噱	-15.0415
搪	-15.0415
廠	-15.0415
庉	-15.0415
旲	-15.0415
摸	-15.0415
洼	-15.0416
构	-15.0417
瓞	-15.0417
皯	-15.0417
䳭	-15.0417
瘇	-15.0417
窨	-15.0417
䷀	-15.0418
㠖	-15.0419
峥	-15.0419
榰	-15.0419
痏	-15.0419
癯	-15.0419
枏	-15.0419
珹	-15.0419
痒	-15.0419
睕	-15.0419
䡴	-15.0421
橄	-15.0421
欖	-15.0421
窾	-15.0421
䷌	-15.0422
䶵	-15.0422
榑	-15.0422
坁	-15.0422
剟	-15.0422
栘	-15.0423
猰	-15.0423
梴	-15.0423
㹠	-15.0423
獋	-15.0423
䷪	-15.0424
娩	-15.0424
僤	-15.0424
帘	-15.0424
曈	-15.0425
嬌	-15.0425
瘟	-15.0426
眘	-15.0426
笩	-15.0426
坯	-15.0427
湞	-15.0428
摮	-15.0428
痞	-15.0428
埵	-15.043
㜪	-15.043
喣	-15.043
暎	-15.043
䷄	-15.0432
䷶	-15.0432
䷊	-15.0434
䷝	-15.0434
痰	-15.0436
帢	-15.0438
㕎	-15.0438
悗	-15.044
㴞	-15.0442
懮	-15.0442
砢	-15.0442
懻	-15.0444
穅	-15.0444
狖	-15.0444
礩	-15.0445
璬	-15.0445
㹪	-15.0446
㓨	-15.0448
狉	-15.0448
熭	-15.0448
毈	-15.045
狾	-15.0451
摦	-15.0452
樿	-15.0453
娭	-15.0453
梇	-15.0455
咡	-15.0455
叄	-15.0455
旊	-15.0455
楀	-15.0457
涽	-15.0457
慜	-15.0459
䥴	-15.0461
燁	-15.0461
䷡	-15.0463
孾	-15.0465
灕	-15.0469
曶	-15.0469
㠘	-15.0473
怜	-15.048
玅	-15.0488
䩞	-15.049
皵	-15.0496
竤	-15.5282
竀	-15.5283
皽	-15.5284
瘯	-15.5285
焮	-15.5286
弨	-15.5287
峱	-15.5288
姺	-15.5289
塓	-15.529
嗼	-15.5291
讔	-15.5292
猬	-15.5293
敫	-15.5294
喓	-15.5295
呿	-15.5296
儶	-15.5297
雃	-15.5298
薷	-15.5299
睔	-15.53
姶	-15.5301
頿	-15.5302
胈	-15.5303
罭	-15.5304
楩	-15.5305
嫄	-15.5306
婤	-15.5307
塽	-15.5308
嚈	-15.5309
嘩	-15.531
嘊	-15.5311
乣	-15.5312
㒟	-15.5313
鄏	-15.5314
粕	-15.5315
恿	-15.5316
嚀	-15.5317
叮	-15.5318
䳒	-15.5319
譸	-15.532
寞	-15.5321
偬	-15.5322
㺷	-15.5323
踁	-15.5324
蝣	-15.5325
蔦	-15.5326
茌	-15.5327
窣	-15.5328
玳	-15.5329
栒	-15.533
彠	-15.5331
齷	-15.5332
髏	-15.5333
駜	-15.5334
儌	-15.5335
㽛	-15.5336
髴	-15.5337
髣	-15.5338
篨	-15.5339
檗	-15.534
暵	-15.5341
撣	-15.5342
婭	-15.5343
唬	-15.5344
鳲	-15.5345
蚯	-15.5346
湨	-15.5347
寪	-15.5348
驆	-15.5349
靂	-15.535
鋮	-15.5351
貜	-15.5352
綮	-15.5353
捝	-15.5354
㐌	-15.5355
艴	-15.5356
瞫	-15.5357
玻	-15.5358
暟	-15.5359
媫	-15.536
偼	-15.5361
邂	-15.5362
豌	-15.5363
勠	-15.5364
䢵	-15.5365
獍	-15.5366
㨎	-15.5367
琶	-15.5368
琵	-15.5369
碻	-15.537
泱	-15.5371
齬	-15.5372
舺	-15.5373
碏	-15.5374
顢	-15.5375
蟋	-15.5376
鄲	-15.5377
蟀	-15.5377
砫	-15.5378
鸚	-15.5379
鵡	-15.538
詿	-15.5381
婕	-15.5382
餬	-15.5383
觖	-15.5384
詾	-15.5385
㬋	-15.5386
倧	-15.5387
馪	-15.5388
脗	-15.5389
鈵	-15.539
恟	-15.5391
妤	-15.5392
韃	-15.5393
狁	-15.5394
囹	-15.5395
禵	-15.5396
牁	-15.5397
磾	-15.5398
侂	-15.5398
拮	-15.5399
獗	-15.54
笨	-15.54
