<unk>	0
<s>	0
</s>	0
。	-1.84988
故	-4.44426
者	-4.44526
,	-4.63196
有	-4.83279
謂	-4.88307
非	-5.03517
是	-5.08208
若	-5.21662
名	-5.2236
此	-5.22805
生	-5.2634
彼	-5.28744
為	-5.3147
、	-5.3189
於	-5.33707
法	-5.35391
無	-5.3681
如	-5.41903
等	-5.42272
不	-5.45659
以	-5.51174
中	-5.51428
得	-5.51841
及	-5.52654
心	-5.53875
說	-5.58685
.	-5.61559
一	-5.64416
二	-5.66949
時	-5.69163
緣	-5.73023
或	-5.73078
云何	-5.74498
三	-5.82562
因	-5.8697
至	-5.90793
言	-5.91568
也	-5.92405
耶	-5.94418
諸	-5.9488
起	-5.95153
行	-5.98077
?	-6.03195
身	-6.03265
亦	-6.036
答	-6.04268
由	-6.05443
見	-6.06473
定	-6.06718
義	-6.08085
受	-6.08339
即	-6.09006
與	-6.09175
四	-6.10833
色	-6.10885
餘	-6.11597
唯	-6.13823
依	-6.13989
斷	-6.14628
論	-6.15634
如是	-6.16404
問	-6.24091
業	-6.24242
答曰	-6.25364
能	-6.25624
相	-6.25904
果	-6.28179
已	-6.28884
攝	-6.29344
後	-6.30927
一切	-6.31274
滅	-6.31719
道	-6.3268
而	-6.34339
善	-6.3834
所	-6.38557
修	-6.4119
▁	-6.43348
相應	-6.4437
識	-6.44852
人	-6.45263
住	-6.45385
處	-6.45451
五	-6.48131
是名	-6.4901
欲	-6.49294
應	-6.50243
智	-6.52235
觀	-6.52764
:	-6.5326
除	-6.5484
捨	-6.54898
從	-6.55245
離	-6.61129
作	-6.61311
性	-6.61604
前	-6.61997
苦	-6.62314
我	-6.62648
欲界	-6.63125
明	-6.6326
成	-6.64051
知	-6.6466
根	-6.6497
自	-6.66001
乃至	-6.66275
入	-6.66784
又	-6.67978
多	-6.67983
皆	-6.68111
上	-6.68615
雖	-6.68787
意	-6.69341
想	-6.70361
通	-6.72419
復次	-6.72691
之	-6.72962
樂	-6.73121
事	-6.76975
觸	-6.77511
釋	-6.77892
成就	-6.78746
隨	-6.79543
六	-6.80389
體	-6.83417
解脫	-6.83537
佛	-6.83617
界	-6.83906
勝	-6.8417
七	-6.84427
愛	-6.84749
立	-6.85142
俱	-6.85978
煩惱	-6.86
初	-6.86371
無漏	-6.87179
地	-6.89547
別	-6.91769
在	-6.92501
先	-6.93044
下	-6.93526
分	-6.94448
未來	-6.94702
異	-6.94851
力	-6.9534
同	-6.95586
取	-6.96022
然	-6.96023
盡	-6.96332
令	-6.97748
」	-6.9781
大	-6.99023
戒	-6.99975
顯	-7.00025
色界	-7.00715
位	-7.0111
此中	-7.01409
幾	-7.0212
八	-7.02208
名為	-7.02588
故名	-7.04658
慧	-7.07034
現在	-7.0773
過去	-7.1025
結	-7.10522
未	-7.10551
則	-7.11861
境	-7.12073
。「	-7.12908
復	-7.12995
亦爾	-7.15456
是故	-7.15567
轉	-7.15651
有說	-7.16061
由此	-7.16538
十	-7.16898
具	-7.16906
分別	-7.17133
(	-7.17823
淨	-7.19043
差別	-7.19243
問曰	-7.1947
其	-7.19559
何	-7.20278
便	-7.20764
證	-7.2128
無明	-7.21454
正	-7.2192
學	-7.2215
聲	-7.22242
覺	-7.23076
可	-7.23104
出	-7.23332
現	-7.23836
隨眠	-7.24434
云	-7.25149
類	-7.25668
但	-7.25929
今	-7.26122
思	-7.26931
不善	-7.27045
有情	-7.27579
當	-7.27647
天	-7.28825
有漏	-7.2883
貪	-7.29116
異熟	-7.29166
無色	-7.29634
他	-7.3035
相續	-7.32232
經	-7.32626
加行	-7.32816
念	-7.33052
眼	-7.33173
現在前	-7.34906
食	-7.36218
惑	-7.37461
解	-7.37614
世	-7.38788
難	-7.38903
中有	-7.39917
過	-7.40374
趣	-7.41195
種	-7.41408
理	-7.41643
外	-7.4212
無色界	-7.42781
用	-7.43319
內	-7.43357
必	-7.43436
無學	-7.43661
無記	-7.43744
眾生	-7.43747
忍	-7.43944
執	-7.45844
染	-7.45858
使	-7.46953
總	-7.48111
語	-7.48547
本	-7.49151
各	-7.49899
喜	-7.50395
所以者何	-7.50563
所依	-7.50667
)	-7.50699
退	-7.51282
順	-7.51384
九	-7.5143
引	-7.51768
信	-7.51917
行相	-7.52163
少	-7.52441
空	-7.52723
不能	-7.52888
極	-7.53765
涅槃	-7.54062
次第	-7.54163
增上	-7.5471
共	-7.55089
集	-7.5513
方	-7.55179
是謂	-7.55613
無有	-7.55873
品	-7.56204
即是	-7.56746
無間	-7.56791
蘊	-7.58252
聖	-7.58496
世尊	-7.59029
對	-7.59592
自性	-7.60181
繫	-7.60306
如何	-7.6056
疑	-7.61025
增	-7.62247
門	-7.62369
遍	-7.6268
諸法	-7.6287
重	-7.62913
數	-7.63606
約	-7.63815
壞	-7.63986
邪見	-7.64062
為因	-7.65931
惡	-7.66009
亦有	-7.66171
大種	-7.66445
既	-7.66453
次	-7.66513
聖道	-7.668
破	-7.67744
求	-7.67751
報	-7.68059
第二	-7.6813
無量	-7.68762
決定	-7.68783
思惟	-7.69385
所攝	-7.69903
味	-7.70636
實	-7.71731
施	-7.71884
釋曰	-7.72029
常	-7.72168
文	-7.72853
頌曰	-7.73346
持	-7.73438
所緣	-7.74593
不成就	-7.7478
王	-7.74933
三界	-7.75241
或有	-7.75628
第三	-7.77561
眼識	-7.7782
復有說者	-7.78088
;	-7.78596
見道	-7.79377
於此	-7.79975
善根	-7.8005
不得	-7.80267
法智	-7.8063
設	-7.80941
造	-7.80965
眾	-7.81363
律儀	-7.81611
世間	-7.81696
無為	-7.81803
命	-7.81847
水	-7.82279
不應	-7.82389
阿羅漢	-7.82523
發	-7.82928
他心智	-7.83287
合	-7.83566
量	-7.83722
剎那	-7.83812
汝	-7.84266
何故	-7.84509
對治	-7.84589
當言	-7.84926
支	-7.84979
來	-7.85137
異生	-7.85152
無表	-7.86587
聞	-7.86632
因緣	-7.87169
妙	-7.88033
諦	-7.88362
應知	-7.88687
三種	-7.89232
意識	-7.89271
不生	-7.90219
方便	-7.90827
境界	-7.90838
於彼	-7.90989
聚	-7.91106
更	-7.91762
現前	-7.92437
許	-7.9305
靜慮	-7.93373
乃至廣說	-7.93682
火	-7.93976
亦如是	-7.94393
不可	-7.94613
物	-7.94689
慢	-7.94723
不同	-7.94827
教	-7.95775
師	-7.95807
所說	-7.96194
初靜慮	-7.96518
所有	-7.96545
廣	-7.96918
菩薩	-7.97306
死	-7.98146
色無色界	-7.98303
若爾	-7.98706
二種	-7.98769
欲界繫	-7.99361
故說	-7.9943
失	-7.99526
近	-7.99648
偈曰	-8.00039
縛	-8.00382
少分	-8.01033
邊	-8.01389
不相應	-8.02283
如說	-8.02425
厭	-8.02548
不說	-8.02562
無常	-8.03454
不定	-8.03789
究竟	-8.04029
還	-8.04224
障	-8.04603
遠	-8.04869
論曰	-8.06247
纏	-8.0645
表	-8.06977
或作是說	-8.0742
者謂	-8.07512
風	-8.0755
修所斷	-8.07776
第一	-8.09209
香	-8.09299
麁	-8.09797
於中	-8.10008
遮	-8.11606
四大	-8.11666
解云	-8.11835
五蘊	-8.12253
第四	-8.12329
種種	-8.12606
亦不	-8.12965
遍知	-8.12982
當知	-8.13132
且	-8.13144
俱生	-8.13168
形	-8.13335
陰	-8.13585
根本	-8.13653
同分	-8.13897
能生	-8.1404
補特伽羅	-8.14248
命終	-8.14499
亦非	-8.14705
色界繫	-8.14991
世俗	-8.15134
如來	-8.15165
不爾	-8.15397
殺	-8.15439
害	-8.15602
據	-8.16875
若有	-8.16979
諸根	-8.17066
壽	-8.17223
要	-8.17371
感	-8.17439
流	-8.17457
和合	-8.17725
爾時	-8.18161
喻	-8.18519
清淨	-8.18626
頌	-8.18936
自在	-8.19121
句	-8.19542
心所	-8.19726
生死	-8.19726
何謂	-8.19815
利	-8.20193
計	-8.20408
舉	-8.20629
如此	-8.20733
比丘	-8.21325
何緣	-8.22521
眼根	-8.226
瞋	-8.22756
功德	-8.23048
習	-8.23373
》	-8.23634
聖者	-8.23721
正理	-8.23735
地獄	-8.23736
劫	-8.24
建立	-8.24044
滿	-8.24163
白	-8.24513
違	-8.24965
此即	-8.25037
十二	-8.2527
尋	-8.25632
何以故	-8.25671
亦名	-8.25713
善法	-8.26054
向	-8.26069
小	-8.26072
上地	-8.26115
略	-8.262
并	-8.26727
足	-8.26729
擇滅	-8.28043
染污	-8.28193
道智	-8.28222
禪	-8.28331
盡智	-8.28371
辨	-8.28653
相應法	-8.28737
恒	-8.28748
化	-8.28817
福	-8.28904
苾芻	-8.29012
罪	-8.29315
往	-8.29533
故知	-8.29725
子	-8.29857
自體	-8.2986
四種	-8.29952
僧	-8.30677
所生	-8.30678
此是	-8.30845
初禪	-8.30867
一一	-8.30904
日	-8.31036
有為	-8.31152
故名為	-8.3163
字	-8.32203
不成	-8.32604
離欲	-8.32726
就	-8.32792
相違	-8.32946
劣	-8.33109
善心	-8.33484
下地	-8.33822
了	-8.33869
此二	-8.34174
經說	-8.34217
息	-8.34262
記	-8.34332
所以	-8.34439
婆沙	-8.34507
中間	-8.34748
自地	-8.34816
著	-8.34859
雜	-8.35026
誰	-8.35329
巳	-8.35512
部	-8.35678
宗	-8.36025
羅	-8.36654
業道	-8.36684
應說	-8.37158
墮	-8.37298
曰	-8.37366
所得	-8.37447
癡	-8.37513
說名	-8.37863
有二	-8.37888
細	-8.37902
三世	-8.37948
猶如	-8.38274
德	-8.38595
亦是	-8.38684
未斷	-8.38902
亦應	-8.39193
身見	-8.39352
長	-8.39771
若法	-8.40225
不斷	-8.40409
修道	-8.40467
世第一法	-8.40595
唯有	-8.40842
全	-8.41393
治	-8.41595
施設	-8.41977
有二種	-8.42024
皆是	-8.42032
第四靜慮	-8.42264
隨順	-8.42364
契經	-8.42406
生時	-8.42597
有餘師說	-8.42721
豈不	-8.42855
而不	-8.43135
心心所法	-8.43191
女	-8.43664
彼法	-8.43789
邪	-8.44081
將	-8.442
所起	-8.44251
復有	-8.44637
名色	-8.44969
)。	-8.45107
離染	-8.4531
增長	-8.45742
非想非非想處	-8.4582
解脫道	-8.45868
已生	-8.46182
現觀	-8.46232
未得	-8.46318
無想	-8.46511
減	-8.46561
護	-8.46592
諸行	-8.4679
動	-8.47062
雖有	-8.47151
前後	-8.47671
蓋	-8.48163
非學非無學	-8.48164
乃	-8.48306
遍行	-8.48316
兩	-8.48338
所餘	-8.48687
稱	-8.49321
十一	-8.49427
光	-8.49606
已斷	-8.49722
望	-8.49856
問何故	-8.50079
見所斷	-8.50172
意根	-8.50343
樂受	-8.50527
此法	-8.50872
極微	-8.51248
等者	-8.51285
辯	-8.51742
屬	-8.51872
心不相應行	-8.5196
苦智	-8.52021
若依	-8.52112
等流	-8.52493
命根	-8.5299
等無間緣	-8.53164
所作	-8.53242
不起	-8.53456
願	-8.53583
為體	-8.53656
親	-8.54014
如前	-8.54049
已得	-8.54174
諸餘	-8.54225
正見	-8.54484
去	-8.54793
外道	-8.54822
最後	-8.54855
恚	-8.54922
速	-8.54951
衣	-8.54992
容	-8.5511
度	-8.55611
論云	-8.55634
最	-8.55675
不知	-8.55688
漸	-8.56091
微	-8.56141
無間道	-8.56364
慈	-8.56364
止	-8.56423
散	-8.56551
見苦所斷	-8.5667
山	-8.56673
諸有	-8.57137
故言	-8.57183
有三	-8.57502
身中	-8.57577
不共	-8.57678
虛空	-8.57772
論主	-8.57993
相似	-8.58202
種子	-8.58869
有四	-8.59419
無所有處	-8.59608
聲聞	-8.59799
永斷	-8.60061
作用	-8.60174
十六	-8.60634
第五	-8.60671
念住	-8.60698
經部	-8.60721
展轉	-8.60911
不見	-8.60923
世俗智	-8.6098
作意	-8.61211
生故	-8.61245
色等	-8.61314
熟	-8.61446
非得	-8.61453
假	-8.61847
異熟果	-8.61958
苦諦	-8.62135
如前說	-8.62145
家	-8.62203
修斷	-8.62812
無色界繫	-8.62957
謂彼	-8.63204
亦無	-8.63449
般涅槃	-8.63652
易	-8.63981
因果	-8.64021
隨轉	-8.64162
緣起	-8.64403
寂靜	-8.64797
說名為	-8.64807
不淨	-8.65525
顛倒	-8.65535
同類	-8.65875
已說	-8.66275
各別	-8.66521
有餘	-8.66695
母	-8.66706
似	-8.66759
第六	-8.6682
有頂	-8.67125
能緣	-8.67222
強	-8.67258
沒	-8.67281
未生	-8.67315
無別	-8.6734
圓滿	-8.6749
《	-8.67535
聖人	-8.6782
耳	-8.6786
論曰至	-8.6795
若無	-8.68232
可得	-8.68242
曾	-8.68289
種類	-8.68381
無覆無記	-8.68425
漏	-8.68605
此論	-8.68654
作如是說	-8.68715
樹	-8.68797
頗有	-8.68931
非餘	-8.69033
阿毘達磨	-8.69122
類智	-8.69222
勝解	-8.69605
心心所	-8.69776
百	-8.70203
愚	-8.70341
好	-8.7046
像	-8.70796
瞋恚	-8.70917
眼等	-8.70999
獨	-8.71019
堅	-8.71053
所引	-8.71092
一切法	-8.71107
頂	-8.71326
猶	-8.71381
述	-8.715
正理論云	-8.71554
財	-8.71572
無相	-8.71623
或曰	-8.71628
樂根	-8.71648
具足	-8.71677
自相	-8.71731
簡	-8.72012
又解	-8.72197
為緣	-8.72317
尊者	-8.72595
一剎那	-8.72691
礙	-8.7296
月	-8.73416
彼說	-8.73446
過去未來	-8.73683
覆	-8.73785
所斷	-8.73869
憂	-8.74004
何等	-8.7413
如契經說	-8.74271
不名	-8.74312
五種	-8.7438
十八	-8.74707
四諦	-8.7485
兼	-8.7492
亦得	-8.75076
此定	-8.75201
四蘊	-8.75269
己	-8.75681
倒	-8.7569
居	-8.7573
進	-8.75736
真	-8.76091
說為	-8.76543
憂根	-8.76552
無願	-8.76561
病	-8.76601
五識	-8.76966
實有	-8.76972
爾	-8.77301
從此	-8.77552
等智	-8.77559
勢力	-8.77733
喜根	-8.77739
隨增	-8.77751
若不	-8.77809
熱	-8.78
同類因	-8.78342
功能	-8.7845
若謂	-8.78463
沙門	-8.78512
起故	-8.78579
藏	-8.78759
觀察	-8.78834
能為	-8.79009
器	-8.79097
主	-8.79116
可知	-8.79175
半	-8.79244
第二靜慮	-8.79333
五根	-8.79646
若於	-8.79698
此說	-8.79814
不與	-8.79865
有為法	-8.80235
現在前時	-8.80355
復次若	-8.80494
若成就	-8.80501
敬	-8.80545
謂於	-8.80555
能令	-8.80562
行者	-8.80684
現行	-8.80926
最勝	-8.81035
非擇滅	-8.81049
十五	-8.81059
不修	-8.812
不然	-8.81215
謗	-8.81226
近分	-8.81238
迦	-8.81292
垢	-8.81325
婆	-8.81357
田	-8.81592
頗	-8.81598
俱起	-8.81994
須	-8.82101
譬如	-8.82197
國	-8.82287
等至	-8.82298
尋伺	-8.82513
竟	-8.82753
有異	-8.82784
果故	-8.82856
千	-8.82984
痛	-8.83158
越	-8.83175
諸煩惱	-8.83202
道諦	-8.83232
三摩地	-8.83306
得果	-8.83387
黑	-8.83403
空無邊處	-8.83429
無邊	-8.83543
深	-8.83579
謂除	-8.83965
例	-8.83981
修習	-8.83992
若言	-8.84108
一時	-8.84181
不繫	-8.8438
輕	-8.84388
有身見	-8.84572
一分	-8.84796
見斷	-8.84857
此三	-8.85065
煖	-8.85089
不動	-8.85125
寶	-8.85194
為性	-8.85197
此義	-8.85335
位中	-8.85344
對法	-8.85347
准	-8.85682
怖	-8.85769
前說	-8.85797
有色	-8.85798
苦集	-8.86193
無漏法	-8.86217
開	-8.86436
三昧	-8.86458
一向	-8.86574
現見	-8.86584
彼成就	-8.86625
凡夫	-8.86631
殺生	-8.86863
能起	-8.8716
超	-8.8737
廣說	-8.87521
乘	-8.87801
阿羅漢果	-8.8799
唯是	-8.88
摩	-8.88066
安	-8.88084
豈	-8.88245
悲	-8.88381
長養	-8.88964
識住	-8.89187
等無間	-8.89472
損	-8.89517
手	-8.8963
四靜慮	-8.89888
斯	-8.89935
被	-8.90075
欣	-8.90328
亦然	-8.90398
等起	-8.90818
等持	-8.90934
惡趣	-8.91163
生者	-8.91247
及餘	-8.91438
義故	-8.91523
謂此	-8.91623
若以	-8.91706
俱有	-8.91846
法界	-8.91885
勤	-8.92207
欲色界	-8.92245
第三靜慮	-8.92291
逆	-8.92346
眾同分	-8.92811
鼻	-8.92971
闇	-8.92973
並	-8.93383
有學	-8.93499
上界	-8.93709
離繫	-8.93759
皆有	-8.93858
勝義	-8.93953
有作是說	-8.93954
伏	-8.93966
過去現在	-8.93989
非有	-8.94255
空處	-8.94549
精進	-8.94663
身根	-8.94838
由彼	-8.95222
塵	-8.955
遠離	-8.95592
出家	-8.95606
見取	-8.9565
間	-8.95952
如是等	-8.96093
若人	-8.96279
二者	-8.96737
而生	-8.96944
輪	-8.97006
惡行	-8.97103
頓	-8.97306
有對	-8.9745
伺	-8.97458
如實知	-8.97596
能斷	-8.97604
貪等	-8.97709
招	-8.97732
不善心	-8.97895
佛世尊	-8.98074
目	-8.98523
有三種	-8.9881
為境	-8.98836
染心	-8.98957
意業	-8.98964
影	-8.99168
尊	-8.99281
為一	-8.99472
作是說	-8.99604
陀	-8.99668
諸有情	-8.99873
九品	-9.00122
戒禁取	-9.00197
夜	-9.00222
十八界	-9.00309
無漏緣	-9.00423
牛	-9.00672
非是	-9.0069
而非	-9.00877
十四	-9.00931
況	-9.00963
待	-9.01133
不退	-9.01233
一種	-9.01551
義是	-9.01614
性故	-9.01679
前生	-9.01691
已滅	-9.01694
那	-9.01749
苦受	-9.01772
即此	-9.01916
加	-9.01925
或有說者	-9.02037
各有	-9.02235
眠	-9.02324
能引	-9.02385
獨覺	-9.02389
婆羅門	-9.02647
棄	-9.02888
但說	-9.02995
第八	-9.03148
若說	-9.03206
闕	-9.03471
弟子	-9.03679
唯說	-9.03714
無想定	-9.03929
於諸	-9.03986
憶	-9.04039
初定	-9.04199
第四禪	-9.04729
此云	-9.04761
不立	-9.0479
正法	-9.04877
不律儀	-9.04913
威儀	-9.04923
異熟因	-9.05207
輕安	-9.05527
五部	-9.05844
二十	-9.05883
故立	-9.05916
一者	-9.05984
。】「	-9.06008
四句	-9.06048
入正性離生	-9.06061
意樂	-9.06351
怨	-9.06357
見道所斷	-9.06398
惡作	-9.06457
五陰	-9.06571
應言	-9.0683
無我	-9.06904
法處	-9.07035
穢	-9.0705
見諦	-9.07087
謂諸	-9.07088
變	-9.07103
永	-9.07262
。」【	-9.07364
思惟斷	-9.07379
阿	-9.07472
安住	-9.07488
欲令	-9.07509
自身	-9.07552
救	-9.07572
二定	-9.07655
俱時	-9.07826
顯示	-9.0798
坐	-9.08099
受生	-9.08105
事故	-9.08165
意界	-9.08178
此經	-9.08218
十三	-9.08239
立為	-9.08531
所造	-9.08751
續	-9.08951
男	-9.09192
見集所斷	-9.09365
象	-9.09387
障礙	-9.09494
覺支	-9.09549
此四	-9.09818
不作	-9.09937
不淨觀	-9.10055
助	-9.10122
味相應	-9.1021
增上緣	-9.10218
終	-9.10253
應作是說	-9.10325
生欲界	-9.10435
所造色	-9.1046
心所法	-9.10733
別有	-9.10814
問若	-9.10936
法故	-9.11222
同一	-9.11303
無生智	-9.11431
九地	-9.11514
平等	-9.11534
滅定	-9.11545
答有	-9.11619
無記心	-9.1174
青	-9.11962
不緣	-9.12123
不許	-9.12125
應知亦爾	-9.12242
問若爾	-9.12344
口	-9.12507
沙門果	-9.12934
總說	-9.12993
有何	-9.13246
養	-9.13373
迷	-9.13472
評曰	-9.13534
即彼	-9.13677
出離	-9.13751
餘法	-9.13827
受等	-9.13864
亂	-9.13868
因故	-9.13894
洲	-9.14004
惱	-9.14013
行蘊	-9.1412
無為法	-9.14284
有部	-9.14391
世尊說	-9.14434
章	-9.14456
無餘	-9.14479
但由	-9.14546
雖無	-9.14584
始	-9.1469
猛利	-9.14725
見滅所斷	-9.1473
如人	-9.14766
歸	-9.1477
等三	-9.1477
善業	-9.14842
滅智	-9.14899
過失	-9.15017
菩提	-9.15102
有別	-9.15163
能知	-9.1524
亦能	-9.15265
依止	-9.15408
此言	-9.15463
異熟生	-9.1573
飲食	-9.16026
以彼	-9.16174
預流果	-9.162
轉故	-9.16355
而起	-9.16417
造色	-9.16424
諸天	-9.16431
告	-9.16825
我見	-9.16993
佛說	-9.17023
悔	-9.17262
標	-9.1727
亦說	-9.17346
此心	-9.17401
供養	-9.17674
最初	-9.1772
練根	-9.17744
而得	-9.17759
處所	-9.17833
有一	-9.17926
勿	-9.18117
知他人心智	-9.18309
諸蘊	-9.1841
城	-9.18511
靜	-9.18644
生得	-9.18657
有漏無漏	-9.18675
一心	-9.18774
經中	-9.18806
路	-9.18895
識無邊處	-9.18998
善不善	-9.19056
受用	-9.19091
染污心	-9.19256
大地	-9.19321
置	-9.19413
諍	-9.19462
須陀洹	-9.19479
老死	-9.19488
一識識	-9.19522
梵	-9.1956
說一切有部	-9.19576
凡夫人	-9.19602
舍	-9.19626
軟	-9.19687
燒	-9.19896
十二處	-9.20025
老	-9.20094
身語業	-9.20161
此釋	-9.20234
眼界	-9.20308
有緣	-9.20586
舌	-9.20704
生無色界	-9.2071
益	-9.20736
緣識	-9.20743
色處	-9.2082
有法	-9.21064
能作	-9.21159
有覆無記	-9.21163
神	-9.21212
眷屬	-9.21313
前三	-9.21465
應無	-9.2163
指	-9.2176
高	-9.21794
未來現在	-9.21854
滅盡定	-9.21955
是故說	-9.22177
所修	-9.22302
比智	-9.22363
諸色	-9.22432
他心	-9.2248
與彼	-9.22507
而有	-9.22633
謂欲界	-9.22723
金	-9.22725
彼一切	-9.22726
果報	-9.22768
問此	-9.22777
化生	-9.22793
有漏法	-9.22883
故非	-9.22924
悉	-9.22963
責	-9.2297
隨其所應	-9.23011
犯	-9.2303
昔	-9.23104
俱舍	-9.23115
第七	-9.23196
身識	-9.23419
歸依	-9.2348
皆名	-9.23494
照	-9.23539
年	-9.23578
以此	-9.23616
能感	-9.23647
殊勝	-9.23684
准此	-9.24024
段食	-9.2406
智者	-9.24088
種性	-9.24121
非理	-9.24139
妙行	-9.2416
後起	-9.24271
在欲界	-9.24309
近事	-9.24325
頭	-9.24336
四禪	-9.2461
此文	-9.25041
同時	-9.2505
苦根	-9.25095
色蘊	-9.25189
捨根	-9.25244
:「	-9.25293
有漏緣	-9.25345
得解脫	-9.25346
所言	-9.25394
故無	-9.254
所不攝	-9.25463
如次	-9.25498
所行	-9.2563
凡	-9.25777
久	-9.2586
未至	-9.25996
獲	-9.2633
說法	-9.26348
得阿羅漢果	-9.26407
未知智	-9.26414
生等	-9.26451
八智	-9.26601
或復	-9.26692
是則	-9.2689
所知	-9.26982
徵	-9.27004
不言	-9.27018
興	-9.27076
不為	-9.27078
花	-9.272
。《	-9.27204
無常想	-9.27221
調	-9.27396
四相	-9.27935
一法	-9.28043
有五	-9.28081
海	-9.28114
不善根	-9.28316
別故	-9.2848
所謂	-9.28612
無畏	-9.28681
無漏道	-9.28721
答言	-9.28728
枝	-9.28747
無知	-9.28832
不還	-9.29007
父母	-9.29037
遇	-9.29103
偏	-9.29208
安立	-9.29304
內外	-9.2933
語業	-9.2938
見道斷	-9.29381
六識	-9.29448
必無	-9.29483
未來修	-9.29563
無教	-9.29622
總名	-9.29653
生有	-9.29848
答應作四句	-9.30029
非常	-9.30074
資	-9.30081
答也	-9.30118
作是言	-9.30237
翻	-9.30254
真實	-9.3028
勝故	-9.30316
於欲界	-9.3035
無貪	-9.30381
隨眠隨增	-9.30437
我所	-9.30561
遍處	-9.30575
不捨	-9.30586
骨	-9.30707
力故	-9.30758
智慧	-9.30867
河	-9.31
三結	-9.31019
隨一	-9.3116
如實	-9.31325
不還果	-9.3134
過患	-9.31642
能造	-9.31664
可愛	-9.31678
證得	-9.31703
達	-9.31723
此中說	-9.3178
人中	-9.31839
所見	-9.31873
不攝	-9.31915
勢	-9.31938
行陰	-9.32012
父	-9.32072
寧	-9.32114
面	-9.32115
未來世	-9.32276
令心	-9.3229
表業	-9.32404
諸佛	-9.32599
故作是說	-9.32684
非色	-9.32692
證淨	-9.32702
憶念	-9.32711
六處	-9.3272
正受	-9.32822
而說	-9.32862
不受	-9.3299
增益	-9.33035
親近	-9.33089
梵志	-9.33108
唯緣	-9.33595
天眼	-9.33799
能作因	-9.33834
設成就	-9.33842
中無	-9.33956
有四種	-9.33992
若生	-9.34133
為所緣	-9.34197
尚	-9.34213
二因	-9.34324
一切遍	-9.34417
後生	-9.34449
識處	-9.3489
見苦斷	-9.34923
去來	-9.34977
入定	-9.35044
了知	-9.3505
此智	-9.35089
正智	-9.35162
三品	-9.3517
苦法忍	-9.3525
與果	-9.35316
到	-9.35538
此業	-9.3554
悅	-9.35805
現起	-9.35969
如彼	-9.35971
誦	-9.36114
恐	-9.36175
見色	-9.36243
傳	-9.3651
此事	-9.36598
五見	-9.36755
別說	-9.3678
如是說者	-9.36902
遊	-9.37169
是時	-9.37174
不失	-9.37199
境故	-9.37347
學心	-9.37357
依此	-9.37368
不可說	-9.37453
經言	-9.37469
十九	-9.37487
為顯	-9.37568
法中	-9.37584
三十六	-9.37592
處中	-9.37866
不離	-9.37891
法念住	-9.37895
若得	-9.37921
滅道	-9.3795
讚	-9.38148
非無	-9.38207
俱有因	-9.38344
何所	-9.38434
廣說乃至	-9.38442
有報	-9.38506
盜	-9.38569
恭敬	-9.3913
後二	-9.39245
容有	-9.39249
掉	-9.39332
有時	-9.39395
契經說	-9.39572
微細	-9.39596
出世	-9.39661
無所	-9.39664
退法	-9.39737
餘處	-9.39895
上座	-9.40098
已知根	-9.40105
身業	-9.40256
會	-9.40297
等流果	-9.40321
聖種	-9.40342
二明	-9.40378
本論	-9.40667
士用果	-9.4068
濁	-9.40776
睡眠	-9.40842
預流	-9.40955
毒	-9.40988
宮	-9.41008
異故	-9.41026
得生	-9.41122
前二	-9.41208
無想天	-9.41211
光明	-9.41221
非業	-9.41236
而無	-9.41241
四緣	-9.41267
願智	-9.41267
尼	-9.41399
體性	-9.41475
過去未來現在	-9.41542
非我	-9.41546
八種	-9.41619
妄	-9.41646
後有	-9.41693
請	-9.41711
一處	-9.41741
了別	-9.41772
心俱	-9.41803
別立	-9.41891
如世尊說	-9.41911
不復	-9.42014
相故	-9.4202
鈍	-9.42063
反	-9.42174
共相	-9.42227
末	-9.42258
燈	-9.424
轉變	-9.4243
此人	-9.42519
彼得	-9.42614
我等	-9.42648
六種	-9.4273
修道所斷	-9.42739
上下	-9.4281
說有	-9.42855
苦樂	-9.42866
異生性	-9.42898
制	-9.43272
能了別	-9.43304
無學心	-9.43393
答彼	-9.43456
諸結	-9.4351
受想	-9.43523
惡戒	-9.43567
色無色	-9.43612
互相	-9.43625
欲貪	-9.43694
一切眾生	-9.43749
信等五根	-9.43934
空三昧	-9.44092
留	-9.44142
審	-9.44231
業果	-9.44303
魔	-9.44382
藥	-9.44419
大毘婆沙	-9.44444
萬	-9.44566
阿毘曇	-9.44573
互	-9.44574
四大種	-9.44594
嗔	-9.44704
有差別	-9.44736
無間生	-9.44744
修行	-9.44781
為自性	-9.44963
為依	-9.45028
增上果	-9.45057
之所	-9.45063
勝處	-9.45216
第十	-9.45348
情	-9.45491
應成	-9.45559
所成	-9.45681
一類	-9.4573
則有	-9.45734
從彼	-9.45918
方得	-9.45996
夫	-9.4603
自界	-9.46148
復說	-9.46268
不善法	-9.4631
中陰	-9.46346
是善	-9.46462
此地	-9.46475
慚	-9.46524
喜樂	-9.46617
短	-9.46655
何處	-9.46659
不由	-9.46811
此名	-9.46814
有覺有觀	-9.4685
脫	-9.46895
答如是	-9.46987
必不	-9.47073
見結	-9.47177
婬	-9.47247
上品	-9.47369
理實	-9.47419
能治	-9.47515
斷善根	-9.47802
必定	-9.47811
何以	-9.48068
身受	-9.48245
俗	-9.48349
唯一	-9.48354
攝故	-9.4841
一來果	-9.48484
結盡	-9.48523
和	-9.48574
都無	-9.4859
何因	-9.48596
受持	-9.48675
非因	-9.48802
不依	-9.48809
首	-9.48934
故作斯論	-9.48959
愛盡	-9.49058
若然者	-9.49194
述曰此	-9.4931
胎	-9.49328
四無色	-9.49362
五趣	-9.49395
一果	-9.49459
一切皆	-9.49626
彼地	-9.49672
眾多	-9.49699
方能	-9.49718
舊	-9.49731
死生	-9.49761
於他	-9.4977
是何	-9.49789
法入	-9.49853
時解脫	-9.49872
三根	-9.49914
無異	-9.49955
以何等故	-9.50004
勸	-9.50019
二根	-9.50088
彼於	-9.50302
無礙	-9.50361
更無	-9.50377
緣緣識	-9.50388
色陰	-9.50465
有因	-9.5047
如理	-9.50477
問也	-9.50549
為同類因	-9.50563
四念住	-9.50813
必有	-9.50821
苦法智忍	-9.5084
無容	-9.5085
比	-9.50883
斷故	-9.50894
彼根	-9.51014
生色界	-9.51025
一明	-9.51036
何法	-9.51165
掉舉	-9.51179
道類智	-9.51229
愛結	-9.51267
潤	-9.51355
阿難	-9.51355
心等	-9.5146
馬	-9.51567
是名非	-9.51646
林	-9.51747
則無	-9.51806
非聖	-9.51828
漏盡	-9.51959
自然	-9.51978
無上	-9.51991
無色定	-9.52102
輪王	-9.52138
何者	-9.52153
迴轉	-9.52161
壽量	-9.52241
殊	-9.52271
歿	-9.52408
時得	-9.52482
示	-9.52545
善惡	-9.52549
俱行	-9.52554
先說	-9.52625
有尋有伺	-9.52644
又如	-9.52821
無慚	-9.52983
作是念	-9.53042
道支	-9.53084
於自	-9.53151
三明	-9.53172
聖教	-9.53195
色無色界繫	-9.53196
一切有情	-9.53295
邊際	-9.53311
恩	-9.5336
倍	-9.53511
四聖諦	-9.53626
女人	-9.53666
數數	-9.53731
隨心轉	-9.53993
或非	-9.54173
心不	-9.5418
利根	-9.542
草	-9.5426
自下	-9.54288
眼識界	-9.54437
心心數法	-9.54467
其體	-9.54851
於餘	-9.54857
正知	-9.54857
是彼	-9.55094
毀	-9.55104
苦法智	-9.55118
隱	-9.55144
虛誑語	-9.55218
謂若	-9.55356
雙	-9.55374
發起	-9.55391
眼觸	-9.55414
世界	-9.55443
無對	-9.55453
誑	-9.55523
遂	-9.55629
冷	-9.55673
心王	-9.55762
相應因	-9.55793
如所說	-9.55827
而住	-9.55929
義者	-9.55941
歡喜	-9.55959
彼亦如是	-9.55967
上流	-9.55983
彼非	-9.56019
既無	-9.56059
於一	-9.56148
純	-9.56224
愚癡	-9.56232
所受	-9.56254
南	-9.56261
勝進	-9.56292
執我	-9.56428
集智	-9.56448
是苦	-9.56465
等故	-9.56514
身表	-9.5653
無因	-9.56567
成立	-9.56598
依身	-9.56613
所化	-9.56696
八地	-9.56739
遍行隨眠	-9.56793
大悲	-9.5689
有六	-9.56912
大種所造	-9.56946
能持	-9.56959
斷惑	-9.56987
但言	-9.57071
非不	-9.57073
一生	-9.57243
滅諦	-9.57317
集諦	-9.57329
為我	-9.57335
迹	-9.57349
作因	-9.57474
第三禪	-9.57477
亦復如是	-9.57491
無心	-9.57741
經主	-9.58004
謂善	-9.58037
斷煩惱	-9.58056
香味	-9.5813
不信	-9.58205
有成就	-9.58257
未離	-9.5841
超越	-9.58496
又彼	-9.58875
忿	-9.58885
為名	-9.58905
有何差別	-9.58966
不現在前	-9.5898
十七	-9.59057
未曾	-9.59074
聚中	-9.59162
色入	-9.59256
次第緣	-9.59451
苦行	-9.59528
云何非	-9.59643
六因	-9.5973
損害	-9.59739
極成	-9.59759
非唯	-9.59875
緣故	-9.599
是我	-9.59913
暫	-9.59961
經中說	-9.59977
慳	-9.60015
生滅	-9.60069
石	-9.60175
汝等	-9.60304
有人	-9.60401
相應無明	-9.60411
晝	-9.60435
得非擇滅	-9.60443
餘三	-9.60579
能發	-9.60659
貪欲	-9.60832
律	-9.60848
應許	-9.60978
於境	-9.61012
十智	-9.61143
衰	-9.61276
未曾得	-9.61389
正思惟	-9.61482
飲	-9.61617
變壞	-9.61693
都	-9.61831
喜足	-9.61911
金剛喻定	-9.61911
我當	-9.61945
色想	-9.62027
然後	-9.62117
伽	-9.62148
新	-9.62183
齊	-9.6219
此身	-9.62267
異類	-9.62284
所緣境	-9.62313
後三	-9.62361
應有	-9.62375
未盡	-9.62408
就中	-9.62446
第九	-9.62478
可說	-9.62489
我今	-9.62495
四沙門果	-9.62498
無退	-9.62509
正念	-9.62538
是說	-9.62601
緣欲界	-9.62662
答若	-9.62717
遍行因	-9.62761
受陰	-9.6284
六地	-9.62928
多分	-9.62936
是也	-9.62938
黃	-9.63031
龍	-9.63075
五因	-9.6312
偈	-9.63269
能取	-9.63319
生已	-9.63475
人趣	-9.63521
世俗道	-9.63562
學無學	-9.63594
無漏智	-9.63634
由斯	-9.63639
則應	-9.63661
遣	-9.63832
宿住	-9.63887
無諍	-9.63916
此下	-9.63941
隔	-9.64018
應名	-9.64049
未知當知根	-9.64084
略說	-9.64174
二果	-9.64194
漸次	-9.64249
池	-9.64292
赤	-9.64582
立名	-9.64594
設有	-9.64665
意入	-9.64682
不壞	-9.6475
背	-9.6476
災	-9.64901
懷	-9.64906
身心	-9.64921
雲	-9.64994
聖諦	-9.65041
梵世	-9.65107
結所繫	-9.65219
法輪	-9.65239
引生	-9.65336
鬼	-9.65478
防	-9.65519
刀	-9.65523
復次此	-9.65545
二緣	-9.65677
諸業	-9.65684
答諸	-9.65705
聽	-9.65751
多少	-9.65754
五百	-9.65769
盛	-9.65798
造作	-9.65824
隨煩惱	-9.65859
生長	-9.65872
問何故作此論	-9.65896
脩	-9.66133
有愛	-9.66144
慧解脫	-9.66174
意說	-9.66264
近行	-9.66286
非見	-9.66316
無差別	-9.66427
有多	-9.66439
二界	-9.66703
難也	-9.66749
流轉	-9.66761
皆得	-9.66826
入胎	-9.66831
生於	-9.66986
次第生	-9.67004
大德	-9.67026
二智	-9.67038
而言	-9.67063
畢竟	-9.67182
等見	-9.67208
有見	-9.6723
無礙道	-9.67494
二十二根	-9.67538
當說	-9.67552
有差別故	-9.67616
釋也	-9.67628
覺觀	-9.67634
俱解脫	-9.67696
決	-9.67714
可意	-9.6783
此亦	-9.67907
不相應法	-9.67959
今當說	-9.67998
取果	-9.68
苦聖諦	-9.68053
無能	-9.68068
初二	-9.68073
中說	-9.68137
撥	-9.68179
名曰	-9.68216
能見	-9.68252
以為	-9.6836
天中	-9.68515
百千	-9.68604
別相	-9.68688
戒取	-9.68718
一切處	-9.68726
又云	-9.68764
為勝	-9.68767
轉根	-9.689
分明	-9.69136
道法智	-9.69186
心法	-9.69224
入出息	-9.69261
賢聖	-9.69328
三業	-9.6935
或依	-9.69356
憍	-9.69361
尸羅	-9.69549
已上論文	-9.69583
聚集	-9.69676
勢用	-9.69696
作如是	-9.69751
當來	-9.6978
諸惑	-9.6984
普	-9.69899
故曰	-9.69904
大地法	-9.6992
為先	-9.69982
雜修	-9.6999
一切煩惱	-9.70091
身證	-9.70113
若心	-9.70202
導	-9.7022
神足	-9.70225
故不名	-9.70356
所緣緣	-9.70373
二處	-9.70467
軛	-9.70504
正覺	-9.70524
金剛	-9.70528
功用	-9.70529
但有	-9.7069
眼見	-9.70708
已下	-9.70736
般	-9.70768
波	-9.70795
棄捨	-9.70857
能證	-9.70948
曾得	-9.70972
畏	-9.71183
卷第十	-9.71188
所立	-9.71205
華	-9.71229
覺分	-9.71237
後說	-9.71338
無用	-9.71377
於一切	-9.71494
雨	-9.71515
三諦	-9.71542
至得	-9.71544
耳識	-9.71601
為幾緣	-9.71665
便有	-9.71687
五識身	-9.71691
雖復	-9.71757
為說	-9.71844
所繫	-9.71858
現世	-9.71935
生處	-9.71951
意近行	-9.71955
二心	-9.72084
圓	-9.72084
無漏根	-9.72115
無愧	-9.72139
毘婆沙師	-9.72149
簡擇	-9.72182
無尋無伺	-9.72184
業異熟	-9.7222
一切隨眠隨增	-9.72224
皆能	-9.72365
四部	-9.72373
是故不說	-9.72526
阿那含	-9.72558
種姓	-9.72664
隨行	-9.72727
說曰	-9.72758
取蘊	-9.72791
瓶	-9.72801
穢污	-9.72803
無流	-9.72881
隨相	-9.72883
禮	-9.72941
破僧	-9.73096
具縛	-9.73105
又此	-9.73117
法爾	-9.73139
愛樂	-9.73149
所證	-9.73185
二禪	-9.73309
滅時	-9.73346
心心法	-9.73379
餓鬼	-9.73429
第二禪	-9.7346
修道斷	-9.73522
生起	-9.73553
復次以	-9.73606
姓	-9.73776
已辯	-9.7378
同故	-9.73867
不苦不樂	-9.73981
已知	-9.7403
三禪	-9.74055
果者	-9.74095
際	-9.74111
或說	-9.74361
是無記	-9.74471
薪	-9.74593
傍生	-9.7462
無學法	-9.74682
契經中	-9.74749
四行	-9.74814
六識識	-9.74881
不善業	-9.74961
惡業	-9.75002
形色	-9.75093
展轉相	-9.75118
則不	-9.75161
彼結	-9.75176
不隱沒無記	-9.75177
提	-9.75177
熏	-9.75182
色法	-9.75242
假立	-9.75278
顯色	-9.75342
不染污	-9.75537
隨信行	-9.75549
緣生	-9.75551
人天	-9.75565
若業	-9.75629
已盡	-9.75638
唯於	-9.75689
訶	-9.75774
故彼	-9.75815
收	-9.75866
晝夜	-9.75979
然彼	-9.76017
有所	-9.76033
十種	-9.76048
前所說	-9.76088
第四句	-9.76259
總相	-9.76259
若彼	-9.76291
彼亦	-9.76367
二義	-9.76392
不放逸	-9.76434
非心	-9.7649
與此相違	-9.76544
幾根	-9.76574
離繫得	-9.76583
不樂	-9.76745
體是	-9.76754
定有	-9.76793
得正決定	-9.76812
若是	-9.76867
託	-9.76882
者何	-9.77092
化心	-9.7712
答無	-9.77282
別釋	-9.7735
畜生	-9.77389
不住	-9.77434
依何	-9.775
甚	-9.77687
不待	-9.77699
亦復	-9.77824
順決擇分	-9.77832
生因	-9.77865
異名	-9.77926
若作	-9.78018
而轉	-9.78054
妄語	-9.78082
相雜	-9.78093
梵行	-9.78209
一人	-9.78276
富	-9.78473
說此	-9.78475
學處	-9.7856
貪瞋癡	-9.78582
聖法	-9.78592
等四	-9.78674
無報	-9.78749
極少	-9.78854
疾	-9.78891
作證	-9.78932
節	-9.78994
三地	-9.79125
唯除	-9.79176
牽	-9.79301
一品	-9.79496
相應耶	-9.79539
眼耳	-9.79541
是不善	-9.79589
莊嚴	-9.79605
更樂	-9.79728
轉法輪	-9.79734
道理	-9.79865
廣大	-9.79903
退失	-9.79912
獲得	-9.79934
毛	-9.79953
安隱	-9.79958
缺	-9.79989
盡智無生智	-9.79991
可見	-9.79991
不具	-9.80016
六根	-9.80081
異相	-9.80092
與心	-9.80116
此明	-9.80139
瀑流	-9.80264
須陀洹果	-9.8029
不可見	-9.80352
無失	-9.80384
及與	-9.80446
相應故	-9.80474
六十	-9.80482
諸地	-9.80497
身口業	-9.80556
毘	-9.80601
見至	-9.80709
相望	-9.80729
善色	-9.80849
明知	-9.80901
斷智	-9.81022
乳	-9.81026
賢	-9.81254
見苦	-9.81276
不通	-9.81332
離染得	-9.81355
亦通	-9.81411
所執	-9.81468
受報	-9.81525
無漏心	-9.81548
或無	-9.81596
六識身	-9.81615
諸異生	-9.81671
資糧	-9.81679
當生	-9.81685
色界繫無覆無記心	-9.817
無慚無愧	-9.817
遲	-9.8173
書	-9.8176
彼同分	-9.81797
若起	-9.81801
一切應分別	-9.8184
男女	-9.81873
為欲	-9.8189
若作是說	-9.81907
撥無	-9.81958
有為相	-9.81963
第二句	-9.81974
如比丘	-9.82016
於前	-9.82031
梵王	-9.82036
便生	-9.8209
此非	-9.82115
工巧	-9.82208
彼所	-9.82226
牒	-9.8224
芽	-9.82267
未來四	-9.82323
生得善	-9.82332
雜亂	-9.8248
受樂	-9.8249
入見道	-9.82518
邊見	-9.82576
定中	-9.82664
故不立	-9.82689
盡無生智	-9.82777
五蓋	-9.82806
滅者	-9.82846
想陰	-9.82948
諸外道	-9.82962
或時	-9.82966
久住	-9.82983
明了	-9.8303
三緣	-9.83056
印	-9.83067
是無漏	-9.8307
成就過去	-9.83104
對治故	-9.83112
有幾	-9.83315
皆無	-9.83362
學位	-9.83417
一地	-9.83418
相違故	-9.83422
車	-9.83494
心故	-9.83505
唯依	-9.83564
如其次第	-9.83577
識界	-9.83722
地中	-9.83727
此道	-9.83784
善等	-9.83787
氣	-9.83788
家家	-9.8388
為等無間	-9.83906
無漏慧	-9.8391
鳥	-9.8392
得自在	-9.84097
無執受	-9.84137
愧	-9.8421
此等	-9.84215
五地	-9.84231
別解脫律儀	-9.84249
見道中	-9.84265
欲界繫善心	-9.84292
心定	-9.84304
若不爾者	-9.84335
有退	-9.84398
有八	-9.84476
與餘	-9.84491
密	-9.84513
後時	-9.84545
不異	-9.84594
自他	-9.84608
大師	-9.84634
有異熟	-9.84673
彼無	-9.84696
調伏	-9.84702
無智	-9.8474
諸所有	-9.84745
生彼	-9.84767
是名為	-9.84819
習智	-9.84832
作業	-9.84883
雜染	-9.84949
專	-9.84951
有覆無記心	-9.84964
無斷	-9.85032
滅盡	-9.85056
疑結	-9.8515
我說	-9.85219
一緣	-9.85275
作四句	-9.8536
應非	-9.85364
三受	-9.85413
鐵	-9.85427
念處	-9.85528
能招	-9.85666
沙	-9.85666
不苦不樂受	-9.85679
婆沙一百	-9.85745
意行	-9.85815
得名	-9.85832
室	-9.85835
得成	-9.85862
怖畏	-9.85879
能得	-9.86207
唯在	-9.86288
定非	-9.86315
非遍行	-9.86362
迴	-9.86536
謂根	-9.86715
不行	-9.86724
有情數	-9.8673
知見	-9.86766
神通	-9.86784
肉	-9.86839
但是	-9.86909
具壽	-9.86964
緣彼	-9.86964
濕	-9.87026
鈍根	-9.87031
一來	-9.87033
其相	-9.87053
此復云何	-9.87083
各各	-9.87145
一切使使	-9.87182
亦名為	-9.87225
木	-9.87253
眾苦	-9.87278
云何為	-9.87292
八根	-9.87334
不相違	-9.87418
有如是	-9.87492
俗智	-9.87515
夢	-9.8764
法性	-9.87715
擇	-9.87862
不以	-9.87955
識陰	-9.87968
上二界	-9.8802
不了	-9.88024
初得	-9.88053
四大造	-9.88069
作如是言	-9.88156
受想行識	-9.88265
焰	-9.88316
有勝	-9.8834
正義	-9.88348
何故名	-9.88354
思惟所斷	-9.88432
非異熟	-9.88448
根本地	-9.88467
無緣	-9.88494
薩婆多	-9.88582
謂前	-9.88617
皆通	-9.88738
拔	-9.8875
繫縛	-9.88804
為止	-9.88825
無所緣	-9.88879
意處	-9.88899
續生	-9.88934
未離欲染	-9.88963
卵	-9.89059
傍	-9.8911
過未	-9.89138
未知根	-9.89142
斷結	-9.8918
四行相	-9.89182
如文可解	-9.89244
此五	-9.89264
積集	-9.89355
當有	-9.8937
亦與	-9.8939
所應	-9.89523
見滅斷	-9.89585
現在世	-9.89791
佛告	-9.89829
下品	-9.89839
不淨想	-9.89931
一行	-9.89975
起時	-9.90012
敘	-9.90089
未離欲	-9.90211
非所斷	-9.90326
作者	-9.90329
品類	-9.90382
亦成就	-9.90395
故正理云	-9.90418
列	-9.90436
二法	-9.90443
如有	-9.90447
諸隨眠	-9.9057
二部	-9.90597
或由	-9.90612
得故	-9.90665
大梵	-9.90678
謂從	-9.90681
質	-9.9069
一念	-9.90712
不相離	-9.90807
具知根	-9.90807
七種	-9.90837
故得	-9.90852
通達	-9.90867
修所成	-9.9091
梵天	-9.90961
作是	-9.90964
定心	-9.91106
有七	-9.91264
他身	-9.91383
彼心	-9.91387
是有為	-9.91409
捨受	-9.91433
我已	-9.91535
何謂非	-9.9162
不應說	-9.91645
已離欲染	-9.91669
說言	-9.91759
饒益	-9.91887
不可得	-9.9189
舍利子	-9.91907
答此	-9.91936
定無	-9.91937
善行	-9.91991
有覆	-9.92027
相應心	-9.92044
身念住	-9.92045
也問	-9.92069
慧根	-9.92136
諸行滅	-9.92141
業感	-9.92164
雖是	-9.92181
相續中	-9.92246
又說	-9.92253
此根	-9.92282
俱轉	-9.9237
識身	-9.92387
死有	-9.92513
無礙解	-9.92576
無也	-9.9259
嫉	-9.92653
擇法	-9.92672
絕	-9.92747
及諸	-9.92749
四智	-9.92751
三者	-9.92804
我慢	-9.92854
為他	-9.92865
復作是說	-9.92868
修慧	-9.92913
四無量	-9.92975
憍慢	-9.93006
若智	-9.93036
應知此中	-9.93068
耳鼻舌身	-9.93086
智力	-9.9314
於法	-9.93148
思擇	-9.93158
恚結	-9.93192
非情	-9.93251
毘婆沙	-9.93276
辦	-9.93471
信根	-9.93522
無覆	-9.93532
冥	-9.93544
勝果道	-9.93577
已離	-9.93584
天上	-9.93651
增故	-9.93736
問答	-9.93784
以諸	-9.9379
染著	-9.93792
愛未盡	-9.93819
惡不善法	-9.93941
土	-9.93943
令不	-9.93988
身語	-9.9399
我於	-9.9402
意識相應	-9.94151
第三句	-9.9418
無過	-9.9419
大海	-9.94193
阿那含果	-9.94195
宿	-9.94208
問何等法	-9.9421
覺知	-9.94241
非如	-9.94251
言無	-9.94292
箭	-9.94341
斷善	-9.94378
彼定	-9.94438
取結	-9.94524
謂依	-9.94574
忍智	-9.9459
無覺無觀	-9.94681
分位	-9.94694
能了	-9.94723
第四定	-9.94776
存	-9.94819
名之為	-9.94857
然此	-9.9494
不共無明	-9.95016
應果	-9.95025
卷	-9.95025
善不善無記	-9.95105
又世尊言	-9.95176
愛結繫	-9.95493
皮	-9.95508
心解脫	-9.95522
止息	-9.95527
報法	-9.95534
莫	-9.95563
學法	-9.95595
患	-9.95619
即名	-9.95777
無窮	-9.95843
恚結繫	-9.95985
隨法行	-9.9599
乎	-9.96078
身行	-9.96159
無二	-9.96166
不相應行	-9.9625
放逸	-9.96281
謬	-9.96414
若生欲界	-9.96423
底	-9.96452
本有	-9.96599
諸見	-9.96762
暖	-9.96774
心相應	-9.96805
劣故	-9.96884
加行得	-9.9691
結使	-9.96979
彼有	-9.9699
憎	-9.97067
或是	-9.9707
泥	-9.97166
所發	-9.97186
男根	-9.97227
諸阿羅漢	-9.97265
逼	-9.97347
欲界修所斷	-9.9736
為是	-9.9741
授	-9.97425
地界	-9.97427
直	-9.97503
此亦如是	-9.976
證知	-9.97602
何不	-9.97645
髮	-9.97711
能離	-9.97715
定者	-9.97715
見結繫	-9.97763
六界	-9.97765
生上	-9.97787
等法	-9.97796
利益	-9.97829
餘皆	-9.97866
三定	-9.97873
增上慢	-9.97929
問云何	-9.98024
所依身	-9.98058
令彼	-9.98062
滅法智	-9.98143
體非	-9.98211
生相	-9.98303
但名	-9.98311
更有	-9.98322
勤修	-9.98452
為令	-9.98462
餘四	-9.98475
臣	-9.98486
欲顯	-9.98487
生天	-9.98546
學者	-9.9855
欲愛	-9.98571
心生	-9.98679
有所緣	-9.98695
起者	-9.98755
誓	-9.98897
滅故	-9.98906
二形	-9.98939
三因	-9.98961
衣服	-9.98969
周	-9.98999
現法	-9.99024
狹	-9.99028
道故	-9.99054
三不善根	-9.99064
已起	-9.99127
正理論	-9.99139
近住	-9.99146
說亦如是	-9.99152
女根	-9.99212
有執受	-9.99284
三無色	-9.99293
睡	-9.99313
初句	-9.99334
貪瞋	-9.99391
號	-9.99416
佛法	-9.99437
唯此	-9.9956
為遮	-9.99592
頌中	-9.99671
故唯	-9.99686
生中	-9.99694
杖	-9.99697
二生	-9.99698
攝受	-9.99726
猶豫	-9.9974
此見	-9.99743
應作四句	-9.99778
若斷	-9.99793
有為緣	-9.99868
三無漏根	-10.0013
初剎那	-10.0014
已上	-10.0014
盲	-10.0019
若緣	-10.0021
端嚴	-10.0022
有餘師言	-10.0022
離欲界染	-10.0023
九種	-10.0036
正定	-10.0037
如是說	-10.004
還生	-10.0045
非一切	-10.0047
現有	-10.0049
未起	-10.0051
福業	-10.0052
是有漏	-10.0052
薄	-10.0058
無間業	-10.0063
通三界	-10.0068
寬	-10.0076
五支	-10.0077
以何	-10.008
結眠沒	-10.008
士	-10.0091
虛	-10.0095
珠	-10.01
歲	-10.0103
假名	-10.0106
聲界	-10.0109
見苦集所斷	-10.011
無表色	-10.0113
諸有情類	-10.0115
名有	-10.0117
復次比丘	-10.0121
作論	-10.013
猛	-10.014
佛經	-10.0141
仙人	-10.0142
北	-10.0144
也言	-10.0146
爾所	-10.015
靜慮中間	-10.0151
謂色	-10.0152
雜穢語	-10.0158
界地	-10.0161
依彼	-10.0167
斷滅	-10.0171
即以	-10.0171
頌言	-10.0175
取境	-10.0178
言說	-10.0179
若修	-10.0179
何義	-10.019
亦攝	-10.0195
交	-10.0197
修所斷法	-10.0208
八萬	-10.0212
長者	-10.022
差別故	-10.0222
六入	-10.0231
若生色界	-10.0232
先起	-10.0244
九根	-10.0246
自部	-10.0249
何況	-10.0253
彼不	-10.0254
品中	-10.0255
為正	-10.0256
法類	-10.0257
欲界中	-10.0258
斯陀含	-10.0259
云何通	-10.0264
無記法	-10.027
可爾	-10.027
無學位	-10.0272
加行善	-10.0275
此則	-10.0278
三十二	-10.028
破壞	-10.0281
西	-10.0282
無尋唯伺	-10.0287
依未至定	-10.0288
淨無漏	-10.03
修惑	-10.0302
斯陀含果	-10.0302
又契經說	-10.0306
苾芻當知	-10.0306
除餘法	-10.0308
令他	-10.0311
未至定	-10.0315
妨	-10.0324
視	-10.0325
守	-10.0326
見集斷	-10.0329
謂無漏	-10.0331
但依	-10.0333
前際	-10.0337
三界繫	-10.0346
麤	-10.0347
如前釋	-10.0354
無學正見	-10.0364
言顯	-10.0373
勝劣	-10.0376
之時	-10.0385
有十	-10.0388
初起	-10.0391
三果	-10.0403
通果心	-10.0411
弱	-10.0415
飲酒	-10.0415
者即	-10.0433
及彼	-10.0435
相似因	-10.0435
限	-10.0438
行相轉	-10.0442
邪命	-10.0444
若住	-10.0444
有情居	-10.0447
後際	-10.0449
隨所	-10.0451
其義	-10.0456
音	-10.0463
諂	-10.0464
領	-10.0464
非根	-10.0476
喜覺支	-10.0479
意觸	-10.048
餘地	-10.0483
四陰	-10.0484
未滅	-10.0486
族	-10.0487
無見	-10.0494
辟支佛	-10.0495
不盡	-10.05
變化心	-10.0502
連	-10.0505
二俱	-10.0507
假說	-10.0515
是以	-10.0521
非愛	-10.0521
正理云	-10.0524
依未至	-10.0526
積	-10.0539
無色界繫善心	-10.054
為加行	-10.0544
增盛	-10.0548
昧	-10.0549
懈怠	-10.0554
為果	-10.0554
論文	-10.0559
命者	-10.0562
於色	-10.0566
變礙	-10.0568
說一切有部發智	-10.0569
便作是念	-10.0571
天趣	-10.0571
等取	-10.0574
根者	-10.058
有業	-10.0583
齋	-10.0586
二十二	-10.0587
之中	-10.0588
在家	-10.0592
終不	-10.0592
犯戒	-10.0599
葉	-10.0601
非報非報法	-10.0602
應不	-10.0607
能依	-10.0608
凡夫性	-10.0611
欲漏	-10.0614
境界緣	-10.062
七日	-10.0626
此類	-10.0635
前四	-10.0637
能障	-10.0645
是常	-10.0645
於此中	-10.0651
羅漢	-10.0657
作意相應	-10.0658
或以	-10.0669
如先說	-10.0671
受業	-10.0672
具二	-10.0676
除何等法	-10.0677
以是事故	-10.0683
慚愧	-10.0683
三藏	-10.0688
鏡	-10.0689
業力	-10.0692
損減	-10.0704
何用	-10.0706
現在一	-10.0707
謂生欲界	-10.0708
不時解脫	-10.0711
謂佛	-10.0714
念覺支	-10.0716
恃	-10.0718
故不說	-10.072
隨業轉	-10.0727
謂三界	-10.0732
】	-10.0735
具有	-10.0736
漸漸	-10.0737
延	-10.0737
甚深	-10.0741
現在無	-10.0742
之言	-10.0743
一劫	-10.0743
於佛	-10.0757
斷者	-10.0758
他相續	-10.0761
然非	-10.0763
彼行	-10.0763
清	-10.0764
地等	-10.0765
非定	-10.0769
酒	-10.0779
一切智	-10.0787
覺意	-10.0803
彼人	-10.0805
方名	-10.0805
頌曰至	-10.081
二事	-10.0817
亦可	-10.0821
無異熟	-10.0821
以無	-10.0824
活	-10.0825
受相應	-10.0825
工巧處	-10.0827
威儀路	-10.0834
厭離	-10.0835
修定	-10.0841
論師	-10.0845
釋頌	-10.0846
遍淨	-10.0849
是色	-10.085
寂	-10.0855
應作	-10.0857
能滅	-10.0857
八解脫	-10.0858
斷遍知	-10.0862
士用	-10.0863
座	-10.0871
此位	-10.0872
妻	-10.0877
四果	-10.0879
十二入	-10.0881
初禪地	-10.0881
所取	-10.0883
推	-10.0884
盡故	-10.0887
受者	-10.0891
必應	-10.0898
增減	-10.0903
見修所斷	-10.0908
而不說者	-10.0909
以是故	-10.0911
一句	-10.0915
住處	-10.0918
三十三天	-10.0919
三洲	-10.0921
鉢	-10.0926
成就未來	-10.093
曲	-10.0932
不生法	-10.0936
常住	-10.0937
尊重	-10.0942
集法智	-10.0945
欲染	-10.0945
故說為	-10.0948
未來法	-10.096
而能	-10.0964
炎	-10.0969
謂由	-10.0969
但緣	-10.0969
謂除前相	-10.0971
軍	-10.0972
八品	-10.0972
若無漏	-10.0974
羊	-10.0979
此處	-10.098
有用	-10.0983
一切種	-10.0984
能遮	-10.0985
多聞	-10.0986
持戒	-10.0997
所捨	-10.1005
在身	-10.1007
實義	-10.1009
定成就	-10.1009
言我	-10.1011
不欲	-10.1012
與此	-10.1012
薄伽梵	-10.1021
有五種	-10.1028
三性	-10.1029
無欲	-10.1033
句義	-10.1043
段	-10.1046
本得	-10.1058
師說	-10.1059
為所依	-10.1063
】【	-10.1064
為俱有因	-10.1064
安樂	-10.1065
不染	-10.1066
已辨	-10.1066
言依	-10.1069
行苦	-10.107
却	-10.1071
雜心	-10.1085
引發	-10.1101
色聲	-10.1105
是故彼	-10.111
皆具	-10.1116
餘二	-10.1116
宜	-10.1116
幾是	-10.1119
受苦	-10.112
若在	-10.1125
應修	-10.1129
上來	-10.1137
俱非	-10.1144
等言	-10.1144
淨解脫	-10.1148
事業	-10.1153
聖弟子	-10.1155
無學道	-10.1156
三蘊	-10.1157
別緣	-10.1159
若據	-10.1166
禪枝	-10.1167
常見	-10.1183
平	-10.1187
一切地	-10.1192
業生	-10.1195
隱沒	-10.1199
餘如前說	-10.1201
如是思惟	-10.1206
惛沈	-10.1216
發語	-10.1219
奉	-10.1219
隨念	-10.122
竝	-10.122
惡道	-10.1222
非受	-10.1237
於我	-10.1241
今時	-10.1243
隱沒無記	-10.1254
色身	-10.1257
如契經言	-10.126
嚴	-10.1263
故成	-10.1265
變易	-10.1266
不應道理	-10.1267
初念	-10.1267
威勢	-10.1271
彼經	-10.1282
當得	-10.129
等事	-10.1293
結生	-10.1294
佛教	-10.1302
一趣	-10.1307
勤策	-10.1308
自害	-10.1312
踰繕那	-10.1316
心起	-10.1317
信等	-10.1322
轉輪王	-10.1323
同前	-10.1326
前已說	-10.1332
一切是	-10.1336
若觸	-10.1336
應是	-10.1337
地獄中	-10.1338
名身	-10.1339
斷道	-10.1339
縷	-10.1341
皆悉	-10.1341
起欲	-10.1349
善士	-10.1353
眼見色	-10.1354
沈	-10.1356
致	-10.136
希求	-10.1362
令其	-10.1367
九智知除滅	-10.1375
總緣	-10.1378
所觸	-10.138
臥	-10.1394
諸得	-10.1395
雖不	-10.1395
各異	-10.1397
五取蘊	-10.1398
成佛	-10.14
謂欲	-10.141
有作用	-10.1415
受戒	-10.1416
飢	-10.142
一因	-10.1422
廣說如上	-10.1422
卑	-10.1428
彼宗	-10.1434
舊云	-10.144
性罪	-10.1451
若先	-10.1451
色界繫有覆無記心	-10.1453
諸聖者	-10.1457
欲色	-10.1458
無明結	-10.1459
依初靜慮	-10.146
無所有	-10.1466
學人	-10.147
是何義	-10.1475
即便	-10.1477
善巧	-10.1491
彼作是說	-10.1495
少欲	-10.1502
領納	-10.1504
曾聞	-10.1504
與前	-10.1505
百大阿羅漢等造三藏法師玄奘奉詔譯	-10.1506
今詳	-10.1517
布施	-10.1521
變異	-10.1524
八十	-10.1524
若餘	-10.1533
已失	-10.1538
非善	-10.1539
當云何通	-10.1544
能憶	-10.1546
摩訶	-10.1546
善有漏	-10.1554
我執	-10.1554
處起	-10.1554
穀	-10.1555
數習	-10.1557
更不	-10.1561
在定	-10.1566
問彼	-10.158
二分	-10.159
引起	-10.1593
義也	-10.1596
名也	-10.1598
謂欲界繫	-10.1598
不取	-10.1609
眼入	-10.1637
苦集諦	-10.1638
詞	-10.165
若定	-10.1653
所顯	-10.1656
勝進道	-10.1657
不善無記	-10.1659
唯取	-10.1664
差別者	-10.167
伽他	-10.1671
論說	-10.1676
問言	-10.1678
未能	-10.1681
依處	-10.1701
滑	-10.1704
淨信	-10.1707
美	-10.1709
出要	-10.1709
色有	-10.171
有心	-10.1713
因義	-10.1716
引經	-10.1717
隨應	-10.1718
眼色	-10.1721
宿住隨念智	-10.1721
歡	-10.1727
准前	-10.1728
是故偏說	-10.1728
不遍	-10.1737
信勝解	-10.1743
疏	-10.1744
色貪	-10.1745
園	-10.1755
猗	-10.1761
贍部洲	-10.1764
實物	-10.177
見疑	-10.1772
如是名為	-10.1791
此識	-10.1793
無始	-10.1794
中品	-10.1799
使所使	-10.1805
定成	-10.1805
今此	-10.1807
即於	-10.1808
可言	-10.181
非無漏	-10.1811
偏說	-10.1812
退時	-10.1813
散亂	-10.1817
如是所說	-10.1819
既言	-10.1823
十六行相	-10.1832
生疑	-10.1834
傳說	-10.1836
無障	-10.1837
仙	-10.1837
成就現在	-10.184
卷第二十	-10.1845
六智	-10.1856
全無	-10.1864
刺	-10.1864
一說	-10.1868
不轉	-10.1868
能修	-10.187
劫初	-10.1871
判	-10.1876
恨	-10.1876
未知	-10.1882
於所緣	-10.1894
二見	-10.1903
為緣生	-10.1904
理故	-10.1908
不隨	-10.1911
緣起法	-10.1912
二業	-10.1917
親友	-10.1918
身語表	-10.1925
運	-10.1929
為證	-10.1933
因生	-10.1933
七智	-10.1936
有教	-10.194
非想	-10.194
若干	-10.1941
雖非	-10.1942
正勤	-10.1943
契經中說	-10.1946
何等為	-10.195
真諦	-10.1952
不決定	-10.1956
故應	-10.1961
從此第二	-10.1966
他人	-10.197
縱	-10.1971
退者	-10.1977
壽命	-10.1997
七支	-10.1999
成滿	-10.2003
時分	-10.2005
皆不	-10.201
我我所	-10.2011
雜修靜慮	-10.2022
謂之	-10.2022
諸師	-10.2024
過去世	-10.2029
不順	-10.2031
餘煩惱	-10.2032
若未	-10.2044
通二	-10.2055
此無表	-10.206
若執	-10.2061
諸漏	-10.2067
二蘊	-10.2073
麁細	-10.2075
可名	-10.2076
渴	-10.2076
亦成	-10.2082
道聖諦	-10.2082
守護	-10.2085
或執	-10.2087
以世俗道	-10.2095
不動法	-10.2097
識蘊	-10.2099
許有	-10.21
入聖道	-10.21
是其	-10.2102
戒盜	-10.2104
唯修所斷	-10.2104
是故此	-10.2106
不應言	-10.2121
憙	-10.2124
心中	-10.2126
佛經說	-10.2127
法師	-10.2127
羸劣	-10.213
無覆無記心	-10.214
志	-10.2144
八智知除滅	-10.2146
壽行	-10.2149
繫屬	-10.2153
習氣	-10.2154
難可	-10.2163
後念	-10.2164
他地	-10.217
有果	-10.2171
非實	-10.2182
尊者舍利弗	-10.2183
為其	-10.2186
無明使	-10.2186
能為因	-10.2189
謝	-10.2193
此復	-10.2193
心受	-10.2194
別者	-10.2196
五品	-10.2198
日月	-10.2201
誰成就	-10.2211
一由	-10.2212
內身	-10.222
前五	-10.2223
為善	-10.2223
既不	-10.2225
離繫果	-10.2226
所住	-10.2232
身壞命終	-10.2243
得不還果	-10.2245
為障	-10.2251
由是	-10.2254
別明	-10.2261
實體	-10.2262
知根	-10.2264
除入	-10.227
而未	-10.227
顯了	-10.2278
幾非	-10.2278
詣	-10.2282
互為因	-10.2285
微妙	-10.2286
而作此論	-10.2286
馳	-10.2287
誹謗	-10.2289
非於	-10.2293
信解脫	-10.2295
防護	-10.2296
二人	-10.2298
不現	-10.2301
意地	-10.2314
釋云	-10.232
音聲	-10.2331
七地	-10.2333
奪	-10.2338
牟尼	-10.2343
出現	-10.2345
本性	-10.2346
出定	-10.2348
於苦	-10.2357
於身	-10.2357
非數滅	-10.2361
或善	-10.2366
亦同	-10.2366
受蘊	-10.2371
答以	-10.2373
無生	-10.2375
非法	-10.2377
隨彼	-10.2377
福田	-10.238
欲使	-10.2386
無漏律儀	-10.2386
極多	-10.2389
為有	-10.2392
別解脫	-10.2392
舌識	-10.2393
賊	-10.2394
其理	-10.2395
對治道	-10.2395
打	-10.2395
羯磨	-10.2395
麥	-10.2398
法智品	-10.2401
無數	-10.2403
乃至非想非非想處	-10.2404
再	-10.2408
耳根	-10.2422
是處	-10.2428
三事	-10.243
色根	-10.2436
戲	-10.2437
數滅	-10.2438
應理	-10.2439
俱得	-10.2442
又諸	-10.2444
雖亦	-10.2446
乃至無所有處	-10.2447
方成	-10.2452
自類	-10.2458
智見	-10.246
增廣	-10.246
糞	-10.2461
但應	-10.2469
唯與	-10.247
亦緣	-10.2475
謂不善	-10.2476
得涅槃	-10.2489
死後	-10.2493
不違	-10.2502
一界	-10.2503
拘	-10.2504
自知	-10.2508
功力	-10.2509
不染無知	-10.2515
觸處	-10.2516
梵眾	-10.2518
造業	-10.2521
佛於	-10.2524
若有漏	-10.2525
狂	-10.2531
彼言	-10.2535
及相應法	-10.2538
無癡	-10.2541
色愛盡	-10.2542
彼相應	-10.2544
通果	-10.2548
「	-10.2549
不相似	-10.2552
經所說	-10.2555
詳	-10.2555
不別	-10.2557
百年	-10.2559
類智品	-10.2561
決擇	-10.2561
風界	-10.2563
惠	-10.2563
納息	-10.2563
染污法	-10.2568
長等	-10.2571
男子	-10.2572
而於	-10.2577
滿足	-10.2577
若爾何故	-10.2579
欲邪行	-10.258
非實有	-10.258
又若	-10.2591
鼻識	-10.2592
諸心	-10.2594
作此	-10.2598
若能	-10.2599
等諸	-10.2599
有四句	-10.26
自分	-10.26
佛為	-10.2605
諸有為法	-10.261
殺等	-10.2613
端	-10.2613
三十一	-10.2617
若離	-10.262
堅固	-10.2622
揵度	-10.2623
無作	-10.2638
非離	-10.2644
是人	-10.2644
行人	-10.2644
緣色	-10.2647
菩提分法	-10.2649
不相	-10.2651
下下	-10.2651
為門	-10.2657
五受	-10.266
所長養	-10.266
有殊	-10.2664
通行	-10.2666
二十八	-10.2669
果名	-10.2669
羞	-10.2673
過現	-10.2679
智耶	-10.268
能對治	-10.2689
苦集滅道	-10.269
多羅	-10.2692
便起	-10.27
四根	-10.2701
於後	-10.2705
二十四	-10.2711
正明	-10.2717
不定故	-10.2724
是因	-10.2732
威德	-10.2734
!	-10.2746
古	-10.2747
失念	-10.2749
滅法	-10.2751
因力	-10.2751
化作	-10.2753
法相	-10.2757
在未來	-10.2762
無記根	-10.2765
香等	-10.277
空界	-10.2777
彼由	-10.2778
彼尊者	-10.2778
離欲染	-10.2779
法智相應	-10.2781
三行	-10.2783
東	-10.2784
三乘	-10.2784
是無常	-10.2785
二諦	-10.2791
觀待	-10.2792
皆應	-10.28
聲入	-10.2811
厭患	-10.2813
修得	-10.2815
彼作是念	-10.2817
因此	-10.2825
執受	-10.2829
五境	-10.2837
答如	-10.284
離生喜樂	-10.284
無覺有觀	-10.2841
其心	-10.2841
纏所纏	-10.2841
苦類智	-10.2844
避	-10.2845
而彼	-10.2848
解脫門	-10.2853
歷	-10.2854
是道	-10.2855
彼處	-10.2857
非所	-10.2859
根相應	-10.2866
施主	-10.2867
或於	-10.2877
如是乃至	-10.288
可有	-10.2881
七生	-10.2883
慢結	-10.2896
極光淨	-10.2897
遭	-10.2901
色者	-10.2905
大眾部	-10.2912
定是	-10.2913
見集	-10.2914
即有	-10.2918
三識	-10.2921
身繫	-10.2923
不滅	-10.2924
二乘	-10.2925
見諦斷	-10.2928
但為	-10.2929
沙門婆羅門	-10.2936
及修所斷	-10.2937
精勤	-10.2937
九十八使	-10.2941
不入	-10.2946
死時	-10.2956
於所	-10.2957
後後	-10.2959
一切有為法	-10.296
何故不說	-10.2964
入母胎	-10.297
其中	-10.297
期心	-10.2972
速疾	-10.2973
如理所引	-10.299
初生	-10.2995
應分別	-10.2995
謂一切	-10.2997
攝在	-10.3001
使使	-10.3004
後方	-10.3005
如上	-10.3007
世尊弟子	-10.3007
其義云何	-10.3009
復言	-10.3009
有為無為	-10.3013
九無間道	-10.3015
斷見	-10.3017
乖	-10.3018
理應	-10.302
語表	-10.302
醉	-10.3023
二由	-10.3023
三十	-10.3029
非理作意	-10.3032
所緣故	-10.3049
煖等	-10.3053
無形	-10.3054
立根	-10.3054
五十	-10.3058
下中上	-10.3059
自相續	-10.3069
簡別	-10.3069
薩	-10.3076
不與取	-10.3081
巧便	-10.3081
一切有為	-10.3085
露	-10.3086
時捨	-10.3088
順正理論	-10.309
外法	-10.3096
具足住	-10.31
無違	-10.3101
一切入	-10.3106
問何故名	-10.3107
無漏戒	-10.3108
惡心	-10.3108
信解	-10.3113
不從	-10.3113
猶有	-10.312
非彼	-10.3131
亦由	-10.3131
【	-10.3133
理亦不然	-10.3135
義成	-10.3135
寒	-10.3137
磨	-10.3137
威勢緣	-10.314
具三	-10.3144
第一句	-10.3159
相應俱有	-10.316
集類智	-10.316
彼色	-10.3163
次說	-10.3166
如前所說	-10.3169
或無記	-10.317
二地	-10.3174
色相	-10.3177
若見	-10.318
染法	-10.3181
依地	-10.3189
加行道	-10.3193
邪智	-10.3196
擊	-10.3198
善取法相善思惟善解	-10.3201
推度	-10.3201
出息	-10.3203
非緣	-10.3203
二世	-10.3207
無勝	-10.3208
又問	-10.3209
不應理	-10.3212
四法	-10.3214
有流	-10.322
無知根	-10.3227
用故	-10.3227
我宗	-10.3234
受異熟	-10.3235
而般涅槃	-10.3238
過去法	-10.324
入息	-10.3243
然諸	-10.3244
貴	-10.3245
愛果	-10.3247
服	-10.3251
喜受	-10.3255
順解脫分	-10.3258
若受	-10.326
空三摩地	-10.3262
不雜	-10.3267
何故說	-10.327
有支	-10.3274
之法	-10.3277
入滅定	-10.328
云何不	-10.3282
堪能	-10.3293
以是	-10.3296
如是一切	-10.3296
通緣	-10.3296
善趣	-10.3304
留難	-10.3306
悟	-10.3306
十智知	-10.3308
血	-10.3315
四支	-10.3328
集聖諦	-10.3332
法念處	-10.3336
現法樂住	-10.3338
相者	-10.3339
善知	-10.3344
二類	-10.3349
上上	-10.3352
釋言	-10.3355
次生	-10.3359
勝論	-10.3362
性者	-10.3362
亦生	-10.3365
相對	-10.3367
其相云何	-10.3367
餘師	-10.3369
廣分別	-10.337
護根	-10.3371
誠	-10.3372
語言	-10.3372
三部	-10.3373
了義	-10.3376
若從	-10.3382
此有	-10.3382
非我行相	-10.3384
彼執	-10.3387
九智	-10.3388
變化	-10.3389
何者是	-10.3389
如是已說	-10.3397
相應者	-10.34
諸相	-10.3405
謂阿羅漢	-10.3406
內法	-10.3408
獄	-10.3423
所隨增	-10.3425
跋	-10.343
時即	-10.3432
灰	-10.3435
橫	-10.344
邊執見	-10.344
飛	-10.3441
煩	-10.3443
客	-10.3444
意趣	-10.3447
難知	-10.3461
後位	-10.3463
唯修	-10.3469
大劫	-10.3479
暫時	-10.3487
見惑	-10.3489
性類	-10.3491
若於此事	-10.3503
長時	-10.3504
不護	-10.3506
疎	-10.3507
三和合	-10.3514
斷對治	-10.3514
佛弟子	-10.3514
不可意	-10.3531
隣近	-10.3534
天耳	-10.3537
梵云	-10.3537
非過去	-10.3542
法體	-10.3542
第二明	-10.3544
所許	-10.3546
是業	-10.355
尋求	-10.3551
非由	-10.3554
處處	-10.3554
見到	-10.3561
讚歎	-10.3568
無色染	-10.357
道中	-10.357
定地	-10.3571
非隨眠隨增	-10.3572
意顯	-10.3579
貪愛	-10.3582
相應縛	-10.3583
別名	-10.3583
有我	-10.359
所治	-10.3595
污	-10.3596
諸惡	-10.3597
成業道	-10.3598
緣欲界繫	-10.3604
亦應說	-10.3605
問如	-10.3611
鬘	-10.3611
心次第生	-10.3612
串習	-10.362
佛身	-10.362
不用處	-10.3623
意止	-10.3624
二道	-10.3625
謂緣	-10.3626
譬喻	-10.363
任運	-10.3633
得修	-10.3633
又於	-10.3634
先時	-10.3637
捨不成就得成就	-10.3648
計我	-10.3649
義如前說	-10.365
七智知	-10.365
住異	-10.3651
緣一切法	-10.3653
所居	-10.3656
嫉結	-10.3657
十二支	-10.366
由何	-10.3664
忘	-10.3664
應斷	-10.3665
起煩惱	-10.3668
所問	-10.3673
處得	-10.3685
鹿	-10.3686
若許	-10.3686
角	-10.3688
何名	-10.369
臥具	-10.3697
及色界	-10.3703
緣緣	-10.3706
緣現在	-10.3708
口行	-10.371
觀行者	-10.3713
此下第	-10.3715
一切時	-10.3722
智知	-10.3724
芽等	-10.3728
或成就	-10.3729
梨	-10.3741
諸比丘	-10.3746
是欲界	-10.3747
梵福	-10.3749
定慧	-10.375
改	-10.3751
婦	-10.3752
助伴	-10.3753
義准	-10.3758
已斷已遍知	-10.3758
令生	-10.3767
通依	-10.3771
宣說	-10.3774
若由	-10.3776
意識界	-10.3782
非一	-10.3785
歎	-10.3792
此顯	-10.3793
一切遍使	-10.3797
何故不	-10.38
無義	-10.3805
惱害	-10.3809
心數	-10.3812
天授	-10.3824
俱是	-10.3825
所作因	-10.3829
成故	-10.3842
謂有漏	-10.3846
前文	-10.3857
隨所應	-10.3858
無恚	-10.3859
邪定	-10.386
慰	-10.3866
由旬	-10.3868
二十一	-10.3871
慮	-10.3873
關	-10.3874
亦以	-10.3875
牙	-10.3879
慢類	-10.3882
於三	-10.3883
勝者	-10.3891
評家	-10.3891
黑白	-10.3892
大乘	-10.3897
得定	-10.3899
順上分結	-10.3903
一有情	-10.3903
伴	-10.3903
五通	-10.3907
聞慧	-10.3909
眼處	-10.392
皆容	-10.3925
村	-10.3927
心念住	-10.393
是事	-10.393
畫	-10.3932
曾見	-10.3933
一部	-10.3936
滅類智	-10.3939
緣未來	-10.3941
合為	-10.3943
纔	-10.3945
善無記	-10.3945
仍	-10.3946
一云	-10.3951
知足	-10.3953
是因緣	-10.3956
梵眾天	-10.3958
知他心	-10.3959
心亂	-10.3961
皆以	-10.3963
觸界	-10.3972
覺慧	-10.3973
便違	-10.3973
得起	-10.3974
有漏道	-10.3976
何者為	-10.3984
布	-10.3984
波羅	-10.3985
入涅槃	-10.399
然於	-10.3992
持息念	-10.3997
吒	-10.3999
非智	-10.4001
微劣	-10.4004
承	-10.4006
隨逐	-10.4009
能與	-10.401
信等五	-10.4013
慳結	-10.4014
火界	-10.4015
已成	-10.4015
威	-10.4018
便能	-10.4019
堪	-10.4025
心無間	-10.4027
五戒	-10.4032
靜慮支	-10.4038
亦應爾	-10.4049
為食	-10.405
今應	-10.405
二釋	-10.4052
此中有	-10.4057
身力	-10.4059
西方	-10.406
修未來	-10.4061
濟	-10.4062
諸善	-10.4063
希望	-10.4065
能破	-10.4068
未知欲知根	-10.4068
閉	-10.407
意界意識界	-10.4072
思慧	-10.4072
相似故	-10.4076
此間	-10.4078
四十	-10.4081
有能	-10.4082
眼等五根	-10.4086
非不善	-10.4089
退分	-10.409
三句	-10.409
見聞	-10.4095
為苦	-10.4096
時有	-10.4101
苦痛	-10.4101
廣說如前	-10.4109
耽	-10.4116
不觀	-10.4118
彼斷	-10.4122
不名為	-10.4123
論主破	-10.4123
一字	-10.4128
若異此者	-10.4128
得預流果	-10.4131
漂	-10.4134
或不	-10.4135
事者	-10.4135
評	-10.4136
有大	-10.4137
一業	-10.4138
昇	-10.4139
飢渴	-10.4139
所緣縛	-10.4143
觸入	-10.4148
是非學非無學	-10.4149
而作論	-10.4154
斷已	-10.4156
謂初	-10.4167
士夫	-10.4167
身語意	-10.417
或執為	-10.4173
前心	-10.4178
由二	-10.4179
界中	-10.4181
道者	-10.419
最上	-10.4191
色生	-10.4192
而立	-10.4194
四生	-10.4197
未離欲界貪	-10.42
諸弟子	-10.4202
如是類	-10.4205
造作增長	-10.4205
喜覺意	-10.421
一物	-10.4211
且如	-10.4213
第九品	-10.4213
以能	-10.4223
永盡	-10.4228
理趣	-10.423
第一明	-10.4252
烟	-10.4257
眾緣	-10.4257
無漏者	-10.4261
他化自在天	-10.4261
起緣	-10.4264
犢子部	-10.4264
是異熟	-10.4264
有過去	-10.4279
既有	-10.4283
善通	-10.4298
十六行	-10.4301
緣三世	-10.4304
為難	-10.4315
三十七	-10.4318
通慧	-10.4321
順退分	-10.4328
九結	-10.4328
行故	-10.4331
澁	-10.4332
希	-10.4333
所相	-10.4334
或有說	-10.4338
譯	-10.4339
婆娑	-10.4339
發生	-10.4341
別解脫戒	-10.4342
各三	-10.4353
便得	-10.4354
後得	-10.4365
悕望	-10.4365
是無學	-10.4367
適	-10.4369
本論說	-10.4371
所依止	-10.4374
非苦	-10.4378
入出	-10.4378
第二念	-10.4383
執為	-10.4384
罵	-10.4387
傷	-10.4389
或無處所	-10.4395
蘇	-10.4396
有六種	-10.4397
鼓	-10.4399
示導	-10.4401
香味觸	-10.4407
同一果	-10.4407
道果	-10.4408
此諸	-10.4408
有九	-10.4411
細滑	-10.4415
無別體	-10.4416
復次彼	-10.4417
過去耶	-10.4418
色界繫善心	-10.4418
報業	-10.4421
邪行	-10.4422
能捨	-10.4425
結斷	-10.4427
又正理云	-10.4428
若諸	-10.4429
報因	-10.443
身口	-10.4433
得遍知	-10.4436
生名	-10.4438
之人	-10.4438
應如	-10.4442
師釋	-10.4446
總名為	-10.4447
經文	-10.445
故說名	-10.4457
有根	-10.4463
所食	-10.4463
想等	-10.4466
惛	-10.4466
擇法覺支	-10.4468
諸論	-10.4473
隨觀	-10.4474
處故	-10.4475
恒時	-10.4477
自力	-10.4478
是假	-10.4487
離欲界欲	-10.449
根本業道	-10.4493
謂餘	-10.4495
現前故	-10.4498
異生聖者	-10.4498
在色界	-10.4517
故亦名	-10.4517
更生	-10.4517
功	-10.452
三三摩地	-10.4525
生欲色界	-10.4528
愚夫	-10.4531
如斯	-10.4532
星	-10.4533
中般	-10.4533
便失	-10.4533
能詮	-10.4535
善性	-10.4535
初二靜慮	-10.4539
現在修	-10.454
界者	-10.4548
淨居	-10.4548
中劫	-10.4552
他界緣	-10.4554
得阿羅漢	-10.4559
十一處	-10.456
上上品	-10.457
蘊處界	-10.4571
既說	-10.4572
在前	-10.4573
亦為	-10.4574
樂故	-10.4576
四明	-10.4577
由三	-10.4577
或因	-10.4582
即前	-10.4582
意故	-10.459
熾然	-10.4596
可立	-10.4597
毘奈耶	-10.4599
能燒	-10.46
三十四	-10.4606
濫	-10.4607
一界一處一蘊攝	-10.4608
安布	-10.461
師云	-10.4612
攝益	-10.4612
三分	-10.4615
*	-10.4617
唯得	-10.4623
無有是處	-10.4623
起欲界	-10.4625
耶答	-10.4626
我所見	-10.4632
十八界中	-10.4639
瞋恚結	-10.464
身形	-10.4641
等覺支	-10.4642
唯有一	-10.4643
苦等	-10.4644
障故	-10.4652
於上	-10.4652
邏	-10.4653
此因	-10.4658
顯彼	-10.4658
皆非	-10.466
等志	-10.4661
堅牢	-10.4662
婆沙云	-10.4662
哉	-10.4663
呪	-10.4665
無明緣行	-10.4666
麁惡語	-10.4666
云何名	-10.4666
而行	-10.4667
諸趣	-10.4668
彼所說	-10.4669
後心	-10.4671
色香味觸	-10.4675
有十八	-10.4676
得聖	-10.4678
見所斷法	-10.4681
諸欲	-10.469
果耶	-10.469
頓得	-10.4694
因何	-10.4696
三寶	-10.4699
無漏初靜慮	-10.4704
獨立	-10.4706
俱有法	-10.4712
是慧	-10.4713
譽	-10.4714
亦如	-10.4716
證滅	-10.4719
隨其	-10.4721
生喜	-10.4722
有體	-10.4728
扼	-10.4728
不相應故	-10.4731
八解脫道	-10.4731
若不成就	-10.4732
盧	-10.4733
一名	-10.4735
億	-10.4735
卵生	-10.4736
咸	-10.4739
諸位	-10.4744
示現	-10.4745
不能生	-10.4748
無記性	-10.4749
餘殘	-10.4754
現在耶	-10.4768
立為根	-10.4769
岸	-10.4773
是見	-10.4774
成就過去未來	-10.4775
知他	-10.4778
無色中	-10.478
問諸	-10.4795
異地	-10.4798
緣過去	-10.4798
詰	-10.48
女男	-10.48
頃	-10.4801
塗	-10.4802
諸善法	-10.4806
離間語	-10.4807
圓德	-10.481
何得	-10.4819
諸眾生	-10.4822
力能	-10.4822
五識相應	-10.4824
譬喻者	-10.4828
淨色	-10.4828
伹	-10.4829
轉成	-10.483
聞聲	-10.4834
違害	-10.4836
廣說如	-10.4848
者則	-10.4852
煗	-10.4856
所覺	-10.4858
定故	-10.4864
色愛	-10.487
得一	-10.487
出息入息	-10.487
慈悲	-10.4871
設爾何失	-10.4871
因名	-10.4876
那落迦	-10.4877
彼是	-10.4881
如何可說	-10.4887
無明漏	-10.4887
此約	-10.4893
亦應然	-10.4895
所覆	-10.4912
彼業	-10.4912
及欲界	-10.4915
世第一	-10.4915
猶未	-10.4919
無色界繫法	-10.492
一切隨眠	-10.4921
與識	-10.4923
或不繫	-10.4924
總結	-10.4929
不還者	-10.493
體相	-10.4932
母胎	-10.4933
下劣	-10.4938
策	-10.494
二三四	-10.4942
魚	-10.4942
心頃	-10.4942
故今	-10.4945
神境	-10.4947
堪忍	-10.4947
餘文可知	-10.495
財物	-10.4955
八支	-10.4958
所宗	-10.4958
有漏善	-10.4965
念覺意	-10.4966
資具	-10.4966
以慧	-10.497
當知已說	-10.4971
無量等	-10.4977
有礙	-10.4979
不必	-10.4981
勝妙	-10.4983
如先	-10.4984
謂先	-10.4985
三無為	-10.4991
趣向	-10.5
苦果	-10.5
雖同	-10.5
繫念	-10.5001
非現在	-10.5008
除上爾所事	-10.5008
合成	-10.5009
四事	-10.5014
前已	-10.5014
欲樂	-10.5015
羯	-10.5016
不聞	-10.5016
陰界入攝	-10.5019
何所攝	-10.5021
徒	-10.5021
已見	-10.5033
遮止	-10.5034
精	-10.5038
正斷	-10.5041
色界中有	-10.5043
如有一類	-10.5044
人間	-10.5045
要由	-10.5051
纏退時	-10.5052
心數法	-10.5054
有漏心	-10.5058
如是諸	-10.5065
滅作證	-10.507
問何	-10.5082
蜜	-10.5083
四處	-10.5083
諦理	-10.5085
釋迦	-10.5086
重擔	-10.5089
隨信隨法行	-10.509
未離色界貪	-10.5093
十八界十二入五陰	-10.5098
二結	-10.5099
欣樂	-10.5101
有所作	-10.5106
異說	-10.5107
從何	-10.5111
牽引	-10.5115
一極微	-10.5119
與樂	-10.5121
不能斷	-10.5121
欲界沒	-10.5122
不造	-10.5131
更相	-10.5134
如經說	-10.5135
通三性	-10.5137
無差別故	-10.5146
復云何	-10.515
佛出世	-10.5152
諸有漏法	-10.5155
現法樂	-10.5155
今當	-10.5155
某	-10.5156
臨	-10.5158
北洲	-10.5161
不害	-10.5167
是何耶	-10.5167
第一義	-10.5175
唯有漏	-10.5176
何別	-10.5177
現觀邊	-10.5178
十八界十二處五蘊攝	-10.518
預流者	-10.5181
無表業	-10.5184
謂欲界生長	-10.5185
何理	-10.5186
供	-10.5188
能繫	-10.5189
分別論者	-10.5191
於中有	-10.5194
如上說	-10.5204
第三明	-10.5205
恥	-10.5205
一蘊	-10.5206
道斷	-10.5211
欲界有	-10.5211
現量	-10.5212
中除	-10.5222
頌答	-10.5223
愁	-10.5224
尸	-10.5226
本相	-10.5227
野	-10.5227
忘失	-10.5231
耽著	-10.5232
乾	-10.5235
無瞋	-10.5235
吾	-10.5236
此亦非理	-10.5238
滅界	-10.5239
適意	-10.5243
呼	-10.5243
能除	-10.5247
得是時修	-10.5258
知他心智	-10.5259
分齊	-10.5261
寂滅	-10.5269
知彼	-10.5275
第三定	-10.5276
餘心	-10.5277
別解	-10.5278
佛所	-10.5281
此與	-10.5281
等中	-10.5283
外處	-10.5291
思惟斷因	-10.5292
貪著	-10.5292
相依	-10.5293
住果	-10.5297
闍	-10.5299
何為	-10.53
非梵行	-10.53
不繫法	-10.5301
多名身	-10.5304
破戒	-10.5306
智果	-10.5307
半月	-10.5309
得勝	-10.531
因見苦斷	-10.531
頌文	-10.5317
高舉	-10.5319
未說	-10.5322
漸增	-10.5324
未有	-10.5324
空行	-10.5326
得律儀	-10.5327
多時	-10.533
曾無	-10.5331
一智	-10.5332
及無漏	-10.5332
尚不	-10.5336
是無為	-10.5338
不壞淨	-10.5339
共業	-10.5342
不覺	-10.5346
云何無學	-10.5356
聲處	-10.5359
翻此	-10.536
聞法	-10.5364
落	-10.5366
女身	-10.5367
現在法	-10.5372
見道位	-10.5373
然無	-10.5376
不現前	-10.5376
虫	-10.5378
及彼相應	-10.5379
諸智	-10.5381
地大	-10.5386
識依	-10.5389
廣果	-10.5389
若欲	-10.5392
彼相應法	-10.5392
三法	-10.5393
各一	-10.5395
且初	-10.5397
唯無漏	-10.5399
今欲	-10.54
心相續	-10.54
勞	-10.5402
善業道	-10.5405
於未來	-10.5406
所聞	-10.5409
於世	-10.5413
習諦	-10.5413
勝德	-10.5413
七覺支	-10.5414
得不律儀	-10.5418
往來	-10.5421
居士	-10.5427
識所識	-10.5431
前七	-10.5434
有對觸	-10.5438
己身	-10.5442
析	-10.5446
除前	-10.5446
毘鉢舍那	-10.5448
熾盛	-10.5449
太	-10.545
有未來	-10.5452
阿世耶	-10.5456
籌	-10.5457
及修所斷隨眠隨增	-10.546
此即問也	-10.5464
謂契經說	-10.5465
已離欲界貪	-10.5466
住律儀	-10.5468
不獲	-10.5469
正命	-10.5482
左	-10.5484
十七界	-10.5488
有差別者	-10.5488
第二釋	-10.5488
三和	-10.5492
修所斷結	-10.5492
以上	-10.5495
於欲	-10.5504
自業	-10.5512
無癡善根	-10.5513
優婆塞	-10.5514
行捨	-10.5518
浮	-10.552
欲界繫有覆無記心	-10.5522
何地	-10.5525
可解	-10.5526
投	-10.5529
餘部	-10.5536
見滅	-10.5538
述曰	-10.5543
亦從	-10.5549
住非律儀非不律儀	-10.555
詮	-10.5551
便於	-10.5551
有貪	-10.5557
表無表	-10.5557
相續轉	-10.5559
心品	-10.5565
四方	-10.5566
樂根相應	-10.5567
苦因	-10.557
是實	-10.5575
生愛	-10.5576
境界故	-10.5582
何等名為	-10.5586
身觸	-10.5587
越界	-10.5588
由此因緣	-10.5589
親近多修學	-10.5594
帝釋	-10.5596
狗	-10.5599
諸定	-10.56
遺	-10.5601
藉	-10.5601
三有	-10.5602
業報	-10.5603
敘異說	-10.5605
停	-10.5606
經部師	-10.5609
實事	-10.5612
所逼	-10.5613
非諸	-10.5613
別義	-10.5616
法類智	-10.5619
盛陰	-10.5624
不求	-10.5624
一切遍使使	-10.5628
多種	-10.5629
應思	-10.563
非所緣	-10.5631
已捨	-10.5633
四者	-10.5634
復以	-10.5635
相屬	-10.5636
憂苦	-10.564
但以	-10.5642
二門	-10.5646
彼時	-10.5651
正性	-10.5653
定力	-10.5661
住不律儀	-10.5663
我語取	-10.5665
胎生	-10.5666
敷	-10.5671
應更	-10.5673
等方便	-10.5674
厭背	-10.5678
蟲	-10.568
於三界	-10.5681
今得	-10.5685
已滅不失	-10.5688
作如是念	-10.5689
此依	-10.5689
五事	-10.569
緣識及緣緣識	-10.5691
比量	-10.5699
為大	-10.5701
佛所說	-10.5703
六通	-10.5706
善者	-10.5707
是一	-10.571
必依	-10.5711
是真	-10.5716
成就過去空	-10.5717
六品	-10.5718
為增上	-10.5721
彼天	-10.5723
獨名	-10.5727
唯佛	-10.5732
皆成就	-10.5734
外物	-10.5738
四念處	-10.5742
有種種	-10.5744
還得	-10.5749
濕生	-10.5751
教誡	-10.5756
長短	-10.5766
隨意	-10.5774
身量	-10.5775
非修	-10.5778
所緣者	-10.5781
三善根	-10.5783
巧	-10.5784
與心相應	-10.5788
釋頌本	-10.5788
品類足論	-10.5793
其量	-10.5795
者正理云	-10.5796
盡壽	-10.5797
無倒	-10.5799
欲界繫法	-10.5801
謂心	-10.5801
修道中	-10.5807
惡見	-10.5808
貌	-10.5809
犯重	-10.5813
可得故	-10.5814
為根	-10.5818
能行	-10.5823
自宗	-10.5827
法蘊	-10.5836
大種造	-10.5837
機	-10.5837
能伏	-10.5841
能成	-10.5841
人所	-10.5843
若當	-10.5843
思法	-10.5844
非蘊攝	-10.5847
滅聖諦	-10.5848
增上緣故	-10.585
何故作此論	-10.586
尋思	-10.5862
皆由	-10.5868
欲界結	-10.5868
能斷善根	-10.5869
世俗正見	-10.5873
彼盡	-10.5874
境中	-10.5879
世尊為	-10.5881
先已	-10.5882
二字	-10.5882
差	-10.589
重說	-10.5892
唯受	-10.5893
彌	-10.5902
彼因	-10.5902
腹	-10.5904
為斷	-10.5904
能入	-10.5905
汝今	-10.5905
筏	-10.5906
處少分	-10.5906
莖	-10.5907
唯欲界	-10.5908
所滅	-10.5909
得戒	-10.5911
見斷因	-10.5924
先有	-10.5927
答依	-10.5928
九十八隨眠	-10.5931
過故	-10.5935
欲界見苦所斷	-10.5935
不現行	-10.5936
退故	-10.5936
身異	-10.5938
即緣	-10.5939
墮惡趣	-10.594
幾緣緣	-10.5946
有想無想	-10.5949
智現在前	-10.5954
亦依	-10.5954
欲界法	-10.5954
而不能	-10.5956
何故但說	-10.5956
受果	-10.5956
黠	-10.5958
因等起	-10.5958
命終時	-10.5963
八十八	-10.5967
能顯	-10.5973
深生	-10.5976
網	-10.5978
心意識	-10.5978
文中	-10.5982
十五心	-10.5982
世人	-10.5984
餘經	-10.5987
險	-10.5987
學無學非學非無學	-10.599
所使	-10.5994
定不成就	-10.6
若未得	-10.6001
任持	-10.6001
力強	-10.6005
已顯	-10.6006
不亂	-10.6009
大善地法	-10.6015
苦苦	-10.6016
三惡行	-10.6023
謂無記	-10.6024
鼻舌	-10.6025
差別相	-10.6026
若法非	-10.6027
謂諸有情	-10.6032
謂能	-10.6034
異門	-10.6037
有多種	-10.6049
即說	-10.605
無色有	-10.6054
未已生	-10.6057
皆同	-10.6062
不能起	-10.6063
消	-10.6064
奢摩他	-10.6064
為能作因	-10.6069
煩惱障	-10.6077
有漏者	-10.6082
四食	-10.6084
不須	-10.6086
不越	-10.6095
禁	-10.6097
能盡	-10.6105
意惡行	-10.6105
所緣已斷	-10.6105
遮罪	-10.6112
三見	-10.6114
苦忍	-10.6119
唯善	-10.612
聖言	-10.6125
欲界繫無覆無記心	-10.6127
於義	-10.6128
二千	-10.6137
油	-10.6146
折	-10.6147
申	-10.6148
拏	-10.6148
如文可知	-10.6149
無染	-10.6156
有十二	-10.6157
退墮	-10.6161
別異	-10.6166
厭捨	-10.6171
一百	-10.6172
復云何通	-10.6175
所成就	-10.6175
下分	-10.6179
正語	-10.6183
此上	-10.6184
盡作證	-10.6184
名等	-10.6186
所害	-10.6188
如實知見	-10.6188
二通	-10.6189
無根	-10.6192
有情類	-10.6195
無覆無記色	-10.6199
大小	-10.6199
謂意	-10.6202
事中	-10.6204
成一	-10.6205
八勝處	-10.6206
三災	-10.6208
得得	-10.6217
三妙行	-10.6218
佛法僧	-10.6224
旋	-10.6229
修練根	-10.6232
應爾	-10.6233
則說	-10.6233
此亦不然	-10.6237
有實	-10.6239
青色	-10.6241
我是	-10.6244
州	-10.6247
增進	-10.625
第九解脫道	-10.625
故論云	-10.6264
設許	-10.6264
有何義	-10.6264
此善根	-10.6273
無有愛	-10.6274
非想非非想	-10.6281
異者	-10.6281
有分	-10.6291
議	-10.6298
諸苾芻	-10.6301
轉輪聖王	-10.6301
悶	-10.6301
明利	-10.6303
總而言之	-10.6304
身語二業	-10.6305
體類	-10.6305
涉	-10.6306
他界	-10.6307
御	-10.6308
大德說曰	-10.6309
思所成	-10.6311
鄔波索迦	-10.6312
見滅道所斷	-10.6314
聖慧	-10.6314
成熟	-10.6315
得色界善心	-10.6319
積聚	-10.632
一根	-10.6326
非識識	-10.6326
捨成就得不成就	-10.6326
人壽	-10.6328
因緣故	-10.6328
蔽	-10.6329
眼等根	-10.633
果實	-10.6331
出觀	-10.6332
內心	-10.6332
處非處	-10.6332
經義	-10.6334
第二師	-10.6338
煩惱斷	-10.6339
十一種	-10.6346
及遍行隨眠隨增	-10.6347
前因	-10.6348
互為果	-10.6351
經云	-10.6363
諸世間	-10.6365
一面	-10.6365
白佛言	-10.6379
七處善	-10.638
見盡斷	-10.638
何差別	-10.6381
步	-10.6381
如本	-10.6383
相攝	-10.6383
蛇	-10.6383
所以今當說	-10.6387
諸使	-10.6387
有想	-10.6388
歸趣	-10.6388
無間滅	-10.639
無漏得	-10.6392
不自	-10.6394
增語觸	-10.6396
於爾時	-10.6425
無願三昧	-10.6432
正解脫	-10.6433
最為	-10.6444
便為	-10.6445
大王	-10.6449
此緣	-10.6452
呵責	-10.6454
賤	-10.6454
亦捨	-10.6457
有二十	-10.6457
無漏智現在前	-10.6458
戰	-10.6458
乃至廣作四句	-10.646
舌根	-10.6462
射	-10.6462
為得	-10.6463
噉	-10.6466
顧	-10.6466
此中所說	-10.6472
極遠	-10.6474
壁	-10.6475
根本靜慮	-10.6483
學見迹若阿羅漢	-10.6484
應生	-10.6489
第二定	-10.6489
大煩惱地法	-10.6493
佛不	-10.6496
不應作是說	-10.6498
捨根相應	-10.6507
斷彼	-10.6507
所施	-10.6509
隣	-10.651
即成	-10.6511
如理應思	-10.6514
方有	-10.6517
無果	-10.6517
衣等	-10.6518
支節	-10.6519
四識住	-10.6522
緣境	-10.6525
一間	-10.6525
文句	-10.6533
移	-10.6536
斫	-10.6537
先得	-10.6537
若行	-10.6538
阿毘曇毘婆沙論	-10.6539
如是比丘	-10.6539
男身	-10.654
是學	-10.6542
現身	-10.6542
羯剌藍	-10.6543
一增上	-10.6545
床	-10.6546
當知此義有餘	-10.6549
乃至有頂	-10.6549
爛	-10.6552
丈夫	-10.6554
中夭	-10.6555
隨應現修	-10.6556
鼻根	-10.6559
陀羅	-10.656
無實	-10.656
或復有執	-10.656
起已	-10.6566
所依大種	-10.6573
諸根大種	-10.658
五法	-10.658
如前應知	-10.6581
無明觸	-10.6581
近對治	-10.6582
二萬	-10.6585
九十八	-10.6591
為何等	-10.6593
業所引	-10.6595
九十	-10.6598
或可	-10.6599
未來耶	-10.6605
分為	-10.6606
四定	-10.6613
異學	-10.6618
兩句	-10.6619
知法	-10.6621
下界	-10.6624
初果	-10.6626
擔	-10.6629
坑	-10.6629
朋	-10.6633
不自在	-10.6633
甘	-10.6633
離貪	-10.6633
學見迹阿羅漢	-10.6634
厚	-10.6636
尊者眾賢造三藏法師玄奘奉詔譯	-10.6636
見已	-10.6637
施設論說	-10.6639
損益	-10.664
覩	-10.664
善品	-10.6641
信勝解練根作見至	-10.6643
非愛果	-10.6645
聞已	-10.6648
斷壞	-10.6653
樂等	-10.6664
盡無生	-10.6667
欲界善心	-10.6668
所詮	-10.6675
有事	-10.6677
彼不應作是說	-10.669
貪欲瞋恚	-10.6694
不至	-10.6695
生老死	-10.6703
已正當	-10.6706
苑	-10.6707
心如實知	-10.6708
提婆達多	-10.6711
心便	-10.6711
舍利弗	-10.6712
不久	-10.6713
荷	-10.6714
相攝者	-10.6715
兒	-10.6715
聞所成	-10.6719
謂色界	-10.672
滅道智	-10.6724
無定	-10.6724
欲界中有	-10.6735
有漏行	-10.6736
有邊	-10.6738
無垢人	-10.6739
後世	-10.6741
破云	-10.6744
初二解脫	-10.6744
青等	-10.6745
未來八	-10.6747
展轉為因	-10.6755
最勝故	-10.6757
諸根因	-10.6758
非智知	-10.676
斷欲	-10.6762
由先	-10.6764
一切有漏	-10.6767
無間罪	-10.6767
所感	-10.677
苦集智	-10.6771
豈非	-10.6775
若成就過去法智	-10.6776
思等	-10.6779
除去	-10.6781
五心	-10.6781
察	-10.6783
亦不能	-10.6786
前八	-10.6787
准知	-10.6794
嗅	-10.6796
同類遍行	-10.6796
因苦法智斷	-10.6797
是義不然	-10.6798
不忍	-10.6799
房	-10.6804
嘗	-10.6806
當辯	-10.6806
是勝義	-10.6807
釋初句	-10.6808
寺	-10.681
不正	-10.6818
已去	-10.6821
在彼	-10.6823
有隨眠心	-10.6823
二受	-10.6828
如何說	-10.6828
苦惱	-10.6829
彼岸	-10.6835
沒生	-10.6837
齊此	-10.6838
天處	-10.684
空中	-10.6851
眾具	-10.6855
解脫得	-10.6861
多法	-10.6862
意識法	-10.6863
不隨增	-10.6865
想蘊	-10.6871
難云	-10.6874
負	-10.6875
驚	-10.6883
行道	-10.6884
柔軟	-10.6885
制伏	-10.6891
云何知然	-10.6891
設有而失	-10.6892
空無我	-10.6894
無處所	-10.6901
最後解脫道	-10.6901
住分	-10.6903
蘊中	-10.6904
性相	-10.6905
斷欲界	-10.6906
無始來	-10.6909
樂住	-10.691
增語	-10.6915
前位	-10.6916
於其中	-10.6917
由業	-10.6919
心轉	-10.692
緣無漏	-10.6922
四聖種	-10.6928
入聖	-10.6929
非色法	-10.6933
利根者	-10.6941
諸識	-10.6941
何法名	-10.695
生緣	-10.696
無色界繫有覆無記心	-10.696
此八	-10.6961
百二十	-10.6961
謂諸異生	-10.6962
不善業道	-10.6964
三摩提	-10.6965
二說	-10.6966
屈	-10.6975
繁	-10.6977
不令	-10.6978
餘趣	-10.6979
五行	-10.6981
受念住	-10.6988
三由	-10.6989
無貪善根	-10.699
餘八	-10.6992
句身	-10.6995
十業道	-10.6995
為境界	-10.6995
餘位	-10.6997
正起	-10.6998
亦知	-10.6999
是實有	-10.6999
是則應	-10.7
報生	-10.7008
彼界	-10.701
二句	-10.7011
恒有	-10.7014
隨欲	-10.7017
頓斷	-10.7019
論主答	-10.7019
諸大種	-10.7019
遠故	-10.7024
本無	-10.7024
遊戲	-10.7025
得非得	-10.7036
為對治	-10.7036
佛言	-10.7039
四地	-10.7041
誤	-10.7041
循	-10.7046
復起	-10.7047
若觀	-10.7048
想心	-10.705
船	-10.7061
無願三摩地	-10.7061
其餘	-10.7063
無間起	-10.7065
准此論文	-10.7067
體也	-10.7067
其體未斷	-10.7067
於心	-10.7068
愛取	-10.7068
五下分結	-10.7068
應當知	-10.7072
此境	-10.7075
上中下	-10.708
不可言	-10.708
欲取	-10.7084
若餘法	-10.7092
依第四靜慮	-10.7093
諸瑜伽師	-10.7093
於識	-10.7096
無疑	-10.7097
復次若法	-10.7099
餘智	-10.7101
十二心	-10.7101
等流性	-10.7101
不忘	-10.7105
眼耳鼻舌身	-10.7107
七句	-10.7109
在過去	-10.7112
此經中	-10.7119
顯宗	-10.712
所欲	-10.7122
道類智時	-10.7123
十法	-10.7124
無事	-10.7126
中般涅槃	-10.713
修行者	-10.7133
剎那滅	-10.714
若色	-10.7141
不障	-10.7143
有法非	-10.7144
無體	-10.7145
佉	-10.7146
若入	-10.7147
瀑流軛	-10.7148
尊者阿難	-10.7153
於餘處	-10.7155
世間第一法	-10.7156
述曰此下	-10.7156
索	-10.7156
手足	-10.7157
實我	-10.7159
是故世尊	-10.7165
正生	-10.7167
起貪	-10.7177
上生	-10.7179
既爾	-10.7187
實無	-10.719
體雖	-10.7191
未來三	-10.7192
不死	-10.7195
一諦	-10.7196
得遍知時	-10.7199
起下	-10.72
已離欲	-10.7203
難言	-10.7206
敗	-10.7209
苦諦所斷	-10.7216
已後	-10.7227
緒	-10.7229
所作已辦	-10.7229
知苦	-10.723
閑	-10.7232
但於	-10.7232
含	-10.7238
尊者世友作如是說	-10.7238
前念	-10.7239
聖語	-10.724
遍緣	-10.724
七心界	-10.7241
如眼	-10.7242
後果	-10.7242
勇	-10.7243
同異	-10.7244
離第三靜慮染	-10.7244
次第者	-10.7245
皆成	-10.7251
顯現	-10.7251
樂想	-10.7253
辭	-10.7253
想異	-10.7254
斷知	-10.7263
或名	-10.7266
夢中	-10.7267
福業事	-10.7271
忍位	-10.7273
下下品	-10.7274
永滅	-10.7276
通五部	-10.7276
緣有漏	-10.7278
餘界	-10.7286
有漏慧	-10.7297
又言	-10.7297
壞時	-10.731
瘡	-10.7316
力所引	-10.7318
心狂	-10.7318
不受後有	-10.7319
接	-10.7321
解釋	-10.7325
敵	-10.7325
臭	-10.7325
檀	-10.7326
此二法	-10.7327
序	-10.7327
訖	-10.7329
惡法	-10.7334
無漏識	-10.7334
說能為緣	-10.7336
俱無	-10.7338
鄙	-10.7339
大文第	-10.7339
便成	-10.7339
如其	-10.7341
執取	-10.7343
天眾	-10.7343
通有漏無漏	-10.7343
智證通	-10.7352
邊際定	-10.7357
二眼	-10.7358
下文	-10.7359
染汙	-10.7366
新云	-10.7367
勿有	-10.7369
非無記	-10.7376
利他	-10.7377
離欲界	-10.7377
世尊所說	-10.7386
六境	-10.7387
上分結	-10.739
於是處	-10.7395
於道	-10.7396
住相	-10.7398
不立為	-10.7398
意欲	-10.7401
造惡	-10.7408
放	-10.7412
仁	-10.7413
算	-10.7413
歌	-10.7415
諸得俱起	-10.7416
復從	-10.7425
多故	-10.7428
近事律儀	-10.7431
所除	-10.7439
彼心與	-10.744
順下分結	-10.7442
根境	-10.7445
言詞	-10.7446
鈍根者	-10.7449
當斷	-10.7452
國王	-10.7452
一剎那頃	-10.7454
隨界	-10.7459
死生智	-10.7468
無知他人心智	-10.7468
恐怖	-10.747
一相續	-10.7475
得六	-10.7475
於有情	-10.7478
經部宗	-10.748
能斷煩惱	-10.7487
無心位	-10.7489
宿命	-10.7491
所染	-10.7491
識所緣	-10.7493
一一皆	-10.7494
竊	-10.7501
乃至未	-10.7502
四神足	-10.7502
生上地	-10.7503
衰損	-10.7504
得滅定	-10.7505
五者	-10.7506
離欲惡不善法	-10.7509
不動心解脫	-10.7517
有常	-10.7517
展轉相望	-10.752
異此	-10.7529
多人	-10.7537
畢竟無	-10.7543
能正	-10.7543
他部	-10.7549
多生	-10.7551
復有何	-10.7556
順現法受	-10.7561
見滅所斷有漏緣	-10.7564
釋第二句	-10.7565
亦許	-10.7568
處界	-10.7575
婬欲	-10.7576
淨居天	-10.7577
有貪心	-10.7577
道比智	-10.7579
非所緣故隨增非相應故	-10.7579
便捨	-10.7582
方生	-10.7584
方便道	-10.7585
第二句者	-10.7587
行滅	-10.7587
或生	-10.7589
諸心所法	-10.759
十二種	-10.7593
不可轉	-10.7593
繩	-10.7594
非顛倒	-10.7595
亡	-10.7598
吐	-10.7601
迦葉	-10.7602
出定心	-10.7603
色聲香味觸	-10.7608
有功能	-10.761
長夜	-10.7614
訛也	-10.7618
無想三昧	-10.7629
教化	-10.763
樂欲	-10.763
離欲貪	-10.7635
遮遣	-10.7636
身惡行	-10.764
所求	-10.7642
成就過去法智	-10.7646
滅作證時	-10.7652
一色	-10.7657
所作事	-10.7667
愛恚	-10.7668
見諦所斷	-10.7672
羸	-10.7673
不墮惡趣	-10.7674
我生已盡	-10.7674
有記	-10.7676
一切結	-10.7682
自相共相	-10.7683
戒禁	-10.7685
引眾同分	-10.7689
出世間	-10.7689
降伏	-10.769
災患	-10.7692
身口意	-10.7692
均	-10.7692
彼滅已不失	-10.7693
酢	-10.7694
三根相應	-10.7696
諸靜慮	-10.77
屍	-10.7701
要期	-10.7703
假有	-10.7705
永離	-10.7708
無色法	-10.771
富貴	-10.7711
答若已滅不失則成就	-10.7711
風輪	-10.7718
故婆沙云	-10.7719
計度	-10.772
所趣	-10.7721
相觸	-10.7722
作是語	-10.7726
第二剎那	-10.7732
生老病死	-10.7732
答應作是說	-10.7733
三三昧	-10.7735
趣涅槃	-10.7739
云何無記	-10.7743
皆依	-10.7743
大梵王	-10.7744
謂法智	-10.7746
如是如是	-10.7746
具四	-10.7753
應當	-10.7753
天子	-10.7757
思業	-10.7763
復次欲界	-10.7767
喜根相應	-10.7769
義無礙解	-10.7776
又應	-10.7778
內無色想	-10.7778
一晝夜	-10.7778
慼	-10.778
無病	-10.7784
解了	-10.7784
其性	-10.7787
團	-10.7787
唱	-10.7787
色界繫法	-10.7788
作惡	-10.7789
此之	-10.7791
作是思惟	-10.7798
意思惟相應	-10.7798
從欲界	-10.7803
何以故說	-10.7805
發戒	-10.7806
此執	-10.7806
發業	-10.7806
善戒	-10.781
則不應言	-10.7811
不應作	-10.7811
於何處	-10.7811
一頌	-10.7812
天神	-10.7814
非見斷非思惟斷因	-10.7816
昧劣	-10.7817
虗空	-10.7818
念慧	-10.7818
疑惑	-10.782
可樂	-10.7823
五明	-10.7823
諸加行道	-10.7826
有是處	-10.7827
少入	-10.7836
正觀	-10.7836
誰不成就	-10.7845
無明隨眠	-10.7854
有言	-10.7856
第四句者	-10.7862
此不應理	-10.7864
盡漏	-10.7867
狹小	-10.7869
未至中間	-10.787
作緣	-10.7871
見智慧	-10.7873
十力	-10.7874
已復	-10.7877
寂默	-10.7879
反詰	-10.7879
住故	-10.788
卷第五	-10.788
謂己	-10.7881
吠	-10.7883
善處	-10.7884
相別	-10.7884
三無數劫	-10.7884
不願	-10.7885
如大	-10.7885
貪欲蓋	-10.7886
見非見處	-10.7887
或欲界繫	-10.7889
相離	-10.7891
不能修	-10.7893
下兩句	-10.7896
正見相應	-10.7897
以故爾	-10.7897
所觀	-10.7898
逆罪	-10.7899
成時	-10.7904
順下分	-10.791
自稱	-10.791
鬼趣	-10.7921
答應言	-10.7923
八道支	-10.7925
文義	-10.7927
所識	-10.7931
空非我	-10.7931
殺害	-10.7933
不定業	-10.7937
增上者如前說	-10.7939
見所斷惑	-10.7942
發聲	-10.7951
無罪	-10.7952
相似法	-10.7957
燋	-10.7959
不違理	-10.7962
順受	-10.797
易了	-10.7974
默然	-10.7976
無色貪	-10.7976
名身等	-10.7977
方可	-10.7977
一切遍因	-10.7978
旨	-10.798
亦容	-10.7982
三漏	-10.7983
八支聖道	-10.7987
相應不相應	-10.7988
出離依	-10.7988
無間等	-10.7988
七有	-10.7998
二支	-10.7998
器世間	-10.7998
二品	-10.7998
隨眠相應識	-10.8003
解脫心	-10.8006
有餘師說至	-10.8011
於後時	-10.802
數法	-10.8028
未至地	-10.8028
是謂非	-10.803
不遮	-10.8034
隨身	-10.8037
既是	-10.8039
靜慮律儀	-10.8042
如水	-10.8044
有一類	-10.8047
能觀	-10.8048
此何所	-10.8049
為初	-10.8057
不解	-10.8061
不平等	-10.8064
訓	-10.8064
奢	-10.8065
截	-10.8068
九處	-10.8068
所明	-10.807
反難	-10.8071
彼所緣	-10.8073
齒	-10.8073
或應說	-10.8075
怨家	-10.8075
近遠	-10.8076
邪婬	-10.8081
無漏行	-10.8086
於其	-10.8086
盡諦	-10.8089
滅盡三昧	-10.809
通三世	-10.8091
八界	-10.8094
貪瞋慢	-10.8095
眼觸所生受	-10.8096
但可	-10.8098
心一境性	-10.8101
復有二種	-10.8107
遍淨天	-10.8113
貪嗔	-10.8118
如今	-10.8118
緣三種	-10.8119
總標	-10.8123
善慧	-10.8133
見苦集	-10.8134
瑜伽師	-10.8137
以無漏道	-10.8149
識生	-10.8153
非真	-10.8155
可轉	-10.8156
有德	-10.8156
惡業道	-10.8161
犍度	-10.8161
四境	-10.8162
難得	-10.8162
唐捐	-10.8168
有身見邊執見	-10.817
迦濕彌羅國	-10.817
三歸	-10.8173
稍	-10.8175
伊	-10.8175
怛	-10.8177
未斷未遍知	-10.818
得須陀洹果	-10.8182
苦未知智斷	-10.8186
不息	-10.8187
退住	-10.8189
作方便	-10.819
無二結繫	-10.8192
則不爾	-10.8197
道未知智	-10.8197
緣闕	-10.8202
如理作意	-10.8203
生般	-10.8205
遍行隨眠相應識	-10.8207
彼於此	-10.8209
第三句者	-10.8211
十處	-10.8211
且據	-10.8212
不寂靜	-10.8214
共有法	-10.8217
百五十	-10.8217
定不定	-10.8218
退果	-10.8218
無用故	-10.8223
名有隨眠	-10.8224
不增	-10.8225
此契經	-10.8229
入定心	-10.8231
自果	-10.8233
此所說	-10.8246
道諦所斷	-10.8246
十歲	-10.8257
俱胝	-10.8258
摽	-10.826
出體	-10.826
期	-10.8264
剎	-10.8264
生老住無常	-10.8265
乞	-10.8266
矯	-10.8269
離非想非非想處染	-10.827
故無有失	-10.8272
或取	-10.828
隙	-10.8284
愛敬	-10.8287
則不成就	-10.8288
其事云何	-10.8289
不過	-10.8298
造論	-10.8299
先觀	-10.8302
有染	-10.8303
色受想行識	-10.8303
無我行	-10.831
文身	-10.8313
共生因	-10.8313
問佛	-10.8314
總集	-10.8317
假想	-10.8323
有爾所	-10.8324
然此不	-10.8327
已熟	-10.8336
慧力	-10.8336
非有情數	-10.8336
緣下	-10.8343
徹	-10.8354
必生	-10.8356
亦無有失	-10.8365
充	-10.8367
苦滅	-10.8369
仰	-10.8369
墜	-10.837
欲尋	-10.8371
阿毘達磨藏	-10.8376
勇猛	-10.8384
一是	-10.8385
不清淨	-10.8391
未熟	-10.8392
十六心	-10.8392
故說名為	-10.8393
何相	-10.8393
思量	-10.8399
緣見苦斷	-10.8402
前師	-10.8402
見滅所斷邪見	-10.8404
即應	-10.8408
邪語	-10.8412
種族	-10.8414
習盡道	-10.8414
觀諦	-10.8414
唯不善	-10.8415
空無相	-10.8421
合說	-10.8422
無色界中	-10.8429
三界見所斷	-10.8433
以何為	-10.8435
希有	-10.8436
非見斷非思惟斷	-10.8444
巳上	-10.8445
顯形	-10.8446
外人	-10.8449
呵	-10.8451
得滅盡定	-10.8455
此頌	-10.8458
聲說	-10.8461
不善色	-10.8464
降	-10.8467
比丘思惟法生	-10.8468
快樂	-10.8473
多剎那	-10.8474
薩迦耶見	-10.8476
理教	-10.8478
堪達	-10.848
勝利	-10.8481
各自	-10.8483
相續緣	-10.8484
第三解脫	-10.849
無間緣	-10.8492
見處	-10.8496
淨定	-10.8497
同地	-10.8506
已斷故	-10.8514
違理	-10.8514
高下	-10.8516
眾中	-10.8516
不隱沒無記色	-10.8517
定業	-10.8518
習修	-10.8521
同處	-10.8521
欲知	-10.8525
增損	-10.8525
身念處	-10.8527
欲愛未盡	-10.8529
乃至第四靜慮	-10.8531
化事	-10.8539
念力	-10.8548
堂	-10.8558
俱生品	-10.856
所得法	-10.8561
創	-10.8564
奇	-10.8565
不正知	-10.8567
滅道法智	-10.857
元	-10.8573
波羅蜜多	-10.8579
不墮	-10.8586
捨離	-10.8587
福德	-10.8588
無漏定	-10.86
水界	-10.8602
在三界	-10.8603
境界有對	-10.8604
不同分	-10.8605
於四聖諦	-10.8606
樂淨	-10.8608
自作	-10.861
爾時世尊	-10.8612
還滅	-10.8618
無學慧	-10.8624
可成	-10.8625
一世	-10.8629
欲境	-10.8632
三惡趣	-10.8635
無漏他心智	-10.8639
又正理	-10.864
樂痛	-10.8643
時解脫阿羅漢	-10.8647
此二種	-10.8648
流至	-10.8652
總明	-10.8653
了達	-10.8653
金輪	-10.8654
銅	-10.8663
天眼耳	-10.8664
四無色定	-10.8665
宮殿	-10.8668
等物	-10.8669
空無願	-10.8671
眾妙聲	-10.8671
懸	-10.8673
伎	-10.8674
蔭	-10.8674
忽	-10.8674
嗢	-10.8675
色無為心不相應行	-10.8679
畜	-10.868
如前已說	-10.8682
推求	-10.8682
本質	-10.8685
對法藏	-10.8686
毘婆沙師說	-10.8687
違經	-10.869
何故世尊	-10.8695
一支	-10.8697
若有因	-10.8697
無量無邊	-10.8698
五結	-10.8701
無他心智	-10.8702
餘蘊	-10.8707
在現在	-10.8708
亂心	-10.8713
背捨	-10.8716
所說當云何通	-10.8716
緣四諦	-10.8724
漏盡通	-10.8726
加行位	-10.873
識食	-10.8741
不一切遍	-10.8746
受三歸	-10.8746
佛契經說	-10.8748
諸聖	-10.8749
勝解作意	-10.876
化身	-10.8763
依無色定	-10.8766
已解脫	-10.8772
此亦應爾	-10.8772
此難不然	-10.8773
逮	-10.8774
栽	-10.8774
天人	-10.8774
乞食	-10.8775
苦類智已生	-10.8775
彈	-10.8776
陸	-10.8778
可然	-10.8779
急	-10.8779
故不別說	-10.878
謂於此事	-10.8785
暗	-10.8787
不明了	-10.8789
五順下分結	-10.8795
淨初靜慮	-10.8795
略有二種	-10.8799
方起	-10.8806
言為顯	-10.8814
毗	-10.8825
攝一切法	-10.8828
宣	-10.883
勝定	-10.883
無相三昧	-10.8833
而現在前	-10.8834
無喜樂	-10.8836
此中依	-10.8845
取陰	-10.8849
復有餘	-10.8855
之處	-10.8858
毘婆闍婆提	-10.8863
通二種	-10.8864
日夜	-10.8864
法智比智	-10.8865
梵行已立	-10.8866
卷第一	-10.8866
五果	-10.8866
於此義中	-10.8867
十界	-10.8869
浴	-10.887
肘	-10.8873
慶喜	-10.8874
健	-10.8876
應思擇	-10.8878
若比丘	-10.8878
神變	-10.8878
未得世俗智現在前	-10.8878
鹽	-10.8878
如何可言	-10.8882
堪任	-10.8883
本無今有	-10.8886
六欲天	-10.889
師子	-10.8895
其身	-10.8899
緣無色界繫	-10.8899
自在天	-10.8903
善思	-10.8903
鬪	-10.8907
體即是	-10.8908
誰能	-10.891
不能知	-10.891
經部答	-10.8911
一切世間	-10.8914
修多羅	-10.8914
煩惱垢	-10.8916
易可	-10.892
如上所說	-10.8923
及無為	-10.8927
汝宗	-10.8928
三靜慮	-10.8929
壞苦	-10.8929
廣說亦爾	-10.8939
大造	-10.894
異熟生心	-10.894
令我	-10.8941
次後	-10.8947
相差別	-10.895
生欲界梵世	-10.8954
離初靜慮染	-10.8957
過去造色	-10.8959
之義	-10.8963
下一頌	-10.8965
稻	-10.897
堅信堅法	-10.8974
侵	-10.8976
身中有	-10.8977
履	-10.8979
惱亂	-10.8981
㮈落迦	-10.8981
侍	-10.8981
豆	-10.8982
瞿	-10.8983
理成	-10.8984
共生	-10.8984
毘柰耶	-10.8985
夏	-10.8985
釋第四句	-10.899
矣	-10.8991
毛孔	-10.8999
剎那等起	-10.9004
三念住	-10.9007
一眼	-10.901
既許	-10.9012
象馬	-10.9012
先後	-10.9013
超入	-10.9014
護法	-10.9016
餘方	-10.9019
業障	-10.9024
能續	-10.9025
復問	-10.9027
今欲說	-10.903
有幾種	-10.9033
僧破	-10.9034
取果與果	-10.9038
廣說四句	-10.9043
慧為體	-10.9048
先已說	-10.906
從此第三	-10.9061
由根	-10.9064
未來造色	-10.9077
甘露	-10.9081
觀外色	-10.9081
術	-10.9083
生住老無常	-10.9083
毀壞	-10.9084
死屍	-10.9085
尊者妙音作如是說	-10.9087
宅	-10.9087
妙高山	-10.9087
所依所緣	-10.9089
見滅道	-10.909
汝說	-10.9091
治道	-10.9091
青黃赤白	-10.9091
甞	-10.9092
眼識乃至意識	-10.9093
入正性離生者	-10.9094
不能引	-10.91
學慧	-10.9107
七識住	-10.9108
有過去愛結	-10.9109
非俱有因	-10.911
由二緣	-10.911
總立	-10.9115
□	-10.9116
當觀	-10.9117
身見邊見	-10.9119
非業相應	-10.912
能順	-10.9123
道力	-10.9126
正解	-10.9126
類智品道	-10.913
是謂差別	-10.9132
除色想	-10.9137
得罪	-10.9138
散壞	-10.9138
非斷智知	-10.9141
所更	-10.9141
聚義	-10.9143
有三句	-10.9145
有法是	-10.9148
我體	-10.916
是謂成就	-10.9162
纏退	-10.9163
非心數	-10.9164
曾有	-10.9172
微塵	-10.9174
耳鼻舌	-10.9177
非一切遍	-10.9181
漏盡智	-10.9183
答不爾	-10.9187
縛所縛	-10.9187
於四諦	-10.9187
在無色界	-10.9188
聰慧	-10.9189
內無色想觀外色	-10.9191
罰	-10.9191
殖	-10.9192
有增上用	-10.9194
自性斷	-10.9195
力劣	-10.9197
洗	-10.9197
無始時來	-10.9198
阿練若	-10.9199
越次取證	-10.9199
前攝後	-10.9199
無尋	-10.9201
已離色染	-10.9202
蘊界處	-10.9204
尊弟子	-10.9204
共心	-10.9204
已離色界貪	-10.9206
入滅盡定	-10.9209
是他聚故	-10.9209
唯立	-10.9211
所說義	-10.9213
非理所引	-10.9214
利養	-10.9215
追悔	-10.9223
所持	-10.9224
不別立	-10.923
一處少分	-10.9238
沙門性	-10.9239
邪慢	-10.9239
煩惱使	-10.924
諸功德	-10.9241
非時	-10.9241
若爾云何	-10.9241
無願相應	-10.9243
廣釋	-10.9244
幾種	-10.9248
色界死	-10.9259
無量有情	-10.9262
修梵行	-10.9264
不斷善根	-10.9267
或無色界繫	-10.9267
契	-10.9269
諸預流者	-10.9272
癰	-10.9286
漸得	-10.9286
以種種	-10.9291
=	-10.9298
愛盡上愛未盡	-10.9302
地獄畜生餓鬼	-10.9303
一少分	-10.9304
緩	-10.9306
促	-10.9306
後攝前	-10.9308
叫	-10.9309
謂如有一	-10.9309
不可知	-10.9311
隨縛	-10.9313
最極	-10.9316
固	-10.9317
僧伽	-10.9321
緣識及緣緣識所增隨眠	-10.9322
為顯示	-10.9329
心所念法	-10.933
一切法皆	-10.9332
若如理所引了別	-10.9333
復有苾芻	-10.9336
向道	-10.9336
隨其事	-10.9339
法隨法行	-10.9342
云何非學非無學	-10.9344
心得解脫	-10.9367
為何所	-10.937
疑蓋	-10.9377
世尊亦說	-10.9377
皆可	-10.9391
而不說	-10.9392
決斷	-10.9402
中際	-10.9403
誨	-10.9408
卷第三十	-10.9412
寄	-10.9413
嶮	-10.9413
有對色	-10.9415
有別法	-10.9415
十大	-10.9418
右	-10.9419
逢	-10.9419
戒律	-10.942
單	-10.942
東方	-10.9421
道類忍	-10.9426
色無色界苦	-10.9428
及修斷使使	-10.9428
非心相應	-10.943
忍果	-10.9432
或色界繫	-10.9444
亦不應	-10.9454
第一句者	-10.9455
偏增	-10.9455
法救	-10.9459
有學異生	-10.9462
能令心	-10.9469
苦未知智	-10.9469
五無間業	-10.947
之因	-10.9477
能轉	-10.9478
遠近	-10.9479
顯宗論	-10.9479
為治	-10.948
欲界見道所斷	-10.9484
法智類智	-10.9484
攝持	-10.9487
生地獄	-10.9487
作是問	-10.9488
所入	-10.9489
生地獄中	-10.949
薪等	-10.9492
問何緣	-10.9493
於欲界中	-10.9493
外難	-10.9497
命意捨	-10.9506
瞿曇	-10.9506
根性	-10.9507
此實餘虛妄	-10.951
不能令	-10.9515
阿素洛	-10.9517
隨所應當	-10.9518
麻	-10.9523
止觀	-10.9523
明淨	-10.9525
陵	-10.9525
掉悔	-10.9528
害他	-10.953
充滿	-10.953
渡	-10.9532
見使	-10.9533
獸	-10.9534
兩說	-10.9535
苾芻尼	-10.9535
若見圓滿世	-10.9536
鴿	-10.954
在意地	-10.954
力士	-10.9542
引經證	-10.9546
界品	-10.9547
上三靜慮	-10.9548
七返	-10.9553
好香	-10.9558
損壞	-10.9561
便壞	-10.9566
所愛	-10.9567
無有差別	-10.957
必由	-10.9574
教他	-10.9575
狂亂	-10.9579
如是等類	-10.9587
勝解力	-10.9591
成就四大	-10.9592
行報	-10.9595
必具	-10.9595
諸所有色	-10.9596
亦有差別	-10.9596
阿羅漢果攝	-10.9597
他害	-10.9602
問頗有	-10.9603
優	-10.9605
世尊何故	-10.9607
若有是事	-10.9609
何須	-10.9609
但約	-10.9616
勝用	-10.9618
生緣老死	-10.9623
念前世智	-10.9624
作是釋	-10.9625
即於彼	-10.9627
金銀	-10.963
不和合	-10.9631
大眾	-10.9633
衛	-10.9635
威儀心	-10.9637
順住分	-10.9638
一二分或	-10.9639
太過失	-10.9641
秦	-10.9644
及彼同分	-10.9646
時解脫練根作不動	-10.9648
耆	-10.9648
一界一入一陰攝	-10.9652
於自地	-10.9652
一心頃	-10.9653
諸有欲令	-10.9654
如是諸法	-10.9657
已得不失	-10.9657
若本不得	-10.9659
十纏	-10.966
貪不善根	-10.967
起滅定	-10.9671
正釋	-10.9671
三昧修	-10.9674
長壽	-10.9675
行動	-10.9676
窮	-10.9679
自境	-10.9679
天眼通	-10.9681
此中何故不說	-10.9686
現在大種	-10.9689
分限	-10.9692
建	-10.9694
觸食	-10.9697
邪性	-10.9704
譬	-10.9707
不應修	-10.9709
能牽	-10.9716
威力	-10.9722
於世間	-10.9725
功能差別	-10.9725
會釋	-10.973
耳鼻舌身意	-10.973
現觀時	-10.9731
漏處攝	-10.9732
他性	-10.9733
長益	-10.9735
習法智	-10.9737
應辯	-10.9739
內等淨	-10.9742
若有是處	-10.9742
選擇	-10.9744
懼	-10.9746
領受	-10.9746
於自身	-10.9747
弟	-10.9749
因論生論	-10.9751
扶	-10.9753
鮮	-10.9756
泉	-10.9758
於中有二	-10.9759
所緣隨增	-10.9759
今應思擇	-10.9761
無如是事	-10.9761
初兩句	-10.9769
苦智已生	-10.9774
道智未生	-10.9776
數行	-10.978
緣苦集	-10.9781
不善善有漏	-10.9785
隨所得	-10.9787
復還	-10.9798
非業緣	-10.9814
卑慢	-10.9826
不定聚	-10.9828
最大	-10.9829
發智論	-10.9831
欲貪隨眠	-10.9832
所以也	-10.9835
得果時	-10.9836
彼等起	-10.9838
三際	-10.9839
散心	-10.9842
忿等	-10.9843
無心定	-10.9843
修所成慧	-10.9844
內入	-10.9844
問若爾何故	-10.985
初師	-10.9853
呪術	-10.986
走	-10.9861
見欲界色	-10.9862
頻	-10.9863
若爾何緣	-10.9864
審慮	-10.9868
欻	-10.9869
陳	-10.9871
百歲	-10.9871
有宗	-10.9872
諂誑	-10.9874
所增隨眠	-10.9878
阿毗達磨	-10.9881
隔越	-10.9883
逼切	-10.9885
違逆	-10.9886
不得生	-10.9886
若就	-10.9886
及彼相應無明	-10.989
有心位	-10.9892
彼加行道時	-10.9896
四十四	-10.9901
故契經說	-10.9901
見滅斷有漏緣	-10.9901
第六句	-10.9902
隨根	-10.9914
已說自性	-10.9918
三識識	-10.992
意妙行	-10.992
不相觸	-10.9921
甚為	-10.9922
方所	-10.9929
解脫障	-10.9931
作所依	-10.9932
畢竟斷	-10.9933
未來所修	-10.9939
語妙行	-10.994
夢見	-10.9943
頂法	-10.9946
忍斷	-10.9959
離煩惱	-10.9965
十遍處	-10.9966
等無間所緣增上	-10.9969
情數	-10.9973
俱滅	-10.9975
愍	-10.9977
帝	-10.9979
用增	-10.9979
定生喜樂	-10.9981
頞	-10.9983
竪	-10.9984
嫌	-10.9984
身作證	-10.9984
對法諸師	-10.9984
其事	-10.9987
標名	-10.9988
升	-10.9988
熱惱	-10.999
于	-10.999
聲聞獨覺	-10.9991
開示	-10.9992
現在造色	-10.9992
猗覺意	-10.9992
無慚愧	-10.9994
善說法	-11.0001
習未知智	-11.0002
百劫	-11.0004
或無處	-11.0006
彼過去法智耶	-11.0013
佛語	-11.0016
斷智知	-11.0024
十一界	-11.0027
證阿羅漢果	-11.0029
如經言	-11.0031
闕緣	-11.0036
世親	-11.0037
邪方便	-11.0041
相應使	-11.0049
欲天	-11.005
六愛身	-11.0054
若有起	-11.0054
第四明	-11.0063
第三果	-11.007
根本禪	-11.0078
染淨	-11.0079
膩	-11.0081
欺	-11.0083
死想	-11.0086
不調	-11.0086
拔濟	-11.0095
娑	-11.0096
此下第二	-11.0097
跡	-11.0097
現觀邊世俗智	-11.0099
若實人若趣	-11.0102
廣說如經	-11.0103
健達縛	-11.0104
色究竟天	-11.0104
力用	-11.0107
可取	-11.0108
念根	-11.0112
疑使	-11.0114
逼迫	-11.0119
謂有一類	-11.0124
不共心	-11.0126
阿難陀	-11.0134
無漏離繫得	-11.0135
演說	-11.0138
彼亦是	-11.0153
品類足說	-11.0154
比知	-11.0159
斷律儀	-11.0169
大梵天	-11.0173
九解脫道	-11.0174
及無為法	-11.0174
則不如是	-11.0179
彼經說	-11.0181
及過去現在	-11.0185
受念處	-11.0186
兩釋	-11.0188
周遍	-11.019
此亦應然	-11.0193
傍生鬼	-11.0194
惟	-11.0202
故不相違	-11.0204
所止	-11.0208
盡未知智斷	-11.021
聚落	-11.0213
阿毘	-11.0218
尊者世友	-11.0218
念念	-11.0218
順次生受	-11.022
環	-11.0221
慕	-11.0221
欲愛盡	-11.0223
弘	-11.0225
正見等	-11.0227
不散	-11.0228
卷第六	-11.0233
正量部	-11.0236
召	-11.0236
四月	-11.0237
共相作意	-11.0244
形量	-11.0245
應理論者	-11.0248
進根	-11.0248
見所斷結	-11.0253
順現法受業	-11.0262
無障礙	-11.0263
定蘊	-11.0268
無垢	-11.0273
恚癡	-11.0279
由此故說	-11.0279
成劫	-11.028
一切結盡	-11.0281
行世	-11.0285
亦不應理	-11.0286
是故不立	-11.0291
其果	-11.0297
邪念	-11.0299
九結中	-11.0301
口業	-11.0305
樹下	-11.0312
皆名為	-11.0314
慧眼	-11.0321
所縛	-11.0321
次復	-11.0328
藍	-11.0329
儀	-11.0333
喪	-11.0334
私	-11.0334
修等智	-11.0336
罽賓	-11.0337
三義觀	-11.0339
澤	-11.0341
堅實	-11.0341
彰	-11.0341
不犯	-11.0342
苗	-11.0343
契經所說	-11.0344
捷疾	-11.0345
剎帝利	-11.0346
見苦集滅道及修所斷	-11.0347
滋	-11.0349
壞劫	-11.035
印度	-11.0355
隨一現前	-11.0362
黑闇	-11.0365
強盛	-11.037
隨轉色	-11.0374
二無心定	-11.0383
不穢污	-11.0389
見苦所斷法	-11.0389
輕重	-11.0389
道品	-11.0394
所緣故隨增非相應故	-11.0408
立支	-11.041
此中不說	-11.0418
支體	-11.0419
緣見滅斷	-11.0423
麁顯	-11.0429
僧眾	-11.0431
可厭	-11.0431
無相三摩地	-11.0438
身輕安	-11.0438
道類智忍	-11.0439
緣滅諦	-11.0442
侵惱	-11.0447
預	-11.0451
若諸有情	-11.0454
如實了知	-11.0457
樓	-11.0457
牢	-11.0457
伐	-11.0457
四天王	-11.0458
共相應	-11.0459
譏	-11.0459
吉祥	-11.0459
為上首	-11.0461
慶	-11.0461
博	-11.0463
迦葉波	-11.0463
從多分說	-11.0463
妻子	-11.0463
執受大種為因	-11.0463
遣他	-11.0467
割	-11.0467
〔	-11.047
評曰應作是說	-11.047
盡諸漏	-11.0471
第三第四靜慮	-11.0471
慈氏	-11.0472
所燒	-11.0472
欲界天	-11.0479
束	-11.0481
則不然	-11.0482
有別體	-11.0484
餘經說	-11.0486
難了	-11.0488
移轉	-11.0493
依主釋也	-11.0494
超一切	-11.0495
不復生	-11.0498
威儀工巧	-11.0499
又論云	-11.0503
准正理	-11.0504
決定別有	-11.0505
緣不繫	-11.0507
外入	-11.0514
難陀	-11.0516
無間地獄	-11.052
生等相	-11.0523
正精進	-11.0526
剎那剎那	-11.0533
斷末摩	-11.0534
其事如是	-11.0535
若有人	-11.0536
見道所斷法	-11.0536
此中但說	-11.0541
此二俱	-11.0545
未了	-11.0548
嫉慳	-11.0551
中間禪	-11.0556
初盡智	-11.0556
慈心	-11.0559
已壞	-11.0567
勒	-11.057
任	-11.0574
祠	-11.0575
錢	-11.0577
俱盧舍	-11.0578
二禪地	-11.0579
尊者瞿沙	-11.0579
疲	-11.058
下一行頌	-11.0583
淳	-11.0584
無想異熟	-11.0584
彼加行道	-11.0584
醫	-11.0586
途	-11.0587
汁	-11.0587
或先有不失	-11.0587
爪	-11.0588
阿含	-11.0588
心所起去來屈申迴轉身教	-11.0589
故佛唯說	-11.0594
達羅	-11.0595
焉	-11.0597
林中	-11.0597
合立	-11.06
色聚	-11.06
相待	-11.0601
文證	-11.0604
命終捨	-11.0607
眼根乃至無色界修所斷無明隨眠	-11.0607
生非想非非想處	-11.061
所造業	-11.062
或有過去愛結繫	-11.0623
更加	-11.0623
見滅斷邪見	-11.063
俱聚中	-11.0633
福行	-11.0634
證不還果	-11.0637
二無礙解	-11.0651
曾未	-11.0654
離欲染時	-11.0663
依第二靜慮	-11.0664
可了知	-11.0674
成就欲界繫無覆無記心	-11.0675
有漏無明漏	-11.0679
語惡行	-11.0679
更互	-11.0687
不顛倒	-11.069
無色界遍行	-11.0692
正語正業正命	-11.0697
喬答摩	-11.0698
宋	-11.0701
逐	-11.0702
一身中	-11.0703
盡法智斷	-11.0705
屋	-11.0707
縱廣	-11.0708
追	-11.0708
稟	-11.0709
幻	-11.0709
豐	-11.0709
童	-11.0712
正等覺	-11.0712
醜陋	-11.0714
欲界死	-11.0715
釋第三句	-11.0715
非時食	-11.0717
國土	-11.0717
卷第七	-11.072
第九無間道	-11.072
欲色二界	-11.072
里	-11.0721
典	-11.0721
色界無色界	-11.0727
分為二	-11.0735
觸為緣	-11.0735
壞敗	-11.0744
以三事故	-11.0744
徵也	-11.0749
憂喜	-11.0767
近分地	-11.0773
無結盡	-11.0776
名異生性	-11.0779
俱時起	-11.0791
微微	-11.0792
向涅槃	-11.0795
學無學心	-11.0795
鬪諍	-11.0797
結縛	-11.0799
上兩句	-11.0802
遍滿	-11.0805
倍增	-11.081
形相	-11.0816
世尊告曰	-11.0818
空界色	-11.0819
至生相	-11.082
婆沙評家	-11.0828
更互相	-11.0836
前八遍處	-11.0837
尊者舍利子	-11.0837
謂或有執	-11.0838
齊何	-11.0838
茲	-11.084
如燈	-11.084
受想思觸思惟覺觀	-11.0841
經云何通	-11.085
三心頃	-11.0852
應說而不說者	-11.0853
未至禪	-11.0853
名沙門果	-11.0853
半超	-11.086
彼於此道	-11.0863
非緣使亦非相應使	-11.0866
七使	-11.0866
傍生趣	-11.0871
六句	-11.0873
有是事	-11.0873
入五陰	-11.0875
十二緣起	-11.0897
無漏四靜慮	-11.0898
容受	-11.0904
最為勝	-11.0906
有色有情	-11.0906
除無明	-11.0916
梵住	-11.0919
加行善心	-11.092
自界緣	-11.0924
大千	-11.0929
於此處	-11.0933
無色界沒	-11.0936
由此因故	-11.0951
無漏五蘊	-11.0956
驅	-11.0957
漸減	-11.0959
六十二	-11.096
又契經言	-11.096
廢	-11.0962
得阿那含果	-11.0965
委	-11.097
畢	-11.097
瑞	-11.0971
動身	-11.0973
電	-11.0974
凝	-11.0974
美妙	-11.0979
得盡智時	-11.098
名何法	-11.0981
二俱繫	-11.0984
淨妙	-11.099
多求	-11.0993
舉頌答	-11.0995
要待	-11.0995
中間定	-11.0997
總有四種	-11.1
九無礙道	-11.1001
為何果攝	-11.1007
文中初	-11.1016
一界一入	-11.1019
諸有為	-11.102
若諸聖者	-11.102
初無漏心	-11.1021
非異緣	-11.1023
切	-11.1032
遊行	-11.1035
正慧	-11.1038
久遠	-11.1042
諸聖弟子	-11.1047
所須	-11.105
加行後起	-11.1056
不能取	-11.1057
有頂地	-11.1058
俱害	-11.106
受異熟果	-11.1062
問此說	-11.1063
四大所造	-11.1063
非見性	-11.1064
世尊告	-11.1068
酪	-11.1083
尊者佛陀提婆說曰	-11.1085
更有說者	-11.1085
滅雙因	-11.1088
受化者	-11.1091
賴	-11.1092
北俱盧	-11.1093
無明結未斷	-11.1094
酬	-11.1094
眾生數	-11.1095
若不盡	-11.1095
救護	-11.1096
商	-11.1096
尺	-11.1099
憤	-11.11
注	-11.11
擲	-11.1101
內門轉	-11.1102
剌	-11.1102
婆羅	-11.1104
自性與自性不相應	-11.1105
已度	-11.1105
或復有	-11.1106
體未斷	-11.1106
分析	-11.1108
質直	-11.1108
婆沙一百一十	-11.1109
連續	-11.1112
頌明	-11.1112
已了別今了別當了別	-11.1118
火災	-11.112
續善根	-11.112
欲界三部	-11.1123
欲止	-11.1126
第	-11.1127
是修道斷	-11.1127
覺悟	-11.113
除一切法	-11.1133
名有執受	-11.1135
身語意業	-11.1138
一界一處	-11.114
諸沙門婆羅門	-11.1151
願力	-11.1156
在何位	-11.118
妙欲境	-11.1206
非所隨增	-11.1209
勅	-11.1211
牢固	-11.1211
密意	-11.1211
捨覺支	-11.1212
彼於爾時	-11.1213
非前非後	-11.1216
可欣	-11.1218
悋	-11.1219
悅意	-11.122
怯	-11.1221
屠	-11.1222
集智未生	-11.1226
如其所應	-11.1226
旦	-11.1228
園林	-11.1229
取至境	-11.1231
俱舍論疏	-11.1231
離第四靜慮染	-11.1231
身業語業	-11.1232
知已根	-11.1233
眼能見	-11.1233
學無學法	-11.1233
別解律儀	-11.1233
廢立	-11.1236
復更	-11.1236
多用功	-11.1236
非報緣	-11.124
有眾多	-11.1255
易知	-11.126
云何法入	-11.1277
於一切時	-11.1278
作第四句	-11.1278
成就色界繫善心	-11.128
有增減	-11.128
外器	-11.1307
所緣斷	-11.1309
將欲	-11.1323
耳鼻舌身意識	-11.1325
廣辯	-11.133
煗頂	-11.1332
諸惡行	-11.1333
空空	-11.1333
地獄趣	-11.1336
入無想定	-11.1338
易地	-11.134
殺加行	-11.134
如意足	-11.1342
祠祀	-11.1345
麁等三行	-11.1349
過慢	-11.135
筋	-11.1351
擇法覺意	-11.1351
尊者妙音說	-11.1353
鉤	-11.1353
愁憂	-11.1355
夷	-11.136
稱讚	-11.1363
理不成故	-11.1365
世俗智現在前	-11.1366
瞻	-11.1366
現觀邊忍所	-11.1367
掘	-11.1367
意所念	-11.1368
四洲	-11.1368
近住律儀	-11.1372
滿業	-11.1375
轉增	-11.1377
龍王	-11.1379
答一增上	-11.1381
彼所起心不相應行	-11.1383
住劫	-11.1387
念覺	-11.1387
隨流	-11.1389
不生欲界	-11.1391
幾隨眠隨增	-11.1391
斷善根時	-11.1396
下三無色	-11.1399
輪轉	-11.14
則不能	-11.1401
有實體	-11.1403
梵天上	-11.1406
鏡等	-11.1406
佛契經	-11.141
勤求	-11.1412
思願	-11.1412
梵本	-11.1413
慳嫉	-11.1413
修所斷隨眠	-11.1415
續善	-11.1421
於自相續	-11.1421
作是念言	-11.1423
幾欲界繫	-11.1424
法前得	-11.1425
此中說之	-11.1434
愚惑	-11.1437
堅執	-11.1437
他物	-11.1444
好聲	-11.1444
是名法入	-11.1447
香界	-11.145
淨不淨	-11.146
何果攝	-11.1461
論主釋	-11.1464
殘	-11.1477
默	-11.148
煮	-11.1486
餘或成就或不成就	-11.1487
上所說	-11.1488
語表業	-11.1489
無貪無瞋	-11.149
遙	-11.149
甲	-11.1492
摧	-11.1494
城邑	-11.1496
入見諦者	-11.1496
非過去非未來非現在	-11.1496
四大種所造	-11.1496
豪	-11.1497
第二解脫	-11.1498
擬	-11.1498
隣虛	-11.1498
良	-11.1499
與上相違	-11.15
占	-11.1502
勢力劣故	-11.1503
集滅道	-11.1505
彼命終生	-11.1507
資益	-11.1508
開避	-11.1508
惠施	-11.1509
相妨	-11.1509
離下染	-11.151
活命	-11.1512
法無礙解	-11.1512
緣下地	-11.1515
九種結	-11.1515
利樂	-11.1517
遣使	-11.1517
故作此論	-11.1521
何妨	-11.1521
相去	-11.1523
此偈	-11.1523
宿命智	-11.1528
日光	-11.1534
女男根	-11.1536
是見性	-11.154
是故先說	-11.1541
法得起	-11.1548
如是已說至	-11.1556
簡異	-11.1557
類智忍	-11.1579
別有體	-11.1586
作三句	-11.1588
聞思所成	-11.1611
於五取蘊	-11.1614
作所緣	-11.162
見道修道所斷	-11.1622
阿耨多羅三藐三菩提	-11.1624
怒	-11.1624
無常苦想	-11.1628
順現	-11.1631
符	-11.1632
酥	-11.1633
飯	-11.1635
錯	-11.1635
怨敵	-11.1635
乙	-11.1636
飄	-11.1636
免	-11.1637
翅	-11.1638
餘師說	-11.1639
天帝釋	-11.1641
色漏有漏	-11.1643
童子	-11.1643
障礙有對	-11.1652
云云	-11.1655
是名法界	-11.1657
文中有三	-11.1657
受身處	-11.1657
盡不失	-11.1663
論主難	-11.1666
已還	-11.1674
不續	-11.1677
不喜足	-11.1677
息風	-11.1686
虛妄	-11.1687
大士	-11.1696
總有三	-11.1698
婆沙一百三十	-11.1699
九十八隨眠中	-11.17
制多	-11.17
勝義諦	-11.1703
如應當知	-11.1705
由業力	-11.1707
阿羅漢向	-11.1708
如實見	-11.1709
在身中	-11.171
佛作是說	-11.1712
無緣法	-11.1721
笑	-11.1726
十年	-11.1729
麁重	-11.1748
八十九	-11.1755
沙門瞿曇	-11.1756
讀誦	-11.1759
廣略	-11.176
無上菩提	-11.1761
寧知	-11.1762
不修身	-11.1762
愛結未斷	-11.1763
傾動	-11.1763
無上正等菩提	-11.1764
前四勝處	-11.1767
醎	-11.1767
苦無我想	-11.1768
作欲界化	-11.1768
念等覺支	-11.1769
吹	-11.1769
勵	-11.1771
非因計因	-11.1773
秋	-11.1774
溺	-11.1775
測	-11.1776
種種差別	-11.1776
泛	-11.1778
崇	-11.178
以何為自性	-11.1781
見盜	-11.1782
兄	-11.1783
不勝法	-11.1785
預流向	-11.1785
黃門	-11.1786
彼即是彼	-11.1787
嫉妬	-11.1787
無益	-11.179
必無有	-11.179
是名身念處	-11.1792
一入少分	-11.1793
故無有過	-11.1797
放逸處	-11.1803
唐言	-11.1811
為益	-11.1817
依靜慮中間	-11.1821
諸心所	-11.1826
集聚	-11.1827
愛著	-11.183
墮惡道	-11.1834
正生時	-11.1835
及滅道智	-11.1849
聞思修	-11.1853
道路	-11.1857
非眾生數	-11.1861
互相攝	-11.1866
自利	-11.187
除苦根	-11.187
見道所斷有漏緣	-11.188
能引起	-11.188
乃至第四禪	-11.1886
已起滅	-11.1889
當辨	-11.1895
逼惱	-11.1898
順現受	-11.1902
對向	-11.1903
獵	-11.1907
霧	-11.1907
必須	-11.191
見習斷	-11.1911
得一來果	-11.1911
增上忍	-11.1911
或過去或未來或現在	-11.1912
登	-11.1913
隨尋轉非伺相應	-11.1913
特	-11.1914
欝	-11.1914
墮負	-11.1917
調柔	-11.1917
詞無礙解	-11.1918
若習若修若多所作	-11.1919
五蘊為體	-11.1919
種種想	-11.1919
臘縛	-11.1919
喜無量	-11.192
下三靜慮	-11.1923
色界通一切及思惟所斷	-11.1924
慢結繫	-11.1926
習諦所斷	-11.1928
未滿	-11.1929
缺減	-11.193
巳下	-11.1931
由此證知	-11.1931
有十種	-11.1933
族姓	-11.1934
善友	-11.1934
斷生命	-11.1939
問答分別	-11.1941
品類足	-11.1943
思所成慧	-11.1944
合會	-11.1948
相貌	-11.1955
離貪心	-11.196
為所緣增上	-11.196
更無餘	-11.1975
所斷結	-11.1975
有九種	-11.1979
非無間緣	-11.198
分別意識	-11.1981
除通果心	-11.1986
禪中間	-11.1987
減少	-11.1992
譬喻者說	-11.1993
神境通	-11.1995
或復有說	-11.1996
能取果	-11.2004
修道位	-11.2016
害尋	-11.2017
從因生	-11.2032
外別有	-11.2035
苦比智	-11.2036
津	-11.204
阿那	-11.2044
順勝進分	-11.2046
生梵世	-11.2048
復有一類	-11.2049
哀愍	-11.2051
何異	-11.2051
為遮彼執顯	-11.2052
北俱盧洲	-11.2053
隨心轉非受相應	-11.2053
如世尊言	-11.2054
出入息	-11.2058
不繫心	-11.2058
米	-11.206
集類智未生	-11.2062
決擇分	-11.2063
違越	-11.2064
定覺支	-11.2065
必當	-11.2065
墮一世	-11.2067
名色緣識	-11.2071
相擊	-11.2083
不誤	-11.2086
根境識	-11.2086
三禪地	-11.209
施福	-11.2104
勤精進	-11.2117
此下大文第	-11.213
更有餘	-11.2141
誑語	-11.2147
色等境	-11.2149
非律儀非不律儀	-11.2155
月輪	-11.2162
獄卒	-11.2166
持業釋	-11.217
無雜亂	-11.2173
無相無相	-11.2176
依主釋	-11.218
給	-11.2189
有何意耶	-11.2192
尊者和須蜜說曰	-11.2192
理不應然	-11.2197
壯	-11.2197
垂	-11.2198
親近勝法不	-11.2199
後四勝處	-11.22
應問彼言	-11.2201
塚間	-11.2202
暴流	-11.2202
此難非理	-11.2202
床座	-11.2204
飲諸酒	-11.2205
攬	-11.2205
代	-11.2205
偽	-11.2205
男根女根	-11.2206
此即初也	-11.2206
有無明結繫	-11.2208
長老	-11.2209
通局	-11.221
受緣愛	-11.221
由此故知	-11.2215
漏無漏	-11.2221
財寶	-11.2222
有過去法智	-11.2229
四面	-11.2233
其形	-11.2235
何為餘	-11.2241
一切有漏法	-11.225
未斷為因	-11.2259
苦集滅道智	-11.2264
見道所斷結	-11.2265
有處說	-11.2267
得非數滅	-11.2274
邪思惟	-11.2276
見修所斷法	-11.2282
正生位	-11.2287
緣苦法智斷	-11.2297
異生位	-11.2301
同此論	-11.2303
無餘斷	-11.2309
執有我	-11.2313
隨轉戒	-11.232
四顛倒	-11.2322
外無別	-11.2329
謂此俱有相應	-11.2331
無滯	-11.2335
等活	-11.2335
摶食	-11.2336
仗	-11.2337
循身觀	-11.2339
肩	-11.2339
營	-11.2341
亦無有過	-11.2341
八萬歲	-11.2344
摧伏	-11.2346
訶責	-11.2347
不增不減	-11.2347
非明非無明觸	-11.2349
禽獸	-11.235
雜穢	-11.2351
善學色	-11.2353
復有過去愛結繫耶	-11.2354
一來向	-11.2356
下賤	-11.2357
耽嗜依	-11.2359
能長養	-11.2363
端正	-11.2364
出離尋	-11.2365
素怛纜	-11.2365
所領	-11.2368
能引發	-11.2369
互不相攝	-11.2369
無願無相	-11.2369
親屬	-11.237
饒益他	-11.2374
以此故知	-11.2376
法界攝	-11.2376
教授	-11.2394
多句身	-11.2394
同婆沙	-11.2407
伴性	-11.2407
作如是釋	-11.2409
畢竟不生	-11.2413
當知亦如是	-11.2415
世現見	-11.2415
不應正理	-11.2421
密意說	-11.2423
癡不善根	-11.2435
佛法中	-11.2448
審思	-11.245
異部	-11.246
善惡業	-11.2463
異師	-11.2464
此下第二明	-11.2469
二應分別	-11.2479
如偈說	-11.2483
灑	-11.2487
咎	-11.2487
無明慢掉	-11.2488
涼	-11.2489
響	-11.249
釋迦牟尼	-11.249
津液遍滿	-11.2492
若汝言	-11.2492
叉	-11.2495
競	-11.2496
戀	-11.2497
產	-11.2498
昏	-11.2499
夜摩天	-11.25
本論中	-11.25
附	-11.25
傷害	-11.2501
風吹	-11.2502
名句文身	-11.2503
有漏身口戒無教	-11.2503
臺	-11.2503
安置	-11.2503
覩史多天	-11.2504
聞所成慧	-11.2504
其體是何	-11.2506
緣已生法	-11.2506
鳴	-11.2511
那羅延力	-11.2511
非想非非想處繫	-11.2513
如理思惟	-11.2516
義是相應義	-11.2519
故此不說	-11.2521
答應說而不說者	-11.2528
所化有情	-11.2528
燈焰	-11.253
全超	-11.2534
依欲界身	-11.2535
所感異熟	-11.2546
比丘尼	-11.2547
堅住	-11.2558
化語	-11.2564
四正斷	-11.2565
煗法	-11.2575
剎那頃	-11.2577
一應分別	-11.2579
不善身表	-11.259
總有二種	-11.2591
生天上	-11.2611
即前所說	-11.2611
滅道諦	-11.262
及彼相應法	-11.2631
阿僧企耶	-11.2634
育多婆提	-11.2634
煗等	-11.2634
阿僧祇	-11.2634
七寶	-11.2634
目揵連	-11.2635
休息	-11.2638
奴	-11.2645
復次行者	-11.2645
見苦集滅所斷	-11.2647
苦智已生集智未生	-11.2648
此下釋	-11.2648
搖	-11.2651
萬六千	-11.2652
鬼神	-11.2652
集智已生	-11.2652
諸門分別	-11.2654
發勤精進	-11.2654
吉	-11.2654
焚燒	-11.2655
損惱	-11.2655
不戒律處	-11.2655
棄背	-11.2656
內處攝	-11.2658
若退法者	-11.2659
智緣盡	-11.266
帶	-11.2661
不得此無表	-11.2664
不了義	-11.2666
謂欲界色界生長	-11.2667
能斷惑	-11.2678
又彼所說	-11.2687
第九解脫	-11.2691
經主於此	-11.2692
色界繫造色	-11.2695
厭惡	-11.2695
如後當	-11.2699
未至定靜慮中間	-11.2701
種性根	-11.2703
互相望	-11.271
此在何位	-11.2713
外道執	-11.2722
則不應說	-11.273
無間解脫道	-11.2732
欲漏有漏	-11.274
顛倒想	-11.2742
相狀	-11.2746
合立一	-11.2753
經亦說	-11.2753
根少分相應	-11.2759
不緣下	-11.2761
能修未來	-11.2768
宿業	-11.2775
踊	-11.2786
答因增上	-11.2787
層級	-11.2788
教理	-11.2789
乏	-11.2795
離第二靜慮染	-11.2796
答為欲分別契經	-11.2796
諸大論師	-11.2798
復作此論	-11.2799
三界繫及不繫	-11.28
脇尊者言	-11.28
青瘀	-11.28
弟子眾	-11.2801
率	-11.2803
下半頌	-11.2804
未離無色界貪	-11.2805
屠羊	-11.2805
身口非戒無教	-11.2807
貨	-11.2808
草木	-11.2808
勳	-11.2808
見處非見	-11.281
無餘依涅槃界	-11.2812
凡夫聖人	-11.2815
幾智現在前	-11.2817
離色界染	-11.2817
極光淨天	-11.2819
千歲	-11.282
法及定不生法	-11.2822
殊勝功德	-11.2823
謂無色界生長	-11.2823
法界一分	-11.2824
命根眾同分	-11.2826
塵垢	-11.2826
有想無想處	-11.2828
尊勝	-11.283
千年	-11.2832
嫉慳結	-11.2835
菩提分	-11.2836
略去	-11.2841
預流一來	-11.2844
或有欲令	-11.2844
慈心定	-11.2845
戲論	-11.2853
暴	-11.2858
有別物	-11.2859
六觸處	-11.2867
遍六識	-11.2875
無勞	-11.2883
五識身相應	-11.2883
應供	-11.2891
無漏作意相應	-11.2896
憶知	-11.2904
法蘊足論	-11.2948
氏	-11.2948
憂慼	-11.2948
修彼道時	-11.2949
邪精進	-11.2949
教無教	-11.2949
發無表	-11.295
逸	-11.2951
谷	-11.2953
愱	-11.2954
閻浮提	-11.2954
杌	-11.2958
朝	-11.2959
外門轉	-11.2961
故契經言	-11.2964
蟻	-11.2964
喚	-11.2965
答初問	-11.2965
設劬勞	-11.2966
遷	-11.2966
無見無對	-11.2967
二俱不繫	-11.2969
初禪枝	-11.297
山頂	-11.297
滅智已生	-11.2972
初禪二禪	-11.2977
八萬劫	-11.298
所繫事	-11.2993
復作是念	-11.2997
苦集滅智	-11.2997
空無願無相	-11.3
去來世	-11.3002
我及世間	-11.3003
諸餘心心所法	-11.3005
成辦	-11.3011
所斫	-11.3015
正直	-11.3028
經久	-11.303
能益	-11.3031
害母	-11.3042
智所知	-11.3054
一期	-11.3062
陰界入	-11.3075
大仙	-11.3077
順上分	-11.3084
次對未來	-11.3087
相隣	-11.3088
說是語	-11.3094
捕	-11.3098
邑	-11.3099
順樂受業	-11.3104
無行般涅槃	-11.3106
義是根義	-11.3108
穿	-11.3112
此師意說	-11.3112
精血	-11.3113
出息入息覺知	-11.3114
麟角喻	-11.3114
揵	-11.3115
烏	-11.3118
小兒	-11.3119
有愛結前生未斷	-11.3119
鄔波	-11.3119
血肉	-11.3119
當言為緣而不為因	-11.312
第二第三靜慮	-11.3121
答若前生未斷則繫	-11.3122
聰明	-11.3122
正念正定	-11.3122
焚	-11.3125
或依未至滅	-11.3125
前說為善	-11.3128
勤策律儀	-11.3128
寬狹	-11.313
使所不使	-11.3131
前三句	-11.3135
▁15	-11.3137
十千	-11.3137
如前廣說	-11.3141
云何得知	-11.3146
風災	-11.3146
分為三	-11.315
煞	-11.3152
光音天	-11.317
欲界繫造色	-11.3171
男女根	-11.3183
最重	-11.3192
敬禮	-11.3212
迴向	-11.3212
假非實	-11.3216
光音	-11.3219
十一根	-11.3222
相似相續	-11.3226
惡意樂	-11.3231
不攝不相應	-11.3232
反問	-11.3238
言音	-11.3238
隨眠之所隨增	-11.3247
智作證	-11.3255
耽嗜	-11.3257
惡口	-11.3259
來詣佛所	-11.3267
波伽羅那	-11.3268
佛獨覺	-11.3269
一切世間不可樂想	-11.3271
龍象	-11.3271
穴	-11.3273
練	-11.3273
遠分對治	-11.3276
二俱有過	-11.3277
起世俗心	-11.3277
製	-11.3277
從癡生	-11.3278
自體不應自體	-11.3278
恣	-11.3278
辛	-11.328
阿笈摩	-11.3281
淺	-11.3281
護覺意	-11.3281
應一向記	-11.3282
飾	-11.3282
得殺罪	-11.3282
胡	-11.3283
到彼岸	-11.3284
集異門	-11.3284
猴	-11.3285
有情名聲	-11.3286
若無漏為加行	-11.3288
身行口行	-11.3288
集類智已生	-11.3288
覆藏	-11.3288
色愛未盡	-11.3288
緣身慧	-11.3288
灾	-11.3289
順後句	-11.329
半行頌	-11.3292
虛空非擇滅	-11.3295
皰	-11.3298
熏習	-11.3298
斷諸煩惱	-11.3303
捨異生性	-11.3304
影像	-11.3306
分位差別	-11.3309
有想天	-11.3311
色界修所斷善	-11.3317
五淨居	-11.3319
相續不斷	-11.3337
大種造色	-11.3339
故非識住	-11.3339
釋下兩句	-11.3345
盡未知智	-11.3346
前三無色	-11.3348
有過去愛結繫	-11.3353
受用退	-11.3357
能辦	-11.3369
前八品	-11.3371
是名色陰	-11.3391
說彼為	-11.3402
六智知	-11.3417
緣滅類智斷	-11.3418
層	-11.3419
體性是何	-11.343
未來現前正起	-11.3432
脚	-11.3432
小煩惱地法	-11.3433
懃	-11.3434
孔	-11.3435
眉間	-11.3435
綺語	-11.3437
祇	-11.3437
曇摩	-11.3437
擾亂	-11.344
盈	-11.344
猪	-11.3442
唾	-11.3443
有漏身進	-11.3443
徑	-11.3443
骨瑣	-11.3443
警	-11.3444
江	-11.3444
載	-11.3445
就勝說	-11.3446
生處得智	-11.3448
臍	-11.3448
盡不失則成就	-11.3449
修習多修習	-11.345
間隔	-11.3451
知一切法	-11.3451
目連	-11.3452
不攝何等	-11.3454
卷第八	-11.3454
經部師說	-11.3463
述曰此釋	-11.3464
正理釋云	-11.3467
使緣使非相應使	-11.347
學見現在前	-11.3474
六十二見	-11.3481
准此釋	-11.3481
說之為	-11.3486
不相應行蘊	-11.35
毗婆沙師	-11.3502
夜增	-11.3505
千世界	-11.3514
發願	-11.3518
道法忍	-11.3518
述經部	-11.3526
如世間說	-11.3532
眼見色已	-11.3537
不善有覆無記	-11.3552
友	-11.3554
然於此中	-11.3556
能了知	-11.3564
返	-11.3565
無願無願	-11.3566
鼻舌身	-11.3574
為一增上	-11.3587
欲界所繫	-11.3589
謂無施	-11.3593
揭	-11.3593
迦旃延子造五百羅漢釋	-11.3594
北涼天竺沙門浮陀跋摩共道泰等譯	-11.3595
今於此中	-11.3597
臂	-11.3598
厭食想	-11.3599
四大王眾天	-11.36
顏	-11.36
我已知苦	-11.3601
舍利弗阿毘曇論	-11.3602
於現法中	-11.3602
堅信人	-11.3605
頞部曇	-11.3607
辯無礙解	-11.3609
識緣名色	-11.3609
側	-11.3611
曇	-11.3611
廣如彼釋	-11.3613
聲音句言語口教	-11.3615
調達	-11.3616
滅智未生	-11.3617
無因無緣	-11.3618
離彼染	-11.3619
是有餘說	-11.3619
親里	-11.3619
滅類智已生	-11.362
貧	-11.3622
刃	-11.3623
非陰攝	-11.3626
文中初問	-11.3627
滅智道智	-11.3633
脩習	-11.3637
善逝	-11.3639
若無常若苦若空若無我	-11.364
水災	-11.364
何故不立	-11.3651
善通達	-11.3662
扇搋等	-11.3674
比智分	-11.3677
五色根	-11.3681
諸色界繫善心	-11.3683
復作是言	-11.3686
廣果天	-11.369
是名苦聖諦	-11.3697
梵音	-11.3709
方便善心	-11.3724
苾芻眾	-11.3728
頂忍世第一法	-11.3733
糞穢	-11.3742
准婆沙	-11.3744
況復	-11.3747
如實覺	-11.3754
朽	-11.3762
無常苦空無我	-11.3771
已起滅法智	-11.3775
抱	-11.3776
衣服飲食	-11.3776
尊者世友說曰	-11.3777
蔑	-11.3777
斥	-11.3779
太子	-11.3782
第二第三第四靜慮	-11.3783
伺察	-11.3783
見苦諦時	-11.3784
舒	-11.3784
資助	-11.3786
作四行相中隨一行相	-11.3786
補	-11.3787
應捨置	-11.3788
苦智集智	-11.3788
婆沙一百五十	-11.3789
稽	-11.3789
火焰	-11.3791
彼結盡非果攝	-11.3791
不還向	-11.3792
隨煩惱纏	-11.3796
墮地獄	-11.38
一業引	-11.3805
順生受	-11.3805
見集所斷遍行隨眠	-11.3811
往昔	-11.3813
未離初靜慮染	-11.3815
持業釋也	-11.382
從此第四	-11.3845
受欲有	-11.3847
退阿羅漢果	-11.3874
無想定滅盡定	-11.3874
不復更	-11.3875
總有十	-11.3878
見集滅道	-11.388
怯弱	-11.3903
不成就欲界繫善心	-11.3904
所緣有對	-11.392
聲香味觸法	-11.3926
學見迹	-11.3933
容有退	-11.3937
快	-11.394
無有能過	-11.394
維	-11.3941
俱舍論頌疏論本	-11.3942
諂曲	-11.3942
泥洹	-11.3944
曉了	-11.3947
自此已下	-11.3948
名即差別	-11.3948
鎮	-11.3949
偷盜	-11.395
故偏說之	-11.395
於其中間	-11.3951
謂處卵㲉	-11.3951
究	-11.3952
素	-11.3952
其理極成	-11.3953
災橫	-11.3955
拒	-11.3957
惛眠	-11.3957
㮈	-11.3958
羅剎	-11.3958
斷遍知所遍知	-11.396
裹	-11.396
源	-11.3961
道現觀三心頃	-11.3961
卷第九	-11.3961
域	-11.3962
尚不能	-11.3963
法住智	-11.3963
地水火風	-11.3966
無時非因	-11.3969
理亦應然	-11.3969
鉢羅	-11.3971
起增上慢	-11.3973
根本四禪	-11.3974
猶如有一	-11.3982
東西	-11.3988
表無表業	-11.3994
次對過去	-11.3999
能遍緣	-11.4
分段	-11.4003
十大地法	-11.4008
無不皆	-11.4011
三界五部	-11.4014
一一別	-11.4063
解脫知見	-11.4067
五妙欲	-11.4072
觀欲界苦	-11.4075
恚尋	-11.4095
幾法相應	-11.4099
惜	-11.4107
阿修羅	-11.411
尊者瞿沙說曰	-11.4116
如來應正等覺	-11.4116
擁	-11.4117
衣鉢	-11.4118
設盡便失則不成就	-11.412
枯	-11.412
雪	-11.4123
觀智具足	-11.4124
冬	-11.4125
初習業	-11.4125
犢子	-11.4126
此後於彼復起	-11.4126
髓	-11.4127
離初禪欲	-11.4127
稼	-11.4127
得定心住正住	-11.4128
如是不放逸觀	-11.4128
映	-11.413
春	-11.4131
除其自性	-11.4131
忌	-11.4131
植	-11.4132
識身足論	-11.4133
及不定受	-11.4133
邪性定聚	-11.4133
或三界繫或不繫	-11.4135
已離無所有處染	-11.4135
婆沙七十	-11.4135
膝	-11.4136
非界非處	-11.4141
等者等取	-11.4142
道類智未生	-11.4143
修所斷無明隨眠	-11.4145
互不相	-11.4146
暢	-11.4146
自地味相應	-11.4153
現法涅槃	-11.4155
熟變	-11.4157
瞋癡	-11.4157
親教	-11.4161
因謂因	-11.4167
印可	-11.4179
形狀	-11.418
有漏及無漏	-11.418
緣緣識所增隨眠	-11.4183
卷第四十	-11.4187
能憶知	-11.4197
同一所緣	-11.4206
釋上兩句	-11.4222
毗婆沙	-11.4226
扇搋	-11.4231
十一切入	-11.4255
擾	-11.4274
第一義諦	-11.4276
唐	-11.428
能任持	-11.4283
嚴飾	-11.4284
清涼	-11.429
捶	-11.4296
青黃	-11.4298
搆	-11.4298
赴	-11.4298
捷	-11.4298
心所起集聲音句言語口教	-11.4299
聲聞辟支佛	-11.43
勇健	-11.43
欲令疑者得決定故	-11.4301
醫藥	-11.4304
或不善或無記	-11.4304
空處識處	-11.4304
吞	-11.4307
伴侶	-11.4308
躁動	-11.4308
謂契經中世尊善語善詞善說	-11.4309
價	-11.431
參	-11.431
梵輔天	-11.4311
通餘章義准此應知	-11.4313
蚊	-11.4315
鳩	-11.4317
此業能感	-11.432
二識識	-11.432
色聲觸	-11.4324
聖者生無色界	-11.433
頓現觀	-11.4331
滯	-11.4331
惡友	-11.4335
法智未知智	-11.4341
汝作是言	-11.4342
萬踰繕那	-11.4346
西方師	-11.4348
比丘如是思惟	-11.4356
所更事	-11.4356
眼等五識	-11.4366
千踰繕那	-11.4408
覆蔽	-11.4414
精進覺支	-11.4441
未知當知	-11.4447
胎卵	-11.4456
因者一因	-11.4457
修道所滅	-11.4475
弊	-11.4475
輻	-11.4475
所造色非有見色	-11.4476
從此大文第	-11.4481
看	-11.4481
僻	-11.4483
成就幾不成就幾	-11.4484
揣食	-11.4484
孫	-11.4486
薰	-11.4486
育	-11.4487
時愛心解脫	-11.4487
答第二問	-11.4488
藥草	-11.4489
讀	-11.4489
古昔	-11.4489
大不善地法	-11.449
談	-11.449
槃	-11.4491
追求	-11.4492
首盧	-11.4494
􂌞	-11.4494
威光	-11.4495
被燒	-11.4495
義是界義	-11.4499
師子吼	-11.4499
所斷結種斷	-11.45
見結未斷	-11.45
業增上力	-11.4502
故彼所言	-11.4503
想思觸	-11.4503
本有教不失	-11.4504
擾惱	-11.4504
女寶	-11.4507
諦聽	-11.4508
見苦集斷不一切遍	-11.4511
隨轉身口業	-11.4512
悟入	-11.4514
汝聽	-11.4514
准此應知	-11.452
苦類智忍	-11.4523
婆沙三十	-11.4524
不名增長	-11.4528
又婆沙云	-11.4532
應知亦然	-11.4537
禁戒	-11.454
無學正思惟	-11.4545
十色入	-11.4547
日輪	-11.4549
順後次受業	-11.4564
永不生	-11.4566
漸命終	-11.4605
緣縛斷	-11.4656
謂自界四	-11.4659
須彌山	-11.4662
農夫	-11.4665
隨眠是所隨增	-11.4666
順樂受觸	-11.4667
若智地若觀解脫心	-11.4667
攀	-11.467
遍淨愛盡	-11.4671
〕-【	-11.4671
復有二法	-11.4674
錄	-11.4674
第十六心	-11.4675
若退若生	-11.4676
未離貪	-11.4676
救濟	-11.4678
醜	-11.4679
配	-11.4679
花鬘	-11.468
集異門足論	-11.468
欲愛已盡	-11.468
無記性攝	-11.4682
譬如有人	-11.4683
有餘依涅槃界	-11.4683
屈伏	-11.4683
不用定	-11.4685
揚	-11.4685
十善業道	-11.4686
見言不見	-11.4686
大富	-11.4687
所緣故隨增亦相應故	-11.4688
又彼所言	-11.4688
戾	-11.4689
捺落迦	-11.4689
當於爾時	-11.469
軌範師	-11.4693
所引發故	-11.4694
恩德	-11.4694
如理應知	-11.4696
由斯故說	-11.4697
火燒	-11.4699
隨其所	-11.4699
界善見智慧	-11.4729
纏垢	-11.4729
卒	-11.4731
十六字	-11.4739
不墮界	-11.4746
水輪	-11.4751
卷第二	-11.4793
生住滅	-11.4797
覆障	-11.4815
勤勇	-11.4841
除世貪憂	-11.4845
幾非陰界入攝	-11.4846
窟	-11.4847
達分善根	-11.4847
房舍	-11.4848
兜	-11.4849
傷歎	-11.4851
藥叉	-11.4851
此文初也	-11.4853
半擇迦	-11.4853
沙彌	-11.4855
兔	-11.4855
塔	-11.4855
曾得未曾得	-11.4855
好色非好色	-11.4857
渧	-11.4857
不攝者何	-11.4858
務	-11.4859
滅受想定	-11.4862
由如是等種種因緣	-11.4862
於理為善	-11.4863
得須陀洹果乃至阿羅漢果	-11.4863
髻	-11.4865
為因等無間所緣增上	-11.4866
灌	-11.4867
見亦見處	-11.4868
曲穢濁	-11.4868
流注	-11.4869
正性定聚	-11.4869
蒙	-11.487
次第非次第緣緣	-11.487
或二或三	-11.4871
本性念生智	-11.4871
速疾迴轉	-11.4873
乃至非想非非想處染	-11.4873
於道思惟道	-11.4874
既生彼已	-11.4875
及彼生等	-11.4875
若未滅設滅已失則不成就	-11.4882
科	-11.4882
何等未斷	-11.4884
緣使亦相應使者	-11.489
相應使非緣者	-11.489
狀	-11.4894
彼心俱有	-11.4903
堅著	-11.4907
更不復	-11.4951
經部難	-11.4962
有一類補特伽羅	-11.4985
演	-11.5008
渚	-11.5036
二結繫	-11.5038
一日一夜	-11.5041
所造色非有對色	-11.5042
竭	-11.5045
兵	-11.5045
峯	-11.5046
靜等三行	-11.5046
滅已不捨	-11.5046
輔佐	-11.5046
納	-11.505
業法煩惱所生報我分攝	-11.505
憑	-11.505
生住異滅	-11.505
劬勞	-11.505
生老無常	-11.5052
未離色染	-11.5053
如有頌言	-11.5053
外色眼識所知	-11.5054
摶	-11.5054
憂惱	-11.5054
而轉根者	-11.5055
推徵	-11.5055
初說為善	-11.5056
設生已斷	-11.5056
義是入義	-11.5059
順不定受	-11.5059
稱譽	-11.5061
色愛盡遍知	-11.5062
文中有二	-11.5064
不應為難	-11.5068
相應故隨增非所緣故	-11.507
淨及無漏	-11.5073
取緣有	-11.5074
何勞	-11.5075
成就無色界繫有覆無記心	-11.5077
緣使非相應者	-11.5083
依如是義	-11.5088
俱生聚中	-11.5088
下分結	-11.5099
憎惡	-11.5104
覺支道支	-11.511
得無學果	-11.5114
滅類智未	-11.5123
次對過去未來	-11.5125
阿羅漢最後心	-11.5172
卷第四	-11.5196
佛告阿難	-11.5206
虛誑	-11.5226
逝	-11.5229
毘尼	-11.523
愈	-11.5233
順不苦不樂受業	-11.5237
採	-11.524
變吐	-11.5241
二二分或	-11.5242
為遮彼意顯	-11.5243
式	-11.5244
校	-11.5244
鷄	-11.5244
初三解脫	-11.5246
貧窮	-11.5246
一境轉	-11.5249
嬈亂	-11.5249
寫	-11.5249
膚	-11.5249
塞	-11.525
枝葉	-11.525
此生故彼生	-11.5251
決判	-11.5251
若世俗為加行	-11.5252
婆羅痆斯	-11.5253
無想有情天	-11.5253
天眼天耳	-11.5254
無處無容	-11.5255
出現世間	-11.5255
若作此解	-11.5255
騰	-11.5256
作亦名增長	-11.5256
無斯過失	-11.5256
正滅位	-11.5257
身邊二見	-11.5258
惛沈睡眠	-11.5259
那含	-11.5259
復有三業	-11.5259
虎	-11.526
何繫結滅	-11.5261
界二處四蘊攝	-11.5261
意觸樂受	-11.5261
染污不染污	-11.5262
數習數修數多所作	-11.5263
牟呼栗多	-11.5263
北方	-11.5276
有貪隨眠	-11.5277
用功	-11.5279
當知總說	-11.5283
後當廣	-11.5291
緣非境界緣	-11.5292
入離生	-11.5293
影光	-11.5296
苦所逼	-11.5319
歸敬	-11.5342
害父	-11.5368
色界法現在前	-11.5403
緣滅法智斷	-11.5427
貝	-11.5427
緣識所增隨眠	-11.5427
弊惡	-11.5428
輕躁	-11.5432
求覓	-11.5433
津漏	-11.5434
儒童	-11.5435
是相應義	-11.5437
瓦	-11.544
足前為	-11.544
轂	-11.5444
鄔陀夷	-11.5445
意樂喜捨	-11.5445
心隨轉法	-11.5445
集智已生滅智未生	-11.5447
蹉	-11.5448
哀	-11.5449
若法勝非勝能生	-11.545
迎	-11.5451
隨闕一	-11.5451
若思惟法不生	-11.5451
有漏身進有漏身除	-11.5454
見滅見道所斷	-11.5455
脇尊者曰	-11.5455
理必不然	-11.5455
刀杖	-11.5457
除類滅道智	-11.5459
良田	-11.546
合掌	-11.546
七善士趣	-11.5461
愛恚慢	-11.5462
不能一趣繫念一境	-11.5462
散動馳流	-11.5462
相續一趣繫念一境	-11.5463
本有教便失	-11.5463
有對無對	-11.5465
二十中劫	-11.5465
諸有此見	-11.5466
慢過慢	-11.5468
嗅香	-11.5469
善見天	-11.5469
齊此名為	-11.547
說如是言	-11.5477
審諦	-11.5477
而得生故	-11.5491
降雨	-11.5492
經是此論所依根本	-11.5561
末摩	-11.5567
此居第	-11.5579
所說云何通	-11.5607
謂無緣法身分	-11.5622
慇懃	-11.5631
憐愍	-11.5633
彼作經者	-11.5636
掌	-11.5639
所說復云何通	-11.564
不可思議	-11.5641
如前說者好	-11.5643
良藥	-11.5643
欲有相續	-11.5644
即此復從	-11.5644
栗	-11.5645
群	-11.5645
萬劫壽	-11.5646
輸	-11.5646
憍陳那	-11.5648
碎	-11.5649
樂變化天	-11.5651
若別說者	-11.5651
療	-11.5651
保	-11.5651
喉	-11.5652
理實應言	-11.5652
窣堵波	-11.5652
離下地染	-11.5653
非不善非不善為因	-11.5653
麟	-11.5654
意觸所生愛	-11.5654
相續轉變差別	-11.5656
審察	-11.5658
九十一劫	-11.5658
撿	-11.5658
倦	-11.5658
未得無色界善心	-11.5661
船筏	-11.5662
從貪生	-11.5662
共感一果	-11.5663
累	-11.5665
憤恚	-11.5666
藤	-11.5667
恚結未斷	-11.5668
骸	-11.5668
阿毘曇心論	-11.5669
七十五法中	-11.5672
對法宗	-11.5682
集滅道智	-11.5684
墮落	-11.5692
彼云何斷	-11.57
小乘	-11.5702
煖頂忍	-11.5734
胎藏	-11.5798
古師	-11.5825
熾	-11.5838
良醫	-11.584
村落	-11.5846
柔	-11.5846
諸聖諦繫法	-11.5849
試	-11.585
冠	-11.585
慳惜	-11.5851
匠	-11.5851
旃	-11.5851
苦諦繫法	-11.5851
共生共住共滅	-11.5852
曠	-11.5852
與思俱轉	-11.5852
波羅提木叉	-11.5852
心展轉相緣	-11.5852
道諦繫法	-11.5852
靜妙離	-11.5853
繞	-11.5854
八聖道支	-11.5859
彼法得生老住無常	-11.5859
給孤獨	-11.5859
答諸法彼心相應	-11.586
各據一義	-11.586
不淨觀持息念	-11.5861
珍寶	-11.5862
敢	-11.5862
於彼色起無覆無記眼識	-11.5864
起惑退	-11.5866
劍	-11.5866
出佛身血	-11.5867
不說自成	-11.5868
母腹	-11.5869
閑居	-11.587
菓	-11.587
次兩句	-11.5872
賢聖弟子	-11.5873
調御	-11.5874
一界少分	-11.5874
軌則	-11.5876
親附	-11.5879
世友	-11.588
無間獄	-11.5881
調適	-11.5881
准前應知	-11.5883
就中有二	-11.5887
正理破云	-11.5889
既生彼巳	-11.5893
苦根憂根	-11.5898
憶本所作	-11.5919
隣次	-11.5941
有三世得	-11.5985
尊作是說	-11.5988
集法忍	-11.6021
薩迦耶	-11.6035
因苦類智斷	-11.6046
迫	-11.6048
助道法	-11.6055
奔	-11.606
尊者波奢說曰	-11.6061
𣣋	-11.6061
正斷神足	-11.6063
自身他身	-11.6064
當知此說有	-11.6064
琉璃	-11.6065
悕	-11.6067
憍逸	-11.6067
順後受業	-11.6068
弓	-11.6069
往詣	-11.607
斯有何失	-11.6072
解脫勝處遍處	-11.6072
僧伽藍	-11.6072
緣苦類智斷	-11.6072
鈴	-11.6072
人民	-11.6072
燃	-11.6075
蘭	-11.6076
已說體性	-11.6076
扇	-11.6076
蘇迷盧	-11.6076
狼	-11.6076
住時勢分	-11.6078
村邑	-11.6079
立一遍知	-11.6081
怨憎	-11.6082
於理無違	-11.6082
於苦思惟苦	-11.6082
如是說者好	-11.6083
謂有苾芻	-11.6084
阿毘曇八犍度論	-11.6084
已得無色界善心	-11.6085
伽陀	-11.6086
於欲界修所斷法	-11.6086
及見集所斷遍行隨眠隨增	-11.6087
糠	-11.6088
有已還無	-11.6093
如前已辯	-11.6093
輕安覺支	-11.6094
俱時而生	-11.6097
於一切有情得	-11.6118
諍訟	-11.6127
暴惡	-11.6192
修行廣布	-11.625
愛喜適意	-11.6275
逮解脫戒	-11.6275
柯	-11.6278
了義經	-11.6281
骨節	-11.6282
法念住現在修	-11.6282
見集滅道及修所斷	-11.6283
詠	-11.6283
萎	-11.6284
鑽	-11.6287
生眼智明覺	-11.6287
聽聞正法	-11.6288
第二第三第四禪	-11.6289
劇	-11.629
略而不論	-11.629
諸漏永盡	-11.629
六思身	-11.6291
備	-11.6292
滅作證九結盡	-11.6293
短促	-11.6293
意處法處	-11.6293
學者生無色界	-11.6293
與未知欲知根相應	-11.6293
孔雀	-11.6294
未得無漏智現在前	-11.6294
有餘復言	-11.6295
舞	-11.6295
無諍願智	-11.6296
眼所識色	-11.6296
寒熱	-11.6296
非有身見為因非有身見因	-11.6297
學無學練根已	-11.6297
未滅設滅已失	-11.6297
欲貪瞋恚	-11.6298
後二遍處	-11.6299
猗覺支	-11.6299
忍辱	-11.63
輩	-11.6301
閻	-11.6301
身口無教	-11.6302
所以然者	-11.6302
唯意地故	-11.6303
貧賤	-11.6303
鄔	-11.6304
得果轉根故失	-11.631
盡諦所斷	-11.6311
有財釋	-11.6313
所不得法	-11.6333
退法種性	-11.6387
不成就欲界繫有覆無記心	-11.6413
色界有為緣	-11.6413
調象	-11.6436
梵輔	-11.6493
已斷為因及未斷為因	-11.6495
辱	-11.6497
醯	-11.6498
具正勤正知正念	-11.65
翳	-11.6503
牆	-11.6504
成就初禪行	-11.6504
那伽	-11.6505
破法輪僧	-11.6505
躍	-11.6507
果非有果	-11.6507
牆壁	-11.6509
殿	-11.6509
須陀洹果斯陀含果阿那含果	-11.6511
條	-11.6511
腐	-11.6512
若不生不思惟	-11.6512
殷重	-11.6512
貞	-11.6512
滅智已生道智未生	-11.6512
丸	-11.6513
娶	-11.6514
如何乃言	-11.6514
圍繞	-11.6515
平等受受所攝	-11.6515
意觸不苦不樂受	-11.6517
片	-11.6518
井	-11.6519
便為無用	-11.652
法二俱解脫	-11.652
眼根乃至無色界	-11.6522
迷亂	-11.6522
原	-11.6523
處母胎卵膜漸厚	-11.6523
不相雜亂	-11.6524
欲愛瞋恚	-11.6527
不相障礙	-11.6533
色等五境	-11.6536
無斯過	-11.6567
過去空耶	-11.6579
情非情	-11.6602
一境性	-11.6655
百四十	-11.6661
慼行轉	-11.6677
百踰繕那	-11.6715
匿	-11.6721
倚	-11.6725
摸	-11.6727
世八法	-11.6727
發欲界語	-11.6728
西方諸師	-11.6729
欲界繫色界繫無色界繫	-11.673
非等無間非等無間緣	-11.6731
身業口業	-11.6734
謀害	-11.6734
如上所言	-11.6736
翼	-11.6736
披	-11.6737
阿毘達磨俱舍釋	-11.6737
六受身	-11.6739
怙	-11.6739
幽	-11.6739
證圓寂	-11.674
踰	-11.6741
荼	-11.6743
方隅	-11.6743
迦濕彌羅	-11.6744
略為一聚	-11.6744
為令已生惡不善法斷故	-11.6745
菴羅	-11.6746
樂速通行	-11.6749
煙	-11.6749
苦類智未生	-11.6749
淡	-11.6753
與空三昧相應	-11.6756
觸緣受	-11.6759
刑	-11.676
見苦見集所斷	-11.6763
得大果	-11.6765
身受心法	-11.6774
右脇	-11.6792
佗心智	-11.6813
詮表	-11.6828
見滅見道	-11.6829
界退還	-11.6845
見滅所斷有漏緣及遍行隨眠	-11.6892
十一界十一	-11.6907
離色染	-11.6946
珊	-11.6953
此根何果攝	-11.6959
此章願具	-11.6961
難斷難	-11.6963
順苦受業	-11.6963
水火風	-11.6964
捉	-11.6965
若法與彼法	-11.6965
精進覺意	-11.6967
稱歎	-11.6967
彌勒	-11.6967
閡	-11.6969
想受滅解脫	-11.6969
有俱不修	-11.697
珍	-11.697
意思食	-11.697
菩提樹下	-11.6972
竹	-11.6973
想等想施設言說	-11.6974
無記非我分攝	-11.6974
軟中上	-11.6974
洛叉	-11.6974
憂悲苦惱	-11.6975
為見結所繫	-11.6975
答是作論者意欲爾故	-11.6975
倉	-11.6975
所斷染污智慧	-11.6976
此責不然	-11.6977
昇進	-11.6977
洛迦	-11.6977
嘉	-11.6977
未證欲證	-11.6978
現有身表	-11.6978
點	-11.6978
歿生無色界	-11.6979
於生死中	-11.6979
有因有果	-11.6979
未得欲得	-11.698
針	-11.698
未來現前必起	-11.698
膜	-11.698
汎	-11.6981
不違法相	-11.6981
來生此間	-11.6981
幼	-11.6982
喜憂捨	-11.6983
無所顧	-11.6983
拘礙	-11.6985
龜	-11.6985
化地部	-11.6985
流布	-11.6985
付	-11.6986
無罣礙智	-11.6986
心隨轉非受相應	-11.6989
三界二處五蘊攝	-11.6989
設已滅而失	-11.6992
及無色界生長	-11.6992
答為止他宗顯正	-11.6992
取結未斷	-11.6997
緣是業緣	-11.7003
若麁若苦若障	-11.7004
非無色界繫無覆無記心	-11.7011
同在一	-11.7055
令有相續	-11.7098
大善地	-11.7146
若處所有	-11.7158
脇	-11.7159
除戒道	-11.7187
集諦繫法	-11.7196
離無所有處染	-11.7196
滅諦繫法	-11.7197
有警覺	-11.7199
困	-11.72
每	-11.7202
巖	-11.7203
復次若人無慧無明未斷	-11.7204
有嫉結繫	-11.7206
義准已成	-11.7206
具見世尊弟子	-11.7207
由意生受想思觸思惟	-11.7207
為止如是說者意	-11.7208
痛想行識	-11.7208
塹	-11.7209
若前未生設生已斷則不繫	-11.7211
無如是失	-11.7211
軟聲非軟聲	-11.7211
歇	-11.7211
無相違失	-11.7211
速進道	-11.7212
妍膚非妍膚	-11.7213
飲噉	-11.7213
炷	-11.7215
正語正業正命正身進正身除	-11.7216
四天下	-11.7216
智遍知所遍知	-11.7217
諸貪等貪	-11.7217
害生命	-11.7217
融	-11.7219
詐	-11.7219
及染污無覆無記識	-11.7221
愛緣取	-11.7221
待客因	-11.7222
緣是異緣	-11.7225
頗胝迦	-11.7226
乃至時解脫轉根作不動	-11.7227
猶預	-11.7227
執藏防護	-11.7228
智知除苦集智	-11.7228
於彼等起心不相應行	-11.723
謂二相應法	-11.7232
所謂此見	-11.7234
㸦	-11.7256
緣是增上緣	-11.7335
應分別記	-11.7356
死後有想	-11.7405
餓	-11.7408
八萬四千	-11.7428
見道邊等智	-11.7429
隨信行隨法行	-11.7438
能生初禪地眼識	-11.7438
毒箭	-11.7441
往詣佛所	-11.7443
雜緣法念住	-11.7445
三摩跋提	-11.7445
見諦所滅	-11.7446
入正決定	-11.7446
准上論文	-11.7447
淚	-11.7448
朋黨	-11.745
外聲耳識所知	-11.745
涅	-11.745
遶	-11.7451
與喜覺支相應	-11.7451
六想身	-11.7452
汗	-11.7453
學人離結使	-11.7453
道比忍	-11.7453
意入法入	-11.7453
道俱生戒	-11.7454
專注	-11.7454
馱	-11.7454
墮諸惡趣	-11.7454
依此有彼有	-11.7455
傲	-11.7455
迅速	-11.7455
鞞	-11.7455
剛強	-11.7456
蓮	-11.7457
若生欲界住律儀	-11.7458
未解欲解	-11.7458
瑟	-11.7459
相異熟業	-11.746
妻妾	-11.746
安足處	-11.7462
釋後兩句	-11.7462
顛	-11.7463
誘	-11.7463
容預	-11.7463
雪山	-11.7464
彼所得斷	-11.7467
苦遲通行	-11.7468
思觸思惟覺觀	-11.7469
涌	-11.7471
疑惑猶豫	-11.7471
覺隨轉非觀相應	-11.7473
刧	-11.7474
道共戒	-11.7474
為分別慧	-11.7475
設諸根緣	-11.7477
亦非相應縛者	-11.748
學見迹修所斷	-11.7485
緣是起緣	-11.7519
互相違故	-11.7524
滅作證無結	-11.7535
意法意識	-11.7566
順後次受	-11.7591
入二陰	-11.7597
婆沙四十	-11.7602
上下縱廣	-11.7672
憍陳如	-11.7687
如病如癰	-11.769
基	-11.7691
幢	-11.7692
汝何所欲	-11.7692
映奪	-11.7695
祀	-11.7696
四大色身攝法	-11.7697
焦	-11.7698
螺	-11.7699
如實人若想憶想	-11.7699
除遣修	-11.7699
匱	-11.7701
定俱生戒	-11.7701
雹	-11.7703
一福量	-11.7703
滅受想解脫	-11.7703
空空無願無願無相無相	-11.7705
商侶	-11.7705
親近善士	-11.7706
嚴淨非嚴淨	-11.7706
玉	-11.7706
勞倦	-11.7706
理必應爾	-11.7707
刀兵	-11.7708
惛沈掉舉	-11.7709
錯亂	-11.7709
迦多衍尼子	-11.771
若前未生	-11.7713
俱舍師救云	-11.7713
預流果能作證向	-11.7715
長行釋	-11.7715
善一蘊染四蘊無記二蘊	-11.7716
身口有教	-11.7718
善染無記	-11.7718
謂法智已滅不失	-11.7719
謂隨算數漸次順次相續次第	-11.772
身中有過去愛結繫	-11.7722
一智知謂	-11.7722
靈	-11.7723
次舉頌答後釋頌本	-11.7723
法後非得	-11.7723
有行般涅槃	-11.7726
傍布	-11.7726
覆此想此忍此見此	-11.7727
法前非得	-11.7728
於色無色界法	-11.7735
若如病若如癰若如箭若	-11.7736
為煩惱所	-11.7852
妬	-11.7903
左右	-11.7908
軌範	-11.7938
作此論已	-11.7939
斛	-11.7939
封	-11.7939
驗	-11.7943
謂自界三	-11.7943
得修習修	-11.7947
蘇尸摩	-11.7948
正語業命	-11.7951
生共住共滅	-11.7952
多諸過患	-11.7953
或無或一二三四	-11.7953
裂	-11.7954
炭	-11.7955
潔	-11.7956
日初分	-11.7957
現在未來一	-11.7957
歡喜踊躍	-11.7957
加行無間解脫道時	-11.7958
通果心品諸得俱起	-11.7958
梵淨行	-11.7959
那庾多	-11.7959
嗜	-11.796
除法滅道智	-11.796
九無間道九解脫道	-11.796
身好聲非	-11.7961
率爾	-11.7961
有爾所隨眠隨增	-11.7961
厄	-11.7961
輒	-11.7962
施設足論	-11.7962
離非想非非想處欲	-11.7963
斬	-11.7964
辯才	-11.7965
挍	-11.7966
所可用	-11.7968
瘦	-11.7969
毱	-11.797
名異義同	-11.7973
皮肉	-11.7973
我從今	-11.7976
性羸劣故	-11.7976
玄	-11.7977
溫	-11.7979
非界非入	-11.7985
謂先未曾得	-11.7986
眼觸所生愛	-11.7988
見苦集所斷不遍行	-11.7995
隱沒無記不隱沒無記	-11.8088
貢高	-11.819
優婆夷	-11.8195
隻	-11.8203
炙	-11.8204
後世感苦異熟	-11.8204
非業非業異熟	-11.8205
剡浮洲	-11.8206
眾生數非眾生數	-11.8211
謗道邪見	-11.8215
荒	-11.8215
見道諦時	-11.8216
僮僕	-11.8216
如事知見	-11.8217
緣名緣義者	-11.8217
饒	-11.8218
澡浴	-11.8218
嬈	-11.8219
詩	-11.8219
心住正住	-11.8219
豫	-11.8219
六恒住	-11.8219
貯	-11.822
非道計道	-11.8221
所以得知	-11.8223
如順正理	-11.8224
心及心法	-11.8224
茂	-11.8225
觸思識	-11.8227
九無間道八解脫道	-11.8227
階	-11.8227
九十八使盡作證九結永盡	-11.8227
射分定	-11.8228
怠	-11.8228
若於此事有過去愛結繫	-11.8229
頸	-11.8229
曜	-11.8229
意觸所生受	-11.823
威儀路工巧處	-11.823
周圍	-11.823
於集思惟集	-11.823
於滅思惟滅	-11.8231
設生已斷則不繫	-11.8232
及過去非現在	-11.8232
孤	-11.8232
𨵗	-11.8233
七智知除比智	-11.8234
苾芻苾芻尼等	-11.8234
底沙	-11.8235
歡行轉	-11.8237
斷他命	-11.8237
有智同梵行者	-11.8238
瞢	-11.8238
應反詰記	-11.8238
若未已滅設已滅而失則不成就	-11.8239
扇𢮎	-11.8241
嗣	-11.8243
凶	-11.8243
何繫心心法	-11.8244
攝一全	-11.8247
輪圍	-11.8252
識見家	-11.8262
優波	-11.8291
慚恥	-11.8301
非有想非無想	-11.8311
歡慼	-11.8314
靜慮各二種	-11.8446
成就得不成就	-11.8465
嬰孩	-11.8481
希奇	-11.8482
二禪三禪四禪	-11.8486
謂聖種所攝	-11.8487
脩習多脩習	-11.8489
畦	-11.849
歌舞	-11.849
無餘涅槃界	-11.849
在此在彼	-11.8491
骨鎖	-11.8491
材	-11.8491
工	-11.8492
離俱繫	-11.8492
疾疫	-11.8492
六內處	-11.8493
役	-11.8493
生不共住不共滅	-11.8494
似自因	-11.8495
祖	-11.8495
非黑非白	-11.8497
乃至離無所有處欲	-11.8498
隨眠異熟眼識	-11.8498
若汝不說	-11.8499
斧	-11.85
戶	-11.85
浪	-11.85
瑜伽	-11.8501
見斷法報	-11.8502
離空無邊處染	-11.8502
由如是理	-11.8502
紅	-11.8506
正現前位	-11.8508
若過去若未來若現在	-11.8508
至已生位	-11.851
三界遍行及修所斷隨眠隨增	-11.8511
侶	-11.8511
輿	-11.8512
不成就無色界繫無覆無記心	-11.8517
已了別非今了別非當了別	-11.8522
若本不得世俗智現在前	-11.8523
彼不得無教	-11.8525
緣是相續緣	-11.8529
以二事故	-11.8573
斷何繫結	-11.8741
珞	-11.875
婢	-11.8761
滅有對想	-11.8763
來生人中	-11.8765
嬰兒	-11.8768
擯	-11.8769
怪	-11.8769
謂入現觀苦	-11.8769
隨依何地	-11.877
熊	-11.877
聾	-11.877
黨	-11.8772
巨	-11.8772
身作證具足住	-11.8772
分或欲界繫或色界繫	-11.8773
炬	-11.8773
巡	-11.8773
驢	-11.8775
矩	-11.8776
懈	-11.8777
飽	-11.8778
非想非不想	-11.8778
苦速通行	-11.8779
何等時成就過去法智	-11.8779
即此勝行及前所說	-11.8779
捨而不得	-11.878
當言善耶	-11.878
彼一切加行無間解脫道	-11.8782
思惟斷法報	-11.8783
蓮花	-11.8784
虧	-11.8786
借	-11.8786
思已業	-11.8787
爭	-11.8788
幾隨眠所緣故隨增亦相應故	-11.879
緣是報緣	-11.8793
謟	-11.88
已了別非今了別當了別	-11.88
吞噉	-11.8801
法未知當知根相應	-11.8804
色界沒生欲界	-11.8907
精進念定慧根	-11.8927
大煩惱地	-11.9004
旬	-11.9018
瞿陀尼	-11.9045
剋	-11.9046
設緣已斷	-11.9046
業為生因	-11.9049
差降	-11.905
但有虛言	-11.9051
犍	-11.9053
迦旃延子造	-11.9054
漬	-11.9056
失願結	-11.9056
施戒修	-11.9057
陶	-11.9057
諸聖諦繫根法	-11.9057
離此地染	-11.9059
阿毘達磨諸論師	-11.9059
者顯彼自性	-11.906
麟角	-11.906
鉢羅奢佉	-11.9061
欲若勤若信	-11.9062
臨命終時	-11.9063
沃	-11.9063
八道種	-11.9064
廣說乃至為令已生善法堅住乃	-11.9065
窣	-11.9065
埵	-11.9066
勃	-11.9066
沉	-11.9068
旋火輪	-11.9068
謂已入正性離生	-11.9069
安穩	-11.9069
十六識內十	-11.9069
兔角	-11.9073
隥	-11.9075
幾隨眠相應故隨增非所緣故	-11.9076
幾隨眠所緣故隨增非相應故	-11.9076
六處緣觸	-11.9077
戚	-11.9077
無熱天	-11.9078
已了別今了別非當了別	-11.9081
是盡或無生	-11.9084
有能了別色界繫	-11.9085
𤏙	-11.9092
作欲界語	-11.9119
論者作如是言	-11.9221
色界沒生無色界	-11.9282
無祠祀者	-11.9317
色染無色染	-11.9324
那羅延	-11.933
結跏趺坐	-11.9331
末劫末見	-11.9331
一滅不起	-11.9332
洛	-11.9332
何以知之	-11.9337
為恚結所繫	-11.9338
膿血	-11.9338
惰	-11.9338
庸	-11.934
共曇摩崛多等譯	-11.934
已滅名過去	-11.934
善哉善哉	-11.9341
叢林	-11.9343
相應故言少分	-11.9343
雷	-11.9346
赫	-11.9346
策勵	-11.9346
銀	-11.9347
猫	-11.9347
浣	-11.9348
雞	-11.9348
謂諸聖者住胎	-11.9348
輞	-11.9349
非淨非無漏耶	-11.9349
液	-11.935
諷	-11.9351
貫	-11.9352
官	-11.9352
已離無色界貪	-11.9352
洗浴	-11.9353
結縛隨眠隨煩惱纏	-11.9353
時解脫阿羅漢練根作不動	-11.9354
依何定滅	-11.9354
餘文可解	-11.9354
信解脫轉根作見到	-11.9355
局	-11.9356
剪剃	-11.9357
講	-11.9358
結前問起	-11.9358
俱舍師破	-11.9359
王舍城	-11.9359
腦	-11.936
有餘部說	-11.9361
令此疑得決定故	-11.9361
善業為眷屬	-11.9362
三界二入五陰	-11.9364
空一顯色	-11.9365
數取趣	-11.9365
鑒	-11.9366
樂遲通行	-11.9366
銷	-11.9371
從此以後	-11.9372
剃	-11.9373
舉頌本	-11.9376
若一處內	-11.938
戲笑	-11.9475
次對現在	-11.9618
無施與者	-11.9619
十八界十二處五蘊	-11.9622
化法調伏	-11.963
比丘定親近多修學已	-11.9642
梁	-11.9644
窓	-11.9645
三千大千世界	-11.9645
苦諦繫根法	-11.9646
苦諦繫非根法	-11.9647
漫	-11.9647
明非其因	-11.9648
溉	-11.9648
疲勞	-11.965
得獲成就	-11.965
婆須蜜	-11.9653
為目何義	-11.9653
幾界幾處幾蘊攝	-11.9654
送	-11.9654
準	-11.9655
犁	-11.9656
周匝	-11.9656
無學人欲得阿羅漢	-11.9657
香入味入	-11.9657
檢	-11.9657
不移動	-11.9657
所緣未斷其體已斷	-11.9657
堤塘	-11.9657
如實人念憶念	-11.9657
替	-11.966
傲逸	-11.9661
眼觸所生想	-11.9661
麗	-11.9661
彼心與未來所修	-11.9662
名色緣六處	-11.9663
先有身表不失	-11.9663
無善身語表	-11.9664
按	-11.9666
見道十五心頃	-11.9668
內無色想觀外諸色	-11.967
布灑他	-11.9671
孔隙	-11.9672
毫	-11.9673
錦	-11.9683
順不苦不樂受觸	-11.9949
囊	-11.995
刈	-11.9955
諸聖諦繫非根法	-11.9956
不必須通	-11.9957
道諦繫非根法	-11.9958
覓	-11.9958
善染污無覆無記	-11.9959
壓	-11.9959
栴	-11.9959
聖所愛戒	-11.996
陷	-11.996
慎	-11.9964
入無餘涅槃	-11.9965
道俱有戒	-11.9965
圍遶	-11.9966
霜	-11.9968
稠林	-11.9969
無學若智若見現在前	-11.997
駄	-11.9971
而不以彼為因	-11.9971
諸無色界繫無覆無記心	-11.9973
呰	-11.9973
泰法師	-11.9973
場	-11.9974
筆	-11.9974
智攝一切智	-11.9974
蕩	-11.9975
道未知忍	-11.9977
艱	-11.9977
內有色想觀外色	-11.9978
若內若外	-11.9978
竅隙	-11.998
危	-11.998
盤	-11.9981
尤	-11.9982
皷	-11.9986
弄	-11.9986
安樂遊處	-11.9993
不處威儀	-11.9998
䇿	-11.9999
過去法智耶	-12.0251
非數緣盡	-12.027
為得未得而學	-12.0273
先未曾侵惱	-12.0274
集諦繫根法	-12.0275
滅諦繫根法	-12.0277
休	-12.028
結加趺坐	-12.028
釋提桓因	-12.0281
矜	-12.0281
斯有何過	-12.0281
梯	-12.0282
義是漏義	-12.0283
述異說也	-12.0283
得遍知三結盡	-12.0283
此責非理	-12.0284
震	-12.0284
政	-12.0284
不失則成就	-12.0285
苦智習盡道智	-12.0288
道諦繫根法	-12.0288
少光天	-12.0288
理必應然	-12.0289
乃至即得阿羅漢果	-12.029
憍陣那	-12.029
毘提訶	-12.029
定俱有戒	-12.029
而不作是說者	-12.0291
廛	-12.0292
轉根作不動	-12.0292
髮毛等	-12.0293
晨	-12.0293
尊者阿那律	-12.0293
君	-12.0293
無礙解增長時	-12.0293
謂聖者住胎	-12.0294
離有頂染	-12.0294
蒲桃	-12.0294
外國諸師	-12.0294
抑	-12.0295
㲲	-12.0296
研	-12.0296
順前句	-12.0297
泄	-12.0297
烈	-12.0298
祭	-12.0299
現有善身語表	-12.0302
吸	-12.0302
與念覺支相應	-12.0302
值	-12.0303
魯	-12.0304
興者已盡則不繫	-12.0305
殞	-12.0306
業非業報	-12.0308
琰魔王	-12.0309
現在唯修世俗	-12.031
幾結繫	-12.0315
若非此所增隨眠	-12.0315
有為相應縛非所緣縛	-12.0316
月白半第八日	-12.0323
若惑若疑若猶豫	-12.0324
眼觸所生思	-12.0331
眾生居處	-12.0424
老病死	-12.0462
後對過去	-12.0546
正寂靜滅沒除	-12.0589
尊者婆須蜜說	-12.059
三轉十二行相	-12.06
弗	-12.0602
伸	-12.0609
咽喉	-12.0612
一晝一夜	-12.0613
九上緣惑	-12.0613
我已斷集	-12.0614
裸	-12.0614
央	-12.0615
捫	-12.0616
尊者曇摩多羅	-12.0616
糞掃衣	-12.0617
三結乃至九十八隨眠	-12.0617
理定不然	-12.0619
咽	-12.0619
脈	-12.0621
喝	-12.0621
尊者世親造三藏法師玄奘奉詔譯	-12.0621
柱	-12.0621
諸根長養大種增益	-12.0624
勉	-12.0625
樂根喜根捨根	-12.0625
觀涅槃寂滅	-12.0626
聖道一時俱斷	-12.0626
佞	-12.0626
繼	-12.0627
四二分或	-12.0627
苦比忍	-12.0627
楚	-12.0628
異生三十一隨眠	-12.0628
過殑伽沙	-12.0629
室羅筏	-12.0629
超昇離生	-12.063
於彼諸色勝知勝見	-12.0631
拕	-12.0631
聰叡	-12.0632
集滅現觀各四心頃	-12.0633
撰	-12.0634
士用及增上	-12.0634
抄	-12.0635
不思議	-12.0636
諸界諸趣諸生	-12.0639
憒	-12.064
下八諦	-12.0641
瑠璃	-12.0641
艱辛	-12.0641
順不逆	-12.0648
忻	-12.0652
眼色為緣生眼識	-12.0654
如來無所著等正覺	-12.0935
徐	-12.0942
七十七智	-12.0945
已生今生當生不定	-12.0947
寤	-12.0949
莊飾	-12.0952
即彼隨眠緣此未斷	-12.0956
謂諸具縛補特伽羅	-12.0958
四三二一	-12.0959
雁	-12.096
此眾生若根成就	-12.096
匝	-12.096
橋	-12.096
出離遠離所生	-12.096
一起一住一滅	-12.0961
姚秦罽賓三藏曇摩耶舍	-12.0963
漸次順次相續次第數為第	-12.0963
毘舍佉	-12.0963
無量光天	-12.0964
織	-12.0967
髀	-12.0968
廣說乃至勵意不息	-12.0968
隨信法行	-12.0968
取非至境	-12.0969
除異熟及離繫	-12.097
餅	-12.0971
曼馱多	-12.0971
鹹	-12.0972
此中有愛結前生未斷者	-12.0973
去來屈申迴轉身教	-12.0973
愛慢無明	-12.0973
外國師	-12.0974
濤	-12.0974
及現在非過去	-12.0976
當作是觀	-12.0976
鷲	-12.0976
若遠若近	-12.0976
寸	-12.0976
符秦罽賓三藏僧伽提婆共竺佛念譯	-12.0977
遏	-12.0978
振	-12.0978
除上爾所	-12.0979
史	-12.098
牟	-12.0989
鉾	-12.0989
狎	-12.1006
秤	-12.1009
訛	-12.1315
昨	-12.1316
鹵	-12.1317
臘	-12.1317
慇	-12.1323
淪	-12.133
浸	-12.1332
丈	-12.1333
案	-12.1338
誡	-12.1339
虗	-12.1345
繕	-12.1346
〕	-12.1348
●	-12.1364
黎	-12.168
涕	-12.1685
萌	-12.1687
番	-12.1687
佐	-12.1687
闡	-12.1688
欽	-12.1689
駕	-12.169
軌	-12.1695
泰	-12.1695
捐	-12.1696
殷	-12.1698
砂	-12.1699
藕	-12.1701
茶	-12.1701
祈	-12.1703
躁	-12.1707
澡	-12.1708
癈	-12.1717
鐘	-12.1717
瑜	-12.1721
干	-12.2021
糧	-12.2056
耐	-12.2058
佗	-12.2063
呾	-12.2069
寐	-12.2072
痰	-12.2073
鍵	-12.2078
篾	-12.2079
權	-12.208
耕	-12.2081
題	-12.2084
敏	-12.2085
燥	-12.2087
宴	-12.2097
激	-12.2097
妹	-12.2103
雅	-12.2108
腰	-12.2467
滴	-12.2472
挽	-12.2473
拜	-12.2473
胸	-12.2476
瘂	-12.2477
斗	-12.2478
彩	-12.2478
司	-12.2479
吼	-12.248
魅	-12.248
係	-12.2481
犬	-12.2482
糜	-12.2482
枳	-12.2482
脣	-12.2482
雄	-12.2483
謹	-12.2484
睺	-12.2484
硬	-12.2485
渠	-12.2486
迮	-12.2487
裟	-12.2487
紛	-12.2487
肅	-12.2488
琴	-12.2488
脹	-12.2489
悴	-12.2491
絲	-12.2494
刻	-12.2496
只	-12.2499
的	-12.2507
咀	-12.2513
妃	-12.2518
聰	-12.2875
絺	-12.2876
鎖	-12.2879
涸	-12.2883
誅	-12.2883
孝	-12.2887
寔	-12.2888
蟣	-12.289
鋸	-12.2891
虱	-12.2892
幸	-12.2892
乍	-12.2893
獷	-12.2893
拳	-12.2895
掃	-12.2895
濡	-12.2897
沐	-12.2897
庶	-12.2899
茅	-12.2899
仆	-12.29
覽	-12.2902
省	-12.2902
逈	-12.2903
嚼	-12.2904
藪	-12.2905
掩	-12.2906
棘	-12.2907
壹	-12.2912
掣	-12.2913
賓	-12.2917
蒭	-12.2923
鶴	-12.2929
圍	-12.3284
閣	-12.3297
諫	-12.3317
訊	-12.332
蔗	-12.3322
項	-12.3324
喧	-12.3324
甜	-12.3325
嫁	-12.3326
蝦	-12.3327
遵	-12.3328
狸	-12.333
僕	-12.3332
擣	-12.3332
肥	-12.3334
𧄼	-12.3335
躬	-12.3335
蘆	-12.3336
裁	-12.3336
鬚	-12.3337
訪	-12.3337
剪	-12.3338
洞	-12.3339
漢	-12.3341
鵝	-12.3343
鋒	-12.3348
銖	-12.3371
脊	-12.3758
湯	-12.3772
捺	-12.3773
腸	-12.3774
暇	-12.3776
踐	-12.3777
庾	-12.3777
民	-12.3778
瞳	-12.3778
坦	-12.378
燭	-12.3781
湛	-12.3783
詭	-12.3783
芻	-12.3786
皺	-12.3786
逃	-12.3786
倡	-12.3787
杵	-12.3788
醞	-12.3793
匪	-12.3794
婁	-12.3796
院	-12.3797
紙	-12.3801
併	-12.3804
包	-12.3805
蹔	-12.3805
㬉	-12.3807
耻	-12.3816
苾	-12.3825
揣	-12.4242
謙	-12.425
武	-12.425
買	-12.4253
饕	-12.4257
狐	-12.4259
屎	-12.4259
樺	-12.4261
墨	-12.4262
坌	-12.4263
潛	-12.4263
貶	-12.4263
餮	-12.4265
莊	-12.4266
溢	-12.4266
堰	-12.4266
曉	-12.4267
瑕	-12.4267
皇	-12.4268
暮	-12.4269
膿	-12.4269
芥	-12.4269
幡	-12.4269
張	-12.4278
寡	-12.4288
煎	-12.4288
8	-12.4289
躭	-12.4295
羆	-12.4744
哭	-12.4746
粒	-12.4753
費	-12.4757
馥	-12.4757
㝹	-12.4757
篅	-12.4758
幟	-12.4759
憐	-12.4759
絹	-12.4761
孰	-12.4761
紫	-12.4762
兆	-12.4763
惶	-12.4763
尾	-12.4764
銜	-12.4764
憚	-12.4764
裳	-12.4765
凌	-12.4768
欠	-12.4769
膖	-12.4769
慜	-12.4769
篋	-12.4771
整	-12.4771
瑩	-12.4772
統	-12.4774
陂	-12.4774
姦	-12.4774
陋	-12.4774
陜	-12.478
慙	-12.4784
瞖	-12.4786
着	-12.4789
夭	-12.5256
趺	-12.5261
綿	-12.5271
𧂐	-12.5274
曼	-12.528
零	-12.528
雌	-12.5281
沮	-12.5283
咄	-12.5284
嘆	-12.5285
賣	-12.5286
淵	-12.5289
啼	-12.5289
蹲	-12.5291
滓	-12.5296
肆	-12.5297
才	-12.5299
川	-12.53
諾	-12.53
]	-12.53
傾	-12.5305
𤘽	-12.5305
迸	-12.5306
瘧	-12.5318
陽	-12.5321
箇	-12.5324
曀	-12.5824
淤	-12.5826
蹬	-12.5834
脾	-12.5836
椽	-12.5837
棗	-12.5838
稚	-12.5839
莎	-12.584
偷	-12.584
偃	-12.5844
錫	-12.5845
衢	-12.5845
叱	-12.5846
胞	-12.5847
揀	-12.5847
候	-12.5852
廟	-12.5852
藝	-12.5855
卦	-12.5855
兇	-12.5855
啟	-12.5856
洟	-12.5858
琰	-12.5859
眄	-12.586
6	-12.5863
㷮	-12.5868
剩	-12.5877
拄	-12.6391
殄	-12.642
緊	-12.6421
綠	-12.6425
濯	-12.6425
農	-12.6426
鴦	-12.6429
註	-12.6431
拉	-12.6433
泣	-12.6433
囑	-12.6434
駝	-12.6434
礫	-12.6436
弶	-12.6436
丹	-12.6437
公	-12.6437
臛	-12.6438
腋	-12.6438
蹶	-12.6439
挑	-12.6439
輔	-12.6443
曹	-12.6444
乱	-12.6446
奈	-12.6448
賈	-12.6457
銛	-12.6457
突	-12.6458
3	-12.6458
圖	-12.6458
暉	-12.6459
皈	-12.6469
鬧	-12.7025
溝	-12.7027
崛	-12.7034
峻	-12.7038
犢	-12.7038
饑	-12.7042
呈	-12.7043
諠	-12.7051
市	-12.7052
丘	-12.7052
蹈	-12.7052
曷	-12.7053
脂	-12.7054
撲	-12.7054
屢	-12.7055
貿	-12.7056
洄	-12.7057
鑿	-12.7057
桃	-12.7058
叛	-12.7058
鍾	-12.7058
聳	-12.7061
跪	-12.7061
榮	-12.7062
駛	-12.7063
寢	-12.7064
低	-12.7067
搋	-12.7067
料	-12.7068
綴	-12.7069
洹	-12.7071
𢤱	-12.7074
魁	-12.7075
1	-12.7081
裏	-12.7083
栰	-12.769
􂌯	-12.77
剝	-12.7708
沫	-12.7711
鄣	-12.7714
縮	-12.7715
脛	-12.7716
耨	-12.7717
肝	-12.7719
尿	-12.772
姝	-12.7721
考	-12.7722
塘	-12.7722
苽	-12.7723
膏	-12.7724
呬	-12.7725
軸	-12.7726
崖	-12.7726
酷	-12.7728
椒	-12.7728
勘	-12.7729
拊	-12.773
俯	-12.7732
陿	-12.7735
朗	-12.7736
捧	-12.7736
宰	-12.7737
盆	-12.774
𧙃	-12.7741
韻	-12.7742
閇	-12.7744
龕	-12.7745
禽	-12.7746
c	-12.775
f	-12.775
醋	-12.7756
収	-12.7778
筈	-12.8399
㵎	-12.8405
枉	-12.841
紹	-12.8416
姤	-12.8418
鎧	-12.8418
捔	-12.8419
妾	-12.8424
鑊	-12.8425
謀	-12.8427
廁	-12.8431
癲	-12.8433
哆	-12.8433
餚	-12.8435
芬	-12.8435
貢	-12.8435
排	-12.8437
疊	-12.8437
僵	-12.8437
戮	-12.8437
拭	-12.8438
戍	-12.8439
哲	-12.844
澍	-12.844
嬰	-12.8442
豹	-12.8442
早	-12.8442
倫	-12.8446
蒸	-12.8447
誹	-12.8449
鷺	-12.8449
探	-12.8449
燧	-12.845
籍	-12.845
柳	-12.8452
派	-12.8454
孕	-12.8458
銕	-12.8461
窂	-12.8462
猒	-12.8466
隟	-12.8473
坻	-12.916
蕉	-12.9175
盖	-12.9178
枙	-12.9181
鉗	-12.9193
頑	-12.9194
讓	-12.9197
範	-12.9198
牖	-12.9198
胤	-12.9198
漿	-12.9199
鑞	-12.9199
膳	-12.9199
颽	-12.9199
豺	-12.92
腎	-12.92
芝	-12.9202
肪	-12.9203
筒	-12.9203
粗	-12.9203
埋	-12.9204
葦	-12.9205
卜	-12.9205
叢	-12.9206
肺	-12.9206
扣	-12.9206
勗	-12.9209
函	-12.921
祥	-12.921
羽	-12.9212
耗	-12.9212
絮	-12.9212
絡	-12.9212
諮	-12.9212
鍊	-12.9213
厨	-12.9213
壇	-12.9214
螫	-12.9215
杜	-12.9215
銳	-12.9215
縣	-12.9219
暑	-12.922
懊	-12.922
陣	-12.9221
糖	-12.9223
獻	-12.9223
祕	-12.9223
鴈	-12.9224
完	-12.9226
楊	-12.9226
嘿	-12.9228
弃	-12.9228
竿	-12.9229
竅	-12.923
余	-12.923
捍	-12.9233
牧	-12.9238
薀	-12.9239
鸞	-12.9265
吟	-13.0018
綖	-13.002
睛	-13.0021
冤	-13.0023
叔	-13.0024
駮	-13.0026
楔	-13.0027
坊	-13.0027
胝	-13.0029
惓	-13.0029
礦	-13.0031
蠖	-13.0032
秀	-13.0033
膽	-13.0034
奏	-13.0035
綵	-13.0036
埿	-13.0036
胃	-13.0036
峰	-13.0036
酸	-13.0038
楯	-13.0039
涎	-13.0039
侫	-13.0039
矚	-13.0039
玩	-13.0039
晚	-13.0043
援	-13.0044
衍	-13.0046
葢	-13.0047
耎	-13.0051
拂	-13.0053
括	-13.0053
灼	-13.0054
剛	-13.0054
柴	-13.0055
2	-13.0055
囂	-13.0056
耀	-13.0058
奕	-13.0058
糓	-13.0059
啄	-13.006
奘	-13.007
虵	-13.0073
㝡	-13.0079
采	-13.0906
窳	-13.0908
苣	-13.0913
囚	-13.0917
稗	-13.0921
犀	-13.0924
鍼	-13.0928
肯	-13.0932
纖	-13.0934
唼	-13.0934
揩	-13.0935
蟠	-13.0935
沸	-13.0937
選	-13.094
廬	-13.094
纂	-13.0941
迅	-13.0941
厥	-13.0943
幅	-13.0944
頷	-13.0944
睫	-13.0946
闊	-13.0946
逕	-13.0946
䩕	-13.0948
怡	-13.0948
衝	-13.0949
燎	-13.0949
隅	-13.095
嗤	-13.0951
覲	-13.0952
湧	-13.0953
薗	-13.0954
赦	-13.0954
翔	-13.0955
賞	-13.0955
紺	-13.0957
晴	-13.0958
葬	-13.0958
媚	-13.0958
嘴	-13.096
展	-13.0961
凸	-13.0961
凹	-13.0961
佷	-13.0961
荊	-13.0962
穆	-13.0963
冀	-13.0965
肚	-13.0966
䭾	-13.0967
街	-13.0967
鏁	-13.0971
宇	-13.0973
岐	-13.0975
s	-13.0976
洋	-13.0977
湖	-13.0985
綱	-13.099
穩	-13.0993
搜	-13.1004
膞	-13.1895
臗	-13.191
鍛	-13.1926
胄	-13.1927
戇	-13.1927
汙	-13.1928
曝	-13.193
恭	-13.1931
懺	-13.1933
釘	-13.1933
確	-13.1934
澆	-13.1934
尠	-13.194
簫	-13.1941
鵄	-13.1941
饌	-13.1942
鑛	-13.1943
把	-13.1943
菜	-13.1943
𥎞	-13.1944
撫	-13.1945
穌	-13.1945
穽	-13.1945
㮏	-13.1946
怱	-13.1947
削	-13.1947
迄	-13.1948
蒲	-13.1948
尖	-13.1948
霑	-13.1948
麵	-13.1948
翹	-13.1949
碧	-13.195
逾	-13.195
癩	-13.195
嗚	-13.1951
徙	-13.1951
級	-13.1952
蠅	-13.1953
痴	-13.1953
屣	-13.1954
郡	-13.1955
菴	-13.1956
邃	-13.1956
粉	-13.1956
㭰	-13.1956
筞	-13.1957
縫	-13.1957
鵂	-13.196
蛆	-13.1961
辟	-13.1962
舛	-13.1963
貰	-13.1963
邦	-13.1966
構	-13.1969
-	-13.1969
羂	-13.1971
0	-13.1973
輟	-13.1974
冲	-13.1974
筭	-13.1975
<	-13.1978
i	-13.1979
g	-13.1979
m	-13.1979
亮	-13.1985
夕	-13.1998
吳	-13.2004
拈	-13.3014
攙	-13.3028
搩	-13.3034
革	-13.3036
戴	-13.3036
躡	-13.3038
鍮	-13.3041
瑣	-13.3041
幹	-13.3042
厲	-13.3043
阻	-13.3043
猥	-13.3043
狩	-13.3046
鞅	-13.3047
鞭	-13.3047
瀑	-13.3049
午	-13.305
珂	-13.3051
醒	-13.3051
噓	-13.3051
串	-13.3052
曩	-13.3053
鞘	-13.3054
姊	-13.3054
討	-13.3054
渾	-13.3054
褥	-13.3056
祚	-13.3056
廓	-13.3057
隖	-13.3057
捲	-13.3057
塊	-13.3058
篤	-13.3058
鷹	-13.3059
牝	-13.3061
英	-13.3062
區	-13.3062
疫	-13.3062
蓬	-13.3063
賃	-13.3063
躇	-13.3063
齎	-13.3063
彖	-13.3063
腫	-13.3063
瞬	-13.3065
軀	-13.3066
額	-13.3066
辣	-13.3068
枕	-13.3069
繒	-13.307
嚙	-13.307
氷	-13.3072
挺	-13.3072
蒼	-13.3073
澹	-13.3074
齧	-13.3074
悷	-13.3075
洪	-13.3077
歒	-13.3079
札	-13.308
鞕	-13.308
緯	-13.3082
眩	-13.3082
郭	-13.3084
蠍	-13.3085
鳳	-13.3086
羹	-13.3089
諒	-13.309
褐	-13.309
眷	-13.3094
齅	-13.3102
荀	-13.3105
縉	-13.3112
𣩦	-13.3136
訟	-13.3965
𤚲	-13.428
帽	-13.4281
席	-13.4283
社	-13.4286
膠	-13.4287
肌	-13.4289
踝	-13.4289
楞	-13.4289
拍	-13.4295
𥯤	-13.4297
喘	-13.4298
輦	-13.4298
樵	-13.43
什	-13.4301
娉	-13.4302
撻	-13.4305
雀	-13.4306
壤	-13.4306
崩	-13.4307
壠	-13.4307
疼	-13.4308
壘	-13.431
擅	-13.431
彫	-13.4313
釜	-13.4313
鬱	-13.4314
格	-13.4314
陟	-13.4314
舟	-13.4314
剖	-13.4314
慘	-13.4315
瓫	-13.4315
隆	-13.4315
卯	-13.4316
眉	-13.4316
妓	-13.4317
椎	-13.4317
鼠	-13.4319
蝎	-13.4321
壅	-13.4322
掠	-13.4322
蛾	-13.4323
苞	-13.4324
淫	-13.4324
遐	-13.4325
淩	-13.4325
燸	-13.4325
粖	-13.4327
兮	-13.4328
爰	-13.433
怕	-13.433
廊	-13.4332
蜂	-13.4333
囉	-13.4334
駈	-13.4335
跳	-13.4336
殃	-13.4337
曳	-13.4337
鑄	-13.434
泊	-13.4342
澀	-13.4346
帳	-13.4348
黷	-13.4349
紳	-13.435
佳	-13.4354
舅	-13.4358
紐	-13.4358
釰	-13.4374
慄	-13.5682
坎	-13.5706
旻	-13.5715
塚	-13.5715
閫	-13.5715
沽	-13.5717
仇	-13.5719
雇	-13.572
線	-13.5722
璧	-13.5723
熅	-13.5724
儒	-13.5725
搏	-13.5725
靡	-13.5727
誚	-13.5727
奮	-13.5728
瀆	-13.5729
晦	-13.573
雕	-13.573
爐	-13.573
纓	-13.5732
踞	-13.5732
拾	-13.5732
踈	-13.5732
蹙	-13.5732
矛	-13.5733
炤	-13.5734
慠	-13.5734
僂	-13.5734
蹇	-13.5734
板	-13.5736
嗟	-13.5736
臆	-13.5737
揮	-13.5737
棟	-13.5738
紀	-13.5738
嶺	-13.5738
技	-13.5739
鑠	-13.5739
歘	-13.574
鑰	-13.5742
叡	-13.5743
釧	-13.5745
騃	-13.5745
晡	-13.5746
髖	-13.5747
俄	-13.5747
疹	-13.5749
櫞	-13.575
䟦	-13.575
辰	-13.5752
倩	-13.5752
悵	-13.5753
窄	-13.5754
罷	-13.5754
淹	-13.5754
癭	-13.5754
禦	-13.5754
痒	-13.5756
腕	-13.5756
郎	-13.5756
孟	-13.5758
猜	-13.5759
佇	-13.5759
規	-13.576
邁	-13.5761
㒵	-13.5764
𦘕	-13.5766
鏤	-13.5768
堀	-13.5768
罽	-13.5768
姑	-13.5769
否	-13.577
巷	-13.5774
賜	-13.5776
駁	-13.5776
糅	-13.5777
攪	-13.5777
歐	-13.5777
爍	-13.5779
坤	-13.5796
態	-13.7329
俓	-13.7372
儲	-13.7376
㧗	-13.7377
僚	-13.7381
儉	-13.7391
嚬	-13.7393
亭	-13.7397
嘖	-13.7398
媵	-13.7398
姨	-13.7399
朅	-13.7404
惣	-13.7407
倏	-13.7408
咲	-13.7409
押	-13.7409
企	-13.741
寅	-13.7411
奧	-13.7412
啞	-13.7414
愆	-13.7416
晉	-13.7419
双	-13.742
丁	-13.7421
癎	-13.7423
捴	-13.7423
俾	-13.7425
菩	-13.7425
呿	-13.7428
伍	-13.7429
叵	-13.7431
喫	-13.7432
募	-13.7432
9	-13.7432
7	-13.7433
抂	-13.7435
刪	-13.7436
宏	-13.7442
憩	-13.7445
祿	-13.9395
瑠	-13.9397
緝	-13.9415
僮	-13.9417
遁	-13.9417
孩	-14.1904
𢮎	-14.1914
沓	-14.1926
詔	-14.1939
卿	-14.5198
綺	-14.5217
堤	-14.5237
笈	-14.5238
填	-14.5248
窶	-14.5255
京	-14.5281
稠	-15.0199
柁	-15.0209
璃	-15.0259
憺	-16.0152
彬	-16.0153
娘	-16.0154
墾	-16.0155
猖	-16.0156
撾	-16.0157
摣	-16.0158
忉	-16.0159
哳	-16.016
躊	-16.0161
劬	-16.0161
菽	-16.0162
沼	-16.0163
宛	-16.0164
呻	-16.0165
鶹	-16.0166
隄	-16.0167
鉛	-16.0168
釐	-16.0169
袒	-16.017
笛	-16.0171
帙	-16.0172
嬾	-16.0173
哮	-16.0174
餉	-16.0175
讐	-16.0176
諛	-16.0177
蕂	-16.0178
痍	-16.0179
畟	-16.018
瑚	-16.0181
湎	-16.0182
拆	-16.0183
征	-16.0184
孜	-16.0185
嬉	-16.0186
婇	-16.0187
圄	-16.0188
囹	-16.0189
嚫	-16.019
>	-16.0191
𦽆	-16.0192
芭	-16.0193
肢	-16.0194
瘖	-16.0195
匃	-16.0196
克	-16.0197
鼈	-16.0198
鞠	-16.0199
醐	-16.02
醍	-16.0201
訾	-16.0202
猨	-16.0203
澓	-16.0204
弭	-16.0205
匡	-16.0206
鴛	-16.0207
鴉	-16.0208
蹭	-16.0209
琉	-16.0209
鈔	-16.0209
罔	-16.021
慣	-16.0211
姥	-16.0212
讎	-16.0213
蠲	-16.0214
𢣏	-16.0215
瞼	-16.0216
痼	-16.0217
幖	-16.0218
藹	-16.0219
磁	-16.022
鉆	-16.0221
燼	-16.0222
懶	-16.0223
蟇	-16.0224
虻	-16.0225
膾	-16.0226
[	-16.0227
罝	-16.0228
埃	-16.0229
庫	-16.023
煻	-16.0231
煨	-16.0232
』	-16.0233
『	-16.0234
嵐	-16.0235
鵡	-16.0236
髑	-16.0237
姚	-16.0238
鸚	-16.0239
髏	-16.024
闥	-16.0241
袈	-16.0242
癊	-16.0243
4	-16.0244
瓔	-16.0245
桓	-16.0246
悍	-16.0247
跏	-16.0248
穡	-16.0249
債	-16.025
獼	-16.0251
+	-16.0252
剡	-16.0253
痆	-16.0254
堵	-16.0255
o	-16.0256
N	-16.0257
饉	-16.0258
罣	-16.0259
藐	-16.026
纜	-16.0261
殑	-16.0262
㲉	-16.0263
5	-16.0264
柰	-16.0265
妍	-16.0266
娛	-16.0267
澄	-16.0268
喬	-16.0269
臾	-16.027
竺	-16.0271
|	-16.0272
瘀	-16.0273
贍	-16.0273
