<unk>	0
<s>	0
</s>	0
之	-3.96554
以	-4.65324
而	-4.6631
臣	-4.77961
其	-4.95287
者	-4.96441
不	-4.98935
為	-5.04622
有	-5.09271
於	-5.10102
則	-5.28353
(	-5.31936
也	-5.38321
/)	-5.42467
一	-5.49252
人	-5.50694
無	-5.55467
自	-5.68054
事	-5.72508
大	-5.78336
行	-5.84355
所	-5.84994
此	-5.86747
官	-5.89437
至	-5.93865
今	-5.95982
等	-5.97397
又	-6.01489
在	-6.03314
與	-6.078
上	-6.09592
將	-6.1048
用	-6.12722
及	-6.12941
矣	-6.14477
可	-6.15834
亦	-6.16198
兵	-6.18273
時	-6.19463
當	-6.19622
如	-6.20981
非	-6.21655
使	-6.22776
言	-6.23914
得	-6.24245
已	-6.26964
民	-6.27046
日	-6.27682
令	-6.27823
若	-6.28545
是	-6.29818
中	-6.30788
出	-6.34567
或	-6.34646
未	-6.35064
王	-6.35696
陛下	-6.35963
然	-6.36397
知	-6.36927
曰	-6.37781
故	-6.37998
公	-6.38733
各	-6.39252
道	-6.39441
皆	-6.39775
明	-6.40054
安	-6.40534
必	-6.40729
多	-6.4191
朕	-6.43138
州	-6.43632
即	-6.43723
内	-6.45401
下	-6.45443
三	-6.45868
雖	-6.4606
見	-6.47154
名	-6.47649
實	-6.49829
分	-6.51389
復	-6.51634
應	-6.5185
正	-6.53447
國	-6.55767
外	-6.56584
文	-6.57937
成	-6.58008
二	-6.58589
重	-6.61548
欲	-6.62335
法	-6.63279
議	-6.63653
天	-6.64036
相	-6.66256
年	-6.67011
本	-6.67141
因	-6.67678
前	-6.67834
何	-6.67863
任	-6.69295
▁	-6.69615
乎	-6.70769
心	-6.70797
乃	-6.71618
生	-6.72663
方	-6.73205
既	-6.74341
經	-6.75132
先	-6.75312
四	-6.7557
奏	-6.75579
子	-6.7571
守	-6.7864
軍	-6.79035
惟	-6.79066
舉	-6.8039
能	-6.80441
定	-6.80495
且	-6.8165
兩	-6.82284
入	-6.82555
後	-6.82679
查	-6.82869
取	-6.82903
命	-6.8294
天下	-6.83993
同	-6.84129
常	-6.86825
宜	-6.87225
平	-6.87755
甚	-6.8788
加	-6.88175
長	-6.8904
五	-6.89283
聞	-6.90118
夫	-6.90389
數	-6.90588
朝廷	-6.90945
地方	-6.91105
過	-6.91607
難	-6.91823
請	-6.926
深	-6.93127
河	-6.93516
親	-6.93974
不能	-6.94215
從	-6.94426
進	-6.94795
不可	-6.94838
發	-6.94855
制	-6.95331
除	-6.95434
治	-6.95974
地	-6.96269
理	-6.96405
通	-6.97477
馬	-6.97941
論	-6.98344
立	-6.98621
但	-6.98639
去	-6.98699
陳	-7.00257
開	-7.00907
水	-7.01114
以為	-7.02056
處	-7.02352
逺	-7.02564
盡	-7.02901
稱	-7.0318
著	-7.0366
務	-7.04023
計	-7.04322
力	-7.04871
縣	-7.05601
合	-7.05815
據	-7.06278
銀	-7.06326
報	-7.06874
謂	-7.07733
禮	-7.07735
省	-7.07756
意	-7.0843
爾	-7.08496
近	-7.08768
家	-7.08863
張	-7.08974
徳	-7.09368
利	-7.10006
職	-7.10287
朝	-7.10316
府	-7.10416
備	-7.10821
俱	-7.11051
于	-7.11212
錢	-7.11424
失	-7.11576
作	-7.12147
政	-7.12595
固	-7.12651
書	-7.12817
求	-7.13016
城	-7.13587
衆	-7.13609
聖	-7.13709
來	-7.13793
我	-7.15605
世	-7.15908
小	-7.16023
并	-7.16394
爲	-7.17702
少	-7.17918
奉	-7.18509
營	-7.18541
致	-7.18743
所以	-7.19231
易	-7.19337
歸	-7.19901
清	-7.19998
到	-7.2042
山	-7.20504
凡	-7.20877
誠	-7.20878
尚	-7.2169
/	-7.21849
恩	-7.22424
功	-7.22518
六	-7.22705
修	-7.23212
給	-7.23306
屬	-7.23359
止	-7.237
身	-7.23807
興	-7.24296
更	-7.24448
諸	-7.24501
罪	-7.24535
善	-7.24882
保	-7.25105
遂	-7.25224
司	-7.25289
原	-7.25291
賊	-7.25862
思	-7.26767
流	-7.27205
仍	-7.27257
之人	-7.27442
将	-7.27549
主	-7.28532
共	-7.28682
南	-7.2896
哉	-7.2899
收	-7.29166
士	-7.29569
再	-7.29587
受	-7.29725
和	-7.29974
萬	-7.30106
係	-7.30369
察	-7.30392
始	-7.31019
居	-7.31264
漢	-7.31264
李	-7.31435
學	-7.31821
廣	-7.32094
起	-7.32158
該	-7.32888
恐	-7.33211
照	-7.33686
君	-7.33719
信	-7.34147
問	-7.34601
改	-7.34602
差	-7.34958
運	-7.36871
敵	-7.37141
巳	-7.37189
補	-7.3744
並	-7.38118
異	-7.38325
私	-7.38449
元	-7.38778
物	-7.39018
委	-7.393
食	-7.39347
由	-7.39546
鎮	-7.39559
猶	-7.39843
可以	-7.40457
要	-7.40859
口	-7.40881
望	-7.41526
周	-7.41532
西	-7.41589
武	-7.4171
設	-7.41958
謹	-7.42061
節	-7.42119
交	-7.42441
土	-7.42662
選	-7.42962
隨	-7.43008
焉	-7.43187
情	-7.43215
直	-7.43589
納	-7.43621
邊	-7.43772
嚴	-7.44211
賢	-7.45196
初	-7.45409
而不	-7.45587
田	-7.45589
死	-7.46274
輕	-7.46344
門	-7.46489
間	-7.4705
江	-7.47219
動	-7.47585
具	-7.47758
便	-7.48164
變	-7.48274
彼	-7.48286
特	-7.48343
大臣	-7.48363
忠	-7.48834
存	-7.48926
審	-7.48962
降	-7.49045
百	-7.49803
吏	-7.49819
次	-7.49939
不敢	-7.50272
石	-7.50295
謀	-7.50325
海	-7.50509
糧	-7.50797
每	-7.51079
乞	-7.5111
益	-7.51143
宗	-7.51284
舊	-7.51365
不得	-7.51578
置	-7.51614
服	-7.51714
如此	-7.51727
風	-7.51741
新	-7.51832
兼	-7.52104
髙	-7.52378
聽	-7.52827
養	-7.53351
義	-7.535
州縣	-7.53503
極	-7.53675
回	-7.53859
承	-7.53921
詔	-7.54171
賜	-7.54303
東	-7.54527
豈	-7.55338
師	-7.55417
役	-7.55717
寧	-7.55735
路	-7.55969
㑹	-7.56538
至於	-7.56666
慮	-7.56957
犯	-7.56997
嵗	-7.57303
全	-7.5754
久	-7.57753
扵	-7.57757
圖	-7.57914
工	-7.57983
被	-7.58335
悉	-7.5849
永	-7.585
留	-7.58538
惡	-7.58991
餘	-7.59177
耳	-7.59447
諭	-7.59855
古	-7.60118
足	-7.60419
詳	-7.60463
考	-7.60615
樂	-7.60725
告	-7.60785
比	-7.60858
九	-7.60863
亂	-7.61267
員	-7.61555
賞	-7.61778
免	-7.61875
就	-7.62129
)	-7.62202
北	-7.6236
月	-7.62653
解	-7.62685
切	-7.62783
庶	-7.63233
部	-7.63248
封	-7.63413
米	-7.63502
建	-7.6363
終	-7.64145
首	-7.64233
業	-7.64266
金	-7.64501
觀	-7.65068
教	-7.65154
患	-7.65314
禁	-7.65461
刑	-7.66826
向	-7.67192
德	-7.67599
云	-7.67931
許	-7.68138
造	-7.68206
管	-7.68333
往	-7.68436
容	-7.68473
順	-7.68773
威	-7.68812
神	-7.68912
追	-7.69348
准	-7.69452
十	-7.69737
之事	-7.70037
例	-7.70269
帝	-7.70415
累	-7.70626
才	-7.70747
領	-7.70931
皇上	-7.70945
典	-7.70965
責	-7.71177
位	-7.71315
視	-7.71435
廢	-7.71464
好	-7.71525
罷	-7.71899
權	-7.72109
厚	-7.7227
臨	-7.72326
章	-7.72508
念	-7.72641
科	-7.73057
孝	-7.73103
盖	-7.73323
仁	-7.73544
濟	-7.73591
之心	-7.73666
化	-7.73774
之所	-7.74095
率	-7.74283
還	-7.74677
調	-7.74851
國家	-7.74876
斷	-7.75203
幸	-7.75289
害	-7.75486
急	-7.75573
是以	-7.75722
送	-7.76071
劉	-7.76095
積	-7.76384
戰	-7.76405
撫	-7.76477
太	-7.76719
不知	-7.76812
須	-7.76907
防	-7.76983
勢	-7.77478
七	-7.77662
監	-7.77815
光	-7.77832
莫	-7.77884
敢	-7.7797
仰	-7.78366
宣	-7.78398
都	-7.79005
獨	-7.79232
别	-7.79637
推	-7.79824
徒	-7.79888
獲	-7.8011
端	-7.80774
體	-7.80996
黄	-7.81001
良	-7.8115
貴	-7.81164
之時	-7.81305
殺	-7.81535
疑	-7.82161
引	-7.82347
費	-7.82955
依	-7.8298
陽	-7.83156
遇	-7.83186
度	-7.83318
弊	-7.83449
移	-7.83673
期	-7.83766
專	-7.84016
志	-7.84149
充	-7.84156
昔	-7.84209
以來	-7.84412
之意	-7.8443
商	-7.84494
傳	-7.8459
邉	-7.8523
憂	-7.85904
傷	-7.85927
愚	-7.86012
稍	-7.8616
督	-7.86277
代	-7.86347
轉	-7.8657
之後	-7.86617
竊	-7.86694
資	-7.86766
姦	-7.86972
勞	-7.8712
鹽	-7.87287
習	-7.87321
寛	-7.87564
精	-7.87668
䝉	-7.87709
御	-7.88075
恭	-7.88109
遣	-7.88269
戒	-7.88413
衛	-7.88664
宫	-7.88731
減	-7.89085
丁	-7.8915
退	-7.89198
廟	-7.89333
疏	-7.89795
俟	-7.90003
供	-7.90065
支	-7.90158
八	-7.90215
来	-7.90399
案	-7.90977
齊	-7.91013
息	-7.91401
唐	-7.91606
坐	-7.92019
闗	-7.92406
之處	-7.92423
敬	-7.92436
夏	-7.92503
待	-7.92531
試	-7.92673
㫖	-7.92944
伊	-7.92999
接	-7.9366
革	-7.93677
絶	-7.93742
皇	-7.94124
乆	-7.94127
均	-7.94343
放	-7.94557
臣等	-7.94598
克	-7.94658
結	-7.94743
勝	-7.94904
懐	-7.95057
京	-7.95492
所謂	-7.9566
違	-7.95846
擇	-7.95873
財	-7.9605
載	-7.96097
辭	-7.96282
價	-7.96568
顧	-7.96619
里	-7.9683
反	-7.96922
老	-7.97002
祖	-7.97141
面	-7.97784
楊	-7.98246
缺	-7.98456
量	-7.98653
漸	-7.98799
慶	-7.99551
闕	-7.99645
集	-7.99836
繼	-8.00154
散	-8.00161
辦	-8.00238
百姓	-8.0026
按	-8.00309
條	-8.00311
羣	-8.00881
有司	-8.00964
尤	-8.0099
布	-8.0147
怨	-8.01472
户	-8.01575
史	-8.01684
氣	-8.01748
對	-8.01806
崇	-8.0183
盛	-8.01855
申	-8.01953
負	-8.01978
示	-8.02003
召	-8.02188
卿	-8.02518
斯	-8.02895
盜	-8.03306
指	-8.03363
然後	-8.03408
赴	-8.03509
咨	-8.03614
遷	-8.03843
候	-8.04138
連	-8.04167
買	-8.04174
簡	-8.046
天下之	-8.04717
亡	-8.04834
況	-8.04844
施行	-8.04916
素	-8.04965
尊	-8.05363
執	-8.05563
有所	-8.05653
畏	-8.05866
施	-8.06028
船	-8.0612
額	-8.0632
願	-8.06961
勤	-8.06965
白	-8.06991
不足	-8.0711
福	-8.07578
况	-8.07591
官員	-8.07667
而已	-8.07766
覆	-8.07947
究	-8.07959
錢糧	-8.08212
撥	-8.08264
完	-8.08402
之間	-8.08829
列	-8.08856
獻	-8.09146
逐	-8.0924
茍	-8.09252
懼	-8.09275
歴	-8.09712
嘗	-8.09759
目	-8.09771
提	-8.09852
授	-8.09877
決	-8.099
吾	-8.10203
卒	-8.10208
微	-8.10234
勸	-8.10268
細	-8.10911
勿	-8.11089
趙	-8.11132
之地	-8.112
者也	-8.11232
愛	-8.11456
熟	-8.11512
强	-8.11712
昭	-8.11878
邪	-8.12022
題	-8.12175
増	-8.12346
兹	-8.1256
持	-8.12951
伏	-8.1299
遺	-8.13143
具奏	-8.13231
今日	-8.13285
無所	-8.13336
倉	-8.13725
允	-8.13787
右	-8.13832
限	-8.13894
延	-8.14012
陞	-8.14046
耶	-8.14235
黨	-8.14242
塞	-8.14517
關	-8.15024
秋	-8.15179
汝	-8.15311
聲	-8.15353
夷	-8.15524
統	-8.15719
左	-8.15872
署	-8.16082
籍	-8.16222
損	-8.16427
俾	-8.16704
總	-8.16752
三年	-8.16756
孫	-8.16809
救	-8.16824
招	-8.16896
優	-8.16935
誤	-8.17041
密	-8.17066
病	-8.17138
敗	-8.17523
妄	-8.17738
屢	-8.18155
遵	-8.18456
郡	-8.18472
毎	-8.18496
不過	-8.18618
鄉	-8.1869
咸	-8.18928
借	-8.19341
雨	-8.19472
果	-8.19654
縱	-8.1982
謹奏	-8.19964
感	-8.20158
約	-8.20266
龍	-8.20336
甲	-8.20528
語	-8.21095
號	-8.21167
也今	-8.21187
曽	-8.21387
之道	-8.21511
災	-8.21567
速	-8.21823
祖宗	-8.22268
似	-8.22376
危	-8.22649
殿	-8.22693
器	-8.23312
虚	-8.23462
效	-8.23566
宋	-8.23582
登	-8.23697
祭	-8.23875
訓	-8.24039
手	-8.24184
之法	-8.24239
氏	-8.24376
兵丁	-8.2471
其所	-8.24873
貪	-8.25053
擬	-8.2549
奏聞	-8.25495
阿	-8.25718
富	-8.25748
現在	-8.25762
一切	-8.25765
春	-8.25787
棄	-8.25968
嘉	-8.26324
逆	-8.26454
宻	-8.27219
銀兩	-8.27665
假	-8.27701
愈	-8.27731
父	-8.27737
識	-8.27872
草	-8.27906
賦	-8.28039
擾	-8.28149
慎	-8.28181
旗	-8.28252
攻	-8.28262
秦	-8.28269
達	-8.28605
誅	-8.28612
人心	-8.28955
垂	-8.29382
早	-8.29661
勘	-8.29789
䇿	-8.29857
景	-8.29879
蓋	-8.30032
勅	-8.30829
陵	-8.30963
隆	-8.31219
詞	-8.31254
頭	-8.31398
律	-8.31442
督撫	-8.31603
奪	-8.31725
抑	-8.31855
美	-8.32205
俗	-8.32224
寨	-8.32255
協	-8.32439
折	-8.32446
聚	-8.32497
性	-8.32665
材	-8.32669
干	-8.32681
真	-8.32965
講	-8.33139
帶	-8.33198
等處	-8.3338
文武	-8.33641
種	-8.33687
唯	-8.33966
臺	-8.34084
規	-8.34326
縁	-8.34364
皇帝	-8.34505
所有	-8.34586
副	-8.34797
字	-8.34816
澤	-8.34975
薄	-8.3504
爾等	-8.3519
窮	-8.35527
附	-8.35721
覽	-8.35757
小人	-8.3581
料	-8.36206
辦理	-8.36656
以上	-8.3671
機	-8.36875
智	-8.36931
院	-8.37301
疾	-8.3738
豐	-8.37406
越	-8.37651
一人	-8.37703
以致	-8.37749
己	-8.3796
殊	-8.38034
陜西	-8.38055
頗	-8.38084
庫	-8.3819
項	-8.38329
顯	-8.38432
侵	-8.38455
逃	-8.38497
農	-8.38752
魏	-8.38755
險	-8.39021
荒	-8.39189
藏	-8.39321
征	-8.39388
勇	-8.39423
滿	-8.39468
何以	-8.39725
之言	-8.40092
色	-8.40117
)(	-8.4024
格	-8.4086
木	-8.40935
徐	-8.4099
儀	-8.41457
左右	-8.41461
諫	-8.41497
助	-8.41639
困	-8.41994
而後	-8.42174
預	-8.42229
隂	-8.42327
川	-8.42428
儒	-8.42546
表	-8.42637
車	-8.42693
昌	-8.42709
官兵	-8.4274
刻	-8.42974
廷	-8.43089
最	-8.43094
輔	-8.43347
巡撫	-8.43464
御史	-8.43611
言之	-8.43695
驗	-8.43816
破	-8.44043
第	-8.44216
振	-8.44355
循	-8.44429
界	-8.44515
廵撫	-8.44559
總督	-8.44705
裁	-8.44914
説	-8.45035
離	-8.45107
録	-8.45124
中外	-8.45285
之際	-8.45336
捕	-8.45465
奸	-8.45473
祀	-8.45487
堂	-8.4549
火	-8.45729
母	-8.45817
赦	-8.46084
只	-8.46499
禄	-8.46519
惑	-8.47117
適	-8.47122
足以	-8.47165
巡	-8.47182
竭	-8.47326
欺	-8.4747
訪	-8.47638
薦	-8.47739
博	-8.47751
避	-8.47792
忽	-8.47864
肆	-8.4787
貢	-8.48049
千	-8.48128
内外	-8.48366
市	-8.4847
高	-8.48473
狀	-8.48537
看	-8.48573
一日	-8.48674
勉	-8.48708
飭	-8.48833
空	-8.4902
於此	-8.49062
築	-8.49084
半	-8.49101
賣	-8.49185
弱	-8.4985
尚書	-8.50108
衙門	-8.50329
靈	-8.50375
苦	-8.50736
戎	-8.50932
牧	-8.51063
曲	-8.51071
雜	-8.51486
淮	-8.5168
確	-8.51773
未有	-8.51796
情形	-8.5189
不及	-8.52327
冊	-8.52377
欽	-8.52468
冒	-8.52791
臣聞	-8.5283
說	-8.52899
堅	-8.5314
之日	-8.53165
罰	-8.53202
嗣	-8.53262
英	-8.53318
配	-8.53554
煩	-8.53689
天子	-8.53864
惠	-8.54058
泰	-8.54117
邦	-8.54201
他	-8.54216
庸	-8.54227
毋	-8.54579
等語	-8.5458
榖	-8.5459
從前	-8.54677
呈	-8.54707
禍	-8.54788
為之	-8.55051
記	-8.55096
派	-8.55229
併	-8.55347
課	-8.55455
廵	-8.55552
㕘	-8.55631
之士	-8.55673
眀	-8.55724
欽此	-8.55781
星	-8.55862
上下	-8.55871
憲	-8.55938
畧	-8.56022
付	-8.56057
另	-8.56105
必有	-8.56351
甘	-8.56423
番	-8.56425
徵	-8.56453
班	-8.56511
不為	-8.56618
曾	-8.5669
華	-8.5674
不必	-8.56767
山東	-8.56803
衰	-8.56917
産	-8.56991
繁	-8.57033
指揮	-8.57346
室	-8.57383
無不	-8.57399
歲	-8.57401
品	-8.57872
官吏	-8.57873
二年	-8.57927
捐	-8.57974
上諭	-8.57981
寄	-8.58108
予	-8.58257
惜	-8.58424
紀	-8.58544
淺	-8.58671
人之	-8.58671
戸	-8.58691
玉	-8.58697
標	-8.5872
濫	-8.58769
湖	-8.58852
乗	-8.58862
天地	-8.58935
君子	-8.59206
倘	-8.59336
具題	-8.59407
朱	-8.59444
境	-8.59496
其餘	-8.59545
會	-8.59927
倍	-8.60013
徴	-8.60087
討	-8.60277
叅	-8.60615
晉	-8.6085
伯	-8.60961
如此則	-8.61137
河南	-8.61218
林	-8.61351
不勝	-8.61469
覺	-8.61546
偏	-8.61758
𩔖	-8.61777
爵	-8.61901
暴	-8.6221
榮	-8.62266
頃	-8.62625
官軍	-8.62777
暫	-8.62888
孰	-8.62889
徃	-8.62972
催	-8.63008
丈	-8.63405
休	-8.635
雲	-8.63515
四方	-8.63579
形	-8.63621
苗	-8.63679
緩	-8.63849
添	-8.63891
屯	-8.63989
等因	-8.64013
寵	-8.64109
肅	-8.64176
邑	-8.642
喜	-8.64388
有餘	-8.64516
衝	-8.64578
操	-8.64652
恤	-8.64759
脩	-8.64769
維	-8.64895
汛	-8.64955
侯	-8.64956
等項	-8.64983
等官	-8.65029
竟	-8.65056
睿	-8.65113
㑹同	-8.65209
源	-8.65263
否	-8.65373
投	-8.65394
未嘗	-8.65447
住	-8.65501
幾	-8.65658
末	-8.65712
升	-8.6577
參	-8.65886
所屬	-8.65918
稅	-8.66175
獄	-8.66175
葢	-8.66272
謝	-8.66361
乏	-8.66478
抵	-8.66577
莫不	-8.66839
略	-8.67161
揚	-8.67366
四月	-8.67405
奏請	-8.67527
寺	-8.67558
忘	-8.67591
青	-8.67593
畢	-8.67635
酌	-8.67703
衣	-8.67754
辨	-8.67831
厯	-8.67848
江南	-8.67855
質	-8.67903
不許	-8.67939
謹奏為	-8.67939
貨	-8.67971
韓	-8.68255
奉上諭	-8.68325
擢	-8.68328
乾	-8.68434
曹	-8.6852
佐	-8.68694
之中	-8.68891
楚	-8.69219
三月	-8.69289
寳	-8.69697
痛	-8.69988
術	-8.70369
梁	-8.70387
一時	-8.70509
隠	-8.70659
横	-8.7067
族	-8.70708
場	-8.70813
吏部	-8.71179
綱	-8.7123
儲	-8.71242
之弊	-8.71641
雖有	-8.71676
可謂	-8.71736
享	-8.71772
胡	-8.71794
以此	-8.71835
停	-8.71953
俸	-8.71975
宰相	-8.72007
康	-8.72008
現	-8.72048
者亦	-8.72095
野	-8.72115
事竊	-8.72175
懷	-8.72751
拜	-8.72786
后	-8.72824
堤	-8.72961
令其	-8.73018
靖	-8.73035
遽	-8.73086
式	-8.73206
一二	-8.73224
豫	-8.73235
採	-8.73246
三十	-8.73346
蒙	-8.73384
慰	-8.73694
於是	-8.73738
羅	-8.73836
所奏	-8.73849
七月	-8.741
之計	-8.7415
怒	-8.74209
悔	-8.74303
靡	-8.74422
之罪	-8.74772
尺	-8.74787
京師	-8.74842
印	-8.74845
也臣	-8.74864
貧	-8.74893
援	-8.74907
之外	-8.75009
禦	-8.75125
聖明	-8.75224
女	-8.75232
滋	-8.75275
各官	-8.75481
之至	-8.75582
賴	-8.75654
編	-8.75779
六月	-8.75852
五月	-8.76064
杜	-8.7628
象	-8.76349
銷	-8.76446
竒	-8.76556
勵	-8.76597
麥	-8.76801
警	-8.76934
鑒	-8.77002
消	-8.77056
吳	-8.77065
郎	-8.77099
房	-8.77151
希	-8.77193
聴	-8.77261
羣臣	-8.7739
兵部	-8.7767
堪	-8.77671
利害	-8.77787
提督	-8.77813
夜	-8.78096
歳	-8.78135
之數	-8.78151
茶	-8.78531
恃	-8.78575
五十	-8.78778
賤	-8.78836
勲	-8.78958
將軍	-8.79046
不可不	-8.79093
頒	-8.79104
萬一	-8.79262
貫	-8.79313
子孫	-8.79405
躬	-8.79459
黜	-8.7948
滅	-8.7958
知其	-8.79877
程	-8.79923
釋	-8.79923
懲	-8.79957
誰	-8.80006
謂之	-8.80125
虞	-8.80159
舍	-8.80244
亦有	-8.80311
稽	-8.80312
耕	-8.80533
騎	-8.80534
侍郎	-8.80732
寡	-8.80745
同日又奏為	-8.80879
敕	-8.80927
帥	-8.8095
奮	-8.81017
一事	-8.81153
冬	-8.81265
的	-8.81297
穀	-8.81311
不以	-8.81393
虛	-8.81411
自古	-8.81459
太宗	-8.81551
畫	-8.8156
沙	-8.81603
據實	-8.81762
之患	-8.8185
遲	-8.81932
懇	-8.8199
䕶	-8.82073
理合	-8.82118
人主	-8.82267
得以	-8.82348
校	-8.8267
鄭	-8.82703
需	-8.82711
寜	-8.8279
壊	-8.8283
蘇	-8.82846
之民	-8.82903
飛	-8.83021
某	-8.83101
政事	-8.83175
浮	-8.83286
而無	-8.83537
殘	-8.83664
中國	-8.83714
蜀	-8.83892
豈不	-8.83953
練	-8.84213
行之	-8.84297
使之	-8.84414
以来	-8.84422
季	-8.84533
銅	-8.84613
祥	-8.84701
偽	-8.84711
孤	-8.8476
二百	-8.84799
堯	-8.84924
二十	-8.85332
十一月	-8.85352
強	-8.85386
吉	-8.85411
一面	-8.85487
聖人	-8.85496
争	-8.85503
宿	-8.85538
竝	-8.85606
劾	-8.85772
料理	-8.8603
寒	-8.86034
慈	-8.86119
塘	-8.86132
詐	-8.86212
寇	-8.86275
阻	-8.86347
郊	-8.86348
辰	-8.86349
中書	-8.86367
冀	-8.86416
亦不	-8.86518
不同	-8.86783
客	-8.86787
厥	-8.8698
倫	-8.87026
人君	-8.87364
㣲	-8.87411
斥	-8.87461
舜	-8.87522
税	-8.87617
若不	-8.87647
注	-8.87724
哀	-8.87734
壯	-8.8776
事宜	-8.87811
漕	-8.87833
守備	-8.87934
元年	-8.87976
屈	-8.87986
檢	-8.88034
先帝	-8.88045
侍	-8.88051
巧	-8.88228
諭㫖	-8.88427
罔	-8.88533
通行	-8.88547
者皆	-8.88719
藩	-8.88723
逸	-8.88784
弗	-8.88929
叛	-8.88934
批	-8.88957
斬	-8.88972
寸	-8.89036
未能	-8.8925
明白	-8.89254
一員	-8.89265
用之	-8.89369
耗	-8.89451
僅	-8.89519
較	-8.89578
旱	-8.89659
庭	-8.89703
序	-8.89827
民間	-8.89858
我皇上	-8.90034
四十	-8.90312
各處	-8.90496
藉	-8.90531
人情	-8.90544
勒	-8.9059
詢	-8.90601
一年	-8.90617
二月	-8.90767
拏	-8.90821
江西	-8.90869
十二月	-8.91372
輸	-8.91381
伐	-8.91434
昨	-8.91456
三百	-8.9166
雄	-8.91677
錫	-8.91805
随	-8.91985
如何	-8.92324
震	-8.92351
大小	-8.92575
輙	-8.92605
禹	-8.92804
衞	-8.92833
咎	-8.93048
查得	-8.93068
疆	-8.93132
豈可	-8.93134
太祖	-8.93156
盈	-8.9316
牛	-8.93163
也夫	-8.93385
基	-8.93408
各屬	-8.93432
九月	-8.93531
尋	-8.93639
魯	-8.93704
其間	-8.93711
温	-8.93721
却	-8.93964
符	-8.94073
河北	-8.9414
兇	-8.94273
収	-8.94307
監司	-8.94318
祗	-8.94444
布政使	-8.94933
一千	-8.94996
出於	-8.95001
襲	-8.95009
廣東	-8.95261
八月	-8.95323
激	-8.95444
十月	-8.95771
弟	-8.95794
其事	-8.95937
春秋	-8.95964
不當	-8.95995
乘	-8.95999
之初	-8.96006
嗣後	-8.96011
不然	-8.96088
擊	-8.96268
虧	-8.9634
六十	-8.96425
驅	-8.96513
育	-8.96516
或有	-8.96538
蕃	-8.96566
增	-8.96688
事務	-8.96854
掌	-8.96986
迎	-8.97011
前項	-8.97072
専	-8.97151
臣愚	-8.97238
餉	-8.97265
伍	-8.97331
郭	-8.97346
驚	-8.97352
根	-8.97439
殷	-8.97449
亟	-8.97587
擅	-8.97613
正月	-8.97692
斂	-8.97867
㡬	-8.97917
五百	-8.97946
傅	-8.97994
貽	-8.98011
不行	-8.98099
之勢	-8.98114
卑	-8.98147
蔽	-8.98199
𢎞	-8.98247
故事	-8.98351
旨	-8.98409
擒	-8.98498
落	-8.98936
貯	-8.99074
册	-8.99079
無事	-8.99258
風俗	-8.99298
盜賊	-8.99327
此等	-8.99525
旋	-8.99621
裕	-8.99789
毁	-8.99926
趨	-9.00105
贓	-9.00114
雲南	-9.00317
各省	-9.00387
在案	-9.00482
耳目	-9.00606
愧	-9.00616
福建	-9.00622
緝	-9.00629
國之	-9.00695
户部	-9.00703
酒	-9.00718
粟	-9.00897
託	-9.00978
聖恩	-9.01016
繫	-9.01175
莊	-9.0124
占	-9.01295
當時	-9.01329
匪	-9.01426
采	-9.01453
傾	-9.01677
諸臣	-9.0171
苖	-9.01851
奏明	-9.01957
効	-9.02189
續	-9.02214
其人	-9.02224
矜	-9.02295
不肯	-9.02528
洋	-9.02551
前後	-9.02586
湯	-9.02671
浙江	-9.02675
洪	-9.02859
欠	-9.02899
之恩	-9.02998
十二	-9.03003
艱	-9.03044
釐	-9.031
工程	-9.03102
忌	-9.03103
黙	-9.03161
爭	-9.03172
君臣	-9.03567
燕	-9.0366
賑	-9.03754
策	-9.0382
泉	-9.03872
飾	-9.04011
前來	-9.0404
未必	-9.04077
即位	-9.04108
了	-9.04112
本部	-9.04187
伊等	-9.04283
幹	-9.04522
該部	-9.04529
之義	-9.04678
顔	-9.04739
不足以	-9.04876
募	-9.05116
一帶	-9.05151
尚未	-9.05192
聖訓	-9.05201
導	-9.0523
吕	-9.05316
拒	-9.05338
背	-9.05357
父母	-9.05367
彰	-9.05506
之員	-9.05671
盗	-9.05705
聖主	-9.05739
邀	-9.05784
錯	-9.0599
無以	-9.05993
讀	-9.05999
决	-9.0602
駕	-9.06036
索	-9.06041
者有	-9.06112
後世	-9.06237
太平	-9.06239
朔	-9.06448
一體	-9.06516
古之	-9.06596
短	-9.06752
驛	-9.06821
因循	-9.06825
可也	-9.07032
露	-9.07051
遠	-9.0706
打	-9.07064
措	-9.07378
之功	-9.07433
普	-9.07472
收成	-9.07488
拘	-9.07584
蔡	-9.07716
將來	-9.07716
貸	-9.07853
也然	-9.07854
議者	-9.08003
然而	-9.0808
知之	-9.08153
陸	-9.08215
衡	-9.08259
二千	-9.08417
酌量	-9.08443
皇考	-9.08449
惟陛下	-9.08538
謬	-9.08847
之徒	-9.08949
之大	-9.09029
途	-9.09043
如是	-9.09107
得人	-9.09175
之理	-9.09198
冗	-9.09325
荷	-9.09371
民之	-9.09377
伏乞	-9.09393
黎	-9.09406
績	-9.09409
底	-9.09434
禮部	-9.09524
小民	-9.09579
敏	-9.09638
逹	-9.09777
已經	-9.09824
曠	-9.09984
斗	-9.10007
俯	-9.10026
辦事	-9.10094
二人	-9.10106
履	-9.10127
惟有	-9.10261
疎	-9.10267
布政司	-9.1027
七十	-9.10272
囘	-9.10306
奔	-9.10327
閒	-9.1037
進士	-9.10376
無益	-9.10379
又有	-9.10432
忍	-9.10442
米價	-9.10442
之禮	-9.10521
膺	-9.10539
署理	-9.10567
訖	-9.10679
以備	-9.10776
輕重	-9.1081
是非	-9.10956
遭	-9.1096
類	-9.10973
洞	-9.11068
偶	-9.11094
此事	-9.11163
一百	-9.11173
今後	-9.11207
匹	-9.11248
之内	-9.11282
總兵官	-9.1146
為陛下	-9.11491
邇	-9.11589
誣	-9.11601
盤	-9.11683
分别	-9.11699
蓄	-9.11747
帑	-9.11786
茂	-9.11824
閣	-9.11906
遊	-9.12099
舟	-9.12119
輒	-9.12163
人等	-9.12289
范	-9.12299
凶	-9.12304
近日	-9.12448
者必	-9.12512
閲	-9.1299
宇	-9.12998
廣西	-9.13155
不致	-9.13174
感激	-9.13217
敵人	-9.13248
在於	-9.13287
不至	-9.13322
也陛下	-9.13436
級	-9.13624
同知	-9.13723
其中	-9.13728
甞	-9.14042
大夫	-9.14095
馳	-9.14188
至今	-9.14207
所在	-9.14252
驕	-9.14279
鼎	-9.14341
啓	-9.1442
用兵	-9.14481
倚	-9.14567
彦	-9.14575
繳	-9.14697
述	-9.1477
敷	-9.1481
戴	-9.14975
訊	-9.1503
婦	-9.15247
不便	-9.15287
殆	-9.15384
曉	-9.15714
其言	-9.15777
之用	-9.15777
然則	-9.15897
以後	-9.159
圗	-9.15946
踰	-9.16047
旣	-9.16068
大學士	-9.1617
藥	-9.16229
尚有	-9.16243
包	-9.1625
歟	-9.16317
之則	-9.16368
譽	-9.1638
到任	-9.16387
乖	-9.16463
天恩	-9.16495
丞	-9.1664
詩	-9.16798
硃批	-9.16927
辟	-9.1694
二三	-9.17003
兆	-9.1706
十八	-9.17144
虧空	-9.17238
玩	-9.17294
租	-9.17358
䟽	-9.17448
諌	-9.17486
觧	-9.1752
每年	-9.17737
陷	-9.1785
一旦	-9.17922
壩	-9.18345
販	-9.18349
十分	-9.18408
䘮	-9.1856
此皆	-9.18631
如有	-9.1864
糴	-9.18721
瑞	-9.18823
姑	-9.18874
緣	-9.18943
以下	-9.18951
倒	-9.19135
宰	-9.1918
陸續	-9.19184
庶幾	-9.192
零	-9.19259
属	-9.19357
四海	-9.19382
之費	-9.19408
四川	-9.19483
戍	-9.1957
人員	-9.1963
四百	-9.19644
賞罰	-9.19688
剛	-9.19693
隔	-9.19797
卷	-9.20138
五年	-9.20271
欽遵	-9.20373
難以	-9.20406
替	-9.20421
三千	-9.20721
隱	-9.20817
佞	-9.20919
甫	-9.21
隙	-9.21049
核	-9.21083
其後	-9.21288
夀	-9.21308
四年	-9.21328
照例	-9.21372
之兵	-9.21378
欽定四庫全書	-9.2141
之制	-9.21598
輩	-9.21668
得其	-9.21788
執政	-9.21794
摺	-9.21795
諸侯	-9.21813
恕	-9.2192
往往	-9.21955
彌	-9.21981
柄	-9.22006
禀	-9.22011
蕩	-9.22158
柔	-9.2223
音	-9.22238
烏	-9.22257
之利	-9.22289
軍民	-9.22292
件	-9.22333
不忍	-9.22355
以示	-9.22463
都御史	-9.22476
把總	-9.22631
所當	-9.22642
堡	-9.22667
十年	-9.22915
刑部	-9.2296
河東	-9.23065
暇	-9.23101
處分	-9.23142
懸	-9.23217
學士	-9.23331
䝉皇上	-9.23397
副使	-9.23414
徑	-9.23505
相應	-9.23598
抗	-9.23662
仁宗	-9.23719
前往	-9.23831
不可以	-9.23848
用人	-9.23917
鼓	-9.24052
合無	-9.24067
走	-9.24226
祠	-9.2425
厲	-9.24348
那	-9.2447
滯	-9.24523
恵	-9.24574
眷	-9.24664
州府	-9.24741
不復	-9.24791
不合	-9.24811
俊	-9.24814
知縣	-9.24845
整	-9.24849
仕	-9.2486
言者	-9.24976
之任	-9.25034
馬匹	-9.25051
鄙	-9.25059
展	-9.25084
烈	-9.25174
喪	-9.25412
勾	-9.25585
徙	-9.25647
枉	-9.25676
等情	-9.25694
齎	-9.25794
之例	-9.259
疋	-9.25922
削	-9.25947
兵馬	-9.2598
跡	-9.25993
也故	-9.26099
兒	-9.26174
民生	-9.26198
幽	-9.26266
奏稱	-9.26284
辛	-9.26302
巻	-9.26384
呼	-9.26431
穆	-9.26438
之名	-9.26466
算	-9.26477
湖南	-9.26552
欵	-9.26563
荆	-9.26863
而為	-9.26888
肯	-9.26932
奉㫖	-9.26944
緩急	-9.27033
契丹	-9.27046
浙	-9.27052
叔	-9.271
局	-9.271
民力	-9.27181
悟	-9.27334
糾	-9.27383
圍	-9.27479
純	-9.27509
家人	-9.27512
總兵	-9.27596
護	-9.27702
出入	-9.27741
貳	-9.27752
寢	-9.2776
扣	-9.27764
内有	-9.27858
區	-9.28089
搶	-9.2809
社稷	-9.28106
狂	-9.28148
即行	-9.28198
旬	-9.28317
孔	-9.28394
願陛下	-9.28403
以至	-9.28439
踈	-9.2845
憚	-9.2853
射	-9.28592
宸	-9.28636
旁	-9.28676
若干	-9.28685
數年	-9.28781
閩	-9.28796
創	-9.28836
陋	-9.2887
之家	-9.28877
探	-9.28928
奏摺	-9.28964
恥	-9.29003
不在	-9.29081
仲	-9.29117
丹	-9.2914
撫臣	-9.29177
閘	-9.29264
百官	-9.29467
不容	-9.2952
𤣥	-9.29523
秩	-9.29702
誘	-9.29783
階	-9.29784
之情	-9.30055
遣使	-9.30231
紹	-9.30315
得雨	-9.30384
知府	-9.30386
以爲	-9.30392
毫	-9.30402
山西	-9.30412
雅	-9.30463
頓	-9.30595
督臣	-9.30608
八十	-9.30791
太子	-9.30809
村	-9.30828
沮	-9.3093
臣恐	-9.30941
辱	-9.30993
南京	-9.31055
廉	-9.31068
為此	-9.31069
士大夫	-9.31315
蕭	-9.31323
一併	-9.31412
不如	-9.31445
單	-9.3162
又曰	-9.31647
斤	-9.31659
姓	-9.31721
憑	-9.31731
今年	-9.31737
封疆	-9.31815
閱	-9.31836
粮	-9.31846
憤	-9.31942
區區	-9.32036
瀆	-9.32095
祈	-9.3234
掠	-9.3245
無可	-9.3261
可否	-9.32685
戚	-9.327
輿	-9.3276
截	-9.32817
臣竊	-9.32852
刀	-9.32853
豪	-9.32885
通判	-9.33019
雷	-9.33022
奉聖㫖	-9.33055
友	-9.33087
諸路	-9.33172
皆有	-9.33178
為國	-9.33186
呉	-9.33247
十五	-9.33256
超	-9.33269
陣	-9.33333
屬員	-9.33335
静	-9.33412
瞻	-9.33479
醫	-9.33576
鮮	-9.3359
奉行	-9.33651
徇	-9.33664
查明	-9.33665
必須	-9.33687
惕	-9.33702
前日	-9.33749
漏	-9.33814
渉	-9.34095
嚴加	-9.34113
宗廟	-9.34181
判	-9.34188
筆	-9.34206
亷	-9.34314
謗	-9.34322
其心	-9.34323
溢	-9.34354
僃	-9.34361
之術	-9.34426
屏	-9.34656
地方官	-9.34841
逐一	-9.35099
留心	-9.35106
報稱	-9.3514
虎	-9.35155
日月	-9.352
縣知縣	-9.35209
之政	-9.3527
請㫖	-9.35314
孟	-9.35361
雪	-9.35385
叙	-9.35397
之職	-9.35438
之官	-9.35468
隻	-9.3562
儉	-9.35626
疲	-9.35662
子弟	-9.35805
則有	-9.36003
古者	-9.36069
湖廣	-9.3614
之下	-9.36193
花	-9.36258
並無	-9.36344
虜	-9.36362
哈	-9.36389
愆	-9.36507
通省	-9.366
鈔	-9.36648
矢	-9.36889
鍾	-9.36918
賀	-9.36979
井	-9.36983
秉	-9.37057
各該	-9.37121
矣然	-9.37239
各有	-9.37316
亦無	-9.37469
宴	-9.37546
之所以	-9.37592
状	-9.37772
潛	-9.3781
厭	-9.37846
直隸	-9.3791
檄	-9.37932
其罪	-9.37957
法度	-9.38032
牌	-9.38076
拔	-9.38104
之故	-9.38114
道路	-9.3813
慕	-9.38228
介	-9.38233
午	-9.38247
妻	-9.38299
潮	-9.38309
挑	-9.38327
恣	-9.3838
郡縣	-9.38413
恨	-9.38499
題請	-9.38514
窺	-9.38526
公議	-9.38531
所言	-9.38574
詔書	-9.38622
游	-9.38637
伏望聖慈	-9.38679
嫌	-9.38747
兩零	-9.38981
安危	-9.39084
秀	-9.3911
與之	-9.39156
水旱	-9.39196
原任	-9.39404
不免	-9.39424
數目	-9.39457
亦可	-9.39463
董	-9.39503
加意	-9.39534
曉諭	-9.39621
今日之	-9.39765
頻	-9.39842
冦	-9.39847
岳	-9.39863
不堪	-9.39904
以待	-9.39917
寅	-9.39933
父子	-9.39942
巴	-9.39955
齒	-9.39971
漫	-9.4001
𫝊	-9.40025
割	-9.40198
儻	-9.40275
遍	-9.40406
去後	-9.40432
有益	-9.40453
委員	-9.40489
社	-9.40515
斟酌	-9.40584
𠞰	-9.40585
逼	-9.40723
也若	-9.40759
六百	-9.40865
聖心	-9.40945
生事	-9.41023
㢘	-9.41116
古今	-9.41121
者不	-9.41301
戮	-9.41407
六年	-9.4146
欣	-9.41473
凡有	-9.41476
之本	-9.41524
對曰	-9.41528
孔子	-9.41561
遊擊	-9.41582
押	-9.41683
進退	-9.41689
人材	-9.41742
未免	-9.41815
㸃	-9.41865
堯舜	-9.41985
庻	-9.42049
認	-9.42131
悦	-9.42144
不肖	-9.42159
翼	-9.42163
捨	-9.4232
萬世	-9.42418
行事	-9.42449
不得不	-9.42603
沈	-9.42674
有功	-9.42811
雍正七年	-9.42856
宥	-9.42899
彊	-9.42922
陛下之	-9.42944
勉之	-9.43038
遵行	-9.43151
三司	-9.4335
伏望陛下	-9.43424
妨	-9.43523
值	-9.43526
駐劄	-9.43594
以謂	-9.43595
實心	-9.43769
束	-9.43792
答	-9.43797
帛	-9.44008
諒	-9.44012
聖徳	-9.44047
清查	-9.44049
田文鏡	-9.44084
矣臣	-9.4422
給事中	-9.44236
甚多	-9.4424
頑	-9.44295
在京	-9.44323
粤	-9.44346
植	-9.44398
則是	-9.44429
一路	-9.44602
笑	-9.44643
紛	-9.44696
人才	-9.44798
敦	-9.44804
蠻	-9.44824
迹	-9.44833
歩	-9.44878
不敷	-9.44927
糶	-9.45
魚	-9.45026
哨	-9.45089
撰	-9.45106
馭	-9.45114
事例	-9.4516
熈	-9.45181
千里	-9.4527
者則	-9.45505
甚屬	-9.45577
五千	-9.45659
抄	-9.45667
慢	-9.45704
事體	-9.45708
臣願陛下	-9.45734
雍正六年	-9.45739
譴	-9.45781
座	-9.45786
南北	-9.45822
僻	-9.45874
雍	-9.45891
祚	-9.45902
謙	-9.45928
𢎞治	-9.4593
祖宗之	-9.46169
館	-9.46212
奏曰	-9.46218
槩	-9.4627
拾	-9.46285
怠	-9.46375
蘭	-9.46398
年間	-9.46495
俱係	-9.46524
之盛	-9.46618
上天	-9.46636
聖意	-9.46654
紙	-9.46665
誦	-9.46719
於上	-9.4681
另行	-9.46845
估	-9.46847
竄	-9.46898
奬	-9.46986
逢	-9.46987
陜	-9.4703
自然	-9.47045
賈	-9.47122
弼	-9.47175
以及	-9.47191
屋	-9.47196
竭力	-9.47202
篤	-9.47299
効力	-9.47348
籌	-9.47387
之憂	-9.47491
措置	-9.47541
諱	-9.47681
襄	-9.47756
在外	-9.47829
側	-9.47857
州郡	-9.47954
得失	-9.47965
古人	-9.48075
臣下	-9.48128
乙	-9.48176
有以	-9.48177
鄂爾泰	-9.4818
契	-9.4819
雍正五年	-9.48224
晚	-9.48339
駐	-9.48382
豈有	-9.48391
貟	-9.48427
掩	-9.48427
胥	-9.48466
舎	-9.48497
淵	-9.48587
隄	-9.48587
佑	-9.48592
似此	-9.48606
畜	-9.48637
事理	-9.48646
緊要	-9.48705
各州縣	-9.48712
夙夜	-9.48806
為人	-9.4893
弛	-9.49026
淳	-9.49049
昧	-9.49181
覆奏	-9.4939
以聞	-9.49405
焚	-9.49479
枝	-9.49596
謨	-9.49855
寃	-9.49859
生民	-9.49895
歎	-9.50011
士卒	-9.50065
豆	-9.50167
昏	-9.50194
五六	-9.50257
逾	-9.50373
所宜	-9.50424
啟	-9.50496
見在	-9.50539
無窮	-9.50591
朕意	-9.50605
查勘	-9.50622
寧夏	-9.50668
銜	-9.5068
舞	-9.50708
蠲	-9.50716
控	-9.5084
十一	-9.50964
沛	-9.50985
冠	-9.51006
鎮守	-9.51032
尹	-9.51122
而又	-9.51126
勑	-9.51147
湏	-9.51215
搜	-9.51243
渡	-9.5134
議處	-9.51357
祿	-9.51378
蠧	-9.51453
仗	-9.51544
委任	-9.51574
又據	-9.51684
未盡	-9.51692
河道	-9.5172
虐	-9.51767
一一	-9.51773
任内	-9.52017
覩	-9.52069
血	-9.5211
敎	-9.52251
僉	-9.5226
九卿	-9.52306
伏望	-9.52316
従	-9.52318
艱難	-9.52384
匠	-9.52394
帖	-9.52404
是也	-9.52457
工部	-9.52472
大事	-9.52491
引見	-9.52523
可用	-9.52737
駭	-9.52737
未聞	-9.52747
之風	-9.52827
十三	-9.52865
鎭	-9.52895
頂	-9.53014
賠	-9.53018
之論	-9.53024
宗社	-9.53045
甘肅	-9.5309
十四	-9.53161
釁	-9.53192
禾	-9.53267
再行	-9.53359
本官	-9.53399
徧	-9.53473
迫	-9.5351
至于	-9.53522
閉	-9.53666
見其	-9.53802
寫	-9.53882
欽此欽遵	-9.53897
交與	-9.53914
不用	-9.53932
厰	-9.53975
所得	-9.54046
之說	-9.54142
訴	-9.54147
數十	-9.54156
恱	-9.54176
歡	-9.542
之重	-9.54251
之至意	-9.54258
八年	-9.54328
夕	-9.54366
靣	-9.54447
毒	-9.54481
伸	-9.54487
池	-9.5451
弁	-9.54535
悉心	-9.54617
訟	-9.54658
三代	-9.54743
前去	-9.5483
鴻	-9.54951
内地	-9.54985
猷	-9.54986
方今	-9.55007
沒	-9.55013
議論	-9.55029
紀綱	-9.55134
革職	-9.55141
歉	-9.55151
攸	-9.55184
渠	-9.5522
人皆	-9.55221
庇	-9.55267
貴州	-9.55479
頌	-9.55523
拏獲	-9.5561
人民	-9.55637
哲	-9.55686
舉行	-9.55708
伏念	-9.55773
宏	-9.55782
饑	-9.55857
廬	-9.55879
銓	-9.55885
之志	-9.55897
數百	-9.56212
旌	-9.56214
錄	-9.56216
帝王	-9.56229
公私	-9.56241
以前	-9.56241
浸	-9.56352
不等	-9.56386
溝	-9.56449
亮	-9.56477
事件	-9.56546
辯	-9.56563
聖諭	-9.56573
三省	-9.56582
扶	-9.56686
諭旨	-9.56743
不時	-9.5676
秉公	-9.56843
該管	-9.56847
者乎	-9.56872
健	-9.56874
往來	-9.56915
朕心	-9.56959
逺近	-9.5696
壅	-9.56992
歌	-9.57114
潔	-9.57181
塲	-9.57208
由是	-9.5724
妥	-9.57248
目前	-9.57292
聼	-9.57325
七八	-9.57343
談	-9.57379
所見	-9.57405
妃	-9.57463
元祐	-9.57514
捧	-9.57557
未可	-9.57628
聞之	-9.57755
樞	-9.57765
桑	-9.57768
揆	-9.57774
其實	-9.57948
藝	-9.58016
貶	-9.58031
貞	-9.58134
綏	-9.58164
東南	-9.58171
逮	-9.58185
矣今	-9.58291
弭	-9.58333
換	-9.58354
堵	-9.58387
之資	-9.58479
直𨽻	-9.58546
排	-9.5859
敢不	-9.58594
一案	-9.58855
骨	-9.58905
雍正四年	-9.58959
公曰	-9.59149
遵㫖	-9.59168
七百	-9.59193
九年	-9.59202
也又	-9.5922
匿	-9.59273
園	-9.59374
席	-9.59385
朋黨	-9.59475
朝夕	-9.59497
萌	-9.59522
營伍	-9.59601
飢	-9.59619
之説	-9.59661
賑濟	-9.59685
加以	-9.59761
綸	-9.59799
未經	-9.59818
酉	-9.5988
暗	-9.59923
鋒	-9.59982
治罪	-9.60062
諳	-9.60135
劄	-9.60159
朋	-9.60223
繕	-9.60253
彼此	-9.60497
彭	-9.60535
角	-9.60539
也且	-9.60577
蹈	-9.60628
生靈	-9.60694
被水	-9.60725
豫省	-9.60726
騰	-9.60734
遏	-9.60776
公事	-9.60789
潰	-9.60892
言事	-9.6092
畝	-9.60953
靜	-9.60971
十七	-9.61011
播	-9.61076
吏治	-9.61092
不言	-9.61125
鄰	-9.61191
鳯	-9.61223
太監	-9.6126
黄河	-9.61276
今之	-9.61318
實為	-9.6132
驟	-9.61321
知州	-9.61407
囚	-9.61451
康熙	-9.61485
若有	-9.6155
皇后	-9.61559
橋	-9.61582
緒	-9.61594
旦	-9.61719
黃	-9.61752
輪	-9.61813
書曰	-9.61839
貼	-9.61852
多寡	-9.61875
儆	-9.61885
至誠	-9.61909
府屬	-9.61965
二麥	-9.62021
設法	-9.62063
嘉靖	-9.62085
百餘	-9.62094
祐	-9.6211
環	-9.62127
域	-9.62196
含	-9.62268
不宜	-9.62298
隂陽	-9.62301
悞	-9.62332
淹	-9.62412
臺諫	-9.62516
未敢	-9.62539
挾	-9.62573
財用	-9.62607
之謀	-9.62626
官司	-9.62717
簿	-9.62725
至公	-9.6286
壞	-9.62861
葉	-9.62863
三四	-9.62867
將帥	-9.62973
處置	-9.63044
補授	-9.6305
現今	-9.63242
元昊	-9.63298
惟是	-9.63333
王者	-9.63364
成功	-9.63538
樹	-9.63544
巨	-9.63569
卜	-9.63584
鑄	-9.63585
之失	-9.63721
頼	-9.63797
上司	-9.63847
之變	-9.63867
朝廷之	-9.63874
踐	-9.6405
快	-9.64083
岸	-9.64239
宅	-9.64309
十六	-9.64322
褒	-9.6443
粗	-9.64435
惶	-9.64535
刺	-9.64537
去年	-9.64553
九十	-9.64563
而行	-9.64616
僚	-9.64649
纔	-9.64688
之才	-9.64892
臣伏見	-9.64909
贈	-9.64919
員缺	-9.64932
都督	-9.64963
兄弟	-9.65003
嚴飭	-9.65029
侍從	-9.6504
濬	-9.65056
者多	-9.65288
籌畫	-9.65333
鄧	-9.6543
冝	-9.65435
雨水	-9.65584
壽	-9.65623
黔	-9.65625
等事	-9.65814
徽	-9.65842
摺奏	-9.65872
天意	-9.65893
旅	-9.65998
雍正三年	-9.66017
公卿	-9.66044
人人	-9.66225
苛	-9.6623
肇	-9.66264
準	-9.66395
之責	-9.66427
牽	-9.66509
男	-9.66525
監察御史	-9.66595
谷	-9.6663
不相	-9.66681
雍正二年	-9.66736
國用	-9.66822
之上	-9.66997
上曰	-9.67016
年羮堯	-9.67042
溺	-9.67095
副將	-9.671
衆人	-9.67251
縣令	-9.67293
填	-9.67323
遇有	-9.6735
明堂	-9.67458
十九	-9.67487
稽查	-9.67498
陶	-9.67505
奏報	-9.67516
莫若	-9.67579
次第	-9.67589
赤	-9.67621
於民	-9.67778
稍有	-9.67806
而不能	-9.6786
本朝	-9.67898
閏	-9.67904
號令	-9.67943
兩省	-9.6798
之餘	-9.67981
本年	-9.6804
畆	-9.68095
倖	-9.681
幸甚	-9.68185
遼	-9.68205
丙	-9.68297
者十	-9.68301
竣	-9.68342
杖	-9.68364
䖏	-9.68367
耻	-9.68414
之衆	-9.68433
各營	-9.68482
初一日	-9.68483
悖	-9.6856
賄	-9.68587
燒	-9.68623
居官	-9.68646
不顧	-9.68671
給與	-9.68674
故也	-9.68833
攝	-9.68857
正徳	-9.68865
嶺	-9.6889
親王	-9.68923
何如	-9.68964
羊	-9.68987
之實	-9.6899
鐵	-9.69013
十五日	-9.69033
曰臣聞	-9.69036
熙	-9.69068
童	-9.69216
羽	-9.6923
僭	-9.6925
之䇿	-9.69313
衷	-9.69378
丘	-9.6941
爰	-9.69448
泛	-9.6945
饒	-9.69475
聖慈	-9.6952
餘兩	-9.69546
尉	-9.69711
僧	-9.69724
十餘	-9.69806
無異	-9.69811
何所	-9.69823
翰	-9.69854
天心	-9.69925
不問	-9.7008
聰	-9.70223
恒	-9.70228
加恩	-9.7026
定奪	-9.70301
十萬	-9.70323
丕	-9.70466
毛	-9.70511
證	-9.70538
仇	-9.70543
香	-9.70601
𤼵	-9.70602
夲	-9.70634
定例	-9.70687
隋	-9.7069
酬	-9.70753
墨	-9.70783
詣	-9.70794
四五	-9.70835
叨	-9.70858
兄	-9.70892
皇太后	-9.71004
省城	-9.7105
不得已	-9.71056
跪	-9.71146
情由	-9.71148
峻	-9.71175
𨽻	-9.71219
鄂	-9.71264
是時	-9.71286
前代	-9.7131
之路	-9.71394
僕	-9.71412
抱	-9.71422
大有	-9.71457
中原	-9.71478
混	-9.71513
所請	-9.71584
都察院	-9.71606
該督撫	-9.71617
灾	-9.7166
而天下	-9.71728
鳳	-9.71747
土司	-9.71751
淤	-9.71754
紅	-9.71777
根本	-9.71822
步	-9.71824
汗	-9.71878
災異	-9.71962
郎中	-9.71968
七年	-9.71991
宗室	-9.71999
苑	-9.72017
碩	-9.72067
可知	-9.72069
起程	-9.7214
看得	-9.72189
府知府	-9.72201
雇	-9.72297
侮	-9.72338
據實奏聞	-9.72429
有不	-9.72439
劣	-9.72448
把	-9.72451
敝	-9.72453
塗	-9.7247
天下幸甚	-9.72516
墾	-9.72539
誕	-9.72545
睿鑒	-9.72547
葬	-9.72589
舊例	-9.72657
隣	-9.72658
互相	-9.72659
水勢	-9.72698
印務	-9.727
麟	-9.72791
管理	-9.72934
謁	-9.72965
馮	-9.72977
就近	-9.73007
近者	-9.73008
庚	-9.73024
遞	-9.73028
其意	-9.73046
安石	-9.73054
國家之	-9.73167
按察使	-9.73168
齋	-9.7322
十三日	-9.73362
佛	-9.73369
遜	-9.73406
贊	-9.73433
遁	-9.73498
二十日	-9.73564
不惟	-9.73573
一道	-9.73688
悍	-9.7378
盡心	-9.7379
晏	-9.73809
今嵗	-9.73829
懿	-9.73891
有無	-9.73934
衛所	-9.74002
大將軍	-9.74074
今陛下	-9.74083
兵民	-9.74111
直言	-9.7416
約束	-9.74162
立法	-9.74304
讎	-9.74333
先後	-9.74404
壬	-9.74483
差遣	-9.74511
之𩔖	-9.74564
軍需	-9.74654
也而	-9.7476
戊	-9.74862
洛	-9.74868
附近	-9.74895
之徳	-9.74979
軰	-9.74982
漲	-9.75026
間有	-9.75055
不法	-9.75062
遐	-9.75189
千餘	-9.75224
競	-9.75233
平日	-9.75242
贖	-9.75251
箇	-9.75317
觀之	-9.75337
測	-9.75369
此乃	-9.75396
而巳	-9.75416
之誠	-9.75418
舊制	-9.75436
飲	-9.75444
務期	-9.75533
使人	-9.75552
事竊照	-9.75573
珠	-9.75604
自有	-9.75617
㫁	-9.75636
軍士	-9.75696
轉運使	-9.75711
羌	-9.75719
弓	-9.75823
惰	-9.75876
海内	-9.7588
由此	-9.75951
故曰	-9.75956
洽	-9.75998
之物	-9.75998
於天下	-9.7605
照舊	-9.76084
未甞	-9.76128
軌	-9.76139
之議	-9.76221
懈	-9.76263
以資	-9.76297
伏見	-9.76311
天之	-9.76369
萬兩	-9.76504
可行	-9.76526
誡	-9.76542
宦	-9.7658
飬	-9.76595
衙	-9.76596
斛	-9.76607
僥倖	-9.76705
兵備	-9.76743
再三	-9.76796
不加	-9.76881
洩	-9.76917
台	-9.76921
崔	-9.7693
潤	-9.76946
如果	-9.76965
其勢	-9.76974
傑	-9.76974
轍	-9.76981
没	-9.76992
彈	-9.7712
愛民	-9.77148
禁止	-9.7717
上年	-9.77219
豈能	-9.77234
文王	-9.77244
互	-9.77271
取之	-9.77319
姓名	-9.77345
言路	-9.77371
裏	-9.77373
卓	-9.77384
仍令	-9.77428
而行之	-9.77439
百萬	-9.7744
深入	-9.77511
未及	-9.77522
十餘年	-9.77527
特賜	-9.77559
者即	-9.77615
之君	-9.7765
以成	-9.77738
駁	-9.77903
偷	-9.77984
臣謂	-9.78092
上帝	-9.78152
科道	-9.782
憫	-9.78209
陳奏	-9.78241
聰明	-9.78274
周公	-9.78293
以便	-9.78298
拱	-9.78351
庶㡬	-9.78473
譏	-9.78497
湖北	-9.78524
死者	-9.78639
狼	-9.78786
其有	-9.78801
盟	-9.78861
而不知	-9.78957
潘	-9.79005
沐	-9.79018
幼	-9.79034
浦	-9.79103
勦	-9.79185
等日	-9.794
桂	-9.79592
之私	-9.7965
非所以	-9.79654
諫官	-9.79722
其弊	-9.79728
祇	-9.79756
塵	-9.79758
懦	-9.79786
此項	-9.79801
是故	-9.79827
髙祖	-9.79841
刦	-9.79849
河工	-9.79898
治道	-9.79969
讓	-9.80012
一言	-9.80103
披	-9.80149
詰	-9.80178
未完	-9.80195
不欲	-9.8023
壇	-9.80324
俱各	-9.8033
矣而	-9.80333
舉人	-9.80347
最為	-9.80372
内閣	-9.80411
會同	-9.80457
戸部	-9.8047
也昔	-9.80554
浩	-9.80581
廢弛	-9.80611
誨	-9.80646
實在	-9.80653
畨	-9.80739
條奏	-9.80806
未見	-9.80872
廹	-9.80875
詭	-9.80886
法令	-9.81007
西北	-9.81011
茍且	-9.81047
守令	-9.81102
夾	-9.81152
諸州	-9.81283
府州縣	-9.81299
千總	-9.81354
十九日	-9.81417
豈非	-9.81441
之禍	-9.81589
之氣	-9.81677
之要	-9.81743
裴	-9.81833
再加	-9.81881
有罪	-9.81925
賞給	-9.81929
東西	-9.81929
至此	-9.81987
大體	-9.82019
隘	-9.82071
之主	-9.82071
十六日	-9.82089
器械	-9.82175
闢	-9.82186
浚	-9.82242
具摺	-9.82266
篇	-9.82332
初六日	-9.82366
俞	-9.82404
㕔	-9.82509
門下	-9.82537
不易	-9.82563
太常	-9.82704
雨澤	-9.82752
緣由	-9.82807
套	-9.82855
嚴行	-9.82922
而下	-9.83051
得其人	-9.83113
斃	-9.83144
不但	-9.83149
八九	-9.83188
十二日	-9.83188
誓	-9.83204
膏	-9.83253
禆	-9.83297
操守	-9.83343
天地之	-9.83351
先朝	-9.83434
侈	-9.83482
知所	-9.83543
之害	-9.83581
舒	-9.83624
第一	-9.83633
嗟	-9.83652
覈	-9.83747
今若	-9.83774
為害	-9.83774
之語	-9.83841
之美	-9.83864
奈何	-9.83896
議奏	-9.83897
二十六日	-9.83994
軫念	-9.83999
霑足	-9.84114
按察司	-9.84169
幫	-9.84277
商酌	-9.84299
十八日	-9.84305
防守	-9.84305
臣嘗	-9.8432
修理	-9.84321
之典	-9.84422
若此	-9.84495
猛	-9.84497
太后	-9.84515
訪聞	-9.84538
亥	-9.84556
治之	-9.84567
蠲免	-9.84637
岳鍾琪	-9.84701
皆以	-9.84728
八分	-9.84747
四夷	-9.84747
原係	-9.84776
松	-9.84781
鑿	-9.84783
聖㫖	-9.84797
實有	-9.84823
以求	-9.84839
盡行	-9.84865
職事	-9.84874
寶	-9.84885
欲以	-9.84902
屯田	-9.84927
起居	-9.84933
二十二日	-9.84949
所能	-9.85084
論列	-9.85084
萬里	-9.85086
觀其	-9.85159
治亂	-9.85161
者又	-9.85217
有一	-9.85268
戾	-9.8529
欽奉	-9.85322
綿	-9.85345
水師	-9.8548
之子	-9.85522
二府	-9.85527
先王	-9.85531
拯	-9.85532
不聞	-9.85533
百里	-9.85573
者非	-9.85601
可得	-9.85646
上奏曰臣	-9.85651
向來	-9.85703
東省	-9.85771
於前	-9.85817
奴	-9.85881
亦未	-9.85921
此其	-9.85961
一名	-9.85964
可為	-9.85987
誼	-9.86004
業經	-9.86092
誠恐	-9.86144
撓	-9.86159
起至	-9.86165
各員	-9.86194
八旗	-9.8622
指示	-9.86238
祝	-9.86244
其地	-9.86308
察其	-9.86317
又復	-9.86319
船隻	-9.86321
忱	-9.86348
訓練	-9.86357
初二日	-9.86358
其身	-9.86381
盧	-9.8642
欲乞	-9.8644
幣	-9.86478
墓	-9.86486
分數	-9.86496
製	-9.86517
自當	-9.8655
可不	-9.86585
有可	-9.86716
事竊查	-9.8672
上言	-9.86784
諸軍	-9.86788
棍	-9.86806
不一	-9.86835
减	-9.86838
揀選	-9.86848
隅	-9.86862
礮	-9.86894
降㫖	-9.8695
近年	-9.86954
揭	-9.86983
逞	-9.8706
矯	-9.87065
垣	-9.87228
二十四日	-9.8724
都司	-9.87247
泣	-9.87337
部議	-9.87339
板	-9.87482
未知	-9.87487
也其	-9.87538
坊	-9.87626
各項	-9.87673
之力	-9.87713
九分	-9.87736
繩	-9.87784
開元	-9.87901
肥	-9.87925
癸	-9.87999
將士	-9.88003
閑	-9.88092
經理	-9.88096
犬馬	-9.88098
西安	-9.88105
以自	-9.88197
贍	-9.88216
抽	-9.88222
貲	-9.88239
六七	-9.88252
常平	-9.88356
暨	-9.88358
防禦	-9.88418
攘	-9.88443
疊	-9.88485
司道	-9.88536
罕	-9.88544
姑息	-9.88641
聖鑒	-9.88708
脅	-9.88719
無一	-9.88836
鳴	-9.88842
臣寮	-9.88883
之治	-9.88992
初三日	-9.88993
前任	-9.89018
必欲	-9.89108
從之	-9.89141
狡	-9.89146
而欲	-9.89152
則必	-9.89199
置之	-9.89207
諡	-9.89219
縁由	-9.89231
伏惟	-9.8929
内開	-9.89297
終身	-9.8939
肉	-9.8946
袁	-9.89465
動用	-9.89465
年正月	-9.89477
自今	-9.89496
而去	-9.89515
礙	-9.89602
臣子	-9.89643
雍正元年	-9.89676
臺灣	-9.89725
漢唐	-9.89762
不暇	-9.89799
津	-9.8981
真宗	-9.89834
可見	-9.89844
二十一日	-9.89932
亦當	-9.89949
責成	-9.90067
矣夫	-9.90074
州刺史	-9.901
一兩	-9.90204
而不可	-9.90205
墩	-9.90341
數月	-9.90351
此奏	-9.90361
應行	-9.90363
汪	-9.90376
多有	-9.90395
正在	-9.9044
運河	-9.90441
此時	-9.90529
誥	-9.90532
齡	-9.90556
不出	-9.90581
禮樂	-9.90599
保甲	-9.90601
到日	-9.90613
為民	-9.90615
初四日	-9.9066
牒	-9.90703
差人	-9.90708
妖	-9.90708
題㕘	-9.90796
已有	-9.90816
所司	-9.9088
所用	-9.91017
辜	-9.91093
萬石	-9.91118
或以	-9.91136
泥	-9.91158
銳	-9.91251
髙宗	-9.91269
竊見	-9.91351
閭	-9.91373
神宗	-9.91392
用心	-9.91449
於下	-9.91563
司馬光	-9.91581
惟恐	-9.91649
臣不勝	-9.91683
殺人	-9.91723
三分	-9.91754
大抵	-9.91788
擁	-9.91819
公同	-9.91848
九百	-9.91871
荘	-9.91911
讒	-9.92
謹奏為奏聞事竊	-9.92043
什	-9.92125
嵩	-9.92158
而不敢	-9.92167
六千	-9.92168
重任	-9.92212
尾	-9.92216
之期	-9.92237
坤	-9.92254
奢	-9.92286
喻	-9.923
數千	-9.92349
不安	-9.92373
典禮	-9.92375
絲	-9.92401
二十五日	-9.92414
統領	-9.9245
償	-9.92491
先行	-9.92517
一萬	-9.9254
劄子	-9.92557
以安	-9.92565
夥	-9.92574
其職	-9.92629
䑓	-9.92684
不見	-9.92691
作何	-9.92705
漳	-9.92708
一應	-9.92714
日期	-9.92735
倡	-9.92753
歛	-9.92757
和氣	-9.92759
行令	-9.92762
萬物	-9.92801
臣僚	-9.9281
博士	-9.92828
將此	-9.92848
差官	-9.92865
初八日	-9.9287
刼	-9.92902
沿	-9.92944
二十八日	-9.92971
初十日	-9.93
成化	-9.93014
帶領	-9.9308
筭	-9.93116
知道了	-9.93134
曰朕	-9.93165
錦	-9.93302
提舉	-9.93309
供職	-9.93377
竹	-9.93397
邪正	-9.93446
恭謝天恩	-9.93505
保全	-9.93508
都指揮	-9.9351
衍	-9.93574
怪	-9.93608
脚	-9.93653
移咨	-9.93703
不應	-9.93713
之福	-9.93728
大計	-9.9376
札	-9.93786
採買	-9.93812
孟子	-9.93988
大兵	-9.93991
丞相	-9.94008
必不	-9.94063
二萬	-9.94097
添設	-9.94112
明詔	-9.94123
不若	-9.94211
因而	-9.94234
麗	-9.94325
十七日	-9.94339
腹心	-9.94376
不止	-9.94441
老成	-9.94501
膽	-9.94543
法司	-9.94549
分守	-9.94574
今據	-9.94591
凉	-9.94645
閩省	-9.94647
憐	-9.94722
修築	-9.94788
造冊	-9.94832
過於	-9.94849
賛	-9.94863
劇	-9.94873
來京	-9.94885
諸司	-9.94909
委官	-9.9492
仰體	-9.9494
家口	-9.94994
朽	-9.95048
公論	-9.95128
悃	-9.95138
脱	-9.95167
受其	-9.9524
聽其	-9.95414
之命	-9.95463
輯	-9.95489
戲	-9.95496
之吏	-9.95524
為國家	-9.95565
漕運	-9.95588
揑	-9.95664
孚	-9.95671
擢用	-9.95713
動支	-9.95715
以濟	-9.9574
公主	-9.95773
伏思	-9.95774
及其	-9.95844
中間	-9.95859
節度	-9.95875
不忘	-9.95911
濶	-9.96028
㧞	-9.96031
矣此	-9.96053
而用之	-9.96066
以圖	-9.96084
畀	-9.9616
阜	-9.96325
脫	-9.96347
諸道	-9.96372
它	-9.96408
竊惟	-9.96426
日久	-9.96482
逋	-9.96512
涼	-9.96524
武帝	-9.96653
大吏	-9.96677
冐	-9.96688
事情	-9.96705
太皇太后	-9.96722
噐	-9.96846
不盡	-9.96855
忿	-9.96892
御史中丞	-9.96898
安民	-9.96918
毋得	-9.96942
聖人之	-9.97018
此二	-9.97018
不與	-9.97022
苟	-9.97049
姚	-9.97178
突	-9.97182
叩	-9.97274
一摺	-9.97284
天下之人	-9.97306
毫無	-9.97313
為一	-9.97318
免其	-9.97336
亭	-9.97339
遥	-9.97344
何也	-9.97449
者或	-9.97458
俱有	-9.97465
稟	-9.97469
整飭	-9.97517
查照	-9.97555
相度	-9.97558
之前	-9.97562
未得	-9.97576
臣竊以	-9.97579
分不等	-9.97618
㕘將	-9.97621
䖍	-9.9764
謹奏覽	-9.97686
每石	-9.97706
文字	-9.97747
嵗月	-9.97752
於本年	-9.97762
設立	-9.97823
不下	-9.97824
照依	-9.97832
迨	-9.97845
之虞	-9.97845
迂	-9.97888
之役	-9.97907
愼	-9.97919
概	-9.97954
技	-9.98001
有言	-9.98131
不幸	-9.98147
段	-9.98186
猶有	-9.98197
黒	-9.98204
潜	-9.98224
從而	-9.98273
從事	-9.98316
窩	-9.98471
藩司	-9.98487
使臣	-9.98505
薪	-9.98537
泗	-9.9855
鋭	-9.9856
近臣	-9.98579
聖祖仁皇帝	-9.986
樞宻	-9.98612
京城	-9.98641
做	-9.98648
珍	-9.98698
獸	-9.98707
洗	-9.98717
者盖	-9.98726
其才	-9.98773
制度	-9.98774
重大	-9.98796
本月	-9.98813
則天下	-9.98813
無虞	-9.9888
𣙜	-9.98936
惻	-9.9899
行文	-9.99002
皆得	-9.99013
留意	-9.99126
知人	-9.99231
支給	-9.9925
何敢	-9.99256
謝恩	-9.99303
查出	-9.99305
牆	-9.99392
掃	-9.99404
前奏	-9.9944
拉	-9.99475
波	-9.99509
尤為	-9.99517
使其	-9.99543
不待	-9.99578
同心	-9.996
桓	-9.99619
際	-9.99632
確查	-9.99685
果能	-9.9973
停止	-9.99743
嚮	-9.99761
彚	-9.99806
㑹議	-9.9983
自應	-9.99853
之權	-9.99896
府屬之	-9.99922
滿洲	-10
英宗	-10.0002
赫	-10.0009
紫	-10.0019
壤	-10.002
刺史	-10.0023
形勢	-10.0029
臣請	-10.0032
不善	-10.004
不識	-10.0041
甸	-10.0042
賢否	-10.0045
二十七日	-10.0051
所致	-10.0053
壘	-10.0061
民心	-10.0061
一節	-10.0068
闈	-10.0068
榜	-10.0073
長吏	-10.0076
至意	-10.0084
薊	-10.0085
蔣	-10.0086
廪	-10.0093
價銀	-10.0096
反覆	-10.0101
樁	-10.0105
聞奏	-10.0108
不失	-10.0113
進呈	-10.0115
如故	-10.0115
所知	-10.0117
並不	-10.0122
多方	-10.0123
大同	-10.0127
田地	-10.013
此則	-10.0134
揺	-10.0142
巖	-10.0146
溪	-10.0147
一月	-10.0149
臂	-10.0149
之效	-10.0151
樞宻院	-10.0152
岀	-10.0167
郡守	-10.0169
㳺	-10.0169
衣食	-10.0171
居民	-10.0174
鞏	-10.0176
将軍	-10.0178
樓	-10.0183
自此	-10.0191
員名	-10.0195
歴年	-10.0196
緫	-10.0201
不通	-10.0204
司庫	-10.0206
三人	-10.0211
安撫	-10.0213
巡按	-10.0214
難於	-10.0216
之項	-10.022
何必	-10.022
翰林學士	-10.0221
受命	-10.0225
其他	-10.0237
妻子	-10.0247
刷	-10.0247
奠	-10.0248
姪	-10.0248
僉事	-10.025
土兵	-10.0251
余	-10.0252
郡王	-10.0261
堰	-10.0262
案内	-10.0263
牙	-10.0268
之使	-10.0269
冕	-10.0284
塩	-10.0285
題報	-10.0286
愚昧	-10.0287
逓	-10.0306
裔	-10.0308
待罪	-10.0309
自行	-10.0311
有㫖	-10.0315
猥	-10.0322
民情	-10.0325
碑	-10.0327
又聞	-10.033
䘏	-10.0338
逆賊	-10.034
無知	-10.034
人户	-10.0347
商人	-10.035
絲毫	-10.0356
轉運	-10.0361
日夜	-10.0361
寘	-10.0362
果有	-10.037
出身	-10.0374
賢者	-10.0383
汚	-10.0393
皇太子	-10.0396
數日	-10.0398
窮民	-10.0406
冒昧	-10.0409
有此	-10.0414
朕之	-10.0423
見於	-10.0425
相與	-10.0426
先年	-10.0434
忠義	-10.0435
二員	-10.0437
都統	-10.0439
稱職	-10.0442
臣竊見	-10.0442
想	-10.0444
而陛下	-10.0453
澄	-10.0457
既有	-10.0457
輝	-10.0458
何人	-10.0461
選擇	-10.0461
奏聞謹奏	-10.0467
隴	-10.0467
皆由	-10.0472
墊	-10.0475
調補	-10.0482
一方	-10.0485
壹	-10.0488
豐收	-10.0498
紛紛	-10.0502
用度	-10.0503
情願	-10.0504
人主之	-10.0505
因其	-10.0506
埽	-10.0509
格外	-10.051
堤工	-10.0515
毅	-10.0516
伏祈	-10.0517
不思	-10.0519
緊	-10.052
養廉	-10.0521
群	-10.0524
廟堂	-10.0528
天命	-10.053
未便	-10.0539
天威	-10.054
司馬	-10.0548
謹按	-10.0549
睦	-10.0551
軍務	-10.0552
不已	-10.0554
之機	-10.0555
隳	-10.0557
臣雖	-10.0557
具摺奏聞	-10.0557
腹	-10.0558
治天下	-10.0562
三萬	-10.0567
乂	-10.057
帳	-10.0572
勤勞	-10.0576
交代	-10.0581
取其	-10.0581
數人	-10.0581
十里	-10.0582
四千	-10.0583
倭	-10.0584
卯	-10.0585
罹	-10.0586
圖報	-10.0588
繕摺	-10.06
距	-10.0608
賔	-10.0611
既已	-10.0615
天下之事	-10.062
必先	-10.0622
七千	-10.0622
巳經	-10.0628
之明	-10.063
學校	-10.0633
怯	-10.0636
於外	-10.0637
則曰	-10.0638
遵照	-10.0641
網	-10.0644
耀	-10.0646
二十九日	-10.0646
荅	-10.0646
未至	-10.0648
不知其	-10.065
不明	-10.0655
亦難	-10.0659
鉅	-10.0664
涉	-10.0664
於萬一	-10.0679
相繼	-10.068
恊	-10.0681
伏乞皇上	-10.0686
此案	-10.0689
金人	-10.0693
臣以為	-10.0696
在上	-10.07
因此	-10.07
七分	-10.0701
諸將	-10.0704
剥	-10.0704
不自	-10.0706
暢	-10.0708
之曰	-10.0716
壁	-10.0726
未嘗不	-10.073
再查	-10.0733
依舊	-10.0735
人言	-10.0735
弄	-10.0739
平糶	-10.0754
皮	-10.0755
不無	-10.0756
踵	-10.0757
蒼	-10.076
殫	-10.0762
耗羡	-10.0764
詳報	-10.0765
恪	-10.0765
貞觀	-10.0767
固原	-10.077
佐領	-10.0771
有裨益	-10.0773
各府	-10.0777
以慰	-10.0781
治平	-10.0786
奏事	-10.0789
柱	-10.0795
偉	-10.0798
事有	-10.0806
務令	-10.081
元豐	-10.0811
愁	-10.0816
浪	-10.0826
膳	-10.083
盛徳	-10.0832
㨗	-10.0832
暮	-10.0833
延綏	-10.0837
州軍	-10.0843
畿	-10.0843
無過	-10.0845
臻	-10.0847
伺	-10.0852
務使	-10.0855
之舉	-10.0861
中興	-10.0872
陛見	-10.0878
初九日	-10.0881
失所	-10.0883
吐	-10.0887
炎	-10.0891
上諭大學士等曰	-10.0891
裝	-10.0902
壓	-10.0904
賢能	-10.0907
付之	-10.0909
霑	-10.0911
聖賢	-10.0911
宼	-10.0912
臣言	-10.0914
之難	-10.0916
㸔	-10.0917
使天下	-10.0917
降指揮	-10.092
韋	-10.0922
霜	-10.0926
他日	-10.0928
不可勝	-10.0939
雖然	-10.0939
裨	-10.094
凌	-10.0941
上書	-10.0942
大義	-10.0946
䝉古	-10.0947
復有	-10.0953
闗係	-10.0955
無有	-10.0957
匡	-10.0959
一身	-10.0963
俞允	-10.0963
於人	-10.0966
周詳	-10.0966
差役	-10.0968
無他	-10.0972
姦邪	-10.0973
沿途	-10.0974
刑名	-10.0977
之念	-10.0977
淮南	-10.0984
思之	-10.0987
從容	-10.0995
本路	-10.1
㒺	-10.1
隊	-10.1005
䝉聖恩	-10.101
雍正八年	-10.1011
節省	-10.1011
妥協	-10.1018
致仕	-10.1023
趣	-10.1024
先生	-10.1027
輔臣	-10.1042
敵衆	-10.1043
匈奴	-10.1047
生員	-10.1049
之師	-10.1053
灼	-10.1055
伏查	-10.1057
霸	-10.1063
照數	-10.1066
八百	-10.1066
判官	-10.1068
土官	-10.107
而未	-10.1071
矣陛下	-10.1072
止於	-10.1075
太學	-10.1077
匱	-10.108
莭	-10.1081
水利	-10.1085
五分	-10.109
飯	-10.1091
染	-10.1091
燭	-10.1095
唐太宗	-10.1095
勢必	-10.1099
外所有	-10.11
新任	-10.1101
得之	-10.1105
不能自	-10.1106
戀	-10.111
太廟	-10.1118
賚	-10.1125
帝王之	-10.1127
寖	-10.1134
伏惟陛下	-10.1147
囬	-10.1149
曰吾	-10.1153
一分	-10.1157
本省	-10.1158
元元	-10.1159
之苦	-10.1159
公用	-10.1164
彼處	-10.1171
牲	-10.1177
更有	-10.118
範	-10.1182
撤	-10.1185
踴躍	-10.1187
爽	-10.1189
斌	-10.1189
狹	-10.1194
江淮	-10.1194
尚可	-10.1196
滇	-10.1197
畫一	-10.1198
務要	-10.1199
恭請	-10.1201
着	-10.1207
失其	-10.1207
無遺	-10.1217
丑	-10.1221
厪	-10.1221
數萬	-10.1225
任事	-10.1226
股肱	-10.1231
人馬	-10.1232
光武	-10.1233
擇其	-10.1237
猶未	-10.1238
方可	-10.1242
刁	-10.1244
低	-10.1245
任使	-10.1248
事君	-10.125
得雪	-10.125
徹	-10.1252
之業	-10.1257
硃批諭㫖巻	-10.1263
騐	-10.1263
竊以	-10.1264
觸	-10.1271
敬謹	-10.1272
精神	-10.128
不從	-10.1282
猾	-10.1286
幕	-10.1289
鎗	-10.129
節度使	-10.1291
士民	-10.1296
以正	-10.1296
欽差	-10.1298
該縣	-10.1309
管轄	-10.131
彼時	-10.131
亦必	-10.1312
之始	-10.1317
一項	-10.1318
存留	-10.132
之戒	-10.1325
學者	-10.1329
彬	-10.1329
自知	-10.1336
劄子曰臣	-10.1337
其本	-10.1345
威福	-10.1346
整理	-10.135
合併	-10.1352
在乎	-10.1356
三日	-10.1359
國體	-10.136
從來	-10.136
其家	-10.1364
下情	-10.1369
倦	-10.1373
駐防	-10.1379
喇	-10.1381
閭閻	-10.1382
纂	-10.1384
未有不	-10.1384
彈壓	-10.1384
韶	-10.1385
仍照	-10.1389
皇恩	-10.1405
亦皆	-10.1415
人事	-10.1421
李衞	-10.1425
邵	-10.1426
不獲	-10.1427
人犯	-10.143
文帝	-10.1433
歸於	-10.1433
不少	-10.1435
止有	-10.1435
亦非	-10.144
無庸	-10.1446
伏以	-10.1446
絹	-10.1449
一也	-10.1459
摘	-10.1466
竊聞	-10.1478
臨御	-10.1483
坦	-10.1486
麻	-10.1487
紳	-10.1488
鑑	-10.1489
兩府	-10.1491
去處	-10.1497
同日又奏為奏聞事竊	-10.15
溥	-10.1504
疇	-10.1504
著將	-10.1505
較之	-10.151
天道	-10.1511
牢	-10.1513
款	-10.152
狥	-10.152
儘	-10.152
商賈	-10.1524
富貴	-10.1524
揣	-10.1527
鳥	-10.1527
為患	-10.1529
仰報	-10.1531
國公	-10.1532
禮義	-10.1534
闊	-10.1534
今天下	-10.1536
所欲	-10.1537
𣲖	-10.1538
軫	-10.1539
朕所	-10.1539
帯	-10.1543
淫	-10.1545
奚	-10.1549
仰祈睿鑒事竊	-10.1563
巢	-10.1565
宣諭	-10.1571
摧	-10.1571
其害	-10.1573
甚為	-10.158
孽	-10.1585
忝	-10.1587
相機	-10.1588
太平之	-10.1589
飭令	-10.159
聖祖	-10.1591
不避	-10.1597
深知	-10.1602
周禮	-10.1604
揀	-10.1605
恬	-10.1606
講求	-10.1608
凖	-10.1611
必能	-10.1611
眞	-10.1612
卿等	-10.1612
在位	-10.1616
刑罰	-10.1617
愛惜	-10.1618
訓誨	-10.1622
具疏	-10.1624
豈無	-10.1625
貝勒	-10.1626
力行	-10.1632
前事	-10.1632
必得	-10.1637
傳曰	-10.1638
礦	-10.1643
必致	-10.1645
恭繳	-10.1647
者矣	-10.1651
今乃	-10.1658
及至	-10.166
騾	-10.1661
毆	-10.1665
相同	-10.1674
聖朝	-10.1676
更不	-10.1676
壮	-10.1691
先王之	-10.1691
以防	-10.1695
目下	-10.1698
返	-10.1704
浙省	-10.1704
酷	-10.1707
者乃	-10.1708
黜陟	-10.171
陛下以	-10.1715
本州	-10.1716
責之	-10.1718
自是	-10.1719
隨即	-10.172
而民	-10.1729
數多	-10.1729
准其	-10.1733
觀望	-10.1735
稔	-10.174
等因到	-10.1747
有過	-10.1747
偹	-10.175
縮	-10.175
一次	-10.1754
何謂	-10.1759
前因	-10.1762
易於	-10.1763
迷	-10.177
太原	-10.1775
無由	-10.1777
孔子曰	-10.1779
自新	-10.179
廩	-10.1791
扼	-10.1797
題補	-10.1798
始終	-10.1806
而能	-10.181
臣竊惟	-10.1812
朴	-10.1812
絳	-10.1817
執事	-10.1822
隆恩	-10.1829
天人	-10.1829
紊	-10.1832
戢	-10.1832
沿海	-10.1839
莫如	-10.1844
尤甚	-10.1848
盗賊	-10.1849
或因	-10.1851
無復	-10.1853
綱紀	-10.1854
而言	-10.1854
固已	-10.1858
欲望	-10.1859
天津	-10.1868
沾	-10.1868
考試	-10.1871
關係	-10.1872
版	-10.1873
汰	-10.1873
上奏曰臣聞	-10.1873
之水	-10.1875
薦舉	-10.1877
雖欲	-10.1878
部院	-10.1879
夙	-10.1889
除授	-10.189
醜	-10.1893
順天	-10.1906
地震	-10.1906
讀書	-10.1908
晴	-10.1908
懋	-10.1911
掣	-10.1912
為大	-10.1912
何由	-10.1912
各衙門	-10.1913
萬餘	-10.1917
奉旨	-10.1925
上時	-10.193
仁義	-10.193
百年	-10.1933
甄	-10.1933
該本部	-10.1934
墻	-10.1935
為先	-10.1939
渥	-10.1951
非有	-10.1953
而復	-10.1954
剰	-10.1955
繕摺奏聞	-10.1956
俱已	-10.1956
所為	-10.1957
逰	-10.196
之文	-10.1962
炳	-10.197
邸	-10.1974
讐	-10.1975
寓	-10.1977
情節	-10.1982
伏讀	-10.1983
求治	-10.1987
詔㫖	-10.1995
票	-10.1996
閫	-10.2001
今又	-10.2002
山川	-10.2004
十四日	-10.2008
上時為	-10.2011
蹟	-10.2012
聦明	-10.2015
柴	-10.2018
買補	-10.2019
賂	-10.2025
之勞	-10.2026
二十餘	-10.2032
培	-10.2032
教化	-10.2032
行走	-10.2033
悚	-10.2033
朕躬	-10.2034
沽	-10.2035
拆	-10.2036
米石	-10.2036
神明	-10.2047
等衙門	-10.2049
田禾	-10.2051
戈	-10.2057
訪察	-10.2058
節次	-10.2061
又論	-10.2061
應否	-10.2061
調度	-10.2063
千户	-10.2063
祫	-10.2072
支用	-10.2074
者並	-10.2079
陪	-10.2079
蘓	-10.208
吴	-10.2087
耕種	-10.2089
成王	-10.2099
髙下	-10.21
軍馬	-10.21
耆	-10.2104
秋成	-10.2111
萬全	-10.2111
稻	-10.2115
這	-10.212
遵守	-10.212
所陳	-10.2121
句	-10.2122
飽	-10.2125
又何	-10.2127
窘	-10.2127
嘆	-10.2131
初七日	-10.2137
聲明	-10.2141
平時	-10.2142
軍人	-10.2142
之方	-10.2144
轉行	-10.2144
攬	-10.2145
赤子	-10.2147
徼	-10.2147
活	-10.2147
不疑	-10.2149
倘有	-10.2149
遵奉	-10.2149
銀一萬	-10.215
修省	-10.2151
所聞	-10.2167
外其餘	-10.2171
陛	-10.2172
迭	-10.2172
負朕	-10.2178
此數	-10.218
桃	-10.2184
人數	-10.2185
居心	-10.2187
必無	-10.2188
莫敢	-10.219
州知州	-10.2198
瓊	-10.2209
在官	-10.2214
此外	-10.2217
急務	-10.2219
申明	-10.2221
之望	-10.2224
十四年	-10.2232
龜	-10.2234
伏乞皇上睿鑒謹奏	-10.2242
戌	-10.2246
上言曰	-10.2252
駮	-10.2253
有限	-10.2256
嗚呼	-10.2257
當此	-10.2262
尼	-10.2274
仙	-10.2276
托	-10.2277
䟽曰臣	-10.2278
蘇州	-10.2289
雲貴	-10.2291
茅	-10.2299
定議	-10.2308
其利	-10.231
無功	-10.2312
弁兵	-10.2313
房屋	-10.2315
直省	-10.2318
𦂳要	-10.2319
不獨	-10.2321
民人	-10.2328
三路	-10.2335
哭	-10.2341
價值	-10.2341
荷䝉	-10.2342
等各	-10.2349
國朝	-10.2349
跪讀之下	-10.235
一曰	-10.2353
敘	-10.2354
公費	-10.2354
接濟	-10.2355
磨	-10.2362
鞭	-10.2363
降諭㫖	-10.2366
汝等	-10.2367
者雖	-10.2367
無人	-10.2369
惇	-10.2378
督率	-10.238
洎	-10.2381
目今	-10.2382
妙	-10.2382
臣工	-10.2386
泊	-10.2387
開封府	-10.2398
即將	-10.2403
別	-10.2403
不服	-10.2405
之世	-10.2406
裂	-10.2411
王安石	-10.2412
孝宗	-10.2413
種種	-10.2415
風雨	-10.2415
諄諄	-10.2417
熈寧	-10.2418
灣	-10.2419
軍政	-10.2421
一嵗	-10.2423
該道	-10.2427
奉天	-10.2428
府庫	-10.2432
養亷	-10.2435
居住	-10.2436
晝夜	-10.2443
唐虞	-10.2444
詢問	-10.2446
損益	-10.245
誌	-10.2455
饋	-10.2456
一處	-10.246
迤	-10.2466
官弁	-10.2466
掲	-10.2468
堯舜之	-10.2468
顆	-10.2469
計議	-10.247
奏議	-10.2471
捉	-10.2471
恐懼	-10.248
故能	-10.2485
前来	-10.2487
多事	-10.2488
奨	-10.2492
鼓舞	-10.2494
毎年	-10.2494
月十一日	-10.2494
出自	-10.2496
夫人	-10.2497
等府	-10.2501
祧	-10.2504
兢	-10.2507
禀稱	-10.2507
餘石	-10.2508
處之	-10.2508
感戴	-10.2516
慝	-10.2517
多矣	-10.2521
君父	-10.2528
其情	-10.2529
茲	-10.2533
妾	-10.2535
伏候	-10.2539
具本	-10.2552
充軍	-10.2553
委署	-10.2557
織	-10.2558
仰祈	-10.2561
黔省	-10.2571
二十四	-10.2572
夢	-10.2575
謫	-10.2581
譬	-10.2583
之道也	-10.2586
政令	-10.2587
細加	-10.2595
並未	-10.2598
朕思	-10.2608
欺罔	-10.2611
貧民	-10.2617
未易	-10.2629
讜	-10.2629
年二月	-10.263
鋪	-10.263
叅奏	-10.2631
國法	-10.2634
協力	-10.2634
本司	-10.2645
寕	-10.2649
其所以	-10.2652
當即	-10.2656
司官	-10.2656
疾苦	-10.2659
宵旰	-10.2662
青苗	-10.2663
而自	-10.2663
皇仁	-10.2664
災傷	-10.2666
箭	-10.2667
墜	-10.2673
薛	-10.2673
益加	-10.2678
上奏曰	-10.268
在彼	-10.2681
晦	-10.2693
栁	-10.2694
機宜	-10.2705
不以為	-10.2707
領兵	-10.2708
川省	-10.271
亦宜	-10.2719
操練	-10.2721
以禮	-10.2723
無地	-10.2725
責其	-10.2725
慎重	-10.2726
刋	-10.2731
鬻	-10.2739
諸事	-10.2742
固有	-10.2744
之門	-10.2747
丗	-10.275
樊	-10.275
粒	-10.2752
售	-10.2763
兩淮	-10.2764
今既	-10.2766
臣觀	-10.2769
為政	-10.2772
凡此	-10.2772
一百二十	-10.2776
理合繕摺	-10.2777
佃	-10.2779
暑	-10.278
械	-10.2783
亦何	-10.2787
奉欽依	-10.2797
即令	-10.28
好惡	-10.2804
凍	-10.2805
搆	-10.2807
有事	-10.2808
之仁	-10.2811
莽	-10.2812
矣若	-10.2815
每嵗	-10.2823
必至	-10.2826
有天下	-10.2826
紹興	-10.2827
味	-10.283
則又	-10.2834
大臣等	-10.2838
夷狄	-10.284
名器	-10.284
與其	-10.2841
正人	-10.2844
舖	-10.2848
他人	-10.2851
貌	-10.2851
所以為	-10.2853
其力	-10.2855
皆知	-10.2858
之宜	-10.2858
嘉祐	-10.2861
處所	-10.2862
為首	-10.2866
闔	-10.287
沉	-10.2872
岐	-10.2874
任用	-10.2875
臣竊謂	-10.2878
財物	-10.289
宜令	-10.2891
不敢不	-10.2892
跟	-10.2894
我朝	-10.2894
十餘萬	-10.2895
三府	-10.29
恢	-10.2909
凡事	-10.291
恐有	-10.2913
及時	-10.2915
贏餘	-10.2916
若是	-10.2917
灌	-10.2917
蝗	-10.2918
忠臣	-10.2919
與夫	-10.2919
伏覩	-10.2922
㢤	-10.2924
千八百	-10.2925
此誠	-10.2928
詩曰	-10.2932
善惡	-10.2932
回奏	-10.2932
嚴禁	-10.2932
若夫	-10.2934
縁係	-10.2941
䧟	-10.2945
悲	-10.2945
為天下	-10.2948
莫能	-10.2948
稽察	-10.2949
憂勤	-10.2954
盡力	-10.2954
財賦	-10.2956
更張	-10.2956
囑	-10.2963
竈	-10.2964
婚	-10.2965
詳議	-10.2967
以期	-10.2968
又以	-10.2969
忤	-10.297
實難	-10.2973
轉運司	-10.2987
淪	-10.2988
團	-10.299
濁	-10.2995
事事	-10.2995
饗	-10.3002
該員	-10.3007
一時之	-10.3009
禪	-10.3014
之體	-10.302
正法	-10.3021
聖慮	-10.3021
而致	-10.3029
翰林	-10.3032
悠	-10.3039
恩澤	-10.304
皆可	-10.3041
千二百	-10.3047
人力	-10.3052
㳟	-10.3056
十一年	-10.3059
可惜	-10.3064
屠	-10.3067
飲食	-10.307
𥘉	-10.3071
軍旅	-10.3074
寸不等	-10.3074
安得	-10.3074
邁柱	-10.3076
深為	-10.3079
隐	-10.3079
職任	-10.308
少有	-10.3095
城池	-10.3102
繆	-10.3104
梟	-10.3104
頭目	-10.3105
倣	-10.3106
瓦	-10.3108
禽	-10.311
邊事	-10.3112
江浙	-10.3115
得罪	-10.3118
雍正九年	-10.3121
户口	-10.3126
祭祀	-10.313
棟	-10.3131
案件	-10.3134
江蘇	-10.3135
勝任	-10.3143
副都統	-10.3148
奉公	-10.3159
所由	-10.3161
汴	-10.3163
為善	-10.3165
芳	-10.3171
一半	-10.3175
掖	-10.3179
獵	-10.3179
二縣	-10.3182
收貯	-10.3182
二曰	-10.3183
今已	-10.3184
任意	-10.3185
此言	-10.3187
所議	-10.3189
恢復	-10.3194
可得而	-10.32
稼	-10.3201
奔走	-10.3206
御批	-10.3207
撫按	-10.3211
卽	-10.3212
見今	-10.3219
詔令	-10.3221
使者	-10.3237
無辜	-10.3237
酌議	-10.3244
深思	-10.3246
軍前	-10.3248
歴代名臣奏議卷	-10.3254
謹奏覽奏	-10.3264
官民	-10.3264
邁	-10.3268
摺内	-10.3268
以是	-10.327
捷	-10.3271
必行	-10.3272
送部	-10.3273
守禦	-10.3274
天子之	-10.3281
學習	-10.3297
河水	-10.3297
聖王	-10.33
稷	-10.3301
取士	-10.3306
亦不可	-10.3306
轄	-10.331
半年	-10.3311
禱	-10.3313
有警	-10.3315
秘	-10.3318
報到	-10.3322
珪	-10.3326
徃徃	-10.3333
為此繕摺	-10.3338
帶兵	-10.3339
曷	-10.3341
無非	-10.3342
凋	-10.3343
宗廟社稷	-10.3349
病故	-10.3352
臨時	-10.3352
未足	-10.3357
孔毓珣	-10.3362
訪得	-10.3363
乎此	-10.3367
紓	-10.3369
刑獄	-10.3369
情弊	-10.338
析	-10.3381
哲宗	-10.3381
非其人	-10.3386
豐稔	-10.3389
纎	-10.3392
凛	-10.3393
邊境	-10.3404
挨	-10.3411
兖	-10.3413
雨雪	-10.3414
馬政	-10.3417
到任後	-10.3419
敢言	-10.3425
聖裁	-10.3431
從此	-10.3434
萬民	-10.3437
氷	-10.3438
條例	-10.3438
曩	-10.3441
節制	-10.3443
至扵	-10.3449
存貯	-10.3453
應用	-10.3455
蒙皇上	-10.3455
邊方	-10.3455
上聞	-10.3463
本末	-10.3463
凝	-10.3463
所貴	-10.3465
酋	-10.3474
憲宗	-10.3476
二分	-10.3476
禘	-10.3479
不息	-10.3482
髙厚	-10.3482
難得	-10.3483
初五日	-10.3484
沃	-10.3487
保舉	-10.3487
䝉恩	-10.35
又奉上諭	-10.3502
掛	-10.351
墳	-10.3515
諂	-10.3516
比之	-10.3521
大雨	-10.3524
少卿	-10.3527
約有	-10.3532
天下之大	-10.3532
事理未敢擅便	-10.3533
要害	-10.3536
用事	-10.3538
呈報	-10.354
預備	-10.3541
臧	-10.3542
敬陳	-10.3544
原籍	-10.3548
竝無	-10.3554
可嘉	-10.3556
稿	-10.3558
璽	-10.3562
胄	-10.3564
易曰	-10.3571
委曲	-10.3572
遂使	-10.3576
臣願	-10.3576
髙其倬	-10.3578
被災	-10.3578
積弊	-10.3583
於陛下	-10.3585
昻	-10.3586
覲	-10.3587
該府	-10.3589
承平	-10.3594
速行	-10.3594
韓琦	-10.3598
職業	-10.3598
重地	-10.36
三代之	-10.3606
中國之	-10.3613
之策	-10.3624
矧	-10.3633
今來	-10.3638
輟	-10.3638
五帝	-10.3647
臣切	-10.3648
如是則	-10.3649
署撫	-10.3654
爛	-10.3659
墮	-10.3663
臣伏覩	-10.3663
千萬	-10.3671
十數	-10.3682
鈞	-10.3687
之迹	-10.3688
聖德	-10.369
皆是	-10.3691
給發	-10.3697
有才	-10.3709
港	-10.3709
蒲	-10.3712
惓惓	-10.3712
等縣	-10.3717
江寧	-10.3718
題為	-10.3719
愚見	-10.3723
廷臣	-10.3727
不畏	-10.3727
愛君	-10.3732
叢	-10.3734
般	-10.3738
二十五	-10.3744
一家	-10.3748
為此謹奏	-10.3749
李紱	-10.3752
武王	-10.3753
乞勅	-10.3757
扇	-10.3758
皇帝陛下	-10.3761
宣帝	-10.3762
休戚	-10.3766
掌印	-10.3766
倉卒	-10.3766
者不過	-10.3767
之類	-10.3776
洪武	-10.3778
一經	-10.3782
事勢	-10.3784
㓂	-10.3791
去嵗	-10.3791
其志	-10.3792
所費	-10.3796
昇	-10.3801
陟	-10.3806
於朝	-10.3807
將官	-10.3808
以副	-10.3808
等物	-10.3809
膠	-10.381
捍	-10.3812
竊恐	-10.3813
鉞	-10.3814
武備	-10.3814
購	-10.383
奇	-10.3837
㓜	-10.3837
梗	-10.3838
殄	-10.3838
憎	-10.3839
河西	-10.3844
崩	-10.3845
上䟽曰	-10.3846
召募	-10.3849
經筵	-10.3849
進貢	-10.3849
二十年	-10.3853
黽勉	-10.3854
協同	-10.3855
休息	-10.3858
繇	-10.3863
公忠	-10.3864
應援	-10.3865
視為	-10.3866
何者	-10.3867
桀	-10.387
甚至	-10.3872
叅將	-10.3873
俱經	-10.3873
三品	-10.3875
鼔	-10.3888
昆	-10.3891
廼	-10.3892
庶政	-10.3895
無私	-10.3896
噶爾丹	-10.3897
風聞	-10.39
民食	-10.3901
軍器	-10.3904
註	-10.3907
口糧	-10.391
括	-10.3911
不信	-10.3912
天聽	-10.3913
罄	-10.3914
前徃	-10.3917
隨時	-10.3918
施行謹奏	-10.3919
雍正十年	-10.3928
透	-10.393
防範	-10.3936
武職	-10.3938
渭	-10.394
羞	-10.3941
恭惟	-10.3941
芻	-10.3942
賞賜	-10.3943
不逮	-10.395
伏乞睿鑒謹奏	-10.3953
鎮巡	-10.3956
趕	-10.3958
偃	-10.3959
如䝉	-10.3959
職掌	-10.3963
銘	-10.3964
經過	-10.3964
經營	-10.3966
赴京	-10.3968
尸	-10.3968
拖欠	-10.3978
仰見我皇上	-10.3978
預為	-10.3985
戰守	-10.399
安能	-10.3992
謹將	-10.4004
叶	-10.4007
淑	-10.4009
狄	-10.4013
三曰	-10.4019
五品	-10.4022
堅固	-10.4023
王府	-10.4023
琳	-10.4032
悅	-10.4035
望陛下	-10.4035
别無	-10.4038
二十三	-10.4041
不測	-10.4041
寝	-10.4042
葛	-10.4043
也至於	-10.4051
奏乞	-10.4054
南郊	-10.4054
保定	-10.4057
影	-10.4062
翔	-10.4063
様	-10.4064
馴	-10.4065
欲望聖慈	-10.4066
鬭	-10.4068
無疑	-10.407
職守	-10.4074
非常之	-10.4074
要務	-10.4079
也臣聞	-10.408
第二	-10.4082
時政	-10.4087
姻	-10.409
艾	-10.409
緯	-10.4091
後來	-10.4098
不勝幸甚	-10.4104
邱	-10.4113
忠誠	-10.4117
撃	-10.4119
地勢	-10.4127
上柱國	-10.4133
侵蝕	-10.4134
九重	-10.4138
倉穀	-10.414
進用	-10.4142
鐘	-10.4143
詳細	-10.4146
耿	-10.4146
畏懼	-10.4147
親戚	-10.4149
夏秋	-10.4155
世祖	-10.4156
莫大於	-10.4156
爾部	-10.4161
可乎	-10.4166
甚是	-10.4166
選用	-10.4169
輦	-10.4173
賠補	-10.4174
農民	-10.4174
勁	-10.4174
某人	-10.4174
愛養	-10.4175
日新	-10.4177
㳂	-10.4177
弩	-10.4178
開墾	-10.4181
之末	-10.4183
融	-10.4187
欲使	-10.4187
株	-10.4192
塔	-10.4192
物料	-10.4193
竇	-10.4195
何事	-10.4196
吏部尚書	-10.4198
挺	-10.4198
年八月	-10.4204
舊章	-10.4212
九千	-10.4213
樸	-10.4218
穴	-10.4223
詆	-10.4224
泄	-10.4228
犬	-10.4237
不拘	-10.4237
經費	-10.4238
合先	-10.4238
定擬	-10.424
蘭州	-10.4242
輓	-10.4244
瘠	-10.4245
軀	-10.4247
奏銷	-10.4247
漸次	-10.4251
監生	-10.4257
一例	-10.426
立功	-10.4261
留神	-10.4263
怡親王	-10.4265
實係	-10.4266
猶可	-10.4267
授以	-10.4274
寛宥	-10.4276
明年	-10.4282
實屬	-10.4293
四時	-10.4294
稀	-10.4297
兩岸	-10.4298
黷	-10.43
孜孜	-10.4301
拙	-10.4302
照得	-10.4303
大功	-10.4304
二名	-10.4306
才具	-10.431
禍亂	-10.4314
無疆	-10.4316
噶	-10.4317
人命	-10.4318
小心	-10.4321
實情	-10.4324
軒	-10.4327
廂	-10.4328
騷	-10.4329
王師	-10.4331
倉庫	-10.4348
喬	-10.4349
本處	-10.435
蘆	-10.4352
今春	-10.4353
嫡	-10.4353
周知	-10.4364
仰懇	-10.4365
聦	-10.4366
寮	-10.4376
歴代	-10.4377
義理	-10.4378
黑	-10.438
特降	-10.4382
亦屬	-10.4383
冬至	-10.4384
萬世之	-10.4387
招撫	-10.4391
京東	-10.4399
貿易	-10.4407
地畝	-10.441
多少	-10.4414
從寛	-10.4417
諸王	-10.4417
千餘兩	-10.4422
緡	-10.4424
匣	-10.4425
站	-10.4427
灘	-10.4429
剋	-10.4429
整頓	-10.443
是否	-10.4431
濵	-10.4434
田畝	-10.4443
肆行	-10.4447
兩月	-10.4453
洮	-10.4456
日益	-10.4458
求賢	-10.4459
自安	-10.4464
查議	-10.4467
聖懐	-10.447
數十年	-10.4471
逺方	-10.4477
栽	-10.448
年四月	-10.4481
西寧	-10.4485
糧餉	-10.4486
新舊	-10.4489
傳諭	-10.4489
但恐	-10.449
急於	-10.449
論奏	-10.4492
萬幾	-10.4496
祔	-10.4501
作弊	-10.4501
即如	-10.4503
不特	-10.4505
中書門下	-10.451
不絶	-10.4511
所轄	-10.4514
臣愚以為	-10.4515
仰惟	-10.4516
媚	-10.4517
規模	-10.4518
諛	-10.4518
驍	-10.4519
挫	-10.4521
年三月	-10.4523
犯法	-10.4525
十二年	-10.4527
糧草	-10.453
以副朕	-10.4536
你	-10.4539
潦	-10.4542
近聞	-10.4542
琦	-10.4543
此心	-10.4543
嗜	-10.4546
去訖	-10.4547
沿邊	-10.4554
制置	-10.456
森	-10.4565
碎	-10.4566
流離	-10.4566
宮	-10.4568
年九月	-10.4568
兹據	-10.4569
訐	-10.4569
宫中	-10.4578
亦不敢	-10.458
部議覆	-10.4588
粤東	-10.4593
藩庫	-10.4597
吞	-10.4597
萊	-10.4599
徳音	-10.4601
兩路	-10.4608
不可以不	-10.4612
擒獲	-10.4614
大業	-10.4615
楊文乾	-10.4616
非惟	-10.4616
發遣	-10.462
非獨	-10.4621
漠	-10.4623
為念	-10.4624
建立	-10.4627
糧道	-10.4629
今歲	-10.4642
額外	-10.4643
欽奉上諭	-10.4645
奉聖㫖是	-10.4649
良民	-10.4649
促	-10.4655
楚省	-10.4662
將伊	-10.4666
本地	-10.4672
梅	-10.4677
亦不能	-10.4678
一槩	-10.4678
千百	-10.468
汙	-10.4681
之區	-10.4683
北敵	-10.4685
改過	-10.4689
考其	-10.4691
才識	-10.47
漁	-10.47
覺察	-10.47
尅	-10.4701
演	-10.4703
固守	-10.4705
瞻顧	-10.4706
仍乞	-10.4707
皆係	-10.4708
列聖	-10.4711
竊謂	-10.4711
豈得	-10.4713
奮勇	-10.4713
宗愈	-10.472
收成分數	-10.4721
千把	-10.4722
終始	-10.4726
大禮	-10.4726
所載	-10.4728
訛	-10.473
也況	-10.473
查拏	-10.4731
秋禾	-10.4731
陰	-10.4732
調遣	-10.4733
勵精	-10.4743
致治	-10.4745
涕	-10.475
樂業	-10.4753
蟲	-10.4757
涇	-10.4758
萬四千	-10.4764
其說	-10.4768
燾	-10.4771
前世	-10.4773
天變	-10.4777
年六月	-10.4786
翻	-10.4787
宰臣	-10.4792
薨	-10.4795
禁約	-10.4796
考察	-10.4802
好生	-10.4804
收買	-10.4805
軍國	-10.4806
效力	-10.4812
姜	-10.4814
西路	-10.4815
拂	-10.4817
劫	-10.4819
圓	-10.4821
該司	-10.4826
卸	-10.4833
數十萬	-10.4835
收穫	-10.4837
玷	-10.4842
試用	-10.4842
徐州	-10.4844
亨	-10.4844
盡言	-10.4851
批示	-10.4851
盤查	-10.4855
本色	-10.4863
逃亡	-10.487
賑恤	-10.4872
主事	-10.4873
渾	-10.4873
申報	-10.4873
近年以來	-10.4875
條陳	-10.4893
謂陛下	-10.4896
異日	-10.4897
二十二	-10.4898
藻	-10.4899
聖躬	-10.49
挽	-10.49
籠	-10.4902
弊端	-10.4905
文學	-10.491
水陸	-10.4917
諭令	-10.4918
該撫	-10.492
聲名	-10.4934
伏望皇上	-10.4936
李衛	-10.4937
値	-10.4942
百司	-10.4943
司徒	-10.4946
猓	-10.4947
齎摺	-10.4949
省察	-10.4952
忠良	-10.4955
弓箭	-10.496
何能	-10.4963
之福也	-10.4963
不可復	-10.4972
年十月	-10.4973
早賜	-10.4977
與否	-10.4981
吝	-10.4983
二十一	-10.4984
緘黙	-10.4984
攜	-10.4985
藴	-10.4986
刃	-10.4987
撫綏	-10.499
奏謝	-10.5003
撫恤	-10.5003
備禦	-10.5009
箐	-10.5011
慿	-10.5011
無幾	-10.5016
十六年	-10.5018
闇	-10.502
議覆	-10.5026
宣布	-10.5029
申飭	-10.503
衢	-10.5034
責任	-10.5035
五錢	-10.5035
外任	-10.5036
以仰副	-10.5036
四海之	-10.5037
菜	-10.5039
䏻	-10.504
干戈	-10.5045
知制誥	-10.5047
行移	-10.5057
洵	-10.5063
十五年	-10.5065
攷	-10.5066
滌	-10.5069
鉛	-10.5069
城垣	-10.5077
興工	-10.5077
年五月	-10.5077
帝曰	-10.5082
恤民	-10.5083
焦	-10.5086
民欠	-10.5087
觔	-10.509
蒸	-10.5094
名下	-10.5099
慨	-10.5103
一定	-10.5112
土地	-10.5118
伏乞皇上睿鑒施行謹奏	-10.5119
起見	-10.5119
蝕	-10.5122
或謂	-10.5124
城堡	-10.5127
内府	-10.5128
未定	-10.513
積貯	-10.5133
寒心	-10.5137
仍行	-10.5137
惶悚	-10.5146
山陵	-10.5146
全無	-10.5155
扈	-10.5157
礪	-10.5158
成都	-10.5158
遣官	-10.5164
人口	-10.5165
帥臣	-10.5167
費用	-10.5167
察訪	-10.5177
街	-10.5183
建昌	-10.5191
揚州	-10.5201
金帛	-10.5204
公務	-10.5205
熊	-10.5214
文章	-10.5214
傍	-10.5215
犒	-10.5215
實力	-10.5215
呈稱	-10.5216
甚明	-10.5216
報效	-10.5218
十萬石	-10.523
具摺奏	-10.5232
查核	-10.5233
恭設香案望闕叩頭	-10.5233
遂致	-10.5234
稽古	-10.5234
上殿	-10.5241
肩	-10.5242
鈍	-10.5242
請旨	-10.5243
發落	-10.5251
安插	-10.5255
撲	-10.5265
徹底	-10.5266
也同日又奏為	-10.5267
十三年	-10.5274
洪恩	-10.5278
何足	-10.528
河朔	-10.5294
鬼	-10.5294
枷	-10.5295
學問	-10.5302
開報	-10.5306
謂宜	-10.5306
米糧	-10.5306
密奏	-10.532
伏乞皇上睿鑒	-10.5323
瑣	-10.5326
也盖	-10.5328
雞	-10.5328
聞見	-10.5342
總管	-10.5343
黎元	-10.535
徃來	-10.5352
即便	-10.5353
著落	-10.5353
衮	-10.5354
安静	-10.5355
一介	-10.5356
片	-10.5357
崖	-10.5357
老弱	-10.5357
沴	-10.5358
硃批諭㫖	-10.5358
迄今	-10.5363
凡遇	-10.5365
舉動	-10.5375
地土	-10.5378
宣示	-10.5379
連年	-10.5384
鹿	-10.5385
凱	-10.5385
剿	-10.5386
勞苦	-10.5392
窺伺	-10.5393
十人	-10.5396
杭州	-10.5399
貼黄	-10.5399
覃	-10.5414
奄	-10.5417
春夏	-10.5417
實封	-10.5418
遵旨	-10.5424
不能盡	-10.5426
徵收	-10.5431
二十八	-10.5432
訓諭	-10.5437
激切	-10.5438
各犯	-10.5441
部文	-10.5442
陽縣	-10.5444
多士	-10.5444
瀝	-10.5446
酌定	-10.5447
詳悉	-10.5448
殺死	-10.5459
京官	-10.5462
可畏	-10.5462
范時繹	-10.5468
和平	-10.5468
君子小人	-10.5473
餓	-10.5476
悼	-10.5477
平常	-10.5478
可比	-10.5491
江省	-10.5493
滿漢	-10.5497
賢才	-10.5498
諸王大臣	-10.5499
岷	-10.5501
近來	-10.5501
店	-10.5502
喧	-10.5504
宫室	-10.5505
奔競	-10.5505
祕	-10.5506
蠶	-10.5506
聨	-10.5508
陋規	-10.5512
也臣愚	-10.5524
補用	-10.5525
之謂也	-10.5526
已久	-10.5527
未幾	-10.5528
仍舊	-10.5536
庶使	-10.5553
詳加	-10.5555
茂盛	-10.5564
康熙五十	-10.5566
戶	-10.5567
到部	-10.557
尋常	-10.5573
州府知府	-10.5574
無厭	-10.5576
盡忠	-10.5577
王室	-10.558
名色	-10.5583
同中書門下平章事	-10.5584
手足	-10.5589
共計	-10.5593
文書	-10.5593
工料	-10.5596
待制	-10.5598
本府	-10.5605
皆謂	-10.5611
萬國	-10.5612
題明	-10.562
非特	-10.5621
衣服	-10.5631
禧	-10.5633
政務	-10.5638
夀皇	-10.5638
本職	-10.5639
諸處	-10.5642
經術	-10.5643
漕糧	-10.5644
章奏	-10.5645
覽奏	-10.5649
徭	-10.5651
伴	-10.5654
卹	-10.5659
永樂	-10.5661
今月	-10.5667
監督	-10.5674
萬八千	-10.5675
伏願陛下	-10.5679
可勝	-10.568
虚實	-10.5681
未獲	-10.5681
運送	-10.5683
猝	-10.5686
枯	-10.5686
二聖	-10.5695
議叙	-10.5701
建議	-10.5708
所繫	-10.5711
舛	-10.5714
新法	-10.5721
萬三千	-10.5724
製造	-10.5724
奉命	-10.5726
鬼神	-10.5729
完結	-10.5739
糜	-10.574
諸郡	-10.5742
量加	-10.5745
怙	-10.5746
五代	-10.5749
縻	-10.5751
遷延	-10.5754
分布	-10.5774
兼管	-10.5779
霍	-10.5783
遲延	-10.5787
清楚	-10.5788
工食	-10.5789
杭	-10.579
遼東	-10.5794
印信	-10.5796
進取	-10.5801
各邊	-10.5802
推諉	-10.5802
後患	-10.5806
蔓	-10.5808
梧	-10.581
晝	-10.581
仍前	-10.5815
若果	-10.582
前進	-10.582
豈敢	-10.5827
将帥	-10.5829
營遊擊	-10.5835
萬餘兩	-10.5835
熱	-10.5837
詳稱	-10.5837
頽	-10.5841
羙	-10.5841
宸衷	-10.5841
殿下	-10.5845
識見	-10.5852
乎夫	-10.5852
營汛	-10.5852
臣以謂	-10.5856
另疏	-10.5856
挑選	-10.5857
萬方	-10.5858
臣欲乞	-10.5862
前赴	-10.5866
涯	-10.5867
燬	-10.5868
握	-10.5871
斯民	-10.5873
現任	-10.588
營私	-10.5885
天縱	-10.5888
改正	-10.5891
謹奏為恭報	-10.5892
康熈	-10.5899
呂	-10.5901
臣又聞	-10.5904
猜	-10.5906
而已矣	-10.5908
蹙	-10.5908
成敗	-10.5909
潁	-10.5909
原額	-10.591
侵犯	-10.5918
伏祈睿鑒謹奏	-10.5924
神考	-10.5924
一百五十	-10.5925
主簿	-10.5926
妄行	-10.5928
殊恩	-10.5929
各省督撫	-10.5932
開封	-10.5937
摩	-10.5937
詔曰	-10.594
下詔	-10.5941
民田	-10.5942
俱著	-10.595
調發	-10.595
可憫	-10.5955
相沿	-10.5957
孳	-10.5962
鐸	-10.5962
枕	-10.5965
優劣	-10.5967
更加	-10.5968
明主	-10.5975
訓示	-10.5981
守僃	-10.5981
交結	-10.5986
死亡	-10.5987
塞責	-10.5992
涵	-10.5995
副總兵	-10.6006
昊天	-10.6009
二字	-10.601
謹題請㫖	-10.6021
囊	-10.6025
駒	-10.6027
兩次	-10.6029
嫉	-10.6031
插	-10.6032
祻	-10.6033
陕西	-10.6034
有竒	-10.6044
男婦	-10.6045
瑛	-10.605
屢次	-10.6051
□	-10.6055
又云	-10.6056
忻	-10.6057
豈容	-10.6058
穿	-10.6062
蘇松	-10.6063
者甚多	-10.6064
范仲淹	-10.6065
𦂳	-10.6072
豁	-10.6076
郊祀	-10.6085
寔	-10.6087
慶厯	-10.6087
夜不收	-10.6089
舌	-10.6094
倉榖	-10.6097
忠厚	-10.6099
尊號	-10.6102
未曽	-10.6103
可憂	-10.6105
蒼生	-10.6109
兩京	-10.6109
諄切	-10.6111
慚	-10.6116
逭	-10.6116
百户	-10.6119
傳聞	-10.6119
弔	-10.612
卞	-10.612
骨肉	-10.6123
銀二萬	-10.6125
聖政	-10.6137
要地	-10.6139
責令	-10.6142
沖	-10.6151
紹聖	-10.6154
長沙	-10.6155
通融	-10.6158
草率	-10.6159
聚衆	-10.6165
度支	-10.6169
年七月	-10.6176
所恃	-10.6178
盔甲	-10.6181
猺	-10.6182
道員	-10.6185
知諫院	-10.6186
科舉	-10.6187
宣化	-10.6192
上䟽	-10.6196
肅州	-10.6198
二十七	-10.6199
親詣	-10.6205
不虞	-10.6205
筵	-10.6207
喀爾喀	-10.6211
情理	-10.6214
冰	-10.6215
仲淹	-10.6218
繹	-10.6218
内侍	-10.6218
朝政	-10.622
害民	-10.6226
總制	-10.6231
昂	-10.6241
相承	-10.6245
不啻	-10.6247
顛	-10.6249
庠	-10.6249
迎合	-10.6262
宰執	-10.6267
請託	-10.6268
誠心	-10.6276
士子	-10.6278
債	-10.6282
卧	-10.6286
具報	-10.6288
遴選	-10.6289
歐陽	-10.6289
八錢	-10.6289
萬死	-10.6294
恭儉	-10.6297
詩賦	-10.63
拖	-10.6304
詳請	-10.6307
具呈	-10.6308
聘	-10.6316
䕃	-10.6316
二十萬	-10.6319
憂國	-10.6327
禁中	-10.6327
善政	-10.6328
營房	-10.6329
節儉	-10.6334
土木	-10.6336
能否	-10.6338
涸	-10.6341
賓	-10.6346
逺慮	-10.6348
錮	-10.6348
凢	-10.6348
府縣	-10.6348
鞫	-10.6349
勉勵	-10.6352
總理	-10.6352
兵部尚書	-10.6354
可觀	-10.6357
跪讀	-10.6369
敵國	-10.637
篆	-10.6373
執政大臣	-10.6375
騷擾	-10.6377
檢校	-10.6378
匪類	-10.6381
私意	-10.6381
經義	-10.6383
部落	-10.6384
南昌	-10.6395
似應	-10.6398
臣竊聞	-10.6401
懽	-10.6406
凡百	-10.6407
海口	-10.6412
詳明	-10.6416
虚名	-10.642
第三	-10.6423
謹繕摺	-10.6425
禁軍	-10.6434
臬司	-10.6435
賫	-10.6435
才能	-10.6438
太僕寺	-10.6438
中興之	-10.644
大理寺	-10.6442
員外郎	-10.6443
往年	-10.6449
明楊士竒等撰	-10.645
各府州縣	-10.6453
需用	-10.6461
漢軍	-10.6462
確實	-10.6463
清理	-10.647
便宜	-10.6471
詎	-10.6474
詹	-10.6479
縦	-10.6479
熾	-10.648
國子監	-10.6483
每月	-10.6486
累年	-10.6486
盡善	-10.6489
罷黜	-10.6492
皇子	-10.6509
笞	-10.6513
不恤	-10.6517
離任	-10.652
造册	-10.6527
上下相	-10.6527
恪遵	-10.6538
埋	-10.6539
箴	-10.6539
鑾	-10.6541
殃	-10.6542
鸞	-10.6547
思所以	-10.6558
禀報	-10.6558
淮安	-10.656
死罪	-10.6565
陸路	-10.6568
曽經	-10.657
諾	-10.657
殊屬	-10.6571
兩浙	-10.6571
四路	-10.6575
冩	-10.6606
幅	-10.6607
𦵏	-10.6607
璧	-10.6609
慘	-10.661
聊	-10.6611
彞	-10.6635
剪	-10.6637
評	-10.6643
陲	-10.6669
誑	-10.667
簾	-10.6674
瑕	-10.6674
魁	-10.6675
晋	-10.6675
莅	-10.6701
沅	-10.6736
煙	-10.6739
諤	-10.6749
叚	-10.6769
霖	-10.6774
縷	-10.6774
絡	-10.6777
纍	-10.6778
嶽	-10.6809
柳	-10.681
穢	-10.6812
廊	-10.6812
劑	-10.6812
鬬	-10.6815
頥	-10.6841
枚	-10.6843
坡	-10.6846
嬰	-10.6851
聳	-10.6879
潭	-10.688
𠡠	-10.6907
響	-10.6947
羸	-10.6952
障	-10.6975
脉	-10.6985
遴	-10.6996
嫁	-10.7013
煥	-10.7015
綜	-10.7016
翟	-10.7019
腐	-10.702
黍	-10.7048
傲	-10.7049
蔵	-10.705
䛕	-10.7053
擄	-10.7085
殖	-10.7088
髪	-10.709
覇	-10.7093
圭	-10.7106
湧	-10.7113
拓	-10.7126
瞭	-10.7156
巍	-10.7157
巷	-10.716
勻	-10.7185
两	-10.7187
股	-10.7191
僣	-10.7192
搬	-10.7219
邳	-10.7223
汾	-10.7226
祁	-10.7229
諧	-10.7255
研	-10.7256
鄒	-10.7257
潞	-10.726
奈	-10.7301
沂	-10.7334
遑	-10.7356
軾	-10.7366
洶	-10.7373
牟	-10.7402
摯	-10.7404
冨	-10.7417
沁	-10.743
迅	-10.7436
諮	-10.7438
夔	-10.7445
絞	-10.7474
擔	-10.7474
苴	-10.7479
閔	-10.7513
點	-10.7546
裘	-10.7552
𠂻	-10.7584
剽	-10.759
奥	-10.7619
榆	-10.7623
躋	-10.7623
滛	-10.763
塌	-10.7652
雙	-10.766
肝	-10.766
糓	-10.7661
佩	-10.7688
詠	-10.7696
構	-10.7703
汀	-10.7727
痊	-10.773
陂	-10.7734
旺	-10.7734
瘴	-10.7735
餽	-10.7736
唱	-10.7763
址	-10.7805
煎	-10.7805
蹤	-10.7808
澳	-10.7808
叁	-10.781
膚	-10.7815
澆	-10.7881
吹	-10.7883
舅	-10.7883
醇	-10.7885
歷	-10.7888
譚	-10.789
冲	-10.7917
娶	-10.7919
狐	-10.7921
渙	-10.7926
弃	-10.7932
抒	-10.7952
楷	-10.7952
糊	-10.7955
浹	-10.7957
虗	-10.7961
滄	-10.7963
翕	-10.7966
繪	-10.7996
屑	-10.7997
亢	-10.8003
溜	-10.8024
迄	-10.8027
瘦	-10.8034
擺	-10.8036
卦	-10.8037
乍	-10.804
靳	-10.807
躁	-10.8075
蔑	-10.8076
鬱	-10.8076
茫	-10.8112
瞽	-10.8117
鶴	-10.812
緑	-10.8151
沔	-10.8154
髮	-10.8157
侔	-10.8157
挖	-10.8181
剔	-10.8187
黠	-10.8201
駝	-10.8226
頋	-10.8232
烽	-10.8235
葺	-10.8264
菲	-10.8267
霽	-10.8268
晰	-10.8286
閤	-10.8297
寰	-10.8304
宵	-10.8307
郵	-10.8308
慙	-10.8309
攀	-10.831
矩	-10.8312
憾	-10.8312
羈	-10.8314
哥	-10.8338
們	-10.8339
話	-10.8347
像	-10.835
圉	-10.8351
韜	-10.8353
稠	-10.8385
艘	-10.8385
叟	-10.839
䜛	-10.8393
億	-10.8421
濠	-10.8428
噬	-10.843
奕	-10.8431
劒	-10.8438
堆	-10.8463
瘁	-10.8465
捏	-10.8502
㤙	-10.8503
煽	-10.8505
凜	-10.8538
抃	-10.8545
亞	-10.8545
岡	-10.8547
廓	-10.8547
奎	-10.8549
臯	-10.855
紂	-10.856
忭	-10.8581
揮	-10.8582
惴	-10.8591
瑾	-10.8591
岱	-10.8592
趾	-10.8594
蠢	-10.8628
紏	-10.8629
臆	-10.8631
牘	-10.8665
㤗	-10.8668
寥	-10.8671
粹	-10.8672
昊	-10.8697
譯	-10.8706
貝	-10.8707
廕	-10.8707
晨	-10.8708
孺	-10.8708
繋	-10.8712
斧	-10.8713
銖	-10.8723
聆	-10.8744
淨	-10.8747
架	-10.8747
烟	-10.8748
濤	-10.875
熹	-10.8757
穗	-10.8784
袒	-10.8788
煌	-10.8791
兌	-10.8795
楮	-10.8799
兊	-10.8821
餧	-10.883
蕪	-10.8832
繡	-10.8836
態	-10.8836
凟	-10.887
駑	-10.8875
蹇	-10.8879
罵	-10.8879
洊	-10.8916
鈐	-10.8916
魂	-10.8921
眼	-10.8922
覬	-10.8926
疵	-10.8961
疫	-10.9004
姿	-10.9004
串	-10.9041
装	-10.9045
軟	-10.9045
剖	-10.9046
睢	-10.9084
悮	-10.9126
漂	-10.9127
慣	-10.9128
旒	-10.9173
愽	-10.9178
竦	-10.9179
屆	-10.9207
佟	-10.9211
灰	-10.9214
蟻	-10.9215
戡	-10.9217
朞	-10.9222
鷹	-10.9222
俘	-10.9223
佳	-10.9257
嬪	-10.9257
狩	-10.926
汲	-10.9264
薩	-10.9298
翁	-10.9301
彛	-10.9304
簽	-10.9305
厦	-10.9337
瀾	-10.9339
敇	-10.9342
蚤	-10.9349
邢	-10.9349
掊	-10.935
佚	-10.935
轂	-10.9352
悌	-10.9396
勛	-10.9396
鼐	-10.9435
懾	-10.9436
俄	-10.9436
穫	-10.9471
洲	-10.9473
瑗	-10.9475
歇	-10.9479
頴	-10.9479
綂	-10.9482
諷	-10.9485
裳	-10.953
諉	-10.9606
乳	-10.9612
覿	-10.9615
讞	-10.9616
恠	-10.9618
胸	-10.9656
邕	-10.9665
禋	-10.9701
刪	-10.9748
綬	-10.9748
餌	-10.9752
拿	-10.9787
扎	-10.9795
鹵	-10.9796
鑰	-10.9796
彗	-10.9798
捌	-10.9798
伎	-10.9836
𤓰	-10.9838
鯁	-10.9842
翊	-10.9886
遮	-10.9889
㪚	-10.9928
澇	-10.993
迴	-10.9932
寂	-10.9934
渝	-10.9935
鐡	-10.997
寬	-10.9973
殞	-10.9978
寐	-10.998
餒	-10.998
㦯	-10.998
郷	-10.9982
冶	-10.9983
愷	-10.9985
隸	-11.0017
兑	-11.0018
鞍	-11.0019
夘	-11.0019
穹	-11.002
瓘	-11.0027
烝	-11.0029
潼	-11.0074
踏	-11.0112
隷	-11.0115
湘	-11.0121
覧	-11.0121
電	-11.0124
爐	-11.0162
芝	-11.0162
掘	-11.0163
劵	-11.0167
宛	-11.017
种	-11.0176
汎	-11.0178
剝	-11.0209
彩	-11.021
努	-11.0212
彝	-11.0212
捜	-11.0213
鵬	-11.0258
萃	-11.0263
眩	-11.0264
島	-11.0265
騙	-11.0307
兾	-11.0308
藍	-11.0309
漆	-11.0311
蠱	-11.0316
燦	-11.0356
狗	-11.0357
滑	-11.0364
剩	-11.0402
穏	-11.0405
挐	-11.0409
驢	-11.0411
球	-11.0449
鎖	-11.0454
謚	-11.0454
龔	-11.0458
幷	-11.055
俵	-11.0551
瀚	-11.0555
畋	-11.0558
捄	-11.0559
愍	-11.056
擯	-11.056
暘	-11.0592
憸	-11.0606
陡	-11.0645
濱	-11.0649
覓	-11.065
踞	-11.0653
飄	-11.0655
油	-11.0658
数	-11.0706
筋	-11.0707
些	-11.0751
蒞	-11.0751
藪	-11.0761
窪	-11.079
嚇	-11.0798
儼	-11.08
紘	-11.0803
𥙷	-11.0815
個	-11.0847
麾	-11.0859
鱗	-11.086
荀	-11.0865
諜	-11.0867
濕	-11.0899
琮	-11.0907
跋	-11.0909
壕	-11.091
棘	-11.0913
砍	-11.0954
襟	-11.0956
產	-11.0957
躍	-11.0958
亳	-11.0959
綴	-11.0959
軼	-11.0959
坍	-11.1
踪	-11.1005
昉	-11.1007
偕	-11.1012
㝠	-11.1014
硃	-11.105
輳	-11.1054
臕	-11.1054
閻	-11.1058
搖	-11.1059
皿	-11.1061
姬	-11.1062
屍	-11.1063
璋	-11.1063
欝	-11.1064
騁	-11.1066
僱	-11.1107
栢	-11.1111
亘	-11.1112
慄	-11.1113
倬	-11.1113
肺	-11.1114
紬	-11.1116
○	-11.1131
雕	-11.1166
蛇	-11.1169
狃	-11.117
塊	-11.1172
勃	-11.1175
撙	-11.122
怡	-11.1221
骸	-11.1221
畔	-11.1224
扞	-11.1225
氓	-11.1268
牓	-11.1274
毀	-11.1278
迪	-11.1279
闘	-11.1281
𦙍	-11.1307
㨿	-11.132
逝	-11.132
氛	-11.1322
綽	-11.1324
誇	-11.1324
庾	-11.1326
摭	-11.1371
搭	-11.1373
揖	-11.1373
豢	-11.1377
膝	-11.1378
碌	-11.1378
攤	-11.1379
闡	-11.1423
鑲	-11.1425
几	-11.1435
濮	-11.1478
層	-11.1479
贛	-11.148
聿	-11.1481
梓	-11.1484
粉	-11.1485
瀛	-11.1491
諍	-11.1521
滙	-11.1532
届	-11.1533
鞠	-11.1541
殛	-11.1542
廻	-11.1542
碾	-11.1586
抛	-11.1591
燮	-11.1595
崑	-11.1602
黯	-11.1613
陕	-11.1631
羨	-11.1644
冷	-11.165
覘	-11.1654
顓	-11.1655
籲	-11.1696
輛	-11.1706
禎	-11.1707
挈	-11.1711
僖	-11.1756
挟	-11.1762
昃	-11.1766
冢	-11.1768
纘	-11.1805
攔	-11.1808
朂	-11.181
眚	-11.1815
囂	-11.182
瑪	-11.1862
胷	-11.1874
翦	-11.1878
雹	-11.1926
窄	-11.1926
邠	-11.1927
燈	-11.1928
擠	-11.193
鰥	-11.1933
湊	-11.1981
殱	-11.1985
毗	-11.1987
喚	-11.1988
坑	-11.199
䭾	-11.2042
譁	-11.2045
拊	-11.2046
兮	-11.2047
隕	-11.2091
鑽	-11.2095
鼠	-11.2097
暖	-11.2097
湛	-11.2101
鋤	-11.2101
婢	-11.2102
皂	-11.2102
企	-11.2103
譎	-11.2104
誹	-11.2106
狎	-11.2107
樣	-11.2151
殁	-11.2156
函	-11.2161
纒	-11.2161
苞	-11.2163
眉	-11.2166
羡	-11.2206
滚	-11.221
凑	-11.2216
恙	-11.2217
頸	-11.2219
蹂	-11.2221
邈	-11.2223
桐	-11.2274
衂	-11.2284
啇	-11.2325
粥	-11.2327
喀	-11.2331
筸	-11.2332
肌	-11.2332
昵	-11.2334
贏	-11.2335
慾	-11.2337
炭	-11.2338
璣	-11.2385
戕	-11.2394
迯	-11.2395
黼	-11.2396
繒	-11.2396
擘	-11.24
賭	-11.2442
貺	-11.2448
髓	-11.245
歆	-11.2452
摇	-11.2453
愕	-11.2453
泯	-11.2455
䙝	-11.2456
瞞	-11.2508
溫	-11.251
棲	-11.2516
謾	-11.2516
弋	-11.2569
琪	-11.2571
模	-11.2571
遯	-11.2572
嬖	-11.2573
㦸	-11.2582
潢	-11.262
淡	-11.2626
厄	-11.263
㪷	-11.2635
轅	-11.2636
敞	-11.2637
矛	-11.2638
𬒳	-11.2642
朗	-11.2687
脂	-11.2688
棚	-11.2688
廖	-11.2693
壑	-11.2694
霄	-11.2695
鏡	-11.27
洙	-11.2703
穵	-11.2743
磬	-11.2749
豺	-11.2755
縛	-11.2756
滎	-11.2758
窟	-11.2759
躭	-11.2813
騍	-11.2814
梯	-11.2817
醉	-11.2819
巫	-11.282
穰	-11.2878
䆒	-11.2879
複	-11.2881
桿	-11.2938
腰	-11.2939
谿	-11.294
銃	-11.2941
賁	-11.2941
霈	-11.2942
豹	-11.2942
㽞	-11.2943
曜	-11.2947
肻	-11.2947
愿	-11.3003
毓	-11.3003
裹	-11.3003
膂	-11.3006
訥	-11.3007
蒐	-11.3007
璘	-11.3008
箱	-11.3008
絃	-11.301
餬	-11.306
軸	-11.3063
睹	-11.3065
劍	-11.3069
庥	-11.3119
灝	-11.3122
濡	-11.3127
䕫	-11.3129
誚	-11.3131
瀘	-11.3132
藐	-11.3132
徠	-11.3133
塹	-11.3134
澗	-11.3134
玖	-11.3195
逗	-11.3196
幟	-11.3196
繞	-11.3199
砌	-11.3255
佇	-11.3255
跌	-11.326
墟	-11.3263
妣	-11.3264
参	-11.3265
埠	-11.3315
楠	-11.3317
衿	-11.3319
輾	-11.3319
荼	-11.332
磚	-11.3324
顒	-11.3326
箕	-11.3327
滔	-11.3328
駿	-11.3329
戯	-11.3329
蔚	-11.3384
鏤	-11.3387
謄	-11.3391
臘	-11.3391
嘿	-11.3395
輅	-11.3397
湟	-11.3402
鈎	-11.3455
邏	-11.3458
鄆	-11.3459
郢	-11.346
訕	-11.346
閹	-11.3462
琰	-11.3515
晟	-11.3517
旻	-11.3519
廸	-11.352
鍳	-11.3521
掾	-11.3525
醮	-11.3527
綰	-11.353
儹	-11.3579
祲	-11.3581
秧	-11.3582
哺	-11.3583
粵	-11.3584
覊	-11.3586
扆	-11.3586
線	-11.359
葦	-11.3592
俛	-11.3597
迺	-11.3657
貎	-11.3658
檜	-11.3659
豕	-11.3718
鍋	-11.372
刈	-11.3721
柵	-11.3722
獞	-11.3722
陌	-11.3723
彫	-11.3726
瑋	-11.3727
垢	-11.373
趲	-11.3782
諄	-11.3785
躱	-11.3788
傭	-11.3796
窒	-11.3798
岑	-11.3803
奭	-11.3858
跳	-11.3861
㕑	-11.3862
禳	-11.3862
芒	-11.3864
夤	-11.3925
据	-11.3925
撿	-11.3927
咈	-11.3929
朘	-11.3929
跨	-11.3932
柏	-11.3933
帷	-11.3936
檔	-11.3993
濯	-11.3995
甦	-11.3995
秤	-11.3996
徂	-11.3996
霧	-11.3998
蜂	-11.3999
謡	-11.4005
斜	-11.4008
櫃	-11.4062
碍	-11.4066
淚	-11.4066
畎	-11.4072
玠	-11.4074
搏	-11.4077
覔	-11.4134
絀	-11.414
兔	-11.414
􁞽	-11.4197
呌	-11.4199
鉷	-11.4203
瘞	-11.4208
憊	-11.4211
旭	-11.4215
巾	-11.4221
􁱰	-11.4269
両	-11.4277
浄	-11.4281
贄	-11.4282
饌	-11.4285
愬	-11.4286
映	-11.4288
僞	-11.4291
蹶	-11.4354
譲	-11.4357
晁	-11.4358
䧏	-11.4362
錠	-11.4417
謐	-11.4418
薰	-11.4425
湮	-11.4427
趂	-11.4428
筠	-11.4429
醴	-11.443
岩	-11.4495
隍	-11.4502
幇	-11.4567
囿	-11.4569
槖	-11.4573
㝎	-11.4579
牖	-11.4637
遙	-11.4639
琴	-11.4639
袍	-11.4643
侂	-11.4646
擡	-11.4712
臚	-11.4714
脈	-11.4715
𣣔	-11.4716
剗	-11.4717
轡	-11.4722
媿	-11.4725
逵	-11.473
醒	-11.4791
坪	-11.4794
瓜	-11.4795
盍	-11.4797
羲	-11.4798
傚	-11.4799
廐	-11.4801
蕎	-11.4866
綦	-11.4869
媒	-11.487
貂	-11.487
殍	-11.4874
闥	-11.4876
旰	-11.4878
剏	-11.4878
嗇	-11.4878
舘	-11.4882
釘	-11.4939
駱	-11.4939
綠	-11.4943
滁	-11.4947
厮	-11.4949
芥	-11.4949
吸	-11.4953
撻	-11.4955
峒	-11.4955
璟	-11.4957
賽	-11.5016
疚	-11.5018
瘵	-11.5021
週	-11.5024
婁	-11.5025
黥	-11.5025
愒	-11.5026
祜	-11.5027
沸	-11.5028
倪	-11.503
恂	-11.5032
泂	-11.5092
捫	-11.5096
聯	-11.5099
汶	-11.5101
岌	-11.5102
摹	-11.5102
仔	-11.5102
驩	-11.5103
蹕	-11.5104
堠	-11.5105
龎	-11.5107
瓚	-11.5108
茹	-11.5111
鯀	-11.5112
煬	-11.5113
灑	-11.5176
姧	-11.5179
狠	-11.5179
慟	-11.518
迓	-11.518
裒	-11.5183
筦	-11.5188
詿	-11.525
贑	-11.5251
祉	-11.5256
棺	-11.5257
吁	-11.5257
㤀	-11.5259
盾	-11.5261
僥	-11.5261
夸	-11.5264
縝	-11.5271
綵	-11.5333
宙	-11.5339
癘	-11.5343
悴	-11.5345
箠	-11.5346
頡	-11.535
沆	-11.5354
耽	-11.541
鳩	-11.5413
琛	-11.5414
葱	-11.5414
颺	-11.5416
婉	-11.5418
謟	-11.5422
卻	-11.5423
藁	-11.5424
泌	-11.5428
昩	-11.5499
磐	-11.5501
雩	-11.5517
璉	-11.5574
兗	-11.5575
躧	-11.5578
㭍	-11.558
爪	-11.5581
釣	-11.5583
苻	-11.559
槽	-11.5654
晷	-11.566
峙	-11.5665
鉗	-11.5667
峽	-11.5668
証	-11.5738
闒	-11.5743
啻	-11.5746
喋	-11.5747
燔	-11.575
䑕	-11.5752
滕	-11.5754
挿	-11.582
硝	-11.5822
鎻	-11.5824
頤	-11.5824
愜	-11.5825
虹	-11.5828
峪	-11.583
褊	-11.5831
夭	-11.5832
㝷	-11.5835
槐	-11.5835
阯	-11.5835
㐮	-11.5835
歿	-11.5842
俶	-11.5903
撞	-11.5905
窵	-11.5906
泓	-11.591
讟	-11.5912
寤	-11.5914
雉	-11.5915
㨂	-11.5917
襃	-11.5918
組	-11.5921
彪	-11.5993
殯	-11.5994
瘳	-11.5999
慧	-11.6002
腸	-11.6003
棗	-11.6003
耤	-11.6074
囤	-11.6074
喉	-11.6082
雀	-11.6082
閨	-11.6084
逄	-11.6085
擿	-11.6086
燎	-11.609
椿	-11.6091
栗	-11.6095
紵	-11.6095
緬	-11.6162
砂	-11.6166
刧	-11.6168
瑟	-11.6168
訂	-11.6168
舶	-11.6169
療	-11.617
吿	-11.6171
厨	-11.6171
翠	-11.6172
餐	-11.6173
淩	-11.6174
擲	-11.6175
秣	-11.6177
蝻	-11.6244
婪	-11.6248
霉	-11.6248
粱	-11.6249
腑	-11.6254
燧	-11.6254
鮑	-11.6256
阡	-11.626
耘	-11.6263
譛	-11.6264
倅	-11.6269
宄	-11.6338
撒	-11.6343
瀕	-11.6344
賍	-11.6346
湍	-11.6348
爼	-11.6348
磺	-11.6349
趁	-11.6425
綺	-11.6427
佔	-11.6429
嬉	-11.6429
頊	-11.643
喊	-11.6431
魄	-11.6433
苐	-11.6433
躐	-11.6435
鏑	-11.6439
澶	-11.6441
釀	-11.6513
攙	-11.6515
妹	-11.6519
蔬	-11.6521
隰	-11.6521
豎	-11.6524
芬	-11.6525
携	-11.6528
𠫭	-11.6602
磁	-11.6603
縀	-11.6607
喫	-11.6612
扁	-11.6614
幄	-11.6615
袤	-11.6699
舵	-11.67
掄	-11.6701
忒	-11.6702
雋	-11.6702
冉	-11.6702
飼	-11.6704
阨	-11.6706
閽	-11.6707
鴈	-11.6709
圜	-11.6711
帽	-11.6711
嫺	-11.6789
郯	-11.6789
輻	-11.6789
掯	-11.6789
䜟	-11.6793
顏	-11.6793
饉	-11.6795
臍	-11.6796
瑀	-11.6804
攄	-11.688
袋	-11.6881
狆	-11.6884
詈	-11.6886
琢	-11.6889
喘	-11.689
敖	-11.6891
𤨏	-11.6891
丐	-11.6892
卵	-11.6894
鄖	-11.6968
籐	-11.6974
掇	-11.6979
頺	-11.6979
痰	-11.6979
瑜	-11.6983
淆	-11.6983
翹	-11.6985
蚩	-11.6985
烹	-11.6986
渇	-11.6987
䟦	-11.6988
峯	-11.7072
弦	-11.7074
搔	-11.7076
慤	-11.7077
瘡	-11.7077
倂	-11.7079
袖	-11.7079
葵	-11.7079
孥	-11.7081
慷	-11.7083
瑄	-11.7167
塋	-11.7169
閎	-11.717
愎	-11.7171
橫	-11.7172
涿	-11.7172
顥	-11.7175
仆	-11.7176
曬	-11.7266
錡	-11.7267
贅	-11.7268
緘	-11.727
茸	-11.7361
廡	-11.7364
訾	-11.7365
瑶	-11.7366
耄	-11.7366
噫	-11.7366
勍	-11.7369
圩	-11.7371
壻	-11.7371
渤	-11.7372
圎	-11.7378
撕	-11.745
墀	-11.7454
嘴	-11.7454
蓬	-11.7456
棉	-11.7456
剴	-11.7458
拮	-11.7458
圮	-11.7461
虢	-11.7469
餼	-11.747
忙	-11.7547
庄	-11.7552
虔	-11.7554
搗	-11.7554
棐	-11.7558
棠	-11.7559
遄	-11.7559
鎬	-11.756
賖	-11.7567
耒	-11.7567
俠	-11.7578
缷	-11.765
肄	-11.7655
漓	-11.7656
駢	-11.7656
駙	-11.7658
卡	-11.7658
儔	-11.7661
稲	-11.7661
堕	-11.7662
冥	-11.7663
俎	-11.7663
瘝	-11.7663
旄	-11.7664
偁	-11.7664
粲	-11.7666
圯	-11.7757
憶	-11.7758
紇	-11.7759
犀	-11.776
曏	-11.7761
樵	-11.7764
柬	-11.7765
聮	-11.7765
掎	-11.7766
蠡	-11.7769
畯	-11.7774
睠	-11.7855
鋐	-11.786
殉	-11.7861
綾	-11.7862
郴	-11.7863
纓	-11.7864
締	-11.7864
郝	-11.7866
涓	-11.787
㩁	-11.7966
戇	-11.7966
胎	-11.7968
懣	-11.7973
弑	-11.7973
砲	-11.7974
芟	-11.7975
婻	-11.7985
鯤	-11.8064
胞	-11.8067
扛	-11.807
蘄	-11.807
筮	-11.8076
徨	-11.8077
圃	-11.8083
阮	-11.8164
猪	-11.8171
煮	-11.8173
欄	-11.8173
祺	-11.8175
錙	-11.8177
稚	-11.8178
磧	-11.8178
渰	-11.8178
驥	-11.8179
蠕	-11.8182
吟	-11.8185
馱	-11.8271
澧	-11.8274
膜	-11.8275
椒	-11.8276
唆	-11.828
鏞	-11.8282
彀	-11.8283
驁	-11.8283
璫	-11.8284
荐	-11.8286
槍	-11.8288
艦	-11.8289
溉	-11.8292
䓁	-11.831
籽	-11.838
垜	-11.8386
攅	-11.839
秪	-11.8391
躡	-11.8391
袵	-11.8394
悶	-11.8395
竢	-11.8396
淸	-11.8487
暈	-11.8494
亶	-11.8496
稹	-11.8497
柯	-11.8497
蟄	-11.85
煦	-11.8501
斡	-11.8503
諺	-11.8504
拭	-11.8505
閼	-11.8509
壌	-11.8601
佈	-11.8601
纉	-11.8603
喙	-11.8605
丸	-11.8605
獪	-11.8607
坎	-11.8608
紆	-11.8609
㝢	-11.8609
翳	-11.861
逡	-11.8614
盪	-11.8615
堙	-11.8618
颶	-11.871
鬯	-11.8711
燥	-11.8715
鐫	-11.8716
僨	-11.8718
扳	-11.8721
媮	-11.8721
杞	-11.8722
偵	-11.8722
杲	-11.8724
菽	-11.8725
鑊	-11.8731
鑼	-11.8824
淄	-11.8825
鈕	-11.8826
餙	-11.8827
饕	-11.8828
藎	-11.8829
靠	-11.883
砥	-11.8834
煖	-11.8834
怵	-11.8837
氊	-11.8838
臭	-11.8841
騖	-11.8844
瀋	-11.8932
峝	-11.894
鶻	-11.894
迥	-11.8942
貿	-11.8944
玊	-11.8946
踴	-11.8946
洫	-11.8947
聶	-11.8947
㳙	-11.8947
系	-11.8947
侑	-11.8952
擕	-11.8955
脆	-11.8957
渴	-11.906
儌	-11.9061
怕	-11.9061
韻	-11.9061
諠	-11.9062
冤	-11.9064
聫	-11.9067
砦	-11.9069
閃	-11.9078
澎	-11.9168
咽	-11.917
亹	-11.9171
皁	-11.9172
陬	-11.9175
焜	-11.9178
怖	-11.9178
渚	-11.9179
褐	-11.9183
綑	-11.9285
暵	-11.9286
𤾉	-11.9286
帮	-11.9287
霆	-11.9289
枵	-11.9289
峴	-11.9291
澹	-11.9293
鈇	-11.9294
秖	-11.9295
焰	-11.9296
涖	-11.9296
煉	-11.9298
抜	-11.9299
〇	-11.9318
塡	-11.9403
匀	-11.9407
肢	-11.9409
槁	-11.9411
暉	-11.9413
鞅	-11.9413
泚	-11.9413
鯨	-11.9414
莱	-11.9415
琉	-11.9419
𢷬	-11.9425
盱	-11.9522
朦	-11.9524
翎	-11.9525
螻	-11.9533
酣	-11.9535
髦	-11.9537
甥	-11.9538
斫	-11.9539
倐	-11.954
崙	-11.9546
鎧	-11.9548
遘	-11.9645
藹	-11.9646
轎	-11.965
擴	-11.9653
菑	-11.9655
滂	-11.9657
羮	-11.9657
䋲	-11.9658
汨	-11.9659
寗	-11.9659
哩	-11.9661
燼	-11.9661
徊	-11.9663
翫	-11.9664
脣	-11.9665
殽	-11.9666
錐	-11.9667
埶	-11.9671
蹷	-11.9775
逖	-11.9775
拳	-11.9776
鉉	-11.9777
黻	-11.9778
倩	-11.9778
窠	-11.978
憒	-11.978
恍	-11.9781
麓	-11.9782
埀	-11.9783
郤	-11.9785
龐	-11.9786
眇	-11.9788
悛	-11.9813
閥	-11.9894
蛟	-11.9896
閙	-11.9898
脇	-11.99
濳	-11.99
薫	-11.9904
驤	-11.9905
甿	-11.9906
洒	-11.9907
腦	-11.9909
昬	-11.9915
穂	-12.001
鑚	-12.0023
逈	-12.0027
皥	-12.0028
総	-12.0028
甎	-12.003
岔	-12.003
弹	-12.0032
鼻	-12.0032
歙	-12.0032
賕	-12.0034
潯	-12.0034
虺	-12.0034
﨑	-12.0037
孱	-12.0037
臾	-12.004
碣	-12.004
犢	-12.0047
謩	-12.0149
杰	-12.0149
撈	-12.0151
煜	-12.0153
婺	-12.0158
腕	-12.016
婿	-12.0162
耐	-12.0162
壺	-12.0162
航	-12.0163
𤦺	-12.0163
廳	-12.0163
紐	-12.0163
駟	-12.0165
鑠	-12.0166
菴	-12.0166
珤	-12.0169
撼	-12.0169
睨	-12.017
櫓	-12.0171
澍	-12.0279
倶	-12.0284
懌	-12.0286
椎	-12.0289
粢	-12.029
扺	-12.029
狭	-12.0291
袴	-12.0291
麽	-12.0293
无	-12.0293
嵐	-12.0293
㝡	-12.0294
棣	-12.0294
酤	-12.0295
駸	-12.0301
縉	-12.0411
暹	-12.0412
𦕈	-12.0413
圻	-12.0415
縊	-12.0417
㓙	-12.0418
烙	-12.0418
聾	-12.0419
豊	-12.042
竿	-12.0422
巽	-12.0422
叱	-12.0423
娯	-12.0423
昱	-12.0424
冡	-12.0425
摶	-12.0426
揔	-12.0427
晩	-12.0428
訶	-12.0429
紗	-12.043
鴟	-12.0431
嗸	-12.0552
柩	-12.0552
痼	-12.0552
鄴	-12.0553
靦	-12.0553
央	-12.0554
仿	-12.0555
嚬	-12.0557
輜	-12.0557
茨	-12.0558
狁	-12.0559
踊	-12.0559
孑	-12.056
尖	-12.0562
掉	-12.0565
璪	-12.0568
囉	-12.0682
撮	-12.0683
裡	-12.0686
粘	-12.0688
遛	-12.069
璠	-12.0691
漬	-12.0695
滷	-12.0695
燄	-12.0695
㓕	-12.0697
皓	-12.0697
璨	-12.0816
莖	-12.0818
斁	-12.0819
馥	-12.082
淋	-12.082
呵	-12.0822
吊	-12.0823
碭	-12.0823
仄	-12.0825
玘	-12.0826
糞	-12.0827
鏹	-12.0828
獷	-12.0828
瓌	-12.083
帙	-12.083
彜	-12.0831
悳	-12.0837
觴	-12.084
欖	-12.0956
适	-12.0965
勷	-12.0967
翅	-12.0968
詖	-12.0971
勣	-12.0973
耜	-12.098
諴	-12.1091
殤	-12.1095
纖	-12.1096
沭	-12.1097
琇	-12.1099
筏	-12.11
縫	-12.1101
蓮	-12.1102
伶	-12.1104
呐	-12.1105
侃	-12.1105
衘	-12.1107
暌	-12.1108
惹	-12.1109
兎	-12.1109
鄜	-12.111
瑩	-12.1112
娛	-12.1112
貊	-12.1113
琅	-12.1114
刄	-12.1119
啗	-12.1119
儧	-12.1236
拽	-12.1243
畱	-12.1246
齟	-12.1248
蟠	-12.1251
襁	-12.1252
陀	-12.1253
棊	-12.1253
穡	-12.1256
叄	-12.126
塾	-12.1261
鬧	-12.1381
􁀒	-12.1383
淞	-12.1384
禺	-12.1384
杪	-12.1387
义	-12.1387
厝	-12.139
褚	-12.139
鷄	-12.1391
褫	-12.1393
悵	-12.1393
甕	-12.1394
焯	-12.1394
鏜	-12.1395
嫻	-12.1396
瞑	-12.1397
蹊	-12.1397
佯	-12.1398
柘	-12.1398
勳	-12.1399
杉	-12.1399
煒	-12.14
詘	-12.1408
滬	-12.1412
橄	-12.1523
緋	-12.1532
嘏	-12.1535
劃	-12.1536
謳	-12.1538
戅	-12.1539
䂓	-12.1539
穽	-12.154
罸	-12.1541
簒	-12.1541
瓶	-12.1542
赧	-12.1543
縂	-12.1545
芽	-12.1545
郁	-12.1547
憔	-12.155
鄯	-12.1553
欒	-12.1553
爻	-12.1682
躔	-12.1682
换	-12.1683
螟	-12.1683
廨	-12.1684
羔	-12.169
摠	-12.1692
嶇	-12.1693
蒋	-12.1694
袐	-12.1694
関	-12.1694
戩	-12.1694
籙	-12.1695
犄	-12.1695
鷙	-12.1695
徘	-12.1696
訃	-12.1697
劔	-12.1698
譙	-12.1699
鎔	-12.1701
盎	-12.1706
嚳	-12.1711
柰	-12.1813
􁈄	-12.1828
麵	-12.1829
旴	-12.1829
鬆	-12.1832
稳	-12.1833
霪	-12.1834
莠	-12.1835
屡	-12.1836
鹹	-12.184
宁	-12.1841
牝	-12.1844
遹	-12.1846
耨	-12.1846
壼	-12.1847
鍊	-12.1847
謇	-12.1854
樑	-12.1987
宂	-12.1989
匾	-12.199
珊	-12.1991
找	-12.1991
滲	-12.1993
勺	-12.1993
埸	-12.1993
遶	-12.1994
捃	-12.1997
湔	-12.1998
冺	-12.2
賃	-12.2002
蒔	-12.2143
牾	-12.2148
伽	-12.215
逕	-12.215
栅	-12.2152
稜	-12.2152
邯	-12.2154
桅	-12.2154
韙	-12.2154
駈	-12.2155
瀦	-12.2156
蹔	-12.2162
禫	-12.2162
糗	-12.2163
卭	-12.2164
楹	-12.2168
羗	-12.2172
肖	-12.2208
詮	-12.2287
衒	-12.2301
燠	-12.2304
磽	-12.2304
匭	-12.2306
熬	-12.2308
腿	-12.2309
夬	-12.2309
愉	-12.231
酸	-12.231
硬	-12.231
纛	-12.2311
皷	-12.2311
彂	-12.2315
慊	-12.2316
埧	-12.2318
垍	-12.232
淛	-12.2325
椽	-12.233
穩	-12.2449
粳	-12.2453
疉	-12.2464
挹	-12.2464
荔	-12.2465
猫	-12.2466
豚	-12.2469
軋	-12.247
鈴	-12.247
撝	-12.2471
亰	-12.2471
蹉	-12.2472
翌	-12.2472
樽	-12.2473
彥	-12.2473
闋	-12.2474
倨	-12.2474
籩	-12.2475
犧	-12.2476
懵	-12.2476
爕	-12.2476
邃	-12.2478
禰	-12.2489
夯	-12.2621
叭	-12.2628
矮	-12.2628
澁	-12.263
拷	-12.2632
捶	-12.2632
跂	-12.2634
狙	-12.2635
攪	-12.2636
鋸	-12.2638
氐	-12.2639
顚	-12.264
觖	-12.2641
齪	-12.2642
浴	-12.2643
阽	-12.2643
讙	-12.2643
溷	-12.2643
闚	-12.2643
彷	-12.2644
壠	-12.2645
賙	-12.2646
睥	-12.2647
詡	-12.2653
碧	-12.279
懶	-12.2793
縳	-12.2794
擦	-12.2794
圈	-12.2795
崗	-12.2796
埃	-12.2797
歹	-12.28
𨼆	-12.2801
莒	-12.2801
煑	-12.2801
梢	-12.2803
箝	-12.2803
鬰	-12.2804
穎	-12.2804
珏	-12.2805
俻	-12.2806
賡	-12.2807
蠟	-12.2807
榭	-12.2807
懟	-12.2807
妬	-12.2808
歐	-12.2811
甌	-12.2811
縑	-12.2812
麒	-12.2813
嫚	-12.2815
厫	-12.2956
鄱	-12.2959
撑	-12.296
爺	-12.2961
櫬	-12.2963
胙	-12.2964
溯	-12.2964
廑	-12.2966
吠	-12.2968
罣	-12.2969
擱	-12.297
犁	-12.297
揷	-12.297
縈	-12.2971
䦨	-12.2972
扯	-12.2974
曵	-12.2974
頲	-12.2975
陥	-12.2976
痕	-12.2977
櫛	-12.2977
徤	-12.2978
擐	-12.2979
盆	-12.298
匃	-12.299
臬	-12.313
獎	-12.3133
旂	-12.3133
瓉	-12.3137
藤	-12.3138
餅	-12.3139
夹	-12.3141
簮	-12.3144
帆	-12.3145
諏	-12.3145
蓍	-12.3146
嫂	-12.3147
祅	-12.3148
棹	-12.3148
釗	-12.3149
檻	-12.3152
僑	-12.3153
郅	-12.3153
婆	-12.3154
篋	-12.3154
啖	-12.3155
馘	-12.3156
寀	-12.3157
曺	-12.3158
墉	-12.3158
㐫	-12.3305
幻	-12.3311
孩	-12.3313
鵝	-12.3316
䧺	-12.3317
牀	-12.3317
恡	-12.332
衽	-12.3321
瀉	-12.3321
麄	-12.3324
滴	-12.3324
㐲	-12.3325
党	-12.3325
汧	-12.3325
琥	-12.3326
㬰	-12.3327
纊	-12.3327
菁	-12.3329
懔	-12.3329
籬	-12.3329
斵	-12.3333
笏	-12.3338
眙	-12.3485
妓	-12.3496
俚	-12.3496
綈	-12.3497
緇	-12.3498
􁧛	-12.3498
珣	-12.3498
昶	-12.3498
蘖	-12.3498
曖	-12.3498
縲	-12.3499
縶	-12.3499
衾	-12.3499
崛	-12.3502
翺	-12.3502
嶼	-12.3503
窶	-12.3503
攫	-12.3504
杼	-12.3504
徕	-12.3506
挂	-12.3508
熄	-12.3508
蕞	-12.3508
顗	-12.3512
鎛	-12.352
濃	-12.3663
桌	-12.3667
瞬	-12.3671
謭	-12.3671
刹	-12.3672
駛	-12.3673
棒	-12.3675
鰲	-12.3676
覦	-12.3678
沱	-12.3678
溼	-12.3679
針	-12.3679
􁂒	-12.3679
哄	-12.368
拴	-12.368
揜	-12.3681
霞	-12.3682
糺	-12.3682
榻	-12.3685
僵	-12.3686
漿	-12.3687
躪	-12.3688
藿	-12.3688
泮	-12.3689
肘	-12.3689
唇	-12.3691
戬	-12.3694
辠	-12.3694
儷	-12.3857
覯	-12.386
昴	-12.386
跼	-12.3864
徬	-12.3865
沓	-12.3865
冑	-12.3866
嶷	-12.3867
桶	-12.3867
酗	-12.3868
彘	-12.3869
􁏠	-12.387
庖	-12.387
袂	-12.3872
怏	-12.388
燃	-12.3881
娱	-12.3883
敺	-12.3886
儂	-12.3888
籖	-12.4037
蔀	-12.4042
刨	-12.4044
琬	-12.4045
炯	-12.4046
鹻	-12.4047
滸	-12.4047
捲	-12.4048
孜	-12.4048
葭	-12.4048
簷	-12.4049
炒	-12.405
坻	-12.405
鶉	-12.4051
懃	-12.4051
診	-12.4052
彤	-12.4052
瞿	-12.4052
愾	-12.4052
饜	-12.4053
鄲	-12.4054
扑	-12.4054
苾	-12.4055
叡	-12.4055
畚	-12.4055
檀	-12.4057
㩀	-12.4057
塟	-12.4058
緦	-12.4059
暱	-12.4064
糟	-12.4066
舋	-12.4066
兠	-12.4241
騫	-12.4241
憝	-12.4243
鍵	-12.4244
杯	-12.4244
罅	-12.4244
杵	-12.4244
曼	-12.4249
扒	-12.4249
幡	-12.4249
酈	-12.4256
鯉	-12.4261
斐	-12.4265
嚷	-12.4429
墅	-12.443
舗	-12.4433
症	-12.4436
詒	-12.4439
滾	-12.444
飜	-12.4441
筐	-12.4442
篷	-12.4442
誆	-12.4442
罝	-12.4443
叠	-12.4443
犂	-12.4443
洺	-12.4444
匐	-12.4445
劬	-12.4448
魅	-12.4448
躇	-12.4449
偪	-12.445
很	-12.445
詁	-12.4453
抉	-12.4454
孛	-12.4627
隲	-12.4629
柟	-12.4632
綁	-12.4632
楨	-12.4635
单	-12.4636
浥	-12.4637
涌	-12.4638
唾	-12.4638
酺	-12.4639
璀	-12.4639
顙	-12.4642
澣	-12.4642
惋	-12.4643
匍	-12.4644
佾	-12.4644
蠭	-12.4644
癰	-12.4644
沼	-12.4645
譖	-12.4645
榷	-12.4645
馨	-12.4646
朶	-12.4646
鐄	-12.4648
犴	-12.4648
㓗	-12.4648
舡	-12.4651
檝	-12.4653
琯	-12.4653
妒	-12.4657
皎	-12.4662
蜡	-12.468
叉	-12.4831
閆	-12.4833
煕	-12.4834
姊	-12.4835
㩦	-12.4839
紱	-12.484
撘	-12.484
敉	-12.484
霾	-12.4842
嘯	-12.4842
忖	-12.4846
湎	-12.4846
床	-12.4846
姒	-12.4847
脊	-12.4847
隗	-12.4847
瑊	-12.4847
麤	-12.4848
鼈	-12.4849
圏	-12.485
淬	-12.485
疽	-12.4851
跬	-12.4851
喂	-12.4854
蟒	-12.5042
凃	-12.5045
聪	-12.5048
惲	-12.5049
鉄	-12.505
祛	-12.5051
贇	-12.5051
蚊	-12.5052
亙	-12.5052
牴	-12.5052
嶮	-12.5052
敲	-12.5052
璜	-12.5054
雒	-12.5054
龠	-12.5054
褥	-12.5055
鍤	-12.5055
讋	-12.5055
珙	-12.5056
犇	-12.5059
儁	-12.5061
詬	-12.5063
廝	-12.5064
攴	-12.5068
枋	-12.5069
搢	-12.5205
悸	-12.5254
璞	-12.5258
頹	-12.5258
糈	-12.526
眊	-12.5261
娼	-12.5261
兜	-12.5263
慴	-12.5264
喝	-12.5264
箋	-12.5265
攢	-12.5266
緜	-12.5266
悽	-12.5266
騶	-12.5266
垓	-12.5267
釡	-12.5267
舂	-12.5267
榛	-12.5268
泇	-12.5268
炙	-12.5269
踣	-12.527
愠	-12.5271
臥	-12.5272
抹	-12.5272
㡌	-12.5273
喁	-12.5273
鴨	-12.5273
峰	-12.5273
䞇	-12.5275
楫	-12.5276
鄢	-12.5276
爨	-12.5297
体	-12.5472
肫	-12.5474
鑛	-12.5474
緞	-12.5475
汕	-12.5475
蔟	-12.5476
靑	-12.5476
蟊	-12.5477
璿	-12.5478
訣	-12.548
睡	-12.548
蒿	-12.5481
紕	-12.5482
㟁	-12.5483
濩	-12.5483
撾	-12.5484
橐	-12.5484
偓	-12.5484
卨	-12.5485
㸑	-12.5487
惨	-12.5487
繭	-12.5487
肓	-12.5488
醖	-12.5488
轢	-12.5489
哇	-12.549
獠	-12.55
汊	-12.5697
査	-12.5701
疴	-12.5702
拐	-12.5704
净	-12.5704
𨗳	-12.5705
惸	-12.5706
杳	-12.5708
釜	-12.5708
趍	-12.5708
柝	-12.571
簫	-12.571
愊	-12.571
榦	-12.571
浼	-12.5711
鞋	-12.5712
㢮	-12.5713
雁	-12.5713
驪	-12.5714
窯	-12.5714
狷	-12.5715
藺	-12.5715
鬚	-12.5716
熏	-12.5716
瞰	-12.5716
峭	-12.5716
淘	-12.5716
揉	-12.5716
澱	-12.5719
鍔	-12.572
佗	-12.5721
戧	-12.5923
型	-12.5925
淇	-12.5926
畸	-12.5927
删	-12.5928
幃	-12.5928
戛	-12.5928
餗	-12.593
尫	-12.5931
鑕	-12.5931
渣	-12.5931
炊	-12.5931
敶	-12.5932
莩	-12.5933
蕚	-12.5933
孶	-12.5933
梏	-12.5934
呻	-12.5935
匆	-12.5935
剌	-12.5935
昀	-12.5937
冇	-12.5939
鉤	-12.594
桷	-12.594
龕	-12.5942
諶	-12.5943
髴	-12.5943
紿	-12.5944
鵲	-12.5944
硫	-12.5944
鴉	-12.5945
坂	-12.5945
珎	-12.5949
廁	-12.595
曆	-12.5955
扄	-12.6157
袞	-12.6158
雎	-12.616
怍	-12.616
絨	-12.6161
屛	-12.6163
惬	-12.6164
𣺌	-12.6164
訝	-12.6165
酢	-12.6166
戥	-12.6166
柢	-12.6167
牡	-12.6167
匝	-12.6168
盔	-12.6169
硤	-12.617
癃	-12.6171
曙	-12.6172
蒭	-12.6172
恟	-12.6172
㺜	-12.6173
斾	-12.6173
曁	-12.6173
螽	-12.6174
澟	-12.6174
㦲	-12.6175
盭	-12.6176
祼	-12.6176
怛	-12.6177
桞	-12.6177
絮	-12.618
刮	-12.6187
璲	-12.6393
庵	-12.6394
埂	-12.6396
芑	-12.6397
汐	-12.6398
勔	-12.6398
俳	-12.6398
礫	-12.6399
暄	-12.6401
訏	-12.6403
尔	-12.6403
鍜	-12.6404
媛	-12.6404
腴	-12.6404
苫	-12.6405
碁	-12.6405
僦	-12.6405
癉	-12.6405
峩	-12.6407
蔭	-12.6408
竽	-12.6408
夣	-12.6409
匄	-12.6409
昕	-12.6409
䆳	-12.641
僮	-12.6411
宷	-12.6412
喑	-12.6413
唘	-12.6413
箔	-12.6414
糯	-12.6415
髣	-12.6415
倔	-12.6417
獬	-12.6419
噲	-12.6426
贜	-12.6632
刖	-12.6635
晤	-12.6641
搪	-12.6641
吧	-12.6643
閟	-12.6645
熖	-12.6645
笙	-12.6646
驃	-12.6646
邐	-12.6646
瘋	-12.6646
蹐	-12.6646
靴	-12.6647
濓	-12.6647
愴	-12.6649
窖	-12.6649
怱	-12.6649
狴	-12.6651
樗	-12.6651
栖	-12.6651
籥	-12.6652
叫	-12.6654
芮	-12.6655
泝	-12.6655
弧	-12.6656
茭	-12.6657
攣	-12.6659
璃	-12.6659
貔	-12.666
繚	-12.6661
祓	-12.6664
獍	-12.6879
戽	-12.6889
繙	-12.6891
嶠	-12.6891
莾	-12.6891
嗚	-12.6892
棻	-12.6893
耑	-12.6894
抝	-12.6894
溘	-12.6895
𬗟	-12.6896
嬴	-12.6896
糠	-12.6896
筒	-12.6897
瀰	-12.6897
溧	-12.6898
咒	-12.69
屹	-12.69
丢	-12.69
睽	-12.6902
銑	-12.6903
搴	-12.6903
盂	-12.6904
啼	-12.6904
蠆	-12.6904
譜	-12.6904
澂	-12.6904
昪	-12.6906
惚	-12.6906
旃	-12.6907
殂	-12.6908
㞐	-12.691
筞	-12.6912
宕	-12.6912
暦	-12.7145
劓	-12.7149
拗	-12.715
瞎	-12.7151
醢	-12.7152
鵠	-12.7152
縴	-12.7152
腊	-12.7153
掏	-12.7153
蕙	-12.7153
髠	-12.7154
詾	-12.7154
兀	-12.7155
翥	-12.7156
譟	-12.7156
蓺	-12.7158
磊	-12.7158
匯	-12.7158
蕘	-12.7159
夐	-12.7159
羿	-12.7161
跖	-12.7161
漣	-12.7161
鈺	-12.7162
么	-12.7162
赶	-12.7163
簇	-12.7164
紈	-12.7164
闌	-12.7165
鏃	-12.7165
匏	-12.7165
畤	-12.7166
眦	-12.7166
噎	-12.7167
遅	-12.7167
莆	-12.717
彧	-12.7172
涪	-12.7174
瘼	-12.7294
嘱	-12.7402
伙	-12.7405
螂	-12.7407
莞	-12.7408
豌	-12.7409
礟	-12.741
􁌆	-12.741
玄	-12.7411
冄	-12.7411
䌓	-12.7412
鹺	-12.7412
濘	-12.7413
擎	-12.7414
硐	-12.7415
蜚	-12.7415
摽	-12.7415
狸	-12.7417
皋	-12.7417
脾	-12.7417
鯢	-12.7419
閧	-12.7419
姨	-12.7419
殲	-12.742
閬	-12.742
儈	-12.742
遡	-12.742
蕕	-12.7422
𦍑	-12.7422
攽	-12.7422
淦	-12.7422
嘖	-12.7423
陘	-12.7423
徯	-12.7423
獅	-12.7425
溱	-12.7428
毬	-12.7431
剡	-12.7432
澠	-12.7433
湜	-12.7433
𥙿	-12.7435
鼂	-12.7435
梃	-12.7436
秬	-12.7672
屉	-12.7672
匕	-12.7675
蓰	-12.7676
嘻	-12.7683
疢	-12.7683
噍	-12.7684
𢡟	-12.7684
䍐	-12.7685
泳	-12.7685
蠹	-12.7686
楞	-12.7688
雌	-12.7688
麋	-12.769
桎	-12.769
彿	-12.7691
紋	-12.7691
嬙	-12.7692
櫜	-12.7692
巵	-12.7695
厠	-12.7696
莘	-12.7697
睚	-12.7698
儕	-12.7699
啜	-12.7699
􁁏	-12.77
蠅	-12.77
迸	-12.77
壝	-12.7702
軏	-12.7941
瑯	-12.795
譊	-12.7953
曄	-12.7954
竪	-12.7955
悒	-12.7956
羆	-12.7959
䜿	-12.7962
剉	-12.7963
盞	-12.7963
默	-12.7964
咏	-12.7964
禔	-12.7964
烱	-12.7965
廏	-12.7966
詛	-12.7966
栻	-12.7966
蔕	-12.7967
芹	-12.7968
袪	-12.7969
眠	-12.797
蜮	-12.797
吻	-12.797
諦	-12.7971
硯	-12.7971
厓	-12.7971
俑	-12.7974
禕	-12.7974
踧	-12.7974
嗔	-12.7974
篡	-12.7975
异	-12.7976
壙	-12.7977
岢	-12.7977
奐	-12.7978
芃	-12.8232
鬨	-12.8236
蓆	-12.8237
禇	-12.8242
豸	-12.8243
扉	-12.8246
畹	-12.8246
殮	-12.8246
珩	-12.8247
躅	-12.8249
櫟	-12.8249
瘐	-12.825
薇	-12.8251
噤	-12.8252
琠	-12.8253
綫	-12.8253
儇	-12.8253
僊	-12.8253
螺	-12.8254
劭	-12.8256
濰	-12.8257
恰	-12.8257
悻	-12.8258
淖	-12.8258
綘	-12.826
𣪚	-12.8261
絰	-12.8261
楩	-12.8262
騏	-12.8263
藜	-12.8264
惮	-12.8264
瑚	-12.8531
稂	-12.8532
硪	-12.8536
盼	-12.8536
恁	-12.8537
堘	-12.8537
糙	-12.8543
㷀	-12.8543
褎	-12.8544
􁐍	-12.8544
礱	-12.8545
潑	-12.8545
亾	-12.8547
柒	-12.8548
辤	-12.8548
澈	-12.8548
棧	-12.8549
緍	-12.8549
絢	-12.855
簋	-12.8551
鶚	-12.8551
瓠	-12.8552
墯	-12.8552
渺	-12.8553
婣	-12.8554
廛	-12.8556
唃	-12.8557
熒	-12.8558
葑	-12.8558
菩	-12.8558
豳	-12.8559
阼	-12.8559
飫	-12.8561
淝	-12.8561
媾	-12.857
鸚	-12.8837
瀠	-12.8838
孕	-12.8841
鞘	-12.8843
翀	-12.8843
曦	-12.8844
冏	-12.8844
峨	-12.8845
嚢	-12.8849
勰	-12.8849
珮	-12.8849
虖	-12.885
隧	-12.885
癡	-12.885
纜	-12.885
嶧	-12.8851
吃	-12.8851
廽	-12.8851
鬪	-12.8851
篚	-12.8852
晡	-12.8853
塢	-12.8854
簸	-12.8855
僇	-12.8855
槃	-12.8856
翬	-12.8856
衫	-12.8856
濼	-12.8859
扮	-12.8863
絜	-12.8864
鏻	-12.914
剃	-12.9144
窰	-12.9148
擂	-12.9149
嫓	-12.9149
綍	-12.915
戱	-12.915
婭	-12.9151
衊	-12.9153
蝟	-12.9153
液	-12.9154
簧	-12.9156
迕	-12.9157
暐	-12.9158
巒	-12.9158
愓	-12.9158
罟	-12.9158
煤	-12.9159
硜	-12.9159
舄	-12.916
粃	-12.916
嗤	-12.916
恫	-12.9161
盥	-12.9162
謠	-12.9162
敭	-12.9163
籓	-12.9165
叮	-12.9166
訌	-12.9167
个	-12.9167
棼	-12.9167
膈	-12.9168
耋	-12.9168
闐	-12.9169
纁	-12.9171
玆	-12.9172
賻	-12.9174
髀	-12.9174
鳬	-12.9175
劘	-12.9178
矍	-12.9184
悰	-12.946
淀	-12.9471
悪	-12.9471
猖	-12.9472
沗	-12.9476
鎡	-12.9477
腫	-12.9478
礬	-12.9481
縗	-12.9482
呢	-12.9482
咱	-12.9484
胼	-12.9485
胝	-12.9486
猗	-12.9486
伉	-12.9486
慌	-12.9487
槨	-12.9487
沍	-12.9487
墠	-12.9488
麴	-12.9489
軺	-12.9489
疼	-12.9489
澮	-12.9489
搦	-12.949
崧	-12.9493
裾	-12.9494
攖	-12.9494
嫗	-12.9495
稗	-12.9502
郄	-12.9802
梨	-12.9802
辧	-12.9804
穉	-12.9804
𤯝	-12.9808
燿	-12.9808
慱	-12.9809
爍	-12.981
晃	-12.981
閠	-12.9811
摰	-12.9811
鏐	-12.9812
癢	-12.9812
禠	-12.9815
塏	-12.9815
珂	-12.9816
箸	-12.9816
琨	-12.9816
扃	-12.9817
塜	-12.9817
汜	-12.9818
杕	-12.9818
戳	-12.982
髄	-12.9821
楧	-12.9821
貰	-12.9824
餞	-12.9825
鴆	-12.9825
嚚	-12.9825
糲	-12.9825
鉏	-12.9827
鸇	-12.9828
堞	-12.9828
柑	-12.9829
屨	-12.9833
繄	-13.0144
臟	-13.0147
艮	-13.0147
菓	-13.0149
􁌫	-13.0151
蔴	-13.0153
盃	-13.0153
褻	-13.0155
匙	-13.0155
尭	-13.0157
䟎	-13.0157
璁	-13.0158
閡	-13.016
娘	-13.016
簪	-13.016
疹	-13.0161
菅	-13.0161
篙	-13.0161
㺯	-13.0162
鈵	-13.0162
訩	-13.0164
舁	-13.0165
愞	-13.0165
雱	-13.0166
琚	-13.0166
芘	-13.0166
炫	-13.0166
蛙	-13.0167
刓	-13.0167
跣	-13.0167
鍛	-13.0168
襖	-13.017
峡	-13.017
伋	-13.0171
惷	-13.0171
牣	-13.0172
耰	-13.0174
仞	-13.0185
笥	-13.0187
楯	-13.0194
焕	-13.0493
瘸	-13.0493
􁌰	-13.0499
盒	-13.0501
頰	-13.0502
姆	-13.0504
殚	-13.0506
欎	-13.0509
蘷	-13.051
猊	-13.051
捴	-13.0511
噪	-13.0512
騸	-13.0513
訢	-13.0513
媪	-13.0513
瀏	-13.0514
鼗	-13.0514
酧	-13.0514
縟	-13.0516
遝	-13.0517
坰	-13.0517
棋	-13.0517
鵰	-13.0519
脗	-13.052
獫	-13.052
呑	-13.0521
堽	-13.0521
曝	-13.0521
趋	-13.0521
斑	-13.0522
萼	-13.0523
瞶	-13.0523
闖	-13.0524
㕓	-13.0524
胃	-13.0524
涎	-13.0524
橅	-13.0528
糖	-13.0528
蹄	-13.0528
熲	-13.0528
嚀	-13.053
艫	-13.0531
嚕	-13.0532
萍	-13.0538
穜	-13.0539
桉	-13.0543
尢	-13.087
浃	-13.0873
爱	-13.0877
漑	-13.0881
粧	-13.0882
諲	-13.0883
焞	-13.0884
絪	-13.0885
犖	-13.0885
矚	-13.0885
萎	-13.0885
茗	-13.0886
鄔	-13.0886
寞	-13.0887
恝	-13.0888
儋	-13.0888
睫	-13.0889
璵	-13.089
譔	-13.089
跛	-13.0891
輭	-13.0891
靄	-13.0891
媟	-13.0892
堦	-13.0892
佻	-13.0893
欹	-13.0893
毉	-13.0894
椗	-13.0895
扭	-13.0895
乹	-13.0896
軻	-13.0896
祸	-13.0898
頷	-13.0898
賬	-13.0899
惪	-13.0899
玟	-13.0899
瞍	-13.0899
煓	-13.0899
緻	-13.0899
鄊	-13.09
齧	-13.0901
甯	-13.0902
眎	-13.0903
絺	-13.0908
塑	-13.0908
倜	-13.091
塍	-13.1244
鼇	-13.1258
顕	-13.126
璥	-13.1261
壟	-13.1263
綯	-13.1263
酆	-13.1263
埭	-13.1267
毖	-13.1267
汹	-13.1269
秫	-13.127
媳	-13.1271
艍	-13.1271
巇	-13.1275
礿	-13.1275
柅	-13.1276
开	-13.1276
彍	-13.1277
媢	-13.1278
桴	-13.1279
髫	-13.1279
砭	-13.1279
飱	-13.1279
妍	-13.128
醪	-13.128
詫	-13.1281
挻	-13.1282
檟	-13.1283
鏊	-13.1283
袱	-13.1283
咐	-13.1286
黈	-13.1286
耦	-13.1286
嗾	-13.1286
騃	-13.1298
賾	-13.166
坵	-13.1661
簍	-13.1663
戞	-13.1664
媵	-13.1664
筯	-13.1665
㵼	-13.1667
侫	-13.1668
恧	-13.1669
蘋	-13.167
骼	-13.1671
楓	-13.1671
晒	-13.1673
勩	-13.1673
埔	-13.1673
埓	-13.1673
麯	-13.1673
凂	-13.1674
鏖	-13.1674
磔	-13.1674
縞	-13.1674
嵎	-13.1675
杆	-13.1675
肚	-13.1675
剸	-13.1675
拍	-13.1676
馹	-13.1676
逍	-13.1677
暁	-13.1677
捱	-13.1677
饍	-13.1678
盻	-13.1678
摸	-13.1678
珥	-13.1679
糵	-13.1679
羯	-13.1681
涂	-13.1682
醲	-13.1682
彎	-13.1682
羇	-13.1683
蝦	-13.1683
饔	-13.1684
簞	-13.1685
滓	-13.1686
脛	-13.1687
惏	-13.1688
殪	-13.1688
窳	-13.1688
郃	-13.1689
聡	-13.1689
怫	-13.1689
枹	-13.1689
䄂	-13.1691
囷	-13.1691
氈	-13.1693
邾	-13.1694
呶	-13.2069
唬	-13.2073
搉	-13.2076
虵	-13.2082
灤	-13.2083
磋	-13.2084
銹	-13.2086
杌	-13.2087
竜	-13.2087
褂	-13.2087
玀	-13.2089
捽	-13.2089
椘	-13.209
歪	-13.2091
坼	-13.2092
煨	-13.2092
蟬	-13.2093
晾	-13.2093
榔	-13.2093
謔	-13.2093
呪	-13.2093
椅	-13.2094
裵	-13.2094
欷	-13.2095
汁	-13.2095
䑃	-13.2095
鍬	-13.2095
澀	-13.2095
􁇠	-13.2095
䰟	-13.2096
腥	-13.2096
躓	-13.2097
摛	-13.2098
滉	-13.2099
刎	-13.21
彖	-13.21
罩	-13.21
悄	-13.21
檣	-13.2101
鍼	-13.2101
縠	-13.2101
䨇	-13.2103
蘊	-13.2105
倏	-13.2105
舳	-13.2106
憧	-13.2109
駞	-13.211
埕	-13.211
畒	-13.2114
珦	-13.2119
摉	-13.2512
盲	-13.2513
勗	-13.2513
屣	-13.2514
窻	-13.2515
毳	-13.2516
罍	-13.2516
剜	-13.2517
蜜	-13.2517
槪	-13.2517
􁐠	-13.2518
嘔	-13.2519
晫	-13.2519
磯	-13.2521
洧	-13.2521
甃	-13.2521
哮	-13.2521
澨	-13.2522
衺	-13.2522
虫	-13.2522
獮	-13.2523
匈	-13.2524
螫	-13.2525
咆	-13.2525
淶	-13.2525
痾	-13.2525
殣	-13.2526
塤	-13.2527
荏	-13.2528
痍	-13.2529
刳	-13.2529
赭	-13.253
讚	-13.2531
倀	-13.2531
徔	-13.2533
紼	-13.2534
紡	-13.2534
恚	-13.2534
盩	-13.2535
瀍	-13.2537
皦	-13.2537
犍	-13.2538
檐	-13.2543
箒	-13.2544
豋	-13.2544
弇	-13.2545
珉	-13.2546
溆	-13.2546
筴	-13.2547
玫	-13.2965
豔	-13.2967
珽	-13.2969
𠻳	-13.297
朓	-13.2971
鬲	-13.2972
佘	-13.2972
蘧	-13.2973
嶴	-13.2973
祟	-13.2973
抨	-13.2974
缾	-13.2974
堲	-13.2974
傀	-13.2974
歧	-13.2975
慼	-13.2977
舩	-13.2977
觜	-13.2977
掞	-13.2977
鷂	-13.2978
橛	-13.2978
佖	-13.2978
餮	-13.2979
晳	-13.298
儗	-13.2981
驂	-13.2981
厎	-13.2981
綉	-13.2981
㗖	-13.2981
刊	-13.2981
讃	-13.2982
遨	-13.2983
搤	-13.2984
軄	-13.2984
咲	-13.2984
虀	-13.2985
聒	-13.2985
竺	-13.2986
啄	-13.2986
溟	-13.2986
蹬	-13.2986
𫉬	-13.2986
柁	-13.2986
畛	-13.2987
隃	-13.2988
啞	-13.2989
莪	-13.2989
簣	-13.2989
􁀲	-13.2989
𬞞	-13.2992
􁝠	-13.2992
痿	-13.2992
擣	-13.2993
筑	-13.2994
皖	-13.2996
繅	-13.2999
鷺	-13.2999
郜	-13.3
怎	-13.301
仝	-13.3011
鬴	-13.3013
澑	-13.3435
凴	-13.3436
廒	-13.3437
􁲑	-13.3438
担	-13.344
剷	-13.344
稭	-13.3443
昝	-13.3444
晻	-13.3446
燹	-13.3447
綻	-13.3447
疃	-13.3448
悱	-13.3449
窑	-13.3451
郿	-13.3451
邜	-13.3452
猴	-13.3452
􁁂	-13.3453
菊	-13.3455
㴞	-13.3455
忮	-13.3455
𣢾	-13.3456
芸	-13.3456
紲	-13.3456
郇	-13.3457
􁆢	-13.3457
稞	-13.3457
螭	-13.3457
鏘	-13.3458
炮	-13.3458
凹	-13.3458
孀	-13.3458
黏	-13.346
逯	-13.346
獯	-13.3461
邴	-13.3461
哂	-13.3461
戻	-13.3461
𡨕	-13.3461
讁	-13.3461
暎	-13.3462
雝	-13.3462
阪	-13.3462
樟	-13.3464
鉦	-13.3464
喟	-13.3465
鑪	-13.3466
槀	-13.3467
豬	-13.3468
䲭	-13.347
醻	-13.3471
堊	-13.3472
嘲	-13.3473
鐍	-13.3476
餱	-13.3476
䟱	-13.3477
鈆	-13.3477
嵬	-13.3477
煢	-13.348
煇	-13.3482
伾	-13.3496
蚌	-13.3931
斟	-13.3936
臠	-13.3938
搃	-13.394
謊	-13.3944
邰	-13.3947
穸	-13.3949
牐	-13.3949
腠	-13.395
賒	-13.3951
𥪡	-13.3951
簠	-13.3953
􁐜	-13.3953
烖	-13.3953
牋	-13.3954
郕	-13.3954
裼	-13.3954
悝	-13.3955
滹	-13.3955
鵞	-13.3955
螳	-13.3956
棫	-13.3957
昺	-13.3957
麫	-13.3958
撦	-13.3958
蒯	-13.3958
痢	-13.3959
飡	-13.3959
咻	-13.396
戣	-13.396
䥴	-13.396
饟	-13.3961
餵	-13.3962
蚡	-13.3962
楽	-13.3963
聵	-13.3963
曳	-13.3963
箧	-13.3964
闤	-13.3964
趄	-13.3964
楙	-13.3964
埒	-13.3965
纏	-13.3965
闠	-13.3966
痏	-13.3967
爝	-13.3967
吭	-13.3968
凈	-13.3969
骾	-13.3971
吮	-13.3973
赳	-13.3976
霓	-13.3976
鄣	-13.3976
廈	-13.3985
浤	-13.4435
茄	-13.4463
鬃	-13.4463
澥	-13.4465
葆	-13.4467
褰	-13.447
撩	-13.447
杓	-13.4471
璐	-13.4472
昜	-13.4473
擗	-13.4474
垠	-13.4474
幬	-13.4474
蕉	-13.4475
惺	-13.4475
鱉	-13.4476
骰	-13.4477
荻	-13.4477
酖	-13.4478
翮	-13.4478
襍	-13.4479
栰	-13.4479
慇	-13.448
詼	-13.448
朒	-13.448
浣	-13.4481
䴡	-13.4481
蘩	-13.4481
拚	-13.4481
溶	-13.4482
㬊	-13.4482
濂	-13.4484
韃	-13.4485
廋	-13.4485
汭	-13.4485
緼	-13.4485
捆	-13.4486
梭	-13.4487
倥	-13.4487
澐	-13.4488
兕	-13.4489
梵	-13.4489
茆	-13.4489
粕	-13.449
醋	-13.449
頔	-13.449
鄞	-13.4492
萋	-13.4493
鍚	-13.4493
錝	-13.4495
鞬	-13.4496
襪	-13.4496
祏	-13.4498
瑒	-13.4502
樾	-13.4511
咬	-13.4511
痘	-13.5012
秒	-13.5015
掀	-13.5023
咳	-13.5026
卉	-13.5028
涘	-13.5031
憬	-13.5031
鎰	-13.5032
帚	-13.5035
跑	-13.5035
矬	-13.5035
禩	-13.5036
蝮	-13.5037
哷	-13.5037
綆	-13.5037
薙	-13.5038
眺	-13.5038
籀	-13.5038
庀	-13.5039
媯	-13.5039
鵷	-13.5039
諼	-13.5039
蠖	-13.5039
哽	-13.5039
侣	-13.504
𥚹	-13.504
祹	-13.5042
矇	-13.5042
旤	-13.5043
崤	-13.5043
諝	-13.5043
槱	-13.5043
擥	-13.5044
晙	-13.5044
劻	-13.5045
雛	-13.5045
噴	-13.5045
侁	-13.5045
艷	-13.5045
籞	-13.5047
誄	-13.5047
靼	-13.5048
陴	-13.5048
瑱	-13.5049
杏	-13.5049
駔	-13.5049
湫	-13.505
禨	-13.505
櫝	-13.5055
窽	-13.5055
頠	-13.5056
韡	-13.5062
􁩷	-13.5092
屜	-13.5593
鰍	-13.5612
讌	-13.5614
攩	-13.5615
凊	-13.5617
捭	-13.5617
嶂	-13.5617
鼙	-13.5618
辮	-13.5619
棖	-13.562
轝	-13.562
黌	-13.5621
疣	-13.5622
柷	-13.5622
芋	-13.5622
賘	-13.5622
黴	-13.5622
鏁	-13.5623
􁇢	-13.5623
酥	-13.5624
疥	-13.5625
賺	-13.5625
𤇺	-13.5625
矦	-13.5625
阱	-13.5627
鑣	-13.5627
瑁	-13.5628
褁	-13.5628
輶	-13.5629
碗	-13.5629
笄	-13.563
忡	-13.563
崎	-13.563
厖	-13.563
鋼	-13.5631
郟	-13.5631
鏗	-13.5631
璇	-13.5632
脯	-13.5633
肱	-13.5633
筲	-13.5633
忷	-13.5633
橙	-13.5633
憺	-13.5634
爇	-13.5635
児	-13.5635
譾	-13.5636
頁	-13.5637
銛	-13.5637
枘	-13.5638
痺	-13.5639
幔	-13.5639
魔	-13.5639
玭	-13.5639
姐	-13.564
偲	-13.5641
甜	-13.5643
圑	-13.5643
痞	-13.5645
佀	-13.5648
卬	-13.5649
柚	-13.5652
􁧑	-13.5656
螣	-13.623
礁	-13.6233
礼	-13.6234
斆	-13.6234
奶	-13.6236
蓼	-13.6236
畦	-13.6238
丒	-13.624
賸	-13.624
篾	-13.6241
醬	-13.6241
胔	-13.6241
螢	-13.6242
驘	-13.6243
叧	-13.6243
窓	-13.6244
蹰	-13.6247
棨	-13.6247
歃	-13.6248
􁐾	-13.6248
瑤	-13.6248
縢	-13.6249
秃	-13.6251
蹻	-13.6251
糇	-13.6253
輊	-13.6253
橘	-13.6254
翩	-13.6254
嫠	-13.6255
蕤	-13.6256
汔	-13.6256
蜺	-13.6256
􁂗	-13.6256
蛀	-13.6257
侏	-13.6257
暟	-13.6258
酪	-13.6259
􁱝	-13.6259
抆	-13.6259
罐	-13.626
榱	-13.626
瘢	-13.626
坌	-13.6261
宓	-13.6262
閈	-13.6262
鴞	-13.6262
帕	-13.6262
烜	-13.6263
憯	-13.6263
囏	-13.6263
鉢	-13.6263
畵	-13.6263
矻	-13.6264
蹴	-13.6265
臏	-13.6265
戹	-13.6266
万	-13.6267
肈	-13.6268
隤	-13.6268
肴	-13.6269
癯	-13.6271
氂	-13.6272
聃	-13.6273
靁	-13.6277
蓐	-13.6288
傘	-13.6881
描	-13.6893
癬	-13.6898
釴	-13.6902
嵒	-13.6903
嫩	-13.6903
碉	-13.6903
蜑	-13.6905
紥	-13.6905
嚙	-13.6905
疤	-13.6906
玢	-13.6907
尙	-13.6907
梴	-13.6907
枲	-13.6908
檮	-13.691
㮣	-13.691
蔗	-13.6911
埜	-13.6912
訿	-13.6912
禬	-13.6913
厘	-13.6914
甑	-13.6914
乜	-13.6915
洄	-13.6915
橜	-13.6916
尓	-13.6916
术	-13.6916
篩	-13.6917
杻	-13.6917
閶	-13.6917
郛	-13.6917
隼	-13.6917
甽	-13.6918
佶	-13.6918
灸	-13.6918
倕	-13.6919
雊	-13.692
匵	-13.692
溽	-13.6921
塈	-13.6921
踢	-13.6922
韈	-13.6923
搒	-13.6923
竚	-13.6923
撐	-13.6924
煆	-13.6924
洿	-13.6924
罽	-13.6925
涣	-13.6925
妤	-13.6925
迦	-13.6925
鬍	-13.6926
慫	-13.6926
爚	-13.6926
咄	-13.6928
薾	-13.6929
鐃	-13.6929
价	-13.6929
嘘	-13.6929
幘	-13.6929
确	-13.6931
秸	-13.6932
暠	-13.6932
洹	-13.6932
抔	-13.6933
炤	-13.6933
韞	-13.6933
陁	-13.6936
珝	-13.6937
逌	-13.694
洚	-13.6941
丰	-13.6943
𫀆	-13.6944
軿	-13.695
訹	-13.6962
諟	-13.7604
臓	-13.7609
葅	-13.7611
藳	-13.7618
飈	-13.762
断	-13.762
鮓	-13.762
懴	-13.7622
緗	-13.7622
瘟	-13.7624
艶	-13.7625
燝	-13.7625
􁏏	-13.7625
鄘	-13.7626
壐	-13.7626
跎	-13.7626
歔	-13.7626
霅	-13.7627
馪	-13.7627
蜃	-13.7628
鈿	-13.7628
萄	-13.7628
燉	-13.7629
筍	-13.7629
餔	-13.763
􁠙	-13.763
炌	-13.763
襯	-13.763
䑸	-13.763
仳	-13.763
笳	-13.7631
瓏	-13.7631
艌	-13.7631
雘	-13.7631
瘥	-13.7632
鄺	-13.7632
䦧	-13.7632
􁪽	-13.7632
怔	-13.7632
飴	-13.7633
瘧	-13.7633
獒	-13.7634
茝	-13.7635
蚕	-13.7636
趫	-13.7638
柙	-13.7639
忸	-13.7639
莢	-13.764
鄼	-13.764
徉	-13.7641
梱	-13.7641
塚	-13.7641
秔	-13.7642
蹠	-13.7642
券	-13.7642
庳	-13.7643
庌	-13.7643
蜕	-13.7644
㳫	-13.7644
咀	-13.7645
陿	-13.7645
糕	-13.7645
嚼	-13.7646
𫐠	-13.7646
璸	-13.7647
耉	-13.7647
劈	-13.765
悈	-13.765
㛰	-13.765
呷	-13.7651
緹	-13.7652
酎	-13.7652
騂	-13.7653
藔	-13.7653
娥	-13.7654
璹	-13.7654
浜	-13.7654
黝	-13.7657
繢	-13.7657
蝎	-13.7658
炷	-13.7659
鼒	-13.835
径	-13.837
􁰽	-13.8376
幙	-13.8377
絆	-13.8384
牕	-13.8385
薯	-13.8388
䘵	-13.8389
簰	-13.839
芾	-13.8391
坯	-13.8391
惱	-13.8393
茒	-13.8393
埤	-13.8394
紃	-13.8394
晹	-13.8394
緖	-13.8394
稈	-13.8395
迩	-13.8395
綢	-13.8395
掦	-13.8396
姤	-13.8397
齠	-13.8398
晶	-13.8398
􁁎	-13.8399
奩	-13.84
邨	-13.84
酹	-13.84
縋	-13.84
艇	-13.8401
䣃	-13.8401
爬	-13.8401
龢	-13.8401
榕	-13.8401
蛋	-13.8401
巉	-13.8403
誾	-13.8403
貉	-13.8403
癈	-13.8403
搧	-13.8404
曕	-13.8404
萇	-13.8404
磾	-13.8405
敡	-13.8405
櫪	-13.8405
煞	-13.8406
磕	-13.8408
􁆸	-13.8408
淅	-13.8408
眸	-13.8408
甓	-13.8409
憃	-13.8409
斿	-13.8409
苓	-13.841
覼	-13.841
伱	-13.8411
腎	-13.8411
觕	-13.8412
掜	-13.8413
蚋	-13.8415
苧	-13.8416
卲	-13.8416
胖	-13.8416
醎	-13.8417
鏄	-13.8417
詵	-13.8417
廙	-13.8417
裙	-13.8419
廚	-13.8419
蘗	-13.842
泒	-13.842
撡	-13.842
砧	-13.8422
朏	-13.8423
㾗	-13.8424
踹	-13.8426
糅	-13.8426
炬	-13.8435
鄗	-13.8445
㭬	-13.9204
纇	-13.9206
鷩	-13.9207
辞	-13.921
嚻	-13.9212
鐙	-13.9214
㠓	-13.9214
淒	-13.9217
傒	-13.9217
揄	-13.9219
?	-13.9219
埏	-13.922
惛	-13.9222
穠	-13.9223
頞	-13.9224
蜋	-13.9224
邅	-13.9226
罇	-13.9226
秈	-13.9227
癲	-13.9227
氾	-13.9228
茁	-13.9228
秕	-13.9229
遒	-13.9229
湄	-13.9229
麰	-13.9229
暾	-13.9229
坳	-13.923
埴	-13.9231
鬢	-13.9231
玗	-13.9232
殻	-13.9232
磑	-13.9232
䡖	-13.9232
咤	-13.9232
頎	-13.9233
槳	-13.9233
爌	-13.9234
騭	-13.9235
昞	-13.9235
幢	-13.9235
嵌	-13.9235
褘	-13.9235
噂	-13.9236
窋	-13.9236
㭱	-13.9236
憙	-13.9236
瑰	-13.9237
肋	-13.9237
顰	-13.9237
渟	-13.9237
柞	-13.9237
慓	-13.9238
拄	-13.9238
𦦨	-13.9238
覷	-13.9239
黽	-13.9239
隩	-13.9239
齓	-13.924
謏	-13.924
弈	-13.924
儛	-13.9241
庒	-13.9241
葷	-13.9242
紺	-13.9242
醯	-13.9242
勌	-13.9243
轟	-13.9243
蟣	-13.9243
錬	-13.9243
啣	-13.9243
誖	-13.9243
朐	-13.9244
𤱔	-13.9244
蜒	-13.9244
菉	-13.9245
犆	-13.9245
笆	-13.9246
邽	-13.9246
蹀	-13.9246
劌	-13.9246
䑛	-13.9246
踳	-13.9247
腯	-13.9247
􁁶	-13.9247
蹲	-13.9247
耎	-13.9248
唤	-13.9249
絍	-13.9249
􁃻	-13.9249
踉	-13.925
迃	-13.9252
臼	-13.9252
仭	-13.9253
鷔	-13.9254
皃	-13.9254
筩	-13.9257
籃	-13.9259
媕	-13.9259
錚	-13.926
㫤	-13.9263
靉	-13.9265
堨	-13.9266
萑	-13.9271
娃	-14.0105
嗽	-14.0106
椁	-14.0116
洸	-14.0122
鮒	-14.0124
鋩	-14.0125
荄	-14.0128
尠	-14.0128
湃	-14.0129
幚	-14.0133
􁚠	-14.0134
𣏌	-14.0135
紝	-14.0135
珀	-14.0136
枤	-14.0136
㡳	-14.0136
穣	-14.0137
愳	-14.0137
暬	-14.0137
鋌	-14.0137
跧	-14.0137
羶	-14.0137
鋗	-14.0139
霰	-14.014
㴻	-14.014
覡	-14.0141
衎	-14.0141
楸	-14.0141
薈	-14.0141
逥	-14.0142
蛾	-14.0142
弥	-14.0142
蜴	-14.0142
堌	-14.0142
焫	-14.0143
浞	-14.0143
巔	-14.0143
絁	-14.0143
嗎	-14.0143
蹌	-14.0143
璡	-14.0144
攲	-14.0145
鐐	-14.0146
菱	-14.0146
硏	-14.0146
豨	-14.0147
膩	-14.0148
哆	-14.0148
槊	-14.0149
甍	-14.015
阸	-14.015
䝴	-14.015
圄	-14.0151
飇	-14.0151
慵	-14.0151
廌	-14.0151
鰌	-14.0152
鞀	-14.0152
鍰	-14.0152
媽	-14.0153
嚭	-14.0153
髻	-14.0154
楛	-14.0154
欬	-14.0154
皐	-14.0155
逶	-14.0155
䍧	-14.0156
摃	-14.0156
嵇	-14.0156
窆	-14.0156
噉	-14.0156
􁳁	-14.0156
齔	-14.0157
緱	-14.0157
瓛	-14.0158
壷	-14.0159
埆	-14.016
渦	-14.016
舸	-14.0161
刅	-14.0162
灞	-14.0162
舫	-14.0163
釃	-14.0163
瓢	-14.0164
瘃	-14.0167
蠋	-14.0169
媺	-14.017
㜮	-14.0171
眡	-14.0171
誶	-14.0172
荃	-14.0172
㯶	-14.0176
釵	-14.0184
禴	-14.0193
爹	-14.0193
饎	-14.0231
櫍	-14.1074
磴	-14.1097
􁢑	-14.1102
耼	-14.1111
鈁	-14.1114
貛	-14.1118
譓	-14.1118
絓	-14.1123
涅	-14.1125
鞮	-14.1126
漾	-14.1126
呴	-14.1127
㗋	-14.1127
荗	-14.1129
膴	-14.113
榴	-14.1132
耍	-14.1132
醊	-14.1133
睂	-14.1134
蝝	-14.1134
僰	-14.1134
臉	-14.1135
惄	-14.1135
醤	-14.1135
茀	-14.1136
敔	-14.1137
撁	-14.1138
岫	-14.1138
蒂	-14.1138
𬗋	-14.1138
笛	-14.1138
錘	-14.1139
营	-14.1139
磷	-14.1139
澌	-14.1139
憇	-14.1141
泖	-14.1142
黛	-14.1143
廿	-14.1143
𨕖	-14.1144
秭	-14.1144
玻	-14.1144
崐	-14.1144
􁆁	-14.1145
膾	-14.1145
傋	-14.1145
􁇜	-14.1145
皈	-14.1145
僴	-14.1146
篐	-14.1146
薿	-14.1146
瘖	-14.1147
顱	-14.1147
麛	-14.1147
醸	-14.1147
顫	-14.1147
燻	-14.1147
廱	-14.1147
頫	-14.1148
愔	-14.1148
霤	-14.1148
閴	-14.1148
諰	-14.1148
麹	-14.1148
腆	-14.115
簉	-14.1151
鳶	-14.1151
丱	-14.1151
梳	-14.1151
堧	-14.1152
鉟	-14.1153
徜	-14.1153
崆	-14.1154
醵	-14.1154
悾	-14.1154
眘	-14.1155
訑	-14.1156
艙	-14.1157
㚄	-14.1157
嬈	-14.1157
槧	-14.1157
橈	-14.1158
殳	-14.1158
縵	-14.1158
鄠	-14.1159
贐	-14.1159
諓	-14.116
竅	-14.116
沫	-14.1161
慆	-14.1162
舠	-14.1162
莎	-14.1162
𥿄	-14.1163
詗	-14.1164
鄽	-14.1164
絫	-14.1164
瞋	-14.1166
腋	-14.1167
伃	-14.1168
蝨	-14.1168
暏	-14.1169
薌	-14.1169
曇	-14.117
眤	-14.117
騑	-14.1171
仐	-14.1171
裸	-14.1173
﨣	-14.1176
瑑	-14.1178
浯	-14.118
㽔	-14.1191
梲	-14.1221
墧	-14.2212
稄	-14.2221
嬾	-14.2226
慳	-14.2229
烊	-14.2232
娩	-14.2232
􁎗	-14.2235
瓷	-14.2236
澘	-14.2236
宐	-14.2236
霏	-14.2236
笈	-14.2239
轆	-14.224
揠	-14.224
玹	-14.224
脹	-14.2241
圡	-14.2241
毘	-14.2242
倧	-14.2242
瓆	-14.2243
玲	-14.2244
亊	-14.2244
䑩	-14.2245
虱	-14.2245
礴	-14.2247
箎	-14.2247
轕	-14.2248
㴠	-14.2248
蓁	-14.2248
騤	-14.2249
拌	-14.2249
㝏	-14.225
魍	-14.225
𧖟	-14.2251
邂	-14.2251
爆	-14.2251
逅	-14.2251
螘	-14.2252
黿	-14.2252
咋	-14.2252
榯	-14.2252
抺	-14.2252
侠	-14.2253
藕	-14.2253
𢋫	-14.2254
塼	-14.2254
佺	-14.2254
嶲	-14.2255
耔	-14.2255
鐮	-14.2255
醃	-14.2255
眄	-14.2255
梆	-14.2256
墁	-14.2256
倓	-14.2256
傜	-14.2256
泡	-14.2256
楗	-14.2257
涙	-14.2257
䔍	-14.2257
禖	-14.2257
䖝	-14.2257
荍	-14.2258
饁	-14.2258
璆	-14.2258
畊	-14.2259
盬	-14.2259
觝	-14.2259
怗	-14.226
萱	-14.226
奧	-14.226
蛤	-14.2261
貍	-14.2262
祊	-14.2262
旛	-14.2262
窅	-14.2262
􁲬	-14.2262
嗢	-14.2263
輈	-14.2263
侄	-14.2264
蓀	-14.2264
櫄	-14.2264
賮	-14.2264
禅	-14.2264
鷖	-14.2264
挪	-14.2265
燁	-14.2265
蜿	-14.2267
茇	-14.2267
猿	-14.2268
惎	-14.2268
骫	-14.2268
嶍	-14.2268
磡	-14.2268
輗	-14.227
皤	-14.227
敓	-14.2271
陔	-14.2271
闞	-14.2271
闓	-14.2272
瑨	-14.2272
蘿	-14.2272
篳	-14.2273
滀	-14.2274
崒	-14.2275
巏	-14.2275
嘽	-14.2276
眈	-14.2278
蟇	-14.2279
蔇	-14.2281
麈	-14.2283
蜉	-14.2287
泾	-14.229
牷	-14.2296
嵓	-14.2297
滆	-14.2297
斶	-14.2299
菟	-14.2306
喆	-14.3447
剞	-14.3471
煚	-14.3474
䥷	-14.3475
烺	-14.3478
慜	-14.3479
槻	-14.348
麀	-14.348
􁆹	-14.3482
忩	-14.3484
㫋	-14.3485
荣	-14.3485
閺	-14.3485
巘	-14.3485
鑨	-14.3486
簳	-14.3488
獾	-14.3489
􁡍	-14.3489
罏	-14.3493
寉	-14.3493
杷	-14.3493
薑	-14.3493
逑	-14.3493
棱	-14.3493
􁀌	-14.3493
懺	-14.3493
秄	-14.3493
􁂎	-14.3495
迢	-14.3495
櫻	-14.3495
櫂	-14.3495
旟	-14.3496
雯	-14.3497
臝	-14.3497
魎	-14.3497
傴	-14.3498
簴	-14.3498
卾	-14.3498
縚	-14.3498
鞾	-14.3498
觚	-14.3498
纆	-14.3499
攟	-14.3499
㵢	-14.35
堇	-14.35
埝	-14.3501
㫄	-14.3502
栝	-14.3502
胠	-14.3502
竑	-14.3502
鮐	-14.3503
㓛	-14.3503
苜	-14.3504
蓿	-14.3504
蠎	-14.3504
僂	-14.3504
茵	-14.3504
泆	-14.3504
虁	-14.3504
驀	-14.3505
摟	-14.3505
冽	-14.3505
巹	-14.3505
怩	-14.3506
菌	-14.3506
蔥	-14.3506
蛻	-14.3506
誎	-14.3506
壖	-14.3507
跴	-14.3507
廠	-14.3507
僶	-14.3508
佽	-14.3508
靚	-14.3508
瑭	-14.3508
冣	-14.3508
郾	-14.3508
剳	-14.3509
霨	-14.3509
窕	-14.351
妺	-14.351
鵡	-14.351
掬	-14.3511
鵁	-14.3511
缶	-14.3511
窈	-14.3512
漉	-14.3512
瀹	-14.3512
謌	-14.3512
鶄	-14.3512
穯	-14.3512
趑	-14.3512
崈	-14.3512
眂	-14.3512
睱	-14.3512
錞	-14.3513
禜	-14.3513
􁅳	-14.3513
妲	-14.3513
怜	-14.3514
虙	-14.3514
楪	-14.3514
儐	-14.3515
隟	-14.3515
􁋍	-14.3515
晞	-14.3515
鏢	-14.3515
枰	-14.3515
蹋	-14.3515
騮	-14.3515
郫	-14.3515
悁	-14.3516
毯	-14.3517
絛	-14.3517
囙	-14.3518
栲	-14.3518
龥	-14.3518
孃	-14.3519
紾	-14.3519
蕡	-14.3519
袓	-14.3519
㮚	-14.3519
漯	-14.352
礲	-14.352
溈	-14.352
瓮	-14.3521
􁰁	-14.3521
嘷	-14.3521
跗	-14.3523
熭	-14.3523
鰕	-14.3523
㠄	-14.3524
澡	-14.3525
筝	-14.3525
壍	-14.3526
縧	-14.3526
綖	-14.3526
幞	-14.3526
帟	-14.3527
狑	-14.3528
枌	-14.3528
腔	-14.3529
餫	-14.3531
傃	-14.3533
撅	-14.3534
捺	-14.3534
倢	-14.3534
鐶	-14.3537
紞	-14.3539
鄕	-14.354
砑	-14.3541
兟	-14.3543
𨫼	-14.3544
蠁	-14.3549
􁀰	-14.3549
瘇	-14.3552
釧	-14.3552
芰	-14.3556
痱	-14.3556
鍍	-14.356
拶	-14.4852
晭	-14.4889
桁	-14.4907
刲	-14.4908
棃	-14.491
劂	-14.4911
熺	-14.4912
僾	-14.4912
毼	-14.4915
斮	-14.4916
憩	-14.4919
揲	-14.492
滏	-14.492
㜸	-14.4921
凷	-14.4924
燋	-14.4924
晛	-14.4925
劳	-14.4925
惆	-14.4926
犲	-14.4926
忲	-14.4927
囍	-14.4927
揪	-14.4928
㬌	-14.4928
卺	-14.493
擋	-14.493
崕	-14.493
瑢	-14.493
姥	-14.493
畬	-14.4931
憞	-14.4933
娑	-14.4933
榨	-14.4934
睟	-14.4934
娣	-14.4936
欃	-14.4937
沬	-14.4937
獺	-14.4938
憗	-14.4938
㰖	-14.4938
娀	-14.4939
烘	-14.4939
俔	-14.4939
啚	-14.4939
污	-14.4939
漴	-14.4941
噢	-14.4944
甬	-14.4944
弢	-14.4945
濞	-14.4945
珵	-14.4945
崞	-14.4945
琱	-14.4947
㰱	-14.4948
俅	-14.4948
献	-14.4948
濛	-14.4951
濚	-14.4952
嗷	-14.4953
噓	-14.4953
槌	-14.4954
嵱	-14.4954
濴	-14.4954
滽	-14.4954
㑭	-14.4955
畮	-14.4958
俲	-14.4963
囓	-14.4966
皸	-14.4969
䀻	-14.501
紜	-14.6529
朧	-14.6631
惓	-14.8587
駘	-14.8611
嘛	-15.4399
璂	-15.9449
倌	-15.9468
獗	-16.9413
叵	-16.946
咫	-16.9516
焻	-16.9524
䭲	-16.9525
昷	-16.9526
糢	-16.9527
𠺕	-16.9528
鑍	-16.9529
趦	-16.953
謖	-16.9531
蕖	-16.9532
蒗	-16.9533
葡	-16.9534
慂	-16.9535
鎎	-16.9536
茌	-16.9537
絏	-16.9538
窀	-16.9539
濊	-16.954
巋	-16.9541
媫	-16.9542
圌	-16.9543
㸅	-16.9544
㓲	-16.9545
鏸	-16.9546
懥	-16.9547
冔	-16.9548
偫	-16.9549
㶏	-16.955
琶	-16.9551
琵	-16.9552
榿	-16.9553
暲	-16.9554
嗃	-16.9555
饘	-16.9556
苒	-16.9557
勠	-16.9558
跅	-16.9559
憻	-16.956
愀	-16.9561
偬	-16.9562
鐈	-16.9563
㒜	-16.9564
頏	-16.9565
貅	-16.9566
譸	-16.9567
厔	-16.9568
儡	-16.9569
毣	-16.957
魃	-16.9571
㮶	-16.9572
琊	-16.9573
吩	-16.9574
綮	-16.9575
憮	-16.9576
璱	-16.9577
旿	-16.9578
嫄	-16.9579
齷	-16.958
洳	-16.9581
踖	-16.9582
𣅿	-16.9583
魑	-16.9584
葫	-16.9585
窬	-16.9586
彔	-16.9587
栘	-16.9588
㙉	-16.9589
褓	-16.959
繽	-16.9591
慺	-16.9592
禝	-16.9593
馝	-16.9594
痌	-16.9595
玁	-16.9596
䄉	-16.9597
芠	-16.9598
搠	-16.9599
嘵	-16.96
烆	-16.9601
鰓	-16.9602
漋	-16.9603
瓴	-16.9604
躊	-16.9605
齬	-16.9606
凰	-16.9607
倆	-16.9608
禟	-16.9609
脞	-16.961
洱	-16.9611
鐇	-16.9612
狽	-16.9613
囹	-16.9614
禵	-16.9614
