<unk>	0
<s>	0
</s>	0
之	-3.73546
也	-3.75545
而	-4.04941
以	-4.3413
者	-4.44257
為	-4.48944
/	-4.53528
則	-4.62491
其	-4.77493
有	-4.81269
不	-4.99321
故	-5.06068
(	-5.09003
)(	-5.12764
)	-5.19289
曰	-5.23064
言	-5.31601
於	-5.35609
一	-5.41123
是	-5.43077
矣	-5.43592
上	-5.52466
此	-5.62629
于	-5.66813
自	-5.66836
二	-5.70048
三	-5.71364
人	-5.73057
皆	-5.73797
下	-5.73957
易	-5.75389
與	-5.75704
得	-5.77384
无	-5.82404
乎	-5.82592
在	-5.82824
非	-5.84073
陽	-5.85293
四	-5.88388
大	-5.90578
象	-5.94377
亦	-5.94431
如	-5.94448
然	-5.94676
五	-5.95113
謂	-5.96849
當	-5.9868
中	-5.99603
所	-5.99979
明	-6.01459
正	-6.02737
卦	-6.03139
至	-6.0469
用	-6.10862
隂	-6.12599
能	-6.1288
行	-6.14048
成	-6.15001
剛	-6.1734
又	-6.19024
乾	-6.19227
道	-6.20305
處	-6.21677
居	-6.21755
變	-6.2352
初	-6.24399
雖	-6.24594
必	-6.25008
生	-6.27628
乃	-6.27756
見	-6.29629
天	-6.31761
動	-6.32468
知	-6.32669
物	-6.33174
坤	-6.33811
已	-6.34008
可	-6.34105
事	-6.3451
時	-6.3856
復	-6.39003
之象	-6.39872
○	-6.40427
義	-6.40704
無	-6.41305
所以	-6.41446
君子	-6.42469
本	-6.43255
即	-6.43912
故曰	-6.44551
説	-6.45251
心	-6.46928
柔	-6.47606
者也	-6.48489
離	-6.48962
象曰	-6.49754
作	-6.5047
若	-6.50528
▁	-6.50912
同	-6.5166
合	-6.51689
未	-6.51928
從	-6.52901
位	-6.5321
云	-6.53297
不可	-6.54446
體	-6.55143
終	-6.55278
說	-6.55727
相	-6.55895
震	-6.58097
巽	-6.59531
聖人	-6.61549
字	-6.62208
方	-6.62337
通	-6.62844
來	-6.63151
止	-6.63534
吉	-6.63574
主	-6.64832
反	-6.65794
之道	-6.67543
夫	-6.67674
焉	-6.68738
徳	-6.69473
何	-6.70234
而不	-6.70378
既	-6.72014
子	-6.72265
地	-6.73358
順	-6.73421
爻	-6.74022
民	-6.74063
應	-6.7475
出	-6.74757
不能	-6.75351
六	-6.75954
或	-6.76369
坎	-6.76591
始	-6.7739
亨	-6.7745
安	-6.79113
進	-6.79198
天下	-6.79671
分	-6.79719
取	-6.79734
觀	-6.79877
之義	-6.79999
惟	-6.80621
所謂	-6.81642
外	-6.81815
水	-6.82428
文	-6.83185
爲	-6.83796
利	-6.8411
九	-6.85009
數	-6.85993
日	-6.87803
過	-6.88671
極	-6.88808
欲	-6.89114
艮	-6.89488
小人	-6.91692
猶	-6.91723
之時	-6.92759
耳	-6.92926
君	-6.93187
善	-6.94298
實	-6.96428
往	-6.96593
小	-6.96603
益	-6.97071
理	-6.97413
比	-6.98839
兩	-6.98849
後	-6.99081
節	-6.99141
王	-6.99937
難	-7.012
无咎	-7.01623
凶	-7.01851
解	-7.02528
氣	-7.03818
天地	-7.04038
先	-7.04679
貞	-7.04687
傳	-7.05461
哉	-7.06245
去	-7.0724
内	-7.07838
盡	-7.0787
志	-7.08013
求	-7.09294
固	-7.0991
多	-7.10667
九五	-7.1111
隨	-7.11933
德	-7.12255
重	-7.14446
失	-7.14605
今	-7.14607
宜	-7.14753
常	-7.14849
險	-7.15163
意	-7.1637
長	-7.1745
疑	-7.17647
而已	-7.18048
/)	-7.18131
九二	-7.19735
立	-7.1987
遇	-7.20141
因	-7.20535
治	-7.2084
否	-7.21595
上下	-7.21657
損	-7.22388
信	-7.22599
使	-7.23084
且	-7.23148
入	-7.23255
凡	-7.23892
將	-7.24455
神	-7.24541
尚	-7.25076
元	-7.25573
如此	-7.25642
以為	-7.2599
陰	-7.26046
身	-7.26226
隂陽	-7.26839
升	-7.2687
由	-7.27013
及	-7.28369
我	-7.28661
履	-7.28781
八	-7.29748
命	-7.29833
法	-7.30371
可以	-7.30414
萬物	-7.30752
指	-7.31152
交	-7.31574
衆	-7.32009
乾坤	-7.32174
革	-7.32368
火	-7.32522
獨	-7.33343
各	-7.33691
濟	-7.33866
木	-7.34103
澤	-7.34405
六五	-7.34429
臣	-7.34681
也故	-7.34694
禮	-7.34729
井	-7.34824
師	-7.3483
山	-7.3525
上九	-7.35267
致	-7.35874
前	-7.3638
和	-7.37806
困	-7.38543
名	-7.38987
逺	-7.39563
而後	-7.40338
養	-7.40727
誠	-7.40887
但	-7.41032
謙	-7.41123
蓋	-7.42405
恒	-7.42488
上六	-7.42645
臨	-7.4275
化	-7.43061
畜	-7.43699
定	-7.4372
訟	-7.44416
風	-7.44661
世	-7.44824
九四	-7.45403
亂	-7.45484
窮	-7.45574
辭	-7.45812
感	-7.46173
是以	-7.46223
九三	-7.46231
盛	-7.46289
異	-7.46768
直	-7.47807
之所	-7.47846
六二	-7.4821
性	-7.48223
初九	-7.48246
論	-7.48444
危	-7.48771
公	-7.48927
氏	-7.49083
豫	-7.49336
月	-7.49534
稱	-7.49735
近	-7.49987
孚	-7.50455
形	-7.50604
畫	-7.50641
漸	-7.50675
七	-7.5098
遯	-7.5183
六三	-7.52053
謂之	-7.5222
惡	-7.52254
兊	-7.5253
豈	-7.52531
占	-7.52569
泰	-7.52844
發	-7.53308
書	-7.54311
經	-7.54401
蒙	-7.54537
髙	-7.54645
兌	-7.54849
歸	-7.55306
在上	-7.56018
句	-7.56295
仁	-7.57103
釋	-7.57156
家	-7.58013
葢	-7.59253
足	-7.59614
周	-7.59947
深	-7.60908
便	-7.61405
天下之	-7.61625
制	-7.61969
六四	-7.62027
虚	-7.62283
平	-7.62726
在下	-7.62875
盖	-7.63123
力	-7.63167
類	-7.63221
之意	-7.63379
國	-7.63457
人之	-7.63966
就	-7.64016
彖	-7.64672
八卦	-7.64849
剛柔	-7.6513
己	-7.65213
女	-7.65227
受	-7.65571
守	-7.65718
害	-7.65763
馬	-7.65834
悔	-7.65887
蹇	-7.66407
戒	-7.66455
問	-7.66577
唯	-7.67054
十	-7.67102
鼎	-7.67329
思	-7.6866
起	-7.68873
本義	-7.69161
咸	-7.69188
存	-7.69309
之理	-7.6974
甚	-7.6981
之象也	-7.7014
兑	-7.71064
圖	-7.71181
之中	-7.71292
首	-7.72264
承	-7.7254
是也	-7.72757
功	-7.72796
吉凶	-7.7293
初六	-7.73152
斯	-7.73677
言之	-7.73681
施	-7.73985
全	-7.74155
貴	-7.74608
六爻	-7.74931
中正	-7.75204
諸	-7.7538
要	-7.75381
退	-7.75489
金	-7.75653
其所	-7.75779
聚	-7.7585
注	-7.75995
莫	-7.76398
憂	-7.76762
只	-7.77364
睽	-7.77561
著	-7.77821
賢	-7.78149
舉	-7.78386
故為	-7.78489
而為	-7.78583
不得	-7.78608
遂	-7.78681
次	-7.78773
章	-7.78796
樂	-7.79029
之事	-7.7925
不知	-7.79267
雷	-7.79846
屯	-7.79992
學	-7.8019
徃	-7.807
勝	-7.80837
剥	-7.80907
文王	-7.80993
光	-7.80996
旅	-7.81033
渙	-7.81038
備	-7.81614
推	-7.81713
需	-7.82444
有孚	-7.82636
萃	-7.82831
蠱	-7.82991
積	-7.83868
吾	-7.83996
語	-7.84128
吝	-7.84303
賁	-7.84416
少	-7.84673
辨	-7.85195
決	-7.85447
至於	-7.8561
情	-7.86059
傷	-7.86096
龍	-7.86335
原	-7.86642
一陽	-7.87378
親	-7.87757
晉	-7.89621
又曰	-7.89901
邪	-7.90416
夬	-7.9061
壯	-7.91007
兼	-7.91219
加	-7.91448
土	-7.92136
姤	-7.92546
右	-7.93444
變化	-7.93905
然後	-7.9415
利貞	-7.94334
流	-7.94353
視	-7.94378
似	-7.94647
不同	-7.94961
久	-7.95217
貞吉	-7.95322
更	-7.95342
互	-7.9537
豐	-7.95695
散	-7.95749
亡	-7.9582
厲	-7.96002
任	-7.96098
尊	-7.96273
健	-7.97019
好	-7.97157
彼	-7.97903
聲	-7.97966
之位	-7.98084
他	-7.98269
食	-7.98545
口	-7.98714
興	-7.98815
俱	-7.9889
息	-7.99109
器	-7.99247
只是	-7.99341
疾	-8.00043
大過	-8.00105
敬	-8.00693
幾	-8.00922
彖曰	-8.01196
餘	-8.0126
間	-8.01438
咎	-8.01525
屬	-8.01918
精	-8.01922
引	-8.01982
須	-8.02339
太	-8.02531
也然	-8.02554
古	-8.02888
萬	-8.02992
配	-8.03006
包	-8.03014
乗	-8.03529
之道也	-8.03705
之心	-8.0384
微	-8.04676
有所	-8.04737
具	-8.05079
之極	-8.05105
則為	-8.05291
易之	-8.05621
動而	-8.05929
藏	-8.05942
年	-8.06058
㢲	-8.06123
乾之	-8.06207
盈	-8.06258
待	-8.06422
未濟	-8.06474
别	-8.0663
消	-8.06888
據	-8.07086
對	-8.07528
而无	-8.076
筮	-8.0805
卷	-8.08097
斷	-8.08289
之徳	-8.08648
而成	-8.08682
无所	-8.08777
美	-8.08831
足以	-8.09299
无妄	-8.09477
威	-8.09484
厚	-8.09881
逆	-8.10233
聖	-8.10282
私	-8.10364
孔子	-8.10533
伏	-8.10649
教	-8.10702
輔	-8.10928
其道	-8.11079
質	-8.11124
音	-8.11845
百	-8.119
附	-8.11933
大人	-8.12115
專	-8.12164
切	-8.1291
服	-8.13323
父	-8.1334
係	-8.13358
卑	-8.13492
懼	-8.13586
勢	-8.13673
修	-8.13785
至于	-8.13929
克	-8.14651
顯	-8.14665
乘	-8.14757
羣	-8.1552
繫	-8.15568
便是	-8.15687
之數	-8.15694
二陽	-8.15804
最	-8.15861
矣故	-8.15945
度	-8.16126
以其	-8.16245
之間	-8.16401
之主	-8.16518
死	-8.16575
㑹	-8.16792
必有	-8.16966
容	-8.18102
刑	-8.18234
爾	-8.1831
才	-8.18404
而能	-8.18723
也夫	-8.19036
蓍	-8.19152
慎	-8.19664
自然	-8.19756
牛	-8.19786
頤	-8.19894
道也	-8.20022
同人	-8.20046
不正	-8.20256
不言	-8.20276
大有	-8.20498
二五	-8.2059
特	-8.20702
故有	-8.2105
君子之	-8.21961
執	-8.22588
虞	-8.23487
相應	-8.23967
静	-8.24049
開	-8.24169
偶	-8.2466
患	-8.24842
得其	-8.24902
而言	-8.24966
宗	-8.25206
適	-8.25388
之初	-8.25733
雜	-8.25765
一隂	-8.25788
齊	-8.25883
廣	-8.26573
東	-8.2673
為主	-8.27084
氏曰	-8.27239
歸妹	-8.27258
獲	-8.2726
何以	-8.27541
進退	-8.27592
中孚	-8.27724
小過	-8.27837
則有	-8.28032
剝	-8.28199
隂柔	-8.28352
元吉	-8.2843
之辭	-8.28522
夫子	-8.28639
不足	-8.28678
按	-8.28761
妄	-8.28827
男	-8.29302
南	-8.2958
君子以	-8.29681
錯	-8.29844
繼	-8.3003
敗	-8.30256
令	-8.30275
▁(	-8.30538
雨	-8.30593
如是	-8.30805
門	-8.31112
天地之	-8.31192
果	-8.31228
絶	-8.31236
靜	-8.31282
黄	-8.31295
之上	-8.31447
二隂	-8.31528
强	-8.31563
了	-8.3163
並	-8.31818
純	-8.32015
此爻	-8.3243
改	-8.3244
向	-8.32477
違	-8.32664
太極	-8.32741
爻辭	-8.32932
之卦	-8.32982
告	-8.33109
雲	-8.33355
漢	-8.33609
所以為	-8.33881
既濟	-8.34114
帝	-8.34349
来	-8.34516
聞	-8.34904
三四	-8.35099
也此	-8.35179
剛中	-8.35364
不可以	-8.35383
其義	-8.35437
繫辭	-8.3568
幽	-8.35816
考	-8.36048
明夷	-8.36308
卦之	-8.36608
武	-8.36683
載	-8.36948
小畜	-8.36991
統	-8.36999
苟	-8.37368
目	-8.37413
朋	-8.37719
而有	-8.37821
士	-8.38025
坎為	-8.3856
車	-8.3875
之地	-8.38831
左	-8.39011
舍	-8.39039
喜	-8.3906
聖人之	-8.39193
𤼵	-8.39369
陷	-8.39649
天之	-8.39896
征	-8.39947
之功	-8.40372
飛	-8.40421
而得	-8.40542
婦	-8.40648
慮	-8.40652
降	-8.40764
望	-8.40867
徒	-8.40976
周易	-8.41019
得中	-8.41151
正應	-8.41167
竒	-8.41229
政	-8.41302
富	-8.41524
滅	-8.41574
也故曰	-8.41695
以剛	-8.41748
申	-8.41768
噬嗑	-8.41822
災	-8.41844
田	-8.42084
晦	-8.4212
嚴	-8.42375
察	-8.42428
之義也	-8.42472
人心	-8.42476
恐	-8.4256
故云	-8.42585
六十四卦	-8.42769
天道	-8.43031
保	-8.43541
再	-8.442
悔亡	-8.44329
色	-8.44411
大壯	-8.44766
之謂	-8.45067
習	-8.4518
助	-8.45265
總	-8.4535
尤	-8.45506
達	-8.45676
者皆	-8.45951
之用	-8.46058
高	-8.46064
白	-8.46189
這	-8.46416
之後	-8.46494
畏	-8.46811
西	-8.46905
故能	-8.46927
勞	-8.4705
依	-8.47147
設	-8.47156
也象曰	-8.4718
一爻	-8.47269
端	-8.47454
文明	-8.47941
子曰	-8.47986
大畜	-8.48476
不及	-8.4871
序	-8.48776
列	-8.48777
喪	-8.48793
陽剛	-8.49195
享	-8.49273
鄭	-8.49451
也若	-8.49484
甲	-8.49703
底	-8.49866
麗	-8.50025
之才	-8.50105
陸	-8.50134
殺	-8.5027
詳	-8.50422
共	-8.50622
𫝊	-8.50814
之所以	-8.50865
程子曰	-8.50886
亢	-8.50983
舊	-8.51029
案	-8.51152
可見	-8.51181
虎	-8.51187
日月	-8.51243
程傳	-8.51365
看	-8.51814
石	-8.51886
照	-8.51993
謹	-8.52458
頥	-8.52524
坤之	-8.52803
以此	-8.52936
未有	-8.52994
則不	-8.53259
智	-8.53766
謀	-8.53805
之德	-8.53924
等	-8.53959
官	-8.53966
血	-8.54174
其位	-8.54267
張	-8.54336
根	-8.5444
君臣	-8.54601
老	-8.54632
三陽	-8.54748
伐	-8.5484
陳	-8.55005
四時	-8.55029
之始	-8.55097
防	-8.55372
夏	-8.5538
禍	-8.554
坤為	-8.55493
到	-8.55501
輕	-8.55775
朝	-8.55864
權	-8.55877
之人	-8.56276
例	-8.56457
朱子	-8.56482
簡	-8.56722
其徳	-8.56773
福	-8.56775
罪	-8.56906
愛	-8.56957
除	-8.57005
邑	-8.57035
速	-8.57239
却	-8.57242
嘉	-8.57249
家人	-8.5731
不過	-8.57313
連	-8.57457
兵	-8.57578
偏	-8.57681
伏羲	-8.57759
其心	-8.57798
避	-8.57807
覆	-8.5792
之下	-8.58554
號	-8.58617
撰	-8.58784
暗	-8.58801
弗	-8.58867
得位	-8.58898
陵	-8.58947
吉也	-8.58948
商	-8.59005
陰陽	-8.59231
决	-8.59232
矣然	-8.59352
揲	-8.59376
愈	-8.59416
朱子曰	-8.59825
彖辭	-8.59843
運	-8.59904
識	-8.59914
訓	-8.6017
千	-8.60329
業	-8.60535
利有攸往	-8.6079
誤	-8.60817
物之	-8.60959
虛	-8.61195
而上	-8.61352
於上	-8.61453
得正	-8.61557
於此	-8.62164
未嘗	-8.62208
元亨	-8.6227
不敢	-8.6228
之吉	-8.62424
輿	-8.62427
母	-8.62543
水火	-8.6256
夷	-8.62597
手	-8.62601
聽	-8.62671
勿	-8.62845
寧	-8.63134
敵	-8.63293
其志	-8.63362
周公	-8.6353
持	-8.6355
牽	-8.63617
知其	-8.63626
讀	-8.63694
資	-8.63916
乆	-8.64075
震為	-8.64264
育	-8.64381
愚	-8.64433
介	-8.64506
以正	-8.64716
半	-8.64741
以柔	-8.65097
噬	-8.65145
侯	-8.65198
塞	-8.65385
含	-8.65442
譽	-8.65676
真	-8.6573
傳曰	-8.65758
參	-8.65789
蔽	-8.66161
如何	-8.66205
末	-8.66308
而又	-8.66407
轉	-8.66417
進而	-8.66586
可知	-8.6663
於下	-8.6696
新	-8.6696
堅	-8.67149
背	-8.67495
其中	-8.67502
况	-8.67537
一卦	-8.67715
亦有	-8.67738
居中	-8.68023
建	-8.68139
皆以	-8.68272
十二	-8.68875
柔順	-8.69046
序卦	-8.69495
約	-8.69595
不必	-8.69683
是故	-8.69692
清	-8.69818
之類	-8.69822
面	-8.69969
註	-8.70263
其事	-8.70548
春	-8.70758
北	-8.70815
有悔	-8.70826
秋	-8.70873
之説	-8.70985
不利	-8.7117
忘	-8.71222
此卦	-8.71306
男女	-8.71342
移	-8.71513
坎離	-8.71533
免	-8.71592
而行	-8.72146
何也	-8.72186
居上	-8.72192
宫	-8.72838
宋	-8.72848
者以	-8.72908
人事	-8.73015
祭	-8.73083
无應	-8.73087
鬼神	-8.73206
以明	-8.73277
故以	-8.73665
屈	-8.73896
耶	-8.73982
假	-8.74099
往來	-8.74142
其身	-8.74324
无不	-8.74575
遷	-8.74672
躁	-8.74876
接	-8.7496
不相	-8.75386
巳	-8.75982
干	-8.76093
相與	-8.76095
失其	-8.7612
不失	-8.76254
行也	-8.76375
不當	-8.7638
二爻	-8.76435
隠	-8.76608
巽為	-8.76668
不足以	-8.76708
而動	-8.76712
惕	-8.76814
在内	-8.77102
衰	-8.77297
録	-8.77563
乾為	-8.77649
㣲	-8.77742
居下	-8.77802
以下	-8.77862
仲	-8.78005
取象	-8.78238
做	-8.78416
用之	-8.78463
索	-8.78672
唐	-8.79043
弱	-8.79045
幹	-8.79094
䝉	-8.79264
效	-8.79434
朱	-8.79643
滿	-8.79689
不為	-8.79702
俗	-8.79857
不以	-8.79877
示	-8.80078
庶	-8.80079
折	-8.8017
之情	-8.80232
内外	-8.80241
彖傳	-8.80297
淵	-8.80307
之志	-8.80308
益之	-8.80384
之終	-8.80397
儀	-8.80655
諸侯	-8.80717
剛健	-8.80803
泥	-8.80936
卦爻	-8.80951
卦辭	-8.80991
剛而	-8.81003
歟	-8.81375
潛	-8.81469
恭	-8.81784
元亨利貞	-8.81813
趾	-8.82037
先天	-8.82064
之際	-8.82069
之體	-8.82553
詩	-8.82561
邦	-8.82666
卦變	-8.82779
納	-8.82991
皆有	-8.83025
則无	-8.83033
在外	-8.83242
亦不	-8.83357
都	-8.83484
見其	-8.83534
龜	-8.83655
雖有	-8.83817
昭	-8.83905
觀之	-8.8444
素	-8.84536
占者	-8.84569
李	-8.8464
限	-8.84675
不見	-8.84719
隔	-8.84954
人君	-8.85037
而不能	-8.85072
茍	-8.85308
飾	-8.85445
暴	-8.85461
於人	-8.85477
救	-8.85624
孰	-8.85642
究	-8.85748
其象	-8.85793
奉	-8.86094
趨	-8.86313
勿用	-8.8634
病	-8.86359
務	-8.86363
而下	-8.86445
河	-8.86499
之大	-8.86518
之君	-8.86522
野	-8.8659
而無	-8.86621
言其	-8.86628
審	-8.8667
象也	-8.86682
機	-8.86745
離為	-8.86956
贊	-8.87008
三爻	-8.87132
崇	-8.87136
魚	-8.87264
震動	-8.87315
䇿	-8.87328
隱	-8.87691
潤	-8.87719
願	-8.87828
祖	-8.87884
代	-8.88085
廢	-8.88093
疏	-8.88149
妙	-8.88152
戰	-8.88401
耦	-8.88517
亨也	-8.88603
胡	-8.88628
矢	-8.88659
天子	-8.88726
量	-8.88743
振	-8.88743
无咎也	-8.88839
専	-8.89119
取其	-8.8921
然則	-8.89273
莫不	-8.89372
置	-8.89379
遺	-8.89468
犯	-8.8976
殊	-8.89957
卒	-8.90009
寒	-8.90262
當位	-8.9036
變為	-8.90363
眀	-8.90515
林	-8.90542
角	-8.90611
夜	-8.9066
有終	-8.90666
股	-8.9083
之謂也	-8.90927
計	-8.91058
,	-8.91061
上之	-8.9116
寡	-8.91171
正也	-8.91251
結	-8.91255
室	-8.91329
利用	-8.91337
可謂	-8.91389
中爻	-8.9153
上行	-8.91681
薄	-8.91929
羊	-8.92048
學者	-8.92125
嵗	-8.92164
不然	-8.92266
庚	-8.9256
鳥	-8.93202
詞	-8.93292
道理	-8.93305
豕	-8.93357
之物	-8.93493
尾	-8.93495
二十	-8.93564
嘗	-8.93902
舜	-8.94705
鳴	-8.94862
造	-8.95078
在中	-8.95203
終始	-8.95217
那	-8.95261
比之	-8.9527
則是	-8.95323
汲	-8.95526
二之	-8.95554
飲食	-8.95632
艱	-8.95728
也君子	-8.95895
不善	-8.95962
故受之以	-8.96006
泉	-8.96074
又有	-8.96163
獄	-8.96342
之氣	-8.96449
篇	-8.96485
維	-8.96496
辰	-8.96536
草	-8.96657
休	-8.96684
不息	-8.9693
而不可	-8.96949
爭	-8.97121
者言	-8.97136
應之	-8.97404
有功	-8.97452
䘮	-8.97501
之法	-8.9755
之世	-8.97564
伯	-8.97578
而不知	-8.97657
期	-8.97813
忠	-8.98013
五行	-8.98298
二字	-8.98502
為義	-8.98609
曲	-8.98631
无不利	-8.98657
衍	-8.987
率	-8.98784
事之	-8.98899
艮為	-8.99087
甘	-8.99182
財	-8.99275
出於	-8.99308
而未	-8.9939
勉	-8.9949
者也故	-8.99492
綜	-8.9956
為大	-8.99786
無所	-9.00037
差	-9.00058
則必	-9.00096
二體	-9.00361
征凶	-9.00494
文言	-9.00593
良	-9.00674
道之	-9.00693
夫婦	-9.00751
河圖	-9.00916
阻	-9.00969
于上	-9.01125
小人之	-9.01196
陽之	-9.01222
陽氣	-9.0136
又為	-9.01413
悦	-9.01478
則吉	-9.01521
其辭	-9.01586
玩	-9.01715
未能	-9.01762
棄	-9.0182
律	-9.01833
西南	-9.0192
神明	-9.01931
止於	-9.02167
三隂	-9.02219
之正	-9.02228
下卦	-9.02533
五陽	-9.02711
記	-9.02747
后	-9.02764
使之	-9.0282
極而	-9.02866
況	-9.02878
四象	-9.02967
㡬	-9.0304
每	-9.03102
楊	-9.03143
東北	-9.03216
逐	-9.03247
也二	-9.03271
箇	-9.03366
閑	-9.03386
之外	-9.03516
永	-9.03661
初之	-9.03962
以象	-9.04231
无悔	-9.04287
敢	-9.04287
凝	-9.04312
陽爻	-9.04372
行之	-9.04385
三十	-9.04475
者亦	-9.04563
旣	-9.04736
禹	-9.04756
賤	-9.04793
急	-9.0486
何也曰	-9.04886
腹	-9.05275
徐	-9.05347
劉	-9.05411
柔而	-9.05447
利涉大川	-9.05451
五為	-9.05506
負	-9.0571
累	-9.05753
省	-9.05787
之變	-9.05824
變而	-9.06034
於外	-9.06279
遠	-9.06335
失位	-9.0638
空	-9.06547
凶也	-9.06618
脩	-9.0678
先生	-9.06894
天命	-9.06902
孤	-9.06978
抑	-9.07017
四隂	-9.07081
以成	-9.07101
十六	-9.0723
各有	-9.07429
卜筮	-9.07475
紀	-9.07524
之性	-9.07557
充	-9.0764
孔	-9.07744
伊川曰	-9.0775
之妙	-9.07898
匪	-9.07945
均	-9.07952
歴	-9.08037
言之則	-9.08053
拘	-9.08072
者必	-9.08163
将	-9.08286
仰	-9.08364
二卦	-9.08587
上有	-9.08589
與之	-9.087
則其	-9.08766
黨	-9.08927
路	-9.09014
用九	-9.09079
傾	-9.09423
旋	-9.09428
昏	-9.09447
𩔖	-9.09455
竊	-9.09491
然而	-9.09533
隂陽之	-9.09654
會	-9.09748
遽	-9.09808
動則	-9.09868
故謂之	-9.10069
昧	-9.10132
狐	-9.10159
不用	-9.10163
被	-9.10238
乾元	-9.10428
者非	-9.10555
矣故曰	-9.10566
悖	-9.10633
貫	-9.10764
不明	-9.1078
虞翻曰	-9.10784
越	-9.10794
先王	-9.1082
以求	-9.10932
擊	-9.10943
五之	-9.11345
不變	-9.11502
妻	-9.11565
先儒	-9.11586
流行	-9.11611
存乎	-9.11637
議	-9.11715
有慶	-9.11792
之至	-9.11934
鄰	-9.11955
五十	-9.11957
至誠	-9.11996
布	-9.1202
相遇	-9.1205
拯	-9.12069
也今	-9.12078
也三	-9.1212
作易	-9.12192
而止	-9.12225
乖	-9.12283
仍	-9.12463
往而	-9.12556
涉	-9.12577
纂註	-9.12592
是為	-9.126
射	-9.12735
焚	-9.12802
史	-9.12923
後世	-9.12936
冬	-9.12988
終吉	-9.12993
集解	-9.13118
之戒	-9.13146
其時	-9.13149
一作	-9.13233
卜	-9.13341
六子	-9.13343
徳之	-9.13518
御	-9.13558
之說	-9.1393
天理	-9.14416
丘	-9.14488
責	-9.14538
在人	-9.14595
孫	-9.14656
而生	-9.14824
從之	-9.14931
也聖人	-9.15059
嗟	-9.15119
舎	-9.15166
觀其	-9.15189
華	-9.15201
人所	-9.15267
白雲郭氏曰	-9.15304
易曰	-9.15335
顧	-9.15611
位不當也	-9.15658
策	-9.15733
居尊位	-9.1577
伊川	-9.15788
緩	-9.15812
其用	-9.15854
利見大人	-9.15865
戎	-9.15992
此言	-9.16148
大者	-9.16186
至此	-9.16302
生於	-9.16337
矣此	-9.16401
従	-9.16465
孟子	-9.16533
許	-9.16646
艮止	-9.16864
奇	-9.16956
集	-9.16967
兩儀	-9.17072
或曰	-9.17243
密	-9.17371
蘇	-9.17412
三才	-9.17573
笑	-9.17745
自守	-9.17788
悔吝	-9.17795
星	-9.18047
後天	-9.18203
㫖	-9.18217
正位	-9.18276
與四	-9.18375
垂	-9.18397
其德	-9.18457
象傳	-9.1888
自有	-9.18976
禄	-9.19133
曉	-9.19174
荀	-9.1918
卦體	-9.19379
生物	-9.19485
禽	-9.19506
成卦	-9.19584
則可以	-9.19612
倚	-9.19617
寛	-9.1976
覺	-9.19778
孝	-9.19805
人道	-9.19825
一日	-9.20047
娣	-9.20048
躬	-9.20153
而居	-9.20388
不待	-9.20399
惠	-9.20531
聖賢	-9.20719
亦可	-9.20743
極則	-9.2079
程	-9.20907
衣	-9.20914
術	-9.20931
箕子	-9.21119
春秋	-9.21156
隨時	-9.21302
程子	-9.21319
未得	-9.21464
損益	-9.2148
其占	-9.21508
則知	-9.21514
第	-9.21597
造化	-9.21659
誰	-9.21878
攻	-9.21884
于下	-9.22178
顛	-9.22184
四之	-9.22214
罔	-9.22233
溺	-9.22279
志在	-9.22334
无咎象曰	-9.22398
四陽	-9.22418
收	-9.22468
不如	-9.22517
卦名	-9.22659
故其	-9.22748
之交	-9.22953
薦	-9.22978
喻	-9.22979
不在	-9.23147
卿	-9.2315
怨	-9.23288
不中	-9.23361
翼	-9.23433
午	-9.2344
故言	-9.2347
於是	-9.23629
牀	-9.23679
援	-9.23697
上經	-9.23743
於天	-9.23853
大臣	-9.23864
而復	-9.23991
光明	-9.24179
左右	-9.24301
與五	-9.24376
萬物之	-9.24426
孟	-9.24438
強	-9.24478
也又	-9.24549
忽	-9.24689
𧰼	-9.24739
也五	-9.24764
伊川先生曰	-9.24835
户	-9.24885
厯	-9.24959
于此	-9.25138
坎下	-9.25254
父母	-9.2536
黙	-9.25387
穴	-9.25525
裕	-9.25608
吕	-9.25734
而天下	-9.25809
循	-9.25934
冝	-9.25943
予	-9.26029
錫	-9.26037
下經	-9.26067
則凶	-9.2615
進也	-9.26156
民之	-9.26195
不通	-9.2635
以自	-9.26435
見於	-9.2648
并	-9.26519
長子	-9.26625
際	-9.26669
六十	-9.26679
潔	-9.26799
)○	-9.26805
賛	-9.26863
乾上	-9.26864
洛書	-9.26916
順而	-9.26942
者謂	-9.27084
賔	-9.27139
苦	-9.27173
下體	-9.27229
不勝	-9.27273
變通	-9.27392
為一	-9.27411
還	-9.27639
之分	-9.27741
圓	-9.27855
閉	-9.27864
豈能	-9.27948
不已	-9.27951
迹	-9.28076
地之	-9.28077
易簡	-9.28091
圗	-9.28117
而已矣	-9.28146
於五	-9.28265
儉	-9.28296
廟	-9.28305
互體	-9.284
取諸	-9.28421
卦象	-9.28511
幸	-9.28555
客	-9.28568
之勢	-9.287
萌	-9.28857
以見	-9.28941
細	-9.28959
格	-9.29017
之時也	-9.29051
鮮	-9.29135
不出	-9.29276
也四	-9.29276
迷	-9.29279
□	-9.29336
六畫	-9.29394
其理	-9.29523
少女	-9.29605
坎水	-9.29781
皇	-9.29816
中也	-9.2988
童	-9.29901
如是則	-9.29903
丁	-9.29913
草木	-9.29921
義也	-9.29992
相感	-9.29996
禦	-9.30016
奪	-9.30053
不窮	-9.30135
三畫	-9.3015
補	-9.30224
玉	-9.30235
擇	-9.30254
不安	-9.30284
三之	-9.3035
辟	-9.30368
志行	-9.30411
膚	-9.30422
庭	-9.30422
不動	-9.30498
賢人	-9.30542
十五	-9.30694
所當	-9.30711
以順	-9.30783
大亨	-9.30817
初爻	-9.30859
濡	-9.30888
腓	-9.30894
惑	-9.30917
放	-9.31013
一人	-9.31191
雷風	-9.31229
坎上	-9.31235
戒之	-9.31275
職	-9.31287
則能	-9.31293
郊	-9.31295
附録	-9.31323
以動	-9.31382
坤上	-9.31641
隨之	-9.31822
故不	-9.31865
革之	-9.31936
辯	-9.31941
一箇	-9.3202
之至也	-9.32027
大抵	-9.32077
六位	-9.32192
遲	-9.32241
忌	-9.32483
此以	-9.32523
靈	-9.32555
弊	-9.32584
躍	-9.32594
雜卦	-9.32616
皆是	-9.32637
九六	-9.3272
故稱	-9.32808
扵	-9.32918
它	-9.32939
懐	-9.32958
中有	-9.32982
而終	-9.32985
其間	-9.32987
秦	-9.33066
麗乎	-9.33117
也凡	-9.33331
少陽	-9.33424
恐懼	-9.3347
又以	-9.3354
柔中	-9.3355
不食	-9.33889
上卦	-9.34005
二四	-9.34056
。	-9.34295
止之	-9.34397
塗	-9.3441
此章	-9.34438
之序	-9.34533
也初	-9.34606
消息	-9.34711
過於	-9.34791
者乎	-9.34838
非其	-9.34849
嫌	-9.34884
𤣥	-9.35019
鬼	-9.35034
有為	-9.35064
未可	-9.35093
日中	-9.35113
確	-9.35202
變則	-9.35283
渉	-9.35494
往則	-9.35613
離上	-9.35834
恃	-9.35858
不能自	-9.35874
者有	-9.35918
不復	-9.35927
不行	-9.35945
材	-9.35963
以行	-9.3605
庸	-9.36068
祭祀	-9.36143
味	-9.36181
拂	-9.36301
以濟	-9.36372
寵	-9.36372
闕	-9.36391
掛	-9.36445
闢	-9.36485
谷	-9.36521
六十四	-9.36552
諸卦	-9.36588
博	-9.36645
則可	-9.36712
僅	-9.36717
也本義	-9.36728
趙	-9.36768
與上	-9.36771
天地之道	-9.36986
王者	-9.37001
早	-9.37009
四五	-9.37026
舟	-9.37163
藴	-9.37323
義曰	-9.37342
得其正	-9.37432
憂患	-9.37484
明之	-9.37487
物也	-9.37551
之名	-9.37628
行而	-9.37636
晝	-9.37904
畫卦	-9.38003
康	-9.38097
地道	-9.38211
宣	-9.38258
揚	-9.38296
營	-9.38296
淺	-9.38313
以隂	-9.38314
季	-9.38354
誅	-9.38387
川	-9.38512
三變	-9.38582
乾下	-9.38815
六爻皆	-9.38885
中之	-9.38907
内卦	-9.38909
昔	-9.39062
其類	-9.39099
大吉	-9.39107
離下	-9.39152
而自	-9.39161
无首	-9.39181
而反	-9.39209
可知矣	-9.39237
源	-9.3925
及其	-9.39391
而外	-9.39442
棟	-9.3952
登	-9.39576
者以其	-9.39629
君之	-9.39672
鴻	-9.39776
之學	-9.39876
時也	-9.39879
十年	-9.40092
居尊	-9.40202
守正	-9.40224
利渉大川	-9.40267
於内	-9.40382
肆	-9.40411
于天	-9.40422
無不	-9.40491
上文	-9.40496
表	-9.4051
慶	-9.40546
以上	-9.40575
瀆	-9.40612
之盛	-9.40682
落	-9.40805
初為	-9.40867
陽為	-9.40919
不自	-9.40925
巽順	-9.40948
勿恤	-9.4102
在天	-9.41083
之剛	-9.41104
友	-9.41234
上應	-9.41369
艮上	-9.41369
見得	-9.414
初上	-9.41437
三五	-9.41444
坤下	-9.41449
露	-9.41466
宻	-9.41562
中行	-9.41617
叔	-9.41833
變也	-9.41873
念	-9.41902
易中	-9.41913
也蓋	-9.41961
止而	-9.42039
而進	-9.42042
之事也	-9.42047
震上	-9.42056
五隂	-9.42106
正而	-9.42166
揜	-9.42274
榮	-9.42278
寅	-9.42372
外卦	-9.4242
四為	-9.42487
而吉	-9.42581
所歸	-9.42749
固有	-9.42828
觸	-9.42917
中庸	-9.42973
厥	-9.43019
以待	-9.43217
則不能	-9.43238
紂	-9.43241
裁	-9.43274
无攸利	-9.43288
䧟	-9.43342
其勢	-9.43412
大象	-9.43466
羸	-9.43489
无疆	-9.43585
忠信	-9.43628
畢	-9.43817
中而	-9.43826
茅	-9.43827
隂爻	-9.43859
順以	-9.43866
之文	-9.43878
肉	-9.43919
坎險	-9.43965
於初	-9.4397
義理	-9.44031
本卦	-9.44054
震下	-9.44057
逼	-9.4413
數之	-9.44213
數也	-9.44274
窒	-9.44291
晝夜	-9.44298
偽	-9.44324
以陽	-9.44331
貌	-9.44349
咎也	-9.44365
下有	-9.44468
試	-9.4455
述	-9.44626
某	-9.44704
為用	-9.44904
險難	-9.45001
殷	-9.45029
擬	-9.4504
永貞	-9.45061
悉	-9.45138
心之	-9.45176
豈不	-9.45189
合而	-9.45189
大明	-9.4525
乾坤之	-9.45434
人臣	-9.45482
以中正	-9.45547
扐	-9.45553
赤	-9.45649
四方	-9.45673
正義	-9.45758
也如	-9.45803
變動	-9.45813
用事	-9.45961
位而	-9.46017
勇	-9.46051
與二	-9.46224
頭	-9.4623
藉	-9.46565
易者	-9.46607
亦曰	-9.46685
校	-9.46802
巽下	-9.46815
王弼	-9.46838
得之	-9.46901
取義	-9.46924
无窮	-9.46956
天位	-9.47157
授	-9.47169
動也	-9.47221
支	-9.47249
祥	-9.47251
吉者	-9.4727
生生	-9.47316
也九五	-9.47399
上體	-9.47433
古之	-9.4752
坎之	-9.47557
繋	-9.47607
司	-9.47634
典	-9.47718
妹	-9.47759
君子之道	-9.47768
借	-9.48021
於地	-9.48122
莫之	-9.48151
斗	-9.4817
之甚	-9.48332
先生曰	-9.48428
在其中	-9.48456
安能	-9.487
五爻	-9.48757
反對	-9.48777
中虚	-9.4886
何所	-9.48968
候	-9.49024
勸	-9.49049
以至	-9.49079
奔	-9.49138
蔡	-9.49158
羣隂	-9.49252
兩爻	-9.49306
又何	-9.49372
盜	-9.49391
輪	-9.49435
敎	-9.49469
人之所	-9.4948
四爻	-9.49493
二為	-9.49503
无所不	-9.49572
无妄之	-9.49612
艮下	-9.49647
未必	-9.4967
一陰	-9.49726
眚	-9.49767
不可不	-9.49789
不與	-9.49814
兊為	-9.49822
不容	-9.49855
伸	-9.49958
耕	-9.50023
使人	-9.50051
之本	-9.50063
隂之	-9.50083
求之	-9.50186
為善	-9.50236
不當位	-9.50262
各得其	-9.50298
酒	-9.50336
二三	-9.50339
拇	-9.5042
懲	-9.50589
上進	-9.50608
祐	-9.50624
逹	-9.50626
離之	-9.50644
三十六	-9.50685
之凶	-9.50704
奮	-9.50758
隆	-9.50825
與三	-9.50899
嫁	-9.50983
禁	-9.51116
掩	-9.51177
陽也	-9.51246
旁	-9.51303
水之	-9.51372
全體	-9.51387
邵子	-9.51557
安得	-9.51589
過乎	-9.51615
婦人	-9.51639
賞	-9.51705
初二	-9.5173
光大	-9.51807
横	-9.519
欽定四庫全書	-9.52009
示人	-9.52084
故聖人	-9.52179
用也	-9.52207
也又曰	-9.52315
也九二	-9.52317
貳	-9.52333
譬	-9.52341
正道	-9.52345
段	-9.52357
世之	-9.52362
儒	-9.52363
之臣	-9.52369
之貞	-9.52441
震之	-9.52483
魏	-9.52581
上爻	-9.52811
理之	-9.52829
信之	-9.53041
行師	-9.53046
乙	-9.53069
艮之	-9.53069
惟其	-9.53087
過而	-9.53101
小者	-9.53225
大君	-9.53227
湯	-9.53337
暢	-9.53361
相得	-9.5345
不成	-9.53464
正義曰	-9.53503
西北	-9.53582
本作	-9.53618
歸之	-9.53672
得志	-9.5369
下文	-9.53722
順也	-9.53768
上為	-9.53825
其可	-9.53828
以養	-9.53902
争	-9.53923
事也	-9.5393
故无咎	-9.53931
敦	-9.54065
並易	-9.54152
貴賤	-9.54172
時而	-9.54187
恩	-9.5428
順乎	-9.54376
楚	-9.54498
爻變	-9.54588
相反	-9.5461
鼓	-9.54637
女子	-9.54674
吳	-9.54741
固守	-9.54765
出入	-9.54774
用其	-9.54812
滯	-9.54875
二十四	-9.54893
四徳	-9.54905
説卦	-9.54929
不應	-9.55129
反復	-9.55153
失之	-9.55198
相似	-9.55199
離明	-9.55216
入于	-9.55286
是謂	-9.55393
齋	-9.55417
老陽	-9.55425
有餘	-9.55434
其實	-9.55435
以剛中	-9.55451
辱	-9.55462
七日	-9.55481
於中	-9.5549
成功	-9.55551
損之	-9.55588
始於	-9.55598
父子	-9.55623
觀象	-9.5566
少隂	-9.55688
一身	-9.55755
有事	-9.5588
之過	-9.55958
州	-9.56019
六居	-9.56077
因其	-9.56094
之賢	-9.5614
其數	-9.56197
随	-9.56257
韓	-9.5629
其功	-9.56305
易道	-9.5637
怒	-9.56429
毛	-9.56437
有應	-9.56494
推之	-9.56569
兆	-9.56587
闇	-9.56607
括	-9.5663
有喜	-9.56741
兌為	-9.56801
卦徳	-9.56865
寓	-9.56953
刻	-9.56967
處之	-9.56987
而知	-9.57027
此則	-9.57086
墉	-9.57345
一句	-9.57352
近君	-9.57363
缶	-9.57452
略	-9.57594
所能	-9.57659
海	-9.57831
順從	-9.57863
也六五	-9.57982
貞固	-9.58073
軍	-9.58117
與天地	-9.58127
驚	-9.58175
暌	-9.58261
廬	-9.58274
以陽剛	-9.58297
始終	-9.58335
人情	-9.58372
亥	-9.58391
而往	-9.58507
中心	-9.58616
消長	-9.58654
京	-9.58712
之善	-9.58718
本爻	-9.58732
愚謂	-9.58734
貞厲	-9.5884
變易	-9.58914
城	-9.5898
泰之	-9.59069
壮	-9.59114
三十二	-9.59258
亦以	-9.59281
大矣哉	-9.59416
堯	-9.59642
渝	-9.598
巽上	-9.59808
大夫	-9.5984
其終	-9.59859
不免	-9.59891
有咎	-9.59926
下之	-9.59931
不至	-9.5994
之爻	-9.59955
驕	-9.60022
互坎	-9.60219
他卦	-9.60254
不合	-9.60304
丑	-9.60342
也六四	-9.60346
不易	-9.60348
相比	-9.60425
梁	-9.60429
其情	-9.60565
也九三	-9.60603
其能	-9.60626
爻之	-9.60651
其始	-9.6069
仁義	-9.60772
侵	-9.60821
諸爻	-9.60839
虧	-9.60861
靡	-9.61023
該	-9.61059
在我	-9.61107
自下	-9.61109
始生	-9.61116
召	-9.61132
逸	-9.61148
大事	-9.61226
于外	-9.61237
非有	-9.61273
貪	-9.61293
條	-9.61364
貞正	-9.61379
險而	-9.61575
魂	-9.61576
而求	-9.61628
陽而	-9.61684
闗	-9.61713
未有不	-9.61733
温	-9.6178
不是	-9.61899
言乎	-9.61923
聴	-9.61974
婚媾	-9.61997
也六三	-9.62027
協	-9.62041
利於	-9.62137
汝	-9.62155
横渠先生曰	-9.62156
至矣	-9.62187
三為	-9.62219
得失	-9.6224
可用	-9.62285
坐	-9.62318
倫	-9.62333
出乎	-9.6235
也上六	-9.62418
欲其	-9.6252
倒	-9.62551
於四	-9.62596
獻	-9.62616
可也	-9.62662
出險	-9.62768
入於	-9.62928
閒	-9.63038
萬民	-9.63083
也上九	-9.63156
與初	-9.63198
雖然	-9.63278
古人	-9.63336
綱	-9.6335
言語	-9.6338
所以能	-9.63386
恤	-9.63406
徃來	-9.63435
此所以	-9.63451
无位	-9.63467
姑	-9.63519
君位	-9.63621
吉象曰	-9.63658
第二	-9.63679
性情	-9.6371
彰	-9.63713
動静	-9.63729
毁	-9.63758
也盖	-9.63781
證	-9.63833
先後	-9.63867
知之	-9.63898
極其	-9.63993
㝠	-9.64039
縱	-9.64078
位乎	-9.64082
天徳	-9.64112
紛	-9.64138
𫉬	-9.64369
聖人作易	-9.64401
牙	-9.64424
為隂	-9.64549
豈有	-9.64602
而應	-9.64615
截	-9.64663
郭	-9.64707
君子觀	-9.64728
也九四	-9.64777
不失其	-9.64826
祗	-9.64847
於天下	-9.64861
以卦體	-9.64885
其行	-9.64894
在於	-9.64953
堯舜	-9.64958
爻言	-9.64982
脱	-9.65002
失道	-9.65042
快	-9.65116
之難	-9.65207
旦	-9.65234
未嘗不	-9.6524
其君	-9.65252
之宜	-9.65323
過中	-9.65335
相交	-9.65352
其上	-9.65393
辛	-9.65407
飬	-9.65431
也葢	-9.65449
溪	-9.65523
也六二	-9.65556
止也	-9.65597
有常	-9.65641
一卦之	-9.65658
正則	-9.65688
出于	-9.65807
利見	-9.65817
衆隂	-9.65821
澤上	-9.65929
于人	-9.65933
㐫	-9.66014
魯	-9.66088
時行	-9.66132
敝	-9.66135
亨者	-9.66187
九五之	-9.66276
􁁆	-9.66311
坤順	-9.66353
君道	-9.66379
如此則	-9.66379
以隂柔	-9.66491
之䇿	-9.66647
至五	-9.66711
熟	-9.66757
也然則	-9.66771
碩	-9.66784
卦之中	-9.66804
封	-9.66861
乾道	-9.66869
妾	-9.66902
為君	-9.66958
役	-9.67018
尊位	-9.6705
其才	-9.67089
或以	-9.67134
出而	-9.67159
震巽	-9.67211
柔得中	-9.67231
卦以	-9.67235
畧	-9.67324
應五	-9.67344
盪	-9.67425
為陽	-9.67432
三百	-9.67487
飛鳥	-9.67602
竟	-9.67776
羞	-9.6783
小子	-9.67834
以從	-9.67846
發明	-9.67853
家之	-9.67938
故雖	-9.67943
以柔居	-9.67943
乾體	-9.68008
品	-9.68104
自是	-9.68251
于五	-9.68326
事業	-9.68356
階	-9.6837
基	-9.68376
保其	-9.68402
文王之	-9.68408
游	-9.68427
豈非	-9.68436
寇	-9.6846
守其	-9.6849
則非	-9.68628
德之	-9.68643
見之	-9.68704
常也	-9.68708
詩曰	-9.68806
操	-9.68855
古者	-9.68856
矣夫	-9.68924
三嵗	-9.69033
百姓	-9.69175
繇	-9.69273
利有攸徃	-9.69288
以致	-9.6932
亨通	-9.69334
矯	-9.69449
十八	-9.69661
驗	-9.69695
而用	-9.69752
􁁇	-9.70112
乗剛	-9.70131
報	-9.7015
可久	-9.70164
旡	-9.70221
則又	-9.70233
兹	-9.70354
暑	-9.70558
知來	-9.7057
江	-9.70587
此理	-9.70594
燕	-9.7064
而出	-9.70647
得中道	-9.70651
》	-9.70665
易之道	-9.70762
徳行	-9.70775
愚案	-9.7078
踰	-9.70861
國家	-9.70888
爻象	-9.70932
取之	-9.70985
乎其	-9.71072
其體	-9.71146
有不	-9.71215
而亨	-9.713
竭	-9.71344
東南	-9.71346
而來	-9.71365
之應	-9.71558
若夫	-9.71588
否之	-9.71596
董	-9.71666
爻皆	-9.71669
寒暑	-9.71682
羽	-9.71728
乎此	-9.71814
所畜	-9.7184
閏	-9.71923
下應	-9.71928
允	-9.72001
无過	-9.7214
之實	-9.72147
不中正	-9.72189
廣大	-9.72414
自處	-9.72437
的	-9.72491
不宜	-9.72498
費	-9.72529
女之	-9.72541
也或曰	-9.7255
而致	-9.72616
象傳曰	-9.72621
以盡	-9.7263
為首	-9.72637
桓	-9.72663
行則	-9.7269
盡其	-9.72694
可見矣	-9.72772
其大	-9.72806
去其	-9.72819
孚于	-9.72878
終於	-9.72938
骨	-9.73015
哀	-9.73082
故吉	-9.73092
者此	-9.73169
壊	-9.73268
匹	-9.7327
矣象曰	-9.73357
管	-9.73386
故其占	-9.73459
冦	-9.73461
王肅	-9.7351
天下之事	-9.73529
相易	-9.73667
滋	-9.73684
乎故	-9.73686
億	-9.73754
地中	-9.73825
一時	-9.73908
同徳	-9.7392
豈可	-9.73942
山澤	-9.73977
迭	-9.74005
頻	-9.74027
其性	-9.74083
之所以為	-9.74085
居五	-9.7412
講	-9.74158
咸恒	-9.74178
則曰	-9.7418
剛來	-9.74183
也乾	-9.74283
蔀	-9.74409
所由	-9.7442
則雖	-9.7445
不違	-9.74454
酌	-9.74499
賴	-9.74501
之使	-9.74541
肅	-9.74611
中實	-9.74641
鼻	-9.74725
君子小人	-9.74819
女歸	-9.74903
圍	-9.74933
大也	-9.74963
於陽	-9.7503
之利	-9.75064
毒	-9.75067
符	-9.75072
陰柔	-9.75075
即是	-9.75131
賾	-9.75159
正中	-9.75326
輹	-9.75335
也惟	-9.75351
委	-9.75386
乾卦	-9.754
祀	-9.75403
馮	-9.7542
吉无咎	-9.75483
牧	-9.75487
也初九	-9.7556
行險	-9.75625
惻	-9.75644
羲	-9.7568
小亨	-9.75697
不中不正	-9.75727
賓	-9.75784
眇	-9.75803
卦中	-9.75951
亦是	-9.75986
冬至	-9.76077
也是故	-9.7608
爻義	-9.76116
荒	-9.76159
變而為	-9.76253
謂五	-9.76286
感應	-9.76344
同體	-9.76407
可貞	-9.76407
留	-9.76426
怠	-9.76541
位不當	-9.76572
招	-9.76632
稽	-9.76634
屋	-9.7668
部	-9.76692
貞者	-9.76735
居四	-9.76763
則無	-9.76773
酉	-9.76879
則失	-9.76964
在地	-9.77095
卦畫	-9.77157
續	-9.77288
八月	-9.77293
或問	-9.77357
此義	-9.77361
卦有	-9.77435
所處	-9.77468
循環	-9.77477
何如	-9.7756
其明	-9.77586
歳	-9.777
沈	-9.7781
象言	-9.77837
亦非	-9.77841
鼎之	-9.77854
堂	-9.77962
之常	-9.77976
驅	-9.78005
曽	-9.78045
甚矣	-9.78246
節之	-9.78359
何謂	-9.78379
无咎者	-9.78389
聖人以	-9.78471
雍	-9.78485
二句	-9.78488
㓙	-9.78533
弓	-9.78644
用刑	-9.78793
生成	-9.78862
坎中	-9.78878
三年	-9.78928
而非	-9.78948
長男	-9.78978
之機	-9.78985
措	-9.78992
忿	-9.79173
不信	-9.79188
貞也	-9.79288
止則	-9.79315
以陽居	-9.79393
易傳	-9.79444
云云何也曰	-9.79563
市	-9.79634
勤	-9.79667
集說	-9.79714
巫	-9.79726
疇	-9.79829
肥	-9.79848
鉉	-9.79956
險阻	-9.80076
子之	-9.80109
兩卦	-9.80177
從上	-9.80335
沙	-9.80371
失正	-9.80388
為小人	-9.80424
可與	-9.80478
為吉	-9.80523
已成	-9.80546
戊	-9.80555
善惡	-9.80615
悟	-9.80658
大矣	-9.80694
第一	-9.80763
其意	-9.80813
含章	-9.80851
之㫖	-9.80927
變者	-9.80927
一物	-9.80954
帥	-9.80959
祉	-9.80986
危厲	-9.81071
日新	-9.81081
自養	-9.81099
剛得中	-9.81131
渾	-9.81132
來者	-9.81139
事物	-9.81142
莊	-9.81174
中則	-9.81212
二者	-9.81244
在下而	-9.81279
天下之至	-9.81299
漢上朱氏曰	-9.81323
為正	-9.81516
有厲	-9.81527
也既	-9.81545
宼	-9.81601
亦然	-9.81613
破	-9.81624
以剛居	-9.8163
第三	-9.81731
則當	-9.81769
离	-9.81769
雉	-9.8181
冥	-9.81811
注云	-9.81958
虞翻	-9.8197
大業	-9.81983
于是	-9.82013
嗑	-9.82018
小事	-9.82135
剛明	-9.82144
致其	-9.82173
而不已	-9.82184
中道	-9.82207
不若	-9.82242
賦	-9.82346
亦无	-9.82392
乾乾	-9.82424
賊	-9.82538
日之	-9.82545
之象故	-9.82604
扶	-9.82617
稍	-9.82648
邇	-9.82652
受其	-9.82693
又云	-9.82788
養人	-9.82822
有此	-9.82825
不至於	-9.82867
性命	-9.82989
之運	-9.83
未光也	-9.83025
瞻	-9.83076
得无咎	-9.83109
者蓋	-9.83189
毫	-9.83233
爵	-9.83255
乎天	-9.83269
在其中矣	-9.83278
也是以	-9.83318
匪人	-9.83399
孚信	-9.83426
不測	-9.83432
乘剛	-9.83478
謹按	-9.83524
舒	-9.83533
孔子曰	-9.8354
童僕	-9.8354
易以	-9.8359
離火	-9.83634
應乎	-9.83656
洛	-9.83669
而後有	-9.83671
之日	-9.83692
有凶	-9.83711
為貞	-9.83715
煩	-9.83782
不盡	-9.83793
亦猶	-9.8411
尊卑	-9.84185
吉而	-9.84243
衡	-9.84256
其應	-9.8428
其本	-9.84326
撓	-9.84328
王氏	-9.84363
分明	-9.8444
值	-9.84447
卦之上	-9.84449
於二	-9.84514
諸儒	-9.84572
之内	-9.84591
大衍	-9.84603
其所以	-9.8462
師之	-9.84632
猶未	-9.8466
擾	-9.84683
反身	-9.84737
長女	-9.8477
迫	-9.84779
缺	-9.84827
時之	-9.84874
兑為	-9.84885
動靜	-9.84909
相對	-9.8497
小象	-9.84999
契	-9.85003
童蒙	-9.85024
之禮	-9.85069
篤	-9.85088
古文	-9.85163
利也	-9.85213
工	-9.85237
一隂一陽	-9.85268
逮	-9.85272
益下	-9.85285
必以	-9.85439
朋來	-9.85479
種	-9.85653
植	-9.85731
柔弱	-9.85733
殆	-9.85734
也坤	-9.85741
妄動	-9.85816
失得	-9.85828
嗚呼	-9.85855
皆言	-9.85929
陽剛中正	-9.85934
緯	-9.86041
艱難	-9.86058
蕃	-9.86061
警	-9.86082
癸	-9.86096
増	-9.86098
呼	-9.86174
猶有	-9.86212
説文	-9.86382
其人	-9.86398
懷	-9.86413
之大者	-9.86433
否泰	-9.86442
在上而	-9.86449
故必	-9.8647
治之	-9.86477
繩	-9.8648
而處	-9.86509
此又	-9.86576
生焉	-9.86581
七八	-9.86595
乾健	-9.86602
終日	-9.86622
上下皆	-9.86752
受之	-9.86863
富貴	-9.86901
觧	-9.86923
賢者	-9.86936
一事	-9.86953
卦義	-9.86967
仕	-9.87035
齋曰	-9.87041
貨	-9.87051
若能	-9.871
烏	-9.87222
之始也	-9.87228
於物	-9.87302
誠意	-9.8733
歲	-9.87349
天地之間	-9.87349
而可	-9.87442
而得中	-9.87472
故其象占如此	-9.87564
以陽居隂	-9.87647
翔	-9.87724
亦為	-9.87748
由是	-9.87798
得吉	-9.87867
貞凶	-9.87941
不進	-9.88064
三日	-9.88094
而順	-9.881
不順	-9.88207
甫	-9.8825
相合	-9.88273
少男	-9.88294
既濟之	-9.88346
啟	-9.88363
託	-9.88439
電	-9.88481
吉无不利	-9.88517
之書	-9.88522
研	-9.88588
不見其	-9.8866
則无咎	-9.88666
脫	-9.88672
判	-9.88694
漏	-9.88826
申命	-9.88833
者如	-9.88905
慢	-9.88924
没	-9.88924
項	-9.8915
隅	-9.89163
翕	-9.89222
用六	-9.89231
老隂	-9.89247
天行	-9.89279
坤體	-9.89313
進則	-9.89329
五剛	-9.89338
其説	-9.8934
寄	-9.89366
回	-9.8941
繫之	-9.89466
在前	-9.89489
陽在下	-9.8955
无常	-9.89627
人皆	-9.8964
止于	-9.89646
壬	-9.89663
若是	-9.89665
未變	-9.89691
過剛	-9.89778
之美	-9.89786
鄭氏	-9.89885
潜	-9.89909
逺近	-9.89922
能止	-9.89942
許多	-9.89953
象數	-9.89957
恱	-9.90045
武王	-9.90086
攸	-9.90097
臣道	-9.90139
狀	-9.90178
關	-9.90231
得其所	-9.90297
近而	-9.90461
喪其	-9.9064
十三	-9.90659
乃得	-9.9066
混	-9.90751
以隂居	-9.90806
象占	-9.90827
戌	-9.90888
習坎	-9.90943
于地	-9.91033
夕	-9.91092
不曰	-9.91134
上則	-9.91177
不交	-9.9121
朔	-9.91251
其下	-9.913
揲蓍	-9.91314
朱子語	-9.91341
所安	-9.91346
宿	-9.91361
說卦	-9.91386
豚魚	-9.91422
宗廟	-9.91463
浸長	-9.91479
像	-9.91485
旅之	-9.91524
自内	-9.91534
若不	-9.91537
當然	-9.91557
知幾	-9.91579
盤	-9.91635
承上	-9.91664
不得不	-9.91673
集疏	-9.91709
二氣	-9.91727
采	-9.91856
戚	-9.91872
戸	-9.91927
為正應	-9.91933
邑人	-9.91964
之主也	-9.9197
尋	-9.91991
同心	-9.92043
不盈	-9.92051
其餘	-9.92059
處下	-9.92101
一无	-9.92124
此之謂	-9.92412
橈	-9.92454
衆人	-9.92461
測	-9.92594
謂其	-9.92604
一定	-9.92676
者所以	-9.92681
明矣	-9.92752
猛	-9.92823
自此	-9.92873
彌	-9.92893
制之	-9.9306
二十八	-9.93077
雄	-9.93102
彭	-9.93203
二剛	-9.93206
恁地	-9.93233
龜山楊氏曰	-9.93238
履虎尾	-9.93514
畜之	-9.93519
大哉	-9.93521
裳	-9.93527
臭	-9.93585
之質	-9.93621
乎曰	-9.93622
弗克	-9.93664
俟	-9.93893
虚中	-9.93925
其氣	-9.94085
木之	-9.94092
萬事	-9.94112
弧	-9.94113
者乃	-9.94187
尚賢	-9.94194
柄	-9.94201
之私	-9.94224
丈夫	-9.94252
溢	-9.94321
繁	-9.94335
第十	-9.94337
曰此	-9.94506
之卦也	-9.94514
對待	-9.94544
倍	-9.94569
而不敢	-9.94583
兢	-9.94598
互艮	-9.94612
健而	-9.94627
非正	-9.94674
命也	-9.94681
減	-9.94747
承天	-9.94786
天之道	-9.94792
班	-9.94853
吉凶悔吝	-9.94856
分之	-9.94934
猶言	-9.94943
二與五	-9.95003
而見	-9.95065
族	-9.95094
歸藏	-9.95176
旬	-9.95182
不得其	-9.95278
炎上	-9.95331
忍	-9.95357
叶	-9.9538
昃	-9.95431
六二之	-9.95465
卷十	-9.95501
㡳	-9.95509
矣又	-9.95593
黃	-9.95606
自古	-9.95621
衎	-9.95709
沛	-9.95718
坎坎	-9.95733
槩	-9.95763
三百八十四爻	-9.958
優	-9.96
掛一	-9.96124
泰否	-9.96146
以益	-9.96147
重卦	-9.96158
準	-9.96195
圖書	-9.96263
棟橈	-9.96269
周禮	-9.963
曷	-9.96386
愚按	-9.96471
當作	-9.96506
乎上	-9.96528
錯綜	-9.9658
災也	-9.96609
所行	-9.96613
四十九	-9.9667
萬國	-9.96738
分為	-9.96743
較	-9.96809
天人	-9.96814
浸	-9.96874
不取	-9.96881
是非	-9.96895
天地間	-9.96905
丙	-9.96941
上帝	-9.96968
于内	-9.97052
寂	-9.97053
之首	-9.97122
陽卦	-9.97155
蔡氏曰	-9.97213
紫陽朱子曰	-9.97273
析	-9.97308
行事	-9.97319
元永貞	-9.97409
衛	-9.97464
農	-9.97475
書曰	-9.9748
彚	-9.97515
歸於	-9.97633
不克	-9.97668
預	-9.97678
思慮	-9.9768
見于	-9.97714
壞	-9.97791
鍾	-9.9785
出門	-9.97883
洊	-9.97941
能以	-9.98047
九家	-9.9808
此意	-9.98194
伊尹	-9.98201
萊按	-9.98213
巽之	-9.98261
景	-9.98265
者也然	-9.98319
釋之	-9.98417
音義	-9.98422
孔子之	-9.98427
韻	-9.98619
後人	-9.98658
國之	-9.98695
伊川程子曰	-9.98733
來復	-9.98823
礙	-9.98851
過也	-9.98862
交而	-9.98864
三百六十	-9.9887
杜	-9.9888
茂	-9.98895
寳	-9.98913
必至	-9.98923
之可	-9.99043
乃能	-9.99077
行乎	-9.99078
於義	-9.99154
相求	-9.99174
通天下之志	-9.99277
故君子	-9.99278
剛健中正	-9.993
六五之	-9.99418
者葢	-9.99436
鼔	-9.99546
四卦	-9.99623
未光	-9.99638
宴	-9.9966
二篇	-9.99663
大小	-9.99681
純陽	-9.99731
衆陽	-9.99782
備矣	-9.99886
猶可	-9.99957
輻	-10
竒偶	-10.0001
互震	-10.0006
新安朱氏曰	-10.001
之患	-10.0015
止而不	-10.0017
嚮	-10.0018
則不可	-10.0019
尺	-10.0019
君也	-10.002
擬議	-10.0021
其凶	-10.0022
之時而	-10.0025
鹿	-10.0033
終日乾乾	-10.0051
伊	-10.006
其常	-10.0067
五以	-10.0071
相錯	-10.0076
之禍	-10.0077
易知	-10.0078
本於	-10.0082
正是	-10.0087
啓	-10.009
也初六	-10.0092
媚	-10.0096
盗	-10.0101
𧰼曰	-10.0101
未免	-10.0103
貝	-10.0111
之失	-10.0118
在初	-10.0124
矜	-10.0132
而不得	-10.0132
建侯	-10.0135
寜	-10.0141
之策	-10.0143
而不窮	-10.0152
則亦	-10.0152
何咎之有	-10.0155
此所謂	-10.0158
而欲	-10.0165
四德	-10.0168
有形	-10.017
乾陽	-10.0172
欽定四庫全書周易	-10.0173
天文	-10.0175
為君子	-10.0179
巽木	-10.0179
无功	-10.0183
孕	-10.0188
編	-10.0195
于中	-10.0196
歌	-10.0198
繋辭	-10.0198
返	-10.0199
貢	-10.02
遏	-10.0207
屯之	-10.0212
占也	-10.0212
井之	-10.0213
應初	-10.0215
未至	-10.0217
便有	-10.0221
所為	-10.0225
普	-10.0226
從陽	-10.0239
未盡	-10.024
小大	-10.024
盛而	-10.0247
雷電	-10.0249
兄	-10.0249
同也	-10.0249
遜	-10.0252
信也	-10.0256
一畫	-10.027
互離	-10.0277
以示	-10.0284
而明	-10.0288
震艮	-10.0288
若以	-10.0288
不服	-10.0288
宅	-10.029
個	-10.029
必有所	-10.0299
深矣	-10.0306
从	-10.0308
四十	-10.0311
在此	-10.0316
燥	-10.0319
藩	-10.0322
牝馬	-10.0324
一竒	-10.0326
彖言	-10.0329
未成	-10.0329
則吉也	-10.0336
王輔嗣	-10.034
知所	-10.034
號令	-10.034
而至	-10.0341
弟	-10.0343
資始	-10.0351
逢	-10.0363
雞	-10.0365
合於	-10.0369
何咎	-10.037
有家	-10.0371
而安	-10.0379
四者	-10.0382
其變	-10.0384
此其所以	-10.0388
掌	-10.0391
之前	-10.0392
讀易	-10.0397
而四	-10.0403
終必	-10.0409
告之	-10.0414
陸氏曰	-10.0414
之𧰼	-10.0417
五上	-10.0418
淫	-10.0418
遭	-10.0419
卦之下	-10.0419
丈人	-10.0423
未失	-10.0432
焉則	-10.0438
未見	-10.0438
非謂	-10.0439
湯武	-10.0441
三則	-10.0447
討	-10.0451
霜	-10.0451
門庭	-10.0454
之深	-10.0455
者盖	-10.0456
故象	-10.0456
初四	-10.0464
之用也	-10.0466
威如	-10.0467
濡其尾	-10.0468
貴乎	-10.0472
有功也	-10.0473
論之	-10.0473
主爻	-10.0475
居柔	-10.0477
于初	-10.0493
所以次	-10.0493
利于	-10.0495
故取	-10.0495
無窮	-10.0497
主於	-10.0498
藥	-10.05
運行	-10.0501
釋卦辭	-10.0514
臨之	-10.0521
顔子	-10.0522
康節	-10.0529
聰明	-10.0532
既有	-10.0536
余	-10.055
酒食	-10.0555
憧憧	-10.0571
肖	-10.0585
教人	-10.0587
跛	-10.0595
乃為	-10.061
穫	-10.0612
无咎矣	-10.0614
八十	-10.0621
彖象	-10.0621
徹	-10.0631
艮其背	-10.0633
則謂之	-10.0635
隂也	-10.0636
徧	-10.0646
𢎞	-10.066
跡	-10.066
之精	-10.0668
居隂	-10.0668
明而	-10.0671
絲	-10.0672
尊而	-10.0678
誠信	-10.0682
靜而	-10.0687
失其所	-10.069
无有	-10.0691
叛	-10.0691
其文	-10.0695
沒	-10.07
巢	-10.07
聰	-10.0701
希	-10.0705
枯	-10.0709
和順	-10.071
化育	-10.0713
貞則	-10.0715
豹	-10.0717
是之謂	-10.0719
圓圖	-10.0723
浚	-10.0725
醜	-10.0728
佐	-10.0731
戾	-10.0744
讓	-10.0748
之屬	-10.0754
蓍龜	-10.0755
皆非	-10.0759
臧	-10.0759
舞	-10.0761
武人	-10.0767
逃	-10.0771
利艱貞	-10.0776
非聖人	-10.0776
濁	-10.0778
述曰	-10.0784
云云	-10.0787
受命	-10.0792
辭也	-10.0793
安於	-10.0797
其家	-10.0798
天地之數	-10.08
側	-10.0802
者何	-10.0803
剥之	-10.0813
一體	-10.0817
自取	-10.082
近於	-10.0822
罰	-10.0825
无可	-10.0834
凖	-10.0834
然後能	-10.0835
掛扐	-10.0837
愼	-10.0843
遯之	-10.0844
踐	-10.0846
之餘	-10.0847
巽體	-10.0848
天地萬物	-10.086
須是	-10.0861
九四之	-10.0862
厭	-10.0868
去之	-10.0872
湏	-10.0877
所用	-10.0882
亦未	-10.0887
鄙	-10.089
學易	-10.0891
四海	-10.0892
人欲	-10.0898
遄	-10.09
生于	-10.0902
致用	-10.0908
先儒曰	-10.0919
能自	-10.0921
害也	-10.0924
至上	-10.0932
而不失其	-10.0935
獨行	-10.0936
夲	-10.0939
涵	-10.095
乎外	-10.0951
請	-10.0954
二簋	-10.0957
激	-10.0963
善也	-10.0969
命之	-10.0971
凶矣	-10.0972
否曰	-10.0972
其後	-10.0973
本義云	-10.0973
何哉	-10.0982
頂	-10.0984
以道	-10.099
合也	-10.0992
謂二	-10.0994
莫能	-10.1004
為震	-10.1007
鴻漸	-10.1009
有時	-10.1012
潛龍勿用	-10.1012
初與四	-10.1017
之辭也	-10.1027
於君	-10.103
坤道	-10.1032
語録	-10.1033
顔	-10.1034
俯	-10.1039
為天	-10.104
利建侯	-10.1041
机	-10.1049
走	-10.1053
異矣	-10.1053
着	-10.1055
然亦	-10.1063
不相得	-10.1064
邊	-10.1068
起於	-10.1074
退而	-10.1075
馴	-10.1079
毁折	-10.108
窮極	-10.108
夬夬	-10.1082
寸	-10.1084
輿尸	-10.1087
獸	-10.1094
覿	-10.1095
損下益上	-10.1098
為臣	-10.1099
交於	-10.1099
追	-10.11
荅	-10.1101
此聖人	-10.1101
剛柔相	-10.1105
京房	-10.1113
能盡	-10.1113
烈	-10.1113
患難	-10.1115
鄭𤣥	-10.1116
一柔	-10.1119
二陰	-10.1131
之占	-10.1134
困而	-10.1139
諸家	-10.1139
㫁	-10.1145
求其	-10.1149
摧	-10.1156
仇	-10.1158
闡	-10.1162
邵	-10.1164
鄉	-10.1174
所云	-10.1183
演	-10.1188
處困	-10.1198
不止	-10.12
纔	-10.1204
蒙謂	-10.1204
在五	-10.1204
死生	-10.1211
隂陽相	-10.122
魄	-10.1226
體用	-10.1227
爻位	-10.123
項氏曰	-10.1235
莫非	-10.1238
利在	-10.1244
天德	-10.1245
把	-10.1249
穆	-10.1253
甃	-10.1259
茹	-10.126
孔子釋	-10.1262
十月	-10.127
提	-10.1271
㓂	-10.1271
必先	-10.1273
无非	-10.1275
為應	-10.1284
應四	-10.1287
用柔	-10.129
守之	-10.1292
訂	-10.1294
剛正	-10.1294
之所由	-10.1295
之象然	-10.1295
風雨	-10.1299
浮	-10.1309
始交	-10.131
中正之道	-10.1312
羣龍	-10.1313
一章	-10.1317
從王事	-10.1323
盥	-10.1324
隣	-10.1324
交錯	-10.1327
升降	-10.1333
禮樂	-10.1338
之意也	-10.1339
巧	-10.134
牝牛	-10.1352
相推	-10.1359
剛中而應	-10.1359
弗過	-10.1362
禴	-10.1363
天下之動	-10.137
為艮	-10.137
以剛居柔	-10.1372
上居	-10.1373
全卦	-10.1373
完	-10.1375
言易	-10.1377
使民	-10.1381
見大人	-10.1383
至四	-10.1383
神也	-10.1393
而實	-10.1403
所居	-10.1407
家道	-10.1407
與天	-10.1421
存亡	-10.1425
蕩	-10.1433
征吉	-10.1439
用易	-10.1441
曳	-10.1443
束	-10.1446
自外來	-10.1447
老少	-10.145
澄	-10.1465
乃可	-10.1471
不可見	-10.1483
同類	-10.1488
呉	-10.1494
焉故	-10.1509
傅	-10.151
待時	-10.1518
諂	-10.1525
咸臨	-10.1526
乃所以	-10.1528
昌	-10.1534
應乎乾	-10.1534
逺而	-10.1535
静而	-10.1535
之末	-10.1538
創	-10.1539
太陽	-10.1549
悅	-10.1549
之極也	-10.1553
无私	-10.1559
帝乙	-10.156
夤	-10.1561
困窮	-10.1563
止其所	-10.1563
天數	-10.1566
一氣	-10.1575
而遇	-10.1576
合乎	-10.1577
隂氣	-10.1579
為利	-10.1579
炎	-10.158
皆曰	-10.1585
自我	-10.1586
東方	-10.1587
其一	-10.1592
王假有廟	-10.1594
噬膚	-10.1596
比於	-10.1597
應上	-10.1599
免於	-10.1601
也且	-10.1615
養賢	-10.1617
德行	-10.1617
戒占者	-10.162
平易	-10.1621
蟲	-10.1632
泛	-10.1634
所以成	-10.1635
卦爻之	-10.1637
生萬物	-10.1639
牝	-10.1643
亦不能	-10.1643
豶	-10.1648
覩	-10.1653
貞吉悔亡	-10.1653
利西南	-10.1658
子夏	-10.1662
未及	-10.1662
四四	-10.1667
日用	-10.1669
莫如	-10.1677
上九之	-10.1678
獲吉	-10.1678
成數	-10.1685
一變	-10.1698
青	-10.17
天運	-10.1708
意思	-10.1725
炳	-10.1732
此是	-10.1735
亦無	-10.1745
界	-10.1748
見龍在田	-10.175
而隂	-10.1756
遂其	-10.1759
情偽	-10.177
過則	-10.1772
萬世	-10.1776
矣若	-10.1785
為貴	-10.1786
陷於	-10.1792
不濟	-10.1793
鑿	-10.1796
用壯	-10.1797
上承	-10.1797
葉	-10.18
吕音訓	-10.1811
亦如	-10.1812
九卦	-10.1813
得中而	-10.1816
所有	-10.1818
王公	-10.1819
然後可以	-10.1822
三居	-10.1822
用剛	-10.1829
謂初	-10.1831
桎梏	-10.1831
無所不	-10.1831
本无	-10.184
此亦	-10.1848
答	-10.1848
剛長	-10.185
象辭	-10.1853
竹	-10.1854
枉	-10.1856
之端	-10.186
彊	-10.1861
利害	-10.187
漸進	-10.1871
坎體	-10.1872
鶴	-10.1874
祇	-10.1875
抱	-10.1876
不忘	-10.1876
相薄	-10.1898
。《	-10.1908
復生	-10.1909
而言之	-10.1913
大有之	-10.1915
這箇	-10.1916
所得	-10.1928
三上	-10.1931
見易曰	-10.1935
茀	-10.1935
涕	-10.1937
不害	-10.1938
成物	-10.1946
艮止也	-10.1947
程氏	-10.1949
工夫	-10.1952
其言	-10.1956
可為	-10.1956
亦必	-10.1968
乾剛	-10.1971
而况	-10.1972
不從	-10.198
之本也	-10.1982
盛徳	-10.1986
觀我生	-10.1987
磐	-10.1992
握	-10.1996
所從	-10.1999
而至於	-10.2001
不終	-10.2001
而後可	-10.2003
賈	-10.2005
樹	-10.2005
括囊	-10.2005
也按	-10.2006
不欲	-10.2012
之中而	-10.2015
不求	-10.2019
捨	-10.202
窺	-10.2022
也為卦	-10.2022
彼此	-10.2026
蓋取諸	-10.2027
不富	-10.2031
去聲	-10.2033
與人	-10.2034
明徳	-10.2037
探	-10.204
必得	-10.2043
者多	-10.2045
不疑	-10.205
十有八	-10.2052
坤土	-10.2053
卯	-10.2057
以時	-10.2058
之資	-10.2061
孟子曰	-10.2063
耳目	-10.2068
自復	-10.207
人身	-10.2072
有定	-10.2085
以隂居陽	-10.2086
範	-10.209
旁通	-10.2093
之象焉	-10.2097
口舌	-10.2101
歎	-10.2104
憊	-10.2118
司馬	-10.2118
錢	-10.2122
二變	-10.2127
定位	-10.213
戈兵	-10.2132
以爲	-10.2138
于天下	-10.2139
龔	-10.2139
蔵	-10.2141
由此	-10.2152
時當	-10.2157
連山	-10.2161
純隂	-10.2163
為象	-10.2168
六龍	-10.2169
毋	-10.217
疆	-10.2182
生數	-10.2183
迎	-10.2185
自家	-10.2188
古今	-10.2191
下交	-10.2192
曾	-10.2192
卦氣	-10.2192
一義	-10.22
次第	-10.2201
神農	-10.2201
至大	-10.2201
天下之理	-10.2202
重剛	-10.2203
姚	-10.2204
反覆	-10.2205
洪範	-10.2209
非其位	-10.221
雲行雨施	-10.2211
其進	-10.2212
蹈	-10.2217
恥	-10.2217
龍戰	-10.2219
人物	-10.2228
變而成	-10.2231
精神	-10.2236
而後能	-10.2251
改命	-10.2251
以柔順	-10.2251
單	-10.2256
至善	-10.227
仲尼	-10.2272
所宜	-10.2278
西方	-10.228
之稱	-10.228
化之	-10.2282
无事	-10.2283
所見	-10.2287
无心	-10.2292
大傳	-10.2293
天地之心	-10.2296
包犧	-10.2324
經綸	-10.2326
事君	-10.2331
恒久	-10.2333
宜其	-10.2341
歸于	-10.2347
何為	-10.2348
在乎	-10.2352
如字	-10.2353
盛大	-10.2356
之徒	-10.2359
順理	-10.2359
成卦之主	-10.236
設卦	-10.2361
正曰	-10.2362
蒼	-10.2373
晁	-10.2383
不可得而	-10.2392
資斧	-10.242
暇	-10.2425
徑	-10.2437
艮體	-10.2439
頰	-10.2448
禍福	-10.2454
合之	-10.2456
崔	-10.2457
木為	-10.2458
第四	-10.2462
柔得位	-10.2467
突	-10.2478
變革	-10.2484
枝	-10.2492
既成	-10.2503
莽	-10.2504
倡	-10.2509
前後	-10.2509
有他	-10.2509
无以	-10.2511
敬慎	-10.2512
過揲	-10.252
有過	-10.2521
人君之	-10.2525
導	-10.2527
伍	-10.2527
山之	-10.2528
重險	-10.2529
而言則	-10.2531
或謂	-10.2537
杞	-10.2542
有所往	-10.2544
這裏	-10.2547
諸爻皆	-10.255
號咷	-10.2554
十七	-10.256
隂卦	-10.2563
亢龍有悔	-10.2564
皆為	-10.2576
雅	-10.2579
錄	-10.2583
自我西郊	-10.2593
競	-10.2594
得乎	-10.2595
揆	-10.2596
髙宗	-10.2599
處險	-10.26
承之	-10.2603
天下之大	-10.2604
萬物皆	-10.2607
有攸往	-10.2608
之為道	-10.2609
横渠	-10.2615
文字	-10.2617
凡言	-10.2622
戒懼	-10.2627
煦	-10.263
大同	-10.263
得尊位	-10.2631
戴	-10.2632
為巽	-10.2643
整	-10.265
道徳	-10.2651
下三爻	-10.2655
切近	-10.2657
形容	-10.2659
一一	-10.2663
姓	-10.2663
圭	-10.2665
科	-10.2666
途	-10.2668
傑	-10.2668
圜	-10.2668
蟄	-10.2668
所應	-10.2669
咥人	-10.2676
篤實	-10.2677
斂	-10.2684
補過	-10.2694
志在外	-10.2696
未定	-10.2704
恐其	-10.2733
濡尾	-10.2734
體之上	-10.2737
而已故	-10.2739
弟子	-10.2748
已日	-10.2759
朱氏	-10.2762
多懼	-10.2766
以一陽	-10.2769
所以致	-10.277
成形	-10.2778
言行	-10.2788
何可長	-10.2788
樞	-10.2792
以立	-10.2796
剛而不中	-10.2807
鄭康成	-10.2807
焦	-10.2809
屈伸	-10.2811
養正	-10.2813
交易	-10.2816
同功	-10.2824
以俟	-10.2832
有命	-10.2833
為雨	-10.2841
者也故曰	-10.2841
此時	-10.2841
蓄	-10.2842
一百	-10.2852
白賁	-10.2852
凡事	-10.2854
誡	-10.2856
之功也	-10.2859
艱貞	-10.2863
不一	-10.2864
胏	-10.2865
小利貞	-10.2865
緼	-10.2869
小而	-10.287
屯難	-10.2874
不家食	-10.2875
正則吉	-10.2887
利女貞	-10.2894
隼	-10.2894
步	-10.291
帛	-10.2911
居之	-10.2919
㸔	-10.2932
仁者	-10.2932
有序	-10.2939
君臣之	-10.2946
二柔	-10.2954
之任	-10.2956
臀	-10.2958
艮山	-10.2963
亟	-10.2966
北方	-10.2968
中正而	-10.2969
所養	-10.2978
卽	-10.2984
來居	-10.2985
同德	-10.2987
瓶	-10.2987
離體	-10.299
或躍在淵	-10.2991
防之	-10.2996
不獨	-10.2997
不肯	-10.2997
者何也	-10.3003
始于	-10.3005
九三之	-10.3006
有時而	-10.3007
人能	-10.3014
三與上	-10.3015
西山	-10.3025
為泰	-10.3025
未發	-10.3026
交孚	-10.3027
貞吝	-10.3033
造化之	-10.3035
互巽	-10.3049
渫	-10.3049
膏	-10.3049
亦可以	-10.3052
弼	-10.3052
易有	-10.3053
相通	-10.3057
帝乙歸妹	-10.3059
梗	-10.3059
𥘉	-10.307
脊	-10.3072
而言也	-10.3074
胥	-10.3075
能使	-10.3076
排	-10.308
今日	-10.3084
陋	-10.3095
幼	-10.3095
熊	-10.3098
相從	-10.3101
風雷	-10.3109
觀民	-10.3113
柔進而上行	-10.3114
縁	-10.3114
懸	-10.3116
成王	-10.3123
此説	-10.3124
拒	-10.3128
有疾	-10.3129
徴	-10.3134
六卦	-10.3136
虗	-10.3138
舌	-10.3139
卦之主	-10.3139
二五皆	-10.3146
神物	-10.3147
不知其	-10.3149
未知	-10.315
莫若	-10.3151
冠	-10.3154
委曲	-10.3158
而巳	-10.3164
鳴謙	-10.3166
飭	-10.3167
與時偕行	-10.317
无方	-10.3171
蛇	-10.3172
終无尤也	-10.3182
慈	-10.3184
堪	-10.3186
汚	-10.3188
恵	-10.3191
飲	-10.3194
:	-10.3201
小人之道	-10.3205
欲進	-10.3207
朋友	-10.3207
相親	-10.3215
冒	-10.3221
天地定位	-10.3221
次序	-10.3222
規	-10.3224
徃而	-10.3226
易之為書	-10.3227
卦德	-10.3227
修身	-10.3231
之助	-10.3238
洞	-10.3241
過于	-10.3243
无所容	-10.3246
必待	-10.3246
生意	-10.3254
孔氏	-10.3259
庶幾	-10.326
氣化	-10.3268
物物	-10.3272
中正之徳	-10.3274
㤗	-10.3276
頻復	-10.3287
併	-10.3293
裏	-10.3294
奸	-10.3298
淳	-10.3306
泣	-10.3314
或有	-10.3316
墨	-10.3318
陽實	-10.3319
吉而无咎	-10.3331
痛	-10.3334
調	-10.3335
欺	-10.3336
冇	-10.3338
遊	-10.3339
坤隂	-10.3346
河圗	-10.335
自得	-10.3351
狹	-10.3352
兄弟	-10.3356
日月之	-10.336
自下而上	-10.3361
妣	-10.3363
狗	-10.3367
孰能	-10.3367
不可以不	-10.3368
宮	-10.337
領	-10.3374
哲	-10.3375
受福	-10.3381
正理	-10.3381
凡物	-10.3387
疎	-10.3392
延	-10.3395
皆由	-10.3399
制器	-10.3404
居下之上	-10.3414
損上益下	-10.3427
一節	-10.3439
无形	-10.3445
虞氏	-10.3448
聘	-10.346
易書	-10.3463
屢	-10.3465
境	-10.3467
幽人	-10.3467
毎	-10.3468
筐	-10.3468
非能	-10.3468
參伍	-10.347
盱	-10.3473
不可過	-10.3474
徐氏曰	-10.3475
夫人	-10.3475
百四十	-10.3476
之為言	-10.3481
十一月	-10.3482
可行	-10.3485
益上	-10.3506
中節	-10.3509
南方	-10.3517
大川	-10.3519
都是	-10.352
夾	-10.3526
相濟	-10.3526
荀爽曰	-10.3527
苦節	-10.3527
亨利貞	-10.3533
佞	-10.3538
竒耦	-10.3539
又如	-10.3539
之地也	-10.354
見天地之心	-10.3545
粹	-10.3545
君子道長	-10.356
隂盛	-10.3561
趣	-10.3563
胡氏	-10.3571
以至於	-10.3579
往往	-10.3583
聖人所以	-10.3585
應在	-10.3587
之例	-10.3591
渙散	-10.3594
不好	-10.3595
攣	-10.3598
濳	-10.3603
房	-10.3605
終身	-10.3611
臣妾	-10.3611
拂經	-10.3612
聚而	-10.3615
相孚	-10.3615
所欲	-10.3618
之類是也	-10.3618
可乆	-10.3624
必須	-10.3633
自治	-10.3636
衷	-10.3638
所履	-10.364
莫大乎	-10.3641
凶咎	-10.3646
中順	-10.3654
秉	-10.3658
占得	-10.366
本體	-10.366
中女	-10.3666
范	-10.3666
危懼	-10.3667
戒其	-10.367
詁	-10.3675
侈	-10.3675
惜	-10.3677
闔	-10.3678
得其中	-10.3679
舉其	-10.37
大行	-10.3703
此心	-10.3707
而不自	-10.3708
與陽	-10.3709
濕	-10.3715
在下者	-10.3716
坎象	-10.3718
十二卦	-10.3718
不期	-10.3719
之𩔖	-10.3722
張氏	-10.3723
相因	-10.3724
附於	-10.3728
桷	-10.373
其道窮也	-10.3734
唱	-10.3734
簋	-10.3735
窮理	-10.375
朱氏附録	-10.375
治亂	-10.3756
是已	-10.3757
脢	-10.3765
四十有九	-10.3768
李鼎祚	-10.3772
髪	-10.3774
尸	-10.3774
坤卦	-10.3774
時義	-10.3778
凶事	-10.3779
極言	-10.3779
巽入	-10.3782
瓜	-10.3789
之本體	-10.3791
上升	-10.3791
融	-10.3793
困於	-10.3797
釐	-10.3798
命令	-10.3803
劓	-10.3809
奚	-10.3812
本末	-10.3813
健順	-10.3816
翰	-10.3828
李氏	-10.3829
同義	-10.3845
於理	-10.3847
出來	-10.3849
自天祐之吉无不利	-10.3854
囚	-10.3857
不憂	-10.3857
一心	-10.3859
人位	-10.386
軌	-10.3861
求養	-10.3864
幹蠱	-10.3868
可羞	-10.3872
肯	-10.3875
不克訟	-10.3875
分别	-10.3881
十二月	-10.3891
之福	-10.3892
震體	-10.3895
頗	-10.3897
彖傳曰	-10.3899
月幾望	-10.3906
事理	-10.3906
之正也	-10.3908
逺矣	-10.3908
麗於	-10.3909
之所在	-10.3909
中和	-10.391
之微	-10.3913
柔順中正	-10.3927
祿	-10.3929
説得	-10.3932
及物	-10.3937
當時	-10.3937
能知	-10.394
牲	-10.3946
不特	-10.3947
合志	-10.3949
濟險	-10.3954
㸃	-10.3954
以人事	-10.3958
釋卦名義	-10.3962
而吉也	-10.3976
安得不	-10.3977
剥牀	-10.3979
斧	-10.3984
戒以	-10.3984
闚	-10.399
皮	-10.3992
之士	-10.3994
𤣥黄	-10.3995
爻之辭	-10.4001
之自然	-10.4001
而去之	-10.4005
㧞	-10.4009
若此	-10.4009
遇雨	-10.401
常理	-10.4013
懿	-10.4013
伐鬼方	-10.4015
拆	-10.4031
時位	-10.4031
旨	-10.4033
洪	-10.4034
銖	-10.4034
此一節	-10.4037
不亦	-10.4042
如何曰	-10.4047
經文	-10.4047
驟	-10.4052
存焉	-10.4055
南北	-10.4058
汗	-10.4066
氷	-10.407
愧	-10.4072
荀爽	-10.4072
翰音	-10.4075
四與初	-10.4081
稊	-10.4082
五十有五	-10.4087
卦位	-10.4089
不改	-10.4094
笑言啞啞	-10.4094
之所為	-10.4095
恆	-10.4098
功業	-10.4101
僻	-10.4116
此釋	-10.4117
故不言	-10.412
楊氏	-10.4125
葢取諸	-10.4127
出地	-10.4128
太𤣥	-10.4129
罷	-10.4135
凡人	-10.4135
雖欲	-10.4137
十九	-10.4141
謬	-10.4155
䷊	-10.4159
凡卦	-10.4159
去小人	-10.4159
潰	-10.4169
今人	-10.4171
妨	-10.4174
夙	-10.4175
至健	-10.418
飽	-10.4183
雲峰胡氏曰	-10.4191
折獄	-10.4197
可以无咎	-10.4205
愬愬	-10.4209
其序	-10.421
之業	-10.421
以隂居隂	-10.4214
故凶	-10.4227
法度	-10.4228
」、	-10.4229
山澤通氣	-10.4234
謝	-10.4237
怪	-10.4237
䷋	-10.4241
相承	-10.4243
饋	-10.4251
左傳	-10.4252
所止	-10.4255
黒	-10.4257
成性	-10.4259
无尤	-10.4262
之權	-10.4264
終于	-10.4267
白雲曰	-10.4273
短	-10.4279
太過	-10.4283
附麗	-10.4286
此虞義也	-10.429
能濟	-10.4291
相雜	-10.4292
五月	-10.4293
七八九六	-10.4296
弦	-10.4301
不妄	-10.4307
匪正	-10.4311
弗損益之	-10.4314
愁	-10.4314
坎為水	-10.4317
又當	-10.4325
濡首	-10.4329
變乾	-10.4331
但言	-10.4333
牖	-10.4336
歛	-10.4339
故名	-10.434
人主	-10.4341
文公	-10.4341
賜	-10.4343
且如	-10.4343
䷠	-10.4344
隂長	-10.4348
兊上	-10.435
終則有始	-10.4354
不獲其身	-10.4361
四字	-10.4373
天地交	-10.4383
同志	-10.4385
一念	-10.4388
改過	-10.4389
喪朋	-10.4392
九二剛中	-10.4396
超	-10.4398
暫	-10.4399
左手	-10.4406
蔑	-10.4415
換	-10.4432
觀之則	-10.4433
拔	-10.4435
十日	-10.4437
鼠	-10.4437
治蠱	-10.444
有箇	-10.4451
故戒以	-10.4452
設教	-10.4454
致一	-10.4458
𫝑	-10.4459
殘	-10.4462
千里	-10.4466
无禽	-10.4468
不果	-10.4472
不貞	-10.4474
幹父之蠱	-10.4479
肱	-10.4482
䷒	-10.4484
𤯝	-10.4484
无間	-10.4486
赤紱	-10.4497
姦	-10.4505
帶	-10.4506
宇	-10.4508
發揮	-10.451
震來	-10.4515
隙	-10.4525
郭京	-10.4525
故戒	-10.4529
胡氏曰	-10.4531
漢書	-10.4534
故其象如此	-10.4544
周子	-10.4545
朝廷	-10.4548
七十	-10.4551
諫	-10.4551
模	-10.4552
盛衰	-10.4552
任重	-10.4556
以剛居剛	-10.4557
王者之	-10.456
在後	-10.456
巷	-10.4563
小事吉	-10.4569
卑下	-10.4577
誠敬	-10.4579
知險	-10.4584
騰	-10.4588
往有功	-10.459
狄	-10.4591
範圍	-10.4598
髙位	-10.461
天下之人	-10.4612
冰	-10.4612
周流	-10.462
文王周公	-10.4629
嗃嗃	-10.4631
寂然不動	-10.4636
上合志	-10.4638
而用之	-10.4638
於是乎	-10.4649
有孚攣如	-10.465
一毫	-10.4654
致福	-10.4657
可濟	-10.4657
䷀	-10.4666
震坎艮	-10.4666
里	-10.4667
郭氏	-10.4687
通論	-10.4689
雷動	-10.4691
岐	-10.4691
蹇難	-10.4692
無應	-10.4693
洽	-10.4695
些	-10.4698
學易者	-10.4699
觀我	-10.4725
隂中	-10.4727
豐大	-10.4729
不假	-10.4734
不正則	-10.4736
活	-10.4738
停	-10.4738
悲	-10.4739
應乎天	-10.475
時中	-10.4751
摩	-10.4753
十翼	-10.4759
圎	-10.4761
勿逐	-10.4766
之大人	-10.478
過剛不中	-10.4781
層	-10.4782
坎艮	-10.4788
兌上	-10.4789
屯蒙	-10.4795
不能濟	-10.4795
左次	-10.4797
乎内	-10.4804
飛龍在天	-10.481
大難	-10.4827
康侯	-10.4834
易位	-10.4836
之月	-10.4836
得衆	-10.4839
非正應	-10.4841
集説	-10.4845
滅鼻	-10.4856
「	-10.4858
雷雨	-10.4861
弑	-10.4863
利用獄	-10.4868
鳥獸	-10.4869
聼	-10.487
相生	-10.4877
未詳	-10.488
三歲	-10.4897
却是	-10.4904
可得而	-10.4913
祖考	-10.4915
府	-10.4917
桑	-10.4928
寶	-10.4937
不得已而	-10.494
相摩	-10.4942
主宰	-10.495
鬱	-10.4954
老婦	-10.4956
不偏	-10.4957
是就	-10.496
三爻皆	-10.4972
昬	-10.4975
不然則	-10.4987
乾為天	-10.4989
老夫	-10.499
立象	-10.499
發蒙	-10.4992
女妻	-10.4994
娶	-10.4997
墜	-10.5
菴	-10.5004
是如此	-10.5005
易傳曰	-10.5018
私意	-10.5021
鮒	-10.5021
凶之道也	-10.5021
退藏	-10.5028
卦之終	-10.5032
小有言	-10.5039
之為物	-10.5042
誥	-10.5042
縮	-10.5043
然後可	-10.5062
增	-10.5068
感通	-10.5074
第五	-10.5077
交感	-10.5087
兊下	-10.5088
牿	-10.509
自然之理	-10.5095
涉川	-10.5097
民心	-10.5109
䷛	-10.5116
宰	-10.512
一嵗	-10.5121
汔	-10.5129
理㑹	-10.5136
倦	-10.5138
䷡	-10.5142
詩云	-10.5145
受益	-10.5149
天氣	-10.5152
隕	-10.5153
環	-10.5156
徵	-10.5159
二三四五	-10.516
乾鑿度	-10.5174
巽為木	-10.5176
山川	-10.5177
曠	-10.5178
穢	-10.5179
互相	-10.5182
不逺復	-10.5182
艮為手	-10.5185
粗	-10.5207
利君子貞	-10.5207
居内	-10.5211
䷥	-10.5211
曵	-10.5222
想	-10.5223
玄	-10.5227
何也葉子曰	-10.5229
䷓	-10.523
不顧	-10.5231
上三爻	-10.5233
敦臨	-10.5239
遷善	-10.5239
䷗	-10.5249
未形	-10.5252
馬融	-10.5253
相接	-10.5254
䷫	-10.5258
剛中之徳	-10.5259
旣濟	-10.5266
沉	-10.5267
潛龍	-10.5268
詔	-10.5274
看來	-10.528
溝	-10.5287
抗	-10.5289
相連	-10.5295
黄帝堯舜	-10.5297
艮為山	-10.5303
孔子之傳	-10.5304
張子	-10.5304
䷪	-10.5318
治天下	-10.532
行其志	-10.5325
无疑	-10.533
犯難	-10.5332
寛裕	-10.5337
卓	-10.5339
局	-10.5341
枯楊	-10.5349
發生	-10.535
上下經	-10.5355
庻	-10.5359
之為卦	-10.536
陂	-10.5361
馳	-10.5363
釋卦名	-10.5375
文章	-10.538
䷖	-10.5384
學問	-10.5385
噐	-10.5388
䷁	-10.5389
不可大事	-10.539
上古	-10.5402
陸績	-10.5404
䷽	-10.5411
龍徳	-10.5428
叢	-10.5428
黑	-10.543
曹	-10.5433
功成	-10.5434
䷝	-10.544
告公	-10.5454
繘	-10.5454
以陽居陽	-10.5456
未安	-10.5463
多凶	-10.5468
勿用取女	-10.547
認	-10.5477
大徳	-10.5482
享帝	-10.5494
添	-10.5503
䷾	-10.5506
君子體而用之	-10.5518
下篇	-10.5522
䷚	-10.5527
履霜	-10.5529
何由	-10.5532
方位	-10.5541
濡其首	-10.5545
東西	-10.5548
岐山	-10.555
甲子	-10.5551
廹	-10.5566
敷	-10.5569
以隂柔居	-10.5581
百二十	-10.5582
變體	-10.5583
可以有為	-10.5587
无所疑	-10.5588
包羞	-10.5589
者莫如	-10.5596
河圖洛書	-10.5597
不失其正	-10.5608
觀其所	-10.5618
明出地上	-10.5621
䷨	-10.5623
䷩	-10.5624
夏至	-10.5628
相違	-10.5637
恃其	-10.5639
赦	-10.5643
勞謙	-10.5645
各正性命	-10.565
明白	-10.5653
俾	-10.5664
須知	-10.5671
䷌	-10.5672
奢	-10.5683
郎	-10.5683
削	-10.5686
楊氏曰	-10.5689
典禮	-10.569
䷂	-10.5692
䷐	-10.5693
居中得正	-10.5697
是以君子	-10.5698
不齊	-10.5707
菑	-10.5708
戮	-10.5709
䷴	-10.5715
䷼	-10.5717
无所往	-10.573
无眚	-10.5731
各正	-10.5734
䷜	-10.5736
包荒	-10.5738
故有此象	-10.5741
五君位	-10.5744
䷘	-10.5745
䷰	-10.5745
雖不當位	-10.575
卦之名	-10.5752
士夫	-10.5754
䑕	-10.5758
張子曰	-10.5764
未至於	-10.5772
齒	-10.5779
濟難	-10.578
遵	-10.5782
大亨以正	-10.5786
䷎	-10.5786
䷶	-10.5788
承五	-10.579
文言曰	-10.5792
離麗也	-10.5793
狂	-10.5811
之吉也	-10.5814
有此象	-10.5818
世道	-10.5819
亹亹	-10.5824
雪	-10.5828
所麗	-10.5829
䷔	-10.5837
監	-10.584
剛徳	-10.5841
謙謙	-10.5846
敵應	-10.5848
憚	-10.5852
裂	-10.5852
誣	-10.5857
䷵	-10.5858
䷇	-10.5861
䷟	-10.5862
又問	-10.5864
有它	-10.5878
躁動	-10.5885
曳其輪	-10.5894
丹	-10.5895
再閏	-10.5896
中間	-10.5897
百九十二	-10.5897
順動	-10.5903
遍	-10.5903
奥	-10.5904
䷭	-10.5909
以成其	-10.5917
又誰咎	-10.5919
萬邦	-10.5924
匡	-10.5926
忒	-10.5928
英	-10.5928
騐	-10.5928
䷞	-10.593
䷣	-10.5939
題	-10.594
君徳	-10.5947
綸	-10.5948
襲	-10.595
秋冬	-10.595
因時	-10.5951
既濟未濟	-10.5952
䷆	-10.5954
䷄	-10.5956
䷺	-10.5956
:「	-10.596
飲酒	-10.5961
所係	-10.5967
險在前	-10.5974
晏	-10.5976
成雨	-10.5976
晚	-10.5981
䷙	-10.5981
乾坤坎離	-10.5989
付	-10.5999
不流	-10.6004
䷲	-10.6006
䷯	-10.6008
侍	-10.6013
離為目	-10.6015
邱	-10.6019
凌	-10.602
域	-10.6024
蘇蘇	-10.6025
䷮	-10.6028
逺害	-10.6029
盈虚	-10.6042
嫡	-10.6042
豐其蔀	-10.6044
挾	-10.6048
薰	-10.605
有攸徃	-10.6053
最下	-10.6053
黄帝	-10.6054
盡性	-10.6067
誨	-10.6071
燭	-10.6075
䷬	-10.6075
治家	-10.6078
䷑	-10.608
䷢	-10.608
兮	-10.6081
用獄	-10.6085
束帛	-10.6085
穉	-10.6093
精義	-10.6097
汙	-10.6097
上篇	-10.61
又按	-10.61
不幸	-10.6103
尚往	-10.6103
䷈	-10.6105
叢棘	-10.6106
所載	-10.6107
蔑貞	-10.6115
頓	-10.612
濟蹇	-10.6123
蜀	-10.6124
䷕	-10.6127
䷅	-10.6128
純粹	-10.6129
䷍	-10.6131
建侯行師	-10.6137
臨川	-10.6142
枕	-10.6146
求益	-10.6147
鬯	-10.6151
䷏	-10.6153
拔茅	-10.6165
鹵	-10.6167
无喪	-10.6168
壅	-10.6169
論語	-10.617
灌	-10.6171
稷	-10.6173
般	-10.6174
作樂	-10.6175
䷿	-10.6179
無咎	-10.6189
䷤	-10.6203
䷸	-10.6203
省方	-10.621
咥	-10.6215
嗣	-10.6217
免咎	-10.6221
居業	-10.6224
靈龜	-10.6224
䷉	-10.6225
䷳	-10.6229
䷃	-10.6231
輕重	-10.6231
第六	-10.6234
占辭	-10.6237
頼	-10.6245
定吉凶	-10.6246
贊曰	-10.6247
大衍之數五十	-10.6248
宥	-10.6249
相須	-10.625
素履	-10.6252
䷦	-10.6252
七十二	-10.6255
不利有攸往	-10.6268
慕	-10.6271
因而重之	-10.6274
呂	-10.6274
聖人因	-10.6288
而後可以	-10.6289
歸竒	-10.629
定天下	-10.629
蒙引	-10.6291
逋	-10.6292
牡	-10.6293
攝	-10.6296
同人于野	-10.6296
影	-10.6297
陸徳明	-10.6297
歩	-10.6301
、	-10.6301
䷧	-10.6304
如之何	-10.6306
苞桑	-10.6312
大衍之數	-10.6317
密雲不雨	-10.6322
崇徳	-10.6325
大率	-10.6334
浸而長	-10.6339
居君位	-10.6343
峯	-10.6347
䷻	-10.6354
失其正	-10.6356
撝謙	-10.6357
靖	-10.6379
禦冦	-10.639
不留	-10.6392
涉大川	-10.6394
障	-10.64
吴	-10.64
敦復	-10.6401
不出户庭	-10.6408
逖	-10.6415
慾	-10.6415
各有所	-10.6415
天地之大義	-10.6417
𨼆	-10.642
西南得朋	-10.642
様	-10.6424
屨校滅趾	-10.6426
顯比	-10.6426
弋	-10.6427
坦	-10.6445
畬	-10.6445
嘆	-10.6449
秀	-10.6449
不免於	-10.6451
先天圖	-10.6452
繼明	-10.6457
莫大於	-10.6458
離為日	-10.6462
宻雲不雨	-10.6471
繼之者善	-10.6484
征伐	-10.6487
睽之時	-10.6498
莧陸	-10.6503
産	-10.6506
畫八卦	-10.6507
萬物之情	-10.6507
臣位	-10.6515
媵	-10.6516
周公繫	-10.6519
其行次且	-10.6519
愆	-10.6525
姬	-10.6525
萃聚	-10.6525
羙	-10.6526
餗	-10.6528
穀	-10.6528
䷹	-10.6533
擅	-10.655
撫	-10.6551
涸	-10.6551
禽獸	-10.6552
䷷	-10.6561
太隂	-10.6564
王母	-10.6566
懦	-10.6573
吳氏	-10.6574
淮	-10.6577
遇毒	-10.6581
䷱	-10.6586
僭	-10.6601
坡	-10.6605
資生	-10.6612
八月有凶	-10.6617
濫	-10.6626
憧憧往來	-10.6627
倣	-10.663
制度	-10.6631
縣	-10.6633
道之大	-10.6638
南征	-10.6643
盍	-10.6647
多寡	-10.665
得其道	-10.6651
顚	-10.6654
《	-10.6657
榖	-10.6659
談	-10.6662
偕	-10.6681
宫室	-10.6688
剛決	-10.6689
同歸	-10.6691
載物	-10.6692
周公之象	-10.6693
親比	-10.6694
蹢躅	-10.6698
神之所為	-10.6699
常久	-10.67
悶	-10.6705
㓜	-10.6705
從容	-10.6706
卻	-10.6709
先迷	-10.6718
蔡氏	-10.6728
劓刖	-10.6729
竝	-10.6738
」	-10.6739
戀	-10.6755
豆	-10.6755
稼	-10.6757
齧	-10.6762
鎮	-10.6763
式	-10.6764
脉	-10.6765
件	-10.6765
需訟	-10.6776
三代	-10.6776
坤為地	-10.6783
証	-10.6784
鼫鼠	-10.6787
蘭	-10.6788
算	-10.6791
獨立	-10.6798
▁朱子曰	-10.6801
迅	-10.681
繻	-10.6817
夫妻反目	-10.683
子夏傳	-10.6831
兩箇	-10.6837
誘	-10.6839
纎	-10.684
顯諸仁	-10.684
乏	-10.6866
薛	-10.6867
叚	-10.687
恕	-10.6871
利永貞	-10.6876
李氏曰	-10.6877
金柅	-10.6888
先儒謂	-10.6889
寫	-10.6896
横圖	-10.6905
簪	-10.6909
丈	-10.691
天地不交	-10.6912
刺	-10.6919
羑里	-10.6919
兼山郭氏曰	-10.6923
條理	-10.6927
腊	-10.6929
筆	-10.6931
喙	-10.694
響	-10.6948
投	-10.6949
徳業	-10.6959
坤為衆	-10.6965
七日來復	-10.6967
中四爻	-10.6968
享祀	-10.6974
網罟	-10.6976
漢儒	-10.6983
先甲三日	-10.6995
狩	-10.7
性命之理	-10.7012
莧	-10.7018
寺	-10.702
掣	-10.7023
陽剛之才	-10.7023
渥	-10.7028
叙	-10.7029
中畫	-10.703
棺	-10.7033
函	-10.7034
刑罰	-10.7044
輔嗣	-10.7046
後甲三日	-10.705
所以然者	-10.7054
蕭	-10.7055
相繼	-10.7056
遷國	-10.7062
屈信	-10.7072
皤	-10.7073
渉大川	-10.7084
百八十	-10.7084
大得志也	-10.7085
明入地中	-10.7088
卑巽	-10.7094
春夏	-10.7098
時義大矣哉	-10.7107
以位言	-10.7116
用大牲	-10.7123
磐桓	-10.7131
馬匹亡	-10.7132
帝王	-10.7132
夫婦之道	-10.7141
闔闢	-10.7142
初與二	-10.7155
通其變	-10.7156
知懼	-10.7156
两	-10.7161
蜀才	-10.7164
雙湖先生曰	-10.7164
春秋傳	-10.7169
保合	-10.7174
致寇	-10.7184
六七八九	-10.7187
得其位	-10.7193
倖	-10.7193
爛	-10.7194
陸氏	-10.7216
和樂	-10.7221
致冦	-10.7239
个	-10.725
憂虞	-10.7267
冐	-10.727
収	-10.7277
劉氏	-10.7278
住	-10.73
詐	-10.73
太和	-10.73
樽	-10.73
貧賤	-10.7301
禦寇	-10.7302
朕	-10.7304
徐徐	-10.7304
黄裳元吉	-10.7305
相資	-10.7313
文飾	-10.7313
顙	-10.7325
李子思曰	-10.7326
舟楫	-10.7327
蔚	-10.7329
天下後世	-10.7331
闚觀	-10.7349
葛藟	-10.7351
項平甫曰	-10.7354
沬	-10.7354
蒸	-10.7355
不事王侯	-10.7371
晦其明	-10.7372
烹	-10.738
失前禽	-10.7385
翼傳曰	-10.7386
有隕自天	-10.7409
韓康伯	-10.741
相攻	-10.7415
納甲	-10.7415
名之曰	-10.7427
右手	-10.7427
戔戔	-10.7428
者多矣	-10.7438
駕	-10.7442
乾坤二卦	-10.7455
休否	-10.7459
何嘗	-10.7463
剛柔相推	-10.7463
戕	-10.7465
剛上而柔下	-10.7465
袂	-10.7469
襄	-10.7471
朶	-10.7495
竄	-10.7497
熱	-10.7498
黄裳	-10.7499
渙其血	-10.7521
禀	-10.7529
夕惕	-10.7529
衞	-10.7552
妃	-10.7554
欠	-10.7556
羅	-10.7559
震為足	-10.7573
挽	-10.7579
暮	-10.758
吐	-10.7584
峰	-10.7585
休息	-10.7595
不厭	-10.7596
洗心	-10.76
應於上	-10.7603
止健	-10.7607
十朋之龜	-10.761
藏諸用	-10.7613
四十八	-10.7626
包承	-10.7631
老子	-10.7632
褫	-10.7634
一般	-10.7634
遇主于巷	-10.7637
襍	-10.7639
雲峯胡氏曰	-10.7641
遁	-10.7642
晁氏曰	-10.7664
鬼方	-10.7664
鋭	-10.7667
艮其限	-10.7671
天地之氣	-10.7689
顒	-10.7695
蹄	-10.7697
桀	-10.7698
棘	-10.77
播	-10.7701
槁	-10.7723
透	-10.7725
峻	-10.7728
屨	-10.7731
索索	-10.7736
賁飾	-10.7743
几	-10.775
偃	-10.7755
恰	-10.7759
欽	-10.7761
馮氏	-10.7777
需于血	-10.7778
憑	-10.778
翩翩	-10.7783
杵	-10.7792
不遺	-10.78
利涉	-10.7804
以柔居柔	-10.781
朋從爾思	-10.7811
再扐	-10.7812
林黄中曰	-10.7814
遯世无悶	-10.7816
无大咎	-10.782
臼	-10.7821
駁	-10.7822
勝其任	-10.7825
崔憬曰	-10.7831
匪其彭	-10.7841
歡	-10.7842
崩	-10.7843
萬里	-10.7849
程朱	-10.7856
童觀	-10.7867
棲	-10.7869
厄	-10.7876
百里	-10.7882
曲成	-10.7884
其所以然	-10.7888
渙其躬	-10.7889
稱龍	-10.7891
金鉉	-10.7891
幹母之蠱	-10.79
自求口實	-10.7904
虩虩	-10.7904
愆期	-10.7907
牽羊	-10.7911
象㫖	-10.7914
也而爻辭云爾者	-10.7928
咨	-10.793
藍田吕氏曰	-10.7933
囊	-10.7935
五十五	-10.7945
險而止	-10.7958
衝	-10.7961
爾雅	-10.7962
賀	-10.7964
浩	-10.7966
花	-10.797
丘園	-10.7982
直方大	-10.7988
戈	-10.799
緒	-10.7991
酬酢	-10.7992
禪	-10.7993
宏	-10.7993
羲皇	-10.7994
醇	-10.7995
漁	-10.7996
逵	-10.801
可醜	-10.8011
滕	-10.8013
太平	-10.8013
告自邑	-10.8018
迷復	-10.8033
苦節不可貞	-10.8046
淺深	-10.8049
觀國之光	-10.805
小者過	-10.805
已日乃孚	-10.8055
顛趾	-10.8058
夢	-10.806
愠	-10.8074
成之者性	-10.8091
女壯	-10.8096
固結	-10.8104
庇	-10.8107
篆	-10.811
泣血漣如	-10.8115
玩辭	-10.8119
傷害	-10.812
敦厚	-10.8121
何校滅耳	-10.8134
正而吉	-10.8142
首出庶物	-10.8148
平聲	-10.8161
齋戒	-10.8166
絡	-10.8173
東萊吕氏曰	-10.8174
臺	-10.8175
立廟	-10.8191
暱	-10.8198
凟	-10.8203
六五之君	-10.8203
拜	-10.8204
利牝馬之貞	-10.8208
寘	-10.821
交際	-10.8214
書契	-10.8222
苞	-10.8224
萬有一千五百二十	-10.8226
翻	-10.8228
頑	-10.8234
一隂一陽之謂道	-10.8237
利用刑人	-10.8238
赴	-10.8262
寔	-10.8268
易有太極	-10.8278
占者如是則	-10.8282
貞則吉	-10.829
朶頤	-10.8296
惟恐	-10.83
同而異	-10.8305
教化	-10.8307
揉	-10.8322
天尊地卑	-10.8325
饒	-10.8329
是以吉也	-10.8335
其卦為	-10.8339
治獄	-10.8348
不利即戎	-10.835
困于酒食	-10.8353
隐	-10.8356
阿	-10.8358
輩	-10.8359
顛倒	-10.8359
男下女	-10.8381
福慶	-10.8382
隍	-10.8384
帝出乎震	-10.8386
穿	-10.8387
底意思	-10.8391
殃	-10.8416
結繩	-10.8422
折足	-10.8426
剛明之才	-10.8427
奈何	-10.8433
雷雨作	-10.8439
臀无膚	-10.8443
冀	-10.8448
醫	-10.845
慝	-10.845
噫	-10.8452
爽	-10.8453
盈滿	-10.8453
後儒	-10.8461
十有二	-10.8463
剛而得中	-10.8475
損其疾	-10.8479
動乎險中	-10.848
柔履剛	-10.848
諧	-10.8481
日月星辰	-10.8481
訛	-10.8482
庖	-10.8482
未甞	-10.8497
敦艮	-10.8498
千五百	-10.8506
忤	-10.8507
鳴豫	-10.851
遐	-10.8511
弛	-10.8515
叅	-10.8517
拾	-10.8519
彌綸	-10.8524
紹	-10.8525
與人同	-10.8536
表裏	-10.8548
飲食宴樂	-10.8567
閽	-10.8568
富以其鄰	-10.8572
脚	-10.8576
寒泉	-10.8595
黔	-10.8597
荷	-10.86
无咎无譽	-10.8601
袁	-10.8609
韋	-10.861
以陰居	-10.8612
攸往	-10.8612
供	-10.8636
堅氷	-10.8636
震來虩虩	-10.8638
紊	-10.864
暉	-10.8646
天地萬物之情	-10.8647
遘	-10.8658
徤	-10.8665
日中見斗	-10.8667
千六百	-10.8669
光輝	-10.8669
斥	-10.8672
矩	-10.8673
顛頤	-10.868
居陽位	-10.8687
可喜	-10.8692
齎咨涕洟	-10.8697
禍患	-10.8701
姜	-10.8703
梅	-10.8704
彦	-10.8711
雲雷	-10.8715
婦孕不育	-10.872
无初有終	-10.8732
婚	-10.8732
磨	-10.8733
炁	-10.8737
只管	-10.8749
百五十	-10.876
割	-10.8763
頄	-10.8789
晁氏	-10.8796
複	-10.88
隱伏	-10.8817
揚于王庭	-10.8824
髮	-10.8825
不恒其徳	-10.8826
葛	-10.8833
彖𫝊	-10.8848
貼	-10.8859
網	-10.8863
嘉遯	-10.8864
盧	-10.8867
抵	-10.8867
本末弱	-10.889
狠	-10.8893
托	-10.8894
毅	-10.8896
從程氏	-10.8918
奴	-10.8927
㳺	-10.8931
乾道變化	-10.8952
火在天上	-10.8959
居大臣之位	-10.896
僕	-10.8961
送	-10.8963
利幽人之貞	-10.8986
不可為典要	-10.8992
烹飪	-10.8993
苗	-10.8996
奏	-10.8998
何思何慮	-10.8999
好爵	-10.9001
衣裳	-10.9004
失律	-10.9019
咸其拇	-10.902
觸藩	-10.9035
藝	-10.9037
尹	-10.9037
諄	-10.9061
大人虎變	-10.9061
開物成務	-10.9063
衣袽	-10.9063
荆	-10.9065
羝羊	-10.9065
收斂	-10.9068
天行健	-10.9078
傾否	-10.9089
物不可以終	-10.9092
莖	-10.9092
屯其膏	-10.9093
屑	-10.9093
精義入神	-10.9096
進徳修業	-10.9099
隋	-10.9099
閉塞	-10.9099
不可測	-10.9123
徇	-10.9125
莊子	-10.9143
納婦	-10.9144
敬仲	-10.9151
包有魚	-10.9155
株木	-10.9158
靣	-10.9159
廷	-10.9162
禴祭	-10.9167
革面	-10.9171
无所不利	-10.9185
蒺藜	-10.9188
揮	-10.919
朱子發曰	-10.9192
左氏	-10.9193
属	-10.9193
牢	-10.9201
十四卦	-10.9219
侮	-10.9225
淑	-10.9226
雙湖	-10.9227
祚	-10.9227
卵	-10.9228
貧	-10.9229
此三者	-10.9238
同人于郊	-10.9255
程正叔曰	-10.9258
利於貞	-10.9261
用九用六	-10.9269
田獲三品	-10.929
自上而下	-10.9293
漫	-10.9296
胡仲虎曰	-10.9297
徙	-10.9298
墮	-10.9298
香	-10.9299
渙其羣	-10.9313
另	-10.933
復自道	-10.9331
標	-10.9334
品物流形	-10.9336
程𫝊	-10.9341
衆允	-10.9345
何天之衢	-10.9357
罟	-10.9359
良馬	-10.9361
𤓰	-10.9362
摇	-10.9362
絪緼	-10.9366
薪	-10.9366
災眚	-10.9375
洗	-10.9385
撝	-10.9392
瓦	-10.9399
巽在牀下	-10.9424
近取諸身	-10.943
乗馬班如	-10.9432
木上有水	-10.9435
吏	-10.9436
也愚曰	-10.9448
岸	-10.9465
亘	-10.9465
攷	-10.947
玉鉉	-10.9477
下應九二	-10.9478
柔變剛	-10.9481
朋友講習	-10.9492
才弱	-10.9497
中溪張氏曰	-10.9501
胸	-10.9502
邦國	-10.9502
南狩	-10.9514
求小得	-10.9534
輝光	-10.9537
行有尚	-10.9545
上下不交	-10.9554
昵	-10.9563
緫	-10.9573
鼓舞	-10.9573
侵伐	-10.9585
天衢	-10.9585
後庚三日	-10.9599
不喪匕鬯	-10.9609
耿	-10.961
西郊	-10.9614
劉牧	-10.9616
躋	-10.9638
煥	-10.9641
履虎尾不咥人亨	-10.9667
利居貞	-10.967
逞	-10.9674
窮理盡性	-10.9676
概	-10.9678
不利東北	-10.9685
孔疏	-10.9686
逸豫	-10.9691
耒	-10.9709
分而為二	-10.9709
神而明之	-10.9713
粟	-10.9716
需于泥	-10.9739
凢	-10.9742
廓	-10.9746
釁	-10.9748
頃	-10.975
霸	-10.975
跛能履	-10.9774
稚	-10.9781
此一爻是言	-10.9782
猜	-10.9782
下觀而化	-10.9783
肇	-10.9785
門闕	-10.9786
耒耜	-10.9786
灼	-10.9787
隂柔不中正	-10.9787
屏	-10.9788
紫	-10.9789
挂	-10.9805
出自穴	-10.9811
芽	-10.9817
匕鬯	-10.9818
陶	-10.9819
改邑不改井	-10.9819
囘	-10.982
軾	-10.9822
疚	-10.9849
有飛鳥之象	-10.9856
伯夷	-10.9869
雷霆	-10.9889
萊	-10.9892
集䟽	-10.9892
穿鑿	-10.9896
百一十	-10.9903
未順命	-10.9917
九家易曰	-10.9919
波	-10.9924
負且乗	-10.9924
居下卦之上	-10.9931
伏戎于莽	-10.9953
陽變隂	-10.9959
損剛益柔	-10.9961
艮其輔	-10.9965
淪	-10.9965
十有五	-10.9966
潘	-10.9966
械	-10.9968
入于左腹	-10.997
吝嗇	-10.9996
雷在地中	-10.9996
行其庭不見其人	-10.9999
嘻嘻	-11
以前民用	-11.0001
給	-11.0003
巖	-11.0003
膏澤	-11.0011
履霜堅冰	-11.0031
翟	-11.0034
距	-11.0035
社稷	-11.0037
十卷	-11.0049
於時為	-11.0056
非常之	-11.0069
熏	-11.0073
䟽	-11.0073
飪	-11.0075
夘	-11.0078
熙	-11.008
小疵	-11.008
輮	-11.0103
讒	-11.0107
渉川	-11.011
豐其屋	-11.0145
窮神知化	-11.0149
胎	-11.0153
豚	-11.0179
頤中有物	-11.0183
畢竟	-11.0185
諭	-11.0186
丘氏曰	-11.0197
經緯	-11.02
剛上柔下	-11.0212
眼	-11.0217
曷之用二簋可用享	-11.022
詭	-11.022
徽纆	-11.0229
終日戒	-11.0231
𤨏	-11.0251
匿	-11.0255
悠	-11.0255
犧	-11.0256
不言而信	-11.026
秘	-11.0264
中央	-11.0269
六二柔順中正	-11.027
郡	-11.0272
池	-11.0294
話	-11.0297
裒	-11.0306
泉峰龔氏曰	-11.0326
覲	-11.0335
南軒	-11.0339
鞏用黄牛	-11.0342
乘馬班如	-11.0367
俞琰	-11.0369
建安丘氏曰	-11.0372
膠	-11.0375
懈	-11.0375
傲	-11.0376
左旋	-11.0386
剛柔相濟	-11.0395
小人道長	-11.0401
履霜堅氷	-11.0406
銳	-11.0406
貽	-11.0407
惠棟	-11.0411
當此之時	-11.0414
咸其輔頰舌	-11.0436
入于幽谷	-11.0439
柅	-11.0439
六日七分	-11.0444
黍	-11.0447
震驚百里	-11.0448
染	-11.0481
夬履貞厲	-11.0483
譏	-11.0483
甕	-11.0484
雉膏	-11.0485
纂	-11.0485
犬	-11.0486
呈	-11.0487
八卦成列	-11.0489
吸	-11.0491
童牛	-11.0497
坎窞	-11.0521
繆	-11.0522
浹	-11.0523
恣	-11.0523
覽	-11.0526
貎	-11.0554
柱	-11.0559
戰乎乾	-11.0561
席	-11.0562
僴	-11.0564
貫魚	-11.0566
兒	-11.0567
委任	-11.0571
勾	-11.0574
以隂變陽為	-11.0595
鑒	-11.0596
王用亨于岐山	-11.0599
饗	-11.06
既濟亨小	-11.0606
縱横	-11.0606
甲胄	-11.0633
久於其道	-11.0635
震遂泥	-11.0635
謨	-11.0641
繹	-11.0642
天在山中	-11.0673
秩	-11.0675
田獵	-11.0675
柔以時升	-11.0676
副	-11.0679
澤中有火	-11.0682
艮為門闕	-11.0714
踈	-11.0714
天一地二	-11.0715
化而裁之	-11.0716
自强不息	-11.0717
旱	-11.0719
歆	-11.0721
大車以載	-11.0746
飛鳥以凶	-11.0748
食舊徳	-11.0749
臲卼	-11.0749
佑	-11.0751
消息盈虚	-11.0752
仰觀俯察	-11.0754
罹	-11.0754
誼	-11.0754
裏面	-11.0758
臆	-11.0758
希夷	-11.0768
廉	-11.0783
婚姻	-11.0791
遣	-11.0796
麻	-11.0797
並受其福	-11.0799
憲	-11.08
堅冰	-11.0833
湛	-11.0836
憤	-11.0837
佚	-11.0838
熹	-11.0841
俞氏	-11.0858
坦坦	-11.0869
上天下澤	-11.0871
蔓	-11.0872
勿用有攸往	-11.0872
塵	-11.0876
檢	-11.088
吉而悔亡	-11.0899
豪	-11.0912
躡	-11.0912
大觀在上	-11.0912
盥而不薦	-11.0913
王假有家	-11.0917
眞	-11.0918
稟	-11.092
情狀	-11.0941
需于酒食	-11.0947
胡雲峯曰	-11.0949
以貴下賤	-11.0951
三年克之	-11.0951
不亦宜乎	-11.0952
掇	-11.0956
吁	-11.0958
幽明之故	-11.0962
孚乃利用禴	-11.0986
聞言不信	-11.0991
維心亨	-11.0992
形而下者	-11.0994
孽	-11.0994
喪羊于易	-11.0996
輯	-11.0997
夀	-11.1
无交害	-11.1024
堅多心	-11.1028
藉用白茅	-11.1028
恬	-11.103
憬	-11.1032
撥	-11.1033
耀	-11.1037
畔	-11.1037
鞶帶	-11.1067
入于其宫不見其妻	-11.1068
自泰來	-11.1069
縻	-11.1072
吉之先見	-11.1079
丁寧	-11.108
盟	-11.1086
拳	-11.1112
纒	-11.1116
浪	-11.1117
為君子謀	-11.1122
僞	-11.1124
腊肉	-11.1127
鈎	-11.1131
恒亨无咎利貞	-11.1148
壯于頄	-11.115
儆	-11.1151
曳輪	-11.1153
虐	-11.1157
穆姜	-11.1159
棟隆	-11.1186
恨	-11.1196
乂	-11.1197
推而行之	-11.1203
歐	-11.1204
黄離元吉	-11.1204
脈	-11.1206
朱紱	-11.1232
朱漢上曰	-11.1233
雙	-11.1235
展	-11.1236
喚	-11.1238
初吉終亂	-11.1238
允升大吉	-11.1238
不習无不利	-11.1239
利用安身	-11.124
倉	-11.1241
以柔居尊	-11.1267
闔户	-11.1277
零	-11.1278
洩	-11.1279
晳	-11.1279
嗜	-11.1279
敬以直内義以方外	-11.128
平菴項氏曰	-11.128
惰	-11.1283
生生之謂易	-11.1284
倪	-11.1317
勿藥	-11.132
低	-11.1323
貶	-11.1324
宦	-11.1324
尺蠖	-11.1324
蘓	-11.1324
黄牛之革	-11.135
正位凝命	-11.136
社	-11.1363
鳴鶴	-11.1365
藩決不羸	-11.1365
刀	-11.1366
史記	-11.1373
千九百	-11.1389
亾	-11.14
屢遷	-11.1407
輒	-11.1408
鞏	-11.1439
聨	-11.1446
夫征不復	-11.1475
有亨道	-11.1475
介于石	-11.1486
謟	-11.1487
得臣无家	-11.149
齡	-11.1491
冒天下之道	-11.1492
巽為繩	-11.1492
挺	-11.1492
不離乎	-11.1509
旉	-11.1531
渡	-11.1532
亮	-11.1535
黎	-11.1537
洌	-11.1541
出入无疾	-11.1561
立不易方	-11.1567
綽	-11.1569
恊	-11.1574
瘠	-11.1576
壯于趾	-11.1614
麟	-11.1618
阜	-11.1655
後夫凶	-11.1656
贅	-11.166
胡氏炳文曰	-11.1661
栗	-11.1662
贏	-11.1669
瑣瑣	-11.1697
邉	-11.1704
與天地相似	-11.1717
牝馬之貞	-11.1734
舍車而徒	-11.1738
峙	-11.1741
悔可亡	-11.1742
績	-11.1745
啞啞	-11.1749
樂天知命	-11.1754
徑路	-11.178
緣	-11.1785
女正位乎内	-11.1788
榦	-11.1788
詰	-11.1789
軒	-11.1792
同人于宗	-11.1824
程可久曰	-11.1831
誓	-11.1834
觀盥而不薦有孚顒若	-11.1835
鼫	-11.1837
涯	-11.1868
渠	-11.1879
知至至之	-11.1879
泄	-11.1882
參同契	-11.1883
翁	-11.1891
以卦變言	-11.1913
黄中色	-11.1921
觀象玩辭	-11.1924
果蓏	-11.1956
僣	-11.1964
迨	-11.1967
鑄	-11.1969
筮之遇	-11.1973
先甲後甲	-11.2005
分剛上而文柔	-11.2006
臾	-11.2009
刲羊	-11.201
枝葉	-11.201
滛	-11.201
朴	-11.2011
茫	-11.2011
寢	-11.2012
日昃之離	-11.2017
腎	-11.2017
足以當之	-11.2021
明兩作	-11.2024
或承之羞	-11.2046
射雉	-11.2053
沾	-11.2055
馮氏椅曰	-11.2055
津	-11.2055
拱	-11.2055
賁其趾	-11.2088
潘氏曰	-11.2099
弗遇過之	-11.21
山下出泉	-11.2101
現	-11.2101
籍	-11.2103
勿幕	-11.2107
元者善之長	-11.2112
湖	-11.214
矍矍	-11.2141
洟	-11.2141
砥	-11.2146
欣	-11.2147
咸其脢	-11.2181
雷出地奮	-11.2187
姤遇也柔遇剛也	-11.2188
利用侵伐	-11.2192
俊	-11.2193
摶	-11.2198
志得行	-11.2223
以宫人寵	-11.2229
一闔一闢	-11.2233
厥宗噬膚	-11.2234
獵	-11.2236
夭	-11.2238
順而麗乎大明	-11.2239
衢	-11.2241
同人先號咷而後笑	-11.2275
不耕穫不菑畬	-11.2275
中行獨復	-11.2277
窟	-11.2281
進德修業	-11.2283
勲	-11.2284
誕	-11.2285
馵	-11.232
耜	-11.2321
自否來	-11.2322
齎	-11.2322
雙湖胡氏曰	-11.2324
溥	-11.2328
裘	-11.2329
廣大悉備	-11.2331
冽	-11.2336
徽	-11.234
其羽可用為儀吉	-11.2364
朱紱方來	-11.2365
城復于隍	-11.2366
聖人有以見天下之賾	-11.237
入于坎窞	-11.2413
三人行則損一人	-11.2413
右明爻義	-11.2414
先迷後得	-11.2416
輸	-11.2422
其於木也	-11.2457
天地設位	-11.2462
遑	-11.2463
㛰媾	-11.2464
再扐而後掛	-11.2503
師出以律	-11.2511
區	-11.2516
培	-11.2558
狥	-11.2558
隤	-11.256
感而遂通	-11.256
巨	-11.2561
技	-11.2561
用晦而明	-11.2565
耽	-11.2599
既雨既處	-11.26
㬊淵録	-11.2606
偹	-11.2606
壁	-11.261
劣	-11.2651
衰世之意	-11.2653
効	-11.2653
敬以直内	-11.2656
冶	-11.2657
仁義禮智	-11.2665
楷	-11.2699
邑人不誡	-11.2703
其亡其亡	-11.2742
幣	-11.2742
趙汝楳	-11.2744
良馬逐	-11.2745
邅	-11.2747
毛竒齡	-11.2747
沮	-11.2748
薫	-11.2755
窮之災	-11.2769
翰林院	-11.2774
王用出征	-11.2794
鄧	-11.2796
以卦才言	-11.2797
春夏秋冬	-11.2797
成言乎艮	-11.2798
負且乘	-11.2799
柝	-11.2803
別	-11.2843
祝	-11.2843
尅	-11.2844
綂	-11.2848
冨	-11.2848
巡	-11.285
􁀉	-11.2859
歸而逋	-11.2884
裕父之蠱	-11.2885
同人于門	-11.2888
朞	-11.289
飛鳥遺之音	-11.289
片	-11.2896
芒	-11.2896
饑	-11.2897
知終終之	-11.2897
保合太和	-11.2898
鑑	-11.2901
碩果不食	-11.2933
其欲逐逐	-11.2935
據于蒺藜	-11.2937
折其右肱	-11.294
風行地上	-11.2941
沱	-11.2941
自天祐之	-11.2945
四千九十六	-11.2945
槨	-11.2946
紛紛	-11.2947
升虚邑	-11.2987
一人行則得其友	-11.2987
膺	-11.299
乾剛坤柔	-11.299
毛伯玉曰	-11.2991
禾	-11.2991
鈞	-11.2993
睿	-11.2993
蚤	-11.2993
揭	-11.2994
信及豚魚	-11.3035
二女同居	-11.3041
勞乎坎	-11.3041
有攸往夙吉	-11.3041
攘	-11.3042
胷	-11.3049
選	-11.3049
伺	-11.3084
郭璞	-11.3085
孔仲達曰	-11.3087
无喪无得	-11.3087
宗廟社稷	-11.3088
掘	-11.3089
熯	-11.309
巽以行權	-11.309
鐘	-11.3091
僖	-11.3092
揖	-11.3093
庖犧	-11.3133
立心勿恒	-11.3138
進齋徐氏曰	-11.3141
灾	-11.3143
渾淪	-11.3144
天下雷行	-11.3147
眈	-11.3176
柔來文剛	-11.3184
籌	-11.3184
逺取諸物	-11.3188
孔頴達	-11.3189
吉孰大焉	-11.3189
雖旬无咎	-11.319
遷善改過	-11.3191
状	-11.3237
晝日三接	-11.3247
山下有澤	-11.3285
疊	-11.3286
揲蓍求卦	-11.3287
閭	-11.329
莫大于	-11.3291
區區	-11.3292
妖	-11.3293
知通塞	-11.3324
養賢以及萬民	-11.3336
赫	-11.3337
熾	-11.3337
參天兩地	-11.3338
剡	-11.3345
黄中通理	-11.3347
王假之	-11.3349
甞	-11.3367
箕	-11.3379
窞	-11.3383
獨立不懼	-11.3387
睦	-11.3391
冲	-11.3394
時止則止時行則行	-11.3395
剛長乃終	-11.3437
先庚三日	-11.3438
孔穎達	-11.3442
錮	-11.3444
黷	-11.3445
其來復吉	-11.3446
淆	-11.3449
幕	-11.3454
輿説輹	-11.3489
類族辨物	-11.3492
軸	-11.3492
嫉	-11.3492
搆	-11.3495
不拯其隨	-11.3495
亷	-11.3495
猷	-11.3498
煇	-11.35
鬼神之情狀	-11.3507
鼈	-11.3538
態	-11.3543
魁	-11.3546
佃	-11.3549
佳	-11.355
觀變玩占	-11.3551
利貞者性情也	-11.356
㦲	-11.3592
諛	-11.3594
吹	-11.3596
第八章	-11.3596
仲氏易	-11.3598
諒	-11.3599
黜	-11.36
歉	-11.36
木道乃行	-11.3601
儲	-11.3602
井谷射鮒	-11.3602
廣漢張氏曰	-11.3608
誦	-11.361
剛而能柔	-11.3611
堅多節	-11.364
肩	-11.3647
澗	-11.3649
陽大隂小	-11.365
開國承家	-11.3652
公用射隼	-11.3653
珍	-11.3657
閣	-11.3666
雌	-11.3696
剛柔相推而生變化	-11.37
庵	-11.3705
築	-11.3705
革言三就	-11.3707
侯果曰	-11.3747
右明象占	-11.3754
子克家	-11.3756
乾道成男坤道成女	-11.3758
聰明睿知	-11.3758
縫	-11.3764
柴	-11.3765
柔遇剛	-11.3774
兩儀生四象	-11.3787
分隂分陽	-11.3806
晋	-11.3809
坼	-11.3811
五位相得而各有合	-11.3812
匪冦婚媾	-11.3862
折獄致刑	-11.3864
匕	-11.3865
蝕	-11.3865
自上祐	-11.3867
竅	-11.3868
刪	-11.3868
敏	-11.387
瑞	-11.3873
俞	-11.3884
厥孚交如	-11.3911
李季辨曰	-11.3914
晨	-11.3915
隆山李氏曰	-11.3917
替	-11.3917
蠻	-11.3918
王昭素	-11.3918
萬物化生	-11.3918
四象生八卦	-11.3944
山下有火	-11.3967
參天兩地而倚數	-11.397
赦過宥罪	-11.3972
易有聖人之道四焉	-11.3973
莭	-11.3973
桂	-11.3974
陛	-11.3979
當位以節中正以通	-11.4016
勿逐七日得	-11.4019
釡	-11.4021
頽	-11.4023
苐	-11.4027
立地之道曰柔與剛	-11.4027
足以長人	-11.4037
郭子和曰	-11.4077
涣	-11.4079
臯陶	-11.4079
故乾乾因其時而惕雖危无咎矣	-11.4081
斟	-11.4081
明動相資	-11.4082
立人之道曰仁與義	-11.4082
劑	-11.4083
竇	-11.413
行地无疆	-11.4133
雀	-11.4136
聖人之情見乎辭	-11.4137
蹙	-11.4138
飢	-11.4139
卑以自牧	-11.4143
披	-11.4192
木上有火	-11.4192
灰	-11.4195
匪我求童蒙童蒙求我	-11.4196
安溪李氏	-11.4242
不遐遺	-11.4244
夬決也剛決柔也	-11.4246
隘	-11.4247
兼三才而兩之	-11.4248
厚下安宅	-11.4296
据	-11.4301
汎	-11.4302
羸其瓶	-11.4302
系	-11.4304
蒯	-11.4305
突如其來如	-11.4306
洋	-11.431
介如石	-11.4354
聦	-11.4356
公用亨于天子	-11.4357
扶陽抑隂	-11.4358
椅	-11.4359
腰	-11.436
粲	-11.4361
倘	-11.4361
徂	-11.4364
多識前言往行	-11.441
妥	-11.4414
誠齋楊氏曰	-11.4415
淡	-11.4416
水火不相射	-11.4417
瑗	-11.4419
珠	-11.4419
踵	-11.442
羡	-11.442
廣平游氏曰	-11.4422
天施地生	-11.4424
株	-11.4457
紱	-11.4461
初六藉用白茅无咎	-11.4466
鷄	-11.4467
狎	-11.4467
稼穡	-11.4468
小往大來	-11.4469
風自火出	-11.447
亞	-11.4471
霍	-11.4471
剖	-11.4472
地中生木	-11.4475
上火下澤	-11.4475
得黄金	-11.4475
諱	-11.4477
凛	-11.4525
曵其輪	-11.4527
蠧	-11.4528
先張之弧	-11.4528
奠	-11.4529
宇宙	-11.453
再三瀆瀆則不告	-11.4531
田有禽	-11.4534
禘	-11.4573
疵	-11.4578
沈守約曰	-11.4578
多白眼	-11.458
餙	-11.458
張紫巖曰	-11.4582
征邑國	-11.4587
何不利之有	-11.4587
核	-11.4587
節齋蔡氏曰	-11.4587
㓕	-11.4588
天地設位而易行乎其中	-11.4589
瞿	-11.4595
羔	-11.4639
柔來而文剛	-11.4642
蔡虚齋曰	-11.4645
勵	-11.4645
斬	-11.4645
勞民勸相	-11.4646
壯于大輿之輹	-11.4648
穎	-11.4649
頌	-11.4649
千四百	-11.4668
六五之吉有慶也	-11.4699
項安世	-11.4699
屯如邅如	-11.47
坤以藏之	-11.4701
過旬災	-11.4701
順天應人	-11.4702
髙而无民	-11.4702
苖	-11.4703
撃	-11.4705
勅	-11.4709
爐	-11.4711
園	-11.4756
象其物宜	-11.4758
樸	-11.476
岳	-11.4767
泯	-11.4768
佛	-11.4769
柯	-11.4816
醉	-11.4816
怙	-11.4816
不俟終日	-11.4818
睹	-11.4819
不疾而速不行而至	-11.4823
絢	-11.4824
耋	-11.4825
錫馬蕃庶	-11.4826
志未平	-11.4826
不永所事	-11.4864
蠃	-11.4873
織	-11.4879
不宜上宜下	-11.4879
剛柔正而位當	-11.4879
熈	-11.4888
謗	-11.4937
樽酒簋貳	-11.4938
諌	-11.4939
媾	-11.4942
緝	-11.4943
韜	-11.4944
嗛	-11.498
㪚	-11.4991
昩	-11.4995
闃	-11.4997
原始要終	-11.4998
斁	-11.5
栁	-11.5002
駭	-11.5005
即鹿无虞	-11.5053
克己復禮	-11.5054
往蹇來反	-11.5055
馭	-11.5056
爰	-11.506
卧	-11.5061
郤	-11.5062
治厯明時	-11.5063
課	-11.5072
千八百	-11.5084
剭	-11.5113
旺	-11.5117
苛	-11.5119
敕	-11.5119
覆公餗	-11.5121
梏	-11.5122
昆	-11.5122
脆	-11.5123
牆	-11.5127
三百八十四	-11.5159
蚌	-11.5173
扐以象閏	-11.5176
修辭立其誠	-11.5177
不惡而嚴	-11.5177
内健而外順	-11.5179
綆	-11.518
噬乾肉	-11.518
烝	-11.5181
閑邪存其誠	-11.5183
可與存義	-11.5183
朱子語類云	-11.5184
時乘六龍以御天	-11.5186
萑葦	-11.5235
覬	-11.5237
幡	-11.5242
雷在天上	-11.5243
䕶	-11.5245
粒	-11.5251
姪	-11.5297
孰能與於此	-11.5299
閴	-11.5304
㕘	-11.5304
僥	-11.5304
吉凶以情遷	-11.5304
慰	-11.5306
未之或知	-11.5306
掃	-11.5314
筭	-11.5314
從或戕之	-11.5358
液	-11.536
施禄及下	-11.5361
儼	-11.5362
履帝位	-11.5364
研諸慮	-11.5365
其悔乃亡	-11.5365
童牛之牿	-11.5366
𦂳	-11.5367
轍	-11.5367
滔	-11.5367
搏	-11.5368
碎	-11.5371
百穀草木	-11.5372
頴	-11.5374
袽	-11.5377
干寳曰	-11.5416
終莫之陵	-11.5419
不速之客	-11.542
一三五七九	-11.5425
遡	-11.5427
沿	-11.5429
綿	-11.5432
鷙	-11.5433
行人得牛	-11.5486
蟹	-11.5488
抄	-11.5491
鵠	-11.5491
文王與紂之事	-11.5492
璧	-11.5495
項氏安世曰	-11.5495
用拯馬壯吉	-11.5539
八卦而小成	-11.5548
慘	-11.5549
公弋取彼在穴	-11.5553
狼	-11.5555
河出圖洛出書聖人則之	-11.5556
義以方外	-11.5557
等謹案	-11.5568
臀困于株木	-11.561
懲忿窒欲	-11.5612
二百一十有六	-11.5615
傍	-11.5616
埸	-11.5617
儘	-11.5617
有孚顒若	-11.5618
臯	-11.5621
藻	-11.5621
天地生物之心	-11.5622
綴	-11.5623
芳	-11.5624
嬰	-11.5624
通乎晝夜之道而知	-11.5625
陸費墀	-11.5628
孫士毅	-11.5628
欽定四庫全書經部一	-11.563
􁀅	-11.5658
彩	-11.5673
衡水孔氏曰	-11.5677
悻	-11.5679
剛巽乎中正而志行	-11.568
婦子嘻嘻	-11.5683
哭	-11.5684
其匪正有眚不利有攸往	-11.5686
竆	-11.569
垂其翼	-11.5693
乾隆四十	-11.5694
板	-11.5694
燦	-11.5743
王三錫命	-11.5743
書不盡言言不盡意	-11.5747
遞	-11.5749
一以貫之	-11.5753
参	-11.5753
昀	-11.5757
級	-11.5761
風行水上	-11.5798
後得主而有常	-11.5805
脅	-11.5806
蘊	-11.5806
濯	-11.581
信以發志	-11.5811
輙	-11.5811
贄	-11.5812
甕敝漏	-11.5812
鉤	-11.5818
刋	-11.5836
壓	-11.587
苴	-11.5871
二四六八十	-11.5873
羈	-11.5876
閨	-11.5877
詣	-11.5878
合訂刪補大易集義粹言	-11.588
杌	-11.5933
匪寇婚媾	-11.5937
含萬物而化光	-11.5937
怯	-11.5939
坤至柔而動也剛	-11.594
輿說輹	-11.5941
輝	-11.5941
修辭立誠	-11.5943
喜怒哀樂	-11.5943
載鬼一車	-11.5944
立天之道曰隂與陽	-11.5944
剛當位而應	-11.5945
不見是而无悶	-11.5947
裹	-11.5948
剛自外來而為主於内	-11.5949
月恭校上總纂	-11.5955
跋	-11.5955
舎車而徒	-11.5996
品物咸章	-11.6003
不戒以孚	-11.6004
賢人在下位而无輔是以動而有悔也	-11.6006
朽	-11.6007
宛	-11.601
以木巽火	-11.6011
狃	-11.6011
輅	-11.6012
畨	-11.6018
柔麗乎中正	-11.602
利者義之和	-11.6023
月㡬望	-11.6071
偷	-11.6072
耻	-11.6073
易簡而天下之理得	-11.6073
勃	-11.6075
臻	-11.6077
絜	-11.6078
莅	-11.608
綏	-11.6082
裒多益寡	-11.6086
蓏	-11.6123
婦人吉夫子凶	-11.6135
縶	-11.6141
吉凶悔吝生乎動	-11.6143
善世而不伐	-11.6146
眩	-11.6149
圈	-11.6149
係小子失丈夫	-11.6205
馮當可曰	-11.6207
男正位乎外	-11.6208
納約自牖	-11.6208
窮理盡性以至於命	-11.6208
王用享于帝吉	-11.621
瑣	-11.621
乍	-11.6213
斾	-11.6215
溫	-11.6217
壽	-11.6218
刖	-11.6271
耑	-11.6273
戢	-11.6278
詎	-11.6278
匱	-11.628
重門擊柝	-11.6281
巽坎艮坤	-11.6281
罅	-11.6283
鼓缶而歌	-11.6284
隂陽不測之謂神	-11.6286
沖	-11.6287
先庚後庚	-11.6341
耿睎道曰	-11.6343
懲忿窒慾	-11.6343
皿	-11.6343
陸希聲	-11.6344
辜	-11.6345
閔	-11.6346
汨	-11.6346
縛	-11.6347
感而遂通天下之故	-11.635
祈	-11.6352
壤	-11.6409
膝	-11.6414
銷	-11.6414
騁	-11.6414
悍	-11.6416
涖	-11.6417
鄒	-11.6418
倐	-11.6418
怛	-11.6419
艾	-11.6419
數往者順	-11.642
夷于左股	-11.642
為進退為不果	-11.6475
滌	-11.6481
隄	-11.6481
硬	-11.6487
未濟男之窮也	-11.6488
立象以盡意	-11.6491
刳	-11.6491
亭	-11.6492
䏻	-11.6547
巽乎水而上水	-11.655
柔上而剛下	-11.6553
得中而應乎剛	-11.6555
兩儀四象八卦	-11.6556
天三地四天五地六天七地八天九地十	-11.6557
乾南坤北	-11.6564
墳	-11.6565
坎為加憂	-11.6616
阨	-11.6618
楊廷秀曰	-11.6619
剛遇中正天下大行	-11.6622
嶽	-11.6623
酬	-11.6627
潁	-11.6628
聖人以此洗心	-11.6628
鏡	-11.6633
裴	-11.6633
賁于丘園	-11.6685
儻	-11.669
内柔而外剛	-11.669
朗	-11.6693
昔者聖人之作易也	-11.6693
緘	-11.6696
繪	-11.6697
喬	-11.6698
楫	-11.67
引而伸之	-11.6701
厎	-11.6703
淹	-11.6765
籠	-11.6767
碍	-11.6768
慊	-11.6769
泰小往大來吉亨	-11.677
羨	-11.677
吳幼清	-11.677
勿憂宜日中	-11.6771
大耋之嗟	-11.6772
彬	-11.6774
小狐汔濟	-11.6832
殖	-11.6834
羇	-11.6835
鋒	-11.6837
陟	-11.6839
來矣鮮曰	-11.684
骸	-11.684
垂衣裳而天下治	-11.6842
肢	-11.6842
初登于天	-11.6842
詘	-11.6905
先否後喜	-11.6905
遏惡揚善	-11.6907
剛健篤實輝光日新	-11.6907
含𢎞光大	-11.6908
弔	-11.6911
羝羊觸藩羸其角	-11.6912
易有太極是生兩儀兩儀生四象四象生	-11.6916
桎	-11.6918
嗇	-11.6973
血去惕出	-11.6976
无敢折獄	-11.6977
頥中有物	-11.6982
籬	-11.6984
啻	-11.6984
鱗	-11.6985
凍	-11.6986
烜	-11.6987
舅	-11.6987
膂	-11.6987
查	-11.6993
困而不失其所亨	-11.7052
童溪王氏曰	-11.7052
近利市三倍	-11.7054
致命遂志	-11.7055
乾以易知坤以簡能	-11.7058
孰能與于此	-11.7058
孺	-11.7058
腐	-11.706
有以見天下之動而觀其㑹通以行其	-11.706
震无咎者存乎悔	-11.7061
幾者動之微	-11.7061
採	-11.7068
不出戸庭	-11.7117
用大牲吉利有攸往	-11.7124
厚徳載物	-11.7127
顗	-11.7131
以制器者尚其象	-11.7133
非禮弗履	-11.7133
其唯聖人乎	-11.7133
火動而上澤動而下	-11.7133
以卜筮者尚其占	-11.7133
戲	-11.7134
驩	-11.7134
吕祖謙	-11.7134
二女同居其志不同行	-11.7134
鐵	-11.7135
憾	-11.7135
䋲	-11.7136
繞	-11.7137
嘘	-11.7138
什	-11.7141
郭子儀	-11.7204
天地變化草木蕃	-11.7207
變而通之以盡利	-11.7207
在師中吉	-11.7208
揚子雲	-11.7211
舛	-11.7213
簮	-11.7274
囿	-11.7279
小徃大來	-11.7279
趙復齋曰	-11.728
徼	-11.7282
紜	-11.7283
李氏舜臣曰	-11.7284
敘	-11.7284
凡益之道與時偕行	-11.7286
憂悔吝者存乎介	-11.7287
父子兄弟夫婦	-11.7352
大往小來	-11.7352
上棟下宇	-11.7355
荑	-11.7355
都聖與曰	-11.7356
旗	-11.7358
鳴鶴在隂其子和之我有好爵吾與爾靡	-11.7359
蒲	-11.736
濶	-11.7361
葬	-11.7362
彛	-11.7363
兔	-11.7364
獲明夷之心于出門庭	-11.7366
葦	-11.7421
瀦	-11.7426
輿説輻	-11.7427
告公用圭	-11.7429
其君之袂不如其娣之袂良	-11.7433
逝	-11.7436
耗	-11.7436
数	-11.744
閎	-11.7442
稱物平施	-11.7444
罕	-11.7446
否之匪人不利君子貞大往小來	-11.7503
坤道其順乎承天而時行	-11.7507
筴	-11.7508
思過半矣	-11.7508
擬諸其形容	-11.7509
居則觀其象而玩其辭動則觀其變而玩	-11.7509
熇	-11.751
蘭惠卿曰	-11.7511
李去非曰	-11.7511
打	-11.7513
壺	-11.7581
見險而能止	-11.7583
閑輿衛	-11.7584
復即命渝安貞	-11.7584
无平不陂无往不復	-11.7586
女子貞不字十年乃字	-11.7586
得尚于中行	-11.7587
森	-11.7587
惟變所適	-11.7589
糾	-11.759
刃	-11.7591
殻	-11.7591
南軒張氏曰	-11.7591
成性存存道義之門	-11.7592
濬	-11.7592
天下之動貞夫一者也	-11.7597
肺	-11.7599
神无方而易无體	-11.76
員	-11.7602
俞石澗曰	-11.7663
群	-11.7664
井居其所而遷	-11.7666
中正以觀天下	-11.7667
荘	-11.7667
瘁	-11.7669
丕	-11.767
範圍天地之化而不過	-11.7679
奈	-11.7699
品物咸亨	-11.7737
文明以止人文也	-11.7738
勁	-11.774
䖏	-11.7741
填	-11.7742
眷	-11.7743
朋至斯孚	-11.7745
議獄緩死	-11.7745
巽五坎六艮七坤八	-11.7747
軀	-11.7752
臂	-11.7755
𨽻	-11.7758
喪過乎哀用過乎儉	-11.7821
躐	-11.7822
孜	-11.7828
嘻	-11.7828
版	-11.7828
讎	-11.7829
廖	-11.7831
終以譽命	-11.7904
雖正亦凶	-11.7905
飄	-11.7906
菜	-11.7907
寕	-11.7908
與時偕極	-11.7911
漆	-11.7912
絮	-11.7914
館	-11.7923
冊	-11.7923
☷	-11.7954
施命誥四方	-11.7981
䰟	-11.7981
両	-11.7982
鳳	-11.7982
閡	-11.7984
巍	-11.7984
水在火上	-11.7987
漸女歸待男行也	-11.7988
嵩	-11.7992
訖	-11.7993
床	-11.7993
爪	-11.8062
觀其所感而天地萬物之情可見矣	-11.8064
豁	-11.8065
讐	-11.8066
喪牛于易	-11.8068
俞氏琰曰	-11.807
殿	-11.8073
櫝	-11.808
祕	-11.8084
虎視眈眈	-11.814
其義不困窮矣	-11.8141
剛中而應行險而順	-11.8143
偪	-11.8144
辨上下定民志	-11.8144
艸	-11.8145
餁	-11.8145
媒	-11.8145
飛鳥遺之音不宜上宜下大吉	-11.8147
以佃以漁	-11.8149
壹	-11.815
旅小亨旅貞吉	-11.8152
何氏楷曰	-11.8152
咈	-11.8154
觸類而長之	-11.8155
陣	-11.8166
出門交有功	-11.822
師貞丈人吉无咎	-11.8225
自邑告命	-11.8226
頷	-11.8228
莘	-11.8228
團	-11.8228
閫	-11.8229
唯變所適	-11.823
剛柔始交而難生	-11.8231
屠	-11.8233
天地之大徳曰生	-11.8233
自上下下其道大光	-11.8234
无平不陂	-11.8236
迂	-11.8237
寐	-11.8238
虩	-11.8238
九五飛龍在天利見大人	-11.824
茲	-11.8244
迥	-11.8246
帖	-11.8248
遇其夷主	-11.8311
矛	-11.8312
乳	-11.8313
恢	-11.8314
改邑不改井乃以剛中也	-11.8315
斜	-11.8316
悞	-11.8316
捕	-11.8317
墻	-11.8317
鹽	-11.8317
擴	-11.8318
昨	-11.8319
札	-11.832
勑	-11.8321
丞	-11.8332
趙汴水曰	-11.8389
沫	-11.8393
往遇雨則吉	-11.8398
孩	-11.8399
壑	-11.84
銘	-11.8401
鬭	-11.8403
訪	-11.8404
慙	-11.8404
恪	-11.8405
妺	-11.8472
武人為于大君	-11.8474
雷雨之動滿盈	-11.8481
漸女歸吉利貞	-11.8483
順乎天而應乎人	-11.8484
畀	-11.8484
挈	-11.8484
肌	-11.8485
醴	-11.8485
匝	-11.8485
井渫不食	-11.8488
麽	-11.8489
蠶	-11.8489
顓	-11.8491
潮	-11.8493
漿	-11.8564
東北喪朋乃終有慶	-11.8565
猥	-11.8565
减	-11.8565
咸亨利貞取女吉	-11.8566
我仇有疾	-11.8566
躋于九陵	-11.8567
火珠林	-11.8568
閲	-11.8569
邈	-11.857
方以類聚物以羣分	-11.8572
彿	-11.8572
巽而耳目聰明	-11.8572
蹶	-11.8573
聖人作而萬物覩	-11.8574
非所困而困	-11.8649
攀	-11.865
轂	-11.8651
麓	-11.8652
垣	-11.8653
小過亨利貞可小事不可大事	-11.8655
汔至亦未繘井羸其瓶凶	-11.8655
蹟	-11.8657
褒	-11.8658
乞	-11.866
大哉乾元萬物資始乃統天	-11.8664
離利貞亨畜牝牛吉	-11.8676
觀其所聚而天地萬物之情可見矣	-11.873
王居无咎正位也	-11.8731
習坎有孚維心亨行有尚	-11.8735
初辭擬之卒成之終	-11.8738
石守道曰	-11.8739
扺	-11.8739
比樂師憂	-11.8739
駟	-11.874
濵	-11.8741
弭	-11.8742
晅	-11.8744
冕	-11.8744
䜴	-11.8745
駸	-11.8745
彷	-11.8745
平庵項氏曰	-11.8747
醒	-11.8747
樣	-11.8747
墓	-11.8749
乃亂乃萃	-11.8812
剝牀以足	-11.8813
剛中正履帝位而不疚光明也	-11.882
飯	-11.8823
安貞之吉應地无疆	-11.8826
諺	-11.8827
輟	-11.8828
稿	-11.8829
乾知大始坤作成物	-11.8829
畋	-11.883
鞠	-11.8831
叩	-11.8831
親寡旅也	-11.8832
囂	-11.8832
趨吉避凶	-11.8834
六二之吉順以則也	-11.8835
僧	-11.8836
蘖	-11.8913
積善之家必有餘慶	-11.8913
枚	-11.8914
橫	-11.8916
廵	-11.8917
㨗	-11.8918
旌	-11.8919
得妾以其子	-11.8919
吉事有祥	-11.892
怕	-11.8921
邁	-11.8921
小懲而大誡	-11.8921
逰	-11.8924
迪	-11.8927
詮	-11.893
筌	-11.8935
藜	-11.8998
𦕈	-11.9001
額	-11.9001
沃	-11.9004
剛柔之際義无咎也	-11.9004
天造草昧	-11.9006
見豕負塗	-11.9007
雕	-11.9007
姤女壯勿用取女	-11.9008
耨	-11.901
典禮繫辭焉以斷其吉凶是故謂之爻	-11.901
易有四象所以示也	-11.9012
米	-11.9013
松	-11.9014
盾	-11.9018
谿	-11.9019
諤	-11.9025
摘	-11.9026
睢	-11.9086
芾	-11.9087
反復其道七日來復天行也	-11.909
六二直方大不習无不利	-11.909
君子好遯小人否也	-11.9097
怵	-11.9097
熄	-11.9098
邀	-11.9099
觀天之神道而四時不忒	-11.9099
用行師終有大敗以其國君凶	-11.91
椁	-11.9106
安土敦乎仁故能愛	-11.9108
動而以順行是以出入无疾朋來无咎	-11.9179
履帝位而不疚	-11.9185
感而萬物化生聖人感人心而天下和平	-11.9185
垢	-11.9185
晰	-11.9188
構	-11.919
嬴	-11.9192
晷	-11.9195
離東坎西	-11.9198
中孚以利貞乃應乎天也	-11.9273
牽復在中亦不自失也	-11.9274
休復之吉以下仁也	-11.9277
駢	-11.9277
臨觀之義或與或求	-11.9277
知崇禮卑	-11.9279
千變萬化	-11.928
子克家剛柔接也	-11.928
漠	-11.928
蒼筤竹	-11.9282
鼓之以雷霆	-11.9283
鼓萬物而不與聖人同憂	-11.9285
南狩之志乃大得也	-11.9286
炭	-11.9287
頒	-11.9288
塊	-11.9289
賁如皤如白馬翰如	-11.9361
梯	-11.9364
君子以遏惡揚善順天休命	-11.9365
訟元吉以中正也	-11.9367
雖凶居吉順不害也	-11.9367
履信思順	-11.9368
輔相天地之宜以左右民	-11.9371
很	-11.9372
禠	-11.9372
燒	-11.9373
夔	-11.9374
長子帥師弟子輿尸貞凶	-11.9374
扈	-11.9374
厚齋馮氏曰	-11.9374
慨	-11.9374
矧	-11.9375
瑕	-11.9375
串	-11.9378
冷	-11.9378
泮	-11.9378
定天下之吉凶成天下之亹亹者	-11.9397
恁	-11.9458
有孚惕出上合志也	-11.9459
或鼓或罷	-11.9462
大君之宜行中之謂也	-11.9463
霆	-11.9465
元吉在上大有慶也	-11.9465
姻	-11.9466
蹇利西南不利東北利見大人貞吉	-11.9466
顯比之吉位正中也	-11.9467
小人用壯君子罔也	-11.9467
姊	-11.9469
仙	-11.9482
餐	-11.9555
揣	-11.9558
六爻之動三極之道也	-11.9558
胄	-11.9558
皓	-11.9559
比之匪人不亦傷乎	-11.9559
渺	-11.9559
冺	-11.956
促	-11.9561
六爻之義易以貢	-11.9564
言天下之至賾而	-11.9565
昊	-11.9565
搜	-11.9566
凱	-11.9566
䜛	-11.9568
重明以麗乎正乃化成天下	-11.9572
觀其所恒而天地萬物之情可見矣	-11.965
天地以順動故日月不過而四時不忒	-11.9652
九二之孚有喜也	-11.9652
潑	-11.9654
翳	-11.9658
成變化而行鬼神	-11.9658
泊	-11.9658
艮其背不獲其身行其庭不見其人无咎	-11.9659
飛龍在天大人造也	-11.966
腸	-11.966
人之所助者信也履信思乎順又	-11.9661
隂陽之義配日月	-11.9663
肝	-11.9667
匪夷所思	-11.9735
匪宼婚媾	-11.9741
鴈	-11.9741
山陽王氏曰	-11.9745
知進而不知退	-11.9745
无妄之藥不可試也	-11.9747
叠	-11.9749
蒺	-11.9751
形而上者謂之道形而下者謂之器	-11.9751
敦艮之吉以厚終也	-11.9752
先甲三日後甲三日終則有始天行也	-11.9752
衆允之志上行也	-11.9752
至哉坤元萬物資生乃順承天	-11.9754
嘉遯貞吉以正志也	-11.9754
愆期之志有待而行也	-11.9754
明罰勅法	-11.9754
天數二十有五地數三十凡天	-11.9754
釜	-11.9754
料	-11.9755
侔	-11.9755
闊	-11.9757
髴	-11.9758
尉	-11.976
番	-11.9763
物畜然後有禮故受之以履	-11.9841
與人同者物必歸焉故受之以大有	-11.9841
耐	-11.9841
澤无水困君子以致命遂志	-11.9843
斵	-11.9844
䙝	-11.9845
可貞无咎固有之也	-11.9845
弟夫夫婦婦而家道正正家而天下定矣	-11.9845
升在上消不富也	-11.9846
有其信者必行之故受之以小過	-11.9848
未濟亨小狐汔濟濡其尾无攸利	-11.9849
天地解而雷雨作雷雨作而百	-11.9849
易曰見龍在田利見大人君徳也	-11.985
文明以健中正而應君子正也	-11.985
巽而順剛中而應是以大亨	-11.985
溉	-11.9851
易曰三人行則損一人一人行則得其友	-11.9851
仁者見之謂之仁知者見之謂之知	-11.9851
摹	-11.9854
泳	-11.9854
柔得中而上行雖不當位利用獄也	-11.9855
荄	-11.9855
極天下之賾者存乎卦	-11.9856
天地革而四時成湯武革命	-11.9856
譌	-11.9857
暨	-11.9859
咸其脢志末也	-11.9939
无號之凶終不可長也	-11.9941
不及其君臣不可過也	-11.9941
李仲永曰	-11.9941
物不可窮也故受之以未濟終焉	-11.9942
六五厥孚交如威如吉	-11.9943
縕	-11.9944
雲雷屯君子以經綸	-11.9944
婉	-11.9945
郝	-11.9945
有天地然後有萬物有萬物然後有男女	-11.9946
王景孟曰	-11.9946
遮	-11.9947
腥	-11.9948
擬諸其形容象其物宜是故謂之象聖人	-11.9949
㨿	-11.995
涓	-11.9952
風雷益君子以見善則遷有過則改	-11.9952
扞	-11.9953
昇	-11.9953
桃	-11.9956
以合禮利物足以和義貞固足以幹事	-11.9956
柔麗乎中正故亨是以畜牝牛吉也	-11.9958
九五之吉位正中也	-12.0041
慿	-12.0041
豫剛應而志行順以動豫	-12.0044
亊	-12.0045
凉	-12.0045
兼三才而兩之故易六畫而成卦	-12.0047
冩	-12.0047
遇雨之吉羣疑亡也	-12.0047
憎	-12.0047
知者觀其彖辭則思過半矣	-12.0049
大哉乾乎剛健中正純粹精也	-12.0051
汪	-12.0051
飲酒濡首亦不知節也	-12.0051
懋	-12.0051
君子于行義不食也	-12.0053
豐亨王假之勿憂宜日中	-12.0054
利艱貞晦其明也内難而能正其志箕子	-12.0054
轅	-12.0055
坊	-12.0061
初九无交害匪咎艱則无咎	-12.0134
浚恒之凶始求深也	-12.0135
乎天文以察時變觀乎人文以化成天下	-12.0138
居貞之吉順以從上也	-12.0139
夬揚于王庭孚號有厲	-12.014
鬬	-12.0141
六四外比之貞吉	-12.0142
九三幹父之蠱小有悔无大咎	-12.0143
跳	-12.0143
髠	-12.0143
藍	-12.0144
闚觀女貞亦可醜也	-12.0144
有男女然後有夫婦有夫婦然後	-12.0145
以訟受服亦不足敬也	-12.0145
辦	-12.0145
天地交而萬物通也上下交而其志同也	-12.0145
益用凶事固有之也	-12.0147
解險以動動而免乎險解	-12.0148
上九有孚威如終吉	-12.0148
俎	-12.0148
孔氏穎達曰	-12.0149
九五王假有家勿恤吉	-12.0149
殄	-12.0149
聖人亨以享上帝而大亨以養聖賢	-12.0149
幔	-12.015
與四時合其序與鬼神合其吉凶	-12.015
初九履錯然敬之无咎	-12.0151
寒泉之食中正也	-12.0151
敦復无悔中以自考也	-12.0152
慧	-12.0152
稺	-12.0154
●	-12.0226
乃亂乃萃其志亂也	-12.0232
初六不永所事小有言終吉	-12.0232
咸臨貞吉志行正也	-12.0233
九二履道坦坦幽人貞吉	-12.0238
嘖	-12.0239
甘節之吉居位中也	-12.0242
容民畜衆	-12.0243
辱非所據而據焉身必危	-12.0243
六二王臣蹇蹇匪躬之故	-12.0243
九二貞吉中以行正也	-12.0244
不養則不可動故受之以大過	-12.0244
健而巽剛中而志行乃亨	-12.0244
憫	-12.0244
聯	-12.0244
捐	-12.0245
戹	-12.0245
艱貞无咎勿恤其孚于食有福	-12.0246
敬義立而徳不孤	-12.0246
六二或益之十朋之龜弗克違永貞吉	-12.0246
捍	-12.0246
麥	-12.0247
繡	-12.0247
柢	-12.0248
琴	-12.0248
佩	-12.025
凑	-12.025
在天成象在地成形變化見矣	-12.0251
柔進而上行得中而應乎剛是以元亨	-12.0252
天道虧盈而益謙地道變盈而流謙	-12.0252
飱	-12.0252
鳴謙貞吉中心得也	-12.0253
出可以守宗廟社稷以為祭主也	-12.0253
東鄰殺牛不如西鄰之禴祭實受其福	-12.0253
値	-12.0256
六四井甃无咎	-12.0256
成象之謂乾效法之謂坤	-12.0256
瑩	-12.0258
濓	-12.0258
六五幹父之蠱用譽	-12.0336
夫征不復離羣醜也	-12.0337
則是天地不交而萬物不通也	-12.0341
利用賓于王	-12.0342
地節而四時成節以制度不傷財不害民	-12.0342
壯于前趾	-12.0344
係小子弗兼與也	-12.0344
濡其尾亦不知極也	-12.0344
有大者不可以盈故受之以謙	-12.0344
張舜元曰	-12.0344
困亨貞大人吉无咎有言不信	-12.0345
剛失位而不中是以不可大事也	-12.0346
上下交而其志同	-12.0346
物不可以終離故受之以節	-12.0346
九四歸妹愆期遲歸有時	-12.0346
地中有水師君子以容民畜衆	-12.0346
擔	-12.0346
酒食貞吉以中正也	-12.0347
是故居上位而不驕在下位而不憂	-12.0348
剛上而尚賢能止健大正也	-12.0348
雜物撰徳	-12.0348
餒	-12.0349
䆒	-12.0349
升元亨用見大人勿恤南征吉	-12.035
六五或益之十朋之龜弗克違元吉	-12.035
爼	-12.035
上六大君有命開國承家小人勿用	-12.035
直其正也方其義也	-12.035
懇	-12.0351
箋	-12.0352
脛	-12.0352
叡	-12.0352
絳	-12.0353
不與聖人同憂	-12.0353
稻	-12.0354
僚	-12.0357
潦	-12.0446
愬	-12.0446
麤	-12.0448
汴	-12.0451
掲	-12.0451
宄	-12.0451
朢	-12.0452
慄	-12.0452
酷	-12.0454
捷	-12.0454
斃	-12.0454
皥	-12.0455
脗	-12.0457
沌	-12.0458
逓	-12.0459
壘	-12.0464
旤	-12.0465
弇	-12.0551
𠂻	-12.0551
燄	-12.0554
𠖇	-12.0557
杪	-12.0559
遥	-12.0562
紐	-12.0563
糧	-12.0563
廙	-12.0565
☵	-12.0642
笄	-12.0647
☰	-12.0651
鉞	-12.0658
鶉	-12.0661
愎	-12.0664
縦	-12.0664
爍	-12.0664
騎	-12.0673
撮	-12.0674
鷹	-12.0766
楳	-12.0767
俄	-12.0771
耄	-12.0773
祁	-12.0775
蒞	-12.0775
匈	-12.0868
寃	-12.0871
燔	-12.0871
鈍	-12.0874
㒺	-12.0875
勒	-12.0876
督	-12.0881
蚩	-12.0881
佯	-12.089
鸛	-12.0979
簞	-12.098
媿	-12.098
鉅	-12.0981
售	-12.0983
妬	-12.0983
譲	-12.0984
誇	-12.0985
禱	-12.0985
霧	-12.0986
籥	-12.0986
軫	-12.0987
饔	-12.0991
覊	-12.1088
弃	-12.1091
渭	-12.1095
怡	-12.1098
斤	-12.1098
桐	-12.1098
逈	-12.1104
☳	-12.1181
鞭	-12.1202
僮	-12.1202
遼	-12.1203
瑟	-12.1204
鑠	-12.1205
鞶	-12.1205
杖	-12.1205
捉	-12.1205
隳	-12.1207
炫	-12.1208
婁	-12.1209
閻	-12.1216
迄	-12.1218
冓	-12.1304
岀	-12.1315
祼	-12.1317
悛	-12.1317
迴	-12.1319
仆	-12.1322
譜	-12.1325
覈	-12.1326
洵	-12.1328
洫	-12.1425
畎	-12.1425
册	-12.1428
蠡	-12.1431
簒	-12.1432
賂	-12.1439
詆	-12.144
厦	-12.1538
弄	-12.1542
幅	-12.1546
湧	-12.1547
筋	-12.1547
洙	-12.1547
鍊	-12.1549
馨	-12.1549
菲	-12.1549
埤	-12.1553
庫	-12.1565
蘋	-12.166
涼	-12.166
慚	-12.1661
祠	-12.1663
邕	-12.1664
扇	-12.1665
殫	-12.1666
買	-12.1668
餓	-12.1668
燎	-12.1669
淨	-12.1669
酢	-12.167
蠅	-12.1673
玊	-12.1676
☶	-12.1761
栖	-12.177
緊	-12.1779
樊	-12.178
吟	-12.178
詢	-12.1783
印	-12.1784
阮	-12.1785
濤	-12.1785
拙	-12.1786
蠢	-12.1791
梓	-12.1792
?	-12.1796
紆	-12.1901
鞅	-12.1901
賣	-12.1902
閩	-12.1902
邢	-12.1903
豎	-12.1904
鳯	-12.1905
顴	-12.2006
僨	-12.2008
銜	-12.2016
釀	-12.2016
賚	-12.2016
閱	-12.2019
擯	-12.2019
秒	-12.202
渴	-12.202
絀	-12.2021
幻	-12.2021
疲	-12.2022
頡	-12.2025
籲	-12.2026
丨	-12.2032
豳	-12.2132
嬖	-12.2138
蔾	-12.2141
皷	-12.2143
躭	-12.2144
赧	-12.2144
搖	-12.2144
敖	-12.2145
斡	-12.2145
芻	-12.2145
黯	-12.2146
烖	-12.2146
悌	-12.2146
湊	-12.2149
彝	-12.2154
喉	-12.2258
嶠	-12.226
丌	-12.226
肚	-12.226
漬	-12.2261
竈	-12.2263
躔	-12.2263
纍	-12.2264
橋	-12.2264
䖍	-12.2265
寖	-12.2266
鈔	-12.2266
墟	-12.2266
毗	-12.2267
崖	-12.2267
犢	-12.2268
燧	-12.2271
惓	-12.2276
訣	-12.2281
㛰	-12.2386
鮑	-12.2387
擁	-12.239
贖	-12.2391
練	-12.2391
瞽	-12.2391
婢	-12.2392
盎	-12.2393
璞	-12.2394
䜟	-12.2405
■	-12.2449
昻	-12.2513
嬪	-12.2515
沸	-12.2516
彞	-12.2517
繳	-12.2519
漓	-12.252
踞	-12.252
棼	-12.252
鬚	-12.2522
孳	-12.2523
昴	-12.2524
𡨕	-12.264
宵	-12.2644
羝	-12.2645
豉	-12.2645
堆	-12.2645
圉	-12.2646
滲	-12.2649
場	-12.265
煞	-12.265
巾	-12.2651
耊	-12.2651
瞬	-12.2655
濂	-12.2657
暖	-12.2766
飫	-12.2774
豢	-12.2775
鋤	-12.2776
穏	-12.2776
弁	-12.2779
臟	-12.2779
暘	-12.2781
曜	-12.2782
台	-12.2782
奕	-12.2783
囬	-12.2902
胃	-12.2902
畝	-12.2903
隊	-12.2903
翩	-12.2905
盂	-12.2906
擒	-12.2906
喫	-12.2907
芮	-12.2907
仗	-12.2908
騖	-12.2909
纁	-12.291
佀	-12.2914
兎	-12.2915
袖	-12.3035
偉	-12.3036
槃	-12.3037
攬	-12.3039
燼	-12.3041
煖	-12.3041
劇	-12.3043
羮	-12.3043
眉	-12.3047
抽	-12.3049
帙	-12.305
週	-12.3054
圯	-12.317
釣	-12.3171
芥	-12.3173
邠	-12.3174
彘	-12.3174
璣	-12.3174
蝦	-12.3174
戡	-12.3175
彪	-12.3175
憧	-12.3176
挨	-12.3179
凜	-12.3181
勘	-12.3182
銀	-12.3185
矦	-12.3189
☲	-12.3295
剪	-12.3304
冉	-12.3313
蟻	-12.3313
仞	-12.3314
閹	-12.3314
褊	-12.3314
褚	-12.3316
寥	-12.3316
尼	-12.3316
詠	-12.3318
髣	-12.3321
惇	-12.3329
􁄅	-12.3335
☴	-12.3433
㐲	-12.3435
椽	-12.3447
苑	-12.3448
紓	-12.345
滓	-12.3451
逾	-12.3451
徠	-12.3452
杙	-12.3452
繒	-12.3453
隗	-12.3453
檀	-12.3455
澹	-12.3456
殉	-12.3463
丅	-12.3467
煉	-12.3472
筤	-12.3582
柳	-12.3584
臲	-12.3587
抍	-12.3588
貊	-12.3589
鹹	-12.3591
鵲	-12.3592
咽	-12.3593
氐	-12.3593
駮	-12.3595
廸	-12.3597
裔	-12.3598
郁	-12.3598
旒	-12.36
僉	-12.3601
謁	-12.3606
鳬	-12.3723
殱	-12.3731
霄	-12.3731
縟	-12.3732
燠	-12.3733
鳩	-12.3735
埋	-12.3736
甸	-12.3736
贍	-12.3736
劈	-12.3737
彈	-12.3738
銅	-12.3739
鎔	-12.3741
蔣	-12.3746
嬉	-12.3748
㢘	-12.3868
睇	-12.3871
昂	-12.3875
盲	-12.3879
熒	-12.388
孑	-12.3881
㝢	-12.3882
滂	-12.3882
胞	-12.3882
蟠	-12.3882
杭	-12.3883
覇	-12.3883
韌	-12.3883
恍	-12.3884
燈	-12.3885
巴	-12.3889
諡	-12.3892
點	-12.4003
雁	-12.4015
㓗	-12.4015
䕃	-12.4019
覦	-12.402
諉	-12.4021
徊	-12.4024
兀	-12.4024
猾	-12.4027
凋	-12.4027
稅	-12.403
􁀈	-12.403
惺	-12.4032
伎	-12.4033
樓	-12.4033
蕤	-12.4034
派	-12.4035
貯	-12.4035
麾	-12.4035
戍	-12.4036
亳	-12.4037
㗐	-12.4043
榱	-12.416
匏	-12.4166
閼	-12.4175
圃	-12.4175
菽	-12.4176
畿	-12.4177
奄	-12.4178
嘯	-12.4178
鱉	-12.4178
瞭	-12.4179
蓬	-12.418
匠	-12.4181
悮	-12.4182
貿	-12.4183
弘	-12.4184
邾	-12.4189
杳	-12.432
濱	-12.432
羌	-12.4323
儔	-12.4324
姒	-12.4324
腴	-12.4324
禆	-12.4326
瓛	-12.4331
逄	-12.4331
軰	-12.4331
悴	-12.4332
啄	-12.4334
祓	-12.4334
覘	-12.4334
秬	-12.4337
鎬	-12.4337
戶	-12.4338
寤	-12.4339
􁄆	-12.4349
☱	-12.4464
撼	-12.4478
舄	-12.4478
膽	-12.4481
默	-12.4481
隷	-12.4482
悼	-12.4485
頸	-12.4485
鬰	-12.4485
剋	-12.4489
簿	-12.449
樵	-12.4493
楅	-12.4629
翫	-12.4631
欝	-12.4635
湎	-12.4636
晢	-12.4636
瓢	-12.4636
懽	-12.4637
嘿	-12.4637
雎	-12.4637
邲	-12.4647
院	-12.4661
線	-12.4785
沼	-12.4787
仡	-12.4792
怎	-12.4796
鑚	-12.4796
聳	-12.4796
剰	-12.4797
湮	-12.4798
虺	-12.4799
冢	-12.4801
氤	-12.4801
軋	-12.4804
种	-12.4806
泌	-12.4817
炙	-12.4954
鬻	-12.4955
浴	-12.4955
紙	-12.4958
畆	-12.4958
攜	-12.4958
壇	-12.4958
腑	-12.4958
礪	-12.4959
叟	-12.4962
羿	-12.4964
氲	-12.4964
訾	-12.4966
狡	-12.5111
靠	-12.5115
厓	-12.5116
嚙	-12.5116
桶	-12.5121
刲	-12.5121
㦸	-12.5122
禔	-12.5124
縷	-12.5124
鋸	-12.5124
胚	-12.5125
滴	-12.5126
縉	-12.5127
浄	-12.5128
襃	-12.5129
緜	-12.5132
娓	-12.5255
拖	-12.5276
囓	-12.5278
逅	-12.5281
㦯	-12.5284
販	-12.5285
阱	-12.5287
藪	-12.5287
裨	-12.5288
諾	-12.5288
怍	-12.5289
憐	-12.5291
髀	-12.5292
曼	-12.5293
蕪	-12.5296
迸	-12.5297
芝	-12.5298
纆	-12.53
製	-12.5301
簇	-12.5312
轝	-12.542
纖	-12.5452
蘩	-12.5454
愽	-12.5455
蒐	-12.5458
踏	-12.5458
顏	-12.546
豊	-12.5463
旂	-12.5463
諦	-12.5464
殽	-12.5465
逡	-12.5471
訴	-12.5623
􁁊	-12.5625
霞	-12.5625
籓	-12.5626
纓	-12.5627
殞	-12.5628
縳	-12.5628
靳	-12.563
袛	-12.5632
聫	-12.5632
莱	-12.5633
價	-12.5633
槖	-12.5634
碑	-12.5634
斲	-12.5634
褻	-12.5637
羃	-12.5639
雒	-12.564
紅	-12.5641
牴	-12.5795
轟	-12.5795
劭	-12.5797
趄	-12.5798
洲	-12.5798
耆	-12.5798
弩	-12.58
緇	-12.5802
蟇	-12.5803
黻	-12.5803
訊	-12.5805
忙	-12.5805
曖	-12.5806
粉	-12.5807
譔	-12.581
湘	-12.581
摸	-12.5811
詹	-12.5813
䕫	-12.582
虵	-12.5968
戔	-12.5968
針	-12.5973
㳟	-12.5978
躓	-12.5979
瞑	-12.5981
僃	-12.5984
媧	-12.5986
扣	-12.5986
掖	-12.5987
蹊	-12.5988
颺	-12.5988
鴆	-12.5989
油	-12.5991
艻	-12.5992
泗	-12.5994
篚	-12.6157
躑	-12.6158
錦	-12.6158
罍	-12.6159
慍	-12.6159
歇	-12.616
沴	-12.6162
霑	-12.6162
轆	-12.6163
掉	-12.6164
禎	-12.6166
綢	-12.6166
映	-12.6166
坑	-12.6166
蛟	-12.6167
桔	-12.6168
犂	-12.6169
諍	-12.6169
腔	-12.617
衮	-12.6171
溼	-12.6171
惶	-12.6171
駿	-12.6173
拕	-12.6332
劍	-12.6346
荼	-12.6348
轤	-12.6349
甑	-12.6349
卬	-12.635
税	-12.6351
聮	-12.6352
挹	-12.6352
腦	-12.6353
驂	-12.6354
麋	-12.6354
澮	-12.6355
旄	-12.6356
譚	-12.6357
鐸	-12.6357
銓	-12.6361
棠	-12.6361
泝	-12.6363
睡	-12.6363
寋	-12.6368
斑	-12.6532
欒	-12.6535
轡	-12.6536
炊	-12.6536
挑	-12.6537
崑	-12.6538
慤	-12.654
懾	-12.6541
護	-12.6542
型	-12.6542
奎	-12.6543
謫	-12.6546
掊	-12.6554
贛	-12.6559
垓	-12.6706
沚	-12.6718
莒	-12.672
莞	-12.6721
磬	-12.6725
鍼	-12.6728
皎	-12.6729
刄	-12.6729
琢	-12.673
𤾉	-12.6731
覯	-12.6732
鑽	-12.6732
銑	-12.6732
厨	-12.6732
撲	-12.6733
忝	-12.6734
騷	-12.6736
絃	-12.674
澆	-12.6742
脯	-12.6743
竪	-12.6748
踦	-12.6756
籩	-12.6919
􁄈	-12.6921
哺	-12.6921
絪	-12.6923
屹	-12.6925
􁄇	-12.6926
藹	-12.6926
螻	-12.6926
禇	-12.6929
虜	-12.6929
彤	-12.6931
訐	-12.6931
烟	-12.6931
歷	-12.6932
矰	-12.6932
𦵏	-12.6933
葵	-12.6937
准	-12.6937
肓	-12.6937
琰	-12.6939
帷	-12.6939
灑	-12.694
弍	-12.7085
欿	-12.7122
榆	-12.7123
丄	-12.7124
鑊	-12.7124
瀾	-12.7126
誚	-12.7126
鰥	-12.7127
漣	-12.7129
鍵	-12.713
臥	-12.7132
聊	-12.7132
溷	-12.7132
縂	-12.7133
霖	-12.7133
酣	-12.7133
隰	-12.7134
鯀	-12.7134
蒿	-12.7135
恂	-12.7135
拈	-12.7137
稗	-12.7138
􁄊	-12.714
汶	-12.714
缾	-12.7319
駹	-12.7322
㝷	-12.7323
撤	-12.7326
旴	-12.7327
淙	-12.7328
錡	-12.7328
刈	-12.7329
丸	-12.7331
搃	-12.7331
褐	-12.7331
聾	-12.7332
譖	-12.7334
齬	-12.7335
吞	-12.7337
塟	-12.7337
攙	-12.7338
稀	-12.7343
髓	-12.7343
耘	-12.7529
糓	-12.753
霽	-12.7532
嗚	-12.7532
牾	-12.7536
啼	-12.7537
埴	-12.7538
怖	-12.7541
駒	-12.7542
靁	-12.7542
娛	-12.7542
渚	-12.7543
俛	-12.7544
暵	-12.7545
貸	-12.7546
薨	-12.7547
軟	-12.7551
扄	-12.7556
贈	-12.7562
蘆	-12.7741
湄	-12.7745
亶	-12.7746
跬	-12.7747
玷	-12.7749
欵	-12.7749
企	-12.7753
仄	-12.7754
朂	-12.7757
仔	-12.7757
畱	-12.7757
毨	-12.7758
懟	-12.7758
沍	-12.7758
涑	-12.776
䁥	-12.7761
汾	-12.7763
覃	-12.7764
頊	-12.7772
韶	-12.7772
翮	-12.7956
汜	-12.7958
侃	-12.7965
躅	-12.7965
蜚	-12.7966
杯	-12.7967
尢	-12.7971
箴	-12.7971
凰	-12.7972
償	-12.7972
掞	-12.7975
阪	-12.7975
刁	-12.7975
翦	-12.7977
你	-12.7977
鶻	-12.7978
𦙍	-12.7979
舂	-12.798
剏	-12.7982
鄱	-12.7992
畸	-12.8177
雝	-12.8182
饌	-12.8186
笰	-12.8187
煬	-12.8188
忮	-12.819
黼	-12.8191
忱	-12.8191
隻	-12.8193
僑	-12.8194
猝	-12.8194
扼	-12.8194
嚼	-12.8196
祛	-12.8197
諷	-12.8197
芸	-12.82
蛙	-12.8201
藁	-12.8201
喇	-12.8201
粘	-12.8202
椿	-12.8204
塘	-12.8205
濮	-12.8205
裝	-12.8207
沐	-12.8413
驥	-12.8413
瑜	-12.8417
跌	-12.8418
孥	-12.8419
譎	-12.8419
謐	-12.8421
鋪	-12.8421
燮	-12.8423
熖	-12.8423
瘳	-12.8424
滑	-12.8424
穽	-12.8425
疽	-12.8426
挫	-12.8427
煌	-12.8427
謾	-12.8429
棣	-12.843
脾	-12.8433
掠	-12.8434
卞	-12.8434
誌	-12.8436
甄	-12.8438
沽	-12.8443
儗	-12.8631
栽	-12.864
〈	-12.8644
咷	-12.8645
〉	-12.8645
跟	-12.8646
疢	-12.8647
軻	-12.8647
棗	-12.8647
控	-12.8647
焰	-12.8648
䠞	-12.8649
秪	-12.865
㽔	-12.8651
岌	-12.8652
廻	-12.8652
寗	-12.8653
橰	-12.8655
縠	-12.8656
球	-12.8657
箭	-12.8658
犖	-12.8658
䟦	-12.8659
柬	-12.8659
阼	-12.866
賄	-12.8661
汁	-12.8661
厠	-12.8662
筵	-12.8664
翬	-12.8883
僂	-12.8885
巟	-12.8886
稔	-12.8886
庾	-12.8887
睛	-12.8887
翺	-12.8888
迺	-12.8888
劒	-12.8891
抜	-12.8892
瀕	-12.8894
兾	-12.8894
瞰	-12.8894
剔	-12.8894
徘	-12.8894
暄	-12.8894
膳	-12.8894
擠	-12.8895
单	-12.8895
㴱	-12.8895
摭	-12.89
嗃	-12.8902
殁	-12.8902
𬒮	-12.8905
鉛	-12.8925
秭	-12.91
閠	-12.9121
蔟	-12.9122
驪	-12.9127
杓	-12.9127
蠏	-12.9128
閃	-12.9128
涎	-12.913
勺	-12.913
矍	-12.9131
愓	-12.9132
胯	-12.9133
􁀙	-12.9135
簀	-12.9135
侁	-12.9137
餌	-12.9137
盆	-12.9137
辵	-12.9138
姣	-12.9138
楨	-12.9138
隮	-12.9138
摠	-12.9138
豺	-12.9139
渇	-12.914
糊	-12.9141
显	-12.9146
㐳	-12.9355
徨	-12.9372
圮	-12.9373
藎	-12.9373
傚	-12.9374
啜	-12.9378
蹤	-12.9378
凂	-12.9379
餽	-12.9381
毖	-12.9381
芟	-12.9381
擲	-12.9382
狭	-12.9383
洒	-12.9384
虹	-12.9384
逭	-12.9385
届	-12.9386
蘧	-12.9387
㢤	-12.9387
欹	-12.9388
冡	-12.9388
崎	-12.9389
鵬	-12.939
燃	-12.9392
瘦	-12.9392
嗷	-12.9392
嶇	-12.9394
杰	-12.9398
宓	-12.9399
劄	-12.9402
穩	-12.9636
宂	-12.9636
縲	-12.9636
聿	-12.9637
彳	-12.9637
兕	-12.9637
紳	-12.9637
躇	-12.964
晟	-12.9641
蒂	-12.9641
躊	-12.9641
衒	-12.9645
畛	-12.9645
玦	-12.9646
倀	-12.9647
璠	-12.9648
揀	-12.9648
杲	-12.9648
砌	-12.9649
灮	-12.965
鼏	-12.965
抉	-12.9651
硏	-12.9895
荏	-12.9896
酸	-12.9897
潭	-12.99
揠	-12.9901
惴	-12.9901
徯	-12.9901
頺	-12.9901
鏃	-12.9903
涇	-12.9904
擢	-12.9904
蛤	-12.9907
劵	-12.9907
緑	-12.9908
粥	-12.9908
蠲	-12.9908
廪	-12.9909
珪	-12.9909
賑	-12.9909
軼	-12.991
鉗	-12.9912
貺	-12.992
璐	-12.9924
鑈	-13.0161
韞	-13.017
萑	-13.0172
船	-13.0174
嘵	-13.0175
燾	-13.0177
雛	-13.0177
巇	-13.0178
爨	-13.0178
饜	-13.0178
啞	-13.0179
顥	-13.0179
巔	-13.018
苻	-13.018
杼	-13.0181
懌	-13.0181
邃	-13.0181
侣	-13.0181
喟	-13.0181
亹	-13.0182
襟	-13.0183
岡	-13.0186
評	-13.0187
臍	-13.0188
犀	-13.0188
鬲	-13.0197
弌	-13.0396
;	-13.0428
廿	-13.0428
跾	-13.0439
煮	-13.0442
架	-13.0445
屮	-13.0448
嚬	-13.0449
瘥	-13.045
涌	-13.045
押	-13.0452
痕	-13.0452
遙	-13.0453
蠖	-13.0453
刼	-13.0453
汰	-13.0453
栢	-13.0453
豬	-13.0454
𥙷	-13.0455
璟	-13.0455
漂	-13.0458
儕	-13.046
溯	-13.046
晴	-13.0462
撞	-13.0463
陪	-13.0463
袍	-13.0465
纊	-13.0465
穹	-13.072
痼	-13.0725
巛	-13.0729
榜	-13.073
簣	-13.0733
叮	-13.0734
粢	-13.0735
煙	-13.0735
覧	-13.0736
轑	-13.0737
悃	-13.0737
鴞	-13.0737
潢	-13.0738
尫	-13.0738
䘏	-13.0739
兇	-13.0739
拭	-13.0739
譛	-13.074
唇	-13.0741
芬	-13.0741
訝	-13.0741
肘	-13.0741
逕	-13.0742
袵	-13.0742
繕	-13.0743
磋	-13.0744
竑	-13.0744
紬	-13.0744
髦	-13.0747
甓	-13.0749
龎	-13.075
涪	-13.075
橘	-13.0757
浟	-13.1009
柰	-13.1018
藟	-13.102
网	-13.1022
檝	-13.1023
拽	-13.1024
戠	-13.1026
頁	-13.1027
鴟	-13.1027
漲	-13.1027
觴	-13.1027
嚀	-13.1028
謳	-13.103
圄	-13.103
檜	-13.1031
㒳	-13.1031
氓	-13.1031
詖	-13.1031
廩	-13.1031
鍳	-13.1033
聪	-13.1033
㒋	-13.1033
彫	-13.1033
奭	-13.1033
嫚	-13.1034
郷	-13.1034
㸦	-13.1036
組	-13.1036
禰	-13.1036
厘	-13.1038
㳂	-13.1039
昉	-13.104
甥	-13.1041
杏	-13.1042
昳	-13.1044
琅	-13.1056
轄	-13.1304
剕	-13.1315
崙	-13.1321
糜	-13.1323
筞	-13.1324
鄢	-13.1325
换	-13.1325
􁂌	-13.1326
楹	-13.1328
脂	-13.1328
輳	-13.1328
撙	-13.1329
㬜	-13.1331
禳	-13.1331
囹	-13.1333
㮣	-13.1333
擭	-13.1333
隴	-13.1333
餱	-13.1334
鯉	-13.1334
煎	-13.1334
竦	-13.1334
竿	-13.1335
愉	-13.1336
孿	-13.1336
穡	-13.1337
吭	-13.1337
愷	-13.1338
寝	-13.1338
咏	-13.1339
兠	-13.134
飜	-13.1341
芘	-13.1341
跖	-13.1342
沓	-13.1343
㬊	-13.1343
蔕	-13.1344
罩	-13.1346
鄴	-13.1348
爕	-13.135
鑰	-13.1353
弎	-13.159
淚	-13.1633
壼	-13.1635
殳	-13.1637
醖	-13.1637
壻	-13.1639
删	-13.1641
螺	-13.1641
刵	-13.1642
縢	-13.1642
吻	-13.1643
衹	-13.1644
戛	-13.1645
卲	-13.1647
署	-13.1647
趍	-13.1647
綰	-13.1647
攖	-13.1648
罄	-13.165
撻	-13.165
剽	-13.1651
塹	-13.1652
瀘	-13.1652
郵	-13.1652
琨	-13.1652
恠	-13.1652
腨	-13.1653
座	-13.1653
荔	-13.1653
閟	-13.1653
觝	-13.1653
枵	-13.1654
糞	-13.1654
狁	-13.1655
窈	-13.1655
僩	-13.1658
虢	-13.1658
伶	-13.1659
篡	-13.1659
陜	-13.1672
􁂮	-13.1947
讚	-13.1949
鈐	-13.1951
璋	-13.1952
淄	-13.1954
敺	-13.1955
裡	-13.1959
璇	-13.196
療	-13.1961
宐	-13.1961
恙	-13.1964
醲	-13.1964
捄	-13.1965
惱	-13.1965
仭	-13.1965
蕢	-13.1965
罋	-13.1966
妍	-13.1966
􁂞	-13.1966
廊	-13.1966
蛄	-13.1967
綺	-13.1968
粱	-13.1969
狷	-13.197
倆	-13.197
簟	-13.1971
携	-13.1971
襦	-13.1971
闥	-13.1972
悚	-13.1972
胾	-13.1972
藐	-13.1973
戯	-13.1973
啇	-13.1974
捊	-13.1974
傴	-13.1975
洶	-13.1975
瀉	-13.1977
愕	-13.1977
卭	-13.1978
騶	-13.1978
內	-13.1981
昱	-13.1983
庠	-13.1987
栻	-13.1988
莆	-13.1999
顰	-13.2294
筠	-13.2295
勻	-13.2296
檷	-13.2298
蕕	-13.2299
柏	-13.2299
疋	-13.2299
倨	-13.2299
拊	-13.23
䧏	-13.23
厮	-13.2301
膜	-13.2301
蝸	-13.2302
膊	-13.2303
葭	-13.2303
虆	-13.2304
虙	-13.2304
駐	-13.2305
鍇	-13.2305
袒	-13.2305
聧	-13.2305
頣	-13.2306
隸	-13.2306
汩	-13.2307
磊	-13.2307
汐	-13.2307
侖	-13.2308
嚚	-13.2309
薇	-13.231
莠	-13.2312
腫	-13.2314
陌	-13.2314
臘	-13.2315
籀	-13.2315
讜	-13.2317
鸞	-13.2318
碌	-13.2319
葆	-13.2321
刊	-13.2323
婺	-13.233
昰	-13.2614
莾	-13.2632
趑	-13.2635
趺	-13.2636
覡	-13.2639
毓	-13.2639
醢	-13.2639
簠	-13.264
蕡	-13.2641
懵	-13.2643
頬	-13.2643
綠	-13.2644
奐	-13.2644
迤	-13.2644
蕘	-13.2645
衺	-13.2645
喧	-13.2646
猖	-13.2647
􁀕	-13.2647
閾	-13.2647
甯	-13.2648
宀	-13.2649
揔	-13.2649
旃	-13.265
㳙	-13.265
批	-13.2652
蓼	-13.2654
塲	-13.2655
聒	-13.2657
睟	-13.266
殛	-13.266
糟	-13.2661
誑	-13.2663
愴	-13.2664
抝	-13.2665
簭	-13.2666
汞	-13.2671
蹔	-13.2988
梐	-13.2989
幬	-13.299
締	-13.2995
黽	-13.2997
剠	-13.2997
錙	-13.2998
翅	-13.2998
賡	-13.2999
凹	-13.3
爆	-13.3
胖	-13.3
羶	-13.3001
卼	-13.3002
丗	-13.3003
仿	-13.3004
黏	-13.3004
罸	-13.3005
懫	-13.3005
穗	-13.3006
攴	-13.3008
揺	-13.3008
蟬	-13.3008
村	-13.3009
肫	-13.3009
曝	-13.3009
扁	-13.301
纏	-13.301
劃	-13.301
冗	-13.3011
悽	-13.3011
抒	-13.3011
愿	-13.3012
跪	-13.3013
枷	-13.3014
愍	-13.3014
紇	-13.3014
坻	-13.3014
詛	-13.3018
薳	-13.302
謚	-13.3022
咺	-13.3024
􁀆	-13.3344
觚	-13.3347
讞	-13.3357
箸	-13.3363
梟	-13.3365
窳	-13.3366
燿	-13.3368
䔧	-13.3368
薺	-13.3369
蚓	-13.3369
滙	-13.337
侗	-13.3371
淩	-13.3371
夸	-13.3371
辠	-13.3371
胙	-13.3371
竢	-13.3372
踊	-13.3373
酈	-13.3373
猗	-13.3373
鈇	-13.3373
秖	-13.3375
租	-13.3375
尟	-13.3375
喋	-13.3376
㸑	-13.3376
敇	-13.3377
溽	-13.3377
塾	-13.3378
鳶	-13.3378
􁀷	-13.3379
媮	-13.3381
劘	-13.3382
箱	-13.3382
𡵨	-13.3383
韙	-13.3383
寞	-13.3383
挟	-13.3383
蜃	-13.3384
訢	-13.3385
唾	-13.3386
愀	-13.3386
螢	-13.3387
鏘	-13.3389
皋	-13.3391
喘	-13.3391
譙	-13.3401
忼	-13.3745
嘏	-13.3745
㸷	-13.3748
㝡	-13.375
堕	-13.3751
姿	-13.3751
豭	-13.3754
娱	-13.3755
絫	-13.3756
蜂	-13.3757
濩	-13.3757
菁	-13.3757
枮	-13.3758
酩	-13.3759
祧	-13.376
狙	-13.376
鏑	-13.3761
產	-13.3761
撍	-13.3762
奬	-13.3762
嬗	-13.3763
悱	-13.3765
饕	-13.3765
魅	-13.3765
訑	-13.3765
昜	-13.3766
雊	-13.3766
滚	-13.3767
隧	-13.3768
滄	-13.3768
晞	-13.3769
􁀱	-13.377
窘	-13.377
瓊	-13.3771
惚	-13.3771
擕	-13.3771
僵	-13.3772
霓	-13.3774
焞	-13.3775
縈	-13.378
!	-13.3791
丰	-13.4139
址	-13.4147
帀	-13.4149
摯	-13.4149
媢	-13.4149
踶	-13.415
眤	-13.4151
傋	-13.4153
餉	-13.4155
韍	-13.4155
沆	-13.4156
扑	-13.4156
劫	-13.4156
桞	-13.4156
呌	-13.4157
珓	-13.4157
餔	-13.4157
冪	-13.4157
㐅	-13.4158
麒	-13.4158
纛	-13.4158
祟	-13.4159
暝	-13.416
揫	-13.416
茨	-13.416
磁	-13.4161
恝	-13.4162
蔬	-13.4163
笙	-13.4164
义	-13.4165
榛	-13.4165
兖	-13.4166
鄆	-13.4167
糅	-13.4168
麄	-13.4168
碧	-13.4168
覔	-13.4169
尖	-13.4169
臠	-13.4169
癰	-13.4171
闈	-13.4172
晡	-13.4172
坂	-13.4173
蹴	-13.4173
粕	-13.4178
牟	-13.4178
捧	-13.418
穜	-13.4199
堤	-13.4557
凴	-13.4561
墀	-13.4564
瓠	-13.4567
廼	-13.4568
鯽	-13.4568
澈	-13.4568
咫	-13.4569
峩	-13.4569
巋	-13.457
葸	-13.457
藤	-13.4571
穰	-13.4572
叫	-13.4572
漾	-13.4573
鬢	-13.4573
瀹	-13.4574
䛕	-13.4576
畦	-13.4576
幷	-13.4576
䜿	-13.4577
酊	-13.4577
筥	-13.4578
驢	-13.4578
玅	-13.4579
猿	-13.4579
紏	-13.458
雩	-13.4581
鎭	-13.4581
挍	-13.4581
摽	-13.4582
翹	-13.4584
詬	-13.4584
獺	-13.4584
旻	-13.4584
黿	-13.4585
嶺	-13.4585
婆	-13.4585
岱	-13.4586
窪	-13.4586
楮	-13.4586
憸	-13.4587
瞞	-13.4587
㳿	-13.4588
稹	-13.4588
冂	-13.4589
菩	-13.4589
諮	-13.4589
翊	-13.4595
暈	-13.4598
餼	-13.46
槀	-13.4997
砭	-13.4999
黠	-13.5
驙	-13.5001
憶	-13.5001
桴	-13.5001
藂	-13.5002
刷	-13.5004
蕰	-13.5005
酖	-13.5005
鉏	-13.5005
黥	-13.5006
斐	-13.5007
檩	-13.5007
炯	-13.5008
趦	-13.5009
諏	-13.5011
痺	-13.5012
伾	-13.5012
萹	-13.5012
牋	-13.5012
跨	-13.5013
澶	-13.5013
斛	-13.5013
彧	-13.5013
䴡	-13.5013
繭	-13.5014
仂	-13.5015
霎	-13.5015
肻	-13.5015
勦	-13.5016
粤	-13.5016
罵	-13.5017
侂	-13.5017
捫	-13.5018
彥	-13.5018
剗	-13.5018
郢	-13.502
梧	-13.502
貉	-13.502
淘	-13.502
枸	-13.5022
汭	-13.5025
黈	-13.5025
笞	-13.5027
惙	-13.5027
漳	-13.5031
曩	-13.5032
譴	-13.5033
禋	-13.5037
泚	-13.504
吠	-13.504
妊	-13.5448
貣	-13.545
煆	-13.5452
卉	-13.5453
闌	-13.5455
綫	-13.5455
輾	-13.5456
霾	-13.5456
脣	-13.5458
笫	-13.5458
寉	-13.546
馘	-13.546
龠	-13.546
稳	-13.546
躄	-13.5461
糸	-13.5461
覓	-13.5461
絺	-13.5463
筍	-13.5463
侑	-13.5463
騫	-13.5464
蹢	-13.5464
餋	-13.5465
猪	-13.5465
椒	-13.5466
咀	-13.5466
霹	-13.5467
檻	-13.5468
枘	-13.5469
梨	-13.547
糴	-13.5471
俘	-13.5471
褰	-13.5471
紋	-13.5472
跂	-13.5472
蜥	-13.5472
竞	-13.5476
耴	-13.5476
窄	-13.5476
眹	-13.5477
醬	-13.5478
嚳	-13.5479
綬	-13.548
稜	-13.5481
艶	-13.5482
街	-13.5483
倝	-13.5485
澀	-13.5485
扉	-13.5905
遟	-13.5916
獮	-13.5922
柟	-13.5928
陥	-13.593
曀	-13.5932
榰	-13.5932
訃	-13.5933
㳄	-13.5934
囗	-13.5935
觢	-13.5937
炷	-13.5938
閤	-13.5938
閙	-13.5938
淖	-13.5939
溓	-13.594
娠	-13.594
腠	-13.5941
埃	-13.5941
鐡	-13.5942
驤	-13.5943
芑	-13.5943
篗	-13.5943
瘡	-13.5944
驛	-13.5944
催	-13.5944
膴	-13.5944
軏	-13.5945
檁	-13.5945
霈	-13.5945
􁂟	-13.5946
庳	-13.5946
鸇	-13.5947
郈	-13.5947
鹤	-13.5947
疴	-13.5948
徉	-13.595
睫	-13.595
戻	-13.5951
呵	-13.5951
澁	-13.5951
縊	-13.5952
𨗳	-13.5953
棒	-13.5954
溟	-13.5955
􁀃	-13.5956
癡	-13.5956
撑	-13.5957
簾	-13.5958
窠	-13.5959
洎	-13.5959
寮	-13.5959
遒	-13.5959
衙	-13.596
鞴	-13.5961
疫	-13.5961
煽	-13.5962
𡊮	-13.5968
浙	-13.5969
齶	-13.5978
揅	-13.6414
俠	-13.642
邯	-13.6428
僇	-13.6429
砎	-13.6431
㐬	-13.6431
貲	-13.6432
墾	-13.6433
犕	-13.6433
磷	-13.6433
徭	-13.6433
簧	-13.6434
虫	-13.6434
遴	-13.6434
畮	-13.6436
㬥	-13.6436
么	-13.6436
脀	-13.6436
垤	-13.6438
􁀜	-13.6439
貟	-13.6439
絞	-13.644
拶	-13.6441
忻	-13.6441
儷	-13.6441
絆	-13.6442
塨	-13.6442
赭	-13.6443
轇	-13.6443
趋	-13.6443
椎	-13.6444
饉	-13.6444
樛	-13.6445
净	-13.6445
污	-13.6445
讖	-13.6445
湫	-13.6445
驀	-13.6446
癢	-13.6446
惹	-13.6446
倏	-13.6446
拓	-13.6446
濛	-13.6447
迕	-13.6447
燬	-13.6448
淅	-13.6448
欄	-13.6449
劬	-13.6449
砂	-13.645
㵼	-13.6451
贑	-13.6452
脇	-13.6452
募	-13.6453
鞍	-13.6456
睨	-13.6456
禧	-13.6457
慟	-13.6459
慆	-13.6459
丿	-13.6465
邜	-13.6467
袠	-13.6468
央	-13.6756
軵	-13.6941
咮	-13.6944
􁀛	-13.6947
嫓	-13.6948
尃	-13.6955
㬰	-13.6957
伴	-13.6958
拄	-13.6958
蓧	-13.696
昶	-13.696
嫂	-13.6962
䞇	-13.6962
幄	-13.6963
插	-13.6964
葘	-13.6964
茶	-13.6964
櫟	-13.6964
彡	-13.6964
团	-13.6965
淇	-13.6965
抖	-13.6966
綮	-13.6966
鼂	-13.6967
岩	-13.6967
褁	-13.6967
螫	-13.6967
僿	-13.6968
㤀	-13.6968
罣	-13.6968
刓	-13.6969
祲	-13.6969
踴	-13.697
淤	-13.6971
轢	-13.6971
靂	-13.6971
硯	-13.6971
皦	-13.6973
祸	-13.6973
礎	-13.6975
蝀	-13.6975
豨	-13.6975
戱	-13.6975
抹	-13.6976
􁀑	-13.6977
佗	-13.6978
璀	-13.698
慷	-13.6981
喩	-13.6982
稂	-13.6982
殯	-13.6983
皂	-13.6984
毘	-13.6984
逍	-13.6986
俚	-13.6989
俸	-13.6992
㫺	-13.6994
湍	-13.6995
歿	-13.7003
巻	-13.7004
飼	-13.7504
冑	-13.7506
萎	-13.7508
堭	-13.751
症	-13.7513
妒	-13.7513
盼	-13.7514
涘	-13.7514
戞	-13.7515
譆	-13.7515
荻	-13.7515
渟	-13.7515
枲	-13.7516
斫	-13.7517
箝	-13.7517
侀	-13.7518
臬	-13.7518
菟	-13.7518
郛	-13.7519
闘	-13.7519
窕	-13.7519
戦	-13.752
尒	-13.752
胂	-13.752
譯	-13.7521
扳	-13.7521
膈	-13.7521
瘵	-13.7522
諶	-13.7522
呴	-13.7523
叵	-13.7523
凈	-13.7524
厪	-13.7524
貮	-13.7524
轕	-13.7524
濺	-13.7525
澂	-13.7526
髭	-13.7526
腆	-13.7526
茁	-13.7526
扆	-13.7526
蜮	-13.7526
豖	-13.7527
肴	-13.7527
􁁒	-13.7528
鞫	-13.7528
晬	-13.7528
怏	-13.7528
犠	-13.7529
魋	-13.7529
祜	-13.7529
爝	-13.7529
堵	-13.7529
髯	-13.753
詡	-13.753
㽦	-13.753
肈	-13.753
槐	-13.7531
璜	-13.7531
笱	-13.7531
糝	-13.7531
玁	-13.7532
捩	-13.7533
鍛	-13.7533
陘	-13.7533
筓	-13.7534
闖	-13.7534
濃	-13.7534
愜	-13.7535
䭈	-13.7535
愾	-13.7535
桉	-13.7536
棐	-13.7537
窣	-13.7538
勣	-13.7539
扛	-13.7539
瞍	-13.754
珮	-13.754
泠	-13.7546
賻	-13.7547
翠	-13.7564
玠	-13.7569
􁁔	-13.8085
厂	-13.8087
栝	-13.8096
枋	-13.8097
嗤	-13.8097
眂	-13.81
湼	-13.81
雈	-13.81
筦	-13.8101
臚	-13.8101
矻	-13.8102
鄲	-13.8102
氛	-13.8102
蠆	-13.8103
湥	-13.8103
峨	-13.8104
醮	-13.8104
堙	-13.8104
敲	-13.8106
垠	-13.8106
佼	-13.8106
橐	-13.8107
肸	-13.8108
諜	-13.8108
妲	-13.8109
擻	-13.8109
尠	-13.811
礴	-13.811
琛	-13.811
綦	-13.811
璽	-13.811
洚	-13.8111
雹	-13.8111
恧	-13.8111
訥	-13.8112
酋	-13.8112
筯	-13.8112
蓐	-13.8112
囱	-13.8113
媯	-13.8113
狽	-13.8113
珂	-13.8113
璿	-13.8114
懶	-13.8115
䆳	-13.8116
麴	-13.8116
糗	-13.8116
鄣	-13.8116
娯	-13.8117
泆	-13.8117
嵬	-13.8117
眱	-13.8117
㤙	-13.8118
頋	-13.8119
埽	-13.8119
笏	-13.8119
牘	-13.812
𥙿	-13.8121
誾	-13.8121
﨑	-13.8122
鍰	-13.8122
婤	-13.8122
裸	-13.8123
鄂	-13.8124
彀	-13.8124
摺	-13.8125
輦	-13.8125
脞	-13.8125
馥	-13.8126
阡	-13.8126
蜴	-13.8127
霤	-13.8127
歾	-13.8127
兜	-13.8129
詈	-13.813
瓘	-13.813
犴	-13.8133
檄	-13.8134
浦	-13.8137
皁	-13.8138
罏	-13.8139
冫	-13.8151
􁀂	-13.871
罡	-13.871
􁀥	-13.8714
􁀚	-13.8715
輓	-13.8719
孛	-13.872
顨	-13.8722
礿	-13.8722
厝	-13.8722
黚	-13.8723
鍜	-13.8723
絏	-13.8724
吃	-13.8725
瓉	-13.8725
娩	-13.8726
蹠	-13.8727
萇	-13.8727
嬬	-13.8727
剃	-13.8728
卸	-13.8728
凭	-13.8728
鷺	-13.8729
噲	-13.8729
堲	-13.873
醯	-13.8731
讋	-13.8732
錐	-13.8733
磅	-13.8733
膘	-13.8733
衽	-13.8734
啐	-13.8734
㠯	-13.8734
彎	-13.8734
犁	-13.8734
鬛	-13.8735
衾	-13.8735
蜉	-13.8736
莩	-13.8737
眎	-13.8737
眸	-13.8738
淋	-13.8738
塌	-13.8738
􁁉	-13.8739
晃	-13.8739
􁀖	-13.8739
觜	-13.8739
鷂	-13.8739
嫗	-13.874
櫛	-13.874
𣺌	-13.8741
痿	-13.8741
齪	-13.8741
愒	-13.8742
頯	-13.8742
幺	-13.8742
攄	-13.8742
拗	-13.8743
覉	-13.8743
䢷	-13.8743
慣	-13.8743
炮	-13.8743
旭	-13.8744
敞	-13.8744
邴	-13.8744
􁁌	-13.8744
丼	-13.8744
霣	-13.8744
􁂳	-13.8745
迓	-13.8745
絰	-13.8746
讙	-13.8746
矇	-13.8747
姶	-13.8748
蔭	-13.8748
炤	-13.8748
懣	-13.8748
劾	-13.8749
篝	-13.8749
冄	-13.875
寬	-13.8751
朵	-13.8752
縝	-13.8753
籖	-13.8755
􁁄	-13.8761
埶	-13.8762
潼	-13.8765
棊	-13.8769
装	-13.8771
虔	-13.879
􁀄	-13.9339
焕	-13.938
夹	-13.9384
攫	-13.9389
扎	-13.9389
蟾	-13.9391
擺	-13.9391
甜	-13.9393
幃	-13.9393
夥	-13.9394
靦	-13.9395
挎	-13.9396
儿	-13.9396
蚊	-13.9398
䕻	-13.9399
萋	-13.9399
䨇	-13.94
膞	-13.94
蘄	-13.9401
逑	-13.9401
祻	-13.9402
惨	-13.9402
鄏	-13.9403
莢	-13.9403
术	-13.9404
葅	-13.9405
鵙	-13.9405
懃	-13.9405
帑	-13.9405
癥	-13.9405
賙	-13.9406
嚢	-13.9406
跗	-13.9407
熬	-13.9407
邐	-13.9408
蚋	-13.9408
簫	-13.9408
橛	-13.9408
諳	-13.941
璘	-13.941
瘝	-13.941
浣	-13.9411
㩼	-13.9411
剩	-13.9412
糠	-13.9412
踖	-13.9412
卩	-13.9412
貍	-13.9412
麀	-13.9412
瀝	-13.9413
拉	-13.9414
掾	-13.9415
体	-13.9415
筒	-13.9415
掀	-13.9416
􁁖	-13.9416
袪	-13.9417
曌	-13.9419
綃	-13.9419
搭	-13.9419
踪	-13.9419
絓	-13.942
憒	-13.942
馯	-13.942
漕	-13.9422
侏	-13.9427
鑪	-13.9437
駰	-13.9439
殂	-13.9441
鋟	-13.9444
尩	-14.0092
朏	-14.0093
猩	-14.0094
􁀟	-14.0094
絅	-14.0098
陡	-14.01
廚	-14.01
瞳	-14.01
鄫	-14.0102
鏵	-14.0105
腳	-14.0106
詀	-14.0107
訿	-14.0107
莪	-14.0108
涊	-14.0109
款	-14.0109
􁃟	-14.0109
籟	-14.0109
徬	-14.011
町	-14.011
慇	-14.0111
淊	-14.0112
癉	-14.0112
賃	-14.0112
儵	-14.0112
鏤	-14.0112
芃	-14.0113
畣	-14.0113
蹂	-14.0113
跼	-14.0113
稈	-14.0113
梱	-14.0114
犗	-14.0114
柎	-14.0115
蹐	-14.0115
琥	-14.0115
屣	-14.0116
蟋	-14.0116
蟀	-14.0116
婭	-14.0116
譁	-14.0117
瑾	-14.0117
郟	-14.0117
緱	-14.0117
詿	-14.0117
馰	-14.0117
姉	-14.0118
澣	-14.0118
奨	-14.0118
儱	-14.0118
疉	-14.0119
荂	-14.0119
鍔	-14.0119
眡	-14.0119
攔	-14.0119
夐	-14.012
讃	-14.012
惲	-14.0121
櫽	-14.0121
秊	-14.0121
殲	-14.0122
皡	-14.0122
苓	-14.0122
購	-14.0122
蝨	-14.0122
鼉	-14.0123
夣	-14.0123
伉	-14.0123
旰	-14.0123
諴	-14.0125
曦	-14.0126
􁀝	-14.0126
獫	-14.0126
瑶	-14.0127
緡	-14.0127
糺	-14.0127
屡	-14.0128
痌	-14.0129
峽	-14.0129
廐	-14.013
梢	-14.0131
韵	-14.0131
蝃	-14.0131
孶	-14.0131
錬	-14.0131
鯁	-14.0132
撕	-14.0132
觳	-14.0133
陬	-14.0135
鴨	-14.0135
魑	-14.0135
凄	-14.0139
扃	-14.0145
葺	-14.0145
眠	-14.0147
撒	-14.0148
漶	-14.015
臓	-14.0162
韥	-14.0823
踝	-14.0857
鷇	-14.0866
牂	-14.0867
􁀗	-14.0867
􁅪	-14.0867
醎	-14.0867
澍	-14.0867
藺	-14.087
􁅰	-14.0871
呶	-14.0873
岠	-14.0874
䩉	-14.0874
佾	-14.0875
蓊	-14.0875
耔	-14.0876
軔	-14.0876
孱	-14.0877
傒	-14.0877
窻	-14.0877
蟆	-14.0877
䏶	-14.0878
蛾	-14.0878
脃	-14.0879
㓷	-14.0879
瞶	-14.0879
匣	-14.088
偲	-14.088
澳	-14.088
眺	-14.088
蜺	-14.088
腋	-14.088
盇	-14.0881
蝣	-14.0881
踧	-14.0882
鄠	-14.0882
憔	-14.0882
囷	-14.0882
菓	-14.0882
洄	-14.0883
窽	-14.0884
犨	-14.0884
巵	-14.0884
糵	-14.0885
滸	-14.0885
楝	-14.0885
豔	-14.0886
湟	-14.0886
輗	-14.0887
誹	-14.0887
祔	-14.0887
踣	-14.0887
撿	-14.0888
謔	-14.0888
勹	-14.0888
券	-14.0889
鶩	-14.0889
虬	-14.089
盻	-14.089
拚	-14.089
邶	-14.0891
䂓	-14.0891
羆	-14.0891
䖝	-14.0891
舘	-14.0893
珥	-14.0893
豿	-14.0893
翌	-14.0893
薈	-14.0893
餮	-14.0895
航	-14.0895
鱄	-14.0895
杻	-14.0895
啗	-14.0896
蝟	-14.0897
斆	-14.0897
烱	-14.0897
晶	-14.0897
跣	-14.0897
渗	-14.0897
帚	-14.0898
幂	-14.0898
贗	-14.0898
渢	-14.0898
𢃄	-14.0898
磕	-14.0899
狸	-14.0899
㕓	-14.0899
麛	-14.09
衂	-14.0901
靱	-14.0901
邸	-14.0901
襞	-14.0902
尨	-14.0902
雋	-14.0903
闞	-14.0904
憝	-14.0905
篋	-14.0906
趕	-14.0906
蜩	-14.0906
渤	-14.0906
甒	-14.0908
蠕	-14.0909
菖	-14.091
蒍	-14.0912
𠫭	-14.0912
窆	-14.0913
狴	-14.0913
嘑	-14.0916
昕	-14.092
崧	-14.0926
眾	-14.0948
韇	-14.1667
羹	-14.1681
缻	-14.1685
萈	-14.1687
緬	-14.1691
穯	-14.1692
耓	-14.1695
蜍	-14.1697
榘	-14.1699
复	-14.1699
菅	-14.17
拍	-14.17
䂊	-14.1701
冤	-14.1702
棿	-14.1706
涅	-14.1707
螣	-14.1708
淟	-14.1708
螟	-14.1708
掬	-14.171
隈	-14.1711
𧖟	-14.1711
輊	-14.1711
軆	-14.1711
㦁	-14.1712
冣	-14.1712
幪	-14.1712
浼	-14.1712
籕	-14.1713
槎	-14.1713
澌	-14.1713
韠	-14.1714
羖	-14.1714
劊	-14.1714
岑	-14.1714
媟	-14.1714
㐮	-14.1715
煢	-14.1715
圑	-14.1716
烙	-14.1716
瞾	-14.1716
藿	-14.1716
熿	-14.1716
斿	-14.1717
匙	-14.1717
􁂖	-14.1717
瀰	-14.1719
姝	-14.1719
珀	-14.1719
醋	-14.1719
漑	-14.172
麕	-14.172
偵	-14.1721
彜	-14.1721
䖟	-14.1721
簸	-14.1721
顱	-14.1721
􁃧	-14.1722
犝	-14.1722
蓮	-14.1722
䲭	-14.1722
傕	-14.1722
臝	-14.1722
膩	-14.1722
閶	-14.1722
萍	-14.1723
嘲	-14.1723
􁀫	-14.1723
鄘	-14.1723
痞	-14.1724
牒	-14.1724
唘	-14.1724
袤	-14.1724
揷	-14.1725
𥚹	-14.1725
疣	-14.1726
譊	-14.1726
隉	-14.1727
慼	-14.1727
泓	-14.1728
哂	-14.1728
殤	-14.1728
慥	-14.1729
勛	-14.1729
榻	-14.1729
𣲖	-14.173
潞	-14.173
􁀤	-14.1731
套	-14.1731
諗	-14.1731
坫	-14.1732
礫	-14.1732
頫	-14.1732
剙	-14.1733
喈	-14.1734
弣	-14.1734
遹	-14.1736
㽞	-14.1736
􁀎	-14.1737
扭	-14.1738
躳	-14.174
宸	-14.174
窗	-14.1741
碭	-14.1743
屍	-14.1744
窩	-14.1744
儌	-14.1744
棫	-14.1744
湜	-14.1748
庀	-14.1749
焄	-14.1751
惘	-14.1755
洼	-14.1755
磚	-14.1762
鞟	-14.1763
『	-14.1769
』	-14.1769
鎻	-14.1769
斖	-14.2532
頦	-14.2596
掦	-14.2608
蹷	-14.2608
䦙	-14.2613
齕	-14.2613
廋	-14.2614
諝	-14.2616
遶	-14.2617
鶵	-14.2617
礲	-14.2617
淬	-14.2618
胝	-14.2618
胼	-14.2618
叄	-14.2618
莨	-14.2618
琯	-14.2619
譸	-14.262
賸	-14.2621
幘	-14.2621
甦	-14.2621
帳	-14.2621
欎	-14.2622
浥	-14.2622
歜	-14.2622
攪	-14.2623
鯤	-14.2623
窿	-14.2624
墊	-14.2624
謇	-14.2625
褓	-14.2625
襁	-14.2625
叐	-14.2625
荐	-14.2626
跲	-14.2626
涗	-14.2626
䌕	-14.2626
塡	-14.2626
蛻	-14.2626
爚	-14.2627
峭	-14.2627
愞	-14.2627
寰	-14.2628
紉	-14.2628
簴	-14.2628
𣏌	-14.2628
枿	-14.2629
叨	-14.2629
齷	-14.2629
趂	-14.2629
秤	-14.2629
覷	-14.263
訏	-14.263
嗅	-14.263
恎	-14.263
欛	-14.263
泐	-14.2631
淝	-14.2631
棜	-14.2631
朒	-14.2631
𤦺	-14.2631
粧	-14.2632
鵞	-14.2632
遰	-14.2632
菀	-14.2632
魔	-14.2632
痒	-14.2633
旛	-14.2633
丐	-14.2633
聶	-14.2633
嵎	-14.2633
緻	-14.2634
楺	-14.2634
鰌	-14.2634
齦	-14.2635
蜕	-14.2635
嘁	-14.2635
簷	-14.2635
􁂢	-14.2635
絿	-14.2636
亖	-14.2636
樁	-14.2636
袚	-14.2636
篾	-14.2637
叱	-14.2637
胆	-14.2637
阞	-14.2637
漚	-14.2637
觕	-14.2637
檟	-14.2638
俶	-14.2638
眢	-14.2638
拮	-14.2639
犇	-14.2639
㚃	-14.264
䋽	-14.2641
悵	-14.2641
碁	-14.2641
禨	-14.2642
灋	-14.2643
凾	-14.2643
罝	-14.2643
淂	-14.2643
浃	-14.2643
琦	-14.2643
拏	-14.2644
賵	-14.2644
癘	-14.2644
彗	-14.2644
曇	-14.2645
煑	-14.2645
涿	-14.2645
㟁	-14.2645
嘔	-14.2647
煨	-14.2647
藨	-14.2648
謄	-14.2649
怱	-14.265
蓺	-14.265
揑	-14.265
魴	-14.265
梵	-14.265
瑄	-14.2651
劌	-14.2651
卣	-14.2651
𠡠	-14.2654
雚	-14.2655
牣	-14.2655
亁	-14.2658
喆	-14.2662
嫠	-14.2663
癭	-14.2666
聆	-14.2678
埳	-14.3585
㕛	-14.3611
窬	-14.3612
濘	-14.3616
䠶	-14.3616
鷗	-14.3616
陗	-14.3617
骹	-14.3617
憩	-14.3617
凊	-14.3618
綳	-14.3618
諠	-14.3618
嵓	-14.3619
滃	-14.3619
諐	-14.3619
諼	-14.362
带	-14.362
䇓	-14.362
皐	-14.362
搔	-14.362
𤱔	-14.3621
煅	-14.3621
慱	-14.3622
讟	-14.3622
壙	-14.3622
廆	-14.3622
蝗	-14.3622
殪	-14.3622
芼	-14.3623
聵	-14.3624
虣	-14.3624
㲄	-14.3624
帡	-14.3625
騏	-14.3625
飴	-14.3625
顺	-14.3625
瞀	-14.3625
俔	-14.3626
嶷	-14.3626
􁀋	-14.3626
杉	-14.3626
弜	-14.3626
紿	-14.3627
篐	-14.3627
柞	-14.3627
郯	-14.3627
楯	-14.3628
歘	-14.3628
踽	-14.3628
狊	-14.3628
稾	-14.3628
禺	-14.3628
踟	-14.3628
牕	-14.3628
仌	-14.3629
攏	-14.3629
刮	-14.363
勠	-14.363
嗌	-14.363
訒	-14.3631
滎	-14.3631
贓	-14.3631
酧	-14.3631
錘	-14.3632
岵	-14.3632
㩀	-14.3633
媺	-14.3633
艷	-14.3633
炬	-14.3634
㫃	-14.3634
駘	-14.3634
磻	-14.3635
倩	-14.3635
礥	-14.3636
媸	-14.3636
噎	-14.3637
墦	-14.3637
擘	-14.3637
櫓	-14.3638
齗	-14.3638
匀	-14.3638
緦	-14.3639
儋	-14.3639
翾	-14.3639
沂	-14.3639
麯	-14.3639
圻	-14.364
駝	-14.364
爱	-14.364
鼗	-14.3641
埀	-14.3641
骼	-14.3642
匐	-14.3642
駑	-14.3642
裾	-14.3643
騑	-14.3643
氾	-14.3643
偈	-14.3643
絕	-14.3644
汽	-14.3645
詫	-14.3646
駱	-14.3646
耏	-14.3647
巘	-14.3647
剟	-14.3648
䮾	-14.3648
燐	-14.3649
螂	-14.3649
娑	-14.365
蘂	-14.365
鯨	-14.365
􁃭	-14.3651
嗔	-14.3652
鉶	-14.3653
謖	-14.3654
帤	-14.3655
􁀵	-14.3656
笈	-14.3659
竣	-14.3661
蹻	-14.3664
闓	-14.3664
竽	-14.4687
㳫	-14.4709
掔	-14.4713
杠	-14.4714
侫	-14.4717
媪	-14.4719
葱	-14.4722
洧	-14.4722
癯	-14.4722
姙	-14.4725
寷	-14.4726
搬	-14.4726
綵	-14.4726
裼	-14.4726
蜯	-14.4727
肄	-14.4728
啣	-14.4728
溶	-14.4728
腢	-14.4729
廏	-14.4729
撐	-14.4729
搴	-14.4729
壎	-14.4731
窶	-14.4732
攧	-14.4732
衖	-14.4732
苕	-14.4733
櫂	-14.4733
坰	-14.4735
畺	-14.4735
亙	-14.4735
渣	-14.4735
籜	-14.4735
歧	-14.4736
溈	-14.4736
禅	-14.4736
愔	-14.4737
仝	-14.4737
喑	-14.4737
嚶	-14.4738
弢	-14.4738
楓	-14.4738
抔	-14.4739
敉	-14.4739
叀	-14.474
䦨	-14.474
紘	-14.474
蟜	-14.4741
倞	-14.4741
杘	-14.4742
汸	-14.4742
膾	-14.4742
廾	-14.4742
弸	-14.4742
楞	-14.4743
翛	-14.4743
磈	-14.4743
溜	-14.4743
䑓	-14.4743
凸	-14.4743
紕	-14.4743
獪	-14.4743
咲	-14.4744
皞	-14.4744
幟	-14.4745
坷	-14.4745
弰	-14.4745
眯	-14.4746
羑	-14.4747
薙	-14.4748
妆	-14.4748
瓣	-14.4748
䧺	-14.4748
粃	-14.4748
嘷	-14.4748
淸	-14.4749
煴	-14.4749
崛	-14.475
晤	-14.4751
岷	-14.4751
塼	-14.4752
瞢	-14.4753
㕔	-14.4753
哥	-14.4754
獯	-14.4754
唤	-14.4754
槧	-14.4755
描	-14.4755
匍	-14.4756
戅	-14.4756
柘	-14.4756
珙	-14.4757
朿	-14.4757
怫	-14.4757
衲	-14.4759
嫩	-14.476
琪	-14.476
脹	-14.4761
昞	-14.4761
歬	-14.4761
絹	-14.4763
罃	-14.4765
涬	-14.4766
亍	-14.4766
媍	-14.4766
伋	-14.4768
訕	-14.4769
啖	-14.4771
瑛	-14.4772
焱	-14.4773
璹	-14.4778
甡	-14.4778
汀	-14.4778
㽟	-14.4781
㡯	-14.4802
宙	-14.5989
輶	-15.3585
騵	-15.3586
妁	-15.3587
齟	-15.3588
硜	-15.3589
睎	-15.359
邂	-15.359
