<unk>	0
<s>	0
</s>	0
之	-4.19049
(	-4.69966
書	-4.95557
有	-5.02494
而	-5.07434
為	-5.08255
以	-5.10982
其	-5.13153
不	-5.14591
/	-5.15354
一	-5.19815
也	-5.21653
人	-5.22164
者	-5.33172
/)	-5.35937
)	-5.42752
中	-5.55945
畫	-5.5638
於	-5.59064
字	-5.59608
圖	-5.65571
無	-5.71659
文	-5.72107
王	-5.743
此	-5.77331
子	-5.79612
山	-5.82937
作	-5.87605
自	-5.89139
如	-5.89513
公	-5.92122
大	-5.92877
在	-5.94078
得	-5.94319
與	-5.96252
則	-5.98975
上	-6.02484
時	-6.02658
行	-6.03916
云	-6.06296
又	-6.10391
見	-6.1173
是	-6.11746
三	-6.12492
所	-6.14922
二	-6.15336
亦	-6.15693
然	-6.18193
筆	-6.18202
名	-6.19689
天	-6.20239
詩	-6.20676
曰	-6.20848
後	-6.21954
道	-6.23343
古	-6.24793
帖	-6.25674
張	-6.2835
家	-6.28484
長	-6.28802
可	-6.30209
矣	-6.30342
日	-6.30782
出	-6.31016
唐	-6.31298
至	-6.3388
下	-6.33982
石	-6.34164
皆	-6.35048
知	-6.35109
元	-6.35172
故	-6.35673
生	-6.36128
多	-6.37151
髙	-6.37659
雲	-6.38061
今	-6.38323
相	-6.38595
若	-6.39277
水	-6.39743
世	-6.40593
風	-6.40657
本	-6.40746
李	-6.44216
于	-6.44328
明	-6.44641
宋	-6.44857
意	-6.45559
題	-6.47473
法	-6.48004
事	-6.48843
清	-6.49179
成	-6.49327
言	-6.49941
非	-6.50136
卷	-6.50432
重	-6.51654
學	-6.52117
四	-6.52531
能	-6.52836
心	-6.5363
乃	-6.55396
▁	-6.56074
真	-6.56219
君	-6.59001
)(	-6.59254
何	-6.60219
氏	-6.60929
用	-6.61915
深	-6.62907
師	-6.63235
方	-6.63291
花	-6.63308
前	-6.64174
小	-6.64709
來	-6.65395
五	-6.65522
同	-6.66628
記	-6.67535
傳	-6.68156
正	-6.68561
已	-6.68685
及	-6.68841
碑	-6.68961
善	-6.70213
復	-6.70901
玉	-6.7258
觀	-6.7392
余	-6.74343
未	-6.76013
老	-6.76193
經	-6.7621
南	-6.77536
右	-6.77591
當	-6.77981
入	-6.77994
宗	-6.78099
陳	-6.78195
竹	-6.78291
欲	-6.78587
神	-6.78865
歸	-6.79018
春	-6.79361
間	-6.79676
耳	-6.7971
金	-6.80128
江	-6.80692
年	-6.81268
白	-6.81342
去	-6.8187
或	-6.8193
林	-6.82145
州	-6.82846
龍	-6.83787
平	-6.83794
雖	-6.84843
秋	-6.85555
集	-6.85567
東	-6.85683
兩	-6.85914
謂	-6.86777
工	-6.86821
臣	-6.87904
逺	-6.88109
初	-6.88736
處	-6.89616
手	-6.91238
月	-6.91294
乎	-6.91653
寫	-6.91747
從	-6.91765
黄	-6.92279
安	-6.92921
因	-6.932
思	-6.93291
馬	-6.94548
草	-6.94926
門	-6.95069
體	-6.95558
六	-6.9595
居	-6.96095
分	-6.97599
光	-6.98709
周	-6.98883
過	-6.99133
仲	-6.99371
惟	-7.00048
印	-7.00165
少	-7.00358
絶	-7.00637
精	-7.00803
諸	-7.01063
士	-7.02144
墨	-7.02339
稱	-7.02799
景	-7.02806
陽	-7.02839
圖一	-7.02948
獨	-7.03198
先	-7.04071
數	-7.04503
論	-7.04647
臨	-7.05434
志	-7.05633
使	-7.06477
國	-7.06926
物	-7.07261
西	-7.08129
似	-7.08293
九	-7.08901
劉	-7.09237
吾	-7.09857
伯	-7.10376
華	-7.10407
官	-7.10743
雨	-7.11067
令	-7.1111
雪	-7.11197
氣	-7.11707
流	-7.1181
外	-7.12208
趙	-7.13196
識	-7.13377
即	-7.13459
異	-7.14086
通	-7.14412
盡	-7.14676
我	-7.15296
聞	-7.15346
萬	-7.15592
遂	-7.16
甚	-7.16258
妙	-7.16618
和	-7.1674
夫	-7.16846
嘗	-7.17256
史	-7.17959
好	-7.18085
尚	-7.18473
漢	-7.18987
合	-7.19903
父	-7.19903
朝	-7.20109
立	-7.203
焉	-7.20691
孫	-7.2106
幅	-7.21253
不可	-7.22444
徳	-7.22685
章	-7.22714
豈	-7.22936
定	-7.23233
八	-7.23392
松	-7.24044
堂	-7.24073
紙	-7.24411
色	-7.24528
予	-7.24592
開	-7.24831
取	-7.25479
山水	-7.25551
語	-7.26439
興	-7.27239
晉	-7.27859
目	-7.27997
應	-7.28001
楊	-7.28202
樹	-7.28302
猶	-7.28549
武	-7.28838
常	-7.28961
新	-7.28971
藏	-7.29353
始	-7.29475
凡	-7.29663
竒	-7.29719
樂	-7.29755
極	-7.30115
飛	-7.30199
直	-7.30462
朱	-7.30583
先生	-7.30695
青	-7.31235
七	-7.31914
落	-7.31971
吳	-7.31973
起	-7.32053
勝	-7.32053
寒	-7.32092
聲	-7.32099
寳	-7.32383
十	-7.32851
近	-7.33143
刻	-7.33381
百	-7.33408
餘	-7.33507
難	-7.33988
圗	-7.34025
寺	-7.34252
舊	-7.34337
將	-7.34629
必	-7.34829
賢	-7.349
空	-7.35231
齋	-7.35395
仙	-7.35515
銘	-7.35644
哉	-7.3568
地	-7.35752
不能	-7.35916
著	-7.35923
求	-7.36744
海	-7.36803
别	-7.37067
等	-7.37251
遺	-7.37723
號	-7.37971
易	-7.38707
高	-7.3926
形	-7.39396
足	-7.39902
實	-7.40272
千	-7.40433
内	-7.40473
溪	-7.4102
宜	-7.41447
情	-7.41765
力	-7.42028
僧	-7.42565
佳	-7.42571
像	-7.44416
素	-7.44761
存	-7.44947
問	-7.45064
信	-7.45069
節	-7.45568
且	-7.45674
逸	-7.46305
太	-7.46395
夜	-7.4675
卿	-7.46759
頭	-7.46791
既	-7.47333
廣	-7.47397
夏	-7.47741
更	-7.47745
客	-7.4799
葉	-7.49011
梁	-7.49177
度	-7.49469
徐	-7.49984
望	-7.50598
並	-7.50662
城	-7.51095
跋	-7.51668
還	-7.51859
録	-7.52092
理	-7.52938
陸	-7.53193
木	-7.53252
爾	-7.53493
首	-7.53571
美	-7.53644
器	-7.54026
品	-7.54883
翁	-7.54979
命	-7.55158
釋	-7.55299
致	-7.55333
俗	-7.55428
游	-7.55503
以為	-7.55802
酒	-7.5586
賦	-7.56079
許	-7.5668
北	-7.56686
兮	-7.56779
顧	-7.57047
須	-7.57063
左	-7.57083
鼎	-7.57186
容	-7.57625
身	-7.58017
發	-7.58136
次	-7.58563
永	-7.58568
進	-7.58603
軸	-7.58696
尤	-7.59408
香	-7.59751
留	-7.59773
坐	-7.60435
敬	-7.60459
變	-7.60465
祖	-7.60555
端	-7.60565
載	-7.60579
都	-7.60626
兼	-7.60734
莫	-7.6104
全	-7.61113
闕	-7.61298
帝	-7.61628
愛	-7.61708
篆	-7.61778
謝	-7.61846
雅	-7.63272
但	-7.63436
閣	-7.63497
叔	-7.63524
喜	-7.63545
𤣥	-7.64375
義	-7.6449
奉	-7.64742
承	-7.64757
聖	-7.6507
行書	-7.65221
壁	-7.65397
女	-7.65727
圖二	-7.65734
功	-7.65957
泉	-7.65958
勢	-7.66043
簡	-7.66117
各	-7.66297
失	-7.66314
寶	-7.66968
俱	-7.67099
草書	-7.67146
具	-7.67184
不知	-7.67491
横	-7.67673
閒	-7.68204
㑹	-7.68388
沈	-7.68474
禮	-7.68569
秀	-7.68747
宫	-7.68914
野	-7.69421
良	-7.69654
歌	-7.69701
要	-7.69877
終	-7.69941
嵗	-7.70097
貴	-7.70432
呉	-7.70461
固	-7.70568
便	-7.70649
才	-7.70696
齊	-7.70864
蘇	-7.70935
亭	-7.71113
比	-7.71192
半	-7.71222
對	-7.71459
轉	-7.71796
斯	-7.71846
修	-7.72096
類	-7.72135
畵	-7.72392
象	-7.72645
忠	-7.72689
府	-7.72798
滿	-7.72844
原	-7.72866
枝	-7.73093
蓋	-7.732
衣	-7.73435
人物	-7.73529
孝	-7.73683
友	-7.7385
舉	-7.73878
每	-7.74189
仁	-7.74397
靈	-7.74826
誰	-7.76245
特	-7.76414
表	-7.76593
撰	-7.76844
魏	-7.76852
看	-7.77469
并	-7.77472
葢	-7.77499
田	-7.77593
向	-7.77624
微	-7.77935
幽	-7.77984
波	-7.78299
秦	-7.78516
輕	-7.78803
尊	-7.794
蕭	-7.79438
/)(	-7.79585
摹	-7.79695
久	-7.79825
夢	-7.79867
隨	-7.80088
益	-7.8018
昔	-7.80366
耶	-7.80489
錢	-7.80597
最	-7.80613
動	-7.81126
皇	-7.81354
右軍	-7.8155
韓	-7.81874
舟	-7.82275
塵	-7.82311
下有	-7.82537
一卷	-7.82786
細	-7.83295
魚	-7.83851
親	-7.84039
宣	-7.84124
指	-7.8451
季	-7.84918
杜	-7.85713
臺	-7.86244
書畫	-7.86432
後有	-7.86461
羣	-7.8654
幾	-7.86679
疑	-7.86785
盖	-7.86817
按	-7.87016
代	-7.87029
止	-7.8731
到	-7.87369
雙	-7.87436
骨	-7.87629
院	-7.87964
序	-7.88171
主	-7.88588
共	-7.88599
湖	-7.88889
鶴	-7.8907
烟	-7.89489
殊	-7.89673
侯	-7.8969
散	-7.89706
韻	-7.89943
性	-7.90021
賜	-7.90022
民	-7.90284
郎	-7.90354
賞	-7.90522
面	-7.90638
遊	-7.91602
曹	-7.91638
陵	-7.91664
贈	-7.91697
顔	-7.91996
碧	-7.92021
母	-7.92089
守	-7.92277
曲	-7.9264
末	-7.92662
登	-7.92829
古人	-7.93192
衆	-7.93267
造	-7.93472
孟	-7.93548
雜	-7.93744
翠	-7.94139
殿	-7.94356
樓	-7.95045
考	-7.95783
郡	-7.96042
想	-7.96085
誠	-7.96183
露	-7.96264
昌	-7.96313
希	-7.9656
爲	-7.96687
虎	-7.9672
巖	-7.96768
醉	-7.96943
辭	-7.96983
蘭	-7.97328
佛	-7.97773
此卷	-7.97972
胡	-7.98117
懐	-7.984
池	-7.9853
垂	-7.9864
解	-7.98684
縣	-7.98711
米	-7.99253
真蹟	-7.99355
列	-7.99452
軒	-7.99859
盛	-7.99896
所謂	-7.9992
虚	-8
放	-8.00039
連	-8.00087
詞	-8.00351
授	-8.00408
勁	-8.00463
英	-8.00527
如此	-8.00715
弟	-8.00718
虞	-8.00788
昭	-8.00932
鍾	-8.01054
計	-8.01174
謹	-8.0123
路	-8.0137
照	-8.01628
慶	-8.01757
寄	-8.01878
持	-8.01921
而不	-8.01948
孤	-8.02481
屋	-8.02893
頗	-8.02959
辨	-8.03203
鄭	-8.0329
筆法	-8.03364
教	-8.03726
室	-8.04094
㸃	-8.04408
蒼	-8.04577
口	-8.04691
幸	-8.04718
制	-8.0481
拜	-8.04949
迹	-8.05079
化	-8.05197
建	-8.05428
梅	-8.05484
備	-8.05649
德	-8.06058
業	-8.06379
隂	-8.06427
藝	-8.06451
斷	-8.06593
跡	-8.0666
評	-8.07062
鋒	-8.07518
封	-8.07602
紅	-8.07784
御	-8.07797
感	-8.07856
河	-8.07893
天下	-8.07897
句	-8.08001
彦	-8.08028
牛	-8.08029
笑	-8.08041
嚴	-8.08047
由	-8.08295
郭	-8.08695
政	-8.08918
趣	-8.08937
篇	-8.08967
收	-8.09077
就	-8.09111
曽	-8.09142
范	-8.09335
任	-8.09495
寧	-8.09723
適	-8.09728
紀	-8.09783
縱	-8.09885
視	-8.09932
得其	-8.10072
里	-8.10181
休	-8.10346
加	-8.10457
食	-8.1056
眼	-8.10624
峰	-8.10637
得之	-8.10955
送	-8.11141
亂	-8.11704
第一	-8.11761
谷	-8.11975
歴	-8.12022
果	-8.12105
説	-8.12523
忽	-8.12559
離	-8.12628
疎	-8.12782
謂之	-8.12806
隠	-8.12918
蜀	-8.12988
不得	-8.13087
川	-8.13305
死	-8.13703
園	-8.1374
恐	-8.13982
冠	-8.14162
當時	-8.1427
書法	-8.14465
驚	-8.1467
鳥	-8.14715
越	-8.14832
紫	-8.1487
芳	-8.15252
浮	-8.15342
蘭亭	-8.15366
服	-8.1541
丹	-8.15473
庭	-8.15657
彼	-8.15815
侍	-8.1618
戲	-8.1623
貞	-8.1629
燕	-8.16397
楚	-8.16522
受	-8.1654
一印	-8.16722
潤	-8.17114
交	-8.17323
請	-8.17389
惜	-8.17448
影	-8.1752
往	-8.17772
圗一	-8.17875
源	-8.18256
第	-8.18761
覺	-8.19286
羅	-8.19637
忘	-8.19681
帶	-8.19838
破	-8.1984
格	-8.19946
上等	-8.20188
病	-8.2122
鄉	-8.21271
結	-8.21283
甫	-8.21422
徑	-8.2157
遇	-8.21619
狀	-8.22049
来	-8.22062
兄	-8.22558
玩	-8.22606
星	-8.22632
再	-8.22702
習	-8.22754
村	-8.22778
利	-8.2281
澤	-8.23124
置	-8.2337
讀	-8.23445
治	-8.23472
丁	-8.23507
蔡	-8.23559
改	-8.23978
屬	-8.24085
晴	-8.24474
質	-8.24521
十二	-8.25299
司	-8.25371
博	-8.25421
次等	-8.25635
嘉	-8.25667
超	-8.25704
珍	-8.259
雄	-8.25904
兒	-8.26589
商	-8.26625
口徑	-8.26745
部	-8.26804
康	-8.27196
温	-8.27281
琴	-8.27375
盧	-8.27417
菴	-8.27657
軍	-8.28004
𨽻	-8.28181
冊	-8.28255
冩	-8.28599
寓	-8.28686
尺	-8.28881
運	-8.28972
楷	-8.29302
依	-8.29461
音	-8.29713
尚書	-8.29731
厚	-8.29852
錦	-8.2997
仰	-8.30095
窮	-8.30227
翰	-8.30424
廟	-8.3087
獻	-8.31253
學士	-8.31455
曾	-8.3149
所藏	-8.31523
延	-8.317
陶	-8.31704
栁	-8.3188
繼	-8.31882
他	-8.32023
示	-8.32085
曉	-8.32154
汝	-8.32232
夀	-8.32343
圓	-8.32589
巧	-8.32614
題云	-8.32706
推	-8.32746
二年	-8.32925
懸	-8.33058
舞	-8.33201
霜	-8.33299
儒	-8.33315
邊	-8.33343
省	-8.33385
追	-8.33465
只	-8.33511
毛	-8.33601
折	-8.338
布	-8.3392
淡	-8.3421
倣	-8.34512
舍	-8.34551
崔	-8.34579
贊	-8.34792
附	-8.3489
種	-8.35116
移	-8.35135
背	-8.35308
蹟	-8.35335
兵	-8.35471
車	-8.35506
待	-8.35773
京	-8.35808
崇	-8.35937
八分	-8.36352
麗	-8.36785
鑑	-8.37171
二印	-8.37507
尋	-8.37558
董	-8.37724
册	-8.37726
徒	-8.37789
所以	-8.37832
濟	-8.3796
補	-8.37973
角	-8.37992
邪	-8.38005
魯	-8.38336
宿	-8.38695
者也	-8.38771
冬	-8.3884
却	-8.38896
錄	-8.39138
儀	-8.3916
漫	-8.39238
晚	-8.39254
莊	-8.39259
丈	-8.39276
橋	-8.39296
緑	-8.39305
一時	-8.39369
覽	-8.39401
眞	-8.39626
鳴	-8.39929
裏	-8.40062
達	-8.40181
前有	-8.4021
恨	-8.40371
引	-8.40684
卒	-8.40698
隸	-8.40744
訪	-8.40944
君子	-8.40948
伏	-8.4119
注	-8.41381
沙	-8.41478
議	-8.41803
索	-8.41843
翼	-8.41885
東坡	-8.42256
唐人	-8.4271
而已	-8.42764
子敬	-8.42988
羽	-8.42999
期	-8.43012
執	-8.43016
毫	-8.43155
元年	-8.43341
漁	-8.43636
克	-8.43824
約	-8.43862
土	-8.44161
福	-8.4429
短	-8.44478
榮	-8.44489
二十	-8.44503
之所	-8.44557
小楷	-8.44639
□	-8.44735
署	-8.44788
荆	-8.44801
袁	-8.44899
述	-8.45077
詔	-8.45278
惠	-8.45356
古今	-8.45474
願	-8.45496
借	-8.4574
試	-8.46057
苦	-8.46278
稍	-8.46552
房	-8.46667
紹興	-8.46683
三年	-8.46807
薄	-8.46838
夫人	-8.47047
可以	-8.47151
獲	-8.47281
恭	-8.4729
顯	-8.47499
續	-8.476
奇	-8.47664
頌	-8.47896
豪	-8.47963
說	-8.48181
吉	-8.48197
珠	-8.48198
吟	-8.48404
歎	-8.48426
時人	-8.48603
采	-8.48613
孔	-8.48615
𫝊	-8.48724
盤	-8.48796
仕	-8.48813
管	-8.48822
尾	-8.48873
疾	-8.489
誤	-8.48954
館	-8.49058
怪	-8.49093
䟦	-8.49284
暮	-8.49475
念	-8.49546
悉	-8.49554
機	-8.49799
江南	-8.49834
正書	-8.49852
煙	-8.49945
偶	-8.49954
詳	-8.50166
丘	-8.50216
咸	-8.50516
殆	-8.50554
亡	-8.50565
騎	-8.50601
姚	-8.50677
告	-8.50856
絲	-8.50916
禪	-8.50971
壽	-8.51083
茂	-8.51319
洪	-8.51326
鳯	-8.51488
豐	-8.51803
用筆	-8.51909
鴻	-8.51966
翰墨	-8.52049
權	-8.52157
闗	-8.52171
衛	-8.52176
飲	-8.52493
一尺	-8.52551
智	-8.52853
總	-8.52942
姓	-8.52958
至正	-8.53221
模	-8.53462
側	-8.53491
差	-8.53799
略	-8.53971
密	-8.54085
為之	-8.54181
不及	-8.54431
火	-8.54439
一日	-8.54521
鑒	-8.54573
遲	-8.54652
筆意	-8.55432
展	-8.55537
退	-8.556
編	-8.55806
宻	-8.55849
穆	-8.55852
峯	-8.55856
符	-8.56001
升	-8.56266
淵	-8.56724
廷	-8.56844
早	-8.56956
隱	-8.5698
官至	-8.57118
回	-8.57408
宣和	-8.57439
繪	-8.57487
薛	-8.5774
行草	-8.5784
養	-8.57872
熟	-8.5789
勒	-8.57933
息	-8.58045
洞	-8.58152
輩	-8.58973
悟	-8.5898
禽	-8.59029
揚	-8.59073
監	-8.59288
隔	-8.59354
懷	-8.5946
施	-8.59884
夷	-8.59919
韋	-8.60041
居士	-8.60049
資	-8.60132
道人	-8.60133
召	-8.60151
程	-8.60238
是也	-8.60256
將軍	-8.61157
兹	-8.61179
典	-8.61282
偏	-8.61361
鐵	-8.6168
之妙	-8.6186
粉	-8.61891
至於	-8.62008
順	-8.62073
竟	-8.62177
一軸	-8.62351
律	-8.62447
肅	-8.62545
鸞	-8.62807
上有	-8.62954
聽	-8.63036
位	-8.63042
維	-8.63074
凝	-8.6312
積	-8.63216
𢎞	-8.63231
率	-8.63234
况	-8.63634
蓮	-8.63657
肥	-8.63672
乾	-8.6382
倚	-8.63845
根	-8.63876
金石録	-8.6401
鳳	-8.64291
静	-8.64368
參	-8.64388
遣	-8.64438
媚	-8.64518
製	-8.64526
反	-8.64527
吴	-8.64653
保	-8.6488
淺	-8.65209
大夫	-8.65383
含	-8.65596
訓	-8.65676
淳	-8.65725
僕	-8.65886
善畫	-8.65943
千文	-8.6604
談	-8.66126
切	-8.66155
嗣	-8.66161
調	-8.66248
戴	-8.66283
惡	-8.66312
累	-8.66391
衡	-8.66417
不同	-8.66696
畢	-8.66873
披	-8.66964
敢	-8.67215
態	-8.67702
旁	-8.67932
霞	-8.68136
雷	-8.6815
味	-8.68222
契	-8.68327
紙本	-8.68359
急	-8.68471
烏	-8.68483
接	-8.687
墨竹	-8.68886
憶	-8.689
逸少	-8.68954
畧	-8.69081
丹青	-8.69246
敏	-8.69417
遷	-8.69448
楷書	-8.69469
絹	-8.6947
負	-8.69542
允	-8.6968
廿	-8.6981
舒	-8.6985
人間	-8.69911
見之	-8.69929
風雨	-8.69991
報	-8.70336
恩	-8.70343
四年	-8.70361
秘	-8.70429
熈	-8.70553
僅	-8.70624
鎮	-8.70639
假	-8.70853
規	-8.7109
純	-8.7111
啟	-8.71206
靜	-8.71224
祥	-8.71278
釣	-8.71432
馳	-8.71508
翰林	-8.71549
愈	-8.71685
缺	-8.71763
蒙	-8.71897
姿	-8.71992
桃	-8.72028
錫	-8.72063
巨	-8.72068
不足	-8.72087
所作	-8.7213
㣲	-8.72147
殘	-8.72312
夕	-8.72382
古文	-8.72595
干	-8.72908
抱	-8.7294
洗	-8.73042
快	-8.73078
藥	-8.73203
慕	-8.73204
斗	-8.73221
泰	-8.73503
譜	-8.73602
歲	-8.73623
自然	-8.73852
勤	-8.73915
斜	-8.73943
御書	-8.74089
屈	-8.74094
浩	-8.74153
卧	-8.74337
堅	-8.74552
其所	-8.74709
婦	-8.74715
山谷	-8.74766
富	-8.7478
奏	-8.74815
寛	-8.75027
可謂	-8.7505
染	-8.75307
其後	-8.75352
宇	-8.75442
牧	-8.75452
岳	-8.75473
徴	-8.75485
墓	-8.75619
被	-8.75749
昇	-8.75767
扇	-8.7578
己	-8.7582
不復	-8.75881
太史	-8.75995
擬	-8.76175
亦有	-8.76209
靖	-8.76311
標	-8.765
弗	-8.76581
荒	-8.76689
潛	-8.76776
拙	-8.76961
之間	-8.77109
跋云	-8.77184
完	-8.775
枯	-8.77598
環	-8.77602
條	-8.77639
啓	-8.77732
振	-8.77839
文章	-8.77917
裝	-8.77937
崖	-8.77968
荷	-8.77981
隋	-8.78183
子孫	-8.78284
此帖	-8.78297
段	-8.78322
步	-8.78492
二王	-8.78561
市	-8.78608
繁	-8.78822
渡	-8.79012
除	-8.79065
肉	-8.7907
唯	-8.79183
厯	-8.79313
憂	-8.79403
頓首	-8.79419
翻	-8.79557
搨	-8.79634
茶	-8.79722
羊	-8.80091
專	-8.80267
雍	-8.80376
貫	-8.80706
岸	-8.80822
腹	-8.81
愁	-8.8105
降	-8.81086
仍	-8.81132
覆	-8.81134
住	-8.81139
尹	-8.8115
章草	-8.81256
芝	-8.81277
進士	-8.81462
陰	-8.81589
眉	-8.81591
慰	-8.81628
筆墨	-8.81683
閲	-8.81685
浪	-8.81709
堪	-8.81804
倒	-8.81809
十八	-8.81851
悲	-8.81938
吕	-8.82091
苑	-8.82167
聊	-8.82232
勞	-8.8225
徵	-8.82409
籍	-8.82574
呼	-8.82705
勿	-8.82871
小篆	-8.83042
否	-8.832
飾	-8.83318
映	-8.83346
二字	-8.83415
憲	-8.8345
璧	-8.83468
中有	-8.83493
乞	-8.83551
走	-8.83561
五十	-8.837
不見	-8.8372
一字	-8.83822
瑞	-8.83852
四十	-8.84002
阿	-8.84015
壺	-8.84065
州刺史	-8.84159
銀	-8.84227
十三	-8.84462
十年	-8.8452
務	-8.8467
詠	-8.84683
狂	-8.84788
款識云	-8.84927
後世	-8.85047
祠	-8.85072
履	-8.85112
坡	-8.85212
晩	-8.85369
文字	-8.85547
傅	-8.8555
乗	-8.85929
書史㑹要	-8.86044
後人	-8.86052
研	-8.86156
飛白	-8.86256
平生	-8.86271
太宗	-8.8631
見其	-8.86312
㫖	-8.86312
嗟	-8.86496
斤	-8.86554
裴	-8.86639
屏	-8.86691
妍	-8.86716
此圖	-8.86731
三十	-8.86757
水墨	-8.86919
購	-8.87035
千里	-8.87145
敦	-8.87151
慈	-8.87203
掌	-8.87507
澄	-8.87676
藻	-8.87699
叢	-8.87709
輒	-8.87769
扵	-8.87938
效	-8.88111
弱	-8.88301
盈	-8.88382
山人	-8.88498
損	-8.88675
濶	-8.88677
柳	-8.88702
湘	-8.88728
顛	-8.88935
賈	-8.89023
宋人	-8.89041
聚	-8.89156
童	-8.89238
菊	-8.89241
冷	-8.89309
道士	-8.89318
馮	-8.89374
知其	-8.89386
貌	-8.89425
開元	-8.89634
吹	-8.89673
十五	-8.89745
漸	-8.8987
偉	-8.89875
所書	-8.89908
境	-8.89914
甲	-8.90014
幼	-8.90208
薦	-8.90216
百年	-8.90223
司馬	-8.90291
歟	-8.9037
拂	-8.90737
乙	-8.90769
筆力	-8.9089
據	-8.91024
逢	-8.91069
彩	-8.91132
廣一尺	-8.91171
底	-8.91201
眀	-8.91362
鼓	-8.91413
叙	-8.91522
獸	-8.91541
户	-8.9155
强	-8.91685
熙	-8.91768
萬里	-8.9178
麟	-8.91795
式	-8.91797
鴈	-8.91809
爭	-8.91911
十六	-8.91925
壯	-8.91929
頁	-8.91944
闊	-8.92008
殷	-8.92034
梅花	-8.92041
䕶	-8.92084
晦	-8.92157
吳興	-8.92263
避	-8.92297
太子	-8.92379
龜	-8.92463
刀	-8.92506
棄	-8.92641
廢	-8.92762
愧	-8.92769
船	-8.92926
私	-8.92953
有餘	-8.93207
天地	-8.93274
浦	-8.93304
乆	-8.93338
之後	-8.93346
瞻	-8.93392
紹	-8.93395
侍郎	-8.93452
董其昌	-8.93484
俊	-8.93501
羲之	-8.93528
璽	-8.93641
圖一軸	-8.93697
鹿	-8.93734
白雲	-8.93941
五年	-8.93948
彞	-8.93956
偽	-8.93959
家藏	-8.93993
關	-8.94023
又有	-8.94042
硯	-8.94254
量	-8.94588
㡬	-8.94638
第二	-8.94712
祝	-8.94756
鬼	-8.94792
謙	-8.94844
停	-8.94965
選	-8.95027
傷	-8.95054
淮	-8.95178
傍	-8.95232
觀其	-8.9531
待詔	-8.95374
揮	-8.95434
詩云	-8.95437
長安	-8.95497
頃	-8.956
花鳥	-8.9571
候	-8.95886
圖書	-8.96027
喬	-8.96128
蔵	-8.96364
偃	-8.96495
界	-8.96511
霧	-8.96938
歳	-8.96976
不敢	-8.97029
鮮	-8.97104
像一	-8.97184
父子	-8.97295
雲林	-8.97431
隆	-8.97654
付	-8.97766
了	-8.97776
字畫	-8.9788
審	-8.97907
竹石	-8.97951
靄	-8.9808
澹	-8.98131
脱	-8.9818
左右	-8.98225
澗	-8.98468
爽	-8.98925
廬	-8.98978
鐘	-8.98985
五代	-8.99228
右髙	-8.99237
渾	-8.99301
祐	-8.994
鏡	-8.99412
健	-8.99429
茅	-8.99438
姓名	-8.99497
暇	-8.99548
一璽	-8.99632
塘	-8.9978
乏	-8.99842
掩	-9.00099
校	-9.00104
駕	-9.00132
鈎	-9.00138
㑹稽	-9.00143
大字	-9.00194
支	-9.00237
於是	-9.00267
㸃畫	-9.00278
傾	-9.00385
丞相	-9.00477
之意	-9.00545
江山	-9.00676
上下	-9.00735
妄	-9.00758
貞觀	-9.00774
扶	-9.00782
圖三	-9.00792
京師	-9.00879
彌	-9.00996
撫	-9.01038
法書	-9.01039
御府所藏	-9.01078
圖一卷	-9.0124
剛	-9.01423
赤	-9.01426
竊	-9.01428
歩	-9.01538
子昻	-9.01766
於此	-9.01933
貧	-9.02174
危	-9.02242
太守	-9.02575
射	-9.02589
旦	-9.026
一人	-9.02632
洛	-9.02655
風流	-9.02672
項	-9.02795
慎	-9.02872
三月	-9.03039
札	-9.03077
再拜	-9.03089
庶	-9.03121
拘	-9.03141
洲	-9.03142
神品	-9.03267
植	-9.0332
充	-9.03463
奔	-9.03469
疏	-9.03564
無所	-9.03568
旋	-9.03662
縁	-9.03701
操	-9.03723
諱	-9.03793
絹本	-9.03811
職	-9.03893
濃	-9.04153
逐	-9.04163
桂	-9.04285
昨	-9.04368
覩	-9.04395
素絹本著色畫	-9.04429
褚	-9.046
辛	-9.04761
第三	-9.04891
學者	-9.05
頓	-9.05015
一首	-9.05032
人也	-9.05042
申	-9.05298
吏	-9.05366
藁	-9.05455
十七	-9.05737
俞	-9.0576
哀	-9.0585
歐陽	-9.05868
往往	-9.05881
襲	-9.05909
然後	-9.05969
倫	-9.06009
欵識云	-9.0607
十一	-9.06139
嶺	-9.06246
遠	-9.0647
之法	-9.06473
后	-9.06555
宅	-9.06603
宏	-9.06626
壑	-9.06665
十四	-9.06673
畏	-9.06768
善書	-9.06787
寜	-9.06892
何如	-9.07021
皆有	-9.07099
領	-9.07145
威	-9.07168
石刻	-9.07189
宰	-9.0724
雞	-9.07281
片	-9.07333
杖	-9.07455
恒	-9.07564
皇帝	-9.0765
讀書	-9.07699
几	-9.07738
貢	-9.07743
劍	-9.0775
較	-9.08045
峻	-9.08211
諸印	-9.08239
雀	-9.08284
融	-9.08312
答	-9.08462
老人	-9.08498
李成	-9.08526
察	-9.08583
弟子	-9.08611
又云	-9.08655
瘦	-9.0885
錯	-9.08866
之子	-9.09049
河南	-9.09207
宛	-9.09269
範	-9.0929
王羲之	-9.09385
烈	-9.09437
彭	-9.09482
四月	-9.09575
禹	-9.10198
六月	-9.1021
十月	-9.10303
凉	-9.10339
會	-9.10366
紋	-9.10403
爵	-9.10484
副	-9.10684
馬圖	-9.10774
邵	-9.10783
欵	-9.10828
塔	-9.10979
湯	-9.11068
誦	-9.11068
迴	-9.11081
逰	-9.11093
甘	-9.11174
燈	-9.11355
濤	-9.11422
井	-9.11494
農	-9.11497
脚	-9.11506
奕	-9.11508
騰	-9.11537
閑	-9.11645
至今	-9.11743
戒	-9.11778
元祐	-9.11784
亮	-9.11792
晝	-9.11812
社	-9.11967
㳺	-9.11977
将	-9.12036
耕	-9.12073
委	-9.12086
邑	-9.1209
八月	-9.12121
山中	-9.1217
筆勢	-9.12247
牡丹	-9.12264
把	-9.12409
虛	-9.12418
草堂	-9.12621
洪武	-9.12648
米芾	-9.1327
那	-9.1328
介	-9.13581
嘉靖	-9.13593
孰	-9.13605
柱	-9.13627
飄	-9.13635
攜	-9.13726
公之	-9.13728
○	-9.13791
術	-9.14029
佛像	-9.14056
某	-9.14065
罷	-9.14176
班	-9.14195
祭	-9.14269
提	-9.14351
欽	-9.14443
險	-9.14449
國公	-9.14477
旅	-9.14527
十九	-9.14601
世之	-9.14858
其間	-9.1492
價	-9.14931
所見	-9.14968
尉	-9.14993
王氏	-9.15
堯	-9.15142
字子	-9.15208
鍾繇	-9.15215
講	-9.15225
抑	-9.15376
以此	-9.15457
輿	-9.15712
寫生	-9.15806
席	-9.15998
佩	-9.16202
滅	-9.16216
叟	-9.16233
呈	-9.1632
設	-9.16424
賛	-9.16458
嶽	-9.1654
曠	-9.16646
小字	-9.16886
柔	-9.16939
亞	-9.17021
畫山水	-9.17127
族	-9.17174
九寸	-9.17276
暗	-9.17278
消	-9.17285
姜	-9.17357
一冊	-9.17398
哲	-9.17402
其書	-9.1776
蘆	-9.17762
腕	-9.17801
京兆	-9.17849
蕩	-9.17858
際	-9.18001
三尺	-9.18076
此書	-9.18081
圗二	-9.18087
足下	-9.18153
朔	-9.18164
潭	-9.18206
猿	-9.18314
優	-9.18344
繡	-9.1842
爛	-9.18655
出於	-9.18823
均	-9.18824
大令	-9.18841
怒	-9.18857
論書	-9.1886
戈	-9.18924
鬱	-9.18989
束	-9.18993
卓	-9.19069
隸書	-9.19098
託	-9.19182
墨林	-9.19241
罕	-9.19269
幹	-9.19274
其妙	-9.19305
人官至	-9.19333
低	-9.1934
姑	-9.19428
大小	-9.19483
真跡	-9.19566
嗜	-9.19616
靡	-9.19627
奪	-9.1963
有所	-9.19858
亦不	-9.19926
趨	-9.201
著色	-9.20326
黃	-9.20331
板	-9.20366
武帝	-9.20593
何處	-9.20641
蟲	-9.20676
元章	-9.20679
沒	-9.20763
未嘗	-9.20822
丞	-9.20885
趙孟頫	-9.20912
供	-9.21023
未有	-9.21039
足以	-9.21049
泥	-9.21073
増	-9.21348
七月	-9.21442
衍	-9.21527
遥	-9.21631
傑	-9.21733
芾	-9.2198
桑	-9.22058
塞	-9.22065
氷	-9.22219
祕	-9.22329
溪山	-9.22338
科	-9.22362
各有	-9.22509
二璽	-9.22529
頂	-9.22566
暉	-9.22745
徽	-9.22799
有銘	-9.22841
衰	-9.22852
弄	-9.229
四字	-9.22906
窺	-9.23009
整	-9.23017
粗	-9.23026
九月	-9.23031
前後	-9.23408
羅漢	-9.23755
篤	-9.23845
淨	-9.23881
座	-9.23882
自有	-9.23917
鷹	-9.23935
痛	-9.23971
謀	-9.24013
翔	-9.24055
也今	-9.24176
毎	-9.24183
屢	-9.24186
之類	-9.24188
智永	-9.24216
徃	-9.243
佐	-9.2437
招	-9.24521
賔	-9.24533
篆書	-9.24578
厥	-9.24706
獻之	-9.24845
桓	-9.2499
禄	-9.25125
睿	-9.25167
千載	-9.25193
纎	-9.25216
苔	-9.25218
循	-9.25335
款	-9.25336
令人	-9.25435
樵	-9.2552
輔	-9.25544
銅	-9.25561
之勢	-9.25563
氣韻	-9.25733
元人	-9.25745
楷法	-9.25777
阮	-9.25861
庾	-9.2604
松雪	-9.26178
六年	-9.26193
衞	-9.26194
得意	-9.26298
懐素	-9.26326
二月	-9.26411
明皇	-9.2643
汪	-9.26585
凌	-9.26587
奴	-9.26685
名畫	-9.26732
蓬	-9.26778
番	-9.26792
欣	-9.2683
迷	-9.26894
青山	-9.26978
賀	-9.27071
遒	-9.27141
速	-9.27241
投	-9.27263
慮	-9.27394
而後	-9.27487
輪	-9.2755
勾	-9.27587
係	-9.27592
愚	-9.27593
脩	-9.27604
嘆	-9.27631
妻	-9.27759
罪	-9.27766
圖并題	-9.27792
一本	-9.27851
書之	-9.28072
普	-9.28091
潮	-9.28295
皴	-9.28329
巻	-9.28463
煩	-9.28463
欽定四庫全書	-9.28479
駿	-9.28486
其人	-9.28537
統	-9.28611
擊	-9.28648
鬼神	-9.28651
採	-9.28697
戰	-9.28701
一幅	-9.28754
今日	-9.28807
濕	-9.28832
緩	-9.28962
激	-9.28969
使人	-9.28976
長史	-9.29072
輝	-9.2919
一紙	-9.29397
桃花	-9.29454
欵云	-9.2949
拔	-9.2951
瓊	-9.2954
寸	-9.29548
禪師	-9.29772
無銘	-9.29798
夲	-9.29937
芙蓉	-9.29947
助	-9.30025
舜	-9.30156
舎	-9.30245
御筆	-9.30379
楮	-9.30397
収	-9.30557
鷗	-9.30795
而無	-9.30858
䇿	-9.30917
精神	-9.31009
下筆	-9.31171
倪	-9.31259
者皆	-9.31312
蝶	-9.31317
吐	-9.315
憐	-9.31528
所得	-9.31734
之士	-9.31785
腹圍	-9.31826
磨	-9.31854
學書	-9.31923
話	-9.32161
數十	-9.32243
法帖	-9.32313
蛇	-9.32363
譽	-9.32386
案	-9.32388
後漢	-9.324
紛	-9.3256
王維	-9.32706
不為	-9.32725
墨蹟	-9.32773
之外	-9.32812
謬	-9.32878
征	-9.32941
沉	-9.33093
瀟湘	-9.33205
仿	-9.33333
潔	-9.3349
寵	-9.33646
擅	-9.33758
渚	-9.33866
畫之傳世者	-9.33954
勉	-9.34202
五月	-9.34218
鷺	-9.34221
精妙	-9.34241
歐	-9.34366
蹤	-9.34432
詩帖	-9.34533
庸	-9.34553
米元章	-9.34575
岡	-9.34601
宴	-9.348
綠	-9.34834
巨然	-9.34921
六十	-9.35018
包	-9.35268
患	-9.35468
刻石	-9.35515
雁	-9.35572
定武	-9.35586
造化	-9.35659
蔡邕	-9.35748
納	-9.35941
戯	-9.36041
層	-9.36111
葛	-9.36236
閱	-9.36406
畫史	-9.3649
擇	-9.36628
霄	-9.36657
簾	-9.36661
寺碑	-9.36864
灑	-9.36971
禁	-9.36979
劒	-9.3705
太平	-9.37101
辱	-9.3718
兔	-9.37204
詣	-9.37576
集賢	-9.376
織	-9.37642
辰	-9.3771
沈周	-9.3772
昔人	-9.37735
瑶	-9.37768
贊曰	-9.37857
判	-9.37902
縱横	-9.3812
創	-9.38211
廟碑	-9.38277
厭	-9.38489
圖卷	-9.38502
繪事	-9.38512
單	-9.38539
霽	-9.38574
圖四	-9.38618
三日	-9.38716
杯	-9.38768
掃	-9.38777
齡	-9.38912
朋	-9.38922
繞	-9.38962
谿	-9.38964
額	-9.39094
乾隆	-9.39155
𨽻書	-9.39275
浙	-9.39298
蒲	-9.39326
押	-9.39331
涯	-9.39345
洛陽	-9.39346
日月	-9.39455
蓄	-9.39497
競	-9.39513
無不	-9.39613
詹	-9.39665
髮	-9.39689
袖	-9.39697
材	-9.39702
八寸	-9.39715
襄	-9.39771
勅	-9.39849
不如	-9.39853
觀之	-9.39871
殺	-9.399
蟠	-9.40011
讓	-9.40091
朗	-9.40099
竿	-9.40188
後學	-9.4033
之印	-9.4041
員	-9.4045
之上	-9.40472
謁	-9.40486
買	-9.405
書如	-9.40565
家傳	-9.40586
名家	-9.40594
圖畫	-9.40664
暑	-9.40678
孔子	-9.40746
古木	-9.40758
秋山	-9.40811
潘	-9.40833
顔魯公	-9.40853
暢	-9.40877
震	-9.40913
昏	-9.41096
迎	-9.41282
没	-9.41316
之氣	-9.41496
工畫	-9.41777
以來	-9.4179
冰	-9.41808
擢	-9.41829
脫	-9.41845
裁	-9.41885
能書	-9.41927
乘	-9.42084
閻	-9.42107
輿地碑目	-9.42217
痩	-9.42226
壇	-9.42252
髙宗	-9.42271
千古	-9.42479
伯英	-9.42595
絳	-9.42607
泛	-9.42688
第四	-9.42698
涼	-9.42734
稽	-9.42742
博士	-9.42769
囘	-9.42857
寡	-9.42883
用之	-9.42913
導	-9.4305
摩	-9.43072
倪瓚	-9.43111
巒	-9.4313
雲山	-9.43131
邦	-9.43134
長洲	-9.43147
森	-9.43269
敗	-9.43299
冀	-9.43303
金石	-9.43337
鄙	-9.43454
士大夫	-9.43489
御題	-9.43596
著色畫	-9.43668
趯	-9.4367
嵩	-9.43697
其一	-9.43841
墓誌	-9.43885
太常	-9.43906
棲	-9.43911
然則	-9.43954
落筆	-9.4406
赴	-9.44084
張芝	-9.44241
山隂	-9.44256
郊	-9.44283
墜	-9.44288
伊	-9.44293
形似	-9.4437
琳	-9.44472
肆	-9.44499
不失	-9.44506
諸公	-9.44697
杭	-9.4471
藍	-9.44711
魯公	-9.44729
髙一尺	-9.4481
所畫	-9.44972
藉	-9.45129
兄弟	-9.4516
識者	-9.45299
伯時	-9.45321
慧	-9.45347
描	-9.45484
小景	-9.45515
探	-9.4552
饒	-9.4554
幻	-9.4555
金陵	-9.45618
馬逺	-9.45706
鄧	-9.45721
辟	-9.45765
皮	-9.45766
儼	-9.45929
挺	-9.45976
行草書	-9.45987
摩詰	-9.46063
響	-9.46131
勸	-9.46173
御府	-9.46282
正月	-9.46334
邈	-9.46383
錢塘	-9.46405
款云	-9.46488
嵐	-9.4653
滯	-9.46557
三字	-9.46711
訣	-9.46737
繫	-9.46772
圃	-9.46808
觀者	-9.46843
歐陽詢	-9.46948
奚	-9.46984
牽	-9.46997
之餘	-9.4707
李斯	-9.47097
可愛	-9.47134
姬	-9.4717
樂毅論	-9.47179
活	-9.47194
檢	-9.47208
眠	-9.47249
御史	-9.47313
倦	-9.47423
矩	-9.47616
如何	-9.47691
也其	-9.47769
山圖	-9.47844
肯	-9.47846
黄庭	-9.47875
基	-9.47999
珊瑚網	-9.48015
究	-9.48057
侍中	-9.48092
寂	-9.48231
敵	-9.48231
今在	-9.48249
十餘	-9.48329
邁	-9.48462
半印	-9.48482
鱗	-9.48492
髪	-9.48531
梢	-9.48579
蔣	-9.48697
款署	-9.48777
争	-9.48889
巾	-9.48919
塗	-9.49131
也又	-9.4932
臻	-9.49335
然而	-9.49383
書者	-9.49497
證	-9.49504
黙	-9.49542
踈	-9.49561
鑄	-9.49646
遒勁	-9.49731
内府	-9.4984
亦可	-9.49894
襄陽	-9.5012
獵	-9.50148
煥	-9.50189
歡	-9.50198
窓	-9.50291
俾	-9.50414
恕	-9.50421
營	-9.50524
八年	-9.50529
題識	-9.50683
清風	-9.50764
九年	-9.50847
春秋	-9.50918
州人	-9.50957
箋	-9.51167
樹石	-9.5118
而有	-9.51224
亨	-9.51246
其名	-9.51272
舫	-9.51316
鼻	-9.51357
巢	-9.51532
以示	-9.51632
裂	-9.51677
春風	-9.51751
大篆	-9.51755
今見	-9.51839
攻	-9.519
成都	-9.51909
剪	-9.51912
肖	-9.51918
戚	-9.51975
筋	-9.52029
墨畫	-9.52071
敎	-9.52134
法度	-9.52153
咏	-9.52159
裔	-9.52374
龍眠	-9.52414
渠	-9.52416
驅	-9.52579
筠	-9.52635
一筆	-9.52682
尺牘	-9.52782
疊	-9.52856
得此	-9.52941
縫	-9.53059
柯	-9.5307
肇	-9.53247
忩	-9.5326
裕	-9.5328
人家	-9.5341
刑	-9.53446
給	-9.53456
燭	-9.53678
變化	-9.53685
況	-9.53686
預	-9.53704
岐	-9.53728
其家	-9.53766
逼	-9.53784
枕	-9.53919
神仙	-9.5393
桐	-9.54005
珪	-9.54081
僕射	-9.54214
而為	-9.54478
穿	-9.54506
翎毛	-9.54552
㝠	-9.54623
之際	-9.54713
石田	-9.54789
匠	-9.54844
局	-9.54869
不過	-9.54991
押縫有	-9.55034
秉	-9.55042
也然	-9.55256
鄰	-9.5526
遵	-9.55335
禽圖	-9.55536
醒	-9.55551
婉	-9.55727
洽	-9.55755
例	-9.5576
二帖	-9.5577
熊	-9.55773
状	-9.55781
不勝	-9.55978
逹	-9.56005
嗚呼	-9.56006
顔真卿	-9.56007
粲	-9.56031
莫不	-9.56117
卜	-9.56145
遜	-9.56195
戎	-9.56212
恵	-9.5622
第十	-9.56246
稜	-9.56407
賤	-9.56427
牕	-9.56474
肩	-9.56694
設色	-9.5686
敷	-9.56933
冕	-9.56934
藤	-9.56937
不可得	-9.57069
熱	-9.57115
焦	-9.5713
零	-9.57143
王右軍	-9.57148
畫史㑹要	-9.57218
一百	-9.57284
血	-9.5735
泊	-9.57386
畫者	-9.57394
草木	-9.57396
所能	-9.57453
題名	-9.57505
物也	-9.5752
繇	-9.57711
祀	-9.57803
呉興	-9.57805
流水	-9.57812
李伯時	-9.57827
八分書	-9.57932
於世	-9.57967
榻	-9.58298
稀	-9.58301
集古録	-9.58455
以其	-9.5851
虞世南	-9.58511
庫	-9.58534
自是	-9.58538
襟	-9.58572
處士	-9.58662
乳	-9.58707
乍	-9.58768
李唐	-9.58771
前人	-9.58791
當是	-9.58878
今觀	-9.58899
不在	-9.58984
鈞	-9.58984
綱	-9.59007
痕	-9.59011
麻	-9.5917
卣	-9.59226
陀	-9.59233
台	-9.59248
吳郡	-9.59256
鵬	-9.59286
練	-9.593
爰	-9.59301
筆也	-9.59375
閩	-9.59407
一枝	-9.59514
書於	-9.59516
網	-9.59517
綺	-9.59531
左方	-9.59545
而下	-9.59558
違	-9.59694
啼	-9.59737
自號	-9.59773
寒林	-9.59789
胸中	-9.5979
籀	-9.59799
折枝	-9.59853
未能	-9.59872
者有	-9.59911
免	-9.59912
圍	-9.5996
妃	-9.59967
何以	-9.60139
漏	-9.60201
之下	-9.60229
二百	-9.60293
卯	-9.60414
仇	-9.60417
七日	-9.6048
山林	-9.60489
鵲	-9.60563
枚	-9.60615
攷	-9.60691
麓	-9.60735
嵗在	-9.60833
一笑	-9.60869
隷	-9.60881
一册	-9.60913
幀	-9.60926
岫	-9.61006
古之	-9.61013
七十	-9.61087
繩	-9.61097
明董其昌	-9.61106
倉	-9.6116
書學	-9.61204
世人	-9.6129
換	-9.61393
文帝	-9.61497
髙士	-9.61538
藏之	-9.61562
上人	-9.61605
求之	-9.61668
萬厯	-9.61825
白描	-9.61855
樞	-9.61867
碑在	-9.61998
九日	-9.62075
晨	-9.62159
七年	-9.62213
者亦	-9.62243
王氏跋一	-9.62263
尤工	-9.62312
銘曰	-9.62328
書家	-9.62355
碎	-9.62415
齒	-9.62418
臥	-9.62436
羲	-9.62497
故人	-9.62611
輙	-9.62614
緒	-9.62635
子京	-9.62766
不然	-9.62782
男	-9.62834
併	-9.6286
三百	-9.62875
徹	-9.62882
明月	-9.6303
三寸	-9.63104
項氏	-9.63106
憑	-9.63127
津	-9.63152
其事	-9.63241
子也	-9.63333
芒	-9.63351
匪	-9.63393
電	-9.63394
必有	-9.63439
印一	-9.63497
十日	-9.63542
慨	-9.63552
混	-9.63632
絶句	-9.6365
八十	-9.63655
如是	-9.63736
唐寅	-9.63762
書史	-9.63784
也故	-9.63805
海棠	-9.63828
硬	-9.63846
墮	-9.63877
識云	-9.63966
山川	-9.6399
二日	-9.64083
太原	-9.64271
湖州	-9.64288
渭	-9.64334
無疑	-9.64339
遭	-9.64345
托	-9.64385
鍾王	-9.64442
未見	-9.64502
題跋	-9.64562
帙	-9.64673
五寸	-9.6468
綬	-9.64714
汀	-9.6479
李氏	-9.64836
互	-9.64847
珍藏	-9.64878
犬	-9.64941
時有	-9.64953
鵞	-9.65027
曰此	-9.65043
作字	-9.65185
圭	-9.65215
諸印又	-9.65237
天台	-9.65302
誕	-9.65332
何人	-9.65425
虹	-9.65435
蟬	-9.65507
築	-9.65618
躍	-9.65665
梧	-9.65679
牋	-9.65701
書也	-9.65774
褚遂良	-9.65828
羊欣	-9.65851
遺墨	-9.65855
裳	-9.65868
削	-9.65876
四時	-9.65931
以下	-9.65936
好古	-9.65956
菩薩像	-9.65969
子昂	-9.66075
十二月	-9.66126
勲	-9.66149
余嘗	-9.66191
臨池	-9.66303
鷄	-9.66304
售	-9.66384
壓	-9.66401
博學	-9.66437
天子	-9.66464
是以	-9.66467
賦詩	-9.66468
同時	-9.66489
姪	-9.66608
弓	-9.66642
悦	-9.66653
字仲	-9.66666
好事	-9.66813
范寛	-9.66827
淳化	-9.66875
竇	-9.66907
二十八	-9.67142
其為	-9.67147
緣	-9.67155
仙人	-9.67165
拱	-9.67201
二人	-9.67313
觚	-9.6747
四尺	-9.67494
逮	-9.67516
乖	-9.67562
遍	-9.67654
昆	-9.67909
牀	-9.67919
怡	-9.67922
揭	-9.67933
滋	-9.67953
大癡	-9.67969
牙	-9.67973
心經	-9.67981
洞庭	-9.68057
可觀	-9.6806
之狀	-9.681
五字	-9.68125
炎	-9.68149
苟	-9.6817
役	-9.68171
濛	-9.68193
晉人	-9.68217
河東	-9.68348
鼔	-9.68445
故物	-9.68579
七寸	-9.68692
天王	-9.68816
太師	-9.6883
而成	-9.68841
甲子	-9.68882
涉	-9.68942
疇	-9.68961
未必	-9.68965
惑	-9.69173
策	-9.69178
為人	-9.69286
檀	-9.69326
其文	-9.69334
系	-9.69433
俯	-9.6951
至元	-9.69568
松石	-9.6962
飛動	-9.69658
柏	-9.69722
綴	-9.69741
生意	-9.69749
字伯	-9.69777
弼	-9.69777
不逮	-9.69928
規矩	-9.69977
専	-9.7003
雲間	-9.70139
世所	-9.70157
貽	-9.70236
汲	-9.70324
䝉	-9.70517
茍	-9.70521
十一月	-9.70722
江湖	-9.70757
鑒定	-9.70758
三足	-9.70804
團	-9.70805
豫章	-9.70826
綽	-9.70827
主人	-9.70901
赫	-9.71076
耀	-9.71078
稷	-9.71122
一二	-9.71229
之曰	-9.71315
永樂	-9.71337
午	-9.71349
添	-9.71388
籠	-9.714
閉	-9.71593
伸	-9.71608
徙	-9.71619
其上	-9.717
毅	-9.718
喻	-9.71827
纂	-9.71844
邉	-9.71869
擁	-9.71879
懋	-9.71893
工書	-9.7202
箋本	-9.72055
入神	-9.72107
困	-9.72123
扁舟	-9.72196
古雅	-9.72348
公主	-9.72405
謂其	-9.72457
腰	-9.72477
旭	-9.72482
西湖	-9.72484
第五	-9.72507
葵	-9.72672
奮	-9.727
突	-9.72707
秋風	-9.72743
中書	-9.72749
彈	-9.72759
好事者	-9.72799
其意	-9.72848
本朝	-9.72861
今人	-9.72875
陣	-9.72933
岑	-9.72942
囊	-9.72975
距	-9.73149
自謂	-9.7316
貯	-9.73222
徽宗	-9.73368
真書	-9.7344
鵠	-9.73469
辯	-9.73479
測	-9.73505
鑿	-9.7353
亷	-9.73558
不覺	-9.736
駐	-9.73736
矜	-9.73742
此本	-9.7376
懶	-9.73767
忌	-9.73791
綿	-9.73802
成化	-9.73818
過之	-9.73918
䕫	-9.73968
引首	-9.74016
誇	-9.74044
黄庭經	-9.74172
董源	-9.74197
其中	-9.74222
見於	-9.74323
畫院	-9.74325
沐	-9.7434
恍	-9.74352
安得	-9.74432
臨摹	-9.74531
費	-9.74611
炳	-9.74618
相似	-9.74631
簷	-9.74632
六寸	-9.74649
陋	-9.7465
平逺	-9.7465
自書	-9.74672
者以	-9.74714
彷彿	-9.74866
峭	-9.74891
害	-9.74908
玉堂	-9.75004
十卷	-9.75046
子瞻	-9.75102
思陵	-9.75243
生動	-9.75261
倍	-9.75475
白石	-9.75484
也余	-9.75648
酬	-9.75707
素箋本	-9.75779
踏	-9.75817
出入	-9.75822
至于	-9.75824
位置	-9.75841
嘗見	-9.759
敬書	-9.75958
當世	-9.7598
元趙孟頫書	-9.75986
歸來	-9.76024
縈	-9.76062
減	-9.76127
俟	-9.76172
或云	-9.76178
尖	-9.7626
大年	-9.76296
棹	-9.76327
嘯	-9.76344
其子	-9.76348
不甚	-9.76352
周昉	-9.76441
排	-9.76578
家有	-9.76619
此碑	-9.76662
金剛經	-9.76739
誌	-9.76804
巴	-9.76831
宮	-9.76843
技	-9.76844
批	-9.77087
無人	-9.77107
旨	-9.77113
山水人物	-9.77169
無窮	-9.77212
乃知	-9.77263
螭	-9.77302
以自	-9.7732
聖人	-9.77322
廉	-9.7738
菩薩	-9.77463
風吹	-9.77502
不知其	-9.77554
紳	-9.7766
廊	-9.77685
晏	-9.77697
梵	-9.77712
蕃	-9.77718
東海	-9.77727
眷	-9.77765
藴	-9.77971
春山	-9.77976
媿	-9.77988
賓	-9.77997
觀於	-9.78028
郎中	-9.78098
四寸	-9.78145
敘	-9.78215
滑	-9.78252
稿	-9.7828
逾	-9.78285
汗	-9.78295
栖	-9.78311
帆	-9.78362
陽人	-9.78497
途	-9.78531
頴	-9.78547
槩	-9.78562
滄	-9.78564
㓜	-9.78565
填	-9.78577
不知何	-9.78579
帛	-9.78585
絃	-9.78586
階	-9.78588
錢唐	-9.78685
醫	-9.78803
驗	-9.78847
獄	-9.78908
元常	-9.78909
笛	-9.78929
詩文	-9.7907
一種	-9.7907
菜	-9.79124
二十四	-9.79136
夫子	-9.79264
不用	-9.79346
懿	-9.79395
草草	-9.79482
取其	-9.7952
夾	-9.7964
諭	-9.797
榖	-9.79712
摇	-9.79728
豆	-9.79737
觸	-9.79756
畔	-9.79779
諸家	-9.79788
補之	-9.79834
髣髴	-9.79954
刺	-9.79964
遽	-9.79998
障	-9.80008
濯	-9.80054
珊瑚	-9.80077
焚	-9.80264
荅	-9.80273
厲	-9.8028
鄒	-9.80291
增	-9.80324
湛	-9.8034
張旭	-9.80433
旣	-9.80565
汴	-9.80612
祗	-9.80899
千年	-9.80953
司徒	-9.80976
書畵	-9.81
羙	-9.81101
猶有	-9.81118
求其	-9.81139
不盡	-9.81357
老子	-9.81399
之態	-9.8145
纔	-9.81465
者為	-9.81591
余家	-9.81662
美人	-9.81699
浄	-9.81749
觀音	-9.81758
聴	-9.8181
様	-9.81812
眞蹟	-9.81828
三印	-9.81831
孝經	-9.81843
三昧	-9.8189
若此	-9.81905
鴨	-9.81927
不可以	-9.8194
嵗月	-9.81992
旌	-9.82037
頻	-9.82064
隅	-9.82065
遐	-9.82077
噫	-9.82094
返	-9.82098
學之	-9.82178
後署	-9.82293
恬	-9.82325
促	-9.82345
闌	-9.82422
諡	-9.82531
瓘	-9.82637
尼	-9.82642
邱	-9.82681
衡山	-9.82687
禇	-9.82698
右丞	-9.82698
癡	-9.82724
徐浩	-9.8275
可見	-9.82951
蔽	-9.82971
流傳	-9.83014
真草	-9.83038
御臨	-9.83161
者如	-9.83161
鳩	-9.83189
金華	-9.83199
少年	-9.83246
飯	-9.83284
不必	-9.83318
癸	-9.83337
一一	-9.83465
之心	-9.83487
絹素	-9.8351
瓚	-9.83547
奥	-9.83556
諫	-9.83586
悠悠	-9.83594
褒	-9.83608
文公	-9.83695
不以	-9.83731
記云	-9.83745
之筆	-9.83756
孟頫	-9.83815
也夫	-9.83865
逵	-9.83876
一帖	-9.83878
配	-9.83881
近世	-9.83889
彰	-9.83899
賁	-9.83902
王獻之	-9.83945
籬	-9.83978
架	-9.8405
荘	-9.84129
相與	-9.84144
誼	-9.84169
援	-9.84187
掛	-9.84202
值	-9.84221
題詩	-9.84247
者必	-9.84406
國朝	-9.84426
劣	-9.84438
黨	-9.84455
三代	-9.845
觴	-9.84502
一㸃	-9.84563
承㫖	-9.84621
大抵	-9.84706
毁	-9.84746
渉	-9.84749
名人	-9.84773
知之	-9.84774
草聖	-9.84777
卑	-9.84784
懼	-9.84813
龔	-9.84824
七言	-9.84835
割	-9.8508
踰	-9.85114
靣	-9.85137
蘓	-9.85183
嘉定	-9.85344
衣冠	-9.85365
卞	-9.8542
宦	-9.85423
啄	-9.85432
瑟	-9.85435
漆	-9.85444
同上	-9.85615
彝	-9.85667
文敏	-9.8567
失其	-9.8567
湏	-9.85717
的	-9.85736
亦善	-9.85803
第二十	-9.85933
宣王	-9.85985
猷	-9.86047
春草	-9.86113
欵署	-9.86128
耳髙	-9.86147
黄筌	-9.862
此詩	-9.8624
丹陽	-9.86289
奈何	-9.86369
二卷	-9.86393
得於	-9.86438
所載	-9.86526
五色	-9.86561
掣	-9.86608
遼	-9.86629
般	-9.86654
詢	-9.86934
拾	-9.86939
躬	-9.86941
杳	-9.86956
元趙孟頫	-9.86972
謫	-9.86973
育	-9.86976
想見	-9.86988
不減	-9.87047
輞川	-9.87047
長沙	-9.87061
歴代	-9.87143
溢	-9.8722
書于	-9.87235
世傳	-9.87236
涇	-9.8724
握	-9.87241
磔	-9.87243
其形	-9.87261
矯	-9.87291
不識	-9.87372
一印又	-9.87438
手書	-9.87575
儉	-9.87606
酌	-9.87608
不多	-9.87612
索靖	-9.87621
華亭	-9.87667
趙文敏	-9.8767
尤為	-9.87689
不宣	-9.87788
自得	-9.87837
米南宫	-9.87881
妹	-9.87903
柴	-9.87907
稚	-9.87916
攀	-9.87931
睡	-9.87976
篁	-9.87981
宗室	-9.88058
題句	-9.88062
誥	-9.88151
協	-9.88173
司空	-9.882
書此	-9.88201
宸翰	-9.88249
八法	-9.88262
作此	-9.88278
筆端	-9.88352
起居	-9.88499
紙上	-9.88501
隐	-9.88503
函	-9.88522
堵	-9.88526
重一百	-9.88546
抵	-9.8856
王僧䖍	-9.88649
卷中	-9.88659
府君	-9.88776
旬	-9.88807
逺近	-9.88828
弊	-9.88834
軌	-9.88852
者其	-9.88858
劉松年	-9.88924
者則	-9.88925
邕	-9.89028
隠居	-9.89065
巳	-9.89069
故其	-9.89143
人皆	-9.89144
或有	-9.89214
之作	-9.89337
萱	-9.89372
合作	-9.89396
濁	-9.89473
醜	-9.89476
淑	-9.89487
蔚	-9.89517
綸	-9.89522
搜	-9.89541
曜	-9.89548
髯	-9.89549
與此	-9.89606
十五年	-9.89648
蕭蕭	-9.89653
禮部	-9.89736
邨	-9.89798
數百	-9.89844
相國	-9.89867
遙	-9.89888
仇英	-9.89913
中書令	-9.89944
海岳	-9.90006
他日	-9.90039
得名	-9.90071
謝安	-9.90081
碑隂	-9.90084
廓	-9.901
翩翩	-9.90142
臨本	-9.90288
吾家	-9.90341
喪	-9.90421
瓦	-9.90457
匹	-9.90482
頓首再拜	-9.90483
翰林學士	-9.90537
穴	-9.90552
之盛	-9.90559
泥金	-9.9059
賴	-9.90791
播	-9.90795
暖	-9.90807
碩	-9.90835
之孫	-9.90847
則有	-9.90913
篆隸	-9.90929
世間	-9.90952
享	-9.91084
耿	-9.91124
尤善	-9.91169
𤓰	-9.91204
六朝	-9.9122
棘	-9.91292
祕書	-9.91324
禍	-9.91387
淚	-9.91411
逕	-9.91421
自成一家	-9.91438
真人	-9.91439
崑山	-9.91457
隴	-9.91478
吳中	-9.91481
太尉	-9.91584
博雅	-9.91679
倩	-9.91733
毋	-9.91767
㸔	-9.91814
太傅	-9.91933
生平	-9.91982
迅	-9.92021
朝廷	-9.92052
一寸	-9.92065
杏	-9.92185
𢎞治	-9.92209
王蒙	-9.92255
行楷書	-9.92289
亦自	-9.92371
裹	-9.92399
於後	-9.92403
拖尾	-9.9243
棠	-9.92526
之趣	-9.92651
雉	-9.92653
挂	-9.92746
閏	-9.92753
騷	-9.92777
琦	-9.92783
可喜	-9.92819
尤精	-9.9289
富貴	-9.92902
其法	-9.92902
真行	-9.92914
第一幅	-9.9297
三十六	-9.9298
賊	-9.93056
拳	-9.93062
聨	-9.93104
旗	-9.93148
石經	-9.93154
第七	-9.93207
昻	-9.93318
䖍	-9.93359
弩	-9.93362
南唐	-9.93379
鵝	-9.9339
庚	-9.93439
并題	-9.93444
二寸	-9.93446
妙絶	-9.93515
知名	-9.93574
前輩	-9.93582
論畫	-9.93596
宋元	-9.93632
鹽	-9.93678
荀	-9.93722
曇	-9.93752
筋骨	-9.93777
窻	-9.93825
花卉	-9.9387
太祖	-9.93939
不宜	-9.93991
縮	-9.94041
水仙	-9.94049
區	-9.94105
翫	-9.9412
雕	-9.94143
終日	-9.94161
元和	-9.94195
墨池編	-9.94276
鍾鼎款識	-9.94349
貝	-9.94374
朴	-9.94403
迥	-9.94405
氣象	-9.94425
貶	-9.94454
魂	-9.9452
古法	-9.94548
無復	-9.9456
種種	-9.94585
與之	-9.94637
嶠	-9.94761
言之	-9.94806
吁	-9.94828
雪景	-9.94845
雖然	-9.94903
杭州	-9.94984
鉤	-9.94986
稱其	-9.94994
江上	-9.95029
相傳	-9.95071
之學	-9.95249
什	-9.9541
平原	-9.95426
聰	-9.95433
洛神賦	-9.95447
􁀙	-9.95452
不相	-9.95454
蠶	-9.95462
維摩	-9.95492
延祐	-9.95511
之則	-9.95572
韓幹	-9.95608
二印又	-9.95626
蕭子雲	-9.95759
駭	-9.95837
展玩	-9.95888
一部	-9.95894
右高	-9.95966
見此	-9.96073
四方	-9.96146
未知	-9.96191
黒	-9.96222
參差	-9.9623
林木	-9.9627
黄庭堅	-9.96276
灘	-9.96299
臨川	-9.96328
天然	-9.96411
中興	-9.96442
帥	-9.96447
淪	-9.96464
飽	-9.9647
耆	-9.96478
竝	-9.96551
太學	-9.96614
腹圍二尺	-9.96629
執筆	-9.96679
公子	-9.96708
摘	-9.96837
羲之頓首	-9.96868
郭熙	-9.96944
十一年	-9.97124
徧	-9.97127
當年	-9.97163
唱	-9.97178
婁	-9.972
孺	-9.972
抗	-9.97208
文學	-9.97222
文徵明	-9.97449
誓	-9.97459
軰	-9.97461
扁	-9.97488
昶	-9.975
中書舍人	-9.97503
桞	-9.97514
討	-9.97536
穎	-9.97537
占	-9.97552
宋史本傳	-9.97552
尚有	-9.97568
檜	-9.97579
滕	-9.97583
神氣	-9.97714
趙子昻	-9.97744
第二幅	-9.97772
隣	-9.9785
泣	-9.97858
曰吾	-9.9801
流落	-9.98081
出示	-9.98216
夘	-9.98219
笠	-9.98223
二公	-9.98284
二尺	-9.98306
廬陵	-9.98348
存者	-9.98355
妙品	-9.9839
松江	-9.98403
沖	-9.98497
塲	-9.98509
張長史	-9.98575
其昌	-9.98622
墨妙	-9.98679
政和	-9.9871
不易	-9.98734
復有	-9.98752
貞元	-9.98829
西山	-9.98862
掠	-9.98874
諒	-9.98878
朕	-9.98891
槎	-9.98911
膏	-9.98942
猗	-9.98996
羲獻	-9.99005
右軍書	-9.99066
鬭	-9.99069
款題云	-9.99091
第六	-9.9915
趙松雪	-9.99224
轍	-9.99237
怨	-9.9927
防	-9.99273
所傳	-9.99502
韶	-9.9957
派	-9.9957
屠	-9.99583
挫	-9.99593
榜	-9.99596
臂	-9.99607
者乎	-9.99646
畫家	-9.9972
秋日	-9.99757
譬	-10.003
刋	-10.0031
渺	-10.0036
勇	-10.0037
閭	-10.0037
鳬	-10.0041
敬題	-10.0045
嬰	-10.0045
篆籀	-10.0056
酣	-10.0061
運筆	-10.0068
晋	-10.0069
迨	-10.007
貨	-10.007
郭忠恕	-10.0075
株	-10.0078
元帝	-10.008
不類	-10.0082
小璽	-10.0083
楓	-10.0084
透	-10.0099
中郎	-10.0107
神妙	-10.0108
畫卷	-10.0108
而能	-10.0118
最為	-10.012
諸葛	-10.0121
豈非	-10.0128
不録	-10.0128
矣然	-10.013
宣和書譜	-10.013
庵	-10.0145
梁武帝	-10.0153
米老	-10.0154
畫圖	-10.0157
營丘	-10.0157
童子	-10.0161
忍	-10.0165
未可	-10.0166
柄	-10.0171
決	-10.0172
犯	-10.0173
幽人	-10.0176
縷	-10.0178
逆	-10.018
宛然	-10.0194
聖祖仁皇帝	-10.0202
括	-10.0209
茫	-10.021
蜀人	-10.021
琅	-10.0212
艱	-10.0216
少卿	-10.0222
皆以	-10.0227
向背	-10.0234
第三幅	-10.0237
粟	-10.0237
大徳	-10.0241
域	-10.0247
浸	-10.0248
癖	-10.0248
涵	-10.0248
洒	-10.0249
王叔明	-10.025
史籀	-10.0252
綾	-10.0254
迪	-10.026
赤壁	-10.0268
諸人	-10.0276
六書	-10.0276
畫繼	-10.0279
爪	-10.0286
斂	-10.0286
之言	-10.0291
蕉林	-10.0299
上方	-10.0308
卷前有	-10.031
行筆	-10.031
項元汴印	-10.0312
蘇軾	-10.0312
翟	-10.0322
文徴明	-10.0326
聳	-10.033
文殊	-10.0334
妙處	-10.0342
字體	-10.0347
明日	-10.0347
紙墨	-10.035
觀此	-10.0358
銜	-10.0366
畫竹	-10.0368
鋪	-10.0369
皓	-10.0378
卦	-10.0391
携	-10.0394
茗	-10.0397
之事	-10.0403
夙	-10.0403
亦能	-10.0407
莫能	-10.0414
檇李	-10.043
槐	-10.0431
不朽	-10.0434
胷	-10.0434
詎	-10.0437
堆	-10.0439
穀	-10.0443
柘	-10.0447
卷首	-10.0466
丙	-10.0466
嫌	-10.047
祁	-10.0471
南渡	-10.0472
揖	-10.0473
伐	-10.0476
天寳	-10.0476
好學	-10.0476
畫像	-10.0478
丘壑	-10.0481
之流	-10.0482
馬和之	-10.0494
小幅	-10.0499
宋徽宗	-10.05
徴明	-10.0501
海内	-10.0505
慘	-10.0506
芬	-10.0509
蕪	-10.051
奎	-10.051
慢	-10.0511
驥	-10.0512
巗	-10.0513
伴	-10.0514
明帝	-10.0521
南山	-10.0533
考之	-10.054
霏	-10.0547
能品	-10.0553
相類	-10.0559
黄鶴	-10.0566
畫法	-10.057
南北	-10.0571
府志	-10.0572
秋色	-10.0574
叅	-10.0579
瓶	-10.0581
天下之	-10.0582
東南	-10.0584
㧞	-10.0584
坊	-10.0586
緊	-10.0587
苕	-10.0589
冥	-10.0591
周公	-10.0606
先君	-10.0608
禧	-10.0621
收藏	-10.0626
驟	-10.0626
駒	-10.0628
一見	-10.0654
米氏	-10.0656
纖	-10.066
淋漓	-10.0661
夕陽	-10.0662
壤	-10.0663
元暉	-10.0665
从	-10.0665
草蟲	-10.0667
未得	-10.0667
月既望	-10.0674
國初	-10.0675
永嘉	-10.0678
廬山	-10.0678
吏部	-10.0681
區區	-10.0698
寢	-10.0699
侵	-10.0699
橘	-10.07
鬢	-10.07
瀑	-10.07
悵	-10.0701
猛	-10.0701
李邕	-10.0707
已上	-10.0707
杏花	-10.0708
待制	-10.0713
卷末	-10.0717
京口	-10.072
之祖	-10.0723
東西	-10.0729
碣	-10.0733
圜	-10.0735
醇	-10.0735
逝	-10.0739
可得	-10.0739
薛稷	-10.074
蹇	-10.0743
今世	-10.075
晚年	-10.0759
大觀	-10.0772
構	-10.0772
太白	-10.0772
一篇	-10.0775
蘿	-10.0776
滴	-10.0776
羞	-10.0776
翥	-10.0778
鬚	-10.0782
當以	-10.0783
天真	-10.0791
北海	-10.0793
始皇	-10.0794
愛之	-10.0802
自題	-10.0803
曼	-10.0804
外史	-10.0806
甞	-10.081
劄	-10.0812
拖尾有	-10.0815
罔	-10.0816
迄	-10.0818
坦	-10.0818
截	-10.0819
装	-10.082
瀛	-10.082
士女	-10.082
子固	-10.082
帳	-10.0821
第四幅	-10.0834
唐太宗	-10.0839
花竹	-10.0842
沂	-10.0848
𦂳	-10.0849
宰相	-10.0864
甚多	-10.0867
第七幅	-10.0868
神明	-10.0881
以上	-10.0884
淹	-10.0887
捨	-10.089
褚河南	-10.089
摧	-10.089
浴	-10.0892
禎	-10.0892
未易	-10.0906
虞集	-10.0907
第六幅	-10.0907
趙氏	-10.0912
兩耳	-10.0924
瑩	-10.0928
阜	-10.093
臯	-10.0932
寐	-10.0933
繹	-10.0934
腸	-10.0934
牆	-10.0935
蘇州	-10.0957
時為	-10.0957
不忘	-10.0961
甥	-10.0964
贋	-10.0966
石本	-10.0968
鐫	-10.0969
一作	-10.0969
邇	-10.0971
挾	-10.0974
分明	-10.0981
麻紙	-10.0985
人善畫	-10.0985
晉唐	-10.0998
其餘	-10.1
二首	-10.1001
入妙	-10.1001
俱有	-10.1004
挑	-10.1009
矢	-10.1009
睂	-10.101
嘉興	-10.101
兀	-10.1011
埃	-10.1012
欺	-10.1013
虬	-10.1014
艇	-10.1017
布置	-10.1022
南陽	-10.1028
𤣥宗	-10.1039
妨	-10.1046
傲	-10.1047
盟	-10.1049
責	-10.1049
迺	-10.1051
斧	-10.1052
娥	-10.1053
㫁	-10.1054
何必	-10.1064
第五幅	-10.1065
匀	-10.108
秋水	-10.1084
珉	-10.1088
辛丑	-10.1095
第八幅	-10.1095
狐	-10.11
未盡	-10.1116
之時	-10.1118
元豐	-10.1121
至此	-10.1123
紆	-10.1127
酷	-10.1128
凛	-10.1128
裘	-10.113
捧	-10.113
皎	-10.1132
莽	-10.1134
東風	-10.1135
昧	-10.1149
明年	-10.1152
豫	-10.1159
舅	-10.1165
饕餮	-10.1167
麤	-10.1169
十二年	-10.117
欄	-10.1174
吞	-10.1175
姑蘇	-10.1179
百餘	-10.1186
草隸	-10.1188
宋蘇軾	-10.1193
十三年	-10.1199
長江	-10.1202
鷂	-10.1205
版	-10.1209
故事	-10.121
緻	-10.121
藹	-10.1212
節度使	-10.1217
諸賢	-10.1229
人工畫	-10.1244
筍	-10.1244
優劣	-10.1246
庚子	-10.1249
潜	-10.1249
蹈	-10.125
不與	-10.1253
致仕	-10.1277
顧陸	-10.128
戊	-10.1286
䦨	-10.1286
君謨	-10.1286
沾	-10.1288
張彦逺	-10.1289
王孫	-10.129
清勁	-10.129
千金	-10.1293
皇象	-10.1297
瀟灑	-10.1297
之義	-10.1298
鎖	-10.1299
風神	-10.1305
二十年	-10.1308
魏晉	-10.1309
太和	-10.1316
竪	-10.1322
舊藏	-10.1323
鶻	-10.1323
所臨	-10.1326
欹	-10.1326
圎	-10.1328
曲盡	-10.1328
措	-10.133
梓	-10.1332
歐虞	-10.1333
蕉	-10.1334
八字	-10.1335
瑛	-10.1336
沙門	-10.1344
鶯	-10.1344
蛟	-10.1355
叔明	-10.1355
南宫	-10.136
次之	-10.1361
雲氣	-10.1363
籖	-10.1366
阻	-10.1367
打	-10.1368
企	-10.1369
今年	-10.1369
琰	-10.1372
月望日	-10.1376
髙祖	-10.1377
文正公	-10.1377
瀾	-10.1377
素牋本	-10.1381
十餘年	-10.1382
次韻	-10.1383
率更	-10.1388
嘗為	-10.1394
傳世	-10.1403
𦙍	-10.1409
雛	-10.141
山色	-10.141
山居	-10.141
閟	-10.1413
革	-10.1414
堂記	-10.1416
往來	-10.142
歇	-10.1426
之道	-10.1431
近代	-10.1433
視之	-10.1435
圖繪寳鑑	-10.1443
三絶	-10.1446
他人	-10.1449
瓣	-10.1454
誣	-10.1457
羈	-10.1458
攸	-10.1493
島	-10.1494
栢	-10.1497
牖	-10.1497
幕	-10.1536
兎	-10.1566
該	-10.1574
析	-10.1576
蹲	-10.1612
縑	-10.1656
強	-10.166
勵	-10.166
確	-10.1663
閨	-10.1663
忙	-10.1668
霸	-10.1705
偕	-10.1706
擕	-10.1707
儲	-10.1708
昂	-10.1715
宵	-10.1745
冲	-10.175
匡	-10.1751
峽	-10.1753
叠	-10.1753
纓	-10.176
救	-10.1784
恪	-10.1784
冶	-10.1787
軾	-10.179
洋	-10.1792
衮	-10.1792
瓌	-10.183
藩	-10.1832
鐡	-10.1835
祚	-10.1838
澀	-10.1868
虧	-10.1875
績	-10.1915
曷	-10.1919
鞭	-10.1928
萃	-10.1962
箇	-10.1963
誨	-10.2001
絡	-10.2004
縉	-10.2005
誅	-10.2005
邸	-10.2006
薇	-10.2013
蹄	-10.2014
綵	-10.2014
黑	-10.2051
樸	-10.2053
産	-10.2054
線	-10.2055
箴	-10.2079
暨	-10.2088
竭	-10.2095
煜	-10.2095
蕙	-10.2135
箕	-10.2136
拈	-10.2137
粧	-10.2137
祈	-10.2137
詭	-10.2137
䕃	-10.2138
簫	-10.2139
胸	-10.2162
珂	-10.2176
膝	-10.2181
檻	-10.2183
盆	-10.2195
笈	-10.2219
算	-10.222
膺	-10.2221
衂	-10.2221
寔	-10.2221
羡	-10.2226
椿	-10.2229
妖	-10.223
厓	-10.2236
寅	-10.2241
胄	-10.2263
崩	-10.2264
饑	-10.2267
亟	-10.2269
畜	-10.2269
賣	-10.2272
鴿	-10.2289
膚	-10.2315
恥	-10.2316
黍	-10.2316
艶	-10.232
奈	-10.2346
沛	-10.2363
遮	-10.2365
貪	-10.2403
咨	-10.2404
嬌	-10.2406
艾	-10.2411
湍	-10.2411
溥	-10.2441
瑕	-10.2447
笙	-10.2451
荔	-10.2454
觧	-10.2496
霅	-10.2508
拓	-10.2532
瞿	-10.2535
邢	-10.2535
葬	-10.2539
彛	-10.2539
訛	-10.2541
篋	-10.2542
斑	-10.2542
肌	-10.2544
邀	-10.2548
鴉	-10.2551
樊	-10.2585
濠	-10.2587
輦	-10.2592
蹙	-10.2631
筵	-10.2633
鉅	-10.2634
彬	-10.2636
熹	-10.2637
舘	-10.2638
謨	-10.2665
鶉	-10.2673
㦸	-10.2677
屑	-10.268
攝	-10.2683
衝	-10.2683
驢	-10.2685
暎	-10.2687
拒	-10.2701
潁	-10.2718
逃	-10.2721
宸	-10.2724
遁	-10.2729
刪	-10.2732
銷	-10.2733
讚	-10.2766
輟	-10.2769
䨇	-10.2775
鈍	-10.2775
凍	-10.2776
撥	-10.2816
綜	-10.2821
抽	-10.2823
催	-10.2825
牒	-10.2825
犀	-10.2825
膠	-10.2826
颯	-10.2829
鬲	-10.2859
筌	-10.2863
濡	-10.2869
挹	-10.287
莖	-10.2872
璞	-10.2873
昉	-10.2913
恱	-10.2916
儔	-10.2918
緯	-10.2919
蔬	-10.2926
牘	-10.2958
鄴	-10.297
貓	-10.2984
僻	-10.3008
僖	-10.301
渴	-10.3012
驛	-10.3013
溺	-10.3054
軟	-10.3062
迢	-10.3062
喧	-10.3063
戸	-10.3063
驪	-10.3064
捲	-10.3064
暴	-10.3064
跨	-10.3065
灌	-10.3067
戱	-10.3078
迂	-10.3107
警	-10.3108
輸	-10.311
料	-10.311
墻	-10.3111
着	-10.3113
繆	-10.3155
垣	-10.316
紈	-10.3165
瑜	-10.3167
寥	-10.3198
譏	-10.3202
岩	-10.3204
燥	-10.3206
喚	-10.3208
蔓	-10.321
岱	-10.3212
蠻	-10.3214
羨	-10.3216
禊	-10.3236
劇	-10.3253
滌	-10.3257
臆	-10.3257
扉	-10.3259
豹	-10.3259
湧	-10.3263
嫩	-10.3265
暫	-10.3302
胥	-10.3303
衢	-10.3307
袍	-10.3307
鈕	-10.331
瓢	-10.3311
烹	-10.3313
覔	-10.3314
匜	-10.3323
限	-10.3324
現	-10.3354
掲	-10.3354
廸	-10.3357
諧	-10.3361
郗	-10.3362
晁	-10.34
婆	-10.34
悔	-10.3403
軼	-10.3403
恣	-10.3408
蹊	-10.341
擲	-10.341
笏	-10.3414
脂	-10.345
黎	-10.3451
泯	-10.3455
墳	-10.3455
嶂	-10.3457
鏤	-10.3459
棋	-10.346
貎	-10.35
㕘	-10.3503
陟	-10.3507
摸	-10.3551
慚	-10.3555
汾	-10.3555
偈	-10.3556
纒	-10.3557
巷	-10.3608
哭	-10.3609
簪	-10.3614
踞	-10.3665
巫	-10.3669
剥	-10.3706
朶	-10.3712
弁	-10.3714
勘	-10.3723
護	-10.3759
脉	-10.3762
頤	-10.3764
呵	-10.3765
擾	-10.3766
粹	-10.3767
霖	-10.3767
榴	-10.3786
財	-10.3808
䘮	-10.3813
拍	-10.3818
斥	-10.3866
㝷	-10.3867
愔	-10.3868
匣	-10.3869
翳	-10.3871
畆	-10.3871
認	-10.3872
仝	-10.3872
陂	-10.3875
伽	-10.3918
宙	-10.3918
頡	-10.3918
獐	-10.3919
豁	-10.392
恢	-10.3925
溫	-10.3926
甬	-10.3961
䖏	-10.397
毒	-10.3972
鉢	-10.3972
葦	-10.3973
煮	-10.3974
抹	-10.3974
馨	-10.3978
妝	-10.3978
咎	-10.3979
㕔	-10.4022
怯	-10.4027
勃	-10.4027
薰	-10.4077
苐	-10.4078
魄	-10.4081
踐	-10.4082
演	-10.4083
冢	-10.4084
蘋	-10.4087
灣	-10.4142
鐙	-10.4178
畦	-10.4183
狼	-10.419
􁁊	-10.4194
薫	-10.4239
祇	-10.424
贅	-10.424
鋭	-10.424
峨	-10.4247
燒	-10.4297
鼠	-10.43
摺	-10.4343
搆	-10.4346
臧	-10.4347
壊	-10.4349
贍	-10.4351
涕	-10.4355
斛	-10.4356
凱	-10.4404
兆	-10.4405
翬	-10.4407
郁	-10.4409
𣺌	-10.4411
耽	-10.4412
磯	-10.4412
爐	-10.4413
捕	-10.4425
戀	-10.446
浣	-10.4461
娛	-10.4462
仗	-10.4463
辦	-10.4464
蒸	-10.4466
渥	-10.4473
麾	-10.4515
髓	-10.4517
孚	-10.4518
註	-10.4519
僉	-10.452
澁	-10.4521
眺	-10.4524
簇	-10.4525
捺	-10.4558
簿	-10.4566
跳	-10.4571
搖	-10.4572
釐	-10.4575
凄	-10.4576
竦	-10.4576
祿	-10.4578
鈐	-10.4605
窠	-10.4611
棗	-10.4625
鐸	-10.4625
俄	-10.4626
叩	-10.4626
悚	-10.4628
捐	-10.4629
暈	-10.4631
複	-10.4633
腴	-10.4634
柬	-10.4679
準	-10.4682
鮑	-10.4684
冉	-10.4685
箭	-10.4686
叚	-10.4688
峙	-10.4691
潢	-10.4691
瑤	-10.4691
脈	-10.4734
曳	-10.4739
穠	-10.4743
凋	-10.4744
毗	-10.4745
嬉	-10.4748
繭	-10.4749
匏	-10.4749
峩	-10.4751
廻	-10.4798
梗	-10.4801
訖	-10.4803
犧	-10.4804
溟	-10.4805
彥	-10.4806
敕	-10.4806
畨	-10.4809
蜂	-10.481
槃	-10.4862
穰	-10.4863
銳	-10.4905
撆	-10.4908
黔	-10.4912
諷	-10.4917
栽	-10.4921
嫁	-10.4922
汙	-10.4922
淇	-10.4925
艸	-10.4966
陜	-10.4967
朽	-10.4974
効	-10.4975
禾	-10.4977
儻	-10.4977
蚤	-10.4981
閎	-10.4983
樽	-10.5029
随	-10.503
浚	-10.5031
妾	-10.5031
緘	-10.5033
概	-10.5035
弔	-10.5035
磵	-10.5036
葩	-10.5038
翅	-10.5038
黛	-10.504
詰	-10.508
牢	-10.5091
瑣	-10.5096
擘	-10.5098
埋	-10.5101
褾	-10.5106
壬	-10.5113
漪	-10.5149
洎	-10.515
鋬	-10.5152
翹	-10.5155
禀	-10.5156
𢃄	-10.5156
靳	-10.5157
裊	-10.5158
墟	-10.5159
抄	-10.5208
掾	-10.5219
淸	-10.5221
苗	-10.524
丑	-10.5247
馭	-10.527
蠟	-10.527
闔	-10.5272
蠅	-10.5273
墅	-10.5273
攬	-10.5273
闢	-10.5277
珮	-10.5278
佚	-10.5281
甕	-10.5283
决	-10.5329
姊	-10.5329
逋	-10.5332
譚	-10.5334
舌	-10.5335
曄	-10.5335
剡	-10.5338
橅	-10.5342
篷	-10.5344
婺	-10.5389
欠	-10.5392
霍	-10.5393
丸	-10.5393
倘	-10.5394
笥	-10.5395
殁	-10.5396
訥	-10.5397
針	-10.5398
砥	-10.54
衷	-10.54
凰	-10.5401
秩	-10.5405
苖	-10.5422
佑	-10.5446
陪	-10.545
倐	-10.5455
凖	-10.5459
萊	-10.5459
迫	-10.546
螺	-10.546
皋	-10.5461
暝	-10.5463
栗	-10.5473
捉	-10.5516
顒	-10.5519
黯	-10.5519
敝	-10.5519
顰	-10.5521
油	-10.5522
液	-10.5522
盜	-10.5526
艷	-10.5533
鉉	-10.5574
緝	-10.5576
鉛	-10.5579
鍊	-10.5583
銕	-10.5584
冝	-10.5584
卉	-10.5637
醴	-10.564
顏	-10.5646
龎	-10.5647
棊	-10.5648
韜	-10.5703
閔	-10.5707
侣	-10.5708
廼	-10.5708
濵	-10.5712
噴	-10.5713
㪚	-10.5766
宕	-10.5766
臘	-10.5767
晞	-10.5768
鬻	-10.5769
壻	-10.577
窗	-10.5772
瑾	-10.5774
努	-10.582
韵	-10.5827
斫	-10.5833
聯	-10.5834
巍	-10.5835
翛	-10.5839
紱	-10.584
鷥	-10.5889
簋	-10.5893
燦	-10.5894
帷	-10.5894
慙	-10.5898
巡	-10.5899
鍳	-10.5899
矧	-10.59
晶	-10.5902
睢	-10.5903
僊	-10.591
狄	-10.5955
灰	-10.5958
璪	-10.5959
歙	-10.596
躡	-10.596
眩	-10.5962
薊	-10.5962
諦	-10.5963
蓼	-10.5993
伎	-10.6024
它	-10.6026
紗	-10.6027
倡	-10.6028
呂	-10.603
旻	-10.6034
綃	-10.6035
稾	-10.6063
牟	-10.6087
濓	-10.6089
奠	-10.6091
娑	-10.6091
庖	-10.6093
棟	-10.6094
闇	-10.6096
晤	-10.6097
狎	-10.6097
冗	-10.6098
畱	-10.6098
穢	-10.6151
甗	-10.6152
樗	-10.6153
沿	-10.6157
盼	-10.6157
驄	-10.6159
頑	-10.6162
惲	-10.6164
漲	-10.6168
踪	-10.622
隻	-10.6221
簽	-10.6222
藜	-10.6222
敞	-10.6226
隙	-10.6228
帽	-10.6229
酉	-10.6287
頼	-10.6289
郝	-10.629
冒	-10.6292
惇	-10.6293
挽	-10.6295
穏	-10.6296
塢	-10.6297
䏻	-10.6341
拖	-10.6351
弦	-10.6351
酸	-10.6351
疲	-10.6353
拭	-10.6353
椒	-10.6354
朙	-10.6355
楹	-10.6355
億	-10.6358
寘	-10.636
夭	-10.6369
礙	-10.6419
嵇	-10.6419
膽	-10.6422
蚊	-10.6425
汎	-10.6429
懇	-10.643
插	-10.6432
寀	-10.6442
忝	-10.6488
藪	-10.6489
勻	-10.649
憤	-10.649
匾	-10.649
娘	-10.6491
窟	-10.6492
泗	-10.6493
罍	-10.6493
雋	-10.6493
髻	-10.6495
幷	-10.6495
歛	-10.6495
纍	-10.6495
炙	-10.6496
騁	-10.6497
聼	-10.6498
屐	-10.6499
雌	-10.65
㢘	-10.6501
濫	-10.6557
曩	-10.6559
怕	-10.6561
庠	-10.6562
敖	-10.6562
揆	-10.6562
課	-10.6564
黻	-10.6564
閤	-10.6567
隊	-10.6567
刹	-10.6567
磬	-10.6624
夔	-10.6626
朂	-10.6627
刃	-10.6631
秃	-10.6631
薤	-10.6633
魁	-10.6635
净	-10.6636
㨗	-10.6637
捷	-10.6696
𣲖	-10.6698
銓	-10.6698
郵	-10.67
恃	-10.67
袂	-10.6701
惶	-10.6702
培	-10.6703
瀆	-10.6705
娟	-10.6768
漿	-10.6772
貺	-10.6772
遶	-10.6775
翮	-10.6777
遞	-10.6834
沮	-10.6841
頽	-10.6843
拆	-10.6848
咒	-10.685
碌	-10.6905
奄	-10.6908
縛	-10.691
圉	-10.6916
𨼆	-10.6917
濮	-10.692
籟	-10.6924
狹	-10.6975
儋	-10.6976
督	-10.698
帚	-10.6985
斬	-10.6985
床	-10.6986
仞	-10.6987
鬬	-10.6991
龕	-10.7051
煌	-10.7055
鄂	-10.7055
巘	-10.7061
翊	-10.7064
杪	-10.7123
曙	-10.7129
犢	-10.7129
褐	-10.713
喈	-10.714
梨	-10.7194
刷	-10.7194
羸	-10.7197
漾	-10.7202
溜	-10.7207
濺	-10.7212
訝	-10.7273
侈	-10.7274
霆	-10.7274
减	-10.7278
禱	-10.7281
撲	-10.7283
寰	-10.7287
馴	-10.7288
渝	-10.734
濂	-10.7341
虢	-10.7343
僚	-10.7344
躋	-10.7346
霓	-10.7347
誚	-10.7348
従	-10.7349
傚	-10.7349
垢	-10.7351
璚	-10.7352
謾	-10.742
幢	-10.7423
孜	-10.7424
蓑	-10.7425
禦	-10.7425
屯	-10.7425
諤	-10.7426
穹	-10.7428
苞	-10.743
淞	-10.7497
偷	-10.7498
瓜	-10.7537
勑	-10.7572
疆	-10.7572
劔	-10.7573
潞	-10.7575
橫	-10.758
錐	-10.7581
蟾	-10.7583
蟄	-10.7588
銖	-10.7641
郢	-10.7642
央	-10.7645
覬	-10.7647
場	-10.7649
溶	-10.7651
飬	-10.7652
剔	-10.7652
吸	-10.7653
翩	-10.7653
沃	-10.7654
餐	-10.7655
騫	-10.7655
腐	-10.7656
裙	-10.7657
萍	-10.766
彚	-10.7722
杲	-10.7724
衲	-10.7731
掖	-10.7735
薪	-10.774
蟹	-10.7742
悼	-10.7795
滎	-10.7802
湮	-10.7803
盎	-10.7804
驕	-10.7806
讃	-10.7806
煎	-10.7807
泠	-10.7809
彤	-10.7811
惱	-10.7811
茒	-10.7881
股	-10.7882
棺	-10.7884
個	-10.7887
碁	-10.7902
搶	-10.7954
鈔	-10.7955
渤	-10.7955
莆	-10.7956
伍	-10.7958
悅	-10.7959
枉	-10.7959
航	-10.796
楫	-10.7961
羌	-10.7962
沼	-10.7962
寮	-10.7962
兢	-10.7963
糧	-10.7963
睛	-10.7968
菱	-10.8027
楨	-10.803
輅	-10.8039
稼	-10.8046
丰	-10.8115
嬾	-10.8116
濱	-10.8119
怠	-10.8119
壞	-10.8121
逄	-10.8121
娯	-10.8125
茹	-10.8126
瀉	-10.8127
刁	-10.813
駝	-10.8138
覿	-10.8199
釵	-10.82
挍	-10.8202
麄	-10.8203
梯	-10.8203
旱	-10.8205
熾	-10.8208
据	-10.8209
聘	-10.8273
珏	-10.8276
壮	-10.828
替	-10.8281
俠	-10.8282
汚	-10.8285
畝	-10.8286
晃	-10.8287
轡	-10.8289
惋	-10.8358
渙	-10.8358
蠧	-10.8359
陷	-10.8361
貲	-10.8364
鯨	-10.8364
桷	-10.8365
庻	-10.8366
豔	-10.8366
巵	-10.8367
奩	-10.8367
踵	-10.8368
鱸	-10.8372
俛	-10.8374
泳	-10.8376
譙	-10.844
愍	-10.8446
榦	-10.8447
璘	-10.8448
无	-10.8448
絮	-10.845
頰	-10.8451
烘	-10.8453
睹	-10.8525
鎭	-10.8526
軀	-10.8527
鯉	-10.8531
滔	-10.8531
琢	-10.8532
畀	-10.8532
麥	-10.8533
豳	-10.8536
衫	-10.8537
漬	-10.8538
籜	-10.855
翺	-10.8614
蘧	-10.8617
榭	-10.8622
峴	-10.8622
榆	-10.8697
侔	-10.8698
扈	-10.8699
寕	-10.87
陌	-10.8701
魔	-10.8702
灼	-10.8703
篠	-10.8705
靑	-10.8712
譌	-10.878
璋	-10.878
竄	-10.8781
糊	-10.8784
閬	-10.8785
竈	-10.8787
慿	-10.8787
籕	-10.879
抛	-10.879
曺	-10.8857
塑	-10.8861
颺	-10.8866
趺	-10.8867
乂	-10.8868
扣	-10.887
滉	-10.887
耐	-10.887
昕	-10.8873
覲	-10.8874
漂	-10.8875
馥	-10.8876
炯	-10.8876
顆	-10.8877
駢	-10.8877
珣	-10.895
豎	-10.8951
薨	-10.8952
球	-10.8955
蝕	-10.8955
憎	-10.896
蟻	-10.8961
翎	-10.8971
妓	-10.9034
綏	-10.9037
償	-10.9039
戾	-10.9042
胎	-10.9042
黜	-10.9043
刼	-10.9044
砌	-10.9044
涓	-10.9046
摶	-10.9046
囂	-10.9047
蹔	-10.9048
幡	-10.9049
籌	-10.9049
覃	-10.9049
狗	-10.9052
鬛	-10.9052
鞍	-10.9112
麈	-10.9124
穩	-10.9126
杞	-10.9129
氊	-10.9132
沽	-10.9135
穉	-10.9137
珩	-10.9138
甄	-10.9139
鷙	-10.915
埽	-10.9215
惘	-10.9216
潑	-10.9218
潯	-10.9218
邃	-10.9219
歿	-10.9222
縦	-10.9222
咽	-10.9223
欒	-10.9225
肝	-10.9226
悰	-10.9227
緇	-10.9227
洵	-10.923
尸	-10.923
巔	-10.923
翕	-10.9231
釀	-10.9232
嚮	-10.931
惻	-10.931
摭	-10.9313
僮	-10.9314
潄	-10.9319
簮	-10.9319
姻	-10.932
呌	-10.9325
顚	-10.9395
哈	-10.9396
拄	-10.9397
坤	-10.94
淫	-10.9401
頸	-10.9401
忱	-10.9401
頒	-10.9402
蒂	-10.9403
黼	-10.9404
擔	-10.9404
羮	-10.9405
綰	-10.9405
睨	-10.9406
訂	-10.9407
髩	-10.9407
貂	-10.9407
驤	-10.9409
兖	-10.9411
芸	-10.9414
猴	-10.9448
臭	-10.9489
琶	-10.9492
勛	-10.9492
茆	-10.9498
鏘	-10.9498
厄	-10.9502
砂	-10.9502
藂	-10.9518
輯	-10.9585
覧	-10.9585
廵	-10.9586
卻	-10.9587
媒	-10.9587
剖	-10.9588
槁	-10.9589
吝	-10.9592
䑕	-10.9596
斌	-10.9601
套	-10.9631
漕	-10.9685
梳	-10.9686
萌	-10.9686
睦	-10.9688
薜	-10.9696
舛	-10.9765
楞	-10.977
諌	-10.9775
噐	-10.9775
瘠	-10.9775
旃	-10.978
汁	-10.978
疋	-10.9781
煬	-10.986
撇	-10.9866
諮	-10.9868
樣	-10.9869
誡	-10.9869
瀟	-10.987
騐	-10.9872
嘶	-10.9872
訟	-10.9872
盗	-10.9876
攢	-10.9878
恰	-10.9879
貳	-10.9959
譯	-10.9962
募	-10.9964
餅	-10.9965
廡	-10.9966
廹	-10.9967
佞	-10.9968
崛	-10.9968
韞	-10.9968
婚	-10.9972
鼇	-10.9976
昊	-10.9978
裱	-10.9987
漣	-11.0059
䭾	-11.006
茲	-11.006
遘	-11.006
另	-11.006
罄	-11.0061
憾	-11.0062
繕	-11.0063
悴	-11.0066
粒	-11.0066
緬	-11.0067
茸	-11.0067
礬	-11.0068
咄	-11.0069
珊	-11.0069
㤗	-11.007
凜	-11.007
漠	-11.0071
蘂	-11.0071
筒	-11.0074
璃	-11.0076
盉	-11.0138
撮	-11.0157
叶	-11.0157
湜	-11.0159
刮	-11.016
潦	-11.016
窘	-11.0161
畿	-11.0163
憩	-11.0163
磊	-11.0163
挈	-11.0164
饗	-11.0164
鑾	-11.0164
亹	-11.0164
拏	-11.0166
覓	-11.0167
觶	-11.0251
㤀	-11.0255
兕	-11.0257
詮	-11.0259
脯	-11.026
街	-11.0261
攘	-11.0262
釘	-11.0264
鬟	-11.0264
塊	-11.0265
琬	-11.0267
笋	-11.0269
刊	-11.0345
迦	-11.0352
飢	-11.0356
棣	-11.0357
臼	-11.0359
彎	-11.0359
陞	-11.036
瑗	-11.036
彪	-11.0362
幣	-11.0362
戍	-11.0363
䟽	-11.0364
駟	-11.0366
蒨	-11.0371
件	-11.0371
慤	-11.0373
瑰	-11.0379
棧	-11.0382
躭	-11.0457
剰	-11.0459
鑰	-11.046
溍	-11.046
腥	-11.0463
濬	-11.0464
縝	-11.0464
裾	-11.0464
鏁	-11.0466
嫗	-11.0467
組	-11.0467
敲	-11.0469
簠	-11.055
誘	-11.0559
蛾	-11.0559
愷	-11.056
玠	-11.0563
蔑	-11.0564
斵	-11.0564
牝	-11.0565
遑	-11.0566
聶	-11.0567
閶	-11.0568
迤	-11.0568
襪	-11.0569
哥	-11.0572
聮	-11.0664
壘	-11.0667
裡	-11.0667
闡	-11.0668
妬	-11.0669
愴	-11.0669
掇	-11.067
箱	-11.0671
圈	-11.0674
舂	-11.0675
隄	-11.0678
暘	-11.0764
奸	-11.0768
蕊	-11.0768
㫤	-11.0769
郄	-11.0771
璜	-11.0771
匿	-11.0772
磴	-11.0773
湫	-11.0779
騏	-11.078
冦	-11.0781
煉	-11.0782
憚	-11.0783
蠡	-11.0785
荇	-11.0821
茄	-11.0835
譔	-11.0867
玅	-11.0869
愉	-11.0876
叱	-11.0877
逈	-11.0877
餓	-11.0879
槖	-11.088
瀨	-11.0882
煑	-11.0888
悠	-11.0963
簣	-11.0972
廖	-11.0978
鞏	-11.0979
愿	-11.0979
茟	-11.098
姥	-11.0981
掬	-11.0981
盂	-11.0981
邯	-11.0982
琛	-11.0982
昱	-11.0985
秣	-11.0986
榛	-11.0987
店	-11.0987
亘	-11.0989
璲	-11.0991
茘	-11.0996
鷯	-11.1053
跌	-11.1077
泐	-11.1084
掉	-11.1088
餉	-11.1089
凶	-11.1089
倅	-11.1089
婢	-11.109
檄	-11.1091
沓	-11.1091
鶚	-11.1092
凭	-11.1093
惕	-11.1093
寤	-11.1094
菲	-11.1094
躅	-11.1096
絢	-11.1098
翌	-11.1098
氛	-11.1098
侃	-11.1098
臾	-11.1099
愜	-11.1099
淄	-11.1192
溝	-11.1193
爻	-11.1197
災	-11.1199
佇	-11.1202
掀	-11.1202
笻	-11.1203
鴛	-11.1203
翡	-11.1204
虺	-11.1204
凢	-11.1204
鄔	-11.1205
稠	-11.1207
崑	-11.1295
牓	-11.1301
諾	-11.1303
蘄	-11.1304
鄞	-11.1304
颼	-11.1307
捜	-11.1309
牡	-11.1309
䑓	-11.1309
盃	-11.1309
椽	-11.1314
迸	-11.1314
浹	-11.1314
澂	-11.1314
璣	-11.1316
遯	-11.1316
伶	-11.1317
丨	-11.1401
淛	-11.141
棃	-11.142
棐	-11.142
嶼	-11.1423
琚	-11.1424
櫂	-11.1427
麋	-11.1433
磁	-11.1512
渲	-11.1524
肘	-11.1526
衎	-11.1527
义	-11.1528
裒	-11.1529
巽	-11.153
隼	-11.1532
嘲	-11.1532
琪	-11.1534
僭	-11.1535
罨	-11.1535
瘞	-11.1535
㺯	-11.1536
夸	-11.1536
蜜	-11.1537
邠	-11.1539
筯	-11.1541
芥	-11.1553
瓿	-11.1625
緜	-11.1641
贖	-11.1642
璠	-11.1643
槀	-11.1644
竅	-11.1645
眇	-11.1645
臚	-11.1646
茨	-11.1647
璟	-11.1648
鬰	-11.1648
泓	-11.1648
礴	-11.1649
㡌	-11.165
鷓	-11.165
萼	-11.165
葺	-11.1652
擎	-11.1652
俸	-11.1653
篔	-11.1654
堤	-11.1655
瑋	-11.1657
燧	-11.1755
詡	-11.1757
嗤	-11.1759
砢	-11.1759
鈿	-11.1762
冺	-11.1762
翦	-11.1763
逞	-11.1763
炊	-11.1763
岷	-11.1764
畹	-11.1766
擺	-11.1767
遨	-11.1767
琮	-11.1769
唇	-11.1769
猫	-11.1774
噪	-11.18
驂	-11.1873
愼	-11.1874
徂	-11.1875
萋	-11.1876
悶	-11.1877
撿	-11.1877
紐	-11.1878
淙	-11.1878
鍇	-11.188
冨	-11.1882
㟁	-11.1882
礪	-11.1883
甌	-11.1883
戡	-11.1884
魅	-11.1884
潼	-11.1886
蝴	-11.1888
扆	-11.1892
矛	-11.1989
堦	-11.1989
膾	-11.1995
閫	-11.1997
蕋	-11.1998
囿	-11.1999
顓	-11.2
蛺	-11.2005
瞰	-11.2006
樾	-11.2009
鵒	-11.2016
竺	-11.2101
醪	-11.2107
渇	-11.211
娶	-11.211
昃	-11.2111
嵬	-11.2114
撝	-11.2116
悽	-11.2117
蜿	-11.2118
瀚	-11.2119
估	-11.2119
捫	-11.212
髦	-11.2128
緋	-11.2129
潺	-11.2224
侗	-11.2227
鈴	-11.2228
澣	-11.2233
粘	-11.2235
参	-11.2235
詆	-11.2237
曝	-11.2237
搏	-11.2238
燼	-11.2238
唾	-11.2239
洶	-11.2248
蝦	-11.225
駁	-11.2352
霑	-11.2352
貟	-11.2353
擒	-11.2354
錞	-11.2355
點	-11.2356
骸	-11.2357
亢	-11.2358
掘	-11.2359
逍	-11.2362
蘚	-11.2363
罏	-11.2363
龢	-11.2363
沸	-11.2366
怳	-11.2367
聫	-11.2369
証	-11.2477
嬋	-11.248
盥	-11.2481
熒	-11.2481
需	-11.2481
悌	-11.2482
肱	-11.2484
礫	-11.2484
鶩	-11.2484
聿	-11.2485
厨	-11.2489
稻	-11.2489
滸	-11.2598
杵	-11.2604
眸	-11.2607
贗	-11.2607
赭	-11.2608
蒿	-11.2608
飈	-11.2609
犖	-11.2609
訊	-11.2609
鄲	-11.261
嵓	-11.2612
鵰	-11.265
稟	-11.2723
坰	-11.2723
嶸	-11.2728
慟	-11.2729
亰	-11.273
丐	-11.2731
弛	-11.2731
鹵	-11.2732
庇	-11.2733
瞬	-11.2736
揷	-11.2739
紉	-11.2739
詫	-11.2739
核	-11.274
寇	-11.274
矗	-11.2743
雒	-11.2853
諳	-11.2856
仆	-11.2856
彫	-11.2857
忻	-11.2858
趾	-11.286
猜	-11.286
戩	-11.2861
倜	-11.2861
崧	-11.2861
芽	-11.2862
陁	-11.2863
嚼	-11.2863
藕	-11.2864
娱	-11.2865
級	-11.2866
屨	-11.2868
狡	-11.2868
虗	-11.2868
醮	-11.287
㬌	-11.2874
葱	-11.2875
盪	-11.2876
薔	-11.2876
啻	-11.2935
褉	-11.2987
洄	-11.2989
泚	-11.2989
闋	-11.299
丕	-11.2991
匱	-11.2991
吠	-11.2992
恤	-11.2993
唳	-11.2995
悞	-11.3
蠆	-11.3115
顥	-11.3117
鞋	-11.3118
鏊	-11.312
餞	-11.312
鴟	-11.3123
鋤	-11.3123
屛	-11.3123
闈	-11.3124
跂	-11.3125
膩	-11.3126
慣	-11.3126
俎	-11.3127
弋	-11.3127
奬	-11.313
墀	-11.313
筐	-11.313
肺	-11.3134
鵪	-11.3157
鉦	-11.3242
漳	-11.3243
詛	-11.3245
奢	-11.3247
嫵	-11.3248
懲	-11.3252
遡	-11.3253
晟	-11.3253
矮	-11.3254
鍼	-11.3254
僵	-11.3254
豕	-11.3256
剝	-11.3256
戢	-11.3258
蚓	-11.3259
籙	-11.3259
嬪	-11.326
屹	-11.3263
隈	-11.3263
懌	-11.3266
玫	-11.3267
毬	-11.327
亥	-11.3373
奐	-11.3382
僞	-11.3385
懦	-11.3386
憫	-11.3388
𦵏	-11.3389
訴	-11.339
宥	-11.3391
躁	-11.3391
枿	-11.3391
溷	-11.3392
蚩	-11.3392
瞳	-11.3393
畋	-11.3394
喙	-11.3394
飡	-11.3395
姦	-11.3395
盞	-11.3397
硃	-11.34
鰲	-11.3412
瑯	-11.3517
俶	-11.3519
郷	-11.3524
璵	-11.3525
隘	-11.3526
蜒	-11.3528
腫	-11.3529
幄	-11.353
澆	-11.353
刦	-11.353
遏	-11.353
窄	-11.3532
璛	-11.3533
賡	-11.3534
逓	-11.3534
軫	-11.3535
迭	-11.3535
荻	-11.3535
耘	-11.3537
夐	-11.3539
忿	-11.354
鴣	-11.3545
餗	-11.365
猩	-11.3653
薈	-11.3654
轅	-11.3661
緫	-11.3661
卽	-11.3661
璨	-11.3661
猥	-11.3664
囬	-11.3664
舷	-11.3665
縹	-11.3666
讐	-11.3667
吼	-11.3668
氲	-11.367
儘	-11.3671
盍	-11.3672
杉	-11.3673
袵	-11.3675
嶷	-11.3675
妮	-11.3676
廙	-11.3765
陛	-11.3792
𧦬	-11.3797
醖	-11.3799
刓	-11.3801
撼	-11.3801
冡	-11.3802
袐	-11.3805
鉞	-11.3807
嫋	-11.3808
琉	-11.3808
毘	-11.3808
澈	-11.3809
襍	-11.381
罅	-11.3811
衙	-11.3811
妥	-11.3812
偁	-11.3812
詁	-11.3812
鳶	-11.3813
㠶	-11.3813
幔	-11.3813
驃	-11.3814
嵯	-11.3814
坎	-11.3815
控	-11.3816
幛	-11.3816
缾	-11.382
穗	-11.3823
牌	-11.394
丗	-11.3941
歷	-11.3943
蓴	-11.3948
畊	-11.3949
貼	-11.3949
旂	-11.3952
凸	-11.3952
查	-11.3952
疵	-11.3952
摛	-11.3953
凹	-11.3953
巉	-11.3954
恠	-11.3955
銛	-11.3955
檣	-11.3956
粤	-11.3957
讌	-11.3959
坑	-11.396
鄆	-11.396
喇	-11.4071
譲	-11.4086
賚	-11.4089
璫	-11.4089
罹	-11.409
熏	-11.409
稹	-11.409
騖	-11.4093
懈	-11.4094
贄	-11.4094
潰	-11.4095
韭	-11.4097
駙	-11.4097
椎	-11.4098
襯	-11.4098
忤	-11.41
煖	-11.41
殫	-11.4101
泄	-11.4102
頥	-11.4102
檐	-11.4102
鮓	-11.4228
擫	-11.423
徤	-11.4232
煤	-11.4234
嘖	-11.4234
袒	-11.4237
珽	-11.4238
猊	-11.4239
熳	-11.4241
糟	-11.4242
罵	-11.4242
緗	-11.4244
嶮	-11.4246
臞	-11.4248
欝	-11.425
璹	-11.4252
窩	-11.4253
駱	-11.4253
艮	-11.4378
箸	-11.438
紡	-11.438
􁁜	-11.4381
糾	-11.4385
夥	-11.4385
鉏	-11.4386
囚	-11.4386
莘	-11.4386
斲	-11.4386
沔	-11.4388
筭	-11.4388
瓠	-11.4388
劭	-11.4388
髭	-11.4389
膳	-11.439
鞠	-11.439
巋	-11.439
齎	-11.4394
泌	-11.4394
璇	-11.4397
聾	-11.4397
虜	-11.4397
㴱	-11.4398
崦	-11.4399
稔	-11.4399
袠	-11.4399
衾	-11.44
畤	-11.4406
鸝	-11.4428
斾	-11.4534
謡	-11.4535
僑	-11.4535
矚	-11.4538
郤	-11.4538
侮	-11.4541
盲	-11.4541
吻	-11.4542
耒	-11.4542
芻	-11.4544
褫	-11.4545
硏	-11.4546
蕚	-11.4549
偹	-11.4549
苓	-11.4552
宷	-11.4557
丿	-11.4679
适	-11.468
隕	-11.4692
滂	-11.4693
鞅	-11.4693
戮	-11.4695
佺	-11.4695
烜	-11.4695
褊	-11.4696
炫	-11.4696
劈	-11.4697
趂	-11.4697
脊	-11.4697
敧	-11.4698
簟	-11.4701
滓	-11.4702
伺	-11.4703
浥	-11.4706
戛	-11.4707
詐	-11.4844
愽	-11.4848
蛻	-11.4849
姨	-11.4849
嬴	-11.4849
燾	-11.4851
駛	-11.4852
暄	-11.4853
莒	-11.4853
垕	-11.4853
䂓	-11.4853
擡	-11.4853
惓	-11.4854
駑	-11.4854
斁	-11.4854
霹	-11.4857
諶	-11.4858
賖	-11.4859
洙	-11.486
繚	-11.486
崕	-11.4861
篝	-11.4862
謚	-11.4862
旄	-11.4862
甸	-11.4862
圏	-11.4863
瀰	-11.4867
獅	-11.4997
斐	-11.5003
卄	-11.5007
恂	-11.5007
儂	-11.501
娃	-11.5012
劫	-11.5012
愕	-11.5012
溧	-11.5012
叛	-11.5014
彿	-11.5014
两	-11.5015
囑	-11.5017
嵌	-11.5017
扎	-11.5018
窅	-11.5018
漚	-11.5021
橈	-11.5025
嘔	-11.5158
蹉	-11.5163
逖	-11.5164
壹	-11.5166
殖	-11.5166
葆	-11.5167
莎	-11.5168
嵒	-11.5169
彊	-11.517
堊	-11.5172
扃	-11.5173
俓	-11.5175
騾	-11.5176
繋	-11.5176
曵	-11.5178
鏞	-11.5178
媪	-11.5179
赦	-11.5183
簹	-11.5185
氤	-11.5186
麝	-11.5186
驌	-11.5186
澳	-11.519
焞	-11.5207
詵	-11.5293
傭	-11.5326
鑪	-11.5327
巙	-11.5328
攅	-11.5329
暹	-11.5331
縟	-11.5332
懃	-11.5332
飜	-11.5333
滚	-11.5336
堇	-11.5339
箔	-11.5339
錡	-11.5339
饋	-11.5339
汶	-11.5341
湊	-11.5341
泮	-11.5342
墩	-11.5342
躞	-11.5342
淒	-11.5343
昀	-11.5343
哦	-11.5344
孳	-11.5347
瑁	-11.536
皁	-11.5366
蠒	-11.5491
厎	-11.5494
弇	-11.5496
璆	-11.5496
璿	-11.5498
䟐	-11.5501
䆳	-11.5503
祜	-11.5503
撓	-11.5505
姝	-11.5506
孕	-11.5507
狩	-11.5509
厠	-11.551
洼	-11.5511
汨	-11.5511
朏	-11.5511
芷	-11.5512
耗	-11.5513
皂	-11.5515
貍	-11.5536
緡	-11.5663
尅	-11.5663
揺	-11.5668
杼	-11.5668
乀	-11.567
埜	-11.567
鑱	-11.5671
瓉	-11.5671
鑠	-11.5672
佻	-11.5672
閴	-11.5672
瀋	-11.5673
蓀	-11.5674
轄	-11.5675
咀	-11.5677
驍	-11.5678
翀	-11.5679
肚	-11.5683
顫	-11.5685
柿	-11.5685
闐	-11.5688
襃	-11.5836
嫂	-11.5837
錠	-11.5838
讎	-11.5841
舄	-11.5842
粥	-11.5842
耄	-11.5843
淩	-11.5843
籃	-11.5847
贏	-11.5848
擣	-11.5848
菰	-11.5853
塋	-11.5855
瀘	-11.5857
泖	-11.5857
偓	-11.5858
儁	-11.6002
蒐	-11.6009
紜	-11.6013
菁	-11.6014
冐	-11.6015
漓	-11.6016
凈	-11.6016
型	-11.6017
圯	-11.6017
畛	-11.6019
沁	-11.6019
跪	-11.6019
廨	-11.6022
沆	-11.6023
𤼵	-11.6026
袤	-11.6026
櫛	-11.6027
珥	-11.6028
廏	-11.6029
顗	-11.6029
嚶	-11.6029
畸	-11.603
縠	-11.6031
磧	-11.6036
櫻	-11.6042
缶	-11.6185
噉	-11.6187
朢	-11.619
㐮	-11.6192
僦	-11.6192
塚	-11.6193
梭	-11.6195
租	-11.6195
荃	-11.6196
飭	-11.6196
覈	-11.6196
涸	-11.6197
芹	-11.6198
燬	-11.6198
撞	-11.62
抉	-11.62
抒	-11.62
璉	-11.6201
糜	-11.6201
餌	-11.6202
阡	-11.6203
轂	-11.6203
粱	-11.6204
齪	-11.6206
昬	-11.6207
蹴	-11.6208
蔭	-11.6209
惚	-11.6209
术	-11.6211
蘸	-11.6217
狸	-11.6375
仄	-11.6375
廌	-11.6376
荼	-11.6376
啜	-11.6377
鏗	-11.6377
邜	-11.6377
蜼	-11.6378
嗔	-11.6378
箧	-11.6379
憒	-11.6379
賺	-11.6379
稅	-11.638
笳	-11.6381
琨	-11.6381
𡨕	-11.6382
燉	-11.6382
属	-11.6383
魑	-11.6383
汩	-11.6384
殳	-11.6385
燄	-11.6385
嚢	-11.6386
棨	-11.6386
窈	-11.6386
攫	-11.6387
謗	-11.639
廞	-11.639
閃	-11.6391
幃	-11.6393
准	-11.6397
愆	-11.6556
斡	-11.6559
搔	-11.6562
靚	-11.6563
攄	-11.6565
些	-11.6565
逡	-11.6565
鏐	-11.6566
諄	-11.6567
曦	-11.6568
藿	-11.6568
㾗	-11.6569
税	-11.657
頷	-11.6571
煨	-11.6572
睫	-11.6574
蜃	-11.6575
㵼	-11.6576
羇	-11.6583
觜	-11.661
搭	-11.6737
笪	-11.6743
頎	-11.6747
籲	-11.6748
数	-11.6748
涿	-11.6748
悍	-11.6748
弧	-11.675
撃	-11.6752
悒	-11.6753
哂	-11.6754
綘	-11.6754
拉	-11.6755
﨑	-11.6756
惰	-11.6756
歘	-11.6756
瀝	-11.6757
磅	-11.6757
歆	-11.6758
匝	-11.676
謖	-11.6761
盱	-11.6761
逶	-11.6761
繄	-11.6762
蓊	-11.6764
扄	-11.6766
紺	-11.6766
鎻	-11.6767
罰	-11.6767
瑪	-11.6769
玻	-11.6776
斝	-11.6794
嫡	-11.6931
簞	-11.6941
褰	-11.6942
殉	-11.6942
舶	-11.6944
煒	-11.6945
頫	-11.6946
綦	-11.6946
鎬	-11.6946
拊	-11.6946
藺	-11.6947
扛	-11.6947
耦	-11.6947
癯	-11.6947
勺	-11.6948
蘅	-11.6948
揣	-11.6949
娜	-11.6949
媛	-11.6949
弃	-11.695
艤	-11.695
儆	-11.6953
虵	-11.6954
嘏	-11.6956
儕	-11.6956
觔	-11.712
勗	-11.7128
卅	-11.7133
軻	-11.7134
崢	-11.7135
腆	-11.7139
燎	-11.7141
玄	-11.7142
嗚	-11.7145
昺	-11.7145
磐	-11.7145
慵	-11.7145
璩	-11.7146
擷	-11.7146
爼	-11.7147
燹	-11.7148
搗	-11.7148
柑	-11.7148
蹕	-11.7153
懽	-11.7153
鎰	-11.7153
吮	-11.7156
詒	-11.7335
療	-11.7336
怏	-11.7337
濩	-11.7338
羃	-11.7343
虯	-11.7343
剏	-11.7343
豚	-11.7344
斚	-11.7346
腦	-11.735
祉	-11.7351
賒	-11.7353
䂖	-11.7354
霈	-11.7355
幘	-11.7357
䄂	-11.7359
毓	-11.7359
宀	-11.7369
卭	-11.7534
澥	-11.7536
倭	-11.7538
葑	-11.7542
緱	-11.7544
䧟	-11.7545
孩	-11.7545
址	-11.7546
瘁	-11.7547
㓂	-11.7547
俚	-11.7548
厦	-11.7548
溆	-11.7549
垓	-11.7549
坂	-11.7549
槳	-11.7551
泫	-11.7551
垔	-11.7552
涎	-11.7552
駘	-11.7552
臉	-11.7554
珙	-11.7555
締	-11.7556
邳	-11.7557
帯	-11.7557
傒	-11.7559
騶	-11.756
藐	-11.7562
斟	-11.7564
玘	-11.7742
䛒	-11.7742
譎	-11.7746
鶠	-11.7746
夣	-11.7747
鑛	-11.7748
伋	-11.775
啖	-11.7751
儗	-11.7752
喉	-11.7753
汰	-11.7754
劃	-11.7757
焯	-11.7758
睇	-11.7758
亳	-11.776
訶	-11.7762
繙	-11.7763
魴	-11.7764
湄	-11.7768
瑙	-11.7774
溯	-11.7945
搦	-11.7956
玊	-11.7956
秧	-11.7962
攲	-11.7964
寃	-11.7965
瀼	-11.7965
抜	-11.7966
瑚	-11.7966
撚	-11.7966
聆	-11.7967
薌	-11.7967
狥	-11.7968
喀	-11.7968
鎏	-11.7969
鄜	-11.797
謔	-11.7971
劾	-11.7971
廐	-11.7971
袋	-11.7972
灞	-11.7972
曛	-11.7973
睥	-11.7974
峒	-11.7974
饌	-11.7975
觥	-11.7975
縳	-11.7976
塾	-11.7976
嫓	-11.7978
异	-11.7979
慾	-11.798
脅	-11.7983
悄	-11.7988
踴	-11.7991
玳	-11.8
匕	-11.8169
歉	-11.8176
苧	-11.8179
蕕	-11.818
帑	-11.8182
暕	-11.8183
瘡	-11.8183
趁	-11.8184
軋	-11.8184
獪	-11.8185
芟	-11.8186
簸	-11.8187
砧	-11.8187
鋩	-11.8187
陬	-11.8188
彷	-11.8188
繢	-11.8189
徉	-11.8189
瞭	-11.819
磚	-11.8191
隰	-11.8192
莢	-11.8196
櫟	-11.8196
炭	-11.8198
駞	-11.8222
耨	-11.8399
誄	-11.84
䘚	-11.8402
琯	-11.8403
榘	-11.8403
謐	-11.8403
㷀	-11.8404
櫪	-11.8405
搢	-11.8405
淋	-11.8407
跛	-11.8407
菽	-11.8407
撩	-11.8408
瞥	-11.8408
怛	-11.8409
群	-11.8409
埒	-11.841
宓	-11.841
洩	-11.841
揀	-11.8411
撐	-11.8413
嗇	-11.8413
晰	-11.8414
叫	-11.8414
賸	-11.8417
嶙	-11.8418
蔔	-11.8419
蠲	-11.8422
嫣	-11.8423
碾	-11.8427
鐃	-11.8606
薩	-11.8623
个	-11.8625
髫	-11.8626
枋	-11.8626
豊	-11.8628
黏	-11.8629
虐	-11.863
㽔	-11.863
淅	-11.863
耻	-11.863
喫	-11.8633
彴	-11.8633
隲	-11.8633
漱	-11.8634
甜	-11.8634
溉	-11.8634
塡	-11.8635
竚	-11.8635
雝	-11.8635
獰	-11.8636
瞑	-11.8636
賾	-11.8637
𦕈	-11.8641
糞	-11.8641
讜	-11.8642
轟	-11.8642
霰	-11.8643
藳	-11.8652
憇	-11.8654
蒋	-11.8856
陡	-11.8861
琊	-11.8862
睠	-11.8862
褁	-11.8863
𤨏	-11.8863
簧	-11.8864
頋	-11.8865
疴	-11.8865
罟	-11.8866
媸	-11.8867
鱠	-11.8867
痼	-11.8868
冽	-11.8869
馗	-11.887
颷	-11.8871
楸	-11.8871
竢	-11.8872
䋲	-11.8873
燮	-11.8874
㳟	-11.8875
慄	-11.8876
皺	-11.8878
卵	-11.8878
濳	-11.8883
枻	-11.8885
㛐	-11.9089
涪	-11.909
漶	-11.9092
釁	-11.9093
豬	-11.9099
犍	-11.9099
麴	-11.91
苾	-11.91
矦	-11.9101
町	-11.9102
禆	-11.9103
鍔	-11.9104
做	-11.9105
縞	-11.9105
諲	-11.9105
秪	-11.9106
諺	-11.9107
玷	-11.9107
孽	-11.9107
汧	-11.9107
榔	-11.9108
蹶	-11.9109
黝	-11.9109
穡	-11.911
澶	-11.9111
沌	-11.9112
焜	-11.9112
峋	-11.9112
躚	-11.9112
悤	-11.9114
頹	-11.9114
瀣	-11.9115
昩	-11.9115
鬯	-11.9116
酈	-11.9116
怖	-11.9116
謳	-11.9117
螢	-11.9121
槲	-11.9158
蠢	-11.9343
鎔	-11.9345
郜	-11.9346
鼒	-11.9347
扺	-11.9347
拯	-11.9347
驩	-11.9347
瞽	-11.9348
麽	-11.9348
劵	-11.9348
蕺	-11.9348
祺	-11.9349
蚌	-11.9349
謩	-11.935
徇	-11.9351
脆	-11.9352
揩	-11.9353
䰅	-11.9354
鯤	-11.9355
僃	-11.9356
炤	-11.9356
傖	-11.9356
噱	-11.9357
楯	-11.9358
檝	-11.9358
覊	-11.9364
贉	-11.9371
殻	-11.9374
訾	-11.9591
胃	-11.9592
脾	-11.9592
貸	-11.9595
澌	-11.9595
姸	-11.9596
孀	-11.9596
嶤	-11.9598
祼	-11.96
儷	-11.96
樛	-11.9601
㝡	-11.9601
堕	-11.9601
蛙	-11.9601
弈	-11.9604
䆒	-11.9604
簏	-11.9604
闥	-11.9604
坼	-11.9604
瑱	-11.9604
幙	-11.9605
裨	-11.9605
烝	-11.9605
嘻	-11.9606
耜	-11.9607
隳	-11.9608
緼	-11.9608
劎	-11.9608
忒	-11.9608
鵑	-11.9608
揉	-11.9609
賂	-11.9609
跑	-11.961
畎	-11.961
寖	-11.9611
驎	-11.9612
隍	-11.9612
膊	-11.9612
滃	-11.9613
靴	-11.9614
覯	-11.9847
諛	-11.9849
瑄	-11.985
叨	-11.9853
販	-11.9853
摠	-11.9853
錚	-11.9856
鋸	-11.9856
櫺	-11.9856
眎	-11.9857
閘	-11.9858
凑	-11.986
禺	-11.9861
滁	-11.9861
羯	-11.9862
仭	-11.9862
弭	-11.9863
飫	-11.9864
蹋	-11.9864
囷	-11.9864
譴	-11.9869
壼	-11.9869
檠	-11.9871
惹	-11.9875
鷴	-11.9888
鴝	-11.989
讒	-12.0104
囗	-12.0108
楠	-12.0108
謇	-12.011
肻	-12.0114
耑	-12.0114
綻	-12.0115
婿	-12.0116
逗	-12.0117
拽	-12.0118
懵	-12.0119
覇	-12.0119
腳	-12.0119
櫓	-12.0119
爍	-12.0119
价	-12.0119
窑	-12.0121
剽	-12.0121
蜕	-12.0122
萎	-12.0122
懊	-12.0122
忭	-12.0122
㕓	-12.0122
裟	-12.0122
羔	-12.0123
徜	-12.0123
蛛	-12.0124
擦	-12.0126
膜	-12.0126
崆	-12.0127
嶁	-12.0127
頊	-12.0129
鮫	-12.0129
甑	-12.013
灔	-12.0131
嶰	-12.0132
黠	-12.0132
玦	-12.0135
薑	-12.0137
嶧	-12.0365
踢	-12.0376
紊	-12.0379
斆	-12.0383
暾	-12.0384
䘏	-12.0384
稗	-12.0384
脣	-12.0384
蠱	-12.0384
齕	-12.0385
徨	-12.0386
塜	-12.0387
頺	-12.0387
蓍	-12.0388
脗	-12.0388
攣	-12.0389
鬆	-12.0389
曖	-12.039
扳	-12.039
紘	-12.0392
廂	-12.0392
涴	-12.0392
祛	-12.0392
頲	-12.0393
枰	-12.0393
孱	-12.0393
猪	-12.0394
箑	-12.0394
冏	-12.0394
糓	-12.0395
咫	-12.0395
聒	-12.0396
劬	-12.0396
沜	-12.0397
錮	-12.0398
竽	-12.0398
徼	-12.0398
賽	-12.0401
褙	-12.0402
幞	-12.0403
斃	-12.0404
沱	-12.0404
恡	-12.0405
栻	-12.0407
泱	-12.0408
栝	-12.0408
恙	-12.0644
􁎻	-12.0645
痴	-12.0649
憔	-12.0653
隧	-12.0654
纚	-12.0656
跎	-12.0659
彧	-12.0661
糠	-12.0661
狻	-12.0661
郛	-12.0662
郯	-12.0662
倖	-12.0663
晻	-12.0663
鳧	-12.0664
鼉	-12.0665
亶	-12.0666
髀	-12.0666
㒺	-12.0667
両	-12.0667
徊	-12.0667
嘘	-12.0668
蠖	-12.0668
罌	-12.0669
蝌	-12.0669
舸	-12.067
筝	-12.067
𠂻	-12.0671
燿	-12.0672
㩦	-12.0672
哽	-12.0672
雎	-12.0673
繽	-12.0673
酤	-12.0674
酢	-12.0675
腑	-12.0677
薝	-12.068
廩	-12.068
垞	-12.0684
騣	-12.0684
聦	-12.0932
鎛	-12.0941
殞	-12.0943
燁	-12.0945
銍	-12.0945
抃	-12.0945
䑛	-12.0949
猨	-12.0949
瀹	-12.095
寝	-12.0951
尠	-12.0951
蚪	-12.0953
硎	-12.0953
禕	-12.0955
騮	-12.0956
丱	-12.0957
沅	-12.0959
櫳	-12.0959
岣	-12.0959
莓	-12.0959
垠	-12.0959
懴	-12.096
愠	-12.096
霾	-12.0963
蜨	-12.0965
慳	-12.0965
栩	-12.0968
桀	-12.0971
搥	-12.1236
悖	-12.1237
碍	-12.1238
憨	-12.1239
删	-12.1239
哺	-12.124
筮	-12.124
䬃	-12.124
闍	-12.1241
鋼	-12.1241
莱	-12.1241
稳	-12.1242
飱	-12.1243
衒	-12.1245
辜	-12.1246
轆	-12.1246
尢	-12.1247
僣	-12.1247
涘	-12.1247
曈	-12.1247
娉	-12.1247
槽	-12.1248
諂	-12.1248
灋	-12.1249
彀	-12.1249
侑	-12.1249
撤	-12.1249
鑣	-12.125
廪	-12.1251
瘴	-12.1251
灾	-12.1251
譁	-12.1251
蒯	-12.1252
雩	-12.1252
債	-12.1253
盻	-12.1253
坌	-12.1254
綢	-12.1255
挐	-12.1255
暌	-12.1255
椅	-12.1257
錬	-12.1258
腔	-12.1258
倓	-12.1262
犇	-12.1262
竣	-12.1262
茵	-12.1263
㬋	-12.1266
糅	-12.1266
貿	-12.1267
丶	-12.1519
㢲	-12.1531
𥿄	-12.1539
孥	-12.154
槊	-12.1542
牴	-12.1542
勰	-12.1542
芋	-12.1544
琹	-12.1544
顙	-12.1546
疉	-12.1546
㤙	-12.1547
閥	-12.1548
嘅	-12.1548
剩	-12.1549
颿	-12.1549
罽	-12.1549
凂	-12.1549
浯	-12.155
攖	-12.1551
燃	-12.1551
党	-12.1552
劑	-12.1552
頵	-12.1552
篴	-12.1553
罩	-12.1554
籒	-12.1554
邾	-12.1555
閙	-12.1555
蠏	-12.1555
邐	-12.1556
菌	-12.1556
絜	-12.1557
嶄	-12.1558
酧	-12.1558
蓺	-12.1558
侶	-12.1558
覘	-12.1558
篙	-12.1559
牲	-12.156
苒	-12.156
炬	-12.1562
擴	-12.1563
纘	-12.1564
蜻	-12.1565
嘈	-12.1565
沍	-12.1567
寗	-12.1589
䜌	-12.1834
錙	-12.1846
萹	-12.1851
兾	-12.1851
絛	-12.1852
䜿	-12.1854
遄	-12.1854
勍	-12.1855
涅	-12.1856
燠	-12.1857
叡	-12.1857
淆	-12.1861
朦	-12.1861
苻	-12.1862
渌	-12.1864
蜚	-12.1864
莞	-12.1864
牎	-12.1864
肓	-12.1864
遹	-12.1865
喆	-12.1865
謠	-12.1865
釡	-12.1865
紓	-12.1866
泝	-12.1867
袴	-12.1869
晳	-12.1869
虖	-12.187
籥	-12.187
駮	-12.187
蝨	-12.1871
亾	-12.1871
酋	-12.1872
鯁	-12.1873
櫝	-12.1874
頳	-12.1876
獒	-12.1881
梔	-12.1884
閽	-12.1887
灬	-12.215
鐓	-12.2161
媵	-12.2167
筩	-12.2171
崙	-12.2172
媺	-12.2174
慊	-12.2177
澧	-12.2177
弡	-12.2178
孑	-12.2178
涌	-12.2178
羝	-12.2178
芮	-12.2179
瑀	-12.2179
奘	-12.2179
翾	-12.2181
淥	-12.2181
械	-12.2181
縻	-12.2181
瀬	-12.2182
轤	-12.2182
蘖	-12.2183
槌	-12.2183
壒	-12.2183
滛	-12.2183
禿	-12.2183
剜	-12.2184
犁	-12.2184
週	-12.2185
餽	-12.2185
蹁	-12.2185
箏	-12.2186
煦	-12.2186
盾	-12.2187
穫	-12.2187
絨	-12.2187
屣	-12.2188
璀	-12.2189
磻	-12.219
菡	-12.219
猖	-12.219
縢	-12.219
秖	-12.2192
濆	-12.2192
怱	-12.2192
颸	-12.2192
餙	-12.2193
徠	-12.2195
夹	-12.2195
鍤	-12.2195
啾	-12.2195
埏	-12.2197
皦	-12.2197
漙	-12.2199
暁	-12.2199
蜓	-12.2199
酥	-12.22
沫	-12.2204
旡	-12.2505
鎗	-12.2505
爇	-12.2505
戔	-12.2507
纉	-12.2509
匍	-12.2509
嶔	-12.2509
璅	-12.2509
苴	-12.2511
鼐	-12.2511
䜟	-12.2512
捩	-12.2512
偪	-12.2513
扼	-12.2513
喟	-12.2514
么	-12.2514
坳	-12.2515
朧	-12.2515
宼	-12.2515
臙	-12.2515
瘳	-12.2516
蜡	-12.2516
肴	-12.2517
啞	-12.2518
攴	-12.2518
曬	-12.2519
鼈	-12.2519
臠	-12.252
粼	-12.2521
鸎	-12.2522
跗	-12.2523
綫	-12.2523
蕨	-12.2524
蝸	-12.2525
琤	-12.2526
搴	-12.2526
荏	-12.2527
榱	-12.2527
倬	-12.2527
蜍	-12.2528
綯	-12.2529
菘	-12.2529
饞	-12.253
淼	-12.2531
撑	-12.2531
綉	-12.2531
眙	-12.2531
灝	-12.2533
珵	-12.2533
琥	-12.2538
甯	-12.2549
鞾	-12.2848
旴	-12.285
霤	-12.2851
銑	-12.2852
㸑	-12.2853
徯	-12.2855
宧	-12.2855
児	-12.2856
泪	-12.2856
粕	-12.2857
瀕	-12.2858
􁃶	-12.2858
沚	-12.2859
庄	-12.286
䧺	-12.286
擠	-12.286
鷖	-12.2861
岵	-12.2861
􁯳	-12.2861
諗	-12.2862
嫠	-12.2862
窪	-12.2863
憊	-12.2863
甓	-12.2863
𥘉	-12.2863
戕	-12.2865
芊	-12.2867
柰	-12.2869
獺	-12.2869
鵷	-12.287
椀	-12.2871
娓	-12.2871
碓	-12.2872
瓈	-12.2872
醺	-12.2875
瞞	-12.2877
訢	-12.2878
攙	-12.288
毳	-12.2881
兠	-12.2892
竑	-12.3199
陕	-12.3201
鍑	-12.3207
颻	-12.3209
簒	-12.3209
瞠	-12.321
鷲	-12.3212
妣	-12.3212
晷	-12.3212
杠	-12.3212
柁	-12.3214
啇	-12.3215
跣	-12.3216
岧	-12.3217
磷	-12.3218
胝	-12.3219
礱	-12.3219
肋	-12.322
􁷺	-12.3221
𣙜	-12.3221
賭	-12.3221
嘴	-12.3222
湼	-12.3223
崐	-12.3223
擯	-12.3223
嬈	-12.3224
謌	-12.3225
碗	-12.3225
壌	-12.3226
蹰	-12.3226
郇	-12.3226
渟	-12.3226
芙	-12.3226
峡	-12.3227
豸	-12.3227
絪	-12.3227
綳	-12.3227
掞	-12.3228
烽	-12.323
匈	-12.323
縶	-12.3231
橐	-12.3231
喝	-12.3231
齧	-12.3232
肢	-12.3232
种	-12.3232
攪	-12.3232
鞵	-12.3234
姐	-12.3234
諍	-12.3236
瘍	-12.356
皷	-12.358
摯	-12.3581
跼	-12.3582
弆	-12.3582
惺	-12.3582
騧	-12.3583
爱	-12.3583
釜	-12.3583
冇	-12.3584
𨗳	-12.3585
盌	-12.3587
毖	-12.3587
你	-12.3588
筞	-12.359
氓	-12.359
躊	-12.359
菑	-12.359
倕	-12.359
茁	-12.3591
宁	-12.3591
鶱	-12.3592
掄	-12.3594
揜	-12.3596
騅	-12.3596
㩁	-12.3596
僂	-12.3596
瓛	-12.3597
袪	-12.3598
別	-12.3598
抺	-12.3599
鷃	-12.3603
㢧	-12.3606
豢	-12.3606
脛	-12.3611
甎	-12.3958
禅	-12.3959
蟇	-12.3961
焰	-12.3967
塍	-12.3969
墉	-12.3969
䶵	-12.3971
罇	-12.3971
跚	-12.3972
琱	-12.3972
􁗩	-12.3972
拚	-12.3972
戶	-12.3973
脰	-12.3974
這	-12.3974
熬	-12.3975
罘	-12.3976
髹	-12.3976
湎	-12.3976
噬	-12.3977
踣	-12.3978
豺	-12.3978
佯	-12.3979
怵	-12.398
釴	-12.398
穟	-12.398
轢	-12.3981
窣	-12.3981
穜	-12.3981
唫	-12.3982
閼	-12.3982
紂	-12.3982
纈	-12.3983
淘	-12.3983
醯	-12.3984
撒	-12.3985
襦	-12.3986
怙	-12.3986
呦	-12.3986
塤	-12.3987
綮	-12.3987
翽	-12.3989
橙	-12.3989
溽	-12.3997
㶚	-12.3998
檉	-12.4002
漉	-12.4012
㠖	-12.4014
盦	-12.4349
汸	-12.4354
昜	-12.4356
氵	-12.4361
敇	-12.4366
柢	-12.4367
熠	-12.4368
箠	-12.4368
襁	-12.4368
蹏	-12.4368
菓	-12.4369
鞦	-12.4369
㽞	-12.4369
禩	-12.437
絕	-12.4371
袞	-12.4371
恊	-12.4371
靨	-12.4371
鐶	-12.4372
蜩	-12.4372
亝	-12.4372
泂	-12.4372
墁	-12.4373
揔	-12.4373
杓	-12.4374
碕	-12.4375
嘿	-12.4375
隤	-12.4375
禋	-12.4376
墖	-12.4377
邛	-12.4378
汜	-12.4378
芘	-12.4379
啣	-12.4379
妤	-12.4381
蕖	-12.4382
祓	-12.4383
潾	-12.4383
崎	-12.4383
惬	-12.4384
栱	-12.4384
棚	-12.4385
菟	-12.4385
鬐	-12.4385
港	-12.4386
嶪	-12.4386
葭	-12.4386
帘	-12.4387
飼	-12.4388
槿	-12.4388
鰕	-12.4389
埶	-12.4389
爨	-12.439
迓	-12.4392
蔕	-12.4393
衽	-12.4395
踘	-12.4396
筴	-12.4419
枃	-12.4758
吿	-12.4769
皿	-12.4776
韁	-12.4779
刄	-12.4779
涔	-12.478
𣗳	-12.478
箬	-12.4782
旹	-12.4782
膴	-12.4783
腋	-12.4783
眄	-12.4783
礎	-12.4783
窆	-12.4784
匐	-12.4784
湔	-12.4784
跏	-12.4786
屧	-12.4788
蹀	-12.4789
睍	-12.479
絺	-12.479
磋	-12.479
殽	-12.479
媮	-12.4791
萟	-12.4792
滲	-12.4793
奨	-12.4793
輓	-12.4794
槧	-12.4794
囀	-12.4794
隗	-12.4795
暐	-12.4795
糺	-12.4796
喘	-12.4796
帋	-12.4796
壙	-12.4798
靁	-12.4798
鑽	-12.4798
湌	-12.4799
陲	-12.48
茱	-12.4801
洸	-12.4801
詧	-12.4802
褭	-12.4802
蛩	-12.4803
桮	-12.4803
嚙	-12.4803
羹	-12.4804
刳	-12.4805
紵	-12.4805
嬙	-12.4806
刈	-12.4807
籛	-12.4807
灤	-12.4808
駉	-12.4811
穪	-12.4813
虫	-12.4817
媼	-12.5209
侁	-12.5211
醬	-12.5213
磕	-12.5214
乚	-12.5214
肄	-12.5216
賑	-12.5216
鄠	-12.5216
珦	-12.5217
辵	-12.5217
訐	-12.5217
輭	-12.5218
䪫	-12.5219
荐	-12.522
苛	-12.522
惎	-12.522
鉗	-12.522
阼	-12.522
䲭	-12.5221
犂	-12.5222
彜	-12.5223
躇	-12.5223
眈	-12.5223
磈	-12.5223
踊	-12.5223
殯	-12.5224
怫	-12.5224
蔗	-12.5227
艘	-12.5227
抖	-12.5228
瓮	-12.5228
繒	-12.5228
漈	-12.5228
饕	-12.523
㝢	-12.523
堰	-12.523
躓	-12.523
皤	-12.523
窊	-12.5231
忖	-12.5231
滇	-12.5231
麯	-12.5231
怍	-12.5233
萏	-12.5233
鄢	-12.5235
帔	-12.5235
榼	-12.5236
甍	-12.5236
棼	-12.5237
鷁	-12.5238
匙	-12.5238
鬃	-12.5238
枒	-12.5238
嫉	-12.5238
挿	-12.5239
㢤	-12.5239
絆	-12.524
纜	-12.524
螻	-12.524
蘩	-12.5245
荄	-12.566
􁅋	-12.5661
缸	-12.5662
糝	-12.5663
鎦	-12.5667
癰	-12.5667
頮	-12.5668
惸	-12.5668
串	-12.5669
􁧠	-12.567
眘	-12.567
拇	-12.5671
葳	-12.5671
韆	-12.5672
莭	-12.5672
齔	-12.5672
顱	-12.5673
蹻	-12.5674
壅	-12.5675
朓	-12.5675
猝	-12.5676
鋗	-12.5678
龐	-12.5678
靠	-12.5679
曁	-12.568
亊	-12.568
裸	-12.568
傴	-12.568
繳	-12.568
駰	-12.5681
聃	-12.5681
壚	-12.5682
叉	-12.5682
蘼	-12.5682
褧	-12.5682
儵	-12.5682
呪	-12.5682
黿	-12.5683
罾	-12.5683
塟	-12.5683
唘	-12.5683
燔	-12.5684
瓔	-12.5684
楣	-12.5685
踟	-12.5685
摽	-12.5686
蝉	-12.5687
嬖	-12.5687
兜	-12.5687
甃	-12.5687
莾	-12.5688
慝	-12.5689
虀	-12.569
飇	-12.569
坪	-12.5691
賄	-12.5692
藎	-12.5692
酆	-12.5693
羗	-12.5694
窿	-12.5695
狭	-12.5696
肎	-12.57
晙	-12.5703
珀	-12.5703
甪	-12.5705
弘	-12.5707
檟	-12.5717
絅	-12.6123
璐	-12.6124
鄕	-12.6141
狷	-12.6145
劖	-12.6146
芃	-12.6147
滙	-12.6148
衘	-12.615
輾	-12.615
柩	-12.615
簑	-12.6151
勣	-12.6151
矱	-12.6151
蕾	-12.6152
詘	-12.6152
矍	-12.6153
笄	-12.6153
蒔	-12.6154
廚	-12.6154
痊	-12.6154
渰	-12.6155
屍	-12.6155
厝	-12.6155
皈	-12.6155
啗	-12.6155
洺	-12.6156
㫺	-12.6156
頔	-12.6156
韈	-12.6157
繅	-12.6159
醅	-12.616
惨	-12.616
秫	-12.616
訃	-12.6161
剋	-12.6161
崿	-12.6162
洊	-12.6163
崒	-12.6163
酲	-12.6163
呻	-12.6163
耋	-12.6164
殂	-12.6164
䙝	-12.6164
蛤	-12.6164
趍	-12.6165
鐔	-12.6165
噓	-12.6165
帨	-12.6165
癢	-12.6165
柎	-12.6165
雹	-12.6167
窒	-12.6167
羶	-12.6167
飰	-12.6169
苫	-12.6169
旎	-12.617
熨	-12.617
孃	-12.617
騘	-12.6172
狖	-12.6173
潏	-12.6173
崗	-12.6174
嶒	-12.6174
单	-12.6175
愬	-12.6177
唼	-12.6182
冤	-12.6183
橛	-12.6186
糲	-12.6635
澡	-12.6636
鉄	-12.6636
鑊	-12.6637
筏	-12.6641
咲	-12.6641
獷	-12.6642
㝎	-12.6645
覼	-12.6645
邍	-12.6645
鍜	-12.6647
奭	-12.6647
褓	-12.6648
堞	-12.6648
柟	-12.665
阪	-12.6653
躐	-12.6653
㓕	-12.6653
噀	-12.6654
辠	-12.6654
渢	-12.6654
卸	-12.6655
贑	-12.6655
瑊	-12.6655
窖	-12.6656
謄	-12.6656
鏜	-12.6657
伉	-12.6657
纇	-12.6658
簴	-12.6658
蓽	-12.6658
蘊	-12.6659
悸	-12.6661
埤	-12.6661
輈	-12.6661
㦂	-12.6662
㢠	-12.6662
酹	-12.6663
巃	-12.6663
鑚	-12.6663
齷	-12.6664
茝	-12.6664
韉	-12.6664
鸛	-12.6665
蚋	-12.6666
黌	-12.6667
跧	-12.6669
緹	-12.667
嵂	-12.667
蝗	-12.667
殄	-12.6671
吊	-12.6671
鞚	-12.6674
齍	-12.6678
樷	-12.6688
磜	-12.669
眶	-12.6691
瘧	-12.7158
􁉡	-12.7162
拗	-12.7167
捽	-12.7167
癘	-12.7167
佗	-12.7168
畺	-12.7169
壎	-12.7169
疚	-12.7169
挟	-12.7169
欬	-12.7172
妒	-12.7172
鹹	-12.7173
弹	-12.7174
滏	-12.7175
儓	-12.7175
鷟	-12.7175
琇	-12.7175
狙	-12.7175
籤	-12.7176
厪	-12.7177
埴	-12.7177
筦	-12.7179
戌	-12.718
盩	-12.718
跱	-12.718
仔	-12.7181
鎩	-12.7181
韡	-12.7182
俳	-12.7182
撾	-12.7182
堙	-12.7183
齬	-12.7183
睎	-12.7183
巇	-12.7183
霎	-12.7184
杰	-12.7184
汯	-12.7184
紇	-12.7185
彡	-12.7186
嵸	-12.7186
橡	-12.7186
葷	-12.7187
闘	-12.7187
莪	-12.7187
嚥	-12.7187
鋟	-12.7187
幟	-12.7189
厮	-12.7189
臮	-12.7189
鐍	-12.7189
踠	-12.7189
朅	-12.719
瀧	-12.719
欷	-12.719
褶	-12.719
裓	-12.719
猱	-12.7191
澘	-12.7191
㱃	-12.7191
闓	-12.7193
嗅	-12.7193
埀	-12.7194
玭	-12.7197
秬	-12.7197
鐺	-12.7198
𧺫	-12.7198
阬	-12.7198
咤	-12.7199
臬	-12.7202
憬	-12.7203
漭	-12.7206
桔	-12.7209
焙	-12.7212
罥	-12.7213
㺅	-12.7217
喁	-12.7226
㒳	-12.7229
斿	-12.7695
慥	-12.7715
煕	-12.7716
屡	-12.7716
鵾	-12.772
芉	-12.7722
翏	-12.7723
黟	-12.7723
燋	-12.7723
僎	-12.7724
郃	-12.7725
淤	-12.7726
㬰	-12.7727
冋	-12.7727
捄	-12.7727
贛	-12.7727
愻	-12.7729
漼	-12.7729
菀	-12.7729
帕	-12.7731
糸	-12.7731
凴	-12.7731
徭	-12.7732
姹	-12.7732
悢	-12.7732
爚	-12.7733
鞘	-12.7735
腎	-12.7735
倔	-12.7735
豋	-12.7735
齟	-12.7735
塏	-12.7736
闖	-12.7736
齠	-12.7736
餳	-12.7736
嫰	-12.7737
邏	-12.7737
衺	-12.7737
籋	-12.7737
哇	-12.7738
妺	-12.7738
鴂	-12.7739
澒	-12.774
蹣	-12.774
躔	-12.774
壠	-12.7741
憙	-12.7741
飀	-12.7741
捻	-12.7741
涂	-12.7742
鄣	-12.7742
瀁	-12.7742
凊	-12.7742
珞	-12.7742
蕞	-12.7743
褥	-12.7743
槍	-12.7743
筑	-12.7744
灸	-12.7744
婣	-12.7744
芑	-12.7745
貰	-12.7745
舖	-12.7745
邅	-12.7746
吃	-12.7746
岌	-12.7747
蕤	-12.7747
簀	-12.7747
寨	-12.7748
氐	-12.7749
揠	-12.7749
崟	-12.775
岏	-12.775
澍	-12.775
㟧	-12.775
篩	-12.7751
淬	-12.7751
䜛	-12.7752
黽	-12.7752
諜	-12.7754
塹	-12.7754
贇	-12.7754
萸	-12.7755
􁄰	-12.7755
夗	-12.7756
巑	-12.7756
凟	-12.7757
籞	-12.7758
蝟	-12.776
廛	-12.7763
楩	-12.7764
唶	-12.7767
菉	-12.7788
𣑽	-12.7795
莧	-12.7812
梟	-12.8294
悃	-12.8299
齗	-12.8303
矟	-12.8307
寞	-12.8309
鍪	-12.8313
璡	-12.8315
囓	-12.8315
鬖	-12.8315
冫	-12.8318
曕	-12.8318
縵	-12.8319
擻	-12.8319
湓	-12.8319
墊	-12.832
砭	-12.832
炷	-12.8322
瑒	-12.8323
疥	-12.8323
眵	-12.8325
辣	-12.8325
舠	-12.8326
廕	-12.8326
𠖇	-12.8327
𦍑	-12.8327
紿	-12.8327
妆	-12.8327
㠯	-12.8328
篾	-12.8328
瓏	-12.8328
攤	-12.8328
臈	-12.8329
蠕	-12.8329
貉	-12.8329
貔	-12.8329
叵	-12.8329
􁁵	-12.833
煞	-12.833
兇	-12.833
郴	-12.833
漑	-12.833
蹬	-12.8331
幌	-12.8331
煇	-12.8331
惙	-12.8332
汐	-12.8332
捍	-12.8332
刲	-12.8332
闠	-12.8332
輳	-12.8332
闤	-12.8333
屩	-12.8333
舲	-12.8333
晒	-12.8333
㳫	-12.8333
痺	-12.8333
嚬	-12.8334
烱	-12.8334
秤	-12.8335
麒	-12.8335
姒	-12.8335
駃	-12.8336
遝	-12.8337
跫	-12.8337
㫋	-12.8337
旒	-12.8338
颶	-12.8338
鍵	-12.8338
裵	-12.834
茉	-12.834
磾	-12.834
莉	-12.834
佃	-12.834
肜	-12.834
懾	-12.8342
换	-12.8343
咳	-12.8343
抝	-12.8344
泡	-12.8345
嶢	-12.8345
卬	-12.8346
醢	-12.8347
橰	-12.835
輻	-12.8352
酪	-12.8352
葯	-12.8355
軿	-12.8355
噞	-12.8367
輞	-12.8371
旰	-12.8921
伾	-12.8924
甡	-12.8925
薿	-12.8932
鎸	-12.8935
倨	-12.8936
㜏	-12.8937
錘	-12.8937
鄖	-12.8938
恁	-12.8939
剌	-12.8942
籧	-12.8942
偘	-12.8942
㿃	-12.8942
悮	-12.8943
涙	-12.8943
㕑	-12.8945
蓐	-12.8945
剗	-12.8945
痍	-12.8945
笨	-12.8945
傘	-12.8946
枲	-12.8947
𠫭	-12.8947
毶	-12.8947
疫	-12.8948
譖	-12.8948
礲	-12.8948
掦	-12.8949
贐	-12.8949
媧	-12.895
挼	-12.895
䵼	-12.895
褎	-12.895
䥴	-12.895
蒜	-12.8951
㘭	-12.8951
虔	-12.8952
憧	-12.8952
苶	-12.8953
麀	-12.8954
窰	-12.8954
庋	-12.8955
褘	-12.8955
揾	-12.8956
誑	-12.8957
氈	-12.8958
麫	-12.8958
殤	-12.8958
匊	-12.8958
画	-12.8958
睞	-12.8959
眥	-12.8959
睪	-12.8959
垤	-12.896
鄊	-12.896
廱	-12.896
篚	-12.896
產	-12.8961
舁	-12.8961
驀	-12.8961
娩	-12.8963
㡳	-12.8963
闚	-12.8964
摳	-12.8964
赧	-12.8964
澷	-12.8964
璺	-12.8964
廽	-12.8964
姧	-12.8965
顴	-12.8966
疢	-12.8967
洮	-12.8969
穂	-12.8969
􁊈	-12.8969
鸚	-12.8969
腯	-12.8969
漵	-12.8969
槨	-12.897
薺	-12.8971
櫃	-12.8975
酡	-12.8986
戹	-12.8996
儺	-12.9004
􁉧	-12.9031
倏	-12.9579
逌	-12.9583
圻	-12.9596
亅	-12.9602
􁨹	-12.9602
亻	-12.9603
胤	-12.9603
榕	-12.9605
𥻘	-12.9606
凾	-12.9607
阨	-12.9608
禙	-12.9608
踶	-12.9608
綆	-12.9609
諠	-12.961
鏹	-12.9611
膓	-12.9612
纊	-12.9613
驁	-12.9613
憺	-12.9613
枌	-12.9613
狠	-12.9614
誾	-12.9614
餒	-12.9614
陔	-12.9615
恧	-12.9615
峕	-12.9616
掊	-12.9616
尭	-12.9616
襌	-12.9616
濊	-12.9616
囏	-12.9616
醸	-12.9617
瞪	-12.9617
鬂	-12.9617
鵶	-12.9617
厔	-12.9617
萇	-12.9617
侄	-12.9617
濰	-12.9618
絙	-12.9618
玢	-12.9618
諝	-12.9618
薾	-12.9619
唁	-12.9619
鬘	-12.962
堡	-12.962
磽	-12.962
薳	-12.962
珎	-12.962
昵	-12.9621
炁	-12.9622
旼	-12.9622
孌	-12.9623
㞼	-12.9624
醑	-12.9624
樨	-12.9624
蓓	-12.9625
簌	-12.9625
襆	-12.9626
蔥	-12.9626
禰	-12.9626
嚱	-12.9627
氅	-12.9629
斕	-12.9629
肪	-12.963
嵳	-12.963
磎	-12.963
玖	-12.963
癭	-12.963
瀠	-12.9631
蘺	-12.9632
擗	-12.9632
斸	-12.9632
蓉	-12.9633
羆	-12.9634
獬	-12.9634
焕	-12.9635
郫	-12.9635
鱖	-12.9636
蜉	-12.9637
嵎	-12.9639
瓞	-12.9643
忡	-12.9644
樁	-12.9648
橊	-12.9677
旛	-13.0305
鏃	-13.0309
殱	-13.0313
鑲	-13.0313
諉	-13.0315
􁎽	-13.0316
㶁	-13.0316
腮	-13.0317
杙	-13.0317
梈	-13.0319
遴	-13.032
椘	-13.0321
楼	-13.0322
娼	-13.0323
鎚	-13.0324
瀏	-13.0325
颭	-13.0325
懺	-13.0326
殪	-13.0326
牂	-13.0326
螯	-13.0327
䙀	-13.0327
骼	-13.0328
蕳	-13.0329
礦	-13.0329
渻	-13.0329
饜	-13.033
縊	-13.033
詼	-13.033
尗	-13.033
洹	-13.0331
枤	-13.0331
欎	-13.0331
冄	-13.0331
阯	-13.0332
劂	-13.0332
芰	-13.0332
淦	-13.0332
輊	-13.0333
饁	-13.0333
蹭	-13.0333
喃	-13.0334
枵	-13.0334
茜	-13.0334
蒭	-13.0335
勌	-13.0335
鈇	-13.0336
嘹	-13.0336
粮	-13.0336
揵	-13.0336
閹	-13.0336
禠	-13.0337
飪	-13.0337
陊	-13.0337
靸	-13.0338
脁	-13.0338
蘐	-13.0338
蓂	-13.0338
跕	-13.0339
殢	-13.0339
􁄗	-13.0339
喓	-13.0339
敔	-13.034
讋	-13.034
噤	-13.034
棻	-13.0341
䖝	-13.0341
臝	-13.0341
騕	-13.0342
惴	-13.0342
鶡	-13.0342
塼	-13.0343
嶻	-13.0344
愾	-13.0344
艦	-13.0344
菹	-13.0344
麵	-13.0345
胆	-13.0345
雊	-13.0346
澎	-13.0346
鼯	-13.0347
脇	-13.0348
酩	-13.0348
棒	-13.0348
箆	-13.0348
茰	-13.0349
榾	-13.0351
瘵	-13.0352
舩	-13.0352
份	-13.0355
佶	-13.0357
炅	-13.0358
牣	-13.0359
􁦝	-13.0362
灧	-13.0366
爬	-13.0376
瑠	-13.0377
墪	-13.0403
􁪑	-13.1059
赳	-13.1073
橚	-13.1073
腊	-13.108
鍛	-13.1081
螫	-13.1081
寏	-13.1082
鄦	-13.1082
箄	-13.1084
窶	-13.1084
灊	-13.1085
顇	-13.1085
䞇	-13.1086
䙫	-13.1087
鼙	-13.1087
哩	-13.1087
蠙	-13.1089
捃	-13.109
酎	-13.1092
擥	-13.1092
疣	-13.1093
鄱	-13.1094
娣	-13.1095
祅	-13.1095
樑	-13.1095
鶗	-13.1096
㓙	-13.1096
絫	-13.1096
煟	-13.1097
鍚	-13.1098
痒	-13.1098
㭊	-13.1099
俘	-13.1099
桯	-13.1099
埓	-13.11
俁	-13.11
砑	-13.11
朐	-13.1101
㳂	-13.1101
齓	-13.1101
薙	-13.1101
壟	-13.1102
蟉	-13.1102
杅	-13.1102
􁞝	-13.1102
禘	-13.1102
杌	-13.1102
敓	-13.1102
鷦	-13.1102
莠	-13.1103
侠	-13.1103
㨿	-13.1103
閡	-13.1103
牸	-13.1105
澦	-13.1105
鱷	-13.1105
偎	-13.1105
胼	-13.1105
骳	-13.1105
僥	-13.1106
淖	-13.1106
瀲	-13.1106
燐	-13.1107
襠	-13.1107
彠	-13.1107
鎪	-13.1107
􁚗	-13.1108
綈	-13.1108
澠	-13.1109
踔	-13.111
洧	-13.111
溲	-13.111
贔	-13.111
咿	-13.1112
袗	-13.1112
皥	-13.1113
机	-13.1113
歔	-13.1113
畣	-13.1113
姢	-13.1114
萄	-13.1114
覷	-13.1114
値	-13.1114
跖	-13.1115
隟	-13.1115
勦	-13.1115
曨	-13.1115
𣢾	-13.1116
縂	-13.1116
邲	-13.1116
斮	-13.1116
祧	-13.1116
籯	-13.1116
鏖	-13.1116
焱	-13.1117
毆	-13.1118
劘	-13.1119
寉	-13.1119
扞	-13.112
鴆	-13.1121
閈	-13.1122
橄	-13.1123
昞	-13.1124
慱	-13.1126
鴞	-13.1128
惔	-13.1129
郾	-13.113
卹	-13.113
毿	-13.1132
鞲	-13.1137
胞	-13.1907
噶	-13.1908
棅	-13.1908
汭	-13.1909
泬	-13.1915
岊	-13.1917
􁪘	-13.1919
􁏦	-13.192
鎡	-13.1921
闉	-13.1922
嚦	-13.1922
愒	-13.1922
愎	-13.1922
鈺	-13.1923
珝	-13.1923
柵	-13.1924
豓	-13.1924
㛰	-13.1924
諴	-13.1924
嫚	-13.1925
襖	-13.1925
蕡	-13.1925
靦	-13.1925
桴	-13.1926
枮	-13.1926
閿	-13.1926
芭	-13.1927
窬	-13.1928
縧	-13.1928
慼	-13.1929
櫚	-13.1929
踽	-13.1929
澨	-13.193
骩	-13.193
幵	-13.193
泒	-13.193
垍	-13.1931
歕	-13.1931
圮	-13.1931
㮄	-13.1931
饘	-13.1931
僰	-13.1931
騂	-13.1932
砰	-13.1932
𬒳	-13.1932
膂	-13.1932
踉	-13.1933
昴	-13.1933
瞋	-13.1933
甆	-13.1934
獼	-13.1935
澼	-13.1935
旐	-13.1936
窳	-13.1936
襞	-13.1937
㴠	-13.1937
𤾉	-13.1937
浟	-13.1937
辶	-13.1937
蟀	-13.1937
蟋	-13.1937
鰌	-13.1938
紬	-13.1938
鴒	-13.1939
沬	-13.1939
黷	-13.1939
椷	-13.1939
姱	-13.194
鋐	-13.194
蹐	-13.194
𥚹	-13.194
羿	-13.1941
蛄	-13.1942
躑	-13.1942
鸇	-13.1942
衿	-13.1943
蔌	-13.1943
駔	-13.1943
殹	-13.1944
屭	-13.1944
蕢	-13.1944
匆	-13.1944
鄽	-13.1944
擿	-13.1945
厖	-13.1945
敭	-13.1945
甿	-13.1945
熖	-13.1945
确	-13.1945
艅	-13.1945
髽	-13.1946
渦	-13.1946
禔	-13.1947
篘	-13.1947
乩	-13.1948
隩	-13.1948
浼	-13.1949
喑	-13.1949
醁	-13.1949
􁎐	-13.1949
敻	-13.195
梏	-13.1951
澱	-13.1951
婭	-13.1952
厰	-13.1952
㤅	-13.1953
鍮	-13.1954
濼	-13.1955
耤	-13.1957
嫘	-13.1957
咬	-13.1957
縗	-13.1957
艫	-13.1959
縐	-13.196
椶	-13.1963
筀	-13.1964
吭	-13.1965
醋	-13.1974
􁏢	-13.199
獾	-13.2019
佀	-13.2808
壷	-13.2813
甦	-13.2817
􁁪	-13.282
裠	-13.2823
􁎾	-13.2827
艎	-13.2827
犒	-13.2828
紕	-13.2828
曌	-13.2828
賫	-13.2828
糖	-13.2829
嬬	-13.283
羜	-13.283
妘	-13.2831
䍐	-13.2831
翨	-13.2833
麏	-13.2833
痾	-13.2833
綍	-13.2833
坾	-13.2833
鬉	-13.2833
罐	-13.2834
撻	-13.2834
纏	-13.2834
邴	-13.2834
鏌	-13.2835
㮚	-13.2835
頞	-13.2836
晢	-13.2836
􁄏	-13.2836
笞	-13.2836
韝	-13.2837
熲	-13.2837
𣪚	-13.2838
俅	-13.2839
垝	-13.2839
戞	-13.2839
憸	-13.2839
悊	-13.284
蘗	-13.284
爆	-13.284
圬	-13.284
裼	-13.2841
葅	-13.2841
暍	-13.2841
届	-13.2842
􁩉	-13.2842
䌫	-13.2842
礧	-13.2843
嫻	-13.2843
坏	-13.2843
秔	-13.2844
券	-13.2844
㓗	-13.2844
稺	-13.2844
鞫	-13.2844
蓰	-13.2844
醨	-13.2845
孛	-13.2845
穽	-13.2845
聵	-13.2845
忼	-13.2846
繖	-13.2846
溱	-13.2846
彘	-13.2847
濙	-13.2847
莅	-13.2847
鬳	-13.2847
棱	-13.2847
朞	-13.2849
椉	-13.2849
晧	-13.2849
餬	-13.285
烺	-13.285
纛	-13.285
瀦	-13.285
蚨	-13.285
歗	-13.2851
褷	-13.2851
旟	-13.2851
醲	-13.2852
囦	-13.2852
堈	-13.2852
蝣	-13.2852
珷	-13.2852
蛱	-13.2852
慇	-13.2853
鏑	-13.2853
胙	-13.2853
澮	-13.2853
鼂	-13.2853
圑	-13.2853
玞	-13.2854
旺	-13.2854
酺	-13.2854
溼	-13.2855
譍	-13.2855
娵	-13.2855
柈	-13.2855
籹	-13.2856
螳	-13.2856
􁠸	-13.2857
䓁	-13.2858
刅	-13.2858
箎	-13.2858
忉	-13.2858
㳄	-13.2859
喋	-13.2859
夤	-13.2859
暠	-13.2859
鶵	-13.2859
𬒮	-13.286
雯	-13.286
曅	-13.286
蹌	-13.286
鏟	-13.286
熺	-13.286
寬	-13.286
獠	-13.2862
湃	-13.2862
弑	-13.2864
諼	-13.2864
妳	-13.2865
囉	-13.2866
餱	-13.2867
毣	-13.2867
靉	-13.2868
篌	-13.287
澑	-13.2871
􁚳	-13.2871
爕	-13.2871
佟	-13.2874
儿	-13.2876
沕	-13.2876
緄	-13.2881
噰	-13.38
昫	-13.3807
佈	-13.3808
坻	-13.3814
鼾	-13.3815
篪	-13.3815
哢	-13.3823
珤	-13.3825
􁐓	-13.3825
鼕	-13.3826
嚕	-13.3826
殛	-13.3828
秭	-13.3828
􁇾	-13.3828
懟	-13.3829
媯	-13.3829
蒞	-13.383
饙	-13.3831
眯	-13.3831
嘵	-13.3832
冑	-13.3832
畯	-13.3833
匄	-13.3835
皖	-13.3835
趞	-13.3835
棫	-13.3835
劚	-13.3836
歜	-13.3836
侹	-13.3836
僨	-13.3836
獎	-13.3836
兟	-13.3837
馹	-13.3837
紏	-13.3837
浡	-13.3837
搘	-13.3837
荑	-13.3837
惪	-13.3838
蒓	-13.3839
荗	-13.3839
袛	-13.3839
茀	-13.384
酴	-13.384
㬥	-13.3841
藟	-13.3841
蚿	-13.3841
􁷽	-13.3841
騄	-13.3842
咊	-13.3842
尫	-13.3844
霣	-13.3845
鉶	-13.3845
飴	-13.3846
瘼	-13.3846
沭	-13.3847
氍	-13.3847
枹	-13.3847
洴	-13.3847
蝀	-13.3847
㵸	-13.3847
謟	-13.3848
紲	-13.3848
庥	-13.3849
㩗	-13.3849
𤇺	-13.3849
嫮	-13.3849
胛	-13.3849
迕	-13.385
汞	-13.3851
詬	-13.3851
皃	-13.3851
頙	-13.3851
殃	-13.3851
郙	-13.3851
閆	-13.3851
骯	-13.3852
箝	-13.3852
噩	-13.3853
鄘	-13.3853
跬	-13.3854
醻	-13.3854
妷	-13.3855
髠	-13.3855
診	-13.3855
彳	-13.3856
雇	-13.3856
髥	-13.3856
嶭	-13.3856
緐	-13.3857
䍦	-13.3857
剙	-13.3857
斒	-13.3858
辮	-13.3858
裀	-13.3858
窕	-13.3859
桎	-13.3859
禳	-13.3859
韙	-13.3859
担	-13.386
哆	-13.3861
㕍	-13.3862
蜷	-13.3862
􁡯	-13.3862
柮	-13.3862
螘	-13.3863
煢	-13.3864
䊵	-13.3864
磑	-13.3865
􁋺	-13.3865
箒	-13.3866
戣	-13.3866
碟	-13.3868
鼊	-13.3868
葡	-13.3868
沇	-13.3869
鬴	-13.3869
麌	-13.387
臍	-13.3871
穣	-13.3871
蔀	-13.3883
嘛	-13.4904
嘐	-13.4909
􁦁	-13.4913
栲	-13.4922
䧏	-13.4923
砲	-13.4925
㴶	-13.4928
胐	-13.4929
隮	-13.4929
麞	-13.493
唄	-13.4931
㪟	-13.4932
尨	-13.4933
抨	-13.4933
􁒷	-13.4933
韍	-13.4934
擄	-13.4935
㬠	-13.4936
姞	-13.4937
櫨	-13.4937
㻮	-13.4937
嵲	-13.4937
刧	-13.4938
攠	-13.4938
釧	-13.4939
禴	-13.4939
僇	-13.494
宂	-13.4941
𬎼	-13.4941
鯖	-13.4941
淯	-13.4941
鋏	-13.4942
痿	-13.4943
坿	-13.4943
㪍	-13.4943
諏	-13.4944
䢴	-13.4944
燀	-13.4946
煽	-13.4946
㯶	-13.4946
敺	-13.4947
枘	-13.4947
貅	-13.4947
醿	-13.4947
檳	-13.4948
嚲	-13.4948
縲	-13.4948
襕	-13.4948
儈	-13.4948
喏	-13.4948
哮	-13.4949
璈	-13.4949
菻	-13.4949
鬅	-13.495
莩	-13.495
釗	-13.495
螟	-13.495
縆	-13.495
憿	-13.4951
碭	-13.4951
鷰	-13.4952
讖	-13.4952
匯	-13.4952
蜺	-13.4953
襴	-13.4953
趵	-13.4953
詶	-13.4954
軹	-13.4954
螙	-13.4954
屺	-13.4954
瞀	-13.4955
筥	-13.4955
弫	-13.4956
骫	-13.4956
搰	-13.4956
嚅	-13.4956
㮣	-13.4957
盒	-13.4957
犉	-13.4957
繰	-13.4957
􁌫	-13.4957
獧	-13.4957
飣	-13.4958
賨	-13.4958
齮	-13.4958
琖	-13.4959
矇	-13.4959
輶	-13.4959
曀	-13.496
楝	-13.496
𥙷	-13.496
趕	-13.4961
鯈	-13.4961
籓	-13.4962
𠡠	-13.4962
倥	-13.4962
賙	-13.4962
􁴱	-13.4962
蜑	-13.4963
螣	-13.4963
炮	-13.4963
哄	-13.4964
綷	-13.4964
軔	-13.4964
灕	-13.4964
賅	-13.4966
祊	-13.4966
㪺	-13.4966
蕫	-13.4967
頟	-13.4967
溘	-13.4967
舐	-13.4968
趋	-13.4968
㹀	-13.4968
橢	-13.4968
懍	-13.4968
偰	-13.4968
耔	-13.4968
靆	-13.4969
鞬	-13.4969
􁰳	-13.4969
蕝	-13.4969
詗	-13.4969
怎	-13.497
鄷	-13.497
默	-13.497
抔	-13.497
佘	-13.497
桫	-13.497
夬	-13.4971
熄	-13.4971
啁	-13.4971
帬	-13.4971
畚	-13.4971
歊	-13.4971
褪	-13.4971
頬	-13.4971
楂	-13.4972
摻	-13.4972
戅	-13.4972
𢋫	-13.4972
狨	-13.4973
晼	-13.4973
孶	-13.4973
䙰	-13.4973
歧	-13.4974
㬅	-13.4974
蹡	-13.4974
陘	-13.4975
硤	-13.4975
櫜	-13.4976
絸	-13.4976
幇	-13.4977
摰	-13.4979
蚶	-13.498
呆	-13.4983
瀞	-13.4983
鸂	-13.4983
嚞	-13.4986
拐	-13.4987
噎	-13.4988
㝛	-13.4988
瀜	-13.5002
濲	-13.615
挨	-13.6157
㭿	-13.6165
䴡	-13.617
耖	-13.6173
黥	-13.6175
鍠	-13.6178
撘	-13.6181
怤	-13.6182
毌	-13.6182
郟	-13.6182
𥚑	-13.6183
嫫	-13.6183
捎	-13.6183
綂	-13.6184
誹	-13.6184
呱	-13.6184
淂	-13.6184
騤	-13.6186
癩	-13.6186
丼	-13.6186
屓	-13.6188
毚	-13.6188
桄	-13.6188
覦	-13.619
紞	-13.619
籐	-13.619
弢	-13.619
𬞞	-13.6191
煓	-13.6192
躪	-13.6192
㙮	-13.6192
蔞	-13.6193
䰟	-13.6194
嚨	-13.6194
爝	-13.6195
龠	-13.6196
螗	-13.6196
塌	-13.6196
㫄	-13.6196
鄶	-13.6196
蟆	-13.6196
㨂	-13.6196
䔩	-13.6196
兗	-13.6196
矼	-13.6196
馘	-13.6197
椑	-13.6197
稊	-13.6198
凘	-13.6198
胚	-13.6198
虱	-13.6198
虡	-13.6198
鐻	-13.6198
鋈	-13.6199
蹷	-13.62
劻	-13.62
醞	-13.62
㷆	-13.62
䨴	-13.62
霮	-13.62
𫐠	-13.62
翿	-13.62
臟	-13.62
卩	-13.62
閾	-13.6201
礭	-13.6201
猾	-13.6202
綖	-13.6202
黧	-13.6202
􁥾	-13.6203
桁	-13.6203
硾	-13.6203
炡	-13.6203
氾	-13.6203
饔	-13.6203
陗	-13.6203
挖	-13.6203
穸	-13.6203
蔴	-13.6203
觕	-13.6203
匚	-13.6204
嘑	-13.6204
瑇	-13.6204
蝇	-13.6204
俜	-13.6204
惛	-13.6204
鸐	-13.6205
幪	-13.6205
湥	-13.6205
轎	-13.6205
楔	-13.6205
坯	-13.6205
㐰	-13.6206
桺	-13.6206
皪	-13.6206
剳	-13.6206
㐲	-13.6206
莵	-13.6207
櫬	-13.6207
菅	-13.6207
汛	-13.6207
峪	-13.6207
餔	-13.6207
觳	-13.6207
鳲	-13.6208
淝	-13.6209
樅	-13.6209
楛	-13.6209
詈	-13.6209
諵	-13.6209
舡	-13.6209
憕	-13.6209
卮	-13.6209
黓	-13.6209
丷	-13.621
踧	-13.621
闒	-13.6211
祟	-13.6211
逥	-13.6211
𨫼	-13.6211
睱	-13.6212
鬙	-13.6212
笱	-13.6212
跅	-13.6213
杆	-13.6213
柷	-13.6215
劌	-13.6215
嵋	-13.6215
氳	-13.6215
沲	-13.6215
稏	-13.6215
奧	-13.6215
潸	-13.6216
縋	-13.6216
婪	-13.6216
桼	-13.6217
刾	-13.6218
捶	-13.6218
冂	-13.6218
􁇛	-13.6219
飃	-13.622
悛	-13.622
剴	-13.622
琲	-13.622
蜆	-13.622
㴞	-13.622
裛	-13.6221
偬	-13.6221
吒	-13.6222
屼	-13.6222
􁱝	-13.6222
軺	-13.6222
帀	-13.6223
玲	-13.6223
漷	-13.6223
絞	-13.6223
彂	-13.6223
广	-13.6224
枷	-13.6224
澇	-13.6224
襜	-13.6224
逑	-13.6224
闞	-13.6224
桶	-13.6225
鵊	-13.6225
敡	-13.6226
槮	-13.6226
屮	-13.6227
撡	-13.6227
兊	-13.6227
巓	-13.6229
籩	-13.6229
濘	-13.6231
恚	-13.6231
僴	-13.6232
轝	-13.6232
攔	-13.6233
㬉	-13.6234
舳	-13.6235
蝎	-13.6235
鶼	-13.6237
儇	-13.6238
蚯	-13.6238
枸	-13.6239
嶬	-13.6241
螽	-13.6242
獮	-13.6242
桿	-13.6242
䘖	-13.6246
坵	-13.625
皛	-13.6252
𥪡	-13.6252
橒	-13.6258
皜	-13.6263
鸓	-13.6266
肈	-13.7534
眦	-13.7588
􁓸	-13.7591
鐲	-13.7595
饉	-13.7597
澉	-13.7599
鸕	-13.7601
㠭	-13.7602
矉	-13.7603
佹	-13.7603
蕘	-13.7604
㐫	-13.7604
􁂧	-13.7604
偲	-13.7605
嵽	-13.7606
纁	-13.7609
楶	-13.7609
霪	-13.761
嵊	-13.761
抅	-13.761
聪	-13.7611
皐	-13.7612
渼	-13.7612
駪	-13.7613
与	-13.7613
蠍	-13.7614
㬇	-13.7615
䰞	-13.7615
觝	-13.7615
栟	-13.7615
袓	-13.7616
琟	-13.7616
鷀	-13.7616
夌	-13.7616
毹	-13.7617
䣛	-13.7618
噲	-13.7618
忺	-13.7618
鞶	-13.7618
蟣	-13.7619
皚	-13.7619
屎	-13.762
􁊸	-13.7621
睽	-13.7621
㰎	-13.7621
罣	-13.7621
鷕	-13.7622
雱	-13.7622
蛆	-13.7623
􁮖	-13.7623
叮	-13.7623
䪥	-13.7623
皞	-13.7624
愳	-13.7624
玟	-13.7624
鏄	-13.7625
痰	-13.7625
尻	-13.7625
榿	-13.7625
㪉	-13.7626
𥜗	-13.7626
㓨	-13.7626
緍	-13.7626
閠	-13.7627
撕	-13.7627
毀	-13.7627
旓	-13.7627
玕	-13.7627
洌	-13.7627
餮	-13.7628
緲	-13.7629
􁕓	-13.7629
瑑	-13.763
恉	-13.763
媍	-13.763
媞	-13.763
怗	-13.7631
杇	-13.7631
囁	-13.7631
洚	-13.7631
頀	-13.7631
槭	-13.7631
逯	-13.7631
侏	-13.7632
􁂫	-13.7632
滫	-13.7633
㶏	-13.7633
嫺	-13.7633
㦲	-13.7633
徕	-13.7633
輜	-13.7633
迮	-13.7634
墼	-13.7634
跽	-13.7634
掎	-13.7634
鬪	-13.7634
弮	-13.7634
驔	-13.7635
崺	-13.7635
糿	-13.7635
灺	-13.7636
鍧	-13.7636
菔	-13.7636
稂	-13.7636
堠	-13.7636
狶	-13.7636
齅	-13.7636
譛	-13.7637
圅	-13.7637
䛕	-13.7637
耍	-13.7637
驦	-13.7638
荳	-13.7638
郅	-13.7639
懂	-13.7639
鉊	-13.7639
鰥	-13.7639
潨	-13.7639
􁐠	-13.7639
蓁	-13.764
嗒	-13.764
咍	-13.764
廋	-13.764
岀	-13.764
兌	-13.764
暱	-13.7641
䆉	-13.7641
嚇	-13.7641
郿	-13.7641
釂	-13.7641
髒	-13.7641
匧	-13.7642
砦	-13.7642
靿	-13.7642
丫	-13.7643
蜘	-13.7643
嘒	-13.7643
愞	-13.7643
搓	-13.7643
縚	-13.7644
霂	-13.7644
霡	-13.7644
湟	-13.7645
悁	-13.7645
灩	-13.7646
鬒	-13.7646
綌	-13.7646
媫	-13.7647
屆	-13.7647
沴	-13.7648
睒	-13.7649
沗	-13.7649
丏	-13.7649
畮	-13.7649
蝙	-13.7649
炒	-13.765
籭	-13.765
醽	-13.7651
􁅔	-13.7651
惝	-13.7651
閧	-13.7652
漴	-13.7652
坱	-13.7652
珫	-13.7652
蝠	-13.7652
蝱	-13.7653
覡	-13.7653
礽	-13.7654
鞓	-13.7654
兪	-13.7655
繶	-13.7657
霶	-13.7659
摵	-13.766
牯	-13.7663
畬	-13.7663
姣	-13.7663
麐	-13.7664
茭	-13.7665
訏	-13.7665
郳	-13.7667
貙	-13.7667
媳	-13.7668
医	-13.7669
鞮	-13.767
潇	-13.7674
騑	-13.7676
􁦍	-13.7682
襮	-13.7684
觗	-13.7704
僶	-13.925
畞	-13.9253
堧	-13.9253
鱉	-13.9256
韮	-13.926
攽	-13.9262
碡	-13.9263
缿	-13.9263
甔	-13.9264
瞢	-13.9264
钁	-13.9265
嫖	-13.9266
懆	-13.9271
娀	-13.9273
礿	-13.9275
呿	-13.9275
阝	-13.9275
􁁍	-13.9275
􁁷	-13.9276
𤯝	-13.9276
溈	-13.9276
梴	-13.9277
檗	-13.9277
駸	-13.9279
磓	-13.9279
䢱	-13.9279
楀	-13.9279
戟	-13.9281
峿	-13.9281
庳	-13.9281
􁵃	-13.9281
孏	-13.9282
篨	-13.9283
姉	-13.9284
痔	-13.9284
晡	-13.9285
笇	-13.9285
椁	-13.9285
􁝟	-13.9285
黶	-13.9286
梦	-13.9287
罝	-13.9287
咮	-13.9287
埭	-13.9287
佉	-13.9287
敉	-13.9288
楙	-13.9288
鋌	-13.9288
﨣	-13.9288
慍	-13.9289
餖	-13.9289
肸	-13.929
嘷	-13.929
猙	-13.929
齁	-13.929
痁	-13.929
趄	-13.9291
鯢	-13.9291
棬	-13.9291
㜷	-13.9291
粳	-13.9291
嚌	-13.9292
蓻	-13.9292
嵕	-13.9292
遅	-13.9292
噦	-13.9292
壖	-13.9293
幨	-13.9293
謭	-13.9293
窽	-13.9293
淰	-13.9293
糴	-13.9293
崋	-13.9293
􁑋	-13.9294
聓	-13.9294
馣	-13.9294
旉	-13.9295
珈	-13.9295
晥	-13.9295
㵚	-13.9295
戬	-13.9296
鞞	-13.9296
骱	-13.9296
裭	-13.9296
韤	-13.9296
􁇹	-13.9296
鷫	-13.9297
衕	-13.9297
顦	-13.9297
恆	-13.9298
遫	-13.9298
鎌	-13.9298
𧖟	-13.9298
|	-13.9299
佋	-13.9299
窀	-13.9299
蒱	-13.9299
􁦃	-13.9299
訽	-13.93
䠱	-13.93
摴	-13.93
􁒬	-13.93
璕	-13.93
壈	-13.93
􁘡	-13.93
噆	-13.93
岋	-13.93
梃	-13.9301
胖	-13.9301
鞿	-13.9301
砆	-13.9301
碏	-13.9302
窯	-13.9302
脞	-13.9302
墾	-13.9302
駬	-13.9303
欻	-13.9303
邋	-13.9303
縕	-13.9304
旤	-13.9304
蘢	-13.9304
洫	-13.9305
瑮	-13.9305
襏	-13.9305
騃	-13.9305
柂	-13.9305
粦	-13.9305
眊	-13.9305
悳	-13.9306
槻	-13.9306
勷	-13.9306
儤	-13.9306
詿	-13.9306
轕	-13.9307
篡	-13.9307
傀	-13.9307
楳	-13.9307
棕	-13.9307
瘖	-13.9307
樟	-13.9307
轇	-13.9307
疽	-13.9308
襫	-13.9308
硜	-13.9308
慴	-13.9308
軛	-13.9308
戺	-13.9308
䖟	-13.9308
忞	-13.9308
袷	-13.9308
磥	-13.9309
唤	-13.9309
繻	-13.9309
蜮	-13.9309
㗖	-13.931
瀍	-13.931
􁀊	-13.931
咂	-13.9311
晊	-13.9311
鯔	-13.9311
浃	-13.9312
􁌹	-13.9312
彗	-13.9312
蒢	-13.9312
觱	-13.9313
㴸	-13.9313
嗈	-13.9313
鎧	-13.9315
澐	-13.9315
邶	-13.9315
脽	-13.9315
㢸	-13.9315
瑫	-13.9315
䖃	-13.9315
蓞	-13.9315
怩	-13.9315
崞	-13.9316
洓	-13.9316
軨	-13.9316
逭	-13.9316
漰	-13.9317
忸	-13.9317
圞	-13.9317
㗳	-13.9317
鵂	-13.9317
洑	-13.9317
耎	-13.9319
圠	-13.9319
焄	-13.9319
苯	-13.9319
咈	-13.9319
􁃻	-13.932
枳	-13.932
𬗟	-13.932
柞	-13.932
鄺	-13.9322
瓤	-13.9322
瞩	-13.9323
葹	-13.9323
讞	-13.9323
倂	-13.9323
􁇣	-13.9323
趐	-13.9324
瞍	-13.9324
􁂥	-13.9324
􁃚	-13.9324
尒	-13.9324
瘢	-13.9324
傞	-13.9324
芡	-13.9325
騭	-13.9327
膞	-13.9327
狁	-13.9327
谹	-13.9328
献	-13.9328
胠	-13.9329
哳	-13.9329
栧	-13.9329
脹	-13.9329
濚	-13.933
嘬	-13.933
媠	-13.933
鄯	-13.933
鄄	-13.9333
蚱	-13.9333
蜢	-13.9333
涏	-13.9334
嬛	-13.9335
嗷	-13.9337
㷊	-13.9337
詖	-13.9337
洿	-13.9337
葊	-13.9338
􁎼	-13.9338
搯	-13.9339
􁬾	-13.9339
滹	-13.9344
筤	-13.9345
䉀	-13.9345
鋋	-13.9346
鈜	-13.9346
輗	-13.9347
𤏡	-13.9352
菫	-13.9355
鮊	-13.9356
蒻	-13.9383
􁃸	-14.1214
覻	-14.1231
鴦	-14.1232
罛	-14.1238
喔	-14.1241
勹	-14.1242
獍	-14.1243
􁀾	-14.1246
柲	-14.125
嵠	-14.1253
枅	-14.1253
犴	-14.1259
麛	-14.126
糗	-14.1261
寯	-14.1261
霝	-14.1261
礥	-14.1263
嬭	-14.1263
栳	-14.1264
餵	-14.1264
菶	-14.1265
釬	-14.1265
蛹	-14.1266
謷	-14.1267
㒒	-14.1267
夆	-14.1267
駈	-14.1268
暦	-14.1268
𣅿	-14.1268
𢷬	-14.127
􁰭	-14.127
軃	-14.1271
銙	-14.1272
噍	-14.1273
醊	-14.1273
攧	-14.1274
誖	-14.1274
媢	-14.1274
贓	-14.1274
昪	-14.1274
襐	-14.1274
飤	-14.1274
𣙗	-14.1274
刎	-14.1275
筲	-14.1275
酕	-14.1275
􁄴	-14.1276
郸	-14.1277
犠	-14.1277
騀	-14.1277
鱣	-14.1278
薲	-14.1278
醄	-14.1278
瑭	-14.1279
儫	-14.1279
㳙	-14.1279
捋	-14.1279
焴	-14.1279
裋	-14.1279
唅	-14.1281
􁁃	-14.1281
霉	-14.1282
䠶	-14.1282
蚕	-14.1283
埿	-14.1284
呷	-14.1284
苹	-14.1284
袚	-14.1284
鍰	-14.1284
􁊒	-14.1284
恝	-14.1285
麚	-14.1285
紼	-14.1285
轗	-14.1285
􁆨	-14.1285
匵	-14.1285
𪷟	-14.1286
霙	-14.1286
抆	-14.1286
迍	-14.1286
畷	-14.1286
鰐	-14.1287
煅	-14.1287
酇	-14.1287
龑	-14.1287
晛	-14.1287
鷏	-14.1287
樠	-14.1287
赬	-14.1288
冱	-14.1288
缽	-14.1288
扑	-14.1288
晜	-14.1288
蠉	-14.1288
褀	-14.1288
醎	-14.1288
􁃒	-14.1288
鋣	-14.1288
懣	-14.1289
貘	-14.1289
婬	-14.1289
􁢈	-14.1289
㑓	-14.1289
牗	-14.1289
毯	-14.129
蚣	-14.129
蜈	-14.129
踝	-14.129
戦	-14.129
岞	-14.129
骭	-14.129
蓧	-14.1291
狰	-14.1291
櫸	-14.1291
㪷	-14.1291
尰	-14.1291
搕	-14.1292
煴	-14.1292
􁉤	-14.1292
怊	-14.1292
崈	-14.1292
耼	-14.1293
䴊	-14.1293
􁐍	-14.1293
纕	-14.1293
疁	-14.1293
櫩	-14.1294
薋	-14.1294
鵕	-14.1294
媆	-14.1294
桉	-14.1294
魃	-14.1294
􁁺	-14.1294
尌	-14.1294
帟	-14.1295
阽	-14.1295
瞎	-14.1295
皵	-14.1295
匳	-14.1296
曑	-14.1297
濋	-14.1297
緖	-14.1297
耉	-14.1297
詥	-14.1297
姆	-14.1297
靶	-14.1298
毉	-14.1298
崘	-14.1298
欈	-14.1298
鈆	-14.1298
稧	-14.1298
鏇	-14.1299
繐	-14.1299
愐	-14.1299
紃	-14.13
嚀	-14.13
嗽	-14.1301
箊	-14.1301
袿	-14.1301
瘤	-14.1301
簉	-14.1301
靃	-14.1301
羾	-14.1301
邰	-14.1301
鋁	-14.1302
懨	-14.1302
洳	-14.1302
靧	-14.1302
􁫫	-14.1302
嶨	-14.1302
飦	-14.1302
彯	-14.1303
桒	-14.1303
揫	-14.1303
隃	-14.1303
裦	-14.1303
䧹	-14.1303
鄩	-14.1303
渣	-14.1304
妗	-14.1304
􁀨	-14.1304
蜇	-14.1304
瑘	-14.1304
鵩	-14.1304
欿	-14.1304
鈷	-14.1304
蓏	-14.1305
卲	-14.1305
垜	-14.1305
釭	-14.1305
殲	-14.1305
砯	-14.1305
􁚈	-14.1305
噂	-14.1305
哨	-14.1305
痢	-14.1305
佪	-14.1305
呑	-14.1305
瞶	-14.1305
帡	-14.1305
䳵	-14.1306
幐	-14.1306
􁒽	-14.1306
鑴	-14.1306
靛	-14.1306
螂	-14.1306
壕	-14.1306
纆	-14.1306
讙	-14.1306
彖	-14.1306
髗	-14.1307
𠻳	-14.1307
罋	-14.1307
𫉬	-14.1307
囤	-14.1307
矞	-14.1308
濉	-14.1308
涖	-14.1308
嶲	-14.1308
騠	-14.1308
陿	-14.1308
䓗	-14.1308
卨	-14.1309
皭	-14.1309
媻	-14.1309
儡	-14.131
濞	-14.1311
􁒍	-14.1311
椏	-14.1311
壜	-14.1311
馽	-14.1311
嬸	-14.1312
槔	-14.1312
𨳩	-14.1312
冘	-14.1312
晹	-14.1313
鈁	-14.1313
疼	-14.1313
觫	-14.1313
􁊥	-14.1314
痀	-14.1314
拕	-14.1314
黭	-14.1314
􁤷	-14.1314
騋	-14.1314
啚	-14.1314
縯	-14.1314
繂	-14.1314
豗	-14.1314
􁄭	-14.1314
网	-14.1314
趠	-14.1314
㠋	-14.1314
鮪	-14.1315
稌	-14.1315
􁤈	-14.1315
拿	-14.1315
絀	-14.1315
醍	-14.1315
荽	-14.1315
獗	-14.1315
俲	-14.1316
糚	-14.1316
醐	-14.1316
酖	-14.1316
踦	-14.1317
坫	-14.1317
褦	-14.1317
絖	-14.1317
襶	-14.1317
㒞	-14.1317
鷇	-14.1318
淶	-14.1318
堽	-14.1318
酗	-14.1318
芍	-14.1319
榷	-14.1319
膋	-14.1319
䗶	-14.1319
妁	-14.1319
莂	-14.132
薆	-14.132
瘟	-14.132
䔿	-14.132
鶹	-14.132
菼	-14.1321
闃	-14.1321
苽	-14.1321
鬵	-14.1321
橑	-14.1322
􁘕	-14.1322
􁇀	-14.1322
旞	-14.1323
炱	-14.1324
𫀆	-14.1324
􁢒	-14.1324
趡	-14.1324
眚	-14.1324
們	-14.1325
霦	-14.1326
隺	-14.1326
礜	-14.1327
瑨	-14.1327
漇	-14.1327
壩	-14.1327
鼛	-14.1327
婑	-14.1327
腓	-14.1328
怦	-14.1328
爟	-14.1329
艣	-14.133
嬲	-14.133
韃	-14.133
㯽	-14.1331
杻	-14.1331
罭	-14.1332
鴇	-14.1332
􁊔	-14.1332
僛	-14.1333
愭	-14.1333
熀	-14.1334
瀯	-14.1335
驑	-14.1335
爹	-14.1337
倧	-14.1338
醤	-14.134
厶	-14.134
􁰔	-14.1342
驊	-14.1343
柹	-14.1343
靼	-14.1345
駵	-14.1346
崳	-14.1348
驝	-14.1349
㲲	-14.135
臡	-14.1353
蛋	-14.1354
醼	-14.1366
釃	-14.1369
滻	-14.1378
汹	-14.1403
嚏	-14.1404
甀	-14.3733
跁	-14.3738
万	-14.3738
跒	-14.3739
􁏁	-14.3741
鼏	-14.3742
稈	-14.3743
􁈞	-14.3749
狴	-14.3751
蛸	-14.3752
蠨	-14.3752
𡷗	-14.3753
􁪕	-14.3753
鋚	-14.3754
蛭	-14.3756
䪻	-14.3757
㶘	-14.376
淊	-14.376
盄	-14.376
茇	-14.376
祫	-14.3761
𤦺	-14.3761
猒	-14.3763
裯	-14.3763
攵	-14.3763
逴	-14.3763
厩	-14.3763
搵	-14.3764
糵	-14.3764
駊	-14.3764
蠔	-14.3765
樺	-14.3767
椰	-14.3768
纑	-14.3768
饟	-14.377
极	-14.377
粢	-14.377
膀	-14.377
柅	-14.3771
欱	-14.3772
冔	-14.3772
奡	-14.3772
柙	-14.3772
􁢊	-14.3773
㓿	-14.3774
愊	-14.3774
奝	-14.3774
荣	-14.3774
弸	-14.3775
賃	-14.3775
緦	-14.3775
侒	-14.3775
虓	-14.3775
餡	-14.3776
伈	-14.3776
􁟆	-14.3777
薉	-14.3777
巣	-14.3778
晲	-14.3778
飂	-14.3778
糢	-14.3778
鉸	-14.3778
勩	-14.3778
乕	-14.3778
呶	-14.3779
壵	-14.3779
犮	-14.3779
洍	-14.3779
髄	-14.3781
桱	-14.3781
怜	-14.3781
禫	-14.3781
􁇟	-14.3781
韅	-14.3781
䥈	-14.3782
𢡟	-14.3782
瀵	-14.3782
賻	-14.3782
瞹	-14.3782
蹂	-14.3783
魋	-14.3783
撈	-14.3783
蛀	-14.3783
蠭	-14.3783
偵	-14.3783
衊	-14.3783
蛂	-14.3784
灶	-14.3785
灃	-14.3785
媟	-14.3785
厷	-14.3785
笵	-14.3785
夅	-14.3786
㗋	-14.3786
蜊	-14.3786
􁷾	-14.3786
媾	-14.3786
笮	-14.3786
俣	-14.3786
烙	-14.3786
圩	-14.3787
圄	-14.3788
栅	-14.3788
裰	-14.3788
㸦	-14.3788
㝹	-14.3788
搪	-14.3788
鯫	-14.3788
渫	-14.3788
􁔷	-14.3788
𢮓	-14.3788
奰	-14.3788
瑍	-14.3788
裌	-14.3788
緌	-14.3789
㦯	-14.3789
􁂁	-14.3789
尔	-14.3789
捱	-14.3789
簦	-14.379
鮚	-14.379
挱	-14.379
㧗	-14.379
嗥	-14.379
摐	-14.379
桅	-14.379
啅	-14.379
嬝	-14.379
􁈍	-14.3792
沠	-14.3792
㟝	-14.3792
􁂜	-14.3792
椹	-14.3792
􁑱	-14.3792
疹	-14.3792
螿	-14.3792
跟	-14.3793
岍	-14.3793
暵	-14.3793
紾	-14.3793
劼	-14.3793
􁓒	-14.3793
朌	-14.3794
蚴	-14.3794
僝	-14.3795
鱓	-14.3795
酏	-14.3795
棙	-14.3795
濾	-14.3795
倈	-14.3795
衚	-14.3795
禖	-14.3796
儛	-14.3796
籊	-14.3796
冈	-14.3797
珌	-14.3797
􁈡	-14.3797
䝿	-14.3797
痗	-14.3797
咋	-14.3797
䯝	-14.3797
齲	-14.3799
騊	-14.3799
蓆	-14.3799
兑	-14.3799
庀	-14.3799
盙	-14.3799
轥	-14.38
磹	-14.38
蘤	-14.38
䫜	-14.38
迒	-14.38
瘉	-14.38
􁃍	-14.38
唧	-14.38
檮	-14.38
漯	-14.38
詄	-14.38
剟	-14.3801
墱	-14.3801
痟	-14.3801
埸	-14.3801
咆	-14.3801
丢	-14.3802
掐	-14.3802
跔	-14.3802
尿	-14.3802
逨	-14.3802
檇	-14.3802
靷	-14.3802
貊	-14.3803
疃	-14.3803
蹢	-14.3803
箖	-14.3803
濈	-14.3803
紩	-14.3803
絍	-14.3803
喦	-14.3803
囙	-14.3803
笴	-14.3803
鱨	-14.3803
􁄪	-14.3804
稡	-14.3804
鞄	-14.3804
搃	-14.3804
㢮	-14.3804
踳	-14.3804
􁊞	-14.3804
斨	-14.3804
鬈	-14.3804
􁜜	-14.3804
秕	-14.3804
臊	-14.3804
餧	-14.3806
悪	-14.3806
𡵨	-14.3806
湻	-14.3807
滽	-14.3807
鍗	-14.3807
㜑	-14.3807
揞	-14.3807
碔	-14.3807
殍	-14.3807
趼	-14.3807
􁓙	-14.3808
𪠘	-14.3808
驘	-14.3808
芎	-14.3808
嫽	-14.3808
鐮	-14.3808
峛	-14.3808
澟	-14.3808
縡	-14.3808
欏	-14.381
嚚	-14.381
塺	-14.381
痂	-14.381
勔	-14.381
戇	-14.381
簁	-14.381
㵎	-14.3811
鄼	-14.3811
􁅾	-14.3811
砠	-14.3811
怔	-14.3811
篲	-14.3811
軄	-14.3811
􁄕	-14.3812
䄡	-14.3813
蕣	-14.3813
袱	-14.3813
魫	-14.3813
􁗫	-14.3813
妵	-14.3813
鷆	-14.3813
嗄	-14.3814
䃺	-14.3814
剉	-14.3814
訹	-14.3814
鎕	-14.3814
檆	-14.3814
偊	-14.3814
葠	-14.3814
蟫	-14.3814
崷	-14.3815
杷	-14.3815
筇	-14.3815
谺	-14.3815
餕	-14.3815
躶	-14.3815
耰	-14.3815
茌	-14.3815
傋	-14.3815
麁	-14.3815
蜥	-14.3817
䳌	-14.3817
豉	-14.3817
壡	-14.3817
毺	-14.3817
蹺	-14.3818
鰻	-14.3818
蓨	-14.3818
鸘	-14.3818
伻	-14.3819
祲	-14.3819
埵	-14.3819
栒	-14.3819
斳	-14.382
豨	-14.382
㠝	-14.382
㷔	-14.382
䦧	-14.3821
仡	-14.3821
堲	-14.3821
戠	-14.3821
扢	-14.3821
朤	-14.3821
膬	-14.3821
巂	-14.3822
煗	-14.3822
开	-14.3822
撅	-14.3823
慠	-14.3824
囱	-14.3824
咩	-14.3824
岈	-14.3825
弜	-14.3825
歬	-14.3826
唆	-14.3826
銹	-14.3826
顕	-14.3826
稃	-14.3826
鐄	-14.3826
竻	-14.3828
竁	-14.3828
倞	-14.3828
穮	-14.3829
蓘	-14.3829
絰	-14.3829
蜎	-14.3829
􁚐	-14.3829
䨓	-14.3829
瓴	-14.3829
甁	-14.3829
鬍	-14.383
蜴	-14.3831
鏵	-14.3831
攏	-14.3832
􁀪	-14.3832
苪	-14.3832
猢	-14.3833
蠓	-14.3833
􁃊	-14.3833
罡	-14.3833
埬	-14.3835
浲	-14.3835
雘	-14.3835
呤	-14.3835
㰖	-14.3836
姙	-14.3836
擧	-14.3837
眂	-14.3837
僩	-14.3838
鵯	-14.3839
􁁣	-14.3839
􁋆	-14.3839
赩	-14.384
萑	-14.384
榧	-14.3842
謎	-14.3842
廾	-14.3842
櫋	-14.3843
噭	-14.3843
褌	-14.3843
暏	-14.3844
篛	-14.3846
䋭	-14.3846
憀	-14.3847
懕	-14.3847
窱	-14.3847
䓤	-14.3847
癃	-14.3849
羖	-14.3849
􁷼	-14.3849
囅	-14.3849
墺	-14.385
蚍	-14.3853
蟈	-14.3853
澩	-14.3853
羢	-14.3855
廄	-14.3855
􁂚	-14.3856
鉼	-14.386
隹	-14.387
㴻	-14.3871
捥	-14.3872
䆞	-14.3886
丄	-14.7022
爫	-14.7037
䤋	-14.7059
棡	-14.7059
堌	-14.7065
睩	-14.7066
芤	-14.7068
喛	-14.707
湢	-14.7076
癉	-14.7076
篸	-14.7076
綎	-14.708
扯	-14.708
卋	-14.7084
癬	-14.7084
棸	-14.7084
耙	-14.7086
盬	-14.7087
幬	-14.7088
艴	-14.7089
瓽	-14.709
匃	-14.7092
湆	-14.7093
櫏	-14.7093
刖	-14.7094
卝	-14.7095
紝	-14.7095
櫽	-14.7097
呀	-14.7097
倢	-14.7097
仳	-14.7097
㡡	-14.7097
响	-14.7099
敳	-14.7099
楗	-14.7099
埩	-14.7101
捏	-14.7101
伭	-14.7101
棵	-14.7101
惢	-14.7101
稘	-14.7101
戵	-14.7101
矙	-14.7103
摎	-14.7103
瓷	-14.7105
爺	-14.7105
瑽	-14.7105
佽	-14.7107
洏	-14.7107
莬	-14.7107
崱	-14.7109
盭	-14.7109
緅	-14.7109
胊	-14.7109
癎	-14.7109
咻	-14.7109
欃	-14.7109
晌	-14.7109
曏	-14.7111
庣	-14.7111
崍	-14.7111
瀔	-14.7111
茷	-14.7111
薱	-14.7111
很	-14.7113
䆫	-14.7113
满	-14.7113
窾	-14.7113
髣	-14.7113
㚟	-14.7115
䨲	-14.7115
摑	-14.7115
荂	-14.7115
犛	-14.7115
弍	-14.7116
犄	-14.7117
㕁	-14.7117
枓	-14.7117
寎	-14.7117
罳	-14.7117
墯	-14.7118
叜	-14.7119
㼧	-14.7119
弅	-14.7119
涬	-14.7119
傔	-14.712
焲	-14.712
祍	-14.712
咷	-14.712
瞇	-14.7121
碨	-14.7121
㻣	-14.7122
窹	-14.7122
丅	-14.7122
芴	-14.7122
儞	-14.7122
㟏	-14.7122
䎀	-14.7122
肫	-14.7122
矰	-14.7122
汕	-14.7122
滀	-14.7122
翃	-14.7122
症	-14.7124
䄄	-14.7124
卍	-14.7124
梣	-14.7124
㦃	-14.7124
狺	-14.7124
翍	-14.7124
痞	-14.7126
熯	-14.7126
糁	-14.7126
竆	-14.7126
䯳	-14.7126
姍	-14.7126
巎	-14.7126
堮	-14.7126
媽	-14.7126
嶉	-14.7126
瞷	-14.7128
槱	-14.7128
㙱	-14.7128
嫕	-14.7128
惣	-14.7128
槪	-14.7128
竛	-14.7128
竮	-14.7128
祔	-14.7128
䔒	-14.7128
塩	-14.713
珸	-14.713
蔲	-14.713
峘	-14.713
笁	-14.713
㞳	-14.713
䀨	-14.713
慁	-14.713
盋	-14.713
犨	-14.7131
歠	-14.7132
䂬	-14.7132
惄	-14.7132
戳	-14.7132
撏	-14.7132
臕	-14.7132
芼	-14.7132
嬀	-14.7133
柝	-14.7134
蔾	-14.7134
昰	-14.7134
毡	-14.7134
䙷	-14.7134
娖	-14.7134
晅	-14.7135
窔	-14.7135
䇲	-14.7136
炕	-14.7136
憭	-14.7136
嚻	-14.7136
昡	-14.7136
絏	-14.7136
嘱	-14.7136
姤	-14.7136
㵳	-14.7136
䀌	-14.7136
岔	-14.7136
揑	-14.7136
睟	-14.7138
惮	-14.7138
楕	-14.7138
䆋	-14.7138
幺	-14.7138
眡	-14.7138
倗	-14.7138
嘫	-14.7138
羑	-14.7138
呺	-14.7138
筳	-14.7138
亖	-14.7138
妲	-14.7138
薖	-14.7138
?	-14.7139
寍	-14.714
敀	-14.714
嵿	-14.714
梲	-14.714
臛	-14.714
烇	-14.7142
劓	-14.7142
碙	-14.7142
舵	-14.7142
䁑	-14.7143
胏	-14.7143
㩀	-14.7143
恇	-14.7144
扭	-14.7144
棉	-14.7144
楅	-14.7144
欸	-14.7144
涣	-14.7144
狌	-14.7144
棁	-14.7145
戻	-14.7145
稑	-14.7145
丌	-14.7146
哿	-14.7146
㻛	-14.7146
旜	-14.7146
涳	-14.7146
湞	-14.7146
䄷	-14.7146
桚	-14.7146
㹱	-14.7147
廰	-14.7147
臿	-14.7147
宄	-14.7147
崝	-14.7148
㫒	-14.7149
湲	-14.7149
玁	-14.7149
䇢	-14.7149
櫹	-14.7149
粺	-14.7149
㜻	-14.7149
凵	-14.7149
瘻	-14.7151
簨	-14.7151
祴	-14.7151
凃	-14.7151
処	-14.7151
䣸	-14.7153
䟱	-14.7153
熂	-14.7153
瑎	-14.7153
曚	-14.7153
秝	-14.7153
嚘	-14.7153
灎	-14.7155
䤔	-14.7155
㸌	-14.7155
熇	-14.7155
䀝	-14.7155
徔	-14.7155
姁	-14.7155
岓	-14.7155
烻	-14.7157
晣	-14.7157
泆	-14.7157
慗	-14.7157
䀻	-14.7157
匼	-14.7157
咦	-14.7159
籣	-14.7159
蒺	-14.7159
愓	-14.7159
綀	-14.7159
摉	-14.7159
匭	-14.7161
撣	-14.7161
柜	-14.7161
祦	-14.7161
攃	-14.7163
烕	-14.7163
悕	-14.7163
痣	-14.7165
糕	-14.7165
忪	-14.7165
苡	-14.7165
晸	-14.7165
榽	-14.7165
焬	-14.7167
櫑	-14.7167
毨	-14.7167
䣊	-14.7167
獃	-14.7167
奓	-14.7168
枇	-14.7169
匸	-14.7169
橀	-14.7169
㒜	-14.717
淟	-14.7171
嶕	-14.7171
曯	-14.7174
奫	-14.7174
勥	-14.7175
䘵	-14.7176
獫	-14.7176
慲	-14.7178
箾	-14.7178
㡘	-14.7178
菂	-14.7178
傃	-14.718
票	-14.718
戃	-14.7182
嶅	-14.7182
嚄	-14.7182
耏	-14.7186
櫰	-14.7188
歈	-14.7188
䈥	-14.7188
竗	-14.719
灂	-14.7192
俌	-14.7192
凳	-14.7197
湙	-14.7198
緤	-14.7205
穄	-14.7207
痱	-14.7207
侫	-14.7211
晾	-14.7211
俑	-14.7211
磝	-14.7213
臩	-14.7217
熁	-14.7232
冖	-14.7234
毵	-14.7248
剸	-14.7253
鶺	-15.2148
菩	-15.2166
惆	-15.2166
鶒	-15.217
徘	-16.2084
薎	-16.2097
葧	-16.2098
莝	-16.2099
繜	-16.21
秌	-16.2101
碐	-16.2102
瑝	-16.2103
獦	-16.2104
燻	-16.2105
漘	-16.2106
滭	-16.2107
櫧	-16.2108
梡	-16.2109
擉	-16.211
掙	-16.2111
㥏	-16.2112
遬	-16.2113
躒	-16.2114
躃	-16.2115
蚛	-16.2116
蘦	-16.2117
胾	-16.2118
皝	-16.2119
狒	-16.212
浛	-16.2121
榠	-16.2122
撱	-16.2123
墦	-16.2124
咱	-16.2125
叐	-16.2126
䰩	-16.2127
䧢	-16.2128
䟎	-16.2129
㡠	-16.213
閂	-16.2131
摤	-16.2132
挶	-16.2133
愫	-16.2134
嫳	-16.2135
囈	-16.2136
㕙	-16.2137
鱻	-16.2138
騝	-16.2139
腿	-16.214
礌	-16.2141
璥	-16.2142
湝	-16.2143
涀	-16.2144
柤	-16.2145
崪	-16.2146
咥	-16.2147
䧕	-16.2148
雰	-16.2149
爌	-16.215
曮	-16.2151
鰿	-16.2152
鯚	-16.2153
轔	-16.2154
畇	-16.2155
嘽	-16.2156
欖	-16.2157
嵫	-16.2158
鳷	-16.2159
饅	-16.216
飁	-16.2161
酊	-16.2162
邡	-16.2163
臃	-16.2164
箜	-16.2165
毸	-16.2166
毰	-16.2167
𩕳	-16.2168
騵	-16.2169
觿	-16.217
蟪	-16.2171
涒	-16.2172
楧	-16.2173
徬	-16.2174
嫄	-16.2175
䕷	-16.2176
魎	-16.2177
魍	-16.2178
歅	-16.2179
栴	-16.218
拮	-16.2181
嗢	-16.2182
剞	-16.2183
仃	-16.2184
㙔	-16.2185
鸑	-16.2186
揶	-16.2187
儃	-16.2188
謦	-16.2189
硫	-16.219
涑	-16.2191
鶄	-16.2192
鵁	-16.2193
邙	-16.2194
崡	-16.2195
崚	-16.2196
侖	-16.2197
愀	-16.2198
塿	-16.2199
䊸	-16.22
艋	-16.2201
舴	-16.2202
旖	-16.2203
繾	-16.2204
綣	-16.2205
姮	-16.2206
蓿	-16.2207
茴	-16.2208
苜	-16.2209
娬	-16.221
嚳	-16.2211
㶑	-16.2212
婕	-16.2213
倀	-16.2214
䃲	-16.2215
柚	-16.2216
骷	-16.2217
鐎	-16.2218
嫦	-16.2219
葒	-16.222
鵡	-16.2221
菖	-16.2221
檎	-16.2222
粃	-16.2223
峥	-16.2224
倆	-16.2225
齯	-16.2226
葫	-16.2227
狽	-16.2228
牾	-16.2229
憮	-16.223
髑	-16.2231
揄	-16.2232
婷	-16.2233
袈	-16.2234
茯	-16.2235
邽	-16.2236
矻	-16.2237
婀	-16.2238
鸜	-16.2239
嶇	-16.224
侂	-16.2241
胭	-16.2242
沄	-16.2243
髏	-16.2244
靂	-16.2245
邂	-16.2246
逅	-16.2247
挲	-16.2248
頏	-16.2249
琵	-16.225
慷	-16.2251
鵓	-16.2252
蒹	-16.2253
髴	-16.2253
