<unk>	0
<s>	0
</s>	0
之	-3.6947
也	-3.92211
/	-4.24514
以	-4.34073
者	-4.41422
而	-4.49661
則	-4.64034
為	-4.70707
)(	-4.71398
其	-4.73785
有	-4.97533
)	-4.99508
(	-4.99807
不	-5.00104
於	-5.02272
曰	-5.23922
故	-5.34887
謂	-5.48742
人	-5.53773
一	-5.54622
與	-5.55064
此	-5.56439
無	-5.60544
言	-5.63668
禮	-5.66382
于	-5.66795
大	-5.68454
皆	-5.71286
是	-5.7918
云	-5.84307
在	-5.86721
用	-5.8742
所	-5.87941
亦	-5.91016
三	-5.91208
上	-5.94101
事	-5.97358
祭	-5.98985
中	-6.01477
子	-6.02222
自	-6.02264
服	-6.0284
及	-6.05102
至	-6.05563
行	-6.06046
王	-6.06231
如	-6.10679
矣	-6.11213
下	-6.1131
又	-6.12631
君	-6.1367
同	-6.16168
時	-6.18675
反	-6.18723
若	-6.22275
二	-6.23237
正	-6.23794
乃	-6.25266
士	-6.25891
公	-6.28181
注	-6.32458
出	-6.33489
從	-6.33947
非	-6.33947
當	-6.36139
凡	-6.38338
相	-6.39286
主人	-6.40781
大夫	-6.40836
使	-6.4198
明	-6.42154
五	-6.43837
日	-6.4569
四	-6.46555
今	-6.47043
諸侯	-6.47866
官	-6.48099
主	-6.48178
文	-6.48477
後	-6.48927
▁	-6.49814
命	-6.50053
見	-6.52312
尊	-6.5242
焉	-6.52692
必	-6.53011
入	-6.53135
爲	-6.53571
乎	-6.5448
先	-6.55738
食	-6.56409
立	-6.57207
成	-6.57665
既	-6.59878
樂	-6.6041
猶	-6.61111
作	-6.61141
得	-6.61385
受	-6.61532
國	-6.61994
物	-6.63953
音	-6.64222
民	-6.66182
所以	-6.66574
地	-6.66713
賔	-6.6687
前	-6.66957
天子	-6.68441
道	-6.69585
尸	-6.69891
重	-6.69972
賓	-6.69975
獻	-6.70213
親	-6.70375
六	-6.70626
生	-6.70853
即	-6.72701
書	-6.72719
天	-6.7291
知	-6.7332
長	-6.73392
設	-6.73501
可	-6.75529
名	-6.76053
然	-6.76583
已	-6.76672
朝	-6.77014
或	-6.77557
東	-6.77627
内	-6.77732
取	-6.78073
雖	-6.78469
升	-6.79431
本	-6.79635
臣	-6.79861
未	-6.80646
車	-6.81791
九	-6.82416
合	-6.83725
外	-6.84652
位	-6.84704
右	-6.84993
方	-6.85354
南	-6.85836
義	-6.86011
拜	-6.87206
門	-6.87687
執	-6.87883
齊	-6.88563
降	-6.89148
始	-6.89764
小	-6.91083
制	-6.91543
夫	-6.91779
神	-6.92135
氏	-6.92881
西	-6.93272
師	-6.93576
各	-6.93693
周	-6.94351
衣	-6.95186
喪	-6.95202
○	-6.95963
次	-6.96243
節	-6.96847
加	-6.97363
舉	-6.9776
疏	-6.97784
射	-6.97931
掌	-6.98849
分	-6.98896
爵	-6.98935
廟	-6.99311
數	-6.99593
將	-6.99739
稱	-6.99979
令	-7.00979
異	-7.00999
經	-7.01431
居	-7.0172
冠	-7.03191
諸	-7.03508
父	-7.04214
謂之	-7.04232
治	-7.04761
以為	-7.06615
復	-7.07296
家	-7.07304
法	-7.07371
安	-7.07424
去	-7.08162
宗	-7.10121
實	-7.10761
能	-7.11187
水	-7.12342
,	-7.12951
問	-7.13014
陳	-7.13208
馬	-7.1324
進	-7.13509
宜	-7.14123
耳	-7.14583
欲	-7.148
之禮	-7.14909
敬	-7.15427
祝	-7.15857
兩	-7.16106
案	-7.16285
辭	-7.16678
宫	-7.17432
通	-7.18008
等	-7.18387
縣	-7.18569
七	-7.19183
祀	-7.1971
席	-7.20764
致	-7.21098
和	-7.21431
聲	-7.21502
左	-7.21521
告	-7.21576
遂	-7.22126
象	-7.22502
死	-7.22785
母	-7.22879
易	-7.22943
何	-7.23243
因	-7.23381
惟	-7.23851
司	-7.24102
徳	-7.24439
字	-7.24533
常	-7.24601
屬	-7.24915
而不	-7.24955
不可	-7.25126
所謂	-7.25135
夏	-7.25617
八	-7.25955
定	-7.262
心	-7.26223
月	-7.26255
度	-7.26668
侯	-7.27042
北	-7.27282
陽	-7.28222
多	-7.28329
酒	-7.28346
奠	-7.29293
之事	-7.29312
終	-7.2934
祖	-7.29875
室	-7.30008
教	-7.30367
田	-7.31054
傳	-7.31209
引	-7.31262
世	-7.31345
坐	-7.31821
止	-7.31959
不得	-7.31985
平	-7.32101
薦	-7.33492
來	-7.34391
變	-7.34679
女	-7.34915
體	-7.35374
學	-7.35514
古	-7.35799
氣	-7.36274
而已	-7.36603
興	-7.36733
帝	-7.37342
器	-7.37492
請	-7.37554
别	-7.38085
婦	-7.38452
卿	-7.38595
由	-7.38845
是也	-7.39604
年	-7.40608
但	-7.41397
武	-7.41533
奉	-7.42057
州	-7.42436
哭	-7.43024
政	-7.43165
山	-7.43645
初	-7.45094
俎	-7.45499
葬	-7.45523
蓋	-7.46065
玉	-7.46721
土	-7.46725
牲	-7.47053
儀	-7.4759
共	-7.47785
直	-7.4824
布	-7.48794
處	-7.49318
首	-7.49446
職	-7.4947
章	-7.5008
殺	-7.50651
刑	-7.50951
郊	-7.51131
適	-7.51243
鄭	-7.51262
備	-7.5135
授	-7.51513
衆	-7.5169
者也	-7.51748
容	-7.51767
就	-7.51866
記	-7.52066
尚	-7.52703
百	-7.53073
近	-7.53966
功	-7.54304
卒	-7.5456
善	-7.54579
鄉	-7.54592
辟	-7.54837
㑹	-7.55454
視	-7.55626
少	-7.55691
元	-7.56046
唯	-7.56111
軍	-7.57188
著	-7.5793
身	-7.58049
逺	-7.58185
廣	-7.58439
説	-7.58717
過	-7.59026
介	-7.59639
序	-7.59644
論	-7.59767
盡	-7.60057
餘	-7.60148
養	-7.60982
十	-7.61247
期	-7.61315
三年	-7.61615
享	-7.62006
應	-7.62163
比	-7.63056
守	-7.63097
意	-7.63195
更	-7.63205
並	-7.63234
幣	-7.634
載	-7.63401
志	-7.63644
舞	-7.63851
歸	-7.63953
據	-7.64182
之所	-7.64452
燕	-7.64615
以下	-7.64998
故云	-7.65365
順	-7.65635
還	-7.65926
封	-7.66178
伯	-7.6648
盛	-7.67097
除	-7.67113
木	-7.67271
不敢	-7.67276
建	-7.67415
詩	-7.67803
奏	-7.67842
賜	-7.68032
且	-7.68166
虞	-7.69048
太	-7.69067
春	-7.69239
飲	-7.69265
兼	-7.69591
仁	-7.69676
貴	-7.70069
足	-7.70893
孝	-7.71359
鼓	-7.71389
御	-7.71959
堂	-7.7222
德	-7.72385
哀	-7.72478
北面	-7.72807
色	-7.72988
具	-7.73164
飾	-7.73725
之時	-7.73846
者以	-7.73938
不言	-7.74155
髙	-7.74229
君子	-7.74361
府	-7.7444
白	-7.74446
兵	-7.74687
彼	-7.74869
畢	-7.75127
為之	-7.75426
理	-7.76052
父母	-7.76151
固	-7.76169
豆	-7.76171
角	-7.76432
婦人	-7.7669
起	-7.76933
考	-7.77072
天下	-7.77082
承	-7.77142
金	-7.77361
註曰	-7.7761
漢	-7.77809
不能	-7.78021
者謂	-7.7812
魯	-7.78154
周禮	-7.78532
可以	-7.78665
禁	-7.78936
間	-7.79036
特	-7.79107
而後	-7.79477
兄弟	-7.79618
依	-7.80328
置	-7.80477
然後	-7.80716
聞	-7.80936
疑	-7.81628
隂	-7.81748
星	-7.82055
惡	-7.82113
發	-7.82138
爾	-7.82183
衰	-7.82256
夫人	-7.82311
后	-7.82481
利	-7.825
典	-7.82527
社	-7.8258
嵗	-7.82625
妻	-7.82777
求	-7.82917
交	-7.83509
酌	-7.83548
老	-7.8363
辨	-7.84106
殷	-7.84334
改	-7.84397
詔	-7.84538
列	-7.84639
某	-7.85205
己	-7.85358
說	-7.85698
動	-7.8585
退	-7.85997
饗	-7.85999
火	-7.8608
秋	-7.86135
私	-7.8661
對	-7.8678
葢	-7.86911
以其	-7.87044
釋	-7.87345
萬	-7.87422
故曰	-7.87733
工	-7.88114
司馬	-7.88298
失	-7.88385
送	-7.894
徹	-7.9007
晉	-7.9031
史	-7.90496
吉	-7.90698
報	-7.91064
亂	-7.91138
▁(	-7.91366
任	-7.92145
難	-7.92407
揖	-7.92474
孫	-7.92696
路	-7.93528
盖	-7.93612
聘	-7.93879
觀	-7.94273
。	-7.94541
一人	-7.94608
矢	-7.94719
帶	-7.94734
歌	-7.94877
極	-7.9513
力	-7.95193
族	-7.95227
弔	-7.95227
存	-7.95736
都	-7.95778
哉	-7.95963
徒	-7.96465
牛	-7.96501
深	-7.96552
輕	-7.9673
議	-7.96773
春秋	-7.96811
素	-7.96853
疏曰	-7.96919
半	-7.96959
我	-7.97013
大功	-7.97302
質	-7.97746
戒	-7.97803
也云	-7.98132
至於	-7.98233
洗	-7.98265
里	-7.98281
不同	-7.98434
代	-7.98509
新	-7.98619
黄	-7.98626
俱	-7.98825
昭	-7.98898
張	-7.9897
之屬	-7.99285
要	-7.9938
有司	-7.99516
疾	-7.99532
篇	-7.99877
皮	-7.9998
鼎	-7.99981
手	-8.00015
施	-8.0036
弓	-8.00457
繼	-8.00565
再	-8.00632
贊	-8.00839
襲	-8.00907
卜	-8.00957
待	-8.01004
乗	-8.01077
祭祀	-8.01096
客	-8.01794
寢	-8.01958
魚	-8.02761
廢	-8.02812
賢	-8.03656
信	-8.0384
獨	-8.0396
卿大夫	-8.04252
麻	-8.04741
卑	-8.05167
配	-8.05243
律	-8.05306
之義	-8.05313
類	-8.05438
解	-8.05672
肉	-8.05769
其所	-8.05888
之後	-8.05926
旅	-8.06435
杖	-8.06613
財	-8.06755
豈	-8.06993
形	-8.06999
亡	-8.07104
石	-8.0727
迎	-8.07324
切	-8.07433
總	-8.07599
按	-8.07677
十二	-8.07693
商	-8.07925
殿	-8.07999
城	-8.0812
情	-8.08274
注云	-8.08276
宿	-8.08356
聽	-8.08501
故也	-8.0861
示	-8.08822
孔子	-8.08862
散	-8.0911
皇	-8.09193
厚	-8.09236
勞	-8.09334
鄭氏曰	-8.09591
每	-8.09864
帥	-8.09979
圭	-8.10222
臨	-8.10455
天地	-8.10538
野	-8.10575
甚	-8.10895
面	-8.11252
陵	-8.11265
䘮	-8.11565
舊	-8.11736
之法	-8.12036
達	-8.12129
純	-8.12366
均	-8.12759
鄭注	-8.12779
禘	-8.12824
曲	-8.12857
役	-8.12902
亦如之	-8.13356
如此	-8.13605
好	-8.14163
訖	-8.1424
風	-8.1438
號	-8.1482
語	-8.14844
壇	-8.14969
宋	-8.1502
也故	-8.15116
表	-8.1513
斂	-8.15396
羽	-8.15413
思	-8.15476
殯	-8.15538
𤣥	-8.15938
差	-8.16084
龍	-8.16412
莫	-8.16656
貢	-8.16874
庶	-8.17402
階	-8.17856
羞	-8.18109
龜	-8.18218
藏	-8.18345
皇帝	-8.18584
誠	-8.19
卷	-8.19064
二十	-8.19236
是以	-8.1931
左右	-8.19493
免	-8.19496
嘗	-8.19741
再拜	-8.19812
讀	-8.19948
愛	-8.20028
/)	-8.20729
逆	-8.20813
冬	-8.21857
端	-8.21863
饌	-8.21958
小功	-8.21961
羣	-8.22069
化	-8.22084
納	-8.22676
釋曰	-8.22929
屨	-8.23247
修	-8.23393
扵	-8.23424
澤	-8.23551
宮	-8.23714
恐	-8.23862
甲	-8.23942
聖	-8.24209
邦	-8.24328
皆有	-8.24361
往	-8.24657
妾	-8.2468
似	-8.24878
庶子	-8.24881
河	-8.25086
言之	-8.25092
上下	-8.25113
酬	-8.2527
門外	-8.2527
唐	-8.2527
羊	-8.25308
氏曰	-8.25389
流	-8.25458
末	-8.2587
主婦	-8.25994
指	-8.26264
句	-8.2639
參	-8.26532
絶	-8.26632
計	-8.26779
邑	-8.27041
吾	-8.27407
習	-8.27413
旣	-8.27507
如初	-8.27539
弗	-8.27614
西面	-8.27648
聖人	-8.28329
宣	-8.28382
人之	-8.28385
筮	-8.28529
醴	-8.28998
罪	-8.29055
者皆	-8.2906
望	-8.29067
遷	-8.29106
註	-8.29458
之道	-8.29542
衛	-8.29777
祔	-8.29822
東面	-8.29859
斯	-8.30193
舍	-8.30241
之意	-8.3025
積	-8.30411
造	-8.30539
之服	-8.31106
詳	-8.31174
有所	-8.31189
畫	-8.31249
率	-8.31377
覆	-8.31393
并	-8.3164
隨	-8.3174
許	-8.31971
仲	-8.32022
美	-8.32228
須	-8.3223
吏	-8.324
他	-8.32613
齊衰	-8.33312
省	-8.33486
周公	-8.33789
敢	-8.34059
可知	-8.34132
嫁	-8.34427
者以其	-8.34589
向	-8.34649
几	-8.34778
先王	-8.34862
清	-8.34931
乘	-8.34937
以上	-8.35436
觶	-8.3546
而無	-8.35808
諸侯之	-8.35886
崇	-8.35955
毋	-8.36117
脩	-8.36239
旁	-8.3628
裳	-8.36371
之制	-8.36723
申	-8.36794
柩	-8.37304
宰	-8.37462
此言	-8.37638
市	-8.37662
推	-8.37665
性	-8.37712
也此	-8.38043
音義	-8.38148
南面	-8.38534
叔	-8.38914
圖	-8.39142
之喪	-8.39386
統	-8.39433
采	-8.39552
全	-8.39745
千	-8.39747
房	-8.39931
鬼神	-8.4008
棺	-8.40151
精	-8.40302
約	-8.40556
式	-8.40725
遺	-8.4086
便	-8.41038
赤	-8.41343
口	-8.41696
聚	-8.41813
益	-8.42036
勝	-8.42063
恩	-8.42111
管	-8.42211
宗廟	-8.42235
之中	-8.42248
三月	-8.42769
户	-8.42967
衡	-8.43209
牢	-8.43317
青	-8.43412
賦	-8.43452
靈	-8.43556
朱	-8.43604
孔	-8.43847
将	-8.44222
齒	-8.44422
目	-8.44434
踊	-8.44723
朔	-8.44821
侍	-8.44878
横	-8.4493
大夫士	-8.45285
朝服	-8.45328
息	-8.45682
辰	-8.45989
)○	-8.46036
禄	-8.4606
登	-8.46112
保	-8.46343
故知	-8.46593
賤	-8.46693
冕	-8.47009
孤	-8.47437
景	-8.47438
刻	-8.4788
國之	-8.47971
之數	-8.47974
古者	-8.4808
禮也	-8.4812
使者	-8.48323
雜	-8.48432
闕	-8.48497
夷	-8.48819
則不	-8.4907
簡	-8.49219
害	-8.49323
姑	-8.4942
然則	-8.49745
戎	-8.49818
祥	-8.49861
監	-8.4991
絰	-8.50051
稍	-8.5014
之類	-8.50177
良	-8.50363
牧	-8.50375
革	-8.50388
農	-8.50626
助	-8.50762
攝	-8.50903
側	-8.51147
材	-8.51171
米	-8.51328
穆	-8.51408
量	-8.51528
歲	-8.51619
之間	-8.51909
原	-8.52045
弟	-8.52132
正義鄭氏康成曰	-8.52184
獸	-8.52191
專	-8.52375
紀	-8.5238
毛	-8.52381
而言	-8.52777
福	-8.52785
四方	-8.52813
筵	-8.53154
袒	-8.53957
折	-8.54024
嚴	-8.54192
開	-8.54206
於此	-8.54269
尊者	-8.54305
笄	-8.54465
三十	-8.5463
離	-8.54899
不知	-8.5493
庭	-8.55169
飯	-8.55262
伐	-8.55504
二人	-8.55508
略	-8.55945
征	-8.55982
尺	-8.56088
豐	-8.56187
結	-8.56365
鍾	-8.56642
三日	-8.56839
之言	-8.56864
頭	-8.56882
不以	-8.56941
王之	-8.57118
接	-8.5742
光	-8.57488
答	-8.5751
江	-8.57555
必有	-8.5762
屋	-8.5764
則有	-8.57654
子曰	-8.57808
也若	-8.57823
大射	-8.58165
墓	-8.58176
楚	-8.58301
品	-8.5864
俗	-8.58795
儀禮	-8.59016
僕	-8.59276
男	-8.59418
天子之	-8.59435
井	-8.59669
嫌	-8.59703
無所	-8.60005
黨	-8.60045
垂	-8.60085
持	-8.60194
兆	-8.60276
其餘	-8.60401
不及	-8.6047
斷	-8.60491
賈	-8.60509
巾	-8.60696
豕	-8.60819
五十	-8.60905
領	-8.60966
丘	-8.60975
灋	-8.61148
給	-8.61329
仍	-8.61343
嘉	-8.61349
俟	-8.6151
也凡	-8.61769
醢	-8.61779
證	-8.61833
條	-8.61886
華	-8.62051
誤	-8.62113
裘	-8.62325
梁	-8.62394
君之	-8.6265
酢	-8.62771
盟	-8.62856
百官	-8.6298
即位	-8.63135
屈	-8.63139
亦有	-8.63149
男子	-8.6326
凶	-8.6332
徴	-8.63339
草	-8.63607
秦	-8.63696
四時	-8.63874
山川	-8.64008
久	-8.64038
察	-8.64039
厭	-8.64088
社稷	-8.64287
詣	-8.64474
胥	-8.64647
日月	-8.64712
擯	-8.64766
佐	-8.64841
肅	-8.64961
祼	-8.64987
膳	-8.65029
又曰	-8.65059
賔客	-8.65121
帛	-8.65251
禮記	-8.65258
昆弟	-8.6527
感	-8.65308
明堂	-8.65398
連	-8.65417
答拜	-8.65464
干	-8.65749
之位	-8.65991
附	-8.66228
尊卑	-8.66262
傷	-8.66425
乾	-8.66499
趨	-8.67102
天子諸侯	-8.6712
邦國	-8.67175
擇	-8.67218
後世	-8.67228
孝子	-8.67665
不可以	-8.6828
佐食	-8.68392
竹	-8.68436
耦	-8.68558
權	-8.68593
其事	-8.68696
種	-8.68915
委	-8.68955
肆	-8.69076
者亦	-8.69102
鳥	-8.69229
司徒	-8.69293
禮樂	-8.69364
使人	-8.69419
東西	-8.69483
少牢	-8.69548
川	-8.69724
祠	-8.69944
謹	-8.69995
練	-8.70057
館	-8.70181
丁	-8.70463
移	-8.70603
繫	-8.70654
立于	-8.7066
夜	-8.70696
盥	-8.70712
何以	-8.70808
者案	-8.70888
雨	-8.70983
鼔	-8.71083
使之	-8.71089
巳	-8.71163
追	-8.71252
不用	-8.7132
緦	-8.71411
出入	-8.71414
元年	-8.71431
業	-8.71555
微	-8.71764
跪	-8.71976
昏	-8.72092
慶	-8.72374
犯	-8.72435
班	-8.7275
不足	-8.72803
充	-8.72927
天下之	-8.73234
耕	-8.73241
病	-8.73257
肺	-8.7327
喪服	-8.73318
嗣	-8.73405
顯	-8.73601
强	-8.7379
旌	-8.73819
爼	-8.73982
籩	-8.73999
敎	-8.74013
永	-8.74107
特牲	-8.74239
也言	-8.74252
之地	-8.74394
卒哭	-8.74512
足以	-8.74848
越	-8.75205
夕	-8.75467
薄	-8.75851
束	-8.75969
祈	-8.76044
惠	-8.76192
斬	-8.76218
旗	-8.7622
璧	-8.76312
萬物	-8.76364
又云	-8.76548
味	-8.76606
恭	-8.7688
文王	-8.76979
庶人	-8.77007
徐	-8.77125
輪	-8.77278
骨	-8.7741
以待	-8.77419
林	-8.77607
讓	-8.77818
魏	-8.77887
之外	-8.78073
則以	-8.78117
之子	-8.7817
世子	-8.78267
頒	-8.78294
周官	-8.78435
訓	-8.78736
祫	-8.78824
於是	-8.78927
虚	-8.79007
誓	-8.79014
侑	-8.7915
圍	-8.79175
識	-8.79388
斬衰	-8.79636
黍	-8.79856
邪	-8.79938
揚	-8.79964
慎	-8.80018
飲酒	-8.80209
司射	-8.8026
二年	-8.80362
服之	-8.80437
宗子	-8.80545
擊	-8.80586
郡	-8.80651
孔疏	-8.80663
假	-8.80697
禮之	-8.80774
調	-8.80962
殤	-8.81169
負	-8.81192
廬	-8.8145
戰	-8.81603
幅	-8.81636
孰	-8.81738
收	-8.81964
稷	-8.82101
殊	-8.82258
幽	-8.82663
敵	-8.82729
獲	-8.82837
劉	-8.82976
十五	-8.83025
防	-8.83157
可也	-8.83189
為主	-8.83336
用之	-8.83392
竟	-8.83449
鳴	-8.83537
博	-8.8354
之心	-8.8363
謀	-8.83699
笙	-8.83836
賓客	-8.84162
適子	-8.84259
上文	-8.84585
諡	-8.84611
衣服	-8.84643
堂上	-8.84851
會	-8.84922
磬	-8.8495
例	-8.84982
副	-8.85018
否	-8.8511
虎	-8.85202
被	-8.85339
䟽	-8.85457
禽	-8.85595
小斂	-8.85739
倍	-8.85897
尚書	-8.86152
太祖	-8.86158
眀	-8.86388
之文	-8.86676
伏	-8.86989
部	-8.87028
故以	-8.87074
宰夫	-8.87257
最	-8.87262
海	-8.87276
三公	-8.8741
畜	-8.87446
之節	-8.87497
各有	-8.87695
擯者	-8.87703
厲	-8.87706
毁	-8.87947
違	-8.88006
輿	-8.88047
君臣	-8.88154
高	-8.88243
(○	-8.88268
校	-8.88291
步	-8.88459
丈	-8.8847
壺	-8.88754
為一	-8.88881
之名	-8.88945
細	-8.88997
閒	-8.89134
羣臣	-8.89138
舜	-8.89316
堂下	-8.89361
東方	-8.89373
忠	-8.89373
孔氏曰	-8.89393
之上	-8.89402
姓	-8.89493
男女	-8.89496
敦	-8.89498
公子	-8.89747
絲	-8.89867
死者	-8.90464
纓	-8.90488
集	-8.90593
苟	-8.90713
畧	-8.90719
子男	-8.90872
召	-8.91025
算	-8.91035
葛	-8.91381
侯伯	-8.91387
放	-8.91396
憂	-8.91458
弁	-8.91506
荒	-8.9156
祭之	-8.91634
諱	-8.91846
才	-8.9196
戴	-8.91969
以此	-8.91989
聘禮	-8.92053
舅	-8.92242
斗	-8.92256
王制	-8.92339
穀	-8.9281
窮	-8.92866
飲食	-8.92969
黒	-8.92973
行之	-8.93033
勸	-8.93134
榖	-8.93135
慮	-8.93157
鄭云	-8.93239
下文	-8.93373
甸	-8.93468
咸	-8.93552
尤	-8.93668
占	-8.93732
旦	-8.93884
不過	-8.939
寧	-8.93937
含	-8.94101
小臣	-8.94121
上帝	-8.94242
脯	-8.94303
月令	-8.94402
短	-8.94548
塗	-8.94632
皮弁	-8.94755
民之	-8.94756
亦不	-8.94895
責	-8.94916
友	-8.94976
輔	-8.95044
辛	-8.95048
國君	-8.95081
患	-8.9512
七十	-8.95231
威	-8.95313
血	-8.95332
祧	-8.95349
雍	-8.95459
遣	-8.95476
之内	-8.95518
寒	-8.95535
饋	-8.95561
鄭氏	-8.95569
恒	-8.95654
其位	-8.95667
子孫	-8.95682
也案	-8.95862
敖氏繼公曰	-8.95955
無服	-8.95966
予	-8.96251
歩	-8.96293
貳	-8.9664
舅姑	-8.96681
至于	-8.96693
鹿	-8.96706
而下	-8.96755
不必	-8.96832
徃	-8.96924
有事	-8.96955
黍稷	-8.96961
鉶	-8.97012
上介	-8.97018
縮	-8.97022
武王	-8.97388
鐘	-8.97452
兄	-8.97591
轉	-8.97832
燕禮	-8.98018
王氏曰	-8.98073
之物	-8.98119
弦	-8.98127
帷	-8.98412
来	-8.98542
者此	-8.98752
執事	-8.98788
不見	-8.98915
審	-8.9897
縁	-8.99033
駕	-8.99194
者不	-8.99303
賞	-8.9941
康	-8.99411
夫子	-8.99415
言其	-8.99499
贈	-8.9966
鄭司農云	-8.99673
貌	-8.99791
供	-8.99806
候	-8.99929
減	-9.00209
延	-9.00271
克	-9.00302
古之	-9.00311
香	-9.00348
其義	-9.00398
下大夫	-9.00497
果	-9.00629
急	-9.00677
不與	-9.00872
此經	-9.00954
戸	-9.01081
雉	-9.01149
漸	-9.01217
西階	-9.0123
下士	-9.01233
孟	-9.01282
之儀	-9.01306
見於	-9.01326
災	-9.01352
遇	-9.01536
未有	-9.01554
趙	-9.01588
禹	-9.01725
其禮	-9.01791
仕	-9.01861
篚	-9.01877
苦	-9.02048
夾	-9.02114
事也	-9.02124
十有二	-9.02444
躬	-9.02459
留	-9.02622
胡	-9.0271
營	-9.02721
大事	-9.02736
儒	-9.02746
稽	-9.02936
隆	-9.03089
空	-9.03147
知其	-9.03204
税	-9.03222
隂陽	-9.03303
皇后	-9.034
禫	-9.03461
詩云	-9.03553
導	-9.03572
徑	-9.03573
内外	-9.03584
樹	-9.03619
罰	-9.03695
宗人	-9.03782
藉	-9.04204
之人	-9.04303
綏	-9.04375
皆以	-9.04386
昌	-9.04531
四人	-9.04591
午	-9.04597
其實	-9.04724
京	-9.04996
齋	-9.0506
受命	-9.05098
閭	-9.0523
之辭	-9.05239
六十	-9.05281
貴賤	-9.05358
貨	-9.05426
倫	-9.05503
徧	-9.05536
故不	-9.05749
寡	-9.0577
弟子	-9.05783
第	-9.05805
則是	-9.05916
文武	-9.05993
崩	-9.06018
鄭鍔曰	-9.06078
天地之	-9.06248
湯	-9.06362
也然	-9.06367
之處	-9.0658
棄	-9.06669
慈	-9.0668
補	-9.0678
欲其	-9.06783
李	-9.0705
鬼	-9.0706
腥	-9.07116
衆賔	-9.07126
錫	-9.07157
忘	-9.07161
犬	-9.07186
注釋曰	-9.07257
救	-9.07348
賛	-9.07351
𦵏	-9.07485
賈疏	-9.07495
父子	-9.07714
十一	-9.07863
西方	-9.07863
蕙田案	-9.07901
受之	-9.07928
歳	-9.08103
讀為	-9.0817
之下	-9.08195
踰	-9.08197
寸	-9.08204
髙祖	-9.08216
振	-9.0827
攷	-9.08302
莊	-9.08379
務	-9.08496
維	-9.08553
昭穆	-9.08568
四十	-9.08728
漆	-9.08829
術	-9.08834
逹	-9.08915
取其	-9.08937
注曰	-9.09135
𫝊	-9.09326
述	-9.09355
季	-9.09356
版	-9.09433
郷	-9.09487
又有	-9.09575
悉	-9.0977
人君	-9.09835
展	-9.09877
昔	-9.09997
再拜稽首	-9.10088
壻	-9.10102
行禮	-9.10146
舎	-9.10312
竒	-9.10321
古文	-9.10327
限	-9.10333
蒲	-9.10478
不復	-9.10487
選	-9.10676
熟	-9.10682
循	-9.11304
歟	-9.11436
講	-9.11444
復位	-9.11527
妃	-9.11566
決	-9.11659
濟	-9.11935
以禮	-9.11965
錯	-9.11976
立於	-9.11977
孔子曰	-9.12422
楹	-9.12656
壹	-9.12789
與其	-9.1279
勿	-9.12798
碑	-9.12835
君命	-9.12924
敗	-9.12937
况	-9.12983
禰	-9.1299
反位	-9.13016
雲	-9.13311
成人	-9.13506
顧	-9.13564
巫	-9.136
危	-9.13642
毎	-9.13649
雖有	-9.13702
三分	-9.13773
邊	-9.13876
之前	-9.13937
陰	-9.13957
衍	-9.13979
牀	-9.14134
速	-9.14214
出於	-9.14428
者言	-9.14639
距	-9.14906
繩	-9.14959
勤	-9.15013
之説	-9.15145
黄鍾	-9.15286
不在	-9.15293
一日	-9.15437
而有	-9.15491
大小	-9.15598
萬民	-9.156
繅	-9.15727
扶	-9.1583
辱	-9.15847
豫	-9.15862
異於	-9.15881
於君	-9.15994
頌	-9.1612
柔	-9.16203
是故	-9.16345
而后	-9.16345
衞	-9.1645
偏	-9.1645
鄭康成曰	-9.16529
同姓	-9.16609
傳曰	-9.16735
淫	-9.16755
録	-9.1684
前後	-9.17017
羮	-9.17099
所用	-9.17209
大宗	-9.17385
暴	-9.17387
聴	-9.17535
從之	-9.17612
深衣	-9.17671
簋	-9.17843
匕	-9.17871
圜	-9.18048
也今	-9.18075
祖廟	-9.18101
之官	-9.18107
關	-9.18232
不為	-9.18303
宅	-9.1836
十六	-9.18439
休	-9.18468
泰	-9.18476
於外	-9.1869
桓	-9.18691
乙	-9.18847
賀	-9.18968
幸	-9.19037
資	-9.19082
罷	-9.1909
雞	-9.1911
吕	-9.19208
上公	-9.1921
歴	-9.19371
卒爵	-9.19512
軍旅	-9.19515
露	-9.19586
畏	-9.19746
之樂	-9.19823
奔	-9.20063
刺	-9.20158
環	-9.20212
避	-9.20272
當為	-9.20337
不相	-9.20481
古人	-9.20501
髽	-9.20504
杜	-9.20598
弓矢	-9.20598
之等	-9.20686
五月	-9.20804
太廟	-9.20838
堅	-9.20962
東南	-9.20989
蕃	-9.2118
何也	-9.21224
滅	-9.21348
泉	-9.21464
富	-9.21565
贊者	-9.21674
徵	-9.2196
腊	-9.22051
幼	-9.22089
璋	-9.22142
奪	-9.22276
之日	-9.22285
啓	-9.22313
縫	-9.22405
西南	-9.22434
司正	-9.22457
九月	-9.22493
佩	-9.22712
娶	-9.22832
周人	-9.22872
組	-9.22905
之祭	-9.22991
丹	-9.23086
弊	-9.23227
膚	-9.23259
南北	-9.23375
、	-9.23386
亦然	-9.23653
五年	-9.23693
其中	-9.23697
長子	-9.23713
五帝	-9.23856
摯	-9.23895
之義也	-9.23931
幾	-9.24094
寅	-9.24379
之氣	-9.24466
堯	-9.24545
郎	-9.24564
在上	-9.2457
饋食	-9.24628
呼	-9.24633
則無	-9.24669
傅	-9.2474
矣故	-9.24752
衽	-9.24788
誅	-9.25042
朋友	-9.25264
大宰	-9.2542
㫖	-9.25788
辯	-9.25873
榮	-9.26136
儐	-9.26205
攻	-9.26211
蜡	-9.26259
冬至	-9.26309
寛	-9.26416
韋	-9.26431
七月	-9.26486
蔽	-9.26503
吳	-9.26622
或曰	-9.26807
戚	-9.26876
鄉射	-9.26897
温	-9.27001
大夫之	-9.27001
玄	-9.27063
絃	-9.27138
桑	-9.27146
菹	-9.27159
醫	-9.27162
朱子	-9.27183
裼	-9.27257
為君	-9.27328
沈	-9.27399
緯	-9.27448
曲禮	-9.27499
倚	-9.27509
大斂	-9.27569
吉凶	-9.27631
獄	-9.27676
王者	-9.27713
如字	-9.27717
此云	-9.27728
九十	-9.2774
欽定四庫全書	-9.27784
鬯	-9.27812
編	-9.2783
綴	-9.27839
官府	-9.2787
今文	-9.28265
鹽	-9.28266
升堂	-9.28296
臺	-9.28519
相見	-9.28597
𤣥端	-9.28605
餕	-9.28771
互	-9.28781
各以其	-9.28848
牽	-9.2887
爵弁	-9.28893
不從	-9.29009
撫	-9.29016
人掌	-9.29321
見其	-9.29359
命之	-9.29456
甫	-9.29488
陸	-9.29592
醮	-9.29641
道也	-9.29651
之職	-9.29883
域	-9.29953
罍	-9.29982
亦當	-9.30012
教之	-9.30014
規	-9.30103
潔	-9.30108
肝	-9.30182
夫婦	-9.30212
禍	-9.30223
削	-9.30242
阼階	-9.30374
國中	-9.30447
旬	-9.30619
太子	-9.30807
試	-9.30955
世婦	-9.30999
主於	-9.31029
専	-9.31049
孟子	-9.31098
三耦	-9.3115
正月	-9.31216
淮	-9.31386
燭	-9.3139
也又	-9.31489
怨	-9.31536
入門	-9.31564
上士	-9.31593
彌	-9.3161
庚	-9.31612
亦以	-9.31982
禮者	-9.3203
拜送	-9.32209
五祀	-9.32297
眡	-9.32397
匹	-9.32423
成王	-9.3243
服也	-9.32448
倉	-9.32463
牆	-9.32585
纁	-9.32599
徽	-9.32648
司空	-9.32716
赴	-9.32719
掩	-9.32727
及其	-9.32768
貫	-9.32784
翼	-9.32929
四年	-9.33001
銘	-9.33115
未嘗	-9.3315
綱	-9.33161
肩	-9.33229
烝	-9.33239
包	-9.33243
鄉飲酒	-9.33244
故謂之	-9.33267
背	-9.33282
淺	-9.334
籍	-9.33418
之西	-9.33446
析	-9.33462
屏	-9.33464
中央	-9.33484
憲	-9.33527
勢	-9.3378
運	-9.34012
也夫	-9.34018
明日	-9.34076
之道也	-9.34131
格	-9.34207
履	-9.34252
狄	-9.34329
則知	-9.34408
父之	-9.34411
在下	-9.34607
勇	-9.34748
四寸	-9.34794
秩	-9.34834
譏	-9.34866
先王之	-9.34935
契	-9.34978
闗	-9.35029
牖	-9.35104
叙	-9.35212
左傳	-9.35245
稅	-9.35318
謙	-9.35341
溝	-9.35522
洛	-9.35572
籩豆	-9.35589
啟	-9.35612
為上	-9.35676
藝	-9.35857
卦	-9.35867
受爵	-9.3591
嚴陵方氏曰	-9.36142
其親	-9.36214
一曰	-9.36295
樂正	-9.36308
若有	-9.36341
莫不	-9.3639
鎮	-9.36497
賢者	-9.36624
於廟	-9.36637
雜記	-9.36802
百姓	-9.36936
以爲	-9.36956
阼	-9.37016
鴈	-9.37081
牙	-9.37192
已下	-9.37257
寳	-9.37364
之廟	-9.37382
人所	-9.37409
鵠	-9.37416
築	-9.37493
主君	-9.37541
門内	-9.37569
爭	-9.37573
謝	-9.37691
早	-9.37728
西北	-9.37831
界	-9.37834
緦麻	-9.37891
詩曰	-9.37891
弱	-9.37912
學者	-9.3804
墨	-9.38105
不入	-9.38116
於其	-9.38147
經云	-9.38177
大師	-9.38266
柄	-9.38326
丑	-9.38336
禱	-9.38598
程	-9.38631
真	-9.38916
國家	-9.38989
雩	-9.39045
諫	-9.39371
尋	-9.39411
个	-9.39551
釁	-9.39594
掌其	-9.39643
衆賓	-9.39758
而立	-9.39765
所以為	-9.39824
至此	-9.39825
幹	-9.39848
廟門	-9.39901
索	-9.39997
此謂	-9.40053
而行	-9.40189
預	-9.40204
黼	-9.40302
而出	-9.40326
其君	-9.40376
舒	-9.40381
塞	-9.40439
敖氏曰	-9.40467
去聲	-9.40581
可知也	-9.40615
明矣	-9.40717
異姓	-9.40722
蟲	-9.40738
不拜	-9.40786
瓦	-9.40831
煩	-9.40832
勺	-9.40852
先生	-9.40858
十二月	-9.40918
燔	-9.4093
亥	-9.41155
致其	-9.41156
周之	-9.41253
翟	-9.41335
游	-9.41443
輕重	-9.41458
緇	-9.41485
束帛	-9.41535
拾	-9.41563
之情	-9.4181
設于	-9.41826
贄	-9.42021
之禮也	-9.42082
愚	-9.42293
夢	-9.42311
其身	-9.42612
優	-9.42624
宴	-9.4266
尾	-9.42662
不當	-9.42676
無事	-9.42688
冝	-9.42701
厥	-9.42824
於禮	-9.42834
栗	-9.42914
次之	-9.42932
撰	-9.43241
籥	-9.43304
親之	-9.43355
二月	-9.43362
養老	-9.43365
王后	-9.43399
記曰	-9.4341
之說	-9.43467
辨其	-9.43494
隱	-9.43518
繁	-9.43555
稻	-9.43749
都鄙	-9.43777
於人	-9.43837
大宗伯	-9.4397
在西	-9.44013
有三	-9.44043
孔氏穎達曰	-9.44196
三寸	-9.44246
大喪	-9.44271
方氏曰	-9.44313
之妻	-9.4456
人情	-9.44672
粟	-9.44752
之使	-9.44754
之南	-9.44859
慢	-9.44902
之士	-9.44974
襄	-9.45071
百里	-9.45073
之臣	-9.45087
亨	-9.4515
植	-9.45226
行事	-9.45229
蠶	-9.45295
椁	-9.45321
訝	-9.45483
后稷	-9.45488
者必	-9.45549
正義曰	-9.4564
訟	-9.45651
所生	-9.45733
喜	-9.45755
司士	-9.45761
▁疏	-9.45925
偽	-9.46053
旅酬	-9.46066
有二	-9.4613
雷	-9.46215
千里	-9.46218
朝廷	-9.46298
隅	-9.46332
共其	-9.46394
錦	-9.46467
竊	-9.46487
得其	-9.46488
抑	-9.46525
非也	-9.46576
命婦	-9.4663
有功	-9.46748
陶	-9.46791
東北	-9.46923
割	-9.46964
治之	-9.4697
必以	-9.46979
盈	-9.46994
單	-9.47023
然也	-9.47024
㣲	-9.47112
韓	-9.47133
士喪禮	-9.47136
三百	-9.4718
増	-9.47326
緩	-9.47392
夀	-9.474
瑞	-9.47511
馭	-9.47598
左氏傳	-9.47623
貞	-9.47709
滿	-9.47752
黑	-9.48099
伸	-9.481
注釋曰云	-9.48116
冠者	-9.48198
祭服	-9.48277
歛	-9.48315
夏后氏	-9.48405
庸	-9.48419
之灋	-9.48484
羔	-9.48526
惑	-9.48623
門之外	-9.48657
貧	-9.48739
觚	-9.48777
八十	-9.48792
鄭注云	-9.48829
敖	-9.48889
熊	-9.48943
西階上	-9.49113
蒼	-9.49169
敬也	-9.49213
之國	-9.49225
反又	-9.49298
以授	-9.49379
怒	-9.49389
也然則	-9.49507
之理	-9.49676
遵	-9.4968
曹	-9.49711
故言	-9.4998
;	-9.50003
池	-9.50215
旂	-9.50318
禮儀	-9.50378
𤼵	-9.50538
大學	-9.50728
侵	-9.50798
對曰	-9.50853
有常	-9.50936
耶	-9.51047
無不	-9.51076
雅	-9.51085
之神	-9.51114
菜	-9.512
之實	-9.51209
昏禮	-9.51242
疆	-9.51285
國子	-9.51303
灌	-9.51357
尹	-9.51393
旒	-9.51425
之事也	-9.51438
之月	-9.51482
五寸	-9.51566
費	-9.51569
祿	-9.51572
神之	-9.5162
〇	-9.51661
在室	-9.51735
脱	-9.51923
始死	-9.5195
五行	-9.51953
一也	-9.51994
奠于	-9.5201
圓	-9.52024
朝夕	-9.52029
制度	-9.52038
乏	-9.52099
尊也	-9.52104
先後	-9.52203
宗伯	-9.52231
羣吏	-9.52391
旋	-9.52409
皆是	-9.5241
繹	-9.52493
呂	-9.52499
事之	-9.52504
十三	-9.52509
没	-9.52522
兮	-9.52612
浴	-9.52693
又以	-9.52754
損	-9.52819
六年	-9.52907
弧	-9.52921
境	-9.52962
之序	-9.53038
如是	-9.53089
漿	-9.53113
朱子曰	-9.53164
襚	-9.53269
世佐案	-9.53308
食之	-9.53332
逸	-9.53352
閉	-9.53372
丞	-9.534
三人	-9.53461
旱	-9.53468
則曰	-9.53592
媵	-9.536
右手	-9.53663
寶	-9.53693
薨	-9.53802
糾	-9.53822
以告	-9.53839
玉藻	-9.53901
恤	-9.54046
八人	-9.54058
錢	-9.54217
事則	-9.54233
剛	-9.54264
轂	-9.54276
子弟	-9.54289
於天子	-9.54385
㑹同	-9.54541
茅	-9.54579
而祭	-9.54583
以象	-9.54586
魂	-9.54592
染	-9.54645
葉	-9.54677
道路	-9.54741
絞	-9.54771
冢宰	-9.54806
員	-9.54862
南郊	-9.54871
二十五	-9.55084
春秋傳曰	-9.55141
馮	-9.55193
曽子	-9.55249
饗食	-9.55314
仰	-9.5533
醬	-9.55346
𨽻	-9.5541
遲	-9.55466
魄	-9.5553
饔	-9.55597
沒	-9.55597
者若	-9.55621
春官	-9.55634
二曰	-9.55638
也孔氏曰	-9.55647
其數	-9.55747
祭也	-9.55925
不降	-9.55928
鑿	-9.56119
裏	-9.56137
飱	-9.56158
繼公謂	-9.562
圜丘	-9.56352
升自西階	-9.56441
則民	-9.56443
執事者	-9.56513
燎	-9.56572
中庭	-9.56586
懼	-9.56649
麗	-9.5668
従	-9.56833
必先	-9.56897
儉	-9.56918
之親	-9.57
於上	-9.5701
禾	-9.5709
北上	-9.57117
東上	-9.57154
樂之	-9.57205
未聞	-9.57209
夫之	-9.57233
衾	-9.57239
韠	-9.57289
小宗	-9.57293
敝	-9.57328
大國	-9.57344
縱	-9.57422
皆如	-9.57436
其後	-9.57468
粥	-9.57479
䙝	-9.57489
在東	-9.57504
支	-9.57567
三獻	-9.57567
爾雅	-9.57584
冊	-9.57598
此亦	-9.57699
豚	-9.5772
成服	-9.57721
其地	-9.57816
公卿	-9.57876
主人之	-9.57892
拜受	-9.57906
以時	-9.57936
時也	-9.57957
十月	-9.57964
三曰	-9.58027
自然	-9.58039
黄帝	-9.58055
袂	-9.58096
只	-9.58284
勉	-9.58306
祭酒	-9.58317
脅	-9.5834
淳	-9.58429
畿	-9.58527
先祖	-9.58551
隠	-9.58564
諸公	-9.58569
異也	-9.58608
墳	-9.58609
不親	-9.58702
郊特牲	-9.58772
幕	-9.58826
五服	-9.58867
西向	-9.5894
赦	-9.5895
鄙	-9.58957
酉	-9.58993
徙	-9.59049
院	-9.59054
坊	-9.5907
各一	-9.59083
涖	-9.59167
曰某	-9.59217
一等	-9.59313
苴	-9.59336
汝	-9.59359
取之	-9.59474
注疏	-9.59547
奠爵	-9.5955
瑟	-9.59603
論語	-9.59736
乆	-9.59765
此則	-9.59785
諸臣	-9.59807
協	-9.59829
三等	-9.59853
釋曰云	-9.59894
皆在	-9.60298
僖	-9.60355
可謂	-9.60528
坎	-9.60539
芻	-9.6055
脊	-9.60556
若然	-9.60576
舉觶	-9.60605
遭	-9.60683
不祭	-9.60683
不足以	-9.60742
小國	-9.60858
願	-9.6086
庶羞	-9.60954
隋	-9.61055
不然	-9.61113
八月	-9.61195
伍	-9.61206
昬	-9.61217
壙	-9.61255
十一月	-9.61255
所云	-9.61263
天之	-9.61275
蜃	-9.61328
獲者	-9.61347
物之	-9.61421
懐	-9.61458
多少	-9.61587
遠	-9.61594
不失	-9.61644
記云	-9.61683
盤	-9.61702
甘	-9.61759
檀弓	-9.61818
賵	-9.6182
而成	-9.61838
況	-9.6185
巡	-9.61942
或作	-9.61989
又案	-9.62008
寺	-9.62009
厯	-9.62063
物也	-9.62074
四尺	-9.62186
饔餼	-9.62256
蔡	-9.62326
祭天	-9.62389
位也	-9.62488
麋	-9.62528
若今	-9.62564
愈	-9.62594
之䘮	-9.62651
笏	-9.6267
道之	-9.62805
者所以	-9.62866
股	-9.62877
挾	-9.62903
妄	-9.62926
財用	-9.63095
有餘	-9.63305
遊	-9.63312
祗	-9.63435
三尺	-9.63446
之長	-9.63467
念	-9.63507
不合	-9.63558
可知矣	-9.63564
同也	-9.63569
招	-9.63607
非禮	-9.63612
小宰	-9.63615
鄉大夫	-9.63617
長者	-9.63637
室中	-9.63645
雖不	-9.63691
項	-9.63713
以示	-9.63717
庠	-9.63787
阼階上	-9.63818
内則	-9.63838
疏云	-9.63906
姦	-9.63916
太常	-9.6393
吹	-9.63963
産	-9.64012
陪	-9.64019
六寸	-9.64085
東序	-9.64187
矩	-9.64219
以見	-9.64326
為正	-9.64333
不舉	-9.64478
止於	-9.6448
提	-9.64518
覲	-9.64525
行也	-9.6453
喪大記	-9.64644
不忍	-9.64656
小人	-9.64766
威儀	-9.64871
者非	-9.65069
不勝	-9.65135
臭	-9.65287
長短	-9.65332
庫	-9.65415
在外	-9.65419
致命	-9.65454
西上	-9.65476
藻	-9.65496
十年	-9.65602
五采	-9.65622
一尺	-9.65664
走	-9.65885
狀	-9.65889
符	-9.65987
中庸	-9.65998
祭於	-9.66008
名也	-9.66019
南方	-9.66034
其上	-9.66044
坫	-9.66228
路寢	-9.66257
皆用	-9.66361
朕	-9.66363
五人	-9.66414
中士	-9.66462
吉祭	-9.66464
也音義	-9.66481
亦是	-9.6654
畝	-9.66618
楅	-9.66692
以來	-9.66818
效	-9.66852
女子子	-9.66884
祭器	-9.66951
所掌	-9.67002
禦	-9.6711
樂作	-9.6712
書曰	-9.67169
輅	-9.67323
左手	-9.67399
上大夫	-9.67415
喻	-9.67441
踐	-9.67481
喪禮	-9.67489
六月	-9.67533
既葬	-9.67673
授之	-9.67836
寝	-9.67841
犧	-9.67928
䇿	-9.67936
賈氏曰	-9.68004
禮畢	-9.68018
畿内	-9.68044
忌	-9.68122
先儒	-9.68153
瀆	-9.68177
智	-9.68178
刀	-9.68227
天官	-9.68265
四海	-9.6829
之東	-9.68325
學士	-9.68401
註云	-9.68402
謁	-9.68515
宫中	-9.68613
於内	-9.68656
以成	-9.68679
其子	-9.68688
去其	-9.68721
七年	-9.6881
誦	-9.6882
子之	-9.68884
之北	-9.68899
事者	-9.68978
因其	-9.69001
為大	-9.69068
戈	-9.69069
之所以	-9.69096
皇太子	-9.69099
進退	-9.69111
後者	-9.69245
五分	-9.6926
以致	-9.69318
卿大夫士	-9.69365
測	-9.69484
亦如	-9.69485
宻	-9.6954
士之	-9.69623
壝	-9.69651
三年之喪	-9.6969
奥	-9.69701
郭	-9.69724
房中	-9.69731
與此	-9.69853
僭	-9.69958
痛	-9.701
黃	-9.70112
賊	-9.70122
為母	-9.70125
之末	-9.70238
告于	-9.70295
三者	-9.70311
三代	-9.70371
范	-9.70423
麥	-9.70489
牲體	-9.70492
二者	-9.70493
見之	-9.70495
殽	-9.7051
國有	-9.70578
北方	-9.70618
源	-9.70714
彛	-9.70756
賔主	-9.70823
其服	-9.70865
羅	-9.70968
擬	-9.70998
一寸	-9.71076
御史	-9.7108
作樂	-9.71173
缺	-9.71195
幂	-9.7126
五日	-9.71274
者蓋	-9.71306
續	-9.71519
失之	-9.71542
方氏慤曰	-9.71548
外内	-9.71562
陛下	-9.71573
荅	-9.71616
六鄉	-9.7163
較	-9.7166
瞽	-9.71687
卯	-9.71736
鬱	-9.71838
湆	-9.71866
併	-9.71878
大祥	-9.7196
而致	-9.72108
亦可	-9.72113
衮	-9.72124
而為之	-9.72125
翣	-9.72161
以治	-9.72163
大饗	-9.723
舌	-9.72316
破	-9.72409
法也	-9.72536
育	-9.72574
奄	-9.72628
田獵	-9.72676
大史	-9.72686
戌	-9.72755
鮮	-9.72827
失其	-9.72829
祭祀之	-9.72889
嘏	-9.72909
荅拜	-9.72911
草木	-9.72918
怠	-9.73054
鐸	-9.73056
根	-9.73064
事而	-9.73076
累	-9.73101
岳	-9.73246
集説曰	-9.73258
射人	-9.7329
之正	-9.73293
或以	-9.73294
冒	-9.73454
曽	-9.73602
第二	-9.73672
親親	-9.73697
於堂	-9.73715
南向	-9.73785
壬	-9.73795
所由	-9.73806
士大夫	-9.73841
髪	-9.73907
沐	-9.73935
其文	-9.73936
禮器	-9.73951
戊	-9.74058
纚	-9.7414
討	-9.74155
拘	-9.74222
塾	-9.74261
之至也	-9.74348
從者	-9.74364
父在	-9.74381
亦無	-9.7449
考之	-9.74537
經文	-9.74553
卑者	-9.74639
在此	-9.7468
所言	-9.74681
王命	-9.74697
鄉遂	-9.74768
大臣	-9.74834
女子	-9.74952
座	-9.74958
人為	-9.75002
其名	-9.75055
以後	-9.751
竭	-9.75105
以至	-9.75128
烏	-9.75137
坐取	-9.75175
之本	-9.75286
狐	-9.75369
于篚	-9.75402
其他	-9.75418
於下	-9.7548
衣裳	-9.75542
拂	-9.75562
柱	-9.75639
蕭	-9.75743
湇	-9.75771
傳云	-9.7604
埋	-9.76069
不易	-9.76092
讀如	-9.76099
詞	-9.7611
當時	-9.76158
君也	-9.76165
神主	-9.76219
以次	-9.76255
王昭禹曰	-9.76272
播	-9.76283
縷	-9.76367
皆同	-9.76373
札	-9.76428
其聲	-9.76536
馬氏曰	-9.7659
在前	-9.76659
裁	-9.76701
獻尸	-9.76706
百物	-9.76708
歡	-9.76721
不出	-9.76722
推之	-9.76774
喪紀	-9.76787
準	-9.76864
偶	-9.7697
之治	-9.76992
君子之	-9.76996
爲之	-9.77023
公卿大夫	-9.77038
土地	-9.77056
此皆	-9.77083
逐	-9.77158
鉤	-9.77189
臯	-9.77201
顔	-9.77289
為大夫	-9.77365
而入	-9.77392
冢	-9.77417
楊	-9.77434
竝	-9.77448
奚	-9.77508
四方之	-9.77512
巧	-9.77516
始祖	-9.77699
戮	-9.77712
亦曰	-9.77834
丙	-9.77916
侈	-9.77941
始也	-9.78032
侯氏	-9.7811
強	-9.78397
至尊	-9.78481
秉	-9.78496
淵	-9.78539
祊	-9.7854
八年	-9.78546
之徳	-9.78586
別	-9.78602
九年	-9.78622
飾也	-9.78651
乞	-9.78653
有四	-9.78658
焚	-9.78694
為節	-9.787
爨	-9.78722
膏	-9.78805
鸞	-9.7884
粱	-9.78886
其國	-9.79032
餼	-9.7904
童子	-9.79139
博士	-9.79253
遽	-9.79358
瘞	-9.79389
脯醢	-9.79397
庻	-9.794
萊	-9.79406
亦謂	-9.79428
治其	-9.79464
八寸	-9.79467
噐	-9.79566
者是	-9.79572
于門外	-9.79706
十四	-9.79707
義也	-9.79746
忽	-9.79857
族人	-9.79872
臂	-9.79946
宗本紀	-9.79966
麤	-9.7998
采地	-9.80138
助祭	-9.80235
其本	-9.8027
下同	-9.80389
軌	-9.80399
貨賄	-9.80464
沙	-9.80491
不忘	-9.80531
以樂	-9.8054
穿	-9.80582
静	-9.80601
是月也	-9.80603
十八	-9.80605
曽祖	-9.80615
姬	-9.80643
壁	-9.80654
蠻	-9.80801
姑姊妹	-9.80814
冰	-9.80856
妣	-9.80916
養之	-9.80994
不云	-9.81108
狹	-9.81113
沃	-9.81117
魚腊	-9.81123
弛	-9.81259
十九	-9.81282
宫室	-9.81358
懸	-9.81495
或為	-9.81554
緫	-9.81623
癸	-9.81878
東向	-9.81993
相為	-9.82086
者何	-9.82099
小祥	-9.82111
陳之	-9.82131
拜受爵	-9.82159
七寸	-9.82212
丈夫	-9.82248
樂止	-9.82279
天神	-9.823
圭璋	-9.82419
繡	-9.82428
記者	-9.82499
所當	-9.82556
其次	-9.82591
大祭祀	-9.82636
稼	-9.82665
於王	-9.82676
震	-9.82679
判	-9.82689
恥	-9.82739
設之	-9.82758
和之	-9.82795
貝	-9.82824
朝覲	-9.82844
柴	-9.82849
薪	-9.82893
代之	-9.82929
舄	-9.82943
闔	-9.82984
蒙	-9.82993
兹	-9.83118
獄訟	-9.83203
荀	-9.83209
斿	-9.83255
十里	-9.83263
長幼	-9.83344
闑	-9.8346
之功	-9.83608
為貴	-9.83694
其制	-9.83712
下云	-9.83739
降一等	-9.83761
决	-9.8391
下殤	-9.83933
在廟	-9.84003
筋	-9.84052
英	-9.84068
殷人	-9.841
神明	-9.84148
斧	-9.84218
是為	-9.84261
諭	-9.84268
埽	-9.84311
罇	-9.84542
南上	-9.8458
州長	-9.84632
險	-9.84751
焉故	-9.84828
四曰	-9.84919
而又	-9.84946
事故	-9.85073
稽首	-9.85186
大廟	-9.85219
援	-9.85232
不盡	-9.85244
俯	-9.85398
輴	-9.85409
以事	-9.85412
所在	-9.85438
以前	-9.85498
四郊	-9.85551
人心	-9.85553
已上	-9.8571
不服	-9.85721
逺近	-9.85737
以明	-9.85886
大司徒	-9.86055
大牢	-9.86065
非禮也	-9.86107
曉	-9.86194
冀	-9.86236
澄曰	-9.86319
而弗	-9.86326
而不可	-9.86326
二十七	-9.86372
亞	-9.86377
二寸	-9.86488
生者	-9.86596
藥	-9.86664
寄	-9.86707
六尺	-9.86796
在左	-9.86833
嚌	-9.8693
照	-9.8695
凡祭祀	-9.86978
警	-9.87001
𤣥謂	-9.87018
為父	-9.87025
也既	-9.87064
緌	-9.87065
八尺	-9.87075
豆籩	-9.87094
侍中	-9.87108
爵者	-9.87149
東房	-9.87162
禮志	-9.87177
卜筮	-9.87177
尺二寸	-9.87215
兄弟之	-9.87219
竈	-9.87263
名之	-9.87284
執爵	-9.87422
二十四	-9.8756
荆	-9.87611
職云	-9.87618
文公	-9.87626
國語	-9.87649
姜	-9.87669
園	-9.87706
五聲	-9.8779
軒	-9.87797
揖讓	-9.87851
陽氣	-9.87966
以爵	-9.88037
柶	-9.88133
先君	-9.88182
亞獻	-9.88261
之際	-9.88307
於天	-9.88371
當作	-9.88417
牡	-9.88426
一百	-9.88449
此禮	-9.88585
其心	-9.88656
自此	-9.88694
矣然	-9.88713
區	-9.88751
寓	-9.8876
釐	-9.88778
未必	-9.89028
皇太后	-9.89059
四月	-9.89068
王宫	-9.89093
注謂	-9.89126
酳	-9.89143
為人	-9.89143
紛	-9.89202
稽顙	-9.89226
刃	-9.89228
冕服	-9.8926
以下皆	-9.89268
棘	-9.89279
數也	-9.89292
將命	-9.89378
食者	-9.89385
於民	-9.89425
抱	-9.89428
科	-9.89446
大祝	-9.89474
方氏	-9.89476
其民	-9.89509
也蓋	-9.89515
衮冕	-9.89547
烈	-9.89611
后土	-9.89655
不變	-9.89672
北向	-9.89782
𤣥酒	-9.89833
禮有	-9.89838
賓主	-9.89914
一命	-9.89929
如此則	-9.89936
冠禮	-9.89974
有虞氏	-9.89974
設於	-9.90064
女君	-9.90075
肥	-9.90082
祖禰	-9.90125
飛	-9.90195
貶	-9.90259
二尺	-9.9028
之民	-9.90281
或有	-9.90301
親迎	-9.90399
灰	-9.90399
觧	-9.90409
窆	-9.9053
投	-9.9057
緣	-9.90599
有六	-9.90634
誥	-9.90646
左氏	-9.90647
宇	-9.90709
鄰	-9.90721
集説	-9.9078
廵	-9.90785
獵	-9.90789
允	-9.90824
渠	-9.90841
輈	-9.90869
□	-9.90873
嫡	-9.90891
其意	-9.90943
與大夫	-9.90955
郊祀	-9.90959
司服	-9.90963
四時之	-9.91016
琮	-9.91038
九寸	-9.91049
陳氏	-9.9114
1	-9.91215
之别	-9.91277
操	-9.91306
施於	-9.91468
回	-9.91472
不備	-9.91483
筐	-9.91519
喪祭	-9.91577
抗	-9.91593
詳見	-9.91599
𤣥冠	-9.91635
史二人	-9.91647
者即	-9.91652
太宰	-9.91654
甒	-9.91667
天道	-9.91741
之賦	-9.91778
郝氏曰	-9.91855
其辭	-9.91987
此之謂	-9.91998
曰吾	-9.92005
轅	-9.92044
忍	-9.92082
貪	-9.92119
五等	-9.9213
此二	-9.92161
祐	-9.92254
祖宗	-9.92258
暑	-9.92268
聞之	-9.9227
以正	-9.92286
不食	-9.92297
弁絰	-9.92314
整	-9.92321
禹貢	-9.92357
哀公	-9.92385
尉	-9.92403
致爵	-9.92477
之餘	-9.92507
迹	-9.92522
外朝	-9.92621
禽獸	-9.92638
盧	-9.92678
箭	-9.92718
槃	-9.92771
大夫以上	-9.9283
他國	-9.92837
於朝	-9.92876
霤	-9.92905
是其	-9.92913
其長	-9.92917
六人	-9.9294
篤	-9.92982
成也	-9.93015
則亦	-9.93068
坤	-9.93145
姊妹	-9.93164
太宗	-9.93207
位於	-9.93233
之命	-9.93357
祀天	-9.93363
故鄭	-9.93378
髮	-9.93408
是謂	-9.93421
舟	-9.93462
其情	-9.93478
未成	-9.93622
太史	-9.93794
基	-9.93794
日在	-9.93871
脫	-9.93906
祖考	-9.93946
告於	-9.93993
云凡	-9.94022
睦	-9.94022
制禮	-9.94025
叔父	-9.94059
珍	-9.94104
陛	-9.94116
涂	-9.94161
而民	-9.94213
若是	-9.94225
大司樂	-9.94226
而言之	-9.94234
禮義	-9.94338
彝	-9.94386
君所	-9.94398
閣	-9.94406
靡	-9.94411
藪	-9.94441
簫	-9.94464
氣也	-9.94516
夏官	-9.94553
僚	-9.94556
其志	-9.94563
秀	-9.94607
祭法	-9.94657
名曰	-9.94674
猛	-9.94721
其妻	-9.94725
懿	-9.94751
不欲	-9.94773
奠於	-9.94795
枚	-9.94816
脀	-9.94866
閏	-9.94909
無常	-9.94947
吾子	-9.94956
主人獻	-9.94976
通論	-9.94979
困	-9.95005
冪	-9.95013
呉	-9.95015
司冦	-9.95076
正也	-9.95087
闇	-9.95103
賈氏公彦曰	-9.95171
就位	-9.95206
子游	-9.95233
桃	-9.95246
諸矦	-9.95267
密	-9.95321
漏	-9.95342
六卿	-9.954
射者	-9.95408
此時	-9.95478
出門	-9.95501
子思	-9.95522
勲	-9.95536
衆庶	-9.9556
不至	-9.95592
此篇	-9.956
之政	-9.95684
人道	-9.95714
其間	-9.95715
五曰	-9.95903
搢	-9.95923
殺之	-9.95964
嚮	-9.95969
不敢以	-9.96001
栁	-9.96036
勅	-9.96038
輻	-9.96048
其職	-9.96086
却	-9.96095
其屬	-9.96101
大行人	-9.96133
親者	-9.96135
浮	-9.96181
此所以	-9.96192
之政令	-9.96193
貴者	-9.96198
錄	-9.96254
祀之	-9.96315
祔於	-9.96327
在南	-9.96331
大裘	-9.96393
誤也	-9.96437
邸	-9.96532
不敬	-9.96587
升降	-9.9659
乖	-9.96642
士冠禮	-9.96667
今之	-9.96699
慕	-9.96742
琴	-9.9683
地官	-9.96878
怪	-9.9692
諸子	-9.96941
皆不	-9.96944
大司馬	-9.96969
罔	-9.97006
之變	-9.97118
誰	-9.97213
閑	-9.9731
非常	-9.97415
賻	-9.97422
三命	-9.97436
蕙田案以上	-9.97461
扱	-9.97506
琴瑟	-9.97593
唱	-9.97619
十七	-9.97638
靜	-9.97818
重者	-9.97895
飽	-9.97904
山隂陸氏曰	-9.97942
在内	-9.97966
生於	-9.98007
釋奠	-9.98009
别子	-9.98042
公羊	-9.98052
藏之	-9.98087
也疏	-9.9811
變於	-9.98173
繒	-9.98253
珠	-9.98288
康成	-9.98308
繢	-9.9834
七廟	-9.98352
胾	-9.98379
板	-9.98404
祖父母	-9.98451
畔	-9.98485
蕩	-9.98502
子夏	-9.98639
執之	-9.98651
集說	-9.98782
不如	-9.98824
握	-9.98837
繭	-9.98959
姑洗	-9.98981
晚	-9.9903
逮	-9.99059
晉侯	-9.99089
禁令	-9.99133
覲禮	-9.99201
蹕	-9.99225
若夫	-9.99304
主國	-9.9932
可得而	-9.99351
之器	-9.99423
反下同	-9.99541
其説	-9.99541
也天子	-9.99561
吉禮	-9.99612
五十里	-9.99633
紐	-9.99687
之意也	-9.99778
胙	-10.0004
拊	-10.0008
寜	-10.0011
嶽	-10.0016
者明	-10.002
上射	-10.0021
巡守	-10.0021
考工記	-10.0024
題	-10.0024
幄	-10.0026
亦云	-10.0028
漢書	-10.0029
慝	-10.003
鳥獸	-10.0033
軫	-10.0034
劉氏曰	-10.0035
驗	-10.0037
政令	-10.0039
相對	-10.0046
氷	-10.0049
少退	-10.0049
卽	-10.0062
舍人	-10.0066
邦國之	-10.0067
明堂位	-10.0069
正義	-10.0075
汁	-10.0081
薛	-10.0084
在後	-10.0085
行者	-10.009
熙	-10.0091
第三	-10.0092
櫛	-10.0096
素服	-10.0099
策	-10.0103
則此	-10.0103
慈母	-10.0105
言之則	-10.0108
落	-10.0109
如今	-10.0111
阼階下	-10.0112
入于	-10.012
長兄弟	-10.0132
十一年	-10.0137
百二十	-10.0139
祖父	-10.0161
其人	-10.0166
底	-10.0167
車馬	-10.0168
而退	-10.0175
士禮	-10.0186
曾祖	-10.0187
鴻	-10.0187
以共	-10.0188
沐浴	-10.0189
合樂	-10.0191
九嬪	-10.0194
適孫	-10.0196
虧	-10.0197
猶有	-10.02
皆為	-10.0202
廟中	-10.0206
日月星辰	-10.0208
致之	-10.0209
之田	-10.021
係	-10.0215
王氏	-10.0218
不行	-10.022
正祭	-10.0221
筭	-10.0226
孔氏	-10.0231
門東	-10.024
不使	-10.0242
觀之	-10.0259
棗	-10.0259
豹	-10.0262
也君	-10.0263
驅	-10.0265
檢	-10.0268
於國	-10.0275
再命	-10.0275
髀	-10.0282
反下	-10.0287
位在	-10.0289
敘	-10.0293
武帝	-10.0299
郤	-10.0302
蚤	-10.0302
死則	-10.0305
於地	-10.031
倦	-10.0312
圉	-10.0314
擾	-10.0322
亦用	-10.0327
也大夫	-10.0327
齎	-10.0336
一分	-10.0338
仁義	-10.0339
争	-10.0343
而止	-10.0347
敖氏	-10.0349
宗廟之	-10.0352
悖	-10.0364
西序	-10.0368
縞	-10.0373
年正月	-10.0377
視朝	-10.0377
廉	-10.0385
於中	-10.0395
二分	-10.0396
聖人之	-10.0399
不待	-10.0404
不杖	-10.0412
奔喪	-10.0423
而云	-10.0423
桓公	-10.0425
多寡	-10.0425
從祖	-10.0428
之始	-10.0439
未知	-10.0449
異者	-10.0453
六官	-10.0456
礼	-10.046
朝事	-10.0462
父兄	-10.0469
是時	-10.0469
宗婦	-10.0471
不可不	-10.0471
矣此	-10.0482
統於	-10.0497
詔王	-10.0498
姪	-10.0498
降自西階	-10.0517
然而	-10.0527
遂以	-10.0533
之家	-10.0536
旄	-10.0554
春夏	-10.0561
物而	-10.0568
晝	-10.057
絺	-10.0578
戾	-10.0579
仲春	-10.058
𤣥冕	-10.0581
欽	-10.0591
用布	-10.0591
歎	-10.0594
所宜	-10.0596
溺	-10.06
炙	-10.0601
而上	-10.0609
北郊	-10.0621
賜之	-10.0623
使民	-10.063
盡其	-10.063
喪事	-10.063
箕	-10.0631
鄭註	-10.0633
借	-10.0642
之右	-10.0642
膳夫	-10.0647
生時	-10.065
成踊	-10.0656
曾子	-10.0657
於天下	-10.0658
安得	-10.0664
在堂	-10.0668
買	-10.0669
亦得	-10.0674
以義	-10.0677
庾	-10.0678
腹	-10.0679
太祝	-10.0682
刑罰	-10.0682
四分	-10.0687
滌	-10.0687
之詩	-10.0693
長樂陳氏曰	-10.0694
觀其	-10.0697
知之	-10.0702
阿	-10.0705
分寸之	-10.0711
不應	-10.0717
事畢	-10.0718
狩	-10.072
於大夫	-10.0721
非特	-10.0722
五色	-10.0728
僖公	-10.073
亦為	-10.0733
饑	-10.0733
二字	-10.0735
機	-10.0737
于廟	-10.0745
庭實	-10.0748
則必	-10.0753
者如	-10.0753
無文	-10.0756
紘	-10.076
將軍	-10.076
恵	-10.0766
故有	-10.077
人之所	-10.0775
若不	-10.0775
粗	-10.0776
柩車	-10.0785
2	-10.0789
之次	-10.0794
之色	-10.0799
此文	-10.0808
停	-10.0815
飭	-10.0823
其一	-10.0824
明器	-10.0827
到	-10.0839
門西	-10.0841
賤者	-10.0848
敏	-10.0851
五百	-10.0864
弔服	-10.0864
樂也	-10.0869
不宜	-10.0896
掌之	-10.0901
捧	-10.0903
秋冬	-10.0905
第一	-10.0906
騎	-10.0912
吉服	-10.092
俊	-10.0922
矛	-10.0929
創	-10.0934
阜	-10.0934
惰	-10.0938
方百里	-10.0939
壊	-10.0949
文子	-10.0949
乗車	-10.0955
人皆	-10.0956
以俟	-10.0956
黄道	-10.0962
䘮服	-10.0966
山澤	-10.0971
嗇	-10.0974
始於	-10.0974
其徳	-10.0976
為三	-10.098
筓	-10.0982
鑊	-10.0983
加於	-10.0984
鬱鬯	-10.0984
十二年	-10.0986
飬	-10.0987
周制	-10.0991
來朝	-10.0994
曠	-10.0996
辭也	-10.1
三揖	-10.1003
一體	-10.1007
主人拜	-10.1011
故鄭云	-10.1012
而生	-10.1012
政事	-10.1014
非謂	-10.102
括髮	-10.1022
而未	-10.1022
伊	-10.1028
亷	-10.1035
夫家	-10.1041
王肅	-10.1051
好惡	-10.1056
二日	-10.1058
無所不	-10.1062
則非	-10.1075
聼	-10.108
其時	-10.1087
神也	-10.1091
車之	-10.1094
者欲	-10.1096
芳	-10.1097
謬	-10.1098
而復	-10.1102
也故曰	-10.1123
服不	-10.1126
濫	-10.1141
不絶	-10.1144
茍	-10.1149
委積	-10.1154
滑	-10.1161
皆然	-10.1165
練冠	-10.1166
楣	-10.1169
受其	-10.1176
類也	-10.119
醉	-10.1195
鄭司農	-10.1195
齊侯	-10.1198
兵車	-10.12
頃	-10.1205
匏	-10.1211
後鄭	-10.1216
儐尸	-10.1221
求之	-10.1224
簿	-10.1236
得以	-10.1236
烖	-10.1237
六遂	-10.1239
匪	-10.124
歆	-10.1245
黨正	-10.1247
于堂	-10.1253
萌	-10.1253
紹	-10.1259
可見	-10.1259
四望	-10.126
也士	-10.126
七日	-10.1266
狗	-10.129
有事於	-10.1299
之形	-10.1302
皆得	-10.1304
衆主人	-10.1307
齊衰三月	-10.1307
以備	-10.1309
樂器	-10.1311
舉其	-10.1311
故書	-10.1312
閔	-10.1313
膠	-10.1314
入於	-10.1316
九州	-10.1317
醴酒	-10.1318
亦在	-10.1319
有五	-10.1322
注正義曰	-10.1324
函	-10.133
也周禮	-10.1343
注同	-10.1348
二百	-10.1352
為後	-10.1352
小宗伯	-10.1354
而已故	-10.1357
拜賔	-10.136
未能	-10.1362
位于	-10.1367
:「	-10.1367
故君子	-10.1368
小大	-10.1372
之異	-10.1383
内宰	-10.1383
善也	-10.1393
三千	-10.1406
以祀	-10.141
之聲	-10.1411
祭肺	-10.1411
酏	-10.1412
賄	-10.1422
什	-10.1429
罋	-10.1436
職曰	-10.1445
一節	-10.1447
懷	-10.1452
洗爵	-10.1454
該	-10.1454
失禮	-10.1458
河南	-10.1459
消	-10.1461
詐	-10.1462
北面東上	-10.1462
殺也	-10.1473
如何	-10.1478
共之	-10.1478
内史	-10.1481
弑	-10.1483
而行之	-10.1486
首絰	-10.1494
醯	-10.1498
明其	-10.1498
則用	-10.1498
視之	-10.15
在於	-10.1503
當以	-10.1513
無射	-10.1521
主人主婦	-10.1523
之謂也	-10.154
者彼	-10.1544
長殤	-10.1546
者葢	-10.1562
一時	-10.1563
而反	-10.1564
朝踐	-10.1573
除喪	-10.1575
執弓	-10.1578
小雅	-10.1583
死而	-10.1592
完	-10.1596
壯	-10.1597
分為	-10.1607
而哭	-10.1609
俾	-10.1611
庶母	-10.1613
之差	-10.1613
奠觶	-10.1618
並同	-10.1619
諸父	-10.162
忠信	-10.1631
祭禮	-10.1635
聨	-10.1641
唯有	-10.1644
濁	-10.165
無主	-10.1652
器也	-10.1652
五官	-10.1655
孝經	-10.1656
父母之喪	-10.1661
言之也	-10.1662
蟄	-10.1664
秋官	-10.1665
矦	-10.1665
詢	-10.1671
級	-10.1679
大僕	-10.1685
者據	-10.1687
為壇	-10.1695
夏至	-10.1697
苞	-10.1703
戒之	-10.1704
帥其屬	-10.1705
達於	-10.1708
東階	-10.1709
事君	-10.171
誣	-10.1715
祭地	-10.172
公羊傳	-10.1723
膳宰	-10.1725
六曰	-10.1727
不通	-10.1729
斛	-10.1729
為二	-10.1729
希	-10.1731
暇	-10.1734
貸	-10.1734
童	-10.1735
之左	-10.1739
西面北上	-10.1747
輦	-10.1762
而不敢	-10.1763
易曰	-10.1763
賛者	-10.1763
不稱	-10.1768
堪	-10.1773
何也曰	-10.1775
曾	-10.1777
簠	-10.1779
孟春	-10.179
一獻	-10.1791
在位	-10.1793
翦	-10.1795
傾	-10.1796
掌邦	-10.1805
所以致	-10.181
而巳	-10.1812
之志	-10.1828
第十	-10.183
春秋傳	-10.1831
閲	-10.1837
誘	-10.1838
枕	-10.1842
融	-10.1842
從母	-10.1851
别於	-10.1852
正服	-10.1855
雖無	-10.1866
府二人	-10.1876
在北	-10.1879
披	-10.1882
湖	-10.1882
於己	-10.1894
而不知	-10.1896
僅	-10.1898
濯	-10.1902
織	-10.1903
于王	-10.1924
迎尸	-10.1925
上言	-10.1926
齍	-10.1931
段	-10.1933
欺	-10.1937
蘇	-10.1944
坐奠	-10.1945
莊公	-10.1945
相應	-10.1947
巷	-10.1956
脾	-10.1959
小記	-10.1961
于房	-10.1965
而知	-10.1965
也鄭氏曰	-10.1965
夏殷	-10.1978
普	-10.1988
璧琮	-10.1989
紒	-10.1991
遣使	-10.1993
者盖	-10.1993
冕而	-10.1997
彞	-10.1999
本又作	-10.2002
木為	-10.2002
驚	-10.2026
見于	-10.2027
隔	-10.2027
之美	-10.2027
禪	-10.2031
付	-10.2033
晏	-10.2034
使某	-10.2037
自稱	-10.204
奠之	-10.204
燕射	-10.2041
所執	-10.2042
反命	-10.2047
山林	-10.2054
樂者	-10.2056
亭	-10.2057
其言	-10.2057
紼	-10.2057
公曰	-10.206
也但	-10.206
張氏曰	-10.207
殆	-10.2074
樞	-10.2074
有罪	-10.2082
遂人	-10.2083
蓍	-10.2087
反哭	-10.2088
糗	-10.209
邇	-10.2102
飾之	-10.2106
巾車	-10.2106
妨	-10.211
引之	-10.2111
之而已	-10.2111
所出	-10.2112
之大者	-10.2112
少儀	-10.2117
北靣	-10.212
十五年	-10.2122
不受	-10.2128
谷	-10.2136
而死	-10.2154
增	-10.2155
宥	-10.216
同故	-10.2161
𢎞	-10.2162
古今	-10.2163
焉則	-10.2163
㡬	-10.2166
而用之	-10.2171
主人降	-10.2173
下有	-10.2183
奏請	-10.2185
之學	-10.2191
先入	-10.2193
而歸	-10.2196
故用	-10.2197
十人	-10.2207
鼻	-10.2207
萬民之	-10.2213
十日	-10.2218
𧃊	-10.2224
梓	-10.2231
棜	-10.2238
三王	-10.2241
故事	-10.2244
絜	-10.2245
當在	-10.2245
五世	-10.225
偃	-10.2254
邱	-10.2263
毒	-10.2264
非一	-10.2269
而不言	-10.2271
之分	-10.2272
鳩	-10.2272
泲	-10.2276
朝聘	-10.2279
其父	-10.2279
禜	-10.228
其功	-10.2281
居喪	-10.2283
轡	-10.2285
司寇	-10.2286
錫衰	-10.2291
二十八	-10.2293
為禮	-10.2297
太后	-10.2299
其神	-10.2305
凖	-10.2306
使大夫	-10.2313
禮官	-10.2314
泥	-10.2318
在國	-10.2323
薦脯醢	-10.2325
皇祖	-10.233
三讓	-10.2332
長三尺	-10.2334
也君子	-10.2341
出于	-10.2341
非是	-10.235
禮樂之	-10.2355
不成	-10.2358
禮曰	-10.2358
蒐	-10.2372
祭統	-10.2373
京師	-10.2377
宋史	-10.2387
互相	-10.239
禘祫	-10.239
犢	-10.2391
僣	-10.2392
百工	-10.2395
損益	-10.24
者或	-10.2401
於是乎	-10.2403
輒	-10.241
十有二人	-10.2424
尊故	-10.2424
臧	-10.2425
酳尸	-10.2425
自有	-10.2427
酌獻	-10.2431
悔	-10.2431
馳	-10.2435
塵	-10.2435
其形	-10.2438
祭義	-10.2448
柯	-10.2448
夾室	-10.2452
太尉	-10.2453
諾	-10.2464
趣	-10.2468
鈞	-10.2468
此三	-10.2475
大門外	-10.2477
也鄭司農云	-10.2478
大門	-10.2482
通典	-10.2483
有徳	-10.2483
以相	-10.2487
廩	-10.2488
而俟	-10.2491
粉	-10.2492
取矢	-10.2494
黄氏曰	-10.2495
帝本紀	-10.2496
而能	-10.25
投壺	-10.2502
服期	-10.2505
架	-10.2509
不止	-10.2511
言語	-10.2517
紳	-10.2519
於室	-10.2521
慤	-10.2522
己之	-10.2525
綦	-10.2526
鼗	-10.2534
胄	-10.2534
在右	-10.2535
豳	-10.2539
士介	-10.254
守之	-10.254
由是	-10.2548
鼏	-10.2549
士虞禮	-10.2552
扑	-10.2552
亢	-10.2556
入告	-10.2556
季春	-10.2557
出迎	-10.2557
讎	-10.2559
亦謂之	-10.2561
戒令	-10.2562
此明	-10.2565
墠	-10.257
中國	-10.2572
林鍾	-10.2573
覿	-10.2574
南鄉	-10.2579
臘	-10.2589
羊豕	-10.2591
廷	-10.2593
也古者	-10.2597
王所	-10.2598
祭先	-10.2599
陸氏	-10.2623
凢	-10.2623
壤	-10.2624
緇布冠	-10.2625
小學	-10.2626
顓頊	-10.2628
鎛	-10.2631
史記	-10.2632
其家	-10.2635
有異	-10.2638
億	-10.2639
仗	-10.2645
以出	-10.2651
㓜	-10.2654
先言	-10.2654
綬	-10.2659
3	-10.266
王朝	-10.266
箋	-10.2667
近郊	-10.2668
笑	-10.2669
案此	-10.2673
廵守	-10.2674
與諸侯	-10.2675
邾	-10.2679
易氏曰	-10.2683
鄭康成	-10.2686
豈有	-10.2692
九州之	-10.27
為祖	-10.2707
不特	-10.2709
也葢	-10.2714
随	-10.2717
矜	-10.2721
不正	-10.2729
東楹	-10.273
滋	-10.2733
仁者	-10.2734
與夫	-10.2734
以玉	-10.2741
未可	-10.2744
隂陽之	-10.2748
升歌	-10.2751
翔	-10.2754
朝日	-10.2759
期而	-10.2759
初獻	-10.2763
自是	-10.2765
既殯	-10.2771
宗室	-10.2773
搏	-10.2775
行人	-10.2781
中霤	-10.2784
盾	-10.2787
鄭氏謂	-10.2787
澄	-10.2787
起居	-10.2787
誄	-10.2788
人主	-10.279
衆也	-10.2795
泛	-10.2799
臣子	-10.28
釋曰此	-10.2807
也又曰	-10.2809
臑	-10.2814
雙	-10.2817
仲尼	-10.2821
絳	-10.2834
翰	-10.2835
下射	-10.2836
五禮	-10.2837
存焉	-10.2837
蕤	-10.2843
百四十	-10.2848
次第	-10.2849
際	-10.2854
第四	-10.2854
聽之	-10.2854
脊脅	-10.2857
甞	-10.2865
昭公	-10.2867
奴	-10.2867
路門	-10.2868
天府	-10.287
職事	-10.2873
舞者	-10.2873
黎	-10.2877
之稱	-10.2881
故特	-10.2886
驕	-10.2886
胖	-10.2887
酢主人	-10.2887
霸	-10.2889
絰帶	-10.2894
斥	-10.2895
粢盛	-10.2897
奉之	-10.2903
虛	-10.2907
殯宫	-10.2918
悼	-10.2918
受幣	-10.2923
禮部	-10.2924
以祭	-10.2928
禮運	-10.2929
配天	-10.293
遣車	-10.2941
其類	-10.2941
麾	-10.2946
而去	-10.2947
槀	-10.2948
紂	-10.2949
盎齊	-10.295
泰山	-10.2957
釋獲者	-10.2957
旜	-10.2958
茂	-10.2963
之體	-10.2967
太平	-10.2968
解之	-10.2977
即此	-10.2978
之初	-10.298
不信	-10.2982
便也	-10.2993
非正	-10.2995
其祖	-10.2996
之教	-10.3001
都家	-10.3003
藩	-10.3006
人臣	-10.3007
搢笏	-10.3012
禳	-10.3018
其臣	-10.3021
案周禮	-10.3023
日中	-10.3026
載之	-10.3029
又言	-10.303
余	-10.3033
湏	-10.3035
庫門	-10.3037
鄭知	-10.3044
求諸	-10.3048
廞	-10.3049
則當	-10.305
而已矣	-10.305
司㑹	-10.3054
神座	-10.3055
曾子問	-10.3056
於門外	-10.3058
苗	-10.3062
附庸	-10.3063
骼	-10.3068
為人後者	-10.3075
子貢	-10.3077
下士二人	-10.3077
三十六	-10.3078
置於	-10.3085
亦非	-10.3087
大祖	-10.3093
鼙	-10.3096
大禮	-10.3097
是也云	-10.3097
廂	-10.3102
也是故	-10.3105
宵	-10.3105
反注同	-10.3113
潤	-10.3115
所載	-10.3125
清廟	-10.3127
一年	-10.3129
小事	-10.313
此所謂	-10.3134
鶉	-10.3135
文王之	-10.3137
暫	-10.3148
小司徒	-10.3156
上生	-10.3165
熬	-10.3165
葦	-10.3168
十四年	-10.317
眂	-10.3172
荘	-10.3177
澮	-10.3186
東面北上	-10.3186
者自	-10.3187
飪	-10.3188
庿	-10.3191
柳	-10.3201
二等	-10.3203
固有	-10.3205
同居	-10.3209
近於	-10.321
鼈	-10.3211
季秋	-10.3213
七升	-10.3233
庖	-10.3244
繆	-10.3245
父卒	-10.3247
拜之	-10.3248
瓚	-10.325
終身	-10.3257
而非	-10.3259
則否	-10.3264
毫	-10.3266
陰陽	-10.327
司農	-10.3277
釋文	-10.3277
託	-10.3278
百畝	-10.3286
可以為	-10.3287
先鄭	-10.3287
以和	-10.3291
而不能	-10.3292
為妻	-10.3299
無子	-10.33
襄公	-10.3306
待之	-10.3306
終始	-10.3311
遥	-10.3311
四升	-10.3314
堯舜	-10.3314
家語	-10.3317
敢不	-10.332
覺	-10.3325
之閒	-10.3328
士師	-10.3329
盥洗	-10.3333
姻	-10.3342
之書	-10.3346
括髪	-10.3349
枝	-10.3359
風雨	-10.3363
几筵	-10.3367
建國	-10.3367
纂	-10.338
致仕	-10.3393
郊社	-10.3395
隆殺	-10.3396
神位	-10.3396
啐	-10.3399
三辭	-10.3403
所居	-10.3408
鄭氏康成曰	-10.3408
掃	-10.3411
劑	-10.3411
軷	-10.3428
昔者	-10.343
賁	-10.3432
兩端	-10.3437
天時	-10.3438
子路	-10.344
陟	-10.3446
倒	-10.3447
紫	-10.3447
礿	-10.3457
其下	-10.3459
穴	-10.3466
女御	-10.3467
九賦	-10.3468
于是	-10.3468
用牲	-10.3475
之恩	-10.3476
賔賔	-10.3478
也且	-10.3484
孤卿	-10.3494
至是	-10.3501
故得	-10.3501
五百里	-10.3505
聘享	-10.3507
匡	-10.3508
貉	-10.351
樂師	-10.3513
典瑞	-10.3514
開元禮	-10.3514
許諾	-10.3518
直云	-10.3518
匠人	-10.352
兵器	-10.3523
乃命	-10.3538
孟子曰	-10.3538
者欲見	-10.3539
四面	-10.3555
霜	-10.3556
三升	-10.3558
蹈	-10.3559
薦俎	-10.3567
登歌	-10.3568
敷	-10.3569
御者	-10.3575
郝	-10.3578
隸	-10.3581
無算爵	-10.3589
為尸	-10.3594
場	-10.3598
折俎	-10.3603
由此	-10.3606
則謂之	-10.3616
入門左	-10.3618
其體	-10.3622
明水	-10.3624
臡	-10.3625
放此	-10.3627
者也故	-10.3635
軹	-10.364
隂氣	-10.3642
卻	-10.3651
堂西	-10.3654
城郭	-10.3659
而言也	-10.3665
爓	-10.3672
于房中	-10.3673
妾子	-10.3675
政教	-10.3675
虞卒哭	-10.3677
其色	-10.3683
鋪	-10.3684
髙下	-10.3685
匠	-10.369
各有所	-10.3691
犧牲	-10.3692
經傳	-10.3703
墮	-10.3706
摩	-10.3716
柏	-10.3717
枉	-10.3718
盜	-10.372
帨	-10.3721
執玉	-10.3723
賣	-10.3733
於郊	-10.3733
髦	-10.3735
譬	-10.3737
箇	-10.3737
直言	-10.3739
席前	-10.3739
俛伏興	-10.374
苑	-10.374
入門右	-10.3747
吕氏曰	-10.375
此記	-10.376
虡	-10.3762
訊	-10.3764
命數	-10.3767
也𤣥謂	-10.3774
也以其	-10.3783
水火	-10.3785
瓉	-10.3785
它	-10.3787
為位	-10.3788
司宫	-10.3792
壞	-10.3793
四夷	-10.3801
不許	-10.381
卜日	-10.3811
內	-10.3812
相去	-10.3813
圃	-10.3814
入學	-10.3815
朝夕哭	-10.3821
練祥	-10.3826
射則	-10.3827
冡宰	-10.385
皮弁服	-10.3853
箱	-10.3857
也敖氏曰	-10.3859
所能	-10.386
裂	-10.3861
大雅	-10.3864
揜	-10.3864
杞	-10.3871
皆作	-10.3873
讀爲	-10.3875
措	-10.3878
卒觶	-10.3882
居處	-10.3882
君親	-10.3885
嬪	-10.3888
祖母	-10.3892
其氣	-10.3896
芒	-10.3897
六升	-10.3907
者謂之	-10.391
旌旗	-10.391
濡	-10.3913
昬禮	-10.3913
孝弟	-10.3915
立廟	-10.3916
小歛	-10.3926
六典	-10.3929
韜	-10.394
混	-10.394
卓	-10.3941
人鬼	-10.3942
摇	-10.3944
公邑	-10.3945
甸人	-10.3947
倡	-10.395
舊説	-10.3965
饗禮	-10.3971
事親	-10.3974
應鍾	-10.3975
諸儒	-10.3978
悲	-10.398
設席	-10.3981
哭踊	-10.3981
可乎	-10.3986
觸	-10.3987
績	-10.3987
司儀	-10.3992
辦	-10.3993
也不言	-10.3993
盆	-10.3997
即是	-10.4
于西階上	-10.4001
小行人	-10.4008
勾	-10.4008
所得	-10.4009
黻	-10.401
陳氏祥道曰	-10.4011
庶民	-10.4013
侯中	-10.4018
賔長	-10.4025
昧	-10.4029
不肖	-10.4032
此章	-10.4034
所自出	-10.4034
簠簋	-10.404
相近	-10.4046
公侯	-10.4051
别有	-10.4053
衆寡	-10.406
文王世子	-10.4061
督	-10.4062
弔者	-10.4065
地示	-10.4068
㦸	-10.407
侍郎	-10.4071
巢	-10.4072
陳設	-10.4074
一物	-10.4077
皆所以	-10.4082
其法	-10.4082
燒	-10.4085
無過	-10.4085
閽	-10.4085
不容	-10.4088
拱	-10.409
括	-10.4096
也若然	-10.4101
媒	-10.4114
一度	-10.412
瞻	-10.4123
訛	-10.4125
賢能	-10.4125
瑑	-10.4127
此一節	-10.4144
上經	-10.4145
疾病	-10.4147
茵	-10.4148
迫	-10.4156
藏於	-10.4158
荼	-10.416
聲音	-10.4161
不善	-10.4161
詔曰	-10.4162
耆	-10.4165
莞	-10.4167
靣	-10.4171
釋菜	-10.4176
前期	-10.4177
十三年	-10.4182
葛帶	-10.4183
列於	-10.4188
婢	-10.4192
往來	-10.4193
後乃	-10.4197
炎	-10.42
階下	-10.4203
囚	-10.4204
熊氏	-10.4209
畆	-10.4214
于朝	-10.4214
以布	-10.4215
猶言	-10.4222
未至	-10.4222
阻	-10.4225
教民	-10.4228
頗	-10.4236
用玉	-10.4237
多矣	-10.4243
其說	-10.4247
玉府	-10.4252
田役	-10.4254
祇	-10.4254
賓賓	-10.4259
九職	-10.4262
奮	-10.4262
衝	-10.4264
吴	-10.4264
許嫁	-10.4266
諧	-10.4272
筥	-10.4274
楹間	-10.4275
五廟	-10.4277
執觶	-10.428
正義敖氏繼公曰	-10.4281
並行	-10.4282
貳車	-10.4284
豈可	-10.4285
存疑	-10.4286
鄉師	-10.4286
迭	-10.4287
儒者	-10.4288
不改	-10.4289
繞	-10.4295
岐	-10.4295
拭	-10.4308
特牲少牢	-10.4311
又何	-10.4313
徇	-10.4313
使臣	-10.4316
囿	-10.4316
三飯	-10.4318
文獻通考	-10.4338
褻	-10.4341
彊	-10.4348
相接	-10.4348
至誠	-10.4355
駒	-10.4361
季冬	-10.4364
軸	-10.4369
於庭	-10.4378
垣	-10.438
之饌	-10.4382
慰	-10.4386
而用	-10.439
邉	-10.4395
十六年	-10.4398
大吕	-10.4398
啐酒	-10.4399
絇	-10.4401
悦	-10.4413
五尺	-10.4415
愧	-10.4417
酒正	-10.4419
獻官	-10.4423
人子	-10.4424
于室	-10.4424
禮殺	-10.4431
孟冬	-10.4431
之節也	-10.4435
勒	-10.4439
丗	-10.4439
零	-10.4444
觳	-10.4448
乃得	-10.4455
入室	-10.446
服斬	-10.4464
局	-10.4468
舉旅	-10.4468
古禮	-10.448
未詳	-10.449
衆子	-10.4491
相似	-10.4494
褖衣	-10.4501
詘	-10.4502
恭敬	-10.4508
詰	-10.451
方五百里	-10.4513
洽	-10.4517
凝	-10.4518
肆夏	-10.4519
凶荒	-10.4526
遜	-10.453
其力	-10.4532
溢	-10.4533
雜記云	-10.4536
扃	-10.4543
家禮	-10.4546
坐祭	-10.4548
曽孫	-10.4548
本作	-10.455
彭	-10.4557
曲禮云	-10.457
倣	-10.4574
西北面	-10.4576
桐	-10.4577
李氏	-10.4581
輕者	-10.4582
魯人	-10.4583
帟	-10.4589
然後可以	-10.4596
䕶	-10.4599
愚按	-10.4602
上擯	-10.4611
拜賓	-10.4616
卵	-10.4617
晦	-10.4622
不嫌	-10.4623
大圭	-10.4625
仇	-10.4627
之殤	-10.4629
騶虞	-10.4633
綌	-10.4639
棟	-10.4641
鄉人	-10.4641
婁	-10.4646
吐	-10.4647
豻	-10.4652
騂	-10.4658
坡謂	-10.466
黜	-10.4663
之黨	-10.4665
蒸	-10.4668
水旱	-10.4674
繼母	-10.4681
開元	-10.4683
貍	-10.4685
子姓	-10.4685
哲	-10.4689
所以明	-10.469
祀五帝	-10.4695
王畿	-10.4695
未葬	-10.4695
天王	-10.4717
晨	-10.4723
使卿	-10.4725
不哭	-10.4729
湛	-10.473
子男之	-10.4732
玉帛	-10.4733
縓	-10.4736
疫	-10.474
雕	-10.474
楊氏	-10.4748
大夫之子	-10.4751
祝史	-10.4753
衆人	-10.4754
疏曰此	-10.4756
五刑	-10.4757
瘍	-10.4758
第一星	-10.476
乳	-10.4769
梅	-10.477
竊案	-10.4778
劉氏	-10.4783
陔	-10.4784
説文	-10.4787
斤	-10.4789
糧	-10.4793
皇氏	-10.4795
銅	-10.4796
肆師	-10.4799
舂	-10.4803
墉	-10.4808
公田	-10.4814
鷹	-10.4815
各二	-10.4819
太牢	-10.4822
公孫	-10.4826
要絰	-10.4827
朋	-10.4828
繇	-10.4829
尺四寸	-10.483
玊	-10.4833
醴齊	-10.4842
腰	-10.4844
狼	-10.4847
恕	-10.4855
摶	-10.4861
道藝	-10.4867
祭社	-10.487
夷則	-10.4871
歸於	-10.4873
壽	-10.4873
浸	-10.4874
誤矣	-10.4878
州府	-10.4885
綍	-10.4885
人民	-10.4889
次國	-10.4894
兩旁	-10.4896
出母	-10.4897
匱	-10.4906
髙宗	-10.4906
適人者	-10.4909
蔵	-10.4913
下管	-10.4921
四代	-10.4921
樂記	-10.4927
肵俎	-10.4927
叔孫	-10.4928
井田	-10.4929
畿外	-10.493
曷	-10.4938
犆	-10.4948
裕	-10.4951
嗟	-10.4953
將幣	-10.4954
騰	-10.4955
尊祖	-10.4961
賓降	-10.4974
帝王	-10.4979
而祭之	-10.4982
鞠衣	-10.4983
西階下	-10.4983
繋	-10.4985
禬	-10.4985
亦宜	-10.4991
妙	-10.4993
左執	-10.4995
汲	-10.5004
即席	-10.5014
玉路	-10.5021
車駕	-10.5023
沿	-10.503
征伐	-10.5033
賔尸	-10.5034
一條	-10.504
示民	-10.5045
南吕	-10.5046
遼	-10.5047
嘉禮	-10.5055
。」	-10.5056
宰相	-10.5059
鄭伯	-10.5059
猶未	-10.5064
東北面	-10.5065
鄭𤣥	-10.5067
小聘	-10.5067
丘陵	-10.5069
耆老	-10.5069
大路	-10.5069
他人	-10.5071
拜稽顙	-10.5073
陳氏曰	-10.5074
杜子春云	-10.5078
盗	-10.5102
下文云	-10.5105
之為言	-10.5105
功衰	-10.5108
私覿	-10.5116
緝	-10.5121
六服	-10.5132
應門	-10.5133
下記云	-10.5134
加爵	-10.514
未嘗不	-10.514
寫	-10.5141
尊尊	-10.5144
絹	-10.5155
肫	-10.5155
左傳云	-10.5157
無窮	-10.5159
固辭	-10.516
雪	-10.5166
星辰	-10.5168
乘車	-10.5168
納采	-10.517
官之長	-10.5186
傳曰何以	-10.5186
纊	-10.5188
了	-10.5188
必知	-10.5195
孤子	-10.5196
掌客	-10.5197
譲	-10.5201
萬世	-10.5202
倅	-10.5207
高祖	-10.5211
既練	-10.5215
世室	-10.5218
刋	-10.5221
租	-10.5222
濮	-10.5224
貍首	-10.5226
八音	-10.5231
究	-10.5239
繼父	-10.5241
次序	-10.5242
韋弁	-10.5242
奢	-10.5242
松	-10.5242
豈非	-10.5243
寡人	-10.5243
渭	-10.5243
衰裳	-10.5245
成周	-10.5251
蕡	-10.5252
夘	-10.5264
三卿	-10.5267
但言	-10.5267
從父昆弟	-10.5269
太常卿	-10.5272
下生	-10.5273
賔降	-10.5276
津	-10.5281
曲禮曰	-10.5283
亮	-10.5287
降階	-10.5291
酬賔	-10.5302
孚	-10.5302
暢	-10.5311
中衣	-10.5312
昆弟之子	-10.5315
不免	-10.5318
橋	-10.5325
八分	-10.5327
衆介	-10.5329
不廢	-10.5331
仲秋	-10.5339
灼	-10.534
執圭	-10.5355
據此	-10.5358
喪主	-10.5359
百一十	-10.5361
典禮	-10.5364
如之何	-10.5368
僕人	-10.537
厚薄	-10.537
郊勞	-10.5373
不知其	-10.5373
陽厭	-10.538
董	-10.538
緇布	-10.5389
存疑鄭氏康成曰	-10.5397
士庶子	-10.5406
頓	-10.5407
遣奠	-10.5412
韍	-10.5413
宣王	-10.5415
檀弓云	-10.5416
地祗	-10.542
百有二十	-10.5421
邦國都鄙	-10.5424
度量	-10.5424
麛	-10.5425
祝辭	-10.5426
降洗	-10.5428
芟	-10.5433
金路	-10.5436
文章	-10.5442
一丈	-10.5444
於太廟	-10.5446
廪	-10.5449
内侍	-10.5453
顔色	-10.5457
袍	-10.5459
鄉射禮	-10.5463
春分	-10.5466
鬴	-10.5466
從祀	-10.5466
春正月	-10.5469
附於	-10.547
正義曰此一節	-10.5474
主人拜送	-10.5482
廣狹	-10.5488
崔	-10.549
槩	-10.5495
不貳	-10.5496
寒暑	-10.5496
燋	-10.5501
大抵	-10.5504
外宗	-10.5505
先升	-10.5509
其性	-10.5511
咨	-10.5514
門之内	-10.5527
嵗時	-10.5529
丞相	-10.5534
公族	-10.5535
不須	-10.5537
階間	-10.5542
莒	-10.555
其罪	-10.5552
鬲	-10.5558
降殺	-10.5559
埋之	-10.556
孝孫	-10.5561
太陽	-10.5563
寡君	-10.5564
郷射	-10.5565
卒食	-10.5571
西南面	-10.5576
筍	-10.558
凶服	-10.5582
署	-10.5601
賔射	-10.5604
牝	-10.5607
卧	-10.5608
九分	-10.5609
陣	-10.5612
玉幣	-10.562
刺史	-10.5634
文帝	-10.5639
洪	-10.5649
媵爵	-10.5651
善惡	-10.5664
金石	-10.5665
娣	-10.5665
象天	-10.5672
骨肉	-10.5676
夭	-10.5677
袪	-10.5679
如常儀	-10.5682
母死	-10.569
值	-10.5691
六軍	-10.5702
布席	-10.5703
然後能	-10.5706
疎	-10.5708
収	-10.571
璜	-10.5711
后妃	-10.5716
禋	-10.572
杜註	-10.5725
銜	-10.5725
訃	-10.5727
睿	-10.5727
4	-10.5732
額	-10.5733
價	-10.5734
季氏	-10.5734
嫂	-10.5739
遷尸	-10.5743
舉奠	-10.5744
檀弓曰	-10.5744
齊戒	-10.5745
燕居	-10.5745
樓	-10.5746
未得	-10.5747
尺六寸	-10.5751
拜送爵	-10.5754
伯父	-10.5756
夾鍾	-10.5759
羊俎	-10.5762
煎	-10.5768
曰寡君	-10.5772
鞭	-10.5789
篆	-10.5791
淑	-10.5807
隧	-10.5812
裹	-10.5813
䖍	-10.5822
饎	-10.5826
複	-10.5843
婚	-10.5844
咎	-10.5857
耜	-10.5886
枋	-10.5888
牟	-10.59
瘠	-10.59
諒	-10.5919
熱	-10.593
盎	-10.5945
醤	-10.5945
秒	-10.595
濕	-10.5952
脂	-10.5957
羹	-10.5963
矯	-10.5974
昨	-10.5982
簟	-10.5994
鑄	-10.6011
凉	-10.6014
属	-10.6019
斚	-10.6023
滛	-10.6025
粢	-10.6029
烹	-10.6067
寵	-10.6068
輸	-10.607
甥	-10.6091
冥	-10.6097
妥	-10.6101
冡	-10.6112
揆	-10.6117
筴	-10.6129
蛇	-10.6138
佚	-10.6139
彤	-10.6139
譽	-10.6156
技	-10.6156
韎	-10.6157
俛	-10.6165
沮	-10.6169
障	-10.619
兕	-10.6199
莽	-10.6221
採	-10.6222
匜	-10.624
豎	-10.6241
緒	-10.6275
挈	-10.6291
廛	-10.6301
屯	-10.6306
低	-10.6323
賑	-10.6324
訾	-10.6326
隊	-10.6338
晋	-10.6344
兒	-10.6359
橫	-10.6366
蓄	-10.6367
珥	-10.6377
奇	-10.638
愼	-10.6381
膴	-10.6404
陜	-10.6411
曏	-10.6414
枲	-10.642
榛	-10.643
剡	-10.6437
夲	-10.646
瑱	-10.6477
聰	-10.6478
洞	-10.6488
鐵	-10.649
吿	-10.649
斟	-10.6494
諌	-10.6505
煮	-10.6507
艾	-10.6528
辜	-10.6542
掘	-10.6543
逃	-10.6548
笲	-10.6551
㸃	-10.6557
擩	-10.6562
閤	-10.6571
截	-10.6581
鳯	-10.6581
遞	-10.6595
遍	-10.6617
羨	-10.6619
肄	-10.663
爰	-10.6634
姊	-10.6635
闊	-10.6654
5	-10.6676
殘	-10.6692
銀	-10.67
扇	-10.6706
確	-10.6711
兔	-10.6726
胃	-10.6744
潛	-10.6769
葵	-10.6785
般	-10.6787
劍	-10.6797
輯	-10.6816
駟	-10.6821
潦	-10.6848
漬	-10.685
㕓	-10.6866
毅	-10.6878
嗜	-10.6882
靖	-10.6906
熈	-10.6906
岀	-10.6913
陷	-10.6919
漁	-10.6921
褒	-10.6933
頸	-10.6954
胳	-10.6963
璽	-10.6965
爪	-10.6985
雁	-10.6986
叩	-10.7004
屢	-10.7029
倨	-10.7041
殳	-10.7055
彈	-10.7056
弣	-10.7062
宦	-10.7069
攸	-10.7082
蠲	-10.71
敕	-10.7101
汙	-10.7123
韶	-10.7128
恪	-10.7139
菑	-10.7141
觴	-10.7146
炭	-10.7148
肵	-10.7149
雄	-10.716
鱗	-10.7186
堵	-10.7215
圗	-10.7222
蜀	-10.7229
的	-10.7235
洫	-10.7251
遏	-10.7265
滕	-10.7267
鳳	-10.7275
萑	-10.728
線	-10.7282
朞	-10.7302
旐	-10.7303
霍	-10.7308
飫	-10.732
沂	-10.7332
蹙	-10.735
暮	-10.7376
訪	-10.7376
滯	-10.7379
涗	-10.7385
逢	-10.7391
㳺	-10.7395
鈎	-10.7396
番	-10.7423
弭	-10.7436
黝	-10.7438
閱	-10.7448
帳	-10.7451
扈	-10.7458
穢	-10.746
紅	-10.7492
楬	-10.7498
禆	-10.7512
亳	-10.7543
瑕	-10.7545
膺	-10.7568
牷	-10.7592
頂	-10.7593
麟	-10.7593
羲	-10.7595
峻	-10.7596
弼	-10.7598
糝	-10.761
泗	-10.761
桀	-10.7624
聯	-10.7633
劒	-10.7638
嚳	-10.7645
禭	-10.765
拒	-10.7653
憑	-10.7653
膾	-10.7655
禖	-10.7659
冶	-10.7664
羶	-10.7664
脤	-10.7671
玩	-10.7675
貺	-10.7677
撻	-10.769
餌	-10.7698
撥	-10.7712
无	-10.7714
墻	-10.7733
彰	-10.7735
菲	-10.7737
想	-10.7739
昆	-10.7742
嬰	-10.7757
鉦	-10.776
帯	-10.7792
㝠	-10.7795
篋	-10.7797
鏃	-10.7802
儲	-10.7817
佑	-10.7817
岱	-10.7831
罕	-10.7839
概	-10.784
詛	-10.786
薌	-10.7861
姆	-10.7878
㫁	-10.7903
狎	-10.7919
棧	-10.7919
澡	-10.7927
製	-10.7937
幦	-10.7954
恃	-10.7966
擅	-10.7967
巨	-10.7969
抽	-10.7981
惜	-10.7987
憚	-10.7992
笴	-10.7993
桂	-10.8003
爻	-10.8007
綃	-10.802
萃	-10.803
詠	-10.8033
繶	-10.8037
蠃	-10.807
攘	-10.8072
扉	-10.8103
覽	-10.8105
袖	-10.8105
凍	-10.8111
鉞	-10.8112
賴	-10.8114
懲	-10.8115
亟	-10.8128
灂	-10.8128
鑒	-10.8153
𤓰	-10.8174
脡	-10.8175
鞠	-10.819
潘	-10.8216
隷	-10.8229
妹	-10.8231
雀	-10.8239
褥	-10.8248
簧	-10.8268
彦	-10.8276
陋	-10.8283
渾	-10.8285
俠	-10.83
刪	-10.8303
甿	-10.8313
鏤	-10.8327
」	-10.834
糟	-10.8349
櫜	-10.8356
冦	-10.8381
閾	-10.8382
駁	-10.8385
傍	-10.8386
綪	-10.8389
从	-10.839
煖	-10.8392
肂	-10.8406
輤	-10.8407
隙	-10.8417
鞶	-10.8431
腸	-10.8433
腎	-10.8437
柷	-10.8438
准	-10.8441
泣	-10.8448
毳	-10.8454
昴	-10.8454
衿	-10.8456
梏	-10.8466
寇	-10.847
獮	-10.8485
輟	-10.8489
宏	-10.8498
驂	-10.85
膝	-10.8501
弇	-10.8505
盞	-10.8505
6	-10.8506
皥	-10.8521
涉	-10.8526
碩	-10.8545
箙	-10.8547
縵	-10.8552
紕	-10.8552
簭	-10.8563
賙	-10.8591
闢	-10.8608
臆	-10.8634
筆	-10.8636
促	-10.8636
課	-10.8652
羙	-10.8656
肯	-10.8657
爽	-10.8658
把	-10.8661
竅	-10.8664
壅	-10.8683
宁	-10.8694
辠	-10.8701
嘆	-10.8704
祁	-10.8721
鄧	-10.8724
械	-10.8725
侮	-10.8746
劣	-10.8793
杠	-10.8812
擁	-10.8815
渉	-10.8819
簞	-10.8835
:	-10.8835
愆	-10.8858
談	-10.8863
輙	-10.8882
看	-10.8907
餞	-10.8912
鑑	-10.8924
燧	-10.8927
琢	-10.8931
虐	-10.8932
朽	-10.8951
影	-10.8952
汪	-10.897
饒	-10.8975
洋	-10.8976
陂	-10.9005
磔	-10.9022
紟	-10.9038
甬	-10.9069
欒	-10.9075
炮	-10.9079
糞	-10.9079
鬛	-10.9095
蠱	-10.9103
巻	-10.9113
柝	-10.9119
繚	-10.9134
蕢	-10.9144
皷	-10.9154
襢	-10.916
襦	-10.9162
祚	-10.9175
輩	-10.9185
驪	-10.9188
衺	-10.9191
愷	-10.9209
昊	-10.9209
墜	-10.921
歠	-10.9221
飧	-10.9232
謖	-10.9234
禀	-10.9236
凌	-10.9236
茶	-10.9246
踵	-10.9254
排	-10.9256
覜	-10.9273
厨	-10.9275
銖	-10.9277
涕	-10.9281
斝	-10.9283
㮚	-10.9284
縢	-10.9301
軾	-10.9306
需	-10.9317
宛	-10.9326
竇	-10.9331
羡	-10.9333
誕	-10.9347
赫	-10.9348
汚	-10.9351
莭	-10.9359
㠯	-10.9386
稾	-10.9405
纎	-10.9411
蒯	-10.9423
顛	-10.9425
穫	-10.9431
戍	-10.9441
襃	-10.9444
聶	-10.9444
腴	-10.945
踈	-10.9472
僻	-10.9476
脛	-10.9492
馨	-10.9498
廡	-10.951
檐	-10.9518
鄕	-10.9523
僎	-10.9524
跣	-10.9525
杼	-10.955
壘	-10.9572
恨	-10.9575
艱	-10.959
潁	-10.9592
偕	-10.9594
竁	-10.9617
菁	-10.9619
泄	-10.9621
邵	-10.9622
豪	-10.9625
竽	-10.964
㸑	-10.9642
偪	-10.9643
揉	-10.9647
皋	-10.9656
醋	-10.9663
耒	-10.9664
濶	-10.9665
耗	-10.9698
殖	-10.9719
䖏	-10.9721
鬻	-10.9724
鐃	-10.9729
箴	-10.9743
愉	-10.9744
印	-10.9758
兖	-10.9769
斜	-10.9776
塋	-10.9787
像	-10.9811
凱	-10.9815
範	-10.9819
暨	-10.9835
蔚	-10.9838
脚	-10.9841
騐	-10.9844
塟	-10.9846
抵	-10.9858
䋫	-10.9859
煇	-10.9874
数	-10.9889
衫	-10.9893
祓	-10.9893
躋	-10.9894
肇	-10.9905
揄	-10.9909
姒	-10.9913
繕	-10.9917
笥	-10.9923
活	-10.9945
僞	-10.9973
戲	-10.9994
醜	-10.9994
堊	-11.0005
讙	-11.0024
樊	-11.0026
耨	-11.0027
鯀	-11.0045
榆	-11.0045
瞿	-11.005
諷	-11.0052
兎	-11.0072
噫	-11.0074
禴	-11.0076
蓼	-11.0092
眉	-11.0096
酋	-11.0106
旨	-11.0121
䝉	-11.0123
叛	-11.0128
旟	-11.013
炊	-11.013
圈	-11.0131
筲	-11.0148
汎	-11.0183
媺	-11.0233
弩	-11.0249
贏	-11.0255
浪	-11.0255
替	-11.0257
膋	-11.0263
掖	-11.0276
苫	-11.028
貎	-11.0285
裨	-11.0302
紗	-11.0309
㓂	-11.0312
酸	-11.0315
氐	-11.0327
榭	-11.0332
貯	-11.0332
頍	-11.0337
韭	-11.0345
珪	-11.0358
耻	-11.037
扆	-11.0378
趾	-11.039
扄	-11.0391
臚	-11.0404
袁	-11.0415
脰	-11.0418
醆	-11.044
灾	-11.044
菽	-11.0444
衙	-11.0458
頫	-11.0461
謨	-11.0464
涼	-11.0464
妖	-11.0472
酺	-11.0488
儷	-11.0524
簾	-11.0533
鹵	-11.0544
蘭	-11.0549
苛	-11.0555
花	-11.0563
柞	-11.0577
瑶	-11.058
郵	-11.059
償	-11.06
溪	-11.0626
逡	-11.0629
浩	-11.063
膊	-11.0662
陞	-11.0672
朼	-11.0689
油	-11.0698
躐	-11.071
邢	-11.0717
黙	-11.0719
佾	-11.074
訂	-11.0743
橈	-11.0749
競	-11.0768
髻	-11.0773
嵩	-11.0793
菅	-11.0795
証	-11.0797
繪	-11.08
呈	-11.0821
腆	-11.0823
腐	-11.0825
挺	-11.0826
糴	-11.0843
網	-11.0858
釀	-11.0881
虢	-11.0891
逼	-11.0904
液	-11.0905
衷	-11.0906
闈	-11.0907
肱	-11.091
紙	-11.0934
两	-11.0939
椑	-11.0959
髺	-11.1014
挼	-11.1015
籠	-11.1016
頴	-11.1017
琰	-11.102
闋	-11.1034
?	-11.1039
紊	-11.1049
》	-11.1052
《	-11.1052
奎	-11.1067
肘	-11.1077
鞮	-11.108
忿	-11.1082
参	-11.1101
鉅	-11.1102
廹	-11.1107
鬭	-11.111
煑	-11.1135
撓	-11.1139
迴	-11.1163
芼	-11.1164
埶	-11.1164
蔬	-11.1171
叢	-11.1184
袗	-11.1187
茨	-11.1193
蛤	-11.12
冉	-11.121
菆	-11.1212
琬	-11.1217
磨	-11.1219
垢	-11.122
鼜	-11.1223
殃	-11.1225
讐	-11.123
鳬	-11.1232
汾	-11.1238
鋭	-11.1243
滎	-11.1271
球	-11.1284
穹	-11.1291
隴	-11.1292
輇	-11.13
溉	-11.1301
𥘉	-11.1336
佃	-11.1337
屑	-11.1338
躍	-11.1338
楔	-11.134
鹹	-11.134
蜼	-11.1346
袷	-11.139
摡	-11.1395
鮪	-11.1404
濬	-11.142
刌	-11.1427
絀	-11.1429
跛	-11.143
柎	-11.1434
隐	-11.146
豢	-11.1462
惻	-11.1462
鐲	-11.1466
渡	-11.1476
幠	-11.1479
耀	-11.1508
誼	-11.1513
廱	-11.1517
朴	-11.1519
衈	-11.1543
据	-11.1543
鼖	-11.156
幬	-11.1567
沽	-11.1571
撃	-11.158
悠	-11.1582
突	-11.1585
鮑	-11.1592
稟	-11.1605
纒	-11.1607
屠	-11.1609
鱐	-11.1611
鵲	-11.1611
燥	-11.164
孕	-11.1641
晷	-11.1663
韣	-11.1672
墀	-11.1681
彫	-11.1698
帗	-11.1701
跡	-11.1701
芬	-11.1724
飢	-11.1727
奕	-11.1753
椹	-11.1753
韇	-11.1778
灑	-11.1787
跗	-11.1789
与	-11.181
狂	-11.1819
弃	-11.1851
齡	-11.1851
縿	-11.1856
刲	-11.1878
寘	-11.1881
紏	-11.1883
鑮	-11.1889
庇	-11.1903
癘	-11.191
蔑	-11.1917
迄	-11.1937
爟	-11.1947
綿	-11.1966
添	-11.1994
尼	-11.1996
秘	-11.2001
圎	-11.2008
囘	-11.2065
臝	-11.2069
簀	-11.2075
漳	-11.2084
鬄	-11.2087
状	-11.2096
囊	-11.2096
銳	-11.2096
揔	-11.2097
溫	-11.2101
廏	-11.2106
悌	-11.2122
頤	-11.2127
幷	-11.213
絮	-11.2134
仞	-11.2136
摰	-11.2153
謚	-11.2154
悟	-11.2158
覩	-11.2158
搖	-11.216
洒	-11.2169
顈	-11.2188
超	-11.2191
厞	-11.2193
迷	-11.2194
畤	-11.2194
鴽	-11.2221
喬	-11.2224
薑	-11.2225
瓜	-11.2252
淹	-11.2261
誨	-11.2263
咏	-11.2271
悝	-11.229
禡	-11.2292
銓	-11.2317
核	-11.232
褘	-11.2322
緼	-11.2349
捷	-11.2349
隕	-11.235
彘	-11.2352
輝	-11.2352
籌	-11.2353
戶	-11.2359
軓	-11.2366
恱	-11.2382
䕫	-11.2393
醍	-11.2393
罟	-11.2398
壷	-11.241
返	-11.2418
烜	-11.2418
枯	-11.2421
紞	-11.2424
佛	-11.245
逕	-11.2452
翁	-11.2452
婉	-11.2453
柲	-11.246
牒	-11.2475
欠	-11.2477
蓐	-11.2479
遐	-11.248
惇	-11.2486
欣	-11.2487
銑	-11.2491
街	-11.2511
珽	-11.2512
閩	-11.2526
㢘	-11.2549
鬰	-11.2552
輓	-11.2553
昕	-11.2553
祲	-11.2587
肴	-11.2587
療	-11.2606
蹄	-11.261
儼	-11.2616
劓	-11.2618
片	-11.262
鈴	-11.2621
怛	-11.2622
桎	-11.2627
叅	-11.2637
簨	-11.265
奸	-11.265
敺	-11.2657
僧	-11.2675
熹	-11.2678
貽	-11.268
繂	-11.2682
櫝	-11.2688
拔	-11.2718
途	-11.278
韻	-11.2784
濩	-11.2793
巴	-11.2808
瓊	-11.2813
酇	-11.2822
茀	-11.2822
隼	-11.2824
蓏	-11.283
坼	-11.2845
儺	-11.2855
樸	-11.2859
泮	-11.2882
沛	-11.2883
襌	-11.2884
鍵	-11.2886
眚	-11.2886
瓶	-11.2886
躔	-11.2887
疇	-11.2891
賂	-11.2905
寕	-11.2912
偹	-11.2918
逵	-11.2948
綠	-11.2949
浙	-11.2951
侔	-11.2954
澣	-11.2957
模	-11.2959
淡	-11.296
魁	-11.2963
簪	-11.2985
伺	-11.2992
刮	-11.3004
7	-11.3012
膰	-11.3019
圻	-11.3022
棖	-11.3024
捍	-11.3025
緹	-11.3034
姨	-11.3038
姚	-11.3057
笫	-11.3057
匿	-11.306
縟	-11.3064
廐	-11.3083
塊	-11.3095
勑	-11.3095
暗	-11.3095
徼	-11.3097
缶	-11.31
恊	-11.3128
綸	-11.3135
捕	-11.3161
遙	-11.3161
禓	-11.3164
秬	-11.317
嬖	-11.3213
帚	-11.3231
𦙍	-11.3233
頖	-11.3236
礙	-11.3237
畺	-11.3248
諏	-11.3264
裴	-11.3265
鴆	-11.3266
弋	-11.3269
莖	-11.3287
繐	-11.3299
囂	-11.3304
蒿	-11.3304
懈	-11.3306
爐	-11.3307
胎	-11.3307
住	-11.3307
巽	-11.3338
馴	-11.3339
絛	-11.3341
躁	-11.3344
譜	-11.3349
夙	-11.3367
祉	-11.3368
煙	-11.3374
剥	-11.3375
艮	-11.3378
涚	-11.3381
苽	-11.3381
秣	-11.3382
叶	-11.3411
麄	-11.3418
丕	-11.3448
甑	-11.345
耄	-11.3452
椎	-11.3453
叚	-11.3484
俘	-11.3485
斃	-11.3493
驟	-11.3493
廊	-11.3504
欑	-11.3514
璞	-11.352
梧	-11.3521
緑	-11.3522
焦	-11.3527
鎬	-11.3551
鞅	-11.3562
涇	-11.358
芥	-11.3586
祏	-11.3591
阨	-11.3595
隈	-11.3595
冔	-11.3595
蟬	-11.3606
挽	-11.3629
隄	-11.3632
嶺	-11.3661
糜	-11.3672
匝	-11.3672
俞	-11.3675
藴	-11.3675
袤	-11.3704
閷	-11.3708
鄂	-11.3708
寔	-11.3709
朄	-11.3716
僉	-11.3734
枓	-11.3736
鷩	-11.3738
疈	-11.3743
薙	-11.3748
琥	-11.3776
鶩	-11.3776
槐	-11.3778
販	-11.3778
扞	-11.3779
孺	-11.3783
侏	-11.3795
褶	-11.3808
犀	-11.381
榦	-11.3813
笠	-11.3821
桴	-11.383
譌	-11.3848
紱	-11.3851
葱	-11.3852
鏞	-11.3861
澔	-11.3893
籔	-11.3894
拳	-11.3903
愍	-11.392
蓬	-11.3923
迂	-11.3927
捨	-11.3928
孽	-11.393
頻	-11.3955
曺	-11.3964
㝛	-11.3964
柢	-11.3967
遁	-11.3969
苖	-11.3969
嬴	-11.397
詁	-11.397
蒩	-11.3971
纍	-11.3972
漱	-11.3974
斵	-11.3975
㕘	-11.3996
隰	-11.4009
簴	-11.4009
雎	-11.401
栢	-11.4041
駿	-11.4042
减	-11.4042
暵	-11.4044
甕	-11.4045
龡	-11.4047
腒	-11.4047
摭	-11.4071
9	-11.4072
葷	-11.4073
藁	-11.4077
汶	-11.4079
紆	-11.4079
乂	-11.4081
波	-11.4083
鏘	-11.4086
薧	-11.41
疋	-11.4106
䑕	-11.4115
駭	-11.412
邃	-11.4153
裧	-11.4155
蹌	-11.4162
臾	-11.4162
衢	-11.4193
轝	-11.4196
虹	-11.4199
藍	-11.4202
系	-11.4204
閎	-11.4234
標	-11.4238
涸	-11.424
豉	-11.4242
翿	-11.4244
鄼	-11.4244
聮	-11.4246
緘	-11.4273
邁	-11.4273
鞏	-11.4276
閨	-11.4278
笛	-11.4285
毓	-11.4286
脉	-11.4329
㨎	-11.4346
填	-11.4361
宸	-11.4385
畨	-11.4387
爛	-11.4392
𩔖	-11.4395
儥	-11.44
鋒	-11.4401
楷	-11.443
褚	-11.4431
轍	-11.4431
擘	-11.4439
穎	-11.444
汭	-11.4461
勘	-11.4469
駮	-11.4472
逰	-11.4477
探	-11.4483
綺	-11.4513
敔	-11.4522
伋	-11.4552
勃	-11.4554
健	-11.4556
激	-11.4561
冐	-11.4563
愴	-11.4566
0	-11.4582
邈	-11.4589
禕	-11.4598
畛	-11.4604
𣙗	-11.4635
潄	-11.4636
隘	-11.4639
凟	-11.4641
畀	-11.4644
皁	-11.4667
裔	-11.4669
塤	-11.467
殉	-11.4675
殁	-11.4684
饁	-11.4684
偷	-11.4685
睹	-11.4687
觥	-11.4716
傲	-11.4718
鷄	-11.4721
厠	-11.4721
荁	-11.4722
堇	-11.4763
鎧	-11.4764
溥	-11.4768
袡	-11.4793
蔣	-11.4794
黔	-11.4799
傚	-11.4804
琖	-11.4811
冲	-11.4841
璂	-11.4846
惕	-11.4847
盍	-11.4848
擔	-11.4849
蚳	-11.4849
棲	-11.4883
覃	-11.4885
餈	-11.4886
羈	-11.4889
丸	-11.4891
耡	-11.4893
臊	-11.4933
馘	-11.4966
幎	-11.4974
椇	-11.5008
恣	-11.5012
忒	-11.5013
獺	-11.5015
騶	-11.5043
押	-11.5044
摧	-11.5054
虣	-11.5059
憤	-11.5062
料	-11.5094
憾	-11.5106
誌	-11.5128
揮	-11.5176
檀	-11.5177
醇	-11.5183
勁	-11.519
弄	-11.5224
電	-11.5227
團	-11.5248
沉	-11.5267
壓	-11.5268
佞	-11.5271
匶	-11.5284
廋	-11.5304
壟	-11.5306
疊	-11.5307
祍	-11.5307
佳	-11.5312
鰥	-11.5314
䱷	-11.5321
鋝	-11.5324
畯	-11.5329
雒	-11.535
荷	-11.5351
晞	-11.5352
鄫	-11.5354
絡	-11.5356
畮	-11.5368
刉	-11.5395
髲	-11.5396
枵	-11.5402
隮	-11.5406
䘏	-11.5426
琅	-11.5429
挩	-11.5435
雛	-11.5438
幘	-11.5439
樽	-11.5439
昵	-11.5442
瓠	-11.5442
掠	-11.5443
溲	-11.5454
寮	-11.5475
庪	-11.5482
愿	-11.5482
彪	-11.5486
挹	-11.5528
蝸	-11.5559
偝	-11.5571
演	-11.5574
腵	-11.5575
翬	-11.5592
秫	-11.5593
怡	-11.5612
逾	-11.562
􁆡	-11.5664
膱	-11.5665
揭	-11.5666
緜	-11.5669
刖	-11.5669
舛	-11.5673
群	-11.5674
駹	-11.5705
尅	-11.5706
吁	-11.5708
徂	-11.571
冇	-11.5711
媚	-11.5711
豺	-11.5714
羸	-11.5715
潰	-11.5722
阱	-11.5727
8	-11.5737
㨗	-11.5761
齧	-11.5762
冗	-11.5763
庛	-11.5797
㓙	-11.5801
畎	-11.5811
矧	-11.585
渳	-11.589
螻	-11.5896
毗	-11.5898
胷	-11.5899
詹	-11.5939
巖	-11.594
墾	-11.5941
稌	-11.5943
「	-11.5946
蠡	-11.5947
仙	-11.5982
芹	-11.5988
腯	-11.5988
綆	-11.5993
瑜	-11.5995
潞	-11.6011
甗	-11.6038
縳	-11.6039
郢	-11.6041
芡	-11.6042
縰	-11.6042
蠧	-11.6043
鑾	-11.6072
隍	-11.6078
穉	-11.6081
迨	-11.6081
婣	-11.6082
膞	-11.6082
礪	-11.6085
阮	-11.6086
紵	-11.6088
薺	-11.6089
錞	-11.6119
㕔	-11.6122
亾	-11.6126
萍	-11.6128
敞	-11.6128
酎	-11.6129
亶	-11.6129
蝗	-11.6167
夔	-11.6176
這	-11.6185
袴	-11.6217
鞞	-11.6222
托	-11.6223
駔	-11.623
覇	-11.6239
册	-11.6262
禧	-11.6264
諂	-11.6266
祕	-11.6266
涿	-11.6269
鬬	-11.6271
鬐	-11.6272
那	-11.6275
岸	-11.6277
鈇	-11.6279
胸	-11.628
韗	-11.6293
糶	-11.6301
船	-11.6311
曳	-11.6312
褎	-11.6313
穰	-11.6317
隣	-11.6319
懋	-11.632
矰	-11.632
瞭	-11.6324
寐	-11.6324
臥	-11.6328
聿	-11.6358
侇	-11.6362
湊	-11.6363
啼	-11.6365
𫉬	-11.6369
譯	-11.6413
粲	-11.6417
卺	-11.6418
慟	-11.6419
怵	-11.642
酹	-11.642
寤	-11.642
卣	-11.6425
愾	-11.6426
熾	-11.6428
禎	-11.6458
旃	-11.6466
甄	-11.6467
閟	-11.6467
件	-11.6506
秅	-11.6509
譙	-11.6511
鏗	-11.6511
台	-11.6512
紃	-11.6519
絢	-11.6521
簜	-11.6524
牌	-11.6549
縛	-11.6561
纔	-11.6565
撞	-11.6565
醳	-11.6573
麷	-11.6607
冩	-11.6608
吝	-11.661
頥	-11.661
淅	-11.6611
央	-11.6614
搜	-11.6658
脇	-11.6661
綂	-11.6661
鬠	-11.6661
庳	-11.6662
粤	-11.6664
耿	-11.6665
暘	-11.6676
眷	-11.6704
剪	-11.6706
蜉	-11.6708
蟈	-11.6719
凰	-11.6725
蕪	-11.6755
纛	-11.6758
睢	-11.6761
潮	-11.6761
碎	-11.6765
膷	-11.6765
擭	-11.6778
膮	-11.6802
芝	-11.6805
槁	-11.6812
瑗	-11.6812
虗	-11.6816
勵	-11.6818
禨	-11.6854
匣	-11.6859
皂	-11.6864
徭	-11.6869
蝕	-11.6873
贍	-11.6908
亹	-11.6911
孳	-11.6915
芮	-11.6916
酪	-11.6918
耐	-11.6919
霆	-11.693
槱	-11.6959
翠	-11.6961
刈	-11.6964
窺	-11.6966
拚	-11.6967
㽔	-11.6968
茆	-11.6972
縚	-11.6974
迆	-11.6974
刄	-11.6978
噍	-11.699
劵	-11.7013
倪	-11.7014
䋲	-11.7014
曜	-11.7021
氊	-11.7022
憎	-11.7022
旞	-11.7025
綵	-11.7064
鞔	-11.7065
簷	-11.7068
蘋	-11.7071
殄	-11.7071
茢	-11.7108
咳	-11.7118
俶	-11.712
產	-11.712
竄	-11.7122
豬	-11.7124
棣	-11.7124
麓	-11.7124
雝	-11.7124
洩	-11.7128
篠	-11.7129
愠	-11.713
杝	-11.7161
庀	-11.7166
聫	-11.7175
効	-11.7175
陘	-11.7176
鍭	-11.7179
鷖	-11.7179
焫	-11.7186
梱	-11.7189
紇	-11.7216
村	-11.7219
沖	-11.7222
笮	-11.7222
紡	-11.7225
鷙	-11.7229
皿	-11.7229
緅	-11.7247
梠	-11.7265
葆	-11.7268
帽	-11.7274
毀	-11.7277
擣	-11.7283
諜	-11.7286
堲	-11.7286
軨	-11.7309
䵄	-11.7325
鐙	-11.7329
顓	-11.7329
帑	-11.7331
麕	-11.7331
鮒	-11.7332
杭	-11.7336
漫	-11.7341
桯	-11.7365
拄	-11.7379
奭	-11.7385
兢	-11.7386
胉	-11.7387
狥	-11.739
汜	-11.7397
箸	-11.7398
裸	-11.7401
柘	-11.7443
墟	-11.7447
寗	-11.7494
贖	-11.7494
鍛	-11.7497
慨	-11.7497
骸	-11.7498
悽	-11.7501
悅	-11.7502
斲	-11.751
笭	-11.7536
煬	-11.7542
湘	-11.7543
讒	-11.7553
竿	-11.7554
詭	-11.7555
瞍	-11.7557
鳶	-11.7558
鱻	-11.7569
畷	-11.7573
驛	-11.7594
寰	-11.7594
猷	-11.7595
苹	-11.7595
牘	-11.76
虙	-11.7603
靁	-11.7613
釡	-11.7646
貟	-11.7652
傑	-11.7662
鉏	-11.7663
鎭	-11.7665
駐	-11.7698
轄	-11.7699
蟻	-11.7715
坏	-11.7716
杯	-11.7718
慊	-11.772
掉	-11.7723
袵	-11.7724
赬	-11.776
樵	-11.7761
臐	-11.7762
翕	-11.7765
祜	-11.7767
沔	-11.7769
餅	-11.777
響	-11.7771
悞	-11.7772
薇	-11.7773
裾	-11.7778
埴	-11.7783
鄒	-11.7819
臻	-11.782
垼	-11.7822
楯	-11.7822
輮	-11.7825
帀	-11.7828
快	-11.7828
銷	-11.7831
鞻	-11.7835
巍	-11.7882
倮	-11.7884
脈	-11.7885
龠	-11.7891
捲	-11.7922
蚍	-11.7932
挑	-11.7934
羃	-11.7934
點	-11.7935
粹	-11.7937
芾	-11.7938
臼	-11.7938
歷	-11.794
粒	-11.7942
劫	-11.7945
翳	-11.7946
秃	-11.7948
㬥	-11.795
煌	-11.798
罽	-11.7988
䧟	-11.7995
遮	-11.7995
翊	-11.8038
恆	-11.8047
槨	-11.8053
餙	-11.8054
懇	-11.8055
拍	-11.8061
餒	-11.8065
梗	-11.8066
爇	-11.8094
炤	-11.8095
囷	-11.8105
鐏	-11.8107
淸	-11.8111
仆	-11.8114
羌	-11.8159
搔	-11.8162
幔	-11.8164
劾	-11.8166
挫	-11.8167
餓	-11.8168
䞓	-11.817
蜩	-11.8172
㤙	-11.8218
貿	-11.823
劔	-11.823
浹	-11.8231
轐	-11.8238
淄	-11.827
綽	-11.8273
覬	-11.8284
臠	-11.8287
惚	-11.8287
㪚	-11.8295
畱	-11.8338
腶	-11.834
杓	-11.8343
覈	-11.8344
綜	-11.8346
儳	-11.8346
朐	-11.8347
穜	-11.8349
㲈	-11.8353
怍	-11.8354
攢	-11.8384
龕	-11.8389
觜	-11.8393
兊	-11.8401
頽	-11.8403
僑	-11.8407
伶	-11.8411
剽	-11.8424
郁	-11.8454
𬒮	-11.8458
緆	-11.8462
鍼	-11.8466
畋	-11.8508
声	-11.8517
禒	-11.8517
阪	-11.8524
頎	-11.8525
頑	-11.8528
做	-11.8532
燅	-11.8573
浚	-11.8574
儆	-11.8578
紺	-11.8583
綢	-11.8588
昇	-11.863
叟	-11.8637
髤	-11.8637
犒	-11.8643
踣	-11.865
阡	-11.8668
『	-11.8673
筠	-11.8696
窒	-11.8701
稑	-11.8707
喙	-11.8707
攫	-11.8711
蟹	-11.8711
莎	-11.8717
懾	-11.8717
媯	-11.8753
畚	-11.8755
兌	-11.876
葅	-11.8761
杵	-11.8764
贅	-11.8766
紖	-11.8773
彗	-11.8802
瘳	-11.8817
遑	-11.8824
憐	-11.8825
縶	-11.8825
飮	-11.8826
幓	-11.8826
幞	-11.8828
櫟	-11.8836
眾	-11.8849
膉	-11.8893
跳	-11.8893
匰	-11.8893
稚	-11.8949
另	-11.8949
黷	-11.8951
茇	-11.8952
謗	-11.8954
駱	-11.8961
覘	-11.8965
』	-11.898
捝	-11.9006
驁	-11.9008
鞂	-11.9009
薰	-11.9009
現	-11.9014
㐮	-11.9014
罄	-11.9019
鏄	-11.9023
醖	-11.9024
擢	-11.9068
層	-11.9073
劭	-11.9075
璣	-11.9076
髠	-11.9087
涵	-11.9087
撟	-11.9097
孑	-11.9136
莠	-11.9138
剝	-11.9139
釜	-11.9139
虜	-11.914
猗	-11.9142
刼	-11.9199
麴	-11.9207
慾	-11.9207
輢	-11.9207
斁	-11.9207
飴	-11.9213
蠯	-11.9214
岷	-11.9253
耤	-11.9257
蚩	-11.9265
培	-11.9272
螟	-11.9272
蘧	-11.9273
晳	-11.9274
煦	-11.9275
寂	-11.9275
蔓	-11.9276
滓	-11.9282
哨	-11.9314
絅	-11.933
慘	-11.9334
㐫	-11.9335
鉉	-11.9339
欄	-11.9341
袝	-11.9342
輲	-11.939
駙	-11.9392
錐	-11.9392
疲	-11.9396
桁	-11.9396
淆	-11.9396
護	-11.9396
檜	-11.9397
鑣	-11.9399
箎	-11.9401
砥	-11.9403
􁉛	-11.9406
椸	-11.9407
㤗	-11.9461
樿	-11.9469
斾	-11.9471
撮	-11.9471
鍜	-11.9472
壑	-11.9475
旊	-11.9481
蔟	-11.9487
欬	-11.9517
挂	-11.9527
鈔	-11.9528
冨	-11.9528
囯	-11.9531
刷	-11.9534
頼	-11.9535
舘	-11.9535
仄	-11.954
駵	-11.9593
鈍	-11.9595
縠	-11.9598
賚	-11.9599
㰱	-11.9599
聊	-11.9602
燾	-11.9603
嶡	-11.9603
吞	-11.9604
梡	-11.9604
裝	-11.9604
篹	-11.9611
恙	-11.9658
汗	-11.9659
廓	-11.9667
朌	-11.9675
坡	-11.9685
逋	-11.9718
歉	-11.9726
掾	-11.9726
䜴	-11.9732
幃	-11.9788
澶	-11.9792
戀	-11.9797
熒	-11.98
衎	-11.9802
鞉	-11.9803
肌	-11.9804
襟	-11.9813
炬	-11.9854
焞	-11.9855
踖	-11.9863
瑚	-11.9866
堩	-11.9866
貼	-11.9868
蹶	-11.9869
鐡	-11.987
淖	-11.9877
黏	-11.9883
麇	-11.9891
婺	-11.9926
鏡	-11.9928
蒨	-11.9931
榜	-11.9931
諮	-11.9936
夹	-11.9939
拙	-11.994
券	-11.994
圄	-11.9943
郕	-11.9946
捶	-11.9947
湅	-11.9967
募	-11.9991
疵	-11.9998
查	-12.0001
芸	-12.0003
插	-12.0003
殛	-12.0007
閻	-12.0007
甯	-12.0008
粻	-12.0009
沱	-12.0021
騑	-12.0068
靑	-12.0071
揷	-12.0073
莅	-12.0075
撤	-12.0077
喧	-12.0079
逞	-12.0081
囹	-12.0082
髢	-12.0084
匙	-12.0086
簇	-12.0134
浦	-12.0138
譁	-12.0142
犂	-12.0142
梐	-12.0143
㒒	-12.0145
誡	-12.0146
閼	-12.0147
茲	-12.0148
扣	-12.015
彄	-12.015
泠	-12.0152
廻	-12.0153
鄴	-12.0199
洮	-12.0207
斈	-12.0209
觵	-12.0212
禺	-12.0213
枑	-12.0214
儻	-12.0216
韐	-12.0216
騷	-12.0231
辝	-12.0282
迓	-12.0286
揃	-12.0286
售	-12.0289
鄊	-12.029
盲	-12.029
眼	-12.0291
騁	-12.0293
彜	-12.0294
茹	-12.0297
鰭	-12.0298
熏	-12.0299
挋	-12.0352
縑	-12.036
盝	-12.0365
攜	-12.0365
䐑	-12.0368
狭	-12.0369
啜	-12.0376
!	-12.038
俸	-12.0422
帖	-12.0424
䧏	-12.0424
挍	-12.0425
譴	-12.0429
眇	-12.0429
壮	-12.0431
炳	-12.0432
蔥	-12.0435
妬	-12.0437
遯	-12.0441
薤	-12.0497
褖	-12.05
剔	-12.0501
杅	-12.0504
囬	-12.0507
紾	-12.051
腠	-12.051
愁	-12.0512
饘	-12.0517
匐	-12.0518
匍	-12.0518
渥	-12.0525
漕	-12.0578
着	-12.0581
葺	-12.0582
簒	-12.0582
骹	-12.0583
鼠	-12.0586
搹	-12.0589
鍔	-12.0589
侀	-12.0592
䰞	-12.0592
璪	-12.0593
懌	-12.06
喚	-12.0649
襯	-12.065
塲	-12.0652
曼	-12.0652
㛰	-12.0653
趺	-12.0653
舁	-12.0655
闡	-12.0656
掔	-12.0656
啇	-12.0656
仂	-12.0661
誑	-12.0661
輂	-12.067
咡	-12.0723
褰	-12.0725
稀	-12.0726
塪	-12.0727
掛	-12.0729
侃	-12.0732
瑣	-12.0733
眞	-12.0733
稜	-12.0734
㧞	-12.0737
徬	-12.0741
篪	-12.0796
娵	-12.0797
􁏐	-12.0801
濵	-12.0803
繻	-12.0807
矇	-12.0809
糓	-12.081
劇	-12.081
囏	-12.0813
聦	-12.082
壎	-12.0866
甎	-12.0867
晡	-12.0869
構	-12.0872
儗	-12.0874
祴	-12.0874
屛	-12.0875
縈	-12.0879
詆	-12.088
禇	-12.094
摘	-12.095
娩	-12.0952
饉	-12.0953
陌	-12.0956
曩	-12.0957
軟	-12.0963
訴	-12.0965
洎	-12.0966
蜎	-12.0984
􁐋	-12.1001
仭	-12.1017
幡	-12.102
貔	-12.1026
鶴	-12.1026
擗	-12.1033
㤀	-12.1033
讇	-12.1033
釘	-12.1034
斉	-12.1034
嘻	-12.1036
椽	-12.1038
沴	-12.1038
慙	-12.1038
籑	-12.1038
刳	-12.104
鞀	-12.11
匈	-12.11
皓	-12.1101
縜	-12.1106
栭	-12.1107
螢	-12.1109
乱	-12.1111
煥	-12.1111
樛	-12.1112
鯉	-12.1112
澗	-12.1115
臟	-12.112
窬	-12.1187
寃	-12.1187
蟜	-12.1191
傋	-12.1192
􁈘	-12.1195
莱	-12.1197
牂	-12.1198
黽	-12.1205
㝷	-12.1259
緡	-12.1265
錮	-12.1267
斑	-12.127
卝	-12.1273
繰	-12.1273
氾	-12.1277
泯	-12.1277
顙	-12.1337
朂	-12.1344
䄠	-12.1345
蹇	-12.1345
褧	-12.1348
換	-12.1348
叱	-12.135
鬌	-12.1355
韔	-12.1356
汴	-12.142
抄	-12.1421
芋	-12.1422
跋	-12.1422
肖	-12.1422
逓	-12.1424
閫	-12.1426
縦	-12.1426
詡	-12.1427
縪	-12.1429
秸	-12.1432
譚	-12.1432
佗	-12.1433
忝	-12.1434
渴	-12.1435
鄆	-12.1498
醷	-12.1505
鄢	-12.1505
潜	-12.1506
賖	-12.1506
昃	-12.1508
薊	-12.151
詎	-12.1515
疚	-12.1516
􁆴	-12.1523
嘽	-12.1537
隻	-12.1576
宼	-12.158
淪	-12.1582
䊷	-12.1582
窻	-12.1588
剏	-12.1589
􁈹	-12.1591
雹	-12.1593
曵	-12.1593
谿	-12.1593
撢	-12.1598
𤯝	-12.1599
蹜	-12.1599
禂	-12.1606
朗	-12.1662
靧	-12.1664
彚	-12.1664
稯	-12.1669
洙	-12.1669
逝	-12.1673
渙	-12.1675
覸	-12.1676
鼛	-12.1679
窟	-12.168
彖	-12.1748
疥	-12.1755
鍚	-12.1757
轛	-12.1828
菙	-12.1829
摳	-12.1829
挟	-12.1831
卞	-12.1832
堤	-12.1836
寖	-12.1838
尨	-12.1842
燮	-12.1843
憃	-12.1844
揺	-12.1913
闓	-12.1915
聃	-12.1915
蟠	-12.1916
伉	-12.1919
叄	-12.1919
縂	-12.1919
厝	-12.192
耼	-12.1921
淨	-12.1924
渝	-12.1925
䕃	-12.1927
眩	-12.193
􁊾	-12.1936
翮	-12.1938
韲	-12.1938
滄	-12.1986
袘	-12.1994
坦	-12.1996
梲	-12.1999
唁	-12.2001
璉	-12.2002
澆	-12.2008
澹	-12.2009
躡	-12.2012
轘	-12.202
盬	-12.2029
焌	-12.2072
暉	-12.2081
唾	-12.2084
藨	-12.2087
倖	-12.209
兑	-12.209
藿	-12.209
蠢	-12.209
詒	-12.2092
穡	-12.2093
鑽	-12.2093
鑚	-12.2094
稠	-12.2095
罹	-12.2096
橘	-12.2098
溽	-12.2101
鷺	-12.2107
嶓	-12.2122
􁇲	-12.2171
孩	-12.2174
菱	-12.2174
晁	-12.2175
咺	-12.2176
轢	-12.2183
凷	-12.2185
萇	-12.2192
怯	-12.2195
璁	-12.2248
椌	-12.2257
邳	-12.2258
諦	-12.226
豭	-12.226
糅	-12.2263
恂	-12.2264
驩	-12.2268
芽	-12.2268
謐	-12.2273
渚	-12.2275
恬	-12.2277
阤	-12.2277
鋌	-12.2277
媧	-12.228
皡	-12.2343
祛	-12.2347
廼	-12.2349
邕	-12.2349
杏	-12.2351
蘓	-12.2351
焄	-12.2351
鍪	-12.2353
茫	-12.2353
嫗	-12.2355
桷	-12.2355
劬	-12.2356
拲	-12.2363
儕	-12.2366
骴	-12.2367
剰	-12.2428
恢	-12.2432
捌	-12.2434
捐	-12.2435
霑	-12.2437
樴	-12.2437
騋	-12.244
鬽	-12.2441
庋	-12.2443
床	-12.2444
雊	-12.2445
黿	-12.2447
淇	-12.2447
匽	-12.2448
肸	-12.2449
戞	-12.2451
匄	-12.2454
滫	-12.2457
􁀎	-12.2477
沭	-12.252
瀦	-12.2521
剖	-12.2524
襴	-12.2524
燈	-12.2525
胔	-12.2528
稔	-12.2529
翹	-12.253
臬	-12.2532
裙	-12.2532
崧	-12.2532
献	-12.2532
脆	-12.2536
瘦	-12.2537
靲	-12.2537
汧	-12.2603
欵	-12.2612
阞	-12.2613
莢	-12.2616
媿	-12.2617
俑	-12.2617
芐	-12.2618
跨	-12.2618
睫	-12.2619
彩	-12.2621
嚭	-12.2621
郯	-12.2625
盂	-12.2625
迅	-12.2629
茭	-12.2642
碣	-12.2698
栽	-12.2702
漠	-12.2707
鷃	-12.2708
𧖟	-12.271
邍	-12.2713
貊	-12.2713
墐	-12.2713
綅	-12.2714
苐	-12.2715
靮	-12.2716
諛	-12.2718
玷	-12.2719
喝	-12.2765
埒	-12.2785
雋	-12.2796
翻	-12.2798
腦	-12.2798
踦	-12.2799
吟	-12.2802
棠	-12.2812
溠	-12.2873
嘔	-12.288
竪	-12.2887
莘	-12.2887
評	-12.2889
沾	-12.2895
燠	-12.2898
懽	-12.2898
軰	-12.2899
棼	-12.29
䜛	-12.2903
椒	-12.2904
聵	-12.2906
皽	-12.2914
駑	-12.2961
蠙	-12.2979
瞢	-12.2983
揲	-12.2984
菴	-12.2987
酷	-12.2988
変	-12.299
醙	-12.299
枳	-12.2991
羆	-12.2991
輖	-12.2992
跂	-12.2998
傴	-12.3005
檠	-12.301
睇	-12.3073
袠	-12.3075
僬	-12.3079
灸	-12.3083
瓢	-12.3084
瑀	-12.3085
蛟	-12.3086
趍	-12.3086
啻	-12.3087
覡	-12.309
恍	-12.3091
袧	-12.3095
嗚	-12.3174
迤	-12.3175
孛	-12.3176
慿	-12.3176
稲	-12.3178
攀	-12.3179
鍰	-12.3179
澌	-12.3183
鄣	-12.3183
罘	-12.3183
甓	-12.3184
椅	-12.3185
砌	-12.3186
㦯	-12.3187
纖	-12.3191
帤	-12.322
迺	-12.3267
埃	-12.3268
沓	-12.3271
厄	-12.3272
櫓	-12.3273
硩	-12.3273
牾	-12.3275
狠	-12.3276
庮	-12.3277
胞	-12.3278
認	-12.3279
璆	-12.3279
㸔	-12.3281
鳧	-12.3286
欘	-12.3336
餐	-12.3361
蛾	-12.3363
袞	-12.3366
駘	-12.337
窄	-12.337
偯	-12.3371
瘧	-12.3372
蜂	-12.3378
毉	-12.339
催	-12.3457
岡	-12.3464
劄	-12.3464
琚	-12.3469
筩	-12.3469
腫	-12.347
萎	-12.3471
挎	-12.3471
諍	-12.3473
昻	-12.3473
槷	-12.3475
磋	-12.3475
掬	-12.3477
楽	-12.348
􁅯	-12.3481
櫺	-12.3549
玖	-12.355
繖	-12.3554
拯	-12.3558
橛	-12.356
洟	-12.3561
霄	-12.3563
株	-12.3563
伎	-12.3567
旺	-12.3567
玦	-12.3569
僮	-12.357
枇	-12.3571
摠	-12.3571
慄	-12.3571
啗	-12.3572
燂	-12.3572
襵	-12.3574
迪	-12.3574
湎	-12.3597
㡛	-12.3599
櫕	-12.3636
哈	-12.3645
霧	-12.3658
腋	-12.3663
謫	-12.3663
珮	-12.3663
昂	-12.3667
酈	-12.3668
襮	-12.367
矍	-12.3672
宄	-12.3673
埤	-12.3674
輶	-12.3674
醓	-12.3675
觿	-12.3676
縊	-12.3681
鼃	-12.3686
漚	-12.3695
批	-12.3755
琳	-12.3762
縻	-12.3765
耉	-12.3767
牴	-12.3768
洵	-12.3769
俄	-12.3769
錡	-12.3772
枌	-12.3774
戛	-12.3776
蓺	-12.3777
翨	-12.3778
紲	-12.3791
貓	-12.3793
匴	-12.3858
崖	-12.3867
麑	-12.3869
倘	-12.3871
撙	-12.3871
􁐂	-12.3871
齏	-12.3873
詻	-12.3873
諠	-12.3875
卄	-12.3882
遰	-12.3962
猩	-12.3962
繘	-12.3964
譟	-12.3965
欹	-12.3966
控	-12.397
沸	-12.397
畬	-12.3977
溼	-12.3977
夸	-12.3978
紝	-12.3979
笞	-12.3979
枷	-12.3981
䰟	-12.3981
瑤	-12.3988
珈	-12.3989
晜	-12.4058
纋	-12.4071
顏	-12.4073
亘	-12.4073
篴	-12.4075
蘆	-12.4075
塘	-12.4077
擐	-12.408
憫	-12.408
燿	-12.4082
羇	-12.409
汰	-12.4092
諄	-12.4092
欎	-12.4098
吸	-12.4104
絻	-12.418
噬	-12.418
絫	-12.4181
餉	-12.4185
萁	-12.4185
輜	-12.4186
蔆	-12.419
拆	-12.4191
泆	-12.4193
豋	-12.4194
擎	-12.4261
皫	-12.4286
僨	-12.4286
穧	-12.4286
庌	-12.4287
簎	-12.4287
尻	-12.4289
打	-12.429
猥	-12.4291
薻	-12.4292
腢	-12.4293
滙	-12.4296
戢	-12.4301
僾	-12.4302
琊	-12.4379
縏	-12.4388
奐	-12.4389
闥	-12.4393
𨼆	-12.4395
悴	-12.4396
研	-12.4397
酨	-12.44
洲	-12.4404
抉	-12.4404
􁇎	-12.4405
邠	-12.4486
氛	-12.4495
凑	-12.45
轔	-12.4501
㪺	-12.4502
峰	-12.4503
鑠	-12.4504
蚓	-12.4504
韽	-12.4506
繳	-12.4507
遶	-12.451
䕩	-12.4512
㓕	-12.4513
蒍	-12.4518
恚	-12.4519
邶	-12.452
窔	-12.4602
輁	-12.4607
彷	-12.4612
軛	-12.4613
溷	-12.4618
脣	-12.4618
憶	-12.4618
䑓	-12.4621
㳟	-12.4626
沼	-12.4627
獀	-12.4627
鋤	-12.4628
幨	-12.4656
苓	-12.4718
葭	-12.4726
斫	-12.4727
映	-12.4727
話	-12.473
咽	-12.473
龎	-12.4731
貲	-12.4738
咤	-12.4743
豝	-12.4834
韝	-12.4836
膽	-12.4836
顚	-12.4837
卭	-12.4838
頡	-12.4839
串	-12.4841
鯁	-12.4844
僥	-12.4844
頷	-12.4845
杪	-12.4845
耘	-12.4846
梢	-12.4846
孜	-12.4846
揫	-12.4847
螽	-12.4848
僃	-12.4856
愀	-12.4937
梯	-12.4941
榻	-12.4943
潼	-12.4947
叉	-12.4947
冷	-12.4952
鋸	-12.4953
鱉	-12.4956
翭	-12.4957
义	-12.496
綖	-12.4965
稹	-12.4966
酅	-12.4969
縝	-12.497
箾	-12.4972
簮	-12.506
濱	-12.5065
鄖	-12.5066
掲	-12.5066
泊	-12.5068
隳	-12.5068
雌	-12.5071
蹲	-12.5071
罻	-12.5075
贛	-12.5081
𦂳	-12.5083
搤	-12.5085
絼	-12.5088
霖	-12.517
愽	-12.5175
魴	-12.5178
様	-12.5178
鬚	-12.5179
靳	-12.518
癢	-12.5184
迥	-12.5185
叠	-12.5186
昀	-12.5188
襓	-12.5189
袼	-12.5193
讞	-12.5194
肢	-12.5194
蔞	-12.5198
郜	-12.52
衻	-12.5293
堕	-12.5295
歐	-12.5296
鴞	-12.5299
跬	-12.5303
礱	-12.5304
箄	-12.5308
揣	-12.5312
蘖	-12.5313
睆	-12.5323
羗	-12.5405
鐕	-12.5415
渜	-12.5415
巵	-12.5415
彥	-12.5416
斐	-12.5417
値	-12.5419
縉	-12.5419
謟	-12.5425
𬒳	-12.5426
瑉	-12.5426
蟀	-12.5428
蟋	-12.5428
箈	-12.5432
蝦	-12.5433
罝	-12.5439
噦	-12.5527
藟	-12.553
坂	-12.5534
䄙	-12.5538
浄	-12.5539
狸	-12.554
紓	-12.5541
耋	-12.5542
湮	-12.5546
聳	-12.5548
掇	-12.555
餽	-12.5552
黲	-12.5553
磽	-12.5554
踧	-12.5555
娑	-12.556
汋	-12.5566
椉	-12.5633
潭	-12.5644
顥	-12.5653
觽	-12.5655
駢	-12.5657
槍	-12.5657
驢	-12.5657
苕	-12.566
窋	-12.5663
琦	-12.5663
𨗳	-12.5669
醵	-12.5672
蝝	-12.5674
緻	-12.5674
佟	-12.5767
巂	-12.5774
緬	-12.5776
鵝	-12.578
顗	-12.5781
釂	-12.5782
麀	-12.5782
泌	-12.5782
戯	-12.5783
襈	-12.5784
鬋	-12.5784
閶	-12.5785
碧	-12.5787
慼	-12.5788
騫	-12.5788
艶	-12.5793
遄	-12.5793
㨿	-12.5795
耽	-12.5795
轊	-12.5796
漉	-12.5797
劌	-12.58
窖	-12.5805
籧	-12.5809
瀘	-12.5884
鞍	-12.5896
哩	-12.5896
鵞	-12.5899
勛	-12.5903
瑁	-12.5904
裒	-12.5905
宙	-12.5907
蚯	-12.5913
葑	-12.5913
暖	-12.5916
瀡	-12.592
鼉	-12.5922
㳿	-12.5932
戕	-12.5932
卅	-12.6018
歇	-12.6028
偉	-12.6034
殫	-12.6035
熛	-12.6036
䳺	-12.6039
摺	-12.6039
烟	-12.604
訥	-12.6041
嚻	-12.6046
悶	-12.6046
闉	-12.6046
聾	-12.6047
憊	-12.6047
盱	-12.6051
廸	-12.6053
摝	-12.606
嚏	-12.6149
彬	-12.6155
贓	-12.6156
駣	-12.6157
洺	-12.6161
窌	-12.6161
顒	-12.6164
釗	-12.6165
諶	-12.6166
萹	-12.6168
企	-12.617
炫	-12.617
涓	-12.6171
跌	-12.6174
㳂	-12.6175
亊	-12.6176
譎	-12.6176
垸	-12.6177
􁁷	-12.6178
燬	-12.628
鬊	-12.6282
翌	-12.6283
軼	-12.6289
祺	-12.6289
霽	-12.6291
扁	-12.6293
咫	-12.6294
坋	-12.6296
嘯	-12.6297
個	-12.6297
恠	-12.6298
芰	-12.63
擖	-12.6301
幢	-12.6301
齻	-12.6303
瓀	-12.6305
譖	-12.6306
抌	-12.6307
􁇡	-12.6412
萭	-12.6416
拓	-12.6419
簝	-12.642
昉	-12.6423
氓	-12.6424
萼	-12.6425
弘	-12.6425
皐	-12.6426
盪	-12.6426
鱄	-12.6426
懦	-12.6426
燼	-12.6427
毼	-12.6429
鶡	-12.6432
氈	-12.6432
綼	-12.6433
嘑	-12.6442
郟	-12.6442
悍	-12.6442
甐	-12.6445
慌	-12.6552
寥	-12.6552
伴	-12.6552
燖	-12.6556
戟	-12.6557
謳	-12.6558
薫	-12.6559
呵	-12.6561
肜	-12.6562
黯	-12.6564
糠	-12.6564
訢	-12.6564
濤	-12.6564
傭	-12.6564
幟	-12.6565
疐	-12.6566
針	-12.6568
虫	-12.657
飼	-12.657
鮨	-12.6572
耑	-12.6573
蜮	-12.6579
劀	-12.6583
貕	-12.6664
痺	-12.6685
鴨	-12.669
箧	-12.669
粘	-12.6691
賽	-12.6692
瑾	-12.6692
瑒	-12.6694
忖	-12.6695
槖	-12.6697
翅	-12.6697
湼	-12.6698
黥	-12.6699
抔	-12.6699
瘖	-12.67
賒	-12.6703
鮐	-12.6703
蹴	-12.6703
怙	-12.6703
瀍	-12.6703
埳	-12.6704
湑	-12.6714
轚	-12.6715
柒	-12.6781
虖	-12.6813
蓌	-12.6817
堆	-12.6826
称	-12.6829
垓	-12.6831
桞	-12.6831
擸	-12.6833
怖	-12.6834
隗	-12.6835
兠	-12.6835
仿	-12.6838
暱	-12.684
䨇	-12.684
慥	-12.6844
廿	-12.6961
譔	-12.6967
荔	-12.6968
鼐	-12.697
軋	-12.697
惸	-12.6973
憔	-12.6973
誇	-12.6973
踝	-12.6974
筦	-12.6975
祟	-12.6975
徯	-12.6976
絘	-12.6977
梜	-12.6978
璿	-12.698
襡	-12.6981
滔	-12.6981
蟇	-12.6982
襍	-12.6982
糔	-12.6992
疢	-12.6992
嶧	-12.7088
蜱	-12.7101
藹	-12.7105
塑	-12.7106
恝	-12.7106
鞋	-12.7108
䞇	-12.711
湢	-12.7111
縕	-12.7112
蜜	-12.7112
捄	-12.7112
蓤	-12.7113
豵	-12.7113
瑩	-12.7114
檻	-12.7118
很	-12.7119
謡	-12.7119
毖	-12.712
㒺	-12.712
捭	-12.712
螣	-12.7124
嘂	-12.7129
絕	-12.7131
鐓	-12.7245
鬵	-12.7246
淤	-12.7251
鎰	-12.7252
遫	-12.7252
蜯	-12.7253
兜	-12.7254
蓑	-12.7255
䜟	-12.7256
搆	-12.7256
詈	-12.7257
浣	-12.7258
峯	-12.7259
埸	-12.7261
䂓	-12.7262
峙	-12.7263
橭	-12.7263
掎	-12.7264
皞	-12.7265
噩	-12.7267
鵒	-12.7271
餧	-12.7278
牉	-12.7385
塔	-12.7387
貅	-12.7393
鄱	-12.7397
嘒	-12.7397
圂	-12.7398
靴	-12.7399
奬	-12.7399
緋	-12.7399
鐶	-12.7399
穛	-12.74
峩	-12.74
堰	-12.7401
扺	-12.7402
剗	-12.7402
虺	-12.7403
檡	-12.7404
删	-12.7405
䃂	-12.7405
蚌	-12.7406
腍	-12.7414
斆	-12.7534
稺	-12.7539
帕	-12.754
忱	-12.7545
杌	-12.7549
聒	-12.7551
僢	-12.7551
錘	-12.7552
訣	-12.7553
豊	-12.7554
晰	-12.7554
断	-12.7555
豸	-12.7556
蒻	-12.7557
莩	-12.7557
騵	-12.7559
靷	-12.7559
輊	-12.7564
瑯	-12.7681
殂	-12.7687
晴	-12.7688
錙	-12.7688
乍	-12.769
僂	-12.769
蘩	-12.769
昺	-12.7693
臛	-12.7695
芑	-12.7696
倞	-12.7703
嫉	-12.7705
汨	-12.7705
筰	-12.7708
楛	-12.7708
㯺	-12.7709
珩	-12.7712
螳	-12.7839
邰	-12.784
璺	-12.7841
杳	-12.7842
𤾉	-12.7842
鄘	-12.7846
凊	-12.7847
墼	-12.7848
屦	-12.785
疕	-12.785
羝	-12.7851
佼	-12.7851
璵	-12.7852
緄	-12.7853
瀝	-12.7856
塹	-12.7857
楎	-12.7858
倀	-12.7859
脃	-12.786
䏻	-12.786
凛	-12.7862
恰	-12.7868
磚	-12.7868
揩	-12.7872
澨	-12.7872
喇	-12.7979
宓	-12.7994
嵎	-12.7995
拖	-12.7996
􁊌	-12.7998
敉	-12.7998
篾	-12.8
晟	-12.8001
森	-12.8001
糁	-12.8001
邯	-12.8003
豔	-12.8004
覦	-12.8005
両	-12.8005
猾	-12.8006
褐	-12.8007
梳	-12.801
􁎱	-12.801
觩	-12.801
漾	-12.8015
涑	-12.8019
懣	-12.8025
齘	-12.8029
觭	-12.8135
凋	-12.8149
瓘	-12.8151
柤	-12.8155
歃	-12.8158
闞	-12.8158
􁉖	-12.8159
瘡	-12.8159
詬	-12.816
杙	-12.8161
尖	-12.8163
檿	-12.8163
虵	-12.8166
涅	-12.8168
㪯	-12.8169
鸜	-12.8177
淶	-12.8294
奈	-12.8298
釵	-12.8303
㧁	-12.8304
襜	-12.8311
鴇	-12.8311
隤	-12.8311
楫	-12.8312
鳲	-12.8314
蓮	-12.8315
幭	-12.8316
揱	-12.8317
邀	-12.8318
猝	-12.8319
捉	-12.8322
罃	-12.8322
鵜	-12.8322
綘	-12.8324
佯	-12.8324
殈	-12.8324
臅	-12.8325
𫝑	-12.8326
壚	-12.8326
猫	-12.8343
耎	-12.8352
瀛	-12.8459
驃	-12.8461
鳱	-12.8468
㨒	-12.8471
惶	-12.8472
忤	-12.8472
臏	-12.8473
濓	-12.8475
藜	-12.848
偩	-12.848
屍	-12.848
塩	-12.8481
諺	-12.8482
癉	-12.8483
娠	-12.8485
痒	-12.8496
堦	-12.8497
􁉚	-12.8502
朶	-12.8621
唶	-12.8625
讖	-12.8625
簽	-12.8631
謔	-12.8633
攅	-12.8634
呻	-12.8635
詮	-12.8637
撎	-12.8638
遒	-12.8639
澧	-12.8642
玕	-12.8642
𥜗	-12.8643
滹	-12.8644
燦	-12.8644
唘	-12.8644
屐	-12.8644
魋	-12.8645
稰	-12.8645
菊	-12.8647
騏	-12.8651
喉	-12.8651
鞌	-12.8651
椿	-12.8651
泳	-12.8655
暁	-12.8658
嘘	-12.8663
嚼	-12.8676
蛸	-12.8788
雚	-12.879
捎	-12.8796
盩	-12.88
貙	-12.8801
􁎌	-12.8801
蕘	-12.8803
尒	-12.8803
暌	-12.8803
竾	-12.8804
訕	-12.8805
槌	-12.8807
綾	-12.8807
蒞	-12.8808
渤	-12.881
彿	-12.8811
攠	-12.8812
鴟	-12.8814
爍	-12.8815
爂	-12.8815
旤	-12.8818
藳	-12.8819
窶	-12.8821
睨	-12.8823
煉	-12.8826
呐	-12.8831
猴	-12.8832
痟	-12.8832
塴	-12.8833
㩀	-12.8972
栖	-12.8972
棃	-12.8974
鈐	-12.8975
涯	-12.8977
㢲	-12.8977
卹	-12.8978
橐	-12.8978
櫬	-12.8979
壼	-12.898
氂	-12.8982
犠	-12.8985
埏	-12.8985
擥	-12.8985
椘	-12.8985
渇	-12.8986
坑	-12.8987
玟	-12.8987
蹷	-12.8988
黶	-12.8989
蘜	-12.8989
吻	-12.8991
秪	-12.8992
悵	-12.8994
扐	-12.8994
稃	-12.8994
惌	-12.9001
罸	-12.9142
曁	-12.9145
踏	-12.9147
慧	-12.9148
啖	-12.9148
楗	-12.9149
飄	-12.9151
扛	-12.9151
畵	-12.9152
郈	-12.9152
纉	-12.9152
跲	-12.9154
憯	-12.9155
觕	-12.9159
妢	-12.9164
􁎦	-12.9311
闌	-12.9315
郰	-12.932
稿	-12.9323
徨	-12.9325
諝	-12.9326
蝓	-12.9326
糵	-12.9327
卬	-12.9327
殀	-12.9327
妊	-12.9332
袚	-12.9332
蕙	-12.9334
蛙	-12.9334
桶	-12.9338
狘	-12.9344
獶	-12.9367
涪	-12.9481
猋	-12.9491
廖	-12.9493
嫓	-12.9497
湜	-12.9501
翫	-12.9502
娛	-12.9503
悛	-12.9505
処	-12.9505
甀	-12.9506
麒	-12.9507
洧	-12.9507
苾	-12.9508
柟	-12.9509
犮	-12.9509
娀	-12.9511
嗛	-12.9514
獝	-12.952
驍	-12.9672
漯	-12.9672
檄	-12.9673
惷	-12.9678
叡	-12.9678
簚	-12.9679
忻	-12.968
擲	-12.9682
橦	-12.9682
剋	-12.9684
扼	-12.9684
龔	-12.9685
孥	-12.9685
纘	-12.9685
罅	-12.9685
婆	-12.9686
捂	-12.9687
勦	-12.9687
澀	-12.9687
宐	-12.9688
罵	-12.9689
篡	-12.9689
殞	-12.9689
褕	-12.9689
㬰	-12.9689
鄜	-12.9691
岑	-12.9691
肓	-12.9691
殰	-12.9694
柰	-12.9695
喟	-12.9697
剸	-12.9704
穅	-12.9705
楖	-12.9708
湟	-12.9849
菼	-12.9855
峽	-12.9863
兾	-12.9867
佔	-12.9867
鶻	-12.9868
址	-12.9869
榱	-12.9869
齓	-12.9871
鵙	-12.9872
愜	-12.9872
䃭	-12.9873
郇	-12.9874
璠	-12.9876
棁	-12.9877
漂	-12.9878
甽	-12.9878
闘	-12.9879
逄	-12.9879
堛	-12.988
觡	-12.988
隩	-12.988
餰	-12.988
眺	-12.9881
栝	-12.9883
衘	-12.9885
擕	-12.9886
淰	-12.989
歜	-12.9892
沍	-12.9894
獐	-12.9907
闐	-13.0044
瀾	-13.0053
緱	-13.0053
頮	-13.0056
噎	-13.0059
𣗳	-13.006
万	-13.0064
貂	-13.0064
廄	-13.0064
届	-13.0065
刅	-13.0065
妺	-13.0065
藃	-13.0066
緧	-13.0067
酤	-13.0071
弢	-13.0072
籬	-13.0076
喘	-13.0076
硬	-13.0076
𫀆	-13.0226
嶲	-13.0227
囗	-13.0228
滁	-13.0234
濰	-13.0234
梨	-13.0236
鱮	-13.0237
頊	-13.0238
跟	-13.0243
婿	-13.0245
巹	-13.0246
慁	-13.0246
刎	-13.0247
堳	-13.0247
猪	-13.025
棫	-13.0252
沫	-13.0254
蠟	-13.0256
犨	-13.0258
愕	-13.0258
椀	-13.0258
稗	-13.0259
諼	-13.026
蠖	-13.0263
赧	-13.0264
俴	-13.0269
筯	-13.0274
笱	-13.0275
楪	-13.0276
怗	-13.028
竣	-13.0432
璟	-13.0437
嶠	-13.044
𠂻	-13.0441
錧	-13.0444
飌	-13.0444
擒	-13.0446
紋	-13.0448
惓	-13.0448
軻	-13.0449
諐	-13.0449
鑰	-13.0449
鎗	-13.0449
繣	-13.045
緤	-13.045
洿	-13.0453
坅	-13.0458
殻	-13.046
竑	-13.0462
頺	-13.0463
懘	-13.0475
􁎭	-13.0479
琪	-13.0622
尫	-13.0624
瘉	-13.0634
鸚	-13.0634
哺	-13.0636
緶	-13.0636
竞	-13.0637
蜋	-13.0637
荏	-13.0638
溱	-13.0641
躰	-13.0642
堡	-13.0642
瑄	-13.0642
覯	-13.0643
頰	-13.0645
羿	-13.0646
臋	-13.0646
􁊿	-13.0648
購	-13.0648
潢	-13.0649
旻	-13.0649
掄	-13.065
鞫	-13.0651
閹	-13.0653
蛄	-13.0655
摲	-13.0655
翡	-13.0656
砮	-13.0656
莆	-13.0657
邲	-13.0657
刊	-13.0658
錠	-13.0661
濳	-13.0662
桌	-13.0664
薳	-13.0665
㪷	-13.0667
鈃	-13.0688
濼	-13.0836
鵡	-13.0838
藙	-13.0841
兗	-13.0845
歿	-13.0846
帙	-13.0847
駴	-13.0848
沬	-13.0849
䟦	-13.085
朏	-13.0853
覓	-13.0853
酆	-13.0853
淚	-13.0854
鎡	-13.0854
菏	-13.0854
噭	-13.0855
狃	-13.0857
薜	-13.0857
訐	-13.0857
穽	-13.0858
戺	-13.0858
𤨏	-13.0859
牓	-13.086
螭	-13.086
庵	-13.086
兀	-13.0862
毆	-13.0863
狡	-13.0864
鼷	-13.0865
寨	-13.0866
殱	-13.0867
嘬	-13.0868
態	-13.0872
躒	-13.0873
闚	-13.0873
裎	-13.0873
嗽	-13.0874
桺	-13.1032
撅	-13.1044
敂	-13.105
遘	-13.1052
抒	-13.1053
㝢	-13.1053
派	-13.1059
丱	-13.1059
摹	-13.1059
昜	-13.1059
軿	-13.1061
鐫	-13.1062
鏁	-13.1063
賾	-13.1063
紩	-13.1064
逭	-13.1066
缾	-13.1069
衅	-13.1069
鶬	-13.1069
傼	-13.1071
儔	-13.1071
楮	-13.1071
臀	-13.1071
幪	-13.1073
鬷	-13.1078
傀	-13.1079
橧	-13.1081
㓝	-13.1082
懥	-13.1084
􁈭	-13.1256
拉	-13.1262
曆	-13.1263
􁏉	-13.1264
躳	-13.1265
朓	-13.1268
侗	-13.127
禩	-13.1271
􁈍	-13.1272
餁	-13.1272
狁	-13.1277
廕	-13.128
睽	-13.1282
町	-13.1286
韌	-13.1287
顅	-13.1287
泐	-13.1293
黠	-13.1473
鍳	-13.1476
蘄	-13.1484
靾	-13.1484
䟫	-13.1484
呴	-13.1486
滲	-13.1488
媛	-13.1488
䓁	-13.1488
懃	-13.149
竦	-13.1491
冺	-13.1491
𣲖	-13.1492
酣	-13.1492
熲	-13.1493
婼	-13.1494
誚	-13.1494
縗	-13.1495
埓	-13.1496
熄	-13.1497
些	-13.1498
娭	-13.1499
勻	-13.15
柚	-13.15
澳	-13.15
㦲	-13.15
湄	-13.1501
蜺	-13.1501
髓	-13.1506
斡	-13.1699
袇	-13.1699
壠	-13.1701
袋	-13.1701
磐	-13.1707
緊	-13.1712
琯	-13.1713
倐	-13.1713
鯤	-13.1713
釣	-13.1714
𥙷	-13.1714
痁	-13.1714
檮	-13.1715
貰	-13.1715
暈	-13.1716
齕	-13.1718
潟	-13.1719
嚚	-13.1721
䈼	-13.1723
苃	-13.1725
碏	-13.1725
莝	-13.1725
玼	-13.1731
􁃛	-13.1733
䪐	-13.1743
􁊇	-13.1883
癃	-13.1917
沁	-13.193
蓱	-13.1934
齔	-13.1935
驥	-13.1935
蹤	-13.1936
綈	-13.1937
蛉	-13.1938
鷸	-13.1939
椵	-13.1941
僰	-13.1943
芭	-13.1943
爱	-13.1944
檍	-13.1945
僇	-13.1945
墊	-13.1945
塈	-13.1946
癰	-13.1946
菩	-13.1947
透	-13.1947
窓	-13.1948
𬞞	-13.1948
鄲	-13.1948
倩	-13.1949
腕	-13.1955
盃	-13.1958
澠	-13.1961
䃉	-13.1961
窕	-13.1962
鬈	-13.1963
厰	-13.2152
蓁	-13.2158
溯	-13.2166
秭	-13.2168
灘	-13.2169
佽	-13.2169
鎔	-13.217
渫	-13.217
轜	-13.2171
蹔	-13.2171
悱	-13.2172
閡	-13.2173
㓗	-13.2173
輳	-13.2176
琛	-13.2176
絙	-13.2177
瘁	-13.2178
捆	-13.2179
襪	-13.218
瘥	-13.218
猜	-13.2181
聆	-13.2181
綰	-13.2181
堥	-13.2182
尽	-13.2183
菫	-13.2187
瓬	-13.2189
愬	-13.2189
儘	-13.219
軶	-13.2193
秠	-13.2204
昶	-13.2386
装	-13.2394
喏	-13.2396
沅	-13.2399
辤	-13.24
昳	-13.2402
奨	-13.2402
篳	-13.2403
冏	-13.2405
𤦺	-13.2406
晢	-13.2407
輼	-13.2407
媢	-13.2407
撿	-13.2407
諟	-13.2409
紉	-13.241
箠	-13.241
櫻	-13.241
襁	-13.2411
頳	-13.2412
壌	-13.2413
眹	-13.2414
楨	-13.2415
竺	-13.2416
螫	-13.2416
堙	-13.2418
躃	-13.2419
龢	-13.2419
顆	-13.2419
稊	-13.242
詵	-13.242
島	-13.2421
孶	-13.2421
韈	-13.2424
齵	-13.2425
逖	-13.2426
嚃	-13.2442
澁	-13.2644
冄	-13.2644
嶷	-13.2645
为	-13.2645
彧	-13.2648
薠	-13.2649
梟	-13.2653
淬	-13.2653
祋	-13.2654
湫	-13.2654
糊	-13.2655
泚	-13.2656
逈	-13.2656
莤	-13.2657
犁	-13.2657
菓	-13.2658
駰	-13.2659
杉	-13.2659
莧	-13.266
袀	-13.266
屝	-13.2661
攬	-13.2662
嚕	-13.2664
眸	-13.2664
穏	-13.2666
穨	-13.2667
偞	-13.2668
􁌽	-13.2668
戱	-13.2669
旛	-13.2672
𣙜	-13.2674
眙	-13.2675
䥴	-13.2675
萯	-13.2682
鞄	-13.2698
􁂄	-13.2886
幛	-13.2887
侂	-13.2888
􁇦	-13.2888
騮	-13.2892
崑	-13.2895
搥	-13.2896
斞	-13.2896
昱	-13.2896
瀹	-13.2899
麏	-13.29
褓	-13.2901
仡	-13.2901
鼒	-13.2902
敇	-13.2902
闍	-13.2902
礦	-13.2904
讚	-13.2905
踴	-13.2906
畦	-13.2906
璇	-13.2906
諤	-13.2907
躓	-13.2908
呌	-13.2908
殮	-13.2909
掊	-13.2909
彎	-13.2911
鑴	-13.2911
擿	-13.2913
癈	-13.2915
摻	-13.2915
嬉	-13.2916
旭	-13.2917
毨	-13.2918
賫	-13.2918
􁉂	-13.292
瑳	-13.2924
玈	-13.2924
褊	-13.2925
唇	-13.2925
淂	-13.3147
皎	-13.3149
擴	-13.3151
牋	-13.3152
愊	-13.3153
穗	-13.3153
瞶	-13.3153
謏	-13.3154
􁐄	-13.3155
嘶	-13.3156
囟	-13.3156
蟊	-13.3156
酧	-13.3157
餚	-13.3158
戡	-13.3159
嗤	-13.316
椓	-13.316
蹋	-13.316
螔	-13.3161
俚	-13.3162
璩	-13.3162
葘	-13.3163
辵	-13.3163
倂	-13.3164
坻	-13.3164
貆	-13.3165
悮	-13.3166
鬣	-13.3166
泫	-13.3166
窐	-13.3169
薉	-13.317
𠯗	-13.3173
遡	-13.3175
匭	-13.3177
圯	-13.3178
歰	-13.3181
樗	-13.3184
􁋳	-13.3195
棷	-13.3196
票	-13.3408
畒	-13.3411
䍿	-13.3415
𤱔	-13.3416
鄄	-13.3419
佇	-13.3419
濠	-13.342
揀	-13.342
輬	-13.3423
娯	-13.3423
姤	-13.3423
蹟	-13.3423
翩	-13.3423
茝	-13.3424
偵	-13.3425
溜	-13.3426
爕	-13.3427
蠁	-13.343
犉	-13.3432
胤	-13.3434
耰	-13.3435
褾	-13.3435
菉	-13.3437
煞	-13.3438
鉗	-13.3441
髧	-13.3442
窈	-13.3443
酖	-13.3449
慍	-13.3458
峪	-13.3667
㽅	-13.3668
螵	-13.3673
鄗	-13.3674
閌	-13.368
岌	-13.3684
餱	-13.3685
珂	-13.3685
蚋	-13.3689
瑪	-13.3691
鎖	-13.3691
炷	-13.3692
畸	-13.3693
遹	-13.3693
㵼	-13.3694
饜	-13.3696
鮫	-13.3696
蹢	-13.3697
腑	-13.3698
崛	-13.3699
楘	-13.3701
净	-13.3701
廽	-13.3702
髣	-13.3703
銍	-13.3704
啄	-13.3706
卉	-13.3706
拇	-13.3706
宂	-13.3712
􁏿	-13.3717
偦	-13.3721
酗	-13.3721
灃	-13.3955
曄	-13.3956
荻	-13.3963
沇	-13.3964
勣	-13.3965
閠	-13.3966
丣	-13.3966
幧	-13.3967
濛	-13.3967
鄠	-13.3968
悚	-13.3969
宧	-13.397
廚	-13.397
樁	-13.397
漑	-13.3971
姞	-13.3972
廨	-13.3974
綫	-13.3975
駉	-13.3977
欝	-13.3978
覊	-13.3978
豁	-13.3978
砂	-13.398
醪	-13.398
慆	-13.3983
尩	-13.3983
餤	-13.3984
苻	-13.3985
徤	-13.3986
輠	-13.3986
默	-13.3987
棊	-13.3991
裓	-13.3992
鴿	-13.3999
螾	-13.4003
帴	-13.4003
异	-13.4237
邗	-13.4244
估	-13.4245
栒	-13.4246
瞎	-13.4247
揥	-13.4247
睠	-13.4248
頋	-13.4248
膟	-13.4249
伹	-13.425
謄	-13.425
鞾	-13.4251
窳	-13.4252
蜾	-13.4254
帔	-13.4254
臞	-13.4255
㗖	-13.4255
◍	-13.4257
勗	-13.4258
旡	-13.4258
醻	-13.4258
剩	-13.4259
曦	-13.4261
􁆳	-13.4261
撝	-13.4262
陬	-13.4262
懟	-13.4262
梩	-13.4262
髴	-13.4263
莪	-13.4263
佹	-13.4263
敶	-13.4264
灣	-13.4265
鬢	-13.4266
裻	-13.4266
赭	-13.4268
諉	-13.4269
膜	-13.4269
尙	-13.4274
崤	-13.4275
穩	-13.4276
𢷬	-13.4278
膘	-13.428
魌	-13.4538
䯤	-13.4539
徘	-13.4542
綻	-13.4543
眄	-13.4544
暄	-13.4544
舋	-13.4544
滴	-13.4545
芃	-13.4545
鄔	-13.4549
瓌	-13.4549
謾	-13.4551
蹊	-13.4553
􁉔	-13.4554
崐	-13.4555
觝	-13.4557
碭	-13.4557
襗	-13.4558
魅	-13.4558
凜	-13.4559
槪	-13.4559
䡖	-13.4559
剕	-13.4559
昫	-13.4559
饕	-13.4564
姫	-13.4565
戔	-13.4566
㮣	-13.4566
荑	-13.4569
搭	-13.4569
珉	-13.4569
脄	-13.457
茷	-13.4576
獼	-13.4579
甍	-13.4588
癠	-13.484
潯	-13.4844
徊	-13.4846
刜	-13.4846
斌	-13.4848
穪	-13.4849
晩	-13.485
弹	-13.4851
慇	-13.4852
豖	-13.4853
罩	-13.4854
厎	-13.4854
洶	-13.4854
􁇄	-13.4854
関	-13.4855
滂	-13.4856
詷	-13.4856
膿	-13.4857
檟	-13.4857
匵	-13.4858
焯	-13.4858
伾	-13.4859
迸	-13.4859
襂	-13.4859
终	-13.4859
漲	-13.486
款	-13.4862
纏	-13.4864
僵	-13.4864
涷	-13.4864
􁈞	-13.4864
椈	-13.4865
甜	-13.4865
蠆	-13.4868
挿	-13.4868
䔛	-13.4868
溓	-13.4869
週	-13.487
禝	-13.4872
郿	-13.4886
䐈	-13.4889
􁀫	-13.5138
嘷	-13.5151
継	-13.5157
厦	-13.5159
樅	-13.5159
冑	-13.516
拽	-13.516
荐	-13.516
鹺	-13.5161
单	-13.5163
鴾	-13.5163
喈	-13.5165
䵍	-13.5165
覧	-13.5166
趮	-13.5167
楢	-13.5167
秤	-13.5167
髹	-13.5168
􁑂	-13.5168
逍	-13.5168
䆒	-13.5169
傃	-13.5169
諳	-13.5172
睂	-13.5173
誹	-13.5173
黈	-13.5173
吠	-13.5173
皦	-13.5174
黹	-13.5174
僴	-13.5175
僊	-13.5175
冓	-13.5177
諗	-13.5178
籈	-13.5178
驤	-13.5179
胊	-13.5181
甌	-13.5183
扤	-13.5184
螺	-13.5184
咋	-13.5186
狙	-13.519
妤	-13.5465
阯	-13.5468
垤	-13.5479
樀	-13.5481
鷂	-13.5484
􁐑	-13.5486
琫	-13.5487
刁	-13.549
璑	-13.549
懵	-13.549
湩	-13.5491
茱	-13.5491
𡨕	-13.5493
丐	-13.5493
燃	-13.5493
詖	-13.5494
蹯	-13.5494
碈	-13.5496
簣	-13.5496
紬	-13.5496
餗	-13.5498
䦧	-13.5498
匀	-13.5498
誾	-13.5499
慚	-13.5499
穸	-13.55
霅	-13.5501
篨	-13.5503
倭	-13.551
峴	-13.5802
犍	-13.5807
𬎼	-13.5807
栻	-13.5808
袿	-13.5812
咈	-13.5817
䍷	-13.5818
茒	-13.5819
瞑	-13.582
訶	-13.582
■	-13.5821
柬	-13.5822
粮	-13.5822
叫	-13.5823
盒	-13.5823
􁏼	-13.5823
􁎚	-13.5824
竂	-13.5825
駞	-13.5826
絆	-13.5826
阸	-13.5826
喤	-13.5827
覔	-13.5828
擠	-13.5829
啁	-13.5829
歙	-13.5829
洳	-13.583
襖	-13.583
噶	-13.5831
廁	-13.5831
窀	-13.5832
毘	-13.5832
胏	-13.5833
龞	-13.5833
愔	-13.5834
㢙	-13.5838
韅	-13.5839
㡇	-13.5839
蠅	-13.584
厮	-13.584
飦	-13.5842
忳	-13.5843
抶	-13.5857
愓	-13.6139
傘	-13.6148
嵐	-13.6148
轎	-13.6149
鼽	-13.6151
簑	-13.6152
瑋	-13.6153
疉	-13.6156
㲄	-13.6157
筒	-13.6157
肶	-13.6158
悪	-13.616
騬	-13.616
憩	-13.6161
蝀	-13.6162
燁	-13.6163
惲	-13.6164
巒	-13.6164
殪	-13.6164
姿	-13.6166
櫨	-13.6167
䄂	-13.6167
縹	-13.6167
翺	-13.6168
琨	-13.6169
蕝	-13.617
悁	-13.617
韡	-13.617
兇	-13.6171
圛	-13.6171
坰	-13.6171
吊	-13.6172
麫	-13.6172
羑	-13.6173
齟	-13.6173
齬	-13.6174
榎	-13.6176
軀	-13.6176
瘴	-13.6177
韞	-13.6177
湧	-13.6177
蘂	-13.6178
蔮	-13.6178
瓞	-13.6178
腱	-13.6179
眊	-13.6184
罦	-13.6188
滇	-13.6499
䪥	-13.6509
澇	-13.6509
癡	-13.651
觔	-13.651
郴	-13.6511
氲	-13.6514
悊	-13.6514
藺	-13.6516
霞	-13.6518
瀋	-13.6519
鱓	-13.652
怱	-13.652
菰	-13.6524
憮	-13.6525
踟	-13.6525
妒	-13.6526
溴	-13.6526
沆	-13.6526
噲	-13.6529
豜	-13.653
慣	-13.653
忮	-13.653
􁆞	-13.6531
鑪	-13.6531
輨	-13.6532
䠱	-13.6532
掦	-13.6533
醸	-13.6534
娥	-13.6535
遅	-13.6535
欂	-13.6537
悒	-13.6538
齦	-13.6541
冣	-13.6541
鍊	-13.6541
睡	-13.6543
霣	-13.6548
憖	-13.6554
抜	-13.656
腛	-13.6561
竢	-13.6868
苄	-13.6873
杲	-13.6875
蓆	-13.6876
衒	-13.6883
党	-13.6883
磧	-13.6884
槫	-13.6887
柂	-13.6887
邐	-13.6888
撒	-13.6888
哇	-13.6889
棱	-13.6889
鬀	-13.689
邏	-13.6893
蹰	-13.6894
晃	-13.6894
碓	-13.6895
玭	-13.6895
抃	-13.6895
蒜	-13.6896
昩	-13.6897
侠	-13.6897
邘	-13.6898
鮀	-13.6899
萸	-13.69
墢	-13.69
剉	-13.69
貮	-13.6901
硃	-13.6901
弥	-13.6902
醎	-13.6903
濃	-13.6904
膓	-13.6904
泓	-13.6904
輹	-13.6905
牕	-13.6906
曖	-13.6908
俳	-13.6909
圏	-13.6909
戣	-13.6909
恁	-13.6912
藐	-13.6913
咮	-13.6917
㧍	-13.7234
薩	-13.7247
𦍑	-13.7254
儛	-13.7263
柿	-13.7264
裦	-13.7266
鏜	-13.7269
鞘	-13.7269
㛮	-13.7272
哻	-13.7272
㐲	-13.7273
鍇	-13.7274
棋	-13.7275
鈒	-13.7276
塡	-13.7276
膂	-13.7277
仔	-13.7278
韘	-13.7278
嚢	-13.7279
讌	-13.7279
栱	-13.728
枹	-13.7281
襧	-13.7281
檾	-13.7282
肈	-13.7283
湍	-13.7283
𣺌	-13.7283
蔭	-13.7286
珓	-13.7287
倬	-13.7287
崘	-13.7287
郄	-13.7288
芘	-13.7288
唅	-13.7288
絪	-13.7289
疽	-13.7289
㳫	-13.729
滸	-13.729
-	-13.7292
剭	-13.7292
硯	-13.7293
麵	-13.7293
遟	-13.7294
杶	-13.7296
朒	-13.7298
瓴	-13.7299
桼	-13.7299
蛷	-13.73
摽	-13.7316
机	-13.7318
郫	-13.7345
擡	-13.7665
适	-13.7666
􁀆	-13.7667
枸	-13.7667
尔	-13.7669
襞	-13.7671
狷	-13.7671
觱	-13.7671
戦	-13.7672
捃	-13.7672
夬	-13.7674
㝔	-13.7674
鱣	-13.7674
虯	-13.7675
型	-13.7675
耇	-13.7676
蓂	-13.7678
䆫	-13.7678
磁	-13.7679
楸	-13.7679
􁅼	-13.7679
鳦	-13.7679
蘊	-13.768
珙	-13.7681
珊	-13.7681
娱	-13.7682
踶	-13.7682
璘	-13.7682
銎	-13.7682
媾	-13.7684
煨	-13.7685
碍	-13.7685
䘙	-13.7686
峒	-13.7687
抍	-13.7688
鰌	-13.7688
閍	-13.7688
儋	-13.7689
罶	-13.769
睎	-13.7692
刦	-13.7692
蹉	-13.7693
鞵	-13.7693
幻	-13.7693
餮	-13.7693
閃	-13.7695
櫄	-13.7699
麯	-13.7701
踞	-13.7701
猨	-13.7702
漈	-13.7708
隹	-13.7709
􁆍	-13.8072
邽	-13.808
窗	-13.8081
􁆷	-13.8081
凥	-13.8082
哥	-13.8083
輭	-13.8085
鄶	-13.8085
債	-13.8085
紿	-13.8087
螮	-13.809
瀉	-13.8092
尢	-13.8092
璃	-13.8095
㦧	-13.8095
讃	-13.8095
傎	-13.8095
啞	-13.8096
鞹	-13.8096
籋	-13.8097
虔	-13.8097
㷀	-13.8099
媪	-13.8099
萋	-13.8099
榷	-13.8099
樟	-13.81
総	-13.8101
䖝	-13.8102
譆	-13.8102
朢	-13.8102
􁒃	-13.8103
胝	-13.8103
䐲	-13.8103
甃	-13.8104
㽦	-13.8104
貒	-13.8104
泂	-13.8104
慱	-13.8105
抇	-13.8105
恫	-13.8107
罌	-13.8107
肹	-13.8107
蠹	-13.8108
醨	-13.8108
攴	-13.8109
鐔	-13.811
倳	-13.811
凄	-13.811
餳	-13.8112
􁀁	-13.8113
殍	-13.8113
惨	-13.8115
侖	-13.8117
痬	-13.8118
􁀥	-13.8504
臍	-13.8517
氤	-13.8517
虀	-13.8522
牚	-13.8522
柣	-13.8522
斮	-13.8524
嬀	-13.8525
犇	-13.8525
畊	-13.8525
𥙿	-13.8525
䙆	-13.8526
瑰	-13.8526
灉	-13.8526
隲	-13.8527
鞎	-13.8527
眠	-13.8528
緷	-13.8529
糯	-13.8529
妁	-13.8529
隓	-13.8531
􁃅	-13.8531
魍	-13.8532
𥚑	-13.8532
􁌓	-13.8532
􁏅	-13.8532
堉	-13.8532
鼬	-13.8533
勰	-13.8534
牼	-13.8534
叨	-13.8535
竆	-13.8535
偫	-13.8536
牗	-13.8536
炰	-13.8536
艸	-13.8537
莾	-13.8537
輀	-13.8538
䜿	-13.8538
㽞	-13.8538
丄	-13.8538
鎌	-13.8539
醲	-13.8539
秖	-13.8541
嘵	-13.8541
嘿	-13.8541
贑	-13.8542
蒭	-13.8542
湔	-13.8543
賃	-13.8544
罏	-13.8544
痤	-13.8544
礫	-13.8545
咢	-13.8545
糖	-13.8546
戻	-13.8547
皃	-13.8549
孼	-13.8558
磷	-13.8571
礬	-13.8605
鋹	-13.8934
蔀	-13.8941
䮾	-13.8947
棚	-13.8956
諴	-13.8956
眦	-13.896
陀	-13.8962
雇	-13.8963
閘	-13.8965
榝	-13.8965
砲	-13.8967
􁆵	-13.8967
蹻	-13.8972
綯	-13.8973
締	-13.8973
㳄	-13.8974
徠	-13.8976
魑	-13.8977
饍	-13.8977
嗑	-13.8978
傰	-13.8978
岍	-13.8979
琉	-13.8979
睟	-13.898
鞗	-13.8982
盻	-13.8983
惴	-13.8984
貜	-13.8985
賅	-13.8986
鑕	-13.8987
洹	-13.8988
怕	-13.8989
鉛	-13.8989
挨	-13.8989
􁎞	-13.899
騤	-13.8991
耔	-13.8991
鞸	-13.8992
扎	-13.8993
柙	-13.8993
鈕	-13.8993
哆	-13.8994
呦	-13.8994
褌	-13.8994
斨	-13.8995
萆	-13.8997
店	-13.8997
墝	-13.8997
术	-13.8998
㒷	-13.9
嶰	-13.9
牣	-13.9002
閥	-13.9002
寞	-13.9003
璲	-13.9003
纑	-13.9004
圅	-13.9005
圮	-13.9005
撋	-13.9005
鬪	-13.9005
淀	-13.9006
䗪	-13.901
讜	-13.9012
閬	-13.9427
􁇕	-13.9429
攙	-13.9435
墩	-13.9438
薶	-13.9439
矟	-13.9441
悃	-13.9444
瓷	-13.9447
枿	-13.9448
郃	-13.9452
捇	-13.9453
杕	-13.9453
芓	-13.9453
㢮	-13.9454
韁	-13.9455
䧺	-13.9456
哽	-13.9459
敲	-13.946
暐	-13.946
禅	-13.9461
幙	-13.9461
窅	-13.9462
硜	-13.9463
麈	-13.9463
穣	-13.9463
魎	-13.9464
杻	-13.9464
㢤	-13.9465
菟	-13.9465
鞃	-13.9465
縐	-13.9467
顕	-13.9467
棐	-13.9467
𠻳	-13.9467
軄	-13.9469
螘	-13.9469
愎	-13.9469
籚	-13.9469
籓	-13.947
蘿	-13.9471
旰	-13.9471
薈	-13.9472
㝡	-13.9472
炒	-13.9473
䚡	-13.9474
苧	-13.9475
菭	-13.9475
莇	-13.9481
憒	-13.9481
艷	-13.9482
􁀤	-13.9483
鴂	-13.9484
攣	-13.9486
鋙	-13.9486
邴	-13.9488
涐	-13.994
畼	-13.994
棨	-13.9941
脽	-13.9943
庣	-13.9944
頲	-13.9945
􁏽	-13.995
挶	-13.995
躩	-13.995
楂	-13.9951
憸	-13.9952
摛	-13.9952
儁	-13.9952
帢	-13.9955
祢	-13.9955
淩	-13.9957
遴	-13.9957
胱	-13.9958
絍	-13.9959
颺	-13.996
厖	-13.9961
溟	-13.9961
帬	-13.9961
獒	-13.9962
剴	-13.9962
瓛	-13.9962
鏐	-13.9963
媍	-13.9963
窘	-13.9963
􁂐	-13.9964
淠	-13.9964
喫	-13.9966
鯨	-13.9966
朿	-13.9967
鄟	-13.9968
瀕	-13.9969
撲	-13.9969
檉	-13.9969
僩	-13.9969
羯	-13.9969
馥	-13.997
躭	-13.997
楙	-13.9971
拌	-13.9972
襘	-13.9972
閿	-13.9972
軺	-13.9973
鄀	-13.9975
俅	-13.9975
捖	-13.9975
閈	-13.9975
燻	-13.9976
煽	-13.9976
鵬	-13.9977
𠡠	-13.9977
携	-13.998
鬒	-13.9981
寬	-13.9987
􁎪	-13.9987
漷	-13.9992
縭	-13.9994
橰	-14.0002
矞	-14.0006
橑	-14.0452
鄯	-14.0455
甖	-14.0459
頠	-14.0462
鐻	-14.0464
毬	-14.0465
騃	-14.0466
驊	-14.0468
絿	-14.047
爝	-14.047
駝	-14.0471
脁	-14.0471
􁐉	-14.0473
尓	-14.0474
屆	-14.0474
沌	-14.0475
趋	-14.0475
垜	-14.0477
𨕖	-14.0477
珌	-14.0478
壩	-14.0479
蹠	-14.048
垠	-14.0481
麎	-14.0482
㱕	-14.0482
邙	-14.0483
㝱	-14.0483
睪	-14.0484
廌	-14.0485
􁀔	-14.0485
􁀦	-14.0486
䈂	-14.0486
峨	-14.0487
逑	-14.0487
弰	-14.0487
􁎯	-14.0487
鄹	-14.0489
櫃	-14.049
鵀	-14.0491
掣	-14.0491
盼	-14.0491
璀	-14.0492
瀟	-14.0493
軧	-14.0494
垺	-14.0494
艦	-14.0495
藤	-14.0495
膩	-14.0495
惮	-14.0496
蒔	-14.0497
歧	-14.0497
繄	-14.0499
緵	-14.05
漣	-14.0501
玫	-14.0501
蜚	-14.0502
韤	-14.0502
縌	-14.0502
糒	-14.0502
陕	-14.0503
籟	-14.0504
鞬	-14.0504
鄞	-14.0505
旴	-14.0505
濂	-14.0506
眈	-14.0509
殣	-14.0509
蚣	-14.0511
簵	-14.0512
泝	-14.0512
縆	-14.0515
喆	-14.0516
裡	-14.0517
樣	-14.0517
筞	-14.0517
禚	-14.052
㮮	-14.052
勩	-14.0994
航	-14.1016
粳	-14.1023
鍑	-14.1024
婕	-14.1026
鶚	-14.1028
胹	-14.103
逥	-14.1031
叐	-14.1033
侲	-14.1033
䦨	-14.1035
抭	-14.1037
茁	-14.1037
懑	-14.1039
棻	-14.104
霹	-14.104
邜	-14.1041
罳	-14.1041
橜	-14.1042
涌	-14.1042
㫄	-14.1043
满	-14.1043
茸	-14.1043
􁃦	-14.1043
鵉	-14.1044
扳	-14.1045
圬	-14.1046
曇	-14.1046
靦	-14.1046
螂	-14.1046
汸	-14.1047
蕞	-14.1048
済	-14.1049
茗	-14.1052
泱	-14.1053
濊	-14.1053
槿	-14.1053
韮	-14.1054
菀	-14.1055
蒢	-14.1055
确	-14.1055
璊	-14.1055
譛	-14.1055
頁	-14.1056
醑	-14.1056
芷	-14.1058
跽	-14.1062
渺	-14.1063
肻	-14.1063
銛	-14.1064
罿	-14.1064
儇	-14.1066
箘	-14.1066
犅	-14.1067
屹	-14.1068
棓	-14.1077
槽	-14.1097
澍	-14.1596
夤	-14.1609
躇	-14.161
磾	-14.161
抮	-14.1612
汀	-14.1615
迁	-14.1616
鲁	-14.162
𢃄	-14.1623
釧	-14.1623
粛	-14.1623
糦	-14.1624
旉	-14.1624
妐	-14.1624
陿	-14.1624
䘚	-14.1625
淢	-14.1625
港	-14.1625
蚊	-14.1626
飇	-14.1626
憗	-14.1626
鱴	-14.1627
殹	-14.1627
靂	-14.1628
趯	-14.1628
瀰	-14.1628
𠞰	-14.1629
㡳	-14.1629
躅	-14.163
杆	-14.163
涘	-14.163
彍	-14.1632
鉼	-14.1632
煢	-14.1633
籀	-14.1634
䗂	-14.1634
囉	-14.1635
鬝	-14.1635
蝮	-14.1635
搃	-14.1635
曝	-14.1636
腓	-14.1637
娌	-14.1637
蠭	-14.1638
裌	-14.1638
潑	-14.1638
郛	-14.1639
釃	-14.1639
剌	-14.1639
妯	-14.1639
罛	-14.164
飶	-14.164
哂	-14.164
猖	-14.1641
蠋	-14.1641
䣼	-14.1642
眎	-14.1642
侐	-14.1643
麪	-14.1644
犖	-14.1644
捥	-14.1644
你	-14.1644
亓	-14.1644
臓	-14.1645
仝	-14.1645
觯	-14.1645
惛	-14.1646
駸	-14.1648
奧	-14.1648
鑢	-14.1649
盌	-14.1649
娘	-14.1651
敜	-14.1651
尪	-14.1652
虒	-14.1653
敿	-14.1658
俁	-14.1661
隃	-14.1664
鐍	-14.1668
埀	-14.1674
坯	-14.1676
笆	-14.1684
煜	-14.2223
珣	-14.2226
𠫭	-14.2238
駪	-14.224
糈	-14.224
棞	-14.2241
厓	-14.2243
籖	-14.2243
蹂	-14.2244
朦	-14.2247
臈	-14.2247
巋	-14.2248
呶	-14.2249
㢠	-14.225
荊	-14.225
蘗	-14.2251
騖	-14.2251
姙	-14.2251
灊	-14.2251
裀	-14.2251
夣	-14.2252
槄	-14.2252
侣	-14.2252
琇	-14.2252
椴	-14.2253
套	-14.2253
雈	-14.2253
韙	-14.2254
蕈	-14.2254
佻	-14.2254
􁇘	-14.2255
跀	-14.2255
憬	-14.2255
膀	-14.2255
𫐠	-14.2255
呫	-14.2255
臷	-14.2256
丰	-14.2257
㸋	-14.2257
脺	-14.2257
䄍	-14.2258
𬗟	-14.2258
棰	-14.2258
戹	-14.2259
灶	-14.2261
溶	-14.2261
婬	-14.2261
桮	-14.2262
痹	-14.2262
鷁	-14.2263
鋈	-14.2263
刏	-14.2263
渟	-14.2263
􁎟	-14.2266
趂	-14.2266
曬	-14.2266
瞞	-14.2266
韥	-14.2266
婭	-14.2266
鍤	-14.2267
笋	-14.2268
稈	-14.2268
倜	-14.2269
􁈩	-14.2269
輾	-14.227
剙	-14.227
蝣	-14.227
觼	-14.2271
鵩	-14.2272
崞	-14.2274
挲	-14.2274
偲	-14.2274
煆	-14.2274
㕑	-14.2274
㩁	-14.2275
槅	-14.2278
讟	-14.2283
耏	-14.2292
眧	-14.2294
趆	-14.2313
妘	-14.2871
忭	-14.2891
飈	-14.2892
靄	-14.2893
槮	-14.2897
鶪	-14.2897
宕	-14.2899
郗	-14.2902
鐎	-14.2902
駼	-14.2903
暅	-14.2906
醊	-14.291
􁉺	-14.2912
努	-14.2913
霓	-14.2913
狽	-14.2913
黌	-14.2915
崈	-14.2917
瞫	-14.2917
憺	-14.2918
亰	-14.292
玠	-14.2921
嘩	-14.2921
份	-14.2921
鸛	-14.2922
齗	-14.2924
痾	-14.2924
癕	-14.2924
瞀	-14.2924
憝	-14.2925
軜	-14.2925
矚	-14.2926
刧	-14.2927
駜	-14.2927
蕰	-14.2927
秏	-14.2927
晶	-14.2928
仐	-14.2929
萱	-14.2929
磿	-14.293
檩	-14.2931
璫	-14.2931
撼	-14.2932
􁎲	-14.2933
嫠	-14.2933
鏚	-14.2934
􁌹	-14.2934
阽	-14.2934
筊	-14.2934
騅	-14.2935
僦	-14.2936
檼	-14.2936
槎	-14.2936
紈	-14.2936
𤏡	-14.2937
鷇	-14.2939
塼	-14.2939
媟	-14.2939
彀	-14.294
拏	-14.294
譸	-14.2941
菖	-14.2942
嵬	-14.2943
鮞	-14.2943
戇	-14.2943
悻	-14.2943
怎	-14.2945
蝑	-14.2945
甾	-14.2946
䚢	-14.2947
㺯	-14.2947
錤	-14.2947
厔	-14.2948
茘	-14.2951
涹	-14.2951
􁂝	-14.2952
捼	-14.2954
勳	-14.2954
䱹	-14.2957
漓	-14.2958
门	-14.2968
軥	-14.3599
塏	-14.3603
滏	-14.3603
墬	-14.3604
􁋄	-14.3607
攒	-14.3609
搬	-14.3612
耊	-14.3612
鶄	-14.3614
瑲	-14.3615
鎻	-14.3616
娓	-14.3618
壄	-14.3618
澈	-14.3619
儿	-14.3621
畇	-14.3624
歘	-14.3624
攽	-14.3626
廇	-14.3626
讄	-14.3627
􁎤	-14.3631
彂	-14.3632
􁊍	-14.3632
沚	-14.3632
犛	-14.3634
焕	-14.3634
矠	-14.3634
邂	-14.3634
鮓	-14.3634
饈	-14.3634
麽	-14.3635
嚅	-14.3636
麃	-14.3636
䯚	-14.3636
揟	-14.3636
薍	-14.3636
澂	-14.3637
蕕	-14.3637
暤	-14.3638
疴	-14.3638
邅	-14.3638
熨	-14.3638
甈	-14.3639
迢	-14.3639
柹	-14.3639
􁎿	-14.3639
槥	-14.3639
蕆	-14.364
抛	-14.364
脹	-14.364
宔	-14.3641
縧	-14.3641
餔	-14.3642
㭬	-14.3643
体	-14.3643
抹	-14.3643
鄏	-14.3644
帆	-14.3644
緰	-14.3644
蝥	-14.3645
鞛	-14.3645
僔	-14.3645
􁐁	-14.3645
靠	-14.3646
泡	-14.3646
葽	-14.3646
鄐	-14.3646
篦	-14.3646
糕	-14.3646
􁎣	-14.3647
珏	-14.3648
鏑	-14.3648
䡄	-14.3648
䐹	-14.3649
蜻	-14.3649
髳	-14.365
夐	-14.365
墍	-14.365
擺	-14.365
碁	-14.3651
撩	-14.3651
獠	-14.3652
朾	-14.3652
憧	-14.3652
攪	-14.3653
捊	-14.3653
侉	-14.3653
埜	-14.3654
捽	-14.3654
氄	-14.3655
郳	-14.3656
蚕	-14.3659
䙜	-14.3659
褁	-14.3662
聀	-14.3663
淘	-14.3665
喋	-14.3668
軏	-14.3669
摦	-14.3669
餠	-14.367
𥅆	-14.3675
簥	-14.3691
檇	-14.3699
磯	-14.4365
媫	-14.4373
劈	-14.4377
􁍈	-14.438
洚	-14.438
迕	-14.4381
鵁	-14.4382
逌	-14.4383
杈	-14.4387
鋩	-14.4389
䱸	-14.439
窠	-14.4391
灤	-14.4391
砭	-14.4393
杗	-14.4394
蓽	-14.4396
𣏌	-14.4396
熉	-14.4397
秕	-14.4397
鰫	-14.4397
萄	-14.4398
芉	-14.4398
殲	-14.4399
霾	-14.44
霈	-14.44
卲	-14.44
曙	-14.4401
濞	-14.4401
憍	-14.4402
䄖	-14.4403
圩	-14.4405
聪	-14.4405
燄	-14.4405
鋟	-14.4405
躄	-14.4405
篩	-14.4405
怏	-14.4405
緎	-14.4407
諲	-14.4408
漻	-14.4408
悰	-14.4408
溧	-14.4409
惽	-14.4409
瑛	-14.441
誶	-14.441
炯	-14.441
尌	-14.441
洊	-14.441
鵃	-14.441
煒	-14.441
蓰	-14.4411
邨	-14.4411
鷔	-14.4411
幑	-14.4412
齛	-14.4412
靺	-14.4412
瓮	-14.4413
塓	-14.4413
笰	-14.4413
匆	-14.4413
櫫	-14.4414
鈿	-14.4414
㣧	-14.4414
渢	-14.4414
頣	-14.4414
紽	-14.4415
綉	-14.4415
𣪚	-14.4416
㧖	-14.4416
祸	-14.4416
汩	-14.4416
窪	-14.4417
弨	-14.4417
嗷	-14.4417
爚	-14.4418
匯	-14.4418
磊	-14.4418
秔	-14.4419
㯿	-14.4419
杷	-14.442
蚪	-14.442
蠕	-14.442
囑	-14.4421
陲	-14.4421
摏	-14.4421
蔴	-14.4422
稉	-14.4422
牿	-14.4422
腃	-14.4422
呪	-14.4422
籙	-14.4423
犴	-14.4426
楝	-14.4426
荇	-14.4427
珧	-14.4427
嬛	-14.4428
滃	-14.443
迾	-14.4431
鈸	-14.4434
琵	-14.4434
琶	-14.4435
竀	-14.444
䨾	-14.4443
䏈	-14.4446
珵	-14.445
診	-14.4453
郚	-14.4464
秝	-14.5177
􁎵	-14.5183
翀	-14.5204
􁎶	-14.5212
号	-14.5214
雱	-14.5215
鑞	-14.5216
㓨	-14.5217
騊	-14.5218
桉	-14.5218
屣	-14.5219
儈	-14.5222
蒧	-14.5222
嫩	-14.5224
䙱	-14.5226
鄡	-14.5226
鉆	-14.5226
胜	-14.5227
祾	-14.5228
滱	-14.5228
輛	-14.523
搚	-14.523
抴	-14.523
銚	-14.523
滻	-14.5231
逅	-14.5232
僱	-14.5233
嘖	-14.5234
勍	-14.5236
焰	-14.5236
騣	-14.5236
麞	-14.5237
稳	-14.5238
怫	-14.5238
壍	-14.5238
蚘	-14.5238
祅	-14.5238
崙	-14.5238
醒	-14.5239
鷞	-14.524
换	-14.524
暠	-14.524
蚡	-14.524
蔕	-14.5243
鴉	-14.5243
俔	-14.5244
廧	-14.5244
熯	-14.5244
嫚	-14.5244
鋗	-14.5244
􁄄	-14.5245
糲	-14.5246
譱	-14.5246
刓	-14.5247
莵	-14.5247
芊	-14.5247
嫄	-14.5247
珤	-14.5247
瀐	-14.5248
菋	-14.5248
簍	-14.5249
綀	-14.5249
鶘	-14.5249
嵇	-14.525
瘼	-14.525
䇲	-14.5251
嵌	-14.5251
慷	-14.5252
鼂	-14.5253
妓	-14.5253
饅	-14.5253
餬	-14.5253
㶏	-14.5253
极	-14.5254
庤	-14.5254
囦	-14.5255
㻛	-14.5256
勖	-14.5256
謠	-14.5256
衖	-14.5256
醹	-14.5256
磅	-14.5258
礴	-14.5258
朘	-14.5259
䴠	-14.526
遨	-14.526
熠	-14.5261
跖	-14.5261
􁎬	-14.5261
楶	-14.5262
嘄	-14.5262
卸	-14.5263
鄬	-14.5263
璚	-14.5263
苔	-14.5263
踠	-14.5264
㡌	-14.5264
廾	-14.5264
褑	-14.5265
鞈	-14.5265
醟	-14.5267
塚	-14.5267
桔	-14.5268
猿	-14.5269
䵑	-14.527
猱	-14.527
􁀂	-14.5273
忩	-14.5274
駈	-14.5274
栿	-14.5278
窰	-14.528
􁉃	-14.5284
毊	-14.5289
掫	-14.611
蘅	-14.6116
繽	-14.6124
􁏕	-14.613
鎋	-14.6131
獬	-14.6132
謩	-14.6132
黛	-14.6133
霰	-14.6134
􁊁	-14.6134
种	-14.6135
瘝	-14.6135
丌	-14.6135
峭	-14.6136
擉	-14.6136
殚	-14.6137
𧰼	-14.6138
暹	-14.6139
􁏁	-14.6139
搴	-14.614
卾	-14.614
􁊹	-14.6141
簸	-14.6141
輚	-14.6142
刵	-14.6142
挐	-14.6143
䵾	-14.6144
碌	-14.6144
膈	-14.6144
宀	-14.6144
塜	-14.6145
捋	-14.6146
膍	-14.6146
玆	-14.6146
洸	-14.6146
伻	-14.6147
嚙	-14.6147
袓	-14.6147
倥	-14.6147
濺	-14.6147
攺	-14.6147
忙	-14.6147
儌	-14.6148
賡	-14.6148
摟	-14.6148
噉	-14.6149
烽	-14.6149
壖	-14.6149
栐	-14.6149
釴	-14.6149
薿	-14.6149
蒋	-14.6149
籲	-14.615
􁐔	-14.615
􁍑	-14.615
䛇	-14.615
㖃	-14.615
堭	-14.6151
臄	-14.6151
摸	-14.6152
􁁏	-14.6152
牏	-14.6152
㯋	-14.6152
糸	-14.6153
􁎜	-14.6153
睥	-14.6153
𣣔	-14.6153
礝	-14.6154
飰	-14.6154
粃	-14.6154
綎	-14.6155
鞦	-14.6155
㳙	-14.6156
遝	-14.6156
輞	-14.6157
畡	-14.6157
愒	-14.6158
揵	-14.6158
旍	-14.6159
丝	-14.6159
㫪	-14.6159
羜	-14.6159
􁂎	-14.6159
椳	-14.6159
妍	-14.6159
凂	-14.6159
嵕	-14.6161
郾	-14.6161
𦕈	-14.6161
寀	-14.6161
窿	-14.6161
濆	-14.6161
珀	-14.6162
飜	-14.6162
巛	-14.6162
欷	-14.6162
鬩	-14.6162
􁂋	-14.6162
㡊	-14.6164
癖	-14.6164
蚠	-14.6165
渦	-14.6165
纆	-14.6166
广	-14.6166
礜	-14.6166
憋	-14.6167
蛬	-14.6167
柅	-14.6168
􁆫	-14.6168
紑	-14.6168
烙	-14.6169
鄍	-14.6169
蛢	-14.6172
妲	-14.6172
鄩	-14.6175
蟞	-14.6176
囱	-14.6176
愅	-14.6177
㮓	-14.6178
燀	-14.6181
媮	-14.6182
轑	-14.6183
眤	-14.6186
􁈤	-14.6189
􁊃	-14.6195
郪	-14.62
􁅀	-14.6204
絣	-14.6214
醅	-14.6237
佶	-14.7116
亵	-14.7121
揑	-14.7126
俵	-14.713
匃	-14.7132
恧	-14.7134
戩	-14.7136
㫋	-14.7137
恋	-14.7138
愡	-14.7138
仳	-14.7138
屡	-14.7139
㽟	-14.7139
倕	-14.7139
撕	-14.7139
嵒	-14.714
帉	-14.714
咒	-14.7141
恌	-14.7141
䓣	-14.7141
㚄	-14.7142
厪	-14.7142
㗋	-14.7143
冤	-14.7146
偁	-14.7147
啾	-14.7147
岫	-14.7149
偓	-14.715
䪅	-14.7151
劃	-14.7152
怳	-14.7153
凹	-14.7153
䆳	-14.7154
䎡	-14.7154
䌆	-14.7154
惬	-14.7157
岩	-14.7157
匊	-14.7158
嗌	-14.7158
傒	-14.7159
挏	-14.7159
㝎	-14.716
幰	-14.7161
佋	-14.7162
䄡	-14.7163
僼	-14.7167
愨	-14.7167
弒	-14.7167
埆	-14.7168
幺	-14.7168
媲	-14.7169
丼	-14.7171
咀	-14.7174
䨨	-14.7174
恡	-14.7175
䍡	-14.7188
脗	-14.7194
燉	-14.7195
玁	-14.7196
紜	-14.7197
.	-14.7198
怭	-14.7198
