<unk>	0
<s>	0
</s>	0
之	-3.82347
以	-4.56449
而	-4.64107
為	-4.76249
其	-4.77826
者	-4.77931
也	-4.83902
一	-4.91833
不	-5.00872
有	-5.11215
則	-5.16831
人	-5.18174
於	-5.21612
兵	-5.22811
軍	-5.34283
大	-5.51816
將	-5.57412
賊	-5.58958
無	-5.61761
曰	-5.62858
至	-5.65243
用	-5.65882
州	-5.68815
三	-5.71707
中	-5.7431
在	-5.77193
/	-5.77276
城	-5.80273
二	-5.82733
(	-5.82739
如	-5.83309
上	-5.83733
與	-5.8577
此	-5.86154
出	-5.88081
自	-5.89045
行	-5.89855
戰	-5.90843
下	-5.90913
敵	-5.93549
所	-5.93827
水	-5.95167
四	-5.97317
日	-5.99447
)	-5.99897
地	-6.02668
使	-6.05532
皆	-6.06437
若	-6.06887
陣	-6.07356
後	-6.09056
入	-6.10757
時	-6.11755
或	-6.13579
山	-6.13651
必	-6.13916
我	-6.14606
可	-6.16705
令	-6.17562
五	-6.17985
前	-6.18579
各	-6.23743
得	-6.23843
又	-6.24125
即	-6.2492
矣	-6.25222
相	-6.25985
先	-6.26684
馬	-6.28097
天	-6.29325
營	-6.29368
分	-6.29427
長	-6.30614
及	-6.30859
守	-6.31402
當	-6.31593
子	-6.32142
乃	-6.3284
故	-6.34616
王	-6.37463
北	-6.42023
事	-6.4495
亦	-6.44972
欲	-6.45104
門	-6.45548
道	-6.46057
南	-6.46232
西	-6.47524
衆	-6.47566
凡	-6.47834
利	-6.47921
火	-6.5106
是	-6.51598
六	-6.51746
見	-6.52064
合	-6.52774
方	-6.53689
能	-6.53732
法	-6.53955
進	-6.55374
知	-6.55606
來	-6.55902
發	-6.57125
東	-6.57984
安	-6.5844
多	-6.5889
内	-6.59084
八	-6.60961
隊	-6.61189
去	-6.62436
主	-6.62782
非	-6.63573
死	-6.63801
外	-6.64379
名	-6.6441
從	-6.64419
▁	-6.6517
攻	-6.65206
未	-6.65248
立	-6.6587
數	-6.66985
擊	-6.67818
生	-6.68489
路	-6.69251
等	-6.69649
起	-6.69677
勝	-6.69917
小	-6.70076
正	-6.70499
置	-6.71154
風	-6.71467
重	-6.71713
官	-6.71896
平	-6.73108
口	-6.73516
不可	-6.73711
言	-6.74029
敗	-6.74377
旗	-6.74549
于	-6.7471
船	-6.74951
處	-6.74952
今	-6.75224
車	-6.76812
七	-6.78375
國	-6.78682
氣	-6.78919
每	-6.79172
謂	-6.79208
兩	-6.79393
師	-6.79491
力	-6.80108
成	-6.80532
定	-6.81024
神	-6.81643
取	-6.8198
武	-6.82848
民	-6.83109
木	-6.83264
騎	-6.83529
備	-6.83699
明	-6.84533
石	-6.84666
宜	-6.85968
海	-6.86477
計	-6.86655
河	-6.86981
公	-6.88541
殺	-6.89149
然	-6.89647
遂	-6.89664
士	-6.89843
夫	-6.90741
金	-6.91434
復	-6.91469
髙	-6.9168
不能	-6.92155
江	-6.92455
頭	-6.92596
縣	-6.9331
同	-6.93428
乎	-6.93981
雖	-6.94399
通	-6.94834
本	-6.95307
夜	-6.95667
諸	-6.95929
九	-6.96161
居	-6.96372
臣	-6.97132
齊	-6.97398
作	-6.97586
勢	-6.97588
陽	-6.97687
因	-6.98154
已	-6.98339
過	-6.98361
右	-6.98881
常	-6.99598
亂	-7.00202
次	-7.00486
白	-7.00816
卒	-7.01903
伏	-7.02725
舉	-7.02838
吾	-7.03841
須	-7.04136
失	-7.05502
破	-7.05603
命	-7.06077
手	-7.06203
月	-7.0653
設	-7.06569
止	-7.07003
十	-7.08345
心	-7.0856
制	-7.09256
間	-7.09337
動	-7.09685
星	-7.10359
土	-7.10463
急	-7.10897
退	-7.11164
甲	-7.11294
張	-7.11436
難	-7.11676
犯	-7.12465
謀	-7.13104
砦	-7.13264
家	-7.13309
易	-7.1342
何	-7.13551
步	-7.13846
善	-7.14223
身	-7.1446
漢	-7.15069
開	-7.1528
加	-7.15344
盡	-7.16319
文	-7.17015
黄	-7.18126
便	-7.19207
左右	-7.19283
歸	-7.19411
應	-7.19765
圍	-7.19846
逺	-7.19899
鎮	-7.19919
直	-7.20174
衝	-7.20278
焉	-7.20297
彼	-7.2119
近	-7.21602
不得	-7.22556
百	-7.22801
左	-7.22938
更	-7.23034
年	-7.23455
隨	-7.25193
既	-7.25817
色	-7.26023
俱	-7.26116
變	-7.26305
固	-7.26327
信	-7.26921
實	-7.27214
唐	-7.27589
輕	-7.28094
萬	-7.28417
聞	-7.28567
聲	-7.29037
角	-7.29037
治	-7.29374
向	-7.2996
郡	-7.30968
廣	-7.31178
陳	-7.31468
秦	-7.31497
散	-7.31669
餘	-7.31671
要	-7.31937
遣	-7.32761
乘	-7.33477
可以	-7.33603
初	-7.3421
君	-7.34392
晉	-7.35095
耳	-7.35179
約	-7.35651
威	-7.36285
伐	-7.36826
)(	-7.37084
都	-7.37104
建	-7.37359
勇	-7.37372
功	-7.38777
臨	-7.38933
且	-7.39125
書	-7.39704
深	-7.4015
而不	-7.40174
打	-7.40517
客	-7.40926
吳	-7.40943
食	-7.41063
周	-7.42011
率	-7.4272
惟	-7.42971
他	-7.43149
鼓	-7.43536
走	-7.43667
半	-7.4418
府	-7.44336
義	-7.4452
反	-7.45156
遇	-7.45377
所以	-7.45414
視	-7.45499
望	-7.45756
鎗	-7.46564
首	-7.46802
賞	-7.47173
沙	-7.47354
布	-7.47547
少	-7.47601
部	-7.48465
絶	-7.48918
竒	-7.49289
箭	-7.49457
天下	-7.49547
面	-7.49618
請	-7.50183
哨	-7.50498
經	-7.50615
牌	-7.50916
並	-7.51021
列	-7.51169
橋	-7.5117
青	-7.5177
李	-7.51949
險	-7.51963
號	-7.52366
致	-7.52484
降	-7.5256
湖	-7.52755
射	-7.52811
港	-7.53194
但	-7.54064
元	-7.54292
形	-7.54458
轉	-7.54488
高	-7.54534
刀	-7.54641
順	-7.54707
恐	-7.5471
敵人	-7.55026
龍	-7.55706
界	-7.55722
疑	-7.55975
度	-7.56471
楚	-7.56825
流	-7.57006
以為	-7.57064
屯	-7.57244
屬	-7.57451
收	-7.57457
足	-7.57468
報	-7.57659
雲	-7.57682
邊	-7.57968
還	-7.58232
論	-7.5856
飛	-7.5873
由	-7.59763
據	-7.59822
千	-7.59866
連	-7.60554
亡	-7.60561
放	-7.60933
鐵	-7.60975
士卒	-7.6115
圖	-7.61476
之法	-7.61983
傳	-7.62642
云	-7.63033
機	-7.63529
甚	-7.63697
并	-7.63723
横	-7.63935
塘	-7.6406
糧	-7.64152
辰	-7.64547
和	-7.64949
新	-7.65204
勿	-7.65326
舊	-7.65544
教	-7.65558
田	-7.65894
服	-7.66282
梁	-7.6635
舟	-7.66615
川	-7.6696
大將	-7.67139
草	-7.67305
任	-7.67313
引	-7.67375
交	-7.67779
/)	-7.67816
候	-7.67913
共	-7.67933
領	-7.68266
十二	-7.69271
光	-7.694
聽	-7.69412
堅	-7.69436
追	-7.69595
離	-7.69923
精	-7.70012
關	-7.70684
境	-7.70849
莫	-7.70899
弩	-7.71167
施	-7.7117
奔	-7.71624
照	-7.719
始	-7.72202
救	-7.72512
獲	-7.72584
全	-7.73208
往	-7.73448
魏	-7.73704
别	-7.73957
解	-7.74012
爲	-7.74198
隂	-7.74252
斬	-7.74696
保	-7.74993
擊之	-7.75041
㑹	-7.75193
傷	-7.75256
之所	-7.75476
砲	-7.75533
築	-7.75562
嚴	-7.75727
趙	-7.75776
節	-7.75888
之地	-7.76199
二十	-7.76217
操	-7.76514
總	-7.76683
智	-7.76708
親	-7.76804
獨	-7.77059
弱	-7.77282
所謂	-7.77531
就	-7.7759
德	-7.77858
中軍	-7.7845
司	-7.7933
求	-7.79486
原	-7.79497
仍	-7.79682
寇	-7.79742
疾	-7.79749
到	-7.79948
受	-7.80898
掠	-7.81377
習	-7.81385
坐	-7.81855
將軍	-7.81916
陵	-7.82158
徳	-7.82459
哉	-7.82483
劉	-7.82655
務	-7.82723
縱	-7.82802
世	-7.82936
議	-7.83023
持	-7.83043
指	-7.8307
渡	-7.83114
古	-7.83239
聚	-7.83272
懼	-7.83579
悉	-7.83598
東至	-7.83637
强	-7.8408
樂	-7.84432
選	-7.84715
權	-7.84769
久	-7.84975
銀	-7.85044
野	-7.85105
尚	-7.85253
虜	-7.856
器	-7.85664
物	-7.86608
襲	-7.87009
宋	-7.87025
防	-7.87224
依	-7.87259
志	-7.8733
果	-7.87593
濟	-7.87868
逆	-7.87874
積	-7.8789
目	-7.8804
執	-7.88348
一人	-7.88385
待	-7.88642
赤	-7.89049
意	-7.89729
惡	-7.89736
問	-7.90051
壘	-7.90375
伍	-7.90636
帝	-7.90665
虎	-7.90703
驚	-7.90898
背	-7.9121
塞	-7.91229
鋪	-7.91311
夏	-7.91766
申	-7.91938
克	-7.92902
禦	-7.93355
雨	-7.93447
刻	-7.93536
再	-7.93902
邑	-7.94021
戎	-7.9425
陷	-7.94263
結	-7.94348
堡	-7.94581
末	-7.94708
擒	-7.95046
竹	-7.95095
登	-7.95393
藥	-7.95476
管	-7.95575
弓	-7.95635
字	-7.96513
觀	-7.96646
被	-7.96721
移	-7.96832
興	-7.96901
烏	-7.97049
厚	-7.97426
虚	-7.97668
尾	-7.97682
具	-7.97686
盛	-7.97715
稱	-7.97725
東南	-7.97731
罪	-7.98058
異	-7.981
支	-7.98116
速	-7.98395
許	-7.98552
貴	-7.9882
附	-7.99037
太	-7.99773
集	-8.0004
回	-8.00048
闗	-8.0008
留	-8.00364
朝	-8.00511
造	-8.00682
害	-8.00711
三軍	-8.01231
樓	-8.0127
然後	-8.01318
空	-8.0138
統	-8.01388
二百	-8.0154
馳	-8.01743
給	-8.01756
第一	-8.0217
牛	-8.02544
接	-8.0269
前後	-8.02852
浦	-8.03112
宿	-8.03131
突	-8.03362
斗	-8.03365
招	-8.034
畏	-8.03444
不敢	-8.03455
征	-8.03767
吉	-8.03776
刑	-8.03896
錢	-8.03917
胡	-8.0413
顧	-8.04479
拒	-8.04728
不知	-8.04862
賢	-8.0514
政	-8.05152
卷	-8.05471
猶	-8.05505
衛	-8.05575
宗	-8.05826
西北	-8.06507
是也	-8.06716
勞	-8.06939
延	-8.07633
曲	-8.07952
益	-8.08159
官兵	-8.08369
占	-8.08412
逐	-8.08655
鄉	-8.08736
棄	-8.09048
丁	-8.09397
説	-8.09429
清	-8.09457
討	-8.09675
却	-8.10504
谷	-8.10702
理	-8.10975
危	-8.11244
條	-8.11257
示	-8.11502
兼	-8.11631
越	-8.12357
情	-8.12978
鋭	-8.1352
代	-8.13685
審	-8.13959
陰	-8.14049
告	-8.14264
專	-8.1429
巳	-8.14297
乾	-8.14341
援	-8.14529
容	-8.14651
畧	-8.14676
西南	-8.14738
敢	-8.15003
己	-8.15059
蛇	-8.15066
三十	-8.15215
患	-8.15284
赴	-8.15449
豈	-8.15493
其所	-8.1557
陸	-8.15846
林	-8.15878
環	-8.16236
禮	-8.16236
比	-8.16267
慮	-8.16575
調	-8.16586
伏兵	-8.16883
夷	-8.17033
翼	-8.17654
乗	-8.17801
皷	-8.17985
校	-8.18049
算	-8.18362
斷	-8.18556
畢	-8.18559
按	-8.18582
来	-8.18587
修	-8.18601
該	-8.18905
者也	-8.18993
魚	-8.19048
諸將	-8.19252
葢	-8.19391
一作	-8.19535
密	-8.19773
嘗	-8.20088
運	-8.20214
雜	-8.20223
東北	-8.20273
歩	-8.20445
察	-8.20577
吏	-8.2059
覆	-8.20599
攻城	-8.20691
期	-8.21422
素	-8.21449
抵	-8.21455
决	-8.21461
京	-8.2156
帥	-8.21589
侯	-8.21604
避	-8.21624
徒	-8.2166
毎	-8.21747
冦	-8.21855
好	-8.2268
楊	-8.23085
憂	-8.23193
某	-8.23419
老	-8.23879
洋	-8.2397
宫	-8.241
存	-8.24366
控	-8.24379
而已	-8.24452
遁	-8.24593
涇	-8.24858
鳴	-8.24992
仁	-8.25111
怒	-8.25191
兵起	-8.25228
脚	-8.25382
城上	-8.25448
而後	-8.25449
羣	-8.25592
副	-8.25818
著	-8.26014
位	-8.2602
誅	-8.26051
廢	-8.2606
燒	-8.26412
三百	-8.2661
不利	-8.2666
軍中	-8.26767
差	-8.26827
繼	-8.26897
恃	-8.26928
推	-8.26929
一百	-8.2695
對	-8.273
督	-8.27305
槍	-8.27411
十六	-8.27429
百里	-8.27531
寨	-8.27611
索	-8.27662
熟	-8.27672
折	-8.27743
燕	-8.27774
禁	-8.28204
送	-8.28219
語	-8.28269
徑	-8.2827
謂之	-8.28348
皮	-8.2864
鬭	-8.28658
良	-8.29074
迎	-8.29102
遺	-8.30024
澤	-8.30472
㸃	-8.30748
寧	-8.30902
潰	-8.30923
於是	-8.30986
練	-8.31208
詐	-8.31351
資	-8.31354
思	-8.31369
鋒	-8.31601
巡	-8.31738
私	-8.31789
南至	-8.31857
八陣	-8.3222
里	-8.32498
財	-8.32656
化	-8.32697
焚	-8.32716
毒	-8.32725
策	-8.33071
識	-8.33149
丑	-8.33187
井	-8.33209
極	-8.33217
擇	-8.33221
寅	-8.33558
掩	-8.3356
趨	-8.33618
潛	-8.33622
宻	-8.33651
黑	-8.33703
闊	-8.33712
募	-8.3378
矢	-8.33857
䕶	-8.34102
稍	-8.3412
爭	-8.34579
窮	-8.34622
短	-8.34822
壁	-8.35033
載	-8.35039
逼	-8.35071
蜀	-8.35507
奪	-8.35873
無所	-8.35894
四面	-8.35936
滅	-8.35953
學	-8.3598
薄	-8.36
徐	-8.36009
改	-8.36092
第	-8.36378
泊	-8.3651
鼔	-8.36553
輪	-8.36813
如此	-8.37055
衣	-8.37372
用兵	-8.37719
五十	-8.3779
落	-8.37891
喜	-8.37898
似	-8.37966
孫	-8.38201
十五	-8.38255
之以	-8.38324
終	-8.38857
揚	-8.39095
油	-8.39183
呉	-8.3933
嵗	-8.39344
福	-8.39404
也故	-8.39793
表	-8.39831
雄	-8.39906
召	-8.39933
號令	-8.40274
乙	-8.40298
忠	-8.40367
座	-8.404
羅	-8.40434
花	-8.40698
探	-8.40729
四十	-8.41163
升	-8.41249
景	-8.4182
除	-8.41874
十八	-8.42119
故曰	-8.42269
住	-8.42346
參	-8.42365
之間	-8.42371
叛	-8.42391
叅將	-8.42567
溪	-8.42873
整	-8.42953
主將	-8.42978
役	-8.43096
寡	-8.43234
息	-8.43314
詔	-8.43373
圓	-8.43845
氏	-8.43887
封	-8.43982
驅	-8.44206
孤	-8.4434
真	-8.44387
曹	-8.44826
雙	-8.44955
十萬	-8.4502
至於	-8.4502
充	-8.45511
鹽	-8.45565
淮	-8.45959
午	-8.4598
恩	-8.45987
之時	-8.4599
臺	-8.46227
丈	-8.46325
羊	-8.46447
兵船	-8.46456
費	-8.46531
養	-8.46559
倭	-8.46733
第二	-8.46828
進退	-8.47002
三十里	-8.47054
嶺	-8.47116
銃	-8.47447
舍	-8.47534
岸	-8.47688
呼	-8.47699
把總	-8.47902
符	-8.47951
将	-8.48017
員	-8.48155
之道	-8.4828
不許	-8.48308
術	-8.48569
業	-8.48598
鳥	-8.48608
千里	-8.48897
泥	-8.49131
免	-8.49153
微	-8.49195
濶	-8.49222
滿	-8.49233
經曰	-8.49364
萬人	-8.49388
枝	-8.49481
諸軍	-8.49681
助	-8.49684
達	-8.49698
誘	-8.49716
黒	-8.49718
洞	-8.49718
板	-8.4972
永	-8.49801
灰	-8.49847
大敗	-8.50221
謹	-8.50242
音	-8.50269
奇	-8.50648
女	-8.50765
蓋	-8.50772
委	-8.50783
千人	-8.50809
暴	-8.50818
酒	-8.5086
城中	-8.51085
緩	-8.51266
争	-8.51332
量	-8.51374
一員	-8.51376
酉	-8.5138
局	-8.51403
彊	-8.51461
銳	-8.51921
禍	-8.52053
徃	-8.52346
戒	-8.52444
而無	-8.52784
帶	-8.52808
之士	-8.52899
妙	-8.53066
三日	-8.53517
程	-8.5352
震	-8.53569
竿	-8.53574
忽	-8.536
潮	-8.5361
愛	-8.5361
一日	-8.537
竒兵	-8.53724
細	-8.54107
會	-8.54149
項	-8.54722
勒	-8.54744
不過	-8.54789
性	-8.55256
契丹	-8.55323
侵	-8.55343
負	-8.5561
撫	-8.55802
藏	-8.55815
盜	-8.55837
根	-8.55874
偽	-8.55878
才	-8.55931
者皆	-8.56013
旋	-8.5645
隘	-8.5646
耶	-8.56472
爾	-8.56481
奏	-8.56485
病	-8.56488
貫	-8.56511
諸侯	-8.56551
以上	-8.56681
一面	-8.56722
不可以	-8.56784
用之	-8.56988
捕	-8.56997
司馬	-8.57011
工	-8.5702
投	-8.57033
迫	-8.57097
記	-8.5712
太宗	-8.57138
是謂	-8.57302
之勢	-8.57383
靈	-8.57628
蔽	-8.58201
戌	-8.58227
上下	-8.58244
幾	-8.58245
愚	-8.58303
遊	-8.58508
棍	-8.58741
市	-8.58786
之類	-8.588
囚	-8.58816
宣	-8.58836
拔	-8.58866
團	-8.58883
人之	-8.58967
一千	-8.59073
奮	-8.59152
阻	-8.59296
守禦	-8.59325
考	-8.59421
類	-8.59482
誠	-8.59512
倉	-8.59996
朱	-8.60045
春	-8.60054
警	-8.60295
之人	-8.60495
困	-8.6062
户	-8.60791
之兵	-8.61081
旁	-8.61137
均	-8.61228
繫	-8.61235
裏	-8.61304
象	-8.61954
體	-8.62308
䇿	-8.62343
客大將	-8.62445
咸	-8.62501
授	-8.62514
監	-8.62537
的	-8.62565
不及	-8.62816
隋	-8.63104
况	-8.63113
刃	-8.63115
雷	-8.63705
鈎	-8.63732
狼	-8.63756
攻之	-8.64135
辨	-8.64314
於此	-8.6434
血	-8.64352
賜	-8.64374
者有	-8.64724
最	-8.6475
南北	-8.64928
羽	-8.64935
州界	-8.64953
城下	-8.65084
辛	-8.65611
規	-8.65637
商	-8.6568
泉	-8.65719
器械	-8.65754
天目	-8.66103
六十里	-8.66248
盖	-8.66291
柵	-8.66315
猛	-8.66325
東西	-8.66707
責	-8.66894
歴	-8.66916
料	-8.67068
把	-8.67095
看	-8.67496
職	-8.67543
倍	-8.67637
雲氣	-8.67778
深入	-8.67786
預	-8.68044
飲	-8.68199
決	-8.68262
遲	-8.68279
遼	-8.6837
十三	-8.68695
軍士	-8.68769
查	-8.68771
輜重	-8.68785
尤	-8.68881
第三	-8.69215
狀	-8.69232
孝	-8.69467
忌	-8.69541
昔	-8.69559
牧	-8.69579
鑿	-8.69626
官軍	-8.70006
繩	-8.70149
奉	-8.70164
守城	-8.70237
詳	-8.70241
吹	-8.70643
俟	-8.70855
闕	-8.70866
刺	-8.7087
是以	-8.70909
富	-8.71022
弓弩	-8.71282
㕘將	-8.71383
束	-8.714
庚	-8.71433
北至	-8.71527
秋	-8.71555
池	-8.71558
狹	-8.71591
太乙	-8.71809
墪	-8.72021
只	-8.72044
晝	-8.7215
蕃	-8.72197
遷	-8.72283
荆	-8.72301
孰	-8.72308
源	-8.72368
格	-8.72432
無不	-8.72507
伯	-8.72882
革	-8.72918
羌	-8.72944
願	-8.72962
郭	-8.72976
斤	-8.73311
寳	-8.73374
壯	-8.73395
五百	-8.73417
葉	-8.73582
例	-8.73625
漸	-8.73655
七十里	-8.73694
者斬	-8.74119
浮	-8.74218
冬	-8.74311
必有	-8.74321
鬬	-8.74337
六十	-8.74493
違	-8.74963
說	-8.75024
寒	-8.75049
巡司	-8.75117
十四	-8.75162
單	-8.75452
干	-8.75463
聖	-8.75632
佐	-8.75659
編	-8.75684
怯	-8.7569
麻	-8.75724
章	-8.75726
昌	-8.75729
牙	-8.76296
紙	-8.76309
端	-8.76326
肅	-8.76432
隻	-8.76537
二千	-8.7668
吳淞江	-8.76709
天地	-8.76753
二人	-8.76949
隠	-8.77097
遠	-8.77126
華	-8.77151
岀	-8.77169
夾	-8.77218
三千	-8.77357
假	-8.77572
指揮	-8.77625
畫	-8.77775
特	-8.7785
鄭	-8.77888
將士	-8.77947
不如	-8.78033
十九	-8.78073
十餘	-8.78131
蘇	-8.78266
罰	-8.78475
苦	-8.78555
閉	-8.78638
垂	-8.78692
主算	-8.78975
虛	-8.79173
大小	-8.79241
米	-8.79257
尅	-8.79277
疲	-8.79289
惑	-8.79296
慶	-8.79335
巧	-8.79336
五十里	-8.79925
韓	-8.79942
分為	-8.79969
人馬	-8.7999
舎	-8.80022
振	-8.80048
巢	-8.80147
有所	-8.80529
太白	-8.80573
休	-8.80711
乆	-8.80764
卯	-8.80787
太湖	-8.80997
敵之	-8.81153
其地	-8.81185
垜	-8.81306
提	-8.81446
庶	-8.81489
種	-8.81492
淺	-8.81498
貪	-8.81525
而來	-8.81678
吕	-8.8194
偏	-8.81956
縣界	-8.82187
逃	-8.82284
虞	-8.82291
聴	-8.82309
房	-8.82327
註曰	-8.8249
尺	-8.82683
聼	-8.8289
衡	-8.82917
材	-8.82947
強	-8.83005
敎	-8.83045
䧟	-8.83067
我兵	-8.83141
而進	-8.83182
烽	-8.83617
臨陣	-8.83714
衞	-8.8378
津	-8.8378
簡	-8.83797
匈奴	-8.83798
架	-8.83851
剛	-8.83852
東南至	-8.84261
主大將	-8.84408
寛	-8.84535
循	-8.84552
律	-8.84592
靖	-8.84622
紀	-8.8463
玉	-8.8464
二十里	-8.84648
骨	-8.84681
出入	-8.8478
之事	-8.85013
掌	-8.85252
毛	-8.85281
隔	-8.85289
宼	-8.85333
低	-8.85365
適	-8.85387
遏	-8.85389
切	-8.86101
限	-8.86132
感	-8.86136
㧞	-8.86164
足以	-8.86194
厯	-8.8622
太倉	-8.86235
劍	-8.86235
承	-8.8625
其後	-8.86367
而為	-8.86485
又曰	-8.8654
不足	-8.86644
戍	-8.8672
仲	-8.86781
竒正	-8.86788
裝	-8.86835
藝	-8.86839
衰	-8.86873
亥	-8.86901
包	-8.86901
御	-8.86904
愈	-8.86918
百人	-8.86946
父	-8.86949
本朝	-8.87169
祭	-8.87617
靜	-8.87631
驗	-8.87645
損	-8.87683
頓	-8.87689
駐	-8.88336
腹	-8.8841
十里	-8.88482
抽	-8.88483
室	-8.88494
旌旗	-8.88502
壕	-8.88505
罷	-8.88561
名曰	-8.88652
之處	-8.88746
使人	-8.88799
大軍	-8.88808
也夫	-8.88951
崑山	-8.89049
突厥	-8.89316
茍	-8.89317
西至	-8.89328
蠻	-8.89341
頃	-8.89343
𫝊	-8.89398
之後	-8.89599
不勝	-8.89918
而行	-8.90068
層	-8.90092
姦	-8.90174
五尺	-8.90509
地方	-8.90797
一尺	-8.90875
柱	-8.9092
不然	-8.90934
屈	-8.90961
亭	-8.90973
逸	-8.90976
皇	-8.90977
婁	-8.90999
額	-8.91045
五寸	-8.91175
相去	-8.9151
從之	-8.91577
禦之	-8.91609
卿	-8.91744
暗	-8.91746
驕	-8.9176
史	-8.91767
辭	-8.91773
割	-8.91824
儀	-8.92252
為一	-8.92257
一丈	-8.92378
十七	-8.92387
其下	-8.92465
𤣥	-8.9254
奸	-8.92602
二尺	-8.92735
斬之	-8.93177
㝷	-8.93451
不用	-8.9374
一曰	-8.93746
西北至	-8.93748
四尺	-8.93985
屋	-8.94221
弊	-8.9425
撥	-8.94254
泰	-8.94265
諭	-8.94311
之術	-8.94427
險阻	-8.94508
一隊	-8.94998
旬	-8.95025
斯	-8.95144
黨	-8.95157
穿	-8.95184
昏	-8.95186
眼	-8.95189
知其	-8.95201
㓙	-8.95222
蘇州	-8.95403
設伏	-8.95507
松	-8.95552
三尺	-8.95613
箇	-8.95719
製	-8.95757
畨	-8.95883
太宗曰	-8.95924
懸	-8.95937
節度	-8.95967
注	-8.96025
肉	-8.96124
温	-8.96133
五千	-8.9631
之中	-8.96313
李靖	-8.96404
一兩	-8.9649
補	-8.96834
否	-8.96892
凶	-8.96945
盤	-8.96961
煙	-8.96963
戸	-8.9707
斜	-8.97081
百步	-8.97159
水陸	-8.97245
大將軍	-8.97352
級	-8.97389
之用	-8.97444
固守	-8.97491
祖	-8.97588
一時	-8.97605
隊長	-8.97714
省	-8.97736
遮	-8.97756
饑	-8.97794
主人	-8.9788
可擊	-8.97965
往來	-8.98231
吏士	-8.98355
出戰	-8.98464
撃	-8.98518
敬	-8.98564
紹	-8.98592
之衆	-8.98622
胥	-8.98657
二十四	-8.98889
應之	-8.98933
者不	-8.99127
十一	-8.99229
為竒	-8.99243
篇	-8.99367
豫	-8.99467
陣法	-8.9948
哨官	-8.99482
隆	-8.99516
納	-8.99535
在於	-8.99554
䝉	-8.9957
倒	-8.99578
傍	-8.99583
之外	-8.99792
疋	-9.00362
旣	-9.00463
輔	-9.005
寶	-9.00518
五里	-9.00521
二丈	-9.00655
何也	-9.00886
盧	-9.0127
族	-9.01313
弗	-9.01324
湯	-9.01351
幕	-9.01356
弦	-9.01384
氣如	-9.01435
一枝	-9.01647
以備	-9.01775
得其	-9.02059
誤	-9.02132
輒	-9.02167
駕	-9.02172
試	-9.02219
塗	-9.02222
激	-9.02231
雞	-9.02256
汝	-9.02322
其衆	-9.02435
入城	-9.02525
其勢	-9.0258
四十里	-9.02642
一萬	-9.02676
栁	-9.03209
也若	-9.0338
戊	-9.04021
裹	-9.04039
郎	-9.04063
杜	-9.04088
𨽻	-9.04095
廟	-9.04104
扇	-9.04134
式	-9.04141
演	-9.04162
仰	-9.04182
矢石	-9.04359
有警	-9.04382
若干	-9.04421
斬首	-9.04472
節制	-9.04504
壬	-9.04834
虞候	-9.04947
伺	-9.05009
孟	-9.05015
七十	-9.05076
朝廷	-9.05091
懷	-9.05114
游	-9.05124
不出	-9.05754
一十	-9.05884
烟	-9.05926
樹	-9.05956
缺	-9.06004
吐蕃	-9.06031
錯	-9.06084
江南	-9.06703
獸	-9.06946
曉	-9.0698
卑	-9.06984
豐	-9.06996
盈	-9.06998
必勝	-9.07007
二里	-9.07076
一里	-9.07116
魁	-9.07166
總管	-9.0725
邀	-9.07374
城外	-9.07583
紅	-9.07629
捍	-9.07705
守之	-9.07747
訖	-9.07786
測	-9.07792
夘	-9.07834
完	-9.07853
截	-9.07863
捷	-9.07926
我軍	-9.07946
溝	-9.07965
畜	-9.07981
超	-9.07992
怨	-9.08005
之利	-9.0821
馬軍	-9.0827
率兵	-9.08422
而去	-9.08659
所在	-9.08683
利害	-9.08783
覺	-9.08877
暮	-9.08889
牢	-9.08897
了	-9.08941
沈	-9.08978
盗	-9.08979
壓	-9.09017
八十	-9.09161
五行	-9.09451
癸	-9.09783
孔	-9.0982
斧	-9.09871
排	-9.09886
底	-9.09914
認	-9.09919
劫	-9.09925
㓂	-9.0993
庫	-9.09933
大破之	-9.09951
僧	-9.09959
出軍	-9.09963
晝夜	-9.10026
篇第	-9.1011
死者	-9.1014
東北至	-9.10161
併	-9.10793
蔡	-9.10911
膽	-9.1092
賦	-9.10944
渭	-9.10945
雪	-9.1098
渠	-9.11007
觀其	-9.11205
甘	-9.11869
返	-9.11902
在外	-9.11903
慎	-9.11911
魯	-9.11914
柴	-9.11944
縣城	-9.11964
繞	-9.11975
握竒	-9.12035
灌	-9.12042
十步	-9.1211
要害	-9.12211
硝	-9.12551
技	-9.12799
朔	-9.12801
之數	-9.12889
乏	-9.12924
軍法	-9.12974
喪	-9.12978
者亦	-9.13006
𦂳	-9.1302
扼	-9.13026
妄	-9.13028
始擊將	-9.13043
嘉靖	-9.13087
後漢	-9.13205
三分	-9.13253
暈	-9.13254
者必	-9.13424
不戰	-9.13521
流星	-9.13654
麾	-9.13682
城内	-9.13737
國家	-9.13765
崇	-9.1381
騎兵	-9.13838
静	-9.13849
擺	-9.13902
帳	-9.13988
昭	-9.13999
距	-9.14
庸	-9.14001
略	-9.14003
蕭	-9.14006
美	-9.14043
靖曰	-9.14196
五十人	-9.14319
十五里	-9.14408
燈	-9.14726
如何	-9.14787
班	-9.14791
大敗之	-9.14793
丙	-9.14875
亮	-9.14898
戮	-9.15001
塵	-9.15013
枚	-9.15017
丘	-9.15087
蒼	-9.15091
水兵	-9.15107
賞罰	-9.15115
劉家河	-9.1514
聖人	-9.15207
百户	-9.15236
未嘗	-9.15361
之日	-9.15363
為正	-9.15411
六尺	-9.15418
險要	-9.15426
四方	-9.15465
天下之	-9.1579
國之	-9.15799
風雨	-9.1589
嘉	-9.15978
鐡	-9.1603
勁	-9.16035
踰	-9.16043
康	-9.16044
嗣	-9.16072
籍	-9.16086
毁	-9.16086
飢	-9.16088
塲	-9.16089
押	-9.16093
露	-9.16118
彭	-9.16126
必敗	-9.16327
不同	-9.16446
兵士	-9.16502
兵法	-9.16555
一名	-9.16922
五人	-9.16941
旗幟	-9.17079
竭	-9.17101
擾	-9.17108
蘇松	-9.1713
塹	-9.17141
三年	-9.17175
讓	-9.17202
百姓	-9.1721
曹操	-9.17237
精兵	-9.17392
形勢	-9.17512
縣治	-9.17601
不動	-9.17895
引兵	-9.17954
城門	-9.17996
二年	-9.18024
兵家	-9.18036
地形	-9.18047
艦	-9.18072
不相	-9.18134
摧	-9.18167
㨗	-9.18177
係	-9.18199
尖	-9.18221
幸	-9.18267
惠	-9.18283
在前	-9.18469
拒之	-9.18533
車騎	-9.18545
又有	-9.18757
挑	-9.18903
大夫	-9.1893
銅	-9.19154
棚	-9.19198
洛	-9.19199
其心	-9.19257
破之	-9.19266
増	-9.19311
短兵	-9.19494
其中	-9.19818
步兵	-9.19824
者可	-9.1989
十里西至	-9.20113
則為	-9.20137
兵法曰	-9.20181
零	-9.20297
筒	-9.20312
憲	-9.20337
效	-9.20352
欽	-9.20388
竊	-9.2041
採	-9.20415
牽	-9.20434
􁀙	-9.20474
營中	-9.20533
常熟	-9.20569
挾	-9.20576
火器	-9.20662
三人	-9.20809
其將	-9.20844
曰吾	-9.20875
之心	-9.20971
本府	-9.21005
數千	-9.21059
隴	-9.21375
標	-9.21434
季	-9.21489
各有	-9.21491
恭	-9.21512
疎	-9.21519
榮	-9.21521
巴	-9.21524
洪武	-9.21675
寸	-9.22213
鬼	-9.2242
第四	-9.22422
三萬	-9.22456
披	-9.2255
傾	-9.22563
詭	-9.22578
人也	-9.22587
貨	-9.22603
袁	-9.22612
剪	-9.22661
堰	-9.22797
方陣	-9.22801
之師	-9.22884
討之	-9.22935
針	-9.23365
之際	-9.23449
念	-9.23602
州刺史	-9.23621
腰	-9.23668
總兵	-9.23716
巨	-9.23721
農	-9.23742
捉	-9.23746
堂	-9.23778
賈	-9.2378
殘	-9.23782
縁	-9.2379
頗	-9.23813
蕩	-9.23862
柘林	-9.23895
也今	-9.23905
以待	-9.2396
虚實	-9.23961
州縣	-9.24154
雖有	-9.2456
數十	-9.24579
出兵	-9.24664
叔	-9.24847
涉	-9.24906
濠	-9.24971
枕	-9.25109
之計	-9.25148
海防	-9.25268
松江	-9.25342
軸	-9.25637
内外	-9.2565
不見	-9.25676
沿	-9.25712
者為	-9.25716
千餘人	-9.258
中有	-9.25894
洪	-9.25919
香	-9.25986
三里	-9.25999
輙	-9.26004
燧	-9.2604
徙	-9.2605
艾	-9.26054
鹿	-9.26063
汁	-9.26195
柔	-9.26231
賊至	-9.26349
奇兵	-9.26375
有功	-9.26571
大戰	-9.26595
日暈	-9.26639
三月	-9.2665
率衆	-9.26667
日辰	-9.26725
聞賊	-9.26973
梯	-9.27092
賀	-9.2715
偃	-9.27156
數萬	-9.27195
唯	-9.27204
早	-9.27207
庭	-9.27221
二十五	-9.27234
准	-9.27239
霧	-9.2725
墜	-9.2727
兆	-9.27315
専	-9.27351
崇明	-9.27358
之氣	-9.27359
駐隊	-9.27377
古人	-9.27432
孔明	-9.27483
使其	-9.27559
十人	-9.27613
太公	-9.27644
二萬	-9.27742
旅	-9.27753
殿	-9.28278
誓	-9.28295
以其	-9.28343
劄	-9.28344
汛	-9.28354
序	-9.28389
霸	-9.28401
怠	-9.28407
四百	-9.28409
有餘	-9.2841
奚	-9.28433
㣲	-9.2845
配	-9.28484
側	-9.28514
狗	-9.28516
邨	-9.28524
南滙	-9.28546
虹	-9.28567
變化	-9.28675
將帥	-9.28737
假令	-9.2884
百五十里	-9.28976
幽州	-9.2903
亦不	-9.29053
勝負	-9.29054
之制	-9.29297
弓兵	-9.29411
皆有	-9.29509
島	-9.29585
仗	-9.29585
付	-9.29591
漏	-9.29602
母	-9.29623
刼	-9.29631
僅	-9.29718
者以	-9.29832
拳	-9.29944
□	-9.29953
八尺	-9.29955
九十里	-9.30143
光武	-9.30194
受敵	-9.3024
先鋒	-9.30326
握	-9.30756
薪	-9.30791
籌	-9.308
究	-9.30816
乞	-9.30837
屢	-9.30847
擁	-9.30862
俗	-9.30899
瀆	-9.30978
立定	-9.31051
其國	-9.31172
千餘	-9.31201
步騎	-9.31231
挑戰	-9.31344
旦	-9.31352
臨敵	-9.31372
不必	-9.3166
有兵	-9.31947
途	-9.32061
綏	-9.32117
障	-9.32144
聞之	-9.32154
着	-9.32168
分兵	-9.3226
首尾	-9.32412
天子	-9.32445
向前	-9.32482
沿海	-9.32539
與之	-9.32554
之上	-9.32646
亦可	-9.32692
没	-9.33144
賊衆	-9.3318
三十六	-9.33225
出於	-9.33291
出其不意	-9.33293
挫	-9.3331
礮	-9.33323
囘	-9.33326
稽	-9.33369
勸	-9.33371
靣	-9.33377
諸葛亮	-9.33421
賤	-9.33426
韓信	-9.33435
尊	-9.33442
一軍	-9.33578
而出	-9.33606
臨時	-9.33704
數百	-9.3385
築城	-9.34227
停	-9.34589
磨	-9.34603
粟	-9.34651
鞍	-9.34663
泖	-9.34672
謝	-9.34685
較	-9.34711
金山	-9.34904
中國	-9.34929
二百里	-9.35044
知縣	-9.35127
隂陽	-9.35177
隊伍	-9.3521
逺近	-9.35267
吳江	-9.35296
辰星	-9.35415
百萬	-9.35493
其次	-9.35602
以防	-9.35604
今日	-9.35618
你	-9.35754
擲	-9.35799
響	-9.35807
隅	-9.35811
蘭	-9.35838
必死	-9.35871
桓	-9.35885
匿	-9.35893
釋	-9.35905
濬	-9.35922
録	-9.35923
廵	-9.3593
協	-9.35934
徹	-9.35936
狄	-9.35938
件	-9.35951
忘	-9.3596
與敵	-9.36001
戰而	-9.36269
元年	-9.36385
古之	-9.36628
死地	-9.36962
長鎗	-9.37104
逢	-9.37127
誰	-9.37222
述	-9.37252
印	-9.37262
顯	-9.37267
帛	-9.37276
擄	-9.37289
墓	-9.37333
之患	-9.376
之賊	-9.37649
不拘	-9.37652
一宫	-9.37979
人皆	-9.38003
三百里	-9.3802
故也	-9.3819
者所以	-9.38222
不便	-9.38274
次之	-9.38284
甲子	-9.38368
迭	-9.38391
嘉定	-9.38399
䡴	-9.38435
浪	-9.3845
攔	-9.38471
烈	-9.38471
匹	-9.38475
縛	-9.38491
攻其	-9.38496
豆	-9.38498
殊	-9.38519
爵	-9.38538
沒	-9.38539
尉	-9.38557
抱	-9.38578
弟	-9.38586
渾	-9.3859
賊舟	-9.38803
因而	-9.39083
二曰	-9.39295
是故	-9.39692
櫓	-9.39718
托	-9.39761
瓦	-9.39819
窺	-9.39827
獻	-9.3983
抗	-9.39846
四兩	-9.39857
戈	-9.39858
懐	-9.39884
險要説	-9.39938
柄	-9.39964
相應	-9.40156
者非	-9.40176
戰則	-9.40363
何以	-9.40388
以下	-9.4078
日月	-9.40901
抛	-9.40992
對曰	-9.41028
幡	-9.41041
百九十	-9.4105
應援	-9.41054
𤼵	-9.41094
一斤	-9.41096
增	-9.41101
炬	-9.4111
黎	-9.41144
荆州	-9.41152
填	-9.41156
兵馬	-9.41181
跳	-9.41223
歲	-9.4123
艘	-9.41237
坑	-9.41238
澗	-9.41268
牆	-9.41285
江隂	-9.41651
五月	-9.41732
八宫	-9.41837
八百	-9.41859
不從	-9.42007
而還	-9.42134
二千五百	-9.42205
予	-9.42496
冒	-9.4257
祐	-9.42574
扶	-9.42619
減	-9.4262
墻	-9.42622
未有	-9.42636
壽	-9.42652
寜	-9.42658
正月	-9.42718
甲寅	-9.42833
黄帝	-9.42989
為主	-9.43377
以此	-9.43418
五分	-9.43493
九宫	-9.43544
也此	-9.43548
福山	-9.43558
之道也	-9.43698
設備	-9.43874
以待之	-9.43875
悦	-9.43882
儲	-9.43907
兒	-9.43914
典	-9.43958
佯	-9.43962
隙	-9.43976
岳	-9.43987
疏	-9.43997
之象	-9.44016
取之	-9.4417
也凡	-9.44429
於外	-9.44515
大勝	-9.44622
里北至	-9.44667
避之	-9.44681
火藥	-9.4474
互	-9.44809
防守	-9.44813
與戰	-9.44897
其法	-9.45043
維	-9.45132
第五	-9.45163
右手	-9.45192
木為	-9.45204
信地	-9.45238
價	-9.45261
挨	-9.45281
茅	-9.45282
山川	-9.45287
擅	-9.45296
亟	-9.45333
段	-9.45336
三曰	-9.45353
吴	-9.45354
曾	-9.45356
煩	-9.45358
穴	-9.45368
飽	-9.45403
雍	-9.45413
駭	-9.45431
道也	-9.45446
尹	-9.45451
兵以	-9.45535
福船	-9.45625
五星	-9.45651
分合	-9.46022
間道	-9.46037
必先	-9.46045
其道	-9.46281
法也	-9.46361
戰者	-9.46413
行軍	-9.46553
地利	-9.46559
不和	-9.46586
下營	-9.46639
何謂	-9.46643
貢	-9.46727
懿	-9.46735
泄	-9.46767
慢	-9.46768
詣	-9.4678
坤	-9.46962
三宫	-9.46985
河北	-9.47139
曹公	-9.47194
長短	-9.47255
上有	-9.4739
七百	-9.47534
之情	-9.47564
將兵	-9.47677
遇敵	-9.4769
則有	-9.4802
一百二十	-9.48051
濕	-9.48086
鞭	-9.48189
狐	-9.48227
凖	-9.48246
脱	-9.48258
紫	-9.48258
英	-9.48266
祥	-9.48267
隱	-9.48274
秘	-9.48293
波	-9.48302
儉	-9.48318
灾	-9.48322
救之	-9.48348
屠	-9.48367
此謂	-9.48471
寳山	-9.48739
十日	-9.48872
法曰	-9.48918
太守	-9.4902
小門	-9.49037
港口	-9.49151
未可	-9.49444
二百五十	-9.49463
白旗	-9.49551
而下	-9.49636
憚	-9.49656
徴	-9.49672
雲如	-9.49679
貯	-9.49697
藉	-9.49712
謙	-9.49732
俘	-9.49733
卧	-9.49736
鍾	-9.49758
臂	-9.4977
禄	-9.49805
伊	-9.49817
齒	-9.4983
拿	-9.49931
待其	-9.50224
亦有	-9.50258
舉兵	-9.50325
精騎	-9.50383
左手	-9.50523
殺之	-9.50545
相持	-9.50757
二分	-9.50949
也然	-9.50989
片	-9.5104
犬	-9.51046
營陣	-9.51075
鄰	-9.51122
不可勝	-9.51169
遍	-9.51177
北門	-9.51186
檢	-9.51193
殆	-9.51216
斂	-9.51232
南門	-9.51233
太祖	-9.51272
淵	-9.51273
貧	-9.51293
鼻	-9.51415
金人	-9.51427
華亭	-9.51556
春秋時	-9.51565
而復	-9.51636
之所以	-9.51675
制之	-9.51855
而不能	-9.51873
四曰	-9.52038
孫子	-9.52221
戰隊	-9.52222
械	-9.52323
東方	-9.52634
卓	-9.52653
網	-9.52658
毅	-9.52659
囊	-9.52659
借	-9.5267
則無	-9.52673
鳥銃	-9.52688
惜	-9.52695
戴	-9.52722
蓄	-9.52732
廬	-9.5274
蒲	-9.52744
薛	-9.5275
墨	-9.52763
之義	-9.52764
靡	-9.52815
賊若	-9.52994
角聲	-9.53126
百四十	-9.53178
肯	-9.53188
三兩	-9.53398
沙船	-9.53532
十餘里	-9.5365
五日	-9.53768
輕騎	-9.53771
可用	-9.53809
四月	-9.53815
營壘	-9.53922
糧道	-9.54049
大潰	-9.54135
歡	-9.54185
騰	-9.54199
袋	-9.54225
綿	-9.54238
不明	-9.5425
搗	-9.5427
絞	-9.54275
抄	-9.54279
勵	-9.54283
覘	-9.54285
希	-9.54296
劒	-9.54337
七日	-9.54343
與賊	-9.54382
髙祖	-9.54433
追之	-9.54566
武侯	-9.54748
太公曰	-9.54781
如是	-9.54824
乘之	-9.54893
以來	-9.553
之要	-9.55352
赤氣	-9.5552
輸	-9.55747
凌	-9.55758
勾	-9.55778
潜	-9.55779
混	-9.55789
膏	-9.55803
笑	-9.55808
累	-9.55817
閲	-9.55828
添	-9.55831
獵	-9.55838
答	-9.55859
弛	-9.55878
進止	-9.55881
十里南至	-9.55917
熒惑	-9.55947
必須	-9.55973
弓箭	-9.56005
知之	-9.56104
手執	-9.56123
遣將	-9.5626
而用之	-9.56531
以致	-9.56697
成功	-9.56756
十斤	-9.56792
者勝	-9.5687
漢王	-9.56993
因其	-9.57032
不足以	-9.57225
砂	-9.57275
捕盜	-9.57277
蘆	-9.57311
卦	-9.57363
博	-9.57407
躍	-9.57409
鄧	-9.57428
其事	-9.57438
邉	-9.5745
不備	-9.57468
邪	-9.57521
西方	-9.57609
緩急	-9.57621
前後左右	-9.57645
部落	-9.57649
縱横	-9.57709
戰勝	-9.57772
軍門	-9.57917
不意	-9.581
明日	-9.58111
此之謂	-9.58298
兩軍	-9.58369
哨至	-9.58495
黄旗	-9.58592
十歩	-9.58761
丹	-9.58926
掛	-9.58954
圗	-9.58966
桿	-9.58967
撓	-9.58968
亞	-9.5897
講	-9.5899
釘	-9.5899
奈何	-9.59016
藏身	-9.59016
踐	-9.59033
談	-9.59043
餉	-9.59045
句	-9.59046
東門	-9.59051
漫	-9.59056
壊	-9.59059
繁	-9.59059
肆	-9.59062
姑	-9.59063
乍	-9.59066
悍	-9.59084
遽	-9.59084
粗	-9.59134
妖	-9.59138
麗	-9.59155
青邨	-9.59183
六花	-9.59519
國朝	-9.59781
不為	-9.59878
制勝	-9.60125
主客	-9.60134
一寸	-9.60258
浙	-9.60351
而擊之	-9.60384
衆寡	-9.60463
者則	-9.60468
裂	-9.6053
倦	-9.60557
豹	-9.60568
觸	-9.60586
之理	-9.60603
煎	-9.60606
涼	-9.60609
藍	-9.60612
括	-9.60616
芻	-9.60622
𢎞	-9.60633
徵	-9.60655
胄	-9.6068
僕	-9.60682
酋	-9.60692
沮	-9.60693
傅	-9.60704
冠	-9.60704
峽	-9.60735
災	-9.60753
暑	-9.60765
檀	-9.60799
都督	-9.60833
登岸	-9.60835
之具	-9.60835
金鼓	-9.61153
之變	-9.61181
一箇	-9.61364
萬一	-9.6148
常以	-9.61581
在乎	-9.61642
上海	-9.61686
為一隊	-9.61703
者即	-9.61801
無窮	-9.62134
曰今	-9.62152
由是	-9.62183
竟	-9.62289
禽	-9.623
觧	-9.62303
碎	-9.62306
掲	-9.62311
驢	-9.62321
跨	-9.62336
亷	-9.62352
驛	-9.62373
鏃	-9.62397
諫	-9.62418
漁	-9.62426
茂	-9.62476
丹陽	-9.62518
剋	-9.62633
浙江	-9.62658
十餘萬	-9.62681
一分	-9.62682
亦如之	-9.62698
六百	-9.62762
之名	-9.63028
其間	-9.63112
或曰	-9.63223
為客	-9.63353
行伍	-9.63799
人心	-9.63808
居民	-9.63872
有五	-9.63938
搖	-9.63946
言之	-9.63965
滚	-9.63994
矣然	-9.64011
潤	-9.64059
宇文	-9.64076
創	-9.64088
梅	-9.64095
曰天	-9.64132
泣	-9.64133
而退	-9.64265
地勢	-9.64355
一體	-9.64394
可得	-9.64401
示之	-9.6449
内地	-9.64622
西南至	-9.64756
者當	-9.65041
五百人	-9.65198
多少	-9.65228
將官	-9.65325
出海	-9.65345
在内	-9.65413
而入	-9.65439
曽	-9.65614
辱	-9.65658
四里	-9.65694
莊	-9.65696
各船	-9.65708
嘴	-9.65717
下有	-9.65734
粮	-9.65738
欺	-9.65763
衢	-9.65763
鉛子	-9.65765
斫	-9.65765
臯	-9.65766
鳯	-9.65774
措	-9.65774
鮮	-9.65777
沉	-9.6578
冀	-9.65784
握機	-9.65786
閘	-9.65858
賴	-9.65869
百餘里	-9.65878
五曰	-9.65916
六月	-9.65997
武藝	-9.6603
八十里	-9.66071
撃之	-9.66147
大小將	-9.66167
各兵	-9.66218
其形	-9.66262
一帶	-9.66332
頭目	-9.6642
武徳	-9.66505
風雲	-9.66609
曰此	-9.66808
三沙	-9.66969
子曰	-9.67124
上來	-9.67195
棒	-9.67349
我則	-9.67358
襄	-9.67397
杖	-9.6742
續	-9.6746
味	-9.67463
阜	-9.67473
席	-9.67475
桑	-9.67478
収	-9.67483
掘	-9.67485
翰	-9.67495
盟	-9.67495
范	-9.6752
敝	-9.67524
葦	-9.67528
忍	-9.67528
咎	-9.67529
帆	-9.67544
浸	-9.67571
竈	-9.67575
粉	-9.67591
工食	-9.67632
耕	-9.67638
七尺	-9.67822
山東	-9.67892
有竒	-9.67895
黄浦	-9.6802
川沙	-9.68028
遇賊	-9.68218
每一	-9.68333
王師	-9.6875
墩	-9.68913
大海	-9.68957
后	-9.69001
鉦	-9.69063
先是	-9.69132
驍	-9.69139
殷	-9.69157
埋	-9.69163
春秋	-9.69163
什	-9.69254
派	-9.6926
䑸	-9.69293
不可用	-9.69295
軌	-9.69296
江北	-9.69302
纛	-9.69323
歟	-9.69324
拽	-9.69324
氊	-9.69384
儒	-9.69387
迹	-9.69402
七寸	-9.69568
課	-9.69642
十月	-9.69776
京口	-9.69785
武帝	-9.69868
登城	-9.69876
君子	-9.70006
大陣	-9.70146
居中	-9.70229
不復	-9.70238
有三	-9.70263
而不可	-9.70461
戰陣	-9.70569
有二	-9.7058
十里北至	-9.70595
河東	-9.706
三丈	-9.70629
蝕	-9.70834
千六百	-9.70884
絲	-9.70927
熱	-9.71029
之功	-9.71043
荒	-9.71056
艮	-9.71059
寺	-9.71075
頂	-9.71079
善用兵者	-9.71086
無以	-9.71094
叢	-9.71122
中央	-9.71131
不可不	-9.71156
值	-9.71179
電	-9.71203
六里	-9.7121
陣圖	-9.7121
䑕	-9.71215
純	-9.71298
留都	-9.71325
不通	-9.71359
勝者	-9.71399
皆可	-9.71403
子儀	-9.71634
等處	-9.71673
已上	-9.71721
之内	-9.71766
砦東至	-9.71782
智者	-9.71796
二宫	-9.71843
之國	-9.7186
正兵	-9.71892
有事	-9.72012
四陣	-9.72036
首級	-9.72207
拘	-9.72228
後魏	-9.72244
分野	-9.72388
鼓聲	-9.72557
改為	-9.7261
七月	-9.72751
道路	-9.72827
三四	-9.72834
摩	-9.72842
闔	-9.72882
獠	-9.72901
護	-9.72903
蒙	-9.72914
驟	-9.72935
迴	-9.72936
溺	-9.7294
如有	-9.72961
龜	-9.72962
爛	-9.72965
偷	-9.72969
纔	-9.72972
峻	-9.72972
燭	-9.72991
漲	-9.7302
閃	-9.7303
水草	-9.7309
彌	-9.73091
六宫	-9.73123
里西至	-9.73162
倭寇	-9.73334
腿	-9.73343
軍行	-9.73406
吾軍	-9.73465
四宫	-9.73484
車輪	-9.73507
屯田	-9.7351
其上	-9.73543
百五十	-9.73559
以便	-9.73581
而至	-9.73665
長一丈	-9.73702
大水	-9.73724
當其	-9.73957
不失	-9.74018
副使	-9.74037
月暈	-9.74056
逐之	-9.74207
料敵	-9.74245
一凡	-9.7441
之形	-9.74447
勇者	-9.74489
而不知	-9.74518
今之	-9.74528
喇叭	-9.74542
盞	-9.74629
炭	-9.74678
迷	-9.74684
其餘	-9.74736
厭	-9.74742
壅	-9.74775
為用	-9.74783
村	-9.74823
猪	-9.74833
辯	-9.74836
俾	-9.7484
跡	-9.74848
属	-9.74849
藤	-9.7485
哭	-9.74853
巷	-9.7486
介	-9.74867
頭上	-9.7487
卜	-9.74876
基	-9.74892
侍	-9.74911
啓	-9.74913
董	-9.74921
大兵	-9.74935
使敵	-9.75032
併力	-9.7506
連坐	-9.7506
百餘	-9.75183
賊船	-9.7522
靖江	-9.75403
指揮使	-9.75421
二兩	-9.75634
豈能	-9.75638
出竒	-9.75687
四年	-9.75809
行營	-9.7585
取勝	-9.75937
不在	-9.76084
暇	-9.761
行則	-9.76164
用此	-9.76229
水戰	-9.76279
長洲	-9.76394
變為	-9.76409
所臨	-9.76409
吐	-9.76565
眞	-9.76655
番	-9.76668
阿	-9.76678
鴉	-9.76734
晦	-9.76748
遵	-9.7675
矛	-9.76756
紛	-9.76771
勉	-9.76782
竇	-9.76801
八月	-9.76807
慰	-9.7682
搜	-9.7684
活	-9.76842
牛皮	-9.76845
郊	-9.76859
雲梯	-9.76879
濱	-9.76939
七宫	-9.76974
後世	-9.77098
百二十里	-9.77141
青龍	-9.77281
千户	-9.77403
無備	-9.77409
在後	-9.77472
有伏兵	-9.77666
草木	-9.77691
一陣	-9.77727
無事	-9.77738
奮擊	-9.77839
縱火	-9.77844
手足	-9.77897
山林	-9.77929
自然	-9.78189
其言	-9.78268
乘勝	-9.78279
個	-9.78402
里西南至	-9.78529
恤	-9.78607
中間	-9.78614
挿	-9.78621
拍	-9.78653
倚	-9.78673
奴	-9.78673
履	-9.7869
軫	-9.78694
汗	-9.78706
熊	-9.7871
憑	-9.78713
彈	-9.78716
訓	-9.7872
浩	-9.78722
檄	-9.78729
不止	-9.78751
勤	-9.78751
署	-9.78768
麟	-9.78808
洗	-9.78809
説曰	-9.78809
備之	-9.78842
軍營	-9.78862
而前	-9.78902
即以	-9.78912
不測	-9.79066
不至	-9.79073
孫武	-9.79159
天道	-9.79547
郡城	-9.79562
二月	-9.79602
領兵	-9.79659
無錫	-9.79667
夜半	-9.79731
而上	-9.79775
牛馬	-9.79858
百餘人	-9.7987
三面	-9.7999
不得已	-9.79991
於後	-9.80153
不宜	-9.8026
戰於	-9.80267
天時	-9.80291
令人	-9.80302
一聲	-9.80381
若敵	-9.80534
釁	-9.80553
霜	-9.8061
鑚	-9.80627
大江	-9.80633
為上	-9.80636
左右廂	-9.80639
攻守	-9.80649
飾	-9.80679
訪	-9.80688
陛下	-9.80697
黃	-9.80716
躡	-9.80727
捨	-9.80736
另	-9.80737
汲	-9.8074
壞	-9.80741
之罪	-9.80742
糞	-9.80747
矩	-9.80789
區	-9.808
輿	-9.8081
又以	-9.80826
宫内迫	-9.8083
􁁊	-9.8084
教塲	-9.80858
穀	-9.80874
四人	-9.80961
公孫	-9.8114
耳目	-9.81174
六千	-9.8119
者此	-9.81243
進攻	-9.81253
士衆	-9.81503
互相	-9.81576
不入	-9.81582
縣境	-9.8166
在我	-9.81734
堪	-9.81795
居前	-9.81829
旗鼓	-9.81891
幽	-9.81942
山谷	-9.81951
此為	-9.82065
交戰	-9.82192
平日	-9.82213
五色	-9.82282
之權	-9.82324
弩手	-9.82382
之力	-9.8245
瘡	-9.82565
漆	-9.82582
宛	-9.82662
亘	-9.82709
呈	-9.82712
荀	-9.82729
肩	-9.82746
樵	-9.82747
汾	-9.82753
韋	-9.82761
様	-9.82768
銜枚	-9.82776
五丈	-9.8278
彦	-9.82786
抑	-9.82793
陸兵	-9.82799
訓練	-9.828
愬	-9.82813
健	-9.82822
悔	-9.82836
慕容	-9.82845
弓矢	-9.82851
供	-9.82864
壤	-9.82874
豪	-9.82876
妻子	-9.82899
所向	-9.8303
太原	-9.83045
兩端	-9.83121
部伍	-9.83156
第十	-9.83176
七里	-9.8318
火箭	-9.83182
奔走	-9.83263
遁去	-9.83505
生擒	-9.83694
海中	-9.83845
是為	-9.83968
四分	-9.84023
大門	-9.84027
五萬	-9.84168
不進	-9.84172
取其	-9.842
對敵	-9.84203
第六	-9.84272
一半	-9.84423
行陣	-9.84585
大風	-9.84594
古法	-9.84635
唱	-9.84645
公曰	-9.84656
筏	-9.84656
蓬	-9.84672
賊自	-9.84722
扎	-9.84765
丸	-9.84772
厥	-9.84779
凉	-9.84795
挽	-9.84813
舒	-9.84832
閣	-9.84832
掣	-9.84835
辦	-9.84839
羸	-9.84902
昴	-9.84907
馭	-9.84908
斥	-9.84909
題	-9.84909
太倉州	-9.84916
晟	-9.84927
遥	-9.84931
舞	-9.84932
餌	-9.84935
岡	-9.84987
邦	-9.85004
占曰	-9.85014
桂	-9.85026
開門	-9.8507
堅壁	-9.85081
列陣	-9.85083
追擊	-9.85145
兩旁	-9.85334
可擊也	-9.85338
一百七十	-9.85375
居之	-9.85413
二寸	-9.85489
用其	-9.85754
海洋	-9.86262
之故	-9.86306
其兵	-9.86308
步卒	-9.86318
人主	-9.86323
三十二	-9.86584
之衝	-9.86614
叅	-9.86655
不虞	-9.86723
堠	-9.86732
籠	-9.8687
税	-9.86877
跪	-9.86933
仙	-9.86941
院	-9.86941
擂	-9.86946
饒	-9.86947
葛	-9.86948
痛	-9.86962
匠	-9.86969
曠	-9.86969
夕	-9.86973
裕	-9.86993
牡	-9.86996
拜	-9.87009
惰	-9.87016
嘉興	-9.87021
驍勇	-9.87048
輩	-9.87074
削	-9.87075
絡	-9.87085
無功	-9.87299
不絶	-9.87411
西門	-9.87462
大旗	-9.87496
萬物	-9.87507
因敵	-9.87526
敗走	-9.87536
建徳	-9.87571
宜興	-9.877
七十二	-9.87823
各以	-9.87953
前鋒	-9.88037
萬餘	-9.88161
守備	-9.88176
上城	-9.88236
可謂	-9.8834
之機	-9.88347
敵若	-9.88368
書曰	-9.88429
九月	-9.88551
金星	-9.88554
廂	-9.88903
擊敗之	-9.88905
扣	-9.88945
哨長	-9.88975
翔	-9.88985
麥	-9.89037
袍	-9.89043
換	-9.89091
分布	-9.89091
遜	-9.89103
帯	-9.89107
踏	-9.89117
嵩	-9.89127
科	-9.89141
鄴	-9.89145
怪	-9.89151
相救	-9.89155
舖	-9.89163
影	-9.89171
恱	-9.89187
研	-9.8919
亦無	-9.89198
展	-9.89209
館	-9.89225
隄	-9.89231
洩	-9.89272
鳳	-9.89289
𤓰	-9.89309
盜賊	-9.89321
浜	-9.89377
何如	-9.89392
魏將	-9.89414
仁義	-9.89461
壯士	-9.89516
百八十里	-9.89571
所部	-9.89655
長安	-9.89696
者謂之	-9.89719
策應	-9.8982
如前	-9.89855
之意	-9.899
十二月	-9.89953
莫不	-9.901
後周	-9.90143
兩邊	-9.9025
相對	-9.90317
乃可	-9.90353
一旦	-9.9058
上流	-9.90622
戰必	-9.90627
砦在	-9.90639
或問	-9.90789
望見	-9.90803
六十四	-9.90841
錫	-9.91049
行列	-9.9107
衝兵	-9.9107
囉	-9.91096
彰	-9.91229
十分	-9.91239
絹	-9.91246
諜	-9.91253
國初	-9.91309
穰苴	-9.91316
蒺藜	-9.91326
縮	-9.91343
掃	-9.91349
浚	-9.91359
肥	-9.91359
炎	-9.91361
倫	-9.91375
僉	-9.91381
姚	-9.91381
歇	-9.91399
莽	-9.91402
悞	-9.91402
韜	-9.91421
梢	-9.91422
閭	-9.91427
暉	-9.91434
陶	-9.91437
二十八	-9.91467
丞	-9.91474
呌	-9.91476
昆	-9.91486
巡檢	-9.91499
部署	-9.91502
操練	-9.91553
其機	-9.91635
髙下	-9.91675
勾陳	-9.91684
觀之	-9.9176
强弱	-9.91775
布陣	-9.91813
統領	-9.91825
數十里	-9.91849
五百里	-9.91919
四寸	-9.92077
一百三十	-9.92088
數日	-9.9212
兩翼	-9.92123
月蝕	-9.92148
二十七	-9.92223
賊來	-9.92231
勝敗	-9.92308
率然	-9.92466
之徒	-9.92591
有四	-9.92605
君臣	-9.92646
崑山縣	-9.92701
脚下	-9.92775
放火	-9.92822
必由	-9.92834
重兵	-9.93067
地道	-9.93083
入海	-9.93144
賊首	-9.93385
若此	-9.93442
水路	-9.93491
第七	-9.93498
優	-9.93547
錐	-9.93553
搭	-9.9356
拾	-9.93568
爪	-9.9359
陸路	-9.93598
蹙	-9.93618
鈐	-9.93626
契	-9.93635
世充	-9.93667
前軍	-9.93668
俊	-9.93672
搏	-9.93679
灣	-9.93684
八人	-9.93692
韶	-9.93705
甕	-9.93707
幷	-9.93711
間諜	-9.93713
脩	-9.93723
城池	-9.93736
漕	-9.93742
垣	-9.93752
交鋒	-9.93757
項羽	-9.93763
坎	-9.93865
八卦	-9.93866
衍	-9.93886
者多	-9.93929
起兵	-9.9395
八寸	-9.93991
動則	-9.94012
衝突	-9.9413
甲長	-9.94134
客挾	-9.94181
西魏	-9.94258
六寸	-9.94259
三寸	-9.94279
兵少	-9.94322
白虎	-9.94504
平時	-9.94505
得之	-9.94552
練兵	-9.94556
火攻	-9.95032
矣故	-9.95056
莫能	-9.95072
陣也	-9.95108
一百五十	-9.95205
不知其	-9.95256
至城下	-9.9531
五六	-9.95324
西界	-9.95336
遣人	-9.95347
大呼	-9.95402
之戰	-9.95427
南方	-9.95492
待之	-9.95578
線	-9.95645
蟲	-9.95729
江海	-9.95759
死戰	-9.95846
脂	-9.95861
繡	-9.95863
叉	-9.95872
質	-9.95883
那	-9.95905
濤	-9.95914
舶	-9.95918
大抵	-9.95924
减	-9.95925
巫	-9.95925
準	-9.95929
逓	-9.9593
錦	-9.95934
昧	-9.95947
閒	-9.95956
窩	-9.95957
豪傑	-9.95958
曺公	-9.95961
濵	-9.95968
斃	-9.95973
槳	-9.95977
邇	-9.95979
渉	-9.95981
鷄	-9.95991
引軍	-9.95997
殃	-9.96005
透	-9.96008
祝	-9.96009
賂	-9.9601
貌	-9.96012
侮	-9.96019
戚	-9.96052
耆民	-9.96054
兩頭	-9.9606
以爲	-9.96063
洛陽	-9.96137
掩襲	-9.96142
一把	-9.96182
風后	-9.96241
十一月	-9.96297
之説	-9.96339
合戰	-9.96394
捍禦	-9.96403
蘇州府	-9.96446
設險	-9.9659
力戰	-9.96607
四竒	-9.96628
如此則	-9.96785
鎮江	-9.96865
天員	-9.96876
最為	-9.9694
二十步	-9.96981
自是	-9.97077
平原	-9.97078
凡戰	-9.97079
吳淞	-9.97146
發放	-9.97192
即是	-9.97247
引去	-9.97311
晉師	-9.97497
府城	-9.97543
北方	-9.9755
者斬之	-9.9758
一丈五尺	-9.97596
海口	-9.97681
立功	-9.97717
放砲	-9.9773
故能	-9.97816
不整	-9.97893
東魏	-9.97917
二十六	-9.98088
殺賊	-9.98171
桶	-9.9818
桃	-9.98249
芒	-9.98274
崩	-9.98293
版	-9.98305
忻	-9.98305
侃	-9.9831
而走	-9.98339
貳	-9.9834
綱	-9.98341
逹	-9.98345
拐	-9.9837
譬	-9.98379
街	-9.98381
快	-9.98397
鈀	-9.98397
圏	-9.98403
躬	-9.98405
踵	-9.98406
夢	-9.9842
鈍	-9.98431
鼎	-9.98445
套	-9.98452
顛	-9.98453
叙	-9.98462
勲	-9.98505
貞	-9.98534
相接	-9.98609
鬼神	-9.98609
我師	-9.98748
石灰	-9.98839
節度使	-9.98946
乎此	-9.98992
本隊	-9.99034
二斤	-9.99037
天衡	-9.99069
麾下	-9.99069
斬獲	-9.99116
太陽	-9.99171
鳴金	-9.992
起火	-9.9924
天地之	-9.99241
千户所	-9.99267
古者	-9.99311
不堪	-9.99345
有司	-9.99358
狀如	-9.99538
五代	-9.99712
十八里	-9.99799
戰車	-9.99834
亦以	-9.9993
三箇	-9.99998
㕘	-10.0019
將領	-10.0034
水軍	-10.0036
唵	-10.0047
洲	-10.0056
栢	-10.0062
姓	-10.0062
轅	-10.0065
碗	-10.0066
者敗	-10.0069
醜	-10.007
股	-10.0071
産	-10.0071
六甲	-10.0071
軟	-10.0071
讀	-10.0072
㦸	-10.0073
栅	-10.0074
童	-10.0074
旱	-10.0077
迅	-10.0077
羈縻	-10.0077
之言	-10.0078
毋	-10.0078
無常	-10.0079
閑	-10.008
縳	-10.008
顔	-10.0081
髪	-10.0081
亢	-10.0081
促	-10.0081
廷	-10.0081
楚師	-10.0082
懈	-10.0087
宫外迫	-10.0088
白茆	-10.0089
孝寛	-10.009
搶	-10.0095
珥	-10.0095
滄	-10.0096
鹿角	-10.0097
黄石公	-10.0106
州治	-10.0109
莫敢	-10.0112
大吉	-10.0131
五兩	-10.0131
為正兵	-10.014
多寡	-10.0145
金皷	-10.0148
舊制	-10.0167
而能	-10.0182
來攻	-10.0184
歩騎	-10.0186
出師	-10.019
應變	-10.0191
擊大破之	-10.0195
相近	-10.0203
徳安	-10.0209
者任	-10.0256
客勝	-10.0261
結陣	-10.0265
所當	-10.0265
不肯	-10.027
由此	-10.0275
之民	-10.0276
安能	-10.0278
硫	-10.0279
之南	-10.0294
或用	-10.0298
戰鋒隊	-10.0308
筋	-10.0315
塊	-10.0315
敦	-10.032
硬	-10.032
脊	-10.0321
豎	-10.0321
矟	-10.0321
陜	-10.0323
攝	-10.0324
崔	-10.0325
趕	-10.0326
兇	-10.0328
相遇	-10.033
潭	-10.0332
洮	-10.0334
乃令	-10.0336
怖	-10.0337
堅守	-10.0338
淫	-10.0342
都督府	-10.0344
表裏	-10.0344
丹徒	-10.0345
以鐵	-10.0347
之陣	-10.0347
剃	-10.0348
金山衛	-10.0351
松江府	-10.0354
一處	-10.0357
單于	-10.0365
二十五里	-10.0373
防禦	-10.0393
未定	-10.0402
一錢	-10.0416
長驅	-10.0424
降者	-10.0427
遣使	-10.0433
客兵	-10.0451
拒馬	-10.0461
前校	-10.0475
之役	-10.0476
三千人	-10.0487
敵國	-10.049
甲士	-10.0491
六曰	-10.0493
甚衆	-10.05
公子	-10.0506
白氣	-10.0508
或如	-10.0521
四十五里	-10.0529
一層	-10.0545
勺	-10.0559
西山	-10.0561
遞	-10.0572
璘	-10.0578
胃	-10.0579
艱	-10.058
叡	-10.0581
馮	-10.0582
砍	-10.0582
域	-10.0582
朕	-10.0583
酌	-10.0583
疫	-10.0584
姜	-10.0584
漠	-10.0585
苗	-10.0586
未知	-10.0587
箕	-10.0588
嚮	-10.0589
父母	-10.0589
㫖	-10.059
杭	-10.059
阨	-10.0591
曜	-10.0591
偶	-10.0594
戰士	-10.0595
赦	-10.0598
窪	-10.0599
磚石	-10.06
幟	-10.06
鉞	-10.0602
不容	-10.0603
舌	-10.0605
為賊所	-10.0614
黄河	-10.0615
偃月	-10.0618
𤣥武	-10.0629
五十步	-10.0642
林木	-10.065
奪其	-10.0656
矣今	-10.067
軍上氣	-10.0674
太平	-10.0674
東京	-10.0684
救援	-10.069
為末	-10.0713
客星	-10.0714
敵臺	-10.0725
進兵	-10.0736
江陰	-10.0742
邀擊	-10.0749
其家	-10.076
七年	-10.0763
衛所	-10.0771
之禍	-10.0784
六國	-10.0785
無益	-10.0786
自古	-10.0807
良將	-10.0809
令士卒	-10.081
向來	-10.0821
應敵	-10.0825
黙	-10.0828
綂	-10.0829
釐	-10.083
城郭	-10.0835
毫	-10.0837
効	-10.084
買	-10.084
揮	-10.0844
畆	-10.0846
蹈	-10.0846
氐	-10.0846
轄	-10.0846
齎	-10.0846
攸	-10.0847
厰	-10.0848
佚	-10.0848
醫	-10.0849
撰	-10.085
揺	-10.085
詰	-10.0852
寄	-10.0853
庻	-10.0853
懦	-10.0854
纂	-10.0854
磧	-10.0855
疆	-10.0863
兩軍相當	-10.0869
虛實	-10.0872
攻具	-10.0877
動靜	-10.0878
刺史	-10.0882
哨探	-10.0884
眉	-10.0884
賊勢	-10.0884
次第	-10.0923
受命	-10.0938
所見	-10.0949
府治	-10.0966
戰國	-10.0984
行師	-10.0984
不克	-10.1001
十年	-10.1018
急攻	-10.1018
圍城	-10.103
八日	-10.1031
欲得	-10.1051
相連	-10.1092
煉	-10.1095
餘級	-10.1099
舸	-10.1099
所居	-10.11
譟	-10.1103
兔	-10.1109
析	-10.111
燔	-10.111
絳	-10.1111
形如	-10.1113
蘓	-10.1114
蜂	-10.1114
奢	-10.1116
忿	-10.1116
槽	-10.1116
導	-10.1117
社	-10.1118
賣	-10.1119
掉	-10.1121
緣	-10.1123
弇	-10.1123
踈	-10.1123
奎	-10.1124
暢	-10.1125
女牆	-10.1126
耀	-10.1126
錄	-10.1127
舟楫	-10.1129
呉淞江	-10.1129
簿	-10.113
慶厯中	-10.1133
婦人	-10.1135
鳥翔	-10.114
金瘡	-10.1141
老弱	-10.1154
鎮撫	-10.1169
吳縣	-10.1178
楚子	-10.1183
四隅	-10.1184
一丈二尺	-10.1203
主挾	-10.1211
一由	-10.1216
偏將	-10.1218
後手	-10.1228
先據	-10.126
數十人	-10.129
吳起	-10.1304
一百八十	-10.1314
直陣	-10.1322
砲石	-10.1347
輕重	-10.137
接戰	-10.1378
江南經畧	-10.1384
牒	-10.1388
乖	-10.1391
茒	-10.1392
凢	-10.1392
藩	-10.1395
迂	-10.1396
聨	-10.1397
奸細	-10.1397
獄	-10.1397
仇	-10.1398
燃	-10.1399
脫	-10.1399
可恃	-10.14
两	-10.1401
趣	-10.1402
飛鳥	-10.1403
沛	-10.1403
蟠	-10.1404
諸葛	-10.1409
衙門	-10.141
鑒	-10.1411
嫌	-10.1412
胷	-10.1415
桄	-10.1418
善戰者	-10.1431
虎翼	-10.1434
者斬一	-10.1435
也是以	-10.1438
衆心	-10.1447
諸隊	-10.1449
糧食	-10.147
十五年	-10.1474
中國之	-10.1477
破敵	-10.1481
嘉定縣	-10.1492
首領	-10.1493
天文	-10.1495
有所不	-10.1502
劉河	-10.151
主目	-10.1537
萬餘人	-10.156
方可	-10.1563
員名	-10.1586
子午	-10.1607
入寇	-10.1637
春秋時楚	-10.1654
桅	-10.1668
妻	-10.1669
膠	-10.1671
窄	-10.1673
撒	-10.1674
焦	-10.1674
弔	-10.1675
譎	-10.1675
㐫	-10.1675
欵	-10.1676
嗟	-10.1678
陞	-10.1678
玩	-10.1679
黔	-10.1682
孟瀆	-10.1683
樊	-10.1684
余	-10.1684
慈	-10.1684
或由	-10.1685
軍䜟曰	-10.1686
㫁	-10.1686
俄	-10.1686
聰	-10.1688
萇	-10.1688
島寇	-10.1689
濁	-10.169
弰	-10.1691
紂	-10.1692
傔	-10.1693
堤	-10.1698
饗	-10.1701
為敵所	-10.1705
腹心	-10.1706
鼓譟	-10.1715
他棍	-10.1719
流血	-10.1727
被賊	-10.1731
衝鋒	-10.1751
中原	-10.1752
渡河	-10.1784
遊兵	-10.1793
反間	-10.1814
周公	-10.186
此法	-10.1869
每隊	-10.1876
吳子	-10.1887
方圓	-10.1887
盪	-10.1935
淨	-10.1941
給與	-10.1952
攻圍	-10.1953
幅	-10.1955
劔	-10.1961
榖	-10.1962
鎧	-10.1962
磚	-10.1964
炒	-10.1965
义	-10.1965
灘	-10.1966
戳	-10.1966
喧	-10.1968
悟	-10.197
霆	-10.1971
寵	-10.1971
竅	-10.1971
筅	-10.1973
撞	-10.1973
台	-10.1973
勅	-10.1973
牝	-10.1974
皷譟	-10.1974
嬰	-10.1975
敖	-10.1976
屏	-10.1976
巾	-10.1977
銑	-10.1977
消	-10.1978
總督	-10.1979
觜	-10.1982
歌	-10.1982
洞庭	-10.1983
俯	-10.1986
穆	-10.1986
晚	-10.1987
姓名	-10.1991
武王曰	-10.1992
垜口	-10.1995
七千五百	-10.1996
豈有	-10.1997
更畨	-10.2
施行	-10.2009
朔方	-10.2012
五方旗	-10.2015
誤事	-10.2015
第九	-10.2028
仁厚	-10.2028
聲援	-10.2031
吳淞所	-10.2047
第八	-10.2056
徃來	-10.206
尚書	-10.2062
備倭	-10.2082
險易	-10.2095
夾攻	-10.2117
周圍	-10.2117
舟師	-10.2126
甚多	-10.2167
平望	-10.2176
帥師	-10.218
毬	-10.2195
元帥	-10.2206
二錢	-10.2209
南沙	-10.222
黑氣	-10.2223
江口	-10.2235
蠱	-10.2236
舵工	-10.2256
霹靂	-10.2257
拏	-10.2258
跳盪	-10.2259
療	-10.2261
鑼	-10.2268
茶	-10.2269
榆	-10.2271
擬	-10.2271
潼	-10.2272
競	-10.2272
舗	-10.2273
滑	-10.2274
般	-10.2274
喝	-10.2276
臥	-10.2276
咸平中	-10.2277
光弼	-10.2279
逰	-10.2279
幹	-10.228
翻	-10.2281
匱	-10.2281
晨	-10.2281
善用	-10.2282
禀	-10.2282
猝	-10.2283
鄙	-10.2283
恪	-10.2283
半斤	-10.2284
須臾	-10.2284
敏	-10.2284
諳	-10.2286
頻	-10.2286
焰	-10.2286
桀	-10.2288
袤	-10.2288
品	-10.229
貼	-10.229
李筌	-10.2291
允	-10.2292
嗚呼	-10.2293
覇	-10.2295
都御史	-10.2298
宅	-10.2301
坡	-10.2303
選鋒	-10.2311
遇警	-10.2315
吳越	-10.2316
若曽	-10.2316
勿令	-10.2318
對樓	-10.2324
遁走	-10.2324
精鋭	-10.233
築堡	-10.2338
大將囚	-10.2345
預備	-10.2347
孫子曰	-10.2387
夾擊	-10.2394
家橋	-10.2415
古今	-10.2426
將吏	-10.2437
軍旅	-10.247
諸將皆	-10.2475
三十人	-10.2519
宫格	-10.253
赤雲	-10.2539
照前	-10.2544
鉛	-10.2558
賊徒	-10.2563
要路	-10.2571
馬步	-10.2571
祠	-10.2573
彬	-10.2573
乳	-10.2577
飯	-10.2579
霍	-10.258
冐	-10.2581
算短	-10.2581
鎖	-10.2582
夀	-10.2583
呐喊	-10.2583
譙	-10.2584
炊	-10.2585
巽	-10.2587
裨	-10.2587
撲	-10.2589
佛	-10.2591
慣	-10.2592
壩	-10.2592
潘	-10.2592
杜塞無門	-10.2592
現	-10.2593
翦	-10.2593
迄	-10.2595
旌	-10.2596
一百六十	-10.2599
狂	-10.2599
郢	-10.26
耿	-10.26
五人為伍	-10.26
朱雀	-10.26
苻堅	-10.2601
週	-10.2602
葑	-10.2603
瓶	-10.2604
肘	-10.2605
陂	-10.2606
紅旗	-10.2609
殊不知	-10.2611
世衡	-10.2618
勇怯	-10.262
積聚	-10.2626
訣	-10.2628
飲食	-10.2632
九尺	-10.2636
晉侯	-10.2641
仲文	-10.2641
唐太宗	-10.2644
半渡	-10.2664
長二丈	-10.2683
興師	-10.2704
不暇	-10.2707
制度	-10.2735
四十里南至	-10.2737
八里	-10.2779
圓陣	-10.2788
陸行	-10.2834
五斤	-10.2857
砦在縣東	-10.2888
全勝	-10.289
瞭	-10.2891
鍋	-10.2892
稟	-10.2899
睡	-10.2901
左廂	-10.2901
鷹	-10.2906
判	-10.2906
英雄	-10.2909
疊	-10.291
宴	-10.291
床	-10.291
倶	-10.291
盆	-10.2912
隰	-10.2912
蠡	-10.2912
倖	-10.2912
眀	-10.2912
武王問太公曰	-10.2913
誕	-10.2913
讒	-10.2913
伸	-10.2915
犒	-10.2915
恒	-10.2915
厲	-10.2915
箱	-10.2916
𣲖	-10.2916
龍虎鳥蛇	-10.2917
瓊	-10.2918
縫	-10.2918
岐	-10.2918
做	-10.2919
二十八宿	-10.2919
詞	-10.292
膊	-10.2921
僻	-10.2922
廉	-10.2922
捺	-10.2923
十二年	-10.2924
壮	-10.2924
提督	-10.2929
敗績	-10.293
煜	-10.2932
在縣治東	-10.2933
放銃	-10.2935
浙直	-10.2935
軍如是者斬之	-10.2935
算長和	-10.2936
爲之奈何太公曰	-10.2936
友	-10.2937
動静	-10.2943
財物	-10.2951
直符	-10.2956
殿後	-10.2979
民壯	-10.298
出没	-10.2983
左右前後	-10.2984
十三年	-10.2991
只是	-10.2992
江防	-10.3017
逐北	-10.3053
樓船	-10.3058
地軸	-10.3074
四十里北至	-10.3088
營寨	-10.3098
揚州	-10.3103
三十里北至	-10.3191
尼	-10.3229
槌	-10.3229
舵	-10.3232
雉	-10.3232
蠟	-10.3233
蕃界	-10.3236
冷	-10.324
闢	-10.324
旛	-10.3242
彗	-10.3242
桐	-10.3242
綂領	-10.3242
棹	-10.3243
哀	-10.3244
千户一員	-10.3244
悖	-10.3245
吐谷渾	-10.3245
郤	-10.3246
鋼	-10.3247
暫	-10.3247
金壇	-10.3247
醋	-10.3247
擡	-10.3248
饋	-10.3249
囂	-10.3249
惶	-10.3249
亾	-10.325
甫	-10.325
裁	-10.3252
遶	-10.3253
拱	-10.3255
堵	-10.3256
屍	-10.3256
令軍中	-10.3258
樞	-10.3259
天罡	-10.3259
謁	-10.326
詩	-10.3261
璋	-10.3261
租	-10.3261
斛	-10.3263
藥線	-10.3264
如之何	-10.3265
繕	-10.3266
遙	-10.3267
腦	-10.3273
孫權	-10.3279
一百二十里	-10.3287
約束	-10.329
調度	-10.3292
千四百	-10.3295
截殺	-10.3297
常熟縣	-10.3306
張良	-10.3314
火毬	-10.3318
長五尺	-10.3331
陰陽	-10.3348
登明	-10.338
退走	-10.3429
登髙	-10.347
分為二	-10.3505
九里	-10.3528
數百人	-10.353
海鹽	-10.3547
采	-10.3573
右廂	-10.3575
銜	-10.3577
膝	-10.3582
勘	-10.3584
鵲	-10.3585
詡	-10.3585
兹	-10.3586
寢	-10.3586
園	-10.3587
恨	-10.3589
罕	-10.3589
淄	-10.359
吞	-10.3591
飄	-10.3591
甃	-10.3591
揀	-10.3591
許洞曰	-10.3592
擔	-10.3592
愼	-10.3593
休息	-10.3593
稜	-10.3593
範	-10.3593
瀘	-10.3593
筆	-10.3594
隣	-10.3595
泛	-10.3595
雌	-10.3595
咒曰	-10.3597
祿	-10.3597
禆	-10.3597
捧	-10.3597
滋	-10.3598
簇	-10.3601
杵	-10.3602
藤牌	-10.3602
城池考	-10.3603
柳	-10.3604
礟	-10.3605
鵝	-10.3606
世忠	-10.3606
紇	-10.3607
尸	-10.3607
女真	-10.3608
十七里	-10.3609
彗星	-10.361
北至界首	-10.3613
皇帝	-10.3613
纒	-10.3613
溪洞	-10.3641
部曲	-10.3653
長技	-10.3654
往往	-10.3663
嵗星	-10.367
四維	-10.3675
黑旗	-10.3675
戍守	-10.3678
遊擊	-10.3691
際	-10.3691
大總管	-10.3736
拒守	-10.3793
豈可	-10.3799
杆	-10.3911
訶	-10.3924
篷	-10.393
綑打	-10.3932
日入酉	-10.3933
蚩尤	-10.3933
懲	-10.3933
珠	-10.3934
匀	-10.3934
鈔	-10.3935
毘陵	-10.3936
罔	-10.3936
熾	-10.3939
憤	-10.394
旺	-10.3941
鎚	-10.3941
犀	-10.3942
叱	-10.3943
鴛鴦陣	-10.3943
蹄	-10.3944
籬	-10.3944
敷	-10.3946
秀	-10.3947
菱	-10.3947
日風從	-10.3949
㨿	-10.3949
廹	-10.395
蹟	-10.395
堆	-10.395
巖	-10.3951
楯	-10.3952
勃	-10.3952
啟	-10.3952
珍	-10.3952
乂	-10.3954
澹	-10.3954
濮	-10.3955
矯	-10.3956
飬	-10.3957
涕	-10.3958
揣	-10.3958
鮮卑	-10.3959
兵備道	-10.3961
刅	-10.3962
㡬	-10.3963
蔚	-10.3963
百歩	-10.3964
十五里北至	-10.3966
羈	-10.3967
祖宗	-10.3968
丙辰	-10.3968
三軍之衆	-10.3968
蠻夷	-10.397
牙旗	-10.3978
驍騎	-10.3979
韓魏	-10.3981
筈	-10.3986
强弩	-10.4009
單騎	-10.4016
丈餘	-10.4123
金鼔	-10.4234
千九百	-10.4267
三百六十	-10.4271
砒	-10.4273
呪	-10.4284
撚	-10.4293
拆	-10.4296
皂	-10.4302
日出卯	-10.4302
枯	-10.4303
掌號	-10.4304
罐	-10.4305
瓢	-10.4305
渴	-10.4305
鐸	-10.4306
裙	-10.4309
摶	-10.4313
拓	-10.4313
晴	-10.4313
輛	-10.4313
攘	-10.4314
滎陽	-10.4315
髮	-10.4315
畱	-10.4316
三爿沙	-10.4316
覽	-10.4317
徇	-10.4318
噐	-10.4318
玠	-10.4319
裴	-10.432
牙帳	-10.432
墮	-10.4321
礙	-10.4321
交趾	-10.4321
宏	-10.4321
消息	-10.4322
婦女	-10.4322
凝	-10.4323
天地風雲	-10.4323
莒	-10.4324
蹂	-10.4324
謬	-10.4324
託	-10.4324
樓櫓	-10.4324
禾	-10.4325
太平興國中	-10.4325
城週圍	-10.4325
宵	-10.4325
不肖	-10.4327
圮	-10.4327
竄	-10.4328
邏	-10.4328
陀	-10.4328
覩	-10.4329
瞭望	-10.4329
讐	-10.433
翁	-10.433
脇	-10.4331
春汛	-10.4332
迥	-10.4333
澄	-10.4334
熈	-10.4335
勿與戰	-10.4335
一尺二寸	-10.4336
鉄	-10.4336
甘草	-10.4337
巡撫	-10.434
瑊	-10.434
髙歡	-10.4341
尺寸	-10.4345
村鋪	-10.4352
三十五里	-10.4357
填星	-10.4365
甲午	-10.4365
班師	-10.4373
烽火	-10.4377
䇿應	-10.439
數里	-10.4439
二百八十	-10.4559
百一十里	-10.4649
之謂也	-10.4664
熬	-10.4676
猫	-10.4688
樁	-10.4692
匝	-10.4695
偏禆	-10.4696
殄	-10.4696
含	-10.4697
連珠	-10.47
咽喉	-10.4701
犄角	-10.4703
兄	-10.4703
腸	-10.4704
伎	-10.4704
案	-10.4704
襟	-10.4705
汴	-10.4705
植	-10.4705
孝恭	-10.4705
斌	-10.4706
雀	-10.4706
替	-10.4708
矜	-10.4708
閶	-10.4709
傑	-10.4709
寓	-10.471
倘	-10.471
繚	-10.4711
涿	-10.4711
兵防考	-10.4712
絕	-10.4713
鏜	-10.4714
主客俱不利各宜固守主聞賊備東	-10.4714
破軍殺將	-10.4714
誡	-10.4715
槩	-10.4716
不和主大將	-10.4717
一尺五寸	-10.4718
梗	-10.472
渤海	-10.4721
劉裕	-10.4721
曳	-10.4723
礦	-10.4727
賛	-10.4727
不得輒	-10.4728
紹興	-10.4731
衣服	-10.4731
襄陽	-10.4733
精銳	-10.4734
夔	-10.4737
流矢	-10.4748
存亡	-10.4751
百里西至	-10.4758
㑹哨	-10.4799
十二里	-10.4881
南岸	-10.4977
壇	-10.508
懾	-10.5084
笛	-10.5084
他若使一	-10.5085
祜	-10.5086
絆	-10.5088
苟	-10.5094
寫	-10.5095
丙午	-10.5095
鵞	-10.5096
縋	-10.5098
宰	-10.5099
戲	-10.5099
恥	-10.5101
誦	-10.5102
稀	-10.5102
販	-10.5103
絙	-10.5103
社稷	-10.5104
𠞰	-10.5104
䘮	-10.5104
淡	-10.5106
邵	-10.5107
河莊	-10.5108
奄	-10.5108
轡	-10.5108
設弓兵四十名往來巡邏	-10.5108
喉	-10.5109
墟	-10.5109
老鸛嘴	-10.5109
埋伏	-10.5109
腫	-10.511
巢穴	-10.5111
緒	-10.5112
坊	-10.5113
蔑	-10.5114
狼筅	-10.5114
鶴	-10.5114
棘	-10.5114
頑	-10.5115
祁	-10.5116
徼	-10.5117
勦	-10.5118
焚劫	-10.5118
填壕	-10.5121
龎	-10.5123
哄	-10.5124
樂毅	-10.5125
潢	-10.5125
倣此	-10.5127
束伍	-10.513
胸	-10.5131
弝	-10.5136
震澤	-10.5138
擊走之	-10.5149
凡軍行	-10.5159
持久	-10.5166
六壬	-10.5179
船隻	-10.5232
上海縣	-10.5333
無錫縣	-10.5432
叫	-10.5476
喊	-10.5496
弼	-10.5504
毗	-10.5509
綵	-10.5512
岑	-10.5513
譽	-10.5513
剽	-10.5515
貸	-10.5515
撤	-10.5516
仙芝	-10.5516
掌印官	-10.5517
搆	-10.5517
醉	-10.5517
煮	-10.5518
太白隂經	-10.5518
刄	-10.5519
破之必矣	-10.552
琳	-10.552
鄉導	-10.5521
氷	-10.5521
晒	-10.5522
羊馬城	-10.5522
狥	-10.5522
谿	-10.5523
騐	-10.5524
溢	-10.5524
瀕	-10.5525
峙	-10.5525
宥	-10.5525
井陘	-10.5526
窟	-10.5527
遭	-10.5527
晏	-10.5528
窘	-10.5528
颶	-10.553
崗	-10.5531
右為末	-10.5531
潁	-10.5532
駐劄	-10.5532
秉	-10.5533
謂諸將曰	-10.5534
昊	-10.5534
北至契丹界	-10.5538
戌亥	-10.5539
熙	-10.5542
鴨	-10.5546
庚申	-10.5546
領兵官	-10.555
毒藥	-10.5551
兵大起	-10.5554
𢎞治	-10.556
器具	-10.5561
王世充	-10.5563
神后	-10.5569
倭患	-10.5574
鎮江府	-10.5587
萬里	-10.56
鴈行	-10.5605
百四十里	-10.5861
華亭縣	-10.5874
行法人手執	-10.5914
嶼	-10.5914
腋	-10.5934
報兵馬事	-10.5942
薦	-10.5942
搬	-10.5943
天罡加	-10.5943
瑱	-10.5943
改今名	-10.5944
炮	-10.5945
捲	-10.5945
齋	-10.5945
冝	-10.5945
牀	-10.5946
遊奕	-10.5947
評	-10.5948
鳴鑼	-10.595
葺	-10.595
涪	-10.5951
鶻	-10.5951
燥	-10.5951
燈籠	-10.5953
頼	-10.5953
椒	-10.5954
梓	-10.5955
宇	-10.5955
脈	-10.5955
佩	-10.5955
巡邏	-10.5956
茫	-10.5957
棲	-10.5957
戊午	-10.5957
泚	-10.5958
函	-10.5958
男	-10.5958
蔓	-10.5959
蒸	-10.596
漿	-10.596
攀	-10.596
伯升	-10.596
袖	-10.5961
惇	-10.5961
場	-10.5961
贅	-10.5961
懈怠	-10.5963
挺	-10.5963
再拜	-10.5963
渇	-10.5963
淘	-10.5963
衂	-10.5964
店	-10.5965
裏壕	-10.5965
頸	-10.5965
蜺	-10.5966
擊客算	-10.5968
腰刀	-10.5968
擂皷	-10.5969
湏	-10.5969
雉堞	-10.5969
以正合以竒勝	-10.597
斧鉞	-10.5971
炅	-10.5971
逈	-10.5973
磕	-10.5973
丙丁	-10.5974
㸃皷	-10.5974
沸	-10.5974
淤	-10.5975
阡	-10.5975
宮	-10.5976
濛	-10.5977
御史	-10.5977
撫按	-10.5983
渦	-10.5983
嚴警	-10.5986
夾浦	-10.5992
管仲	-10.5997
百戸	-10.6317
雅	-10.6375
噴筒	-10.6391
尋	-10.6395
奈何太公曰	-10.6398
幣	-10.6399
鈴	-10.6399
随	-10.64
湧	-10.64
杏	-10.64
盾	-10.6402
禹	-10.6402
桴	-10.6402
灼	-10.6403
鬚	-10.6403
綴	-10.6404
熖	-10.6404
需	-10.6404
欠	-10.6405
蟻	-10.6405
鍊	-10.6405
禽獸	-10.6408
琮	-10.6408
迺	-10.6408
治以軍法	-10.6409
武經總要前集卷	-10.6409
竹箔沙	-10.641
溧陽	-10.641
欽定四庫全書武經總要前集卷	-10.641
簳	-10.641
武王曰善哉	-10.641
虐	-10.6411
緝	-10.6411
貞觀中	-10.6412
翟	-10.6412
摘	-10.6413
雇	-10.6413
隍	-10.6414
莊宗	-10.6415
轤	-10.6416
第二層	-10.6416
菜	-10.6417
鼈	-10.6417
縦	-10.6417
彩	-10.6417
潑	-10.6419
賔	-10.642
繪	-10.6421
鈐轄	-10.6421
従	-10.6421
脅	-10.6422
肢	-10.6423
三丈浦	-10.6423
北至界首約	-10.6425
驚擾	-10.6426
鬱	-10.6426
曠野	-10.6426
㴱	-10.6427
賞罸	-10.6428
俞	-10.6428
羊馬墻	-10.6433
退縮	-10.6435
判官	-10.6437
吉凶	-10.6439
懐恩	-10.644
羽林	-10.645
長洲縣	-10.6584
鴈	-10.6824
礁	-10.6848
鏢	-10.6869
嚙	-10.687
翎	-10.687
蛟	-10.6873
藁	-10.6876
棗	-10.6876
賁	-10.6877
犇	-10.6878
烏珠	-10.6879
天地風雲龍虎鳥蛇	-10.6879
㝠	-10.6879
兎	-10.688
枉	-10.6881
剉	-10.6881
沃	-10.6881
党項	-10.6882
噪	-10.6882
釵	-10.6882
彼衆我寡	-10.6883
磁	-10.6884
捐	-10.6884
渚	-10.6884
厮	-10.6884
酣	-10.6884
勑	-10.6884
楓橋	-10.6885
宋許洞撰	-10.6885
衆寡不敵	-10.6885
閱	-10.6886
仆	-10.6886
倭舶	-10.6886
里界首北至契丹界無鋪	-10.6886
塵埃	-10.6888
常州府	-10.6888
如愚見	-10.6889
杲	-10.689
倡	-10.689
粥	-10.689
他皆倣此	-10.689
萌	-10.6891
劇	-10.6891
猾	-10.6891
欽定四庫全書武經總要後集卷	-10.6892
校尉	-10.6892
深溝髙壘	-10.6892
巡按御史	-10.6893
濃	-10.6893
册	-10.6893
悲	-10.6894
蜜	-10.6894
虧	-10.6894
堯	-10.6895
太乙助主	-10.6895
為今之計	-10.6895
圜	-10.6895
武經總要後集卷	-10.6896
幔	-10.6896
旱寨	-10.6897
𨗳	-10.6898
巡撫都御史	-10.6898
逮	-10.6899
百戰百勝	-10.6899
泗	-10.6899
斾	-10.69
頡	-10.6901
客見陣利先動出軍宜	-10.6902
宫發主㕘將	-10.6902
梨	-10.6908
曲阿	-10.692
吒	-10.7312
咒	-10.7313
悅	-10.736
呵	-10.736
喚	-10.736
鼠	-10.7362
麵	-10.7366
箭晝五十	-10.737
杓	-10.7371
千戸所	-10.7371
鴦	-10.7373
主勝聞賊備	-10.7373
攅	-10.7374
猷	-10.7376
糠	-10.7376
堂堂	-10.7376
喫	-10.7379
襍	-10.7379
徽	-10.738
坦	-10.7381
階	-10.7381
勃勃	-10.7381
桔	-10.7381
湟	-10.7382
育	-10.7383
陴	-10.7385
攜	-10.7385
禡	-10.7386
市舶	-10.7386
欽定四庫全書虎鈐經卷	-10.7386
礬	-10.7387
贊	-10.7387
㸔	-10.7387
掖	-10.7387
男女	-10.7388
龜兹	-10.7388
喻	-10.7388
李勣	-10.7388
耐	-10.7388
宋曾公亮等撰	-10.7389
汚	-10.739
湮	-10.739
沔	-10.739
禹貢	-10.7391
複	-10.7391
皆其信地	-10.7391
澧	-10.7392
普	-10.7393
豨	-10.7393
蹤	-10.7393
蝎	-10.7395
客俱不利各宜固守主聞賊備	-10.7397
融	-10.7397
弭	-10.7398
忙	-10.7398
牂牁	-10.7398
崖	-10.7399
罸	-10.7404
兄弟	-10.7406
淳	-10.7407
逕	-10.7408
佛狼機	-10.7408
曼	-10.741
壬癸	-10.744
十五里南至	-10.7607
十隻	-10.7698
紀效新書卷	-10.7756
閩	-10.7884
彦章	-10.7885
駒	-10.7892
聘	-10.7896
粘	-10.7897
狡	-10.7897
艇	-10.7898
莫知所	-10.7899
駿	-10.79
行法人	-10.7901
客勝聞賊備	-10.7902
明戚繼光撰	-10.7903
謨	-10.7904
窠	-10.7904
利為主見陣利後動出軍宜	-10.7904
菴	-10.7904
穽	-10.7904
腕	-10.7905
坂	-10.7906
佞	-10.7907
魴	-10.7908
雋	-10.7909
麪	-10.7909
潔	-10.7909
誣	-10.791
祥符中	-10.791
帖	-10.7912
钁	-10.7913
營前沙	-10.7913
繇	-10.7914
鍬	-10.7914
張士誠	-10.7915
諒	-10.7915
蹲	-10.7915
摔鈸響	-10.7916
鬪	-10.7916
昻	-10.7916
恣	-10.7917
兖	-10.7917
膂	-10.7918
笠	-10.7918
妨	-10.7919
爽	-10.7919
奠	-10.7919
稅	-10.7919
受其害	-10.792
區區	-10.792
況	-10.792
范蠡	-10.7921
栗	-10.7921
徧	-10.7922
鈞	-10.7922
彎	-10.7924
騷	-10.7924
葭	-10.7925
迢	-10.7925
鋸	-10.7926
苑	-10.7926
鎻	-10.7926
閔	-10.7927
澱山湖	-10.7928
薊	-10.7928
擎	-10.793
橛	-10.7931
鑑	-10.7931
盤詰	-10.7932
臏	-10.7933
揖	-10.7934
煑	-10.7937
矛㦸	-10.794
除仰斜留	-10.795
或擊其	-10.7963
欽定四庫全書紀效新書卷	-10.8053
猴	-10.8439
鏁	-10.8446
鄯	-10.8449
綠	-10.8451
爐	-10.8453
脆	-10.8453
鑄	-10.8454
靴	-10.8455
蹶	-10.8456
椗	-10.8456
艟	-10.8457
晩	-10.8458
喬	-10.8459
嵐	-10.846
旂	-10.846
斥堠	-10.846
軰	-10.8461
僑	-10.8463
筭	-10.8463
鼙	-10.8463
牲	-10.8464
梟	-10.8464
欒	-10.8465
祗	-10.8465
播	-10.8465
肺	-10.8467
劉家港	-10.8467
仲逹	-10.8468
字圩	-10.8468
拙	-10.8468
鑽	-10.8469
祀	-10.8469
稠	-10.8472
邢	-10.8473
等謹案	-10.8473
戀	-10.8474
藪	-10.8474
囬	-10.8474
偉	-10.8474
殱	-10.8474
滙	-10.8475
庇	-10.8475
訛	-10.8475
址	-10.8475
皋	-10.8476
奕	-10.8478
燬	-10.8479
武侯問曰	-10.8479
餓	-10.8479
敲	-10.848
恕	-10.848
屑	-10.848
砦在州西	-10.848
骸	-10.8481
羆	-10.8482
繹	-10.8484
琰	-10.8485
顆	-10.8486
陽城湖	-10.8487
釣	-10.8487
錡	-10.8487
賓	-10.8488
靠	-10.8488
滸墅	-10.8488
邕	-10.849
扞	-10.849
稻	-10.8492
北至契丹界無鋪	-10.8493
十分一萬二千五百	-10.8494
抹	-10.8494
陣令各軍	-10.9006
餅	-10.9026
粒	-10.9037
獐	-10.9039
軒轅	-10.904
銷	-10.9041
你們	-10.9042
葫	-10.9044
一日一夜	-10.9044
手把銃	-10.9047
崑	-10.9047
苻	-10.9049
禱	-10.9049
瑄	-10.9049
球	-10.9051
潞	-10.9052
焙	-10.9052
舉赤旗	-10.9052
欄	-10.9052
舷	-10.9054
踢	-10.9054
犂	-10.9054
擐	-10.9056
倐	-10.9056
瞬	-10.9057
駟	-10.9058
歎	-10.9058
戢	-10.9059
殪	-10.9059
㳺	-10.9059
來打我	-10.9059
合而為一	-10.906
仕	-10.906
鄜	-10.906
軍䜟有曰	-10.906
蔣	-10.9061
淞	-10.9062
葱	-10.9062
揭	-10.9062
䭾	-10.9063
秣	-10.9064
瑕	-10.9065
淝	-10.9065
鱗	-10.9065
糊	-10.9065
則如之何武曰	-10.9066
袴	-10.9066
億	-10.9068
滯	-10.9068
牟	-10.9068
鞏	-10.9068
不可不察也	-10.9069
宜固守聞賊備西南第	-10.9072
𢷬	-10.9075
雁	-10.9077
墅	-10.9078
冗	-10.9078
臆	-10.908
織	-10.9083
澱	-10.9084
扁	-10.9087
庄	-10.9092
脉	-10.9098
秋糧米	-10.9644
註	-10.9651
猿	-10.966
峰	-10.9661
倣	-10.9661
枹	-10.9663
綜	-10.9667
像	-10.967
諠譁	-10.9671
纏	-10.9671
赫	-10.9671
剌	-10.9671
天禧中	-10.9671
凍	-10.9672
刈	-10.9672
長吳二縣	-10.9673
圖原闕	-10.9673
耗	-10.9674
郵	-10.9674
羗	-10.9674
辟	-10.9675
耆	-10.9675
陡	-10.9676
腹背受敵	-10.9676
僅以身免	-10.9676
潦	-10.9677
陌	-10.9677
韃	-10.9677
黥	-10.9677
穢	-10.9679
逞	-10.9679
罡	-10.9679
歳	-10.968
譁	-10.968
常川操練	-10.968
頴	-10.968
擣	-10.9681
翊	-10.9681
㗖	-10.9682
新竈沙	-10.9682
瞰	-10.9683
荷	-10.9684
怕	-10.9684
淹	-10.9684
贖	-10.9684
腐	-10.9684
迤	-10.9684
粤	-10.9685
孚	-10.9686
批	-10.9686
轂	-10.9686
蒿	-10.9686
者其南路也	-10.9687
隋開皇	-10.9687
奥	-10.9687
秩	-10.9687
主算二十五八門杜主大將	-10.9688
貽	-10.9688
攙	-10.9689
姬	-10.9689
䟽	-10.969
叩	-10.9691
唇	-10.9692
誑	-10.9692
模	-10.9692
澁	-10.9693
賜今名	-10.9693
閏	-10.9693
糾	-10.9693
䖏	-10.9694
舜	-10.9694
萊	-10.9694
裴緒	-10.9696
邳	-10.9696
其道有三由	-10.9696
肚	-10.9697
挈	-10.9697
聫	-10.9697
座窩舖	-10.97
鮎魚口	-10.9701
惟通單騎	-10.9701
㢲	-10.9714
杉	-11.0289
扒	-11.0305
􁴖	-11.0326
軍法示衆	-11.0326
皁	-11.033
觔	-11.033
角木蛟	-11.0331
跌	-11.0331
武經總要	-11.0331
秃	-11.0335
肌	-11.0336
壑	-11.0336
匡	-11.0337
擠	-11.0338
茲	-11.0339
頒	-11.034
罩	-11.034
慘	-11.0341
厨	-11.0341
嘶	-11.0342
樺	-11.0343
佑	-11.0343
鐙	-11.0344
諾	-11.0344
慨	-11.0344
匪	-11.0345
讎	-11.0345
糜	-11.0345
洺	-11.0345
匾	-11.0345
舁	-11.0346
啖	-11.0346
霄	-11.0346
羨	-11.0346
岢嵐	-11.0347
筌	-11.0347
騁	-11.0348
儘	-11.0348
狃	-11.0348
錠	-11.0348
扺	-11.0349
航	-11.0349
擢	-11.0349
繆	-11.0349
千户所營在	-11.0349
㳂	-11.035
欽定四庫全書子部二	-11.0351
夏駕浦	-11.0351
瓜	-11.0351
輯	-11.0352
麓	-11.0352
話	-11.0353
詢	-11.0353
状	-11.0353
㕔	-11.0353
廻	-11.0354
胡公宗憲	-11.0355
昀	-11.0355
互為聲援	-11.0355
客聞賊備東北第	-11.0356
鄢	-11.0357
仞	-11.0357
徭	-11.0357
緯	-11.0357
徤	-11.0357
緑	-11.0358
揆	-11.0358
竝	-11.0358
慕	-11.0358
棧	-11.0359
穗	-11.036
新洋江	-11.036
涓	-11.036
總兵俞大猷	-11.036
婆	-11.0361
泝	-11.0361
裘	-11.0361
􁁜	-11.0362
廩	-11.0362
汰	-11.0363
譚	-11.0363
且戰且	-11.0363
涸	-11.0363
天文總論曰	-11.0363
祏	-11.0363
阿保機	-11.0364
六韜卷第	-11.0364
何辯之葢	-11.0364
鎭	-11.0365
瓮	-11.0366
四竒四正	-11.0367
媯	-11.0369
鞋	-11.037
每堠另設瞭守弓兵五名	-11.0375
吟	-11.0377
婦	-11.099
鬆	-11.1026
銕	-11.1029
站	-11.1031
罵	-11.1033
蒐	-11.104
碾	-11.1042
燎	-11.1043
趙充國	-11.1043
刁	-11.1045
皓	-11.1045
泒	-11.1046
晙	-11.1048
瓘	-11.1049
陁	-11.1049
洒	-11.105
㪷	-11.1051
肋	-11.1051
瑋	-11.1051
瘴	-11.1051
漂	-11.1051
鎔	-11.1051
獅	-11.1054
碍	-11.1054
綘	-11.1055
鳥嘴銃	-11.1056
茹	-11.1056
寰	-11.1056
札	-11.1056
拖	-11.1057
汜	-11.1057
軾	-11.1057
堞	-11.1058
缶	-11.1059
吁	-11.1059
㢘	-11.1059
歆	-11.1061
贍	-11.1061
朶	-11.1061
虢	-11.1062
嘯	-11.1062
穏	-11.1062
鐘	-11.1063
誇	-11.1063
戶	-11.1063
卵	-11.1064
翳	-11.1064
票	-11.1064
郷	-11.1064
裔	-11.1065
溥	-11.1067
冶	-11.1067
月十六日	-11.1068
月將加時	-11.1069
吳子問孫武曰	-11.1069
圯	-11.1069
鴻	-11.1069
吃	-11.1069
寂	-11.107
縻	-11.107
朴	-11.1071
沂	-11.1071
宋信嘴	-11.1071
叅將不出中宫	-11.1071
撩	-11.1072
誼	-11.1072
太乙雖助	-11.1074
諌	-11.1075
淳化中	-11.1076
兵備副使任公環	-11.1077
證	-11.1078
者聚爲一卒	-11.108
濫	-11.1081
女頭墻	-11.1082
玊	-11.1083
瀝	-11.1084
鈇	-11.1084
䕫	-11.1085
武王問太公曰引兵深入諸侯之地	-11.1087
无	-11.1088
兌	-11.1091
幢	-11.1091
噴	-11.1785
煤	-11.1795
繒	-11.1806
績	-11.1809
戾	-11.1813
映	-11.1814
諠	-11.1815
箔	-11.1816
舫	-11.1817
戎馬來路	-11.1818
吹長聲	-11.1821
昇	-11.1821
鶉	-11.1821
鐶	-11.1821
撈	-11.1822
轍	-11.1822
盞口將軍	-11.1822
幼	-11.1823
痢	-11.1823
穰	-11.1823
橫	-11.1825
刷	-11.1825
弁	-11.1826
串	-11.1826
茄	-11.1827
豕	-11.1827
以少擊衆	-11.1827
糓	-11.1827
跟	-11.1829
州至羅巖州	-11.183
詎	-11.183
羡	-11.183
啗	-11.183
埤	-11.1831
箆	-11.1832
罹	-11.1833
甄	-11.1833
躱	-11.1833
盔	-11.1833
享	-11.1833
逾	-11.1833
芟	-11.1833
郃	-11.1833
妾	-11.1833
諺	-11.1833
酸	-11.1834
邱	-11.1834
淖	-11.1834
歸師勿遏	-11.1834
瘧	-11.1835
塔	-11.1835
朂	-11.1835
昂	-11.1835
睨	-11.1835
倍道兼行	-11.1835
檻	-11.1835
啄	-11.1836
曵	-11.1837
紿	-11.1837
蠶	-11.1837
洳	-11.1838
畝	-11.1838
諱	-11.1838
隸	-11.1838
筠	-11.1839
鎮海衞	-11.1839
鉅	-11.184
愧	-11.184
廿	-11.184
䖍	-11.184
歛	-11.1841
褒	-11.1841
聮	-11.1841
菉	-11.1842
幄	-11.1842
酷	-11.1843
瞻	-11.1843
岩	-11.1843
排叉木	-11.1844
估	-11.1844
鬻	-11.1844
縣水陸路考	-11.1844
貲	-11.1844
嘆	-11.1845
渺	-11.1845
𦍑	-11.1845
颺	-11.1845
敢死士	-11.1845
西戰利正東利方陣舉白旗雲氣從西來	-11.1845
拯	-11.1845
羲	-11.1845
弄	-11.1846
夥	-11.1847
飼	-11.1848
躁	-11.1849
殫	-11.1849
拗	-11.185
匈	-11.1852
闥	-11.1854
駱	-11.1855
嶽	-11.1855
鮑	-11.1856
陣間容陣隊間容隊	-11.1858
羊馬牆	-11.1859
霖	-11.186
螺	-11.1863
縣倭患事蹟	-11.1864
八八六十四	-11.1867
尉繚子	-11.1883
蹖	-11.1884
小將挾客	-11.2154
㕘將不出中宫始擊將	-11.2281
百七十步	-11.2362
邛	-11.2576
大將發利為客見陣利先動出軍宜	-11.2621
夏税小麥	-11.2621
兕	-11.2625
吊	-11.263
暨	-11.2636
櫃	-11.2639
熲	-11.2641
蓆	-11.2642
虞鼔動肅儀仗	-11.2643
瘥	-11.2643
兮	-11.2644
㸑	-11.2646
耻	-11.2647
梆	-11.2648
飭	-11.265
装	-11.265
蚓	-11.265
傘	-11.265
麋	-11.2652
闇	-11.2653
梭	-11.2654
催	-11.2656
攢	-11.2656
荻	-11.2656
丫	-11.2657
漳	-11.2658
僞	-11.2658
吸	-11.2658
檑	-11.2659
鸛	-11.2659
殽	-11.2659
柝	-11.266
餒	-11.266
峭	-11.2661
霞	-11.2661
唐開元中	-11.2661
摺	-11.2661
核	-11.2661
朋	-11.2662
晡	-11.2662
蓐	-11.2662
撿	-11.2663
鶚	-11.2663
蓼	-11.2663
恊	-11.2663
李繼隆	-11.2663
憊	-11.2664
逵	-11.2664
以逸待勞	-11.2664
墾	-11.2664
柏	-11.2665
文王問太公曰	-11.2665
璠	-11.2665
萃	-11.2666
臭	-11.2666
僇	-11.2666
峯	-11.2666
冲	-11.2667
彀	-11.2667
薩	-11.2667
妃	-11.2667
蝠	-11.2667
纓	-11.2668
宋曽公亮等撰故事	-11.2669
知縣楊芷	-11.2669
翅	-11.267
慄	-11.267
訟	-11.267
闉	-11.267
汐	-11.267
釡	-11.2671
眷	-11.2671
兵家類提要	-11.2671
我可以往彼可以來	-11.2671
月天門在	-11.2672
鎌	-11.2672
睛	-11.2673
㑹稽郡	-11.2673
筮	-11.2673
月節影長	-11.2673
戯	-11.2674
簾	-11.2674
苖	-11.2675
堅壁清野	-11.2675
畔	-11.2675
狠	-11.2676
擘	-11.2676
堙	-11.2676
態	-11.2677
東北竒兵東北伏兵利	-11.2677
鍵	-11.2677
稼	-11.2677
琦	-11.2678
塜	-11.2678
棓	-11.2678
寃	-11.2679
軼	-11.2679
計神戌此局	-11.268
嵗月日時	-11.268
帑	-11.2681
攬	-11.2681
真定府	-11.2681
宫天目陰徳	-11.2682
凋	-11.2683
爲之柰何太公曰	-11.2683
嵒	-11.2683
噫	-11.2684
嫉	-11.2684
鴟	-11.2684
賊首蕭顯	-11.2686
馘	-11.2687
設弓兵四十名往來巡邏所屬烽堠	-11.2689
蠲	-11.2689
叚	-11.269
竪	-11.2695
璚	-11.2695
材士強弩	-11.2703
日日食兵起	-11.2705
聳	-11.2709
蜋	-11.2711
抺	-11.2725
孰與己	-11.2726
攩	-11.3521
梧	-11.3535
州在戎州南	-11.3537
碇	-11.3544
塼	-11.3548
咬	-11.3549
罌	-11.355
賚	-11.355
睿	-11.3551
刪	-11.3553
蒜	-11.3553
狩	-11.3554
厠	-11.3554
扳	-11.3555
撮	-11.3557
篙	-11.3557
脯	-11.3557
曺	-11.3558
䍐	-11.3558
放起火三枝	-11.3558
﨑	-11.3559
撼	-11.3559
换	-11.356
跑	-11.356
薛仁貴	-11.3561
芷	-11.3562
一枝令千户一員領泊	-11.3563
攪	-11.3564
滴	-11.3565
劣	-11.3565
塡	-11.3565
哥	-11.3565
斬首數千級	-11.3566
踴	-11.3566
撑	-11.3567
璧	-11.3567
唐公順之	-11.3567
插	-11.3569
撘	-11.3569
侔	-11.3569
滓	-11.357
潯	-11.357
璹	-11.357
熏	-11.357
這	-11.3571
宦	-11.3572
犁	-11.3572
周而復始	-11.3573
駝	-11.3573
沖	-11.3573
渝	-11.3574
垠	-11.3574
陲	-11.3574
訴	-11.3574
恁	-11.3574
宋曽公亮等撰	-11.3575
甪	-11.3575
雕	-11.3576
噬	-11.3576
陘	-11.3577
甓	-11.3577
閫	-11.3577
偹	-11.3577
茭	-11.3577
乾隆四十六年	-11.3578
桞	-11.3579
臧	-11.3579
趂	-11.3579
汎	-11.3579
斟	-11.3579
纜	-11.3579
隗	-11.3579
糴	-11.358
顚	-11.358
尉遲迥	-11.358
兵行哨竒兵設伏輕兵出襲焉斯可矣	-11.358
四頭八尾	-11.3581
嚼	-11.3581
主挾客㕘將	-11.3581
壺	-11.3581
䥥	-11.3581
阪	-11.3582
恢	-11.3582
紋	-11.3582
府同知任環	-11.3582
贈	-11.3583
耽	-11.3583
鬛	-11.3583
㡌	-11.3584
頰	-11.3584
濞	-11.3584
輻	-11.3585
冰	-11.3585
㓕	-11.3585
瀚	-11.3586
偵	-11.3586
浹	-11.3586
碑	-11.3586
咨	-11.3587
株	-11.3587
鵰	-11.3588
肝	-11.3588
祈	-11.3589
礪	-11.3589
河圖帝覽嬉曰	-11.3589
洶	-11.3591
屈突通	-11.3593
瘟	-11.3593
些	-11.3596
閻	-11.3596
晃	-11.3596
舂	-11.3596
禳	-11.3597
李淳風曰	-11.3599
酬	-11.3602
莘	-11.3603
聊	-11.3605
虗	-11.3606
淯井鹽	-11.3606
醫巫閭山	-11.3613
雷公六律曰天一	-11.3624
為一卒名曰	-11.3633
陸費墀	-11.3847
檐	-11.4525
該工食銀	-11.4527
度於辰在	-11.4529
搽	-11.4531
出行法人念	-11.4532
犴	-11.4537
朽	-11.4542
銖	-11.4546
戰鋒等隊	-11.4549
蟬	-11.455
輝	-11.4551
染	-11.4554
筯	-11.4555
勣	-11.4556
衙	-11.4556
单	-11.4556
灋	-11.4557
曷	-11.4559
平肩滿射	-11.4559
偘	-11.456
瘦	-11.456
蒭	-11.4561
始擊將大神客算	-11.4561
裡	-11.4563
柁	-11.4563
紊	-11.4563
涯	-11.4563
盲	-11.4563
挂	-11.4564
缸	-11.4564
聾	-11.4564
冊	-11.4565
烙	-11.4566
醬	-11.4566
吼	-11.4566
殁	-11.4566
濡	-11.4567
黍	-11.4567
眠	-11.4567
勍	-11.4568
醪	-11.4568
兑	-11.4568
穩	-11.4569
両	-11.4569
袒	-11.4569
它	-11.457
寐	-11.457
沐	-11.457
兠	-11.4571
幇	-11.4571
黷	-11.4571
叠	-11.4571
墳	-11.4572
翕	-11.4572
弧	-11.4572
廐	-11.4573
駢	-11.4573
蘄	-11.4573
眙	-11.4574
剥	-11.4574
蓮	-11.4574
鶯	-11.4574
湘	-11.4575
阮	-11.4575
明唐順之撰	-11.4575
鑰	-11.4576
蝟	-11.4576
諉	-11.4576
俸	-11.4576
邈	-11.4576
鳩	-11.4576
溫	-11.4576
鹵	-11.4577
哲	-11.4578
肇	-11.4578
圎	-11.4579
秤	-11.4579
屹	-11.4579
釗	-11.4579
賫	-11.458
計邑之險要有	-11.458
訊	-11.458
簸	-11.4581
陸門四座	-11.4581
船旗心用色邊用色帶用色	-11.4581
沽	-11.4582
芝	-11.4582
愿	-11.4582
苛	-11.4583
擴	-11.4583
詳見各圖説於後	-11.4583
瑜	-11.4585
馴	-11.4585
客叅將四宫	-11.4585
踞	-11.4585
遐	-11.4585
兵備任公環	-11.4585
彤	-11.4586
匐	-11.4586
棋	-11.4587
亨	-11.4588
魄	-11.4588
喘	-11.4588
畿	-11.4589
酈	-11.4589
氛	-11.459
鐮	-11.459
東戰利正西利鋭陣舉赤旗雲氣從東來	-11.459
澳	-11.4592
總兵湯克寛	-11.4593
之神惟神	-11.4594
縣備寇水陸路考東	-11.4594
𦵏	-11.4597
匣	-11.4598
闌	-11.4598
厄	-11.4602
恂	-11.4602
狭	-11.4603
塍	-11.4604
峴	-11.4608
丕	-11.4609
○	-11.461
滆	-11.4627
笋	-11.4628
抛入彼陣	-11.5621
裳	-11.5624
硃	-11.5647
尿	-11.5651
州在戎州西南	-11.5658
荳	-11.5659
煨	-11.5659
柸	-11.5661
綸	-11.5663
折衝果毅	-11.5664
蔴	-11.5666
晋	-11.5667
熒	-11.5667
栖	-11.5668
里至州四百七十	-11.5668
碩	-11.5669
龕	-11.567
扯	-11.5671
騾	-11.5671
㠶	-11.5671
簞	-11.5671
慿	-11.5671
爨	-11.5671
洎	-11.5671
三矢中二移逺五步又能不離左右即于	-11.5672
觸處為首	-11.5673
恬	-11.5674
靨	-11.5674
繳	-11.5674
鄆	-11.5674
拂	-11.5674
賄	-11.5675
軀	-11.5676
藴	-11.5676
肄	-11.5676
黠	-11.5677
庾	-11.5677
舘	-11.5677
甑	-11.5678
掀	-11.5678
曝	-11.5678
㓜	-11.568
柯	-11.568
唐李筌撰	-11.5682
睦	-11.5682
嗜	-11.5683
廆	-11.5683
鉗	-11.5684
檣	-11.5684
慟	-11.5684
跋	-11.5684
抜	-11.5684
愆	-11.5684
奈	-11.5685
眩	-11.5685
鑊	-11.5685
兵貴神速	-11.5685
鷙	-11.5686
償	-11.5686
崤	-11.5686
僨	-11.5687
數起於五而終於八	-11.5688
筞	-11.5688
篤	-11.5688
發屋折木	-11.5688
縶	-11.5688
剖	-11.5688
龔	-11.5688
僖	-11.5688
謗	-11.5689
嶴	-11.5689
鏖	-11.5689
柘	-11.569
􁒀	-11.569
廓	-11.569
咤	-11.5691
亥子丑時客	-11.5691
畞	-11.5691
埃	-11.5691
嬖	-11.5691
膺	-11.5692
迨	-11.5692
倪	-11.5693
犢	-11.5693
朐	-11.5693
紛紛紜紜	-11.5694
右水陸可通之道凡十有	-11.5694
闘	-11.5695
芳	-11.5695
㳟	-11.5695
計神丑此局	-11.5696
沌	-11.5696
犨	-11.5697
者其北路也	-11.5697
貝	-11.5697
瑞	-11.5698
紆	-11.5698
曲間容曲	-11.5698
鵬	-11.5698
縑	-11.5698
秣馬蓐食	-11.5699
隕	-11.5699
汪	-11.5701
歙	-11.5703
想	-11.5703
罨	-11.5703
慝	-11.5705
兵備僉事任公環	-11.5705
葬	-11.5705
僉事董公邦政	-11.5706
渰	-11.5706
鞅	-11.5707
蓍	-11.571
閃賺是花鎗	-11.5711
儻	-11.5711
絃	-11.5711
恵	-11.5712
狼牙釘	-11.5712
絮	-11.5714
麤	-11.5715
貶	-11.5717
欝	-11.5718
淀	-11.5734
揲	-11.574
森	-11.6877
口作犬聲	-11.6886
芥	-11.6891
煆	-11.6894
仔	-11.6899
貉	-11.6905
瘠	-11.6906
棠	-11.6906
楷	-11.691
頭人身長一丈面	-11.691
艨	-11.6911
維某載歳次某甲某月朔某日某將軍某	-11.6911
糟	-11.6912
縷	-11.6912
嵌	-11.6912
叟	-11.6914
戊辰己巳	-11.6917
糧塘里長	-11.6917
炙	-11.6917
椀	-11.6918
傲	-11.6919
撅	-11.6921
明鄭若曾撰	-11.6921
刋	-11.6921
莱	-11.6921
躪	-11.6922
輜	-11.6922
譏	-11.6923
矮	-11.6923
愁	-11.6924
堕	-11.6925
鏑	-11.6925
祚	-11.6926
牕	-11.6927
歘	-11.6927
剔	-11.6927
風伯雨師	-11.6928
𦙍	-11.6928
𣺌	-11.6929
畵	-11.6929
麴	-11.6929
䜛	-11.693
靛	-11.693
擂皷吹天鵞聲	-11.693
遡	-11.693
敕	-11.693
倩	-11.6931
新市平林	-11.6931
窕	-11.6931
讚	-11.6931
扁身中攔	-11.6932
党	-11.6932
椿	-11.6932
繋	-11.6932
綽	-11.6932
蟄	-11.6932
岷	-11.6933
灑	-11.6933
綾	-11.6933
笞	-11.6934
嚷	-11.6934
篾	-11.6934
湊	-11.6934
更戰更息	-11.6935
依依利主見陣利後動出軍宜	-11.6935
窻	-11.6936
兊	-11.6936
攫	-11.6937
售	-11.6937
惻	-11.6938
懽	-11.6938
賠	-11.6938
廪	-11.6938
禪	-11.6938
羞	-11.6938
翃	-11.6938
墉	-11.6938
凑	-11.6939
帽	-11.6939
駞	-11.6939
齧	-11.694
剝	-11.694
何博士備論	-11.694
畀	-11.694
姪	-11.6941
色明客勝月	-11.6941
鄖	-11.6941
奬	-11.6942
旄	-11.6942
陟	-11.6942
蠢	-11.6942
輓	-11.6942
摯	-11.6942
塚	-11.6942
㐮	-11.6942
蟾	-11.6943
誌	-11.6943
猺	-11.6943
澠	-11.6944
闡	-11.6944
㗋	-11.6944
確	-11.6944
枷	-11.6944
緡	-11.6944
珙	-11.6944
疁	-11.6945
穹	-11.6945
扄	-11.6945
鋤	-11.6945
曩	-11.6945
溜	-11.6946
爆	-11.6946
狸	-11.6946
鐏	-11.6946
娑	-11.6946
扈	-11.6946
衷	-11.6947
燼	-11.6947
悶	-11.6948
樟	-11.6948
憾	-11.6948
三十四年乙卯	-11.6949
滔	-11.6949
笳	-11.695
䋲	-11.695
淑	-11.6951
方圓曲直鋭	-11.6952
篐	-11.6952
􁏄	-11.6952
圻	-11.6953
贏	-11.6953
獺	-11.6954
廨	-11.6955
刎	-11.6955
薳	-11.6955
滸	-11.6956
疇	-11.6958
辯太乙統宗寳鑑	-11.6959
捻	-11.696
莖	-11.6961
茸	-11.6962
北至界首嶽嶺路約	-11.6964
壍	-11.6964
粹	-11.6964
瀦	-11.6966
漊	-11.6968
苴	-11.6968
錞	-11.6968
豁	-11.6971
橘	-11.6974
此堡之所當設	-11.6981
州至㑹野州	-11.6994
設弓兵四十名徃來巡邏	-11.6995
除之不盡者命起	-11.7025
西南戰利東北利方陣舉白旗雲氣從西	-11.83
㺄	-11.8319
擦	-11.8325
挹	-11.8326
島人能之沙民亦能之	-11.8329
覈	-11.8334
舩	-11.8334
蝗	-11.8336
澆	-11.8336
蔵	-11.8336
風應候軍民寧泰之兆也風自	-11.8336
獬	-11.8337
顱	-11.834
隳	-11.8341
零農桑絲折絹	-11.8342
鐃	-11.8342
㤗	-11.8343
鏐	-11.8344
菌	-11.8345
鈸	-11.8345
佻	-11.8346
撇	-11.8347
魔	-11.8347
伴	-11.8349
拶	-11.835
紓	-11.835
汞	-11.8351
臾	-11.8351
拊	-11.8352
閙	-11.8352
醒	-11.8352
汙	-11.8352
彼兵臨我我兵	-11.8352
㒺	-11.8353
漬	-11.8353
疼	-11.8354
一枝令百户一員領泊	-11.8354
寘	-11.8355
廊	-11.8355
爿	-11.8355
洵	-11.8355
豢	-11.8355
唬	-11.8356
淪	-11.8356
里半北至界首約二十	-11.8356
祕	-11.8358
踊	-11.8358
刹	-11.8358
拴	-11.8358
蝦	-11.8358
衫	-11.8358
人學戰敎成	-11.8358
么	-11.8359
胞	-11.8359
霾	-11.8359
饌	-11.8359
禧	-11.836
惠亮正通	-11.836
蜀將姜維	-11.836
籖	-11.8361
䜿	-11.8361
碧	-11.8361
壬寅癸卯	-11.8361
湍	-11.8361
單擺開喇叭	-11.8361
琯	-11.8361
剡	-11.8362
墊	-11.8362
袂	-11.8362
八卦而轉居於	-11.8362
悮	-11.8363
圍漢王於滎陽	-11.8363
彪	-11.8363
府佐一員專督	-11.8363
跣	-11.8363
鞠	-11.8363
礨	-11.8363
豚	-11.8363
鼉	-11.8364
愎	-11.8364
滌	-11.8364
帷	-11.8364
甥	-11.8364
剿	-11.8365
詮	-11.8366
躓	-11.8367
滏	-11.8367
徉	-11.8367
兢	-11.8367
舅	-11.8367
閬	-11.8368
槖	-11.8368
鹹	-11.8368
圭	-11.8368
塢	-11.8368
帙	-11.8368
踣	-11.8368
疵	-11.8368
瑾	-11.8369
蠆	-11.8369
泓	-11.8369
甬	-11.8369
緋	-11.8369
溟	-11.8369
筩	-11.8369
孛	-11.8369
冥	-11.8371
溱	-11.8371
纍	-11.8371
巻	-11.8371
貎	-11.8371
蓊	-11.8372
覔	-11.8373
隐	-11.8373
椎	-11.8373
癡	-11.8373
儂	-11.8373
抝	-11.8373
􁳆	-11.8374
賃	-11.8374
金木水火土	-11.8374
捶	-11.8374
炫	-11.8374
客勝聞賊備西北奇兵西北伏兵	-11.8375
开	-11.8375
曄	-11.8375
欣	-11.8375
申酉戌時主	-11.8375
西北戰利東南利曲陣舉黑旗雲氣從西	-11.8375
嶷	-11.8376
餱	-11.8376
咄	-11.8376
宫天目地主主算	-11.8376
諛	-11.8376
麄	-11.8377
噙	-11.8378
彥	-11.8378
宫囚客㕘將	-11.8379
摭	-11.838
泡	-11.838
惮	-11.838
猊	-11.8381
磊	-11.8381
凱	-11.8381
卬	-11.8382
孑	-11.8382
藎	-11.8383
闖	-11.8383
麩	-11.8383
鋋	-11.8384
揷	-11.8385
昨	-11.8385
勝聞賊備西北竒兵西北伏兵利辰巳時	-11.8385
埭	-11.8385
紏	-11.8385
巡按御史周公如斗	-11.8385
鞨	-11.8386
圉	-11.8386
柣	-11.8387
賭	-11.8387
頥	-11.8389
佳	-11.8389
慚	-11.8389
軋	-11.8391
朗	-11.8392
豺	-11.8395
汭	-11.8395
瞎	-11.8396
扛	-11.8397
魂	-11.8401
年月日具官某謹	-11.8402
荘	-11.8405
懋	-11.8406
㤙	-11.841
州在瀘州西南	-11.842
乾坤艮巽	-11.8429
客見陣利先動出軍宜東北戰利西南	-11.8496
始擊將吕申客算	-11.9146
巂	-11.9953
軒	-11.9958
儼	-11.9984
箸	-11.9989
苓	-11.999
椽	-11.9994
綰	-11.9996
皸	-11.9996
劑	-11.9997
蕎	-11.9999
憫	-12
鰍	-12.0001
悚	-12.0001
門起者軍民不利也	-12.0002
鍼	-12.0003
蘸	-12.0004
蹬	-12.0004
閤	-12.0005
將佐三員領	-12.0006
煅	-12.0006
燄	-12.0007
閃賺花鎗上	-12.0007
狎	-12.0008
楞	-12.0008
欽定四庫全書武編前集卷	-12.0009
第二角聲動前行向左後行向右	-12.0009
冡	-12.001
腥	-12.001
簷	-12.0011
訾	-12.0013
襦	-12.0013
煴	-12.0013
逋	-12.0013
稷	-12.0014
瘃	-12.0014
孱	-12.0014
酪	-12.0014
駑	-12.0015
偪	-12.0015
憩	-12.0015
碟	-12.0015
尙	-12.0017
詘	-12.0017
韻	-12.0017
鉤	-12.0018
廏	-12.0019
臻	-12.002
捜	-12.002
詵	-12.002
勛	-12.0021
恠	-12.0021
鄂	-12.0021
弋	-12.0021
瞳	-12.0021
縵	-12.0021
諧	-12.0021
墌	-12.0022
疣	-12.0022
箠	-12.0022
瀉	-12.0022
桕	-12.0023
副都頭副兵馬使以上	-12.0024
戧	-12.0024
卞	-12.0024
眯	-12.0024
辛未土時壬申癸酉金時甲戌乙亥火時	-12.0024
剏	-12.0024
滛	-12.0025
䜟	-12.0025
遴	-12.0025
謡	-12.0025
日丙子丁丑水時戊寅己	-12.0025
槃	-12.0025
磔	-12.0025
値	-12.0026
氿	-12.0026
脰	-12.0026
軍各二千八百人	-12.0026
咽	-12.0026
懇	-12.0027
蹻	-12.0027
蛤	-12.0028
庖	-12.0028
笮	-12.0028
种	-12.0028
軻	-12.0028
䏶	-12.0028
荅	-12.0029
下明鄭若曽撰	-12.0029
癸未木時甲申乙酉水時丙戌丁亥土時	-12.0029
珮	-12.0029
褐	-12.0029
葵	-12.0029
乙未金時丙申丁酉火時戊戌己亥木時	-12.0029
兀	-12.0029
紐	-12.003
唃	-12.003
俠	-12.003
杼	-12.003
邲	-12.003
絺	-12.003
鑲	-12.0031
歪	-12.0031
𦕈	-12.0031
癘	-12.0031
餙	-12.0031
丁未水時戊申己酉土時庚戌辛亥金時	-12.0031
己未火時庚申辛酉木時壬戌癸亥水時	-12.0031
臠	-12.0031
譲	-12.0031
南戰利正北利圓陣舉黄旗雲氣從南來	-12.0032
鍤	-12.0032
孽	-12.0032
隧	-12.0033
罄	-12.0034
鑕	-12.0034
毖	-12.0034
迦	-12.0034
緊	-12.0035
鄗	-12.0035
驤	-12.0035
莅	-12.0036
旃	-12.0036
不利為客宜固守聞賊備正	-12.0036
麞	-12.0036
爍	-12.0036
褚	-12.0037
吭	-12.0037
偕	-12.0037
𤾉	-12.0038
脾	-12.0039
匙	-12.0039
眇	-12.0039
攖	-12.004
趐	-12.004
僰	-12.004
嘔	-12.004
旰	-12.004
拌	-12.0041
晁	-12.0041
冕	-12.0041
鼂	-12.0041
五八門杜客大將㕘將不出中宫計神	-12.0041
三門具五將發	-12.0041
孺	-12.0041
北客聞賊備東南第	-12.0041
餽	-12.0042
蒯	-12.0042
壖	-12.0042
吠	-12.0043
煌	-12.0043
呂	-12.0043
唧	-12.0043
睹	-12.0043
虵	-12.0043
釜	-12.0043
蝶	-12.0044
液	-12.0044
諂	-12.0044
鯨	-12.0045
揉	-12.0045
轝	-12.0045
寅此局太乙助客	-12.0046
霑	-12.0046
按皇華四達記	-12.0047
鑛	-12.0047
琨	-12.0047
旍	-12.0047
璽	-12.0048
夙	-12.0048
僚	-12.0049
暘	-12.0049
昶	-12.005
讙	-12.005
栽	-12.0051
駃	-12.0051
燦	-12.0051
攷	-12.0052
慙	-12.0052
皝	-12.0053
瀾	-12.0054
醇	-12.0054
杯	-12.0054
净	-12.0054
以前為後以後為前	-12.0055
燉	-12.0055
迯	-12.0055
毘	-12.0055
膩	-12.006
歧	-12.006
媚	-12.0061
一兩人大門對打	-12.0062
耼	-12.0062
浴	-12.0063
圖一首張煜之所演也	-12.0063
彘	-12.0064
蹕	-12.0066
楔	-12.0067
黛	-12.007
寸小徑二寸八分	-12.007
翻身上小跳翻身下	-12.0071
臍	-12.0071
㬋	-12.0077
櫳	-12.0078
主人杜塞無門不利宜固守聞賊備	-12.0078
碣	-12.008
周尉繚撰	-12.0082
覻	-12.0102
直陣舉青旗雲氣從東北來客勝聞賊備	-12.0127
農桑絲折絹一	-12.195
雹	-12.1968
崎	-12.1972
岌	-12.1974
歷	-12.1975
屎	-12.1977
怛	-12.1977
鍛	-12.1988
蛛	-12.1989
篆	-12.199
胯	-12.1991
祇	-12.1996
陣被破賊首念咒作	-12.1996
膀	-12.1998
輟	-12.1998
摇	-12.1999
椓	-12.1999
卭	-12.2
錘	-12.2
聿	-12.2
不利宜固守聞賊備東南第	-12.2001
响	-12.2002
仭	-12.2003
喇	-12.2003
拄	-12.2004
鵠	-12.2004
顏	-12.2005
刳	-12.2005
僱	-12.2005
刧	-12.2007
㵼	-12.2007
叨	-12.2008
躔	-12.2009
仝	-12.2009
校尉司馬部後居地如法	-12.2009
紬	-12.201
煖	-12.2011
冼	-12.2011
麽	-12.2012
笓	-12.2012
瑟	-12.2012
鉢	-12.2012
酗	-12.2014
屛	-12.2014
妓	-12.2014
浄	-12.2014
鏨	-12.2014
趋	-12.2014
楓	-12.2015
霪	-12.2015
侈	-12.2016
萍	-12.2016
脛	-12.2017
薰	-12.2017
滕	-12.2017
蹇	-12.2017
脣	-12.2018
歉	-12.2018
蹷	-12.2018
娯	-12.2018
稔	-12.2018
誥	-12.2018
糗	-12.2018
磯	-12.2018
襪	-12.2018
茆	-12.2019
唤	-12.202
膞	-12.2021
憐	-12.2022
暖	-12.2022
扵	-12.2022
玄	-12.2022
榦	-12.2022
皎	-12.2022
渤	-12.2022
􁀊	-12.2023
衮	-12.2023
埀	-12.2023
綬	-12.2023
綺	-12.2023
澀	-12.2024
舛	-12.2024
撾	-12.2024
賑	-12.2024
沾	-12.2024
𢃄	-12.2024
穣	-12.2025
鵶	-12.2025
钂	-12.2025
菰	-12.2025
喋	-12.2025
駁	-12.2026
㙮	-12.2026
嫚	-12.2026
砥	-12.2026
毳	-12.2026
褥	-12.2026
秪	-12.2026
贓	-12.2026
瞽	-12.2027
纎	-12.2027
瓚	-12.2027
癰	-12.2027
盍	-12.2027
鏡	-12.2027
五八門杜客大將叅將不出中宫計神	-12.2027
緜	-12.2027
羿	-12.2027
燮	-12.2028
牐	-12.2028
窰	-12.2028
茨	-12.2029
罳	-12.2029
詬	-12.2029
陪	-12.2029
吻	-12.203
顙	-12.203
哮	-12.203
哺	-12.203
忱	-12.203
琬	-12.203
娼	-12.2031
煞	-12.2031
輅	-12.2031
壻	-12.2032
擕	-12.2032
能一一而設備也惟當摘其中之尤要者	-12.2033
挟	-12.2033
趾	-12.2033
蟇	-12.2033
涵	-12.2034
姥	-12.2034
苧	-12.2035
能有其有者安貪人之有者殘	-12.2035
諮	-12.2035
噉	-12.2035
貊	-12.2035
彚	-12.2035
摽	-12.2035
礫	-12.2035
膚	-12.2035
團兵勇建寨柵以守以禦其餘	-12.2035
謫	-12.2035
洽	-12.2035
始擊將大武客算二十	-12.2035
蕘	-12.2036
瘀	-12.2036
漣	-12.2036
聼吹擺隊伍喇叭	-12.2036
恡	-12.2036
齕	-12.2036
陬	-12.2037
瑯	-12.2037
遹	-12.2037
顫	-12.2037
殲	-12.2037
瑀	-12.2037
髀	-12.2038
掇	-12.2039
覬	-12.2039
概	-12.2039
客聞賊備正西第	-12.2039
斑	-12.204
北戰利正南利曲陣舉黑旗雲氣從北來	-12.204
鈕	-12.204
疾雷不及掩耳	-12.204
至道中五路出師	-12.204
騖	-12.204
澇	-12.204
甎	-12.204
陋	-12.204
計神卯此局太乙助主	-12.204
淬	-12.2041
楹	-12.2041
舉赤旗雲氣從東南來客勝聞賊備	-12.2041
馲	-12.2041
南戰利正北利圓陣舉黃旗雲氣從南來	-12.2042
卻	-12.2042
太宗圍王世充於東都	-12.2042
炁	-12.2043
嶠	-12.2043
昵	-12.2043
臼	-12.2043
鳶	-12.2043
匄	-12.2043
㴞	-12.2043
熸	-12.2043
䖟	-12.2044
戡	-12.2044
貺	-12.2048
爇	-12.2048
諷	-12.2049
隼	-12.2049
神亥此局太乙助客	-12.2049
夸	-12.205
穫	-12.205
殞	-12.2051
莾	-12.2051
筐	-12.2051
玷	-12.2051
窊	-12.2051
有干令犯禁者揭之免於罪知而弗揭	-12.2051
雖格叅將發依依利	-12.2051
總督尚書張公經	-12.2052
寖	-12.2053
勇者不得獨進怯者不得獨退	-12.2054
籲	-12.2054
溯	-12.2054
樣	-12.2055
漾	-12.2056
謟	-12.206
凸	-12.2061
盂	-12.2062
鹿耳四夾軸	-12.2064
鼇	-12.2064
敘	-12.2064
卲	-12.2065
欽定四庫全書尉繚子卷	-12.2067
睺	-12.2068
槊	-12.2069
蜆	-12.2069
妬	-12.2075
竦	-12.2079
隷	-12.208
時加申子鳴其上	-12.2083
州至羅巖州四十里至州四百四十里	-12.2084
驥	-12.2093
臉	-12.2106
頷	-12.2123
陸費墀欽定四庫全書	-12.3787
利直陣舉青旗雲氣從東北來	-12.4425
却以左手打開右手打	-12.4431
艎	-12.4455
為主宜固守聞賊備西北第	-12.4458
炸	-12.4468
巔	-12.4475
澚	-12.4475
涎	-12.4478
鮫	-12.4479
羙	-12.448
鄉設弓兵三十名往來巡邏	-12.4483
司偃旗士衆皆跪又擊鼓	-12.4485
蹉	-12.4486
簽	-12.4486
蝮	-12.4487
啼	-12.4489
鐺	-12.449
以應之次東軍鼓而舉	-12.449
澌	-12.449
鮝	-12.4491
柩	-12.4493
噲	-12.4493
彷	-12.4494
䂓	-12.4494
撻	-12.4494
栿	-12.4494
𥜗	-12.4496
芮	-12.4496
勔	-12.4497
慌	-12.4497
鍫	-12.45
敞	-12.4501
璃	-12.4501
臈	-12.4501
巍	-12.4503
沫	-12.4503
蓑	-12.4503
䟦	-12.4504
綻	-12.4504
瑩	-12.4505
醴	-12.4505
冢	-12.4507
䑓	-12.4507
殻	-12.4507
􁐍	-12.4507
搠	-12.4508
你拏鎗還鎗我拏鎗你劄我我	-12.4508
宸	-12.4508
窈	-12.4508
羯	-12.4508
搥	-12.4509
杳	-12.4509
怏	-12.451
頭人身長六尺五寸面	-12.451
兗	-12.451
韉	-12.451
碓	-12.451
薫	-12.451
胎	-12.4511
帚	-12.4511
承撞右手迎上當心	-12.4511
勇敢千人夜掩暢營	-12.4511
𣅿	-12.4511
圃	-12.4511
冩	-12.4511
劵	-12.4511
梃	-12.4511
澶	-12.4511
簒	-12.4511
其衆可合而不可離可用而不可疲	-12.4512
酥	-12.4512
儔	-12.4512
囑	-12.4512
驀	-12.4512
欽定四庫全書守城録卷	-12.4512
鞴	-12.4512
十步立標標眼如	-12.4512
湴	-12.4512
丁字立當弩八字立髙揎手	-12.4514
臘	-12.4514
夲	-12.4514
鍪	-12.4514
溧	-12.4514
杠	-12.4515
頭人身長四尺五寸面	-12.4515
覷	-12.4515
橶	-12.4515
鍜	-12.4516
膁	-12.4516
罅	-12.4516
昱	-12.4517
症	-12.4517
愒	-12.4518
遨	-12.4518
汧	-12.4518
鷗	-12.4518
嗚	-12.4518
馗	-12.4519
黜	-12.4519
旴	-12.4519
剗	-12.4519
娱	-12.4519
廕	-12.4519
鑵	-12.452
腎	-12.4521
蛇也擊其首則尾至擊其尾則首至	-12.4521
洙	-12.4522
使者目動而言肆懼我也	-12.4522
婪	-12.4522
誹	-12.4522
覊	-12.4523
壳	-12.4523
榜	-12.4523
能而示之不能用而示之不用	-12.4523
䦨	-12.4523
壹	-12.4523
視其轍登軾而望之曰可矣遂逐齊師既	-12.4523
煦	-12.4523
埒	-12.4525
罏	-12.4525
艕	-12.4525
聯	-12.4525
以武剛車自環為營	-12.4525
醮	-12.4526
甜	-12.4526
邁	-12.4526
窩舖二十六座雉堞	-12.4526
杪	-12.4526
甞	-12.4526
疽	-12.4526
畚	-12.4526
􁇣	-12.4528
殯	-12.4528
郗	-12.4528
衲	-12.4528
朦	-12.4528
牌三十六三分一更傳牌七餘一百七十	-12.4528
瘞	-12.4528
琪	-12.4529
使賊不測多少又以人馬逼戰刀不如棒	-12.4529
檝	-12.4529
愾	-12.4529
一角令其衆得奔歸鍾城	-12.4529
俎	-12.4529
先擊祝阿自旦攻城未	-12.4529
窑	-12.4529
玦	-12.453
擯	-12.453
饉	-12.453
其卒自行自止其兵或縱或横其追	-12.453
諍	-12.453
鄞	-12.453
翹	-12.4532
構	-12.4532
不得方軌騎不得成列	-12.4532
惕	-12.4532
迍	-12.4533
鬃	-12.4533
倨	-12.4533
菽	-12.4533
鑾	-12.4533
悠	-12.4533
艤	-12.4533
𪠘	-12.4533
痍	-12.4533
銓	-12.4533
一局甲子丙子戊子庚子壬子太乙在	-12.4534
不利宜固守聞賊備東北第	-12.4534
蓉	-12.4534
鬐	-12.4534
划	-12.4534
扉	-12.4535
濳	-12.4535
原繁洩駕以三軍軍其前使曼伯與子元	-12.4535
囓	-12.4535
蟹	-12.4535
鄒	-12.4535
十七長和客大將七宫發客㕘將一宫	-12.4535
奢既已遣秦間乃卷甲而趨之	-12.4535
縈	-12.4535
謐	-12.4535
刊	-12.4535
糶	-12.4536
拇	-12.4536
扠	-12.4536
嶮	-12.4536
軍軍其後燕人畏鄭三軍而不虞制人	-12.4536
二局乙丑丁丑己丑辛丑癸丑太乙在	-12.4536
㳙	-12.4536
耨	-12.4536
萬之師矣降之不溢三	-12.4536
萬之衆侵伐之地不及五	-12.4536
訝	-12.4536
勝聞賊備東北奇兵東北伏兵利	-12.4537
膿	-12.4537
詳著各圖説於後	-12.4537
凹	-12.4537
藕	-12.4537
調度守城内有選鋒軍餘土兵共三百名	-12.4537
廡	-12.4537
旁縣詡因其兵散日夜	-12.4537
齊人三鼓劌曰可矣齊師敗績公	-12.4537
令軍中曰有以軍事諫者死秦軍	-12.4537
其間港汊浩繁岐路錯雜不可勝	-12.4537
山路闊處約一百步狹處約一十步	-12.4537
譟勒兵武安屋瓦盡	-12.4537
􁌙	-12.4537
蜃	-12.4539
埠	-12.4539
褁	-12.4539
副佩刀八分一萬口陌刀二分	-12.4539
嚇	-12.4539
觴	-12.4539
沅	-12.4539
漢王患之請割滎陽以西	-12.4539
珉	-12.4539
鋌	-12.4539
本路置州兵及朝廷遣禁	-12.4539
楚師必遁晉人從之楚師宵	-12.4539
營兵欲變動聽號令施行	-12.4539
艌	-12.4539
十局癸酉乙酉丁酉己酉辛酉太乙在	-12.4539
譜	-12.454
隨六纛後在營亦	-12.454
縂	-12.454
匏	-12.454
啜	-12.454
斲	-12.454
燿	-12.454
蔥	-12.454
僣	-12.454
寔	-12.454
十一局甲戌丙戌戊戌庚戌壬戌太乙在	-12.454
四頭八尾觸處為首敵衝其中兩頭皆救	-12.454
蒍	-12.454
諄諄翕翕徐與人言者失	-12.454
酧	-12.454
款	-12.454
爺	-12.454
八局辛未癸未乙未丁未己未太乙在	-12.4541
琴	-12.4541
瑒	-12.4541
脹	-12.4541
九局壬申甲申丙申戊申庚申太乙在	-12.4541
穡	-12.4541
部分其合圍地虞候先擇	-12.4541
塟	-12.4541
棼	-12.4541
悼	-12.4543
躡敵或驚其左或驚其右	-12.4543
欽定四庫全書陣紀卷	-12.4543
定訖以善弧矢者	-12.4543
局丙寅戊寅庚寅壬寅甲寅太乙在	-12.4543
暝	-12.4544
暐	-12.4544
娶	-12.4544
五名帶馬一匹住守瞭望	-12.4544
悽	-12.4544
讋	-12.4544
先為不可勝以待敵之可勝	-12.4544
溳	-12.4544
疤	-12.4544
不得不與我戰者攻其所必救也	-12.4544
主勝聞賊備東南竒兵東南伏兵利	-12.4544
五局戊辰庚辰壬辰甲辰丙辰太乙在	-12.4545
騎下臨平野使士卒目見旌旗耳聞	-12.4546
來巡哨有警飛報總兵遊擊	-12.4546
抉	-12.4546
永樂二年甲申四月對馬岐倭寇海	-12.4546
𣙜	-12.4546
摘其中之尤要者建寨柵剏團營	-12.4546
瘁	-12.4546
諜告曰楚幕有烏乃止	-12.4547
諸侯救鄭楚師夜遁鄭人將奔桐	-12.4547
樽	-12.4547
泠	-12.4547
購	-12.4547
駐官兵以為守禦之計其餘亦惟以	-12.4547
六局己巳辛巳癸巳乙巳丁巳太乙在	-12.4548
州為治所本路置州兵及朝廷遣	-12.4548
曦	-12.4548
籓	-12.4548
跽	-12.4548
僭	-12.4548
東南戰利西北利銳陣	-12.4548
淯	-12.455
罇	-12.455
殛	-12.455
冉	-12.455
畎	-12.4551
箒	-12.4551
晉末妖賊孫恩	-12.4551
佃	-12.4551
十二局乙亥丁亥己亥辛亥癸亥太乙在	-12.4551
漢果數挑戰楚軍不出	-12.4551
里其鋪有蕃漢十人守把東南至保州約	-12.4551
隋漢王諒作亂遣其	-12.4551
葆	-12.4551
樸	-12.4552
郝	-12.4552
不習兵所謂擁市人而戰不足圖也	-12.4553
喙	-12.4554
者人有其一皆可使之也	-12.4554
分吾良卒密有所伏敵	-12.4554
計神子此局太乙助客	-12.4554
楫	-12.4555
揑	-12.4555
汶	-12.4555
玘	-12.4555
麇	-12.4555
挼	-12.4556
鯢	-12.4557
臀	-12.4557
苪	-12.4557
愍	-12.4558
更戍外又領鄉軍義勇	-12.4558
譖	-12.4558
邐	-12.4559
丐	-12.4559
前禦其前後禦其後左防其左右防其右	-12.4559
氓	-12.4559
處照腰牌紙内空處填	-12.4559
羮	-12.4561
阸	-12.4561
卹	-12.4561
凰	-12.4562
砦在武崗縣界南至縣	-12.4562
驩	-12.4564
栒	-12.4564
啞	-12.4565
攤	-12.4566
皡	-12.4566
欽定四庫全書武編後集卷	-12.4568
罟	-12.4568
醎	-12.4569
長一尺八寸闊五寸厚三	-12.4569
泯	-12.4569
紘	-12.457
几	-12.4571
悴	-12.4571
蹴	-12.4572
渙	-12.4572
阱	-12.4572
爻	-12.4573
觱栗頭至上扇桄	-12.4573
柄長七尺以上三百枚	-12.4573
嗔	-12.4577
章猷按先師論著	-12.458
劈	-12.4582
綦	-12.4583
黿	-12.4584
事時加辰未鳴其上	-12.4586
年月日某謹禡于	-12.4589
韭	-12.459
榮衰安怨成壞	-12.459
管山前夷人丁口	-12.459
管山後夷人丁口	-12.4602
方陣舉白旗雲氣從西南來主勝聞賊備	-12.4681
主見陣利後動出軍宜西南戰利東北	-12.4681
哨一哨二哨為左翼三哨四哨為左伏	-12.7756
哨一哨二哨為右翼三哨四哨為右伏	-12.7758
獒	-12.7765
懌	-12.7771
杆每杆每出藥八錢五十出共藥二斤半	-12.7785
闍	-12.7788
霰	-12.779
軛	-12.7794
箬	-12.7798
朞	-12.7798
一兩八錢三十出共藥三斤六兩	-12.7798
大屈哉使操觚者而含糊焉則為欺朝廷	-12.7802
蟒	-12.7804
􁔷	-12.7806
螋	-12.7806
淋	-12.7808
哇	-12.7808
炤	-12.7808
嶲	-12.781
祅	-12.781
鄣	-12.781
憂者則享天下之樂能救天下	-12.7812
嵬	-12.7815
鵒	-12.7816
蠼	-12.7817
彿	-12.7819
從中水取廣漢使羸弱乘髙	-12.7819
曰至白帝乃開諸軍雖進未知處分至白	-12.7819
墠	-12.7819
榭	-12.7819
具將發利為客見陣利先動出軍	-12.7821
熄	-12.7821
呐	-12.7823
腮	-12.7823
峨	-12.7823
裭	-12.7823
硤	-12.7825
􁇠	-12.7825
之而知得失之計作之而知動	-12.7825
而知死生之地角之而知有餘不足之處	-12.7825
至契丹蔚州界有谷路三通車騎	-12.7827
萬之衆而天下莫當者誰曰	-12.7827
炷	-12.7829
篠	-12.7829
帋	-12.7829
槐	-12.7829
狶	-12.7829
袵	-12.7831
懶	-12.7831
劾	-12.7831
們	-12.7832
濾	-12.7833
鱉	-12.7833
驂	-12.7833
粲	-12.7833
攴	-12.7833
簫	-12.7833
莆	-12.7833
喏	-12.7835
杞	-12.7835
旨	-12.7835
熕	-12.7835
麨	-12.7835
也經曰第一角聲動前行向左	-12.7835
泌	-12.7835
僮	-12.7837
刮	-12.7837
帳幕不疑軍退翌日始悟	-12.7837
一二隊為右翼兵三四隊為右伏兵	-12.7837
腔	-12.7837
泳	-12.7837
鐔	-12.7837
三軍之士思為致死者以滋味之	-12.7838
太倉港口開船用單乙針一更船平	-12.7839
用乙辰針出港口打水六七丈	-12.7839
輾	-12.7839
唦	-12.7839
大總管及副總管則立十旗以上	-12.7839
之興也伊摰在夏周之興也吕牙在	-12.7839
用兵之法全國為上破國次之全	-12.7839
卷甲而趨日夜不處倍道兼行百里而	-12.7839
犯太短則不及太輕則銳銳則易亂太	-12.7839
勞馬常令有餘備敵覆我能明此者	-12.7839
礶	-12.7839
恍	-12.7839
悸	-12.7839
瓌	-12.7841
鐙分為兩行前行配五十騎為一隊計	-12.7841
鞌	-12.7841
苨	-12.7841
薺	-12.7841
艷	-12.7841
典籖茅恬開東府納賊	-12.7841
範首餘賊進至杜姥宅車騎	-12.7841
儆	-12.7841
曰仁賢之智聖明之慮負薪之言	-12.7842
携	-12.7842
欽定四庫全書三畧直解卷	-12.7842
磬	-12.7842
涌	-12.7843
戕	-12.7843
鏟	-12.7843
据	-12.7843
裀	-12.7843
秦姚萇與苻登相持	-12.7843
撦	-12.7843
等從石頭濟淮間道自承明門入衛宫闕	-12.7843
而奪角音動而止得旗者勝失旗者負勝	-12.7843
鮪	-12.7843
宫内傳新亭亦陷太后執蒼梧	-12.7844
鹺	-12.7844
張張有闊狹左䏶右	-12.7844
褫	-12.7844
努	-12.7844
欷	-12.7844
歔	-12.7844
漲之勢倐忽至城下所謂疾雷不及掩耳	-12.7844
椲	-12.7844
迸	-12.7846
蔬	-12.7846
􁆫	-12.7846
嫻	-12.7846
卸	-12.7846
池間相去一尺五寸間有通水	-12.7846
矧	-12.7846
將在軍君命有所不受茍能制吾豈千里	-12.7846
鏇	-12.7846
更圖進取醜奴聞之遂以為實分遣諸	-12.7848
㤀	-12.7848
沱	-12.7848
應易㧞若我師至丹陽留停旬月進則公	-12.7848
皆是百戰餘賊必不憚於野戰止為公	-12.7848
欽定四庫全書李衛公問對卷	-12.7848
腑	-12.7848
辮	-12.7848
䙝	-12.7848
薄間又遣人升山指麾若部分軍衆	-12.7848
騎奄至謹以衆寡不敵退必不免乃散	-12.7848
所謂先人以奪其心賊見吾兵必走	-12.7848
櫛	-12.7848
眊	-12.7848
飜	-12.7848
赴休範投名者千數	-12.7849
弑	-12.785
菓	-12.785
絰	-12.785
曙	-12.785
欲不戰以老我師今若攻其城柵	-12.785
瑶	-12.785
行船人北土素無舟楫莫不驚以為神	-12.785
甸	-12.785
舉闔廬之弟夫槩王晨請於闔廬曰楚	-12.785
錙	-12.785
鐪	-12.785
飾其表裏復置柴籠三所流	-12.785
不能還安危之機不及終日賊以軍無後	-12.785
慤	-12.785
下觀汝等名皆已焚除勿懼也	-12.7851
燒之登城北謂曰劉休範父子皆已	-12.7851
豉	-12.7852
以後為前以前為後進無奔迸退	-12.7852
鞦	-12.7852
祜追斬之美其死節而	-12.7852
暱	-12.7852
蹊	-12.7852
張翼以進蛇向敵而蟠飛龍翔鳥上下其	-12.7852
槁	-12.7852
上覆下棧屋上置突竈三所臺	-12.7852
壘未畢賊前軍已至道成方解衣	-12.7852
請誘之子庚從之戰于庸浦	-12.7852
遣衆軍擊平賊黨道成振旅凱入百姓	-12.7852
雲蒸鳥散彌川絡野然而不失部隊之	-12.7852
齩	-12.7852
熟寢經宿而還上下遂服之	-12.7853
道聚觀曰全國家者此人也	-12.7853
以禮遣還吳將鄧香掠夏口祜募生縛香	-12.7854
詆	-12.7854
以為犯軍令不可以鄉里故而廢法遂	-12.7854
飃	-12.7854
丢	-12.7854
以安衆心乃索白虎幡登西垣使	-12.7854
兵馬軍等隊即須量抽人	-12.7854
孫千齡與休範有密契獨曰宜依舊遣軍	-12.7854
所欲以死報國耳乃單車白服至新亭築	-12.7854
梁山道成正色曰賊今已	-12.7854
流謀逆皆因淹緩以敗休範必逺懲前失	-12.7854
砌	-12.7854
道慶等浮舸與賊水戰大破之斬休	-12.7854
騎横擊契丹呼聲動天地契丹大敗而走	-12.7854
境上時楚未至聞之即疾馳赴鎮潰卒亦	-12.7854
性至寛有部將符昭者人或告其謀變茂	-12.7854
甌	-12.7854
神速機不可失今兵始集銑尚未知	-12.7854
里餘一百七十三步二尺以壘四面乘之	-12.7854
𤾂	-12.7854
搪	-12.7854
鄐	-12.7855
為吳人所傷而為晉兵所得者皆封還之	-12.7856
徽中桂陽王休範舉兵於潯陽朝廷惶駭	-12.7856
稽查各部下㑹哨兵船每十日一送	-12.7856
但力勝其弓則容貌和	-12.7856
夔州銑以時屬秋潦江水汎漲三	-12.7856
大篷一扇小篷一扇	-12.7856
退不得還吾竒兵絶其後野無	-12.7856
元元貞二年以户口計例	-12.7857
槎	-12.7858
綁	-12.7858
磴	-12.7858
冺	-12.7858
榛	-12.7858
畤	-12.7858
以待之無恃其不攻恃吾有所不可攻	-12.7858
先學持滿須能制其弓定其體後乃射之	-12.7858
弓手三百馬軍五百跳盪四百竒兵四百	-12.7858
弓量其力無動容無作色和其	-12.7858
擋	-12.7858
逄	-12.7858
璇	-12.7858
碌	-12.7858
衞分撥指揮一員千户二員百户四員	-12.7858
主大將二宫格主叅將六宫發始擊將	-12.7859
猥	-12.786
侯之謀者不能豫交不知山林險阻沮澤	-12.786
己而教人者逆正己而化人者順	-12.786
杴	-12.786
濰	-12.786
嶸	-12.786
幙	-12.786
人弓手三百人馬軍五百人跳盪四百人	-12.786
十不當一平陵相逺川谷居間仰	-12.786
行數百里其勢糧食必在後願	-12.786
體調其氣息一其心志謂之楷式	-12.786
思結部落貧窮離散儉招慰安集之其不	-12.786
遯	-12.786
㐲	-12.7862
曰天時不如地利地利不如人和	-12.7862
碁	-12.7862
塾	-12.7862
夜從間道出人抱束薪所歴道有問者	-12.7862
皆自若既至圍屯大放火營中驚亂	-12.7862
漉	-12.7862
睂	-12.7862
不為營壘而求割地吾順言許之所以縱	-12.7862
勝伐江陵聲言徐道覆	-12.7862
曰此城三面重澗並無走路惟慮東	-12.7862
為循黨荀林所破林	-12.7862
獷	-12.7862
艦行船者悉在艦内泝渭而	-12.7862
鷟	-12.7862
不能穿魯縞也兵法忌之	-12.7862
可前可後此長㦸之地也劒楯三不當一	-12.7862
枝葉茂接此矛鋋之地也長㦸	-12.7862
籐	-12.7862
靳	-12.7862
儋	-12.7862
各照常年事規與各部兵船互相策應	-12.7862
擔各兵自備用篾盔一頂	-12.7862
為外壘天陣居乾為天門地陣居坤為地	-12.7862
相隨任所居止於是羣情喜悦兵即四散	-12.7862
臨下此弓弩之地也短兵百不當一兩	-12.7862
冬不服裘夏不操扇雨不張	-12.7863
爬	-12.7864
三宿而逸曰庸師衆羣蠻聚焉不如	-12.7864
蠧	-12.7864
戰兵初合驅牛驢者疾進一時鳴	-12.7864
者藏於九地之下善攻者動於九天之上	-12.7864
惓	-12.7864
曰秦人不意趙師至此其來氣盛	-12.7864
軍必厚集其陣以待之不然必敗	-12.7864
郛	-12.7864
地險不可攻不如更作一城壅其要	-12.7864
建業而桓謙自長安入蜀	-12.7864
於姚襄城南更起城鎮	-12.7864
箭注射則前無立兵對無横陣	-12.7864
者不禁因夜開城門衆咸憚服莫有去者	-12.7864
膘	-12.7864
鑠	-12.7864
騌	-12.7864
囮	-12.7864
柔有所設剛有所施弱有所用	-12.7864
卉	-12.7864
司謂其將叛遽以奏聞朝廷議發兵進討	-12.7864
哈	-12.7864
唑	-12.7864
必傷於飽日暮道逺必數上下寧勞於人	-12.7864
搧	-12.7864
萼	-12.7864
頌	-12.7864
鱟	-12.7864
斬之謂其衆曰汝等並是好人	-12.7865
貔	-12.7866
與之遇以驕之彼驕我怒而後可克	-12.7866
竿力所制人挽其端而投之其車推	-12.7866
勢聚散之形勝負之理賞罰之信因是而	-12.7866
泮	-12.7866
餵	-12.7866
䆳	-12.7866
人臣深曉中畧則能全功	-12.7866
掠於饒野三軍足食謹養而勿勞	-12.7866
既為不可勝且以示弱渡渭為堅壘	-12.7866
翮	-12.7866
進道兼行百餘里令吏士各作兩竈日	-12.7866
厦	-12.7866
叶	-12.7866
呷	-12.7866
矦	-12.7866
謗毁者數千章光武不省	-12.7866
馬不傷於末必傷於始不傷於	-12.7866
率五百人皆負米麥持牛酒自詣賊營奴	-12.7866
後漢誅王郎收文書得吏人與郎交	-12.7867
其營田每年豐熟慮其私蓄富	-12.7867
衆若即分割恐其疑懼或	-12.7867
膸	-12.7867
篩	-12.7867
翬	-12.7867
参	-12.7868
無差尺寸散則法天聚則法地如此	-12.7868
元惡就擒蔡人即吾人也父老無不感泣	-12.7868
先至而得天下之衆者為衢地	-12.7868
後衝之前天居兩端其次地居中間	-12.7868
攄	-12.7868
澨	-12.7868
以誘之觀賊之勢必渡水交兵萬均請	-12.7868
啣	-12.7868
分為八陣陣有一千九十三人七分五銖	-12.7868
故人主深曉上畧則能任賢	-12.7868
牛驢得數千頭復令兵數百人人持一	-12.7868
百戰不殆不知彼而知己一勝一負不知	-12.7868
錮	-12.7868
二曰火積三曰火輜四曰火庫五曰火隊	-12.7868
子禦之笠澤夾水而陣越子為左右句卒	-12.7868
舴	-12.7868
􁆢	-12.7868
㔢	-12.7868
咍	-12.7868
若皆疑惑慶之請獨取之於是	-12.7868
輈	-12.7868
多離散投行恭者千餘騎行恭遣其酋渠	-12.7869
竒兵二萬五千人絶趙軍後又一軍五	-12.7869
坌	-12.787
毡	-12.787
懟	-12.787
或以酒食相過從者以軍法論度乃約法	-12.787
有生人之樂度以蔡卒為牙兵或以為反	-12.787
裸	-12.787
作橋閣山髙谷深至為	-12.787
馮惠亮率舟師三萬屯當塗陳正通	-12.787
􁗒	-12.787
䘏	-12.787
三浮木齒及照板以度竿上尺寸為髙下	-12.787
吝	-12.787
夹	-12.787
熿	-12.787
譴	-12.787
還謂其御曰莫敖必敗舉趾髙心不固矣	-12.787
􁴺	-12.787
䖝	-12.787
且不設備及羅羅與盧戎兩軍之	-12.787
安營不可犯也䝉遜曰傉檀謂吾逺來疲	-12.787
已疲倦去我既逺必不見疑及其未集須	-12.787
撝	-12.787
瑗	-12.787
畋	-12.787
秦將大喜曰夫去國三十里而軍不行乃	-12.787
莫親於間賞莫厚於間事莫宻於間	-12.787
釀	-12.787
勝聞賊備正東竒兵正東伏兵利	-12.7871
韁	-12.7871
逥	-12.7871
形者不能行軍不用鄉導者不能得地利	-12.7871
輕兵擊之趙戰不利因築壁堅守以待救	-12.7871
太宗敬徳躍馬大呼横刺雄信墜馬賊	-12.7871
戰世充驍將單雄信領騎直	-12.7871
間可得而使也因是而知之故	-12.7871
瓉	-12.7871
鸞	-12.7871
乃使宗之居守委以心腹率	-12.7871
五分一更傳牌八餘一里	-12.7871
壯而頑頓與許蔡疾楚政楚令尹死其師	-12.7871
寥	-12.7871
所在此步兵之地也車騎二不當一土山	-12.7871
然後合陣否則畨軍即時掩殺	-12.7871
積數布算如方營法得	-12.7871
譛	-12.7871
門弇傳步詣行在所勒兵入據其城樹十	-12.7871
降軍各以郡人詣旗下皆罷遣軍人令歸	-12.7871
風揚雲垂龍飛虎翼鳥翔蛇蟠	-12.7871
四局丁卯己卯辛卯癸卯乙卯太乙在	-12.7872
璡	-12.7872
饋糧士有飢色樵蘇後㸑師不宿飽	-12.7872
䧏	-12.7873
庸人曰楚不足與戰矣遂不設備楚子乘	-12.7873
因形用權則不勞而功舉	-12.7873
淮西旣平裴度為節度招撫使蔡人大	-12.7873
我按兵不出待彼氣衰陣久卒	-12.7873
掏	-12.7873
熨	-12.7873
騙	-12.7873
旌旗動者亂也吏怒者倦也	-12.7873
筵	-12.7873
鏽	-12.7873
卒未親附而罰之則不服	-12.7873
闂	-12.7873
乘勝至于姑臧夷夏降者萬數	-12.7873
倂	-12.7873
兵夫列船式平時在船四面擺	-12.7873
器長短相間分方面外而立如遇打賊隨	-12.7873
捩	-12.7873
據武牢扼其襟要若賊恃勝	-12.7873
春秋時齊師宋師次于郎	-12.7873
樂毅畏誅而不敢歸以伐齊為名實欲	-12.7873
珎	-12.7873
琛	-12.7873
肫	-12.7873
召其首領各飲之酒與之佳錦歡好如初	-12.7874
甿	-12.7874
里齊地悉平後魏末河北賊葛榮為魏將	-12.7874
坯	-12.7875
鬭亂而不可亂渾渾沌沌形圓而不可敗	-12.7875
数	-12.7875
次小於中箭其牙一發諸箭齊起及七百	-12.7875
相生如循環之無端孰能窮之	-12.7875
跂	-12.7875
子葢所殺窮無所歸今唐公與人無隔恩	-12.7875
無逆心徒以政令嚴酷懼死為	-12.7875
相率歸前後至者數萬人餘賊散走他郡	-12.7875
殖	-12.7875
繩計其尺寸則髙下丈尺分寸可	-12.7875
近矢石不能敗此不用大船務	-12.7875
唾	-12.7875
據長安城所在莫有固志羆聞之乃大開	-12.7875
晷	-12.7875
泓宋人既成列楚人未既濟	-12.7875
禎	-12.7875
稚	-12.7875
者衆而皆小國也畏楚而不獲已是以來	-12.7875
謂羣獠曰我是刺史銜天子詔安養汝等	-12.7875
閏三月賊首鄧文俊等分掠縣境	-12.7875
之公弗許自雩門竊出䝉臯比而先犯之	-12.7875
力疲怠賊乃乘間得入排城延伯軍大敗	-12.7875
留二十八日不行復益増壘秦間	-12.7875
赴或謂宗之未可測道規乃	-12.7875
險而囂是軍無政令逼城而陣有輕我心	-12.7875
淚	-12.7876
客大將六宫發客叅將八宫格計神	-12.7876
婉	-12.7877
未能行令其佐先縠剛愎不仁未肯用命	-12.7877
朱旗掉角音動左右各復本	-12.7877
自安願効死力其黨相謂曰我	-12.7877
邃	-12.7877
上三人為一處處有數百騎令所在揚塵	-12.7877
棺	-12.7877
蠣	-12.7877
大呼曰官軍已得𤣥感矣官軍稍怠𤣥感	-12.7877
滷	-12.7877
聞之曰作事威克其愛雖小必濟	-12.7877
鑱	-12.7877
𠖇	-12.7877
主勝聞賊備西南奇兵西南伏兵利	-12.7877
凜	-12.7877
嘿	-12.7877
遇且攻其右右無良焉必敗偏敗衆乃攜	-12.7877
鄜延丹坊保安軍路	-12.7877
鄾	-12.7877
子儀曰適足以為害也乃傳呼曰令公	-12.7878
主客俱不利各宜固守主	-12.7878
枲	-12.7879
榴	-12.7879
曰使勇而無剛者嘗冦而速去之	-12.7879
不戰而屈人之兵善之善者也	-12.7879
竿竿上安轆轤以繩挽	-12.7879
公理使諜知之果屯兵於河陽内城以	-12.7879
吾逺之敵近之吾迎之敵背之軍	-12.7879
屨	-12.7879
心者可共固守軍人見其誠信皆無異志	-12.7879
擥	-12.7879
渣	-12.7879
涅	-12.7879
瓣	-12.7879
虜初疑持矢待之子儀以數十騎免胄	-12.788
賽	-12.7881
奪吳人之資石城以西盡為晉有自	-12.7881
子服乃進據險要開建五城	-12.7881
赭	-12.7881
煬帝令户部尚書樊子葢擊之子葢深溝	-12.7881
糒	-12.7881
輦	-12.7881
來攻城城内兵力甚弱裕	-12.7881
忸	-12.7881
牂	-12.7881
開門使羸疾數人登城賊	-12.7881
䍡	-12.7881
不利為主宜固守聞賊備正南第	-12.7881
公曰不可既濟而未成列又以告公曰未	-12.7881
圓陣舉黄旗雲氣從南來客勝聞賊備	-12.7881
姻	-12.7881
子幹阻川為營賊軍不得水數日人馬	-12.7881
惴	-12.7881
方連船艦首尾相接可燒而走也乃	-12.7881
舊並懐異心道規乃	-12.7881
逝	-12.7881
隋末楊𤣥感反攻東都刑部尚書	-12.7881
假稱使者徑入國良壘中國良召使者入	-12.7882
危懼遂散財聚衆據縣以叛諸道同討連	-12.7882
曰國良軍中有變言降是詐也臯曰非爾	-12.7882
倍之衆今力固不敵且至誠感神	-12.7882
將出諸將諫曰戎狄之心不可信也請無	-12.7882
初二三風初七八風十二三風十七八風	-12.7883
忒	-12.7883
蜑	-12.7883
齮	-12.7883
忩	-12.7883
部侍郎徐公貫㑹同巡撫都御史何公鑑	-12.7883
珽	-12.7883
墀	-12.7883
夐	-12.7883
弓一萬二千五百張弦三萬七千五百條	-12.7883
旗為節制其初起圍張翼隨山林地勢無	-12.7883
燕將大喜許之燕軍由此益懈	-12.7883
皖	-12.7883
頭其次左右將各主士伍為行列皆以金	-12.7883
二宫天目大武宫迫主算三十八	-12.7883
副使任公環知府林公懋舉	-12.7883
棄四海令公亦謝世中國無主故我從其	-12.7883
紇驚曰令公存乎僕固	-12.7883
蚤	-12.7883
蹔	-12.7883
見有二珥四珥而蝕有	-12.7883
不能下臯受命乃曰驅疲	-12.7884
觀察使前使辛京杲貪殘有將王國良鎮	-12.7884
氣以作兵法文昌以命將	-12.7885
斥澤之中必依水草而背衆樹	-12.7885
武陽使精騎馳廣都去成都數	-12.7885
師衆號百萬相州刺史李神雋閉門自守	-12.7885
前後虜見而問曰此誰也報曰郭令公也	-12.7885
大呼餘人悉持兵弩夾門而伏超	-12.7885
役徒於山中楚人坐其北門而覆諸山下	-12.7885
敵所逼不及築城壘或因山河險	-12.7885
棓二分二千五百張馬軍及陌刀並以啄	-12.7885
之今一旦棄舊好助一叛臣何其愚也且	-12.7885
兾	-12.7885
勝能與敵變化而取勝者謂之神則	-12.7885
恩背主棄親於公等何有	-12.7885
門具將發利爲主見陣利後動出軍宜	-12.7885
闚	-12.7885
凍元振未嘗移足烏質勒年老不勝寒苦	-12.7886
令公亡矣不然何以至此令公誠存	-12.7886
椹	-12.7887
因晨夜倍道兼行二千餘里徑	-12.7887
君子明於盛衰之道通乎成敗之數審乎	-12.7887
廢一善則衆善衰賞一惡則衆惡歸	-12.7887
散倉庫給兵士令復農桑焉	-12.7887
湛	-12.7887
元琮當其北子儀率甲騎二千出	-12.7887
憶	-12.7887
敵無備出而勝之敵若有備出而不勝難	-12.7887
莫敖屈瑕曰絞小而輕輕則寡謀請無扞	-12.7887
㧻	-12.7887
濺	-12.7887
烘	-12.7887
粱	-12.7889
生量量生數數生稱稱生勝	-12.7889
單又收民金得千鎰令即墨富豪	-12.7889
在之面倂力動手無賊之面亦	-12.7889
尔	-12.7889
今地設弓兵七十名往來巡邏	-12.7889
剰	-12.7889
吾族家妻妾令安堵	-12.7889
子儀使李國臣拒其東魏楚玉當其南陳	-12.7889
莭	-12.7889
葛以元振故殺其父謀勒兵攻之副使解	-12.7889
圩	-12.7889
匍匐叩頭請罪臯執手約為兄弟盡焚攻	-12.789
明日親入虜帳哭之甚哀行弔贈之禮	-12.789
葛乃感其義復與元振通好郭子儀屯	-12.789
軍轉陣以後為前以前為後進無	-12.789
荼	-12.7891
郄	-12.7891
櫟	-12.7891
陣此東十里有渭曲可先據以待之遂進	-12.7891
安得不投死乎由是皆服	-12.7891
峩	-12.7891
陣降者皆相語曰蕭王推赤心置人腹	-12.7891
壘相去七里遣使招矩時暢卒至矩未暇	-12.7891
引而去之令敵半出而擊之利	-12.7891
粕	-12.7891
若時至而行則能極人臣之位得機而	-12.7891
鳴金鼓扯行船旗起椗起篷	-12.7891
缾	-12.7893
婚	-12.7893
渠帥為列侯降者猶不自安光武知其意	-12.7893
懼燕軍之劓所得齊卒置之前行與我戰	-12.7893
數騎徑入城處之不疑莫不畏服	-12.7893
磽	-12.7893
永樂二年尚書夏公原吉	-12.7893
琕	-12.7893
賊焦籬堡守將尉珪以兵二千因堡降燧	-12.7894
耦	-12.7895
楚師馳之原軫郤溱以中軍公族横擊之	-12.7895
欒枝使輿曳柴而偽遁	-12.7895
涘	-12.7895
待敵若敵先居之盈而勿從不盈而從之	-12.7895
進進而遇覆必速奔後者不救則無繼矣	-12.7895
六千守宫城禦備甚嚴燧度長春不下則	-12.7896
祖父之勲力背君上為滅族之計耶從吾	-12.7896
非止免禍富貴可圖也賊徒	-12.7896
狙	-12.7897
鐝	-12.7897
駛	-12.7897
又曰爾以吾言不誠今相去不逺數步爾	-12.7897
燕人聞之如其言城中人見齊諸降者	-12.7897
軍志曰止則為營行則為陣	-12.7897
屈乃徐謂之曰我來自朝廷可西面受命	-12.7898
廼	-12.7898
猋	-12.7898
大將居中諸部連繞四頭八尾觸處為首	-12.7898
裼	-12.7898
待敵若敵先居之引而去之勿從也	-12.7898
櫈	-12.7898
軍曰今日必無晉矣子西將左子上將右	-12.79
凈	-12.79
芭	-12.79
憇	-12.7902
惹	-12.7902
褙	-12.7902
痒	-12.7902
詧	-12.7902
賊首鄧文俊林碧川沈南山等分	-12.7902
垢	-12.7904
指壓大指頭指當弦直	-12.7904
十萬竈明日為五萬竈又明日為三萬竈	-12.7904
危者安之懼者歡之叛者還	-12.7904
絜	-12.7904
挐	-12.7908
杙	-12.7908
魏人服叡威名望之不敢逼全軍而還	-12.7908
事時加亥夘鳴其上有	-12.791
誨	-12.7912
荗	-12.7912
羖	-12.7914
禇	-12.7914
鎈	-12.7914
涗	-12.7914
燁	-12.7914
瑁	-12.792
莞	-12.7924
菑	-12.7925
縞	-12.7927
詗	-12.7929
夭	-12.7935
埂	-12.7937
左手監住右手一抹刀他若使一	-12.7937
襠	-12.7956
陿	-12.7958
鬢	-12.7979
囚不利為主宜固守聞賊備西	-12.799
吪	-13.2729
鍁	-13.2732
之地掘而成穽不拘廣狹上以蘆蓆	-13.2738
丙午針三更船取孝順洋及亂礁洋打水	-13.2744
个	-13.2744
會皷四十五聲六疊一間三間畢	-13.2754
瀨	-13.2766
呤	-13.2766
凡當先者一甲被圍二甲不救一隊被圍	-13.2769
搐	-13.277
每杆每出鉛子二個每個重一兩五十出	-13.2773
牛令士卒各執大刀大斧口作牛聲而進	-13.2776
藻	-13.2776
令三軍喊呼向前各執長鎗三尖利刀	-13.2779
帝發書曰衆軍悉從外水取成都臧	-13.2779
此制敵之竒也而慮此聲先馳賊審	-13.2779
譙詵等屯彭模夾水為城以拒晉軍諸	-13.2779
八錢水飛過硃砂四兩鉛治水銀四兩共	-13.2779
出一戰隊令取虞候進止防有賊至便用	-13.2779
向敵各執短刀短鎗如風齊進勢不可當	-13.2782
兜	-13.2782
沬	-13.2782
子癸針五更船取東西雞山及壇頭山	-13.2782
𩥇	-13.2782
者上不制于天下不制于地中不制于人	-13.2785
脂清油桐油濃油同熬成膏入前藥末旋	-13.2785
士之法取年四十巳下長七尺五寸巳上	-13.2785
斤每杆火線十條共火線二千條每車	-13.2785
琢	-13.2788
軍蒲坂造三道浮橋渡河又遣其將竇泰	-13.2788
劉裕與朱齡石密謀取蜀曰劉敬宣	-13.2788
日所司請講武遂申命將帥選閲軍士所	-13.2788
勒五陣設伏二十餘所約聞鼔即起擊	-13.2788
捉馬驢第二角聲絶即被駕右一軍捉馬	-13.2788
鉸	-13.2788
㧓	-13.2788
丹同研乾漆搗為末竹茹麻茹	-13.2788
上今者大來兵未出郊賊顧謂吾	-13.2791
襲之必克克泰則歡不戰而自走矣諸將	-13.2791
噀	-13.2792
立定吹大角三通中軍大將各以鞞合	-13.2792
以胡桃剖分空中實艾火開	-13.2792
左右三軍别長史二人振鐸分循以警衆	-13.2792
因天時燥旱營舍茅竹積芻穗	-13.2792
閣是也此十有六者皆前世已然之效也	-13.2792
虺	-13.2792
六百七十五斤一兩八錢每杆每出鉛子	-13.2792
栰	-13.2792
之節前一日將帥及士卒集於墠地所禁	-13.2795
瑤	-13.2795
立表一行凡立五行表間前後各容五十	-13.2795
軍上軍在北中軍次之下軍在南東西相	-13.2795
呉二千里聞吾舉事當表上天子比相反	-13.2795
攛	-13.2795
飛鎗齊進三陣一時同發名為日鼠飛躍	-13.2795
為天鼠三軍大刀大斧飛奔前進地陣如	-13.2795
色建旗為和門於都墠之中四角皆建五	-13.2798
䰟	-13.2798
一月間也則吾城已固諸軍足辦吾	-13.2798
擊鼓有司舉旗士衆皆起騎徒皆行及表	-13.2798
用單卯針二十七更過洋至日本	-13.2798
著隊頭一人副隊頭一人擬戰日押輜重	-13.2798
浣	-13.2798
為第二等一轉為第三等右廂禁軍蕃落	-13.2798
騶	-13.2798
合為一體迭相救援戰則互為進退循環	-13.2801
柤	-13.2801
者漢王慢楚使而疑范増是也所謂飽而	-13.2801
者石勒奉戴王浚是也所謂佚而勞之者	-13.2801
守逯式兼領兵馬頗作邊害而與	-13.2801
所必救故城有宜急而取之者有宜緩而	-13.2801
慾	-13.2801
馨	-13.2801
執雙刀如鳥翅飛開殺聲不住一躍前進	-13.2804
娥	-13.2804
伐虢假道於虞是也所謂利而誘之者赤	-13.2804
所謂能而示之不能者匈奴羸師以誘漢	-13.2804
留兵備公安南郡是也所謂强而避之者	-13.2804
而餌鄧洪是也所謂亂而取之者李靖	-13.2804
胡是也所謂逺而示之近者韓信陳船臨	-13.2804
輕舟而破蕭銑是也所謂實而備之者	-13.2804
與休乆結嫌隙勢不兩存欲来歸附輒以	-13.2804
之寳也人之所庇也得原失信何以庇之	-13.2804
内鉗手四分散匠三分算該銀一錢九分	-13.2804
圍原命三日之糧原不降命去之諜出	-13.2804
庵	-13.2804
門之外欲人先意以待事也周人將交	-13.2804
滿者損之歸者招之服者活之降者	-13.2806
箭以小瓢盛油冠矢端射城樓櫓板	-13.2807
乾打碎用篩羅細盛在甕内	-13.2807
用狼毒半斤草烏頭半斤巴豆半斤	-13.2807
曰攻城為下然攻亦有道必在乎審彼之	-13.2807
疥	-13.2807
定期以書置界上式兵得書以見式式惶	-13.2807
慮腹背之患者須急攻之以速其利如我	-13.2807
為吳地吳亡屬越越亡屬楚秦併天下為	-13.2807
皆謂用謀以降敵必不得已始修車櫓具	-13.2807
軍次後軍步軍次左軍馬軍次左軍步軍	-13.2807
榙	-13.2807
每更九刻四十八分每㸃一刻五十七分	-13.2807
所圍東魏召人赴救慕容儼應募赴之時	-13.281
暌	-13.281
圑	-13.281
以我為疑即以通情於敵君示舉兵期與	-13.281
兩石灰一斤荏油半斤入鑊内煎沸入薄	-13.281
心迎其意或慶或弔以惑其志情變於内	-13.281
堅兵衆欲留我師外援且至則表裏受敵	-13.281
雨城内土山崩賊乘之垂入苦戰不能禁	-13.281
夜隂令精兵銜枚於他處舉筏而渡擊	-13.281
椿對宇文盛馳告急憲自救之齊人遽退	-13.281
爭利則不及委軍而爭利則輜重捐	-13.281
恐不知所為便出迎儼即執之一部遂定	-13.2813
用單乙針及乙卯針一更平寶山到南	-13.2814
遂率騎六千還長安聲言欲往隴右既而	-13.2814
匯	-13.2814
以烏梅甘草置口中以辟其毒金火罐法	-13.2814
戰鋒分為四道行兩行輜重在中心雙引	-13.2814
缷	-13.2814
下得天蓬天英天芮天柱凶	-13.2814
斬獲俄而椿告齊衆稍逼憲又救之㑹被	-13.2814
每更九刻三十六分每㸃一刻五十五分	-13.2814
臬	-13.2814
鞲	-13.2814
鮎	-13.2814
何器但能奮勇當鋒用火藥火器成功用	-13.2817
取之以牝吞圓勢可敗也法曰翼而張者	-13.2817
論每甲長一名管兵十名甲長小旗一面	-13.2817
及成列泰乃縱兵擊破之斬泰傳首長安	-13.2817
敖曹適䧟洛州聞泰死焚輜重棄城	-13.2817
發其牙箭用大小鑿頭箭惟手射	-13.2817
金砲打之人馬中則解散放宜急勿使凝	-13.2817
倔	-13.2817
悦慶言也死亡憂患貧賤苦辱刑戮誅	-13.2817
坍	-13.2817
曰臣聞兵出無名事故不成明其為賊	-13.2817
榼	-13.2817
武行師以大信為本得原失信古人所惜	-13.2817
每更一十刻二十四分每㸃二刻四分	-13.2817
若以力楚國方城以為城漢水以為池雖	-13.2817
駐兵築壘鑿林刳木廣為舟航示以必濟	-13.2817
左或右旋刺非惟䕶自身且䕶從牌之兵	-13.2817
杌	-13.2817
荐	-13.2817
鎗前半節右手執鎗後半節或伸或縮或	-13.2817
塞之獲難屯之獲城割之獲地裂之獲財	-13.2818
雒	-13.2819
嘘	-13.282
寸半櫃傍開一竅卷筒為口口有蓋為	-13.282
揜	-13.282
散麻厚寸半前後貫二銅束約定尾有	-13.282
注櫃竅中及三斤許筒首施火樓注火藥	-13.282
熖其挹注有椀有杓貯油有沙羅發火有	-13.282
而前盤馬相擬而罷遂振旅徒還	-13.282
葷	-13.282
藜	-13.282
方陣正而厚圓陣隨而取正厚者力併故	-13.282
寸形圓口徑八分先用麻皮泥漿次使麥	-13.282
張時用十許人次者五七人一工凖所射	-13.282
薄西岸岸上軍先備火具焚之大敗循	-13.282
前二弓後一弓世亦名八牛弩張時凡百	-13.282
子弩最小數人就牀張訖一人手發之射	-13.282
則亦不敢痛折今既知其詳則豈可不盡	-13.282
堅行操刀上岸以手東西指麾若分部	-13.282
百人為都五都為營五營為軍十軍為廂	-13.282
壯吾氣故曰不善人者善人之資為將帥	-13.282
而至燔其積聚不過三日袁氏自敗也操	-13.282
必自斷後追兵雖精將既不敵彼士亦	-13.282
於此今已敗奈何復追詡曰兵勢有變亟	-13.282
果驚奔衆因此潰亂慤率兵直渡渠奮擊	-13.282
氣方勵彼已破膽一戰可定何疑焉慤以	-13.282
泚旣汙宫闕羣賊附李希烈希烈僭號欲	-13.282
皆驗詡曰此易知耳將軍雖善用兵非曹	-13.282
訂	-13.282
油處横筒内有拶絲杖杖首	-13.2823
煥	-13.2823
筒上横施一巨筒皆與櫃中相通横筒首	-13.2823
陣八騎挑戰於兩陣之間五陣畢俱待擊	-13.2823
􁦍	-13.2823
自虛我軍隨而迫之所以懼而降也此可	-13.2823
軸絞張之下施牀承弩其名有	-13.2823
夾攻陣中彼不曉破我用羣刀手大	-13.2823
彼兵臨我我用兩卒口銜刀手執白紙幡	-13.2823
玭	-13.2823
痕	-13.2823
子守有餘公輸屈曰吾知所以拒我者以	-13.2823
䌫	-13.2823
孫堅少時與父共載船至錢塘㑹海賊	-13.2823
有不勝其忿而蟻附之士卒被傷城終不	-13.2823
狐偃曰楚始得曹而新婚於	-13.2823
伯謂士㑹曰若何而戰對曰趙氏新出其	-13.2823
六戊也入地户六己也過太陰六丁也	-13.2823
前烽應訖即赴軍若慮走不到	-13.2823
圍地則謀士卒困於險隘鬭則兵弱持	-13.2823
大喜集百官曰雲起用突厥而平契丹	-13.2823
孫固如晉告急先軫曰報施救患取威定	-13.2823
必利繡信之遂收散卒追戰果	-13.2823
持十炬火繫炬於木枝光照數十里冲懼	-13.2823
擊慤曰不然吾已屠其堅城破其銳衆	-13.2823
營五十里結陣而宿契丹弗之知也既明	-13.2823
秦苻堅䧟襄陽晉將桓冲攻之堅	-13.2823
稲	-13.2823
郡欲共髙麗交易勿言營中有隋使敢漏	-13.2823
鞉	-13.2823
去之敵陵待之敵暴綏之敵悖義之敵睦	-13.2825
陛	-13.2825
蔞	-13.2826
卷筒中央貫銅胡盧下施雙足内有小	-13.2826
抆	-13.2826
閥	-13.2826
存不攻以備攻備備存不攻釋實而攻虚	-13.2826
銛	-13.2826
大軍臨至使其將帥移易以成傾蕩之勢	-13.2826
晟與公等各有家室離别數年今已成功	-13.2826
能握其機而善克其事者又在此際	-13.2826
明不預焉所謂亂軍者豪家權臣閽寺嬖	-13.2826
木謂之奈何木木上錯綜釘以竹簽其木	-13.2826
第一角聲動左行向左右行向右三行	-13.2826
耒	-13.2826
耘	-13.2826
若賊置梯棚下而上登其棚觸首	-13.2826
輕重與挑木相稱賊來攀援則其	-13.2826
馳徒走左右軍俱至中表相擬擊而	-13.2826
傚	-13.2826
奉使行符稽留若符事聞泄告者皆誅之	-13.2826
可以解渴士卒聞之口皆出水遂及前水	-13.2826
衆曰有病者殺而焚之三軍咸稱不病	-13.2826
錬	-13.2826
魏曹操軍行失道三軍皆渴公令曰前	-13.2826
仙領兵守㑹稽以為應援公祐擁兵東走	-13.2826
倉廩與客販囤園棧房陳陳相因	-13.2826
偸	-13.2826
兵馬開白旗山險開黄旗煙火開紅旗	-13.2826
宗然其言使括泥熟家口悉送還之	-13.2826
惡臾駢之佐上軍也若使輕者肆焉其可	-13.2826
收軍還石頭安都夜令士卒密營禦敵之	-13.2826
時糧儲寡少人懐恟懼州有空倉數十所	-13.2826
曰臾駢必實為此謀將以老我師也	-13.2826
欲促其事乃遣郭謨詐降過儀因	-13.2826
每更一十刻三十六分每㸃二刻七分	-13.2826
每更九刻二十四分每㸃一刻五十二分	-13.2826
開東西掖門與戰大敗之賊乃退不敢逼	-13.2826
土覆之以米因召側近村人佯有所訪問	-13.2826
地協於用則用之不協於用則反之反之	-13.2826
後周將賀若敦率騎六千渡江取陳	-13.2826
担	-13.2826
捕官率領民壮衛廵捕官率領官軍出海	-13.2826
於營外遥見遂即遣之瑱等聞以為實乃	-13.2826
有大水糧食乏絶進退守備皆無所利當	-13.2826
龍張翼以進鳥翼兩旁向敵而翔以應之	-13.2826
圖始心降可以保終降體以禮降心以樂	-13.2829
啚	-13.2829
諸將奉賀因問曰始大王野戰破	-13.2829
別	-13.2829
鋩	-13.2829
賊庭若小有震驚則非伐罪弔	-13.2829
士衆逺涉江湖不習水土必生疾病此數	-13.2829
李齊運告諭百姓居人安堵秋毫無所犯	-13.2829
為之軍吏權軍之勢擅將之威公政私	-13.2829
益兵之符長五寸敗軍亡將之符長四寸	-13.2829
之上晉人疑有伏兵遂不敢追時服其謀	-13.2829
形之者以竒示敵非吾正也勝之者以正	-13.2829
晉開運中契丹擁衆南向約八萬餘騎晉	-13.2829
踵之晉軍至陽城契丹大至晉軍與戰	-13.2829
於表下而軍容肅魏絳戮揚干而諸侯服	-13.2829
此中粟皆滿足支二年但努力堅守衆心	-13.2829
竒兵七百人在蕃後夜襲之去賊五里置	-13.2829
來牽馬馬既畏船不上敦發伏掩之盡	-13.2829
侯安都居守齊軍乘虛入據石頭遊騎至	-13.2829
入齊境五百里前後三遣使報消難皆不	-13.2829
前鎗斧居次先斬執葢次斬先鋒	-13.2829
又湘羅之人乘輕船載米粟及籠	-13.2829
周章方結陣不得還船登縱兵乘之遂	-13.2829
在死地賊必不敢渡水當吾鋒食畢齊師	-13.2829
弊於魏也田忌從之直走大梁魏	-13.2829
投瑱瑱遂納之敦又别取一馬牽以	-13.2829
照前條約比較賞罰畢仆旗各回原伍盖	-13.2829
示以必死擒獲示以必賞令立告諸吏士	-13.2829
笴	-13.2829
聲武親來麾數百騎西去忠勒餘騎不動	-13.2829
船馬以招瑱軍詐稱投附瑱便遣兵迎接	-13.2829
財帛以餌消難及其屬先歸忠以三千騎	-13.2829
趙趙請救於齊田忌引兵救趙孫臏曰夫	-13.2829
路衝其方虛彼必釋趙而自救是我一舉	-13.2829
邸	-13.2829
柹	-13.2829
虎張翼以進蛇居兩旁向敵而蟠以應之	-13.2829
逭	-13.2829
微聖去則國乖微者危之階乖者亡之徵	-13.2832
賢人所歸則其國强聖人所歸則六合同	-13.2832
勇怯在乎法成敗在乎智怯人使之以刑	-13.2832
暇發以故尅也宗羅睺恃往昔之勝兼復	-13.2832
相輕今喜吾出悉兵來戰雖擊破之擒殺	-13.2832
徐道覆欲自新亭焚舟而戰盧循多疑少	-13.2832
癩	-13.2832
韎	-13.2832
埴	-13.2832
擒將之符長九寸降城得邑之符長八寸	-13.2832
皆力戰虜意大沮明日於戰處焚屍	-13.2832
禺	-13.2832
陽必虛欲以竒計取之乃潛引兵自黄澤	-13.2832
也而操皆冒行之瑜請得精兵三萬人進	-13.2832
於豪强之身而不在於士卒之庸豪强有	-13.2832
流涕逺方居人亦有經宿方知者	-13.2832
以充軍用隋將楊素奮兵擊之四十餘戰	-13.2832
即易勝耳亮笑縱使更戰七縱七擒而亮	-13.2832
夫齊性剛其國富君臣驕奢而簡於細	-13.2832
平陳禎明三年隋師濟江宜黄侯慧紀	-13.2832
度使先是吐蕃欲成烏蘭橋每於河壖先	-13.2832
慅	-13.2832
戰也紹乃引軍而南業將擊之其將沮渠	-13.2832
握度竿長二丈刻作二百寸二千分每寸	-13.2832
摧毁雖有排楯莫之能撓孝寛乃縫布為	-13.2832
攻者故兵向城必先使諜者求知城中之	-13.2832
晉劉裕率兵伐後秦姚泓後魏遣將	-13.2832
澒	-13.2832
獲不去曰公天威也南人不復反矣遂至	-13.2832
率步兵二千卷甲倍程與臨洮軍合	-13.2832
而後大師繼之必克弗許夫槩王曰所	-13.2832
至逆來争取敦甲士出而擒之此後實有	-13.2832
虎以示山陽山陽大喜至江津單車白服	-13.2832
走牢籠其心使馴吾之左右豪强無	-13.2832
躭	-13.2832
三千人伏於壁内誡之曰候吾小却賊必	-13.2832
乃申命士衆宿整兵器昧爽開南門引	-13.2832
欲臨射城中侃曰車髙塹虛彼來必倒可	-13.2832
武俊合從擊泚武俊雖許之然尚猶豫抱	-13.2832
破惠亮自降孝恭欲從其議靖曰公祐精	-13.2832
謂曰朱泚希烈僭竊大位足下不能自振	-13.2832
犄	-13.2835
遒	-13.2835
懐火直抵敵營一時舉火營中驚亂急	-13.2835
詐越人澆薄越王勾踐以殘亡之國恤孤	-13.2835
莧	-13.2835
蚩尤敗於涿鹿燕丹死於易水王	-13.2836
滅若水戰則可燒浮橋戰艦於上流放之	-13.2836
三更船取灘山打水七八托用單丁	-13.2836
至故可去者多亦少敗亡故曰三十里而	-13.2836
藿山用單午針入西後門用巽已針三更	-13.2836
諸葛孔明撮巴蜀之衆窺兵中原身為	-13.2836
僮使僅二百人每以自隨臨入敵	-13.2836
待當營卓幕訖方可立隊釋仗	-13.2836
能勝衣至於野外馳逐能擒奔馬自執鞍	-13.2836
隨鞍躍上然後羈帶矛矢在手前無强敵	-13.2836
吾騎翼而勿去或馳而往或馳而來	-13.2836
盪騎兵也戰鋒隊步騎相半也駐隊兼車	-13.2836
吾將以近通逺從中應外以給三軍之用	-13.2836
外垣砦文靖慮孤軍難守乃與	-13.2836
旗幟循堞往來晉王曰我聞劉鄩用兵一	-13.2836
毆之手皆見骨殺傷萬計虜氣稍奪於是	-13.2836
西二馬頭係皆大江逼近城郭乃要地也	-13.2836
閡	-13.2836
儒慷慨神色愈烈為虜所衝突散而復聚	-13.2836
宋將宗慤征林邑逕入象浦	-13.2836
崩士卒取其泥帛絞而飲之人馬俱	-13.2836
患地也左有深溝右有坑阜髙下如平地	-13.2836
是夕東北風大起破屋折樹營中掘井方	-13.2836
砑	-13.2836
鹿角為行寨契丹圍之數重竒兵出寨後	-13.2836
䲭	-13.2836
不汚井竈不毁神祠佛像恐怒敵也破城	-13.2836
之謂隨勢者也合戰之地便其干戈利其	-13.2836
乗之仁杲列陣城下太宗據涇水以臨賊	-13.2836
修葺磨礪如其棄失申上所由便為案記	-13.2836
倚以木馬令人於笆内射外凡攻城鑿	-13.2836
及播越抱武俊哭涕泗交下武俊亦哭感	-13.2836
咸欲引軍避之登乃閉門自守示弱不戰	-13.2836
外又垂皮笆亦以禦砲方竅下置梯以升	-13.2836
多積戰具以禦之歡使謂城中曰縱爾縛	-13.2836
失人心及魏大武軍至乃奔退麾下散亡	-13.2836
安戰則有累卵之危業曰卿言是也乃按	-13.2836
寛復掘長塹截其地道仍簡戰士屯城外	-13.2836
後桄出以土囊壓竿稍令掲車首昂起車	-13.2836
慴	-13.2836
楊軌恃虜騎之强有窺伺之心紹纂兵	-13.2836
武庫自取器甲所司不能禁侃命斬數人	-13.2836
每更九刻一十二分每㸃一刻五十分	-13.2836
火繩三條在臺側近上下用屈膝梯上	-13.2836
縴	-13.2836
賊攻東掖門縱火甚盛侃以水沃滅火射	-13.2836
軍而返齊人弗悟而不追若追之必克也	-13.2836
速戰兵法善於致人不致於人今田悦與	-13.2836
進便設緒棚續車後遇壕則運土雜	-13.2836
里南抵湖州府長興縣界垂脚嶺北抵	-13.2836
鉼	-13.2836
鍥	-13.2836
黶	-13.2836
素蓄謀素合也故曰蓄恩不倦以一取萬	-13.2837
社稷羅英雄者中畧之勢也故勢主秘焉	-13.2838
蠭	-13.2839
營謂將校曰今兵非不精而衆少於羌且	-13.2839
駭散飛集襄營火發因其亂隨而	-13.2839
攔下閃賺花鎗上你攔下還鎗我攔鎗	-13.2839
先是將命交趾者必贈遺數千緡桓所賦	-13.2839
忮	-13.2839
攻城禆將曹翰諜知之戒掌漏者但擊二	-13.2839
甘伏朝典謹録奏聞伏候勅㫖	-13.2839
酋長黎桓不順海賊頻年剽刼朝廷加恩	-13.2839
錯亂擅離隊伍㸃鼓不行聞金不止	-13.2839
其私覿及交趾民卜文勇等先殺人亡命	-13.2839
刀斫前奏案曰諸將吏敢復言	-13.2839
厘	-13.2839
員將下班選鋒軍餘九十八名分發本官	-13.2839
懿與亮相持百餘日亮卒於軍中及軍退	-13.2839
逆者難從順者易行難從則亂易行則理	-13.2839
靈公以為司馬河曲之役趙孟使人以其	-13.2839
之上使驢負之循堞而行得城中羸老者	-13.2839
公輸般為雲梯之械將攻宋墨子見之乃	-13.2839
在戰捷聞孟獲者為夷漢所服募生致之	-13.2839
寡可以擊我衆此騎之沒地也大澗深谷	-13.2839
絶我糧道往而無以返此騎之困地也汙	-13.2839
置一都烽應接四山諸烽其都烽如見	-13.2839
賊有警報著本地方總甲押催依期搬運	-13.2839
一可守也人士勁勇芻粟豐備二可守也	-13.2839
七尺前髙七尺後髙八尺以兩巨木為地	-13.2839
乃築長圍朱异張綰議出擊之帝以問侃	-13.2839
二土山以臨城城中震駭侃命為地道	-13.2839
似張翼前進各執大刀呐喊殺來	-13.2839
使千餘人出戰未及交鋒望風退走果以	-13.2839
兵剽銳未易當也孝恭不從留靖守營自	-13.2839
則併力偏攻凡料敵戰地若便利則守不	-13.2839
前後梯桄各一前桄尤要壯大上	-13.2839
單席享以雞豚飲以釃酒	-13.2839
四面撓之使敵不知所備此兵謀也不發	-13.2839
士魴張老止之讀其書曰日君乏使使臣	-13.2839
大半西魏將韋孝寛守玉壁時東魏大將	-13.2839
安危敵乃可加故兵有全勝敵有全因	-13.2839
彫	-13.2839
教而導之如畜鷙鳥如養猛虎必節其	-13.2839
於是三令五申白旗㸃鼓音動則左右	-13.2839
有罪不逃刑其將來辭何辱命焉言終魏	-13.2839
木驢攻城矢石所不能制侃作雉尾炬施	-13.2839
渴軍幕未辦將不言倦軍竈未炊將不言	-13.2839
用大木二條各長一丈八尺謂之掲竿首	-13.2839
若進若止必從其道敵人若起必逐其跡	-13.2839
見利不可就之凡背山戰宜藏軍少誘之	-13.2839
訪甚惡之自於陣後射雉以安衆心令	-13.2839
車動果倒衆皆服焉賊既頻攻不	-13.2839
近待逺以佚待勞以飽待饑此治力者也	-13.2839
長鎗一路迅速齊到勢不可止殺人最快	-13.2839
驕人公子與魏王博而北境傳舉烽言趙	-13.2839
倬	-13.2839
命攻之連營數十里乃於城南起土山欲	-13.2839
士勇氣自倍彼徒我騎勢不相及	-13.2839
外又縛松於竿灌油加火規以燒布并欲	-13.2839
挑戰勿即應久之則徐徐引退敵來薄陣	-13.2839
毒等攻東武陽魏武引兵入西山攻毒等	-13.2839
無餘財非惡貨也無餘命非惡	-13.2839
留拒我或歸自守兵分勢弱我乘其懈而	-13.2839
胄使劉孝慶等伏兵城内山陽入門即於	-13.2839
衆習戰若輕軍卒至出吾慮表大敵外逼	-13.2839
角之谷晉將遁矣雍子發命於軍曰歸老	-13.2839
愛財賞功不踰時則下力并敵國削夫用	-13.284
亦云寒鵶箭言矢之紛散如鵶飛也三弩	-13.2842
怒而撓之卑而驕之佚而勞之親而離之	-13.2842
袪	-13.2842
飛鳥令人疑之之類則察者又須以他事	-13.2842
㽔	-13.2842
搭其背而喝之賊驚顧翰從而刺其	-13.2842
齊烏枝鳴曰用少莫如齊致死齊致死莫	-13.2842
焱	-13.2842
綿州都校全師雄謀叛賊約以三	-13.2842
以示固固即斬振父子遂率騎一千	-13.2842
北庭則二人三匹平盧劍南嶺南則一人	-13.2842
哨後哨見有乏弱人馬不能前進或在路	-13.2842
平矩訖過洛陽收固斬之便以振代固矩	-13.2842
忽有大風起賊疑有救兵相應狼狽夜遁	-13.2842
所在官司撥醫調治痊可即便	-13.2842
振旅凱以入於晉獻俘授馘飲至大賞	-13.2842
有賊犯大營其外舗看賊與大營交戰即	-13.2842
聰使其將趙固鎮洛陽長史周振與固不	-13.2842
處軍兵互相應援則兩城有備不致臨時	-13.2842
覩大軍棄輜重欲渡湟水道阨狹充國徐	-13.2842
賊以為謹也皆争逐之謹乃率餘軍擊追	-13.2842
陳固罪矩之破暢也帳中得聰書	-13.2842
頽	-13.2842
亦屢表請戰魏使衛尉辛毗	-13.2842
亮曰彼本無戰心所以固請者示武於衆	-13.2842
南人取民家一笠以覆官鎧官鎧雖公物	-13.2842
天井頓於地穴此騎之死地也所從入者	-13.2842
營東南角大聲稱萬歲亮使問之答曰吳	-13.2842
由斜谷出始平據武功五丈原魏將司馬	-13.2842
百姓死守凡三攻殘敵之衆萬人而竟不	-13.2842
行獻子執而戮之衆咸曰韓厥必不	-13.2842
齊侯執陽虎將東之陽虎願東	-13.2842
一角聲動前行向左後行向右中行向前	-13.2842
以縱弓矢深葦奥草可以施風火左右俱	-13.2842
六寨連延二十餘里全忠謂諸將曰賊蓄	-13.2842
則張翼而進後髙前下則鋭衝而進	-13.2842
君懼汝不能也舉而不能黨孰大焉事君	-13.2842
愷	-13.2842
旅飭力以長地之財用資軍實謂之農夫	-13.2842
朱全忠所敗恥之悉力以攻汴州其將張	-13.2842
澤則整隊而亟過居平陸則前死而後生	-13.2842
覆說其帥盧循曰今日之機萬不可失既	-13.2842
降魏宇文泰以仲密所據遼逺難為應	-13.2842
隂伏吾士與之中期内外相應其敗可知	-13.2842
隂濕則停陽燥則起貴髙賤下馳其	-13.2842
魏人所殺掠遣軍纔過岸即退軍還復來	-13.2842
黼	-13.2842
㫤	-13.2842
之測至皆令安堵如舊乃於要路數百處	-13.2842
人也南引揭飛東結董成甘言美説以成	-13.2842
佯與交鋒於水之兩傍使其餘去敵差遠	-13.2842
倏	-13.2842
前漢胡建守軍正丞時監軍御史為	-13.2842
博欲召大臣謀公子曰趙王田獵耳非為	-13.2842
哮叫而進一衝前陣其勢如劈竹	-13.2842
問公子何以知之公子曰臣之客有能探	-13.2842
垂在約竿外木無定數但取遮	-13.2842
如崩山李守真亦令歩兵盡㧞鹿角出鬭	-13.2842
如有公用悉照時價將銀現買	-13.2842
小醜輕進易退常戒邊將勿與	-13.2842
帝使羊侃入副宣城王都督城内諸軍景	-13.2842
帝命將討之時朝廷器甲悉充南討故軍	-13.2842
後漢初張歩據齊地漢將耿弇	-13.2842
挑戰光武堅營自守有出鹵掠者輒擊	-13.2842
掠軍資人皆負重靖見其衆亂縱兵奮	-13.2842
擔雜物唱言琛貨先書報遷仕曰太守馮	-13.2842
於急流終莫能成蕃人知佖貪而無謀先	-13.2842
曰鏃不上指必無中理指不知鏃同	-13.2842
李靖隨河間王孝恭討蕭銑於江陵銑悉	-13.2842
每更一十刻四十八分每㸃二刻九分	-13.2842
氏傳啓并奉土貢以資軍費遷仕大	-13.2842
沓	-13.2842
涉彼岸直衝敵軍之後與敵邀戰	-13.2842
累繇十數年不二三嵗而已先誅先零則	-13.2842
結為兄弟而别明日合戰大破朱滔	-13.2842
而進彼不知解我得大嬴此陣能潰圍	-13.2842
舉二火見煙塵舉三火見賊燒	-13.2842
衆誅惡以禁邪今有穿軍垣以求賈利私	-13.2842
軍張翼而從之其術四也交戰既酣隂以	-13.2842
霧風雨䝉遜軍大至傉檀大敗而還唐武	-13.2842
靶	-13.2842
馬軍為翼步軍後排營有利則前戰無利	-13.2842
時休範典籖許公與詐稱休範在新亭士	-13.2843
弩射及三百步者以瓢盛火冠矢	-13.2845
燕將騎刼攻齊即墨齊將田單拒守	-13.2845
嘷	-13.2845
溶	-13.2845
膓	-13.2845
劄你你拏鎗還鎗我拏鎗	-13.2845
鋑	-13.2845
晉師伐秦秦人毒涇上流師人多死	-13.2845
而荷以走曰得華登矣遂敗華氏於新里	-13.2845
直以患為利故迂其途而誘之以利後人	-13.2845
蝨	-13.2845
壘示敵且久敵疑通途私除要害之道	-13.2845
大服君子謂文公其能刑矣三罪而人服	-13.2845
既恃其衆不以為慮乃進軍逼謹謹	-13.2845
旨酒一盛兮余與褐之父睨之	-13.2845
桓乃捕送海賊為謝且言已勒溪洞不得	-13.2845
涚	-13.2845
湄	-13.2845
苔	-13.2845
通貨財可積也夫有容身之地智者不言	-13.2845
遵格殺之光武怒命收之主簿陳嗣	-13.2845
鋒正軍五十八名選鋒餘丁九十八名共	-13.2845
鋒直衝之賊遂棄甲而散俄頃賊衆大至	-13.2845
驅之或曰逐利行遲充國曰窮冦也不可	-13.2845
七局庚子壬子甲子丙子戊子太乙在	-13.2845
且兵既分遣則人力並用假令數將失利	-13.2845
備連拔四砦斬首萬餘級賊衆以為神助	-13.2845
免於罪矣晉侯之弟楊干亂行於曲梁魏	-13.2845
密欲圖之乃揚聲欲還甘聞之復招引叛	-13.2845
數百騎突至其城先應募執役者應於内	-13.2845
檄而定而無錫以東咸入其彀中矣	-13.2845
洛屠陷塢壁所在為患孝武遣京畿都督	-13.2845
版築凡入數百人元平不之覺希烈遣	-13.2845
磵	-13.2845
西鄙盡借邑人之車鍥其軸麻約而歸之	-13.2845
誓於軍中欲民先成其慮也建又何疑建	-13.2845
賞士卒無歸意若欲還出即為戒備深溝	-13.2845
陷建業髙州刺史李遷仕據大臯圖逆召	-13.2845
韋光裔懦弱以元平代之既至部募工徒	-13.2845
㑹尚遣髙藩將兵屯河上絶水道典與諸	-13.2845
七百人車七百乘於河北岸上去水百餘	-13.2845
不分兵鎮守得賊城近境者則固守以積	-13.2845
不能復上皆委棄馬及鎧仗蔽地杜	-13.2845
之大獲舟艦李靖使孝恭盡散之江中諸	-13.2845
人姦人者殺臣昧死以聞制曰司馬法國	-13.2845
以歸仍斬其首惡衆遂定五代李茂貞為	-13.2845
以為榮也楊干為戮何辱如之必殺魏	-13.2845
充國討之上書曰先零羌虜欲為背叛故	-13.2845
先零必助之今虜馬肥糧食方饒	-13.2845
劉敏王平鎮漢中拒之或謂但可守城不	-13.2845
圍張繡於穰劉表遣兵救繡以絶軍後操	-13.2845
多外面逐長二十七口幕横列十八口幕	-13.2845
姚弼等至於城下傉檀驅牛羊於野弼衆	-13.2845
後此騎之敗地也追北踰險長驅不止敵	-13.2845
戰者三外無援兵一可戰也人勁馬壯	-13.2845
曰藩軍少甲而恃水有懈怠之心擊之必	-13.2845
曰行山林阻險沮澤難行之道者為圮地	-13.2845
發選輕騎二千人各持一赤幟從間道	-13.2845
縯	-13.2845
者有嗃嗃而反靜慤者有勢虚形劣而外	-13.2845
而不得任使者有欲求展己之才能者有	-13.2845
至烏孫道過龜兹介子復責其王王亦	-13.2845
表兵合守險操軍前後受敵操乃夜鑿險	-13.2845
褚家沙哨至登舟沙以遏狼山之衝一枝	-13.2845
褚家沙與江隂把總兵船聲勢聨絡	-13.2845
議伐陳諸將皆云大江闊逺兵不習水以	-13.2845
賊已破膽不宜更令成列遣精騎擊之皆	-13.2845
退東晉末桓𤣥簒晉劉裕起義兵討之𤣥	-13.2845
隊戰兵内弩手四百人弓手四百人馬軍	-13.2845
雖還無能為也循從之初道覆密欲裝舟	-13.2845
一員領泊青草沙哨至登舟沙營前沙白	-13.2845
之屬不煩兵服矣宣帝從之果如其	-13.2845
何惑乎用之則不得其力散之則轉而為	-13.2845
使外潰而内駭焉其術五也敵戰時於大	-13.2845
先令人登髙樹屋望之次四野伏殺	-13.2845
公亨巡按御史鄭公銘水利僉事吳公㻞	-13.2845
則走舸海鶻為其用或伏襲而入敵境則	-13.2845
前秦苻堅遣王猛伐前燕慕容暐師次潞	-13.2845
千里饋糧士有飢色樵蘇後爨師不宿飽	-13.2845
吳行人焉吳於是伐巢取駕克棘入州來	-13.2845
戈矛船下置戈㦸以禦蛟鼉水怪之害然	-13.2845
楚之軍截驢耳而去有告失驢耳者	-13.2845
楚罷於奔命至今為患則子靈之為也	-13.2845
此五勢未有不能追亡逐北以建大功	-13.2845
稿	-13.2845
踘	-13.2845
遣燕討之定窘急偽乞降於燕并餽	-13.2845
金為兵割革為甲始制五兵建旗	-13.2845
領泊唐沙以控南北兩路分畨哨至狼	-13.2845
興衰之事將所宜聞將者能思士如渴則	-13.2847
二局乙巳丁巳己巳辛巳癸巳太乙在	-13.2847
其財罕徭役不使其勞則國富而家	-13.2847
手泣曰天下事敗矣道成遣軍主陳顯	-13.2847
其箭皆可施火藥用之輕重以弩力為凖	-13.2848
粧	-13.2848
軍及左右虞候軍别三營六軍都當十八	-13.2848
久而不合又不相去半進半退之類宜	-13.2848
十隊每路各浮圖子排列計百六十五騎	-13.2848
城而入忠乃退保小城惶恐乞降西魏末	-13.2848
養民以寡勝衆者恩也以弱勝强者民也	-13.2848
七百八十九名僅足以充府城防守之用	-13.2848
中兒犯法尚殺之必不私諸卿也吳將吕	-13.2848
備夜半火發令於軍中曰救火者斬之童	-13.2848
其井則茅絰存焉號而出之吳申叔儀乞	-13.2848
屯白道川據善陽嶺以擊突厥可汗李	-13.2848
檇李勾踐患吳之整也使死士再	-13.2848
衆軍整齊今遵奉法不避是教令所行也	-13.2848
西倉一堡孤懸中野防守缺官	-13.2848
雄不能智謀故英得雄而行雄得英而成	-13.2848
髹	-13.2848
㑹夜分大雨人無進志行周曰此天	-13.2848
下博與賊軍遇道𤣥帥騎先登命副將史	-13.2848
中以三陣相從為輔弼故五軍而有七陣	-13.2848
宋之斤魯之削吳越之劍燕之角荆之簳	-13.2848
官軍止數千𤣥兵甚盛而𤣥懼有敗衂常	-13.2848
度其糧食卜其强弱察其天地伺其空隙	-13.2848
必無固志正可持重以鎮之待旦自潰矣	-13.2848
摸	-13.2848
敇	-13.2848
曰吾入圮地山川險阻難從之道行久	-13.2848
甚盛知非藩上便躍馬告毅令閉城	-13.2848
行營節度統諸鎮兵討西川劉闢至興元	-13.2848
誠任不患無財人誠用不畏强禦故神農	-13.2848
軹	-13.2848
輕舸於船側故其衆莫有鬭志官軍乘風	-13.2848
韓之滎陽齊之臨淄陳之宛丘鄭之陽翟	-13.2848
黨得千餘人並赦其罪令復業郡境以安	-13.2848
亦以為然遂北渡河攻藩破之水道得通	-13.2848
以謙為荆州刺史與其大將譙道福俱	-13.2848
兵四集吾表裏受敵進退不獲雖有舟楫	-13.2848
十嵗已上老馬令飼以平陳為名賊必懼	-13.2848
多賊必防礙更甚今南地無馬請付傍江	-13.2848
希烈見之曰盲宰相使汝當我何待我	-13.2848
惚惚而反忠實者有詭激而有功	-13.2848
石勒親率兵襲矩矩遣老弱入山令所在	-13.2848
等五萬餘户並欵附相率南遷廣陽欲	-13.2848
等歸附必來要擊彼若先據險要則難與	-13.2848
簡羸馬驢數千置於軍後既而率衆東過	-13.2848
衆隋煬帝征髙麗于仲文率軍從樂浪道	-13.2848
速不在衆也若星馳電發出其不虞精騎	-13.2848
陵果來擊破也列河於嶺上部衆皆	-13.2848
馬西上直向世充本營左右麾旗相繼而	-13.2848
㑹戰先以輕兵挑之戰良久乃縱驍騎夾	-13.2848
一重對舊城門更不作門却於新築城下	-13.2848
下怪而問之曰今同惡相濟皆來㑹集吾	-13.2848
乃卷甲銜枚出於鞏訾之間曜陳	-13.2848
之間俗習水戰故吳人以舟檝為輿馬以	-13.2848
乎曰然義曰臣論武信君軍必敗公徐行	-13.2848
乘勢席卷一舉而覆其巢穴東北無復餘	-13.2848
伐南越於昆明開池習水戰製樓船上建	-13.2848
使羸弱登蔣山多張旗幟以油帔冠諸木	-13.2848
光武留王鳳等守城與李軼等十餘騎夜	-13.2848
克公問其故對曰大國難測也懼有伏焉	-13.2848
勢在敵我當有道反能擊之若夫敵有	-13.2848
十八局辛丑癸丑乙丑丁丑己丑太乙在	-13.2848
嚴令後有大軍狀又分隊在後令燒江津	-13.2848
埿	-13.2848
多所㸃抹如遂改定者超等愈疑遂	-13.2848
大笑曰王世充文法吏何能為將吾當生	-13.2848
娛	-13.2848
左甄許朝督右甄訪自領中軍髙張旗幟	-13.2848
并役成橋仍築月城圍守之自是朔方禦	-13.2848
戰是以知勝宋建武初魏圍鍾離張欣泰	-13.2848
捧觴大將軍令於衆曰戰士某乙等	-13.2848
掠無所得敵之衆心益以慢矣當於中夜	-13.2848
搓	-13.2848
擊之揭飛衆大潰斬揭飛惡地請降東魏	-13.2848
故進軍逼悦所謂攻其所必救也彼茍	-13.2848
橈	-13.2848
每更九刻每㸃一刻四十八分後六日改	-13.2848
注如雨賊徒震駭因整衆追之賊衆大敗	-13.2848
火虜遥見火多謂漢救兵至待朝將退范	-13.2848
無不濟或以吾城叛吾所甚惡也人以城	-13.2848
率騎五千夜從間道起火於髙山因燒評	-13.2848
甚多僧珍乃出先所具每船付二張	-13.2848
產	-13.2848
第二聲絶一時舉槍第三聲絶一時簇隊	-13.2848
箕水豹藏身用蘆花竹葉木葉挿頭	-13.2848
縣治設有耆民兵船三十五隻在江哨守	-13.2848
翟義坐不生得以見責今將百萬之衆遇	-13.2848
而市之贑石水急出船甚難皆儲之如是	-13.2848
衆死者十六七奏至上召其使問狀	-13.2848
角潛傍洹水徑趨魏州令曰聞賊至則止	-13.2848
説王邑曰昆陽城小而堅今假號者在宛	-13.2848
諸軍吏曰趙已先據便地壁且彼未見大	-13.2848
謀主捍禦北狄通吳於晉教吳叛楚教之	-13.2848
變詐常持兩端之心者如此之官皆可以	-13.2848
進兵至夷陵銑始懼召兵江南果不能至	-13.2848
郾	-13.2848
陳兵與世充相對東接月城西至石窟	-13.2848
騎夾攻大破之操謂荀彧曰虜遏吾歸師	-13.2848
𤯝	-13.2848
時烏重𦙍移鎮滄景以河陽	-13.285
順舉挫之因勢破之放言過之四網羅之	-13.285
有竒伏之變雖云鳥起者下有伏兵其或	-13.2851
當反慮敵人矯計誘我所謂兵怒而相迎	-13.2851
眼等以水注之三池浮木齊起眇目視之	-13.2851
鄴曹操遣夏侯惇李典拒之一朝備燒屯	-13.2851
疋緋紫襖子衫具帶魚袋五十副色羅三	-13.2851
絹布一十二疋絹七萬五千疋布	-13.2851
餌之下必有懸魚重賞之下必有死夫興	-13.2851
之偏正行伍之齊肅散亂言語之諠譁緘	-13.2851
州視事纔數日偽軍校上官進嘯聚士卒	-13.2851
據州不受代魏將獨孤信率兵討之仲	-13.2851
淮長於時事見其便利百舉百㨗時不再	-13.2851
犍	-13.2851
簦	-13.2851
過人謂之雄英者智也雄者力也英不	-13.2851
不敏於君之行前不敢逃刑敢歸死遂自	-13.2851
今以大衆自外水取成都疑兵出内水	-13.2851
兵守涪城以備内道若向黄虎正墮其計	-13.2851
十名機兵五十六名共一千一十九員名	-13.2851
夜奄至此烏合之衆以箠梃相	-13.2851
攻北壘南城不麾而自散也遂攻北城詰	-13.2851
為名造船倣水戰仍以賀若弼為	-13.2851
譙詵仍引軍迴趨南城即時潰散	-13.2851
險衆多咸欲先攻其南城齡石曰不然雖	-13.2851
閣之軍必還赴涪則㑹方軌而進	-13.2851
以助竿力令車首常去地尺餘兩	-13.2851
其征南王俘虜男女財寳盡歸諸突厥	-13.2851
吳將周瑜使甘寧據夷陵魏將曹	-13.2851
唐李靖陳圖蕭銑十策有詔拜行軍	-13.2851
聲動山谷遂大破之斬獲甚衆勒乃退南	-13.2851
蚯	-13.2851
衆廵城密令促其更籌未夜分擊五	-13.2851
討之昭請以五千人行段永曰此賊無城	-13.2851
討安慶緒渡河圍衛州慶緒率衆來援分	-13.2851
豬	-13.2851
䂎宜隘險然南逼洛水北阻	-13.2851
不欲吾親行卿以為何如光對曰劉曜	-13.2851
之虜非良計也太祖從之城遂降後魏末	-13.2851
仁賢背公立私同位相訕是謂亂源軍䜟	-13.2851
伏地而來先截尾陣次及先鋒其勢如山	-13.2851
兵寡弱軍中大懼道濟乃命軍士悉去甲	-13.2851
兵有此三者未有不敗軍殺將者焉是故	-13.2851
十餘萬一時入海懼官軍躡其後乃縁道	-13.2851
即戰許洞曰既圍即戰謀未備也圍久則	-13.2851
叱遐等出召徐光而謂之曰劉曜	-13.2851
圍一角者有伏也退圍數里者謀也示以	-13.2851
安得不敗此雖無罪違軍法也即斬之以	-13.2851
尫	-13.2851
故不力戰遼欲挑與語儻可誘也乃使謂	-13.2851
曰羣吏朋黨各進所親招舉	-13.2851
榻	-13.2851
營超石先以軟弓小箭射之魏軍四面俱	-13.2851
率由勢爾夫水之柔弱方圓任性而能蹶	-13.2851
率衆十萬來冦范陽萬均曰衆寡不敵今	-13.2851
率龍驤將軍蒯恩領百舸前發鎮惡受命	-13.2851
盞木梆鐵鐸一副備用大小松杉木	-13.2851
者叢射之魏衆既多弩不能制超石初行	-13.2851
自備乎將欲官給之歟則凡民之無依者	-13.2851
苗賁皇曰楚師之良在其中軍王族而已	-13.2851
誘也可以急備者二敵攻其西謹備其東	-13.2851
軍攻登於康琦城登使人求救於曹公而	-13.2851
鄭鄭人聞有晉師使告於楚姚句耳與	-13.2851
開布大信降者欲去皆聽之吳石城守去	-13.2851
隂將衝突也夫被圍者當先安其内而後	-13.2851
非獨為城髙池深卒彊糧足而已必在乎	-13.2851
饜	-13.2851
麗盈目牢之等遽於收斂故恩	-13.2851
齎大弩百張一車益二十人設柵排於轅	-13.2851
三局丙午戊午庚午壬午甲午太乙在	-13.2851
乃引軍合於悦悦謂燧明日復挑戰乃伏	-13.2851
之連月不下曹仁言於操曰圍城必示之	-13.2851
五全一曰城隍修二曰器械具三曰人少	-13.2851
使士以賞信衰則士疏賞虧則士不用命	-13.2851
候其矢石可及則以術破之若遇主將自	-13.2851
倚相謂大將子期曰雨十日夜甲輯兵聚	-13.2851
入敵地尚淺險則據而挑夷則守	-13.2851
具未足薪水不供雖有髙城宜棄勿守亦	-13.2851
分兵數道臨發時務要㑹定記號如	-13.2851
利以彊弩叢射飛石併擊斃之則軍聲阻	-13.2851
夷子辛死之則雍子之為也子反與子靈	-13.2851
委棄雜畜及輜重不可勝數測徐率所部	-13.2851
急擊也凡兵士當戰不得離隊獻功恐為	-13.2851
時衆不滿二千揭飛惡地衆至數萬氐胡	-13.2851
晝夜各即駐隊互舉原定記號以辨真偽	-13.2851
柱作訖以油灌柱放火燒之柱折城並崩	-13.2851
渡焚其橋軍行十數里悦乃率淄青恒州	-13.2851
獲一首級者亦厚賞之如是則有散地之	-13.2851
薄我未可與戰堅壁觀之持久則衆心怠	-13.2851
謂此也凡守之道敵來逼城靜黙而待無	-13.2851
鬻水積錢絹如丘陵三軍莫有	-13.2851
世能祖祖鮮能下下祖祖為親下下為君	-13.2853
則已有者則士焉知利之所在彼為諸侯	-13.2853
得而勿有居而勿守拔而勿久立而勿取	-13.2853
地次於天後縱布四風挾天地之左右	-13.2853
人以上有戰而北守而降離地逃衆命曰	-13.2854
左校以青龍旗表之右校以白虎旗表之	-13.2854
如故約匈奴數嵗無所得終以為怯邊士	-13.2854
每入烽火謹輙入堡不敢戰如是數嵗	-13.2854
蛙	-13.2854
選兵車得千三百乘騎萬三千匹百	-13.2854
城中不得妄舉髙物如竿表之類及吹	-13.2854
七條以誘休且曰今使君若從皖道進	-13.2854
不足仗任事或漏泄不能致休乞遣親人	-13.2854
入皖魴亦合衆隨陸遜横截休休幅裂瓦	-13.2854
六隊餘二十人其兵士隊於陣内列行	-13.2854
夜縱火牛壯士五千人隨其後牛尾熱怒	-13.2854
夫人柔順安恕失於决斷可與循節難	-13.2854
左急備山之右處山之右急備山之左	-13.2854
時制也地者逺近險易廣狹死生也將者	-13.2854
苦於征討樂得北屬但窮困舉事不	-13.2854
之舊都多諸珍藏而其主先已奔賀真	-13.2854
可汗同伐吐谷渾遂至樹敦樹敦	-13.2854
岔	-13.2854
帳設錦褥一十領紫綾褥二十領食	-13.2854
怯在謀强弱在勢謀能勢成則怯者勇謀	-13.2854
是遂行其法突厥兵先合輙退延陁乘勝	-13.2854
水軍自河入渭直至渭橋鎮惡所乘皆䝉	-13.2854
潛襲絳州前軍不利晉軍恃勢而攻臨汾	-13.2854
𣢾	-13.2854
不可驗於度必取於人而知敵之情者也	-13.2854
也援果輕渡汾衆止之不從濟水未半	-13.2854
率衆數千遮詡於陳倉崤谷詡停	-13.2854
謂椒舉女實遣之懼而奔鄭引領南望曰	-13.2854
逼棄營而走賊至競飲毒作王以輕騎縱	-13.2854
㪚	-13.2854
不通道不通則邪臣勝邪臣勝則主威傷	-13.2854
使石季龍進據石門以左衛石	-13.2854
出征且約授兵二萬人即分為七軍	-13.2854
召太守此詐君欲為反耳頃者京師危迫	-13.2854
可以即戰何謂必守許洞曰盡我力焉援	-13.2854
右校爪騎亦如之左校翼騎四陣二十部	-13.2854
宋檀道濟為高祖北伐前鋒至洛陽凡	-13.2854
容今若殺山陽與雍州舉事立天子以令	-13.2854
射彼三人殺其二人生得一人果射鵰者	-13.2854
巡三軍撫而勉之三軍之士皆如挾纊	-13.2854
彼不知解我兵先横跳而進之矣此謂之	-13.2854
怒指之曰不殺汝我終不拔箭遂馳之稜	-13.2854
扭	-13.2854
旗纛如遇應該迎候禀事人員及各處差	-13.2854
為殷侯封陳恢千户引兵而西無不下者	-13.2854
烽世充乃捨月城之圍收兵西退自洛北	-13.2854
玅	-13.2854
皆來集其衆雖多莫相歸服軍無適	-13.2854
羸師誘之伏精兵以擊之必在吾掌中矣	-13.2854
聞項王疑之乃大怒疽發背而死卒用	-13.2854
莫有固志道濟夜唱籌量沙以所餘少米	-13.2854
託以忠告或執使以相忿或厚	-13.2854
謀所以禦之泰曰麴城雖固去蜀險逺	-13.2854
鍾城人聞祝阿已潰大恐懼遂空壁	-13.2854
頤	-13.2854
􁵸	-13.2854
一分餘並分給以此軍士感義皆思奮發	-13.2855
不敢動謙溥遣敢死士百人短兵堅甲夜	-13.2855
且約容一軍人馬如築於閒時須稍寛闊	-13.2855
乃息武帝以僧珍為輔國將軍出入卧内	-13.2855
之無得匿者乃并裝之旬日而辦遂舉衆	-13.2855
之罪重敢有不從以怒君心請歸死於司	-13.2855
也夫人讓事樂和愛親哀喪而後可用也	-13.2855
二萬奄至城下道根塹壘未固城中衆少	-13.2855
令得逃亡則一亭長足以擒矣帝然之即	-13.2855
以及楊干無所逃罪不能致訓至於用鉞	-13.2855
以設險施䇿規以為城愈大而守愈易分	-13.2855
保長社賊引大衆圍城嵩兵少軍中皆恐	-13.2855
其次也坐守洛陽者成擒也諸軍集於成	-13.2855
其無能為也縣軍三時亡攻戰之利若鸞	-13.2855
出背水陣趙兵望見大笑平旦信建大將	-13.2855
反遣周法尚討之軍將至賊棄州城走散	-13.2855
各保其鄉調用之於他處不樂也故	-13.2855
吏曰兵有竒變不在衆寡今賊依草結營	-13.2855
問焉對曰其行速過險而不整速則失志	-13.2855
喪列志失列喪將何以戰楚果敗	-13.2855
國介子至樓蘭責其王教匈奴遮殺漢使	-13.2855
地甚狹迫卒遇敵人擊之不敢去之不得	-13.2855
城郭浹辰之間而楚克其三都無備也夫	-13.2855
堊	-13.2855
婦女有乳汁者九十餘人悉放遣之鄴	-13.2855
廣上馬與十餘騎奔射殺之復還其騎中	-13.2855
怒氣開弓則力雄而引滿息氣放箭則心	-13.2855
所以事君也獲一邑而教民怠將焉用邑	-13.2855
教比陸軍之法大翼者當陸軍之車小翼	-13.2855
是其所長春秋時吳以舟師伐楚又越軍	-13.2855
有食色姑修而城軍吏曰獲城而不取勤	-13.2855
溲	-13.2855
皆本同其道而末異其表同其道人所欲	-13.2855
瞷	-13.2855
破此又寄之明哲見利而行不可羈以常	-13.2855
立其中必有悔欲亡者但外圍急不得	-13.2855
笆城中立望樓籍民中壯男為一軍以充	-13.2855
而彼結營不進自挫其鋒吾知其不敢戰	-13.2855
而能收斯之謂善將今之水兵皆召募無	-13.2855
色道根命開門緩服登城選精鋭二百人	-13.2855
賊令姚海率勁兵二萬圍豐攻城甚急	-13.2855
趨烏海仁貴謂待封曰烏海險逺軍行	-13.2855
送於李晟晟解縛食而遣之誡之曰爾報	-13.2855
鄭司馬將中軍令尹將左右尹子辛將右	-13.2855
馬斥山澤之險雖所不至必斾而疏陳之	-13.2855
騎來寇城時盛暑謙溥服絺綌揺羽扇引	-13.2855
魏諸葛誕據夀春反魏將王基討之	-13.2855
不可當况十萬乎其害甚矣今不如撤圍	-13.2855
仁曰兵勢宜合不可分今敬業不知并力	-13.2855
以代金認旗二百五十口尚色圖禽獸	-13.2855
培	-13.2855
姤	-13.2855
將薄吏輕士卒不固三軍數驚師徒無助	-13.2855
故主察異言乃覩其萌主聘儒賢奸雄乃	-13.2855
活門所以開其生路也今公告之必死	-13.2855
濟用或問何以備禦城外脚下自有馬面	-13.2855
為一軍以供飲飼放牧樵採三軍無得相	-13.2855
知六員僉事十二員鎮撫司鎮撫二員經	-13.2855
能竭智用謀萬變不極則無死地之憂矣	-13.2855
衆頗笑之道根曰怯防勇戰此之謂也	-13.2855
西空地將起數十間屋為止舍多伐材竹	-13.2855
謂張超曰吾知之矣賊今外圍周固内營	-13.2855
之寃者原之訴者察之卑者貴之	-13.2856
抑之敵者殘之貪者豐之欲者使之畏者	-13.2856
之本得其幹收其本則政行而無怨	-13.2856
二局乙卯丁卯己卯辛卯癸卯太乙在	-13.2856
讒則衆離心貪財則奸不禁内顧則士卒	-13.2856
十九局壬寅甲寅丙寅戊寅庚寅太乙在	-13.2856
於主國定主安臣以義退亦能美而無害	-13.2856
衰四海㑹同王職不廢雖甲兵之備而無	-13.2856
芬	-13.2857
一校不常其部各列陣數應敵之勢貴戰	-13.2857
不卜筮而獲吉貴功養勞不禱祠而得福	-13.2858
敗之兆也戎馬驚奔士卒恐懼妖言相惑	-13.2858
柔初附將帥有欲進譎詐之策者	-13.2858
不得我便兵疲意沮計不復生掎角此	-13.2858
昃	-13.2858
楚使貢周室北伐山戎為燕開路	-13.2858
火多設間諜厚遇戰士為約曰單于為盜	-13.2858
輒離職掌民不得奔走街巷凡賊至城外	-13.2858
以下不得專異指揮餘依行軍約束條件	-13.2858
墨未下齊將田單乃收城中得千餘牛為	-13.2858
後漢耿弇攻張步於劇步遣弟藍	-13.2858
後馬璘奉詔徙鎮涇州其士衆	-13.2858
望樓八座每座望子十人計八十人凡陣	-13.2858
入朝言之上令崔翰入蕃報結賛言還我	-13.2858
其人善騎而不善步中國步兵有强弩利	-13.2858
則武爵任武爵任則兵强按兵而勸農桑	-13.2858
將還簡精騎一千夜發詰朝造靈助壘戰	-13.2858
帝大㑹諸將歡飲酒酣謂魴曰君下	-13.2858
每隊給一旗行則引隊住則立於隊前	-13.2858
義成孤大事君之功名當書之竹帛加	-13.2858
下與眼等以水注之三池浮木齊起	-13.2858
乃於軍中選壯士二人深目虬鬚貌如沙	-13.2858
今在晉矣晉人將與之縣以比叔向	-13.2858
信乘勝去國逺鬭其鋒不可當臣聞千里	-13.2858
攻城兵備戰兵運糧兵扼援兵若兵不多	-13.2858
而左或分而右大將四觀擇空而取皆㑹	-13.2858
識者觀之不待已敗而後知其不能援也	-13.2858
躋	-13.2858
乎此為未戰先自敗也援剛愎好勝必	-13.2858
兵之道撫士貴誠制敵尚詐前日蕭嗣業	-13.2858
制無疆扶成天威康正八極宻定九夷	-13.2858
及尚書張遵等軍進至成都蜀主劉禪面	-13.2858
史稱疾不赴繕甲訓兵今已備矣而更召	-13.2858
咳	-13.2858
夤	-13.2858
宗戒之曰北人嘗以西戎為小蕃必輕敵	-13.2858
從周詐揚言并人鄆人來救即引	-13.2858
必無謀雖衆可獲矣許洞曰如古人以此	-13.2858
擊車師有後王前王前王即後王之子其	-13.2858
故敗今突厥必復為此謀宜有以詐之乃	-13.2858
故耳若棄而去示之以弱所在之民誰非	-13.2858
橦	-13.2858
潛軍進討諸將皆言達與二賊交結宜審	-13.2858
營四道俱引營相去各一里不得交雜聞	-13.2858
獵見匈奴三人與戰被射傷中貴人走	-13.2858
痩夫用兵之道先利速進不利速退吾	-13.2858
者當出武功依山而東若西上五丈原則	-13.2858
車三百乘每車伏壯士五人各持陌刀勁	-13.2858
鄔	-13.2858
阿史那社爾等皆以步戰而勝及其將來	-13.2858
一刻每㸃二刻一十二分後六日改第	-13.2858
一舉勒笑曰光之言是也使内外戒嚴有	-13.2858
丁之無能者以抽代人且不常安能訓成	-13.2858
之重其責任優其事權隆其體貎嚴其賞	-13.2858
介子因率其吏士共誅斬匈奴使者還奏	-13.2858
俘馘鼓譟而攻魏師遂大奔潰斬獲畧盡	-13.2858
俚	-13.2858
健疾志在吞敵者必加其爵列可以决勝	-13.2858
傾箭惡直懦頥惡傍引頸惡却	-13.2858
儕	-13.2858
八曰求敵所委信者副其所欲隂求其動	-13.2858
其心每三人自相得意者結為一小隊又	-13.2858
制官辛康宗以敵去城逺止兵不得	-13.2858
吴必歸化可不征而定也㑹艾誅不果行	-13.2858
四局丁未己未辛未癸未乙未太乙在	-13.2858
士乃得實謀及負薪功乃可述不失人心	-13.2858
士卒死傷帝召公卿諸侯問方畧明帝時	-13.2858
多方以謀彼師或屢出以疲彼師或彼求	-13.2858
大國難測也懼有伏焉吾視其轍亂望其	-13.2858
山陽遲疑不進是不信我今斬送天虎則	-13.2858
左廂陽向而旋右廂隂向而旋左右各復	-13.2858
彞	-13.2858
必以死從此則指日刻期天下必定敬業	-13.2858
振夜襲鄴俘其男女千餘人去鄴八十里	-13.2858
摧其牙落其角無使出吾之右徐以慶弔	-13.2858
故舊拊手歡笑既罷超等問遂	-13.2858
方許進見倘有異言異服可疑之人送	-13.2858
時僕曰築室反耕者宋必聽命楚子從之	-13.2858
晶	-13.2858
朔州總管煬帝即位漢王諒作亂	-13.2858
此五者為上德故曰莫患弓軟服當自	-13.2858
淆	-13.2858
為圍中騎其步卒槍幡守圍有漏禽	-13.2858
當人僖宗在蜀有賊首孫喜者聚徒數千	-13.2858
竒兵破之直趨鄴下迥背城結陣大戰官	-13.2858
置槳牀左右隨艇大小長短四尺一牀計	-13.2858
臨陣日仰押官隊頭便斬不救人陣散計	-13.2858
自古迄今未聞以之而禦外裔者	-13.2858
苐	-13.2858
萬人求輸馬五百疋假道慧景欲	-13.2858
葵所圍詔義臣救之義臣自以兵少悉取	-13.2858
見留願且勿行遣使譎之曰身疾篤謹遣	-13.2858
軍朱雋與荆州刺史徐璆共討黄巾	-13.2858
辯説之士有得敵國君臣門閭請謁之	-13.2858
閉閣定議闡文曰蕭雍州蓄養士馬	-13.2858
間者也是以知間者兵家之要妙也茍非	-13.2858
頃之五校果引去帝乃親臨四面攻	-13.2858
騎四萬赴金墉勒顧謂徐光曰曜盛兵成	-13.2858
魘	-13.2858
㽞	-13.2858
上人直下臨敵何物不可施用正是敵	-13.2858
下昏飾躬正顔以獲髙官是謂盜端軍䜟	-13.2858
下畧陳道德察安危明賊賢之咎	-13.2858
不敢進又遣將縁河截其後秋軍乃退艾	-13.2858
不獨放時易得無窮放去中人人必	-13.2858
之曰今日惟有死耳乃免胄下馬據胡牀	-13.2858
也當有輕之用由窮地而闢生門反輕而	-13.2858
以甲夫禽獸蟲豸尚用所長以制物况其	-13.2858
作小旗數十枚有呼索即大書物名貼旗	-13.2858
同㑹鄴南士馬精强號二十萬圍歡於	-13.2858
吴人震恐席卷之時也然大舉之後將士	-13.2858
固勿不忠於賊也李愬討淮西舊軍令有	-13.2858
士卒拒之虜衆盛不敵㑹日暮令士各交	-13.2858
度覱牌如壁閃牌如電起伏得宜翻身	-13.2858
彼若見之必不攻而自退俗諺云求人不	-13.2858
憗	-13.2858
故也君子曰恃陋而不備罪之大者也備	-13.2858
敵人以探來探我佯無備而設伏待之敵	-13.2858
於檀溪積茅若山阜皆未之用	-13.2858
曰糧寡而人衆四曰蓄貨積於外五曰豪	-13.2858
栝	-13.2858
渭南相持百餘日亮卒於軍中及軍退	-13.2858
為雍州刺史日招聚驍勇以萬數因命	-13.2858
爰	-13.2858
用輕之道也敵强攻急師人大震衆以為	-13.2858
當朝正色忠以盡節信以竭誠	-13.2858
知其可擊令軍中夷竈撒幕設方陣四面	-13.2858
窒	-13.2858
行而前此則退有所歸進無不利實為良	-13.2858
親臨之若不聽臣言臣願先死上甚嘉之	-13.2858
鎮兵數萬人仁愿初建三城不置壅門及	-13.2858
門以備宼議者以此重仁愿而輕元楷焉	-13.2858
馬為流矢所中死比副騎至歡已逸去矣	-13.2858
騣	-13.2858
陣當之敵為突陣我以長虹陣當之敵引	-13.2859
上下不親敵攻其外民盜其内是謂必潰	-13.2859
如天如地乃可使人士卒用命乃可越境	-13.2859
斂數刑罰無極民相殘賊是謂亡國軍䜟	-13.2859
會諸將畢燒之曰令反側子自安	-13.2859
軍䜟曰吏多民寡尊卑相若强弱相	-13.2859
尢	-13.286
以副項及首也夫鶚以搏擊為俊故陣欲	-13.2861
相交亂也飛鶚陣前校出首騎者所以為	-13.2861
卒遮絶救兵趙卒食絶四十六日隂相殺	-13.2861
中州善國以富其家美色珍玩以悦其心	-13.2861
西安聞吾欲攻之日夜為備臨淄出不意	-13.2861
兵機也如唐儉等輩何足惜督軍疾進自	-13.2861
其軍始集思慮精專未可干也今住已	-13.2861
况大衆乎嵩曰不然前吾不擊避其	-13.2861
已固守擊之必無利矣遜曰彼乃猾虜	-13.2861
五口牛肉代羊肉一人二斤二萬五千斤	-13.2861
其前彼若不解破法我用率然之勢首尾	-13.2861
勵士卒令其奮怒陳伏良卒左右險阻擊	-13.2861
即發萬人趨之秦兵後至爭山不得上	-13.2861
哉酒一人二升二百五十石羊一口分為	-13.2861
四十六石六斗七升蒸餅一人一	-13.2861
地而帝智主法人而伯乘天之時因地之	-13.2861
家萬人同心三軍齊力并炊數日無見火	-13.2861
富强乘天時者春植穀秋植麥夏長	-13.2861
志以整擊亂非窮冦也遂獨進擊之使卓	-13.2861
愴	-13.2861
愽	-13.2861
操柄審數以御人課農者術之事而富在	-13.2861
敵在吾圍伏而深謀示我以利索我以旗	-13.2861
而出敵人若疾擊我則前鬭後拓左右	-13.2861
頓問羣臣皆怒曰東胡無道乃求閼氏	-13.2861
頓曰奈何與人隣國愛一馬乎遂與之	-13.2861
馬燧請重立盟誓則蕃軍引去德宗不許	-13.2861
伾	-13.2861
其餘聴差鎮撫一員共統官旗舍餘一千	-13.2861
問曰奪矟避矟何者難易對曰奪矟難乃	-13.2861
廽	-13.2861
故夙興夜寐禮之制也討賊報讐義之	-13.2861
敬徳奪元吉矟元吉執矟躍馬	-13.2861
欲親自試命去矟刃以竿相刺敬徳曰縱	-13.2861
節度使李康及崇文克梓州乃歸康求雪	-13.2861
驚走復為伏兵所邀殺獲幾盡自是	-13.2861
一賊若據險我以利餌之或退師以致之	-13.2861
下將士皆攀木縁崖魚貫而進先登至江	-13.2861
不疑二人因雜其行間俄而伺隙各擒一	-13.2861
來牧多為竒陣張左右翼擊之破殺匈奴	-13.2861
子使中貴人從李廣勒兵擊匈奴貴人將	-13.2861
小於池箱厚三分上建立齒髙八分	-13.2861
庳	-13.2861
徒喪敗馬軍從背逐北聞金鉦動即須息	-13.2861
抱戈僵仆者道路相望其川澤險夷張柴	-13.2861
按手頥下引之令滿其持弓手與控指及	-13.2861
留守宛宛大都也連城數十人民衆積	-13.2861
系	-13.2861
聲絶諸隊一時舉槍第四聲絶諸隊一時	-13.2861
顗	-13.2861
不主皮不得緩緩則力難為而箭去遲	-13.2861
主一舉可滅為功差易吾是以喜也	-13.2861
之手以駐之心以趣之其不中何為也	-13.2861
亷頗軍多失亡軍數敗又反堅壁不敢戰	-13.2861
即髙估馬價以誘之諸蕃聞之競來求市	-13.2861
又聞秦反間之言因使趙括代亷頗	-13.2861
城東西平易受敵時天下騷動北邊數有	-13.2861
大陣對大敵比塲中較藝擒捕小賊不同	-13.2861
奏請朔方河東戎馬九千匹以實之其軍	-13.2861
宛從後擊强秦在前此危道也於是沛公	-13.2861
對敵當不動如山若遷移依險人心	-13.2861
左箭發則靡其弰厭其肘仰其腕目以	-13.2861
指不知鏃同於無目試之至也或以目視	-13.2861
援兵見之必謂江陵已破未敢輕進	-13.2861
料伏兵待之以詐示之俟彼出師則發伏	-13.2861
斷洄曲路橋又分五百人斷朗山路至	-13.2861
暗中則乖此為無術矣故矢在弓右視在	-13.2861
沈攸之曰不然若錢溪實敗萬人中要應	-13.2861
袁顗舉兵反㳂流入鵲尾與官軍相持既	-13.2861
要令大指知鏃至然後發箭故曰鏃	-13.2861
路量撥哨船數隻與瞭望墪軍一體哨報	-13.2861
馬燧鎮太原燧以晉陽王業所起	-13.2861
三局丙辰戊辰庚辰壬辰甲辰太乙在	-13.2861
也子無重寡人之過敢以為請晉侯以魏	-13.2861
也敵先採濕木編洞屋以生牛皮蓋其上	-13.2861
交射矢集於賊城上如蝟毛每給諸軍矢	-13.2861
先知之或以厚貺誘之反為我用之或佯	-13.2861
入謁之皆膝行股戰莫敢仰視終立功焉	-13.2861
凾	-13.2861
則敵人之間反為我用死間者外詐立事	-13.2861
地之用矣大兵將動先料其强弱觀其雲	-13.2861
宋人懼使華元夜入楚師登子反之牀	-13.2861
布帛芻草蘆葦茅荻石灰沙土	-13.2861
師可前後相次數十里間連亘不絶晝則	-13.2861
常州境去一䑸為耆民周瓚等所	-13.2861
得為心之主長生安樂富貴尊榮聲色喜	-13.2861
從之魏人掎角作十三城慶之銜枚夜出	-13.2861
操與遂交馬語移時不及軍事但説京	-13.2861
支米二升一月六斗一年七石二斗一軍	-13.2861
放縱雖有智者不能善後矣遂守便宜上	-13.2861
有傾側覆背上左右張生牛皮為城	-13.2861
死地不可輕也慧景乃聽之過前秦苻堅	-13.2861
死地乃可求生須虜圍合然後與戰諸將	-13.2861
每更八刻四十八分每㸃一刻四十五分	-13.2861
瓦不仁其臣莫有死志先伐之其卒必	-13.2861
絶敵所恃豈直深入然後用掠乎如是則	-13.2861
者有三焉一曰挫勢二曰支勢三曰輕勢	-13.2861
船上建樓三重列女墻戰格樹幡幟開弩	-13.2861
調發二月初一日上班十月三十日掣班	-13.2861
謂神有而無之之謂聖無而有之之謂賢	-13.2861
謂諸將曰今圍壘轉固兵馬向集但當精	-13.2861
賊衆百萬百姓皆震恐士卒無鬭志不可	-13.2861
趙括括軍敗卒四十萬人降武安君武安	-13.2861
隆震聞者駭懼迴其勢而擊人者此之謂	-13.2861
隨處積檑木檑石鎗斧及他短兵外立弩	-13.2861
青州黄巾衆百萬入兖州界刺史劉岱欲	-13.2861
一失機㑹安可傾其巢穴耶乃自選驍兵	-13.2861
一將行得水黒幡幟旗圖熊額	-13.2861
不去其旗是以甚敗遂滅衛東晉末桓𤣥	-13.2861
不用箆籬只於近下留品字方	-13.2861
之渦陽魏遣將元昭等率兵來援前軍至	-13.2861
人後三人彼此背後相靠見扇拍時一	-13.2861
佞臣在上一軍皆訟引威自與動違	-13.2861
侵楚養由基奔命子庚以師繼之	-13.2861
便可使勢如金湯有不可犯之理兼京城	-13.2861
候夜昏詐為號直奔衝敵師混服飾軍伍	-13.2861
克鄭丘緩為右及戰郤克傷於矢流血及	-13.2861
其令因使厚之諜反以情告愬愬益知賊	-13.2861
其攻械勢恐難遏宜便於城裏脚下取土	-13.2861
劉裕將何無忌等次桑落洲澹之等率軍	-13.2861
力復欲襲之薛萬均懲其前敗固言不可	-13.2861
勝之方也於是悉除舊法令諸軍為騎陣	-13.2861
募敢勇三千人令賀拔勝總之以犯其軍	-13.2861
勢卑賤凌貴久而益大上不忍廢國受其	-13.2861
北拓地三百餘里於牛頭朝那山北置烽	-13.2861
厔	-13.2861
嘉曰胡恃其逺必不設備因其無備卒然	-13.2861
四十局癸卯乙卯丁卯己卯辛卯太乙在	-13.2861
如偃枯草使東而東使西而西如引渟水	-13.2861
始謀於軍者必有後機之困矣設能	-13.2861
姓金銀粟帛計以億兆之數亦莫能盡若	-13.2861
孝寛深患之而地入於齊無方誅剪欲當	-13.2861
征討令封常清知留後事常清有才學果	-13.2861
懲艾介子過龜兹時其王近就人易得也	-13.2861
戰澹之常所乘舫旌旗甚盛無忌謂	-13.2861
所短故獸之動必先爪牙禽之動必先嘴	-13.2861
押領隨便安置咸得其宜擢其渠帥量才	-13.2861
旬而三城俱就以拂雲祠為中城與東西	-13.2861
明外愚形劣心壯嫻於鄙事能忍饑寒詬	-13.2861
明請益舟師以襲令贇上曰非應急之	-13.2861
春秋時魯莊公與齊師戰于長勺公	-13.2861
校備用之物各為部分使吏主當謹伺見	-13.2861
楚有可亂者彼項王骨鯁之臣亞父鍾離	-13.2861
此以内嬖為間者也其七曰敵有謀臣則	-13.2861
毁譽並興壅塞主聰各阿所私令主失忠	-13.2861
水用足下不近水而溝防省因天財就地	-13.2861
渚乘戰艦而下以黄州刺史王明領戰艦	-13.2861
潯陽宋將殷孝祖討之時賊據赭圻孝祖	-13.2861
無位而尊威無不震葛藟相連種	-13.2861
示以疲倦懈怠使知之敵必隨勢而來	-13.2861
種一屯六十丁一丁給米二升一	-13.2861
稽留行事命令不通造作苛政變古易常	-13.2861
穂	-13.2861
組	-13.2861
能進放胄又貫三矢衆失色請放突去放	-13.2861
至三爿沙總兵盧鏜與把總楊尚英迎擊	-13.2861
與歡相遇時募士皆用短兵接戰乘勝逐	-13.2861
與西魏大將宇文泰戰邙山其時泰見歡	-13.2861
船分畨出哨無事則耕作操練遇警則一	-13.2861
若累卵諸軍用命戰士賈勇城堞之下矢	-13.2861
莫適禁禦延及君子國受其害軍䜟	-13.2861
術孝寛咸拒破之歡無如之何乃遣倉曹	-13.2861
謀主問計於思温對曰明公既以太后幽	-13.2861
賜外國為名至樓蘭樓蘭王意不親介子	-13.2861
野菱蕩歴大成橋太平九里邨華市新塘	-13.2861
類是也如止以死戰為期茍敵兵益壯我	-13.2861
馬艾不從乃下車據胡床指麾	-13.2861
騳	-13.2861
􁯠	-13.2861
為中州國朝洪武二年復為縣𢎞治十年	-13.2862
官進退求便委曲弄文以危其君是謂國	-13.2862
茍然取容專任自己舉措伐功誹謗盛	-13.2862
田業賈不離其肆宅士大夫不離其官府	-13.2864
巒	-13.2864
恃馬常為奔衝故因洞當餘法	-13.2864
弇勑諸將皆蓐食㑹明至臨淄城荀梁等	-13.2864
校曰後五日攻西安藍聞之晨夜儆守至	-13.2864
頃大獲其利祜之始至也軍無百日之	-13.2864
射之中者人馬皆洞經十三日晉軍死傷	-13.2864
搦	-13.2864
柜	-13.2864
偽退以罷吾兵而倒還乘虛掩不備也表	-13.2864
分之一加於弓亦三分之一以左手頭指	-13.2864
千人還至遼東城惟二千七百人矣唐武	-13.2864
吾入圍地前有强敵後有險阻隘路敵	-13.2864
後拒連戰大破之斬首萬餘級國走而死	-13.2864
深恨晟及渾瑊馬燧欲隂計圖之乃卑	-13.2864
烽烟相望雞犬相聞而足跡不	-13.2864
觀敵之來一坐一起其政以理其追北佯	-13.2864
邨川沙每處每日撥軍五十名不分晝夜	-13.2864
陣開四門騎兵居其中候出戰即開門放	-13.2864
六十局癸亥乙亥丁亥己亥辛亥太乙在	-13.2864
一人經習戰陣者使執馬而四人前戰	-13.2864
不能傷又能奪賊矟還以刺之出入重圍	-13.2864
之兵亦皆勁勇惠亮等城柵尚不可攻公	-13.2864
人少是以和好輕慢不成今蕃相及元帥	-13.2864
令當闊羽向上弓弦既離身即易見箭之	-13.2864
如幹直臂如枝直臂者非初直也架弦畢	-13.2864
弰向前微令上傾向右然後取箭覆其手	-13.2864
思摩燒薙秋草延陀糧肉日盡野無所獲	-13.2864
戮力致死與吾争勝負哉如吾計者正欲	-13.2864
所佩霜明朱弓四石每出殺傷	-13.2864
所由入者隘所從歸者迂彼寡可以擊吾	-13.2864
斷江路築却月城延袤十餘里與惠亮為	-13.2864
棖	-13.2864
殺傷及溺死者萬餘人惠亮奔走靖率輕	-13.2864
第二指節當闊約弦徐徐送之令衆	-13.2864
而戒不求而得不約而親不令而信	-13.2864
薛萬徹率數千騎收其執馬者其衆失馬	-13.2864
驅車就水草解鞍牧馬方擬取	-13.2864
髭	-13.2864
三年孫權揚聲欲向合肥征東將軍滿寵	-13.2864
伐罪弔民正在今日皆釋而遣之於是戎	-13.2864
取之必矣銑援兵見舟艦果疑不進銑降	-13.2864
固計未决秉奮身上馬衆軍不得已遂進	-13.2864
固軍陣外若不整以誘敵内嚴部伍外若	-13.2864
官矣官府以其非召募之兵也不給工食	-13.2864
急請救亞夫引兵東北走昌邑深壁而守	-13.2864
揣兆嵗首必應㑹飲使將竇	-13.2864
曰死未晚也乃踰城見沛公曰臣聞足下	-13.2864
殘滅之政累世受患造作過制雖成必敗	-13.2864
祐率突將三千為先鋒李忠義副之愬自	-13.2864
祛	-13.2864
箝	-13.2864
胡攻之不下遣人傳唱錢溪已下官軍並	-13.2864
逃亡得還者必是彼戰失利唱空聲	-13.2864
隊即一時散立第二聲絶諸隊一時捺槍	-13.2864
一局甲辰丙辰戊辰庚辰壬辰太乙在	-13.2864
剉手斧斷之賊以衝車等進則穿以	-13.2864
堅壁以待秦秦數挑戰趙兵不出趙王數	-13.2864
外五百步内悉伐木斷橋焚棄宿草撤屋	-13.2864
外垠向下陡峻次於城裏脚下取土	-13.2864
宅蔡吏告元濟曰城已陷矣元濟猶望董	-13.2864
少便能盡害以二十將周圍行偏僻小路	-13.2864
彼必皆出彼出則歸彼歸則出楚必道敝	-13.2864
敗軍之後兵甲寡弱燧乃悉召將吏	-13.2864
晉至夀春兵敗還長安慕容泓起兵	-13.2864
有一人言急救武安趙奢立斬之堅壁	-13.2864
朔方總管張仁愿築三受降城表留	-13.2864
湫	-13.2864
炭松樺蒿艾膏油麻皮氊荆棘箆籬	-13.2864
者焚之主將閲視守禦器械各令牢具又	-13.2864
而睢使人行千金於趙為反間曰秦之所	-13.2864
胡軍耳鼻示之顗駭懼急追胡還遂敗之	-13.2864
若不因夜速還明日欲歸不得武在軍旅	-13.2864
詈	-13.2864
諸將請所止愬曰入蔡州取吳元濟也諸	-13.2864
韋放為明威將軍總兵㑹之魏大將費穆	-13.2864
㾗	-13.2864
䪌	-13.2864
三萬三千六百三十六石七斗四升七合	-13.2864
乃使大將費邑軍厯下分兵屯祝阿别於	-13.2864
乃縱反間稱衆潰東奔成紀延信而追之	-13.2864
之援兵復欲築壘於軍後諸將恐腹背受	-13.2864
之私相過從者量城上一步置一甲士十	-13.2864
五萬連大艦沿流而下將焚采石浮梁直	-13.2864
亭以當其鋒因索筆下議餘皆注同中書	-13.2864
今千里襲人輜重多難以趨利不如輕	-13.2864
以上智為間者必成大功此兵之要三軍	-13.2864
偃以上軍夾攻子西楚左師潰楚師敗績	-13.2864
傷未收而棄之不惠也不待期而薄人於	-13.2864
先戰燧誓軍中曰戰勝請以家財行賞既	-13.2864
内敢圍天子本疑國家倉卒無援忽見旗	-13.2864
分住私相徃還儉並不拘貴賤但存紀綱	-13.2864
剜門未徹而追至敖曹奮頭	-13.2864
力拒守信因詭道趨稠松嶺賊不	-13.2864
十四人㧞隊中小帥以代之勒兵復戰	-13.2864
十四局丁巳己巳辛巳癸巳乙巳太乙在	-13.2864
反懼與之盟而告王退三十里宋及楚平	-13.2864
司馬耿雅曰告者視高而色動必有	-13.2864
合而矢貫余手及肘余折以御左輪朱殷	-13.2864
命於鋒鏑之下朕豈忍坐觀士卒聞	-13.2864
四分之一長九十三尺六寸三分四毫四	-13.2864
垂岡詰旦大霧進兵直抵夾寨梁軍無斥	-13.2864
士間出圍外縱火大呼城上舉燎應之	-13.2864
多燒火人執兩炬以疑之隔江望者	-13.2864
宗不許曰世充糧盡内外忿嫉當不勞攻	-13.2864
宵濟人奔馬馳遲明而薄密密出兵應之	-13.2864
實道規一皆焚燒衆乃大安江漢士	-13.2864
崞縣突厥候騎馳告始畢曰兵大至矣遂	-13.2864
州門號令賊黨仍遥指城外纛命二騎曰	-13.2864
師襲其後逗留不進移檄諸軍生擒令贇	-13.2864
廬問於伍員曰伐楚如何對曰楚執政衆	-13.2864
建旗盖以凌陣周人盡銳擊之一軍皆	-13.2864
彼所輕悉軍來戰公必不能支矣定興從	-13.2864
得敵信若我進取與詐跡不同間者不能	-13.2864
從是而東超亦於此西歸可須夜鼓而發	-13.2864
故充國伐西戎杜茂守北鄙創置屯田以	-13.2864
曰竒正素分之歟臨時制之歟靖曰按曹	-13.2864
曰願改事公行恭率其衆共謁太宗於渭	-13.2864
有刃欲刺人不能捉搦也以狀類筆故云	-13.2864
朗山之固晏然無一人知者李祐李忠義	-13.2864
李密攻宇文化及還其勁兵良馬多死隋	-13.2864
析公曰楚師輕窕易震蕩也若多	-13.2864
步有五長十步有十長百步有將别令虞	-13.2864
殊死戰無不以一當百時東北風急毅軍	-13.2864
清遂無一言常清亦不謝於是軍中股慄	-13.2864
温所憚者先王耳聞吾新立以為童子未	-13.2864
焉能容得左右動跳一人回頭大衆同疑	-13.2864
營田使躬率士衆力耕三年軍食豐	-13.2864
理且聞虜所據營林木甚盛必不夜出諸	-13.2864
生葭葦山林翳薈者必謹覆索之此伏	-13.2864
畏也當有畏之用退縮則設伏而攻之出	-13.2864
留萬人守城魏將司馬懿率二十萬衆拒	-13.2864
發兵赴援時唐太宗年未弱冠召募從軍	-13.2864
矣諸侯乖亂楚必大奔請先者去備薄威	-13.2864
示衆也懿曰賊堅營髙壘欲以老吾兵也	-13.2864
立恩奪在位權侵侮下民國内	-13.2864
而怒曰艾年少書生冠服如此輕我也命	-13.2864
而敗直墮吾計中耳既不測我之虛實足	-13.2864
而諸侯皆附楚兵疲食盡此天亡之時也	-13.2864
自邢臺馳入魏州燕軍突之上水關攻	-13.2864
茍有險余必下推車子豈識之然子病矣	-13.2864
萬必頃刻而盡捕得生口云繼元城中募	-13.2864
衆我寡力殫糧絶勝勢在彼敗勢在我當	-13.2864
西為操後患且捨鞍馬仗舟楫與吳越	-13.2864
質單騎而歸愬愬以客禮待之田進	-13.2864
赴之乃泛舟潛濟以出其北傍水作長圍	-13.2864
車營路狹則為木屋施於車上且戰且前	-13.2864
軍旅必有驕怠之心若簡精兵倍道	-13.2864
金陵之地王氣已見宜早應之兼有大江	-13.2864
銘	-13.2864
鋒而以羽儀自標異若善射者十人共射	-13.2864
長於此則習知地利而無水土不服之患	-13.2864
間者也其六曰敵有内寵令心腹者以金	-13.2864
降盡得之時又以牛革為洞屋猛士數百	-13.2864
除草木極廣吾道以便戰所髙置旌旗謹	-13.2864
隊為右翼戰法收法號令俱同前例	-13.2864
隋末稽胡五萬餘人掠宜春竇軌討之	-13.2864
雖窮不處亡國之位雖貧不食亂邦之粟	-13.2864
風陣居巽為風門雲陣居坎為雲門飛龍	-13.2864
飈	-13.2864
鬭且却操軍追至營雲更大開門偃旗息	-13.2864
􁤠	-13.2864
幻	-13.2867
弢	-13.2867
􁨓	-13.2867
昬	-13.2867
㙭	-13.2867
哵	-13.2867
嵓	-13.2867
怍	-13.2867
怳	-13.2867
揵	-13.2867
曬	-13.2867
纖	-13.2867
覦	-13.2867
辣	-13.2867
烹	-13.287
痰	-13.287
閂	-13.287
縧	-13.287
牋	-13.287
紥	-13.287
鍱	-13.287
悋	-13.287
憎	-13.287
暪	-13.287
瞞	-13.287
肴	-13.287
錚	-13.287
訥	-13.2873
俶	-13.2873
彧	-13.2873
寤	-13.2873
券	-13.2873
芘	-13.2873
䂎	-13.2873
刖	-13.2873
啾	-13.2873
壒	-13.2873
嬪	-13.2873
峐	-13.2873
蜮	-13.2873
訐	-13.2873
跗	-13.2873
􁇚	-13.2873
箐	-13.2876
坪	-13.2876
褊	-13.2877
䏰	-13.2877
閎	-13.2877
塑	-13.2877
壼	-13.2877
纊	-13.2877
締	-13.288
渟	-13.288
煚	-13.288
㕓	-13.288
冨	-13.288
摋	-13.288
砰	-13.288
糖	-13.288
胆	-13.288
艋	-13.288
蘂	-13.288
醳	-13.288
鑪	-13.288
閈	-13.288
饁	-13.288
𠡠	-13.288
摠	-13.2883
柿	-13.2883
摏	-13.2883
昩	-13.2883
嶂	-13.2883
鈿	-13.2883
馹	-13.2883
麯	-13.2883
繄	-13.2886
榨	-13.2886
凟	-13.2886
悛	-13.2886
痩	-13.2886
痊	-13.2886
熹	-13.2886
瑣	-13.2886
群	-13.2886
郫	-13.2886
閽	-13.2886
駚	-13.2886
酆	-13.2889
舡	-13.2889
苕	-13.2889
暁	-13.2889
斵	-13.2889
湓	-13.2889
𠂻	-13.2889
搔	-13.2889
瞫	-13.2889
詠	-13.2889
捎	-13.2889
暒	-13.2889
盎	-13.2889
縲	-13.2892
菲	-13.2892
埕	-13.2892
絀	-13.2892
贛	-13.2892
瞠	-13.2892
紗	-13.2892
餞	-13.2892
搃	-13.2895
牘	-13.2895
靁	-13.2895
楪	-13.2895
琇	-13.2895
凳	-13.2895
渥	-13.2895
缻	-13.2895
謊	-13.2899
壠	-13.2899
槨	-13.2899
痼	-13.2899
蚊	-13.2899
贑	-13.2899
摰	-13.2901
胠	-13.2902
埏	-13.2902
漑	-13.2902
裊	-13.2902
僊	-13.2902
甖	-13.2902
繖	-13.2902
蠅	-13.2902
旐	-13.2905
鏊	-13.2905
㩁	-13.2905
卽	-13.2905
壟	-13.2905
酤	-13.2905
寬	-13.2908
紈	-13.2908
鞾	-13.2908
菆	-13.2908
鞞	-13.2908
墱	-13.2911
迃	-13.2911
頹	-13.2914
窨	-13.2914
鰕	-13.2914
埸	-13.2917
夣	-13.292
浿	-13.2921
条	-13.2921
擗	-13.2921
楝	-13.2921
毶	-13.2921
涙	-13.2921
黯	-13.2921
寮	-13.2924
溏	-13.2924
祉	-13.2927
㳌	-13.2927
􁲑	-13.293
淅	-13.293
驪	-13.2933
霅	-13.2936
伉	-13.2946
郁	-13.2949
嵂	-13.2955
緉	-13.2955
崒	-13.2958
瞪	-13.2965
抖	-13.2968
顋	-13.2984
騪	-13.299
尻	-13.3003
柑	-13.3025
黏	-14.262
麝	-14.2621
麂	-14.2622
鷁	-14.2623
鶼	-14.2624
鵪	-14.2625
鵓	-14.2626
鴿	-14.2627
魎	-14.2628
魍	-14.2629
驎	-14.263
驁	-14.2631
騠	-14.2632
騊	-14.2633
駼	-14.2634
饠	-14.2635
餻	-14.2636
餜	-14.2637
霓	-14.2638
鐲	-14.2639
鐐	-14.264
鏤	-14.2641
鎬	-14.2642
鍍	-14.2643
鋐	-14.2644
酖	-14.2645
酎	-14.2646
鄡	-14.2647
逯	-14.2648
逍	-14.2649
廳	-14.2649
轀	-14.265
軺	-14.2651
蹐	-14.2652
跼	-14.2653
跅	-14.2654
贄	-14.2655
貱	-14.2656
貅	-14.2657
讟	-14.2658
讜	-14.2659
詹	-14.266
觝	-14.2661
覿	-14.2662
覲	-14.2663
覃	-14.2664
褘	-14.2665
螃	-14.2666
蝥	-14.2667
蜿	-14.2668
蜘	-14.2669
蜒	-14.267
蛭	-14.2671
蚨	-14.2672
蚝	-14.2673
弹	-14.2673
虫	-14.2674
虙	-14.2675
蘢	-14.2676
蘊	-14.2677
藋	-14.2678
蔟	-14.2679
蓰	-14.268
蒹	-14.2681
㲼	-14.2681
噠	-14.2681
虬	-14.2681
萸	-14.2682
莩	-14.2683
荏	-14.2684
茵	-14.2685
茱	-14.2686
茯	-14.2687
芨	-14.2688
芃	-14.2689
杸	-14.2689
臟	-14.269
臙	-14.2691
臓	-14.2692
胖	-14.2693
胔	-14.2694
肭	-14.2695
翺	-14.2696
罦	-14.2697
罥	-14.2698
罃	-14.2699
緖	-14.27
綌	-14.2701
紉	-14.2702
糺	-14.2703
糢	-14.2704
簰	-14.2705
篁	-14.2706
笥	-14.2707
竺	-14.2708
竣	-14.2709
磺	-14.271
磉	-14.2711
矚	-14.2712
瞤	-14.2713
恰	-14.2713
瞑	-14.2714
睚	-14.2715
眦	-14.2716
眢	-14.2717
盩	-14.2718
皺	-14.2719
皈	-14.272
痤	-14.2721
坵	-14.2721
殳	-14.2721
璯	-14.2722
璆	-14.2723
瑇	-14.2724
琚	-14.2725
獯	-14.2726
獞	-14.2727
肖	-14.2728
獃	-14.2728
熠	-14.2729
橧	-14.2729
煽	-14.273
焬	-14.2731
瀹	-14.2732
濆	-14.2733
澭	-14.2734
澞	-14.2735
澈	-14.2736
潬	-14.2737
㘭	-14.2737
嗷	-14.2737
圚	-14.2737
嵛	-14.2737
憀	-14.2737
檔	-14.2737
溼	-14.2738
湔	-14.2739
渒	-14.274
殭	-14.2741
櫬	-14.2742
橚	-14.2743
蚩	-14.2744
樗	-14.2744
樑	-14.2745
櫉	-14.2745
豸	-14.2745
椶	-14.2746
棨	-14.2747
柟	-14.2748
枋	-14.2749
朧	-14.275
暄	-14.2751
旙	-14.2752
撐	-14.2753
㚖	-14.2753
嚝	-14.2753
搊	-14.2754
挪	-14.2755
扻	-14.2756
恧	-14.2757
徠	-14.2758
彍	-14.2759
弃	-14.276
异	-14.2761
䫫	-14.2761
勻	-14.2761
哆	-14.2761
摴	-14.2761
泜	-14.2761
廄	-14.2762
庠	-14.2763
帔	-14.2764
巘	-14.2765
巇	-14.2766
嶁	-14.2767
崧	-14.2768
崢	-14.2769
倜	-14.2769
坻	-14.2769
寞	-14.2769
岯	-14.277
岫	-14.2771
岣	-14.2772
届	-14.2773
宙	-14.2774
宕	-14.2775
嬴	-14.2776
嫂	-14.2777
㨂	-14.2777
䄂	-14.2777
凛	-14.2777
刲	-14.2777
嘲	-14.2777
噋	-14.2777
垻	-14.2777
妥	-14.2777
孶	-14.2777
嵋	-14.2777
徂	-14.2777
梳	-14.2777
澮	-14.2777
諦	-14.2777
娃	-14.2778
坼	-14.2779
嚀	-14.278
嗾	-14.2781
嗇	-14.2782
唀	-14.2783
叮	-14.2784
劃	-14.2785
㷔	-14.2785
冑	-14.2785
囏	-14.2785
媍	-14.2785
幫	-14.2785
廖	-14.2785
惛	-14.2785
曀	-14.2785
洄	-14.2785
洑	-14.2785
剩	-14.2786
剙	-14.2787
刴	-14.2788
儡	-14.2789
傭	-14.279
傒	-14.2791
傀	-14.2792
偬	-14.2793
䒫	-14.2793
嫩	-14.2793
橤	-14.2793
倅	-14.2794
佘	-14.2795
企	-14.2796
丗	-14.2797
䗲	-14.2798
䈋	-14.2799
㻞	-14.28
㬢	-14.2801
㕮	-14.2801
㢛	-14.2801
㳫	-14.2801
䂝	-14.2801
伷	-14.2801
佇	-14.2801
咀	-14.2801
孳	-14.2801
怎	-14.2801
慊	-14.2801
椆	-14.2801
楮	-14.2801
汨	-14.2801
㢤	-14.2802
㚟	-14.2803
齪	-14.2804
鯁	-14.2805
髓	-14.2806
餚	-14.2807
顥	-14.2808
央	-14.2809
閹	-14.2809
㝎	-14.2809
㫋	-14.2809
䆒	-14.2809
倀	-14.2809
儵	-14.2809
哷	-14.2809
喂	-14.2809
妢	-14.2809
媿	-14.2809
寝	-14.2809
峥	-14.2809
忖	-14.2809
惚	-14.2809
扢	-14.2809
擿	-14.2809
梲	-14.2809
棊	-14.2809
楣	-14.2809
櫺	-14.2809
洭	-14.2809
漪	-14.2809
鏈	-14.281
鋙	-14.2811
釅	-14.2812
鄱	-14.2813
邽	-14.2814
轢	-14.2815
躞	-14.2816
蹀	-14.2817
仃	-14.2817
仄	-14.2817
凄	-14.2817
厙	-14.2817
厪	-14.2817
哂	-14.2817
塩	-14.2817
屇	-14.2817
崕	-14.2817
彜	-14.2817
悻	-14.2817
惋	-14.2817
愉	-14.2817
挲	-14.2817
揕	-14.2817
撠	-14.2817
旿	-14.2817
桉	-14.2817
棬	-14.2817
棰	-14.2817
槢	-14.2817
涳	-14.2817
淓	-14.2817
跬	-14.2818
讃	-14.2819
訕	-14.282
觚	-14.2821
覡	-14.2822
蝴	-14.2823
蚡	-14.2824
蘿	-14.2825
㩗	-14.2825
㬗	-14.2825
㶚	-14.2825
䑨	-14.2825
䓤	-14.2825
听	-14.2825
噦	-14.2825
嚢	-14.2825
壙	-14.2825
寗	-14.2825
嵎	-14.2825
惨	-14.2825
抃	-14.2825
挎	-14.2825
掊	-14.2825
旼	-14.2825
檯	-14.2825
欀	-14.2825
沍	-14.2825
蔔	-14.2826
菖	-14.2827
苫	-14.2828
芫	-14.2829
芩	-14.283
芙	-14.2831
縊	-14.2832
滎	-14.2833
緘	-14.2833
㒤	-14.2833
㧼	-14.2833
㯼	-14.2833
㹀	-14.2833
䘐	-14.2833
僦	-14.2833
冇	-14.2833
唳	-14.2833
堝	-14.2833
塌	-14.2833
墖	-14.2833
姒	-14.2833
孥	-14.2833
戇	-14.2833
拭	-14.2833
掗	-14.2833
曈	-14.2833
朢	-14.2833
柚	-14.2833
柬	-14.2833
楄	-14.2833
滉	-14.2833
紝	-14.2834
篥	-14.2835
筝	-14.2836
眺	-14.2837
皿	-14.2838
瓴	-14.2839
牯	-14.284
爝	-14.2841
㔇	-14.2841
㰯	-14.2841
䒂	-14.2841
䮘	-14.2841
侖	-14.2841
咮	-14.2841
埳	-14.2841
婢	-14.2841
嫁	-14.2841
忝	-14.2841
憍	-14.2841
揍	-14.2841
擷	-14.2841
欻	-14.2841
煕	-14.2842
瀼	-14.2843
瀏	-14.2844
濊	-14.2845
澡	-14.2846
湣	-14.2847
洫	-14.2848
泫	-14.2849
㳄	-14.2849
䕃	-14.2849
䡖	-14.2849
劬	-14.2849
叄	-14.2849
嗉	-14.2849
堦	-14.2849
宓	-14.2849
嵸	-14.2849
巃	-14.2849
庴	-14.2849
徜	-14.2849
拷	-14.2849
搨	-14.2849
摟	-14.2849
楠	-14.2849
橐	-14.2849
沗	-14.2849
滬	-14.2849
沼	-14.285
汀	-14.2851
毯	-14.2852
歿	-14.2853
棉	-14.2854
栳	-14.2855
昳	-14.2856
撙	-14.2857
䡍	-14.2857
䬂	-14.2857
䱐	-14.2857
冄	-14.2857
凭	-14.2857
屆	-14.2857
岈	-14.2857
崈	-14.2857
嵯	-14.2857
帢	-14.2857
廚	-14.2857
戱	-14.2857
掾	-14.2857
搉	-14.2857
搒	-14.2857
晊	-14.2857
暸	-14.2857
暹	-14.2857
柧	-14.2857
楨	-14.2857
橯	-14.2857
滲	-14.2857
漙	-14.2857
掤	-14.2858
拉	-14.2859
扃	-14.286
憝	-14.2861
忬	-14.2862
崆	-14.2863
峒	-14.2864
屼	-14.2865
㝢	-14.2865
㟁	-14.2865
㢮	-14.2865
㩝	-14.2865
㭍	-14.2865
䘲	-14.2865
䠙	-14.2865
䧺	-14.2865
儳	-14.2865
啇	-14.2865
埶	-14.2865
堄	-14.2865
壐	-14.2865
够	-14.2865
宁	-14.2865
岓	-14.2865
庀	-14.2865
悵	-14.2865
惧	-14.2865
搯	-14.2865
斡	-14.2865
晤	-14.2865
枀	-14.2865
桷	-14.2865
槲	-14.2865
檩	-14.2865
歃	-14.2865
泆	-14.2865
浥	-14.2865
滹	-14.2865
釃	-14.2865
囹	-14.2866
囤	-14.2867
倆	-14.2868
侶	-14.2869
亳	-14.287
㬰	-14.2871
鰓	-14.2872
鯈	-14.2873
㒜	-14.2873
㾮	-14.2873
䆫	-14.2873
䠥	-14.2873
佗	-14.2873
俏	-14.2873
傎	-14.2873
僈	-14.2873
刓	-14.2873
咖	-14.2873
堇	-14.2873
夆	-14.2873
幍	-14.2873
忷	-14.2873
慇	-14.2873
懃	-14.2873
扮	-14.2873
摹	-14.2873
晱	-14.2873
棆	-14.2873
椊	-14.2873
楅	-14.2873
榅	-14.2873
橨	-14.2873
檛	-14.2873
毌	-14.2873
氾	-14.2873
渌	-14.2873
髴	-14.2874
髣	-14.2875
綑	-14.2876
駙	-14.2876
饅	-14.2877
鞔	-14.2878
霫	-14.2879
鏵	-14.288
郅	-14.2881
霹	-14.2881
靂	-14.2881
㮶	-14.2881
䙤	-14.2881
䜴	-14.2881
仂	-14.2881
伅	-14.2881
咩	-14.2881
哪	-14.2881
垤	-14.2881
墕	-14.2881
壚	-14.2881
崌	-14.2881
幀	-14.2881
廥	-14.2881
慵	-14.2881
憨	-14.2881
棕	-14.2881
椱	-14.2881
榷	-14.2881
櫪	-14.2881
欹	-14.2881
湀	-14.2881
藿	-14.2881
遛	-14.2882
轟	-14.2883
襖	-14.2884
螄	-14.2885
藶	-14.2886
藟	-14.2887
薙	-14.2888
薑	-14.2889
㹠	-14.2889
䌇	-14.2889
䗶	-14.2889
丣	-14.2889
仿	-14.2889
佈	-14.2889
儁	-14.2889
删	-14.2889
吿	-14.2889
呬	-14.2889
喑	-14.2889
婿	-14.2889
嫖	-14.2889
嫵	-14.2889
忼	-14.2889
惱	-14.2889
懵	-14.2889
戅	-14.2889
摝	-14.2889
殉	-14.2889
萱	-14.2889
蕋	-14.289
葶	-14.2891
莎	-14.2892
茋	-14.2893
苾	-14.2894
舠	-14.2895
胊	-14.2896
綮	-14.2897
岢	-14.2897
牁	-14.2897
㘟	-14.2898
㭬	-14.2898
䤈	-14.2898
刦	-14.2898
勗	-14.2898
卨	-14.2898
厈	-14.2898
呆	-14.2898
嚥	-14.2898
奨	-14.2898
娣	-14.2898
嬉	-14.2898
愠	-14.2898
愻	-14.2898
抔	-14.2898
捄	-14.2898
揗	-14.2898
摻	-14.2898
晰	-14.2898
曆	-14.2898
柞	-14.2898
柢	-14.2898
桎	-14.2898
椑	-14.2898
洿	-14.2898
淸	-14.2898
瓠	-14.2898
琊	-14.2899
珝	-14.29
珂	-14.2901
獮	-14.2902
狤	-14.2903
爟	-14.2904
瀋	-14.2905
㕑	-14.2906
㗒	-14.2906
䉡	-14.2906
䕸	-14.2906
䗫	-14.2906
䨇	-14.2906
剮	-14.2906
孩	-14.2906
帮	-14.2906
挍	-14.2906
捃	-14.2906
斿	-14.2906
棃	-14.2906
棟	-14.2906
渑	-14.2906
溽	-14.2906
餐	-14.2906
滇	-14.2906
洧	-14.2907
泅	-14.2908
欖	-14.2909
檇	-14.291
橄	-14.2911
栲	-14.2912
揎	-14.2913
㗸	-14.2914
㞯	-14.2914
㿍	-14.2914
䛿	-14.2914
䴚	-14.2914
䴢	-14.2914
剜	-14.2914
匆	-14.2914
呻	-14.2914
噍	-14.2914
孌	-14.2914
寕	-14.2914
恚	-14.2914
揄	-14.2914
揔	-14.2914
搤	-14.2914
斝	-14.2914
棐	-14.2914
沭	-14.2914
漚	-14.2914
捫	-14.2914
惺	-14.2915
悾	-14.2916
悒	-14.2917
怙	-14.2918
嶢	-14.2919
嶇	-14.292
夯	-14.2921
㜑	-14.2922
䏍	-14.2922
宂	-14.2922
嵊	-14.2922
悌	-14.2922
憔	-14.2922
戣	-14.2922
掯	-14.2922
昉	-14.2922
桌	-14.2922
殂	-14.2922
囷	-14.2922
嗃	-14.2923
咆	-14.2924
厫	-14.2925
倥	-14.2926
伽	-14.2927
㰱	-14.2928
㓗	-14.2929
亶	-14.293
卡	-14.293
塏	-14.293
妳	-14.293
悢	-14.293
檞	-14.293
鳬	-14.293
騍	-14.2931
鉏	-14.2932
酹	-14.2933
轒	-14.2934
輼	-14.2935
蹌	-14.2936
覱	-14.2937
㡳	-14.2938
䘵	-14.2938
䰡	-14.2938
噎	-14.2938
嵕	-14.2938
嶔	-14.2938
怱	-14.2938
怵	-14.2938
慓	-14.2938
昜	-14.2938
朳	-14.2938
杈	-14.2938
槔	-14.2938
残	-14.2938
汩	-14.2938
澥	-14.2938
羝	-14.2938
蕞	-14.2938
菩	-14.2939
腴	-14.294
糯	-14.2941
粃	-14.2942
瞿	-14.2943
琶	-14.2944
琵	-14.2945
咈	-14.2946
嶝	-14.2946
拑	-14.2946
杷	-14.2946
滾	-14.2946
珫	-14.2946
燹	-14.2947
澉	-14.2948
氤	-14.2949
毆	-14.295
槓	-14.2951
枵	-14.2952
捭	-14.2953
㝡	-14.2954
䅤	-14.2954
侷	-14.2954
嗛	-14.2954
悝	-14.2954
徬	-14.2954
徨	-14.2955
姿	-14.2956
匍	-14.2957
俛	-14.2958
齾	-14.2959
韯	-14.296
靺	-14.2961
㭖	-14.2962
僎	-14.2962
捽	-14.2962
晳	-14.2962
暵	-14.2962
汦	-14.2962
涣	-14.2962
漺	-14.2962
逌	-14.2962
輳	-14.2963
譯	-14.2964
蟛	-14.2965
蜣	-14.2966
蜞	-14.2967
藭	-14.2968
荔	-14.2969
妹	-14.297
姊	-14.297
朌	-14.297
泔	-14.297
溷	-14.297
犧	-14.297
氲	-14.2971
歐	-14.2972
极	-14.2973
拚	-14.2974
徘	-14.2975
徊	-14.2976
幗	-14.2977
㺯	-14.2978
尒	-14.2978
婺	-14.2979
圄	-14.298
囿	-14.2981
嘩	-14.2982
咫	-14.2983
鎰	-14.2984
觱	-14.2985
螳	-14.2986
彲	-14.2986
澣	-14.2986
芎	-14.2987
芍	-14.2988
窖	-14.2989
盱	-14.299
狻	-14.2991
焞	-14.2992
洹	-14.2993
椇	-14.2994
峪	-14.2994
梔	-14.2995
幵	-14.2996
崙	-14.2997
宄	-14.2998
匃	-14.2999
劓	-14.3
剄	-14.3001
驃	-14.3002
樾	-14.3002
靼	-14.3003
雩	-14.3004
遑	-14.3005
貿	-14.3006
謠	-14.3007
蜈	-14.3008
蚣	-14.3009
蓨	-14.301
涖	-14.301
睥	-14.3011
琉	-14.3012
梵	-14.3013
慷	-14.3014
崛	-14.3015
孜	-14.3016
垓	-14.3017
哩	-14.3018
嘹	-14.3018
梦	-14.3018
邾	-14.3019
逡	-14.302
踪	-14.3021
謖	-14.3022
薈	-14.3023
肱	-14.3024
睢	-14.3025
崞	-14.3026
䃮	-14.3026
岱	-14.3027
啻	-14.3028
叵	-14.3029
万	-14.303
䔧	-14.3031
邠	-14.3032
逗	-14.3033
辜	-14.3034
趫	-14.3035
縠	-14.3036
狽	-14.3037
橰	-14.3038
愕	-14.3039
奣	-14.304
吽	-14.3041
吮	-14.3042
僵	-14.3043
俐	-14.3044
佖	-14.3045
鷂	-14.3046
灤	-14.3047
术	-14.3048
搴	-14.3049
恙	-14.305
挌	-14.3051
逖	-14.3051
贇	-14.3052
藂	-14.3053
娘	-14.3054
僥	-14.3055
亹	-14.3056
諄	-14.3057
螣	-14.3058
恟	-14.3059
瀛	-14.306
伶	-14.3061
闐	-14.3062
鄩	-14.3063
濘	-14.3064
漴	-14.3065
茜	-14.3066
䔍	-14.3067
翌	-14.3067
溉	-14.3068
邙	-14.3069
獗	-14.307
匕	-14.3071
轆	-14.3072
猜	-14.3073
猖	-14.3074
慧	-14.3075
賺	-14.3076
柰	-14.3077
齡	-14.3078
鄲	-14.3079
劌	-14.308
珪	-14.3081
閼	-14.3082
罝	-14.3083
摔	-14.3084
哱	-14.3085
蠕	-14.3086
紜	-14.3087
汊	-14.3088
蕪	-14.3089
罘	-14.309
煬	-14.3091
邯	-14.3092
傉	-14.3093
笆	-14.3094
掎	-14.3095
圌	-14.3096
鴛	-14.3097
蒺	-14.3098
叭	-14.3099
慳	-14.3099
