<unk>	0
<s>	0
</s>	0
之	-3.95784
以	-4.51406
為	-4.57601
王	-4.92747
/	-5.13597
而	-5.18052
不	-5.18342
其	-5.18909
有	-5.24893
於	-5.27918
人	-5.28649
曰	-5.3188
也	-5.35751
(	-5.42538
)	-5.50489
者	-5.5208
大	-5.60164
與	-5.65807
于	-5.72872
自	-5.73345
至	-5.75784
無	-5.84876
子	-5.85603
及	-5.87185
中	-5.89876
時	-5.90302
一	-5.90715
使	-5.91133
州	-5.9244
事	-5.9282
兵	-5.93304
等	-5.93506
國	-5.99814
乃	-6.01242
軍	-6.01986
所	-6.08692
將	-6.08856
遂	-6.11675
城	-6.12152
皆	-6.13075
)(	-6.17411
公	-6.18001
言	-6.18097
遣	-6.18409
上	-6.19465
命	-6.20139
文	-6.24677
復	-6.25498
又	-6.2699
行	-6.28519
爲	-6.28965
李	-6.29622
天	-6.30565
在	-6.31158
三	-6.3221
山	-6.32306
平	-6.3255
後	-6.33588
安	-6.34101
出	-6.34319
入	-6.35819
臣	-6.36145
道	-6.37594
得	-6.37622
見	-6.39073
死	-6.40779
故	-6.42598
今	-6.43788
立	-6.44049
亦	-6.45586
生	-6.47518
二	-6.47861
如	-6.48959
歸	-6.48979
則	-6.49712
令	-6.49747
書	-6.49781
縣	-6.52528
欲	-6.53216
日	-6.53777
當	-6.54419
張	-6.5463
相	-6.5481
因	-6.5522
此	-6.57057
名	-6.5753
南	-6.57592
帝	-6.57797
知	-6.57863
唐	-6.60329
馬	-6.60477
矣	-6.60494
東	-6.60582
下	-6.60718
從	-6.6081
封	-6.61981
官	-6.62286
常	-6.6286
作	-6.62977
多	-6.63757
何	-6.6443
初	-6.64505
已	-6.65073
可	-6.65165
門	-6.65335
光	-6.65491
興	-6.65822
水	-6.65876
元	-6.66264
成	-6.67037
漢	-6.67138
進	-6.67297
年	-6.68372
卒	-6.68931
方	-6.68952
攻	-6.69225
聞	-6.6951
然	-6.69636
武	-6.69679
請	-6.70053
▁	-6.70148
還	-6.7126
來	-6.71525
謂	-6.7175
民	-6.72666
金	-6.72677
晉	-6.72762
宗	-6.72958
師	-6.7386
西	-6.73877
我	-6.74005
非	-6.74038
吾	-6.74277
守	-6.75092
未	-6.75172
明	-6.75175
云	-6.76766
五	-6.77416
殺	-6.78202
長	-6.7832
朝	-6.80462
舊	-6.81115
君	-6.81225
氏	-6.82083
家	-6.82208
周	-6.82255
北	-6.8248
建	-6.82639
陽	-6.83099
陳	-6.83436
若	-6.83793
同	-6.85346
居	-6.85476
四	-6.85737
先	-6.8574
字	-6.85855
劉	-6.85933
徳	-6.87126
江	-6.87405
稱	-6.87597
主	-6.87797
必	-6.8942
乎	-6.89476
石	-6.89577
義	-6.89646
是	-6.89883
用	-6.89963
士	-6.90679
降	-6.91134
内	-6.91546
世	-6.92821
前	-6.93039
去	-6.94574
禮	-6.94628
重	-6.95149
郡	-6.95265
衆	-6.9543
始	-6.97446
都	-6.98204
後主	-6.98606
諸	-6.98833
龍	-6.99932
宋	-6.99961
通	-7.00566
太守	-7.00731
能	-7.00773
地	-7.01362
鎮	-7.01476
本	-7.018
仁	-7.03755
焉	-7.03908
加	-7.04513
拜	-7.04556
賜	-7.05049
既	-7.05755
心	-7.06552
梁	-7.06967
置	-7.07329
盡	-7.07432
白	-7.0791
堅	-7.07928
傳	-7.08076
數	-7.08527
吳	-7.09757
正	-7.0999
授	-7.1029
州刺史	-7.10515
詔	-7.10562
雖	-7.10658
髙	-7.10988
取	-7.11034
善	-7.11279
且	-7.11449
信	-7.11541
宜	-7.12353
趙	-7.12767
定	-7.13684
忠	-7.14011
改	-7.14714
秦	-7.1491
謀	-7.15561
將軍	-7.1613
即	-7.16385
親	-7.1661
府	-7.16796
德	-7.17163
萬	-7.17671
戰	-7.17969
神	-7.18229
甚	-7.18973
逺	-7.19073
求	-7.19955
延	-7.2008
奉	-7.20599
越	-7.20667
女	-7.20951
父	-7.21331
魏	-7.21516
分	-7.22141
舉	-7.2231
法	-7.22325
實	-7.2237
率	-7.22443
虎	-7.22705
少	-7.23218
遷	-7.23242
問	-7.2395
敗	-7.2398
思	-7.24359
楊	-7.247
或	-7.24817
政	-7.25683
六	-7.25815
侯	-7.2645
表	-7.26616
召	-7.27025
起	-7.27078
志	-7.27527
惟	-7.27681
昌	-7.27718
任	-7.2774
㑹	-7.27843
服	-7.27965
威	-7.28883
風	-7.29163
外	-7.29599
太祖	-7.30068
奔	-7.30261
蜀	-7.30368
清	-7.30525
将	-7.30918
流	-7.31066
廣	-7.31072
宣	-7.31102
海	-7.31321
以為	-7.32265
尚	-7.32936
九	-7.3437
發	-7.34655
崇	-7.34893
保	-7.35441
雄	-7.35723
治	-7.35745
節	-7.36046
過	-7.36358
小	-7.36742
不能	-7.37007
元年	-7.37039
不可	-7.37326
位	-7.37359
望	-7.37831
意	-7.38078
亂	-7.38249
和	-7.38273
終	-7.38791
勒	-7.39264
經	-7.39901
亡	-7.39961
元宗	-7.40092
執	-7.40158
力	-7.40638
遇	-7.40957
宫	-7.41045
垂	-7.41514
臨	-7.41654
據	-7.41798
𢎞	-7.42056
失	-7.42224
遣使	-7.42479
議	-7.42503
受	-7.42551
昭	-7.42943
賢	-7.43503
益	-7.43782
百	-7.44762
母	-7.44968
殿	-7.45337
楚	-7.4535
功	-7.45494
處	-7.45712
身	-7.45789
業	-7.46677
孫	-7.46771
異	-7.46894
領	-7.46921
繼	-7.47
固	-7.47001
告	-7.47403
八	-7.47516
夜	-7.47558
獻	-7.47643
土	-7.4779
第	-7.47879
登	-7.48021
樂	-7.4826
耳	-7.48466
難	-7.48562
制	-7.48634
聖	-7.48681
應	-7.48796
留	-7.49214
承	-7.4939
三年	-7.49564
猶	-7.50273
號	-7.5045
賊	-7.50835
易	-7.51008
破	-7.51393
代	-7.51815
會	-7.51855
節度使	-7.52807
食	-7.52961
寧	-7.53134
弟	-7.53175
好	-7.53411
烈祖	-7.53561
盛	-7.54248
擊	-7.54313
卿	-7.5432
老	-7.54828
屬	-7.5484
懼	-7.54946
永	-7.55003
十	-7.55083
直	-7.55625
温	-7.55792
引	-7.559
餘	-7.56011
高	-7.56047
襲	-7.56315
斬	-7.56628
景	-7.56638
口	-7.57099
次	-7.57357
太	-7.57479
獨	-7.57747
叛	-7.57816
觀	-7.5794
化	-7.58047
物	-7.5809
黄	-7.58103
太子	-7.58155
伐	-7.58674
悉	-7.58686
討	-7.58957
權	-7.59081
部	-7.59105
七	-7.59227
辭	-7.59681
疾	-7.59826
修	-7.59886
聲	-7.60376
深	-7.60468
史	-7.60483
間	-7.60622
雲	-7.60693
營	-7.60731
圖	-7.60791
章	-7.60938
人也	-7.61193
僧	-7.61365
爾	-7.61402
后	-7.61594
陵	-7.61628
誅	-7.61897
致	-7.61947
新	-7.62043
田	-7.62206
度	-7.62293
齊	-7.62465
左	-7.62516
氣	-7.6256
開	-7.62758
罪	-7.63013
怒	-7.63071
詩	-7.63092
吏	-7.63587
迎	-7.63674
天下	-7.63932
帥	-7.64604
素	-7.64901
色	-7.65079
徐	-7.65572
奏	-7.6568
合	-7.65686
遺	-7.66015
許	-7.66571
凡	-7.66606
徙	-7.66717
絶	-7.66771
祖	-7.67562
圍	-7.67746
計	-7.67887
學	-7.68387
古	-7.6857
華	-7.68714
二年	-7.69724
濟	-7.69791
夫	-7.6989
騎	-7.69974
衣	-7.70016
每	-7.70036
羅	-7.7017
恩	-7.70708
獲	-7.70938
性	-7.71227
右	-7.71228
真	-7.71269
克	-7.71449
順	-7.71603
才	-7.71701
髙祖	-7.72135
厚	-7.72626
語	-7.72915
坐	-7.73015
嘗	-7.73051
一作	-7.74137
闕	-7.74253
燕	-7.74309
載	-7.74526
錢	-7.74878
路	-7.75127
貴	-7.7545
果	-7.75474
論	-7.7552
送	-7.75566
更	-7.75659
汝	-7.76114
寳	-7.76171
手	-7.76259
全	-7.76314
首	-7.76365
寶	-7.76518
於是	-7.76622
夏	-7.76858
/)	-7.76975
貢	-7.77107
左右	-7.77119
利	-7.77769
皇	-7.77814
臺	-7.78285
反	-7.78548
里	-7.7889
司	-7.79951
嗣	-7.79982
妻	-7.80066
陛下	-7.80162
疑	-7.8025
御	-7.80353
存	-7.80465
撫	-7.80544
集	-7.80547
容	-7.80734
寺	-7.80762
夷	-7.80805
林	-7.80964
美	-7.81053
敵	-7.81473
救	-7.81476
曰吾	-7.81536
玉	-7.81702
兩	-7.81812
福	-7.82228
恐	-7.8233
交	-7.82481
走	-7.82706
嘉	-7.83221
隨	-7.83726
川	-7.83803
願	-7.83991
仕	-7.8408
勢	-7.841
俱	-7.84216
誠	-7.84341
各	-7.84806
勝	-7.84936
理	-7.85156
月	-7.85266
特	-7.85287
尋	-7.85572
孝	-7.85581
往	-7.8572
皇帝	-7.85756
朱	-7.8601
冬十月	-7.86257
豈	-7.86352
退	-7.86373
詣	-7.86421
兼	-7.86736
連	-7.86935
滅	-7.87315
謝	-7.87588
胡	-7.87748
頭	-7.87845
被	-7.88109
備	-7.88137
河	-7.88302
頗	-7.88416
莫	-7.88617
屯	-7.88633
追	-7.88819
甲	-7.88983
𤣥	-7.89036
嚴	-7.89722
殺之	-7.89739
極	-7.90122
雅	-7.90799
推	-7.91002
動	-7.9103
紀	-7.91254
閩	-7.91337
洪	-7.91607
卷	-7.91711
器	-7.92077
夏四月	-7.92154
共	-7.9233
幸	-7.9234
靈	-7.92474
孤	-7.92717
春	-7.93414
不得	-7.93605
嵗	-7.93626
杜	-7.93767
著	-7.94212
别	-7.94307
罷	-7.94335
并	-7.94511
呉	-7.94847
署	-7.94869
解	-7.95066
衛	-7.9569
就	-7.95804
納	-7.95981
由	-7.96163
但	-7.96225
咸	-7.96291
援	-7.96392
室	-7.96657
隂	-7.96732
堂	-7.97215
輔	-7.97341
羣	-7.97399
畧	-7.97515
敢	-7.97568
彦	-7.97649
列	-7.98015
郭	-7.98144
附	-7.98301
變	-7.98876
儀	-7.98896
隆	-7.9896
兄	-7.98994
車	-7.99271
並	-7.9932
尚書	-7.99429
止	-7.99446
三月	-7.99598
惡	-7.99958
良	-8.00088
足	-8.00169
累	-8.00883
青	-8.01355
除	-8.01581
木	-8.01703
敬	-8.02247
教	-8.02255
葬	-8.02358
哉	-8.02509
酒	-8.02559
具	-8.02749
喜	-8.02779
顯	-8.02854
淮南	-8.03111
結	-8.03552
韓	-8.03715
仲	-8.03767
曜	-8.03993
勇	-8.04271
記	-8.04648
秋七月	-8.04794
勸	-8.05292
恭	-8.05367
負	-8.05395
紹	-8.05431
尊	-8.05558
愛	-8.06061
資	-8.06238
征	-8.0643
聰	-8.06636
離	-8.06665
職	-8.06679
伯	-8.06728
廢	-8.06823
仍	-8.06858
超	-8.07041
蠻	-8.07119
火	-8.07541
金陵	-8.0763
棄	-8.07807
目	-8.07942
待	-8.08167
孟	-8.08185
鄴	-8.08391
運	-8.0853
造	-8.08805
逆	-8.09496
比	-8.09658
伏	-8.09823
宴	-8.09862
省	-8.09863
顧	-8.09983
夢	-8.09985
即位	-8.10049
殷	-8.10085
泰	-8.10127
千	-8.10171
司馬	-8.10232
給	-8.10363
精	-8.10486
飛	-8.10493
邑	-8.10688
朕	-8.11063
慶	-8.11128
懐	-8.11191
魯	-8.11332
薨	-8.11403
便	-8.11425
江南	-8.11426
彼	-8.11428
姓	-8.11436
鄉	-8.11623
院	-8.11692
掠	-8.1189
持	-8.11934
長安	-8.1225
儒	-8.12482
要	-8.12539
收	-8.12646
族	-8.12795
機	-8.12801
四年	-8.12883
期	-8.13239
視	-8.1342
侍	-8.13434
郎	-8.13522
久	-8.13743
輕	-8.14082
智	-8.14131
務	-8.1435
録	-8.14629
對	-8.14642
妃	-8.14754
是月	-8.14916
池	-8.15023
象	-8.151
報	-8.15288
成都	-8.15642
客	-8.15711
至是	-8.15797
姚	-8.16025
約	-8.16196
而不	-8.16294
刑	-8.16463
尹	-8.16673
統	-8.16708
鄭	-8.16732
遊	-8.16891
哀	-8.16933
雨	-8.17074
諫	-8.17082
急	-8.17125
近	-8.17134
乘	-8.1735
强	-8.17395
害	-8.17648
大將軍	-8.17857
草	-8.18068
向	-8.18131
賦	-8.18309
市	-8.18541
舟	-8.18701
桓	-8.18783
典	-8.18801
危	-8.1903
充	-8.1929
樓	-8.19304
境	-8.19326
憂	-8.19365
壽	-8.19797
私	-8.19945
十二月	-8.20302
寵	-8.20501
康	-8.20911
散	-8.20997
貞	-8.21668
天子	-8.21679
勞	-8.21701
夫人	-8.21702
徒	-8.21925
忽	-8.21957
五年	-8.2206
英	-8.22264
冦	-8.22285
庭	-8.22482
病	-8.22503
簡	-8.22509
昔	-8.22621
佛	-8.22665
賀	-8.22718
百姓	-8.22776
二月	-8.22808
九月	-8.23006
羣臣	-8.23163
乞	-8.23286
尤	-8.23436
馳	-8.23688
彭	-8.23715
未幾	-8.24037
洛	-8.24062
夀	-8.24376
佐	-8.24687
諭	-8.24689
拒	-8.24822
曹	-8.24925
崔	-8.24959
監	-8.25172
農	-8.25411
䘚	-8.25687
避	-8.25694
感	-8.25738
已而	-8.25893
淮	-8.26757
軍節度使	-8.26849
略	-8.27155
達	-8.27249
彌	-8.27296
南唐	-8.27307
斯	-8.2753
患	-8.27548
按	-8.27551
六月	-8.27606
由是	-8.27625
釋	-8.2779
二十	-8.27803
户	-8.27841
竒	-8.27982
野	-8.28309
覺	-8.28471
廟	-8.28585
窮	-8.28809
不敢	-8.28825
禁	-8.28832
振	-8.28833
爵	-8.28884
秋	-8.29031
符	-8.29033
布	-8.29259
指	-8.29393
賞	-8.29416
勲	-8.29506
謙	-8.29558
屢	-8.29658
委	-8.29807
星	-8.3018
榮	-8.30196
聞之	-8.30296
子也	-8.30381
休	-8.304
乗	-8.30402
形	-8.30446
讓	-8.30492
萇	-8.30602
徴	-8.30685
率衆	-8.3074
太后	-8.30778
吳王	-8.30821
暴	-8.31025
末	-8.31189
耶	-8.31203
虜	-8.31238
隱	-8.31247
侵	-8.31285
陷	-8.31386
盧	-8.31516
殊	-8.31527
宻	-8.3188
刺史	-8.31987
祚	-8.32096
工	-8.32109
廷	-8.32716
魚	-8.33456
養	-8.33457
歴	-8.33464
免	-8.33804
禍	-8.34162
贈	-8.34506
副	-8.34618
如此	-8.34735
驚	-8.351
升	-8.35442
博	-8.35506
面	-8.35523
赴	-8.35744
移	-8.3592
鍾	-8.35963
花	-8.36022
一日	-8.36055
丁	-8.36078
従	-8.3614
五月	-8.36262
慕容	-8.36463
侍中	-8.3676
原	-8.37334
怨	-8.37402
遼	-8.37427
焚	-8.37455
先是	-8.37774
八月	-8.38063
戎	-8.38252
曰此	-8.38618
再	-8.38757
匡	-8.39098
忌	-8.39119
築	-8.39177
設	-8.39273
指揮使	-8.39383
弱	-8.39401
先主	-8.39538
之後	-8.39565
朝廷	-8.39617
情	-8.39705
是時	-8.39708
逼	-8.39726
都督	-8.39818
兄弟	-8.39823
烈	-8.40155
世子	-8.40187
兒	-8.40288
斷	-8.40307
選	-8.40358
曲	-8.40566
投	-8.40621
接	-8.40656
依	-8.41191
勿	-8.41488
施	-8.41789
說	-8.41832
飲	-8.41959
澤	-8.42118
䇿	-8.42431
猛	-8.42481
冠	-8.42555
歲	-8.42615
改元	-8.42901
高祖	-8.43153
季	-8.43796
吳越	-8.43982
落	-8.44006
招	-8.44193
亮	-8.44256
諸將	-8.44268
音	-8.44282
犯	-8.44555
朗	-8.44583
聽	-8.44606
牛	-8.44662
帛	-8.45034
扵	-8.45043
亭	-8.45136
傷	-8.45184
將兵	-8.45189
邪	-8.45193
呼	-8.45346
揚	-8.45453
震	-8.45749
樹	-8.46121
不從	-8.46323
督	-8.4661
大夫	-8.46827
助	-8.47043
案	-8.47079
洞	-8.47082
泉	-8.47154
畫	-8.47161
竊	-8.47337
戍	-8.47366
微	-8.47413
友	-8.47676
程	-8.47685
積	-8.47694
擢	-8.47742
淵	-8.47922
無所	-8.4794
謂之	-8.47979
翼	-8.48012
邦	-8.48327
京	-8.48391
偽	-8.48559
惠	-8.48574
松	-8.48671
述	-8.48687
喪	-8.4922
丘	-8.49242
徃	-8.49257
富	-8.49297
闗	-8.4936
不知	-8.49408
襄	-8.49512
穆	-8.49888
橋	-8.49996
息	-8.50252
説	-8.50286
辟	-8.50307
幽	-8.50445
考	-8.50605
狀	-8.50632
從之	-8.50827
專	-8.50907
契丹	-8.50973
黨	-8.51221
㫖	-8.51222
䝉	-8.51232
覆	-8.51235
斬之	-8.51538
湖	-8.51798
聚	-8.51846
苦	-8.51851
屈	-8.51916
其子	-8.5217
十一月	-8.52253
都指揮使	-8.52449
霸	-8.5258
京師	-8.52751
俗	-8.52872
轉	-8.52961
識	-8.53125
纂	-8.53218
世祖	-8.53584
爭	-8.53912
歌	-8.53968
慮	-8.54284
毛	-8.54303
裕	-8.5436
示	-8.54508
潰	-8.54553
之地	-8.54607
鳳	-8.54657
司徒	-8.54701
適	-8.54955
冲	-8.54957
閣	-8.54992
安南	-8.55165
冬	-8.55267
體	-8.55284
谷	-8.55464
他	-8.55556
宿	-8.55617
懿	-8.55652
庶	-8.55705
雍	-8.55727
沈	-8.55967
申	-8.55972
欽定四庫全書	-8.55979
禹	-8.5599
太尉	-8.56121
茂	-8.56204
肅	-8.56208
虚	-8.56284
懷	-8.56353
赤	-8.5637
香	-8.56375
敏	-8.56375
訓	-8.56605
寛	-8.56696
籍	-8.56753
假	-8.56803
茍	-8.57005
福州	-8.57174
責	-8.57195
而還	-8.57376
劍	-8.57415
洛陽	-8.57524
竟	-8.57642
翰	-8.57673
糧	-8.58112
丹	-8.58386
暉	-8.58405
戸	-8.58481
校	-8.58598
支	-8.58801
術	-8.58813
關	-8.58856
步	-8.58992
尺	-8.59048
邊	-8.59179
優	-8.59536
希	-8.59679
帶	-8.59916
劒	-8.60245
索	-8.6026
璋	-8.60575
决	-8.60609
藏	-8.60615
句	-8.60651
公主	-8.60899
井	-8.60925
紫	-8.60962
險	-8.60988
越王	-8.61028
陸	-8.61241
六年	-8.61286
空	-8.61337
預	-8.61339
潛	-8.61346
皝	-8.61717
種	-8.61726
武肅王	-8.61961
段	-8.61978
葢	-8.62075
澄	-8.62354
勤	-8.62428
珠	-8.62433
錄	-8.62737
䘮	-8.62796
弗	-8.63127
念	-8.63209
春秋	-8.63244
密	-8.63409
吉	-8.63605
戒	-8.63869
恒	-8.63893
祀	-8.63898
傾	-8.63924
遵	-8.64034
五千	-8.64068
大敗	-8.64163
對曰	-8.64169
畏	-8.64682
丈	-8.64975
竹	-8.65047
舍	-8.65252
珍	-8.65417
渡	-8.65499
烏	-8.65818
沙	-8.65948
自稱	-8.65975
朔	-8.6598
諸軍	-8.66085
憲	-8.66103
副使	-8.66203
隠	-8.66221
諱	-8.66226
豪	-8.6659
叔	-8.66707
勅	-8.66934
十年	-8.66954
允	-8.66964
吴	-8.67076
縱	-8.67076
切	-8.67317
薦	-8.67375
牙	-8.67383
司空	-8.67427
士卒	-8.67434
而已	-8.6752
錦	-8.677
須	-8.67755
巖	-8.6776
衞	-8.68057
基	-8.68147
溪	-8.68156
衡	-8.68334
黎	-8.68352
太宗	-8.68371
射	-8.68386
壁	-8.68469
秋八月	-8.68572
恨	-8.68609
討之	-8.68848
辰	-8.6888
董	-8.68885
詞	-8.68958
輙	-8.68966
虞	-8.68975
幼	-8.69311
冀	-8.69657
壘	-8.69717
豐	-8.69737
奪	-8.69931
輿	-8.70062
知誥	-8.70136
不許	-8.70457
所以	-8.70701
苑	-8.70843
違	-8.70925
端	-8.70931
况	-8.70935
逃	-8.70946
赦	-8.71101
銀	-8.71148
傉檀	-8.71335
津	-8.71349
文武	-8.71623
干	-8.71695
漸	-8.71735
賈	-8.7174
總	-8.71756
秀	-8.71765
丞相	-8.71889
藩	-8.71931
不足	-8.72097
謹	-8.72116
仰	-8.72144
背	-8.72192
可以	-8.72343
擒	-8.72454
䝉遜	-8.72507
掌	-8.72544
逐	-8.72565
旦	-8.7268
麗	-8.72859
羽	-8.72919
鄧	-8.72963
鼓	-8.73006
宏	-8.73233
王命	-8.73322
建州	-8.73471
巨	-8.73756
嵩	-8.73766
半	-8.73818
放	-8.73828
質	-8.74098
班	-8.74108
熙	-8.74228
哭	-8.74597
𩔖	-8.74654
參	-8.74756
辛	-8.74767
詳	-8.7491
社稷	-8.75053
十二	-8.75148
五十	-8.75215
喬	-8.75348
厯	-8.75442
拔	-8.75478
来	-8.75495
駕	-8.7581
諸侯	-8.7625
範	-8.76317
軌	-8.76329
巴	-8.76347
源	-8.76655
踰	-8.7671
獄	-8.76731
錫	-8.76964
将軍	-8.76996
死者	-8.77085
血	-8.771
蘭	-8.77144
之事	-8.77465
牧	-8.77584
倉	-8.77626
泣	-8.78023
輒	-8.78043
冊	-8.78077
七年	-8.78211
疆	-8.78394
財	-8.78406
早	-8.78408
十六國春秋卷	-8.78415
唯	-8.78435
㧞	-8.78476
潘	-8.78484
乾	-8.78808
荒	-8.78858
寒	-8.78911
同平章事	-8.78976
審	-8.79196
薄	-8.79265
融	-8.79278
蔡	-8.79292
誰	-8.7933
蘇	-8.7969
擊之	-8.80058
仙	-8.80098
躬	-8.80188
泓	-8.8019
館	-8.80222
大王	-8.80246
三萬	-8.80386
宇	-8.80435
而去	-8.80573
弼	-8.80579
熈	-8.80588
藥	-8.80648
知其	-8.80658
丕	-8.80717
吕	-8.80872
男	-8.80999
雪	-8.81076
二萬	-8.81081
皇后	-8.81108
慎	-8.8111
祐	-8.81136
知祥	-8.81279
嶺	-8.81486
費	-8.81524
子胥	-8.81532
察	-8.8192
十國春秋卷	-8.81982
滿	-8.8202
閔	-8.82319
刺	-8.82352
衍	-8.82394
銅	-8.82416
然後	-8.82424
供	-8.82428
笑	-8.82434
暐	-8.82501
恪	-8.82745
醉	-8.82865
馮	-8.82868
所殺	-8.83109
尚書令	-8.83237
數千	-8.83376
袁	-8.83452
四十	-8.83454
俊	-8.83566
國家	-8.83581
内外	-8.83592
八年	-8.83653
判	-8.83689
國人	-8.83745
船	-8.83752
習	-8.83798
薛	-8.83847
夏五月	-8.83867
徵	-8.84318
三十	-8.84338
明年	-8.84507
岳	-8.84592
規	-8.84636
阿	-8.84682
辱	-8.84709
速	-8.84711
角	-8.84752
奮	-8.84766
羊	-8.85134
謁	-8.85145
撰	-8.8517
墓	-8.85182
慈	-8.85204
許之	-8.85249
以爲	-8.8551
曰今	-8.85516
鼎	-8.85637
試	-8.85676
既而	-8.85895
幾	-8.86041
塞	-8.86041
遜	-8.8655
俟	-8.8656
品	-8.86582
量	-8.86584
補	-8.86601
序	-8.86608
遽	-8.86612
諸子	-8.86654
瑞	-8.87061
阮	-8.87101
健	-8.87176
陶	-8.87465
中原	-8.87511
戮	-8.8756
僚	-8.87739
齊丘	-8.87911
寇	-8.87956
忘	-8.88336
祭	-8.88413
奴	-8.88458
廆	-8.88458
顔	-8.88471
岐	-8.88502
貶	-8.88527
五百	-8.88601
徽	-8.88678
三千	-8.88721
儁	-8.88806
丗	-8.89011
巳	-8.89199
中山	-8.89361
遐	-8.89372
父子	-8.89379
候	-8.89415
維	-8.89429
湯	-8.89467
頵	-8.89475
誓	-8.89492
自是	-8.89711
荆南	-8.89735
留後	-8.89852
鐵	-8.89908
龜	-8.89911
鑒	-8.89912
蓋	-8.89921
役	-8.89938
荆	-8.90128
歩	-8.90252
畢	-8.90425
愚	-8.90426
是嵗	-8.90444
子孫	-8.90516
使者	-8.90828
貪	-8.90909
格	-8.90911
太傅	-8.90961
䖍	-8.91183
晟	-8.91258
引兵	-8.91322
宣州	-8.91384
悲	-8.91387
衰	-8.91418
麟	-8.9147
雷	-8.91485
旅	-8.91627
政事	-8.91689
俄	-8.91786
壯	-8.91792
桑	-8.91804
曰臣	-8.9184
賔	-8.91878
寸	-8.91881
大怒	-8.92087
配	-8.92354
今日	-8.92665
晏	-8.92846
悟	-8.92886
覽	-8.92894
𨽻	-8.92928
寢	-8.93326
陣	-8.93397
冬十一月	-8.93446
言於	-8.93586
州牧	-8.93712
不如	-8.93873
輩	-8.93892
不克	-8.93914
妾	-8.93914
困	-8.9392
不復	-8.93943
愈	-8.93946
傑	-8.93948
將士	-8.93995
庫	-8.94104
毅	-8.94388
慰	-8.94396
趨	-8.94408
囚	-8.94429
帥衆	-8.94433
久之	-8.94505
廣陵	-8.94707
屋	-8.9487
折	-8.94873
長史	-8.94905
中書令	-8.94911
蕩	-8.94954
十萬	-8.95065
眀	-8.95335
偏	-8.9541
數萬	-8.9541
米	-8.95428
横	-8.9544
夕	-8.95592
浮	-8.9593
國之	-8.95945
誤	-8.95951
驛	-8.95961
保大	-8.96006
印	-8.96012
十三	-8.96082
節度	-8.96402
盟	-8.96447
戲	-8.9645
雜	-8.96464
岸	-8.96473
使人	-8.965
寜	-8.96508
毁	-8.96516
筆	-8.96519
范	-8.96811
拒之	-8.96814
所敗	-8.96887
入朝	-8.97126
城中	-8.97243
祠	-8.97305
稍	-8.97447
骨	-8.97474
鮮卑	-8.97477
恃	-8.97515
趣	-8.97529
側	-8.97585
逰	-8.97969
之心	-8.98063
調	-8.98067
裔	-8.98589
氐	-8.98611
一人	-8.98635
至於	-8.98724
之所	-8.98838
上書	-8.98944
鳯	-8.99035
貫	-8.99053
饑	-8.99109
商	-8.99124
到	-8.99134
撃	-8.99589
仇	-8.99589
弑	-8.99598
校尉	-8.99609
操	-8.99626
斤	-8.99654
蕭	-8.99656
贊	-8.99684
婦	-8.99853
一百	-8.99979
勃勃	-9.00108
皮	-9.00127
兆	-9.00128
騰	-9.00158
殘	-9.0019
環	-9.00217
大都督	-9.00238
潤州	-9.00515
割	-9.00621
鎬	-9.00642
懸	-9.00694
庸	-9.00695
予	-9.00701
燒	-9.00702
苻	-9.00994
莫不	-9.01123
阻	-9.01205
詐	-9.01215
崩	-9.01216
驕	-9.01219
杖	-9.0122
界	-9.01252
數百	-9.01273
今從	-9.01392
何以	-9.01447
宰相	-9.01496
波	-9.0176
漢中	-9.01794
没	-9.01799
儼	-9.0186
太原	-9.01887
續	-9.02285
姦	-9.02339
刻	-9.02367
乆	-9.02614
元帥	-9.02687
己	-9.02701
託	-9.02872
韋	-9.0288
儉	-9.02881
欽	-9.02892
仗	-9.02946
逵	-9.02999
寡	-9.03019
三日	-9.0307
十五	-9.03327
姑	-9.03419
産	-9.03452
園	-9.03479
舎	-9.03487
交阯	-9.03516
乙	-9.03919
彬	-9.03936
擅	-9.03997
弓	-9.04001
歳	-9.04003
悔	-9.04006
逸	-9.04027
脩	-9.0403
汴	-9.0403
碑	-9.04086
逹	-9.04365
又遣	-9.044
鹽	-9.04531
人皆	-9.04546
游	-9.04559
返	-9.04576
辨	-9.04588
殂	-9.04593
世宗	-9.04621
貧	-9.04829
尉	-9.04835
效	-9.05008
不及	-9.05045
羗	-9.05124
創	-9.0514
𫝊	-9.05175
貨	-9.05187
十八	-9.05506
僭	-9.05665
廵	-9.05707
藝	-9.05737
篇	-9.05743
郡縣	-9.05774
學士	-9.05884
遁	-9.06027
根	-9.06203
甘	-9.06217
誦	-9.06236
純	-9.0625
房	-9.06256
柔	-9.06274
交州	-9.06318
鉉	-9.06396
郊	-9.06618
扶	-9.06761
潮	-9.06802
諌	-9.06811
却	-9.0685
敦	-9.06869
談	-9.06898
啟	-9.06912
大臣	-9.0694
萬餘	-9.07087
駿	-9.07314
周師	-9.07374
靡	-9.07414
刀	-9.07429
循	-9.07484
凉	-9.07569
而死	-9.07599
列傳	-9.07696
俘	-9.07727
裴	-9.07934
散騎常侍	-9.0803
䧟	-9.08055
乾歸	-9.08336
羌	-9.08515
評	-9.08568
㓜	-9.0859
沉	-9.08593
厲	-9.0861
損	-9.08615
國主	-9.0865
知訓	-9.08786
績	-9.08871
曰汝	-9.0896
苐	-9.09129
進攻	-9.09387
湖南	-9.09491
之間	-9.09548
豫	-9.09577
禄	-9.09678
奕	-9.09733
慕	-9.09742
緯	-9.09774
謨	-9.09807
諡	-9.09865
齊王	-9.09881
涼	-9.09907
其言	-9.09968
一時	-9.10065
所在	-9.10069
九年	-9.10148
𥘉	-9.10363
回	-9.10402
為人	-9.10498
之衆	-9.10657
其後	-9.10726
故事	-9.10762
頃	-9.10836
管	-9.10869
啓	-9.1094
賴	-9.10981
伊	-9.10997
嗣主	-9.11292
禪	-9.11332
諸軍事	-9.11433
倫	-9.11482
盗	-9.11533
奈何	-9.11574
憤	-9.11579
詰	-9.11591
旁	-9.11615
靖	-9.11639
二千	-9.11772
三百	-9.11788
曰我	-9.12172
王師	-9.12194
李氏	-9.12206
編	-9.12242
判官	-9.12404
條	-9.1255
二人	-9.12595
天錫	-9.12985
禦	-9.13101
憚	-9.13349
䟦	-9.13367
瞻	-9.1337
普	-9.13391
鎭	-9.13405
妙	-9.13415
肆	-9.13431
冬十二月	-9.13488
肉	-9.13496
百餘	-9.13505
廣漢	-9.13628
孔	-9.13778
功臣	-9.13817
殆	-9.13884
繁	-9.14039
惜	-9.14045
翰林學士	-9.14051
募	-9.14076
有司	-9.14146
中外	-9.14171
千里	-9.14194
千餘人	-9.14223
聘	-9.14253
恵	-9.14566
級	-9.14613
台	-9.14637
尾	-9.14639
否	-9.1464
童	-9.14647
諡曰	-9.1477
廬	-9.14954
宰	-9.14965
不受	-9.1507
有功	-9.15151
剛	-9.15201
提	-9.15222
綱	-9.15222
瑾	-9.15266
來降	-9.15274
盖	-9.1529
其衆	-9.15335
徑	-9.15366
百官	-9.15667
歎曰	-9.15679
未嘗	-9.15737
瓊	-9.15777
其所	-9.15864
卜	-9.15883
之罪	-9.1592
宋齊丘	-9.15977
昇	-9.1603
隴	-9.16231
數十	-9.16304
不聽	-9.16383
幹	-9.16448
綂	-9.16491
盜	-9.16557
新羅	-9.16646
未㡬	-9.16673
建康	-9.1675
曰昔	-9.16768
竭	-9.17136
旋	-9.17143
什	-9.17144
防	-9.17162
匹	-9.17163
削	-9.17183
孰	-9.17186
戴	-9.17188
夏六月	-9.17269
天地	-9.17333
戰於	-9.1748
遂以	-9.17631
律	-9.17784
効	-9.17799
又有	-9.17802
誘	-9.17824
絳	-9.1789
也今	-9.18072
在位	-9.18185
凶	-9.18414
筠	-9.18422
惑	-9.18432
起兵	-9.18442
階	-9.18472
鳴	-9.18499
之功	-9.18658
胥	-9.18767
顥	-9.19021
宅	-9.1907
中國	-9.19116
輸	-9.19123
強	-9.19127
式	-9.19132
驤	-9.19155
暠	-9.19613
誅之	-9.19623
策	-9.19706
榖	-9.19714
柱	-9.19741
妖	-9.19766
付	-9.19773
恢	-9.19777
秋九月	-9.19873
石虎	-9.19885
左僕射	-9.19896
郡公	-9.20198
鳥	-9.20396
席	-9.20403
講	-9.20416
貌	-9.20423
盤	-9.20428
鑄	-9.20448
天福	-9.20543
歎	-9.20597
攻之	-9.2082
占	-9.20838
莊	-9.20903
鬼	-9.2099
決	-9.21035
韜	-9.21039
照	-9.21062
寨	-9.21092
妄	-9.21092
題	-9.21102
通鑑	-9.21111
鏐	-9.21128
濬	-9.21195
長沙	-9.21302
殿下	-9.21338
好學	-9.21346
丞	-9.21395
以其	-9.21442
乃以	-9.21509
大破之	-9.21528
㡬	-9.21592
璽	-9.21635
貽	-9.2171
露	-9.21712
沒	-9.2172
擾	-9.21733
争	-9.21739
十一年	-9.21757
葉	-9.21782
答	-9.21947
洪州	-9.22117
河南	-9.22133
閉	-9.22276
祥	-9.22309
從事	-9.2234
宮	-9.22359
寅	-9.22376
采	-9.22385
蒲	-9.22388
飾	-9.22393
四方	-9.22394
細	-9.22395
秉	-9.22403
栁	-9.22422
亟	-9.2243
似	-9.22441
邵	-9.22447
伍	-9.22461
太師	-9.22572
王子	-9.2261
以來	-9.22639
隴西	-9.2267
姑臧	-9.22675
無不	-9.229
旬	-9.22928
稽	-9.22978
軍中	-9.23005
擇	-9.23027
傅	-9.23051
誣	-9.23103
浩	-9.23149
西平	-9.23206
者皆	-9.23405
時人	-9.2344
數年	-9.23473
如故	-9.23582
鹿	-9.23658
江陵	-9.2367
進士	-9.23696
攝	-9.23706
姜	-9.23728
隣	-9.23744
毎	-9.23746
四海	-9.23783
文穆王	-9.23806
紅	-9.23839
君子	-9.24029
二百	-9.24261
洎	-9.24267
昶	-9.24416
導	-9.24426
粲	-9.24431
千餘	-9.24452
昏	-9.24457
衝	-9.24464
娶	-9.24486
其事	-9.24527
一云	-9.24933
論曰	-9.2502
材	-9.25096
履	-9.25123
曽	-9.25124
抗	-9.25143
雙	-9.2519
捕	-9.25194
自立	-9.25394
饒	-9.25398
悦	-9.25463
驅	-9.25629
暮	-9.25826
衙	-9.25875
亷	-9.25903
䜟	-9.25914
公卿	-9.25969
作亂	-9.26072
衛將軍	-9.26079
州人	-9.26105
賓	-9.26463
兹	-9.26508
褒	-9.26515
之言	-9.26522
恣	-9.26541
短	-9.26578
雞	-9.26584
乂	-9.26588
忠懿王	-9.26593
卧	-9.26615
子弟	-9.26808
革	-9.27006
天祐	-9.2707
河東	-9.27077
擁	-9.27156
塵	-9.27211
㱕	-9.27215
髪	-9.27222
厥	-9.27231
戈	-9.27249
匿	-9.27267
災	-9.27276
翁	-9.27279
熾磐	-9.2732
七十	-9.27418
救之	-9.27526
大司馬	-9.27843
味	-9.27882
乃止	-9.27914
尸	-9.27924
巡	-9.27979
十餘	-9.28054
安定	-9.28112
食邑	-9.28118
太平	-9.2823
君臣	-9.28354
益州	-9.28603
諷	-9.28604
之禮	-9.28609
繫	-9.2864
虛	-9.28657
晝	-9.28667
像	-9.2867
姿	-9.28683
䕶	-9.2876
率騎	-9.29004
忍	-9.29007
十六	-9.29239
渠	-9.29376
屠	-9.29382
最	-9.29393
彭城	-9.29468
我師	-9.29686
常州	-9.29765
為太子	-9.2979
十月	-9.29885
平章事	-9.29964
綰	-9.30085
托	-9.30088
整	-9.30116
掩	-9.30132
墜	-9.30154
長子	-9.30215
譚	-9.30243
嗣位	-9.30337
累遷	-9.30358
號曰	-9.30528
疏	-9.30593
先帝	-9.30688
舉兵	-9.30703
旱	-9.30777
午	-9.30778
峻	-9.30785
王氏	-9.30815
俾	-9.30826
不見	-9.3089
建武	-9.30904
景遂	-9.31149
妻子	-9.3127
先王	-9.31319
五萬	-9.31376
檄	-9.31557
虐	-9.31572
僕	-9.31585
黃	-9.31599
主簿	-9.31687
其弟	-9.3185
惡之	-9.31877
大軍	-9.31921
參軍	-9.32096
西川	-9.32153
右僕射	-9.32229
齊邱	-9.32239
斗	-9.32308
旗	-9.32318
注	-9.32326
属	-9.32327
浦	-9.32338
賛	-9.32343
之亂	-9.32487
數日	-9.32579
十里	-9.32623
而歸	-9.3284
僣	-9.32963
獵	-9.33044
敗績	-9.33051
痛	-9.33117
兮	-9.33127
陳覺	-9.3334
先生	-9.33383
駢	-9.33668
城下	-9.33761
荷	-9.33809
黒	-9.33822
怪	-9.33832
南漢	-9.33849
七月	-9.33991
平陽	-9.34019
萬人	-9.3404
百餘人	-9.34422
義祖	-9.34447
延政	-9.34474
穀	-9.34551
練	-9.34565
竝	-9.34597
十二年	-9.34618
于是	-9.34741
於此	-9.34762
十四	-9.34877
父母	-9.34932
遼東	-9.35148
馬氏	-9.35201
緒	-9.35294
㣲	-9.35295
淫	-9.35322
煩	-9.35345
檢	-9.35361
弊	-9.3537
耕	-9.3538
浚	-9.35411
之志	-9.35464
以下	-9.3553
泉州	-9.3559
四月	-9.35644
者也	-9.35904
所謂	-9.35946
蒙	-9.36032
蒙遜	-9.36054
矢	-9.36064
頓	-9.36068
享	-9.3607
遥	-9.3609
秘	-9.36094
姬	-9.36099
覇	-9.3613
曉	-9.36131
禽	-9.36139
舞	-9.36149
均	-9.36151
明日	-9.363
▁(	-9.36385
其地	-9.36486
國公	-9.36499
黙	-9.36732
之意	-9.36754
毒	-9.36858
旌	-9.36861
歡	-9.36867
賂	-9.36909
塔	-9.36918
邉	-9.3693
應之	-9.36979
王以	-9.36987
曰卿	-9.37025
差	-9.37114
是以	-9.37341
碩	-9.37548
溫	-9.37569
戚	-9.37617
偉	-9.37629
夾	-9.37651
静	-9.37668
排	-9.37702
偃	-9.37714
武穆王	-9.37739
壇	-9.37739
楊氏	-9.37797
行營	-9.3803
昇元	-9.38224
不為	-9.38239
秦州	-9.38301
膺	-9.38303
東南	-9.38336
湘	-9.38389
詠	-9.38391
盈	-9.38426
雋	-9.38463
都虞候	-9.38469
渭	-9.38493
舒	-9.3858
六十	-9.38586
宋太祖	-9.38846
聖人	-9.38901
内史	-9.3907
大赦	-9.39125
卑	-9.39191
塗	-9.39198
欵	-9.39206
獸	-9.39226
狂	-9.39239
汗	-9.39245
前蜀	-9.39397
其家	-9.39409
諫曰	-9.39444
上疏	-9.39461
潤	-9.39512
上表	-9.39584
十一	-9.39695
吴越	-9.39754
東川	-9.39959
廣政	-9.39965
黜	-9.39986
祗	-9.40022
某	-9.40032
圗	-9.40037
勉	-9.40041
弘	-9.40041
五代史	-9.401
鄙	-9.40133
都監	-9.40425
睦	-9.40447
武王	-9.40506
世家	-9.40578
鄰	-9.4085
斛	-9.4086
歛	-9.40862
犀	-9.40863
舜	-9.40879
呉越	-9.41117
不勝	-9.41351
二子	-9.41504
贇	-9.41505
累官	-9.4151
抑	-9.41615
誕	-9.41665
叟	-9.41665
銘	-9.41667
介	-9.41673
鎮南	-9.41706
太常	-9.41718
彰	-9.41724
篤	-9.4183
俄而	-9.41975
十餘人	-9.42037
軍使	-9.42308
中郎將	-9.42433
皓	-9.42483
酷	-9.42511
□	-9.42514
墨	-9.42547
部郎中	-9.42553
奉表	-9.42908
部落	-9.42932
境内	-9.42963
行密	-9.43045
恤	-9.43251
復遣	-9.43253
隔	-9.4328
植	-9.43285
叙	-9.43304
科	-9.43315
叚	-9.43317
陰	-9.43337
元年春正月	-9.4334
銜	-9.43343
入貢	-9.43437
曰君	-9.43481
待之	-9.43589
南安	-9.43848
必有	-9.43887
二年春正月	-9.43902
宫中	-9.43933
之士	-9.43962
取之	-9.44019
是日	-9.44048
鐸	-9.44058
朴	-9.44085
肇	-9.44095
鮮	-9.44112
麻	-9.44122
翟	-9.44125
斥	-9.44151
倍	-9.44164
犬	-9.44189
涪	-9.44221
亦不	-9.44403
二州	-9.44591
鋒	-9.44671
東海	-9.44871
乏	-9.44985
屏	-9.44985
奢	-9.44987
住	-9.4499
球	-9.45008
韶	-9.45011
未可	-9.45015
都尉	-9.45186
等皆	-9.45317
太保	-9.45377
巴西	-9.45389
誨	-9.45424
見之	-9.4548
開國	-9.45622
以待	-9.45634
有大	-9.45741
恥	-9.4578
矩	-9.45781
披	-9.45815
耀	-9.45823
遭	-9.45828
勁	-9.45847
郁	-9.4585
矯	-9.45865
縁	-9.45916
揚州	-9.45942
輔政	-9.46127
兼中書令	-9.46138
宋帝	-9.46197
鋭	-9.46534
我兵	-9.46615
何如	-9.46628
鍇	-9.46643
軰	-9.46655
驗	-9.4666
賣	-9.46681
正月	-9.46682
潭	-9.46802
侍郎	-9.46869
堪	-9.46928
萬餘人	-9.46937
百里	-9.46961
乃遣	-9.46962
非常	-9.46971
破之	-9.47229
南詔	-9.47411
混	-9.47476
鐡	-9.47477
綏	-9.47508
牢	-9.47518
増	-9.47532
𦍑	-9.47534
粟	-9.47545
旣	-9.47554
漳	-9.4757
知詢	-9.4758
寄	-9.47581
貳	-9.47595
搆	-9.47598
蛇	-9.47612
乾徳	-9.47746
尚書郎	-9.47747
杭州	-9.47772
入城	-9.47881
十九	-9.47941
有差	-9.48118
大将軍	-9.4827
僕射	-9.48326
賤	-9.48367
與之	-9.48378
十七	-9.4838
溺	-9.48427
范蠡	-9.48469
迹	-9.48471
忠臣	-9.48481
莊宗	-9.48513
郎中	-9.48785
謚曰	-9.48849
曾	-9.49042
逢	-9.49045
𦙍	-9.49227
佑	-9.49236
眉	-9.49265
伺	-9.49268
拱	-9.49302
囘	-9.49349
枝	-9.49353
可謂	-9.49373
不過	-9.49409
金銀	-9.49537
未有	-9.49563
開寳	-9.49603
道士	-9.49722
字子	-9.49818
仁贍	-9.49853
前後	-9.49889
十三年	-9.49918
劉氏	-9.49925
而出	-9.50154
樊	-9.50161
狄	-9.50171
庠	-9.50207
慧	-9.50211
秩	-9.50223
梓潼	-9.50251
閻	-9.50273
富貴	-9.50356
十餘萬	-9.50422
有一	-9.50511
一萬	-9.5059
宋師	-9.5079
又以	-9.50954
訪	-9.51083
佞	-9.51083
渥	-9.51119
儲	-9.51121
洪進	-9.5123
西北	-9.5151
燉煌	-9.5185
幕	-9.51871
中有	-9.51878
競	-9.51895
藉	-9.51935
含	-9.51964
鼔	-9.51977
聴	-9.52027
文進	-9.52051
為左	-9.52068
溥	-9.52077
冡	-9.52159
宗廟	-9.52256
秦王	-9.52319
之義	-9.52557
東西	-9.52577
瓘	-9.52726
穴	-9.52847
採	-9.52849
翔	-9.52852
製	-9.52863
鴻	-9.52895
厭	-9.52896
畜	-9.52901
軍士	-9.52909
員外郎	-9.52933
京兆	-9.52952
有所	-9.53014
弟也	-9.53067
上下	-9.53084
招討使	-9.53096
博士	-9.53214
延魯	-9.53223
王曰	-9.53445
諸郡	-9.53568
讀	-9.53577
斌	-9.5362
至元	-9.53648
漁	-9.53708
奸	-9.53737
時有	-9.53784
駭	-9.53812
追之	-9.53834
釁	-9.53843
淳	-9.53848
龔	-9.53868
兵攻	-9.53934
之時	-9.54093
一千	-9.54277
率兵	-9.54284
南陽	-9.54304
邀	-9.54326
以兵	-9.54531
州郡	-9.54545
國亡	-9.54574
鈞	-9.54584
沮	-9.54646
嶷	-9.54666
銳	-9.54681
艾	-9.54682
矜	-9.5469
類	-9.54699
婢	-9.54714
遂與	-9.54736
絹	-9.5474
抱	-9.54764
文徽	-9.55098
欲以	-9.55132
乞師	-9.5518
之道	-9.55312
襄國	-9.55525
泥	-9.55547
帳	-9.55551
中書侍郎	-9.55612
增	-9.55636
喻	-9.55653
抵	-9.55674
摧	-9.55676
凌	-9.55699
歙	-9.55716
頼	-9.55718
臂	-9.55729
聞而	-9.55939
曰朕	-9.56177
龍城	-9.56227
一旦	-9.56299
諸道	-9.56466
演	-9.56568
歆	-9.56587
長樂	-9.56603
册	-9.56604
證	-9.56611
稚	-9.56646
出入	-9.56693
沖	-9.56721
濛	-9.56824
而卒	-9.56935
染	-9.575
建元	-9.57505
構	-9.57524
薊	-9.57526
叱	-9.5753
黑	-9.57532
奄	-9.57536
忿	-9.5754
唱	-9.57548
王薨	-9.57553
晉陽	-9.57557
視之	-9.57558
歐陽	-9.57559
行軍司馬	-9.57574
潜	-9.57575
珪	-9.57577
豹	-9.57578
堯	-9.5762
流涕	-9.57626
熟	-9.57632
鶴	-9.57636
州團練使	-9.57695
浙	-9.5783
而無	-9.5799
天水	-9.58088
江州	-9.58189
以此	-9.58207
自殺	-9.58325
王遣	-9.58375
蒼	-9.5842
涉	-9.58486
愧	-9.58508
甫	-9.58537
育	-9.5854
峯	-9.58545
弩	-9.58559
歷	-9.5856
社	-9.58584
從子	-9.5863
如是	-9.58693
至于	-9.58844
十有	-9.58869
單	-9.58951
不忍	-9.59003
監軍	-9.59133
靜	-9.59357
訴	-9.59399
播	-9.59435
擬	-9.59438
逾	-9.59446
爰	-9.59482
驍	-9.59484
晋	-9.59502
巧	-9.59531
嶽	-9.59536
代之	-9.5954
寫	-9.5958
勾踐	-9.59583
姚萇	-9.59589
酒泉	-9.59593
苻堅	-9.59629
來奔	-9.59721
其黨	-9.60085
萬里	-9.60172
天下之	-9.60199
舅	-9.6042
突	-9.60459
束	-9.60487
渾	-9.60495
恕	-9.60519
璧	-9.6052
稜	-9.60536
玄	-9.60537
其罪	-9.60613
郡太守	-9.6067
弟子	-9.60759
百濟	-9.60817
水陸	-9.60829
郡王	-9.60832
之際	-9.60902
發兵	-9.611
蜀郡	-9.61368
闗中	-9.61377
齒	-9.61395
禾	-9.61437
朗州	-9.61438
江西	-9.61441
圭	-9.61457
尼	-9.61458
汾	-9.61464
固守	-9.61464
既至	-9.61464
㨗	-9.61467
用事	-9.61476
契	-9.61485
進封	-9.61486
綿	-9.6151
碧	-9.61516
攀	-9.61531
巫	-9.61539
江淮	-9.61805
是歲	-9.61928
叔父	-9.62118
主上	-9.62131
名曰	-9.62399
大事	-9.62402
亦有	-9.62404
受命	-9.6241
柴	-9.6241
躍	-9.62439
齎	-9.62441
倒	-9.62456
茶	-9.62474
倚	-9.62489
河西	-9.62506
妹	-9.62535
寢疾	-9.62552
徐鉉	-9.62554
㑹稽	-9.62584
乃命	-9.62588
金帛	-9.62851
燕王	-9.62918
文章	-9.62928
又云	-9.63058
悅	-9.63088
請降	-9.63285
羲	-9.63342
當時	-9.63392
上邽	-9.63415
區	-9.6342
鑿	-9.63453
専	-9.63458
激	-9.63477
挾	-9.6349
䕫	-9.63493
員	-9.63528
遲	-9.63529
十五年	-9.63677
及其	-9.63894
不知所	-9.63943
固辭	-9.63949
不納	-9.63961
重華	-9.64022
護	-9.64244
足以	-9.64297
見其	-9.6433
覩	-9.6444
頴	-9.6445
裂	-9.64475
是也	-9.64527
敕	-9.64538
莭度使	-9.64627
已又	-9.64724
年七十	-9.6475
也乃	-9.6479
公孫	-9.64793
謂之曰	-9.64862
永昌	-9.65031
神福	-9.65089
大懼	-9.65427
愍	-9.65439
刃	-9.65446
承制	-9.65463
捨	-9.65469
邃	-9.65485
彊	-9.65486
讒	-9.65494
棺	-9.65512
輪	-9.65519
幽州	-9.6553
掌書記	-9.65535
毋	-9.65536
曺	-9.65561
併	-9.65562
脱	-9.65572
峽	-9.65579
宋齊邱	-9.65658
繼勲	-9.65775
廬州	-9.65787
去縣	-9.65897
之命	-9.65993
明公	-9.6617
以自	-9.66171
門下	-9.66238
王猛	-9.66468
燭	-9.66523
脫	-9.66561
裁	-9.66578
鞭	-9.6658
慙	-9.66581
租	-9.66592
阜	-9.66606
遠	-9.66635
周世宗	-9.66762
伏誅	-9.66806
蘇州	-9.6682
其餘	-9.66881
頃之	-9.66919
嗣慶	-9.66983
謚	-9.67013
送之	-9.67028
從弟	-9.67076
諸将	-9.67479
例	-9.6754
唐主	-9.67544
掃	-9.67548
刼	-9.67558
戦	-9.6758
訖	-9.67583
頻	-9.67583
座	-9.67608
焦	-9.67622
吹	-9.67649
場	-9.67649
寡人	-9.67661
瑶	-9.67672
節度副使	-9.67681
芳	-9.67685
日月	-9.67774
兼侍中	-9.67794
武帝	-9.6784
相國	-9.68012
域	-9.68226
得其	-9.68329
高句麗	-9.68577
龕	-9.68588
飬	-9.68593
已下	-9.68614
希萼	-9.68648
捷	-9.68667
凝	-9.6867
晚	-9.68704
釗	-9.68711
緩	-9.68733
郢	-9.68733
曰陛下	-9.68761
未至	-9.68797
不用	-9.68829
東宫	-9.68914
衆心	-9.68962
國事	-9.69007
永安	-9.6909
太弟	-9.69103
甲子	-9.69352
終不	-9.69401
是年	-9.69544
之役	-9.69642
買	-9.69681
斬首	-9.69693
爽	-9.69717
傍	-9.69721
腰	-9.69754
侃	-9.6981
婦人	-9.69812
譙	-9.69817
持節	-9.69944
流民	-9.7001
賜王	-9.70269
王者	-9.70272
大悦	-9.70316
謂曰	-9.70354
禦之	-9.70358
隅	-9.70524
鄂	-9.70644
琨	-9.70671
嬰	-9.70749
臧	-9.70772
咨	-9.7078
勵	-9.7078
狼	-9.70802
臯	-9.70819
宥	-9.70836
岌	-9.7084
哲	-9.70842
頒	-9.70842
幣	-9.70846
禱	-9.70865
鏡	-9.70866
齋	-9.70872
億	-9.70877
止之	-9.70943
両	-9.70969
曰臣聞	-9.71005
戰于	-9.71045
笑曰	-9.71171
致仕	-9.71225
清河	-9.71246
不同	-9.71382
北面	-9.71508
而後	-9.71736
三年春正月	-9.71852
囊	-9.7188
繕	-9.71913
暑	-9.71937
緡	-9.71943
祝	-9.71946
拓	-9.71952
千户	-9.7196
嫁	-9.71961
陜	-9.71976
官至	-9.72025
廞	-9.72115
明宗	-9.7217
兄子	-9.72189
興師	-9.72222
東都	-9.72394
常侍	-9.72476
進思	-9.72522
之日	-9.72625
閬	-9.72659
之計	-9.72758
以功	-9.72778
之業	-9.72785
不至	-9.7284
姓名	-9.72912
琛	-9.72914
知之	-9.72928
庻	-9.72993
岑	-9.73024
檢校	-9.73051
淑	-9.73052
註	-9.73058
跡	-9.73059
島	-9.73072
靣	-9.73115
千人	-9.73136
天寳	-9.73274
别將	-9.73308
永嘉	-9.73399
所部	-9.73423
皆有	-9.73556
不利	-9.73591
不欲	-9.73657
八十	-9.73659
有異	-9.73717
問之	-9.7388
春正月	-9.74023
憑	-9.74071
攸	-9.74084
濤	-9.74127
灌	-9.7413
贍	-9.74166
訟	-9.74173
閭	-9.74177
燈	-9.74186
伎	-9.74193
晦	-9.74219
煜	-9.74229
可求	-9.74254
南郊	-9.74406
出為	-9.74418
夫差	-9.74427
疋	-9.74432
男女	-9.74434
巴郡	-9.74514
不絶	-9.74704
徳誠	-9.74726
下詔	-9.74903
䕶軍	-9.74949
追封	-9.74973
宋史	-9.74983
不然	-9.75036
昊	-9.75068
國王	-9.75104
楷	-9.75233
吟	-9.75236
狐	-9.75246
巢	-9.75254
樞	-9.75277
竇	-9.75309
琴	-9.75313
竄	-9.75314
枹罕	-9.75315
咎	-9.75316
邊鎬	-9.75322
塲	-9.75328
墳	-9.75342
黔	-9.75345
奚	-9.75383
别駕	-9.75429
璠	-9.75435
文學	-9.75495
異之	-9.7551
死之	-9.75671
嗚呼	-9.76404
諾	-9.76411
蔣	-9.76443
縛	-9.76452
玩	-9.76452
寓	-9.76454
迨	-9.7647
開府儀同三司	-9.76471
句踐	-9.76489
浪	-9.76492
廖	-9.76497
給事中	-9.76505
熈載	-9.76531
泗	-9.76554
復以	-9.76689
平王	-9.76735
稱藩	-9.76745
壯士	-9.76793
金城	-9.7684
劉曜	-9.76992
永平	-9.77013
曰公	-9.77116
交州刺史	-9.77133
其名	-9.77315
一夕	-9.77317
城南	-9.77398
春三月	-9.77462
庾	-9.77501
協	-9.77547
稷	-9.7755
宛	-9.77552
踐	-9.77578
嫌	-9.77586
途	-9.7759
招討	-9.77591
逮	-9.77632
之才	-9.77638
車騎將軍	-9.77639
其妻	-9.77641
僅	-9.77646
村	-9.77648
婚	-9.77655
行逢	-9.778
田頵	-9.77829
世之	-9.77948
廬山	-9.77982
隙	-9.7805
詩云	-9.78218
晉王	-9.78329
其將	-9.78418
怒曰	-9.78575
卭	-9.78729
枕	-9.78779
冰	-9.78784
雲南	-9.78788
中興	-9.78808
宐	-9.78808
遏	-9.78819
模	-9.78862
醫	-9.78883
文昭王	-9.78888
南都	-9.79015
必不	-9.79035
前鋒	-9.79077
署為	-9.79112
御史	-9.79118
君之	-9.79142
女也	-9.79162
嘆曰	-9.79225
地震	-9.7928
徳明	-9.79513
失其	-9.79539
皆以	-9.7956
不與	-9.79734
越人	-9.79762
為前鋒	-9.79817
豈可	-9.79925
標	-9.7993
疲	-9.79949
潭州	-9.7995
值	-9.79975
十四年	-9.79982
之徒	-9.80002
熊	-9.80007
敷	-9.80015
鳳翔	-9.80035
握	-9.80037
収	-9.80037
額	-9.80041
塘	-9.8008
綽	-9.80119
制置使	-9.80179
髙麗	-9.80227
相繼	-9.80276
奔還	-9.80387
測	-9.80388
授王	-9.80426
徐温	-9.8049
之謀	-9.80598
占城	-9.80628
越絶	-9.80653
出降	-9.80784
讚	-9.81128
㫁	-9.81136
來伐	-9.81137
展	-9.8119
弔	-9.8119
姻	-9.81191
檀	-9.81192
昧	-9.812
曠	-9.81204
墮	-9.81206
拘	-9.81213
淺	-9.81219
邁	-9.81222
眷	-9.81224
茅	-9.81236
秦州刺史	-9.81236
柵	-9.81248
納之	-9.81277
何不	-9.81278
用之	-9.81304
入覲	-9.81353
樞密使	-9.81374
不出	-9.81429
年六十	-9.81473
統軍	-9.81576
大悅	-9.81646
降於	-9.81806
兵馬	-9.81825
乆之	-9.81858
克之	-9.81892
人心	-9.81981
南北	-9.82075
吏部尚書	-9.82081
葛	-9.82246
而殺之	-9.82294
饗	-9.8235
二十年	-9.82363
余	-9.82366
坊	-9.82389
渤海	-9.82403
洽	-9.82406
堡	-9.82409
荅	-9.82411
天復	-9.82412
牀	-9.82436
邇	-9.82449
警	-9.82453
烟	-9.82476
○	-9.82484
鐘	-9.82486
兩浙	-9.82515
其先	-9.82564
將吏	-9.82624
諸王	-9.82697
切諫	-9.82697
何為	-9.82704
鄂州	-9.82782
本國	-9.82821
縣令	-9.82835
山川	-9.82838
城西	-9.82867
奉使	-9.82898
孔子	-9.82954
三軍	-9.83072
其母	-9.83117
宫人	-9.83287
之勢	-9.83298
不宜	-9.83377
識者	-9.83447
𧺫	-9.83495
壤	-9.83578
𦵏	-9.83579
箭	-9.83589
禑	-9.83603
西南	-9.83605
肥	-9.8363
嗟	-9.83642
輯	-9.83643
廻	-9.83644
嫡	-9.83648
鍾謨	-9.83661
渉	-9.8367
譽	-9.8367
掘	-9.8368
蔽	-9.8368
張掖	-9.837
翊	-9.83718
辯	-9.83755
暇	-9.83765
澧	-9.83795
克宏	-9.83823
故也	-9.83831
仍賜	-9.83864
令贇	-9.83919
詔書	-9.83998
東北	-9.84108
凉州	-9.84238
中書	-9.84341
常山	-9.84372
國號	-9.84639
吏民	-9.84728
詢	-9.84772
暢	-9.84809
景逹	-9.84832
甞	-9.84854
晨	-9.8486
乙酉	-9.84873
查文徽	-9.84883
全忠	-9.84888
遼西	-9.84909
皇甫	-9.8491
大赦改元	-9.84912
罵	-9.84918
街	-9.84918
柄	-9.84922
停	-9.84923
鉞	-9.84924
卓	-9.84932
跋	-9.84935
檢校太尉	-9.84939
利鹿孤	-9.84953
押	-9.84974
寃	-9.84988
飲酒	-9.85056
征伐	-9.85266
沙門	-9.85277
諸州	-9.85341
楚王	-9.85356
出戰	-9.85407
神武	-9.85472
天成	-9.8559
景遷	-9.85641
渡江	-9.85907
門外	-9.85999
慟	-9.86109
活	-9.86133
軒	-9.86144
宗族	-9.86145
侮	-9.86152
夘	-9.86164
桃	-9.86179
扆	-9.86189
況	-9.86205
屍	-9.86213
朔日有食之	-9.86281
數千人	-9.86429
而行	-9.86483
宫室	-9.86523
襄陽	-9.8654
一方	-9.86637
中宗	-9.86644
南海	-9.86737
百户	-9.86872
宗室	-9.86925
唐末	-9.86937
為刺史	-9.8695
出師	-9.86967
大小	-9.87049
恱	-9.87053
之故	-9.8706
不堪	-9.87109
大喜	-9.87211
百萬	-9.87242
弋仲	-9.87316
無功	-9.87346
譲	-9.87373
撓	-9.87397
夀州	-9.87448
慚	-9.87449
留守	-9.87459
沮渠	-9.87546
閲	-9.87555
讀書	-9.8764
十卷	-9.87646
大呼	-9.8769
八千	-9.87728
圖之	-9.87997
大將	-9.88032
建興	-9.88054
有餘	-9.88117
永和	-9.88117
顯徳	-9.88125
殿中	-9.88205
即日	-9.88307
前王	-9.88429
本紀	-9.88451
蜀人	-9.8846
入見	-9.88462
退保	-9.88467
腹	-9.88492
更名	-9.88535
㳺	-9.88661
官爵	-9.88692
欣	-9.88704
罰	-9.88705
悼	-9.88726
駐	-9.88728
蔚	-9.88733
瓦	-9.8874
曰夫	-9.88756
窺	-9.88756
簒	-9.88758
耿	-9.8876
寂	-9.88762
挺	-9.88763
為使持節	-9.88784
垣	-9.88786
稅	-9.88789
公子	-9.88825
固請	-9.88839
遣子	-9.889
翰林	-9.88951
大單于	-9.89063
西域	-9.89238
追尊	-9.89297
太和	-9.89334
來聘	-9.89483
南唐書	-9.89484
人所	-9.89532
小人	-9.89581
嘆	-9.89591
不可以	-9.8966
水軍	-9.89706
十九年	-9.89738
金全	-9.89824
古人	-9.89848
第一	-9.8986
敬瑄	-9.89914
糓	-9.89995
綵	-9.90009
乳	-9.90042
汀	-9.90044
夙	-9.90046
掾	-9.90052
光禄大夫	-9.90055
太宰嚭	-9.90071
譏	-9.90078
即皇帝位	-9.90106
穡	-9.90108
錢塘	-9.90112
復為	-9.90276
衞將軍	-9.90316
精兵	-9.90451
都統	-9.90515
涼州	-9.90722
其父	-9.90765
上黨	-9.90788
自古	-9.90918
其國	-9.9099
以備	-9.9099
伐之	-9.91159
帝王	-9.91189
遣人	-9.91262
行至	-9.91311
牟	-9.91331
輦	-9.91367
謬	-9.9137
祈	-9.91373
門下侍郎	-9.91379
輔國將軍	-9.9139
壮	-9.91393
氷	-9.91398
閒	-9.914
隋	-9.91407
稱疾	-9.91434
賦詩	-9.91438
卷第	-9.91444
敝	-9.91458
酬	-9.91466
冠軍將軍	-9.91472
倣	-9.9152
勅遣	-9.91551
先鋒	-9.91585
夀春	-9.91591
長興	-9.91648
自言	-9.91709
相與	-9.91712
孫儒	-9.91798
稱臣	-9.91835
漢宏	-9.91836
言之	-9.91971
年號	-9.92179
府庫	-9.92261
不相	-9.92322
其人	-9.92386
癸	-9.92628
麥	-9.92677
穿	-9.92686
引還	-9.92702
彛	-9.92705
皇帝廟號	-9.92707
人父	-9.92712
斂	-9.92714
錯	-9.92723
九十	-9.92728
承祐	-9.92734
芝	-9.9275
鸞	-9.92756
棲	-9.92766
頌	-9.92774
丁亥	-9.92789
料	-9.92794
巾	-9.92795
寤	-9.92811
棘	-9.92817
龍驤將軍	-9.92826
敞	-9.92832
人多	-9.9285
瑩	-9.92868
昭宗	-9.92869
忠義	-9.93056
之變	-9.9321
自守	-9.93326
問曰	-9.93347
都䕶	-9.93358
不食	-9.93414
出鎮	-9.93435
姚興	-9.93461
有隙	-9.93552
堅曰	-9.93617
益州刺史	-9.93803
天王	-9.93909
艱	-9.93986
板	-9.94053
随	-9.94062
牽	-9.94081
迫	-9.94083
劾	-9.94085
跨	-9.94087
龎	-9.94096
溝	-9.94106
吞	-9.94129
太平興國	-9.94129
廣武	-9.94142
傳瓘	-9.94143
翠	-9.94145
婁	-9.94152
讎	-9.94153
獠	-9.94154
它	-9.94178
徹	-9.94204
時為	-9.94271
十六年	-9.94375
希崇	-9.94414
濠	-9.94414
於外	-9.94433
帥騎	-9.94612
石勒	-9.94661
桂	-9.94783
遣弟	-9.94785
冀州	-9.94792
後世	-9.94939
以聞	-9.94981
出兵	-9.95017
全武	-9.95057
以告	-9.9514
徐氏	-9.95144
得免	-9.95308
武威	-9.95342
景宗	-9.95402
蘓	-9.95403
赫	-9.95409
雀	-9.95446
史臣曰	-9.95461
使持節	-9.95468
慢	-9.95476
滯	-9.9548
霍	-9.95491
彈	-9.95496
完	-9.95504
扇	-9.95526
耻	-9.95538
勃	-9.95542
儔	-9.95566
卽	-9.9557
侍御史	-9.95624
大業	-9.95669
建寧	-9.95677
道路	-9.95713
人臣	-9.95724
王弟	-9.9578
廷隠	-9.95827
犍為	-9.95849
而退	-9.96022
大亂	-9.96123
廟號	-9.96199
五人	-9.96232
乃使	-9.96301
擒之	-9.96567
即以	-9.96643
中朝	-9.96716
崇文	-9.96781
汲	-9.96801
周宗	-9.96831
鑾	-9.96853
奬	-9.96859
丙午	-9.96869
璜	-9.96888
諒	-9.96889
㓂	-9.969
丙戌	-9.96901
髮	-9.96902
鎰	-9.96916
輟	-9.96931
僻	-9.96943
昨	-9.96945
虹	-9.96955
凖	-9.96967
究	-9.96972
王親	-9.96981
藻	-9.97023
愛之	-9.97053
䝉古	-9.97111
彦暉	-9.97173
當有	-9.97234
射之	-9.97236
之子	-9.97288
未及	-9.97301
之禍	-9.97373
廢王	-9.97423
延壽	-9.97428
馬歩	-9.97476
馬步	-9.97484
禆將	-9.9766
字伯	-9.97686
於秦	-9.98224
麾	-9.98228
滔	-9.98242
恂	-9.98246
力戰	-9.98268
酋	-9.98288
少子	-9.983
冝	-9.9831
書曰	-9.98311
陟	-9.98312
滁	-9.98317
衮	-9.98319
算	-9.98327
紙	-9.98329
之盛	-9.9834
消	-9.98343
乖	-9.98351
溢	-9.98356
蓄	-9.98377
荘	-9.98393
只	-9.98396
滋	-9.98409
豫章	-9.98427
佩	-9.9845
甲申	-9.98452
單于	-9.98453
於吳	-9.98473
審知	-9.98507
宿衛	-9.98509
梁州刺史	-9.98519
起家	-9.98586
伏兵	-9.98588
殺其	-9.98623
次子	-9.98681
四年春正月	-9.9874
為國	-9.98845
布衣	-9.98866
彦章	-9.98911
相見	-9.98945
觀之	-9.98981
略陽	-9.99027
越王曰	-9.99172
天命	-9.9918
相持	-9.99236
遣兵	-9.99292
壽州	-9.99294
言曰	-9.9937
道襲	-9.99468
州縣	-9.99487
南奔	-9.99493
遣將軍	-9.99672
陋	-9.99691
鑑	-9.99711
隊	-9.99721
壺	-9.99762
匠	-9.99763
領軍	-9.99763
恭孝王	-9.99765
裝	-9.99769
璉	-9.99772
王諱	-9.99792
乙丑	-9.998
忤	-9.99804
十國紀年	-9.99805
霧	-9.99807
了	-9.99839
郫	-9.99858
互	-9.99862
漏	-9.9987
䏻	-9.99888
同光	-9.99891
太宰	-9.99926
瓌	-9.99966
鄉里	-10.0005
詩曰	-10.0007
萬户	-10.001
仁義	-10.0011
建勲	-10.0013
曰若	-10.0015
所居	-10.0035
子貢	-10.0051
國中	-10.006
進據	-10.0061
逆戰	-10.007
大義	-10.0081
安國	-10.0084
邕	-10.0091
叅	-10.0092
嶺南	-10.0097
蕃	-10.0116
奇	-10.0116
數人	-10.0116
尅	-10.0119
膳	-10.012
虗	-10.0121
廉	-10.0121
扈	-10.0123
摩	-10.0125
眞	-10.0125
縊	-10.0126
沃	-10.0126
巷	-10.0127
江南野史	-10.0127
邸	-10.0128
漆	-10.0129
惶	-10.0129
梟	-10.013
賁	-10.013
欺	-10.0131
不忘	-10.0131
乙亥	-10.0132
下令	-10.0133
眼	-10.0136
兾	-10.0136
謂左右曰	-10.0138
李建勲	-10.0139
食之	-10.0141
前將軍	-10.0145
戰艦	-10.015
承㫖	-10.0155
徴古	-10.0156
一名	-10.0157
河間	-10.0172
張氏	-10.0176
不肯	-10.0179
建國	-10.0187
以示	-10.019
七日	-10.0192
人少	-10.0196
舟師	-10.0207
建隆	-10.021
為右	-10.0228
之敗	-10.0231
不顧	-10.0239
欲殺	-10.0243
餘衆	-10.0254
一卷	-10.0264
梯	-10.0264
見而	-10.0265
丸	-10.0268
坑	-10.0268
冕	-10.0268
價	-10.0269
祿	-10.027
婆	-10.0271
繩	-10.0271
玊	-10.0272
迴	-10.0275
貲	-10.0276
暮末	-10.0276
函	-10.0276
世為	-10.0277
騐	-10.0277
偶	-10.0278
敗之	-10.028
母弟	-10.0283
沛	-10.0287
衣冠	-10.03
部曲	-10.0302
范陽	-10.0309
有二	-10.031
皆為	-10.0324
者必	-10.0333
因以	-10.0341
不若	-10.0345
茂忠	-10.0346
際	-10.0346
平原	-10.0348
雄武	-10.0349
嘉之	-10.036
丁未	-10.0362
東府	-10.0362
足下	-10.0374
遂為	-10.0381
士民	-10.0381
稱帝	-10.0389
不知其	-10.041
諤	-10.0414
三人	-10.0417
此書	-10.0419
炎	-10.0424
枉	-10.0425
佶	-10.0425
鷹	-10.0425
網	-10.0427
怡	-10.0427
税	-10.0427
潔	-10.0427
澹	-10.0427
貸	-10.0428
怠	-10.0429
嬪	-10.0429
㸃	-10.043
賚	-10.043
憐	-10.043
驍勇	-10.0431
犒	-10.0431
豆	-10.0432
杲	-10.0435
羡	-10.0436
梅	-10.0436
聞其	-10.0437
多所	-10.0438
不自安	-10.0441
周主	-10.0444
元膺	-10.0446
正朔	-10.0451
三州	-10.0452
乾寧	-10.0452
上言	-10.0458
新平	-10.0463
願陛下	-10.0467
庚子	-10.0468
竒之	-10.0469
取其	-10.0478
來攻	-10.0486
於魏	-10.0496
上有	-10.0519
存亡	-10.0528
唐兵	-10.0551
迎之	-10.0552
民間	-10.0556
所執	-10.0569
罕	-10.0574
𣸪	-10.0578
麴	-10.0578
那	-10.0579
伸	-10.0579
銓	-10.0579
䧏	-10.0579
纔	-10.058
缺	-10.058
逞	-10.0581
團	-10.0582
㦸	-10.0582
限	-10.0582
煥	-10.0582
晃	-10.0582
澗	-10.0582
勾	-10.0583
甲戌	-10.0585
瀘	-10.0585
筭	-10.0585
光祿大夫	-10.0588
帯	-10.0588
特進	-10.0588
魏岑	-10.0589
倪	-10.0589
僖宗	-10.0591
晝夜	-10.0594
所獲	-10.0601
徐知誥	-10.0603
茂章	-10.0605
乘勝	-10.0607
博學	-10.061
碩徳	-10.0611
段氏	-10.0621
不戰	-10.0627
其下	-10.0633
所得	-10.0636
䖍州	-10.0637
古之	-10.0638
并州刺史	-10.0641
屯於	-10.0645
不得已	-10.0657
之師	-10.0658
遣使來	-10.0662
除之	-10.0686
亡國	-10.0695
三十年	-10.0698
可乎	-10.0704
以安	-10.0705
昆	-10.0714
不平	-10.0719
淮人	-10.0723
戰敗	-10.0724
鴻臚	-10.0725
閏	-10.0729
勍	-10.0729
輝	-10.073
斫	-10.0732
璟	-10.0732
炳	-10.0736
兇	-10.0737
斃	-10.0737
御史中丞	-10.0738
鮑	-10.0739
彦貞	-10.0739
裏	-10.0739
而入	-10.0741
冨	-10.0741
岱	-10.0744
涕泣	-10.0745
竺	-10.0745
辛巳	-10.0745
用兵	-10.0747
全諷	-10.0747
叅軍	-10.076
昌黎	-10.0764
閉門	-10.077
繼冲	-10.0776
班師	-10.0778
四萬	-10.078
延已	-10.0801
他日	-10.0803
軍事	-10.0806
上將軍	-10.0811
其志	-10.0816
征討	-10.0822
於長安	-10.0857
頗有	-10.087
黁	-10.0873
訥	-10.0878
自以	-10.0878
簿	-10.0886
北地	-10.0888
人情	-10.0888
佗	-10.0888
腦	-10.0889
饋	-10.089
崖	-10.0891
殄	-10.0893
罔	-10.0895
中書舎人	-10.0896
弄	-10.0896
戊寅	-10.0898
剋	-10.0899
孺	-10.0899
以上	-10.09
宸	-10.0901
借	-10.0902
邈	-10.0902
崇韜	-10.0907
不下	-10.091
萬計	-10.0915
乃與	-10.0917
廬陵	-10.0918
朂	-10.0921
以歸	-10.0926
為主	-10.0931
後唐	-10.0934
孫晟	-10.0935
武昌	-10.0944
再拜	-10.0949
彦能	-10.0954
文曰	-10.0975
十七年	-10.0984
辛未	-10.0985
改封	-10.0987
是為	-10.0991
未能	-10.0995
赴之	-10.0996
十八年	-10.1005
也又	-10.1018
大破	-10.1019
於我	-10.1027
崧	-10.1035
建安	-10.1041
誥	-10.1042
觀察	-10.1043
湖州	-10.1044
艦	-10.1044
夢錫	-10.1044
妓	-10.1051
詵	-10.1051
枚	-10.1052
大赦境内	-10.1053
禮部尚書	-10.1055
郴	-10.1055
魁	-10.1056
之號	-10.1056
戊申	-10.1057
小字	-10.1057
禁中	-10.1058
匈奴	-10.1058
袍	-10.1059
慷慨	-10.1061
諭之	-10.1061
被殺	-10.1062
亞	-10.1065
尚書左僕射	-10.1066
稱尊號	-10.1067
桐	-10.1068
龍驤	-10.1071
宦者	-10.1089
慕容垂	-10.1096
為亂	-10.1103
武安	-10.1116
有才	-10.1121
其首	-10.1122
江東	-10.1137
得之	-10.114
入宫	-10.1141
請以	-10.1145
英武	-10.1146
河内	-10.1148
謀反	-10.1149
責之	-10.115
遣中使	-10.1152
舍人	-10.116
降于	-10.1162
威武	-10.1166
庚	-10.1176
睿	-10.1182
帥師	-10.1192
倭	-10.1204
平生	-10.1205
艘	-10.121
柯	-10.121
飯	-10.1215
輜重	-10.122
豎	-10.122
荆州	-10.122
捐	-10.1222
膽	-10.1222
項	-10.1222
佳	-10.1222
朙	-10.1223
圓	-10.1224
頂	-10.1225
車騎大將軍	-10.1226
中書舍人	-10.1227
諧	-10.1227
魂	-10.1227
緣	-10.1228
麾下	-10.1229
犍爲	-10.1232
進屯	-10.1233
來朝	-10.1234
劔	-10.1236
延翰	-10.1241
衣錦軍	-10.1245
丙子	-10.1248
侍衛	-10.125
周公	-10.1253
呼延	-10.1256
而止	-10.1257
臣聞	-10.1263
入宋	-10.1269
四面	-10.1286
于周	-10.1292
經史	-10.1294
康宗	-10.1303
不死	-10.1307
無復	-10.133
而至	-10.1337
陳氏	-10.1345
居之	-10.1347
武都	-10.1374
廩	-10.1374
祁	-10.1379
南唐書卷之	-10.1382
凉州牧	-10.1385
醜	-10.1385
疫	-10.1388
踵	-10.1389
知制誥	-10.1389
鞠	-10.139
庚寅	-10.1391
蒸	-10.1392
箕	-10.1393
腹心	-10.1394
叡	-10.1394
擲	-10.1395
緑	-10.1396
荀	-10.1397
甲午	-10.1398
彩	-10.1398
韓熈載	-10.1398
字元	-10.14
闔廬	-10.1401
古今	-10.1408
帝命	-10.1447
南昌	-10.1462
之難	-10.1463
襲位	-10.1471
其城	-10.1478
嵗在	-10.1487
女子	-10.1487
奔於	-10.1489
雖有	-10.149
城北	-10.149
南越	-10.1503
于唐	-10.1517
濠州	-10.1525
群	-10.1543
武陵	-10.1543
狗	-10.1549
開門	-10.155
闇	-10.155
影	-10.1552
贖	-10.1552
係	-10.1553
籠	-10.1553
紂	-10.1554
如何	-10.1555
翌日	-10.1556
織	-10.1556
叩	-10.1557
版	-10.1557
牋	-10.1558
嗣立	-10.1558
讐	-10.1558
覘	-10.1559
繇	-10.1559
苟	-10.1559
倡	-10.156
劵	-10.1561
江北	-10.1561
賫	-10.1561
開元	-10.1561
侈	-10.1561
九國志	-10.1562
飢	-10.1562
綺	-10.1564
歸附	-10.1566
牙將	-10.1566
之術	-10.1567
胄	-10.1567
滕	-10.1568
帝遣	-10.157
睿宗	-10.1572
召見	-10.1572
五日	-10.1573
梁州	-10.1574
仇池	-10.1574
不應	-10.1576
數十人	-10.1576
群臣	-10.1578
豈不	-10.1579
昇州	-10.1583
乾和	-10.1592
桓温	-10.1601
董昌	-10.1602
太妃	-10.1606
左長史	-10.1606
部將	-10.161
知俊	-10.1623
部衆	-10.1627
繡	-10.163
莫能	-10.1643
吳越國王	-10.1649
數月	-10.1652
并州	-10.1655
出奔	-10.1659
後宫	-10.1662
泣曰	-10.1665
宗弼	-10.1673
㕘	-10.1688
史記	-10.1692
左傳	-10.1694
昭武	-10.1696
年少	-10.1709
登城	-10.1709
殿前	-10.1714
畿	-10.1717
不聴	-10.1723
鞍	-10.1724
騫	-10.1725
匪	-10.1725
客省使	-10.1726
懦	-10.1726
曇	-10.1727
霜	-10.1727
霄	-10.1727
憾	-10.1728
璝	-10.1728
家人	-10.1729
罹	-10.173
㤙	-10.173
鬻	-10.1731
彦儔	-10.1732
峰	-10.1732
冒	-10.1732
蠡	-10.1737
于我	-10.1739
大夫種	-10.1739
殁	-10.1742
昱	-10.1746
鍠	-10.1747
太夫人	-10.175
烏孤	-10.1753
池州	-10.1759
其民	-10.1763
諸君	-10.1764
何所	-10.1765
君王	-10.1766
二十五	-10.1772
濟河	-10.1778
未知	-10.1786
而進	-10.1786
西京	-10.1793
委以	-10.1796
表請	-10.1805
宇文	-10.1809
婺州	-10.1818
河中	-10.1822
豈有	-10.1823
桂州	-10.1823
八百	-10.1826
徐州	-10.1828
文表	-10.1833
隂陽	-10.1834
及長	-10.184
肯	-10.1845
人也少	-10.1859
進退	-10.1861
青州	-10.1877
處士	-10.1888
呂	-10.1899
障	-10.19
馮延魯	-10.19
剪	-10.19
岡	-10.19
沿	-10.1901
蹙	-10.1902
馭	-10.1902
苴	-10.1902
大風	-10.1904
倦	-10.1904
壬辰	-10.1904
酉	-10.1904
謗	-10.1904
鄊	-10.1905
徼	-10.1905
猷	-10.1905
怯	-10.1905
豕	-10.1906
繞	-10.1907
壬午	-10.1908
状	-10.1909
上柱國	-10.1909
五代	-10.191
檢校太保	-10.191
乙卯	-10.1912
鱗	-10.1913
暗	-10.1914
析	-10.1914
甲辰	-10.1916
天文	-10.1918
國政	-10.1921
綿竹	-10.1925
官屬	-10.1926
山南	-10.1934
衆皆	-10.1935
或云	-10.195
大理	-10.195
師暠	-10.1951
英雄	-10.1952
兩川	-10.1955
而立	-10.1955
孫也	-10.1958
開運	-10.1959
觀其	-10.196
未詳	-10.1964
號為	-10.1967
被執	-10.1971
城外	-10.1972
河北	-10.1973
不足以	-10.1975
相攻	-10.1977
無道	-10.1981
光憲	-10.1983
之上	-10.1986
水中	-10.1987
軍旅	-10.1991
江陽	-10.2026
末年	-10.2032
二日	-10.2032
赦之	-10.2038
五色	-10.2054
廣州	-10.2055
舒州	-10.2055
分兵	-10.2055
在此	-10.2056
壬	-10.2057
䟽	-10.2063
何也	-10.2067
逖	-10.2072
征虜將軍	-10.2075
曦	-10.2077
苛	-10.2077
州諸軍事	-10.2077
隕	-10.2079
寮	-10.2081
羙	-10.2081
措	-10.2082
權知	-10.2082
安撫	-10.2082
内侍	-10.2083
穢	-10.2083
堤	-10.2083
兵部尚書	-10.2083
鏤	-10.2085
愁	-10.2085
觀察使	-10.2085
諫議大夫	-10.2085
冉	-10.2086
慕輿	-10.2086
肩	-10.2086
汜	-10.2087
觸	-10.2087
郷	-10.2088
閱	-10.2088
寝	-10.2089
徧	-10.2089
詭	-10.2089
而下	-10.209
蓮	-10.209
永興	-10.2091
搜	-10.2093
壬戌	-10.2093
文帝	-10.2094
帳下	-10.2099
洲	-10.21
雒	-10.2101
仁肇	-10.2101
城内	-10.2103
扶風	-10.2107
伐吳	-10.2117
守之	-10.2117
獲其	-10.2117
重之	-10.2128
退屯	-10.2137
𢎞農	-10.2139
周本	-10.2139
朱元	-10.2144
入蜀	-10.215
制度	-10.2156
拒戰	-10.2158
興元	-10.2159
惠宗	-10.216
士大夫	-10.2163
曰爾	-10.2165
二十四	-10.2174
之法	-10.2184
石氏	-10.2197
七千	-10.2211
戰死	-10.224
陳留	-10.2242
黄龍	-10.2246
壊	-10.2248
將相	-10.2254
闢	-10.2257
琳	-10.2257
戊辰	-10.2259
讌	-10.226
宙	-10.2261
滛	-10.2261
𥙿	-10.2263
絲	-10.2264
暨	-10.2265
灾	-10.2265
狥	-10.2266
塟	-10.2266
隐	-10.2267
疎	-10.2268
嬖	-10.2269
薪	-10.2269
矛	-10.227
檢討吳任臣撰	-10.227
乾祐	-10.227
己酉	-10.227
隷	-10.2271
丁酉	-10.2272
有神	-10.2273
嚴續	-10.2274
孚	-10.2275
甲寅	-10.2276
戯	-10.2276
韻	-10.2278
祭酒	-10.228
步騎	-10.2281
成都人也	-10.2288
武平	-10.2294
萬五千	-10.2312
李昊	-10.2315
屯田	-10.2315
進兵	-10.2336
為侍中	-10.2343
斬其	-10.235
睦州	-10.235
甚厚	-10.2357
大雨	-10.2368
不能自	-10.2374
監軍使	-10.2375
之恩	-10.2381
十餘里	-10.2387
宦	-10.2391
戰功	-10.2393
昭逺	-10.2395
往來	-10.2397
近臣	-10.2398
以獻	-10.2409
土地	-10.241
南山	-10.2413
自此	-10.2431
勒兵	-10.2433
掖	-10.2437
蟲	-10.2443
悍	-10.2445
涕	-10.2445
淮甸	-10.2446
牒	-10.2446
庚戌	-10.2446
砦	-10.2447
庚午	-10.2449
譴	-10.245
賨	-10.2451
辛亥	-10.2452
來歸	-10.2453
縦	-10.2453
響	-10.2454
闔閭	-10.2454
篆	-10.2455
單騎	-10.2455
朽	-10.2455
裳	-10.2456
柳	-10.2457
北海	-10.2459
氏為皇后	-10.2465
士女	-10.2469
置百官	-10.2476
茂䖍	-10.2477
敗走	-10.2478
往往	-10.2486
蜀主	-10.2486
年八十	-10.2487
車騎	-10.249
乙未	-10.2492
雍州刺史	-10.2493
奉詔	-10.2493
二十一年	-10.2497
建徽	-10.2508
正陽	-10.2508
開寶	-10.2511
竟不	-10.2518
牙門	-10.2519
自號	-10.2531
左將軍	-10.2543
黄金	-10.2544
保大中	-10.2557
白金	-10.2558
乃召	-10.2574
南面	-10.2575
山下	-10.2576
帥兵	-10.2583
入冦	-10.2593
簡言	-10.2596
于此	-10.2605
無何	-10.2622
顒	-10.2629
泛	-10.2631
羯	-10.2631
與語	-10.2631
迭	-10.2635
鄒	-10.2636
轅	-10.2636
干戈	-10.2636
油	-10.2637
區區	-10.2637
征西將軍	-10.2637
嚮	-10.2637
為皇太子	-10.2638
鴆	-10.2638
湛	-10.2638
太史令	-10.2639
熒惑	-10.264
厨	-10.2641
剖	-10.2642
號令	-10.2644
綸	-10.2645
延鲁	-10.2645
丙申	-10.2646
梧	-10.2647
繪	-10.2649
今從通鑑	-10.2651
受禪	-10.2653
隗	-10.2653
劉仁贍	-10.2653
大朝	-10.2656
家明	-10.2657
皇太后	-10.2664
巴蜀	-10.2664
舉進士	-10.2665
癸未	-10.2666
茂貞	-10.2666
兖	-10.2668
宣城	-10.2678
儒學	-10.2678
五年春正月	-10.2679
懼而	-10.268
幽州刺史	-10.2684
致書	-10.2684
劉裕	-10.2685
非所	-10.2692
禪師	-10.2693
數百人	-10.2695
行宫	-10.2705
以報	-10.2713
順天	-10.2718
季興	-10.272
九真	-10.2738
浙江	-10.2757
召還	-10.2757
知名	-10.2764
長生	-10.2767
其才	-10.2775
羣下	-10.2776
字文	-10.278
何足	-10.2781
歸之	-10.2786
風雨	-10.2787
王室	-10.2788
越州	-10.28
城陷	-10.28
稟	-10.2821
忻	-10.2827
侔	-10.2827
俶	-10.2828
譖	-10.2828
札	-10.2829
挫	-10.2829
駱	-10.283
瘴	-10.2831
俸	-10.2832
恚	-10.2832
截	-10.2833
霞	-10.2834
聊	-10.2835
浴	-10.2836
逝	-10.2837
丙寅	-10.2838
武信王	-10.2839
遂入	-10.2841
馮翊	-10.2843
不幸	-10.2845
立功	-10.2854
甚衆	-10.2855
鎮海軍	-10.2858
董璋	-10.2859
東陽	-10.2864
長驅	-10.2865
荆州刺史	-10.2868
卒子	-10.2869
黙然	-10.2869
季良	-10.2875
都城	-10.2881
武成	-10.29
二十八	-10.2903
卿等	-10.2904
應天	-10.2907
引見	-10.2922
南平王	-10.2929
梓州	-10.2956
歸宋	-10.2957
行宻	-10.297
直言	-10.2971
南鄭	-10.2998
從容	-10.3001
不䏻	-10.3005
丙	-10.301
亡命	-10.3011
拯	-10.3014
賧	-10.3016
虧	-10.3017
杯	-10.3019
抜	-10.302
沔	-10.302
顛	-10.302
壓	-10.3021
敬洙	-10.3023
延禀	-10.3023
鬭	-10.3024
㕔	-10.3025
軫	-10.3025
舌	-10.3026
旻	-10.3027
建威將軍	-10.3027
桀	-10.3027
包	-10.3028
庚辰	-10.3028
瓶	-10.3029
都虞侯	-10.303
劇	-10.303
校書郎	-10.303
三年春二月	-10.303
襟	-10.3031
辜	-10.3032
諸弟	-10.3033
丁巳	-10.3033
褐	-10.3033
希範	-10.3033
蓬	-10.3034
減	-10.3035
各有差	-10.3037
丑	-10.3037
率步騎	-10.3038
洩	-10.3039
嫩	-10.3042
僭號	-10.3046
清海	-10.3047
忠獻王	-10.3053
不止	-10.3065
壬子	-10.3067
自若	-10.3075
從效	-10.3077
吕光	-10.3081
聚衆	-10.3084
三世	-10.3093
丹陽	-10.3093
其妻子	-10.3108
牛馬	-10.3114
閬州	-10.3114
其功	-10.3114
諸國	-10.3116
深入	-10.3128
曰孤	-10.3145
中山王	-10.3147
不報	-10.3149
忠獻	-10.3163
七百	-10.3167
錢氏	-10.3169
領兵	-10.317
守將	-10.3175
武陽	-10.3182
廣平	-10.3193
州防禦使	-10.3203
指揮	-10.3208
戊	-10.3208
覲	-10.3209
義方	-10.321
控	-10.3214
電	-10.322
窘	-10.3223
毗	-10.3224
蠶	-10.3225
該	-10.3225
璘	-10.3226
峭	-10.3226
越嶲	-10.3226
丁丑	-10.3227
吐	-10.3227
悠	-10.3229
釣	-10.3229
看	-10.3231
枯	-10.3232
層	-10.3233
淚	-10.3233
苻登	-10.3234
軻	-10.3235
翻	-10.3236
匹磾	-10.3238
汴京	-10.3238
討平之	-10.3238
鹵	-10.324
二十餘	-10.3241
浙西	-10.3244
楚人	-10.3245
親信	-10.3246
丈夫	-10.3255
戊子	-10.3258
安仁義	-10.3258
所生	-10.3267
視事	-10.3267
後蜀後蜀後蜀後蜀	-10.3278
希廣	-10.3283
逺近	-10.3283
衣錦	-10.3306
山河	-10.3309
令公	-10.331
安能	-10.3312
九華	-10.3315
衡山	-10.3328
備德	-10.3345
杭	-10.3374
嘉興	-10.3392
為太尉	-10.3397
家世	-10.3406
咸通	-10.341
壻	-10.3416
進次	-10.3419
統軍使	-10.342
壞	-10.3421
中書監	-10.3422
綬	-10.3423
都督中外諸軍事	-10.3424
俯	-10.3424
两	-10.3426
呈	-10.3427
坦	-10.3427
酒酣	-10.3428
襃	-10.3428
令孜	-10.3428
壬申	-10.3428
嗜	-10.3429
媿	-10.3429
徐玠	-10.343
辛酉	-10.3431
毫	-10.3431
不祥	-10.3431
庚申	-10.3431
萊	-10.3432
媚	-10.3433
疇	-10.3434
亥	-10.3434
暫	-10.3435
歟	-10.3435
脅	-10.3436
苞	-10.3438
䧺	-10.3439
譜	-10.3441
朱瑾	-10.3443
金器	-10.3449
執政	-10.3456
二十六	-10.3464
州觀察使	-10.3466
安撫使	-10.3466
金吾	-10.3473
難敵	-10.3505
遣使詣	-10.3505
寧州	-10.3513
守貞	-10.352
不免	-10.3528
和尚	-10.3555
遣使者	-10.3556
利州	-10.3558
通好	-10.3575
新城	-10.3576
以為不可	-10.3589
為丞相	-10.3596
庶人	-10.3598
所著	-10.36
見殺	-10.362
之死	-10.3621
肖	-10.3622
王幸	-10.3623
禀	-10.3624
瑀	-10.3628
濮	-10.3628
是月王	-10.3629
訛	-10.3629
寔	-10.363
倘	-10.363
抽	-10.3633
譯	-10.3634
從事中郎	-10.3634
于外	-10.3634
探	-10.3635
一副	-10.3635
戊午	-10.3636
迄	-10.3636
癸亥	-10.3636
議者	-10.3637
粗	-10.3638
建平	-10.3638
誡	-10.3638
辛丑	-10.3638
膝	-10.3638
石城	-10.3639
炭	-10.364
彂	-10.364
賑	-10.364
墟	-10.364
驃騎大將軍	-10.364
逋	-10.3641
乙巳	-10.3641
勛	-10.3641
𬒳	-10.3641
萌	-10.3642
兵部侍郎	-10.3642
丁零	-10.3642
蹤	-10.3642
謡	-10.3642
塢	-10.3642
偕	-10.3643
輅	-10.3643
􁇾	-10.3643
鬬	-10.3644
賔客	-10.3644
四千	-10.3644
煙	-10.3645
柏	-10.3646
燮	-10.3646
銖	-10.3647
貎	-10.3648
訣	-10.3648
辦	-10.3648
百餘里	-10.3653
無遺	-10.3656
廊	-10.3663
汭	-10.3663
為質	-10.3673
善射	-10.368
海内	-10.3729
監國	-10.3734
還長安	-10.3734
收其	-10.3753
棄城	-10.3763
饒州	-10.3773
歸義	-10.3789
督䕶	-10.3803
豈非	-10.3808
南漢南漢南漢南漢南漢	-10.3828
改名	-10.383
舎人	-10.3832
諸葛亮	-10.3839
滄	-10.3845
隘	-10.3846
全播	-10.3846
準	-10.3847
吐蕃	-10.385
曰彼	-10.3851
餐	-10.3852
冶	-10.3853
偓	-10.3853
二年春二月	-10.3853
朋	-10.3854
鎧	-10.3854
膏	-10.3854
底	-10.3855
迷	-10.3856
距	-10.3858
紿	-10.3858
涇	-10.3858
癸丑	-10.3858
筵	-10.3859
御史大夫	-10.386
驩	-10.386
峴	-10.3861
廷珪	-10.3862
稍稍	-10.3863
齡	-10.3863
本姓	-10.3864
艱難	-10.3865
無罪	-10.3875
諸葛	-10.3875
車駕	-10.388
三司	-10.3881
曰今日	-10.3883
右長史	-10.3885
是夜	-10.3887
衛大將軍	-10.3887
管内	-10.3888
夢孫	-10.3889
仁裕	-10.3889
進位	-10.3889
景達	-10.389
莫敢	-10.3895
賜死	-10.3896
㕘軍	-10.39
輕騎	-10.3906
功曹	-10.3909
各有	-10.3912
蠻夷	-10.3918
經畧	-10.3923
避地	-10.3934
所害	-10.3951
勇士	-10.3953
假道	-10.3967
來貢	-10.3982
西秦	-10.3986
勸進	-10.3991
大姓	-10.3996
七萬	-10.4
方物	-10.4028
巴東	-10.4029
右將軍	-10.4037
樞宻	-10.4048
塹	-10.4051
慨	-10.4055
進取	-10.4058
太原王	-10.4059
滎陽	-10.4059
翹	-10.4062
狹	-10.4062
剽	-10.4065
敎	-10.4065
己丑	-10.4065
郝	-10.4065
錄尚書事	-10.4066
促	-10.4066
灰	-10.4066
二女	-10.4067
㤗	-10.4068
飄	-10.4068
㓕	-10.4068
陞	-10.4068
聼	-10.4069
餞	-10.4069
己亥	-10.407
狎	-10.407
戌	-10.407
雉	-10.407
征東將軍	-10.4071
節度判官	-10.4071
雕	-10.4072
洗	-10.4073
樂浪	-10.4075
遯	-10.4076
奕干	-10.4077
薩	-10.4078
驟	-10.4079
泄	-10.408
娥	-10.408
朱提	-10.4081
所向	-10.4081
甘露	-10.4081
碎	-10.4081
檻	-10.4082
快	-10.4083
江都	-10.4089
上䟽	-10.4091
桂陽	-10.4098
銀器	-10.4098
乞伏	-10.4099
禍福	-10.4108
冠軍	-10.4111
衣服	-10.4117
將校	-10.4126
朝夕	-10.4128
龍飛	-10.4129
下書曰	-10.4137
率師	-10.4137
昭儀	-10.4139
子胥曰	-10.4139
己未	-10.4141
羅城	-10.4144
終日	-10.415
得罪	-10.415
汝南	-10.4161
置酒	-10.4165
不就	-10.4168
伐楚	-10.4168
未必	-10.4179
三尺	-10.4179
拒守	-10.418
扵是	-10.4183
作詩	-10.4197
久矣	-10.4204
大順	-10.4223
初名	-10.4239
成功	-10.4248
盹	-10.4273
即今	-10.4274
生擒	-10.4277
璞	-10.4279
殯	-10.4283
墻	-10.4286
拂	-10.4287
磨	-10.4287
檢討呉任臣撰	-10.4288
局	-10.4288
梵	-10.4289
幷	-10.4289
惲	-10.429
征東大將軍	-10.429
供奉官	-10.4291
晩	-10.4291
跪	-10.4292
浮屠	-10.4292
揺	-10.4293
廓	-10.4293
瀆	-10.4293
戊戌	-10.4294
云云	-10.4294
航	-10.4295
愷	-10.4295
癸酉	-10.4296
馬令南唐書	-10.4296
懇	-10.4296
臥	-10.4296
蒲坂	-10.4297
泊	-10.4298
系	-10.4298
亊	-10.4299
檢校太傅	-10.4299
拾遺	-10.43
揖	-10.4301
莾	-10.4301
嚭	-10.4302
文獻王	-10.4302
珦	-10.4302
渚	-10.4303
闔	-10.4303
卯	-10.4304
忠孝	-10.4309
涪陵	-10.4309
禮樂	-10.4316
少主	-10.432
樞宻使	-10.432
禪代	-10.4325
將帥	-10.4329
凉州刺史	-10.4332
允章	-10.4334
彦超	-10.4335
來拒	-10.4342
資謙	-10.4346
私第	-10.435
追擊	-10.4356
偽諡	-10.4357
字叔	-10.4357
屯兵	-10.4358
討賊	-10.4383
俘斬	-10.4396
以為然	-10.4402
不識	-10.4406
甲士	-10.4421
貞明	-10.4422
仁宗	-10.4424
甚盛	-10.4428
臨安	-10.4429
和龍	-10.4446
尊號	-10.4446
威名	-10.4453
十餘年	-10.4455
罷兵	-10.4458
至長安	-10.4473
數十萬	-10.4477
無他	-10.4481
京城	-10.4497
笞	-10.4507
餓	-10.4507
幢	-10.451
餌	-10.451
守宰	-10.4511
安南都䕶	-10.4511
棟	-10.4514
禅	-10.4514
李嚴	-10.4514
苗	-10.4515
諮	-10.4516
㝠	-10.4519
林仁肇	-10.452
祕	-10.452
琅邪	-10.452
冷	-10.4521
廪	-10.4521
鬱	-10.4521
濫	-10.4523
丙辰	-10.4523
畋	-10.4524
乹	-10.4524
太初	-10.4525
刋	-10.4526
壬寅	-10.4526
沐	-10.4527
彦瑫	-10.4528
潘佑	-10.4529
顧全武	-10.4529
檢校司空	-10.453
拙	-10.453
南征	-10.4533
邠	-10.4534
兵大敗	-10.4535
菁	-10.4538
長子也	-10.4542
陳誨	-10.4548
而巳	-10.4551
白龍	-10.4564
旬日	-10.4565
風俗	-10.4576
四十里	-10.458
仁俊	-10.4584
湖州刺史	-10.4587
岳州	-10.4591
軍校	-10.4595
追諡	-10.4607
至金陵	-10.4632
奪其	-10.464
宫殿	-10.4643
字仲	-10.4645
王宗弼	-10.4654
從善	-10.4661
謀叛	-10.4663
江夏	-10.4664
太白	-10.4672
間道	-10.4684
白馬	-10.4684
衢	-10.4709
五十餘	-10.4713
十國	-10.4721
不暇	-10.4723
晞	-10.4724
庶子	-10.4725
稠	-10.4725
鏻	-10.4726
癸巳	-10.4743
畱	-10.4743
新唐書	-10.4743
詡	-10.4744
諶	-10.4745
頋	-10.4747
廂	-10.4747
斧	-10.4747
鄴城	-10.4747
亢	-10.4748
爪	-10.475
甥	-10.475
仁罕	-10.475
躡	-10.475
綾	-10.4751
弦	-10.4752
犢	-10.4753
閑	-10.4753
驍騎將軍	-10.4753
讓皇	-10.4753
課	-10.4753
扼	-10.4754
俞	-10.4754
汪	-10.4754
贄	-10.4755
旦夕	-10.4755
爐	-10.4756
懲	-10.4756
䓁	-10.4756
撫軍將軍	-10.4757
觴	-10.4757
䂓	-10.4757
汚	-10.4757
衷	-10.4757
忝	-10.4758
豁	-10.4758
渝	-10.4759
閏月	-10.4759
五國故事	-10.476
廷尉	-10.4764
隴右	-10.4765
澄樞	-10.4766
餘杭	-10.4767
兗	-10.4769
咸康	-10.4776
歐陽史	-10.4778
知誨	-10.4788
白鹿	-10.4793
赴難	-10.4796
遁去	-10.4797
志云	-10.4802
告急	-10.4811
承休	-10.4811
陳喬	-10.4818
太學	-10.4838
伐齊	-10.4841
吳越國	-10.4848
梓	-10.4851
疾病	-10.4857
烈宗	-10.4867
追贈	-10.4876
延嗣	-10.4885
遂絶	-10.4887
少卿	-10.489
或作	-10.4903
同心	-10.4907
山谷	-10.4907
新都	-10.4922
皇天	-10.4926
擊破之	-10.4931
樂都	-10.4938
鎮海	-10.4942
長吏	-10.4949
遷都	-10.4955
十數	-10.4956
沂	-10.4972
莭度	-10.4973
于京師	-10.4979
裹	-10.498
絡	-10.498
毬	-10.498
較	-10.4986
幄	-10.4987
穎	-10.4987
閤	-10.4988
斜	-10.4989
司𨽻校尉	-10.499
与	-10.499
耗	-10.4991
􁐐	-10.4991
寘	-10.4991
四年春二月	-10.4991
研	-10.4992
中書侍郎同平章事	-10.4992
淹	-10.4992
靳	-10.4992
宕渠	-10.4993
捍	-10.4993
己巳	-10.4994
觧	-10.4994
莭	-10.4995
鎮東將軍	-10.4996
牌	-10.4999
鴦	-10.5
十五里	-10.5
誚	-10.5001
燔	-10.5002
誌	-10.5002
劉彦貞	-10.5004
靜江	-10.5011
春申君	-10.5013
衢州	-10.502
仁規	-10.5028
清源	-10.5029
二十七	-10.503
殆盡	-10.503
開府	-10.5031
割地	-10.5031
睿帝	-10.5036
制置	-10.5036
光禄	-10.5043
從兄	-10.5044
藩鎮	-10.5045
河右	-10.5045
遇害	-10.5052
黎陽	-10.5061
思謙	-10.5065
大恱	-10.5066
至成都	-10.5091
德誠	-10.5113
何憂	-10.5122
宫門	-10.5133
彦卿	-10.5134
祖父	-10.5136
答曰	-10.5166
牙内	-10.517
祖宗	-10.5189
大笑	-10.5189
擊敗之	-10.52
闗東	-10.5207
樞密	-10.5207
親征	-10.5214
威武軍	-10.5217
元帥府	-10.522
滌	-10.5221
揆	-10.5222
厄	-10.5222
李彦	-10.5224
者甚衆	-10.5224
酣	-10.5224
攜	-10.5226
轂	-10.5226
檢校太師	-10.5227
巒	-10.5227
刁	-10.5228
粉	-10.5228
陪	-10.5229
繒	-10.523
替	-10.5231
延鈞	-10.5232
亾	-10.5232
紛	-10.5232
辛卯	-10.5233
蠕	-10.5233
踈	-10.5233
番	-10.5233
江文蔚	-10.5234
峙	-10.5235
猗	-10.5235
柩	-10.5235
頸	-10.5236
潁	-10.5236
舘	-10.5236
頽	-10.5236
丁卯	-10.5237
鎮西將軍	-10.5238
纎	-10.5238
姪	-10.5238
僊	-10.5238
司隷校尉	-10.5239
韓熙載	-10.5239
貯	-10.5244
㬥	-10.5245
嶮	-10.5245
延彬	-10.5248
光業	-10.5249
親臨	-10.5249
朱文進	-10.5251
幕府	-10.5251
鎮南將軍	-10.5262
多難	-10.5269
矢石	-10.5269
鬼神	-10.5269
征西	-10.529
千餘家	-10.5295
諸部	-10.5296
之謂也	-10.5296
恵宗	-10.5299
衆咸	-10.5302
賜號	-10.5305
如其言	-10.5307
月餘	-10.5312
仲宣	-10.5315
兵革	-10.5323
少年	-10.5327
鎮惡	-10.5353
六合	-10.5358
奏授	-10.5383
師敗績	-10.5393
河西王	-10.5413
耆	-10.5469
首領	-10.547
豺	-10.5472
柘	-10.5472
冉閔	-10.5474
耽	-10.5475
㨿	-10.5479
漲	-10.5479
猥	-10.548
怖	-10.548
俠	-10.548
釐	-10.5481
籌	-10.5481
譛	-10.5481
珣	-10.5481
髻	-10.5482
稻	-10.5483
几	-10.5484
漂	-10.5484
餉	-10.5484
洋	-10.5484
稼	-10.5484
安南志畧卷	-10.5484
馮延巳	-10.5484
驃騎將軍	-10.5485
殺戮	-10.5485
奥	-10.5486
捧	-10.5487
陂	-10.5487
羸	-10.5488
濶	-10.5488
詮	-10.5488
賄	-10.5489
揮	-10.5489
尚書右僕射	-10.549
軀	-10.549
抄	-10.5491
禕	-10.5492
㢤	-10.5493
軍府事	-10.5495
琰	-10.5497
楊行宻	-10.5497
貺	-10.5497
豪傑	-10.55
陶雅	-10.5501
乾亨	-10.5504
千秋	-10.5511
百僚	-10.5513
設備	-10.5514
丈餘	-10.5516
反覆	-10.5517
可瓊	-10.5523
乗勝	-10.5525
冀州刺史	-10.5534
張洎	-10.5534
徳眀	-10.5537
謝罪	-10.5547
嶺北	-10.5548
亭侯	-10.5548
堅壁	-10.5549
南蠻	-10.5572
一條	-10.5609
夜夢	-10.5636
不測	-10.5659
所擒	-10.5666
縱兵	-10.5669
兵三千	-10.5688
進圍	-10.571
重遇	-10.5721
養子	-10.5731
安西將軍	-10.5732
帑	-10.5732
佛圖澄	-10.5733
遙	-10.5734
善屬文	-10.5735
不悦	-10.5737
淪	-10.5737
着	-10.5739
黄龍見於	-10.5739
涓	-10.574
躭	-10.574
咏	-10.574
己卯	-10.5742
羣僚	-10.5742
茫	-10.5742
廼	-10.5742
冢	-10.5743
熱	-10.5743
遮	-10.5743
瑤	-10.5743
景逷	-10.5743
戾	-10.5744
謫	-10.5744
叩頭	-10.5744
吐谷渾	-10.5744
埋	-10.5744
把	-10.5745
遍	-10.5746
殃	-10.5746
吉凶	-10.5747
㢘	-10.5753
勒勒	-10.5754
領縣五	-10.5756
元年正月	-10.5757
梁王全忠	-10.5758
上尊號	-10.5761
汶山	-10.5761
仁逹	-10.5794
利害	-10.5795
兵馬使	-10.5797
引兵還	-10.5803
林邑	-10.5805
永康	-10.5807
伏惟	-10.582
延夀	-10.5821
陳璋	-10.5821
遣其將	-10.5846
入境	-10.5854
教授	-10.5861
六千	-10.5869
秦雍	-10.5887
萬物	-10.5899
是夕	-10.5938
武肅	-10.5939
父老	-10.597
何罪	-10.5983
年三十	-10.599
蚝	-10.5991
蠲	-10.5994
以女妻	-10.5994
爛	-10.5996
毘	-10.5997
槍	-10.5998
傲	-10.5998
狡	-10.5999
殱	-10.6
旄	-10.6001
讃	-10.6001
征西大將軍	-10.6002
杏	-10.6003
著作郎	-10.6003
鼻	-10.6004
僉議	-10.6004
録尚書事	-10.6005
禧	-10.6005
禮部侍郎	-10.6006
昉	-10.6006
囬	-10.6007
筮	-10.6007
珙	-10.6007
簾	-10.6007
琬	-10.6007
旌旗	-10.6008
猜忌	-10.6008
鴈	-10.6009
爨	-10.6009
頊	-10.6009
栅	-10.601
帷	-10.601
征南將軍	-10.601
譬	-10.601
王建封	-10.601
𢎞臯	-10.6011
湖湘	-10.6012
延羲	-10.6013
弱冠	-10.6014
西夷校尉	-10.6016
曷	-10.6016
霽	-10.602
劉琨	-10.6024
英武帝	-10.6025
宦官	-10.6032
猶豫	-10.6032
記室	-10.6033
第二子	-10.6044
從誨	-10.6048
千疋	-10.6059
匡業	-10.6068
苻氏	-10.607
千載	-10.607
太伯	-10.6076
三千餘人	-10.6076
永隆	-10.6076
移鎮	-10.6086
咸和	-10.6089
三十里	-10.6091
病卒	-10.6105
二十里	-10.6109
攻陷	-10.6172
皇朝	-10.6194
西河	-10.6233
數里	-10.6237
孝武	-10.624
濱	-10.6259
亹	-10.6264
羆	-10.6265
鞍轡	-10.6267
飽	-10.6268
烹	-10.6268
伽	-10.6268
恠	-10.6268
湧	-10.6268
驃	-10.6269
諛	-10.627
諜	-10.6271
奠	-10.6271
䘏	-10.6273
𤣥靚	-10.6273
䖏	-10.6274
燃	-10.6275
秃髪	-10.6275
弓矢	-10.6276
陀	-10.6276
猜	-10.6276
部貟外郎	-10.6276
幅	-10.6277
曰主上	-10.6277
乾坤	-10.6278
勳	-10.6279
瘞	-10.6279
㳂	-10.6279
玫	-10.628
鵬	-10.628
藍	-10.6281
譔	-10.6281
魄	-10.6281
頓首	-10.6283
帖	-10.6284
沼	-10.6284
銅柱	-10.6287
鳶	-10.629
常夢錫	-10.6297
何敬洙	-10.6298
趙季良	-10.6302
潞州	-10.6306
來附	-10.6307
後主嗣位	-10.6313
豫州刺史	-10.6313
二千石	-10.6313
延巳	-10.6314
太廟	-10.6321
實錄	-10.6322
京口	-10.6323
彦恭	-10.6324
小兒	-10.6327
聞其名	-10.6342
昭符	-10.6345
泉州刺史	-10.6346
聲援	-10.6348
昭慶	-10.6349
立祠	-10.6364
泣下	-10.637
列侯	-10.6377
尚書左丞	-10.6383
廣順	-10.6401
羅尚	-10.6411
海陵	-10.6412
至姑臧	-10.6428
曰寡人	-10.6478
六尺	-10.6498
稔	-10.6532
兢	-10.6537
仔	-10.6539
父兄	-10.654
琦	-10.6544
想	-10.6544
挈	-10.6544
曄	-10.6545
宼	-10.6545
祇	-10.6547
砂	-10.6547
莽	-10.6547
堯舜	-10.6548
都知兵馬使	-10.655
綜	-10.655
伶	-10.655
塗炭	-10.655
攘	-10.6551
帥步騎	-10.6551
沸	-10.6551
臭	-10.6551
愆	-10.6551
潼闗	-10.6552
佯	-10.6552
㝷	-10.6553
騷	-10.6553
孽	-10.6553
冐	-10.6554
秘書郎	-10.6554
崱	-10.6554
綴	-10.6554
廹	-10.6554
勑	-10.6554
槃	-10.6554
拳	-10.6554
虵	-10.6555
藤	-10.6556
櫬	-10.6556
紳	-10.6556
凱	-10.6556
都部署	-10.6557
寕	-10.6557
郛	-10.6557
秘書監	-10.6557
鈎	-10.6558
填	-10.6558
蜀檮杌	-10.6558
異牟尋	-10.6559
姊	-10.6559
粤	-10.656
工部侍郎	-10.656
枋頭	-10.656
賓客	-10.656
寰	-10.6562
禆将	-10.6562
淂	-10.6565
黄眉	-10.6569
柰何	-10.6571
希蕚	-10.6571
徐綰	-10.6573
烘	-10.6573
伍子胥	-10.6575
百艘	-10.6584
蒼生	-10.6586
壽春	-10.6603
婦女	-10.6606
假節	-10.6607
杜洪	-10.6623
敬真	-10.6624
人也仕	-10.6626
朔方	-10.6632
三十六	-10.666
逆擊	-10.6663
疾篤	-10.6768
領䕶	-10.6786
谿	-10.6819
邱	-10.6823
遑	-10.6827
金紫光禄大夫	-10.6831
𤓰	-10.6831
匱	-10.6831
粥	-10.6831
駒	-10.6832
䜛	-10.6832
求救於	-10.6835
倖	-10.6836
懽	-10.6836
打	-10.6837
馮延已	-10.6837
玕	-10.6838
凰	-10.6839
臻	-10.6839
謂諸將曰	-10.6839
嵐	-10.684
愼	-10.684
閹	-10.684
鎮海鎮東	-10.6841
璿	-10.6842
乞伏乾歸	-10.6843
鼇	-10.6844
鉅	-10.6845
隸	-10.6846
率歩騎	-10.6847
城隍	-10.6849
報聘	-10.6849
玝	-10.6849
領縣四	-10.6851
衢州刺史	-10.6851
對曰臣	-10.6852
乘輿	-10.6855
忠遜王	-10.6858
鐵錢	-10.6862
士庶	-10.688
乾德	-10.6881
奔潰	-10.6893
護軍	-10.6903
従善	-10.6917
雅好	-10.6921
封王為	-10.6938
統萬	-10.6943
左丞相	-10.7001
百疋	-10.7026
兖州	-10.7083
偷	-10.7121
濁	-10.7122
沾	-10.7123
熾	-10.7124
歿	-10.7124
征北將軍	-10.7124
江表志	-10.7124
大赦境内殊死已下改元	-10.7128
羈	-10.7128
冥	-10.7129
鎮軍將軍	-10.7129
秃	-10.7129
來宣諭	-10.7129
籙	-10.7129
黄門侍郎	-10.713
蹈	-10.713
郵	-10.713
樵	-10.713
轍	-10.7131
蝗	-10.7131
平北將軍	-10.7132
應援使	-10.7132
括	-10.7132
駙馬都尉	-10.7133
蔓	-10.7134
浮橋	-10.7134
躁	-10.7135
諌議大夫	-10.7136
𬗋	-10.7136
同中書門下平章事	-10.7137
零	-10.7137
鬚	-10.7137
汎	-10.7138
精鋭	-10.7138
蹇	-10.714
曙	-10.7141
牓	-10.7143
嚴可求	-10.7143
閎	-10.7144
納欵	-10.7144
察孝㢘	-10.7144
耆舊	-10.7144
裒	-10.7146
宓	-10.7147
洮	-10.7148
領縣三	-10.7149
僣號	-10.715
貴賤	-10.7151
朱全忠	-10.7154
錢鏐	-10.7154
昆弟	-10.7162
建鋒	-10.7163
裨將	-10.7164
草木	-10.7171
招集	-10.7173
牛酒	-10.7179
貢方物	-10.7183
筌	-10.7184
神仙	-10.7198
邕州	-10.7205
遁歸	-10.7216
一隅	-10.7219
臣僚	-10.7235
宋太宗	-10.7252
謂人曰	-10.7349
固諫	-10.7378
宵	-10.7408
右司馬	-10.7408
趙王麟	-10.7415
漠	-10.742
噬	-10.7421
郤	-10.7424
神武統軍	-10.7426
悖	-10.7426
奢侈	-10.7427
坤	-10.7428
昞	-10.7428
鳩	-10.7428
柴再用	-10.7429
隆演	-10.7432
罄	-10.7433
閣羅鳯	-10.7433
問其故	-10.7434
窟	-10.7434
揣	-10.7435
媛	-10.7435
癸卯	-10.7435
户部侍郎	-10.7435
肝	-10.7436
元璙	-10.7437
餅	-10.7437
炬	-10.7438
堵	-10.7438
蕭儼	-10.7439
憶	-10.7439
緋	-10.744
添	-10.7441
渡河	-10.7441
蹟	-10.7441
彪	-10.7441
亘	-10.7442
猝	-10.7442
膂力	-10.7442
僞	-10.7443
歐史	-10.7444
畨	-10.7445
吏部侍郎	-10.7445
全斌	-10.7446
匹夫	-10.7446
歩騎	-10.7446
縱横	-10.7447
下邳	-10.7447
公藴	-10.7447
晏駕	-10.7448
郪	-10.7448
肜	-10.745
礪	-10.7451
徐鍇	-10.7453
三年春三月	-10.7455
鎮東軍	-10.7456
心腹	-10.7457
占城來貢	-10.7459
合浦	-10.7462
縱火	-10.7464
宴飲	-10.7467
二十四年	-10.7468
乾化	-10.7478
涼州刺史	-10.7483
益州牧	-10.7488
七尺	-10.7489
虚實	-10.75
吕氏	-10.7506
二十卷	-10.7516
嵗餘	-10.7522
禆	-10.759
獲免	-10.7599
右丞相	-10.7613
右丞	-10.7707
潞	-10.7711
漿	-10.7729
申胥	-10.773
馮延己	-10.7738
槩	-10.774
戢	-10.774
安北將軍	-10.774
監察御史	-10.7741
徇	-10.7744
燎	-10.7745
霖	-10.7745
囙	-10.7746
嘏	-10.7747
顙	-10.7747
榆	-10.7747
弛	-10.7748
謐	-10.7748
購	-10.7748
貝	-10.7749
翕	-10.7749
恬	-10.775
態	-10.7751
弘兾	-10.7752
栗	-10.7753
琮	-10.7753
驪	-10.7755
脚	-10.7755
片	-10.7755
赫連	-10.7756
卵	-10.7757
殞	-10.7757
撲	-10.7758
顗	-10.7758
驢	-10.7759
牛羊	-10.776
剌史	-10.776
麻秋	-10.776
葆	-10.776
張巒	-10.7761
五百餘	-10.7762
曹彬	-10.777
會稽	-10.7775
親戚	-10.7776
苑川	-10.7779
羽林	-10.7781
郊迎	-10.7782
周行逢	-10.7785
李仁罕	-10.779
玉衡	-10.7792
疾苦	-10.7797
單馬	-10.7803
博陵	-10.7807
蘄州	-10.7811
平原公	-10.7883
邀擊	-10.7889
家貧	-10.7908
千匹	-10.7934
骨肉	-10.8032
歐	-10.8039
藴	-10.8042
樸	-10.8043
椒	-10.8045
趾	-10.8048
昵	-10.8055
闡	-10.8055
褘	-10.8057
羞	-10.8061
蒲阪	-10.8063
憫	-10.8063
皇甫暉	-10.8065
裘	-10.8066
蔑	-10.8066
袒	-10.8066
妣	-10.8066
𤼵	-10.8067
身長八尺	-10.8067
滑	-10.8067
彧	-10.8067
嗚	-10.8069
千餘級	-10.8069
禳	-10.8069
擔	-10.807
股肱	-10.807
撥	-10.807
償	-10.8071
据	-10.8072
氏為皇太后	-10.8072
傳璙	-10.8073
旗幟	-10.8073
遁走	-10.8074
沆	-10.8074
鏞	-10.8075
㝎	-10.8075
鄯善	-10.8075
哈	-10.8075
烏丸	-10.8075
有是命	-10.8076
咽	-10.8076
潁川	-10.8076
悌	-10.8076
粹	-10.8076
璣	-10.8077
栢	-10.8077
弭	-10.8077
器械	-10.8082
善騎射	-10.8082
衡陽王	-10.8083
音律	-10.8084
衛尉	-10.8086
殤	-10.8086
競渡	-10.8094
扶餘	-10.8097
伏波	-10.8101
擁衆	-10.8107
二十餘年	-10.8108
戒嚴	-10.8112
前驅	-10.8113
居數年	-10.8127
飲食	-10.8135
兵馬元帥	-10.8136
夫婦	-10.8168
設伏	-10.8205
六年春正月	-10.8209
㫤	-10.8383
氐羌	-10.8384
眇	-10.8392
雁	-10.8393
攷	-10.8396
都押牙	-10.8397
金墉	-10.8397
譟	-10.8401
鼠	-10.8401
齊王景達	-10.8402
詹	-10.8403
碁	-10.8403
南唐近事	-10.8403
椘	-10.8403
碣	-10.8403
雷電	-10.8404
聨	-10.8405
平西將軍	-10.8406
刎	-10.8406
恙	-10.8407
覧	-10.8407
巍	-10.8407
誇	-10.8407
夲	-10.8407
濳	-10.8408
馴	-10.8408
偹	-10.8409
鎔	-10.8409
高句驪	-10.8409
濵	-10.8409
牆	-10.841
征南大將軍	-10.841
宗滌	-10.841
切諌	-10.8411
旨	-10.8411
瑛	-10.8413
中軍將軍	-10.8413
袴	-10.8414
堆	-10.8416
冀州牧	-10.8424
帥歩騎	-10.8425
燉煌太守	-10.8426
徐溫	-10.8427
盧絳	-10.8429
巴郡太守	-10.8433
有大志	-10.8447
敢忘	-10.8491
曾祖	-10.8498
節度使兼中書令	-10.8636
二年春三月	-10.865
萬七千	-10.8669
汶	-10.8726
玠	-10.8729
甄	-10.8733
栖	-10.8737
龜兹	-10.8738
槖	-10.8738
笏	-10.8739
龑	-10.874
孕	-10.874
讜	-10.874
鏢	-10.874
娠	-10.8741
茲	-10.8742
公孫述	-10.8742
械	-10.8743
縳	-10.8744
拉	-10.8744
瀛	-10.8745
左賢王	-10.8745
嘲	-10.8746
憎	-10.8746
緝	-10.8747
篡	-10.8747
桂林	-10.8748
黷	-10.8748
話	-10.8749
燾	-10.875
叢	-10.875
榜	-10.8752
嗜酒	-10.8753
擕	-10.8753
季札	-10.8754
朔日有蝕之	-10.8754
寐	-10.8755
鎮海軍節度使	-10.8755
聦	-10.8755
叠	-10.8755
墀	-10.8755
瞿	-10.8755
農桑	-10.8756
潯陽	-10.8756
清平官	-10.8756
袖	-10.8757
切齒	-10.8759
鄱陽	-10.876
渴	-10.876
搏	-10.8762
湏	-10.8762
丞相亮	-10.8766
徃徃	-10.8766
張蚝	-10.8771
在位十	-10.8774
匡凝	-10.8776
白雀	-10.8778
樓船	-10.8784
蘆	-10.9084
嶠	-10.9087
淡	-10.9092
驥	-10.9092
穹	-10.9093
裨	-10.9093
鷄	-10.9095
褥	-10.9096
饌	-10.9096
床	-10.9096
皎	-10.9096
泝	-10.9097
岀	-10.9097
吁	-10.9097
李重進	-10.9098
總管	-10.91
刅	-10.91
嬰城固守	-10.91
墊	-10.91
鹽井	-10.9101
菜	-10.9101
錦里耆舊傳	-10.9101
鎮北將軍	-10.9101
腐	-10.9103
軸	-10.9103
傭	-10.9103
携	-10.9104
綝	-10.9104
堰	-10.9104
浸	-10.9105
逸豆歸	-10.9105
竇衝	-10.9106
𤣥喆	-10.9107
馥	-10.9108
縣郡治	-10.9108
頷	-10.9108
中書省	-10.9109
秃髪傉檀	-10.9109
鬰	-10.9109
冩	-10.911
凍	-10.911
槐	-10.911
猪	-10.911
匣	-10.911
零陵	-10.911
安南國王	-10.9111
療	-10.9111
瘳	-10.9111
險阻	-10.9111
渙	-10.9111
沮渠䝉遜	-10.9113
笥	-10.9114
爇	-10.9114
庾信	-10.9115
种	-10.9115
兖州刺史	-10.9116
炕	-10.9116
燼	-10.9117
紗	-10.9117
漫	-10.9117
印綬	-10.9117
曩	-10.9119
参	-10.9119
鹽鐵	-10.912
悵	-10.9121
末杯	-10.9121
黄巢	-10.9122
牡	-10.9123
鯀	-10.9123
琶	-10.9125
胡進思	-10.9126
宵遁	-10.9134
𢎞鐸	-10.9145
居無何	-10.9146
佃	-10.9456
郃	-10.9456
煦	-10.9461
岷	-10.9461
懾	-10.9463
牲	-10.9466
陌	-10.9466
芒	-10.9466
范陽王徳	-10.9467
猾	-10.9467
越王句踐	-10.9468
訊	-10.947
榭	-10.9471
繋	-10.9471
闐	-10.9471
慘	-10.9472
衫	-10.9472
劣	-10.9472
僰道	-10.9474
糾	-10.9474
崑崙	-10.9475
大赦境内殊死已下	-10.9475
棹	-10.9476
陽平公融	-10.9476
奨	-10.9476
喉	-10.9476
珂	-10.9477
建節將軍	-10.9477
諍	-10.9477
慟哭	-10.9477
啼	-10.9478
關内侯	-10.9479
赫連勃勃	-10.948
迅	-10.948
烈祖受禪	-10.948
絃	-10.948
疽	-10.9481
貞元十年	-10.9481
盆	-10.9481
即帝位	-10.9482
嫉	-10.9482
扞	-10.9483
奎	-10.9483
鵲	-10.9483
彥	-10.9483
姑蘇	-10.9484
䕃	-10.9484
嘯	-10.9484
詬	-10.9485
洵美	-10.9486
立為皇后	-10.9486
童謡	-10.9487
煞	-10.9487
兎	-10.9489
䑕	-10.9489
百揆	-10.9491
苻丕	-10.9495
謂羣臣曰	-10.9498
乾符	-10.9501
敬瑭	-10.9505
范子曰	-10.9522
幽冀	-10.9552
四年春三月	-10.9688
挹	-10.9838
秣	-10.9847
富沙王	-10.985
彗星	-10.985
鞫	-10.9851
苗裔	-10.9851
濯	-10.9852
矦	-10.9853
狩	-10.9854
般	-10.9854
矟	-10.9854
濡	-10.9855
緜	-10.9855
淝	-10.9855
宋光嗣	-10.9855
能屬文	-10.9855
孛	-10.9855
案此條	-10.9857
鎖	-10.9857
東夷校尉	-10.9857
舶	-10.9858
萱	-10.9858
禎	-10.9858
薬	-10.9859
確	-10.9859
轉運使	-10.9859
哶	-10.986
掛	-10.986
貞懿王	-10.9861
逈	-10.9862
多此𩔖	-10.9862
南唐書列傳卷苐	-10.9862
現	-10.9862
罽	-10.9863
榻	-10.9863
准	-10.9863
圜	-10.9863
禺	-10.9864
趙廷隱	-10.9864
弔祭	-10.9864
涼州牧	-10.9864
鎮遏使	-10.9865
蟻	-10.9865
紹琛	-10.9865
摘	-10.9866
弁	-10.9866
耆老	-10.9867
頥	-10.9867
鈴	-10.9868
塑	-10.9868
刑部尚書	-10.9868
棗	-10.9868
苖	-10.9869
銷	-10.9869
酌	-10.9869
郊祀	-10.9869
勅授王	-10.9869
佚	-10.9869
嗚呼哀哉	-10.987
涯	-10.9871
孜	-10.9871
卦	-10.9872
行營招討使	-10.9872
安重誨	-10.9872
工部尚書	-10.9872
積功至	-10.9874
連重遇	-10.9874
岩	-10.9875
邏	-10.9877
洸	-10.9878
頡	-10.9878
滑臺	-10.9889
二年正月	-11.0003
贈太師	-11.0117
七年春正月	-11.0124
團練使	-11.022
仲㝢	-11.0242
乞伏熾磐	-11.0244
劫	-11.0248
泮	-11.0248
㷊	-11.0248
簫	-11.0249
轄	-11.0251
弇	-11.0253
魴	-11.0253
恊	-11.0253
逄	-11.0254
馘	-11.0254
漕	-11.0254
矧	-11.0255
夣	-11.0255
蠟	-11.0256
腸	-11.0257
撫軍大將軍	-11.0257
衆寡不敵	-11.0258
覊	-11.0258
煉	-11.0259
挽	-11.0259
蜂	-11.026
闈	-11.0261
啇	-11.0261
謔	-11.0261
跳	-11.0261
晶	-11.0262
蹕	-11.0262
粒	-11.0262
觀察判官	-11.0262
棄城走	-11.0262
地理志	-11.0262
芻	-11.0264
蟠	-11.0264
酖	-11.0264
司隸校尉	-11.0265
朔日食	-11.0266
禋	-11.0267
魏王繼岌	-11.0267
舉秀才	-11.0268
糞	-11.0268
蒯	-11.0268
豺狼	-11.0268
賞罰	-11.0269
是役也	-11.027
挑戰	-11.027
葭萌	-11.027
判六軍	-11.027
蒞	-11.0271
率騎二萬	-11.0272
偁	-11.0273
昪	-11.0274
琚	-11.0274
灘	-11.0274
牂	-11.0276
殉	-11.0277
富軾	-11.0277
僮	-11.0278
瓉	-11.0278
真臘	-11.029
錦繡	-11.0495
柰	-11.0641
址	-11.0662
世子惟濬	-11.0663
寖	-11.0667
隻	-11.0667
僅以身免	-11.0667
敖	-11.0669
凋	-11.0669
舁	-11.0671
僭即皇帝位	-11.0672
天䇿府	-11.0672
華陽國志卷	-11.0674
襁	-11.0674
跣	-11.0675
遼西王農	-11.0675
吕師造	-11.0676
桂管	-11.0677
凢	-11.0677
畆	-11.0677
瑜	-11.0677
茂虔	-11.0678
葺	-11.0678
鯉	-11.0678
槊	-11.0678
餽	-11.0678
散騎侍郎	-11.0679
疾陸眷	-11.0679
雌	-11.0679
廐	-11.068
株	-11.068
桑梓	-11.068
刪	-11.0681
鼓譟	-11.0681
媪	-11.0681
折衝將軍	-11.0681
蹄	-11.0681
不知何許人	-11.0682
磯	-11.0682
鉅鹿	-11.0682
聶	-11.0682
㒺	-11.0682
叨	-11.0683
青城山	-11.0683
侑	-11.0684
旒	-11.0684
瑗	-11.0686
鄧艾	-11.0686
㳟	-11.0686
宗廟社稷	-11.0687
樞宻副使	-11.0687
瞋	-11.0687
耘	-11.0687
䑓	-11.0687
尓	-11.0687
釘	-11.0688
装	-11.0689
䖍釗	-11.069
篋	-11.069
武義元年	-11.0691
姜維	-11.0692
珝	-11.0692
伴	-11.0692
秦始皇	-11.0709
熾盤	-11.074
蘄	-11.1012
玗	-11.1072
楯	-11.1078
奈	-11.1087
騖	-11.109
羲範	-11.1092
僉	-11.1095
轡	-11.1096
呌	-11.1097
㫄	-11.1098
弃	-11.1099
坂	-11.11
須臾	-11.1102
揔	-11.1102
嫗	-11.1103
辤	-11.1104
漬	-11.1104
玳瑁	-11.1106
甸	-11.1107
屡	-11.1107
薰	-11.1108
緘	-11.1108
殷崇義	-11.1108
豚	-11.1108
淄	-11.1108
鞍勒馬	-11.1108
肘	-11.1108
詆	-11.1109
𥙷	-11.1111
愎	-11.1111
狠	-11.1111
駞	-11.1111
帽	-11.1111
蛟	-11.1111
踴	-11.1112
聿	-11.1112
韙	-11.1112
控鶴	-11.1112
氛	-11.1113
鎮東大將軍	-11.1113
灑	-11.1114
梗	-11.1115
揚武將軍	-11.1115
仇讐	-11.1115
行營都統	-11.1117
臠	-11.1117
苾	-11.1118
庇	-11.1119
肺	-11.1119
猿	-11.112
長水校尉	-11.112
脂	-11.112
浄	-11.112
紞	-11.1122
叶	-11.1122
東都留守	-11.1122
撤	-11.1123
斐	-11.1123
宣徽使	-11.1124
為内應	-11.1124
領縣二	-11.1125
卞	-11.1126
曇逹	-11.1127
誼	-11.1127
硯	-11.1129
簷	-11.1129
覃	-11.1133
嘉其忠	-11.1134
萬疋	-11.1302
婺	-11.1327
犍	-11.1415
蔵	-11.1544
棠	-11.1548
李齊賢	-11.1548
鏁	-11.1551
慿	-11.1552
徭	-11.1553
牘	-11.1554
葵	-11.1555
鴟	-11.1555
崑	-11.1555
悛	-11.1556
繹	-11.1556
攬	-11.156
剥	-11.156
呵	-11.156
炙	-11.156
鉛	-11.1561
涸	-11.1562
中流矢	-11.1562
翳	-11.1563
轘	-11.1563
瑕	-11.1563
鯁	-11.1563
售	-11.1563
吝	-11.1564
睡	-11.1565
悪	-11.1565
軄	-11.1565
譎	-11.1565
諺	-11.1565
龔慎儀	-11.1565
狼狽	-11.1566
縷	-11.1566
攘袂	-11.1566
蕪	-11.1566
盒	-11.1567
捉	-11.1568
唇齒	-11.1568
嬉	-11.1568
佖	-11.157
欷	-11.1571
喧	-11.1571
鋹	-11.1571
寧朔將軍	-11.1572
悽	-11.1572
婿	-11.1572
曼	-11.1572
箋	-11.1573
給事黄門侍郎	-11.1573
廡	-11.1574
太子洗馬	-11.1574
鐔	-11.1575
闋	-11.1576
瓜	-11.1577
醒	-11.1578
舟楫	-11.1578
貟	-11.1579
璵	-11.1581
曰大丈夫	-11.1581
琀	-11.1582
雹	-11.1582
翰林待詔	-11.1587
鶚	-11.1587
閶	-11.1595
骸骨	-11.1631
百匹	-11.1684
紇	-11.2015
瓠	-11.2019
睢	-11.2021
煮	-11.2026
高陽王隆	-11.2028
低	-11.2029
撻	-11.203
都押衙	-11.2031
培	-11.2031
犂	-11.2031
丐	-11.2032
洵	-11.2032
􁪽	-11.2032
髦	-11.2033
奉朝請	-11.2034
嶲	-11.2035
郄	-11.2036
鉢	-11.2036
徤	-11.2036
鯨	-11.2037
賻	-11.2037
治中從事	-11.2037
粮	-11.2037
瑚	-11.2038
单	-11.2038
駁	-11.2038
鍊	-11.2039
邯	-11.204
縑	-11.204
衾	-11.204
纒	-11.204
糜	-11.204
訃	-11.2041
旰	-11.2041
宣諭使	-11.2041
迦	-11.2041
元黎崱撰	-11.2042
鴨	-11.2042
山南西道節度使	-11.2042
愕	-11.2043
蚤	-11.2043
鋪	-11.2043
鼈	-11.2044
甌	-11.2044
刄	-11.2044
若干卷	-11.2044
怙	-11.2045
笛	-11.2045
販	-11.2045
何面目	-11.2045
陘	-11.2045
架	-11.2046
以孝聞	-11.2046
儂	-11.2046
緇	-11.2047
唐餘紀傳	-11.2047
𣢾	-11.2047
静海軍節度	-11.2048
卒年五十	-11.2048
陸游南唐書	-11.2049
艷	-11.2049
鈔	-11.205
磐	-11.205
塩	-11.205
聳	-11.205
闘	-11.205
弹	-11.2051
胸	-11.2052
殊死已下	-11.2052
鍳	-11.2053
釣磯立談	-11.2054
酸	-11.2054
步軍都指揮使	-11.2055
申包胥	-11.2056
紏	-11.2056
撞	-11.2057
悴	-11.2058
紓	-11.2058
天下兵馬都元帥	-11.2059
羈縻	-11.2061
長樂公丕	-11.2062
王孫駱	-11.2066
僖	-11.251
陛	-11.2513
囿	-11.2517
磾	-11.2519
拾	-11.2522
妬	-11.2524
灼	-11.2526
贊成事	-11.2527
絕	-11.2527
濕	-11.2527
貿	-11.2529
亨	-11.2531
繆	-11.2532
映	-11.2532
儀同三司	-11.2533
陳覺李徴古	-11.2534
綦	-11.2534
斾	-11.2535
竿	-11.2536
股	-11.2536
佺	-11.2537
昻	-11.2537
渦	-11.2537
寧國軍節度使	-11.2537
璃	-11.2538
㐮	-11.2538
溉	-11.2538
淨	-11.2538
澠	-11.2539
墅	-11.254
俳	-11.2542
勤政殿學士	-11.2542
黠	-11.2542
殖	-11.2542
邢	-11.2543
賜王生辰禮物	-11.2543
馨	-11.2543
壅	-11.2543
頋全武	-11.2543
鉤	-11.2545
眸	-11.2545
諳	-11.2545
廕	-11.2545
錮	-11.2545
唘	-11.2545
贓	-11.2545
玢	-11.2547
竢	-11.2548
蕘	-11.2548
噪	-11.2548
髙句驪	-11.2548
仆	-11.2549
醮	-11.2549
溟	-11.2551
徊	-11.2551
沐浴	-11.2551
巻	-11.2551
許再思	-11.2552
芙	-11.2552
許德勲	-11.2553
闊	-11.2554
漣	-11.2557
廷琄	-11.2557
黍	-11.2557
霆	-11.2558
扣	-11.256
滇	-11.256
廣平公弼	-11.2561
蟾	-11.2562
瓚	-11.2564
偵	-11.2564
軟	-11.2568
十疋	-11.2824
骸	-11.2976
泫	-11.3046
諂	-11.3048
埿	-11.3049
愔	-11.3049
帥精騎	-11.305
炯	-11.3051
訶	-11.3051
盪	-11.3054
鈍	-11.3056
靳準	-11.3056
兠	-11.3056
倬	-11.3057
彎	-11.3058
出其不意	-11.3058
國子祭酒	-11.3059
惋	-11.3059
覔	-11.3059
長春殿	-11.3059
王崇質	-11.3059
瑱	-11.3059
僑	-11.3059
倐	-11.3059
螺	-11.3059
煬	-11.306
糟	-11.306
椀	-11.306
橘	-11.306
虬	-11.3061
迥	-11.3061
彗	-11.3061
啖	-11.3061
技	-11.3062
鈐	-11.3062
倨	-11.3062
安逺將軍	-11.3063
倧	-11.3064
姧	-11.3065
盍	-11.3066
拊	-11.3066
遶	-11.3066
瞽	-11.3067
糴	-11.3067
欠	-11.3068
潦	-11.3068
晁	-11.3068
餒	-11.3068
紐	-11.3068
楞	-11.3069
俚	-11.3069
昬	-11.3069
無虚日	-11.3069
紛紛	-11.3069
黄門郎	-11.307
阼	-11.307
旵	-11.307
婉	-11.3071
贅	-11.3071
匝	-11.3071
邆	-11.3071
滴	-11.3071
兔	-11.3071
磬	-11.3071
捲	-11.3071
顧左右曰	-11.3072
踞	-11.3073
烽	-11.3074
儻	-11.3074
儋	-11.3074
彞	-11.3074
衂	-11.3075
昀	-11.3075
闌	-11.3075
釡	-11.3075
浹	-11.3077
六年春二月	-11.3078
參知政事	-11.3078
粧	-11.308
的	-11.3081
批	-11.3081
謟	-11.3081
鄭夢周	-11.3081
袋	-11.3082
鎮逺將軍	-11.3083
寗	-11.3085
堦	-11.3087
玭	-11.3087
蕚	-11.3095
盃	-11.3096
倓	-11.3596
􁠷	-11.3603
鄭彦華	-11.3604
鷰	-11.3606
捄	-11.3609
謙光殿	-11.3609
縻	-11.3609
喇	-11.361
襦	-11.361
閼	-11.3611
惕	-11.3611
荼	-11.3611
右千牛衛	-11.3612
祺	-11.3613
戶	-11.3613
縉	-11.3613
禮賢宅	-11.3614
庖	-11.3614
竪	-11.3615
祟	-11.3615
茗	-11.3616
娛	-11.3616
衒	-11.3617
譌	-11.3617
熖	-11.3617
醴	-11.3617
營田副使	-11.3618
些	-11.3619
敗我兵于	-11.3619
擐	-11.362
卒諡文	-11.3621
鵝	-11.3621
瞑	-11.3621
减	-11.3622
鎮西大將軍	-11.3622
鞏	-11.3622
户部尚書	-11.3622
蠧	-11.3623
胎	-11.3623
浣	-11.3623
衲	-11.3624
旭	-11.3624
膚	-11.3624
葦	-11.3625
倜儻	-11.3625
孩	-11.3625
謠	-11.3625
峨	-11.3625
樽	-11.3625
謂所親曰	-11.3625
鞬	-11.3625
偡	-11.3626
魏崔鴻撰	-11.3626
勸課農桑	-11.3626
􁡦	-11.3626
五年春二月	-11.3626
集賢殿	-11.3627
等謹案	-11.3627
莅	-11.3627
肌	-11.3627
耄	-11.3627
番禺	-11.3629
籬	-11.3629
欄	-11.3629
瀝	-11.3629
胷	-11.3629
髯	-11.3629
俛	-11.363
芮	-11.363
蟬	-11.363
換	-11.363
􁫘	-11.363
貂	-11.363
踏	-11.363
曳	-11.3631
臘	-11.3631
弋	-11.3631
港	-11.3632
煌	-11.3632
甄萱	-11.3632
㳤	-11.3632
杞	-11.3633
沁	-11.3633
莒	-11.3633
冗	-11.3633
紊	-11.3633
右補闕	-11.3633
冊府元龜	-11.3634
麤	-11.3635
稀	-11.3635
秘書省正字	-11.3635
珉	-11.3636
閫	-11.3637
毖	-11.3638
迸	-11.364
甃	-11.364
鎻	-11.3641
娘	-11.3644
呉呉南唐南唐南唐	-11.3645
翮	-11.3651
景福元年	-11.405
炅	-11.4164
邽	-11.417
訢	-11.4172
闓	-11.4181
羮	-11.4187
峒	-11.4188
僎	-11.4189
大事去矣	-11.4191
咒	-11.4194
查	-11.4196
捶	-11.4198
囂	-11.4199
軹	-11.4199
犄	-11.4201
即偽位	-11.4202
太子少傅	-11.4203
㗖	-11.4204
鐫	-11.4205
淦	-11.4205
奉車都尉	-11.4205
哂	-11.4205
畝	-11.4205
央	-11.4206
瑣	-11.4206
夔	-11.4207
呪	-11.4207
謏	-11.4207
袵	-11.4208
森	-11.4208
戀	-11.4208
荏	-11.4208
晷	-11.4209
覬	-11.4209
澆	-11.4209
僃	-11.421
閽	-11.421
裸	-11.4211
聾	-11.4211
娯	-11.4211
鮓	-11.4212
袤	-11.4212
麋	-11.4212
斵	-11.4212
遘	-11.4212
黯	-11.4213
壑	-11.4214
諦	-11.4214
顓	-11.4214
臾	-11.4215
閨	-11.4215
箸	-11.4215
懈	-11.4216
璩	-11.4216
祜	-11.4217
涿	-11.4218
摶	-11.4218
藁	-11.422
舂	-11.4221
艶	-11.4222
㸑	-11.4223
瘠	-11.4225
闞	-11.4225
坎	-11.4227
鋌	-11.4228
蜜	-11.4233
〇	-11.4236
蔗	-11.4238
瑪	-11.4815
企	-11.4817
甕	-11.4819
潯	-11.4821
盎	-11.4822
殫	-11.4823
眩	-11.4824
笮	-11.4826
羨	-11.4826
朞	-11.4826
瘡	-11.4828
箱	-11.4829
暝	-11.4829
埸	-11.483
褚	-11.483
盲	-11.483
鐺	-11.4831
忱	-11.4831
絙	-11.4832
嘔	-11.4833
件	-11.4833
霑	-11.4833
媵	-11.4834
䛕	-11.4834
椎	-11.4834
芥	-11.4834
扁	-11.4835
妨	-11.4836
囑	-11.4836
輓	-11.4836
芟	-11.4836
渇	-11.4838
曵	-11.4838
耐	-11.4839
催	-11.4839
炤	-11.4839
萍	-11.4839
灝	-11.484
藿	-11.484
脇	-11.484
闚	-11.484
巽	-11.4841
褊	-11.4841
洙	-11.4841
嗇	-11.4841
鏵	-11.4842
昝	-11.4842
咄	-11.4842
珥	-11.4842
駟	-11.4843
鄆	-11.4843
琥	-11.4843
箠	-11.4843
縫	-11.4843
昂	-11.4844
吿	-11.4844
箴	-11.4845
𥿄	-11.4845
櫓	-11.4845
彫	-11.4845
劭	-11.4846
禇	-11.4846
嵬	-11.4846
冤	-11.4846
涵	-11.4847
惇	-11.4847
湼	-11.4848
蘋	-11.485
趫	-11.485
飼	-11.485
敘	-11.4851
􁢱	-11.4852
圉	-11.4852
黥	-11.4853
旼	-11.486
鑰	-11.4863
琇	-11.4865
􁗁	-11.5444
巣	-11.548
勗	-11.5484
棧	-11.5487
殮	-11.5487
鏗	-11.5488
㪚	-11.5489
筋	-11.5489
誹	-11.5491
嚕	-11.5491
塜	-11.5492
沱	-11.5493
駝	-11.5493
𠡠	-11.5493
瑁	-11.5493
蒨	-11.5493
縮	-11.5495
騁	-11.5496
惮	-11.5496
鍍	-11.5496
踊	-11.5497
盱	-11.5497
嘻	-11.5497
吠	-11.5498
戅	-11.5498
筒	-11.5498
舫	-11.5499
鄠	-11.5499
隰	-11.5499
觔	-11.55
閙	-11.55
睨	-11.55
聯	-11.55
灣	-11.55
愴	-11.5501
翫	-11.5501
認	-11.5501
荔	-11.5502
夭	-11.5502
櫝	-11.5502
惻	-11.5503
派	-11.5503
瘁	-11.5503
㬰	-11.5503
焰	-11.5504
幻	-11.5504
杉	-11.5504
懋	-11.5505
桞	-11.5505
凑	-11.5505
膾	-11.5505
椿	-11.5506
隳	-11.5506
㩀	-11.5506
楮	-11.5507
旂	-11.5507
逕	-11.5508
幡	-11.5508
槽	-11.5508
裙	-11.5508
逓	-11.5509
趋	-11.5509
蹲	-11.5509
毆	-11.551
屣	-11.551
徘	-11.5511
甯	-11.5511
筏	-11.5512
頰	-11.5513
掲	-11.5513
杳	-11.5513
塊	-11.5514
碓	-11.5514
腑	-11.5515
皷	-11.5516
巵	-11.5516
慤	-11.5516
玷	-11.5517
杌	-11.5518
產	-11.5518
厮	-11.5519
誄	-11.5519
蕉	-11.5519
鬢	-11.552
蝕	-11.5521
戩	-11.5523
摭	-11.5523
泚	-11.5526
璛	-11.5533
郯	-11.5536
甬	-11.5536
卨	-11.6182
煒	-11.6184
錐	-11.6195
癘	-11.6196
茵	-11.6197
疵	-11.6199
迪	-11.62
薑	-11.62
錡	-11.6202
厠	-11.6203
縈	-11.6204
䂮	-11.6205
琢	-11.6206
旺	-11.6207
竈	-11.6207
耒	-11.6208
蛙	-11.6208
祧	-11.6209
腕	-11.6209
圎	-11.6209
皋	-11.621
陴	-11.621
藪	-11.6211
旽	-11.6211
諠	-11.6211
猫	-11.6211
顕	-11.6212
豳	-11.6212
燧	-11.6212
蘿	-11.6213
㒒	-11.6213
燦	-11.6214
歇	-11.6214
泌	-11.6215
懃	-11.6215
瑋	-11.6216
鞞	-11.6216
隄	-11.6216
𣙜	-11.6216
㐫	-11.6217
縗	-11.6217
犁	-11.6217
迺	-11.6217
麝	-11.6218
覦	-11.6218
擯	-11.6218
纓	-11.6219
赱	-11.6219
縝	-11.6219
茹	-11.622
悰	-11.622
嫚	-11.622
豔	-11.622
組	-11.6221
檝	-11.6221
媒	-11.6221
拍	-11.6221
刹	-11.6221
爕	-11.6222
洒	-11.6222
埃	-11.6224
琅	-11.6224
袂	-11.6224
坡	-11.6224
軺	-11.6225
鄜	-11.6226
値	-11.6227
忳	-11.6227
鳬	-11.6227
飭	-11.6227
概	-11.6228
弈	-11.6229
㸦	-11.6229
鑊	-11.623
鋸	-11.623
廽	-11.6231
猴	-11.6233
鴛	-11.6233
珏	-11.6235
儇	-11.6236
刳	-11.6236
韞	-11.6237
愽	-11.6238
剡	-11.6238
齧	-11.6239
默	-11.6239
畚	-11.6242
亶	-11.6243
翺	-11.625
枳	-11.6954
剏	-11.6963
奐	-11.6967
挑	-11.6969
卬	-11.6973
墾	-11.6975
脛	-11.6976
咼	-11.6976
頎	-11.6977
牕	-11.6977
悚	-11.6977
銶	-11.6977
眙	-11.6978
顆	-11.6978
謇	-11.6979
掇	-11.6979
掉	-11.698
烝	-11.698
躓	-11.6982
肄	-11.6982
􁏫	-11.6982
虢	-11.6983
旃	-11.6983
梨	-11.6984
杼	-11.6985
宄	-11.6985
圃	-11.6985
懌	-11.6985
眠	-11.6986
楹	-11.6986
迢	-11.6986
蝶	-11.6986
啗	-11.6986
邳	-11.6986
祉	-11.6987
祔	-11.6987
奭	-11.6988
佇	-11.6988
紈	-11.6988
尢	-11.6989
綠	-11.6989
薙	-11.6989
湮	-11.6989
牖	-11.699
搖	-11.699
筍	-11.6991
泳	-11.6991
鄖	-11.6991
圯	-11.6992
㡌	-11.6992
蓼	-11.6992
麓	-11.6993
鵠	-11.6993
壹	-11.6993
膠	-11.6993
幘	-11.6994
頑	-11.6994
遞	-11.6994
髠	-11.6994
殛	-11.6994
簮	-11.6995
莵	-11.6996
寥	-11.6996
款	-11.6997
誑	-11.6998
腋	-11.6999
餙	-11.6999
剃	-11.7
嗤	-11.7
瑰	-11.7001
薫	-11.7002
傁	-11.7003
核	-11.7004
暾	-11.7008
峩	-11.7008
擎	-11.7011
嘷	-11.7014
侣	-11.7015
翷	-11.7015
鴉	-11.7022
誾	-11.703
觚	-11.7787
苧	-11.7792
姒	-11.7794
莞	-11.78
頔	-11.7804
譁	-11.7804
竦	-11.7806
埒	-11.7806
藹	-11.7807
冺	-11.7807
脊	-11.7808
蕳	-11.7809
汙	-11.7809
陁	-11.7812
衎	-11.7813
廑	-11.7813
帚	-11.7815
䭾	-11.7815
捋	-11.7815
昴	-11.7815
剔	-11.7815
莖	-11.7815
複	-11.7816
腆	-11.7816
鶻	-11.7818
栽	-11.7818
瀾	-11.7819
洱	-11.7819
撿	-11.7819
氊	-11.7819
噐	-11.782
槨	-11.782
舸	-11.782
撾	-11.7821
挐	-11.7821
揷	-11.7821
趺	-11.7821
㤀	-11.7821
唾	-11.7822
綘	-11.7822
鑼	-11.7822
娱	-11.7822
蔬	-11.7823
棋	-11.7823
㢠	-11.7823
蹂	-11.7823
噉	-11.7824
瑥	-11.7824
偈	-11.7825
埀	-11.7825
扎	-11.7825
縠	-11.7825
瑟	-11.7825
巔	-11.7826
籥	-11.7826
洫	-11.7826
鎗	-11.7826
彤	-11.7827
雛	-11.7827
屑	-11.7827
釜	-11.7827
檮	-11.7828
鞵	-11.7828
阨	-11.7829
掣	-11.7829
暖	-11.7829
盥	-11.7829
迂	-11.7829
眄	-11.7829
霤	-11.7829
溷	-11.7829
义	-11.783
沗	-11.783
㪷	-11.7831
鏘	-11.7831
畔	-11.7832
笠	-11.7832
猖	-11.7833
䋲	-11.7833
鍵	-11.7834
髀	-11.7835
晡	-11.7835
凄	-11.7836
疊	-11.7836
睹	-11.7837
腳	-11.7839
宝	-11.7839
炊	-11.7839
鄕	-11.7841
綈	-11.7842
戕	-11.7845
庵	-11.7847
溲	-11.7849
弢	-11.7865
驁	-11.8703
抛	-11.8704
􁍆	-11.8705
針	-11.8708
埭	-11.8708
彀	-11.871
罸	-11.8711
魅	-11.8711
虺	-11.8712
蒜	-11.8713
腴	-11.8713
驄	-11.8714
鍔	-11.8715
㰱	-11.8715
逗	-11.8715
褁	-11.8715
鋤	-11.8716
衿	-11.8718
蔭	-11.8719
覈	-11.8719
竅	-11.8719
擿	-11.8719
湍	-11.8721
穗	-11.8722
邅	-11.8722
蓍	-11.8722
笄	-11.8722
蕋	-11.8722
皂	-11.8722
熹	-11.8723
湎	-11.8723
纍	-11.8724
唇	-11.8724
悸	-11.8724
沽	-11.8724
肱	-11.8725
仞	-11.8725
甆	-11.8726
爍	-11.8726
酺	-11.8726
胙	-11.8726
哥	-11.8727
怵	-11.8728
僵	-11.8728
聮	-11.8728
瑭	-11.8728
線	-11.8729
絆	-11.8729
鉦	-11.8729
処	-11.873
崙	-11.873
鎚	-11.873
姙	-11.873
幃	-11.873
榛	-11.873
眺	-11.8731
鞾	-11.8731
礎	-11.8731
恍	-11.8731
燬	-11.8732
逿	-11.8732
汰	-11.8732
吻	-11.8732
剝	-11.8733
㶚	-11.8733
沓	-11.8734
曁	-11.8734
塋	-11.8735
虔	-11.8735
勦	-11.8736
郿	-11.8736
跌	-11.8736
挂	-11.8737
畀	-11.8737
店	-11.8738
晴	-11.8738
陬	-11.8738
菴	-11.8739
鄣	-11.8739
砌	-11.8739
櫂	-11.874
赭	-11.8742
姫	-11.8743
輻	-11.8743
姐	-11.8743
詎	-11.8744
佾	-11.8745
壕	-11.8748
啄	-11.875
淘	-11.8751
硬	-11.8751
褰	-11.8754
澈	-11.8754
蝦	-11.8754
鬛	-11.8755
㐲	-11.8756
宕	-11.876
岏	-11.8805
賙	-11.9695
洿	-11.9697
湜	-11.9698
痕	-11.9703
濩	-11.9705
帙	-11.9708
邾	-11.971
瑙	-11.9711
醇	-11.9714
貊	-11.9714
估	-11.9714
劬	-11.9715
獷	-11.9716
贐	-11.9717
葱	-11.9717
无	-11.9717
筑	-11.9718
璨	-11.9718
玦	-11.9719
憸	-11.9719
􁇦	-11.9719
訝	-11.9719
曆	-11.9719
嚢	-11.972
楽	-11.972
吸	-11.972
絮	-11.972
纉	-11.972
萃	-11.972
臍	-11.9721
暄	-11.9721
郾	-11.9721
鷲	-11.9722
豬	-11.9722
漒	-11.9722
痍	-11.9723
㦯	-11.9724
愠	-11.9724
憒	-11.9724
戡	-11.9724
潄	-11.9725
牝	-11.9725
僇	-11.9725
別	-11.9725
崗	-11.9725
盾	-11.9725
怕	-11.9726
攫	-11.9726
惰	-11.9726
垢	-11.9726
扺	-11.9727
廳	-11.9727
陲	-11.9727
軾	-11.9727
氈	-11.9727
沅	-11.9728
櫛	-11.9728
槌	-11.9728
糗	-11.9728
癡	-11.9729
痊	-11.9729
漚	-11.9729
踣	-11.9729
穰	-11.9729
軼	-11.973
逭	-11.973
岫	-11.973
喑	-11.9731
蠱	-11.9731
蒐	-11.9731
飱	-11.9731
幟	-11.9732
凟	-11.9733
㷀	-11.9733
鰌	-11.9733
琠	-11.9733
頤	-11.9734
縞	-11.9734
潾	-11.9735
琪	-11.9735
鍪	-11.9735
躋	-11.9735
蜑	-11.9737
芍	-11.9738
狷	-11.9738
㺯	-11.9739
䴡	-11.9739
鞘	-11.9739
撝	-11.974
砥	-11.974
棊	-11.9741
斑	-11.9741
簀	-11.9741
燿	-11.9742
戱	-11.9744
号	-11.9744
液	-11.9744
弧	-11.9744
桶	-11.9745
橦	-11.9745
覡	-11.9745
圻	-11.9745
翦	-11.9745
礙	-11.9745
㸔	-11.9746
惙	-11.9746
捫	-11.9746
燄	-11.9747
努	-11.9748
称	-11.9748
扉	-11.975
噍	-11.9751
盂	-11.9752
鉗	-11.9759
杵	-11.976
怱	-11.9771
璥	-11.9774
竩	-12.0793
㔨	-12.0802
彘	-12.0802
捽	-12.081
乍	-12.0811
隍	-12.0813
胖	-12.0815
妺	-12.0816
机	-12.0817
崤	-12.0817
瀬	-12.0818
鞅	-12.0819
芬	-12.0821
阬	-12.0822
銑	-12.0822
匐	-12.0822
塡	-12.0823
蓐	-12.0823
􁂍	-12.0823
睠	-12.0823
煎	-12.0824
堙	-12.0824
卉	-12.0825
酗	-12.0825
扃	-12.0827
扄	-12.0827
兕	-12.0828
諴	-12.083
堞	-12.0831
摹	-12.0832
舄	-12.0833
茨	-12.0833
慄	-12.0833
詼	-12.0833
璆	-12.0834
蹔	-12.0834
謾	-12.0834
壙	-12.0834
鏃	-12.0834
縋	-12.0835
簽	-12.0835
卲	-12.0836
賵	-12.0836
莋	-12.0836
槎	-12.0836
禰	-12.0836
犧	-12.0836
霅	-12.0837
蹴	-12.0837
廏	-12.0837
􁥃	-12.0837
隧	-12.0837
洊	-12.0838
涌	-12.0838
䙝	-12.084
斟	-12.084
恡	-12.084
棣	-12.0841
劼	-12.0841
翀	-12.0841
檐	-12.0842
憊	-12.0842
瀨	-12.0842
殪	-12.0843
徂	-12.0843
蹶	-12.0843
偪	-12.0844
詈	-12.0844
髭	-12.0844
璇	-12.0844
佻	-12.0844
籖	-12.0844
穽	-12.0845
悒	-12.0845
㴶	-12.0845
豊	-12.0845
欹	-12.0846
拽	-12.0846
穫	-12.0847
嫂	-12.0848
醼	-12.0848
𤨏	-12.0848
訕	-12.0848
爼	-12.0849
莘	-12.085
喘	-12.0851
袪	-12.0851
蹋	-12.0851
楛	-12.0851
籓	-12.0852
諝	-12.0852
黛	-12.0852
羕	-12.0852
斁	-12.0852
闥	-12.0852
鱠	-12.0853
墩	-12.0853
懶	-12.0854
姨	-12.0854
牁	-12.0854
衘	-12.0854
皖	-12.0854
紋	-12.0855
彿	-12.0856
跽	-12.0856
璲	-12.0856
膓	-12.0856
圈	-12.0856
橫	-12.0857
猩	-12.0857
窠	-12.0858
愜	-12.0859
芋	-12.0862
儗	-12.0862
憩	-12.0863
碕	-12.0864
椁	-12.0865
騭	-12.0866
脯	-12.0867
璹	-12.0869
貓	-12.0869
幙	-12.0873
抉	-12.0873
噫	-12.2043
珖	-12.2046
邰	-12.2053
郞	-12.2053
簞	-12.2057
忡	-12.2059
哩	-12.2061
冏	-12.2064
湫	-12.2065
哺	-12.2066
衽	-12.2067
蠙	-12.2068
町	-12.207
墉	-12.2071
逯	-12.2072
瀕	-12.2074
䜿	-12.2074
洶	-12.2075
胃	-12.2076
搥	-12.2076
滹	-12.2076
纛	-12.2076
邛	-12.2077
鑣	-12.2077
䰟	-12.2077
鷙	-12.2077
點	-12.2077
潼	-12.2079
苕	-12.2079
祼	-12.208
頹	-12.208
狃	-12.2081
罩	-12.2081
酥	-12.2081
塚	-12.2081
螭	-12.2082
慾	-12.2083
嶼	-12.2083
璀	-12.2083
睂	-12.2083
楸	-12.2084
匙	-12.2084
蠅	-12.2084
屛	-12.2084
䦧	-12.2085
净	-12.2085
硤	-12.2085
伉	-12.2085
曮	-12.2085
睛	-12.2085
鴿	-12.2085
噀	-12.2086
阪	-12.2086
嚙	-12.2087
箔	-12.2087
磚	-12.2087
逷	-12.2087
鈆	-12.2087
騶	-12.2087
嚼	-12.2088
汁	-12.2088
祲	-12.2088
臼	-12.2088
賕	-12.2089
顰	-12.2089
苒	-12.2089
蜕	-12.2089
拷	-12.209
妍	-12.209
艸	-12.209
忉	-12.209
崛	-12.209
瞬	-12.2091
梔	-12.2091
掬	-12.2091
甍	-12.2092
啜	-12.2092
揭	-12.2092
㓛	-12.2093
攄	-12.2093
艛	-12.2093
葭	-12.2093
囷	-12.2094
驂	-12.2094
勘	-12.2094
猨	-12.2094
炫	-12.2095
卻	-12.2095
刈	-12.2095
婭	-12.2095
欝	-12.2095
貔	-12.2096
璫	-12.2096
骰	-12.2096
匕	-12.2096
讖	-12.2096
鶉	-12.2097
䄂	-12.2098
遹	-12.2098
芉	-12.2098
頁	-12.2098
鰲	-12.2099
孳	-12.21
紬	-12.21
党	-12.21
迓	-12.2101
暹	-12.2101
纘	-12.2101
朶	-12.2102
彝	-12.2102
訐	-12.2102
葷	-12.2103
鵞	-12.2103
棚	-12.2103
鍤	-12.2104
蠢	-12.2105
摯	-12.2105
抃	-12.2106
舖	-12.2107
葩	-12.2107
禿	-12.2108
綧	-12.2109
彷	-12.2109
傕	-12.2109
躔	-12.211
懟	-12.2112
䌓	-12.2113
擴	-12.2113
䥶	-12.2116
謳	-12.2118
摠	-12.2118
坵	-12.2119
傘	-12.212
撮	-12.212
犇	-12.2121
彚	-12.2122
觝	-12.2122
仭	-12.2135
紘	-12.2147
鈹	-12.3436
蒟	-12.3452
僰	-12.3464
寯	-12.3464
㲄	-12.3481
黼	-12.3486
鏹	-12.3487
諹	-12.3487
丰	-12.3488
瘍	-12.3489
膂	-12.3491
椽	-12.3491
胤	-12.3491
甎	-12.3491
荐	-12.3493
脣	-12.3494
﨑	-12.3494
隟	-12.3495
倔	-12.3496
醪	-12.3497
靦	-12.3497
醖	-12.3497
龐	-12.35
􁎘	-12.3501
笙	-12.3501
燋	-12.3501
槁	-12.3502
踪	-12.3502
磊	-12.3502
􁁓	-12.3502
厓	-12.3504
巋	-12.3504
沭	-12.3504
饟	-12.3504
兜	-12.3504
榼	-12.3505
釀	-12.3506
舩	-12.3507
倅	-12.3507
梏	-12.3507
訾	-12.3507
佉	-12.3508
丱	-12.3508
慱	-12.3509
敇	-12.351
麄	-12.351
圮	-12.351
慊	-12.351
軋	-12.351
昕	-12.351
綃	-12.3511
􁈯	-12.3511
獺	-12.3511
絰	-12.3511
侄	-12.3511
遨	-12.3511
䲭	-12.3511
箇	-12.3512
蛾	-12.3512
憝	-12.3512
訂	-12.3513
筐	-12.3513
㝢	-12.3513
喝	-12.3513
紺	-12.3513
劈	-12.3513
蛤	-12.3513
忷	-12.3515
閠	-12.3515
湔	-12.3515
訹	-12.3515
斸	-12.3515
湄	-12.3516
瘖	-12.3516
羔	-12.3516
僥	-12.3516
劃	-12.3516
夹	-12.3516
屩	-12.3516
椅	-12.3517
笋	-12.3517
擄	-12.3517
簪	-12.3517
兀	-12.3517
怤	-12.3517
酆	-12.3517
愉	-12.3518
皁	-12.3518
𤯝	-12.3518
拆	-12.3518
締	-12.3518
鋩	-12.3518
瞳	-12.3519
梢	-12.3519
眭	-12.3519
娑	-12.3519
羑	-12.3519
澶	-12.3519
彜	-12.352
軿	-12.352
縲	-12.352
帆	-12.352
騾	-12.352
酈	-12.352
䨇	-12.352
醋	-12.3521
霾	-12.3521
薇	-12.3522
鼙	-12.3522
滂	-12.3522
醢	-12.3522
蝟	-12.3523
蠏	-12.3523
鯢	-12.3523
贏	-12.3524
愿	-12.3524
藎	-12.3524
穏	-12.3525
詿	-12.3525
蓺	-12.3526
瓷	-12.3527
稿	-12.3528
盼	-12.3528
潨	-12.3529
囉	-12.3529
螫	-12.3529
颺	-12.3529
嶢	-12.353
踶	-12.353
瀑	-12.3531
厝	-12.3531
詗	-12.3531
啞	-12.3532
仿	-12.3532
􁄭	-12.3533
遡	-12.3534
㓙	-12.3534
詁	-12.3534
蚌	-12.3534
暈	-12.3535
献	-12.3537
厙	-12.354
堕	-12.354
􁳖	-12.354
鄩	-12.354
透	-12.3541
𫀆	-12.3541
缾	-12.3542
煖	-12.3542
璪	-12.3543
翥	-12.3545
怜	-12.3546
窋	-12.3546
抹	-12.3547
畤	-12.3548
厦	-12.3551
孱	-12.3552
磔	-12.3552
瀧	-12.3554
鄨	-12.3555
㟁	-12.3555
紡	-12.5134
簁	-12.5136
𨼆	-12.5138
縶	-12.5144
珮	-12.515
飴	-12.5152
尖	-12.5152
潢	-12.5152
繢	-12.5152
阡	-12.5154
貰	-12.5155
郜	-12.5156
橙	-12.5157
礟	-12.5157
吊	-12.5158
􁒏	-12.5158
躶	-12.516
喙	-12.5161
𦕈	-12.5162
菲	-12.5163
畛	-12.5164
􁩞	-12.5165
瓮	-12.5165
賃	-12.5166
諏	-12.5166
瑫	-12.5167
緄	-12.5168
裓	-12.5168
吼	-12.5168
勣	-12.517
鴒	-12.5171
媧	-12.5171
楫	-12.5172
碍	-12.5173
笈	-12.5173
噶	-12.5173
疥	-12.5173
鈿	-12.5173
甓	-12.5173
纊	-12.5173
酢	-12.5173
酪	-12.5173
飡	-12.5173
凛	-12.5173
轟	-12.5173
獽	-12.5174
覉	-12.5174
榦	-12.5174
遒	-12.5176
涔	-12.5177
刮	-12.5177
鵰	-12.5177
騮	-12.5177
橈	-12.5178
鈕	-12.5178
隲	-12.5178
夸	-12.5179
讟	-12.5179
􁅳	-12.518
緫	-12.518
駰	-12.518
皐	-12.5181
堇	-12.5181
刦	-12.5181
毀	-12.5181
迯	-12.5181
餔	-12.5181
画	-12.5181
杙	-12.5181
雩	-12.5182
晬	-12.5182
嵇	-12.5182
鉏	-12.5182
擠	-12.5182
赧	-12.5182
鑪	-12.5182
恇	-12.5183
㮣	-12.5183
鄘	-12.5183
靚	-12.5184
忩	-12.5184
賮	-12.5184
椰	-12.5184
霣	-12.5184
濞	-12.5184
簸	-12.5184
沴	-12.5185
傴	-12.5186
鸛	-12.5186
𡨕	-12.5186
舛	-12.5187
廨	-12.5187
爝	-12.5187
臆	-12.5187
錬	-12.5187
鴞	-12.5187
洹	-12.5188
娼	-12.5188
窓	-12.5188
夐	-12.5188
厈	-12.5189
唁	-12.5189
丧	-12.5189
贑	-12.5189
臉	-12.5189
喚	-12.5189
蜃	-12.5189
撑	-12.5189
躅	-12.519
个	-12.519
瀟	-12.519
嗔	-12.5191
暀	-12.5191
巂	-12.5191
蕙	-12.5191
濊	-12.5192
鈇	-12.5192
駑	-12.5194
脉	-12.5194
淐	-12.5194
耑	-12.5195
嬌	-12.5196
蛻	-12.5196
証	-12.5196
鄞	-12.5196
价	-12.5196
闍	-12.5197
凜	-12.5197
靑	-12.5197
剌	-12.5198
懣	-12.5198
泪	-12.5198
灃	-12.5198
瀚	-12.5198
猱	-12.5199
吭	-12.5199
涎	-12.5199
鬪	-12.5199
檜	-12.5199
捭	-12.5199
裾	-12.52
榱	-12.52
翎	-12.5201
屐	-12.5201
芹	-12.5201
氓	-12.5202
嶂	-12.5202
丏	-12.5202
鑛	-12.5203
綻	-12.5203
幔	-12.5204
杪	-12.5206
蜋	-12.5206
姹	-12.5208
簟	-12.521
謜	-12.5211
舋	-12.5211
怛	-12.5214
齠	-12.5215
謖	-12.5215
霓	-12.5218
嘘	-12.5218
酧	-12.5219
宷	-12.5219
漱	-12.522
簇	-12.522
泠	-12.5231
壼	-12.7128
嫄	-12.7131
霏	-12.7133
眤	-12.7135
醬	-12.7137
窖	-12.7141
悁	-12.7141
􁔷	-12.7144
咢	-12.7144
袗	-12.7144
紆	-12.7147
耦	-12.7148
蛑	-12.7148
摎	-12.7149
蝤	-12.7149
膜	-12.715
脈	-12.7152
筰	-12.7153
䑛	-12.7154
毌	-12.7154
兌	-12.7154
倜	-12.7157
緱	-12.7157
菽	-12.7158
畞	-12.7159
煑	-12.7159
澦	-12.7159
鷂	-12.716
咀	-12.716
嵓	-12.7161
厖	-12.7161
摛	-12.7162
万	-12.7163
磽	-12.7163
蒻	-12.7164
涖	-12.7164
塼	-12.7165
奩	-12.7165
菊	-12.7165
琲	-12.7166
聪	-12.7166
瑊	-12.7166
喋	-12.7166
糊	-12.7167
悕	-12.7167
傉	-12.7168
鸇	-12.7168
澁	-12.7168
竂	-12.7168
愀	-12.7169
錙	-12.7169
昃	-12.7169
淩	-12.717
伷	-12.717
胆	-12.717
菱	-12.7171
剗	-12.7171
数	-12.7172
碗	-12.7173
凭	-12.7174
讋	-12.7174
嵒	-12.7174
枹	-12.7174
樛	-12.7175
絞	-12.7175
咤	-12.7175
鹹	-12.7175
玘	-12.7175
髽	-12.7175
熏	-12.7175
揀	-12.7176
肎	-12.7176
㟭	-12.7176
剉	-12.7176
浿	-12.7176
疚	-12.7177
眦	-12.7177
睚	-12.7177
竆	-12.7177
搴	-12.7177
桔	-12.7178
罌	-12.7178
罟	-12.7178
翃	-12.7178
惽	-12.7178
軛	-12.7179
蘊	-12.7179
錠	-12.7179
閈	-12.7179
輜	-12.7179
靄	-12.718
鏦	-12.718
刷	-12.7181
亀	-12.7181
殳	-12.7181
繚	-12.7182
湻	-12.7182
坌	-12.7182
淬	-12.7182
糠	-12.7182
膊	-12.7183
幌	-12.7183
烙	-12.7183
絜	-12.7183
勰	-12.7183
楀	-12.7183
瞰	-12.7184
鄢	-12.7184
煨	-12.7184
緍	-12.7184
烱	-12.7184
篾	-12.7184
褻	-12.7184
跼	-12.7184
餼	-12.7184
渺	-12.7185
嘶	-12.7185
迍	-12.7185
羃	-12.7186
漾	-12.7186
瓢	-12.7186
饕	-12.7186
聒	-12.7186
暱	-12.7187
憨	-12.7187
蒭	-12.7187
兊	-12.7187
瞎	-12.7187
惴	-12.7187
偘	-12.7187
𧦬	-12.7188
脆	-12.7188
児	-12.7188
券	-12.7188
潑	-12.7188
襯	-12.7188
鲁	-12.7188
矗	-12.7189
掊	-12.7189
迤	-12.7189
櫳	-12.7189
酤	-12.7189
嬴	-12.7189
旤	-12.7189
𣏌	-12.719
噱	-12.719
鑕	-12.719
㽔	-12.719
籩	-12.719
偰	-12.7191
㓗	-12.7191
拭	-12.7191
淖	-12.7191
嶫	-12.7191
債	-12.7192
躪	-12.7192
舷	-12.7192
􁃻	-12.7192
儆	-12.7192
鐶	-12.7193
貼	-12.7193
藕	-12.7193
茄	-12.7193
黻	-12.7193
慬	-12.7194
􁰽	-12.7194
瘦	-12.7195
曀	-12.7196
輳	-12.7196
涙	-12.7196
蹉	-12.7197
鍚	-12.7197
吮	-12.7197
薈	-12.7197
藂	-12.7197
勺	-12.7197
庿	-12.7197
簦	-12.7198
伇	-12.7198
絀	-12.7198
澍	-12.7198
栰	-12.7198
澌	-12.7198
屨	-12.72
刧	-12.72
籜	-12.72
愞	-12.7201
眊	-12.7201
爆	-12.7201
萟	-12.7201
梃	-12.7202
熠	-12.7202
攪	-12.7203
鑠	-12.7203
揜	-12.7203
篁	-12.7204
聱	-12.7204
駮	-12.7204
齪	-12.7205
媼	-12.7206
摽	-12.7206
囓	-12.7206
曝	-12.7206
嘿	-12.7207
縹	-12.7207
盞	-12.7207
􁈍	-12.7207
繖	-12.7208
襪	-12.7208
詛	-12.7208
窑	-12.7208
蒿	-12.7208
繭	-12.7209
筴	-12.721
娟	-12.7215
壌	-12.7217
瘵	-12.7219
甑	-12.722
𥚹	-12.7223
荻	-12.7224
萸	-12.7228
拐	-12.7228
苔	-12.7229
喫	-12.7229
叜	-12.7231
叵	-12.7233
堠	-12.7233
糝	-12.7236
祛	-12.7241
挟	-12.7245
瑄	-12.9601
皦	-12.9602
􁀾	-12.962
鶖	-12.9632
儷	-12.9634
虓	-12.9638
璙	-12.9641
魃	-12.9643
􁦚	-12.9643
㛰	-12.9645
嚥	-12.9646
癖	-12.9646
騂	-12.9648
悻	-12.9649
鏟	-12.965
賽	-12.965
窆	-12.9652
㹠	-12.9652
焕	-12.9652
泆	-12.9653
晧	-12.9653
絺	-12.9654
櫪	-12.9654
坰	-12.9654
蓆	-12.9654
頠	-12.9654
妲	-12.9656
珎	-12.9656
饜	-12.9656
頏	-12.9657
廸	-12.9657
鐃	-12.9659
窄	-12.9659
箊	-12.9659
荊	-12.9659
雈	-12.966
攢	-12.966
杠	-12.966
􁦍	-12.9661
㢮	-12.9661
箖	-12.9661
氅	-12.9663
璚	-12.9663
蝮	-12.9663
飜	-12.9663
縢	-12.9664
㛐	-12.9664
睇	-12.9666
厩	-12.9666
鵄	-12.9666
綉	-12.9666
悷	-12.9667
揕	-12.9667
殻	-12.9667
瘼	-12.9667
掀	-12.9668
觜	-12.9668
􁀁	-12.9668
様	-12.967
瞪	-12.967
娩	-12.967
羖	-12.967
㲲	-12.9671
矮	-12.9671
㴻	-12.9671
殍	-12.9671
澳	-12.9671
嵌	-12.9671
綫	-12.9672
賾	-12.9672
虀	-12.9672
鐐	-12.9672
愬	-12.9674
矰	-12.9674
蠆	-12.9674
鷗	-12.9674
閴	-12.9674
髹	-12.9674
𡵨	-12.9674
壟	-12.9675
褏	-12.9675
嵯	-12.9675
麫	-12.9675
鉄	-12.9675
頺	-12.9675
繄	-12.9675
艇	-12.9675
藋	-12.9675
摻	-12.9675
鋼	-12.9677
鶩	-12.9677
昺	-12.9677
蟄	-12.9677
畵	-12.9677
濆	-12.9677
頫	-12.9677
咈	-12.9677
枷	-12.9677
翅	-12.9677
匆	-12.9678
螢	-12.9678
抂	-12.9678
凊	-12.9678
卋	-12.9678
■	-12.9678
蹬	-12.9678
冮	-12.9678
挍	-12.9678
倎	-12.9679
悃	-12.9679
綯	-12.9679
颷	-12.9679
秤	-12.9679
㱆	-12.9679
峡	-12.9679
簣	-12.9679
晊	-12.9679
燥	-12.9679
玻	-12.9679
溆	-12.968
虫	-12.9681
櫟	-12.9681
嬈	-12.9681
嘱	-12.9681
睫	-12.9682
㮄	-12.9682
𠂻	-12.9682
楩	-12.9683
抺	-12.9683
玆	-12.9684
羿	-12.9684
鞋	-12.9684
𢃄	-12.9684
濃	-12.9684
柚	-12.9684
媱	-12.9684
憇	-12.9685
輾	-12.9685
悞	-12.9685
呻	-12.9685
晤	-12.9685
俁	-12.9685
鼃	-12.9685
葑	-12.9686
擣	-12.9686
粳	-12.9686
㦲	-12.9686
僦	-12.9686
瓏	-12.9686
姥	-12.9686
窶	-12.9686
葡	-12.9686
羇	-12.9686
緦	-12.9688
鼐	-12.9688
娉	-12.9688
閥	-12.9688
尭	-12.9688
𣺌	-12.9689
絢	-12.9689
頬	-12.9689
萄	-12.9689
碭	-12.9689
嚻	-12.9689
綢	-12.969
桴	-12.969
茀	-12.969
摇	-12.969
罡	-12.9691
臚	-12.9691
畊	-12.9692
絛	-12.9692
貮	-12.9692
砧	-12.9692
筞	-12.9692
䆳	-12.9692
喏	-12.9692
萼	-12.9693
䦨	-12.9693
懵	-12.9693
釵	-12.9693
廿	-12.9693
淊	-12.9693
瑎	-12.9693
翬	-12.9695
劘	-12.9695
阯	-12.9695
悶	-12.9696
祻	-12.9696
漉	-12.9696
襆	-12.9696
餚	-12.9696
忭	-12.9696
籛	-12.9696
坪	-12.9696
耋	-12.9696
苫	-12.9697
䆒	-12.9697
櫻	-12.9697
酇	-12.9697
熒	-12.9698
腥	-12.9699
葳	-12.9699
滸	-12.9699
甜	-12.9699
畼	-12.9699
緬	-12.9699
縂	-12.9699
擗	-12.97
揵	-12.9701
鸎	-12.9701
靴	-12.9702
夤	-12.9702
儕	-12.9702
闠	-12.9702
鷃	-12.9702
湞	-12.9702
橛	-12.9703
粢	-12.9703
巉	-12.9703
耴	-12.9703
跛	-12.9703
戻	-12.9703
叫	-12.9704
?	-12.9704
玲	-12.9704
褫	-12.9704
襌	-12.9704
届	-12.9705
莱	-12.9705
烜	-12.9706
鄀	-12.9706
祋	-12.9707
􁐰	-12.9707
綍	-12.9707
祅	-12.9707
筧	-12.9707
輀	-12.9708
笴	-12.9709
枰	-12.971
𠫭	-12.971
𣲖	-12.971
栱	-12.9714
軆	-12.9714
襠	-12.9714
褶	-12.9715
曖	-12.9717
窰	-12.9717
覓	-12.9718
觥	-12.9718
􁅋	-12.9718
瘧	-12.9721
澡	-12.9722
疁	-12.9722
袛	-12.9724
関	-12.9724
傽	-12.9735
沚	-12.9736
旛	-12.9739
鐙	-12.9739
祤	-12.9742
鋘	-12.9742
罍	-12.9743
鎦	-13.2902
瑨	-13.2919
鈲	-13.2927
誧	-13.2944
鰕	-13.2956
癬	-13.2956
漪	-13.2961
澞	-13.2961
瀹	-13.2961
紉	-13.2967
騄	-13.2967
𫐠	-13.2967
􁯫	-13.2967
郍	-13.2969
沇	-13.2969
蹊	-13.2971
嶓	-13.2971
􁂚	-13.2971
宁	-13.2971
厪	-13.2973
蒋	-13.2973
𨗳	-13.2975
撡	-13.2975
鼾	-13.2977
嫠	-13.2977
菌	-13.2981
蟹	-13.2981
樁	-13.2981
炒	-13.2981
罏	-13.2983
傖	-13.2983
侏	-13.2983
翌	-13.2983
嚅	-13.2984
囁	-13.2984
噩	-13.2984
䁺	-13.2985
濉	-13.2985
珜	-13.2985
尫	-13.2986
痒	-13.2986
蛭	-13.2986
諄	-13.2986
􁀅	-13.2986
鷺	-13.2986
􁗩	-13.2986
逌	-13.2988
搯	-13.2988
帢	-13.2988
趂	-13.299
藺	-13.299
綖	-13.299
砮	-13.2992
腫	-13.2992
礫	-13.2992
傱	-13.2992
拄	-13.2992
鯽	-13.2992
㠶	-13.2994
晳	-13.2994
虖	-13.2994
豸	-13.2994
銛	-13.2996
騧	-13.2996
唎	-13.2996
皤	-13.2996
刊	-13.2996
􁂥	-13.2996
螯	-13.2998
齷	-13.2998
劑	-13.2998
憍	-13.2998
肫	-13.2998
瀣	-13.2998
氤	-13.3
絓	-13.3
鍬	-13.3
侹	-13.3
掎	-13.3
琱	-13.3
袞	-13.3
㫋	-13.3
埏	-13.3
玹	-13.3
崢	-13.3
楓	-13.3002
轔	-13.3002
佔	-13.3002
鶯	-13.3002
蒱	-13.3002
蜒	-13.3002
諼	-13.3002
尠	-13.3002
缶	-13.3002
𣑽	-13.3002
磕	-13.3004
鯾	-13.3004
淆	-13.3004
􁀇	-13.3004
耨	-13.3004
遄	-13.3004
掄	-13.3004
悮	-13.3004
倩	-13.3004
刖	-13.3004
刓	-13.3004
煽	-13.3004
黧	-13.3004
擖	-13.3006
洺	-13.3006
玖	-13.3006
匀	-13.3006
垓	-13.3006
痼	-13.3006
鄽	-13.3006
螘	-13.3006
忖	-13.3006
酹	-13.3006
戬	-13.3006
徯	-13.3006
菅	-13.3008
桒	-13.3008
眡	-13.3008
駛	-13.3008
䯻	-13.3008
佟	-13.3008
猳	-13.3008
稲	-13.3008
茆	-13.3008
齩	-13.3008
渤	-13.3009
輶	-13.3009
仄	-13.301
畦	-13.301
荄	-13.301
雊	-13.301
弆	-13.301
𪷟	-13.301
搦	-13.3011
硃	-13.3011
慠	-13.3011
㢲	-13.3011
嗾	-13.3011
垍	-13.3011
暻	-13.3011
呷	-13.3011
柟	-13.3011
繙	-13.3011
蔔	-13.3012
餻	-13.3013
覿	-13.3013
猻	-13.3013
捺	-13.3013
瀦	-13.3013
疢	-13.3013
轎	-13.3014
摸	-13.3015
猢	-13.3015
琯	-13.3015
搔	-13.3015
虒	-13.3015
郅	-13.3015
鱓	-13.3015
▫	-13.3015
慝	-13.3015
撼	-13.3015
甿	-13.3015
癩	-13.3015
菓	-13.3015
頙	-13.3015
祍	-13.3017
鑽	-13.3017
廛	-13.3017
搶	-13.3017
鮫	-13.3017
𦂳	-13.3017
仂	-13.3017
詘	-13.3017
跖	-13.3017
柙	-13.3017
饍	-13.3018
庄	-13.3019
搗	-13.3019
柑	-13.3019
賭	-13.3019
珓	-13.3019
顚	-13.3019
煼	-13.3019
腮	-13.3019
陥	-13.3019
苪	-13.3019
匾	-13.3019
曌	-13.3019
菰	-13.3021
鉾	-13.3021
茯	-13.3021
輛	-13.3021
窣	-13.3021
涅	-13.3021
剙	-13.3021
坯	-13.3021
嵁	-13.3021
弥	-13.3021
淋	-13.3021
窪	-13.3021
茰	-13.3021
貙	-13.3021
􁇠	-13.3021
梳	-13.3021
蚊	-13.3023
礼	-13.3023
㕑	-13.3023
䔥	-13.3023
糚	-13.3023
癰	-13.3023
纏	-13.3023
刲	-13.3023
鑱	-13.3023
漑	-13.3023
爻	-13.3023
痩	-13.3023
湊	-13.3023
鄱	-13.3024
蝸	-13.3025
櫨	-13.3025
覯	-13.3025
賡	-13.3025
診	-13.3025
僨	-13.3025
敲	-13.3025
棃	-13.3025
棒	-13.3025
詫	-13.3025
踧	-13.3025
禛	-13.3025
跕	-13.3025
鍮	-13.3025
霈	-13.3027
巇	-13.3027
碯	-13.3027
籟	-13.3027
疣	-13.3027
侁	-13.3027
廋	-13.3027
蛆	-13.3027
袷	-13.3027
㽞	-13.3028
鯤	-13.3029
蓊	-13.3029
虱	-13.3029
䀢	-13.3029
盻	-13.3029
艤	-13.3029
魋	-13.3029
妊	-13.3029
姉	-13.3029
檛	-13.3029
蒔	-13.3029
飰	-13.3031
鼉	-13.3031
暍	-13.3031
埧	-13.3031
橇	-13.3031
欐	-13.3033
㖃	-13.3033
荃	-13.3033
讞	-13.3033
𠖇	-13.3033
禩	-13.3033
攖	-13.3033
簏	-13.3033
芽	-13.3033
㣧	-13.3033
冪	-13.3033
隤	-13.3035
侶	-13.3035
熛	-13.3035
蟆	-13.3035
鷁	-13.3035
莎	-13.3036
鞮	-13.3036
篝	-13.3036
袐	-13.3036
抆	-13.3037
􁗟	-13.3037
嬋	-13.3037
敺	-13.3037
䳌	-13.3037
凂	-13.3038
崐	-13.3038
荳	-13.3038
澣	-13.3038
磧	-13.3038
艫	-13.3038
蘧	-13.3038
欒	-13.3038
暦	-13.3038
欓	-13.3038
蕺	-13.3038
蹰	-13.3038
鄮	-13.304
歉	-13.304
㯶	-13.304
粘	-13.304
茟	-13.304
􁂮	-13.304
㧾	-13.304
彖	-13.304
拚	-13.3042
週	-13.3042
熲	-13.3042
肓	-13.3042
墖	-13.3042
窗	-13.3042
扑	-13.3044
莝	-13.3044
儺	-13.3044
個	-13.3044
􁂭	-13.3044
夥	-13.3044
荇	-13.3044
㜑	-13.3044
熄	-13.3046
矝	-13.3046
韈	-13.3046
拏	-13.3046
凾	-13.3046
昜	-13.3046
稹	-13.3048
茜	-13.3048
躊	-13.3048
篠	-13.3048
澉	-13.3048
􁀒	-13.3048
噁	-13.3048
狭	-13.305
籹	-13.305
􁭘	-13.305
媯	-13.305
噏	-13.3052
拖	-13.3052
弜	-13.3054
熨	-13.3054
齔	-13.3054
檣	-13.3054
憬	-13.3054
焜	-13.3054
洼	-13.3056
罇	-13.3058
塍	-13.3058
櫺	-13.3058
韃	-13.3058
瞀	-13.3058
鬴	-13.3058
飮	-13.306
袝	-13.306
瞟	-13.306
瀉	-13.3062
笳	-13.3062
蓂	-13.3063
鋋	-13.3064
痁	-13.3065
唳	-13.3065
匜	-13.3065
昳	-13.3067
藐	-13.3071
瀼	-13.3073
蓞	-13.3073
隃	-13.3077
帕	-13.3079
佼	-13.3079
㫜	-13.3096
錕	-13.311
㻂	-13.3112
嘒	-13.7889
􁇂	-13.7908
鉟	-13.7911
踽	-13.7924
筥	-13.7927
墙	-13.793
斚	-13.793
礨	-13.793
赳	-13.7943
㫝	-13.7946
晛	-13.7946
㞐	-13.7949
耍	-13.7949
蠘	-13.7949
宂	-13.7952
冽	-13.7952
斄	-13.7955
澨	-13.7955
俎	-13.7958
萑	-13.7958
裶	-13.7958
蜺	-13.7961
羹	-13.7962
唏	-13.7964
媾	-13.7965
坼	-13.7965
羂	-13.7965
儈	-13.7965
术	-13.7965
槗	-13.7965
窩	-13.7965
襜	-13.7968
汛	-13.7968
耰	-13.7968
蜆	-13.7968
􁛩	-13.7968
䡄	-13.7968
螣	-13.7971
曕	-13.7971
䂖	-13.7971
雇	-13.7971
礮	-13.7971
枽	-13.7974
䫈	-13.7974
穩	-13.7974
开	-13.7974
棐	-13.7974
焭	-13.7974
睕	-13.7974
嘈	-13.7975
騃	-13.7977
蜨	-13.7977
睟	-13.7977
櫃	-13.7977
篥	-13.7977
騈	-13.7977
膰	-13.7977
􁱝	-13.7977
􁂣	-13.7979
胔	-13.798
确	-13.798
秪	-13.798
郶	-13.798
􁇨	-13.798
勠	-13.798
轊	-13.798
􁌄	-13.798
慷	-13.7983
苓	-13.7983
竚	-13.7984
芘	-13.7984
蔥	-13.7984
􁡡	-13.7984
堨	-13.7984
瑑	-13.7987
薤	-13.7987
恧	-13.7987
惣	-13.7987
𥚑	-13.7987
堋	-13.7987
蟚	-13.7987
𢷬	-13.7987
悤	-13.7987
灂	-13.7987
礌	-13.7987
邜	-13.799
僴	-13.799
忲	-13.799
鞚	-13.799
筦	-13.799
匭	-13.799
劚	-13.799
暏	-13.799
謌	-13.799
鳧	-13.799
慣	-13.799
瑝	-13.799
瘂	-13.799
肴	-13.799
讨	-13.799
餳	-13.799
婌	-13.799
戟	-13.799
喆	-13.7992
鞌	-13.7993
棁	-13.7993
獬	-13.7993
眥	-13.7993
醞	-13.7993
嚇	-13.7993
汹	-13.7993
􁄻	-13.7993
蜮	-13.7993
鼂	-13.7993
屼	-13.7993
惸	-13.7993
筯	-13.7993
蚡	-13.7993
銍	-13.7993
咳	-13.7996
忼	-13.7996
􁏉	-13.7996
聆	-13.7996
擘	-13.7996
𥪡	-13.7996
􁏃	-13.7996
黿	-13.7996
䡖	-13.7999
􁂟	-13.7999
婣	-13.7999
溯	-13.7999
絽	-13.7999
飫	-13.7999
閟	-13.7999
乕	-13.7999
涂	-13.7999
㠹	-13.7999
㩁	-13.7999
㾛	-13.7999
䗶	-13.7999
桺	-13.7999
渒	-13.7999
癉	-13.7999
菑	-13.7999
蹯	-13.7999
䫙	-13.8002
缸	-13.8002
疼	-13.8002
痢	-13.8002
鵶	-13.8002
柁	-13.8002
砍	-13.8002
萹	-13.8002
􁐾	-13.8002
穂	-13.8002
􁓀	-13.8002
􁂜	-13.8002
傋	-13.8005
褭	-13.8005
垠	-13.8006
壚	-13.8006
椹	-13.8006
眂	-13.8006
攣	-13.8006
麪	-13.8006
􁒷	-13.8006
􁣉	-13.8006
媢	-13.8006
嶪	-13.8006
紕	-13.8006
醯	-13.8006
霰	-13.8006
㝡	-13.8006
涘	-13.8006
狊	-13.8006
獍	-13.8006
荣	-13.8006
蝇	-13.8006
衱	-13.8006
躳	-13.8006
􁂬	-13.8006
埛	-13.8007
狽	-13.8008
玳	-13.8008
壷	-13.8009
猘	-13.8009
姢	-13.8009
摺	-13.8009
矇	-13.8009
馹	-13.8009
􁔡	-13.8009
倮	-13.8009
寬	-13.8009
柝	-13.8009
桉	-13.8009
沫	-13.8009
穉	-13.8009
笪	-13.8009
胞	-13.8009
臞	-13.8009
臟	-13.8009
劄	-13.8009
搃	-13.8009
綷	-13.8009
㵼	-13.8012
疹	-13.8012
䖝	-13.8012
秖	-13.8012
珽	-13.8012
藳	-13.8012
髩	-13.8012
丫	-13.8012
崆	-13.8012
洄	-13.8012
爺	-13.8012
祊	-13.8012
豉	-13.8012
剰	-13.8012
榷	-13.8012
橄	-13.8012
䬃	-13.8012
蕨	-13.8012
譊	-13.8012
蹠	-13.8012
鰻	-13.8012
􁩜	-13.8012
蟒	-13.8015
甦	-13.8015
鬥	-13.8015
剴	-13.8015
咬	-13.8015
祏	-13.8015
萋	-13.8015
醵	-13.8015
􁈠	-13.8015
剬	-13.8015
扳	-13.8015
滉	-13.8015
祫	-13.8015
勌	-13.8015
哽	-13.8015
簧	-13.8016
滎	-13.8017
醺	-13.8018
佪	-13.8018
巘	-13.8018
幪	-13.8018
漼	-13.8018
僂	-13.8018
帋	-13.8018
勻	-13.8018
畎	-13.8018
襍	-13.8018
屎	-13.8018
磁	-13.8018
緹	-13.8018
膞	-13.8018
昣	-13.8018
毣	-13.8018
碌	-13.8018
祦	-13.8018
纚	-13.8018
罋	-13.8018
膿	-13.8018
蠃	-13.8018
臛	-13.8021
臋	-13.8021
顏	-13.8021
妝	-13.8021
敻	-13.8021
捃	-13.8021
歘	-13.8021
栲	-13.8021
皴	-13.8021
斡	-13.8021
哷	-13.8021
絨	-13.8021
閘	-13.8021
呑	-13.8021
抎	-13.8021
槀	-13.8021
氾	-13.8021
洳	-13.8021
鄺	-13.8021
癕	-13.8024
篳	-13.8024
凴	-13.8024
厘	-13.8024
祓	-13.8024
絁	-13.8024
肋	-13.8024
蟇	-13.8024
霶	-13.8024
哆	-13.8024
忙	-13.8024
浛	-13.8024
痝	-13.8024
纈	-13.8024
莓	-13.8024
鮎	-13.8024
掦	-13.8028
㩦	-13.8028
鈸	-13.8028
􁘔	-13.8028
冇	-13.8028
擺	-13.8028
獐	-13.8028
蕕	-13.8028
埳	-13.8028
擷	-13.8028
橡	-13.8028
灸	-13.8028
祸	-13.8028
薌	-13.8028
辠	-13.8028
麵	-13.8028
齕	-13.8028
􁀤	-13.8028
􁬸	-13.8028
灊	-13.8028
猓	-13.8031
鄛	-13.8031
􁀌	-13.8031
􁁱	-13.8031
佹	-13.8031
勔	-13.8031
惔	-13.8031
猒	-13.8031
珤	-13.8031
纆	-13.8031
蘚	-13.8031
謿	-13.8031
賍	-13.8031
靬	-13.8031
鞦	-13.8031
􁦣	-13.8031
􁰎	-13.8031
淯	-13.8031
葚	-13.8034
􁎾	-13.8034
鬲	-13.8034
庥	-13.8034
狖	-13.8034
糶	-13.8034
撒	-13.8034
緊	-13.8034
茸	-13.8034
菘	-13.8034
雎	-13.8034
楠	-13.8035
黌	-13.8037
箏	-13.8037
囤	-13.8037
􁧉	-13.8037
嫜	-13.8037
脾	-13.8037
􁙽	-13.8037
姝	-13.8037
毓	-13.8037
觗	-13.8037
忪	-13.8037
戛	-13.8037
瞶	-13.8037
晸	-13.8037
瘑	-13.8037
纇	-13.8037
艪	-13.8037
𬋩	-13.8037
􁳜	-13.8037
咍	-13.804
詒	-13.804
磑	-13.804
腯	-13.804
怫	-13.804
隖	-13.804
䵋	-13.804
橐	-13.804
啚	-13.804
喗	-13.804
塾	-13.804
崘	-13.804
瓽	-13.804
螟	-13.804
蟣	-13.804
􁔱	-13.8043
矌	-13.8043
竞	-13.8043
叉	-13.8043
􁏁	-13.8043
嚵	-13.8043
僄	-13.8043
崕	-13.8043
巗	-13.8043
戇	-13.8043
暘	-13.8043
梭	-13.8043
毳	-13.8043
滈	-13.8043
狒	-13.8043
罅	-13.8043
鋟	-13.8043
􁔿	-13.8043
􁥟	-13.8043
㨂	-13.8046
閗	-13.8046
咋	-13.8046
嫺	-13.8046
懹	-13.8047
銚	-13.8047
需	-13.8047
嚗	-13.8047
芊	-13.8047
閃	-13.8047
􁱖	-13.8047
冄	-13.805
𬗟	-13.805
麦	-13.805
哮	-13.805
肸	-13.805
憺	-13.805
汩	-13.805
泱	-13.805
黽	-13.805
􁑼	-13.805
􁠾	-13.805
鱉	-13.805
枋	-13.8052
襕	-13.8053
儧	-13.8053
熬	-13.8053
紵	-13.8053
腊	-13.8053
屚	-13.8053
蘸	-13.8056
𪠘	-13.8056
憧	-13.8056
潺	-13.8056
甪	-13.8056
鄯	-13.8057
𡑞	-13.8059
毯	-13.8059
㾗	-13.8059
嗛	-13.8059
峗	-13.8059
瘣	-13.8059
闉	-13.8059
𣗳	-13.8059
怦	-13.8062
瞹	-13.8062
賖	-13.8065
噎	-13.8065
慴	-13.8065
楨	-13.8065
鍛	-13.8065
篩	-13.8065
􁊥	-13.8065
矍	-13.8065
鄑	-13.8065
鍼	-13.8069
薜	-13.8069
㕠	-13.8069
慳	-13.8069
湴	-13.8069
畟	-13.8069
稡	-13.8069
崪	-13.8072
柞	-13.8075
颿	-13.8075
鬂	-13.8075
􁊞	-13.8075
懴	-13.8078
猊	-13.8078
颭	-13.8078
轢	-13.8081
濴	-13.8081
蕊	-13.8081
瘥	-13.8084
恰	-13.8084
歾	-13.8084
磋	-13.8091
籃	-13.8091
嵈	-13.8097
莬	-13.81
圽	-13.8113
枵	-13.8125
𬞞	-14.7786
𤏡	-14.7787
𠢐	-14.7788
鼗	-14.7789
黏	-14.779
鸑	-14.7791
鷟	-14.7792
鶹	-14.7793
鵑	-14.7794
鵂	-14.7795
鰩	-14.7796
鯫	-14.7797
鮀	-14.7798
鬷	-14.7799
駹	-14.78
駘	-14.7801
颶	-14.7802
顱	-14.7803
韭	-14.7804
鞟	-14.7805
靼	-14.7806
靷	-14.7807
霪	-14.7808
雰	-14.7809
阽	-14.781
閧	-14.7811
鐍	-14.7812
鏜	-14.7813
錘	-14.7814
佷	-14.7815
銕	-14.7815
醐	-14.7816
醍	-14.7817
醆	-14.7818
醅	-14.7819
鄫	-14.782
邴	-14.7821
邭	-14.7822
遴	-14.7823
逶	-14.7824
迕	-14.7825
躑	-14.7826
躇	-14.7827
踟	-14.7828
貉	-14.7829
讁	-14.783
譸	-14.7831
誖	-14.7832
裯	-14.7833
袓	-14.7834
螗	-14.7835
螃	-14.7836
蝴	-14.7837
蜿	-14.7838
蜻	-14.7839
蜴	-14.784
蚋	-14.7841
蘩	-14.7842
薯	-14.7843
蕰	-14.7844
蕈	-14.7845
蓨	-14.7846
菡	-14.7847
菖	-14.7848
莩	-14.7849
莉	-14.785
茘	-14.7851
茉	-14.7852
臙	-14.7853
腠	-14.7854
胭	-14.7855
聵	-14.7856
聃	-14.7857
耤	-14.7858
翽	-14.7859
翯	-14.786
翛	-14.7861
羚	-14.7862
䥫	-14.7863
墍	-14.7863
罳	-14.7863
罘	-14.7864
纜	-14.7865
繿	-14.7866
綮	-14.7867
綩	-14.7868
絫	-14.7869
絍	-14.787
厎	-14.787
紱	-14.7871
粕	-14.7872
籧	-14.7873
簴	-14.7874
篲	-14.7875
篨	-14.7876
篌	-14.7877
箜	-14.7878
儐	-14.7878
箄	-14.7879
筈	-14.788
站	-14.7881
窳	-14.7882
秔	-14.7883
禘	-14.7884
礹	-14.7885
碼	-14.7886
剱	-14.7886
碟	-14.7887
硫	-14.7888
砲	-14.7889
瞭	-14.789
瘕	-14.7891
瘐	-14.7892
痞	-14.7893
畯	-14.7894
㞶	-14.7894
埓	-14.7894
瑠	-14.7895
瑒	-14.7896
琫	-14.7897
珧	-14.7898
玅	-14.7899
獫	-14.79
獗	-14.7901
燀	-14.7902
㨔	-14.7902
躃	-14.7902
滶	-14.7903
溴	-14.7904
溍	-14.7905
溈	-14.7906
湓	-14.7907
淥	-14.7908
淀	-14.7909
涷	-14.791
䖈	-14.791
侅	-14.791
洏	-14.7911
汨	-14.7912
汐	-14.7913
氲	-14.7914
毡	-14.7915
殣	-14.7916
歃	-14.7917
檘	-14.7918
妤	-14.7919
婕	-14.7919
橧	-14.7919
榕	-14.792
楗	-14.7921
棨	-14.7922
棉	-14.7923
桄	-14.7924
柸	-14.7925
柦	-14.7926
㑫	-14.7927
䛇	-14.7927
䬶	-14.7927
埤	-14.7927
柤	-14.7927
枸	-14.7928
枊	-14.7929
杆	-14.793
暵	-14.7931
暌	-14.7932
晰	-14.7933
拿	-14.7934
冸	-14.7935
壎	-14.7935
戁	-14.7935
慓	-14.7936
惹	-14.7937
惘	-14.7938
悱	-14.7939
怳	-14.794
怗	-14.7941
嶸	-14.7942
င	-14.7943
剸	-14.7943
埴	-14.7943
嬾	-14.7943
嶔	-14.7943
嵕	-14.7944
尻	-14.7945
寠	-14.7946
孌	-14.7947
嫻	-14.7948
婞	-14.7949
婇	-14.795
鄲	-14.795
ဃ	-14.7951
㭖	-14.7951
䂀	-14.7951
䘐	-14.7951
伭	-14.7951
呫	-14.7951
咷	-14.7951
塈	-14.7951
娃	-14.7951
姤	-14.7951
姣	-14.7952
妷	-14.7953
夬	-14.7954
墁	-14.7955
塿	-14.7956
埽	-14.7957
垤	-14.7958
㔹	-14.7959
㙮	-14.7959
䣓	-14.7959
丼	-14.7959
俵	-14.7959
刵	-14.7959
剜	-14.7959
噂	-14.7959
堮	-14.7959
孀	-14.7959
轞	-14.7959
圬	-14.7959
嗅	-14.796
呐	-14.7961
匏	-14.7962
勷	-14.7963
劻	-14.7964
劂	-14.7965
剞	-14.7966
㳙	-14.7967
㷅	-14.7967
㿅	-14.7967
䏎	-14.7967
佽	-14.7967
噆	-14.7967
坫	-14.7967
爓	-14.7967
刾	-14.7967
僶	-14.7968
偫	-14.7969
偟	-14.797
俻	-14.7971
侒	-14.7972
仡	-14.7973
亙	-14.7974
㚄	-14.7975
㟠	-14.7975
㟮	-14.7975
㡊	-14.7975
㼬	-14.7975
䂭	-14.7975
䋋	-14.7975
䐜	-14.7975
倵	-14.7975
䳨	-14.7975
䢴	-14.7976
䌧	-14.7977
䃋	-14.7978
㮙	-14.7979
㩧	-14.798
㚋	-14.7981
㒤	-14.7982
㓎	-14.7983
㡣	-14.7983
䏑	-14.7983
䔧	-14.7983
䢰	-14.7983
䢵	-14.7983
䮦	-14.7983
丌	-14.7983
倂	-14.7983
偎	-14.7983
傀	-14.7983
凈	-14.7983
卄	-14.7983
嗌	-14.7983
圌	-14.7983
埊	-14.7983
堊	-14.7983
尃	-14.7983
麩	-14.7983
鷥	-14.7984
鵉	-14.7985
髑	-14.7986
髏	-14.7987
饔	-14.7988
饅	-14.7989
餬	-14.799
㬚	-14.7991
㰖	-14.7991
䄇	-14.7991
傒	-14.7991
傚	-14.7991
儛	-14.7991
剩	-14.7991
剮	-14.7991
劌	-14.7991
卹	-14.7991
圀	-14.7991
垜	-14.7991
尩	-14.7991
餛	-14.7991
餗	-14.7992
飩	-14.7993
飈	-14.7994
靂	-14.7995
霹	-14.7996
闤	-14.7997
閿	-14.7998
㗋	-14.7999
㬱	-14.7999
㳄	-14.7999
㴲	-14.7999
䳒	-14.7999
众	-14.7999
俑	-14.7999
倕	-14.7999
傫	-14.7999
儘	-14.7999
儜	-14.7999
凷	-14.7999
叁	-14.7999
呴	-14.7999
唫	-14.7999
囝	-14.7999
垻	-14.7999
嫓	-14.7999
嫦	-14.7999
蔀	-14.7999
轜	-14.7999
蹭	-14.8
蹐	-14.8001
踘	-14.8002
謦	-14.8003
詖	-14.8004
褌	-14.8005
裼	-14.8006
㘅	-14.8007
㦄	-14.8007
䒩	-14.8007
䕳	-14.8007
䳭	-14.8007
䵎	-14.8007
侠	-14.8007
俓	-14.8007
劳	-14.8007
呀	-14.8007
咻	-14.8007
嚏	-14.8007
埶	-14.8007
墠	-14.8007
壩	-14.8007
妒	-14.8007
芸	-14.8007
蠮	-14.8007
蠭	-14.8008
蚾	-14.8009
蚵	-14.801
薔	-14.8011
蓑	-14.8012
艻	-14.8013
羝	-14.8014
㘆	-14.8015
㡳	-14.8015
㥽	-14.8015
㷱	-14.8015
䁈	-14.8015
䔍	-14.8015
䫨	-14.8015
乜	-14.8015
习	-14.8015
仉	-14.8015
兑	-14.8015
吒	-14.8015
喎	-14.8015
圊	-14.8015
垾	-14.8015
婷	-14.8015
媓	-14.8015
宭	-14.8015
寉	-14.8015
寱	-14.8015
繽	-14.8015
繻	-14.8016
綌	-14.8017
箎	-14.8018
窿	-14.8019
砭	-14.802
矚	-14.8021
盔	-14.8022
皚	-14.8023
㗸	-14.8023
㦤	-14.8023
㬢	-14.8023
㮴	-14.8023
䏂	-14.8023
䑃	-14.8023
䑲	-14.8023
䩨	-14.8023
仚	-14.8023
份	-14.8023
伋	-14.8023
做	-14.8023
划	-14.8023
剑	-14.8023
劓	-14.8023
听	-14.8023
囯	-14.8023
型	-14.8023
埾	-14.8023
塌	-14.8023
墯	-14.8023
媟	-14.8023
畹	-14.8024
璊	-14.8025
璁	-14.8026
瑘	-14.8027
瑇	-14.8028
玶	-14.8029
獪	-14.803
牾	-14.8031
㦃	-14.8031
㫿	-14.8031
䆠	-14.8031
䔉	-14.8031
䱉	-14.8031
侐	-14.8031
儵	-14.8031
嗑	-14.8031
嘹	-14.8031
堀	-14.8031
塏	-14.8031
塽	-14.8031
壈	-14.8031
抒	-14.8031
臈	-14.8031
牴	-14.8032
牱	-14.8033
燠	-14.8034
煚	-14.8035
滏	-14.8036
淞	-14.8037
涫	-14.8038
泾	-14.8039
㐌	-14.8039
㜸	-14.8039
㠊	-14.8039
䌫	-14.8039
䛑	-14.8039
䣖	-14.8039
䩭	-14.8039
䴢	-14.8039
你	-14.8039
倞	-14.8039
偝	-14.8039
呤	-14.8039
咂	-14.8039
喭	-14.8039
噦	-14.8039
塪	-14.8039
壍	-14.8039
姎	-14.8039
嬀	-14.8039
尔	-14.8039
繳	-14.8039
氎	-14.804
欬	-14.8041
檳	-14.8042
椵	-14.8043
从	-14.8043
摴	-14.8044
慥	-14.8045
愻	-14.8046
惏	-14.8047
㑴	-14.8047
亏	-14.8047
傔	-14.8047
內	-14.8047
呆	-14.8047
噴	-14.8047
婀	-14.8047
媕	-14.8047
襖	-14.8047
鑚	-14.8047
忮	-14.8048
徕	-14.8049
庲	-14.805
嵋	-14.8051
塤	-14.8052
坏	-14.8053
噞	-14.8054
匍	-14.8055
㸌	-14.8055
䏶	-14.8055
䥓	-14.8055
䴥	-14.8055
喊	-14.8055
噲	-14.8055
壃	-14.8055
姆	-14.8055
娀	-14.8055
嬙	-14.8055
勱	-14.8056
仝	-14.8057
䐗	-14.8058
䏰	-14.8059
㻑	-14.806
麈	-14.8061
髓	-14.8062
騤	-14.8063
㞡	-14.8063
㪣	-14.8063
㺄	-14.8063
么	-14.8063
倏	-14.8063
剟	-14.8063
劲	-14.8063
嘽	-14.8063
妥	-14.8063
娣	-14.8063
騟	-14.8064
騏	-14.8065
颻	-14.8066
鞶	-14.8067
鏑	-14.8068
鉠	-14.8069
釂	-14.807
鄔	-14.8071
㣼	-14.8071
䰇	-14.8071
串	-14.8071
剺	-14.8071
遛	-14.8072
輴	-14.8073
躐	-14.8074
蹻	-14.8075
跬	-14.8076
詾	-14.8077
襚	-14.8078
袱	-14.8079
㡢	-14.8079
㬅	-14.8079
㲜	-14.8079
䓗	-14.8079
䕠	-14.8079
儭	-14.8079
厷	-14.8079
咆	-14.8079
螉	-14.808
蝠	-14.8081
蝙	-14.8082
蛉	-14.8083
蚩	-14.8084
脗	-14.8085
纁	-14.8086
緼	-14.8087
㒵	-14.8087
㠂	-14.8087
㠯	-14.8087
㳫	-14.8087
㳽	-14.8087
䀻	-14.8087
乚	-14.8087
佋	-14.8087
俲	-14.8087
奂	-14.8087
絏	-14.8088
籀	-14.8089
篚	-14.809
穠	-14.8091
禝	-14.8092
瞍	-14.8093
皺	-14.8094
瘤	-14.8095
㑡	-14.8095
㓝	-14.8095
㣪	-14.8095
㫺	-14.8095
僱	-14.8095
卸	-14.8095
哪	-14.8095
嚚	-14.8095
甔	-14.8096
玁	-14.8097
狸	-14.8098
犛	-14.8099
濺	-14.81
汊	-14.8101
樟	-14.8102
樗	-14.8103
㭬	-14.8103
䤈	-14.8103
戔	-14.8104
愾	-14.8105
惓	-14.8106
悾	-14.8107
悝	-14.8108
恁	-14.8109
岵	-14.811
岊	-14.8111
䳡	-14.8111
凸	-14.8111
姞	-14.8111
姮	-14.8112
嚳	-14.8113
嘑	-14.8114
咲	-14.8115
丒	-14.8116
䤬	-14.8117
𧖟	-14.8118
麊	-14.8119
鸚	-14.812
鵡	-14.8121
鬃	-14.8122
髴	-14.8123
髣	-14.8124
邗	-14.8125
讙	-14.8126
諲	-14.8127
俺	-14.8127
厶	-14.8127
襞	-14.8128
螽	-14.8129
螳	-14.813
螂	-14.8131
蝨	-14.8132
蓚	-14.8133
葫	-14.8134
茤	-14.8135
㲪	-14.8135
䂪	-14.8135
艣	-14.8136
肢	-14.8137
縟	-14.8138
筲	-14.8139
磝	-14.814
碻	-14.8141
琄	-14.8141
睥	-14.8142
獼	-14.8143
犖	-14.8144
牣	-14.8145
桷	-14.8146
桎	-14.8147
撩	-14.8148
搢	-14.8149
拇	-14.815
抶	-14.8151
屹	-14.8152
壖	-14.8153
吃	-14.8154
䞇	-14.8155
齓	-14.8156
鶢	-14.8157
鶋	-14.8158
駸	-14.8159
鈄	-14.816
邙	-14.8161
轤	-14.8162
轆	-14.8163
跏	-14.8164
胼	-14.8165
胝	-14.8166
耜	-14.8167
悄	-14.8168
翡	-14.8168
箒	-14.8169
窅	-14.817
狁	-14.8171
灔	-14.8172
澘	-14.8173
檇	-14.8174
挥	-14.8175
婪	-14.8176
圼	-14.8177
嘖	-14.8178
㟍	-14.8179
麂	-14.818
馗	-14.8181
鍜	-14.8182
錚	-14.8183
蒺	-14.8184
秭	-14.8185
灄	-14.8186
濘	-14.8187
溶	-14.8188
洑	-14.8189
泯	-14.819
榴	-14.8191
憮	-14.8192
慇	-14.8193
恼	-14.8194
帔	-14.8195
嵻	-14.8196
壠	-14.8197
喁	-14.8198
啻	-14.8199
𨵦	-14.82
鏖	-14.8201
鄄	-14.8202
觖	-14.8203
蝚	-14.8204
薏	-14.8205
菟	-14.8206
苡	-14.8207
芭	-14.8208
泅	-14.8209
检	-14.821
憔	-14.8211
崎	-14.8212
匃	-14.8213
齯	-14.8214
餤	-14.8215
磻	-14.8216
渲	-14.8217
惚	-14.8218
喟	-14.8219
訇	-14.822
裟	-14.8221
袈	-14.8222
茱	-14.8223
紜	-14.8224
窕	-14.8225
窈	-14.8226
渰	-14.8227
幞	-14.8228
岢	-14.8229
寞	-14.823
孥	-14.8231
嗷	-14.8232
麒	-14.8233
鞨	-14.8234
靺	-14.8235
鐬	-14.8236
褓	-14.8237
嶇	-14.8238
逡	-14.8239
漵	-14.824
惆	-14.8241
僔	-14.8242
亳	-14.8243
㯽	-14.8244
琉	-14.8245
忞	-14.8246
倻	-14.8247
孑	-14.8248
圄	-14.8249
囹	-14.825
剄	-14.8251
鷓	-14.8252
鴣	-14.8253
藜	-14.8254
獅	-14.8255
驋	-14.8256
翩	-14.8257
汧	-14.8258
㺷	-14.8259
鎡	-14.826
珀	-14.8261
榔	-14.8262
饉	-14.8263
邡	-14.8264
蕞	-14.8265
歔	-14.8266
鰥	-14.8267
蓉	-14.8268
皿	-14.8269
珊	-14.827
瀋	-14.8271
朐	-14.8272
莆	-14.8273
溧	-14.8274
灞	-14.8275
瀏	-14.8276
咫	-14.8277
䍧	-14.8278
琵	-14.8279
恟	-14.828
逍	-14.8281
湟	-14.8282
琊	-14.8283
駙	-14.8284
瑯	-14.8285
菩	-14.8286
匈	-14.8287
怏	-14.8288
䢂	-14.8289
燉	-14.8289
