<unk>	0
<s>	0
</s>	0
。	-2.07926
之	-4.91901
不	-4.94976
無	-5.20424
一	-5.21952
有	-5.23023
曰	-5.26442
云	-5.34047
人	-5.38592
也	-5.45976
為	-5.50144
是	-5.51811
師	-5.52058
者	-5.53547
,	-5.5401
道	-5.60574
得	-5.63858
心	-5.68871
問	-5.70194
而	-5.72816
師云	-5.7406
來	-5.74326
以	-5.80336
師曰	-5.8144
中	-5.84863
見	-5.8563
如	-5.85817
大	-5.87389
山	-5.91176
生	-5.92489
此	-5.95778
自	-6.01636
其	-6.02031
在	-6.02218
於	-6.02253
我	-6.02365
(	-6.0372
上	-6.06109
行	-6.09726
法	-6.09849
處	-6.1093
佛	-6.12775
若	-6.12794
時	-6.1312
出	-6.15052
子	-6.15949
則	-6.16881
)	-6.17074
即	-6.20946
與	-6.21515
▁	-6.22109
去	-6.22245
天	-6.2294
三	-6.24096
事	-6.25135
相	-6.25602
頭	-6.27194
知	-6.29013
明	-6.30993
非	-6.31026
作	-6.32271
入	-6.36898
下	-6.37899
水	-6.3848
說	-6.38532
禪師	-6.40194
後	-6.42551
又	-6.44388
日	-6.45721
空	-6.49387
和尚	-6.50185
僧	-6.50931
至	-6.52127
上堂	-6.52145
未	-6.52288
雲	-6.54491
身	-6.56572
風	-6.56597
故	-6.56773
然	-6.57292
言	-6.5956
便	-6.59585
地	-6.60369
真	-6.60608
能	-6.61299
何	-6.61687
舉	-6.61923
成	-6.62787
當	-6.63014
前	-6.63214
亦	-6.6351
同	-6.63621
」「	-6.64633
所	-6.65672
汝	-6.66678
向	-6.68056
月	-6.68606
聞	-6.69419
可	-6.69798
過	-6.69912
因	-6.70275
盡	-6.70709
著	-6.70758
名	-6.72198
乃	-6.72221
語	-6.73855
門	-6.74109
開	-6.77681
眼	-6.77982
二	-6.78316
起	-6.81073
他	-6.81875
光	-6.81925
不得	-6.82029
難	-6.82732
歸	-6.83386
方	-6.83521
公	-6.84272
看	-6.85193
將	-6.86208
從	-6.86827
四	-6.86938
會	-6.8891
多	-6.89499
世	-6.89725
裏	-6.89868
皆	-6.90036
巳	-6.90285
莫	-6.90595
打	-6.90672
却	-6.90716
復	-6.90736
高	-6.91149
要	-6.91255
到	-6.91311
教	-6.91519
眾	-6.92099
本	-6.92103
諸	-6.92674
今	-6.92789
你	-6.93046
如何是	-6.93285
用	-6.93518
家	-6.93616
了	-6.94633
正	-6.96115
參	-6.96713
還	-6.9695
住	-6.97734
長	-6.97777
意	-6.98191
聲	-6.98302
底	-6.99567
悟	-7.00522
金	-7.01621
萬	-7.01809
禪	-7.02582
更	-7.03399
五	-7.03412
海	-7.04004
分	-7.04067
王	-7.0501
老	-7.05643
白	-7.05973
坐	-7.06286
兩	-7.06696
深	-7.07117
隨	-7.07168
好	-7.07222
欲	-7.07347
且	-7.0778
祖	-7.07809
宗	-7.09518
矣	-7.09815
口	-7.10501
經	-7.10544
識	-7.10927
重	-7.11085
州	-7.11462
破	-7.11689
解	-7.11739
安	-7.12101
常	-7.12966
石	-7.13618
手	-7.13826
請	-7.13893
實	-7.1393
通	-7.14273
轉	-7.14572
求	-7.14712
性	-7.151
路	-7.1524
▁*	-7.15649
覺	-7.16034
傳	-7.16118
謂	-7.16413
應	-7.16563
機	-7.16614
清	-7.17379
吾	-7.17895
觀	-7.18378
智	-7.18713
流	-7.18718
年	-7.1892
善	-7.19212
南	-7.19624
花	-7.20321
外	-7.20332
主	-7.2057
遂	-7.21363
別	-7.21593
既	-7.21651
或	-7.22193
龍	-7.22557
今日	-7.22609
香	-7.22635
信	-7.22754
落	-7.23002
死	-7.23202
定	-7.23795
化	-7.24346
堂	-7.24845
妙	-7.24955
千	-7.25119
物	-7.25924
但	-7.26073
古	-7.26662
力	-7.26835
緣	-7.27282
僧問	-7.27648
聖	-7.27785
令	-7.27798
乎	-7.2805
寶	-7.28196
山僧	-7.28859
先	-7.29223
不是	-7.29726
初	-7.29907
照	-7.30057
東	-7.30106
麼	-7.30149
須	-7.30216
念	-7.30463
立	-7.31189
只	-7.31248
火	-7.31278
色	-7.31326
進云	-7.3171
絕	-7.31718
取	-7.31928
發	-7.32136
理	-7.32525
不知	-7.32636
指	-7.32897
體	-7.33899
等	-7.33931
于	-7.34652
西	-7.34916
藏	-7.34982
義	-7.35064
離	-7.35172
春	-7.35624
書	-7.3578
耳	-7.36121
受	-7.36886
寒	-7.37133
及	-7.37305
句	-7.37313
似	-7.37965
夜	-7.38267
六	-7.38575
且道	-7.38604
如何	-7.39076
學	-7.40906
雖	-7.41071
遠	-7.41564
文	-7.42132
合	-7.42218
直	-7.42277
一切	-7.42729
雪	-7.42773
誰	-7.42958
親	-7.42962
:「	-7.43198
使	-7.43235
斷	-7.43585
居	-7.43711
林	-7.4382
現	-7.43826
德	-7.44163
國	-7.4431
度	-7.45015
華	-7.45795
漢	-7.46905
境	-7.47227
箇	-7.47658
動	-7.47727
情	-7.48028
百	-7.48352
寺	-7.48546
靈	-7.49045
雨	-7.49611
苦	-7.49655
不可	-7.49732
元	-7.4996
衣	-7.50011
。」【	-7.51549
笑	-7.51555
八	-7.52918
依	-7.52974
九	-7.53073
具	-7.5417
修	-7.54277
大眾	-7.54529
足	-7.5471
病	-7.5487
神	-7.54934
面	-7.55045
業	-7.55149
次	-7.5537
耶	-7.55508
新	-7.5596
十	-7.56159
被	-7.56512
峰	-7.57023
塵	-7.57194
放	-7.57253
僧云	-7.5751
豈	-7.57584
滿	-7.58353
一日	-7.58706
爾	-7.58827
對	-7.58946
思	-7.59332
卻	-7.59351
七	-7.59404
淨	-7.59563
猶	-7.59701
邊	-7.60276
小	-7.60904
不能	-7.6096
數	-7.61384
異	-7.61567
論	-7.6174
證	-7.61752
平	-7.61763
始	-7.62187
馬	-7.62194
哉	-7.62898
如是	-7.62997
果	-7.63519
已	-7.63658
氣	-7.6376
那	-7.6413
待	-7.65294
圓	-7.65469
往	-7.65556
命	-7.65601
眾生	-7.65638
。】「	-7.65867
玉	-7.66006
恁麼	-7.66144
生死	-7.66166
樹	-7.66241
話	-7.66305
俱	-7.66555
持	-7.66564
全	-7.66634
拈	-7.66983
玄	-7.67472
滅	-7.676
禮	-7.6782
和	-7.67868
老僧	-7.68614
關	-7.68767
江	-7.69427
內	-7.69431
根	-7.69841
獨	-7.70032
木	-7.70336
慧	-7.70357
回	-7.7037
久	-7.70504
居士	-7.70595
佛法	-7.7159
露	-7.71626
所以	-7.71897
惟	-7.72419
影	-7.73489
總	-7.73993
忽	-7.74143
普	-7.74632
聽	-7.7492
共	-7.75122
少	-7.7535
忘	-7.75523
君	-7.75703
草	-7.76015
戒	-7.76158
脫	-7.76753
示	-7.76793
休	-7.77099
利	-7.77503
倒	-7.78318
願	-7.78478
秋	-7.78639
青	-7.78851
終	-7.79528
疑	-7.7953
菴	-7.7966
必	-7.80469
目	-7.80488
歲	-7.80555
燈	-7.80566
點	-7.80911
就	-7.81031
源	-7.8129
報	-7.81325
卷	-7.8156
福	-7.81892
彼	-7.81933
都	-7.82531
飛	-7.82823
雲門	-7.82912
妄	-7.82923
一句	-7.83286
座	-7.83391
甚	-7.83452
印	-7.83465
樂	-7.83695
不見	-7.83832
遇	-7.84105
太	-7.84386
位	-7.84405
臨濟	-7.85058
迷	-7.85252
食	-7.85441
字	-7.8554
凡	-7.8567
夢	-7.85703
密	-7.85746
間	-7.85984
由	-7.86109
松	-7.86321
半	-7.86463
答	-7.86796
城	-7.87201
顯	-7.8733
興	-7.88435
志	-7.88565
廣	-7.88657
失	-7.8872
易	-7.88998
止	-7.89262
鐵	-7.89298
牛	-7.89418
達	-7.8975
夫	-7.89823
尋	-7.89897
菩薩	-7.90079
趙州	-7.90259
朝	-7.90687
黃	-7.90707
曾	-7.90944
巖	-7.91082
殺	-7.91992
壽	-7.92407
功	-7.92437
惡	-7.927
兒	-7.92714
諸人	-7.92825
唯	-7.92866
遊	-7.93387
種	-7.93636
陽	-7.93714
客	-7.93987
這	-7.94119
時如何	-7.94602
徹	-7.95563
珠	-7.95819
稱	-7.95841
。」	-7.96029
勝	-7.96405
羅	-7.96504
頌	-7.96782
把	-7.97504
亂	-7.98101
首	-7.98152
作麼生	-7.9828
虎	-7.98312
收	-7.98405
如來	-7.98451
提	-7.98599
古人	-7.9885
沒	-7.98985
閒	-7.99049
士	-7.99272
諸佛	-7.99539
隱	-7.99555
波	-7.99607
寂	-7.9999
靜	-8.00246
超	-8.00403
幾	-8.00534
許	-8.0055
個	-8.00591
執	-8.00892
也無	-8.0107
雙	-8.013
纔	-8.01399
喫	-8.01408
橫	-8.01434
骨	-8.01609
任	-8.02056
喜	-8.02095
土	-8.02729
慈	-8.02744
接	-8.02849
尚	-8.03035
再	-8.03129
祇	-8.03213
的	-8.03226
變	-8.03395
望	-8.03583
如此	-8.03635
結	-8.04248
焉	-8.04405
劫	-8.04776
塔	-8.05105
北	-8.05533
不會	-8.0559
各	-8.06166
天下	-8.06488
蓋	-8.06652
走	-8.06723
世尊	-8.06797
鼓	-8.06966
某甲	-8.07205
承	-8.07629
恩	-8.07636
濟	-8.07917
退	-8.08182
辭	-8.08523
切	-8.08578
喝	-8.08714
遍	-8.09006
拄杖	-8.0901
頓	-8.093
分明	-8.09348
院	-8.09365
形	-8.09971
窮	-8.10099
臨	-8.10294
進	-8.10424
泉	-8.10502
量	-8.10907
」	-8.10951
餘	-8.11008
還有	-8.1116
嗣	-8.11674
集	-8.11931
徒	-8.12027
致	-8.12059
錯	-8.12105
佛祖	-8.123
溪	-8.12426
音	-8.12458
永	-8.12557
上座	-8.12937
飯	-8.1354
垂	-8.1354
散	-8.13756
極	-8.1386
交	-8.14289
施	-8.14416
旨	-8.14516
孤	-8.14841
夏	-8.15413
兮	-8.15541
浪	-8.15633
愛	-8.16192
峯	-8.16206
茶	-8.1621
俗	-8.16343
界	-8.16682
除	-8.16712
齊	-8.17221
辨	-8.17665
否	-8.17687
奉	-8.17886
了也	-8.18006
余	-8.18159
賢	-8.182
端	-8.18219
錄	-8.18403
登	-8.1846
載	-8.18642
予	-8.18716
擬	-8.1904
說法	-8.19124
留	-8.19298
舊	-8.19343
即是	-8.19485
逢	-8.19966
沙	-8.20056
容	-8.20132
紅	-8.20366
造	-8.20443
何處	-8.20586
侍者	-8.2065
代	-8.20818
虛	-8.21516
鳥	-8.22205
曲	-8.22434
魔	-8.2252
宜	-8.22772
爭	-8.22871
透	-8.22931
謝	-8.23034
張	-8.23308
去也	-8.23327
昔	-8.2371
下座	-8.2372
最	-8.23863
斯	-8.23952
邪	-8.23979
鳴	-8.24241
曉	-8.24659
步	-8.24706
竹	-8.25186
擊	-8.25216
象	-8.25913
貴	-8.25946
臺	-8.26001
尊	-8.26425
伊	-8.26547
近	-8.26676
白雲	-8.26851
微	-8.27116
枝	-8.27299
寧	-8.27371
節	-8.27372
煙	-8.27899
息	-8.27922
消	-8.28102
周	-8.28369
殿	-8.28533
守	-8.28572
頂	-8.28585
送	-8.28638
覓	-8.28706
冷	-8.28783
一時	-8.2905
驚	-8.29111
衲僧	-8.29613
虗	-8.30218
輕	-8.30344
脚	-8.30597
翁	-8.30912
室	-8.30954
記	-8.31063
精	-8.31079
順	-8.31107
益	-8.31271
早	-8.31289
墮	-8.31312
懷	-8.31391
號	-8.3165
洞山	-8.31924
活	-8.3198
婆	-8.32145
假	-8.32153
諸方	-8.32188
母	-8.32222
?」	-8.32576
棒	-8.32669
出世	-8.33347
談	-8.33517
存	-8.33521
鏡	-8.33702
展	-8.33737
奇	-8.3383
學人	-8.34077
設	-8.34119
想	-8.34128
若是	-8.34196
慶	-8.3434
而不	-8.34912
野	-8.34921
連	-8.35015
幻	-8.35041
唱	-8.3533
田	-8.35364
問如何是	-8.356
原	-8.36121
鼻孔	-8.36323
頌曰	-8.36361
錢	-8.36402
洞	-8.36565
霜	-8.36711
與麼	-8.36717
乘	-8.37063
僧曰	-8.37137
菩提	-8.37174
出家	-8.37257
布	-8.37318
引	-8.37631
期	-8.37775
碧	-8.37968
泥	-8.37986
禮拜	-8.38009
般若	-8.38033
相見	-8.38191
畫	-8.38974
葉	-8.39215
暗	-8.39237
喚作	-8.39289
帝	-8.39308
領	-8.39336
父	-8.3978
示眾	-8.40008
契	-8.40026
像	-8.40049
喚	-8.40053
偈	-8.40076
庵	-8.40208
穿	-8.40239
仰	-8.40373
雖然	-8.40419
角	-8.40451
誠	-8.40503
一念	-8.40651
建	-8.40721
藥	-8.40821
老人	-8.40907
涅槃	-8.40984
祖師	-8.41166
背	-8.4121
氏	-8.41613
宿	-8.41635
雷	-8.41834
嚴	-8.42001
魚	-8.42271
不識	-8.42291
推	-8.42293
女	-8.42449
痛	-8.42468
某	-8.42749
堪	-8.42858
毛	-8.43109
舌	-8.43239
乾坤	-8.43274
肯	-8.43342
文殊	-8.43357
法身	-8.43541
急	-8.43553
覆	-8.43556
逐	-8.43604
請師	-8.43764
齋	-8.4393
輪	-8.44083
乃云	-8.44184
德山	-8.44402
叢林	-8.44548
顧	-8.4455
所謂	-8.44707
大師	-8.44739
帶	-8.4478
十方	-8.45028
湖	-8.45127
捨	-8.45195
河	-8.45245
自然	-8.45408
李	-8.45538
法界	-8.45556
隔	-8.45651
法門	-8.46068
途	-8.46144
谷	-8.4669
眉	-8.4671
翻	-8.47084
南泉	-8.47185
虛空	-8.47292
告	-8.47378
小參	-8.47502
甚麼	-8.47624
官	-8.47663
天地	-8.47826
幽	-8.47956
據	-8.48107
因緣	-8.48196
三昧	-8.48289
歌	-8.48299
溈山	-8.48405
弟子	-8.48416
星	-8.48417
舟	-8.48519
特	-8.4864
杖	-8.48733
卓	-8.48791
始得	-8.49093
赤	-8.49142
亦不	-8.49156
固	-8.4933
未審	-8.49642
揚	-8.49679
.	-8.49745
賊	-8.50034
呈	-8.50053
折	-8.50324
供養	-8.50334
梵	-8.50415
有時	-8.50452
拂子	-8.50565
良	-8.50632
壁	-8.50797
侍	-8.5092
聚	-8.50947
幸	-8.51053
畢竟	-8.51075
剎	-8.51291
拂	-8.52095
際	-8.52285
無所	-8.52774
亡	-8.52786
觸	-8.52794
付	-8.52972
陳	-8.52996
胡	-8.53098
晚	-8.53129
釋	-8.53155
弄	-8.53551
方便	-8.5358
群	-8.53741
遮	-8.53913
勢	-8.53986
一人	-8.54231
首座	-8.54422
嶺	-8.54564
為人	-8.54572
敢	-8.54629
熱	-8.54847
勞	-8.55014
何故	-8.55071
愚	-8.55114
恐	-8.55118
末	-8.55137
阿	-8.55265
感	-8.55274
染	-8.55328
移	-8.55598
便是	-8.5564
又作麼生	-8.55643
如今	-8.55646
省	-8.55707
渠	-8.55813
世間	-8.55876
冬	-8.56111
詩	-8.56227
黑	-8.56318
試	-8.56376
歷	-8.56686
疏	-8.56699
毒	-8.56948
鼻	-8.57404
陰	-8.57411
含	-8.57414
供	-8.57472
做	-8.57489
乾	-8.57545
住持	-8.57587
每	-8.57874
伏	-8.58131
罪	-8.58577
習	-8.58636
遺	-8.58679
浮	-8.58881
臥	-8.58934
護	-8.5911
鄉	-8.5917
圖	-8.59226
。「	-8.59291
吞	-8.59558
消息	-8.59669
畢	-8.59733
自在	-8.59912
金剛	-8.59945
舍	-8.60005
氏子	-8.60396
投	-8.60655
跡	-8.60917
偏	-8.6093
孝	-8.6114
悉	-8.61165
諦	-8.61188
增	-8.61371
本來	-8.61539
虗空	-8.61544
樓	-8.61559
什麼	-8.61647
紫	-8.61723
宣	-8.61751
雪竇	-8.61765
運	-8.61784
負	-8.61876
世界	-8.61896
況	-8.61916
多少	-8.61927
踏	-8.62159
殊	-8.62245
越	-8.62271
磨	-8.6266
劍	-8.6269
若不	-8.62894
加	-8.63245
閑	-8.63463
秀	-8.6375
治	-8.63839
縱	-8.64138
當時	-8.64596
視	-8.64677
掌	-8.64914
鳳	-8.64933
良久云	-8.64937
清淨	-8.65056
類	-8.65073
天童	-8.65229
今朝	-8.65381
光明	-8.655
燒	-8.65699
以為	-8.65835
唐	-8.65891
代云	-8.66114
竟	-8.66162
驢	-8.66401
索	-8.66479
腳	-8.66574
筆	-8.66716
盛	-8.66748
於此	-8.66757
敬	-8.66774
鐘	-8.6681
百丈	-8.66884
解脫	-8.66939
皇	-8.67038
這箇	-8.67316
?	-8.67474
箭	-8.67734
資	-8.67793
十二	-8.67822
亦無	-8.67871
刀	-8.68079
默	-8.68342
奪	-8.68521
蒙	-8.68529
響	-8.68611
摩	-8.68937
謁	-8.69216
拳	-8.69436
救	-8.69542
酬	-8.69573
府	-8.69596
萬里	-8.69635
返	-8.69658
略	-8.69988
強	-8.70202
○	-8.70397
不動	-8.70397
拜	-8.70472
瑞	-8.70534
人天	-8.70583
佛性	-8.70645
船	-8.70681
先師	-8.70753
盤	-8.70797
勿	-8.71
器	-8.71012
不出	-8.71052
偈曰	-8.71109
釋迦	-8.71141
無量	-8.7143
第二	-8.71474
不肯	-8.71479
驀	-8.71631
賓	-8.7165
梅	-8.71709
勤	-8.71748
仁	-8.71845
)」「	-8.72114
不曾	-8.72186
計	-8.72194
披	-8.72284
降	-8.72508
一喝	-8.72519
徑山	-8.72615
涉	-8.72657
貧	-8.72896
不在	-8.72999
兄	-8.73247
商量	-8.73396
宮	-8.73445
熟	-8.73712
尾	-8.73768
嘗	-8.7387
血	-8.7387
借	-8.73872
大地	-8.74058
放下	-8.74068
振	-8.74071
古今	-8.74162
細	-8.74215
何不	-8.74254
攝	-8.74293
即今	-8.7437
味	-8.7438
吐	-8.74529
境界	-8.74629
權	-8.74631
怪	-8.74647
沉	-8.74697
誦	-8.74713
因甚	-8.74738
仰山	-8.74826
臣	-8.74864
未免	-8.75009
:	-8.75015
遷	-8.75167
般	-8.752
吹	-8.75226
咄	-8.75635
養	-8.75678
鬼	-8.7571
枯	-8.75935
爐	-8.76033
塞	-8.76152
皮	-8.7618
茲	-8.76279
絲	-8.76405
請上堂	-8.76419
驗	-8.76529
蓮	-8.76997
無生	-8.77126
有一	-8.77147
壞	-8.7753
悲	-8.77533
鶴	-8.77628
此是	-8.7775
「	-8.77757
謂之	-8.77847
洗	-8.77895
辯	-8.7797
比	-8.78001
招	-8.78062
禪師法嗣	-8.78278
雪峰	-8.78301
啟	-8.78323
漸	-8.78387
演	-8.78494
不著	-8.7856
無人	-8.78619
不妨	-8.78669
只是	-8.78689
丈	-8.78741
快	-8.78828
喪	-8.78874
池	-8.78979
單	-8.78985
師便打	-8.79019
蛇	-8.7904
米	-8.79041
續	-8.79477
珍重	-8.79684
律	-8.79688
公案	-8.79704
又云	-8.79922
才	-8.79972
讀	-8.8015
章	-8.80165
撥	-8.80202
挂	-8.80204
示眾云	-8.80253
現前	-8.80254
呼	-8.80571
講	-8.80631
達磨	-8.80689
烏	-8.80713
表	-8.80722
延	-8.80729
不覺	-8.80881
直下	-8.81032
民	-8.81123
屈	-8.81262
威	-8.81264
千里	-8.81328
分別	-8.81392
管	-8.81618
髮	-8.81697
岸	-8.81781
會麼	-8.81931
時節	-8.81973
短	-8.82015
屬	-8.82132
黃檗	-8.82162
直得	-8.82228
弘	-8.82232
祖曰	-8.82254
良久	-8.82293
貪	-8.82509
乞	-8.82628
拄杖子	-8.82897
惑	-8.83164
趣	-8.83185
飲	-8.83194
咸	-8.83197
不同	-8.83215
吳	-8.83229
迦葉	-8.83277
姓	-8.83315
堅	-8.83376
眠	-8.83496
決	-8.83555
免	-8.83579
謾	-8.83781
第一	-8.83812
忍	-8.8386
尊者	-8.83876
梁	-8.83879
可謂	-8.83912
方丈	-8.83914
尋常	-8.84006
日月	-8.84045
偶	-8.84094
調	-8.84274
召	-8.84312
長老	-8.84341
掃	-8.84536
之所	-8.84688
不如	-8.84794
鑑	-8.85027
乃至	-8.8504
疾	-8.8517
並	-8.85453
須是	-8.85659
不用	-8.85685
置	-8.85708
條	-8.85786
向上	-8.85901
反	-8.85966
授	-8.86266
積	-8.86334
無心	-8.86421
園	-8.86436
扶	-8.86463
道理	-8.86691
識得	-8.86701
肉	-8.86788
只如	-8.86789
差	-8.86869
作麼	-8.86919
無有	-8.86947
懸	-8.87153
擔	-8.87189
適	-8.8723
山云	-8.87281
會得	-8.87287
鋒	-8.87303
也是	-8.87372
須彌	-8.874
寄	-8.87478
癡	-8.87832
遭	-8.8789
徧	-8.8792
者箇	-8.87953
陵	-8.87959
種種	-8.87988
是非	-8.88081
甘	-8.88082
睡	-8.88106
有人	-8.88107
遣	-8.8816
翠	-8.8822
不敢	-8.88284
刻	-8.88403
川	-8.88484
一箇	-8.88511
彌勒	-8.88595
錦	-8.88619
服	-8.88656
蒼	-8.88672
究	-8.89043
不離	-8.89044
若也	-8.89331
老漢	-8.89364
獲	-8.89384
戶	-8.89523
更有	-8.89618
馬祖	-8.89673
煩惱	-8.89937
融	-8.90112
相逢	-8.90115
景	-8.90168
父母	-8.90185
昏	-8.90219
頌云	-8.90399
敲	-8.90678
艸	-8.90834
直饒	-8.90916
席	-8.90941
三十	-8.90966
干	-8.90969
搖	-8.9097
玄沙	-8.91279
人人	-8.91323
徑	-8.91539
本無	-8.91815
認	-8.91883
舞	-8.91924
經云	-8.91963
問曰	-8.92243
備	-8.9228
楚	-8.92286
相似	-8.92418
學者	-8.92426
顏	-8.92471
村	-8.92474
裡	-8.92525
倚	-8.92543
儒	-8.92558
法眼	-8.92586
便打	-8.92701
酒	-8.92705
添	-8.92713
比丘	-8.92771
仙	-8.92824
罷	-8.92851
障	-8.92878
棄	-8.93052
約	-8.93164
可以	-8.93324
將來	-8.93442
三界	-8.93798
在甚麼處	-8.93816
追	-8.94081
擲	-8.94155
狂	-8.94227
拈云	-8.94238
一片	-8.94382
違	-8.94602
楊	-8.94612
喝一喝	-8.94634
二十	-8.94739
兼	-8.9487
迎	-8.94971
遲	-8.95015
屋	-8.95347
柳	-8.95362
游	-8.95419
此事	-8.95616
京	-8.95642
愁	-8.95825
箇甚麼	-8.95907
繼	-8.95956
青山	-8.95965
武	-8.96189
斗	-8.96439
忽然	-8.9644
素	-8.96478
明月	-8.96487
葢	-8.96643
友	-8.96749
右	-8.96846
無事	-8.96877
曰如何是	-8.96937
網	-8.96975
秪	-8.97059
拋	-8.97074
玅	-8.97076
是甚麼	-8.97218
陞座	-8.97313
傷	-8.9733
聖人	-8.97489
車	-8.97571
片	-8.97576
左	-8.97596
山曰	-8.97626
道場	-8.97682
賣	-8.97715
規	-8.97721
冰	-8.97728
為什麼	-8.97825
訪	-8.97952
太平	-8.98234
馳	-8.98277
輩	-8.9828
暮	-8.98339
橋	-8.98357
陀	-8.98617
己	-8.98706
滯	-8.98729
掩	-8.98867
瞞	-8.98988
一一	-8.99172
出來	-8.99283
并	-8.99323
有箇	-8.99344
、	-8.99409
釣	-8.99848
午	-8.99877
師子	-8.99908
贊	-8.9994
劒	-8.99973
紙	-9.00122
澄	-9.00202
從來	-9.00243
崇	-9.00521
上堂云	-9.00549
洪	-9.00629
真實	-9.00685
速	-9.0069
嶽	-9.00778
綠	-9.00805
憶	-9.00806
舉似	-9.01094
傾	-9.01307
者裏	-9.01342
值	-9.01349
道人	-9.01504
震	-9.01512
功德	-9.01547
縣	-9.01688
孰	-9.01698
騎	-9.0174
荷	-9.01758
累	-9.01803
司	-9.01955
愈	-9.01991
不相	-9.02092
棲	-9.02128
封	-9.02293
一聲	-9.02308
傍	-9.02369
美	-9.02536
為甚麼	-9.02539
揮	-9.02572
真如	-9.02671
無明	-9.02675
尼	-9.02777
目前	-9.02895
盧	-9.02924
孫	-9.03034
憑	-9.03599
意旨如何	-9.03643
旋	-9.03721
列	-9.03732
渾	-9.04042
辰	-9.04078
歇	-9.04132
又問	-9.04251
符	-9.04322
礙	-9.0442
避	-9.04631
拔	-9.04652
處處	-9.04707
成佛	-9.0478
柴	-9.04922
雜	-9.04934
斬	-9.05
亭	-9.05362
縱橫	-9.05457
忠	-9.05618
承當	-9.05634
尺	-9.05663
拍	-9.05699
大士	-9.05917
抱	-9.05959
板	-9.0602
殘	-9.06038
參禪	-9.06171
薦	-9.06385
輝	-9.06475
昌	-9.06528
兒孫	-9.06607
直須	-9.06666
奇特	-9.06699
丹	-9.06753
珍	-9.0678
逆	-9.06937
春風	-9.06986
中有	-9.07607
豎	-9.07651
這裏	-9.07721
千古	-9.07828
甲	-9.07872
知音	-9.07997
身心	-9.08033
飽	-9.08058
補	-9.08156
錫	-9.08233
蹤	-9.08453
不為	-9.08487
善知識	-9.0853
晴	-9.08823
庭	-9.08963
毫	-9.09225
大似	-9.09268
無礙	-9.09296
品	-9.09369
改	-9.09493
作家	-9.09633
僧禮拜	-9.0986
何曾	-9.09889
悅	-9.10052
喻	-9.10072
鉢	-9.10109
風吹	-9.10138
頭上	-9.1024
仍	-9.10254
維那	-9.10365
闍黎	-9.10375
灰	-9.10612
寸	-9.10886
慮	-9.11162
別有	-9.11224
不及	-9.11271
眼睛	-9.11292
猶是	-9.11351
題	-9.11409
巧	-9.11417
些	-9.11418
石頭	-9.11436
郎	-9.11513
浴	-9.11623
賜	-9.11671
換	-9.11729
自心	-9.11901
潛	-9.11915
患	-9.11943
閱	-9.12029
納	-9.12053
以此	-9.12089
犯	-9.12109
第三	-9.1211
甞	-9.12116
童	-9.12137
乳	-9.12189
】	-9.12189
買	-9.1235
彰	-9.12431
有省	-9.12445
祥	-9.12695
赴	-9.12724
芳	-9.12858
欺	-9.13008
饒	-9.13019
啼	-9.13161
憂	-9.132
文字	-9.13218
萬物	-9.13223
彌	-9.13273
儀	-9.13308
坐斷	-9.13347
英	-9.13468
全身	-9.13514
苟	-9.13581
受用	-9.13691
牙	-9.13794
里	-9.13825
乃曰	-9.13826
華嚴	-9.13851
瞎	-9.1393
念佛	-9.13936
所以道	-9.13974
恁麼則	-9.13977
渡	-9.14081
吉	-9.14094
隆	-9.14172
堆	-9.14471
師問	-9.14586
遙	-9.1459
樣	-9.14623
家風	-9.14645
汝等	-9.1465
讚	-9.14703
討	-9.14842
價	-9.14951
潭	-9.15113
閣	-9.1523
妄想	-9.15354
保	-9.15425
無為	-9.15487
者麼	-9.15539
三世諸佛	-9.15606
騰	-9.15609
荒	-9.15662
觀音	-9.15692
擬議	-9.15697
得麼	-9.15718
而今	-9.15732
祝	-9.15873
話頭	-9.1592
齒	-9.15924
一心	-9.16028
人間	-9.16029
牽	-9.16085
囑	-9.16179
衲	-9.16318
知有	-9.16495
不然	-9.16592
丁	-9.16593
部	-9.16665
泰	-9.16697
指示	-9.16761
務	-9.16909
不住	-9.16913
銀	-9.16948
名為	-9.1697
窟	-9.17344
顛	-9.17586
凡聖	-9.17617
若有	-9.17821
醉	-9.17915
拈起	-9.17968
黃龍	-9.18022
開口	-9.18051
問僧	-9.18067
雲居	-9.18124
修行	-9.1816
湯	-9.18162
今時	-9.1818
相應	-9.18309
助	-9.18413
弗	-9.18532
天台	-9.18583
曹溪	-9.18767
忙	-9.18805
縛	-9.18874
克	-9.18996
漏	-9.19103
床	-9.19111
貫	-9.19115
費	-9.1914
未曾	-9.19149
支	-9.1917
眉毛	-9.19241
一點	-9.19296
場	-9.19302
獅子	-9.19347
簡	-9.19441
賴	-9.19482
適來	-9.19544
序	-9.19558
不可得	-9.19629
爛	-9.19683
十八	-9.19716
然後	-9.19745
雞	-9.19807
富	-9.19833
井	-9.19939
履	-9.19955
霞	-9.20015
三年	-9.20096
狀	-9.20181
須知	-9.20301
危	-9.20306
常住	-9.20367
戲	-9.20427
額	-9.20514
衲子	-9.20603
人也	-9.20742
知見	-9.20786
日用	-9.20945
奔	-9.21039
之心	-9.21125
無盡	-9.21125
生滅	-9.21161
作麼生是	-9.21212
宋	-9.21314
露柱	-9.21328
不生	-9.21365
一字	-9.21453
無語	-9.21582
便下座	-9.21619
行脚	-9.21738
地獄	-9.21741
昨日	-9.21778
捉	-9.21784
頻	-9.21937
自已	-9.21938
雖然如是	-9.22035
逼	-9.22037
崖	-9.22068
良久曰	-9.22077
旦	-9.22276
葛藤	-9.22373
充	-9.22395
讓	-9.22509
孔	-9.22552
塗	-9.22607
左右	-9.22626
瞻	-9.22636
山中	-9.22673
弟	-9.2268
莊	-9.22699
至今	-9.22743
私	-9.22834
饑	-9.22899
師乃	-9.2301
也未	-9.23266
國師	-9.23277
一任	-9.23399
昭	-9.23411
大小	-9.23411
趨	-9.23459
慈悲	-9.23474
針	-9.23488
外道	-9.23507
標	-9.23517
即不問	-9.2357
從上	-9.2366
宗旨	-9.23879
是什麼	-9.23926
入室	-9.23936
較	-9.23962
專	-9.24202
究竟	-9.24301
勸	-9.24448
無邊	-9.2446
於是	-9.24488
舒	-9.24714
去來	-9.24777
南嶽	-9.24786
切忌	-9.24981
道得	-9.24987
阿誰	-9.25088
萬法	-9.25162
大悟	-9.25214
碎	-9.25216
吟	-9.25605
御	-9.25623
惠	-9.25719
團	-9.25933
西天	-9.25961
欽	-9.25992
面目	-9.26004
伴	-9.261
報恩	-9.26149
以拄杖	-9.26191
具足	-9.26197
為甚	-9.26321
恁麼道	-9.26332
底人	-9.26337
清風	-9.26442
沈	-9.26629
謗	-9.26656
猛	-9.26704
辦	-9.26808
詣	-9.26922
思量	-9.26979
純	-9.27027
跳	-9.2709
榮	-9.27142
寬	-9.27189
竪	-9.27242
舌頭	-9.2729
神通	-9.27382
亦非	-9.27522
淵	-9.2768
繫	-9.27718
道者	-9.27825
程	-9.27834
厚	-9.27873
大事	-9.2789
掛	-9.27904
嘉	-9.27967
後如何	-9.27971
皆是	-9.28062
惜	-9.28109
第	-9.28158
鑒	-9.28336
拈出	-9.28353
龜	-9.28405
伸	-9.28489
薄	-9.28494
廓	-9.28548
混	-9.28561
四大	-9.28624
千聖	-9.28632
飄	-9.28651
寫	-9.2866
畔	-9.28733
恒	-9.28874
彩	-9.28909
雪峯	-9.28977
;	-9.28977
射	-9.28979
云何	-9.29006
打破	-9.29064
禍	-9.29084
大家	-9.29095
末後	-9.29192
牧	-9.29249
若道	-9.29277
古佛	-9.29346
無相	-9.29369
正是	-9.29579
大千	-9.29632
分付	-9.29663
冥	-9.29727
者也	-9.29769
凡夫	-9.29869
在什麼處	-9.29872
諸法	-9.29887
譬如	-9.29902
無端	-9.29948
淺	-9.29975
墨	-9.29988
差別	-9.30171
寮	-9.30186
咬	-9.30378
是故	-9.30493
奴	-9.30517
一切眾生	-9.30519
不起	-9.30607
拘	-9.30672
自性	-9.30734
不落	-9.30787
桃	-9.30972
質	-9.31481
穴	-9.31607
迥	-9.31638
不成	-9.31663
豐	-9.3167
作禮	-9.31789
剛	-9.31824
百千	-9.31875
陸	-9.32023
委	-9.32222
圓通	-9.32352
握	-9.32416
聲色	-9.32467
殊不知	-9.3248
行者	-9.32507
終不	-9.32509
是何	-9.3255
截	-9.32557
湛	-9.32561
工夫	-9.32592
從此	-9.32623
終日	-9.32633
穩	-9.32652
拽	-9.32655
述	-9.3269
市	-9.32697
學道	-9.32739
鞭	-9.32821
欠	-9.3287
自有	-9.32879
紹	-9.3294
禁	-9.32955
昧	-9.32969
三千	-9.3306
淡	-9.33166
通身	-9.33339
其中	-9.33375
西來	-9.33493
喫飯	-9.33723
平生	-9.33734
厭	-9.3392
興化	-9.33922
畏	-9.33938
範	-9.33975
釋迦老子	-9.34124
一棒	-9.3414
若能	-9.34309
許多	-9.34347
粥	-9.34364
田地	-9.34397
拙	-9.34433
四海	-9.34494
垢	-9.34523
檀	-9.3458
牀	-9.34766
這僧	-9.34814
博	-9.34877
賓主	-9.34917
澤	-9.34932
藥山	-9.34983
若無	-9.35001
佛事	-9.35188
妙喜	-9.35353
怕	-9.35386
希	-9.35435
肩	-9.35516
伯	-9.35534
投子	-9.35784
困	-9.35931
編	-9.36082
黃金	-9.36326
總是	-9.36359
六祖	-9.36463
錐	-9.36523
鎖	-9.36587
將謂	-9.36703
操	-9.36753
醫	-9.36828
迴	-9.36844
兵	-9.3685
有何	-9.36851
工	-9.36867
一言	-9.36943
恨	-9.36971
十五	-9.37015
依舊	-9.37096
盲	-9.37102
制	-9.37244
賤	-9.37384
枕	-9.37422
繩	-9.37481
附	-9.37606
方知	-9.37743
覿面	-9.37794
狗	-9.37809
大慧	-9.37923
正眼	-9.37976
申	-9.38034
轉身	-9.3805
謹	-9.38104
典	-9.38128
者僧	-9.38166
廢	-9.38297
覷	-9.38325
霄	-9.3849
諱	-9.38588
與人	-9.38615
與汝	-9.38709
埋	-9.38752
三十年	-9.38752
津	-9.38901
阿難	-9.39007
昔日	-9.39017
沙門	-9.39318
一切法	-9.39347
大悲	-9.39428
淨土	-9.39442
明明	-9.3955
荅	-9.39572
維摩	-9.39666
門下	-9.39668
草鞋	-9.3971
哀	-9.3977
巨	-9.39924
胸	-9.39925
格	-9.39928
曹山	-9.39933
罔	-9.39941
險	-9.39984
裂	-9.40057
因僧問	-9.40073
萬象	-9.40094
慕	-9.40146
不免	-9.40153
君子	-9.40162
敗	-9.40195
霧	-9.40248
鹿	-9.40278
賞	-9.40316
害	-9.40348
註	-9.40474
蕩	-9.40506
擇	-9.40609
儞	-9.40647
近前	-9.409
不受	-9.41028
議	-9.41088
谿	-9.41236
忌	-9.41236
醒	-9.41238
按	-9.41383
朗	-9.4144
托	-9.41478
平等	-9.41591
稍	-9.41605
見得	-9.41621
桂	-9.41673
注	-9.41786
不須	-9.41819
既是	-9.41832
宇	-9.41878
爭奈	-9.42003
韻	-9.42142
郡	-9.42167
獻	-9.42185
何以	-9.42255
到此	-9.42329
汗	-9.42358
耀	-9.42383
互	-9.4242
州云	-9.42474
莊嚴	-9.42489
一法	-9.42495
嗟	-9.42498
逸	-9.42551
放過	-9.42568
有僧	-9.42582
羊	-9.42634
蘇	-9.42643
減	-9.42866
尊宿	-9.43207
各各	-9.43266
包	-9.43283
缽	-9.43302
之道	-9.4338
社	-9.43601
知識	-9.43634
囊	-9.43643
兄弟	-9.43736
劈	-9.4384
老和尚	-9.43903
統	-9.43959
禪人	-9.44012
念念	-9.44055
派	-9.44142
流水	-9.44152
軍	-9.44225
頃	-9.44284
秦	-9.44379
扣	-9.444
一條	-9.4449
怒	-9.44525
如何是佛	-9.44527
叢	-9.44608
無二	-9.44658
罵	-9.44666
▁「	-9.44675
暫	-9.44745
臂	-9.44786
羣	-9.44814
案	-9.44847
微塵	-9.44884
五百	-9.44995
丈夫	-9.45107
鈍	-9.45129
夾山	-9.4516
隨緣	-9.45203
開堂	-9.45222
茅	-9.4537
祇如	-9.45472
普賢	-9.45503
得一	-9.45553
躬	-9.45578
秖	-9.45663
詔	-9.45693
俊	-9.46008
是佛	-9.46021
尤	-9.46103
石霜	-9.46118
恭	-9.46187
護法	-9.46323
不顧	-9.46336
籠	-9.46499
伽	-9.46589
顛倒	-9.46596
無別	-9.46607
勉	-9.46614
且置	-9.46717
自巳	-9.46718
莫是	-9.46736
至於	-9.4675
而巳	-9.4685
要且	-9.46879
巖頭	-9.46886
勘	-9.46897
是以	-9.46938
以手	-9.47077
過去	-9.47273
導	-9.47321
鎮	-9.47422
臘	-9.47456
柄	-9.47473
雄	-9.47478
冠	-9.47495
瓶	-9.47552
覩	-9.47586
殺人	-9.47834
也須	-9.4784
鼎	-9.48049
誰知	-9.48152
卒	-9.48153
抵	-9.48229
南山	-9.48296
禪師語錄	-9.48302
誕	-9.48364
元來	-9.484
荊	-9.48473
政	-9.4848
闊	-9.48482
那裏	-9.48553
十年	-9.48587
山河大地	-9.48719
測	-9.48724
甚處	-9.48831
旬	-9.48862
詞	-9.48875
亦是	-9.48925
仲	-9.48932
面前	-9.49017
柏	-9.49035
耕	-9.49072
十九	-9.49115
財	-9.49139
朱	-9.49186
又曰	-9.49294
潤	-9.49298
到來	-9.49484
壑	-9.4957
便喝	-9.49619
今古	-9.49629
晚參	-9.49694
簾	-9.49702
大海	-9.49776
眾中	-9.49793
凝	-9.49825
與你	-9.4986
當陽	-9.49873
撲	-9.49915
奈	-9.4994
端的	-9.50015
佛殿	-9.50031
舍利	-9.5009
靈山	-9.50097
復舉	-9.50105
一僧	-9.50113
未有	-9.50122
不許	-9.50241
無異	-9.50245
薦得	-9.50269
竿	-9.50288
請和尚	-9.50306
僧無語	-9.50348
候	-9.50391
一般	-9.50472
恰	-9.50523
岳	-9.50568
插	-9.50606
龕	-9.50738
盡是	-9.5074
不入	-9.50808
人之	-9.51002
語言	-9.51024
電	-9.51037
競	-9.51077
徵	-9.51122
不到	-9.51158
頭頭	-9.51266
擎	-9.51341
令人	-9.51344
旁	-9.51451
哭	-9.51475
因果	-9.51555
一下	-9.51557
竭	-9.51597
:『	-9.5163
還會麼	-9.51648
聊	-9.51819
十六	-9.51911
五十	-9.51915
聻	-9.5194
杜	-9.51947
抽	-9.51997
不解	-9.52028
智慧	-9.52072
風流	-9.52144
拈拄杖	-9.52188
問訊	-9.52212
何事	-9.52278
自家	-9.52552
大道	-9.52634
八十	-9.52787
疊	-9.52789
坑	-9.53407
髓	-9.53436
者是	-9.53487
誰是	-9.53639
麤	-9.53714
油	-9.53747
率	-9.53872
十五日	-9.53962
側	-9.53974
無非	-9.54068
一生	-9.54093
冤	-9.54187
嫌	-9.54207
三世	-9.54285
不二	-9.54305
是箇	-9.54309
古人道	-9.54327
躍	-9.54451
往來	-9.54515
熏	-9.54561
宗門	-9.54562
更無	-9.54622
幼	-9.54647
三十棒	-9.54658
抑	-9.54681
有所	-9.54762
誓	-9.54794
舉僧問	-9.54831
蜀	-9.54895
撒	-9.5495
維	-9.55027
拶	-9.55044
不聞	-9.55046
麻	-9.5507
一場	-9.55095
房	-9.55151
用心	-9.55156
楞嚴	-9.55177
直指	-9.55243
無對	-9.55292
陣	-9.55317
墜	-9.55318
窗	-9.55356
無可	-9.55411
而逝	-9.55473
徐	-9.55478
何所	-9.55511
結制	-9.55532
六十	-9.55557
審	-9.55624
戰	-9.55811
時如何師云	-9.55904
駕	-9.55986
線	-9.56163
閉	-9.5617
蘭	-9.56242
圓明	-9.56343
懶	-9.56348
映	-9.56578
歸宗	-9.56782
到這裏	-9.5681
枯木	-9.56872
分上	-9.56887
箇什麼	-9.56958
老宿	-9.56971
豈不	-9.56978
有甚	-9.57115
蹋	-9.57116
低	-9.57212
出頭	-9.57317
五祖	-9.57374
何人	-9.57419
以拂子	-9.57448
沙彌	-9.57482
衰	-9.57498
臭	-9.57507
無法	-9.57508
辛	-9.57637
燭	-9.57693
本分	-9.57759
歎	-9.5776
內外	-9.57779
胎	-9.57829
偷	-9.57885
明日	-9.57924
童子	-9.57928
甚麼處	-9.57939
無言	-9.57992
語錄	-9.58015
峻	-9.58064
膽	-9.58089
洲	-9.58148
腸	-9.58192
長安	-9.58205
不足	-9.58285
逢人	-9.58405
刃	-9.58556
花開	-9.58574
段	-9.58595
一著	-9.58643
言語	-9.58669
法華	-9.58724
禪床	-9.58752
答曰	-9.58847
銕	-9.58866
全提	-9.58897
公曰	-9.58911
不盡	-9.58922
瓦	-9.58937
潑	-9.59127
暖	-9.5918
之人	-9.5922
烟	-9.59238
如何是祖師西來意	-9.59292
煩	-9.593
請益	-9.59413
進云如何是	-9.59417
時人	-9.59459
商	-9.59579
探	-9.596
頂門	-9.59605
昇	-9.59901
是誰	-9.5993
侯	-9.59959
預	-9.60043
窺	-9.60054
一步	-9.60092
二十年	-9.60117
成就	-9.60137
腰	-9.60206
實相	-9.60238
栽	-9.60255
而去	-9.60271
鍾	-9.60389
百年	-9.60403
故曰	-9.60499
猶如	-9.60508
辱	-9.60641
該	-9.6068
拈香	-9.60821
吼	-9.60944
毀	-9.60946
無不	-9.61065
柱	-9.61148
。○	-9.6121
頂上	-9.61231
楊岐	-9.61348
魂	-9.61349
善財	-9.61377
無私	-9.61447
慎	-9.61461
揭	-9.61479
藤	-9.61529
醜	-9.61597
此一	-9.61655
從前	-9.61664
門外	-9.61667
坐具	-9.6178
堂堂	-9.61793
層	-9.61939
奏	-9.62014
自己	-9.62258
巳前	-9.62365
󲊛	-9.62399
缺	-9.62451
撞	-9.62465
烈	-9.6254
僧問如何是	-9.62586
槌	-9.62606
自是	-9.62619
來也	-9.62628
聖凡	-9.62635
提起	-9.62653
銘	-9.62671
一塵	-9.62685
升	-9.62738
三月	-9.62883
其所	-9.62921
燕	-9.62979
岩	-9.63059
檀越	-9.6308
大乘	-9.63139
髑髏	-9.63171
史	-9.63284
老婆	-9.63294
詳	-9.63343
莫道	-9.63357
模	-9.63367
濁	-9.63459
喝一喝云	-9.63519
塊	-9.63519
到者裏	-9.63533
有言	-9.63604
菜	-9.63639
鉤	-9.63756
階	-9.63756
悔	-9.63783
睹	-9.638
趁	-9.63853
三日	-9.63874
大用	-9.63964
箇箇	-9.63994
閩	-9.64011
彼此	-9.64025
畢竟如何	-9.64049
特地	-9.64049
不昧	-9.6429
未嘗	-9.64313
老子	-9.64345
二人	-9.64402
何須	-9.64449
損	-9.64511
此心	-9.64874
纏	-9.64923
扇	-9.64932
之中	-9.65038
不必	-9.65044
蘊	-9.65061
廬	-9.65083
何必	-9.65124
平地	-9.652
溈	-9.65215
一句作麼生道	-9.65302
為汝	-9.65409
溫	-9.65461
自知	-9.65494
愧	-9.65498
有無	-9.6559
敵	-9.65609
之法	-9.65648
脈	-9.65655
不通	-9.65658
見聞	-9.65678
彈指	-9.65702
遵	-9.65834
祗	-9.65841
僧擬議	-9.65853
不信	-9.65862
繁	-9.65952
說話	-9.6609
翻身	-9.66196
丘	-9.66291
腹	-9.66445
藍	-9.66511
伎倆	-9.66515
法師	-9.66552
而無	-9.66593
曹	-9.66607
晝	-9.66611
建立	-9.66616
一段	-9.66664
戴	-9.66816
現成	-9.6691
涼	-9.66924
豈不是	-9.66979
未見	-9.66982
雲巖	-9.67015
心地	-9.67082
袈裟	-9.671
漫	-9.67145
不作	-9.67162
長慶	-9.67171
乖	-9.67181
慢	-9.67263
迹	-9.67272
而為	-9.67315
綱	-9.67384
卓一下	-9.67395
拄	-9.67416
邊事	-9.67528
亦有	-9.67569
大法	-9.67596
兆	-9.67706
勘破	-9.67727
篇	-9.67809
還知	-9.67847
自由	-9.67949
兔	-9.67954
天下人	-9.67957
出入	-9.67969
從何	-9.68094
韶	-9.68146
不立	-9.68196
燄	-9.68197
智者	-9.68215
法堂	-9.68238
頑	-9.68392
青天	-9.6842
根本	-9.68446
選	-9.68451
夕	-9.68472
何如	-9.68536
動靜	-9.68604
可憐	-9.68617
寂滅	-9.6866
街	-9.68672
圍	-9.68691
古德	-9.68743
坦	-9.68821
不見道	-9.68823
劉	-9.68927
龍門	-9.68991
十七	-9.69035
誤	-9.69077
排	-9.69186
倫	-9.69188
未來	-9.69346
揀	-9.6941
疎	-9.69456
挑	-9.69576
正覺	-9.69639
跨	-9.69664
便出	-9.69692
什麼處	-9.69739
繇	-9.6982
天寧	-9.69839
罰	-9.69859
不涉	-9.69898
千年	-9.69984
絲毫	-9.70034
宗風	-9.70072
等閒	-9.701
卓拄杖云	-9.70177
十三	-9.70201
正好	-9.70203
料	-9.70205
摸	-9.70274
不從	-9.70363
宰	-9.70397
無限	-9.70438
開示	-9.70475
大覺	-9.7063
見解	-9.7078
苔	-9.70862
喫茶	-9.70921
不明	-9.7107
天子	-9.71072
氷	-9.71097
不假	-9.71103
燈籠	-9.71138
門云	-9.71141
父子	-9.71149
把住	-9.71154
道吾	-9.71183
漁	-9.71195
十四	-9.7131
凍	-9.71398
大德	-9.71407
慣	-9.71409
貌	-9.71462
不易	-9.71503
盆	-9.71513
入門	-9.71525
巴	-9.71528
國土	-9.71575
無處	-9.71577
遶	-9.7158
衡	-9.71586
之間	-9.71624
不問	-9.71671
斜	-9.71679
釘	-9.71763
東山	-9.71895
宗師	-9.71917
焰	-9.71972
奈何	-9.72066
機緣	-9.72141
枉	-9.72218
則不然	-9.723
台	-9.72346
三聖	-9.72481
呵呵大笑	-9.72516
桃花	-9.72526
浙	-9.7254
賺	-9.72571
門前	-9.72593
剃	-9.72617
判	-9.72631
之曰	-9.72715
一物	-9.72795
休去	-9.72804
不容	-9.72816
湘	-9.72817
塵勞	-9.72823
有甚麼	-9.72903
一枝	-9.72955
此語	-9.72973
泥牛	-9.72973
宇宙	-9.72988
眼目	-9.72999
無常	-9.73001
苗	-9.73001
銅	-9.73001
四十	-9.7304
為法	-9.73052
岐	-9.7306
作甚麼	-9.732
叫	-9.7322
合掌	-9.7322
中間	-9.73253
慚	-9.73276
袖	-9.73314
一向	-9.73386
泊	-9.73387
邑	-9.73429
逃	-9.73445
是名	-9.73465
底事	-9.73562
不可以	-9.73599
聾	-9.73647
參學	-9.7368
為之	-9.73719
婆子	-9.73802
便見	-9.73842
毗	-9.73866
杓	-9.73871
撫	-9.73918
不斷	-9.73931
不壞	-9.74275
祖云	-9.74276
轍	-9.74297
昨夜	-9.74301
只得	-9.74323
歷歷	-9.7433
脩	-9.74349
清涼	-9.74364
夙	-9.74402
不了	-9.74431
停	-9.74498
出門	-9.74504
衝	-9.74606
我今	-9.74654
只為	-9.74666
攀	-9.74672
少林	-9.74682
徹底	-9.74706
之機	-9.74709
圓相	-9.74734
圓覺	-9.74826
孟	-9.74897
康	-9.74987
靈隱	-9.75001
渴	-9.7501
山河	-9.7502
循	-9.75133
豈有	-9.75165
無情	-9.75197
優	-9.75267
巢	-9.75308
舉揚	-9.75424
灑	-9.75429
婦	-9.75517
晦	-9.75532
重重	-9.7555
門庭	-9.75576
狐	-9.75607
圓悟	-9.75638
將軍	-9.75649
隻	-9.75772
弓	-9.75876
宗乘	-9.75895
汝等諸人	-9.75979
室中	-9.76023
屏	-9.7622
正令	-9.76288
腦	-9.76289
潔	-9.76322
盈	-9.764
性命	-9.76482
而出	-9.766
籬	-9.76608
正當	-9.76612
作麼生會	-9.76677
布袋	-9.76731
猿	-9.76757
靡	-9.76785
偈云	-9.76825
其或未然	-9.76832
藉	-9.76886
正恁麼時	-9.76927
爍	-9.77008
何物	-9.7705
香嚴	-9.77057
七日	-9.7708
那箇	-9.77085
竊	-9.77116
歡喜	-9.7727
晨	-9.77273
得箇	-9.773
肅	-9.77325
當下	-9.77331
例	-9.7736
不少	-9.77384
頗	-9.77407
一回	-9.77487
普請	-9.77506
東西	-9.7751
之時	-9.77876
環	-9.77892
汝諸人	-9.77897
嘆	-9.77964
有餘	-9.77989
倦	-9.78008
同一	-9.7802
憐	-9.78051
迦	-9.78169
法嗣	-9.7827
鼓山	-9.78296
佳	-9.78296
趙	-9.78328
慈明	-9.78399
準	-9.78413
橛	-9.78472
後來	-9.78539
凌	-9.78562
何得	-9.78591
憨	-9.78624
一路	-9.78629
陷	-9.78647
些子	-9.7866
【	-9.78685
十一	-9.78701
門人	-9.78715
覔	-9.78725
得出	-9.78821
營	-9.78925
江西	-9.78942
現在	-9.7895
與我	-9.78973
傑	-9.79025
斫	-9.79026
決定	-9.79037
鮮	-9.79084
發明	-9.7909
全體	-9.79178
藏身	-9.79263
怨	-9.79411
大笑	-9.79413
鬚	-9.79609
正法眼藏	-9.79612
西方	-9.79695
呵呵	-9.79712
那邊	-9.79718
師便喝	-9.79729
泯	-9.79746
由是	-9.79767
可惜	-9.79844
湧	-9.79886
其人	-9.7992
苑	-9.79933
男	-9.80083
翰	-9.80093
敷	-9.80115
不恁麼	-9.8014
善惡	-9.80177
且喜	-9.80198
當人	-9.80217
羅漢	-9.80349
一味	-9.80362
知其	-9.80402
只要	-9.80413
證明	-9.80429
所得	-9.80465
繞	-9.80533
桑	-9.80647
庶	-9.80781
庚	-9.80812
侶	-9.8083
蹉過	-9.80955
欣	-9.80973
煉	-9.80975
夷	-9.81058
炎	-9.81158
上下	-9.81169
炤	-9.81341
始知	-9.81343
丙	-9.81401
毬	-9.81412
靠	-9.81415
那箇是	-9.81521
浩	-9.81602
是同是別	-9.81797
潮	-9.81801
安樂	-9.81864
琴	-9.81958
見性	-9.81978
到處	-9.81997
剌	-9.82045
當機	-9.82095
三寶	-9.8213
博山	-9.82147
聰	-9.82208
即得	-9.82222
歸來	-9.82231
猶未	-9.82248
一線	-9.82465
有情	-9.82493
季	-9.82511
芝	-9.82561
一毫	-9.82579
謀	-9.82699
出身	-9.8273
空中	-9.82825
其僧	-9.82837
看看	-9.82867
污	-9.82894
倘	-9.82938
如斯	-9.82961
示寂	-9.82966
具眼	-9.83
了無	-9.83007
詰	-9.83008
奮	-9.8306
麗	-9.83145
江南	-9.83148
無窮	-9.83169
。』	-9.83243
高峰	-9.83261
彈	-9.83264
敘	-9.83315
之後	-9.83337
椎	-9.83344
落處	-9.83377
者個	-9.83378
惱	-9.83382
濕	-9.83413
驅	-9.83426
察	-9.83449
萬年	-9.8346
筋	-9.83475
限	-9.83648
法王	-9.8379
鑽	-9.8386
叟	-9.83862
無間	-9.83885
奚	-9.8394
百億	-9.83956
時時	-9.84015
蟲	-9.84086
山門	-9.84095
座主	-9.8416
嘯	-9.84181
瞿曇	-9.84198
不疑	-9.84218
之旨	-9.84245
卜	-9.84252
焚	-9.84303
搭	-9.84412
匝	-9.8442
復云	-9.84439
夜半	-9.84448
斤	-9.84553
大丈夫	-9.8457
屎	-9.84572
回頭	-9.84606
滴	-9.84684
曠	-9.84695
斧	-9.84727
佗	-9.84746
懺	-9.84845
有一人	-9.84852
天上	-9.84872
痕	-9.84917
問云	-9.85063
皷	-9.85105
大人	-9.85111
叅	-9.85116
匠	-9.8512
是則	-9.85172
兀	-9.85291
彌陀	-9.85305
用處	-9.85406
睦州	-9.85428
侵	-9.85471
心印	-9.85483
淚	-9.85531
播	-9.85577
正法	-9.85589
拈花	-9.85601
上來	-9.85617
韓	-9.8563
函	-9.85633
與他	-9.85692
基	-9.85712
未能	-9.85825
搆	-9.85826
縫	-9.85838
一個	-9.85901
汾陽	-9.86047
長者	-9.86078
個甚麼	-9.86257
見處	-9.8628
悟道	-9.86326
班	-9.86366
三下	-9.86388
未是	-9.86485
精進	-9.86523
隊	-9.86599
看來	-9.86625
泛	-9.86756
無餘	-9.86807
拈拄杖云	-9.86908
軒	-9.86951
不自	-9.86965
既無	-9.87043
歸去	-9.87108
激	-9.87164
南方	-9.8721
總不	-9.87225
言句	-9.87246
箇中	-9.87265
截斷	-9.87269
事如何	-9.8742
寒山	-9.87518
本來面目	-9.87546
策	-9.87552
壯	-9.87612
宅	-9.8769
」】「	-9.8778
萬古	-9.87793
餐	-9.87806
曇	-9.87854
笠	-9.87858
面壁	-9.87869
二年	-9.87915
向上事	-9.87923
乙	-9.87932
株	-9.87933
上人	-9.87938
个	-9.87945
晝夜	-9.87981
悉皆	-9.87989
瓜	-9.88006
眼裏	-9.88041
糞	-9.88067
回互	-9.88106
不說	-9.88112
行人	-9.88135
然則	-9.88286
束	-9.88309
當年	-9.88309
堂前	-9.88431
杲	-9.88485
辜負	-9.88549
秘	-9.88617
有什麼	-9.88627
手裏	-9.88695
丹霞	-9.88729
付囑	-9.88752
不過	-9.8878
豈可	-9.8879
燒香	-9.88803
如何得	-9.88827
訣	-9.88877
撒手	-9.88913
草木	-9.88974
鋪	-9.88989
狗子	-9.89107
紛	-9.89116
雅	-9.89118
烹	-9.89233
之言	-9.89239
陶	-9.89299
甘露	-9.89315
然而	-9.89321
六月	-9.89355
尖	-9.89375
三藏	-9.89502
誇	-9.89505
四方	-9.89571
幾人	-9.89586
甚處來	-9.89646
鐵牛	-9.89676
然雖如是	-9.8976
何用	-9.89794
便行	-9.89835
唇	-9.89877
豎拂	-9.89891
洋	-9.89984
有人問	-9.9001
責	-9.90077
更不	-9.90086
廣大	-9.90113
之士	-9.90115
金粟	-9.90124
點頭	-9.9013
思惟	-9.90245
歡	-9.9036
整	-9.90381
緇素	-9.9046
七十	-9.90539
一見	-9.90634
鑄	-9.90639
果然	-9.90673
域	-9.90714
壇	-9.90753
聖賢	-9.90755
郤	-9.90787
剖	-9.90828
闡	-9.90846
流通	-9.90885
若人	-9.90908
檗	-9.90925
俾	-9.90981
富貴	-9.91036
故云	-9.91112
少室	-9.91214
竺	-9.91279
聞之	-9.9129
千峰	-9.91292
這個	-9.91348
何也	-9.91374
祇是	-9.91424
澗	-9.91604
而後	-9.91684
淨慈	-9.91686
育王	-9.91753
不堪	-9.91986
踢	-9.91994
祐	-9.92033
赫	-9.9206
祈	-9.92181
幢	-9.92374
呵	-9.92381
緊	-9.92413
風穴	-9.92438
各自	-9.92443
威儀	-9.9259
女子	-9.92626
不惜	-9.92628
淳	-9.92736
稟	-9.92749
院主	-9.92756
如意	-9.92765
瞥	-9.92948
殺活	-9.93009
先生	-9.93016
浩浩	-9.93046
驀拈拄杖	-9.931
鹽	-9.93104
漚	-9.9312
落在	-9.93131
輥	-9.93191
竹篦	-9.932
師乃云	-9.93208
明白	-9.93239
擒	-9.93256
緩	-9.93261
劄	-9.93303
向者裏	-9.93312
翳	-9.93329
歸方丈	-9.93387
占	-9.93389
而立	-9.93405
蓬	-9.93422
綿	-9.93432
他人	-9.93467
秪如	-9.9347
奧	-9.93512
採	-9.93526
遽	-9.93658
全彰	-9.93662
行履	-9.9367
若論	-9.93671
兩箇	-9.93686
而行	-9.93703
兩頭	-9.93726
柔	-9.93731
親見	-9.93807
今年	-9.93811
豁	-9.93837
哲	-9.93877
回首	-9.93902
乍	-9.93908
莫有	-9.93925
巡	-9.94024
牛頭	-9.94047
野狐	-9.9412
失却	-9.94169
主人	-9.94173
膝	-9.94179
劣	-9.94256
一切處	-9.943
懼	-9.94325
福州	-9.94344
筵	-9.94424
!	-9.94431
措	-9.94493
便休	-9.94547
此間	-9.94627
新羅	-9.94822
即此	-9.94832
剎那	-9.94882
所見	-9.94883
前後	-9.94985
豁然	-9.95018
而有	-9.95021
寅	-9.95029
無上	-9.95087
未得	-9.95095
謬	-9.95133
天然	-9.95172
堂中	-9.95174
聲聞	-9.95224
嚼	-9.95256
東土	-9.95286
邦	-9.95298
步步	-9.95411
可得	-9.95475
得其	-9.9549
防	-9.95513
之事	-9.9552
微笑	-9.95613
豪	-9.95645
罕	-9.95774
還見麼	-9.95806
白日	-9.95815
林下	-9.95917
對曰	-9.95921
主丈	-9.96007
入山	-9.96062
撞著	-9.9608
雖則	-9.96089
偃	-9.96102
聯	-9.96217
人情	-9.96244
廟	-9.9625
得失	-9.96307
億	-9.96381
向這裏	-9.96446
意識	-9.96463
寢	-9.96472
莫能	-9.96479
不勞	-9.96528
監	-9.96539
粟	-9.96623
行腳	-9.96709
示之	-9.96737
紀	-9.9678
便禮拜	-9.9682
以何為	-9.96858
毘	-9.96865
不思議	-9.96871
姑	-9.96937
墻	-9.96953
惺惺	-9.96956
稽首	-9.96973
隨處	-9.97068
虧	-9.97077
不忘	-9.97104
育	-9.97186
夢中	-9.97188
着	-9.97348
咦	-9.97355
莖	-9.97386
捧	-9.97405
生平	-9.97414
向他道	-9.97424
又道	-9.97461
好手	-9.97462
冀	-9.97466
不契	-9.9747
梅花	-9.97494
闕	-9.97511
摩訶	-9.97545
盡大地	-9.97547
朽	-9.97551
泣	-9.97573
四眾	-9.97578
蘿	-9.97618
銷	-9.97631
恣	-9.97636
羽	-9.97668
趂	-9.97683
訓	-9.97692
看他	-9.97715
寒暑	-9.97727
貞	-9.97798
澹	-9.97807
魯	-9.97814
將何	-9.97844
禪和	-9.97865
無位真人	-9.97895
鴻	-9.97911
士曰	-9.97963
翠巖	-9.97966
師便	-9.97983
拖	-9.98022
沒交涉	-9.98024
叩	-9.98032
一齊	-9.98046
笑曰	-9.98053
割	-9.98059
與諸人	-9.98083
廬山	-9.98113
完	-9.98178
拾得	-9.98191
掀翻	-9.98238
喫棒	-9.98323
庫	-9.9839
碑	-9.98456
一番	-9.98465
茂	-9.98481
往往	-9.98516
唯有	-9.98538
舜	-9.98546
謙	-9.98568
龍象	-9.98607
僧無對	-9.98645
親切	-9.98716
不消	-9.98819
為眾	-9.98822
鱗	-9.98847
朕	-9.98938
賀	-9.9894
叉手	-9.99011
進云恁麼則	-9.99024
庭前	-9.99067
之門	-9.99074
不異	-9.99161
蕭	-9.99191
四句	-9.99192
直是	-9.99297
法法	-9.99302
無門	-9.99317
本自	-9.99341
見之	-9.99403
樵	-9.9941
便問	-9.99488
記得	-9.99493
巴鼻	-9.99523
翼	-9.99553
飢	-9.996
牢	-9.99607
雖有	-9.9965
繡	-9.99694
弱	-9.99707
不變	-9.99748
天王	-9.99765
僧堂	-9.99787
既不	-9.99809
向汝道	-9.99858
凉	-9.99904
勇	-9.99962
必有	-9.99971
師打云	-9.99974
何妨	-9.99991
真心	-10.0003
叔	-10.0003
唾	-10.002
毗盧	-10.0022
安排	-10.0024
手中	-10.0026
朵	-10.0027
有二	-10.0032
鼠	-10.0032
笛	-10.004
應諾	-10.0042
鄰	-10.0046
戀	-10.0048
沾	-10.0055
六根	-10.0065
昨	-10.0066
當頭	-10.007
所說	-10.0073
之意	-10.0073
默然	-10.0075
一則	-10.0075
闢	-10.0076
同參	-10.0077
末後句	-10.0079
迷悟	-10.0081
向道	-10.0088
還見	-10.009
所有	-10.0091
問答	-10.0092
伏願	-10.0095
怖	-10.0102
水中	-10.0108
鑿	-10.0117
第一義	-10.0118
五臺	-10.0118
即不然	-10.012
稜	-10.0123
職	-10.0127
絃	-10.0131
帆	-10.0133
暇	-10.0134
喧	-10.0135
㵎	-10.0146
獸	-10.0146
立地	-10.0149
作佛	-10.015
誑	-10.0158
產	-10.0168
你諸人	-10.0169
無依	-10.0175
答話	-10.0176
鍼	-10.0176
諾	-10.0182
算	-10.019
拈來	-10.0193
要識	-10.0197
鴈	-10.0199
卓一卓	-10.0204
硬	-10.0205
卿	-10.0209
寓	-10.0211
秤	-10.0213
未明	-10.0215
始終	-10.0218
活計	-10.0219
兩手	-10.0222
贈	-10.0226
非有	-10.0231
洎	-10.0233
足下	-10.0237
或有	-10.0239
明珠	-10.024
啞	-10.0247
獨露	-10.0253
底麼	-10.0259
三人	-10.0262
有分	-10.0266
籌	-10.0269
定慧	-10.0282
番	-10.0293
蘆	-10.0301
二祖	-10.0302
法性	-10.0308
竅	-10.0312
一掌	-10.0313
五位	-10.0313
三玄	-10.0315
不負	-10.0315
剝	-10.0317
之際	-10.0319
栢	-10.0321
焦	-10.0325
安居	-10.0331
只在	-10.0341
築	-10.0342
警	-10.035
神光	-10.0351
輸	-10.0358
鎚	-10.0365
住山	-10.0376
撐	-10.0378
盞	-10.038
士云	-10.0383
見佛	-10.0384
怎	-10.0387
山下	-10.0389
死生	-10.039
裁	-10.0393
戊	-10.0394
蓮花	-10.0398
夜來	-10.0402
穢	-10.0405
酉	-10.0415
丑	-10.0416
發心	-10.0416
纖毫	-10.0425
圜	-10.0429
臘月	-10.043
棹	-10.0437
族	-10.0438
偽	-10.0439
堯	-10.044
頭角	-10.0445
十餘年	-10.045
不來	-10.0455
作什麼	-10.0457
迅	-10.0466
煎	-10.0469
捷	-10.0473
壬	-10.048
埋沒	-10.0481
為我	-10.0493
擲下	-10.0494
浦	-10.0496
咎	-10.0497
詮	-10.0514
棒打	-10.0514
莫不	-10.0521
何以故	-10.0524
擾	-10.0526
更須	-10.053
依然	-10.0537
迸	-10.054
肆	-10.0547
之地	-10.0548
坐禪	-10.0554
一語	-10.0555
孤負	-10.056
諸仁者	-10.056
漆桶	-10.0564
靈雲	-10.0569
石門	-10.0577
保福	-10.0582
豈非	-10.0587
拱	-10.0597
唯識	-10.0598
鬧	-10.0599
妙用	-10.0604
你若	-10.0618
秉	-10.0622
它	-10.0623
式	-10.063
蒲團	-10.063
時有	-10.0633
又如何	-10.0634
遷化	-10.0649
北斗	-10.0653
示眾曰	-10.0664
考	-10.0669
惟有	-10.0673
在此	-10.0673
歟	-10.0674
爭得	-10.0675
瞋	-10.0675
一半	-10.0688
根源	-10.0691
嵩	-10.0693
二三	-10.0703
是真	-10.0708
六年	-10.0716
三乘	-10.0716
訶	-10.0717
叱	-10.0721
逝	-10.0728
提持	-10.073
又何	-10.073
還他	-10.0731
打鼓	-10.0732
施設	-10.0737
唯心	-10.0738
敏	-10.0739
南北	-10.0741
青原	-10.0742
效	-10.0744
麥	-10.0745
卯	-10.0751
頭陀	-10.0766
屢	-10.0766
巾	-10.0768
嗚呼	-10.0768
嗔	-10.077
緇	-10.0773
攜	-10.0774
嵒	-10.0774
八月	-10.0775
真淨	-10.078
馬大師	-10.0784
無形	-10.0787
他日	-10.0789
活人	-10.0795
頓悟	-10.0796
須彌山	-10.0804
為一	-10.0806
成道	-10.0807
從教	-10.0809
宏	-10.0812
黃梅	-10.0812
未幾	-10.0824
摧	-10.0825
描	-10.0826
學云	-10.0827
綸	-10.0828
轟	-10.0834
流出	-10.0835
匪	-10.0836
顧視	-10.0838
剩	-10.0844
二月	-10.0845
蹄	-10.0849
癸	-10.085
噫	-10.0851
經行	-10.0852
羞	-10.0852
一滴	-10.0852
毋	-10.0867
術	-10.0873
無始	-10.0875
衫	-10.0877
几	-10.0881
朔	-10.0882
翔	-10.0884
且道是	-10.09
途中	-10.0907
旗	-10.0911
石女	-10.0912
舉起	-10.0923
輔	-10.0924
千山	-10.0924
捲	-10.0925
本師	-10.0929
盜	-10.0931
透脫	-10.0933
手眼	-10.0935
向甚麼處	-10.0938
尊貴	-10.0943
同時	-10.0946
山僧今日	-10.0947
知解	-10.0948
遍界	-10.0949
事作麼生	-10.0949
三尺	-10.0951
要知	-10.0957
之下	-10.097
說得	-10.097
擁	-10.0975
於中	-10.0983
浸	-10.0988
稀	-10.0992
薦取	-10.0993
曰恁麼則	-10.0999
牯	-10.1005
亥	-10.1005
意作麼生	-10.1006
囉	-10.1007
不下	-10.1009
動著	-10.1009
不以	-10.1012
陰陽	-10.1019
灌	-10.1019
濃	-10.1029
譚	-10.1033
無住	-10.1036
忽遇	-10.1036
禪客	-10.1037
臻	-10.1041
你道	-10.1041
銜	-10.1042
樞	-10.1042
鋤	-10.1043
明暗	-10.1045
大夫	-10.105
以來	-10.1051
蓮華	-10.1057
欲識	-10.1059
還委悉麼	-10.1059
滄海	-10.1065
華藏	-10.1067
巍巍	-10.1068
給	-10.1069
到家	-10.1075
亦如是	-10.1077
地藏	-10.1081
無數	-10.1083
便道	-10.1085
鬼神	-10.1102
慰	-10.1114
不待	-10.1116
閻	-10.1121
揖	-10.1127
突	-10.1129
傳燈	-10.1137
格外	-10.1139
拾	-10.1142
久矣	-10.1145
突出	-10.1145
當知	-10.1157
上堂舉	-10.1168
誨	-10.1169
世人	-10.1174
平常	-10.1176
一隻眼	-10.118
無知	-10.1181
庸	-10.1184
債	-10.1186
拈香云	-10.119
茫茫	-10.1195
一句子	-10.12
其心	-10.1202
此時	-10.1204
見其	-10.1207
樓閣	-10.1208
峭	-10.1209
涌	-10.1232
次第	-10.1235
一轉語	-10.1243
師云你	-10.1244
全無	-10.1245
僧便喝	-10.1253
答云	-10.1254
風雨	-10.1256
安身立命	-10.1257
委悉	-10.1268
任運	-10.1269
陞堂	-10.1271
大溈	-10.1281
不與	-10.1282
十字街頭	-10.1287
諸禪德	-10.1313
欄	-10.1313
未了	-10.1314
惹	-10.1321
爆	-10.1329
薪	-10.133
一曲	-10.133
摘	-10.1338
豆	-10.1338
之理	-10.134
不合	-10.134
植	-10.1344
諸祖	-10.1345
是否	-10.1351
匡	-10.1355
乞師	-10.1368
架	-10.1369
端坐	-10.1371
受具	-10.1378
仗	-10.1401
)」】「	-10.1401
要見	-10.1405
次日	-10.1409
弊	-10.1411
佛日	-10.1417
見僧	-10.1433
作主	-10.1435
蒲	-10.144
一體	-10.1443
又是	-10.1446
切莫	-10.145
道不得	-10.1451
祖意	-10.1451
乃問	-10.1452
不肖	-10.1454
精神	-10.1454
不被	-10.1456
知事	-10.1457
宛	-10.1461
禪寺	-10.1462
一身	-10.1465
黃蘗	-10.1473
昆	-10.1473
三種	-10.1473
西堂	-10.1476
上堂僧問	-10.1476
併	-10.1476
大愚	-10.1477
未出	-10.1481
皇帝	-10.1482
膺	-10.1483
鄭	-10.149
何似	-10.1492
託	-10.1493
十二時中	-10.1507
心外	-10.1507
物物	-10.1508
二十五	-10.1509
言說	-10.151
風光	-10.1516
一問	-10.1517
四月	-10.1519
介	-10.1523
路上	-10.153
袋	-10.153
光陰	-10.1534
森	-10.1537
非是	-10.1538
觀之	-10.1538
踏著	-10.1538
大智	-10.1539
叉	-10.1542
不分	-10.1545
萬歲	-10.1547
孔子	-10.1547
卷之	-10.1549
疑情	-10.1549
種子	-10.155
暑	-10.1551
孚	-10.1552
濤	-10.1552
子細	-10.1562
了知	-10.1564
一笑	-10.1565
杳	-10.1565
若向	-10.157
肚	-10.1574
且作麼生	-10.1575
等閑	-10.1579
帽	-10.1581
沐	-10.1584
徒勞	-10.1589
鱉	-10.1596
透得	-10.1597
禪者	-10.1601
十月	-10.1604
仔細	-10.1608
賦	-10.1612
紅爐	-10.1616
作麼生道	-10.1617
久之	-10.1619
𦦨	-10.1623
貼	-10.1626
兜率	-10.1629
瞌睡	-10.1632
眼中	-10.1632
未甞	-10.1638
論云	-10.1643
不應	-10.1644
參究	-10.166
千差	-10.1671
榻	-10.168
道德	-10.1683
樹下	-10.1687
近日	-10.1689
君臣	-10.169
瘦	-10.169
罪過	-10.1691
伽藍	-10.1698
炙	-10.1699
役	-10.17
肇	-10.1701
葉落	-10.1701
諸聖	-10.1706
窠臼	-10.1708
故知	-10.1708
)。【	-10.1712
吒	-10.1713
事若何	-10.1721
踞	-10.1726
無我	-10.1726
大慈	-10.1742
最初	-10.1744
久立	-10.1746
悠悠	-10.1747
魏	-10.1748
非但	-10.1756
掇	-10.1765
未知	-10.1765
五蘊	-10.1766
白椎	-10.1766
寐	-10.1776
祖道	-10.178
法幢	-10.1781
與麼道	-10.1791
晉	-10.1796
難得	-10.1798
敕	-10.1799
月明	-10.1802
棒喝	-10.1805
教人	-10.1806
毘盧	-10.1806
自從	-10.1812
與麼則	-10.182
仁者	-10.1823
瓦礫	-10.1823
削	-10.1824
或云	-10.1826
芥	-10.183
一色	-10.1833
輒	-10.1843
逈	-10.1843
輪迴	-10.186
倍	-10.186
亦名	-10.186
瑕	-10.186
放行	-10.1861
航	-10.1864
蹈	-10.1866
將去	-10.1867
長空	-10.187
豈不見	-10.1877
出來道	-10.188
一百	-10.1881
覰	-10.1885
捏	-10.1888
暴	-10.1899
開眼	-10.1903
言下	-10.1903
柰	-10.1909
盖	-10.191
意旨	-10.1921
放出	-10.1924
麟	-10.1925
後人	-10.1925
若以	-10.1927
也要	-10.1931
得法	-10.1932
逍遙	-10.1933
之謂	-10.1935
好箇	-10.1936
軀	-10.1944
以至	-10.1948
峨	-10.1948
本有	-10.195
抹	-10.1952
生涯	-10.1952
海底	-10.1953
誰能	-10.1954
溺	-10.1969
明得	-10.1983
尉	-10.1985
便歸方丈	-10.1992
金陵	-10.1997
永嘉	-10.1997
胸中	-10.1998
泉云	-10.2009
不知有	-10.2009
肝	-10.2012
掣	-10.2015
當面	-10.2032
餅	-10.2034
有個	-10.2035
如如	-10.204
帝釋	-10.2041
懺悔	-10.2042
一粒	-10.2045
所在	-10.2045
師拈云	-10.2051
春色	-10.2057
無一物	-10.2065
五年	-10.207
正宗	-10.2071
而退	-10.2071
妻	-10.2073
員	-10.2075
均	-10.2084
先聖	-10.2085
摩尼	-10.2088
薰	-10.2089
故名	-10.2089
裝	-10.2098
佛心	-10.2098
又喝	-10.2111
不犯	-10.2115
罔措	-10.2115
慧命	-10.2117
如人	-10.2129
五月	-10.2132
一隻	-10.2134
聞聲	-10.2137
腦後	-10.2148
佛果	-10.2148
炭	-10.2148
吸	-10.2149
自古	-10.2151
如幻	-10.2153
為師	-10.2159
紅塵	-10.2164
若要	-10.2167
脊	-10.2174
不勝	-10.2175
還識	-10.2184
國王	-10.2185
孤峰	-10.2192
此人	-10.2195
向上一路	-10.2196
捐	-10.2202
爪	-10.2202
出氣	-10.2204
萬仞	-10.2208
設齋	-10.2216
之功	-10.2217
容易	-10.222
甜	-10.2221
呌	-10.2221
副	-10.2227
向外	-10.2228
此經	-10.2231
一年	-10.2231
誰敢	-10.2232
獅	-10.2232
玲瓏	-10.2236
雖是	-10.2239
凋	-10.2245
剪	-10.2245
心心	-10.2247
涯	-10.2261
禪宗	-10.2267
催	-10.2274
歸家	-10.2276
正當恁麼時	-10.2286
何時	-10.2287
常在	-10.2287
向甚麼處去	-10.2291
䇿	-10.2291
結夏	-10.2291
什	-10.2298
直截	-10.2299
第四	-10.2303
闍梨	-10.2306
是為	-10.2309
若作	-10.2312
之則	-10.2316
正月	-10.2326
眸	-10.2327
鈎	-10.2327
日日	-10.2339
深處	-10.2342
廊	-10.2343
若言	-10.2345
紳	-10.2358
師翁	-10.2362
地上	-10.2363
所作	-10.2363
不屬	-10.2365
鈍置	-10.2365
揑	-10.2365
三句	-10.2366
擊拂子	-10.2368
第八	-10.2373
莫教	-10.2374
蔽	-10.238
即心即佛	-10.238
那個	-10.2387
戌	-10.2387
掉	-10.2389
語默	-10.2391
伹	-10.2409
娑婆	-10.2412
九年	-10.2413
棒頭	-10.2414
棺	-10.2414
說偈	-10.2416
解制	-10.2418
夫人	-10.2424
開法	-10.2424
一機	-10.2424
名字	-10.2425
五色	-10.2429
菊	-10.2432
琦	-10.2437
塘	-10.2437
龍潭	-10.2438
猷	-10.2442
圓滿	-10.2443
佛眼	-10.2444
攔	-10.2452
耆	-10.2454
二乘	-10.246
脚下	-10.2461
各有	-10.2466
屠	-10.2469
下語	-10.247
一輪	-10.2473
洛	-10.2474
出沒	-10.248
底是	-10.2484
軌	-10.2489
牌	-10.2493
看經	-10.2493
開爐	-10.2494
吹毛	-10.2499
碗	-10.2505
𨁝跳	-10.2505
聰明	-10.251
儼然	-10.2514
說破	-10.2515
便與	-10.2523
撰	-10.2523
挽	-10.2524
三十年後	-10.2525
有眼	-10.2526
覽	-10.2531
歲月	-10.2532
之外	-10.2548
根塵	-10.2549
帳	-10.256
龜毛	-10.2561
未到	-10.2562
不墮	-10.2566
面門	-10.2575
刑	-10.2576
春秋	-10.258
無一法	-10.2585
曹洞	-10.2596
其間	-10.2597
九月	-10.2602
雪竇云	-10.2609
芙蓉	-10.2609
不去	-10.2618
一朝	-10.2618
阿師	-10.2621
何為	-10.2622
無著	-10.2631
殃	-10.2636
宵	-10.2637
杯	-10.2641
此中	-10.2645
高聲	-10.2646
禽	-10.2651
理事	-10.2657
譽	-10.2659
若非	-10.266
厥	-10.2661
來時	-10.2663
紛紛	-10.2688
初參	-10.2688
師兄	-10.2688
今夜	-10.269
不露	-10.2691
未必	-10.2693
相續	-10.2694
逞	-10.2697
涕	-10.2699
陞	-10.27
析	-10.2705
咨	-10.2716
蹤跡	-10.2722
經論	-10.2723
作用	-10.2724
秋風	-10.2728
歸堂	-10.2733
梓	-10.2741
壺	-10.2742
擔荷	-10.2748
問取	-10.2749
明年	-10.2752
嶂	-10.2752
徹骨	-10.2753
檢點	-10.2766
山前	-10.2767
閻浮	-10.2774
得度	-10.2778
翅	-10.2779
遼	-10.2781
幡	-10.2782
及乎	-10.2782
祝聖	-10.2785
當時若	-10.279
疆	-10.279
科	-10.2792
萬壽	-10.2802
暢	-10.2809
詢	-10.2818
鎻	-10.282
太子	-10.2829
七月	-10.2835
一偈	-10.2852
煖	-10.2855
而能	-10.2857
下手	-10.2858
東林	-10.2862
堪笑	-10.2866
荊棘	-10.2867
瓊	-10.2869
安心	-10.2877
儻	-10.2879
巒	-10.2882
卦	-10.2883
不開	-10.2886
因甚麼	-10.2894
木人	-10.2894
壽昌	-10.2896
八萬四千	-10.2897
零	-10.2902
挈	-10.2902
材	-10.2908
逮	-10.2911
師亦	-10.2912
俄	-10.2912
尿	-10.2914
長沙	-10.293
腳跟	-10.2932
到底	-10.2933
廝	-10.2934
夢見	-10.2934
廓然	-10.2934
不要	-10.2937
分外	-10.2939
逾	-10.294
日出	-10.2943
窠	-10.2947
首山	-10.2957
年來	-10.2957
十分	-10.2959
爺	-10.296
意氣	-10.2962
卓拄杖下座	-10.297
尸	-10.2971
進前	-10.2974
普化	-10.2974
光中	-10.2985
梯	-10.2985
噓	-10.2986
底句	-10.2986
變化	-10.2987
楔	-10.2989
菴主	-10.2993
什摩	-10.2994
施主	-10.3011
一旦	-10.3013
卓拄杖	-10.3022
翫	-10.3025
挨	-10.3036
個個	-10.304
諭	-10.3042
雕	-10.3045
珊瑚	-10.3053
祭	-10.3054
之者	-10.3055
主賓	-10.3058
呪	-10.306
落花	-10.3063
而生	-10.3069
拂袖	-10.3076
萬劫	-10.3076
璧	-10.3081
洒	-10.3085
啄	-10.3091
琉璃	-10.3092
無漏	-10.3092
水月	-10.3092
研	-10.3093
鈴	-10.3095
渺	-10.31
葬	-10.31
衛	-10.31
簷	-10.3103
圓成	-10.3112
出眾	-10.3116
枷	-10.313
一種	-10.3133
錯過	-10.3135
擡	-10.3142
家家	-10.3145
圈	-10.3146
虞	-10.3147
郭	-10.3148
太虗	-10.3149
自此	-10.3149
畵	-10.3153
扇子	-10.3154
於世	-10.3157
聳	-10.3158
鉢盂	-10.316
憤	-10.316
坊	-10.3168
衢	-10.3169
猛虎	-10.3169
法席	-10.3171
卑	-10.3177
鷺	-10.3179
早是	-10.3187
師問僧	-10.3193
峰頭	-10.3195
鏡清	-10.3195
佛言	-10.3198
全機	-10.3201
出現	-10.3204
親近	-10.3206
豎起	-10.3208
和合	-10.3209
)。」【	-10.3209
膠	-10.321
印可	-10.3213
被人	-10.3221
深山	-10.3222
世諦	-10.3229
悟去	-10.3231
猶有	-10.324
今人	-10.3243
天下老和尚	-10.3244
見麼	-10.3245
歛	-10.3246
幾度	-10.3248
猶在	-10.3249
後學	-10.325
晏	-10.3253
粉碎	-10.3255
大王	-10.3258
屙	-10.3261
三門	-10.327
向前	-10.3274
一頓	-10.3276
做工夫	-10.3276
此日	-10.3277
局	-10.3279
利益	-10.3281
慚愧	-10.3282
正法眼	-10.3284
快活	-10.3285
滑	-10.3286
酸	-10.3286
著力	-10.3293
創	-10.3295
湛然	-10.3301
命根	-10.3302
之以	-10.331
厲	-10.3311
千載	-10.3313
之義	-10.3314
願力	-10.3317
別云	-10.3319
得恁麼	-10.3324
座下	-10.3326
放光	-10.3333
哩	-10.3333
三拜	-10.3336
三百	-10.3337
寂寂	-10.3344
性空	-10.3345
貧道	-10.3345
理會	-10.3345
嘴	-10.3346
低頭	-10.3346
灘	-10.3346
冶	-10.3351
習氣	-10.3351
何異	-10.3358
黃葉	-10.3363
師遂	-10.3364
說偈曰	-10.3364
天目	-10.3365
太虛	-10.3365
法語	-10.3375
本分事	-10.3376
淮	-10.3393
老師	-10.3393
底道理	-10.3395
纖	-10.3397
黃河	-10.3399
的的	-10.3402
攪	-10.3403
祕	-10.3407
此土	-10.3407
心性	-10.3409
天真	-10.341
向甚處	-10.3412
互相	-10.3418
堅固	-10.3426
亦可	-10.3441
皎	-10.3443
入院	-10.3446
龐居士	-10.3451
五湖	-10.3468
法輪	-10.3472
衍	-10.3481
嗣法門人	-10.3481
寡	-10.3482
偉	-10.3482
山川	-10.3486
幾時	-10.349
華嚴經	-10.349
在甚處	-10.3493
蝶	-10.3493
哮吼	-10.3493
縮	-10.3494
毫端	-10.3494
拓	-10.3495
蘆花	-10.3496
卷第十	-10.3496
在目前	-10.3498
尚書	-10.3507
崑崙	-10.3513
方可	-10.3514
寂寥	-10.3515
認得	-10.3517
此一瓣香	-10.3521
鬱	-10.3523
杭州	-10.3523
瞎驢	-10.354
靈源	-10.354
第六	-10.3541
汝若	-10.3542
明星	-10.3543
了了	-10.3545
別人	-10.3549
見聞覺知	-10.355
不留	-10.355
增收	-10.3551
不惟	-10.3559
獰	-10.3564
有異	-10.3564
信心	-10.3569
瓣香	-10.3571
▁|	-10.3571
不存	-10.3577
空花	-10.358
漆	-10.3581
殆	-10.3582
臨機	-10.3583
新到	-10.3592
件	-10.3595
芽	-10.3595
雪山	-10.3601
評	-10.3605
且莫	-10.3608
恁麼會	-10.3614
湖南	-10.3617
軸	-10.3623
甫	-10.3624
庵主	-10.3633
火裏	-10.3635
何謂	-10.3638
磚	-10.3644
寥寥	-10.365
被他	-10.3652
何況	-10.3664
真空	-10.3665
憎	-10.3665
屑	-10.3665
謂眾曰	-10.3667
萌	-10.3674
照用	-10.3674
在這裏	-10.3675
俟	-10.3676
便知	-10.3676
二俱	-10.3681
及至	-10.3681
龍池	-10.3687
舊時	-10.37
四十九年	-10.3706
好與	-10.3708
垂手	-10.3711
凶	-10.3713
退後	-10.3721
以杖	-10.3721
皓	-10.3723
梢	-10.3725
多年	-10.3727
幾箇	-10.3729
為諸人	-10.3731
去年	-10.3733
濫	-10.3737
諸上座	-10.3737
半夜	-10.3749
再來	-10.3749
為甚麼不	-10.3751
搬	-10.3757
一大藏教	-10.3758
從他	-10.3761
桶	-10.3767
路頭	-10.377
通身是	-10.377
不到處	-10.3773
康熙	-10.3774
峰頂	-10.3775
殷勤	-10.378
甕	-10.3786
艱	-10.3788
無念	-10.3791
悟入	-10.3793
畜	-10.3795
霹靂	-10.3796
如來藏	-10.3799
風動	-10.3802
施為	-10.3803
小兒	-10.3803
剎竿	-10.3803
替	-10.3809
禾	-10.381
泐潭	-10.3811
腳下	-10.3811
王老師	-10.3814
同安	-10.3818
行住坐臥	-10.3821
門戶	-10.3821
古德云	-10.3824
嵩山	-10.3826
寶藏	-10.3827
黎	-10.3827
粒	-10.3831
對眾	-10.3838
免得	-10.3839
峰云	-10.3847
練	-10.3849
刺	-10.3852
凡有	-10.3855
千萬	-10.3872
覲	-10.3891
冬至	-10.3891
須臾	-10.3892
眾人	-10.3893
說甚	-10.3895
金色	-10.3896
撩	-10.3902
収	-10.3904
第十	-10.3905
把手	-10.3908
看取	-10.3909
頹	-10.391
俯	-10.3912
滋	-10.3918
耽	-10.3919
不失	-10.3919
鷄	-10.3922
脉	-10.3923
年年	-10.3924
瘡	-10.3924
法華經	-10.3929
岑	-10.3938
吽	-10.394
了不可得	-10.3941
意在	-10.3945
努力	-10.3948
弁	-10.3949
波斯	-10.3951
不可思議	-10.3951
鵝	-10.3961
受戒	-10.3962
鴨	-10.3963
古鏡	-10.3967
勒	-10.3971
二種	-10.3977
綱宗	-10.398
色身	-10.3983
鉗鎚	-10.3983
特為	-10.3984
文章	-10.3985
豎拂子云	-10.4003
滲漏	-10.4004
驟	-10.4004
貨	-10.4005
雁	-10.4005
船子	-10.4006
廿	-10.4007
衲僧家	-10.4013
縱有	-10.4013
祿	-10.4015
忉	-10.402
壓	-10.4028
龐	-10.405
驪	-10.4056
此意	-10.4063
十餘	-10.4065
邁	-10.407
僧參	-10.407
曾到	-10.4071
臨終	-10.4074
鯨	-10.4075
說甚麼	-10.4075
試問	-10.408
昭覺	-10.4096
三更	-10.4102
瑞巖	-10.4103
人見錄	-10.4106
獨步	-10.4107
二字	-10.4109
百萬	-10.4112
西山	-10.4114
火燒	-10.412
矢	-10.4122
吾師	-10.4139
鞋	-10.4139
巳上	-10.4144
還是	-10.4144
喝一喝下座	-10.415
跛	-10.4154
三十二	-10.4157
裴	-10.416
從頭	-10.4165
西來意	-10.4166
篤	-10.4167
集眾	-10.4176
識取	-10.4182
爽	-10.4185
六道	-10.4187
撫掌	-10.4191
無字	-10.4194
雀	-10.4197
二老	-10.42
欲得	-10.4203
詠	-10.4203
嚮	-10.4207
掘	-10.4208
灼然	-10.4216
本色	-10.4216
沖	-10.4226
磕	-10.4229
钁	-10.424
潭州	-10.4241
必須	-10.4242
雲棲	-10.4249
訛	-10.4251
本覺	-10.4252
子孫	-10.4254
是甚麼人	-10.4257
遐	-10.4261
董	-10.4261
青州	-10.4266
僅	-10.4266
第一句	-10.427
水牯牛	-10.4271
石上	-10.4271
大事因緣	-10.4281
靈光	-10.4298
在者裏	-10.4298
無疑	-10.4298
襟	-10.4303
斑	-10.4303
妖	-10.4306
眷屬	-10.4311
佇	-10.4312
祖佛	-10.4315
鴉	-10.4315
橫身	-10.432
男女	-10.4324
依前	-10.4327
布施	-10.4327
每日	-10.4328
示現	-10.4328
海印	-10.433
嬰	-10.4338
盡大地是	-10.434
狼	-10.4345
妨	-10.4346
管取	-10.4356
詎	-10.4357
水流	-10.4357
殊勝	-10.4359
鵬	-10.4364
密密	-10.4366
夜深	-10.4368
杲日	-10.437
睛	-10.4372
歷代祖師	-10.438
飜	-10.4381
宰官	-10.4383
不見有	-10.4385
觀世音	-10.4392
觸著	-10.4401
許你	-10.4408
喏	-10.4412
萬松	-10.4415
物外	-10.4417
如何是佛法大意	-10.442
布衫	-10.4426
音聲	-10.4427
遊戲	-10.4429
挺	-10.4434
腮	-10.4435
疲	-10.4437
贏	-10.4446
一乘	-10.4455
磬	-10.4456
禪定	-10.4457
擘	-10.4458
在手	-10.4464
鄙	-10.4479
萬機	-10.448
吾宗	-10.4481
極樂	-10.4481
亘	-10.4491
錯會	-10.4492
萬峰	-10.4493
肘	-10.4498
為君	-10.4501
曳	-10.4503
狹	-10.4504
鶯	-10.451
劃	-10.4511
閙	-10.4513
本源	-10.4516
領眾	-10.4526
天竺	-10.4533
撼	-10.4535
琅	-10.4542
犬	-10.4544
晤	-10.4544
第七	-10.4545
主人公	-10.4548
漫漫	-10.4548
脚跟下	-10.455
隨機	-10.4551
相隨	-10.4552
畜生	-10.4556
喚甚麼作	-10.4557
緣起	-10.4564
災	-10.4572
寶壽	-10.4574
煞	-10.4575
塵塵	-10.4577
淪	-10.459
粗	-10.459
舉前話	-10.4592
薙	-10.4592
意如何	-10.4598
肥	-10.4601
陛下	-10.4601
瑩	-10.461
曷	-10.4611
饒舌	-10.4613
月落	-10.4613
龍蛇	-10.4619
機鋒	-10.4619
僊	-10.463
薩	-10.4647
踪	-10.4658
粥飯	-10.4659
教伊	-10.466
蕩蕩	-10.466
炬	-10.4662
天上天下	-10.4663
傲	-10.4668
誘	-10.4668
獄	-10.4671
楞伽	-10.4675
無差	-10.4679
這般	-10.469
駒	-10.4691
確	-10.4691
譬	-10.4691
直教	-10.4691
還我	-10.4692
波羅	-10.4692
只管	-10.47
後世	-10.4703
一期	-10.4703
旛	-10.4704
戈	-10.4711
貶	-10.4712
元年	-10.4718
父母未生前	-10.4719
廉	-10.4721
慨	-10.4725
一莖	-10.4726
投機	-10.4733
乏	-10.4734
恍	-10.4735
粉	-10.4737
帚	-10.4739
他家	-10.4743
英靈	-10.4744
天龍	-10.4746
喫茶去	-10.4746
峯云	-10.4747
虎丘	-10.4748
山色	-10.4754
拈拄杖曰	-10.4755
促	-10.476
蜜	-10.476
進步	-10.4761
踏破	-10.4766
還知麼	-10.4766
恰似	-10.4776
舉唱	-10.4777
以偈	-10.4792
干戈	-10.4796
文彩	-10.4799
邇	-10.4805
說禪	-10.482
痛棒	-10.4827
撮	-10.4827
區區	-10.4828
白雲端	-10.4835
大蟲	-10.4835
善根	-10.4835
昂	-10.4837
項	-10.4838
惺	-10.4839
醍醐	-10.4853
野老	-10.4857
作活計	-10.4859
幾多	-10.486
龍吟	-10.4861
蔣山	-10.4862
喝一喝曰	-10.4864
熈	-10.4868
鬥	-10.487
怡	-10.487
拳頭	-10.4882
玄妙	-10.4887
一隊	-10.4888
豈是	-10.4889
諸兄弟	-10.4891
生緣	-10.4892
拍手	-10.4894
侍郎	-10.4897
天涯	-10.4899
諸公	-10.4902
擺	-10.4907
狸	-10.4908
踐	-10.4916
允	-10.493
如何是和尚家風	-10.4939
四年	-10.4939
龍牙	-10.4943
見性成佛	-10.4945
N	-10.4959
豁開	-10.4968
蔭	-10.4975
茆	-10.4976
缾	-10.4978
復何	-10.4978
面皮	-10.4983
亦復如是	-10.4984
威音	-10.4984
中秋	-10.4985
五葉	-10.4989
猜	-10.499
鍊	-10.499
真性	-10.499
爻	-10.4996
孩	-10.5
諳	-10.5
歎曰	-10.5002
匝地	-10.5003
鞏	-10.5007
住後	-10.5019
鶻	-10.5023
懇	-10.5024
而化	-10.5032
燦	-10.5039
爾時	-10.5043
付法	-10.5049
知落處	-10.5056
贓	-10.5057
觜	-10.5057
糧	-10.506
片片	-10.5063
伐	-10.507
籃	-10.5071
熊	-10.5077
逗	-10.5081
衲衣	-10.5089
極則	-10.509
於斯	-10.5099
小乘	-10.51
眾僧	-10.5102
骸	-10.5106
上樹	-10.5106
牆	-10.5107
臨時	-10.5107
劫外	-10.511
觸處	-10.5116
修證	-10.5118
辨得	-10.512
亙	-10.5125
真正	-10.5125
汝今	-10.5127
監院	-10.5133
龍華	-10.5133
一夕	-10.5135
時有僧出	-10.514
携	-10.5141
轉大法輪	-10.5141
讚歎	-10.5146
龐公	-10.5148
重關	-10.5148
取捨	-10.5153
亮	-10.5157
護國	-10.5161
歸依	-10.5163
坐臥	-10.5165
斥	-10.5167
夾	-10.5169
稽	-10.517
十地	-10.5173
體用	-10.5173
本性	-10.5182
如何是境中人	-10.5184
如是則	-10.5185
)○	-10.5189
學人不會	-10.519
禾山	-10.5202
臼	-10.5208
飾	-10.5209
滋味	-10.5215
單傳	-10.5219
憲	-10.522
撈	-10.5224
萬象森羅	-10.5224
林泉	-10.5225
障礙	-10.5231
瞎漢	-10.5233
踈	-10.5236
坡	-10.5238
跪	-10.5249
光輝	-10.5249
豫	-10.5257
末法	-10.5258
鐘聲	-10.5259
蘇州	-10.5267
秉拂	-10.5267
芭蕉	-10.5268
鷂	-10.527
二十八	-10.5271
后	-10.5271
休歇	-10.5274
老胡	-10.5278
諸緣	-10.5279
諸人還	-10.5287
百餘	-10.5291
第五	-10.5294
訖	-10.5298
忞	-10.5303
機關	-10.5304
娑	-10.5305
惶	-10.5317
證據	-10.5318
耐	-10.5319
不管	-10.5325
瞬	-10.5328
鵲	-10.5331
夢幻	-10.5332
火炬	-10.5336
籍	-10.534
砂	-10.5341
卜度	-10.5342
玩	-10.5343
推倒	-10.535
掀	-10.535
不是佛	-10.5353
享	-10.5354
一拶	-10.5355
偕	-10.5361
典座	-10.5363
諍	-10.5368
話會	-10.5375
普說	-10.5376
誡	-10.5378
卓拄杖一下	-10.538
恰好	-10.5386
潦	-10.5391
係	-10.5394
樁	-10.5401
彥	-10.5401
鼈	-10.5403
阿呵呵	-10.5407
超然	-10.541
教外別傳	-10.5424
焚香	-10.5429
懸崖	-10.5431
不礙	-10.5435
落落	-10.544
圓融	-10.5442
太白	-10.5449
昔年	-10.5449
近離甚處	-10.545
芒	-10.545
踰	-10.545
獵	-10.545
手段	-10.545
說箇	-10.5465
獨坐	-10.5467
達磨大師	-10.5469
岫	-10.547
靄	-10.5471
非心非佛	-10.5475
酌	-10.5476
埽	-10.5478
便宜	-10.5481
者裡	-10.5485
啻	-10.5487
氣息	-10.549
原來	-10.5491
三寸	-10.5497
陋	-10.5498
雲峰	-10.5498
乾屎橛	-10.5499
盡情	-10.5501
即不無	-10.5503
琢	-10.551
茫然	-10.5514
時有僧問	-10.5519
事畢	-10.5525
不借	-10.5527
卓拄杖曰	-10.5531
髻	-10.5533
業識	-10.554
祖師意	-10.554
方外	-10.5541
蒸	-10.5546
武帝	-10.5549
窄	-10.5549
勵	-10.555
朋	-10.5555
搜	-10.5565
文殊普賢	-10.5569
佩	-10.557
蟠	-10.5594
滿目	-10.5596
榜	-10.5598
三十六	-10.5598
一下云	-10.5605
書記	-10.5605
直至如今	-10.5609
高低	-10.5611
擊碎	-10.5618
阻	-10.5619
天界	-10.5624
禱	-10.5634
1	-10.5643
脚跟	-10.5645
悄	-10.5647
滄	-10.5656
襲	-10.5657
觸目	-10.5665
作舞	-10.5665
穀	-10.5674
悶	-10.5688
好惡	-10.5691
不遷	-10.5694
邈	-10.5698
空寂	-10.57
靈利	-10.57
恢	-10.5708
蟻	-10.5711
闔	-10.572
禮謝	-10.5721
碓	-10.5721
檢點將來	-10.5722
百草頭	-10.5723
冤家	-10.5725
東海	-10.5728
豈能	-10.5728
橫按	-10.5729
恒沙	-10.573
嘶	-10.5732
分身	-10.5737
塵埃	-10.5738
只知	-10.574
巖前	-10.5745
巷	-10.5746
恃	-10.5747
淨名	-10.5759
七年	-10.576
區	-10.5771
象王	-10.5774
先德	-10.5777
摸索	-10.5789
嗣法	-10.5789
匣	-10.5793
大雄	-10.5793
希有	-10.5797
纔見	-10.5799
畫一畫	-10.5807
金烏	-10.581
把定	-10.582
裹	-10.582
河沙	-10.5821
滔	-10.5822
喪身失命	-10.5822
幹	-10.5822
應須	-10.5824
薦福	-10.5826
驚起	-10.5828
盂	-10.583
瀉	-10.5832
鈞	-10.5843
摑	-10.5846
𦘕	-10.5851
呂	-10.5857
早巳	-10.586
伶俐	-10.5861
衣鉢	-10.5862
這裡	-10.5868
餌	-10.5872
爪牙	-10.5873
驀然	-10.5876
駭	-10.5885
黨	-10.5885
明眼人	-10.589
第一座	-10.5891
恬	-10.5897
愍	-10.5901
盡力	-10.5903
觀察	-10.5909
吉祥	-10.5912
那堪	-10.5914
驢年	-10.5923
忻	-10.5924
貓	-10.593
古路	-10.5931
寰中	-10.5932
桐	-10.5933
犀	-10.5934
吏	-10.5937
掩耳	-10.594
碌	-10.5946
自肯	-10.5953
流轉	-10.5954
遠近	-10.5954
喚侍者	-10.5959
語話	-10.5964
日輪	-10.5967
洞庭	-10.5969
奇哉	-10.5971
洪州	-10.5983
在裏許	-10.5989
遮裏	-10.5991
農	-10.6011
咒	-10.6012
八百	-10.6015
齡	-10.602
0	-10.6021
烏龜	-10.6041
逆順	-10.6051
疑著	-10.6058
唧	-10.6061
曹谿	-10.6064
波瀾	-10.6066
恁	-10.6072
笻	-10.6077
二六時中	-10.608
丈室	-10.6085
噴	-10.6089
僧喝	-10.6106
南院	-10.6112
棘	-10.6113
汲	-10.6113
森羅萬象	-10.6117
祖庭	-10.6117
釐	-10.6118
剎海	-10.6126
滅度	-10.6127
霽	-10.6127
蝦	-10.6128
娘	-10.6129
卷舒	-10.6132
這老漢	-10.6136
回向	-10.6139
拏	-10.6141
鳩	-10.6144
信得及	-10.6148
兔角	-10.6149
款	-10.6154
趺坐	-10.616
說夢	-10.616
煆	-10.6164
浮山	-10.6166
紹興	-10.6167
十方世界	-10.617
婬	-10.6175
舍利弗	-10.6177
仙人	-10.6181
恠	-10.6184
暉	-10.6186
洛浦	-10.6192
糊	-10.6194
晦堂	-10.6197
馨	-10.6205
信手拈來	-10.6209
莫怪	-10.6213
山野	-10.6214
承天	-10.6216
恭惟	-10.6217
緒	-10.6217
禪院	-10.6218
缽盂	-10.622
攢	-10.623
好與三十棒	-10.623
十里	-10.6232
金輪	-10.6241
只這	-10.6245
縷	-10.6247
入塔	-10.6252
纖塵	-10.6254
切音	-10.6254
寥	-10.6259
誕日	-10.6267
秀才	-10.6269
洩	-10.6271
誰家	-10.6273
羨	-10.6273
革	-10.6274
闌	-10.6286
壁上	-10.6287
直指人心	-10.6299
言訖	-10.6302
於言下	-10.6302
未徹	-10.6307
坤	-10.6309
崩	-10.6312
邀	-10.6313
填	-10.6314
神力	-10.6322
狼藉	-10.6326
凜凜	-10.6338
颺	-10.6339
澆	-10.6339
知客	-10.634
犁	-10.634
帖	-10.6341
歷劫	-10.6341
i	-10.6349
m	-10.6349
:>	-10.6349
<	-10.6349
g	-10.6349
波濤	-10.6356
三玄三要	-10.6378
鸞	-10.6379
滴水	-10.6388
龍王	-10.6413
珪	-10.6417
百尺竿頭	-10.6418
扶起	-10.6429
綻	-10.6431
殷	-10.6432
敗闕	-10.6436
不停	-10.6441
傍觀	-10.6443
煥	-10.6444
埃	-10.6453
眨	-10.6458
刊	-10.6458
祖師西來	-10.6458
遞	-10.6466
持戒	-10.6468
靖	-10.6469
莫測	-10.6477
概	-10.6484
葛	-10.6484
暨	-10.6496
二十四	-10.6499
店	-10.6513
根器	-10.6516
韜	-10.6522
僧問趙州	-10.6525
吞却	-10.6538
梨	-10.6538
英雄	-10.6544
蚊	-10.6556
栗	-10.6566
癢	-10.6568
筭	-10.658
弦	-10.658
括	-10.6594
校	-10.6595
魄	-10.6595
隣	-10.6609
霖	-10.6629
姪	-10.6634
眷	-10.6649
潺	-10.6649
培	-10.6659
吻	-10.6662
儔	-10.6673
鷹	-10.6688
齩	-10.6706
冊	-10.6718
杭	-10.672
課	-10.6723
嶮	-10.6746
綴	-10.6758
筍	-10.676
挾	-10.676
羹	-10.677
償	-10.6774
織	-10.6774
曆	-10.6777
捩	-10.6786
》	-10.6802
《	-10.6802
鐺	-10.6813
剔	-10.6815
征	-10.6826
攻	-10.683
嫡	-10.6841
炊	-10.6842
拭	-10.6844
穎	-10.6849
徽	-10.6852
瑤	-10.6852
翹	-10.6857
栖	-10.6864
煮	-10.687
悠	-10.688
瀟	-10.6897
辣	-10.6898
遁	-10.6908
藕	-10.6912
檢	-10.6919
瀑	-10.6926
鄧	-10.6937
旅	-10.6939
淋	-10.694
輿	-10.6964
妍	-10.6968
閫	-10.6982
隅	-10.6983
蜂	-10.6984
掠	-10.6993
廛	-10.6994
彎	-10.7007
圭	-10.7023
態	-10.7025
沸	-10.704
禿	-10.7055
棟	-10.7079
版	-10.7084
儉	-10.7097
憚	-10.7098
爇	-10.7108
椀	-10.7111
卸	-10.7111
溢	-10.7136
絡	-10.7155
製	-10.7155
熙	-10.7166
僻	-10.7167
餓	-10.7181
裔	-10.7194
膚	-10.7199
嶠	-10.7209
吝	-10.7212
健	-10.7215
漠	-10.7228
鈔	-10.7234
蟾	-10.7253
跋	-10.7255
帀	-10.7272
韋	-10.7331
△	-10.7341
鎔	-10.7343
奢	-10.7371
瓢	-10.7372
剗	-10.7373
訥	-10.7381
紋	-10.7386
E	-10.7404
竈	-10.7461
竝	-10.7466
斂	-10.7475
欵	-10.7479
恙	-10.752
咲	-10.7525
譯	-10.7536
霑	-10.7549
詐	-10.7567
箕	-10.7596
陌	-10.7611
屍	-10.7619
橈	-10.7627
鍬	-10.7629
嬾	-10.7639
虔	-10.7639
胷	-10.7644
佐	-10.7657
誣	-10.7657
廚	-10.7671
儘	-10.7672
袍	-10.77
拗	-10.7703
匙	-10.7717
迫	-10.7717
淹	-10.7745
寰	-10.7747
噪	-10.7747
藜	-10.7761
涵	-10.7775
丞	-10.7781
儂	-10.7808
鴣	-10.7809
捕	-10.7825
蔡	-10.7836
煌	-10.7837
憫	-10.7843
敦	-10.7851
濛	-10.7854
禹	-10.7854
啾	-10.7869
汪	-10.7884
傅	-10.7914
莽	-10.7915
辟	-10.7918
襄	-10.7921
豹	-10.7929
儼	-10.794
殞	-10.795
諷	-10.7951
倉	-10.7961
羈	-10.7964
湫	-10.7978
沿	-10.798
苕	-10.7981
裕	-10.7999
撾	-10.8008
鷓	-10.8011
旭	-10.8011
廷	-10.8023
范	-10.8024
虫	-10.8026
脣	-10.8041
錘	-10.8042
雍	-10.8053
軟	-10.8058
麵	-10.8088
袁	-10.8098
璞	-10.8101
旻	-10.8101
躲	-10.8118
聆	-10.8119
󵊮	-10.8123
鷲	-10.813
嵐	-10.8154
罅	-10.8154
馮	-10.8168
闇	-10.8173
棗	-10.8186
擯	-10.8187
彭	-10.8197
忤	-10.8197
耿	-10.8217
衷	-10.8229
頴	-10.8239
冲	-10.8243
仝	-10.8247
窓	-10.825
隋	-10.826
鍋	-10.8266
亨	-10.8307
灼	-10.8333
穆	-10.8342
闍	-10.8345
僕	-10.8347
譏	-10.8363
鐸	-10.8374
涓	-10.8376
協	-10.8392
祀	-10.8409
溼	-10.8429
螺	-10.8442
□	-10.8461
帥	-10.8472
峽	-10.8475
盟	-10.8477
鏃	-10.8494
轆	-10.8498
璉	-10.8516
簸	-10.8526
恥	-10.8596
炷	-10.8599
勅	-10.8605
扭	-10.8605
岡	-10.8606
啐	-10.8658
爰	-10.8696
觧	-10.871
揣	-10.8728
恕	-10.8743
汙	-10.8745
踵	-10.8758
筠	-10.8759
琇	-10.8775
淘	-10.8775
勾	-10.8777
髭	-10.8781
壤	-10.8791
慳	-10.8797
沼	-10.8806
朴	-10.8807
甌	-10.8809
倪	-10.8809
阜	-10.8809
悵	-10.881
灣	-10.8812
匹	-10.8842
楷	-10.8843
怛	-10.8848
攛	-10.8863
絆	-10.8863
遯	-10.8864
媿	-10.8873
煑	-10.8878
販	-10.8878
儲	-10.8879
竇	-10.8888
蔬	-10.8895
堦	-10.8899
央	-10.8901
]	-10.8911
埜	-10.8928
倩	-10.8945
杏	-10.8946
刮	-10.8946
濶	-10.8963
泗	-10.8972
鎗	-10.8981
碩	-10.8995
駐	-10.8998
吃	-10.8999
蔓	-10.9001
郢	-10.9023
芬	-10.9034
蹉	-10.9038
怠	-10.9049
淫	-10.9069
忝	-10.9084
奕	-10.9155
叨	-10.9156
讖	-10.9177
汾	-10.9184
瀾	-10.9185
蟬	-10.9208
茗	-10.9208
援	-10.9225
稻	-10.9227
柯	-10.9243
蒿	-10.926
腥	-10.9261
睫	-10.9296
泡	-10.9313
膏	-10.9316
幅	-10.9333
旱	-10.9333
禦	-10.9366
梭	-10.9385
矜	-10.9386
輯	-10.9407
I	-10.9411
S	-10.9411
豬	-10.9425
皈	-10.9437
觔	-10.9442
藝	-10.9444
配	-10.9458
鬬	-10.9461
級	-10.9462
咳	-10.9494
祠	-10.9497
匿	-10.9514
揆	-10.9529
蚤	-10.9533
渚	-10.9533
崔	-10.9534
麓	-10.9546
采	-10.9551
亟	-10.9568
魅	-10.9571
婢	-10.9571
姿	-10.9587
寵	-10.96
嗜	-10.9604
盃	-10.9604
顆	-10.9618
誅	-10.9622
緘	-10.9623
迄	-10.9623
貯	-10.9641
陪	-10.9645
蠅	-10.9661
笙	-10.9662
稠	-10.9696
虵	-10.97
剜	-10.9718
需	-10.9733
漳	-10.9748
篆	-10.9753
麈	-10.9771
孺	-10.9772
冒	-10.9772
喬	-10.979
諒	-10.979
斛	-10.9791
祚	-10.9801
鰲	-10.9807
諫	-10.9846
凜	-10.9863
鍛	-10.9866
粘	-10.9867
捺	-10.9867
巔	-10.9884
趕	-10.9886
漉	-10.9887
郊	-10.9901
熾	-10.991
蹟	-10.9919
謚	-10.9921
寤	-10.9923
葦	-10.9936
靴	-10.9941
扉	-10.996
杉	-10.9994
湏	-11.0019
磊	-11.0035
搊	-11.0076
趯	-11.0078
勳	-11.0106
廁	-11.0137
串	-11.0138
閃	-11.0147
弔	-11.0154
簇	-11.0172
砌	-11.0173
輙	-11.0193
奠	-11.021
羡	-11.0228
絮	-11.0231
抬	-11.0248
孃	-11.0251
虀	-11.0252
訝	-11.0253
汀	-11.0268
溟	-11.0268
諄	-11.0271
皋	-11.0272
隙	-11.0273
讎	-11.0286
亞	-11.0311
鷗	-11.0311
悚	-11.0312
鑪	-11.0313
辜	-11.0328
醋	-11.0348
潘	-11.0349
帛	-11.0351
週	-11.0351
价	-11.0365
湊	-11.0366
筏	-11.037
憍	-11.0371
砥	-11.0387
褫	-11.0388
療	-11.0395
灶	-11.041
嵓	-11.0426
島	-11.0427
迭	-11.0428
滾	-11.0429
刈	-11.0432
遜	-11.0443
頷	-11.0447
募	-11.0449
箸	-11.045
迨	-11.0451
塢	-11.0487
丸	-11.0491
賒	-11.051
泄	-11.0511
鬢	-11.0511
璣	-11.0525
頸	-11.0527
褒	-11.0542
艾	-11.0548
蓄	-11.0569
紜	-11.0572
稼	-11.0573
T	-11.0579
蠻	-11.059
釆	-11.0591
D	-11.0599
J	-11.0599
顒	-11.0683
徙	-11.0713
茫	-11.0718
愆	-11.0719
蹴	-11.0732
杵	-11.0755
漂	-11.0755
黔	-11.0774
戎	-11.0775
敝	-11.0794
椿	-11.0797
拊	-11.0815
脇	-11.084
廼	-11.0872
巍	-11.0878
懵	-11.0881
婺	-11.0882
閭	-11.0898
揩	-11.0902
濯	-11.0919
嚗	-11.0925
搏	-11.0942
筯	-11.0942
獎	-11.0958
痒	-11.0964
瑟	-11.0965
𢹂	-11.0966
繪	-11.0966
裘	-11.0981
攸	-11.0985
哂	-11.0985
劇	-11.099
鯉	-11.1004
僚	-11.1004
訃	-11.1005
哥	-11.1025
嬌	-11.1026
卵	-11.1029
厨	-11.1029
掬	-11.1048
罩	-11.1053
勦	-11.1093
蛙	-11.1094
媚	-11.1111
籟	-11.1112
倏	-11.1114
燃	-11.1117
館	-11.1133
嫁	-11.1134
藻	-11.1151
唵	-11.1163
仞	-11.1164
陂	-11.1175
黯	-11.1176
汁	-11.1177
萃	-11.1197
攙	-11.1198
檻	-11.1239
枚	-11.1242
墓	-11.1282
麁	-11.1294
懿	-11.1299
躡	-11.1306
疇	-11.1325
諧	-11.1329
坎	-11.1346
憩	-11.1348
椽	-11.1349
凄	-11.135
忒	-11.1352
漲	-11.1371
脂	-11.1397
槩	-11.1416
芻	-11.1435
踊	-11.1436
隴	-11.1437
歿	-11.1439
懽	-11.1459
皺	-11.1459
翌	-11.1481
稿	-11.1484
誼	-11.1484
伎	-11.1485
墳	-11.1522
瑘	-11.1523
罏	-11.1528
贄	-11.1546
殼	-11.1548
慵	-11.1551
擅	-11.1573
曜	-11.1615
冉	-11.1616
嫩	-11.1618
鬪	-11.1622
旌	-11.1636
炳	-11.1637
貝	-11.164
梧	-11.1659
晃	-11.1661
滌	-11.1662
迺	-11.1683
悞	-11.1683
衙	-11.1685
愕	-11.1686
嗅	-11.1707
跌	-11.173
檐	-11.1732
璨	-11.1747
躋	-11.1753
秊	-11.177
盌	-11.1772
飡	-11.1774
蠶	-11.1775
驕	-11.1794
勑	-11.1796
獃	-11.18
頤	-11.1821
溝	-11.1823
呻	-11.1825
宴	-11.1837
煨	-11.1842
裳	-11.1866
殻	-11.187
淂	-11.189
銳	-11.1908
貢	-11.1909
搥	-11.1911
摝	-11.1912
邵	-11.1914
抗	-11.1932
拒	-11.1937
慘	-11.1938
徇	-11.1961
澧	-11.1969
窩	-11.1979
技	-11.1982
粧	-11.1982
賈	-11.2006
鹵	-11.2007
撑	-11.2028
瞳	-11.2051
㘞	-11.2051
鞠	-11.2053
貽	-11.2057
弼	-11.2072
猫	-11.2075
姚	-11.2079
刪	-11.21
茄	-11.2103
蘄	-11.2103
摶	-11.2124
鉏	-11.2127
炯	-11.2145
霆	-11.2146
遏	-11.2149
舖	-11.2149
蠟	-11.2152
蚌	-11.2174
2	-11.2181
稚	-11.2192
澡	-11.2193
墖	-11.2195
窻	-11.2195
仕	-11.2196
吁	-11.2197
頒	-11.2217
漾	-11.2219
沌	-11.2219
駿	-11.2237
䟦	-11.2269
舡	-11.2288
堤	-11.2289
牖	-11.229
輟	-11.229
郁	-11.2311
嘻	-11.2314
鐙	-11.2315
罄	-11.2315
帙	-11.2316
訴	-11.2318
萊	-11.2332
濂	-11.2337
藩	-11.2339
晶	-11.236
逕	-11.2364
羲	-11.2385
』	-11.2387
忿	-11.2391
駢	-11.2411
畝	-11.2411
猴	-11.2411
痴	-11.2414
捫	-11.2415
恆	-11.2443
喆	-11.2457
塚	-11.2485
鸝	-11.2487
匆	-11.2487
腐	-11.2489
黏	-11.251
燎	-11.251
羯	-11.256
剋	-11.2572
裙	-11.2586
腔	-11.2606
曩	-11.2609
牒	-11.2614
猊	-11.2628
虹	-11.2633
舂	-11.2634
魁	-11.2657
猪	-11.2662
寔	-11.2684
睿	-11.2701
貲	-11.2706
兢	-11.2707
陟	-11.2708
閏	-11.2711
肰	-11.2726
吠	-11.2732
脅	-11.2737
撿	-11.2758
覧	-11.2758
楮	-11.278
齁	-11.2782
翱	-11.2783
垣	-11.2785
賔	-11.2802
嶼	-11.2805
卉	-11.2809
蛟	-11.281
沱	-11.2836
戚	-11.2859
鋸	-11.2864
尹	-11.2885
瀛	-11.2906
鞍	-11.2907
涎	-11.2914
濺	-11.2934
鼇	-11.296
桌	-11.2988
卍	-11.299
褁	-11.299
鑰	-11.3013
塑	-11.3017
誌	-11.3022
銖	-11.3039
甦	-11.304
瞽	-11.3041
燥	-11.3068
伍	-11.3089
愜	-11.3091
攬	-11.3093
抂	-11.3112
棙	-11.3121
們	-11.3123
婁	-11.3143
噇	-11.3144
咽	-11.3145
眀	-11.315
樸	-11.3169
譜	-11.317
訂	-11.3173
縉	-11.3192
弩	-11.3195
珣	-11.3196
幕	-11.3197
拯	-11.3197
矯	-11.3198
甎	-11.3224
跟	-11.324
盍	-11.3246
笏	-11.3274
磵	-11.3275
縈	-11.328
屆	-11.328
拆	-11.3281
蘗	-11.3294
查	-11.3302
蒺	-11.3303
蔚	-11.3325
宸	-11.3325
丕	-11.3327
洽	-11.3328
蠡	-11.3329
佞	-11.3351
摵	-11.3353
瞪	-11.3356
硯	-11.3357
牡	-11.3379
系	-11.3382
楹	-11.3382
泠	-11.3385
蠢	-11.3389
奯	-11.3408
驥	-11.3409
矮	-11.3409
簿	-11.3416
鴛	-11.3432
耑	-11.346
絹	-11.3463
勁	-11.3486
蟄	-11.3493
倡	-11.3495
贅	-11.3517
瞠	-11.3519
壘	-11.3542
馥	-11.3544
舁	-11.3546
匾	-11.3575
趺	-11.3589
鼕	-11.3596
督	-11.3598
溥	-11.362
淑	-11.3625
畬	-11.3656
矩	-11.3679
諡	-11.3682
啣	-11.3683
肋	-11.3683
槁	-11.3683
漿	-11.3684
另	-11.3686
叵	-11.3712
抄	-11.3714
笋	-11.374
沃	-11.3743
徃	-11.3763
怙	-11.3765
沛	-11.3792
咫	-11.3793
胤	-11.3794
汩	-11.3796
甄	-11.3796
嚇	-11.382
琳	-11.3839
署	-11.3848
筌	-11.385
嚬	-11.385
茹	-11.3851
札	-11.3851
漓	-11.3881
萍	-11.3903
笊	-11.3907
轢	-11.3908
鷥	-11.3908
迢	-11.3933
溜	-11.3935
腕	-11.3935
酥	-11.394
股	-11.3962
顰	-11.3964
蹲	-11.3965
鄂	-11.3982
楓	-11.3991
藹	-11.3991
肌	-11.3992
沽	-11.4021
夭	-11.4023
恚	-11.4025
毅	-11.4045
宦	-11.4049
稔	-11.4051
綺	-11.4052
瞑	-11.4105
耨	-11.4108
旃	-11.4109
渭	-11.4133
閬	-11.4135
臉	-11.4135
烜	-11.4137
燼	-11.4138
蕪	-11.414
琛	-11.4146
訊	-11.4154
杷	-11.4164
棚	-11.4164
熳	-11.4164
孕	-11.4166
煅	-11.4169
琶	-11.4191
霍	-11.4216
扁	-11.4218
俞	-11.4221
蓼	-11.4223
峩	-11.4224
茸	-11.4226
哆	-11.423
蓑	-11.428
汰	-11.4286
騷	-11.4308
賽	-11.4312
曼	-11.4312
藂	-11.4314
𡎺	-11.4315
『	-11.4323
櫓	-11.434
遑	-11.434
蕊	-11.4341
核	-11.4341
潼	-11.4342
槐	-11.4366
靣	-11.4367
犢	-11.437
肖	-11.4401
醬	-11.4403
胞	-11.4403
衿	-11.4422
瑯	-11.4422
鵠	-11.4428
址	-11.4429
繢	-11.4429
厄	-11.443
葵	-11.4454
矧	-11.4455
隄	-11.4457
汎	-11.4457
牕	-11.4457
隈	-11.4458
峙	-11.446
歐	-11.4461
噉	-11.4522
鞵	-11.4548
琵	-11.4577
万	-11.458
濱	-11.4609
瞿	-11.4609
夥	-11.461
馱	-11.4612
薑	-11.4613
瘂	-11.4614
粵	-11.4638
蹊	-11.4639
釵	-11.464
饗	-11.4665
浣	-11.4672
玷	-11.4673
崑	-11.4692
蘋	-11.4702
捋	-11.4702
暄	-11.4707
陜	-11.4756
扯	-11.4762
鹹	-11.4767
歬	-11.4787
霏	-11.4794
皂	-11.4796
穹	-11.4823
婚	-11.4825
斟	-11.4828
喘	-11.4828
膿	-11.4831
蠱	-11.4855
𨍏	-11.4856
矛	-11.4856
梳	-11.4858
彊	-11.4885
攫	-11.4886
鵰	-11.4886
鐫	-11.4888
楫	-11.4889
瀝	-11.4889
憧	-11.4916
垛	-11.4919
掦	-11.492
勃	-11.4951
磐	-11.4983
努	-11.5006
寇	-11.5011
幟	-11.5012
稅	-11.5014
鯤	-11.5038
齎	-11.5043
鬍	-11.5044
奄	-11.5046
綽	-11.5075
慾	-11.5076
鑼	-11.5078
烘	-11.5103
圇	-11.5107
悼	-11.5108
塲	-11.5136
擿	-11.514
慍	-11.5141
槃	-11.5142
珊	-11.5169
癩	-11.5172
葷	-11.5172
閨	-11.5173
饌	-11.5174
呆	-11.5174
酪	-11.5179
o	-11.518
瓔	-11.5202
壅	-11.5203
怯	-11.5206
攘	-11.5232
丐	-11.5232
簪	-11.5234
囂	-11.5235
珙	-11.5237
惚	-11.5237
_	-11.524
塹	-11.5241
賁	-11.5301
R	-11.5305
珞	-11.5332
箬	-11.5333
槎	-11.5334
迂	-11.5334
橘	-11.5335
茨	-11.5364
芋	-11.5365
搦	-11.5365
鏤	-11.5367
僉	-11.54
𠊳	-11.542
懈	-11.5434
蹇	-11.5436
篾	-11.5436
棋	-11.5463
臆	-11.5495
嬴	-11.5498
岌	-11.5527
控	-11.5529
曬	-11.553
蔣	-11.5535
餈	-11.5564
瑜	-11.5565
赦	-11.5597
酣	-11.5598
娛	-11.5598
誾	-11.5625
崎	-11.5627
謨	-11.5628
慙	-11.5629
鳧	-11.5632
滹	-11.5633
愽	-11.5663
劬	-11.5664
戟	-11.5664
蛻	-11.5667
伺	-11.5672
諲	-11.5685
粹	-11.5695
鏟	-11.5698
酢	-11.5698
構	-11.5699
躅	-11.5701
圃	-11.5701
惰	-11.5702
胥	-11.5729
廩	-11.5729
樊	-11.5732
屯	-11.5732
籮	-11.5733
嬉	-11.5733
歧	-11.5738
効	-11.5767
庇	-11.5768
惆	-11.5802
嫉	-11.5808
羮	-11.5833
鵞	-11.5834
裨	-11.5834
瘴	-11.5836
糟	-11.5837
紗	-11.5866
㖿	-11.5867
騁	-11.5867
鈯	-11.5869
伶	-11.587
竄	-11.5871
叶	-11.5905
孽	-11.5906
螢	-11.5907
耙	-11.5938
朦	-11.594
訟	-11.5975
袴	-11.6009
鶖	-11.601
睦	-11.6025
顓	-11.6045
謠	-11.6045
聒	-11.6046
漪	-11.6072
隘	-11.6076
篙	-11.6078
凳	-11.6078
牓	-11.6078
擕	-11.6079
纓	-11.6111
涇	-11.6111
搔	-11.6111
菓	-11.6116
苴	-11.6146
戾	-11.6147
儕	-11.6152
蘚	-11.6153
肱	-11.6181
懂	-11.6186
躭	-11.6189
䭾	-11.6192
嵋	-11.6214
摟	-11.6217
戍	-11.6218
鵶	-11.622
肺	-11.622
垓	-11.6221
慟	-11.6224
劑	-11.6225
礪	-11.625
驤	-11.6253
渝	-11.6254
戽	-11.6257
詬	-11.626
艷	-11.6289
鏗	-11.6324
臟	-11.6326
黍	-11.6329
侮	-11.6331
懃	-11.6358
簫	-11.6364
粲	-11.6397
翥	-11.6398
瓠	-11.6398
棃	-11.6399
褲	-11.64
砧	-11.6402
羚	-11.6402
企	-11.6405
爵	-11.6433
倐	-11.6435
浹	-11.6439
溯	-11.6471
唳	-11.6473
咍	-11.6474
踴	-11.6509
羸	-11.6511
犂	-11.6512
芟	-11.6512
蟹	-11.6512
俏	-11.6544
頰	-11.6549
襯	-11.655
璋	-11.6576
断	-11.6581
跎	-11.6582
駝	-11.6584
巽	-11.6616
嘿	-11.6617
酷	-11.6624
滇	-11.6653
嗄	-11.6658
釜	-11.6661
3	-11.6666
颼	-11.6691
崛	-11.6692
醇	-11.6693
緯	-11.6693
嗽	-11.6693
簣	-11.6697
憾	-11.67
觴	-11.6729
餧	-11.673
隍	-11.6731
闐	-11.6766
鏌	-11.6805
闥	-11.6841
准	-11.6846
奸	-11.6847
蒂	-11.6847
訢	-11.6883
氈	-11.6884
巫	-11.6885
套	-11.6885
荳	-11.6888
瑣	-11.6918
猒	-11.6923
鬻	-11.6924
𥁞	-11.6955
澂	-11.6959
彙	-11.6959
攃	-11.696
雌	-11.6961
贖	-11.6962
悖	-11.6962
櫺	-11.6998
濡	-11.6999
睺	-11.7042
韝	-11.7067
抉	-11.7073
翕	-11.7074
盻	-11.7074
复	-11.7076
蕉	-11.7076
嗚	-11.7077
琊	-11.7078
勛	-11.7109
紺	-11.7114
幞	-11.7116
决	-11.7117
夔	-11.7145
黧	-11.7151
𨤲	-11.7157
𩯭	-11.7189
仇	-11.7193
霈	-11.7194
薜	-11.7195
吧	-11.7195
鑾	-11.7226
馴	-11.7231
嘔	-11.7231
袞	-11.7235
彬	-11.7269
臊	-11.7271
廡	-11.7272
A	-11.728
屨	-11.7311
筒	-11.7311
曙	-11.7345
䖍	-11.7351
槍	-11.7352
妒	-11.7355
邃	-11.7388
蝸	-11.739
娥	-11.739
糝	-11.7391
薇	-11.7393
隹	-11.7394
莓	-11.7429
囫	-11.7431
眩	-11.7434
悽	-11.7473
艮	-11.7475
綵	-11.748
氛	-11.7509
臧	-11.751
潰	-11.7512
棠	-11.7513
罽	-11.7513
襪	-11.7513
惻	-11.7514
囚	-11.7515
U	-11.752
Z	-11.752
O	-11.752
鏘	-11.7551
P	-11.7561
駟	-11.759
袂	-11.7592
堵	-11.7593
裩	-11.7596
甑	-11.7633
罹	-11.7633
亢	-11.7635
抝	-11.7636
唎	-11.7637
渤	-11.7673
誥	-11.7673
窒	-11.7676
蹙	-11.7713
榾	-11.7713
疋	-11.7716
綫	-11.7718
謐	-11.7752
撓	-11.7759
鬆	-11.776
蒞	-11.7799
蜆	-11.7839
庄	-11.7839
挫	-11.7841
舷	-11.7842
菽	-11.7842
顱	-11.7843
磯	-11.7843
蓆	-11.7846
批	-11.7847
溶	-11.788
掖	-11.7882
膊	-11.7883
菱	-11.7883
鎧	-11.7885
帷	-11.7885
朧	-11.7885
庾	-11.7885
漱	-11.7886
傘	-11.7887
洹	-11.7888
衒	-11.789
懊	-11.7928
灸	-11.7928
􂋧	-11.793
酧	-11.793
璽	-11.7959
泐	-11.7962
篩	-11.7964
諗	-11.7966
銚	-11.7966
邏	-11.7969
稷	-11.797
俙	-11.8014
痾	-11.8015
詆	-11.8017
4	-11.8019
耘	-11.8054
繹	-11.8054
䭔	-11.8054
喉	-11.8054
蔕	-11.8055
瀆	-11.8057
萼	-11.8098
戮	-11.81
讐	-11.8102
暹	-11.812
妥	-11.8133
悱	-11.8138
縵	-11.8139
糠	-11.8141
冽	-11.8145
昱	-11.817
瓣	-11.8176
煦	-11.8176
驛	-11.8185
彫	-11.8186
兜	-11.8225
腑	-11.8225
忖	-11.8225
箋	-11.8229
橐	-11.8269
棱	-11.8273
祁	-11.8311
馭	-11.8313
釧	-11.8313
丫	-11.8314
屹	-11.8315
鴆	-11.8315
佑	-11.8316
蘸	-11.8317
賸	-11.8317
艶	-11.8317
鉅	-11.8357
倣	-11.8357
霸	-11.8359
玻	-11.836
裸	-11.8361
椅	-11.8362
噎	-11.8365
郵	-11.8397
廻	-11.8399
鑠	-11.8399
墀	-11.84
苾	-11.84
卞	-11.8402
滓	-11.8403
5	-11.8411
複	-11.8448
纍	-11.8449
榆	-11.8449
嚧	-11.8449
𢬵	-11.8454
碍	-11.8454
㗭	-11.8489
毳	-11.8492
苐	-11.8529
煒	-11.8533
􂐔	-11.8535
謫	-11.8538
湮	-11.8538
撇	-11.8539
蛤	-11.8576
鰕	-11.858
椒	-11.8581
轅	-11.8581
涸	-11.8581
裰	-11.8583
况	-11.8624
輻	-11.8625
榛	-11.8627
遨	-11.8627
疼	-11.8627
蛾	-11.8628
纜	-11.8667
勗	-11.8668
柮	-11.8669
睜	-11.8669
眺	-11.867
葺	-11.8714
欬	-11.8716
崙	-11.8718
窖	-11.8718
邱	-11.874
膩	-11.8765
禧	-11.8801
纂	-11.8808
泮	-11.8816
菲	-11.8817
鳶	-11.8847
惕	-11.8852
桓	-11.8852
皖	-11.8854
淛	-11.8855
献	-11.8866
櫂	-11.8894
襖	-11.8899
竣	-11.8901
鎁	-11.8903
肢	-11.8903
柁	-11.8907
𠺕	-11.8947
仆	-11.8949
猩	-11.8949
磁	-11.8989
莾	-11.8996
梗	-11.8997
恤	-11.9
姊	-11.9001
宕	-11.9036
妃	-11.904
蝴	-11.9043
艇	-11.9044
諂	-11.9047
娶	-11.9047
啜	-11.9048
啇	-11.9085
姜	-11.9087
牘	-11.9087
淥	-11.9089
頇	-11.9089
鋼	-11.9091
怜	-11.9092
囀	-11.9093
叮	-11.9093
覿	-11.9124
駁	-11.9131
妾	-11.9142
晟	-11.9178
泳	-11.9182
刱	-11.9182
昺	-11.9184
屐	-11.9187
剏	-11.9188
榴	-11.923
兕	-11.9231
鵑	-11.9236
杈	-11.9237
萎	-11.9237
幃	-11.9239
毓	-11.927
簑	-11.9279
媒	-11.9282
沫	-11.9285
鏁	-11.9333
9	-11.934
刁	-11.9377
𣗳	-11.9379
嶇	-11.9379
殫	-11.9381
碁	-11.9384
洵	-11.9422
雉	-11.9425
鄮	-11.9429
謦	-11.9429
攤	-11.943
躁	-11.9431
瘥	-11.9431
抓	-11.9433
躑	-11.9476
鍵	-11.9479
嫂	-11.9479
拿	-11.948
廈	-11.9484
歉	-11.9524
輦	-11.9524
丰	-11.9527
扃	-11.9528
距	-11.9528
夤	-11.9528
鵓	-11.9529
湍	-11.9575
泓	-11.9575
譌	-11.9576
篋	-11.9576
誚	-11.9581
鍮	-11.9581
佯	-11.9584
嵯	-11.9622
篁	-11.9628
薛	-11.963
唄	-11.963
莎	-11.9632
涅	-11.9675
讒	-11.9678
袒	-11.9679
餉	-11.9679
遘	-11.9682
檜	-11.9724
葩	-11.9724
庖	-11.9724
醻	-11.9725
曝	-11.9729
壍	-11.9729
嵗	-11.973
螻	-11.9732
豔	-11.9733
摹	-11.9775
聘	-11.9779
胃	-11.978
拕	-11.9784
旵	-11.9817
趍	-11.983
迪	-11.983
悴	-11.9831
站	-11.9832
擴	-11.9837
臯	-11.9875
槽	-11.9883
贍	-11.9885
鼾	-11.9929
俛	-11.9933
冗	-11.9936
笳	-11.9939
轡	-11.9973
叛	-11.9981
濵	-11.9984
脾	-11.9986
臈	-11.9986
彚	-11.9987
型	-11.9988
娠	-11.9989
鄱	-12.0036
煇	-12.0038
鶩	-12.004
聦	-12.0084
砒	-12.0086
畣	-12.0088
逅	-12.009
楖	-12.0092
穽	-12.0093
霛	-12.0131
邸	-12.0142
抖	-12.0143
蠲	-12.0145
獠	-12.0192
聵	-12.0192
烽	-12.0193
雛	-12.0193
脛	-12.0195
緫	-12.0196
蕃	-12.0243
謌	-12.0246
餿	-12.0249
怱	-12.025
姦	-12.025
詶	-12.025
拼	-12.0252
侄	-12.0291
耻	-12.0301
邂	-12.0303
聿	-12.0348
舶	-12.0353
齧	-12.0354
礱	-12.0354
攧	-12.0357
糶	-12.0358
噁	-12.0359
趾	-12.036
㕘	-12.036
柘	-12.0405
瘳	-12.0407
狎	-12.0407
庠	-12.0413
鑊	-12.0415
崗	-12.0457
繆	-12.0458
峒	-12.0459
熒	-12.046
糍	-12.0461
窈	-12.0461
湲	-12.0461
廠	-12.0462
迤	-12.0463
㱕	-12.0463
慷	-12.0464
獘	-12.0464
尅	-12.0465
詭	-12.0465
髫	-12.0466
澀	-12.0469
摺	-12.0471
禎	-12.051
哄	-12.0513
寨	-12.0515
釀	-12.0518
蹶	-12.0518
杪	-12.0519
箱	-12.052
捻	-12.0524
押	-12.0537
哮	-12.057
劵	-12.0572
瀰	-12.0573
靉	-12.0576
䟽	-12.0577
隕	-12.0577
詈	-12.0578
藪	-12.0627
幄	-12.0629
蕨	-12.063
怗	-12.063
絳	-12.0636
8	-12.0637
与	-12.0674
滂	-12.0681
毱	-12.0683
眎	-12.0683
液	-12.0685
兌	-12.0742
蔗	-12.0742
籜	-12.079
煤	-12.0792
緬	-12.0793
幣	-12.0796
瞖	-12.08
菌	-12.0802
勺	-12.0849
刼	-12.0851
埀	-12.0853
欹	-12.0854
挹	-12.0856
矚	-12.0856
蚋	-12.0857
蔥	-12.0858
藐	-12.0858
崆	-12.0903
翊	-12.0907
蛺	-12.0908
檇	-12.0908
弃	-12.0911
緲	-12.0912
6	-12.0919
愿	-12.0964
嶷	-12.0965
樽	-12.0966
膳	-12.0967
捶	-12.0969
漕	-12.097
荼	-12.097
塟	-12.097
啖	-12.097
䞋	-12.0971
〕	-12.0972
〔	-12.0973
翮	-12.1021
淤	-12.1023
嚙	-12.1024
駑	-12.1025
𣗖	-12.1026
璃	-12.1026
萸	-12.1027
閤	-12.1029
瘖	-12.1032
芙	-12.1083
腋	-12.114
妹	-12.1142
孳	-12.1143
蝕	-12.1143
渙	-12.1195
俸	-12.1198
糾	-12.1202
阬	-12.1254
墟	-12.1255
緝	-12.1256
刳	-12.1256
徤	-12.1256
鉗	-12.1257
繭	-12.1258
萋	-12.1259
翦	-12.126
廳	-12.1266
緜	-12.1312
蓉	-12.1313
嘲	-12.1318
噬	-12.132
髼	-12.1321
顥	-12.1369
倔	-12.1372
拌	-12.1377
縹	-12.1378
柬	-12.1381
紆	-12.1382
逄	-12.1427
鶚	-12.1434
鴟	-12.1434
狄	-12.1435
俠	-12.1436
礫	-12.1436
黠	-12.1438
倖	-12.144
7	-12.1446
屣	-12.1494
眇	-12.1494
苞	-12.1495
鄞	-12.1496
淈	-12.1501
倮	-12.1503
娟	-12.1554
甸	-12.1554
撚	-12.1555
茘	-12.1557
撤	-12.1559
蕅	-12.1591
癖	-12.1614
凱	-12.1615
瑙	-12.1616
瑪	-12.1616
尀	-12.1618
膓	-12.1622
疣	-12.1624
緉	-12.1673
蔔	-12.1675
丱	-12.1677
汞	-12.1677
攖	-12.1677
溷	-12.1681
鉄	-12.1682
渥	-12.1736
鄲	-12.1738
邯	-12.1738
菡	-12.1739
嚕	-12.1741
喟	-12.1741
鯢	-12.1741
裊	-12.1745
闈	-12.1746
軻	-12.1788
紐	-12.1798
聃	-12.1801
蕖	-12.1802
轂	-12.1803
醭	-12.1804
灮	-12.186
髯	-12.186
跣	-12.1866
晒	-12.1866
碣	-12.1867
逴	-12.1867
綉	-12.1868
磋	-12.1869
衾	-12.1872
懲	-12.1874
擉	-12.1924
盾	-12.1925
塼	-12.1927
瘢	-12.1927
碾	-12.1928
捱	-12.1928
塌	-12.193
㝡	-12.193
耗	-12.1931
袪	-12.1932
矍	-12.1932
怤	-12.1981
濬	-12.1982
綜	-12.1988
績	-12.1989
鬨	-12.199
耄	-12.1991
襍	-12.1995
𠔃	-12.1999
珂	-12.2038
㪅	-12.2042
鬣	-12.205
䙡	-12.2051
榦	-12.2054
杻	-12.2054
畦	-12.2055
楞	-12.2057
擂	-12.2057
蔑	-12.2058
襴	-12.211
嚫	-12.2116
貍	-12.2117
関	-12.2117
戢	-12.2117
黛	-12.2118
搕	-12.2119
繚	-12.2121
妬	-12.2126
竦	-12.2178
彝	-12.2178
搗	-12.2184
譁	-12.2186
舅	-12.2191
桀	-12.2241
跑	-12.2242
凹	-12.2245
侈	-12.2246
蒭	-12.2248
䳌	-12.2249
盥	-12.2249
簧	-12.2249
惓	-12.225
燬	-12.2311
刖	-12.2311
鄒	-12.2313
啗	-12.2313
羶	-12.2314
銛	-12.2314
蛛	-12.2315
妣	-12.2315
闠	-12.2376
萏	-12.2376
黜	-12.2381
龔	-12.2382
擦	-12.2384
彖	-12.2436
捄	-12.2443
藞	-12.2445
帔	-12.2447
芊	-12.2447
諮	-12.2448
陁	-12.2451
宥	-12.2502
苣	-12.2503
崚	-12.2509
拉	-12.251
囓	-12.2514
鴿	-12.2515
矻	-12.2519
膜	-12.2578
隳	-12.2579
賑	-12.2579
槨	-12.2579
磉	-12.258
弛	-12.2581
醯	-12.2583
属	-12.2593
繽	-12.2642
揔	-12.2644
貳	-12.2644
騅	-12.2646
犴	-12.2648
莆	-12.2648
炒	-12.2649
胝	-12.2649
㳂	-12.2651
𣸩	-12.2653
窕	-12.2713
貂	-12.2715
覊	-12.2716
彴	-12.2717
荔	-12.2718
悃	-12.2718
梆	-12.272
窿	-12.2777
擢	-12.2779
眹	-12.2779
嘹	-12.2781
蘖	-12.2783
氳	-12.2784
巋	-12.2784
糲	-12.2787
礦	-12.2787
嫗	-12.2848
廖	-12.2851
瘞	-12.2852
獦	-12.2852
樗	-12.2854
箴	-12.2856
磴	-12.2858
眚	-12.2861
鞴	-12.2864
闤	-12.2917
𦗟	-12.2918
閦	-12.2919
凸	-12.292
陡	-12.2921
翩	-12.2921
躳	-12.2923
蜓	-12.2924
瑫	-12.2981
毿	-12.2988
駙	-12.2993
恪	-12.2993
𥨊	-12.2993
糢	-12.2993
葱	-12.2996
邨	-12.2999
閡	-12.3014
鼷	-12.3056
燁	-12.3058
舀	-12.306
秧	-12.306
鞦	-12.3061
俜	-12.3062
券	-12.3063
摭	-12.3066
囙	-12.3068
瑛	-12.312
漣	-12.3126
爨	-12.3127
岷	-12.3127
盪	-12.3128
𢌞	-12.3131
欝	-12.3131
邢	-12.3131
笈	-12.3133
紊	-12.3134
晷	-12.3135
飫	-12.3136
襁	-12.3137
閧	-12.3139
拚	-12.3141
租	-12.3142
麋	-12.3199
豕	-12.3203
愴	-12.3203
呢	-12.3204
亹	-12.3205
螃	-12.3211
墼	-12.3214
跂	-12.3268
阮	-12.3272
剷	-12.3273
粕	-12.3275
󰢍	-12.3275
蘧	-12.3277
冐	-12.3278
虜	-12.3279
嚏	-12.3279
罣	-12.328
姬	-12.328
舘	-12.3282
頔	-12.3282
犍	-12.3284
疫	-12.3289
賡	-12.3342
賾	-12.3343
阱	-12.3344
貸	-12.3345
瓮	-12.3345
餡	-12.3347
漝	-12.3348
哺	-12.3352
鄴	-12.3352
剡	-12.3352
褓	-12.3353
晡	-12.3416
薝	-12.3419
覈	-12.3423
浚	-12.3424
鞔	-12.3426
估	-12.343
嘮	-12.3488
韆	-12.3493
樨	-12.3494
譔	-12.3494
搓	-12.3497
摠	-12.3497
扳	-12.3498
蜻	-12.3499
𦏰	-12.35
瑾	-12.3506
糓	-12.3507
旺	-12.3563
仄	-12.3566
闖	-12.3566
窘	-12.3568
芸	-12.357
萱	-12.3571
爬	-12.3571
壙	-12.3575
僭	-12.358
覃	-12.364
鸎	-12.3642
𢶍	-12.3645
熨	-12.3646
褐	-12.3646
呀	-12.3647
欒	-12.3648
鉸	-12.3648
葭	-12.365
胄	-12.365
殄	-12.3716
氤	-12.3716
巘	-12.3717
謔	-12.3718
鮑	-12.3725
璘	-12.3783
璿	-12.3785
禺	-12.3793
靆	-12.3796
猥	-12.3796
汨	-12.3798
獹	-12.38
灾	-12.3809
汴	-12.3867
泞	-12.387
饡	-12.3871
軫	-12.3872
疵	-12.3872
羃	-12.3873
穗	-12.3873
嗤	-12.3877
沮	-12.3878
錮	-12.3879
幔	-12.3941
琰	-12.3943
睨	-12.3945
檄	-12.3948
巉	-12.3948
搽	-12.3949
喇	-12.3951
蟒	-12.3958
陛	-12.4009
义	-12.4021
岱	-12.4021
錙	-12.4023
闘	-12.4024
𩖼	-12.4024
紂	-12.4025
𥠖	-12.4025
狥	-12.4026
騫	-12.4027
齅	-12.403
潯	-12.4038
斌	-12.4087
徼	-12.4098
搶	-12.4099
粮	-12.4101
忱	-12.4102
舛	-12.4103
軋	-12.4104
缸	-12.4105
聱	-12.4105
擣	-12.4106
栲	-12.4106
柑	-12.4106
隸	-12.4109
譊	-12.4178
猱	-12.4181
肎	-12.4193
乂	-12.4258
碟	-12.4258
懋	-12.426
褊	-12.426
詗	-12.4262
滸	-12.4262
嚥	-12.4263
髏	-12.4263
謳	-12.4263
􂙠	-12.4264
烱	-12.4264
篷	-12.4266
凖	-12.4268
􂔘	-12.4273
曦	-12.4338
嶒	-12.4338
綣	-12.4339
墅	-12.434
垠	-12.4341
狡	-12.4342
淅	-12.4343
悋	-12.4344
霓	-12.4345
褌	-12.4347
砍	-12.4418
棧	-12.4419
翀	-12.4422
蛩	-12.4425
旹	-12.4432
誹	-12.4432
芍	-12.4501
祛	-12.4503
瓚	-12.4504
攷	-12.4504
臍	-12.4507
魍	-12.4508
球	-12.4573
矗	-12.4578
薶	-12.458
齪	-12.4585
扼	-12.4585
臏	-12.4585
挲	-12.4587
飆	-12.4588
皤	-12.4589
笥	-12.4589
饉	-12.459
呱	-12.4595
恂	-12.4659
揄	-12.4667
牟	-12.4671
締	-12.4672
逡	-12.4673
貺	-12.4743
榸	-12.4747
囌	-12.4749
禳	-12.475
翡	-12.4751
呷	-12.4752
彀	-12.4752
喙	-12.4753
猗	-12.4753
逵	-12.4822
溽	-12.4826
琮	-12.4829
斡	-12.4831
倜	-12.4833
輳	-12.4833
桎	-12.4835
吊	-12.4835
輓	-12.4835
梏	-12.4836
絛	-12.4836
匇	-12.4839
祟	-12.4839
魎	-12.484
鎌	-12.4843
豸	-12.4913
銓	-12.4914
剿	-12.4916
佚	-12.4917
双	-12.4918
謟	-12.4918
縳	-12.4923
刷	-12.4924
糜	-12.4927
貿	-12.493
壹	-12.4997
跬	-12.5001
旂	-12.5005
咀	-12.5007
孑	-12.5009
躕	-12.5009
籓	-12.5009
蠏	-12.501
澁	-12.501
缶	-12.5011
韛	-12.5014
彤	-12.5087
鬘	-12.5088
朢	-12.5091
淒	-12.5092
芹	-12.5096
誵	-12.5096
症	-12.5099
裒	-12.51
𣦸	-12.5169
瀚	-12.5171
閴	-12.5176
覯	-12.5177
窆	-12.5178
飭	-12.518
栳	-12.5181
捴	-12.5186
櫃	-12.5186
丟	-12.5192
潞	-12.5254
劂	-12.526
畿	-12.5264
筐	-12.5264
賚	-12.5265
奎	-12.5265
萄	-12.5265
藿	-12.5266
梟	-12.5267
巇	-12.5268
縠	-12.5268
鑛	-12.527
糖	-12.5271
髣	-12.5271
顙	-12.5281
轎	-12.5347
攣	-12.535
謼	-12.5353
揜	-12.5354
珮	-12.5354
俚	-12.5355
髴	-12.5359
乱	-12.5359
暘	-12.536
慞	-12.536
囿	-12.5362
〡	-12.5363
炫	-12.5438
墾	-12.5441
叚	-12.5443
舫	-12.5443
霅	-12.5443
凢	-12.5444
溉	-12.5447
惘	-12.5447
棊	-12.5449
籥	-12.5451
奘	-12.5452
軾	-12.5528
澍	-12.5529
冢	-12.5536
㘽	-12.5536
售	-12.5536
匐	-12.5537
蟟	-12.5537
弋	-12.5537
諺	-12.5539
扄	-12.5543
弒	-12.5616
阤	-12.5621
濼	-12.5623
侖	-12.5623
摳	-12.5624
虯	-12.5624
蚩	-12.5625
鶿	-12.5626
躰	-12.5626
港	-12.5627
壟	-12.5628
瘁	-12.5629
䑛	-12.563
騐	-12.5633
剞	-12.5711
阡	-12.5714
徉	-12.5716
駸	-12.5716
瀏	-12.5716
餒	-12.5717
尟	-12.5717
硃	-12.5717
迓	-12.5718
詵	-12.5718
宼	-12.572
餞	-12.5721
虐	-12.5722
饈	-12.5724
痊	-12.5726
俵	-12.5729
孜	-12.5779
俍	-12.5803
菟	-12.5805
慄	-12.5806
撕	-12.5808
踟	-12.5808
骼	-12.5809
杆	-12.581
潸	-12.5811
侔	-12.5811
畐	-12.5812
匍	-12.5814
燹	-12.5815
躊	-12.5815
􂌯	-12.5816
瑄	-12.589
冕	-12.5895
埵	-12.5896
菖	-12.5898
璇	-12.5901
骰	-12.5902
捎	-12.5902
柩	-12.5904
炮	-12.5905
饀	-12.5906
㨾	-12.5908
廕	-12.5995
哦	-12.5998
栩	-12.5999
佈	-12.6
蜘	-12.6
牸	-12.6006
袱	-12.6013
涂	-12.6089
閔	-12.609
湄	-12.609
洌	-12.6091
齠	-12.6092
裓	-12.6093
脹	-12.6093
鉛	-12.6094
蝎	-12.6094
婉	-12.6094
駛	-12.6095
蜍	-12.6095
咿	-12.6098
綾	-12.6099
錠	-12.6189
駱	-12.619
傚	-12.6195
匱	-12.6278
斵	-12.6279
騮	-12.6285
韞	-12.6286
褥	-12.6286
笞	-12.6286
綢	-12.6288
盼	-12.6289
􂸍	-12.6289
歙	-12.6289
昬	-12.629
姐	-12.6294
琪	-12.6372
拴	-12.6377
椑	-12.6381
筈	-12.6381
僼	-12.6382
敞	-12.6382
諛	-12.6384
歆	-12.6385
淩	-12.6386
皴	-12.6386
瘠	-12.6389
祉	-12.6395
沂	-12.6477
畊	-12.6478
鷟	-12.6479
豊	-12.6479
傭	-12.6481
雒	-12.6482
咏	-12.6483
戕	-12.6483
繕	-12.6484
械	-12.6486
扛	-12.6489
隷	-12.649
漬	-12.649
嘖	-12.6499
芲	-12.6503
礎	-12.6575
簟	-12.658
霾	-12.658
荻	-12.658
蹔	-12.658
柝	-12.6581
脆	-12.6583
躂	-12.6584
𢱢	-12.6585
刦	-12.6585
蠧	-12.6587
莭	-12.6587
雹	-12.6587
𠻳	-12.6588
滲	-12.6588
桉	-12.6589
喃	-12.6589
濾	-12.6669
燿	-12.6677
椰	-12.6681
泝	-12.6681
熬	-12.6683
㖃	-12.6684
曛	-12.6684
咂	-12.6685
暜	-12.6685
淆	-12.6686
靸	-12.669
佃	-12.6691
纘	-12.6783
禰	-12.6783
匯	-12.6783
凈	-12.6785
稗	-12.6785
筴	-12.6785
昊	-12.6786
臞	-12.6786
麝	-12.6786
縻	-12.6786
杼	-12.6787
疥	-12.6788
牲	-12.679
珏	-12.6873
秩	-12.6885
躶	-12.6885
堀	-12.6886
皐	-12.6887
颻	-12.6888
玕	-12.6889
淬	-12.6889
頺	-12.6889
沓	-12.689
暈	-12.689
拇	-12.6891
腫	-12.6892
猖	-12.6894
繳	-12.6895
飼	-12.6897
滁	-12.6974
𢙣	-12.6987
柿	-12.699
涔	-12.6992
頫	-12.6992
霰	-12.6992
苓	-12.6993
癘	-12.6993
韁	-12.6994
榭	-12.6994
圝	-12.6994
灯	-12.6997
駘	-12.6997
撦	-12.6997
綰	-12.6998
診	-12.6998
纇	-12.6998
蔟	-12.6999
霎	-12.7
㗸	-12.7002
喋	-12.7003
斃	-12.7096
搯	-12.7099
鋟	-12.7101
墯	-12.7102
嫋	-12.7104
豺	-12.7105
饋	-12.7106
虱	-12.7107
寞	-12.7199
穫	-12.72
磷	-12.72
寘	-12.72
鸑	-12.7201
媸	-12.7203
󰑁	-12.7204
輾	-12.7204
馿	-12.7205
舐	-12.7207
戛	-12.7208
麄	-12.7208
螄	-12.7209
諕	-12.7209
杌	-12.7209
􂖪	-12.721
賭	-12.7211
僥	-12.7213
鬮	-12.7242
涪	-12.7305
闃	-12.7307
㫰	-12.7309
賷	-12.731
葡	-12.731
𩥇	-12.7311
肻	-12.7311
諠	-12.7314
懌	-12.7315
邐	-12.7317
嫰	-12.7319
䔧	-12.732
笤	-12.7321
槖	-12.7323
暌	-12.7415
擗	-12.7417
姥	-12.742
樷	-12.7421
霶	-12.7422
狠	-12.7422
慌	-12.7425
沔	-12.7426
𩬊	-12.7429
薔	-12.7429
𥧌	-12.743
荏	-12.7432
㴱	-12.7524
詹	-12.7526
悍	-12.7527
徂	-12.7528
篦	-12.7529
竮	-12.7529
暎	-12.753
玠	-12.7532
蹬	-12.7535
甓	-12.7535
舵	-12.7536
篐	-12.7537
昉	-12.7548
牝	-12.7629
侃	-12.7633
簽	-12.7635
遡	-12.7636
綬	-12.7636
呿	-12.764
逋	-12.7642
甯	-12.7644
橡	-12.7647
蜎	-12.7652
瀋	-12.7654
螳	-12.7749
眵	-12.775
洶	-12.7751
蜃	-12.7753
寱	-12.7753
飈	-12.7753
妝	-12.7754
餵	-12.7755
訾	-12.7755
嶙	-12.7755
姻	-12.7756
狌	-12.7758
苒	-12.7762
塋	-12.7863
賃	-12.7865
燋	-12.7865
冝	-12.7866
漩	-12.7866
熠	-12.7866
气	-12.7869
﨟	-12.7869
氂	-12.787
矇	-12.787
涘	-12.7871
訕	-12.7871
兇	-12.7873
憔	-12.7874
㘅	-12.7874
粳	-12.7874
甥	-12.7875
鈸	-12.7878
盰	-12.7878
灝	-12.7969
箎	-12.7979
弧	-12.798
竛	-12.7981
挃	-12.7982
覇	-12.7983
裾	-12.7985
薨	-12.7986
僵	-12.7987
凭	-12.7988
泖	-12.7989
茵	-12.7989
頼	-12.8093
澓	-12.8094
璫	-12.8095
釅	-12.8097
慊	-12.8098
鼯	-12.8098
艣	-12.8099
帑	-12.8099
斈	-12.8099
迻	-12.81
䥫	-12.8101
嗁	-12.8101
彷	-12.8103
𤨏	-12.8206
淙	-12.8208
橙	-12.8212
琬	-12.8216
鼉	-12.8218
𤼵	-12.822
抒	-12.8222
玿	-12.8223
唼	-12.8227
馗	-12.833
蠹	-12.8331
蹰	-12.8333
烝	-12.8334
媳	-12.8334
臠	-12.8336
訐	-12.8336
澈	-12.8338
櫚	-12.8338
渣	-12.8339
瀕	-12.8342
猨	-12.8342
嬭	-12.8344
p	-12.8345
蠕	-12.8348
燧	-12.8449
畧	-12.845
掐	-12.845
狻	-12.8452
扎	-12.8453
楪	-12.8454
螘	-12.8455
羌	-12.8455
彪	-12.846
臀	-12.8461
萠	-12.8462
贇	-12.8556
諶	-12.8561
朿	-12.8569
𣗥	-12.8572
鄽	-12.8573
鎞	-12.8575
麾	-12.8576
斲	-12.8577
娩	-12.8578
驊	-12.858
蘂	-12.8581
犖	-12.8583
椶	-12.8583
暝	-12.8583
痼	-12.8584
𡾟	-12.8584
葆	-12.8695
哽	-12.8696
殖	-12.8697
邡	-12.8698
冑	-12.8698
厙	-12.87
咐	-12.87
洄	-12.87
筮	-12.8701
屇	-12.8702
鬟	-12.8703
撻	-12.8704
僖	-12.8705
洙	-12.8705
樑	-12.8706
鏴	-12.8706
滕	-12.8709
愷	-12.8816
觱	-12.8821
塤	-12.8823
巗	-12.8824
蜨	-12.8824
縑	-12.8825
坪	-12.8827
毆	-12.8829
渟	-12.8831
𣽘	-12.8836
秕	-12.8951
觚	-12.8951
昳	-12.8951
峋	-12.8952
燉	-12.8952
絞	-12.8952
豚	-12.8952
甬	-12.8956
㗖	-12.8958
惛	-12.8961
箜	-12.8962
饕	-12.8963
篱	-12.8965
惲	-12.9062
齷	-12.9077
䂐	-12.9077
汶	-12.9078
詫	-12.908
窅	-12.908
牚	-12.9081
顋	-12.9081
刢	-12.9082
樅	-12.9082
㐫	-12.9082
熹	-12.9082
怏	-12.9083
赧	-12.9083
尓	-12.9083
嘵	-12.9085
贒	-12.9085
蚖	-12.9087
箍	-12.9087
偵	-12.9088
弭	-12.9089
絢	-12.909
綏	-12.9091
拮	-12.9203
灩	-12.9204
蜚	-12.9206
捍	-12.9206
桮	-12.9206
懦	-12.9206
閟	-12.9206
嘈	-12.921
砭	-12.9211
盒	-12.9212
飣	-12.9212
杞	-12.9213
殉	-12.9215
荀	-12.9216
眴	-12.9218
騙	-12.922
殑	-12.922
羗	-12.9339
摐	-12.9339
蜋	-12.934
腴	-12.9344
陬	-12.9344
莪	-12.9345
堰	-12.9345
綮	-12.9345
膈	-12.9347
軼	-12.9347
骷	-12.9348
鐶	-12.9348
賠	-12.9354
据	-12.9467
攄	-12.9468
俎	-12.9473
扺	-12.9476
爝	-12.9477
襤	-12.948
籤	-12.9481
恡	-12.9481
㸑	-12.9482
鶉	-12.9482
邗	-12.9605
噩	-12.9606
啀	-12.9607
氅	-12.9608
爹	-12.9608
徨	-12.9609
埏	-12.9609
堞	-12.9611
顫	-12.9612
顗	-12.9612
莞	-12.9613
𠃔	-12.9614
幪	-12.9614
麩	-12.9614
騃	-12.9615
𣆶	-12.9616
匏	-12.9616
坵	-12.9617
隰	-12.9617
媽	-12.9618
胭	-12.9619
噐	-12.9619
扈	-12.9742
旆	-12.9744
𣯶	-12.9744
頟	-12.9745
庥	-12.9746
抴	-12.9746
吩	-12.9747
㒵	-12.975
竚	-12.975
桷	-12.9751
侗	-12.9752
呾	-12.9754
腿	-12.9755
颯	-12.9755
喊	-12.9756
罥	-12.9756
醴	-12.9882
挐	-12.9884
繒	-12.9885
􂏖	-12.9887
澥	-12.9888
䰂	-12.9889
皁	-12.9891
凑	-12.9892
咆	-12.9894
瘧	-12.9906
􂜉	-13.0013
淄	-13.0018
粼	-13.0019
奐	-13.0021
𡱰	-13.0021
卭	-13.0022
柂	-13.0023
尒	-13.0025
鋩	-13.0025
懾	-13.0026
蜉	-13.003
楗	-13.003
譴	-13.0033
証	-13.0033
䦨	-13.0039
𡬾	-13.0157
灋	-13.0166
蛆	-13.0166
覻	-13.0166
齏	-13.0167
翎	-13.0169
礡	-13.017
齶	-13.017
儱	-13.0171
穌	-13.0171
敺	-13.0171
鯁	-13.0171
厓	-13.0172
虺	-13.0174
膾	-13.0174
嚶	-13.0174
佉	-13.0176
屺	-13.0177
坼	-13.0177
徜	-13.0178
歪	-13.0178
癯	-13.0183
B	-13.0307
筧	-13.0309
潢	-13.0314
顢	-13.0314
鍜	-13.0314
購	-13.0314
朅	-13.0314
莧	-13.0316
偪	-13.0317
榼	-13.0317
覬	-13.0318
祩	-13.0318
猾	-13.0319
蔴	-13.032
閶	-13.032
鋀	-13.032
苧	-13.0323
紏	-13.0327
棕	-13.045
蓍	-13.0454
濠	-13.0455
崱	-13.0458
駞	-13.0458
逶	-13.0459
荐	-13.0461
㲉	-13.0462
剉	-13.0463
黼	-13.0464
緡	-13.0465
蒐	-13.0466
撝	-13.0467
鐮	-13.0468
頡	-13.0468
懞	-13.0469
螫	-13.0473
蝗	-13.0476
桴	-13.0605
衘	-13.0607
襆	-13.0607
屼	-13.0607
躔	-13.0608
賖	-13.0612
忭	-13.0614
檝	-13.0615
頎	-13.0615
紘	-13.0615
慇	-13.0615
蚕	-13.0616
湻	-13.0616
廸	-13.0617
屁	-13.0617
歹	-13.0617
螂	-13.0617
幙	-13.0618
濮	-13.0618
体	-13.0619
菷	-13.0621
魑	-13.0621
䆳	-13.0749
鷯	-13.0751
愬	-13.0754
擠	-13.0754
+	-13.0755
屴	-13.0756
肄	-13.0758
紡	-13.0762
瞰	-13.0763
黿	-13.0766
儺	-13.0767
邙	-13.0768
鐃	-13.0769
拷	-13.077
輭	-13.0774
醪	-13.0776
柈	-13.0782
勷	-13.0908
瑋	-13.0911
円	-13.0912
峴	-13.0912
穰	-13.0913
痰	-13.0915
飧	-13.0915
袛	-13.0916
盎	-13.0916
噤	-13.0916
刎	-13.0916
騖	-13.0918
猢	-13.0919
墩	-13.0919
𤓰	-13.0919
坌	-13.0921
瀹	-13.0923
晞	-13.0923
蓁	-13.0924
愀	-13.0926
飰	-13.093
殯	-13.093
芰	-13.1064
乹	-13.1066
沅	-13.1069
珀	-13.1069
𠬧	-13.1071
媼	-13.1074
澣	-13.1075
軃	-13.1075
媧	-13.1075
哪	-13.1076
孥	-13.1076
嶄	-13.1076
湥	-13.1077
灔	-13.1077
淦	-13.1078
窬	-13.1079
褻	-13.1079
殤	-13.108
莘	-13.1082
跏	-13.1202
鷦	-13.1216
譖	-13.1218
昜	-13.1225
穠	-13.1225
驂	-13.1226
粽	-13.1233
嵌	-13.1233
羿	-13.1233
嚚	-13.1234
褰	-13.1234
虬	-13.1235
鮎	-13.1237
轄	-13.1238
欻	-13.1241
蛀	-13.1244
嚩	-13.1248
榑	-13.1382
嬈	-13.1382
#	-13.1382
G	-13.1382
厘	-13.1388
筦	-13.1388
夸	-13.1389
牋	-13.139
斾	-13.1391
揵	-13.1393
离	-13.1393
塾	-13.1394
埶	-13.1394
悌	-13.1394
巵	-13.1394
譙	-13.1394
倨	-13.1395
鰍	-13.1397
㲲	-13.1397
𤠔	-13.1399
嗒	-13.1399
邠	-13.1401
楯	-13.1401
泪	-13.1403
哈	-13.1403
鱍	-13.1403
譫	-13.1404
燮	-13.1552
罟	-13.1552
勻	-13.1555
舠	-13.1556
衽	-13.1556
遄	-13.1556
鞅	-13.1556
嗇	-13.1557
桼	-13.1557
啊	-13.1557
侫	-13.1558
筞	-13.1558
涴	-13.1558
瞢	-13.1559
穡	-13.156
齖	-13.156
醞	-13.156
泚	-13.1561
酤	-13.1561
醺	-13.1561
臬	-13.1562
蜒	-13.1563
輞	-13.1564
饍	-13.157
莢	-13.1716
薤	-13.1721
煢	-13.1722
踣	-13.1722
叡	-13.1723
圯	-13.1723
嶾	-13.1725
虻	-13.1725
􂸨	-13.1726
􂗘	-13.1726
餕	-13.1727
賄	-13.1727
幀	-13.1728
蕙	-13.1729
粤	-13.173
枳	-13.1734
鞲	-13.1886
󷕕	-13.1889
啝	-13.189
圚	-13.189
邴	-13.189
薌	-13.1892
瞶	-13.1892
徭	-13.1892
箏	-13.1892
崧	-13.1892
罐	-13.1893
煬	-13.1894
恊	-13.1894
蕚	-13.1896
殂	-13.1897
苫	-13.1898
糅	-13.1898
聶	-13.1898
𠰒	-13.1899
慼	-13.19
蠓	-13.1901
鼐	-13.2053
卮	-13.206
从	-13.206
𢋫	-13.206
跼	-13.2061
槵	-13.2063
𡨥	-13.2063
樺	-13.2064
焙	-13.2065
袟	-13.2065
猻	-13.2066
崒	-13.2066
▲	-13.2067
襠	-13.2068
𣔻	-13.2068
𤺊	-13.2069
粱	-13.207
酩	-13.207
鞫	-13.207
挖	-13.2071
厖	-13.2073
㪯	-13.2083
弇	-13.2232
蕘	-13.2235
駮	-13.2236
枵	-13.2239
愉	-13.2241
櫟	-13.2241
戞	-13.2242
瀲	-13.2242
鴦	-13.2242
磻	-13.2243
黻	-13.2243
恱	-13.2244
厝	-13.2247
黐	-13.2247
崕	-13.2248
枋	-13.2248
窯	-13.225
憒	-13.2251
睢	-13.2252
螟	-13.2254
藁	-13.2256
湜	-13.2395
銑	-13.2401
檣	-13.2413
瞚	-13.2414
菁	-13.2415
醎	-13.2416
竆	-13.2419
疚	-13.2419
洸	-13.242
棍	-13.242
錍	-13.242
狙	-13.2421
饘	-13.2421
蓽	-13.2422
姤	-13.2422
𩪸	-13.2422
酊	-13.2422
堠	-13.2423
疽	-13.2423
噲	-13.2423
贛	-13.2425
糕	-13.2425
鉞	-13.2426
僮	-13.2429
圅	-13.243
鬀	-13.2588
󳌤	-13.2597
癭	-13.2598
楠	-13.2598
虡	-13.2599
箔	-13.2599
擷	-13.26
蹌	-13.2601
𣲖	-13.2601
鉉	-13.2602
葊	-13.2602
篝	-13.2602
飥	-13.2603
耋	-13.2603
霹	-13.2604
䒢	-13.2604
搘	-13.2605
佀	-13.2605
孱	-13.2606
驩	-13.2608
蓊	-13.2609
熄	-13.261
瓌	-13.2767
昶	-13.2769
捃	-13.2776
喨	-13.2779
琈	-13.2781
簞	-13.2782
瓞	-13.2783
蔀	-13.2784
嬋	-13.2785
錚	-13.2785
磅	-13.2785
黲	-13.279
脗	-13.2791
簉	-13.2792
赶	-13.2794
郝	-13.2794
紈	-13.2797
玨	-13.2968
斐	-13.2968
熖	-13.2969
㲯	-13.297
廄	-13.297
鐔	-13.2971
菩	-13.2972
飴	-13.2974
菸	-13.2974
荄	-13.2974
蕺	-13.2975
悳	-13.2975
鸚	-13.2976
帋	-13.2976
塩	-13.2978
鷰	-13.2978
緋	-13.2979
昃	-13.298
皜	-13.298
潄	-13.2981
茯	-13.2982
揕	-13.2983
頋	-13.2984
憊	-13.2985
洊	-13.2986
𡚶	-13.2989
燾	-13.3005
郴	-13.3158
㦬	-13.3161
綃	-13.3164
徬	-13.3164
𠁼	-13.3165
璀	-13.3166
簦	-13.3166
漭	-13.3166
墊	-13.3167
韈	-13.3167
瘟	-13.3167
窪	-13.3167
棬	-13.3168
瓏	-13.3168
餚	-13.3169
騾	-13.3169
叠	-13.317
黽	-13.317
𥻘	-13.3172
聮	-13.3177
鈐	-13.3179
蝡	-13.3181
蹭	-13.3182
樾	-13.3353
奶	-13.3357
夯	-13.3358
軄	-13.3359
捿	-13.336
𤥎	-13.336
澇	-13.3364
饆	-13.3365
罸	-13.3365
歃	-13.3365
榔	-13.3365
酆	-13.3366
膨	-13.3366
瘵	-13.3366
纛	-13.3367
㗶	-13.3368
閘	-13.3368
悸	-13.3369
囷	-13.3371
蜩	-13.3371
帕	-13.3379
諉	-13.3382
惴	-13.3553
𠕋	-13.3556
溧	-13.3559
詡	-13.356
羆	-13.3561
硜	-13.3562
籲	-13.3565
崦	-13.3567
犇	-13.3568
圊	-13.3568
雋	-13.3569
蜣	-13.357
妓	-13.357
喎	-13.357
痿	-13.3571
圾	-13.3573
悰	-13.3576
茁	-13.376
閽	-13.376
堊	-13.3761
逭	-13.3761
璚	-13.3762
榕	-13.3764
俶	-13.3764
跖	-13.3764
歔	-13.3764
綆	-13.3765
糴	-13.3766
峇	-13.3768
犧	-13.3768
輅	-13.3768
釁	-13.3769
菔	-13.377
迁	-13.377
摽	-13.3771
椘	-13.3773
鋌	-13.3773
糙	-13.3773
靳	-13.3774
煽	-13.3774
斸	-13.3775
鷸	-13.3775
趲	-13.3776
褚	-13.3777
𤇆	-13.3778
淊	-13.3778
鍚	-13.3778
臚	-13.3779
禠	-13.3779
縝	-13.3781
鐼	-13.379
畆	-13.3791
艤	-13.3966
掜	-13.3968
嘷	-13.3968
􃂁	-13.3971
昕	-13.3972
𥉌	-13.3973
蹺	-13.3973
僣	-13.3974
淼	-13.3975
岧	-13.3976
奩	-13.3976
疴	-13.3978
躄	-13.3978
砫	-13.3978
檎	-13.398
髦	-13.3983
沁	-13.3983
􂸺	-13.3983
皚	-13.3986
莠	-13.3987
鍪	-13.4177
囦	-13.418
腎	-13.4182
苛	-13.4183
灜	-13.4185
嵬	-13.4186
嘛	-13.4186
揲	-13.4187
鎡	-13.4188
躚	-13.4189
郍	-13.419
匕	-13.4192
泒	-13.4192
睽	-13.4193
斕	-13.4194
嚲	-13.4194
剽	-13.4194
殮	-13.4194
瀘	-13.4195
夬	-13.4195
晳	-13.4196
廨	-13.4197
𡉏	-13.4198
𠾑	-13.4198
癰	-13.42
姮	-13.4202
坷	-13.4389
紱	-13.4397
斁	-13.44
槊	-13.4402
嗥	-13.4402
婿	-13.4402
碔	-13.4402
犒	-13.4402
䂓	-13.4404
喍	-13.4405
唆	-13.4405
椹	-13.4406
傝	-13.4406
鍔	-13.4407
慥	-13.4407
囪	-13.4407
欖	-13.4407
瀨	-13.4409
睇	-13.4409
馵	-13.4409
稊	-13.4411
掙	-13.4411
廐	-13.4411
瓴	-13.4412
狷	-13.4412
屩	-13.4413
攂	-13.4413
祜	-13.4415
揶	-13.4416
搴	-13.4417
𦏪	-13.4418
葑	-13.462
舸	-13.4621
睒	-13.4622
砆	-13.4625
謎	-13.4626
躐	-13.4627
沆	-13.4628
娓	-13.463
●	-13.463
糚	-13.463
凟	-13.463
翟	-13.4631
懆	-13.4631
鷃	-13.4631
痢	-13.4631
嶢	-13.4632
俻	-13.4633
迃	-13.4634
嚷	-13.4634
蒹	-13.4636
澱	-13.4838
珽	-13.4845
冏	-13.485
璠	-13.4851
杰	-13.4851
澦	-13.4852
軔	-13.4852
楨	-13.4853
㭊	-13.4853
騏	-13.4853
麇	-13.4853
燔	-13.4854
噀	-13.4855
嶪	-13.4855
媲	-13.4856
𢆯	-13.4856
鸕	-13.4858
蓂	-13.4858
恓	-13.4859
畚	-13.486
响	-13.486
蕋	-13.4861
蝣	-13.4864
吵	-13.4865
紿	-13.4867
喁	-13.487
慜	-13.5057
謖	-13.5069
諟	-13.5074
祺	-13.5077
喑	-13.5079
𢼿	-13.508
槳	-13.5081
扆	-13.5083
琉	-13.5086
撅	-13.5087
遴	-13.5087
遝	-13.5088
橄	-13.5088
揉	-13.5089
曄	-13.509
皦	-13.509
謊	-13.5091
𢁈	-13.5091
殢	-13.5091
辤	-13.5092
坏	-13.5092
羇	-13.5092
盇	-13.5092
𨽻	-13.5093
組	-13.5094
窣	-13.5094
麫	-13.5094
楂	-13.5096
鏖	-13.5099
惇	-13.51
耍	-13.5101
岵	-13.5101
柵	-13.5102
竽	-13.5316
齓	-13.532
㨗	-13.532
倭	-13.5321
睥	-13.5321
䘖	-13.5324
縶	-13.5324
櫱	-13.5324
獺	-13.5325
􂎫	-13.5325
笆	-13.5325
淇	-13.5325
腆	-13.5326
唫	-13.5327
邛	-13.5327
𢖍	-13.5327
哇	-13.5328
䆿	-13.5328
蠆	-13.5328
沄	-13.5329
羖	-13.5329
帡	-13.5329
蠒	-13.533
蜿	-13.5331
牗	-13.5332
怍	-13.5333
韙	-13.5334
氓	-13.5334
肫	-13.5334
担	-13.5334
玲	-13.5335
飱	-13.5335
迯	-13.5336
芷	-13.5336
翛	-13.555
壄	-13.5552
鬯	-13.5557
䨓	-13.5558
蹐	-13.556
暐	-13.556
摻	-13.5563
浥	-13.5566
珵	-13.5566
浯	-13.5568
閎	-13.5569
礴	-13.5569
饠	-13.557
炟	-13.557
覘	-13.557
嘍	-13.557
玟	-13.557
緻	-13.557
踽	-13.5572
舄	-13.5573
籙	-13.5573
㪍	-13.5574
殽	-13.5574
窶	-13.5574
睠	-13.5575
瞇	-13.5575
扠	-13.5575
斆	-13.5577
蔾	-13.5577
剳	-13.5577
票	-13.5577
蝟	-13.5578
脝	-13.5578
綦	-13.5578
㗋	-13.558
僦	-13.5581
豏	-13.5582
菰	-13.5582
𨚗	-13.5582
刲	-13.5582
齔	-13.5584
𥟖	-13.5586
璟	-13.5802
詖	-13.5805
軰	-13.5805
𩍁	-13.5807
􂗆	-13.5809
䫫	-13.581
亾	-13.5812
泬	-13.5815
鑱	-13.5815
䧟	-13.5816
弢	-13.5816
磧	-13.5817
䖃	-13.5818
抃	-13.5819
儗	-13.582
㽞	-13.582
儆	-13.582
憮	-13.5821
埒	-13.5822
耒	-13.5822
咤	-13.5823
餽	-13.5824
嚦	-13.5825
嗷	-13.5825
匋	-13.5826
閈	-13.5826
爕	-13.5827
穵	-13.5827
齬	-13.5828
櫳	-13.5828
鮫	-13.5828
悒	-13.5829
閼	-13.583
榱	-13.583
蒔	-13.5831
𪂶	-13.5832
棣	-13.5834
鞞	-13.5837
饅	-13.606
訒	-13.6063
玼	-13.6068
耦	-13.6069
眯	-13.6069
篥	-13.6072
宙	-13.6073
𢿨	-13.6073
隼	-13.6074
枿	-13.6074
􂔓	-13.6075
雘	-13.6075
贜	-13.6075
妳	-13.6076
鬲	-13.6077
晰	-13.608
盋	-13.608
姹	-13.608
尠	-13.6081
瘋	-13.6082
蠛	-13.6082
闋	-13.6083
謇	-13.6084
俐	-13.6084
韵	-13.6085
孛	-13.6086
膞	-13.6086
闚	-13.6087
鄣	-13.6088
羺	-13.6093
嵕	-13.6299
弌	-13.6315
珉	-13.6328
肓	-13.633
甍	-13.6331
忡	-13.6332
襦	-13.6333
瑰	-13.6334
鑌	-13.6336
􂺗	-13.6338
仔	-13.6338
羙	-13.634
蝨	-13.634
𢌿	-13.6341
𣯧	-13.6341
鶤	-13.6341
怳	-13.6342
鱔	-13.6343
縞	-13.6343
頏	-13.6344
𦊱	-13.6345
圄	-13.6346
甃	-13.6346
櫻	-13.6346
豢	-13.6347
穉	-13.6349
櫛	-13.6353
燠	-13.6353
喂	-13.6597
蟋	-13.6601
姨	-13.6605
崢	-13.6605
鼙	-13.6605
蠃	-13.6605
薊	-13.6606
迍	-13.6606
頞	-13.6606
鄔	-13.6607
螿	-13.6607
傋	-13.6608
桔	-13.6608
駈	-13.6609
泌	-13.6609
詁	-13.661
檮	-13.661
魈	-13.6611
詒	-13.6612
掄	-13.6614
膴	-13.6614
敻	-13.6614
囹	-13.6614
閥	-13.6615
僑	-13.6615
歘	-13.6615
埠	-13.6615
壎	-13.6617
㒹	-13.662
綟	-13.6623
吮	-13.6626
憬	-13.6628
莂	-13.6796
𦙆	-13.6855
𧺆	-13.6874
寉	-13.6876
簋	-13.6877
菑	-13.688
鑣	-13.688
珥	-13.6882
蹏	-13.6882
臝	-13.6882
蹁	-13.6882
荎	-13.6883
􂎶	-13.6884
篛	-13.6884
贐	-13.6884
焯	-13.6885
螭	-13.6885
臾	-13.6886
獮	-13.6886
涽	-13.6886
埴	-13.6886
栴	-13.6887
鴒	-13.6887
濆	-13.6888
趄	-13.6888
櫬	-13.6889
釰	-13.6889
􂱻	-13.6889
蘩	-13.6889
隤	-13.6889
矦	-13.6889
陝	-13.689
澎	-13.6891
眄	-13.6891
沗	-13.6892
醮	-13.6893
齟	-13.6894
胔	-13.6894
畎	-13.6895
笨	-13.6895
堡	-13.6896
韲	-13.6897
躘	-13.6899
唔	-13.69
餮	-13.6902
坂	-13.6905
浼	-13.6907
鄆	-13.7166
麴	-13.7167
瑳	-13.7169
儿	-13.717
蹂	-13.7171
皿	-13.7171
劓	-13.7172
諤	-13.7172
贗	-13.7172
絺	-13.7173
趼	-13.7173
𡾓	-13.7174
榍	-13.7176
狖	-13.7176
轝	-13.7177
⊙	-13.7177
幘	-13.7177
皃	-13.7178
獐	-13.7178
𡋯	-13.7178
搢	-13.7178
僂	-13.7178
笟	-13.718
㼾	-13.718
𧬊	-13.718
弈	-13.7181
篪	-13.7183
朞	-13.7184
𡒁	-13.7184
稾	-13.7187
禋	-13.7452
淖	-13.7453
倀	-13.7456
繾	-13.7459
暾	-13.7459
鍠	-13.746
蹕	-13.7461
悛	-13.7461
皙	-13.7462
惣	-13.7462
繙	-13.7463
鏑	-13.7463
篲	-13.7466
猙	-13.7466
譎	-13.7466
溲	-13.7467
䶥	-13.7467
􃄠	-13.7467
鑷	-13.7468
劊	-13.7469
噠	-13.7469
𠎝	-13.7469
嶔	-13.7469
躓	-13.7469
彗	-13.747
藺	-13.747
􃅄	-13.747
怫	-13.7471
朮	-13.7471
辝	-13.7472
𣜂	-13.7472
驄	-13.7472
垃	-13.7472
䬪	-13.7472
咷	-13.7473
舩	-13.7473
芭	-13.7473
嵂	-13.7473
筑	-13.7474
纊	-13.7474
㹅	-13.7475
魃	-13.7477
髠	-13.7477
戳	-13.7478
璵	-13.7479
恧	-13.7479
酋	-13.748
紬	-13.7481
肴	-13.7484
囤	-13.775
黌	-13.7757
摛	-13.7758
汐	-13.7761
磔	-13.7761
獬	-13.7764
摯	-13.7765
渦	-13.7766
詼	-13.7766
膻	-13.7768
𤀹	-13.7768
敖	-13.7769
箑	-13.777
娼	-13.7771
儋	-13.7772
蹣	-13.7773
痺	-13.7773
碪	-13.7774
鸛	-13.7775
櫪	-13.7776
尪	-13.7776
噦	-13.7778
窑	-13.7778
町	-13.7779
嶁	-13.7779
惋	-13.778
薀	-13.778
㶿	-13.7785
姉	-13.7793
棼	-13.8071
姁	-13.8073
旄	-13.8073
昰	-13.8075
婪	-13.8076
雰	-13.8078
洱	-13.8079
嵲	-13.808
燐	-13.8081
廋	-13.8081
湃	-13.8081
畀	-13.8081
褪	-13.8083
厂	-13.8083
斍	-13.8084
嬪	-13.8084
譾	-13.8084
瑚	-13.8084
璜	-13.8085
跺	-13.8086
号	-13.8086
媟	-13.8086
櫝	-13.8086
􂗷	-13.8087
彘	-13.8087
𦉑	-13.8088
跽	-13.8088
謄	-13.8089
妊	-13.8089
匈	-13.809
癹	-13.809
䬃	-13.8091
蕤	-13.8091
骯	-13.8093
酡	-13.8095
毉	-13.8099
𣵠	-13.8371
畋	-13.8391
∴	-13.8393
􂨊	-13.8396
阪	-13.8401
郯	-13.8403
枇	-13.8403
么	-13.8404
聡	-13.8404
𢷾	-13.8404
揎	-13.8405
愔	-13.8405
槲	-13.8406
褱	-13.8406
袵	-13.8406
奼	-13.8407
淞	-13.8407
孀	-13.8407
誐	-13.8407
恫	-13.8408
箠	-13.8408
鬅	-13.8408
芘	-13.8409
熚	-13.841
煜	-13.841
辞	-13.841
幬	-13.8412
髑	-13.8413
嗑	-13.8413
豌	-13.8413
卅	-13.8415
𤇅	-13.8415
闞	-13.8417
劋	-13.842
𡏖	-13.8422
䁀	-13.8724
𦚾	-13.8728
窹	-13.8731
嶸	-13.8731
慱	-13.8732
鮓	-13.8732
愨	-13.8732
齦	-13.8733
喈	-13.8734
氐	-13.8734
𢤱	-13.8735
廂	-13.8736
鶺	-13.8736
虩	-13.8737
蚓	-13.8737
狩	-13.8737
弥	-13.8738
鶵	-13.8739
袾	-13.8739
𣏌	-13.8739
繖	-13.8739
溍	-13.874
懡	-13.874
粃	-13.8741
檛	-13.8741
𨦵	-13.8742
榷	-13.8743
⊕	-13.8744
𠯗	-13.8744
麒	-13.8744
趠	-13.8746
咱	-13.8747
咭	-13.8747
嵎	-13.8748
听	-13.8749
彿	-13.875
搐	-13.8751
鵷	-13.8751
簀	-13.8753
􂌞	-13.8754
蛉	-13.8754
覦	-13.876
㗻	-13.9056
𨗉	-13.9059
嵆	-13.9071
㱃	-13.9072
凰	-13.9072
遒	-13.9074
匼	-13.9074
䢴	-13.9074
圉	-13.9075
𠫵	-13.9078
㑃	-13.9078
蕳	-13.9079
夌	-13.9079
髡	-13.9079
楣	-13.9079
礲	-13.9081
捂	-13.9082
擸	-13.9082
蒨	-13.9082
蕕	-13.9083
髀	-13.9083
蓴	-13.9084
赭	-13.9084
慤	-13.9084
唬	-13.9084
柢	-13.9085
掗	-13.9086
拐	-13.9087
瓷	-13.9087
痘	-13.9087
𢈔	-13.9089
苻	-13.909
櫩	-13.909
讌	-13.9091
泫	-13.9093
㪷	-13.9093
澌	-13.9094
坳	-13.9098
羔	-13.9099
嶤	-13.9419
澷	-13.9427
臰	-13.9429
楩	-13.9432
蔌	-13.9433
禴	-13.9434
誄	-13.9434
尫	-13.9435
条	-13.9435
鏞	-13.9437
柸	-13.9438
硎	-13.9438
辠	-13.9439
减	-13.944
筀	-13.944
仃	-13.9441
􃄞	-13.9442
帘	-13.9442
儷	-13.9442
挍	-13.9442
鑐	-13.9443
壠	-13.9443
蠖	-13.9444
踼	-13.9445
爀	-13.9446
樟	-13.9446
欷	-13.9446
涿	-13.9449
瞭	-13.9449
槿	-13.9449
霪	-13.945
竢	-13.945
勍	-13.945
娜	-13.9451
枰	-13.9451
媾	-13.9451
縊	-13.9452
鴞	-13.9455
悻	-13.946
隗	-13.9785
蝀	-13.9799
璲	-13.9799
𠃵	-13.9801
踄	-13.9802
鈆	-13.9802
䥘	-13.9805
􂂋	-13.9806
煠	-13.9806
耜	-13.9806
𣤩	-13.9807
湎	-13.9807
竉	-13.9807
沍	-13.9807
巑	-13.9808
皞	-13.9808
焜	-13.9808
瞌	-13.9809
愓	-13.9809
𠒎	-13.9809
鵾	-13.9809
劻	-13.981
怵	-13.981
囅	-13.981
􂏬	-13.9811
桺	-13.9812
崐	-13.9813
𩔗	-13.9813
􃄝	-13.9814
曖	-13.9814
砰	-13.9814
掊	-13.9815
侑	-13.9815
𡟎	-13.9816
啑	-13.9816
𣯛	-13.9816
蚪	-13.9816
柺	-13.9817
総	-13.9817
褶	-13.9818
牾	-13.9819
憺	-13.9819
岣	-13.982
壒	-13.982
邕	-13.9821
俑	-13.9822
凂	-13.9823
胾	-13.9824
詺	-13.9825
幫	-13.9829
狽	-13.9836
瑃	-14.015
鎰	-14.0173
𧘂	-14.0176
𢷤	-14.0179
弍	-14.0181
睍	-14.0186
沚	-14.0188
畒	-14.0188
鰻	-14.0189
栝	-14.0189
嫚	-14.019
堙	-14.0191
搉	-14.0191
覉	-14.0193
𠂤	-14.0193
檠	-14.0193
𥳽	-14.0195
㬠	-14.0196
胼	-14.0197
墉	-14.0197
􂨘	-14.0198
篳	-14.0199
嫫	-14.0199
忩	-14.0199
狚	-14.02
氊	-14.02
翬	-14.02
媱	-14.02
陲	-14.0201
鑯	-14.0201
胚	-14.0201
牴	-14.0202
癲	-14.0202
髒	-14.0203
猝	-14.0203
豳	-14.0203
佔	-14.0203
黷	-14.0204
􂿃	-14.0207
秣	-14.0207
鬂	-14.0207
砲	-14.0208
划	-14.0211
汜	-14.0211
羼	-14.0216
賬	-14.0219
—	-14.0221
󳲳	-14.0533
薯	-14.0556
跫	-14.0583
嚝	-14.0584
斝	-14.0584
扮	-14.0585
帒	-14.0585
颿	-14.0586
巃	-14.0586
觕	-14.0588
鍧	-14.0588
畛	-14.0588
渫	-14.059
蚍	-14.0591
脯	-14.0592
叭	-14.0592
鋏	-14.0592
洼	-14.0593
諜	-14.0593
繰	-14.0594
扞	-14.0594
賍	-14.0594
旒	-14.0595
􃇠	-14.0595
𢌅	-14.0596
滏	-14.0596
瓛	-14.0597
犙	-14.0597
魘	-14.0597
徊	-14.0598
滉	-14.0598
眶	-14.0598
梔	-14.06
蚨	-14.0601
盱	-14.0603
枘	-14.0603
揞	-14.0604
𩗺	-14.0604
𡰱	-14.0604
縕	-14.0604
趒	-14.0605
灊	-14.0606
盔	-14.0607
睚	-14.0608
圻	-14.0609
䪺	-14.0611
𥗋	-14.0611
刧	-14.0612
峪	-14.0614
祲	-14.0615
珎	-14.0994
洟	-14.0998
貊	-14.1
蓏	-14.1001
縲	-14.1003
晁	-14.1004
阨	-14.1005
姝	-14.1005
戇	-14.1009
篡	-14.101
坯	-14.1012
𠎥	-14.1012
痂	-14.1012
剮	-14.1012
晢	-14.1013
岏	-14.1013
􂔮	-14.1013
闉	-14.1013
崘	-14.1013
皪	-14.1014
逍	-14.1014
旖	-14.1014
赳	-14.1014
茭	-14.1015
嚤	-14.1015
髿	-14.1015
寖	-14.1017
昵	-14.1017
坍	-14.1017
讙	-14.1017
弑	-14.1018
𢬟	-14.102
䕢	-14.102
崟	-14.1022
祔	-14.1022
肐	-14.1022
壩	-14.1023
很	-14.1024
緱	-14.1024
焞	-14.1026
蜾	-14.1026
硤	-14.1028
虢	-14.1028
扒	-14.1029
鍤	-14.1029
姙	-14.1029
嗹	-14.103
薺	-14.1033
硿	-14.1036
欞	-14.1429
鍥	-14.1431
􂨿	-14.1431
枌	-14.1435
鵡	-14.1437
榖	-14.1437
曈	-14.1437
玳	-14.1438
膱	-14.1439
黥	-14.1439
呶	-14.1439
蜺	-14.144
槔	-14.1441
砑	-14.1441
閾	-14.1443
賂	-14.1443
琯	-14.1443
奭	-14.1443
譍	-14.1444
鷇	-14.1444
椉	-14.1445
㶑	-14.1445
芾	-14.1446
瀠	-14.1446
􃅓	-14.1446
靘	-14.1447
兗	-14.1447
旎	-14.1448
汛	-14.1448
菀	-14.1448
㟮	-14.1449
垜	-14.1449
雇	-14.1449
沴	-14.145
擄	-14.1451
羝	-14.1451
紉	-14.1452
喔	-14.1452
蔆	-14.1452
炅	-14.1453
渧	-14.1454
蝌	-14.1454
穸	-14.1454
飇	-14.1455
瀼	-14.1456
慴	-14.1456
蝮	-14.1456
赬	-14.1457
螣	-14.1457
鱸	-14.1458
飩	-14.1458
潁	-14.1459
嗌	-14.1459
粢	-14.1461
螽	-14.1461
諵	-14.1463
蛄	-14.1463
􂨭	-14.1465
襂	-14.1467
还	-14.1478
紲	-14.1884
灃	-14.1887
揠	-14.1888
捬	-14.189
繄	-14.1891
暠	-14.1893
涬	-14.1895
獍	-14.1896
饞	-14.1897
鱷	-14.1898
乩	-14.1899
踖	-14.1899
𧏙	-14.1901
鋣	-14.1901
柚	-14.1902
帩	-14.1902
飃	-14.1902
蟭	-14.1903
酖	-14.1903
欛	-14.1903
鳬	-14.1904
鵒	-14.1904
囁	-14.1905
膂	-14.1906
崿	-14.1907
欸	-14.1907
舲	-14.1907
宂	-14.1907
挪	-14.1907
灤	-14.1908
泱	-14.1909
謴	-14.1909
𥋾	-14.191
鴝	-14.191
佟	-14.1911
鏹	-14.1911
鈕	-14.1912
遢	-14.1913
忪	-14.1913
鎬	-14.1915
楸	-14.1916
圮	-14.1916
軆	-14.1916
漈	-14.1916
懨	-14.1917
机	-14.1922
瘤	-14.2352
瀫	-14.2359
腪	-14.2359
讋	-14.2363
甆	-14.2364
澳	-14.2367
傴	-14.2369
𥿄	-14.237
欃	-14.2371
撙	-14.2371
袈	-14.2372
壖	-14.2373
継	-14.2373
衮	-14.2373
眥	-14.2373
癈	-14.2375
罌	-14.2375
􂨰	-14.2375
踔	-14.2375
擐	-14.2376
鬐	-14.2376
嚆	-14.2376
㓟	-14.2376
窀	-14.2377
顇	-14.2377
擭	-14.2377
磽	-14.2377
蒯	-14.2377
穨	-14.2378
剺	-14.2378
庀	-14.2378
塿	-14.238
󱢴	-14.238
晌	-14.2381
塍	-14.2381
偲	-14.2382
坭	-14.2382
濘	-14.2383
誶	-14.2384
菅	-14.2384
菉	-14.2385
䖝	-14.2385
娉	-14.2385
綑	-14.2386
涖	-14.2386
靶	-14.2386
祧	-14.2387
饜	-14.2387
颶	-14.2388
邋	-14.2389
点	-14.2389
駄	-14.2392
讟	-14.2393
跚	-14.2394
騭	-14.2394
薉	-14.2394
溘	-14.2395
籐	-14.2396
袤	-14.2396
懣	-14.2397
𨓍	-14.2402
圞	-14.2859
騶	-14.2863
餤	-14.2864
搨	-14.2867
佘	-14.2867
咥	-14.2867
􃌯	-14.2868
网	-14.2868
獪	-14.2868
鸜	-14.2869
噥	-14.287
焂	-14.287
玖	-14.287
霂	-14.2872
󲣅	-14.2872
葚	-14.2872
儵	-14.2873
鵽	-14.2874
霔	-14.2875
隩	-14.2875
衹	-14.2876
跧	-14.2876
僜	-14.2877
倥	-14.2877
掾	-14.2877
貔	-14.2877
擈	-14.2878
􃄴	-14.2878
𩨘	-14.2879
岠	-14.2879
臽	-14.2879
抅	-14.2879
罍	-14.288
袚	-14.288
𢗅	-14.288
矱	-14.288
矬	-14.288
㝹	-14.2882
傜	-14.2882
胍	-14.2882
齣	-14.2882
􂸖	-14.2883
确	-14.2883
檳	-14.2883
襵	-14.2883
剸	-14.2883
􂆐	-14.2883
倆	-14.2883
蹀	-14.2884
蚰	-14.2884
鈿	-14.2884
慝	-14.2885
棉	-14.2885
痍	-14.2886
礵	-14.2886
蟊	-14.2887
笄	-14.2887
雩	-14.2888
餛	-14.2888
饔	-14.2889
堋	-14.2889
綈	-14.289
𠷣	-14.289
詛	-14.2892
蹱	-14.2893
觳	-14.2893
蠎	-14.2895
偁	-14.2895
踉	-14.2895
竑	-14.2895
瀇	-14.2896
殳	-14.2897
篴	-14.2898
𠴨	-14.2899
潬	-14.2901
讜	-14.2903
璡	-14.3357
侁	-14.3364
倧	-14.3367
术	-14.3367
圌	-14.338
垕	-14.3384
螮	-14.3391
滙	-14.3392
敔	-14.3393
恝	-14.3394
鈷	-14.3394
箄	-14.3395
鵂	-14.3396
逖	-14.3397
獒	-14.3398
𢣾	-14.3399
宷	-14.3399
卬	-14.34
詿	-14.34
􂸝	-14.34
玹	-14.3401
韭	-14.3402
呰	-14.3402
驍	-14.3402
沬	-14.3403
坻	-14.3403
鬖	-14.3404
鋾	-14.3404
貅	-14.3404
洫	-14.3405
訇	-14.3405
枻	-14.3405
鞘	-14.3405
絜	-14.3406
禫	-14.3406
緗	-14.3406
嚅	-14.3406
湢	-14.3409
壼	-14.3409
姧	-14.3409
氀	-14.341
玡	-14.341
箝	-14.341
䬸	-14.341
寀	-14.341
檉	-14.3411
𠢐	-14.3411
趦	-14.3411
刓	-14.3411
鬙	-14.3411
殲	-14.3412
瞍	-14.3412
瘼	-14.3412
鱠	-14.3412
䰟	-14.3412
瓘	-14.3413
雱	-14.3413
芎	-14.3414
穟	-14.3415
挕	-14.3415
紕	-14.3416
灞	-14.3416
琭	-14.3418
蟣	-14.3418
蟪	-14.3419
疹	-14.342
嶧	-14.3431
𡨢	-14.3902
誧	-14.3934
屾	-14.394
劭	-14.3941
櫜	-14.3945
琚	-14.3945
酹	-14.3946
嵷	-14.3946
諏	-14.3947
唶	-14.3947
澮	-14.395
觝	-14.3952
䠶	-14.3952
唁	-14.3953
䥴	-14.3953
醃	-14.3953
罾	-14.3954
岊	-14.3954
浡	-14.3955
殛	-14.3956
琖	-14.3956
搪	-14.3956
靨	-14.3957
餺	-14.3957
𠇾	-14.3957
𣰦	-14.3958
腊	-14.3958
艨	-14.3958
粜	-14.3958
鬔	-14.3959
劾	-14.3959
𡁠	-14.396
颷	-14.3962
簥	-14.3962
㞧	-14.3962
鍍	-14.3962
胖	-14.3963
尢	-14.3963
杇	-14.3963
槧	-14.3963
鞾	-14.3963
簍	-14.3964
忮	-14.3965
疄	-14.3965
唏	-14.3965
㯶	-14.3965
裱	-14.3965
緞	-14.3965
􃌛	-14.3967
褦	-14.3969
醨	-14.397
凾	-14.397
罡	-14.397
壚	-14.3971
歠	-14.3972
鷁	-14.3972
暀	-14.3975
諼	-14.3976
𨓦	-14.3976
譒	-14.3977
嵊	-14.398
衩	-14.3981
靛	-14.3982
斋	-14.3991
勣	-14.3992
奫	-14.4488
礨	-14.4523
嶴	-14.453
葫	-14.4534
瑀	-14.4536
釗	-14.4536
荃	-14.4538
璸	-14.454
呴	-14.4541
趑	-14.4541
倬	-14.4542
殍	-14.4542
綌	-14.4542
戡	-14.4542
旰	-14.4543
嫠	-14.4544
郟	-14.4544
棐	-14.4544
餖	-14.4544
悕	-14.4545
裷	-14.4545
鋐	-14.4546
􃅟	-14.4546
瀣	-14.4546
襃	-14.4546
洮	-14.4546
墁	-14.4547
菠	-14.4547
􂺆	-14.4547
𢡽	-14.4547
艘	-14.4548
攏	-14.4549
呦	-14.4549
轕	-14.455
觥	-14.455
兖	-14.455
褭	-14.455
絏	-14.455
輶	-14.455
伙	-14.4551
鯰	-14.4552
䖟	-14.4552
衺	-14.4553
棓	-14.4553
麂	-14.4553
哨	-14.4554
欏	-14.4555
鉼	-14.4555
艫	-14.4555
呸	-14.4555
醆	-14.4555
蠍	-14.4556
姆	-14.4556
􂉼	-14.4556
𨜶	-14.4557
𧆞	-14.4557
◎	-14.4558
劖	-14.4559
蜢	-14.4559
䨥	-14.456
莅	-14.456
壻	-14.4561
旟	-14.4562
豉	-14.4565
諓	-14.4566
佢	-14.4566
勌	-14.4567
鐍	-14.4567
秫	-14.4568
轔	-14.4576
􃅜	-14.5149
韡	-14.5152
鮦	-14.5152
憋	-14.5157
銼	-14.5157
梩	-14.5158
澬	-14.5158
汋	-14.5161
隲	-14.5161
蕞	-14.5163
瑁	-14.5163
濩	-14.5164
詘	-14.5164
蟥	-14.5164
罤	-14.5164
亶	-14.5166
厪	-14.5166
䩫	-14.5166
侏	-14.5166
冪	-14.5167
𥅄	-14.5167
湔	-14.5168
籧	-14.5169
僨	-14.5169
紵	-14.517
靻	-14.517
礚	-14.5171
㡧	-14.5171
偎	-14.5171
烙	-14.5172
璁	-14.5172
𨔝	-14.5172
粖	-14.5173
歒	-14.5173
硐	-14.5174
棰	-14.5174
􂗰	-14.5174
鋋	-14.5175
舳	-14.5175
𡨔	-14.5175
汭	-14.5175
啍	-14.5176
俘	-14.5177
迕	-14.5177
𣍘	-14.5178
埭	-14.5178
􂁭	-14.5178
􂑓	-14.5179
㳷	-14.5179
􂸽	-14.5179
彔	-14.5179
荇	-14.518
鉆	-14.518
畸	-14.518
酎	-14.5181
凴	-14.5184
􂂈	-14.5184
瘍	-14.5184
柎	-14.5185
炉	-14.5186
柤	-14.5186
煗	-14.5186
輊	-14.5186
澶	-14.5187
篨	-14.5189
𡶨	-14.519
炕	-14.5191
咻	-14.5192
罳	-14.5192
鄖	-14.5223
湞	-14.5807
蚿	-14.5816
礭	-14.5818
耔	-14.582
郛	-14.5822
玭	-14.5824
𠠢	-14.5825
戩	-14.5825
𦝫	-14.5826
噹	-14.5826
犗	-14.5827
耎	-14.5827
徠	-14.5829
皡	-14.5829
蕢	-14.5829
􂘒	-14.5829
𠇲	-14.583
㴾	-14.5831
薅	-14.5831
燖	-14.5832
勱	-14.5832
軛	-14.5833
狺	-14.5834
𦒿	-14.5834
鱣	-14.5834
轗	-14.5834
蘺	-14.5835
鏬	-14.5835
璩	-14.5836
矌	-14.5837
茙	-14.5838
萇	-14.5838
腠	-14.5838
啉	-14.5839
嵇	-14.5839
譸	-14.584
惷	-14.5841
𡱁	-14.5841
糗	-14.5841
筇	-14.5841
嚎	-14.5841
蹩	-14.5842
𪅎	-14.5842
愎	-14.5842
䑳	-14.5843
慽	-14.5843
噱	-14.5843
旴	-14.5844
謷	-14.5844
漻	-14.5844
抨	-14.5844
䆫	-14.5845
揪	-14.5846
陏	-14.5847
呫	-14.5848
伉	-14.5848
爼	-14.5849
閹	-14.5849
簁	-14.5849
菘	-14.5849
軿	-14.585
矒	-14.585
􂔞	-14.5851
匃	-14.5852
酲	-14.5852
仿	-14.5853
蒜	-14.5854
枸	-14.5854
囮	-14.5854
蝙	-14.5854
煐	-14.5856
㽄	-14.5882
璝	-14.6517
瀧	-14.6535
弰	-14.6536
􃄜	-14.6537
碙	-14.654
䘏	-14.654
蟺	-14.6541
艟	-14.6542
鸇	-14.6543
矓	-14.6543
𠬛	-14.6544
坰	-14.6545
狤	-14.6545
篠	-14.6545
僇	-14.6545
澒	-14.6545
𨷖	-14.6546
􃆘	-14.6546
㜑	-14.6546
芦	-14.6547
餔	-14.6547
𨫼	-14.6547
眙	-14.6548
𦬆	-14.6548
窰	-14.6549
徣	-14.6549
惄	-14.6549
鷙	-14.655
栻	-14.655
枹	-14.6551
􂞺	-14.6551
=	-14.6551
椏	-14.6552
朣	-14.6552
芡	-14.6552
悝	-14.6553
贔	-14.6553
􃏧	-14.6553
枮	-14.6553
玦	-14.6553
盹	-14.6554
磎	-14.6554
籹	-14.6554
󳵥	-14.6554
嗶	-14.6554
礄	-14.6554
搵	-14.6555
罨	-14.6555
頊	-14.6555
璐	-14.6556
恛	-14.6556
􂍊	-14.6556
綍	-14.6556
鬭	-14.6556
厰	-14.6557
紇	-14.6557
𢮁	-14.6557
鼗	-14.6557
媛	-14.6557
犛	-14.6557
掁	-14.6557
孾	-14.6557
髽	-14.6557
崫	-14.6557
鄠	-14.6558
亳	-14.6558
玎	-14.6558
頵	-14.6559
晬	-14.6559
曏	-14.6559
婇	-14.6559
𡨋	-14.656
獼	-14.656
獷	-14.656
痁	-14.656
嘅	-14.656
庿	-14.656
焭	-14.6561
尔	-14.6561
跕	-14.6561
憃	-14.6562
㒒	-14.6562
磲	-14.6563
賻	-14.6564
瓿	-14.6564
狴	-14.6564
羂	-14.6564
磈	-14.6565
躇	-14.6566
稂	-14.6566
俳	-14.6566
曀	-14.6566
𨦣	-14.6568
矰	-14.6568
𥻿	-14.6568
釃	-14.6569
㘭	-14.6569
螗	-14.6569
簏	-14.6569
垤	-14.6569
罘	-14.6569
嵫	-14.6569
詨	-14.6572
閗	-14.6574
絣	-14.6574
醅	-14.6574
紓	-14.6579
幌	-14.658
躃	-14.6584
瀞	-14.7282
雯	-14.7286
酇	-14.7292
惽	-14.7302
耬	-14.7302
鞀	-14.7303
氾	-14.7304
陔	-14.7305
娣	-14.7305
姒	-14.7305
㦸	-14.7305
茜	-14.7306
飂	-14.7306
珩	-14.7307
霙	-14.7308
蹻	-14.7309
睟	-14.7309
繘	-14.7309
𦭘	-14.731
踹	-14.731
篔	-14.731
芮	-14.7311
敶	-14.7311
悾	-14.7312
堇	-14.7312
摗	-14.7312
𢙢	-14.7313
囈	-14.7314
𦿆	-14.7314
纚	-14.7315
僃	-14.7315
貉	-14.7316
腲	-14.7316
糉	-14.7317
挼	-14.7318
揬	-14.7318
傀	-14.7318
𩕳	-14.7318
撘	-14.7318
茱	-14.7318
𧉮	-14.7318
麢	-14.7318
㕍	-14.7319
毸	-14.7319
塏	-14.7319
蘷	-14.7319
黮	-14.7319
𩃱	-14.7319
虓	-14.732
轇	-14.732
卹	-14.7321
靚	-14.7321
儓	-14.7321
欿	-14.7322
𥈅	-14.7323
扙	-14.7323
嵳	-14.7323
殀	-14.7324
􂚋	-14.7324
洣	-14.7324
㠟	-14.7324
胆	-14.7324
鮒	-14.7324
閿	-14.7324
葳	-14.7325
𠺗	-14.7325
覤	-14.7326
繂	-14.7326
幖	-14.7326
喿	-14.7326
瑠	-14.7327
鄷	-14.7327
找	-14.7327
撗	-14.7328
幗	-14.7328
迮	-14.7329
硨	-14.7329
畞	-14.7329
猋	-14.733
巟	-14.733
揳	-14.733
湓	-14.733
𠙥	-14.7331
伫	-14.7331
惔	-14.7331
抔	-14.7331
嫖	-14.7331
勠	-14.7331
赩	-14.7332
蛣	-14.7332
麞	-14.7333
𡽗	-14.7333
眈	-14.7333
譟	-14.7333
滃	-14.7333
尻	-14.7333
挅	-14.7334
趐	-14.7334
蝠	-14.7334
􃄟	-14.7334
𤾣	-14.7335
厶	-14.7335
◇	-14.7335
飋	-14.7335
枒	-14.7335
紼	-14.7337
蹡	-14.7338
愫	-14.7338
鳺	-14.7339
颭	-14.734
󱨊	-14.734
憙	-14.7341
邅	-14.7343
渢	-14.7344
𣽅	-14.7347
藎	-14.7347
盵	-14.7349
嚭	-14.7352
𧦬	-14.8091
瑗	-14.8135
愒	-14.8137
脰	-14.8137
頁	-14.8138
狶	-14.8138
僰	-14.814
疁	-14.814
湼	-14.8141
涷	-14.8142
蹢	-14.8143
𡄦	-14.8143
隖	-14.8143
愾	-14.8145
昴	-14.8146
驃	-14.8148
糯	-14.8148
氎	-14.8149
蠋	-14.8149
𠾐	-14.8149
蓀	-14.8151
慫	-14.8151
澠	-14.8151
鄏	-14.8151
郗	-14.8152
㭰	-14.8152
陊	-14.8153
楄	-14.8154
暪	-14.8154
絰	-14.8155
饙	-14.8155
琤	-14.8155
厀	-14.8155
焠	-14.8155
鵮	-14.8156
𧩙	-14.8156
㵣	-14.8156
㧓	-14.8157
嗢	-14.8157
澉	-14.8157
㶚	-14.8157
戱	-14.8158
垸	-14.8159
㲣	-14.816
滀	-14.816
輜	-14.8161
礽	-14.8161
仐	-14.8161
哿	-14.8162
昫	-14.8162
咈	-14.8162
痞	-14.8163
佺	-14.8163
褎	-14.8163
丆	-14.8164
隧	-14.8164
餗	-14.8164
𨦟	-14.8165
杴	-14.8165
莩	-14.8165
届	-14.8165
𤄃	-14.8165
匊	-14.8166
鏊	-14.8166
𧫡	-14.8168
燻	-14.8168
耡	-14.8169
癆	-14.817
虙	-14.817
熇	-14.817
􂺈	-14.8171
洑	-14.8171
摣	-14.8171
闒	-14.8172
潟	-14.8172
烯	-14.8174
攞	-14.8174
磑	-14.8174
旐	-14.8178
䌛	-14.8179
帮	-14.818
痠	-14.8182
揍	-14.8186
咋	-14.8188
嚀	-14.905
傯	-14.9055
䦹	-14.9059
䘳	-14.9059
䗶	-14.906
䓗	-14.9061
㖀	-14.9063
傒	-14.9064
䆮	-14.9065
㨿	-14.9069
勔	-14.9073
佾	-14.9077
傖	-14.9078
䤬	-14.9088
〇	-14.9094
蟆	-15.0065
裟	-15.0075
蚯	-15.1163
儡	-15.1201
擻	-15.3845
徘	-15.3852
靂	-15.3854
蟇	-15.3861
醐	-15.7483
餬	-15.7513
𨁝	-15.752
>	-16.333
醍	-16.8388
茴	-17.8336
踧	-17.8337
襶	-17.8338
齈	-17.8339
烊	-17.834
𦆆	-17.8341
遛	-17.8342
羑	-17.8343
栯	-17.8344
臙	-17.8345
栓	-17.8346
珈	-17.8347
嚨	-17.8348
􃄤	-17.8349
盝	-17.835
萵	-17.8351
蟀	-17.8352
嫦	-17.8353
蜊	-17.8354
瓈	-17.8355
琥	-17.8356
蜈	-17.8357
蚣	-17.8358
V	-17.8359
轤	-17.836
篌	-17.8361
蝍	-17.8362
䗫	-17.8363
*	-17.8364
|	-17.8364
