<unk>	0
<s>	0
</s>	0
,	-2.16045
。	-3.04653
者	-4.92908
、	-5.03389
:「	-5.05044
之	-5.23312
為	-5.25024
;	-5.29697
。」	-5.30231
不	-5.31363
:『	-5.31655
以	-5.4261
有	-5.49787
時	-5.54396
無	-5.56904
我	-5.61875
於	-5.63066
心	-5.67502
!	-5.69024
其	-5.69461
如	-5.7014
即	-5.70396
也	-5.71602
言	-5.73745
王	-5.7486
行	-5.76868
故	-5.78374
得	-5.79249
。』	-5.79657
而	-5.79954
此	-5.80469
人	-5.82231
佛	-5.82408
彼	-5.83304
?	-5.89236
是	-5.92936
已	-5.93134
生	-5.94145
身	-5.94348
所	-5.95462
諸	-5.97212
法	-5.97978
大	-6.00499
中	-6.01035
見	-6.01508
自	-6.02797
菩薩	-6.03409
爾時	-6.04013
如是	-6.05517
一	-6.07541
▁	-6.10839
欲	-6.13058
當	-6.21557
汝	-6.24958
若	-6.29312
等	-6.32938
相	-6.33385
出	-6.35489
復	-6.35619
一切	-6.35762
名	-6.36431
皆	-6.36967
能	-6.38892
意	-6.394
世尊	-6.40402
至	-6.41721
今	-6.41808
眾	-6.42879
眾生	-6.45046
作	-6.45562
從	-6.46467
與	-6.47913
曰	-6.48208
及	-6.48381
說	-6.48813
?」	-6.49815
來	-6.50016
道	-6.50257
。「	-6.50286
如來	-6.5102
令	-6.51586
上	-6.51609
處	-6.51708
太子	-6.52858
二	-6.53653
善	-6.53991
三	-6.54601
在	-6.54856
下	-6.5638
天	-6.56593
便	-6.57642
知	-6.58644
受	-6.60557
謂	-6.61794
或	-6.64064
入	-6.65428
亦	-6.66219
四	-6.66631
食	-6.69227
願	-6.70713
求	-6.7267
事	-6.72722
)	-6.72753
觀	-6.73697
子	-6.74506
比丘	-6.76065
盡	-6.76454
苦	-6.76599
樂	-6.78141
常	-6.78597
聞	-6.78746
可	-6.79104
非	-6.80561
(	-6.80564
語	-6.83342
前	-6.83778
明	-6.83965
因	-6.85284
應	-6.87011
?』	-6.88453
清淨	-6.88533
念	-6.89696
則	-6.90706
地	-6.90748
惡	-6.91791
多	-6.92637
施	-6.93905
還	-6.94365
供養	-6.95046
又	-6.96734
現	-6.96842
取	-6.96878
滅	-6.96991
起	-6.97736
後	-6.98606
世	-6.98875
吾	-7.00392
成	-7.00919
去	-7.01323
然	-7.01526
本	-7.01527
無有	-7.02104
使	-7.02497
智	-7.03405
乃	-7.04114
悉	-7.04836
國	-7.05345
住	-7.05363
持	-7.05503
死	-7.06802
難	-7.06886
何	-7.06893
共	-7.07059
勝	-7.07544
寶	-7.07598
力	-7.0793
用	-7.08791
將	-7.09067
正	-7.09196
經	-7.09391
捨	-7.09525
水	-7.0956
修	-7.09667
色	-7.10487
義	-7.1146
猶如	-7.11655
聲	-7.12174
世間	-7.13073
空	-7.13102
女	-7.13478
果	-7.15354
我今	-7.16004
往	-7.16125
師	-7.16235
解	-7.16472
度	-7.16794
各	-7.17893
出家	-7.18226
雖	-7.18328
著	-7.19148
教	-7.19489
重	-7.19588
日	-7.19665
五	-7.19945
隨	-7.20861
不能	-7.20904
過	-7.21215
離	-7.21721
報	-7.22066
命	-7.22083
必	-7.23354
云何	-7.23589
坐	-7.2508
戒	-7.25126
向	-7.25362
乃至	-7.26031
問	-7.26577
具	-7.28382
斷	-7.28612
種種	-7.29567
既	-7.29584
*	-7.29964
無量	-7.30763
尊	-7.30881
利	-7.3102
頭	-7.31634
除	-7.33607
光	-7.33701
先	-7.34652
華	-7.34797
功德	-7.34818
火	-7.3508
德	-7.3601
妙	-7.36209
淨	-7.36475
家	-7.37218
喻	-7.37362
愛	-7.3795
大王	-7.38042
母	-7.38718
樹	-7.39002
好	-7.39155
化	-7.39295
未	-7.3969
生死	-7.39745
業	-7.40218
父母	-7.40591
安	-7.41108
同	-7.4217
分	-7.42305
耶	-7.42318
定	-7.42631
智慧	-7.42977
唯	-7.43759
歡喜	-7.45208
神	-7.45736
具足	-7.45988
緣	-7.46837
。』「	-7.47363
內	-7.48436
白	-7.48989
發	-7.49428
梵志	-7.49454
到	-7.50182
深	-7.50195
實	-7.50411
邊	-7.50473
足	-7.51643
諸天	-7.52082
方	-7.52551
布施	-7.52613
門	-7.53003
是時	-7.53022
但	-7.5313
證	-7.53594
莫	-7.5409
稱	-7.54328
滿	-7.5443
極	-7.54563
有一	-7.54661
。】「	-7.54908
真	-7.55545
耳	-7.55917
俱	-7.5599
初	-7.56538
甚	-7.56564
更	-7.56635
象	-7.57263
種	-7.57318
獲	-7.57487
長者	-7.57738
信	-7.57812
斯	-7.58752
善男子	-7.58893
山	-7.59181
覺	-7.59232
猶	-7.59592
由	-7.59754
。」【	-7.5988
病	-7.59929
我等	-7.60513
七	-7.61042
婆羅門	-7.61996
聖	-7.62034
福	-7.62228
是故說曰	-7.62764
解脫	-7.63262
口	-7.63709
自在	-7.64031
小	-7.64364
形	-7.64369
是故	-7.64894
學	-7.65166
他	-7.65181
於是	-7.6521
不可	-7.66119
金	-7.66389
罪	-7.66465
汝等	-7.66934
龍	-7.67072
長	-7.67145
三昧	-7.67221
煩惱	-7.673
慧	-7.67352
失	-7.6744
轉	-7.67525
尋	-7.68003
貪	-7.68566
識	-7.68603
香	-7.68678
依	-7.68731
莊嚴	-7.69123
請	-7.6935
沙門	-7.69756
告	-7.70138
:「『	-7.70459
性	-7.70505
立	-7.70671
少	-7.70826
根	-7.71033
答言	-7.71697
體	-7.72195
眼	-7.72885
雨	-7.72981
廣	-7.73244
思惟	-7.7327
別	-7.73347
止	-7.73723
衣	-7.7373
爾	-7.7391
不得	-7.74221
外	-7.74352
八	-7.74356
流	-7.74438
矣	-7.75045
阿難	-7.75334
普	-7.75642
名曰	-7.76101
六	-7.76202
合	-7.76238
說法	-7.76679
歸	-7.76879
迦葉	-7.77154
想	-7.77155
成就	-7.77226
城	-7.77353
理	-7.77801
結	-7.77956
餘	-7.78811
喜	-7.79337
乎	-7.79439
主	-7.79568
即便	-7.79806
真實	-7.80733
羅	-7.80858
殺	-7.81292
光明	-7.81336
數	-7.81372
須	-7.81643
云	-7.8169
善哉	-7.82041
會	-7.82443
被	-7.82522
花	-7.82541
五百	-7.82557
馬	-7.82707
恒	-7.82916
奉	-7.83254
物	-7.84573
十	-7.84942
分別	-7.84975
皆悉	-7.85654
無所	-7.85808
夫	-7.86044
護	-7.8606
設	-7.86226
造	-7.87552
遠	-7.87618
手	-7.88632
詣	-7.89158
。△	-7.89743
年	-7.89745
獨	-7.90188
趣	-7.91351
諸佛	-7.91504
高	-7.91593
執	-7.91753
釋	-7.91793
自然	-7.91963
墮	-7.92206
弟子	-7.92681
恩	-7.92738
:	-7.92898
因緣	-7.93604
於彼	-7.9379
財	-7.93801
婦	-7.94066
致	-7.94362
所謂	-7.94377
思	-7.94475
志	-7.94737
飲食	-7.94786
。』」「	-7.9505
所有	-7.95649
夫人	-7.95685
月	-7.95867
昔	-7.96062
千	-7.96071
藏	-7.9621
精進	-7.96354
遠離	-7.96593
童子	-7.97374
照	-7.97396
毒	-7.97566
壞	-7.97812
兒	-7.98229
不知	-7.98571
亦不	-7.98766
情	-7.98957
散	-7.99111
動	-7.99366
仙人	-7.99785
懷	-8.00068
目	-8.00142
邪	-8.00571
乘	-8.00593
興	-8.006
之人	-8.00696
佛言	-8.00952
如此	-8.01276
魔	-8.01447
親	-8.01635
久	-8.01852
聽	-8.01922
覩	-8.02315
論	-8.02598
時彼	-8.02913
害	-8.02944
父	-8.02995
人民	-8.03513
棄	-8.03606
百	-8.03995
集	-8.04089
國王	-8.04111
居	-8.04571
通	-8.04765
陀	-8.05443
習	-8.05665
爾時世尊	-8.0608
異	-8.06107
微妙	-8.06132
路	-8.06406
那	-8.06539
開	-8.06611
近	-8.06819
劫	-8.07353
舍	-8.07373
摩	-8.0772
宮	-8.0788
速	-8.08853
復有	-8.08881
脫	-8.09017
染	-8.09045
涅槃	-8.09513
寂靜	-8.09521
放	-8.09703
怨	-8.09749
》	-8.09771
汝今	-8.09847
顯	-8.10154
今日	-8.10158
舉	-8.10496
方便	-8.10505
海	-8.10797
無常	-8.10936
或有	-8.11584
面	-8.11585
己	-8.11639
破	-8.11664
仁	-8.11796
息	-8.12118
譬如	-8.12325
計	-8.12617
加	-8.1277
攝	-8.13112
勅	-8.13157
始	-8.13265
正法	-8.13926
答	-8.13948
盛	-8.13971
風	-8.1398
一切眾生	-8.14074
次	-8.14124
遂	-8.1441
答曰	-8.14838
迦	-8.1493
三界	-8.14956
世界	-8.15042
敬	-8.15311
號	-8.15524
鬼	-8.1561
達	-8.15681
草	-8.15832
服	-8.16207
是故說	-8.16306
反	-8.16396
婆	-8.16504
濟	-8.1658
忍	-8.16657
夜	-8.1685
宜	-8.16876
之中	-8.17122
根本	-8.17169
佛告	-8.1722
神通	-8.17279
第一	-8.17542
菩提	-8.1777
卿	-8.17839
名為	-8.18154
十方	-8.18224
慈	-8.18357
白佛言	-8.18583
諸比丘	-8.19019
。」「	-8.19279
阿	-8.19394
兩	-8.19935
故云	-8.20176
變	-8.20434
於此	-8.20617
沒	-8.20766
患	-8.20977
車	-8.21044
無數	-8.2105
憂	-8.211
老	-8.21151
所以	-8.21212
亦復如是	-8.21774
鉢	-8.22043
瞋恚	-8.22174
治	-8.22532
供	-8.23064
遇	-8.23499
悲	-8.23526
適	-8.23531
字	-8.23584
遍	-8.23814
說偈言	-8.23838
僧	-8.239
誰	-8.23962
悟	-8.2404
臣	-8.24135
終	-8.24247
塵	-8.24416
歎	-8.24437
音	-8.24454
指	-8.25217
不見	-8.25252
今者	-8.25507
命終	-8.25595
禮	-8.25987
若有	-8.2609
大眾	-8.26146
尊者	-8.26455
眷屬	-8.26506
觀察	-8.26527
牛	-8.26586
宿	-8.26738
視	-8.2709
圓滿	-8.27371
類	-8.27459
要	-8.27708
和	-8.27878
大臣	-8.28033
之所	-8.28274
且	-8.28449
增	-8.28504
禪	-8.28889
惑	-8.29062
縛	-8.29468
界	-8.29625
作如是言	-8.29736
之法	-8.29767
勸	-8.29773
即是	-8.29839
愚	-8.30726
七寶	-8.30947
鹿	-8.30987
智者	-8.31151
藥	-8.31532
虛空	-8.31615
巳	-8.31746
覆	-8.31837
器	-8.31901
疾	-8.32079
進	-8.32668
修行	-8.32884
天子	-8.33055
舍利弗	-8.33479
位	-8.33573
過去	-8.33638
師子	-8.33685
示	-8.33713
顛倒	-8.33815
賢	-8.33854
書	-8.34285
疑	-8.34376
平等	-8.34925
益	-8.34936
辟支佛	-8.35993
之處	-8.36166
林	-8.36341
愚癡	-8.36416
境	-8.36548
提	-8.366
端正	-8.36648
恐怖	-8.36904
有情	-8.36971
感	-8.37223
燒	-8.37624
終不	-8.3772
凡	-8.38408
地獄	-8.38464
勿	-8.38711
亂	-8.39064
帝釋	-8.39189
安隱	-8.39744
持戒	-8.39783
違	-8.40257
天人	-8.40316
頌	-8.40394
悉皆	-8.40567
最	-8.40586
道人	-8.40704
值	-8.41026
眾人	-8.41259
無上	-8.41274
。「『	-8.41482
以為	-8.41531
品	-8.41672
當知	-8.41697
痛	-8.41756
壽	-8.41866
不生	-8.41955
守	-8.41976
果報	-8.42053
辭	-8.42389
七日	-8.42721
癡	-8.42841
順	-8.42896
我當	-8.42913
恐	-8.42966
味	-8.43268
遣	-8.4337
土	-8.43408
座	-8.43499
五欲	-8.43779
首	-8.43818
亦無	-8.43858
肉	-8.43887
寧	-8.44145
并	-8.44404
拔	-8.44417
救	-8.45026
甘露	-8.4532
波	-8.45497
又復	-8.45638
此是	-8.45976
所說	-8.46034
女人	-8.46107
之時	-8.46129
身體	-8.4614
各各	-8.46437
臥	-8.4655
對	-8.46875
調	-8.47057
積	-8.47313
故曰	-8.47428
嚴	-8.47641
文	-8.47978
強	-8.48421
苦行	-8.48423
及諸	-8.48709
仙	-8.48771
飲	-8.48835
垂	-8.49365
石	-8.49367
晝夜	-8.50096
賊	-8.50108
蓋	-8.50258
調伏	-8.50628
蓮華	-8.5067
望	-8.5089
福德	-8.51026
梵	-8.51082
恭敬	-8.51732
遊	-8.5212
聚	-8.52392
成佛	-8.52398
天下	-8.52488
直	-8.52985
王子	-8.53285
微	-8.53503
之心	-8.53514
雲	-8.53593
一人	-8.537
所作	-8.53733
畏	-8.53799
諦	-8.53833
尚	-8.53882
一一	-8.539
善根	-8.54045
民	-8.541
今此	-8.54187
而說偈言	-8.54268
見佛	-8.54374
九	-8.54415
毀	-8.54554
不淨	-8.54744
增上	-8.54803
比	-8.54852
乞	-8.54905
存	-8.55022
凡夫	-8.55046
自性	-8.5508
制	-8.551
迷	-8.55318
傷	-8.55392
園	-8.55402
障	-8.55516
竟	-8.55577
在於	-8.55604
《	-8.55758
呼	-8.55879
而不	-8.55906
人天	-8.55967
究竟	-8.56142
授	-8.56182
父王	-8.56216
塔	-8.56326
恚	-8.56857
于	-8.56946
二者	-8.57304
犯	-8.57313
降	-8.57444
邪見	-8.57526
忽	-8.57532
却	-8.5755
了	-8.57612
一者	-8.57802
難陀	-8.57877
苦惱	-8.58123
承	-8.5837
永	-8.58417
輪	-8.58443
而行	-8.58692
妄	-8.58697
觸	-8.58861
何故	-8.58936
絕	-8.59226
聲聞	-8.59323
尼	-8.59358
喚	-8.5944
髮	-8.59447
輕	-8.59466
珍寶	-8.59605
伏	-8.59702
是為	-8.60211
虛	-8.60509
讚	-8.60511
佛告諸比丘	-8.60792
輩	-8.61008
其心	-8.61353
蒙	-8.61463
車匿	-8.61654
!」	-8.61927
鳥	-8.61982
梵天	-8.62085
退	-8.6214
邊際	-8.62809
飛	-8.63113
百千	-8.63182
毘	-8.6339
安樂	-8.63391
日月	-8.6367
夢	-8.63803
置	-8.63934
了知	-8.64056
就	-8.64155
為我	-8.64186
索	-8.64376
復次	-8.64446
衣服	-8.64497
熟	-8.64574
有大	-8.64588
池	-8.64789
美	-8.64836
諸法	-8.65396
餓鬼	-8.65403
龍王	-8.65507
逆	-8.65511
士	-8.65771
聚落	-8.65981
瓔珞	-8.66028
都	-8.66036
畢	-8.66038
放逸	-8.66216
惱	-8.66419
其身	-8.66692
咸	-8.66708
留	-8.66844
兄	-8.6695
王曰	-8.6699
往昔	-8.67089
惟	-8.67103
何以故	-8.67213
一心	-8.67389
哀	-8.6751
於我	-8.67573
萬	-8.67587
最勝	-8.67616
賢聖	-8.67692
雜	-8.67917
而去	-8.68032
金剛	-8.68116
兵	-8.68185
隨順	-8.68456
三寶	-8.68544
帝	-8.68771
易	-8.68963
妻	-8.68997
億	-8.69113
八萬四千	-8.69153
全	-8.69266
仰	-8.69307
修習	-8.69439
冥	-8.69529
乞食	-8.69606
養	-8.69722
不樂	-8.6976
▁二	-8.70098
大悲	-8.70148
白言	-8.70312
大海	-8.70376
容	-8.70466
次第	-8.70791
樹下	-8.70829
希有	-8.70836
語言	-8.70926
河	-8.71178
仁者	-8.7119
無為	-8.71323
珠	-8.71398
國土	-8.71576
熱	-8.71643
利益	-8.71674
亡	-8.72055
在家	-8.72348
偈	-8.72352
止息	-8.72659
問言	-8.73022
善法	-8.73504
然後	-8.73606
有何	-8.73891
不應	-8.73904
許	-8.73953
投	-8.74054
最上	-8.74102
悔	-8.74129
伽	-8.74155
其中	-8.74221
無畏	-8.74591
走	-8.74622
畜生	-8.7467
漸	-8.74704
損	-8.74752
廣大	-8.74767
堅	-8.74779
。』」	-8.749
▁一	-8.74941
令我	-8.74956
繫	-8.74974
以此	-8.75042
諸根	-8.75367
瞋	-8.75638
聞已	-8.75657
厭	-8.75978
誓	-8.76047
欲得	-8.76096
第二	-8.76222
遮	-8.76313
節	-8.76337
待	-8.76605
外道	-8.76812
捉	-8.76895
夜叉	-8.77016
誠	-8.77156
彼等	-8.77227
不如	-8.77426
表	-8.77435
亦復	-8.77487
引	-8.77514
以是	-8.77535
平	-8.77623
其人	-8.77639
應當	-8.77736
。(	-8.78
勤	-8.78189
快	-8.7831
於時	-8.78348
貪欲	-8.78418
佛法	-8.78663
弟	-8.7882
沙	-8.78872
或復	-8.78996
長老	-8.79251
田	-8.79394
備	-8.79474
殊勝	-8.79799
快樂	-8.79966
寂	-8.80014
一切諸	-8.80082
讚歎	-8.80286
教化	-8.80355
亦如是	-8.8039
群	-8.80453
無漏	-8.80519
得道	-8.8056
送	-8.80567
布	-8.80664
逮	-8.80731
是以	-8.80774
無明	-8.80983
大乘	-8.81254
目連	-8.81262
迴	-8.81461
記	-8.81567
總	-8.81764
倍	-8.81821
天上	-8.81853
隱	-8.81986
唯願	-8.82151
間	-8.822
是名	-8.82272
室	-8.82535
不復	-8.82753
二人	-8.82844
梨	-8.83095
親近	-8.8317
財寶	-8.83183
之事	-8.8345
與我	-8.83562
禪定	-8.8359
氣	-8.83836
作是念	-8.84042
造作	-8.84055
彼人	-8.8407
即時	-8.84361
所願	-8.84374
逐	-8.84649
穢	-8.85248
慈心	-8.85276
飯	-8.85371
黑	-8.85974
忍辱	-8.85985
淨飯王	-8.86148
笑	-8.86299
純	-8.86338
吉祥	-8.86348
柔軟	-8.86393
垢	-8.86467
決	-8.86539
活	-8.86557
驚	-8.86639
此事	-8.86719
「	-8.86864
如是等	-8.8698
船	-8.87092
慢	-8.87096
飢渴	-8.87345
半	-8.87387
見已	-8.8747
靜	-8.87502
句	-8.87617
拘	-8.87629
曾	-8.87648
功	-8.87827
閉	-8.87897
宮殿	-8.88032
清	-8.88043
境界	-8.88091
王言	-8.88277
越	-8.88287
木	-8.88442
導	-8.88819
即得	-8.89386
默然	-8.89388
富	-8.8963
堅固	-8.89651
左右	-8.89736
燈	-8.89759
烏	-8.89941
頓	-8.90036
密	-8.90244
法門	-8.90275
看	-8.90347
勞	-8.90442
天王	-8.90496
諸眾生	-8.90543
心意	-8.90731
侍	-8.90926
梵行	-8.9122
圓	-8.91314
步	-8.91413
此人	-8.91452
降伏	-8.91479
十二	-8.91899
釋種	-8.919
增長	-8.92002
瞿曇	-8.92121
獼猴	-8.92329
及以	-8.92337
渡	-8.92721
悅	-8.92763
決定	-8.92847
骨	-8.92855
佛土	-8.93004
臂	-8.93095
比丘尼	-8.93152
時有	-8.9321
葉	-8.93224
不久	-8.93263
血	-8.93347
於中	-8.93503
蛇	-8.93572
不動	-8.93576
國中	-8.93642
宣	-8.93796
闍	-8.93899
屬	-8.9391
唱	-8.93974
落	-8.93984
怖	-8.94113
多聞	-8.94433
得解脫	-8.94514
即以	-8.94661
善惡	-8.94836
相貌	-8.94938
箭	-8.94964
眾僧	-8.95225
憍慢	-8.95297
俗	-8.95342
未曾	-8.95393
貴	-8.95496
堂	-8.95642
追	-8.95657
相好	-8.95703
至於	-8.95719
抱	-8.95832
不為	-8.95968
貧	-8.95978
鼓	-8.95992
貧窮	-8.96408
鬼神	-8.96526
負	-8.96608
閻浮提	-8.96667
三者	-8.96712
辦	-8.9675
況	-8.96757
無不	-8.96786
無邊	-8.96957
機	-8.96964
無垢	-8.96965
彌	-8.97317
乳	-8.97326
發心	-8.97363
射	-8.97468
豈	-8.97495
世人	-8.97549
以是因緣	-8.97666
所見	-8.97763
所以者何	-8.97861
為王	-8.97911
往詣	-8.98063
精	-8.98192
像	-8.98244
王者	-8.98317
歸依	-8.98333
印	-8.98398
如彼	-8.98445
魚	-8.98485
兼	-8.98534
打	-8.98879
唯有	-8.99154
量	-8.99197
窮	-8.99396
忽然	-8.99413
漏	-8.99545
錢	-8.99589
金色	-8.99607
一時	-8.99857
妃	-9.00004
皮	-9.00013
相應	-9.00163
是也	-9.00188
!』	-9.00274
報言	-9.00333
無量無邊	-9.00415
君	-9.00514
刀	-9.00693
獸	-9.00795
聞法	-9.0084
暫	-9.01162
佛說	-9.01344
佛告阿難	-9.01409
王即	-9.01589
故名	-9.02155
男女	-9.02265
提婆達多	-9.02474
給	-9.0259
細	-9.02625
是處	-9.02759
愍	-9.02917
心生	-9.03034
假	-9.03313
音聲	-9.03315
壽命	-9.03382
敷	-9.03434
良	-9.03493
菩薩摩訶薩	-9.03671
遙見	-9.03695
成道	-9.03767
不善	-9.03841
有人	-9.03888
亦如	-9.04054
三世	-9.04109
若人	-9.04145
衰	-9.0418
新	-9.04198
恩愛	-9.04213
薄	-9.0424
我所	-9.04326
群臣	-9.0441
哉	-9.04459
影	-9.04493
牽	-9.04547
南	-9.04583
羅漢	-9.04643
若不	-9.04857
神足	-9.05068
生於	-9.05071
無礙	-9.05156
見其	-9.05244
身心	-9.05254
稽首	-9.05517
辯	-9.05769
術	-9.05807
愛樂	-9.05829
佛世尊	-9.05962
頂	-9.05995
焉	-9.06036
而作是言	-9.06079
令其	-9.06175
出世	-9.06243
勝義	-9.06302
皆是	-9.06333
憐愍	-9.06349
床	-9.06429
泥洹	-9.06459
彌勒	-9.06466
聖子	-9.06476
妙法	-9.06531
共相	-9.06532
妻子	-9.06585
乾	-9.06632
杖	-9.06713
所行	-9.06809
際	-9.06886
瞻	-9.07009
人中	-9.07212
不肯	-9.07355
差	-9.07371
令彼	-9.07468
網	-9.07561
臨	-9.07647
聞佛所說	-9.07687
憶	-9.07713
婇女	-9.07863
白王言	-9.08012
諸臣	-9.08328
無異	-9.08438
精舍	-9.08766
身命	-9.08789
婬	-9.08952
諍	-9.09057
威儀	-9.09084
我身	-9.09327
發生	-9.09449
領	-9.09914
內外	-9.09934
後世	-9.09965
助	-9.10185
無復	-9.10197
狂	-9.10257
圍遶	-9.1043
姓	-9.10546
欲求	-9.10975
免	-9.10978
罵	-9.11093
察	-9.11153
遭	-9.11381
對曰	-9.11439
齊	-9.11481
割	-9.11533
中有	-9.1173
諸人	-9.11829
弓	-9.11837
軍	-9.11852
何等	-9.11883
權	-9.11947
神力	-9.11968
無我	-9.12035
超	-9.12115
摩訶	-9.12118
不可得	-9.12277
諸有	-9.12321
赤	-9.12325
淚	-9.12328
王位	-9.12441
之言	-9.1246
無能	-9.12473
受苦	-9.12475
避	-9.12557
殿	-9.12587
此法	-9.12641
無倒	-9.12649
洗	-9.12714
示現	-9.12768
慈悲	-9.12819
遙	-9.12834
有所	-9.12938
皆由	-9.13037
四方	-9.13067
交	-9.13149
我於	-9.13263
第三	-9.1328
作是念已	-9.13332
野	-9.13334
作是	-9.13362
消	-9.13442
啟	-9.13445
威德	-9.13469
遊戲	-9.13474
所生	-9.13591
奪	-9.13658
若干	-9.13733
眾寶	-9.13805
迎	-9.13843
佛語	-9.13876
結使	-9.13945
為人	-9.13968
顧	-9.1398
慚愧	-9.14078
大地	-9.14341
幢	-9.14709
約	-9.14767
懼	-9.14863
陰	-9.14866
見此	-9.14978
戰	-9.15014
困	-9.15135
未來	-9.15191
不同	-9.15193
見之	-9.15286
喪	-9.15325
審	-9.15347
染著	-9.15414
於諸	-9.15564
似	-9.15646
吉	-9.15817
舌	-9.15832
恨	-9.16189
瓶	-9.16297
莫不	-9.16334
儀	-9.16455
露	-9.16654
飾	-9.16697
尸	-9.16734
以上	-9.16867
空中	-9.16962
怪	-9.16981
塗	-9.17028
末	-9.17064
處所	-9.17077
資	-9.17171
不受	-9.17257
巧	-9.17268
里	-9.17297
聞是語已	-9.17495
獄	-9.17685
噉	-9.17788
歲	-9.17913
阿羅漢	-9.17985
若能	-9.17992
甚深	-9.18002
力用	-9.18166
羅剎	-9.18192
現在	-9.18522
四者	-9.18542
今當	-9.18598
必當	-9.186
成阿耨多羅三藐三菩提	-9.18634
】	-9.18725
生天	-9.18748
不著	-9.18869
背	-9.18896
山中	-9.19086
不信	-9.19257
青	-9.19429
急	-9.19431
大師	-9.19715
入於	-9.19741
不敢	-9.19786
馳	-9.19817
天地	-9.1984
污	-9.19878
心懷	-9.19927
何以	-9.19928
樓	-9.1993
尊重	-9.20086
大聖	-9.20209
聽聞	-9.20264
自知	-9.20265
戲	-9.2029
演	-9.20432
擲	-9.20445
可得	-9.2045
白象	-9.20551
並	-9.20853
一切智	-9.2088
徒	-9.20999
麤	-9.21065
山林	-9.21083
愛欲	-9.21121
我見	-9.21375
其所	-9.21434
和合	-9.2147
來至	-9.21553
徹	-9.21703
『	-9.2171
懺悔	-9.21819
所得	-9.22044
復更	-9.22089
睡眠	-9.2226
人間	-9.22341
魔王	-9.22422
齋	-9.22638
脚	-9.22641
不覺	-9.2274
調達	-9.22746
蘭若	-9.22874
若有眾生	-9.22939
何為	-9.22984
時王	-9.23081
賣	-9.2318
訖	-9.23185
清涼	-9.23208
盲	-9.23259
何所	-9.23333
佛所	-9.23416
泥	-9.23705
眾苦	-9.23743
族	-9.23761
導師	-9.24034
鳴	-9.24046
刺	-9.24168
威	-9.24226
睒	-9.24229
聞佛	-9.24403
有力	-9.24608
奇	-9.24851
榮	-9.24931
禍	-9.25129
而得	-9.25146
宗	-9.2527
皆得	-9.25359
鐵	-9.25408
若欲	-9.25432
伴	-9.25519
安住	-9.26015
之曰	-9.26091
守護	-9.2612
▁三	-9.26149
愚人	-9.26206
發阿耨多羅三藐三菩提心	-9.26238
跡	-9.26259
有此	-9.26275
正念	-9.26534
手執	-9.26545
隨意	-9.26583
遷變	-9.26605
周	-9.26658
殃	-9.26836
不起	-9.26845
徧	-9.26866
福田	-9.26871
今我	-9.26883
濁	-9.27034
博	-9.27068
不與	-9.2719
愁	-9.2727
受持	-9.27276
問曰	-9.27344
歡	-9.27372
豐	-9.27467
出家菩薩	-9.27534
遺	-9.27537
處處	-9.27559
漸漸	-9.27794
捨離	-9.27972
正見	-9.28035
踰	-9.28044
盜	-9.28051
慕	-9.28092
圍繞	-9.28161
而白佛言	-9.28209
我為	-9.28238
樹木	-9.28255
轉輪王	-9.28273
心念	-9.28309
蓮花	-9.28463
是謂	-9.28483
懸	-9.28609
善業	-9.28649
頂禮	-9.28693
眠	-9.28833
轉輪聖王	-9.28849
雖復	-9.28884
鼻	-9.28898
岸	-9.29126
商主	-9.29174
載	-9.29244
東	-9.29278
狀	-9.29349
袈裟	-9.29377
於其	-9.29416
諸惡	-9.29465
所在	-9.29473
充滿	-9.29738
作是語已	-9.29823
無比	-9.29824
見彼	-9.29825
敗	-9.29965
叉	-9.30089
傳	-9.30092
御	-9.30344
之行	-9.30396
村	-9.30415
何處	-9.30459
王聞	-9.30578
舍利	-9.30781
歷	-9.30781
大小	-9.30816
非法	-9.30893
速疾	-9.30953
側	-9.311
塵勞	-9.31179
專	-9.31218
優婆塞	-9.31226
固	-9.31233
【	-9.31306
財物	-9.31343
標	-9.31394
呪	-9.31502
腹	-9.3151
化作	-9.31744
皆有	-9.31784
作禮	-9.3179
不能得	-9.32078
闇	-9.32112
是我	-9.32285
歸命	-9.32324
三乘	-9.32342
道士	-9.32453
往至	-9.32505
毛	-9.32585
誦	-9.32604
若我	-9.32605
白王	-9.32675
元	-9.32677
其意	-9.3283
小兒	-9.32935
薪	-9.33153
諸弟子	-9.33262
法中	-9.33329
五人	-9.33343
明日	-9.33353
食之	-9.3341
假使	-9.33422
雙	-9.33524
眾會	-9.33691
聞之	-9.33789
古	-9.3386
淨妙	-9.33883
寂然	-9.33897
心不	-9.34003
略	-9.34029
竭	-9.34084
十八	-9.34088
飢	-9.34187
北	-9.34224
天神	-9.34231
熾盛	-9.34237
四天下	-9.34272
慮	-9.34276
行者	-9.34418
曉	-9.3448
十六	-9.34596
人所	-9.34635
再	-9.34637
穀	-9.34686
而彼	-9.34735
橫	-9.34746
善心	-9.34782
繫縛	-9.34794
在此	-9.34908
合掌	-9.35047
一日	-9.35247
須臾	-9.3526
怒	-9.35285
不離	-9.35327
不自	-9.35442
須彌	-9.35459
陀羅	-9.35463
所須	-9.35529
猛	-9.35635
胎	-9.35705
殘	-9.35734
蜜	-9.35908
將來	-9.35937
不退	-9.3595
熾然	-9.36006
已得	-9.36218
醫	-9.36221
充	-9.36281
銀	-9.36332
亦然	-9.36641
不識	-9.36827
歡喜踊躍	-9.36881
逼	-9.36884
當得	-9.36894
有二	-9.36894
城門	-9.36982
卒	-9.37114
一念	-9.37133
宮中	-9.37147
支	-9.37328
忘	-9.37368
如法	-9.37395
每	-9.37446
切	-9.37576
責	-9.37618
寶藏如來	-9.37879
屈	-9.37994
還歸	-9.38061
甘	-9.38234
未得	-9.38269
而生	-9.38345
不以	-9.38438
問訊	-9.38638
彼岸	-9.38724
停	-9.38729
滿足	-9.38841
天帝	-9.38869
倒	-9.38975
願我	-9.38978
勇	-9.391
西	-9.39136
他人	-9.39136
威神	-9.39326
部	-9.39512
至彼	-9.39588
代	-9.39609
右	-9.3964
欲令	-9.39657
說是	-9.39692
舊	-9.397
諍訟	-9.39737
之後	-9.40094
嗚呼	-9.4012
潤	-9.4014
唯願世尊	-9.40217
汝當	-9.40245
產	-9.40535
作沙門	-9.40615
顏	-9.4067
法寶	-9.40786
涉	-9.40787
付	-9.40819
色相	-9.40837
周匝	-9.40929
苾芻	-9.40987
諸釋	-9.41029
舍宅	-9.41366
爾時菩薩	-9.41367
沙彌	-9.41385
臺	-9.41442
聖人	-9.41454
告言	-9.4146
四大	-9.41499
請佛	-9.41514
數數	-9.41605
其子	-9.41648
入城	-9.41665
手足	-9.41666
因果	-9.41729
接	-9.41831
自思惟	-9.41863
琉璃	-9.42103
天女	-9.4228
愚者	-9.42385
聞是	-9.42484
善友	-9.42527
而自	-9.42732
阿耨多羅三藐三菩提	-9.42736
金銀	-9.42754
欲界	-9.4281
四種	-9.42818
自歸	-9.42821
昔有	-9.42837
試	-9.42857
堪	-9.43004
原	-9.43046
收	-9.43086
奴	-9.43143
名稱	-9.43504
牢	-9.43546
期	-9.43584
三十二相	-9.43602
寒	-9.43617
勇猛	-9.43647
雖有	-9.43697
渴	-9.43712
商人	-9.43792
隋言	-9.43795
無盡	-9.43823
破壞	-9.44141
諸王	-9.44145
欣	-9.44157
最後	-9.44204
朝	-9.44205
▁「	-9.44312
弘	-9.44377
獵師	-9.44403
宅	-9.44446
伎樂	-9.44448
惠施	-9.44454
諸佛世尊	-9.44529
遊行	-9.44651
無厭	-9.44658
而住	-9.44663
黃	-9.4479
瘡	-9.44849
群生	-9.44908
王所	-9.44938
經歷	-9.44969
不失	-9.45071
典	-9.45094
惠	-9.45158
纏	-9.45214
惡趣	-9.4526
災	-9.45289
報曰	-9.45315
改	-9.45381
演說	-9.45383
令得	-9.45427
以其	-9.45488
當來	-9.45559
亦爾	-9.45621
王舍城	-9.45657
幻	-9.4568
憂惱	-9.45852
縱	-9.45898
能令	-9.45901
自身	-9.45935
彼時	-9.45979
貪著	-9.45999
十善	-9.46013
浮	-9.46046
推	-9.4607
懊惱	-9.46143
法身	-9.46156
暴	-9.46257
非是	-9.46419
之本	-9.46504
官	-9.46544
良以	-9.46594
差別	-9.46621
休息	-9.46661
饒益	-9.46709
禁	-9.46779
珍	-9.46803
採	-9.4709
多有	-9.4711
男	-9.4719
擇	-9.47226
叉手	-9.47245
焰	-9.47263
時諸	-9.4745
宮內	-9.47477
不及	-9.47534
佛教	-9.47567
昇	-9.47611
為惡	-9.47695
檀	-9.47831
長者子	-9.47891
滅度	-9.48069
五戒	-9.48108
不用	-9.48139
波羅	-9.48176
比丘僧	-9.48237
四天王	-9.48284
誓願	-9.48336
靡不	-9.48417
聞此	-9.48455
裏	-9.48506
為說	-9.48563
耶輸陀羅	-9.48653
毒蛇	-9.487
孝	-9.48728
波羅蜜	-9.48768
賢者	-9.48839
賤	-9.48875
六師	-9.48897
我以	-9.49171
諸菩薩	-9.49214
智光	-9.49217
端	-9.49222
踊	-9.49226
出城	-9.49312
利養	-9.49321
惡業	-9.49367
當為	-9.49377
?』「	-9.49392
白佛	-9.49506
種子	-9.49686
此云	-9.49704
非常	-9.49706
履	-9.4973
真如	-9.49751
乏	-9.49798
優陀夷	-9.49858
議	-9.49879
禁戒	-9.49893
諦聽	-9.49923
精勤	-9.49986
三藐三佛陀	-9.49988
眾中	-9.50012
惜	-9.50108
危	-9.50209
返	-9.50226
須達	-9.50235
敵	-9.50245
此處	-9.50291
慶	-9.5033
即於	-9.50443
移	-9.50502
憂愁	-9.50621
聽法	-9.50684
由旬	-9.50746
默	-9.50768
為沙門	-9.50803
行人	-9.50841
三十二	-9.50852
虎	-9.5086
。《	-9.50873
早	-9.50908
減	-9.50957
修作	-9.50987
嚴飾	-9.51078
左	-9.51094
城中	-9.51098
我子	-9.51149
發菩提心	-9.51152
召	-9.51203
客	-9.51225
皆為	-9.51246
無餘	-9.51317
婆羅	-9.51328
奉事	-9.51413
私	-9.5154
市	-9.51556
希求	-9.51688
相見	-9.51697
象馬	-9.51936
度脫	-9.51959
娛樂	-9.52021
為欲	-9.52106
保	-9.52116
折	-9.52164
欺	-9.52165
如意	-9.52191
生老病死	-9.52213
任	-9.52276
三種	-9.52448
正遍知	-9.52459
前後	-9.5251
報恩	-9.52511
作如是念	-9.52561
育	-9.52847
侵	-9.52849
吐	-9.52859
不捨	-9.5286
法者	-9.52868
種姓	-9.52917
何緣	-9.52987
靈	-9.53016
陳	-9.53044
震動	-9.53308
累	-9.53412
睡	-9.53488
諫	-9.53508
解說	-9.53516
炎	-9.53546
大士	-9.53598
長夜	-9.53598
三十	-9.53735
羊	-9.53801
未曾有	-9.53811
有漏	-9.53852
作如是	-9.53881
怖畏	-9.53954
於後	-9.54045
兄弟	-9.54072
告曰	-9.54107
鬪	-9.54118
恣	-9.54145
吹	-9.54246
顏色	-9.54271
與汝	-9.54306
心生歡喜	-9.5435
妄語	-9.54439
。○	-9.5444
亦當	-9.54443
第四	-9.54549
定意	-9.54597
由是	-9.54711
伺	-9.54744
特	-9.5478
呵	-9.54853
飯食	-9.54864
其母	-9.54965
佛即	-9.55011
使我	-9.55063
是人	-9.55154
四諦	-9.55196
作是言	-9.55251
天帝釋	-9.55364
迦毘羅城	-9.55391
競	-9.55412
寤	-9.55457
運載	-9.55536
我慢	-9.55597
最為	-9.55625
星	-9.55659
老母	-9.55668
而來	-9.55671
說偈	-9.5573
或有菩薩	-9.55948
歡喜奉行	-9.5596
誰能	-9.56057
變化	-9.5606
賜	-9.56111
學道	-9.56122
斷絕	-9.56139
能斷	-9.56225
名色	-9.56312
亦復不	-9.56329
水中	-9.56372
牙	-9.56539
應供	-9.56544
摧	-9.56684
復問	-9.56709
舍衛國	-9.56817
幾	-9.56849
不可思議	-9.56856
卿等	-9.5686
愁憂	-9.5689
入山	-9.56924
棄捨	-9.56947
時諸比丘	-9.56954
梵王	-9.57076
法界	-9.5708
不能自	-9.571
生滅	-9.57141
佛本行	-9.57179
枯	-9.57188
而坐	-9.57196
愈	-9.57218
修道	-9.57221
天人師	-9.57235
截	-9.57247
擔	-9.57334
利他	-9.57375
男子	-9.57421
底	-9.57424
營	-9.57424
勤苦	-9.57459
曠野	-9.57538
與諸	-9.57635
踊躍	-9.57751
剎	-9.57945
相師	-9.57979
老死	-9.58046
欲使	-9.58235
況復	-9.58242
自念	-9.58549
得見	-9.58559
淵	-9.58616
幸	-9.58745
展轉	-9.58803
迷惑	-9.58815
栴檀	-9.58842
於世	-9.589
三十三天	-9.5891
何況	-9.58917
以手	-9.58918
如我	-9.59009
上妙	-9.59062
以偈	-9.59075
往來	-9.59115
號曰	-9.59137
牢固	-9.59144
於佛	-9.59187
其上	-9.59267
塵垢	-9.59295
借	-9.59297
運	-9.59324
軟	-9.59484
知足	-9.595
閻浮	-9.59536
六十	-9.59627
嫉妬	-9.59737
婆羅門言	-9.59771
其婦	-9.59777
枝	-9.59857
聞如是	-9.59868
道路	-9.59961
即為	-9.60006
張	-9.60142
難可	-9.60177
年少	-9.60234
施與	-9.6028
誹謗	-9.60287
善逝	-9.60472
於一切	-9.60479
安置	-9.60614
宿命	-9.60667
阿修羅	-9.60686
遣使	-9.60731
檀越	-9.60733
燃	-9.60847
殊	-9.60926
奇特	-9.60934
啼哭	-9.60951
寂滅	-9.61069
不聞	-9.61122
跋	-9.61251
如人	-9.61284
逢	-9.61301
其家	-9.61334
優	-9.61404
見者	-9.61426
復以	-9.61504
必有	-9.61507
音樂	-9.61562
并及	-9.61649
耶輸陀	-9.61683
前白佛言	-9.61701
惡道	-9.61705
供給	-9.61744
無極	-9.61763
丈夫	-9.61848
納	-9.61872
愛念	-9.62095
日日	-9.62209
懈怠	-9.62251
至誠	-9.62276
國界	-9.62344
發起	-9.62346
作是思惟	-9.62402
不能自勝	-9.62426
求索	-9.62492
亦有	-9.62532
所造	-9.62586
汝可	-9.62609
住於	-9.62698
現世	-9.62801
登	-9.62899
脩	-9.62949
之相	-9.63084
善知識	-9.63149
園林	-9.63153
住處	-9.63175
各自	-9.63185
已來	-9.63244
力士	-9.63257
弊	-9.63304
彼諸	-9.63439
集經	-9.63456
熏	-9.63499
見我	-9.63526
傍	-9.63549
素	-9.63557
樹神	-9.63579
佛道	-9.63591
不退轉	-9.63602
王問	-9.63988
別離	-9.64024
)。△	-9.64031
得自在	-9.64034
獲得	-9.64079
蟲	-9.64245
不求	-9.64316
嫌	-9.64341
友	-9.64476
十力	-9.64486
泉	-9.64566
與之	-9.64623
經行	-9.64705
能知	-9.64797
彼處	-9.64808
陀羅尼	-9.64869
衛	-9.6488
卷	-9.64929
招	-9.64929
磨	-9.64957
列	-9.65037
巍巍	-9.65086
辯才	-9.65094
自恣	-9.65122
】【	-9.65255
知其	-9.65339
此身	-9.65363
葢	-9.65504
苦痛	-9.65544
一句	-9.65574
無憂	-9.65608
不足	-9.65615
厚	-9.65655
油	-9.65672
延	-9.65724
永斷	-9.65796
乾闥婆	-9.66009
乃爾	-9.66016
覺知	-9.6611
之德	-9.66163
園中	-9.66197
澤	-9.66217
大德	-9.66224
思念	-9.66456
而作	-9.66474
玉女	-9.66477
五道	-9.66487
無生	-9.66526
除去	-9.66554
唱言	-9.66581
富貴	-9.66669
教誨	-9.66675
道場	-9.66696
隨時	-9.66753
勢	-9.66773
阿蘭若處	-9.66813
善能	-9.66886
有如是	-9.66925
今已	-9.67127
諸苦	-9.67144
吞	-9.67151
善行	-9.6717
齒	-9.67225
大慈	-9.67324
養育	-9.67367
呪願	-9.67409
不相	-9.67437
義利	-9.67544
王宮	-9.67577
受其	-9.67587
已盡	-9.67602
執持	-9.67681
而無	-9.6771
智人	-9.67736
劣	-9.67796
憐	-9.67885
從是	-9.67925
聖王	-9.67952
一身	-9.67997
五者	-9.68014
慈愍	-9.68024
漿	-9.68024
擁護	-9.6803
纏縛	-9.68067
親友	-9.68125
摩那婆	-9.68173
與彼	-9.68194
知之	-9.68203
授記	-9.68273
律	-9.68345
如斯	-9.68373
塞	-9.68715
已訖	-9.6888
諸大眾	-9.68967
頂禮佛足	-9.68974
大仙	-9.6903
一切皆	-9.69119
是阿蘭若	-9.69122
自念言	-9.69152
世世	-9.69178
含	-9.69295
無相	-9.69296
臣民	-9.69324
虛空中	-9.69332
聖道	-9.69343
逝	-9.69345
一切法	-9.69346
法師	-9.69383
裂	-9.69459
有四	-9.69476
菓	-9.69542
窟	-9.69579
尋即	-9.69691
遣人	-9.69714
不可稱計	-9.69721
佛告比丘	-9.69789
衣食	-9.69852
知見	-9.69899
禮拜	-9.69985
不聽	-9.70015
以自	-9.70118
孤	-9.70193
有諸	-9.70194
林中	-9.70216
婢	-9.70273
遍滿	-9.70341
曼	-9.70364
傷害	-9.704
香花	-9.70454
須彌山	-9.70515
我不	-9.70536
為作	-9.70538
發願	-9.7057
法明門	-9.70599
短	-9.70647
我亦	-9.7075
廣說	-9.70765
心地	-9.70771
劍	-9.708
連	-9.70909
乃能	-9.7095
賴	-9.70959
缺	-9.70986
墜	-9.71016
角	-9.71029
之義	-9.71061
觀看	-9.71082
形體	-9.71095
述	-9.71675
其父	-9.7168
鏡	-9.71708
本末	-9.7173
寺	-9.71751
前世	-9.71838
我心	-9.71838
奉行	-9.71839
轉法輪	-9.71934
慳貪	-9.72043
之道	-9.72093
奔	-9.72125
畜	-9.72161
語已	-9.72234
之身	-9.72285
還復	-9.7232
離諸	-9.72351
詳	-9.72437
應時	-9.72469
來世	-9.72627
聽我	-9.72721
成正覺	-9.72851
復言	-9.72865
惟願	-9.72896
波旬	-9.72976
以何	-9.72982
徑	-9.73234
頗	-9.73245
屋	-9.73311
和上	-9.7332
聰明	-9.73337
其王	-9.73341
碎	-9.73341
妄想	-9.73411
有五百	-9.73448
十種	-9.73453
略說	-9.7352
不審	-9.73534
長大	-9.73655
憶念	-9.73665
力故	-9.73704
勸化	-9.73851
酒	-9.74039
房	-9.74076
心中	-9.74084
如何	-9.74085
狗	-9.74121
買	-9.74122
等正覺	-9.7414
祕密	-9.74148
如前	-9.74237
囉	-9.74259
夫婦	-9.74387
限	-9.74485
三毒	-9.74797
不解	-9.74803
不遠	-9.74838
偏	-9.74845
謝	-9.74856
謗	-9.74887
眾多	-9.749
釋提桓因	-9.75099
愛敬	-9.75144
我是	-9.75202
驚怖	-9.75203
是事	-9.75213
曜	-9.75274
其有	-9.75298
為其	-9.75325
不違	-9.75463
勤修	-9.75539
日光	-9.75552
源	-9.75557
一名	-9.75641
煩	-9.75649
曲	-9.75651
羸	-9.7572
嫉	-9.75779
心無	-9.75809
是謂梵志	-9.75922
行道	-9.75998
婦女	-9.76075
自利	-9.7611
四恩	-9.76117
輸頭檀王	-9.76164
即問	-9.76231
旋	-9.76452
委	-9.76462
尾	-9.76621
於世間	-9.76645
此經	-9.76655
燋	-9.76662
頃	-9.76678
不出	-9.76757
老病死	-9.76783
為彼	-9.76828
到已	-9.76968
五百人	-9.76996
往彼	-9.77005
所為	-9.77139
下二句	-9.77197
暗	-9.7723
鴿	-9.7729
施設	-9.77335
遶	-9.77357
我今當	-9.77364
提婆	-9.77367
殺害	-9.77417
復生	-9.77432
天宮	-9.77461
各有	-9.77488
=	-9.77521
能破	-9.77541
優婁頻螺迦葉	-9.77642
見諸	-9.77708
念言	-9.77988
居士	-9.78106
娑	-9.78145
見一	-9.78187
不死	-9.78367
寶藏	-9.78437
鹿王	-9.78451
輪迴	-9.78458
一處	-9.7847
熾	-9.78482
人之	-9.7856
信心	-9.78584
歌	-9.78746
蔽	-9.78912
詐	-9.78926
淺	-9.78929
崩	-9.78934
附	-9.78959
得度	-9.78971
擊	-9.78978
秋	-9.79006
流轉	-9.79045
亦名	-9.79123
十一	-9.79153
當以	-9.7929
難得	-9.79354
之恩	-9.79366
魔波旬	-9.79374
忉利天	-9.79388
禽獸	-9.79582
入海	-9.7964
得勝	-9.79732
旨	-9.79766
駕	-9.79768
道德	-9.79802
其餘	-9.79827
膝	-9.79864
酥	-9.79897
五陰	-9.79904
大法	-9.80018
多陀阿伽度	-9.801
覺悟	-9.80101
以何因緣	-9.80224
證菩提	-9.80358
得大	-9.80363
雪山	-9.80373
之聲	-9.80398
慚	-9.80504
吾今	-9.80591
人言	-9.80731
莖	-9.8076
在前	-9.80774
鬘	-9.80783
輔相	-9.80815
永離	-9.80834
聞其	-9.80912
其義	-9.80921
之類	-9.81001
來下	-9.81014
出家學道	-9.8103
不現	-9.81066
哭	-9.8109
殊妙	-9.81104
建立	-9.81192
今得	-9.81304
從彼	-9.8131
皆共	-9.81353
我於爾時	-9.81442
竊	-9.81464
廢	-9.81482
朽	-9.81535
我已	-9.81572
金錢	-9.81717
二十	-9.818
作此	-9.81856
在彼	-9.81942
出現於世	-9.81951
眾生類	-9.8198
為佛	-9.82061
竪	-9.82083
緣覺	-9.82103
得成	-9.82206
獻	-9.82242
談	-9.82303
彼佛	-9.82375
般涅槃	-9.82418
輙	-9.82427
而語之言	-9.82556
言說	-9.82562
今欲	-9.82709
猶若	-9.82709
能生	-9.82775
上下	-9.82936
隨其	-9.83053
常住	-9.83187
灰	-9.83196
伐	-9.83234
三千大千世界	-9.83321
二乘	-9.83347
為大	-9.83423
本無	-9.83525
上座	-9.83562
正使	-9.83638
受教	-9.8365
修善	-9.83665
為是	-9.83705
慎	-9.83775
而言	-9.8379
不忍	-9.83867
揚	-9.83953
醉	-9.84004
省	-9.84014
某	-9.84057
盧	-9.84095
萬物	-9.84137
可畏	-9.84237
及餘	-9.84286
萬歲	-9.84334
却住一面	-9.84356
悉令	-9.84431
心者	-9.84461
安靜	-9.84518
意欲	-9.84542
譽	-9.84548
化為	-9.84563
聞佛說法	-9.84602
此言	-9.84725
捐	-9.84765
而出	-9.84779
白淨王	-9.84837
銅	-9.84861
傾	-9.84897
圖	-9.8492
澡	-9.84948
統	-9.84968
弱	-9.84978
為汝	-9.85132
羅睺羅	-9.85132
身口意	-9.85197
頭面禮足	-9.852
惡心	-9.85219
于時	-9.85263
無智	-9.85276
令人	-9.85304
過於	-9.85319
亦非	-9.85337
爾時諸比丘	-9.85342
修學	-9.85383
翻	-9.85453
趣求	-9.85473
成熟	-9.85532
求解脫	-9.8554
恭	-9.85574
卑	-9.85761
慾	-9.85809
肅	-9.85814
告彼	-9.85834
諸婇女	-9.85893
能捨	-9.85968
天眼	-9.86062
有緣	-9.86073
菩提樹	-9.86135
八十種好	-9.86142
婬女	-9.86156
無過	-9.86203
入是三昧	-9.86229
科	-9.86251
大丈夫	-9.86259
使人	-9.86264
所求	-9.86279
二句	-9.86334
諸天人	-9.86357
三月	-9.86416
厭離	-9.86451
八萬	-9.86518
百億	-9.8653
恃	-9.86542
承事	-9.86552
擾	-9.86598
畫	-9.86607
象王	-9.86652
震	-9.86729
炬	-9.8676
災禍	-9.86782
婬怒癡	-9.8679
從此	-9.86872
一切人民	-9.86875
摩尼	-9.86893
出現	-9.86907
童女	-9.86928
墮落	-9.86941
所居	-9.86965
不作	-9.86965
作大	-9.86967
正道	-9.87002
而為	-9.8718
日夜	-9.8721
惡行	-9.8723
二字	-9.87241
如實	-9.8731
得此	-9.87508
防	-9.87509
》、《	-9.87515
錯	-9.87518
吾等	-9.87545
法輪	-9.8758
所成	-9.87706
唯然	-9.87736
貧人	-9.8777
熱惱	-9.8779
墮於	-9.87795
行施	-9.87802
其言	-9.87854
優波離	-9.87875
譬	-9.87953
我等今者	-9.88024
威力	-9.88072
無上菩提	-9.8809
拜	-9.88092
餘人	-9.88123
坐禪	-9.88196
吾當	-9.88205
世俗	-9.88218
是法門	-9.88285
如日	-9.8837
是誰	-9.88412
斫	-9.88453
我之	-9.88453
此之	-9.88484
疲	-9.88492
鬪諍	-9.88568
蘇	-9.8862
吒	-9.88653
捨身	-9.88654
為道	-9.88683
欲見	-9.88713
墮地	-9.8888
得脫	-9.88943
教誡	-9.88952
波斯匿王	-9.88963
可以	-9.89114
於汝	-9.89245
夏	-9.89342
冷	-9.89375
忿	-9.89385
乃得	-9.89425
勒	-9.89436
憍	-9.89443
繞	-9.89468
扶	-9.89485
欝	-9.89485
翅	-9.89486
披	-9.89519
端政	-9.89567
馭者	-9.89608
現身	-9.8967
彼王	-9.8967
枝葉	-9.89713
己身	-9.89746
福力	-9.89764
有是	-9.89894
三尊	-9.89949
如空	-9.90063
墮地獄	-9.90105
阿僧祇劫	-9.90156
佛為	-9.9018
無諍	-9.90331
譯	-9.90379
㲲	-9.904
詣佛所	-9.90446
端嚴	-9.90459
劇	-9.90465
之物	-9.90502
一千	-9.90617
受戒	-9.90631
奉上	-9.90746
生子	-9.90794
見於	-9.90801
豫	-9.90838
貪愛	-9.90898
諸女	-9.90922
無量百千	-9.90955
終無	-9.90989
續	-9.91047
受於	-9.91104
隣	-9.91105
於今	-9.91163
有三	-9.91173
所施	-9.91183
封	-9.9124
祇	-9.91322
不壞	-9.91331
涌	-9.91338
甚大	-9.91394
乾陟	-9.9142
一切世間	-9.91444
為苦	-9.91474
通達	-9.91582
說之	-9.91738
月光	-9.9174
證得	-9.91811
建	-9.91854
為諸眾生	-9.91881
無人	-9.92027
聽受	-9.92072
序	-9.92114
之因	-9.922
既見	-9.92227
務	-9.92246
能滅	-9.92255
能得	-9.92256
之間	-9.92274
維	-9.9228
挽	-9.92282
咄	-9.92317
消滅	-9.92468
種族	-9.92471
真珠	-9.92531
千子	-9.92537
此女	-9.92651
供養佛	-9.92701
一子	-9.9273
宜應	-9.92763
普照	-9.92817
爾時太子	-9.92828
齎	-9.92861
將欲	-9.92998
捨家	-9.93008
波羅㮈國	-9.93067
究	-9.93133
入定	-9.93137
不須	-9.93151
穿	-9.93163
驅	-9.93192
暮	-9.93203
華香	-9.93208
無窮	-9.93304
飛鳥	-9.93432
坑	-9.93451
礙	-9.93485
東方	-9.9355
至心	-9.93561
響	-9.93607
度無極	-9.93683
漏盡	-9.9373
二百五十	-9.93768
時淨飯王	-9.93845
聞持	-9.93902
警	-9.93933
長行	-9.93934
一面	-9.94018
長跪	-9.94097
所欲	-9.94165
寐	-9.94166
繩	-9.94214
牟尼	-9.94228
甚難	-9.9425
悲泣	-9.9434
師子吼	-9.94349
著衣持鉢	-9.944
歡樂	-9.9444
當作	-9.94498
其事	-9.94508
知識	-9.94648
孫	-9.94736
殺之	-9.94751
聖眾	-9.94791
不染	-9.94812
瑞	-9.94829
祐	-9.94886
頭髮	-9.94905
寂定	-9.94919
金輪	-9.94971
世間解	-9.95005
不食	-9.95022
周遍	-9.95023
咎	-9.95028
說言	-9.95132
往到	-9.95146
剋	-9.9516
法性	-9.95228
既得	-9.9531
佛之	-9.95341
告諸比丘	-9.95377
或以	-9.9539
哀愍	-9.95406
向佛	-9.95422
三塗	-9.95428
不覩	-9.95493
修證	-9.95556
因行	-9.95657
即往	-9.95688
心大歡喜	-9.95757
馳走	-9.95769
城內	-9.95856
向於	-9.95885
以來	-9.95953
辱	-9.95973
糞	-9.95975
臭	-9.95975
我先	-9.96007
遊觀	-9.96041
託	-9.96116
鮮	-9.96141
薩	-9.96152
無央數	-9.9616
晝	-9.9619
來詣	-9.96231
.	-9.96311
放大光明	-9.96318
剎利	-9.96319
阿羅呵	-9.96392
五濁	-9.96436
作佛	-9.96444
無上士	-9.96474
六度	-9.96684
潔	-9.96863
其國	-9.96884
宣說	-9.9697
依止	-9.9698
才	-9.97033
唐	-9.97064
貫	-9.97074
迹	-9.97094
寄	-9.97098
慳	-9.97115
春	-9.9712
豆	-9.97161
烟	-9.97185
無所著	-9.9723
至真	-9.97327
流布	-9.97348
正真	-9.97366
爾乃	-9.97376
求於	-9.97432
兔	-9.97459
諸煩惱	-9.97463
名字	-9.97468
臥具	-9.97536
諸婆羅門	-9.9759
時婆羅門	-9.97611
離欲	-9.97681
雷	-9.97725
鴈	-9.97733
佛剎	-9.97866
敢	-9.9788
耆	-9.98023
惡人	-9.98061
捕	-9.98144
荷負	-9.98159
慇懃	-9.98161
所以然者	-9.98224
菩薩記	-9.98261
大富	-9.98288
悉達	-9.98289
於地	-9.98329
念念	-9.98398
隸	-9.98452
救濟	-9.98483
得聞	-9.98572
不從	-9.98585
度眾生	-9.98622
若當	-9.9866
故來	-9.98696
教授	-9.98704
德行	-9.98756
見有	-9.98822
八難	-9.98854
錢財	-9.98975
公	-9.98995
龜	-9.99098
生者	-9.9919
相續	-9.99193
見是	-9.99257
宋	-9.99262
受樂	-9.99267
是大	-9.99344
互相	-9.99377
而有	-9.99387
持此	-9.99488
二名	-9.99536
即入	-9.99657
國人	-9.99666
菩提心	-9.99668
名聞	-9.99689
得佛	-9.99697
誡	-9.998
中間	-9.99807
心如	-9.99866
苦樂	-10.0005
健	-10.0008
住阿蘭若	-10.0012
生大	-10.0018
灑	-10.0021
騰	-10.0022
若其	-10.0023
我欲	-10.0027
憙	-10.003
夢見	-10.0037
恐懼	-10.004
王復	-10.0042
授一	-10.0046
救護	-10.0048
道者	-10.0051
之具	-10.0052
次當作佛號	-10.0053
增益	-10.0061
國內	-10.0061
有一長者	-10.0062
占	-10.0062
太子言	-10.0065
王如來	-10.0067
諸國	-10.0074
所念	-10.008
耀	-10.0082
以用	-10.0083
為求	-10.0085
福報	-10.0096
三有	-10.01
有佛	-10.0101
生天上	-10.0103
至佛所	-10.0104
役	-10.0109
此則	-10.0109
庶	-10.0114
率	-10.0115
髻	-10.0116
雄	-10.0116
五蘊	-10.0117
遲	-10.0118
又問	-10.0123
彼家	-10.0123
見諦	-10.0126
大力	-10.0129
暢	-10.0131
諸龍	-10.0139
更無	-10.0141
墮惡道	-10.0142
能除	-10.0146
迦羅	-10.0149
如是我聞	-10.0149
諸仙	-10.0154
制度	-10.0154
所可	-10.0167
多羅	-10.0167
悉得	-10.0174
祠	-10.0174
二種	-10.0175
恒常	-10.0179
以法	-10.0179
不忘	-10.0187
戀	-10.0192
作何	-10.0194
兵眾	-10.0213
此等	-10.0214
補	-10.0214
灌	-10.0218
休	-10.0219
鄙	-10.0223
神變	-10.0226
我昔曾聞	-10.0226
無諸	-10.0227
草木	-10.0228
受此	-10.0235
說此	-10.0236
隨緣	-10.0236
變易	-10.024
而復	-10.025
食已	-10.0252
諸三昧	-10.0259
頭上	-10.0262
無上道	-10.0266
在世	-10.0269
親族	-10.0271
大施	-10.0274
壯	-10.0275
兜率天	-10.0279
互	-10.0284
先世	-10.0287
深生	-10.0302
還家	-10.0306
則不	-10.0308
不貪	-10.0309
為一	-10.0311
十三	-10.0313
沈	-10.0319
空閑	-10.0323
幼	-10.0323
成佛道	-10.0325
寶珠	-10.0326
暗鈍	-10.0329
諸釋種	-10.0333
真金	-10.0336
諸善	-10.0337
以身	-10.034
如來復	-10.034
針	-10.0344
火燒	-10.036
即自	-10.0364
行步	-10.0368
而說	-10.038
處在	-10.0381
四禪	-10.0383
應知	-10.0394
心法	-10.0406
輪王	-10.0406
何不	-10.0408
淨戒	-10.0408
皆當	-10.0411
之苦	-10.0411
受我	-10.0417
僕	-10.0423
讀	-10.0425
如佛	-10.0432
誑	-10.0432
眾惡	-10.0434
有一人	-10.0435
猗	-10.0435
賞	-10.0435
由此	-10.0438
於虛空中	-10.0439
輸	-10.0442
常行	-10.0443
生處	-10.0445
於法	-10.0447
奏	-10.0448
時分	-10.0449
之內	-10.0455
可謂	-10.0457
獵者	-10.0461
福業	-10.0472
故有	-10.0475
到佛所	-10.0476
三藏	-10.0479
六者	-10.0496
佛子	-10.0506
覓	-10.0508
還國	-10.0516
我昔	-10.0517
福智	-10.0526
十五	-10.0527
還至	-10.0527
饒	-10.053
及與	-10.0532
逸	-10.0536
洲	-10.0537
則無	-10.054
處於	-10.0542
滅盡	-10.0543
奴婢	-10.0544
擎	-10.0544
卷第十	-10.055
生時	-10.055
不斷	-10.0556
娑羅	-10.0556
無厭足	-10.0557
所知	-10.0562
十四	-10.0564
佛前	-10.0567
開示	-10.0569
輪轉	-10.0572
黃金	-10.0573
得生天	-10.0578
寶蓋	-10.0592
爾時阿難	-10.0594
怨家	-10.0595
若得	-10.06
大會	-10.061
事火	-10.063
諸天眾	-10.0634
人眾	-10.0636
沐浴	-10.0647
徐	-10.0651
厥	-10.0652
多諸	-10.0653
是佛	-10.0655
是道	-10.0657
法王	-10.0673
侍者	-10.0681
為人所	-10.0682
如是事	-10.0682
即與	-10.0686
之子	-10.0695
甘美	-10.0702
證知	-10.0702
我言	-10.0708
溺	-10.0712
皆從	-10.072
受之	-10.0722
菩薩言	-10.0722
初生	-10.0726
講	-10.073
能作	-10.0734
孔	-10.0734
今可	-10.0736
帶	-10.0756
城外	-10.0757
澄	-10.0758
使者	-10.076
誤	-10.0761
赴	-10.0762
即勅	-10.0762
嘆	-10.0768
奢	-10.0769
優婆夷	-10.0773
那羅陀	-10.0776
阿羅邏	-10.0777
所獲	-10.078
不虛	-10.0784
不宜	-10.0785
汝等比丘	-10.0786
却坐一面	-10.0788
佉	-10.0789
猶尚	-10.0794
所言	-10.0799
佛為說法	-10.08
要當	-10.0801
無量眾生	-10.0811
是童子	-10.0816
五通	-10.0821
無著	-10.0823
若見	-10.0827
佛性	-10.0829
修梵行	-10.0831
十九	-10.0833
得一	-10.0833
莫不歡喜	-10.084
聖諦	-10.0842
能為	-10.0842
隨從	-10.0846
醜	-10.0852
后	-10.0857
漂	-10.0864
蘊	-10.0864
低	-10.0869
嗣	-10.0872
今以	-10.0874
如是如是	-10.0879
井	-10.0881
剃除鬚髮	-10.0888
便生	-10.0888
趣向	-10.0888
明行足	-10.0897
言曰	-10.0898
調御丈夫	-10.0898
問其	-10.0899
若無	-10.09
雪	-10.0905
斯陀含	-10.0909
不還	-10.0913
為本	-10.0924
斷除	-10.0926
梵德王	-10.093
之力	-10.0934
不安	-10.0947
所住	-10.0952
造業	-10.0953
所聞	-10.0955
還宮	-10.0957
火坑	-10.0957
於道	-10.0961
幢幡	-10.0963
亦為	-10.0966
文殊	-10.0967
見菩薩	-10.0967
無益	-10.0971
訓	-10.0975
勝因	-10.0979
荒	-10.0979
嬈	-10.0985
麥	-10.0985
時節	-10.099
五體投地	-10.0995
或時	-10.0998
彼天	-10.1007
見是事已	-10.1011
世之	-10.1022
菩提樹下	-10.1025
家中	-10.1026
佛以	-10.1032
開解	-10.1043
身相	-10.1048
隨所	-10.1053
云何為	-10.1058
樹間	-10.1058
阿蘭若	-10.106
頂生王	-10.1063
汝為	-10.1066
不殺	-10.1078
工	-10.1085
兩手	-10.1086
瀑流	-10.1092
厨	-10.1095
微細	-10.1097
按	-10.1098
神仙	-10.1099
吼	-10.11
旃陀羅	-10.1101
蔭	-10.1101
整	-10.1101
善聽	-10.1102
瑠璃	-10.1103
本願	-10.1103
頻	-10.1104
二萬	-10.1107
邑	-10.1114
於如來	-10.1117
北方	-10.1119
母胎	-10.1128
微笑	-10.1131
彼女	-10.1134
自心	-10.1143
心所	-10.1146
正覺	-10.1147
殺生	-10.1149
以種種	-10.1153
死者	-10.116
汝若	-10.1168
其後	-10.1181
我身是也	-10.1185
多種	-10.119
為諸	-10.119
風吹	-10.1199
不定	-10.1202
於人	-10.1202
既不	-10.1203
偽	-10.1205
右手	-10.121
咽	-10.1211
羞	-10.1213
是則	-10.1215
涼	-10.1216
皆來	-10.1217
必定	-10.122
將至	-10.122
不欲	-10.1221
詣彼	-10.1221
四十	-10.1221
八十	-10.1223
星宿	-10.1224
天中天	-10.1227
淨居天	-10.1227
求道	-10.1228
得無	-10.1232
憍陳如	-10.1233
時舍利弗	-10.1234
愛著	-10.1237
意不	-10.1242
摩尼婁陀	-10.1242
四事	-10.1243
聞者	-10.1248
相狀	-10.1259
法行	-10.1265
捨此	-10.1272
自致	-10.1273
信敬	-10.1273
向彼	-10.1275
即還	-10.1276
三業	-10.1282
受報	-10.1287
大智	-10.1288
他國	-10.1288
二子	-10.1289
問佛	-10.129
多所	-10.1303
復告	-10.1309
隨逐	-10.1319
之智	-10.1321
銷	-10.1325
蕩	-10.1327
募	-10.1327
無想	-10.1336
羅網	-10.1337
極大	-10.134
勿令	-10.1341
欲往	-10.1342
右脇	-10.1345
當自	-10.1348
充足	-10.1353
緊那羅	-10.1353
那由他	-10.1355
喜樂	-10.1357
毛孔	-10.1358
求覓	-10.1362
迦毘羅	-10.1364
婦人	-10.1364
頌曰	-10.1366
往詣佛所	-10.1369
為第一	-10.137
其地	-10.1374
喻如	-10.1376
竹園	-10.1376
觀此	-10.1383
質	-10.1389
侍從	-10.139
氣力	-10.1402
時有一	-10.1404
不免	-10.1405
閑	-10.1408
從何	-10.1426
太	-10.1428
受用	-10.1428
四面	-10.1434
為最	-10.1435
屍	-10.1441
衣被	-10.1442
諸功德	-10.1445
罰	-10.1446
撲	-10.1447
瑕	-10.1448
涕泣	-10.1451
盡其	-10.1451
米	-10.1454
朋友	-10.1455
即告	-10.1456
賀	-10.1457
晃	-10.1457
菩薩行	-10.1463
利樂	-10.1467
悔過	-10.1468
恒沙	-10.1472
此為	-10.1474
主人	-10.1479
心開意解	-10.1479
瑞應	-10.1482
善來比丘	-10.1482
七者	-10.1506
佛身	-10.1509
其福	-10.1509
須陀洹	-10.1512
相隨	-10.1519
海中	-10.1527
大婆羅門	-10.1536
掌	-10.1538
善女人	-10.154
當有	-10.154
無欲	-10.1542
海水	-10.1543
不念	-10.1544
誨	-10.1546
久遠	-10.1549
毒藥	-10.1549
鞭	-10.1558
屠	-10.1559
鷹	-10.1561
無間	-10.1562
此義	-10.1564
雅	-10.1566
永無	-10.1569
大家	-10.1571
貢高	-10.1571
城邑	-10.1571
擬	-10.1572
牆	-10.1572
勇健	-10.1573
五百弟子	-10.1573
宛轉	-10.1574
嚴駕	-10.1575
即前	-10.1577
安庠	-10.1579
支節	-10.158
六年	-10.1583
值遇	-10.1585
當於	-10.1599
助菩提法	-10.1603
復作是言	-10.1604
將諸	-10.1607
讚言	-10.1608
前禮佛足	-10.1609
出遊	-10.1611
有德	-10.1616
及其	-10.1621
王勅	-10.1632
法服	-10.1638
不住	-10.1639
過患	-10.1647
視之	-10.1648
便得	-10.1654
此兒	-10.1655
於十方	-10.1657
常以	-10.1658
鉢中	-10.1661
復見	-10.1663
五十	-10.1667
身肉	-10.1669
遵	-10.1675
頂上	-10.1676
四等	-10.1678
知佛	-10.1679
舉身	-10.1684
陷	-10.1686
祖	-10.1688
柱	-10.1691
東西	-10.1691
集會	-10.1693
無所畏	-10.1696
王告	-10.1701
懃	-10.1701
迦樓羅	-10.1704
謂為	-10.1712
自稱	-10.1713
佛在	-10.1713
剃	-10.1739
除滅	-10.174
罪福	-10.1747
舞	-10.1748
虗	-10.1751
稱讚	-10.1754
羣	-10.1755
護持	-10.1759
焚燒	-10.1766
波羅奈國	-10.1767
千人	-10.177
又云	-10.1772
不犯	-10.1774
如是思惟	-10.1775
色界	-10.1779
貪求	-10.1779
厄	-10.178
測	-10.1784
善來	-10.179
聞彼	-10.1793
算	-10.1796
生已	-10.18
賓	-10.1801
騎	-10.1803
爭	-10.1803
即起	-10.1804
謙	-10.1807
如今	-10.1813
穢惡	-10.1813
矜	-10.1813
低頭	-10.1815
掘	-10.1816
孔雀	-10.1816
不行	-10.1819
摩睺羅伽	-10.1819
譏	-10.182
說是偈已	-10.182
一切種智	-10.1821
大光明	-10.1826
N	-10.1828
o	-10.1828
度世	-10.1829
之樂	-10.1831
人身	-10.1836
都無	-10.1839
聽許	-10.1845
總持	-10.1845
第七	-10.1849
與其	-10.1854
不令	-10.1858
出入	-10.1858
曩	-10.1861
王便	-10.1865
狐疑	-10.1877
當令	-10.1887
聞此語已	-10.1888
則為	-10.1891
心自念言	-10.1893
為上	-10.1897
無因	-10.1898
諸漏	-10.1901
泣	-10.1904
彰	-10.1912
得阿羅漢果	-10.1913
繼	-10.1922
飽	-10.1924
療	-10.1927
輒	-10.193
曠	-10.1931
毀辱	-10.1931
藍	-10.1932
文殊師利	-10.1932
牢獄	-10.1933
無一	-10.1938
得免	-10.194
戴	-10.1941
可愛	-10.1942
舍衛城	-10.1942
作諸	-10.1943
本性	-10.1947
令住	-10.1948
無量劫	-10.1953
還入	-10.1955
此閻浮提	-10.1959
洗浴	-10.1961
我念往昔	-10.1963
沙門婆羅門	-10.1968
最初	-10.1969
汝等當知	-10.1971
我自	-10.1981
壽終	-10.2
體性	-10.2003
前進	-10.2017
法要	-10.2022
道之	-10.2024
甚可	-10.2036
佛與	-10.2038
得羅漢	-10.2038
於一	-10.2041
更相	-10.2041
融	-10.2041
滋	-10.2042
毗	-10.2045
亦可	-10.2046
晨	-10.2052
昏	-10.2053
姿	-10.2055
壁	-10.2056
剝	-10.2056
驗	-10.2058
弄	-10.2061
損減	-10.2062
無量阿僧祇	-10.207
槃	-10.2072
臭穢	-10.2072
一國	-10.2073
三事	-10.2079
奉迎	-10.2082
歎未曾有	-10.2084
其夫	-10.2089
捨家出家	-10.209
眾行	-10.2093
於王	-10.2096
所致	-10.2097
勸請	-10.2099
出離	-10.2101
彼國	-10.2101
深山	-10.2111
即從	-10.2112
有佛出世	-10.2114
得是	-10.2115
當生	-10.2118
此諸	-10.2123
當觀	-10.2128
其女	-10.2131
來至此	-10.2149
佛弟子	-10.2156
具說	-10.2162
丈	-10.217
諸天子	-10.2171
盈	-10.2172
囑	-10.2172
常為	-10.2172
凶	-10.2174
險	-10.2175
緩	-10.2183
而能	-10.2184
誰有	-10.2185
盤	-10.2186
而為恐怖	-10.2187
於菩薩	-10.219
祀	-10.2192
目揵連	-10.2193
懷妊	-10.2193
怨敵	-10.2194
流淚	-10.2196
得法眼淨	-10.2197
觀者	-10.22
以一	-10.2201
我意	-10.2202
聞說	-10.2204
真正	-10.2205
天上人中	-10.2205
來還	-10.2207
豪	-10.2209
獵	-10.221
精懃	-10.2211
萬二千	-10.2212
諸大臣	-10.2223
行於	-10.2224
善哉善哉	-10.2225
不至	-10.2226
莊嚴其身	-10.2226
言語	-10.223
得生	-10.2231
子孫	-10.2234
閑靜	-10.2237
所愛	-10.2243
無疑	-10.2244
於阿耨多羅三藐三菩提	-10.2245
御者	-10.2246
真諦	-10.2247
訶	-10.225
如月	-10.2254
照曜	-10.2256
莫能	-10.2257
聚集	-10.2258
勝妙	-10.2264
不放逸	-10.2268
為眾	-10.2278
浴	-10.2278
萬法	-10.2278
不息	-10.2286
無所得	-10.2286
十萬	-10.2288
盛滿	-10.2289
佛邊	-10.2292
奮	-10.2292
猪	-10.2297
風雨	-10.2297
偷	-10.23
乃是	-10.2301
食訖	-10.2304
酷	-10.2306
罪人	-10.231
觀之	-10.2311
斬	-10.2313
爾時如來	-10.2323
畢竟	-10.2324
殊特	-10.2326
。」《	-10.2326
六萬	-10.2326
道果	-10.2333
得成佛	-10.2334
今世	-10.2336
心常	-10.2336
不盡	-10.2336
大明	-10.2336
他方	-10.2337
女言	-10.2339
鬚髮自落	-10.234
說此偈已	-10.2341
得須陀洹果	-10.2346
是諸	-10.235
吾當為汝分別解說	-10.2353
汝諸比丘	-10.2353
而告之言	-10.2356
軍眾	-10.2358
釋迦牟尼如來	-10.236
皆盡	-10.2363
即生	-10.2369
未能	-10.2369
所修	-10.2384
舉聲	-10.2385
出生	-10.2394
價	-10.2399
發大	-10.2407
千歲	-10.2413
香華	-10.2415
本來	-10.2415
所逼	-10.2422
監	-10.2425
非有	-10.2428
我家	-10.2429
氏	-10.2431
斧	-10.2438
誘	-10.244
身口	-10.244
頸	-10.244
政	-10.2445
我有	-10.2445
黨	-10.2445
為法	-10.2447
作是說	-10.2449
萎	-10.2451
分明	-10.2455
未有	-10.246
浴池	-10.2464
來到	-10.2464
之福	-10.2468
復還	-10.2471
師子座	-10.2476
所止	-10.2478
所應	-10.2479
知彼	-10.2479
大沙門	-10.2482
崇	-10.2489
過去世時	-10.2489
阿那含	-10.2493
乃知	-10.2497
來入	-10.2506
我父	-10.2511
諸外道	-10.2512
已竟	-10.2513
開化	-10.2515
遷	-10.2517
種種諸	-10.252
知是	-10.252
逮得	-10.252
疾病	-10.2523
蹈	-10.2523
天雨	-10.2527
眾生故	-10.2527
常樂	-10.253
之意	-10.2536
世有	-10.2536
勢力	-10.2542
伎	-10.2546
種種莊嚴	-10.2551
名為梵志	-10.2562
驢	-10.2562
妖	-10.2565
空寂	-10.257
柔	-10.2572
汁	-10.2573
恕	-10.2575
本國	-10.2576
灌頂	-10.258
祇洹	-10.258
燭	-10.258
聖凡	-10.2581
如上	-10.2583
同聲	-10.2586
團	-10.2588
不敢違	-10.2589
堪任	-10.2592
雲集	-10.2593
恒河沙數	-10.2603
告諸	-10.2607
波羅㮈城	-10.2607
以不	-10.2613
又見	-10.2618
力勢	-10.2629
波利	-10.2629
一生	-10.2629
悲愍	-10.2632
則有	-10.2633
如天	-10.2635
如汝所	-10.2642
出於	-10.2652
入涅槃	-10.2652
善生	-10.2657
取其	-10.2659
我時	-10.2661
聞王	-10.2662
父子	-10.2663
離於	-10.2664
何謂	-10.2667
此二	-10.267
便為	-10.2671
多少	-10.2672
妙好	-10.2674
經典	-10.2676
作業	-10.2676
一乘	-10.2677
九十	-10.2684
天中	-10.2686
迅	-10.2687
參	-10.2687
不造	-10.2689
三千	-10.2695
偶	-10.2696
王見	-10.2697
還來	-10.2697
舍衛	-10.2698
謀	-10.2699
肩	-10.27
資財	-10.2702
馬王	-10.2705
能使	-10.2706
茂	-10.2709
汝所	-10.2711
非人	-10.2711
償	-10.2711
商	-10.2712
眾生之類	-10.2713
說經	-10.2713
喜悅	-10.2721
有異	-10.2723
閑居	-10.2727
愚惑	-10.2727
選擇	-10.2728
妙色	-10.2738
毘沙門	-10.2742
遠近	-10.2742
諸眷屬	-10.275
八種	-10.276
住蘭若	-10.2761
甲	-10.2763
得須陀洹	-10.2764
大善	-10.2776
諸天世人	-10.2778
百年	-10.2778
於生死	-10.2779
無數劫	-10.2783
不畏	-10.279
諸結使	-10.2794
斯事	-10.2794
至此	-10.2804
蘭	-10.2808
受五戒	-10.2813
復有一	-10.2817
天龍	-10.2829
升	-10.283
倫	-10.2834
法衣	-10.2835
尋時	-10.2836
淨行	-10.2839
跪	-10.2841
伏藏	-10.2844
毫	-10.2846
內心	-10.2847
羸瘦	-10.2847
慰喻	-10.2855
炙	-10.2855
以是之故	-10.2856
於是便說此偈	-10.2862
恐畏	-10.2863
宮門	-10.2867
已後	-10.2872
憂苦	-10.2873
花果	-10.2876
皆能	-10.2884
現前	-10.2885
不曾	-10.2886
今為	-10.2886
退轉	-10.2888
敷演	-10.2892
汝何	-10.2896
於佛前	-10.2902
自陳	-10.2904
遍照	-10.2904
到彼	-10.2907
希	-10.2908
猶不	-10.2911
無動	-10.2913
經云	-10.2914
於未來世	-10.2915
口中	-10.2922
少分	-10.2923
法眼	-10.2924
即遣	-10.2932
貌	-10.2933
垢染	-10.2934
所至	-10.2942
發意	-10.2943
正明	-10.2946
釋子	-10.2946
般	-10.2947
十地	-10.2947
少時	-10.2947
幽	-10.2949
無量無邊阿僧祇	-10.2957
樹林	-10.2959
諸欲	-10.2959
我若	-10.2961
唯佛	-10.2963
躬	-10.2968
賈客	-10.2969
家內	-10.297
般若	-10.2972
會中	-10.2974
關	-10.2976
蜂	-10.298
闕	-10.298
虫	-10.2981
實是	-10.2982
懈	-10.2983
翳	-10.2984
譬喻	-10.2985
我聞	-10.2986
不思議	-10.2988
瞿	-10.2989
南無	-10.2992
鳥獸	-10.2995
欲來	-10.2996
護明菩薩	-10.3004
不變	-10.3005
摩訶波闍波提	-10.3005
高座	-10.3006
一旦	-10.3009
娑婆世界	-10.301
進止	-10.3012
法相	-10.3016
乃可	-10.3018
魔眾	-10.3018
受福	-10.3027
大悲心	-10.3028
忘失	-10.3029
八者	-10.303
一百	-10.3033
白世尊	-10.3033
無染	-10.3034
天樂	-10.3034
縛著	-10.3036
於是世尊	-10.3037
同時	-10.3039
毒龍	-10.304
集聚	-10.3043
波羅奈	-10.3047
不然	-10.3056
十方諸佛	-10.3073
從我	-10.3078
摩竭	-10.308
法故	-10.3083
來者	-10.3083
得不退轉	-10.3084
場	-10.3086
茲	-10.3088
鼈	-10.3104
本生	-10.3105
隨其所	-10.3105
為佛作禮	-10.3107
摩耶	-10.3107
悴	-10.3112
單	-10.3115
寬	-10.3116
麗	-10.3116
恃怙	-10.3118
未來世	-10.3118
瘦	-10.3121
赫	-10.3124
周旋	-10.3124
鋪	-10.3125
阿須倫	-10.3129
醫藥	-10.3131
有七	-10.3138
乃往過去	-10.3141
王聞是語	-10.3143
我今已	-10.3145
梵語	-10.3151
言教	-10.3151
得阿耨多羅三藐三菩提	-10.3151
然後乃	-10.3152
釋梵	-10.3153
引導	-10.3159
是身	-10.3165
慈母	-10.3166
食時	-10.3167
寶物	-10.3168
病者	-10.3177
王及	-10.3195
佛世界	-10.3195
而問之	-10.3195
更有	-10.3205
然燈	-10.3211
我從	-10.3212
善巧	-10.3217
飽滿	-10.3217
大慈悲	-10.3229
不取	-10.3231
徵	-10.3232
釋迦	-10.3241
人王	-10.3245
樹上	-10.3249
策	-10.325
初句	-10.3251
促	-10.3253
把	-10.3253
舉手	-10.3259
不惜身命	-10.3261
注	-10.3265
必得	-10.3266
黑闇	-10.3266
錄	-10.3268
不在	-10.3268
人命	-10.327
之功	-10.3271
卷第四	-10.3273
三人	-10.3273
拏	-10.3275
魔王波旬	-10.3277
虛妄	-10.3283
次復	-10.3284
得出家	-10.3285
拔濟	-10.3286
盲父母	-10.3286
開悟	-10.3286
船師	-10.3293
大苦	-10.3303
池中	-10.3308
王之	-10.332
爾時大王	-10.3322
自投	-10.3322
滅除	-10.3327
成辦	-10.3334
佛說是	-10.3336
是何	-10.3339
從其	-10.3344
水邊	-10.3345
妙寶	-10.3352
惡者	-10.336
身上	-10.3362
只	-10.3363
作於	-10.3373
為善	-10.3375
教令	-10.3375
即復	-10.3375
極為	-10.3384
妄心	-10.3388
忠	-10.339
如是次第	-10.339
猛火	-10.3396
踐	-10.3396
覩見	-10.34
一切煩惱	-10.3401
纔	-10.3403
倚	-10.3406
纏蓋	-10.3406
滅則	-10.3407
茂盛	-10.341
甘蔗	-10.3411
修崇	-10.3411
渴仰	-10.3412
命終之後	-10.3414
惡法	-10.3414
為此	-10.3415
而起	-10.3415
慎莫	-10.3416
萬行	-10.3416
譬如有人	-10.3418
禰	-10.3421
工巧	-10.3421
修施	-10.3424
入宮	-10.3424
自覺	-10.3425
孝順	-10.3427
樂者	-10.3428
行法	-10.3432
恒河沙等	-10.3433
有二種	-10.3434
敬禮	-10.3438
我今欲	-10.3441
如海	-10.3445
動搖	-10.3447
誠實	-10.3447
住在	-10.3448
悲鳴	-10.3449
千萬	-10.3449
業報	-10.3459
於彼時	-10.3459
自見	-10.3462
四法	-10.3463
在胎	-10.3471
住世	-10.3472
然彼	-10.3475
未久	-10.3478
定慧	-10.3479
無始	-10.3481
此比丘	-10.3483
我此	-10.3486
何人	-10.3498
毘舍	-10.3498
百歲	-10.3504
家業	-10.3513
迴還	-10.3518
化佛	-10.3518
彼此	-10.352
後日	-10.3523
三惡道	-10.3525
見王	-10.353
是時世尊	-10.3532
段	-10.3532
之頃	-10.3533
隆	-10.3536
憂悲	-10.3537
債	-10.3538
倦	-10.3539
有智	-10.3542
冬	-10.3544
胸	-10.3544
善巧方便	-10.3545
餓	-10.3545
足下	-10.3546
太山	-10.3546
枚	-10.3547
溫	-10.3548
沸	-10.3548
我故	-10.3548
信解	-10.3548
剎那	-10.3549
大甲	-10.3553
調御	-10.3554
耕	-10.3554
積聚	-10.3555
申	-10.3558
大夫人	-10.3563
?』」「	-10.3565
審諦	-10.3568
非時	-10.3573
其事云何	-10.3576
嗚呼我	-10.3579
坐於	-10.3579
歸家	-10.3581
皆令	-10.3587
是何人	-10.3588
六通	-10.3592
今在	-10.3593
攝受	-10.3596
日出	-10.3601
不異	-10.3601
其命	-10.3605
來詣佛所	-10.3606
治化	-10.361
死人	-10.3611
諮	-10.3611
悉能	-10.3616
少壯	-10.3618
十二年	-10.3618
此語	-10.3619
教法	-10.3624
所著	-10.3626
活命	-10.3626
最第一	-10.3628
弊惡	-10.363
愛子	-10.3633
亦能	-10.3634
南方	-10.3644
妬	-10.3645
王前	-10.3654
江	-10.3655
令入	-10.3662
稟	-10.3664
之眾	-10.3685
禮佛	-10.3686
處世	-10.3688
愍傷	-10.3688
枉	-10.3692
掃	-10.3694
庫藏	-10.3695
王有	-10.3696
環	-10.3696
殖	-10.3699
喻佛	-10.3703
金山	-10.3706
以神通力	-10.3706
死屍	-10.3711
而還	-10.3712
厭患	-10.3712
生死海	-10.3714
五穀	-10.3714
婬欲	-10.3715
琴	-10.3717
智力	-10.3717
獲福	-10.3726
婦言	-10.3726
大劫	-10.3726
鬚髮	-10.3727
見太子	-10.3736
不墮	-10.3736
至于	-10.3737
諸行	-10.3738
門戶	-10.3743
昨夜	-10.3743
不可計	-10.3749
障礙	-10.3754
冠	-10.3762
施為	-10.3764
不亂	-10.3767
一由旬	-10.3769
變成	-10.3774
不獲	-10.3776
除其	-10.3778
疑惑	-10.3781
未至	-10.3797
妙果	-10.3802
形容	-10.3804
讚佛	-10.3812
何謂為	-10.3815
嗔	-10.3815
度生	-10.3817
聰	-10.3819
較	-10.3819
黠	-10.3824
在地	-10.3827
嶮	-10.3829
電	-10.3833
埋	-10.3836
縷	-10.3836
筋	-10.3838
修諸	-10.3838
均	-10.384
第六	-10.384
閣	-10.3841
圍	-10.3841
攝取	-10.3841
非真	-10.3843
規	-10.3843
饌	-10.3846
國師	-10.3848
即將	-10.3848
能自	-10.385
觀其	-10.3854
平正	-10.3855
支分	-10.3855
醯	-10.3856
塔寺	-10.3858
無所有	-10.386
無緣	-10.3863
生歡喜	-10.3866
佛在舍衛國祇樹給孤獨園	-10.3868
西方	-10.3872
華果	-10.3874
即出	-10.3876
我執	-10.3884
彼彼	-10.3884
長壽	-10.3886
豐樂	-10.3887
當與	-10.389
道中	-10.3891
之患	-10.3892
化人	-10.3894
為說法	-10.3896
。『	-10.3901
二十五	-10.3901
使得	-10.3906
少欲	-10.3906
所趣	-10.3909
作惡	-10.3913
佛便	-10.3913
雖然	-10.3929
凡人	-10.3931
不止	-10.3932
谷	-10.3961
此地	-10.3962
是故我今	-10.3973
一切諸法	-10.3973
童	-10.3974
其德	-10.3976
爛	-10.3985
優曇	-10.3986
觀彼	-10.3988
紺	-10.3989
濕	-10.3991
佛知	-10.3991
紹	-10.3993
輿	-10.3997
冤	-10.3998
煮	-10.4002
陵	-10.4004
過失	-10.4004
得成就	-10.4005
毘舍離	-10.4005
結加趺坐	-10.4009
諸人民	-10.401
瞻仰	-10.4011
爪	-10.4012
善知	-10.4012
陀羅尼門	-10.4018
樓閣	-10.4019
如上所說	-10.402
乞求	-10.4021
及比丘僧	-10.4026
因緣故	-10.4029
當得作佛	-10.403
寶塔	-10.4032
為樂	-10.4041
身中	-10.4041
合會	-10.4044
令汝	-10.4053
不順	-10.4055
施主	-10.4056
豈不	-10.4056
諸商人	-10.4057
波羅㮈	-10.4058
著袈裟	-10.406
未盡	-10.4067
跋陀羅	-10.4069
彼眾生	-10.4071
即取	-10.4074
心懷歡喜	-10.4076
中道	-10.4082
戒行	-10.4091
意地	-10.4093
彼有	-10.4097
久住	-10.4102
善本	-10.4103
其形	-10.4111
裹	-10.412
安止	-10.413
然其	-10.413
敘	-10.4131
顯示	-10.4134
施者	-10.4134
問之	-10.4137
何有	-10.4137
諸魔	-10.4142
喧	-10.4145
以彼	-10.4145
』「『	-10.4146
拂	-10.415
安慰	-10.415
又有	-10.415
祭祀	-10.4152
仗	-10.4153
耶舍	-10.4153
以偈讚	-10.4154
苑	-10.4154
分衛	-10.4154
儻	-10.4155
麻	-10.4157
此亦如是	-10.4158
能行	-10.4158
超越	-10.4162
有偈說	-10.4163
餚饍	-10.4164
真心	-10.4169
頗梨	-10.4175
即從座起	-10.4175
正理	-10.4183
便自	-10.4183
捨我	-10.4183
作是語	-10.4184
我本	-10.4185
下賤	-10.4187
汝於	-10.4187
開門	-10.4187
般涅槃後	-10.4195
亦不能	-10.4198
無患	-10.4198
斯那	-10.4199
王有子	-10.4201
往古	-10.4201
三十六	-10.4203
取水	-10.4204
夜半	-10.4212
或在	-10.4214
光照	-10.4215
其數	-10.4217
宣令	-10.4219
行布施	-10.4224
供具	-10.4229
歡悅	-10.4239
人生	-10.4241
出家者	-10.425
病人	-10.4253
欲以	-10.4254
舉國	-10.4254
亦是	-10.426
至世尊所	-10.427
此非	-10.4271
夷	-10.4281
於先	-10.4283
)《	-10.4294
出要	-10.4297
以佛	-10.4298
諾	-10.4299
咸共	-10.4303
赦	-10.4303
聖師	-10.4308
而退	-10.4308
語彼	-10.431
傾動	-10.4313
梵天王	-10.4313
伊	-10.4318
此偈	-10.4323
邏	-10.4323
身不	-10.4325
諸子	-10.4325
如山	-10.4327
甚多	-10.4327
諸群臣	-10.4332
樂聞	-10.4338
飛行	-10.434
更不	-10.4341
斷諸	-10.4341
為他	-10.4342
立願	-10.4344
莫作	-10.4347
大梵天王	-10.4348
求索出家	-10.4352
說此偈	-10.4354
天主	-10.4354
如來世尊	-10.4354
不祥	-10.4356
受請	-10.4359
難遇	-10.436
結勸	-10.4367
止住	-10.4369
既聞	-10.4371
此頌	-10.4373
義理	-10.4379
是時菩薩	-10.4382
慈仁	-10.4395
念已	-10.4401
諸苾芻	-10.4401
不喜	-10.4403
之日	-10.4404
搖	-10.4408
自說	-10.4414
不滅	-10.4419
花鬘	-10.4419
兜率	-10.4422
思想	-10.4423
共為	-10.4427
堅牢	-10.443
然此	-10.4442
照明	-10.4443
該	-10.4446
作轉輪聖王	-10.4449
魔軍	-10.4449
受生	-10.445
沫	-10.4451
置於	-10.4453
三途	-10.4453
昔佛在	-10.4453
作一	-10.4455
恥	-10.4457
叫	-10.446
捶	-10.4461
後時	-10.4464
所由	-10.4465
貨	-10.4465
鎧	-10.4465
彈	-10.4469
官屬	-10.4469
坌	-10.447
講堂	-10.447
巷	-10.4471
耗	-10.4472
戀慕	-10.4472
幡	-10.4473
得阿羅漢	-10.4474
容貌	-10.4476
寢	-10.4477
飢餓	-10.4478
知已	-10.4478
常當	-10.4482
無道	-10.4496
七歲	-10.4501
欲知爾時	-10.4501
勝利	-10.4506
或復有	-10.4508
正是	-10.451
我曹	-10.452
去此	-10.4524
濟度	-10.453
王家	-10.4534
當念	-10.4539
食噉	-10.454
自由	-10.4549
而死	-10.4549
是故當	-10.4554
皆生	-10.4555
離苦	-10.4558
如大	-10.4559
四句	-10.456
昔日	-10.4565
若使	-10.4566
更不復	-10.4566
戶	-10.4567
而此	-10.4567
立名	-10.4571
旦	-10.4573
明珠	-10.4576
之家	-10.4576
在後	-10.458
隨意所	-10.458
使不	-10.4584
未聞	-10.4584
車乘	-10.4587
捨去	-10.4593
一分	-10.4596
水火	-10.4605
明了	-10.461
愧	-10.4614
香氣	-10.4615
玄	-10.4616
鉤	-10.4617
腰	-10.4618
能解	-10.4621
誅	-10.4622
衣裳	-10.4623
刃	-10.4625
論議	-10.4627
尠	-10.4627
虎狼	-10.463
稻	-10.4635
群鹿	-10.4636
呪術	-10.4638
夢中	-10.4638
昔者菩薩	-10.4638
妙香	-10.4639
為我說	-10.4642
血肉	-10.4642
諸世間	-10.4643
復有一佛號	-10.4646
願見	-10.4647
因此	-10.4653
得福	-10.4653
摩伽陀國	-10.466
迴向	-10.4664
吾欲	-10.4669
彼林	-10.4671
無有異	-10.4672
眾善	-10.4673
聲聞弟子	-10.4678
為首	-10.4678
摩羅	-10.468
千由旬	-10.4688
其前	-10.4698
樹枝	-10.4699
求佛	-10.4714
雖得	-10.4714
常有	-10.4716
若復	-10.472
善解	-10.4721
昔者	-10.4721
何用	-10.4722
生起	-10.4726
正定	-10.4726
海神	-10.4727
有餘	-10.4731
。』『	-10.4736
最尊	-10.4737
顏貌	-10.4745
懺	-10.4754
非我	-10.4763
是彼	-10.4764
一切大眾	-10.4766
其中眾生	-10.477
昧	-10.4774
吏	-10.4778
揀	-10.4778
不隨	-10.4781
跳	-10.4783
搏	-10.4784
之報	-10.4784
翔	-10.4786
覺寤	-10.4787
目犍連	-10.4788
席	-10.4788
羽	-10.479
嫁	-10.4791
便當	-10.4792
勝者	-10.4795
鳩	-10.4796
選	-10.4798
扇	-10.48
飲酒	-10.4802
摩耶夫人	-10.4803
九十一劫	-10.4804
曜經	-10.4804
無雙	-10.4805
耆闍崛山	-10.4808
五慾	-10.4809
卷第五	-10.481
欣然	-10.4813
》(	-10.4813
復語	-10.4814
讀誦	-10.4818
之罪	-10.4819
去來	-10.4823
爾時世尊告	-10.4823
聖賢	-10.4824
得安樂	-10.4828
安處	-10.4835
如故	-10.4837
兩目	-10.4838
瓦師	-10.4844
昇天	-10.4849
毒箭	-10.4851
皆空	-10.4852
皆大歡喜	-10.4868
出家得道	-10.4873
學者	-10.4881
更復	-10.4881
汝身	-10.4883
智者所	-10.4883
泉水	-10.4883
滿月	-10.4887
佛及比丘僧	-10.4897
何事	-10.4898
第一義	-10.4907
沙門瞿曇	-10.4912
之士	-10.4912
故為	-10.4913
以神力	-10.4915
劫中	-10.4918
據	-10.492
五種	-10.4921
諸佛世界	-10.4929
而白	-10.493
願佛	-10.4931
啼	-10.4936
復為	-10.4944
雇	-10.4944
薰	-10.4946
技	-10.4946
或為	-10.4946
忌	-10.4948
攻	-10.4948
操	-10.4948
悵	-10.495
欽	-10.4951
惶	-10.4951
捨於	-10.4951
欲為	-10.4953
肥	-10.4954
希望	-10.4962
羅閱祇	-10.4962
過去久遠	-10.4963
牛頭栴檀	-10.4964
菩薩母	-10.4965
所作已辦	-10.4968
方所	-10.497
阿僧祇	-10.4972
或有眾生	-10.4972
相與	-10.4974
時天帝釋	-10.4975
散亂	-10.4975
重擔	-10.4978
法律	-10.498
其間	-10.4982
仁今	-10.499
彼修行人	-10.4991
四王	-10.4993
汝等諦聽	-10.5002
六牙	-10.5003
具以	-10.5008
觀見	-10.5009
妙音	-10.5014
獲其	-10.5015
善丈夫	-10.5017
山澤	-10.5017
種善根	-10.5019
徒眾	-10.5022
有疑	-10.5023
不觀	-10.5023
治國	-10.5029
大菩提	-10.5032
鈍	-10.5036
之女	-10.5037
白菩薩言	-10.504
速證	-10.504
應器	-10.5043
如雲	-10.5053
慧眼	-10.5055
為師	-10.5058
即召	-10.5062
諸比丘等	-10.5062
降魔	-10.5062
然既	-10.5068
見聞	-10.5081
所依	-10.5082
梵音	-10.5086
二百	-10.5088
七重	-10.5094
四人	-10.5094
慼	-10.5095
眾德	-10.5098
地獄中	-10.5099
尊貴	-10.5101
燒香	-10.5102
園觀	-10.5112
百味	-10.5112
慰	-10.5113
護世	-10.5113
匠	-10.5114
絡	-10.5116
何能	-10.5118
醒	-10.5119
幽冥	-10.512
金翅鳥	-10.512
振	-10.5121
憑	-10.5122
却後七日	-10.5123
福者	-10.5124
旱	-10.5125
邁	-10.5125
嗟歎	-10.5127
叵	-10.5128
功勳	-10.5129
舒	-10.5131
疲極	-10.5133
雹	-10.5133
六入	-10.5136
得須陀洹道	-10.5136
荊棘	-10.5137
諸沙門	-10.5138
醜陋	-10.5139
阿夷	-10.514
六種震動	-10.5142
下生	-10.5143
奈何	-10.5143
百官	-10.5144
無限	-10.5146
自巳	-10.5148
入城乞食	-10.5148
大道	-10.5154
憂陀	-10.5155
大國王	-10.5156
起塔	-10.5159
長養	-10.5159
悉達太子	-10.516
糞穢	-10.5164
行菩薩道	-10.5165
終不捨離	-10.5168
欲知彼時	-10.5168
於長夜	-10.5177
以偈頌	-10.5179
既云	-10.519
為喻	-10.5201
若以	-10.5204
有為	-10.522
受是	-10.5233
辦具	-10.5233
亦應	-10.5238
即共	-10.5241
白淨	-10.5245
真人	-10.525
鈴	-10.5252
正行	-10.5258
母人	-10.5261
出外	-10.5262
逃	-10.5285
逼迫	-10.5289
篤	-10.529
以偈答	-10.5293
婿	-10.5294
螺	-10.5295
常懷	-10.5295
檀度	-10.5296
藝	-10.5298
帳	-10.5301
永盡無餘	-10.5301
二俱	-10.5301
得安隱	-10.5304
稽首佛足	-10.5305
無所乏少	-10.5305
暉	-10.5306
荼	-10.5307
侍衛	-10.5307
汝是	-10.5309
秦	-10.5309
羅摩	-10.531
瑞相	-10.531
悕望	-10.5311
誦經	-10.5312
隋天竺三藏闍那崛多譯	-10.5313
薩婆	-10.5314
之尊	-10.5315
姊妹	-10.5316
數千萬	-10.5319
竹林	-10.532
不以為	-10.5321
發是願	-10.5324
三歸	-10.5332
咸皆	-10.5336
若干種	-10.5338
人心	-10.5342
大象	-10.5343
頭面	-10.5345
十月	-10.5346
勝於	-10.5346
大歡喜	-10.535
亦得	-10.5354
光相	-10.5355
辟支	-10.537
來至佛所	-10.5373
覩之	-10.5388
十五日	-10.5394
五趣	-10.5398
十七	-10.5403
道跡	-10.5408
念佛	-10.5416
猶彼	-10.5417
當共	-10.5418
無實	-10.5418
五根	-10.5421
息心	-10.5427
欲心	-10.5436
十方世界	-10.5436
阿私陀	-10.5438
不達	-10.544
著於	-10.5442
善淨	-10.5444
授與	-10.5444
取之	-10.5447
歇	-10.5449
之業	-10.5451
繁	-10.5455
展轉相	-10.5459
舟	-10.5462
終身	-10.5462
弗	-10.5464
瓦石	-10.5465
不修	-10.5466
我國	-10.5467
煖	-10.5467
憒	-10.5468
練	-10.5468
牧	-10.5469
蹋	-10.5471
尼揵	-10.5471
巖	-10.5473
溝	-10.5474
兜術天	-10.5475
肆	-10.5475
貧賤	-10.5478
鞞	-10.5481
村落	-10.5483
而告之	-10.5484
到彼岸	-10.5485
總結	-10.5488
坻	-10.5491
過去諸佛	-10.5496
躬自	-10.5496
說妙法	-10.5498
啼泣	-10.5501
我前	-10.5503
六波羅蜜	-10.5507
垢穢	-10.5507
尸棄如來	-10.5508
賢劫	-10.5509
努	-10.5511
摩訶迦葉	-10.5514
求佛道	-10.5515
形像	-10.5519
能持	-10.552
觀世	-10.552
覩佛	-10.5529
柔和	-10.5542
億劫	-10.5543
以偈報	-10.5544
願王	-10.555
所覆	-10.5552
所食	-10.5561
追求	-10.5562
伽羅	-10.5563
其志	-10.5563
守戒	-10.5573
能與	-10.5575
法忍	-10.5578
超過	-10.5579
善男	-10.5582
言辭	-10.5588
食者	-10.5589
彼城	-10.5592
見佛世尊	-10.5593
諸人等	-10.5597
時佛	-10.5598
受身	-10.56
無形	-10.5607
厭惡	-10.5611
王意	-10.5621
輔	-10.5622
老病	-10.5622
湯	-10.5623
自然而	-10.5628
於此處	-10.563
所害	-10.563
持鉢	-10.5637
化身	-10.5639
鵝	-10.564
泡	-10.5645
稍	-10.5645
妾	-10.5646
諂	-10.5646
洞	-10.5646
滯	-10.5647
預	-10.5648
何益	-10.5648
天龍鬼神	-10.5649
彼等諸	-10.565
飡	-10.5652
所說法	-10.5652
掩	-10.5652
阿耨	-10.5653
發無上正真道意	-10.5655
犢	-10.5656
上至	-10.5657
鴦	-10.5657
惡言	-10.5658
靡	-10.5658
酪	-10.566
穢濁	-10.5661
迦旃延	-10.5662
形貌	-10.5664
衰老	-10.5666
等者	-10.5667
求方便	-10.5667
財富	-10.5667
識宿命	-10.5669
善住	-10.5672
既至	-10.5673
右膝著地	-10.5673
愁惱	-10.5673
不移	-10.5674
開敷	-10.5674
正智	-10.568
於諸法中	-10.5681
優陀	-10.5685
塗香	-10.5686
靜住	-10.5689
自餘	-10.5698
遠來	-10.5706
此大沙門	-10.571
使令	-10.571
宮人	-10.5711
波羅蜜多	-10.5712
惡友	-10.5712
發聲	-10.5713
當還	-10.5713
卷第二	-10.5723
作福	-10.573
豈可	-10.5731
苦哉	-10.5731
欲知	-10.5734
欲度	-10.5735
幡蓋	-10.5738
諸菩薩等	-10.5741
四輩	-10.5744
一切諸佛	-10.5745
其罪	-10.5747
持禁戒	-10.5754
得生天上	-10.5757
而問	-10.5757
顯現	-10.5757
華鬘	-10.576
惡意	-10.5766
』	-10.5775
修集	-10.5775
道法	-10.5777
大樹	-10.5782
當體	-10.5786
出水	-10.5787
既無	-10.5788
觀也	-10.5791
信受	-10.5794
入道	-10.5798
一萬	-10.5798
變為	-10.58
無色	-10.5805
又以	-10.5816
捨棄	-10.5818
塚間	-10.5821
未嘗	-10.5821
第五	-10.5824
冀	-10.5825
穴	-10.5825
剛	-10.5826
項	-10.5827
纖	-10.5829
不興	-10.5829
澡浴	-10.5833
來此	-10.5833
浣	-10.5834
脂	-10.5834
戮	-10.5834
妨	-10.5834
匹	-10.5835
浪	-10.5836
有婆羅門	-10.5838
辛苦	-10.5838
尸利毱多	-10.5841
盲冥	-10.5842
施行	-10.5844
誠諦	-10.5844
無縛	-10.5844
欺誑	-10.5845
乳糜	-10.5846
而用	-10.5848
之難	-10.5849
除愈	-10.5852
三明六通	-10.5855
何因	-10.5857
十千	-10.5857
自有	-10.5859
優波伽	-10.586
入大海	-10.5861
欲出	-10.5862
佛果	-10.5863
其樹	-10.5866
卷第三	-10.5866
我於今者	-10.5866
無由	-10.5871
出家修道	-10.5875
訖已	-10.5881
隣國	-10.5881
邪道	-10.5883
進修	-10.5889
行十善	-10.5918
紫金	-10.592
王今	-10.5924
發如是	-10.5925
值佛	-10.5926
導從	-10.5927
降神	-10.5928
長者家	-10.5928
與王	-10.5931
入地獄	-10.5932
無所依	-10.5934
孰	-10.5941
有子	-10.5956
契	-10.5962
佛土中	-10.5964
諸梵志	-10.5965
苦患	-10.5968
眾病	-10.5969
未及	-10.598
今復	-10.5982
隨喜	-10.5983
居家	-10.5985
比丘是也	-10.5988
求法	-10.5991
娶	-10.5994
問彼	-10.5995
行來	-10.6
受彼	-10.6001
為世	-10.6001
巳竟	-10.6003
初二句	-10.6004
舅	-10.6005
善言	-10.6005
便以	-10.6006
乞匃	-10.6006
籌	-10.6009
阿那律	-10.6011
大利益	-10.6011
章	-10.6012
侶	-10.6012
財貨	-10.6013
捔	-10.6016
丘	-10.6018
是真	-10.6018
繒	-10.6025
不說	-10.6026
香潔	-10.6026
頭面作禮	-10.603
樂法	-10.603
摩訶那摩	-10.6031
分陀利	-10.6034
安詳	-10.6034
那羅延	-10.6036
棄捐	-10.6036
卷第一	-10.6037
消除	-10.604
種諸善根	-10.6042
瞿曇沙門	-10.6043
如火	-10.6043
乞兒	-10.6046
長生	-10.605
不入	-10.6052
以善	-10.6052
捐棄	-10.6053
夫言	-10.6055
獲益	-10.6057
禮佛足	-10.6058
復當	-10.6061
時彼城中	-10.6066
有一婆羅門	-10.607
世界中	-10.6082
弓箭	-10.6083
五親	-10.6086
專心	-10.6087
實無	-10.609
汝之	-10.6096
意解	-10.61
奉持	-10.6102
阿闍世王	-10.6109
居處	-10.6111
最大	-10.6115
淨信	-10.6125
欲出家	-10.6127
不久當	-10.6128
聽之	-10.6135
求哀	-10.6135
捨身命	-10.6136
十惡	-10.6142
修福	-10.6152
人壽	-10.6154
伽耶	-10.6154
事故	-10.6155
如似	-10.6157
止觀	-10.6157
則我身是	-10.6169
諸力士	-10.6175
母子	-10.6177
師長	-10.6177
觀於	-10.6178
香水	-10.6184
狼	-10.6194
寡	-10.6195
懇	-10.6195
皇	-10.6198
殞	-10.6198
求菩提	-10.6199
姦	-10.62
娉	-10.6201
兇	-10.6202
刑	-10.6202
酸	-10.6203
紺青	-10.6204
細滑	-10.6204
鈎	-10.6205
無病	-10.6207
伴侶	-10.6208
惶怖	-10.6209
於眾生	-10.6209
舐	-10.6212
愛心	-10.6213
誑惑	-10.6215
湯藥	-10.6215
霧	-10.6215
婆羅門等	-10.6216
優波	-10.6217
不懷	-10.6217
四十里	-10.6218
大迦葉	-10.6219
快哉	-10.6222
而說頌曰	-10.6223
戲笑	-10.6226
世所	-10.6228
在在處處	-10.623
詣王	-10.623
請佛及僧	-10.6233
阿羅	-10.6235
人乎	-10.6235
眾事	-10.6236
之上	-10.6242
若是	-10.6247
諸方	-10.6248
叉手合掌	-10.6258
淨心	-10.6262
一偈	-10.6262
於佛所	-10.6264
凡有	-10.6265
甘露法	-10.6265
但當	-10.6266
正路	-10.6268
四兵	-10.627
不妄	-10.627
二事	-10.6271
於諸眾生	-10.6276
是非	-10.6277
覩其	-10.6278
坐臥	-10.6282
假若	-10.6283
之想	-10.6283
緣是	-10.6285
眼目	-10.6287
慈者	-10.6288
飲水	-10.6291
法財	-10.6291
我知	-10.6291
世尊告諸比丘	-10.6297
異學	-10.6299
不疑	-10.6302
之果	-10.6304
則能	-10.6307
歌舞	-10.6311
之名	-10.6313
散花	-10.6316
惡口	-10.6318
齎持	-10.6319
往生	-10.6327
百劫	-10.6327
能度	-10.633
如如	-10.6332
堪受	-10.6335
門外	-10.6339
結顯	-10.6342
有信	-10.6343
願力	-10.6348
亦皆	-10.6353
得成阿耨多羅三藐三菩提	-10.6356
軀	-10.6383
粗	-10.6385
速得	-10.6385
汝莫	-10.6389
勉	-10.6391
武	-10.6391
突	-10.6394
仍	-10.6394
恚怒	-10.6394
戒定慧	-10.6395
貧乏	-10.6395
拳	-10.6396
除諸	-10.6398
替	-10.6399
出世間	-10.64
清信士	-10.64
良醫	-10.6401
頰	-10.6401
誰當	-10.6402
芥子	-10.6403
與此	-10.6406
豪貴	-10.6407
晨朝	-10.6409
療治	-10.641
十二因緣	-10.641
床座	-10.6411
心歡喜	-10.6412
遠塵離垢	-10.6414
利刀	-10.6414
億那由他百千	-10.6414
利劍	-10.6415
三匝	-10.6416
聖后	-10.6416
禮敬	-10.6419
塵土	-10.642
一生補處	-10.6422
將諸比丘	-10.6427
此間	-10.6431
便成沙門	-10.6433
章句	-10.6433
婆提唎迦	-10.6434
寶幢	-10.6434
王后	-10.6439
威光	-10.644
隨機	-10.6442
百千萬	-10.6446
眾星	-10.6451
清淨心	-10.6453
無二	-10.6456
業緣	-10.6457
而不能	-10.6458
諸結	-10.6459
寶車	-10.6462
第十	-10.6467
頗有	-10.6471
端坐	-10.6476
重病	-10.6483
前行	-10.6483
無福	-10.6489
不堅	-10.6492
造立	-10.6493
持用	-10.6495
云何名為	-10.6499
奉佛	-10.6503
將此	-10.6505
何由	-10.6507
想念	-10.6508
。」』	-10.6509
賢善	-10.6511
?」「	-10.6512
不成	-10.6517
利根	-10.6529
本處	-10.6542
復來	-10.6547
自責	-10.655
於樹下	-10.655
年老	-10.6554
廟	-10.6559
自他	-10.6561
復白	-10.6571
後生	-10.6573
迦葉如來	-10.6581
我雖	-10.6583
紅	-10.6586
誐	-10.6587
一毛	-10.6589
炭	-10.659
祿	-10.659
圓寂	-10.659
雀	-10.6591
勵	-10.6591
涕	-10.6593
潛	-10.6594
慘	-10.6595
覲	-10.6595
捧	-10.6596
俱夷	-10.6597
伸	-10.6598
若有人	-10.6599
罷	-10.6599
住此	-10.6599
織	-10.6599
羡	-10.66
深法	-10.6603
脣	-10.6604
明旦	-10.6605
珊	-10.6607
祇桓	-10.6609
黑暗	-10.6611
修治	-10.6614
之人亦復如是	-10.6614
欲害	-10.6615
服飾	-10.6615
不害	-10.6619
即從坐起	-10.6619
最正覺	-10.6625
得己利	-10.6626
末香	-10.6627
冷水	-10.6628
染污	-10.663
寶瓔珞	-10.6639
報彼	-10.6639
聞知	-10.664
其兒	-10.6645
念曰	-10.6647
不堪	-10.6647
頭面禮	-10.6653
若在	-10.6653
菩提道	-10.6654
供養父母	-10.6658
衣鉢	-10.6658
樂欲	-10.6659
斷一切	-10.666
無價	-10.6661
而為說法	-10.6663
毒害	-10.667
大王當知	-10.667
常念	-10.6672
嚴淨	-10.6675
上首	-10.6681
諸業	-10.6686
還本	-10.6689
放光	-10.6689
最妙	-10.6691
寧可	-10.6692
如幻	-10.6692
六道	-10.6695
竹	-10.6704
答王言	-10.6708
悲哀	-10.6714
不孝	-10.6714
意在	-10.6715
經法	-10.6716
如風	-10.6718
身形	-10.672
度無極行	-10.6721
雜寶	-10.6721
善意	-10.6727
祥	-10.6729
王女	-10.6735
大威德	-10.6736
八戒	-10.6738
諸瓔珞	-10.6738
不愛	-10.674
云何得	-10.6758
所問	-10.6759
聞太子	-10.676
酬	-10.6762
壓	-10.6767
猴	-10.6769
無色界	-10.6777
學問	-10.6779
芽	-10.6785
何也	-10.6788
洪	-10.6789
汗	-10.679
疊	-10.6792
微塵	-10.6793
􂌞	-10.6793
嚕	-10.6794
各各自	-10.6794
妓女	-10.6795
輕慢	-10.6798
牧牛	-10.6798
趺	-10.68
渧	-10.6801
怪哉	-10.6801
愍念	-10.6803
生死苦	-10.6804
萬八千	-10.6805
乳哺	-10.6806
作倡伎樂	-10.6808
妙行	-10.681
水牛	-10.6811
合十指掌	-10.6814
離垢	-10.6814
梵摩達	-10.6814
塗身	-10.6815
晉言	-10.6817
牛王	-10.6817
三百	-10.6818
大火	-10.6821
投身	-10.6822
聞是偈已	-10.6823
虗空	-10.6824
不顧	-10.6826
大神通	-10.6827
今生	-10.6833
花香	-10.6843
意樂	-10.6849
」	-10.6852
悉知	-10.6853
神妙	-10.686
度生死	-10.6862
永不	-10.6863
自活	-10.6863
天魔	-10.6865
生人間	-10.6872
數十	-10.6877
天冠	-10.688
香美	-10.6882
師曰	-10.6888
大龍王	-10.6891
而後	-10.6897
意識	-10.6904
如師子	-10.6905
欲殺	-10.6909
厄難	-10.6912
現行	-10.6921
求食	-10.6923
一切諸天	-10.6925
隨宜	-10.6926
苦厄	-10.6932
皆言	-10.6938
無可	-10.6938
實語	-10.6946
相違	-10.6947
可知	-10.6952
然我	-10.6959
宿世	-10.6959
阿羅漢者	-10.6964
金色王	-10.6966
於上	-10.6968
能忍	-10.6973
而立	-10.6982
戒德	-10.6983
所證	-10.6984
即答言	-10.6986
常得	-10.6987
態	-10.699
朗	-10.6992
媚	-10.6993
嗟	-10.6994
候	-10.6995
脊	-10.6995
無學	-10.6997
疫	-10.6998
瓔	-10.7001
果蓏	-10.7002
煙	-10.7002
迦維羅衛	-10.7003
瑟	-10.7003
悋惜	-10.7003
缺漏	-10.7005
衛護	-10.7005
婆伽婆	-10.7009
貴賤	-10.7009
餅	-10.7012
無所罣礙	-10.7013
非但今日	-10.7017
各相謂言	-10.7019
萬民	-10.7019
未知	-10.702
奉獻	-10.7021
一時佛在	-10.7021
高下	-10.7021
賢者阿難	-10.7025
寶海梵志	-10.7029
金剛座	-10.703
餘處	-10.703
不別	-10.7037
已斷	-10.7046
世樂	-10.7047
親屬	-10.7049
流通	-10.7052
發言	-10.7055
唯願大王	-10.7056
必欲	-10.7057
心淨	-10.7061
於是世尊即	-10.7062
照耀	-10.7063
復前行	-10.7065
作佛事	-10.7068
四事供養	-10.7075
始終	-10.7077
盡皆	-10.7078
有大威德	-10.7078
惡知識	-10.7079
諸神	-10.708
燈明	-10.7086
無有量	-10.7092
有世界名	-10.7095
因是	-10.7103
其夜	-10.7116
說經法	-10.7117
不共	-10.7122
實有	-10.7122
名阿	-10.7125
下至	-10.7126
斯人	-10.7128
獨坐	-10.7134
於一時	-10.714
其聲	-10.7141
善覺	-10.7143
後宮	-10.7146
依法	-10.7153
無障礙	-10.7153
甚懷	-10.7155
是時太子	-10.7158
福樂	-10.7166
帝王	-10.7168
學人	-10.7168
四德	-10.7171
臣言	-10.7172
閻浮提內	-10.7179
奈	-10.7182
詞	-10.7191
得未曾有	-10.7191
妙花	-10.7193
以智	-10.7194
今現在	-10.7194
地上	-10.7194
乖	-10.7195
有八	-10.7195
叩頭	-10.7196
束	-10.7196
疑網	-10.7197
作種種	-10.7197
司	-10.7198
戟	-10.72
苟	-10.72
撿	-10.7203
陣	-10.7204
怯弱	-10.7206
廁	-10.7207
甲冑	-10.7208
寂默	-10.7209
良藥	-10.7209
潤澤	-10.7209
離生死	-10.721
更生	-10.7211
頞	-10.7213
三達	-10.7214
藥叉	-10.7215
天竺	-10.7215
勝德	-10.7215
紫磨	-10.7216
剃髮	-10.7216
怨憎	-10.7216
卒暴	-10.7217
螺髻	-10.7218
膿血	-10.7218
就座	-10.7219
修因	-10.7221
金銀珍寶	-10.7224
迦蘭陀	-10.7224
遺餘	-10.7224
思惟是已	-10.7224
當為汝說	-10.7226
長跪叉手	-10.7227
誦習	-10.7229
如前所說	-10.7232
或能	-10.7234
白銀	-10.7235
阿羅訶	-10.7236
年漸長大	-10.7241
化成	-10.7241
賈人	-10.7243
壞敗	-10.7248
憂慼	-10.7252
稱譽	-10.7254
天衣	-10.7255
命盡	-10.7257
修苦行	-10.7259
二十八	-10.7259
面目	-10.7263
離別	-10.7263
四姓	-10.7265
癡人	-10.7274
敬重	-10.7276
未見	-10.7277
精神	-10.7278
池水	-10.7279
一種	-10.7281
不絕	-10.7282
皆成	-10.7284
宗族	-10.7286
水草	-10.7292
難量	-10.7293
所有一切	-10.7294
佛法僧	-10.7294
到於	-10.7296
我於彼時	-10.7298
仙人言	-10.73
詣於	-10.7305
生活	-10.7307
何如	-10.7317
曇	-10.7317
斯由	-10.7322
成阿羅漢	-10.7326
誓言	-10.7334
俱共	-10.7336
啟王	-10.7338
當用	-10.7339
獨自	-10.7339
左手	-10.7342
本行	-10.7343
憂患	-10.7344
悔恨	-10.7344
眾鳥	-10.7347
歎言	-10.7351
妙華	-10.7361
皆使	-10.7363
何等為	-10.7367
能仁	-10.7375
乘車	-10.7384
何物	-10.7385
告語	-10.7387
無害	-10.7391
有千	-10.7399
真理	-10.7401
供佛	-10.7405
不惜	-10.7408
雞	-10.7409
闡	-10.741
恣意	-10.7411
楚	-10.7411
讓	-10.7412
禱	-10.7413
正觀	-10.7415
四海	-10.7415
填	-10.7417
貝	-10.7417
調達是	-10.7419
知恩報恩	-10.7419
叢林	-10.742
慳悋	-10.7423
一切有情	-10.7423
釜	-10.7423
又曰	-10.7426
禁制	-10.7426
帛	-10.7427
湛然	-10.7429
一時佛在舍衛國祇樹給孤獨園	-10.7429
域	-10.7433
呵責	-10.7434
長老難陀	-10.7435
縱廣正等	-10.7436
兩舌	-10.7439
瞻視	-10.7447
前後圍遶	-10.7449
顧視	-10.7449
當度	-10.745
汝今何故	-10.7451
般若波羅蜜	-10.7456
昇虛空	-10.7456
火然	-10.7458
當往	-10.746
迴轉	-10.7464
悉達多	-10.7465
佛經	-10.7465
為菩薩時	-10.7473
諸童子	-10.7476
老人	-10.7481
是大沙門	-10.7487
獲報	-10.7488
占相	-10.7491
以金	-10.7494
法幢	-10.7495
共議	-10.7499
退失	-10.7499
曾為	-10.7504
實相	-10.7508
觀門	-10.751
納受	-10.7511
大山	-10.7514
狐	-10.7514
善人	-10.7525
無怖	-10.753
下結	-10.7532
鹿母	-10.7537
願求	-10.7537
教化眾生	-10.7539
有一比丘	-10.7545
摩竭國	-10.7551
正受	-10.7552
無惱	-10.7552
應感	-10.7553
執著	-10.7558
是故我	-10.7558
能發	-10.7559
立誓	-10.7568
既到	-10.7568
以智慧	-10.7571
習行	-10.7572
憎	-10.7575
有福	-10.7575
便可	-10.7576
竟不	-10.7579
身毛	-10.758
吾我	-10.7584
賈	-10.7586
百種	-10.7591
假令	-10.7592
以是故	-10.7598
幾時	-10.76
數千	-10.7603
鬚	-10.7605
如我所	-10.7609
其城	-10.7612
悋	-10.7613
諸眾生故	-10.7615
皷	-10.7615
常能	-10.7615
之體	-10.7619
謬	-10.7619
吾身是也	-10.7623
斥	-10.7624
形相	-10.7625
陽	-10.7625
終日	-10.7627
紛	-10.7628
此城	-10.7628
將詣	-10.763
護身	-10.7632
當何	-10.7634
如蛇脫故皮	-10.7634
東西南北	-10.7638
喘息	-10.7638
肌	-10.7639
薩薄	-10.7639
膏	-10.764
迦葉佛	-10.764
隨佛	-10.7641
困苦	-10.7644
無垢性	-10.7646
式	-10.7647
躃地	-10.7648
共相娛樂	-10.7649
戰鬪	-10.7649
消息	-10.7649
拘盧	-10.7649
世間人	-10.7651
夫主	-10.7652
悲心	-10.7652
行七步	-10.7653
瑕穢	-10.7653
縱廣	-10.7654
然燈佛	-10.7654
傍臣	-10.7655
娑毘耶	-10.7661
積德	-10.7666
正法住世	-10.7667
有兩	-10.7668
具八解脫	-10.7669
無怨	-10.7674
隨心	-10.7675
往至佛所	-10.7676
善妙	-10.7679
法服著身	-10.7679
力強	-10.7679
唯見	-10.768
宿殖何福	-10.7686
遂便	-10.7686
喻中	-10.7694
欲想	-10.7701
以慈	-10.7703
驚怪	-10.7704
亦復然	-10.7711
詣向	-10.7715
親愛	-10.7717
五逆	-10.7717
二十九	-10.7717
汝等今者	-10.7718
長遠	-10.772
受罪	-10.772
初夜	-10.7722
自證	-10.7728
來歸	-10.7729
九者	-10.7733
尊敬	-10.7733
後夜	-10.7739
慧命	-10.7741
善友太子	-10.7743
隨我	-10.7745
牛羊	-10.775
鐵圍山	-10.7751
國城	-10.7752
不必	-10.7755
國主	-10.7759
一劫	-10.7762
欲取	-10.7763
德本	-10.7766
所習	-10.7768
所感	-10.7768
所敬	-10.7773
妙覺	-10.7781
太子前	-10.7788
作何等	-10.7802
安居	-10.7812
翼	-10.7823
羅云	-10.7824
雜色	-10.7824
聖智	-10.7826
但以	-10.7831
奉施	-10.7833
法味	-10.7834
菴	-10.7834
周徧	-10.7837
刻	-10.784
尺	-10.7843
往白	-10.7843
糧	-10.7847
汝應	-10.7849
映	-10.7852
降伏魔	-10.7853
惓	-10.7856
估客	-10.7857
土地	-10.786
成菩提	-10.7861
抂	-10.7861
安坐	-10.7861
右旋	-10.7861
悶絕	-10.7862
否	-10.7864
慈父	-10.7864
車馬	-10.7865
植	-10.7865
憍尸迦	-10.7866
壍	-10.7868
賴吒和羅	-10.7868
而為上首	-10.7868
在大眾中	-10.787
憂悲苦惱	-10.787
疲勞	-10.7871
增減	-10.7871
捺	-10.7871
摶	-10.7874
付囑	-10.7876
鹿野苑中	-10.7878
恩德	-10.7878
語之言	-10.7881
偏袒右肩	-10.7882
調順	-10.7885
石室	-10.7885
遶佛三匝	-10.7887
生於天上	-10.7888
解了	-10.7889
愚冥	-10.7889
具陳	-10.7889
內自思惟	-10.7892
不假	-10.7893
業障	-10.7903
一月	-10.7905
求願	-10.7907
聲聞乘	-10.7908
放捨	-10.7911
勞苦	-10.7917
在外	-10.792
能觀	-10.792
車匿言	-10.7923
一世	-10.7923
惡鬼	-10.7925
臣佐	-10.7927
六情	-10.7931
更求	-10.7931
苦難	-10.7932
于地	-10.7934
小乘	-10.7937
過數	-10.7942
大聖太子	-10.7944
亦無有	-10.7945
於虛空	-10.7948
正顯	-10.7951
大喜	-10.796
得人身	-10.7963
所縛	-10.7971
世間所有	-10.7979
來集	-10.7982
生憂	-10.7988
名號	-10.7993
如是語已	-10.8003
父言	-10.8005
怙	-10.8006
之辭	-10.8013
俱生	-10.8014
與共	-10.8025
時有一人	-10.8033
未曾見	-10.8033
昨	-10.8034
平復	-10.8054
判	-10.8058
准	-10.8062
喪身	-10.8067
縣	-10.8071
耻	-10.8071
隔	-10.8073
訟	-10.8077
一切施	-10.8079
校	-10.8079
願樂	-10.808
甜	-10.808
奧	-10.8083
不懈	-10.8083
富那奇	-10.8085
階	-10.8086
所纏	-10.8086
拄	-10.8088
地獄餓鬼畜生	-10.8088
三摩地	-10.8088
宰	-10.8089
粟	-10.809
惰	-10.8091
盜賊	-10.8094
之理	-10.8096
善思念之	-10.8097
幻化	-10.8098
曾聞	-10.81
猶豫	-10.8102
有二義	-10.8105
尊卑	-10.8106
等覺	-10.8107
默然而住	-10.8109
青衣	-10.811
華嚴	-10.811
耳鼻	-10.8111
說是語已	-10.8112
果實	-10.8112
最為第一	-10.8113
乞者	-10.8117
所困	-10.8118
栴檀香	-10.8118
還自	-10.8119
何法	-10.812
採取	-10.8121
共議言	-10.8122
乞索	-10.8125
現在住世	-10.8126
藥草	-10.8127
還去	-10.8127
磨滅	-10.8139
大千	-10.814
神通變化	-10.8142
悉來	-10.8145
亦兼	-10.8145
輸檀王	-10.8147
梵釋	-10.8148
獨尊	-10.8151
福利	-10.8152
惱亂	-10.8154
業力	-10.8162
樹下坐	-10.8169
六根	-10.8169
宿緣	-10.8172
常在	-10.8175
弘誓	-10.8181
生靈	-10.8186
阿羅漢果	-10.8194
永盡	-10.8199
麤惡	-10.8205
山頂	-10.8206
伽陀	-10.8208
阿修羅王	-10.8209
我今可	-10.8212
難捨	-10.8214
錯亂	-10.8216
生大歡喜	-10.8216
教人	-10.8217
皆悉具足	-10.8218
實為	-10.8222
豈能	-10.8238
有六	-10.8239
口出	-10.8243
病苦	-10.8244
佛說如是	-10.8245
能障	-10.8249
興起	-10.8251
自己	-10.8263
師子王	-10.8266
敬心	-10.8268
諸有情	-10.827
志願	-10.8271
寶山	-10.8275
隋	-10.8275
眾聖	-10.8276
其兄	-10.8277
毘羅	-10.8288
蹔	-10.8289
途	-10.8299
蠱	-10.8299
出火	-10.83
掉	-10.83
且約	-10.8302
以七寶	-10.8306
囊	-10.831
撾	-10.8311
迫	-10.8312
眉	-10.8312
師徒	-10.8313
攀	-10.8315
惻	-10.8315
暇	-10.8319
叡	-10.8319
詔	-10.8321
百由旬	-10.8322
罣礙	-10.8323
祠祀	-10.8326
拍	-10.8327
以天眼觀	-10.8327
萬端	-10.8329
殷	-10.8329
勸助	-10.833
撰	-10.8334
河岸	-10.8335
白衣	-10.8335
異口同音	-10.8339
說微妙法	-10.834
價直	-10.8341
所有眾生	-10.8342
自謂	-10.8343
無乏	-10.8345
善道	-10.8345
迷悶	-10.8346
螺髻梵志	-10.8347
得羅漢道	-10.8347
諸山	-10.8348
恒河	-10.8353
不可限量	-10.8355
佛即告	-10.8363
波離婆闍迦	-10.8363
不厭	-10.8367
殘害	-10.8367
迦尸國	-10.8368
火鬘	-10.8372
之徒	-10.8375
復問言	-10.8386
諸罪	-10.8388
設有	-10.8393
作如是說	-10.8394
繫念	-10.8402
生疑	-10.8402
戒律	-10.8405
勤求	-10.8408
求出家	-10.8411
頭陀	-10.8412
生厭離	-10.8414
檀波羅蜜	-10.8422
可意	-10.8425
破戒	-10.8426
未免	-10.8426
受三歸	-10.8431
彌勒菩薩	-10.8433
寶冠	-10.8438
實爾	-10.8442
入水	-10.8444
二障	-10.8445
一食	-10.8446
億百千	-10.8448
受斯	-10.8448
大海水	-10.8452
山神	-10.8458
所疑	-10.846
用作	-10.8461
慈哀	-10.8464
今既	-10.8465
貢	-10.8467
寶樹	-10.8472
不停	-10.8477
必能	-10.8483
轉相	-10.8489
化生	-10.8499
語王言	-10.8501
為根本	-10.8502
信施	-10.8505
能照	-10.8506
七珍	-10.851
重罪	-10.851
獨行	-10.8513
放光明	-10.8516
道成	-10.8517
證果	-10.852
苦海	-10.8521
三句	-10.8534
蒙佛	-10.8536
第八	-10.8537
斤	-10.8545
匝	-10.8546
唾	-10.8548
躭	-10.855
次句	-10.8554
戾	-10.8556
斗	-10.8556
螫	-10.8558
芬	-10.8559
嗜	-10.856
出如是聲	-10.8561
淳	-10.8561
囚	-10.8562
寇	-10.8562
謹慎	-10.8562
摧伏	-10.8563
舉聲大哭	-10.8563
愕然	-10.8564
孫陀利	-10.8565
陸地	-10.8566
以神足	-10.8567
挑	-10.8568
色欲	-10.8569
已辦	-10.857
殊異	-10.8572
今正是時	-10.8573
城郭	-10.8573
書寫	-10.8576
佛及僧	-10.858
和悅	-10.858
轉正法輪	-10.8581
從他	-10.8585
契經	-10.8585
豈異	-10.8588
便說此偈	-10.8588
調和	-10.8589
覆蓋	-10.8591
年少沙門	-10.8592
如是種種	-10.8593
能感	-10.8594
六塵	-10.8596
毀壞	-10.8602
萬億	-10.8604
腹中	-10.8607
供養如來	-10.8608
噉食	-10.8609
自娛	-10.8621
莊嚴具	-10.8627
世榮	-10.8634
承受	-10.8637
歎說	-10.8644
起滅	-10.8644
功夫	-10.8649
當學	-10.8651
王夫人	-10.8652
慈悲心	-10.8657
其有眾生	-10.8661
斯須	-10.8662
遍覆	-10.8662
報應	-10.8665
摩尼珠	-10.8669
倍增	-10.8673
兩足	-10.8679
勿得	-10.8683
崇修	-10.8684
稱善	-10.8686
發遣	-10.869
變現	-10.8698
滿中	-10.8699
地神	-10.8707
真性	-10.8709
聖教	-10.8719
有一子	-10.8728
在虛空	-10.8735
如金剛	-10.8737
事業	-10.8743
有如是等	-10.8746
并諸	-10.8747
其體	-10.8752
往問	-10.8756
覺意	-10.8764
珠寶	-10.8768
害心	-10.877
應須	-10.8777
川	-10.8781
執意	-10.8784
無有餘	-10.8785
總標	-10.8786
修行人	-10.8786
閒	-10.8788
法華	-10.8792
津	-10.8795
五事	-10.8795
虔	-10.8795
駈	-10.8799
啟白	-10.8802
鞍	-10.8803
妹	-10.8804
於空中	-10.8805
巡	-10.8805
三千大千	-10.8807
挍	-10.8807
妙觀	-10.8807
羡那	-10.8809
飢饉	-10.881
卑賤	-10.881
傘蓋	-10.8811
」「	-10.8812
捷疾	-10.8814
案	-10.8814
漸次	-10.8814
條	-10.8815
長短	-10.8816
江河	-10.8816
闇冥	-10.8817
尼提	-10.8817
黠慧	-10.8818
於晨朝時	-10.8821
綺語	-10.8822
宗親	-10.8822
焚	-10.8826
生一男兒	-10.8826
五濁惡世	-10.8826
微塵數	-10.8828
於外	-10.8828
昔有一人	-10.883
少雙	-10.883
數日	-10.8831
悅意	-10.8833
拘離多	-10.8834
終始	-10.8835
得阿羅漢道	-10.8835
長者居士	-10.8835
句義	-10.8839
受五欲	-10.8843
手脚	-10.8846
舉動	-10.885
教勅	-10.8852
唯然世尊	-10.8856
說伽陀	-10.8857
取滅度	-10.8858
受形	-10.8859
住止	-10.8861
就坐	-10.8862
謂既	-10.8863
受快樂	-10.8863
罪業	-10.8864
正教	-10.8865
阿私陀仙	-10.8865
五千	-10.8868
亂想	-10.8869
音響	-10.8885
臨終	-10.8887
五色	-10.8888
向菩薩	-10.8891
一切所須	-10.8896
行詣	-10.8896
居住	-10.8899
遂成	-10.8902
諸眾生等	-10.8904
波斯匿	-10.8911
勸令	-10.8913
遙見世尊	-10.8914
白馬	-10.8916
自惟	-10.8923
汝父	-10.8924
美食	-10.8933
盈滿	-10.8935
之音	-10.8944
化作一	-10.8953
為眾生故	-10.8953
能離	-10.8954
離諍王	-10.8964
永滅	-10.8967
百二十	-10.8969
煩惱障	-10.8971
現在諸佛	-10.8972
諸親	-10.8972
業果	-10.8973
倒見	-10.8979
執杖	-10.8984
佐	-10.8985
斷煩惱	-10.8986
雖多	-10.8991
豈有	-10.8994
樹葉	-10.9004
通利	-10.9024
漢	-10.9024
財利	-10.9025
不惟	-10.9025
警策	-10.9026
為何所	-10.9027
賢劫中	-10.9044
躡	-10.9045
虧	-10.9046
粳米	-10.9048
翫	-10.9048
而作是念	-10.905
富蘭那	-10.9051
鷲	-10.9052
般泥洹	-10.9054
額	-10.9056
歸於	-10.9056
朋	-10.9057
青蓮	-10.9058
怨讎	-10.9059
佛同號	-10.9059
鑽	-10.906
慧明	-10.9061
楚毒	-10.9062
園苑	-10.9062
清徹	-10.9063
祇陀	-10.9064
嬉戲	-10.9064
完具	-10.9064
諂曲	-10.9064
以本願故	-10.9065
權實	-10.9065
池沼	-10.9065
來會	-10.9066
當爾之時	-10.9067
名曰善	-10.907
於其中間	-10.9073
他化自在天	-10.9075
四大天王	-10.9081
唯除	-10.9082
行於梵行	-10.9084
應當知	-10.9084
天耳	-10.9089
食肉	-10.9091
指示	-10.9091
於我所	-10.9092
獨步	-10.9094
之境	-10.9095
詮	-10.9097
彼諸菩薩	-10.9101
法藏	-10.9108
而說此偈	-10.9108
成阿耨多羅三藐三菩提已	-10.911
三十七	-10.9113
宜速	-10.9117
長子	-10.9119
抱持	-10.9121
自恃	-10.9121
設當	-10.9124
時波斯匿王	-10.9125
供養恭敬	-10.9131
猛風	-10.9134
八部	-10.9141
香風	-10.9142
正信	-10.9146
無敢	-10.9151
貪婬	-10.9152
各各相	-10.9161
豪族	-10.9163
僧寶	-10.9169
經過	-10.9173
有七寶	-10.9182
懷歡喜	-10.9187
種類	-10.9187
寶殿	-10.9192
生長	-10.9195
諦觀	-10.9201
我當為	-10.9201
不知何	-10.9212
去離	-10.9246
生人中	-10.9247
更不受	-10.9248
過惡	-10.925
盲人	-10.9257
照世間	-10.9259
造惡	-10.926
自莊嚴	-10.926
例	-10.9286
於正法	-10.9287
苦毒	-10.9288
命根	-10.9295
激	-10.9296
簡	-10.9297
著地	-10.9299
陋	-10.9299
徵釋	-10.9301
影像	-10.9301
危脆	-10.9303
慈惠	-10.9303
坐樹下	-10.9305
惡露	-10.9306
煎	-10.9306
縮	-10.9306
應當安住阿蘭若處	-10.9306
悶	-10.9307
謹	-10.9308
嚴峻	-10.9308
麁	-10.9309
葬	-10.931
唼	-10.931
擾亂	-10.931
穌	-10.9311
災患	-10.9312
拾	-10.9315
暗慢	-10.9315
瞋恨	-10.9316
當成阿耨多羅三藐三菩提	-10.9316
抒	-10.9316
婁	-10.9316
巨富	-10.9317
莊飾	-10.9317
器仗	-10.9318
大愛道	-10.9318
枕	-10.9319
昔佛在舍衛國祇樹給孤獨園	-10.9319
具戒	-10.932
證涅槃	-10.932
卷第六	-10.9321
號哭	-10.9323
羯	-10.9323
三千世界	-10.9323
所生之處	-10.9323
民眾	-10.9323
遙聞	-10.9324
佐助	-10.9324
七十	-10.9325
拔出	-10.9327
如佛所說	-10.9327
童男	-10.9329
父母兄弟	-10.9331
紹王位	-10.9331
奇哉	-10.9331
所從來	-10.9332
得善利	-10.9332
尸羅	-10.9335
光澤	-10.9335
僕使	-10.9337
剃髮師	-10.934
親厚	-10.9341
聰明智慧	-10.9342
人民熾盛	-10.9343
有娠	-10.9353
眾患	-10.9356
辟支佛乘	-10.9358
大悲菩薩	-10.9361
進趣	-10.9367
坐起	-10.9384
手持	-10.939
真是	-10.9391
以此因緣	-10.9396
如須彌山	-10.9404
從今日	-10.9406
速往	-10.9412
往詣彼	-10.9412
十歲	-10.9416
反更	-10.9417
堪為	-10.942
七年	-10.9429
大姓	-10.9432
此岸	-10.9443
悅豫	-10.9444
鐵圍	-10.9451
千里	-10.9465
甚善	-10.9468
種種雜	-10.9472
好樂	-10.9472
諸鳥	-10.9473
汝今云何	-10.9485
執行	-10.949
亦隨	-10.9493
漸至	-10.9493
阿難白佛	-10.9495
於諸三昧	-10.9496
停住	-10.9499
不悅	-10.9499
慳嫉	-10.9499
品下	-10.9501
種種說法	-10.9504
釋迦文	-10.9513
敬信	-10.9516
諸比丘言	-10.9516
手中	-10.9522
莊嚴佛土	-10.9526
推求	-10.9526
大魚	-10.953
福盡	-10.953
貪嫉	-10.9532
食飲	-10.9541
駝	-10.9541
嬰兒	-10.955
膚	-10.9552
盡未來際	-10.9552
秉	-10.9554
濟眾	-10.9559
亦莫	-10.956
願垂	-10.9562
聞聲	-10.9562
貿	-10.9564
乘船	-10.9566
迸	-10.9567
信樂	-10.9567
霜	-10.9568
犁	-10.9569
是諸眾生	-10.9569
鎮	-10.9569
隙	-10.957
帝釋天主	-10.9573
堪能	-10.9574
訪	-10.9575
高樓	-10.9576
渠	-10.9577
或執	-10.9578
叫喚	-10.9578
明達	-10.9578
艱難	-10.9579
擯	-10.9579
拭	-10.958
阿脩羅	-10.9582
瞋忿	-10.9583
祭	-10.9583
篤信	-10.9584
刀杖	-10.9585
四遠	-10.9586
街巷	-10.9587
所學	-10.9587
兜	-10.9588
鬪戰	-10.9589
昔有一	-10.9589
前後圍繞	-10.959
願我來世	-10.9591
頗胝迦	-10.9592
交露	-10.9594
寒熱	-10.9599
曼陀羅華	-10.9599
佛土微塵數	-10.9603
復次善男子	-10.9604
萬德	-10.9605
汝於來世	-10.9606
半身	-10.961
恒河沙	-10.9613
將軍	-10.9613
如須彌	-10.9614
說偈讚	-10.9615
四無所畏	-10.9616
覺了	-10.9616
如來出世	-10.9621
如百千日	-10.9622
大患	-10.9627
名譽	-10.9629
復有五百	-10.9632
六種	-10.9634
至孝	-10.9643
生忉利天	-10.9643
我等輩	-10.9645
於時世尊	-10.9648
立字	-10.9655
畏懼	-10.9661
聚會	-10.9661
各持	-10.9662
子息	-10.9664
財寶無量	-10.9666
先瑞相	-10.9666
遂至	-10.9678
各異	-10.968
孝子	-10.9683
處胎	-10.9694
其妻	-10.9694
流出	-10.9696
奔馳	-10.9697
令諸眾生	-10.9699
試之	-10.9701
迴車	-10.9708
獄卒	-10.9712
惡世	-10.9715
釋義	-10.9723
善權	-10.9724
極妙	-10.9731
不避	-10.9731
阿闍世	-10.9742
高聲	-10.975
上品	-10.9753
度彼岸	-10.9756
財產	-10.9756
河水	-10.9762
受諸苦	-10.9765
其弟	-10.9769
異類	-10.9772
各隨	-10.9774
心垢	-10.9792
如實知	-10.9794
事理	-10.9798
相承	-10.9799
著衣	-10.9801
被服	-10.9803
金鉢	-10.9804
勿復	-10.9807
今我身是	-10.9815
卵	-10.9819
二十一	-10.9821
。」【△	-10.9823
愆	-10.9824
較量	-10.9826
斛	-10.9828
終不能	-10.9831
抑	-10.9832
犬	-10.9833
六日	-10.9834
屏	-10.9834
巨海	-10.9834
讐	-10.9835
鼠	-10.9835
翁	-10.9835
貞	-10.9835
劒	-10.9836
倉	-10.9836
裝	-10.9837
晚	-10.9838
得道迹	-10.9839
吉凶	-10.9839
忿怒	-10.9839
憎嫉	-10.9839
糜	-10.984
貪瞋癡	-10.9841
未甞	-10.9841
利益眾生	-10.9841
夫人婇女	-10.9842
崖	-10.9842
劫盡	-10.9842
大醫王	-10.9843
矢	-10.9844
懷憂	-10.9845
濡	-10.9847
見佛聞法	-10.9847
熾燃	-10.9848
藉	-10.9848
淨居諸天	-10.9848
攝意	-10.9852
掬	-10.9854
耆舊	-10.9854
槍	-10.9855
游	-10.9855
優鉢羅華	-10.9856
群賊	-10.9859
擊鼓	-10.9859
白大王	-10.9863
魔子	-10.9863
拘胝	-10.9864
利益安樂	-10.9865
諸天龍神	-10.9866
受其報	-10.9868
是中有佛	-10.9872
尸棄	-10.9872
翼從	-10.9874
佛塔	-10.9875
嚩	-10.9878
作禮而去	-10.9879
賢愚	-10.9882
彼仙人	-10.9884
甘果	-10.9889
佛即為其	-10.9891
多羅樹	-10.9892
受化	-10.9892
乳母	-10.9893
吉利	-10.9893
能詮	-10.9895
愛戀	-10.9899
變異	-10.9899
輕重	-10.9904
備具	-10.9909
』」	-10.991
三品	-10.9912
道逢	-10.9916
歎德	-10.9918
成等正覺	-10.9918
倒地	-10.992
能伏	-10.9923
何異	-10.9932
覆其上	-10.9933
神識	-10.9935
所攝	-10.9935
曹	-10.9938
淨水	-10.9939
五蓋	-10.9942
三世如來	-10.9943
若有善男子	-10.9943
眼識	-10.9947
初地	-10.9956
威勢	-10.9958
怨賊	-10.9959
八千	-10.9963
有四種	-10.9968
火宅	-10.9968
多劫	-10.997
不從他	-10.9992
摩尼寶	-11.0009
小國王	-11.0009
諸珍寶	-11.0018
諸苦惱	-11.0023
於其中	-11.0025
即自思惟	-11.0034
此珠	-11.0039
不許	-11.0042
巨	-11.0046
小國	-11.0057
懷恐怖	-11.0067
合成	-11.0068
下車	-11.0079
法句	-11.0079
火光	-11.0079
象師	-11.0086
格	-11.0086
三乘法	-11.0089
歡喜無量	-11.0092
觀視	-11.0093
題	-11.0095
軌	-11.0098
鍊	-11.0102
泰	-11.0103
綺	-11.0107
氷	-11.011
肝	-11.011
生一子	-11.0111
板	-11.0112
沃	-11.0114
太平	-11.0117
淤泥	-11.0117
夕	-11.0119
善慧	-11.0119
翹	-11.012
以是義故	-11.012
受大苦惱	-11.0121
骸	-11.0121
畢鉢羅耶	-11.0124
王聞是已	-11.0125
各與若干百千眷屬俱	-11.0125
綵	-11.0125
塹	-11.0127
望得	-11.0128
梵德	-11.0129
豐饒	-11.0129
嗚	-11.013
鍾	-11.013
車𤦲	-11.0131
得應真	-11.0134
遍滿其體	-11.0135
佗	-11.0135
波頭摩	-11.0135
諸天在於虛空	-11.0137
屠兒	-11.0137
族姓子	-11.0138
三世諸佛	-11.0144
良久	-11.0145
等類	-11.0146
喪失	-11.0148
受具足戒	-11.015
往返	-11.0157
一錢	-11.0158
足滿十月	-11.0162
而供養之	-11.0164
無量世中	-11.0165
內懷	-11.0168
眾祐	-11.0168
父母恩	-11.0175
資用得	-11.0202
過去世	-11.0204
何因緣	-11.0223
數百	-11.0225
床上	-11.0229
兩兒	-11.0229
忉利天上	-11.0231
樂器	-11.0233
來乞	-11.0236
受苦惱	-11.0237
大道人	-11.0239
閻浮提中	-11.0241
鴈王	-11.0251
未斷	-11.0253
有何因緣	-11.0255
頂生	-11.0259
長壽王	-11.0261
出三界	-11.0263
能治	-11.0266
受胎	-11.0271
二十二	-11.0271
色像	-11.0276
五欲樂	-11.0279
相似	-11.0287
當於爾時	-11.0298
不慮	-11.0303
居止	-11.0305
犯戒	-11.0307
是處菩薩	-11.031
憎惡	-11.0316
卷第二十	-11.0323
愛重	-11.0324
金寶	-11.0324
一切人天	-11.0327
所夢	-11.0352
溢	-11.0365
那伽	-11.0373
於大眾中	-11.0375
猫	-11.0376
秘密	-11.0376
克	-11.0381
丹	-11.0383
不淨觀	-11.0384
無減	-11.0385
鶴	-11.0388
禽	-11.039
駒	-11.039
諸菩薩摩訶薩	-11.0392
姑	-11.0393
閻	-11.0393
耽	-11.0397
踈	-11.0397
祕	-11.0398
肘	-11.0398
瞿多彌	-11.04
叔	-11.04
詰	-11.0401
奔走	-11.0401
籠	-11.0402
裸形	-11.0403
奄	-11.0403
餓虎	-11.0405
守門者	-11.0405
!』「	-11.0406
人壽百歲	-11.0406
鑒	-11.0407
愁憂不樂	-11.0407
泥犁	-11.0411
困厄	-11.0411
歡娛	-11.0411
涕淚	-11.0411
嵐	-11.0411
無上正真之道	-11.0411
聽經	-11.0413
追逐	-11.0414
孤獨	-11.0414
好醜	-11.0415
不受後有	-11.0415
細軟	-11.0416
炳	-11.0416
咄哉	-11.0417
號釋迦牟尼	-11.0417
今在何處	-11.0418
飛騰虛空	-11.0418
前後導從	-11.0418
卷第七	-11.0419
怛	-11.0422
具足聞持	-11.0425
賒	-11.0425
累劫	-11.0427
優波低沙	-11.0429
受諸苦惱	-11.043
菩提場	-11.043
誠信	-11.0433
淨佛土	-11.0436
何足	-11.0437
踊躍歡喜	-11.0438
豪富	-11.0439
羣生	-11.0439
百味飲食	-11.0441
阿鼻地獄	-11.0441
如意珠	-11.0441
義兼	-11.0442
如我今也	-11.0446
災難	-11.0446
稱歎	-11.0453
無慢	-11.0458
臭處	-11.0459
至無為	-11.046
下劣	-11.046
清白	-11.0463
塔廟	-11.0464
出迎	-11.0465
大河	-11.0468
馱	-11.0471
起大慈	-11.0479
大目揵連	-11.0481
於佛法	-11.0483
設方便	-11.0483
神德	-11.0485
無有是處	-11.0485
尊者阿難	-11.0495
況我	-11.0495
即便命終	-11.0495
光明照	-11.0497
下句	-11.0499
即於佛前	-11.0502
滅罪	-11.0505
寶鈴	-11.0506
瓶沙王	-11.0513
志性	-11.0513
少許	-11.0516
墮三惡道	-11.0522
限量	-11.0522
龍神	-11.0524
釋迦如來	-11.0524
溺人	-11.0533
至彼岸	-11.0551
感應	-11.0554
遍觀	-11.0557
未曾聞	-11.0561
後園	-11.0567
於往昔	-11.0574
行菩薩行	-11.0586
臣等	-11.0591
大德沙門	-11.0592
真淨	-11.0598
阿那含者	-11.06
千葉	-11.061
貪樂	-11.0615
能辦	-11.0623
寶衣	-11.0637
四種兵	-11.0638
差摩	-11.0647
壽盡	-11.0653
許可	-11.0655
護念	-11.0655
靜處	-11.0656
歷劫	-11.0669
篋	-11.0675
嘉	-11.068
凝	-11.0681
展	-11.0681
黎庶	-11.0683
疏	-11.0684
啄	-11.0685
技術	-11.0688
飄	-11.0689
苗	-11.069
伯	-11.0692
效	-11.0692
聾	-11.0695
鐵丸	-11.0695
拒	-11.0695
職	-11.0695
姊	-11.0696
墓	-11.0696
巨細	-11.0696
匿	-11.0698
僮僕	-11.0701
胞胎	-11.0701
姝	-11.0701
剛強	-11.0701
駛	-11.0703
鮮潔	-11.0704
四無垢性	-11.0705
為佛弟子	-11.0706
闊	-11.0706
街	-11.0708
阿誐多	-11.0708
仇	-11.0709
質直	-11.0709
未久之間	-11.071
佛法僧寶	-11.071
富樂	-11.071
汝今可	-11.0711
剜	-11.0712
八關齋	-11.0712
嶮難	-11.0713
喪命	-11.0713
七覺意	-11.0713
迦蘭	-11.0714
醉象	-11.0714
眴	-11.0714
外道異學	-11.0715
界性	-11.0715
繒綵	-11.0716
壯士	-11.0717
曲躬	-11.0717
訓誨	-11.0718
忽然不現	-11.0719
流泉	-11.0719
皮肉	-11.072
山川	-11.072
技藝	-11.072
天王釋	-11.0722
石蜜	-11.0726
精進力	-11.0729
指鬘	-11.073
無量百千萬億	-11.0735
危害	-11.0737
有王名	-11.0739
語舍利弗	-11.0742
婆羅門家	-11.0743
諸小王	-11.0745
不能捨離	-11.0745
稱量	-11.0748
拔提	-11.075
散華	-11.0753
尊者舍利弗	-11.0756
何福	-11.0757
家居	-11.0758
遊獵	-11.0761
末後	-11.0763
白太子	-11.0765
天上人間	-11.0765
死亡	-11.0773
化導	-11.0776
怨恨	-11.078
大名稱	-11.0781
如其所	-11.0783
普賢	-11.0785
時彼國王	-11.0786
惑業	-11.0787
初禪	-11.0791
妙理	-11.0795
請問	-11.0796
解釋	-11.0797
天趣	-11.0798
隨類	-11.0802
清明	-11.0809
王及夫人	-11.0814
於我邊	-11.0816
百千劫	-11.0817
熾火	-11.0819
在人間	-11.0827
速起	-11.0828
四神足	-11.0838
日光明	-11.0848
美味	-11.0849
曉了	-11.085
違失	-11.0867
諮受	-11.0873
有三種	-11.088
剃頭	-11.0882
眾惱	-11.0884
摩那	-11.0887
如師子王	-11.0887
以是因緣故	-11.0905
給與	-11.0906
悲願	-11.0912
不自覺	-11.0916
患難	-11.0916
斯陀含者	-11.0929
專精	-11.0929
王大歡喜	-11.0933
行梵行	-11.0953
沉	-11.0957
羹	-11.0968
尤	-11.0982
積年	-11.0984
杵	-11.0985
魂	-11.0986
脇	-11.0993
庭	-11.0995
攀緣	-11.0997
驚愕	-11.1
僧坊	-11.1004
椎	-11.1005
爐	-11.1005
德光太子	-11.1006
屎	-11.1007
陌	-11.1008
戰慄	-11.1008
身壞命終	-11.101
逃走	-11.101
彩	-11.1012
俟	-11.1013
罽賓	-11.1014
瞋怒	-11.1015
掃灑	-11.1017
博戲	-11.1018
了達	-11.102
淨潔	-11.1021
諷誦	-11.1021
左右圍遶	-11.1021
律儀	-11.1021
毒蟲	-11.1022
苷蔗	-11.1023
整衣服	-11.1024
廣博	-11.1025
為柱及以梁棟	-11.1027
為臺即	-11.1028
對治	-11.103
熏修	-11.1032
世所希有	-11.1034
半由旬	-11.1036
來聽法	-11.1037
反覆	-11.1037
香湯	-11.1037
廣說如契經	-11.1038
甚為難	-11.1039
有得須陀洹者	-11.1039
千億	-11.1039
刀劍	-11.1043
二十四	-11.1043
甘露味	-11.1043
相謂言	-11.1045
所見敬仰	-11.1047
悲號	-11.1051
歎譽	-11.1054
加害	-11.106
微塵等	-11.1064
纏裹	-11.1064
惹	-11.1064
感動	-11.1064
慎勿	-11.1067
水洗	-11.1073
為甲	-11.1085
修十善	-11.1086
喜歡	-11.1089
白世尊曰	-11.1095
高遠	-11.1102
愛憎	-11.1129
諸菩薩眾	-11.1129
本形	-11.1131
種種珍寶	-11.1135
長跪白佛	-11.1138
倍生	-11.1148
最後身	-11.115
白其父	-11.1153
八方	-11.1154
於彼處	-11.1155
禮足	-11.1156
村人	-11.116
頭目	-11.1161
而眠	-11.1172
佛出世	-11.118
仙聖	-11.1181
徑路	-11.119
暴風	-11.1193
心地觀	-11.1196
欲何所	-11.1197
希有世尊	-11.12
鬘論	-11.1201
淨飯	-11.1207
修善行	-11.1208
一心念	-11.1224
止宿	-11.1226
宜可	-11.1227
山間	-11.1227
便作是念	-11.1228
稽首禮	-11.1231
無事不	-11.1232
在其中	-11.1245
所證之	-11.1253
神祇	-11.1272
牸	-11.1274
夫妻	-11.1274
合掌恭敬	-11.1279
護口	-11.1281
回	-11.129
那羅	-11.129
片	-11.129
尼拘陀樹	-11.1291
迦栴延	-11.1295
黎	-11.1297
荷	-11.13
寸	-11.1305
析	-11.1305
掠	-11.1306
甞	-11.1307
莊	-11.1307
層	-11.1308
註	-11.1309
遐	-11.1309
火所燒	-11.131
拯濟	-11.131
陶	-11.131
鑊	-11.131
無等倫	-11.1311
縱橫	-11.1313
院	-11.1313
瞿夷	-11.1313
難思議	-11.1314
瞬	-11.1316
皺	-11.1316
康	-11.1316
撮	-11.1316
某甲	-11.1316
腦	-11.1317
疼痛	-11.1318
涕唾	-11.1319
從三昧起	-11.132
又觀自身	-11.132
一日一夜	-11.132
眉間	-11.1322
韋陀	-11.1324
沒溺	-11.1324
嚴麗	-11.1325
猶未	-11.1328
含笑	-11.1328
揵陟	-11.133
枯竭	-11.1331
和雅	-11.1331
稽首作禮	-11.1332
頓教	-11.1333
從坐而起	-11.1333
千輻	-11.1334
棄藥	-11.1334
教訓	-11.1335
是時於眾生類而	-11.1338
如是菩薩觀察	-11.1338
由延	-11.1341
依附	-11.1343
以娛樂之	-11.1343
喜不自勝	-11.1345
淨修梵行	-11.135
汝今諦聽	-11.1351
沈水	-11.1351
戀著	-11.1352
多億那由他百千	-11.1354
儞	-11.1356
瞿曇彌	-11.1356
跋陀羅迦卑梨耶	-11.1357
文字	-11.1359
欲界諸天	-11.136
五百羅漢	-11.1363
阿鼻	-11.1363
悲感	-11.1363
勤精進	-11.1367
廣度眾生	-11.1369
流轉生死	-11.137
百千萬億	-11.1373
解脫門	-11.1376
分布	-11.1376
備足	-11.1378
文義	-11.1396
君子	-11.1398
聞佛說	-11.1402
就死	-11.1413
深遠	-11.1418
設會	-11.1421
古昔	-11.1423
孰能	-11.1427
兵將	-11.1429
專意	-11.1434
而哭	-11.1438
諮問	-11.1444
止止	-11.1462
未曾有法	-11.1465
求無上道	-11.1467
毘婆	-11.1475
攝持	-11.149
乃至今者	-11.1494
生歡喜心	-11.1497
無數百千	-11.1509
瓦	-11.1519
長者婦	-11.1526
剎土	-11.1528
本土	-11.1533
悲喜	-11.154
佛復告	-11.154
敬愛	-11.1544
數年	-11.1546
生男	-11.1551
五百長者	-11.1552
以天眼	-11.156
立精舍	-11.1565
侍女	-11.158
穢污	-11.1585
轉增	-11.1594
宮城	-11.1603
時輸檀王	-11.1606
轉輪	-11.1607
神呪	-11.1609
從何而	-11.161
虬	-11.1612
怠	-11.1616
躍	-11.1616
銜	-11.1624
佯	-11.1625
眷	-11.1625
求阿耨多羅三藐三菩提	-11.1625
辛	-11.1625
享	-11.1627
躁	-11.1629
栽	-11.1629
嚙	-11.163
願為弟子	-11.1631
吸	-11.1631
腋	-11.1631
婬妷	-11.1632
有一仙人	-11.1632
入海採寶	-11.1632
枷	-11.1633
珂	-11.1634
愴然	-11.1634
殿上	-11.1635
嬰	-11.1636
儒	-11.1636
贍部洲	-11.1637
逃避	-11.1637
祚	-11.1638
徙	-11.1639
藕	-11.1639
刈	-11.1639
謗毀	-11.164
諸王臣民	-11.1641
二十六	-11.1642
衣被飲食	-11.1645
屐	-11.1645
胡	-11.1646
妓樂	-11.1646
結跏趺坐	-11.1646
習氣	-11.1648
昵	-11.165
敗壞	-11.165
優鉢羅花	-11.165
蚊虻	-11.1651
詠	-11.1652
房舍	-11.1653
伊羅鉢	-11.1653
卷第八	-11.1654
電光	-11.1654
纔起心時	-11.1656
𤛓	-11.1657
床臥具	-11.1657
沙門及婆羅門	-11.1657
頻頭王	-11.1658
汝於今者	-11.1659
高聲唱言	-11.166
遭遇	-11.1661
採華	-11.1661
無慚	-11.1662
備辦	-11.1664
陰蓋	-11.1666
標定	-11.1668
損壞	-11.1668
受具戒	-11.1668
是為最吉祥	-11.167
涅	-11.167
辭退	-11.167
永息	-11.167
何等為四	-11.1678
發誓願	-11.168
截流	-11.168
疑怪	-11.168
驚喜	-11.1682
晝夜當念是	-11.1682
優波低沙波離婆闍迦	-11.1684
大沙門邊	-11.1686
醫師	-11.169
前科	-11.1691
室家	-11.1696
墮餓鬼	-11.17
中央	-11.1701
若知時	-11.1702
未得道	-11.1704
逼切	-11.1707
羅睺	-11.1717
興盛	-11.1723
射獵	-11.1728
增修	-11.1728
發大心	-11.1731
教導	-11.1732
顏貌端正	-11.174
佛告長者	-11.1747
此賢劫中	-11.175
時彼仙人	-11.1753
專念	-11.1758
非我所	-11.1759
生隨喜	-11.1767
至泥洹	-11.177
火聚	-11.1777
時彼長者	-11.1782
恭敬供養	-11.1784
百千億	-11.1784
十里	-11.1786
億載	-11.1808
八百	-11.1816
在樹下	-11.1827
諸獸	-11.1839
虛空諸天	-11.1852
毘陀	-11.1867
兔王	-11.1875
更增	-11.1879
調戲	-11.1894
美妙	-11.19
愍哀	-11.1905
深宮	-11.1913
容受	-11.1916
銀錢	-11.1918
月滿	-11.1932
澤中	-11.194
催	-11.1942
干	-11.1942
玉	-11.1943
暑	-11.1949
蟻	-11.195
訴	-11.1951
雌	-11.1953
墜墮	-11.1957
夭	-11.1958
如影隨形	-11.1959
俱梨迦	-11.1959
陸	-11.196
薄伽梵	-11.1962
屎尿	-11.1963
棒	-11.1964
蠅	-11.1967
霹	-11.1967
覽	-11.1967
等無差別	-11.1968
坏	-11.1968
欻	-11.1968
僧祇	-11.1969
床臥	-11.1969
憚	-11.197
㝹	-11.197
三十七品	-11.1971
疎	-11.1971
係	-11.1971
大莊嚴論	-11.1971
祇樹給孤獨園	-11.1971
僚	-11.1972
戈	-11.1972
姚秦涼州沙門竺佛念譯	-11.1973
如是至三	-11.1973
革屣	-11.1974
〔	-11.1975
撫	-11.1975
梟	-11.1975
堆	-11.1977
五盛陰	-11.198
統領	-11.198
滅盡泥洹	-11.1981
毀呰	-11.1982
算數	-11.1983
二經文	-11.1983
摩醯首羅	-11.1984
少欲知足	-11.1984
唯有一子	-11.1985
無有厭足	-11.1986
娑婆	-11.1986
右遶三匝	-11.1986
哆	-11.1987
有一大臣	-11.1989
合掌向佛	-11.199
出妙音聲	-11.199
麤獷	-11.1991
精誠	-11.1991
幻惑	-11.1997
焉能	-11.1997
醜惡	-11.1998
屏處	-11.1999
來至我所	-11.2003
自相謂言	-11.2005
端坐思惟	-11.2007
或有婇女	-11.2007
覆蔽	-11.2008
以是善根	-11.2008
摩納	-11.2011
娉以為婦	-11.2013
二十三	-11.2018
緣是功德	-11.2018
大悲菩薩摩訶薩	-11.2019
亦復讚歎	-11.2024
稱揚	-11.2026
欲有所	-11.2038
何因緣故	-11.2042
五百歲	-11.2045
諸禽獸	-11.2059
無量阿僧祇劫	-11.2062
給施	-11.2064
從何來	-11.207
貧苦	-11.2084
六親	-11.2089
出於世	-11.2091
合集	-11.2091
久停	-11.2095
當與汝	-11.2097
講說	-11.2098
禮世尊足	-11.2113
清淨無垢	-11.2125
千年	-11.2144
普慈	-11.2153
結縛	-11.2157
天祠	-11.2161
東南	-11.2166
懷疑	-11.2167
群牛	-11.2176
善惡業	-11.2191
瓶沙	-11.2198
行檀波羅蜜	-11.2209
王聞此語	-11.2214
百福	-11.2233
諸大菩薩	-11.2233
諮白	-11.2233
岸邊	-11.2242
悲啼	-11.2247
寶瓶	-11.2261
娛	-11.2268
妄念	-11.2272
西域	-11.2281
怖懼	-11.2284
阿蘭	-11.2284
證阿耨多羅三藐三菩提	-11.2288
佛在王舍城	-11.2296
景	-11.2298
僉	-11.2298
於地上	-11.2301
祈	-11.2302
心地法門	-11.2303
割截	-11.2305
懅	-11.2305
基	-11.2306
得佛道	-11.2307
親戚	-11.2307
資糧	-11.2307
奚	-11.2309
擒	-11.2309
祕藏	-11.2309
桃	-11.2311
旬	-11.2313
兆民	-11.2313
錫	-11.2314
海濟婆羅門	-11.2314
叢	-11.2315
虛偽	-11.2315
怡	-11.2316
涸	-11.2316
輝	-11.2316
清淨無瑕穢	-11.2317
屋宅	-11.2318
狹	-11.2318
革	-11.2318
鎖	-11.2319
禪思	-11.2319
慰勞	-11.232
籍	-11.2321
甥	-11.2322
沈沒	-11.2323
聞是事已	-11.2323
憔悴	-11.2324
僂	-11.2324
九十九	-11.2324
那提迦葉	-11.2324
后妃	-11.2325
深坑	-11.2326
悼	-11.2326
清旦	-11.2329
良田	-11.2329
畢訖	-11.233
驚畏	-11.233
若彼天男及天女等	-11.233
共相謂言	-11.2331
乞士	-11.2333
威儀庠序	-11.2334
面貌	-11.2334
耆年	-11.2334
𠷐伽波羅	-11.2335
根源	-11.2335
自悔責	-11.2336
揵	-11.2336
劫奪	-11.234
至如來所	-11.234
憍曇彌	-11.2341
英	-11.2342
糞掃衣	-11.2343
治化人民	-11.2343
開發	-11.2344
般遮	-11.2345
奇異	-11.2345
莊挍	-11.2345
優波斯那	-11.2345
十號具足	-11.2347
厭離世間	-11.2347
有發無上菩提心者	-11.2348
血流	-11.2349
行菩提行	-11.2351
因為立字	-11.2351
拜手	-11.2352
引發	-11.2352
受五欲樂	-11.2355
以三昧力故	-11.2358
如我今者	-11.2361
汝曹	-11.2362
其婦懷妊	-11.2363
端政殊妙	-11.2365
止寂	-11.2367
爾時海濟婆羅門	-11.2369
從佛聞	-11.237
聲響	-11.2373
右邊	-11.2376
江水	-11.2378
消化	-11.2378
於過去世	-11.238
還本國	-11.2385
復更重	-11.2388
熟視	-11.2393
遊歷	-11.2397
辭別	-11.24
相娛樂	-11.2406
妻息	-11.2406
男兒	-11.2409
善惠	-11.2411
即起合掌	-11.2413
六十四	-11.2414
雜香	-11.2414
迦葉佛時	-11.2415
或復有人	-11.2415
奉敬	-11.2416
猶如大海	-11.2427
留難	-11.2433
邪婬	-11.2445
供養於佛	-11.2447
在虛空中	-11.2447
頻婆娑羅王	-11.2457
足蹈	-11.2461
敬奉	-11.2463
佛說是時	-11.2468
毀戒	-11.2469
山野	-11.2475
萬里	-11.2481
釋迦牟尼	-11.2486
成無上道	-11.2486
河邊	-11.2504
雜毒	-11.2505
族姓	-11.2544
渴乏	-11.2573
還歸家	-11.2582
愚夫	-11.2604
寔	-11.2615
獨遊	-11.2619
蟒	-11.2655
絞	-11.2656
主宰	-11.2656
虺	-11.2657
阻	-11.2657
農	-11.2658
漫	-11.2658
鏁	-11.2658
惺	-11.2659
澡漱	-11.2661
菩	-11.2664
罽	-11.2665
辜	-11.2665
報佛恩	-11.2665
霍	-11.2668
矛	-11.2668
哀慟	-11.2672
孝養	-11.2673
貿易	-11.2673
販	-11.2674
塜間	-11.2674
故不如我道真也	-11.2675
宴	-11.2675
駄	-11.2675
湊	-11.2676
挾	-11.2676
振動	-11.2676
斂	-11.2676
欣慶	-11.2677
𦟛	-11.2678
屈伸	-11.2678
僉然	-11.2679
下四句	-11.2681
橋梁	-11.2681
象馬車乘	-11.2681
怕	-11.2683
征	-11.2683
輕躁	-11.2684
剃鬚髮	-11.2684
鹿皮衣	-11.2685
搖動	-11.2686
軀命	-11.2687
鉢囉	-11.2687
生善處	-11.2688
姨母	-11.269
淨飯大王	-11.2692
三昧門	-11.2693
憎愛	-11.2694
從座而起	-11.2695
閻浮利	-11.2696
頻頭娑羅	-11.2696
而說斯偈	-11.2696
商客	-11.2697
迦夷	-11.2697
顏容	-11.2699
剎帝利	-11.27
不如一日	-11.27
九十日	-11.27
轉輪王位	-11.2701
毘沙門天王	-11.2703
罪咎	-11.2704
上中下	-11.2706
設諸餚饍	-11.2712
如來得成於佛道已	-11.2713
發大誓願	-11.2719
服藥	-11.272
作何業	-11.2724
云何為四	-11.2726
退散	-11.2727
初頌	-11.2728
齋戒	-11.2729
泉池	-11.2736
掌中	-11.274
解脫句	-11.2742
福力太子	-11.2749
我於往昔	-11.275
殿前	-11.2754
親親	-11.276
猶如有人	-11.2762
舉足	-11.2771
大火聚	-11.2781
釋種童子	-11.2783
及諸眷屬	-11.2783
染衣	-11.2789
釋迦文佛	-11.2789
鐵輪	-11.2792
染諍	-11.28
無悔恨	-11.2816
所住處	-11.2825
明星	-11.2831
乏短	-11.2841
至王所	-11.2844
要誓	-11.2851
諸人眾	-11.2852
怨親	-11.2855
入深山	-11.2856
來生此	-11.2868
趣菩提	-11.2872
二十七	-11.2873
佛威神	-11.289
商賈	-11.289
障染	-11.2904
仁慈	-11.2906
困乏	-11.2906
堅實	-11.2908
雜種	-11.2913
僧伽	-11.2928
薩埵	-11.2935
饑	-11.2938
色界諸天	-11.2992
林樹間	-11.2995
林間	-11.301
思惑	-11.301
玻	-11.3016
踊躍無量	-11.3017
企	-11.302
威神力	-11.3022
膽	-11.3026
勸發	-11.3026
摩伽陀	-11.3026
併	-11.3029
淫	-11.303
給孤獨	-11.3032
猥	-11.3033
嗤笑	-11.3034
如彼愚人	-11.3034
般特	-11.3035
三十一	-11.3035
末二句	-11.3036
行住坐臥	-11.3036
完	-11.3036
鑰	-11.3037
机	-11.3038
渚	-11.3038
頭目髓腦	-11.3038
豈況	-11.3038
牛乳	-11.3038
㮈	-11.3041
輦	-11.3041
清潔	-11.3042
橋	-11.3043
諧	-11.3044
釧	-11.3044
機關	-11.3044
哽咽	-11.3045
縱逸	-11.3045
蓬	-11.3046
㘁	-11.3046
悚然	-11.3047
偷盜	-11.3047
湧	-11.3047
屣	-11.3049
辨	-11.305
心驚毛竪	-11.305
病瘦醫藥	-11.3051
危厄	-11.3051
金粟	-11.3053
慙愧	-11.3053
屋舍	-11.3053
無與等者	-11.3053
歸伏	-11.3053
梵行已立	-11.3053
嫌恨	-11.3054
四衢	-11.3055
渡河	-11.3055
罵辱	-11.3057
百千萬倍	-11.3057
墨	-11.3057
欣悅	-11.3059
悵然	-11.3061
世出世間	-11.3061
床褥	-11.3061
徵起	-11.3064
孝養父母	-11.3066
損害	-11.3066
受我請	-11.3066
彈琴	-11.3068
釋氏	-11.3068
八正道	-11.307
大如車輪	-11.307
娑訶世界	-11.3071
響應	-11.3073
稟受	-11.3077
名之為	-11.3077
精進勇猛	-11.3078
授阿耨多羅三藐三菩提記	-11.3078
入於涅槃	-11.3078
令住其中	-11.3081
深固	-11.3081
根原	-11.3081
若茲	-11.3082
阿耨多羅三藐三菩提記	-11.3082
徹照	-11.3082
勇猛精進	-11.3084
說四諦法	-11.3085
諸人輩	-11.3089
形狀	-11.3089
於佛法中	-11.309
菩提道場	-11.3091
有發辟支佛	-11.3091
所詮	-11.3094
遷神	-11.3095
牸牛	-11.3097
獲道果	-11.3099
毀害	-11.3107
諸天玉女	-11.3112
所乏	-11.3118
有國名	-11.3119
首羅	-11.3125
令發阿耨多羅三藐三菩提心	-11.3126
復有世界名	-11.313
露地	-11.3131
有四事	-11.3132
迎接	-11.3138
從無數劫	-11.3149
金瓶	-11.3158
坐聽法	-11.3162
頂戴	-11.3163
大富長者	-11.3173
毛竪	-11.3176
貢上	-11.319
往佛所	-11.3192
豪尊	-11.3194
十八界	-11.3212
奇妙	-11.3213
凡愚	-11.3242
調柔	-11.3286
生天緣	-11.3288
久存	-11.3292
到其所	-11.3365
蓮	-11.3372
梵摩	-11.3385
範	-11.3398
認	-11.3401
効	-11.3403
悍	-11.3409
泯	-11.3412
波婆梨	-11.3413
聽我出家	-11.3415
蚖	-11.3415
蛾	-11.3416
曬	-11.3417
睛	-11.3417
配	-11.3421
比藍	-11.3422
流離王	-11.3422
日月星辰	-11.3423
儉	-11.3424
腐	-11.3424
膳	-11.3424
稽	-11.3425
餉	-11.3425
之謂也	-11.3426
淡	-11.3426
疲乏	-11.3426
稅	-11.3428
千輻輪	-11.3429
穀米	-11.3429
箭射	-11.3429
釋梵四王	-11.3429
誕	-11.343
不可稱數	-11.343
梁	-11.3431
一時佛遊舍衛祇樹給孤獨園	-11.3432
乍	-11.3433
兄弟二人	-11.3433
從坐起	-11.3434
隻	-11.3435
七匝	-11.3436
〕-【	-11.3436
作瓶天子	-11.3436
舍夷國	-11.3436
娑羅那	-11.3436
諭	-11.3436
道法御	-11.3438
契經所說	-11.3439
沙礫	-11.3439
舉右手	-11.3439
鐵鼓	-11.3439
摩休勒	-11.3439
姿容	-11.344
萌芽	-11.3441
鳩槃茶	-11.3441
閻浮利地	-11.3443
伎女	-11.3443
駛流	-11.3444
窓	-11.3445
光耀	-11.3445
二十由旬	-11.3445
尼連河	-11.3446
多饒	-11.3449
泰然	-11.3453
彌樓	-11.3454
如彼行人	-11.3454
若我所願成就	-11.3455
祭祀火	-11.3463
從空來	-11.3464
光明普曜	-11.3476
流馳	-11.3477
甚大歡喜	-11.3479
不可量	-11.3481
王子名為	-11.3482
百鳥	-11.3485
生此念	-11.3488
敬仰	-11.3501
火焚	-11.3518
至其家	-11.3522
夜摩天	-11.3523
照了	-11.3533
百里	-11.3542
宮室	-11.3563
歌頌	-11.3566
雷震	-11.3607
鈍根	-11.3613
餘殃	-11.3616
邪徑	-11.3627
釋迦牟尼佛	-11.3648
五十由旬	-11.3685
端正殊妙	-11.3726
臻	-11.3806
塚	-11.3808
脉	-11.3812
頑	-11.382
余	-11.3821
憤	-11.3823
潮	-11.3825
痒	-11.3825
錠	-11.3827
鄉	-11.3829
壤	-11.383
搥	-11.3831
芻	-11.3831
釘	-11.3832
尒	-11.3835
茶	-11.3837
䭾	-11.3842
縵	-11.3842
缾	-11.3844
○	-11.418
番	-11.42
藪	-11.4211
泛	-11.4216
晦	-11.422
饉	-11.4223
鵠	-11.4223
逾	-11.4223
芳	-11.4225
靖	-11.4227
循	-11.4231
嚮	-11.4235
髀	-11.4235
費	-11.4237
秤	-11.4238
忖	-11.424
泆	-11.4241
恤	-11.4241
倮	-11.4241
燥	-11.4242
棘	-11.4242
梯	-11.4244
遁	-11.4245
棖	-11.4246
拯	-11.4247
曚	-11.4249
鹹	-11.4251
毱	-11.4252
沮	-11.4252
笛	-11.4252
朱	-11.4257
悕	-11.4267
阜	-11.4272
唧	-11.4612
△	-11.4639
雉	-11.466
顛	-11.4661
裸	-11.4663
罔	-11.4664
蔓	-11.4666
儼	-11.4666
峯	-11.4667
丸	-11.4669
妊	-11.467
佳	-11.4671
級	-11.4673
徊	-11.4674
遏	-11.4675
菜	-11.4676
滓	-11.4678
肢	-11.4678
姉	-11.4678
犍	-11.4679
鋒	-11.4679
廬	-11.4679
槊	-11.4681
漱	-11.4685
孕	-11.4685
蓐	-11.4688
邦	-11.4693
柴	-11.4693
簫	-11.4693
肯	-11.4752
絃	-11.4926
紫	-11.4942
秘	-11.5102
這	-11.5113
閙	-11.5114
彊	-11.5117
牒	-11.5117
寫	-11.5119
詭	-11.5119
躃	-11.5121
踞	-11.5122
悚	-11.5124
峻	-11.5124
舋	-11.5128
考	-11.5128
械	-11.5129
忻	-11.513
絲	-11.513
悸	-11.5131
撥	-11.5131
兆	-11.5131
凍	-11.5132
皎	-11.5132
排	-11.5133
攬	-11.5133
魄	-11.5137
矟	-11.5137
軸	-11.5137
蒲	-11.5137
俄	-11.5137
褥	-11.5138
弶	-11.5139
嬪	-11.5141
揮	-11.5142
邃	-11.5144
換	-11.557
搆	-11.5598
腸	-11.5598
疋	-11.5599
弈	-11.56
漬	-11.5601
瓨	-11.5602
粮	-11.5603
遜	-11.5603
棲	-11.5603
廓	-11.5603
寵	-11.5604
惚	-11.5605
婚	-11.5606
着	-11.5606
膩	-11.5606
髓	-11.5606
鹽	-11.5606
緒	-11.5607
瓮	-11.5607
澹	-11.5608
羂	-11.5608
閤	-11.5608
崛	-11.5609
牟	-11.5609
来	-11.561
俯	-11.5611
噎	-11.5612
摸	-11.5613
討	-11.5615
贈	-11.5616
殆	-11.5616
瞑	-11.5617
儲	-11.5618
炊	-11.5619
鑪	-11.5619
𧂐	-11.5622
尅	-11.5622
捷	-11.5625
廂	-11.5629
弦	-11.5633
号	-11.5649
埵	-11.577
贖	-11.6068
個	-11.6077
嘗	-11.6078
焦	-11.6083
幹	-11.6086
甕	-11.6087
鄰	-11.6093
史	-11.6094
叛	-11.6096
𠎝	-11.6097
猨	-11.6098
研	-11.6099
牝	-11.6099
握	-11.61
凋	-11.61
逕	-11.61
曳	-11.61
怯	-11.6101
鷄	-11.6101
葦	-11.6102
厲	-11.6102
奕	-11.6103
孩	-11.6103
讒	-11.6104
蘆	-11.6104
訛	-11.6105
燕	-11.6107
飼	-11.6108
矚	-11.6108
窈	-11.611
賃	-11.611
濯	-11.6113
澆	-11.6114
瞎	-11.6116
貯	-11.6116
玩	-11.6117
滑	-11.6118
嘿	-11.6122
綠	-11.6127
䟽	-11.6133
臆	-11.66
模	-11.6602
鑿	-11.6613
璫	-11.6616
透	-11.6616
拱	-11.6616
局	-11.6617
庸	-11.6617
爆	-11.6619
耐	-11.6621
躓	-11.6622
淪	-11.6623
晡	-11.6624
滴	-11.6625
梳	-11.6625
爵	-11.6626
悒	-11.6628
綿	-11.6628
䩭	-11.6628
餌	-11.6629
鏤	-11.663
叮	-11.6631
屢	-11.6631
餚	-11.6631
副	-11.6632
京	-11.6633
瑩	-11.6634
腫	-11.6634
陛	-11.6636
塜	-11.6637
眄	-11.6637
賄	-11.6637
煑	-11.6638
蹹	-11.6638
脾	-11.664
灼	-11.664
壇	-11.6641
歿	-11.6641
萌	-11.6643
攘	-11.6644
誼	-11.6644
縫	-11.6647
暖	-11.6649
敕	-11.665
扣	-11.6654
褰	-11.6654
睺	-11.7122
晉	-11.7167
彫	-11.7169
艸	-11.7173
襲	-11.7174
脹	-11.7174
虐	-11.7175
賦	-11.7177
攢	-11.7178
泊	-11.718
庠	-11.7181
裁	-11.7182
鋸	-11.7182
帆	-11.7183
鉀	-11.7183
礫	-11.7183
禦	-11.7184
駃	-11.7186
銳	-11.7187
恬	-11.7187
鉾	-11.7189
𤦲	-11.719
䩕	-11.7191
綱	-11.7191
蹄	-11.7192
叱	-11.7192
股	-11.7192
惛	-11.7193
鬧	-11.7195
丐	-11.7195
轂	-11.7195
曝	-11.7197
携	-11.7197
亭	-11.7201
騃	-11.7202
曀	-11.7205
𠲿	-11.7205
闥	-11.7207
翠	-11.7208
筆	-11.7209
僻	-11.721
舶	-11.7735
聟	-11.7753
犇	-11.7756
包	-11.7759
觝	-11.7761
蚊	-11.7764
哩	-11.7764
蹉	-11.7765
蔑	-11.7769
佞	-11.777
株	-11.777
癩	-11.7771
譖	-11.7772
褐	-11.7773
坎	-11.7774
庫	-11.7774
拷	-11.7774
讎	-11.7775
嗅	-11.7776
轍	-11.7776
迭	-11.7777
厩	-11.7779
寞	-11.778
洟	-11.778
慙	-11.7781
笞	-11.7782
殄	-11.7783
辰	-11.7784
鸞	-11.7785
州	-11.7786
魁	-11.7786
㵎	-11.7787
儔	-11.779
憘	-11.779
敏	-11.779
慜	-11.7792
傭	-11.7793
吠	-11.7793
恪	-11.7796
慠	-11.7799
稠	-11.7802
欄	-11.7819
央	-11.8274
娠	-11.8319
馭	-11.8351
鬱	-11.8373
淹	-11.8374
湩	-11.8377
斟	-11.838
饍	-11.8382
猿	-11.8383
錦	-11.8387
靽	-11.8392
料	-11.8392
砂	-11.8393
挺	-11.8393
蝕	-11.8394
掣	-11.8394
垣	-11.8394
昌	-11.8395
點	-11.8395
烈	-11.8396
胤	-11.8396
茅	-11.8398
的	-11.8398
探	-11.84
屯	-11.8404
偃	-11.8404
誇	-11.8405
冒	-11.8405
泄	-11.8406
虱	-11.8407
涯	-11.8407
喘	-11.8408
允	-11.8408
墾	-11.8408
痰	-11.8409
嗏	-11.841
粒	-11.8411
衝	-11.8411
匱	-11.8411
廻	-11.8412
惔	-11.8412
弩	-11.8413
舫	-11.8416
戎	-11.8416
檢	-11.8417
顒	-11.8418
勳	-11.8421
閡	-11.8424
揣	-11.8425
搦	-11.8425
肋	-11.8426
沓	-11.8428
麋	-11.8429
裔	-11.8435
軒	-11.8439
播	-11.8453
鱗	-11.9033
妓	-11.9034
狸	-11.9036
杜	-11.9041
鑑	-11.9045
瘳	-11.9047
兕	-11.9047
艱	-11.9051
蒼	-11.9059
衢	-11.9059
劈	-11.9059
蠶	-11.9061
藤	-11.9061
創	-11.9062
芥	-11.9063
喉	-11.9063
滌	-11.9064
距	-11.9064
疵	-11.9066
嗤	-11.9067
馨	-11.9068
沾	-11.9068
􂍖	-11.9069
澍	-11.9069
幔	-11.907
唄	-11.907
脅	-11.907
嫡	-11.9071
管	-11.9071
沐	-11.9073
倡	-11.9073
卜	-11.9073
脈	-11.9075
捫	-11.9075
慊	-11.9077
唵	-11.9077
旃	-11.9079
嬭	-11.9079
駿	-11.908
瘂	-11.908
抳	-11.9081
墟	-11.9081
綜	-11.9081
􂎂	-11.9082
吟	-11.9083
臘	-11.9084
隘	-11.9085
緊	-11.9087
炷	-11.9089
廐	-11.909
騁	-11.9091
刖	-11.9096
俾	-11.9096
鐘	-11.9097
嚪	-11.9125
矩	-11.9708
欠	-11.975
䟦	-11.975
豺	-11.9751
愴	-11.9758
熊	-11.9758
祝	-11.9758
洄	-11.9763
瞪	-11.9764
斵	-11.9766
瞽	-11.9766
嶽	-11.9768
慨	-11.9772
紙	-11.9773
踝	-11.9773
墻	-11.9773
脛	-11.9773
盥	-11.9774
仞	-11.9774
劬	-11.9774
漲	-11.9775
跨	-11.9776
貸	-11.9776
禳	-11.9777
㯓	-11.9777
軛	-11.9778
駮	-11.9779
涎	-11.978
哲	-11.978
削	-11.9782
蒸	-11.9782
欵	-11.9782
撻	-11.9783
抆	-11.9783
恧	-11.9784
脆	-11.9784
僥	-11.9785
姟	-11.9785
讖	-11.9785
璣	-11.9785
盂	-11.9786
擣	-11.9787
謁	-11.9789
援	-11.9789
函	-11.9789
錐	-11.979
紡	-11.9795
粥	-11.9796
3	-11.9797
駟	-11.9797
麾	-11.9802
煒	-11.9802
靤	-11.9804
莂	-11.9806
燧	-11.9808
髠	-11.9809
禾	-11.9811
懶	-11.9813
庵	-11.9825
胷	-12.0509
混	-12.0528
廕	-12.0528
琢	-12.0531
繭	-12.0533
粉	-12.0533
酌	-12.0534
另	-12.0535
傅	-12.0538
跣	-12.0538
楞	-12.0539
肺	-12.054
膖	-12.0541
逈	-12.0541
稀	-12.0544
緻	-12.0544
丁	-12.0544
贍	-12.0544
擁	-12.0545
犀	-12.0545
聊	-12.0546
愕	-12.0547
岳	-12.0547
䏶	-12.0547
瞢	-12.0548
孚	-12.055
跛	-12.055
輻	-12.055
竄	-12.0551
𣫍	-12.0551
万	-12.0552
惕	-12.0552
鍼	-12.0552
材	-12.0553
吃	-12.0553
零	-12.0554
俛	-12.0554
拊	-12.0554
疆	-12.0555
衒	-12.0556
魅	-12.0556
抗	-12.0556
宇	-12.0556
冶	-12.0556
鼉	-12.0557
癰	-12.0558
躑	-12.0558
雕	-12.0558
佩	-12.0559
舁	-12.0559
栴	-12.056
汎	-12.0561
評	-12.0562
羝	-12.0562
燿	-12.0562
癃	-12.0564
谿	-12.0564
柯	-12.0566
淑	-12.0568
幃	-12.0568
畵	-12.0568
濤	-12.0568
鵒	-12.0569
髦	-12.057
2	-12.0575
旗	-12.0575
6	-12.0577
荅	-12.0582
慍	-12.0586
岐	-12.0592
第	-12.1323
儗	-12.1339
柰	-12.1353
耄	-12.1353
鹵	-12.1357
豹	-12.1357
航	-12.136
獘	-12.1361
煥	-12.1362
巢	-12.1368
紀	-12.137
痴	-12.1371
烹	-12.1371
葛	-12.1371
竝	-12.1371
誣	-12.1373
𤚲	-12.1374
祁	-12.1376
鵄	-12.1377
逍	-12.1377
謄	-12.1378
濫	-12.1379
虵	-12.138
鴻	-12.1382
穩	-12.1382
甫	-12.1382
匐	-12.1383
羈	-12.1383
𨄔	-12.1383
蹙	-12.1384
郭	-12.1384
耨	-12.1389
傴	-12.139
箏	-12.1391
頷	-12.1391
潰	-12.1391
班	-12.1391
杅	-12.1391
纓	-12.1392
遽	-12.1392
蚑	-12.1392
彎	-12.1392
豎	-12.1393
屑	-12.1394
慟	-12.1395
痍	-12.1395
閃	-12.1395
柄	-12.1395
獷	-12.1396
鐸	-12.1396
袒	-12.1396
睹	-12.1398
幟	-12.1398
閱	-12.1399
訾	-12.1399
憩	-12.14
栖	-12.14
線	-12.1401
洽	-12.1402
遨	-12.1403
譚	-12.1405
恡	-12.141
綖	-12.1411
馥	-12.1411
牖	-12.1415
筏	-12.2198
隕	-12.2259
話	-12.226
悠	-12.2261
恙	-12.2262
胞	-12.2263
箕	-12.2267
繡	-12.2268
侯	-12.2268
揖	-12.227
轢	-12.227
瑜	-12.2276
驕	-12.2277
鎔	-12.2277
啖	-12.2278
狎	-12.2279
塼	-12.2281
驃	-12.2282
騾	-12.2282
湛	-12.2283
􂍧	-12.2284
呻	-12.2284
螢	-12.2284
䐡	-12.2286
旅	-12.2287
􂌤	-12.2287
湖	-12.2287
腕	-12.2287
膠	-12.2288
匃	-12.2288
肚	-12.2289
隊	-12.2289
冐	-12.229
荊	-12.2292
姧	-12.2292
竿	-12.2292
蓏	-12.2293
禿	-12.2293
琦	-12.2294
臛	-12.2295
餧	-12.2295
掛	-12.2295
編	-12.2297
覔	-12.2297
㸌	-12.2297
珮	-12.2298
澁	-12.2298
隥	-12.2299
稗	-12.2299
趨	-12.23
帚	-12.2301
戢	-12.2301
剪	-12.2301
亘	-12.2301
婉	-12.2301
蠡	-12.2301
挫	-12.2302
塠	-12.2302
倩	-12.2302
爺	-12.2302
抄	-12.2302
賑	-12.2303
跟	-12.2304
踏	-12.2304
叚	-12.2304
溪	-12.2306
㨶	-12.2306
估	-12.2307
斜	-12.2308
卓	-12.2312
怱	-12.2312
魏	-12.2313
箇	-12.2313
咀	-12.2313
糅	-12.2314
帥	-12.2315
𠻬	-12.2315
簿	-12.2317
7	-12.2325
𡁠	-12.2392
弑	-12.3207
汲	-12.3221
獺	-12.3243
䇿	-12.3243
歟	-12.3259
昊	-12.3259
𤛆	-12.3261
憃	-12.3263
聯	-12.3264
縈	-12.327
覿	-12.3271
擻	-12.3272
疥	-12.3273
塊	-12.3273
𣣋	-12.3275
稼	-12.3275
熬	-12.3275
瞞	-12.3277
𨽁	-12.3277
穆	-12.3278
犲	-12.3278
抴	-12.328
搔	-12.328
辟	-12.3282
穽	-12.3283
椽	-12.3284
昂	-12.3284
霑	-12.3284
隅	-12.3285
壻	-12.3285
挂	-12.3285
粘	-12.3286
陟	-12.3286
瀑	-12.3287
矇	-12.3287
煌	-12.3289
漚	-12.3289
詩	-12.329
樵	-12.329
剖	-12.3291
漁	-12.3291
溉	-12.3291
熅	-12.3291
炤	-12.3292
𣃆	-12.3292
揩	-12.3293
隷	-12.3294
埃	-12.3295
埀	-12.3296
售	-12.3297
亮	-12.3297
磧	-12.3298
攪	-12.3299
嘯	-12.3299
惋	-12.3299
瘖	-12.3299
壑	-12.3301
褻	-12.3301
􂍰	-12.3302
鞔	-12.3303
畔	-12.3303
𣧑	-12.3303
耘	-12.3303
鐶	-12.3304
輞	-12.3304
狡	-12.3304
拇	-12.3304
杓	-12.3305
埿	-12.3308
傘	-12.3308
頹	-12.3308
5	-12.331
怜	-12.3311
𡖦	-12.3312
湍	-12.3313
詶	-12.3316
8	-12.3317
埏	-12.3318
喫	-12.3319
㛐	-12.4333
牀	-12.4359
爽	-12.4363
洒	-12.4366
謟	-12.4369
峰	-12.4372
鎻	-12.4374
壺	-12.4374
歛	-12.4375
臟	-12.4377
槩	-12.4377
皈	-12.4378
諄	-12.4378
賂	-12.4378
衍	-12.4381
篇	-12.4383
朕	-12.4386
勃	-12.4387
卉	-12.4388
旁	-12.4388
概	-12.4389
押	-12.439
瞤	-12.4391
磋	-12.4391
確	-12.4392
寮	-12.4392
痊	-12.4392
拽	-12.4394
姨	-12.4396
睫	-12.4398
狩	-12.4398
瓠	-12.4399
鍮	-12.4399
朴	-12.4399
鉗	-12.4399
築	-12.4399
匂	-12.44
髴	-12.44
廉	-12.44
墼	-12.44
僮	-12.44
爀	-12.44
瀉	-12.4401
儜	-12.4401
旛	-12.4401
吮	-12.4402
捍	-12.4403
濃	-12.4403
韑	-12.4403
秀	-12.4404
鬢	-12.4404
巔	-12.4405
惽	-12.4405
甖	-12.4406
溷	-12.4407
裘	-12.4407
惙	-12.4408
殯	-12.4409
薨	-12.4409
迄	-12.441
磔	-12.441
􂌶	-12.4411
諷	-12.4411
撞	-12.4413
鳳	-12.4414
腨	-12.4415
陂	-12.4415
課	-12.4415
啞	-12.4416
亢	-12.4416
鳧	-12.4416
黿	-12.4416
]	-12.4418
鉞	-12.4419
擘	-12.4419
浩	-12.4419
鼎	-12.4419
艷	-12.442
弭	-12.442
卦	-12.4421
膾	-12.4422
筌	-12.4424
膜	-12.4426
轡	-12.4426
扠	-12.4427
[	-12.4428
邠	-12.4428
癊	-12.4429
疇	-12.4429
抵	-12.4429
吁	-12.4433
峨	-12.4434
齧	-12.4435
鬣	-12.4436
a	-12.4446
姹	-12.4488
澓	-12.5611
祗	-12.5611
麵	-12.5621
薦	-12.5623
杼	-12.5624
夾	-12.563
詎	-12.563
聳	-12.5632
脯	-12.5632
忙	-12.5634
倣	-12.5634
醎	-12.5635
堤	-12.5635
傲	-12.5636
邸	-12.5636
嚇	-12.5636
叩	-12.5636
冰	-12.5636
舂	-12.5636
符	-12.5636
鞠	-12.5637
蹲	-12.5637
迮	-12.5638
窶	-12.5639
詛	-12.5641
輭	-12.5642
采	-12.5643
棺	-12.5643
胄	-12.5643
諱	-12.5644
氍	-12.5644
敦	-12.5644
忤	-12.5645
簸	-12.5645
郡	-12.5645
駭	-12.5645
蒱	-12.5646
豕	-12.5647
宕	-12.5647
讁	-12.5647
蟠	-12.5648
歔	-12.5648
胝	-12.5648
趁	-12.5649
鑄	-12.5649
鋑	-12.5649
侈	-12.5651
窠	-12.5651
斑	-12.5651
筒	-12.5652
午	-12.5653
无	-12.5654
抽	-12.5654
疱	-12.5654
駁	-12.5655
嚬	-12.5656
疣	-12.5656
噓	-12.5657
壘	-12.5657
瘢	-12.5657
妐	-12.5657
穬	-12.5658
粳	-12.5658
壙	-12.5658
稚	-12.5658
釣	-12.5659
夙	-12.5659
峙	-12.566
哽	-12.566
糖	-12.5661
刮	-12.5661
佇	-12.5662
曄	-12.5662
掁	-12.5662
悞	-12.5662
酢	-12.5663
嘶	-12.5664
鈔	-12.5665
蔗	-12.5666
癲	-12.5666
轅	-12.5666
撓	-12.5666
榜	-12.5667
噤	-12.5667
嬖	-12.5667
蝮	-12.5669
9	-12.5671
呞	-12.5672
尫	-12.5673
筈	-12.5673
蛆	-12.5675
4	-12.5676
0	-12.568
予	-12.5681
駢	-12.5686
樗	-12.5687
踴	-12.5688
懊	-12.5708
暎	-12.5711
鈷	-12.7024
舜	-12.7028
劉	-12.7033
敲	-12.7044
懵	-12.7044
羖	-12.7047
遘	-12.7051
麼	-12.7051
瓢	-12.7051
竺	-12.7056
酤	-12.7058
綾	-12.7058
属	-12.7059
擭	-12.7059
諳	-12.7063
跱	-12.7064
恢	-12.7064
蚤	-12.7064
懾	-12.7067
倐	-12.7067
彷	-12.7067
𦾨	-12.7068
巾	-12.707
徉	-12.7071
飜	-12.7071
䗍	-12.7073
嬾	-12.7073
熈	-12.7074
燎	-12.7074
瓜	-12.7074
窰	-12.7075
核	-12.7076
渾	-12.7076
烔	-12.7076
郊	-12.7076
鍱	-12.7076
晏	-12.7077
措	-12.7077
裳	-12.7077
盟	-12.7078
腭	-12.7079
呈	-12.7079
獦	-12.7079
邈	-12.708
刪	-12.708
䓸	-12.708
筩	-12.7081
鋡	-12.7082
軻	-12.7082
浸	-12.7083
汪	-12.7084
鞅	-12.7084
壃	-12.7084
悖	-12.7084
頤	-12.7085
疼	-12.7085
潺	-12.7085
仲	-12.7085
眩	-12.7086
銘	-12.7086
鬻	-12.7086
嬉	-12.7087
虹	-12.7087
疽	-12.7088
肪	-12.7088
咩	-12.7088
曆	-12.7088
跌	-12.709
壹	-12.709
券	-12.7092
茹	-12.7092
繖	-12.7092
疹	-12.7093
隍	-12.7093
拪	-12.7094
壅	-12.7094
榻	-12.7095
呌	-12.7095
󰦄	-12.7095
罝	-12.7096
坊	-12.7096
架	-12.7097
孟	-12.7097
唎	-12.7097
薗	-12.7097
郗	-12.7098
捲	-12.7098
葩	-12.7099
噪	-12.7099
儵	-12.71
詢	-12.7101
璧	-12.7102
猾	-12.7103
插	-12.7104
蔚	-12.7105
剌	-12.7105
嚼	-12.7106
噫	-12.7107
社	-12.7109
摑	-12.7109
臍	-12.7109
1	-12.711
檻	-12.7112
餝	-12.7112
咨	-12.7112
楯	-12.7114
瘥	-12.7116
裨	-12.7117
苞	-12.7124
莎	-12.7133
郁	-12.7133
衲	-12.8689
釪	-12.8691
貲	-12.8696
製	-12.8704
橘	-12.8704
𢜫	-12.8715
踵	-12.8715
咋	-12.8716
豚	-12.8716
澌	-12.8717
爴	-12.8717
劑	-12.8721
盆	-12.8721
協	-12.8722
釵	-12.8724
騫	-12.8724
糠	-12.8726
竇	-12.8727
冊	-12.8728
俠	-12.8728
蹤	-12.873
踧	-12.873
洛	-12.8731
鏗	-12.8731
釆	-12.8732
竈	-12.8735
搜	-12.8735
霖	-12.8736
凌	-12.8737
臼	-12.8737
哺	-12.8737
繚	-12.8738
蒿	-12.874
拙	-12.874
橛	-12.874
搣	-12.874
罣	-12.8742
鵲	-12.8742
岨	-12.8743
杌	-12.8743
仆	-12.8743
袖	-12.8743
崙	-12.8743
爇	-12.8743
賙	-12.8744
𥇒	-12.8744
勦	-12.8744
硨	-12.8744
臗	-12.8744
嘷	-12.8745
晴	-12.8746
汙	-12.8746
萠	-12.8747
褒	-12.8747
訥	-12.8747
莚	-12.8748
偝	-12.875
嶺	-12.875
掖	-12.875
靷	-12.875
昆	-12.8751
謔	-12.8751
㶿	-12.8752
店	-12.8752
㷿	-12.8752
侮	-12.8754
訣	-12.8754
潑	-12.8754
妍	-12.8754
謇	-12.8754
蟣	-12.8754
膿	-12.8756
痟	-12.8756
錍	-12.8756
慄	-12.8757
姻	-12.8757
瑰	-12.8757
媒	-12.8758
串	-12.8758
髆	-12.8758
惘	-12.8759
幖	-12.876
暝	-12.876
罕	-12.8761
摘	-12.8761
禘	-12.8761
珞	-12.8761
腥	-12.8762
螻	-12.8762
髭	-12.8762
仂	-12.8762
羶	-12.8762
桓	-12.8763
呰	-12.8763
躇	-12.8763
欬	-12.8764
驟	-12.8764
鏃	-12.8765
孃	-12.8765
羗	-12.8765
嗽	-12.8766
旌	-12.8766
遞	-12.8768
薝	-12.8768
䂎	-12.8769
枳	-12.8769
遑	-12.877
餔	-12.877
挊	-12.877
勁	-12.8771
憊	-12.8771
尿	-12.8774
𠼝	-12.8774
韋	-12.8775
鬲	-12.8776
匪	-12.8776
撩	-12.8776
撗	-12.8777
霸	-12.8778
鞦	-12.8783
兀	-12.8796
僊	-12.8797
拖	-12.8837
謚	-13.0655
柳	-13.0664
帀	-13.067
杳	-13.0675
堯	-13.0678
騷	-13.0687
梗	-13.0696
冲	-13.0698
嫂	-13.0702
蹠	-13.0705
闢	-13.0715
樣	-13.0715
姚	-13.0715
咏	-13.0718
醼	-13.0719
佃	-13.072
粧	-13.072
鑛	-13.0721
皂	-13.0725
廩	-13.0725
鰥	-13.0728
蹰	-13.0728
淋	-13.0728
繕	-13.0729
憧	-13.0729
倘	-13.073
礼	-13.0731
沽	-13.0733
蹀	-13.0733
㲪	-13.0733
府	-13.0733
竦	-13.0734
𨶳	-13.0736
季	-13.0737
闚	-13.0737
液	-13.0737
僑	-13.0737
䑛	-13.0738
虞	-13.074
𦘕	-13.074
虻	-13.0741
嘲	-13.0741
蹶	-13.0741
繪	-13.0741
嵗	-13.0741
櫛	-13.0742
鸕	-13.0742
匙	-13.0742
括	-13.0742
焭	-13.0743
膊	-13.0743
窣	-13.0743
ā	-13.0743
灾	-13.0744
蕭	-13.0744
潦	-13.0744
程	-13.0745
㝃	-13.0745
笳	-13.0746
噴	-13.0746
盻	-13.0746
懿	-13.0746
棗	-13.0747
澗	-13.0747
諠	-13.0747
臠	-13.0748
劓	-13.0749
亞	-13.0749
勾	-13.0749
蠟	-13.075
齩	-13.075
蚌	-13.075
牴	-13.075
嘖	-13.0751
觜	-13.0751
霽	-13.0751
咳	-13.0751
獎	-13.0751
樊	-13.0752
尖	-13.0752
擐	-13.0752
偕	-13.0753
弃	-13.0753
鵰	-13.0753
翮	-13.0754
控	-13.0754
鍛	-13.0754
𨁟	-13.0754
氂	-13.0754
蟄	-13.0754
嚚	-13.0755
堓	-13.0755
綏	-13.0755
皓	-13.0756
𥌎	-13.0756
塘	-13.0756
區	-13.0757
𧹞	-13.0758
椒	-13.0758
咃	-13.0758
仕	-13.0759
殮	-13.0759
蹇	-13.0759
㺃	-13.076
湎	-13.076
瞙	-13.076
擢	-13.0761
曷	-13.0761
系	-13.0761
徼	-13.0762
乙	-13.0762
吱	-13.0762
𧯞	-13.0764
呬	-13.0765
槽	-13.0765
帷	-13.0767
敞	-13.0767
絜	-13.0767
譴	-13.0767
趍	-13.0767
倖	-13.0767
熒	-13.0769
憺	-13.0769
薜	-13.077
簇	-13.077
績	-13.077
閦	-13.077
慣	-13.0771
蚩	-13.0772
蒔	-13.0773
献	-13.0773
鄯	-13.0774
毉	-13.0775
啑	-13.0775
捋	-13.0775
収	-13.0781
肇	-13.0782
戌	-13.0782
笥	-13.0783
柘	-13.0785
箱	-13.0788
囿	-13.0791
攣	-13.0793
鄽	-13.0795
嚶	-13.0797
蓆	-13.3139
娘	-13.314
葱	-13.318
□	-13.3182
碾	-13.3184
藻	-13.3201
鶖	-13.3207
哂	-13.3208
圈	-13.3209
讙	-13.3211
䖍	-13.3211
厝	-13.3211
逡	-13.3211
槌	-13.3212
逋	-13.3215
𦦨	-13.3215
觧	-13.3215
摴	-13.3216
鞴	-13.3216
匡	-13.3216
裴	-13.3218
芸	-13.3218
刧	-13.3219
罄	-13.322
碧	-13.3222
嚲	-13.3222
笙	-13.3222
扈	-13.3223
呦	-13.3223
緯	-13.3225
磑	-13.3227
鏘	-13.3229
聘	-13.3229
趂	-13.3229
款	-13.3229
拋	-13.323
燦	-13.3231
蹴	-13.3231
鳶	-13.3231
哮	-13.3232
〕	-13.3233
寅	-13.3233
潭	-13.3233
冑	-13.3233
煢	-13.3236
趾	-13.3236
恠	-13.3236
恰	-13.3236
鋼	-13.3236
搗	-13.3237
絳	-13.3237
橖	-13.3237
瑋	-13.3237
穗	-13.3237
燄	-13.3238
踖	-13.3238
翰	-13.3238
輟	-13.3239
鞬	-13.324
澥	-13.324
甦	-13.324
嬌	-13.324
瓌	-13.3241
奸	-13.3242
派	-13.3242
襞	-13.3243
幕	-13.3243
戹	-13.3244
稷	-13.3244
𦟂	-13.3244
羼	-13.3244
葌	-13.3245
倪	-13.3245
㖑	-13.3247
篡	-13.3247
拈	-13.3247
軿	-13.3247
闔	-13.3247
竅	-13.3248
呿	-13.3248
弼	-13.3249
昳	-13.3251
摽	-13.3251
窗	-13.3252
沌	-13.3252
偟	-13.3252
訝	-13.3254
轟	-13.3254
确	-13.3254
纂	-13.3255
緹	-13.3255
勗	-13.3255
膺	-13.3256
剉	-13.3256
瘠	-13.3256
􂌴	-13.3256
刷	-13.3256
姪	-13.3256
鴆	-13.3256
i	-13.3258
森	-13.3259
垛	-13.3259
黮	-13.3259
釁	-13.3259
搘	-13.326
喬	-13.3261
䠒	-13.3261
󰝟	-13.3261
巴	-13.3261
觚	-13.3261
黧	-13.3261
鞋	-13.3262
姤	-13.3263
斃	-13.3263
晧	-13.3263
棟	-13.3263
䩛	-13.3263
剔	-13.3265
啜	-13.3265
琉	-13.3265
殤	-13.3265
迨	-13.3265
𣚦	-13.3265
勌	-13.3266
茇	-13.3266
蓽	-13.3268
鐙	-13.3269
鋤	-13.3269
噆	-13.327
煜	-13.327
𥞑	-13.327
磬	-13.3271
垤	-13.3272
桴	-13.3272
䩸	-13.3272
沼	-13.3273
睞	-13.3273
埳	-13.3273
瀝	-13.3273
咤	-13.3274
芒	-13.3274
謿	-13.3274
潘	-13.3274
瞇	-13.3274
嵩	-13.3275
閇	-13.3276
蜎	-13.3277
羆	-13.3277
宥	-13.3278
騣	-13.3279
齓	-13.3281
氈	-13.3283
羋	-13.3283
𥧌	-13.3284
虅	-13.3284
蝎	-13.3284
B	-13.3286
𢙉	-13.3286
泝	-13.3287
洸	-13.329
垖	-13.3298
瑳	-13.3302
攔	-13.6464
岌	-13.6481
崎	-13.6502
做	-13.6504
樸	-13.6514
呂	-13.6514
蜒	-13.6523
媟	-13.6523
蒂	-13.6523
搭	-13.6525
莽	-13.6525
凸	-13.6527
踪	-13.6527
松	-13.6529
舡	-13.6529
呾	-13.6533
鬬	-13.6533
督	-13.6537
卯	-13.6538
䆳	-13.6541
偉	-13.6543
豔	-13.6543
讌	-13.6543
醇	-13.6543
碓	-13.6545
鈸	-13.6545
瘀	-13.6545
蒭	-13.6545
𡰱	-13.6545
螉	-13.6547
拗	-13.6547
菽	-13.6547
詆	-13.6549
剩	-13.6549
䰡	-13.655
漩	-13.6552
愽	-13.6552
笮	-13.6552
喙	-13.6552
煉	-13.6552
戚	-13.6554
𠥶	-13.6554
盪	-13.6554
覷	-13.6554
m	-13.6554
羨	-13.6554
甑	-13.6554
梓	-13.6556
糓	-13.6556
緝	-13.6556
覊	-13.6556
乹	-13.6558
謦	-13.6558
禹	-13.656
懽	-13.656
揭	-13.656
睆	-13.656
饋	-13.656
綸	-13.6562
糾	-13.6562
蹟	-13.6562
擗	-13.6562
㼜	-13.6562
犎	-13.6562
涱	-13.6564
瓫	-13.6564
熙	-13.6566
眵	-13.6566
腑	-13.6566
𪗾	-13.6568
𧞣	-13.6568
刳	-13.6568
剗	-13.6568
痾	-13.6568
䩙	-13.6568
圃	-13.6568
𠷐	-13.6568
丑	-13.657
𩲐	-13.657
岩	-13.657
滲	-13.657
踣	-13.657
霔	-13.657
g	-13.657
憔	-13.6571
􂍾	-13.6572
㛹	-13.6572
炒	-13.6572
絹	-13.6572
顙	-13.6572
􁈿	-13.6572
蓊	-13.6573
巍	-13.6574
霞	-13.6574
朔	-13.6574
燼	-13.6574
醢	-13.6574
尻	-13.6574
噵	-13.6574
憫	-13.6574
滂	-13.6574
〈	-13.6574
〉	-13.6574
窺	-13.6574
桑	-13.6575
諒	-13.6576
菅	-13.6576
錞	-13.6576
酉	-13.6576
唇	-13.6577
拼	-13.6577
焬	-13.6577
胆	-13.6577
韜	-13.6577
几	-13.6577
綻	-13.6577
尉	-13.6577
介	-13.6577
賽	-13.6577
挮	-13.6577
㝡	-13.6579
輈	-13.6579
悌	-13.6579
闌	-13.6579
幅	-13.6579
診	-13.6579
𠶜	-13.6579
𠆸	-13.6581
酣	-13.6581
迯	-13.6583
醬	-13.6583
輾	-13.6583
隈	-13.6583
洹	-13.6584
澈	-13.6585
伍	-13.6585
徇	-13.6585
瘙	-13.6585
韛	-13.6587
祛	-13.6587
豬	-13.6587
鍬	-13.6587
􂎏	-13.6587
闐	-13.6587
皦	-13.6589
署	-13.6589
鶡	-13.6589
􂎊	-13.6589
葵	-13.6589
𢍶	-13.6589
坼	-13.6591
譁	-13.6591
窖	-13.6591
訧	-13.6591
蘂	-13.6591
魯	-13.6591
䔮	-13.6591
驛	-13.6591
齲	-13.6591
擿	-13.6592
鷂	-13.6593
蔬	-13.6593
逵	-13.6593
蹌	-13.6595
㵱	-13.6595
捩	-13.6595
嘔	-13.6595
菀	-13.6595
吔	-13.6597
俣	-13.6597
𧵵	-13.6597
托	-13.6597
僅	-13.6598
璃	-13.6599
筭	-13.6599
挌	-13.6599
餬	-13.6599
抧	-13.6599
𧜟	-13.6599
豁	-13.6599
𠢕	-13.6601
貽	-13.6601
𣧩	-13.6601
皤	-13.6601
雛	-13.6601
𥥧	-13.6601
薑	-13.6602
祟	-13.6602
璅	-13.6603
溟	-13.6603
迂	-13.6603
鼗	-13.6603
凞	-13.6604
湏	-13.6604
嫩	-13.6604
衡	-13.6604
頒	-13.6605
閨	-13.6606
憋	-13.6606
攫	-13.6606
媾	-13.6606
玅	-13.6608
𡱁	-13.6608
朵	-13.661
襤	-13.661
䛴	-13.661
噏	-13.661
拓	-13.661
h	-13.661
穫	-13.6611
钁	-13.6612
􂌨	-13.6612
鴨	-13.6612
添	-13.6612
捻	-13.6614
驂	-13.6614
抓	-13.6614
痏	-13.6614
堰	-13.6614
瑠	-13.6614
藂	-13.6614
苷	-13.6616
秪	-13.6616
穰	-13.6618
擅	-13.6618
誥	-13.662
枰	-13.6621
饗	-13.6622
擴	-13.6624
t	-13.6625
脒	-13.6626
賭	-13.6627
癖	-13.663
憇	-13.6631
銖	-13.6633
癭	-13.6633
李	-14.1446
勺	-14.1468
挹	-14.1502
兮	-14.1503
嚥	-14.1506
椀	-14.1506
忭	-14.1515
咒	-14.1515
娩	-14.1518
伶	-14.1521
挈	-14.1524
懦	-14.1525
凹	-14.1525
胃	-14.1527
叶	-14.1528
㷀	-14.1528
栢	-14.1531
蠲	-14.1532
宛	-14.1532
旻	-14.1534
庇	-14.1537
擩	-14.1537
嶷	-14.1537
恂	-14.1537
弛	-14.154
檊	-14.154
壬	-14.1542
蠕	-14.1543
樑	-14.1543
<	-14.1543
廛	-14.1543
喑	-14.1547
俓	-14.1553
倨	-14.1553
暄	-14.1553
佷	-14.1553
攉	-14.1553
岑	-14.1556
䗈	-14.1556
坋	-14.1556
擏	-14.1556
棠	-14.1556
殻	-14.1556
-	-14.1559
嬴	-14.1559
慓	-14.1559
憨	-14.1559
橕	-14.1559
毼	-14.1562
帊	-14.1562
喝	-14.1562
慌	-14.1562
侔	-14.1562
歧	-14.1562
媛	-14.1565
培	-14.1565
惷	-14.1565
攦	-14.1565
咆	-14.1569
俞	-14.1569
孾	-14.1569
杪	-14.1569
檝	-14.1569
曒	-14.157
彥	-14.1572
檐	-14.1572
㗘	-14.1572
徨	-14.1575
悽	-14.1575
妒	-14.1575
娼	-14.1575
懟	-14.1575
昴	-14.1575
淤	-14.1577
撽	-14.1578
侫	-14.1578
堵	-14.1578
愶	-14.1581
杏	-14.1581
刓	-14.1581
囂	-14.1581
惴	-14.1581
札	-14.1581
卅	-14.1583
姜	-14.1584
柵	-14.1584
寓	-14.1587
懍	-14.1587
呱	-14.1587
忩	-14.1587
慺	-14.1588
憾	-14.1591
刵	-14.1591
䨍	-14.1591
棹	-14.1591
誹	-14.1591
搯	-14.1594
埤	-14.1594
僫	-14.1594
㯹	-14.1594
侻	-14.1594
圊	-14.1594
扃	-14.1594
刎	-14.1597
俳	-14.1597
妷	-14.1598
殀	-14.16
㧧	-14.16
劵	-14.16
揃	-14.16
幣	-14.16
噬	-14.1603
嫇	-14.1603
嫈	-14.1603
奠	-14.1603
嫰	-14.1603
噦	-14.1603
n	-14.1605
嗒	-14.1606
擺	-14.1606
䂓	-14.1606
咻	-14.1606
扸	-14.1606
樞	-14.1606
毦	-14.1606
廿	-14.1606
悁	-14.1609
杇	-14.161
䴸	-14.161
泅	-14.1613
埠	-14.1613
罐	-14.1615
㪷	-14.1616
丳	-14.1616
嶔	-14.1616
卸	-14.1619
C	-14.1625
嵯	-14.1625
宏	-14.1628
匈	-14.1628
槀	-14.1628
撝	-14.1631
坵	-14.1632
挅	-14.1635
倏	-14.1641
恇	-14.1647
抬	-14.1662
沛	-15.1343
氳	-15.1344
毺	-15.1345
櫨	-15.1346
樚	-15.1347
桁	-15.1348
旒	-15.1349
擽	-15.135
搩	-15.1351
揥	-15.1352
挵	-15.1353
扼	-15.1354
扞	-15.1355
戇	-15.1356
懎	-15.1357
憿	-15.1358
憮	-15.1359
慷	-15.136
慉	-15.1361
愱	-15.1362
悷	-15.1363
廷	-15.1364
廝	-15.1365
帽	-15.1366
岠	-15.1367
孑	-15.1368
嫪	-15.1369
婪	-15.137
墎	-15.1371
嘻	-15.1372
咿	-15.1373
吽	-15.1374
叹	-15.1375
剄	-15.1376
凊	-15.1377
况	-15.1378
倿	-15.1379
丕	-15.138
䠱	-15.1381
䖟	-15.1382
䁯	-15.1383
㨗	-15.1384
y	-15.1385
r	-15.1386
>	-15.1387
𣰆	-15.1388
𣯾	-15.1389
𡶅	-15.139
𠃵	-15.1391
麓	-15.1392
鶹	-15.1393
馚	-15.1394
閼	-15.1395
鍵	-15.1396
逶	-15.1397
迤	-15.1398
跑	-15.1399
贊	-15.14
讇	-15.1401
蠍	-15.1402
蜺	-15.1403
蜯	-15.1404
蚋	-15.1405
蒺	-15.1406
葺	-15.1407
臧	-15.1408
胥	-15.1409
胑	-15.141
聒	-15.1411
粆	-15.1412
碼	-15.1413
痤	-15.1414
畟	-15.1415
瑤	-15.1416
狄	-15.1417
湮	-15.1418
涪	-15.1419
泳	-15.142
汩	-15.1421
櫃	-15.1422
楹	-15.1423
桀	-15.1424
柩	-15.1425
擋	-15.1426
摒	-15.1427
憀	-15.1428
弝	-15.1429
庾	-15.143
庌	-15.1431
帑	-15.1432
婀	-15.1433
娜	-15.1434
墯	-15.1435
垜	-15.1436
噢	-15.1437
噈	-15.1438
喎	-15.1439
啻	-15.144
呴	-15.1441
卍	-15.1442
匾	-15.1443
佮	-15.1444
仿	-15.1445
丙	-15.1446
䔧	-15.1447
䍧	-15.1448
㽵	-15.1449
𪇔	-15.145
𪆗	-15.1451
𣹉	-15.1452
𣰅	-15.1453
饕	-15.1454
飴	-15.1455
靉	-15.1456
靆	-15.1457
鄭	-15.1458
郎	-15.1459
辮	-15.146
踟	-15.1461
謫	-15.1462
褓	-15.1463
蜇	-15.1464
葡	-15.1465
綬	-15.1466
礓	-15.1467
碁	-15.1468
痢	-15.1469
畋	-15.147
璞	-15.1471
櫁	-15.1472
棧	-15.1473
梏	-15.1474
桎	-15.1475
曤	-15.1476
暐	-15.1477
揆	-15.1478
媵	-15.1479
奩	-15.148
墳	-15.1481
喟	-15.1482
唏	-15.1483
傑	-15.1484
俸	-15.1485
你	-15.1486
佑	-15.1487
㗚	-15.1488
𪑓	-15.1489
𢤱	-15.149
魎	-15.1491
魍	-15.1492
顦	-15.1493
顇	-15.1494
苫	-15.1495
肴	-15.1496
穡	-15.1497
睦	-15.1498
玫	-15.1499
玔	-15.15
獅	-15.1501
牕	-15.1502
榰	-15.1503
榓	-15.1504
搪	-15.1505
揬	-15.1506
怵	-15.1507
忪	-15.1508
崑	-15.1509
緜	-15.151
寗	-15.151
姙	-15.1511
噠	-15.1512
咥	-15.1513
凰	-15.1514
㓟	-15.1515
鶄	-15.1516
鵙	-15.1517
鵁	-15.1518
韀	-15.1519
詹	-15.152
襁	-15.1521
蟆	-15.1522
蕃	-15.1523
蓱	-15.1524
翱	-15.1525
翡	-15.1526
繹	-15.1527
粖	-15.1528
棚	-15.1529
搒	-15.153
嫜	-15.1531
夗	-15.1532
嗷	-15.1533
呹	-15.1534
鵂	-15.1535
髣	-15.1536
霆	-15.1537
蛟	-15.1538
萄	-15.1539
菉	-15.154
艾	-15.1541
縠	-15.1542
綫	-15.1543
瑪	-15.1544
琥	-15.1545
猘	-15.1546
氀	-15.1547
欷	-15.1548
槁	-15.1549
駱	-15.155
齕	-15.155
昞	-15.155
幘	-15.1551
圄	-15.1552
囹	-15.1553
乂	-15.1554
黤	-15.1555
顰	-15.1556
腎	-15.1557
綩	-15.1558
肖	-15.1558
琶	-15.1559
琵	-15.156
犛	-15.1561
櫓	-15.1562
斾	-15.1563
惒	-15.1564
崗	-15.1565
踉	-15.1566
埴	-15.1566
匍	-15.1567
驉	-15.1568
駏	-15.1569
邇	-15.157
賁	-15.1571
蟇	-15.1572
翊	-15.1573
窳	-15.1574
痿	-15.1575
构	-15.1576
抖	-15.1577
嫗	-15.1578
鸛	-15.1579
楊	-15.158
宄	-15.1581
栗	-15.1582
嘍	-15.1582
兢	-15.1583
㖿	-15.1584
𤃗	-15.1585
鸜	-15.1586
躶	-15.1587
蠢	-15.1588
繽	-15.1589
甄	-15.159
殑	-15.1591
咷	-15.1592
絺	-15.1593
皿	-15.1594
懌	-15.1595
惆	-15.1596
台	-15.1597
瀆	-15.1598
撕	-15.1599
訊	-15.16
貰	-15.16
瓈	-15.1601
餮	-15.1602
蝦	-15.1603
茵	-15.1604
麞	-15.1605
躄	-15.1606
港	-15.1607
嚀	-15.1608
閫	-15.1609
蕀	-15.161
紜	-15.1611
杻	-15.1612
憲	-15.1613
慞	-15.1614
孜	-15.1615
醐	-15.1616
醍	-15.1617
昭	-15.1618
恍	-15.1619
坤	-15.162
徘	-15.1621
髑	-15.1622
髏	-15.1623
嚫	-15.1624
什	-15.1625
蔔	-15.1626
鷺	-15.1627
蓉	-15.1628
芙	-15.1629
珀	-15.163
洴	-15.1631
釐	-15.1632
臚	-15.1633
洋	-15.1634
+	-15.1635
紐	-15.1636
吳	-15.1637
怏	-15.1638
裟	-15.1639
篌	-15.1639
箜	-15.164
鴛	-15.1641
昱	-15.1642
坦	-15.1643
琰	-15.1644
瑚	-15.1645
靂	-15.1646
跏	-15.1647
瑙	-15.1648
蕉	-15.1649
芭	-15.165
詈	-15.1651
鸚	-15.1652
鵡	-15.1653
慇	-15.1654
臾	-15.1655
忉	-15.1656
苾	-15.1657
獼	-15.1658
袈	-15.1659
—	-15.166
婇	-15.1661
藐	-15.1662
諛	-15.1662
