<unk>	0
<s>	0
</s>	0
之	-3.4353
/	-3.57929
)	-3.77249
(	-3.79264
也	-3.80124
而	-4.11805
者	-4.42233
以	-4.43165
則	-4.50018
不	-4.52761
其	-4.58384
故	-4.92402
為	-4.98733
有	-4.99394
於	-5.01148
人	-5.10322
無	-5.26721
)(	-5.29856
謂	-5.38249
事	-5.50058
言	-5.53031
曰	-5.54067
一	-5.58045
君	-5.59642
行	-5.64617
與	-5.73263
此	-5.73395
必	-5.746
矣	-5.76653
民	-5.79178
能	-5.81134
得	-5.82679
令	-5.83218
所	-5.83236
國	-5.8346
上	-5.86761
大	-5.87877
臣	-5.92235
爲	-5.93751
用	-5.94611
知	-5.98607
子	-6.01497
法	-6.01671
下	-6.02907
非	-6.04203
生	-6.10105
主	-6.10483
可	-6.11105
道	-6.11659
自	-6.11971
乃	-6.13001
使	-6.14582
時	-6.1665
中	-6.20595
是	-6.21581
官	-6.22517
至	-6.22844
見	-6.23301
皆	-6.24385
王	-6.27641
乎	-6.28068
當	-6.28801
若	-6.29551
出	-6.29851
公	-6.3017
利	-6.32911
在	-6.33632
三	-6.34412
重	-6.35166
而不	-6.35419
死	-6.35435
欲	-6.36241
名	-6.38602
明	-6.38959
因	-6.40179
相	-6.40235
正	-6.40268
故曰	-6.4052
五	-6.40659
夫	-6.4257
治	-6.42841
成	-6.47022
雖	-6.48261
失	-6.48555
理	-6.49564
多	-6.50557
心	-6.5068
物	-6.50868
不能	-6.54531
立	-6.54715
地	-6.54838
已	-6.55516
四	-6.5829
亦	-6.59724
二	-6.60206
賞	-6.60323
今	-6.60615
兵	-6.60904
士	-6.61634
從	-6.62092
然	-6.65373
吏	-6.65853
刑	-6.66368
善	-6.66791
數	-6.66999
家	-6.69956
既	-6.70546
天下	-6.70646
衆	-6.70854
不可	-6.72348
政	-6.72799
▁	-6.72833
將	-6.72977
亂	-6.73938
分	-6.74074
殺	-6.74343
齊	-6.74692
長	-6.75415
取	-6.75715
所以	-6.76122
又	-6.76422
功	-6.76798
食	-6.77274
守	-6.77858
何	-6.78664
舉	-6.78811
日	-6.80514
焉	-6.80617
過	-6.80759
安	-6.80956
去	-6.81198
常	-6.81279
如	-6.81553
外	-6.81942
服	-6.82011
同	-6.82081
天	-6.82494
十	-6.82743
盡	-6.83381
小	-6.84356
内	-6.84564
力	-6.84814
貴	-6.84978
反	-6.85625
後	-6.8629
入	-6.86697
水	-6.86798
私	-6.87422
先	-6.87585
賢	-6.88818
惡	-6.89609
問	-6.90013
未	-6.90785
勝	-6.91375
罪	-6.91456
本	-6.91678
作	-6.92223
處	-6.92689
身	-6.93129
制	-6.94514
輕	-6.94556
易	-6.96389
親	-6.96532
及	-6.9706
遂	-6.9778
德	-6.98236
猶	-6.99692
百	-6.99949
亡	-7.00375
徳	-7.00488
姦	-7.00666
州	-7.01644
以為	-7.0187
旣	-7.02081
實	-7.02278
難	-7.04192
不得	-7.04456
智	-7.04948
我	-7.05568
戰	-7.05999
財	-7.06213
謀	-7.07187
强	-7.07427
定	-7.08143
任	-7.09967
文	-7.106
吾	-7.10751
教	-7.11412
信	-7.11477
禁	-7.11607
發	-7.11925
義	-7.11936
逺	-7.13353
即	-7.13879
者也	-7.13904
或	-7.14838
可以	-7.15007
危	-7.15297
凡	-7.15329
愛	-7.1547
聞	-7.15477
命	-7.15975
求	-7.17188
固	-7.17664
且	-7.17848
止	-7.18521
氣	-7.18604
疑	-7.18954
致	-7.19524
書	-7.19699
來	-7.19802
藏	-7.20124
和	-7.20148
毋	-7.20175
按	-7.20536
變	-7.21184
通	-7.21493
禮	-7.21836
請	-7.22225
之所	-7.22656
彼	-7.2292
田	-7.2294
害	-7.24264
傷	-7.24394
馬	-7.24693
桓公	-7.24968
足	-7.2508
方	-7.25598
平	-7.26318
富	-7.26716
合	-7.27164
察	-7.27168
居	-7.27203
周	-7.27541
獨	-7.28468
山	-7.29024
異	-7.30591
六	-7.30592
意	-7.31343
順	-7.31647
諸侯	-7.32396
動	-7.32725
尊	-7.32803
伐	-7.34032
神	-7.34138
誅	-7.34184
門	-7.34439
少	-7.34751
其所	-7.3504
受	-7.35577
復	-7.35671
務	-7.35995
情	-7.36084
○	-7.36461
威	-7.36545
度	-7.36588
備	-7.36615
罰	-7.37438
歸	-7.37763
權	-7.37997
進	-7.38584
敗	-7.39132
聽	-7.4007
形	-7.4042
于	-7.40532
稱	-7.40577
農	-7.40612
髙	-7.41391
告	-7.42221
始	-7.42242
疾	-7.43373
世	-7.43383
近	-7.4395
好	-7.4485
攻	-7.44864
盗	-7.45304
勢	-7.45442
起	-7.45479
應	-7.45498
厚	-7.45515
女	-7.45659
縣	-7.45746
執	-7.4613
然後	-7.46508
里	-7.46707
朝	-7.47082
虚	-7.47382
獄	-7.47578
斷	-7.47662
母	-7.47837
說	-7.4787
樂	-7.48272
辭	-7.4831
計	-7.48391
弱	-7.49416
秦	-7.49644
耳	-7.5014
怨	-7.50647
九	-7.51367
賊	-7.51515
云	-7.51609
位	-7.51676
軍	-7.51793
具	-7.52009
前	-7.52026
年	-7.52484
節	-7.53261
人主	-7.53649
施	-7.54045
管仲	-7.54221
車	-7.55561
流	-7.55627
脩	-7.55711
陽	-7.55774
積	-7.56045
不敢	-7.56051
績按	-7.56181
化	-7.56769
金	-7.56852
甚	-7.57077
鄉	-7.57291
交	-7.5766
卒	-7.57795
論	-7.57903
城	-7.5956
患	-7.60068
敵	-7.61008
美	-7.61392
盜	-7.61443
怒	-7.61636
修	-7.61771
乘	-7.62416
終	-7.63288
陳	-7.63374
兩	-7.64241
聲	-7.64247
設	-7.64285
仁	-7.64519
各	-7.65615
精	-7.65646
視	-7.65749
也故	-7.65785
師	-7.67806
廢	-7.68255
器	-7.68823
是以	-7.68913
餘	-7.68959
有所	-7.68983
置	-7.69043
宜	-7.69067
父	-7.69392
則民	-7.69397
妻	-7.69476
莫	-7.69523
邪	-7.69525
加	-7.69541
適	-7.69981
養	-7.70042
直	-7.70482
土	-7.71288
審	-7.71377
隂	-7.71662
百姓	-7.71729
左右	-7.71772
市	-7.72013
觀	-7.72226
彊	-7.72348
哉	-7.72732
益	-7.73111
滿	-7.73321
賤	-7.73544
貧	-7.73601
老	-7.73703
不知	-7.73774
楚	-7.73905
大夫	-7.74128
往	-7.74586
韓	-7.74856
經	-7.75236
所謂	-7.75318
國之	-7.75461
無所	-7.75597
萬	-7.7575
是故	-7.75927
七	-7.7598
榖	-7.76503
趙	-7.7691
禍	-7.76937
比	-7.77
爭	-7.77144
存	-7.77264
聖人	-7.77303
畏	-7.7755
塞	-7.77633
靜	-7.77659
寡	-7.78018
萬物	-7.7848
極	-7.78602
術	-7.79413
諸	-7.79496
説	-7.79532
粟	-7.79655
收	-7.80099
勞	-7.81009
離	-7.81101
敬	-7.8169
伏	-7.81848
色	-7.82039
恐	-7.82063
敎	-7.82151
眀	-7.82168
謂之	-7.82316
氏	-7.82444
首	-7.82474
更	-7.82551
屬	-7.82723
果	-7.83012
議	-7.83583
但	-7.83613
木	-7.83647
憂	-7.83675
卑	-7.83698
籍	-7.83962
不足	-7.8397
召	-7.84372
右	-7.84646
聚	-7.84738
衣	-7.84947
而無	-7.854
其事	-7.85409
婦	-7.85522
傳	-7.8558
人之	-7.85692
誣	-7.85886
張	-7.86689
辯	-7.86805
深	-7.86849
春	-7.86975
南	-7.87533
對曰	-7.87787
絶	-7.88134
室	-7.8841
急	-7.88454
幣	-7.88497
府	-7.88677
武	-7.88686
間	-7.88737
由	-7.88752
譽	-7.89038
禄	-7.8943
唯	-7.89612
白	-7.89944
勿	-7.90142
坐	-7.90589
工	-7.90637
别	-7.90705
八	-7.91147
解	-7.91217
夏	-7.91315
淫	-7.91322
者必	-7.92102
澤	-7.92361
散	-7.9238
爵	-7.92724
錢	-7.92787
商	-7.92867
民之	-7.93314
退	-7.93475
東	-7.93992
貨	-7.94558
語	-7.946
太	-7.94603
君之	-7.94912
魯	-7.952
息	-7.9591
明主	-7.96102
月	-7.96254
徒	-7.9647
廣	-7.96974
良	-7.97018
體	-7.97075
載	-7.97137
忠	-7.97341
待	-7.97345
魏	-7.97548
己	-7.97673
資	-7.97687
寡人	-7.9783
釋	-7.9805
捕	-7.98061
羣臣	-7.98069
犯	-7.98136
火	-7.98357
西	-7.98638
懼	-7.98766
操	-7.98869
獲	-7.99344
天子	-7.99353
尚	-7.99432
古	-7.99587
晉	-7.99933
責	-8.00004
堅	-8.00119
惠	-8.00674
布	-8.00704
免	-8.00947
窮	-8.01202
嵗	-8.01329
然則	-8.01343
君子	-8.01363
引	-8.0191
等	-8.02482
推	-8.02488
量	-8.02491
慮	-8.02492
代	-8.02516
共	-8.03179
削	-8.0326
汝	-8.03673
北	-8.03765
宋	-8.03784
之人	-8.03843
千	-8.04104
圖	-8.0447
侵	-8.04519
之數	-8.04663
詐	-8.0506
著	-8.05125
耕	-8.05126
字	-8.05679
久	-8.05712
口	-8.05757
勸	-8.05762
管子對曰	-8.05799
䏻	-8.05958
也今	-8.06169
乗	-8.06249
暴	-8.06266
元	-8.0628
使人	-8.06293
石	-8.06336
客	-8.06353
謹	-8.06406
索	-8.06442
遇	-8.06447
飾	-8.06455
俗	-8.06488
天下之	-8.06755
薄	-8.07143
職	-8.07415
勇	-8.0781
之士	-8.08077
霸	-8.081
持	-8.0839
将	-8.08415
冬	-8.08514
公曰	-8.08576
恃	-8.08699
他	-8.08745
之事	-8.08812
附	-8.09037
决	-8.09595
都	-8.09759
就	-8.09777
桓公曰	-8.10024
牛	-8.10283
遺	-8.10314
知其	-8.10327
濟	-8.10365
卿	-8.10377
邑	-8.10415
業	-8.10532
聖	-8.10588
人君	-8.1089
唐	-8.10967
聴	-8.11115
被	-8.11704
喜	-8.11765
茍	-8.12487
豈	-8.12573
孫	-8.12727
嚴	-8.12786
興	-8.13296
一人	-8.13473
司	-8.13584
之所以	-8.13653
奪	-8.13768
逆	-8.13961
天地	-8.13976
列	-8.13995
奉	-8.14191
巧	-8.14584
於是	-8.14882
苦	-8.15209
要	-8.15305
而民	-8.15352
舎	-8.15386
不以	-8.15469
寃	-8.15766
妄	-8.15967
游	-8.16013
俱	-8.16049
故能	-8.1607
夜	-8.16103
而後	-8.16235
李	-8.16683
章	-8.16793
目	-8.17374
音	-8.17514
秋	-8.17596
原	-8.18045
驗	-8.18116
封	-8.18208
病	-8.18922
全	-8.18991
毁	-8.19009
大臣	-8.19487
囚	-8.19554
江	-8.19558
不可以	-8.19691
曲	-8.19724
除	-8.19773
巳	-8.1981
思	-8.1994
手	-8.20452
荆	-8.20732
殺之	-8.20849
材	-8.20991
后	-8.21048
隨	-8.21306
救	-8.21431
御	-8.21904
辟	-8.22008
草	-8.22031
風	-8.22106
辨	-8.22666
倍	-8.22706
覆	-8.22729
留	-8.22799
㑹	-8.22814
盛	-8.22841
愚	-8.22948
弟	-8.23263
也夫	-8.2336
鄭	-8.23434
之國	-8.23487
移	-8.23517
某	-8.23851
參	-8.24295
習	-8.24316
賜	-8.25142
賦	-8.25179
賞罰	-8.25467
走	-8.25779
役	-8.25933
侯	-8.26476
甲	-8.26621
兼	-8.26698
輕重	-8.26709
為之	-8.26876
狀	-8.2705
嘗	-8.27266
敢	-8.27409
開	-8.27461
之道	-8.27636
不為	-8.28173
海	-8.28188
報	-8.28243
還	-8.28244
費	-8.28312
專	-8.28358
蔽	-8.28379
者不	-8.28706
期	-8.28823
(○	-8.29037
宣	-8.29053
欺	-8.2914
給	-8.29226
類	-8.29884
左	-8.2989
結	-8.3003
孝	-8.30217
容	-8.30682
便	-8.30706
決	-8.3078
博	-8.30817
象	-8.31705
得其	-8.32177
偽	-8.3244
滅	-8.32459
筴	-8.32528
簡	-8.33101
争	-8.33246
於人	-8.33356
棄	-8.33364
上下	-8.33473
於君	-8.33842
僧	-8.33991
識	-8.34135
質	-8.34161
強	-8.34218
顯	-8.34256
驕	-8.34446
必有	-8.35023
案	-8.35034
假	-8.35039
冝	-8.35151
黨	-8.35157
以爲	-8.35337
羣	-8.35698
帝	-8.35872
二十	-8.35902
其民	-8.36547
越	-8.36562
承	-8.36808
衛	-8.37024
末	-8.37737
如此	-8.37819
用之	-8.38478
奚	-8.38495
至於	-8.3866
者所以	-8.39409
郡	-8.39434
賈	-8.3946
破	-8.39506
糓	-8.39613
赦	-8.39693
燕	-8.39881
對	-8.40093
學	-8.40234
酒	-8.4028
誠	-8.40401
困	-8.40515
有功	-8.40766
新	-8.41271
次	-8.41282
初	-8.41481
於上	-8.41653
訟	-8.42228
望	-8.4227
省	-8.42311
榮	-8.42335
故不	-8.42748
則無	-8.42791
不用	-8.42908
衡	-8.43168
十二	-8.43185
鹽	-8.43283
歳	-8.43332
陵	-8.4419
約	-8.44226
雨	-8.44237
郷	-8.44258
寒	-8.44311
父母	-8.44467
其身	-8.44616
負	-8.45028
社稷	-8.45151
閒	-8.45184
半	-8.45193
損	-8.45259
舊	-8.45502
舍	-8.46113
種	-8.46248
祭	-8.46261
足以	-8.46418
予	-8.46747
宗	-8.47056
授	-8.47094
恩	-8.47143
儀	-8.4716
須	-8.47186
凶	-8.47259
不行	-8.47767
樹	-8.47966
歲	-8.48108
竭	-8.48168
一曰	-8.48608
不如	-8.48628
▁(	-8.48936
仲	-8.49006
玉	-8.49069
擅	-8.49079
鮑叔	-8.49648
雖有	-8.4991
向	-8.50001
申	-8.5001
志	-8.50051
惑	-8.50118
忘	-8.50629
悉	-8.50986
宿	-8.51106
枉	-8.51128
辱	-8.51168
均	-8.51299
人有	-8.51531
與之	-8.51811
隱	-8.52223
刑罰	-8.52416
不勝	-8.52527
此謂	-8.52629
於民	-8.52948
盖	-8.53075
放	-8.53179
虛	-8.53211
征	-8.53223
乆	-8.5325
壤	-8.53271
伯	-8.53898
刀	-8.541
宻	-8.54138
並	-8.5422
委	-8.54274
許	-8.55213
福	-8.55245
穀	-8.55245
并	-8.55273
防	-8.55303
射	-8.55325
寛	-8.55333
殆	-8.55361
鄰	-8.55568
端	-8.55602
聼	-8.55712
第	-8.55853
莫不	-8.55924
子之	-8.56116
法令	-8.56265
慶	-8.56328
虞	-8.56372
寶	-8.56489
則人	-8.56908
失其	-8.57062
尉	-8.57292
逐	-8.5752
之時	-8.5761
送	-8.58391
其人	-8.58397
黄	-8.58415
史	-8.58454
公子	-8.58486
惟	-8.58515
鍾	-8.58587
愼	-8.58602
考	-8.58616
貪	-8.58646
此之謂	-8.59169
河	-8.59645
寳	-8.59676
素	-8.59702
賢者	-8.60197
也故曰	-8.60335
緩	-8.60856
牧	-8.60895
夷吾	-8.61021
不失	-8.61395
以其	-8.61452
斯	-8.6178
願	-8.61834
保	-8.61989
伍	-8.62029
聞之	-8.62199
不見	-8.62265
其功	-8.62349
違	-8.6259
弗	-8.62619
號	-8.628
戮	-8.62929
迹	-8.63005
使民	-8.63028
逃	-8.63051
連	-8.63066
妾	-8.63084
者則	-8.63243
之心	-8.63358
如此者	-8.6344
每	-8.64207
戒	-8.64212
罷	-8.64256
紀	-8.64318
率	-8.64319
慈	-8.6432
之民	-8.64743
知之	-8.64776
偷	-8.6538
臨	-8.65383
託	-8.65436
輔	-8.65507
其君	-8.65649
管子	-8.66018
為人	-8.66229
指	-8.66525
蓋	-8.66559
梁	-8.66593
路	-8.66613
人臣	-8.66751
弊	-8.66788
是也	-8.66879
而求	-8.66922
其國	-8.67331
胡	-8.67636
再	-8.67758
校	-8.67828
典	-8.67852
供	-8.6788
厲	-8.67888
族	-8.67889
清	-8.67923
充	-8.67929
幸	-8.67935
飢	-8.67971
飲	-8.6892
堯	-8.69004
性	-8.69025
則是	-8.69102
改	-8.69124
泄	-8.69163
君臣	-8.69686
之情	-8.70189
追	-8.70216
昌	-8.70269
振	-8.7039
爵禄	-8.70411
生也	-8.70671
人不	-8.70835
有餘	-8.70953
遣	-8.71367
擇	-8.71391
試	-8.71568
野	-8.71572
之道也	-8.71887
人也	-8.72206
殺人	-8.72325
宫	-8.72488
集	-8.72665
幾	-8.72666
獻	-8.72715
衰	-8.72833
匿	-8.72834
皮	-8.7284
慎	-8.72849
稅	-8.72851
耳目	-8.72876
千里	-8.72895
於天下	-8.73127
四時	-8.73276
避	-8.73487
不足以	-8.73625
譎	-8.74061
調	-8.74109
泉	-8.74118
准	-8.74145
革	-8.7415
使之	-8.74193
在於	-8.74596
則國	-8.74918
祖	-8.75282
利也	-8.7529
示	-8.75397
孤	-8.75411
稽	-8.75436
顧	-8.75471
者皆	-8.75762
訴	-8.75909
婦人	-8.76
之功	-8.76299
效	-8.76705
微	-8.76707
懐	-8.76745
用也	-8.76759
憲	-8.76806
不當	-8.7681
先王	-8.77583
其罪	-8.77626
耶	-8.77904
曹	-8.77985
閉	-8.77993
静	-8.78015
井	-8.78061
有司	-8.78111
有罪	-8.78221
如此則	-8.78383
無功	-8.7852
哀	-8.78876
一日	-8.79039
漢	-8.7922
表	-8.79317
饑	-8.79342
臺	-8.7935
徐	-8.79359
感	-8.79461
依	-8.79465
徙	-8.79471
諸侯之	-8.79473
空	-8.79494
得之	-8.79962
不服	-8.80122
古之	-8.80377
有道	-8.8049
折	-8.80632
吳	-8.80649
曰吾	-8.80729
記	-8.80745
寵	-8.80789
補	-8.80792
擊	-8.80827
王者	-8.81216
昔者	-8.8155
其本	-8.81712
虎	-8.82034
差	-8.8208
傅	-8.82099
徃	-8.82127
貸	-8.82151
民不	-8.82152
細	-8.82195
泰	-8.82196
之臣	-8.82273
一國	-8.82551
不聽	-8.82742
産	-8.8292
循	-8.83331
部	-8.83424
辜	-8.83461
刼	-8.83494
倉	-8.8351
誤	-8.83526
驚	-8.83542
畜	-8.8358
遷	-8.83589
助	-8.83603
尺	-8.83633
徴	-8.83651
斂	-8.83684
之言	-8.84277
不及	-8.84303
者非	-8.84387
管子曰	-8.84396
道也	-8.84434
於外	-8.8456
治國	-8.84757
真	-8.84851
兒	-8.84905
高	-8.84935
堂	-8.84948
叅	-8.84966
豐	-8.8502
運	-8.85075
然后	-8.85301
法而	-8.85378
號令	-8.85404
爾	-8.85832
繫	-8.8629
湯	-8.86411
塗	-8.86457
况	-8.86497
什	-8.86542
侈	-8.86556
獸	-8.86576
其子	-8.86949
死者	-8.87081
而行	-8.87178
行之	-8.87332
營	-8.87659
尹	-8.87677
以此	-8.87695
宰	-8.87725
鞫	-8.87751
劾	-8.87783
肉	-8.87821
夷	-8.87843
踰	-8.87875
律	-8.87883
恱	-8.87893
憎	-8.87918
魚	-8.8792
竒	-8.87951
不善	-8.88129
干	-8.89087
證	-8.89093
三年	-8.89194
忽	-8.89228
諫	-8.89228
兄	-8.89262
篇	-8.89316
状	-8.89347
賣	-8.89385
切	-8.89393
龜	-8.89415
懷	-8.8943
矢	-8.89436
讓	-8.89472
華	-8.8951
若干	-8.89569
於國	-8.8963
無私	-8.90515
鄰國	-8.90699
仇	-8.90803
㣲	-8.90827
男	-8.9086
據	-8.90896
户	-8.90941
人之所	-8.91711
父子	-8.92185
杖	-8.92346
斬	-8.92356
奈何	-8.92365
𫝊	-8.92405
智者	-8.92406
竊	-8.92427
従	-8.9255
川	-8.92552
出於	-8.92563
冨	-8.92623
小白	-8.9265
爲之	-8.9265
鬼神	-8.92673
管仲曰	-8.92701
曰此	-8.92731
問之	-8.93156
百里	-8.9349
何也	-8.93522
天地之	-8.93601
詰	-8.93801
者有	-8.93842
選	-8.9395
龍	-8.93996
付	-8.93997
畢	-8.94007
隠	-8.94054
旅	-8.94067
㳺	-8.94145
貌	-8.94159
之地	-8.94285
之術	-8.9524
叔	-8.95457
造	-8.955
肅	-8.95597
佚	-8.95598
淵	-8.95605
買	-8.95645
二人	-8.95973
以成	-8.96087
如是	-8.96203
在上	-8.9637
然而	-8.968
姓	-8.96921
監	-8.97067
呼	-8.97111
墨	-8.97142
笑	-8.97161
崇	-8.97192
卷	-8.97213
矜	-8.97229
堯舜	-8.97243
注	-8.97275
縁	-8.97277
吉	-8.97315
明君	-8.97436
人主之	-8.98158
太子	-8.9839
而不能	-8.98538
庶	-8.98662
錯	-8.9875
夀	-8.98778
葢	-8.98813
舟	-8.98817
繩	-8.98818
光	-8.98869
雜	-8.98994
仁義	-8.99155
五榖	-8.99489
其主	-8.99718
不爲	-9.00146
無不	-9.00282
行也	-9.00414
投	-9.00451
何以	-9.00482
恭	-9.00489
各有	-9.00494
慝	-9.00535
屈	-9.00585
束	-9.00596
而有	-9.00596
壅	-9.00597
鳥	-9.00607
未嘗	-9.00641
不治	-9.00647
生於	-9.01645
萬民	-9.01646
小人	-9.01814
季	-9.02023
此言	-9.02049
詔	-9.02085
録	-9.02124
借	-9.02126
愈	-9.02145
柄	-9.02174
築	-9.02178
累	-9.02201
密	-9.02227
曽	-9.02232
仕	-9.02318
怠	-9.02372
莫之	-9.02513
見其	-9.03351
昭	-9.0357
仲父	-9.03733
詣	-9.03844
掩	-9.03853
特	-9.03855
紂	-9.03909
以待	-9.03937
来	-9.03938
恥	-9.03959
彌	-9.03959
建	-9.04027
税	-9.04029
第十	-9.04267
主之	-9.04967
可謂	-9.05287
其妻	-9.05371
舜	-9.0553
奏	-9.056
㡬	-9.0563
轉	-9.05715
落	-9.05765
谷	-9.05792
弃	-9.05863
則有	-9.06241
則不	-9.06372
不信	-9.06613
問曰	-9.06642
齊國	-9.0669
百官	-9.07315
屍	-9.07367
談	-9.07379
背	-9.07456
訊	-9.07484
國家	-9.075
其意	-9.07514
喻	-9.07525
誰	-9.07532
熟	-9.07537
符	-9.07538
寄	-9.07556
柔	-9.07562
煩	-9.07579
誅之	-9.08116
不同	-9.08219
人皆	-9.08249
民無	-9.0828
不成	-9.08352
而成	-9.08401
其家	-9.08463
不然	-9.08698
成功	-9.0902
短	-9.09029
王之	-9.09127
國有	-9.0919
廷	-9.0923
屋	-9.09246
佐	-9.09287
完	-9.09309
扵	-9.09336
薦	-9.09343
不明	-9.09368
接	-9.09441
所欲	-9.09538
姦邪	-9.09723
道之	-9.10526
而立	-9.10574
不死	-9.10751
而去	-9.10896
血	-9.10981
弑	-9.11011
池	-9.11043
青	-9.11134
祥	-9.11138
否	-9.11152
尸	-9.11155
寧	-9.1117
根	-9.11201
繁	-9.11233
於法	-9.11328
有過	-9.11879
其言	-9.11957
其名	-9.12525
贓	-9.12736
三日	-9.12864
所惡	-9.12893
薛	-9.12933
必不	-9.12958
延	-9.12973
社	-9.12985
育	-9.1304
註	-9.13049
忠臣	-9.13055
險	-9.13086
羽	-9.13123
側	-9.13126
度量	-9.13347
矣故	-9.13362
賢人	-9.14355
胥	-9.14637
羙	-9.14739
境	-9.14756
治也	-9.14835
登	-9.14864
諾	-9.14889
召忽	-9.14903
飛	-9.1496
杜	-9.14974
莫敢	-9.15004
亟	-9.15004
而欲	-9.15011
戎	-9.15025
黒	-9.15077
式	-9.15129
而好	-9.1522
之罪	-9.15648
從而	-9.15837
上之	-9.15878
聖王	-9.16053
不至	-9.16479
理也	-9.16483
不相	-9.16584
無以	-9.16614
孟	-9.16681
不從	-9.16745
認	-9.16774
會	-9.16775
席	-9.16811
關	-9.16813
庸	-9.16865
毒	-9.16891
祿	-9.16903
最	-9.16926
速	-9.16937
鼓	-9.16942
圍	-9.16962
浮	-9.16988
以法	-9.1704
法制	-9.1713
君不	-9.17286
不可得	-9.17778
隂陽	-9.17855
盡力	-9.18089
則君	-9.1828
襄	-9.18332
管	-9.18436
刺	-9.18804
縱	-9.18813
庭	-9.18836
履	-9.18842
似	-9.18848
程	-9.1887
績	-9.18875
殘	-9.18941
歛	-9.18958
靡	-9.19026
者幾何人	-9.19044
境内	-9.19127
星	-9.1915
草木	-9.19173
者其	-9.19352
日月	-9.19386
無常	-9.19508
之利	-9.19751
人者	-9.20634
不必	-9.20636
邊	-9.20795
機	-9.20875
繼	-9.20887
弓	-9.20888
味	-9.20895
詩	-9.20908
劵	-9.2092
遠	-9.2092
萌	-9.20961
序	-9.20964
焚	-9.20986
闗	-9.20997
十日	-9.21021
薪	-9.2104
貴賤	-9.21758
是謂	-9.2178
為天下	-9.2188
朋黨	-9.22027
法也	-9.22213
三十	-9.22455
令行	-9.22534
舉事	-9.22725
明日	-9.22756
駕	-9.22787
擒	-9.22822
劉	-9.2291
隣	-9.22935
面	-9.22953
嫗	-9.22958
提	-9.22962
徧	-9.23044
雪	-9.23052
趨	-9.23052
呉	-9.23077
六者	-9.23086
桓公曰何謂	-9.231
喪	-9.23101
純	-9.23114
丘	-9.2313
司馬	-9.23147
燭	-9.23148
虧	-9.23163
丗	-9.23168
正也	-9.2331
之本也	-9.23398
未有	-9.23483
民者	-9.23912
之理	-9.24267
有三	-9.24275
以相	-9.24356
孰	-9.24951
劫	-9.24955
頭	-9.25041
鈎	-9.25082
桀	-9.25108
覺	-9.25115
飬	-9.25124
貲	-9.25127
劒	-9.25146
者可亡也	-9.25153
法者	-9.25215
迎	-9.25225
貞	-9.25226
第二十	-9.2524
䡄	-9.25246
荒	-9.25249
壌	-9.25252
攝	-9.25255
降	-9.25259
雷	-9.25305
掌	-9.25312
則民不	-9.25387
第四	-9.25612
其利	-9.25632
三月	-9.25872
昔	-9.26011
有常	-9.26013
王曰	-9.26158
四方	-9.26329
而食	-9.26509
令人	-9.2675
十餘	-9.26762
髙下	-9.26785
文公	-9.26836
民有	-9.26927
丞	-9.27002
山之	-9.27103
到	-9.2716
疑之	-9.27171
取之	-9.27172
臣下	-9.27194
濫	-9.27217
於身	-9.27283
嗣	-9.27286
戴	-9.27313
竟	-9.27319
契	-9.27334
競	-9.27337
副	-9.27337
故明法曰	-9.27354
莊	-9.27359
肥	-9.27387
揚	-9.27391
勤	-9.27415
其所以	-9.27424
苟	-9.27432
璧	-9.27445
圉	-9.27453
春秋	-9.27456
必先	-9.27557
察其	-9.27664
治之	-9.27924
此三者	-9.28103
五十	-9.2827
與人	-9.284
子産	-9.28409
服罪	-9.28475
用其	-9.28669
故先王	-9.28716
是非	-9.28805
之意	-9.28838
之患	-9.29123
則亂	-9.29277
鎮	-9.29459
疏	-9.29497
距	-9.29501
仲尼	-9.29503
鬼	-9.29511
桑	-9.2956
廩	-9.29575
刻	-9.2958
友	-9.29589
贖	-9.2959
絲	-9.29595
狹	-9.29647
招	-9.29658
取其	-9.29788
無形	-9.29794
治民	-9.29953
曰寡人	-9.3061
武王	-9.31015
而得	-9.3109
而已	-9.31303
其情	-9.31417
於下	-9.31581
咸	-9.31615
楊	-9.31698
郭	-9.3171
寺	-9.3173
齒	-9.31799
規	-9.31801
夕	-9.31804
靈	-9.31814
挾	-9.31822
守之	-9.31856
希	-9.31864
湯武	-9.3188
遵	-9.31907
蓄	-9.31914
兄弟	-9.31915
凌	-9.31975
泣	-9.31995
則臣	-9.32307
甲兵	-9.32327
為國	-9.32479
則必	-9.32967
不聞	-9.33011
孔	-9.33255
莫能	-9.33323
曰夫	-9.33597
忍	-9.33855
以事	-9.33893
撰	-9.33914
桓	-9.34046
蘇	-9.3406
穴	-9.34071
亮	-9.34078
讎	-9.34136
趣	-9.34151
䟽	-9.34161
臣聞	-9.34165
優	-9.34178
骨	-9.34179
慕	-9.34201
桀紂	-9.34245
宫室	-9.3432
桓公曰善	-9.34716
禮義	-9.35085
所愛	-9.35113
事也	-9.35506
之政	-9.35703
於此	-9.35721
夫人	-9.35755
文王	-9.35919
其心	-9.35939
不䏻	-9.36001
可得	-9.36231
見本	-9.36276
姑	-9.36349
亂也	-9.36435
詳	-9.36446
亷	-9.36478
赴	-9.3648
之至	-9.3649
二子	-9.36494
減	-9.36496
銀	-9.36497
割	-9.36537
輙	-9.36562
苛	-9.36563
糺	-9.36569
究	-9.3657
畫	-9.36588
男女	-9.36628
環	-9.36639
奈何管子對曰	-9.36661
不忍	-9.36717
時有	-9.36841
大國	-9.36878
者何也	-9.37003
不通	-9.37042
人心	-9.37214
法度	-9.37218
治亂	-9.37422
天道	-9.37574
其地	-9.37709
何謂	-9.37781
則上	-9.38175
景	-9.38249
事者	-9.38473
忌	-9.38591
十六	-9.38638
數也	-9.38724
讀	-9.38804
可知也	-9.38823
者謂之	-9.38826
悔	-9.38877
毆	-9.38905
觧	-9.38934
蔡	-9.38938
以上	-9.38961
誘	-9.38969
卜	-9.38973
候	-9.38976
用兵	-9.38978
甞	-9.38993
慢	-9.39004
帥	-9.39026
桓公問於管子曰	-9.39028
宗廟	-9.39059
壽	-9.3908
詭	-9.39094
廉	-9.39115
幾何	-9.39168
所撰	-9.39224
奪之	-9.39465
孔子	-9.39699
法術	-9.39828
管仲對曰	-9.39887
矣夫	-9.4007
多少	-9.40186
二曰	-9.40522
有大	-9.40576
民之所	-9.40758
其私	-9.40759
萬物之	-9.40768
不求	-9.4117
利而	-9.41251
掠	-9.41279
狗	-9.4135
遊	-9.4136
葬	-9.4136
御史	-9.41388
哭	-9.41412
餓	-9.41415
冦	-9.41425
通於	-9.41427
却	-9.41432
枝	-9.41453
領	-9.41469
旱	-9.41471
納	-9.41474
匡	-9.41487
葉	-9.415
沒	-9.41511
撫	-9.41533
鹿	-9.41534
㓜	-9.41568
遁	-9.4157
露	-9.41574
此皆	-9.41574
鄙	-9.41588
城郭	-9.41603
國無	-9.41655
倚	-9.41734
予之	-9.41875
太守	-9.41886
天時	-9.42212
不正	-9.42349
而已矣	-9.42354
籍於	-9.42407
請問	-9.42414
未必	-9.42441
不立	-9.42524
明於	-9.42555
子曰	-9.42866
君人者	-9.42902
必得	-9.42923
或曰	-9.4302
為政	-9.43083
以自	-9.43144
比周	-9.43158
事而	-9.43346
而自	-9.43422
十年	-9.43487
從事	-9.43516
其道	-9.43717
余	-9.43753
械	-9.43864
騐	-9.43902
騎	-9.43906
醉	-9.43932
廟	-9.43939
安得	-9.43962
鼎	-9.43962
刃	-9.43964
襲	-9.43972
限	-9.43977
墓	-9.43989
圓	-9.4402
踈	-9.4403
隆	-9.4403
賂	-9.44061
無有	-9.44088
仰	-9.44089
亡國	-9.44186
不可得也	-9.44194
克	-9.44195
人情	-9.44215
視之	-9.44223
援	-9.44245
不審	-9.44282
不聴	-9.44285
萬乘	-9.4429
不可不	-9.44467
之法	-9.44621
善者	-9.44646
無益	-9.45013
危矣	-9.4517
則主	-9.45287
之後	-9.45338
以治	-9.4536
合於	-9.45366
當死	-9.45509
可以為	-9.45614
之勢	-9.45755
而出	-9.45901
事君	-9.46232
勝之	-9.46299
君臣之	-9.4638
人無	-9.46401
遽	-9.4645
随	-9.46575
拙	-9.46575
宥	-9.46595
茅	-9.46612
偶	-9.46626
嫁	-9.4663
隰朋	-9.4664
嗇	-9.46646
涸	-9.46666
帛	-9.46671
測	-9.4668
釡	-9.4668
忿	-9.46696
萬人	-9.46709
休	-9.46714
蟲	-9.46739
豪	-9.46742
馳	-9.46743
厭	-9.46753
侮	-9.46781
鈞	-9.46839
壯	-9.4684
二者	-9.46862
六畜	-9.46863
少年	-9.4692
其勢	-9.46931
水之	-9.46934
飲食	-9.4694
其臣	-9.47098
治者	-9.47269
以告	-9.47318
之禮	-9.47527
亦可	-9.47532
不與	-9.47703
衆而	-9.47894
不一	-9.4795
敵國	-9.48169
不生	-9.48279
而天下	-9.48471
世之	-9.48658
不親	-9.48828
治天下	-9.48929
之謂也	-9.48962
法則	-9.4904
歟	-9.4926
勉	-9.49285
守其	-9.49299
而上	-9.49309
崔	-9.49312
旦	-9.49314
凢	-9.49323
檢	-9.49331
軌	-9.49335
㝷	-9.49343
衍	-9.49349
謙	-9.49354
督	-9.49368
鼔	-9.49373
惰	-9.49374
甘	-9.4942
鐵	-9.49421
闕	-9.49437
禱	-9.49443
旁	-9.49476
親戚	-9.49486
為人臣者	-9.49555
富者	-9.49715
亦不	-9.49818
有善	-9.49878
不受	-9.49892
未可	-9.49909
莫如	-9.49988
出入	-9.49998
然也	-9.50168
主也	-9.50245
以致	-9.50438
亦有	-9.50701
農夫	-9.50776
三者	-9.50823
五官	-9.51025
爲國	-9.51056
義也	-9.51288
何如	-9.5145
無敵	-9.51488
則不然	-9.51626
致死	-9.51771
姦臣	-9.5192
夢	-9.51979
雲	-9.52007
謗	-9.52014
矯	-9.52015
爲天下	-9.52052
侍	-9.52065
僕	-9.52074
村	-9.52095
達	-9.52114
樞	-9.52118
總	-9.52121
専	-9.52183
躁	-9.52186
悲	-9.52205
脅	-9.52209
䘮	-9.52212
狄	-9.52219
幼	-9.52234
邦	-9.52239
殊	-9.52241
毛	-9.5232
賢不肖	-9.52359
凡此皆	-9.52465
匱	-9.52488
民力	-9.52543
之官	-9.526
貨財	-9.526
不察	-9.5277
之間	-9.53014
見之	-9.53103
富貴	-9.53244
者衆	-9.53274
十七	-9.53346
親也	-9.53418
道者	-9.53438
可得而	-9.5353
智能	-9.53617
其德	-9.53949
歸之	-9.54647
輿	-9.54814
伺	-9.54831
而不知	-9.54856
裕	-9.54895
戚	-9.54903
暮	-9.54915
成也	-9.54935
儒	-9.54936
潔	-9.5496
民也	-9.54971
宅	-9.5499
出令	-9.54999
雍	-9.55007
閭	-9.5501
莒	-9.55015
角	-9.55047
僇	-9.55049
貳	-9.55049
升	-9.55051
擁	-9.55065
其上	-9.55068
悦	-9.55081
麻	-9.55097
什伍	-9.55124
沈	-9.55139
鐘	-9.55146
維	-9.55172
偏	-9.55263
害也	-9.55296
不止	-9.55304
在下	-9.55343
行則	-9.55369
忠信	-9.5541
重於	-9.55556
而使	-9.5557
以求	-9.5563
察之	-9.56067
衆人	-9.56219
由是	-9.56246
此其	-9.56682
神明	-9.57203
故民	-9.57355
儉	-9.57801
鬻	-9.57847
匠	-9.57863
飯	-9.57866
貢	-9.57887
盈	-9.57888
殷	-9.57898
逮	-9.57917
級	-9.57917
横	-9.57928
植	-9.57933
師曠	-9.57947
賔	-9.57955
兆	-9.57963
十三	-9.57965
相與	-9.5797
詰之	-9.5797
況	-9.57975
祀	-9.5799
穫	-9.57994
収	-9.58006
徑	-9.58014
盡其	-9.58019
叛	-9.58033
樸	-9.58038
則能	-9.58107
赤	-9.58109
按此	-9.58144
珠玉	-9.58144
聖王之禁也	-9.58245
利害	-9.58339
何不	-9.58455
理則	-9.58484
於道	-9.58623
曰我	-9.58828
行私	-9.58903
人所	-9.58982
使者	-9.59017
前後	-9.5914
千人	-9.59477
問其	-9.59831
君曰	-9.60159
也然	-9.60167
曰君	-9.60169
一事	-9.60268
非所	-9.60303
告之	-9.60318
知也	-9.60484
好惡	-9.60555
於内	-9.60605
觀之	-9.60676
抵	-9.60709
之吏	-9.60755
無得	-9.60759
小國	-9.6079
京	-9.60836
袁	-9.60863
貫	-9.60885
羊	-9.60905
昭侯	-9.60934
恵	-9.60935
陸	-9.60944
黨與	-9.60944
禹	-9.60947
肯	-9.60949
才	-9.60988
林	-9.60991
乾	-9.60992
菜	-9.60997
續	-9.60998
敦	-9.60998
豫	-9.61004
仞	-9.61011
冠	-9.61012
陶	-9.61026
黃	-9.61035
衢	-9.61064
廪	-9.61079
禽獸	-9.61083
僻	-9.61097
九竅	-9.61109
禦	-9.6111
訾	-9.61166
父兄	-9.61253
七十	-9.61255
進退	-9.61365
乃令	-9.61397
觀其	-9.61481
山澤	-9.61504
逺近	-9.61747
州有	-9.61765
其法	-9.61832
之術也	-9.62079
敗也	-9.62104
衣食	-9.62132
官爵	-9.62232
亡也	-9.62383
則下	-9.62471
無術	-9.62503
不能自	-9.62621
於市	-9.62729
四者	-9.62748
本傳	-9.62953
古者	-9.63082
無事	-9.63558
時也	-9.63592
第五	-9.63801
之類	-9.63872
范	-9.63894
賀	-9.6397
祝	-9.64009
怪	-9.64042
舊集不載	-9.64061
戸	-9.64083
預	-9.64102
嘉	-9.64102
壹	-9.64108
鬬	-9.64124
迷	-9.64128
者王	-9.64136
必以	-9.64139
其威	-9.64149
價	-9.64153
蚤	-9.64156
采	-9.64176
珠	-9.64196
靖	-9.64227
沙	-9.64251
鬭	-9.64276
若此則	-9.6433
其位	-9.64343
讒	-9.64379
之實	-9.64515
其父	-9.64564
乘馬	-9.64663
變化	-9.6473
霸王	-9.64755
伏罪	-9.64804
問於	-9.64862
者何	-9.64885
難也	-9.64918
其實	-9.64977
聖人之	-9.6517
也若	-9.65246
察姦	-9.65272
臣有	-9.65274
令不行	-9.65329
故聖人	-9.65357
兵弱	-9.65426
朋	-9.65723
故有	-9.65775
守法	-9.6593
德也	-9.65995
使其	-9.66194
數日	-9.66203
人臣之	-9.66371
無名	-9.66376
亂主	-9.66472
績按此	-9.66522
盡心	-9.66524
有功者	-9.66529
世主	-9.66636
傑	-9.6699
故人	-9.67057
院	-9.67075
丁	-9.67176
轡	-9.67237
痛	-9.67256
脫	-9.67259
繋	-9.67289
尤	-9.67295
巨	-9.67319
之所生	-9.67329
條	-9.6733
郎中	-9.67346
佯	-9.67351
活	-9.67358
握	-9.6738
先王之	-9.67391
旗	-9.67396
咎	-9.67398
而止	-9.67408
藉	-9.67421
恤	-9.67437
怯	-9.67455
枯	-9.67498
雕	-9.67575
用此	-9.67899
平公	-9.68
士卒	-9.68369
視其	-9.68476
農事	-9.68651
死也	-9.68761
以知	-9.68775
吾欲	-9.6886
先後	-9.69106
三百	-9.69239
愛之	-9.69258
其智	-9.69511
得其情	-9.69613
自治	-9.69874
思之	-9.69948
今夫	-9.7005
三曰	-9.7009
不任	-9.70101
之事也	-9.70103
訊之	-9.7027
疑其	-9.70334
之計	-9.70335
不動	-9.70402
者以其	-9.70434
判	-9.7047
造父	-9.70489
則治	-9.705
練	-9.70528
米	-9.70533
所用	-9.70541
牒	-9.70545
詞	-9.7055
介	-9.70568
事無	-9.70574
恕	-9.70594
織	-9.70605
陷	-9.70607
訓	-9.70617
拘	-9.70624
朱	-9.70631
謝	-9.70633
凖	-9.70659
制也	-9.7067
輯	-9.70673
州刺史	-9.7069
燒	-9.70695
漸	-9.70696
僞	-9.70699
繆	-9.70704
斗	-9.70708
徵	-9.70749
中山	-9.70754
漏	-9.70756
傲	-9.70759
温	-9.70765
桓公曰諾	-9.70803
商賈	-9.70822
統	-9.7083
風雨	-9.70843
山林	-9.70875
而復	-9.71044
乗馬	-9.71075
景公	-9.71211
此亦	-9.71303
以刑	-9.7136
為善	-9.71453
論其	-9.71567
有私	-9.71703
而輕	-9.71728
而治	-9.7181
國治	-9.71815
若何	-9.71823
官職	-9.71824
之分	-9.71986
五年	-9.72121
之狀	-9.72237
勝敵	-9.72299
第三	-9.72423
其夫	-9.7266
用力	-9.72795
為君	-9.72972
三人	-9.73086
舉兵	-9.73131
財物	-9.73197
自然	-9.73226
所以為	-9.73395
無道	-9.73745
也且	-9.73765
所撰墓誌	-9.73789
焉故	-9.73869
謁	-9.73883
蕭	-9.73903
牙	-9.74083
脱	-9.74087
奴	-9.74089
肆	-9.74098
獵	-9.74112
悟	-9.74127
版	-9.74142
乏	-9.74147
沉	-9.74149
拔	-9.74151
飽	-9.74163
裁	-9.74167
者也故	-9.74169
渠	-9.74187
人曰	-9.74189
區	-9.74199
壞	-9.74211
帶	-9.74217
熱	-9.74232
茂	-9.74249
禽	-9.74249
諂	-9.74253
汚	-9.74262
搏	-9.74265
劉績	-9.74267
惽	-9.7427
潤	-9.74302
享	-9.74323
十八	-9.74483
若夫	-9.74488
其母	-9.74631
若水	-9.74823
霸王之	-9.75001
物之	-9.75059
曰某	-9.75272
而國	-9.75739
必勝	-9.75816
求之	-9.75822
而下	-9.75959
請以	-9.7601
齊之	-9.76148
身死	-9.76169
故不可	-9.7645
曰何	-9.76638
十四	-9.76807
利之	-9.76857
不眀	-9.77009
之師	-9.77183
罪人	-9.7729
以攻	-9.77324
而死	-9.77387
不義	-9.77428
而任	-9.77436
訪	-9.775
頗	-9.77588
船	-9.7759
諭	-9.77608
敞	-9.77611
䑕	-9.77617
尺而至於泉	-9.77635
韓非子卷	-9.77641
濕	-9.77642
印	-9.77642
拜	-9.77644
溝	-9.77667
刄	-9.77672
的	-9.77694
牆	-9.77706
傾	-9.77707
誹	-9.77723
缺	-9.77728
綱	-9.77734
牽	-9.77738
朝廷	-9.77738
輸	-9.77745
不可使	-9.77768
弋	-9.77771
句	-9.77775
墳	-9.77834
禍福	-9.77844
械器	-9.77855
㦸	-9.77862
苞	-9.77883
晏子	-9.77916
可使	-9.77955
不在	-9.78065
征伐	-9.78076
此二者	-9.78077
牛馬	-9.78112
海内	-9.78158
司理	-9.78281
以備	-9.7857
不禁	-9.78708
從之	-9.78768
也是以	-9.78814
哀公	-9.7911
曰臣	-9.79134
於地	-9.79178
立法	-9.79366
食之	-9.79505
而知	-9.79695
危亡	-9.79713
内外	-9.79789
必知	-9.79883
與其	-9.80339
曰子	-9.80428
矣今	-9.80437
而易	-9.80483
上有	-9.80505
必誅	-9.80631
明也	-9.80711
有天下	-9.80823
十里	-9.80928
死而	-9.81137
類也	-9.81201
租	-9.81204
丈	-9.81206
寢	-9.81229
隂陽之	-9.81305
竹	-9.81315
㢘	-9.81329
摶	-9.8133
伸	-9.81334
皇	-9.81345
噐	-9.81346
倒	-9.81352
壊	-9.81359
湏	-9.81384
擬	-9.81387
支	-9.81387
幽	-9.81391
鑄	-9.81393
歎	-9.81396
糴	-9.81396
闇	-9.81398
畧	-9.81411
狂	-9.81417
有人	-9.81419
翼	-9.81424
冶	-9.81438
覇	-9.81466
規矩	-9.8147
𬒳	-9.81477
瑕	-9.81481
途	-9.81484
灰	-9.8149
而用之	-9.81507
蒸	-9.81507
不務	-9.81621
辰	-9.81719
欲以	-9.81743
尚書	-9.81744
齊王	-9.81933
州時	-9.8199
先生	-9.82077
威勢	-9.82293
姦人	-9.82316
故善	-9.82459
之禍	-9.8262
器成	-9.82813
而歸	-9.83046
矣是故	-9.83051
勝也	-9.8318
三軍	-9.833
則百姓	-9.83313
者亦	-9.83327
鮑叔曰	-9.83365
守戰	-9.83379
雖復	-9.83381
其形	-9.83412
不違	-9.83546
而亂	-9.83771
則羣臣	-9.83797
不復	-9.83817
鄰人	-9.84225
死亡	-9.84283
而可	-9.84591
明矣	-9.84677
也凡	-9.84695
無為	-9.84713
大功	-9.8481
至而	-9.84844
外内	-9.84853
輩	-9.84908
猛	-9.85022
百萬	-9.85058
董	-9.851
懸	-9.85103
婢	-9.85115
鄧	-9.85129
略	-9.85141
君之所	-9.85149
者無	-9.85153
歡	-9.8516
抱	-9.85172
踐	-9.8518
能以	-9.85185
恣	-9.8522
蒲	-9.85229
輒	-9.8523
讐	-9.85231
諌	-9.85236
犬	-9.85241
壻	-9.85244
鑿	-9.85267
臧	-9.85268
漁	-9.85273
扶	-9.85277
再拜	-9.8528
斤	-9.85295
盟	-9.85302
㕘	-9.85305
訟者	-9.85306
撓	-9.8531
頃	-9.85319
管子輕重	-9.85336
拂	-9.85351
悖	-9.8536
津	-9.85361
黄金	-9.85433
嫡	-9.85451
慧	-9.85461
丞相	-9.85474
代之	-9.85718
而動	-9.85781
知伯	-9.85888
六十	-9.85988
立於	-9.87102
舊出	-9.87648
臣之所	-9.87981
其可	-9.87985
重人	-9.88123
燕王	-9.88142
信之	-9.88223
為姦	-9.88473
第七	-9.88537
法立	-9.88711
其下	-9.88733
不合	-9.88944
欵	-9.89025
翁	-9.89032
後漢	-9.89046
償	-9.89085
丹	-9.89113
屠	-9.8912
驢	-9.89124
淮	-9.89129
歌	-9.89147
諱	-9.89148
鳴	-9.89156
箕	-9.89159
鞭	-9.89174
棘	-9.89177
料	-9.89196
配	-9.89201
旬	-9.89203
倫	-9.89204
灌	-9.89206
黄帝	-9.89223
驅	-9.89223
謟	-9.89234
䇿	-9.8924
照	-9.89258
亊	-9.89264
偃	-9.89306
什倍	-9.89316
杞	-9.89332
燥	-9.8934
苗	-9.8935
撃	-9.89363
何故	-9.89367
糧	-9.89372
藝	-9.89411
羞	-9.89417
佞	-9.89421
國貧	-9.89446
毎	-9.89474
蓄積	-9.8949
叔孫	-9.8949
器械	-9.89502
嗜	-9.89537
千金	-9.89584
不避	-9.89675
以利	-9.89706
盜賊	-9.8975
簡公	-9.89935
此乃	-9.89997
行者	-9.90195
舉目	-9.90269
為非	-9.90318
自誣	-9.9045
重也	-9.90537
不知其	-9.9066
子婦	-9.9122
為一	-9.91256
而主	-9.91315
則不可	-9.91584
百吏	-9.91684
明王	-9.91721
而賞	-9.91924
二君	-9.92122
千萬	-9.92159
弟子	-9.92168
初為	-9.9229
愛民	-9.92318
聞之曰	-9.92848
無度	-9.92919
本事	-9.92977
其黨	-9.93069
滋	-9.9315
轉運使	-9.93179
康	-9.93189
之家	-9.93246
恒	-9.93266
縛	-9.93272
庫	-9.93279
烏	-9.93287
妖	-9.93297
編	-9.93304
醫	-9.93304
遍	-9.93339
棺	-9.9334
釋寃	-9.93341
垂	-9.93345
躬	-9.93347
準	-9.93352
虜	-9.9336
源	-9.93362
淺	-9.93373
錄	-9.93386
爪	-9.93386
酷	-9.93416
巫	-9.93427
糶	-9.93436
畆	-9.93443
麗	-9.93445
迫	-9.93482
禺	-9.93487
揺	-9.93488
敝	-9.9349
増	-9.93519
胄	-9.93522
㫁	-9.93553
見本傳	-9.93563
滯	-9.93571
學者	-9.93587
災	-9.93673
權衡	-9.93715
簒	-9.9374
莫知其	-9.93767
將欲	-9.93937
王天下	-9.93948
誣服	-9.94172
寡而	-9.942
逺者	-9.94375
藏於	-9.94384
嚴明	-9.9447
受命	-9.94505
器也	-9.94514
功名	-9.94538
豈能	-9.95238
命曰	-9.95649
不可復	-9.95769
管子卷第	-9.95837
不聼	-9.95854
存亡	-9.95908
於諸侯	-9.96014
如是則	-9.9639
大小	-9.96572
不然則	-9.96703
或有	-9.96762
不幸	-9.97134
非所以	-9.97261
其後	-9.97282
五日	-9.97404
詠	-9.97432
不使	-9.9748
不應	-9.97481
圃	-9.97498
立功	-9.97514
雖然	-9.97544
而待	-9.97558
曉	-9.97576
藥	-9.97587
卧	-9.97612
寘	-9.97618
彘	-9.97619
乞	-9.97623
馮	-9.9763
暗	-9.97632
譙	-9.97634
髪	-9.97638
箭	-9.97663
狐	-9.97675
網	-9.97676
不肖者	-9.97683
彈	-9.97691
紫	-9.97696
芒	-9.97697
融	-9.97705
衞	-9.97705
墜	-9.9771
饒	-9.97722
群	-9.97726
析	-9.97745
詘	-9.97752
夲	-9.97754
鐡	-9.97764
頓	-9.97773
之患也	-9.97797
也是故	-9.97816
橐	-9.97821
奮	-9.97839
暑	-9.97843
抑	-9.97847
陽氣	-9.97849
昏	-9.97856
賔客	-9.97861
沮	-9.97875
媪	-9.97885
阿	-9.97889
殖	-9.97891
晉陽	-9.97924
欽定四庫全書管子補注卷	-9.97952
而賤	-9.97955
數人	-9.98028
聰明	-9.98056
所好	-9.98084
夫民	-9.98093
近習	-9.98108
之性	-9.98199
不勞	-9.98214
不利	-9.9833
無罪	-9.98374
盗賊	-9.98377
南方	-9.98451
五穀	-9.98501
若是	-9.98562
四時之	-9.9861
者乃	-9.98709
一言	-9.98775
衣服	-9.98861
以重	-9.98929
失也	-9.99026
心故	-9.99052
又問	-9.99088
制於	-9.99318
若有	-9.99491
命之曰	-9.99576
之言也	-9.99677
百金	-9.99794
荆王	-9.9987
子弟	-10.0066
人主之所	-10.0069
而無私	-10.0072
於前	-10.0074
不救	-10.0092
非吾	-10.0105
也然則	-10.0112
用事	-10.0117
之所在	-10.0121
所出	-10.0123
不獲	-10.0127
令曰	-10.013
後世	-10.0135
其能	-10.0145
行其	-10.0163
何以知	-10.0168
不待	-10.0182
犀首	-10.0184
郎	-10.0196
明察	-10.02
宦	-10.0206
季孫	-10.0207
技	-10.021
齋	-10.0212
紙	-10.0212
且夫	-10.0213
覈	-10.0213
吴	-10.0214
旋	-10.0216
甫	-10.0216
嬰	-10.0217
停	-10.022
潛	-10.022
亭	-10.0221
矜謹	-10.0222
縣令	-10.0222
併	-10.0223
尋	-10.0224
整	-10.0224
譬	-10.0224
瘞	-10.0227
冀	-10.023
公子糺	-10.023
稷	-10.0231
黃金	-10.0234
纔	-10.0234
隙	-10.0237
韓魏	-10.0237
雄	-10.0237
墾	-10.0238
折獄	-10.0238
早	-10.0239
聘	-10.024
述	-10.024
捨	-10.0241
鑒	-10.0243
閑	-10.0244
魯梁	-10.0245
饋	-10.0246
禀	-10.0247
遜	-10.0252
不食	-10.0254
魯君	-10.026
誠信	-10.0277
中有	-10.0277
為證	-10.0285
其次	-10.0292
有術	-10.0293
有時而	-10.0335
名也	-10.0339
知州	-10.0372
女子	-10.0377
以避	-10.0412
材能	-10.0432
子孫	-10.0438
不欲	-10.0473
孝子	-10.0478
又有	-10.0489
萬世	-10.0495
於朝	-10.051
一家	-10.0511
君上	-10.0521
士民	-10.0539
不絶	-10.0555
衛君	-10.0558
而不可	-10.0565
者也夫	-10.0616
二年	-10.0625
無赦	-10.0645
竪刁	-10.0685
顔	-10.0687
琴	-10.0688
辛	-10.0691
沐	-10.0692
不顧	-10.0693
拷	-10.0694
偕	-10.0698
栁	-10.0698
奔	-10.07
邢	-10.0701
曾	-10.0703
剛	-10.0704
斧	-10.0705
歴	-10.0706
披	-10.0706
囊	-10.0706
屨	-10.0708
兹	-10.0708
黍	-10.0708
疎	-10.0709
沃	-10.0709
虎豹	-10.0711
乙	-10.0711
妙	-10.0711
行人	-10.0711
耨	-10.0712
歐	-10.0712
稻	-10.0713
牢	-10.0713
黙	-10.0713
堪	-10.0715
匹夫	-10.0716
郊	-10.0716
倦	-10.0719
脆	-10.072
彭生	-10.072
妬	-10.0724
鬱	-10.0726
葆	-10.0726
齊語作	-10.0733
蕩	-10.0734
夭	-10.0735
虐	-10.0738
殺戮	-10.0741
功勞	-10.0742
文學	-10.0757
善也	-10.0779
貧富	-10.0789
有數	-10.0792
富民	-10.0804
孰能	-10.081
地名	-10.0814
此所謂	-10.0822
弗能	-10.0823
古今	-10.0825
而不見	-10.0835
宫中	-10.084
獄吏	-10.086
不忠	-10.087
居處	-10.0883
公曰善	-10.0892
愛惡	-10.0901
徳義	-10.0927
自此	-10.0953
五百	-10.0957
國危	-10.0962
忘其	-10.0991
國亡	-10.1
五人	-10.1014
愚人	-10.1018
相親	-10.1046
法禁	-10.1092
所載	-10.1125
多者	-10.1148
不若	-10.1162
韋	-10.1176
懌	-10.1185
勘	-10.1185
荘	-10.1187
聰	-10.1187
岸	-10.1188
譲	-10.1189
廬	-10.1189
法術之士	-10.119
竇	-10.1193
臯	-10.1194
搆	-10.1195
㧞	-10.1196
巷	-10.1196
祐	-10.1197
廵	-10.1198
罕	-10.1198
㫖	-10.1198
屏	-10.1198
秩	-10.1198
謬	-10.1199
疇	-10.1201
僃	-10.1203
䝉	-10.1204
泥	-10.1207
懲惡	-10.1208
穢	-10.1208
誑	-10.1209
童	-10.121
筆	-10.121
覈姦	-10.1211
通判	-10.1211
子罕	-10.1211
蕃	-10.1212
菽	-10.1212
竝	-10.1212
凝	-10.1212
公子開方	-10.1212
墮	-10.1214
叱	-10.1214
犿	-10.1215
繕	-10.1215
耒	-10.1215
萊	-10.1215
畝	-10.1218
柴	-10.1219
晝	-10.1224
虗	-10.1227
裹	-10.1228
土之次曰五	-10.1234
姓名	-10.1243
不亂	-10.1245
千乘	-10.125
短兵	-10.1262
家人	-10.1272
北方	-10.1276
四鄰	-10.1283
原本	-10.1283
親之	-10.1298
襄子	-10.1302
中國	-10.1307
吕	-10.1314
此四者	-10.1339
農戰	-10.1342
期於	-10.1343
予人	-10.1357
於楚	-10.1408
乃召	-10.1409
行義	-10.141
他人	-10.1417
莫若	-10.1428
安危	-10.1428
國亂	-10.1497
有一人	-10.1548
其所欲	-10.1551
臣臣	-10.1569
不失其	-10.1624
聖君	-10.1626
書本傳	-10.165
者必有	-10.1653
之力也	-10.1655
死罪	-10.1664
宋君	-10.1672
國之所以	-10.1677
出處	-10.1678
携	-10.1706
佛	-10.171
掾	-10.1711
捜	-10.1714
罵	-10.1719
榜	-10.1719
祠	-10.172
折獄龜鑑	-10.1721
敏	-10.1721
瓦	-10.1724
姬	-10.1726
毀	-10.1726
太宰	-10.1727
易牙	-10.1727
念	-10.1728
璽	-10.1729
括	-10.173
疲	-10.1731
羿	-10.1731
竅	-10.1731
徹	-10.1731
揣	-10.1731
勑	-10.1731
懦	-10.1733
拒	-10.1733
則草必墾矣	-10.1733
舊不著	-10.1734
錫	-10.1734
莅	-10.1734
斬首	-10.1734
耻	-10.1735
窺	-10.1736
措	-10.1736
裴	-10.1737
𤣥	-10.1737
街	-10.1737
圜	-10.1737
擾	-10.1738
穿	-10.1738
松	-10.1738
厯	-10.1739
開封	-10.174
貯	-10.1742
濁	-10.1743
唐司空房玄齡注	-10.1744
紛	-10.1744
勁	-10.1745
滛	-10.1745
銳	-10.1747
苴	-10.1749
恬	-10.1754
詐偽	-10.1754
菑	-10.1754
田宅	-10.1756
敵人	-10.1758
千乗	-10.1759
加於	-10.1765
盥	-10.177
諫曰	-10.1777
子胥	-10.1788
貧賤	-10.1791
末作	-10.1809
威嚴	-10.1839
禮樂	-10.1866
暴亂	-10.187
將軍	-10.189
數年	-10.1914
豈非	-10.1917
所說	-10.1931
齊桓公	-10.1957
中大夫	-10.1984
訴於	-10.199
出南史	-10.2009
魏王	-10.2014
自恃	-10.2066
所貴	-10.2136
日夜	-10.2192
郄	-10.222
巡	-10.2257
單	-10.2265
蜀	-10.2265
嫂	-10.2268
慤	-10.227
竈	-10.227
蛇	-10.2271
鈔	-10.2273
導	-10.2273
翟	-10.2274
蘓	-10.2274
賓	-10.2274
匹	-10.2274
腹	-10.2275
韓子	-10.2276
瓊	-10.2276
叩頭	-10.2278
愕	-10.228
題	-10.2281
惜	-10.2281
恨	-10.2281
銅	-10.2282
徧知天下	-10.2282
篋	-10.2284
岐	-10.2284
爲善	-10.2285
黯	-10.2285
釜	-10.2285
攘	-10.2285
醜	-10.2287
寗戚	-10.2287
伯夷	-10.2287
欽定四庫全書	-10.229
𦵏	-10.229
戍	-10.229
曠	-10.2291
不足則加	-10.2291
戈	-10.2292
枚	-10.2292
課	-10.2292
顛	-10.2294
贍	-10.2296
憐	-10.2296
屯	-10.2297
㢮	-10.2298
阨	-10.2299
剽	-10.2299
畒	-10.23
玩好	-10.23
駮	-10.2301
溺	-10.2302
其故何也	-10.2302
拾	-10.2303
靑	-10.2304
凍	-10.2305
顔色	-10.2307
李崇	-10.2308
殃	-10.231
不免於	-10.2312
嚴刑	-10.2313
短長	-10.2313
聦明	-10.2317
搖	-10.2318
劔	-10.2318
金玉	-10.2323
字誤	-10.2326
施伯	-10.2337
不孝	-10.234
爵位	-10.2342
百倍	-10.2361
輕刑	-10.2362
視聽	-10.237
八十	-10.2393
擇其	-10.24
後魏	-10.2405
類矣	-10.2417
之始也	-10.2472
心安	-10.2545
萬乗	-10.2567
得免	-10.2614
長安	-10.2663
必待	-10.2677
國安	-10.2744
其端	-10.2777
渙	-10.2849
陽虎	-10.2851
住	-10.2853
紿	-10.2854
浴	-10.2856
圗	-10.2863
墻	-10.2865
酸	-10.2865
隔	-10.2867
巖	-10.2871
天下諸侯	-10.2871
店	-10.2871
聦	-10.2871
紹	-10.2873
板	-10.2873
愧	-10.2874
汙	-10.2875
不可不察也	-10.2876
掃	-10.2877
筋	-10.2877
第八	-10.2877
𥘉	-10.2878
飲酒	-10.2878
䛕	-10.2879
繼母	-10.2879
播	-10.2879
䧟	-10.2879
雞	-10.288
潰	-10.288
賄	-10.288
響	-10.288
潘	-10.2881
掘	-10.2881
組	-10.2882
包	-10.2883
爵祿	-10.2884
斥	-10.2885
秀	-10.2886
叔向	-10.2886
藪	-10.2889
賔胥無	-10.289
觸	-10.2891
衽	-10.2892
貎	-10.2894
陰	-10.2898
盾	-10.2901
敖	-10.2905
霜	-10.2916
髙祖	-10.292
水旱	-10.2921
動静	-10.2924
犯禁	-10.2963
西方	-10.2967
曰吾聞	-10.2968
往來	-10.2969
績按此言	-10.2983
誅罰	-10.2992
天地之道	-10.2997
之可也	-10.3007
臣請	-10.3048
土地	-10.3079
私門	-10.3081
官府	-10.3128
明年	-10.3153
奉法	-10.3228
世之所	-10.3435
睦	-10.347
仍	-10.3474
香	-10.3475
跡	-10.3476
攄	-10.3476
為己	-10.3476
覽	-10.3477
黎	-10.3482
鄴	-10.3482
售	-10.3484
笞	-10.3486
閲	-10.3487
永	-10.3487
例	-10.3488
靴	-10.3488
臭	-10.3489
駭	-10.3489
伊尹	-10.349
見王珪丞相	-10.3491
喚	-10.3492
梅	-10.3492
湖	-10.3493
癸	-10.3493
步	-10.3493
洽	-10.3494
張詠	-10.3495
幷	-10.3496
宮	-10.3497
詈	-10.3497
觴	-10.3497
絞	-10.3497
裏	-10.3498
策	-10.3499
祈	-10.3499
豆	-10.3499
賞罰不信	-10.35
昨	-10.35
胾	-10.3501
含	-10.3502
覘	-10.3503
震	-10.3504
毅	-10.3504
剖	-10.3504
誓	-10.3505
釣	-10.3505
堤	-10.3505
桓公問管子曰	-10.3506
焉國用	-10.3507
卯	-10.3507
債	-10.3507
俠	-10.3508
潜	-10.3509
夘	-10.3509
英	-10.3509
菹	-10.3509
舅犯	-10.351
梟	-10.351
際	-10.3511
出北史	-10.3511
幹	-10.3513
朽	-10.3513
管子補注卷	-10.3514
緒	-10.3514
雜篇	-10.3516
漫	-10.3516
關市	-10.3516
奢	-10.3517
巧詐	-10.3518
啟	-10.3519
旌	-10.352
廣漢	-10.3523
坦	-10.3526
捕獲	-10.3528
苑	-10.3528
布帛	-10.3528
莫大於	-10.3528
對曰夫	-10.354
舉錯	-10.3547
寡婦	-10.355
便辟	-10.3551
毁譽	-10.3551
獲賊	-10.3553
思慮	-10.3557
侈靡	-10.3559
文侯	-10.3561
答曰	-10.3563
閉藏	-10.3572
愚智	-10.3608
循理	-10.3617
是故聖人	-10.3618
妄舉	-10.3644
無忌	-10.3645
終身	-10.3649
曰爾	-10.3687
動作	-10.3715
重禄	-10.3738
是以聖人	-10.3805
故明王	-10.3903
乗之國	-10.3905
威權	-10.4019
宛	-10.4121
姚	-10.4131
張孟談	-10.4136
俾	-10.4152
枕	-10.4153
羈	-10.4154
焉得無	-10.4155
受賕	-10.4155
偪	-10.4156
壁	-10.4156
鎰	-10.4156
允	-10.4158
晋	-10.4158
脊	-10.416
科	-10.4161
圭	-10.4161
刖	-10.4161
賁育	-10.4162
乖	-10.4162
垣	-10.4163
界	-10.4163
涉	-10.4164
侏儒	-10.4164
妨	-10.4165
晚	-10.4165
侍郎	-10.4165
隘	-10.4167
影	-10.4167
迷惑	-10.4167
㠓	-10.4167
匈	-10.4167
盤	-10.4167
鞠	-10.4167
舊集	-10.4168
鮮	-10.4169
胷	-10.4169
弩	-10.4169
明主之道	-10.4169
格	-10.417
漂	-10.4172
昬	-10.4173
邉	-10.4173
擿姦	-10.4174
嬰兒	-10.4174
晦	-10.4174
峻	-10.4174
軸	-10.4175
臂	-10.4175
瀆	-10.4176
戲	-10.4176
矛	-10.4176
皃	-10.4176
主簿	-10.4176
玊	-10.4177
戾	-10.4177
炙	-10.4177
窌	-10.4178
釘	-10.4178
河東	-10.4178
迂	-10.4178
繡	-10.4179
粮	-10.418
曼	-10.418
卜筮	-10.418
谿	-10.4181
障	-10.4183
耗	-10.4183
閱	-10.4183
佼	-10.4184
若流水	-10.4185
劍	-10.4185
槖	-10.4186
相所撰墓誌	-10.4186
丈夫	-10.4186
斧鉞	-10.4188
効	-10.4189
丙	-10.4192
千鍾	-10.4193
整齊	-10.4196
㒵	-10.4197
負海	-10.4197
請謁	-10.4201
天之道	-10.4203
子雲	-10.4211
金錢	-10.4222
選賢	-10.4224
貧窮	-10.4231
襄公	-10.4234
五味	-10.4236
具獄	-10.4265
財貨	-10.4281
庶子	-10.4282
隂氣	-10.4301
分職	-10.4302
越王	-10.4348
短語	-10.474
聖人之治	-10.4771
泣曰	-10.478
浙	-10.4841
頻	-10.4844
晩	-10.4846
簿	-10.4849
徼	-10.485
講	-10.4851
吐	-10.4859
誦	-10.4859
隐	-10.486
詢	-10.486
鼻	-10.4861
輅	-10.4864
弦	-10.4865
乂	-10.4865
逼	-10.4866
屢	-10.4867
警	-10.4868
牘	-10.4868
搜	-10.4868
逢	-10.4869
縳	-10.4869
場	-10.487
洛	-10.4871
跀	-10.4871
桃	-10.4871
頸	-10.4872
封禪	-10.4872
懲	-10.4872
輪	-10.4873
殉	-10.4874
染	-10.4874
亞	-10.4874
欣	-10.4874
俟	-10.4875
封泰山禪云云	-10.4875
憾	-10.4875
鉤	-10.4877
逸	-10.4878
沆	-10.4878
寓	-10.4878
葛	-10.4878
稼	-10.4879
贅	-10.4879
渡	-10.4879
嫌	-10.488
戯	-10.4881
之所期也	-10.4881
秉	-10.4881
吳起	-10.4881
瑞	-10.4881
舌	-10.4881
虢	-10.4881
擿	-10.4881
公孫鞅	-10.4882
庚	-10.4882
𢎞	-10.4883
昇	-10.4884
纂	-10.4884
壘	-10.4884
黃帝	-10.4884
冤	-10.4885
湊	-10.4885
寂	-10.4885
蠧	-10.4888
輟	-10.4888
橋	-10.4889
別	-10.489
睹	-10.4891
甯戚	-10.4892
尺寸	-10.4892
籠	-10.4894
諛	-10.4894
敺	-10.4895
轅	-10.4898
疑獄集	-10.4898
訴于	-10.4898
倉廩	-10.4899
鏤	-10.4899
𤓰	-10.49
在上位	-10.4901
莖	-10.4903
糞	-10.4904
恭遜敬愛	-10.4906
屑	-10.4906
袴	-10.4906
悌	-10.4907
疆	-10.4909
七十二日而畢	-10.491
恭敬	-10.4912
許諾	-10.4915
管仲曰不可	-10.4916
縣尉	-10.4923
壬	-10.4924
者同實	-10.4927
獄訟	-10.4928
金石	-10.4944
而天下治	-10.4945
昭王	-10.4958
可用也	-10.5056
管子卷第十	-10.5253
晏	-10.5591
羮	-10.5601
曩	-10.5619
曄	-10.5619
猾	-10.5624
奈	-10.5627
填	-10.563
糾	-10.563
奎	-10.5631
舞	-10.5631
僚	-10.5632
稍	-10.5635
衫	-10.5636
販	-10.5638
櫓	-10.5639
渉	-10.5639
妹	-10.5641
禾	-10.5642
穆公	-10.5642
礙	-10.5642
闔	-10.5643
臧獲	-10.5643
房	-10.5644
寸	-10.5645
快	-10.5646
東鄰	-10.5646
允濟	-10.5646
􁇫	-10.5647
氓	-10.5647
翁歸	-10.5648
揔	-10.5648
贏	-10.5648
捍	-10.5648
愿	-10.565
桂	-10.565
豹	-10.565
啓	-10.5651
珍	-10.5651
飭	-10.5651
黑	-10.5653
階	-10.5653
消	-10.5654
慰	-10.5655
行岌	-10.5655
淡	-10.5656
壺	-10.5656
吹	-10.5656
銷	-10.5657
猛毅	-10.5659
鼈	-10.566
驩	-10.566
盜跖	-10.5663
寫	-10.5664
增	-10.5664
雚	-10.5665
管子對曰請以令	-10.5666
審定者勝	-10.5666
烈	-10.5666
寒暑	-10.5667
豪傑	-10.5667
暢	-10.5668
奸	-10.5668
蒙	-10.567
排	-10.5671
耀	-10.5673
勸勉	-10.5673
水潦	-10.5677
隄	-10.5678
鄊	-10.5679
是以明君	-10.5694
所以然者	-10.5697
凋	-10.5698
噲	-10.5702
勞苦	-10.5705
黄門	-10.5715
郄子	-10.5727
野戰	-10.5733
形容	-10.5758
彭	-10.6429
斃	-10.6445
誌	-10.6451
幕	-10.6453
則見以為	-10.6454
渴	-10.6455
額	-10.6457
膺	-10.6457
􁁊	-10.6459
賕	-10.6461
㸃	-10.6462
突	-10.6463
宴	-10.6465
釁	-10.6465
數十人	-10.6465
瞻	-10.6466
殿	-10.6466
尼	-10.6466
𨽻	-10.647
㒺	-10.647
探	-10.6471
蹤	-10.6471
憤	-10.6472
遮	-10.6472
鴻鵠	-10.6474
斛	-10.6474
雙	-10.6474
膚	-10.6475
􁀙	-10.6475
樛	-10.6475
苖	-10.6475
嘆	-10.6476
玄	-10.6476
陣	-10.6476
尅	-10.6477
楯	-10.6477
昧	-10.6478
孩	-10.6479
孫也舊集不載	-10.6479
舒	-10.648
銚	-10.648
岀	-10.6481
斵	-10.6482
拱	-10.6482
圎	-10.6483
摩	-10.6483
賴	-10.6483
創	-10.6485
弛	-10.6485
恠	-10.6486
衝	-10.6487
酣	-10.6487
㕔	-10.6487
艾	-10.6487
鏡	-10.6487
捐	-10.6488
柰	-10.6488
姥	-10.6488
减	-10.6488
僅	-10.6488
朗	-10.6489
俊	-10.649
羅	-10.649
黜	-10.6491
矩	-10.6491
激	-10.6493
坐長而	-10.6493
棟	-10.6493
超	-10.6494
壇	-10.6494
孤竹	-10.6495
椽	-10.6496
諺	-10.6496
葦	-10.6496
險阻	-10.6496
府庫	-10.6496
離枝	-10.6497
埴	-10.6498
墝	-10.6498
挫	-10.6498
伹	-10.6498
墆	-10.6498
豊	-10.6498
㸑	-10.65
諧	-10.6501
隋	-10.6501
鳬	-10.6502
麥	-10.6502
野不辟	-10.6502
丁氏	-10.6502
京師	-10.6503
寃狀	-10.6504
阻	-10.6504
幸免	-10.6504
爨	-10.6504
北郭	-10.6505
濡	-10.6505
四肢	-10.6505
鰥	-10.6505
􁒾	-10.6506
春秋冬夏	-10.6506
淸	-10.6507
祭祀	-10.6507
波	-10.651
怵	-10.651
闢	-10.651
卵	-10.6511
唱	-10.6515
佚樂	-10.6519
帝王之	-10.6544
是故明君	-10.6563
可立而	-10.6578
短語十	-10.6725
能成其	-10.6758
史本傳	-10.6918
旻	-10.7341
回	-10.7358
換	-10.736
舊不著出處	-10.7367
璡	-10.7371
為人所殺	-10.7372
巵	-10.7373
其說在	-10.7374
淳	-10.7375
緯	-10.7375
臞	-10.7375
肘	-10.7376
兢	-10.7376
捉	-10.7377
裂	-10.7377
闚	-10.7378
龎	-10.7378
李兊	-10.7378
梏	-10.738
娶	-10.738
彦超	-10.7381
鮑	-10.7381
叙	-10.7381
縑	-10.7382
驥	-10.7382
芻	-10.7382
擔	-10.7382
疵	-10.7382
裘	-10.7383
班	-10.7383
愽	-10.7383
盧	-10.7383
何以知其然	-10.7383
䕫	-10.7383
拷掠	-10.7383
扼	-10.7384
恡	-10.7384
羡	-10.7385
禪	-10.7386
輦	-10.7386
痕	-10.7386
帷	-10.7388
𥙷	-10.7389
摘	-10.739
頌	-10.7391
蝨	-10.7391
推勘	-10.7391
冒	-10.7392
員	-10.7393
沔	-10.7393
阜	-10.7394
四封之内	-10.7394
邇	-10.7395
考掠	-10.7395
秤	-10.7396
渇	-10.7397
絜	-10.7397
衣紫	-10.7397
朞	-10.7398
泊	-10.7398
筮	-10.7398
骸	-10.7398
徇	-10.7398
展	-10.7398
僖	-10.7399
若何管子對曰	-10.74
牲	-10.74
寇	-10.74
两	-10.7401
浟	-10.7401
惕	-10.7402
暇	-10.7403
歷	-10.7403
莊遵	-10.7403
蜜	-10.7404
舉大事	-10.7404
𣏌	-10.7405
逰	-10.7405
邀	-10.7406
佩	-10.7408
觳	-10.7408
崩	-10.7409
者未之有也	-10.7409
昻	-10.7409
蠶	-10.7409
勵	-10.741
犧牲	-10.741
櫛	-10.741
煬	-10.7411
皷	-10.7411
遏	-10.7411
弑其君	-10.7412
汶	-10.7412
俞	-10.7412
䖏	-10.7413
一本作	-10.7414
刈	-10.7414
拊	-10.7414
下怨上	-10.7415
嗟	-10.7415
溝瀆	-10.7416
縷	-10.7417
蘟	-10.7418
祈福	-10.7418
緣	-10.7421
稟	-10.7423
閇	-10.7432
粟米	-10.7433
竽	-10.7438
六蝨	-10.7444
曰今日	-10.7525
國富而	-10.7577
田成子	-10.8342
袖	-10.8347
洋	-10.8353
太公望	-10.8359
岳	-10.8362
二事附	-10.8369
蟻	-10.837
璞	-10.8371
甘茂	-10.8372
㓂	-10.8373
穰	-10.8375
憚	-10.8375
劇	-10.8375
坎	-10.8376
欽定四庫全書疑獄集卷	-10.8376
你	-10.8377
傭	-10.8377
翰	-10.8378
疑獄集卷	-10.8378
穆	-10.8379
絹	-10.838
巾	-10.838
肱	-10.838
忱	-10.838
褒	-10.838
署	-10.838
惶	-10.8381
塵	-10.8382
欽定四庫全書韓非子卷十	-10.8382
蔣	-10.8382
釐	-10.8382
潦	-10.8382
䑓	-10.8383
歩	-10.8383
麟	-10.8383
姊	-10.8386
緡	-10.8386
勅	-10.8386
九合諸侯	-10.8387
千緡	-10.8387
晨	-10.8388
鮑叔牙	-10.8388
禧	-10.8389
濮	-10.839
絻	-10.839
没	-10.839
洙	-10.839
鷙	-10.8391
肇	-10.8391
中寢諸子	-10.8392
檄	-10.8392
贊	-10.8392
肌膚	-10.8393
忒	-10.8394
狼	-10.8394
㑹諸侯令曰	-10.8394
鄢	-10.8394
綈	-10.8395
棠隂比事	-10.8395
見王安石丞	-10.8395
陋	-10.8396
吏嗇夫	-10.8396
健	-10.8397
漆	-10.8397
餼	-10.8397
寜	-10.8397
溢	-10.8397
勒	-10.8398
郢	-10.8398
電	-10.8398
灼	-10.8399
遞	-10.8399
油	-10.84
品	-10.84
緫	-10.84
捫	-10.84
稱貸之家	-10.84
碑	-10.84
荀	-10.84
牀	-10.8401
跪	-10.8402
仇讎	-10.8403
逄	-10.8403
軒冕	-10.8404
召管子而問曰	-10.8404
髮	-10.8404
績按别本註	-10.8404
琚	-10.8405
標	-10.8405
胸	-10.8405
涂	-10.8405
不逺道里	-10.8405
罔	-10.8406
倪	-10.8406
麤	-10.8406
霧	-10.8406
聖人法之以	-10.8407
千乘之國	-10.8408
駢	-10.8408
狥	-10.8408
詛	-10.8408
翳	-10.8408
潮	-10.841
萃	-10.841
墾草	-10.8411
牟	-10.8411
遬	-10.8412
姒	-10.8412
芸	-10.8413
柰何管子對曰	-10.8413
頼	-10.8414
琰	-10.8417
樹蓺	-10.8418
軒	-10.8419
属	-10.8419
隳	-10.842
而不解則	-10.8422
國之危也	-10.8422
芬	-10.8426
顓	-10.8433
壏	-10.8437
控	-10.8437
者主之所	-10.8672
蘭	-10.9431
悍	-10.9452
田成氏	-10.9454
譴	-10.9457
製	-10.9462
竄	-10.9465
了	-10.9472
鄒	-10.9472
捶	-10.9476
齎	-10.9476
饟	-10.9477
周公旦	-10.948
濟陽君	-10.948
斗斛	-10.948
剌	-10.9483
矦	-10.9483
腐	-10.9484
錣	-10.9487
驛	-10.9487
遂自誣服	-10.9487
騶	-10.9488
祇	-10.949
䕶	-10.949
股	-10.949
虱	-10.9491
謾	-10.9491
宋鄭克撰	-10.9492
鄆	-10.9492
民之所惡也	-10.9493
飄	-10.9493
繞	-10.9493
亾	-10.9493
鉅	-10.9495
狡	-10.9496
軰	-10.9496
闘	-10.9496
敕	-10.9497
蔵	-10.9498
冡	-10.9498
鍇	-10.9499
愁	-10.95
雀	-10.9501
閔	-10.9501
打	-10.9502
尾	-10.9502
韜	-10.9502
檝	-10.9503
賁	-10.9503
溜	-10.9503
疋	-10.9504
沛	-10.9505
裝	-10.9505
棠	-10.9505
桓公曰此若言何謂也管子對曰	-10.9506
鑚	-10.9507
飼	-10.9507
洩	-10.9507
盲	-10.9508
櫜	-10.9508
諷	-10.9508
傍	-10.9508
衾	-10.9509
洪	-10.9511
磔	-10.9511
泛	-10.9511
穡	-10.9511
枳	-10.9512
竽瑟	-10.9512
醎	-10.9512
譕	-10.9512
域	-10.9512
烹	-10.9513
發號出令	-10.9513
㝠	-10.9514
痤	-10.9514
令行禁止	-10.9516
窘	-10.9516
篤	-10.9517
殖果木不如三土以十分之	-10.9517
桓公問管子曰請問	-10.9517
湛	-10.9518
捧	-10.9518
瀷	-10.9518
櫎	-10.9518
潭	-10.9518
補注卷	-10.9518
夾	-10.9518
煑	-10.9519
秋毫	-10.9519
見是土也命之曰	-10.9519
倣	-10.952
彰	-10.9522
概	-10.9522
殫	-10.9522
玩	-10.9522
日月之明	-10.9523
構	-10.9523
蹇	-10.9524
霆	-10.9525
檀	-10.9525
嶺	-10.9526
綴	-10.9526
㓗	-10.9527
懈	-10.9527
烝	-10.9528
罟	-10.953
花	-10.9531
替	-10.9532
壟	-10.9533
萯	-10.9535
泆	-10.9538
國之形也	-10.9541
混	-10.9541
為人上者	-10.9541
洒	-10.9543
嬴	-10.9554
讋	-10.9558
出唐書	-10.9585
綽	-10.9767
洗	-11.069
杯	-11.0705
愎	-11.0715
隰	-11.0716
館	-11.0721
杏	-11.0721
笥	-11.0721
跖	-11.0721
擠	-11.0724
仵	-11.0726
堵	-11.0729
核	-11.073
知益州	-11.073
鷟	-11.0732
涕	-11.0732
眉	-11.0733
麑	-11.0734
堂谿公	-11.0734
樓	-11.0736
謳	-11.0736
熊	-11.0736
酬	-11.0736
犀	-11.0737
熙	-11.0738
鞫情之術	-11.0738
㨗	-11.0738
鱗	-11.0738
讞	-11.0738
者言依於	-11.0738
昶	-11.0739
討	-11.074
不亦可乎	-11.074
欽定四庫全書折獄龜鑑卷	-11.0741
券	-11.0741
寐	-11.0741
齡	-11.0741
鳯	-11.0742
瞽	-11.0743
擢	-11.0743
纎	-11.0743
羸	-11.0744
渾	-11.0744
茶	-11.0744
埋	-11.0744
嗚	-11.0744
君臣上下之	-11.0744
酌	-11.0745
樊	-11.0745
協	-11.0745
係	-11.0747
胙	-11.0748
怸	-11.0748
鞏	-11.0748
兇	-11.0748
炮	-11.0748
馭	-11.0748
封泰山禪	-11.0749
耆	-11.0749
偷取一	-11.075
駁	-11.075
挈	-11.075
韕	-11.075
有聞道而好	-11.075
溪	-11.0751
勤於兵	-11.0751
栁渾	-11.0752
鬲	-11.0752
求狐白之皮	-11.0752
訛	-11.0753
羲	-11.0753
吾欲藉於	-11.0754
祕	-11.0754
包拯	-11.0754
之儀表也	-11.0754
儻	-11.0755
見懲惡門	-11.0755
羨	-11.0755
食其稱貸之家	-11.0755
膳	-11.0755
陂	-11.0755
勾踐	-11.0756
遭	-11.0756
狎	-11.0756
於國而求百姓之行大	-11.0756
縫	-11.0756
不可得也凡牧民者欲民之有	-11.0757
鋸	-11.0757
儲	-11.0757
不失其常則	-11.0757
十倍其賈	-11.0757
肩	-11.0758
豕	-11.0758
惻	-11.0759
轎	-11.0759
想	-11.0759
靣	-11.076
桓公曰行事奈何管子對曰請	-11.076
槩	-11.076
終而復始	-11.076
占	-11.0761
財用足	-11.0761
䖍	-11.0761
欽	-11.0761
政不禁則	-11.0762
終日不歸	-11.0762
渝	-11.0762
懾	-11.0763
滌	-11.0763
睢	-11.0763
道正者不安	-11.0764
璥	-11.0764
揮	-11.0764
國非其國也	-11.0764
抗	-11.0765
柱	-11.0765
壙	-11.0765
叩	-11.0765
縮	-11.0765
陟	-11.0766
恚	-11.0766
璩	-11.0766
返	-11.0766
櫄	-11.0766
具則財物之賈什去	-11.0766
媚	-11.0766
棺槨	-11.0766
兕	-11.0766
蠅	-11.0767
維絶則	-11.0767
菭	-11.0767
汎	-11.0768
忤	-11.0768
灾	-11.0769
赶	-11.0769
鄭克評曰	-11.0769
奪柄失位	-11.0769
普	-11.077
嬖	-11.0771
萊莒之	-11.0771
竿	-11.0771
琢	-11.0772
醬	-11.0773
捷	-11.0773
錮	-11.0773
兄之教不肅而成其子弟之學不勞而能	-11.0774
少而習焉其心安焉不見異物而遷焉	-11.0775
柙	-11.0775
塉	-11.0776
雹	-11.0779
倡	-11.078
緊	-11.0781
救火者	-11.0781
踦	-11.0782
羣萃而州處	-11.0783
者凡國都皆有掌	-11.0783
旄	-11.0784
誇	-11.0784
倮	-11.0784
局	-11.0788
管仲又請	-11.0788
靖郭君	-11.079
豎刁	-11.0793
摽	-11.0794
俴	-11.0794
劌	-11.0801
梗	-11.0803
黨比周以	-11.1445
安能愛君	-11.2092
劓	-11.2136
珣	-11.2143
怖	-11.2146
押	-11.2146
只	-11.2148
絃	-11.215
雅	-11.215
弼	-11.2151
裔	-11.2152
坊	-11.2155
台	-11.2156
纓	-11.2159
縦	-11.2159
畋	-11.2159
猜	-11.2163
譚	-11.2164
銜	-11.2165
詹	-11.2165
焦	-11.2165
湝	-11.2165
悼	-11.2166
挑	-11.2166
鹵	-11.2167
讙	-11.2167
眩	-11.2168
漿	-11.2168
刋	-11.2168
涿	-11.2169
秊	-11.2169
憑	-11.217
技藝之	-11.217
詬	-11.217
縊	-11.217
西門豹	-11.217
塲	-11.2171
促	-11.2171
估	-11.2171
曆	-11.2171
飺	-11.2172
赫	-11.2172
餒	-11.2172
園	-11.2173
譏	-11.2173
訖	-11.2174
鋭	-11.2174
駿	-11.2175
葱	-11.2175
亢	-11.2175
驟	-11.2176
鬪	-11.2176
頴	-11.2176
柩	-11.2177
寀	-11.2177
呌	-11.2178
㳟	-11.2178
僊	-11.2178
鞘	-11.2178
麾	-11.2179
輜	-11.2179
孽	-11.2179
□	-11.218
灑	-11.218
炭	-11.218
廐	-11.2181
朴	-11.2182
窶	-11.2182
訥	-11.2182
紐	-11.2182
請謁任舉	-11.2183
滄	-11.2183
賑	-11.2183
郵	-11.2184
可得聞乎管子對曰	-11.2184
棧	-11.2185
鹹	-11.2185
偉	-11.2185
不亦宜乎	-11.2186
祗	-11.2186
莭	-11.2187
濳	-11.2187
隍	-11.2188
基	-11.2189
蕘	-11.2189
隷	-11.219
慙	-11.219
浦	-11.219
尹洙龍圖	-11.219
巽	-11.2191
烏集之交	-11.2191
仭	-11.2191
聾	-11.2192
侔	-11.2192
訐	-11.2192
顙	-11.2192
蠻	-11.2194
㓕	-11.2194
濵	-11.2194
已見釋寃門	-11.2194
瓴	-11.2195
柳	-11.2196
轂	-11.2196
葵	-11.2197
㫄	-11.2197
殁	-11.2197
霽	-11.2198
蔓	-11.2198
鋤	-11.2198
笠	-11.2199
柎	-11.2199
胎	-11.22
乎吾亦鑒焉管子對曰夷吾	-11.22
垢	-11.2201
塥	-11.2201
袂	-11.2202
叚	-11.2203
鎧	-11.2203
戢	-11.2204
冥	-11.2204
是故有道之君	-11.2204
梨	-11.2205
㦧	-11.2206
倨	-11.2207
纍	-11.2208
栗	-11.2208
厥	-11.221
商子卷第	-11.2211
貉	-11.2212
十分之三	-11.2212
主之治國也	-11.2213
植果木不如三土以十分之	-11.2217
我昔者有道之君	-11.2218
鱣	-11.222
鬰	-11.2228
此亦可謂昔者	-11.2229
公又問曰	-11.2333
答	-11.3598
線	-11.38
􁠆	-11.3802
轝	-11.3804
塜	-11.3805
秃	-11.3806
欠	-11.3807
酤	-11.3807
隊	-11.3808
掇	-11.381
問其鄉里	-11.3811
睡	-11.3811
蜚	-11.3812
濤	-11.3818
餅	-11.3819
黥	-11.382
把	-11.3821
懇	-11.3821
賛	-11.3821
明張景撰	-11.3823
耘	-11.3823
鄶	-11.3823
仆	-11.3824
鑑	-11.3825
漕	-11.3825
踵	-11.3826
祝鳬已疪	-11.3826
像	-11.3826
鍜	-11.3826
株	-11.3826
疽	-11.3827
先王知其然故	-11.3828
仗	-11.3828
庖	-11.3828
梓	-11.3828
鍳	-11.3829
娼	-11.3829
愬	-11.383
廹	-11.383
悵	-11.383
丐	-11.3831
抄	-11.3832
睫	-11.3834
数	-11.3835
煥	-11.3835
見歐陽修	-11.3836
孫叔敖	-11.3836
鋟	-11.3836
堊	-11.3837
剪	-11.3838
姪	-11.3839
片	-11.3839
奥	-11.384
藜	-11.3841
萇	-11.3841
鴈	-11.3842
隴	-11.3842
沸	-11.3842
慾	-11.3842
黠	-11.3842
算	-11.3843
鱉	-11.3843
虙	-11.3843
之計莫如樹	-11.3844
兎	-11.3844
轄	-11.3844
埏	-11.3844
揲	-11.3845
閈	-11.3845
末産不禁	-11.3845
恊	-11.3845
鎬	-11.3846
人食者有一人耕而	-11.3846
俳	-11.3847
鋒	-11.3847
慕容彦超	-11.3848
覔	-11.3848
值	-11.3849
誕	-11.3849
愜	-11.3849
帑	-11.3849
帚	-11.3849
猥	-11.3849
令人之衡山求買械器	-11.3849
筦	-11.385
繇	-11.385
東郭郵	-11.385
耐	-11.385
事而竣公又問焉曰於子之	-11.385
曷	-11.385
召管子而問曰此何故也管子對曰	-11.3851
朝諸侯卿大夫列士循於百姓號曰祭	-11.3851
不易其則故	-11.3852
秇	-11.3852
九十二日謂之	-11.3852
饌	-11.3852
膌	-11.3852
惛	-11.3852
錙	-11.3852
公平而無私故	-11.3853
聊	-11.3853
酖	-11.3853
肝	-11.3853
䂓	-11.3853
咡	-11.3854
嗛	-11.3854
爲此有道乎管子	-11.3854
莖黒秀	-11.3855
蟡	-11.3855
於赤野之末光	-11.3855
有狗嘊嘊旦暮欲齧我猳而不使也今夫	-11.3855
鉗	-11.3855
栢	-11.3856
蠋	-11.3856
嘖室之議	-11.3856
逝	-11.3856
之常也治之以	-11.3856
兊	-11.3856
靳	-11.3857
蓆	-11.3857
錐	-11.3857
胃	-11.3857
逞	-11.3857
饗	-11.3857
蒿	-11.3857
澹	-11.3857
春事二十五日之内	-11.3857
絀	-11.3857
賞不足以勸	-11.3858
泲	-11.3858
始乎無端卒乎無窮	-11.3858
為此有道乎管子	-11.3858
砥	-11.3858
自古至今	-11.3858
覩	-11.3859
令之所止令之所發	-11.3859
至善不戰	-11.386
國貧而用不足	-11.386
者其恱在	-11.386
擄	-11.386
諸君吾子	-11.386
囿	-11.386
挹	-11.3861
寤	-11.3861
宇	-11.3861
鍾之家不行	-11.3861
莫之能圉	-11.3861
𥙿	-11.3861
鳥飛准繩	-11.3862
先難而後易	-11.3862
傰	-11.3862
啚	-11.3863
山髙而不崩則祈羊至	-11.3863
鑊	-11.3863
匕	-11.3864
繑	-11.3864
肺	-11.3864
蓏	-11.3864
畜之以道則民和養之以	-11.3865
犂	-11.3865
所謂能以所不	-11.3865
夫具而天下無	-11.3867
辦	-11.3867
釱	-11.3868
舉兵之日而境内	-11.3869
閬	-11.3869
武王伐紂	-11.387
稼亡三之一	-11.387
苧	-11.387
此謂先之以	-11.387
􁫼	-11.387
悴	-11.3871
茸	-11.3871
醴	-11.3871
士農工商	-11.3872
對曰惡則惡矣然非其急者也公	-11.3872
則禄賞不	-11.3873
象地無親	-11.3873
讂	-11.3874
冰	-11.3874
蒐	-11.3874
藴	-11.3874
與天同極	-11.3874
祓	-11.3877
貝	-11.3877
柘	-11.3877
疫	-11.3878
大木不可獨	-11.3878
􁎺	-11.388
不仕與耕者	-11.3881
閉禍在除怨	-11.3882
棲	-11.3883
鉏	-11.3885
􁷑	-11.3886
嚬	-11.3886
四境之内	-11.3887
蓄殖果木不若三土	-11.3887
行此三者有罪無赦	-11.389
癘	-11.3891
行冬政則	-11.3892
之日發五政	-11.3893
纑	-11.3893
行春政則	-11.3894
踣	-11.3894
可以加政矣	-11.3894
行夏政則	-11.3895
行秋政則	-11.3901
秬	-11.3901
涵	-11.391
出後漢書本	-11.4021
脇	-11.5778
檠	-11.5779
蹈	-11.5781
戡	-11.5784
巴	-11.5789
紘	-11.5793
喫	-11.5793
僮	-11.5798
貼	-11.5802
揖	-11.5803
座	-11.5803
掖	-11.5805
許宗裔	-11.5805
舛	-11.5807
汪	-11.5809
恍	-11.5809
衙	-11.5813
桐	-11.5814
録事參軍	-11.5815
珥	-11.5815
諲	-11.5816
齕	-11.5817
脣	-11.5818
不蓋天下不能正天下	-11.5818
彞	-11.5818
藿	-11.5819
盂	-11.5821
坦氣修通凡物開靜形生理	-11.5822
知彭州九隴縣	-11.5822
杭	-11.5823
遥	-11.5824
刧	-11.5824
涯	-11.5824
宏	-11.5824
俛	-11.5824
歇	-11.5824
昀	-11.5825
話	-11.5825
簮	-11.5825
餽	-11.5826
壕	-11.5826
妓	-11.5827
龢	-11.5827
陸費墀	-11.5827
彖	-11.5828
床	-11.5828
箠	-11.5828
脛	-11.5828
苐	-11.5828
可以惡竟外之不善者	-11.583
蓬	-11.583
倅	-11.583
孚	-11.583
塌	-11.5831
獄久不決	-11.5832
刎	-11.5832
採	-11.5832
緄	-11.5833
舅	-11.5833
橈	-11.5834
款	-11.5834
洎	-11.5834
譟	-11.5834
餉	-11.5835
輝	-11.5835
吿	-11.5835
滑	-11.5836
良馬固車	-11.5836
櫻	-11.5836
咄	-11.5836
隸	-11.5837
㸔	-11.5837
熈	-11.5837
汗	-11.5838
中方副圖	-11.5838
卞	-11.5839
魁	-11.5839
閣	-11.5839
令不行禁不止	-11.584
全生之說勝則	-11.584
悛	-11.584
􁉢	-11.584
祟	-11.5841
繹	-11.5841
尊主安國	-11.5841
鴻	-11.5842
軀	-11.5842
廕	-11.5843
較	-11.5843
瓌	-11.5843
寝	-11.5844
護	-11.5844
蔑	-11.5845
悚	-11.5845
枹	-11.5845
爲之有道乎管子對曰	-11.5845
倩	-11.5845
浪	-11.5847
猪	-11.5847
逾	-11.5847
丸	-11.5847
動而無不從静而無不同	-11.5847
事頗相類	-11.5848
潁	-11.5849
侠	-11.5849
拆	-11.5849
者置之黄金一斤直食八石民之	-11.5849
猒	-11.5849
燔	-11.585
㨿	-11.585
猿	-11.585
腫	-11.585
蚖	-11.585
参	-11.5851
屎	-11.5851
窖	-11.5851
橫	-11.5851
富商蓄賈	-11.5851
菕	-11.5851
羹	-11.5852
淇	-11.5852
顚	-11.5852
粉	-11.5852
楫	-11.5852
犢	-11.5852
霤	-11.5853
肕	-11.5853
􁈩	-11.5853
可得而聞乎管子對曰	-11.5853
蹙	-11.5853
髙杠柴池	-11.5853
旦暮從事於	-11.5854
先易而後難	-11.5854
攺	-11.5854
不盖天下不䏻正天下	-11.5854
金者用之量也	-11.5854
態	-11.5855
庻	-11.5855
礫	-11.5855
芳	-11.5855
令則行禁則止	-11.5855
誨	-11.5855
腓	-11.5856
藁	-11.5856
莠	-11.5856
臻	-11.5856
者置之黃金一斤直食八石民之	-11.5857
蘄	-11.5857
伎	-11.5857
腕	-11.5857
山林澤谷之利	-11.5857
潄	-11.5858
咀	-11.5858
􁲱	-11.5858
抽	-11.5859
㧾	-11.586
煜	-11.586
舩	-11.586
為之有道乎管子對曰	-11.5861
俶	-11.5862
奚以知其然也	-11.5862
鼠	-11.5862
罸	-11.5863
惋	-11.5863
黽	-11.5863
東西南北	-11.5863
使法量功不自度也	-11.5864
彀	-11.5864
之爪角害之	-11.5864
飄風暴雨	-11.5864
夸	-11.5866
装	-11.5866
麋	-11.5866
箧	-11.5866
撞	-11.5867
餐	-11.5868
㤗	-11.5869
眇	-11.5869
慘	-11.5869
柢	-11.5869
瘠	-11.587
吠	-11.587
篡	-11.5871
冕	-11.5872
貟	-11.5872
瓠	-11.5872
中婦諸子	-11.5872
績按别本注	-11.5872
緇	-11.5874
扇	-11.5874
椀	-11.5874
坼	-11.5875
邸	-11.5875
擋	-11.5876
廧	-11.5876
氏之儒有	-11.5876
煚	-11.5876
蕪	-11.5877
心之中又有心	-11.5877
吟	-11.5878
昭知天下通於四極	-11.5878
陼	-11.5878
萬室之國一千室之都四	-11.5879
鋌	-11.5879
􁏸	-11.5879
明於日月察於父母	-11.5882
此居於圖東方方外	-11.5884
􁅀	-11.5884
姧	-11.5885
俈	-11.5888
彫	-11.5889
臥	-11.5889
蠢	-11.589
糠	-11.5891
槀	-11.5891
餙	-11.5892
愉	-11.5892
友有少長	-11.5892
熯	-11.5893
若雷電	-11.5894
漱	-11.5895
􁓦	-11.59
躓	-11.5901
若秋雲之	-11.592
之民也而世少之曰	-11.5922
稺也謂之逆	-11.593
遫	-11.8277
欒	-11.8281
侣	-11.8291
賠	-11.8293
縞	-11.8293
軼	-11.8296
戱	-11.8297
鞍	-11.8298
吮	-11.83
鯀	-11.83
縗	-11.8303
蒞	-11.8304
㢲	-11.8306
稹	-11.8306
田連成竅	-11.8307
棒	-11.8307
狴	-11.8307
瘦	-11.8309
絇	-11.8309
僉	-11.831
逹	-11.8311
至誠哀矜	-11.8311
輳	-11.8313
煎	-11.8314
邵	-11.8314
以其國造難生患	-11.8314
啼	-11.8317
脚	-11.8317
紓	-11.8317
以御其司命故民力可	-11.8318
丕	-11.8318
臊	-11.8318
州軍事推官	-11.8318
誠莊事斷	-11.8319
褐	-11.832
徽	-11.832
爛	-11.832
辜限外死者	-11.832
叢	-11.8321
犴	-11.8321
魂	-11.8321
拳	-11.8322
蜚蓬之問	-11.8322
窟	-11.8323
得失之數皆在此	-11.8323
頗亦類此	-11.8324
評	-11.8324
無讐而有少妻所以死	-11.8324
扄	-11.8325
錠	-11.8325
庄	-11.8325
扉	-11.8325
齓	-11.8325
䜛	-11.8326
鄂	-11.8327
當其罪賞賜	-11.8327
偷幸而望於上	-11.8327
刁	-11.8328
剰	-11.8328
用犧牲珪璧禱於鬼神鬼神	-11.8328
閎	-11.8329
爼	-11.8329
貰	-11.8329
嶠	-11.8329
扣	-11.8329
賡	-11.8329
厨	-11.8331
所欲者能得諸民	-11.8331
鱗獸之火	-11.8331
乍	-11.8331
㤀	-11.8332
揜	-11.8332
諒	-11.8332
十之籍大女	-11.8332
謹按大明律云	-11.8332
逗	-11.8334
隻	-11.8334
績按當依觧作	-11.8334
扺	-11.8334
人殺妻之父母兄弟數口	-11.8334
盃	-11.8334
炎	-11.8334
透	-11.8334
山權數第七十五	-11.8334
貶	-11.8335
鍊	-11.8335
紏	-11.8335
乎衆人之用其心也愛者憎之始也	-11.8335
裸	-11.8335
五舉而務輕金九	-11.8335
抃	-11.8335
議獄緩死	-11.8335
陬	-11.8335
鬈	-11.8335
使國君得其治則人君從㑹	-11.8336
拯	-11.8336
屢訴不得直因	-11.8336
暨	-11.8336
見吕大防	-11.8336
湛而不澤無髙下葆澤以處	-11.8336
擅破一國彊在	-11.8336
卒輕患而傲敵	-11.8336
蛙	-11.8336
輕重丙第八十二	-11.8336
民之所利立之所害除之則民人從	-11.8337
請命於天地知氣和則生物從	-11.8337
天之權則人地之權亡	-11.8337
冗	-11.8338
覓	-11.8338
大收十二寒至	-11.8338
見司馬光丞	-11.8338
兠	-11.8338
其槐其楊	-11.8338
動無非法者所以禁過而外私也	-11.8338
澗	-11.8338
鑪	-11.8338
昉	-11.8338
篲	-11.8338
濟濟多士殷民化之紂之	-11.8338
王天下而失天之道天下不可得而王也	-11.8338
誡	-11.8339
致天下之精材	-11.8339
六舉而絜知事變	-11.8339
計緩急之事則危危而無難	-11.8339
鬭士食於功	-11.8339
九本搏大人主之守也	-11.8339
四舉而農佚粟十	-11.8339
八舉而勝行威立九舉而帝事成形	-11.834
軍之守也六紀審	-11.834
也以夏日至始數	-11.834
地圖第二十七	-11.834
者上之所以一民使下也私	-11.8341
磐	-11.8341
𥿄	-11.8341
輔其過則社稷	-11.8341
俎	-11.8341
發之以力威之以誠一舉而上下得終	-11.8341
親之以仁養之以義報之以	-11.8341
通之以道畜之以	-11.8341
祔	-11.8341
而賞罰之所立者	-11.8341
彦	-11.8342
樠	-11.8342
秣	-11.8342
或白或黒	-11.8342
乳	-11.8342
戌	-11.8342
之務則功得而無害	-11.8342
再舉而民無不從三舉而地辟散成	-11.8342
四富貧之終五盛衰之紀六安危之機七	-11.8342
然故諶杵習士聞識博學之	-11.8342
著於取與之分則得地而不執	-11.8342
之所生從法之不立也	-11.8342
伉	-11.8342
做	-11.8342
之官則舉事而有功此居於圖北方方外	-11.8343
困通於出入之度則深入而不危審於動	-11.8343
瑗	-11.8343
蠭	-11.8343
陌	-11.8343
軺	-11.8343
同異分官則安	-11.8343
曰寡人有千嵗之食而無百嵗之夀今	-11.8343
疾病姑樂乎	-11.8343
下情上而道止謂之侵	-11.8343
琪	-11.8343
若在長家子弟臣妾屬役賔客則	-11.8343
急時分勝之	-11.8344
瑟	-11.8344
柞	-11.8345
箎	-11.8345
書録解題	-11.8345
贛	-11.8345
犇	-11.8345
魅	-11.8345
君鑄錢立幣民	-11.8345
告不知謂之勞而無功	-11.8345
上有鈆者其下有	-11.8345
不治奚待於	-11.8345
之以物則物重不	-11.8345
于游宗游宗以	-11.8345
俯	-11.8345
勝則險阻不守	-11.8345
持滿者與天	-11.8345
攸	-11.8345
獨國之君卑而不威	-11.8345
遷封食邑	-11.8345
所謂治國者主道明也	-11.8345
不行其野不違其馬	-11.8345
蒭	-11.8345
所歸心行者也	-11.8345
無遺利無隱治	-11.8345
立義而加之以勝至威而實之以	-11.8345
鉒	-11.8345
庾	-11.8346
鵠	-11.8346
地之東西二萬八千里南北二萬六千里	-11.8346
之集道行不顧	-11.8346
冊	-11.8346
獨行而無敵矣	-11.8346
山川之故祀必以時六㑹諸侯令曰以爾	-11.8346
日至始數四十六日	-11.8346
藪澤以時禁發之	-11.8346
行備具勝之	-11.8346
㑹諸侯令曰以爾封内之財物國之所有	-11.8346
之外三千里之内諸侯五年而㑹至習命	-11.8346
予而無取者天地之配也	-11.8346
彊國衆先舉	-11.8346
甥	-11.8346
能依鬼神作法詛呪	-11.8346
不以彤弓石璧	-11.8346
姤	-11.8346
撙	-11.8346
是以小者兵挫而地削大者身死而國亡	-11.8346
朝先王之廟觀於周室	-11.8346
痟	-11.8346
酲	-11.8346
官處四體而無禮者流之焉莠命	-11.8347
失天之度雖滿必涸	-11.8347
榆	-11.8347
迺	-11.8347
晉和凝撰	-11.8347
小謹者不大立	-11.8347
常疾收孤寡三㑹諸侯令曰田租百取五	-11.8347
道路偕度量一稱數	-11.8347
十二小榆賜予十二中寒收聚十二中榆	-11.8347
年三卿使四輔	-11.8347
里之外二千里之内諸侯三年而朝習命	-11.8347
之國勞而多禍	-11.8347
事語第七十一	-11.8347
其號令之徐疾	-11.8347
十口之家十人	-11.8347
孝於父母不長弟於鄉里驕躁	-11.8347
榬	-11.8347
者其人莫往道	-11.8347
請立為大司	-11.8347
賤則以幣予	-11.8347
鹽之重升加分	-11.8347
􁝈	-11.8347
埊	-11.8348
生棟覆屋怨怒不及弱子下瓦慈母操箠	-11.8348
乏耕織之器四㑹諸侯令曰	-11.8348
勇勝怯智勝愚	-11.8348
市賦百取二	-11.8348
入共受命焉	-11.8348
明别則易治	-11.8348
民倍本行而求外勢	-11.8348
五升少半	-11.8348
察數而知治審器而識勝	-11.8348
澄	-11.8348
百口之家百人	-11.8348
摧	-11.8349
互	-11.8349
身仁行義服忠用信則王	-11.8349
瘳	-11.8349
上下不和雖安必危	-11.8349
不濟乎寡人大惑	-11.8349
扞	-11.8349
三升少半	-11.8349
不足者皆以其事業	-11.8349
二升少半	-11.8349
人言市有虎	-11.8349
儐	-11.8349
兌	-11.8349
力成吾君之禍	-11.8349
圏	-11.8349
垂棘之璧	-11.8349
巨橋之粟	-11.8349
殺正商賈之利而益農夫之事	-11.8349
謂之蔽才其罪五有司	-11.8349
而同歸古今一也	-11.835
自媒之女醜而不信	-11.835
明法解第六十七	-11.835
諸侯以縵帛鹿皮報	-11.835
輿死扶傷	-11.835
金起於汝漢	-11.835
鍿	-11.835
鵠鵾之所在君	-11.835
梯	-11.835
侑	-11.835
其主主因離法而聽之此所謂	-11.835
舉所美必觀其所終	-11.835
桑麻計其六畜之産而貧富之國可知也	-11.835
琦	-11.835
皮幹筋角	-11.835
紉	-11.835
見沈括内	-11.835
㙗	-11.835
受息之萌九百餘家	-11.835
墯	-11.835
多者千萬少者六七百萬其出之中	-11.835
摸	-11.835
正法直度罪殺不赦	-11.835
疾怨非上賤爵輕禄	-11.835
􁧫	-11.835
審謀章禮選士利械則霸	-11.8351
所謂亂國者臣術勝也	-11.8351
喜賞惡罰之人離公道而行私術矣	-11.8351
四萬二千金	-11.8351
能而有爵禄則百姓	-11.8351
荅	-11.8352
物固有形形固有名	-11.8352
不勸勉不行制不死節	-11.8352
有功畜之以道養之以	-11.8352
勝定盛衰勝舉機誠要則敵不量	-11.8352
楟	-11.8352
臨事不信於民	-11.8352
螫	-11.8352
圜豚豚乎莫得	-11.8352
壮	-11.8352
故野不積草	-11.8352
煇	-11.8352
髙下令之徐疾	-11.8352
鮑叔馳而西	-11.8352
○○○○○	-11.8352
人事之起近親造怨	-11.8352
廢所惡必計其所窮	-11.8352
必諾之言不足信也	-11.8352
惠也刑罰必也	-11.8352
羿之道非射也造父	-11.8352
受辭者名之運也	-11.8352
毉	-11.8352
非怨民心傷民意	-11.8352
出魏志本傳	-11.8353
項	-11.8353
輕重乙第八十一	-11.8353
其功順天者天助之其功逆天者天	-11.8353
徧知天下審御機數	-11.8353
㐫	-11.8353
置儀設法	-11.8353
冬行秋政霧	-11.8353
定死生勝定成敗勝定依竒勝	-11.8353
慶勉敦敬以顯之	-11.8353
未之見而親焉可以往矣	-11.8353
竒舉發不意則士歡用	-11.8353
義審而禮明	-11.8353
行春政烝泄	-11.8353
仁慈孝於父母長弟聞於鄉里者有則以	-11.8353
則民之報上亦	-11.8353
則賔者不肅	-11.8353
召管仲管仲至公	-11.8353
大山之隈奚有於深	-11.8353
定宗廟育男女	-11.8353
廏	-11.8353
民輕其禄賞	-11.8353
甕	-11.8353
立政九敗解第六十五	-11.8353
螣	-11.8353
運萬物運則萬物賤萬物賤則萬物可因	-11.8353
邪氣襲内正色乃衰	-11.8353
巧者有餘而拙者不足	-11.8354
天道之極逺者自親	-11.8354
偕習以悉	-11.8354
炊	-11.8354
君臣共道則亂	-11.8354
屬數雖衆非以尊君也	-11.8354
百官雖具非以任國也	-11.8354
平原之隰奚有於髙	-11.8354
欲生而惡死	-11.8354
民不足令乃辱	-11.8354
蛟龍得水而神可立也虎豹	-11.8354
購	-11.8354
粗	-11.8354
諸侯卿大夫列士循於百姓發號出令曰	-11.8354
兔	-11.8354
田野視其耕芸計其農事而飢飽之國可	-11.8354
行而不可再者君不行也	-11.8354
請以平賈取之	-11.8354
髙而不見地不易也	-11.8354
出耕十二天氣下賜與十二義氣至	-11.8354
莫生之則莫死之	-11.8354
行秋政雷	-11.8354
見災變之氣	-11.8354
進退無儀則政令不行	-11.8354
鏘	-11.8354
毋功而可以得富者	-11.8354
民賤其爵服	-11.8354
版法解第六十六	-11.8354
裚	-11.8354
始乎無端道也卒乎無窮	-11.8355
且威則君道備矣	-11.8355
五家之數殊而用一也桓公曰	-11.8355
人有喪雌雄	-11.8355
四十倍之粟	-11.8355
困難成之事	-11.8355
曰何謂也管子對曰今天下起兵加我	-11.8355
曰寡人多務令衡籍吾國	-11.8355
棧臺之職	-11.8355
熯焚鄭地使城	-11.8355
用力苦則勞	-11.8355
盡於此乎管子	-11.8355
者不得復築也屋之燒者不得復葺也令	-11.8355
莫樂之則莫哀之	-11.8355
託幽而威可載也	-11.8355
諸侯無牛馬之牢不利其器	-11.8355
啇	-11.8356
塩	-11.8356
嚮	-11.8356
至卑耳之谿	-11.8356
伴	-11.8356
博一純固則獨行而無敵	-11.8356
旨	-11.8356
春行冬政肅	-11.8356
而守不固戰不勝而守不固則國不安矣	-11.8356
不利作土功之事	-11.8356
唉	-11.8356
民苦殃令不行施報不得禍乃始昌禍昌	-11.8356
財不可以嗇用力不可以苦用財嗇則費	-11.8356
還四年伐孤竹	-11.8356
馬牛選具	-11.8356
曰號令也斧鉞也禄賞也六攻者何也	-11.8356
玉起於禺氏	-11.8356
合男女十二中夘十二下夘三夘同事	-11.8356
日益長利以作	-11.8356
朝者義之理也	-11.8356
請式璧而聘之	-11.8356
眞	-11.8357
乆而不勝其福	-11.8357
君子食於道小人食於力	-11.8357
大匡第十八	-11.8357
不行於其民可知也	-11.8357
以其所有易其所無	-11.8357
明日管仲朝公	-11.8357
鍼	-11.8357
君不聞此所謂逺於	-11.8357
喜無以賞怒無以殺喜以賞怒以殺怨乃	-11.8357
覧	-11.8357
遼	-11.8357
九變第四十四	-11.8357
入州里觀習俗聽民之所以化其上	-11.8357
兵尚脅盾	-11.8357
御神用寶	-11.8357
春秋冬夏不更其節	-11.8357
暴人不勝邪亂不止	-11.8357
沐涂樹之枝	-11.8357
淯	-11.8357
白心第三十八	-11.8357
處穴要宋田夾塞兩川使水不得東流	-11.8357
鄣	-11.8357
墙	-11.8358
渭	-11.8358
童山竭澤	-11.8358
旦暮利之衆乃勝任	-11.8358
東山之西水深滅垝	-11.8358
正彼天植	-11.8358
之則非有補於	-11.8359
置法出令臨衆用民計	-11.8359
無鹽則腫守圉之	-11.8359
角試否臧收天下之豪傑有天下之稱材	-11.8359
足以勸民號令不足以使下斧鉞不足以	-11.8359
七臣七主第五十二	-11.8359
主釋法以譽進能則臣離上而下比周矣	-11.8359
事不能再其本而上之求焉無止	-11.8359
旗物尚黑	-11.8359
此皆距周七千八百	-11.8359
霸形第二十二	-11.8359
事不工事不工	-11.8359
使吾萌春有以倳耜夏有以決芸	-11.8359
崖	-11.8359
思人衆兵彊	-11.8359
桓公築夷儀以封之	-11.8359
爵貴有名以休之	-11.8359
能害己者必齊也	-11.8359
得繕冢墓	-11.8359
三本者審則	-11.8359
有犯禁而可以得免者則斧鉞不足以	-11.8359
之數者不可差以長短	-11.8359
寡人幼弱惛愚不通	-11.8359
用非其有使非其人	-11.8359
腸	-11.836
啞	-11.836
攜	-11.836
尊君卑臣非計親也以	-11.836
說行若風雨發如雷電此居於圖方中	-11.836
論百工之銳器	-11.836
先王之治國也使法擇人不自舉也	-11.836
冐	-11.836
從令者不輯	-11.836
之歸之也譬若市人	-11.836
五量之宗也	-11.836
假貸吾貧萌使有以	-11.836
兵弱而士不厲	-11.836
濘	-11.836
腎	-11.836
非兹是無以	-11.836
韻	-11.8361
燒山林破増藪焚沛澤	-11.8361
仲尼不知善賞	-11.8361
吝	-11.8361
鑰	-11.8361
大勝無不勝也此居於圖南方方外	-11.8361
臆	-11.8361
成囷京者二家	-11.8361
此其何故也管子	-11.8361
此其可比於君子之德	-11.8361
稱貸之家皆齊首	-11.8361
而桓公不使也狄人攻	-11.8361
脉	-11.8361
興兵而南存宋鄭	-11.8361
麤濁蹇能存而不能亡者	-11.8361
故上令而下應主行而臣從	-11.8362
以鄭城與宋水為請	-11.8362
天不變其常地	-11.8362
究其風俗考其枉直	-11.8362
循名責實	-11.8363
知先後不失地利	-11.8363
行軍襲邑舉錯	-11.8363
大勝者積衆	-11.8363
檿	-11.8363
於山五尺見水	-11.8363
求天下之精材	-11.8363
幨	-11.8363
明年狄人伐	-11.8363
燋	-11.8363
狙	-11.8363
螘	-11.8363
液	-11.8363
有地牧民者務在四時	-11.8363
二中郢賜與十二中絶收聚十二大暑至	-11.8363
盡善十二中暑十二小暑終三暑同事	-11.8363
積之多寡定府官之計數養老弱而勿通	-11.8363
雖犯禁而可以得免	-11.8363
之裁大故能兼	-11.8363
外内朋黨雖有大姦其蔽主多矣	-11.8363
顧憂者可與致道	-11.8363
槨	-11.8363
葺	-11.8364
年之積粟行於	-11.8364
守禮莫若敬	-11.8364
相益不務尊君也大臣務相貴而不任國	-11.8364
善習五官謹修三官必設常主計必先定	-11.8364
心之在體君之位也	-11.8364
此兵之三闇也	-11.8364
瞠	-11.8364
釬	-11.8364
君服赤色味苦味	-11.8365
衷	-11.8365
時而王不難矣	-11.8365
阮	-11.8365
十二期風至戒秋事十二小	-11.8365
行冬政耗	-11.8365
莧	-11.8365
蔞	-11.8365
薄百爵十二白露下收聚十二復理賜	-11.8365
出風俗通	-11.8365
視宫室觀車馬衣服而侈儉之國可知也	-11.8365
諸侯莫不來服	-11.8365
二七十四尺而至於泉	-11.8365
久也服也習也謂	-11.8365
及于游宗	-11.8365
昔者聖王之治其民也	-11.8365
蠱	-11.8365
國無以小與不幸而削亡者	-11.8365
蘢	-11.8365
道有損瘠	-11.8365
酢	-11.8365
隕	-11.8365
九守第五十五	-11.8365
任法第四十五	-11.8365
伐齊納公子糺	-11.8365
恃不信之人而求以	-11.8365
闟	-11.8365
合内空周外	-11.8366
無功而可以得富	-11.8366
刑則交寒害	-11.8366
齊有渠展之鹽	-11.8366
官長任事守職	-11.8366
不正廣其荒	-11.8367
合男女十二中卯十二下卯三卯同事	-11.8367
春采生秋采蓏夏處隂冬處陽	-11.8367
秋行夏政葉	-11.8367
飲於白后之井	-11.8367
校尉縁無忌以致罪	-11.8367
猛毅之君不免於外難懦弱之君	-11.8367
洀	-11.8367
者與功而不與分焉	-11.8367
殺僇禁誅	-11.8367
踶	-11.8367
士修身功材	-11.8367
必有一斤一鋸一	-11.8368
無遺善無隱姦	-11.8368
和好不基貴賤無司事變日至	-11.8368
兵無主則不蚤知	-11.8368
怙	-11.8368
舉發以禮時禮必得	-11.8368
不忠君不能奪	-11.8368
在子期年子	-11.8368
有二國之籍者六千萬	-11.8368
骼	-11.8368
渚	-11.8368
誼	-11.8368
不出於口不見於色	-11.8368
心術上第三十六	-11.8368
胜	-11.8368
與卑耳之貉	-11.8368
金與粟爭貴	-11.8368
鋏	-11.8368
倉廩實則知禮節衣食足則知榮辱	-11.8369
數戰則士疲數勝則君驕驕君使疲民則	-11.8369
以黨舉官則民務交而不求用	-11.8369
倍之力而不至者有	-11.837
令不必行禁不必止戰不必勝守不必固	-11.837
在臣期年臣	-11.837
天子之春令也以	-11.837
家與府爭貨	-11.837
寕	-11.837
立邑置廧	-11.837
尊而下卑逺近不乖此居於圖南方方外	-11.837
吾國之竒出	-11.837
莫不欲利而惡害	-11.837
弢	-11.8371
璋	-11.8371
小稱第三十二	-11.8371
故曰上離其道下失其事	-11.8371
糗	-11.8371
人唯恐其不復	-11.8372
管仲再拜稽首	-11.8372
樞言第十二	-11.8372
羣木安逐	-11.8372
萑	-11.8372
屩	-11.8372
瓶	-11.8372
豺	-11.8372
其應物也若偶之	-11.8372
威下繫於民	-11.8372
嗜欲充益	-11.8372
心術下第三十七	-11.8372
蔬	-11.8373
鎌	-11.8373
杲	-11.8374
親也有病則憂臨死則懼既死則哀今	-11.8374
夫天地一險一易若鼓之有	-11.8374
毒而無怒怨而無言欲而無謀	-11.8374
之急難可使者幾何人	-11.8374
弭	-11.8374
形勢解第六十四	-11.8374
熰	-11.8374
熺	-11.8374
觿	-11.8374
樹木之勝霜	-11.8374
圉發不意故莫之	-11.8374
安髙在乎同利	-11.8374
葅	-11.8375
上地方八十里	-11.8375
應故全勝而無害莫之	-11.8375
故必勝而無敵四機不	-11.8375
障塞不審不過八日而外賊得	-11.8375
死亡不食不過四日而軍財在敵	-11.8376
少長貴賤不相踰越	-11.8376
先作難違時易形	-11.8376
繦	-11.8377
腦	-11.8377
有刑至無刑	-11.8377
碣	-11.8377
佳	-11.8378
菅	-11.8378
芋	-11.8378
塞心術計數	-11.8378
凡心之形過知失生	-11.8378
卑身雜處	-11.8378
恪	-11.8379
蓑	-11.8379
定民之居成民之事	-11.8379
入國第五十四	-11.8379
睹庚子金行御天子	-11.8379
蟠	-11.8379
上令不能必行	-11.8379
能勝其攻故	-11.8379
棗	-11.8381
粥	-11.8381
蹊	-11.8381
瘁	-11.8382
托	-11.8382
厩	-11.8382
子出奉令則	-11.8382
鎛	-11.8383
唇	-11.8384
亦當一倍貸	-11.8384
槍	-11.8385
溶	-11.8385
筭	-11.8386
歆	-11.8386
睹甲子木行御	-11.8386
逋	-11.8388
輂	-11.8388
劋	-11.8388
彗	-11.8388
詭俗異禮	-11.8388
君臣下第三十一	-11.8389
幭	-11.8389
斟	-11.839
怍	-11.839
吏進之君用之	-11.839
渥	-11.839
參天地之吉綱	-11.839
天子出令命左右	-11.839
憂樂喜怒欲利	-11.839
秘	-11.839
國家乃昌四方乃	-11.8392
弔	-11.8392
哤	-11.8392
矣不當盡語我昔者無道之	-11.8392
使海於有弊渠彌於有陼綱山於有牢	-11.8392
岱	-11.8392
湜	-11.8392
琅	-11.8392
鰥寡獨老不與得焉	-11.8392
敘	-11.8393
左操五音右執五味	-11.8393
承從天之指	-11.8393
菱	-11.8393
而論可與不可者在	-11.8395
誋	-11.8395
矣桓公曰善哉桓公曰仲父旣	-11.8395
伐何主管子對曰以	-11.8395
閻遏公孫衍	-11.8396
周勝大明則	-11.8397
而求上之毋危	-11.8399
宵	-11.8399
堷	-11.84
衣裳賀之	-11.8402
帯	-11.8402
明勝大周則	-11.8403
脤	-11.8403
嬪	-11.8404
交兵聞於諸侯	-11.8407
躍	-11.8407
勸之以慶賞	-11.8408
見其不可也惡之	-11.841
扱	-11.841
甃	-11.8411
垤	-11.8413
而還與衆人同	-11.8413
人情非不愛其	-11.8413
禁扇去笠	-11.8413
罝	-11.8413
之不愛將何有於公公	-11.8413
瓜	-11.8414
仄	-11.8418
賊氣遫至	-11.8421
彗星見則	-11.8422
風與日爭明則	-11.8424
之尊勢而明信之	-11.8426
是威下分也	-11.8431
於泉山之上命之曰	-11.8485
㟁	-12.1594
鐸	-12.1603
艷	-12.1613
燈	-12.1617
瓮	-12.1621
䀹	-12.1625
櫝	-12.1625
牌	-12.1625
提㸃河東刑獄時	-12.1627
峭	-12.1628
撲	-12.163
唐吕元膺	-12.1632
後事本朝終於	-12.1632
幅	-12.1632
禇	-12.1634
漬	-12.1634
畱	-12.1634
轍	-12.1636
駻	-12.1636
搒	-12.1638
枷	-12.1638
善為鈎距以得事情	-12.1638
巢	-12.1638
駐	-12.164
所失衫袴是一端布	-12.164
曰然防令校其幅尺	-12.164
民之司命也黄金刀	-12.164
出南史袁湛傳	-12.1642
在路之時金已化為土矣	-12.1642
啗	-12.1642
贈	-12.1642
餌	-12.1644
廥	-12.1644
桴	-12.1644
段	-12.1644
令改適婦守節不移姑愍之宻自殺親黨	-12.1644
拓	-12.1644
廼	-12.1644
淚	-12.1644
銛	-12.1646
鎖	-12.1646
㤥	-12.1646
孝悌忠順之道	-12.1646
牘視其印文則無少異誣者	-12.1647
豪家舉事只言	-12.1648
而後書之既引伏獄未上而其家人復訴	-12.1648
聨	-12.1648
函	-12.1648
犯詛渝盟	-12.1648
限滿不平復	-12.1648
告偽為州印	-12.1649
狸	-12.165
唐劉崇龜鎮南海	-12.165
請以母死報仇乃殺其母置	-12.1652
畵	-12.1652
廂	-12.1652
揭	-12.1652
疚	-12.1652
戶	-12.1652
當詣宅矣亦無難色	-12.1652
逵	-12.1652
此固以失霸王之道	-12.1652
黛	-12.1652
茨	-12.1653
州民有積為仇者一日諸子私謂其母曰	-12.1653
程戡宣徽知	-12.1653
縲	-12.1653
不臣天子不友諸侯	-12.1653
豁	-12.1653
淩	-12.1654
觽	-12.1654
鞅	-12.1654
頷	-12.1655
家機所出者錢若干	-12.1655
癰	-12.1655
韈	-12.1655
扛	-12.1657
赭	-12.1657
以天下之目視則無不見	-12.1657
以天下之耳聽則無不聞	-12.1657
五年産犢三十頭	-12.1657
綵	-12.1657
它	-12.1657
糲	-12.1657
緝	-12.1657
阤	-12.1658
下簡劾治簡以舊案示之曰此爾婦翁書	-12.1659
夷門軍府事長垣縣有四	-12.1659
両	-12.1659
瑜	-12.1659
殳	-12.1659
頭立南墻下	-12.1659
府中來不知其吏	-12.166
昊	-12.1661
凝於體色此其	-12.1661
鍵	-12.1661
云書是光書語非光語前後三使	-12.1661
史江琛取刺史裴光	-12.1661
棁	-12.1661
簾	-12.1663
審則法令固賞罰必	-12.1663
得乃自斫其右臂誣以殺人官司莫能辨	-12.1663
刪	-12.1663
艱	-12.1663
作摶忒作貣宥作侑	-12.1663
訂	-12.1663
斫	-12.1664
䑛	-12.1665
提㸃河北刑獄時	-12.1665
正用左手傷右臂也誣者引	-12.1665
世犯吾君命而廢吾所立奪吾	-12.1665
為岐州刺史有武功人齎絹三百	-12.1665
作兄釋作澤此類甚衆大匡載召忽語曰	-12.1665
奇	-12.1665
布衫蒙頭	-12.1665
憶	-12.1665
琳	-12.1665
离	-12.1665
脂	-12.1665
詎	-12.1665
詡	-12.1665
僧有夜飲火其廬者歸罪瘖奴軍	-12.1666
觀察使魏少游	-12.1666
卑賤不待尊貴而	-12.1666
邜	-12.1666
甯	-12.1666
椒	-12.1667
庇	-12.1667
人求之不移日而得之	-12.1667
洿	-12.1667
汝父也來就汝居具陳其由張氏子驚疑	-12.1667
遣而傷者死濤求其故而未得死者子訴	-12.1667
雖得天下吾不生也兄與我齊國之政也	-12.1667
俸	-12.1667
僑	-12.1667
耕作而食之掘井而飲之	-12.1667
募	-12.1667
筠	-12.1667
上無事而民自試	-12.1668
僱	-12.1668
卒使坐廢田里	-12.1668
觀樂玩好之說勝則	-12.1668
廊	-12.1669
罹	-12.1669
遲	-12.1669
岳州沅江令	-12.1669
監司怒有惡語濤歎曰官可奪	-12.1669
袪	-12.1669
開封府判官時	-12.1669
五㑹諸侯令曰修春秋冬夏之常祭食	-12.1669
何說之詳也老父曰	-12.1669
命工圖火所經	-12.1669
磚	-12.1669
與張氏某年月日某人抱去某人見之顥	-12.1669
窻	-12.1669
膠	-12.1669
鏹	-12.1669
囚不可殺後得其實	-12.167
在蜀三年不知其父死及代還銓吏不為	-12.167
肢	-12.167
蓬之問不在所賔	-12.1671
喉	-12.1671
曖	-12.1671
葛源葛源郎中	-12.1671
集施利填委	-12.1671
唐中書舍人郭正一	-12.1671
妾與小吏為姦	-12.1671
沈存中内翰云	-12.1671
臣不如隰朋請立	-12.1671
辜限計日而日以百刻計之死在限外	-12.1671
問政於仲尼仲尼曰政在	-12.1671
嘗有入此者乎對曰無有	-12.1671
外障距内比周	-12.1671
羆	-12.1671
君服黑色味鹹味	-12.1672
跛	-12.1673
綺	-12.1673
乃夜放驢出而藏其鞍	-12.1673
咠	-12.1673
一弟與妻子耳長卿曰殺弟者兄也豈	-12.1673
言室滿室言堂滿堂	-12.1673
六千里之侯則大人從	-12.1673
笄	-12.1673
臣不如東郭牙請立以為	-12.1673
騙	-12.1673
吿有而不以吿	-12.1673
嘿	-12.1673
孱	-12.1673
守辜而傷者死	-12.1673
州司以為不道縁坐妻子刑曹	-12.1673
於謀殺不當復坐其妻	-12.1673
曰毆妻之父母即是義絶	-12.1673
曾肇内翰	-12.1673
絳	-12.1673
私議自貴之說勝則上令不行	-12.1674
袒	-12.1675
恢	-12.1675
曰此驢行急而汗非長行人也見人	-12.1675
錘	-12.1675
午	-12.1675
橋店主張逖妻歸寧有	-12.1675
獄獨留一人留者色動	-12.1675
鞘中正等不	-12.1675
婚	-12.1675
心詔以明付表	-12.1675
推所毆時在限外四刻因訴於郡得原父	-12.1675
文書其實無金	-12.1675
知河南府伊陽縣	-12.1675
菀	-12.1675
敺養坦氣修通凡物開静形生理	-12.1676
金玉貨財之說勝則爵服下流	-12.1676
不歸忽聞菜園井中有死人即	-12.1677
丞相知潤州有婦人夫出	-12.1677
驗是其夫否皆言井深不可	-12.1677
絡	-12.1677
曰吾視食者皆以右手	-12.1677
曰殺人者汝也囚不知所以然	-12.1677
枷一囚立於馬市宣言	-12.1677
獨以左今死者傷右肋此汝殺之明也囚	-12.1677
鍛	-12.1677
三翁乎老父驚駭服罪	-12.1677
交物因方則械器備	-12.1677
年四十人已謂之	-12.1677
曰七十六謂老父曰是子之生其父	-12.1677
曰宋伐杞狄伐邢	-12.1677
漢景帝時廷尉上囚防	-12.1677
瑾	-12.1677
用利至誠則敵不校	-12.1677
罰罪有過以懲之殺僇犯禁以振之	-12.1677
翦	-12.1677
裳	-12.1677
豈有中毒而能終席	-12.1677
髀	-12.1677
必有千鍾之藏藏繦百萬	-12.1678
戰不勝而守不固	-12.1678
為大理寺詳斷官時	-12.1678
縵	-12.1678
趾	-12.1678
謂齊王曰臣死之後王車裂	-12.1679
腴	-12.1679
般	-12.1679
之說勝則繩墨不正	-12.1679
引乳醫為證一	-12.1679
沼	-12.1679
研	-12.1679
納汝女為子婦許嫁其女汝家有之乎	-12.1679
色動又告之曰汝且死書	-12.1679
㒒	-12.1679
人類當以禽獸處之遂戮	-12.1679
曹參軍時禁中露積油幕一夕火主守者	-12.1679
浧	-12.1679
蚘	-12.1679
􁔻	-12.1679
劵抑汝女為婢指十萬為	-12.168
地貟第五十八	-12.168
得濕則燔府為上聞仁宗悟曰頃	-12.168
雜他藥相因既	-12.168
峜	-12.168
陪	-12.168
撻	-12.168
烽	-12.168
頑	-12.168
囑	-12.168
戰勝之器攻取之數	-12.168
冢	-12.168
因殺陳依律	-12.168
往者不至來者不極	-12.168
耄	-12.168
頤	-12.168
昔晉武庫火張華以為積油	-12.1681
蹔	-12.1681
煖	-12.1681
接之以禮和之以樂期之以事攻之以官	-12.1681
南公曰吾能立使之食引出問曰吾	-12.1681
又試之亦然吏遂得弛	-12.1681
數十萬而已紘因薦	-12.1681
義則淫然而自至	-12.1682
䋲	-12.1682
綦	-12.1682
鄠	-12.1682
寅	-12.1682
芊	-12.1682
天下不患無財患無人以分之	-12.1682
搔	-12.1682
緘	-12.1682
語者否對曰廷掾疑君乃收廷掾	-12.1682
批	-12.1682
莫若樂節樂莫若禮	-12.1682
蹻	-12.1682
逼宣家訪妾宣再從弟思兢	-12.1682
下手之日母恩絶矣	-12.1682
儒者以為害義故不	-12.1682
取斗粟舂之可棄者十纔一二	-12.1682
太子在帝側遂問之對曰夫繼母如母	-12.1682
宗山陵火起油衣中其事正爾主守者遂	-12.1682
宜與殺人同不宜以大逆論	-12.1682
旂	-12.1682
殽	-12.1682
父之故比之於母今繼母無狀手殺其父	-12.1682
退而脩家是故匹夫有善	-12.1682
釆	-12.1682
䳈	-12.1683
以尺寸量短長則	-12.1683
善服氣以物塞鼻則氣結	-12.1683
曰雖不聽而可以得存	-12.1683
伊	-12.1684
夫婦妃匹之合	-12.1684
銘	-12.1684
二口一殺之一活之	-12.1684
悅	-12.1684
為句章令有妻殺夫因放火燒舍	-12.1684
稱火燒夫死夫家疑之	-12.1684
之鄧思賢人名也始傳此術遂名其書	-12.1684
乘之國中而立市東西南北度	-12.1684
九㑹大命焉出常至	-12.1684
五年大夫請受變	-12.1684
則欺誣以取之欺誣不可得則求其罪以	-12.1684
守之而後修勝心焚海内	-12.1684
張希崇鎮邠	-12.1684
曰長婦執爵而致也	-12.1684
漻	-12.1684
目不淫心無他	-12.1684
詮	-12.1684
嫡妻無子其妾有子夫死為妾所逐	-12.1685
材臣不務竭能	-12.1685
杠	-12.1685
緝績徽織	-12.1685
殻	-12.1686
培	-12.1686
徤	-12.1686
計凡付終務本飭末則富	-12.1686
告駙馬崔宣謀反	-12.1686
必有萬鍾之藏藏繦千萬	-12.1686
揑	-12.1686
朔	-12.1686
讁	-12.1686
㐲	-12.1686
同營韓元者具姦狀伏誅	-12.1686
均地分力使民知時	-12.1686
牝	-12.1686
甚也臻以為疑反訊告者乃得其實	-12.1686
疑不勝楚掠而自誣及取	-12.1686
能愛君君必去之公曰諾	-12.1686
􁃛	-12.1686
涇	-12.1686
四鄰諸侯之義仲父不當盡	-12.1687
知和州民有訴弟為人所殺	-12.1687
乙弱各有青赤痕南公	-12.1687
訊之果然蓋南方有櫸	-12.1687
賊所掠者賊即引伏	-12.1687
牓	-12.1688
梁壻復貪鄙畏	-12.1688
唐崔黯鎮湖南有惡少	-12.1688
曰使之使不得不使	-12.1688
檻	-12.1688
熾	-12.1688
箴	-12.1688
蒼	-12.1688
纒	-12.1688
肋	-12.1688
諤	-12.1688
黄金一筴也江陽之珠一筴也秦	-12.1688
肌	-12.1689
方偕大卿為御史臺推直官	-12.1689
十至於私人之門	-12.1689
埤	-12.1689
者君臣之所共立也權	-12.169
臘	-12.169
櫑	-12.169
儔	-12.169
冲	-12.169
岑	-12.169
捨状以探情	-12.169
濬	-12.169
親兒犯三千條悖逆之罪	-12.169
因戾不受訓遣之郭氏夫婦	-12.169
橘	-12.169
難之曰海有風波安知	-12.169
凑	-12.169
垝	-12.169
鉸	-12.169
駑	-12.169
􁁴	-12.169
望君之禄也君有山海之	-12.1691
㪷	-12.1691
呵	-12.1692
秪	-12.1692
籌	-12.1692
燼	-12.1692
使牛主認之因獲其	-12.1692
備具無常無方應也	-12.1692
曰法為天下公朕安得阿親戚詔復議徳	-12.1692
艾若一者從于殺與于殺若一者	-12.1692
之皆殺也乃捕仇家	-12.1692
能存而能亡者蓍龜與龍	-12.1692
號審教施則不險山河	-12.1692
從簾中推出示	-12.1692
梲	-12.1692
糟	-12.1692
美惡賢不肖愚俊之所	-12.1692
翻	-12.1692
四百里而後可田也楚欲吞宋鄭	-12.1693
不聽而可以得存者	-12.1694
索國之富強不可得也	-12.1694
闊	-12.1694
可以危救敵之國	-12.1694
瞿	-12.1694
校尉與無忌罪均臣子於君父不得稱誤	-12.1694
痩	-12.1694
入朝廷觀左右本求朝之臣	-12.1694
奭	-12.1694
戕	-12.1694
沈括内翰說	-12.1694
為上幣黄金為中幣刀布為下幣	-12.1694
翕	-12.1694
親其事者不規其道	-12.1694
􁲕	-12.1694
德也道不可量德不可數	-12.1695
淹	-12.1696
車之㑹六九合諸侯一匡天下	-12.1696
耿	-12.1696
朕	-12.1696
窬	-12.1696
蜜黄門素怨藏吏乃以䑕	-12.1696
刳	-12.1696
國無以大與幸而有功名者	-12.1696
起令乃廢驟令而不行民心乃外	-12.1696
秎	-12.1696
鈶	-12.1696
鍔	-12.1696
不重之結雖固必解道之用也貴其重也	-12.1696
不難奪子而行天下	-12.1696
儗	-12.1696
執玉以見請為關内之侯	-12.1696
始於患者不與其事	-12.1696
日月不明天不易也山	-12.1696
粜	-12.1696
𦕈	-12.1696
權衡之稱者不可欺以輕重	-12.1697
諸侯使者無所致百官有司無所復	-12.1698
唐李傑為河南尹有寡婦告其子不孝	-12.1698
四維不張國乃滅亡	-12.1698
牖	-12.1698
岡	-12.1698
盡召其黨以乳醫示之	-12.1698
而不忘焉可以來矣	-12.1698
裁大者衆之所比也	-12.1698
鉊	-12.1698
鑽	-12.1698
髙下中幣制下上之用	-12.1698
帝之王謹逃其爪牙	-12.1699
迪	-12.17
凉	-12.17
囘	-12.17
驂	-12.17
大男大女食鹽者	-12.17
藻	-12.17
一羊皮各言	-12.17
易知耳乃令破䑕	-12.17
此居於圖西方方外	-12.17
乃能窮天地被四海	-12.17
外見於形容可知於顔	-12.17
嶷	-12.17
愷	-12.17
礪	-12.17
餳	-12.17
詭禁不修不過六日而竊盜者起	-12.1701
其計也速而憂在近者往而勿召也	-12.1701
上服度則六親固	-12.1702
竦	-12.1702
悞	-12.1702
零	-12.1702
敷	-12.1702
儆	-12.1702
民之且所用者君已廩之矣	-12.1702
舡	-12.1702
穎	-12.1702
荻	-12.1704
頂	-12.1704
爲其居危顚莫之救	-12.1704
簑	-12.1704
椁	-12.1704
紳	-12.1704
不可以得安也必曰我	-12.1706
娣	-12.1706
呈	-12.1706
絓	-12.1706
銖	-12.1706
媒	-12.1706
對曰非為君也為先君	-12.1706
螾	-12.1706
貽	-12.1707
杼	-12.1707
􁁜	-12.1707
今滿意在射鳥非有心於中人	-12.1707
其無心於驚馬也故不以	-12.1707
承天議曰獄貴情斷疑則	-12.1707
輿之重加以異	-12.1707
𨼆	-12.1707
㓙	-12.1707
厮	-12.1707
精存自生其外安榮	-12.1708
參曰父由子死若以䘮延是殺父不坐皆	-12.1709
尉男子曹芬兄弟	-12.1709
憊	-12.1709
父救不止恚赴井死參當兄弟重辟衆請	-12.1709
以犀甲一㦸	-12.1709
問霸第六十二	-12.1709
挺	-12.1709
敢就舎憲未布	-12.1709
朐	-12.1709
鷄	-12.1709
䭾	-12.1711
諧輯以悉莫之	-12.1711
專於意一於心耳目端知逺之證	-12.1711
􁜦	-12.1711
倉廩空虚財用不足	-12.1711
絕	-12.1711
國之稱號亦更矣	-12.1711
民之所樂民强民强	-12.1711
裒	-12.1711
弇	-12.1712
牡	-12.1712
􁚫	-12.1712
偹	-12.1713
分而審責於羣臣有司則下不乘上賤不	-12.1713
民産之所有餘不足而存亡之國可知也	-12.1713
屛	-12.1713
褊	-12.1713
姙	-12.1713
甸	-12.1713
能弱齊矣夷吾不受彼知其將反於齊	-12.1713
厠	-12.1715
七十二日而畢睹戊子土行御天子	-12.1715
嘷	-12.1715
國多財則逺者來地辟舉則民留處	-12.1716
浸	-12.1717
行刑重其輕者輕者不	-12.1717
藩	-12.1717
懷繩與准鉤多備規軸減溜大成是唯時	-12.1717
瑶	-12.1717
全心在中不可蔽	-12.1717
與前王比隆	-12.1717
錢若水為同州推官	-12.1718
也李南公李南公尚書	-12.1719
剟	-12.1719
亘	-12.1719
縻	-12.1719
唐司空房玄齡	-12.172
袵	-12.1721
𬞞	-12.1721
賙	-12.1723
兮	-12.1725
長十連為鄉鄉有良人	-12.1725
萬戸爲開口	-12.1725
為里里有司四里為連連	-12.1727
穉	-12.1727
不能野原又多	-12.1727
蓄植果木不若三土以十分之三	-12.1727
褓	-12.1727
揨	-12.1729
芨	-12.1729
聞之悲不自勝奉伯嗟	-12.1731
紊	-12.1731
戻	-12.1731
數披其木毋使	-12.1731
欲廢之則亦惑也	-12.1731
持之甚猛弟婦恐有所傷	-12.1733
仲父不當盡語我昔者有道之	-12.1733
比校民之有道者	-12.1733
可淺可深可浮可	-12.1733
澇	-12.1733
孫在之為人也善言	-12.1735
薺	-12.1736
荆王弟在秦秦不出也	-12.1738
瓉	-12.174
綂	-12.174
汨	-12.1748
腰	-12.175
曰均之死也戮死	-12.1752
悽	-12.1754
不能至扵其所欲至	-12.1785
寒之隂十二大寒終三寒同事六行時節	-12.234
堦	-12.656
因揄刀而劓羙人	-12.657
先誡御者曰王適有言必	-12.6579
丁謂丞相說真宗朝	-12.6585
帽	-12.6589
瞰	-12.6592
此彌侈矣而國之不服者	-12.6595
珧	-12.6595
茵	-12.6595
坡	-12.6598
衂	-12.6598
澣	-12.6601
夜入人家杖背而已	-12.6601
藏庫前文節級妻	-12.6601
瓜瓠葷菜百果	-12.6602
擲	-12.6604
泱	-12.6604
所得限一月納足	-12.6607
叶	-12.6607
問政於師曠曰太師	-12.6607
坦氣脩通凡物開静形生理	-12.6612
裼	-12.6614
伶	-12.6614
土豪殺人而遺其妻金	-12.6614
孰以天下而傳之於匹夫乎堯不聴	-12.6614
廷理斬其輈戮其御	-12.6614
梜	-12.6614
殂却妳子五更初墻頭舁過凶器	-12.6614
部民王乂為賊所刼捕得	-12.6614
岌	-12.6615
司城子罕謂宋君曰慶賞賜	-12.6617
封二子者各萬家之縣一	-12.6617
不能致器者不能利適不能盡	-12.662
心迹同符古人䧟以深刑實傷為善於是	-12.662
咺	-12.662
普天之下莫非王土率土之濵莫非王臣	-12.662
捕盗帥一人脅使條陳諸縣強暴	-12.662
亰	-12.662
認云非妻也遂收豪家鞫	-12.662
醒	-12.662
欄	-12.6623
其愛流漫賢智不盡	-12.6623
呂	-12.6623
講亦悔不講亦悔王	-12.6623
輗	-12.6623
馴	-12.6623
代商人之子侵夜斃	-12.6626
泯	-12.6626
致萬家之縣一於知伯知伯	-12.6626
操兩可之說設無窮之	-12.6626
有夫婦共訟其子不孝者	-12.6626
但行汎愛無所偏親則	-12.6626
見李泰伯主簿所撰	-12.6626
雪宫門夜失行馬	-12.6626
餚	-12.6629
吾欲兩用公仲公叔其可乎	-12.6629
如此兄弟争死江陵令啓刺史博議彖曰	-12.6629
豎	-12.6629
徒然也必精神之比夫事物	-12.6629
元何犿註内儲說	-12.6629
晉曹攄為臨淄令	-12.6629
有寡婦養姑甚謹姑以其	-12.6629
慮公藏主守不謹而寘之私室	-12.6629
為監察御史頻乃坐不即具獄降	-12.6629
謨	-12.6629
謂不然攄曰宫掖禁嚴非外人	-12.6629
磨	-12.6631
先王之治國也不淫意於法之外	-12.6632
必旄象豹胎旄象豹胎必不衣	-12.6632
忍則不可實已所殺胡之	-12.6632
一石榖搗得三斗米	-12.6633
相視而笑無名喜曰得之矣	-12.6633
門非可疑耶乃親劾治具	-12.6633
宣歙間有强盜夜殺一行旅棄	-12.6633
管仲有病桓公往問之曰仲父	-12.6633
㢤	-12.6633
奬	-12.6633
燈下識認暴客迨	-12.6633
送州宗裔引慮	-12.6633
婿	-12.6633
殺寺奴取財去而博者四人	-12.6633
澶	-12.6633
古之聽獄者求所以生之	-12.6633
必是門士以燎寒耳	-12.6633
齊使老儒掘藥於馬梨之山	-12.6633
則不得語神亦不見之也	-12.6636
堙	-12.6636
拽	-12.6636
親老存否農業多少	-12.6636
掠遂伏誅後半年强盜始敗于儀真獄成	-12.6636
窑中即斬以應命囚亦久厭	-12.6636
時袁相國滋亦在幕中	-12.6636
寃更加辯究具得	-12.6636
血汙衣遽驚走邏者因捕送	-12.6636
以他事綰馬生至對	-12.6636
劾已具言有同惡相濟者在某處居	-12.6636
稀	-12.6636
這	-12.6636
邪官不及爲私利於民	-12.6636
或復上得短而下持長其	-12.6636
求寢於門外車箱中許之	-12.6639
外情者俱付法其夫	-12.6639
元何犿註外儲説右	-12.6639
公曰斯乃妻有他姦躓夫於	-12.6639
問何故服罪曰不任捶楚求速死耳居	-12.6639
成形而更名則臨矣	-12.6639
筵	-12.6639
驍	-12.6639
使遺涇原都監向曰此	-12.6639
在陵在岡若在陬陵之陽其左其右	-12.6639
循以邦計貳職權	-12.6639
挟	-12.6639
當應機而動故不可以常智觀	-12.6639
看	-12.6639
不獲詣縣告鷟推	-12.6639
叅軍有捕得殺人者既自誣服良肱獨以	-12.6639
緩其獄後數日果得殺人者	-12.6639
嫂曰不疑因相與大喜吏即擒之	-12.6639
為禮者事通人之樸心	-12.6639
考訊引伏奎獨疑之	-12.6639
見之自念不為主人所納而强求宿	-12.6642
殞	-12.6642
國有十年之蓄而民不足於食	-12.6642
曰火自我出故遺其跡某家者欲自免也	-12.6642
其用據有餘而制不足故民無不累於上	-12.6642
趮	-12.6642
人所忌故或斷之或虚之	-12.6642
問直其寃免死者六人正其尉故入之罪	-12.6642
宼	-12.6642
欲得首結案乃嚴督里胥遍行	-12.6642
獄窮治贓狀已具	-12.6642
踐其血亟走避之尋被追捕繫獄半年不	-12.6642
輒為變此謂先時也更益其亂	-12.6642
謀始受其傭而中道被脅以行卒得免死	-12.6642
尺而傷不及寸白請詳捕果獲真殺人者	-12.6642
廳	-12.6642
可放嫂歸宻令人夜中	-12.6642
收亡國聚散民立社稷主置宗廟令	-12.6642
民蕃息而畜積盛	-12.6642
漢孫寳為京兆尹有賣鐶散者今	-12.6642
牗	-12.6642
酉	-12.6642
今但見質若徃不獲送官	-12.6642
而征己國與敵國皆當知之故徧知千里	-12.6642
存乎選士而士無敵存乎政	-12.6645
三時謂春夏秋此時木方	-12.6645
之得其人以獻渙曰弓手見血衣當自取	-12.6645
儕	-12.6645
遂遣掾就案其事	-12.6645
首以結案也然則追責贓證可不審謹乎	-12.6645
乾白此乃葆澤之地也	-12.6645
其種大苗細苗赨	-12.6645
有形而後知之臣非聖也善承	-12.6645
管仲對曰夷吾聞之聖人先知無形今	-12.6645
錢惟濟留後知綘州民有條桑者	-12.6645
隋韋鼎為光州刺史	-12.6645
以辨之囚意稍開	-12.6645
州條法唯持刃截江無得藏匿	-12.6645
未變者應機未發且當循常而伺之	-12.6645
狠	-12.6645
近代有人因行商回見	-12.6645
於草積下得之人服其智	-12.6645
濕水也左水右馬馮字	-12.6645
乃行至於邑郊鮑叔令車二十	-12.6645
之衆有所征古者諸侯大國有五百里	-12.6645
亾去旦起視之血汙其衣為吏所執不能	-12.6645
以怯至則閉柵戒軍吏不得	-12.6645
以血塗叔因大呼曰	-12.6645
其夜姦者果來問曰刺史	-12.6645
則致死拒我故不可試也	-12.6645
扳	-12.6645
曰子懼乎召忽曰何懼乎吾不蚤死將	-12.6645
沅	-12.6645
私以適重人哉此必不顧	-12.6645
自誣其罪遵察之乃謂吏曰叔為大逆速	-12.6645
舖	-12.6645
贜	-12.6645
跋	-12.6645
鶼	-12.6645
龔	-12.6645
剗	-12.6647
育故明主之務務在行道不顧小物燕爵	-12.6647
内被其利澤殷民舉首而望文王願	-12.6647
道其事若自然失天之道雖立不安其道	-12.6647
相距六千里大人謂天子三公四輔也	-12.6647
停水無源必速竭	-12.6648
卦	-12.6648
雲平而雨不甚無委雲	-12.6648
地在陽時假貸萬	-12.6648
獨以贓仗不獲疑之詰問數四僧	-12.6648
昨日已笞死於市	-12.6648
驁	-12.6648
第二十八制分第二十九君臣上第三十	-12.6648
謂抱蜀者祠器也故曰抱蜀不言而廟堂	-12.6648
之美者也貎美故民歌之	-12.6648
呼他人此必為姦訊之而服他日果得真	-12.6648
堅故不可伐材其伐材必以冬也	-12.6648
主也勞民力奪民財危民死	-12.6648
五沃五物各有異則五沃之狀剽怸	-12.6648
其羣臣明理以佐主故主明主明而國治	-12.6648
冦賊之禍丈夫則走	-12.6648
洫	-12.6648
粟土粟土之次曰五沃五沃之物或赤或	-12.6648
義美故民樂之民之所歌樂者美行	-12.6648
而奔命婦人則備食以	-12.6648
陛下迫促府縣此賊	-12.6648
吻	-12.6648
嘗出錢與焦子文	-12.6648
布耳目察民事而先知	-12.6648
遂於列肆索金鎔	-12.6648
剚	-12.6648
力固不足而食固不贍也哉夫	-12.6648
夣	-12.6648
徯	-12.6648
心欲安静慮欲深逺	-12.6648
自直之箭自圜之木	-12.6648
適凶則市糴釡十繦而道有餓民然則豈	-12.6648
不盛義不尊而好加名	-12.6648
乃命車駕鮑叔御小白	-12.6648
莊遵初為長安令後遷	-12.6648
衛國侏儒有見公者曰臣之夢賤矣公曰	-12.6648
云前生負此人命無可言者	-12.665
食於村店有嫗聞其	-12.665
華陽縣黄夢松覆	-12.665
惢	-12.6651
問之乃以實對於是宻遣吏訪	-12.6651
未出境而無敵者八是以欲正天下財不	-12.6651
此者可謂通靈合契與神	-12.6651
言有西有東各死其	-12.6651
慮管仲曰非婢子之所知也婢子曰公其	-12.6651
喜剗其稅歸之名於公上踰二十年且偽	-12.6651
惟濟引問面給以食而	-12.6651
有餘兵不用且詭而陳之以	-12.6651
瑰	-12.6651
相交接否之謂也何慈之有乎	-12.6651
輕重自在重或前或後不	-12.6651
主㝷蹤而至皆如其言	-12.6651
之萬物之時也強之強之萬物之	-12.6651
也凡國有三制有制人者有	-12.6651
人安在嫗指示其	-12.6651
其所積疾之疾之萬物之師也	-12.6651
則引驢逺過怯也以此知之收下獄有頃	-12.6651
將立之又時設問國家之患以知	-12.6651
悉其聰明致其忠愛	-12.6651
於妻妻食之餘乃留	-12.6651
相其骨肉而已肉者所謂皮相也	-12.6651
顯之處樹立其表使	-12.6651
告一富家有逆謀都城	-12.6651
所在及吏受取請求銖兩之姦皆知之	-12.6651
求百姓之安難兵士之死節不可得也朝	-12.6651
索牛舅曰㹀牛二頭已死	-12.6651
上内不用刑罰而外不事利其産業	-12.6651
乃引思兢於告者之黨	-12.6651
之糶賤狗彘食人食故來	-12.6651
事浮屠法相聚祈禳名白衣㑹	-12.6651
傴	-12.6651
嚴威不能振惠厚不能供聲實有	-12.6651
城郭已治守備已具	-12.6651
夜與數卒服盗服迹盗所	-12.6651
媪媪以為真盗乃稍就與語	-12.6651
往至死人邊若與死人共語	-12.6651
成文理詐為徐敬業反書以告及差使推	-12.6651
摎	-12.6651
摎交入也朋友不能相交	-12.6651
楛	-12.6651
民退其君子上中正而下	-12.6651
治止令具物之名件而去後半年縣獲强	-12.6651
無籍而國利歸於君也夫以室廡籍謂之	-12.6651
疈	-12.6651
籠以守民不能調通民利不可以語制	-12.6651
行處入民家老小皆走獨一媪	-12.6651
謂私候之假令築一堵之	-12.6651
豈可賤少豈可少哉管仲曰然公使我求	-12.6651
迓	-12.6651
適美則市糶無予而狗彘食人食	-12.6651
在井旁不知何人持去獄成	-12.6653
自後射一箭而斃聞者莫不増快	-12.6653
不足湯有七十里之薄而用有餘天非獨	-12.6653
使施於天下故大臣不親小民疾怨天下	-12.6653
能成其貴者以其貴而事賤也賢之所以	-12.6653
藏之無形天之道也疑今者察之古不知	-12.6653
盗媪曰彼聞桑殿直	-12.6653
勃	-12.6654
其國百三十八里而壇服白而絻白搢玉	-12.6655
堕	-12.6655
輕似無物見瘞某處	-12.6655
魁首數人上聞就彼戮之	-12.6655
因耨田得馬蹄金一瓮	-12.6655
貿	-12.6655
易曰君子以明慎用刑而不留獄	-12.6655
決塞通於髙下徐疾之筴坐起之費時也	-12.6655
湯雨菽粟而地非獨	-12.6655
聯	-12.6655
失金銀器四十餘事	-12.6655
客刺我請以聞臺中驚擾思兢	-12.6655
時事而輕地利輕地利而求田野之辟倉	-12.6655
晉曹攄字顔逺為	-12.6655
管仲曰不然也夫國人憎惡糺之母以及	-12.6655
駟歂嗣為政明年乃殺鄧析而用其竹刑	-12.6655
一㑹諸侯令曰非玄帝之命	-12.6655
人聞曰有君如彼其信也可無	-12.6655
倉廩實而囹圄空賢人進而	-12.6655
公令官長期而書伐以	-12.6655
勢者君之輿威者君之策	-12.6655
君故民之戴上如日月親君若父母凡將	-12.6655
囚者衆慶謂可以詐求之乃作匿名書多	-12.6655
國子擿其齒遂入	-12.6655
國有常經則人知終始	-12.6655
攝而問之即自引伏數日間思安亦為人	-12.6655
時有婦人臨汾水浣衣	-12.6655
晳	-12.6655
死人斷手足立寺門	-12.6655
求盜而捕繫平民以希賞	-12.6655
混雜終恐泄露今欲首伏恐不免誅若	-12.6655
為中女坎為中男	-12.6655
瓮間得土二百五十餘塊	-12.6655
至崇笞女巫一百遂釋	-12.6655
還矣某在某處某在某	-12.6655
鉢	-12.6655
馬行人換其靴而去	-12.6655
人主者夢見日奚為見寡人而夢見竈	-12.6655
以示人則人不復行此道	-12.6655
何人曽覔舍人家	-12.6655
則四氣和可知故生物從之	-12.6655
又傳衛士四人問十日以	-12.6655
又欲置公子職商臣作	-12.6655
召我我猶不得入也鮑叔曰管仲得行其	-12.6655
家奴取少年端正者三人布衫籠頭	-12.6655
白鮑叔曰胡不行矣小白曰不可夫管仲	-12.6655
公令劾之更有同黨數十	-12.6656
有䘮轝駐道左男子五人衰服	-12.6656
帝問於伯髙曰吾欲陶天下而以	-12.6656
可得聞乎伯髙對曰上有丹沙者下有	-12.6656
莞而樹之吾謹逃其蚤牙則天下可陶而	-12.6656
厚遺之遂以實告曰我桑殿直也為我察	-12.6656
少師王珣知昭州日有	-12.6656
信賞審罰爵材禄能則強	-12.6656
動靜不記行止無量	-12.6656
勝之心可以焚灼於海内	-12.6656
爲人臣者非有功勞于國也	-12.6656
自一至已下管氏不	-12.6657
數理也國無常經人力必竭	-12.6658
而曰不竭者此非理之言也	-12.6658
事如何亦公之問辭也	-12.6658
噉	-12.6658
塤	-12.6658
已上二事為下有比例	-12.6658
曰耽於女樂不顧國政	-12.6658
面加詰責抽劒令自殺之其父	-12.6658
吾欲優患除害將小能察大為之	-12.6658
懿	-12.6658
詆	-12.6658
雖其所居有東西之異至	-12.6658
非其人尚能用之則明無不用如	-12.6658
内縣董行成能察賊有一人從河陽長店	-12.6658
以左手舉匕筯因語之曰他人行	-12.6658
動作必思之無令人識之卒	-12.6658
者必備之信之者仁也不可欺者智也	-12.6658
虫	-12.6658
即命軍候擒其人破其柩皆實以	-12.6658
按此與髙湝留靴	-12.6658
柯	-12.6658
求百姓之尊主政令不可得也上好詐謀	-12.6658
澤州晉城縣時有富民張氏子其父死未	-12.6658
疑者表而發之其所未解者置之不敢以	-12.6658
知財物庫正一夜須漿水粥	-12.6658
簡選稽考之以知其能	-12.6658
莫測相與詣縣請辨之老父曰業毉	-12.6658
辟之若尊譚未勝其本亡流而下	-12.6658
金上有慈石者下有銅金上	-12.6658
三十之籍吾子食二石月有二十之籍	-12.6658
上引猶君恩下流人心上就也	-12.6658
也正數之户既避其籍則	-12.6658
先王之在天下也民比之神明之	-12.6658
則苗從下生上引一尺	-12.6658
國多失利則臣不盡其忠士不盡其死矣	-12.6658
大賈蓄家之所役屬増其利耳	-12.6658
子文色動應對失節於是	-12.6658
得而稽之如此者人主之位也	-12.6658
捐之手足胼胝面目黧黑	-12.6658
故天子籍於幣諸侯籍於食中	-12.6658
是以官人不官事人不事獨立而	-12.6658
有貴賤令有緩急故物有輕重	-12.6658
服百則天下畏之矣立少而觀多則天下	-12.6658
然而人君不能治故使蓄賈游市	-12.6658
犒	-12.6658
立少謂興亡國雖少天下	-12.6658
者而復之曰有人居我官有功休徳維順	-12.6658
謂欲殺人以致其理然而	-12.6658
軍營士竇禮出不還營以為	-12.6658
不亂今亂是不得行其智	-12.6658
之以法舉而得其人坐而收其福不可勝	-12.6658
云保辜限内死者依殺人論	-12.6658
失盜而捕繫平民以逃責	-12.6658
婢及投化髙麗	-12.6658
書語之雅馴者率多本管子管子天下之	-12.6658
而卒以報於公公使驗其簿	-12.6658
臧獲雖賤不託其足	-12.6658
郤	-12.6658
顊	-12.6658
毫	-12.6658
曰逺葬則汰近葬則	-12.6659
為之其功既成莫知其釋之	-12.6659
咎而已不敢怨及他人至弱子	-12.6659
時眉州大姓孫延世為偽契奪族人田	-12.6659
運使委頻驗治頻曰劵墨浮朱上	-12.6659
于武昌為津吏所遏	-12.6659
舉三世十二䘮故知其詐耳	-12.6659
始去發䘮既除服	-12.6659
必得文威武官習勝	-12.6659
生處死謹賢修伍則衆	-12.6659
緩急之事皆已計定則二者之危無所	-12.6659
難緩急之事皆有可危之理故曰危危	-12.6659
易牙蒸其首子而進之	-12.666
矩繩墨也夫矩不正不可以求方繩不信	-12.6661
晴	-12.6661
罰而勿賞奪而勿予罪獄誅而勿生終	-12.6661
而能成其王者也公曰何謂管子對曰虙	-12.6661
肄	-12.6661
乃是殺一妳子函首葬之以屍易此良家	-12.6661
吏告一家七人以火死	-12.6661
畔	-12.6661
使鬼神以祥使禽獸以力使所謂	-12.6661
已守其謝富商蓄賈不得如故此之謂國	-12.6661
能事重重能制輕然後慈	-12.6661
若似也謂君之材能多似有	-12.6661
金之賞不足謹守五穀	-12.6661
境尤甚有齊衰者哭且獻	-12.6661
引汝同謀何路自	-12.6661
見質而色動遂窮詰	-12.6661
貧兵弱戰則不勝守則不固雖出名器重	-12.6661
世之知管子者殊淺也管子書多古字如	-12.6661
壙空也天之所覆空地謂	-12.6661
外甥㹀牛所生實非	-12.6661
天下從之矣故聚天下之精財論百工之	-12.6661
夫竈一人煬焉則後人無從見矣	-12.6661
子雲叱之曰賊引汝	-12.6661
所惡之國而獨害之則令行禁止是以聖	-12.6661
殺雷震電耀為威	-12.6661
牛肥膌及老而死者皆舉之以知其數也	-12.6661
物不令外知者也言王者用心常	-12.6661
皆鄉之豈獨魯乎今若殺之此鮑叔之友	-12.6661
知輕重審用於心無令	-12.6661
赦後不造法皆不死遂以疑讞之卒免死	-12.6661
長耳目者所得此則天子之禮然也	-12.6661
頓士民病蓄積索田疇荒囷倉虚	-12.6661
不從之妻乃自沐枕枕而寢融曰	-12.6661
之遇事之㑹也若合符然故曰是唯時	-12.6661
乏於食者謂豪富之家收藏其	-12.6661
傅致周内之若不可翻者	-12.6661
凡數財署殺僇以聚財勸勉以	-12.6661
寒之用人君所立以均	-12.6661
延陵卓子乘蒼龍	-12.6661
後數日得真殺人者就辟本州觀察推官	-12.6661
扈	-12.6661
於天下後世者豈徒其功烈哉及讀心術	-12.6661
曰居寺者樂於知事	-12.6661
此居圖方中右中方本圖	-12.6661
當罰者羣臣不敢避也夫賞功誅罪所以	-12.6661
縱盜而捕繫平民以應命	-12.6661
計口授田家族多少足以自給而	-12.6661
饜	-12.6661
受財不詰獄具渾與其僚崔祐甫白奴	-12.6662
之新若此則東西之相被逺近之	-12.6662
之舉大冬任甲兵粮食不給	-12.6662
秋甲兵求繕弓弩求弦謹絲麻之謝物且	-12.6662
雖大而吞聲過發他	-12.6662
也故先王貴之天以時使地以材使人以	-12.6662
事鄰敵不免於死亡之患故曰主功有素	-12.6662
云栁公綽為襄陽節度使	-12.6662
則諸侯服其政鄰敵畏其威雖不用	-12.6662
天使使者臨君之郊請使大夫初飭左右	-12.6662
幣事諸侯諸侯不敢犯也主之所以	-12.6662
桓公曰衡數吾已得聞之矣請問國	-12.6662
法廢而私行則人主孤特而獨立人臣	-12.6662
問管子曰請問權數管子對曰天以時	-12.6662
天下致利除害也草茅弗去則害禾	-12.6662
盜賊弗誅則傷良民夫	-12.6662
縁散民不敢服雜采百工商賈不	-12.6662
貂	-12.6662
也令者所以令人知事也法律政令者	-12.6664
法者所以興功懼暴也律者所以定分止	-12.6664
而往引之而來彼下有立其私議自貴分	-12.6664
起而削亂秦行商君	-12.6664
主倨傲易令錯儀畫制變易風俗詭服殊	-12.6664
大樹深根不可伐大	-12.6664
斗而決其籍齊東出三釡而決其籍然則	-12.6664
者令順民心也使民於不爭之官者使各	-12.6664
者嚴刑罰也開必得之門者信慶賞也不	-12.6664
而不敢壊坐晉國之辭仕	-12.6664
孫沔副樞為趙州司理	-12.6664
澤恩之命甚陋不可徧舉書	-12.6664
西之民飢者得食寒者得衣無本者	-12.6664
飲者十六人適如其數捕	-12.6664
上則擅君之柄下則用人	-12.6664
不遂谿谷報上之水不安於藏内毁室屋	-12.6664
令煩則民詐政擾則民不定	-12.6664
傷田野殘禾稼故君謹守泉金之謝物且	-12.6664
及猶就也就令能用	-12.6664
未解尚十二三用上下文義及叅以經史	-12.6664
目貴明耳貴聰心貴	-12.6664
矣紹興己未乃從人借得之	-12.6664
而非實如此者亦祝去之也	-12.6664
衣幕之奉不給謹守泉布之謝物且	-12.6664
都官歐陽曄知端州有桂陽監民	-12.6664
之號令賞罰地形利害天下莫	-12.6664
令歸屠其牛而鬻之	-12.6664
可亂也故羣臣不敢行其私貴臣不得蔽	-12.6664
太守東莞盧顯為人所殺求賊未得	-12.6664
於慈厚所以示其不忍也	-12.6664
既不能定齊國而又不立小	-12.6664
曄出囚飲食之皆還	-12.6664
有告其私殺牛者拯詰之曰何為割	-12.6664
未能勝其本此位旣不可得自然流而下	-12.6664
臣者不忠而邪以趨爵禄亂俗敗	-12.6664
言毋用佞人也用佞人則私多行毋蓄	-12.6664
証	-12.6664
赤銅上有赭者下有鐵此山之見榮者也	-12.6664
不勝天下不義不勝人故賢知之君必立	-12.6664
不得翦其私羣臣不得辟其所親愛聖君	-12.6664
以靴示之紿曰有乘馬於路被賊	-12.6664
兵器雖成未經課	-12.6664
内然後兵出乎境計未定	-12.6664
刑罰繁而意不恐則令不行矣殺戮衆而	-12.6664
勝地故正天下而莫之敢御也右	-12.6664
堵如故文書則交易之訟者乃止	-12.6664
後獨出獨入莫敢禁圉成功立事必順於	-12.6664
怒以付吏将黥配之仲	-12.6664
成器不課不用不試不	-12.6664
所取則故威不可弛之也	-12.6664
推官有偽造印者吏	-12.6664
掲舉也表謂以木為標有所告示也	-12.6664
收天下之豪傑有天下之駿	-12.6664
於大帥故相之宇下	-12.6664
村患或謀殺之在法當死者四人亮	-12.6664
某歸而知之書于藥法冊後因	-12.6664
皆還相交割文籍在焉	-12.6664
胡童自陳有卒剽刼其衣服於黄堂之側	-12.6664
謂小童衣服尠薄而剽	-12.6664
輕重丁第八十三輕重戊第八十四輕重	-12.6664
非親屬乎一嫗撫膺哭	-12.6664
魏志胡質字文徳為常	-12.6664
黨而成朋如此則主弱而臣	-12.6664
也行私惠而赦有罪則是使民輕上而易	-12.6664
兠子數乘命闗連僧入對	-12.6664
即踐其血汰而仆地	-12.6664
原無象勝之本定獨威勝定計財勝定	-12.6664
又不移前欵楚金憂悶	-12.6664
圂	-12.6664
大夫以朝官吏以命士止于	-12.6664
廷掾耳又問鈐下	-12.6664
悗	-12.6664
明法審數立常備能則治	-12.6664
有鹿門稷者行年七十	-12.6664
朱夀昌中散知閬州	-12.6664
生之養也好惡喜怒哀樂生之變也	-12.6664
積年以來空交分	-12.6664
能矣桓公退再拜之曰夫子數以此言者	-12.6664
行之以重故君必有什倍之利而財之櫎	-12.6664
財物通交有無使人之所求各得其	-12.6664
雖止四刻亦在限外	-12.6664
駒	-12.6664
則鏂二錢也請以令籍人三十泉得以五	-12.6666
損不多慈母便操箠而怒之喻人主過由	-12.6666
一匡天下本仁祖義成其霸業所行權	-12.6666
齊西之人納三斗東之人	-12.6666
其榮者君謹封而祭之距封十里而	-12.6666
臣之所謂哀非樂也桓公曰善於是伐	-12.6666
臣者之大罪也無功勞于國而貴富者其	-12.6666
鈆	-12.6666
不廣於理者其成若神故曰無廣者疑神	-12.6666
山發而出水金從之蚩尤受而制之以為	-12.6666
全勝謂全我而勝彼	-12.6667
之恩縑主乃稱寃不已宣知其狀	-12.6667
倨傲易令錯儀畫制	-12.6667
主命員外郎蕭儼覆之儼齋戒禱神佇雪	-12.6667
傲易風俗而猶有立	-12.6667
故曰私議立則主道卑矣	-12.6667
者謂心也心也者智之舎也故曰	-12.6667
㤙	-12.6667
山之陽九州之民乃知榖食而天下化之	-12.6667
不可得者不彊民以其所惡也不處不可	-12.6667
丹朱慢而不恭故曰敖敖在堯時雖凡下	-12.6667
件	-12.6667
故賢材遂所惡者能除諸民故姦	-12.6667
兄曰澤命不渝而注乃以	-12.6667
冩	-12.6667
勝之器矣公曰攻取之數何如管子對曰	-12.6667
復繆於訓故益使後人疑惑不能究知世	-12.6667
槁	-12.6667
納三釡以賑西之人則東西俱平矣	-12.6667
而注乃謂召忽呼管仲	-12.6667
聖人在上賢人在下位動而履規矩常自	-12.6667
至此時必當有賞頻三為之	-12.6667
不以相及也遂分别具奏	-12.6667
也以天下之心慮則無不知也輻	-12.6667
安曰如有不合太守自當	-12.6667
州天長縣時有訴盗割牛舌者拯宻	-12.6667
帝感悟即報許得出者四百餘家	-12.6667
易猶交也所刑皆當	-12.6667
權伏之所以固供者之意	-12.6667
沔疑其枉而留訊之州將怒然終不敢	-12.6667
爭以為阿附反虜法與同罪	-12.6667
犁	-12.6667
豚	-12.6667
養之數欲有所復除也	-12.6667
地折長補短方數千里名師數十百萬秦	-12.6667
均施以恩故物盡發於善亦	-12.6667
揄	-12.6667
易吏案治其誣乃辨	-12.6667
暁	-12.6667
畏意服心在於順其	-12.6667
皆囊而藏之故有敗亡之禍	-12.6667
不可復行而不可再者有國者之大禁也	-12.6667
不合於天雖滿必涸不合	-12.6667
也無上之名無君之禄不事仕而事力	-12.6667
事之委積可彼此相勝輕	-12.6667
事則偽有餘而實不足也	-12.6667
人死女復訴且請所沒産	-12.6667
人皆得配偶以居其室家	-12.6667
以徳教訓下百姓懐之	-12.6667
何曰三十六爾父在年	-12.6667
依其妻家者八九年	-12.6667
俠客殺告者語了遂侵晨	-12.6667
傭直而嫁其女於他人汝将	-12.6667
先其君以惡者侵其刑而	-12.6667
兒與張三翁顥問張氏子爾年	-12.6667
力則有刑事父母而不盡力則不親受業	-12.6667
勲	-12.6667
北齊任城王湝領并州刺史	-12.6667
后之井以倮獸之火	-12.6667
國家加之於百姓而足以飾官化下者明	-12.6667
天子服文有章而夫人不敢以燕以饗廟	-12.6667
夫城郭之厚薄溝壑之淺深門閭之尊卑	-12.6667
布衫璡驚曰此是外甥	-12.6667
張鷟唐張鷟為河陽尉有	-12.6667
志孫權長子登字髙立	-12.6667
按剽攻之人於法許捕若非名捕者	-12.6667
故大賈蓄家不得豪奪吾民矣然則何君	-12.6667
於事而竣於是乎鄉長退而脩徳進賢	-12.6667
昔者堯之治天下也猶埴	-12.6667
曰盗殺其徒者死當原質	-12.6667
有聞道而好爲郷者一郷之人也	-12.6667
枋羣木數大條直以長其隂則生之楂	-12.6667
某年月日某人抱	-12.6667
梁陸襄為鄱陽内史	-12.6667
此乘天威而動天下之道也故智者役	-12.6667
殺其徒而自首者當原今殺人	-12.6667
水浩浩然盛大魚育育	-12.6667
江隂和曰縣政甚卑	-12.6667
法由是劒南無横死之客	-12.6667
田發草上得其數矣民人所食人有若干	-12.6667
發善必審於密執威必明於中	-12.6667
穽	-12.6667
而遁邏者得之質抵之死轉運使楊告駮	-12.6667
能為民除害而反坐以死豈法意耶乃	-12.6667
著某色衣乘某色馬在城東十里被殺	-12.6667
賫	-12.6667
遷衆使二分具本	-12.6667
隧	-12.6667
食者作摳衣而降旋而	-12.6667
鮑叔乃誓曰事之濟也	-12.6667
黒牛而以布裹其角	-12.6667
王用一隂二陽者霸盡以陽者王以一陽	-12.6669
暴則傷民毋監于	-12.6669
若犯令者罪死不赦然則與折取之逺矣	-12.6669
主之道也故明法曰下情不上通謂之塞	-12.6669
傷也此居於圖西方方外右西方副圖	-12.6669
右九敗期而致使而往百姓舎	-12.6669
治和氣用五數飲於	-12.6669
纏	-12.6669
道者均彼我忘是非故無	-12.6669
言欲正形攝德但能則天	-12.667
譖	-12.667
盼	-12.667
三堯在臧於縣返於連比若是者必從是	-12.667
之内流於心外凝結於體	-12.667
天之所助雖小必大天之所違雖成必敗	-12.667
帝之王童山竭澤有虞之王燒	-12.667
葷	-12.667
􁋂	-12.667
不能守其物亡必不返於連比之	-12.667
吏民少解輙披籍	-12.667
州將反喜謂沔曰	-12.667
府時髙祖鎮鄴莫測其事命衙	-12.667
益州長史韓伯携曰于	-12.667
長安萬年尉石良	-12.667
雖使三堯在臧但懸其物而不散施之	-12.667
后書曰無若丹朱敖	-12.667
攀	-12.667
獄理其無明驗者條上出之府丞掾吏皆	-12.667
謂一時行其賜人則欣頼以	-12.667
酬工匠之庸直常三	-12.667
不可識謂其非謀隠伏意在不測或	-12.667
中得其正而止若能常得中則	-12.667
之行氣似天之布雲也	-12.667
人阻其路塞其遂守而物修故著之簡筴	-12.667
以行野也故雖不行於野其養食馬也未	-12.667
俾與女内實寄之耳夫劒者	-12.667
八分有職卿相之守也七官飾勝備威	-12.667
力不可量彊不可度氣不可極	-12.667
區區者虚也人而無良焉故曰虚也凡堅	-12.667
召陵登熊耳山以望江漢兵車之㑹三而	-12.667
召集葱地左右居人呼令前一一聼之遂	-12.667
四極謂國之四鄙也自官	-12.667
夫任人以事者必擇其可	-12.667
夫施功而不鈞位雖髙	-12.667
家牛舌而又告之其人驚	-12.667
左陽謂善也右隂謂	-12.667
店者立承隱欺數千	-12.667
政所行也遵而勿失故可以王也	-12.667
用曲木又施直木則失其類而	-12.667
磨勘黯言澤與父不通問者三年借非匿	-12.667
羅織事起湖州	-12.667
習而易犯法故曰大害也	-12.667
能調其氣故比於雲意	-12.667
菴	-12.667
處其室囷倉寡而臺榭繁者其藏不足以	-12.667
郝	-12.667
㽜	-12.667
一年正月朔日令大夫來修受命三公	-12.667
不報降監舒州靈	-12.667
不應扁鵲出桓侯又不悦居十日扁鵲	-12.667
不濟也免公子者為上死者為下吾以五	-12.667
也仲尼幾而取之與處乆而	-12.667
事紡績緝縷之所作也此之謂冬之秋故	-12.667
二乃檢咸平年籍二年賀	-12.667
人證其非是而沒之官後	-12.667
以謀殺之則慮有誣枉法所不許也	-12.667
公問自今之後運之合滿何	-12.667
其分而自足君上不能均調其事則豪	-12.667
其足以戰民乎狐子曰不足文公曰吾	-12.667
原死豈法意乎數上	-12.667
及猶預也矯偽也上預下	-12.667
取其貲非自首而捕得	-12.667
君而通妹是謂惡親不畏	-12.667
喝	-12.667
大國之不服者奈何管仲對曰先愛四封	-12.667
奉千金何侯日食一萬	-12.667
妻劉為户詰之曰若五年始生	-12.667
官吏國豪有急難可令	-12.667
彭思永彭思永	-12.667
待制馬宗元少時父麟毆人	-12.667
應死至預聽讞疑火所起召幕工訊之工	-12.667
戒審四時以别息異出入以兩易	-12.667
故事敗而禍生故曰伐矜好	-12.667
於八帝之中神農所存事迹獨少則以不	-12.667
於馬前曰仲父之聖至若此寡人之抵罪	-12.667
明主者兼聽獨斷多其門	-12.667
桓公曰皮幹筋角竹箭羽毛齒革不足	-12.667
此有道乎管子曰惟曲衡之數	-12.667
治隂氣用六數飲於黑后之井以	-12.667
然而人事不及用不足者何也利有所并	-12.667
狃	-12.667
程宣徽知開封府時禁中失火	-12.667
管氏對曰從今之後二十嵗天下安	-12.667
老而子幼乃偽為劵及鄰人死即逐其子	-12.667
者口中無灰活者口中有灰因驗夫口中	-12.667
而無四面兵革之憂今君之事言	-12.667
若因處虚守静人物則皇	-12.667
蓋方春蠶家闕乏而賦與	-12.667
藏財貨專擅其利是故人常費不給	-12.667
言人君若不能權其利門制其輕重	-12.667
還牛更欲何語璡黙然	-12.667
部人王恭戍邊留㹀牛六頭於舅李璡	-12.667
鑄幣而無已乃今使民下相役耳惡能以	-12.667
願以顯其功衆必予之	-12.667
飛過令左右求之見一人操彈佩丸咸以	-12.667
饕	-12.667
者怨之本也唯賢者不然先王事以合交	-12.6672
屬于事無善事而有善治者自古及今未	-12.6672
明主在上位有必治之勢則羣臣不敢	-12.6672
三十一年而藏十一年與少半藏	-12.6672
三千里之外諸侯丗一至	-12.6672
主令不得行而下情不上通人臣之力能	-12.6672
人主操逆人臣操順先王重榮辱榮辱在	-12.6672
人食者謹置公幣焉大家衆小家寡山田	-12.6672
作之後常案行堤有	-12.6672
併歌舞之樂矣請問所始於國將	-12.6672
兼愛之說勝則徐偃	-12.6672
分彊半彊也今使鹽官	-12.6672
則武術必偃雖有險	-12.6672
四者之序發號出令物之輕重相什而相	-12.6672
因聖人之慮矜奮自功而不因衆人之力	-12.6672
壅遏之道也故明法曰令出而留謂之壅	-12.6672
天權之道也桓公曰善吾欲行三權之數	-12.6672
子者故天權失人地之權皆失也故王者	-12.6672
忠日損之而患多者惟欲多忠少欲智也	-12.6672
所以守戰也故雖不守戰其治養民也未	-12.6672
於是桓公曰諾因命以車百	-12.6672
曰然又取偽劵示之弗類壻乃伏罪	-12.6672
此居於圖北方方外右北方	-12.6672
法而趨有勢如此則慤愿之人失其職而	-12.6672
漑	-12.6672
與富民有仇誣以歲殺人十二祭磨駞神	-12.6672
藏慈厚行薄純坦氣修通凡物開	-12.6672
道莫如利之利之之道莫如	-12.6672
防可治者章而上之都都以春少事作之	-12.6672
餘食若干必得䡄程此調之泰䡄也然	-12.6672
侍郎郎簡知竇州有掾吏死子	-12.6673
寗	-12.6673
明為己者必利不為己者必	-12.6673
士自脩則同心同力善者之	-12.6673
死地故士自脩以求生也	-12.6673
邱	-12.6673
圃而隨文學者邑之半	-12.6673
實賢謂之不肖實不肖謂	-12.6673
耽	-12.6673
口之習也手之指也終不	-12.6673
國者君之車也勢者君之馬也	-12.6673
摭	-12.6673
色如此者性之敏惠故可以德義告諭也	-12.6673
周于仲文字次武為趙王屬安固	-12.6673
安到郡不入府先	-12.6673
尊之一與其事必無轉移	-12.6673
為國者必當稱本而動也	-12.6673
輒有成能立聖人之功謂稱其	-12.6673
長者也人之自失也以其所長者也故善	-12.6673
五我酬之六他處直九我	-12.6673
動威戰勝而守固是以一戰而正諸侯不	-12.6673
定數如此則天下精材可致也	-12.6673
寧復惜之傑曰審如	-12.6673
民失士此四者用所以害君義失正也夫	-12.6673
異國之人所謂非我族類者也今	-12.6673
社有邑焉名之曰央亦	-12.6673
編棧者先附曲木其	-12.6673
而天下化之殷人之王立帛牢服牛馬以	-12.6673
貴其價故他處直	-12.6673
送案問悉獲其黨	-12.6673
客罷以疾告是夜暴卒	-12.6673
密賢人之守也五紀不解庶人之守也	-12.6673
明而善人舉姦偽誅視聽者衆也	-12.6673
殤	-12.6673
法法第十六兵法第十七	-12.6673
狀白之津乃下教曰有人	-12.6673
禅	-12.6673
至明店人趂正等拔刀血甚狼	-12.6673
衆矣人主好佚欲亡其身失其國者殆其	-12.6673
諭被盗者悉裁其贓	-12.6673
謂授諸生之官而任之以	-12.6673
㑹諸侯令曰立四義而無議者尚之	-12.6673
一再則宥三則不赦凡孝悌忠信賢良	-12.6673
三人於三國所以附大侯	-12.6673
不坐毆殺之罪而坐毆傷之罪法無	-12.6673
不當其官此三本者治亂之原也故國有	-12.6673
丸比之不類遂釋之	-12.6673
之以輕民不足則重之故人君散之以重	-12.6673
之吏失其治故明法曰官之失其治	-12.6673
之所謂哀非樂也臣聞之古者之言樂於	-12.6673
也仲父亦將何以詔寡人管仲對曰	-12.6673
五頭餘並還恭	-12.6673
兵餘杭人薄道舉為刼	-12.6673
其楚各自欵服崇疑之乃遣二人偽從外	-12.6673
其深及冠從右方	-12.6673
動力而土地自辟囷倉自實蓄積自多甲	-12.6673
卑耳即齊語所謂辟耳	-12.6673
取與之必因於時也時則動不時	-12.6673
各主異位毋使讒人亂普而	-12.6673
唐杜亞字次公鎮維	-12.6673
嗔	-12.6673
地之職自然齊一而保國也	-12.6673
堂上寛故播散而灑室	-12.6673
壅遏之患亂主則不然法令不得至於民	-12.6673
夫如是則始可以施政矣君曰諾乃	-12.6673
如葦大長以美其細者如雚如蒸欲有與	-12.6673
孝以之起事則不成故曰怠倦者不及也	-12.6673
寡人敢不從乎管仲攝衣冠起對曰臣	-12.6673
對不伏從者請捶之登不	-12.6673
小男小女也按古之石准今之三	-12.6673
年名卿請事二年大夫通吉凶七年重適	-12.6673
弱之應八存亡之數九練之以散群傰署	-12.6673
得大封而辯於西方得后土而辯於北方	-12.6673
復于里尉里尉以復于州長州長以計于	-12.6673
惑上衆彊富貴私勇者能以其威犯法侵	-12.6673
所止此則臣侵上事也	-12.6673
攝其廣又百嵗之後天	-12.6673
故曰靜乃自得道在天地之	-12.6673
敵則不俱平故人君御	-12.6673
於民之所有餘夫民有餘則輕之故人君	-12.6673
春以奉耕夏以奉芸耒耜械器	-12.6673
服殊無取焉則民反其身不	-12.6673
根治諸縫人已誣服乃送府具獄琳	-12.6673
欲理荒人無得苛虐但使盡	-12.6673
此其可誅之時必不得失之	-12.6673
法則止民以法與吏相距下以法與上從	-12.6673
淫暴不用上令者有則以	-12.6673
濟曰爾自有令何至此也其人垂泣不	-12.6673
物之秩相勝而操事於其不平之	-12.6673
皆過誤不當獨死由是無忌與校尉皆免	-12.6673
箕以舌自當置帚於	-12.6673
絤夜石之幣天下無有管子曰以守國	-12.6673
綧	-12.6673
罪雖重下無怨氣私之所加賞雖多士不	-12.6673
臛	-12.6673
至善之爲兵也非地是求也罰人是君	-12.6673
舉事而不時力雖盡其功	-12.6673
處且言後宫人多而居隘其烓竈近	-12.6673
詣官訴妻妻拒而不承舉	-12.6673
議事則獄中告者輒知	-12.6673
足以戰民乎狐子對曰	-12.6673
足於其人若干則置公幣焉以滿其准重	-12.6673
陕	-12.6673
集男女三百餘人就中喚	-12.6673
􁂝	-12.6673
水成數六水氣行君	-12.6675
量之不以少多稱之不以輕重度之不以	-12.6675
惡不服而天下化之夏人之王外鑿二十	-12.6675
社稷之無危不可得也上恃龜筮好用巫	-12.6675
非愛主也以畏主之威勢也百姓之	-12.6675
一千視之謂曰今官所鑄不五六年	-12.6675
上則臣制於主夫蔽主者非塞其門守其	-12.6675
不敢欺亂主則不然聽無術數斷事不以	-12.6675
作大雨各葆其所可治者趣治以徒	-12.6675
八分有職卿相之守也十官飾勝備威	-12.6675
其鹽之重每一斗加	-12.6675
具民無願者願其畢	-12.6675
刼人因以告之使者到州以	-12.6675
十五輕重丁第八十三管子輕重十六	-12.6675
弱之應八存亡之數九練之以散羣傰署	-12.6675
忘其事夕失其功中情信誠則名譽美矣	-12.6675
本圖旗物尚赤兵尚㦸刑則燒交疆郊必	-12.6675
桓公曰寡人欲西朝天子而賀獻不足	-12.6675
此天下之極也曰然則得人之	-12.6675
此謂備之常時禍何從來所以然者獨水	-12.6675
順也三老里有司伍長者所以	-12.6675
䍧	-12.6676
南至琅邪司馬曰亦先王之	-12.6676
於主則威民信其法則親是故明王審法	-12.6677
贓物即云散鬻於市無從追究赴法之日	-12.6677
村民相逢擊落	-12.6677
陳矯魏陳矯為魏郡	-12.6677
三江鑿五湖道四涇之水以	-12.6677
愠	-12.6677
婦堅執如初時道士	-12.6677
察彼國圖則不失地利也	-12.6677
思兢詐客佐史誣裴	-12.6677
次還須曲木求其類	-12.6677
王質母原馬亮悉貸	-12.6677
之故或失守或閉塞	-12.6677
前妻女欲奪財物乃誣	-12.6677
士聞識謂多聞廣識君守	-12.6677
大臣得罪勿出封外是為漏情	-12.6677
慶賞則民輕難量民力則事無不成不彊	-12.6677
於是收捕并絹俱獲	-12.6677
於時必失失則廢而不濟失植之正而不	-12.6677
既未審察輒有距而許	-12.6677
此謂五害五害之屬水最	-12.6677
死不以理遂付有司案治	-12.6677
民利而天下化之周人之王循六	-12.6677
法堅故此等莫能亂也	-12.6677
管子對曰五而六之九而十之不可	-12.6677
粢	-12.6677
而已矣公曰其行義奈何管子對曰天子	-12.6677
而順事治國患解大臣之任也不言於	-12.6677
變隨化也淵泉而不盡微約而流施是以	-12.6677
道也袪衣示前有水也右袪衣示從右方	-12.6677
酬之十常令貴其一	-12.6677
一家其夫婦即時死有一子	-12.6677
不得欺其主嫉妬之人不得用其賊心讒	-12.6677
不成而禍患至故曰訾讆之人勿與任大	-12.6677
不正名分不原情理	-12.6677
乃走出至門公召管仲管仲反公汗出	-12.6677
之人不得施其巧千里之外不敢擅	-12.6677
之地也方一里九夫之田也	-12.6677
之害也張耜當弩銚耨當劒㦸	-12.6677
之條故不勞自舉度也	-12.6677
也審其所好惡則其長短可知也觀其交	-12.6677
也知道之不可行則沈抑以辟罰	-12.6677
于仇人之門而訴之仇	-12.6677
五行第四十一短語十五一者	-12.6677
以察君也必是人者知吾謀也	-12.6677
以王者當樂推之運應天人之正	-12.6677
以示之明刑罰以致之故曰頓卒	-12.6677
以誘之明乃首服具列支黨	-12.6677
何也曰滋味也聲色也然後	-12.6677
使人君行逆不修道誅殺不以理重賦斂	-12.6677
倍主位而嚮私交	-12.6677
僧既不知形狀各模不同公怒	-12.6677
先傅直木直木又求直木直木	-12.6677
共語即記之明日復爾	-12.6677
其去人也亦用人吾不仕矣管子	-12.6677
其夫已死哭不哀而懼是以知	-12.6677
其衣服厚設酒食歡	-12.6677
冬政落重則雨雹行秋政水十二小郢至	-12.6677
凡民者莫不惡罰而畏罪是以人君嚴	-12.6677
制度官都復自有常	-12.6677
則其賢不肖可察也二者不失則民	-12.6677
動威動威乃可以戰勝而守固故曰	-12.6677
北齊彭城王浟為滄州刺史有	-12.6677
卒五千人以楚丘封衞桓公曰寡人	-12.6677
厚往輕報所以服小侯	-12.6677
去城十里為賊所刼時有使者馳騎而至	-12.6677
叄	-12.6677
口相對即知其言莒	-12.6677
可得而誅政成國安以守則固以戰則	-12.6677
吾君卜世謂僖公之子小白等	-12.6677
唐韓思彦使并州有賊殺人主名不立醉	-12.6677
器則國治不肖之君不能勝六攻而立三	-12.6677
國蓄第七十三管子輕重六	-12.6677
地而予之非吾所欲也不予而與戰必不	-12.6677
墨所濺使脫視之乃墨塗也	-12.6677
士卒坐陳者里有書社	-12.6677
天威不違顔咫尺小白承天子之命而毋	-12.6677
好學而辭遜請使㳺於魯	-12.6677
宅居者發地藏錢兄之子訴曰父所藏也	-12.6677
寡人之國也伐鄰國也子無事焉宋已取	-12.6677
封表以示之問知是何物也	-12.6677
將與楚人戰彼衆我寡為之奈何	-12.6677
小得福大取焉則大得福盡行之而天下	-12.6677
尺者萬泉八寸者八千七寸者七千珪中	-12.6677
崇孝寺有僧名可嵩	-12.6677
已倦楚毒其情易見	-12.6677
布則民之所欲無不得矣夫民必得其	-12.6677
弟代公道生並大功親	-12.6677
我將勉力而求霸也	-12.6677
挌	-12.6677
放而吏乃謬書士姓欲擬訖	-12.6677
故何也管仲曰國必有聖人桓公曰然夫	-12.6677
日乃死州司以其家財産依	-12.6677
是人君非發號令收穡而	-12.6677
是以長者斷之短者續之滿者洫之	-12.6677
是故身在草茅之中而無	-12.6677
曰叔向師曠之對皆偏辭也	-12.6677
曰某家父母死時其子尚在財産乃子物	-12.6677
曰調者三萬人無士姓者此	-12.6677
本而仁義其要也今工以巧矣而民不	-12.6677
枯河上髙山寤而思	-12.6677
桓公自莒反于齊使鮑叔牙	-12.6677
民釋實事而誦虚詞	-12.6677
法度者主之所以制天下而禁姦	-12.6677
潭州屬縣有亡命卒剽攻為鄉	-12.6677
灑水將掃之故執	-12.6677
牆閉謂築牆有所遮閉雖通路	-12.6677
牾	-12.6677
獄非錢令不可治問大姓得火所發牀足	-12.6677
王社稷定君不霸王社稷不定公曰吾不	-12.6677
甘露寺主僧訴交	-12.6677
畜人徒有數舟車陳器有禁	-12.6677
略無所聞而宣家每	-12.6677
疥	-12.6677
發朝鮮之文皮一筴也汝漢水之右衢	-12.6677
百姓治治亂在主而已矣故曰主身者正	-12.6677
相而天地治神明至蚩尤明乎天道故使	-12.6677
碈	-12.6677
礙不通也人心有疑君不	-12.6677
礝	-12.6677
神農封泰山禪云云炎帝封泰山禪云云	-12.6677
禺氏邊山之玉一筴也此謂以寡	-12.6677
筍	-12.6677
管子對曰此隱情也桓公曰然則吾何以	-12.6677
管氏言此乃古之陳設致財之道	-12.6677
給大雨堤防可衣者衣之	-12.6677
罰則賢聖無從竭能行貨財而得爵禄則	-12.6677
羣臣朋黨則狗變為虎	-12.6677
者操轡也故曰造父之術非馭也奚仲之	-12.6677
者自親行其四惡則近者叛之故知予之	-12.6677
而有四面兵革之憂此	-12.6677
而與人徒使豪富侵	-12.6677
興師伐魯造於長勺魯莊公興師逆之大	-12.6677
舎故下伺察而懐疑	-12.6677
莒字兩口故二君開	-12.6677
藏而不藏霧氣陽陽	-12.6677
蘆	-12.6677
西方方外右西方本圖旗物尚白兵尚	-12.6677
覆軍敗將之事然則射御勇力之士不厚	-12.6677
親之天下信之此國君之信公曰善請問	-12.6677
親也貴也貨也色也巧佞也玩好也三	-12.6677
設法者自著擇人量功	-12.6677
訾讆之人得用則人主之明蔽而	-12.6677
訾賢者之謂訾推譽不肖之謂讆	-12.6677
謂其事業最可以益人者遂	-12.6677
謂生簒殺之心若草木之生榮	-12.6677
謹敬則尊顯附矣中無情實則名聲惡矣	-12.6677
譽之言起任之大事則	-12.6677
蹷	-12.6677
車不結轍士不旋踵	-12.6677
邑實朝廷閒而官府治公法行而私曲止	-12.6677
雖有賢身貴體毋其爵不敢服其服雖有	-12.6677
非故明法曰有法度之制者不可巧以詐	-12.6677
騷	-12.6677
高獨謂媪色有寃不可不為理也乃隂察	-12.6677
𥜗	-12.6677
二十三地數第七十七揆度第七十八國	-12.6678
胡質集隣髙柔察色	-12.6678
一家之人耳言無廣逺	-12.6678
雖聞道但好理家此但	-12.6678
下魯梁何行而可管子對曰魯梁之民俗	-12.6678
令左右服之民從而服之公因令齊勿敢	-12.6678
以夷儀封邢車五百	-12.6678
侍讀賈黯判流内銓時益州推官	-12.6678
八觀第十三法禁第十四重令第十五	-12.6678
四者人之髙行也髙行在身雖有小過不	-12.6678
官四分則可以立威行德制法儀出號令	-12.6678
所謂大山者山之髙者也雖有小隈不以	-12.6678
故衆理相當上下相親巧者奚仲之所以	-12.6678
欲見天心明以風雨故曰風雨無違逺近	-12.6678
直因恚而狂罕為直其事盡以家貲與之	-12.6678
知沂州永縣兩仇	-12.6678
翫	-12.6678
藏薄純行篤厚坦氣修通凡物開	-12.6678
陽氣用七數飲於赤后之井以毛獸之火	-12.6678
不治奚待於天下天下者國之本也國者	-12.6678
乃爾父未居前數十年所鑄何也其人遂	-12.6678
之人謀郭周外通則姦遁踰越者作里域	-12.6678
之本也人者身之本也身者治之本也故	-12.6678
也今每戰輿死扶傷如孤	-12.6678
也如是則不肖者在上位矣然則賢者不	-12.6678
以冬日順三老里有司伍長以冬賞罰使	-12.6678
功臣世家遷封食邑積餘藏羨跱蓄之家	-12.6678
取土於中秋夏取土於外濁水入之不能	-12.6678
在側競稱於義上下	-12.6678
壤自塞而行者江河之謂也	-12.6678
好全生則羣臣皆全其生而生又	-12.6678
守不固則敵國制之矣然則先王將若之	-12.6678
實雖不言曰吾親民而民親矣莅民如仇	-12.6678
平賈萬也金之平賈萬也吾有伏金千斤	-12.6678
恥不立人君無以自守也	-12.6678
我以無能其敗必覆軍殺將故曰兼愛之	-12.6678
括筆談云江南人好訟有一書名鄧思賢	-12.6678
時守也君不守以筴則民且守於上此國	-12.6678
曰凡一年之中十二月作土功有時則	-12.6678
曰部五部命之曰聚聚者有市無市則民	-12.6678
果木過十年漸就	-12.6678
死其家遂誣告之臻問所傷果致命耶吏	-12.6678
河北提刑時有班行犯罪下獄案之不服	-12.6678
海王第七十二國蓄第七十三	-12.6678
父之語寡人畢矣然則寡人何事乎哉亟	-12.6678
玉貨財必欲得其所好然則必有以易之	-12.6678
矣故曰唯夜行者獨有之	-12.6678
矣桓公問於管子曰隂山之馬具駕者千	-12.6678
積漸積微使主迷惑而不自知也上則相	-12.6678
積餘藏羨跱蓄之家	-12.6678
舟之都大身之都有深淵壘十仞令曰能	-12.6678
進不肖者不敢受官亂主則不然聽言而	-12.6678
雖召之而民不來也故曰召逺者使無	-12.6678
􁷒	-12.6678
山之上命曰復吕其草魚膓與蕕其木乃	-12.668
下外出於四海之外合絡天地以	-12.668
亂則國危故上明則下敬政平則人安士	-12.668
出入異塗或有所傷也有	-12.668
父今彼鴻鵠有時而南有時而北有時而	-12.668
瞑	-12.668
若後者而乃先今以威武命之去之逺矣	-12.668
刑政險人甚傷勞而上舉事不時公輕其	-12.668
惡食之人憂嫌致瘠故	-12.668
有能以民之財力上陷其主而可以	-12.668
誕者耳不足賴信也	-12.668
中猶合也不合三政者	-12.668
北伐孤竹還存燕公兵車之	-12.668
問紬線胎心用何物一云杏核一云瓦子	-12.668
王珣辨印尹洙檢籍	-12.668
致力於民而足以修義從令者忠臣也上	-12.668
任城示靴楊津獲絹	-12.668
允濟聴葱彭城書菜	-12.668
則民富令順民心則威令行使民各	-12.668
可正而視言察美惡審别良	-12.668
可長丈餘中心且空一	-12.668
外宻令擒之一問承伏曰某與寡婦有私	-12.668
官旣有年矣則舉其功過	-12.668
欲除之乃杖殺道士及	-12.668
猿猱飲焉故曰伐矜好	-12.668
考察之如此則皆反其行矣	-12.668
者或遲重滯凝久而不	-12.668
至一宅封鎻甚宻	-12.668
謂一道士曰事了矣俄	-12.668
雜故政治不悔定而履言處其位行其路	-12.668
一切陷入無敢以情恕者	-12.668
下令於流水之原使民於不爭之官	-12.668
之寡人無行女安聞之吾聞之先人諸侯	-12.668
之西桓公南面而立管仲北鄉對之大	-12.668
也物至矣以多少之恩配大	-12.668
云兒年十五以此付之其後又不	-12.668
五官行事異日公告管仲曰欲以諸侯之	-12.668
以介蟲之火爨藏恭敬行搏銳坦氣	-12.668
其庶人好飲食而惡耕農於是財用匱而	-12.668
其柩而祔于父法當死寀獨曰子	-12.668
其母曰以酖殺人上天何祐母	-12.668
出之如是者三因問兒出亦有問	-12.668
則國必富位必尊能適衣服去玩好以奉	-12.668
則羣臣畏敬法政獨出於主則天下服	-12.668
加于尊位功力未見於國者則不可授	-12.668
十倍而不足或五分而有餘者通於輕重	-12.668
取財者比請之得减死	-12.668
可以不完郭周不可以外通里域不可以	-12.668
地第三十九四時第四十五行第四十一	-12.668
坦坦謂平平非有	-12.668
少我則合衆聚小以	-12.668
微之中曰動姦姦動則變	-12.668
思彦疑之晨集童兒	-12.668
慿	-12.668
所不晤依賢以問之故其	-12.668
所死者非罪所起者非功也然則	-12.668
攻彊大之國如此者可以圖王	-12.668
於南意北而至于北茍大意得不以小缺	-12.668
日中無影時八月中取	-12.668
明戡疑之或謂無足疑戡曰殺人而自置	-12.668
時魏州冠氏縣華村僧	-12.668
曰汝非以彼所分財少乎皆曰然即命各	-12.668
有投書誹謗者太祖	-12.668
有父卒而母嫁後聞母死已葬乃	-12.668
有過則反之於身有善則歸之於民有過	-12.668
桓公曰卒伍定矣事已	-12.668
正故其所與為多礙而不通也	-12.668
此者三可當師之一至敵國	-12.668
涖	-12.668
添	-12.668
湖州别駕蘓無名	-12.668
滿室遂劾其矯妄之	-12.668
為廷尉乃曰吾聞老人之子不耐寒	-12.668
無所與此國筴之者也國用相靡而足相	-12.668
燕代之間有三男共娶一女	-12.668
爲人臣者重私而輕公矣	-12.668
猳	-12.668
眊	-12.668
碍	-12.668
禁之而止故堯之治也善明法禁之令而	-12.668
而位卑者謂之過徳薄而位尊者謂之失	-12.668
能順而考之或使之莅衆以立風化	-12.668
自理於上前更十餘斷不服齊賢曰	-12.668
與正籍者皆以幣還於金吾至四萬此一	-12.668
藏百鍾富商蓄賈藏五十鍾内可以	-12.668
處亦當絶之凡此守地者所	-12.668
衆以某孤立不狎	-12.668
言故行年六十而老吃也管子	-12.668
論上下之所貴賤者而彊弱之國可知也	-12.668
車器也方圜曲直皆中	-12.668
軾	-12.668
道之所言者一也而用之者異	-12.668
鄭子産聞婦人哭使人執而問之果手刃	-12.668
鍾之國也故粟十鍾而	-12.668
除人害者幾何矣制地君曰理國之道地	-12.668
雍狐之㦸芮戈是	-12.668
鬱濁謂穢塞不潔清者也困滯謂	-12.668
魏國淵字子尼為魏郡太守	-12.668
鵝	-12.668
下以為天子羞遂下拜登受賞服大路龍	-12.668
不可欺也審於法禁而不可犯也察於分	-12.668
不賦於民財用足也魯梁之君聞之則	-12.668
之所使也故軒冕立於朝爵禄不隨臣	-12.668
之理以事其主矣故曰君不君則臣不臣	-12.668
之致盡理無可宥江陵雖遇赦恩	-12.668
也乾隆四十六年九月恭校上	-12.668
也民乃知時日之蚤晏日月	-12.668
也躬曰周道如砥其直如矢君子不逆詐	-12.668
二人食者此齊力而功地田筴相	-12.668
二年之粟顧之立黔落力重與天下調彼	-12.668
人心不同其猶面焉令	-12.668
人父而不明父子之義以	-12.668
仁者不入名且惡之况乃人事故殺傷呪	-12.668
仇覽為蒲亭長	-12.668
以仁之慈惠以愛之端政象不敢以先人	-12.668
以易之者何也大官尊位不然則尊爵重	-12.668
以棘刺之端為母猴	-12.668
作虧衣冠惰則臣下輕之故曰衣冠不正	-12.668
俟死無辭廷尉以	-12.668
先王不約束不結紐約束則	-12.668
六十八乗馬數第六十九問乗馬第七十	-12.668
兵則以賜貧甿若此則菹菜鹹鹵斥澤山	-12.668
册	-12.668
凶而民飢也辟之以號令引之以徐疾施	-12.668
出國司徒令命順民之功力以養五	-12.668
出於他水溝流於大水及海者命曰川水	-12.668
則民踈之道之不厚遇之無實詐	-12.668
則爵服不可不貴也爵服加	-12.668
功名可成也故民必知權然	-12.668
功名立矣故曰權不可不度也故曰五經	-12.668
問刑論有常以行不可改也今其事之	-12.668
地利所在管子對曰山上有赭者其下有	-12.668
大常察乎地利故使	-12.668
天下必待以生故先王重之一日不食比	-12.668
天子許之曰諾號令於天下天下諸侯載	-12.668
子致胙於桓公而不受天下諸侯稱順焉	-12.668
子與之定其劵契之齒釡鏂之數不得	-12.668
官四分則可以立威行徳制法儀出號令	-12.668
山之下必於廣川之上	-12.668
巧伎勇力不為愛重	-12.668
巧文以利不好立大義而好立小信䝉孫	-12.668
巧於辭不好立大義而好結小信可	-12.668
彭生其得免乎禍理屬	-12.668
得大常而察於地利得奢龍而辯於東方	-12.668
徙其家令甲家入乙	-12.668
徳則民合和合故䏻習習故䏻偕	-12.668
慎觀終始審察事理	-12.668
慜	-12.668
戎凡此七者義之體也夫民必知義然	-12.668
故聖王之牧民也不在其	-12.668
於衛誘動之令歸於齊也	-12.668
是魯梁釋其農事而作綈矣桓公曰諾即	-12.668
暴王殘之僇其罪卑其列維	-12.668
曰吾國者衢處之國饋食之都虎狼之所	-12.668
曰吾所寄幣於子者若干	-12.668
有四秋而分有四時故曰農事且作請以	-12.668
有女幼孤而冒賀氏産	-12.668
有定州流人解思安背役亡歸其兄慶	-12.668
有禮彼欲勇我勇之人謂我恭彼欲利我	-12.668
止閭閈無闔外内交通則男女無别宫垣	-12.668
死如歸臣不如王子城父請立為大司馬	-12.668
死者何也唯無得之堯舜禹湯文武孝己	-12.668
殺常因是生故有内亂也	-12.668
法試課成功守法而法之身無煩勞而分	-12.668
湩然擊鼓士忿怒鎗然擊金士帥然筴桐	-12.668
無能之士上通邪枉之臣專國主明蔽而	-12.668
爲棺可以爲車斤斧得入焉	-12.668
獄折中不殺不辜不誣無	-12.668
獨言石璧兼以彤弓者猶藏其機	-12.668
發草此之謂籍於號令管子曰滕魯之粟	-12.668
百吏皆失其端則煩亂以亡其國家矣髙	-12.668
禽獸聚麀然人殺禽獸無罪則戮之可也	-12.668
絶名貫乃認城外死屍詐稱是弟為	-12.668
綈十三月而管子令人之魯梁魯梁	-12.668
經言五凡立國都非於	-12.668
而不芸百草皆存民以僅存不芸之害也	-12.668
脩小禮行小義飾小廉謹小恥禁微邪	-12.668
舊宗立無後則民殖矣	-12.668
苛暴今先得贓物後訊其辭若不勝	-12.668
若夫黄覇戮三男王尊殺假子	-12.668
莅民如父母則民親愛之道之純厚遇之	-12.668
萬金賈四千則是十金四萬也二十金者	-12.668
蓮與蘪蕪藁本白芷其澤則多魚牧則	-12.668
謂僖公之命使立子糺	-12.668
貴而不過度則臣道也右大數地者政之	-12.668
蹶	-12.668
遇以生君子避之是亦傷人故吏者所以	-12.668
重罪入以兵甲犀脅二㦸輕罪入蘭盾鞈	-12.668
雨將作五榖以削士民零落不穫之害也	-12.668
餼生食廪米粟之屬	-12.668
鳥獸得之形體肥大羽毛	-12.668
黄金一斤直食八石	-12.668
死人斷手足立於寺門	-12.6681
也故有事事也毋事亦事也吾畏事不欲	-12.6681
使三年而代服桓公問於管子曰吾	-12.6681
宗裔卷紬髙防校布	-12.6681
王即將其士卒願以下齊齊未亡一錢幣	-12.6681
能上廣澤遇雨十人之力不可得而恃夫	-12.6681
蔣常覘嫗思彦集兒	-12.6681
之流潤澤均加于萬物故曰聖人	-12.6681
堦徐問嫗雖言語雜亂然時有可采者乃	-12.6681
多而不理固不得有至於山諸侯之國則	-12.6681
技管子曰詩者所以記物也時者所以記	-12.6681
數盡於此乎管子對曰未也昔狄諸侯	-12.6681
服文繡衣裳者伊尹以薄之游女工文繡	-12.6681
訴事言無倫理從騎	-12.6681
豫致此五家之國准也輕重甲第八十	-12.6681
一家事制也事成而制器方六里	-12.6681
一宿之盡也無金則用其絹季絹三十三	-12.6681
不止故曰上下不和令乃不行言辭信動	-12.6681
之救也外内皆失孤特而無黨故國弱而	-12.6681
也故明主在上位則官不得枉法吏不得	-12.6681
人之大失也大失在身雖有小善不得	-12.6681
使固桓公曰然則何以守時管子對曰夫	-12.6681
先故之臣謂祖考時舊臣也今	-12.6681
八其蔽二十白徒三十人奉車兩器制也	-12.6681
其下有銅金此山之見榮者也	-12.6681
其莫不受命焉也所以貴風雨者	-12.6681
凡牧民者欲民之正也欲民之正則	-12.6681
制之地載萬物而養之四時生長萬物而	-12.6681
則主尊顯故曰銜令者君之尊也人主	-12.6681
則二金中八千也然則一農之事終	-12.6681
功曹曰此郡少學問者	-12.6681
十日而服之管子告魯梁之賈人曰子	-12.6681
千滕魯之粟四流而歸我若下深谷者非	-12.6681
口不食者百餘日獄吏不敢拷訊	-12.6681
君而不明君臣之義以正其臣則臣不知	-12.6681
固其武臣宣用其力聖人在前貞	-12.6681
壽夭貧富無徒歸也	-12.6681
外淫于馳騁田獵内縱于美色淫聲下乃	-12.6681
天植者心也天植正則不私近親不孽	-12.6681
子之養不足號令賦於天下則不信諸侯	-12.6681
子對曰粟賈平四十則金賈四千粟賈	-12.6681
定三君之居處矣今又將何行管子對曰	-12.6681
彤弓朱弓也非齊之所出	-12.6681
彼積勞之人不務盡力則兵士不戰矣豪	-12.6681
忠誠收聚而賙恤之令其大	-12.6681
我致綈千匹賜子金三百斤什至而金三	-12.6681
故曰市者可以知治亂可以知多寡而不	-12.6681
故有道則民歸之無道則民去之故曰道	-12.6681
數也然而人不事者非心惡利也權不能	-12.6681
明名章實則士死節	-12.6681
有人不治奚待於家有家不治奚待於	-12.6681
武是也桓公問於管子曰吾欲守國財而	-12.6681
武王以巨橋之粟二什倍而市繒帛軍五	-12.6681
殺僇必信民畏而懼武威既	-12.6681
民之所懸命也故明主之治也當於法者	-12.6681
民銜之法令之合於民心如符節之相得	-12.6681
江淮之間有一茅而三脊	-12.6681
流而之天下天下財物流而之齊故國八	-12.6681
淫辭毋作淫巧若民有淫行邪性樹	-12.6681
焉明主之使逺者來而近者親也	-12.6681
爵列之尊卑則知先後之序貴賤之義矣	-12.6681
相兼者諸侯十二故天下之君頓㦸	-12.6681
知福州時閩人欲報仇或先食野葛而後	-12.6681
私議自貴則民退靜隱伏窟穴就山非世	-12.6681
管子曰天下有兵則積藏之粟足以備其	-12.6681
者賜千金未能用金千齊民之	-12.6681
聖人之慮用衆人之力而不自與焉故事	-12.6681
聞之於徐伯曰昔者有道之君敬其山川	-12.6681
萬物尊天而貴風雨所以尊天者	-12.6681
規避徭役者五十年數犯法至徒流	-12.6681
言曰吾親民民不親也故曰親近者言無	-12.6681
誅之故以法誅罪則民就死而不怨以法	-12.6681
賢所謂平原者下澤也雖有小封不得	-12.6681
農人佚樂而粟得十全	-12.6681
都邑制也邑成而制事四聚	-12.6681
金故狄諸侯十鍾而不得倳㦸程諸侯五	-12.6681
金程諸侯山諸侯之國也故粟五釡而	-12.6681
非其民如此者滅主之道也故明法曰令	-12.6681
齊有渠展之鹽燕有遼東之煑此	-12.6681
亶	-12.6683
也春出原農事之不本者謂之	-12.6683
薰	-12.6683
唐張鷟字文成為河陽	-12.6683
從樂而不反者謂之荒先王有	-12.6683
元何犿註外儲說左	-12.6683
必侵其北離枝侵其北代必歸於齊公	-12.6683
故百姓隨而聚之供其所須而利之	-12.6683
或罰而殺之或賞而生之皆不違	-12.6683
雖知之常曰何知雖謀之	-12.6683
䕃	-12.6683
君而後行所謂以神道設	-12.6683
嚢	-12.6683
專擅自發此命將進之宗廟告	-12.6683
曹黨起而亂賊作矣令	-12.6683
本管子對曰齊國百姓公之本也人甚憂	-12.6683
民惡危墜我存安之民惡滅絶我生育之	-12.6683
陵侯相廷掾憚䊸嚴明欲損其威乃晨取	-12.6683
雖時有適潛黙周	-12.6683
候人謂謁候之來入國者候人	-12.6683
入國或伺我虚實覘我動	-12.6683
制有常則民不散而上合竭情以納其忠	-12.6683
司馬子反渇而求飲	-12.6683
必令百官識非公之惠而不敢受	-12.6683
有時而衰盈者有時而息故因	-12.6683
生於勞身是故主上用財毋	-12.6683
蜂蠆有毒故必計其所窮知	-12.6683
選衆使二分具本	-12.6683
錯不倫處非其第據此則劉向	-12.6683
也子反受而飲之子反	-12.6683
公法廢而私曲行倉	-12.6683
分財不均者更相訴訟又因入	-12.6683
子令顙之作聲如傀儡子粗能辨其一二	-12.6683
常禮退朝常鼎饋而	-12.6683
擡	-12.6683
故人皆反於朴素今	-12.6683
曰民知義矣而未知禮然	-12.6683
正直而還山集谷曲則曲矣而名繩焉以	-12.6683
此謂殺事立而壞何也兵	-12.6683
無異議者則尚之于天子	-12.6683
無障谷無貯粟無易樹子無以妾	-12.6683
略舉之故其詳不盡也	-12.6683
穗	-12.6683
葛源郎中為吉水令時	-12.6683
虚而囹圄實賢人退而姦民進其君子上	-12.6683
貧民耳時都虞候姓韓者則	-12.6683
郭崇韜之僚壻也與	-12.6683
霸王夷吾在此桓公曰善王言第二十一	-12.6683
黔	-12.6683
一道路博出入審閭閈	-12.6683
上引下以供御下引上以恩	-12.6683
不恃外權坦坦之利不以功坦坦之備不	-12.6683
不行不可復錯國於不傾之地者授有	-12.6683
不革之類故取喻焉	-12.6683
之而發其冡剖棺視之寳	-12.6683
九十二日天子北出九十二里而壇服	-12.6683
也君朝令而夕求具民肆其財物與其五	-12.6683
亦可行求於今然利散	-12.6683
何曰三千餘貫公曰給者既知納者不記	-12.6683
信安始而可對曰始於	-12.6683
君不能變亦外革而内	-12.6683
宣妻曰須絹三百疋	-12.6683
州時有狂嫗數邀	-12.6683
左秋殺於右夏長於前冬藏於後生長之	-12.6683
張保雍張保雍刑部為湖北轉運	-12.6683
得之哭而不哀者所葬非人也廵	-12.6683
故人反背之而賊害也	-12.6683
故曰胡得而治動自沮平已下公問之辭	-12.6683
於是乎五屬大夫退而脩屬屬退而脩連	-12.6683
有隱欺乃捜其積蓄有妻	-12.6683
楊正等三人投店宿五更早發	-12.6683
沫	-12.6683
瑣	-12.6683
用為将時有盗官物者	-12.6683
疑之差御史蔣常覆推	-12.6683
瘡	-12.6683
確	-12.6683
絰出赴北邙即踵以報果見諸	-12.6683
縣縣令江某郎中取	-12.6683
者其何如而可管仲對曰夷吾之所聞能	-12.6683
而御之以准故貴賤可調而君得其利	-12.6683
自書所訴不能書者吏受之	-12.6683
藏菜此之謂豫戒桓公曰	-12.6683
調福州長溪尉縣媪二子漁於海而	-12.6683
請論百官公曰諾管仲曰升降揖讓進退	-12.6683
豆有柄長尺則立而進	-12.6683
踴	-12.6683
輕重無數物發而應之聞聲而	-12.6683
鎮荆州時南郡江陵縣	-12.6683
長目二曰飛耳三曰樹明明知千里之外	-12.6683
食弟子乃徹趨走進	-12.6683
馬有識道之性不違馬而自	-12.6683
一物塞汝鼻汝能終不食乎其人懼即食	-12.6683
不水死乎雖果為仇所殺若不得	-12.6683
不為鄉里所容乃自髠鉗依佛教	-12.6683
且阨曰某榖不登曰某榖豐	-12.6683
之勿使赴於溝澮之中若此則士	-12.6683
之在心所謂夜行者心行也能心行	-12.6683
之所生不若其所聚桓公曰弓弩多匡䡔	-12.6683
之智思慮者無不知也以衆人之力起事	-12.6683
之趙既流移載為人子何得不	-12.6683
之道也故明法曰專授則失凡	-12.6683
也夫民不心服體從則不可以禮義之文	-12.6683
也夫生殺之柄專在大臣而主不危者未	-12.6683
也有如此者皆以法度加之不	-12.6683
事之不成國之不利也使無貴者則民不	-12.6683
事畢登來事未起方冬無	-12.6683
五榖者民之司命也刀幣者溝瀆也號令	-12.6683
交接於上者也故租籍君之所	-12.6683
人子之道以事其父矣故曰父不父	-12.6683
伏法高端明殿學士襄之弟也	-12.6683
伯伍也其受息之萌八百餘家	-12.6683
兄仕江南為法官嘗有子毁父畫像為	-12.6683
兄與我齊國之政謂使知政	-12.6683
公又問焉曰於子之鄉有拳勇股肱之力	-12.6683
兵吾欲輕重罪而移之於甲兵公曰為之	-12.6683
其境也欲魯梁人速知之	-12.6683
其腕而去都人喧駭公謂非其夫之仇不	-12.6683
其行法度者但往行而進不却來	-12.6683
其道故曰古今一也蛟龍水蟲之神者也	-12.6683
再什以上衡山之民釋其本	-12.6683
冝死者生冝蟄者鳴	-12.6683
凡在趣耕而不耕民以不令不耕之害也	-12.6683
則上令輕法制毁權重之人不論	-12.6683
十倍山田以君寄幣振其不贍未淫	-12.6683
十家而連五連而暴五暴而長命之曰某	-12.6683
十鍾一農之事乃中二金之財耳故粟重	-12.6683
千乗之國者器之制也五者其理可知也	-12.6683
去而勿引來而勿推	-12.6683
取之石五十天下聞之載粟而之齊齊	-12.6683
可御也欲民之可御則法不可不審法者	-12.6683
可聞乎管子對曰何謂至數桓公曰秦奢	-12.6683
名而督實按實而定名名實相生反相	-12.6683
君知己也故臣莫敢不竭力俱操其誠以	-12.6683
命再劾之乃因客散	-12.6683
唐裴均鎮襄陽日里俗妻有外情乃託	-12.6683
四十則鍾四百也十鍾四千也二十鍾者	-12.6683
外之有徒禍乃始牙衆之所忿寡不能	-12.6683
大臣私之非以治其國也故屬數雖衆不	-12.6683
天下也小匡第二十内言三	-12.6683
天下政治也此正天下之道也管子	-12.6683
夫國城大而田野淺狹者	-12.6683
寡謂其妻餼廪言給其	-12.6683
尚或可拒今以詛	-12.6683
就地利故城郭不必中規矩道路不必中	-12.6683
常科當奉而行之此不	-12.6683
式璧而聘之菹澤之民聞之越	-12.6683
弩無匡䡔者此何故也以其家習其所也	-12.6683
彼鹽則令吾國鹽官又出而	-12.6683
待風而動待雨而濡也若使萬物釋天	-12.6683
得天與人先王不以勇猛	-12.6683
得民則威立失民則威廢蛟龍待得水而	-12.6683
必勝而守可以必固非以并兼攘奪也以	-12.6683
快意如此遣騎詰其夫果	-12.6683
恃其多力拉殺魯君	-12.6683
惔	-12.6683
慱	-12.6683
故先王度用其重而因之珠玉	-12.6683
故存國家定社稷在卒謀之	-12.6683
於是管仲與桓公盟誓為令曰老弱勿刑	-12.6683
族人為遺書令悉以財	-12.6683
明謀而適勝通德而天下定	-12.6683
曰吾田野辟農夫必有百倍之利矣是	-12.6683
曰行事奈何管子對曰請以令隱三川立	-12.6683
有法者以法行無法者以類舉	-12.6683
服以出戰諸侯賔服以行仁義管子曰一	-12.6683
朝不合衆治之至也人情不二故民情可	-12.6683
木蕃滋數大條直以長其澤則多魚牧則	-12.6683
本節用適足以使其民榖盡而不能理	-12.6683
歿	-12.6683
殊無取焉則動皆違道	-12.6683
毋籍衣於民以巨橋之粟二什倍而衡	-12.6683
民貧則難治也奚以知其然也民富則安	-12.6683
沱	-12.6683
河濟之流南輸梁趙宋	-12.6683
法制予人則必有亂亡之禍如此者亡	-12.6683
洹	-12.6683
為審刑院詳議官	-12.6683
煑鹽然鹽之賈必四什倍君以四什之賈	-12.6683
牛羊其地其樊俱	-12.6683
牧貧病視獨老窮而無子者靡得相鬻而	-12.6683
獄上請讞皆以不見傷為疑適曰殺人以	-12.6683
用衆貴詳審故若時	-12.6683
甲而莫之敢有君舉事臣不敢誣其所不	-12.6683
當十錢者吾又加五錢而	-12.6683
疾之欲知其主淵請留其書	-12.6683
益輕而威利日衰侵暴之道也故曰三經	-12.6683
矣故知三准同筴者能	-12.6683
移於州獄俾郡主簿鞫之自韓已下凡	-12.6683
立其神人主待得民而	-12.6683
籍其人使富貧財力相兼	-12.6683
終身無籍於民准衡之數也	-12.6683
罟得入焉五而當一命之曰地均以實數	-12.6683
翦公財以祿私士	-12.6683
者剥其皮横置膚上以火熨之則如棓傷	-12.6683
者與受業因令作牋比方其書有似謗	-12.6683
而不宣露其書多引二京賦淵乃	-12.6683
而用財飲食有量衣服有制宫室有度六	-12.6683
而當一地之無草木者百而當一樊棘雜	-12.6683
而矯悖也為下而勝逆也國家有悖逆反	-12.6683
而立子糺不改其所奉更有所	-12.6683
而食者代人入役因得察君今	-12.6683
能中鵾雞鵠䳈彼十鈞之弩不得	-12.6683
臣意之也桓公曰子奚以意之東郭郵曰	-12.6683
至善之為兵也非地是求也罰人是君也	-12.6683
莫不闇化矣誠暢乎天地通於神明見姦	-12.6683
萌者衍處負海煑	-12.6683
處上斷福漁獵之萌也治葛縷而	-12.6683
行禮故黨多交親也	-12.6683
衍頓㦸一譟而靡幣之用日去千金之積	-12.6683
衡有數乎管子對曰衡無數也衡者使物	-12.6683
衺	-12.6683
裏當色白今表裏如一偽也訊之	-12.6683
覆二俱不得故不和同也	-12.6683
親所訟者疑其法未能决	-12.6683
訓成俗而刑罰省數也	-12.6683
謀而適勝通徳而天下定定宗廟育男女	-12.6683
貴散則輕聚則重人君知其然故視國之	-12.6683
賤人之所以亡其卑也故曰賤有以亡卑	-12.6683
輪軸下采杼栗田獵而	-12.6683
通於可不利害之理循發	-12.6683
邊山此度去周七千八百里其涂逺其至	-12.6683
醵	-12.6683
里外耳然令云凡流徙者同籍近親欲相	-12.6683
重而粟輕兩者不衡立故善者重粟之賈	-12.6683
金躬曰法令有故誤章	-12.6683
鎮江南有舟人傭載	-12.6683
非但疾怨又非上輕賤爵	-12.6683
非於死之日而後有名也其前行多修	-12.6683
韟	-12.6683
順欲穫失時無所收	-12.6683
馳而東反報曰東方之萌帶山負海	-12.6683
驚謂耀威示武能驚敵使懼	-12.6683
髙下之筴不得不然之理也桓公曰	-12.6683
宻問守門者曰誰載藁	-12.6684
皟	-12.6684
發善必審於宻執威必眀於中	-12.6685
遂南北之大意不以曲飛小缺	-12.6685
體無禮者謂之莠命而	-12.6685
地封者也故山地者山也水地者澤也薪	-12.6685
沈括顙喉南公塞鼻	-12.6685
減矣桓公問於管子曰吾欲富本而豐五	-12.6685
百升加什耗而釡千君伐菹薪煑泲水	-12.6685
訊其僧僧乃首伏	-12.6685
革不籍吾民何以待鄰國癸乙曰唯好心	-12.6685
七十六斤十二兩十九銖二纍	-12.6685
七銖一黍十分之一	-12.6685
下欲小利則霸諸侯也	-12.6685
乃因是夕罷歸騎及門而墜死隣證	-12.6685
之朝禮千人之長必拜而送之降	-12.6685
之躬對章應罰金帝曰章矯詔殺人何謂	-12.6685
九㑹之後威行海内雖居	-12.6685
九月種麥日至而穫	-12.6685
九百家隰朋馳而北反報曰北方	-12.6685
于百姓則萬民懟怨逺其	-12.6685
倉在今廣平郡曲周縣也	-12.6685
兩報重尚書奏章矯制罪當腰斬帝以躬	-12.6685
其威立而令行也其所以能立威行令者	-12.6685
其智能進其長技故智者	-12.6685
其涂逺而至難故先王各用於其重珠玉	-12.6685
其計能者進其功以前言督後事所	-12.6685
力而儉則富夫物莫虚至必有以也故曰	-12.6685
升當米六合四勺也百升之	-12.6685
南方之萌者山居谷處登降之萌也上	-12.6685
可取為證尹不能對遂伏罪	-12.6685
合於民情則民受其辭民受其辭則名聲	-12.6685
吞	-12.6685
國之所以富貧者五輕稅租薄賦	-12.6685
執務明本則士不偷	-12.6685
多故曰譕臣者可與逺舉聖人擇可言而	-12.6685
天下不知三准之同筴者不能	-12.6685
天下且天下者處兹行兹若此而天下可	-12.6685
威衆禄賞不足以勸民若此則民毋	-12.6685
安天下之危者也夫救禍安危者必待萬	-12.6685
官職政治子婦不失其常則長幼理而親	-12.6685
家足其所者不從聖人故奪然後予髙然	-12.6685
尊天而貴風雨矣今人君之所尊安者	-12.6685
度之制故羣臣皆出於方正之治而不敢	-12.6685
弓弩無匡䡔者	-12.6685
弩多匡䡔者其故何也管子對曰鵝鶩之	-12.6685
待制孫甫為華州推官日州倉粟惡吏當	-12.6685
徐疾贏不足雖在下也不	-12.6685
愼號審章則其攻不待	-12.6685
所言者一也而用之者異聞道而以治一	-12.6685
掲示之乃房陵商人道	-12.6685
曰昔者癸度居人之國必四面望於天下	-12.6685
曰若田百頃户鈔豈特收此乎始為劵時	-12.6685
棅	-12.6685
殷得巨橋粟欲使糴貴	-12.6685
民不得入焉百而當一藪鎌	-12.6685
無方則愚者智攻不守則拙者巧數也動	-12.6685
然則内之不知國之治亂外之不知諸侯	-12.6685
牧民者使士無邪行女無淫事士無邪行	-12.6685
王知其然故見予之所不見奪之理故五	-12.6685
畢上故萬物長秋者隂氣始下故萬物	-12.6685
盗母柩納於父墓豈	-12.6685
盡應則功利不盡舉功利不盡舉則國貧	-12.6685
者斤刀也故曰奚仲之巧非	-12.6685
而恣羣臣威嚴已廢權勢已奪令不得出	-12.6685
而欲舉與大國爭者農夫寒耕暑	-12.6685
耕而十一年食夫富能奪貧能予乃可以	-12.6685
耘力歸於上女勤於纎微而織歸於府者	-12.6685
聖人之智不用其力而任衆人之力故以	-12.6685
能理也四流而歸於天下若是則紀氏其	-12.6685
與天下齊准彼物輕則見泄重則見射此	-12.6685
行事期年而上無闕者前無趨人三月解	-12.6685
行夏政則閹十二地氣發戒春事十二小	-12.6685
衡山之君告其相曰天下爭吾械器令其	-12.6685
衡言易政利民也毋犯其凶言中正以蓄	-12.6685
起居時飲食節寒暑適則身利而	-12.6685
重租小家菲葬其親者服小租巨家美	-12.6685
鈞則金傾故治權則勢重治道則勢羸今	-12.6685
長責人故其令廢而責不塞故曰墜岸三	-12.6685
順其兄弟正其習俗使民樂其上安其土	-12.6685
馬女而吝愛於粟米貨財也厚藉	-12.6685
於家將得善本而卒業焉	-12.6686
撿	-12.6686
於人無荒亡之行於身桓公退再拜命曰	-12.6686
企	-12.6686
年成都三年五倍其初言大王雖有衆	-12.6686
王亶父為狄所攻乃去	-12.6686
義也名也時也似也類也比也	-12.6686
賤且寡好為迂大凡	-12.6686
人能正靜者筋肕而骨	-12.6686
名者所以命事也時者名有所當也似	-12.6686
戊	-12.6686
也栁慶後周栁慶	-12.6686
侯不使非時出師故令曰若	-12.6686
宙合廣積善以通天上	-12.6686
時毋得有一日之師役一日尚不可況	-12.6686
生全則萬方輻湊生盡則鴻毛不振故曰	-12.6686
之以輕重守之以髙下若此則民疾作而	-12.6686
之用者衆也小國之君所以卑者何也曰	-12.6686
乍退者凡此皆災敗	-12.6686
使重之唯有能與上交必定邊	-12.6686
去者或發動而有所毁傷者	-12.6686
必有良臣賢佐然後事	-12.6686
惡則行自全不從枉則邪事不生右四維	-12.6686
於亂夫五帝三王所以成功立名顯於後	-12.6686
梯而後能若不因梯直欲踰之則不能踰	-12.6686
罰必行無妄求免罪也	-12.6686
謂成國之法也為國者反民性然	-12.6686
靜者也夫盜賊不勝邪亂不止	-12.6686
八㑹諸侯令曰立四義而毋議者尚之	-12.6686
制皆不然矣凡此書之解乃有數篇版法	-12.6686
守其職而不亂故葆統而好終深而迹言	-12.6686
焉莠命者謂穢亂	-12.6686
無私也是以官無私論士無私議民無私	-12.6686
而無義者殘不謹於附近而欲來	-12.6686
謂處官也處官位而四	-12.6686
不可夫本富而財物衆不能守則	-12.6686
不閉外内交通則男女之别毋自正矣	-12.6686
也三敗殺君二重臣定社稷者吾此皆以	-12.6686
亡國之起毁國之族則兵	-12.6686
兵也此之謂三官有三令而兵法治也五	-12.6686
内翰云世人以竹木牙骨之	-12.6686
再拜頓首曰孤之聞二子之言也耳加	-12.6686
凶也惡稔易誅吉也	-12.6686
則授官不可不審也授官不審則民	-12.6686
吏民賢不肖及姦邪罪名	-12.6686
君子知善惡必報繩繩戒	-12.6686
唱則擊也小則小和大則大和故曰	-12.6686
國者天子之國也桀無天下憂飾婦女鍾	-12.6686
在市者三十人其正月十二月	-12.6686
夫日侵而産怨此失君之所愼也凡	-12.6686
季珪鷄豆張舉猪灰	-12.6686
從利焉其入國遇冦	-12.6686
所謂八經者何曰上下有義貴賤有分長	-12.6686
木連狗取聲為義即國家也言易	-12.6686
歛手有王忠者被	-12.6686
正月之朝五屬大夫復事於公	-12.6686
流水此其後宋伐杞狄伐邢衛桓公不救	-12.6686
界十嵗更制經正也	-12.6686
禝	-12.6686
立夏曰月程秋曰大稽與民數得亡三嵗	-12.6686
近也用師之道我動而	-12.6686
闓	-12.6686
一再則宥三則不赦	-12.6686
一士毋頓一㦸而辟方都二	-12.6686
七十里男五十里若胷臂之相使也故	-12.6686
三寛宥而後斷罪三宥	-12.6686
三年名卿請事二年大夫通吉凶	-12.6686
下管氏但舉其目或有數	-12.6686
不喜不怒可謂和也故能	-12.6686
不為不可成不求不可得不處不可	-12.6686
不知器也不知任不知器不可謂之有道	-12.6686
不知姓名若有家人可速收	-12.6686
且夫令出雖自上而論可與不可者	-12.6686
中匡第十九小匡第二十王言第二十一	-12.6686
之分然後能制是故治國有器富國有事	-12.6686
之輔也民智而君愚下富而君貧下貧而	-12.6686
之重去分謂農夫曰幣之在子者以	-12.6686
也人主之所以使下盡力而親上者必	-12.6686
也夫天下者使之不使用之不用故善	-12.6686
也毋邇其求言上之敗常貪於金	-12.6686
也管子對曰昔萊人善染練茈之於萊純	-12.6686
也鞫得其實疑不見傷此盖不知無法者	-12.6686
事反此有道乎管子對曰惟反之以號令	-12.6686
仁者善用智者善用非其人則	-12.6686
今寡人欲北舉事孤竹離枝恐越人之至	-12.6686
以指揑之曰乙真而甲偽	-12.6686
以時鈞脩焉使刻鏤文采毋敢造於	-12.6686
以義愛非天屬黄之所恨意不在呉原死	-12.6686
以類舉之義耳欲决大獄	-12.6686
以養親戚恭敬忠信以事君上中正比	-12.6686
任平而往福則自歸也	-12.6686
伐材用毋於三時羣材乃植而造器定冬	-12.6686
何時矣曰二十年矣即遣吏取錢十	-12.6686
使士不兼官故技長使人不同功故莫爭	-12.6686
使賔胥無馳而南隰朋馳而北	-12.6686
便知是盗但未知葬處今清明拜掃計	-12.6686
修小禮行小義飾小	-12.6686
傾縣死其所君守大奉一謂之國簿管子	-12.6686
元篇亡今以司馬遷封	-12.6686
先於親戚法重於民威權貴於爵禄故不	-12.6686
公親問焉曰於子之鄉有居處為義好學	-12.6686
内不親於民公曰諾政未能有行也	-12.6686
則令廢告狂惑之人則身害故曰與不可	-12.6686
則海内被其澤澤布於天下後世享其功	-12.6686
則過慮不得不知不得不知則	-12.6686
十而當一流水網罟得入焉五	-12.6686
千視之謂借宅者曰今	-12.6686
南齊袁彖為廬陵王	-12.6686
友幾於不親見愛之交幾於不結見施之	-12.6686
反者髙祖命一御史往案之謂曰李靖反	-12.6686
古義彼俗吏者豈	-12.6686
可以無庶乎君之憂我至於此此之謂反	-12.6686
可掩故先以恩意令悉改也	-12.6686
可殺趙當何以處載父子祖孫互相殘戮	-12.6686
合于國奉者皆置而劵之以	-12.6686
名卑而國虧社稷滅覆身體危殆非生於	-12.6686
名實當則治不當則亂名生於實實生於	-12.6686
君服青色味酸味聴角聲	-12.6686
君道立然後下從下從故	-12.6686
四子之行定夷吾請號令謂四子曰子皆	-12.6686
國亡而身無所處故可以益愈而不足以	-12.6686
國親則舉當矣人故相憎也人之心悍故	-12.6686
夕調而已利有足則行不滿則有止王者	-12.6686
天后許之無名戒吏卒於東北門伺察有	-12.6686
天怒令重案行岌奏如初則天曰崔宣反	-12.6686
天氣以積陽成德故通陽氣然後能事	-12.6686
子之春事資子之幣春秋子穀大登國	-12.6686
子齊大夫聞君之將行故告中	-12.6686
孥	-12.6686
官甲輙賂吏使掠服之	-12.6686
官皆當奉器械備曰國無幣以榖准幣國	-12.6686
定公未始於人而始於兵外不親於諸侯	-12.6686
家族使相連以事相及以	-12.6686
寢諸子諸侯諸子之居中寢者	-12.6686
實便可處分御史知其誣	-12.6686
少時謁郡僚有争	-12.6686
就有辟就則殺不辜而赦有罪殺不辜而	-12.6686
居不時飲食不節寒暑不適則形體累而	-12.6686
嶮	-12.6686
廷尉七人侯者三人二千石侍中郎將者	-12.6686
御史正監平者甚衆積善之慶不其盛歟	-12.6686
忠也者民懷之嚴也者民畏之禮也者	-12.6686
思於濬故能知未始	-12.6686
憂之有難則死之主視民如土則民不	-12.6686
我君視四方稱貸之	-12.6686
所偏故姦詐之人不能誤也故明法曰有	-12.6686
所許趙雖内愧終身稱亦沉痛	-12.6686
所謂靡不有初鮮克有	-12.6686
救彼不臣則構怨矣故曰亂自此始	-12.6686
敬上畏罪敬上畏罪則易治也民貧則危	-12.6686
於不竭之府者養桑麻育六畜也下令於	-12.6686
於事為誤誤者其文則輕帝曰	-12.6686
於愛民公曰愛民之道奈何管子對曰公	-12.6686
於象而欲論材審用猶絶長以	-12.6686
明山之曽青一筴也	-12.6686
昔者天子中立地方千里四言者該焉何	-12.6686
昔者桓公問管仲曰寡人請問度地形而	-12.6686
時無失筴萬物興豐無失利逺占得失以	-12.6686
晝熱夜寒交易其	-12.6686
曰善桓公曰諾乃誡大將曰百人之長必	-12.6686
曹署著其名以司之	-12.6686
有市無市則民不乏矣方六里名之曰	-12.6686
服有海内以富誠信仁義之士故民髙辭	-12.6686
期於泰舟之野期軍士桓公乃即壇而立	-12.6686
本事去無用然後民可使	-12.6686
東郭之狗喻易牙言其人殘忍同於狗矣	-12.6686
櫎市准曰上無幣有	-12.6686
櫟	-12.6686
權與明必勝則慈者勇	-12.6686
欲國之無貧兵之無弱安可得哉桓公曰	-12.6686
此有道乎管子對曰君請遏原流大夫立	-12.6686
殺僇必信民畏而懼武威旣明令不再行	-12.6686
殺母以大逆論帝疑之武帝時年十二	-12.6686
毁天尊佛像可以比也兄甚竒之	-12.6686
民不附父母暴而無恩則子婦不親臣下	-12.6686
決瓁洛之水通之杭莊之間	-12.6686
治治禮道也萬物待治禮而	-12.6686
法天刑不可委曲生意帝稱善遷躬廷尉	-12.6686
法數則事簡故身不勞	-12.6686
浩滿三之於乃請以令使九月種麥日至	-12.6686
海不辭水故能成其大山不辭土	-12.6686
無失義易守禍福凶吉不相亂此謂君㨀	-12.6686
無後則繼絶世故人殖殖生也	-12.6686
無盡言謂不忠諫襄公通	-12.6686
焫	-12.6686
爲上幣黃金爲中幣刀布爲下幣	-12.6686
物曲則影曲聲惡	-12.6686
獄吏髙其枷尾遂不得言	-12.6686
甚重重籍於民而貴市之皮幹筋角非	-12.6686
田以時撫於主上坐長加十也女貢織帛	-12.6686
田者封畛既泯質劑且亡未能斷	-12.6686
白之子當千金凡貢制中二齊之	-12.6686
皆以數行桓公曰何謂以數行管子對曰	-12.6686
益長雖貧賤卑辱不	-12.6686
眀刑之猶至於無刑也	-12.6686
着	-12.6686
知永興軍時大姓范偉冐武功令祚為祖	-12.6686
短語六管子曰身不善之患毋	-12.6686
福無恃貴以招禍	-12.6686
稅籍曲直可判郡	-12.6686
竟之士脩百姓無圉敵之心故曰寢兵之	-12.6686
紛紛乎若亂絲遺遺乎若有	-12.6686
縁髙出險蝚蝯之所長而人之所短也	-12.6686
繆過以惛則憂憂則所以伎苛	-12.6686
義有七體七體者何曰孝悌慈	-12.6686
者此常利之所以不舉事之所以困者也	-12.6686
者無不成也能自去而因天下之智力	-12.6686
者隂氣畢下故萬物藏故春夏生長秋冬	-12.6686
而應榖國器皆資無藉於民此有虞之筴	-12.6686
而更有所仰動釋雨而更有所仰濡則無	-12.6686
而用必贍身必安矣能移無益之事無	-12.6686
而退而人以此自得行於世也	-12.6686
能執靜道將自定得道之人理丞而屯泄	-12.6686
至一新冡設奠哭而不哀既徹奠又	-12.6686
荔	-12.6686
薜	-12.6686
藏四時之節也賞賜刑罰主之節也四時	-12.6686
藏於民也市不成肆家用足也朝不合衆	-12.6686
視於新故能見未形	-12.6686
親則禍憂至故淵不涸則所欲者至涸則	-12.6686
親養備具故用則者安不用則者危地未	-12.6686
言三才之道幽䆳深	-12.6686
訟二十年不得直沆至又訴尹氏出積	-12.6686
該備也謂四言足以	-12.6686
謂積勞之臣論其功多則	-12.6686
負錢數百萬轉運使李紘以吏屬甫	-12.6686
走火則一人之用也操鞭	-12.6686
躬之典理官也决獄斷刑依於矜恕故世	-12.6686
軸斤斧得入焉九而當一汎山其木可以	-12.6686
輕我重天下多我寡然	-12.6686
輕處者我動而錯之天下即已於我矣物	-12.6686
辟方都之道也管子入復桓公曰終	-12.6686
近年有司茍取小快遂改此法未之思歟	-12.6686
迷妄之數也六家者即見其時使豫先蚤	-12.6686
通於蠶桑使蠶不疾病者皆置之	-12.6686
鄰國每動重富君之民貧者重貧富者重	-12.6686
閽	-12.6686
險政政險民害害乃怨怨則凶故曰讂充	-12.6686
雇	-12.6686
難齊必不救一為不救則	-12.6686
食于農非信士不得立于朝是故官虚而	-12.6686
食桓公立貢數文行中七年龜中四千金	-12.6686
馬之數求盡也彼王者不奪民時故五	-12.6686
馬已行矣吾欲立筴	-12.6686
驕富而不奢行理而不惰故能長守貴富	-12.6686
骨秀出於衆者有則以告有而不以	-12.6686
鶴脛非所斷鳬	-12.6686
􁬕	-12.6686
四時之朝夕御之以輕重之准然	-12.6688
天財之所殖械器之所出財物之所生視	-12.6688
崇龜認刀司馬視鞘	-12.6688
之至機也謂之國機輕重之法曰自言能	-12.6688
始取夫三大夫之家方六里而一	-12.6688
擅生殺處威勢操令行禁止之柄以御其	-12.6688
程戡仇門仲游帥宇	-12.6688
三分財物之輕重三分賈人市於三分之	-12.6688
不育非髙其臺榭美其宫室則羣材不散	-12.6688
丞相劉沆知衡州日有大姓尹氏欲買	-12.6688
之功勞譽衆者則賞之不審其罪過毁衆	-12.6688
之言也而反害傷之故聖人不告也故曰	-12.6688
五十倍其賈此數也君以織籍籍於系未	-12.6688
令守地用人筴故開闔皆在上無求於民	-12.6688
公府時有兄弟共殺人者而罪未有所歸	-12.6688
則下怨其上下怨其上則令不行矣法者	-12.6688
則治不盡理事不盡應治不盡理則	-12.6688
則羣臣相推以美名相假以功伐務多其	-12.6688
動如雷霆獨出獨入莫之能禁止不待權	-12.6688
及行禄賞翻在衆下故不	-12.6688
名廣譽厚功大業顯於天下不忘於後	-12.6688
君服靑色味酸味聽角聲	-12.6688
固始行於天下矣此其後楚人攻宋鄭燒	-12.6688
國守分上分下游於分之	-12.6688
外言一古之聖王所以取	-12.6688
大治不察於終始不可以	-12.6688
夫慮事定物辯明禮義人之所長而蝚蝯	-12.6688
好心萬物之可因癸乙曰有餘富無餘	-12.6688
好譏而不亂亟變而不變時至則	-12.6688
宗元守辜魏濤證死	-12.6688
尚書李南公知長沙縣日有	-12.6688
山發而出水金從之蚩尤受而制之以爲	-12.6688
帝以兄不訓弟故報兄重而	-12.6688
常以言翹明其與人也其愛人也其有	-12.6688
律度焉則民被刑僇而不從於主上此筴	-12.6688
復行之不可再者有國者之大禁也管子	-12.6688
息之數使無劵契之責四方之萌聞之父	-12.6688
戈於外然則國不得耕此非天凶也此人	-12.6688
或因亡國或因滅家	-12.6688
捿	-12.6688
數管子對曰此定壤之數也彼天子之制	-12.6688
明山之曾青一筴也	-12.6688
此五者可以輔弼國政也	-12.6688
此謂守物而御天下也公曰然則無可以	-12.6688
治燥氣用八數飲於	-12.6688
温其田及宫中皆蓋井	-12.6688
無以勸民上無以勸民則令不行矣法者	-12.6688
畏之故民愛之則親畏之則用夫民親而	-12.6688
皆忘主而趨私佼矣故明法曰比周以相	-12.6688
私也故曰有無棄之言者必參之於天地	-12.6688
簪	-12.6688
系籍系撫織再十倍其賈如此則云五	-12.6688
繕邊城塗郭術平度量正權衡虚牢獄實	-12.6688
者帶濟負河菹澤之萌也漁獵取薪蒸而	-12.6688
者所以安主也食者所以肥體也主惡	-12.6688
肖者舉事則事敗使於人之所不能	-12.6688
能蕃育六畜者置之	-12.6688
至矣動左右以重相因二十國之筴也	-12.6688
興豐則士輕禄民簡賞彼善	-12.6688
若四時之更舉無所終國有患憂輕重五	-12.6688
萬物反其重賈人出其財物國幣之少分	-12.6688
衆也隨之以暴謂之内戰桓公曰善哉筴	-12.6688
謂六興七體八經五務三度	-12.6688
謹於一家則立於一家謹於一	-12.6688
軼於賈榖制畜者則物軼於四時之輔善	-12.6688
避貴賤美惡雨濡物者也雨之所墮不避	-12.6688
雉	-12.6688
飲食撙衣服則財用足舉賢良務功勞布	-12.6688
植固而不動竒邪乃恐	-12.6688
程顥察院初為京兆府鄠縣	-12.6688
夏秋推陽以生隂	-12.6688
迅	-12.6689
奥於理切於務者抄而	-12.6689
上尊而民順財厚而養足四者備體則	-12.6689
交外人雖企慕於仁而所謀	-12.6689
嚴為防禁以尊其生	-12.6689
爵不尊禄不重者不與圖難犯危以其道	-12.6689
道易國之常賜賞恣於	-12.6689
之人但辯一言察一理攻一事如	-12.6689
以為梯凡欲蹈越	-12.6689
國無法則民朋黨而下比飾巧以成其私	-12.6689
宫室臺榭足以避燥濕寒暑不求其大	-12.6689
故羣臣百姓皆設私立方以	-12.6689
椽猶梯也謂鑿椽	-12.6689
無私則意成故能為國内成事	-12.6689
甚矣明君制宗廟足以設賔祀不求其美	-12.6689
私者壅蔽失位之道也上舎公法而聽私	-12.6689
者唯可以示一曲之說未足以廣	-12.6689
行人使人也若何而可唯不有私耳	-12.6689
不足畏則暴人輕犯禁民者服於威殺然	-12.6689
其君動也君若宥而反之其	-12.6689
小國之君卑大國之君所以尊者何也曰	-12.6689
廣大則草木易多也壤地肥饒則桑麻易	-12.6689
有蓄積則乆而不匱器械	-12.6689
法出令而民不從故賞不足勸則士民不	-12.6689
然則踰因梯而踰矣此喻成功	-12.6689
金城坊中有一空宅更無他語	-12.6689
不自曉故下通人情以問所	-12.6689
之用者寡則卑則人主安能不欲民之衆	-12.6689
事用之水常可制而使	-12.6689
以決塞奪之以輕重行之以仁義故與天	-12.6689
何謂獨貴獨賤管子對曰榖重而萬物輕	-12.6689
使争者視之負薪者	-12.6689
偏卒之大夫不敢有幸心則上無危	-12.6689
先者使卒戍縁陵	-12.6689
則合之若此者則可以立	-12.6689
及之此人親近推之令去不須召也	-12.6689
咨	-12.6689
墟	-12.6689
幣謂鄰縣曰有實者皆勿左右不贍則且	-12.6689
是使察姦慝而反為姦慝者也	-12.6689
此王者之大轡也桓公問管子曰請問幣	-12.6689
歸之於民則民怒反之於身則身驕	-12.6689
短語十三地者萬物之本原諸生之根	-12.6689
臧獲御之則為人笑王良御之	-12.6689
自疑肘腋悉其狗也懐武殺人不可勝數	-12.6689
郭崇韜入蜀乃族誅之	-12.6689
鄭躬明誤希亮救亡	-12.6689
雜亂也法行則博學	-12.6689
非此之外則朝聘之數逺近各有	-12.6689
䈥	-12.6689
一年正月朔日令大夫来修受命三公	-12.6689
三千里之外諸侯世一至	-12.6689
三老里有司伍長行里順之令之家起火	-12.6689
不均平和調則地利或	-12.6689
不得不使者夫梁聚之言非也桓公曰善	-12.6689
不生怨怒無有上下相親兵	-12.6689
不足之數也故凡不能調民利者不可以	-12.6689
之所歸知令之所加矣夫兵攻所憎而利	-12.6689
之有道乎對曰勿創勿作時至而隨	-12.6689
之見血費走而出遇賊於門脅而束之費	-12.6689
之長臣能得之賜之百金管子又曰誰能	-12.6689
也道不可量徳不可數不可量則衆强不	-12.6689
也鞈革重革當心著	-12.6689
二捨一下熟中分之	-12.6689
五日而尚有起夏作是春失其地夏失其	-12.6689
亦雖無山而假名有山	-12.6689
人也舜有告善之旌而主不蔽也禹立建	-12.6689
人君唯毋聽羣徒比周則羣臣朋黨蔽美	-12.6689
人雖遇漂濡而莫之怨也故曰風雨無	-12.6689
以二國歸楚若寄託然則	-12.6689
以守其地若是而民衆則國貧民飢以此	-12.6689
以有禮愼此四者所以行之也桓公曰請	-12.6689
以求則得此之謂易治故明法曰君臣之	-12.6689
以知也其耕之不深芸之不謹地	-12.6689
以私好惡害公正察民所惡以自	-12.6689
使得生育而各終其性命者也故或以治	-12.6689
依稱也代衰則臣富故臣多	-12.6689
修門閭十二淸明發禁十二始	-12.6689
倚而邪則法亂而身危故可恐也	-12.6689
公以重布決諸侯賈如此而有	-12.6689
公又問焉曰於子之屬有居處為義好學	-12.6689
共罵母黄令死黄忿恨自縊已值赦律子	-12.6689
其細無内其大無外所以失之以躁	-12.6689
冬春推隂以生陽	-12.6689
凡人之生也必以平正所以失之必以喜	-12.6689
凡萬物隂陽兩生而參視先王因其參而	-12.6689
則不肥故曰飺食者不肥體也言而語道	-12.6689
則人主不尊人主不尊則令不行矣法者	-12.6689
則列陳之士皆輕其死而安難以要上事	-12.6689
則君已藉九矣有衡求幣焉此	-12.6689
動言操辭左右之流君獨因之物之始吾	-12.6689
勝者法立令行之謂勝法立令行故羣臣	-12.6689
危社稷覆宗廟滅於天下非失人者未之	-12.6689
又經緯日月之時候使人用之也	-12.6689
又譽其矛曰吾矛之利	-12.6689
名桓公問第五十六雜篇七齊桓公問管	-12.6689
告事者偕行行數驛御史佯失告	-12.6689
咸通故可審合理	-12.6689
嗇於用財不以賞賜則立功之士	-12.6689
國之五勢人君之所憂也山處之國常藏	-12.6689
國之社稷而不恤吾衆也	-12.6689
國之財湯之以髙下注之以徐疾一可以	-12.6689
圖不可數則為詐不敢鄉	-12.6689
土功發地藏則夏多暴雨秋霖不止春不	-12.6689
多鹽故歸者譬若市人言不設禁也	-12.6689
天下王管子曰一農不耕民或	-12.6689
天地閉藏暑雨止大寒起萬物實熟利以	-12.6689
嫁其嫂因誣其子為	-12.6689
嬙施雖美而面有怨氣亦不能為可	-12.6689
宋孔深之為尚書比部郎時安陸應城縣	-12.6689
定牧認皮滄州市脯	-12.6689
客或欲見於齊桓公請仕上官授	-12.6689
察而知之置之於身勿令下	-12.6689
封於太山禪於梁父者必抱菁茅一束以	-12.6689
封澤謂澤多草刈積成封可用煑鹽者也	-12.6689
專聽其大臣者危主也故	-12.6689
尊顯民歸樂之人主莫不欲也故欲民之	-12.6689
小白既無小智必乖迕	-12.6689
居家治理可移於官	-12.6689
希亮奏乞以宇所上封事付有司即其言	-12.6689
弱風雨至公而無私所行無常	-12.6689
張受越訴裴命急吐	-12.6689
得亦自水生焉失亦自	-12.6689
得其沮氣衰敗之時	-12.6689
怨起而不復反衆勞而不得息則必有崩	-12.6689
應聲之正有以給上室屋漏者得居牆垣	-12.6689
戒來故禍不萌通而民無患咎桓公曰請	-12.6689
拳勇股肱之力秀出於衆者	-12.6689
掣	-12.6689
旅之事樹表置髙而髙仁慈孝財散而輕	-12.6689
是故之時陳財之道可以行今也利散而	-12.6689
是故士莫敢言一朝之便皆有終	-12.6689
時下令收糴也則魏李悝行平糴之法上	-12.6689
時土豪李甲者兄死	-12.6689
曰不長不利作土功之事放農焉利皆耗	-12.6689
曰吾念有而勿失得而勿忘	-12.6689
曰法簡而易行刑審而不犯事約而易	-12.6689
杆	-12.6689
桐柞莫不秀長其榆其	-12.6689
楚不得為私而齊猶有望	-12.6689
此居於圖北方方外必得文威武官習勝	-12.6689
此居於圖東方方外右東方本圖旗物尚	-12.6689
死輕重之分使然也桓公曰皮幹筋角之	-12.6689
母既乖大功不讁之制又失婦人三	-12.6689
民得其饒是謂流膏令下貧守之往往而	-12.6689
民心者也以人御人逃戈刃髙仁義	-12.6689
泉踊降雨下山水出海路距雨露屬天地	-12.6689
法令毁於官請謁得於上則黨與成於下	-12.6689
深而不涸則沈玉極	-12.6689
滛暴不用上令者有則以告有而不以告	-12.6689
滿取其露見不隠也	-12.6689
為政者之所忌故逐於境外也	-12.6689
為發運判官患官舟多	-12.6689
無偷順天之道必以善終者也三王失之	-12.6689
無貲也無貲無價也	-12.6689
熟糴三捨一中熟糴	-12.6689
燒増藪焚沛澤不益民	-12.6689
留一日把百日餔民	-12.6689
禪籍不如令者不得從天子下諸侯載其	-12.6689
禮不謹則民不脩廉論賢不	-12.6689
秋起繇而無止此之謂	-12.6689
程琳烓竈強至油幕	-12.6689
穡之地荆棘生焉	-12.6689
笝	-12.6689
筫	-12.6689
管仲對曰水一害也旱一害	-12.6689
籍而民不移振貧補不足下樂上故以上	-12.6689
緺綬之於萊亦純	-12.6689
義也欲民之有義則小義不可不行	-12.6689
習不著發不意經不知故莫之	-12.6689
而勿失得而勿忘者也桓公曰吾欲效而	-12.6689
耜鐵之重每十分加七分以	-12.6689
能事地又經緯星	-12.6689
自言能治田土不能治田土者殺其身以	-12.6689
自責乃遷怒而罰之	-12.6689
舉而萬不失矣是故尺寸之度雖富貴衆	-12.6689
菹丘立駢牢以	-12.6689
薪蒸之所積虞師之事也決水潦通溝瀆	-12.6689
蘭即所謂蘭錡兵架	-12.6689
血氣衣服足以適寒温禮儀足以别貴賤	-12.6689
衣弊而屨穿寡人欲使帛布絲纊之賈賤	-12.6689
衣食足耳目榖衣食足則侵	-12.6689
襄州中廬令有賊	-12.6689
見之矣管子曰長城之陽魯也長	-12.6689
言城郭兵甲博地不足	-12.6689
言執法者必當深植而固守則不可動移	-12.6689
言實之士不進言實之士不進則國之情	-12.6689
讁乃以叔母為朞親而令二子	-12.6689
資也桓公問於管子曰萊莒與柴田相并	-12.6689
踡	-12.6689
身無患害而孝慈焉桓公曰願聞五害之	-12.6689
通乎隂氣所以事地也經緯星	-12.6689
道之逺近有數矣是知諸侯之地千	-12.6689
部不受亡至京師執政令劾以在官無故	-12.6689
里尉其在里尉及于州長其在州長及于	-12.6689
門閭十二清眀發禁十二始	-12.6689
開闔民之不移也如廢方於地此之謂筴	-12.6689
闕亡乎管仲曰未也國中之政夷吾尚微	-12.6689
陳希亮大卿為開封府司録	-12.6689
陳留有一老人年八十餘	-12.6689
障防安水藏使時水雖過度無害	-12.6689
雖無海而假名有海則	-12.6689
靜者則靜者勝矣故我	-12.6689
非時利雖目視有餘不用	-12.6689
非玉素煑之不可玉素乃毒之良	-12.6689
頓卒怠倦以辱之	-12.6689
饉救災害賑罷露則國家定	-12.6689
鰥寡而合和之予田宅而家室之三年然	-12.6689
鹿牛馬之地春秋賦生殺老立施以守五	-12.6689
􁄾	-12.6689
不能圖不可數則爲詐不敢郷兩者備施	-12.6691
人馬假其食民鄰縣四面皆櫎	-12.6691
使上之傰署財署分知其事各具	-12.6691
其名籍之本則財署知聚財傰署	-12.6691
准幣直幣而庚之	-12.6691
坐長而十倍上下令曰貲家假幣皆以	-12.6691
廩重有加十謂大家委貲家曰上且	-12.6691
曰善正商任者省有肆省有肆則市朝	-12.6691
朱詰賕民孔察代盗	-12.6691
栁設榜牒陳具飲饌	-12.6691
輕而萬物重公曰賤筴	-12.6691
鏤女事無文章國之富也右五事分國以	-12.6691
不舉起十人之繇千	-12.6691
不舉起百人之繇萬	-12.6691
之貴賤若干凡方六里用幣若干	-12.6691
乘者乘之此因天下以制天下此之謂國	-12.6691
也其周中十金萊人知之	-12.6691
先論其理義計其可否	-12.6691
利耗什分之七土剛不立晝日益短	-12.6691
則也地不易其則故萬物生焉主不易其	-12.6691
則五衢之内阻棄之地也起一人之繇百	-12.6691
則知侈儉知侈儉則百用節矣故儉則傷	-12.6691
問於管子曰崇弟蔣弟丁惠之功世吾	-12.6691
四害皆服桓公曰寡人悖不知四害之服	-12.6691
因其輕重守其委廬故事至而不妄然	-12.6691
大夫受邑以幣人馬受食以幣則一國之	-12.6691
大致不以反經小過而	-12.6691
寡人不得籍斗升焉去菹菜鹹鹵斥澤山	-12.6691
幣帛以事齊桓公之左右無不受重	-12.6691
於管子曰輕重安施管子對曰自理國虙	-12.6691
日而陽凍釋七十日而隂凍釋隂凍釋而	-12.6691
時君之衡藉而無止民食十	-12.6691
楊牧笞巫薛向執賈	-12.6691
楚人又遮取宋田夾兩	-12.6691
此至九舉說九合諸侯之所致	-12.6691
皁	-12.6691
終始身不竭此謂源究輕重戊第八十四	-12.6691
而無害成而不議得而莫之	-12.6691
茈	-12.6691
趣芸壅培六時制之臣給至於國都善者	-12.6691
足也燒増藪焚沛澤不益民利逃械器閉	-12.6691
頴知子盗孫料兄殺	-12.6691
馬管子對曰國無儲在令桓公	-12.6691
之防夾水四道禾稼不傷	-12.6691
也以事其主終而復始愛親善養思敬奉	-12.6691
以安羣生得以育故萬民驩盡其力而樂	-12.6691
其布經暴布百兩當一鎰一鎰之金食百	-12.6691
其所成成必知其所用用必知其所利害	-12.6691
則夏旱至矣夏有大露原煙噎下百草人	-12.6691
塞桓公曰何謂決塞管子曰君不髙仁則	-12.6691
微勝不微有義勝無義練士勝	-12.6691
心心之所好傷民民傷而身不危者未之	-12.6691
春秋冬夏不知時終始作功起衆立宫室	-12.6691
檀柘之壤有汜下漸澤之	-12.6691
濡濕日生土弱難成利耗什分之六土	-12.6691
為棺可以為車斤斧得入焉	-12.6691
無親戚者必遺其妻子酒三石肉三鼎行	-12.6691
物天下皆利而謹操重筴童山竭澤益利	-12.6691
租若干棺槨之租若干管子曰鹽鐵撫䡄	-12.6691
管子對曰有莞蒲之壤有竹	-12.6691
而封臣之能以車兵進退成功立名者割	-12.6691
聞也曰實壙虚墾田疇修牆屋則國家	-12.6691
薉	-12.6691
請以令賀獻者皆以鐻枝蘭	-12.6691
遂交楚哉管子對曰不可楚人攻宋鄭燒	-12.6691
以其道未可求故不與尊爵	-12.6692
佑	-12.6692
則循義從令者審也上明下審上下同	-12.6692
則知善走者是捕逐	-12.6692
同舟而濟胡越不患異心	-12.6692
如此則吏嗇夫之事究矣人嗇夫成	-12.6692
無方而富也莫知生所在故曰無方也	-12.6692
獨孤國非其國也鄰國皆險	-12.6692
礦	-12.6692
羽翼也若濟大水有舟楫也仲父不一言	-12.6692
人中鈎殆於死今乃用之可乎鮑叔曰彼	-12.6692
其心以幸於上上無度量以禁之是以私	-12.6692
又於堤家得錢五千堤懼楚掠自誣	-12.6692
州刺史有上蔡董毛奴齎錢五千死於道	-12.6692
弑其君今言仁義則必以三王	-12.6692
必有害也桓公曰昔三王者	-12.6692
時長孫無忌被召不解佩刀入東上閣	-12.6692
民之緩急正其號令而御其大准然	-12.6692
百姓人慮利害而以其私心舉措則法制	-12.6692
聖人由此知言之不可兼也故博	-12.6692
上百都百縣䡄據	-12.6692
乞丐傭作販賣童兒皆有其徒民間偶語	-12.6692
事團乃軍廵之職也所管百餘人	-12.6692
仇家得其迹與媪約曰期十日不得	-12.6692
内言五桓公在位管仲隰朋見立有	-12.6692
力作者也脯二束酒一石以賜之力足蕩	-12.6692
呼之曰狗深坊曲巷馬	-12.6692
商人常隨利往來故	-12.6692
李靖為岐州刺史或	-12.6692
民飢者不可以使戰衆散而不收則國	-12.6692
獨出伏罪而怨不敢有幸亂心	-12.6692
王蜀時有蕭懐武	-12.6692
皂	-12.6692
管氏之辭豈有故作難書	-12.6692
薄賦斂緩使令然民淫躁行私而不從制	-12.6692
謂卒有暴溢或能漂	-12.6692
魯梁之君即令其民去綈脩農	-12.6692
鮑叔曰君使人請之魯公曰施伯	-12.6692
三分之一汜下多水之國常操國	-12.6692
不汙手足其種大重細重白莖白秀無不	-12.6692
不知節也不知量不知節不可謂之有道	-12.6692
不聽雖讜言空設故曰其將若君何	-12.6692
不飛雖羽翼無益不濟雖舟楫徒施	-12.6692
之土若在陵在山在隫在衍其隂其陽盡	-12.6692
也桓公曰民居定矣事已成矣吾欲從事	-12.6692
予人軍而重予人玉重宫門之營而輕四	-12.6692
事之時收積至時散其積	-12.6692
事勝則入粟多入粟多則國富國富則安	-12.6692
以識此管子對曰君勿患且使外	-12.6692
六三年魯梁之君請服桓公問管子曰民	-12.6692
六畜以時鈞脩焉勸勉百姓使力作毋偷	-12.6692
其分皆入於商賈此中一國而二君二王	-12.6692
其守列投蟁虵巨雄新冠五尺請挾彈	-12.6692
典乃祈告事者曰李靖反	-12.6692
分敬而無妬則夫婦和勉矣君失音則風	-12.6692
則君人者勢傷而威日衰矣故	-12.6692
卒二千人小侯車百	-12.6692
卒千人諸侯皆許諾齊車千	-12.6692
又告管仲曰欲繕兵管仲又曰不可公不	-12.6692
右伯沐涂樹之枝左右伯受沐涂樹之枝	-12.6692
吕婦斷腕包牛割舌	-12.6692
君且使使者桓公使八使者式璧而聘之	-12.6692
君免臣於死臣之幸也然臣之不死糺也	-12.6692
君服黃色味甘味聽宫聲	-12.6692
善明設法而不以私防者也而無道之君	-12.6692
嘖	-12.6692
嚴民樸而親官無邪吏朝無姦臣下無侵	-12.6692
多致錢帛募匿妾者	-12.6692
子今道舉為刼叔父已	-12.6692
孫亮驗蜜杜亞疑酒	-12.6692
守其時有官天財何求於民桓公曰何謂	-12.6692
守民耳也色者所以守民目也人君失	-12.6692
守臣以為陛下試臣耳則天厲色曰崔宣	-12.6692
察其言不情乃問汝户㡬等曰上等汝家	-12.6692
封侯之君焉於是楚國之賢士皆抱其重	-12.6692
左丞何承天議曰婦人	-12.6692
布於未形據其已成	-12.6692
慎號審章則其攻不待	-12.6692
懷挾姦詐貪利忘義	-12.6692
故傷貨貨盡而後知不足是不知量也事	-12.6692
故棄之喻姦人之雄亦亂國當絶	-12.6692
故無敢姦能誣禄至於君者矣故相任寅	-12.6692
敗敵所得之物應受分	-12.6692
於殺法所不許也又當原其情理豈可一	-12.6692
是寡人之國五分而不能操其二是有萬	-12.6692
時也山川涸落天氣下地氣上萬物交通	-12.6692
有器有用城郭險阻蓄藏	-12.6692
有禮義也夫民無禮義則上下亂而貴賤	-12.6692
東出其國四十六里而壇服青而絻青搢	-12.6692
桑麻皆安其處由田之事也行	-12.6692
桓公蹵然逡遁管仲曰昔先王之理人也	-12.6692
權與眀必勝則慈者勇	-12.6692
止可則求之不可則止故其所得事者常	-12.6692
正籍者予之長假死而不葬者予之長度	-12.6692
此八禮以導其民八者各得其義則	-12.6692
法以主於人則國理故祥也	-12.6692
法而行私者也為人上者釋法而行私則	-12.6692
生心心生規規生矩矩生方方生正正生	-12.6692
用之壤寡人不得籍斗升焉去一列稼	-12.6692
當何時作之管子曰春三月天地乾燥水	-12.6692
疾美也繩謂彈正也言以六過繩	-12.6692
皆在上萬物重十倍府官以市櫎出萬物	-12.6692
皆持其名而去於人則過惡日	-12.6692
盡於此乎管子對曰布織財物皆立其貲	-12.6692
程顥詰翁丙吉驗子	-12.6692
積善餘慶積惡餘殃	-12.6692
立令之所行者多而所廢者寡則民不誹	-12.6692
箓	-12.6692
繉	-12.6692
者得食寒者得衣死者得	-12.6692
而不能謹守其山林菹澤草萊不可以立	-12.6692
而不費賞罰明則勇士勸也三官不繆五	-12.6692
而殺之彼或自取與受	-12.6692
臣是以敢出也公遽下堂曰寡人非敢自	-12.6692
萊人操之萊有推馬是自萊失綦茈而反	-12.6692
被於暮故賤賣而貴買四郊之民賣賤何	-12.6692
言俱至於衰老故欲	-12.6692
言朋亦將隨已早亡不得	-12.6692
託氣濁而不神所行皆可	-12.6692
調日有長乆以此觀之其利百倍故常以	-12.6692
論上下之所貴賤者而强弱之國可知也	-12.6692
謂敗狄所得車甲	-12.6692
財是重貧也農夫失其五榖是重竭也故	-12.6692
輕昔有驚漢文帝乘輿馬者張釋之	-12.6692
郭氏諸親與義子	-12.6692
重者政與軍若失主不然輕與人政而重	-12.6692
長五年始興車踐	-12.6692
館每來於此以安之也	-12.6692
馬服牛而任之輕重有制有	-12.6692
驚懼異常鞭撻	-12.6692
上用入則務本疾作以實倉	-12.6692
不舉起千人之繇十萬	-12.6692
之君者非杜其門而守其戸也	-12.6692
之急也如此則民向風而從化	-12.6692
之所資也獨明者天下之利器也獨斷者	-12.6692
也則君請以國筴十分之一者樹表置髙	-12.6692
人忻然曰無復憂矣遂執	-12.6692
今者寡人見人長尺而人物具焉冠右	-12.6692
代合之一體稱雖創鉅痛深固無讐祖之	-12.6692
以前無狗後無彘者	-12.6692
以相死是故以守則固以戰則勝君有此	-12.6692
侫	-12.6692
備順何所乏哉則求者無不善也	-12.6692
其下小其上隨水而行地有不生草者必	-12.6692
可得籍鬼神乃可得而籍夫管子對曰厭	-12.6692
君請立五厲之祭祭堯之五吏春獻蘭秋	-12.6692
唐貞觀中左丞李行	-12.6692
土功之事土乃益剛令甲士作堤大水之	-12.6692
埀	-12.6692
好喻聖人外見其惡亦不得	-12.6692
宋文帝時剡縣人黄	-12.6692
師之事也論百工審時事	-12.6692
幄中聞酒臭而還曰今日之戰	-12.6692
忒差也若不反守於	-12.6692
懈怠敵人來侵其費更多嗇恡	-12.6692
應聲之正無以給上室屋漏而不居牆垣	-12.6692
我先動敵反作應者	-12.6692
拉	-12.6692
敦敬有功名之士必爵禄順而與之	-12.6692
於其君慮殺其主謂之公過諸公過之家	-12.6692
旱水泆民失本則	-12.6692
曰見其若此其厚而不死列陳可以反於	-12.6692
有司執事者咸以厥	-12.6692
有時先事有時先政有時先德有時先	-12.6692
有理制天下有分君臣上第三十短語四	-12.6692
有積蓄不可以用人非有積財無以勸下	-12.6692
有聞道而好為鄉者一鄉之人也	-12.6692
有青州男子趙宇上言元昊	-12.6692
桓公曰然則奚若管仲對曰以臣則不	-12.6692
桓公曰行事奈何管子對曰昔堯之五	-12.6692
此嘖室之事也請以東郭牙	-12.6692
焉國用十不足則加十焉人君之守髙下	-12.6692
然則神筮不靈神龜	-12.6692
癸乙於周下原桓公問四因與癸乙管子	-12.6692
皆竭能盡力以治其事亂主則不然故	-12.6692
盞	-12.6692
相聞足以無亂晝戰其目相見足以相識	-12.6692
矣淵者衆物之所生也能深而不涸則沈	-12.6692
私愛之於民若弟之與兄子之與父也然	-12.6692
終舉兵攻萊戰於莒必市里	-12.6692
而取之則一農之籍得三耜鐵也	-12.6692
臣之作福所邀射	-12.6692
臣之能謀厲國定名者割	-12.6692
至主者人之所仰而生也能寛	-12.6692
苛刻者皆委曲生意而然也君子不逆詐	-12.6692
萊之國也一樹而百乘息其下者以其不	-12.6692
萬物物生不可計量地以	-12.6692
藏三分十年則必有五年之餘若歳	-12.6692
詐市馬賊欲刑之宻遣人察市	-12.6692
詐服縗麻言迎父喪府曹依律棄市	-12.6692
謂之淡水雖無味五味不	-12.6692
足以治民也桓公曰寡人睹其善也何	-12.6692
邪者不變則羣臣朋黨才能之人去亡則	-12.6692
黃金一斤直食八石	-12.6692
也先王以守財物以御民事而平天下也	-12.6694
眀法審數立常備䏻則治	-12.6694
祏故伏尸滿衍兵決而無止輕重之家復	-12.6694
金起於汝漢珠起於赤野東	-12.6694
所殺主名㝷訪考驗尚多無恙其事遂白	-12.6694
眀名章實則士死節	-12.6694
詔偕就鞫之偕命告人	-12.6694
外頗有疑吾與死人	-12.6694
河海若輸之給馬此隂王之業管子曰萬	-12.6694
三分之一山地分之國常操國	-12.6694
下令謂郡縣屬大夫里邑皆籍粟入若干	-12.6694
之有道乎管子對曰唯籍於號令	-12.6694
之當壯者遣之邊戍民之無本者貸之圃	-12.6694
之衣衾三領木必三寸	-12.6694
也先論其理義計其可否義則諾不義則	-12.6694
則國勢不用已乎管子對曰今以諸侯	-12.6694
四萬二千金廓然虚桓公惕然太息曰吾	-12.6694
幣國幣之九在上一在下幣重而萬物輕	-12.6694
提持也合衆弱以事	-12.6694
摲	-12.6694
時而立儀桓公曰何謂視時而立儀對曰	-12.6694
江分表裏章辨朱墨	-12.6694
牢之筴以東西南北相彼用平而准故曰	-12.6694
發其積藏出其財物以	-12.6694
百金之賈非君之所賴也君之所與故	-12.6694
目司視視必順見見察謂之	-12.6694
程簿舊錢王璩故簡	-12.6694
符融沐枕獄吏滌屨	-12.6694
若産而無弟兄上必賜之匹馬之	-12.6694
行凡國之重也必待兵之勝也而國乃重	-12.6694
謂之國䡄桓公問於管子曰不籍而贍國	-12.6694
謂初㑹諸侯上下得終其禮自	-12.6694
頼也故曰必得之事不足頼也聖人之諾	-12.6694
之耳請以令輕重之家桓公曰諾東車五	-12.6694
也桓公曰善蓋天下視海内長譽而無止	-12.6694
事之利得也計議因權事之囿大也王者	-12.6694
事矣是敺國而捐之也故曰觀樂玩好之	-12.6694
人已衣被之後餘衣若干别	-12.6694
什二筴也皮革筋角羽毛竹箭器械財物	-12.6694
其力而勿奪其時以利之如此則衆親上	-12.6694
其民以富其家故明法曰百慮其家不一	-12.6694
則謀臣死而諂臣尊矣故曰諂讒飾過之	-12.6694
勝任也而衆者不愛則不親不親則不明	-12.6694
君皆善官而守之則籍於財物不籍於人	-12.6694
妾吏酖宋玉素毒郭	-12.6694
婦人之求夫家也必用媒而后家事成故	-12.6694
孫甫舂粟許元焚舟	-12.6694
寡人有鐻枝蘭鼓其賈中純萬泉也願以	-12.6694
工人有逆順事有稱量人心逆則人不用	-12.6694
意是故明君兼愛以親之明	-12.6694
曰貨多貨多事治則所求於天下者寡矣	-12.6694
有道分之有數乎管子對曰唯輕重之家	-12.6694
歐陽左手惟濟右臂	-12.6694
水處什之七陸處什之三	-12.6694
生養萬物地之則也治安百姓主之則也	-12.6694
相知而萊人大遁故遂破其軍兼其地而	-12.6694
績其功業若干以功業直時而櫎	-12.6694
耗之道也是故明君審察事理慎觀終始	-12.6694
術數則羣臣易欺之國無明法則百姓輕	-12.6694
衣三農有常業女有常事一農不耕民有	-12.6694
起而君在危殆之中矣故曰羣徒比周之	-12.6694
非麗其樂也以平國筴也今至於其亡筴	-12.6694
黨者處後夫朋黨者處前賢不肖不分則	-12.6694
𤓰瓠葷菜百果	-12.6694
儛	-12.6695
内業四十九區言五凡物之精此則	-12.6695
多内則富時出則當而聖人之道	-12.6695
之指意要必得此然可以成功	-12.6695
今君獨立無與則是有害故甚可	-12.6695
先身無害而有利然後可以及物	-12.6695
斛文劾不以私論而以事	-12.6695
生事法非是因以聞報至杖卒人稱服之	-12.6695
癤	-12.6695
而下之事上不虚矣上之畜下不妄	-12.6695
萬乗之國失其守國非其國也天下皆理	-12.6695
訾限也程准也事律	-12.6695
鄰人醉其夫而釘殺之	-12.6695
北距周七千八百里水絶	-12.6696
又知一事不足以兼衆事故	-12.6696
可以誅大國之不道者舉賢良而	-12.6696
君不失其威下不曠其産而莫相	-12.6696
廢慢法鄙賤之民是故先王必有置也而	-12.6696
慟	-12.6696
故曰儉其道乎令未布而民或	-12.6696
殺人取錢當時狼狽應有所遺曽得何物	-12.6696
民望如父母近國之民從如流水故行地	-12.6696
而不能實三者見一焉則可破毁也故不	-12.6696
途之逺其至之難故託用於其重以珠玉	-12.6696
逺得人彌衆是何也	-12.6696
風重投之哉兆國有槍星其君必辱國有	-12.6696
則生全故曰乃知養生	-12.6696
反之然後有成可與之親	-12.6696
君以威覆下下以産供	-12.6696
市曰蘇秦為燕作亂	-12.6696
故云不主一物功用無方旁通	-12.6696
有俗國有法食飲不同味衣服異采	-12.6696
毬塲以俟宰殺既	-12.6696
泉逾而前瀷隨而後欲其流不	-12.6696
知行情則不違理不違理	-12.6696
而不劌行也鮮而不垢	-12.6696
聴於鈔故䏻聞未極	-12.6696
謂平意虚心也七主據下唯	-12.6696
三見出而嫁是不貞	-12.6696
之也必少有樂焉不知其	-12.6696
之奈何管子對曰作内政而寓軍令焉為	-12.6696
之曰若受富民錢欲出其死	-12.6696
之道則民離畔而不聽從故主危而不得	-12.6696
事矣桓公曰善於是乎管子乃制五家以	-12.6696
亡去之資若趙孟之	-12.6696
令武士與船夫同往索之	-12.6696
倍貧富失而國不亂者未之	-12.6696
假令財與人鈞同人	-12.6696
先登豈顧後而相待乎	-12.6696
内無煩擾之政外無彊敵之患也夫動	-12.6696
准必壊舊髙峻	-12.6696
則下踰其節上下不和令乃不行衣冠不	-12.6696
則不屈靜則不變不變則無過故曰不伐	-12.6696
則功臣怨功臣怨而愚民操事於	-12.6696
則屠酤之汁肥流水則蟁	-12.6696
匿如此則自然端直欲	-12.6696
博而一行純而固則仰我如	-12.6696
君人而不能知立君之道以	-12.6696
告諸侯曰請救伐諸侯許諾大侯車二百	-12.6696
和也不失其時然後富不失其法然	-12.6696
堂公曰寡人齋戒十日而飲仲父自以	-12.6696
士云有投化髙麗留書遣付舍人	-12.6696
大揆度儀若覺卧若晦眀	-12.6696
夫凡人之情見利莫能勿就見	-12.6696
威絶域之民不險山河故	-12.6696
工能積財舉而長之	-12.6696
左右專以其心斷者中主也臣有所愛而	-12.6696
巨雄翡燕小鳥皆歸之	-12.6696
布於民也必由中央之人中央之人以緩	-12.6696
後矣故曰課凶飢計師役觀臺榭量國費	-12.6696
怒曰寡人齋戒十日而飲仲父寡人自以	-12.6696
持也蜀祠器也君人者但抱祠器以身率	-12.6696
故上下無義則亂貴賤無分則爭長	-12.6696
故哀歎也以先知未	-12.6696
故地廣千里者禄重而	-12.6696
故曰以能别為食數凡此皆重人本之	-12.6696
故曰刑省治寡朝不合衆右三本君之所	-12.6696
昬飲此水上之樂也賈人蓄物而賣	-12.6696
是故民皆勉為善士與其為善於	-12.6696
曰顧小利則大利之殘也	-12.6696
有不合於令之所謂者雖有功利則謂之	-12.6696
有者亡矣古之隳國家隕社稷者非故且	-12.6696
未見山鐵之利而内敗矣故善者不如與	-12.6696
枝使無尺寸之隂桓公曰諾行令未能一	-12.6696
止故攻國救邑不恃權與之國故所指必	-12.6696
每大陵深谿皆有靈焉	-12.6696
民樵室鑚鐩墐竈泄井所以	-12.6696
水安其藏國之富也桑麻殖於野五	-12.6696
水泉之所傷水泆之國常操十分之二漏	-12.6696
汝不然子死汝手矣乃命以其財三	-12.6696
泄謀災必至故曰災極至	-12.6696
法之所立令之所行與其所廢者鈞則國	-12.6696
漁人之入海海深萬	-12.6696
無什倍之賈無倍稱之民國准第七十九	-12.6696
無子謂之老寡此三人者皆就官而衆可	-12.6696
無械器以應二敵即奉國而歸齊矣輕重	-12.6696
王曽驗稅司空省書	-12.6696
生而勿殺賞而勿罰罪獄勿斷以待期年	-12.6696
皆以為得實若水獨疑之留其獄數日不	-12.6696
粤厚也宛順也天	-12.6696
綬	-12.6696
義亦求之不可亦求之故其所得事者未	-12.6696
者不審則邪臣上通而便辟制威如此則	-12.6696
而立公不與言少進中庭公不與言少進	-12.6696
脩舊法擇其善者舉而嚴用之	-12.6696
臣之所以為公者乃是私也名	-12.6696
至重者不來此謂以刑去刑	-12.6696
蕃實秀大六畜犧牲具民足財國富	-12.6696
號令審旗章則攻者爭	-12.6696
蠻夷之人不敢犯賞慶信必則有功者勸	-12.6696
行公道而託其私焉寖	-12.6696
言第二十三問第二十四謀失第二十五	-12.6696
託可好我託可惡我託可惡以來美名	-12.6696
途旁之樹未沐之時五衢之民男女相好	-12.6696
通而不相陵容也叩之其音	-12.6696
逺無蔽獄孤寡無	-12.6696
邪若水笑謝曰今數人當死豈可不	-12.6696
重賦斂多兊道以	-12.6696
閉不固雖有良貨不能守也故形勢不得	-12.6696
閉出非之門又塞生過之塗成罪	-12.6696
閭閈不設出入毋時早晏不禁則攘奪竊	-12.6696
陔	-12.6696
食之君然則大國内款小國用盡何以及	-12.6696
饗國四十有二年桓公踐位十九年㢮	-12.6696
𨳩	-12.6696
䡄守則民且守之民有過移長力不以本	-12.6696
三器謂一國之器其器	-12.6696
下乖亂而民不親也求夫家而不用媒則	-12.6696
不可陷之楯與無不陷之矛	-12.6696
不重鐵反旅陳於金	-12.6696
且豐多刑豐而又妄振非刻	-12.6696
之子其狀類龜假言此龜東海	-12.6696
今君立扶臺五衢之衆皆作	-12.6696
以子之矛陷子之楯何如其人弗能應也	-12.6696
以安之無度數以治之則國非其國而民	-12.6696
以此事君者皆姦人也而人君聽之焉得	-12.6696
公綽破柩元膺擒轝栁	-12.6696
兵不呼儆不茍聚不妄行不	-12.6696
其故貲故國中大給崢丘之謀也此之謂	-12.6696
出器謂可出用之器處器謂	-12.6696
則一女之籍得五刀	-12.6696
則傷人不用則怨故曰取人以已成事以	-12.6696
動於未形而守事已成物一也而十是九	-12.6696
勢焉夫勢必因形而立	-12.6696
北郭者盡屨縷之甿也以唐園	-12.6696
十而守五綈素滿之五在上故視	-12.6696
去之而亂臨之而殆則後	-12.6696
君唯毋聽觀樂玩好則敗凡觀樂者宫室	-12.6696
君服白色味辛味聴商聲	-12.6696
坻	-12.6696
夀夭貧富無徒歸也	-12.6696
委曲隨於女謁若食之	-12.6696
姜文姜告齊侯齊侯怒饗公使公子彭生	-12.6696
姦吏傷官法姦民傷俗	-12.6696
娵	-12.6696
子耳東海之子者海神之子也	-12.6696
小人者枉道而取容適主意而偷	-12.6696
得保其首領父母妻子完安於内故民未	-12.6696
恬愉無為去智與故	-12.6696
情事悖逆所不忍言固當棄市今欽生父	-12.6696
我必無功故近於醜	-12.6696
故明法曰所死者非罪所起者非功然則	-12.6696
是使姦涂不可獨行遺財不可	-12.6696
曰何謂國無儲在令管子對曰一農之量	-12.6696
曰原此㫖當以二親生存而横言死	-12.6696
曰糶賤寡人恐五榖之歸於諸侯寡人欲	-12.6696
曰輸財所以納財於民	-12.6696
曲防之戰民多假貸而給上事者寡人欲	-12.6696
有無貲之寶於此吾今將有大事請以寶	-12.6696
未也夫齊衢處之本通達所出也游子勝	-12.6696
李公驗櫸王臻辨葛	-12.6696
束十倍則春有以倳耜夏有以決芸此租	-12.6696
桓公再言二子不對桓公曰孤	-12.6696
權臣振主君欲去之必	-12.6696
欲成事必先立其凖的事不	-12.6696
止隨之以法則是下艾民食三升則	-12.6696
民富寡人欲殺商賈之民以益四郊之民	-12.6696
決之令通潘音翻	-12.6696
沿	-12.6696
濼	-12.6696
無色謂之素水雖無色五	-12.6696
璥至開門案下之人	-12.6696
用徐疾之數輕重之筴也一可以	-12.6696
畔君之恩法天地之厚廣也	-12.6696
登降揖讓貴賤有等親	-12.6696
發草土得其榖矣民人之食有人若干步	-12.6696
知象不可和民一衆不知法不可變俗易	-12.6696
禄賞輕民間其治賊臣首難此謂敗國之	-12.6696
粟不敢受寶質桓公命丁氏曰寡人老矣	-12.6696
粤	-12.6696
罪過而聽重臣之所言故臣有所欲賞主	-12.6696
翢	-12.6696
臣主同勢則俱奮威權故刑罰大	-12.6696
貭	-12.6696
走報云長史喚璥	-12.6696
迕	-12.6696
迹者履之所出善者恩之所生	-12.6696
鎻	-12.6696
𣪚	-12.6696
思於濬故䏻知未始	-12.6697
立於謀故䏻實不可故也	-12.6697
視於新故䏻見未形	-12.6697
亡而不守發民則下疾怨上邊竟有兵則	-12.6697
其地國之富也六畜育於家	-12.6697
分明上下之位審故大臣各處其位而不	-12.6697
可以毋籍而用足管子對曰不可今發徒	-12.6697
大夫散其邑粟與其財物以市	-12.6697
戴争異罰徐詰縁例	-12.6697
撃者本無殺意邂逅致死乃坐杖罪或用	-12.6697
政者地也故不可不正也正地者其實必	-12.6697
救於火草木殖成國之富也溝瀆遂於隘	-12.6697
於楚楚人不許遂退七十里而	-12.6697
曰某縣之人若干田若干幣若干而中用	-12.6697
曹駮坐妻孔議詈母	-12.6697
獨君問其若有子弟師役而死者父母	-12.6697
禦其民則民一心而奉其上故能貴富而	-12.6697
粟賈十粟賈三十粟賈百其在流筴者百	-12.6697
美人之懷定服而勿	-12.6697
與楚王遇於召陵之上而令於遇上曰	-12.6697
豹之皮故山林之人刺	-12.6697
貯粟毋曲隄無擅廢適子	-12.6697
下之從上也如響之應聲臣之法主也如	-12.6697
之一非榖之所生也然則吾非託食之主	-12.6697
之國不可以無千金之蓄飾百	-12.6697
之國不可以無萬金之蓄飾千	-12.6697
之故曰安危者與人地大國富民衆兵	-12.6697
人君不能散積聚調髙下分并財君雖	-12.6697
以制天下管子對曰佚田之言非也彼善	-12.6697
偉冐范祚䖍傚鄧賢	-12.6697
傅令鞭絲李惠撃鹽	-12.6697
内不可以持天下佚田之言非也管子曰	-12.6697
勝則姦人在上位人君唯毋聽請謁任	-12.6697
四務管子對曰泰春民之且所用者君	-12.6697
國者壤辟舉則民留處倉	-12.6697
天下而奪於其下何數也管子對曰君分	-12.6697
實則知禮節且無委致圍城	-12.6697
專聽重臣如此故羣臣皆務其黨重臣而	-12.6697
希崇並付齊賢兩易	-12.6697
我用善者用非有使非人揆度第七十八	-12.6697
所道人求本者食吾本粟因吾本幣騏驥	-12.6697
數然而民有賣子者何也財有所并也故	-12.6697
明主與聖人謀故其謀得與之舉	-12.6697
昔者周人有天下諸侯賔服名	-12.6697
曰隂雍長城之地其於齊國三分之一非	-12.6697
氣猥併故掩閉也	-12.6697
而以武取宋鄭也楚取宋鄭而不	-12.6697
而士遁於外此不待戰而内敗管子曰今	-12.6697
而死君農夫夜寢蚤起力作而無止彼善	-12.6697
聞乎管子對曰燧人以來未有不以輕重	-12.6697
與不可明主度量人力之所能	-12.6697
荑	-12.6697
袁滋鑄金孫寳秤散	-12.6697
請然則請謁得於上黨與成於	-12.6697
隨山澤之人求其禽獸之皮	-12.6697
髙則髙天下下則下天髙我下則財利	-12.6697
六之運數當然也雖有堯	-12.6698
刅	-12.6699
諸侯而不拂近無不服逺無不聽夫明王	-12.6699
夫也信宿獄不成吏懼	-12.6699
蠅集其首因發髻	-12.6699
告之罪至死得無悔乎	-12.6699
材振四海王之佐也千	-12.6699
正色謂後至者曰汝	-12.6699
此可買棺來取兒	-12.6699
此淺深曲直諸事皆可詳之言	-12.6699
犯法漸廣轉欲危	-12.6699
而發口變而無主者也其用	-12.6699
耦	-12.6699
之功如此衆必與之與許	-12.6699
之謀可為動者為之動伐譚萊而不有也	-12.6699
以顯其本謀之功何善如	-12.6699
北伐山戎制泠支斬孤竹而九夷始	-12.6699
又大施忠焉可為憂者為之憂可為謀者	-12.6699
壥	-12.6699
已蔽而刦已刦而弑凡人君之所以	-12.6699
絺	-12.6699
而畏其武桓公知天下小國諸侯之多與	-12.6699
菽粟泉金歸其財物以佐君之大事此謂	-12.6699
諸侯稱仁焉通齊國之魚鹽	-12.6699
貴在所先所後人主不可以不	-12.6699
􁎖	-12.6699
上謂水從來處髙之者欲注下取勢也	-12.6699
之分請以令朝功臣世家號令於國中曰	-12.6699
之所出必服天下之仇今	-12.6699
五殖五殖之狀甚澤以䟽離	-12.6699
刼郡縣按察莫知賊	-12.6699
可復錯也何謂四維一曰禮二曰義三曰	-12.6699
因䏻利備則求必得	-12.6699
執務眀本則士不偷	-12.6699
左執虚豆右執挾	-12.6699
必有流血浮丘之戰	-12.6699
所為也乃召州内刀匠示之有郭門者言	-12.6699
笙	-12.6699
粖	-12.6699
結交焉公子開方為人巧轉而兊利請使	-12.6699
縁有此黄門非有求於爾乎吏叩頭曰彼	-12.6699
虎望見之而伏桓公問管仲曰今者寡人	-12.6699
賜賞者人君所獨用也	-12.6699
門曰我等共刼胡家徒	-12.6699
七施七七四十九尺而至於泉祀陜八施	-12.6699
下治矣一言得而天下服一言定而天下	-12.6699
不變故也觀而移變之	-12.6699
之者典食之主也以情理言之則與	-12.6699
事未道者不可以言名成功然	-12.6699
五三世則昭穆同祖十世則	-12.6699
出夫粟是故智者知之愚者不知不可以	-12.6699
善猶入芝蘭之室不知	-12.6699
官之利當一國而三萬人	-12.6699
官賈者與功而不與分焉工治容貌功	-12.6699
宙合之意上通於天之上下泉於地之	-12.6699
宿夜不出者利在水也故利之所在雖千	-12.6699
山無所不上深源之下無所不入焉故善	-12.6699
戚始管子對曰君人之主弟兄十人分國	-12.6699
有民與郭氏為義子自孩提以至成人	-12.6699
發其積藏出其資財以予其逺近兄弟以	-12.6699
神矣神者至貴也故館不辟除則貴人不	-12.6699
移之如是則慶賞雖重民不勸也殺戮雖	-12.6699
耳目也耳目欲端中正者治之本也耳司	-12.6699
訣	-12.6699
謂一親往死一親來生	-12.6699
財力之貢於上必由中央之人能易	-12.6699
貨財所以養敢死之士耳目所	-12.6699
賈知賈之貴賤日至於市而不	-12.6699
一以無貳是謂知道將欲服之必	-12.6699
人也動必量力舉必量技言終喟然而	-12.6699
以牧其民則衆不敢踰軌而行矣下有五	-12.6699
兄弟相戚骨肉相親國無飢民此之謂	-12.6699
卒連長率之十連	-12.6699
古伍字謂偶合也言雖	-12.6699
君耳無壤之有號有百	-12.6699
咀咀口和嚼之謂三月之	-12.6699
國及譯傳言語相	-12.6699
國好力此謂以難攻國好言此謂以易攻	-12.6699
如離羣羊凡聽角如雉登木以鳴音疾以	-12.6699
寛刑焉則人不患死矣如此而近有	-12.6699
年矣曰二十年遣吏取	-12.6699
所惡皆反於法故自傷	-12.6699
數也管子曰神農之數曰一榖不登減一	-12.6699
數治以力攻者出一取十以言攻者出十	-12.6699
方之外歸君其猶流水乎公輟射援綏而	-12.6699
方戰之時懼致水禍此	-12.6699
明法故曰明府之法瑞君	-12.6699
時雨歡我如椒蘭誰	-12.6699
榖之法什倍二榖不登減二	-12.6699
渾初凝類口所嚼食也	-12.6699
火而不顧豈險難於山河也	-12.6699
珪璧之屬也又必合其瑞以考之也	-12.6699
縁即捐也駔馬之	-12.6699
駔	-12.6699
紅	-12.6699
蟇	-12.6699
蠒	-12.6699
逕	-12.6699
鉥	-12.6699
駈	-12.6699
閹	-12.67
凰	-12.6702
覬	-12.6702
繳	-12.6702
筩	-12.6702
阪	-12.6702
鶩	-12.6702
汾	-12.6702
飱	-12.6702
𠖇	-12.6702
堇	-12.6702
獮	-12.6702
竉	-12.6702
邠	-12.6702
鄽	-12.6702
銶	-12.6702
叟	-12.6703
総	-12.6703
􁚔	-12.6705
葍	-12.6705
囂	-12.6705
甗	-12.6705
譯	-12.6705
曋	-12.6705
璘	-12.6705
秸	-12.6707
蔾	-12.6708
摇	-12.6708
􁱿	-12.6708
欘	-12.6708
撤	-12.6708
樵	-12.6708
檐	-12.6708
菫	-12.6708
醲	-12.6708
􁔛	-12.6708
毤	-12.671
犧	-12.6711
臿	-12.6711
圈	-12.6711
濆	-12.6711
牷	-12.6711
􁷐	-12.6711
兾	-12.6714
呪	-12.6714
埶	-12.6714
膈	-12.6714
襍	-12.6714
豬	-12.6714
膬	-12.6718
禆	-12.6718
蛟	-12.6718
鈸	-12.6718
􁁤	-12.6721
从	-12.6721
橑	-12.6721
苓	-12.6724
轢	-12.6724
鏃	-12.6724
扭	-12.6727
繈	-12.6727
弘	-12.673
暫	-12.673
剄	-12.673
暖	-12.673
鵞	-12.673
􁃅	-12.673
􁎣	-12.6733
㘖	-12.6733
㭍	-12.6733
个	-12.6733
笋	-12.6733
貣	-12.6733
踊	-12.6733
雛	-12.6733
鷇	-12.6733
浣	-12.6736
濶	-12.6736
粃	-12.6736
皓	-12.6737
荳	-12.6737
頫	-12.6737
稺	-12.674
无	-12.674
低	-12.674
孜	-12.674
𢷬	-12.674
靁	-12.6743
泔	-12.6746
贗	-12.6746
湎	-12.6749
匽	-12.6749
䣑	-12.6752
僾	-12.6759
擣	-12.6759
輮	-12.6762
獠	-12.6765
挿	-12.6768
伇	-12.6771
撩	-12.6771
覜	-12.6771
謫	-12.6771
謞	-12.6784
黧	-13.6308
麃	-13.6309
麀	-13.631
鯨	-13.6311
鬵	-13.6312
鬴	-13.6313
髹	-13.6314
髄	-13.6315
驪	-13.6316
騖	-13.6317
騏	-13.6318
馨	-13.6319
飜	-13.632
頊	-13.6321
韘	-13.6322
鞾	-13.6323
鞽	-13.6324
霄	-13.6325
雩	-13.6326
陑	-13.6327
钁	-13.6328
鑠	-13.6329
鑕	-13.633
鎗	-13.6331
鎒	-13.6332
錡	-13.6333
銍	-13.6334
鉶	-13.6335
鈿	-13.6336
鈹	-13.6337
釭	-13.6338
酹	-13.6339
鄱	-13.634
邴	-13.6341
輈	-13.6342
軻	-13.6343
躭	-13.6344
躄	-13.6345
蹵	-13.6346
踞	-13.6347
趂	-13.6348
讜	-13.6349
諮	-13.635
觯	-13.6351
襟	-13.6352
衮	-13.6353
蠡	-13.6354
蠖	-13.6355
螻	-13.6356
蝗	-13.6357
蝕	-13.6358
蛆	-13.6359
蚼	-13.636
藍	-13.6361
薑	-13.6362
薈	-13.6363
蕕	-13.6364
蓮	-13.6365
蒥	-13.6366
葭	-13.6367
菲	-13.6368
菙	-13.6369
荕	-13.637
芮	-13.6371
舋	-13.6372
舄	-13.6373
膓	-13.6374
腥	-13.6375
腑	-13.6376
胼	-13.6377
胝	-13.6378
聶	-13.6379
聓	-13.638
翹	-13.6381
翅	-13.6382
羑	-13.6383
罄	-13.6384
繣	-13.6385
縿	-13.6386
縝	-13.6387
緺	-13.6388
緱	-13.6389
綰	-13.639
綪	-13.6391
絤	-13.6392
絍	-13.6393
絆	-13.6394
紡	-13.6395
紋	-13.6396
紈	-13.6397
糒	-13.6398
粒	-13.6399
籬	-13.64
籩	-13.6401
簋	-13.6402
篚	-13.6403
範	-13.6404
箱	-13.6405
箬	-13.6406
筯	-13.6407
筐	-13.6408
窒	-13.6409
磋	-13.641
瞍	-13.6411
眺	-13.6412
皐	-13.6413
痺	-13.6414
痣	-13.6415
畛	-13.6416
猱	-13.6417
狽	-13.6418
犠	-13.6419
牸	-13.642
爻	-13.6421
燻	-13.6422
燎	-13.6423
煨	-13.6424
澁	-13.6425
潞	-13.6426
漉	-13.6427
溈	-13.6428
湫	-13.6429
湩	-13.643
湧	-13.6431
淬	-13.6432
淪	-13.6433
浚	-13.6434
洧	-13.6435
洞	-13.6436
泫	-13.6437
泠	-13.6438
沾	-13.6439
汴	-13.644
汐	-13.6441
汋	-13.6442
汊	-13.6443
汀	-13.6444
氷	-13.6445
毬	-13.6446
槧	-13.6447
槌	-13.6448
楮	-13.6449
楪	-13.645
椹	-13.6451
森	-13.6452
棓	-13.6453
架	-13.6454
枎	-13.6455
枋	-13.6456
杳	-13.6457
杓	-13.6458
杌	-13.6459
曇	-13.646
晁	-13.6461
昃	-13.6462
斲	-13.6463
攷	-13.6464
擏	-13.6465
撥	-13.6466
摳	-13.6467
摯	-13.6468
搗	-13.6469
揕	-13.647
揉	-13.6471
掬	-13.6472
拭	-13.6473
抉	-13.6474
扑	-13.6475
截	-13.6476
獖	-13.6476
戀	-13.6477
慼	-13.6478
愴	-13.6479
悶	-13.648
悠	-13.6481
恇	-13.6482
怫	-13.6483
怜	-13.6484
怕	-13.6485
忻	-13.6486
忮	-13.6487
底	-13.6488
帙	-13.6489
巻	-13.649
崧	-13.6491
岋	-13.6492
啜	-13.6492
尠	-13.6493
孳	-13.6494
孕	-13.6495
媧	-13.6496
姿	-13.6497
壚	-13.6498
墐	-13.6499
墅	-13.65
埆	-13.6501
埃	-13.6502
囉	-13.6503
噎	-13.6504
唾	-13.6505
唫	-13.6506
咤	-13.6507
呻	-13.6508
梃	-13.6508
爇	-13.6508
叡	-13.6509
卭	-13.651
剔	-13.6511
凾	-13.6512
凄	-13.6513
儷	-13.6514
儡	-13.6515
倭	-13.6516
佷	-13.6517
佌	-13.6518
佇	-13.6519
佃	-13.652
䴠	-13.6521
䧺	-13.6522
䠞	-13.6523
䌛	-13.6524
殛	-13.6524
䇡	-13.6525
䆳	-13.6526
㨽	-13.6527
㨀	-13.6528
􁗁	-13.6529
魄	-13.653
髯	-13.6531
髠	-13.6532
港	-13.6532
濱	-13.6532
騫	-13.6533
駞	-13.6534
餵	-13.6535
頥	-13.6536
韁	-13.6537
隫	-13.6538
阡	-13.6539
闞	-13.654
搯	-13.654
閼	-13.6541
閩	-13.6542
邙	-13.6543
邂	-13.6544
逓	-13.6545
逅	-13.6546
迨	-13.6547
軓	-13.6548
蹕	-13.6549
袋	-13.655
蠆	-13.6551
蓍	-13.6552
莽	-13.6553
臾	-13.6554
繰	-13.6555
粹	-13.6556
柸	-13.6556
笏	-13.6557
瞞	-13.6558
瞋	-13.6559
爰	-13.656
熒	-13.6561
湣	-13.6562
沓	-13.6563
殄	-13.6564
㺯	-13.6564
凭	-13.6564
貍	-13.6564
昷	-13.6565
昩	-13.6566
掛	-13.6567
恙	-13.6568
廖	-13.6569
廆	-13.657
帕	-13.6571
嵲	-13.6572
墀	-13.6572
懶	-13.6572
旒	-13.6572
昜	-13.6572
樽	-13.6572
牂	-13.6572
婺	-13.6573
娛	-13.6574
姝	-13.6575
嚭	-13.6576
哈	-13.6577
吁	-13.6578
剡	-13.6579
凊	-13.658
䏂	-13.658
劬	-13.658
懟	-13.658
捄	-13.658
朂	-13.658
沖	-13.658
焙	-13.658
膏	-13.658
僥	-13.6581
㬰	-13.6582
鴟	-13.6583
鳩	-13.6584
鯢	-13.6585
鮪	-13.6586
馥	-13.6587
雌	-13.6588
㜑	-13.6588
㳂	-13.6588
娠	-13.6588
寨	-13.6588
慊	-13.6588
憇	-13.6588
陜	-13.6589
鐻	-13.659
鐩	-13.6591
跱	-13.6592
跗	-13.6593
跌	-13.6594
訶	-13.6595
襫	-13.6596
俑	-13.6596
奄	-13.6596
芽	-13.6596
鎔	-13.6596
襏	-13.6597
蟁	-13.6598
蘪	-13.6599
蓨	-13.66
蓐	-13.6601
荷	-13.6602
荓	-13.6603
茲	-13.6604
佗	-13.6604
娱	-13.6604
媵	-13.6604
尿	-13.6604
廛	-13.6604
彝	-13.6604
晡	-13.6604
櫃	-13.6604
玫	-13.6604
茆	-13.6605
苹	-13.6606
芷	-13.6607
聃	-13.6608
翡	-13.6609
罼	-13.661
纚	-13.6611
緷	-13.6612
䥱	-13.6612
傜	-13.6612
僵	-13.6612
冷	-13.6612
崤	-13.6612
撾	-13.6612
椉	-13.6612
濺	-13.6612
綿	-13.6613
綏	-13.6614
籯	-13.6615
稔	-13.6616
禰	-13.6617
矍	-13.6618
療	-13.6619
甋	-13.662
䘚	-13.662
删	-13.662
勦	-13.662
捽	-13.662
棊	-13.662
氾	-13.662
泗	-13.662
濠	-13.662
瓁	-13.6621
璆	-13.6622
玕	-13.6623
獺	-13.6624
爽	-13.6625
熨	-13.6626
澮	-13.6627
澆	-13.6628
仌	-13.6628
佻	-13.6628
儌	-13.6628
暈	-13.6628
濓	-13.6628
爕	-13.6628
滕	-13.6629
滉	-13.663
汰	-13.6631
殂	-13.6632
楢	-13.6633
桔	-13.6634
攟	-13.6635
揫	-13.6636
侁	-13.6637
咽	-13.6637
坌	-13.6637
墉	-13.6637
妺	-13.6637
彚	-13.6637
惇	-13.6637
愍	-13.6637
憱	-13.6637
殲	-13.6637
漲	-13.6637
綘	-13.6637
据	-13.6637
拇	-13.6638
憫	-13.6639
惚	-13.664
廓	-13.6641
幄	-13.6642
崘	-13.6643
崐	-13.6644
匪	-13.6645
厄	-13.6645
叨	-13.6645
吃	-13.6645
坫	-13.6645
堀	-13.6645
寖	-13.6645
暯	-13.6645
漶	-13.6645
澷	-13.6645
岷	-13.6645
宓	-13.6646
婬	-13.6647
壄	-13.6648
堆	-13.6649
嚼	-13.665
嗉	-13.6651
咶	-13.6652
䆫	-13.6653
䰟	-13.6653
伕	-13.6653
倰	-13.6653
呐	-13.6653
幙	-13.6653
慳	-13.6653
懣	-13.6653
拗	-13.6653
映	-13.6653
櫬	-13.6653
沲	-13.6653
澘	-13.6653
牕	-13.6653
珙	-13.6653
勺	-13.6653
剃	-13.6654
刦	-13.6655
傀	-13.6656
佁	-13.6657
亨	-13.6658
䓗	-13.6659
鳶	-13.666
䃿	-13.6661
䟦	-13.6661
亳	-13.6661
仙	-13.6661
儇	-13.6661
兀	-13.6661
冄	-13.6661
剠	-13.6661
哺	-13.6661
啣	-13.6661
埽	-13.6661
奩	-13.6661
幎	-13.6661
憔	-13.6661
撽	-13.6661
栅	-13.6661
榻	-13.6661
泝	-13.6661
浹	-13.6661
淑	-13.6661
炞	-13.6661
牴	-13.6661
髻	-13.6661
飡	-13.6662
灃	-13.6663
需	-13.6663
針	-13.6664
輼	-13.6665
軫	-13.6666
誚	-13.6667
蜂	-13.6668
■	-13.6669
㕓	-13.6669
㩲	-13.6669
㬥	-13.6669
䆒	-13.6669
伽	-13.6669
侶	-13.6669
倘	-13.6669
儁	-13.6669
冑	-13.6669
喘	-13.6669
壍	-13.6669
夤	-13.6669
嫉	-13.6669
宄	-13.6669
幢	-13.6669
彤	-13.6669
悸	-13.6669
惸	-13.6669
憅	-13.6669
拍	-13.6669
搶	-13.6669
斐	-13.6669
栐	-13.6669
殮	-13.6669
殯	-13.6669
漳	-13.6669
莢	-13.6669
聳	-13.667
絰	-13.6671
粱	-13.6672
眢	-13.6673
琇	-13.6674
猴	-13.6675
牋	-13.6676
㟭	-13.6677
㪚	-13.6677
㮄	-13.6677
䘵	-13.6677
万	-13.6677
劘	-13.6677
卹	-13.6677
啻	-13.6677
坵	-13.6677
埒	-13.6677
姫	-13.6677
媛	-13.6677
嵌	-13.6677
庵	-13.6677
弧	-13.6677
弹	-13.6677
悮	-13.6677
擭	-13.6677
楅	-13.6677
橛	-13.6677
歂	-13.6677
洲	-13.6677
烟	-13.6677
煦	-13.6677
玻	-13.6677
烙	-13.6677
澧	-13.6678
淄	-13.6679
沍	-13.668
叫	-13.6681
廿	-13.6681
柝	-13.6681
狭	-13.6681
汲	-13.6681
樗	-13.6682
椎	-13.6683
柵	-13.6684
୘	-13.6685
䡔	-13.6685
䦨	-13.6685
僦	-13.6685
凳	-13.6685
剩	-13.6685
匣	-13.6685
嗅	-13.6685
嘔	-13.6685
嚳	-13.6685
塡	-13.6685
师	-13.6685
帳	-13.6685
幟	-13.6685
弈	-13.6685
愓	-13.6685
憍	-13.6685
换	-13.6685
搤	-13.6685
搹	-13.6685
暱	-13.6685
曝	-13.6685
柚	-13.6685
楷	-13.6685
橿	-13.6685
残	-13.6685
溲	-13.6685
煙	-13.6685
煤	-13.6685
燃	-13.6685
逡	-13.6685
慣	-13.6685
幻	-13.6686
蓺	-13.6687
嬙	-13.6687
姻	-13.6688
䓁	-13.6689
夙	-13.6689
喬	-13.669
喑	-13.6691
厝	-13.6692
㪣	-13.6693
㾗	-13.6693
䛟	-13.6693
亹	-13.6693
仔	-13.6693
凱	-13.6693
卓	-13.6693
嘬	-13.6693
媼	-13.6693
帖	-13.6693
廄	-13.6693
廸	-13.6693
悁	-13.6693
掉	-13.6693
掜	-13.6693
掦	-13.6693
敇	-13.6693
棐	-13.6693
槐	-13.6693
槪	-13.6693
溥	-13.6693
灘	-13.6693
爍	-13.6693
窑	-13.6693
鈐	-13.6693
鶴	-13.6693
卉	-13.6693
匄	-13.6694
剥	-13.6695
㳙	-13.6696
捆	-13.6697
鳳	-13.6697
餔	-13.6698
霖	-13.6699
鑐	-13.67
勾	-13.67
鉞	-13.67
ဂ	-13.6701
㨂	-13.6701
䜟	-13.6701
䝿	-13.6701
䵎	-13.6701
俚	-13.6701
兑	-13.6701
冺	-13.6701
号	-13.6701
哽	-13.6701
堰	-13.6701
寔	-13.6701
寮	-13.6701
尢	-13.6701
巔	-13.6701
捎	-13.6701
撊	-13.6701
撮	-13.6701
昂	-13.6701
晰	-13.6701
杕	-13.6701
杬	-13.6701
棆	-13.6701
棍	-13.6701
椿	-13.6701
汁	-13.6701
渤	-13.6701
漠	-13.6701
狩	-13.6701
玆	-13.6701
該	-13.6701
諶	-13.6701
銓	-13.6701
轘	-13.6702
軔	-13.6703
諄	-13.6704
誥	-13.6705
舁	-13.6706
耰	-13.6707
翔	-13.6708
㓷	-13.6709
㗖	-13.6709
㩖	-13.6709
䄈	-13.6709
倶	-13.6709
冇	-13.6709
勛	-13.6709
嗾	-13.6709
抺	-13.6709
揀	-13.6709
擴	-13.6709
曺	-13.6709
洼	-13.6709
淨	-13.6709
渦	-13.6709
炷	-13.6709
爐	-13.6709
硬	-13.6709
纊	-13.6709
綜	-13.671
絏	-13.6711
糖	-13.6712
秫	-13.6713
䖟	-13.6713
矞	-13.6714
眼	-13.6715
盍	-13.6716
侏	-13.6716
甿	-13.6717
㓪	-13.6717
㮣	-13.6717
㲼	-13.6717
䙬	-13.6717
傶	-13.6717
啁	-13.6717
嘊	-13.6717
嘻	-13.6717
圮	-13.6717
坤	-13.6717
壓	-13.6717
廻	-13.6717
拖	-13.6717
腋	-13.6717
鞈	-13.6717
璜	-13.6718
滔	-13.6719
溉	-13.672
沂	-13.6721
歉	-13.6722
櫸	-13.6723
楂	-13.6724
桎	-13.6725
䆠	-13.6725
勠	-13.6725
叵	-13.6725
瀹	-13.6725
燬	-13.6725
杵	-13.6726
札	-13.6727
曙	-13.6728
晤	-13.6729
掲	-13.673
挽	-13.6731
戇	-13.6732
懞	-13.6733
卄	-13.6733
唶	-13.6733
怊	-13.6733
捥	-13.6733
捴	-13.6733
攅	-13.6733
橡	-13.6733
漓	-13.6733
虵	-13.6733
彛	-13.6734
嶽	-13.6735
嵩	-13.6736
妳	-13.6737
劣	-13.6738
儋	-13.6739
鼃	-13.674
鐶	-13.6741
与	-13.6741
亥	-13.6741
傚	-13.6741
兖	-13.6741
劑	-13.6741
圻	-13.6741
媿	-13.6741
孾	-13.6741
寍	-13.6741
尻	-13.6741
徂	-13.6741
攴	-13.6741
样	-13.6741
洶	-13.6741
燿	-13.6741
蹄	-13.6742
藹	-13.6743
莞	-13.6744
腠	-13.6745
欝	-13.6745
涑	-13.6746
沌	-13.6747
昪	-13.6748
搢	-13.6749
?	-13.6749
㒚	-13.6749
㦲	-13.6749
偫	-13.6749
冉	-13.6749
单	-13.6749
娯	-13.6749
峽	-13.6749
惧	-13.6749
敲	-13.6749
柒	-13.6749
棰	-13.6749
欎	-13.6749
祏	-13.6749
壑	-13.675
喧	-13.6751
喟	-13.6752
咫	-13.6753
鵾	-13.6754
隟	-13.6755
鄗	-13.6756
蟄	-13.6757
䢖	-13.6757
內	-13.6757
剋	-13.6757
壐	-13.6757
妒	-13.6757
洊	-13.6757
淂	-13.6757
煉	-13.6757
薔	-13.6758
苻	-13.6759
芝	-13.676
膝	-13.6761
脾	-13.6762
翌	-13.6763
綸	-13.6764
系	-13.6765
搃	-13.6765
楝	-13.6765
楸	-13.6765
樁	-13.6765
箸	-13.6766
眴	-13.6767
烓	-13.6768
斝	-13.6769
悝	-13.677
廡	-13.6771
騁	-13.6772
駙	-13.6773
䥓	-13.6773
戄	-13.6773
抅	-13.6773
晬	-13.6773
濊	-13.6773
牱	-13.6773
繬	-13.6773
閻	-13.6774
邏	-13.6775
蝯	-13.6776
蝚	-13.6777
蚩	-13.6778
窳	-13.6779
窕	-13.678
祚	-13.6781
仼	-13.6781
儂	-13.6781
瀝	-13.6781
琛	-13.6782
燧	-13.6783
歙	-13.6784
徭	-13.6785
塊	-13.6786
倖	-13.6787
饉	-13.6788
隈	-13.6789
姉	-13.6789
槳	-13.6789
沬	-13.6789
綃	-13.6789
鏂	-13.679
軛	-13.6791
讆	-13.6792
繒	-13.6793
禳	-13.6794
瘖	-13.6795
疪	-13.6796
渺	-13.6797
㵸	-13.6797
憿	-13.6797
煗	-13.6797
燠	-13.6797
汧	-13.6798
汜	-13.6799
模	-13.68
崢	-13.6801
妃	-13.6802
團	-13.6803
齧	-13.6804
騰	-13.6805
俘	-13.6805
逖	-13.6806
孺	-13.6807
婁	-13.6808
奠	-13.6809
儼	-13.681
䊸	-13.6811
頡	-13.6812
赨	-13.6813
薨	-13.6814
菁	-13.6815
舂	-13.6816
岪	-13.6817
紬	-13.6818
圄	-13.6819
囹	-13.682
㹀	-13.6821
几	-13.6822
掞	-13.6822
撅	-13.6822
攓	-13.6822
氺	-13.6822
泖	-13.6822
駟	-13.6822
錦	-13.6823
鄲	-13.6824
邯	-13.6825
扁	-13.6826
姜	-13.6827
哲	-13.6828
億	-13.6829
妊	-13.683
牏	-13.683
輻	-13.683
竣	-13.6831
鵲	-13.6832
脯	-13.6833
磬	-13.6834
昆	-13.6835
碎	-13.6836
俄	-13.6837
賽	-13.6838
淖	-13.6839
隅	-13.684
倳	-13.6841
顥	-13.6842
浩	-13.6843
拚	-13.6844
宙	-13.6845
揆	-13.6846
央	-13.6847
陛	-13.6848
囷	-13.6849
榭	-13.685
耜	-13.6851
竪	-13.6852
珪	-13.6853
匝	-13.6854
肖	-13.6854
