<unk>	0
<s>	0
</s>	0
。	-2.38782
,	-3.98532
故	-4.3629
者	-4.80204
▁	-4.97129
二	-5.00161
(	-5.0701
)	-5.09771
為	-5.1082
以	-5.15336
*	-5.2628
也	-5.30276
三	-5.30956
中	-5.31483
一	-5.3247
有	-5.33144
之	-5.37675
即	-5.37696
是	-5.38604
法	-5.43261
、	-5.46688
行	-5.4737
無	-5.49153
心	-5.51268
此	-5.52158
等	-5.55179
於	-5.57834
名	-5.59337
下	-5.60416
菩薩	-5.60496
不	-5.64758
如	-5.66431
四	-5.67371
佛	-5.71103
說	-5.72326
相	-5.73495
;	-5.77992
明	-5.79284
一切	-5.82191
謂	-5.82624
智	-5.83503
生	-5.86647
而	-5.86707
得	-5.88051
身	-5.92983
言	-5.94679
義	-5.97047
後	-6.0143
見	-6.03309
皆	-6.05696
入	-6.05911
大	-6.0684
若	-6.07268
非	-6.0836
諸	-6.12972
五	-6.14725
眾生	-6.15017
其	-6.1527
成	-6.16143
因	-6.18253
初	-6.18924
彼	-6.21576
時	-6.21774
亦	-6.22628
所	-6.23322
如來	-6.24055
則	-6.24089
云	-6.25749
及	-6.26582
十	-6.26929
能	-6.27416
前	-6.30626
住	-6.31229
人	-6.32469
觀	-6.33089
。】「	-6.3406
如是	-6.34767
。」【	-6.3504
知	-6.36753
至	-6.37181
同	-6.38236
處	-6.3844
現	-6.4055
經	-6.40973
起	-6.42573
自	-6.43406
上	-6.4385
顯	-6.45349
又	-6.46176
門	-6.46628
分	-6.46698
通	-6.46746
依	-6.48805
果	-6.48987
清淨	-6.49742
事	-6.51622
無量	-6.53862
六	-6.54344
從	-6.5462
法界	-6.55577
淨	-6.56893
令	-6.57097
道	-6.57754
今	-6.59952
性	-6.60614
與	-6.60628
多	-6.62932
善	-6.63073
我	-6.64
地	-6.64529
釋	-6.6487
在	-6.65437
常	-6.65473
離	-6.66399
意	-6.6649
修	-6.66879
眾	-6.67168
然	-6.68102
出	-6.68365
教	-6.69764
具	-6.69933
別	-6.69949
或	-6.70882
由	-6.71355
空	-6.71668
海	-6.71846
業	-6.73619
體	-6.74852
喻	-6.74992
攝	-6.75221
應	-6.76123
問	-6.76684
種種	-6.77077
定	-6.77245
次	-6.78273
七	-6.78416
自在	-6.79
八	-6.79607
文	-6.7972
勝	-6.80145
本	-6.80549
疏	-6.81836
德	-6.81837
願	-6.82105
解	-6.83503
正	-6.84345
隨	-6.85051
論	-6.85313
證	-6.85394
作	-6.85914
色	-6.85981
巳	-6.8693
佛子	-6.87719
光	-6.87914
約	-6.88021
欲	-6.88708
力	-6.90979
受	-6.91064
莊嚴	-6.91471
先	-6.92231
諸佛	-6.92241
緣	-6.92287
用	-6.93079
念	-6.93293
三昧	-6.94469
方便	-6.94742
會	-6.95049
普	-6.95113
位	-6.95572
悉	-6.95573
當	-6.96508
已	-6.96524
王	-6.96751
理	-6.97111
盡	-6.97219
智慧	-7.00338
成就	-7.00378
▁二	-7.00868
餘	-7.01642
天	-7.02199
功德	-7.02221
第二	-7.02776
即是	-7.03122
無礙	-7.03225
答	-7.03276
苦	-7.0328
樂	-7.03307
但	-7.0465
九	-7.05561
廣	-7.05726
化	-7.05936
滅	-7.05983
難	-7.06863
異	-7.07159
雖	-7.07174
!	-7.07314
唯	-7.07621
慧	-7.07719
▁初	-7.07938
真	-7.08218
聞	-7.08326
復	-7.08771
藏	-7.09575
總	-7.11869
分別	-7.12258
故云	-7.13412
境	-7.13443
寶	-7.13659
光明	-7.14902
世界	-7.15766
對	-7.17268
平等	-7.17319
名為	-7.17492
示	-7.18069
信	-7.183
世間	-7.18412
一切眾生	-7.19017
乃至	-7.20078
實	-7.21958
求	-7.22044
差別	-7.22426
過	-7.22653
合	-7.22691
境界	-7.2309
解脫	-7.23284
取	-7.23951
可	-7.24569
涅槃	-7.25692
無盡	-7.26153
斷	-7.26201
發	-7.2621
既	-7.26752
轉	-7.26809
施	-7.27047
劫	-7.27319
內	-7.28136
方	-7.28522
世	-7.28744
數	-7.29634
來	-7.29689
廣大	-7.29966
覺	-7.30231
迴向	-7.3042
深	-7.31312
第三	-7.32007
未	-7.3209
識	-7.32934
根	-7.34039
法門	-7.34139
舉	-7.34545
是故	-7.35581
外	-7.3569
何	-7.35917
想	-7.35931
善根	-7.36957
遍	-7.37019
俱	-7.3733
具足	-7.37428
各	-7.3799
。「	-7.38385
辨	-7.39053
妙	-7.39116
重	-7.39899
立	-7.40165
雲	-7.40343
修行	-7.40357
無有	-7.4037
障	-7.40726
持	-7.41432
品	-7.42732
煩惱	-7.43534
曰	-7.43928
益	-7.43966
:	-7.44063
引	-7.44208
究竟	-7.44255
十方	-7.44548
惡	-7.44797
耳	-7.45691
爾時	-7.45754
耶	-7.46139
捨	-7.46551
善男子	-7.46692
無邊	-7.46732
華	-7.47572
一一	-7.47826
所謂	-7.4788
照	-7.48132
音	-7.48561
順	-7.48589
普賢	-7.50444
結	-7.50802
種	-7.5095
戒	-7.51139
不同	-7.5193
宗	-7.53153
可知	-7.53338
他	-7.54415
就	-7.54528
界	-7.55406
菩提	-7.5664
水	-7.56752
?	-7.57056
表	-7.57668
語	-7.58593
類	-7.58863
一切諸佛	-7.58912
供養	-7.59104
字	-7.5952
圓	-7.59808
云何	-7.61009
因果	-7.61229
香	-7.61435
報	-7.6201
所有	-7.62086
除	-7.62332
開	-7.62619
了	-7.62979
▁三	-7.63372
物	-7.63447
集	-7.64098
頌	-7.64348
十地	-7.64512
圓滿	-7.64567
因緣	-7.65236
第四	-7.65639
示現	-7.65738
稱	-7.65744
聲	-7.65827
度	-7.66164
剎	-7.66326
主	-7.66433
滿	-7.67131
法身	-7.67154
忍	-7.67263
不可說	-7.67869
加	-7.67889
三乘	-7.68303
第一	-7.69776
諸法	-7.69899
生死	-7.70223
山	-7.7049
略	-7.70598
破	-7.71081
等者	-7.71431
經云	-7.73048
小	-7.73546
共	-7.73621
乘	-7.73689
流	-7.74414
一切法	-7.74594
切	-7.746
三世	-7.74944
說法	-7.75008
大悲	-7.75187
菩薩摩訶薩	-7.75912
觀察	-7.75935
乃	-7.77938
嚴	-7.78072
恒	-7.78535
一乘	-7.80767
徧	-7.808
師	-7.81142
大乘	-7.81146
輪	-7.81446
不能	-7.821
神	-7.83414
於中	-7.8361
惑	-7.84042
向	-7.84515
神通	-7.84559
便	-7.85077
無明	-7.85408
終	-7.87055
趣	-7.87541
妄	-7.87938
次第	-7.87966
解脫門	-7.88247
」	-7.88567
故名	-7.8905
不思議	-7.89566
請	-7.89676
十種	-7.90943
金剛	-7.9095
不可	-7.90989
日	-7.91016
執	-7.91309
極	-7.91647
今初	-7.91693
安住	-7.91854
鈔	-7.91854
塵	-7.91952
喜	-7.92006
愛	-7.92041
將	-7.92153
隨順	-7.92216
眼	-7.94311
所以	-7.94504
國	-7.94532
緣起	-7.94577
斯	-7.94599
善財	-7.94908
必	-7.94948
學	-7.95203
真如	-7.95727
月	-7.95941
二乘	-7.96422
使	-7.96719
汝	-7.96762
歸	-7.96918
聲聞	-7.96924
一切智	-7.96933
全	-7.96954
或名	-7.9696
讚	-7.97737
還	-7.97738
第五	-7.98181
論云	-7.98566
發心	-7.98593
思	-7.98759
動	-7.99368
百	-7.99852
形	-8.00043
聖	-8.00051
諸菩薩	-8.00662
歎	-8.00888
利	-8.01737
幢	-8.01759
去	-8.0183
量	-8.01951
矣	-8.02021
家	-8.02242
▁南無	-8.02709
法性	-8.03144
何以故	-8.03626
句	-8.04255
福	-8.04327
染	-8.04328
:「	-8.04356
治	-8.04413
機	-8.04424
最勝	-8.04491
要	-8.05498
無相	-8.05592
少	-8.05688
譬如	-8.05853
釋曰	-8.05914
著	-8.0592
壞	-8.06477
偈	-8.07445
樹	-8.07531
善知識	-8.07784
子	-8.07985
疑	-8.08062
佛法	-8.08212
以為	-8.08398
屬	-8.08472
迷	-8.08558
並	-8.08672
於此	-8.08997
更	-8.09522
甚深	-8.09815
始	-8.10332
習	-8.10665
指	-8.10738
土	-8.10885
兩	-8.11
小乘	-8.11426
第十	-8.117
安	-8.12477
情	-8.12676
悲	-8.12767
不動	-8.12885
勸	-8.12919
音聲	-8.13241
第六	-8.13997
往	-8.14204
增	-8.14323
皆悉	-8.14326
城	-8.14565
坐	-8.14579
燈	-8.15009
無性	-8.15592
下明	-8.15733
邪	-8.15822
含	-8.15878
彰	-8.16155
虛空	-8.1619
雨	-8.1642
失	-8.17107
以此	-8.17119
不離	-8.17453
不見	-8.17742
止	-8.17879
之所	-8.18007
寂	-8.18046
悟	-8.1811
無上	-8.18258
過去	-8.18335
猶	-8.18517
列	-8.18588
火	-8.18822
千	-8.1906
有二	-8.19136
金	-8.19209
不壞	-8.19398
一念	-8.19694
足	-8.19717
達	-8.19802
成佛	-8.20485
長	-8.20757
歡喜	-8.20867
遠	-8.21228
此中	-8.21461
護	-8.21701
真實	-8.21734
目	-8.21843
敬	-8.21864
無所	-8.2193
大願	-8.2238
。△	-8.22431
決定	-8.22848
般若	-8.2308
國土	-8.23377
無不	-8.23847
無生	-8.2392
不生	-8.23969
末	-8.23978
標	-8.24237
風	-8.24325
所依	-8.24457
一切菩薩	-8.24571
辯	-8.246
出生	-8.24764
之中	-8.24838
假	-8.25179
兼	-8.25413
精進	-8.25426
亦不	-8.25833
羅	-8.25929
而不	-8.26028
利益	-8.26265
興	-8.26327
座	-8.2633
融	-8.26363
修習	-8.26477
病	-8.26845
雙	-8.26897
超	-8.2733
頓	-8.27337
絕	-8.27588
自性	-8.27698
正法	-8.27769
增長	-8.28063
之法	-8.28112
竟	-8.2865
網	-8.28943
皆是	-8.2943
有十	-8.29937
所說	-8.30762
堅固	-8.31396
萬	-8.31535
權	-8.31653
第七	-8.31774
文殊	-8.3191
見佛	-8.32023
是為	-8.32061
華嚴	-8.32118
第八	-8.32129
昔	-8.32239
居	-8.32343
寄	-8.32469
「	-8.32527
。」	-8.32534
罪	-8.32619
之義	-8.3284
須	-8.33278
。」【△	-8.33601
所行	-8.34263
互	-8.34357
望	-8.35958
放	-8.3639
慈	-8.36688
高	-8.36791
禪	-8.36795
無常	-8.37015
▁四	-8.37121
卷	-8.37394
蓮華	-8.37407
演說	-8.37627
不得	-8.37897
女	-8.38311
悉能	-8.38554
出世	-8.3903
為一	-8.39082
覆	-8.39128
佛果	-8.39239
現在	-8.39508
印	-8.3956
不捨	-8.3966
近	-8.39692
計	-8.39957
一切世間	-8.40084
圓融	-8.40226
首	-8.41118
猶如	-8.4134
遠離	-8.41659
有三	-8.41702
此是	-8.4174
揀	-8.41851
所作	-8.42231
。▲	-8.42346
亦復如是	-8.42389
諦	-8.42571
況	-8.42615
際	-8.42766
魔	-8.42838
造	-8.43157
不可思議	-8.432
世尊	-8.43243
無二	-8.43322
一切世界	-8.43339
寂滅	-8.43478
諸眾生	-8.43555
食	-8.43744
散	-8.43937
相應	-8.4417
僧	-8.44372
道場	-8.44385
齊	-8.44711
十二	-8.44865
命	-8.45091
直	-8.45316
救	-8.45358
二者	-8.45679
咸	-8.45696
思惟	-8.45764
口	-8.45899
三界	-8.46182
死	-8.46482
凡	-8.46645
支	-8.46708
此經	-8.46729
一切諸	-8.46847
何故	-8.46965
龍	-8.47036
此云	-8.47257
不知	-8.47467
第九	-8.47531
眷屬	-8.47543
周	-8.47653
摩尼	-8.48214
令其	-8.48434
】	-8.48785
未來	-8.48871
如是等	-8.4898
亦是	-8.49262
大智	-8.49334
宮殿	-8.49391
寂靜	-8.49796
漸	-8.49826
章	-8.49849
若有	-8.50187
爾	-8.50299
且	-8.50319
復有	-8.5046
天王	-8.50471
大海	-8.50746
四句	-8.50912
窮	-8.50935
器	-8.51964
似	-8.52477
無畏	-8.53003
亦無	-8.53032
十住	-8.53277
對治	-8.53501
中有	-8.53572
十一	-8.53718
一切佛	-8.53969
者即	-8.53989
了知	-8.5427
復次	-8.54764
幻	-8.54875
白	-8.54897
凡夫	-8.55293
滿足	-8.55312
豈	-8.55453
細	-8.55567
分齊	-8.55587
菩提心	-8.55602
尊	-8.55638
獲	-8.55848
一者	-8.56078
之相	-8.56194
進	-8.56326
演	-8.5662
貪	-8.56907
無數	-8.573
初地	-8.5743
生滅	-8.57557
手	-8.57665
其心	-8.57867
易	-8.5795
不退	-8.58061
像	-8.58156
例	-8.58262
阿僧祇	-8.58516
收	-8.58636
現前	-8.58698
感	-8.58719
調伏	-8.58921
虗空	-8.58989
佛剎	-8.59006
無我	-8.59041
禮	-8.59123
變	-8.59163
不異	-8.5937
影	-8.5945
菩薩行	-8.5969
一心	-8.59719
或有	-8.59948
梵	-8.60524
蓋	-8.60855
出現	-8.6094
息	-8.60982
所成	-8.61038
是菩薩	-8.61296
殊	-8.61468
各有	-8.61469
殊勝	-8.61496
堅	-8.61724
不斷	-8.61753
自然	-8.62377
是名	-8.62649
令一切眾生	-8.62674
故名為	-8.62802
觸	-8.62803
存	-8.62961
頂	-8.63066
微	-8.63187
慢	-8.63315
後一	-8.63505
一切如來	-8.63722
根本	-8.63832
佛號	-8.64193
法故	-8.64275
南	-8.64385
亦如是	-8.64422
遊	-8.64444
能知	-8.64446
皆有	-8.64634
容	-8.64653
林	-8.64682
無著	-8.64885
已下	-8.64976
前中	-8.65388
最	-8.65698
十句	-8.65774
於彼	-8.65921
玄	-8.65931
瑜伽	-8.65973
業用	-8.65998
到	-8.66156
佛智	-8.66207
變化	-8.66239
佛身	-8.6625
古	-8.66504
雜	-8.66516
)。】「	-8.66584
願一切眾生	-8.66698
大眾	-8.6675
念念	-8.669
出家	-8.67063
善巧	-8.67257
違	-8.67295
永	-8.6731
同時	-8.67479
聚	-8.67785
前後	-8.67792
那	-8.67934
俗	-8.6818
色身	-8.6839
藥	-8.68427
之行	-8.68448
縛	-8.68536
後二	-8.6856
設	-8.68858
亦有	-8.68871
偏	-8.68894
記	-8.69212
害	-8.69256
號	-8.6951
財	-8.69515
微細	-8.69896
法輪	-8.70092
獨	-8.70186
如經	-8.70213
所知	-8.70235
邊	-8.70256
普現	-8.70391
經文	-8.70652
間	-8.70742
染淨	-8.70777
味	-8.71169
於一切	-8.71349
增上	-8.71708
若約	-8.7186
河	-8.72104
何以	-8.72181
三業	-8.72275
半	-8.72285
衣	-8.72443
今此	-8.72517
垢	-8.72863
波羅蜜	-8.7289
慈悲	-8.73102
百萬億	-8.73214
親	-8.73711
所生	-8.73736
諸根	-8.73775
部	-8.73859
下釋	-8.73954
年	-8.73979
福德	-8.74094
一句	-8.74221
珠	-8.743
人天	-8.74867
無作	-8.75292
諸佛子	-8.75347
亦名	-8.7545
諸天	-8.7546
充滿	-8.75542
地獄	-8.75709
法師	-8.76236
無漏	-8.76308
者謂	-8.7633
亡	-8.76398
體用	-8.76533
隱	-8.76594
其身	-8.76728
巧	-8.76856
好	-8.76947
名曰	-8.77307
比丘	-8.77453
無差別	-8.77525
由此	-8.77569
為體	-8.77659
勤	-8.77745
成正覺	-8.77803
初一	-8.78027
摩	-8.78195
諸行	-8.78447
受生	-8.78591
翻	-8.78805
外道	-8.78892
傳	-8.79201
顛倒	-8.79314
萬行	-8.79355
非是	-8.79367
二義	-8.79389
悉皆	-8.79392
密	-8.79467
供	-8.79483
遣	-8.79532
尚	-8.79778
為欲	-8.80002
又云	-8.80098
不著	-8.80216
莫	-8.80239
徵	-8.80375
佛性	-8.80429
此二	-8.80431
所得	-8.80485
一時	-8.80581
有四	-8.80745
勝進	-8.80773
配	-8.80818
致	-8.8114
十力	-8.81245
夢	-8.81265
普賢菩薩	-8.8136
蘊	-8.81447
此菩薩	-8.8146
唯識	-8.81473
淨土	-8.82034
癡	-8.82162
伏	-8.82246
三種	-8.82426
亦爾	-8.825
速	-8.82537
科	-8.82639
如幻	-8.8272
:『	-8.8274
旨	-8.82807
鏡	-8.82912
種性	-8.83018
受持	-8.83101
亂	-8.8315
信解	-8.83438
二種	-8.8352
恭敬	-8.83527
相即	-8.8358
愚	-8.83932
波	-8.84075
無障礙	-8.84149
依止	-8.84355
婆	-8.84673
建立	-8.84958
當知	-8.85001
迴	-8.85069
倒	-8.85181
厭	-8.85405
該	-8.85605
無為	-8.85646
中二	-8.85655
文殊師利	-8.85693
乎	-8.85694
義故	-8.85711
不住	-8.85835
百千	-8.85899
邪見	-8.85959
如實	-8.86024
上來	-8.86091
微塵	-8.86218
契	-8.86258
遮	-8.8643
於一	-8.86471
夫	-8.86493
此約	-8.86556
一切佛法	-8.86562
相續	-8.86757
何等為	-8.86985
摩尼寶	-8.87103
譯	-8.87316
功	-8.87743
段	-8.87806
住處	-8.87885
巳下	-8.87939
體性	-8.88031
反	-8.88319
頭	-8.8855
佛所	-8.88662
何等為十	-8.88761
陀羅尼	-8.88856
據	-8.88904
法華	-8.89003
自體	-8.8901
安立	-8.89079
如此	-8.89165
無量無邊	-8.89191
備	-8.8955
發菩提心	-8.89749
自他	-8.8999
徹	-8.90004
告	-8.90008
都	-8.90019
顯現	-8.9024
離垢	-8.90367
無能	-8.90386
初句	-8.90387
劣	-8.90388
宮	-8.90501
無分別	-8.90534
并	-8.90608
微妙	-8.90852
和合	-8.90934
然此	-8.91463
有情	-8.91835
轉法輪	-8.91897
阿	-8.91938
始終	-8.92004
如來藏	-8.9226
象	-8.924
志	-8.92462
曾	-8.92613
友	-8.92703
不可得	-8.92751
布	-8.93296
顯示	-8.93315
守護	-8.93392
內外	-8.93433
有無	-8.9349
經中	-8.93558
利他	-8.93565
導	-8.93651
所見	-8.93783
普賢行	-8.93887
冥	-8.93959
賢	-8.94212
四諦	-8.94222
次二	-8.94414
十行	-8.94532
繫	-8.94627
十門	-8.94635
有為	-8.94727
神力	-8.94934
善友	-8.95032
文中	-8.95118
辯才	-8.9524
者是	-8.95457
布施	-8.95677
積	-8.9569
發起	-8.95776
其中	-8.95829
教化	-8.95835
甚	-8.9591
詣	-8.96007
十信	-8.96084
不定	-8.96144
二約	-8.96258
難思	-8.96294
世界海	-8.96357
正念	-8.96488
和	-8.96563
安樂	-8.96579
普照	-8.96876
眾會	-8.96932
善財童子	-8.97014
之言	-8.97324
不礙	-8.97507
善知	-8.97533
皆得	-8.97703
剎海	-8.97771
住於	-8.97922
被	-8.97926
能生	-8.98058
能所	-8.98228
親近	-8.98267
身心	-8.98377
不應	-8.98387
行相	-8.98465
初二	-8.98535
能令	-8.98707
而為	-8.98799
師子	-8.98864
先明	-8.98918
嚴淨	-8.98946
墮	-8.99025
推	-8.99162
亦然	-8.99248
有五	-8.99556
陀	-8.99583
億	-8.99732
許	-8.99812
之心	-8.99837
眾寶	-8.99849
令得	-8.99869
總結	-8.99873
名之為	-9.00034
奉	-9.00153
深入	-9.00175
加行	-9.00195
覩	-9.00691
行故	-9.00872
神變	-9.00892
虛	-9.00966
遇	-9.01081
習氣	-9.01284
如前	-9.01423
隨緣	-9.01618
正覺	-9.01685
各各	-9.01704
入於	-9.01734
二句	-9.01794
尋	-9.01815
十六	-9.0189
東	-9.02035
欲界	-9.02041
種子	-9.02098
十八	-9.02276
新	-9.02319
重重	-9.02351
大方廣佛華嚴經	-9.02397
下結	-9.02398
聽	-9.02644
三寶	-9.02822
性相	-9.03006
故曰	-9.03195
後三	-9.03201
長者	-9.03392
不可說不可說	-9.03732
展轉	-9.04005
久	-9.04222
母	-9.04515
勇猛	-9.04538
五位	-9.04895
問答	-9.05163
廣說	-9.05372
通達	-9.05459
見者	-9.05686
饒益	-9.05923
源	-9.05994
所攝	-9.0619
二門	-9.06195
色相	-9.06198
熏	-9.0646
能入	-9.06517
深心	-9.06597
有一	-9.06623
非有	-9.06654
不出	-9.06832
▁二釋	-9.06887
教化眾生	-9.06916
述	-9.07002
舍	-9.07049
佛土	-9.07093
所證	-9.07203
見聞	-9.07204
法中	-9.07232
瞋	-9.07242
不起	-9.07247
是為十	-9.07363
準	-9.07366
釋云	-9.07382
於諸	-9.07394
所現	-9.07538
陰	-9.07618
深廣	-9.07648
不為	-9.07681
遂	-9.07751
熱	-9.07758
為因	-9.07974
闇	-9.08076
脩	-9.08092
授	-9.08635
牒	-9.08675
須彌	-9.08846
妙寶	-9.09117
大小	-9.09128
調	-9.09205
車	-9.09252
焰	-9.09321
恐	-9.09359
面	-9.09479
惱	-9.09484
應知	-9.09511
總持	-9.09573
初明	-9.09678
或見	-9.09752
若依	-9.09821
而無	-9.09862
悔	-9.09945
此即	-9.09947
一切諸法	-9.10047
詮	-9.10414
沒	-9.10438
無所有	-9.10466
自心	-9.10922
宜	-9.10958
。』	-9.11038
陳	-9.11051
所起	-9.11104
准	-9.11399
置	-9.11443
圓教	-9.11448
放光	-9.11515
于	-9.11557
憶念	-9.11593
非一	-9.11747
悲智	-9.11916
未曾	-9.12111
樓閣	-9.12118
麤	-9.12119
礙	-9.12347
願一切眾生得	-9.12361
聞法	-9.12538
而能	-9.12667
主伴	-9.12958
成熟	-9.12983
言說	-9.13031
脫	-9.1317
十四	-9.13386
虗	-9.13509
壽	-9.13574
百萬	-9.13614
諸如來	-9.13718
開示	-9.13742
敘	-9.14051
化眾生	-9.14089
妙法	-9.14108
位中	-9.14109
畏	-9.14111
賢首	-9.14147
我當	-9.14207
比	-9.14263
中道	-9.14426
於中二	-9.14519
▁五	-9.14672
威儀	-9.14775
却	-9.14789
池	-9.15219
闕	-9.1528
理事	-9.15353
不成	-9.15418
而有	-9.15469
安隱	-9.15539
善法	-9.15709
妄想	-9.15714
畢竟	-9.15767
見道	-9.15788
恩	-9.15934
節	-9.15952
梵行	-9.16313
有二義	-9.16525
為說	-9.16542
相故	-9.16603
無間	-9.16642
了達	-9.16678
我今	-9.16703
實際	-9.16727
己	-9.16964
別顯	-9.17092
無異	-9.17292
諸地	-9.17396
潤	-9.17461
奪	-9.17507
出世間	-9.17811
氣	-9.17868
願力	-9.17883
悅	-9.17892
不失	-9.17935
陀羅尼門	-9.18007
清涼	-9.1829
歷	-9.18626
別明	-9.18799
勤修	-9.18974
攝受	-9.19266
太子	-9.19326
龍王	-9.1965
不空	-9.19704
所化	-9.19752
是則	-9.19758
明了	-9.19759
有十種	-9.19906
序	-9.19929
周遍	-9.20006
初中	-9.20075
橫	-9.20113
智者	-9.20291
三者	-9.20315
之處	-9.20323
毀	-9.20413
此地	-9.20509
三藏	-9.20653
無住	-9.20671
不淨	-9.20756
長行	-9.20839
資	-9.20906
於佛	-9.2092
辭	-9.20952
若不	-9.20974
又此	-9.20994
十身	-9.2105
亦非	-9.21067
力故	-9.21157
縱	-9.21283
互相	-9.21328
常住	-9.21484
三句	-9.21506
依他	-9.21523
閻浮提	-9.21547
信心	-9.21573
不說	-9.21654
殺	-9.21668
積集	-9.21837
正明	-9.21871
眾生界	-9.21888
禪定	-9.21999
以明	-9.22153
名色	-9.2247
事理	-9.22631
但是	-9.2265
行者	-9.2284
此上	-9.22886
同一	-9.23159
殿	-9.2326
佛子菩薩摩訶薩	-9.23626
隨其	-9.23709
無礙智	-9.23867
眾生心	-9.2388
得見	-9.24009
根本智	-9.24085
熟	-9.24126
無垢	-9.24197
諸佛法	-9.24216
果報	-9.24348
即前	-9.2438
前二	-9.24405
䟽	-9.2444
巳下至	-9.24708
損	-9.24861
出離	-9.24904
所緣	-9.24947
中間	-9.25044
普入	-9.25053
一法	-9.25198
及以	-9.25202
誰	-9.25341
分二	-9.25474
夜神	-9.2551
有二種	-9.25519
路	-9.25609
泯	-9.25611
迹	-9.25788
自分	-9.25846
吾	-9.25853
釋文	-9.25876
離諸	-9.25923
偈頌	-9.2598
迦	-9.2602
○	-9.26024
燒	-9.26035
解釋	-9.26044
退	-9.26048
申	-9.26097
東方	-9.26226
不善	-9.26281
前三	-9.26375
妙音	-9.26517
之人	-9.26521
以是	-9.2656
毒	-9.26612
五百	-9.26642
輕	-9.26667
疾	-9.26954
。】「▲	-9.26989
.	-9.27092
夜	-9.2725
靜	-9.27338
相似	-9.2735
愚癡	-9.27425
心無	-9.27471
次一	-9.27514
所修	-9.27612
緣覺	-9.27657
清	-9.27796
濟	-9.2783
此十	-9.2787
髻	-9.27958
無依	-9.28114
無別	-9.28124
怖	-9.28175
入定	-9.28569
行願	-9.288
諸善根	-9.2887
局	-9.28935
化身	-9.28988
釋迦	-9.29032
十五	-9.2909
質	-9.2936
西	-9.29411
【	-9.29417
不共	-9.29538
自身	-9.29552
門中	-9.2973
思之	-9.2983
如虛空	-9.29831
地前	-9.29858
正顯	-9.29903
亦可	-9.29921
修菩薩行	-9.2998
宣	-9.29995
威德	-9.30105
八地	-9.30132
讚歎	-9.30395
義也	-9.3049
自利	-9.30512
最上	-9.30619
但有	-9.30645
次句	-9.30807
書	-9.30812
儀	-9.30864
二十	-9.30894
性故	-9.30905
知一切法	-9.30917
覺悟	-9.31004
此三	-9.31096
不退轉	-9.31115
是佛	-9.31118
助	-9.3112
或以	-9.31142
權實	-9.3124
我等	-9.31245
十三	-9.31467
別釋	-9.31529
修多羅	-9.31579
童子	-9.31645
知見	-9.31691
不二	-9.3176
法者	-9.31847
現身	-9.31856
現行	-9.32033
十七	-9.32192
一身	-9.32234
百億	-9.323
不違	-9.32307
舌	-9.32364
鬼	-9.32468
本末	-9.3266
毛	-9.33019
善惡	-9.33133
當願眾生	-9.33448
四十	-9.33552
懷	-9.33586
證入	-9.33611
得法	-9.33738
一約	-9.33943
差	-9.3397
是也	-9.34091
濁	-9.34091
無限	-9.34097
無量劫	-9.34106
患	-9.34154
釋名	-9.34173
真空	-9.34295
捨離	-9.34309
一多	-9.34354
一切佛剎	-9.34362
判	-9.34363
婆羅門	-9.34459
則能	-9.3447
持戒	-9.3465
穢	-9.34711
一切皆	-9.34979
十方世界	-9.35174
理智	-9.35412
士	-9.35454
父母	-9.35465
十九	-9.35628
普眼	-9.35706
若無	-9.35715
一切剎	-9.35776
寺	-9.35872
智力	-9.35895
田	-9.36017
若以	-9.36068
四種	-9.36117
流轉	-9.36127
偈云	-9.36593
盛	-9.36605
犯	-9.36631
往昔	-9.36796
菩薩如是	-9.36994
住持	-9.37008
無色	-9.37239
何等	-9.37331
則無	-9.37349
憂	-9.37384
從此	-9.37434
提	-9.37458
所住	-9.37637
彌勒	-9.37656
怨	-9.37791
答曰	-9.37874
但以	-9.37877
昇	-9.38048
一向	-9.38066
大用	-9.3813
七地	-9.38155
成益	-9.38181
下文	-9.38232
純	-9.38306
領	-9.38337
而得	-9.38404
身業	-9.3841
光照	-9.38435
實相	-9.38441
▁初標	-9.38543
緣生	-9.38558
簡	-9.38564
一味	-9.38593
四天下	-9.38901
瓔珞	-9.39245
無餘	-9.39247
神通力	-9.39267
亦如	-9.39296
園	-9.39481
平	-9.39509
同教	-9.39595
宿	-9.39678
纏	-9.39686
相好	-9.39736
毗盧遮那	-9.39859
同體	-9.40034
十迴向	-9.40113
之時	-9.40316
依正	-9.40349
懺悔	-9.40404
毗	-9.40647
往詣	-9.40711
以成	-9.40718
逆	-9.40747
無等	-9.40767
一塵	-9.40836
倍	-9.4084
二釋	-9.40871
所入	-9.41024
隨所	-9.41025
是其	-9.41094
毛孔	-9.41195
而生	-9.41288
意業	-9.41337
大慈	-9.41488
但云	-9.41499
無所著	-9.41588
暫	-9.41608
故得	-9.4174
開悟	-9.41764
同前	-9.41778
相入	-9.41829
依此	-9.41851
沙門	-9.41855
如空	-9.41883
此法	-9.41893
及諸	-9.41945
攝取	-9.42062
成滿	-9.42247
能持	-9.42296
臺	-9.42343
剎那	-9.42407
靈	-9.42411
能成	-9.4245
名號	-9.42551
拔	-9.42733
其所	-9.43059
此明	-9.43073
待	-9.43148
心境	-9.43235
一切法界	-9.43367
影像	-9.43372
悉令	-9.43432
如上	-9.43474
。】	-9.43597
承	-9.43787
暗	-9.43854
別教	-9.43876
利生	-9.43919
業報	-9.43994
消	-9.44026
周徧	-9.44043
老	-9.44197
有漏	-9.44221
無始	-9.44327
相者	-9.44378
為令一切眾生	-9.44503
下句	-9.4453
云云	-9.44546
放大光明	-9.44551
佛境界	-9.44579
三世諸佛	-9.44647
大慈悲	-9.44781
堪	-9.44807
尊重	-9.44812
元	-9.44833
語言	-9.44883
亦云	-9.449
者明	-9.44935
地中	-9.4508
離相	-9.45102
北	-9.45118
終教	-9.45125
故不	-9.4526
意云	-9.45489
乖	-9.45536
以智	-9.45563
欲令	-9.45578
蒙	-9.45607
則為	-9.45635
起行	-9.45902
故知	-9.45927
中三	-9.45936
帝釋	-9.45937
相違	-9.45953
總明	-9.46111
此品	-9.46161
之果	-9.46225
世界中	-9.46265
底	-9.46267
善能	-9.46387
之智	-9.46592
毘	-9.46705
靡不	-9.46725
三千大千世界	-9.46824
一分	-9.46992
結成	-9.47155
無染	-9.47218
明淨	-9.47255
無體	-9.47395
或現	-9.47397
自在力	-9.47402
誓願	-9.47524
弟子	-9.47773
所詮	-9.47831
知一切	-9.47855
言音	-9.47934
舊	-9.47992
沙	-9.48208
木	-9.48389
論釋	-9.48611
得名	-9.48688
總相	-9.48719
真性	-9.48751
葉	-9.48792
華藏	-9.48876
天子	-9.48876
𦦨	-9.49016
第一義	-9.4904
別中	-9.49048
真理	-9.49083
一相	-9.49158
唯一	-9.49199
佛剎微塵數	-9.49217
?」	-9.49242
性空	-9.49309
肉	-9.49586
祖	-9.49609
即為	-9.497
生歡喜	-9.49794
即空	-9.49845
灌頂	-9.49854
此位	-9.49893
除滅	-9.49937
大地	-9.49942
於中三	-9.4997
若爾	-9.50013
牛	-9.50066
此則	-9.50112
五蘊	-9.50115
能現	-9.50129
之因	-9.50154
不取	-9.5029
雖有	-9.50338
一人	-9.50376
一切處	-9.50399
廻向	-9.50411
二諦	-9.50455
美	-9.50492
說者	-9.50897
普遍	-9.50898
各別	-9.50953
決	-9.50979
疏云	-9.50989
日月	-9.51026
一生	-9.5107
二明	-9.51127
功用	-9.51142
於法	-9.51241
進修	-9.51281
聖者	-9.51342
不可壞	-9.5141
壽命	-9.51594
本來	-9.51743
智論	-9.51953
微塵數	-9.5211
代	-9.52152
金剛藏	-9.52216
此義	-9.52289
室	-9.52517
為首	-9.52521
分三	-9.52625
▁六	-9.52631
頓教	-9.52666
法相	-9.52667
帶	-9.52687
趣入	-9.52787
唱	-9.5287
之德	-9.53063
受用	-9.5317
若有眾生	-9.53186
精	-9.53224
是以	-9.53263
深密	-9.53324
菩薩摩訶薩亦復如是	-9.53397
謂此	-9.53415
次三	-9.53629
怖畏	-9.53676
法雨	-9.53715
─	-9.53792
在於	-9.53874
之意	-9.53914
有六	-9.54053
不求	-9.54154
前四	-9.54178
如夢	-9.54226
伽	-9.54413
立名	-9.54523
淨名	-9.54562
即以	-9.54588
唯有	-9.54593
參	-9.54664
十法	-9.54743
智故	-9.54762
身雲	-9.54797
廢	-9.55021
鳥	-9.55021
此文	-9.5523
不變	-9.55231
垂	-9.55311
於一切法	-9.55423
忘	-9.55462
然後	-9.55582
得佛	-9.55639
所為	-9.55666
不可盡	-9.5573
由旬	-9.55863
背	-9.55906
具德	-9.55922
作意	-9.55949
帝	-9.55981
宣說	-9.56011
妨	-9.56121
空有	-9.56311
強	-9.56474
甚微細	-9.56607
跡	-9.56773
惡業	-9.56798
慶	-9.56798
故今	-9.56816
徵釋	-9.56835
俱舍	-9.56859
宅	-9.56893
十千	-9.56911
何者	-9.56944
歲	-9.56992
菩薩道	-9.57035
石	-9.57094
以顯	-9.57101
公	-9.57113
之事	-9.57165
導師	-9.57198
本有	-9.57214
為性	-9.57356
運	-9.5739
越	-9.57444
知識	-9.57455
制	-9.57514
三昧門	-9.57578
也言	-9.57599
如何	-9.57626
初總	-9.57756
談	-9.57839
所引	-9.57843
馬	-9.57915
初標	-9.57979
列名	-9.57983
金色	-9.58057
長養	-9.58096
之理	-9.58147
之門	-9.58468
麁	-9.58478
智光	-9.58565
塔	-9.58942
黑	-9.59015
無功用	-9.59068
諸惡	-9.59076
頌前	-9.59181
普見	-9.59264
善男子我	-9.59342
入一切	-9.59407
異熟	-9.59416
故此	-9.59436
於中初	-9.5954
任	-9.59585
成壞	-9.59653
則得	-9.59709
表法	-9.59714
中初	-9.59783
令諸眾生	-9.59802
料揀	-9.60362
止觀	-9.60754
無礙用	-9.60762
審	-9.60857
疑惑	-9.60917
謗	-9.61037
太	-9.61056
如來身	-9.61124
正釋	-9.61216
問曰	-9.61266
惡道	-9.61292
阿含	-9.61411
而言	-9.61445
生起	-9.61453
等故	-9.61515
真諦	-9.6152
為主	-9.61547
今經	-9.61582
非無	-9.61651
包	-9.61657
總顯	-9.61658
度眾生	-9.61825
勿	-9.61898
敷	-9.62015
人中	-9.62037
本性	-9.62037
只	-9.62077
九地	-9.62114
虛空界	-9.62146
悉得	-9.62173
般若波羅蜜	-9.62326
不盡	-9.62341
諸有	-9.62357
三約	-9.62375
總別	-9.62594
最後	-9.62679
勢	-9.62803
仰	-9.62829
皆令	-9.62847
而起	-9.62883
降	-9.62904
為本	-9.62965
略說	-9.6302
法王	-9.63055
等覺	-9.63094
諸煩惱	-9.63143
有三種	-9.63208
鬘	-9.63342
彼岸	-9.63381
曉	-9.63407
莊嚴具	-9.63488
解行	-9.63529
原	-9.63606
聖人	-9.63722
未得	-9.6378
佛地	-9.63796
若干	-9.63878
對前	-9.6394
雜染	-9.63999
攝生	-9.64007
加持	-9.64019
大意	-9.64063
甘露	-9.64083
》	-9.64096
勝解	-9.64202
語業	-9.64227
文云	-9.64268
於一念中	-9.64375
徒	-9.64412
入法界	-9.64472
之境	-9.64491
焉	-9.6462
七日	-9.64654
上二	-9.64686
不相	-9.6483
初三	-9.64864
果故	-9.64874
助道	-9.64883
塵數	-9.64903
仁	-9.64925
其相	-9.6495
是時	-9.64954
律	-9.65003
曲	-9.65033
正道	-9.65042
不作	-9.65071
故非	-9.65147
哉	-9.65226
令入	-9.65262
端	-9.65318
極樂淨土	-9.6544
花	-9.65459
福智	-9.65463
尼	-9.65549
勝德	-9.65587
本願	-9.65661
無厭	-9.65758
成道	-9.65865
圍繞	-9.65887
始教	-9.65897
四門	-9.659
慮	-9.65921
即得	-9.65925
勝行	-9.65962
令他	-9.65986
祕密	-9.6599
三性	-9.66012
故言	-9.66019
留	-9.66057
皆以	-9.66058
別有	-9.66092
自在故	-9.66136
論文	-9.66203
為眾生	-9.66242
▁初明	-9.66289
草	-9.6641
八萬四千	-9.66436
梵本	-9.66446
一切善根	-9.66493
本無	-9.66519
童女	-9.66535
連	-9.66557
不信	-9.66612
竭	-9.66754
之身	-9.66832
所持	-9.66856
無比	-9.66926
一偈	-9.66937
無自性	-9.66964
離障	-9.67007
經說	-9.67078
十義	-9.671
畧	-9.6711
佛剎微塵數世界	-9.67191
誠	-9.67198
論中	-9.67213
梵王	-9.67286
答言	-9.67307
四者	-9.67343
相對	-9.67372
得自在	-9.67391
得入	-9.67405
超過	-9.67592
改	-9.67614
故說	-9.6778
令眾生	-9.67861
悉知	-9.67927
多聞	-9.68028
寧	-9.68044
性起	-9.68087
巳上	-9.68089
教義	-9.681
能以	-9.68106
福田	-9.68107
懺	-9.68156
無上菩提	-9.68156
交	-9.68156
知眾生	-9.6818
唯心	-9.68209
普門	-9.68267
有多	-9.68278
四大	-9.68343
智海	-9.68369
一切智智	-9.68388
入此	-9.68443
者以	-9.68477
但為	-9.68509
心不	-9.68569
漸次	-9.68645
少分	-9.68645
步	-9.68649
一門	-9.68711
作是念	-9.68717
天人	-9.68797
隨意	-9.68848
此下	-9.68964
常樂	-9.68978
一性	-9.69005
衣服	-9.69006
生故	-9.69157
正見	-9.6918
悉以	-9.69205
假名	-9.69226
如彼	-9.69235
短	-9.69276
阿僧祇寶	-9.69337
父	-9.69338
則有	-9.69382
佛境	-9.69447
剎土	-9.69536
意樂	-9.69553
攝論	-9.69581
不了	-9.69597
障礙	-9.69668
諍	-9.69725
岸	-9.69957
剎塵	-9.69981
何況	-9.70002
▁三結	-9.70045
減	-9.70124
證得	-9.7017
愛樂	-9.70198
法藏	-9.70222
蔽	-9.70271
無邊際	-9.70361
無量眾生	-9.70436
諸世界	-9.70468
化生	-9.70516
彌	-9.70568
諸世間	-9.70576
修道	-9.7061
諸功德	-9.70705
正受	-9.70818
廣如	-9.70903
如下	-9.70949
恭敬供養	-9.71101
阿難	-9.71101
繁	-9.71153
誦	-9.71165
我所	-9.71172
弘	-9.71176
行成	-9.71177
虛妄	-9.71309
永離	-9.71426
承事	-9.71527
無所依	-9.71574
貴	-9.71579
三明	-9.71581
諸趣	-9.71596
得解脫	-9.71635
名字	-9.71667
十度	-9.71726
妙德	-9.71969
十方諸佛	-9.71981
胎	-9.72019
諸佛如來	-9.72082
文字	-9.72179
聖教	-9.72381
念佛	-9.72404
方能	-9.72436
作是	-9.72441
五欲	-9.72456
即無	-9.72527
愍	-9.72549
淺	-9.72552
二障	-9.72585
種種莊嚴	-9.72608
視	-9.7262
善根迴向	-9.72655
真俗	-9.72689
恚	-9.7273
注	-9.72768
威力	-9.72772
釋成	-9.72784
佛力	-9.72826
三有	-9.72872
九十	-9.72884
一切劫	-9.72932
上下	-9.72991
吉祥	-9.73061
專	-9.7308
稠林	-9.7318
誓	-9.73204
德用	-9.7325
差別智	-9.73294
▁○	-9.7336
明其	-9.73382
師子座	-9.73398
鼻	-9.73413
善哉	-9.73415
入佛	-9.73425
爾時善財童子	-9.73441
難得	-9.73441
多劫	-9.73463
如實知	-9.73471
在家	-9.7348
空中	-9.73584
臨	-9.73663
謂於	-9.73709
終不	-9.73855
而說	-9.73886
不及	-9.73952
最初	-9.73974
圍遶	-9.73979
劫中	-9.73996
智光明	-9.7402
有其	-9.7405
初會	-9.74065
放逸	-9.74192
欣	-9.74238
有異	-9.74349
諸位	-9.74355
所求	-9.74387
隨機	-9.74438
華嚴經	-9.74443
已下至	-9.74478
淨心	-9.74494
下半	-9.74665
今以	-9.74729
皆能	-9.74779
答前	-9.74822
上句	-9.74841
招	-9.75032
滯	-9.75042
體相	-9.75071
有世界名	-9.75108
以一	-9.7515
一品	-9.75156
有三義	-9.7521
」【	-9.75282
作用	-9.75364
眾生故	-9.75377
色界	-9.75444
一切寶	-9.75508
之內	-9.75516
無記	-9.75529
下顯	-9.75601
後釋	-9.75606
盡未來際	-9.75813
毘盧遮那	-9.7587
融通	-9.75943
惡趣	-9.75964
發阿耨多羅三藐三菩提心	-9.75992
一毛	-9.76183
相望	-9.76336
幾	-9.76469
救護	-9.76485
六度	-9.76486
飾	-9.76524
畜生	-9.76609
一切煩惱	-9.76702
能說	-9.76716
三地	-9.76819
生處	-9.76831
慈心	-9.76912
測	-9.76931
皆從	-9.76962
難知	-9.76967
欲樂	-9.77058
。」【【	-9.77109
歎佛	-9.77127
品云	-9.77182
證成	-9.77227
一頌	-9.7723
更有	-9.7735
苦惱	-9.7735
無厭足	-9.77357
事故	-9.77541
如是一切	-9.7759
題	-9.77606
能證	-9.77682
不滅	-9.77725
處處	-9.77806
能見	-9.7781
阿耨多羅三藐三菩提	-9.77822
海中	-9.77824
畢	-9.77932
眾苦	-9.7807
不從	-9.78148
乾	-9.78158
期	-9.78219
唐	-9.78234
苦行	-9.7829
為宗	-9.78337
皆同	-9.7838
為大	-9.78396
神足	-9.78442
一百	-9.78471
而行	-9.78484
潔	-9.78526
又如	-9.78536
無際	-9.78573
不染	-9.78629
後四	-9.78744
校量	-9.78747
盲	-9.78897
故有	-9.78897
解云	-9.7896
法海	-9.78962
囉	-9.78991
苦樂	-9.79026
汝等	-9.79042
六句	-9.79053
佛功德	-9.79179
見彼	-9.79187
同異	-9.79205
見如來	-9.79258
六十	-9.79273
令彼	-9.79317
通於	-9.79319
初發心	-9.79333
戲論	-9.79358
解脫月	-9.79373
即入	-9.79441
十善	-9.79496
此之	-9.79509
隨好	-9.7956
如來所	-9.79565
寬	-9.79571
或為	-9.79586
旋	-9.79733
至於	-9.79746
中說	-9.79762
憍慢	-9.79788
意識	-9.79796
下總結	-9.79925
於念念中	-9.7996
堂	-9.79963
喜樂	-9.79991
帝網	-9.79993
何等為十所謂	-9.80087
大法	-9.80106
貪欲	-9.80136
乳	-9.80197
體故	-9.80217
真金	-9.80228
地上	-9.80318
即此	-9.80321
畫	-9.80349
枝	-9.80467
漏	-9.80473
舍利弗	-9.80502
以何	-9.80511
明見	-9.80532
隨心	-9.80555
人法	-9.80619
懈怠	-9.80634
我慢	-9.80654
摧	-9.80668
嚴飾	-9.80676
交徹	-9.80806
娑婆	-9.8085
風輪	-9.80915
瑠璃	-9.81072
為一切眾生	-9.81117
妙色	-9.81118
兜率天	-9.81202
教法	-9.81233
於法界	-9.8134
輪王	-9.81368
熾然	-9.8149
速疾	-9.81502
耶答	-9.81528
憶	-9.81587
分中	-9.81811
佛德	-9.81812
優婆夷	-9.81826
勝義	-9.81836
諸業	-9.8184
滅度	-9.81844
餘皆	-9.81844
餘九	-9.81876
棄	-9.81888
建	-9.81903
所問	-9.81992
隨逐	-9.82156
行門	-9.82165
之體	-9.82226
隔	-9.82269
菩薩摩訶薩有十種	-9.82336
論經	-9.82388
隨眾生心	-9.82393
五句	-9.82394
世界種	-9.82431
一佛	-9.82456
結云	-9.82462
離過	-9.82567
智悲	-9.82589
已上	-9.82668
法體	-9.8274
理實	-9.82767
得聞	-9.82768
大智慧	-9.82828
下辨	-9.8284
一處	-9.82859
正說	-9.82902
人間	-9.82902
可見	-9.82949
亦同	-9.8298
分四	-9.83071
下別	-9.83127
賢聖	-9.83164
下別顯	-9.83165
能治	-9.83219
定慧	-9.83256
妙行	-9.83304
五種	-9.8333
護持	-9.83354
伴	-9.83366
《	-9.83459
二利	-9.83465
受苦	-9.83553
又以	-9.83603
求法	-9.83664
翳	-9.83681
是知	-9.83726
變易	-9.83864
四攝	-9.83895
流通	-9.83914
因故	-9.84008
五十	-9.84118
之本	-9.84181
得果	-9.84228
八十	-9.84248
不覺	-9.84255
成等正覺	-9.84265
如虗空	-9.84462
守	-9.84492
飲食	-9.84588
唯是	-9.84931
聖道	-9.84941
如海	-9.84997
眾中	-9.8502
承佛神力	-9.8507
不與	-9.85086
寶莊嚴	-9.85111
結前	-9.85239
可得	-9.85301
授記	-9.85306
所以者何	-9.85329
或說	-9.85359
何得	-9.85373
寶華	-9.85401
於世間	-9.85411
熏習	-9.8549
一劫	-9.85494
三結	-9.85645
放光明	-9.85694
懸	-9.85744
無違	-9.85747
之道	-9.85809
菩薩住此	-9.85887
不可稱	-9.85889
諸天子	-9.85903
別相	-9.85952
遊戲	-9.85998
而說頌言	-9.86017
作業	-9.8605
行布	-9.86098
返	-9.86167
亦得	-9.86182
功德海	-9.8622
能作	-9.86273
如理	-9.86292
無想	-9.86301
法爾	-9.86316
修學	-9.86359
一云	-9.86407
由前	-9.86414
冠	-9.86469
果德	-9.86535
之名	-9.86584
六根	-9.86592
燄	-9.86666
一音	-9.86675
謙	-9.86736
難可	-9.86774
隱顯	-9.86785
隨喜	-9.86822
以法	-9.86884
有大人相	-9.86893
言辭	-9.86922
諸教	-9.86941
廣釋	-9.86957
執著	-9.87002
十佛	-9.87006
慚愧	-9.87093
若見	-9.87117
仍	-9.87122
於前	-9.87161
得清淨	-9.8725
狹	-9.87264
大聖	-9.87325
不依	-9.8736
何有	-9.87431
香水海	-9.87551
天眼	-9.87585
行體	-9.87601
是人	-9.87642
五陰	-9.87669
起信	-9.87743
空寂	-9.87855
不忘	-9.87898
不在	-9.87962
經論	-9.88015
所由	-9.88035
二偈	-9.88039
青	-9.88128
皆由	-9.88134
西方	-9.88175
謂一	-9.88258
納	-9.88259
說故	-9.88261
世法	-9.88299
磨	-9.88301
同於	-9.88379
飲	-9.88431
故迴向	-9.88579
賊	-9.88623
非實	-9.8866
勢力	-9.88776
▁「	-9.88793
不自	-9.88886
良	-9.88887
同名	-9.88963
如意	-9.89004
竝	-9.89051
四禪	-9.89083
梵天	-9.89197
能詮	-9.89212
獨覺	-9.89243
合掌	-9.89301
引證	-9.89307
朝	-9.89316
後際	-9.89392
上三	-9.89468
貫	-9.89493
免	-9.89651
瑞	-9.89657
薩	-9.89719
又前	-9.89735
報身	-9.89747
顯勝	-9.89786
星	-9.89796
皆為	-9.89857
菩薩地	-9.89908
諸菩薩眾	-9.89992
涉	-9.90044
講	-9.90121
佛道	-9.9019
希有	-9.90234
不聞	-9.90242
會中	-9.90251
悟入	-9.90283
權教	-9.90322
阿羅漢	-9.90323
帖	-9.90326
本覺	-9.90387
自相	-9.90444
劫數	-9.90511
略舉	-9.9056
服	-9.90595
法空	-9.9062
無窮	-9.90721
明知	-9.90757
異故	-9.90807
之一	-9.90815
此句	-9.90897
牒前	-9.90957
靜慮	-9.90958
境故	-9.90988
三世佛	-9.91014
詞	-9.91046
若能	-9.91061
呼	-9.91063
稱讚	-9.91099
日光	-9.91112
亦通	-9.9112
離世間品	-9.91153
般涅槃	-9.91195
以彼	-9.91205
遍法界	-9.91242
一對	-9.91292
夜叉	-9.9137
圓覺	-9.91448
調柔	-9.9146
利益眾生	-9.91506
願行	-9.91512
不亂	-9.91568
成德	-9.91622
是謂	-9.91707
離欲	-9.91766
佛子菩薩摩訶薩有十種	-9.91781
命終	-9.91787
黃	-9.9184
限	-9.91858
勝故	-9.9187
何不	-9.919
護念	-9.91902
▁二明	-9.91944
帳	-9.91955
所說法	-9.91978
一明	-9.9201
辟支佛	-9.92028
萬物	-9.92041
一一皆	-9.92057
二字	-9.92072
此釋	-9.92112
恒河沙	-9.92172
度脫	-9.92189
佛事	-9.92237
文義	-9.92251
一義	-9.92264
貧	-9.92277
全同	-9.92283
唯約	-9.92293
自有	-9.92369
作佛事	-9.92389
成行	-9.92513
勸修	-9.92518
此亦	-9.92528
行位	-9.92533
成立	-9.92565
不可量	-9.92593
二地	-9.92614
然其	-9.92619
分明	-9.92647
自行	-9.92725
所應	-9.92755
下二	-9.9277
哀	-9.928
皆云	-9.92816
攝一切	-9.92846
天女	-9.92912
勇	-9.92925
十億	-9.92954
道理	-9.93064
四地	-9.93074
無㝵	-9.93152
圓明	-9.93168
二頌	-9.93238
里	-9.93246
知一切眾生	-9.93252
衰	-9.93277
震	-9.93319
雜集	-9.93325
六地	-9.93345
迦葉	-9.93351
前十	-9.93511
悉見	-9.9355
髮	-9.93697
生於	-9.93736
前五	-9.93743
眉間	-9.93752
法雲	-9.93856
無差	-9.93882
餓鬼	-9.93908
能起	-9.93912
值	-9.93938
心行	-9.9401
昇進	-9.94032
訶	-9.94101
上半	-9.94144
增減	-9.94227
無力	-9.94322
知其	-9.94331
七寶	-9.94348
心故	-9.94361
須彌山	-9.94389
是一	-9.94421
有力	-9.94422
鐵	-9.94465
十中	-9.94492
一切功德	-9.94556
震動	-9.94584
善業	-9.94634
拂	-9.94636
三品	-9.94658
心生	-9.94668
泥	-9.94755
誑	-9.94774
落	-9.94783
酬	-9.94805
隨時	-9.94857
幽	-9.94861
義理	-9.94896
如一	-9.94934
大同	-9.94935
調伏眾生	-9.94991
轉變	-9.95027
得此	-9.95033
明此	-9.9507
普光明	-9.95107
統	-9.9511
菩提場	-9.95131
沈	-9.9515
一切種智	-9.95271
彼佛	-9.95288
毫	-9.95451
所居	-9.95512
女人	-9.95717
三門	-9.95735
威	-9.95785
若人	-9.95792
柔軟	-9.95793
智慧光明	-9.95821
利樂	-9.95828
𤼵	-9.95843
此等	-9.95855
永斷	-9.95864
身中	-9.95874
斷惑	-9.95993
總是	-9.95998
以無	-9.96052
我於	-9.96058
入一	-9.96106
諸波羅蜜	-9.96114
託	-9.96137
會通	-9.9614
如影	-9.96237
」「	-9.96238
法施	-9.9638
行法	-9.96502
直心	-9.96525
單	-9.96527
異類	-9.96575
一事	-9.96619
姓	-9.96626
隨諸眾生	-9.96661
究	-9.96692
塵中	-9.96737
從緣	-9.96802
聚落	-9.96923
濕	-9.96942
普光	-9.97009
心念	-9.97145
獄	-9.97402
解了	-9.9745
所觀	-9.97464
真妄	-9.9751
而成	-9.97545
空故	-9.97653
轉輪王	-9.97667
無有休息	-9.97703
如來智慧	-9.97712
十箇	-9.97728
稱性	-9.97758
說此	-9.97765
園林	-9.97852
▁七	-9.97858
攝化	-9.98065
狀	-9.98113
一切眾生心	-9.98138
檀	-9.98142
察	-9.98236
於如來	-9.98237
之性	-9.98249
六相	-9.9829
以為莊嚴	-9.98377
開合	-9.98391
一部	-9.98483
是總	-9.98488
佛菩提	-9.98512
而來	-9.98661
而現	-9.98696
登	-9.98735
信樂	-9.98737
升	-9.98762
上之	-9.989
譬如真如	-9.98956
有人	-9.99013
此四	-9.99078
當得	-9.99088
我身	-9.99156
亦復	-9.99277
行中	-9.99325
三毒	-9.99346
上妙	-9.99422
方為	-9.99529
三十二	-9.99579
謬	-9.99594
仙	-9.99667
為緣	-9.9967
一萬	-9.99688
理故	-9.99734
丈夫	-9.99776
三賢	-9.99846
群	-9.99855
其義	-9.99879
作佛	-9.99924
缺	-9.99927
投	-9.99928
不入	-9.99935
之力	-9.99978
無因	-9.99984
論主	-10.0011
皮	-10.0018
正報	-10.0019
智身	-10.0022
慳	-10.0022
菩提心者	-10.0023
箇	-10.0023
諸大	-10.0023
於其	-10.0029
因緣故	-10.003
不爾	-10.0033
妙華	-10.0033
中有三	-10.0038
赤	-10.0058
有此	-10.006
如佛	-10.0067
摩尼王	-10.0069
山王	-10.0074
彼諸	-10.0076
應云	-10.0079
懼	-10.0085
眾生身	-10.0087
此會	-10.009
古今	-10.0108
大王	-10.0109
圓成	-10.011
五者	-10.0115
遺	-10.0124
恐怖	-10.0131
所言	-10.0138
性淨	-10.014
非不	-10.0142
故能	-10.0142
及與	-10.0143
慧菩薩	-10.0146
化作	-10.0147
創	-10.0154
此人	-10.017
展	-10.0182
初二句	-10.0186
開敷	-10.0186
聞者	-10.0187
顯法	-10.0189
責	-10.0194
復作是念	-10.0195
勞	-10.0196
啟	-10.0198
臣	-10.0203
有世界	-10.0203
或云	-10.0204
則不	-10.0208
即於	-10.0208
羅剎	-10.021
徧法界	-10.0212
有何	-10.022
如次	-10.0225
如來智	-10.0226
即事	-10.0228
獲得	-10.0228
從初	-10.0232
勝妙	-10.0234
不分別	-10.0242
邊際	-10.0242
離一切	-10.0246
說為	-10.0247
無功	-10.0248
我為	-10.0249
精勤	-10.0255
偈讚	-10.0257
蓮華藏	-10.0264
隨相	-10.0265
不以	-10.0272
▁初釋	-10.0275
無念	-10.0279
成故	-10.028
種種色	-10.028
普入一切	-10.0281
後偈	-10.0282
充	-10.0284
則是	-10.0284
階	-10.0291
擊	-10.0293
三時	-10.0295
更無	-10.0296
芽	-10.0296
三身	-10.0296
深信	-10.0299
事事無礙	-10.0304
世俗	-10.0309
有八	-10.0327
天地	-10.0334
充滿法界	-10.0335
今明	-10.0337
佛說	-10.0338
是法	-10.0341
濫	-10.0342
九句	-10.0344
徃	-10.0347
中有二	-10.0348
特	-10.0358
羅漢	-10.036
又復	-10.036
菩薩住	-10.0361
響	-10.0362
約法	-10.0365
此上過佛剎微塵數世界	-10.0365
聽聞	-10.0376
無性故	-10.0379
律儀	-10.0384
如說	-10.0386
萬法	-10.0396
餘義	-10.0397
▁二別	-10.0402
無可	-10.0405
來意	-10.0415
十波羅蜜	-10.0415
遊行	-10.0417
普照一切	-10.0419
普能	-10.0421
令知	-10.0421
一種	-10.0422
云何為	-10.0425
施設	-10.0427
乃是	-10.0435
普徧	-10.0437
具十	-10.0438
猛	-10.044
具云	-10.0442
一段	-10.0443
不受	-10.0443
今云	-10.0445
前中二	-10.0449
寶藏	-10.045
▁南無得	-10.0453
答云	-10.0454
爾時世尊	-10.0456
生死海	-10.046
逐	-10.0476
下三	-10.0477
災	-10.0477
悉亦如是	-10.0477
清淨故	-10.048
普雨	-10.0484
正行	-10.0487
盜	-10.0492
栴檀	-10.0495
令生	-10.0499
心常	-10.0501
為其	-10.0503
諸相	-10.0503
見此	-10.0506
初禪	-10.0514
非唯	-10.053
是事	-10.0533
俱生	-10.0535
亦應	-10.0537
唯願	-10.0537
恨	-10.0538
入涅槃	-10.0539
飛	-10.0541
無所畏	-10.0545
十方一切	-10.0548
楞伽	-10.0551
歎德	-10.0551
供佛	-10.0559
何所	-10.0563
供養諸佛	-10.0568
降伏	-10.0569
佛教	-10.0573
既爾	-10.0573
於世	-10.0575
唯除	-10.058
老死	-10.058
汝應	-10.0583
無心	-10.0593
今當	-10.0595
淨穢	-10.0603
何謂	-10.0604
偈中	-10.0609
果海	-10.0611
有七	-10.0622
三際	-10.063
▁初正	-10.0637
則知	-10.0639
貧窮	-10.064
希	-10.0642
南方	-10.0642
意明	-10.0651
妙莊嚴	-10.0651
大心	-10.0655
諸三昧	-10.0656
妙香	-10.0666
有二意	-10.0672
諸佛所	-10.0675
知法	-10.0676
總名	-10.0689
略無	-10.0694
不具	-10.0698
證智	-10.0702
說偈	-10.0703
嗔	-10.0708
拘	-10.071
誤	-10.0712
長短	-10.0714
哀愍	-10.0714
▁後	-10.072
接	-10.0729
疏文	-10.0735
故須	-10.0736
今疏	-10.0742
二合	-10.0742
養	-10.0746
得成	-10.0747
同行	-10.0754
佛言	-10.0756
不言	-10.0765
同類	-10.0766
經意	-10.0767
三世間	-10.0769
而住	-10.0776
次四	-10.0777
而作	-10.0779
普覆	-10.079
非真	-10.0791
於生死	-10.0793
一行	-10.0795
三義	-10.0802
▁初揔	-10.0804
義者	-10.0807
功能	-10.0812
十萬	-10.0826
善住	-10.0834
下正顯	-10.0836
趣向	-10.0839
時分	-10.085
愧	-10.0851
佛名	-10.0864
海印	-10.0864
不可說佛剎微塵數	-10.0867
舍那	-10.087
能得	-10.0872
如其	-10.0879
得益	-10.0883
二空	-10.0888
智地	-10.0894
中先	-10.0895
鼓	-10.0896
見諸佛	-10.0903
如人	-10.0904
為令眾生	-10.0908
層	-10.0918
施行	-10.0922
二行	-10.0922
以其	-10.0926
正是	-10.0927
後結	-10.0927
忍辱	-10.0929
三十	-10.0931
門者	-10.0933
廣狹	-10.0944
大菩提	-10.0945
右	-10.0947
不名	-10.0949
傷	-10.0964
怛	-10.0965
威光	-10.0967
閻浮	-10.0976
五教	-10.0976
法也	-10.0983
晉經	-10.0984
多少	-10.0985
正義	-10.0988
善行	-10.0989
晉	-10.0994
德相	-10.0996
諸佛菩薩	-10.0997
無涯	-10.0998
會釋	-10.1
瞋恚	-10.1
於我	-10.1001
薩婆若	-10.1003
後五	-10.1005
生如來家	-10.1007
初心	-10.1007
並是	-10.1009
滅故	-10.1013
能攝	-10.1026
王子	-10.103
能受	-10.1035
行菩薩行	-10.1043
錢	-10.105
法華經	-10.1052
承佛威力	-10.1055
善知識者	-10.106
任運	-10.1063
或復	-10.1076
皆具	-10.1087
露	-10.1094
非色	-10.11
詳	-10.1102
淨治	-10.1103
後得	-10.1107
佛告	-10.1112
道品	-10.1123
往來	-10.1126
於他	-10.113
菩提樹	-10.1141
之文	-10.1144
偽	-10.1144
一一毛孔	-10.1151
能化	-10.1161
照耀	-10.1162
大悲心	-10.1164
五地	-10.1168
累	-10.1169
逮	-10.1177
若得	-10.118
所受	-10.1189
此上過佛剎微塵數世界有世界名	-10.1189
映	-10.1191
百千億那由他	-10.1192
方得	-10.1194
畜	-10.1198
▁初總	-10.1206
常為	-10.1216
屈	-10.1216
周法界	-10.1221
十二因緣	-10.1227
凡聖	-10.1229
鈔云	-10.1229
大涅槃	-10.1231
而非	-10.1243
依報	-10.1243
利眾生	-10.1245
無色界	-10.1245
處所	-10.1253
他心	-10.1255
逆順	-10.1257
普照十方	-10.1263
十方一切世界	-10.1267
而作佛事	-10.1268
富	-10.1268
智眼	-10.1269
分為二	-10.1274
所治	-10.1277
實有	-10.1279
六道	-10.1295
補	-10.1296
牙	-10.1296
呪	-10.1298
隨其所	-10.1299
良以	-10.13
別義	-10.1301
續	-10.1301
求一切智	-10.1303
獲益	-10.1303
無知	-10.1304
我皆	-10.1312
離於	-10.1314
時處	-10.1315
無障	-10.1321
薄	-10.1323
軌	-10.1325
故經云	-10.1327
中云	-10.1331
文有三	-10.1336
諸佛世尊	-10.1338
諸大菩薩	-10.1341
主夜神	-10.1343
譬喻	-10.1343
無實	-10.1347
成上	-10.1353
前七	-10.1357
聲聞緣覺	-10.1359
那由他	-10.1363
前六	-10.1364
當來	-10.1367
攬	-10.1373
心所	-10.1378
一切國土	-10.1379
後句	-10.1384
典	-10.1391
迷惑	-10.1397
腹	-10.1397
揚	-10.143
頃	-10.1443
妙覺	-10.1444
鉢	-10.1448
同相	-10.1449
仙人	-10.1452
能依	-10.1452
是所	-10.146
第二會	-10.1462
慧眼	-10.1464
未知	-10.1468
端正	-10.1469
幢菩薩	-10.1473
有四種	-10.1474
種種方便	-10.1474
等是	-10.1482
隨眾生	-10.1484
真心	-10.1484
謂以	-10.1484
無所得	-10.1494
後明	-10.1497
沉	-10.1507
令我	-10.1513
不待	-10.1513
阿僧祇劫	-10.1518
隨宜	-10.152
諸苦	-10.1522
二教	-10.1526
無量無數	-10.1528
不行	-10.1533
恒沙	-10.1536
彼經	-10.1537
若欲	-10.1542
天下	-10.155
假使	-10.1551
妙智	-10.1552
泉	-10.1553
攝持	-10.1553
智體	-10.1556
取著	-10.1557
信等	-10.1558
諸剎	-10.1559
之教	-10.156
定性	-10.1571
活	-10.1575
若言	-10.1576
晝夜	-10.1578
先標	-10.1583
居士	-10.1584
默	-10.1589
寶樹	-10.159
身相	-10.1592
有九	-10.1592
在此	-10.1598
寶網	-10.16
差別相	-10.1602
為顯	-10.1607
百千億	-10.1612
防	-10.1612
令一切眾生得	-10.1617
三觀	-10.163
普周	-10.1632
如響	-10.165
妙光	-10.1658
皆名	-10.166
可以	-10.1666
遠近	-10.1671
珍	-10.1685
為明	-10.1687
出現品	-10.169
無盡故	-10.1695
昧	-10.1697
十事	-10.1706
二徵	-10.1717
貪著	-10.1722
載	-10.1723
頌云	-10.1729
寄位	-10.1733
所聞	-10.1735
瞻仰	-10.174
忽	-10.1753
實教	-10.1753
法界故	-10.1756
非異	-10.1759
為令	-10.1761
迴心	-10.1764
先舉	-10.1765
比丘尼	-10.1766
每	-10.1766
樂欲	-10.1768
大光明	-10.1772
臥	-10.1779
未曾有	-10.1787
此門	-10.1789
隨應	-10.1792
適	-10.1792
二十一	-10.1795
之用	-10.1798
暢	-10.1802
不息	-10.1808
末後	-10.1809
起用	-10.1811
喻中	-10.1814
男女	-10.1814
佛國土	-10.1819
行德	-10.1824
時彼	-10.1829
有體	-10.183
按	-10.184
不樂	-10.1841
竪	-10.1841
地法	-10.1843
遍計	-10.1844
包含	-10.1848
虗空界	-10.1849
有所	-10.185
示其	-10.1855
四智	-10.1856
總標	-10.1861
珍寶	-10.1862
而恒	-10.1875
等十	-10.1876
有二十	-10.189
品中	-10.1892
心者	-10.1892
不雜	-10.1892
潛	-10.1895
陽	-10.1899
途	-10.19
鍊	-10.19
得菩提	-10.1901
十佛剎微塵數	-10.1904
論意	-10.1907
無所障礙	-10.1908
初舉	-10.1909
離言	-10.1915
設有	-10.1918
十一地	-10.1922
束	-10.1926
不生不滅	-10.1931
即有	-10.1941
盧	-10.1942
染著	-10.1943
廣明	-10.1949
有大	-10.1952
氏	-10.1954
無量功德	-10.1956
關	-10.1957
能破	-10.1959
見其	-10.1963
此法門	-10.1967
某	-10.1969
見一切佛	-10.197
大品	-10.1976
益物	-10.1981
大師	-10.1985
普光明殿	-10.1985
因行	-10.199
總攝	-10.1991
別說	-10.1995
於中先	-10.1997
大文第	-10.1997
復以	-10.1997
結前生後	-10.2006
虗妄	-10.2006
訓	-10.2006
文有二	-10.2018
依前	-10.2023
自說	-10.2023
淺深	-10.2023
功德藏	-10.2024
休	-10.2024
四義	-10.2025
六種	-10.2028
此乃	-10.2035
▁八	-10.2041
剎種	-10.2044
骨	-10.2045
八相	-10.2051
淨戒	-10.2052
謂前	-10.2052
顧	-10.2056
初偈	-10.2058
此一	-10.2059
事理無礙	-10.2067
】【	-10.2068
回向	-10.2069
億劫	-10.2081
謝	-10.2084
論曰	-10.2087
此方	-10.2101
初門	-10.2106
所知障	-10.2108
群生	-10.2109
繒	-10.2111
於諸法	-10.2119
謂佛	-10.2121
所樂	-10.2122
實性	-10.2124
喻顯	-10.2124
智論云	-10.2125
古德	-10.2127
不現	-10.2128
場	-10.2135
種善根	-10.2139
足下	-10.2139
茲	-10.2143
唯佛	-10.2144
業果	-10.2147
得菩薩	-10.2153
白言	-10.2154
後後	-10.2157
今約	-10.2158
所因	-10.2159
闍	-10.2159
寶光明	-10.2163
他方	-10.2164
第三句	-10.2164
淨光	-10.2172
遮那	-10.2175
聞此	-10.2177
所顯	-10.2181
種種差別	-10.2182
過失	-10.2184
於十方	-10.2187
慚	-10.2187
涅槃經	-10.2194
亦能	-10.2199
與前	-10.2199
共相	-10.22
及餘	-10.2201
三十七	-10.2201
十偈	-10.2202
不放逸	-10.2213
如來應正等覺	-10.2213
藏菩薩	-10.222
妙慧	-10.2228
尸羅	-10.2238
瞻	-10.2244
煩惱障	-10.2246
如化	-10.2247
遷	-10.2254
聽受	-10.2257
出生一切	-10.2266
一體	-10.2271
光普照	-10.2275
十方佛	-10.2275
即彼	-10.2276
之後	-10.2277
隨根	-10.2277
妻子	-10.228
知諸法	-10.2281
方所	-10.2283
盡故	-10.2283
兵	-10.2296
令住	-10.2301
者如	-10.2304
八識	-10.2305
如來境界	-10.2309
結跏趺坐	-10.2313
罪報懺悔	-10.2313
至一切處	-10.2319
五門	-10.2319
或時	-10.2323
等皆	-10.2324
謂由	-10.2325
所修行	-10.2327
以智慧	-10.2327
釋經	-10.2331
傍	-10.2333
上首	-10.2334
教中	-10.2336
生信	-10.234
此為	-10.2341
厭離	-10.2342
復現十種	-10.2342
此處	-10.2346
等也	-10.2348
即真	-10.2351
一切眾	-10.2363
因陀羅網	-10.2369
於理	-10.237
為他	-10.2372
熱惱	-10.2373
圓音	-10.2374
移	-10.2374
於一切眾生	-10.2375
一一塵中	-10.238
又釋	-10.238
種種諸	-10.2386
入三昧	-10.2388
玉	-10.2393
相成	-10.2394
出體	-10.2394
諸佛剎	-10.2396
能捨	-10.2401
三千	-10.2411
乃能	-10.2416
鹿	-10.2417
下正	-10.2419
七十	-10.242
快樂	-10.2421
鑒	-10.2421
九會	-10.2422
斯則	-10.2434
前文	-10.2437
徧照	-10.2448
揔	-10.2448
其上	-10.2454
菩薩眾	-10.2461
侍	-10.2465
誡	-10.2466
而得自在	-10.2468
入如來	-10.2472
樓	-10.2475
世界微塵數	-10.2479
思量	-10.2485
力持	-10.2486
不令	-10.2488
總句	-10.2492
▁二正	-10.2493
頂禮	-10.2497
手足	-10.25
其名	-10.2503
說也	-10.2504
春	-10.2509
而常	-10.251
娑	-10.2511
引論	-10.2518
因中	-10.2521
妻	-10.2526
兜率	-10.2532
議	-10.2534
豎	-10.2536
三釋	-10.2537
學者	-10.2542
嘆	-10.2543
小異	-10.2544
正定	-10.2548
博	-10.2549
歸依	-10.2551
善入	-10.2553
乾闥婆	-10.2553
今文	-10.2555
就初	-10.2556
滅除	-10.2556
非法	-10.2557
有為法	-10.2557
吼	-10.2561
兩句	-10.2562
佛國	-10.2568
顯其	-10.2574
我見	-10.2575
譬如有人	-10.2576
事業	-10.2576
方成	-10.2581
第四句	-10.2588
州	-10.2591
於眾生	-10.2613
白佛言	-10.2613
一一各	-10.2613
浮	-10.2615
佛智慧	-10.2616
一切種	-10.2616
委	-10.2617
初教	-10.2618
行滿	-10.2621
苦集	-10.2622
寶蓮華	-10.2622
索	-10.2623
以前	-10.2631
頌中	-10.2635
為真	-10.2636
六位	-10.2638
停	-10.2644
爾所	-10.2644
逈	-10.2649
倦	-10.2649
今言	-10.2651
隨其所應	-10.2654
二依	-10.2655
修菩薩道	-10.2658
具有	-10.2659
如如	-10.266
彼論	-10.2661
妙用	-10.2666
二相	-10.2666
餘如	-10.2669
十者	-10.2673
分段	-10.2682
稟	-10.2682
是有	-10.2683
施與	-10.2684
無方	-10.2685
不可以	-10.269
不能知	-10.2692
承事供養	-10.2695
為總	-10.2697
▁二別釋	-10.2706
雖復	-10.2708
薪	-10.2709
有二義一	-10.2714
生華藏海	-10.2714
隨類	-10.2725
三德	-10.2725
曜	-10.2734
中現	-10.2738
三重	-10.2738
多佛	-10.2745
無二故	-10.2748
緣成	-10.2753
塵勞	-10.2755
是為菩薩摩訶薩	-10.2756
雲雨	-10.2758
錯	-10.276
頗	-10.2762
亦即	-10.2765
善巧方便	-10.2768
陀羅	-10.2774
三輪	-10.2777
不實	-10.2778
口業	-10.2779
常行	-10.2781
族	-10.2787
次名	-10.2787
異名	-10.2788
我唯知此	-10.2789
至此	-10.2789
四頌	-10.279
▁九	-10.2795
不可數	-10.2811
示現一切	-10.2817
彼此	-10.2819
三十二相	-10.2821
重重無盡	-10.2823
檀波羅蜜	-10.2827
今但	-10.2828
十願	-10.2828
眾行	-10.2832
境智	-10.2833
▁初正明	-10.2836
善男	-10.2838
亦以	-10.2838
知足	-10.2841
乞	-10.285
端嚴	-10.2857
依教	-10.2864
梵音	-10.2865
徧滿	-10.2867
別故	-10.2868
修成	-10.2883
應當	-10.2886
思議	-10.2891
五對	-10.2895
因位	-10.2897
生長	-10.2903
欲顯	-10.2905
各異	-10.2908
世界種名	-10.2908
釋中	-10.2912
如日	-10.2918
盡未來劫	-10.292
無斷	-10.2923
智通	-10.2927
無有邊	-10.2928
十重	-10.2935
下第二	-10.2942
智用	-10.2943
法義	-10.2949
心性	-10.2956
御	-10.296
辦	-10.2961
〔	-10.2961
昏	-10.2965
法光明	-10.2965
資糧	-10.2965
住此	-10.2967
無形	-10.2968
為趣	-10.2973
澄	-10.2973
無非	-10.2976
道者	-10.2977
同事	-10.298
一類	-10.2982
半頌	-10.2992
修治	-10.2993
不即	-10.2993
術	-10.3007
隨眠	-10.3008
前之	-10.3011
魔業	-10.3013
差別故	-10.3017
徧十方	-10.3018
即當	-10.3019
大神通	-10.302
繞	-10.302
發生	-10.3021
喻喻	-10.3024
法慧	-10.3026
師子吼	-10.3039
痛	-10.3041
貪愛	-10.3044
無失	-10.3045
中所有	-10.3047
摧伏	-10.305
闡提	-10.3052
亦復然	-10.3053
炎	-10.3056
五根	-10.3057
塗	-10.306
亦為	-10.3061
慈氏	-10.3061
善根迴向亦復如是	-10.3062
寶光	-10.3063
應機	-10.307
皆無	-10.3072
法寶	-10.3079
然上	-10.3085
法說	-10.309
與佛	-10.3095
依於	-10.3095
既云	-10.3096
道故	-10.3107
為說法	-10.3107
略釋	-10.3108
上文	-10.3112
總為	-10.3117
練	-10.312
名稱	-10.3126
如金剛	-10.3132
證理	-10.3132
於是	-10.3133
六波羅蜜	-10.314
天上	-10.3148
能斷	-10.315
除滅一切	-10.3152
均	-10.3155
普莊嚴	-10.3156
如大	-10.3157
菩薩所行	-10.3157
修諸行	-10.3161
有餘	-10.3164
二千	-10.3165
讚佛	-10.317
開發	-10.3174
無生忍	-10.3174
次二句	-10.3175
不分	-10.3176
可說	-10.3177
義通	-10.318
菩提分法	-10.3185
發願	-10.3188
上上	-10.3197
漸漸	-10.3198
種類	-10.3198
此名	-10.3201
無有餘	-10.3206
降魔	-10.3206
是為菩薩	-10.3211
不隨	-10.3212
俱有	-10.3212
一字	-10.3215
明菩薩	-10.3216
寂然	-10.3217
雷	-10.3219
天宮	-10.322
所明	-10.3225
隨一	-10.3225
第十地	-10.3228
智波羅蜜	-10.3229
法合	-10.3232
障故	-10.3236
耀	-10.3241
一切行	-10.3244
必有	-10.3257
生安隱心	-10.3261
遍周	-10.3265
本識	-10.327
體無	-10.3274
中分二	-10.3277
塗香	-10.3279
高下	-10.3284
般	-10.3284
眾德	-10.3285
十頌	-10.3291
不可見	-10.3291
金剛藏菩薩	-10.3292
為佛	-10.3299
破戒	-10.3304
大方廣	-10.3305
故論云	-10.3308
眾多	-10.3311
無極	-10.3315
難思議	-10.3317
結勸	-10.3321
普應	-10.3325
軍	-10.3326
斷滅	-10.3328
三聚	-10.3331
即同	-10.3336
成菩提	-10.3341
應化	-10.3343
遍滿	-10.3343
異相	-10.3343
以此善根	-10.3348
無分別智	-10.3354
涅槃云	-10.3355
爾時善財	-10.3358
既無	-10.3362
法忍	-10.3363
法眼	-10.3369
徧周	-10.3371
與眾生	-10.3377
異體	-10.3378
眾妙	-10.3378
覺知	-10.3378
宗趣	-10.3379
有二一	-10.3379
用故	-10.3382
從其	-10.3383
能於	-10.3384
澤	-10.3387
閣	-10.3389
敗	-10.3389
次云	-10.3389
方便智	-10.3393
混	-10.34
未能	-10.3403
以佛	-10.3403
無上道	-10.3406
現在前	-10.3408
起安慰心	-10.341
能為	-10.3416
厚	-10.3416
以為其	-10.3422
蜜	-10.3422
草木	-10.3424
甚深法	-10.3425
誘	-10.3427
久近	-10.3433
諸國土	-10.3433
位故	-10.3435
一日	-10.3436
普觀一切	-10.344
智境	-10.3443
演法	-10.3443
六者	-10.3447
觀行	-10.3449
君	-10.345
後得智	-10.3457
俱胝	-10.3458
不相應	-10.3458
此言	-10.3463
俗諦	-10.3466
廣顯	-10.3466
諸乘	-10.3471
供養佛	-10.3472
謂菩薩生如是心	-10.3472
我已得住	-10.3472
刀	-10.3477
▁【	-10.3485
推求	-10.3492
擇	-10.3492
前中初	-10.3503
為令他住	-10.3503
遍十方	-10.3505
船	-10.3508
充滿十方	-10.351
惜	-10.3515
為果	-10.3516
城名	-10.3519
行也	-10.352
前際	-10.3522
如是知	-10.3522
能觀	-10.3524
約位	-10.3525
問云	-10.353
法喻	-10.3532
唐于闐國三藏沙門實叉難陀譯	-10.3535
前中亦二	-10.3535
威神力	-10.354
即涅槃	-10.3543
榮	-10.355
所造	-10.3561
二禪	-10.3563
修諸	-10.3574
所照	-10.3576
如來出現	-10.3577
信受	-10.3582
訖	-10.3582
又見	-10.359
真珠	-10.3591
佛道場一切海眾	-10.3593
已得	-10.3593
汝今	-10.3594
餘三	-10.3597
常見	-10.36
下即	-10.3601
不移	-10.3603
現相	-10.3605
實義	-10.3606
如水	-10.3607
掌	-10.3608
聞持	-10.3608
影略	-10.3609
角	-10.3611
劫海	-10.3613
懈	-10.362
無所不	-10.3626
念念中	-10.3627
阿脩羅	-10.3633
遠公	-10.3637
中無	-10.3637
救護一切眾生	-10.3639
生者	-10.3641
須臾	-10.3641
所信	-10.3644
心王	-10.3647
孔	-10.365
大士	-10.3654
辭退而去	-10.3662
一毛孔	-10.3665
雙行	-10.3665
遍照	-10.3679
無有盡	-10.368
融攝	-10.3681
符	-10.3682
尚不	-10.3683
次有香水海名	-10.3687
普攝	-10.369
三摩地	-10.3692
依彼	-10.3694
二俱	-10.3695
於一切世界	-10.3697
豈不	-10.3697
意生身	-10.3698
了義	-10.3711
曇	-10.3712
佛神力	-10.3714
無量諸	-10.3714
第二句	-10.372
之位	-10.3724
在其中	-10.3726
水中	-10.3731
轉勝	-10.3735
何處	-10.3735
固	-10.3738
約理	-10.3746
諸菩薩行	-10.3748
形像	-10.3748
散亂	-10.3752
覺觀	-10.3754
眠	-10.3759
所執	-10.3759
中具	-10.3761
惠	-10.3763
名言	-10.3766
舒	-10.377
▁初正釋	-10.3787
如雲	-10.3789
常在	-10.3799
色像	-10.38
觀佛	-10.3801
雪山	-10.3806
是前	-10.3807
纔	-10.3807
大慧	-10.3809
剎中	-10.3809
頌曰	-10.3818
初十	-10.382
相也	-10.382
菩提樹下	-10.3822
遠離一切	-10.3829
麼	-10.383
增勝	-10.3837
結歎	-10.3855
明達	-10.3855
總舉	-10.3855
離世間	-10.3856
但約	-10.3857
雙非	-10.3857
合為一	-10.3859
量等	-10.3861
四結	-10.3867
世主	-10.3874
莫不	-10.3876
後十	-10.3878
其文	-10.3881
現故	-10.3882
一百一十	-10.3882
出入	-10.3884
戲	-10.3886
破壞	-10.3886
洲	-10.3887
先總	-10.3888
諸比丘	-10.3891
多門	-10.3894
通明	-10.39
未來世	-10.3905
作如是念	-10.3907
摩耶夫人	-10.3908
賤	-10.391
不相違	-10.3911
顯理	-10.3913
願得	-10.3923
明佛	-10.3928
妄語	-10.3928
問若	-10.3928
無有障礙	-10.3928
八種	-10.3932
重頌	-10.3937
藉	-10.3939
從初發心	-10.394
今日	-10.3945
不共法	-10.3951
知之	-10.3952
寒	-10.3958
勸請	-10.3964
歡喜地	-10.3965
側	-10.3966
佛神力故	-10.397
光明雲	-10.397
逢	-10.3971
所行道	-10.3975
迎	-10.3975
饒益眾生	-10.3977
所念	-10.3979
法界品	-10.3981
無礙故	-10.3983
正智	-10.3985
舉體	-10.3986
無數劫	-10.3994
先釋	-10.3999
疲	-10.4001
明以	-10.4005
借	-10.4006
無所住	-10.4008
其性	-10.401
如諸菩薩摩訶薩	-10.4012
繫縛	-10.4012
業障	-10.4013
十方盡歸命滅罪增淨信願	-10.4015
說有	-10.4016
來集	-10.4021
如來力	-10.4022
蓮	-10.4025
於中有二	-10.4032
門也	-10.4032
案	-10.4033
初一總	-10.4033
供具	-10.4037
惟	-10.4042
再	-10.4042
。』「	-10.4047
儒	-10.4047
雜亂	-10.4049
欲求	-10.405
觀者	-10.4051
七者	-10.4052
悟解	-10.4056
不相知	-10.4059
勝劣	-10.406
莊	-10.406
故成	-10.4062
但取	-10.4063
雲集	-10.4066
初四	-10.4073
夷	-10.4074
夫人	-10.4075
名義	-10.4075
謂若	-10.4076
具如	-10.4077
合前	-10.4079
湛然	-10.4083
器世間	-10.4085
淨信	-10.4087
諸劫	-10.4091
憎	-10.4095
一眾生	-10.4097
於中四	-10.4103
二十五	-10.4106
餘二	-10.411
結通	-10.4113
皆依	-10.4118
輪迴	-10.4118
蓮華藏師子之座	-10.4119
摩耶	-10.4119
發意	-10.4122
深法	-10.4123
叉	-10.4125
危	-10.4126
報得	-10.4138
本事	-10.4138
根性	-10.4144
非有非無	-10.4148
法雲地	-10.4149
大力	-10.415
本自	-10.415
非常	-10.4152
得道	-10.4153
譬	-10.4153
未有	-10.416
魚	-10.4168
香雲	-10.4178
諸群生	-10.4184
造作	-10.4187
因此	-10.4192
為正	-10.4193
諸度	-10.42
履	-10.4201
總釋	-10.4202
淨眼	-10.4203
遙	-10.4203
有支	-10.4203
具一切	-10.4203
能除	-10.4204
修生	-10.4211
無量諸佛	-10.4214
體即	-10.4217
七種	-10.4227
釋上	-10.4231
等取	-10.4231
敬禮	-10.4234
釋之	-10.424
第七地	-10.4241
莫能	-10.425
也又	-10.425
興供	-10.4253
豈非	-10.4254
隨行	-10.4259
稱歎	-10.4259
以一切	-10.4261
謂有	-10.4264
我我所	-10.4264
血	-10.4266
隣	-10.4267
普觀	-10.4269
理無	-10.427
可愛樂	-10.427
鈍	-10.4272
張	-10.4273
道場眾會	-10.4273
奇特	-10.4274
善財見	-10.4276
等法	-10.4279
巳來	-10.4288
無遺	-10.4292
汝當	-10.4298
婬	-10.4299
半月	-10.4301
一切諸如來	-10.4301
卑	-10.4304
分為三	-10.4308
能淨	-10.4309
天台	-10.431
次有佛興名	-10.4313
迴向行	-10.4315
其意	-10.4317
因陀羅	-10.4324
斷常	-10.4327
所立	-10.4332
▁初約	-10.4336
眾海	-10.4338
廣多	-10.4341
身見	-10.4343
▁十	-10.4348
無疑	-10.4349
許說	-10.435
廣博	-10.4352
身命	-10.4353
性自	-10.4365
非我	-10.4365
法器	-10.4365
非情	-10.4367
圓通	-10.4367
同佛	-10.4372
他人	-10.4381
彼云	-10.4381
有四句	-10.4383
若諸菩薩	-10.4391
論說	-10.4391
勤精進	-10.4393
下文云	-10.4397
阿修羅	-10.44
略不	-10.44
說分	-10.4404
化現	-10.4405
彼有	-10.4406
奏	-10.441
修善	-10.4414
諸見	-10.4419
願共諸眾生往生華藏海	-10.4419
忽然	-10.4424
亦具	-10.4424
百劫	-10.4425
險	-10.4426
無有量	-10.4426
清淨心	-10.4426
文中二	-10.4432
同此	-10.4433
王位	-10.4434
生時	-10.4434
表之	-10.4438
果法	-10.444
禮敬	-10.4448
析	-10.4449
字時	-10.4451
於無量劫	-10.4452
無盡藏	-10.4455
則得如來無上	-10.4457
以諸	-10.4462
當成	-10.4462
〕	-10.4468
洗	-10.4469
獸	-10.447
自見	-10.4471
知根	-10.4471
不可說不可說佛剎微塵數	-10.4471
西域	-10.4483
八部	-10.4483
八者	-10.4485
八句	-10.4486
到彼岸	-10.4487
無生滅	-10.4489
分量	-10.449
舍利	-10.4491
▁初舉	-10.4494
愛取	-10.4502
世界海微塵數	-10.451
莖	-10.4512
有佛性	-10.4513
令眾	-10.4515
逝多林	-10.4518
但說	-10.452
賢首品	-10.4521
左	-10.4522
照明	-10.4525
寂照	-10.4527
釋義	-10.453
▁二別顯	-10.4532
意也	-10.4536
雙融	-10.4539
日輪	-10.4539
牟尼	-10.455
彰其	-10.4554
大威德	-10.4559
二別	-10.4559
此教	-10.4559
說名	-10.4565
其體	-10.4569
是心	-10.4571
諸德	-10.4574
歌	-10.4581
應以	-10.4588
釋曰此	-10.4588
答中	-10.459
中十句	-10.4592
為勝	-10.4599
三事	-10.4599
窟	-10.4607
不復	-10.461
能隨	-10.4618
種智	-10.4624
問此	-10.4627
諸有情	-10.463
不貪	-10.463
智照	-10.4631
一念中	-10.464
善根故	-10.464
収	-10.4643
羣	-10.4644
亦說	-10.4648
求佛	-10.4649
堪受	-10.4651
怯	-10.4653
僧祇	-10.4653
作如是言	-10.4654
二智	-10.4659
之上	-10.4661
音樂	-10.4664
二十八	-10.4664
無滅	-10.4665
等事	-10.4672
色心	-10.4672
則以	-10.4673
願海	-10.4675
告言	-10.4676
而為說法	-10.4678
自在神力	-10.4678
樹下	-10.468
住地	-10.4686
是彼	-10.4687
有無量	-10.4688
方便故	-10.4688
闡	-10.469
奧	-10.4692
法行	-10.4694
皆通	-10.4694
三段	-10.4695
又於	-10.4695
親近供養	-10.4698
或作	-10.47
即能	-10.4704
但言	-10.4704
出興	-10.4708
此五	-10.471
是中	-10.4713
此通	-10.4715
以為眷屬	-10.4716
蘇	-10.472
林中	-10.4723
決擇	-10.4723
空義	-10.4726
隨位	-10.4726
夏	-10.473
雖無	-10.4732
專求	-10.4734
普賢行願	-10.4735
勤求	-10.4737
有十事	-10.4737
異生	-10.4742
記云	-10.4742
但明	-10.4744
為物	-10.4744
難見	-10.4746
請問	-10.475
前中三	-10.475
又初	-10.4752
方廣	-10.4752
又問	-10.4754
能引	-10.4754
忿	-10.4754
瑩	-10.4758
諸經	-10.476
於無量	-10.476
。」「	-10.4769
此三昧	-10.4769
忘失	-10.4774
非但	-10.4775
自知	-10.4778
攝眾生	-10.4781
緊那羅	-10.4783
依果	-10.4783
見有	-10.4783
釋前	-10.4784
乃至云	-10.4784
一位	-10.4785
六處	-10.4787
一世界	-10.4787
以義	-10.4788
施心	-10.4793
婆沙	-10.4796
以大悲	-10.4796
戀	-10.4796
延	-10.4798
契理	-10.4802
生死涅槃	-10.4803
文有四	-10.4807
廣大心	-10.4808
圓滿故	-10.4812
作者	-10.4813
悉現	-10.482
末香	-10.4821
溺	-10.4825
孤	-10.4827
愛語	-10.4827
碎	-10.4827
逼	-10.4829
無與等	-10.4836
真智	-10.4837
二顯	-10.4839
四約	-10.484
光影	-10.4841
於一念頃	-10.4841
探玄	-10.4842
男	-10.4846
泥洹	-10.4851
斷除	-10.4853
峯	-10.4862
伊	-10.4864
如法	-10.4866
無學	-10.4867
告善財言	-10.4869
時善財童子	-10.4872
心淨	-10.4875
方便力	-10.4891
增益	-10.4891
體也	-10.4892
殊特	-10.4897
諸善知識	-10.4897
箭	-10.4897
其地	-10.4901
諸緣	-10.4901
佛剎極微塵數	-10.4902
相攝	-10.4902
本智	-10.4903
昭	-10.4903
難測	-10.4904
之業	-10.4909
即時	-10.4927
善根力	-10.4927
未盡	-10.4928
長時	-10.4928
蟲	-10.4929
者之所住處	-10.4932
不有	-10.4933
流出	-10.4933
普使	-10.4936
初住	-10.4936
能發	-10.4938
海住	-10.4939
不壞相	-10.4944
修證	-10.4947
毗盧遮那如來	-10.4948
乾闥婆王	-10.495
能滅	-10.4952
聲聞乘	-10.4957
為方便	-10.4958
柱	-10.4961
自覺	-10.4962
通顯	-10.4964
時有	-10.4965
敢	-10.4972
三禪	-10.4973
二十句	-10.4973
上云	-10.4977
不立	-10.4979
顯實	-10.4985
上品	-10.4986
地位	-10.4986
摩訶	-10.4988
十方國土	-10.4989
十心	-10.499
敵	-10.4997
事中	-10.4998
四重	-10.4998
悉了知	-10.5001
本願力	-10.5007
勒	-10.501
皆言	-10.5014
一會	-10.5014
愚法	-10.5015
無休息	-10.5017
俱是	-10.5022
為諸眾生	-10.5024
為實	-10.5026
相資	-10.5033
摩尼寶王	-10.5033
無言	-10.5034
充滿一切	-10.5034
言教	-10.5037
今依	-10.5039
修因	-10.5041
都無	-10.5042
麗	-10.5042
六七	-10.5046
巧方便	-10.5051
二十二	-10.5052
亦知	-10.5053
於一切處	-10.5058
佛世界	-10.506
聲聞辟支佛	-10.5062
為我	-10.5063
別教一乘	-10.5063
次下	-10.5066
以自	-10.5066
深妙	-10.5071
果中	-10.5077
相應故	-10.5079
護法	-10.508
嫌	-10.5082
崇	-10.5085
過去世	-10.5085
為求	-10.5085
法樂	-10.5088
俱非	-10.5089
眼等	-10.509
若離	-10.5091
▁三釋	-10.5094
有言	-10.51
夜叉王	-10.511
得普	-10.5112
釋此	-10.5114
其有	-10.5115
別名	-10.5116
江	-10.5118
形相	-10.5121
一切菩薩行	-10.5121
入位	-10.5125
百川	-10.5126
重釋	-10.5129
已說	-10.5132
法智	-10.5132
或施	-10.5132
斥	-10.5136
不虛	-10.514
言語	-10.5142
膝	-10.5147
以理	-10.5155
幡	-10.5157
不可思	-10.5159
藝	-10.5161
之首	-10.5161
造業	-10.5161
是別	-10.5164
一依	-10.5166
果位	-10.5168
同別	-10.5169
九者	-10.5174
佛為	-10.5179
梁	-10.5179
實無	-10.5182
以如是等	-10.5187
令人	-10.5191
不可說劫	-10.5192
見敬諮問	-10.5197
四教	-10.5204
志樂	-10.5205
於一一	-10.5205
入地	-10.5206
攀緣	-10.521
理事無礙	-10.521
次有	-10.5213
等正覺	-10.5213
三昧力	-10.5215
誨	-10.5215
得大	-10.5225
即攝	-10.5225
智入	-10.523
——	-10.5231
二品	-10.5232
五法	-10.5234
無緣	-10.5235
最為	-10.5238
舉其	-10.5239
龍樹	-10.524
隨文	-10.5241
事法	-10.5244
梵云	-10.5249
佛及	-10.525
無窮盡	-10.5251
位果	-10.5252
所願	-10.5254
契經	-10.5258
閑	-10.5261
頂禮其足	-10.5261
尺	-10.5265
齒	-10.5266
菩	-10.5266
名體	-10.5268
眾魔	-10.527
七識	-10.5272
正理	-10.5274
錄	-10.5275
初生	-10.5276
即離	-10.5276
示現種種	-10.5277
初總標	-10.5277
坐道場	-10.528
了知一切	-10.5281
夢中	-10.5283
伹	-10.5285
夜天	-10.5288
即上	-10.5289
者表	-10.5294
不識	-10.5295
與彼	-10.5296
為此	-10.5297
淨故	-10.5299
令離	-10.5301
▁二約	-10.5302
壽量	-10.5307
多羅	-10.5309
依本	-10.5311
意在	-10.5311
揀異	-10.5311
佛種	-10.5312
法慧菩薩	-10.5313
過患	-10.5313
身土	-10.5319
之外	-10.532
成果	-10.5323
諸會	-10.5326
望於	-10.533
親近善知識	-10.5334
順理	-10.5335
其數	-10.5335
知三世	-10.5335
寂用	-10.5345
若聞	-10.535
所斷	-10.5357
無染著	-10.5361
無過	-10.5361
身語意業	-10.5363
入法	-10.5365
自證	-10.5369
大莊嚴	-10.5372
巳得	-10.5373
▁二顯	-10.5374
約事	-10.5375
看	-10.5377
諸門	-10.5377
梨	-10.5377
怒	-10.5379
今取	-10.539
第一義諦	-10.5394
無動	-10.5395
後之	-10.5396
緊那羅王	-10.5398
無有窮盡	-10.5398
野	-10.5414
於空	-10.5418
大歡喜	-10.5426
大願力	-10.5428
善哉善哉	-10.5429
眾會道場	-10.5429
幻化	-10.5429
十智	-10.5429
嚴具	-10.5431
經典	-10.5433
因也	-10.5434
若諸菩薩安住此法	-10.5435
和尚	-10.5437
一切三世	-10.5438
一切諸眾生	-10.5444
華藏世界	-10.5459
惡行	-10.546
顏	-10.546
明此位菩薩	-10.5467
常以	-10.5468
所從來	-10.5471
何故不	-10.5472
後義	-10.5474
善見	-10.5475
悲心	-10.5475
生大歡喜	-10.5476
後二句	-10.5478
所住處	-10.5478
聽法	-10.5479
但隨	-10.5485
證法	-10.5488
一切境界	-10.5489
一以	-10.5491
奇	-10.5493
▁初問	-10.5493
笑	-10.5494
▁二辨	-10.5497
香華	-10.55
准之	-10.55
之益	-10.5501
一異	-10.5503
睡	-10.5504
菩提之心	-10.5506
北方	-10.5509
生疑	-10.551
彌覆其上	-10.5511
斷疑	-10.5515
起故	-10.5516
了因	-10.5521
上皆	-10.5521
非謂	-10.5522
嫉	-10.5525
而於	-10.5527
出過	-10.5531
果分	-10.5532
如前說	-10.5533
想念	-10.554
廓	-10.5541
難說	-10.5542
離惡	-10.5543
有為無為	-10.5543
變異	-10.5549
有佛	-10.555
無退轉	-10.5553
世諦	-10.5554
毛端	-10.5556
無得	-10.5557
由是	-10.5558
斷煩惱	-10.5558
之與	-10.5559
舉一	-10.5563
十方界	-10.5566
成就一切	-10.557
分限	-10.5572
馳	-10.5573
聖智	-10.5577
此天	-10.5579
功德林	-10.5579
無增減	-10.5584
上四	-10.5588
下二句	-10.5592
無來	-10.5593
十玄	-10.5596
後顯	-10.5597
仁者	-10.5599
所取	-10.5602
天眾	-10.5602
超出	-10.5606
對上	-10.5609
於諸佛所	-10.561
朗	-10.5614
染污	-10.5621
三十六	-10.5622
九門	-10.5631
光明普照	-10.5631
將欲	-10.5633
酒	-10.5639
業惑	-10.564
者即是	-10.5641
不畏	-10.5644
能照	-10.5645
呵	-10.5645
非如	-10.5645
勇健	-10.5649
第	-10.5651
百千萬億	-10.5654
轉正法輪	-10.5654
百年	-10.5655
本分	-10.5655
鬼神	-10.5658
為名	-10.5658
麻	-10.5659
安置	-10.566
一切智道	-10.566
迦樓羅王	-10.5666
天鼓	-10.5668
等為	-10.5671
始成正覺	-10.5673
聞巳	-10.5677
問言	-10.5681
遭	-10.5685
育	-10.5686
於諸眾生	-10.5687
殊妙	-10.5687
智明	-10.5698
同也	-10.5701
攝法	-10.5703
入正定	-10.5705
前九	-10.5716
以表	-10.5716
憂惱	-10.5717
出生死	-10.5719
十段	-10.572
能信	-10.5724
諸龍	-10.5724
不可得故	-10.5725
謂初	-10.5726
共生	-10.5726
離染	-10.5728
於三世	-10.5733
清淨光明	-10.5734
那羅延	-10.5734
此身	-10.5735
三偈	-10.5736
二十四	-10.5736
以無著無縛解脫心	-10.5745
逮得	-10.5754
下第三	-10.5757
即如	-10.5761
善說	-10.5761
能行	-10.5763
海水	-10.5765
多身	-10.5771
義同	-10.5772
以法界	-10.5774
七八	-10.5774
正教	-10.5776
無定	-10.5777
希望	-10.5778
勝智	-10.5786
前明	-10.5788
外無	-10.5789
偈半	-10.5789
魔軍	-10.5791
電光	-10.5796
稱法界	-10.5799
三昧者	-10.58
出三界	-10.5802
乏	-10.5804
兒	-10.5805
柔	-10.5806
應現	-10.5807
利物	-10.5812
驗	-10.5813
牽	-10.5813
自性清淨	-10.5823
聞說	-10.5827
因圓	-10.583
次釋	-10.5831
初辨	-10.5837
無縛	-10.5838
准此	-10.584
諂	-10.584
成其	-10.584
分五	-10.5843
無疲厭	-10.5843
無憂	-10.5844
根欲	-10.5847
我以	-10.5851
琉璃	-10.5852
中初句	-10.5852
不足	-10.5854
行列	-10.5856
當位	-10.5865
是為菩薩摩訶薩十種	-10.5866
眾生世間	-10.5867
而為上首	-10.5871
諸佛境界	-10.5871
所施	-10.5874
下舉	-10.5875
已來	-10.5875
出興於世	-10.5878
力用	-10.588
之類	-10.5881
互為	-10.5881
五頌	-10.5881
殘	-10.5884
悲願	-10.5885
之初	-10.5887
戶	-10.589
菩薩身	-10.5891
了法	-10.5892
閻浮檀金	-10.5892
不同故	-10.5892
果也	-10.5894
眾寶莊嚴	-10.5898
鄣	-10.5905
心城	-10.5906
攝故	-10.5907
此說	-10.5909
其餘	-10.5912
菩薩爾時	-10.5914
化度	-10.5914
椽	-10.5916
如世	-10.5917
能了	-10.592
並如	-10.5923
漂	-10.5924
尸	-10.5928
番	-10.5928
善解	-10.5929
結歸	-10.5936
▁初示義	-10.5941
報恩	-10.5947
用之	-10.5948
大雲	-10.5953
理性	-10.5955
牒經	-10.5957
卒	-10.5963
消滅	-10.5965
閉	-10.5968
別者	-10.5969
休息	-10.5973
現佛	-10.5978
猶未	-10.5979
各不同	-10.5979
淨行	-10.5983
觀智	-10.5984
次明	-10.5984
所熏	-10.5985
現見	-10.5986
實德	-10.5987
色等	-10.5989
各隨	-10.599
下約	-10.5995
寶珠	-10.5995
二會	-10.5995
又上	-10.5998
集眾	-10.5999
益生	-10.5999
為彼	-10.6002
憐愍	-10.6008
荅	-10.6012
抑	-10.6014
香水	-10.6014
象王	-10.6018
不相離	-10.602
日夜	-10.6022
爾時普賢菩薩	-10.6022
就前	-10.6033
求菩提	-10.6036
之眾	-10.6036
禁	-10.6041
電	-10.6042
掉	-10.6048
▁初徵	-10.6051
有相	-10.6052
洞	-10.6053
或唯	-10.6056
下答	-10.6059
佛所說	-10.6059
任持	-10.6062
猶如虛空	-10.6064
剎那際	-10.6069
諸佛國土	-10.6077
不捨離	-10.6078
終頓	-10.6084
智德	-10.6086
與此	-10.6089
伸	-10.609
曉了	-10.6093
所作業	-10.6096
無有是處	-10.6098
滅定	-10.61
利養	-10.61
前地	-10.6104
此土	-10.6107
是因	-10.6109
此一段	-10.611
常隨	-10.6112
寶衣	-10.6112
欲得	-10.6116
問中	-10.612
菩薩名	-10.6121
頻	-10.6125
工	-10.6129
方是	-10.6131
解妨	-10.6132
甲	-10.6134
助成	-10.6135
開演	-10.6136
之異	-10.6145
者此云	-10.6146
是非	-10.6148
無能壞	-10.6157
受生藏	-10.6158
下正明	-10.6159
若就	-10.616
離苦	-10.6161
請分	-10.6164
若是	-10.6165
鮮	-10.617
影現	-10.617
千佛	-10.6174
不動智佛	-10.6175
直至	-10.6176
苑	-10.6176
疏釋	-10.6177
略明	-10.6179
筆	-10.6184
多種	-10.6186
祇	-10.6191
善決定	-10.6192
滿故	-10.6193
普光明智	-10.6208
吉	-10.6214
白毫	-10.622
二偈頌	-10.6221
所流	-10.6224
以是義故	-10.6227
自下	-10.6229
離分別	-10.6232
增廣	-10.6233
污	-10.6233
一緣	-10.6236
善分別	-10.6238
觀一切法	-10.6244
罵	-10.6247
滅道	-10.6248
策	-10.6248
四天王	-10.6248
普智	-10.6248
脩行	-10.625
令成	-10.6252
大慈大悲	-10.6254
智自在	-10.6255
古人	-10.6258
不然	-10.6259
願我	-10.6262
善巧智	-10.6262
下結成	-10.6262
稱揚	-10.6268
本行	-10.627
正證	-10.627
為人	-10.6273
疏中	-10.6274
淨名云	-10.6276
十一句	-10.628
相海	-10.6288
一剎那	-10.6293
城邑	-10.6296
他化自在天	-10.6297
一卷	-10.6301
身口	-10.6303
所覆	-10.6306
不殊	-10.6307
四十二	-10.6307
三乘中	-10.631
大臣	-10.6315
利他行	-10.6317
諸魔	-10.6318
定有	-10.6319
不生滅	-10.632
中亦二	-10.6328
於上	-10.6335
一切悉	-10.6341
不思	-10.6342
執持	-10.6344
若見眾生	-10.6346
智門	-10.6347
薩埵	-10.6355
禪波羅蜜	-10.6357
彼經云	-10.636
殺生	-10.6361
有四義	-10.6366
枯	-10.6373
分為四	-10.6376
狂	-10.6376
穀	-10.638
為伴	-10.6385
且約	-10.6386
大方廣佛新華嚴經合論卷第	-10.6387
證道	-10.639
雙結	-10.6395
一一世界	-10.6396
謂如	-10.6398
般若波羅蜜門	-10.6403
起於	-10.6408
諸願	-10.6413
侵	-10.6414
淨修	-10.6414
云何菩薩	-10.6415
半偈	-10.6415
愛欲	-10.6416
盈	-10.6417
若取	-10.642
梵語	-10.6425
無生法忍	-10.6425
正因	-10.6428
後佛子	-10.643
滴	-10.6432
盧舍那	-10.6434
既言	-10.6435
一實	-10.6439
如我	-10.6441
諦聽	-10.6446
百萬阿僧祇	-10.6446
遵	-10.6449
為業	-10.6451
初後	-10.6451
所有眾生	-10.6451
威神	-10.6452
慕	-10.6452
大功德	-10.6459
空觀	-10.6461
相顯	-10.6463
授法	-10.6464
素	-10.6464
眾生煩惱	-10.6466
一切眾生界	-10.6466
游	-10.6467
信位	-10.6468
或於	-10.6468
五明	-10.6469
遶	-10.6469
令心	-10.6471
暎	-10.6472
引經	-10.6476
一剎	-10.6477
義如前	-10.6481
去來	-10.6497
來者	-10.6497
性離	-10.6498
中論	-10.6498
標舉	-10.6501
世間法	-10.6505
疎	-10.6508
得一切智	-10.6508
纖	-10.651
超勝	-10.6517
亦無所	-10.6519
大般若	-10.6523
蛇	-10.653
復更	-10.653
觀心	-10.6533
佛出興	-10.6538
彌勒菩薩	-10.6545
多同	-10.6546
煩	-10.6548
踊	-10.6548
白淨	-10.6549
優	-10.655
宿命	-10.6555
中有四	-10.6562
迴轉	-10.6576
問也	-10.6582
甘	-10.6582
瞿波	-10.6583
寤	-10.6584
如是思惟	-10.6585
更不	-10.6585
所行處	-10.6587
臂	-10.6587
漏盡	-10.6591
令物	-10.6594
對法	-10.66
斷一切	-10.6601
難云	-10.6604
𥁞	-10.6606
而實	-10.6606
品類	-10.6608
救護眾生	-10.6609
即知	-10.661
妙音聲	-10.6611
瑜伽云	-10.6611
憶持	-10.6612
具足一切	-10.6615
形色	-10.6616
遍一切	-10.6617
曠	-10.6622
何名	-10.6624
後別	-10.6626
灌	-10.6628
千億	-10.6628
務	-10.663
星宿	-10.6634
赴	-10.6635
值遇	-10.6638
無諍	-10.6638
通局	-10.6642
標名	-10.6643
無來去	-10.6645
第三時	-10.6646
光明照	-10.665
化佛	-10.6651
唯識論	-10.6655
第八地	-10.6659
月光	-10.6662
緣生故	-10.6664
不動地	-10.6665
普現一切	-10.6669
才	-10.6674
現其前	-10.6674
競	-10.6674
豐	-10.6676
大方廣佛華嚴經疏卷第	-10.6676
有五種	-10.6677
讀	-10.6678
一毛端	-10.6679
圖	-10.6684
胡	-10.6686
貌	-10.6691
仁王	-10.6692
何別	-10.6695
覺分	-10.6699
釋經文	-10.6705
十方各	-10.6711
化儀	-10.6714
師云	-10.6714
詐	-10.6714
大千	-10.6719
遲	-10.6719
隨彼	-10.6724
唯識云	-10.6726
惱害	-10.6728
不可窮盡	-10.6728
樂說	-10.6736
隨業	-10.6736
右旋	-10.6737
約人	-10.6743
諸惑	-10.6746
正位	-10.6747
生天	-10.675
所在	-10.6757
不久	-10.6757
初中二	-10.6758
純淨	-10.6758
菩提分	-10.6759
貪等	-10.6763
相盡	-10.6765
十地中	-10.6767
亦當	-10.677
一微塵	-10.6771
偈文	-10.6772
相好莊嚴	-10.6775
是無常	-10.6776
利行	-10.6776
為眾生說	-10.6782
眾色	-10.6783
六通	-10.6787
此意	-10.6788
其事	-10.679
令修	-10.6792
六品	-10.68
凡小	-10.6801
以上	-10.6808
營	-10.6809
□	-10.681
他受用	-10.681
而知	-10.6811
叵	-10.6814
依處	-10.6814
一切法門	-10.6815
酪	-10.6818
初約	-10.682
能令眾生	-10.6822
取相	-10.6823
阿脩羅王	-10.6824
三乘教	-10.6825
摩睺羅伽王	-10.6826
同教一乘	-10.6826
正等覺	-10.6828
例然	-10.6833
即是佛	-10.6838
義當	-10.684
分位	-10.6848
梵本云	-10.6849
舟	-10.6852
騰	-10.6854
賴耶	-10.6855
似有	-10.6855
果滿	-10.6858
無行	-10.6858
乃至不可說不可說	-10.686
生佛	-10.6862
歸本	-10.6863
反顯	-10.6866
盡法界	-10.6869
業力	-10.6873
集會	-10.6874
段中	-10.6875
前義	-10.6877
名相	-10.6878
四偈	-10.6882
。】△	-10.6882
五六	-10.6884
餘四	-10.6889
莊嚴藏	-10.689
即成	-10.6897
有二門	-10.6898
紹	-10.6899
實法	-10.69
不厭	-10.6904
雖知	-10.6911
其光	-10.692
蔭	-10.6926
受者	-10.6929
方名	-10.693
三十三天	-10.6931
摩睺羅伽	-10.6934
答此	-10.6936
去來今	-10.6937
如是觀	-10.6938
之藏	-10.6938
餘經	-10.6938
巳下明	-10.6938
銅	-10.6941
轉輪聖王	-10.6944
無壞	-10.6944
式	-10.6945
善慧	-10.6945
常勤	-10.6946
調御	-10.6947
經行	-10.6947
佛剎塵數	-10.6953
說經	-10.6953
為難	-10.6954
真實義	-10.6959
易了	-10.6959
匝	-10.696
夜摩	-10.696
合中	-10.696
令諸菩薩	-10.6969
經曰	-10.6969
徵意云	-10.6971
醫	-10.6973
法界無量	-10.6974
迦樓羅	-10.6976
不如	-10.6978
愁	-10.6979
二段	-10.6981
正宗	-10.6981
方便門	-10.6982
六識	-10.6985
一地	-10.6988
天耳	-10.6992
頓現	-10.6994
八萬	-10.6994
算數	-10.6997
退失	-10.6999
說頌	-10.6999
佛眼	-10.7005
第二明	-10.7006
眾善	-10.7023
順行	-10.7027
別辨	-10.7028
同住	-10.703
寶王	-10.7032
非一非異	-10.7034
彩	-10.7035
今更	-10.7035
惠施	-10.7043
有三一	-10.7043
證真	-10.7044
四方	-10.7044
依持	-10.7045
青蓮華	-10.7058
巳去	-10.7058
豈得	-10.707
道場神	-10.7072
私	-10.7072
▁四結	-10.7072
苦果	-10.7075
既有	-10.7075
塔廟	-10.7076
阿僧祇世界	-10.7077
不解	-10.7087
羣生	-10.7088
之始	-10.709
摩頂	-10.7091
妄念	-10.7099
頂上	-10.71
諸句	-10.71
眼見	-10.7103
中二先	-10.7111
窮盡	-10.7112
中初一	-10.7113
十方所有	-10.7115
慈愍	-10.7116
不別	-10.7117
何須	-10.7118
正知	-10.712
秋	-10.7123
其音	-10.7126
過前	-10.7128
十二緣	-10.7129
極微	-10.7132
善知識教	-10.7133
分布	-10.7134
所用	-10.7134
聞慧	-10.7135
所變	-10.7138
城中	-10.714
餘文	-10.7144
尊者	-10.7144
如來地	-10.7145
世親	-10.7148
觀察十方	-10.7149
此娑婆世界	-10.7153
行業	-10.7158
釋論	-10.7158
復有無量	-10.7159
慧光	-10.716
引例	-10.716
聾	-10.7161
實報	-10.7162
▁二引證	-10.7164
身口意	-10.7166
所不能	-10.7167
此偈	-10.7167
右手	-10.7173
善逝	-10.7174
神通變化	-10.7179
綱要	-10.7181
此地菩薩	-10.7182
淨妙	-10.7185
次偈	-10.7187
下別釋	-10.7188
於一念	-10.7192
世出世	-10.7192
聰	-10.7196
自在神通	-10.7199
淳	-10.7203
何謂為十	-10.7204
涌	-10.7207
大城	-10.7209
優婆塞	-10.721
具足成就	-10.721
所歸	-10.7212
地智	-10.7214
召	-10.7215
成前	-10.7215
自業	-10.7217
海雲	-10.722
如法界	-10.7221
教門	-10.7224
平等心	-10.7224
滅盡	-10.7226
未生	-10.7226
永不	-10.7227
無表	-10.7231
作大	-10.7232
所表	-10.7233
應供	-10.7234
入般若波羅蜜門	-10.7237
我於彼	-10.7238
佛乘	-10.7241
略顯	-10.7248
商	-10.725
清淨莊嚴	-10.725
滋	-10.7251
羊	-10.7251
壁	-10.7252
四聖諦	-10.7255
梁攝論	-10.7257
下劣	-10.7259
環	-10.7259
彌覆	-10.7265
次一頌	-10.7271
全體	-10.7272
久遠	-10.7272
是為十若諸菩薩安住此法	-10.7275
其猶	-10.7275
之數	-10.728
攝善	-10.728
體空	-10.7282
教說	-10.7283
龍女	-10.7283
受樂	-10.7285
諸羣生	-10.7286
佛名號	-10.7287
二法	-10.7297
有云	-10.7301
官	-10.7303
六義	-10.7303
䟽釋	-10.7306
附	-10.7311
何用	-10.7315
形奪	-10.732
教化調伏	-10.7326
險道	-10.7329
三空	-10.7329
此菩薩摩訶薩	-10.7335
蓮花	-10.7336
順忍	-10.7338
億那由他	-10.734
正直	-10.7342
悉入	-10.735
先問	-10.7351
一理	-10.7351
觀世音	-10.7352
間錯	-10.7353
九世	-10.7354
此解脫	-10.7356
兜率天宮	-10.7358
▁南無大方廣佛華嚴經中	-10.736
▁二科經	-10.736
白淨法	-10.736
中有十	-10.736
一切佛所	-10.7362
善修	-10.7364
勇猛精進	-10.7367
初總明	-10.7368
解說	-10.7371
諦觀	-10.7379
又知	-10.7379
肉眼	-10.738
給	-10.738
油	-10.7389
裏	-10.7392
成熟眾生	-10.7393
炳	-10.7396
烏	-10.7396
發趣	-10.7399
文殊師利菩薩	-10.74
二邊	-10.7401
忉利天	-10.7402
藏識	-10.7403
雙運	-10.7407
之境界	-10.741
猒	-10.7411
七句	-10.7411
普令	-10.7413
問何故	-10.7414
隨煩惱	-10.7416
香海	-10.7417
令無量眾生	-10.7418
如來十力	-10.7418
生死苦	-10.742
含容	-10.7422
聞已	-10.7425
因緣生	-10.7427
倣	-10.7427
或住	-10.7428
十方無量	-10.7431
幢幡	-10.7431
所集	-10.7431
若菩薩	-10.7431
不遷	-10.7432
多一	-10.7435
內證	-10.7437
勝用	-10.7438
▁初總標	-10.7439
性本	-10.7439
域	-10.7442
第一義空	-10.7445
威勢	-10.7449
上中下	-10.7451
所有善根	-10.7453
來詣佛所	-10.7453
能緣	-10.7453
謂之	-10.7461
一切有情	-10.7461
所欲	-10.7462
以辨	-10.7466
難處	-10.7475
或見佛身	-10.7478
得十種	-10.7478
佛出世	-10.7481
從彼	-10.7482
炬	-10.7485
取捨	-10.7486
又由	-10.7487
黑闇	-10.749
回	-10.7491
瞿	-10.7493
▁二引	-10.7493
以佛神力	-10.7494
鈴	-10.7495
自在天	-10.7499
初一頌	-10.7502
由上	-10.7505
有邊	-10.7509
樂著	-10.7511
相待	-10.7515
財物	-10.7518
法相宗	-10.7526
請說	-10.7528
諸世界中	-10.7529
決定解	-10.7531
空空	-10.7533
善來	-10.7533
谷	-10.7536
陵	-10.7536
佛地論	-10.7536
惑業	-10.7541
下合	-10.7541
受化	-10.7542
一方	-10.7543
葢	-10.7543
孔目	-10.7545
▁二結	-10.7547
便成	-10.755
客	-10.755
作禮	-10.7551
長科	-10.7553
言我	-10.7556
五性	-10.7557
若具	-10.7558
臭	-10.757
諂曲	-10.7572
法華云	-10.7574
座上	-10.7574
三十四	-10.7575
校	-10.7576
有十句	-10.7577
割	-10.7578
等流	-10.758
入理	-10.7581
力無畏	-10.7582
慰	-10.7583
幸	-10.7585
謙巳推勝	-10.7585
稱理	-10.7587
希求	-10.7587
佛出現	-10.759
和會	-10.7591
是苦	-10.7591
滅惑	-10.7592
如斯	-10.7595
心識	-10.7596
躡	-10.7603
於佛法中	-10.7605
𣗳	-10.7606
不壞信	-10.7613
疑云	-10.7614
國王	-10.7614
略示	-10.7616
二百	-10.7619
於中有三	-10.762
現前故	-10.7622
緣集	-10.7625
剋	-10.7625
暴	-10.7625
有一百	-10.7627
條	-10.763
總中	-10.7631
幻有	-10.7633
若云	-10.7634
尋伺	-10.7638
論經云	-10.764
無上法	-10.7641
七覺	-10.7644
否	-10.7644
兩亡	-10.7651
有三十	-10.7655
宿住	-10.7656
我執	-10.7657
左右	-10.7659
不可言說	-10.7661
地地	-10.7661
是故此	-10.7667
已去	-10.7672
諸禪	-10.7675
蕩	-10.7676
預	-10.7677
序分	-10.7677
功德莊嚴	-10.7678
入此三昧	-10.7681
菩薩云何	-10.7683
受報	-10.7685
天竺	-10.7687
說十地	-10.769
佛子此菩薩	-10.7691
百萬億菩薩	-10.7692
文有十句	-10.7693
種姓	-10.7694
無前後	-10.7699
人民	-10.7702
軟	-10.7709
聖諦	-10.7712
之地	-10.7716
處說	-10.7716
德本	-10.7717
定意	-10.7719
數量	-10.7719
皆如實知	-10.7721
迷悟	-10.7725
十海	-10.7726
銷	-10.7727
羯	-10.7728
各差別	-10.7731
自在無礙	-10.7732
二十三	-10.7734
而不捨	-10.7743
淨業	-10.7744
默然	-10.7747
後七	-10.775
二宗	-10.7752
之間	-10.7753
無智	-10.7762
意趣	-10.7765
地神	-10.7765
十定品	-10.7765
大會	-10.7772
身眾神	-10.7775
取意	-10.778
純熟	-10.778
奮迅	-10.7782
不攝	-10.7784
云何得	-10.7785
同彼	-10.7788
秦	-10.779
寶蓋	-10.7792
幢佛	-10.7793
百千劫	-10.7795
豈有	-10.7799
二人	-10.78
己身	-10.7801
三總結	-10.7807
其形	-10.7811
不念	-10.7811
睡眠	-10.7815
逼迫	-10.7816
不墮	-10.7817
彌伽	-10.7817
前八	-10.7818
皆現	-10.7821
延促	-10.7825
本業	-10.7825
定體	-10.7826
母胎	-10.7827
下方	-10.7828
隨義	-10.7832
次有佛興	-10.7841
依論	-10.7842
相融	-10.7842
度無極	-10.7842
無量阿僧祇	-10.7855
數數	-10.7858
渴	-10.7859
合上	-10.7863
戰	-10.7868
正答	-10.7868
正解	-10.7869
上方	-10.787
潤澤	-10.7872
難勝地	-10.7873
驚	-10.7881
自受用	-10.7885
積聚	-10.7888
自在天王	-10.7889
唐清涼山大華嚴寺沙門澄觀撰述	-10.789
況於	-10.7891
增上緣	-10.7893
必當	-10.7899
及諸菩薩	-10.7908
能熏	-10.7909
算	-10.7911
大蓮華	-10.7912
瑕	-10.7914
次十	-10.7918
險難	-10.7919
雙照	-10.7921
柔和	-10.7921
千萬	-10.7922
通別	-10.7923
所出	-10.7924
思慧	-10.7927
種族	-10.7928
彼人	-10.793
離垢地	-10.793
卦	-10.7931
普賢菩薩摩訶薩	-10.7933
▁南無此上過佛剎微塵數世界	-10.7937
菩提心者猶如	-10.7937
形狀	-10.7938
變現	-10.7939
二云	-10.794
光雲	-10.7945
白法	-10.7953
可解	-10.7956
弗	-10.7957
世人	-10.7959
若據	-10.7962
寶瓔珞	-10.7963
雅	-10.7963
咎	-10.7969
扶	-10.797
曠野	-10.7971
觀諸法	-10.7972
無量種	-10.7972
凡所	-10.7978
不自在	-10.798
而巳	-10.7983
文並可知	-10.7986
資具	-10.7987
有二意一	-10.7988
共成	-10.7988
望前	-10.7999
高山	-10.8
植	-10.8001
六塵	-10.8001
十定	-10.8005
妄計	-10.8006
平等清淨	-10.8007
誹謗	-10.8009
智障	-10.801
不轉	-10.802
世界名	-10.802
玄門	-10.802
邪定	-10.8023
五偈	-10.8023
顯德	-10.8024
文意	-10.8026
永滅	-10.8029
緫	-10.803
餘句	-10.8032
與一切眾生	-10.8037
過未	-10.8042
愛著	-10.8043
善慧地	-10.8045
全收	-10.8047
成阿耨多羅三藐三菩提	-10.8048
今且	-10.8051
所感	-10.8051
此頌	-10.8055
修集	-10.806
初義	-10.8065
摩訶衍	-10.8068
常能	-10.8071
通妨	-10.8073
微細智	-10.8087
五識	-10.809
波羅	-10.8091
無人	-10.8096
世間出世間	-10.8097
恒以	-10.8098
感應	-10.81
寶髻	-10.8102
思念	-10.811
傾動	-10.8117
大段	-10.8123
願為我說	-10.8133
四法	-10.8134
十住中	-10.8135
初發心住	-10.8138
法無我	-10.8139
萬德	-10.8151
於其中	-10.8158
不妨	-10.8159
遞	-10.816
得定	-10.8165
弱	-10.8167
浪	-10.8167
十問	-10.8167
折	-10.8169
義門	-10.8174
o	-10.8177
應言	-10.8192
五道	-10.8193
究竟清淨	-10.8198
違逆	-10.8202
非空	-10.8203
王宮	-10.821
繩	-10.821
塞	-10.8212
明利	-10.8212
五戒	-10.8213
香氣	-10.8214
聽者	-10.8214
不動智	-10.8218
遠行地	-10.8221
踊躍	-10.8221
佛剎微塵等	-10.8235
民	-10.8238
受職	-10.8239
出生無量	-10.8241
文中三	-10.8243
無有邊際	-10.8246
無所礙	-10.825
佛十力	-10.8251
疾得	-10.8251
當體	-10.8252
俱存	-10.8255
一乘三乘	-10.8256
歡喜心	-10.8261
穿	-10.8263
約教	-10.8264
諸如來所	-10.8269
汝詣彼問	-10.8274
普皆	-10.8276
餘處	-10.8276
小相	-10.8278
大精進	-10.8279
棄捨	-10.828
亦復不	-10.8287
亦不見	-10.8288
處生死	-10.8293
百千萬	-10.8296
止息	-10.8299
相容	-10.8302
正釋文	-10.8302
舉數	-10.8303
幻師	-10.8304
恣	-10.8306
雖是	-10.8307
立教	-10.8307
歡	-10.8307
覩見	-10.8307
無貪	-10.8307
定不定	-10.8309
稍	-10.8318
踰	-10.8319
刺	-10.8319
三世一切諸佛	-10.832
並皆	-10.8322
中陰	-10.8327
方便善巧	-10.8328
示現無量	-10.833
身語	-10.8332
不滯	-10.8338
聲聞獨覺	-10.834
凖	-10.8341
無量百千	-10.8347
婆羅	-10.835
諸外道	-10.835
隨念	-10.8352
難行	-10.8354
利益一切眾生	-10.8354
所宜	-10.8356
喻合	-10.8356
吒	-10.8361
字即	-10.8362
罪人	-10.8368
堪能	-10.837
隨文釋義者	-10.8376
即便	-10.838
時善根迴向	-10.8382
▁初長行	-10.8384
勝音	-10.8385
現前地	-10.8398
所不能及	-10.84
何法	-10.8405
諸法性	-10.8406
以願力	-10.841
須菩提	-10.841
依主	-10.8414
恃	-10.8414
鎔融	-10.8416
等覺位	-10.8416
無量世界	-10.8418
彼諸菩薩	-10.8419
鳴	-10.842
耆	-10.8421
發大願	-10.8423
今䟽	-10.8423
執金剛神	-10.8428
可思	-10.8428
徧計	-10.8429
一箇	-10.8437
苦諦	-10.8439
上約	-10.844
入出	-10.844
內心	-10.8447
生老病死	-10.8448
始覺	-10.8448
自力	-10.8449
出現品云	-10.8451
俱泯	-10.8457
無不盡	-10.8458
於彼一一	-10.8458
妄取	-10.8458
醜	-10.846
可樂	-10.8466
倫	-10.8467
輔	-10.8467
十眼	-10.8468
飯	-10.8471
大行	-10.8472
餘可	-10.8475
別示	-10.8477
與我	-10.8477
禮拜	-10.8481
非餘	-10.8482
華雲	-10.8491
作證	-10.8491
夜摩天	-10.8495
能變	-10.8496
三無性	-10.8501
王都	-10.8503
勘	-10.8509
二十七	-10.851
無為法	-10.8515
中分三	-10.8516
法堂	-10.8517
吐	-10.8518
始從	-10.8519
順違	-10.8523
稱揚讚歎	-10.8524
於三界	-10.8526
等者即	-10.853
財寶	-10.8534
注云	-10.8544
十對	-10.8545
彼諸如來	-10.8546
後位	-10.8548
甚難	-10.8553
雖在	-10.8557
圍	-10.8561
心意識	-10.8562
無量剎	-10.8566
無思	-10.8572
有十一	-10.8573
指示後友	-10.8574
主城神	-10.8576
八門	-10.8577
常寂	-10.8578
擬	-10.8578
忻	-10.8578
隨事	-10.858
往生	-10.8583
依真	-10.8591
下引證	-10.8592
明鏡	-10.8594
火燒	-10.8608
施戒	-10.8608
形如	-10.8619
現量	-10.862
率	-10.862
第六地	-10.8627
起滅	-10.8627
嚴身	-10.8628
眾會中	-10.8628
孝	-10.8628
肩	-10.863
勝鬘	-10.8631
點	-10.8631
脚	-10.8634
諸莊嚴具	-10.8635
之際	-10.8644
寶幢	-10.8647
雷音	-10.8647
入深	-10.8648
趣求	-10.865
悅意	-10.865
開化	-10.8651
此界	-10.8651
後半	-10.8654
遍一切處	-10.8657
觀門	-10.8657
中初二句	-10.8666
本空	-10.8669
海藏	-10.8671
又曰	-10.8673
成就眾生	-10.8675
喪	-10.8676
方便波羅蜜	-10.868
一切智心	-10.8681
振	-10.8682
如文自具	-10.8685
童真	-10.8685
渴仰	-10.8686
資生	-10.8688
多約	-10.8698
隨樂	-10.8698
現相品	-10.8699
不許	-10.8703
與理	-10.8709
能了知	-10.8709
初十句	-10.871
一毛孔中	-10.871
隨物	-10.8715
蓮華座	-10.8721
侶	-10.8721
徵起	-10.8723
浴	-10.8727
淵	-10.873
淪	-10.8731
瓦	-10.8732
華鬘	-10.8733
契合	-10.8734
經卷	-10.8734
師子之座	-10.8736
雄	-10.8738
多作	-10.8743
聞此法	-10.8747
有一偈	-10.8747
三學	-10.8748
樂具	-10.8748
令汝	-10.8751
分為五	-10.8758
佛子此菩薩摩訶薩	-10.876
麤細	-10.8762
圓備	-10.8769
心無所著	-10.877
救度	-10.8771
處世	-10.8774
百萬億天	-10.8779
不絕	-10.878
光明網	-10.879
書寫	-10.8794
護世	-10.8799
就此	-10.8804
之極	-10.8809
靡	-10.8817
大道	-10.8823
喻況	-10.8831
於境	-10.8833
婦	-10.8834
妄心	-10.8835
引文	-10.8835
合成	-10.8839
佉	-10.8841
句義	-10.8844
精進力	-10.8845
捺	-10.8848
得阿耨多羅三藐三菩提	-10.8855
無量方便	-10.8857
恒住	-10.8859
第十一	-10.8862
一乘教	-10.8863
三十八	-10.8867
金光明	-10.8867
十世	-10.8868
以是因緣	-10.8875
三諦	-10.8875
之曰	-10.8877
勵	-10.8894
禍	-10.8896
癡闇	-10.89
說一切法	-10.89
善觀察	-10.8904
誕生	-10.8907
結集	-10.8913
無體性	-10.8915
入一切法	-10.8917
起信論	-10.8918
結上	-10.892
義兼	-10.892
過惡	-10.8921
六趣	-10.8922
自作	-10.8923
非理	-10.8925
不斷絕	-10.8927
著我	-10.8928
之功	-10.8938
漸頓	-10.8938
瓶	-10.894
湛	-10.8943
多分	-10.8946
衛	-10.8948
未至	-10.895
故次來也	-10.8951
帀	-10.8954
百千萬億那由他	-10.8955
道諦	-10.8955
寫	-10.8958
佛子譬如	-10.896
相作	-10.8961
無情	-10.8964
金剛幢	-10.8967
果用	-10.8969
性海	-10.8972
悉使	-10.8975
十行頌	-10.8979
豈可	-10.8979
一切語言	-10.898
我為說法	-10.8984
皆爾	-10.8987
唯是一	-10.8987
而復	-10.899
論師	-10.8993
巨	-10.8998
使令	-10.8999
普法	-10.9003
引發	-10.9003
七字	-10.9004
十向	-10.9006
遏	-10.9008
獻	-10.9013
報生	-10.9013
百門	-10.902
敘昔	-10.902
佛加	-10.9022
位滿	-10.9024
久住	-10.9024
毛孔中	-10.903
僧寶	-10.9033
弘誓	-10.9033
此十種	-10.904
得一切佛	-10.9042
采女	-10.9043
▁二偈頌	-10.9045
惑障	-10.9047
急	-10.9048
准知	-10.9052
虎	-10.9055
評曰	-10.9056
無能勝	-10.9059
應時	-10.906
大劫	-10.906
中論云	-10.9063
塵垢	-10.9064
常念	-10.9065
文殊普賢	-10.9075
出妙音	-10.9075
總云	-10.9078
智度論	-10.9091
自利利他	-10.9093
難量	-10.9097
揀非	-10.91
令其得	-10.9101
妙好	-10.9104
灰	-10.9107
玄妙	-10.911
隨他	-10.911
畔	-10.9111
金剛幢菩薩	-10.9113
京	-10.9115
賢劫	-10.9116
怨敵	-10.9117
義利	-10.9119
生佛家	-10.9123
難遇	-10.9127
歷然	-10.9129
正思惟	-10.913
造修	-10.9132
於自身	-10.9146
化用	-10.9149
決了	-10.9152
深玄	-10.9153
大方廣佛華嚴經隨疏演義鈔卷第	-10.9154
截	-10.916
跋	-10.9162
市	-10.9163
悋	-10.9164
楞伽云	-10.9166
五乘	-10.9168
金銀	-10.9168
歸命	-10.917
仰推	-10.9173
須陀洹	-10.9173
菩薩摩訶薩應如是知	-10.9175
力士	-10.9175
善不善	-10.9179
皇	-10.9181
䟽文	-10.9182
本處	-10.9182
後學	-10.9191
教道	-10.9196
十佛剎微塵數世界	-10.9204
床	-10.9208
所須	-10.921
祕	-10.9218
焚	-10.9222
妓樂	-10.9226
以偈頌曰	-10.9226
一切諸佛國土	-10.9228
救眾生	-10.9228
菩薩云何學菩薩行	-10.9231
諸力	-10.9232
▁初引	-10.9242
大願海	-10.9245
倣此	-10.9245
無礙解	-10.9249
化樂天	-10.9251
真應	-10.9254
令捨	-10.9258
就法	-10.9262
金色世界	-10.9263
趣寂	-10.9269
牀	-10.9272
一標	-10.9273
我聞	-10.9277
負	-10.9277
華藏世界海	-10.9278
不休息	-10.9279
餘九為伴	-10.9282
廣大智	-10.9282
迫	-10.9286
如來神力	-10.9288
廣辨	-10.9289
此地中	-10.9292
出沒	-10.9293
不迷	-10.9297
增上慢	-10.93
方便慧	-10.9303
信滿	-10.931
理趣	-10.931
假立	-10.9316
有十一句	-10.9318
一切毛孔	-10.932
幻智	-10.9321
憍	-10.9324
犯戒	-10.9329
隆	-10.9332
六頌	-10.9334
奉行	-10.9345
成辦	-10.9352
不失時	-10.9358
惡口	-10.9359
一切智地	-10.936
莊嚴幢	-10.9361
聚集	-10.9363
成一切智	-10.9366
亦有二種	-10.9367
慳嫉	-10.9369
有五百	-10.9369
寶𦦨	-10.937
三十句	-10.9373
眾緣	-10.9375
如來出現品	-10.9376
凝	-10.9376
綺	-10.9378
非想	-10.9378
能轉	-10.938
佛興	-10.9383
輩	-10.9383
管	-10.9389
主稼神	-10.9393
能忍	-10.9397
東北方	-10.94
船師	-10.94
什	-10.9403
純雜	-10.9406
如是迴向	-10.9406
教證	-10.9406
初句總	-10.9408
叚	-10.941
遍行	-10.9414
專念	-10.9426
正趣	-10.9427
取其	-10.9441
遶無數匝	-10.945
報化	-10.9452
現其身	-10.9452
奴	-10.9453
憑	-10.9455
智日	-10.9456
能壞	-10.9459
或見處座	-10.946
通妨難	-10.9465
慣習	-10.947
出纏	-10.947
乞者	-10.9471
時節	-10.9473
雙明	-10.9477
樂音	-10.9481
重會	-10.9484
讚說	-10.949
打	-10.9496
摩訶薩	-10.9497
邏	-10.9497
各具	-10.9497
晝	-10.9499
長壽	-10.9499
八難	-10.9501
便能	-10.9502
法句	-10.9502
大師子吼	-10.9505
初長行	-10.9506
來詣	-10.9506
事事	-10.9508
光明覺品	-10.9509
燭	-10.9509
其量	-10.951
故受之以	-10.9512
現神通	-10.9517
勝功德	-10.9517
力波羅蜜	-10.9522
十惡	-10.9523
百一十	-10.9532
一切世界海	-10.9534
臥具	-10.9539
不可計	-10.9539
普攝一切	-10.9542
指前	-10.9544
本意	-10.955
追	-10.9554
△	-10.956
調伏一切眾生	-10.9567
汎	-10.9567
諮問	-10.9567
十卷	-10.9569
隅	-10.9569
心心所	-10.9571
卷第十	-10.9573
不成佛	-10.9573
下疏云	-10.9573
不輕	-10.9579
西北方	-10.9582
其狀	-10.9582
無有分別	-10.9584
出妙音聲	-10.9585
輕重	-10.9596
一切寶莊嚴	-10.9598
普救	-10.96
況復	-10.9606
噉	-10.9607
並可知	-10.961
房	-10.9614
銀	-10.9615
方便海	-10.9616
出要	-10.9618
為所依	-10.9621
未必	-10.9622
我已先發阿耨多羅三藐三菩提心	-10.9622
不忘失	-10.9624
無有異	-10.9633
念請	-10.9637
大威光	-10.9639
排	-10.9641
身子	-10.9643
前偈	-10.9646
正觀	-10.9646
識支	-10.9652
或有眾生	-10.9656
教化一切眾生	-10.9656
真實法	-10.9657
由斯	-10.9657
龍宮	-10.9658
戴	-10.9671
循	-10.9674
稽首	-10.9675
毗盧	-10.9676
村	-10.9677
陸	-10.9679
隨俗	-10.9681
常無常	-10.9681
方顯	-10.9682
度生	-10.9683
后	-10.9685
二十重	-10.9686
無主	-10.9687
寶冠	-10.9687
帝青	-10.9688
願波羅蜜	-10.9689
普照法界	-10.9689
依主釋	-10.969
大種	-10.9691
開覺	-10.9693
不能盡	-10.9695
見諸眾生	-10.9696
諸經論	-10.9696
城東	-10.9697
無救	-10.9702
足行神	-10.9702
寶山	-10.9705
滿月	-10.9709
情有	-10.9711
中亦有	-10.9714
此段	-10.9717
光𦦨	-10.9721
來處	-10.9722
中亦三	-10.9724
足指	-10.9728
屬於	-10.9732
法性宗	-10.9736
佛剎微塵數劫	-10.9736
霔	-10.9741
智契	-10.9742
長夜	-10.9748
先總明	-10.975
貪瞋癡	-10.9751
一一身	-10.9752
主地神	-10.9752
常見諸佛	-10.9753
直就	-10.9755
變化身	-10.976
善利	-10.976
問若爾	-10.9769
令歡喜	-10.9779
無退	-10.9783
生盲	-10.9789
慎	-10.979
修慧	-10.9792
讀誦	-10.9794
入俗	-10.9795
修羅	-10.9796
志願	-10.9797
尤	-10.9797
三十三	-10.98
五重	-10.9801
方始	-10.9801
破相	-10.9807
絕言	-10.9811
六偈	-10.9812
不捨眾生	-10.9812
若準	-10.9814
三十九	-10.9815
諸剎海	-10.9816
不怖	-10.9823
云何知	-10.9836
猗	-10.9836
下三句	-10.9837
雙釋	-10.9838
與樂	-10.9838
本師	-10.9841
名目	-10.9841
欺	-10.9843
唯取	-10.9843
總收	-10.9844
斯即	-10.9846
怠	-10.9849
限量	-10.985
迴向菩提	-10.9855
十二有支	-10.9858
一毛端處	-10.9858
悉充滿	-10.9859
而去	-10.9866
▁南無十方三世盡虗空界微塵剎土中	-10.9866
所共圍遶	-10.9867
不能動	-10.9868
三千大千世界微塵數	-10.9868
亡言	-10.9874
引導	-10.9881
上二界	-10.9882
動地	-10.9893
精進波羅蜜	-10.9907
亦無有	-10.9908
如此世界	-10.9912
幹	-10.9913
巾	-10.9913
二十六	-10.9915
爪	-10.9916
攝益	-10.9916
諸方	-10.9916
阿彌陀	-10.9916
聞思修	-10.9918
兜率陀天	-10.9918
拔濟	-10.9918
授與	-10.9919
所聞法	-10.992
且依	-10.9923
現形	-10.9923
曷	-10.9923
承力	-10.9924
攝末歸本	-10.9924
自利行	-10.9926
了一切法	-10.9927
隨世	-10.9931
教化成熟	-10.9931
此有二義	-10.9931
無邊世界	-10.9935
難陀	-10.9937
一際	-10.9937
機感	-10.9938
照了	-10.9939
釋意云	-10.9939
文分二	-10.9948
末那	-10.9949
入胎	-10.995
諸法門	-10.9956
得此解脫	-10.9956
今既	-10.9956
一偈頌	-10.9961
職	-10.9967
前來	-10.9967
脇	-10.9969
海幢比丘	-10.9976
弊	-10.9977
大雨	-10.9978
一切諸世間	-10.9979
所纏	-10.998
得見佛	-10.9981
墨	-10.9981
斷證	-10.9981
不由他悟	-10.9982
戒定慧	-10.9983
纓絡	-10.9983
問明品	-10.9985
第九地	-10.9987
無量差別	-10.9989
專心	-10.9994
一時頓	-10.9995
一闡提	-10.9995
悅樂	-10.9997
熾	-11.0004
又作是念	-11.0012
生公	-11.002
尋求	-11.0027
第八會	-11.0027
金網	-11.0029
復過	-11.0029
避	-11.0038
各自	-11.0042
前品	-11.0043
幢王	-11.0045
輪轉	-11.0046
天神	-11.0049
真源	-11.005
必定	-11.0051
四面	-11.0052
知無量如來	-11.0055
去來現在	-11.0058
教誨	-11.0061
須彌山微塵數	-11.0064
法如是故	-11.0065
大河	-11.0068
上二句	-11.0073
無央數	-11.0078
實語	-11.0079
須彌頂	-11.0082
徑	-11.0086
羸	-11.0088
為我說	-11.009
有二種一	-11.0091
辱	-11.0091
無礙解脫	-11.0094
歡喜踊躍	-11.0096
十住十行十迴向	-11.0097
兩舌	-11.0102
不思議品	-11.0105
撰	-11.0105
而說頌曰	-11.0106
一即一切	-11.0111
四段	-11.0116
今略	-11.0118
說此法	-11.0118
離癡	-11.0119
華果	-11.012
亦不離	-11.0126
依何	-11.0133
調順	-11.0136
教授	-11.014
男子	-11.0145
成佛道	-11.0145
號曰	-11.0145
同歸	-11.0147
最下	-11.0156
即為十段	-11.0156
妄見	-11.016
丈	-11.016
鄙	-11.0164
安處	-11.0164
而自莊嚴	-11.0164
順釋	-11.0167
恱	-11.0171
揀濫	-11.0172
是名菩薩摩訶薩第	-11.0175
一即多	-11.0192
智幻	-11.0194
悲愍	-11.0195
能伏	-11.0195
宿世	-11.0198
無邊劫	-11.0199
欄楯	-11.0213
諂誑	-11.0214
十善道	-11.0214
卷第三	-11.0217
炷	-11.0218
次一句	-11.022
多端	-11.022
緣起相由	-11.0221
付囑	-11.0223
儀式	-11.0226
所行之行	-11.0228
超越	-11.0228
麁重	-11.0229
普賢行品	-11.023
異耳	-11.0233
無空過	-11.0235
▁三雙結	-11.0236
正辨	-11.0239
前半	-11.024
不住道	-11.0241
二十九	-11.0245
向菩提	-11.0254
總歎	-11.0258
三世一切佛	-11.0259
開顯	-11.0262
卷第二	-11.0263
隨順世間	-11.027
十地品	-11.0271
躡前	-11.0274
杖	-11.0274
怙	-11.0277
上求	-11.0278
不須	-11.0279
川	-11.028
屈曲	-11.028
迷真	-11.0281
頭陀	-11.0284
末句	-11.0284
宋	-11.0285
不堪	-11.0285
阿賴耶識	-11.0285
五趣	-11.0286
轉妙法輪	-11.0289
怯弱	-11.029
不相捨離	-11.0291
根器	-11.0291
大菩提心	-11.0296
說一乘	-11.03
」【【	-11.0302
故下經云	-11.0304
現在世	-11.0305
如華嚴經	-11.0307
四洲	-11.0309
次二頌	-11.0315
眾生數等	-11.0323
菩薩大士	-11.0328
類顯	-11.0332
小乘教	-11.0332
執我	-11.0334
攝取眾生	-11.0338
洛	-11.0339
本質	-11.034
龜	-11.0344
咸令	-11.0347
降雨	-11.0349
增進	-11.0352
篇	-11.0359
涉入	-11.036
如說修行	-11.0365
善財白言	-11.0366
滅煩惱	-11.0368
覺首	-11.0369
禪師	-11.0369
佛法僧	-11.037
諮	-11.0385
總該	-11.0388
眼根	-11.0394
長劫	-11.0397
弟	-11.0399
受記	-11.0399
本會	-11.04
墜	-11.0402
如是等無量	-11.0402
所學	-11.0403
主晝神	-11.0405
佛種性	-11.0405
主方神	-11.0408
禁戒	-11.0409
發光地	-11.041
雜寶	-11.0411
愛見	-11.0412
到於彼岸	-11.0412
驚怖	-11.042
更無別	-11.0434
充徧	-11.0437
菩提涅槃	-11.0439
而為莊嚴	-11.0441
滿十方	-11.0449
汝見	-11.045
第二釋	-11.0454
佛昔	-11.0456
怪	-11.0457
設教	-11.046
覲	-11.0466
思之可見	-11.0467
推德昇進	-11.0468
輻	-11.0469
若爾何	-11.0471
摩尼珠	-11.0471
娑婆世界	-11.0472
酥	-11.0474
清淨戒	-11.0474
􂐔	-11.0481
無所染著	-11.0483
無別體	-11.0503
佛世尊	-11.0508
反此	-11.0509
顯揚	-11.0509
今辨	-11.0522
悕	-11.0525
皆令歡喜	-11.0526
㝵	-11.0526
坑	-11.0527
邑	-11.0529
高出	-11.053
刊定	-11.053
餘文可知	-11.0533
波浪	-11.0533
不住涅槃	-11.0535
內德	-11.0536
何者是	-11.0536
充足	-11.0537
折伏	-11.0539
柔輭	-11.0542
伽羅	-11.0545
若諸菩薩安住其中	-11.0548
而為其	-11.055
堪聞	-11.0552
擇滅	-11.0556
標章	-11.0559
第二地	-11.0559
逆觀	-11.056
漏無漏	-11.0564
相續不斷	-11.0565
梁論	-11.0566
深遠	-11.0566
▁二合	-11.0568
童	-11.0577
抱	-11.0578
裂	-11.0581
雨法雨	-11.0582
轉識	-11.0584
第四禪	-11.0588
次有如來	-11.059
捨離一切	-11.0593
紙	-11.0594
宇	-11.0598
知諸眾生	-11.0601
舊經	-11.0602
三千大千	-11.0605
是故得成此光明	-11.0606
無數世界	-11.0614
盡無餘	-11.0615
况	-11.0617
三塗	-11.0617
令善財	-11.0618
二別顯	-11.0619
千年	-11.062
具引	-11.0622
居然	-11.0624
轉更	-11.063
名號品	-11.063
欣樂	-11.063
忉利	-11.0634
心念言	-11.0635
燒香	-11.0636
▁初牒	-11.064
伎	-11.0647
堪任	-11.0652
警	-11.0657
臆	-11.0659
千世界	-11.066
四十八	-11.066
例餘	-11.066
芬	-11.0661
孫	-11.0663
右遶	-11.0664
䟦	-11.0668
毗尼	-11.0675
根熟	-11.0682
準之	-11.0685
同號	-11.0687
搖	-11.0689
得出離	-11.069
照曜	-11.069
佛知見	-11.0691
雖殊	-11.0697
▁初總明	-11.0698
剛	-11.0701
偈讚品	-11.0711
斷障	-11.0713
大千世界	-11.0718
巖	-11.072
武	-11.0721
塵剎	-11.0722
出聲	-11.0723
成最正覺	-11.0724
英	-11.0727
歿	-11.073
三千界	-11.0735
章門	-11.0736
初一偈	-11.074
已引	-11.0742
難聞	-11.0743
世樂	-11.0749
一一毛孔中	-11.075
命根	-11.0752
此位菩薩	-11.0754
十年	-11.0764
先徵	-11.0765
託事	-11.0767
思惟觀察	-11.0768
後偈頌	-11.0784
所有功德	-11.0803
先辨	-11.0804
流注	-11.0805
邊見	-11.0805
別立	-11.0809
如前釋	-11.0813
第三地	-11.0815
悟一切法	-11.0817
不能壞	-11.0821
譬如虛空	-11.0822
宿因	-11.0831
器界	-11.0834
五十五	-11.0834
不虗	-11.0843
無處所	-11.0844
例知	-11.0845
渡	-11.0846
擔	-11.0848
披	-11.0849
熾盛	-11.0849
鬚	-11.085
漸教	-11.0851
無缺	-11.0853
周帀	-11.0855
盈滿	-11.0857
踐	-11.0858
尊貴	-11.086
来	-11.0862
唯就	-11.0865
散滅	-11.0869
普詣	-11.0871
如是我聞	-11.0877
根境	-11.0877
化他	-11.0879
永離一切	-11.0879
阿修羅王	-11.0883
所依處	-11.089
生熟	-11.0896
增上心	-11.0913
譏	-11.0914
於虛空中	-11.0914
不離念	-11.0915
菩薩眾會	-11.0916
智正覺世間	-11.092
以為嚴飾	-11.0928
衣雲	-11.0932
菩薩以此初發心	-11.094
不住生死	-11.0942
滅諦	-11.0943
立理	-11.0947
忍波羅蜜	-11.0948
雖知諸法	-11.0952
求善知識	-11.0953
憂苦	-11.0958
萬像	-11.0963
亦有亦無	-11.0972
吹	-11.0975
醉	-11.0977
不思議解脫	-11.098
工巧	-11.0986
不增不減	-11.0987
娛樂	-11.0989
千歲	-11.0991
念佛門	-11.0992
何者為十	-11.0993
認	-11.0993
知一切眾生心	-11.0995
佛子是為	-11.0998
斷空	-11.1002
妙光明	-11.1003
牛車	-11.1004
於中二先	-11.1006
莫不皆	-11.1008
猶如虗空	-11.1014
進趣	-11.1015
疲倦	-11.1026
有世界海微塵數	-11.1028
色聲	-11.1028
快	-11.103
伺	-11.1049
卵	-11.1051
輝	-11.1051
津	-11.1052
盧舍那佛	-11.1053
因圓果滿	-11.1053
綱	-11.1054
摩竭提國	-11.1059
以諸善根如是迴向	-11.106
齊限	-11.106
離二邊	-11.1073
於諸世間	-11.1074
修普賢行	-11.1079
過去未來	-11.1088
先長行	-11.1089
魯	-11.109
頓證	-11.1094
罪業	-11.1094
要須	-11.1097
生老死	-11.1101
互融	-11.1104
若望	-11.1104
不沒	-11.1106
聖眾	-11.1112
清凉	-11.1113
主山神	-11.1113
仗	-11.1115
滌	-11.1118
下別明	-11.1118
作是念言	-11.1119
交絡	-11.112
●	-11.1123
欲重宣其義	-11.1124
無去來	-11.1129
此比丘尼為說法門	-11.1132
師子王	-11.1132
五十三	-11.1137
餘可知	-11.1139
調生	-11.1142
純一清淨	-11.1143
多即一	-11.1143
▁初揔明	-11.1148
善思惟	-11.1148
雙存	-11.1149
三祇	-11.115
別列	-11.1152
大海水	-11.1152
墮於	-11.1158
準此	-11.1159
流布	-11.1161
降神	-11.1166
文分為二	-11.1168
本際	-11.1172
無障礙智	-11.1175
雪	-11.1176
浩	-11.1179
堪忍	-11.1186
皆悉具足	-11.1189
貪求	-11.1189
五行半經	-11.1193
一行半經	-11.1194
但舉	-11.12
三惡道	-11.1202
初中後	-11.1203
無有疲厭	-11.1203
智光照	-11.1204
據此	-11.1205
雙泯	-11.1205
皆亦如是	-11.1206
無量百千億那由他	-11.121
譬如大海	-11.1214
上味	-11.1217
不可取	-11.1224
相貌	-11.1228
初發心時	-11.1232
別配	-11.1242
飢	-11.1243
薰	-11.1243
前後際	-11.1244
先問後答	-11.1251
瞋恨	-11.1252
初牒前	-11.1256
三僧祇	-11.1258
詩	-11.1258
十地位	-11.126
如須彌山	-11.126
其名曰	-11.1266
文句	-11.127
百歲	-11.1273
不可說不可說劫	-11.1282
讚德	-11.1284
言詞	-11.1288
諸法實相	-11.1291
與諸菩薩	-11.1298
無餘涅槃	-11.1298
譽	-11.1318
維	-11.1318
虧	-11.1321
阿賴耶	-11.1324
如上說	-11.1325
走	-11.1326
大悲為首	-11.1327
辭退	-11.1328
平坦	-11.1328
溢	-11.1328
廣略	-11.1329
渾	-11.1331
從定出	-11.1334
醫王	-11.1335
三世平等	-11.1336
乞食	-11.1339
未滿	-11.1343
如下文	-11.1346
而為眷屬	-11.1347
失壞	-11.1348
非一異	-11.1348
加分	-11.1352
普熏	-11.1354
演義	-11.1358
廣容	-11.1361
而昇	-11.1377
狗	-11.1379
清淨眼	-11.1379
茂	-11.1382
翅	-11.1384
懃	-11.139
初總餘別	-11.1391
無依住	-11.1392
蘭	-11.1392
動靜	-11.1392
眷屬圍遶	-11.1393
肇公	-11.1396
優劣	-11.1398
賜	-11.1401
所共圍繞	-11.1402
故以為名	-11.1416
鏡像	-11.1418
嚴好	-11.1423
樹林	-11.1424
徧一切處	-11.1426
明徹	-11.1442
大名稱	-11.1443
庶	-11.1448
能出生	-11.1452
吉凶	-11.1454
九品	-11.1455
乍	-11.1458
旦	-11.1461
又放光明名	-11.1464
洪	-11.1465
受想行識	-11.1466
主海神	-11.1472
東南方	-11.1474
經部	-11.1475
大般涅槃	-11.1481
何異	-11.1482
靡不周	-11.1483
一切諸魔	-11.1486
各各差別	-11.1494
於中亦二	-11.1526
困	-11.1527
無有一法	-11.1528
十二緣生	-11.1529
樓閣雲	-11.153
常樂我淨	-11.153
三十五	-11.1531
心無厭足	-11.1531
戀德禮辭	-11.1536
維摩經	-11.1538
主藥神	-11.1538
文殊師利童子	-11.154
於此段中	-11.1543
而我云何能知能說彼功德行	-11.1543
主火神	-11.1543
漸次遊行	-11.1543
彈	-11.1546
日照	-11.1548
聞聲	-11.1552
今初分二	-11.1557
從緣生	-11.1558
發大心	-11.1559
妙理	-11.1562
生淨信	-11.1567
諸蘊	-11.1576
初總顯	-11.1583
皆悉現前	-11.1584
如是等事	-11.1585
貪瞋	-11.159
寶座	-11.1593
從緣起	-11.1595
奔	-11.1598
央	-11.1602
無癡亂	-11.1604
芥子	-11.1606
撓	-11.1607
荷	-11.1607
伽陀	-11.161
在母胎中	-11.1616
如是等而為上首	-11.1617
主空神	-11.1618
光焰	-11.1621
饒益一切眾生	-11.1631
有三句	-11.1631
含多	-11.1636
寶帳	-11.1637
▁三結成	-11.1646
樹王	-11.1648
海印三昧	-11.1655
得不退轉	-11.1661
蓋雲	-11.1665
美妙	-11.1665
其間	-11.1666
主林神	-11.1668
瘡	-11.1669
冤	-11.1671
寶洲	-11.1671
後一頌	-11.1673
映蔽	-11.1673
三宗趣者	-11.1674
夜摩天宮	-11.1674
勤修習	-11.1675
孰	-11.1676
其心清淨	-11.1677
六行半經	-11.1681
計我	-11.1682
剌	-11.1683
是故此處最吉祥	-11.1683
主風神	-11.1685
次有佛出	-11.169
為上首	-11.1692
設敬	-11.1698
無限量	-11.1706
東西	-11.1708
聖慧	-11.171
其數無量	-11.1713
有難云	-11.1718
斫	-11.1727
一行經	-11.1731
吞	-11.1739
菴	-11.174
邪道	-11.1741
苗	-11.1741
䟽云	-11.1742
早	-11.1743
婇女	-11.1747
波頭摩	-11.1748
魏	-11.1749
行七步	-11.1749
處非處	-11.1752
含攝	-11.1754
詰	-11.1756
辨才	-11.1758
猛利	-11.1767
?「	-11.1768
自分行	-11.1775
至佛所	-11.178
輕安	-11.1786
十住十行	-11.1788
以顯無盡	-11.1791
諸邪見	-11.1793
光明照耀	-11.1794
疏文有二	-11.1797
上二義	-11.1799
厄	-11.1799
無障無礙	-11.1801
菩提心者如	-11.1808
諸大眾	-11.1808
臍	-11.1812
付	-11.1814
漢	-11.1817
六千比丘	-11.1817
不可沮壞	-11.182
垂下	-11.1824
本源	-11.1826
而覆其上	-11.1829
諸凡夫	-11.1832
第七會	-11.1833
帝網重重	-11.1839
成四句	-11.1846
▁二別明	-11.1853
經中說	-11.1867
若能如是	-11.1868
樓觀	-11.1869
為教體	-11.187
高廣	-11.1871
賴	-11.1872
高勝	-11.1874
爛	-11.1876
謹	-11.1889
逾	-11.1891
錯謬	-11.1892
克	-11.1892
周旋	-11.1893
中十波羅蜜	-11.1896
普為眾生	-11.1898
滅除一切	-11.1903
憂悲	-11.1907
三千世界	-11.1918
心無疲厭	-11.1919
火聚	-11.1922
仁王經	-11.1926
輪圍山	-11.1932
先總標	-11.1934
攞	-11.1934
道路	-11.1939
傾	-11.1951
驅	-11.1955
助道法	-11.1959
楚	-11.1962
初發心菩薩	-11.1962
出興于世	-11.1964
無生無滅	-11.1966
財施	-11.1967
追求	-11.1967
淨居天	-11.1968
是故當知	-11.1969
此童子	-11.1977
恭	-11.1986
魔王	-11.1997
第八識	-11.2007
密意	-11.2023
百千那由他	-11.2026
質直	-11.2026
山頂	-11.2028
紺	-11.2028
麤重	-11.2028
逸	-11.2031
過去未來現在	-11.2032
髓	-11.2032
齋	-11.2034
雨大法雨	-11.2035
閻羅王	-11.2036
雲音	-11.2039
象馬	-11.2041
抄	-11.2043
娑羅	-11.2044
起信云	-11.2046
普攝眾生	-11.2052
周圓	-11.2059
一切善法	-11.2063
論釋云	-11.2065
恭敬尊重	-11.2066
光統	-11.207
周易	-11.2076
准前	-11.2082
寶鈴	-11.2083
防護	-11.2086
初二頌	-11.2086
而未知菩薩云何學菩薩行	-11.2095
壇	-11.21
眉	-11.2102
漸增	-11.2103
促	-11.2107
執取	-11.2108
本迹	-11.2109
有六種	-11.2109
剖	-11.2111
此之謂也	-11.2111
迅	-11.2112
十住初心	-11.2115
嘿	-11.2117
廻	-11.212
無縛無著解脫	-11.2122
廣大如法界	-11.2132
文分三	-11.2135
必須	-11.2138
色無色	-11.2154
戒波羅蜜	-11.2154
墮地獄	-11.2158
輒	-11.2163
滅壞	-11.2163
垢濁	-11.2168
黨	-11.2173
籌量	-11.218
捐	-11.2184
盤	-11.2185
遐	-11.2188
摩醯首羅	-11.2191
海潮	-11.2193
䇿	-11.2194
身口意業	-11.2208
不善業	-11.2216
志求	-11.2228
淨佛國土	-11.2228
諸惡趣	-11.2232
遠公云	-11.2232
該攝	-11.2235
體不異	-11.2238
祐	-11.2244
規	-11.2255
撮	-11.2258
有法喻合	-11.2259
自己	-11.2262
蘂	-11.2263
區	-11.2266
說聽	-11.227
救濟	-11.2273
存亡	-11.2276
俱舍云	-11.2292
所不能壞	-11.2295
禪定解脫	-11.2303
是為諸佛第	-11.2305
干	-11.2308
無過失	-11.2313
第一句	-11.2316
不懈	-11.2321
菩薩摩訶薩住此	-11.2322
略辨	-11.2322
寂靜音	-11.2324
從初地	-11.2326
雜類	-11.2326
井	-11.2327
軌則	-11.233
紅	-11.233
藏師子之座	-11.2333
無有厭足	-11.2334
橋	-11.2336
死此生彼	-11.2338
十方天下人皆使	-11.2343
度脫眾生	-11.2346
西南方	-11.2347
如意寶王	-11.2354
教化調伏一切眾生	-11.2357
墮惡道	-11.2357
諸眷屬	-11.2374
何等為菩薩摩訶薩	-11.2379
第九會	-11.238
分為十	-11.2381
凡愚	-11.2386
於中有四	-11.2389
嚴剎	-11.2397
後一偈	-11.2401
紫	-11.2402
愈	-11.241
摩羅	-11.241
地水火風	-11.2411
壯	-11.2411
余	-11.2413
勉	-11.2413
採	-11.2413
枝葉	-11.2414
奢摩他	-11.2417
上諸義	-11.2422
與其眷屬	-11.2422
水火	-11.2425
疏釋論	-11.2432
周匝	-11.2432
牒釋	-11.2438
神力自在	-11.244
通能所	-11.2442
周徧法界	-11.2443
一剎那中	-11.2452
此四天下	-11.2453
寶焰	-11.2458
▁初釋名	-11.2463
父王	-11.2474
欲令眾生	-11.2475
風吹	-11.2478
大威力	-11.2486
水輪	-11.2489
曲躬	-11.2489
徐	-11.2494
慳貪	-11.2497
耳鼻	-11.2504
徃昔	-11.2509
等法界無量	-11.2523
第三禪	-11.253
不懷	-11.2542
於此南方	-11.2547
無依處	-11.2547
的	-11.2553
先正明	-11.2555
彼疏云	-11.256
括	-11.2563
師子頻申	-11.2565
窮未來際	-11.2566
空無我	-11.2566
大仙	-11.2569
不思議法品	-11.2573
良由	-11.2573
匿	-11.2574
動寂	-11.2574
1	-11.2574
安慰	-11.2575
2	-11.2576
自見身	-11.2579
得大無畏安隱之處	-11.2581
合掌恭敬	-11.2586
施物	-11.2595
四無所畏	-11.2596
利根	-11.2599
所得法門	-11.26
結使	-11.2606
第二七日	-11.261
初三句	-11.2621
勤苦	-11.2628
八地已上	-11.2632
隨文釋義	-11.2633
偷	-11.2634
繼	-11.2639
尅	-11.2645
嵐	-11.2646
大龍王	-11.2648
云何修菩薩道	-11.2648
茶	-11.2648
苟	-11.265
總科	-11.2653
處胎	-11.2653
十方各過	-11.2664
牒前起後	-11.2669
下以經帖	-11.2671
𤼵心	-11.2672
加所為	-11.2678
適悅	-11.2684
妬	-11.2684
香普熏	-11.2688
南北	-11.2688
最極	-11.2693
得清涼	-11.2695
▁初揔標	-11.27
反釋	-11.2711
十八不共	-11.2711
嗟	-11.2712
毒蛇	-11.2716
胸	-11.2717
童蒙	-11.2722
旃檀	-11.2722
商主	-11.2726
謂有問言	-11.2729
刀山	-11.2731
優鉢羅華	-11.2732
若菩薩摩訶薩安住此	-11.2734
佛剎微塵	-11.2738
無障礙法界	-11.2738
障對治	-11.2756
直進	-11.2763
有六行經	-11.2765
頓漸	-11.2766
離有無	-11.2766
隨所應	-11.2769
剎塵數	-11.2774
淫	-11.2785
梵行品	-11.279
療	-11.279
牢獄	-11.2794
宣揚	-11.2802
辛	-11.2802
樣	-11.2804
欣慶	-11.2806
形貌	-11.2809
筭	-11.2811
爾時文殊師利菩薩	-11.2812
諸供養具	-11.2814
無明住地	-11.2815
加被	-11.2817
親證	-11.2822
我當云何	-11.2837
所緣境	-11.2841
不減	-11.2841
得安樂	-11.2847
亦復無	-11.285
須彌山王	-11.2852
拔苦	-11.286
豪	-11.2869
尾	-11.2876
持淨戒	-11.2878
恥	-11.288
可以意得	-11.2882
杜	-11.2883
宛然	-11.2886
右繞	-11.2889
假使有人	-11.2895
一一佛所	-11.2896
主水神	-11.2898
心大歡喜	-11.2909
摧破	-11.2931
伏藏	-11.2936
鬪諍	-11.2944
普於十方	-11.2951
冷	-11.2952
『	-11.2953
刃	-11.2956
技	-11.2957
線	-11.296
晉經云	-11.296
欠	-11.2961
......	-11.2964
邪婬	-11.2965
治地住	-11.2967
求覓	-11.2975
諸善法	-11.2976
云何是諸佛	-11.2979
菩薩摩訶薩住此三昧	-11.2982
盡無有餘	-11.2984
疲厭	-11.2985
末世	-11.2985
華藏莊嚴世界海	-11.2989
海岸	-11.299
無疲倦	-11.299
前段	-11.2991
▁二正顯	-11.3004
雜華	-11.3009
金剛藏菩薩言	-11.3012
無法不	-11.3017
爾許	-11.3018
值佛	-11.3026
刑	-11.303
面門	-11.3035
保	-11.3038
世界成就品	-11.3043
恡	-11.3045
殺害	-11.3045
藥草	-11.305
隨其心樂	-11.3051
主河神	-11.3051
於如來所	-11.3057
審諦	-11.3059
陀那	-11.306
妄情	-11.3061
勸學	-11.3064
開章	-11.3071
道塲	-11.3072
天親	-11.308
真如隨緣	-11.308
疏文有三	-11.308
不廢	-11.3089
兩段	-11.3092
比量	-11.3097
福德藏	-11.3106
阿僧祇品	-11.3108
乃至廣說	-11.3114
兆	-11.3117
滑	-11.3118
而為供養	-11.312
逝	-11.3121
鉤	-11.3121
昇天	-11.3122
無明緣行	-11.3124
醍醐	-11.3126
維摩	-11.3128
併	-11.3129
損減	-11.3131
峰	-11.3131
演暢	-11.3131
陰陽	-11.3131
十住品	-11.3135
正心住	-11.3137
疑網	-11.3144
示成正覺	-11.3146
阿練若	-11.317
普照三世	-11.3175
須彌山頂	-11.3183
大勢力	-11.3183
悶	-11.3202
覓	-11.3205
牖	-11.3206
基	-11.3207
夕	-11.3209
宰	-11.3209
貞	-11.3209
寶手	-11.3213
皷	-11.3213
偈半頌	-11.3215
故為此通	-11.3217
爾時金剛藏菩薩	-11.3218
進退	-11.3222
愚夫	-11.3229
頭目	-11.3237
癡愛	-11.324
得無生忍	-11.325
決斷	-11.3252
世界微塵等	-11.3264
見一一毛孔	-11.3265
無間斷	-11.3272
違順	-11.3275
愛敬	-11.3278
若不爾者	-11.3282
丸	-11.3283
西域記	-11.3286
良醫	-11.329
楞伽經	-11.329
恐繁不	-11.3291
器仗	-11.3294
冀	-11.3295
覽	-11.3296
破闇	-11.3297
三行半經	-11.3297
諭	-11.33
經唐太原方山長者李通玄造論唐	-11.33
敵對	-11.3309
此中最下方	-11.331
涯	-11.3311
諸苦惱	-11.3314
得此三昧	-11.3318
▁二荅	-11.3322
不驚	-11.3325
正念思惟	-11.3339
登地	-11.3352
而得成就	-11.3365
退轉	-11.3368
鳩槃茶王	-11.3371
不惜身命	-11.3374
八十種好	-11.3375
劒	-11.3379
鑽	-11.3381
師子奮迅	-11.3382
福州開元寺沙門志寧釐經合論	-11.3384
餘並可知	-11.3384
莊子	-11.3388
待緣	-11.339
引接	-11.3395
於善知識生	-11.3397
是為菩薩摩訶薩施	-11.3404
圓成實	-11.3409
▁初施行	-11.3419
罪福	-11.342
拏	-11.3448
善男子善女人	-11.3455
周匝圍遶	-11.3456
釋迦牟尼佛	-11.346
研	-11.3463
眼耳鼻舌	-11.3465
調和	-11.3465
宏	-11.3466
喜目觀察	-11.3468
捴	-11.3471
百萬億那由他	-11.3472
聰慧	-11.3474
養育	-11.3475
迦羅	-11.3475
微密	-11.3481
影響	-11.3491
開示演說	-11.3494
隨所應化	-11.3494
聖賢	-11.3496
一切諸佛於一念中	-11.3521
文分為三	-11.3528
黎	-11.353
百千億那由他劫	-11.3537
兔	-11.3543
辰	-11.3544
至心歸命禮	-11.3545
獷	-11.3546
牙齒	-11.3547
大圓鏡智	-11.355
圭峯	-11.3552
殷	-11.3553
麁細	-11.3557
嘉	-11.3559
無碍	-11.3559
淨修梵行	-11.3564
始末	-11.3565
惡道苦	-11.3565
集諦	-11.3567
本業經	-11.3569
牒舉	-11.3571
摩尼王雲	-11.3581
充遍	-11.359
世界成壞	-11.3592
不怯弱	-11.3613
示現受生	-11.3619
小千	-11.3624
二萬一千	-11.3624
德藏菩薩	-11.3625
會三歸一	-11.3625
持業釋	-11.3627
聳	-11.3627
健	-11.3628
纓	-11.3632
肘	-11.3633
五體投地	-11.3635
舍宅	-11.3635
六種震動	-11.3638
十善業道	-11.3639
懺除	-11.364
從三昧起	-11.3642
出過諸天	-11.3643
世界種中諸佛道場一切海眾	-11.3643
南西北方四維上下亦復如是	-11.3643
佛興世	-11.3643
承佛威神	-11.3649
寂用無礙	-11.3653
□□□	-11.3655
隱覆	-11.3657
變易生死	-11.3658
不動搖	-11.3659
留惑	-11.3659
於中普現	-11.3664
深淺	-11.3668
大梵天王	-11.3669
一偈半	-11.3671
華葉	-11.3683
憂喜	-11.3705
依教趣求	-11.371
洛叉	-11.3711
鞞	-11.3712
族姓子	-11.3712
能摧	-11.3713
體相用	-11.3717
伐	-11.3717
貢	-11.3717
堅牢	-11.3717
隋	-11.3718
世出世間	-11.372
解脫長者	-11.372
屋宅	-11.3722
頂禮佛足	-11.3723
栴檀香	-11.3726
湯藥	-11.3727
君子	-11.3727
狹劣	-11.3728
周帀圍繞	-11.3729
三十七品	-11.3751
憙	-11.3756
悉檀	-11.3759
幻術	-11.3766
號之為	-11.3766
漂溺	-11.3793
鎧	-11.3801
勤行精進	-11.3803
稼	-11.3804
竹	-11.3804
煙	-11.3805
朱	-11.3808
二三四	-11.3808
稱讚授法	-11.3808
無量無數劫	-11.381
沙彌	-11.3811
簡擇	-11.3811
彈指	-11.3811
拒	-11.3812
動搖	-11.3817
從定起	-11.3818
十忍品	-11.3818
普觀十方而說頌言	-11.3819
。」《	-11.3824
無能測	-11.3826
伯	-11.3826
分別俱生	-11.384
尋思	-11.3843
車乘	-11.385
自下第二	-11.3858
一百二十	-11.3876
字母	-11.3881
燃	-11.3887
衢	-11.3892
蒲	-11.3892
塵沙	-11.3895
詺	-11.3896
紛	-11.3897
闥	-11.3897
躍	-11.3901
是為菩薩摩訶薩布施	-11.3905
顯其相	-11.3909
作是思惟	-11.3913
光音天	-11.393
盡虗空界	-11.3933
第二段	-11.3945
起信論云	-11.3945
有劫名	-11.3948
頓悟	-11.3962
香味	-11.3968
無罣礙	-11.3972
玻瓈	-11.3976
侍衛	-11.3983
周徧十方	-11.3984
儼	-11.3986
阿鼻地獄	-11.3986
史	-11.3989
開章別釋	-11.3993
十八界	-11.3995
則得一切諸佛無上	-11.4
孟	-11.4
如上所說	-11.4002
十千億	-11.4018
惟願	-11.402
十行位	-11.4022
猶如大海	-11.4031
龍神	-11.4039
極微塵數	-11.4049
篤	-11.4056
悅豫	-11.406
即說頌言	-11.4072
瞬	-11.4072
開闡	-11.4073
冬	-11.4073
略有四	-11.4076
死屍	-11.4077
一生補處	-11.4078
寥	-11.4078
初發心時便成正覺	-11.4079
垂布	-11.4081
我聞聖者善能誘誨	-11.4083
補特伽羅	-11.4088
給施	-11.4092
字時入般若波羅蜜門名	-11.4096
為戒體	-11.4101
滅盡定	-11.4104
初一句總	-11.4116
念佛三昧	-11.4118
永絕	-11.4119
天冠	-11.4125
開導	-11.413
淨行品	-11.4148
綺語	-11.4162
羅睺	-11.4163
千二百	-11.4164
嬰	-11.4166
洽	-11.4167
亦同此說	-11.4168
白言聖者	-11.417
十二部經	-11.417
李	-11.4172
汝詣彼問菩薩云何學菩薩行修菩薩道	-11.4177
譬如虗空	-11.4183
善男子我唯知此	-11.4191
凝然	-11.4196
梵天王	-11.4212
露地	-11.4213
師子幢	-11.4218
業果報	-11.4247
槃	-11.425
衍	-11.4257
希奇	-11.426
摩竭	-11.4261
二列名結數	-11.4262
𢌞向	-11.4262
果行離	-11.4263
籍	-11.4264
生貴住	-11.4265
遊步	-11.4268
我巳先發阿耨多羅三藐三菩提心	-11.4268
<	-11.427
g	-11.427
m	-11.427
i	-11.427
行斯道	-11.4279
穢土	-11.4298
動亂	-11.43
輕慢	-11.4326
音聲為體	-11.433
結彈	-11.4331
旃	-11.4339
先牒前	-11.434
層級	-11.4344
倚	-11.4345
所以然者	-11.4349
園苑	-11.435
江河	-11.4353
漫	-11.4353
虧盈	-11.4354
祥	-11.4357
泣	-11.4357
十方諸國土	-11.4359
陿	-11.4362
利鈍	-11.4363
出一切佛剎微塵數	-11.4364
教誡	-11.4367
等者等取	-11.4377
他化天	-11.4383
光明遍照	-11.4386
當為汝說	-11.4396
還源	-11.4396
普觀十方	-11.4397
兜率天王	-11.4409
牆	-11.4428
賓	-11.4438
鐸	-11.444
料簡	-11.4442
蘊界處	-11.4446
激	-11.4448
無厭倦	-11.4449
不由他教	-11.445
鑑	-11.4451
於虗空中	-11.4454
資財	-11.447
普見十方	-11.4486
准思	-11.4496
薩婆多	-11.4511
擁	-11.4526
囊	-11.4529
出現於世	-11.4534
大光王	-11.4534
敏	-11.4536
軸	-11.4539
對現色身	-11.4542
貫穿	-11.4542
承佛力	-11.4542
能說彼功德行	-11.4542
三攝德圓滿	-11.4542
送	-11.4543
巴	-11.4544
試	-11.4545
慙	-11.4546
拜	-11.4613
耽	-11.4624
低	-11.4626
駕	-11.4629
頸	-11.4629
丘	-11.4635
製	-11.464
夭	-11.4643
詔	-11.4651
縷	-11.4725
螺	-11.4725
饑	-11.473
羞	-11.4732
窺	-11.4736
赫	-11.4737
嚩	-11.4743
劍	-11.4803
省	-11.4821
綵	-11.4825
悞	-11.4836
隘	-11.4839
泰	-11.4848
射	-11.4911
惓	-11.4912
糞	-11.4914
贍	-11.4926
役	-11.493
院	-11.4935
額	-11.5017
濡	-11.5021
庫	-11.5021
炤	-11.5028
範	-11.5033
囚	-11.5116
罔	-11.5117
弓	-11.5117
奈	-11.5117
軀	-11.5122
矯	-11.5124
鷲	-11.522
甞	-11.5222
叢	-11.5225
曩	-11.5226
噐	-11.5241
鬪	-11.5304
鎖	-11.5315
奢	-11.5317
級	-11.533
鬱	-11.5331
佗	-11.5337
匠	-11.5422
蜂	-11.5425
吝	-11.5426
灾	-11.5427
歇	-11.5437
奚	-11.5515
=	-11.5523
輸	-11.5523
嶮	-11.5527
湯	-11.5527
景	-11.5536
僕	-11.5539
司	-11.554
忠	-11.5626
貯	-11.5631
寐	-11.5635
占	-11.5639
迭	-11.5641
班	-11.5729
寢	-11.5731
藍	-11.5736
皎	-11.5738
瘦	-11.5739
狼	-11.5743
躭	-11.5745
鳩	-11.5746
團	-11.5747
汙	-11.5822
價	-11.5846
貝	-11.5849
灑	-11.585
搏	-11.585
泛	-11.5852
沃	-11.5856
蹔	-11.5862
脣	-11.5953
擾	-11.5953
爭	-11.5953
撫	-11.5956
曼	-11.5959
賣	-11.596
政	-11.596
煥	-11.5964
祗	-11.5985
牟	-11.6054
怡	-11.6067
翼	-11.6073
吽	-11.6082
唵	-11.6083
蠲	-11.6168
艮	-11.617
鹹	-11.6171
爽	-11.6178
席	-11.6183
筏	-11.6185
竊	-11.6186
盖	-11.6187
卍	-11.6187
冲	-11.6202
叫	-11.6269
丹	-11.6292
涕	-11.6293
闢	-11.6296
掩	-11.6298
戮	-11.6388
峻	-11.6395
崖	-11.6397
坤	-11.6406
覈	-11.6411
肝	-11.6411
腸	-11.6511
餓	-11.6511
廁	-11.6513
罰	-11.6515
魅	-11.6515
跪	-11.6517
霧	-11.6522
丑	-11.6523
䭾	-11.6529
娛	-11.6612
捉	-11.6629
殄	-11.6638
縣	-11.6641
檢	-11.6646
轍	-11.6651
趺	-11.6676
宴	-11.6732
嘗	-11.6749
怕	-11.6752
肆	-11.6752
渠	-11.6755
緩	-11.6756
封	-11.6763
摽	-11.6763
府	-11.6775
荼	-11.6858
獵	-11.6863
評	-11.6868
坎	-11.687
瑟	-11.6871
偶	-11.6872
煖	-11.6876
飄	-11.6882
鎮	-11.6885
拯	-11.6887
决	-11.6898
陁	-11.6901
揵	-11.6982
氷	-11.6986
屠	-11.6988
慼	-11.6989
耎	-11.6992
籠	-11.6994
淚	-11.6996
緒	-11.6997
膚	-11.6998
漩	-11.7003
鬬	-11.7004
鄰	-11.7007
喚	-11.7109
挍	-11.711
俯	-11.7111
飜	-11.7116
玩	-11.7116
捧	-11.7123
8	-11.7125
歟	-11.7129
潮	-11.7215
沸	-11.722
斬	-11.7227
韋	-11.7232
米	-11.7233
遽	-11.7235
沼	-11.7243
着	-11.7249
編	-11.7249
3	-11.7251
穴	-11.7354
燋	-11.7356
雞	-11.7361
嬈	-11.7361
晨	-11.7364
蚊	-11.7364
暮	-11.7364
撿	-11.7367
項	-11.7367
訊	-11.7368
芳	-11.7369
祭	-11.7369
穩	-11.7369
郎	-11.737
莎	-11.7371
填	-11.7372
森	-11.7372
旛	-11.7474
狐	-11.7479
筋	-11.748
裸	-11.748
涼	-11.7482
惶	-11.7484
馱	-11.7484
片	-11.7485
整	-11.7486
妃	-11.7487
晦	-11.7491
兜	-11.7492
垣	-11.7495
諠	-11.7495
凶	-11.7496
肥	-11.7499
敕	-11.7504
随	-11.7504
渧	-11.761
棲	-11.7616
艱	-11.7621
旁	-11.7622
寸	-11.7622
豁	-11.7623
廟	-11.7624
欽	-11.7624
跏	-11.7626
肺	-11.7627
躬	-11.7628
逃	-11.7632
玅	-11.7643
陜	-11.7723
勅	-11.7737
呈	-11.7738
謀	-11.7743
鋒	-11.7749
𦟛	-11.775
詢	-11.7751
幼	-11.7751
稽	-11.7752
墻	-11.7756
飽	-11.7871
坦	-11.7872
恕	-11.7876
棃	-11.7878
陋	-11.7878
刻	-11.7884
婢	-11.7885
繕	-11.7885
添	-11.7888
輭	-11.7889
濤	-11.7889
肇	-11.8009
礫	-11.8009
憒	-11.801
庭	-11.8012
選	-11.8014
銘	-11.8019
考	-11.802
洋	-11.8022
奘	-11.8031
啼	-11.8139
詠	-11.8141
饒	-11.8145
匱	-11.8146
劉	-11.8146
匪	-11.8147
泡	-11.8148
庸	-11.8151
萌	-11.8152
腦	-11.8154
荒	-11.8264
殃	-11.8265
剝	-11.8274
奮	-11.8285
忌	-11.8288
模	-11.8289
嶺	-11.8291
啞	-11.8293
涅	-11.8294
寡	-11.8298
爰	-11.8301
兮	-11.8305
豫	-11.8408
剃	-11.8414
屋	-11.842
麥	-11.842
阜	-11.842
顛	-11.8427
嶽	-11.8429
楊	-11.843
矚	-11.843
耐	-11.8432
陂	-11.8433
訪	-11.8433
祀	-11.8437
犢	-11.8442
姟	-11.8527
攀	-11.8528
欝	-11.8544
癈	-11.855
掃	-11.8556
革	-11.8559
魂	-11.8563
僻	-11.8563
霑	-11.8564
恬	-11.8565
藤	-11.8565
澍	-11.8566
撥	-11.8567
犍	-11.8568
輞	-11.8571
腎	-11.8573
0	-11.8576
農	-11.8577
繪	-11.8699
鶖	-11.8702
暖	-11.8705
朋	-11.8707
徤	-11.8708
岳	-11.871
匹	-11.8712
韻	-11.8715
暨	-11.8717
│	-11.8718
鑛	-11.8719
削	-11.8731
銖	-11.8839
暇	-11.885
澓	-11.8854
讎	-11.8855
蹈	-11.8856
渚	-11.8859
鹽	-11.8859
荊	-11.8865
綴	-11.8991
眷	-11.9
耕	-11.9003
栗	-11.9004
瓔	-11.9005
郡	-11.9008
勃	-11.9013
囑	-11.9013
襍	-11.9017
贊	-11.9024
膿	-11.9129
哭	-11.9139
􂗲	-11.9139
鞭	-11.9143
賈	-11.9146
惰	-11.9149
昨	-11.9149
俟	-11.915
喧	-11.9154
逕	-11.9155
薦	-11.9157
丁	-11.9157
7	-11.9159
邃	-11.9159
斡	-11.9161
􂘢	-11.9162
芥	-11.9166
𣈆	-11.9169
嚕	-11.9222
芻	-11.9288
粗	-11.9291
巽	-11.9294
咽	-11.9296
巡	-11.9297
吠	-11.9297
胃	-11.9298
擎	-11.93
檻	-11.9302
轂	-11.9302
筌	-11.9304
熈	-11.9305
頑	-11.9305
閻	-11.9305
扇	-11.9306
紀	-11.9311
搜	-11.9311
叡	-11.9313
康	-11.9319
𡨋	-11.9329
惛	-11.9442
錦	-11.9452
杵	-11.9457
揆	-11.9458
綿	-11.9462
哲	-11.9468
溉	-11.9611
戚	-11.9612
寅	-11.9613
豆	-11.9614
禰	-11.9619
笈	-11.9619
掘	-11.9621
探	-11.9626
秤	-11.9753
暉	-11.9754
痴	-11.9762
宛	-11.9762
釧	-11.9765
溫	-11.9768
產	-11.9768
迥	-11.9775
蔔	-11.9778
派	-11.9779
閱	-11.9786
▲	-11.9813
焦	-11.9915
枉	-11.9925
屏	-11.9926
稻	-11.9926
佐	-11.9927
漉	-11.9931
嗅	-11.9931
午	-11.9931
祈	-11.9932
膩	-11.9932
肅	-11.9933
炭	-11.9933
拳	-11.9936
托	-11.9939
冑	-11.994
胷	-11.9945
踈	-11.9948
􂘡	-11.9949
樞	-11.9949
誕	-12.0068
憐	-12.0091
砂	-12.0094
鶴	-12.0101
輙	-12.0122
縮	-12.025
抵	-12.0257
縵	-12.0257
坊	-12.0257
蹤	-12.0259
註	-12.0259
棘	-12.026
熙	-12.0261
秀	-12.0261
矛	-12.0265
訛	-12.0269
針	-12.0269
晚	-12.027
貨	-12.0275
孕	-12.0278
腰	-12.0418
腨	-12.0426
苾	-12.0426
茫	-12.043
稚	-12.0437
隙	-12.0438
壅	-12.0441
圭	-12.0444
𠹌	-12.0446
9	-12.0446
𦂶	-12.0448
蘆	-12.0449
祿	-12.045
玷	-12.0455
窠	-12.0598
澡	-12.0599
諱	-12.06
替	-12.0603
溝	-12.0603
鷄	-12.0605
漿	-12.0605
虔	-12.0607
鎔	-12.0607
曀	-12.0609
瞽	-12.0612
妍	-12.0613
莂	-12.0614
跛	-12.0615
馥	-12.0616
􂗇	-12.0617
沫	-12.077
炙	-12.0771
澁	-12.0779
予	-12.078
蝶	-12.0782
較	-12.0785
躁	-12.079
疊	-12.0902
瑙	-12.0949
泊	-12.0956
仞	-12.0961
挺	-12.0961
壑	-12.0963
複	-12.0966
倉	-12.0968
粮	-12.0977
愜	-12.0977
誥	-12.1005
諷	-12.1129
窓	-12.1131
楞	-12.1132
緊	-12.1138
鵝	-12.114
鈎	-12.114
杌	-12.1142
摸	-12.1143
霜	-12.1146
叩	-12.1146
呰	-12.1146
俾	-12.1147
陶	-12.1148
鳳	-12.115
厥	-12.1151
羽	-12.1153
睺	-12.1307
牢	-12.1309
煞	-12.1315
吸	-12.1318
斗	-12.1323
暑	-12.1323
吳	-12.1324
膏	-12.1326
沮	-12.1327
纂	-12.134
哩	-12.1385
驢	-12.1491
戾	-12.1506
朕	-12.1507
陷	-12.1511
虫	-12.1511
捷	-12.1514
琴	-12.1517
扣	-12.1518
盟	-12.1518
峙	-12.152
函	-12.1521
汗	-12.1522
瑜	-12.1522
社	-12.1525
鎻	-12.1529
季	-12.1534
碍	-12.1665
竺	-12.1693
湍	-12.1704
陛	-12.1706
儻	-12.1709
孩	-12.171
揮	-12.1711
醒	-12.1712
劑	-12.1714
侯	-12.1718
劇	-12.1721
亭	-12.1723
庠	-12.1889
妹	-12.189
朽	-12.1895
弄	-12.1895
牧	-12.1897
絲	-12.19
卯	-12.1901
洄	-12.1902
齅	-12.1903
祠	-12.1903
㝹	-12.1905
㗚	-12.1907
嚬	-12.1907
湧	-12.1909
粒	-12.1909
脆	-12.1913
兄	-12.1915
桚	-12.1915
勾	-12.1915
汪	-12.1917
哆	-12.1925
』	-12.1964
􂗷	-12.2076
犁	-12.2093
賞	-12.2094
喉	-12.2096
肢	-12.2096
翫	-12.2096
頰	-12.2099
屍	-12.2101
竿	-12.2101
陟	-12.2103
鄉	-12.2105
葛	-12.2107
屢	-12.2109
臻	-12.2109
候	-12.211
松	-12.2111
犬	-12.2112
格	-12.2115
仲	-12.2119
頼	-12.2132
疵	-12.2293
攻	-12.2297
溪	-12.23
雀	-12.2301
亘	-12.2302
殆	-12.2305
儔	-12.2307
跟	-12.2307
帛	-12.2309
珊	-12.2312
襲	-12.232
踴	-12.2323
薜	-12.2476
殖	-12.2496
㵎	-12.2506
胝	-12.2508
閙	-12.2509
枷	-12.2509
摶	-12.251
籌	-12.2511
蠱	-12.2513
擲	-12.2513
詶	-12.2513
凌	-12.2514
憚	-12.2516
菓	-12.2519
鄭	-12.252
卜	-12.2523
庚	-12.2523
閡	-12.2524
輟	-12.2529
卿	-12.2533
􂗆	-12.2534
它	-12.2548
黠	-12.2709
窣	-12.2712
疫	-12.2713
耗	-12.2716
揭	-12.2718
程	-12.2719
篋	-12.2727
嚼	-12.2727
+	-12.2727
軒	-12.2728
買	-12.2729
潭	-12.2731
僉	-12.2732
銜	-12.2733
龕	-12.2733
曹	-12.2734
璫	-12.2734
卓	-12.2738
矴	-12.2739
諧	-12.2739
㲉	-12.2739
絃	-12.274
恠	-12.274
癹	-12.2741
亮	-12.2743
刪	-12.2743
缾	-12.2743
操	-12.2744
謟	-12.2747
妓	-12.2911
𤦲	-12.2931
脈	-12.2932
爐	-12.2937
竅	-12.2939
姝	-12.294
煎	-12.2942
讖	-12.2944
板	-12.2944
迮	-12.2945
罣	-12.2946
矜	-12.2948
汲	-12.2948
珞	-12.2952
酉	-12.2952
浣	-12.2953
鱗	-12.2957
靣	-12.2958
]	-12.2958
禱	-12.2967
晃	-12.3158
佞	-12.3161
堵	-12.3162
串	-12.3162
捕	-12.3165
懇	-12.3166
枳	-12.3167
膜	-12.3167
搆	-12.3168
瞖	-12.317
饉	-12.3171
懶	-12.3172
沐	-12.3172
翔	-12.3174
乙	-12.3176
鬻	-12.3176
裕	-12.3177
骸	-12.3179
薝	-12.318
擯	-12.318
釐	-12.3371
材	-12.3372
旬	-12.3376
諫	-12.3385
械	-12.3387
羈	-12.3388
擢	-12.3389
挑	-12.3392
岐	-12.3393
塊	-12.3393
寔	-12.3396
庾	-12.3398
昌	-12.3398
賀	-12.3399
噬	-12.34
嗣	-12.3407
冰	-12.3413
屎	-12.3601
胞	-12.3609
刧	-12.3609
媚	-12.3612
蟻	-12.3615
債	-12.362
鑊	-12.362
𠬧	-12.3623
桓	-12.3623
軛	-12.3626
透	-12.3629
馭	-12.363
堞	-12.363
稠	-12.3631
淮	-12.3631
帙	-12.3634
詎	-12.3635
麟	-12.3636
攸	-12.364
輿	-12.3642
杳	-12.3643
迢	-12.3646
儉	-12.3847
頒	-12.3851
費	-12.3861
涸	-12.3862
烈	-12.3864
裹	-12.3864
罄	-12.3864
耻	-12.3866
瀾	-12.3867
粖	-12.3868
詖	-12.3868
蒭	-12.3877
咨	-12.3882
憤	-12.3887
軻	-12.3893
顆	-12.3894
唾	-12.4099
蔑	-12.4101
尠	-12.4103
餅	-12.4103
烟	-12.4104
阻	-12.4107
鄔	-12.4108
脂	-12.4117
脾	-12.4118
鑰	-12.4122
熖	-12.4131
歘	-12.4137
枕	-12.4339
唼	-12.4346
賦	-12.4348
疆	-12.4355
嚮	-12.4356
哮	-12.4356
傘	-12.436
踞	-12.4361
汁	-12.4362
媸	-12.4363
蠢	-12.4363
溥	-12.4365
漚	-12.4365
膽	-12.4369
4	-12.4369
曆	-12.4372
珂	-12.4372
郭	-12.4373
墯	-12.4387
肯	-12.4435
塹	-12.4596
刊	-12.4597
劬	-12.4611
絡	-12.4611
巷	-12.4611
粉	-12.4612
衡	-12.4612
榦	-12.4613
褥	-12.4615
罽	-12.4617
壍	-12.4619
梯	-12.4622
榭	-12.4623
鴻	-12.4626
萃	-12.4626
䏶	-12.4857
醯	-12.486
戊	-12.4862
煑	-12.4867
陣	-12.4871
脊	-12.4873
叔	-12.4877
崩	-12.4878
沾	-12.4878
瀑	-12.4878
藪	-12.4881
挾	-12.4884
袤	-12.4885
駛	-12.489
㝎	-12.4892
酌	-12.4892
謁	-12.4892
溟	-12.4895
呤	-12.4895
脉	-12.4902
妾	-12.4913
衝	-12.5121
𠎝	-12.5123
謎	-12.5127
鼠	-12.5135
酸	-12.5138
誅	-12.5139
糜	-12.5145
驕	-12.5146
舞	-12.5147
淡	-12.5148
監	-12.5151
鑄	-12.5152
讓	-12.5154
罕	-12.5155
湖	-12.5156
腭	-12.5157
澹	-12.5158
沌	-12.5159
閏	-12.5165
秪	-12.5173
亨	-12.5176
膳	-12.5409
慾	-12.5415
剪	-12.5416
訟	-12.5417
鑿	-12.5417
鴿	-12.5417
盆	-12.542
猪	-12.542
氳	-12.542
滓	-12.5422
棟	-12.5423
翹	-12.5425
摘	-12.5426
齶	-12.5427
皈	-12.5428
噓	-12.5429
禦	-12.5434
楯	-12.5436
夾	-12.5441
秘	-12.5441
捍	-12.5443
舛	-12.545
這	-12.568
庇	-12.5689
勳	-12.5693
完	-12.5693
壤	-12.5695
苞	-12.5697
吏	-12.57
姿	-12.5703
突	-12.5704
邦	-12.5704
沓	-12.5705
騎	-12.5707
悴	-12.5711
騁	-12.5712
捶	-12.5714
飡	-12.5714
廛	-12.5714
棒	-12.5715
糓	-12.5716
孚	-12.5722
楷	-12.5724
抗	-12.5724
璽	-12.5725
踵	-12.5725
粳	-12.5727
冊	-12.5728
呂	-12.5728
崛	-12.5732
讒	-12.5996
眇	-12.5997
螢	-12.5997
渟	-12.5997
咄	-12.5998
捫	-12.5998
享	-12.5998
离	-12.5998
燥	-12.6001
臘	-12.6003
芭	-12.6005
砌	-12.6005
蕉	-12.6006
闊	-12.601
濯	-12.6012
咀	-12.6017
墠	-12.6021
築	-12.6025
愽	-12.6034
慣	-12.6176
燿	-12.6268
㓨	-12.6282
塚	-12.6285
姊	-12.6293
壓	-12.6298
灼	-12.6301
頞	-12.6304
緯	-12.6304
虵	-12.6309
緻	-12.6311
戌	-12.6311
迄	-12.6311
抹	-12.6313
朔	-12.6313
裔	-12.6313
紂	-12.6315
錍	-12.6317
緇	-12.6318
穆	-12.6319
禾	-12.6321
俄	-12.6322
亥	-12.6322
5	-12.6323
戍	-12.6323
壺	-12.6326
􂗶	-12.6609
箱	-12.661
件	-12.6613
胤	-12.6613
愆	-12.6614
嬉	-12.6614
氛	-12.6615
饌	-12.6618
庵	-12.6619
苫	-12.6622
駭	-12.6623
揩	-12.6624
㭊	-12.6624
祝	-12.6627
株	-12.6627
彊	-12.6629
錫	-12.6629
壬	-12.6632
堯	-12.6633
韓	-12.6634
滔	-12.6634
介	-12.6639
竄	-12.6641
􂗳	-12.6924
秖	-12.6933
雌	-12.6934
鬧	-12.6935
呻	-12.6936
沖	-12.6938
槁	-12.6938
澀	-12.694
掠	-12.6941
瞙	-12.6942
觴	-12.6944
辟	-12.6944
猴	-12.6944
効	-12.6946
翦	-12.6946
燸	-12.6947
瓜	-12.6947
綜	-12.6948
睫	-12.6948
菡	-12.6949
窄	-12.695
秉	-12.695
弈	-12.6956
鐘	-12.6956
觧	-12.6958
跳	-12.6958
綸	-12.6959
戈	-12.6959
冶	-12.6962
痒	-12.7238
卉	-12.726
祚	-12.7263
迤	-12.7265
魄	-12.7268
裳	-12.7269
馨	-12.7269
蝦	-12.727
霞	-12.7271
斤	-12.7272
髀	-12.7273
邀	-12.7274
斧	-12.7274
翁	-12.7275
逗	-12.7275
拙	-12.7276
甄	-12.7276
磧	-12.7277
忙	-12.728
睛	-12.728
慨	-12.7281
昆	-12.7282
盥	-12.7283
柳	-12.7286
憫	-12.7288
6	-12.7289
措	-12.7291
顗	-12.7292
廬	-12.7293
輦	-12.73
尿	-12.759
椎	-12.759
喘	-12.7594
諛	-12.7601
凍	-12.7602
吟	-12.7607
悠	-12.7613
雹	-12.7613
拱	-12.7614
柰	-12.7615
誣	-12.7616
岌	-12.7616
聊	-12.7618
晴	-12.7619
芸	-12.762
雉	-12.7621
粟	-12.7622
錠	-12.7622
驃	-12.7622
醎	-12.7625
昂	-12.7625
坌	-12.7626
控	-12.7626
趙	-12.7626
璧	-12.7626
戟	-12.7628
蓊	-12.7629
蠟	-12.7631
嗚	-12.7632
裴	-12.7635
恢	-12.7636
翰	-12.764
媒	-12.7644
燕	-12.765
嵗	-12.7651
蒼	-12.7653
埵	-12.7915
瘂	-12.7965
饍	-12.7967
把	-12.7967
痰	-12.7972
虬	-12.7972
赦	-12.7974
兌	-12.7975
傲	-12.7975
佩	-12.7976
埋	-12.798
娜	-12.7982
舜	-12.7982
押	-12.7982
償	-12.7982
淹	-12.7982
呌	-12.7983
珀	-12.7984
讐	-12.7984
鞅	-12.7984
旱	-12.7985
滄	-12.7986
隻	-12.7986
閇	-12.7988
栖	-12.7989
旅	-12.799
罥	-12.799
瞥	-12.7991
泗	-12.7993
週	-12.7995
酧	-12.8003
虐	-12.8328
呾	-12.8332
夙	-12.8334
姦	-12.8338
吻	-12.8339
唎	-12.8343
殑	-12.8345
滂	-12.8346
矢	-12.8349
脹	-12.8351
硬	-12.8351
縈	-12.8351
晏	-12.8353
腋	-12.8355
蹙	-12.8356
鍾	-12.8358
挹	-12.8358
溼	-12.8359
礬	-12.8361
c	-12.8363
褒	-12.8364
洫	-12.8364
蚋	-12.8366
爻	-12.8374
亢	-12.8698
架	-12.8717
鑪	-12.8718
邐	-12.8718
纜	-12.872
盾	-12.872
駄	-12.8721
嬾	-12.8723
繇	-12.8724
牕	-12.8727
蟒	-12.8728
釘	-12.8729
宥	-12.8729
几	-12.8729
猷	-12.8731
街	-12.8731
慇	-12.8732
觜	-12.8732
舡	-12.8733
挂	-12.8733
罷	-12.8734
弼	-12.8734
允	-12.8735
係	-12.8735
遜	-12.8735
料	-12.8735
毋	-12.8736
蓐	-12.8736
餐	-12.8738
慠	-12.8739
䐡	-12.874
偃	-12.8743
洎	-12.8744
燦	-12.8745
鴦	-12.8746
剩	-12.8747
徙	-12.8749
嫁	-12.8771
虻	-12.9115
埃	-12.9118
嗜	-12.9119
鏁	-12.9121
藕	-12.9124
蟄	-12.9125
鬢	-12.9128
股	-12.913
柯	-12.9132
萏	-12.9133
轡	-12.9134
瑿	-12.9135
彭	-12.9135
矩	-12.9135
趨	-12.9136
齎	-12.9139
懲	-12.914
徽	-12.914
臰	-12.914
杲	-12.9144
甫	-12.9145
酵	-12.9146
f	-12.9148
噵	-12.9148
崔	-12.9149
怱	-12.915
潦	-12.915
萎	-12.9151
勑	-12.9156
鍵	-12.9156
譚	-12.9157
詈	-12.9528
齗	-12.9529
茅	-12.9529
箕	-12.9539
瀉	-12.9544
話	-12.9545
恪	-12.9546
尖	-12.9546
蕋	-12.9547
肌	-12.9547
梟	-12.9549
蹄	-12.9549
斟	-12.955
糧	-12.9551
邁	-12.9552
訾	-12.9552
桃	-12.9553
漱	-12.9554
零	-12.956
桀	-12.9561
豹	-12.9561
禹	-12.9561
邇	-12.9561
緬	-12.9562
艸	-12.9564
蕭	-12.9564
𣧩	-12.9566
嗢	-12.9567
葱	-12.9568
穡	-12.9568
羙	-12.9572
辜	-12.9949
豔	-12.9953
縫	-12.9962
阬	-12.9965
釣	-12.9966
蓬	-12.9969
嬪	-12.9969
巢	-12.9971
踝	-12.9971
踏	-12.9974
癩	-12.9975
藻	-12.9975
靺	-12.9975
扈	-12.9976
笞	-12.9978
姑	-12.998
欻	-12.9981
楔	-12.9981
拾	-12.9981
甜	-12.9981
叨	-12.9982
軄	-12.9983
狎	-12.9984
螫	-12.9984
呿	-12.9985
抉	-12.9986
廉	-12.9988
帥	-12.9991
𦘕	-12.9992
媿	-12.9992
驟	-12.9994
郁	-12.9994
奄	-12.9997
贖	-12.9997
脅	-12.9998
𨷲	-12.9999
煗	-12.9999
属	-12.9999
s	-12.9999
膠	-13
貶	-13.0004
聦	-13.0006
涓	-13.0007
𡚶	-13.0014
羼	-13.0019
􂔗	-13.0061
誼	-13.0411
笛	-13.0424
簫	-13.0426
譣	-13.0427
𨷂	-13.0428
惻	-13.0428
台	-13.0429
疣	-13.0431
杻	-13.0432
隷	-13.0434
葦	-13.0436
栴	-13.0437
員	-13.0438
甕	-13.0438
餌	-13.0439
貿	-13.0439
殞	-13.0439
携	-13.0439
佚	-13.044
紆	-13.0441
堆	-13.0442
恰	-13.0442
懊	-13.0442
俊	-13.0442
丙	-13.0443
稷	-13.0444
懌	-13.0444
弋	-13.0445
壘	-13.0445
鴈	-13.0446
胄	-13.0446
妖	-13.0448
亞	-13.0448
窻	-13.0448
絹	-13.0451
倨	-13.0451
澆	-13.0453
冝	-13.0456
艾	-13.0457
渺	-13.0457
嶷	-13.0457
厲	-13.0458
琰	-13.0464
僊	-13.0468
􂐘	-13.048
坡	-13.0867
橛	-13.0887
態	-13.0888
淑	-13.089
厨	-13.0895
換	-13.0897
擅	-13.0897
宵	-13.0898
個	-13.0901
絞	-13.0901
襵	-13.0902
袪	-13.0908
抽	-13.0909
膊	-13.0909
霈	-13.091
蜀	-13.0911
液	-13.0912
拭	-13.0912
鷹	-13.0913
茵	-13.0914
禎	-13.0914
忒	-13.0916
墳	-13.0916
騃	-13.0916
虹	-13.0916
斂	-13.0917
佇	-13.0918
欄	-13.0918
綰	-13.0919
箜	-13.092
篌	-13.092
𤏙	-13.092
鋸	-13.092
撻	-13.092
討	-13.0921
冉	-13.0921
獎	-13.0922
鉗	-13.0922
裁	-13.0923
屆	-13.0924
卐	-13.0924
藐	-13.0926
舶	-13.0926
島	-13.0926
栽	-13.0927
催	-13.0927
僅	-13.0928
噫	-13.093
棗	-13.093
兗	-13.0934
𠮉	-13.0937
堄	-13.0938
訴	-13.0939
埤	-13.094
凋	-13.0941
廼	-13.0943
𠋣	-13.0943
刖	-13.1376
詭	-13.1383
洹	-13.1387
腐	-13.14
妒	-13.1402
蟣	-13.1404
獅	-13.1404
雕	-13.1406
斛	-13.1407
煉	-13.1408
䨥	-13.1409
婚	-13.1409
蹉	-13.141
誌	-13.141
釆	-13.1411
諳	-13.1412
蠅	-13.1413
僮	-13.1413
禽	-13.1414
確	-13.1415
緝	-13.1415
裝	-13.1416
繭	-13.1417
構	-13.1418
傅	-13.1418
努	-13.1419
齡	-13.1419
仇	-13.1421
鼎	-13.1422
盞	-13.1422
歛	-13.1424
濃	-13.1425
垽	-13.1425
娶	-13.1426
哽	-13.1426
軫	-13.1427
磁	-13.1428
鵲	-13.143
恤	-13.143
眄	-13.143
􂔹	-13.1431
姚	-13.1432
縒	-13.1432
幔	-13.1433
蔗	-13.1436
􂕴	-13.1437
挫	-13.144
叅	-13.145
拄	-13.1918
銳	-13.1925
蠕	-13.1928
臼	-13.1929
釁	-13.1929
攘	-13.193
慞	-13.193
拷	-13.193
噁	-13.1932
綠	-13.1932
鹵	-13.1932
簷	-13.1932
翠	-13.1933
稅	-13.1934
碑	-13.1935
販	-13.1935
梓	-13.1935
疇	-13.1935
墀	-13.1936
佳	-13.1937
圄	-13.1937
囹	-13.1937
擣	-13.1937
癲	-13.1939
筵	-13.194
唇	-13.1941
織	-13.1941
癎	-13.1944
毉	-13.1945
鄽	-13.1945
􂍧	-13.1946
曳	-13.1946
坏	-13.1947
遑	-13.1947
𢌞	-13.1948
儲	-13.195
閭	-13.195
繚	-13.1952
繢	-13.1952
噎	-13.1953
矟	-13.1954
嵩	-13.1957
玻	-13.1959
􂌞	-13.1965
援	-13.1966
頴	-13.1969
㸦	-13.197
播	-13.1971
賑	-13.1973
膺	-13.1975
惒	-13.246
檐	-13.2471
虜	-13.2475
顙	-13.2478
痕	-13.2487
鷺	-13.2488
毱	-13.249
攢	-13.2491
羂	-13.2491
蚡	-13.2492
很	-13.2493
虱	-13.2495
癰	-13.2496
睟	-13.2496
魘	-13.2496
菽	-13.2497
潰	-13.2498
征	-13.2498
鴛	-13.2499
棺	-13.25
鏤	-13.2501
聵	-13.2501
樊	-13.2504
崙	-13.2505
覔	-13.2505
喫	-13.2506
閫	-13.2507
𨷖	-13.2508
煢	-13.2508
櫓	-13.2508
頤	-13.2509
牗	-13.2509
惺	-13.251
皓	-13.251
瞑	-13.2513
憺	-13.2515
璃	-13.2515
倪	-13.2517
覃	-13.2517
彫	-13.2518
彖	-13.2518
嚧	-13.2527
埿	-13.2547
懍	-13.306
惚	-13.3069
鞠	-13.307
鼈	-13.3071
塲	-13.3074
侮	-13.3075
伍	-13.3075
靂	-13.3076
襄	-13.3076
霹	-13.3076
癸	-13.3077
協	-13.308
逍	-13.308
瓣	-13.308
翊	-13.308
猫	-13.3081
疋	-13.3081
蠡	-13.3085
蠶	-13.3085
岷	-13.3092
慜	-13.3092
𦊱	-13.3093
漆	-13.3093
黜	-13.3094
募	-13.3095
瘀	-13.3097
愕	-13.3097
圃	-13.3098
鸞	-13.3098
槩	-13.3098
楮	-13.31
淘	-13.3101
陌	-13.3101
虞	-13.3103
蔓	-13.3103
訣	-13.3104
唄	-13.3105
杪	-13.3106
弭	-13.3116
啖	-13.3116
菜	-13.3664
睥	-13.3669
乱	-13.3674
羝	-13.3682
麝	-13.3683
囂	-13.369
閒	-13.3692
蒸	-13.3696
惹	-13.37
撲	-13.3702
幅	-13.3702
樵	-13.3703
謾	-13.3704
殉	-13.3704
燧	-13.3704
瓠	-13.3705
􂌦	-13.3705
敦	-13.3705
懵	-13.3706
搥	-13.3706
惣	-13.3708
肴	-13.3708
爍	-13.3708
𠍴	-13.371
錐	-13.3711
漁	-13.3712
勁	-13.3712
匐	-13.3713
迂	-13.3713
蘿	-13.3714
奩	-13.3714
紳	-13.3714
邈	-13.3716
覊	-13.3716
甑	-13.3718
畟	-13.3719
鳧	-13.372
羨	-13.3721
献	-13.3722
悼	-13.3723
肖	-13.3724
儞	-13.3724
恊	-13.3725
濩	-13.3725
桉	-13.3726
弔	-13.3727
漠	-13.3728
髣	-13.3729
瀆	-13.373
嫡	-13.373
疱	-13.373
寓	-13.3731
窶	-13.3732
賔	-13.3733
矧	-13.3734
弧	-13.3735
嚚	-13.3735
栢	-13.374
緘	-13.3746
弩	-13.3754
苣	-13.3761
駝	-13.4311
餚	-13.4349
蟇	-13.4351
墓	-13.4354
渝	-13.4358
枚	-13.4359
琢	-13.4362
榜	-13.4363
臏	-13.4364
榛	-13.4366
拈	-13.4367
簸	-13.437
舩	-13.4371
斜	-13.4372
桑	-13.4374
礦	-13.4374
竇	-13.4375
薀	-13.4376
椰	-13.4376
懅	-13.4376
皤	-13.4377
糠	-13.4378
剜	-13.4379
猿	-13.4379
雍	-13.4379
憲	-13.4379
晡	-13.4382
颺	-13.4383
屹	-13.4384
碩	-13.4384
酷	-13.4384
挈	-13.4385
汩	-13.4385
駿	-13.4386
彥	-13.4387
銛	-13.4387
航	-13.4389
𨤲	-13.4389
㲲	-13.439
亷	-13.439
浸	-13.4393
寇	-13.4394
祜	-13.4396
妊	-13.4397
蹋	-13.4397
隴	-13.4398
畵	-13.4403
䖟	-13.441
鐶	-13.5055
垓	-13.5059
嚙	-13.5068
鏃	-13.5069
鵰	-13.5071
泆	-13.5072
恍	-13.5072
禿	-13.5073
戎	-13.5075
万	-13.5077
誹	-13.5084
轅	-13.5084
疥	-13.5084
翌	-13.5085
齧	-13.5085
袒	-13.5085
碧	-13.5086
迸	-13.5086
聆	-13.5087
憩	-13.5088
洒	-13.5089
臀	-13.509
蚌	-13.509
灯	-13.5091
痊	-13.5093
槌	-13.5093
崑	-13.5095
耘	-13.5095
僚	-13.5095
悍	-13.5095
詛	-13.5096
瀰	-13.5097
匍	-13.5097
郤	-13.5097
膓	-13.5098
羇	-13.5098
狄	-13.5098
蔡	-13.5098
皂	-13.5098
蹲	-13.5099
狸	-13.5099
贅	-13.51
𢈔	-13.51
趾	-13.51
孱	-13.5102
鵄	-13.5102
袨	-13.5103
塠	-13.5104
訥	-13.5104
紇	-13.5105
喬	-13.5105
鈐	-13.5106
𠁅	-13.5106
紜	-13.5107
廷	-13.5107
紊	-13.5108
𢍉	-13.5109
筮	-13.5109
浙	-13.5109
峨	-13.5109
珪	-13.511
估	-13.5111
攫	-13.5111
秊	-13.5111
𦗟	-13.5111
弦	-13.5112
葬	-13.5112
店	-13.5113
靁	-13.5113
葵	-13.5117
鏘	-13.5118
寰	-13.5119
朴	-13.5121
罸	-13.5123
衷	-13.5139
系	-13.5179
涎	-13.5823
皰	-13.5827
琦	-13.5833
瑰	-13.5835
霄	-13.584
繡	-13.5841
腕	-13.5841
蹬	-13.5845
屑	-13.5846
奸	-13.5846
撤	-13.5847
蟠	-13.5848
婁	-13.5851
慍	-13.5851
煮	-13.5851
毳	-13.5851
晷	-13.5855
憧	-13.5856
鍛	-13.5857
亟	-13.5857
誇	-13.5857
忖	-13.5857
挽	-13.5859
榻	-13.5859
瀚	-13.586
𧂐	-13.5861
握	-13.5861
冕	-13.5861
眩	-13.5862
蝎	-13.5862
癘	-13.5863
杏	-13.5863
悵	-13.5863
抨	-13.5864
聯	-13.5865
偉	-13.5866
鈿	-13.5867
擒	-13.5867
曝	-13.5867
刈	-13.5868
躅	-13.5868
淼	-13.5869
你	-13.5871
肚	-13.5872
效	-13.5872
槍	-13.5873
掛	-13.5873
咤	-13.5874
𢤱	-13.5874
稗	-13.5876
瘥	-13.5877
拍	-13.5877
稔	-13.5878
蜺	-13.5878
澣	-13.588
粲	-13.5881
淤	-13.5882
稀	-13.5882
腫	-13.5883
鞔	-13.5884
碓	-13.5886
傭	-13.5886
筞	-13.5887
霖	-13.589
拆	-13.5891
臚	-13.5891
懿	-13.5897
喝	-13.5899
煨	-13.6651
蜎	-13.6662
掣	-13.6667
湊	-13.6669
剔	-13.6669
仕	-13.6674
緜	-13.6675
姤	-13.6679
揣	-13.6679
嘶	-13.6679
豺	-13.668
繽	-13.668
忤	-13.668
莽	-13.668
蓄	-13.6682
嘻	-13.6683
蠻	-13.6684
襟	-13.6684
滲	-13.6684
磬	-13.6684
篅	-13.6684
蕀	-13.6684
駈	-13.6685
誐	-13.6686
瀁	-13.6689
轄	-13.6691
魑	-13.6691
采	-13.6691
岫	-13.6691
鞋	-13.6691
雰	-13.6692
躋	-13.6693
狡	-13.6693
轝	-13.6695
牋	-13.6696
磕	-13.6696
穹	-13.6696
帆	-13.6697
鵂	-13.6699
杯	-13.67
諾	-13.67
簣	-13.6701
忝	-13.6701
谿	-13.6701
眹	-13.6702
拕	-13.6703
啻	-13.6704
陞	-13.6704
𪗇	-13.6705
巫	-13.6705
覧	-13.6707
撾	-13.6709
悖	-13.6709
梗	-13.671
皺	-13.671
汰	-13.671
賷	-13.6715
糩	-13.6715
杙	-13.6715
杭	-13.6717
迪	-13.6719
謚	-13.6719
衂	-13.6721
黯	-13.6722
敝	-13.6722
尉	-13.6723
賾	-13.6724
鉅	-13.6724
培	-13.6727
兢	-13.6727
遁	-13.673
㦸	-13.673
諒	-13.6736
孺	-13.6752
减	-13.6754
愴	-13.7562
煻	-13.7564
茘	-13.7572
瘖	-13.7574
菟	-13.7584
纊	-13.7585
薗	-13.7585
陪	-13.7586
冐	-13.7588
佷	-13.7588
顰	-13.7589
督	-13.759
栰	-13.7591
憔	-13.7591
柁	-13.7593
窹	-13.7593
嘖	-13.7593
穽	-13.7593
雁	-13.7594
义	-13.7594
粘	-13.7594
摭	-13.7594
綏	-13.7594
稜	-13.7595
烹	-13.7596
墟	-13.7598
昴	-13.7598
濱	-13.7599
擐	-13.7599
箋	-13.7599
靴	-13.76
蛻	-13.76
篾	-13.7601
藂	-13.7601
鎗	-13.7601
盪	-13.7602
瘠	-13.7602
双	-13.7603
版	-13.7605
腑	-13.7605
麾	-13.7606
蛟	-13.7606
闠	-13.7606
紋	-13.7608
燼	-13.7608
闌	-13.7608
𡶨	-13.761
璞	-13.761
核	-13.761
蘧	-13.7611
褚	-13.7611
戢	-13.7611
洴	-13.7611
澼	-13.7611
楸	-13.7612
丞	-13.7612
杷	-13.7612
枇	-13.7612
傑	-13.7613
犂	-13.7613
匣	-13.7614
署	-13.7614
捃	-13.7614
跽	-13.7614
闚	-13.7614
矦	-13.7614
捻	-13.7615
堦	-13.7615
攪	-13.7616
奕	-13.7616
郊	-13.7617
吕	-13.7618
懾	-13.762
祛	-13.7622
吃	-13.7623
粵	-13.7623
搴	-13.7624
牸	-13.7625
柂	-13.7626
塑	-13.7627
拖	-13.7627
馴	-13.7628
褰	-13.7629
膀	-13.763
胱	-13.763
犧	-13.7631
謇	-13.7633
㨗	-13.7635
驎	-13.7647
蕃	-13.7656
餒	-13.8569
玫	-13.8573
咲	-13.8575
嬌	-13.8579
謫	-13.858
彎	-13.8583
恁	-13.8583
扼	-13.8583
姨	-13.8584
眴	-13.8585
嗉	-13.8587
豕	-13.8588
庖	-13.8589
澇	-13.859
績	-13.859
茹	-13.8591
蝮	-13.8593
瞢	-13.8593
萊	-13.8594
凉	-13.8594
屣	-13.8595
泳	-13.8595
掬	-13.8596
兇	-13.8597
剉	-13.8597
縳	-13.8598
玼	-13.8598
巘	-13.8599
概	-13.8599
叱	-13.8599
蔕	-13.86
做	-13.8601
柄	-13.8601
艶	-13.8601
溈	-13.8602
䗍	-13.8602
瓮	-13.8602
鰓	-13.8602
倮	-13.8602
芙	-13.8602
疼	-13.8603
湑	-13.8603
匡	-13.8606
邕	-13.8606
徼	-13.8606
鄧	-13.8607
嶂	-13.8608
侘	-13.8608
皴	-13.8608
獼	-13.8609
褁	-13.8609
姻	-13.861
鍼	-13.861
霆	-13.8611
孽	-13.8612
豬	-13.8612
鵞	-13.8615
副	-13.8615
檝	-13.8616
胥	-13.8616
歴	-13.8618
顓	-13.8619
擗	-13.862
隥	-13.8621
塘	-13.8622
澗	-13.8622
衒	-13.8623
霪	-13.8624
范	-13.8627
屯	-13.8629
贈	-13.8629
袁	-13.863
婉	-13.8631
濶	-13.8632
郢	-13.8633
謨	-13.8638
湘	-13.864
絮	-13.864
𩔗	-13.8641
綖	-13.8643
弁	-13.8643
俞	-13.8652
瓨	-13.9591
駱	-13.9623
惔	-13.9642
膖	-13.9684
𠲿	-13.9686
囕	-13.9689
侈	-13.9695
莅	-13.9696
鬣	-13.9697
煒	-13.9698
麞	-13.9698
魍	-13.97
魎	-13.9701
梅	-13.9701
僥	-13.9701
󳼶	-13.9701
抖	-13.9702
靉	-13.9703
窗	-13.9703
鉞	-13.9704
盂	-13.9705
猜	-13.9706
窈	-13.9706
擻	-13.9706
瓢	-13.9706
旹	-13.9706
琅	-13.9708
頷	-13.9709
慘	-13.9709
嘯	-13.9709
斑	-13.971
𩯭	-13.9711
弛	-13.9711
顒	-13.9711
䆳	-13.9713
楪	-13.9713
幟	-13.9713
蛆	-13.9713
涵	-13.9714
俸	-13.9714
貳	-13.9714
癭	-13.9715
尹	-13.9715
磻	-13.9716
氐	-13.9717
鑷	-13.9717
翮	-13.9717
碪	-13.9717
袋	-13.9718
蓉	-13.9718
騖	-13.9718
𣣋	-13.9719
魁	-13.972
衲	-13.9721
劈	-13.9721
殻	-13.9721
晌	-13.9722
鋩	-13.9722
隳	-13.9722
偕	-13.9722
頡	-13.9723
氎	-13.9723
咬	-13.9724
鍱	-13.9725
䖍	-13.9725
猾	-13.9726
逵	-13.9727
躰	-13.9727
㝡	-13.9728
蚤	-13.9729
徂	-13.9731
褐	-13.9732
檄	-13.9732
猊	-13.9732
埸	-13.9732
隟	-13.9734
虢	-13.9735
貸	-13.9736
􂗎	-13.9737
朦	-13.9737
􂋧	-13.9738
欬	-13.9738
凜	-13.9739
㪷	-13.974
凢	-13.9745
惕	-13.9745
尒	-13.9758
娥	-13.977
㨿	-13.9785
㷿	-14.0906
机	-14.0914
址	-14.0924
耄	-14.0927
逋	-14.0928
倈	-14.0931
囿	-14.0933
荔	-14.0935
犲	-14.0937
𦰧	-14.0937
賄	-14.0939
掦	-14.0939
廕	-14.0939
泄	-14.0941
貽	-14.0945
臟	-14.0946
蝨	-14.0948
扆	-14.0948
虺	-14.0948
蹴	-14.0949
叟	-14.095
隍	-14.095
曙	-14.0952
鑠	-14.0952
蚖	-14.0952
倖	-14.0953
豚	-14.0954
拋	-14.0954
樑	-14.0954
瘢	-14.0954
旗	-14.0955
漬	-14.0956
昵	-14.0957
凾	-14.0958
課	-14.0958
吁	-14.0959
霍	-14.0959
鶹	-14.0959
闈	-14.096
炮	-14.096
髭	-14.0961
絖	-14.0961
褊	-14.0961
芒	-14.0961
嘷	-14.0962
秩	-14.0962
盻	-14.0963
袖	-14.0964
姉	-14.0965
翱	-14.0965
蠍	-14.0965
儜	-14.0965
橈	-14.0965
賒	-14.0965
弃	-14.0966
羲	-14.0967
駐	-14.0967
騏	-14.0967
梏	-14.0967
朧	-14.0968
歒	-14.0969
櫚	-14.0969
縠	-14.0969
椶	-14.0969
舸	-14.097
濬	-14.097
黶	-14.097
距	-14.0971
驪	-14.0971
脛	-14.0971
𢙣	-14.0972
嘔	-14.0973
􂗌	-14.0974
筒	-14.0974
汾	-14.0974
捔	-14.0975
矬	-14.0976
寵	-14.0976
爇	-14.0977
仛	-14.0977
扞	-14.0977
皦	-14.0977
歐	-14.0978
嗽	-14.0978
叮	-14.0978
吮	-14.0979
絢	-14.098
呬	-14.098
塢	-14.098
俶	-14.0982
躃	-14.0984
犗	-14.0984
韜	-14.0985
菔	-14.0985
荀	-14.0987
馮	-14.0988
暄	-14.0989
叶	-14.0989
弒	-14.099
咒	-14.099
𣗥	-14.0991
狠	-14.0992
舘	-14.0992
抒	-14.0992
腥	-14.0994
砰	-14.0995
椀	-14.0996
芮	-14.0997
磑	-14.0998
听	-14.0998
篆	-14.1
澒	-14.1001
抃	-14.1002
罤	-14.1016
企	-14.2377
䬸	-14.238
㑦	-14.2386
耨	-14.239
㬥	-14.2391
䥫	-14.2392
䘏	-14.2395
㐫	-14.2399
侫	-14.2399
閦	-14.2399
醐	-14.2402
䤈	-14.2402
㯹	-14.2407
丐	-14.241
醍	-14.2413
々	-14.2413
訂	-14.2415
㳂	-14.2432
巍	-14.403
臾	-14.407
瑠	-14.4074
裟	-14.6058
琉	-14.6061
碯	-14.8559
憨	-14.8582
-	-14.8596
忉	-15.1895
瑚	-15.19
碼	-15.1906
硨	-15.1931
磲	-15.1931
寞	-15.6852
瓈	-15.6863
婇	-15.6893
袈	-15.6914
霅	-15.6949
—	-16.6811
湼	-16.6942
髴	-16.6943
瑳	-16.6944
琥	-16.6945
􂗴	-16.6946
蝴	-16.6947
辞	-16.6948
瑪	-16.6949
摜	-16.695
藎	-16.6951
[	-16.6952
𠷌	-16.6953
>	-16.6954
N	-16.6955
闐	-16.6955
