<unk>	0
<s>	0
</s>	0
。	-1.74901
,	-4.30897
者	-4.85854
佛	-5.1739
不	-5.17832
無	-5.35873
之	-5.41806
有	-5.4194
為	-5.46821
故	-5.55362
心	-5.56443
法	-5.60748
菩薩	-5.6586
中	-5.69087
人	-5.69299
也	-5.74217
如	-5.75005
若	-5.76611
是	-5.78048
南無	-5.80795
我	-5.81729
得	-5.85914
以	-5.85921
一	-5.87656
於	-5.8825
行	-5.91952
、	-5.93314
大	-5.96936
如來	-6.03635
眾生	-6.03734
身	-6.04065
相	-6.04195
世尊	-6.05847
生	-6.07894
說	-6.08152
言	-6.11578
即	-6.15896
時	-6.15973
見	-6.16893
其	-6.18532
善男子	-6.20155
諸	-6.21207
從	-6.21435
名	-6.24223
自	-6.24633
作	-6.26952
一切	-6.31212
如是	-6.31796
所	-6.3275
能	-6.34175
而	-6.34947
善	-6.38804
及	-6.39607
復	-6.40355
非	-6.4102
此	-6.41857
上	-6.42104
或	-6.42344
等	-6.43241
常	-6.43923
▁	-6.4744
當	-6.50579
道	-6.51118
三	-6.53324
無量	-6.53638
皆	-6.54185
經	-6.54773
四	-6.58448
入	-6.58631
空	-6.58863
令	-6.59285
出	-6.59323
二	-6.59482
受	-6.61011
已	-6.63105
來	-6.63454
曰	-6.64614
爾時	-6.64954
亦	-6.6601
水	-6.67709
天	-6.69188
下	-6.69624
在	-6.69796
願	-6.72915
眾	-6.7318
意	-6.7459
欲	-6.76124
盡	-6.76171
王	-6.76691
處	-6.76896
若有	-6.76948
五	-6.77477
地	-6.77843
;	-6.77849
苦	-6.78836
知	-6.78985
一切眾生	-6.80933
多	-6.81555
與	-6.81696
明	-6.82219
何以故	-6.83408
惡	-6.83409
白佛言	-6.83473
則	-6.84354
今	-6.84393
色	-6.84448
汝	-6.87812
語	-6.87833
成	-6.88179
食	-6.89295
取	-6.90335
名為	-6.9186
起	-6.92733
!	-6.92968
定	-6.93028
觀	-6.94822
至	-6.9501
難	-6.95109
力	-6.95434
眼	-6.95787
樂	-6.96236
淨	-6.96336
念	-6.99075
。「	-6.99188
義	-7.0015
佛言	-7.00426
子	-7.00483
用	-7.00802
正	-7.01089
死	-7.01317
罪	-7.01389
病	-7.02434
求	-7.05098
聞	-7.05311
王佛	-7.06723
真	-7.06992
無有	-7.07122
因	-7.08639
應	-7.09159
事	-7.09934
隨	-7.10288
後	-7.11068
滅	-7.112
諸佛	-7.11607
功德	-7.11677
智	-7.12619
煩惱	-7.12836
施	-7.13484
解脫	-7.13772
教	-7.13818
供養	-7.15009
(	-7.15159
前	-7.15277
外	-7.15299
:「	-7.15395
住	-7.15675
同	-7.16657
)	-7.17117
寶	-7.17368
故言	-7.17457
日	-7.17466
生死	-7.17707
云何	-7.17723
可	-7.17927
清淨	-7.17977
世間	-7.20574
修	-7.20703
問	-7.20871
為人	-7.20958
長	-7.21048
六	-7.2162
性	-7.22362
緣	-7.22973
由	-7.2374
國	-7.23756
理	-7.2404
著	-7.24868
本	-7.25007
現	-7.25308
使	-7.2622
但	-7.2687
何	-7.27167
識	-7.27443
好	-7.2832
實	-7.28349
山	-7.28803
神	-7.29425
除	-7.30174
劫	-7.30491
□	-7.30735
命	-7.30904
重	-7.31388
持	-7.31453
解	-7.31795
彼	-7.31989
雖	-7.32357
十	-7.33193
依	-7.3324
是故	-7.33299
乃	-7.3388
門	-7.33931
七	-7.34131
」	-7.34222
方	-7.36044
此經	-7.36046
鬼	-7.37064
又	-7.38675
轉	-7.38779
未	-7.38846
光	-7.39799
口	-7.4081
福	-7.412
師	-7.41944
離	-7.41966
共	-7.42296
大乘	-7.42311
去	-7.42734
覺	-7.42915
地獄	-7.43067
捨	-7.44187
小	-7.46227
不得	-7.46351
果	-7.47484
香	-7.47737
內	-7.47894
世	-7.48909
八	-7.50104
菩提	-7.50425
父母	-7.50438
千	-7.50496
種	-7.50779
智慧	-7.50793
安	-7.51168
火	-7.51829
是人	-7.52247
乃至	-7.52911
然	-7.52949
涅槃	-7.53614
譬如	-7.53632
不能	-7.53743
。」	-7.53921
初	-7.54285
光明	-7.54751
還	-7.55465
百	-7.55506
白	-7.5595
他	-7.56476
光佛	-7.5707
異	-7.57373
自在	-7.57617
深	-7.58078
具	-7.58081
信	-7.58205
三寶	-7.58587
過	-7.58695
利	-7.59439
少	-7.59807
體	-7.59827
第二	-7.60204
勝	-7.60417
妙	-7.60962
德	-7.6123
先	-7.62135
頭	-7.62338
即是	-7.63138
既	-7.632
一心	-7.63302
中來	-7.6338
悉	-7.63827
破	-7.6413
聲	-7.64163
莫	-7.6454
便	-7.64594
形	-7.64623
度	-7.65416
尊	-7.65796
不見	-7.66604
化	-7.66744
僧	-7.66782
普	-7.66872
自然	-7.6719
?	-7.67353
乘	-7.67949
各	-7.6807
分別	-7.68864
懺悔	-7.68943
謂	-7.68943
音	-7.69138
報	-7.6943
佛告	-7.69473
亦復如是	-7.69479
造	-7.69598
數	-7.69813
受持	-7.69881
萬	-7.69884
合	-7.7009
因緣	-7.70168
種種	-7.70434
遍	-7.70853
業	-7.70903
須	-7.71016
根	-7.7106
城	-7.7133
是名	-7.72177
.	-7.7232
文	-7.72413
分	-7.72648
恒	-7.73307
歸	-7.73399
通	-7.73501
向	-7.73743
二者	-7.73767
斷	-7.73879
o	-7.74044
N	-7.74044
物	-7.74494
聖	-7.75494
耳	-7.75673
愛	-7.76068
月	-7.76088
俱	-7.7627
吾	-7.76347
一者	-7.76404
餘	-7.76619
女	-7.76732
發	-7.76832
華	-7.76968
足	-7.7896
戒	-7.79515
將	-7.80385
年	-7.80743
學	-7.80825
立	-7.82099
歡喜	-7.82668
邪	-7.82776
開	-7.8284
慧	-7.83536
動	-7.83841
家	-7.83958
金	-7.84335
照	-7.84467
唯	-7.86638
證	-7.88066
殺	-7.8823
會	-7.88272
壽	-7.88439
方便	-7.885
虛空	-7.88746
別	-7.88809
魔	-7.88874
名之為	-7.88929
沙門	-7.89044
護	-7.90042
亦不	-7.90438
目	-7.90449
想	-7.90488
夫	-7.90631
廣	-7.90676
母	-7.91295
稱	-7.92187
達	-7.92403
海	-7.92432
莊嚴	-7.93326
藏	-7.93748
精進	-7.94179
金剛	-7.94593
十方	-7.9462
手	-7.94768
眷屬	-7.95349
順	-7.95625
亦無	-7.96324
土	-7.96639
爾時世尊	-7.97079
悟	-7.97173
弟子	-7.97824
皆悉	-7.98159
布施	-7.99122
歲	-7.99593
汝等	-8.00033
所有	-8.00561
並	-8.01223
思	-8.01453
具足	-8.02153
貪	-8.02177
第三	-8.02579
不可思議	-8.02688
遠	-8.03545
結	-8.03893
服	-8.04187
法身	-8.04715
是經	-8.05371
之時	-8.05474
坐	-8.05484
極	-8.05792
更	-8.0611
境	-8.06306
兩	-8.06342
墮	-8.06397
流	-8.06438
示	-8.06488
名字	-8.06578
比丘	-8.06707
風	-8.06766
聲聞	-8.06847
要	-8.07154
是非	-8.07189
爾	-8.07411
聽	-8.08311
和	-8.08564
日月	-8.09291
犯	-8.09374
萬里	-8.09928
平等	-8.1004
誦	-8.10076
佛性	-8.10158
寂	-8.10468
毒	-8.10588
云	-8.10843
不生	-8.10847
失	-8.10873
執	-8.11208
阿難	-8.11322
馬	-8.11434
近	-8.11564
唯有	-8.11958
藥	-8.12106
說法	-8.12371
到	-8.12397
虛	-8.12476
凡	-8.1271
財	-8.12772
塵	-8.13292
請	-8.13442
亂	-8.13673
凡夫	-8.13894
所以	-8.14046
名曰	-8.14954
喜	-8.15018
呪	-8.15438
治	-8.15526
久	-8.15545
妄	-8.15565
父	-8.16213
善友	-8.16672
氣	-8.16768
悉皆	-8.17012
不識	-8.17675
高	-8.18039
賢	-8.18131
以為	-8.18543
花	-8.1913
修行	-8.19373
興	-8.19415
我今	-8.19668
像	-8.1995
樹	-8.20254
世界	-8.20907
□□□	-8.20953
味	-8.21053
持戒	-8.21159
斯	-8.21236
不知	-8.21519
益	-8.21677
遂	-8.21758
沒	-8.21904
師子	-8.22048
慈悲	-8.22053
恩	-8.22054
猶如	-8.22137
無所	-8.2215
男女	-8.22269
置	-8.22275
復有	-8.22303
害	-8.22569
滿	-8.23008
毀	-8.23883
終	-8.24055
及以	-8.24059
衣	-8.24911
重罪	-8.2495
夜	-8.24967
老	-8.25075
大眾	-8.25154
不信	-8.25707
若不	-8.25788
善惡	-8.26266
三者	-8.26579
復次	-8.2676
忍	-8.26873
肉	-8.27753
親	-8.27843
無礙	-8.27945
七寶	-8.27975
佛告阿難	-8.28251
九	-8.28613
讀誦	-8.28789
諸眾生	-8.28936
三界	-8.29883
勸	-8.30147
身心	-8.30164
一時	-8.30409
面	-8.30447
無明	-8.30496
字	-8.3057
障	-8.30624
亦名	-8.30689
居	-8.30747
答	-8.30839
之法	-8.31003
息	-8.31012
未來	-8.31057
奉	-8.31369
諸天	-8.3154
己	-8.31984
今身	-8.32048
而不	-8.32057
□□	-8.32554
不動	-8.32641
禮拜	-8.33165
夢	-8.3323
喻	-8.33327
羅	-8.33931
鐵	-8.33948
不應	-8.34079
半	-8.34134
五逆	-8.34212
賊	-8.34323
十八	-8.34336
畜生	-8.34432
次	-8.34487
出世	-8.34494
天地	-8.34952
故得	-8.35184
際	-8.36013
往	-8.36497
不可	-8.36761
顯	-8.36837
患	-8.37016
攝	-8.37036
蓮華	-8.3721
癡	-8.37248
違	-8.37299
究竟	-8.37335
禪定	-8.37378
第一	-8.37444
諸法	-8.37505
善哉善哉	-8.37649
惑	-8.37686
復次善男子	-8.37804
窮	-8.3822
我等	-8.38301
并	-8.38554
被	-8.39169
南無寶	-8.39247
類	-8.39566
止	-8.39613
情	-8.39754
官	-8.39796
五陰	-8.40348
平	-8.40405
釋	-8.40485
觸	-8.40659
菩薩摩訶薩	-8.40697
出家	-8.40698
始	-8.40752
顛倒	-8.40813
酒	-8.40813
疑	-8.41233
無邊	-8.4149
故曰	-8.41518
竟	-8.41543
染	-8.41559
受苦	-8.41642
天王	-8.41757
常住	-8.4179
告	-8.42538
之人	-8.42609
四者	-8.42787
必	-8.42846
□□□□□□□□□□□□□□□	-8.43172
鳥	-8.43297
偈	-8.43332
惠	-8.43433
功	-8.43557
道人	-8.43559
散	-8.43576
餓鬼	-8.43975
怨	-8.44011
放	-8.44059
獲	-8.44088
速	-8.44142
輕	-8.44166
燒	-8.44215
懷	-8.44225
稽首	-8.44297
却	-8.44585
善知識者	-8.44939
大士	-8.44965
或復	-8.45137
未來世中	-8.45234
正法	-8.45421
謗	-8.45915
路	-8.46247
波	-8.46319
龍	-8.46479
五百	-8.46681
之中	-8.46682
□□□□□□□	-8.47038
救	-8.47319
呼	-8.47526
清	-8.4753
致	-8.47538
那	-8.47606
恭敬	-8.47933
呪魅人	-8.47967
即飽	-8.48056
佛法	-8.48089
三昧	-8.48224
善男子善女人	-8.48313
正念	-8.48391
慈心	-8.48481
亡	-8.48695
□□□□	-8.49145
之所	-8.4942
至心	-8.49526
下明	-8.49578
王菩薩	-8.50001
濟	-8.50041
黃	-8.50046
若人	-8.50196
值	-8.50228
其人	-8.50596
一一	-8.50698
輪	-8.50747
對	-8.5088
論	-8.50934
存	-8.51108
舌	-8.51263
不同	-8.51341
雲	-8.51496
縛	-8.51512
初明	-8.51632
西	-8.51728
境界	-8.51743
舉	-8.51776
然後	-8.51809
雨	-8.52465
尼	-8.52599
即便	-8.52615
摩	-8.52648
是事	-8.52952
邊	-8.53639
集	-8.5377
汝今	-8.53822
貧	-8.53988
厭	-8.54146
里	-8.54172
遊	-8.54177
疾	-8.54206
所說	-8.54207
說之	-8.54255
燈	-8.54409
第四	-8.54708
變	-8.54847
河	-8.54965
守	-8.55007
血	-8.55098
屬	-8.5511
圓	-8.5515
耶	-8.55207
成就	-8.55228
強	-8.55296
釋迦	-8.55431
寧	-8.55442
衣食	-8.55526
頭破作七分	-8.55538
唯願世尊	-8.55735
絕	-8.5608
悔	-8.56396
無常	-8.56855
則無	-8.57099
地獄中	-8.57621
敬	-8.57708
最	-8.57968
飲食	-8.58014
聚	-8.58061
而白佛言	-8.5822
奉行	-8.58252
善知識	-8.58354
飲	-8.5848
慈	-8.58591
東	-8.58797
兒	-8.58943
趣	-8.59068
阿	-8.5907
陰	-8.59109
習	-8.59234
走	-8.59307
改	-8.59309
尋	-8.59347
普賢菩薩	-8.59437
如阿梨樹枝	-8.59533
受持讀誦	-8.59534
虛空藏菩薩白佛言	-8.59569
一切大眾	-8.5969
今日	-8.59707
南	-8.59772
於中	-8.6001
闇	-8.60011
積	-8.60073
宜	-8.60188
慧法	-8.60523
故名	-8.60525
七日	-8.6054
八萬	-8.61161
彌勒	-8.61731
如此	-8.61823
皆是	-8.61972
似	-8.62082
甚	-8.62568
車	-8.62953
以是因緣	-8.63056
狗	-8.63192
文字	-8.63211
志	-8.63263
福德	-8.63348
舍	-8.63386
陀	-8.63413
此人	-8.63531
貧窮	-8.63538
法界	-8.63815
一卷	-8.64044
人民	-8.64052
諸惡	-8.64073
不住	-8.64245
如是受持	-8.64363
若能	-8.64644
迷	-8.64688
或作	-8.64897
若有眾生	-8.65262
於彼	-8.65992
了	-8.66097
有三	-8.6631
石	-8.66448
我當	-8.6657
何況	-8.66589
帝	-8.66669
誹謗	-8.66954
悲	-8.6702
頂	-8.67124
災	-8.67241
神通	-8.67266
過去	-8.67319
獨	-8.67345
遣	-8.67529
外道	-8.67534
唯願	-8.67675
衰	-8.6768
座	-8.67736
痛	-8.67742
草	-8.67749
影	-8.6775
鼻	-8.67806
辯	-8.6781
幢	-8.67845
器	-8.67867
善哉	-8.67875
旬	-8.67968
如是之人	-8.68092
之處	-8.68328
亦如	-8.6835
眾僧	-8.68417
有一	-8.68565
起入	-8.68641
可得	-8.69036
當知	-8.69196
死墮	-8.69323
真實	-8.69481
皆得	-8.70745
加	-8.71014
惱	-8.71274
無為	-8.71347
不離	-8.71651
不淨	-8.71754
宮	-8.71762
西方	-8.71801
勿	-8.72022
利益	-8.72132
誑	-8.72141
收	-8.72223
釋迦牟尼佛	-8.72267
進	-8.72295
愚癡	-8.72332
望	-8.72345
玄	-8.72355
制	-8.72379
幡	-8.72418
不令	-8.72841
一闡提	-8.72975
歸依	-8.7311
故知	-8.73144
甚深	-8.73181
量	-8.73193
無二	-8.73234
北	-8.73347
十二	-8.7352
大仙	-8.73683
其身	-8.74293
永	-8.75073
聞法	-8.75409
處處	-8.75683
不起	-8.75938
阿羅漢	-8.7595
末	-8.76187
直	-8.762
虫	-8.76289
臣	-8.76743
須彌	-8.769
期	-8.77109
任	-8.7713
果報	-8.77155
髮	-8.77179
星	-8.77188
今當請	-8.77357
亦爾	-8.7747
及諸	-8.77773
垢	-8.77811
得解脫	-8.78476
光菩薩	-8.78823
諍	-8.78922
其義	-8.79014
主	-8.79168
無上	-8.79189
無心	-8.7955
無異	-8.79769
普光	-8.80316
間	-8.80357
法性	-8.80443
行者	-8.80446
敬禮	-8.81099
界	-8.81164
妻	-8.81264
令得	-8.81288
大仙答曰	-8.81635
覩	-8.81644
善根	-8.81683
光明佛	-8.81687
讀	-8.81741
遠離	-8.81841
圓滿	-8.81867
冥	-8.81964
同號	-8.81991
引	-8.8201
樓	-8.82021
一切法	-8.82057
善法	-8.82062
讚	-8.82079
堅	-8.82081
逕	-8.82089
音聲	-8.82106
迦	-8.82122
井	-8.82134
瞋恚	-8.8216
離諸	-8.82212
最勝	-8.82307
內外	-8.82482
殺生	-8.82624
□□□□□□	-8.82673
佛說	-8.8303
不久	-8.83144
融	-8.83145
文殊師利	-8.83187
不解	-8.83565
亦非	-8.83612
無生	-8.83632
欲求	-8.84991
俗	-8.85014
國王	-8.85154
即得	-8.85338
其中	-8.85394
豈	-8.8544
此法	-8.85443
一佛	-8.85497
壞	-8.8562
終不	-8.85727
七佛	-8.85735
若欲	-8.85809
決定	-8.86206
□□□□□	-8.86417
視	-8.86626
諦	-8.86862
印	-8.86897
幻惑	-8.87021
婆	-8.87169
蛇	-8.87206
為說	-8.8731
:	-8.87339
承	-8.87361
牛	-8.87381
四十	-8.87391
亦當	-8.87418
急	-8.87421
示現	-8.87436
律	-8.87539
污	-8.8755
若有善男子善女人	-8.87652
各各	-8.87654
化城	-8.87727
?」	-8.87839
百千	-8.87851
於此	-8.87918
壽命	-8.8792
大聖	-8.8868
一乘	-8.88832
曾	-8.8888
亦如是	-8.89083
又法	-8.89145
都	-8.89463
是以	-8.90016
蓋	-8.90149
活	-8.90215
塔	-8.90324
善思念之	-8.90378
或有	-8.90492
差	-8.90563
生滅	-8.90571
得見	-8.90672
其心	-8.90821
三塗	-8.91054
若見	-8.91382
計	-8.91405
萬歲	-8.91453
者從	-8.91601
寂滅	-8.91716
棄	-8.91757
已下	-8.92005
縱	-8.92018
他人	-8.92046
惡人	-8.92119
三世	-8.92134
之事	-8.92242
譬如有人	-8.92278
就	-8.9233
遇	-8.92463
財物	-8.92517
君	-8.92593
十里	-8.92634
逢	-8.92674
世世	-8.92716
木	-8.92717
白銀	-8.9279
歷	-8.928
骨	-8.92827
逆	-8.92888
備	-8.929
背	-8.92904
見食	-8.92905
危	-8.9291
殃	-8.92917
徹	-8.9293
思惟	-8.92942
驅	-8.92957
拘	-8.92974
歎	-8.92988
即為	-8.93025
守護	-8.93048
許	-8.93064
尚	-8.93075
元	-8.93089
林	-8.9309
佛告無礙菩薩摩訶薩	-8.93102
怖畏	-8.9312
何等為	-8.9318
咸	-8.93205
為作	-8.93207
作是言	-8.93375
邪見	-8.93652
當來	-8.93741
憂	-8.9382
惡業	-8.93829
天下	-8.9384
方等	-8.93872
諸大菩薩	-8.93921
十善	-8.94007
和合	-8.94207
文殊師利菩薩	-8.94843
微	-8.95111
十惡	-8.95498
記	-8.96105
不聽	-8.9628
十方諸佛	-8.96288
禮	-8.96364
中有二	-8.9645
大海	-8.96697
不名	-8.9684
所作	-8.96918
愚	-8.97052
諦聽諦聽	-8.97185
號	-8.97432
佛語	-8.97523
首	-8.97528
禁	-8.9764
墮地獄	-8.97645
新	-8.97754
有二	-8.9786
嚴	-8.97956
熱	-8.98008
猶	-8.98009
第五	-8.98065
句	-8.98104
恒河沙	-8.98106
國土	-8.98125
落	-8.98194
良	-8.98199
是諸	-8.98303
宗	-8.98331
炎	-8.9835
設	-8.98368
形像	-8.98452
容	-8.98559
辨	-8.98645
宿	-8.98663
瞋	-8.98676
赤	-8.98691
皆由	-8.9872
增	-8.98727
刀	-8.98766
盛	-8.98769
損	-8.98816
若復有人	-8.98952
宅	-8.98952
教化	-8.98997
聲聞緣覺	-8.99093
度脫	-8.99179
人身	-8.99203
知識	-8.99371
三十	-8.99381
「	-8.99409
爾時阿難	-8.99543
人間	-8.99671
有無	-8.99736
若無	-8.99741
得道	-8.99787
信受	-8.99899
大慈	-9.00093
多欲	-9.00214
不可得	-9.00354
大悲	-9.00359
見佛性	-9.00482
者多	-9.00551
□□□□□□□□	-9.00649
空寂	-9.00832
是真	-9.00914
云何名為	-9.0093
不滅	-9.01366
牽	-9.01746
故云	-9.01897
造作	-9.02007
無間	-9.0237
億	-9.02405
漸	-9.02411
千佛	-9.02713
告迦葉	-9.02868
長者	-9.02936
□□□□□□□□□□□□□	-9.02966
合掌	-9.03016
喻如	-9.03142
多有	-9.03155
得聞	-9.03173
精	-9.03206
而無	-9.0337
二種	-9.0339
北方	-9.03542
作佛	-9.03568
心生	-9.03627
人天	-9.03752
者少	-9.03842
何所	-9.03933
衣服	-9.03952
假	-9.03959
眾中	-9.03969
非法	-9.04253
殊	-9.04349
佛身	-9.04392
與我	-9.04488
池	-9.04714
招	-9.04729
授記	-9.04761
況	-9.04823
東方	-9.04828
軍	-9.04836
米	-9.04868
珍寶	-9.04919
鉢	-9.0493
傷	-9.04966
牙	-9.04968
第六	-9.04982
勅	-9.04984
昔	-9.05006
豐	-9.05008
減	-9.05018
易	-9.05076
詣	-9.05087
無礙菩薩摩訶薩	-9.05099
銅	-9.05102
打	-9.05121
公	-9.05122
畢竟	-9.05129
書寫	-9.05182
婆羅門	-9.05183
讚歎	-9.05189
生信	-9.05258
乎	-9.05277
十二部經	-9.05346
五戒	-9.05423
於諸	-9.05454
吾今	-9.05642
用布施	-9.05678
亦然	-9.05678
得度	-9.05725
應當	-9.05848
前白佛言	-9.05902
沙	-9.05923
三毒	-9.06015
墮於地獄	-9.06163
八萬四千	-9.06278
百億	-9.06338
苦惱	-9.06487
拔	-9.06836
之心	-9.06868
四大	-9.07196
言教	-9.07509
一人	-9.07694
若在	-9.07779
以不	-9.0784
四方	-9.07973
心不	-9.0809
尊者	-9.08269
實相	-9.08335
得福	-9.0846
諸大眾	-9.08477
周	-9.08797
恐	-9.08891
念佛	-9.09062
梵	-9.09115
五者	-9.09214
誰	-9.10256
閻浮提	-9.10478
甲	-9.10484
了知	-9.10586
性空	-9.10634
隱	-9.11086
澤	-9.11212
飛	-9.11222
婬	-9.11335
心無	-9.11437
首羅	-9.11462
步	-9.11481
尺	-9.11487
導	-9.11505
指	-9.11516
端	-9.11534
齊	-9.1155
忍辱	-9.11564
靜	-9.11571
以此	-9.1158
橫	-9.11584
男	-9.11588
杖	-9.11612
網	-9.11636
說偈言	-9.11639
伽	-9.11639
索	-9.1164
怖	-9.11654
盲	-9.11659
黑	-9.11667
塞	-9.11698
裏	-9.11701
張	-9.11711
位	-9.11716
毛	-9.11721
雙	-9.11764
繼	-9.11768
盜	-9.11789
消滅	-9.11801
:>	-9.11817
g	-9.11817
<	-9.11819
i	-9.11819
m	-9.11819
一日一夜	-9.11836
檀	-9.11858
洗	-9.11879
當爾之時	-9.11906
不如有人	-9.11977
微妙	-9.11977
無量無邊	-9.11995
說是法	-9.12128
因果	-9.12346
女人	-9.12405
是空	-9.12428
罪福	-9.12449
有人	-9.12701
萬億	-9.12855
信心	-9.1297
一念	-9.13237
佛道	-9.13515
諸佛如來	-9.1378
有心	-9.13972
現在	-9.14279
在世	-9.14701
見佛	-9.14773
苦行	-9.14784
光如來	-9.14913
聞此	-9.15108
之者	-9.15227
之罪	-9.15322
陽	-9.15588
□□□□□□□□□□□□□□	-9.15656
復白佛言	-9.15907
天人	-9.16196
捉	-9.16511
如是等	-9.16598
法王	-9.16658
無相	-9.17056
三世諸佛	-9.17066
心中	-9.17124
比丘尼	-9.17372
是一	-9.17432
於是	-9.17947
此是	-9.17978
調	-9.17983
不覺	-9.18011
齋	-9.1818
有緣	-9.18201
受持是經	-9.1825
有能	-9.18268
寶明	-9.1843
献佛	-9.18498
宣	-9.18509
今當	-9.18656
無盡	-9.18665
青	-9.18668
濁	-9.18683
男子	-9.18695
賤	-9.18697
鬼神	-9.1873
總	-9.18737
室	-9.18756
陳	-9.18767
榮	-9.188
放逸	-9.18808
旨	-9.18808
羅剎	-9.1885
敬重	-9.18892
運	-9.189
密	-9.18915
且	-9.18918
】	-9.18923
矣	-9.18935
忽然	-9.1895
孤	-9.18981
枯	-9.18983
先世	-9.18987
限	-9.19033
坐禪	-9.19052
聞佛所說	-9.19059
月光童子	-9.19139
羅漢	-9.19147
我慢	-9.19184
阿鼻地獄	-9.19193
奉持	-9.19242
金華	-9.19244
何故	-9.19253
汝當	-9.1929
法藏	-9.19304
不能自	-9.19409
福田	-9.19434
修善	-9.19471
下方	-9.19623
入涅槃	-9.19634
可知	-9.19905
二明	-9.20144
五欲	-9.20186
像法	-9.20203
諸行	-9.20208
一佛性	-9.2027
行道	-9.20434
即無	-9.20451
惡病	-9.20588
五道	-9.20661
月光	-9.20685
憶念	-9.20725
捨身	-9.2075
何者為	-9.20998
□□□□□□□□□	-9.21399
眾聖	-9.2192
為說之	-9.21983
身相	-9.22325
軌	-9.22485
未曾	-9.226
相佛	-9.22809
即名	-9.23033
惡心	-9.23046
倍	-9.23082
度眾生	-9.23426
是為	-9.23581
寫	-9.23584
不善	-9.23655
得罪	-9.23833
消	-9.24197
共相	-9.24437
臥	-9.24494
二同號	-9.24793
貴	-9.24886
伏	-9.249
不修	-9.25042
是也	-9.25098
此事	-9.25129
而生	-9.2563
如如	-9.25783
成熟	-9.25836
愍	-9.25949
卷	-9.26055
婦	-9.26081
覆	-9.26127
晝夜	-9.26134
譬	-9.26273
乳	-9.26274
禪	-9.26278
夜叉	-9.26291
罵	-9.26307
無始已來	-9.26329
師子吼	-9.26336
繫	-9.26341
喚	-9.26342
看	-9.26369
振	-9.26385
狐	-9.264
屋	-9.26407
迴	-9.26439
乾	-9.26507
感	-9.26514
熟	-9.2652
遭	-9.2653
三十三天	-9.26535
部	-9.26537
安穩	-9.26557
休息	-9.26563
不敢	-9.26569
儀	-9.26571
威神之力	-9.26632
缺	-9.26644
巧	-9.26654
威儀	-9.26658
浮	-9.26668
當知是人	-9.26672
弘	-9.26698
快樂	-9.26715
圍繞	-9.26715
放大光明	-9.26719
于	-9.26756
燒香	-9.26759
安隱	-9.26796
我等今者	-9.26811
不從	-9.26816
破戒	-9.26841
虛妄	-9.26844
以印印之	-9.26881
他方	-9.26896
六根	-9.26961
隨喜	-9.27003
無上菩提	-9.27106
□□□□□□□□□□□□	-9.27114
令諸眾生	-9.27132
如是等人	-9.27238
廣大	-9.27658
愚者	-9.2768
相違	-9.27682
隨意	-9.27683
珠	-9.27878
復有四	-9.27966
行布施	-9.2806
帝釋	-9.28652
哀	-9.28665
聞之	-9.28781
上下	-9.28971
名為四	-9.28976
左	-9.29226
法門	-9.29237
六度	-9.29492
亦得	-9.29493
中間	-9.29608
南方	-9.30021
懃	-9.30142
心性	-9.30223
亦有	-9.30352
說言	-9.304
無實	-9.3043
不為	-9.31154
諸佛菩薩	-9.31279
使人	-9.31646
菩薩來	-9.31649
雜	-9.31748
迦葉菩薩	-9.31915
一偈	-9.31937
除滅	-9.31963
忽	-9.32175
之身	-9.32192
群生	-9.32193
一切諸法	-9.32471
惡道	-9.32656
六者	-9.32669
三乘	-9.32698
仙人	-9.32806
如上	-9.32887
爾時除疑大士	-9.32906
為眾生	-9.33017
成佛	-9.33268
士	-9.33289
之物	-9.33322
此印	-9.33551
短	-9.33619
人受	-9.33627
一相	-9.33667
富	-9.33678
第	-9.3372
寒	-9.34035
反	-9.34041
能見	-9.34069
待	-9.34208
遶	-9.34231
潤	-9.34256
獄	-9.34266
退	-9.34293
傳	-9.34355
慢	-9.3453
腹	-9.34597
美	-9.34618
啟	-9.34631
地藏菩薩	-9.34636
露	-9.34674
競	-9.34689
錯	-9.34768
禍	-9.34773
莫如常意	-9.34777
睡	-9.34788
雷	-9.34791
辭	-9.34808
舍利弗	-9.34812
所見	-9.34814
乞	-9.34828
供	-9.34835
託	-9.34846
益算	-9.3486
修道	-9.34867
村	-9.34871
脫	-9.34903
注	-9.34907
自心	-9.34916
仰	-9.34936
歸依真善知識	-9.34938
擁護	-9.34957
寺	-9.34965
閻浮	-9.34969
威德	-9.34973
響	-9.34974
於大眾中	-9.34982
非有非無	-9.3499
蜜	-9.35024
賣	-9.3505
得法眼淨	-9.35065
智者	-9.35072
四天王	-9.35073
五體投地	-9.35087
三十日	-9.3511
救護	-9.35129
遺	-9.35147
是故今敬禮	-9.35149
優婆塞	-9.35152
尸	-9.35175
禪小增得生其中	-9.35191
魚	-9.35234
緣覺	-9.3529
六師	-9.35301
并及	-9.3531
爾時普賢菩薩	-9.35332
我說	-9.35363
登	-9.35377
如車	-9.35562
八難	-9.3561
去地	-9.3571
廣說	-9.35879
空王	-9.35917
善知識者是汝	-9.36128
威神	-9.36151
往生阿彌陀	-9.36189
化生	-9.36395
中有	-9.36483
南無慧	-9.36572
□□□□□□□□□□	-9.366
無不	-9.36739
遠行	-9.36787
隨其	-9.36973
度者	-9.37115
阿彌陀佛	-9.37488
須彌山	-9.3781
見他	-9.38071
眾魔	-9.38187
蒙	-9.38327
得見彌勒	-9.38407
金色	-9.38432
一處	-9.38484
不觀	-9.38513
復能	-9.38584
不實	-9.38675
三明	-9.38676
無智	-9.38796
之理	-9.38802
身長	-9.39061
海中	-9.39115
次有	-9.39217
亦為	-9.39817
不求	-9.3987
不如	-9.39924
雖復	-9.39978
右	-9.40284
諸菩薩	-9.40723
自體	-9.40738
岸	-9.40936
無別	-9.41102
三十二	-9.41129
說經	-9.41191
滅罪	-9.4148
憶	-9.41657
藉	-9.42038
或犯	-9.42238
有情	-9.42366
由此	-9.42423
如是我聞	-9.42524
累	-9.42592
所生	-9.42748
一月	-9.42805
仙	-9.43136
渴	-9.4314
田	-9.43221
破壞	-9.4326
不用	-9.43565
訖	-9.43576
觀世音	-9.43688
厨	-9.43793
象	-9.43796
養	-9.43799
太子	-9.43802
本無	-9.43815
涌	-9.43826
含	-9.43829
咽	-9.43841
資	-9.43846
道俗	-9.43856
阿難白佛言	-9.43867
序	-9.43883
角	-9.43887
彌	-9.4389
穢惡	-9.43897
水精	-9.43906
憙	-9.43915
虎	-9.43921
原	-9.43927
竭	-9.43933
越	-9.43938
毘	-9.43954
談	-9.43955
狼	-9.4396
一切諸佛	-9.43977
微塵	-9.44002
死入地獄	-9.44003
臂	-9.44004
漸漸	-9.44013
迴向	-9.44046
柱	-9.44054
吞	-9.44066
經典	-9.44083
勤	-9.44097
乖	-9.44098
猶如虛空	-9.44112
草木	-9.44137
當今人間	-9.44141
食噉	-9.44157
者今作	-9.44188
疾病	-9.44203
變化	-9.44205
力士	-9.44243
得正解脫	-9.44252
不飢	-9.44272
授與	-9.44278
流轉	-9.44287
不肯	-9.44334
長養	-9.44383
樹下	-9.44391
百日	-9.44392
而得	-9.44392
今世	-9.44444
辟支佛	-9.44456
神力	-9.44526
最上	-9.44573
天上	-9.44581
龍王	-9.44586
小乘	-9.44601
定光佛	-9.44731
食肉	-9.44732
發願	-9.44808
不盡	-9.44998
水火	-9.45007
惡世	-9.45064
得失	-9.45238
自身	-9.45376
於其	-9.45532
一切諸	-9.45736
海水	-9.45749
天名	-9.45755
而死	-9.46014
請問	-9.46138
萬法	-9.46167
不相	-9.46377
諸善男子	-9.46379
一劫	-9.46429
深法	-9.46496
無極	-9.46546
病死	-9.4661
南無淨	-9.46671
者何	-9.46718
正見	-9.468
無能	-9.46894
言說	-9.47148
聞經	-9.4715
應以	-9.47206
黃金	-9.47241
讀此經	-9.47489
或時	-9.47501
天神	-9.47578
大王	-9.48145
如人	-9.48166
不問	-9.48172
正明	-9.48409
則為	-9.48449
何得	-9.48625
或見	-9.48879
塔寺	-9.49005
是處	-9.49035
眾人	-9.49222
眾惡	-9.49443
劫中	-9.49628
品	-9.49639
有八	-9.50069
作如是	-9.5037
八者	-9.50539
是大	-9.5062
唱	-9.50627
護持	-9.50644
我以	-9.50653
大利益	-9.50659
故名為	-9.50959
避	-9.51086
與人	-9.51096
食之	-9.51274
無量菩薩	-9.51287
增長	-9.513
得入	-9.51842
命終	-9.51975
無垢	-9.52025
此等	-9.52157
正道	-9.52215
佛前	-9.5223
三事	-9.52238
空中	-9.52601
我身	-9.52729
無上道	-9.5275
下有	-9.52759
願佛	-9.52897
妙法	-9.52924
說此	-9.53024
不定	-9.53074
闡提	-9.53128
飢	-9.53163
比	-9.53271
三有	-9.53287
飲酒	-9.53343
堂	-9.53344
諸根	-9.53399
嚮	-9.53511
所求	-9.53531
飽	-9.53667
眾生身	-9.53675
鼓	-9.53692
能使	-9.53712
噉	-9.53728
穀	-9.53728
書	-9.53762
瑞	-9.53766
磨	-9.53771
道場	-9.53784
負	-9.53788
悅	-9.53793
幽	-9.53802
超	-9.53805
欺	-9.53808
十億	-9.53812
姓	-9.53828
天魔	-9.53858
剋	-9.53861
輩	-9.53872
無所畏	-9.53873
畢	-9.53873
泯	-9.53882
領	-9.53894
細	-9.53899
祕	-9.53914
調伏	-9.53922
若生人中	-9.53922
大地	-9.53938
電	-9.53938
箭	-9.53945
輒	-9.53947
留	-9.5395
勞	-9.5395
阿修羅	-9.5397
助	-9.53972
剛	-9.53991
閉	-9.53992
▁289	-9.54011
▁287	-9.54012
縱廣正等	-9.54017
【	-9.54022
脚	-9.54026
提	-9.54029
穴	-9.5403
三千大千世界	-9.54037
端政	-9.54038
斫	-9.54038
從坐而起	-9.54045
鑛	-9.54053
▁288	-9.54056
魅	-9.54063
發菩提心	-9.5407
宿命	-9.54087
富貴	-9.54093
山林	-9.54103
如說修行	-9.54113
白衣	-9.54122
勇	-9.54136
氷	-9.54143
上首	-9.54145
捨離	-9.5415
洗浴	-9.54155
十二月為	-9.54158
混融	-9.54166
維	-9.5417
傍	-9.54182
聽許	-9.54202
隔	-9.54205
導師	-9.54222
異口同音	-9.54226
天真菩薩摩訶薩	-9.54233
爭	-9.54238
頂禮佛足	-9.54251
罪人	-9.54262
安住	-9.54312
幻	-9.54322
妻子	-9.54376
犯戒	-9.54379
誹謗正法	-9.54384
一切道俗	-9.54389
無量大眾	-9.54449
皆由禮是	-9.54495
極樂	-9.54521
夢見	-9.54533
明了	-9.54558
及諸大眾	-9.5456
當敬禮	-9.546
俗人	-9.54614
短命	-9.54648
三業	-9.547
行人	-9.54707
三藏	-9.5471
度世	-9.54741
四毒	-9.54743
大小	-9.54799
事同	-9.54803
不自生	-9.54808
爾時復有	-9.5481
除罪	-9.54817
慈愍	-9.54842
大菩薩	-9.54846
分身	-9.54851
不現	-9.54874
無分別	-9.55142
殊勝	-9.55228
法輪	-9.55335
即是空	-9.55368
各有	-9.55517
若能如是	-9.55522
觀身	-9.55537
復問	-9.55545
不可稱	-9.55595
惡鬼	-9.55596
見者	-9.55671
山中	-9.55835
一切眾生皆	-9.5589
南無華	-9.55933
所由	-9.55996
作何	-9.56122
念念	-9.56212
能滅	-9.56228
非解脫	-9.56257
佛告文殊師利	-9.56345
現前	-9.5635
寶物	-9.564
見我	-9.56434
應如是	-9.56455
是吾	-9.56545
或在	-9.5664
為是	-9.56937
故則無	-9.57138
何處	-9.57163
以來	-9.57314
無過	-9.5751
常當	-9.57674
出生	-9.57852
之言	-9.58065
則是	-9.58243
作福	-9.58267
心相	-9.5833
無染	-9.58532
是時	-9.58645
寶塔	-9.58881
宣說	-9.58933
欲令	-9.58956
百萬	-9.59195
無性	-9.5926
分別解說	-9.5944
滅盡	-9.59449
今是	-9.59581
之故	-9.59849
為一切眾生	-9.59862
不說	-9.60124
取捨	-9.60261
若有人	-9.60289
三十二相	-9.60586
一種	-9.60614
處在	-9.60695
其有	-9.60781
法者	-9.60822
解說	-9.60853
能生	-9.60885
者皆	-9.60926
得生	-9.60927
剎	-9.61017
常處	-9.61059
藏菩薩	-9.61075
汝當諦聽	-9.61183
一子	-9.61275
有何	-9.61325
聞說	-9.61366
身體	-9.61393
而有	-9.61441
永無	-9.61488
法要	-9.61557
說是	-9.61746
縱廣	-9.6185
生天	-9.61967
已來	-9.62165
亦復	-9.6231
節	-9.62456
入於	-9.62674
能令	-9.62677
即以	-9.63079
不與	-9.63167
常行	-9.6319
王如來	-9.63252
恒沙	-9.63324
如其	-9.63579
威	-9.636
得佛	-9.63813
第七	-9.63817
教人	-9.63841
十六	-9.63911
不受	-9.63938
二十	-9.63939
不聞	-9.63954
令人	-9.63986
迦葉	-9.64059
鏡	-9.64321
不行	-9.64406
所謂	-9.64479
簡	-9.64542
礙	-9.64585
首羅問	-9.64591
善女人	-9.64644
奴婢	-9.64667
慎	-9.64696
帶	-9.64704
布	-9.6472
羝	-9.64735
充	-9.64744
鐵圍山	-9.64763
臭	-9.64817
慎莫	-9.64822
快	-9.64863
鳴	-9.64881
彰	-9.64888
湯	-9.64907
得達	-9.6491
群	-9.64913
兵	-9.64918
寶車	-9.6492
閻浮履地	-9.64931
略	-9.64941
薄	-9.64948
菓	-9.64957
載	-9.64969
保	-9.6497
悲田	-9.64973
機	-9.64977
侵	-9.64983
交	-9.64999
狀	-9.65006
妄想	-9.6501
推	-9.65011
續	-9.65023
弊	-9.65024
烟	-9.65027
猛	-9.65028
不捨	-9.65029
沈	-9.65033
炭	-9.65054
將軍	-9.65059
吐	-9.6506
奪	-9.65069
受其大	-9.65078
防	-9.65099
▁290	-9.65103
嘆	-9.6511
頓	-9.65125
清涼	-9.65127
摩訶	-9.65133
金銀	-9.65133
買	-9.65136
遮	-9.65139
慮	-9.65156
作是觀	-9.65166
作是念	-9.6518
小兒	-9.65182
懺	-9.65183
金剛照菩薩摩訶薩	-9.65188
敷演	-9.65196
禁戒	-9.65199
針	-9.65203
潤澤	-9.65219
猪	-9.65231
屍	-9.65237
雀	-9.65242
慳貪	-9.65276
所得	-9.6528
▁291	-9.65284
維摩	-9.65287
囑	-9.65289
昇	-9.65305
發露懺悔	-9.65308
謗方等	-9.65348
方便菩薩摩訶薩	-9.65349
不得停止	-9.65354
者死作	-9.6536
船	-9.65363
優婆夷	-9.65374
厚	-9.65383
二十億	-9.65389
梵音	-9.65405
而說偈言	-9.65409
流通	-9.65439
此者為難	-9.65478
日出時	-9.65495
謗毀	-9.65495
即從坐起	-9.65506
受記	-9.65517
安置	-9.65526
假使	-9.65536
發心	-9.65596
或有菩薩得	-9.65621
苦厄	-9.65653
觀世音菩薩	-9.65706
方廣經典	-9.65735
大臣	-9.65842
唯願如來	-9.65842
利益眾生	-9.65905
斷絕	-9.65988
不審	-9.65993
法中	-9.66005
明師	-9.66022
寶車菩薩	-9.6603
多少	-9.66077
受報	-9.66193
隨順	-9.66194
一切世界	-9.66307
不可以	-9.66364
說佛性	-9.66388
為汝	-9.66514
亦可	-9.6667
無礙菩薩	-9.66709
一歲	-9.66727
至於	-9.66739
名號	-9.66789
眾罪	-9.66846
同一	-9.66926
消除	-9.66933
顯為	-9.67042
為我	-9.67059
吾當為汝分別解	-9.67161
下至	-9.67173
身命	-9.67214
淨莊嚴	-9.67263
能除	-9.67338
眾多	-9.67427
慧菩薩	-9.67476
現世	-9.67506
自念	-9.67938
其子	-9.68075
而為	-9.68168
七者	-9.68236
法聚	-9.6859
離苦	-9.68647
常得	-9.68688
一日	-9.6874
而是	-9.68961
諦聽	-9.68966
所願	-9.69045
南無善	-9.69233
□□□□□□□□□□□	-9.6936
三日	-9.69543
信敬	-9.69645
一切皆	-9.69654
下生	-9.69735
皆從	-9.69785
不成	-9.69831
非有	-9.69843
四時	-9.69927
不除	-9.70058
聞此經	-9.70338
時有	-9.70407
徒	-9.70652
得值	-9.70744
皆當	-9.70847
為說法	-9.70913
行來	-9.70945
之後	-9.70971
王子	-9.71049
本雖	-9.71049
空無	-9.71106
病人	-9.71113
為諸大眾	-9.7124
說是經	-9.71243
大福	-9.71248
大道	-9.71263
不能得	-9.71882
不著	-9.71886
而起	-9.71904
何等	-9.71908
皆為	-9.72352
行菩薩	-9.72476
有十	-9.72485
信解	-9.72511
即從座起	-9.72844
不入	-9.72954
七百	-9.73135
修福	-9.73146
慚愧	-9.73194
無住	-9.73251
不壞	-9.73259
等也	-9.73734
為一	-9.73776
不斷	-9.7379
聞知	-9.73953
天子	-9.73957
身如	-9.73973
十方佛	-9.74017
聞者	-9.74125
身中	-9.74131
有無量	-9.74324
哀愍	-9.74419
山海慧菩薩	-9.74538
能知	-9.7457
即有	-9.7472
成佛道	-9.7475
修學	-9.74774
得免	-9.74819
一性	-9.74853
不失	-9.75268
授	-9.7538
常生	-9.75435
經卷	-9.7557
由如	-9.75608
惡事	-9.75727
垂	-9.75766
大法	-9.75788
聞如是	-9.75815
我見	-9.7585
六賊	-9.75906
聞是	-9.76009
紫	-9.76181
諸比丘	-9.76238
疑惑	-9.76298
泥	-9.76302
四種	-9.76441
令眾生	-9.76527
產	-9.76576
諸功德	-9.76602
若作	-9.76779
專	-9.7681
復不	-9.76846
品第	-9.76868
臍	-9.76935
思議	-9.77005
太	-9.77048
人之	-9.77115
丈	-9.77117
慳	-9.77141
所在	-9.77149
驚	-9.77173
眼不自見	-9.77187
專行	-9.7719
蘭	-9.77198
沙彌	-9.772
儞	-9.77237
八百萬	-9.77249
普賢	-9.7725
陀羅尼	-9.77265
勒	-9.77267
我於	-9.77276
吹	-9.77283
逼	-9.77283
在於	-9.77309
宮殿	-9.77352
憐愍	-9.77357
漢	-9.77387
五百世	-9.77405
昏	-9.77441
降	-9.77447
乳蜜	-9.77464
塗	-9.77464
暫	-9.77464
臨	-9.77473
申	-9.77483
三百三十六萬里	-9.77487
孝順	-9.77489
泥洹	-9.7749
默	-9.77505
私	-9.77506
表	-9.77513
決	-9.77516
射	-9.77533
繫縛	-9.77542
憍慢	-9.77552
蕩	-9.77555
偏	-9.77565
每	-9.7757
健	-9.77578
弄	-9.77583
靈	-9.77584
吉凶	-9.77587
臺	-9.77587
其中亦有	-9.77587
離有	-9.77589
三途	-9.77591
九者	-9.77591
諂曲	-9.77594
逐	-9.77596
穿	-9.77605
割	-9.77609
胡	-9.77611
充滿	-9.7762
弱	-9.77623
從空而	-9.77623
毀壞	-9.77626
波旬	-9.77627
瘡	-9.77627
賢聖	-9.77627
章	-9.7763
碎	-9.77633
行五戒十善加行	-9.77642
文殊	-9.77645
剎那	-9.77646
東西	-9.77647
下第二明	-9.77648
說是語	-9.77655
金剛密迹	-9.77662
溫	-9.77662
行五戒十善得生其中	-9.77685
風起吹水沫化為	-9.77685
願佛慈悲	-9.77689
曠野	-9.77693
脈	-9.77703
底	-9.77705
良由	-9.77708
飯	-9.77716
貢高	-9.77724
摧	-9.7773
喪	-9.77733
論言	-9.77736
灰	-9.77739
星宿	-9.77751
而能	-9.77754
聰明	-9.77754
怪	-9.7776
駕	-9.77766
龍種上尊王佛	-9.77779
尾	-9.77779
大通方廣	-9.77795
威力	-9.77799
在在處處	-9.77799
移	-9.77802
下賤	-9.77807
發露	-9.77808
純	-9.77811
奈	-9.77828
源	-9.77842
月光出世	-9.77851
苦哉	-9.77864
來詣佛所	-9.77867
放光	-9.77885
不得自在	-9.77886
鑒照菩薩摩訶薩	-9.77886
無數	-9.77887
塵勞	-9.77903
級	-9.77906
如此之人	-9.77919
六種震動	-9.77937
修習	-9.77938
還復	-9.77953
違順	-9.7797
應作是念	-9.77984
六波羅蜜	-9.77987
亦令	-9.77994
受大苦惱	-9.78036
餅	-9.78061
法相	-9.78114
南無須彌	-9.78146
飛行	-9.78198
無有窮	-9.78265
下第二	-9.7829
食肉者	-9.78298
愛樂	-9.78302
根本	-9.78353
後世	-9.78358
希有	-9.78391
略說	-9.78394
者即	-9.78406
我遣	-9.78504
今悉	-9.7854
妄生	-9.78541
南無月	-9.78547
破汝	-9.7855
尊王佛	-9.78566
六識	-9.78566
但有	-9.78589
大明	-9.78591
而便	-9.78629
慧法菩薩	-9.78644
能使人	-9.7867
將來	-9.78703
無行菩薩	-9.78781
隱為	-9.78817
分別說	-9.78844
如其一	-9.78861
或作人	-9.78866
成熟者	-9.78923
菩薩漏盡和	-9.78986
紫金	-9.79042
本來	-9.79223
流行	-9.79276
復有眾生	-9.79298
之子	-9.7933
摧伏	-9.79349
多聞	-9.79493
萬相	-9.79598
南無海	-9.79624
行善	-9.79665
明菩薩	-9.79753
經像	-9.79827
是故名為	-9.79873
何以	-9.79896
我若	-9.80021
及與	-9.80073
受樂	-9.80095
不得解脫	-9.8016
何者	-9.80274
一切煩惱	-9.80333
不在	-9.80447
大劫	-9.80524
即見	-9.80555
南無德	-9.80613
諸罪	-9.80691
四眾	-9.8074
隨所	-9.80833
法忍	-9.80907
不犯	-9.80975
必有	-9.80994
不染	-9.81038
不異	-9.81043
惡眾生	-9.81061
但以	-9.81094
見有	-9.81223
為有	-9.81324
五百歲	-9.81357
諸苦	-9.81366
人俱	-9.81376
佛母	-9.81567
九十	-9.81678
迦葉佛	-9.8191
何用	-9.81961
為他	-9.81995
得此	-9.82035
天真	-9.82059
十者	-9.8211
安樂	-9.82154
永離	-9.82165
教門	-9.82224
而言	-9.82248
即生	-9.82349
迫	-9.82363
不須	-9.8256
恐怖	-9.82574
作是	-9.82708
無窮	-9.82763
萬劫	-9.82858
勝佛	-9.83072
為諸	-9.83182
戶	-9.83201
汝若	-9.83308
此經者	-9.83467
佛像	-9.83892
爾時如來	-9.83935
無由	-9.84037
不安	-9.84047
正觀	-9.84132
之與	-9.84139
見此經	-9.84193
亦不見	-9.84419
之因	-9.8463
於後	-9.8466
彼此	-9.84739
病本	-9.84905
為大眾	-9.85615
見惡	-9.85966
六百	-9.85981
欲得	-9.86154
其地	-9.86214
所知	-9.86215
心心	-9.86329
免	-9.86396
其福	-9.86418
都無	-9.86576
此之	-9.86769
世尊如來	-9.86942
一身	-9.86969
不二	-9.86984
無始	-9.8701
自性	-9.87205
終無	-9.87278
不出	-9.87484
前後	-9.87528
此義	-9.87575
責	-9.88137
一名	-9.88219
南無大	-9.8828
自見	-9.88344
神王	-9.88368
問佛	-9.88469
不能解	-9.88526
畏	-9.88683
菩提道	-9.88775
自在佛	-9.88871
民	-9.889
悉得	-9.89135
此難	-9.89143
一時佛在	-9.89166
慈父	-9.89499
者云何	-9.8955
梵天	-9.89668
能迴	-9.89995
告諸大眾	-9.90224
是經者	-9.9036
黑闇	-9.9039
阿耨多羅三藐三菩提心	-9.90474
自下	-9.90612
明佛	-9.90823
身是	-9.90866
所為	-9.91035
聾	-9.91125
身則	-9.9123
葉	-9.91284
忘	-9.9132
文中初	-9.91426
真法	-9.9143
察	-9.91449
恣	-9.9145
敷	-9.91459
殿	-9.91496
槃	-9.91558
剝	-9.91579
咎	-9.91582
流布	-9.91584
封	-9.91589
切	-9.91596
持五戒	-9.9163
無所不	-9.91649
誓	-9.91661
四重	-9.9167
了了	-9.91685
可見	-9.91691
降伏	-9.91693
投	-9.91693
給	-9.91696
錢	-9.91719
醉	-9.9172
橋梁	-9.91721
伯	-9.91723
億千萬歲	-9.91727
皮	-9.91732
斗	-9.91753
早	-9.91756
殘	-9.91771
衛	-9.91776
冷	-9.91776
曲	-9.91779
罪畢	-9.91787
盈	-9.9179
乏	-9.9179
州	-9.91794
契	-9.91799
那由他	-9.918
盧	-9.91802
老病死	-9.91804
乾闥婆	-9.91805
更相	-9.91807
穢	-9.91813
降注	-9.91814
善能	-9.91825
前中初	-9.9183
痛哉	-9.91855
毒蛇	-9.91856
囚	-9.9186
獻	-9.91862
宿世	-9.91866
羊	-9.91867
符	-9.91868
階	-9.9187
蘇	-9.91875
適	-9.91879
崇	-9.9188
扶	-9.91884
卑	-9.91885
道士	-9.91888
四天王宮	-9.91889
軟	-9.91891
繫閉	-9.91892
不生不滅	-9.91892
枝葉	-9.91892
多寶佛	-9.919
戲	-9.919
除無量劫以來	-9.9191
朗	-9.91912
基	-9.91912
揚	-9.91915
怒	-9.9192
壁	-9.91924
怨家	-9.91926
勇猛	-9.91927
謝	-9.91929
違背	-9.9193
頌	-9.9193
皆大歡喜	-9.91934
皆來集會	-9.91937
術	-9.91939
無生無滅	-9.91941
得是五	-9.91941
亦復歸命	-9.91942
擬	-9.91945
綵	-9.91946
求法	-9.91951
式	-9.91951
隣	-9.91952
昭文館學士	-9.91953
腰	-9.91956
貌	-9.91958
顯示	-9.91959
掌	-9.91962
或取人家	-9.91962
麻	-9.91962
毛孔	-9.91972
來世	-9.91975
堅固	-9.91986
天龍夜叉	-9.91986
附	-9.91989
百歲	-9.91996
天龍八部	-9.91998
埿	-9.92001
纏	-9.92001
勉	-9.92016
當知此人	-9.92017
寂靜	-9.92018
迭相	-9.9202
若有入人	-9.9202
默然	-9.92027
隨文取義	-9.92027
乍	-9.92027
盧舍那	-9.92031
廣宣流布	-9.92035
朝	-9.92037
諸大菩薩摩訶薩	-9.92046
詐	-9.92046
辟	-9.92048
百千萬分	-9.92048
算	-9.92055
遂便	-9.92061
忌	-9.92061
返	-9.92064
抄	-9.92082
如上所說	-9.92085
如此人輩	-9.92087
銷融	-9.92089
鎮	-9.92091
於我	-9.92094
傾	-9.92099
殺害	-9.92105
闍	-9.92106
天中即現	-9.9211
佛告智度菩薩摩訶薩	-9.92114
我觀如來	-9.92117
比丘比丘尼優婆塞優婆夷	-9.92117
緣起	-9.9212
不惜身命	-9.92128
入般涅槃	-9.9213
通達	-9.92149
八十億	-9.92155
歡喜奉行	-9.92169
親近	-9.92171
今身喜	-9.92173
如我所說	-9.92181
要須	-9.92183
教我	-9.92185
如佛所說	-9.92188
狂	-9.92197
瓦	-9.92198
飢渴	-9.92198
其人命終	-9.922
染著	-9.92215
阿者言	-9.92215
諸惡苾芻	-9.92218
所生之處	-9.92219
若人聞是	-9.9223
讀經	-9.92231
汝等今者	-9.92233
乘六牙白象	-9.92237
困厄	-9.9224
清信女	-9.92252
貪著	-9.92255
頭陀	-9.92258
佛告無行菩薩	-9.92271
是故今日	-9.92273
」「	-9.92274
貪求	-9.92278
形質	-9.9229
如法	-9.92298
菩提樹	-9.92301
無自性	-9.92312
蟻子	-9.92323
救濟	-9.9235
真善知識	-9.92352
佛告虛空藏菩薩言	-9.92353
普光莊嚴菩薩	-9.92359
十方世界	-9.9236
集會	-9.92365
四天下	-9.92368
唱言	-9.9238
不懈	-9.9241
無量天人	-9.92421
號曰	-9.92439
是經能與眾生	-9.92488
七遍	-9.92562
普賢行	-9.92605
造罪	-9.92636
更莫	-9.92642
斷除	-9.92645
千年	-9.92666
得授記	-9.92691
教化眾生	-9.92695
不退	-9.92707
自守	-9.92725
陀羅尼菩薩	-9.92727
莫問	-9.9276
尊重	-9.92765
我滅度後	-9.92776
師長	-9.92849
滅我法	-9.92874
我獨	-9.92935
聖眾	-9.92981
妄見	-9.93006
見之	-9.93054
得無生法忍	-9.93057
為度眾生	-9.93058
悉皆消滅	-9.93146
設有	-9.93158
聞深法	-9.93185
以偈	-9.932
善聽	-9.93231
離煩惱	-9.93241
自知	-9.93305
光相	-9.93408
事云何	-9.93516
得無	-9.93603
去來	-9.93655
無量劫	-9.93656
之日	-9.93671
萬善	-9.93671
無厭	-9.93685
大火	-9.93692
三品	-9.93696
得脫	-9.9378
好惡	-9.93812
云何五	-9.93828
首佛	-9.93884
亦未	-9.93933
作惡	-9.93948
體解	-9.9401
已後	-9.94069
不過	-9.94113
說其	-9.94118
上方	-9.94154
但當	-9.94169
明呪	-9.94249
得人身	-9.94255
體性	-9.94263
是則	-9.94292
病苦	-9.94293
便得	-9.94296
常為	-9.94304
人所	-9.94319
為諸眾生	-9.9433
教令	-9.94393
白言	-9.94419
之間	-9.94441
見人	-9.94507
聽法	-9.94508
一年	-9.94535
無量諸佛	-9.9457
上至	-9.94599
萬行	-9.94665
住處	-9.94668
有實	-9.94682
五種	-9.94735
諸塵	-9.94743
亦是	-9.94751
佛告大眾	-9.94926
無量眾生	-9.94932
為母	-9.94936
大德	-9.95029
聖人	-9.9506
而住	-9.95074
汝應	-9.95092
即現	-9.95148
一體	-9.95157
明王	-9.95254
次第	-9.95267
汝今諦聽	-9.95385
大智	-9.9542
生彼	-9.95514
性相	-9.9556
所須	-9.95591
於大乘	-9.95608
證之	-9.95619
道德	-9.95673
速疾	-9.95693
得阿羅漢	-9.95892
出入	-9.95982
解了	-9.96039
住心	-9.96053
比丘比丘尼	-9.9606
得見佛	-9.96083
遊行	-9.96185
以是	-9.9631
口中	-9.96356
千世界	-9.96405
依止	-9.96493
一切眾	-9.96497
如汝所	-9.96529
即起	-9.96619
有瑞應	-9.96706
達摩	-9.96707
非非	-9.96717
不別	-9.96814
彼岸	-9.96894
為初	-9.96925
其意	-9.96976
即知	-9.97157
如何	-9.97184
往昔	-9.97305
離於	-9.97334
既無	-9.97391
寶光明	-9.97521
而求	-9.97558
於心	-9.97573
淺	-9.97729
出時	-9.97755
摩尼	-9.97758
實法	-9.97792
三尊	-9.97836
為難	-9.97843
世間人	-9.97851
心念	-9.97953
經教	-9.98142
之鬼	-9.98166
何為	-9.98275
信之	-9.98348
南無常	-9.98404
而復	-9.98437
三名	-9.9855
從何	-9.9862
無自體	-9.98725
化之	-9.98763
當時	-9.9884
有二種	-9.98931
偈明	-9.99009
爾時佛告	-9.99449
共佛	-9.99526
出世間	-9.99609
住於	-9.99697
不了	-9.99818
十五日	-10.0006
得除滅	-10.0007
度人	-10.0015
懃修	-10.0031
凡人	-10.0045
法喜	-10.0047
能斷	-10.0069
得成佛	-10.008
造立	-10.0082
甘露	-10.0089
所行	-10.0092
觀佛	-10.0092
作諸	-10.0106
門戶	-10.0114
相好	-10.012
除疑	-10.015
叉	-10.0151
若得	-10.0162
彼人	-10.0163
妙藥	-10.019
不有	-10.0192
當觀	-10.0215
以何	-10.0216
學者	-10.022
若此	-10.0246
吾當	-10.027
八邪	-10.0275
若當	-10.0275
可得見	-10.0283
吾今為汝	-10.0286
名之	-10.0302
三人	-10.0306
諸佛名	-10.0314
無行	-10.0315
令我	-10.0344
或是	-10.0349
兄	-10.0364
皆令	-10.0387
恃	-10.0399
大慈大悲	-10.0408
淨土	-10.042
善人	-10.0431
滅度	-10.0431
便生	-10.044
不樂	-10.0443
漏	-10.0453
二年	-10.0463
善心	-10.0466
自得	-10.048
覩見	-10.0492
八千	-10.0529
行世間	-10.0535
大水	-10.0541
淨心	-10.0553
莫不	-10.0556
非常	-10.0579
人能	-10.0582
得作佛	-10.0589
自說	-10.0604
此心	-10.0623
心垢	-10.0624
唯有一	-10.0642
我法	-10.0649
演說	-10.065
若於	-10.0661
所問	-10.0691
仁	-10.0691
解脫用	-10.0703
時至	-10.071
如是說	-10.071
法師	-10.071
人得	-10.0717
無著	-10.0731
如虛空	-10.0735
真人	-10.0747
無體	-10.0766
水中	-10.0768
療	-10.0771
滅度後	-10.0777
是我	-10.078
倒	-10.0782
甚多	-10.0782
偽	-10.0783
遙	-10.0786
分明	-10.0787
吾當為汝分別	-10.079
之徒	-10.0796
為眾	-10.0803
良藥	-10.0806
眉	-10.0806
洞	-10.0808
孝	-10.0813
囉	-10.0815
懈	-10.0815
啼哭	-10.0817
甘	-10.0821
枝	-10.0821
枚	-10.0821
旦	-10.0822
雜毒	-10.0825
日光	-10.0825
光明照	-10.0828
性體空	-10.0828
嗔	-10.0829
抱	-10.083
胎	-10.083
覓	-10.0833
號為	-10.0833
齒	-10.0834
諂	-10.0834
悉談婆也	-10.0835
虎狼	-10.0835
以是之故	-10.0835
麴	-10.0836
身口意	-10.0837
縣官	-10.0838
妖邪	-10.0838
前中復	-10.0838
白骨	-10.0838
山海慧	-10.0838
恚	-10.0839
約	-10.0839
質	-10.0839
奇	-10.084
濕	-10.084
固	-10.0841
畔	-10.0841
渾	-10.0841
驢	-10.0842
夢見自身	-10.0842
困	-10.0842
醜	-10.0842
結跏趺坐	-10.0843
妨	-10.0843
為我解說	-10.0843
茲	-10.0843
塚	-10.0844
所請	-10.0844
萬物	-10.0845
嬈	-10.0845
伺	-10.0846
糞	-10.0846
懸	-10.0846
南無龍	-10.0846
養育	-10.0846
冠	-10.0847
繼結	-10.0847
浴	-10.0849
據	-10.0849
厄	-10.0849
局	-10.085
弓	-10.085
受諸苦惱	-10.085
涕	-10.085
倉	-10.0851
獸	-10.0851
泉	-10.0852
唐	-10.0852
歡	-10.0852
暗	-10.0852
頗梨	-10.0852
滋	-10.0852
全	-10.0853
8	-10.0853
皆是普賢菩薩	-10.0854
殯	-10.0854
吉	-10.0854
端坐	-10.0854
納	-10.0855
狩	-10.0855
長跪叉手	-10.0856
一切眾生身內	-10.0856
八十種好	-10.0856
祇	-10.0856
五十三佛	-10.0857
三毒箭	-10.0857
博	-10.0857
常樂我淨	-10.0858
焉	-10.0858
繼縛	-10.0858
接	-10.0858
改換	-10.0858
決疑	-10.0858
熾盛	-10.0858
舉高	-10.0858
『	-10.0859
最為第一	-10.0859
』	-10.086
煩	-10.086
召	-10.086
但看	-10.0861
作禮而去	-10.0861
四部弟子	-10.0861
0	-10.0862
詳定奉勅	-10.0862
饒益	-10.0862
沸	-10.0863
柔軟	-10.0863
崖	-10.0863
9	-10.0863
啄	-10.0863
翻	-10.0863
南北	-10.0864
堪	-10.0864
殃禍	-10.0864
折	-10.0864
熾然	-10.0864
趣向	-10.0865
6	-10.0865
混	-10.0865
嚙	-10.0865
付囑	-10.0865
一升	-10.0865
甚大吉利	-10.0866
床	-10.0866
市	-10.0866
整理衣服	-10.0866
曠劫	-10.0866
藥王菩薩	-10.0867
善逝	-10.0867
智度菩薩摩訶薩	-10.0868
我等徒眾	-10.0868
望欲令	-10.0868
侍	-10.0868
武	-10.0868
檀越	-10.0869
惜	-10.0869
周匝	-10.087
左右	-10.087
光觸	-10.087
5	-10.0871
弟	-10.0871
歷劫	-10.0872
或復一時讚歎	-10.0872
設復有人	-10.0872
講	-10.0873
讀此經三遍	-10.0873
三萬	-10.0873
2	-10.0874
大覺世尊	-10.0874
車馬	-10.0874
瓶	-10.0875
膝	-10.0875
阿閦	-10.0875
毀損	-10.0875
覆藏	-10.0875
枷鎖	-10.0876
輕賤	-10.0876
以是義故	-10.0876
汝向所問	-10.0876
夜半	-10.0876
三匝	-10.0876
窟	-10.0877
所有言說	-10.0877
五濁惡世	-10.0877
未得	-10.0878
一百二十	-10.0879
搗	-10.088
更無別	-10.088
精舍	-10.088
天龍	-10.0881
以偈讚	-10.0881
牆	-10.0881
財寶	-10.0881
歡喜踊躍	-10.0882
不墮地獄苦	-10.0882
善見王	-10.0882
尊者問	-10.0882
敬信	-10.0883
云何而言	-10.0883
奉事	-10.0883
此女人	-10.0883
過去世	-10.0884
三千大千世界六種震動	-10.0884
浮圖	-10.0885
族	-10.0885
往詣	-10.0885
身長二	-10.0885
正士	-10.0885
語阿難	-10.0886
墮落	-10.0886
貧賤	-10.0888
方有佛名	-10.0888
顯現	-10.0888
齎	-10.0888
我等眷屬	-10.0889
種種無盡	-10.0889
勢力	-10.089
信相菩薩	-10.089
故論言	-10.0891
發大乘心	-10.0891
生時	-10.0893
四大五陰	-10.0893
發問	-10.0894
處處皆	-10.0894
還入	-10.0895
為佛作禮	-10.0899
淨潔	-10.09
六趣	-10.0901
何須	-10.0901
文字即解脫用	-10.0902
多羅	-10.0904
甚可	-10.0904
誦經	-10.0905
宜應	-10.0906
欲界	-10.0906
道邊	-10.0907
是經亦如大	-10.0909
容受	-10.0911
六國	-10.0911
除一闡提	-10.0912
智惠	-10.0912
未悟	-10.0912
一心苦行	-10.0913
隱在	-10.0915
眾苦	-10.0915
受五戒	-10.0915
滅沒	-10.0916
作禮	-10.0917
外而無	-10.0917
飲酒食肉	-10.0918
消供養	-10.0918
四諦	-10.092
八禁	-10.092
豈非	-10.092
出世時	-10.0921
光照	-10.0921
□□□□□□□□□□□□□□□□	-10.0921
往來	-10.0922
還歸	-10.0923
其妻	-10.0923
六塵	-10.0925
七十二	-10.0926
與說	-10.0926
無量阿僧祇佛	-10.0928
剃除鬚髮	-10.0928
十惡五逆	-10.093
無所不為	-10.093
百鬼	-10.093
受持此經	-10.0931
諸最勝	-10.0931
第一義	-10.0932
教戒	-10.0932
福報	-10.0933
肉眼	-10.0933
平正	-10.0936
閻浮提人	-10.0936
得須陀洹	-10.0937
佛語阿難	-10.0937
我於此劫	-10.0938
生死涅槃	-10.0938
佛告虛空藏菩薩	-10.0939
答曰	-10.0939
高下	-10.0939
欲入涅槃	-10.094
妙香	-10.0941
愚人	-10.0942
聞是語	-10.0943
將至	-10.0946
讀持是經	-10.0949
師子吼菩薩	-10.0949
其人功德	-10.095
發起	-10.0952
四面	-10.096
無比	-10.096
復有五	-10.0963
捨命	-10.0963
舉身	-10.0969
一句	-10.0971
寶池	-10.0973
魔王	-10.0977
一清淨	-10.098
徒眾	-10.098
誰為	-10.0984
想念	-10.0985
足下	-10.0991
天女	-10.0991
天堂	-10.0998
心心念	-10.0998
空即是	-10.1013
已度	-10.1014
莫令	-10.1016
惡口	-10.1018
令還	-10.1031
修理	-10.1032
歸伏	-10.1033
乃可	-10.1038
學道	-10.1038
久長	-10.104
我聞	-10.1041
先當	-10.1045
其夫	-10.1045
四果	-10.1047
化作	-10.1048
外求	-10.1049
出家人	-10.1067
自覺	-10.1078
滿中	-10.1078
悉能	-10.1085
不敬	-10.1086
聞已	-10.1088
菩薩行	-10.109
人相	-10.1092
修治	-10.1096
為父	-10.1098
其形	-10.1106
見此	-10.1108
諸有情	-10.1108
真實法	-10.1118
苦事	-10.1123
轉讀	-10.1131
亦應	-10.1132
是實	-10.1137
女身	-10.1142
具說	-10.1153
直心	-10.1154
大自在	-10.1162
為家	-10.1169
大罪	-10.1173
失心	-10.1177
此三	-10.1179
諸行者	-10.1179
二十八	-10.1181
相隨	-10.1182
縱令	-10.1184
少分	-10.119
雖得	-10.1194
蒙佛	-10.1196
在地	-10.1203
因此	-10.1205
是邪	-10.1207
劫名	-10.1207
無量佛	-10.1209
即不得	-10.121
道教	-10.121
如太山	-10.1213
中虫	-10.1216
願悉得	-10.122
信順	-10.1221
生於	-10.1226
向人	-10.1241
普遍	-10.1241
服之	-10.1248
南無山	-10.1254
魔外道	-10.1257
自滅	-10.1275
地動	-10.128
十四者	-10.1283
即是法	-10.1285
大師	-10.13
地中	-10.1304
當與	-10.131
亦當讀	-10.1314
諸天人	-10.1317
解脫者	-10.1327
出已	-10.1333
又復	-10.134
皆以	-10.1342
普淨	-10.1346
汝能	-10.1347
出三界	-10.1355
即問	-10.1368
兄弟	-10.1382
入地獄	-10.1383
佛告山海慧	-10.1389
故即是	-10.1389
有五	-10.1389
聞是經	-10.1394
乃是	-10.1395
者喻如	-10.1403
我本	-10.1411
福業	-10.1418
正身	-10.1421
賢者	-10.1429
已上	-10.1432
三千人	-10.1433
善業	-10.1435
欲作	-10.1436
一分	-10.1441
語言	-10.1445
金山	-10.1457
此大眾	-10.1457
不及	-10.146
從此	-10.1461
塵不染	-10.147
爾乃得	-10.1477
若心	-10.1494
死墮鐵	-10.1506
愛之	-10.1507
若有善男子	-10.1513
色相	-10.1518
觀行	-10.1534
於空中	-10.1538
恩愛	-10.1552
見已	-10.1553
二名	-10.1559
遍滿	-10.1566
二十五	-10.1569
乃能	-10.1573
欲度	-10.1586
於世	-10.1593
念心	-10.1598
不利	-10.1601
還得	-10.1609
二見	-10.162
能壞	-10.1634
覺者	-10.1645
問之	-10.1652
六神	-10.1662
下第三	-10.1668
南無無量	-10.167
作善	-10.1671
不可具	-10.1673
一千	-10.1685
毀謗	-10.1696
莫作	-10.173
百年	-10.1736
不使	-10.1739
惡法	-10.1752
向者	-10.1761
而作	-10.1769
為因	-10.1802
未曾有	-10.1813
亦復不	-10.1814
非時	-10.1825
同歸	-10.1835
有罪	-10.1837
佛告諸	-10.184
身故	-10.1861
涅槃時	-10.1906
諸世間	-10.1906
不施	-10.1915
自生	-10.1921
意菩薩	-10.1929
女言	-10.1931
地獄第十	-10.1941
登王	-10.1966
為汝宣說	-10.197
天雨	-10.1979
有形	-10.1986
歸真	-10.1994
而此	-10.2012
我常	-10.2013
今復	-10.2022
空者	-10.2077
無諍	-10.2079
聞佛	-10.2095
惺悟	-10.2095
相行	-10.211
諸人	-10.212
齋戒	-10.2126
盡諸	-10.2145
立名	-10.216
色界	-10.2169
變成	-10.2186
無人	-10.221
是義	-10.2216
值佛	-10.224
令出	-10.2244
在其	-10.2247
施與	-10.2255
或殺	-10.227
八種	-10.2283
曾聞	-10.2302
隨人	-10.2321
寶衣	-10.2323
悉令	-10.2325
三千	-10.2334
日夜	-10.2349
復倍	-10.2352
香臭	-10.2376
同行	-10.2378
人皆	-10.2383
實無	-10.2402
清淨處	-10.2404
無願	-10.2431
心淨	-10.2439
永不	-10.2445
觀此	-10.2447
假使有人	-10.2448
終時	-10.2449
行惡	-10.2453
如本	-10.247
恭	-10.2472
第十	-10.2472
自責	-10.2483
如幻	-10.2485
如來世尊	-10.249
功德山	-10.253
聖道	-10.2546
於涅槃	-10.2559
悲號	-10.2561
金剛三昧	-10.2568
至佛	-10.2575
南無法	-10.2578
世人	-10.2583
塔廟	-10.261
南無妙	-10.2617
佛世尊	-10.2617
墮惡道	-10.2624
地上與	-10.263
若善男子	-10.2638
二萬	-10.2639
劍樹	-10.2645
此經典者	-10.2646
為體	-10.2651
眾病	-10.2651
一生	-10.2659
審	-10.2674
銀	-10.2676
四千	-10.2679
思量	-10.2692
成欲	-10.2705
若離身心	-10.2707
悲心	-10.2714
愁	-10.2717
無生法忍	-10.2722
萬萬	-10.2753
慈母	-10.2758
一面	-10.2762
汝等諦聽	-10.2763
聚集	-10.2769
真金	-10.277
此二	-10.2773
起立	-10.2777
死人	-10.2782
燃燈	-10.2788
或為	-10.2788
於如來	-10.2792
師云	-10.2792
本來無所動	-10.2794
敢	-10.2797
迎	-10.2805
非母不	-10.2807
百千萬億	-10.2814
牟尼佛	-10.2816
一食	-10.2817
罔	-10.2819
虛空藏菩薩	-10.282
崩	-10.282
玉	-10.282
犬	-10.2821
支	-10.2823
吼	-10.2824
靈真	-10.2825
滑	-10.2825
埋	-10.2826
秦	-10.2827
鷄	-10.2829
房	-10.2829
哭	-10.2829
貪瞋癡	-10.2829
啼	-10.283
野	-10.283
憐	-10.2831
惟	-10.2831
赫	-10.2832
莎訶	-10.2833
十二部	-10.2833
忿	-10.2833
釜	-10.2833
嗚呼	-10.2834
薩婆	-10.2834
箜	-10.2835
憍尸迦	-10.2835
耗	-10.2836
三種	-10.2836
歸命	-10.2836
誠	-10.2837
夜叉羅剎	-10.2838
訶	-10.2838
春	-10.2838
狗入舍則	-10.2838
鐵圍	-10.284
腸	-10.284
靡	-10.2841
天龍鬼神	-10.2841
墜	-10.2841
偷	-10.2841
鷹	-10.2842
麁	-10.2842
焰	-10.2843
惠方便	-10.2844
奢	-10.2844
建	-10.2844
枉	-10.2844
叵	-10.2845
牛羊	-10.2845
震	-10.2846
媚	-10.2846
丘	-10.2846
曠	-10.2846
嫉	-10.2847
貞	-10.2847
7	-10.2847
阿難白佛	-10.2847
疲	-10.2848
瞻仰	-10.2848
怨憎	-10.2848
賜	-10.2848
賈	-10.2849
粟	-10.2849
鹿	-10.2849
柔	-10.2849
烈	-10.2849
言得之	-10.2849
五十歲	-10.285
雞	-10.285
摩訶般若波羅蜜	-10.285
姦	-10.285
竹	-10.285
伎樂	-10.2851
非色非	-10.2851
虛凝	-10.2851
沈溺	-10.2851
涼	-10.2851
殯葬之	-10.2851
冬	-10.2851
濡	-10.2852
寬	-10.2852
連	-10.2852
緊那羅	-10.2852
行此行	-10.2853
魚鱉	-10.2853
列	-10.2854
輔	-10.2854
憎嫉	-10.2854
三歸五戒	-10.2854
殊別	-10.2854
參	-10.2855
浴池	-10.2855
淚	-10.2855
笑	-10.2855
承佛威神	-10.2855
驗	-10.2856
苾芻及苾芻尼	-10.2856
點	-10.2856
鈴	-10.2856
祿	-10.2856
梁	-10.2856
營	-10.2856
胸	-10.2856
是我弟子	-10.2857
3	-10.2857
4	-10.2857
一心諦聽	-10.2857
妬	-10.2857
擾	-10.2858
忘失	-10.2858
愍念	-10.2858
永除	-10.2858
嬰	-10.2858
攬	-10.2859
善友功能	-10.2859
髻	-10.2859
以此類之	-10.286
喪失	-10.286
辯才	-10.286
擁	-10.286
夫婦	-10.2861
心定	-10.2861
懊惱	-10.2861
娑羅雙樹間	-10.2861
截	-10.2861
篤	-10.2861
閑居	-10.2861
穢濁	-10.2861
六百七十二	-10.2861
休	-10.2861
騰	-10.2862
錄	-10.2862
皆悉聞知	-10.2862
戀	-10.2862
鮮	-10.2863
停	-10.2863
杵	-10.2864
羅網	-10.2864
百六十八	-10.2864
圍	-10.2864
三十六	-10.2864
猪狗	-10.2864
暉	-10.2864
紙	-10.2865
昌	-10.2865
臭穢	-10.2865
七佛名字	-10.2865
悶絕	-10.2865
作佛形像世世	-10.2865
泣	-10.2866
運載汝等	-10.2866
八十四	-10.2866
以是故名佛	-10.2866
坐臥	-10.2866
增上慢	-10.2867
慈氏	-10.2867
效	-10.2867
佛滅後	-10.2867
那含	-10.2867
出家在家	-10.2867
脣	-10.2867
▁286	-10.2867
〔	-10.2867
燃	-10.2868
承佛神力	-10.2868
皇	-10.2868
訕謗	-10.2868
塚間	-10.2868
神符	-10.2868
如水中月	-10.2869
更無餘	-10.2869
四道果	-10.2869
繩	-10.287
=	-10.287
爛	-10.287
此三種人	-10.287
策	-10.287
從地獄出	-10.287
汝等大眾	-10.2871
驚怖	-10.2871
任縱	-10.2871
雖在	-10.2871
煮	-10.2871
獲益	-10.2871
功德復多	-10.2871
殷勤	-10.2872
錯用	-10.2872
不可量	-10.2872
親近善知識	-10.2872
悲泣	-10.2872
懃苦	-10.2873
暮	-10.2873
閉目	-10.2873
成正覺	-10.2873
食肉之人	-10.2873
所逼	-10.2874
五丈	-10.2874
青黃赤白	-10.2874
鼓擊	-10.2874
顧	-10.2874
恐懼	-10.2874
延壽菩薩	-10.2875
無量壽佛	-10.2875
五穀	-10.2876
縣	-10.2876
獄卒	-10.2877
我於往昔	-10.2877
吒	-10.2877
譏	-10.2877
迦樓羅	-10.2877
飢餓	-10.2878
星主	-10.2878
住一劫	-10.2878
九百萬	-10.2878
緣諸境	-10.2879
太極	-10.2879
洪	-10.2879
快問是義	-10.2879
貪財	-10.288
如來應供正遍知	-10.288
雅	-10.288
八陽經	-10.288
行欲之法	-10.2882
南無妙色	-10.2882
勸近	-10.2883
空無所有	-10.2884
闕	-10.2884
瘂	-10.2884
某	-10.2884
遍敬菩薩摩訶薩	-10.2884
三惡道	-10.2884
地水火風	-10.2885
鼻者言	-10.2886
得未曾有	-10.2886
坊	-10.2886
持淨戒	-10.2887
涸	-10.2888
給與	-10.2888
諦觀	-10.2888
常以	-10.2888
爐	-10.2888
除愈	-10.2888
城邑聚落	-10.2888
五百萬世	-10.2888
或復一時	-10.2888
惠施	-10.2889
戰	-10.289
作微塵	-10.289
隨機	-10.289
造惡業	-10.289
自下第二	-10.289
於我滅後	-10.2891
百千萬倍	-10.2891
嫌	-10.2892
無障礙	-10.2892
世諦	-10.2894
合為一	-10.2894
孔	-10.2894
以不淨手	-10.2895
日月燈明	-10.2895
足指	-10.2896
作留難	-10.2897
行五戒十善加行四禪小增得生其中	-10.2897
娑婆世界	-10.2897
弓刀	-10.2898
阿鼻	-10.2898
無所不作	-10.2898
墮餓鬼中	-10.2899
已訖	-10.2899
漢言	-10.2899
疑心	-10.29
其婦	-10.29
寶勝佛	-10.2901
光澤	-10.2902
遍十方	-10.2902
無量慚愧	-10.2902
婬欲	-10.2902
十二因緣	-10.2902
七寶莊嚴	-10.2903
名者	-10.2903
野狐	-10.2904
我若廣說	-10.2904
四禪	-10.2906
諸波羅蜜	-10.2907
意而	-10.2907
會說法	-10.291
防護	-10.291
我諸弟子	-10.2911
作是語者	-10.2911
指授	-10.2912
布施貧窮孤老	-10.2913
功力	-10.2913
眾生見之	-10.2914
如是之人等亦不	-10.2914
謗是經故	-10.2915
手足	-10.2916
耳目	-10.2918
難量	-10.2918
南無寶月	-10.2919
橫死	-10.292
開通	-10.2922
無法	-10.2922
寂然	-10.2922
若說	-10.2923
菩提樹下	-10.2924
飲水	-10.2925
或現	-10.2928
若其	-10.293
行五戒十善加行一	-10.293
從無始已來	-10.293
如空中	-10.2931
心生歡喜	-10.2931
真際	-10.2933
久住	-10.2934
不畏	-10.2936
爾時眾中	-10.294
此鬼神	-10.294
百歲於	-10.294
一毫	-10.294
三月	-10.2942
或見如來	-10.2943
師僧	-10.2945
世尊說	-10.2947
集在	-10.295
葉佛	-10.295
魅人	-10.2952
妄起	-10.2952
風起	-10.2954
離垢	-10.2956
上士	-10.2956
是佛名	-10.2956
不忘	-10.2958
持齋	-10.2959
必當	-10.2961
德本	-10.2962
不食肉者	-10.2966
香火	-10.2969
除去	-10.297
解脫門	-10.2971
空王如來	-10.2972
故能	-10.2973
邪正	-10.2973
清淨莊嚴	-10.2976
聖教	-10.2976
良以	-10.2977
聽受	-10.2977
誦此經	-10.2978
一切諸眾生	-10.298
出沒	-10.2983
復告	-10.2988
不渴	-10.2991
為一切	-10.2991
熱鐵	-10.2994
真照	-10.2995
覺知	-10.3002
在何處	-10.3003
得聞此經	-10.3004
合成	-10.3005
八解脫	-10.3006
信施	-10.3006
今身作	-10.3008
不可言	-10.3008
即得解脫	-10.3009
妙樂	-10.3013
小子	-10.3014
寶藏	-10.3018
明珠	-10.3019
藥上	-10.3023
三稱	-10.3024
不還	-10.3025
將欲	-10.3026
自在力	-10.3028
有如是等	-10.3036
生處	-10.3039
至涅槃	-10.3041
流水	-10.3042
己身	-10.3044
大慈悲	-10.3044
著淨	-10.3045
外緣	-10.3048
此土	-10.3049
人思得	-10.305
不可說	-10.3051
其名曰	-10.3051
事事	-10.3054
一切佛	-10.3055
雨大	-10.3058
自活	-10.3061
禮佛	-10.3064
無漏	-10.3068
無畏	-10.307
受種種	-10.3072
眾邪蠱毒	-10.3073
以自	-10.3073
八百	-10.3073
南無師子	-10.3077
吾經	-10.3082
力故	-10.3083
人壽	-10.3084
樂著	-10.3085
者眾	-10.3088
未知	-10.3094
未聞	-10.3105
世尊云何	-10.3107
信邪	-10.3111
實如聖教	-10.3112
不可計	-10.3112
日日	-10.3115
出地獄	-10.3118
演	-10.3126
存心	-10.3128
其所	-10.3129
發阿耨多羅三藐三菩提心	-10.3129
大乘經	-10.3148
雖有	-10.3148
於一切	-10.315
十一者	-10.315
即於	-10.3159
在前	-10.316
之由	-10.3162
令彼	-10.3162
四門	-10.3164
大藏	-10.3164
吾當為汝	-10.3165
緣生	-10.3169
慈念	-10.3174
違於	-10.3181
南無日月	-10.3185
知見	-10.3187
所不能	-10.3188
而去	-10.319
來至	-10.3192
空理	-10.3192
令使	-10.3193
方所	-10.3195
無量功德	-10.3195
化眾生	-10.32
皆共	-10.3201
其唯	-10.3206
道理	-10.3209
僧中	-10.3212
者作	-10.3217
南無金剛	-10.3225
則名	-10.3225
百二十	-10.3226
此皆	-10.3227
心亂	-10.3228
善解	-10.323
不恭敬	-10.3232
六道	-10.3235
皆因	-10.3241
一切有情	-10.3241
將我	-10.3243
善神	-10.3244
教法	-10.3252
亦難	-10.3255
利眾生	-10.3256
我愛	-10.3257
天眾	-10.3259
不退轉	-10.326
是不	-10.3264
常修	-10.3267
金剛藏	-10.327
五色	-10.3273
城中	-10.3284
不解我意	-10.3289
藏中	-10.329
得生天	-10.3298
如來所說	-10.3312
誦之	-10.3313
天神王	-10.3321
聽之	-10.3326
處天	-10.3333
為弟子	-10.3341
事故	-10.3342
受戒	-10.3362
常念	-10.3364
諸見	-10.3365
四億	-10.3368
為人所	-10.3371
難得	-10.3376
來下	-10.3378
欲聞	-10.3385
時節	-10.3386
後生	-10.3402
人形	-10.3403
說經法	-10.3406
即成	-10.3431
則生	-10.3432
諸邪見	-10.3433
明如來	-10.3436
十八地獄	-10.344
世間眾生	-10.3445
長生	-10.3447
是不可	-10.3447
云何名	-10.3451
不以為	-10.3451
大好	-10.3452
自至	-10.3462
生信心	-10.3466
此呪	-10.3473
復欲	-10.3484
即用	-10.3487
滅門	-10.3487
須彌山南	-10.3487
亦不得	-10.3489
十五者	-10.3496
不濟	-10.3503
色界天	-10.3514
四道	-10.3522
諸業	-10.3536
如海	-10.3543
死生	-10.3564
一如	-10.3566
佛在世	-10.3577
如實	-10.3577
何人	-10.3595
今時	-10.3597
味相	-10.3604
此則	-10.3608
手捉	-10.3614
不時	-10.3621
教以	-10.3628
上生	-10.3629
度一切	-10.3631
大力	-10.3643
等覺	-10.3651
修諸	-10.3659
多饒	-10.3664
十佛	-10.3671
山頂	-10.3685
罪報	-10.3686
南無普光	-10.3704
起行	-10.3751
萬佛	-10.3756
解無	-10.3776
得住	-10.3783
亦見	-10.3783
正說	-10.3784
一切眾生若	-10.38
獲得	-10.3806
願所	-10.3809
月光菩薩	-10.3847
我心	-10.3848
身為	-10.3849
常使	-10.385
在心	-10.3857
何因緣	-10.3859
南無光	-10.3866
得活	-10.3879
彼佛	-10.388
百佛	-10.3889
大願	-10.39
與諸	-10.39
之上	-10.392
若起	-10.393
世尊欲重宣此義	-10.3933
眼中	-10.3942
受大	-10.3943
彼國	-10.3945
獲福	-10.3947
此名	-10.3949
功德故	-10.3951
心常	-10.3957
法力	-10.3973
難可得	-10.3995
南無普	-10.4
知之	-10.4015
若離	-10.4017
說此法	-10.4018
若是	-10.4023
能破	-10.403
復見	-10.4031
異同	-10.4031
斷善根	-10.4066
是世間	-10.4079
我欲	-10.4082
欲知	-10.4095
千五百	-10.4101
善住	-10.4102
生此	-10.4103
法雨	-10.4158
念之	-10.4181
佛智	-10.4192
迷惑	-10.4222
二俱	-10.4239
法而	-10.4239
俱空	-10.4242
生天上	-10.4255
佛子	-10.4269
滅也	-10.4281
動地	-10.4294
難可	-10.4299
以彼	-10.4306
八億	-10.4307
有如	-10.4309
來去	-10.4328
悔過	-10.4341
饒	-10.435
願我	-10.4351
肉者	-10.4368
慈力	-10.4415
至梵天	-10.4416
能救	-10.4422
長跪	-10.443
作惡業	-10.4434
供養三寶	-10.4512
竟無	-10.4517
與之	-10.4522
依理	-10.4525
更有	-10.4527
內有	-10.4573
少欲	-10.4583
見彌勒	-10.4599
慧命	-10.4613
必得	-10.4616
死亡	-10.4619
不絕	-10.4624
悟解	-10.4643
見菩薩	-10.4645
而以	-10.4652
能得	-10.4664
雖未	-10.4668
奉法	-10.4672
相菩薩	-10.4686
所聞	-10.4688
諸惡比丘	-10.4693
語寶車	-10.4693
實非	-10.4697
為汝說	-10.4715
彌勒佛	-10.4732
頂上	-10.4737
此呪者	-10.474
生身	-10.4762
止不	-10.4771
於一切眾生	-10.4772
謬	-10.4796
此中	-10.4801
常施	-10.4836
我是	-10.4842
不食	-10.4864
神明	-10.4873
慧方便	-10.4873
一切世間	-10.4897
今說	-10.4904
無上法	-10.4906
得本心	-10.4924
十恒河沙菩薩	-10.4939
僧寶	-10.4943
所住	-10.4969
有我	-10.4972
鞞	-10.4985
無以	-10.4992
千人	-10.5002
六萬	-10.5008
常見	-10.502
會中	-10.5034
不持	-10.5038
嚴菩薩	-10.5057
間無	-10.5065
之業	-10.5066
正是	-10.5069
歌舞	-10.5086
昔日	-10.5104
種樹	-10.5126
無非	-10.5127
經一卷	-10.5128
剎土	-10.514
真如	-10.5143
善說	-10.5143
不動地	-10.5149
無有疑	-10.515
一大城	-10.5165
解之	-10.5171
往生	-10.5185
師教	-10.5195
阿耨多羅三藐三菩提	-10.5201
常施菩薩	-10.5204
此三人	-10.5206
墮於	-10.5215
長大	-10.5215
毫	-10.5228
炬	-10.5243
差別	-10.5244
辟支	-10.5245
憂苦	-10.5252
希有之	-10.5253
其父	-10.5266
刀山	-10.5276
十三者	-10.5282
波羅蜜	-10.5285
惡夢	-10.5286
心意緣慮	-10.5286
匝	-10.5286
鑊湯	-10.5288
燈明	-10.5291
五百世中	-10.5295
友	-10.5297
低頭	-10.53
權	-10.5301
條	-10.5302
狗得死	-10.5302
幾	-10.5303
借	-10.5304
哉	-10.5305
刀兵	-10.5311
谷	-10.5311
暢	-10.5311
心相續	-10.5311
豆	-10.5312
梨	-10.5313
馳	-10.5314
入人舍	-10.5314
首羅比丘	-10.5315
復無	-10.5315
案	-10.5317
舒	-10.5317
坑	-10.5318
育	-10.5319
付	-10.5319
本師釋迦牟尼佛	-10.5319
總持	-10.5319
珍	-10.5321
蔟	-10.5321
告常施菩薩	-10.5322
延	-10.5323
把	-10.5323
無量阿僧祇	-10.5324
飾	-10.5326
糧食	-10.5327
天中天	-10.5328
辰	-10.5328
遊戲	-10.5329
不肖	-10.5329
飡	-10.5329
柳	-10.5329
覆蓋	-10.533
振動	-10.5331
送	-10.5331
蒸	-10.5331
啞	-10.5331
典	-10.5331
庶	-10.5331
辱	-10.5332
額	-10.5332
漿	-10.5332
占	-10.5332
屬諸因緣	-10.5332
憎	-10.5333
躍	-10.5333
歡欣	-10.5333
竊	-10.5333
鬪諍	-10.5333
○	-10.5333
醫	-10.5334
欝	-10.5334
麗	-10.5335
迦難羅比丘	-10.5336
受持三歸五戒	-10.5336
掃	-10.5336
默念	-10.5336
飲食衣服	-10.5336
決罪福經	-10.5336
為我宣說	-10.5337
踊	-10.5337
翳	-10.5338
憍	-10.5338
輪迴六趣	-10.5338
洛	-10.5338
修持十善	-10.5339
三十二瑞應	-10.5339
太陽真極	-10.5339
因緣幻起	-10.5339
厄難	-10.534
雪	-10.534
卒	-10.534
百千萬	-10.534
商	-10.534
寄	-10.534
日月五星二十八宿	-10.534
笛	-10.534
稱揚	-10.5341
轉輪聖王	-10.5341
顏	-10.5341
如海令	-10.5341
曉	-10.5342
陰陽	-10.5342
從本已來	-10.5342
壬	-10.5342
內著心中	-10.5342
軸	-10.5342
縱廣高下	-10.5342
迹	-10.5342
嶮	-10.5342
棘	-10.5342
修梵行	-10.5342
孫	-10.5342
勢	-10.5343
億像	-10.5343
黨	-10.5343
一芥子	-10.5343
澄	-10.5343
耕田	-10.5343
干	-10.5344
支節	-10.5345
消息	-10.5345
擔	-10.5345
遇善知識	-10.5345
亭	-10.5345
爾時佛告除疑大士	-10.5345
佛果	-10.5346
古	-10.5346
諍論	-10.5346
內外推求	-10.5346
次一偈明	-10.5346
斬截	-10.5346
統	-10.5346
灌	-10.5346
譯	-10.5347
般若波羅蜜	-10.5347
稽	-10.5347
貫	-10.5347
熊	-10.5347
寅	-10.5347
后	-10.5348
生一男	-10.5348
愚夫	-10.5348
恨	-10.5348
劣	-10.5348
盜賊	-10.5349
善友功力	-10.5349
心是無為	-10.5349
盡未來劫	-10.5349
瞻	-10.5349
棄捨	-10.5349
換	-10.5349
增減	-10.535
符之後	-10.535
󰝟	-10.535
延年益壽	-10.535
卵	-10.535
唯願世尊為我解說	-10.5351
履	-10.5351
踊躍	-10.5351
為名利故	-10.5351
調適	-10.5351
夷	-10.5351
束	-10.5351
上半正明	-10.5351
無有能知受持此經之人功德	-10.5351
貪嗔癡	-10.5351
藥叉	-10.5352
聰	-10.5352
祖	-10.5352
復過此劫	-10.5352
憑	-10.5352
絲	-10.5353
沒溺	-10.5353
無等等	-10.5353
雖是凡夫	-10.5353
誦五十遍	-10.5353
勇猛菩薩摩訶薩	-10.5353
霜	-10.5353
陀羅尼神呪	-10.5353
良田	-10.5354
大地震動	-10.5354
以偈歎	-10.5354
嗔恚	-10.5354
觀眾生相	-10.5355
慶	-10.5355
黠	-10.5355
一一毛孔	-10.5355
天王名毘	-10.5355
消伏	-10.5355
雜類	-10.5355
互相	-10.5356
敵	-10.5356
樓秦佛	-10.5356
行五戒十善四禪	-10.5356
罰	-10.5356
打罵	-10.5356
臥具	-10.5356
油	-10.5357
觀察	-10.5357
居士	-10.5357
悟正菩薩摩訶薩	-10.5357
智度論	-10.5357
鸚	-10.5357
浩	-10.5357
而殖	-10.5357
吸	-10.5358
竝	-10.5358
昨	-10.5358
非諸聲聞緣覺	-10.5358
自今以後	-10.5358
荒	-10.5358
九十遍	-10.5358
逮	-10.5358
人面似地形	-10.5358
得受供養	-10.5358
投陀	-10.5358
皆由恭敬禮十方三世佛	-10.5358
曇	-10.5359
為生子	-10.5359
呵	-10.5359
眠	-10.5359
城郭	-10.536
凡夫身中具有八	-10.536
憧	-10.536
詮	-10.536
萬民	-10.536
1	-10.536
優	-10.536
翻此八	-10.536
􄞢	-10.536
刺	-10.5361
焚燒	-10.5361
諸天宮殿	-10.5361
今身作師	-10.5361
囓	-10.5361
頂戴	-10.5361
熾	-10.5361
一生補處	-10.5361
爾時眾中有一菩薩	-10.5362
猶亦不如有人能斷酒肉	-10.5362
𠥱	-10.5362
總結	-10.5362
黿	-10.5362
符厭	-10.5362
繼業	-10.5362
ィ	-10.5362
國王亦主	-10.5362
阿那含	-10.5362
本來無	-10.5362
累劫	-10.5363
同聲白佛言	-10.5363
十地菩薩	-10.5363
豪	-10.5363
一千同號	-10.5363
標	-10.5363
火車地獄	-10.5363
隸	-10.5363
正宗	-10.5363
尸羅	-10.5364
東西南北	-10.5364
唯願慈尊	-10.5364
寫却	-10.5364
金棺	-10.5364
只	-10.5365
屍陀林	-10.5365
飲酒醉亂	-10.5365
丹	-10.5365
亦復然	-10.5365
無慧目	-10.5365
非定有	-10.5365
叫	-10.5366
得往生	-10.5366
象馬	-10.5366
餌	-10.5366
伊	-10.5366
零	-10.5366
㪷	-10.5367
一句一偈	-10.5367
誡	-10.5367
迷闇	-10.5367
廁	-10.5367
南無光明	-10.5367
以此證知	-10.5367
愈	-10.5367
乾闥婆阿修羅	-10.5367
湛然	-10.5367
薛	-10.5368
調御	-10.5368
醒	-10.5368
姿	-10.5368
滿阿鼻城	-10.5368
〕-【	-10.5368
造新	-10.5368
偷盜	-10.5369
劍	-10.5369
上火徹下	-10.5369
成等正覺	-10.5369
兩舌	-10.5369
燋爛	-10.5369
光音天	-10.5369
命終生天	-10.5369
戾	-10.5369
為眾生說法	-10.5369
身口意業	-10.5369
下火徹上	-10.537
議	-10.537
若干	-10.537
無數劫	-10.537
侵損	-10.537
娑婆	-10.537
建立	-10.5371
屏處	-10.5371
或取人	-10.5371
佛告混融菩薩摩訶薩	-10.5371
姊	-10.5371
迦葉波	-10.5371
南無佛陀	-10.5372
書寫讀誦	-10.5372
舍衛國	-10.5372
郡	-10.5372
背正	-10.5372
心中憶念普賢菩薩	-10.5372
往返	-10.5372
千是萬非	-10.5372
衣裳	-10.5372
禽獸	-10.5372
千二百	-10.5373
幻化	-10.5373
群盲	-10.5373
嗜	-10.5373
不如有人一發善心	-10.5373
魍魎	-10.5373
真珠	-10.5373
守戒	-10.5374
▁切	-10.5374
冥識菩薩摩訶薩	-10.5374
眼所見	-10.5374
千尺	-10.5374
殃咎	-10.5374
永沈苦海	-10.5374
橋	-10.5374
一切明呪	-10.5375
此三厨法	-10.5375
苾芻苾芻尼	-10.5375
五分法身	-10.5375
陸地名	-10.5375
《	-10.5375
》	-10.5375
南無栴檀	-10.5375
尊貴	-10.5375
引喻	-10.5375
地獄中治罪	-10.5375
波羅提木叉	-10.5376
涉	-10.5376
奔	-10.5376
竪	-10.5376
貪瞋	-10.5377
精氣	-10.5377
校量	-10.5377
天上人中	-10.5377
苗	-10.5377
豁然意解	-10.5377
修多羅	-10.5377
睡眠	-10.5377
比校	-10.5378
佛說是經時	-10.5378
來食魅人	-10.5378
噓	-10.5378
焚	-10.5378
諸有智	-10.5378
流傳	-10.5378
或見此處	-10.5378
六齋	-10.5379
乞食	-10.5379
塵垢	-10.5379
普照十方	-10.5379
轉法輪	-10.5379
神仙	-10.538
一切眾生皆有佛性	-10.538
淵	-10.538
誑惑	-10.538
值善知識	-10.538
蟲	-10.538
罷	-10.5381
根塵	-10.5381
叫喚	-10.5381
才	-10.5381
屈	-10.5381
摩尼幢	-10.5381
謂呼	-10.5382
影現	-10.5382
龍神八部	-10.5382
專精	-10.5382
奴	-10.5382
結縛	-10.5383
要期	-10.5383
流布此經	-10.5384
丈夫	-10.5384
寶相佛言	-10.5384
怕	-10.5384
若人因禮拜	-10.5384
猛火	-10.5384
一切眾生身是	-10.5385
圍遶	-10.5385
迷悶	-10.5385
殿前	-10.5385
香象	-10.5385
燋	-10.5386
磨滅	-10.5386
百里	-10.5386
蒙光	-10.5387
誓願	-10.5387
法律	-10.5387
住於世	-10.5387
最清淨	-10.5388
汝於來世	-10.5388
爪	-10.5388
下劣	-10.5388
水行天子樹音天子	-10.5388
師子遊戲	-10.5389
影嚮	-10.5389
俠	-10.5389
毛髮	-10.539
散花	-10.539
煎	-10.539
號哭	-10.539
天人師	-10.539
牛頭	-10.539
沽	-10.539
懷慚愧	-10.5392
食肉者墮	-10.5392
散亂	-10.5392
行五戒十善四禪具	-10.5392
復以此經	-10.5392
於未來世	-10.5392
阿闍世王	-10.5393
頭破作七分如阿梨樹枝	-10.5394
血肉	-10.5394
心生重悔	-10.5394
南無那羅延	-10.5394
墮畜生	-10.5395
我於爾時	-10.5395
忽然至	-10.5395
作是語已	-10.5395
之頃	-10.5395
爾時世尊告諸大眾	-10.5395
軀	-10.5395
八部大眾	-10.5396
長短	-10.5396
作如是問	-10.5397
世俗	-10.5397
慧命法身	-10.5397
得阿那含道	-10.5398
唯除菩薩	-10.5398
那羅	-10.5398
悲啼	-10.5398
十方三世諸佛	-10.5398
八萬劫中	-10.5399
弱水	-10.54
一枚	-10.5401
競起	-10.5401
不自名	-10.5401
是如如說	-10.5401
心無形	-10.5402
捻	-10.5403
若有智者	-10.5403
譬如有人依	-10.5403
無覺	-10.5403
無道	-10.5403
於彼岸	-10.5403
聲聞弟子	-10.5403
跡	-10.5403
定墮地獄	-10.5404
佛剎微塵數同號	-10.5405
飛空	-10.5405
得幾	-10.5405
小弱	-10.5406
願除無量劫以來	-10.5406
譬如一人	-10.5407
來聽法	-10.5407
簡擇	-10.5407
斷壞	-10.5408
周圍	-10.5409
何故今日	-10.541
僧尼	-10.541
彌覆	-10.5411
命終之後	-10.5411
兩目	-10.5411
耳聽	-10.5411
大哭	-10.5411
藏識	-10.5411
諸鬼神	-10.5412
寶珠	-10.5412
滿月	-10.5412
諸鬼神王	-10.5412
常處於	-10.5412
拔苦	-10.5412
本際	-10.5413
當何名此經	-10.5413
得斯陀含	-10.5413
千鐵圍山高至第	-10.5413
於其中間	-10.5414
我等或從無量劫來	-10.5414
有物	-10.5414
無邊身菩薩	-10.5415
自恣	-10.5415
墮大地獄	-10.5416
善知識者亦復如是	-10.5416
一心奉行	-10.5416
千歲	-10.5416
值遇	-10.5417
謗方等經	-10.5417
大菩薩眾	-10.5417
至心受持	-10.5417
為我說之	-10.5418
知汝姓	-10.5419
端正	-10.5419
南無離垢	-10.5419
神變	-10.5419
佛法僧	-10.5419
當得作佛	-10.5419
福德可	-10.5419
還家	-10.542
不閑	-10.542
食魅人	-10.542
寶幢	-10.5421
六親	-10.5422
爾時山海慧菩薩	-10.5422
說其意	-10.5423
無量阿僧祇劫	-10.5423
樓觀	-10.5424
二萬億同號	-10.5425
出於世	-10.5426
額上	-10.5426
圓教	-10.5428
諸穢惡	-10.5428
妙花	-10.5428
所有善根	-10.5428
世尊大慈悲	-10.5428
發慈心	-10.5429
定光如來	-10.5431
深廣	-10.5432
無作解脫	-10.5432
初云	-10.5432
利物	-10.5432
若有女人	-10.5433
行菩薩道	-10.5433
初首	-10.5434
田作	-10.5435
金師	-10.5436
僧藏	-10.5436
誰能	-10.5436
除却	-10.5437
西國	-10.5437
從繼業	-10.5437
執持	-10.5438
獨行布施	-10.5438
引導	-10.5439
七千佛	-10.5439
腹中	-10.5441
來集	-10.5442
無有能知	-10.5442
從緣生	-10.5442
汝等菩提	-10.5443
十二入	-10.5444
證菩提	-10.5445
中品	-10.5446
護三寶	-10.5446
水災	-10.5449
其印	-10.5449
妙華	-10.5449
受持經人	-10.5452
無有一念	-10.5453
別教	-10.5453
止住	-10.5453
並悉	-10.5454
執著	-10.5455
施主	-10.5455
寫此經	-10.5455
境智	-10.5455
汝所問者	-10.5456
造過	-10.5457
太山崩	-10.546
垢淨	-10.5461
發善心	-10.5462
授我	-10.5462
誑或	-10.5464
三災	-10.5464
即不可說	-10.5466
即滅	-10.5466
於俗	-10.5469
種種方便	-10.5469
大魔	-10.5469
無量無邊眾生	-10.547
本覺	-10.5471
汝等離	-10.5472
動轉	-10.5473
用寂	-10.5473
乃自然	-10.5475
緣動	-10.5476
有三種	-10.5477
人身命	-10.5478
頂受	-10.5478
眼目	-10.5478
熱惱	-10.5479
甚善	-10.5479
主一切	-10.5479
倒見	-10.548
利他	-10.548
者在所	-10.5482
證信	-10.5482
八種人	-10.5484
寶明菩薩	-10.5485
二諦	-10.5486
長壽	-10.5488
天衣	-10.5488
等法性	-10.5489
從座	-10.5492
今得聞	-10.5492
義味	-10.5492
同流	-10.5493
一心好	-10.5493
空無相	-10.5496
大國王	-10.5496
無色界	-10.55
色像	-10.5504
二十四天	-10.5508
不飲酒	-10.551
去離	-10.551
不思議	-10.551
廣明	-10.5511
諸徒眾	-10.5511
是故汝等	-10.5514
汝之所	-10.5515
無有異	-10.5515
六通	-10.5517
貪欲	-10.5518
無量世界	-10.552
愛欲	-10.552
同異	-10.5523
三障	-10.5524
苦海	-10.5525
大富	-10.5526
其志	-10.5527
十七者	-10.5528
等諸法	-10.5528
音樂	-10.5531
富者	-10.5532
邊作	-10.5533
恒在	-10.5535
南無百億	-10.5535
遍觀	-10.5536
不令他	-10.5539
所有功德	-10.5539
自致	-10.5539
必作	-10.5542
八識	-10.5542
舉手	-10.5545
皆發	-10.5546
及善知識	-10.5548
勝王佛	-10.5548
無愧	-10.5548
清淨信	-10.5548
分別名為	-10.555
始從	-10.555
應化	-10.555
無疑	-10.5551
行此法	-10.5553
世尊所說	-10.5557
求福	-10.5558
護念	-10.5561
寶莊嚴	-10.5562
與我同	-10.5563
正信	-10.5563
法句	-10.5564
復告常施菩薩	-10.5565
爾時大眾	-10.5566
慈仁	-10.5567
大河	-10.5569
南無無上	-10.5571
如鏡中	-10.5573
所護	-10.5574
結願	-10.5576
此經名為	-10.558
不熱	-10.558
復有無量	-10.558
不傳	-10.5582
莫知	-10.5585
遠來	-10.5587
不免	-10.5587
信樂	-10.5592
於惡世	-10.5593
自裁	-10.5597
中宮	-10.5601
地大	-10.5604
同前	-10.5605
性命	-10.5607
滅除	-10.5612
語已	-10.5613
修觀	-10.5614
教命	-10.5615
如似	-10.5617
得知	-10.5618
不調	-10.5619
受持經	-10.5621
東南	-10.5624
佛現在	-10.5626
如是不可思議	-10.5628
真理	-10.563
其福甚	-10.5633
謂為	-10.5636
為他所	-10.564
為首	-10.5643
重病	-10.5643
雖與	-10.5644
深入	-10.5645
黑闇地獄	-10.5645
千萬劫	-10.5646
使汝	-10.5648
解義	-10.5649
布施者	-10.565
於其中	-10.565
觀智	-10.5651
佛說經	-10.5651
皆各	-10.5655
爾時世尊告	-10.5657
若人以	-10.5658
性力	-10.5661
不虛	-10.5669
此印便	-10.5672
即不生	-10.5672
思見	-10.5676
未來眾生	-10.5676
悔心	-10.5679
非斷	-10.5683
過惡	-10.5683
各自	-10.5685
現在諸佛	-10.5685
汝問	-10.5686
與此	-10.5687
以是因緣故	-10.5688
皆自然	-10.569
於一切法	-10.5692
其母	-10.5693
最為	-10.5694
遂成	-10.5695
眾生佛性	-10.5695
說涅槃	-10.5701
意識	-10.5703
八萬四千徒眾	-10.5704
及所	-10.5705
天名梵	-10.5706
夢中	-10.5707
神性	-10.5709
更觀	-10.5709
唯見	-10.571
心王菩薩	-10.571
如來藏	-10.5712
如是種種	-10.5715
如幻如	-10.5715
處生死	-10.5717
是何	-10.5718
大海水	-10.5721
亡失財	-10.5723
吾見	-10.5726
食子	-10.5729
法衣	-10.573
猶如一	-10.573
業所	-10.5731
飲之	-10.5732
皆一心	-10.5733
六欲	-10.5738
汝等眾生	-10.5739
受持是經者	-10.574
師所	-10.5741
一實	-10.5743
譬如有人身	-10.5743
所造	-10.5745
手菩薩	-10.5748
見無量佛	-10.5753
大弟子	-10.5755
勸人	-10.5761
善果	-10.5762
山下	-10.5764
永斷	-10.5765
取用	-10.5765
大精進	-10.5768
此地獄	-10.577
僧物	-10.5773
淨食	-10.5778
不可度量	-10.5778
其數	-10.5781
者死墮	-10.5783
於地	-10.5786
欲滅	-10.5786
唯是	-10.5789
於諸眾生	-10.5789
無對	-10.5793
善師	-10.5793
無餘	-10.5797
有九	-10.5807
吾當為汝說	-10.5808
告諸	-10.5812
為害	-10.5814
色力	-10.5815
文相	-10.5815
苦樂	-10.5817
若欲求	-10.5819
受教	-10.5824
有漏	-10.5827
念處	-10.5838
能消	-10.584
未能	-10.5848
法王菩薩	-10.5849
值我	-10.5856
能報	-10.5859
餘緣	-10.587
不止	-10.5874
重禁	-10.5878
惡處	-10.5882
是魔	-10.5887
其口	-10.5892
一遍	-10.5896
所持	-10.5896
護法	-10.5901
不散	-10.5901
淨天	-10.5902
所解	-10.5903
音菩薩	-10.5903
明知	-10.5906
或欲	-10.5911
何謂	-10.5928
悉知	-10.5934
具相	-10.5947
生離	-10.595
不可不	-10.5951
入定	-10.5952
非實	-10.5954
今者	-10.5958
乃有	-10.596
除其	-10.5962
大涅槃	-10.5967
生誹謗	-10.5969
彼時	-10.5974
其實	-10.5974
人貴	-10.5977
空相	-10.5984
普照一切	-10.5989
人前	-10.6003
無量音	-10.6004
則不能	-10.6006
歸家	-10.6015
爾乃	-10.6033
心無心	-10.6042
深淺	-10.6043
千遍	-10.6043
在下	-10.6044
至十	-10.6045
無想	-10.6046
大城	-10.6053
聽食肉	-10.6061
願皆	-10.6062
利人	-10.6064
聖心	-10.6074
之過	-10.6075
常起	-10.6085
其一一	-10.6088
現生	-10.609
決定說	-10.6104
常明	-10.6108
皆獲	-10.6118
現身	-10.612
二十九	-10.6137
則非	-10.6139
不會	-10.6147
又如	-10.615
入已	-10.615
貧人	-10.6159
諸女	-10.616
相應	-10.6161
即病	-10.6166
恒為	-10.6174
必為	-10.6199
不住心	-10.6207
無戒	-10.6217
化為	-10.6219
作食	-10.6233
使我	-10.624
諸國土	-10.6241
一石	-10.6241
有數	-10.6247
彌勒菩薩	-10.6258
謂之	-10.6258
爾時彌勒	-10.6261
何者是	-10.6262
修行菩提	-10.6264
眾邪	-10.6265
立其	-10.6269
▁爾時	-10.6269
無形	-10.6286
大乘人	-10.6288
自高	-10.6292
無根	-10.6299
上來	-10.6305
無主	-10.6318
之形	-10.6318
無生滅	-10.6321
不寫	-10.6324
如是願	-10.6325
唯佛	-10.6331
如大地	-10.6339
是佛法	-10.6344
十方諸	-10.6346
緣是	-10.6373
身天	-10.6375
得惺悟	-10.6379
以後	-10.6386
持齋戒	-10.6389
言語	-10.6394
本是	-10.6398
三世諸佛所	-10.6401
本心	-10.6403
隨我	-10.6428
不可見	-10.6435
不蒙	-10.6438
之內	-10.644
萬倍	-10.6441
殺父母	-10.6445
南無功德	-10.6464
聞佛說	-10.6465
由有	-10.6468
在會	-10.6476
正覺	-10.6476
坐者	-10.6483
如前	-10.6487
本空	-10.6501
此身	-10.6508
色身	-10.6509
是經中	-10.6513
惡身	-10.6523
所犯	-10.6558
禮拜供養	-10.6559
云何可	-10.6559
即入	-10.6571
須彌山王	-10.6582
土地	-10.6583
及此	-10.659
有十八	-10.6616
是正	-10.6631
非虛	-10.6638
之方	-10.6642
二十七	-10.6657
至道	-10.6664
破煩惱	-10.6666
雖不	-10.6678
百年後	-10.67
了無	-10.6726
以方便	-10.6736
法施	-10.674
若名字	-10.6757
外有	-10.6778
十方各有	-10.6804
住在	-10.6817
鎧仗	-10.6824
從意	-10.6851
學人	-10.6869
無所依	-10.6873
說法度	-10.688
中害	-10.6888
眼菩薩	-10.6906
其上	-10.6909
相牽	-10.6911
十萬	-10.6922
謗法	-10.693
云何有	-10.6957
出離	-10.6986
日光明	-10.6994
得菩提	-10.6995
雲集	-10.701
又觀	-10.7015
未來世	-10.702
二十四	-10.702
非他	-10.7029
以水	-10.7036
性理	-10.7116
獲大	-10.7128
法軌	-10.713
破其	-10.7134
謗正法	-10.7156
南無明	-10.7156
一根	-10.7156
樹王	-10.7157
是菩薩行	-10.7158
為己	-10.7182
性常淨	-10.7201
若與	-10.7228
捨身命	-10.7234
其光	-10.7241
經云	-10.7256
悉是	-10.7259
生歡喜	-10.7271
諸尊	-10.7276
敬三寶	-10.7291
寂照	-10.7332
是諸比丘	-10.7346
是聲	-10.7352
山神	-10.7388
寶華	-10.7394
手摩	-10.7409
并諸	-10.7424
諸煩惱	-10.7436
若求	-10.7445
眾生未有	-10.7456
瑞應	-10.7503
功德無量無邊不可思議	-10.7526
貪佛	-10.7527
文中有	-10.7537
其功德	-10.7543
百味	-10.7545
與道	-10.7552
其理	-10.7556
比丘僧	-10.7562
擲	-10.7573
拔刀	-10.7599
著地	-10.7607
眾會	-10.7615
汝所問	-10.7638
自稱	-10.7642
方便說	-10.7643
會當	-10.7646
日闇	-10.7664
到彼	-10.7673
敢發問	-10.7695
釋梵	-10.7732
阿彌陀國	-10.7744
救度眾生	-10.7745
金光明	-10.7757
本緣	-10.7763
求出世	-10.7763
珠光	-10.7765
臍中	-10.7768
常使不	-10.7783
八風	-10.7791
名字空	-10.7797
若有比丘	-10.7844
專求	-10.7848
於此經中	-10.7849
念往昔	-10.7868
從無量	-10.7871
億歲	-10.7888
太山	-10.789
魔事	-10.7895
實不可	-10.7898
違名	-10.7937
入諸	-10.7966
是大士	-10.7972
兜率	-10.7977
無憂	-10.798
來侵	-10.8005
來歸	-10.8007
理教	-10.8027
七珍	-10.8034
我語者	-10.8046
畜	-10.8062
英	-10.8069
退轉	-10.8086
手把	-10.8088
修集	-10.809
敬是經	-10.8091
有垢	-10.8099
自在王如來	-10.8106
以自性	-10.8126
十指	-10.8131
四十萬	-10.8138
却坐	-10.8141
有八萬四千	-10.8157
苦報	-10.8179
除疑大士	-10.819
惡趣	-10.8195
則無有	-10.8201
阿彌陀	-10.8207
寶樹	-10.8209
願世尊	-10.8234
觀世	-10.8253
心心不	-10.8306
得見我	-10.8313
發聲	-10.8318
第九	-10.832
復有八萬四千	-10.8333
乃成	-10.8341
觀實諦	-10.8354
善女人等	-10.8355
測	-10.8362
是三歸	-10.8389
若遇	-10.8411
廣長	-10.8411
無上正真	-10.8424
無礙智	-10.8428
此無上	-10.8433
南來	-10.8439
所囑	-10.8502
於諸法	-10.8503
阿僧祇	-10.8535
潔	-10.8537
度量	-10.8561
所得功德	-10.8562
斷諸	-10.8565
告言	-10.8565
十九者	-10.8572
涌出	-10.8573
如夢	-10.8575
閑	-10.8576
盲聾	-10.8585
為人喜	-10.8587
泡	-10.8597
献	-10.8599
日日禮	-10.8602
四維	-10.8612
依因父母如	-10.8615
云何可報	-10.8619
沈淪苦海	-10.8621
癩	-10.8623
投海	-10.8623
辛	-10.8623
代	-10.8625
虛空藏菩薩摩訶薩	-10.8625
豆留	-10.8625
成萬斛	-10.8627
數千萬歲	-10.8629
鉢受成萬斛	-10.8629
即於佛前	-10.8631
怛	-10.8631
琴	-10.8634
說呪曰	-10.8635
延壽	-10.8637
斤	-10.8638
貸	-10.8638
建福	-10.8639
何以然者	-10.864
妄生追	-10.8641
妾	-10.8642
夏	-10.8644
當來之世	-10.8646
欝金	-10.8646
婢	-10.8648
竈	-10.8648
十六者世世	-10.8649
追	-10.8649
譽	-10.865
瓮	-10.865
拍	-10.865
疏	-10.865
厨神名	-10.865
擇	-10.8651
天中尊	-10.8652
又生人間	-10.8652
慈孝	-10.8653
時長者子即	-10.8653
之為實	-10.8654
輸	-10.8654
五辛	-10.8654
􅶑	-10.8654
寺舍	-10.8655
即告阿難	-10.8655
末世時	-10.8655
寸	-10.8655
初正	-10.8655
蜚	-10.8656
鄉	-10.8656
噉僧食	-10.8656
勸捨著	-10.8656
憂悲	-10.8656
訶那訶那	-10.8656
雀梨浮圖	-10.8656
四十九	-10.8657
歌	-10.8658
體解歸真	-10.8658
却後數日	-10.8658
馱囉	-10.8658
人身難得	-10.8658
陸地	-10.8659
肩	-10.866
唇	-10.866
詠	-10.866
婚	-10.866
十九者世世	-10.866
三藏法師	-10.866
於三處中	-10.866
持帶	-10.866
矚	-10.866
纔	-10.866
償	-10.866
數千萬	-10.866
斯陀含	-10.8662
不覺不知	-10.8662
宿罪所追	-10.8662
作銀	-10.8662
務	-10.8663
場	-10.8663
墜落三塗	-10.8663
陵	-10.8663
判	-10.8664
毘耶	-10.8664
心即是病	-10.8664
賴	-10.8664
五十遍	-10.8664
鑪炭	-10.8664
催	-10.8665
披	-10.8665
候	-10.8665
愛心是	-10.8666
癡心是	-10.8666
生蘇煎煮	-10.8666
踴	-10.8666
秀	-10.8666
朋	-10.8666
色不自名	-10.8666
鬪戰	-10.8666
薩	-10.8666
備受眾苦	-10.8666
政	-10.8667
共食之	-10.8667
諭	-10.8667
又於後時	-10.8667
者喻於	-10.8667
諸法亦然	-10.8667
噉人精氣	-10.8667
身光尋滅	-10.8667
心無形質	-10.8667
線	-10.8667
橫增我見	-10.8668
澄清	-10.8668
若生人間	-10.8668
跪	-10.8668
鬲	-10.8668
那羅延	-10.8668
七日七夜	-10.8668
諸天伎樂	-10.8668
湯藥	-10.8669
山陵	-10.8669
栖	-10.8669
起信論	-10.8669
及其覺	-10.8669
師子奮迅三昧	-10.8669
海龍王	-10.8669
目之為	-10.8669
呪術	-10.8669
工	-10.867
邊際	-10.867
郭	-10.867
十七者世世	-10.867
今蒙善友	-10.8671
踏	-10.8671
輕微	-10.8671
凶	-10.8672
巾	-10.8672
瞻視	-10.8672
十者世世	-10.8672
一經於耳	-10.8672
在大眾中	-10.8672
比丘尼優婆塞優婆夷	-10.8673
無量劫來	-10.8673
提頭賴吒	-10.8673
本來空寂	-10.8673
婆樓	-10.8673
繩墨	-10.8673
剋印	-10.8673
名薩婆若	-10.8673
狸	-10.8673
眼住於內	-10.8673
鎖	-10.8673
零宅	-10.8673
御	-10.8674
無價	-10.8674
升	-10.8675
津	-10.8675
塝	-10.8675
顛	-10.8675
滅於諸行	-10.8675
膊	-10.8675
財富	-10.8675
渴仰	-10.8675
述	-10.8675
名出世人	-10.8675
淨佛知見廣開	-10.8675
補	-10.8676
植	-10.8676
刑	-10.8677
瑟	-10.8677
棒	-10.8677
得阿耨菩提	-10.8677
欝單越	-10.8677
金翅鳥	-10.8677
不經八難	-10.8677
餓	-10.8678
忻	-10.8678
父母兄弟	-10.8678
鬪	-10.8678
魂	-10.8679
此經語	-10.8679
出大音聲	-10.8679
從佛聞	-10.8679
隱顯	-10.8679
如此之徒	-10.8679
妄計	-10.8679
於善於惡不生分別	-10.8679
脇	-10.8679
釋提桓因	-10.8679
狐王	-10.868
夭	-10.868
迦難羅	-10.868
賢士	-10.868
模	-10.868
寒氷地獄	-10.868
腦	-10.8681
㵱	-10.8681
汎	-10.8681
規	-10.8681
七百七十	-10.8681
如來正答	-10.8681
憎惡	-10.8681
無真無	-10.8681
誦此呪	-10.8681
說者聽者	-10.8681
迦樓羅緊那羅摩睺羅伽人非人等	-10.8681
阿梨耶龍	-10.8681
須彌山北	-10.8681
如影隨形	-10.8682
白象	-10.8682
客	-10.8683
拂	-10.8683
梟	-10.8683
或占	-10.8683
屠	-10.8683
初牒	-10.8683
憂愁	-10.8683
險	-10.8683
世世生生	-10.8683
崑	-10.8683
崙	-10.8683
敬之如	-10.8683
斂	-10.8683
耽	-10.8683
枯竭	-10.8683
惶	-10.8684
藝	-10.8684
呪誓	-10.8684
校	-10.8684
必定解脫	-10.8684
偏袒右肩	-10.8685
震動	-10.8685
汝今所問	-10.8685
如金剛不壞	-10.8685
牢獄	-10.8685
自利德	-10.8685
他化自在天	-10.8685
凍	-10.8685
南無佛陀南無達摩南無僧伽	-10.8685
南無僧伽	-10.8685
唼	-10.8685
善惡雙泯	-10.8685
四八三十二	-10.8685
垣	-10.8685
大力神王	-10.8685
暴	-10.8685
酬	-10.8685
非定一	-10.8685
阿羅	-10.8685
唾	-10.8685
念此金有明呪	-10.8685
右膝著地	-10.8686
悶	-10.8686
煙	-10.8686
閻羅王	-10.8686
牢	-10.8686
大熱	-10.8686
卿	-10.8686
魏	-10.8686
斧	-10.8687
金剛力士	-10.8687
腋	-10.8687
單	-10.8687
甛	-10.8687
奧	-10.8687
若有退落	-10.8687
不能吹動	-10.8687
粉	-10.8687
練	-10.8687
而語之	-10.8687
不欲是其	-10.8687
不知何者是	-10.8687
自己身	-10.8687
報佛恩	-10.8687
牒	-10.8688
踐	-10.8688
輪迴生死	-10.8688
頭面禮佛	-10.8688
天帝百施	-10.8688
蹈	-10.8688
緊	-10.8688
摩睺羅伽	-10.8688
飲銅地獄	-10.8689
猫	-10.8689
兔角	-10.8689
順教修行	-10.8689
如是人輩	-10.8689
偕偶	-10.8689
嬰兒	-10.8689
稟	-10.8689
來世成佛道	-10.8689
往生阿彌陀佛國	-10.8689
試	-10.8689
伎	-10.8689
鬚	-10.8689
於一切怖畏	-10.8689
染污	-10.869
三十五佛	-10.869
妹	-10.869
李	-10.869
同塵	-10.869
狹	-10.869
即入三昧	-10.8691
召有緣	-10.8691
懃精進	-10.8691
遂增	-10.8691
盲者不見	-10.8691
下約	-10.8691
棄惡從善	-10.8691
祕密圓教	-10.8691
如來僧寶眾	-10.8691
汁	-10.8691
爾時會中有	-10.8691
領納	-10.8691
係念	-10.8691
佛說高王觀世音經	-10.8691
伏藏	-10.8691
八邪之所牽	-10.8692
冲	-10.8692
憂波梨	-10.8692
彌陀	-10.8692
好醜	-10.8692
犲狼	-10.8693
慈悲喜捨	-10.8693
本性清淨	-10.8693
調暢	-10.8693
刀劍	-10.8693
社	-10.8693
介	-10.8693
師子虎狼	-10.8693
自下大文第二	-10.8693
藉緣生	-10.8693
我聞是已	-10.8693
漂	-10.8693
行住坐臥	-10.8693
隱覆	-10.8693
惱熱	-10.8693
不墮三塗	-10.8693
從何方來	-10.8693
四輩弟子	-10.8694
遊於三界	-10.8694
三十二種惡相	-10.8694
千五百歲後	-10.8694
房舍	-10.8694
清潔	-10.8694
二百五十	-10.8694
諮	-10.8694
噎	-10.8694
資糧	-10.8694
當何名	-10.8694
閉塞	-10.8694
帛	-10.8694
未飽	-10.8694
溫和	-10.8694
毀禁	-10.8694
湧	-10.8694
虛通無礙	-10.8694
善寂月音	-10.8694
慾	-10.8694
墻	-10.8694
不遷	-10.8694
事友	-10.8694
南無雷音	-10.8694
大勢至菩薩	-10.8694
景	-10.8694
株杌	-10.8694
槃荼	-10.8694
生身觀	-10.8694
闇鈍	-10.8694
魂魄	-10.8694
屏	-10.8695
說其因緣	-10.8695
不食酒肉	-10.8695
四月一	-10.8695
悴	-10.8695
末法中	-10.8695
侍郎昭文館學士	-10.8695
祥	-10.8696
隨逐	-10.8696
沸屎地獄	-10.8696
誦偈	-10.8696
突	-10.8696
㨶	-10.8696
萬惡之所	-10.8696
佛性真金	-10.8696
嶮路	-10.8696
不可為無	-10.8696
溢	-10.8696
由人所	-10.8696
銷	-10.8697
演出	-10.8697
役	-10.8697
諮問	-10.8697
不在中間	-10.8697
渡	-10.8697
首楞嚴定	-10.8697
佛說七女觀經	-10.8697
途	-10.8697
莖	-10.8698
西北	-10.8698
片	-10.8698
稅	-10.8698
輕慢	-10.8698
鼠	-10.8698
得無生忍	-10.8698
般若波羅蜜大藏	-10.8698
再	-10.8698
陰入界	-10.8698
折伏	-10.8698
泉源	-10.8698
風吹	-10.8698
亦為謗佛	-10.8698
善見王子三千人	-10.8698
爵位	-10.8698
擊	-10.8699
漫	-10.8699
司	-10.8699
呪魅經	-10.8699
善持守護	-10.8699
椒	-10.8699
雙泯	-10.8699
彼土人民	-10.8699
白玉	-10.8699
頂禮	-10.87
師僧父母	-10.87
幡蓋	-10.87
若無所得	-10.87
波羅提木叉大藏	-10.87
琢	-10.87
愛惜	-10.87
修多羅大藏	-10.87
圜	-10.87
方天王宮舍治須彌山半腰	-10.87
生大歡喜	-10.87
疑網	-10.87
綺語	-10.87
自作教	-10.87
被法服	-10.87
狐狼	-10.87
佉	-10.87
方虛空界悉作	-10.87
讀此呪	-10.87
台	-10.8701
面像	-10.8701
案行	-10.8701
怙	-10.8701
方計	-10.8701
虔	-10.8701
溺	-10.8701
等觀菩薩	-10.8701
娑羅	-10.8702
荷負	-10.8702
妖	-10.8702
四十同號	-10.8702
鵝鴨	-10.8702
詐稱	-10.8702
了達諸法	-10.8702
無倦	-10.8702
創	-10.8702
天厨名字	-10.8702
故知無性	-10.8702
隱藏	-10.8702
飛鳥	-10.8702
魂神	-10.8702
下諸州	-10.8702
不知何者為	-10.8702
及以三千人	-10.8702
簷	-10.8702
􂌤	-10.8702
渧	-10.8702
齋食	-10.8702
墜落	-10.8703
筋骨	-10.8703
調順	-10.8703
青黃	-10.8703
八十同號	-10.8703
末代	-10.8704
利養	-10.8704
今為汝等	-10.8704
三百日	-10.8704
首楞嚴三昧	-10.8704
下至風	-10.8704
客塵煩惱	-10.8704
崩倒	-10.8704
如所言	-10.8704
戲論	-10.8704
猛狗	-10.8704
裸	-10.8704
遍滿三千大千世界	-10.8704
兼	-10.8704
白蜜	-10.8705
犁	-10.8705
一字一句	-10.8705
舍宅	-10.8705
四萬八千	-10.8705
六種	-10.8705
怜	-10.8705
不忍見	-10.8706
二月十五日	-10.8706
昔來	-10.8706
我今說之	-10.8706
淨得生其中	-10.8706
西面	-10.8706
審此理	-10.8706
夭命	-10.8706
廣度一切	-10.8706
局教經文	-10.8706
香熏	-10.8706
疋	-10.8706
作佛形像	-10.8707
護身命經	-10.8707
赦	-10.8707
不可比	-10.8707
例	-10.8707
增益	-10.8707
妃	-10.8707
隱匿	-10.8707
髓	-10.8707
受天尊教	-10.8708
從地踊出	-10.8708
賢德	-10.8708
潤益	-10.8708
三人共	-10.8708
爾時常施菩薩	-10.8708
體泯	-10.8708
永離生死	-10.8708
須彌山西	-10.8708
通免	-10.8708
混融菩薩摩訶薩	-10.8709
淚下如雨	-10.8709
親屬	-10.8709
鄔波索迦	-10.8709
爾時文殊師利菩薩重白釋迦牟尼佛	-10.8709
筆	-10.8709
衛護	-10.8709
世間死尸	-10.8709
南無難勝	-10.8709
婆伽婆	-10.8709
時欲將至	-10.8709
湛	-10.871
梳	-10.871
開導	-10.871
頂天下盡	-10.871
一性清淨	-10.871
唯願仁者	-10.871
始終	-10.871
往古來今	-10.871
恒蒙	-10.871
然後得出	-10.871
勅聽	-10.871
如來清淨眾	-10.871
渠	-10.871
我滅後	-10.871
弗	-10.871
伽藍	-10.871
旋	-10.871
痢	-10.871
四面一時	-10.8711
垢穢	-10.8711
齋訖	-10.8711
不如聞此經名	-10.8711
過去七佛	-10.8711
心開意解	-10.8711
覆護	-10.8711
悲哭	-10.8712
南無勇施	-10.8712
依友	-10.8712
寺廟	-10.8712
忖	-10.8712
未曾同	-10.8712
翼	-10.8712
耳聾	-10.8712
衣毛	-10.8712
一寸	-10.8712
入寺者今作	-10.8712
菓實	-10.8712
嗅	-10.8712
諸神王等	-10.8713
受吾勅者	-10.8713
生生之處	-10.8713
炬照	-10.8713
釋迦涅槃後	-10.8713
衣帶	-10.8713
為無福	-10.8713
血流	-10.8714
東方阿閦佛	-10.8714
株	-10.8714
蓬	-10.8714
願無不獲	-10.8714
圓明顯	-10.8714
尖石地獄	-10.8714
財利	-10.8714
七重城內	-10.8714
其狐王	-10.8714
根機	-10.8714
前文有	-10.8714
寶蓋照空	-10.8714
正習內	-10.8714
疽	-10.8714
薩埵	-10.8714
生在人中	-10.8714
得生其中	-10.8714
三萬六千	-10.8714
難禁	-10.8714
胡跪合掌	-10.8715
於虛空中	-10.8715
巧便	-10.8715
共內人	-10.8715
汝今應當	-10.8715
繞佛	-10.8715
超生死	-10.8715
空無所得	-10.8715
狐疑	-10.8716
病困	-10.8716
遍滿虛空	-10.8716
厭足	-10.8716
隨自性流	-10.8716
狂亂	-10.8716
佛世界所有珍寶	-10.8716
兩卷	-10.8716
朱	-10.8716
毘婆尸佛	-10.8716
潰	-10.8716
來迎	-10.8716
立塔	-10.8716
佛法僧寶	-10.8717
世尊我等	-10.8717
收獲	-10.8717
外更無	-10.8717
突吉羅	-10.8717
茂	-10.8717
俗官	-10.8717
鬼兵	-10.8717
薄福	-10.8717
凡夫之人	-10.8718
救度	-10.8718
噤南無	-10.8718
若有眾生入寺之時	-10.8718
但寶明	-10.8718
則夢見	-10.8718
次別	-10.8718
持火燒之	-10.8718
於中初明	-10.8718
辛苦	-10.8718
勸請	-10.8718
伽陀	-10.8719
給孤獨園	-10.8719
吞熱鐵丸	-10.8719
說四解脫	-10.8719
仗	-10.8719
遭遇	-10.8719
不可為有	-10.872
灰河地獄	-10.872
南無寶印	-10.872
吐毒	-10.872
無縫	-10.872
弘誓	-10.872
得吾經者	-10.872
腐	-10.872
須彌山東	-10.872
為我演說	-10.872
真實佛性	-10.872
佛說此經已	-10.872
其福無量	-10.872
淨持戒行	-10.8721
所作眾罪	-10.8721
讀誦書寫	-10.8721
貪善棄惡	-10.8721
無學解脫	-10.8721
栰樹	-10.8721
三枚	-10.8721
信邪倒見	-10.8721
十號	-10.8721
喜悅	-10.8721
快哉	-10.8721
有大功德	-10.8721
目連	-10.8721
詐偽	-10.8721
謂之生	-10.8722
普光大眾	-10.8722
書寫此經	-10.8722
雜寶	-10.8722
俱喪	-10.8722
日夜六時	-10.8722
疾妬	-10.8722
南無喜見	-10.8722
諸道俗	-10.8723
夫妻	-10.8723
挽拔	-10.8723
若有具犯四重	-10.8723
頭目髓腦	-10.8723
化樂天	-10.8723
破眾生愚癡之	-10.8723
濟拔	-10.8724
萬五千	-10.8724
日三時	-10.8724
生埋	-10.8724
一體三寶	-10.8724
若教他作	-10.8724
在於世間	-10.8724
譬喻	-10.8724
緣境	-10.8725
外道六師	-10.8725
寶蓮花	-10.8725
常住僧物	-10.8725
光普遍	-10.8725
初一日	-10.8725
復得人身	-10.8725
旃檀香	-10.8725
檀波羅蜜	-10.8725
順順於	-10.8725
體融	-10.8725
以佛神力	-10.8726
泥洹後	-10.8726
無慈悲者	-10.8726
白淨天中	-10.8726
一億十億百億千億萬億那由他恒河沙	-10.8726
採	-10.8727
由如虛空	-10.8727
毒龍	-10.8727
聖主	-10.8727
千數至千	-10.8727
水泡	-10.8727
憐愍眾生	-10.8728
降伏諸魔	-10.8728
如此人等	-10.8728
逝	-10.8728
我於處處經中說	-10.8728
有限際	-10.8728
福德具足	-10.8728
遍覆	-10.8728
受大苦	-10.8729
雙融	-10.8729
精神	-10.8729
親友	-10.8729
觀一實諦	-10.8729
療除	-10.8729
一斤	-10.8729
百千眾生皆發	-10.8729
心用性	-10.8729
若念三寶	-10.8729
國王大臣	-10.873
不令惡人侵	-10.873
暫時	-10.873
專欲	-10.873
慈悲愍念	-10.873
南無寶檀	-10.873
性用心	-10.8731
無因無果	-10.8731
倍報	-10.8732
上品	-10.8732
能翻一切惡為一切善	-10.8732
蠢	-10.8733
受二百五十戒	-10.8733
項	-10.8733
十一天名	-10.8733
隨心所	-10.8733
素	-10.8733
從初成道乃至	-10.8733
普覆	-10.8733
毘尼藏	-10.8733
五百同號	-10.8734
憐愍一切眾生	-10.8734
善巧方便	-10.8734
懃流布此經	-10.8734
何況讀誦	-10.8734
十二天名	-10.8734
句偈	-10.8734
照寂	-10.8735
稱之為	-10.8735
持禁戒	-10.8735
未來世中像法	-10.8735
青白	-10.8735
流布是經	-10.8735
無量比丘斷	-10.8735
臨欲	-10.8735
修持	-10.8735
去三尸	-10.8735
是人現世	-10.8735
匿	-10.8736
得道果	-10.8736
押	-10.8736
諸天善神	-10.8736
多寶如來	-10.8736
得羅漢道	-10.8736
貧窮乞人	-10.8736
乘定國師子	-10.8736
存志功德	-10.8736
譬如有人造純	-10.8736
鬼神王	-10.8736
至彼岸	-10.8737
得見我身	-10.8737
君子國	-10.8737
次合	-10.8737
欲有所問	-10.8737
人非人等	-10.8738
佛告文殊	-10.8738
貪窮	-10.8738
無明世界	-10.8738
善權	-10.8738
或見如來住	-10.8738
言枝	-10.8738
若見有人	-10.8738
色受想行識	-10.8739
獲罪無量	-10.8739
三升	-10.8739
冥會	-10.8739
殄	-10.8739
波提	-10.8739
去蜂	-10.8739
海陵	-10.8739
以印印	-10.8739
川	-10.874
破戒五逆	-10.874
五百餘	-10.874
八萬億	-10.874
床地獄	-10.8741
濟度	-10.8741
牛馬	-10.8741
猪羊	-10.8741
處中間	-10.8741
雨寶蓮華	-10.8741
尋教會理	-10.8741
我見樹	-10.8741
遞相	-10.8742
百千萬人	-10.8742
開闡	-10.8742
八千同號	-10.8742
常安樂	-10.8742
彌輪	-10.8742
當知即是	-10.8742
說是如如說	-10.8742
滿足	-10.8743
千差	-10.8743
存志	-10.8743
空夜叉	-10.8743
行乞食	-10.8743
頑	-10.8743
犯四重	-10.8744
至他方	-10.8744
孤窮	-10.8744
一心禮	-10.8744
又莫更	-10.8745
說一乘法	-10.8745
齋日	-10.8745
爾時世尊答	-10.8745
無簡擇故	-10.8746
餘人不	-10.8746
恚怒	-10.8746
甲子	-10.8746
煮肉	-10.8747
不得見此	-10.8747
刀輪	-10.8747
多者教以	-10.8747
明法王	-10.8747
可得免	-10.8747
療治	-10.8748
四輩	-10.8748
青色	-10.8748
垢性	-10.8749
改悔	-10.8749
南無總持	-10.8749
滿中珍寶	-10.8749
動亂	-10.875
世尊如上所說	-10.875
誹謗不信	-10.875
諮請	-10.875
是故智者	-10.875
炎摩天	-10.875
惡疾重病	-10.8751
啼泣	-10.8751
次作第	-10.8751
眾剎	-10.8751
死尸	-10.8752
前進	-10.8752
大坑	-10.8752
不觀他	-10.8752
觀十方佛	-10.8752
地獄受苦	-10.8752
成辨	-10.8753
吾告	-10.8753
深宮	-10.8753
橫官	-10.8754
諸佛亦如是	-10.8754
於是普光莊嚴菩薩	-10.8754
不得輒	-10.8754
必獲	-10.8755
舍利	-10.8755
四無所畏	-10.8756
兩遍	-10.8756
爾時迦難羅比丘	-10.8756
一旦	-10.8756
大豆	-10.8757
嫉姤	-10.8757
來至此	-10.8757
謗報	-10.8757
爾時寶明菩薩	-10.8757
相空等觀	-10.8757
不在內	-10.8758
無想解脫	-10.8758
眾僧物	-10.8758
餘殘	-10.8758
滿虛空	-10.8759
皆有佛性	-10.8759
超出	-10.8759
恭敬圍繞	-10.8759
癩病	-10.8759
設會	-10.876
讚毀	-10.876
攝諸眾生	-10.876
即名清淨	-10.876
諸菩薩眾	-10.876
四毒蛇	-10.876
護惜	-10.8761
等無有異	-10.8761
開悟	-10.8762
係念在	-10.8762
諸乘中	-10.8762
之身能	-10.8762
而披法服	-10.8762
癡愛	-10.8762
自觀身	-10.8763
過去未來現在諸佛	-10.8764
一一鬲	-10.8765
令無量大眾	-10.8765
國界	-10.8766
兩足	-10.8766
生希有	-10.8766
若化眾生	-10.8766
天厨	-10.8766
菩薩之道	-10.8767
四角	-10.8767
法性法身	-10.8767
有惡魔	-10.8768
多端	-10.8768
十千比丘	-10.8768
色亦如是	-10.8769
無邊際	-10.877
死者多	-10.877
誰知	-10.877
避我	-10.877
水精作	-10.8771
受諸苦	-10.8771
南無師子音	-10.8771
黃精	-10.8772
一丈	-10.8772
明君	-10.8772
甚重	-10.8773
總成	-10.8773
說是語已	-10.8773
天宮	-10.8773
一心無二	-10.8774
窮子	-10.8774
隨順眾生	-10.8774
佛圖	-10.8774
積聚	-10.8775
口舌	-10.8775
百千萬劫	-10.8775
恩深	-10.8776
此老病死	-10.8776
諸菩薩等	-10.8776
憐愍眾生故	-10.8776
劫盡時	-10.8777
歸命十方	-10.8777
黃金作	-10.8777
持佛身	-10.8777
齋食者	-10.8778
不相見	-10.8779
五濁	-10.8779
是故當知	-10.8779
動不動	-10.8779
太一	-10.8779
而啟	-10.8779
福德力	-10.878
五無間	-10.8781
出家之人	-10.8781
心心相續	-10.8781
後代	-10.8782
功德無量無邊	-10.8782
寫三	-10.8782
地獄餓鬼	-10.8783
極果	-10.8784
不在外	-10.8785
一切聖眾	-10.8786
國主	-10.8786
千國土	-10.8787
惡罵	-10.8787
晝夜相	-10.8787
永盡	-10.8787
順風	-10.8787
況復	-10.8787
諸宮殿	-10.8788
祕密之	-10.8789
嚴淨	-10.8789
大慈父	-10.8789
二十五菩薩	-10.879
多劫受	-10.879
厭離	-10.879
一切身相	-10.8791
違理	-10.8791
無有量	-10.8793
乃至今日	-10.8793
志性	-10.8793
求覓	-10.8793
遍法界	-10.8793
毒氣	-10.8794
為諸眾生說	-10.8794
或逢	-10.8794
久遠	-10.8795
香花	-10.8796
一切大地	-10.8796
千三百	-10.8796
獨處	-10.8797
為人演說	-10.8797
此屋	-10.8797
鷄子	-10.8798
見是事已	-10.8798
所以然	-10.8799
金海	-10.8799
非有相	-10.8799
了達	-10.8799
五逆罪	-10.8799
所覆	-10.8799
末後	-10.88
▁「	-10.8801
至三年	-10.8801
七寶華	-10.8802
力應求	-10.8803
夢所見	-10.8803
功用	-10.8804
菩薩名者	-10.8804
迷子	-10.8804
作罪不	-10.8804
勸諸	-10.8806
經書	-10.8806
與賊	-10.8806
攝持	-10.8806
諸佛菩薩能	-10.8806
如甘露	-10.8807
解脫三昧	-10.8807
始可	-10.8807
六情	-10.8807
南無光嚴	-10.8808
歸命佛	-10.881
空宗	-10.8811
若有人能	-10.8811
飢貧	-10.8811
心如虛空	-10.8812
以我無	-10.8812
今覩	-10.8812
恐人	-10.8813
是為三	-10.8813
非無相	-10.8813
似如	-10.8814
取黃	-10.8814
久不得	-10.8816
開解	-10.8816
正衣服	-10.8816
不相應	-10.8816
安居	-10.8817
應當如是	-10.8817
最後	-10.8817
治國	-10.8818
是故我今	-10.8818
情貪	-10.8818
南無彌勒	-10.8819
開化	-10.8819
燃燈佛	-10.882
其下有	-10.882
復牽	-10.882
假名	-10.8821
常為一切眾生	-10.8821
無分別相	-10.8821
無明煩惱	-10.8822
放光明	-10.8823
救療	-10.8824
心生疑	-10.8824
百千萬億阿僧祇	-10.8825
一一世界	-10.8826
生盲	-10.8827
父本	-10.8828
聖慧	-10.8829
四蛇	-10.883
於中一切眾生	-10.883
無量恒河沙	-10.883
遊觀	-10.883
以訖	-10.8831
四種解脫	-10.8831
樂禪定	-10.8832
能見也	-10.8832
眾人所	-10.8832
唯除	-10.8833
如是懺悔	-10.8833
等視	-10.8834
病患	-10.8835
最下	-10.8837
先須	-10.8837
從東方	-10.8837
若沙彌	-10.8838
心中所	-10.8838
金口	-10.8838
爾時世尊復	-10.8839
利根	-10.8839
後結	-10.8839
破邪	-10.884
修福德	-10.8841
大力菩薩	-10.8841
聖果	-10.8842
論義	-10.8843
皆圓滿	-10.8843
邪師	-10.8843
知情	-10.8844
豈得為	-10.8845
輪王	-10.8846
欲向	-10.8847
應往	-10.8848
何用布施	-10.8848
初文	-10.8849
如是之人等	-10.8851
火然	-10.8852
一切萬物	-10.8853
種福	-10.8853
順便	-10.8853
是誰	-10.8853
佛告常施菩薩	-10.8854
轉動	-10.8857
於道場	-10.8857
不自知	-10.8859
招生	-10.8859
如須彌山	-10.886
虛偽	-10.886
安立	-10.8861
偈已	-10.8861
則止	-10.8862
始知	-10.8863
眾疑	-10.8866
他物	-10.8866
一倍	-10.8866
乃遠	-10.8867
施功	-10.8868
本坐	-10.8869
如是七日	-10.887
不能分別	-10.8871
性天真	-10.8872
中皆有	-10.8874
體同	-10.8874
定執	-10.8877
如大海	-10.8877
強力	-10.8878
肉食	-10.8878
起請	-10.8879
應於一	-10.888
命不久	-10.8881
是我子	-10.8882
皆由此	-10.8882
誰於	-10.8883
四攝	-10.8885
隨分	-10.8885
何等人	-10.8886
淨滿	-10.8889
同虛空	-10.8891
現報	-10.8891
千人俱	-10.8893
小便	-10.8893
後合	-10.8893
照曜	-10.8894
深妙	-10.8894
行步	-10.8895
種性	-10.8896
竟無所	-10.8897
惡毒	-10.8898
無量劫中	-10.8901
經論	-10.8902
小劫	-10.8902
一切佛身	-10.8903
見如來說	-10.8904
根門	-10.8904
墮地	-10.8904
坐處	-10.8905
十戒	-10.8906
攝受	-10.8907
或有眾生	-10.8909
滿願	-10.8912
聞便	-10.8915
大眾意	-10.8917
應須	-10.8917
作諸不	-10.892
彼土	-10.8921
之士	-10.8924
不見施	-10.8924
已過	-10.8925
在一處	-10.8927
功能	-10.8928
者專行	-10.893
壽二百五十	-10.8931
愛念	-10.8932
猶是	-10.8934
遠意	-10.8934
無累	-10.8936
狗即	-10.8936
解脫知見	-10.8937
百國	-10.8944
不簡	-10.8944
欲殺	-10.8944
者善能	-10.8944
念三寶	-10.8947
要當	-10.8948
此大魔	-10.8949
生疑	-10.8951
獲如是	-10.8951
大妻	-10.8953
南無普明	-10.8954
少聞	-10.8955
和上	-10.8959
明月	-10.8959
次復	-10.8962
但彼	-10.8963
信用	-10.8963
我亦如是	-10.8965
相似	-10.8965
頭戴地	-10.8967
三乘之	-10.8969
先觀	-10.8975
終不能	-10.8975
功德種	-10.8976
無邊身	-10.8976
常滿	-10.8977
共同	-10.8977
一切聲聞	-10.8981
用僧	-10.8981
求菩提	-10.8983
證明	-10.8986
方可	-10.8987
萬惡	-10.899
不自覺	-10.8992
何由	-10.8999
七識	-10.9001
不寒	-10.9002
澤中	-10.9003
主人	-10.9004
八正	-10.9004
自居	-10.9006
施與一切	-10.9007
一切眾生心性	-10.901
光炎	-10.9012
解脫果	-10.9013
復更	-10.9014
可思量	-10.9016
如此眾生	-10.9017
遶佛	-10.9023
空慧	-10.9024
能測	-10.9025
惡物	-10.9026
反更	-10.9027
產生	-10.9028
南無神通	-10.903
白色	-10.9031
勿得	-10.9032
文殊師利菩薩摩訶薩	-10.9034
歡喜無量	-10.9036
供養十方一切諸	-10.9037
諸天人民	-10.9039
食中來	-10.904
有佛性	-10.9041
將入	-10.9041
何以不	-10.9042
我所說	-10.9043
壞魔	-10.9049
得成就	-10.905
五體	-10.9051
當為汝說	-10.9055
勸眾生	-10.9059
十恒河沙	-10.9061
一念善	-10.9063
既盡	-10.9065
身充滿一切世界	-10.9069
五蓋	-10.907
相待	-10.9071
劍樹地獄	-10.9071
視之	-10.9072
三界眾生	-10.9076
我法者	-10.9081
一心淨	-10.9083
無愚	-10.9083
於五陰	-10.9083
佛形像	-10.9088
說此語	-10.9089
隨緣	-10.909
分身諸	-10.9092
入城	-10.9093
如來出世	-10.9094
不得成	-10.9095
十力	-10.9095
讀誦此經典	-10.9096
福盡	-10.9097
吾道	-10.9097
闇中	-10.9103
既空	-10.9105
不假	-10.9105
一心性	-10.9106
三遍	-10.9108
死門	-10.9109
波若	-10.9113
眼識	-10.912
合上	-10.9122
世尊我今	-10.9123
迷故	-10.9124
之主	-10.9125
香水	-10.9127
與福	-10.9128
我教法	-10.9129
本淨	-10.9131
或有人	-10.9132
妄說	-10.9137
五百人	-10.9137
所證	-10.9139
深經	-10.9144
不落	-10.9145
願共	-10.9147
多解	-10.9147
觀緣	-10.9149
及諸菩薩	-10.915
為可見	-10.915
所照	-10.9152
不計	-10.9153
順從	-10.9154
重白佛言	-10.9156
正問	-10.9157
於佛法	-10.916
名目	-10.916
廣度	-10.9162
稱名	-10.9164
廣長三十	-10.9168
是患	-10.9169
一世界	-10.9169
益人	-10.9174
吾今為汝說	-10.9176
多方	-10.9177
高於	-10.9188
普濟	-10.9189
似有	-10.9194
方鞞樓	-10.9196
五門	-10.92
解自身	-10.92
惠心	-10.9201
一切分別	-10.9204
非無故	-10.9208
喻若	-10.9208
博叉天	-10.9212
理處	-10.9213
更說	-10.9214
在彼	-10.9217
此二種	-10.9222
有文字	-10.9223
夫言	-10.9227
頭上	-10.9229
一佛身	-10.9229
或造	-10.923
失本	-10.9231
眾生忍	-10.9232
畜八	-10.9235
諸餘	-10.9238
復過	-10.9239
諸戒	-10.9245
教授	-10.9246
我等神	-10.9247
入大乘	-10.9247
若遇大	-10.9256
死後	-10.9261
觀音	-10.9265
於閻浮提	-10.9269
不識真	-10.9271
心則不	-10.9275
煩惱與	-10.9279
風大	-10.9287
空解	-10.9288
復具	-10.929
各有一	-10.93
如此之	-10.9309
所能知	-10.9312
指甲	-10.932
天種	-10.9328
定自在王	-10.9336
寶英	-10.9346
罪了	-10.9349
坐一面	-10.9352
手把金剛	-10.9355
無上正等	-10.9356
說三乘	-10.9361
能迴八	-10.9372
佛告寶明	-10.9393
三乘人	-10.9402
無所在	-10.9405
藥力	-10.941
末劫	-10.9415
我今為汝	-10.9433
兜率天	-10.9435
一一一	-10.9439
經卷唯	-10.9443
未來世中諸惡比丘	-10.9449
如是諸人等	-10.9457
犯重罪	-10.9457
藉此	-10.9459
是名報佛恩復次善見王	-10.9464
不謬	-10.9485
說為解脫	-10.9495
侵害	-10.9499
斷疑	-10.95
謂為是	-10.9527
神通威德	-10.9532
有十六	-10.9542
雲雷音	-10.9543
棄之	-10.9551
過去諸佛	-10.9562
三世十方	-10.9563
為非無	-10.9593
人民皆	-10.9593
見此地	-10.96
所住處	-10.9601
說大辯邪正	-10.9636
無住無	-10.9638
甚深妙法	-10.9643
五百劫	-10.9658
二同號功德	-10.966
不能救	-10.9666
身中不	-10.9678
終不見	-10.969
心神	-10.969
自性清淨	-10.9692
積行	-10.9726
樹上	-10.9729
寂空	-10.9731
爾時除疑大士復	-10.9751
愍眾生故	-10.976
此鳥	-10.9764
第八	-10.9765
過百	-10.9771
觀臍	-10.9777
豈得	-10.9778
世燈	-10.9778
生淨土	-10.9779
金粟	-10.9785
俱寂	-10.9805
為我說	-10.9817
常行善	-10.9835
方始	-10.9846
離波	-10.9851
眾生之相	-10.9859
妙尊	-10.987
諸佛子	-10.9874
七千	-10.9876
年已	-10.9885
佛剎	-10.992
和合僧	-10.9928
品第十	-10.9948
眾生類	-10.9964
犯十惡	-10.9966
唱滅	-10.9971
覺力	-10.9972
破魔	-10.9984
諸俗人	-10.9996
自莊嚴	-11.0001
何況未來	-11.0009
勝妙	-11.0042
無雜	-11.0071
心不二	-11.0086
味飲食	-11.0088
好莊嚴	-11.0092
常精進	-11.0114
治罪	-11.0115
無慚愧	-11.0123
疑或	-11.0164
右手	-11.0173
斷佛性	-11.0185
此三事	-11.0188
得無上道	-11.0204
國人民	-11.0209
若不問	-11.021
為此人	-11.0262
登正	-11.0266
所護持	-11.0283
何緣	-11.0319
性不生	-11.0323
從順	-11.0324
所向	-11.033
理路	-11.0359
鐵叉	-11.0383
則無智慧	-11.042
復告阿難	-11.0423
銅柱地獄	-11.0439
能持戒	-11.0464
得差	-11.0469
身命財	-11.0478
無無覺	-11.0479
寶蓋	-11.048
妙性常	-11.0513
得大利益	-11.0528
記之	-11.0538
實體	-11.0554
二種心	-11.0556
陽氣	-11.0584
周遍	-11.0605
億萬	-11.0656
身被	-11.0676
修十善	-11.0678
得其中	-11.0685
諦聽善思念之	-11.0734
雨華	-11.0759
七月十	-11.0794
必竟	-11.0819
於大海	-11.0872
文殊師利菩薩又問	-11.0873
無上之	-11.0924
不和合	-11.0946
福勝	-11.0957
無取捨	-11.0985
必竟不	-11.1024
欲重宣此義	-11.1042
無色相	-11.1121
十方各有十	-11.1138
莫不歡喜	-11.1144
氣微	-11.1228
寶積	-11.1246
離眾苦	-11.1279
銅柱	-11.1341
福多於	-11.1418
告阿難言	-11.1434
弓箭	-11.1513
得安樂	-11.1563
土地多	-11.1605
離恩愛	-11.1627
怖迫	-11.1641
左手	-11.1693
性平等	-11.1701
修正觀	-11.1706
四方僧	-11.1759
六度之	-11.1797
說妙法	-11.193
令得正	-11.1935
善法故得	-11.1959
是文殊師利	-11.2145
得為有	-11.2168
不染塵	-11.2174
金床	-11.2193
舉目	-11.2295
大辯邪正甚深	-11.2338
鋸	-11.2346
宜速	-11.2357
俱融	-11.2369
某甲等	-11.2384
流淚	-11.2507
南無雲雷	-11.2512
合掌向佛	-11.2543
威德自在	-11.2545
復次善見王	-11.2546
斬	-11.263
餓鬼畜生	-11.2652
正等覺	-11.276
始得見	-11.2884
若欲摧	-11.2889
亡失	-11.2931
深坑	-11.2944
作畜	-11.2979
萬四千	-11.2982
世尊實如聖	-11.3002
天人發	-11.3047
江	-11.3053
不離身	-11.3059
腫	-11.3081
河大海	-11.3115
如盲人	-11.3117
漏盡	-11.3128
一切諸天人民	-11.3147
十方一切諸佛	-11.3163
頭戴	-11.3166
可度量	-11.3185
裁	-11.3194
師子吼菩薩摩訶薩	-11.3211
充滿一切世界	-11.323
一切眾生從無始	-11.3268
根不具	-11.3309
碓	-11.3328
鐵床	-11.333
鐵窟地獄	-11.3334
無礙神性	-11.3384
見阿彌陀	-11.3391
六時行道	-11.3393
心大歡喜	-11.3394
縱廣八萬	-11.3403
曜	-11.3422
無量無邊不可思議	-11.3423
萬天人	-11.3457
尊豐	-11.3475
障礙	-11.3477
須陀洹	-11.3488
如空谷	-11.3507
超世	-11.3507
相三昧起入	-11.351
拜	-11.3514
印印	-11.3524
山谷	-11.3538
令我生生世世	-11.3542
欲意者變	-11.3569
厭安行	-11.3572
讓利先人自居不足	-11.3575
貪法愛道順善	-11.3575
琴戲	-11.3578
食粳米	-11.3578
晝	-11.3585
大乘方廣經	-11.3585
一人能却	-11.3588
不大不小	-11.3588
酉子午	-11.3591
食米蕩盡	-11.3594
員	-11.3597
昊	-11.3597
父母之恩	-11.3597
爾時大眾聞	-11.3598
第十五天上人	-11.36
從地湧出	-11.36
非不得樂	-11.36
捉波梨	-11.36
時即名為	-11.36
盻	-11.36
遣使者	-11.36
入阿鼻地	-11.3602
下對境修	-11.3603
地肥	-11.3603
如此體解	-11.3603
鐵網彌覆	-11.3605
未滿十	-11.3606
米五升	-11.3606
應佛緣佛報佛	-11.3606
隆滿	-11.3606
倦	-11.3608
百億釋迦	-11.3609
我滅度已	-11.3609
卜	-11.3609
帝王臣民	-11.361
禱	-11.361
前件法	-11.3613
古月	-11.3613
忠信孝順	-11.3613
行四等心	-11.3613
訶烏那致	-11.3613
斬肉	-11.3613
阿闍梨	-11.3616
或在巷路	-11.3616
前中初牒	-11.3616
厲	-11.3616
靜室	-11.3616
祭	-11.3619
心行莫緣	-11.3619
觚	-11.3619
噤	-11.3619
熏習	-11.3622
亦念人	-11.3622
公卿	-11.3622
則種種法	-11.3622
象馬牛羊驢	-11.3622
毘奈耶	-11.3623
地芝	-11.3625
用無窮盡	-11.3625
趙	-11.3625
雖造塔寺	-11.3625
者不形咲	-11.3625
逕年度月	-11.3625
哺	-11.3625
棗	-11.3625
含笑	-11.3625
唵急速訶尼攝	-11.3625
妄心無本	-11.3625
小吏	-11.3625
禪照	-11.3625
稱謂斯斷	-11.3625
而說呪曰	-11.3627
請僧在寺	-11.3628
十五者世世	-11.3628
離眼之	-11.3628
毀譽	-11.3628
所觀理顯	-11.3628
欲來時	-11.3628
知行違	-11.3628
輕賤我法	-11.363
爵	-11.363
甫	-11.3632
緻	-11.3632
宮殿樓閣	-11.3632
芒	-11.3632
修善奉	-11.3632
胭	-11.3632
生邊地	-11.3632
出現於世	-11.3633
部洲	-11.3633
善力自然	-11.3633
吏	-11.3634
妄生染著	-11.3635
孚	-11.3635
愚夫不了	-11.3635
有一童子	-11.3635
經莫不開解	-11.3635
借取乞	-11.3635
炒	-11.3635
祠	-11.3635
秋	-11.3635
十善八齋	-11.3635
幻師弟子	-11.3635
病是病	-11.3635
賢善大士	-11.3635
食地芝	-11.3635
希	-11.3635
魄	-11.3638
呪咀	-11.3638
從心意緣慮中修道	-11.3638
奮迅	-11.3638
件	-11.3638
盲冥	-11.3638
祐	-11.3638
鳩槃荼鬼	-11.3638
於虛空中凝然	-11.3638
珠珍瓔珞	-11.3638
鼓舞	-11.3638
但以無明	-11.3638
佐曳	-11.3638
初舉果勸	-11.3638
哆滿怛囉阿地	-11.3638
囉佐也	-11.3638
大小悉皆為火	-11.3638
畔佐也	-11.3638
皆由久修大乘	-11.3638
者野虫	-11.3638
若持明呪	-11.3638
轉輪座	-11.3638
迭	-11.3638
金剛杵	-11.3639
伴	-11.3639
鄭	-11.3639
月八日	-11.3641
略舉	-11.3641
祀	-11.3641
非是生滅之	-11.3641
默誦	-11.3641
或尊或	-11.3641
蔽	-11.3641
佛言下答	-11.3641
是時大婦	-11.3641
訖梨	-11.3641
廟	-11.3641
又生蠶	-11.3642
誦此偈	-11.3643
祕密	-11.3644
能為父母作福造經	-11.3644
拔舌地獄	-11.3644
掩	-11.3644
借貸	-11.3644
大聖垂慈	-11.3644
懷挾	-11.3644
之四喻	-11.3644
可受不	-11.3644
師子王三昧	-11.3644
心妬心殺	-11.3644
當奈何	-11.3644
百億鐵圍地獄	-11.3644
知眼屬緣	-11.3644
稍	-11.3644
而立呪誓	-11.3644
頻那	-11.3644
來詣佛	-11.3644
今身劫剝	-11.3645
動之類	-11.3646
斷惡從善	-11.3646
界性三昧	-11.3646
非見非	-11.3646
曳	-11.3647
杜	-11.3647
鬼所病	-11.3647
如是種種思之念之	-11.3647
痒	-11.3647
嘷	-11.3647
若有體應有	-11.3647
不得顯用	-11.3647
以斯空眼常看空色	-11.3647
即與我受記	-11.3647
天竺	-11.3647
從是已後	-11.3647
愆	-11.3647
這	-11.3647
妬磨	-11.3647
希儞希儞希	-11.3647
心自忓清	-11.3647
愛喜生	-11.3647
明流通分	-11.3647
滅諸魔相三昧	-11.3647
無量無邊恒沙	-11.3647
犬亡	-11.3647
訶婆	-11.3647
諸餘外道行者遍遊罣形	-11.3647
貪嗔等或	-11.3647
挾	-11.3648
百福莊嚴	-11.3649
雨華動地	-11.3649
持是經者	-11.3649
伏諸魔	-11.365
翅	-11.365
匃	-11.365
佛及僧	-11.365
兩肩	-11.365
幡綵花蓋	-11.365
訊	-11.365
上方香積如來	-11.365
辦	-11.365
無始無明	-11.365
靉	-11.365
拘物頭華	-11.365
波頭摩華	-11.365
蚖	-11.365
佛世難	-11.365
彰善友功能	-11.365
慇重之心	-11.365
我實未能	-11.365
殘罪所追	-11.365
赤繩	-11.365
降伏外道	-11.365
之物入手	-11.365
取得一	-11.365
大空智三昧	-11.365
是以故天下	-11.365
滅故不住生	-11.365
生故不住滅	-11.365
親駄	-11.365
諾	-11.365
敗	-11.3652
十八者見女人	-11.3652
無出無沒	-11.3652
遍一切處色身三昧	-11.3652
上半牒	-11.3652
手捉金	-11.3653
市肆販賣	-11.3653
駄	-11.3653
償宿	-11.3653
▁2901	-11.3654
暝	-11.3654
法句經疏	-11.3654
毒乳相和	-11.3654
百日已來每夢見得世間上味	-11.3654
先世犯	-11.3654
吾今為汝廣開	-11.3654
堂堂	-11.3654
燝	-11.3654
馳散	-11.3654
爾時除疑大士蒙佛	-11.3654
一味之雨	-11.3654
低突	-11.3654
攢婆也攢婆也	-11.3654
第四句釋	-11.3654
羆	-11.3654
與上同	-11.3654
莫呼洛迦	-11.3654
馱也牟訶也牟訶也	-11.3654
上中下	-11.3654
今身禮佛	-11.3654
依之修習	-11.3654
嚧難悉談婆也	-11.3654
妾母	-11.3654
寶明請問	-11.3654
微罪所追	-11.3654
肉髻	-11.3654
色亦無實	-11.3654
離希	-11.3654
水火盜賊	-11.3654
空慧三昧	-11.3654
徐	-11.3654
廂	-11.3655
破落毀壞	-11.3655
以善意	-11.3655
互	-11.3655
坐寶蓮華	-11.3655
無功之功	-11.3655
莊	-11.3655
非人等	-11.3655
一心奉行作禮而去	-11.3655
解人疑難	-11.3657
鞍	-11.3657
𣿖	-11.3657
殞	-11.3657
躁	-11.3657
橫死不遭	-11.3657
背負	-11.3657
飛騰	-11.3657
上三句明	-11.3657
六欲天中	-11.3657
地自然生	-11.3657
嫁得夫主	-11.3657
日月歲數	-11.3657
群品	-11.3657
椀	-11.3657
牟訶儞	-11.3657
薄伽跋羝	-11.3657
)+	-11.3657
勵	-11.3657
啼過度	-11.3657
於光中觀	-11.3657
明呪祕呪藥	-11.3657
智明三昧	-11.3657
智者呵責	-11.3657
本來不動也	-11.3657
法明三昧	-11.3657
狼狐來	-11.3657
礔	-11.3657
號明法王如來	-11.3657
初總	-11.3657
糧	-11.3658
何況入中	-11.3658
縫	-11.3658
涉路	-11.366
或作畫師	-11.366
仙人玉女	-11.366
嗅香	-11.366
㝹	-11.366
二十三日	-11.366
碓磨	-11.366
其池四岸有種種	-11.366
斷三寶種	-11.366
更相依持	-11.366
令修解行	-11.366
值佛聞法	-11.366
令一切皆各	-11.366
箱	-11.366
虱	-11.366
從夢心而現	-11.366
為我廣分別	-11.366
無德之德	-11.366
疫病	-11.366
破齋之人	-11.366
違理太甚	-11.366
醫藥	-11.366
香林三昧	-11.366
一一地獄中	-11.366
緋	-11.366
金剛頂三昧	-11.366
陀羅尼海三昧	-11.366
分段	-11.3661
八萬七千	-11.3661
郡縣	-11.3661
近惡友	-11.3661
具足十力	-11.3661
十八不共法	-11.3661
菩薩摩訶薩金剛相三昧	-11.3661
娑	-11.3662
而說偈	-11.3662
甑	-11.3662
諸龍鬼神	-11.3662
久存	-11.3662
兔	-11.3662
毀呰誹謗	-11.3663
宿罪所	-11.3663
不老不	-11.3663
床敷	-11.3663
癸	-11.3663
醉酒	-11.3663
於我法中	-11.3663
為貪命	-11.3663
絃	-11.3663
不得大富	-11.3663
初誦至第三日	-11.3663
行來出入	-11.3663
言語道斷	-11.3663
身處光明臺炎赫如	-11.3663
釋迦文佛	-11.3663
那致	-11.3663
死墮肉山地獄中	-11.3663
琶	-11.3663
驅使三寶奴婢	-11.3663
三毒中修	-11.3663
云何更作心	-11.3663
得聞寶車經	-11.3663
無定所	-11.3663
無所罣礙	-11.3663
一切佛境界海三昧	-11.3663
以諸法無	-11.3663
何得不空	-11.3663
公司	-11.3663
功德之所不	-11.3663
功用絕	-11.3663
助三厨	-11.3663
千支	-11.3663
受畜生身	-11.3663
哆梨	-11.3663
如赤子	-11.3663
帝釋承書關下	-11.3663
床蓐	-11.3663
忱	-11.3663
板	-11.3663
氣多則多見	-11.3663
無同無不同	-11.3663
談法性	-11.3663
鏡中面	-11.3663
離名數故	-11.3663
顛倒情奢	-11.3663
鬚眉	-11.3663
鉢羅華	-11.3664
其聲遍滿	-11.3665
筋	-11.3665
佐	-11.3665
招禍	-11.3666
│	-11.3666
譏呵	-11.3666
毘舍闍鬼	-11.3666
重劇	-11.3666
光照獄門開	-11.3666
秡	-11.3666
豚	-11.3666
賞	-11.3666
以慈悲故影現	-11.3666
汝今應當教諸眾生	-11.3666
匙	-11.3666
從索物	-11.3666
懷抱	-11.3666
苦痛難可	-11.3666
鳥鳴	-11.3666
受持讀誦書寫流通	-11.3666
得瑜伽	-11.3666
生時不受戒	-11.3666
聲聞二乘	-11.3666
若在病困中	-11.3666
誨	-11.3666
││	-11.3666
不可為實	-11.3666
傷已迷	-11.3666
剃	-11.3666
曉了	-11.3666
欲知比	-11.3666
湧泉	-11.3666
獵	-11.3666
破齋者墮	-11.3666
等相無故斷	-11.3666
者夢墮	-11.3666
自下第二次	-11.3666
諸陽漸	-11.3666
謂之為實	-11.3666
身中放日光	-11.3666
鉢盂	-11.3666
闕於方便	-11.3666
一切諸佛解脫解脫知見海三昧	-11.3666
借問	-11.3666
寂意滅意三昧	-11.3666
拱	-11.3666
故言色亦如是	-11.3666
空無相無作	-11.3666
耳眼鼻舌身意	-11.3666
融銅灌口	-11.3666
諸三昧海門	-11.3666
撲	-11.3666
阿僧祇劫	-11.3666
惱亂	-11.3667
難化難育	-11.3667
肥	-11.3667
律儀	-11.3667
債	-11.3668
膿血	-11.3668
無言無說	-11.3668
獲四如意	-11.3668
常求諸	-11.3668
小乘四果	-11.3668
輝	-11.3668
當為汝分別	-11.3668
係	-11.3668
我等從今	-11.3668
十一者世世	-11.3668
婦女	-11.3669
法身惠命	-11.3669
終日竟夜	-11.3669
法成不	-11.3669
不求多文以取證義	-11.3669
係心在	-11.3669
觀益中有	-11.3669
淳	-11.3669
仲	-11.3669
并無兒	-11.3669
并聞正法	-11.3669
雜香	-11.3669
二明眼色既空	-11.3669
亦名報佛恩復次善見王於我	-11.3669
倫	-11.3669
冶	-11.3669
半佐也	-11.3669
哆訶	-11.3669
妙色三昧	-11.3669
平除罪	-11.3669
微漸	-11.3669
急疾	-11.3669
有六千四百種	-11.3669
沙門梵志	-11.3669
法喜三昧	-11.3669
法輕慢此法	-11.3669
波佐	-11.3669
為壞貪	-11.3669
無處不遍	-11.3669
當何以知	-11.3669
瞿曇	-11.3669
聞祕密圓教喜踊	-11.3669
臨命終時	-11.3669
自下大文第三	-11.3669
若自求者	-11.3669
行同凡夫	-11.3669
非不非修	-11.3669
韻	-11.3669
席	-11.367
蠢動	-11.367
甦	-11.3671
當觀三處	-11.3671
恒常術	-11.3671
教如實觀	-11.3671
若聞此法	-11.3671
恭敬供養一切佛	-11.3671
明蒙記	-11.3671
解我意	-11.3671
陀羅尼呪	-11.3672
天眼觀	-11.3672
唵	-11.3672
山東日	-11.3672
生人中	-11.3672
精微	-11.3672
卦	-11.3672
一心一佛一性	-11.3672
平旦時	-11.3672
藐	-11.3672
如寡女	-11.3672
譬如陽炎	-11.3672
作車牛	-11.3672
破我法者	-11.3672
允	-11.3672
如凡夫夜夢見身	-11.3672
得好衣	-11.3672
此父母出生應佛緣佛報佛	-11.3672
殺數千人	-11.3672
色聲香味	-11.3672
覺已知無	-11.3672
乃能解心之	-11.3672
佛欲出世懃	-11.3672
刀山劍樹	-11.3672
則千萬不	-11.3672
如是諸人等亦名報佛恩若	-11.3672
忿怒	-11.3672
明呪祕呪一切諸藥	-11.3672
泆	-11.3672
淩	-11.3672
知非非非	-11.3672
祕密藏	-11.3672
自下別中有	-11.3672
變顯現	-11.3672
資容	-11.3672
龍王降雨	-11.3672
佛去世後	-11.3672
搏	-11.3672
諸聲聞凡夫	-11.3672
佛說延壽命經	-11.3673
惡心瞋心	-11.3673
鑪	-11.3673
智慧勇健	-11.3674
所從來	-11.3674
如法修行	-11.3674
惻	-11.3674
方術	-11.3674
十三者世世	-11.3674
佛說法句經	-11.3674
億諸佛所說	-11.3674
惡趣眾苦	-11.3674
無礙如日月所有	-11.3674
興盛	-11.3674
舞	-11.3674
百億須彌山	-11.3675
惺	-11.3675
山北日	-11.3675
欣	-11.3675
開示普賢	-11.3675
除斷無量	-11.3675
都無所得	-11.3675
兀	-11.3676
役力	-11.3676
稱為解脫	-11.3676
而復始	-11.3676
蠱道	-11.3676
當遠求	-11.3676
無義語	-11.3676
我於末世	-11.3676
星辰	-11.3676
欺誑	-11.3676
正真路	-11.3676
滅福生	-11.3676
豐盈	-11.3676
二事相須	-11.3676
修學大乘	-11.3676
初明炎隨	-11.3676
壤	-11.3676
心王自在	-11.3676
所同無異	-11.3676
捨身受身	-11.3676
柱上懸金	-11.3676
死墮斬	-11.3676
水若無風	-11.3676
眾生不達	-11.3676
言語此人	-11.3676
諸天童子	-11.3676
蹤緒無	-11.3676
陰氣漸	-11.3676
不著於水	-11.3676
今身畜多	-11.3676
四大五陰三毒羅剎文字	-11.3676
戒定智慧	-11.3676
掘	-11.3676
真實不虛	-11.3676
眾妙寶山	-11.3676
竊盜	-11.3676
都無生處	-11.3676
鳩槃荼人及	-11.3676
耆	-11.3676
一百八	-11.3676
三事俱	-11.3677
此音聲者	-11.3677
十小劫	-11.3677
三萬佛同根本神	-11.3677
一切諸法無我	-11.3677
求其長短	-11.3677
劫海修行	-11.3677
呪七遍已而	-11.3677
善精勤修	-11.3677
四寶涌成高出一切	-11.3677
諸魔道	-11.3677
棺	-11.3678
一切眾生身內二種	-11.3678
三月四月	-11.3678
佛說天地八陽神呪經	-11.3678
芽	-11.3678
行知語應受	-11.3678
廢	-11.3679
飲噉	-11.3679
兜	-11.3679
貪欲瞋恚愚癡	-11.3679
亂之世	-11.3679
如石女兒	-11.3679
亦無增減	-11.3679
猶為無	-11.3679
讀經不解	-11.3679
不如早	-11.3679
四維上下	-11.3679
忉利天王	-11.3679
五陰有故	-11.3679
住於外不應從	-11.3679
修集大乘	-11.3679
縣官事	-11.3679
身皮肉筋	-11.3679
劬	-11.3679
吉日然始	-11.3679
增壽益算	-11.3679
死墮糞	-11.3679
死墮鐵丸地獄	-11.3679
沙訶	-11.3679
皂王神通	-11.3679
不住明空	-11.3679
劫欲盡	-11.3679
四十九年	-11.3679
多虛少實	-11.3679
妄渴心息	-11.3679
威勢	-11.3679
膠	-11.3679
蒲	-11.3679
蝎	-11.3679
見臍中	-11.3679
請轉於無上輪	-11.3679
身諸毛孔	-11.3679
阿脩羅	-11.3679
體融大寂相即	-11.3679
他所敵軍不能侵	-11.3679
伏圖	-11.3679
作七結	-11.3679
內外表	-11.3679
初明眼色	-11.3679
力普及諸	-11.3679
城池巷陌	-11.3679
如斯之徒	-11.3679
孝子	-11.3679
幻惑呪術	-11.3679
度願常	-11.3679
從心化生	-11.3679
忘菩提心所有諸	-11.3679
悟達本無	-11.3679
携	-11.3679
次有銀	-11.3679
水渧	-11.3679
湛然常一	-11.3679
無礙菩薩摩訶薩聞法歡喜	-11.3679
疾疫	-11.3679
眾故非生	-11.3679
須彌寶山	-11.3679
願與彼等常相	-11.3679
餘習未	-11.3679
苞	-11.3679
凶禍	-11.3679
倚	-11.3679
澡	-11.3679
稷	-11.368
十五同號	-11.368
作是語	-11.368
芝	-11.368
尅	-11.368
俯身量等剎土塵虔心	-11.368
貪欲恚癡	-11.368
一佛境界百億	-11.368
世世值	-11.368
括	-11.368
文字經教	-11.368
鐵鉤	-11.368
佛說決罪福經卷	-11.368
六種見趣	-11.368
同號不思議	-11.368
年歲次	-11.368
普賢菩薩行願王經	-11.368
蓮花臺	-11.368
從今以	-11.368
材	-11.368
行大供養盡未來劫	-11.368
諸法義願所希望	-11.368
特	-11.368
奉詔譯	-11.3681
跋	-11.3681
+	-11.3681
可憐	-11.3681
遊步	-11.3681
死墮寒氷地獄	-11.3681
呪水七遍	-11.3681
爛壞	-11.3681
震大法雷	-11.3681
荷	-11.3681
莎	-11.3682
叉手	-11.3682
梨耶	-11.3682
如電久住	-11.3682
故是名非	-11.3682
隨意所喜	-11.3682
攢	-11.3682
癡愛欲	-11.3682
嘉	-11.3682
奴婢牛羊	-11.3682
此之謂	-11.3682
七寸	-11.3682
射箭	-11.3682
三惡趣	-11.3682
他方地獄中受罪	-11.3682
妻婦	-11.3682
慎勿	-11.3682
憎愛	-11.3682
收萬法	-11.3682
煩惱交會	-11.3682
眼耳鼻舌名為	-11.3682
轉近轉滅	-11.3682
初正勸	-11.3682
無上慈父將	-11.3682
競來前	-11.3682
一微塵上	-11.3682
不畏諸魔外道之難	-11.3682
偈次明	-11.3682
妙衣服及薰香	-11.3682
山林社稷	-11.3682
後末世時	-11.3682
普賢行願力	-11.3682
眾生死盡	-11.3682
積集少善根皆	-11.3682
證實相者知此陰中本來無色	-11.3682
身業口業及意業	-11.3682
鎧仗防	-11.3682
一大城中如是取盡名一	-11.3682
下正觀中	-11.3682
下第三總結	-11.3682
仍	-11.3682
億劫受	-11.3682
則文義	-11.3682
大法聚池	-11.3682
天地破壞	-11.3682
如是難知	-11.3682
寂靜故則無	-11.3682
心不隨染	-11.3682
慧炬三昧	-11.3682
我今語汝	-11.3682
我諸善友開	-11.3682
收槐子	-11.3682
普智三昧	-11.3682
月殿	-11.3682
有中輪轉時	-11.3682
死墮毒蛇	-11.3682
海意三昧	-11.3682
無動亂故則	-11.3682
獨處遠離	-11.3682
知嗔等	-11.3682
第六天上	-11.3682
聲聞凡夫人	-11.3682
若有奪人	-11.3682
萬法緣生	-11.3682
誰遊三世	-11.3682
釀	-11.3682
非異非	-11.3682
𠿇	-11.3682
十方剎土中	-11.3683
娛	-11.3683
瞋喜之心	-11.3683
當於來世	-11.3683
解空相三昧	-11.3683
供給	-11.3683
佛說現報當受經	-11.3683
十方諸剎土	-11.3683
寥	-11.3683
悕	-11.3683
慈仁問八十種好經	-11.3683
無瑕穢	-11.3683
脫亦難	-11.3683
菩提過去十方	-11.3683
他軍眾	-11.3683
倦無時	-11.3683
僧伽梨衣	-11.3683
六天皆盡	-11.3683
大智力智	-11.3683
消滅永無餘	-11.3683
百劫千劫百千	-11.3683
眾魔惡鬼	-11.3683
脫諸難	-11.3683
解脫願成	-11.3683
許護持此經	-11.3683
跋陀羅	-11.3683
黃金水精作	-11.3683
詣佛所	-11.3684
沾	-11.3684
佛告常施	-11.3684
伏連之鬼	-11.3684
符厭死喪新舊注雌雄破	-11.3684
十二者人	-11.3685
居中佛子眾圍繞	-11.3685
於一塵上微塵	-11.3685
項背光明	-11.3685
門戶井竈	-11.3685
羅雙樹間	-11.3685
甚難甚難	-11.3685
豹	-11.3685
凝	-11.3685
四天王各	-11.3685
達深義	-11.3685
吐火	-11.3685
怏	-11.3685
披折	-11.3685
屠兒	-11.3685
則兄弟	-11.3685
十六者舉	-11.3685
事興請	-11.3685
死墮蟒蛇	-11.3685
墓	-11.3685
為汝問故	-11.3685
破塔壞寺	-11.3685
若不發問	-11.3685
雨淚	-11.3685
鴿	-11.3685
剔除鬚髮	-11.3685
恒受快樂	-11.3685
戰鬪	-11.3685
斷攀緣	-11.3685
昔蒙	-11.3685
楞	-11.3685
為欲攝取諸惡眾生令住善	-11.3685
若老若少皆	-11.3685
饍	-11.3685
三千界滿中一切人	-11.3685
三大阿僧祇劫	-11.3685
不一不二	-11.3685
不得橫來	-11.3685
不洗一切	-11.3685
不須除	-11.3685
主之金	-11.3685
亡心息意	-11.3685
其土人民	-11.3685
力普及普	-11.3685
十八者世世教	-11.3685
卉木	-11.3685
周旋	-11.3685
哀愍我等	-11.3685
大慈所薰	-11.3685
宿世久遠造五逆行	-11.3685
屠兒行上	-11.3685
從心性本際	-11.3685
從頂至下根凡高	-11.3685
教汝處	-11.3685
於此眾中欣然而	-11.3685
普賢之行	-11.3685
曼哆羅	-11.3685
有如來性	-11.3685
杵碎其	-11.3685
沖	-11.3685
洗浣	-11.3685
混沌流	-11.3685
滅意定	-11.3685
相依二俱	-11.3685
眾寶普集	-11.3685
知身中具有	-11.3685
究之無實	-11.3685
究竟大悲經卷第三	-11.3685
端身而	-11.3685
自下第三偈	-11.3685
若能有一人	-11.3685
菩薩大士亦	-11.3685
行願為一	-11.3685
西俱耶尼	-11.3685
見振旦國	-11.3685
說大乘法	-11.3685
論肉價	-11.3685
謗禪壞亂眾	-11.3685
身心是佛法器	-11.3685
身根具足	-11.3685
耳鼻舌身意	-11.3685
龜	-11.3685
在所墮生常	-11.3685
遊於三世諸最勝	-11.3685
盡欲大樂	-11.3685
絹帛	-11.3685
發無上菩提善	-11.3686
佛說無量大慈教經	-11.3686
萬刀輪一時來下	-11.3686
人二十萬	-11.3686
乃知虛妄	-11.3687
亦同然	-11.3687
廓	-11.3687
晃	-11.3687
塗香及寶蓋	-11.3687
大彊精進勇	-11.3687
當何所歸	-11.3687
能得佛意	-11.3687
如幻解脫力	-11.3687
建立一塵上如是無	-11.3687
東弗	-11.3687
海令圓滿諸佛	-11.3687
為法喪身	-11.3687
脛	-11.3687
選是擇非	-11.3687
侶	-11.3687
淨行尼僧	-11.3687
月九月	-11.3687
朦	-11.3687
死墮飲銅地獄中	-11.3687
符厭赤舌之鬼	-11.3687
符厭遊天之	-11.3687
綖	-11.3687
車渠馬瑙珊瑚虎珀	-11.3687
陣	-11.3687
山南日	-11.3688
諸樹行列	-11.3688
共一國同住	-11.3688
刀山地獄	-11.3688
憶想	-11.3688
作無量形	-11.3688
從何所出	-11.3688
名為六國	-11.3688
唯願世尊為諸邪見	-11.3688
未得無生	-11.3688
含識有形	-11.3688
終朝	-11.3688
醫師	-11.3688
鐘	-11.3688
及諸尊菩薩	-11.3688
媒	-11.3688
得失交競	-11.3688
聰慧辯才	-11.3688
頹	-11.3688
一心合掌白佛言	-11.3688
下有無極大風	-11.3688
不起異念	-11.3688
前後圍繞	-11.3688
喜見城	-11.3688
四天大王	-11.3688
均	-11.3688
如電光	-11.3688
復離此	-11.3688
我從過去	-11.3688
所有未來諸世	-11.3688
海皆是諸佛	-11.3688
淡	-11.3688
無染常淨	-11.3688
申酉年	-11.3688
眼色與心	-11.3688
羅大王	-11.3688
與一切眾生作	-11.3688
不可謂之	-11.3688
不是異	-11.3688
不覩真	-11.3688
世間一切人心	-11.3688
今世數逢	-11.3688
何況有人而得	-11.3688
促短	-11.3688
出於世間	-11.3688
名為經卷亦名法	-11.3688
在毘耶離城中	-11.3688
在海水中	-11.3688
太府	-11.3688
如波羅奢花	-11.3688
如無簡擇	-11.3688
妙伽他	-11.3688
對眼為	-11.3688
小鐵圍小	-11.3688
巖	-11.3688
師子音聲三昧	-11.3688
常以軟	-11.3688
怯	-11.3688
愕	-11.3688
成佛亦不久	-11.3688
成大樹	-11.3688
我今普禮一切十方三世諸佛	-11.3688
我應入	-11.3688
扭	-11.3688
是名為實	-11.3688
普賢此行願	-11.3688
月英	-11.3688
未曾暫	-11.3688
欲求度世道	-11.3688
此上基	-11.3688
此經者即名	-11.3688
海令清淨諸	-11.3688
混融大寂	-11.3688
瑋	-11.3688
生滅不住	-11.3688
真佛弟子	-11.3688
稱揚諸佛功德經	-11.3688
蠶蟲	-11.3688
賢者阿難	-11.3688
陀羅尼印三昧	-11.3688
顏容	-11.3688
驗知	-11.3688
殖	-11.3688
彼等諸佛	-11.3689
共同一處	-11.3689
常生邪見	-11.3689
一切經一部	-11.3689
不復覩見如來	-11.3689
像法決疑經	-11.3689
汝諦聽受持	-11.3689
雜佛同號	-11.3689
鈍	-11.3689
東方王明諸佛	-11.369
與日月同	-11.369
但自觀身	-11.369
無盡藏	-11.369
倍增疑	-11.369
至誠	-11.369
二十二者	-11.369
我恒在其中為護如是人令得無上道	-11.369
藪	-11.369
讚嘆	-11.369
內懷不	-11.369
及花鬘	-11.369
菴	-11.369
蠲除	-11.369
▁薩	-11.369
不信身中有	-11.369
何況揣財	-11.369
佛子圍繞	-11.369
修何行	-11.369
刀利天	-11.369
得悋惜	-11.369
於勝菩提	-11.369
為欲調伏	-11.369
禮是三世佛	-11.369
覺轉法輪示	-11.369
靉靆垂布	-11.369
頑愚	-11.369
一時佛在王舍	-11.369
摧折	-11.3691
究竟大悲經卷第二	-11.3691
符厭日遊土氣之鬼	-11.3691
符厭星死之鬼	-11.3691
符厭比舍五土	-11.3691
五十同號	-11.3691
大通方廣懺悔滅罪莊嚴成佛經卷	-11.3691
如來弟子眾	-11.3691
就聖道	-11.3691
闍維之具	-11.3691
貪嗔	-11.3691
翁	-11.3691
己身明淨如	-11.3691
題諸法	-11.3691
謂呼為實	-11.3691
飽滿	-11.3691
南無普攝	-11.3691
告普賢菩薩	-11.3691
若有見聞	-11.3691
誇	-11.3691
九百九十九	-11.3691
交報	-11.3691
塼	-11.3691
妨害	-11.3691
是有住	-11.3691
下類凡夫	-11.3691
到涅槃岸	-11.3691
參羅及萬像一法之所印	-11.3691
寒熱	-11.3691
懃行精進	-11.3691
至人定分	-11.3691
壽命延長	-11.3691
尚書	-11.3691
就文分別	-11.3691
已下舉	-11.3691
沙土	-11.3691
男陽	-11.3691
皆是宿世久遠	-11.3691
若持此經	-11.3691
辰星	-11.3691
一者離體求相	-11.3691
不聽酌酒與	-11.3691
不肖子者	-11.3691
世間愚癡人不信寶車經	-11.3691
亦作紫磨金色	-11.3691
以智慧力	-11.3691
佛說地藏菩薩經	-11.3691
力力中力	-11.3691
唯願為我	-11.3691
嗽	-11.3691
多諸過	-11.3691
如種菓	-11.3691
尅印	-11.3691
巡	-11.3691
巷	-11.3691
常願與	-11.3691
強勸比丘酒者	-11.3691
得大總持	-11.3691
從因緣生	-11.3691
復過此劫劫名	-11.3691
悉無殊	-11.3691
捕	-11.3691
方便隨宜	-11.3691
桓	-11.3691
此輩眾生	-11.3691
求名譽	-11.3691
法第一世尊	-11.3691
清淨諸業力	-11.3691
狐魅妖術	-11.3691
現在十方千五百佛名	-11.3691
眾生故即現	-11.3691
究竟大悲經卷第四	-11.3691
空無有無	-11.3691
篩	-11.3691
苞羅	-11.3691
若名字定無	-11.3691
誰肯	-11.3691
郎	-11.3691
隱士	-11.3691
朽	-11.3692
西方胡國中來	-11.3692
諸波羅	-11.3692
佐助	-11.3692
四部眾	-11.3692
娑婆訶	-11.3692
救諸眾生一切苦難經	-11.3692
彈指	-11.3693
如起貪著	-11.3693
世間空虛無	-11.3693
中究竟清涼樂	-11.3693
云何一法中如生種種見	-11.3693
其身長大	-11.3693
劉	-11.3693
為利一切有情故	-11.3693
破壞四魔	-11.3693
三家使一牛五男同一婦僧尼巡門	-11.3693
偏袒右肩右膝著地	-11.3693
傾動	-11.3693
僧伽和尚	-11.3693
其火盛熱	-11.3693
力圓滿普賢行行力諸	-11.3693
卜問	-11.3693
大辯邪正法門品第	-11.3693
天龍藥叉	-11.3693
學無學	-11.3693
得足下平	-11.3693
恐畏	-11.3693
我願行於	-11.3693
汝向所說	-11.3693
海令解脫	-11.3693
生善道	-11.3693
當來值彌勒	-11.3693
白疊	-11.3693
符厭客死之鬼	-11.3693
綴	-11.3693
若善知識諸有所作	-11.3693
著相求	-11.3693
裂	-11.3693
譬如春月	-11.3693
譬如盲人	-11.3693
逢大師已	-11.3693
金剛堅彊	-11.3693
除滅四重禁	-11.3693
銜	-11.3693
盡無遺	-11.3693
㖒	-11.3693
金有陀羅尼經	-11.3694
本免一	-11.3694
命終之日	-11.3694
中有一老	-11.3694
佛說七千佛神符經	-11.3694
佛說法王經	-11.3694
依經我略	-11.3694
十同號光明	-11.3694
大興善寺翻經	-11.3694
寫一本免一	-11.3694
寫兩本免	-11.3694
憐貧念	-11.3694
珀	-11.3694
山西日	-11.3694
七十萬	-11.3694
子見母	-11.3694
孝養	-11.3694
臨般涅槃	-11.3694
五蓋五欲	-11.3694
人非人	-11.3694
頃	-11.3694
入惡趣	-11.3694
名終日名猶為無名	-11.3694
塔廟形像	-11.3694
形更受	-11.3694
悟無生忍	-11.3694
目之徒	-11.3694
身意快然	-11.3694
以大願船	-11.3694
如師子王	-11.3694
朋友知識	-11.3694
樓上有	-11.3694
衰喪	-11.3694
轉名無	-11.3694
以自防	-11.3694
剔	-11.3694
動舌轉斷默	-11.3694
古今	-11.3694
善於伎藝	-11.3694
恃託一人	-11.3694
愛見等者	-11.3694
於此法中	-11.3694
是四依	-11.3694
當得菩提	-11.3694
邪婬	-11.3694
邪正真偽	-11.3694
一日一宿中受持	-11.3694
三菩提心	-11.3694
世間行世間不	-11.3694
二乘之行	-11.3694
伐樹不去	-11.3694
佛說善惡因果經	-11.3694
佛說父母恩重經	-11.3694
傷嘆	-11.3694
加葉菩薩	-11.3694
千佛符打鍛眾魔	-11.3694
同下方名	-11.3694
名之為偽	-11.3694
名為正中	-11.3694
善根為修普賢行迴向	-11.3694
多者為說	-11.3694
大士菩薩等	-11.3694
大方廣佛花嚴經普賢菩薩行願王品	-11.3694
大通方廣經卷中	-11.3694
嬈惱	-11.3694
子孫興	-11.3694
宿基	-11.3694
從狗中來	-11.3694
必得成佛道	-11.3694
撮	-11.3694
於無量百千萬億恒河沙不可算數佛	-11.3694
旱	-11.3694
時節欲到	-11.3694
普現色身三昧	-11.3694
枝條因	-11.3694
此安心妙法	-11.3694
泣淚	-11.3694
無是可是	-11.3694
無目之人	-11.3694
燒其脂火	-11.3694
爾時文殊師利菩薩重	-11.3694
生信復能解	-11.3694
生迫迮	-11.3694
瞻仰常於	-11.3694
紀不同	-11.3694
維摩朔	-11.3694
縣官口舌	-11.3694
而至佛所	-11.3694
聾聽	-11.3694
試印	-11.3694
誑他取物	-11.3694
諸德海	-11.3694
諸惡獸	-11.3694
諸道義	-11.3694
證無著	-11.3694
護持禁戒	-11.3694
赤骨	-11.3694
逾	-11.3694
遊於三世人師子	-11.3694
選	-11.3694
釧	-11.3694
陵奪所愛蔓陷師長	-11.3694
雖不是於	-11.3694
鴛鴦	-11.3694
懃心精進	-11.3695
為其說法斷諸結漏得羅漢道	-11.3695
願以此功德普及於一切	-11.3695
烏	-11.3695
佛說山海慧菩薩經	-11.3695
併	-11.3695
勸善經一卷	-11.3695
坐金棺楯上	-11.3695
大方廣華嚴十惡品經	-11.3695
散騎常侍昭文館學士權兼檢校	-11.3695
普賢菩薩說證明經	-11.3695
沙門師利	-11.3695
第一虐病	-11.3695
上柱國	-11.3696
千遍重罪皆消滅	-11.3696
口銜	-11.3696
救疾經一卷	-11.3696
羽林將軍上柱國	-11.3696
詳定奉勅銀青光祿大夫	-11.3696
雷鳴雨	-11.3696
作諸惡業	-11.3696
於三寶所	-11.3696
洞好	-11.3696
一上廁一	-11.3696
為諸煩惱弊於	-11.3696
唯願佛世尊為我	-11.3696
冥理奉	-11.3696
三事俱空	-11.3696
抓	-11.3696
是故號之為普賢	-11.3696
普賢行等覺已	-11.3696
聞種種法	-11.3696
若有依者	-11.3696
菩提行願	-11.3696
親覩彌陀	-11.3696
鋤	-11.3696
鼈	-11.3696
䠒合掌	-11.3696
七十同號	-11.3696
九十二億	-11.3696
亦復歸命下方	-11.3696
亦復歸命北方	-11.3696
亦復歸命南方	-11.3696
以惠力	-11.3696
佛說齋法清淨經	-11.3696
光耀	-11.3696
受持及讀誦	-11.3696
吾為汝說	-11.3696
持經之人	-11.3696
新菩薩經一卷	-11.3696
未解安心者	-11.3696
未證菩提者	-11.3696
正議大夫	-11.3696
每日念阿彌陀佛一千	-11.3696
無與等	-11.3696
盡於世界利群生	-11.3696
窖	-11.3696
縣開國	-11.3696
老病死苦常	-11.3696
舒金色	-11.3696
苅	-11.3696
邪歸入八正道	-11.3696
隨分修習	-11.3696
死者變成活	-11.3696
俱發聲言	-11.3697
符厭兵	-11.3697
流浪生死	-11.3697
音聲三昧	-11.3697
客僧	-11.3697
此會眾及未來	-11.3698
麥	-11.3698
憂怖	-11.3698
是即名為	-11.3698
從本已來未曾報恩	-11.3698
紫金作中	-11.3698
龜毛	-11.3698
􅶊	-11.3698
午時	-11.3698
菜	-11.3698
顛狂	-11.3698
天堂自來	-11.3698
如樹提伽	-11.3698
文書	-11.3698
是故上盡	-11.3698
火焚燒	-11.3698
聾盲瘖瘂	-11.3698
舉足一步	-11.3698
不敢違犯	-11.3698
健瞋	-11.3698
其狀如	-11.3698
南無金藏	-11.3698
又初欲	-11.3698
召集	-11.3698
好勝欺人	-11.3698
戰懼	-11.3698
有津液	-11.3698
槃馬	-11.3698
無數精進	-11.3698
無本無住	-11.3698
犁耕	-11.3698
生死諸難	-11.3698
身長丈	-11.3698
難踰	-11.3698
餘念攝	-11.3698
鬪亂人	-11.3698
龍花初首	-11.3698
𦟛	-11.3698
一性金剛	-11.3698
七百七十佛下生	-11.3698
不聞真法	-11.3698
供養彼等諸最勝	-11.3698
假使有人純以	-11.3698
僧菓子者	-11.3698
喻彰	-11.3698
喻正明	-11.3698
埌	-11.3698
大辨邪正	-11.3698
契要	-11.3698
定墮三惡道	-11.3698
常住二字	-11.3698
常得親	-11.3698
常聞正法	-11.3698
常與明師相	-11.3698
徑	-11.3698
忙	-11.3698
我等眷屬常來	-11.3698
或正月	-11.3698
所須之物	-11.3698
歇	-11.3698
治化時	-11.3698
波叫聲	-11.3698
照境分明	-11.3698
熾然流浪生死	-11.3698
狂花	-11.3698
百二十賢君	-11.3698
膩吒利	-11.3698
菩薩觀身二種	-11.3698
行五戒十善然燈照	-11.3698
諸根塵門	-11.3698
變為狐	-11.3698
迷心波浪求	-11.3698
逮無所得	-11.3698
陰陽氣以	-11.3698
雙泯善惡	-11.3698
炙肉	-11.3698
輻	-11.3698
佛說天公經	-11.3698
生懈怠	-11.3698
見一老	-11.3698
造作魅蠱	-11.3698
破齋夜食	-11.3699
不可測	-11.3699
如似俗人	-11.3699
我是律師	-11.3699
捨棄我	-11.3699
如世生盲	-11.3699
於毒害	-11.3699
流離光	-11.3699
種種諸形相	-11.3699
及餘他方	-11.3699
一亦不為一	-11.3699
其餘法師	-11.3699
大梵天王釋提桓因四天大王	-11.3699
得大陀羅尼	-11.3699
普賢菩薩亦如是我	-11.3699
此經多饒	-11.3699
淺智之所聞見一以為一	-11.3699
炎忍亦無所忍	-11.3699
為欲破諸數	-11.3699
燒香散花	-11.3699
牽挽	-11.3699
諦聽諦受	-11.3699
諸苾芻苾芻尼烏波索迦烏波斯	-11.3699
一切眾生身內二種法身	-11.3699
佛說如來成道經	-11.3699
圓滿諸佛子中最	-11.3699
在於東海	-11.3699
大林藪	-11.3699
婆毘	-11.3699
惡虫入	-11.3699
方寸七	-11.3699
未通者	-11.3699
維摩文殊	-11.3699
與彌勒尊佛	-11.3699
萬行圓備	-11.3699
訶帝	-11.3699
讚僧寶	-11.3699
▁2917	-11.37
及諸天龍八部鬼神	-11.37
耳飡法音	-11.37
千千萬	-11.37
善神加護	-11.37
寧喪身命	-11.37
破寺破	-11.37
率	-11.3701
逕歷	-11.3701
鴦	-11.3701
地獄刑竟	-11.3701
宿命罪	-11.3701
狹劣	-11.3701
白銀作中	-11.3701
設名題	-11.3701
陀婆羅	-11.3701
亦愈	-11.3701
在在處處廣宣流布	-11.3701
安樂國	-11.3701
應除諸見	-11.3701
手把金杖	-11.3701
睞	-11.3701
和九流	-11.3701
遍滿閻浮	-11.3701
壽六十	-11.3701
無中夭	-11.3701
繼繼	-11.3701
諱	-11.3701
貢高自恃	-11.3701
金剛之體	-11.3701
除滅宿罪	-11.3701
上持五戒得生其國	-11.3701
住持建立	-11.3701
信實者少	-11.3701
因地初發心時	-11.3701
巷巷相當門門相	-11.3701
并諸寶物	-11.3701
心滅意	-11.3701
忻仰	-11.3701
成等正覺轉法輪降伏一切魔軍眾	-11.3701
戚	-11.3701
明八部眾	-11.3701
無上廣大	-11.3701
福盡罪	-11.3701
舉世無量	-11.3701
若提子等	-11.3701
萬代	-11.3701
醫王	-11.3701
一便聞香	-11.3701
一切皆心心	-11.3701
不涼不熱	-11.3701
世有十倍	-11.3701
二億一千	-11.3701
二鼠嚙	-11.3701
云何而有眾生聞即	-11.3701
佛母聞此	-11.3701
優丘尼	-11.3701
出一切眾生身內慧命法身	-11.3701
南無善遊步	-11.3701
吾欲畏是故求道	-11.3701
堰	-11.3701
妙法蓮華經	-11.3701
已即時	-11.3701
得佛法分	-11.3701
懇悅心	-11.3701
懈怠者	-11.3701
斂治	-11.3701
是太一洪源神變	-11.3701
會吾意	-11.3701
有深有淺	-11.3701
服於法藥消煩惱病	-11.3701
死獄死之	-11.3701
求目前	-11.3701
炳	-11.3701
父母兄弟妻子	-11.3701
獄囚	-11.3701
用財貨	-11.3701
發無上菩提心	-11.3701
百餘年	-11.3701
積習	-11.3701
究其玄旨	-11.3701
童男童女	-11.3701
絞假	-11.3701
維摩度人	-11.3701
緣在橋	-11.3701
莖節	-11.3701
變作人像	-11.3701
輪輻	-11.3701
進力不敢停	-11.3701
邪偽	-11.3701
鐵山王	-11.3701
非見非說	-11.3701
髮文相	-11.3701
兩片	-11.3701
澍	-11.3701
統領	-11.3701
佛名寶	-11.3702
漸衰	-11.3702
章句	-11.3702
幽幽	-11.3702
以不淨食	-11.3702
救攝汝等	-11.3702
若在大火中	-11.3702
受持讀誦書寫	-11.3702
皆見化佛	-11.3702
實無有生滅	-11.3702
生滅即涅槃本來無所動	-11.3702
七殺之所	-11.3702
未來諸劫	-11.3702
鳩	-11.3702
之果報唯佛知	-11.3702
澄澄	-11.3702
八部神	-11.3702
各有異見	-11.3702
城東門	-11.3702
恚恨	-11.3702
於一心中而	-11.3702
日出時天下	-11.3702
水大病本亦有百一	-11.3702
盪	-11.3702
肌	-11.3702
虛無湛	-11.3702
阿素洛	-11.3702
阿迦貳吒天	-11.3702
佛說妙好寶車經	-11.3702
大病本亦有百一	-11.3703
藍	-11.3703
熏	-11.3703
太子右	-11.3703
陸	-11.3703
入佛知見	-11.3703
安住佛法中	-11.3703
漬	-11.3703
焚漂	-11.3703
荼	-11.3703
幡綵	-11.3704
兼復	-11.3704
措	-11.3704
生大憂惱	-11.3704
西廂	-11.3704
若色如是	-11.3704
譬之如	-11.3704
渴愛	-11.3704
其光明中	-11.3704
彌勒出世	-11.3704
愚癡之人	-11.3704
懃心作	-11.3704
或有闇取	-11.3704
隻	-11.3704
非我力能	-11.3704
一切諸魔	-11.3704
上有白銀	-11.3704
汝好受持	-11.3704
而無伴	-11.3704
花菓	-11.3704
鐵圍山百億	-11.3704
內朗	-11.3704
忉	-11.3704
懸繒幡蓋	-11.3704
整理威儀	-11.3704
案教奉	-11.3704
沈沒	-11.3704
無明根本	-11.3704
知行亦寂滅是	-11.3704
雙結	-11.3704
丁香	-11.3704
不孝父母	-11.3704
亦不教我	-11.3704
仙賢	-11.3704
佛說要行捨身經	-11.3704
信聖情慇	-11.3704
偈胡音	-11.3704
初偈明	-11.3704
劫沈淪	-11.3704
四十二億諸	-11.3704
四者常能	-11.3704
在中住	-11.3704
在北斗星注	-11.3704
媾	-11.3704
安住清淨地	-11.3704
寧以利刀	-11.3704
年十一月	-11.3704
年此日	-11.3704
并及國界臣	-11.3704
廣長舌	-11.3704
延壽經一百卷	-11.3704
彼方眾生謂言	-11.3704
彼行是等諸善	-11.3704
憒	-11.3704
成就無量功德	-11.3704
我今涅槃時	-11.3704
我於千劫中算	-11.3704
捨邪歸正	-11.3704
撾打	-11.3704
故得齒	-11.3704
故言眼不自見	-11.3704
於僧中起邪見	-11.3704
曼	-11.3704
曼多隸	-11.3704
烏呼	-11.3704
無學無憂	-11.3704
當至心念	-11.3704
疫氣	-11.3704
百千萬億日月	-11.3704
眾生見之心生	-11.3704
秏	-11.3704
縠	-11.3704
者正念若能	-11.3704
行捨身功德	-11.3704
認	-11.3704
躄	-11.3704
違彼丘埌	-11.3704
阿含經	-11.3704
附傍鬼	-11.3704
頰	-11.3704
骸	-11.3704
三千大千	-11.3704
不敢忘失	-11.3704
元年六月二十	-11.3704
第十七	-11.3705
諸梵天王及以	-11.3705
我是法師	-11.3705
講說經律	-11.3705
善學諸方便度脫於群生	-11.3706
於此中生	-11.3706
歎未曾有	-11.3706
毀辱	-11.3706
灑	-11.3706
若無我見者究竟無	-11.3706
一日二日三日四日五日六日七日	-11.3706
佛告善見王子	-11.3706
南無無勝	-11.3706
大般涅槃經	-11.3706
奄	-11.3706
如斯人	-11.3706
心是妄非精	-11.3706
我若具說	-11.3706
施福如野馬	-11.3706
甘雨	-11.3706
程	-11.3706
諸惡友是人速見阿彌陀	-11.3706
還得活者	-11.3706
除不至心	-11.3706
須彌山頂	-11.3706
拘尸那	-11.3706
墮黑闇地獄	-11.3706
親侍	-11.3706
哆	-11.3706
或取五綵	-11.3706
暫讀此經三遍	-11.3706
有形之類	-11.3706
甘露味	-11.3706
第一心開符	-11.3706
第二益算符	-11.3706
第五注生人阿姬死鬼秏	-11.3706
一時佛住	-11.3707
是汝梯橙	-11.3707
綿	-11.3707
割肉	-11.3707
在虛空中	-11.3707
如此夢事	-11.3707
寂照照寂	-11.3707
或求僧長短	-11.3707
東廂	-11.3707
菜茹懷	-11.3707
入一乘道	-11.3707
可救者	-11.3707
說食與人	-11.3707
比婆	-11.3707
眾中復有菩薩名曰	-11.3707
都無此肉	-11.3707
信女等	-11.3707
捨於財物	-11.3707
無心無心是	-11.3707
經營三寶	-11.3707
衣鉢自隨	-11.3707
解脫之果	-11.3707
非無非不	-11.3707
以一味	-11.3707
以百億世界土石諸山	-11.3707
如來慧光	-11.3707
有能受持寶車菩薩經	-11.3707
畫	-11.3707
違背實相	-11.3707
一人獨	-11.3707
七寶宮殿	-11.3707
五無間等諸	-11.3707
亦復歸命諸餘經法	-11.3707
人手脚	-11.3707
佛復語	-11.3707
佛為心王菩薩說投陀經	-11.3707
信即成最勝功德聚	-11.3707
修此功德得生	-11.3707
八功德水	-11.3707
勸請隨喜	-11.3707
十人之力	-11.3707
去世後我等當流布	-11.3707
去地一千尺	-11.3707
受其苦	-11.3707
土不相刻符	-11.3707
在日月宮中	-11.3707
士庶	-11.3707
姉	-11.3707
宿種善	-11.3707
富㝹尼	-11.3707
巨	-11.3707
必定獲得無	-11.3707
慈心養命	-11.3707
懃行勸	-11.3707
我又一時讚歎	-11.3707
我見顛倒	-11.3707
拔箭	-11.3707
文勢	-11.3707
有情類	-11.3707
有苑園浴	-11.3707
法僧不滅	-11.3707
瀅	-11.3707
然不名為	-11.3707
煩惱際我之願際量亦	-11.3707
熒惑星	-11.3707
父慈子孝	-11.3707
牢固	-11.3707
盈滿	-11.3707
盡於虛空	-11.3707
眾生性皆同	-11.3707
第三救護身命符	-11.3707
第四金木水	-11.3707
自然消滅	-11.3707
若受持若讀誦	-11.3707
諸佛人及諸	-11.3707
諸法實相	-11.3707
走避	-11.3707
迴向願我亦同於	-11.3707
造十惡業	-11.3707
過咎	-11.3707
闇誦棄惡從善	-11.3707
防護口業	-11.3707
阿蘇	-11.3707
雖曰凡夫	-11.3707
饌	-11.3707
鬼神妖魅	-11.3707
覆蓋汝等功	-11.3709
當爾之時一切俗	-11.3709
鬘	-11.3709
危脆	-11.3709
如是遇者	-11.3709
數千萬劫	-11.3709
雙泯是非	-11.3709
非出非	-11.3709
十方無量剎	-11.3709
我今如實說	-11.3709
若有比丘比丘尼清信士	-11.3709
令此眾生	-11.3709
剎塵劫	-11.3709
十千菩薩得無生	-11.3709
墮泥犁	-11.3709
提婆	-11.3709
智慧隨身	-11.3709
若能心不妄精進無有	-11.3709
上至第七	-11.3709
了了分明	-11.3709
南無金剛不壞	-11.3709
娑訶世界	-11.3709
濁翳	-11.3709
燒香請	-11.3709
舟	-11.3709
讀誦講說	-11.3709
龍華樹下	-11.3709
色與心	-11.3709
苦樂之事	-11.3709
惡瘡膿血遍體	-11.3709
靈鷲山	-11.3709
世尊今欲	-11.3709
西方阿彌陀佛	-11.3709
交流	-11.371
衣覆	-11.371
法難聞	-11.371
延長	-11.371
上奏天	-11.371
兜率天上	-11.371
青龍	-11.371
唯從眾僧乞索	-11.371
將法逐法	-11.371
瘻	-11.371
爾時雀梨浮圖	-11.371
胞胎	-11.371
尋光雲集	-11.371
於畢竟空中熾然建立	-11.371
東方木	-11.371
連年累	-11.371
五陰不聽	-11.371
受持者書寫	-11.371
炎邊	-11.371
翔	-11.371
一一門外	-11.371
不中夭	-11.371
以何等隨隨自性流	-11.371
以求人	-11.371
壽終之後	-11.371
大通智勝	-11.371
封執	-11.371
對機說授	-11.371
常使是人臥	-11.371
常處於三毒長養於	-11.371
序分	-11.371
復言隨自性流	-11.371
微細	-11.371
推尋	-11.371
比丘比丘尼優婆塞優婆夷國王大臣	-11.371
為我徒眾	-11.371
發意作	-11.371
萬法平等	-11.371
遠行他	-11.371
酸	-11.371
非相非非相	-11.371
鳥鳴百怪	-11.371
一法即	-11.371
佛語不虛	-11.371
兢	-11.371
兩膝	-11.371
動其水	-11.371
博學	-11.371
受持此經之人	-11.371
喜養	-11.371
姊妹相將	-11.371
導首	-11.371
小教法	-11.371
持將去	-11.371
放恣	-11.371
曲星主	-11.371
有大風	-11.371
棄凡	-11.371
災殃	-11.371
知心住處	-11.371
碁	-11.371
至於今日	-11.371
舍利形像	-11.371
見一道人	-11.371
觀心住處	-11.371
豪富	-11.371
身犯如是	-11.371
波若之利	-11.371
耕	-11.3711
如不諍	-11.3711
前以頭面著地	-11.3711
流涕	-11.3711
目錄	-11.3711
觀世音菩薩摩訶薩	-11.3711
過去未來現在	-11.3712
是汝脚足	-11.3712
照曜汝等離黑	-11.3712
滿七日	-11.3712
上至諸佛	-11.3712
歎息	-11.3712
生住滅	-11.3712
不從卵生	-11.3712
不從胎生	-11.3712
掛	-11.3712
肉不從四大	-11.3712
不起一心得大功德	-11.3712
無能過	-11.3712
而此功德	-11.3712
佛說語已	-11.3712
傷害眾生	-11.3712
刀杖	-11.3712
南無善宿	-11.3712
應斷疑	-11.3712
淨普賢如何	-11.3712
過無量壽	-11.3712
南無弗沙	-11.3712
名稱遠聞	-11.3712
牢強	-11.3712
若有有情能施身分	-11.3712
鎌	-11.3712
幽冥	-11.3712
摩訶薩言	-11.3712
一時聽法	-11.3712
府	-11.3713
鎧	-11.3713
熱得清涼	-11.3713
雖眾無	-11.3713
峪	-11.3713
來無所從	-11.3713
優鉢羅華	-11.3713
作塔者	-11.3713
夭喪	-11.3713
逆風	-11.3713
墮於惡道	-11.3713
從心出	-11.3713
欲言其	-11.3713
見僧恭敬	-11.3713
一病比丘	-11.3713
四重五逆	-11.3713
寶明大眾聞法慶喜	-11.3713
未來人天	-11.3713
果生方	-11.3713
熱氣	-11.3713
符書厭禱呪	-11.3713
長夜受苦	-11.3713
騁	-11.3713
高下不淨	-11.3713
黑繩	-11.3713
上半牒其	-11.3713
云何可度	-11.3713
則同一十	-11.3713
唯願世尊分明	-11.3713
大因大	-11.3713
小乘九部	-11.3713
心明觀察	-11.3713
戒不淳	-11.3713
攝持正法	-11.3713
故云皆得	-11.3713
真佛智	-11.3713
眼耳鼻舌身意	-11.3713
知苦盡	-11.3713
而無方便	-11.3713
自撲	-11.3713
若共此人同住	-11.3713
著綵色衣	-11.3713
薩呼	-11.3713
護法善神	-11.3713
還來人身	-11.3713
阿賴耶識	-11.3713
雖於深法	-11.3713
佛說觀經	-11.3714
火焰	-11.3714
蠱	-11.3714
我從成佛	-11.3714
句樓秦佛	-11.3714
懊	-11.3715
自得利益	-11.3715
住於內	-11.3715
常來營護	-11.3715
裹	-11.3715
亦當讀誦此經典	-11.3715
壽萬六千	-11.3715
應以辟支佛	-11.3715
紛動	-11.3715
憍陳如	-11.3715
從此已上四天	-11.3715
摩睺羅伽人非人等	-11.3715
於其住處	-11.3715
是生滅法	-11.3715
有德無德	-11.3715
毘舍	-11.3715
滂	-11.3715
萬億等方便	-11.3715
三世諸佛之所	-11.3715
九同號	-11.3715
俱同一寂滅	-11.3715
兜率天宮	-11.3715
刀林	-11.3715
晝夜擁護令	-11.3715
者歸依佛	-11.3715
莊嚴妙好	-11.3715
誘教法	-11.3715
醯	-11.3715
隨逐是人	-11.3715
萬同號	-11.3715
地菩薩之	-11.3716
手把金	-11.3716
罵僧	-11.3716
從畜生出	-11.3716
誘	-11.3716
水煮之	-11.3716
故號世尊	-11.3716
體既不	-11.3716
黑暗	-11.3716
應立塔廟	-11.3716
爾時乾闥婆王	-11.3716
七重寶山及	-11.3716
不見八難	-11.3716
脂	-11.3716
色青黑	-11.3716
難解難	-11.3716
體性清淨	-11.3716
光輝	-11.3717
初明普光大眾	-11.3717
慮為想	-11.3717
緣外境界	-11.3717
說斯決定	-11.3717
不授我記及汝名	-11.3717
乃至千佛出世	-11.3717
二乘所	-11.3717
先栰	-11.3717
如此經教	-11.3717
如無授者	-11.3717
字句其以久如	-11.3717
我不應得佛	-11.3717
浸	-11.3717
皆是違情	-11.3717
說有鬼	-11.3717
逕年	-11.3717
作十惡業	-11.3717
作福彌積	-11.3717
往生無量壽	-11.3717
手脚中	-11.3717
湛然不動	-11.3717
無明力所	-11.3717
說義不說文	-11.3717
令諸弟子	-11.3717
彼阿彌陀佛國	-11.3717
志誠	-11.3717
普及有情	-11.3717
甞	-11.3717
當如如相說	-11.3717
示信相	-11.3717
而常流轉	-11.3717
高遷富貴	-11.3717
□□□,□□□□□□□,	-11.3717
下明寂滅	-11.3717
不習外	-11.3717
五敬順	-11.3717
以是故名佛以為	-11.3717
佛道場生	-11.3717
分布	-11.3717
勿於僧中	-11.3717
即不攀緣	-11.3717
含藏識	-11.3717
圓融	-11.3717
如上之罪	-11.3717
容貌	-11.3717
實相之理	-11.3717
建立一切法	-11.3717
悼	-11.3717
或刺人	-11.3717
拪	-11.3717
此訕謗之人	-11.3717
溝	-11.3717
獲如是福	-11.3717
畢竟不生	-11.3717
當證知	-11.3717
疽恚嫉妬	-11.3717
眾生與法一如無二	-11.3717
諸佛名乃至	-11.3717
譬如慈母	-11.3717
超勝	-11.3717
非色非知	-11.3717
預	-11.3717
加羅	-11.3717
人應善	-11.3717
絕穀	-11.3717
墨	-11.3718
願大慈尊	-11.3718
優婆塞優婆夷	-11.3718
決所疑	-11.3718
第十四	-11.3718
西北方	-11.3718
二十三者	-11.3718
國城妻子	-11.3718
汝能善問	-11.3718
豁然	-11.3718
解一句	-11.3718
中泣血	-11.3718
無男無女無貴無賤	-11.3718
獲報甚	-11.3718
形狀大小	-11.3718
散著無極之	-11.3718
阿伽	-11.3718
八十萬劫	-11.3718
厭惡身	-11.3718
哀戀	-11.3718
帖	-11.3718
或針人	-11.3718
接引	-11.3718
滅除十惡業	-11.3718
炎幢	-11.3718
諦信之	-11.3718
九十九	-11.3719
延年益	-11.3719
朔	-11.3719
如是之人等亦	-11.3719
暫停	-11.372
第十三	-11.372
一月六齋年	-11.372
填	-11.372
各隨所修	-11.372
修何功德	-11.372
守護心城	-11.372
壽百二十	-11.372
布薩	-11.372
忉利天宮	-11.372
吾當出世	-11.372
方三十八佛	-11.372
欻	-11.372
珠作上	-11.372
皆大歡喜踊躍	-11.372
易救可懺	-11.372
晨夜	-11.372
求作沙門	-11.372
涅槃非有	-11.372
種植	-11.372
緣在水	-11.372
趣菩提樹	-11.372
不復生	-11.372
亦有亦無	-11.372
他心智	-11.372
以邪定法	-11.372
婉	-11.372
萬七千人	-11.372
九十同號	-11.372
即名虛妄	-11.372
執仗	-11.372
墮落三塗	-11.372
宿王華	-11.372
平等不二	-11.372
意是分別識	-11.372
慶喜	-11.372
懃行流布	-11.372
招集	-11.372
是佛真	-11.372
是外道眷屬	-11.372
欝離	-11.372
正修內	-11.372
無能勝	-11.372
眾人所棄	-11.372
稱是經中	-11.372
空寂無生	-11.372
精懃	-11.372
老不聞	-11.372
若能如是觀身	-11.372
造此經一	-11.372
邊地下賤	-11.372
鐙	-11.372
阿彌陀佛現大神通	-11.372
麻子	-11.372
號釋迦牟尼	-11.372
佛還正坐告阿難言	-11.372
爾時佛在娑羅雙樹	-11.372
二升	-11.372
目覩	-11.3721
飯食	-11.3721
所作法事	-11.3721
救護身命經	-11.3721
汝今善聽	-11.3721
羯磨布薩	-11.3721
蕩蕩而無	-11.3721
堅牢	-11.3721
是大菩薩摩訶薩	-11.3721
樹木	-11.3721
為等侶	-11.3721
迷於正	-11.3721
乃知此非常	-11.3721
以飲食衣服布施	-11.3721
但求名聞	-11.3721
南無普現色身	-11.3721
四攝法中	-11.3721
天眼者	-11.3721
後代眾生離	-11.3721
惡見塵勞	-11.3721
或見報身坐蓮華藏	-11.3721
於是東方	-11.3721
梵釋	-11.3721
此普賢願	-11.3721
菩薩住不退	-11.3721
超過	-11.3721
栰	-11.3723
𣏌	-11.3723
􂎕	-11.3723
紅	-11.3724
挽	-11.3725
粗	-11.3726
奸	-11.3726
緯	-11.3726
尤	-11.3731
否	-11.3731
癖	-11.3732
汗	-11.3735
繭	-11.3735
絞	-11.3736
段	-11.3736
抽	-11.3739
蠶	-11.374
揵	-11.3742
釵	-11.3745
閔	-11.3745
紛	-11.3746
󰪠	-11.3749
伐	-11.3751
洲	-11.3753
暖	-11.3754
汲	-11.3759
騎	-11.3762
秤	-11.3776
宇	-11.3787
抃	-11.379
關	-11.8347
整	-12.1339
愧	-12.2693
謹	-12.2867
搖	-12.3336
圖	-12.3381
薰	-12.3445
肯	-12.3447
迸	-12.3512
衢	-12.3518
贍	-12.3526
詩	-12.3534
縳	-12.3542
卯	-12.355
吳	-12.355
娶	-12.355
痑	-12.355
秉	-12.355
沇	-12.3558
粜	-12.3558
糴	-12.3558
蚑	-12.3558
蜎	-12.3558
貯	-12.3558
農	-12.3558
隆	-12.3563
佳	-12.3566
態	-12.3566
淥	-12.3566
磬	-12.3566
陌	-12.3566
盂	-12.3573
頗	-12.3574
敲	-12.3574
櫓	-12.3574
氈	-12.3574
盆	-12.3574
睇	-12.3574
褥	-12.3574
斛	-12.3582
澗	-12.3582
獷	-12.3582
踝	-12.3582
釘	-12.3582
鐖	-12.3582
丁	-12.3583
殷	-12.3589
魍	-12.359
魎	-12.359
鴨	-12.359
*	-12.359
]	-12.359
㖿	-12.359
匠	-12.359
庚	-12.359
戊	-12.359
抗	-12.359
拆	-12.359
疆	-12.359
篡	-12.359
豕	-12.359
噠	-12.3598
垠	-12.3598
曷	-12.3598
考	-12.3598
腏	-12.3598
腩	-12.3598
寡	-12.36
犲	-12.3605
埠	-12.3606
堆	-12.3606
墳	-12.3606
晈	-12.3606
疷	-12.3606
窓	-12.3606
緒	-12.3606
遷	-12.3608
肖	-12.3611
廋	-12.3614
征	-12.3614
怗	-12.3614
洋	-12.3614
躬	-12.3614
嗚	-12.362
彈	-12.3621
牟	-12.3622
㮈	-12.3622
䟡	-12.3622
兮	-12.3622
夙	-12.3622
抑	-12.3622
拭	-12.3622
捐	-12.3622
晚	-12.3622
朾	-12.3622
楊	-12.3622
檛	-12.3622
欓	-12.3622
燧	-12.3622
爍	-12.3622
瓠	-12.3622
科	-12.3622
簫	-12.3622
苽	-12.3622
蟣	-12.3622
錦	-12.3622
鐃	-12.3622
鑽	-12.3622
迅	-12.363
丐	-12.363
佯	-12.363
喬	-12.363
拒	-12.363
添	-12.363
輟	-12.363
遞	-12.3637
僚	-12.3638
咄	-12.3638
喫	-12.3638
弦	-12.3638
憤	-12.3638
捍	-12.3638
格	-12.3638
淫	-12.3638
澇	-12.3638
狄	-12.3638
珂	-12.3638
矜	-12.3638
酢	-12.3638
炙	-12.3642
裳	-12.3644
勳	-12.3646
包	-12.3646
潘	-12.3646
璧	-12.3646
笙	-12.3646
聊	-12.3646
臘	-12.3646
艱	-12.3646
闡	-12.3649
踰	-12.3651
繞	-12.3652
頻	-12.3652
氏	-12.3652
卉	-12.3653
錫	-12.3653
鑊	-12.3654
└	-12.3654
㯹	-12.3654
儲	-12.3654
吊	-12.3654
嚇	-12.3654
灼	-12.3654
疎	-12.3654
礰	-12.3654
纓	-12.3654
莂	-12.3654
蘊	-12.3654
覲	-12.3654
謀	-12.3654
遐	-12.3654
跛	-12.3656
蟻	-12.3661
鱉	-12.3661
鴛	-12.3662
┌	-12.3662
┐	-12.3662
┘	-12.3662
㒃	-12.3662
丙	-12.3662
亮	-12.3662
卛	-12.3662
壇	-12.3662
峻	-12.3662
扴	-12.3662
搜	-12.3662
杆	-12.3662
柏	-12.3662
桂	-12.3662
泊	-12.3662
派	-12.3662
涯	-12.3662
淹	-12.3662
獐	-12.3662
瑣	-12.3662
癃	-12.3662
碑	-12.3662
穆	-12.3662
蝙	-12.3662
蝠	-12.3662
誕	-12.3662
酣	-12.3662
槍	-12.3664
瀾	-12.3666
綺	-12.3667
膿	-12.3668
午	-12.3669
閻	-12.3669
磑	-12.367
乙	-12.367
僮	-12.367
嘲	-12.367
囊	-12.367
塊	-12.367
壃	-12.367
捷	-12.367
探	-12.367
攎	-12.367
曆	-12.367
樵	-12.367
沮	-12.367
焦	-12.367
燭	-12.367
瓷	-12.367
瞽	-12.367
禰	-12.367
綾	-12.367
腕	-12.367
蜫	-12.367
蠍	-12.367
轄	-12.367
轅	-12.367
遁	-12.367
酉	-12.367
眷	-12.3671
疊	-12.3672
茹	-12.3672
亥	-12.3672
嚼	-12.3672
萩	-12.3672
蘺	-12.3672
價	-12.3674
腥	-12.3674
臊	-12.3674
溜	-12.3676
螺	-12.3676
胞	-12.3678
疫	-12.3678
馱	-12.3678
䛟	-12.3678
䞦	-12.3678
准	-12.3678
剄	-12.3678
叺	-12.3678
呃	-12.3678
喧	-12.3678
嘊	-12.3678
嘑	-12.3678
圈	-12.3678
坂	-12.3678
宛	-12.3678
寘	-12.3678
峯	-12.3678
巢	-12.3678
怉	-12.3678
搭	-12.3678
擣	-12.3678
斥	-12.3678
机	-12.3678
柝	-12.3678
槦	-12.3678
沛	-12.3678
淪	-12.3678
渟	-12.3678
游	-12.3678
溉	-12.3678
澪	-12.3678
班	-12.3678
瑁	-12.3678
的	-12.3678
矇	-12.3678
磊	-12.3678
笠	-12.3678
籠	-12.3678
紐	-12.3678
紵	-12.3678
綩	-12.3678
罕	-12.3678
芸	-12.3678
荔	-12.3678
薜	-12.3678
蚊	-12.3678
蚤	-12.3678
蝱	-12.3678
謔	-12.3678
趐	-12.3678
蹬	-12.3678
躡	-12.3678
釭	-12.3678
鎚	-12.3678
耀	-12.3679
竺	-12.368
儼	-12.3682
琥	-12.3682
範	-12.3682
荊	-12.3682
躃	-12.3682
浣	-12.3683
紀	-12.3684
映	-12.3684
瘴	-12.3684
襄	-12.3684
脆	-12.3685
懼	-12.3685
昧	-12.3685
蓐	-12.3686
禽	-12.3686
瞿	-12.3686
虐	-12.3686
奮	-12.3686
㲪	-12.3686
䛴	-12.3686
仚	-12.3686
俯	-12.3686
冑	-12.3686
叢	-12.3686
咏	-12.3686
嘴	-12.3686
嘶	-12.3686
堀	-12.3686
塠	-12.3686
夯	-12.3686
娥	-12.3686
恥	-12.3686
捺	-12.3686
摸	-12.3686
擐	-12.3686
擒	-12.3686
擺	-12.3686
桃	-12.3686
毾	-12.3686
氍	-12.3686
沬	-12.3686
泗	-12.3686
淤	-12.3686
滯	-12.3686
澒	-12.3686
濛	-12.3686
爽	-12.3686
犍	-12.3686
琵	-12.3686
碣	-12.3686
祝	-12.3686
絡	-12.3686
羞	-12.3686
翫	-12.3686
膂	-12.3686
舡	-12.3686
芳	-12.3686
莝	-12.3686
覃	-12.3686
諛	-12.3686
謨	-12.3686
豺	-12.3686
賀	-12.3686
軼	-12.3686
轓	-12.3686
銘	-12.3686
陷	-12.3686
戴	-12.3687
㲉	-12.3688
蜂	-12.3689
懿	-12.369
揭	-12.369
袚	-12.369
訓	-12.369
荳	-12.3691
題	-12.3692
鉤	-12.3692
逸	-12.3692
團	-12.3692
姪	-12.3692
瓫	-12.3692
禾	-12.3692
縷	-12.3692
肚	-12.3692
萠	-12.3692
促	-12.3693
掐	-12.3693
搯	-12.3693
裝	-12.3693
褾	-12.3693
貢	-12.3694
籬	-12.3694
奏	-12.3694
悋	-12.3694
B	-12.3694
f	-12.3694
㒓	-12.3694
䩞	-12.3694
亶	-12.3694
佺	-12.3694
侫	-12.3694
僻	-12.3694
嘔	-12.3694
域	-12.3694
堯	-12.3694
岨	-12.3694
慕	-12.3694
戌	-12.3694
扣	-12.3694
按	-12.3694
搔	-12.3694
摘	-12.3694
松	-12.3694
榻	-12.3694
款	-12.3694
歟	-12.3694
滴	-12.3694
熬	-12.3694
爼	-12.3694
番	-12.3694
疼	-12.3694
癢	-12.3694
省	-12.3694
睛	-12.3694
瞎	-12.3694
稗	-12.3694
箸	-12.3694
糸	-12.3694
縮	-12.3694
繹	-12.3694
肘	-12.3694
脊	-12.3694
莠	-12.3694
萎	-12.3694
蚔	-12.3694
蚣	-12.3694
蜈	-12.3694
蝮	-12.3694
街	-12.3694
詛	-12.3694
誌	-12.3694
諧	-12.3694
謾	-12.3694
讎	-12.3694
踞	-12.3694
遜	-12.3694
鑄	-12.3694
[	-12.3695
c	-12.3695
貲	-12.3696
㥽	-12.3697
侯	-12.3697
凉	-12.3697
彥	-12.3697
楔	-12.3697
牕	-12.3697
癰	-12.3697
繚	-12.3697
膺	-12.3697
蟬	-12.3697
貂	-12.3697
丞	-12.3699
刃	-12.3699
喉	-12.3699
喘	-12.3699
坌	-12.3699
墐	-12.3699
奘	-12.3699
姙	-12.3699
崔	-12.3699
恍	-12.3699
桎	-12.3699
湜	-12.3699
猖	-12.3699
琰	-12.3699
監	-12.3699
睒	-12.3699
秘	-12.3699
稻	-12.3699
紹	-12.3699
衍	-12.3699
跳	-12.3699
訕	-12.37
A	-12.3701
洹	-12.3702
苑	-12.3702
絹	-12.3702
〕	-12.3703
伶	-12.3703
佞	-12.3703
倖	-12.3703
僂	-12.3703
僥	-12.3703
刊	-12.3703
効	-12.3703
區	-12.3703
噵	-12.3703
壓	-12.3703
姝	-12.3703
慞	-12.3703
拏	-12.3703
揀	-12.3703
援	-12.3703
撩	-12.3703
暇	-12.3703
槊	-12.3703
槨	-12.3703
沱	-12.3703
沿	-12.3703
瑩	-12.3703
矢	-12.3703
窺	-12.3703
繁	-12.3703
罹	-12.3703
羽	-12.3703
肇	-12.3703
薗	-12.3703
虧	-12.3703
蠡	-12.3703
迄	-12.3703
鼉	-12.3703
鷲	-12.3704
騾	-12.3705
駈	-12.3706
䋧	-12.3707
掖	-12.3707
晴	-12.3707
杈	-12.3707
熒	-12.3707
遵	-12.3707
邑	-12.3707
醐	-12.3707
鎘	-12.3707
鐶	-12.3707
鐸	-12.3707
酌	-12.3708
醍	-12.3709
辜	-12.3709
舊	-12.371
轂	-12.371
偕	-12.3711
䐗	-12.3711
䑜	-12.3711
亢	-12.3711
仕	-12.3711
侹	-12.3711
削	-12.3711
妯	-12.3711
姑	-12.3711
娌	-12.3711
宋	-12.3711
慘	-12.3711
憔	-12.3711
拉	-12.3711
捭	-12.3711
捶	-12.3711
撓	-12.3711
撰	-12.3711
擠	-12.3711
梅	-12.3711
沐	-12.3711
泳	-12.3711
炆	-12.3711
瘦	-12.3711
皷	-12.3711
矩	-12.3711
磪	-12.3711
管	-12.3711
籍	-12.3711
縵	-12.3711
纖	-12.3711
萇	-12.3711
蓼	-12.3711
蛐	-12.3711
蛾	-12.3711
蜋	-12.3711
蜣	-12.3711
蝦	-12.3711
蟆	-12.3711
蟮	-12.3711
註	-12.3711
謟	-12.3711
讒	-12.3711
跟	-12.3711
蹄	-12.3711
蹤	-12.3711
鋒	-12.3711
錠	-12.3711
閃	-12.3711
費	-12.3711
貳	-12.3712
讓	-12.3713
誤	-12.3714
涅	-12.3714
偶	-12.3715
懆	-12.3715
煌	-12.3715
燉	-12.3715
董	-12.3715
蟸	-12.3715
逈	-12.3715
鄒	-12.3715
采	-12.3715
鏗	-12.3715
詔	-12.3715
訾	-12.3716
閦	-12.3717
蠕	-12.3717
螫	-12.3718
壯	-12.3719
丑	-12.3719
京	-12.3719
俄	-12.3719
咬	-12.3719
嬾	-12.3719
屣	-12.3719
廉	-12.3719
忠	-12.3719
惛	-12.3719
慵	-12.3719
掬	-12.3719
攪	-12.3719
斑	-12.3719
杼	-12.3719
氐	-12.3719
狎	-12.3719
狠	-12.3719
眴	-12.3719
祚	-12.3719
箕	-12.3719
綠	-12.3719
縹	-12.3719
膚	-12.3719
訪	-12.3719
誚	-12.3719
貿	-12.3719
赴	-12.3719
蹹	-12.3719
輿	-12.3719
蕉	-12.3719
蔓	-12.372
菟	-12.3721
䠒	-12.3721
茯	-12.3722
䩭	-12.3723
咨	-12.3723
苓	-12.3723
晨	-12.3723
膖	-12.3724
脹	-12.3725
脩	-12.3726
鵝	-12.3727
䤤	-12.3727
企	-12.3727
僕	-12.3727
儐	-12.3727
冀	-12.3727
剉	-12.3727
剡	-12.3727
嗣	-12.3727
墦	-12.3727
墾	-12.3727
夕	-12.3727
挑	-12.3727
桑	-12.3727
泄	-12.3727
眄	-12.3727
糠	-12.3727
羸	-12.3727
蹶	-12.3727
軫	-12.3727
鈕	-12.3727
鉫	-12.3727
胝	-12.3727
肆	-12.3728
署	-12.3729
撾	-12.3729
絙	-12.373
吻	-12.3731
呴	-12.3731
寵	-12.3731
痍	-12.3731
簇	-12.3731
紺	-12.3731
籌	-12.3732
箏	-12.3733
低	-12.3733
睦	-12.3734
杌	-12.3734
刻	-12.3735
坎	-12.3735
堝	-12.3735
夾	-12.3735
奎	-12.3735
彩	-12.3735
悵	-12.3735
悸	-12.3735
慺	-12.3735
拾	-12.3735
揆	-12.3735
攻	-12.3735
昴	-12.3735
槌	-12.3735
胃	-12.3735
詃	-12.3735
鏤	-12.3735
盟	-12.3735
皂	-12.3736
灸	-12.3737
激	-12.3738
畵	-12.3739
澁	-12.3739
咀	-12.3739
漉	-12.374
毳	-12.3741
殑	-12.3742
埵	-12.3743
圂	-12.3743
庭	-12.3743
扇	-12.3743
拳	-12.3743
掠	-12.3743
楯	-12.3743
欄	-12.3743
殤	-12.3743
沼	-12.3743
燻	-12.3743
猲	-12.3743
畟	-12.3743
礫	-12.3743
翱	-12.3743
觜	-12.3743
諷	-12.3743
橙	-12.3743
槐	-12.3744
椽	-12.3745
梯	-12.3746
乀	-12.3747
函	-12.3747
摶	-12.3747
瞼	-12.3747
肝	-12.3747
晉	-12.3747
攕	-12.3748
豁	-12.3748
搪	-12.3749
薪	-12.3749
懇	-12.375
劇	-12.3751
凌	-12.3751
栽	-12.3751
煻	-12.3751
猗	-12.3751
獎	-12.3751
痿	-12.3751
蔭	-12.3751
診	-12.3751
惔	-12.3751
惓	-12.3752
恗	-12.3753
忓	-12.3754
呈	-12.3755
噀	-12.3755
杯	-12.3755
酪	-12.3755
彫	-12.3755
帳	-12.3756
寔	-12.3757
孩	-12.3758
㨯	-12.3759
嫁	-12.3759
弩	-12.3759
揣	-12.3759
攞	-12.3759
縕	-12.3759
姬	-12.376
委	-12.3761
奕	-12.3762
墟	-12.3763
尠	-12.3763
泰	-12.3763
筏	-12.3763
墎	-12.3764
塢	-12.3765
堤	-12.3766
嚧	-12.3767
傘	-12.3767
戟	-12.3767
矛	-12.3767
祁	-12.3767
築	-12.3767
粒	-12.3767
嗤	-12.3768
哮	-12.3769
叩	-12.377
叔	-12.3771
脅	-12.3771
剪	-12.3772
刈	-12.3773
倡	-12.3774
䬽	-12.3775
慴	-12.3775
讁	-12.3775
䩛	-12.3776
䕪	-12.3777
䓾	-12.3778
㰅	-12.3779
柴	-12.3779
荑	-12.3779
蕪	-12.3779
㘁	-12.378
㗛	-12.3781
鵡	-12.3782
鳳	-12.3783
沃	-12.3783
苟	-12.3783
蹇	-12.3783
鍍	-12.3783
飄	-12.3784
頒	-12.3785
靆	-12.3786
靂	-12.3787
洇	-12.3787
雌	-12.3787
霹	-12.3788
陋	-12.3789
閣	-12.379
鑵	-12.3791
逃	-12.3791
鍛	-12.3792
逋	-12.3793
裟	-12.3794
袈	-12.3795
椃	-12.3795
萌	-12.3796
芭	-12.3797
膩	-12.3798
篌	-12.3799
忔	-12.3799
梚	-12.3799
癭	-12.3799
稼	-12.38
瑚	-12.3801
瑕	-12.3802
珊	-12.3803
循	-12.3803
環	-12.3803
蟹	-12.3803
獼	-12.3804
猨	-12.3805
濩	-12.3806
液	-12.3807
趁	-12.3807
慰	-12.3808
怡	-12.3809
廻	-12.381
庫	-12.3811
尖	-12.3812
宰	-12.3813
嬉	-12.3814
妷	-12.3815
擯	-12.3815
痔	-12.3815
圄	-12.3816
囹	-12.3817
嘗	-12.3818
凰	-12.3819
姤	-12.3819
側	-12.382
䝱	-12.3821
逍	-12.3822
羯	-12.3823
蠲	-12.3823
瘖	-12.3824
瑙	-12.3825
洽	-12.3826
檢	-12.3827
慄	-12.3827
棖	-12.3828
戮	-12.3829
彊	-12.383
岳	-12.3831
婇	-12.3832
努	-12.3833
豫	-12.3834
詈	-12.3835
蟒	-12.3836
聳	-12.3837
罣	-12.3838
沌	-12.3839
曹	-12.384
拯	-12.3841
屎	-12.3842
-	-12.3843
駱	-12.3844
駝	-12.3845
雄	-12.3846
鄔	-12.3847
迮	-12.3848
訟	-12.3849
袒	-12.385
枷	-12.3851
崛	-12.3852
哽	-12.3853
咲	-12.3854
販	-12.3855
繒	-12.3856
栴	-12.3857
鑒	-12.3858
跏	-12.3859
趺	-12.386
貨	-12.3861
芥	-12.3862
臾	-12.3863
粳	-12.3864
瑜	-12.3865
猴	-12.3866
怠	-12.3867
園	-12.3868
呰	-12.3869
睺	-12.387
旃	-12.3871
攀	-12.3872
展	-12.3873
─	-12.3874
葬	-12.3875
瓔	-12.3876
珞	-12.3877
沫	-12.3878
慇	-12.3879
館	-12.388
浪	-12.3881
昭	-12.3882
闥	-12.3883
穩	-12.3884
央	-12.3885
巍	-12.3886
丸	-12.3887
>	-12.3888
詳	-12.3889
慚	-12.389
瑠	-12.3891
耨	-12.3892
童	-12.3893
琉	-12.3894
般	-12.3895
誹	-12.3896
璃	-12.3897
究	-12.3898
蓮	-12.3899
苾	-12.39
芻	-12.3901
菩	-12.3902
