<unk>	0
<s>	0
</s>	0
/	-3.62659
之	-3.85227
)(	-4.11545
以	-4.45188
)	-4.6068
而	-4.6342
(	-4.64976
為	-4.65156
也	-4.66068
其	-4.97266
者	-5.07732
不	-5.11987
曰	-5.19926
於	-5.21311
有	-5.2862
人	-5.37158
王	-5.3786
則	-5.53161
書	-5.63684
自	-5.71163
大	-5.75726
無	-5.75954
與	-5.79819
子	-5.80904
州	-5.85761
至	-5.85776
矣	-5.88259
一	-5.90337
言	-5.9198
事	-5.92755
上	-5.929
使	-5.93063
皆	-5.97666
所	-5.99219
帝	-6.04472
此	-6.07917
兵	-6.09019
國	-6.09575
乃	-6.11181
行	-6.14403
在	-6.15458
故	-6.16926
中	-6.18769
公	-6.20596
非	-6.22441
亦	-6.23794
及	-6.24126
又	-6.26792
于	-6.26928
復	-6.3016
乎	-6.34025
見	-6.34898
三	-6.34898
立	-6.34918
文	-6.35056
相	-6.35544
臣	-6.36373
何	-6.36499
時	-6.36652
得	-6.36792
欲	-6.37482
謂	-6.38323
道	-6.38337
是	-6.39298
如	-6.39322
將	-6.4075
軍	-6.41701
安	-6.41889
用	-6.42048
民	-6.42236
元	-6.42981
出	-6.43572
然	-6.43576
漢	-6.43658
知	-6.43743
今	-6.44009
天	-6.4459
下	-6.45629
遂	-6.45854
當	-6.45982
城	-6.47162
名	-6.48251
入	-6.50839
等	-6.51152
可	-6.51699
已	-6.52171
二	-6.53069
君	-6.53473
平	-6.53879
必	-6.565
正	-6.56709
命	-6.56966
周	-6.57161
魏	-6.58401
後	-6.58523
官	-6.58782
明	-6.59434
晉	-6.60008
若	-6.61183
死	-6.62754
成	-6.62963
年	-6.64132
宋	-6.64349
令	-6.64534
作	-6.65378
秦	-6.65692
質實	-6.67654
李	-6.70533
殺	-6.70838
從	-6.71988
多	-6.73334
能	-6.73533
生	-6.73802
唐	-6.74439
始	-6.74989
反	-6.75424
陳	-6.75433
未	-6.75672
初	-6.76032
雖	-6.76375
焉	-6.77702
義	-6.77874
南	-6.78102
請	-6.78279
齊	-6.79856
天下	-6.80496
世	-6.80873
置	-6.80884
哉	-6.81345
傳	-6.81476
山	-6.81628
西	-6.81663
武	-6.81814
既	-6.81918
張	-6.82815
主	-6.82833
五	-6.83811
徳	-6.83953
日	-6.84409
方	-6.84544
東	-6.84615
氏	-6.85228
劉	-6.8658
卒	-6.86791
因	-6.86969
詔	-6.8789
取	-6.88897
師	-6.88938
四	-6.88967
地	-6.89945
同	-6.90401
守	-6.91285
史	-6.91327
郡	-6.91746
屬	-6.92576
士	-6.93456
歸	-6.93502
以為	-6.93636
耳	-6.93721
法	-6.93738
長	-6.94318
定	-6.94757
遣	-6.9495
北	-6.95593
縣	-6.95599
稱	-6.95762
陽	-6.95823
先	-6.96082
諸	-6.97189
聞	-6.97365
水	-6.98458
治	-6.98558
朝	-6.9856
不能	-6.98746
重	-6.99112
進	-6.99444
禮	-6.99661
居	-7.0004
即	-7.00082
我	-7.00422
心	-7.00603
馬	-7.01062
求	-7.03093
金	-7.03645
家	-7.0394
政	-7.0397
不可	-7.04488
集覽	-7.04953
云	-7.05028
府	-7.05306
本	-7.0598
宜	-7.06676
去	-7.07017
○	-7.07197
梁	-7.07291
制	-7.07351
舉	-7.07413
降	-7.08488
惟	-7.08732
前	-7.09134
興	-7.09371
趙	-7.09601
論	-7.10131
且	-7.10649
封	-7.10675
還	-7.10745
善	-7.11698
固	-7.11716
或	-7.11999
亂	-7.12214
實	-7.12309
吾	-7.12326
夫	-7.12632
猶	-7.13413
志	-7.13533
爲	-7.14328
楚	-7.14495
失	-7.14878
意	-7.15467
分	-7.1575
亡	-7.15934
注	-7.16221
衆	-7.16919
常	-7.17078
謀	-7.17374
通	-7.17532
字	-7.19959
數	-7.1997
議	-7.20149
信	-7.20588
門	-7.20606
宗	-7.22246
盡	-7.2252
易	-7.22594
内	-7.23202
▁(	-7.23836
罷	-7.23922
廢	-7.24093
賢	-7.24388
外	-7.24441
誅	-7.24889
都	-7.25074
陵	-7.25502
后	-7.25726
戰	-7.25794
和	-7.2583
親	-7.26657
書法	-7.26901
服	-7.27037
起	-7.27263
力	-7.27386
賊	-7.27822
凡	-7.28033
髙	-7.29049
召	-7.29272
小	-7.30957
攻	-7.3121
二年	-7.31707
難	-7.32006
樂	-7.32476
元年	-7.32883
六	-7.33047
光	-7.33421
建	-7.33734
德	-7.33897
侯	-7.34096
尚	-7.34214
甚	-7.34488
㑹	-7.34623
敗	-7.34921
受	-7.353
所以	-7.35397
少	-7.36161
問	-7.36279
太	-7.36776
改	-7.36986
發明	-7.37351
過	-7.37632
利	-7.37833
發	-7.38023
罪	-7.38077
萬	-7.38656
夏	-7.38929
來	-7.39358
奏	-7.39586
異	-7.39619
益	-7.39792
觀	-7.39827
終	-7.39845
而不	-7.40163
豈	-7.40378
深	-7.4086
三年	-7.4105
位	-7.41188
惡	-7.4134
流	-7.41411
石	-7.41505
忠	-7.41588
父	-7.41805
伐	-7.41866
河	-7.42053
太子	-7.42439
食	-7.42559
合	-7.43314
節	-7.43671
修	-7.43933
任	-7.44008
爾	-7.44377
辭	-7.44747
威	-7.44993
田	-7.46692
權	-7.46841
身	-7.47
處	-7.47036
思	-7.47164
鄭	-7.47324
獨	-7.47338
加	-7.47522
注見	-7.47721
經	-7.4794
九	-7.48373
直	-7.49284
擊	-7.50779
宫	-7.50878
變	-7.50952
孫	-7.50994
功	-7.51152
古	-7.51372
廣	-7.51974
伯	-7.52081
奉	-7.53119
魯	-7.53494
▁	-7.53795
致	-7.53876
白	-7.54175
紀	-7.5421
嘗	-7.54269
引	-7.54996
逺	-7.55082
百	-7.55336
代	-7.55943
首	-7.56023
江	-7.56127
討	-7.56204
吳	-7.57992
賜	-7.58083
好	-7.58391
舊	-7.58505
於是	-7.59124
語	-7.59927
仁	-7.60474
執	-7.60574
應	-7.60929
孝	-7.61712
太后	-7.61733
女	-7.61948
計	-7.62079
學	-7.62463
昭	-7.62916
保	-7.63003
新	-7.63273
音	-7.63329
十	-7.63339
邪	-7.63826
敵	-7.63991
按	-7.64085
理	-7.64295
諸侯	-7.64346
宣	-7.64527
刑	-7.64779
克	-7.65275
備	-7.65502
景	-7.6581
衛	-7.65859
疑	-7.65999
由	-7.66212
承	-7.66511
燕	-7.66691
物	-7.66752
鎮	-7.66969
吏	-7.67382
卿	-7.67575
度	-7.67582
楊	-7.67709
勝	-7.67991
春秋	-7.68396
告	-7.68574
據	-7.69075
祖	-7.69328
更	-7.69557
滅	-7.69949
許	-7.70026
路	-7.70296
七	-7.70778
誠	-7.70788
疾	-7.71057
間	-7.71128
望	-7.71201
載	-7.71367
延	-7.71462
韓	-7.71673
兩	-7.72207
免	-7.72278
遷	-7.72654
全	-7.72972
號	-7.73616
私	-7.74538
絶	-7.7471
章	-7.75446
説	-7.7585
天子	-7.76067
除	-7.76292
幸	-7.76773
司	-7.7694
並	-7.77333
逆	-7.77511
高	-7.77554
口	-7.78016
夷	-7.78144
省	-7.78233
表	-7.78399
記	-7.78768
神	-7.7892
蜀	-7.78973
圖	-7.79185
八	-7.79523
濟	-7.79709
不得	-7.79851
留	-7.80296
共	-7.80377
篇	-7.80708
聖	-7.80909
臨	-7.80928
獻	-7.8118
著	-7.81249
救	-7.81314
彼	-7.81328
開	-7.81425
止	-7.8165
帥	-7.81678
目	-7.82436
寧	-7.8244
母	-7.82596
良	-7.8266
嗣	-7.82881
懼	-7.8289
老	-7.8294
胡	-7.83312
越	-7.83414
蓋	-7.83792
尊	-7.83847
悉	-7.84071
近	-7.84469
各	-7.84575
陛下	-7.84585
恐	-7.84729
氣	-7.84877
盛	-7.85652
四年	-7.85844
土	-7.8603
但	-7.86109
而已	-7.8633
順	-7.86349
清	-7.86471
敬	-7.8658
車	-7.8663
仲	-7.86656
拜	-7.86823
隋	-7.87126
将	-7.8728
風	-7.87438
錢	-7.87676
昌	-7.87824
餘	-7.87827
坐	-7.87863
曹	-7.87947
至是	-7.88865
叛	-7.88941
輕	-7.89351
存	-7.89518
徐	-7.90509
弟	-7.90651
貴	-7.90701
次	-7.91089
華	-7.91246
朝廷	-7.91272
永	-7.91525
崇	-7.91645
釋	-7.91686
怒	-7.92019
比	-7.92293
附	-7.92354
圍	-7.92399
特	-7.92516
邑	-7.92554
破	-7.92942
君子	-7.92998
皇	-7.93078
綱目	-7.93218
海	-7.93308
厚	-7.93689
退	-7.94018
才	-7.94342
黄	-7.94415
業	-7.94462
繼	-7.94494
盖	-7.95259
遺	-7.95267
左	-7.95604
害	-7.95851
聲	-7.95974
視	-7.96082
素	-7.96302
愛	-7.96503
恩	-7.96739
責	-7.9679
商	-7.97125
京	-7.97269
病	-7.97418
𤣥	-7.97598
月	-7.97671
納	-7.97808
勢	-7.97959
職	-7.98044
禁	-7.98303
如此	-7.98467
殿	-7.98555
教	-7.9894
久	-7.99069
隂	-7.9919
汝	-7.99316
足	-7.99427
斯	-7.99481
者也	-7.99686
就	-7.99852
之事	-8.00164
率	-8.00299
朱	-8.00321
戒	-8.00893
對	-8.01046
殺之	-8.0123
莫	-8.01267
可以	-8.01304
龍	-8.01485
憂	-8.0176
美	-8.01907
怨	-8.02604
收	-8.02628
嚴	-8.02759
走	-8.03089
林	-8.03135
奔	-8.03492
嘉	-8.03655
不敢	-8.0389
要	-8.03917
將軍	-8.04405
顯	-8.04408
迎	-8.04509
畧	-8.04549
動	-8.04727
典	-8.04762
極	-8.04844
貶	-8.04852
務	-8.04951
予	-8.05078
御	-8.05133
棄	-8.05576
急	-8.058
布	-8.05807
遣使	-8.06744
容	-8.06857
叔	-8.06927
徒	-8.06988
别	-8.07416
兼	-8.07569
禍	-8.0758
患	-8.07782
真	-8.08112
諫	-8.08538
交	-8.08641
原	-8.08711
謂之	-8.08798
專	-8.09043
詳	-8.09065
斬	-8.09073
連	-8.09185
追	-8.0974
遇	-8.09755
五年	-8.09819
所謂	-8.10172
部	-8.1022
襲	-8.10327
解	-8.10427
顧	-8.10509
列	-8.10579
杜	-8.10772
茍	-8.11037
考	-8.11218
謝	-8.11349
里	-8.1139
)○	-8.11592
統	-8.11634
之所	-8.11873
至於	-8.11919
推	-8.12014
𢎞	-8.12173
大夫	-8.12254
爵	-8.12662
不知	-8.13393
輔	-8.13469
慶	-8.13872
敢	-8.1399
畏	-8.14147
䇿	-8.14171
營	-8.1426
况	-8.14573
果	-8.15108
徙	-8.15232
堅	-8.15366
待	-8.15415
己	-8.15731
集	-8.15785
夜	-8.1583
甲	-8.15947
殷	-8.16149
申	-8.16158
具	-8.16176
葢	-8.16308
養	-8.16399
郭	-8.16406
黨	-8.16415
室	-8.16549
族	-8.16575
禹	-8.16621
之心	-8.16988
勸	-8.17027
危	-8.17294
蔡	-8.17522
寳	-8.17582
說	-8.17789
體	-8.17999
左右	-8.18129
懐	-8.18224
儀	-8.18254
康	-8.18312
屯	-8.18966
再	-8.19084
嵗	-8.19085
宰相	-8.19138
大臣	-8.19164
斷	-8.19505
願	-8.196
喜	-8.19621
俱	-8.19798
授	-8.19972
勿	-8.20198
化	-8.20315
六年	-8.20964
智	-8.20992
被	-8.21251
即位	-8.21445
不書	-8.21696
蕭	-8.21818
往	-8.21943
之言	-8.221
温	-8.22222
手	-8.2228
吕	-8.22543
報	-8.22761
簡	-8.23128
是以	-8.23163
孔子	-8.23327
春	-8.23328
臺	-8.23493
騎	-8.23586
賞	-8.23648
寵	-8.24056
姓	-8.24136
察	-8.24447
虞	-8.24459
勞	-8.24573
蘇	-8.24669
呉	-8.24701
約	-8.24728
秋	-8.24889
右	-8.24965
并	-8.25018
聽	-8.25118
契丹	-8.25122
色	-8.25478
性	-8.25547
廟	-8.2569
太宗	-8.25803
天下之	-8.26084
不足	-8.26364
選	-8.26439
弑	-8.26559
之意	-8.26582
唯	-8.27032
注見漢	-8.27098
詩	-8.27116
弱	-8.27127
而後	-8.27141
衣	-8.27344
孟	-8.27373
小人	-8.27638
暴	-8.27766
虎	-8.27922
彊	-8.28126
結	-8.28132
尋	-8.28228
類	-8.28391
可謂	-8.2841
第	-8.28743
伏	-8.29023
决	-8.29166
持	-8.29352
監	-8.29632
指	-8.29684
千	-8.29771
援	-8.2993
玉	-8.29983
登	-8.29989
强	-8.3006
領	-8.3037
器	-8.30396
州刺史	-8.30445
澤	-8.30536
洛	-8.30752
節度使	-8.30828
靈	-8.31206
宻	-8.31225
然後	-8.31266
移	-8.31355
賦	-8.31368
朕	-8.3164
財	-8.31643
雲	-8.31681
彦	-8.31799
闗	-8.32174
邊	-8.32369
孔	-8.32409
從之	-8.32429
乗	-8.3253
耶	-8.32552
衰	-8.33027
曲	-8.33045
獲	-8.33064
謹	-8.3334
舜	-8.33425
司馬	-8.33588
福	-8.33836
末	-8.34449
恭	-8.34505
季	-8.34546
設	-8.34605
負	-8.34607
賈	-8.34792
羣	-8.34814
由是	-8.34981
勇	-8.34986
周公	-8.35006
籍	-8.35327
向	-8.35339
綱	-8.3546
獄	-8.35787
端	-8.36123
郎	-8.36454
祀	-8.36489
給	-8.36579
榮	-8.36616
操	-8.36784
武帝	-8.37084
讓	-8.37952
塞	-8.37961
亮	-8.38181
魏主	-8.38212
散	-8.38455
休	-8.38582
慮	-8.38759
送	-8.38764
昔	-8.38788
縱	-8.39039
扵	-8.39071
隨	-8.39119
市	-8.39159
青	-8.39218
每	-8.39256
姦	-8.39257
侵	-8.39449
淮	-8.3948
襄	-8.39675
木	-8.39854
尚書	-8.39882
卷	-8.39965
避	-8.4001
垂	-8.40093
乞	-8.40107
鄉	-8.40132
廣義	-8.4021
虚	-8.40356
積	-8.40474
施	-8.40484
丁	-8.40586
誤	-8.40667
其所	-8.4076
韋	-8.40762
酒	-8.40799
委	-8.40827
訓	-8.40955
隆	-8.41093
羣臣	-8.41104
咸	-8.41108
離	-8.41148
息	-8.41618
火	-8.41722
無所	-8.41952
闕	-8.41962
戎	-8.42175
質	-8.42192
後世	-8.4245
虜	-8.42461
充	-8.42822
愚	-8.42823
切	-8.42833
於此	-8.42895
役	-8.43065
博	-8.43071
乘	-8.43312
微	-8.43461
習	-8.43544
對曰	-8.43658
傷	-8.43715
關	-8.43934
儒	-8.43958
機	-8.43976
庶	-8.44469
長安	-8.44551
淵	-8.44589
情	-8.44634
穆	-8.44753
薄	-8.4492
征	-8.44936
弗	-8.44964
富	-8.45073
例	-8.45129
尤	-8.4531
窮	-8.45331
雄	-8.45451
之後	-8.45471
盟	-8.45651
諸將	-8.4568
述	-8.45716
總	-8.45773
衡	-8.46182
何以	-8.46395
詣	-8.46414
一統志云	-8.47151
牛	-8.47303
達	-8.4738
爭	-8.47681
赦	-8.47701
祭	-8.47803
假	-8.47846
妻	-8.4795
厥	-8.48002
崔	-8.48019
盧	-8.48133
造	-8.48137
歴	-8.48242
俗	-8.4827
范	-8.48318
川	-8.48393
便	-8.48887
條	-8.48943
京師	-8.49031
示	-8.49114
曰吾	-8.49358
夀	-8.49528
桓	-8.49574
諌	-8.49576
脩	-8.49693
草	-8.50275
奪	-8.50307
皇后	-8.5031
客	-8.50381
資	-8.50434
侍	-8.50486
形	-8.50867
諭	-8.51045
序	-8.51147
仍	-8.51534
逐	-8.5157
精	-8.51609
也故	-8.51672
薦	-8.51771
八年	-8.52261
烏	-8.52382
震	-8.52482
阿	-8.52498
邦	-8.52671
之時	-8.52693
書曰	-8.52896
屢	-8.52935
拒	-8.52947
然則	-8.53318
文帝	-8.53335
匈奴	-8.53377
喪	-8.53382
之地	-8.53385
録	-8.53391
𫝊	-8.53415
泰	-8.53576
乾	-8.53875
助	-8.53975
考異	-8.54164
象	-8.54254
丘	-8.54296
聖人	-8.54362
他	-8.54447
運	-8.54792
沈	-8.54893
期	-8.55574
累	-8.55776
招	-8.558
足以	-8.56184
野	-8.56406
律	-8.56407
哀	-8.56623
符	-8.56773
三月	-8.56805
識	-8.5683
牧	-8.56877
羅	-8.5689
豐	-8.57016
陸	-8.57042
賀	-8.57278
冦	-8.57384
呼	-8.57437
朔	-8.57536
撫	-8.57919
犯	-8.58057
譏	-8.58212
惠	-8.58276
佐	-8.58351
費	-8.58447
晋	-8.58554
中國	-8.58614
聚	-8.58774
辨	-8.58806
竊	-8.58956
違	-8.5903
安石	-8.59098
堯	-8.59176
星	-8.592
適	-8.59464
㧞	-8.59568
遼	-8.59625
雍	-8.59635
削	-8.59813
横	-8.59818
孤	-8.60085
紹	-8.6074
幽	-8.60758
之間	-8.60785
抑	-8.61145
屈	-8.61452
惑	-8.61554
吉	-8.61696
太守	-8.61783
赴	-8.6182
當時	-8.61959
險	-8.61995
未嘗	-8.62025
詐	-8.62113
竒	-8.62114
有所	-8.62115
境	-8.62156
友	-8.62314
百姓	-8.62409
史記	-8.62572
七年	-8.62602
撰	-8.62839
擇	-8.62916
兄	-8.62968
之罪	-8.63008
不從	-8.63091
英	-8.63097
參	-8.63145
忌	-8.63182
者皆	-8.63208
以來	-8.63349
寛	-8.63372
糧	-8.63561
勒	-8.63799
鄧	-8.63896
誰	-8.64122
皇帝	-8.64157
未有	-8.64272
飛	-8.64307
依	-8.64413
掌	-8.64509
是也	-8.64512
傅	-8.64545
雅	-8.64563
頭	-8.64619
荆	-8.64701
湯	-8.64801
革	-8.64937
聞之	-8.65172
幾	-8.652
憲	-8.65372
公主	-8.66234
逹	-8.66415
振	-8.66479
庭	-8.66537
逸	-8.66546
崩	-8.66547
徴	-8.66619
孰	-8.67048
莽	-8.67069
防	-8.67084
金人	-8.67172
舍	-8.67628
庸	-8.67789
竟	-8.68119
陷	-8.68314
知其	-8.68515
國家	-8.68625
洛陽	-8.68626
驕	-8.68679
感	-8.68709
折	-8.68735
䘮	-8.68954
案	-8.68994
允	-8.69053
百官	-8.69464
欺	-8.69491
貢	-8.69493
其子	-8.69537
河南	-8.69555
其後	-8.69743
冠	-8.69773
覆	-8.69816
句	-8.69997
堂	-8.70126
郡名注見	-8.70129
之道	-8.70338
丞相	-8.7039
遊	-8.70545
鼎	-8.70723
斥	-8.70732
苦	-8.70847
補	-8.70876
遽	-8.7097
葬	-8.70992
盗	-8.7112
循	-8.71299
毁	-8.71302
争	-8.71421
䧟	-8.71575
殊	-8.71596
雜	-8.71656
術	-8.72482
歟	-8.7266
妃	-8.72662
九年	-8.7271
督	-8.72787
烈	-8.72851
戮	-8.73128
裴	-8.7322
密	-8.73341
自是	-8.73423
伊	-8.73464
人主	-8.73475
國之	-8.73551
繫	-8.73684
班	-8.7378
某	-8.73796
馮	-8.7406
嗚呼	-8.74177
䝉古	-8.74364
貪	-8.7439
貞	-8.74585
放	-8.74768
讀	-8.74836
詞	-8.74914
預	-8.74956
講	-8.75001
㫖	-8.75215
格	-8.75229
一人	-8.75433
源	-8.75539
焚	-8.75604
不如	-8.75687
不過	-8.75819
升	-8.75956
均	-8.76077
辱	-8.76157
辟	-8.76257
妄	-8.76754
愈	-8.76833
畢	-8.77035
漸	-8.77137
誣	-8.77149
頗	-8.77151
忘	-8.77167
射	-8.77244
六月	-8.77302
戍	-8.77311
上書	-8.77383
肅	-8.77558
不為	-8.77703
潰	-8.7799
衞	-8.7813
乆	-8.78161
偽	-8.78223
會	-8.78235
十二	-8.78293
十年	-8.78308
災	-8.78525
之子	-8.7867
河東	-8.7885
似	-8.78895
索	-8.78974
二月	-8.78995
效	-8.79328
縣屬	-8.79376
懷	-8.79407
冀	-8.79435
君臣	-8.79537
兒	-8.79595
葉	-8.79823
逃	-8.79988
恃	-8.80072
衍	-8.802
之法	-8.80487
藏	-8.80675
宿	-8.80764
勤	-8.81199
工	-8.81294
秀	-8.81338
寺	-8.81424
揚	-8.81516
敕	-8.8156
徵	-8.8167
董	-8.81691
太祖	-8.81734
也今	-8.81794
突厥	-8.81863
户	-8.81904
筆	-8.81991
審	-8.82218
湖	-8.82255
徃	-8.82303
轉	-8.82429
歲	-8.82441
速	-8.82444
半	-8.82477
谷	-8.82668
髙祖	-8.82701
夏四月	-8.82992
社稷	-8.83021
来	-8.83093
舟	-8.8326
兄弟	-8.83316
莊	-8.83635
九月	-8.83742
冬十月	-8.83754
干	-8.83816
導	-8.83861
人之	-8.84028
不以	-8.8407
曾	-8.84114
須	-8.84122
其罪	-8.84156
刺	-8.8429
雨	-8.84361
是時	-8.84393
飲	-8.84437
浮	-8.8452
倫	-8.84733
希	-8.8492
其事	-8.85016
之士	-8.85207
黜	-8.85288
人心	-8.85489
十二月	-8.85672
公子	-8.85813
之功	-8.85877
池	-8.86201
斬之	-8.86229
藩	-8.86291
㣲	-8.86337
薛	-8.8638
空	-8.8641
辛	-8.86475
不及	-8.86497
慎	-8.86597
俊	-8.86778
儉	-8.86953
也夫	-8.86979
祥	-8.87203
縣名注見	-8.87215
厯	-8.87347
剛	-8.87498
晏	-8.87533
豫	-8.8759
困	-8.87654
父子	-8.87679
䝉	-8.87845
肆	-8.87909
宴	-8.87927
榖	-8.87935
僧	-8.87941
勲	-8.87947
洪	-8.88072
超	-8.8819
夫人	-8.88479
秋七月	-8.88768
不然	-8.88794
俟	-8.8888
稍	-8.88884
禄	-8.89034
婦	-8.89053
人君	-8.89075
築	-8.89087
狀	-8.8914
廷	-8.89147
荀	-8.8923
姚	-8.89251
恒	-8.89315
宋主	-8.89377
春正月	-8.89517
其言	-8.89536
農	-8.89562
而無	-8.89647
種	-8.89686
八月	-8.89772
之義	-8.89832
増	-8.89835
倉	-8.89856
掠	-8.89917
佛	-8.89934
旣	-8.90106
尺	-8.9023
子孫	-8.90261
必有	-8.90275
背	-8.90371
隠	-8.90471
刻	-8.90591
歌	-8.90922
河北	-8.91016
羽	-8.91038
橋	-8.91188
二十	-8.91234
旦	-8.91279
最	-8.91343
武王	-8.91354
四方	-8.91392
程	-8.91551
五月	-8.91645
郊	-8.91799
𨽻	-8.91999
遜	-8.92034
接	-8.92054
鄴	-8.9222
唐主	-8.92243
甫	-8.92439
䕶	-8.92556
念	-8.92574
決	-8.92591
豈不	-8.92903
悔	-8.93027
刺史	-8.93048
寶	-8.93103
有罪	-8.93147
顔	-8.93274
之禍	-8.93342
沙	-8.93413
趨	-8.93454
歳	-8.93865
試	-8.94019
吐蕃	-8.94046
謙	-8.94109
疏	-8.94138
隱	-8.94172
有司	-8.94174
管	-8.94336
損	-8.94435
饑	-8.9458
傾	-8.94688
荒	-8.94834
都督	-8.9488
貨	-8.94882
賤	-8.94994
校	-8.95217
羌	-8.95265
笑	-8.95277
咎	-8.95423
是年	-8.95425
副	-8.95619
今日	-8.95746
裕	-8.95768
房	-8.95926
藥	-8.9601
卑	-8.96016
出於	-8.96206
厲	-8.96283
擊之	-8.96424
言之	-8.96519
否	-8.96564
赤	-8.96622
不許	-8.96632
宰	-8.96724
介	-8.9676
引兵	-8.96762
羊	-8.96817
蔽	-8.96874
魚	-8.97181
二人	-8.9721
十一月	-8.97213
渠	-8.97215
融	-8.97447
弼	-8.97523
奚	-8.97614
是為	-8.9774
節度	-8.9804
擒	-8.98077
輙	-8.98081
誘	-8.98099
祚	-8.98106
不復	-8.98149
蠻	-8.98486
淮南	-8.98767
冬	-8.98828
袁	-8.98934
三十	-8.98962
名注見	-8.98991
髙宗	-8.99062
十二年	-8.99111
浚	-8.99182
忽	-8.99236
單于	-8.99253
馳	-8.99258
左傳	-8.99449
憤	-8.99552
材	-8.99874
滿	-8.99936
凶	-8.99959
文王	-8.99979
祠	-9.00021
宦官	-9.00083
宮	-9.00257
諡	-9.00287
囚	-9.00607
付	-9.00765
甚矣	-9.00765
畫	-9.00888
既而	-9.01035
編	-9.01095
輿	-9.01192
也然	-9.01206
改為	-9.01299
禦	-9.01308
士卒	-9.01343
綱目書	-9.01458
曰此	-9.01484
之徒	-9.01521
諸軍	-9.01534
差	-9.01925
沮	-9.01974
覺	-9.01999
靡	-9.02614
茂	-9.02785
曽	-9.02919
政事	-9.02967
逼	-9.03105
尹	-9.03178
寜	-9.03266
薨	-9.03421
謁	-9.03574
奮	-9.03714
巴	-9.04136
用之	-9.04268
漢書	-9.04486
彭	-9.0463
狄	-9.04647
毎	-9.0467
策	-9.04831
辰	-9.0493
維	-9.04973
今按	-9.04988
敦	-9.05061
古之	-9.05172
將兵	-9.05174
牙	-9.05185
煩	-9.05301
驚	-9.05308
忍	-9.05335
之不	-9.05349
悦	-9.05503
歡	-9.05512
熈	-9.05624
投	-9.05754
死者	-9.05767
之人	-9.05894
略	-9.05937
罔	-9.0606
殆	-9.06164
泣	-9.0621
竇	-9.06257
恨	-9.06261
有功	-9.06716
没	-9.06731
厭	-9.06735
故曰	-9.0679
乙	-9.06896
誅之	-9.07028
血	-9.07194
偏	-9.07223
宣帝	-9.07498
鹽	-9.07713
先是	-9.07812
簒	-9.07941
入朝	-9.08021
不克	-9.08215
壽	-9.08438
一日	-9.08482
御史	-9.08791
之臣	-9.08796
惜	-9.08926
寒	-9.08998
遵	-9.0902
面	-9.09061
與之	-9.09129
太平	-9.09136
使人	-9.09208
胡氏曰	-9.09224
采	-9.09347
丹	-9.09395
討之	-9.09396
屠	-9.09517
兹	-9.09519
晦	-9.09524
昏	-9.09696
蒲	-9.0971
迹	-9.09834
弊	-9.09865
尉	-9.10181
卜	-9.10208
邉	-9.10538
優	-9.1054
翼	-9.10714
五代	-9.10742
卓	-9.10857
宦者	-9.10904
汴	-9.10987
託	-9.11014
鄙	-9.11189
角	-9.11207
粟	-9.11233
成王	-9.11249
秦王	-9.11266
竭	-9.11389
姑	-9.11689
紂	-9.11702
十五	-9.11714
量	-9.11875
舒	-9.11897
誓	-9.119
叙	-9.11927
十五年	-9.11955
遠	-9.12036
珍	-9.12055
範	-9.12175
峻	-9.12205
則其	-9.12341
攸	-9.12553
書之	-9.12658
飾	-9.1277
十一年	-9.12844
無罪	-9.12887
霸	-9.13109
則是	-9.13187
郡名	-9.13215
毛	-9.13273
支	-9.13709
専	-9.13945
樓	-9.13985
者矣	-9.14024
岐	-9.1415
諱	-9.14258
殘	-9.14282
苑	-9.14297
猛	-9.14299
天地	-9.14425
短	-9.14464
趣	-9.14656
庫	-9.14673
江南	-9.14758
基	-9.14798
回	-9.14816
蘭	-9.14825
正誤	-9.14832
戸	-9.14967
錯	-9.15009
盜	-9.15265
仕	-9.15287
上下	-9.15397
遁	-9.15456
募	-9.15557
侍中	-9.15609
余	-9.15653
賂	-9.1571
得其	-9.15738
子曰	-9.15782
之際	-9.15916
使者	-9.15946
擾	-9.16052
享	-9.16155
浩	-9.16231
齊主	-9.16337
宗廟	-9.16359
歩	-9.16381
錄	-9.16572
寡	-9.166
大敗	-9.16646
以下	-9.16656
供	-9.16946
渭	-9.16984
太原	-9.17045
許之	-9.17114
廬	-9.17189
哭	-9.17298
落	-9.17366
妾	-9.17451
恥	-9.176
泉	-9.17689
復為	-9.17709
其心	-9.17727
如是	-9.17954
院	-9.17995
奴	-9.18036
單	-9.18136
毒	-9.18156
淫	-9.18206
甘	-9.18299
中書	-9.18371
匡	-9.18419
上曰	-9.18785
佞	-9.19072
側	-9.1931
鼓	-9.19326
貫	-9.19614
貧	-9.19636
荆州	-9.19655
柔	-9.19694
㓂	-9.19707
吴	-9.19747
可汗	-9.19755
因之	-9.19877
至于	-9.19974
岳	-9.20013
錫	-9.20125
欲以	-9.20212
左氏曰	-9.20238
擅	-9.20272
矣然	-9.20274
縣名	-9.20349
梁主	-9.20378
品	-9.20415
宅	-9.20443
自古	-9.20491
欽	-9.20573
啓	-9.20809
渡	-9.20828
僅	-9.20985
規	-9.21148
不至	-9.21149
遣兵	-9.2121
一作	-9.21426
帛	-9.21437
凖	-9.21442
輸	-9.21532
津	-9.21672
姬	-9.21751
啟	-9.22093
孟子	-9.22118
禪	-9.22155
調	-9.22276
虐	-9.22285
成都	-9.22407
徽	-9.22535
肉	-9.22651
悟	-9.22686
莫不	-9.22703
起兵	-9.22735
全忠	-9.22775
公卿	-9.22803
履	-9.22827
輩	-9.2283
祐	-9.22968
而死	-9.22983
借	-9.2304
嬰	-9.23233
雖有	-9.23348
罰	-9.23519
扶	-9.23562
復置	-9.23699
宏	-9.2382
十三年	-9.23824
丙	-9.23958
之世	-9.2407
寢	-9.24156
露	-9.24187
駕	-9.24301
靖	-9.24345
細	-9.24357
閣	-9.24403
中外	-9.24587
用兵	-9.24616
而還	-9.24644
成帝	-9.24699
鍾	-9.24735
桑	-9.24758
故也	-9.24861
炎	-9.24969
殺其	-9.24979
驅	-9.25043
取之	-9.25056
在位	-9.25147
躬	-9.25154
僣	-9.25155
金主	-9.25206
括	-9.25328
奸	-9.25337
科	-9.25641
臧	-9.25705
觀之	-9.25782
以此	-9.25812
僕	-9.2583
兆	-9.25912
又曰	-9.25983
曰我	-9.26012
頓	-9.26087
激	-9.26114
帝曰	-9.26145
中原	-9.26148
聘	-9.2637
抗	-9.26475
壬	-9.26517
以其	-9.2675
憚	-9.26885
之所以	-9.27014
之君	-9.27075
先帝	-9.27099
四海	-9.27104
夷狄	-9.272
鳴	-9.27289
減	-9.27306
竹	-9.27352
故事	-9.27364
或曰	-9.27409
頃	-9.27498
堯舜	-9.27501
自殺	-9.27532
懿	-9.27604
亦不	-9.27625
曰今	-9.27651
勉	-9.27899
明帝	-9.27961
文公	-9.27964
千里	-9.28047
突	-9.28104
矯	-9.28177
太尉	-9.2819
井	-9.28257
㡬	-9.28327
其君	-9.28477
亭	-9.28503
續	-9.28544
配	-9.28861
辯	-9.28863
早	-9.28877
掩	-9.289
之勢	-9.28914
船	-9.2892
古者	-9.28947
根	-9.2897
丕	-9.29006
褒	-9.29081
澄	-9.29114
可也	-9.29401
攝	-9.29473
耻	-9.29556
不用	-9.29731
淳	-9.29739
寅	-9.29837
之志	-9.29913
十六	-9.30147
杖	-9.30334
讐	-9.30337
之故	-9.3034
鹿	-9.30357
建康	-9.30379
百里	-9.30628
至此	-9.30765
齒	-9.30766
南陽	-9.30808
元帝	-9.31037
肅宗	-9.31131
注見晉	-9.31151
絳	-9.31252
之類	-9.31294
普	-9.31325
陰	-9.31373
伏誅	-9.31375
毅	-9.31569
捕	-9.31975
候	-9.32202
姜	-9.32456
雷	-9.3246
十萬	-9.32496
彌	-9.3251
栁	-9.32604
雪	-9.32639
襄陽	-9.32682
踰	-9.327
夫子	-9.32778
游	-9.32811
倍	-9.32812
戴	-9.32836
正月	-9.33215
緩	-9.33287
奈何	-9.33309
見其	-9.33313
不同	-9.3333
併	-9.33477
貞觀	-9.33642
鑄	-9.33643
訪	-9.33651
沒	-9.33656
庚	-9.33919
四十	-9.34175
東南	-9.34209
文武	-9.34222
恣	-9.34307
刀	-9.34309
慕容	-9.34352
光武	-9.34402
人也	-9.34465
竄	-9.34496
豈可	-9.34508
不可以	-9.34526
桀	-9.34538
樊	-9.3476
東漢	-9.34923
珪	-9.34941
同平章事	-9.35028
十三	-9.35172
司徒	-9.35329
十七	-9.35493
不忍	-9.35512
蕃	-9.35539
恤	-9.35541
高宗	-9.35545
談	-9.3557
割	-9.35714
人臣	-9.35785
擢	-9.35826
高祖	-9.3586
姓名	-9.35914
前書	-9.35926
世家	-9.35984
耕	-9.36012
賣	-9.36028
為相	-9.36091
静	-9.36239
之説	-9.36255
盈	-9.36433
侈	-9.3661
劾	-9.36642
大將軍	-9.3687
鑒	-9.36903
寇	-9.36934
聼	-9.36936
匹	-9.36995
五十	-9.36999
旅	-9.37078
墨	-9.37136
不受	-9.37231
濬	-9.37262
山東	-9.37278
渾	-9.37311
安得	-9.37482
𤣥宗	-9.37485
何如	-9.37554
之失	-9.37607
將士	-9.37696
戚	-9.37761
毋	-9.37812
内外	-9.37858
溺	-9.38208
人皆	-9.38247
大事	-9.38305
鮮	-9.38376
前後	-9.38424
潜	-9.38456
亟	-9.38473
不聽	-9.38475
日食	-9.38621
黎	-9.38657
賔	-9.3889
學士	-9.389
州注見	-9.39071
仇	-9.39072
城中	-9.3911
西域	-9.39176
直書	-9.3948
代之	-9.39486
寸	-9.39506
巢	-9.39555
誥	-9.39676
之計	-9.39793
父母	-9.39862
先王	-9.39989
骨	-9.39991
胥	-9.40024
而去	-9.40145
疆	-9.40456
誕	-9.40464
亷	-9.40496
改元	-9.40607
十一	-9.40805
中山	-9.40807
氏曰	-9.40872
之衆	-9.40889
秉	-9.40914
儲	-9.40927
之初	-9.41022
公孫	-9.41058
之名	-9.41058
軌	-9.41059
貳	-9.41082
噫	-9.41128
鳯	-9.41142
巧	-9.41264
怪	-9.41324
式	-9.41359
舉兵	-9.41361
却	-9.41387
敏	-9.41613
鐵	-9.41614
受命	-9.41621
而不知	-9.41667
巳	-9.41757
邵	-9.41798
冊	-9.41889
不足以	-9.42038
翰	-9.42054
有餘	-9.42237
眞	-9.42279
王者	-9.42401
播	-9.42509
邀	-9.42554
贈	-9.42569
矣故	-9.4267
純	-9.42703
憲宗	-9.42892
園	-9.42978
界	-9.43099
藝	-9.43151
一旦	-9.432
答	-9.43214
是故	-9.43333
豪	-9.43418
繁	-9.43439
賛	-9.43446
愧	-9.43446
㑹稽	-9.43499
及其	-9.43551
則書	-9.43573
者不	-9.43613
況	-9.43623
涼	-9.43674
知之	-9.43695
何哉	-9.43831
而立	-9.43844
虛	-9.43851
階	-9.43892
不若	-9.43987
檜	-9.44272
限	-9.44371
郢	-9.444
米	-9.44418
陶	-9.44481
民之	-9.44527
創	-9.4458
藉	-9.4459
廵	-9.44596
嶺	-9.44739
明皇	-9.44742
痛	-9.44837
西北	-9.4484
江陵	-9.4494
三公	-9.45011
樹	-9.45076
君之	-9.45169
社	-9.45201
僕射	-9.45259
其地	-9.45287
競	-9.45313
驗	-9.45342
恕	-9.45343
彭城	-9.45494
項	-9.45517
慰	-9.45519
夢	-9.45553
嫌	-9.45568
館	-9.45592
汾	-9.45594
乃以	-9.45632
左氏	-9.45668
嵩	-9.45733
捨	-9.45774
忿	-9.45777
齊王	-9.45811
十四	-9.45958
匿	-9.4625
署	-9.4628
狐	-9.46368
萬人	-9.46478
戰國	-9.46478
朗	-9.46487
旁	-9.46497
恪	-9.46537
長史	-9.46728
仰	-9.46731
到	-9.46749
塗	-9.46753
邢	-9.46819
天命	-9.46967
仗	-9.46999
伊尹	-9.47022
提	-9.47145
彰	-9.47228
獵	-9.47244
判	-9.47298
禮樂	-9.47363
發兵	-9.47403
作亂	-9.47494
十四年	-9.47647
之謀	-9.47652
世子	-9.47654
言於	-9.47672
貌	-9.47706
壊	-9.47716
為太子	-9.47722
覽	-9.47915
斗	-9.47972
十月	-9.48011
不得已	-9.48039
霍	-9.48125
仙	-9.48176
占	-9.48213
暉	-9.48253
諸王	-9.48323
三百	-9.48363
之亂	-9.48456
幽州	-9.48493
以示	-9.48529
壯	-9.48549
慕	-9.48912
倚	-9.4895
桓公	-9.48958
此書	-9.48958
壁	-9.48967
行之	-9.49025
四月	-9.49096
皆以	-9.49172
整	-9.49189
矜	-9.49195
閉	-9.49374
㤗	-9.49384
謬	-9.49409
劒	-9.49426
戲	-9.49426
帶	-9.49436
羙	-9.49464
宗室	-9.49496
不當	-9.49541
攻之	-9.49592
午	-9.49633
牢	-9.49677
舞	-9.49709
提要	-9.49763
夕	-9.49812
珠	-9.49899
歛	-9.49924
植	-9.49954
鴻	-9.5015
予之	-9.50268
贊	-9.50686
開元	-9.50743
閔	-9.5076
男	-9.5083
宇文	-9.50856
呂	-9.50917
十八	-9.51041
曰朕	-9.51061
聴	-9.51199
本朝	-9.51235
乂	-9.5124
而不能	-9.51251
揚州	-9.51512
用事	-9.5164
其身	-9.51646
松	-9.5173
将軍	-9.51751
一時	-9.51797
徳宗	-9.51801
之師	-9.51817
二百	-9.51937
幼	-9.51964
戊	-9.52173
綏	-9.52248
是非	-9.52282
脱	-9.52449
撃	-9.5251
未幾	-9.52529
癸	-9.52558
救之	-9.52683
員	-9.52709
刼	-9.52737
舎	-9.52747
龜	-9.52793
以待	-9.52864
警	-9.52963
不肯	-9.53009
詰	-9.53235
屋	-9.53258
徽宗	-9.53521
眀	-9.53932
鳳	-9.53996
以後	-9.54076
之禮	-9.54136
自稱	-9.54152
子弟	-9.54171
慈	-9.54243
東都	-9.54284
衝	-9.54519
貽	-9.5452
偃	-9.54537
熊	-9.54545
束	-9.54552
麟	-9.54566
學者	-9.54679
萬世	-9.54724
熙	-9.54762
建安	-9.54764
者乎	-9.54804
鳥	-9.54809
州縣	-9.54886
豈非	-9.54887
晉陽	-9.55045
破之	-9.55138
齊侯	-9.55224
祿	-9.55232
樞	-9.55248
蕩	-9.55306
墓	-9.55308
改屬	-9.55325
沛	-9.55373
夲	-9.55375
皮	-9.55551
裁	-9.55556
譽	-9.55556
韶	-9.55571
鋭	-9.55595
翟	-9.55606
蔡京	-9.55648
所為	-9.55722
上疏	-9.55755
武氏	-9.55759
又以	-9.55766
日格子曰	-9.55802
安帝	-9.55866
契	-9.55867
當作	-9.55931
司空	-9.55986
其名	-9.56075
成功	-9.56106
罕	-9.56163
本紀	-9.5627
也若	-9.56313
輒	-9.56329
印	-9.56361
懲	-9.56372
𦙍	-9.564
之上	-9.56405
則有	-9.5644
郡縣	-9.56463
通鑑	-9.56473
地名	-9.56523
寄	-9.56604
税	-9.56604
尸	-9.56621
閩	-9.56651
卯	-9.56664
江淮	-9.56781
矢	-9.56852
漏	-9.56898
銅	-9.56951
討賊	-9.57018
顔師古曰	-9.57042
乏	-9.57201
不欲	-9.57316
觀其	-9.5732
悲	-9.57324
葛	-9.57371
伍	-9.57406
欽定四庫全書	-9.57461
巨	-9.57466
晉侯	-9.57474
産	-9.57523
狂	-9.57675
昆	-9.5769
畜	-9.57704
幹	-9.57761
數萬	-9.5785
晟	-9.57895
篤	-9.57942
死之	-9.57961
舅	-9.57973
傳曰	-9.58058
徐州	-9.58064
十六年	-9.58098
勃	-9.58216
南北	-9.58237
正義曰	-9.58303
夾	-9.58318
租	-9.58465
亦有	-9.58466
岸	-9.58567
隴	-9.5867
席	-9.58795
賢者	-9.589
檢	-9.59026
鄭伯	-9.59078
不在	-9.59109
用左	-9.59117
壘	-9.59121
不行	-9.59197
其國	-9.59239
於天下	-9.59294
僚	-9.59304
即此	-9.59315
特書	-9.59413
何也	-9.59585
不見	-9.5961
妖	-9.59618
曜	-9.59676
未聞	-9.59758
若此	-9.59759
凉	-9.5976
抵	-9.59845
劭	-9.59883
段	-9.59916
不與	-9.59956
㓜	-9.60172
旱	-9.6025
奢	-9.60431
其間	-9.60474
稽	-9.60475
堪	-9.60594
仁宗	-9.60626
不免	-9.60654
丈	-9.60882
之命	-9.60906
鋒	-9.60917
世祖	-9.60933
其衆	-9.60936
宇	-9.61045
遲	-9.61236
柄	-9.61257
釁	-9.61259
弓	-9.61306
婦人	-9.6137
麗	-9.61448
曰臣	-9.61449
肇	-9.61554
其意	-9.61566
中宗	-9.61633
跡	-9.618
璽	-9.61814
柱	-9.61822
軍中	-9.61956
不宜	-9.62007
不相	-9.62083
臯	-9.62156
十七年	-9.62254
此其	-9.62308
遭	-9.62376
湘	-9.62482
丞	-9.626
不言	-9.62615
不亦	-9.62625
惡之	-9.6266
尾	-9.62666
酉	-9.62671
淺	-9.62706
歎	-9.62737
得以	-9.62774
者亦	-9.62915
爽	-9.62922
饒	-9.62956
巡	-9.63066
上言	-9.63245
得失	-9.63248
挾	-9.63278
他日	-9.6332
稅	-9.63331
而已矣	-9.63334
富貴	-9.63346
諷	-9.63497
中興	-9.63498
濫	-9.63512
寃	-9.63549
以自	-9.63614
猶言	-9.63667
鄰	-9.6382
訟	-9.63822
也其	-9.63857
言者	-9.6388
缺	-9.64077
注見唐	-9.6409
曹操	-9.64309
侍郎	-9.64321
使之	-9.64366
秩	-9.64372
宛	-9.64403
先生	-9.64415
豈有	-9.64507
乃止	-9.64542
哲	-9.64566
無不	-9.64672
黄帝	-9.64685
鎭	-9.64693
其人	-9.64826
晚	-9.64946
兮	-9.65012
軍士	-9.65085
明日	-9.65087
仁義	-9.65124
湛	-9.65199
疎	-9.65231
元祐	-9.65367
郡名注見漢	-9.65602
垣	-9.65613
得之	-9.65644
乖	-9.65802
氏之	-9.65833
數十	-9.65995
拒之	-9.66054
狥	-9.66132
措	-9.66154
拔	-9.66162
地震	-9.66197
克用	-9.66282
覇	-9.66409
漢之	-9.66494
曰陛下	-9.66504
之中	-9.6651
七月	-9.66527
執政	-9.66528
漢中	-9.66753
之政	-9.66754
環	-9.66759
藩鎮	-9.66848
齊人	-9.66909
陜	-9.66922
未可	-9.66954
副使	-9.66999
為人	-9.67017
代宗	-9.67236
阻	-9.67317
楚子	-9.67326
燒	-9.67337
大怒	-9.67483
長沙	-9.67564
讒	-9.67575
潁	-9.676
譙	-9.67642
其弟	-9.67755
曷	-9.67762
妻子	-9.67848
冲	-9.67864
瑞	-9.67873
觧	-9.67907
採	-9.67929
所在	-9.68113
三日	-9.68127
台	-9.68201
壞	-9.68206
東北	-9.68315
譏之	-9.68344
忠義	-9.68401
肯	-9.68434
丑	-9.68437
緒	-9.68489
嫡	-9.685
三國	-9.68568
琳	-9.68596
然而	-9.68697
戌	-9.68781
擬	-9.68804
瓊	-9.68842
彪	-9.68871
惠帝	-9.68937
直言	-9.68999
穀	-9.6906
屏	-9.691
曉	-9.69104
者必	-9.69112
徑	-9.69409
不勝	-9.6943
返	-9.69435
潛	-9.69461
京兆	-9.69473
之變	-9.69511
博士	-9.69605
羡	-9.69702
渉	-9.69739
沔	-9.69748
景帝	-9.69869
不明	-9.69986
協	-9.70305
什	-9.70332
裔	-9.70377
逢	-9.70578
幣	-9.70595
醜	-9.70633
風俗	-9.70832
多矣	-9.70894
閭	-9.70926
熟	-9.70943
皆有	-9.7095
王室	-9.71122
證	-9.71198
隙	-9.71213
宼	-9.71282
言其	-9.71405
相繼	-9.71503
檄	-9.71516
皓	-9.71562
抱	-9.71571
古今	-9.71606
自立	-9.71617
士大夫	-9.71806
陣	-9.71877
迫	-9.71878
強	-9.71879
俘	-9.71918
海内	-9.71934
總管	-9.71935
不幸	-9.71954
大破之	-9.71996
之辭	-9.72056
何為	-9.72102
俾	-9.72151
增	-9.72152
失其	-9.72185
鑿	-9.72198
其家	-9.72211
管仲	-9.72259
世宗	-9.72345
二子	-9.72347
曰昔	-9.7241
稷	-9.72414
滋	-9.72479
廣陵	-9.72484
㨗	-9.72487
嫁	-9.72542
徹	-9.72554
王子	-9.72554
帝王	-9.72562
刋	-9.72721
鄂	-9.7278
不可不	-9.72862
三代	-9.73045
元嘉	-9.73058
史官	-9.73062
帳	-9.73097
犬	-9.73122
喻	-9.73136
劉氏	-9.73252
七十	-9.73259
六十	-9.73342
祖宗	-9.73352
百餘	-9.73377
吁	-9.73398
詔以	-9.73438
世之	-9.73448
其志	-9.73455
曰君	-9.73471
沂	-9.73482
擁	-9.73516
聰	-9.73571
書殺	-9.73644
蒙	-9.73652
官爵	-9.73659
後魏	-9.73697
怠	-9.73704
叡	-9.73708
黙	-9.7374
温公	-9.73753
育	-9.7379
建武	-9.73904
緯	-9.73969
不顧	-9.73978
紫	-9.74045
璋	-9.74074
致仕	-9.74148
庻	-9.74352
皆不	-9.74382
周主	-9.74636
黒	-9.74732
相與	-9.74755
不容	-9.74787
不出	-9.74793
鬼	-9.74973
無以	-9.74981
浸	-9.75005
州府	-9.75092
益州	-9.7517
日月	-9.75182
其黨	-9.75251
昧	-9.75293
虢	-9.7544
銀	-9.75551
殺人	-9.75565
而有	-9.75591
稱帝	-9.75596
范祖禹	-9.75609
譛	-9.75646
髪	-9.75653
步	-9.75654
裂	-9.7566
莒	-9.75682
瑜	-9.75752
可不	-9.75883
分注	-9.75958
弔	-9.75969
穿	-9.76005
可知矣	-9.76065
之外	-9.76147
也又	-9.76169
消	-9.76255
鸞	-9.76266
恱	-9.76275
童	-9.76281
其實	-9.7631
盤	-9.7631
謗	-9.76622
其父	-9.76623
有天下	-9.76729
所殺	-9.76868
雖然	-9.76913
敝	-9.76972
册	-9.77233
悖	-9.77238
溝	-9.7726
世民	-9.7727
灌	-9.77316
名也	-9.77375
矣而	-9.7743
十九年	-9.77477
諸道	-9.77477
誨	-9.77485
疲	-9.77613
其不	-9.77625
以兵	-9.77627
趙王	-9.77757
古人	-9.77824
安國	-9.77867
雞	-9.77922
以爲	-9.77927
此則	-9.77945
為國	-9.77953
亦可	-9.77999
志云	-9.781
狼	-9.7828
出入	-9.78305
巖	-9.78313
巫	-9.78314
完	-9.78345
後周	-9.78413
元帥	-9.78527
拘	-9.78566
宦	-9.78591
讎	-9.78623
平原	-9.78798
太史	-9.78898
侮	-9.78943
故城在	-9.78954
恵	-9.7898
東魏	-9.78989
明年	-9.7903
兖	-9.79053
邾	-9.79054
豫章	-9.79063
五千	-9.79093
神宗	-9.79198
輕重	-9.79222
三司	-9.79251
亳	-9.79268
括地志云	-9.79276
未必	-9.79503
嬖	-9.79564
纂	-9.79571
轍	-9.79587
二字	-9.79811
其中	-9.79814
之術	-9.79876
溪	-9.79901
収	-9.79914
十餘萬	-9.79943
故綱目	-9.79984
無忌	-9.80148
東西	-9.80152
本傳	-9.80194
粲	-9.80253
訴	-9.80273
議者	-9.80491
泰山	-9.80507
不利	-9.8055
大義	-9.80635
平陽	-9.80653
天子之	-9.80848
大業	-9.80926
戾	-9.80942
溫	-9.8097
取其	-9.81124
大司馬	-9.81233
臣祖禹曰	-9.81324
廉	-9.8134
遣人	-9.81355
河中	-9.81396
太常	-9.81484
而又	-9.81491
祝	-9.81612
懸	-9.81624
之主	-9.81675
諸州	-9.81791
逮	-9.81852
失之	-9.81859
混	-9.81944
贖	-9.81945
僭	-9.81947
數百	-9.81998
秋八月	-9.8204
注見漢光武建武	-9.82199
東海	-9.82203
為大	-9.82246
排	-9.82312
東宫	-9.82339
參知政事	-9.8234
従	-9.82375
之民	-9.82425
之日	-9.82538
正統	-9.8256
曰卿	-9.82591
陜西	-9.82624
文宗	-9.82651
州郡	-9.82662
也於是	-9.82898
守之	-9.82906
之甚	-9.82937
踐	-9.8294
太傅	-9.83215
周之	-9.83234
䖍	-9.83378
濮	-9.8365
胄	-9.83659
額	-9.83677
待之	-9.8368
不已	-9.83702
誼	-9.83704
二州名	-9.83809
人情	-9.83976
朔方	-9.83995
矦	-9.84029
麻	-9.84039
叚	-9.8404
閤	-9.84042
艾	-9.84057
買	-9.84074
於外	-9.84115
使其	-9.84142
見於	-9.84174
等皆	-9.84219
莫敢	-9.84224
五百	-9.84268
亥	-9.84342
詭	-9.84364
太師	-9.8438
特穆爾	-9.84416
未至	-9.84493
娶	-9.84707
之才	-9.84724
鼔	-9.8473
臣子	-9.84731
殂	-9.84743
匹夫	-9.84872
傑	-9.84907
終綱目	-9.84927
可乎	-9.85048
靣	-9.85111
課	-9.85116
茅	-9.85126
之患	-9.85257
禽	-9.85292
而卒	-9.8531
百萬	-9.85353
皇太后	-9.85357
而復	-9.85405
也且	-9.85421
窺	-9.85432
涉	-9.85446
倒	-9.85458
悅	-9.8547
其勢	-9.85548
郡唐	-9.85598
之役	-9.85679
含	-9.85711
無功	-9.85733
無事	-9.85751
禮也	-9.85752
諸子	-9.85942
聖人之	-9.86015
域	-9.86082
斤	-9.86129
駭	-9.86143
惜哉	-9.86152
距	-9.86154
翁	-9.86155
潘	-9.86167
考證	-9.86227
三人	-9.86394
國史	-9.86485
誦	-9.86527
忠臣	-9.8654
其民	-9.86592
數千	-9.86857
掃	-9.86861
滛	-9.8688
註	-9.86888
又有	-9.86912
上皇	-9.87121
蓄	-9.87236
慙	-9.87242
玩	-9.87265
歆	-9.87266
三千	-9.87296
蒼	-9.87307
尼	-9.87513
瓘	-9.8757
青州	-9.8762
平王	-9.87622
何其	-9.8771
一百	-9.87777
以告	-9.87867
也然則	-9.87968
璧	-9.88013
德宗	-9.88203
汝南	-9.88227
諒	-9.88269
進退	-9.88279
冒	-9.88286
謨	-9.88292
係	-9.88294
頌	-9.88296
駿	-9.88311
偉	-9.88335
所以為	-9.88344
鈞	-9.88347
䟽	-9.88447
弟子	-9.88502
功臣	-9.88616
丹陽	-9.88682
肥	-9.88691
校尉	-9.88694
宫室	-9.88705
其道	-9.88713
熹	-9.88716
廷尉	-9.88737
圗	-9.88745
歸之	-9.88751
不失	-9.88812
者何	-9.88857
其功	-9.8894
真宗	-9.89021
耿	-9.89083
洞	-9.89094
以上	-9.89143
似道	-9.89245
枉	-9.89427
事也	-9.89451
二十年	-9.89489
諸葛	-9.89524
明矣	-9.89533
僖	-9.89571
之賢	-9.89582
以李	-9.8959
未能	-9.89757
有大	-9.89758
伺	-9.89782
慢	-9.89838
曰汝	-9.90106
畿	-9.90154
綽	-9.90164
閲	-9.90176
照	-9.90182
潁川	-9.9019
拱	-9.90232
内史	-9.90289
秦之	-9.90297
都尉	-9.90365
論曰	-9.90382
州後	-9.90438
陽縣	-9.90498
順帝	-9.90532
快	-9.90597
氐	-9.906
之職	-9.90684
孫權	-9.9085
倡	-9.90921
庾	-9.90929
有異	-9.90932
迷	-9.90937
遼東	-9.90948
脫	-9.90958
并州	-9.91006
天寳	-9.91051
從事	-9.91056
國事	-9.9118
夫以	-9.91218
較	-9.91265
怯	-9.91297
省入	-9.91325
郡隋	-9.91425
留守	-9.91436
析	-9.91583
可見	-9.91608
遏	-9.91654
泥	-9.91681
四夷	-9.91784
而天下	-9.91856
夏五月	-9.91869
不應	-9.91932
皇甫	-9.92306
而能	-9.92345
之下	-9.92398
三萬	-9.92411
伸	-9.92428
牽	-9.92428
準	-9.9243
靜	-9.92431
旗	-9.92432
下詔	-9.9252
謂曰	-9.92532
十餘	-9.92592
醫	-9.92782
隕	-9.92796
旋	-9.92808
祿山	-9.92862
流涕	-9.92868
征伐	-9.92874
旬	-9.92989
在於	-9.93132
城下	-9.93282
巴延	-9.93315
封禪	-9.93339
其主	-9.93398
髙帝	-9.93492
繇	-9.93531
萌	-9.93544
踈	-9.93564
宥	-9.93577
繆	-9.93591
酷	-9.93591
托	-9.93614
有一	-9.93619
墜	-9.93635
何不	-9.93677
君子之	-9.93736
兖州	-9.93783
孝武	-9.93848
者非	-9.93878
以是	-9.93948
縁	-9.93963
其書	-9.93975
履祥按	-9.93997
偶	-9.94001
於上	-9.9413
軍事	-9.94236
其失	-9.94273
䕫	-9.94431
小人之	-9.94439
見之	-9.94501
魯侯	-9.94563
國人	-9.94605
燕王	-9.9466
縣名注見漢	-9.947
昬	-9.94708
膺	-9.94717
高帝	-9.94745
貸	-9.94761
冕	-9.94776
耆	-9.94793
琅邪	-9.94798
論之	-9.94847
監軍	-9.94869
可知	-9.94938
上表	-9.94958
禁中	-9.95091
百年	-9.95094
騰	-9.95117
䜛	-9.95124
咨	-9.95124
𦵏	-9.95146
醉	-9.95174
以見	-9.95275
安能	-9.95277
武徳	-9.95303
二千	-9.95328
以致	-9.95366
關中	-9.95374
羞	-9.95511
杞	-9.95596
楚人	-9.95716
為政	-9.95718
晉王	-9.95762
唐之	-9.95791
國名	-9.95823
也綱目	-9.95825
注見漢武帝	-9.95849
無一	-9.95858
而下	-9.95869
包	-9.95922
琦	-9.95924
級	-9.95945
暮	-9.95948
人所	-9.95952
將帥	-9.95957
無道	-9.96039
駢	-9.96044
後漢	-9.96089
去聲	-9.9619
忤	-9.96259
詆	-9.96283
可見矣	-9.96298
撓	-9.963
終綱目書	-9.96305
繹	-9.96319
軰	-9.96346
喬	-9.9637
國名注見	-9.96379
十里	-9.96467
辭也	-9.96476
卦	-9.96613
太廟	-9.96658
哈	-9.96671
也書	-9.96687
唐初	-9.96726
千餘	-9.96732
當以	-9.96779
以求	-9.96809
之論	-9.96839
子儀	-9.96911
周禮	-9.96924
瞻	-9.97119
留後	-9.97167
終不	-9.97171
墮	-9.97213
山在	-9.97276
群	-9.973
宫中	-9.9731
其母	-9.97427
其能	-9.97444
寕	-9.97553
必不	-9.97561
猶有	-9.97599
腹心	-9.97642
仍舊	-9.97643
紀綱	-9.97652
城縣	-9.97683
得志	-9.97752
盗賊	-9.97756
始皇	-9.97758
者則	-9.9778
局	-9.9786
千人	-9.97873
懦	-9.97883
斛	-9.97926
朋黨	-9.9795
譚	-9.97955
大抵	-9.97982
公曰	-9.98067
得罪	-9.98073
宋人	-9.98116
萬餘	-9.98171
十八年	-9.98241
不聼	-9.98256
北齊	-9.98279
李氏	-9.98299
而歸	-9.98304
豪傑	-9.98318
獸	-9.98323
億	-9.98349
隔	-9.98357
天理	-9.9838
冬十一月	-9.98385
梁王	-9.98401
大梁	-9.98405
春二月	-9.98433
故名	-9.98482
戰于	-9.98527
西南	-9.98583
千餘人	-9.98584
惇	-9.98649
吏民	-9.98688
展	-9.98691
繩	-9.98701
從容	-9.98702
河西	-9.98716
腹	-9.98721
溢	-9.98734
受其	-9.98742
評	-9.98753
寨	-9.98803
夘	-9.98836
精兵	-9.98927
冀州	-9.98945
之制	-9.99012
死於	-9.99087
停	-9.99111
毫	-9.99117
自為	-9.99133
仲淹	-9.99137
昇	-9.99146
邱	-9.99151
苛	-9.99177
於人	-9.9918
鮮卑	-9.99182
車駕	-9.99236
邠	-9.99236
災異	-9.99335
朱子	-9.99426
潤	-9.99559
豹	-9.99599
以備	-9.99633
無益	-9.99659
常山	-9.99736
河間	-9.99742
者哉	-9.99759
苗	-9.99846
為一	-9.99869
嶠	-9.999
皆為	-9.99915
不正	-9.99953
纔	-9.99965
婁	-9.99966
績	-9.99995
簿	-10.0008
歎曰	-10.0016
判官	-10.0024
秦檜	-10.0026
曷為	-10.0026
謀反	-10.0029
陋	-10.0032
索隠曰	-10.0036
顛	-10.0036
祗	-10.004
見漢	-10.0046
孔子曰	-10.0051
州治	-10.0051
隴西	-10.0065
帥衆	-10.0068
卞	-10.0074
頴	-10.0078
卧	-10.0078
吞	-10.0079
逵	-10.0082
耀	-10.0083
不肖	-10.0089
王莽	-10.0091
晉主	-10.0095
之國	-10.0096
故書	-10.0097
無可	-10.0098
之難	-10.0103
之情	-10.0105
道也	-10.0109
以正	-10.0109
漢主	-10.011
桂	-10.0111
究	-10.0114
顥	-10.0118
郤	-10.012
奄	-10.0121
演	-10.0122
若是	-10.0131
罷之	-10.0132
之說	-10.0142
縣名屬	-10.0145
豈得	-10.0155
罵	-10.0162
荘	-10.0163
耗	-10.0163
未詳處所	-10.0166
漢王	-10.0175
汗	-10.0185
闗中	-10.0187
先王之	-10.0192
賴	-10.0198
冝	-10.0202
料	-10.0203
斂	-10.0203
孟子曰	-10.0203
釐	-10.0205
驛	-10.0207
官軍	-10.0224
清河	-10.0229
中丞	-10.0236
帥師	-10.0238
之理	-10.0239
徇	-10.0242
岑	-10.0248
而止	-10.027
外戚	-10.027
皇子	-10.0276
詢	-10.0286
闢	-10.0287
𤓰	-10.0289
浦	-10.0291
可勝	-10.0294
欲立	-10.0301
卒子	-10.031
媚	-10.0323
膠	-10.0328
踵	-10.0329
握	-10.0331
裴度	-10.0341
而出	-10.0342
弑其君	-10.0344
自今	-10.0347
不必	-10.036
諫曰	-10.0361
羲	-10.0365
入于	-10.0366
標	-10.0371
牟	-10.0372
弛	-10.0372
柔然	-10.0372
仲尼	-10.0374
坦	-10.0379
元元年	-10.0385
内侍	-10.0394
其本	-10.0404
一言	-10.0405
天道	-10.0408
區	-10.041
虧	-10.0416
之力	-10.0422
制度	-10.0429
也此	-10.0437
范陽	-10.0445
張浚	-10.0453
為天下	-10.0455
祁	-10.046
尚書令	-10.046
耳目	-10.0463
亦以	-10.0463
王安石	-10.0482
睦	-10.0498
甚衆	-10.0499
泄	-10.05
翰林學士	-10.0501
韻	-10.0504
臣下	-10.0505
大功	-10.0507
注見周赧王	-10.0511
禮義	-10.0517
安定	-10.0521
譬	-10.0528
嶺南	-10.053
考之	-10.0534
郡國	-10.0535
久矣	-10.0536
朋	-10.0543
蹈	-10.0543
題	-10.0549
錡	-10.055
河内	-10.0562
非有	-10.0563
廢之	-10.0564
其義	-10.0583
戈	-10.0585
王氏	-10.0601
無異	-10.0602
以成	-10.0607
注見周顯王	-10.0608
尊號	-10.0608
元仍舊	-10.0612
陛	-10.0617
奏事	-10.0629
枝	-10.0632
苖	-10.0632
萇	-10.0632
長子	-10.0633
不成	-10.0634
漢之縣名屬	-10.0636
暇	-10.0637
所言	-10.0643
復以	-10.0646
善惡	-10.0655
之本	-10.0657
東平	-10.0658
云云	-10.0661
甞	-10.0665
下書	-10.0666
武宗	-10.0667
再書	-10.0668
波	-10.0673
未知	-10.0675
敷	-10.0677
敖	-10.0681
雍州	-10.0681
襄公	-10.0682
六國	-10.0682
詩曰	-10.0691
更始	-10.0703
咸陽	-10.0708
遂以	-10.0709
而行	-10.0712
逞	-10.0714
天之	-10.072
柳	-10.0723
已而	-10.073
髙麗	-10.073
泗	-10.0731
利害	-10.0733
之語	-10.0734
漢武	-10.074
隂陽	-10.075
中書令	-10.0752
不暇	-10.0753
之弊	-10.076
壇	-10.0761
味	-10.0761
贍	-10.0761
太學	-10.0763
無復	-10.0765
而書	-10.0768
不死	-10.0773
鳳翔	-10.0773
民間	-10.0785
之盛	-10.0786
者多	-10.0792
從而	-10.0794
泌	-10.0804
徼	-10.0805
不待	-10.0805
互	-10.0806
武后	-10.0808
侃	-10.0809
璘	-10.0812
梓	-10.0815
一名	-10.0844
之死	-10.085
不惟	-10.0851
秦二世	-10.0853
東坡	-10.0858
時人	-10.0878
注見秦	-10.088
諛	-10.0893
穴	-10.0896
揺	-10.0898
祈	-10.0899
薊	-10.09
矩	-10.0902
御史大夫	-10.0903
山陽	-10.0922
經世	-10.0924
義也	-10.0925
陳留	-10.0925
後主	-10.0925
此其書	-10.0927
奪其	-10.0932
其餘	-10.0933
睿	-10.0935
生民	-10.0938
不善	-10.0939
攘	-10.0941
奕	-10.0943
不疑	-10.0944
頒	-10.0946
他人	-10.0948
賔客	-10.0948
史通	-10.0954
諸路	-10.0956
自將	-10.0958
不食	-10.0961
世充	-10.0965
楚王	-10.0966
曰公	-10.0976
臨朝	-10.098
司馬光	-10.0981
其有	-10.0982
由此	-10.0982
大水	-10.0985
彧	-10.0987
吐	-10.0988
□	-10.0989
出奔	-10.0994
坊	-10.0995
太史公	-10.1
不自	-10.1004
希烈	-10.1005
主上	-10.1007
號曰	-10.1012
事君	-10.1021
以聞	-10.1025
嶽	-10.1028
閻	-10.1029
摩	-10.103
禦之	-10.1031
敎	-10.1036
飬	-10.1036
而殺之	-10.104
玠	-10.1041
此乃	-10.1048
敗之	-10.1062
頼	-10.1072
偷	-10.108
昭宗	-10.1082
可得	-10.1083
宋之	-10.1087
郎中	-10.1087
稱臣	-10.1089
漢武帝	-10.1094
之惡	-10.1097
明堂	-10.1108
何足	-10.1112
鮑	-10.1124
弩	-10.1128
昱	-10.1128
百餘人	-10.1129
伐之	-10.1131
猶未	-10.1132
穎	-10.1133
之文	-10.1134
不仁	-10.1139
群臣	-10.1144
淮西	-10.1145
建興	-10.1148
甲子	-10.1149
進士	-10.1161
揆	-10.1167
挺	-10.1168
鉞	-10.1169
綰	-10.1173
迄	-10.1173
十九	-10.1181
光武建武	-10.1183
罪之	-10.1194
所部	-10.1199
涇	-10.1211
陞	-10.1214
燾	-10.1216
龎	-10.1216
綿	-10.1218
反覆	-10.1222
州名	-10.1241
上黨	-10.1241
不悦	-10.1257
之權	-10.1265
畋	-10.1268
欵	-10.1268
一年	-10.1269
欒	-10.127
氷	-10.1271
都統	-10.1275
嗟	-10.1284
此言	-10.1291
了	-10.1304
本作	-10.1308
練	-10.1311
行事	-10.1315
何必	-10.1315
凉州	-10.1332
之議	-10.1339
其才	-10.1343
契丹主	-10.1344
昔者	-10.135
之氣	-10.135
之利	-10.1356
洋	-10.1356
捷	-10.1357
佑	-10.1357
苻	-10.1359
洲	-10.136
侍御史	-10.1362
以禮	-10.1367
聖賢	-10.137
不報	-10.1375
治之	-10.1377
見矣	-10.1379
君父	-10.1382
有言	-10.1387
大同	-10.1391
大軍	-10.1393
䜟	-10.1394
之道也	-10.1395
殄	-10.1402
淪	-10.1406
言曰	-10.141
莫能	-10.1411
斌	-10.1413
如何	-10.1414
深入	-10.143
於朝	-10.1443
林甫	-10.1443
出兵	-10.1444
倖	-10.1448
脅	-10.1451
奏請	-10.1453
去之	-10.1453
隐	-10.1454
蠻夷	-10.1467
諸國	-10.1468
可為	-10.1473
此固	-10.1474
縣省入	-10.1476
盟于	-10.148
諸侯之	-10.149
縣地	-10.1493
滔	-10.1496
銜	-10.1498
捐	-10.1499
濁	-10.1501
入城	-10.1501
為君	-10.1504
棘	-10.1504
武昌	-10.1525
金帛	-10.1526
恢	-10.1532
河陽	-10.1535
一朝	-10.1538
江州	-10.1542
闇	-10.1544
紛	-10.1545
區區	-10.1545
洗	-10.1547
國語	-10.1551
王命	-10.1551
曹公	-10.1551
授之	-10.1553
何譏	-10.1554
雖欲	-10.1556
濟南	-10.1565
注見梁武帝	-10.1567
無故	-10.1572
譏也	-10.1574
不聞	-10.1584
五帝	-10.1586
弑君	-10.1586
其所以	-10.1589
大將	-10.1589
禧	-10.159
鬭	-10.1596
卽	-10.1596
斃	-10.1596
柴	-10.1597
披	-10.1598
萬物	-10.16
高麗	-10.1602
朱全忠	-10.1611
參軍	-10.1611
往往	-10.1615
則知	-10.1617
何罪	-10.1627
晉人	-10.1628
所當	-10.1628
童貫	-10.1639
歐陽	-10.1639
齋	-10.1642
吐谷渾	-10.1642
官名	-10.165
瓦	-10.1653
五行	-10.1655
之弟	-10.1671
釋之	-10.1671
夷簡	-10.1671
江東	-10.1674
大王	-10.1674
衆心	-10.168
曰若	-10.1684
算	-10.169
吕氏	-10.1691
止之	-10.1694
弄	-10.1694
昶	-10.1695
無足	-10.1697
亦無	-10.17
之戒	-10.1703
侯景	-10.1714
矣夫	-10.1717
三十里	-10.1726
凌	-10.174
銳	-10.1741
也自	-10.1749
以来	-10.1753
宋公	-10.1754
出師	-10.1759
之實	-10.1761
嗣源	-10.1764
之業	-10.1767
因其	-10.1769
名注見漢	-10.1773
憾	-10.1789
茶	-10.1791
不合	-10.1793
其官	-10.1793
塵	-10.1794
板	-10.1794
二千石	-10.1795
滕	-10.1796
召公	-10.1798
敗走	-10.1798
范氏曰	-10.1801
如此則	-10.1802
文學	-10.1804
元和	-10.1813
數日	-10.1813
者有	-10.1815
數年	-10.1817
各有	-10.1836
儼	-10.1836
太公	-10.1837
而欲	-10.1837
之任	-10.1838
不可勝	-10.1839
嬪	-10.184
有疾	-10.1843
稱王	-10.1845
為主	-10.1857
願陛下	-10.1869
故其	-10.1875
上帝	-10.1875
未及	-10.1879
汪	-10.1883
此皆	-10.1885
儻	-10.1886
陟	-10.1887
寓	-10.1889
糾	-10.1891
不義	-10.1893
駐	-10.1895
渡河	-10.1905
矣今	-10.1905
夏人	-10.1906
言事	-10.1909
分兵	-10.1918
號令	-10.1919
果何	-10.1922
熲	-10.1923
或作	-10.1923
乃命	-10.1926
不問	-10.1929
上䟽	-10.1929
幕	-10.193
効	-10.1935
叅	-10.1936
苟	-10.1937
鐸	-10.1939
治亂	-10.1941
其職	-10.1942
錦	-10.1943
綂	-10.1945
按一統志	-10.1949
不盡	-10.195
謂其	-10.1952
土地	-10.1954
劉向	-10.1956
矣此	-10.1961
宣王	-10.1968
所能	-10.1971
奉詔	-10.1973
表請	-10.1973
所宜	-10.1977
恬	-10.1987
膳	-10.1987
沿	-10.1987
悼	-10.1988
上以	-10.199
叱	-10.199
訛	-10.1994
柏	-10.2
以張	-10.2013
莊公	-10.2025
大亂	-10.2026
之學	-10.2031
賑	-10.2035
状	-10.2037
豆	-10.2038
固守	-10.204
漳	-10.2045
勁	-10.2045
滎陽	-10.2053
滅之	-10.2056
蝗	-10.2058
鞅	-10.2063
此亦	-10.2064
元昊	-10.2068
有三	-10.207
事在	-10.2079
確	-10.2086
慧	-10.2088
黼	-10.2091
欲殺	-10.2091
囂	-10.2093
更名	-10.2112
而不可	-10.2131
李綱	-10.2131
㑹于	-10.2132
方士	-10.2134
處之	-10.2135
迭	-10.2138
裳	-10.2142
囘	-10.2144
妹	-10.2145
為天子	-10.2145
婢	-10.2148
貝	-10.2149
魏人	-10.2157
遂與	-10.2173
艱	-10.218
敘	-10.2184
諾	-10.2187
悍	-10.2188
興元	-10.2188
鉤	-10.2189
閹	-10.219
饗	-10.2191
阜	-10.2191
㸃	-10.2192
未盡	-10.2193
蹙	-10.2194
彛	-10.2201
烏珠	-10.2203
和親	-10.2214
用史記	-10.2215
法度	-10.2215
視之	-10.222
責之	-10.2221
固辭	-10.2222
平元年	-10.2223
非其	-10.2226
或問	-10.2227
十餘年	-10.2229
萬里	-10.2229
不知所	-10.2237
赫	-10.224
曠	-10.2242
大小	-10.2247
以歸	-10.2256
二萬	-10.2262
繼之	-10.2263
怒曰	-10.2284
吳王	-10.2286
其可	-10.2288
徧	-10.2291
經畧	-10.2295
晉書	-10.2301
知人	-10.2302
南郡	-10.2303
則無	-10.2314
書討	-10.2326
疇	-10.2336
兇	-10.2339
自謂	-10.234
八十	-10.2341
馭	-10.2341
勅	-10.2345
薩	-10.2345
閑	-10.2345
雲中	-10.2354
京城	-10.2358
金陵	-10.2365
廢立	-10.2369
之過	-10.2388
覩	-10.2396
饋	-10.2396
寔	-10.2396
霍光	-10.2403
恂	-10.2403
建徳	-10.2403
於民	-10.2404
春秋時	-10.2408
讀書	-10.2409
綱目於	-10.2418
先君	-10.2426
而進	-10.2434
終身	-10.244
何所	-10.2443
汙	-10.2445
衮	-10.2447
之風	-10.2449
岱	-10.2451
𤣥宗開元	-10.2452
减	-10.2452
皇太子	-10.2456
而自	-10.2458
不能用	-10.2466
貴人	-10.2468
則亦	-10.247
死而	-10.2476
敗績	-10.2489
之詞	-10.2489
曰天	-10.249
豫州	-10.2491
非常	-10.2497
臂	-10.25
隅	-10.2504
有二	-10.2506
芳	-10.2508
梟	-10.2508
納之	-10.251
於後	-10.2518
之子也	-10.2525
府庫	-10.2532
桓帝	-10.2535
将兵	-10.2537
無他	-10.2538
一書	-10.2547
凡例	-10.2549
天變	-10.255
武陵	-10.2552
狗	-10.2554
揮	-10.2555
項羽	-10.256
雀	-10.2562
昭公	-10.2563
渡江	-10.2573
縣西	-10.2596
自守	-10.2597
萊	-10.2599
史臣	-10.2602
鑑	-10.2603
碑	-10.2605
鈔	-10.2605
其説	-10.2606
探	-10.2607
犇	-10.2609
絹	-10.2609
繕	-10.261
扈	-10.2612
因以	-10.2613
二世	-10.2613
黑	-10.2616
而用之	-10.2621
不服	-10.2629
乃遣	-10.2633
姦臣	-10.2636
嘆	-10.2636
注云	-10.2637
麾	-10.2649
豈能	-10.2655
浪	-10.2657
廸	-10.2657
𣙜	-10.2659
至今	-10.266
鐘	-10.266
狩	-10.2662
奭	-10.2663
郡治	-10.2663
遐	-10.2666
熙寧	-10.2674
貶之	-10.2684
之憂	-10.269
聰明	-10.269
詔曰	-10.2697
自取	-10.2702
劉裕	-10.2706
之末	-10.2707
非所以	-10.2711
肩	-10.2712
座	-10.2713
截	-10.2713
塔	-10.2714
札	-10.2719
廹	-10.272
賞罰	-10.2725
天地之	-10.2726
砦	-10.2728
請以	-10.273
尋復	-10.2742
必欲	-10.2742
大喜	-10.2753
和議	-10.2764
未嘗不	-10.2767
五日	-10.2768
勛	-10.2769
閒	-10.2769
太康	-10.2772
之號	-10.2776
相如	-10.2781
司農	-10.2784
故特書	-10.2791
永嘉	-10.2811
元初	-10.2812
不忘	-10.2814
入見	-10.2815
謫	-10.2817
歴代名賢確論卷	-10.282
賓	-10.282
鄒	-10.2823
網	-10.2825
中國之	-10.2827
巾	-10.2829
湏	-10.2829
表世家	-10.2844
宿衛	-10.2845
師道	-10.2846
第一	-10.2851
未有書	-10.2853
二十里	-10.2859
弑逆	-10.2861
陽郡	-10.2869
穢	-10.2873
浙	-10.2875
刃	-10.2875
熾	-10.2876
搆	-10.2876
像	-10.2877
囊	-10.2878
檀	-10.2879
崇韜	-10.2879
辦	-10.2879
賄	-10.288
冉	-10.2882
平章政事	-10.2883
其惡	-10.2893
煬帝	-10.2894
近臣	-10.2899
萬餘人	-10.2905
問之	-10.2907
之内	-10.2908
法也	-10.2911
唐室	-10.2919
於齊	-10.2921
卒以	-10.2922
宣宗	-10.2925
二州	-10.2925
將相	-10.2926
銖	-10.2932
乃與	-10.2934
斧	-10.2934
鬻	-10.2935
蘓	-10.2936
琮	-10.2936
姪	-10.2936
壅	-10.2937
所得	-10.2939
筠	-10.294
扶風	-10.2946
一切	-10.2964
朝政	-10.2967
姦邪	-10.2969
教之	-10.2969
衛侯	-10.297
繡	-10.2977
廣州	-10.2978
舌	-10.2982
於前	-10.2982
也嗚呼	-10.2988
闔	-10.2988
牲	-10.299
韓信	-10.2994
柵	-10.2996
上疏曰	-10.3001
在外	-10.3006
以罪	-10.3006
告之	-10.3008
恢復	-10.3009
盜賊	-10.301
唐書	-10.301
伐鄭	-10.3014
大理	-10.3019
諸将	-10.3019
欣	-10.3042
贓	-10.3042
縣東	-10.3043
促	-10.3043
膏	-10.3043
給事中	-10.3044
其臣	-10.3046
甸	-10.3046
蔣	-10.3046
陞為	-10.3047
軒	-10.3049
邇	-10.3049
孝文	-10.305
魏王	-10.3051
涪	-10.3052
潮	-10.3058
不絶	-10.3059
又何	-10.3062
緡	-10.3066
而言	-10.3072
昭烈	-10.3075
二十八年	-10.3084
莫之	-10.3089
其始	-10.3091
荷	-10.3093
實録	-10.3095
僊	-10.31
遥	-10.31
鐡	-10.3102
鞏	-10.3103
崖	-10.3104
王崩	-10.3107
夏侯	-10.3108
塘	-10.3113
戎狄	-10.3114
起居	-10.3118
未詳	-10.3118
初改	-10.3125
欽若	-10.3131
不知其	-10.3133
不信	-10.315
愆	-10.3152
譴	-10.3153
鞭	-10.3156
西京	-10.3158
齎	-10.3158
翰林	-10.316
凝	-10.3165
當是時	-10.3172
江夏	-10.3174
二十五年	-10.3174
罪人	-10.3179
臨安	-10.3182
賢人	-10.3184
之餘	-10.3185
後宫	-10.3188
或以	-10.3192
請降	-10.3194
哉故	-10.3197
入宫	-10.3198
譖	-10.3206
靈公	-10.3209
閏	-10.321
嗜	-10.321
堡	-10.3212
之數	-10.3217
栗	-10.3218
江西	-10.322
加以	-10.3223
西伯	-10.3224
宗社	-10.3236
禍亂	-10.3237
帝崩	-10.3239
唐虞	-10.3244
徳裕	-10.3249
新法	-10.3256
而使	-10.3256
安撫	-10.3258
坤	-10.3259
予之也	-10.3263
訖	-10.3264
大破	-10.3267
銓	-10.3267
邸	-10.3269
中尉	-10.3269
斬首	-10.327
太和	-10.327
價	-10.3273
靈帝	-10.3273
五萬	-10.3275
汜	-10.3279
云爾	-10.3285
萬一	-10.3292
老子	-10.3293
去其	-10.3307
大赦	-10.331
禄山	-10.3315
邕	-10.3316
賜死	-10.3317
應之	-10.3323
孝宗	-10.3324
下獄	-10.3325
劍	-10.3327
底	-10.3329
漕	-10.3329
天祥	-10.333
彈	-10.333
芻	-10.333
瑱	-10.3332
太甲	-10.3336
無窮	-10.3337
峽	-10.3338
慶厯	-10.3341
耶律	-10.3342
若夫	-10.335
隋初	-10.3359
太保	-10.3363
小國	-10.3365
貞元	-10.337
得免	-10.3376
東京	-10.3377
爾朱	-10.3378
沃	-10.3383
香	-10.3386
安危	-10.3391
入貢	-10.3393
也是故	-10.3395
始此	-10.3396
哀帝	-10.3397
文侯	-10.3397
也釋	-10.3399
漁	-10.3399
魏徴	-10.34
社稷之	-10.3401
僖宗	-10.3404
通作	-10.3405
有寵	-10.3412
存亡	-10.3415
為左	-10.3417
於内	-10.3431
為名	-10.3432
諂	-10.3432
勵	-10.3439
于此	-10.3439
輪	-10.344
晝	-10.3441
瑕	-10.3446
稹	-10.3447
艱難	-10.345
力戰	-10.3451
大國	-10.3452
逺矣	-10.3456
辜	-10.3467
縣令	-10.3468
之比	-10.3484
滑	-10.3484
測	-10.3485
遷都	-10.3486
公羊	-10.3491
而退	-10.3493
僻	-10.3496
嫉	-10.3498
遼主	-10.3499
縛	-10.3501
彬	-10.3501
御史中丞	-10.3504
可與	-10.3506
禹貢	-10.3521
之分	-10.3528
官屬	-10.3528
輔政	-10.3543
妙	-10.3554
信之	-10.3555
粗	-10.3558
弭	-10.3559
織	-10.3559
迨	-10.3561
番	-10.3563
花	-10.3564
而反	-10.3565
洎	-10.3565
鄜	-10.3575
愍	-10.3576
用人	-10.358
一時之	-10.3591
稱其	-10.3606
臯陶	-10.3615
彗	-10.3615
襄王	-10.3616
嬴	-10.3617
暗	-10.3618
譯	-10.3621
東方	-10.3622
龔	-10.3626
國朝	-10.363
夫何	-10.3635
郡名注	-10.3638
黄門	-10.364
麾下	-10.364
長樂	-10.3644
甚於	-10.3645
江都	-10.3647
北漢	-10.3647
今乃	-10.3653
韓魏	-10.3661
九江	-10.3665
以為然	-10.3666
祜	-10.3668
豎	-10.3672
憑	-10.3674
敵國	-10.3675
潔	-10.3675
黔	-10.3676
廩	-10.3678
爰	-10.3679
雉	-10.3683
袁紹	-10.3684
布哈	-10.3685
鳯翔	-10.3685
庶幾	-10.3687
是日	-10.3687
太皇太后	-10.3687
吳越	-10.3689
王旦	-10.3693
歸于	-10.37
是嵗	-10.3702
三十年	-10.3702
元鼎	-10.3703
諡曰	-10.3707
其文	-10.3707
之黨	-10.3707
自此	-10.3725
摧	-10.3729
敞	-10.373
禀	-10.3734
場	-10.3735
孚	-10.3735
償	-10.3738
紏	-10.3738
鎬	-10.374
疫	-10.374
属	-10.374
於秦	-10.374
艦	-10.3743
汲	-10.3744
笑曰	-10.3749
秘	-10.3754
不平	-10.3757
其死	-10.3758
於下	-10.3759
朝夕	-10.3765
特筆	-10.3768
李克用	-10.3774
諫官	-10.378
名曰	-10.3784
為丞相	-10.3787
零	-10.3787
沛公	-10.3788
吏部	-10.379
赦之	-10.379
八百	-10.379
壤	-10.3792
圓	-10.3793
褚	-10.3794
奉天	-10.3795
劇	-10.3795
竦	-10.3799
哩	-10.38
不忠	-10.3802
沖	-10.3804
不通	-10.3811
本漢	-10.3814
則天下	-10.3823
易曰	-10.3827
十卷	-10.3827
班固	-10.3838
穆宗	-10.3847
所居	-10.3848
矣綱目	-10.385
墳	-10.3851
入冦	-10.3852
圭	-10.3853
姊	-10.3856
渤海	-10.3856
洽	-10.386
黃	-10.3861
三輔	-10.3865
飲酒	-10.3868
勒兵	-10.3868
奪之	-10.3871
來朝	-10.3873
故能	-10.3877
此非	-10.3878
者三	-10.3883
不可得	-10.3884
圍之	-10.3891
與戰	-10.3891
尚可	-10.3895
論語	-10.3899
石勒	-10.3901
境内	-10.3904
歸於	-10.3913
承嗣	-10.3917
顒	-10.3918
桃	-10.3918
朴	-10.3919
穆公	-10.392
邈	-10.392
車騎	-10.3921
數人	-10.3922
糴	-10.3925
男女	-10.3926
生於	-10.3931
擊破之	-10.3934
文章	-10.394
受之	-10.3944
楊氏	-10.3963
頥	-10.3974
弋	-10.3978
蛇	-10.3978
掾	-10.3979
詠	-10.398
禱	-10.398
賁	-10.398
寘	-10.3983
或謂	-10.3987
山南	-10.3996
至矣	-10.4003
勤王	-10.4029
牀	-10.4031
秦人	-10.4032
瑗	-10.4035
喇	-10.4036
之敗	-10.4037
旌	-10.4039
盍	-10.4039
瀛	-10.4041
觀察使	-10.4041
拯	-10.4042
有隙	-10.4043
随	-10.4043
左丞	-10.4045
而罷	-10.4046
詔書	-10.4046
贄	-10.4047
鬼神	-10.4047
軍旅	-10.4048
侂胄	-10.4049
不得不	-10.4066
箕子	-10.4067
十五里	-10.4078
劉備	-10.4079
以報	-10.408
為右	-10.4082
其禍	-10.4082
掖	-10.4083
者所以	-10.4083
乎此	-10.4097
定州	-10.4097
遮	-10.4099
槩	-10.41
餉	-10.4102
薪	-10.4102
霜	-10.4103
稔	-10.4103
也按	-10.4105
行臺	-10.4105
冗	-10.4108
何以書	-10.411
建中	-10.4112
其時	-10.4114
秦始皇	-10.4115
姦人	-10.4116
莊子	-10.4119
王師	-10.4124
莫若	-10.4124
度支	-10.4126
蜀主	-10.413
望之	-10.4132
正朔	-10.4135
建元	-10.4139
也哉	-10.414
注見漢獻帝建安十	-10.4143
有是	-10.4149
行省	-10.4151
而亡	-10.4153
畝	-10.416
詡	-10.416
倣	-10.4161
愬	-10.4161
卭	-10.4162
泚	-10.4164
㫁	-10.4164
暑	-10.4165
九州	-10.4165
棄之	-10.4168
輝	-10.4169
牒	-10.417
匱	-10.4174
王道	-10.4179
所欲	-10.4185
魏博	-10.4188
涿	-10.4194
按此	-10.4204
之意也	-10.4209
之資	-10.4209
西河	-10.4211
天下之大	-10.4222
衆皆	-10.4224
謟	-10.4225
濤	-10.4225
骨肉	-10.4228
儁	-10.4231
綜	-10.4231
弁	-10.4232
開封府	-10.4239
所載	-10.425
不進	-10.4258
漢置	-10.4259
始於	-10.4261
遂使	-10.4272
其情	-10.4279
蠧	-10.4283
閱	-10.4284
追之	-10.4285
石頭	-10.4286
蹇	-10.4287
矣於是	-10.4288
列傳	-10.4288
陂	-10.429
憐	-10.429
焦	-10.4291
譌	-10.4291
障	-10.4292
戯	-10.4293
扼	-10.4293
棺	-10.4294
朂	-10.4295
紀傳	-10.4296
建成	-10.4306
三思	-10.4307
魏公	-10.4316
秦州	-10.4318
宣公	-10.4318
君臣之	-10.4324
懷光	-10.4329
獨不	-10.433
任之	-10.4331
夙	-10.4344
活	-10.435
淑	-10.4351
紳	-10.4352
亨	-10.4352
御批資治通鑑綱目卷	-10.4353
酈	-10.4354
贇	-10.4355
紹興	-10.4355
婚	-10.4356
回紇	-10.4358
為善	-10.4359
右丞相	-10.4363
衣冠	-10.4364
乃使	-10.4367
伐齊	-10.4369
睢	-10.4373
不下	-10.4375
安有	-10.4375
廣漢	-10.4381
不可復	-10.4382
大矣	-10.4383
飲食	-10.4384
子産	-10.4384
殿下	-10.4385
帝以	-10.4392
子也	-10.4397
翦	-10.4403
儒者	-10.4405
鯀	-10.4407
屯田	-10.4409
於是乎	-10.441
頻	-10.4411
墟	-10.4412
揖	-10.4414
俸	-10.4416
晝夜	-10.4422
伯夷	-10.4423
索隱曰	-10.4424
郭子儀	-10.4425
控	-10.4426
逐之	-10.4427
舊制	-10.4428
所親	-10.4431
知逺	-10.4431
不屈	-10.4434
竟不	-10.4437
布衣	-10.4446
公卒子	-10.4451
治天下	-10.4465
㓕	-10.4474
昭帝	-10.4475
羸	-10.4476
蠡	-10.4478
分為	-10.4479
此所以	-10.4479
笞	-10.448
後之	-10.448
殖	-10.4481
不止	-10.4485
廣平	-10.4486
為尚書	-10.449
不易	-10.4491
此二	-10.4495
之體	-10.4497
恐其	-10.4498
縣南	-10.4501
是亦	-10.4508
有才	-10.4509
數月	-10.4512
處士	-10.4521
陽城	-10.4522
方鎮	-10.453
淮陽	-10.4533
涕	-10.4536
死節	-10.4537
俠	-10.4543
䑕	-10.4544
篡	-10.4547
村	-10.4547
蕪	-10.4548
濵	-10.4549
拾遺	-10.4549
縊	-10.4551
不亡	-10.4551
鄆	-10.4552
一曰	-10.4553
睿宗	-10.4554
女子	-10.4555
不便	-10.4556
壽春	-10.4557
民心	-10.456
列國	-10.4572
可畏	-10.4585
令狐	-10.4587
力士	-10.4589
信都	-10.4598
惜之	-10.46
佩	-10.4603
巷	-10.4604
水出	-10.4606
枕	-10.4607
蔑	-10.4608
濠	-10.4608
碎	-10.4611
董卓	-10.4611
蔚	-10.4614
溥	-10.4614
姑息	-10.4616
謚	-10.4617
西川	-10.4621
之家	-10.4629
樞宻使	-10.4634
注見周	-10.4636
蕭何	-10.4636
其位	-10.464
之始	-10.4649
一二	-10.4649
國公	-10.4655
以天下	-10.4656
寡人	-10.4661
大明	-10.4662
其謀	-10.4663
沐	-10.4665
宋金	-10.4665
天意	-10.4669
楷	-10.4671
乳	-10.4671
一家	-10.4673
鬬	-10.4673
冶	-10.4674
瀆	-10.4674
努	-10.4675
孽	-10.4675
泰始	-10.4675
不果	-10.4677
五十里	-10.4679
貎	-10.4679
奇	-10.468
南海	-10.468
之美	-10.4686
克之	-10.4696
士民	-10.4702
而書之	-10.4704
之孫	-10.4705
深矣	-10.4707
前日	-10.4708
宫人	-10.4708
太上皇	-10.4716
箕	-10.4717
璟	-10.4721
如故	-10.4728
立子	-10.473
觸	-10.4733
芝	-10.4733
逾	-10.4735
匪	-10.4735
叟	-10.4735
其先	-10.4736
旨	-10.4738
㦸	-10.4738
禽獸	-10.4739
之節	-10.474
俄	-10.4742
絲	-10.4742
舘	-10.4742
暢	-10.4743
愔	-10.4743
惶	-10.4744
潞	-10.4744
灼	-10.4745
疑之	-10.4745
如之何	-10.4747
僧辯	-10.4751
杜預	-10.4757
諸郡	-10.4758
宣慰	-10.476
河朔	-10.477
昊	-10.4783
三十六	-10.4787
昭王	-10.4794
指揮使	-10.4802
䝉古主	-10.4804
馮翊	-10.4806
蟲	-10.4807
梅	-10.481
亂臣賊子	-10.481
紙	-10.4811
奠	-10.4812
同列	-10.4814
富弼	-10.482
也謂	-10.4823
奉表	-10.4824
之辭也	-10.4829
詩書	-10.4835
起於	-10.4844
張良	-10.4848
梁武帝	-10.4854
甥	-10.4867
潁濱	-10.487
時事	-10.4871
珙	-10.4871
帷	-10.4872
諧	-10.4874
驍	-10.4875
拓	-10.4878
㐮	-10.4881
成敗	-10.4885
夫婦	-10.4886
惠王	-10.4889
不恤	-10.4891
注見漢獻帝	-10.4892
置酒	-10.4899
有差	-10.4902
山川	-10.4902
大業初	-10.4909
進兵	-10.492
霸先	-10.4924
寂	-10.4932
俯	-10.4933
裘	-10.4938
沉	-10.4939
猜	-10.4939
嚮	-10.4939
訥	-10.4941
麥	-10.4942
翔	-10.4944
輦	-10.4944
瑾	-10.4947
地理志	-10.4951
𢎞農	-10.496
光弼	-10.4961
尋改	-10.4963
隋主	-10.4964
未易	-10.4975
未㡬	-10.4979
洮	-10.4999
技	-10.5001
齡	-10.5003
畔	-10.5003
罹	-10.5005
噐	-10.5007
郡乾元初復為	-10.5008
人才	-10.501
藻	-10.5011
綸	-10.5017
揚雄	-10.5019
而為之	-10.5022
四人	-10.5022
樞密使	-10.5026
二十三年	-10.5032
所生	-10.5032
和元年	-10.5033
兄子	-10.5044
父兄	-10.5052
三代之	-10.5056
漢初	-10.5058
榜	-10.5062
語曰	-10.5064
興元年	-10.5065
銘	-10.5065
固已	-10.5066
禾	-10.5072
二十萬	-10.5074
黷	-10.5075
掲	-10.5076
敬瑭	-10.5078
不能自	-10.5078
注見宋文帝元嘉	-10.508
諸葛亮	-10.508
榆	-10.5081
十餘人	-10.5081
厥後	-10.5084
逖	-10.5085
四川	-10.5089
邦昌	-10.5097
九錫	-10.5098
一也	-10.5101
平章	-10.5102
所以深	-10.5114
一統	-10.5114
諸人	-10.5115
門下	-10.5115
人倫	-10.5116
勝負	-10.5118
江左	-10.5124
酋	-10.5132
始終	-10.5136
孫之翰	-10.5139
莊宗	-10.5139
諤	-10.5143
沆	-10.5144
僑	-10.5144
函	-10.5145
几	-10.5145
騷	-10.5146
膽	-10.5146
斜	-10.5147
護	-10.5148
葵	-10.5149
甄	-10.5149
綴	-10.5149
出戰	-10.515
塹	-10.5151
數千人	-10.5151
酣	-10.5151
章惇	-10.5152
瓌	-10.5152
賈誼	-10.5153
舍人	-10.5153
金城	-10.5154
原注	-10.5155
而不敢	-10.5155
進攻	-10.5157
德裕	-10.5161
草木	-10.5163
貴妃	-10.5167
後人	-10.5174
千載	-10.5175
明宗	-10.5175
無過	-10.5178
此時	-10.5191
魏郡	-10.5193
所由	-10.5196
女真	-10.5199
君命	-10.5209
壻	-10.521
剪	-10.521
途	-10.5211
鄯	-10.5212
頑	-10.5213
賚	-10.5216
尼瑪哈	-10.5216
必先	-10.5231
烏桓	-10.5231
秦漢	-10.5232
而不書	-10.5236
不獲	-10.5237
正人	-10.5237
安置	-10.5243
靈武	-10.5258
諸臣	-10.5262
然亦	-10.5266
景公	-10.5268
對曰臣	-10.5268
之象	-10.5269
之䇿	-10.5269
東郡	-10.5274
曰某	-10.5274
犍	-10.5274
天水	-10.5275
止於	-10.5279
挫	-10.5281
康王	-10.5286
大旱	-10.5286
大驚	-10.5288
無所不	-10.5289
拂	-10.529
下有	-10.5302
行營	-10.5317
道路	-10.5323
日夜	-10.5325
三鎮	-10.5325
不自安	-10.5331
爾雅	-10.5331
固非	-10.5336
不悟	-10.5337
壹	-10.5337
又改	-10.5345
朽	-10.5347
迂	-10.5348
城南	-10.535
孛	-10.5351
臺諫	-10.5352
狡	-10.5353
刪	-10.5354
磨	-10.5354
也况	-10.5355
冢	-10.5355
的	-10.5355
邯鄲	-10.5356
逺近	-10.5356
歙	-10.5358
荅	-10.5358
鞠	-10.5359
鴈門	-10.5362
莭	-10.5363
歩騎	-10.5365
三軍	-10.5367
封建	-10.5375
夏六月	-10.5392
城在	-10.5409
陳主	-10.5411
曰天子	-10.5414
書弑	-10.5414
值	-10.5418
顗	-10.5419
曄	-10.5419
唱	-10.5421
鬱	-10.5421
燭	-10.5423
國號	-10.5426
叔父	-10.5429
摯	-10.543
琛	-10.543
撤	-10.5431
獻帝	-10.5432
年號	-10.5434
人之所	-10.5438
議論	-10.5448
河南府	-10.5454
勣	-10.5455
向使	-10.5457
來降	-10.548
𤼵	-10.5488
偕	-10.5488
替	-10.5489
逰	-10.5492
韜	-10.5496
相國	-10.5496
閏月	-10.5501
伏兵	-10.5501
羿	-10.5502
同姓	-10.5508
何異	-10.551
以問	-10.5512
立功	-10.5522
大舉	-10.5531
其上	-10.5536
無敢	-10.5542
編年	-10.5547
四百	-10.555
不樂	-10.5553
許昌	-10.5561
湟	-10.5561
陪	-10.5563
之罪也	-10.5563
汰	-10.5563
械	-10.5564
國政	-10.5567
逋	-10.557
狎	-10.5572
諜	-10.5572
世勣	-10.5573
不堪	-10.5588
享國	-10.5589
學校	-10.559
此所謂	-10.5591
陳氏	-10.5594
白馬	-10.5606
理宗	-10.5614
功名	-10.5615
上官	-10.5617
餘衆	-10.5622
冬十二月	-10.5624
南詔	-10.5625
曰彼	-10.5628
帝王之	-10.5638
桐	-10.5638
飯	-10.5639
覘	-10.564
黎陽	-10.5642
輜重	-10.5642
豳	-10.5645
愁	-10.5646
天監	-10.5648
亢	-10.5651
刑罰	-10.5654
俶	-10.5655
以著其	-10.5656
以為不可	-10.5659
為庶人	-10.566
三分	-10.567
嘆曰	-10.5671
有過	-10.5676
再拜	-10.5682
魏晉	-10.5682
誤國	-10.5684
卿等	-10.5686
湯武	-10.5697
師古	-10.5701
覲	-10.5706
驟	-10.5707
五經	-10.5709
廓	-10.571
隗	-10.571
汝愚	-10.5711
蠶	-10.5713
把	-10.5713
琰	-10.5715
鷹	-10.5717
哲宗	-10.5726
湖南	-10.573
縣北	-10.5732
形勢	-10.5739
列侯	-10.5745
延光	-10.5755
傳位	-10.5757
而自立	-10.5759
乎且	-10.5761
杭州	-10.5766
陳平	-10.5775
鉅	-10.5776
眷	-10.5778
鞫	-10.5782
攻城	-10.5782
晨	-10.5784
冇	-10.5785
嚕	-10.5787
永興	-10.5787
昉	-10.5787
永平	-10.5788
宣撫	-10.5791
忠良	-10.5796
嘗謂	-10.5806
發眀	-10.5807
獻帝建安	-10.5817
右丞	-10.5819
甲兵	-10.5827
顧引拾	-10.5832
二十七年	-10.5834
不聴	-10.5839
槐	-10.5854
傲	-10.5857
駟	-10.5857
渝	-10.5857
郯	-10.5858
棗	-10.5859
緣	-10.5859
禆	-10.5861
彥	-10.5862
世忠	-10.5863
曦	-10.5871
韓琦	-10.5872
即日	-10.5874
凡五	-10.5877
盡忠	-10.5879
提舉	-10.5882
出降	-10.5884
乃還	-10.589
百餘里	-10.5898
根本	-10.5899
進取	-10.59
北方	-10.5901
二十四	-10.5901
數百人	-10.5902
朝臣	-10.591
叔孫	-10.5914
六軍	-10.5921
前代	-10.5922
為司空	-10.5925
苞	-10.5926
未有不	-10.5926
燧	-10.593
漠	-10.5932
聊	-10.5933
涕泣	-10.5936
汚	-10.5936
其弊	-10.5938
安南	-10.5948
酋長	-10.5949
賢才	-10.595
少子	-10.595
用史記年	-10.5959
一戰	-10.596
新城	-10.5962
惠卿	-10.5974
郡唐初	-10.5985
官吏	-10.5986
大懼	-10.5987
搜	-10.6003
魁	-10.6004
委任	-10.6005
黜陟	-10.6005
監察御史	-10.6006
初置	-10.6007
輯	-10.6007
隘	-10.6008
覈	-10.6009
憎	-10.6009
泓	-10.6014
重誨	-10.602
李林甫	-10.6026
識者	-10.6027
盡力	-10.6028
髙歡	-10.6029
北地	-10.6029
前鋒	-10.6033
顧命	-10.6037
不納	-10.6044
秘書	-10.6051
尤甚	-10.6051
萬緡	-10.6051
遺詔	-10.6053
前史	-10.6054
樞宻	-10.6058
次于	-10.6065
袒	-10.6073
元魏	-10.6074
种	-10.6077
佚	-10.6079
印綬	-10.6079
脇	-10.6081
譎	-10.6081
猾	-10.6082
領軍	-10.6084
臘	-10.6084
二十餘	-10.6085
壓	-10.6085
堰	-10.6086
數十萬	-10.61
平城	-10.61
詣闕	-10.6101
足矣	-10.6103
孺子	-10.6104
北伐	-10.6106
齊師	-10.6122
壯士	-10.6131
注見漢獻帝建安	-10.6135
北海	-10.6138
南山	-10.614
臣等	-10.6144
京口	-10.6148
蓬	-10.6149
埶	-10.6154
搏	-10.6156
佗	-10.6156
兢	-10.6157
雙	-10.6158
邁	-10.6158
只	-10.6158
瓚	-10.616
系	-10.6163
漢文帝	-10.6163
相攻	-10.617
復遣	-10.6174
桓温	-10.6184
莫如	-10.6195
夫豈	-10.621
戰敗	-10.6215
開皇	-10.6217
亞	-10.6221
諌曰	-10.6223
先後	-10.6229
乾元	-10.623
愼	-10.6231
為司徒	-10.6231
該	-10.6233
那	-10.6234
冐	-10.6234
京兆尹	-10.6234
眼	-10.6237
彗星	-10.6237
惜乎	-10.6241
下邳	-10.6246
南宫	-10.6267
乆矣	-10.6273
先主	-10.6273
初改為	-10.6278
元豐	-10.6279
乗勝	-10.6282
山崩	-10.6284
廬江	-10.6292
東坡曰	-10.6294
城北	-10.6294
烝	-10.6303
枚	-10.6305
吕后	-10.6305
孔明	-10.6306
股	-10.6306
遣將軍	-10.6308
張本	-10.6309
塗炭	-10.631
矛	-10.6312
帖	-10.6314
國忠	-10.632
無遺	-10.633
此類	-10.6331
子房	-10.6332
著書	-10.6335
名注	-10.6337
此舉	-10.6343
庶人	-10.6344
沙門	-10.6358
未定	-10.6362
叛降	-10.6365
亡國之	-10.6376
盾	-10.6376
駮	-10.6385
慘	-10.6386
中郎將	-10.6386
莾	-10.6386
拾	-10.6389
紛紛	-10.6389
酌	-10.639
潞州	-10.6392
托克托	-10.6393
中書侍郎	-10.6393
集傳曰	-10.6394
英雄	-10.641
四時	-10.6411
黄巢	-10.6413
道成	-10.6415
周室	-10.6416
紹聖	-10.6423
李晟	-10.6433
二十二年	-10.6434
萬年	-10.6435
不滿	-10.6443
踰年	-10.6445
噬	-10.6459
黍	-10.646
批	-10.6461
軾	-10.6462
頸	-10.6465
璠	-10.6467
籌	-10.6468
進軍	-10.647
輅	-10.6472
延齡	-10.6475
來歸	-10.6475
仍屬	-10.6476
諸儒	-10.6477
羽林	-10.6483
縣西北	-10.6487
哀公	-10.6492
成湯	-10.6493
建寧	-10.6496
潭	-10.6498
甲申	-10.6505
懐恩	-10.6509
宗族	-10.6512
丁謂	-10.6515
權衡	-10.6521
胡氏	-10.6521
宗閔	-10.653
複	-10.6532
碩	-10.6541
畤	-10.6541
迪	-10.6541
此綱目	-10.6542
死生	-10.6545
躍	-10.6545
從珂	-10.6546
妨	-10.6546
漆	-10.6547
十有二	-10.6548
討平之	-10.6552
一綂志云	-10.6553
琨	-10.6555
創業	-10.6561
固請	-10.6568
武功	-10.6578
教化	-10.658
永安	-10.6585
重耳	-10.659
要害	-10.6597
諸生	-10.6609
長孫	-10.6612
瓉	-10.6615
曼	-10.6617
寤	-10.6617
詎	-10.6623
取天下	-10.6623
諸賢	-10.6626
慝	-10.6627
釗	-10.6629
婆	-10.6632
澗	-10.6632
延壽	-10.6648
壽陽	-10.6652
此之謂	-10.6655
晋王	-10.6658
不能制	-10.6663
丈夫	-10.6666
禍福	-10.6666
李斯	-10.6672
則不然	-10.6674
甚厚	-10.6676
季氏	-10.6689
也終綱目書	-10.6692
建國	-10.6697
劉豫	-10.6698
蠲	-10.67
隊	-10.6701
武都	-10.6702
寖	-10.6703
眉	-10.6704
本朝因之改屬	-10.6707
宸	-10.6707
法令	-10.6712
岷	-10.6713
岡	-10.6713
尋陽	-10.6713
注同上年	-10.6716
朝士	-10.6717
晞	-10.6719
公私	-10.6725
功業	-10.6729
王珪	-10.6729
徙治	-10.6739
春秋書	-10.674
殆盡	-10.6743
無辜	-10.6748
愛民	-10.6753
燕主	-10.6762
二十五	-10.6764
讀曰	-10.6766
國家之	-10.6773
廆	-10.6774
紇	-10.6777
遣使如	-10.6778
寗	-10.6779
佳	-10.678
正色	-10.6783
淹	-10.6783
天祐	-10.6785
㳺	-10.6785
壺	-10.6786
滯	-10.6787
先儒	-10.6792
瑶	-10.6793
追尊	-10.6799
天寶	-10.68
禮記	-10.6803
七國	-10.6809
孔氏	-10.681
平章事	-10.6814
新莽	-10.682
諸君	-10.6838
丘明	-10.6839
止書	-10.6856
人君之	-10.6857
倦	-10.6858
歟曰	-10.6859
吹	-10.6864
檻	-10.6864
徐廣曰	-10.6864
泛	-10.6864
層	-10.6865
狹	-10.6866
鶴	-10.6868
押	-10.6868
為皇太子	-10.687
構	-10.6872
秋九月	-10.6873
郁	-10.6873
獲罪	-10.6878
祭祀	-10.6881
天寳初改	-10.6882
諸部	-10.6887
不逮	-10.6888
節制	-10.6888
親戚	-10.6895
方且	-10.6903
一月	-10.6911
史記曰	-10.6918
章帝	-10.6928
縣名注	-10.6932
敏中	-10.6938
如字	-10.6941
暨	-10.6946
俞	-10.6947
拳	-10.6947
屍	-10.6949
瑀	-10.6949
吉甫	-10.695
濡	-10.6951
黥	-10.6953
掘	-10.6953
猝	-10.6954
覃	-10.6954
藁	-10.6955
洺	-10.6959
乗輿	-10.6966
春三月	-10.6972
末年	-10.6975
部曲	-10.6981
率衆	-10.6982
聲色	-10.6983
元振	-10.699
賢相	-10.6993
賜姓	-10.7
周顯王	-10.7
八千	-10.7003
懋	-10.7014
不動	-10.7018
黯	-10.7018
雕	-10.702
椒	-10.7022
滄州	-10.7024
吝	-10.7024
峴	-10.7028
染	-10.703
沁	-10.703
剖	-10.7032
駱	-10.7033
漢髙帝	-10.7034
制置使	-10.7037
嚴矣	-10.7038
也雖然	-10.7039
李德裕	-10.7044
分道	-10.7046
比干	-10.7057
泣曰	-10.7061
説文	-10.7066
長吏	-10.7068
周赧王	-10.7073
智者	-10.7088
綱紀	-10.7088
古文	-10.7091
而行之	-10.7096
茂貞	-10.7097
叙事	-10.7101
異端	-10.7102
躁	-10.7107
烹	-10.7108
圉	-10.711
健	-10.711
漢光武	-10.711
想	-10.7116
元康	-10.7116
謐	-10.7117
崔浩	-10.7121
遣中使	-10.7124
移檄	-10.7128
賞賜	-10.713
嗣位	-10.7143
惠公	-10.7145
太宰	-10.7151
延年	-10.7158
六卿	-10.7167
左丞相	-10.7168
漁陽	-10.7172
綱目特書	-10.7174
傳云	-10.7179
恐懼	-10.7184
纎	-10.7188
杲	-10.7191
熱	-10.7193
稼	-10.7195
繋	-10.7195
繒	-10.7196
製	-10.7197
它	-10.7197
蠱	-10.7198
奐	-10.7198
范仲淹	-10.7203
翻	-10.7203
貲	-10.7205
昭義	-10.7206
猷	-10.7207
亞夫	-10.721
慶府	-10.7211
乎夫	-10.7213
都䕶	-10.7215
上怒	-10.7215
縣西南	-10.722
轉運使	-10.7225
起復	-10.7241
獨孤	-10.7241
荆南	-10.7248
輔國	-10.7256
門外	-10.7263
惲	-10.7272
書于冊	-10.7274
郵	-10.7275
琴	-10.7275
太初	-10.7277
霄	-10.728
壮	-10.7282
鉅鹿	-10.7282
球	-10.7284
五里	-10.7284
阮	-10.7286
販	-10.7287
故特	-10.7288
十日	-10.7289
二十四年	-10.7292
乙酉	-10.7293
曲沃	-10.7294
宋璟	-10.7294
其子孫	-10.7302
後來	-10.7302
極言	-10.7305
扵是	-10.7306
福州	-10.7308
宣武	-10.7316
惟恐	-10.7316
視事	-10.7317
之可也	-10.7317
李泌	-10.7318
句絶	-10.732
所以著	-10.7321
羣小	-10.7332
所致	-10.7336
季孫	-10.7337
貢獻	-10.7341
在西安府	-10.7348
充國	-10.7352
斯言	-10.7359
㳟	-10.7363
模	-10.7366
誇	-10.7368
紊	-10.737
亶	-10.7371
隣	-10.7372
覬	-10.7373
六百	-10.7375
陸贄	-10.7377
叔向	-10.7405
𥙷	-10.7414
其兄	-10.7417
立太子	-10.7417
六經	-10.7431
可知也	-10.7432
驪	-10.7438
愚謂	-10.744
往來	-10.7441
如淳曰	-10.7448
版	-10.7452
黠	-10.7452
芮	-10.7454
銷	-10.7455
恊	-10.7457
飽	-10.7458
隄	-10.7459
滄	-10.7464
靖康	-10.7469
縱横	-10.7476
忠賢	-10.7477
臣恐	-10.7479
晉武帝	-10.7479
靈州	-10.7487
堅守	-10.75
旬日	-10.7503
髮	-10.7535
拉	-10.7539
庇	-10.7541
埋	-10.7549
殤	-10.755
譜	-10.7552
畀	-10.7623
渙	-10.7625
泯	-10.7626
煥	-10.763
箭	-10.7631
澹	-10.7631
譟	-10.7633
翊	-10.771
坑	-10.7712
奬	-10.7716
謡	-10.7716
璞	-10.7717
菑	-10.7719
弦	-10.772
犒	-10.7721
讜	-10.7721
詧	-10.7789
扞	-10.7802
藍	-10.7804
刁	-10.7805
嶷	-10.7806
紿	-10.7806
峯	-10.7808
圜	-10.781
飢	-10.7885
䛕	-10.7891
蹕	-10.7892
懇	-10.7894
酖	-10.7896
愷	-10.7901
噲	-10.7901
仆	-10.7901
駁	-10.7902
晃	-10.7904
棟	-10.7985
態	-10.7987
捍	-10.7988
菜	-10.7993
鏐	-10.7996
魄	-10.8069
彘	-10.8074
鼻	-10.8076
崧	-10.8078
冡	-10.8081
汶	-10.8083
庠	-10.8085
冰	-10.8087
筮	-10.809
妬	-10.817
頊	-10.8172
姻	-10.8172
敇	-10.8173
寫	-10.8173
戕	-10.8173
伶	-10.8175
隰	-10.8179
禕	-10.8257
勘	-10.8261
珽	-10.8263
悠	-10.8263
暫	-10.8268
鷄	-10.827
珣	-10.8273
偪	-10.8273
藴	-10.8357
穰	-10.836
輟	-10.836
涯	-10.8361
鄢	-10.8362
暐	-10.8364
寝	-10.8368
蘄	-10.8372
琬	-10.8449
囉	-10.845
瞽	-10.8451
綬	-10.8453
轅	-10.8453
潼	-10.8454
銑	-10.8455
匠	-10.8457
迥	-10.8457
豕	-10.8457
般	-10.8543
塲	-10.8544
异	-10.8546
錮	-10.8546
鎔	-10.8547
晩	-10.8547
惰	-10.8549
伋	-10.855
腰	-10.855
茹	-10.8553
磧	-10.8554
跨	-10.8554
懌	-10.8556
犀	-10.8557
塟	-10.8558
刄	-10.8563
秣	-10.8637
叢	-10.8642
譲	-10.8652
袍	-10.8655
縮	-10.8741
遑	-10.8741
島	-10.8744
扇	-10.8745
鳩	-10.8745
矧	-10.8745
帯	-10.8746
戩	-10.8747
棣	-10.8748
瀘	-10.8749
暹	-10.8752
弇	-10.8756
䘏	-10.8838
昻	-10.8841
竈	-10.8841
耽	-10.8844
炳	-10.8844
亘	-10.8845
牘	-10.8845
髠	-10.8845
抄	-10.8849
闘	-10.8851
􁀙	-10.8851
煬	-10.8921
衷	-10.8941
抽	-10.8941
躡	-10.8942
瑪	-10.8944
牆	-10.8945
阪	-10.8945
暠	-10.8946
揭	-10.8946
誡	-10.8947
惻	-10.8948
徭	-10.8948
蒯	-10.8949
禘	-10.8951
縳	-10.8952
参	-10.9037
閬	-10.904
杼	-10.9042
覊	-10.9042
峕	-10.9042
慟	-10.9045
墻	-10.9046
琪	-10.9049
擯	-10.905
畱	-10.9053
郝	-10.9053
傕	-10.9054
畨	-10.9058
衢	-10.9143
驩	-10.9143
梗	-10.9144
鹵	-10.9144
莘	-10.9148
猗	-10.9151
丸	-10.9152
簾	-10.9152
籠	-10.9153
諮	-10.9153
姒	-10.9153
灾	-10.9163
㕘	-10.9245
陌	-10.9246
㢘	-10.9246
街	-10.9247
廪	-10.925
闊	-10.9251
酬	-10.9251
俛	-10.9252
𠂻	-10.9253
渥	-10.9253
杭	-10.9284
栖	-10.9347
跋	-10.9349
凱	-10.935
闡	-10.9352
絃	-10.9354
谿	-10.9354
皎	-10.9356
擲	-10.9359
摘	-10.936
兗	-10.9368
雒	-10.9433
椿	-10.9453
鍳	-10.9457
芒	-10.9458
裒	-10.9458
窘	-10.9458
竝	-10.946
殞	-10.946
翳	-10.946
祕	-10.946
腐	-10.9462
餌	-10.9464
歷	-10.9559
殁	-10.956
吿	-10.956
髦	-10.9564
禎	-10.9564
滇	-10.9565
膚	-10.9566
瑋	-10.9566
飭	-10.9567
挈	-10.9568
雋	-10.9568
皝	-10.9568
汧	-10.9569
售	-10.9578
奈	-10.9631
剥	-10.9664
粥	-10.9673
儔	-10.9675
馴	-10.9676
奎	-10.9676
洶	-10.9676
裝	-10.9677
畆	-10.9682
閼	-10.9684
瓠	-10.9774
軫	-10.9774
囿	-10.9779
酺	-10.9779
隸	-10.978
郗	-10.9782
艘	-10.9782
宵	-10.9783
竺	-10.9785
稜	-10.9786
慾	-10.9789
冏	-10.9791
揣	-10.9887
愎	-10.989
佃	-10.9891
虺	-10.9893
跪	-10.9893
彤	-10.9895
舛	-10.9896
䟦	-10.9897
縦	-10.9902
綺	-10.9905
際	-10.9979
傍	-10.9998
漫	-10.9999
瑟	-10.9999
娣	-11
闈	-11.0001
芥	-11.0001
犧	-11.0003
遙	-11.0006
姿	-11.0008
絰	-11.0009
毘	-11.001
詹	-11.009
渚	-11.0106
轂	-11.0109
悛	-11.0112
脉	-11.0113
滁	-11.0113
愕	-11.0116
犢	-11.0117
凍	-11.0117
恚	-11.0119
貯	-11.0119
團	-11.012
琯	-11.0121
詬	-11.0122
塢	-11.0123
歇	-11.0124
邏	-11.0125
劵	-11.0128
糜	-11.0221
訐	-11.0224
軀	-11.0226
伎	-11.0226
隳	-11.0228
騐	-11.0229
廐	-11.0229
枯	-11.023
燔	-11.0231
幄	-11.0232
咽	-11.0232
殯	-11.0232
懈	-11.0233
訾	-11.0235
攷	-11.0236
粤	-11.0236
忻	-11.0236
陕	-11.0241
皷	-11.0338
稚	-11.0339
盆	-11.0339
訶	-11.034
湎	-11.0341
勰	-11.0342
旰	-11.0346
箴	-11.0347
僞	-11.0347
䖏	-11.0349
醢	-11.0351
悌	-11.045
裏	-11.0454
垍	-11.0457
恠	-11.0457
勔	-11.0459
諶	-11.0459
獠	-11.046
斫	-11.0461
枋	-11.0463
雩	-11.0463
填	-11.0464
蜚	-11.0464
曇	-11.0466
朐	-11.0476
孺	-11.0558
蝕	-11.0572
紅	-11.0574
逗	-11.0575
邯	-11.0575
騫	-11.0575
鴆	-11.0577
慿	-11.0577
屑	-11.0577
盎	-11.0579
樸	-11.0582
戢	-11.0582
僉	-11.0583
夭	-11.0584
住	-11.0584
龕	-11.0584
曵	-11.0585
夔	-11.059
醇	-11.0691
觴	-11.0694
厄	-11.0694
殫	-11.0694
㝠	-11.0694
顓	-11.0696
柯	-11.0698
縻	-11.0698
疵	-11.0698
椎	-11.07
禇	-11.0702
綝	-11.0708
磁	-11.0711
憸	-11.0811
滉	-11.0816
漂	-11.0816
澠	-11.0816
襃	-11.0817
豺	-11.082
訊	-11.0824
旻	-11.0826
攜	-11.0826
伽	-11.0827
凛	-11.0828
岌	-11.0828
洩	-11.0932
怖	-11.0937
祧	-11.0939
衙	-11.094
閫	-11.0941
戀	-11.0941
汭	-11.0945
拊	-11.0945
牖	-11.095
玫	-11.0967
淄	-11.1056
帑	-11.1059
閎	-11.1061
巻	-11.1061
叩	-11.1064
徤	-11.1064
胙	-11.1067
萃	-11.1069
粉	-11.1071
珏	-11.1073
坎	-11.1168
儆	-11.1181
粹	-11.1185
徂	-11.1188
嶲	-11.119
栢	-11.1191
駒	-11.1193
巒	-11.1195
霧	-11.1195
厠	-11.1198
嚳	-11.1211
䞇	-11.1307
鞍	-11.1309
斟	-11.1309
臻	-11.1311
侔	-11.1312
油	-11.1312
剝	-11.1313
膝	-11.1315
鯁	-11.1316
嗚	-11.1318
鉷	-11.1318
嗇	-11.132
轄	-11.1322
跌	-11.1322
覿	-11.1322
軻	-11.1322
狃	-11.1323
鄩	-11.1323
赭	-11.1324
㪚	-11.1329
櫟	-11.1332
郃	-11.1435
逄	-11.1436
卻	-11.1437
摭	-11.1439
昵	-11.1441
汎	-11.1441
劣	-11.1442
肝	-11.1442
鈎	-11.1443
啻	-11.1444
猥	-11.1444
胸	-11.1446
剽	-11.1448
㒺	-11.1452
鎛	-11.1563
貂	-11.1565
概	-11.1566
倩	-11.1566
劫	-11.1569
晁	-11.1569
愽	-11.1572
郴	-11.1572
繞	-11.1572
筭	-11.1573
楫	-11.1574
陁	-11.1575
駙	-11.1575
湜	-11.1578
阨	-11.1579
央	-11.158
毗	-11.1582
礪	-11.1582
籙	-11.1695
燮	-11.1696
株	-11.1697
抜	-11.1699
歐	-11.1699
婉	-11.1701
愿	-11.1703
滂	-11.1703
泊	-11.1704
凰	-11.1705
聶	-11.1707
蚡	-11.1708
咄	-11.1711
曏	-11.1712
餓	-11.178
轡	-11.183
璜	-11.1834
舂	-11.1835
隲	-11.1835
狠	-11.1837
驤	-11.1837
磬	-11.1838
㤙	-11.1838
誑	-11.1838
殽	-11.184
煙	-11.184
儋	-11.1841
胷	-11.1842
鑾	-11.1844
疊	-11.1846
諺	-11.1965
餒	-11.1967
曩	-11.1971
蔓	-11.1973
祇	-11.1973
澆	-11.1973
鏡	-11.1973
阬	-11.1974
殱	-11.1974
宕	-11.1976
卬	-11.1976
沅	-11.1977
䓁	-11.1981
磐	-11.1982
梯	-11.1982
葭	-11.1987
羯	-11.1989
掎	-11.1989
㲄	-11.2101
呈	-11.2102
戡	-11.2107
肘	-11.2108
渦	-11.211
褊	-11.2111
片	-11.2113
幅	-11.2113
浞	-11.2118
廖	-11.2242
頂	-11.2244
匈	-11.2246
劔	-11.2247
軼	-11.2251
滌	-11.2251
贅	-11.2251
餗	-11.2252
樵	-11.2253
稟	-11.2253
旄	-11.2254
臾	-11.2254
釀	-11.2255
梧	-11.2258
扆	-11.2262
甌	-11.237
卵	-11.2381
蜂	-11.2383
沸	-11.2385
孥	-11.2385
蔵	-11.2386
蒸	-11.2387
桞	-11.2387
綯	-11.2389
朞	-11.239
濞	-11.239
摶	-11.2391
烽	-11.2391
嵇	-11.2393
騁	-11.2393
噶	-11.2398
靳	-11.24
旒	-11.2525
羈	-11.2527
麴	-11.2527
巽	-11.2527
猖	-11.2528
繪	-11.2531
洙	-11.2531
殛	-11.2531
䙝	-11.2532
研	-11.2533
奥	-11.2534
鎧	-11.2534
響	-11.2535
昨	-11.2536
翕	-11.2537
斵	-11.2538
頽	-11.2541
婺	-11.2545
拙	-11.267
楯	-11.2672
袂	-11.2673
荼	-11.2675
雌	-11.2676
頡	-11.2678
瑩	-11.2678
两	-11.2681
淖	-11.2682
冩	-11.2683
鉉	-11.2685
斡	-11.2685
棊	-11.2816
勑	-11.2819
釣	-11.2821
圻	-11.2825
蒐	-11.2825
影	-11.2826
禳	-11.2826
裹	-11.2826
苾	-11.2833
殃	-11.2966
湣	-11.2967
殉	-11.2967
祔	-11.2967
媵	-11.297
怙	-11.2972
筵	-11.2972
嗤	-11.2973
臭	-11.2973
抃	-11.2973
踞	-11.2973
酤	-11.2974
爛	-11.2975
枹	-11.2976
牋	-11.2977
崤	-11.2978
䕃	-11.2982
廼	-11.2984
纓	-11.312
豢	-11.3121
豊	-11.3124
軸	-11.3125
廂	-11.3126
闥	-11.3127
遞	-11.3127
閨	-11.3127
稠	-11.3127
燼	-11.3127
蠭	-11.3129
鬰	-11.3129
啇	-11.3131
沱	-11.3132
裨	-11.3132
眩	-11.3132
棻	-11.3132
祉	-11.3138
罸	-11.3269
疋	-11.327
夸	-11.3271
遍	-11.3273
濕	-11.3275
核	-11.3276
瘠	-11.3277
森	-11.3278
袖	-11.3279
緑	-11.3284
杯	-11.3284
輻	-11.3285
昕	-11.3293
駸	-11.3295
縉	-11.3425
綘	-11.3426
撲	-11.3426
馥	-11.3431
芟	-11.3431
倨	-11.3433
寐	-11.3434
惕	-11.3434
隧	-11.3434
灑	-11.3435
電	-11.3436
憫	-11.3438
鎻	-11.3441
嵬	-11.3442
企	-11.3443
阼	-11.3444
縞	-11.3444
饌	-11.3444
佯	-11.3445
赧	-11.3546
肺	-11.3583
悝	-11.3587
濶	-11.3589
衂	-11.3589
趾	-11.3592
擔	-11.3593
胎	-11.3597
棠	-11.3597
葦	-11.3597
幡	-11.3599
祏	-11.3599
鞮	-11.36
褘	-11.36
彩	-11.3602
莎	-11.3604
槃	-11.3739
茫	-11.3746
閽	-11.3752
餽	-11.3754
牝	-11.3755
衘	-11.3755
箋	-11.3755
脂	-11.3756
侗	-11.3756
虹	-11.3757
倪	-11.3758
匄	-11.3759
堵	-11.3759
彫	-11.3759
邃	-11.3762
慤	-11.3763
捧	-11.3766
鋹	-11.3907
跣	-11.3909
𦍑	-11.391
篆	-11.391
顏	-11.3912
蟠	-11.3913
頵	-11.3914
肜	-11.3916
慚	-11.3917
蔬	-11.3917
掊	-11.3917
挑	-11.3918
鉗	-11.3919
淝	-11.3923
郟	-11.3923
浴	-11.3924
峙	-11.3924
羆	-11.3925
誚	-11.3925
欠	-11.3925
携	-11.3926
毓	-11.3928
骸	-11.3929
聳	-11.3932
陘	-11.3943
魂	-11.4071
爕	-11.4075
話	-11.4077
兠	-11.4085
棲	-11.4085
邴	-11.4086
陲	-11.4087
㨿	-11.4087
懾	-11.4088
怡	-11.4088
葺	-11.4089
秃	-11.409
緝	-11.409
脊	-11.4091
寰	-11.4091
嫗	-11.4092
伾	-11.4092
厮	-11.4092
𤨏	-11.4094
購	-11.4095
犂	-11.4096
讙	-11.4097
歿	-11.4097
竑	-11.423
澳	-11.4245
贏	-11.4247
臆	-11.4251
垢	-11.4251
踊	-11.4254
娛	-11.4255
媒	-11.4255
瑊	-11.4258
勾	-11.4259
娥	-11.4259
榻	-11.426
㢤	-11.426
摰	-11.426
貿	-11.4261
瘡	-11.4261
遯	-11.4262
璩	-11.4263
瘞	-11.4264
碭	-11.4265
湓	-11.4266
鄘	-11.4269
澧	-11.427
瑒	-11.427
竣	-11.4273
凢	-11.442
絀	-11.4422
鈍	-11.4425
沽	-11.4425
攀	-11.4425
躋	-11.4427
捶	-11.4428
翠	-11.4428
嘿	-11.4428
扣	-11.4431
賾	-11.4431
紘	-11.4432
敺	-11.4432
詘	-11.4437
鞬	-11.4438
昜	-11.4445
嵐	-11.4449
豨	-11.4462
耒	-11.4589
挽	-11.459
壑	-11.4593
偓	-11.4594
碌	-11.4597
靚	-11.4598
縫	-11.4599
圯	-11.46
燎	-11.4602
墀	-11.4602
醴	-11.4602
窟	-11.4603
嫂	-11.4603
嘔	-11.4603
鬚	-11.4604
架	-11.4605
倘	-11.4606
疽	-11.4607
鼠	-11.4607
撻	-11.4608
珂	-11.4609
訣	-11.4609
絡	-11.4609
竿	-11.461
陀	-11.4613
蠟	-11.4617
遘	-11.4618
堤	-11.4623
郅	-11.4774
寮	-11.4776
虗	-11.4778
僮	-11.4779
阡	-11.4781
逡	-11.4781
濯	-11.4782
炙	-11.4784
槖	-11.4784
柩	-11.4784
禺	-11.4784
紐	-11.4786
幷	-11.4788
紆	-11.4789
侑	-11.479
勦	-11.4791
灰	-11.4795
孕	-11.4798
鬯	-11.4953
頔	-11.4953
邳	-11.4956
組	-11.4957
喉	-11.4959
擠	-11.496
皖	-11.4962
厨	-11.4962
臼	-11.4962
圈	-11.4963
牂	-11.4967
繳	-11.4968
宙	-11.4968
兎	-11.4968
祫	-11.4971
夹	-11.4976
璨	-11.4979
燈	-11.5137
璣	-11.5138
羮	-11.5141
澮	-11.5143
蹤	-11.515
炭	-11.5151
搖	-11.5151
蟬	-11.5152
圃	-11.5154
緘	-11.5154
鉏	-11.5155
毬	-11.5155
藺	-11.5155
炬	-11.5158
蘆	-11.5158
郷	-11.5164
鶉	-11.517
凜	-11.5317
看	-11.5327
詈	-11.533
琚	-11.533
涓	-11.5331
鱗	-11.5332
幘	-11.5333
郿	-11.5334
穉	-11.5336
畎	-11.5337
麄	-11.5337
傭	-11.5339
臥	-11.534
彚	-11.5341
闐	-11.5341
沾	-11.5342
筦	-11.5346
淆	-11.5347
雹	-11.5437
慨	-11.5507
郜	-11.5516
亾	-11.552
縑	-11.5524
昂	-11.5525
忱	-11.5526
瑣	-11.5526
餐	-11.5528
悰	-11.5531
𤦺	-11.5531
縯	-11.5531
睹	-11.5532
喧	-11.5533
菽	-11.5534
訂	-11.5534
攬	-11.5536
栻	-11.5538
苴	-11.5539
沬	-11.5539
籖	-11.5545
艮	-11.5705
頠	-11.5715
汀	-11.572
歉	-11.5723
鄄	-11.5724
媿	-11.5724
屨	-11.5725
訕	-11.5726
刈	-11.5726
讞	-11.5727
頤	-11.5729
狙	-11.5729
惴	-11.5731
鄫	-11.5731
伉	-11.5732
襁	-11.5732
詛	-11.5734
鈐	-11.5734
縋	-11.5737
漲	-11.5738
丗	-11.5745
諄	-11.5914
估	-11.5918
毖	-11.5918
遹	-11.5919
緇	-11.5922
媯	-11.5922
絞	-11.5924
抉	-11.5925
瑛	-11.5925
丼	-11.5925
箠	-11.5927
驁	-11.5929
紓	-11.5929
盪	-11.5929
皁	-11.5929
酸	-11.593
濛	-11.593
衽	-11.593
床	-11.5931
縷	-11.5931
誌	-11.5931
絕	-11.5931
砥	-11.5931
翬	-11.5934
冥	-11.5934
慄	-11.5934
濱	-11.5936
薰	-11.5938
磔	-11.5942
霽	-11.5946
訢	-11.5955
巍	-11.6119
咈	-11.6119
諳	-11.612
撾	-11.6123
咺	-11.6129
勗	-11.613
觚	-11.6131
翹	-11.6132
瀕	-11.6134
渴	-11.6134
甬	-11.6134
涵	-11.6135
僵	-11.6136
峭	-11.6138
羨	-11.6138
莞	-11.6138
啼	-11.614
滎	-11.6299
兌	-11.6311
糞	-11.6327
尙	-11.6328
斁	-11.633
籬	-11.6332
幻	-11.6332
叶	-11.6332
廊	-11.6333
蚤	-11.6334
騶	-11.6334
无	-11.6334
鰥	-11.6336
炫	-11.6336
皂	-11.6337
䑓	-11.6338
驥	-11.6338
帙	-11.6338
肱	-11.6338
擿	-11.6338
癡	-11.6338
耘	-11.6339
漿	-11.6339
航	-11.6339
勍	-11.6339
譁	-11.6339
鵲	-11.6339
藪	-11.6339
牡	-11.634
鄣	-11.6342
笏	-11.6344
彜	-11.6346
皥	-11.6346
茲	-11.6346
麋	-11.6347
諍	-11.6347
肓	-11.6347
卨	-11.6347
㠯	-11.6355
顚	-11.6542
鏄	-11.6544
柬	-11.6544
晳	-11.6544
椘	-11.6545
頲	-11.6547
顙	-11.6549
脚	-11.6549
蕡	-11.655
宓	-11.655
昞	-11.6551
霆	-11.6551
郇	-11.6551
蒱	-11.6552
堕	-11.6552
琇	-11.6553
綵	-11.6553
膂	-11.6553
鉢	-11.6553
妓	-11.6553
坂	-11.6557
脯	-11.6557
貉	-11.656
墾	-11.6561
培	-11.6563
潯	-11.6564
朏	-11.6566
罃	-11.6568
穪	-11.6754
秬	-11.6757
鷙	-11.676
灋	-11.676
箸	-11.676
玷	-11.676
髀	-11.6761
漣	-11.6762
劓	-11.6763
蹶	-11.6763
彞	-11.6764
怛	-11.6766
沌	-11.6766
搢	-11.6767
丐	-11.6767
鋸	-11.6767
哷	-11.6767
峒	-11.6767
冺	-11.6767
盂	-11.6768
穫	-11.6769
唇	-11.6769
祼	-11.6769
餙	-11.6772
挟	-11.6774
焞	-11.6774
挹	-11.6775
墊	-11.6785
杏	-11.6786
璮	-11.6971
禰	-11.6975
玄	-11.6979
瘁	-11.6984
孱	-11.6985
玊	-11.6986
餅	-11.6986
擣	-11.6987
翺	-11.6987
蕞	-11.6988
晡	-11.6988
驢	-11.6991
斾	-11.6991
晷	-11.6992
愉	-11.6992
洵	-11.6992
乍	-11.6993
颺	-11.6993
刳	-11.6994
沴	-11.6994
茨	-11.6999
陴	-11.6999
逓	-11.6999
鴟	-11.7
縝	-11.7001
睨	-11.7003
馘	-11.7005
淇	-11.701
毆	-11.702
鑠	-11.7209
埸	-11.721
梵	-11.7212
耄	-11.7212
鵠	-11.7213
皋	-11.7213
芾	-11.7214
鑰	-11.7214
纊	-11.7214
亊	-11.7214
怵	-11.7215
槀	-11.7216
涖	-11.7218
奨	-11.7218
壼	-11.7219
榛	-11.7219
淡	-11.722
豚	-11.722
萱	-11.7221
㤀	-11.7221
頰	-11.7222
氶	-11.7222
亹	-11.7222
灃	-11.7223
瘳	-11.7223
鎰	-11.7223
扺	-11.7224
惓	-11.7226
悶	-11.7226
蹟	-11.7227
餼	-11.7227
昺	-11.7229
槍	-11.7229
爼	-11.7229
煜	-11.723
揉	-11.7241
縢	-11.7247
魋	-11.7438
庖	-11.7442
侁	-11.7443
郾	-11.7443
縶	-11.7446
哺	-11.7447
戶	-11.7447
跳	-11.7447
腸	-11.7448
跖	-11.7449
需	-11.7449
絮	-11.745
忝	-11.745
懟	-11.7451
鴈	-11.7451
餞	-11.7452
欷	-11.7452
貊	-11.7452
棧	-11.7453
縠	-11.7454
埀	-11.7454
鵬	-11.7455
厓	-11.7455
孑	-11.7455
仞	-11.7457
昩	-11.7457
崈	-11.7458
洫	-11.7459
瞿	-11.7459
櫓	-11.746
謳	-11.7461
璉	-11.7464
撮	-11.7464
懽	-11.7466
郕	-11.7472
虓	-11.7481
邙	-11.768
妣	-11.768
覡	-11.7683
擐	-11.7684
鋤	-11.7684
款	-11.7684
捉	-11.7685
戞	-11.7686
淚	-11.7688
槊	-11.7688
櫬	-11.7689
蓼	-11.7689
㩁	-11.7689
慱	-11.7689
佻	-11.7689
旴	-11.769
紗	-11.769
魴	-11.769
咫	-11.7691
稀	-11.7691
蟻	-11.7691
肸	-11.7694
糓	-11.7696
稻	-11.7696
啜	-11.7696
嫚	-11.7697
菁	-11.7698
軹	-11.7699
泝	-11.7699
梨	-11.77
聾	-11.7704
鄗	-11.7705
低	-11.792
碧	-11.7923
俳	-11.7923
醮	-11.7923
竪	-11.7925
徊	-11.7926
唾	-11.7926
羑	-11.7926
凋	-11.7927
姤	-11.7927
煑	-11.7928
飄	-11.7929
曺	-11.7929
溉	-11.793
爪	-11.7931
邲	-11.7933
冨	-11.7933
贛	-11.7933
們	-11.7934
吠	-11.7934
魅	-11.7935
儷	-11.7935
綾	-11.7935
鴨	-11.7936
蓺	-11.7937
詵	-11.7937
榦	-11.7937
郈	-11.7938
袴	-11.7938
雱	-11.7939
鬲	-11.7939
渇	-11.794
伃	-11.794
訃	-11.794
佺	-11.7941
襟	-11.7942
偹	-11.7942
㮚	-11.7944
盩	-11.7947
緍	-11.7948
􁐾	-11.7948
緦	-11.7949
匕	-11.795
甯	-11.7952
馨	-11.7963
鮪	-11.8174
鏑	-11.8175
呵	-11.8175
蒿	-11.8175
綦	-11.8175
妲	-11.8175
盥	-11.8175
隻	-11.8176
纛	-11.8177
婿	-11.8178
刎	-11.818
浹	-11.8181
揜	-11.8183
栅	-11.8183
泲	-11.8184
爚	-11.8185
悒	-11.8185
蹂	-11.8185
窬	-11.8186
鎗	-11.8187
撞	-11.8188
打	-11.8191
闞	-11.8191
霑	-11.8191
黻	-11.8195
絜	-11.8197
蒜	-11.8422
堙	-11.8426
楨	-11.8429
橫	-11.8431
㕔	-11.8431
偵	-11.8431
恙	-11.8432
涸	-11.8432
蓍	-11.8433
蠢	-11.8435
戱	-11.8436
緋	-11.8436
扁	-11.8436
准	-11.8437
逭	-11.8439
穡	-11.8439
默	-11.844
錐	-11.844
諲	-11.844
兔	-11.844
楮	-11.844
沼	-11.844
崞	-11.8441
屛	-11.8441
僨	-11.8442
沓	-11.8443
牌	-11.8443
歔	-11.8444
鈴	-11.8444
瀍	-11.8446
蒋	-11.8448
闚	-11.845
噉	-11.845
啖	-11.845
堆	-11.8452
巵	-11.8453
闌	-11.8455
蒍	-11.8456
娘	-11.8457
澶	-11.857
𨗳	-11.8689
舄	-11.8692
筰	-11.8693
齧	-11.8694
鍊	-11.8697
崛	-11.8698
羔	-11.8699
簽	-11.8699
璹	-11.8699
袤	-11.8701
迅	-11.8701
瑁	-11.8702
貼	-11.8702
酗	-11.8702
悚	-11.8703
褓	-11.8703
掉	-11.8704
址	-11.8704
肄	-11.8704
吟	-11.8704
軓	-11.8705
剄	-11.8706
盲	-11.8706
煦	-11.8707
糟	-11.8707
据	-11.8708
愜	-11.8709
頺	-11.8709
黶	-11.8709
憬	-11.871
臠	-11.871
娑	-11.871
㗖	-11.871
掦	-11.871
硤	-11.8713
潦	-11.8713
伷	-11.8714
耼	-11.8929
狸	-11.8959
逝	-11.8959
麓	-11.8962
騖	-11.8963
湮	-11.8963
旭	-11.8963
埒	-11.8964
湼	-11.8965
覧	-11.8965
舸	-11.8966
撥	-11.8966
纍	-11.8966
瞑	-11.8968
装	-11.8971
糶	-11.8972
謩	-11.8972
嬉	-11.8974
爻	-11.8974
貟	-11.8975
劄	-11.8975
蓨	-11.8976
磝	-11.8976
俚	-11.8977
愠	-11.8978
轘	-11.8979
烟	-11.898
諠	-11.898
嘏	-11.8981
讃	-11.8981
偁	-11.8982
靼	-11.8987
厔	-11.8987
牾	-11.8988
軋	-11.9231
䧏	-11.9234
䍐	-11.9236
蕘	-11.9237
鈇	-11.924
絙	-11.924
坡	-11.9241
腕	-11.9242
療	-11.9242
娯	-11.9242
鯨	-11.9243
篋	-11.9243
攄	-11.9245
徘	-11.9248
鏤	-11.9248
謾	-11.9248
眇	-11.9249
㰱	-11.9249
剡	-11.925
斐	-11.925
剗	-11.9251
嘯	-11.9252
䂓	-11.9252
鄠	-11.9252
莖	-11.9253
㡌	-11.9253
鳬	-11.9253
坼	-11.9255
垓	-11.9255
瑄	-11.9256
髓	-11.9256
瞶	-11.9256
㸑	-11.9257
窒	-11.9258
楹	-11.926
羗	-11.926
玘	-11.9261
誄	-11.9262
灘	-11.9263
產	-11.9264
佶	-11.9273
肖	-11.9455
錚	-11.9505
芬	-11.951
氂	-11.9526
郪	-11.9527
砲	-11.9529
弘	-11.953
翅	-11.9531
彝	-11.9531
蠅	-11.9531
閥	-11.9531
娠	-11.9531
刖	-11.9532
懵	-11.9532
𤯝	-11.9533
剏	-11.9534
穹	-11.9534
曙	-11.9534
逈	-11.9535
䋲	-11.9535
値	-11.9535
荐	-11.9536
聨	-11.9536
癰	-11.9536
数	-11.9536
捄	-11.9536
滏	-11.9537
燄	-11.9539
璝	-11.9539
綠	-11.9541
幢	-11.9541
駝	-11.9544
軄	-11.9544
禋	-11.9545
腦	-11.9545
蛟	-11.9546
倓	-11.9546
昫	-11.9548
椽	-11.9549
澈	-11.9561
嶢	-11.98
莱	-11.982
懣	-11.9823
欝	-11.9824
喙	-11.9824
倔	-11.9824
湧	-11.9825
夤	-11.9827
獺	-11.9827
豁	-11.9827
鋪	-11.9829
擴	-11.9829
惋	-11.9829
鍔	-11.983
紜	-11.983
頹	-11.983
玁	-11.9831
狷	-11.9831
耜	-11.9831
曖	-11.9832
碻	-11.9832
屣	-11.9833
郄	-11.9833
旺	-11.9835
熖	-11.9835
挍	-11.9836
冷	-11.9837
釡	-11.9837
緫	-11.9838
迴	-11.9838
剔	-11.9839
鄼	-11.984
籥	-11.9841
妤	-11.9842
洒	-11.9842
鄖	-11.9844
蔥	-11.9846
衒	-11.9849
适	-12.0115
遛	-12.0117
絪	-12.0118
哥	-12.0124
匐	-12.0125
絢	-12.0125
耦	-12.0127
倜	-12.0127
慼	-12.0128
殪	-12.0129
溷	-12.013
俑	-12.0131
糗	-12.0131
薫	-12.0131
廡	-12.0132
鉦	-12.0133
泮	-12.0134
摽	-12.0134
陿	-12.0135
礙	-12.0135
昃	-12.0135
雎	-12.0135
煮	-12.0136
裾	-12.0136
腋	-12.0136
弈	-12.0138
蜮	-12.0138
緜	-12.0138
踣	-12.0138
珥	-12.0139
倢	-12.014
廻	-12.0141
滹	-12.0141
炅	-12.0141
悻	-12.0142
螟	-12.0429
纉	-12.043
笮	-12.0436
万	-12.0436
駑	-12.0438
孜	-12.0439
洧	-12.044
鑊	-12.044
桁	-12.0441
褐	-12.0442
溵	-12.0444
檮	-12.0444
店	-12.0444
蹋	-12.0445
苫	-12.0445
綮	-12.0446
箇	-12.0446
痍	-12.0446
恟	-12.0447
掣	-12.0448
昪	-12.0448
祊	-12.0448
渤	-12.0449
瘴	-12.0449
邛	-12.0449
蹊	-12.045
涌	-12.0451
湊	-12.0451
詒	-12.0456
筏	-12.0457
犨	-12.0458
眭	-12.0461
匯	-12.0462
濩	-12.0465
蠋	-12.0731
誹	-12.074
笄	-12.0743
暘	-12.0746
炤	-12.0749
喝	-12.075
睚	-12.0756
拭	-12.0756
晙	-12.0759
驂	-12.0759
㝢	-12.0759
聃	-12.076
詼	-12.076
緄	-12.0762
浣	-12.0762
彖	-12.0762
翫	-12.0763
㐲	-12.0763
瞋	-12.0763
菲	-12.0764
筋	-12.0764
脆	-12.0764
壌	-12.0765
淩	-12.0765
峡	-12.0765
籩	-12.0765
緬	-12.0766
幟	-12.0768
鎖	-12.0769
認	-12.077
芉	-12.077
迦	-12.0771
撝	-12.0773
澣	-12.0773
卲	-12.0774
泫	-12.0775
換	-12.0775
琿	-12.0776
駰	-12.0776
藹	-12.0777
藤	-12.0777
貰	-12.0778
榷	-12.0778
汨	-12.0778
僦	-12.0778
牴	-12.0778
璆	-12.0779
潢	-12.0791
酅	-12.0794
秭	-12.0796
廞	-12.0805
佼	-12.1087
擕	-12.1088
墉	-12.1092
屹	-12.1092
眦	-12.1093
棒	-12.1094
悸	-12.1094
葱	-12.1095
夬	-12.1095
鍜	-12.1095
趍	-12.1096
憒	-12.1096
逍	-12.1096
寥	-12.1097
莬	-12.1098
葆	-12.1098
沭	-12.1098
暱	-12.1098
窋	-12.1099
𧺫	-12.1099
漬	-12.11
𣅿	-12.1101
牓	-12.1103
櫜	-12.1104
澥	-12.1105
腑	-12.1106
獷	-12.1107
鉛	-12.1107
蓐	-12.1108
𢷬	-12.1108
粱	-12.1108
鮒	-12.1109
炮	-12.1111
掇	-12.1111
婕	-12.1113
蹉	-12.1113
矍	-12.1114
矟	-12.1114
鷁	-12.1125
袞	-12.1417
塡	-12.1422
昀	-12.1438
嘲	-12.1439
輜	-12.144
犁	-12.1442
喟	-12.1443
熏	-12.1443
淅	-12.1444
曳	-12.1444
両	-12.1444
拆	-12.1445
杌	-12.1445
媸	-12.1445
珉	-12.1446
鹹	-12.1447
葅	-12.1448
夣	-12.1448
琢	-12.1449
憙	-12.1449
蘖	-12.1449
謔	-12.145
驃	-12.1451
罄	-12.1451
撼	-12.1452
隍	-12.1452
淯	-12.1452
洹	-12.1453
濼	-12.1453
迓	-12.1454
匏	-12.1454
弧	-12.1454
鍼	-12.1454
鄶	-12.1456
獒	-12.1458
絺	-12.1458
檝	-12.1459
觖	-12.146
鞞	-12.1463
义	-12.1465
濰	-12.1475
筩	-12.1774
邽	-12.1777
杵	-12.1787
䧺	-12.1788
郫	-12.179
閶	-12.1791
脛	-12.1793
粢	-12.1793
輳	-12.1796
璪	-12.1796
饕	-12.1796
眠	-12.1797
麈	-12.1798
嚚	-12.1798
駞	-12.1803
縈	-12.1803
弃	-12.1803
踧	-12.1803
泆	-12.1804
彠	-12.1805
莠	-12.1805
桎	-12.1805
煽	-12.1805
牁	-12.1807
犄	-12.1808
鍚	-12.1808
鵒	-12.1809
鼈	-12.1809
腴	-12.181
昴	-12.181
氊	-12.181
縡	-12.1811
艫	-12.1811
芸	-12.1812
鼙	-12.1814
滬	-12.1814
逕	-12.1816
鴞	-12.1816
摸	-12.1816
忮	-12.1816
蔕	-12.1817
灞	-12.1821
㚟	-12.1826
嶓	-12.1837
紵	-12.2157
賽	-12.2159
尅	-12.216
憊	-12.2161
琅	-12.2164
疚	-12.2165
孩	-12.2165
罘	-12.2167
邜	-12.2167
臏	-12.2168
雇	-12.2168
桴	-12.217
佾	-12.217
催	-12.217
蚌	-12.217
爱	-12.2172
悴	-12.2172
媪	-12.2172
掛	-12.2173
甡	-12.2173
侏	-12.2174
开	-12.2174
詗	-12.2175
醬	-12.2177
塊	-12.2177
謠	-12.2177
暕	-12.2178
櫛	-12.2178
鸜	-12.218
暄	-12.218
㽞	-12.218
詖	-12.2181
槨	-12.2182
謖	-12.2182
呌	-12.2182
翩	-12.2182
賵	-12.2182
飱	-12.2185
眚	-12.2186
頷	-12.2187
鏜	-12.2189
蟄	-12.2197
煴	-12.2216
嶧	-12.2533
嚭	-12.2535
鍪	-12.2537
䢴	-12.2544
塈	-12.2547
㬥	-12.2548
斮	-12.2549
伴	-12.2552
旃	-12.2553
韙	-12.2554
諉	-12.2555
添	-12.2556
峰	-12.2556
灤	-12.2557
臍	-12.2557
閠	-12.2559
􁂥	-12.2559
傖	-12.256
梏	-12.256
棐	-12.256
䜿	-12.2561
姫	-12.2561
耐	-12.2562
酎	-12.2562
弹	-12.2563
糲	-12.2563
溆	-12.2564
荔	-12.2565
譔	-12.2566
媛	-12.2566
酢	-12.2567
碣	-12.2568
緱	-12.2569
賫	-12.2569
紕	-12.2569
鏘	-12.2571
睥	-12.2572
瑯	-12.2572
皐	-12.2573
堞	-12.2574
栒	-12.2937
炯	-12.2943
謇	-12.2944
廿	-12.2945
獬	-12.2946
紞	-12.2948
婪	-12.2948
喑	-12.2949
莅	-12.2949
壕	-12.2949
倭	-12.2949
汩	-12.2949
浄	-12.295
髻	-12.295
祸	-12.295
柸	-12.2951
軺	-12.2951
翂	-12.2951
氛	-12.2951
怍	-12.2953
噍	-12.2953
諝	-12.2954
畵	-12.2956
薳	-12.2957
艷	-12.2957
裸	-12.2959
匭	-12.2959
摴	-12.2959
霫	-12.296
扉	-12.296
躓	-12.2963
錠	-12.2965
舁	-12.2965
峨	-12.2965
診	-12.2965
妍	-12.2965
凑	-12.2966
燥	-12.2966
滻	-12.2967
瀦	-12.2967
舳	-12.2967
塾	-12.2968
飼	-12.2968
賻	-12.2968
咥	-12.297
廙	-12.2971
穽	-12.2973
菹	-12.2974
瑑	-12.2974
玦	-12.2975
笙	-12.2977
雁	-12.298
蓮	-12.2981
沫	-12.2983
堇	-12.3355
鑚	-12.3358
隼	-12.3359
靦	-12.336
浿	-12.336
磯	-12.3361
煉	-12.3361
旂	-12.3362
瓜	-12.3366
輓	-12.3367
欎	-12.3369
籲	-12.3369
梃	-12.3369
悵	-12.3369
咤	-12.3371
麑	-12.3371
劑	-12.3371
烜	-12.3371
簮	-12.3373
搒	-12.3373
蠆	-12.3374
螫	-12.3374
鴦	-12.3375
欄	-12.3376
糵	-12.3376
讖	-12.3377
証	-12.3377
麇	-12.3377
袵	-12.3379
恍	-12.3379
焬	-12.338
韃	-12.3381
匝	-12.3383
詁	-12.3384
溱	-12.3385
豔	-12.3386
盻	-12.3386
媾	-12.3387
查	-12.3392
柰	-12.3761
躒	-12.3788
鏃	-12.3788
隃	-12.379
燠	-12.379
羕	-12.3793
尒	-12.3793
蹻	-12.3795
芈	-12.3797
霞	-12.38
惔	-12.38
縗	-12.38
蘧	-12.3801
糠	-12.3802
䆳	-12.3803
菅	-12.3803
鴉	-12.3805
瀾	-12.3805
筲	-12.3807
菴	-12.3808
液	-12.3809
遶	-12.3809
棁	-12.3809
鄞	-12.3809
柢	-12.381
徠	-12.381
耨	-12.3811
聯	-12.3811
㳂	-12.3812
唁	-12.3812
濳	-12.3812
圏	-12.3813
齪	-12.3813
棼	-12.3813
烙	-12.3813
厎	-12.3813
愀	-12.3813
柝	-12.3814
雊	-12.3814
焰	-12.3814
苐	-12.3814
埓	-12.3814
憝	-12.3815
刷	-12.3816
鷂	-12.3817
䄂	-12.3817
蹔	-12.3817
拈	-12.3817
樗	-12.3819
賕	-12.382
衫	-12.382
蒨	-12.382
仄	-12.3823
債	-12.3823
搤	-12.3824
挂	-12.3826
映	-12.3828
熺	-12.3828
瑨	-12.3831
湫	-12.3832
墌	-12.3833
貍	-12.3834
韐	-12.3834
茌	-12.384
抎	-12.4219
忸	-12.4236
吻	-12.4242
稗	-12.4251
喋	-12.4251
慊	-12.4253
肌	-12.4256
跛	-12.4256
蕕	-12.4258
脞	-12.4258
惨	-12.426
讟	-12.426
羇	-12.426
陬	-12.4261
戹	-12.4262
璿	-12.4262
舶	-12.4262
娱	-12.4262
竅	-12.4263
卉	-12.4263
黏	-12.4263
僂	-12.4265
磾	-12.4265
釘	-12.4265
吮	-12.4266
駹	-12.4266
貺	-12.4266
尭	-12.4266
嗢	-12.4267
霖	-12.4268
笛	-12.4268
碁	-12.4269
棨	-12.427
彷	-12.4271
灣	-12.4271
詿	-12.4272
粒	-12.4272
豬	-12.4273
眊	-12.4274
盃	-12.4274
玭	-12.4274
聒	-12.4275
喁	-12.4275
攅	-12.4278
菩	-12.4279
腥	-12.428
坻	-12.4282
暍	-12.4286
堠	-12.4295
珩	-12.4718
峘	-12.472
闋	-12.4722
龠	-12.4724
滸	-12.4725
棋	-12.4726
羹	-12.4727
廱	-12.4728
糊	-12.4729
磊	-12.473
耉	-12.473
㢲	-12.473
辠	-12.4731
藜	-12.4731
鷸	-12.4731
傚	-12.4731
犖	-12.4731
柘	-12.4733
箱	-12.4733
嵊	-12.4733
痼	-12.4733
虬	-12.4733
洸	-12.4733
吸	-12.4733
捃	-12.4735
麤	-12.4736
匍	-12.4736
岀	-12.4737
澌	-12.4737
僱	-12.4738
饉	-12.4738
㬰	-12.4738
殍	-12.4739
藐	-12.4739
現	-12.4739
刮	-12.474
瞰	-12.474
崑	-12.4742
篚	-12.4743
麀	-12.4743
讚	-12.4744
禫	-12.4744
鸇	-12.4744
㝷	-12.4744
猴	-12.4745
別	-12.4745
靑	-12.4746
喀	-12.4747
庵	-12.4747
爇	-12.4747
塤	-12.4747
沘	-12.4747
忒	-12.4747
埽	-12.4747
妥	-12.4747
璫	-12.4748
鏁	-12.4748
㶚	-12.4748
圄	-12.4749
詮	-12.4749
囹	-12.4749
藎	-12.475
鄃	-12.475
斆	-12.4751
隤	-12.4752
邰	-12.4752
聿	-12.4753
琸	-12.4754
蹴	-12.4758
拍	-12.4761
氍	-12.4762
􁞗	-12.4764
嫄	-12.4771
翃	-12.4775
仔	-12.5218
悺	-12.5219
𣣔	-12.5222
頫	-12.5222
醒	-12.5223
薇	-12.5223
悽	-12.5226
瞀	-12.5227
呐	-12.5229
栽	-12.5229
煨	-12.523
筴	-12.523
䨇	-12.5231
柅	-12.5232
暦	-12.5232
撿	-12.5233
夥	-12.5233
纁	-12.5234
劎	-12.5234
洄	-12.5235
柙	-12.5235
紲	-12.5235
躅	-12.5236
隷	-12.5236
儕	-12.5236
迺	-12.5236
厦	-12.5237
祓	-12.5238
汁	-12.5238
喘	-12.5238
綫	-12.5239
埭	-12.524
晊	-12.524
鶻	-12.5241
囬	-12.5242
兕	-12.5243
銛	-12.5243
酆	-12.5244
莩	-12.5244
噤	-12.5246
輊	-12.5246
岩	-12.5246
兾	-12.5246
曌	-12.5247
翀	-12.5248
戬	-12.5248
港	-12.525
粮	-12.525
叨	-12.5251
媧	-12.5251
様	-12.5252
怏	-12.5253
茙	-12.5254
黽	-12.5254
悞	-12.5254
鍤	-12.5255
噱	-12.5256
勺	-12.5257
樽	-12.5257
艻	-12.5274
焯	-12.5733
媮	-12.5738
犫	-12.574
薉	-12.5746
膜	-12.5747
猊	-12.5749
耤	-12.5752
朘	-12.5752
茸	-12.5754
脽	-12.5754
蚩	-12.5755
塋	-12.5756
儇	-12.5756
竞	-12.5756
𦕈	-12.5758
爐	-12.5758
菰	-12.576
票	-12.576
牣	-12.576
粃	-12.576
巔	-12.576
紱	-12.5761
蜜	-12.5761
倬	-12.5761
儂	-12.5761
嘻	-12.5761
煚	-12.5761
帕	-12.5762
捽	-12.5762
癘	-12.5762
獮	-12.5763
曁	-12.5764
萹	-12.5764
甓	-12.5764
惚	-12.5764
旹	-12.5765
夐	-12.5766
絛	-12.5766
繚	-12.5768
愴	-12.5768
柚	-12.5769
祲	-12.5769
𡨕	-12.5769
叠	-12.5771
踳	-12.5772
襦	-12.5772
罽	-12.5773
螽	-12.5773
悁	-12.5774
庳	-12.5774
糅	-12.5774
燃	-12.5774
腫	-12.5775
藿	-12.5776
琶	-12.5776
􁨑	-12.5776
碏	-12.5776
嗾	-12.5776
着	-12.5777
騏	-12.5777
泳	-12.5778
甃	-12.5778
槁	-12.5778
侂	-12.5778
倐	-12.5778
煎	-12.5779
玢	-12.5779
衎	-12.578
攫	-12.578
芽	-12.578
腆	-12.5781
瞞	-12.5781
慓	-12.5783
劌	-12.5785
砂	-12.5787
鏖	-12.5789
琊	-12.5789
簴	-12.5793
坰	-12.6301
僰	-12.6303
彀	-12.6305
禩	-12.6307
贑	-12.6307
鐫	-12.6308
慆	-12.6309
笥	-12.6309
透	-12.631
閿	-12.6311
纒	-12.6311
靴	-12.6311
匽	-12.6312
徯	-12.6313
畮	-12.6313
駘	-12.6314
豸	-12.6315
楛	-12.6315
颯	-12.6315
憔	-12.6316
痤	-12.6317
滓	-12.6317
戻	-12.6317
騾	-12.6317
閺	-12.6318
柞	-12.6319
髯	-12.6319
頍	-12.6319
揀	-12.632
幔	-12.632
鯤	-12.632
簫	-12.632
删	-12.632
扑	-12.6321
廨	-12.6321
忷	-12.6322
踏	-12.6323
禨	-12.6323
僥	-12.6323
墅	-12.6323
繖	-12.6324
鵝	-12.6325
蚝	-12.6325
迸	-12.6325
甕	-12.6326
疢	-12.6326
朶	-12.6327
脈	-12.6327
扎	-12.6327
鱉	-12.6327
淤	-12.6328
彎	-12.6328
賨	-12.6329
鼷	-12.6329
幃	-12.633
賭	-12.633
尖	-12.6331
煖	-12.6331
暾	-12.6331
泠	-12.6332
蒞	-12.6332
闓	-12.6334
瓛	-12.6334
跂	-12.6335
􁁊	-12.6338
眤	-12.6338
􁀫	-12.6339
戣	-12.6339
另	-12.6339
溍	-12.6339
姨	-12.6339
玖	-12.634
猪	-12.6341
瘃	-12.6344
猫	-12.6346
櫝	-12.6347
燬	-12.6347
溴	-12.6354
湔	-12.636
憕	-12.6369
㓙	-12.6884
癭	-12.6887
恫	-12.6888
龢	-12.6889
轢	-12.6891
褫	-12.6895
戅	-12.6898
懔	-12.6899
㦤	-12.69
箝	-12.6901
朓	-12.6902
楞	-12.6902
崆	-12.6903
劬	-12.6903
毀	-12.6903
傉	-12.6904
枷	-12.6904
媟	-12.6904
恇	-12.6905
秪	-12.6905
鯉	-12.6905
讋	-12.6906
哂	-12.6906
簀	-12.6907
訹	-12.6907
魑	-12.6907
憶	-12.6909
齕	-12.6909
褰	-12.6909
珦	-12.6909
衾	-12.6909
龐	-12.691
崍	-12.691
璵	-12.691
鶡	-12.6911
砭	-12.6912
蟊	-12.6914
臚	-12.6915
鶖	-12.6916
郛	-12.6916
壟	-12.6916
迤	-12.6916
櫃	-12.6916
䂀	-12.6917
遒	-12.6918
琵	-12.6918
曮	-12.6918
眄	-12.6919
吃	-12.6919
獍	-12.6919
圎	-12.692
礫	-12.692
恝	-12.692
諴	-12.6922
凊	-12.6922
霾	-12.6923
璀	-12.6924
黿	-12.6927
葷	-12.6928
踴	-12.6929
蛙	-12.693
瘤	-12.693
鬷	-12.6931
棚	-12.6932
敳	-12.6935
咋	-12.6941
岍	-12.695
嶼	-12.7508
蔟	-12.751
怦	-12.7512
纘	-12.7513
闍	-12.7514
簞	-12.7517
遄	-12.7519
譸	-12.7519
姥	-12.752
帆	-12.752
璇	-12.7521
帽	-12.7521
齗	-12.7521
韍	-12.7524
杆	-12.7524
綈	-12.7524
醖	-12.7524
杷	-12.7525
晻	-12.7525
杠	-12.7525
兀	-12.7526
毐	-12.7526
呫	-12.7526
躭	-12.7526
灝	-12.7528
鍛	-12.7529
橈	-12.7529
㬎	-12.7529
軟	-12.753
璅	-12.753
嫣	-12.7531
掬	-12.7531
瀧	-12.7531
芑	-12.7532
糒	-12.7532
菊	-12.7533
撒	-12.7533
濊	-12.7535
暖	-12.7535
酪	-12.7535
炊	-12.7536
鉄	-12.7536
聫	-12.7536
盼	-12.7537
婣	-12.7537
衿	-12.7538
鸚	-12.7538
杳	-12.7538
螭	-12.7539
籞	-12.7539
嚢	-12.7539
憖	-12.7539
刹	-12.7539
㦲	-12.754
閡	-12.754
褠	-12.7541
痩	-12.7542
衊	-12.7542
熒	-12.7542
宄	-12.7542
膰	-12.7543
晴	-12.7543
漓	-12.7543
捋	-12.7544
僇	-12.7544
慴	-12.7545
顕	-12.7545
攴	-12.7546
簧	-12.7546
締	-12.7546
胊	-12.7547
撙	-12.7547
紈	-12.7547
鐔	-12.7548
鶚	-12.7548
窕	-12.7548
堨	-12.7548
彍	-12.755
㝡	-12.755
柟	-12.7551
嗷	-12.7552
愞	-12.7552
淊	-12.7555
滍	-12.756
蟜	-12.7565
檿	-12.7566
􁞧	-12.8166
濓	-12.8176
黁	-12.8176
堊	-12.8179
絫	-12.8181
埤	-12.8183
嬀	-12.8187
澭	-12.8188
嶸	-12.8188
囁	-12.8188
騭	-12.8189
䰟	-12.8189
儗	-12.8189
縲	-12.8192
洳	-12.8192
㦯	-12.8193
薙	-12.8194
楶	-12.8194
﨑	-12.8194
躐	-12.8194
㝏	-12.8194
齷	-12.8195
摛	-12.8196
餤	-12.8196
倂	-12.8197
睡	-12.8197
囑	-12.8197
肋	-12.8197
暌	-12.8197
筐	-12.8198
緹	-12.8198
皿	-12.8198
埃	-12.8199
筑	-12.8199
霓	-12.82
塜	-12.8201
傔	-12.8201
瀼	-12.8202
菏	-12.8202
錙	-12.8202
褁	-12.8203
湩	-12.8204
邘	-12.8204
惎	-12.8205
閈	-12.8205
簋	-12.8205
鵡	-12.8206
蝮	-12.8206
灅	-12.8207
幵	-12.8207
柷	-12.8208
樛	-12.8208
傀	-12.8208
瘥	-12.8209
溲	-12.8209
礟	-12.8209
茵	-12.821
憺	-12.821
翥	-12.821
刅	-12.8211
鵞	-12.8211
騃	-12.8212
鵩	-12.8212
桷	-12.8212
甑	-12.8212
幗	-12.8212
摹	-12.8213
萎	-12.8213
䲭	-12.8213
㓗	-12.8216
榭	-12.8216
𠖇	-12.8216
薁	-12.8217
硯	-12.8217
糺	-12.8218
窳	-12.8221
倀	-12.8221
堧	-12.8227
囷	-12.8234
劘	-12.8236
岢	-12.8237
灄	-12.8238
漦	-12.8242
虡	-12.8243
皦	-12.8854
璡	-12.8873
呶	-12.888
瓴	-12.8892
熠	-12.8893
萼	-12.8895
菟	-12.8896
裙	-12.8898
冄	-12.8898
諦	-12.89
燦	-12.89
猱	-12.89
隩	-12.8901
砮	-12.8902
􁇻	-12.8902
葑	-12.8903
芰	-12.8904
罍	-12.8904
慣	-12.8905
煒	-12.8906
剰	-12.8906
淨	-12.8906
愾	-12.8907
褶	-12.8907
晸	-12.8908
胝	-12.891
悃	-12.8911
术	-12.8911
緼	-12.8911
拄	-12.8912
攺	-12.8912
刓	-12.8912
彿	-12.8914
舋	-12.8914
醪	-12.8914
痺	-12.8915
祟	-12.8915
窖	-12.8915
饜	-12.8915
艶	-12.8916
㺯	-12.8916
遡	-12.8917
枘	-12.8917
鏞	-12.8917
屐	-12.8917
蝨	-12.8918
抒	-12.8919
匣	-12.8919
歜	-12.892
繭	-12.892
銍	-12.892
秕	-12.892
眺	-12.8923
塩	-12.8923
厝	-12.8923
疥	-12.8923
跅	-12.8923
燇	-12.8923
剴	-12.8924
拏	-12.8924
莵	-12.8924
涽	-12.8924
襚	-12.8925
俎	-12.8925
漯	-12.8926
鯢	-12.8926
抔	-12.8928
聮	-12.8928
凄	-12.8928
氾	-12.8928
繻	-12.8929
檡	-12.8929
鵑	-12.8929
瘖	-12.8929
畚	-12.893
鏗	-12.8931
蜕	-12.8931
棹	-12.8932
蕤	-12.8933
棖	-12.8933
雛	-12.8934
瓆	-12.8937
茷	-12.8937
捫	-12.8938
眙	-12.8938
隶	-12.894
鍠	-12.8941
褉	-12.8942
唘	-12.8944
个	-12.8947
喆	-12.8947
滈	-12.8949
馛	-12.8951
叉	-12.8952
莪	-12.9655
點	-12.9657
蛻	-12.9658
垤	-12.9659
釜	-12.966
扄	-12.966
煌	-12.9661
兜	-12.9664
桶	-12.9665
楣	-12.9665
賡	-12.9666
醯	-12.9666
偫	-12.9668
甿	-12.967
瘼	-12.967
蹢	-12.967
剭	-12.9671
犴	-12.9671
羖	-12.9672
欹	-12.9673
竢	-12.9673
鐙	-12.9673
澡	-12.9673
謌	-12.9673
枸	-12.9673
搉	-12.9677
畯	-12.9677
虖	-12.9677
盌	-12.9677
刧	-12.9677
町	-12.9678
簠	-12.9679
髭	-12.9679
酹	-12.9679
鐃	-12.968
笠	-12.968
鄔	-12.968
啗	-12.968
邂	-12.9681
脣	-12.9681
厖	-12.9681
惬	-12.9682
恡	-12.9683
濂	-12.9684
逅	-12.9684
侫	-12.9684
㛰	-12.9685
揄	-12.9685
罟	-12.9685
讌	-12.9686
遴	-12.9686
㿻	-12.9686
纇	-12.9686
荻	-12.9687
猒	-12.9687
鳶	-12.9687
旉	-12.9688
辮	-12.9688
飴	-12.9688
騤	-12.9688
喈	-12.9689
蹲	-12.9689
蛾	-12.9689
蹯	-12.9689
栩	-12.9689
渒	-12.9691
聦	-12.9691
舫	-12.9691
巋	-12.9691
洱	-12.9691
戛	-12.9693
党	-12.9693
齮	-12.9693
派	-12.9693
獅	-12.9693
紬	-12.9693
瑤	-12.9694
簣	-12.9694
輾	-12.9695
狭	-12.9695
蹷	-12.9696
肢	-12.9697
遝	-12.9699
摠	-12.9699
涂	-12.9699
罳	-12.97
冑	-12.97
磷	-12.9702
枲	-12.9705
楙	-12.9707
沇	-12.971
鐻	-12.9712
賖	-12.9727
淦	-12.9741
菌	-13.0478
蜺	-13.0489
㚄	-13.049
笈	-13.0491
瓢	-13.0494
膾	-13.0494
畒	-13.0495
樁	-13.0496
暅	-13.0499
尢	-13.0501
毳	-13.0501
旡	-13.0501
叵	-13.0501
翜	-13.0501
橘	-13.0502
簸	-13.0502
耑	-13.0504
鼂	-13.0505
㔻	-13.0506
䡴	-13.0506
惮	-13.0507
蝣	-13.0507
㫤	-13.0508
􁒑	-13.0508
攽	-13.0508
噎	-13.0509
禠	-13.0509
曆	-13.0509
阯	-13.051
痕	-13.0511
抶	-13.0512
檣	-13.0512
燿	-13.0512
阽	-13.0512
凟	-13.0513
褻	-13.0513
淸	-13.0513
諼	-13.0513
玼	-13.0513
啄	-13.0515
做	-13.0515
濘	-13.0515
筯	-13.0515
惛	-13.0515
仿	-13.0516
臀	-13.0516
酇	-13.0516
捲	-13.0516
臟	-13.0516
窶	-13.0516
擄	-13.0517
韡	-13.0517
孳	-13.0517
悮	-13.0518
瑝	-13.0518
蜩	-13.0518
煞	-13.0518
瀚	-13.0518
鼃	-13.0519
嬙	-13.0519
么	-13.052
櫽	-13.052
槥	-13.052
漼	-13.052
騂	-13.0521
悤	-13.0521
呴	-13.0522
􁂒	-13.0522
裼	-13.0522
蛤	-13.0522
罝	-13.0522
熄	-13.0523
耎	-13.0523
鄕	-13.0523
攖	-13.0524
喚	-13.0524
蹄	-13.0524
歠	-13.0525
蚊	-13.0525
瀝	-13.0526
隮	-13.0526
賙	-13.0526
艸	-13.0526
餱	-13.0526
襜	-13.0526
褔	-13.0526
疣	-13.0526
龑	-13.0527
崗	-13.0527
鋟	-13.0527
桔	-13.0527
泜	-13.0527
賃	-13.0528
㮣	-13.0528
踶	-13.0528
㕓	-13.0529
姁	-13.0529
瑫	-13.0529
姆	-13.0529
卹	-13.053
涅	-13.053
紺	-13.0531
儡	-13.0531
拖	-13.0532
鄛	-13.0534
褥	-13.0534
線	-13.0535
祍	-13.0535
缶	-13.0535
帟	-13.0537
鄚	-13.0537
銲	-13.0537
肈	-13.0539
剉	-13.054
斲	-13.054
緐	-13.0542
儐	-13.0546
鞚	-13.0547
晧	-13.0548
鄑	-13.0555
眘	-13.1391
湝	-13.1392
套	-13.1394
鄱	-13.1396
蝟	-13.1398
潬	-13.1404
塚	-13.1406
轝	-13.1406
崎	-13.1407
躔	-13.1408
剕	-13.1411
蹐	-13.1412
濃	-13.1413
杓	-13.1413
薿	-13.1413
䦧	-13.1413
恧	-13.1414
椁	-13.1414
麫	-13.1414
溜	-13.1415
鐶	-13.1415
怫	-13.1416
淘	-13.1416
𣲖	-13.1416
啞	-13.1416
㸔	-13.1416
杰	-13.1417
篳	-13.1417
汋	-13.1418
媳	-13.1419
听	-13.1419
纖	-13.142
献	-13.142
茗	-13.1421
壖	-13.1421
甔	-13.1423
兊	-13.1423
憮	-13.1423
箾	-13.1424
瘦	-13.1425
㩀	-13.1425
豷	-13.1425
儵	-13.1425
繙	-13.1426
呪	-13.1426
騑	-13.1426
嫪	-13.1426
窄	-13.1427
蟹	-13.1427
撠	-13.1428
瘢	-13.1429
饔	-13.143
嘘	-13.143
盱	-13.143
擘	-13.143
倮	-13.143
骼	-13.1431
飫	-13.1431
黟	-13.1431
迯	-13.1433
睍	-13.1434
鷇	-13.1434
魃	-13.1434
麽	-13.1436
䴥	-13.1436
簳	-13.1436
閟	-13.1437
擗	-13.1437
迕	-13.1437
卣	-13.1437
妺	-13.1438
㦄	-13.1438
侣	-13.1439
窈	-13.1439
磑	-13.1439
拷	-13.1439
摺	-13.144
娬	-13.144
籛	-13.144
鍇	-13.144
鞀	-13.1441
蕚	-13.1442
珧	-13.1442
莢	-13.1442
壝	-13.1444
樅	-13.1445
勱	-13.1445
絁	-13.1446
佟	-13.1446
闑	-13.145
殻	-13.1452
紼	-13.1452
􁃕	-13.1453
溳	-13.1454
濺	-13.1455
擎	-13.1457
襤	-13.1457
宷	-13.1457
熬	-13.146
麯	-13.1463
悾	-13.2375
蛉	-13.2378
餁	-13.2382
杅	-13.2392
萍	-13.2396
𠞰	-13.2397
痡	-13.2398
禡	-13.2398
錬	-13.2398
仡	-13.24
厪	-13.2406
侖	-13.2408
旐	-13.2409
墠	-13.2409
躄	-13.2409
虵	-13.2411
諏	-13.2412
茀	-13.2413
禅	-13.2413
彄	-13.2414
芹	-13.2414
寬	-13.2414
仭	-13.2415
㢸	-13.2415
䴡	-13.2416
㽔	-13.2416
餮	-13.2416
墄	-13.2417
鸛	-13.2417
戇	-13.2418
韞	-13.2419
㐌	-13.2419
礌	-13.2419
韈	-13.242
嵎	-13.2422
槎	-13.2422
絆	-13.2422
趄	-13.2422
秸	-13.2423
暝	-13.2423
兑	-13.2424
闒	-13.2424
䃭	-13.2424
踝	-13.2424
斑	-13.2424
羝	-13.2424
瀰	-13.2425
縟	-13.2425
鲋	-13.2425
皤	-13.2425
复	-13.2426
罌	-13.2426
䆒	-13.2427
揔	-13.2427
繢	-13.2427
䠞	-13.2427
𢾗	-13.2427
玈	-13.2428
尨	-13.2428
哆	-13.2429
榼	-13.2429
壩	-13.2429
寞	-13.2429
胼	-13.2429
䭾	-13.243
紾	-13.243
柤	-13.243
鄷	-13.243
湍	-13.2431
窴	-13.2432
瘧	-13.2432
壙	-13.2432
嬗	-13.2433
岫	-13.2433
筝	-13.2433
跬	-13.2434
猿	-13.2434
吊	-13.2434
痿	-13.2434
縂	-13.2435
僄	-13.2435
綉	-13.2435
頋	-13.2436
饍	-13.2437
鍵	-13.2437
芍	-13.2437
胃	-13.2438
磻	-13.2438
盭	-13.2439
嚻	-13.2439
臝	-13.2439
涎	-13.2439
耰	-13.2439
蛭	-13.244
遨	-13.2441
瀹	-13.2441
汊	-13.2441
净	-13.2442
筍	-13.2443
萑	-13.2443
忖	-13.2443
鋋	-13.2443
敫	-13.2443
椀	-13.2444
針	-13.2444
吒	-13.2445
懍	-13.2445
囓	-13.2445
閾	-13.2446
栰	-13.2446
挿	-13.2447
螻	-13.2447
蓽	-13.2447
輈	-13.2447
攣	-13.2448
洚	-13.2448
贜	-13.2448
碓	-13.2451
攢	-13.2452
𢡟	-13.2452
𫉬	-13.2454
綢	-13.2459
掫	-13.246
娖	-13.2473
呱	-13.3493
蘋	-13.3497
俆	-13.3505
歘	-13.3505
忼	-13.351
斿	-13.3515
慥	-13.3515
悆	-13.3516
澘	-13.3516
蒂	-13.3517
憹	-13.3517
閴	-13.3517
訔	-13.3517
哇	-13.3517
咢	-13.352
榱	-13.3521
稆	-13.3522
𠡠	-13.3523
鈆	-13.3523
从	-13.3523
䍧	-13.3523
旤	-13.3523
晰	-13.3523
髽	-13.3524
橡	-13.3524
覯	-13.3525
惏	-13.3525
惀	-13.3525
輣	-13.3525
涙	-13.3525
藋	-13.3526
鷃	-13.3527
旛	-13.3527
躪	-13.3528
炕	-13.3528
圮	-13.3529
槽	-13.3529
癉	-13.353
蕝	-13.353
蠕	-13.353
頁	-13.353
潑	-13.353
搴	-13.353
稂	-13.3531
荃	-13.3531
胤	-13.3532
昰	-13.3532
莆	-13.3532
黈	-13.3533
荗	-13.3533
逷	-13.3533
苕	-13.3533
韭	-13.3533
瀨	-13.3533
釃	-13.3534
鼾	-13.3534
㒞	-13.3534
刾	-13.3534
觝	-13.3534
蜣	-13.3536
鶩	-13.3536
縹	-13.3536
焕	-13.3537
汔	-13.3538
貔	-13.3538
橜	-13.3538
椓	-13.3538
廏	-13.3538
椹	-13.3539
塑	-13.3539
矼	-13.3539
衲	-13.3539
胔	-13.3539
瑰	-13.354
氓	-13.354
蹀	-13.354
溘	-13.354
剷	-13.354
澇	-13.3542
曕	-13.3542
輶	-13.3543
萯	-13.3543
琉	-13.3543
嵕	-13.3543
鄀	-13.3544
侄	-13.3544
䖝	-13.3544
鑕	-13.3544
抝	-13.3545
慇	-13.3546
蟇	-13.3546
飜	-13.3547
愓	-13.3547
嚼	-13.3548
摟	-13.3548
遅	-13.3549
姞	-13.3549
矇	-13.3549
縵	-13.355
䥴	-13.355
胚	-13.355
蓰	-13.355
溶	-13.3551
軿	-13.3552
酳	-13.3553
敔	-13.3554
襆	-13.3554
𨼆	-13.3555
袋	-13.3555
鴛	-13.3556
幞	-13.3556
掞	-13.3556
阱	-13.3556
伻	-13.3556
蔞	-13.3557
髳	-13.3557
橦	-13.3558
轊	-13.3562
𦦨	-13.3563
烱	-13.3564
𤇺	-13.3566
唳	-13.3566
礬	-13.3566
竽	-13.3567
哤	-13.3568
檉	-13.3571
澨	-13.3572
獪	-13.3573
惘	-13.3579
俌	-13.3581
禚	-13.3584
乜	-13.3587
噽	-13.3588
猨	-13.4727
溟	-13.4752
倞	-13.4753
瀏	-13.4759
匜	-13.476
洑	-13.4761
棱	-13.4762
煢	-13.4763
佇	-13.4764
氅	-13.4767
熨	-13.4768
懊	-13.4768
洼	-13.4768
綣	-13.4768
狴	-13.4769
篲	-13.477
箧	-13.477
蓁	-13.4771
菀	-13.4772
蛆	-13.4772
堦	-13.4772
瘝	-13.4772
晢	-13.4773
崙	-13.4773
瘵	-13.4773
諗	-13.4773
祺	-13.4774
湨	-13.4774
鉸	-13.4774
鄊	-13.4774
肬	-13.4774
扳	-13.4775
㼐	-13.4775
謜	-13.4775
怱	-13.4776
呀	-13.4777
怚	-13.4777
眎	-13.4777
轔	-13.4778
旼	-13.4778
麕	-13.4778
贗	-13.4779
麵	-13.4779
裭	-13.478
昛	-13.478
襖	-13.478
絏	-13.478
咀	-13.4781
窠	-13.4781
褌	-13.4781
壠	-13.4782
摇	-13.4782
襌	-13.4783
畬	-13.4783
胾	-13.4783
顱	-13.4783
祋	-13.4783
丄	-13.4783
丌	-13.4784
繯	-13.4784
􁚫	-13.4784
牐	-13.4785
跼	-13.4785
酧	-13.4785
鰒	-13.4786
瓶	-13.4786
枳	-13.4786
鋩	-13.4786
繄	-13.4786
筌	-13.4786
冓	-13.4786
蹠	-13.4787
咏	-13.4787
綍	-13.4787
澁	-13.4787
猳	-13.4787
畸	-13.4787
䣛	-13.4788
眕	-13.4788
憀	-13.4788
廕	-13.4789
些	-13.4789
倕	-13.4789
杻	-13.4789
梢	-13.4789
賸	-13.479
駼	-13.479
荏	-13.479
㮙	-13.4791
噪	-13.4791
詫	-13.4791
僴	-13.4791
𥚹	-13.4792
件	-13.4792
稾	-13.4792
苓	-13.4793
餔	-13.4793
㳄	-13.4793
誶	-13.4794
蜡	-13.4794
鞌	-13.4794
捭	-13.4794
􁁏	-13.4794
尔	-13.4795
峪	-13.4795
睽	-13.4796
狺	-13.4796
昝	-13.4796
漙	-13.4796
璃	-13.4796
嗔	-13.4797
屡	-13.4797
馹	-13.4798
嘷	-13.4798
哽	-13.4798
苔	-13.4798
尫	-13.4798
謄	-13.4799
懃	-13.48
瞷	-13.48
偼	-13.48
蝦	-13.48
鬛	-13.48
琡	-13.48
鰓	-13.48
券	-13.48
觜	-13.48
鞂	-13.48
咒	-13.4801
逯	-13.4801
簷	-13.4804
倄	-13.4804
坫	-13.4804
橐	-13.4804
瑭	-13.4804
翮	-13.4805
蹝	-13.4805
蝎	-13.4805
墩	-13.4806
嫠	-13.4807
鼫	-13.4807
滲	-13.4808
㢠	-13.4808
眥	-13.4808
碾	-13.4808
鄲	-13.4809
机	-13.4809
飈	-13.481
嵯	-13.481
膊	-13.4811
姧	-13.4811
黛	-13.4811
侲	-13.4811
貣	-13.4812
囏	-13.4813
恌	-13.4813
耏	-13.4817
晛	-13.482
傴	-13.4822
㒟	-13.4822
趫	-13.4824
嚞	-13.4824
捺	-13.4826
柹	-13.4831
縚	-13.4834
噂	-13.4836
㳫	-13.4837
棓	-13.4839
顇	-13.6155
􁆹	-13.6164
璙	-13.6171
緭	-13.6174
􁂄	-13.6177
㔽	-13.6177
瑠	-13.6178
薺	-13.6178
邗	-13.6179
甖	-13.618
礮	-13.6184
螘	-13.6185
娃	-13.6186
儤	-13.6187
埇	-13.6189
藕	-13.6189
愒	-13.6189
盬	-13.619
芘	-13.6194
溯	-13.6194
搭	-13.6194
藂	-13.6195
攤	-13.6195
阸	-13.6195
殳	-13.6196
顆	-13.6197
釱	-13.6197
呿	-13.6199
嗌	-13.6199
挐	-13.6199
韲	-13.6199
舖	-13.6199
朅	-13.62
亰	-13.62
剙	-13.62
稊	-13.6201
鱄	-13.6201
氿	-13.6201
怕	-13.6201
漚	-13.6202
賧	-13.6202
巇	-13.6202
歂	-13.6203
勳	-13.6203
簟	-13.6204
崟	-13.6204
瞍	-13.6205
巉	-13.6205
瞬	-13.6206
䳌	-13.6206
跱	-13.6207
曝	-13.6207
襠	-13.6207
噩	-13.6208
袪	-13.6209
㩧	-13.6209
幙	-13.6209
􁂋	-13.6209
婭	-13.621
墐	-13.6211
梲	-13.6211
忙	-13.6211
鑪	-13.6211
杙	-13.6212
苹	-13.6212
剟	-13.6212
琥	-13.6212
駡	-13.6213
癃	-13.6213
筒	-13.6213
蹹	-13.6213
籕	-13.6214
珌	-13.6214
痂	-13.6214
眯	-13.6214
很	-13.6215
㡳	-13.6215
絍	-13.6215
鱓	-13.6215
埜	-13.6216
謏	-13.6216
裠	-13.6217
詶	-13.6217
浃	-13.6217
傪	-13.6217
蟾	-13.6218
稿	-13.6218
罼	-13.6218
睠	-13.6219
徉	-13.6219
鈕	-13.6219
崱	-13.6219
嶮	-13.6219
喫	-13.622
琫	-13.622
陗	-13.622
嘖	-13.622
曀	-13.622
簪	-13.6221
崓	-13.6221
傋	-13.6221
躰	-13.6221
瘐	-13.6221
鑽	-13.6221
覼	-13.6221
蟣	-13.6222
禝	-13.6222
綌	-13.6222
棫	-13.6222
㺷	-13.6222
粧	-13.6223
侠	-13.6223
箎	-13.6223
芃	-13.6224
㹠	-13.6224
磅	-13.6224
総	-13.6224
􁢱	-13.6224
凂	-13.6224
嶂	-13.6224
峩	-13.6224
佷	-13.6224
滴	-13.6225
芙	-13.6225
邡	-13.6225
咱	-13.6225
鼗	-13.6226
胯	-13.6226
殲	-13.6226
漾	-13.6227
猇	-13.6227
裌	-13.6227
洿	-13.6227
穸	-13.6227
卅	-13.6228
窀	-13.6228
怢	-13.6229
􁣽	-13.6229
鷺	-13.6229
讇	-13.623
脾	-13.623
贐	-13.623
襍	-13.6231
刊	-13.6232
檐	-13.6232
鄡	-13.6232
逌	-13.6234
瑚	-13.6234
嫵	-13.6234
賒	-13.6234
竸	-13.6235
醤	-13.6235
虔	-13.6236
匙	-13.6236
倅	-13.6236
喩	-13.6237
淬	-13.6237
淛	-13.6237
螳	-13.6239
燉	-13.6239
蝝	-13.624
禭	-13.624
珫	-13.6241
埴	-13.6242
鱠	-13.6242
靷	-13.6244
廛	-13.6244
軷	-13.6245
禖	-13.6245
墱	-13.6246
磴	-13.6247
狽	-13.6248
芭	-13.6248
靁	-13.6248
爺	-13.6248
穣	-13.6251
鍰	-13.6251
栫	-13.6252
頖	-13.6253
菼	-13.6253
驆	-13.626
袀	-13.626
秖	-13.6261
鹺	-13.6263
秺	-13.6268
焱	-13.6269
偘	-13.6269
簏	-13.6275
樐	-13.6287
􁒯	-13.6314
溼	-13.782
𤾉	-13.7825
􁥌	-13.783
茭	-13.7834
瑲	-13.7834
灉	-13.7836
挼	-13.7836
蒭	-13.7838
僬	-13.7841
渫	-13.7845
騋	-13.7845
絇	-13.785
杪	-13.7851
猺	-13.7851
懆	-13.7852
庋	-13.7854
沗	-13.7855
胛	-13.7856
虙	-13.7856
鰌	-13.7857
醻	-13.7858
珮	-13.7858
斨	-13.7859
嫘	-13.7859
矻	-13.7859
滙	-13.7859
傒	-13.786
沕	-13.786
澍	-13.7861
噠	-13.7861
牿	-13.7862
偸	-13.7862
佖	-13.7862
蠓	-13.7862
嚈	-13.7862
𬗟	-13.7863
胠	-13.7864
甦	-13.7865
籓	-13.7865
䑛	-13.7865
蜑	-13.7865
抹	-13.7866
眡	-13.7866
祻	-13.7866
枰	-13.7867
螺	-13.7867
鑣	-13.7867
鷟	-13.7867
繾	-13.7867
泱	-13.7867
䌈	-13.7867
羶	-13.7867
脤	-13.7868
汛	-13.7868
丱	-13.7868
唶	-13.7868
㐫	-13.7869
跟	-13.7869
佋	-13.7869
咮	-13.787
扛	-13.787
磽	-13.787
趯	-13.787
皃	-13.787
讁	-13.787
奰	-13.787
瘍	-13.787
届	-13.7871
閧	-13.7872
嗛	-13.7872
蠍	-13.7873
哨	-13.7873
􁱚	-13.7873
飡	-13.7874
尠	-13.7874
餂	-13.7874
㵒	-13.7874
赳	-13.7874
齱	-13.7874
茟	-13.7875
竧	-13.7875
嘅	-13.7875
插	-13.7875
醎	-13.7876
䁥	-13.7876
蔀	-13.7876
郲	-13.7876
臬	-13.7876
㕑	-13.7877
蜹	-13.7877
瞟	-13.7877
笴	-13.7878
萄	-13.7879
罭	-13.788
缾	-13.788
啣	-13.788
匃	-13.788
繦	-13.7881
嬸	-13.7881
鞕	-13.7881
稈	-13.7881
蝇	-13.7881
䫻	-13.7881
嬈	-13.7881
鬢	-13.7882
愊	-13.7882
詾	-13.7882
庀	-13.7882
簜	-13.7882
􁀾	-13.7882
艴	-13.7883
鐺	-13.7883
綖	-13.7883
箐	-13.7883
鵶	-13.7883
毌	-13.7884
霣	-13.7884
湞	-13.7885
睛	-13.7885
嘒	-13.7885
窻	-13.7886
怗	-13.7886
􁈩	-13.7886
叫	-13.7886
粽	-13.7886
鈹	-13.7886
頮	-13.7886
欋	-13.7886
珀	-13.7886
聪	-13.7887
冣	-13.7887
棃	-13.7888
淋	-13.7888
嵓	-13.7889
娼	-13.7889
拽	-13.789
鋌	-13.789
櫂	-13.789
畛	-13.789
碍	-13.789
慍	-13.789
虨	-13.7891
㥄	-13.7891
厙	-13.7891
綀	-13.7892
顰	-13.7892
蜋	-13.7892
型	-13.7892
筈	-13.7892
鯈	-13.7893
禥	-13.7893
塉	-13.7893
餫	-13.7893
􁝜	-13.7893
翌	-13.7894
嬃	-13.7894
頎	-13.7894
癬	-13.7895
菓	-13.7895
劼	-13.7895
梳	-13.7896
岊	-13.7896
撣	-13.7896
瀟	-13.7897
迮	-13.7897
鍥	-13.7897
攱	-13.7898
篁	-13.7898
瀋	-13.7898
凭	-13.7898
􁂆	-13.7898
蘚	-13.7898
躧	-13.7898
緤	-13.7899
鼛	-13.7899
𡡉	-13.7899
宂	-13.79
剌	-13.7901
魔	-13.7901
桺	-13.7901
劃	-13.7902
揕	-13.7902
懕	-13.7902
穩	-13.7902
戭	-13.7903
歃	-13.7903
膴	-13.7903
􁕏	-13.7904
潺	-13.7904
箔	-13.7905
礦	-13.7905
跗	-13.7905
煇	-13.7905
餳	-13.7906
潏	-13.7906
莨	-13.7907
袐	-13.7907
搔	-13.7907
敉	-13.7908
篹	-13.7908
串	-13.7908
鷰	-13.7909
邶	-13.791
翽	-13.791
瞳	-13.7911
驄	-13.7911
确	-13.7912
柦	-13.7913
蔇	-13.7913
惸	-13.7914
幪	-13.7914
帢	-13.7914
懀	-13.7914
綟	-13.7918
蜰	-13.7921
价	-13.7922
豰	-13.7922
罥	-13.7923
垠	-13.7924
莓	-13.7924
輬	-13.7925
廋	-13.7926
撑	-13.7927
䠶	-13.7928
濉	-13.7928
郳	-13.7929
艤	-13.7929
寙	-13.7932
枵	-13.7933
憧	-13.7933
咿	-13.9805
秒	-13.9811
瞥	-13.9814
屧	-13.9815
浢	-13.9821
瞠	-13.9835
苡	-13.9841
尃	-13.9845
矴	-13.9847
灨	-13.9848
漷	-13.9849
㟧	-13.985
澀	-13.9852
闟	-13.9853
眜	-13.9853
陔	-13.9854
妁	-13.9855
雝	-13.9855
醨	-13.9856
桮	-13.9856
琱	-13.9857
塠	-13.9857
齠	-13.9857
崦	-13.9858
隈	-13.9859
賍	-13.9859
笲	-13.9859
疹	-13.986
睱	-13.9861
鵁	-13.9861
嗑	-13.9862
掀	-13.9862
獾	-13.9862
鶄	-13.9862
鼐	-13.9865
嵫	-13.9865
㵯	-13.9866
関	-13.9866
蠛	-13.9866
倰	-13.9866
邅	-13.9866
櫺	-13.9866
醊	-13.9867
䴚	-13.9867
㴱	-13.9867
簙	-13.9867
菱	-13.9867
嫫	-13.9868
兪	-13.9868
迢	-13.9868
騄	-13.9869
觷	-13.9869
䘚	-13.9869
竆	-13.987
燻	-13.987
鄵	-13.987
𣙗	-13.987
澱	-13.9871
癩	-13.9871
憩	-13.9871
􁗟	-13.9872
剸	-13.9872
蜃	-13.9872
觱	-13.9872
錘	-13.9872
蝤	-13.9872
傃	-13.9872
衅	-13.9872
牕	-13.9872
毉	-13.9872
􁌙	-13.9873
鞶	-13.9873
檥	-13.9873
痾	-13.9874
腊	-13.9874
虀	-13.9874
窽	-13.9874
晤	-13.9874
􁥫	-13.9874
諞	-13.9875
狦	-13.9875
繅	-13.9875
鷔	-13.9875
囙	-13.9875
伲	-13.9876
蜯	-13.9876
謼	-13.9877
騊	-13.9877
咆	-13.9878
悄	-13.9878
涘	-13.9878
窣	-13.9878
𫐠	-13.9878
蒟	-13.9878
禜	-13.9878
儌	-13.9878
聆	-13.988
腵	-13.988
篠	-13.988
虯	-13.988
栝	-13.988
螣	-13.988
訩	-13.988
轞	-13.988
顫	-13.9881
騒	-13.9881
薑	-13.9881
銚	-13.9881
鞘	-13.9881
涣	-13.9881
㪺	-13.9881
􁱌	-13.9882
吼	-13.9882
崘	-13.9882
炟	-13.9882
悈	-13.9882
􁡶	-13.9882
擥	-13.9883
哮	-13.9883
肹	-13.9883
蚳	-13.9883
奩	-13.9883
輞	-13.9883
肻	-13.9883
絝	-13.9884
䂮	-13.9884
萁	-13.9884
潾	-13.9884
衟	-13.9884
諐	-13.9884
饐	-13.9884
壎	-13.9885
蘩	-13.9885
䄖	-13.9885
槌	-13.9885
唃	-13.9885
暋	-13.9885
慷	-13.9886
氈	-13.9886
紡	-13.9886
憇	-13.9886
齄	-13.9886
嚬	-13.9886
巙	-13.9886
憃	-13.9886
悪	-13.9887
􁆣	-13.9887
楓	-13.9887
躑	-13.9887
暵	-13.9887
疐	-13.9887
貅	-13.9887
貙	-13.9887
􁀬	-13.9887
􁒍	-13.9887
剃	-13.9887
珎	-13.9888
鄮	-13.9888
恰	-13.9888
噁	-13.9888
屝	-13.9888
訝	-13.9888
礱	-13.9889
跽	-13.9889
烕	-13.9889
􁇆	-13.9889
渢	-13.9889
洊	-13.989
纏	-13.9891
瞎	-13.9891
玕	-13.9891
豭	-13.9891
鏟	-13.9891
喏	-13.9892
肴	-13.9892
䐗	-13.9892
瀉	-13.9892
矙	-13.9893
㳙	-13.9893
旿	-13.9893
𤏡	-13.9893
𥘉	-13.9894
脗	-13.9894
篙	-13.9894
䪥	-13.9894
禴	-13.9895
愭	-13.9895
䪹	-13.9895
戺	-13.9895
璲	-13.9895
禔	-13.9895
覔	-13.9896
泅	-13.9896
訞	-13.9896
茬	-13.9897
霰	-13.9897
轓	-13.9897
縕	-13.9897
𥜗	-13.9898
䱸	-13.9898
㴻	-13.9899
襕	-13.9899
慸	-13.99
崒	-13.99
甗	-13.9901
鼬	-13.9901
刲	-13.9901
湬	-13.9901
珊	-13.9902
崐	-13.9902
㡊	-13.9902
靮	-13.9902
膩	-13.9904
昈	-13.9904
樕	-13.9904
臊	-13.9905
挻	-13.9905
殮	-13.9905
㢮	-13.9906
酲	-13.9906
㕎	-13.9906
馺	-13.9906
餧	-13.9906
惽	-13.9907
僶	-13.9907
綆	-13.9907
鬪	-13.9908
儶	-13.9908
㶏	-13.9908
醲	-13.9909
漑	-13.9909
玨	-13.9909
菪	-13.9909
弮	-13.9909
邥	-13.991
鷦	-13.991
秅	-13.991
紃	-13.991
㸙	-13.991
孃	-13.991
褸	-13.9911
黲	-13.9911
祑	-13.9911
㪷	-13.9911
矺	-13.9912
渟	-13.9912
𬒮	-13.9913
篾	-13.9913
桄	-13.9914
骲	-13.9915
􁀅	-13.9916
腳	-13.9916
𫝑	-13.9916
鱸	-13.9916
辝	-13.9917
闖	-13.9917
剋	-13.9917
幝	-13.9918
囮	-13.9921
爨	-13.9921
儈	-13.9922
懥	-13.9924
祅	-13.9925
騩	-13.9925
轀	-13.9926
孊	-13.9926
蠖	-13.9927
陑	-13.9927
訿	-13.993
㭬	-13.9934
姉	-13.9939
仝	-13.994
紖	-13.9941
腇	-13.9947
帬	-14.2296
捻	-14.2305
厷	-14.2319
蠃	-14.2324
怤	-14.2324
汳	-14.2324
邟	-14.2328
嚪	-14.2328
􁨄	-14.2328
褏	-14.233
厰	-14.233
峥	-14.2332
奓	-14.2334
怜	-14.2338
釭	-14.2338
揃	-14.2339
磚	-14.2341
硜	-14.2342
醵	-14.2342
熢	-14.2344
􁙶	-14.2344
搶	-14.2345
鷘	-14.2345
槿	-14.2346
鷽	-14.2347
薈	-14.2348
倎	-14.2348
爍	-14.2349
黮	-14.2349
楬	-14.2349
俵	-14.235
傫	-14.2351
纚	-14.2351
剿	-14.2352
譊	-14.2352
枅	-14.2352
􁂳	-14.2352
􁃹	-14.2352
斚	-14.2353
馗	-14.2353
騅	-14.2354
睃	-14.2355
蜒	-14.2355
妎	-14.2355
謿	-14.2356
鏦	-14.2356
柈	-14.2356
缿	-14.2356
㟭	-14.2357
塓	-14.2357
敲	-14.2359
鑱	-14.2359
僿	-14.2359
毈	-14.2359
萋	-14.2359
咲	-14.236
唈	-14.236
嗅	-14.236
獳	-14.2362
騧	-14.2362
幬	-14.2362
罩	-14.2362
􁋷	-14.2362
觳	-14.2362
涗	-14.2362
祛	-14.2363
㷔	-14.2363
梮	-14.2363
暙	-14.2363
羃	-14.2363
􁆵	-14.2363
仟	-14.2363
􁦚	-14.2363
襮	-14.2364
濋	-14.2366
佔	-14.2366
徕	-14.2366
蜼	-14.2366
袨	-14.2366
箟	-14.2366
犗	-14.2367
堲	-14.2368
烘	-14.2369
㣧	-14.2369
囤	-14.2369
霦	-14.2369
杝	-14.237
轕	-14.237
髫	-14.237
慠	-14.237
靶	-14.237
琀	-14.237
鐎	-14.237
緻	-14.2371
苣	-14.2371
䴢	-14.2371
憞	-14.2371
臈	-14.2373
媼	-14.2373
薅	-14.2373
罅	-14.2373
芧	-14.2373
醋	-14.2373
拑	-14.2373
蚪	-14.2373
鵜	-14.2373
㗋	-14.2374
腯	-14.2374
䣊	-14.2374
螯	-14.2374
鸑	-14.2374
梜	-14.2374
烺	-14.2374
鶂	-14.2375
􁒡	-14.2375
膇	-14.2375
怳	-14.2375
貛	-14.2375
閘	-14.2375
䭔	-14.2375
氲	-14.2376
袠	-14.2377
恼	-14.2377
觔	-14.2377
单	-14.2377
悱	-14.2377
芋	-14.2377
鸗	-14.2377
㿅	-14.2377
稭	-14.2377
蓧	-14.2377
蚿	-14.2377
餕	-14.2377
鷖	-14.2377
扃	-14.2378
簵	-14.2378
飪	-14.2378
􁁍	-14.2378
拗	-14.2378
坪	-14.238
戳	-14.238
皴	-14.238
籃	-14.238
萴	-14.238
郠	-14.238
颶	-14.238
齘	-14.2381
苪	-14.2381
㬭	-14.2381
庱	-14.2381
衜	-14.2381
愰	-14.2381
嫺	-14.2382
媱	-14.2382
餹	-14.2382
𬒳	-14.2382
櫡	-14.2382
脰	-14.2384
冽	-14.2384
㴠	-14.2384
惹	-14.2384
㠓	-14.2384
齩	-14.2384
堀	-14.2385
廧	-14.2385
蓊	-14.2385
嚙	-14.2385
揷	-14.2385
鷲	-14.2385
凷	-14.2385
􁀨	-14.2386
蝸	-14.2386
蘂	-14.2386
蹵	-14.2386
淀	-14.2386
剜	-14.2387
骰	-14.2387
摉	-14.2387
冋	-14.2387
攟	-14.2387
岵	-14.2387
枑	-14.2387
袝	-14.2387
蹬	-14.2387
醸	-14.2387
銆	-14.2387
駉	-14.2387
噴	-14.2388
鍮	-14.2388
莧	-14.2388
邐	-14.2388
憯	-14.2388
楀	-14.2388
矚	-14.2388
遳	-14.2388
鮐	-14.2388
䄡	-14.2388
䌓	-14.2388
黳	-14.2388
􁙆	-14.2388
搦	-14.2388
砌	-14.2389
慬	-14.2389
􁋎	-14.2389
弒	-14.2389
瘉	-14.2389
渌	-14.2389
箘	-14.2389
爆	-14.239
斸	-14.2391
蜻	-14.2391
踪	-14.2391
惷	-14.2391
粘	-14.2391
壚	-14.2392
絓	-14.2392
嫖	-14.2392
瘇	-14.2392
牷	-14.2392
珞	-14.2392
珝	-14.2393
犛	-14.2393
伹	-14.2393
碇	-14.2393
殚	-14.2393
鷯	-14.2393
幍	-14.2393
瀬	-14.2393
􁊓	-14.2393
濆	-14.2393
翎	-14.2393
掄	-14.2395
忩	-14.2395
趡	-14.2395
綃	-14.2395
䂎	-14.2395
秊	-14.2395
樠	-14.2396
鍫	-14.2396
箄	-14.2396
潄	-14.2396
茈	-14.2396
𠢐	-14.2396
伈	-14.2396
鞲	-14.2396
殣	-14.2398
磋	-14.2398
豋	-14.2398
髆	-14.2398
亓	-14.2398
鳫	-14.2398
癈	-14.2398
啑	-14.2398
鳦	-14.2398
聧	-14.2399
攈	-14.2399
瀑	-14.2399
迍	-14.2399
鎚	-14.2399
韁	-14.2399
𣏌	-14.2399
胞	-14.2399
踆	-14.24
㵼	-14.24
㒒	-14.24
癖	-14.24
誖	-14.2402
翷	-14.2402
􁕒	-14.2402
咳	-14.2402
袛	-14.2402
嵳	-14.2402
蚶	-14.2402
鸒	-14.2402
渺	-14.2403
禊	-14.2403
敭	-14.2403
䴵	-14.2403
婞	-14.2403
葡	-14.2403
鎣	-14.2403
噀	-14.2405
湕	-14.2405
剮	-14.2406
圌	-14.2406
𦂳	-14.2406
䞉	-14.2406
懫	-14.2406
搥	-14.2407
騮	-14.2407
咼	-14.2407
暀	-14.2407
蟆	-14.2407
筤	-14.2407
颭	-14.2407
䙆	-14.2407
汐	-14.2407
皛	-14.2407
羚	-14.2407
蓌	-14.2407
穗	-14.2409
褕	-14.2409
卾	-14.2409
楔	-14.2409
拇	-14.2409
􁉁	-14.2409
媺	-14.241
𣪚	-14.241
眧	-14.241
巂	-14.2411
殰	-14.2411
澓	-14.2411
皸	-14.2413
撟	-14.2413
頟	-14.2413
輼	-14.2414
饘	-14.2414
螂	-14.2414
瞱	-14.2416
箒	-14.2417
秔	-14.2417
曅	-14.2417
牃	-14.2417
髏	-14.2417
髑	-14.2417
齰	-14.2418
嫳	-14.2418
陾	-14.2418
蒹	-14.242
漅	-14.242
蓴	-14.2421
綻	-14.2422
楡	-14.2423
茇	-14.2423
薃	-14.2423
衖	-14.2423
􁳋	-14.2423
蚻	-14.2424
猰	-14.2425
韇	-14.2425
翛	-14.2425
誾	-14.2425
鄳	-14.2425
鷩	-14.2427
幰	-14.2428
鵰	-14.243
蔿	-14.243
榘	-14.2431
畼	-14.2442
癢	-14.2443
䈮	-14.2449
涔	-14.245
奘	-14.2452
笨	-14.2454
囗	-14.2461
◍	-14.2473
溈	-14.5649
槬	-14.5651
䁹	-14.5653
嚌	-14.5657
忕	-14.5661
䳺	-14.567
嶕	-14.567
掝	-14.567
椌	-14.5672
䤈	-14.5672
惃	-14.5672
㬚	-14.5674
朦	-14.568
仵	-14.5684
栭	-14.5684
劈	-14.5686
栱	-14.5686
嶪	-14.5688
搗	-14.5688
棬	-14.5688
攗	-14.5688
聵	-14.5689
殢	-14.5691
权	-14.5691
嘑	-14.5692
䛒	-14.5693
咻	-14.5693
嘶	-14.5693
㓎	-14.5695
敧	-14.5695
洓	-14.5697
嚶	-14.5697
惼	-14.5699
戔	-14.5699
凸	-14.5699
惱	-14.5699
撩	-14.5701
倿	-14.5701
扱	-14.5703
枊	-14.5703
個	-14.5703
廽	-14.5703
忡	-14.5703
岕	-14.5703
槧	-14.5703
换	-14.5705
彂	-14.5705
抛	-14.5705
揵	-14.5705
墦	-14.5707
啾	-14.5707
旍	-14.5707
幇	-14.5709
杉	-14.5709
䘺	-14.5709
宊	-14.5711
嵹	-14.5711
憍	-14.5711
惆	-14.5713
孌	-14.5713
抅	-14.5713
嫈	-14.5713
摳	-14.5713
嫻	-14.5715
傿	-14.5715
屩	-14.5715
愻	-14.5715
斄	-14.5715
浼	-14.5715
亙	-14.5717
剩	-14.5717
嵏	-14.5717
懘	-14.5717
沍	-14.5717
婾	-14.5718
沄	-14.5718
汏	-14.5718
唏	-14.5718
憨	-14.5718
戫	-14.5718
孀	-14.572
帴	-14.572
㕁	-14.572
杇	-14.572
梐	-14.572
嫓	-14.5722
䝤	-14.5722
广	-14.5722
檟	-14.5722
旟	-14.5724
䱇	-14.5724
凾	-14.5724
啔	-14.5724
墍	-14.5726
䬴	-14.5728
捩	-14.5728
岯	-14.5729
搰	-14.573
洨	-14.573
惄	-14.573
懬	-14.573
妒	-14.5732
㮔	-14.5732
櫪	-14.5732
揲	-14.5732
淒	-14.5734
䂭	-14.5734
擭	-14.5734
㿊	-14.5736
旧	-14.5736
䡖	-14.5736
䣄	-14.5736
唉	-14.5736
䦨	-14.5738
崿	-14.5738
弢	-14.5738
喣	-14.5738
椐	-14.574
㣥	-14.574
湳	-14.574
恁	-14.5742
儺	-14.5742
㒡	-14.5744
幺	-14.5745
㳊	-14.5745
攪	-14.5745
丅	-14.5745
墁	-14.5745
䑠	-14.5746
壐	-14.5747
朡	-14.5747
櫖	-14.5747
㩥	-14.5747
婧	-14.5747
岋	-14.5747
恆	-14.5749
昷	-14.5749
侜	-14.5749
歊	-14.5751
檛	-14.5751
圂	-14.5751
埧	-14.5751
亍	-14.5751
姙	-14.5751
掔	-14.5751
漉	-14.5753
㴶	-14.5757
尘	-14.576
㹞	-14.5761
咩	-14.5761
姏	-14.5763
塪	-14.5763
朾	-14.5769
浲	-14.5769
娵	-14.5769
儘	-14.5776
揠	-14.578
拮	-14.5782
匆	-14.5786
敍	-14.5788
䀨	-14.579
欑	-14.5792
㘭	-14.5799
咠	-14.58
㱪	-14.5825
柣	-15.0627
摎	-15.0628
憗	-15.0629
㖃	-15.063
騢	-15.0631
鍉	-15.0632
鋏	-15.0633
鄋	-15.0634
郏	-15.0635
蜎	-15.0636
薏	-15.0637
蕨	-15.0638
蓲	-15.0639
蓚	-15.064
翡	-15.0641
穨	-15.0642
炣	-15.0643
潝	-15.0644
漈	-15.0645
槲	-15.0646
懨	-15.0647
徬	-15.0648
庲	-15.0649
崢	-15.065
寪	-15.0651
姮	-15.0652
唫	-15.0653
䏰	-15.0654
䃃	-15.0655
㺐	-15.0656
鶠	-15.0657
鰐	-15.0658
邆	-15.0659
襧	-15.066
蠙	-15.0661
蛣	-15.0662
蒺	-15.0663
葫	-15.0664
簨	-15.0665
窩	-15.0666
碔	-15.0667
砆	-15.0668
睒	-15.0669
澂	-15.067
榴	-15.0671
怩	-15.0672
媫	-15.0673
偰	-15.0674
份	-15.0675
顦	-15.0676
鎡	-15.0677
鄬	-15.0678
蠜	-15.0679
蓉	-15.068
礴	-15.0681
璥	-15.0682
檇	-15.0683
徜	-15.0684
刵	-15.0685
傯	-15.0686
倆	-15.0687
乣	-15.0688
玳	-15.0689
獫	-15.069
枓	-15.0691
媢	-15.0692
瓞	-15.0693
拐	-15.0694
趦	-15.0695
蟋	-15.0696
蟀	-15.0697
棝	-15.0698
佀	-15.0699
踖	-15.07
諟	-15.0701
嘽	-15.0702
鄏	-15.0703
躊	-15.0704
躇	-15.0705
琄	-15.0706
徨	-15.0707
偬	-15.0708
鮀	-15.0709
髴	-15.071
髣	-15.0711
蹌	-15.0712
艨	-15.0713
艟	-15.0714
娀	-15.0715
蜉	-15.0716
粕	-15.0717
嘍	-15.0718
齬	-15.0719
齟	-15.072
涑	-15.0721
倥	-15.0722
溧	-15.0723
嘵	-15.0724
嶇	-15.0725
倧	-15.0726
琕	-15.0727
吭	-15.0728
㬋	-15.0729
瞭	-15.073
鞨	-15.0731
獗	-15.0731
麒	-15.0732
狁	-15.0733
覦	-15.0734
靺	-15.0734
