<unk>	0
<s>	0
</s>	0
。	-1.89422
故	-4.30751
者	-4.53407
也	-4.9128
以	-5.04812
有	-5.09856
是	-5.10582
為	-5.22522
此	-5.22681
二	-5.2778
無	-5.28309
(	-5.32345
即	-5.37017
)	-5.38768
中	-5.39499
如	-5.41987
等	-5.42468
之	-5.44924
不	-5.48786
於	-5.50392
若	-5.54006
法	-5.57704
謂	-5.57781
言	-5.5802
心	-5.58172
一	-5.59801
▁	-5.62762
名	-5.62891
相	-5.63317
生	-5.64755
義	-5.68449
因	-5.69874
非	-5.70198
說	-5.82131
三	-5.83703
而	-5.87143
行	-5.90222
彼	-5.92426
成	-6.01184
下	-6.01207
得	-6.03742
又	-6.09167
其	-6.09765
如是	-6.10224
人	-6.11042
亦	-6.12477
至	-6.12922
則	-6.13472
門	-6.13572
及	-6.13937
起	-6.15386
自	-6.16199
依	-6.17024
見	-6.18553
所	-6.18625
論	-6.19274
明	-6.19576
智	-6.2003
諸	-6.25922
時	-6.28397
後	-6.29848
四	-6.30303
一切	-6.32207
大	-6.32364
*	-6.33286
身	-6.3525
佛	-6.36901
性	-6.37562
云	-6.37565
。】「	-6.38295
與	-6.38904
能	-6.39257
緣	-6.39784
作	-6.40084
顯	-6.41183
前	-6.41849
本	-6.41896
我	-6.4315
皆	-6.434
由	-6.43566
宗	-6.44356
上	-6.45218
無明	-6.45402
離	-6.45415
眾生	-6.4579
答	-6.46409
體	-6.47007
或	-6.47496
分	-6.49611
處	-6.49647
知	-6.51127
初	-6.51145
滅	-6.51571
。」【	-6.52219
從	-6.52933
觀	-6.53273
同	-6.53314
釋	-6.57677
意	-6.58152
空	-6.58685
色	-6.59341
念	-6.61472
苦	-6.62389
應	-6.6249
問	-6.62812
立	-6.63354
今	-6.63377
菩薩	-6.63574
常	-6.63585
入	-6.65203
真如	-6.65338
名為	-6.65449
唯	-6.65589
隨	-6.65968
識	-6.66153
定	-6.67439
異	-6.68024
業	-6.68262
現	-6.68766
正	-6.69427
覺	-6.7048
通	-6.70522
雖	-6.71063
然	-6.71221
即是	-6.72287
事	-6.72616
修	-6.72805
別	-6.72908
果	-6.733
令	-6.73484
五	-6.74201
已	-6.74938
云何	-6.75637
過	-6.75788
用	-6.7654
住	-6.7766
分別	-6.78142
是故	-6.78317
當	-6.78409
多	-6.78556
耶	-6.80179
受	-6.80597
樂	-6.80701
解	-6.80861
地	-6.81112
攝	-6.813
真	-6.82145
喻	-6.82213
故云	-6.82475
具	-6.82556
在	-6.83323
斷	-6.83584
但	-6.84697
道	-6.85947
既	-6.86162
餘	-6.8665
合	-6.87324
善	-6.87861
難	-6.8927
淨	-6.89738
經	-6.90644
欲	-6.92156
取	-6.93016
理	-6.93403
證	-6.94024
聲	-6.94178
轉	-6.94348
先	-6.95941
何	-6.9601
境	-6.96561
信	-6.9825
根	-6.98367
他	-6.98858
因緣	-7.01969
可	-7.02875
差別	-7.02926
等者	-7.03106
文	-7.03326
勝	-7.04829
六	-7.06469
出	-7.06661
無常	-7.0682
乃至	-7.07706
教	-7.07787
生滅	-7.08105
次	-7.08586
本覺	-7.08666
俱	-7.0932
復	-7.10735
盡	-7.12677
一者	-7.13022
位	-7.13146
總	-7.13306
未	-7.13395
疏	-7.1353
功德	-7.13693
量	-7.13987
對	-7.14276
二者	-7.14638
實	-7.15052
德	-7.15775
十	-7.15885
約	-7.16469
王	-7.1647
無有	-7.1715
水	-7.18679
相應	-7.21774
妄	-7.2236
染	-7.23159
如來	-7.23163
引	-7.23408
除	-7.24892
舉	-7.25214
外	-7.25668
方	-7.27332
方便	-7.27413
故名	-7.27864
復次	-7.2813
力	-7.29626
熏	-7.30186
執	-7.31104
境界	-7.31403
煩惱	-7.3208
世間	-7.33036
不能	-7.33668
內	-7.35848
大乘	-7.35923
此中	-7.36173
問曰	-7.36571
藏	-7.36608
諸法	-7.36856
答曰	-7.37359
想	-7.3763
動	-7.37778
示	-7.37857
一心	-7.38839
聞	-7.38909
七	-7.38927
天	-7.39449
種種	-7.40211
發	-7.40658
戒	-7.40662
清淨	-7.41706
八	-7.42529
惡	-7.42784
所謂	-7.43451
捨	-7.44654
師	-7.45505
求	-7.4555
汝	-7.45594
遍	-7.46224
重	-7.47389
眾	-7.47601
具足	-7.47783
障	-7.48576
破	-7.49111
廣	-7.49277
法身	-7.50109
共	-7.50169
語	-7.50401
來	-7.50403
結	-7.50667
火	-7.50679
各	-7.5072
無量	-7.51731
便	-7.52406
種	-7.52636
深	-7.53038
平等	-7.53171
不覺	-7.53593
略	-7.53596
施	-7.53603
】	-7.54848
愛	-7.56965
巳	-7.57161
修行	-7.57263
第二	-7.57279
」	-7.57399
▁二	-7.57436
就	-7.57575
慧	-7.5809
物	-7.5835
不同	-7.59242
極	-7.60199
數	-7.60258
止	-7.6065
所作	-7.61626
不可	-7.61685
妙	-7.61722
利	-7.62684
涅槃	-7.62812
世	-7.62885
違	-7.63253
不定	-7.63411
更	-7.63725
界	-7.64605
疑	-7.64681
必	-7.64983
相違	-7.65225
解脫	-7.65467
乃	-7.6569
辨	-7.66847
似	-7.67116
惑	-7.67133
始覺	-7.6717
指	-7.67478
染淨	-7.67978
句	-7.68792
自性	-7.68817
,	-7.69083
迷	-7.69206
故言	-7.69343
諸佛	-7.69613
品	-7.69747
和合	-7.69983
記	-7.701
使	-7.71154
持	-7.71185
自在	-7.7199
順	-7.72086
開	-7.72585
曰	-7.72706
二種	-7.72916
報	-7.73103
所依	-7.74248
所說	-7.74383
失	-7.74636
一切法	-7.75493
論曰	-7.75591
少	-7.75993
耳	-7.7641
了	-7.76876
風	-7.77098
食	-7.77194
決定	-7.7728
▁初	-7.77426
屬	-7.77934
三者	-7.77994
生死	-7.78094
何故	-7.78677
)。】「	-7.78888
是名	-7.79182
。「	-7.79297
假	-7.79313
相續	-7.80113
悉	-7.80479
所立	-7.80853
海	-7.81642
成就	-7.82631
不得	-7.83471
字	-7.83651
兩	-7.83841
願	-7.84626
照	-7.84999
著	-7.85285
寶	-7.85579
有法	-7.85831
第三	-7.86353
。」【(	-7.86475
眼	-7.8723
還	-7.87552
熏習	-7.87833
所以	-7.88246
滿	-7.88664
集	-7.88839
類	-7.89207
子	-7.89339
流	-7.8953
能立	-7.89607
次第	-7.89882
故知	-7.90631
稱	-7.90681
邪	-7.91142
標	-7.91435
遠離	-7.91639
譬如	-7.91675
當知	-7.918
遮	-7.91908
發心	-7.91943
歸	-7.91995
塵	-7.92422
羅	-7.92852
比量	-7.93318
細	-7.93557
根本	-7.93574
法界	-7.94306
之義	-7.9469
不成	-7.94744
凡夫	-7.95361
究竟	-7.95386
菩提	-7.95619
喜	-7.95744
所以者何	-7.95837
思	-7.95905
對治	-7.96472
日	-7.96997
學	-7.97707
故說	-7.98106
觸	-7.98684
不離	-7.98903
意識	-7.98923
亦無	-7.9893
瓶	-7.98978
猶如	-7.9923
度	-7.99353
死	-7.99359
福	-7.99373
變	-8.00129
聖	-8.00559
壞	-8.00664
以此	-8.01002
外道	-8.01303
趣	-8.0132
許	-8.01707
九	-8.021
述曰	-8.02553
並	-8.02718
音	-8.02942
月	-8.03497
會	-8.03561
要	-8.04226
皆是	-8.04354
恒	-8.04588
罪	-8.04624
由此	-8.04826
所有	-8.05241
如來藏	-8.0526
善根	-8.0528
闕	-8.05377
無我	-8.05631
望	-8.05733
顯示	-8.06147
第一	-8.06294
忍	-8.06398
白	-8.06449
圓	-8.06481
二門	-8.0674
造	-8.06771
小	-8.06814
麁	-8.07111
乘	-8.07259
光	-8.07514
隨順	-8.07543
有二	-8.07582
化	-8.07872
遣	-8.08104
且	-8.08706
不生	-8.08727
形	-8.08743
之相	-8.09165
長	-8.09193
劫	-8.09872
精進	-8.10003
自體	-8.10051
亦不	-8.10193
直	-8.10234
山	-8.10409
增	-8.10912
斯	-8.10965
釋曰後	-8.11024
猶	-8.11236
自然	-8.11473
始	-8.11487
真實	-8.1222
論云	-8.12533
遠	-8.13043
經云	-8.1327
無相	-8.13277
無礙	-8.13401
簡	-8.13492
向	-8.13501
三昧	-8.14048
四種	-8.14853
三種	-8.14867
須	-8.14896
於此	-8.15061
去	-8.15286
圓滿	-8.15784
可知	-8.15791
此即	-8.15978
一分	-8.16655
親	-8.16839
一切眾生	-8.17267
計	-8.17437
之法	-8.17752
反	-8.17851
因果	-8.18248
波	-8.18296
無所	-8.18966
建立	-8.19018
爾	-8.19043
亦有	-8.19147
虛空	-8.19292
安	-8.19365
行者	-8.20223
何以故	-8.20298
不應	-8.20702
不動	-8.20785
貪	-8.20839
邊	-8.20929
無漏	-8.21062
二乘	-8.21653
香	-8.21755
同品	-8.21795
。△	-8.21941
治	-8.22355
。【	-8.23032
四相	-8.23211
增長	-8.23304
終	-8.23404
二合	-8.23537
業識	-8.23554
兼	-8.2381
二初	-8.2396
不知	-8.24065
據	-8.24102
比丘	-8.24109
能生	-8.24227
麤	-8.24585
則無	-8.24675
一一	-8.25219
將	-8.25499
以為	-8.25574
義故	-8.2561
之所	-8.25687
金剛	-8.25921
百	-8.26402
益	-8.26419
而不	-8.26427
智慧	-8.26755
無邊	-8.26825
亦爾	-8.27001
故名為	-8.27075
自相	-8.27118
利益	-8.27157
全	-8.27442
主	-8.27472
鏡	-8.27815
妄心	-8.28258
末	-8.28305
矣	-8.28389
於中	-8.28601
現量	-8.28648
豈	-8.28696
凡	-8.28942
有二種	-8.29078
阿	-8.29179
雙	-8.29378
非有	-8.29662
那	-8.2988
味	-8.29943
四者	-8.29968
悟	-8.30686
廣大	-8.30849
聚	-8.31309
樹	-8.31391
徧	-8.31551
足	-8.31562
命	-8.31667
禪	-8.31669
為因	-8.32115
言說	-8.32391
病	-8.33322
漸	-8.33379
習	-8.33779
輪	-8.33867
獨	-8.33943
亦名	-8.34121
比	-8.34266
摩	-8.3441
之中	-8.34702
退	-8.34896
影	-8.34998
四句	-8.35156
世尊	-8.35524
家	-8.35937
法性	-8.36048
千	-8.36638
修習	-8.36953
佛法	-8.37564
詮	-8.37741
魔	-8.37952
此論	-8.38081
金	-8.38113
異品	-8.38306
目	-8.38782
而有	-8.39255
此二	-8.39263
若有	-8.39348
不說	-8.39527
微	-8.39647
若人	-8.39953
衣	-8.4027
僧	-8.40424
所攝	-8.40655
供養	-8.41111
息	-8.41402
○	-8.41625
真如門	-8.42179
不見	-8.42257
所成	-8.42383
坐	-8.42613
亦如是	-8.4274
竟	-8.42866
觀察	-8.43111
唯識	-8.43166
像	-8.43245
達	-8.43462
光明	-8.43603
因明	-8.4374
第四	-8.43743
散	-8.4399
非是	-8.44038
於彼	-8.44223
不空	-8.44369
二義	-8.44481
今此	-8.44579
最	-8.44834
設	-8.44837
中有	-8.44843
信心	-8.4493
常住	-8.45111
燒	-8.45273
甚深	-8.45334
墮	-8.45812
不異	-8.45999
那先言	-8.46419
國	-8.46866
護	-8.47048
若無	-8.47098
神	-8.47658
種子	-8.47846
加	-8.48097
癡	-8.48399
絕	-8.48581
同喻	-8.48723
尊	-8.49425
亦是	-8.50182
同異	-8.50283
亦復如是	-8.50425
如本	-8.50518
互	-8.5057
道理	-8.51189
法門	-8.51277
莊嚴	-8.51376
染法	-8.51611
若爾	-8.51728
能所	-8.521
寂	-8.52744
部	-8.52801
婆	-8.52817
情	-8.53268
不淨	-8.53429
近	-8.5355
器	-8.53607
成立	-8.53906
普	-8.54287
是人	-8.54529
前後	-8.54724
思惟	-8.5521
被	-8.55619
云何為二	-8.55783
表	-8.55794
不斷	-8.56274
劣	-8.56354
到	-8.56446
高	-8.56536
待	-8.56545
若不	-8.56806
幻	-8.57158
現在	-8.5732
大悲	-8.57664
陀	-8.58107
地獄	-8.58398
所起	-8.58484
唯心	-8.58756
相似	-8.58875
經說	-8.59306
進	-8.5944
十種	-8.59494
。」【【	-8.59648
所見	-8.59773
如何	-8.59823
皆悉	-8.5983
如前	-8.60075
例	-8.60094
悲	-8.60107
蓋	-8.60443
寂靜	-8.60463
十二	-8.60679
本來	-8.61031
諸眾生	-8.61107
亦可	-8.61114
義也	-8.61159
相故	-8.61322
虗空	-8.6134
名字	-8.61427
王言	-8.6144
染心	-8.61536
以下	-8.61804
有情	-8.61917
過去	-8.61941
巳說	-8.62077
堅	-8.62254
之心	-8.6259
如實	-8.62591
如偈	-8.62667
心體	-8.62901
生滅門	-8.63157
所言	-8.6322
花	-8.63238
陰	-8.63448
無別	-8.63543
復有	-8.63642
久	-8.63913
釋曰	-8.64029
微細	-8.64058
智者	-8.64123
隨緣	-8.64288
珠	-8.64302
而為	-8.64677
支	-8.64753
伏	-8.64789
覆	-8.64927
爾時	-8.65155
由是	-8.65176
過失	-8.65236
頭	-8.65312
不相應	-8.65429
然此	-8.65547
是為	-8.65655
不善	-8.65786
含	-8.65886
此是	-8.65897
雖有	-8.6603
易	-8.66363
此則	-8.66624
未來	-8.66745
口	-8.66943
行相	-8.66959
無始	-8.671
異相	-8.67155
五陰	-8.67252
諦	-8.67265
闇	-8.6729
三寶	-8.67478
尚	-8.67507
亂	-8.67853
事識	-8.67974
亦應	-8.68047
瞋	-8.68122
勸	-8.6817
依此	-8.68458
有性	-8.68576
惱	-8.6875
年	-8.68801
不許	-8.68904
體相	-8.68923
窮	-8.69192
世界	-8.6929
問答	-8.69432
如是等	-8.69465
小乘	-8.6974
色等	-8.6976
五種	-8.69807
往	-8.70175
并	-8.7027
藥	-8.70318
法中	-8.70367
不起	-8.70784
畢竟	-8.71053
摩訶衍	-8.71108
機	-8.71338
即此	-8.71762
城	-8.71943
根本無明	-8.7197
犯	-8.72068
、	-8.72301
手	-8.72365
異喻	-8.72442
說法	-8.72466
正法	-8.72505
不共	-8.72644
應知	-8.72726
止觀	-8.72889
十方	-8.72954
三界	-8.72968
真心	-8.73297
居	-8.73392
▁三	-8.73529
伹	-8.73603
若言	-8.73689
四大	-8.73728
害	-8.73822
無念	-8.73897
緣起	-8.74024
配	-8.74068
如此	-8.74148
又云	-8.74659
十信	-8.74678
十地	-8.75027
存	-8.75257
段	-8.75304
況	-8.75503
有三	-8.75793
不變	-8.75818
了知	-8.75983
華	-8.76042
女	-8.76052
般若	-8.76108
好	-8.76417
而生	-8.7653
遂	-8.76623
本無	-8.76657
此義	-8.76941
契	-8.77102
轉識	-8.77186
別釋	-8.77227
不退	-8.77418
妄念	-8.77449
卷	-8.77842
能起	-8.78201
不二	-8.78357
雜	-8.78595
萬	-8.78833
過患	-8.78846
五者	-8.79202
頌	-8.79273
淨法	-8.79364
因喻	-8.79742
象	-8.79906
下釋	-8.79926
辯	-8.80131
通達	-8.80335
輕	-8.80404
寧	-8.80483
果報	-8.80754
獲	-8.80781
垢	-8.80823
亦非	-8.80854
最勝	-8.81204
請	-8.81267
作意	-8.81412
此謂	-8.81585
能見	-8.817
囉	-8.81725
寂滅	-8.81931
正因	-8.81968
蘊	-8.82018
極成	-8.82127
縛	-8.82133
論文	-8.8214
助	-8.82441
現識	-8.82483
憂	-8.82787
所生	-8.82878
敬	-8.82906
誦	-8.82943
齊	-8.83081
一時	-8.83096
者即	-8.83102
本曰	-8.83437
解釋	-8.83447
出離	-8.83476
彰	-8.83559
佛言	-8.83639
能破	-8.8369
或有	-8.83719
現前	-8.83832
夢	-8.83846
名曰	-8.83974
發起	-8.84059
佛說	-8.84079
間	-8.84098
此初也	-8.84195
無體	-8.84218
顯現	-8.84292
隱	-8.84367
那先	-8.84561
歡喜	-8.84683
一念	-8.84766
母	-8.84837
木	-8.85381
此明	-8.85412
唯有	-8.85475
翻	-8.8552
熟	-8.85583
乎	-8.85645
無二	-8.85656
斯則	-8.85699
徵	-8.85736
倒	-8.85922
各有	-8.85951
相者	-8.85957
顛倒	-8.85987
自他	-8.86137
隨一	-8.86217
下文	-8.86226
無異	-8.86267
經中	-8.86372
依於	-8.86455
決	-8.86499
有三種	-8.86561
龍	-8.86638
熱	-8.86906
繫	-8.8704
無為	-8.8705
色相	-8.87137
次說	-8.87188
實有	-8.87233
有無	-8.87247
沒	-8.87461
置	-8.87462
怖	-8.87904
不了	-8.87906
頂	-8.88073
無盡	-8.88107
阿羅漢	-8.88297
又若	-8.88377
帝	-8.88456
第七	-8.88494
殺	-8.88626
印	-8.88691
禮	-8.88838
義者	-8.88968
已說	-8.89023
收	-8.89242
此云	-8.89298
無生	-8.89418
法體	-8.89515
有四	-8.89532
邪見	-8.89597
三相	-8.89657
我今	-8.89728
大海	-8.89743
脩	-8.89881
准	-8.89957
名之為	-8.90326
是常	-8.90359
宜	-8.90375
有二初	-8.9049
科	-8.90593
礙	-8.90697
聲聞	-8.9099
所緣	-8.91057
厭	-8.91105
偏	-8.91158
一體	-8.91203
慈	-8.91255
燈	-8.91268
一切諸法	-8.91413
焉	-8.91439
七識	-8.91588
中間	-8.91756
迴向	-8.91782
迦	-8.91856
不可說	-8.9188
新	-8.92195
第五	-8.9225
受用	-8.92259
舍	-8.92623
述	-8.92661
路	-8.9284
自心	-8.92888
諸菩薩	-8.92907
而無	-8.92956
不壞	-8.93033
勿	-8.93048
於中有二	-8.93385
意云	-8.93787
廣說	-8.9423
.	-8.94391
如說	-8.94513
感	-8.94622
誰	-8.94724
故得	-8.94777
但是	-8.94833
眼識	-8.94917
沙門	-8.94925
眷屬	-8.94976
二法	-8.95229
尼	-8.95253
毀	-8.9535
門中	-8.95433
可見	-8.95503
牒	-8.95576
業相	-8.95617
準	-8.95677
以是	-8.95884
1	-8.95961
提	-8.95972
備	-8.95983
伽	-8.95985
之因	-8.96216
半	-8.96603
菩提心	-8.96769
有人	-8.96864
何等	-8.96889
第八	-8.96972
殊	-8.97011
其相云何	-8.97042
流轉	-8.97066
有為	-8.97225
出生	-8.97276
石	-8.9729
致	-8.97296
說名	-8.97459
如人	-8.97507
土	-8.97526
懈怠	-8.97676
陳	-8.9774
傳	-8.98013
諸天	-8.98016
能成	-8.98198
是其	-8.98272
亦復	-8.98379
返	-8.98549
車	-8.98608
甚	-8.98619
而起	-8.98621
是則	-8.98804
財	-8.98809
能現	-8.98818
有所	-8.98863
剎那	-8.98938
生相	-8.99152
靜	-8.99215
不可得	-8.99229
第六	-8.99243
所現	-8.99292
尋	-8.99329
非謂	-8.99364
譯	-8.99366
而得	-8.99845
其心	-8.99994
此因	-9.00014
一向	-9.00019
無餘	-9.00245
林	-9.00288
減	-9.00296
成佛	-9.00306
此識	-9.00347
又如	-9.00754
又此	-9.00851
勤	-9.00873
節	-9.0123
最上	-9.01248
行人	-9.01255
可得	-9.01396
總相	-9.01513
聽	-9.01529
分齊	-9.01549
莫	-9.01586
十六	-9.01792
陳那	-9.018
總標	-9.01904
遇	-9.0193
體性	-9.02091
為宗	-9.02122
佛性	-9.02185
宗法	-9.02274
故曰	-9.02299
應當	-9.0233
二相	-9.02332
能依	-9.02349
殊勝	-9.0237
假名	-9.0238
說為	-9.0252
一味	-9.02618
總結	-9.02642
恐	-9.02832
夫	-9.02838
雲	-9.03124
三細	-9.03143
非一	-9.03227
相也	-9.03557
揀	-9.038
皆有	-9.04103
鬼	-9.04193
縱	-9.04201
功	-9.0439
旨	-9.04491
讚	-9.04532
毘	-9.04632
離於	-9.04633
生起	-9.04715
列	-9.05051
不然	-9.0509
三世	-9.0531
法者	-9.05389
亡	-9.05418
善法	-9.05781
見佛	-9.0607
位中	-9.0608
力故	-9.06199
昔	-9.06367
二釋	-9.06388
之言	-9.06431
正念	-9.06518
梵	-9.06528
法故	-9.06566
正理	-9.06642
是時	-9.06779
滅相	-9.06979
同一	-9.07016
源	-9.07207
既無	-9.07303
真妄	-9.07376
不捨	-9.07483
安住	-9.07496
能知	-9.07499
強	-9.0751
共相	-9.07535
際	-9.0758
不為	-9.07631
超	-9.07693
興	-9.08108
更無	-9.08275
救	-9.08314
何以	-9.08336
本識	-9.08356
釋成	-9.08669
略說	-9.08832
憶	-9.08967
密	-9.08983
唯是	-9.09091
飲食	-9.0932
無上	-9.09359
不思議	-9.09441
古	-9.0955
出世	-9.09892
初地	-9.09969
不言	-9.10029
六種	-9.10205
為一	-9.10267
能緣	-9.10269
父母	-9.10532
此文	-9.106
頓	-9.10662
則不	-9.1068
之人	-9.10692
末那	-9.10781
心性	-9.10896
所得	-9.10933
能入	-9.10964
老	-9.10972
若離	-9.11128
性故	-9.11198
三句	-9.11452
依止	-9.11536
文中	-9.11541
念念	-9.11605
面	-9.11641
諸行	-9.11731
虛	-9.11737
弟子	-9.11744
神通	-9.11899
玄	-9.1198
慢	-9.12214
夜	-9.12221
此釋	-9.12318
馬	-9.12418
有漏	-9.12552
而能	-9.12709
審	-9.12805
苦樂	-9.12858
於是	-9.12978
宗因	-9.13013
所入	-9.13131
我見	-9.13177
調	-9.1326
經中說	-9.13512
一種	-9.13593
何得	-9.13683
造論	-9.13739
滿足	-9.13808
無性	-9.13956
之體	-9.1409
後二	-9.14123
中說	-9.1427
謗	-9.14286
欲界	-9.14298
河	-9.14382
不信	-9.14489
若以	-9.14537
此法	-9.14639
但說	-9.14649
號	-9.14737
一相	-9.14845
而言	-9.14901
俗	-9.14907
此心	-9.14989
不失	-9.15263
以有	-9.15276
怖畏	-9.15335
不爾	-9.15371
脫	-9.15576
己	-9.15662
資	-9.15765
法執	-9.15899
只	-9.15966
不滅	-9.15988
頌曰	-9.16005
能令	-9.1604
即無	-9.1607
和	-9.16153
西	-9.16259
冥	-9.16359
持戒	-9.16365
得入	-9.16468
永	-9.16545
牛	-9.16797
互相	-9.16939
如經中說	-9.16941
壽	-9.17027
瓶等	-9.17027
之時	-9.17035
速	-9.1705
質	-9.17066
却	-9.17188
里	-9.17486
元	-9.17597
令其	-9.17621
下明	-9.17657
清	-9.17985
越	-9.1837
壽命	-9.18608
受持	-9.1867
青	-9.18807
先明	-9.18858
恭敬	-9.18876
所證	-9.18934
章	-9.18949
周	-9.19113
徵釋	-9.19242
父	-9.19269
安立	-9.19546
2	-9.1982
微塵	-9.19876
善惡	-9.19885
身心	-9.20001
八種	-9.20051
損	-9.20065
容	-9.20074
六者	-9.20656
初禪	-9.20703
此等	-9.20835
禪定	-9.20871
各各	-9.20875
是名為	-9.20942
歎	-9.20955
生滅門中	-9.2103
此義云何	-9.2108
分明	-9.21208
以彼	-9.21209
不出	-9.21338
地前	-9.21359
論中	-9.21677
無不	-9.21717
文云	-9.21725
漸漸	-9.21802
能別	-9.21969
三藏	-9.22043
是中	-9.22206
聖人	-9.22226
南	-9.22231
權	-9.22261
即前	-9.22329
以明	-9.22359
轉相	-9.22416
曾	-9.225
從此	-9.22512
融	-9.2257
是心	-9.22627
心所	-9.22796
a	-9.23047
出家	-9.23153
骨	-9.23184
謂此	-9.23239
其體	-9.23266
智相	-9.23308
報身	-9.23355
所作性	-9.23377
則有	-9.2347
不取	-9.23522
惡業	-9.2362
造作	-9.23777
唯一	-9.23778
改	-9.23791
所知	-9.23792
切	-9.23843
背	-9.23955
泥洹	-9.23987
用大	-9.24153
偈	-9.24324
說言	-9.24584
是事	-9.24603
立義	-9.24636
二十	-9.24848
有一	-9.24869
本有	-9.2501
示現	-9.25128
又復	-9.25253
橫	-9.25265
一切智	-9.25305
初標	-9.25522
功能	-9.25607
恩	-9.25608
于	-9.25696
十一	-9.25743
能作	-9.25774
嚩	-9.25943
於諸	-9.25965
汝言	-9.26201
三大	-9.26289
一法	-9.26528
穢	-9.26597
得名	-9.26958
二句	-9.27039
以無	-9.27064
波羅蜜	-9.27064
鼻	-9.2711
諸根	-9.27142
△	-9.27282
所詮	-9.27431
正釋	-9.27437
展轉	-9.27523
妄想	-9.27554
布施	-9.27589
作用	-9.27697
非無	-9.27901
此說	-9.2799
少分	-9.28033
佛果	-9.28047
無實	-9.28079
貪欲	-9.28331
濫	-9.28401
狹	-9.28768
咸	-9.28864
淨心	-9.29132
棄	-9.29239
此三	-9.29263
皆名	-9.29303
內外	-9.29419
諸識	-9.29465
論主	-9.29542
耶答	-9.29574
毛	-9.29756
何者	-9.29924
有體	-9.3001
所依不成	-9.30056
薄	-9.30217
婆羅門	-9.30257
六識	-9.30409
緣生	-9.30474
自許	-9.30672
逆	-9.30714
潤	-9.30719
共許	-9.30735
大王	-9.30765
正明	-9.30921
都	-9.31027
廣釋	-9.31134
黑	-9.31149
詳	-9.31208
六塵	-9.31236
諍	-9.31434
所行	-9.31494
障礙	-9.31556
池	-9.31583
消	-9.31823
亦如	-9.31925
寬	-9.32023
氣	-9.3203
此約	-9.3209
守護	-9.32117
信解	-9.32258
何所	-9.32321
無分別	-9.32399
精	-9.32473
極微	-9.3249
釋云	-9.32624
敘	-9.32776
本性	-9.32789
利他	-9.32933
幾	-9.32993
隨其	-9.33044
四諦	-9.33103
得成	-9.33145
慮	-9.3341
帶	-9.33488
得生	-9.33502
偈曰	-9.33617
愚癡	-9.337
無過	-9.33701
故有	-9.33706
立宗	-9.33839
悔	-9.33885
故不	-9.3402
之智	-9.34124
0	-9.34287
有二義	-9.3433
判	-9.34462
雨	-9.34477
是也	-9.34572
此下	-9.34661
野	-9.34775
不生滅	-9.34801
成宗	-9.35013
無色	-9.35222
眼等	-9.35373
之力	-9.35408
申	-9.3541
若依	-9.35431
百千	-9.35448
愚	-9.35478
音聲	-9.35485
瞋恚	-9.35537
東	-9.35674
相分	-9.3575
4	-9.35825
暗	-9.35975
者謂	-9.36212
差	-9.36338
別明	-9.36374
虛妄	-9.36448
以依	-9.36452
善知識	-9.36523
悉皆	-9.36954
不住	-9.37005
又說	-9.37061
畏	-9.37086
大有	-9.37377
寺	-9.37402
乖	-9.37444
亦然	-9.37455
網	-9.37462
瑜伽	-9.37513
毒	-9.37629
眾生心	-9.3776
住持	-9.38015
正定	-9.38029
心法	-9.38086
本法	-9.38188
上下	-9.38294
宣說	-9.38448
呪	-9.38514
之性	-9.38543
則是	-9.38558
底	-9.38835
嚴	-9.38927
正智	-9.38998
外緣	-9.39096
同體	-9.39157
之用	-9.39179
而說	-9.39306
若說	-9.39323
不名	-9.39391
角	-9.39399
五識	-9.39416
不立	-9.39435
舌	-9.39444
無所有	-9.39821
色界	-9.39826
無間	-9.39977
法也	-9.39993
滅故	-9.40141
華嚴	-9.40184
故今	-9.40301
覺義	-9.40377
三乘	-9.40449
各別	-9.40546
初釋	-9.40628
謂於	-9.40745
總攝	-9.40749
同法	-9.41079
解云	-9.41258
初明	-9.4132
承	-9.41346
心也	-9.41394
本末	-9.41567
諸煩惱	-9.41685
地上	-9.41719
而非	-9.41767
十四	-9.41791
滅者	-9.41821
由旬	-9.41862
烟	-9.41963
有異	-9.42239
別相	-9.42408
安樂	-9.4241
性德	-9.42456
等諸	-9.42495
室	-9.42508
業報	-9.42537
制	-9.42565
起信	-9.42567
是無常	-9.42573
堅固	-9.42586
呵	-9.42635
非異	-9.42653
三賢	-9.42838
故下文云	-9.42962
以顯	-9.43024
怨	-9.43028
無差別	-9.43218
十八	-9.43253
業障	-9.43321
能熏	-9.43334
現行	-9.43355
該	-9.43404
無量無邊	-9.43475
見分	-9.43553
立者	-9.43581
暫	-9.43616
之行	-9.43685
契經	-9.438
前二	-9.43814
分別事識	-9.43867
有四種	-9.43913
尸	-9.43971
虗	-9.44151
此顯	-9.44238
心境	-9.44313
云何名為	-9.44606
誹謗	-9.44675
異故	-9.4477
論師	-9.4486
其身	-9.44876
轉故	-9.4498
未得	-9.45006
心生	-9.45334
3	-9.45474
有其	-9.45477
十五	-9.45507
初一	-9.45593
與彼	-9.45593
續	-9.45693
奉	-9.45754
仍	-9.45754
現相	-9.45798
令起	-9.45915
正見	-9.46047
惠	-9.46064
但以	-9.46151
哉	-9.46189
方得	-9.46262
不相捨離	-9.46281
美	-9.46289
住地	-9.46297
若於	-9.46396
是菩薩	-9.46401
無數	-9.46663
前文	-9.4676
及與	-9.4678
迴	-9.4679
鳥	-9.46817
實無	-9.4697
第十	-9.47026
若見	-9.47069
八地	-9.47246
云何為三	-9.47277
亦得	-9.47296
拔	-9.47399
五十	-9.47402
此事	-9.47421
本論	-9.47427
焰	-9.47459
親近	-9.47511
麤細	-9.47521
中初	-9.47534
一切諸	-9.47651
患	-9.47765
真體	-9.47767
次釋	-9.47854
倍	-9.47933
談	-9.47951
謂即	-9.47979
大義	-9.48071
法相	-9.48221
執著	-9.48389
故無	-9.48396
舊	-9.48491
座	-9.48562
同相	-9.48635
業用	-9.48756
內熏	-9.48807
何有	-9.48845
馬鳴	-9.4887
誠	-9.49031
肉	-9.49071
敵	-9.49167
彌	-9.49208
以心	-9.49248
首	-9.49398
不須	-9.49417
俱生	-9.49423
七者	-9.49487
數量	-9.49861
不定過	-9.49962
所熏	-9.50016
二障	-9.50121
園	-9.50149
離諸	-9.50196
不可思議	-9.50267
凡聖	-9.50286
為欲	-9.50379
體用	-9.50407
巧	-9.50482
謂由	-9.505
怛	-9.50564
或以	-9.50685
增上	-9.50775
譬喻	-9.50827
一法界	-9.50895
因中	-9.50903
上來	-9.50979
不相違	-9.511
住相	-9.51183
一切入	-9.51239
服	-9.51312
等也	-9.51439
斷除	-9.51516
愛樂	-9.51613
淺	-9.51867
門者	-9.51921
而作	-9.51992
有此	-9.52018
所作性故	-9.52097
二喻	-9.52304
梨耶	-9.52367
心源	-9.52375
懷	-9.52466
阿梨耶識	-9.52467
有義	-9.52559
楞伽	-9.52634
不復	-9.5268
書	-9.52773
釋曰次	-9.52791
我執	-9.52803
不相離	-9.52803
似因	-9.52855
濕	-9.52883
猶豫	-9.52896
藏識	-9.52985
論說	-9.53055
隨所	-9.53219
俱不成	-9.53253
現見	-9.53366
端	-9.53459
無記	-9.5362
葉	-9.53623
非真	-9.53632
詞	-9.53821
去來	-9.53916
謂有	-9.54004
人天	-9.5404
是一	-9.54124
草	-9.54234
威儀	-9.54288
國土	-9.5431
釋上	-9.54409
能攝	-9.54414
有過	-9.54433
沙	-9.54466
兩俱	-9.54496
覺觀	-9.54511
立名	-9.54511
恒沙	-9.54529
別解	-9.54555
不實	-9.54607
宿	-9.54737
所成立	-9.54994
有何	-9.55146
何等為	-9.55319
問云何	-9.55351
何須	-9.55694
能感	-9.55736
能取	-9.55988
福德	-9.55996
心起	-9.56002
別有	-9.5606
何義	-9.56075
善男子	-9.56084
有三初	-9.5609
妄法	-9.56205
隨應	-9.56274
受生	-9.56365
然後	-9.56367
理門	-9.56441
落	-9.56534
漏	-9.56595
立敵	-9.56657
色心	-9.5667
冷	-9.56711
住處	-9.56725
心外	-9.56789
引經	-9.56791
意許	-9.56802
諸惡	-9.56887
同時	-9.56893
無畏	-9.56908
語言	-9.56909
離念	-9.5713
二字	-9.57143
即有	-9.57168
寄	-9.57196
開示	-9.57203
鉢	-9.57221
正行	-9.57242
其義	-9.57266
不生不滅	-9.57305
舉體	-9.57342
名言	-9.57345
發菩提心	-9.57385
化身	-9.57494
得解脫	-9.57536
於他	-9.57723
□	-9.57773
原	-9.57801
四十	-9.57857
中有二	-9.57929
阿難	-9.57999
飲	-9.58003
如理	-9.58006
所執	-9.58042
次下	-9.58193
八者	-9.58317
無因	-9.58387
魔事	-9.58431
此四	-9.58577
成熟	-9.58599
說有	-9.58668
心識	-9.58685
歲	-9.58879
難云	-9.58907
正顯	-9.58946
宮	-9.59004
疾	-9.59072
如次	-9.59082
視	-9.59085
未盡	-9.59094
但言	-9.59107
謂依	-9.59138
妄執	-9.59209
不與	-9.59221
貪著	-9.59306
終不	-9.59347
後一	-9.59446
法爾	-9.59504
貫	-9.59521
中無	-9.59568
心無	-9.59624
有五	-9.59637
引證	-9.59657
責	-9.59741
如前說	-9.59761
一切世間	-9.60001
出現	-9.60075
忘	-9.60179
盛	-9.60344
盜	-9.60415
鐵	-9.6043
立義分	-9.60448
尊重	-9.60532
可愛	-9.60588
前三	-9.6059
今言	-9.60656
捨離	-9.60679
敵者	-9.60734
不覺義	-9.60871
推	-9.60879
了因	-9.60894
自身	-9.6093
謂若	-9.60942
檀	-9.60958
是事不然	-9.61002
深心	-9.61046
攝受	-9.61082
作業	-9.61099
不現	-9.61105
如下	-9.61195
邪執	-9.61249
心相	-9.61318
心不	-9.61369
所造	-9.61382
佛地	-9.61418
總持	-9.61456
一人	-9.61462
運	-9.61534
守	-9.61558
故成	-9.6156
契經中作如是說	-9.61563
常恒	-9.61872
之境	-9.61893
專	-9.61915
佛身	-9.61989
諸佛菩薩	-9.62022
後顯	-9.62056
為緣	-9.62087
眠	-9.62109
若約	-9.62213
牽	-9.62242
疏云	-9.62317
是法	-9.62405
生因	-9.62497
始終	-9.62595
別說	-9.62664
偈言	-9.62702
若能	-9.62707
真理	-9.62708
謬	-9.62824
非實	-9.62826
八識	-9.62877
法師	-9.62934
相續識	-9.62981
破壞	-9.62999
相待	-9.63007
彼坐禪人	-9.63085
譬	-9.63152
及諸	-9.63196
令彼	-9.63206
變易	-9.63211
億	-9.63213
能斷	-9.63327
無住	-9.63385
枝	-9.63433
罪人	-9.63477
不作	-9.63697
依前	-9.6373
初相	-9.63745
生故	-9.63851
生於	-9.63912
離相	-9.63975
定有	-9.6399
声	-9.63991
法空	-9.64003
此言	-9.64025
一云	-9.641
初總標	-9.64141
說名為	-9.64145
宣	-9.64149
曲	-9.64177
不著	-9.64231
不分	-9.64281
如幻	-9.64327
泯	-9.64345
依他	-9.64445
真性	-9.64667
雖復	-9.64692
所量	-9.64713
總別	-9.6473
限	-9.64782
平	-9.6483
調伏	-9.64868
安隱	-9.64949
別故	-9.65043
顯其	-9.65109
訖	-9.65293
妄染	-9.65302
我當	-9.65344
過也	-9.65433
故能	-9.6545
勇猛	-9.65589
不依	-9.65812
但有	-9.65979
體大	-9.65981
覺知	-9.66064
智淨相	-9.66113
堪	-9.66124
則能	-9.66403
巳下	-9.66441
三初	-9.66467
貪愛	-9.66596
攝一切	-9.66614
由彼	-9.66714
離欲	-9.66757
放	-9.6676
苦惱	-9.6679
題	-9.66791
五根	-9.66862
虗妄	-9.66898
為體	-9.6691
真如門中	-9.66912
依心	-9.66928
繁	-9.67061
無所不	-9.67098
不遍	-9.67169
體也	-9.6721
娑	-9.67232
賢	-9.67252
可說	-9.67308
傍	-9.67345
志	-9.67388
此亦	-9.6739
第一義諦	-9.6749
中言	-9.67507
中道	-9.67719
渴愛	-9.67809
無知	-9.6782
業果	-9.6785
隨染	-9.68006
招	-9.68123
任運	-9.68156
訶	-9.68233
前說	-9.68283
等法	-9.6832
五塵	-9.68469
修止	-9.68673
北	-9.68771
奪	-9.68785
不樂	-9.68899
一切皆	-9.68972
兩俱不成	-9.68978
巳上	-9.69051
此身	-9.69077
結成	-9.69314
異法	-9.69342
具有	-9.69351
演	-9.69367
覩	-9.69399
自利	-9.69426
欲令	-9.69438
赤	-9.69459
疑惑	-9.69462
浮	-9.69524
周遍	-9.69662
學者	-9.6969
總說	-9.69705
覺者	-9.69712
二因	-9.69712
不自	-9.6998
能詮	-9.69989
纏	-9.69995
勢	-9.70111
若得	-9.70115
隔	-9.70151
如其次第	-9.70225
刺	-9.70264
一句	-9.70307
何不	-9.70335
因云	-9.70436
以其	-9.70457
行處	-9.70485
則為	-9.70491
所修	-9.70669
無窮	-9.70704
六十	-9.70738
其相	-9.70804
留	-9.70829
取著	-9.70886
藉	-9.70922
第一義	-9.70922
如水	-9.71019
定心	-9.71027
相續相	-9.71075
五百	-9.71081
更有	-9.71108
憶念	-9.71212
正覺	-9.71234
以何	-9.71266
所聞	-9.71315
顕	-9.71339
放逸	-9.71439
長者	-9.71553
歷	-9.7161
故說為	-9.71736
五欲	-9.71763
▁【	-9.71803
心故	-9.72029
惡道	-9.72044
所別	-9.723
皆依	-9.72338
變異	-9.72417
智力	-9.72518
趣向	-9.72577
別異	-9.72609
體故	-9.72629
真如三昧	-9.72681
心中	-9.7269
微妙	-9.72805
我慢	-9.72822
他人	-9.72882
胎	-9.72915
薰	-9.72937
今既	-9.7298
又以	-9.72996
沈	-9.73064
解釋分	-9.73071
刀	-9.73111
是宗法	-9.73123
此之	-9.73157
滅時	-9.73264
此人	-9.73437
之本	-9.73467
心念	-9.73519
神王	-9.73533
空無	-9.73545
布	-9.73582
不以	-9.73585
不違	-9.73594
辨相	-9.73599
之意	-9.73616
岸	-9.7367
徒	-9.73694
曉	-9.73714
慈悲	-9.73836
見相	-9.73848
唱	-9.73849
良以	-9.73957
得道	-9.73985
一切境界	-9.74066
未曾	-9.74112
應化	-9.74152
薩	-9.74267
皆為	-9.74316
導	-9.7438
純	-9.74443
上文	-9.74458
皮	-9.74621
復說	-9.74753
於佛	-9.74854
或復	-9.74855
常無常	-9.74879
為相	-9.74884
值	-9.74955
師子	-9.75007
積	-9.75039
逐	-9.75044
有差別	-9.75071
缺	-9.75108
四義	-9.75124
No	-9.75147
陀羅尼	-9.75153
次當說	-9.75205
中間有	-9.75222
揚	-9.75224
四法	-9.75268
得自在	-9.75343
如上	-9.7538
因者	-9.75419
日月	-9.75467
而實	-9.75649
我所	-9.75707
真諦	-9.75756
洲	-9.75809
所取	-9.75834
猶預	-9.75844
後重	-9.75879
貴	-9.75888
靈	-9.75896
一切染法	-9.75917
萬行	-9.75943
若是	-9.76006
彼此	-9.76049
因也	-9.76094
慳	-9.76311
明了	-9.76381
總舉	-9.76424
妨	-9.76462
皆無	-9.76549
單	-9.76621
泥	-9.76632
今初	-9.76741
動念	-9.76933
五蘊	-9.76994
所化	-9.77024
證得	-9.77118
如彼	-9.77129
如虛空	-9.77143
不在	-9.77155
能得	-9.77201
諸有情	-9.77223
作如是說	-9.77239
呼	-9.77344
對治邪執	-9.77355
一義	-9.77442
男女	-9.77459
7	-9.77468
所餘	-9.77522
戲論	-9.77596
何況	-9.77633
俱有	-9.77661
辭	-9.77668
黎耶	-9.7804
遊	-9.78061
從本巳來	-9.78111
軍	-9.78125
時中	-9.78133
則知	-9.78146
動靜	-9.78181
皆以	-9.78191
聖諦	-9.78233
如言	-9.78249
命終	-9.78253
性相	-9.78343
妄見	-9.78352
十住	-9.78358
種性	-9.78503
又經中說	-9.78579
尾	-9.78686
實相	-9.78743
其因	-9.78751
中亦二	-9.78752
此意	-9.78778
脩行	-9.78782
而成	-9.7884
怯弱	-9.78864
連	-9.78869
貧	-9.78894
後世	-9.789
二合引	-9.78953
即名	-9.78962
快樂	-9.79041
聲無常	-9.79056
一切煩惱	-9.79163
總名	-9.79203
云何為四	-9.79206
空義	-9.79372
浪	-9.79386
眼根	-9.79495
鼓	-9.79589
九者	-9.79613
須陀洹	-9.79618
免	-9.7966
衣服	-9.79665
積聚	-9.79685
善行	-9.79709
利根	-9.79777
皆由	-9.79798
兒	-9.79829
思之	-9.79846
生滅因緣	-9.79909
聲上	-9.80082
之上	-9.80299
髮	-9.80328
法寶	-9.80334
之理	-9.80423
隨喜	-9.80786
其中	-9.8084
所觀	-9.80886
相即	-9.81014
最後	-9.81107
自證分	-9.81117
故非	-9.81172
種類	-9.81173
短	-9.81185
此名	-9.81243
煩惱障	-9.81354
初句	-9.81376
所明	-9.81389
報化	-9.81474
世俗	-9.81541
前云	-9.81582
一百	-9.81598
顯了	-9.8182
實等	-9.81841
即真如	-9.81934
文殊師利	-9.81943
大乘起信論	-9.81972
生滅相	-9.82008
妄境	-9.82012
故須	-9.82147
於其	-9.82303
大小	-9.82335
四禪	-9.82349
六染	-9.82408
覺性	-9.82497
有六	-9.82539
無自性	-9.82547
所顯	-9.82551
必有	-9.82578
於一	-9.82592
分二	-9.82618
為彼	-9.82682
女人	-9.82693
律儀	-9.82699
清涼	-9.82704
受樂	-9.82787
輪迴	-9.82828
初問	-9.83217
如是以	-9.83265
忽	-9.83374
能觀	-9.83385
七種	-9.83387
相對	-9.83401
徹	-9.83454
供	-9.83458
蓮華	-9.8351
叉	-9.83516
者即是	-9.8353
悅	-9.83548
無自體	-9.83601
不一	-9.83622
不攝	-9.83648
之宗	-9.8365
論者	-9.83651
外境	-9.83651
於同品	-9.83655
如實知	-9.83851
遍滿	-9.8393
群	-9.83965
且如	-9.83974
大覺	-9.84068
所作性因	-9.84095
局	-9.84111
疎	-9.84259
九相	-9.84282
讚歎	-9.84317
自性差別	-9.84368
未能	-9.84442
不相	-9.84519
名色	-9.84521
歸命	-9.84537
即顯	-9.84577
世諦	-9.8459
無障礙	-9.84787
勤勇	-9.8482
未有	-9.84883
剎	-9.849
龍樹	-9.85006
黃	-9.85012
律	-9.85035
茲	-9.85048
下二	-9.85068
應身	-9.85074
ā	-9.85079
仰	-9.85084
顯示正義	-9.85091
濁	-9.85158
有為法	-9.85184
5	-9.8524
俱非	-9.85256
加行	-9.85611
王復問那先	-9.8563
住於	-9.85653
二明	-9.85653
如前所說	-9.85665
列名	-9.85762
有非有	-9.85841
磨	-9.85848
三十	-9.85866
弘	-9.85877
田	-9.85891
離言	-9.85976
當念	-9.86041
大願	-9.86079
實性	-9.86139
為顯	-9.86245
所發	-9.86269
亦能	-9.8628
濟	-9.8637
能治	-9.86689
狀	-9.86732
本自	-9.8674
是有法	-9.86747
伊	-9.86749
無明住地	-9.8676
誓願	-9.86786
第四禪	-9.86799
因緣故	-9.8686
後三	-9.86869
汝說	-9.86942
同類	-9.86989
於前	-9.87048
亦名為	-9.87112
其所	-9.87127
獄	-9.87193
我等	-9.87203
但為	-9.87294
空等	-9.87331
寂寂	-9.87399
相符	-9.87408
以一切	-9.87426
如意	-9.87476
懸	-9.8749
奢摩他	-9.87508
賊	-9.87526
心者	-9.87577
厭求	-9.87583
散亂	-9.87593
或為	-9.87679
但云	-9.87701
性功德	-9.87743
8	-9.87784
簡別	-9.87867
唯取	-9.87909
但取	-9.87909
坐禪人	-9.87929
轉勝	-9.87964
▁二釋	-9.88014
念佛	-9.88066
諸佛如來	-9.88096
南無	-9.88105
義理	-9.88147
真如法	-9.88157
取相	-9.88212
負	-9.88315
驗	-9.88324
廢	-9.88367
《	-9.88379
》	-9.88381
三摩地	-9.88414
有火	-9.88434
修行信心分	-9.88448
鹿	-9.88452
或可	-9.88475
虫	-9.88477
見愛	-9.88499
凡夫二乘	-9.88626
令他	-9.88759
釋疑	-9.88888
得涅槃	-9.88944
不盡	-9.8898
士	-9.8903
立義分中	-9.89031
知見	-9.89059
不待	-9.8906
俱是	-9.89066
大眾	-9.89229
無作	-9.89283
古師	-9.89298
資糧	-9.89306
相違決定	-9.89335
無上菩提	-9.89372
天人	-9.89409
人所	-9.89528
次明	-9.89625
戲	-9.89679
是無	-9.897
起信論	-9.89766
云何為	-9.89822
富	-9.89892
者意云	-9.89908
別顯	-9.89971
乾	-9.90026
退失	-9.90027
宗中	-9.9004
復生	-9.90054
解行	-9.90056
菩薩摩訶薩	-9.90103
教法	-9.90136
若心	-9.90144
見道	-9.90153
令得	-9.90182
正觀	-9.90222
是諸	-9.90367
梵行	-9.90417
豈非	-9.9056
誐	-9.9072
皆從	-9.90725
授	-9.90769
勸請	-9.90835
緣故	-9.90859
忍辱	-9.90866
為欲顯示	-9.90889
不入	-9.90895
一處	-9.90966
立量	-9.90972
今以	-9.90976
若據	-9.91007
稽首	-9.9105
此中有二	-9.9105
數論	-9.91167
無別體	-9.91267
勤修	-9.91434
六度	-9.91503
長行	-9.91572
為他	-9.91598
降	-9.91685
既不	-9.91789
之異	-9.91826
九十	-9.91838
剡浮提	-9.91842
以何義故	-9.91866
七日	-9.9192
三支	-9.91929
無能	-9.91933
若法	-9.91945
總明	-9.91962
後際	-9.91974
欲求	-9.92026
名也	-9.9224
七地	-9.92394
喜樂	-9.92487
脚	-9.92648
令人	-9.92668
問何故	-9.92686
盡故	-9.92761
諸業	-9.9278
相違因	-9.92833
處處	-9.92856
但隨	-9.92902
意業	-9.93075
之事	-9.93158
見聞	-9.93249
以成	-9.93423
粗	-9.9343
憍慢	-9.93453
侵	-9.93454
與前	-9.9351
邪定	-9.93583
邪正	-9.93591
覺故	-9.93593
是苦	-9.93609
無常等	-9.93651
不定聚	-9.93657
煩惱礙	-9.93698
既是	-9.93752
尊者	-9.93842
龍王	-9.93921
有力	-9.93976
為喻	-9.93995
之名	-9.9408
一切處	-9.94131
渴	-9.94148
勞	-9.94165
三義	-9.94172
告	-9.94181
惡趣	-9.94196
聖道	-9.94222
亦同	-9.94236
若有眾生	-9.94282
佛弟子	-9.94283
厚	-9.94301
下云	-9.94306
心行	-9.94308
饒益	-9.94346
塗	-9.94361
軟	-9.94384
准此	-9.94438
有十	-9.9449
自有	-9.9454
長時	-9.9454
三分	-9.94664
即為	-9.94674
以一	-9.94725
能證	-9.94743
未生	-9.94833
三釋	-9.95041
五十一位	-9.95053
鈍	-9.95088
所歸	-9.95133
異者	-9.95187
妙吉祥	-9.95216
佛世尊	-9.95224
詣	-9.9524
乳	-9.95261
盲	-9.95265
因故	-9.9531
是業	-9.95401
性淨	-9.9579
哩	-9.95961
摩訶	-9.96094
非一非異	-9.96114
者此意	-9.96119
打	-9.96183
有我	-9.96202
習氣	-9.96214
生長	-9.96235
如空	-9.96407
九種	-9.96409
自性清淨心	-9.96465
我說	-9.96468
理事	-9.96524
第九	-9.96587
經論	-9.96676
即當	-9.96686
勝論	-9.96693
此門	-9.96695
偈云	-9.96697
入涅槃	-9.96754
不從	-9.96794
苦諦	-9.96914
特	-9.96918
宮殿	-9.96924
初二	-9.96932
非法	-9.9695
無明熏	-9.96965
十善	-9.96983
獲得	-9.96995
依如來藏	-9.97006
遷	-9.97011
皆非	-9.97023
從本已來	-9.97043
稍	-9.9705
防	-9.97057
佛語	-9.97067
二量	-9.97069
繫縛	-9.97094
鈍根	-9.97112
勸修	-9.97117
大決擇分	-9.97124
之外	-9.97139
形相	-9.97149
所立宗	-9.97181
雖不	-9.97294
十者	-9.97298
二覺	-9.9732
三身	-9.97337
成正覺	-9.97373
三業	-9.97382
趣入	-9.9739
作此	-9.97428
方成	-9.97439
前所說	-9.97544
決擇	-9.97547
不善業	-9.97652
軌	-9.97658
能成立	-9.97676
善人	-9.977
左	-9.97714
諸相	-9.97882
睡	-9.97963
過者	-9.98085
十七	-9.98142
二禪	-9.9815
聲論	-9.98198
後得智	-9.98221
眼見	-9.98286
大師	-9.98288
能了	-9.9829
差別故	-9.98302
信位	-9.98336
宗義	-9.98373
能為	-9.98409
究竟離	-9.98426
無分別智	-9.98433
變化	-9.9846
即成	-9.9849
下品	-9.98652
於異品	-9.98733
證真	-9.98737
明其	-9.98764
乃至廣說故	-9.98773
帝釋	-9.98865
投	-9.98868
有諸	-9.98899
念念滅	-9.98905
初中	-9.98913
勝義	-9.9897
之文	-9.98971
空寂	-9.98985
非常	-9.99016
6	-9.99126
生念	-9.99158
勝劣	-9.99172
第七識	-9.99212
說者	-9.99244
▁初標	-9.99247
分中	-9.99251
畜生	-9.99295
似破	-9.99303
二執	-9.99305
初門	-9.99423
老死	-9.99486
覺了	-9.99528
逼	-9.99545
以一切法	-9.99547
俱名	-9.99553
天子	-9.99569
起滅	-9.99572
動心	-9.99592
亦說	-9.99637
五十一	-9.99674
常宗	-9.99703
是有	-9.99724
仁	-9.99754
眾多	-9.99776
擊	-9.99777
優	-9.99795
代	-9.99808
釋迦	-9.99839
等相	-9.9994
又於	-9.99943
無差	-10.0007
唯佛	-10.0014
境故	-10.0015
亦即	-10.0021
解脫道	-10.0026
之過	-10.0039
其猶	-10.0041
最初	-10.0043
猛	-10.0045
梨	-10.0047
何故不	-10.0047
則滅	-10.0049
修道	-10.0055
聞法	-10.006
皆得	-10.0067
義說	-10.0067
乞	-10.0068
領	-10.0071
殘	-10.0071
炎	-10.0077
為本	-10.0078
穀	-10.008
凡小	-10.0082
受苦	-10.0084
諸有	-10.0084
久遠	-10.0084
疏中	-10.0084
正解	-10.0087
稱讚	-10.0089
分位	-10.01
異生	-10.0103
法自相	-10.0103
如其	-10.0105
樂為	-10.0107
此上	-10.0114
不假	-10.0126
分段	-10.0129
釋曰三	-10.0137
二俱	-10.0143
曩	-10.0145
何別	-10.015
受報	-10.0153
說此	-10.0154
煩	-10.0161
吉祥	-10.0162
迦葉	-10.0165
能覺	-10.0168
上轉	-10.0177
無量功德	-10.018
三事	-10.0181
徵起	-10.0183
見者	-10.0187
多言	-10.0208
相大	-10.022
能顯	-10.0226
於我	-10.0226
又有	-10.0233
成於	-10.0239
依真	-10.0241
三聚	-10.0241
異熟	-10.0245
釋文	-10.025
彼經	-10.0255
唐	-10.0258
慚愧	-10.0258
符	-10.0259
苟	-10.0262
生時	-10.0266
同前	-10.0269
不解	-10.0271
大士	-10.0281
思量	-10.0292
此菩薩	-10.0292
第八識	-10.0295
後釋	-10.0296
滅諦	-10.03
但約	-10.0311
或有眾生	-10.0317
一心法	-10.032
讀	-10.0326
所覺	-10.0328
與此	-10.0332
二邊	-10.0333
道路	-10.0335
餘處	-10.0337
無力	-10.0347
委	-10.035
即能	-10.0352
不如	-10.0353
懺悔	-10.0355
期	-10.0355
斷煩惱	-10.0358
淨用	-10.0358
儀	-10.0359
無違	-10.0367
不可得故	-10.0369
故論云	-10.0371
定慧	-10.0372
三法	-10.0382
修多羅	-10.0384
麁細	-10.0385
心王	-10.0401
常見	-10.0405
從彼	-10.0407
是謂	-10.0409
何處	-10.0413
何者是	-10.0427
偽	-10.043
污	-10.0441
養	-10.0443
破戒	-10.045
云何修行	-10.0451
依義	-10.0453
闍	-10.0455
瓦器	-10.0458
血	-10.0459
不具	-10.046
魚	-10.0461
永離	-10.0461
利養	-10.0464
法合	-10.0469
勤發	-10.0486
正信	-10.0493
相應故	-10.0494
道者	-10.0495
此偈	-10.0496
非彼	-10.05
時節	-10.0505
外人	-10.0506
於中有三	-10.0521
智識	-10.0524
釋曰二	-10.053
釋曰四	-10.0534
而轉	-10.0538
動故	-10.0538
祖	-10.0542
下結	-10.0542
自此	-10.0545
飛	-10.0547
阿耨多羅三藐三菩提	-10.055
筆	-10.0551
或於	-10.0551
毫	-10.0552
等義	-10.0557
滅盡	-10.0563
已下	-10.0574
可解	-10.0574
乃是	-10.0587
不思議熏	-10.0589
能除	-10.0594
隨自	-10.0595
如虗空	-10.0601
皆同	-10.0604
非同	-10.0606
聲是	-10.0611
衰	-10.0621
廣明	-10.0629
多羅	-10.063
新論	-10.0633
一切諸佛	-10.0635
別立	-10.0638
馬鳴菩薩	-10.0642
相用	-10.0643
都無	-10.0647
蛇	-10.0647
跡	-10.0648
測	-10.0649
依法	-10.0649
翳	-10.0649
勇	-10.0653
此乃	-10.0656
謂真如	-10.0662
釋義	-10.0671
▁四	-10.0673
大智	-10.0674
雖無	-10.0676
楞伽經	-10.0681
見有	-10.0693
說故	-10.071
平等緣	-10.072
是真	-10.072
序	-10.0721
八十	-10.0723
又汝言	-10.0724
令心	-10.0724
相應心	-10.0727
至於	-10.0731
下顯	-10.0731
十三	-10.0735
無分齊	-10.0741
賴	-10.0744
用相	-10.0746
後得	-10.0751
涅盤	-10.0754
說也	-10.0758
威德	-10.0765
出世間	-10.0767
有二門	-10.0782
良	-10.0792
即便	-10.0795
因生	-10.0796
文殊	-10.0798
境界相	-10.0799
喻中	-10.0802
今當	-10.0813
相好	-10.0813
六根	-10.0815
並是	-10.0838
天上	-10.0839
一切菩薩	-10.0839
一門	-10.0843
所為	-10.0844
梵天	-10.0849
從無始來	-10.0851
周徧	-10.0854
覓	-10.0855
繩	-10.0857
一劫	-10.0858
牙	-10.0858
厭離	-10.0859
二約	-10.086
影像	-10.0863
已得	-10.0868
棄捨	-10.087
依無明	-10.0871
造業	-10.0878
多種	-10.088
唯是一心	-10.0892
以之為	-10.0897
是佛	-10.0899
無垢	-10.0913
究竟覺	-10.0914
應說	-10.0916
緣也	-10.092
無想	-10.0925
別義	-10.0928
汝問	-10.0941
後陳	-10.0942
憎	-10.0944
壁	-10.0951
自利利他	-10.0954
頃	-10.0954
接	-10.0955
善不善	-10.0957
賴耶	-10.096
災	-10.0964
痛	-10.0966
有自體	-10.0969
諸苦	-10.0969
隨逐	-10.0979
迷悟	-10.0982
成滿	-10.0987
五分	-10.0991
兩重	-10.0992
不定因	-10.0992
通於	-10.0998
離此	-10.0999
何名	-10.1002
此二種	-10.1006
也問	-10.1012
非一切	-10.1014
先說	-10.1017
隨意	-10.1025
即彼	-10.1026
葢	-10.1046
隨流	-10.1046
所治	-10.1047
再	-10.1049
無著	-10.1052
自下	-10.1052
究	-10.1053
大地	-10.1054
不是	-10.1055
交	-10.1056
所斷	-10.1059
誑	-10.106
「	-10.1061
宗因喻	-10.1063
馳	-10.1064
為實	-10.1068
財物	-10.1069
而立	-10.1072
劍	-10.1073
過故	-10.1076
比量相違	-10.1083
殺生	-10.1084
不自在	-10.1086
下轉	-10.1086
漏盡	-10.1094
天眼	-10.1095
有實	-10.1095
妄語	-10.1103
斷絕	-10.1103
果海	-10.1104
有始	-10.1121
真故	-10.1127
文義	-10.1138
拏	-10.1141
證發心	-10.1143
如佛	-10.1149
佛智	-10.1152
任	-10.1152
何用	-10.1156
云何對治	-10.1157
露	-10.1165
正義	-10.1165
醫	-10.1166
不可知	-10.1167
明何義	-10.1168
營	-10.117
於一切	-10.117
熱惱	-10.1171
疲	-10.1173
何法	-10.1179
樂受	-10.1181
出興	-10.1181
為自	-10.1184
所依故	-10.1187
如實修行	-10.1196
身口	-10.1198
攝故	-10.1198
不能得	-10.1204
體中	-10.1207
餘人	-10.1213
象王	-10.1219
不極成	-10.1219
是知	-10.122
不亂	-10.1221
二智	-10.1246
貪等	-10.1246
諸善	-10.1248
飯	-10.126
因緣分	-10.1262
轉變	-10.1262
竪	-10.1262
是實	-10.1266
罵	-10.1267
違自	-10.1284
不遣	-10.1285
猶未	-10.1288
正道	-10.1291
前中	-10.1294
俱行	-10.13
四門	-10.1303
利樂	-10.1303
仙	-10.1306
電	-10.1306
六道	-10.1308
心動	-10.1311
應云	-10.1313
如鏡	-10.1315
實智	-10.1315
生疑	-10.1316
有五種	-10.1318
勤勇無間所發	-10.1327
察	-10.1329
功用	-10.1334
漸次	-10.1338
真智	-10.1345
必須	-10.1346
理智	-10.1348
有多	-10.1351
於此中	-10.1352
汝等	-10.1371
註	-10.1371
族	-10.1375
閉	-10.1376
善業	-10.138
此解	-10.1387
五意	-10.139
諸功德	-10.1401
我於	-10.1403
廣如	-10.1404
【	-10.1406
8)	-10.1408
5)	-10.141
7)	-10.1414
令眾生	-10.1414
依正	-10.1415
非但	-10.1416
起故	-10.1422
諸外道	-10.1426
各攝	-10.143
我我所	-10.1434
即得	-10.1439
勝妙	-10.144
廣略	-10.1445
色身	-10.1448
4)	-10.1449
遍知	-10.1458
悟他	-10.1458
諸如來	-10.1461
法華	-10.1466
修多羅中	-10.1468
辟支佛	-10.1473
天王	-10.1474
不唯	-10.1475
i	-10.1479
江	-10.148
可以	-10.1482
智障	-10.1483
所別不成	-10.1483
臭	-10.1485
狂	-10.1487
心生滅門	-10.1491
不改	-10.1492
能別不成	-10.1492
以是義故	-10.1495
若在	-10.1497
一切有情	-10.1501
或現	-10.1501
有一實	-10.1502
細分	-10.1502
立為	-10.1503
6)	-10.151
施設	-10.1512
立聲	-10.1512
修善	-10.1516
雜亂	-10.1519
起行	-10.1523
動作	-10.1525
有十種	-10.1529
實德業	-10.1535
此過	-10.1538
姓	-10.1538
國王	-10.1543
三德	-10.1551
意樂	-10.1559
淨土	-10.1567
真如體	-10.1567
有相	-10.1577
2)	-10.1577
以離	-10.1582
十解	-10.1584
余	-10.1585
如有	-10.1587
於空	-10.1588
飾	-10.1589
信根	-10.1591
用故	-10.1591
善友	-10.1595
名究竟覺	-10.1598
九句	-10.16
以前	-10.1605
心滅	-10.1608
言無	-10.1612
若我	-10.1623
名義	-10.1625
非直	-10.1628
出入	-10.163
自宗	-10.1642
似立	-10.1643
賢聖	-10.1645
令諸眾生	-10.1647
唯依	-10.1649
俱時	-10.1656
中有三	-10.1664
法藏	-10.1674
舉喻	-10.1681
故經云	-10.1682
兔	-10.1685
畢	-10.1694
璃	-10.1695
法喻	-10.1702
了別	-10.1705
非因	-10.1707
用熏習	-10.1708
為能立	-10.1708
臥具	-10.171
非所作	-10.1715
1)	-10.1719
六句	-10.1721
手足	-10.1723
人中	-10.1726
斷滅	-10.1727
修觀	-10.173
應作	-10.1735
散壞	-10.174
隨心	-10.1742
四分	-10.1743
以無明	-10.1743
智礙	-10.1744
有人言	-10.1754
云何得	-10.1754
太	-10.177
為其	-10.1786
及以	-10.1787
多聞	-10.1789
六麤	-10.1793
9)	-10.1804
大慧	-10.1809
荅	-10.1812
傷	-10.1815
爛	-10.1816
圓覺	-10.1818
猗	-10.1821
初重	-10.1831
隨一不成	-10.1833
十九	-10.1838
然則	-10.1845
未入	-10.1851
而巳	-10.1855
以真如	-10.186
初中言	-10.1862
之處	-10.1864
性者	-10.1876
一卷	-10.1879
無學	-10.188
覺心	-10.1886
摩尼	-10.1898
決定相違	-10.1899
無常宗	-10.19
吒	-10.1904
人我見	-10.1906
頌中	-10.191
自證	-10.1911
伸	-10.1916
亦云	-10.1917
步	-10.1919
?	-10.1919
能離	-10.1922
競	-10.1923
佛所	-10.1923
諸經	-10.1923
潔	-10.1924
拘	-10.1928
睡眠	-10.1931
前四	-10.1932
佛菩薩	-10.1932
事故	-10.1937
對法	-10.1955
是所	-10.1959
無色界	-10.196
反流	-10.1964
是前	-10.1966
大意	-10.1972
能化	-10.1972
全體	-10.1977
二分	-10.1979
愍	-10.199
為如	-10.1997
3)	-10.1998
為同喻	-10.1998
不思議業相	-10.2002
總有	-10.2002
餘皆	-10.2003
若此	-10.2008
是處	-10.2009
自性清淨	-10.201
寫	-10.2019
固	-10.2026
星	-10.2026
疊	-10.2029
不離眼識	-10.203
亦為	-10.203
般若波羅蜜	-10.2032
晝夜	-10.2033
當得	-10.2034
樓	-10.2036
諸比丘	-10.2039
賤	-10.204
在於	-10.2042
灰	-10.2042
餘法	-10.2043
隨染本覺	-10.2047
關	-10.2052
所許	-10.2053
不聞	-10.2055
豈不	-10.2055
攀緣	-10.206
有大	-10.2061
名相	-10.2065
若汝	-10.2065
承事	-10.2066
楞伽云	-10.207
華嚴云	-10.2074
章門	-10.2086
護法	-10.2086
方名	-10.209
滅壞	-10.2101
此經	-10.212
往生	-10.2121
執取	-10.2122
熏習真如	-10.2127
臥	-10.2135
如大	-10.2141
見彼	-10.2146
賢首	-10.2147
若欲	-10.2148
統	-10.2148
不善法	-10.2148
分別發趣道相	-10.2149
冤	-10.2154
果故	-10.2156
相滅	-10.2159
煖	-10.216
宗過	-10.216
白佛言	-10.2163
般若波羅蜜多	-10.2166
釋前	-10.2167
無智	-10.2171
能示	-10.2173
不轉	-10.2175
如夢	-10.2177
都盡	-10.218
淨德	-10.2188
威	-10.2192
初約	-10.2196
不求	-10.2197
萬法	-10.2202
此位	-10.2205
真覺	-10.2205
散心	-10.2207
神我	-10.2208
更生	-10.221
異法喻	-10.2221
因義	-10.2222
一因	-10.2223
直心	-10.2229
執取相	-10.223
眾苦	-10.223
萬由旬	-10.2237
無可	-10.2237
若彼	-10.2238
十信位	-10.2239
離心	-10.224
臣	-10.2241
心數	-10.2242
應觀	-10.2243
宗體	-10.2246
反顯	-10.2249
因緣和合	-10.2258
同異性	-10.226
不守自性	-10.2261
途	-10.2262
敢	-10.2266
等事	-10.2268
澄	-10.2269
汎	-10.227
遺	-10.227
有所作	-10.227
男	-10.2272
三賢位	-10.2275
隨其所應	-10.2276
大乘者	-10.2278
愁	-10.2278
之功	-10.2283
所立法	-10.2284
隨念	-10.2287
不欲	-10.2294
有因	-10.2297
無明所起	-10.2299
已生	-10.2303
品類	-10.2312
登	-10.2313
疏文	-10.2327
二礙	-10.2334
結前	-10.2334
慈心	-10.2334
然於	-10.2343
不思議業	-10.2353
初心	-10.2361
毗	-10.2365
其名	-10.2366
生處	-10.2369
惟	-10.2376
累	-10.2378
為我	-10.2378
適	-10.2381
解行發心	-10.2394
往來	-10.2406
覺悟	-10.2407
軌則	-10.2412
有別	-10.2413
不達	-10.2416
以上	-10.2418
中生	-10.2419
其實	-10.2422
9	-10.2428
疑云	-10.2429
三自	-10.2433
之與	-10.2435
能見相	-10.2441
初後	-10.2444
昧	-10.2458
為苦	-10.2463
似能破	-10.2464
緣者	-10.2467
建	-10.2476
若為	-10.2477
摧	-10.2478
無所得	-10.2478
此二義	-10.2478
異也	-10.2482
九地	-10.2486
二種門	-10.2497
公	-10.25
講	-10.25
覺與不覺	-10.2504
二別	-10.2505
貧窮	-10.2506
立因	-10.2513
乞食	-10.2516
糞	-10.2516
空華	-10.2518
初發心	-10.252
即真	-10.252
其數	-10.2522
略明	-10.2528
染相	-10.2531
二識	-10.2537
為正	-10.2538
俱不	-10.2544
當說	-10.2547
作者	-10.2552
三十三	-10.2553
下文云	-10.2554
自下第二	-10.2557
亦通	-10.2558
問云何以	-10.2559
心心所	-10.2564
牟尼	-10.2564
無染	-10.2568
本來無	-10.2575
為令	-10.2575
不必	-10.258
希有	-10.258
無常性	-10.2585
由無明	-10.2585
之門	-10.2586
應是	-10.2589
見色	-10.2592
一識	-10.2595
所問	-10.2606
義中	-10.2609
如如	-10.2616
地中	-10.2619
為同品	-10.262
險	-10.2629
弱	-10.263
智也	-10.2632
皆空	-10.2637
云何為五	-10.2637
立聲無常	-10.2645
疏二	-10.265
於真如	-10.2651
六麁	-10.2652
能解	-10.2654
意根	-10.2654
巳去	-10.2656
立量云	-10.2671
佛子	-10.2675
謂以	-10.2682
不令	-10.2691
非作	-10.2691
應言	-10.2694
離分別	-10.2697
敵論	-10.2698
罪福	-10.2706
既有	-10.2711
不能自	-10.2715
離垢	-10.2718
雖多	-10.2732
上說	-10.2733
二一	-10.2739
真俗	-10.2739
不行	-10.2741
幽	-10.2741
堪任	-10.2745
言陳	-10.2746
懈	-10.2747
如上說	-10.2747
今約	-10.2749
鬼神	-10.275
臨	-10.275
垂	-10.2751
獸	-10.2753
寒	-10.2755
毀謗	-10.2755
修行信心	-10.2755
圓融	-10.2756
答中	-10.2756
宿命	-10.2759
無有是處	-10.2759
跋	-10.2761
初正	-10.2769
夢中	-10.2769
明鏡	-10.2778
中亦有	-10.2779
佛告	-10.2779
過恒沙	-10.278
此論中	-10.2784
獄卒	-10.2796
真空	-10.2797
皆因	-10.2802
不到	-10.2804
隨滅	-10.281
善心	-10.2814
故釋曰	-10.2815
不斷絕	-10.2815
理故	-10.2826
以下明	-10.2827
眾生界	-10.2828
修慧	-10.2829
舉因	-10.2831
願力	-10.2833
無定	-10.2834
歸依	-10.2837
聞慧	-10.2838
內心	-10.2839
遍無	-10.285
然其	-10.2856
惡口	-10.2857
馱	-10.2858
伴	-10.2862
攝論	-10.2862
堂	-10.2863
心之	-10.2863
欣	-10.2868
真似	-10.2868
油	-10.287
云何名	-10.2875
授記	-10.2887
圓覺云	-10.2887
山王	-10.2888
發生	-10.289
大悲心	-10.2895
別記	-10.2901
等中	-10.2902
希	-10.2903
離妄	-10.2905
佛道	-10.2913
前陳	-10.2914
其人	-10.2915
下別釋	-10.2916
前之	-10.292
成道	-10.2925
波羅蜜多	-10.2927
唯此	-10.2929
現比	-10.2929
謂之	-10.2947
若聞	-10.2956
宗依	-10.2967
通別	-10.2968
即指	-10.297
佛寶	-10.2971
不相應心	-10.2973
為作	-10.2979
學人	-10.2982
差別緣	-10.2983
拂	-10.2985
上品	-10.2987
應非	-10.2989
不增不減	-10.2993
h	-10.2993
綱	-10.2995
辯才	-10.2997
飢	-10.3002
所變	-10.3008
知一切法	-10.3009
及餘	-10.3014
迷真	-10.3017
珍寶	-10.302
大苦	-10.3023
人民	-10.3023
所乘	-10.3024
是故名為	-10.3028
頭陀	-10.3032
善巧	-10.3037
能善	-10.3038
以此義故	-10.3039
一異	-10.3044
平等平等	-10.3045
功力	-10.3045
本質	-10.3047
其本	-10.3054
即心	-10.3058
不成因	-10.3069
增減	-10.3071
能說	-10.3071
三結	-10.3074
句義	-10.3074
本空	-10.3074
念處	-10.3082
咎	-10.3088
十二因緣	-10.309
如是已說	-10.3092
自知	-10.3097
法身菩薩	-10.3101
諸位	-10.3103
心不相應	-10.311
一約	-10.3111
船	-10.3112
名利	-10.3116
柔軟	-10.3122
淨信	-10.3124
二十五	-10.3124
王所	-10.3124
無能所	-10.3125
作如是	-10.3126
違他	-10.3127
以知	-10.3128
佉	-10.3128
起於	-10.3131
阿含	-10.3134
始本	-10.3135
示義	-10.3138
若云	-10.3147
三有	-10.3151
計名字相	-10.3153
或說	-10.3157
義門	-10.3158
雖說	-10.3162
身命	-10.3165
又佛	-10.3165
方能	-10.317
聲是無常	-10.3173
質礙	-10.3176
非非	-10.3178
斷故	-10.3191
勝故	-10.3192
所引	-10.3193
皆應	-10.3194
一切功德	-10.3197
形色	-10.3201
教化	-10.3211
是名為三	-10.3214
不至	-10.3218
因於	-10.3224
法自相相違	-10.3235
三際	-10.3235
隨分	-10.3242
是義	-10.3244
業等	-10.3244
幢	-10.3247
名如來藏	-10.3248
錄	-10.3248
是我	-10.325
福田	-10.3252
得定	-10.3253
是故應	-10.3254
行成	-10.3254
便成	-10.3255
宗之	-10.3255
推求	-10.3262
淺深	-10.3262
此難	-10.3264
忽然	-10.3268
勢力	-10.3274
諸論	-10.3275
是明	-10.328
相依	-10.3289
資熏	-10.3289
電等	-10.33
經文	-10.3305
有八	-10.3306
起時	-10.3309
此非	-10.331
能滅	-10.3316
是故說言	-10.3321
立聲常	-10.3322
始教	-10.3322
謂前	-10.3323
大性	-10.3328
頌云	-10.3329
化度	-10.3335
復言	-10.3342
五位	-10.3343
假立	-10.3346
三禪	-10.3357
名為法身	-10.3357
修學	-10.3357
熏義	-10.3361
彼人	-10.3363
誓	-10.3365
如是巳說	-10.3373
之一字	-10.3378
牒前	-10.3381
右	-10.3381
圍繞	-10.3382
悲智	-10.3383
如立	-10.3383
乏	-10.3385
缺減	-10.3385
斫	-10.3386
孔	-10.3387
積集	-10.3388
今論	-10.339
聚集	-10.3395
腹	-10.3396
真識	-10.3396
重釋	-10.3398
亦無有	-10.3402
理無	-10.3403
千歲	-10.3408
作是念	-10.3409
不名為	-10.3413
二諦	-10.3416
梵王	-10.3422
相資	-10.3424
無上道	-10.3427
命根	-10.3428
熏習義	-10.3443
俱轉	-10.3446
雖是	-10.3448
已竟	-10.3452
果位	-10.3456
違順	-10.3464
經言	-10.3476
得菩提	-10.3485
罪業	-10.3489
人空	-10.3492
行也	-10.3494
我心	-10.3496
真如理	-10.35
正是	-10.3501
羅漢	-10.3501
有緣性	-10.3508
昏	-10.3509
鈔	-10.3513
位地	-10.3513
術	-10.3515
響	-10.3516
追	-10.3517
所作因	-10.3519
芽	-10.3522
解脫門	-10.3523
大種	-10.3523
各異	-10.3525
無為法	-10.3529
哆	-10.353
法施	-10.3533
如法	-10.3541
行苦	-10.3541
一剎那	-10.3544
亦如上說	-10.355
釋相	-10.355
邪行	-10.3551
又二初	-10.3555
一類	-10.3564
能障	-10.3567
思慧	-10.3572
我為	-10.3575
重罪	-10.3577
終教	-10.358
皆是無常	-10.358
理門論	-10.3581
諸波羅蜜	-10.3593
唯一心	-10.3599
應有	-10.3613
若就	-10.3613
貪瞋	-10.3614
佛經	-10.3619
邪道	-10.362
応	-10.362
初學	-10.3621
因此	-10.3622
而住	-10.3622
意意識	-10.3624
最極	-10.3625
知之	-10.3625
既云	-10.3625
久住	-10.3627
更不	-10.3627
根性	-10.3627
亦以	-10.3627
立論	-10.3629
恐怖	-10.3629
域	-10.3634
市	-10.3634
顯因	-10.3636
悲心	-10.3637
恚	-10.3638
榮	-10.364
門有二初結指	-10.3642
釋摩訶衍論	-10.3642
心與	-10.3642
閑	-10.3643
諸陰	-10.3644
雙運	-10.3646
人執	-10.3648
梁	-10.3648
博	-10.365
生解	-10.3651
普賢	-10.3652
非有非無	-10.3652
一音	-10.3653
臂	-10.3653
流通	-10.3655
等過	-10.3657
正宗	-10.3662
明淨	-10.3663
萬物	-10.3669
初住	-10.3671
四位	-10.3677
俗諦	-10.369
超過	-10.3698
執相	-10.3699
他宗	-10.3702
一性	-10.3713
王數	-10.3713
正意	-10.372
愛著	-10.3735
自作	-10.3736
現身	-10.3745
前五	-10.3749
智故	-10.375
或時	-10.3758
擇	-10.3758
從初	-10.3762
無心	-10.3766
真如是	-10.3772
箭	-10.3774
勸修利益分	-10.3774
注	-10.3775
啟	-10.3777
但名	-10.3777
驚	-10.3778
其性	-10.3779
之身	-10.378
發願	-10.3784
華嚴經	-10.3785
阿僧祇	-10.3785
為說	-10.3785
為異品	-10.3792
滿足方便	-10.3797
爭	-10.38
體相用	-10.3801
差別之相	-10.3802
攝持	-10.3808
大劫	-10.3828
自力	-10.3834
樹下	-10.3843
諸色	-10.3843
難曰	-10.3845
中陰	-10.3852
初顯	-10.3852
無別異	-10.3857
不相離故	-10.3865
世人	-10.3874
不存	-10.3882
德相	-10.3888
妄境界	-10.3889
一切如來	-10.3891
瑜伽論	-10.3893
文字	-10.3895
西方	-10.3896
惹	-10.3897
眾寶	-10.3897
即滅	-10.3907
心真如門	-10.3911
盧	-10.3912
無法	-10.3913
旋	-10.3914
包	-10.3914
神呪	-10.3915
初三攝	-10.3916
謝	-10.3916
畫	-10.3917
惜	-10.3919
所由	-10.3925
而現	-10.3928
除疑	-10.3932
初牒	-10.3932
如實不空	-10.3933
法界一相	-10.3935
信成就發心	-10.3935
能有	-10.3937
為異	-10.3938
唯除	-10.3943
是色	-10.3946
名相違	-10.395
異類	-10.3954
各具	-10.3959
在家	-10.3963
為性	-10.3964
位故	-10.3964
無緣	-10.3964
無所依	-10.3965
相違過	-10.3971
則於	-10.3971
風相	-10.3972
身口意	-10.3977
難得	-10.3983
天主	-10.3983
覺體	-10.3989
理實	-10.3991
德業	-10.3992
日夜	-10.3993
異名	-10.3998
彼論	-10.3998
圓教	-10.4004
所須	-10.4005
似宗	-10.4023
此句	-10.4023
一千	-10.4024
豈可	-10.4026
一名	-10.4029
顯真	-10.4034
所應	-10.4036
移	-10.4039
除滅	-10.4041
餘二	-10.4041
崇	-10.4042
婬	-10.4045
如來藏者	-10.4047
以對	-10.4048
隨他	-10.4048
樂求涅槃	-10.4049
析	-10.405
盡於未來	-10.4052
欲顯	-10.4053
浴	-10.4054
伎	-10.4054
瓔	-10.4054
第三句	-10.4054
遭	-10.4056
煙	-10.4059
竭	-10.4061
後義	-10.4061
走	-10.4061
合本	-10.4063
法義	-10.4064
餓鬼	-10.4064
彼說	-10.4065
鍵	-10.407
則生	-10.4075
而已	-10.4078
信心成就	-10.4079
增益	-10.4079
我法	-10.408
地地	-10.4081
悲願	-10.4083
一萬劫	-10.4083
約法	-10.4088
之色	-10.4094
隨相	-10.4096
不修	-10.4097
二云	-10.4097
真能立	-10.4097
壽量	-10.4099
又諸	-10.41
塔	-10.41
不別	-10.4111
有餘	-10.4117
種姓	-10.4118
字事	-10.4119
妙覺	-10.4119
業果報	-10.4121
等覺	-10.4125
因三相	-10.4131
實法	-10.4143
根本智	-10.4144
生滅之相	-10.4144
t	-10.4145
苦者	-10.4146
勝鬘	-10.415
因位	-10.4155
聖教	-10.4155
無質礙故	-10.4157
全分	-10.4163
身分	-10.4165
有無量	-10.4166
典	-10.4172
觀智	-10.4173
身中	-10.4174
得住	-10.4174
第二禪	-10.4182
種智	-10.4186
薩埵	-10.419
而知	-10.4192
圓明	-10.4193
波浪	-10.4194
輩	-10.4195
參	-10.4197
音樂	-10.4198
校	-10.4198
攬	-10.4198
仗	-10.4199
覺心初起	-10.42
丈夫	-10.4202
務	-10.4203
醜	-10.4209
急	-10.421
演說	-10.4215
勝行	-10.4218
不受	-10.4223
無所有處	-10.4224
言語	-10.4225
斷惑	-10.4233
於一切時	-10.4233
熏真如	-10.4235
如瓶等	-10.4239
緣覺	-10.4243
愛欲	-10.4247
如來地	-10.4248
而亦	-10.425
相望	-10.4254
八萬	-10.4259
起念	-10.4261
得果	-10.4267
人身	-10.4269
釋論	-10.4274
未至	-10.4274
合說	-10.4277
不可以	-10.429
一乘	-10.429
自悟	-10.4294
成辦	-10.4295
水相	-10.4299
為勝	-10.43
結指	-10.4302
起用	-10.4302
若作	-10.4309
那先問王	-10.4324
掌	-10.4325
嚕	-10.4328
執相應染	-10.4331
遲	-10.4333
料揀	-10.4335
錯	-10.4338
慚	-10.4338
問若	-10.4338
貌	-10.4339
割	-10.4339
欲明	-10.4341
草木	-10.4342
某	-10.4342
若不爾者	-10.4344
佛土	-10.4348
出過	-10.435
立我	-10.4351
二名	-10.4352
薪	-10.4353
枝末	-10.4364
同於	-10.4369
則成	-10.4369
準此	-10.4373
不愛	-10.4373
萬德	-10.4376
所以也	-10.4381
乃至廣說	-10.4387
以智	-10.4394
因緣生	-10.4396
由前	-10.4396
智了	-10.4407
惡人	-10.4407
今說	-10.4416
自念	-10.4419
此有	-10.442
則應	-10.4436
次顯	-10.4444
海中	-10.4449
於宗	-10.4455
故說名	-10.4455
令生	-10.4456
若非	-10.4464
釋中	-10.4464
於諸法	-10.4469
假說	-10.447
點	-10.4477
擔	-10.4479
頗	-10.4482
斥	-10.4482
屈	-10.4483
乃得	-10.4486
非定	-10.449
千由旬	-10.4493
各自	-10.4494
止息	-10.4495
梵語	-10.4502
今此論中	-10.4503
望於	-10.4506
不成就	-10.4511
屬於	-10.4511
十由旬	-10.4511
常樂	-10.4514
願諸眾生	-10.4519
上文云	-10.453
設有	-10.4535
此五	-10.4537
舉數	-10.4542
三品	-10.4544
止觀門	-10.4546
境也	-10.4553
色聲	-10.4553
至此	-10.456
一萬	-10.4561
意明	-10.4562
惡法	-10.4565
一日	-10.4577
於身	-10.4578
似喻	-10.4578
若知	-10.458
後說	-10.4588
初生	-10.459
問此	-10.4592
本一	-10.4592
所求	-10.4594
十行	-10.4594
難也	-10.4597
起業相	-10.46
實體	-10.4609
數數	-10.4609
淳	-10.4613
入於	-10.4616
鑒	-10.462
植	-10.4622
乍	-10.4625
洗	-10.4626
不許有	-10.4626
禮拜	-10.4627
舍利弗	-10.4627
我亦	-10.4628
厚薄	-10.4629
羊	-10.463
菓	-10.4631
法我見	-10.4631
夏	-10.4633
樂等	-10.4633
託	-10.4634
門也	-10.4634
難言	-10.4634
渡	-10.4635
僕	-10.4635
附	-10.4637
海水	-10.4638
以法	-10.4642
厭生死苦	-10.4645
為根本	-10.4646
若望	-10.4649
異義	-10.465
不由	-10.4653
亦空	-10.4656
之旨	-10.4658
謂如來藏	-10.4663
能與	-10.4665
修定	-10.4665
體非	-10.4667
十卷	-10.4677
色像	-10.4681
圓音	-10.4681
且約	-10.4683
則不能	-10.4684
歸本	-10.4694
實義	-10.4695
大慈悲	-10.4695
所示	-10.4695
真如平等	-10.4705
摩訶衍法	-10.471
同法喻	-10.4713
與眾生	-10.4714
勝進	-10.4715
便是	-10.4717
令知	-10.4722
得有	-10.4725
亦成	-10.4732
永不	-10.4733
故稱	-10.4737
難知	-10.4738
則非	-10.474
合結	-10.4743
起諸	-10.4744
善說	-10.4745
時彼	-10.4753
圓成	-10.4753
隨機	-10.4754
信有	-10.4755
意言	-10.4756
十力	-10.476
眾緣	-10.4762
仙人	-10.4772
中實	-10.4772
金銀	-10.4778
州	-10.4778
應審觀察	-10.4779
式	-10.478
惡心	-10.4781
不礙	-10.4784
眾善	-10.4786
神力	-10.4787
聖智	-10.4788
憂惱	-10.4792
蔽	-10.4792
恃	-10.4795
不絕	-10.4803
依何	-10.4805
有二意	-10.4809
大智慧光明義	-10.4811
下二句	-10.4816
非他	-10.4816
一念相應	-10.4817
量果	-10.4824
具足圓滿	-10.4831
分三	-10.4834
增上緣	-10.4836
受身	-10.4838
八門	-10.4843
而常	-10.4854
一切種智	-10.4862
之業	-10.4863
成事	-10.4863
二地	-10.4865
能止	-10.4871
空故	-10.4872
道路中	-10.4879
之失	-10.488
如瓶	-10.4892
是名為二	-10.4901
如來法身	-10.4901
平等無二	-10.4901
四方	-10.4908
幻化	-10.4913
轉現	-10.4916
之德	-10.4919
佛所說	-10.4919
薰習	-10.492
性也	-10.4923
涉	-10.4925
預	-10.4929
昇	-10.493
般涅槃	-10.4933
每	-10.4934
枯	-10.4934
兵	-10.4935
即生	-10.4936
陽	-10.4937
曇	-10.4937
是故當知	-10.4941
同故	-10.4941
不可見	-10.4942
當觀	-10.4949
染污	-10.4955
佛心	-10.496
非過	-10.4962
外有	-10.4964
三中	-10.4967
表示	-10.4971
讀誦	-10.4976
得大	-10.4976
能發	-10.4977
議	-10.4987
有四一	-10.4988
此依	-10.4994
五意中	-10.4997
即明	-10.4997
別體	-10.4999
遍計	-10.4999
雖未	-10.5001
相離	-10.5002
非如	-10.5018
分別者	-10.5026
能遮	-10.5028
復更	-10.5032
問意	-10.5034
觀行	-10.5039
入定	-10.5039
佛塔	-10.504
利益眾生	-10.5047
即以	-10.5052
正受	-10.5053
賀	-10.5062
得見	-10.5064
剖	-10.5077
階	-10.5079
又由	-10.5081
干	-10.5083
識相	-10.5085
者問	-10.5085
杖	-10.5089
邪定聚	-10.509
嫉	-10.5093
𨷂	-10.5095
聚落	-10.5099
雙非	-10.5102
是故下	-10.5103
本覺隨染	-10.5103
無厭	-10.5108
意者	-10.5109
信行	-10.5115
如是說	-10.5121
數論師	-10.5132
大慈	-10.5133
該攝	-10.5137
復以	-10.5143
絕言	-10.5143
發心修行	-10.5147
諸魔	-10.5149
悟入	-10.515
如疏	-10.515
有法差別	-10.5152
文也	-10.5154
四不成	-10.5165
總體	-10.5166
斷見	-10.5169
由有	-10.5169
僧寶	-10.5172
心生滅	-10.5177
然彼	-10.5183
破他	-10.5184
今就	-10.5191
空空	-10.5195
生天	-10.5202
別名	-10.5214
熏力	-10.5215
珍	-10.5217
解者	-10.5218
所諍	-10.5219
境相	-10.5229
能入門	-10.5231
覺不覺	-10.5231
譏	-10.5235
嫌	-10.5237
顧	-10.5237
菩提分	-10.5238
耀	-10.5242
如風	-10.5242
慈氏	-10.5243
延	-10.5243
未知	-10.5245
非想非非想	-10.5246
富貴	-10.5247
無動	-10.5248
妄有	-10.5257
合掌	-10.5258
摩羅	-10.526
躡前	-10.5261
無始無明	-10.5261
彼岸	-10.5261
或云	-10.5261
既非	-10.5267
嚤	-10.5268
此三種	-10.5274
第四句	-10.5277
不及	-10.5281
之道	-10.5285
量故	-10.5292
道諦	-10.5297
此量	-10.53
次言	-10.5301
二行	-10.5309
始從	-10.5312
空觀	-10.5313
無差別故	-10.5321
初三	-10.5321
輪轉	-10.5327
釋頌	-10.5333
通名	-10.5335
中作如是說	-10.5337
具三相	-10.5341
信受	-10.5351
即應	-10.5354
民	-10.5362
四住	-10.5365
但依	-10.5366
苦滅	-10.5371
百年	-10.5381
其理	-10.5382
非一異	-10.5383
停	-10.5392
無處	-10.5394
鏡中	-10.5396
如是觀	-10.5398
曠	-10.5402
計我我所	-10.5402
淨心地	-10.5404
得無念	-10.5409
麻	-10.5409
此定	-10.5416
理門論云	-10.5419
所不能	-10.542
於餘	-10.5426
異品遍無	-10.5426
相違故	-10.5427
初起	-10.543
因緣具足	-10.5431
以喻	-10.5433
鄔	-10.5434
所樂	-10.5444
虛空界	-10.5444
作是說	-10.5452
妙樂	-10.5459
覺照	-10.5461
之內	-10.5462
佛為	-10.5476
本具	-10.5476
門法	-10.5481
處所	-10.5487
為難	-10.5494
堪能	-10.5498
皆名為	-10.5507
依因	-10.5522
大力	-10.5528
向上	-10.5532
名不成	-10.5534
尚不	-10.5545
六相	-10.5548
覽	-10.555
不久	-10.555
無常性故	-10.555
擬	-10.5556
括	-10.5558
今世	-10.556
載	-10.556
迹	-10.5561
給	-10.5564
豎	-10.5565
生滅心	-10.5565
憑	-10.5565
體同	-10.5568
皆能	-10.5569
童子	-10.5571
根本不覺	-10.5571
阿僧祇劫	-10.5575
裂	-10.5575
唯識論	-10.558
脩習	-10.558
義准	-10.5581
對彼	-10.5581
施與	-10.5583
行願	-10.559
合成	-10.559
所聞性因	-10.5591
無數劫	-10.5591
開章	-10.5591
勝緣	-10.5594
由斯	-10.5597
初正釋	-10.5598
本來平等	-10.56
無礙自在	-10.5604
他受用	-10.5608
相見	-10.5608
辦	-10.5613
之位	-10.5615
事業	-10.5615
非勤勇無間所發	-10.5617
作釋	-10.5632
夫人	-10.5639
生苦	-10.5641
無明者	-10.5641
受諸	-10.5642
一切世界	-10.5647
相隨	-10.5654
非我	-10.5664
後二相	-10.5666
相攝	-10.5668
無質礙	-10.5674
應觀察	-10.5674
論意	-10.5681
信者	-10.5688
諸教	-10.5689
分離	-10.569
体	-10.5696
義相	-10.5697
地界	-10.5701
生死涅槃	-10.5708
水火	-10.5711
信等	-10.5712
因法	-10.5714
曼	-10.5715
永斷	-10.5715
是故我	-10.572
率	-10.5721
均	-10.5721
厭患	-10.5722
禁	-10.5722
削	-10.5723
了義	-10.5723
祕密	-10.5725
頂禮	-10.5725
主宰	-10.5725
霧	-10.5726
実	-10.5727
擲	-10.5728
是故說	-10.5728
十方世界	-10.573
則無有	-10.573
付	-10.573
不同故	-10.5732
三合	-10.5734
鳩	-10.5735
懼	-10.5736
邑	-10.5737
何以知之	-10.5737
性空	-10.5739
四攝	-10.5741
云何為十	-10.5744
當體	-10.5757
諸染	-10.5758
開悟	-10.5761
諸塵	-10.5761
其義云何	-10.5765
得罪	-10.5766
波羅	-10.5771
邊際	-10.5774
法執分別	-10.5776
不放逸	-10.5777
▁「	-10.578
是故一切法	-10.5784
無形相	-10.5788
身見	-10.579
苦受	-10.5791
大乘法	-10.5792
難可	-10.5794
不退轉	-10.5802
實際	-10.5817
即知	-10.5825
證真如	-10.5829
初標徵	-10.583
諸境	-10.5835
皆具	-10.5837
違宗	-10.5865
薩婆多	-10.5882
業繫苦相	-10.5884
謂眾生心	-10.5885
阿蘭若	-10.5886
能分別	-10.5892
淨名云	-10.5893
非色	-10.5893
閻浮提	-10.5894
受想行識	-10.5896
真如性	-10.5897
阿賴耶識	-10.59
廣顯	-10.5903
惑業	-10.5905
楞嚴云	-10.5906
已上	-10.5907
此為	-10.5911
百由旬	-10.5912
義不然	-10.5913
而言之	-10.5914
信力	-10.5915
无常	-10.5916
滅相續心	-10.5916
之源	-10.5918
細相	-10.5923
頓教	-10.5928
可遣	-10.5932
巳前	-10.5935
二十四	-10.5937
說偈	-10.5941
謂離	-10.5946
如實空	-10.595
有法自相相違	-10.5951
一者明	-10.5951
上云	-10.5954
別開	-10.5954
對前	-10.5956
之果	-10.5959
滑	-10.5959
道中	-10.5963
念法	-10.5969
復何	-10.5969
既言	-10.5977
前際	-10.5978
其宗	-10.5987
真如相	-10.5993
下約	-10.5994
文可見	-10.5999
廣辨	-10.6007
不顯	-10.6011
大本	-10.6016
或是	-10.602
染淨法	-10.6029
身業	-10.6035
人法	-10.6036
動轉	-10.6043
楞嚴	-10.6045
因過	-10.6053
奇	-10.6056
奢	-10.6058
立破	-10.6058
柯	-10.606
e	-10.6061
抑	-10.6062
研	-10.6064
同彼	-10.6066
此亦不然	-10.6066
其事	-10.607
令入	-10.6075
汁	-10.6077
禮敬	-10.6078
出入息	-10.608
所知障	-10.6082
內因	-10.6086
無疑	-10.6087
」【	-10.6092
牟休多	-10.6096
初正明	-10.6097
而論	-10.6098
分為二	-10.61
始起	-10.6104
於如來	-10.6106
唱本	-10.6112
第三禪	-10.6114
劫中	-10.6121
正定聚	-10.6122
似能立	-10.6124
決斷	-10.6124
於世間	-10.6125
答云	-10.6125
非所聞	-10.6127
空無我	-10.6128
論宗	-10.6132
為依	-10.6133
身口業	-10.614
本文	-10.6143
第二相	-10.615
無終	-10.6152
之差別	-10.6156
重說	-10.616
能照	-10.6174
具說	-10.6183
諸染法	-10.6189
如火	-10.6189
依不覺故	-10.6193
如燈	-10.6194
外曰	-10.6197
祇	-10.6198
流出	-10.6199
今據	-10.6206
二乘人	-10.6209
上明	-10.6213
問言	-10.6214
受熏	-10.6217
苾芻	-10.6222
優婆塞	-10.6222
略標	-10.6223
證理	-10.6225
不思議變	-10.6226
體空	-10.6227
寔	-10.6227
後明	-10.6227
大菩提	-10.6228
酥	-10.6229
勅	-10.623
甘	-10.6231
滅度	-10.6231
靜慮	-10.6231
虎	-10.6232
揀擇	-10.6233
誤	-10.6234
蜜	-10.6234
生住異滅	-10.6236
蓮花	-10.6236
滯	-10.6237
御	-10.6238
荷	-10.6238
避	-10.624
諂	-10.6242
豈得	-10.6242
病苦	-10.6243
捉	-10.6243
偈頌	-10.6243
柱	-10.6244
於理	-10.6245
佛剎	-10.6245
齒	-10.6245
三慧	-10.6249
隱覆	-10.6249
性淨本覺	-10.625
出纏	-10.6252
若復	-10.6262
是名為十	-10.6263
眼所見	-10.6264
下釋成	-10.6264
許有	-10.6266
八相	-10.6269
十地菩薩	-10.6278
譬若	-10.6283
聞說	-10.6289
解了	-10.6291
意在	-10.6303
欲樂	-10.6308
隨轉	-10.631
隨彼	-10.6313
得成就	-10.6322
難思	-10.6323
聲常	-10.6328
無前後	-10.6328
二如是下	-10.6333
唯在	-10.6334
多少	-10.6342
上句	-10.6343
清淨本覺	-10.6345
今則	-10.6347
入正定聚	-10.6354
而復	-10.6355
七十	-10.6356
稱量	-10.6359
思擇	-10.6368
諸師	-10.6368
施戒	-10.6369
三大義	-10.6372
善修	-10.6372
修行者	-10.6384
生滅門內	-10.6387
業煩惱	-10.639
若許	-10.6393
眾生亦爾	-10.6397
鉢囉	-10.6398
者即此	-10.6402
譽	-10.6404
贊	-10.6404
故理門云	-10.6407
朝	-10.6408
屋	-10.6408
奴	-10.641
洞	-10.6412
第	-10.6416
耽	-10.6416
本覺內熏	-10.6416
無有增減	-10.6419
蘇	-10.642
充滿	-10.642
四無量	-10.642
嫉妬	-10.642
西瞿耶尼	-10.642
百億	-10.6422
婬欲	-10.6422
引經證	-10.6424
集諦	-10.6426
妄識	-10.644
娑婆	-10.6442
染緣	-10.6451
初言	-10.6459
善根增長	-10.6459
佛位	-10.6463
盡十方	-10.6463
度脫	-10.6465
彼文	-10.6469
揀異	-10.6471
能歸	-10.6474
二別釋	-10.6488
契經云	-10.6493
起動	-10.6496
進趣	-10.6502
況復	-10.6505
其意	-10.6506
本智	-10.6513
權實	-10.6513
不過	-10.6516
外塵	-10.6517
時分	-10.6518
四相違	-10.6519
將欲	-10.6521
六入	-10.6522
下句	-10.6536
八千	-10.6538
翻前	-10.6541
殺等	-10.6541
未必	-10.6545
今日	-10.655
緣境	-10.6553
己身	-10.6566
樂欲	-10.657
眼所不攝	-10.6576
瑟	-10.6577
所愛	-10.6579
玉	-10.6582
吾	-10.6585
為首	-10.6585
歌	-10.6587
河沙	-10.6588
所覆	-10.6589
衛	-10.659
超越	-10.659
蒙	-10.6591
塹	-10.6591
任持	-10.6592
施等	-10.6595
遍一切處	-10.6596
妻	-10.6598
釋名	-10.6603
解也	-10.6604
尸羅	-10.6614
識浪	-10.6624
之海	-10.6625
無斷絕	-10.6628
重重	-10.6635
下劣	-10.6638
下第三	-10.6638
不相離性	-10.664
濕性	-10.6659
初舉	-10.666
群生	-10.6665
別用	-10.6671
無明業相	-10.6672
若取	-10.6673
四信	-10.6682
五十由旬	-10.6691
有法自相	-10.6692
畜	-10.6702
非量	-10.6702
一法界心	-10.6705
能捨	-10.6706
復有二種	-10.6706
所入法	-10.6716
顯說	-10.6717
得度	-10.6719
若入	-10.6723
信成就	-10.6724
之識	-10.6725
攝末	-10.6732
真相	-10.6734
非理	-10.675
▁○	-10.6751
會通	-10.6754
其過	-10.6755
非餘	-10.6759
眾中	-10.676
稟	-10.6762
造種種業	-10.6763
重顯	-10.6763
信相應地	-10.6763
多分	-10.6764
戰	-10.6764
試	-10.6765
運載	-10.6765
夷	-10.6766
奧	-10.6766
有法上	-10.6768
天台	-10.6768
逢	-10.6769
敷	-10.6769
床	-10.677
塞	-10.677
所感	-10.677
履	-10.6771
勝義諦	-10.6772
游	-10.6772
王言善哉	-10.6772
客	-10.6773
撰	-10.6774
持業	-10.6774
哀	-10.6774
□□	-10.6775
自此已下	-10.6775
瞻	-10.6775
井	-10.6775
聲聞緣覺	-10.6775
以種種	-10.6776
離言說相	-10.6777
喧	-10.6777
兔角	-10.6778
燃	-10.6779
留惑	-10.6779
宅	-10.678
綺語	-10.6782
利鈍	-10.6784
不可破壞	-10.6788
大城	-10.679
不妨	-10.6794
近遠	-10.6795
徧計	-10.6804
所被	-10.6809
不正	-10.6809
其法	-10.681
地上菩薩	-10.6817
義邊	-10.6818
向下	-10.682
計我	-10.6826
靜處	-10.6831
終無	-10.6835
皆說	-10.6841
不能盡	-10.6841
答言	-10.6844
識處	-10.6857
見法身	-10.6859
必定	-10.6861
喻上	-10.6863
已成	-10.6865
能持	-10.6872
名一切種智	-10.6873
標釋	-10.6874
微塵數	-10.6877
不息	-10.6882
非有相	-10.6899
非唯	-10.6907
難陀	-10.691
攝取	-10.6912
比觀	-10.6913
是正因	-10.6916
聖法	-10.6927
捺	-10.6932
取境	-10.6935
彼天	-10.6938
無際	-10.6939
不苦不樂	-10.6942
五明	-10.6944
位位	-10.6946
後一句	-10.6946
明知	-10.6947
層	-10.695
創	-10.6952
製	-10.6952
鳴	-10.6953
更互	-10.6953
索	-10.6954
s	-10.6954
祕	-10.6955
策	-10.6955
總問	-10.6955
卿	-10.6956
三千大千世界	-10.6957
忉利天	-10.6957
舍利子	-10.6958
正辨	-10.6961
凡愚	-10.6962
本覺義	-10.6967
以辨	-10.6969
不墮	-10.697
不無	-10.697
婦	-10.6975
自教	-10.6979
此門中	-10.698
後二句	-10.6982
此亦如是	-10.6985
報業	-10.6986
因分	-10.6991
天下	-10.6996
此理	-10.7004
分際	-10.7009
見諦	-10.7012
契當	-10.7025
已還	-10.703
苦果	-10.7045
生老死	-10.7046
了達	-10.7047
之類	-10.705
能信	-10.7051
如經言	-10.7066
有為無為	-10.7067
所聞性故	-10.7072
墮於	-10.7074
唯一真如	-10.7074
但由	-10.7079
但舉	-10.7091
隨其所	-10.7093
受苦樂	-10.7094
名稱	-10.7097
無雜	-10.7098
約人	-10.7109
一事	-10.7114
四事	-10.7119
▁初總	-10.7121
補	-10.7131
喚	-10.7137
區	-10.7138
枝末不覺	-10.7139
伺察	-10.714
一一皆各各	-10.714
二巳說下	-10.7142
休	-10.7142
佛種不斷	-10.7142
纔	-10.7144
孤	-10.7145
彌勒	-10.7145
離心緣相	-10.7145
酒	-10.7146
愛取	-10.7146
牒章	-10.7147
得福	-10.7147
清淨心	-10.7147
詰	-10.7148
卑	-10.7148
豐	-10.7149
截	-10.7151
題目	-10.7152
伽陀	-10.7153
烏	-10.7154
唯立	-10.7155
逼惱	-10.7155
德句	-10.7155
熾然	-10.7157
鑽	-10.7158
今此文中	-10.7162
為異喻	-10.7165
言簡	-10.7165
金剛位	-10.7166
在纏	-10.7167
三百	-10.7177
靜心	-10.7179
經典	-10.718
四智	-10.7183
天女	-10.7194
而取	-10.7197
今云	-10.7198
上妙	-10.72
亦不得	-10.7201
已訖	-10.7201
愚者	-10.7206
第六識	-10.7219
大菩薩	-10.7223
勝德	-10.7227
初二句	-10.7231
耳識	-10.7232
比知	-10.7237
入真如門	-10.7237
量云	-10.7247
又解	-10.7248
俱不極成	-10.7249
慳貪	-10.725
不殊	-10.7253
初一句	-10.7254
對染	-10.7256
歸敬	-10.7257
應機	-10.7257
以是因緣	-10.7258
妄起	-10.7259
標列	-10.7262
言詞	-10.7267
違教	-10.7269
之機	-10.727
事識中	-10.7271
不成過	-10.7273
不共不定	-10.7285
發趣	-10.7285
四德	-10.7288
離性	-10.7308
從來	-10.7321
吹	-10.7324
隨妄	-10.7328
妻子	-10.733
空無為	-10.733
立聲為常	-10.733
陵	-10.7333
乃至菩薩究竟地	-10.7335
為欲現示	-10.7335
圍	-10.7335
幸	-10.7337
總顯	-10.7338
大宗地玄文本論	-10.7338
驚怖	-10.7341
詐	-10.7341
如來之藏	-10.7342
常恒不變	-10.7342
斧	-10.7344
臺	-10.7345
活	-10.7345
所言法者	-10.7348
飢渴	-10.7348
福報	-10.7349
湛然	-10.7349
殺害	-10.735
釋所以	-10.7351
入道	-10.7356
他用	-10.736
前解	-10.7366
謗法	-10.7368
信佛	-10.7369
造此論	-10.7371
離障	-10.7375
後時	-10.7389
指法	-10.7393
還歸	-10.7398
因滅	-10.7399
知足	-10.7407
不思	-10.741
總立	-10.7412
所謂下	-10.7417
不決定	-10.7418
疏主	-10.7427
可立	-10.743
雖同	-10.7436
第十地	-10.7445
若準	-10.745
之緣	-10.7452
契經說	-10.7453
豈有	-10.7455
依主	-10.7458
可取	-10.746
般	-10.7461
知識	-10.7464
有二義一	-10.7464
離一切相	-10.7466
陀那	-10.7469
自受用	-10.747
熏動	-10.747
取其	-10.7471
除遣	-10.7478
二利	-10.7484
退墮	-10.7484
須彌山	-10.7487
深廣	-10.7489
遍照	-10.7499
並皆	-10.7501
具德	-10.7506
五十一種	-10.7508
不能知	-10.7513
離染	-10.7516
入正理	-10.7518
煩惱業	-10.752
應審思擇	-10.7521
所緣境	-10.753
此識有二種義	-10.7531
過於恒沙	-10.7533
僧祇	-10.7534
自語相違	-10.7535
商	-10.7535
莖	-10.7535
適悅	-10.7535
八萬四千	-10.7536
諸趣	-10.7537
不離真如	-10.7539
恣	-10.754
筋	-10.7542
略示	-10.7543
從他	-10.7544
是時諸人	-10.755
乃能	-10.755
兩舌	-10.7553
無所不遍	-10.7559
是其常	-10.7561
通妨	-10.7564
作惡	-10.7566
廣大圓滿	-10.7567
一切佛法	-10.7576
墮地獄	-10.7577
畢竟平等	-10.7578
最為	-10.7585
無色定	-10.7588
如海	-10.7589
通用	-10.7591
實教	-10.7597
王復問	-10.7606
不消	-10.7611
一切下	-10.7615
與力	-10.7634
廣大心	-10.7635
故名真如	-10.7637
攝護	-10.7638
那先言人	-10.7645
今且	-10.7646
於一切眾生	-10.7647
世親	-10.7648
聞已	-10.7649
無病	-10.7649
高下	-10.7658
非愛	-10.7665
三輪	-10.7667
友	-10.7669
不淨觀	-10.7671
遂令	-10.7674
共成	-10.7677
何為	-10.7684
自共	-10.7685
修集	-10.7685
見佛身	-10.7686
能見能現	-10.7688
誦呪	-10.77
變作	-10.7709
旦	-10.7712
治障	-10.7713
還淨	-10.7714
至教	-10.7715
猒	-10.7718
無明不覺	-10.7725
相符極成	-10.7728
周迴	-10.7729
善根微少	-10.7729
n	-10.7731
豫	-10.7732
按	-10.7732
流注	-10.7732
雖具	-10.7732
淚	-10.7732
泥團	-10.7732
阿修羅	-10.7733
北欝單越	-10.7734
孝	-10.7735
泉	-10.7735
看	-10.7736
但明	-10.7736
漂	-10.7737
分別事識熏習	-10.7738
充	-10.7738
無失	-10.7742
弗	-10.7742
東弗婆提	-10.7742
善逝	-10.7743
皆屬	-10.7743
道場	-10.7746
同品定有性	-10.7748
墜	-10.7749
方有	-10.7749
鈴	-10.7755
不論	-10.7756
妄計	-10.7758
名為智礙	-10.7769
樂著	-10.7778
墮惡道	-10.7781
非能立	-10.7786
成有法	-10.7795
餘四	-10.7809
依生滅門	-10.7813
假使	-10.782
永無	-10.7829
能遣	-10.7835
真金	-10.7857
聲性	-10.7859
是假名	-10.7864
名異品	-10.7868
執持	-10.7877
噉	-10.7888
徧知	-10.7906
天道	-10.791
於大乘	-10.7911
熏真	-10.7913
非實有	-10.7916
不有	-10.792
婆羅	-10.7923
喃	-10.7925
所獲	-10.7926
起大悲	-10.7926
米	-10.793
剋	-10.7934
逼迫	-10.7934
盈	-10.7935
無有窮盡	-10.7935
憍	-10.7936
他心智	-10.7937
所遣	-10.7937
甲	-10.7937
大乘集菩薩學論卷第	-10.7938
常樂我淨	-10.7938
坑	-10.7939
喪	-10.7939
輔	-10.7939
怒	-10.7939
銷	-10.794
攝化眾生	-10.794
心性無動	-10.794
蟲	-10.794
離名字相	-10.794
相似過類	-10.794
醉	-10.794
以要言之	-10.7941
憐愍	-10.7941
淳淨	-10.7941
哭	-10.7941
掉	-10.7942
隱顯	-10.7942
不相妨	-10.7942
愚夫	-10.7944
貪瞋癡	-10.7946
深信	-10.7948
狗	-10.7953
對此	-10.7953
俱不遣	-10.7963
上中下	-10.7966
返顯	-10.7972
隨眠	-10.7984
良由	-10.7986
轉成能見	-10.7988
現形	-10.7992
得益	-10.7994
顯照	-10.7994
三千	-10.7995
根本熏習	-10.7997
末那識	-10.7997
食噉	-10.7998
心心數法	-10.8002
所逼	-10.8002
如下文云	-10.8011
過類	-10.8015
自利行	-10.8022
城門	-10.8026
亦乃	-10.8027
諍論	-10.8029
作沙門	-10.803
悲愍	-10.8031
化眾生	-10.8034
一切無量	-10.8037
三字	-10.804
六塵境界	-10.804
寶藏	-10.8042
十向	-10.8047
復云	-10.8058
一切物	-10.8058
有殊	-10.806
諸弟子	-10.8064
林中	-10.8085
何由	-10.8089
順理	-10.8094
文可知	-10.8095
而去	-10.8096
入十住	-10.8114
詳之	-10.8123
􂵋	-10.8124
悉能	-10.8126
能成就	-10.8132
諸境界	-10.8133
普遍	-10.8134
此之謂也	-10.8136
緣熏習鏡	-10.8136
三細六麤	-10.8137
逕	-10.8137
閱	-10.8141
取捨	-10.8143
束	-10.8144
更無別	-10.8144
素	-10.8146
歡	-10.8146
顏	-10.8147
恨	-10.8148
繞	-10.8148
聲聞獨覺	-10.8148
順真	-10.8148
碎	-10.8148
毒蛇	-10.8149
沉	-10.815
親友	-10.815
張	-10.8151
銅	-10.8151
筏	-10.8152
逸	-10.8152
嗅	-10.8154
云何為六	-10.8159
此經文	-10.816
卷第十	-10.8162
初發心住	-10.8163
緩	-10.8164
東方	-10.818
先後	-10.8182
略辨	-10.8183
法輪	-10.8191
化生	-10.8199
以大悲	-10.821
間斷	-10.8212
名能破	-10.8215
端正	-10.8216
為有法	-10.822
於一切法	-10.823
劫數	-10.8235
速得	-10.8239
方始	-10.8242
專念	-10.8248
不增減	-10.8252
對待	-10.8263
牒釋	-10.8266
標名	-10.8277
三十二	-10.8278
染淨諸法	-10.8293
不容	-10.8305
凡所	-10.8306
何者為	-10.8311
已去	-10.8312
翻染	-10.8322
行布施	-10.8331
護持	-10.8333
無有自性	-10.8337
阿賴耶	-10.8348
才	-10.8348
難可了知	-10.8349
不斷相應染	-10.835
麥	-10.8352
騰	-10.8354
賜	-10.8358
一日一夜	-10.8358
欺	-10.8359
皇	-10.8359
現境	-10.8361
龜毛	-10.8361
偷	-10.8361
心無初相	-10.8361
百歲	-10.8364
救世	-10.8364
嚴飾	-10.8364
殿	-10.8366
阿鼻	-10.8367
吐	-10.8369
遊行	-10.8369
增勝	-10.8373
猶如瓶等	-10.8378
不能盡知	-10.8379
遮表	-10.838
指陳	-10.838
違自教	-10.8382
說名能立	-10.8384
聲聞乘	-10.8385
未滿	-10.8385
極成色	-10.8386
財利	-10.8391
如勝論師	-10.8392
未相應	-10.8394
聖凡	-10.8397
兩輪	-10.8398
唯是一	-10.8398
權教	-10.8398
後結	-10.8403
常住一心	-10.8425
故前云	-10.8425
雖殊	-10.8434
前重	-10.8435
繫屬	-10.8439
未斷	-10.8441
所聞性	-10.8442
含攝	-10.8451
今文	-10.8454
立論者	-10.8462
一心二門	-10.8466
離過	-10.8467
兩俱隨一	-10.8469
轉相門	-10.847
不覺知	-10.8476
真能破	-10.8482
皆是無明	-10.8495
三細中	-10.8495
修證	-10.8497
揀非	-10.8497
能令眾生	-10.8499
真如熏習	-10.8505
三毒	-10.8516
兩句	-10.8517
所陳	-10.8525
大仙	-10.8526
立聲是無常	-10.8542
正念真如	-10.8544
水界	-10.8546
総	-10.8548
五事	-10.8549
送	-10.8559
因明入正理論	-10.8562
不足	-10.8564
丈	-10.8566
可壞	-10.8566
官	-10.8567
根本業不相應染	-10.8567
漠	-10.8569
是心生滅因緣相	-10.857
童	-10.857
阿那含	-10.8571
轉輪聖王	-10.8571
肯	-10.8572
尋伺	-10.8572
敗	-10.8572
戶	-10.8572
墮負處	-10.8572
不生不滅與生滅和合	-10.8573
伐	-10.8576
以不解故	-10.8577
辛	-10.8577
奉行	-10.8577
因明論	-10.8577
而有無明	-10.8578
總攝諸	-10.8578
所破	-10.8579
迎	-10.8579
瘡	-10.8581
如上所說	-10.8582
若心有動	-10.8583
顯發	-10.8583
杌	-10.8584
端坐	-10.8585
同異品	-10.8585
甘露	-10.8587
禁戒	-10.8587
以何為	-10.8587
安置	-10.8593
王位	-10.8594
不雜	-10.8596
智慧觀察	-10.8597
此中有三	-10.8599
對佛弟子	-10.8599
喻依	-10.8601
皆盡	-10.8602
即是不覺	-10.8607
汝今	-10.8613
聽受	-10.8616
以此因緣	-10.8617
甚深法	-10.8619
財施	-10.8621
決擇分	-10.863
若如是者	-10.8635
生喜	-10.8636
禪師	-10.8637
無間道	-10.8638
眾僧	-10.8642
諸佛世尊	-10.8642
五句	-10.8652
少分見	-10.8662
根塵	-10.8671
六染中	-10.8672
火燒	-10.868
不能了	-10.8686
一切眾生皆	-10.8696
當來	-10.8705
於色等	-10.8707
不住生死	-10.8708
亦不應	-10.8708
依不覺	-10.8709
神解	-10.871
徧轉	-10.8735
陀羅	-10.874
▁初明	-10.8744
皆不可得	-10.8744
此文中	-10.8745
為味	-10.8746
取陰	-10.8758
品中	-10.8762
無量劫	-10.8764
日光	-10.8772
裟	-10.8783
齋	-10.8785
熾	-10.8786
儞	-10.8788
的	-10.8793
積聚他用	-10.8794
受想	-10.8794
自體相熏習	-10.8794
斯陀含	-10.8795
l	-10.8796
吉	-10.8799
大圓鏡智	-10.8799
地水火風	-10.88
心不見心	-10.88
未來世	-10.8802
賓	-10.8802
悶	-10.8803
王言善哉善哉	-10.8803
枝葉	-10.8804
損減	-10.8805
鄙	-10.8806
溺	-10.8806
熾盛	-10.8806
刃	-10.8806
石女	-10.8807
三摩提	-10.8807
醎	-10.8807
沙門婆羅門	-10.8808
真如隨緣	-10.8809
相續不斷	-10.8811
一一各各	-10.8812
損害	-10.8814
盡不盡	-10.8815
親證	-10.8815
泥犁	-10.8816
猛利	-10.8817
迴向菩提	-10.8817
見諸眾生	-10.8818
僧佉	-10.8819
如何得	-10.8822
開合	-10.8822
電光	-10.8846
亦得名	-10.8851
不忘	-10.8854
相者是	-10.8857
悔過	-10.8861
邪命	-10.8867
同許	-10.8874
淨戒	-10.888
合集	-10.8897
三世諸佛	-10.8897
名為能立	-10.8904
出息	-10.8911
略舉	-10.8918
無功用	-10.8921
列釋	-10.8924
不怖	-10.893
令心生滅	-10.8936
深妙	-10.8941
巳來	-10.8945
護念	-10.8949
所持	-10.8953
我今當	-10.8959
於一切處	-10.8967
人間	-10.8969
敵證	-10.8986
疏記	-10.8992
無二體	-10.8996
令滿	-10.8998
可斷	-10.9001
湛	-10.9003
闕一	-10.9009
快	-10.9011
誡	-10.9012
縣	-10.9015
廓	-10.9016
供養諸佛	-10.9017
阿棃耶識	-10.9017
染著	-10.902
因無明風動	-10.9023
闡提	-10.9024
折	-10.9025
蚊	-10.9025
丸	-10.9028
故新論云	-10.9028
優劣	-10.9029
離眼識	-10.9029
工巧	-10.9031
練	-10.9032
甜	-10.9032
二年	-10.9032
此位中	-10.9032
氷	-10.9033
舒	-10.9033
麁相	-10.9034
降伏	-10.9037
非宗法	-10.9045
勤勇發	-10.9046
毛孔	-10.9047
往向	-10.905
業力	-10.9052
所立不成	-10.9055
莊嚴具	-10.9057
下中上	-10.9057
無有變異	-10.9058
事理	-10.9063
滅盡定	-10.9066
往彼	-10.9068
過去未來	-10.9068
不怯	-10.9071
依主釋也	-10.909
無俱不成	-10.909
精勤	-10.9091
各有三	-10.9094
無常想	-10.9095
何故說	-10.9101
菩薩藏	-10.9102
如佛所說	-10.9102
不可分別	-10.9105
心真如者	-10.9105
治道	-10.911
比智	-10.9119
見非所作	-10.912
垢染	-10.912
為明何義	-10.9141
自他共	-10.9142
則不得	-10.9143
登地	-10.9149
諸凡夫	-10.9154
有前後	-10.9158
未證	-10.9162
廣分別	-10.9169
別辨	-10.9176
又行者	-10.9178
四字	-10.9178
正命	-10.9202
信成就發心者	-10.9213
以為其	-10.9222
資生	-10.9233
鬘	-10.9233
禰	-10.9238
隣	-10.9238
經所說	-10.9242
鹽	-10.9247
法出離鏡	-10.925
摽	-10.9254
初中有二	-10.9254
聖賢	-10.9255
慶	-10.9255
名句文	-10.9255
和尚	-10.9256
刻	-10.9257
縷	-10.9258
算	-10.9259
瞿	-10.926
奔	-10.926
俱時而有	-10.926
見聞覺知	-10.9261
庶	-10.9262
淪	-10.9262
釋有二初	-10.9265
爪	-10.9266
回向	-10.9268
擾	-10.9268
小兒	-10.9269
怨家	-10.927
風吹	-10.927
天竺	-10.927
淨法滿足	-10.9274
見愛煩惱	-10.9275
救護	-10.9282
大臣	-10.9295
對敵	-10.9305
轉法輪	-10.9307
而實不	-10.931
定不離眼識	-10.931
須彌	-10.9314
那先言譬如	-10.9315
過咎	-10.9318
常寂	-10.932
又此人	-10.9325
頌言	-10.9329
全同	-10.9333
萬億	-10.9341
謂由無明	-10.9363
能藏	-10.937
雜染	-10.9373
卷第一	-10.9381
第二句	-10.9381
屬當	-10.9384
勤行	-10.9391
位在	-10.9395
卷上	-10.9395
本願	-10.9399
利他行	-10.9399
清淨始覺	-10.9407
未曾有	-10.9409
既爾	-10.9411
必當	-10.9411
新生	-10.9417
為能熏	-10.9421
依主釋	-10.9442
二初結前生後	-10.9446
不生滅心	-10.9474
亦不離	-10.9476
五趣	-10.9479
蘭	-10.9481
默	-10.9483
果不離因	-10.9489
全分一分	-10.9489
暢	-10.9489
訓	-10.9491
憒閙	-10.9491
愈	-10.9491
穿	-10.9492
藍	-10.9493
g	-10.9493
尤	-10.9493
銀	-10.9494
速疾	-10.9494
所量性故	-10.9495
紹	-10.9495
一法界大總相法門體	-10.9496
撥	-10.9496
侍	-10.9497
他方佛色	-10.9499
如量智	-10.95
炬	-10.9501
能立不遣	-10.9505
焦	-10.9505
遷流	-10.9506
聰明	-10.9507
聲顯論	-10.9509
首陀	-10.9509
七八	-10.9515
絕待	-10.9516
迦羅	-10.952
言生因	-10.9521
三十六	-10.9521
救度	-10.9521
長短	-10.9523
為所熏	-10.9528
有法差別相違	-10.9532
寶性論	-10.9534
熏眾生	-10.9535
於虛空	-10.9539
貫通	-10.9543
可畏	-10.9549
斯論	-10.955
求菩提	-10.9553
作禮	-10.9558
是名為四	-10.956
心數法	-10.956
種種差別	-10.9563
不淨想	-10.9567
同品定有	-10.9572
多一心	-10.9578
心生滅者	-10.958
初中有三	-10.9586
此之二	-10.9589
能顯示	-10.96
徵列	-10.9602
愛敬	-10.9606
十萬	-10.9612
風界	-10.9613
經書	-10.9615
於諸眾生	-10.9617
遇佛	-10.9617
勝解	-10.9619
所依止	-10.963
諸佛法身	-10.9639
六趣	-10.964
就初中有	-10.9645
進退	-10.9653
畢竟空	-10.9656
違理	-10.9659
火聚	-10.9659
大涅槃	-10.9668
信根本	-10.9669
本始	-10.9694
猶在	-10.9717
決疑門	-10.9726
勒	-10.9729
場	-10.9731
分別智相應染	-10.9732
脩多羅中作如是說	-10.9732
箇	-10.9733
遊戲	-10.9734
私	-10.9734
紛	-10.9734
巨	-10.9734
氏	-10.9735
鎔融	-10.9735
工	-10.9736
弟	-10.9736
若修止者	-10.9737
論師說	-10.9738
君	-10.9739
知相緣相	-10.974
虛偽	-10.9742
鮮	-10.9742
與心相應	-10.9743
羣	-10.9743
基	-10.9744
絕相	-10.9745
不失不壞	-10.9745
懃	-10.9745
纏縛	-10.9745
澤	-10.9748
引文	-10.9749
煮	-10.9754
深厚	-10.9756
轉輪王	-10.976
阿毘曇	-10.976
度眾生	-10.9762
如意足	-10.9763
初正顯	-10.9766
卷第三	-10.9768
有所得	-10.9769
九過	-10.9773
惑染	-10.9775
二種本法	-10.9776
顯現法身	-10.9778
汝當	-10.978
有何差別	-10.9782
更無別法	-10.9785
體無二	-10.9795
不可壞	-10.98
容受	-10.9811
實句	-10.9815
一由旬	-10.9819
▁初正釋	-10.982
總略	-10.9834
各各差別	-10.9839
隨宜	-10.9841
次下第二	-10.9841
▁二別釋	-10.985
擇滅	-10.9852
對量	-10.9865
起念相續	-10.9867
覆藏	-10.9867
說有無明	-10.9873
有三門	-10.9876
淨熏	-10.9898
不應說	-10.9898
方便善巧	-10.9915
世間相違	-10.9922
依業識	-10.9927
無邊際	-10.9934
諸部	-10.9941
日日	-10.9941
妄心熏習	-10.9948
所詮義	-10.9949
合為一	-10.9963
扶	-10.9975
稻	-10.9976
沙彌	-10.9979
雅	-10.9984
借	-10.9985
愛別離	-10.9985
濕性不壞	-10.9985
從初正信	-10.9985
狼	-10.9988
從無始世來	-10.9989
忻	-10.9989
踰	-10.9989
具足無量性功德故	-10.9989
弊	-10.999
灌頂	-10.999
蕩	-10.9991
灑	-10.9992
村	-10.9992
萬劫	-10.9993
混	-10.9993
染汙	-10.9993
曼陀羅	-10.9995
往昔	-10.9996
怨憎會	-10.9996
元年	-10.9998
意熏習	-11
昔在人中	-11.0007
卷第四	-11.0008
皮肉	-11.0009
萬像	-11.0012
宿世	-11.0015
還源	-11.0019
左右	-11.0028
當知是人	-11.0032
未了	-11.0032
無漏種子	-11.0033
善哉	-11.0034
香味	-11.0036
惑亂	-11.0037
十歲	-11.0049
所緣境界	-11.0055
譬如有人	-11.0064
悉知	-11.0065
動搖	-11.0069
不覺而起	-11.0074
出家人	-11.0078
七變	-11.0085
作如是言	-11.0086
諦聽	-11.0089
六麤中	-11.0104
佛法僧	-11.0105
妙用	-11.0118
離礙	-11.0122
口業	-11.0122
五蓋	-11.0125
成佛道	-11.0132
標數	-11.0133
治斷	-11.0141
三諦	-11.0151
順真如	-11.0154
持業釋	-11.0188
則有三種	-11.0194
炙	-11.0219
諸天子	-11.0226
非一相	-11.0226
詔	-11.0228
華文論	-11.0233
詮表	-11.0235
真故極成色	-11.0235
思議	-11.0235
有法及法	-11.0241
所別不極成	-11.0243
圖	-11.0243
唯佛窮了	-11.0244
映	-11.0244
聞修多羅說	-11.0245
十億	-11.0245
如來滅後	-11.0246
健	-11.0247
納	-11.0247
分別六塵	-11.0248
掃	-11.0248
春	-11.0248
怨賊	-11.025
湯	-11.025
曜	-11.0256
未甞	-11.0257
聞思修	-11.0259
希求	-11.026
塵沙	-11.026
不苦不樂受	-11.0261
羸	-11.0262
無所畏	-11.0267
香象	-11.0268
逆順	-11.0269
無相可得	-11.0273
真妄和合	-11.0277
形像	-11.0286
不耐	-11.0288
要須	-11.0293
三十二相	-11.0294
無質礙因	-11.0294
徧照	-11.0296
本源	-11.0297
執著相	-11.0301
名似現量	-11.031
智度論	-11.0322
困苦	-11.0322
善巧門	-11.0326
正因相應	-11.0339
釋曰五	-11.0345
東西	-11.0351
意趣	-11.0357
巳還	-11.0365
十句	-11.0366
眾德	-11.038
出三界	-11.0388
不亡	-11.0392
終不能	-11.0394
諸禪定	-11.0395
厭惡	-11.0396
言辭	-11.0402
寶花	-11.0403
足處	-11.0405
泯相	-11.0431
結屬	-11.0434
亦不相違	-11.0439
相似覺	-11.0442
無妨	-11.0465
初徵	-11.0467
染淨本覺	-11.0477
外別有	-11.048
曳	-11.0481
他不許	-11.0484
呬	-11.0485
努	-11.0488
脹	-11.0493
早	-11.0499
現色不相應染	-11.0501
罔	-11.0502
笑	-11.0502
阿黎耶識	-11.0502
動則有苦	-11.0502
弓	-11.0504
昭	-11.0504
圍遶	-11.0504
奏	-11.0505
不染而染	-11.0507
遲速	-11.0508
巖	-11.0508
捐	-11.0508
戀	-11.0508
諸無常者	-11.0508
柔和	-11.051
焚	-11.051
貪恚	-11.051
危	-11.051
於契經中	-11.0513
欝	-11.0514
應如是知	-11.0515
聾	-11.0515
醍	-11.0517
不住涅槃	-11.0517
保	-11.0518
善哉善哉	-11.0518
善男子善女人	-11.0519
得無分別心	-11.0519
成實論	-11.0526
八聖道	-11.053
此謂修	-11.0534
返流	-11.0536
本有法身	-11.0547
隨順法性	-11.0547
文有三	-11.0548
無餘涅槃	-11.0549
卷第二	-11.0558
梨耶識	-11.0561
四念處	-11.0563
作有緣性	-11.0566
須菩提	-11.0573
令增長	-11.0573
科分	-11.0582
何因緣故	-11.0586
倒合	-11.0587
從緣生	-11.0606
菩提涅槃	-11.0607
佛世尊說	-11.0609
天魔	-11.0616
二十七	-11.0624
歡喜地	-11.0624
▁二釋成	-11.0626
生淨土	-11.0629
愚人	-11.063
有生滅心	-11.0633
初結前生後	-11.0677
無有前後	-11.0678
八句	-11.0681
天耳	-11.0686
無明滅故	-11.0697
卒	-11.0707
老病死	-11.0709
出世間法	-11.0734
賢善	-11.0741
麗	-11.0749
約生滅門	-11.0749
癡行人	-11.0753
頗梨	-11.0764
番	-11.0766
隷	-11.0767
嗔	-11.0767
釈	-11.0772
召	-11.0772
空無相無願	-11.0772
竹	-11.0774
塔廟	-11.0774
怪	-11.0775
念無住相	-11.0777
非前際生	-11.0777
螺髻	-11.0777
䇿	-11.0777
下釋成二初	-11.0777
染而不染	-11.0778
脩多羅說	-11.0778
乃至得佛	-11.0778
回	-11.0778
懺	-11.0778
顯示摩訶衍義	-11.0779
赴	-11.078
槃	-11.078
偶	-11.078
條	-11.078
心行處滅	-11.0781
衛世	-11.0781
斬	-11.0782
初發意	-11.0782
滋	-11.0782
綿	-11.0782
溫	-11.0784
就此門中	-11.0785
善巧方便	-11.0787
貝	-11.0788
暴	-11.0788
到彼岸	-11.079
提婆	-11.0792
唾	-11.0793
法身不現	-11.0794
頸	-11.08
脩羅	-11.08
十方諸佛	-11.08
鬪諍	-11.0801
盡無餘	-11.0803
熱觸	-11.0804
憎愛	-11.0805
減失	-11.0806
於彼中生	-11.0807
過去世	-11.0812
戲樂	-11.0812
千世界	-11.0823
幾種	-11.0824
結頌	-11.0824
色無色界	-11.0833
。」【(○	-11.0833
牒上	-11.084
無窮盡	-11.0848
此下第二	-11.0849
阿字	-11.085
聲是有法	-11.0851
念念生滅	-11.0856
摩尼寶	-11.0857
無所依止	-11.0858
古今	-11.0869
涅槃經云	-11.0871
何等為四	-11.0873
▁三結	-11.0873
善惡業	-11.0884
勝鬘經	-11.0886
若爾何故	-11.0895
同異喻	-11.0905
不繁	-11.0912
迷惑	-11.0916
勝論師	-11.0927
表實	-11.0943
結使	-11.0948
一切無量無邊	-11.095
眾生真心	-11.0957
能立不成	-11.0967
惱亂	-11.0997
名相似覺	-11.1001
能發起	-11.1025
釋曰後合本論	-11.1028
發起善根	-11.1036
周圍	-11.1041
正思惟	-11.1043
蓮	-11.1044
誘	-11.1046
苑	-11.1046
徑	-11.1051
正體智	-11.1051
覺於念住	-11.1053
婁	-11.1054
念無異相	-11.1054
鍊	-11.1054
漫	-11.1055
得究竟樂	-11.1055
ṃ	-11.1055
體相二大	-11.1056
生三種相	-11.1057
作是思惟	-11.1058
尺	-11.1058
竟在於前	-11.1058
愧	-11.1058
枳	-11.1059
故下論云	-11.1059
價	-11.1059
制伏	-11.106
伺	-11.1062
無所不徧	-11.1062
傾	-11.1062
十千劫	-11.1062
忘失	-11.1062
富樂	-11.1063
劇	-11.1063
谷	-11.1063
如實空鏡	-11.1065
勤勇無間所發性故	-11.1065
離念相者	-11.1066
端嚴	-11.1069
教授	-11.107
入正位	-11.1071
鉤	-11.1071
以熏習故	-11.1073
禪那	-11.1075
楚	-11.1075
依分別事識	-11.1078
頭面	-11.108
頓悟	-11.1082
分際門	-11.1083
十八界	-11.1084
名一行三昧	-11.1085
舍利	-11.1088
有二初結指	-11.1097
願求	-11.1105
初坐禪人	-11.1109
ra	-11.1109
下第二明	-11.111
恩愛	-11.1113
生人中	-11.1113
業轉現	-11.1117
持業釋也	-11.1133
一一皆	-11.1145
乃至十地	-11.115
准前	-11.1157
永滅	-11.1178
謨	-11.118
生喜樂	-11.1181
一味平等	-11.1192
初中二	-11.1204
善根力	-11.1207
已被	-11.1217
歸向	-11.1221
神變	-11.1222
熏變	-11.1245
倒離	-11.125
如勝論	-11.1257
無二無別	-11.1259
開發	-11.1279
陰所攝	-11.128
二初牒指	-11.1332
苗	-11.1334
披	-11.1334
冠	-11.1336
嘆	-11.1336
報化二身	-11.1337
唵	-11.1337
慎	-11.1339
秘	-11.1339
朗	-11.1339
涯	-11.134
倦	-11.134
u	-11.1341
折伏	-11.1342
央	-11.1342
射	-11.1342
猴	-11.1342
片	-11.1344
因熏習鏡	-11.1346
針	-11.1346
㲲	-11.1346
涕	-11.1347
故此釋云	-11.1347
震	-11.1348
冤家	-11.1352
夜叉	-11.1357
簡擇	-11.1357
默然	-11.1358
花鬘	-11.1358
嬈	-11.1363
酪	-11.1365
導師	-11.1369
戒定慧	-11.137
滅無餘	-11.1371
爾時世尊	-11.1377
異熟識	-11.1379
熏習力故	-11.1396
梵世	-11.1397
三祇	-11.1398
不相應染	-11.1413
無明熏真如	-11.1417
值佛	-11.1426
生老病死	-11.1427
器世間	-11.1431
勤苦	-11.1434
那先問王言	-11.1436
隨所應	-11.1437
罪報	-11.1445
敵智	-11.1446
屬著	-11.1451
莫不	-11.1466
求那	-11.147
二云何下	-11.1491
種種莊嚴	-11.1507
動亂	-11.1516
太虗	-11.1534
機感	-11.1546
怯	-11.1572
耐	-11.158
無增減	-11.1598
染法淨法	-11.1602
同品異品	-11.1604
甞	-11.1611
如初廣說	-11.1615
依門釋相	-11.1623
尅	-11.1624
逾	-11.1629
此即初也	-11.163
覺於念異	-11.1632
辱	-11.1632
如鏡中像	-11.1634
錢	-11.1635
依如來藏故有生滅心	-11.1635
悋	-11.1635
二作釋文	-11.1636
戴	-11.1636
宗家法	-11.1636
怠	-11.1637
脩多羅中	-11.1637
寶雲經	-11.1637
剎帝利	-11.1637
鑛	-11.1638
剛	-11.1639
舍宅	-11.1639
現前介爾	-11.1639
勉	-11.1639
心念法異	-11.1639
遙	-11.164
竝	-11.164
長養	-11.164
鬪戰	-11.1641
克	-11.1641
寬狹	-11.1641
飄	-11.1641
雪山	-11.1642
所修離相	-11.1642
若汝意謂	-11.1642
憙	-11.1644
卵	-11.1645
膝	-11.1645
紙	-11.1646
翻譯	-11.1647
現識所現	-11.1647
若離業識	-11.1651
稠林	-11.1655
三十二種	-11.1655
境界為緣	-11.1657
清白	-11.1658
譬如瓶等	-11.1661
無有斷絕	-11.1662
聽聞	-11.1662
龍樹菩薩	-11.1676
非不可壞	-11.1679
今此門中	-11.1679
𡄣	-11.168
如諸部	-11.1681
財寶	-11.1685
緣慮	-11.169
入胎	-11.1692
徧滿	-11.17
配屬	-11.1705
日輪	-11.1707
比丘尼	-11.1709
融通	-11.1712
覺分齊	-11.1721
分為三	-11.1745
施主	-11.175
釋曰後辨	-11.1756
堪受	-11.1757
二初唱本	-11.1758
阿羅漢果	-11.1767
上二句	-11.1773
智惠	-11.1785
佛那謨	-11.1789
持淨戒	-11.1791
翻對	-11.1855
二初結指分門	-11.1859
融攝	-11.1861
微劣	-11.1874
作是言	-11.1881
相關	-11.1906
摂	-11.191
沾彌利望群	-11.1915
収	-11.1915
諸有智	-11.1916
似現量	-11.1926
菟	-11.1926
予	-11.1928
巾	-11.1928
發如是心	-11.1931
阿梨耶	-11.1933
如說聲常	-11.1933
二徵列	-11.1933
復次真如自體相者	-11.1935
啼	-11.1936
育	-11.1937
京	-11.1938
一行三昧	-11.1938
殃	-11.1939
丘	-11.1939
皆無自立	-11.1939
採	-11.194
平等一味	-11.1942
色香味觸	-11.1942
毺	-11.1942
黑暗	-11.1943
寺沙門	-11.1943
驅	-11.1943
踊躍	-11.1943
成自然業	-11.1943
寸	-11.1943
修遠離法	-11.1943
恐繁	-11.1943
眾寶所成	-11.1944
省	-11.1945
所現之色	-11.1945
堅牢	-11.1946
若復有人	-11.1946
初地以上	-11.1946
彈	-11.1947
寒熱	-11.1948
能熏所熏	-11.1949
如大海水	-11.1949
徧一切處	-11.195
顛	-11.1951
髓	-11.1952
以為體故	-11.1953
因言遣言	-11.1953
見報身	-11.1953
恥	-11.1954
厄	-11.1954
凝然	-11.1954
是業熟	-11.1954
示摩訶衍體	-11.1954
自教相違	-11.1956
畢竟無念	-11.1956
剎那不住	-11.1957
以有妄心	-11.1958
俱胝	-11.1959
不變隨緣	-11.1959
見彼無常	-11.1961
寶池	-11.1962
獨存	-11.1964
依於業識	-11.1971
破和合識相	-11.1972
輕安	-11.1977
報恩	-11.1979
由是義故	-11.1982
神足	-11.1983
憎惡	-11.1988
新熏	-11.1991
自下第三	-11.1993
聲上所作	-11.1995
論議	-11.1997
惡知識	-11.2002
違害	-11.2004
設使	-11.2007
法集經	-11.2018
輕重	-11.2021
序分	-11.2025
初分門	-11.2025
頓斷	-11.2026
意之識	-11.2027
消除	-11.2049
十五種	-11.2056
初中後	-11.2078
質礙性	-11.2135
言真如者	-11.2142
搖	-11.2158
中又二	-11.216
鬚	-11.2218
▁初結指	-11.2232
瓶衣等	-11.2237
如來在世	-11.2242
杵	-11.2243
輒	-11.2247
細中之細	-11.2247
菴	-11.2248
低	-11.2248
希望	-11.2249
今此偈中為明何義	-11.2249
若生若滅	-11.2249
紫	-11.2249
;	-11.225
所謂心性不生不滅	-11.225
非後際滅	-11.225
前三染	-11.2251
c	-11.2251
依覺故迷	-11.2251
遠離微細念	-11.2251
岐	-11.2251
料簡	-11.2252
芥子	-11.2252
懈慢	-11.2253
跏	-11.2254
金剛喻定	-11.2255
匿	-11.2255
遍照法界義	-11.2256
踈	-11.2256
毘婆舍那	-11.2256
認	-11.2256
是心真如相	-11.2256
非色非心	-11.2257
警	-11.2257
客塵	-11.2258
倚	-11.2258
秋	-11.2258
包含	-11.2259
龜	-11.2259
韻	-11.2259
靡	-11.2259
墮二乘地	-11.2259
方隅	-11.226
豪	-11.226
教誡	-11.226
亦無可立	-11.2261
太子	-11.2263
吞	-11.2264
迅	-11.2265
釋曰後別	-11.2266
皆悉各各	-11.2266
無體可得	-11.2267
開敷	-11.2267
敗壞	-11.2267
流布	-11.2267
熱鐵	-11.2268
移轉	-11.2272
畢竟不退	-11.2272
福蘊	-11.2275
無有邊際	-11.2277
增上慢	-11.2278
勤修習	-11.2281
真偽	-11.2283
白衣	-11.2287
足目	-11.2289
四天下	-11.2289
遠近	-11.2296
寶船	-11.23
終不可得	-11.2303
在其中	-11.2304
名為應身	-11.2307
華嚴經云	-11.2308
對勝論	-11.231
消滅	-11.2312
自體相用	-11.2313
猶豫不成	-11.2317
無有一法	-11.2319
衣食	-11.2323
諸善行	-11.2328
唯局	-11.2329
數息	-11.2333
諸善法	-11.2334
俱舍	-11.2351
上首	-11.2367
依功力	-11.2405
所化眾生	-11.2425
隨緣不變	-11.2482
修梵行	-11.2522
諸苦惱	-11.2523
云何取其相	-11.2545
敵對	-11.2546
瓶等無常	-11.2553
發趣道相	-11.2554
受道緣	-11.2556
剃	-11.2556
盆	-11.2563
名似比量	-11.2563
迭	-11.2565
何以得知	-11.2566
厭生死	-11.2569
摧伏	-11.2569
軌法師	-11.2569
水非動性	-11.2569
二自此下	-11.257
極成能別	-11.257
鎧	-11.257
灌	-11.257
智性不壞	-11.257
吼	-11.2571
是亦不然	-11.2571
諂曲	-11.2571
綱要	-11.2571
頞	-11.2571
供給	-11.2571
裏	-11.2572
周匝	-11.2572
名似因	-11.2572
答前問	-11.2573
遍是宗法性	-11.2573
p	-11.2573
k	-11.2573
o	-11.2573
冬	-11.2574
依一心法有二種門	-11.2575
見從外來	-11.2575
酬	-11.2575
能知名義	-11.2576
能別不極成	-11.2577
峯	-11.2577
兄	-11.2577
旃陀羅	-11.2579
升	-11.2579
得見心性	-11.2581
得利益故	-11.2582
畧	-11.2582
耆	-11.2583
居士	-11.2583
園林	-11.2584
維摩詰	-11.2586
躁	-11.2587
活命	-11.2587
欺誑	-11.2589
深固	-11.2592
經無量劫	-11.2592
二十小劫	-11.2593
無逼樂無有受樂	-11.2594
長夜	-11.2595
血肉	-11.2596
無厭足	-11.2597
所言義者	-11.2597
衰變	-11.2597
常無常品	-11.2597
器世界	-11.2601
四卷經	-11.2604
知有我	-11.2604
邪婬	-11.2606
作如是念	-11.2607
瞋惱	-11.261
二者相大	-11.261
世出世間	-11.2611
極成有法	-11.2613
尋思	-11.2614
一者體大	-11.2619
金輪	-11.2621
比度	-11.264
恒沙功德	-11.2658
覺心源	-11.2708
勤求	-11.2739
彌陀	-11.275
那尸	-11.2752
威神	-11.2765
違自宗	-11.2778
我等今	-11.2791
十五日	-11.2793
初略明	-11.2798
枝末無明	-11.2826
各各不同	-11.2864
諦所攝	-11.2879
釋曰後開示有二初	-11.2888
鄣	-11.289
初發意菩薩等	-11.29
一切諸佛本所乘故	-11.2901
覺則不動	-11.2901
唯佛能知	-11.2901
敬禮	-11.2901
黨	-11.2902
軸	-11.2902
蘊處界	-11.2903
取色分齊	-11.2903
宣梵大師賜紫沙門臣日稱等奉詔譯	-11.2903
對無空論	-11.2903
具無漏法	-11.2904
現比二量	-11.2905
交徹	-11.2905
宗等多言	-11.2906
引教證	-11.2906
派	-11.2906
曹	-11.2906
d	-11.2907
深解現前	-11.2907
假使有人	-11.2907
若如是義者	-11.2907
沼	-11.2907
纂	-11.2908
主伴	-11.2908
本始二覺	-11.2908
名隨分覺	-11.2908
祠	-11.2909
教誨	-11.2909
房	-11.291
雕	-11.291
僻	-11.2911
炷	-11.2911
堂殿	-11.2912
澡	-11.2913
唯一真心	-11.2914
闕初相	-11.2915
賣	-11.2915
侶	-11.2915
溢	-11.2916
墨	-11.2916
貪恚癡	-11.2916
法及有法	-11.2917
二十三諦	-11.2918
筌	-11.2921
爰	-11.2923
四種住相	-11.2924
損益	-11.2928
境界隨滅	-11.2929
妄顯真	-11.2935
不樂世間	-11.2945
起厭求	-11.2953
能詮教	-11.2955
教化眾生	-11.2983
法差別相違因	-11.2985
世間出世間	-11.2987
王富	-11.3055
不退位	-11.3068
散說門	-11.307
山林	-11.3111
救拔	-11.3136
困	-11.3175
墮惡趣	-11.318
破和合識	-11.3206
分之一	-11.3217
弭	-11.3233
政	-11.3239
屍	-11.3241
後五三	-11.3241
封	-11.3242
慰	-11.3244
杜	-11.3245
信得增長	-11.3246
菩薩盡地	-11.3247
心王心所	-11.3247
吠	-11.3248
勵	-11.3248
兜率	-11.3248
窺	-11.3248
不依氣息	-11.3249
府	-11.3249
親承供養	-11.3249
蔑	-11.3249
依無明起差別	-11.325
有體無體	-11.325
能示摩訶衍自體相用故	-11.325
摩醯首羅	-11.325
無明力不覺心動	-11.325
德所依故	-11.3251
殑伽沙數	-11.3251
耕	-11.3251
書寫	-11.3251
奉詔譯	-11.3251
雷	-11.3252
柵	-11.3252
所住依果	-11.3253
俱行俱轉	-11.3253
滴	-11.3253
瓶盆等	-11.3253
乾闥婆	-11.3253
作正因緣	-11.3254
柔	-11.3254
一真法界	-11.3254
違平等性	-11.3255
罰	-11.3255
逮	-11.3255
二初問起二答釋二初偈頌	-11.3255
以無念等故	-11.3255
悕	-11.3256
無始無終	-11.3256
所以然者	-11.3256
能別所別	-11.3257
初總明	-11.3257
鎖	-11.3258
唯證相應	-11.3258
蜂	-11.3258
如是我聞	-11.3259
虛誑	-11.3259
從本以來	-11.3259
檀波羅蜜	-11.3259
領納	-11.326
初唱本論	-11.3262
刀杖	-11.3262
猪	-11.3264
宛然	-11.3265
忿	-11.3268
身語意	-11.3269
疾病	-11.3271
本業經云	-11.3272
三大之義	-11.328
和會	-11.328
即斯義	-11.3284
嬰	-11.3285
猶存	-11.3295
墮落	-11.3298
▁二引經	-11.3307
塵勞	-11.3319
所住處	-11.3323
始覺同本	-11.3375
後三染	-11.3397
ar	-11.3417
細滑	-11.3508
違逆	-11.3541
梵音	-11.357
忠	-11.3591
幹	-11.3592
髻	-11.3592
四種無為	-11.3594
佗	-11.3595
扇	-11.3598
雖復名覺	-11.36
依法力熏習	-11.3604
棘	-11.3604
阿闍梨	-11.3604
武	-11.3604
捧	-11.3605
同異二品	-11.3605
各差別故	-11.3605
受染熏	-11.3606
穴	-11.3606
娛	-11.3606
無生無滅	-11.3606
調柔	-11.3606
伴侶	-11.3607
無始覺之異	-11.3607
辰	-11.3608
鷲	-11.3609
舉數總標	-11.3609
無始已來	-11.3609
異品一分轉	-11.3609
匪	-11.361
毘鉢舍那	-11.361
離分齊相	-11.361
黃金	-11.3611
淡	-11.3611
相應不相應義	-11.3612
謂心體離念	-11.3612
聲聞辟支佛	-11.3612
肢	-11.3612
男子	-11.3613
青黃	-11.3613
彩	-11.3613
高一由旬	-11.3613
皆各總攝	-11.3613
四正勤	-11.3614
膿	-11.3615
無始有終	-11.3615
閻	-11.3615
盡未來際	-11.3615
叵	-11.3615
諸男女天	-11.3616
纖	-11.3617
過去未來現在	-11.3618
非真識知	-11.3618
非覺照義	-11.3618
補特伽羅	-11.3618
瑩	-11.3619
阿迦尼吒	-11.362
勇猛精進	-11.362
振	-11.3622
起於大悲	-11.3622
陀羅驃	-11.3624
無法可現	-11.3625
逆罪	-11.3627
利益安樂	-11.3628
長老	-11.3628
空無邊入	-11.3628
經中佛說	-11.3634
出生增長	-11.3637
提婆達多	-11.3641
從真起	-11.3642
云何為八	-11.3651
摧邪	-11.3693
無法可	-11.3821
勑	-11.396
黎	-11.396
両	-11.3963
俱品一分轉	-11.3967
能見心不相應染	-11.3967
行根本方便	-11.3968
翼	-11.3969
旬	-11.3969
西天譯經三藏朝散大夫試鴻臚少卿	-11.3973
托	-11.3974
舉劣顯勝	-11.3974
饒	-11.3974
如凡夫人	-11.3975
備有不思議業	-11.3975
環	-11.3976
豆	-11.3976
作境界之性	-11.3976
依如來藏有生滅心	-11.3976
立大誓願	-11.3977
渾	-11.3977
成等正覺	-11.3977
亦遣除想	-11.3977
聳	-11.3977
未嘗	-11.3979
住如來種中	-11.3979
平等性智	-11.3979
嘗	-11.3979
巷	-11.398
舟	-11.398
以不知為破著故	-11.3981
倣	-11.3981
秖	-11.3981
所立不遣	-11.3982
茂	-11.3982
屠	-11.3983
羯	-11.3983
撿	-11.3983
歟	-11.3983
往詣	-11.3983
五種寶樹	-11.3983
以一切法悉皆真故	-11.3984
不可說不可念	-11.3984
有幾數	-11.3985
郡	-11.3986
發起問答決疑門	-11.3986
幡	-11.3986
踐	-11.3987
與行與相	-11.3987
可思議	-11.3988
所緣之境	-11.3989
應說此論	-11.3989
未曾離念	-11.399
瓦	-11.399
又心起者	-11.399
氣息	-11.399
有論師言	-11.3993
對薩婆多	-11.3993
鞞	-11.3995
澁	-11.3995
色心不二	-11.3996
十方三世一切	-11.3996
隱沒	-11.3996
心體不滅	-11.3997
卷第五	-11.3997
他化自在天	-11.3998
懶	-11.3998
三自一心	-11.4003
惱害	-11.4006
菩提資糧	-11.4017
勤精進	-11.4021
偽妄	-11.4022
胎藏	-11.4024
佛滅後	-11.4034
小乘不許	-11.4071
無與等	-11.4167
本業經	-11.4177
一時俱	-11.4281
何修何相何味何處何	-11.4342
慕	-11.4349
忿恨	-11.4351
那羅延	-11.4351
奈	-11.4351
無有休息	-11.4353
不動則無見	-11.4354
摠	-11.4354
覺知前念起惡	-11.4355
綺互	-11.4356
虧	-11.4356
以有真如法故	-11.4357
因風波動	-11.4357
獻	-11.4358
則無真覺自相可說	-11.4358
囑	-11.436
覈	-11.436
積聚性因	-11.436
二演義疏文	-11.4361
取著轉深	-11.4361
宰	-11.4362
探	-11.4362
寥	-11.4362
純熟	-11.4362
晝	-11.4362
消惡業障	-11.4363
同有異無	-11.4363
死屍	-11.4363
席	-11.4363
决	-11.4363
涌	-11.4363
苦樂等報	-11.4364
所言覺義者	-11.4364
不知轉識現故	-11.4364
所入本法	-11.4364
摩訶衍者總	-11.4365
奄	-11.4365
欣厭	-11.4365
若離於念	-11.4365
無所遺	-11.4365
案	-11.4366
籌	-11.4366
隨事攀緣	-11.4366
格	-11.4366
阿脩羅	-11.4367
同品有異品	-11.4367
發大心	-11.4367
非有為非無為	-11.4367
有因有緣	-11.4368
暖	-11.4369
無始時來	-11.4369
如次配	-11.4369
樓閣	-11.4369
腰	-11.4369
川	-11.4369
故攝論云	-11.437
現現別轉	-11.437
貪嗔	-11.437
梵志	-11.437
十方世界之塵量	-11.437
不無之有	-11.4371
隙	-11.4371
猒求	-11.4371
朋友	-11.4371
頻	-11.4372
崖	-11.4374
無外境界	-11.4374
依染淨差別	-11.4375
以之故言	-11.4375
初行菩薩	-11.4376
兇	-11.4376
裹	-11.4377
塚間	-11.4377
即謂無念	-11.4377
入於涅槃	-11.4378
負債	-11.4378
焚燒	-11.4379
六種染心	-11.4381
五受陰	-11.4381
念佛三昧	-11.4381
上上品苦	-11.4384
即此相續識	-11.4384
怨親	-11.4387
▁初釋義	-11.4387
猶預不成	-11.4388
前陳有法	-11.4389
羅剎	-11.439
二復次下	-11.4393
欲界繫	-11.4396
無盡意經	-11.4398
俱決定故	-11.4423
五十一種位	-11.4452
初標數	-11.4469
衰惱	-11.4478
名曰馬鳴	-11.4505
執取計名	-11.4663
酤	-11.4731
釋曰後解釋有二初	-11.474
𧹞	-11.4742
二次說下	-11.4748
諸所作者皆是無常	-11.4749
有正智生	-11.4755
應廣通達	-11.4756
宗無因不有	-11.4756
無所闕失	-11.4756
說因宗所隨	-11.4756
為那先耶	-11.4757
循環	-11.4757
燥	-11.4757
隨染幻差別	-11.4757
潛	-11.4757
緒	-11.4757
心實不動	-11.4758
不了一法界義者	-11.4759
嘉	-11.4759
取種種塵	-11.4759
史	-11.4759
獨力業相	-11.476
遞	-11.476
綸	-11.476
畢竟無得	-11.476
天水盈滿	-11.4761
如來根本之義	-11.4761
非有無俱相	-11.4762
瓶上所作	-11.4762
請轉法輪	-11.4763
境界妄現	-11.4763
則不須論	-11.4763
則有淨用	-11.4763
ḍ	-11.4764
b	-11.4764
象馬車	-11.4764
鋒	-11.4764
歌舞	-11.4764
事事無礙	-11.4764
一切染法不相應故	-11.4764
厥	-11.4765
▁二答釋	-11.4765
否	-11.4765
]	-11.4765
孕	-11.4765
心滅則種種法滅	-11.4766
隆	-11.4766
諸所作者	-11.4766
智體不動	-11.4766
身有無量色	-11.4767
叫	-11.4767
蟻	-11.4767
譬如北地妙好	-11.4767
而實無有始覺之異	-11.4767
有何咎	-11.4768
見修煩惱	-11.4768
受解緣別	-11.4768
妙觀察智	-11.4768
憂悲苦惱	-11.4769
竊	-11.477
裸形	-11.477
鬪	-11.4771
厨	-11.4771
趺	-11.4771
不出不入	-11.4771
非智非識	-11.4772
所言空者	-11.4772
耨	-11.4772
形相如何	-11.4773
立其名故	-11.4773
調御	-11.4773
堆	-11.4774
庫藏	-11.4774
無障無礙	-11.4776
勳	-11.4777
則無是處	-11.4777
救濟	-11.4777
坐臥	-11.4778
少壯	-11.478
燒炙	-11.4781
臭穢	-11.4782
或有說者	-11.4783
第一變中	-11.4783
揣	-11.4785
欝單越	-11.4785
毒藥	-11.4787
無明所動	-11.4792
維摩	-11.4792
調適	-11.4792
因有三相	-11.4793
勝遍光天	-11.4793
佛自說	-11.482
惡友	-11.4849
ta	-11.4909
初總敘	-11.4945
二百五十	-11.4976
百二十	-11.4979
右手	-11.5111
転	-11.5157
心住不亂	-11.516
玻	-11.5161
薩哩	-11.5164
宛	-11.5166
增長行緣	-11.5166
智淳淨故	-11.5169
軀	-11.517
若離神通及	-11.517
一切菩薩皆乘此法到如來地故	-11.5173
王舍城	-11.5175
發動身口	-11.5176
宋	-11.5176
若於是處	-11.5176
若離不覺之心	-11.5177
自然而有不思議業	-11.5178
輸	-11.5178
十方世界微塵數	-11.5179
泰	-11.5179
世出世法	-11.5179
秦	-11.5179
則有染相	-11.5179
還作眾生	-11.518
三賢十聖	-11.518
知心妄動	-11.518
徐	-11.518
禽	-11.518
異品徧無性	-11.5181
若多若少	-11.5181
是心則攝一切世間出世間法	-11.5181
故唯識云	-11.5181
獵	-11.5182
延促	-11.5182
真俗二諦	-11.5182
色有無量相	-11.5182
不取不著	-11.5182
誕	-11.5182
徳	-11.5183
終無有退	-11.5183
妄心熏習義有二種	-11.5183
有及非有	-11.5184
飛鳥	-11.5184
惛	-11.5184
萎	-11.5185
不樂眾善	-11.5185
輿	-11.5185
畢竟不可說相	-11.5185
炭	-11.5185
以依業識生滅相示	-11.5186
士夫	-11.5186
即觀之止	-11.5186
真實識知義故	-11.5186
隨眾生根	-11.5187
抱	-11.5187
肩	-11.5187
心若馳散	-11.5187
臘	-11.5187
摩尼珠	-11.5187
跳	-11.5188
癰	-11.5189
甘蔗	-11.519
成所作智	-11.519
而得解者	-11.5191
奘	-11.5191
脇	-11.5191
涎	-11.5195
都無所得	-11.5196
蕉	-11.5197
逃	-11.5197
胸	-11.5197
黑繩	-11.5201
恒河沙	-11.5203
中邊論	-11.5281
39	-11.5292
r	-11.5327
太虛	-11.5461
恭	-11.5585
播	-11.559
作逆事	-11.5594
凝	-11.5596
夾	-11.5599
肘	-11.5603
波利夜多樹	-11.5604
不覺心起而有其念	-11.5605
麼	-11.5605
審察	-11.5605
棄擲	-11.5605
依業受果	-11.5605
非非想處	-11.5606
䟦	-11.5606
有大智用	-11.5607
者此中意說	-11.5607
所起見愛熏習	-11.5608
寶積經	-11.5609
因滅故不相應心滅	-11.5609
能成此信	-11.5609
孰	-11.5609
答後問	-11.5609
俱合動相	-11.561
倫	-11.561
無始妄想熏	-11.561
真如生滅二門	-11.561
無因無果	-11.561
鐵圍山	-11.561
今謂不爾	-11.561
能障真如根本智故	-11.561
非可修相	-11.5611
立敵共許	-11.5611
逈	-11.5612
爾時世尊告	-11.5612
起惑造業	-11.5612
說有五分	-11.5612
剩	-11.5612
謙	-11.5612
兩重所入	-11.5613
境界風所動	-11.5613
斷三寶種	-11.5613
我見愛染煩惱	-11.5614
諮	-11.5614
等虗空界	-11.5614
妄起想念	-11.5614
非心體滅	-11.5614
其數幾有	-11.5614
紅	-11.5614
亂行者心	-11.5614
:「	-11.5614
受大苦惱	-11.5614
編	-11.5615
役	-11.5615
喘	-11.5615
圓音一演	-11.5615
不限劫數	-11.5615
無明熏習所起識者	-11.5616
起大乘正信	-11.5616
肇	-11.5616
貞	-11.5616
亦名如來法身	-11.5616
餓	-11.5616
促	-11.5616
名似立宗	-11.5617
謂東為西	-11.5618
牆	-11.5618
胝	-11.5618
嗢	-11.5619
夙	-11.5619
陰界入	-11.5619
初地巳上	-11.5619
頑	-11.562
專注	-11.562
若心有起	-11.562
當知無明能生一切染法	-11.5621
異類等解	-11.5621
攻	-11.5621
唯示體	-11.5621
▁166	-11.5621
造斯論	-11.5622
其心怯弱	-11.5622
祀	-11.5623
瘂	-11.5623
皈	-11.5624
此以何義	-11.5624
非生非滅	-11.5624
無有少法	-11.5624
述造論意	-11.5625
不二摩訶衍法	-11.5626
冀	-11.5626
燭	-11.5626
臍	-11.5632
朽	-11.5633
感彼中生	-11.5633
整	-11.5634
退屈	-11.5635
有分別智	-11.5635
生住滅	-11.5636
捨壽命後	-11.5636
不也世尊	-11.5637
二何故下	-11.5641
極堅極強最為痛	-11.5642
兩重能入	-11.5693
展	-11.6031
挙	-11.6046
洛叉	-11.6049
(21	-11.6054
午	-11.6054
與外道共	-11.6055
(36	-11.6056
令其念著	-11.6056
闡	-11.6056
眾生依心意意識轉	-11.6057
潰	-11.6058
二千五百	-11.6058
以有無明染法因故	-11.6059
隅	-11.6059
違自順他	-11.606
籍	-11.606
班	-11.6061
為欲解釋如來根本之義	-11.6062
泛	-11.6063
螺	-11.6064
非求世間名利恭敬故	-11.6064
以有不覺妄想心	-11.6064
聰	-11.6065
得免諸障	-11.6065
嗜	-11.6065
緣滅故相應心滅	-11.6065
俾	-11.6065
三界虗偽	-11.6065
恒常熏習	-11.6066
虗偽	-11.6066
以有境界緣故	-11.6066
但以無明而熏習故	-11.6066
梁攝論云	-11.6066
贍	-11.6067
規	-11.6067
淳淨明故	-11.6067
體無不實	-11.6067
閻浮	-11.6067
瑞	-11.6068
廻	-11.6068
佛滅度後	-11.6068
訛	-11.6069
諸佛甚深廣大義	-11.6069
忿恚	-11.6069
併	-11.607
不取不念	-11.6071
慳悋	-11.6071
皆同真如性相	-11.6071
教理行果	-11.6072
彼身體相	-11.6072
沖	-11.6072
禮懺	-11.6072
即心不覺常無別異	-11.6072
叢	-11.6072
后	-11.6072
煎	-11.6072
驢	-11.6073
初三攝眼所不攝故	-11.6073
四天王天	-11.6073
始本二覺	-11.6074
以一切法皆同如故	-11.6074
不可窮盡	-11.6074
馬鳴菩薩造真諦三藏譯	-11.6075
捷	-11.6075
惰	-11.6075
錯謬	-11.6075
若得無念者	-11.6075
心生則種種法生	-11.6075
無自心力	-11.6075
瞿曇	-11.6075
泣	-11.6076
即得往生	-11.6076
若心起見	-11.6076
療	-11.6076
具足無漏性功德故	-11.6076
廁	-11.6077
發阿耨多羅三藐三菩提心	-11.6077
曠野	-11.6077
𥁞	-11.6078
沸	-11.6078
次第漸轉	-11.6078
暇	-11.6079
泡	-11.6079
鵂	-11.608
奇特	-11.6081
其樹中間	-11.6081
勇健	-11.6081
歸依德處	-11.6081
薩般若慧	-11.6081
色聲香味觸	-11.6082
肅	-11.6082
匹	-11.6082
坦	-11.6083
能自發心	-11.6083
諸女天等	-11.6084
壓	-11.6085
発	-11.6085
無覺無觀	-11.6086
自當顯	-11.6087
脣	-11.6087
旡	-11.609
腸	-11.6092
釋成上義	-11.6094
難可堪忍	-11.6097
護持正法	-11.6097
離實等有	-11.6098
聲是所聞	-11.6099
說所立無	-11.6124
初執緣	-11.6141
拔濟	-11.6251
別釋散說	-11.6397
(33	-11.649
(43	-11.6518
藕	-11.6519
能成立法無質礙	-11.6525
哥	-11.653
(23	-11.653
圓圓海	-11.6531
莊	-11.6531
範	-11.6533
珂	-11.6533
法雲地	-11.6534
慳嫉	-11.6534
貨	-11.6535
違他順自	-11.6536
復次生滅因緣者	-11.6536
非心智滅	-11.6537
於所比義	-11.6537
即熏習妄心	-11.6537
挍	-11.6538
文相可知	-11.6539
若風止滅	-11.6539
躬	-11.6539
拯	-11.6539
寅	-11.6539
文相可見	-11.6539
問答決疑門	-11.654
祗	-11.654
確	-11.654
牟	-11.654
為先導	-11.654
依本修治	-11.6541
太原	-11.6541
正解不謬	-11.6541
(22	-11.6542
賓頭盧	-11.6542
十解以上	-11.6543
師子吼	-11.6543
貿	-11.6543
即熏習無明	-11.6543
:	-11.6543
轍	-11.6543
肝	-11.6543
非可作相	-11.6544
戰鬪	-11.6544
所言止者	-11.6544
有生有滅	-11.6544
字義差別	-11.6544
與用相應	-11.6544
相有無量好	-11.6545
繼	-11.6545
躍	-11.6545
諍訟	-11.6545
若修觀者	-11.6545
言語道斷	-11.6545
一切諸法唯依妄念而有差別	-11.6545
眼等必為他用	-11.6545
謂心為念	-11.6546
戮	-11.6546
溼	-11.6546
檢	-11.6546
水相風相不相捨離	-11.6546
受持讀誦	-11.6547
忉	-11.6547
諸所有事	-11.6547
嬉戲	-11.6547
大願平等方便	-11.6547
不生滅與生滅	-11.6547
即止之觀	-11.6548
團	-11.6548
芳	-11.6549
薩婆若	-11.6549
是現識因	-11.6549
不依文字	-11.6549
窟	-11.6549
甚為可愍	-11.655
皆同如故	-11.655
鏤	-11.6551
戲笑	-11.6551
繒	-11.6552
正明執相	-11.6552
勤勇所發	-11.6553
心非動性	-11.6553
階降	-11.6553
即是如來平等法身	-11.6553
景	-11.6553
欠	-11.6554
婢	-11.6554
肥	-11.6554
飲酒	-11.6555
毗鉢舍那	-11.6555
諾	-11.6555
與因俱	-11.6556
證何境界	-11.6556
離二取相	-11.6556
那由他	-11.6556
旁	-11.6556
歇	-11.6557
悉於中現	-11.6557
考	-11.6557
遐	-11.6558
揮	-11.6558
姊	-11.6559
遍計所執	-11.656
茶	-11.656
犢	-11.6562
依境界緣	-11.657
屎尿	-11.6573
隣虛	-11.6599
修一切善	-11.6899
攀	-11.6943
躡	-11.6981
沾彌利	-11.7008
唧	-11.7008
二初標示	-11.7027
如是修習如是數行	-11.7028
激	-11.7029
冒	-11.703
漢	-11.7031
受於一切身心等苦	-11.7033
欽	-11.7035
依數列名	-11.7035
雙現前故	-11.7035
從信相應地觀察學斷	-11.7035
動相隨滅	-11.7036
対	-11.7037
依何等人	-11.7037
妄作境界義故	-11.7037
吽	-11.7038
阿毘達磨	-11.7038
起信論疏筆削記卷第十	-11.7039
貲	-11.7039
麤中之細	-11.7039
除障方便	-11.7039
非彼相違義能遣	-11.704
依本覺故而有不覺	-11.704
圭	-11.704
依不覺故說有始覺	-11.704
此識依見愛煩惱增長義故	-11.7041
儒	-11.7041
復生六種相	-11.7041
邏	-11.7041
不稱法性	-11.7042
狐	-11.7042
壘	-11.7042
夕	-11.7042
謂止一切境界相	-11.7042
院	-11.7042
津	-11.7042
誨	-11.7043
掩	-11.7043
離見則無境界	-11.7044
無明頓盡	-11.7044
能捨二乘怯弱之見	-11.7044
盤	-11.7044
示教利喜	-11.7044
長水沙門子璿錄	-11.7045
如菩薩地盡	-11.7045
中亦同此說	-11.7045
<	-11.7045
朋	-11.7045
對治凡夫住著世間	-11.7045
蹔	-11.7045
色性即智	-11.7045
波羅提木叉	-11.7045
ṇ	-11.7046
所謂樂念真如法故	-11.7046
飽	-11.7046
皆同微塵性相	-11.7047
捨麁分別	-11.7047
決定常住無	-11.7047
琰	-11.7047
清涼不變自在義故	-11.7047
真實識知	-11.7048
少欲知足	-11.7048
若從坐起	-11.7048
牢獄	-11.7048
始不異本	-11.7048
若止觀不具	-11.7049
英	-11.7049
地獄餓鬼畜生	-11.7049
隨無明緣	-11.7049
以是二門不相離故	-11.7049
凡夫二乘心所見者	-11.7049
豁	-11.705
唯是法身智相之身	-11.705
沫	-11.7051
嗔恚	-11.7051
終不為惱	-11.7052
行住坐臥	-11.7052
從因至果	-11.7053
生滅與不生滅	-11.7053
四大所造色	-11.7053
親友尊長	-11.7053
蠅	-11.7053
心性離見	-11.7054
嶮	-11.7054
無有世諦境界	-11.7055
十二支法	-11.7055
心即常住	-11.7056
此云何示	-11.7056
妃	-11.7057
疲倦	-11.7057
寡	-11.7059
紀	-11.7059
諂誑	-11.706
烈	-11.706
隨順得入真如三昧	-11.7061
化樂天	-11.7061
彼中生已受用種種不善	-11.7064
咽	-11.7064
門樓一	-11.7071
項	-11.7077
放大光明名	-11.7079
彼壽量者	-11.7079
哪	-11.7101
商羯羅	-11.7538
能立法不成	-11.7549
妬	-11.7554
依覺有不覺	-11.7556
剪	-11.7556
暮	-11.7557
得入如來種性	-11.7557
無始世來	-11.7557
苞	-11.756
窮未來際	-11.7561
不覺念起	-11.7562
忽然念起	-11.7563
亦無色相可見	-11.7564
謂若為修彼止輪門	-11.7564
裁	-11.7564
槩	-11.7565
契經異說	-11.7565
阿彌陀佛	-11.7565
陣	-11.7566
八十種好	-11.7566
綺	-11.7566
謂不如實知真如法一故	-11.7566
無差違故	-11.7567
曆	-11.7567
心不懈退	-11.7567
𠕋	-11.7567
即得隨順入真如門	-11.7568
由宗因喻多言	-11.7568
情有理無	-11.7568
俯	-11.7568
當勤正念	-11.7568
復次眾生初學是法	-11.7569
晦	-11.7569
菩	-11.7569
依名辨相	-11.7569
以如來藏無前際故	-11.7569
略不別釋	-11.757
〔	-11.757
使人愛著	-11.757
若無人知	-11.757
動彼靜心	-11.757
〕	-11.757
蠲	-11.757
必為他用	-11.7571
鼻舌身	-11.7571
則無能入菩提之道	-11.7571
亦無有相可取	-11.7571
增長取熏習	-11.7571
矯	-11.7571
為欲總攝如來廣大深法無邊義故	-11.7572
常與無常	-11.7572
為令善根微少眾生	-11.7572
洪	-11.7572
瑕	-11.7572
鞭杖	-11.7572
添	-11.7572
何等外道說	-11.7572
則知心相生住異滅	-11.7572
若心體滅	-11.7573
先宗後因	-11.7573
給侍	-11.7573
終無得淨	-11.7573
駕	-11.7574
能化教法出興門	-11.7575
四寶所成	-11.7575
樂集一切諸善行故	-11.7575
離和合相	-11.7575
但隨眾生見聞得益	-11.7575
膏	-11.7575
至心源時	-11.7575
能起厭苦之心	-11.7576
康	-11.7576
厭生死苦樂求涅槃	-11.7576
覧	-11.7576
為無明所染	-11.7576
妹	-11.7577
依此法身說名本覺	-11.7577
則有不見之相	-11.7577
亦名分離識	-11.7578
籠	-11.7579
旃	-11.7579
炳	-11.7579
同無異有	-11.758
唯依妄念而有差別	-11.758
帛	-11.7581
藝	-11.7582
夜摩天	-11.7582
排	-11.7583
斷命品	-11.7583
脈	-11.7583
陋	-11.7584
風所吹	-11.7587
廣百論	-11.7589
深里出興地藏大龍王	-11.759
髀	-11.759
叫喚	-11.7592
紺	-11.7596
產	-11.7596
兜率陀天	-11.7597
𠼝	-11.7598
拍	-11.7598
是猶豫因	-11.7601
是故此光名	-11.7607
得泥洹道	-11.7617
復次戒有	-11.7835
(44	-11.8086
雪	-11.8097
訊	-11.8105
翔	-11.8105
醒	-11.8107
巘尼	-11.8114
即智名果	-11.8116
唯依心現	-11.8116
訥	-11.8117
與彼不覺相應不離	-11.8117
攝眾生戒	-11.8117
無發悟	-11.8117
以有妄境界染法緣故	-11.8117
𡁠	-11.8118
謹	-11.8119
令諸眾生正解不謬故	-11.812
以不達一法界故	-11.812
以依動故能見	-11.812
心動說名為業	-11.812
屏	-11.8121
不了真如法故	-11.8121
乃至不依見聞覺知	-11.8121
所謂依不定聚眾生	-11.8121
於色究竟處	-11.8121
其旨趣者	-11.8122
撮	-11.8122
敏	-11.8122
又令使人	-11.8122
鼠	-11.8122
結觀分齊	-11.8122
如有成立聲是無常	-11.8123
倍勝於前阿僧	-11.8123
則有香氣	-11.8123
殿堂	-11.8123
轉彼淨心	-11.8123
以始覺者即同本覺	-11.8124
三寶之海轉廣大故	-11.8124
為令善根成熟眾生	-11.8124
二散文釋	-11.8124
側	-11.8125
遵	-11.8125
使無有餘	-11.8125
依此法得成淨信	-11.8125
通是宗法性	-11.8125
抄	-11.8125
效	-11.8126
凶	-11.8126
善護其心	-11.8126
以智性即色故	-11.8126
誹	-11.8126
能攝一切法生一切法	-11.8126
爽	-11.8126
速趣涅槃	-11.8126
以現烟故	-11.8127
麤念相	-11.8127
往復除疑	-11.8127
以有如是大方便智	-11.8127
雖實有此諸功德義	-11.8127
青黃赤白	-11.8128
且止斯事	-11.8128
能作一切勝妙境界	-11.8128
忿怒	-11.8128
心起著故	-11.8129
揵	-11.8129
篋	-11.8129
勇悍	-11.8129
葛	-11.813
非其實退	-11.813
閙	-11.813
矛	-11.813
饑	-11.813
絲	-11.813
衢	-11.8131
普利一切眾生界	-11.8131
所言不空者	-11.8131
阿闍世王	-11.8131
說名智身	-11.8132
離言絕慮	-11.8132
穩	-11.8133
無有初相可知	-11.8133
無有超過之法	-11.8133
約體絕相	-11.8134
牢固	-11.8134
候	-11.8134
徧照法界義故	-11.8135
嗟	-11.8135
分別假名言相	-11.8136
與種種善法	-11.8136
就此門中即有二	-11.8137
無常苦空無我	-11.8137
淵	-11.8137
掘	-11.8138
禽獸	-11.8138
枉	-11.8138
循	-11.8139
唯是其空	-11.8139
悠	-11.8139
信滿入住	-11.8139
无	-11.8139
怙	-11.814
謂言說之極	-11.814
殑	-11.8142
羞	-11.8143
眉	-11.8148
有覺有觀	-11.8149
識無邊入	-11.8152
斤	-11.8154
剝	-11.8158
是故得成此光明放大光明名	-11.8161
之虫復有	-11.8184
抧	-11.8193
何過耶	-11.8228
二初標門	-11.8254
示大乘體	-11.8409
結前生後	-11.8436
不定及相違	-11.8606
変	-11.8661
二文合也	-11.8682
楞	-11.8699
彼諸部見	-11.8699
於義異轉	-11.8703
性染幻差別故	-11.8703
不覺念起現妄境界	-11.8704
醯	-11.8704
於汝意云何	-11.8705
非非有相非非無相	-11.8707
十方世界之微塵數量	-11.8708
寂滅者名為一心	-11.8708
故受之以	-11.8709
火所燒	-11.8709
多有重罪惡業障故	-11.8709
此非心識分別能知	-11.8709
是故此義唯佛能知	-11.8709
非是水滅	-11.871
畔	-11.871
以說不究竟	-11.871
攝善法戒	-11.8711
若能觀察知心無念	-11.8711
鏡若有垢	-11.8711
修行有五門	-11.8711
得值諸佛	-11.8711
菩薩發是心故	-11.8712
燼	-11.8712
此意復有五種名	-11.8712
揆	-11.8712
依於無明熏習而有	-11.8712
俱非絕離	-11.8712
釋曰後釋文有二初	-11.8713
迦旃延	-11.8713
初寄問生起	-11.8713
雀	-11.8713
舉益勸修	-11.8714
魅	-11.8714
須臾變壞	-11.8714
鴻	-11.8714
會相入實	-11.8715
囊	-11.8715
遠離凡夫不修善根	-11.8715
發何等心	-11.8715
栖	-11.8715
自信己性	-11.8715
纓絡	-11.8715
而亦即念性不可得	-11.8715
以深自害	-11.8715
妄與法違	-11.8715
自信巳性	-11.8716
令行十善	-11.8716
前後無量差別	-11.8716
庸	-11.8716
得見心性心即常住	-11.8717
貢	-11.8717
瀑	-11.8717
遠離一切心境界相	-11.8718
當知真如自性	-11.8718
顯法體空無妄故	-11.8718
▁167	-11.8718
亦如耳璫眾寶	-11.8719
海東疏	-11.8719
糖	-11.8719
礦	-11.8719
少聞而多解者	-11.8719
金光明經	-11.8719
即復此心亦無自相	-11.872
踰繕那	-11.872
此真如體無有可遣	-11.872
以五事治五事	-11.8721
因緣互闕	-11.8721
蹉	-11.8721
膜	-11.8721
藤	-11.8721
擣	-11.8722
陶	-11.8722
仁王經云	-11.8722
涅	-11.8722
撫	-11.8723
則有所少	-11.8723
司	-11.8723
背覺合塵	-11.8723
具有過恒沙等妄染之義	-11.8724
舞	-11.8726
毘盧遮那	-11.8727
砂	-11.8727
慨	-11.8728
苐	-11.8728
臨命終時	-11.8729
管	-11.8729
具示三大	-11.8729
眩	-11.873
緊	-11.873
識名色六入觸受	-11.8733
羼	-11.8735
頹	-11.8736
修念死	-11.8737
酢	-11.874
買	-11.8744
求死不	-11.8808
大智慧光明	-11.924
盧舍那佛	-11.928
喝	-11.9316
螫	-11.9323
此玄文本論亦復如如是若有眾生類	-11.9324
速離眾苦	-11.9326
對至即現	-11.9326
修諸福德	-11.9327
釋曰後答有二初結頌	-11.9328
漚	-11.9328
璫	-11.9329
奚	-11.933
依心自在地能離故	-11.933
較	-11.9331
唯如來能知故	-11.9331
誠心懺悔	-11.9331
無怨無親	-11.9331
無明所染有其染心	-11.9331
自體顯照一切妄法	-11.9331
汙	-11.9331
非實非德非業	-11.9332
念無自相不離本覺	-11.9332
淫	-11.9332
荊	-11.9333
得入如來地能離故	-11.9333
若水滅者	-11.9333
以真如自在用義故	-11.9333
若心滅者云何相續	-11.9333
隨順奢摩他觀義故	-11.9333
以從先世來	-11.9333
皆離此因	-11.9333
如木中火性	-11.9333
無有彼此色相迭相見	-11.9333
自然歸順真如法故	-11.9333
覲	-11.9334
遽	-11.9334
布施持戒忍辱精進禪定	-11.9334
所謂能現一切境界	-11.9334
毘佛略	-11.9334
謂分別因緣生滅相	-11.9335
同品非定有	-11.9335
從微至著	-11.9335
知心妄動無前境界	-11.9335
惓	-11.9335
若因滅則緣滅	-11.9335
麁中之細	-11.9335
所言不覺義者	-11.9335
紹佛種	-11.9335
常不休廢	-11.9335
而有無量無邊無明	-11.9336
以依能見故境界妄現	-11.9336
細中之麤	-11.9336
離心則無六塵境界	-11.9336
壯	-11.9336
染心者有六種	-11.9336
樞	-11.9336
所謂為令眾生離一切苦	-11.9337
監	-11.9337
無明之相亦無有始	-11.9337
依方故迷	-11.9337
梯	-11.9337
憒	-11.9337
以隨順法性無斷絕故	-11.9337
最上授所問經	-11.9337
又以覺心源故	-11.9338
猶如迷人	-11.9338
此阿梨耶識當何決擇	-11.9338
謂一切法真如平等不增減故	-11.9339
即是眾生外緣之力	-11.9339
當護譏嫌	-11.9339
滌	-11.9339
古德云	-11.9339
以熏習因緣力故	-11.9339
若進若退	-11.9339
雄	-11.934
眷	-11.934
替	-11.934
修唯識觀	-11.934
云何熏習起淨法不斷	-11.934
略說信心有四種	-11.934
刑	-11.934
芬	-11.9341
應成非所說	-11.9341
妍	-11.9341
f	-11.9341
j	-11.9341
諳	-11.9341
欲於如來甚深境界	-11.9341
離名種等所有分別	-11.9341
摸	-11.9342
依於動心能見相故	-11.9342
乃至小罪	-11.9342
稼	-11.9342
以念相應不斷故	-11.9342
復以廣論文多為煩	-11.9342
能生一切世間出世間善因果故	-11.9343
爐	-11.9343
歸敬述意	-11.9343
復次覺體相者	-11.9343
逗	-11.9344
費	-11.9344
或學他發心	-11.9344
本在因地	-11.9344
絡	-11.9345
一心者名如來藏	-11.9345
孫	-11.9345
戾	-11.9345
慈悲喜捨	-11.9345
閣	-11.9346
皆應止觀俱行	-11.9346
壽命短促	-11.9347
言真如者亦無有相	-11.9347
辣	-11.9347
次當說現示	-11.9347
匠	-11.9348
依諸凡夫取著轉深	-11.9348
陸	-11.9348
雞	-11.9348
復次真如用者	-11.9348
糞掃衣	-11.9348
亭	-11.9348
則有過恒沙等諸淨功德相義示現	-11.9349
七重寶	-11.935
額	-11.935
難行苦行	-11.935
艱	-11.935
踊	-11.9351
釋提桓因	-11.9351
而言知初相者	-11.9352
咽喉	-11.9352
淨居天	-11.9352
斯之謂也	-11.9352
嵐	-11.9353
渚	-11.9353
㖿	-11.9354
雌	-11.9354
腦	-11.9356
債	-11.9356
涼	-11.9357
訶梨跋摩造姚秦三藏鳩摩羅什譯	-11.9359
牧	-11.9359
胃	-11.9359
受中品上品	-11.9361
是人住下品	-11.9361
拕	-11.9363
汗	-11.9365
捕	-11.9369
非空決定住法	-11.9378
堨	-11.9379
當念身自性	-11.9383
嘶	-11.9392
以阿那含道	-11.9398
㖡	-11.9399
維	-11.9948
枿	-11.9958
下釋相二初	-11.998
燕	-11.9982
瓈	-11.9982
鑁	-11.9983
秀	-11.9987
凌	-11.9988
魏	-11.9991
謐	-11.9991
評	-11.9992
洛	-11.9994
所謂以依真如法故	-11.9994
騎	-11.9994
勤勇無間所支	-11.9995
幼	-11.9996
串	-11.9996
或捨本勝行	-11.9996
顯因同品決定有性	-11.9997
入淨心地隨分得離	-11.9997
丁	-11.9997
二長行釋二初	-11.9997
增其不了	-11.9997
拒	-11.9998
但以真如而熏習故	-11.9998
約終教說	-11.9998
塚	-11.9999
乃至如來地能究竟離	-11.9999
謂一切諸佛所證之道	-11.9999
是故得名一切種智	-11.9999
貪著世間名利恭敬	-11.9999
無明為因生三細	-11.9999
或為世間事務種種牽纏	-11.9999
或為病苦所惱	-11.9999
有如是等眾多障礙	-11.9999
蹈	-12
攝律儀戒	-12
辟	-12
胡	-12
噵	-12
勘	-12
有法能起摩訶衍信根	-12
推求五陰色之與心	-12.0001
立志堅強	-12.0001
四寶為塼	-12.0001
亦不得隨心外念境界	-12.0001
翅	-12.0001
能障世間自然業智故	-12.0002
對治凡夫二乘心過故	-12.0002
崩	-12.0002
法性真如海	-12.0002
依士釋	-12.0002
遇惡因緣	-12.0003
以未入法身位故	-12.0003
以能成就業識義故	-12.0003
取要言之	-12.0003
願求一切智故	-12.0003
沐	-12.0003
信法有大利益	-12.0003
以真如法常熏習故	-12.0004
對始覺義說	-12.0004
求學如實行故	-12.0004
常樂親近諸菩薩眾	-12.0004
開示諸有問者未了義故	-12.0004
必定不退信心故	-12.0004
填	-12.0004
藪	-12.0004
若有眾生來求法者	-12.0005
膚	-12.0005
以能成就分別事識義故	-12.0005
一切凡夫聲聞緣覺菩薩諸佛	-12.0005
猶如明鏡現於色像	-12.0006
以如實知無前境界故	-12.0006
渧	-12.0006
唯為開導利益眾生	-12.0006
皆令究竟無餘涅槃	-12.0006
▁184	-12.0006
煥	-12.0006
為示專念方便	-12.0007
有其終盡	-12.0007
乃至久遠熏習力故	-12.0007
能自燒木	-12.0007
然起人天種子	-12.0007
斷絕一切三寶之種	-12.0007
寂而常照	-12.0007
以見始故	-12.0008
綜	-12.0008
犍	-12.0008
自畏不能常值諸佛	-12.0008
謂以專意念佛因緣	-12.0008
動相則滅	-12.0008
傲	-12.0008
云何有信無信	-12.0008
無量前後差別	-12.0008
若觀彼佛真如法身	-12.0009
以一切時任運而起常在前故	-12.0009
無得久停	-12.0009
速成不退	-12.0009
而亦不取眾生相	-12.0009
顯其礙義	-12.0009
熏離俱相	-12.0009
模	-12.0009
僅	-12.0009
與彼本覺不相捨離	-12.0009
所謂自有熏習之力	-12.001
懊	-12.001
謂離一切法差別之相	-12.001
無去無來	-12.0011
王又問那先	-12.0011
金鼓經	-12.0011
剌	-12.0011
無有能說可說	-12.0012
雖念因緣善惡業報	-12.0013
及不思議熏之所成就	-12.0013
非凡夫能知	-12.0013
擯	-12.0013
如是信心成就得發心者	-12.0014
茫	-12.0014
冲	-12.0014
硬	-12.0014
體備一切功德之法	-12.0014
把	-12.0015
銳	-12.0015
棲	-12.0015
酸	-12.0016
裝	-12.0016
優波離	-12.0016
三重塹外	-12.0016
邈	-12.0016
疼	-12.0016
蹙	-12.0018
見一處住地	-12.0018
柯羅羅	-12.0018
梵先行天	-12.0019
挺	-12.0019
販	-12.002
謳	-12.002
痰	-12.0022
亦取如來地	-12.0023
脾	-12.0024
膩	-12.0025
堅依堅	-12.0027
非染非淨	-12.0027
無所有無邊入	-12.0032
屎	-12.0035
脊	-12.0041
無慚無愧	-12.005
故同喻云如	-12.0074
毗盧舍那	-12.0079
湩	-12.0082
釋迦牟尼佛	-12.0343
譬如種種瓦器	-12.0526
釋曰後作釋有二初分門	-12.0681
観	-12.069
亘	-12.0701
諭	-12.0702
釋曰後辨相有二初	-12.0703
吻	-12.0703
技	-12.0704
堵	-12.0704
文相明故	-12.0705
十方世界之塵數	-12.0707
与	-12.0709
以隨順法性無住故	-12.0709
若離善知識所護	-12.071
起下復次生滅	-12.071
初結指標分	-12.071
更修雜業	-12.071
如風依水而有動相	-12.0712
皆願度脫一切眾生	-12.0712
云何熏習起染法不斷	-12.0712
広	-12.0712
或卒起精進	-12.0713
得信成就堪能發心	-12.0713
結果由因	-12.0713
皆能開示種種法義	-12.0713
或為知友	-12.0713
從細至麁	-12.0713
略說方便有四種	-12.0713
復次顯示從生滅門即入真如門	-12.0714
牀	-12.0714
歒	-12.0714
因一喻二	-12.0714
乃得平等見諸佛故	-12.0714
所謂心性常無念故	-12.0714
是近遠二緣	-12.0714
寐	-12.0715
乃能志求無上之道	-12.0715
以隨順法性離癡障故	-12.0715
與諸佛智用相應	-12.0715
難知難解	-12.0715
以有大願自在力故	-12.0715
依二乘鈍根故	-12.0715
証	-12.0715
當知如來善巧方便	-12.0715
牒因顯果	-12.0715
方實不轉	-12.0716
是隨同品言	-12.0716
妓	-12.0716
坊	-12.0716
但依眾生心現	-12.0716
則得少分見於法身	-12.0716
是遣諸法自相門故	-12.0716
若人修行一切善法	-12.0717
是故一切眾生不名為覺	-12.0717
定離眼識色	-12.0717
依如來藏故有生死	-12.0717
若見一切來求索者	-12.0717
誅	-12.0718
轉大法輪	-12.0718
常慘菩薩	-12.0718
懼謂信心難可成就	-12.0718
乃至滿足無有所少義故	-12.0718
則為向佛智故	-12.0718
職	-12.0719
復次分別生滅相者	-12.0719
常念親近供養恭敬	-12.0719
細中之麁	-12.0719
略說發心有三種	-12.0719
又一切染法所不能染	-12.0719
所謂依因依緣	-12.0719
無明熏習義有二種	-12.072
迫	-12.072
尼乾子	-12.072
鑑	-12.072
輝	-12.072
無一一法而非	-12.072
佛聖弟子修習	-12.072
以瓶等為同品	-12.0721
麁中之麁	-12.0721
核	-12.0721
秉	-12.0721
弄	-12.0721
當知如來有勝方便	-12.0721
以智相無可見故	-12.0721
占	-12.0721
不為他人所惱	-12.0721
於生死中勇猛不怯	-12.0721
不應貪求名利恭敬	-12.0721
以住於此娑婆世界	-12.0721
說我是思	-12.0721
是菩薩於一念頃	-12.0722
衡	-12.0722
有一實故有德業故	-12.0722
若人專念西方極樂世界阿彌陀佛	-12.0722
ś	-12.0722
棱	-12.0722
能示如是無數方便	-12.0722
晨	-12.0722
或起二乘種子	-12.0722
當知此中道理亦爾	-12.0722
於中若見若念	-12.0722
除滅無明見本法身	-12.0722
隨願得生他方佛土	-12.0722
鳳	-12.0722
宗義一分為因	-12.0723
結末歸本	-12.0723
依諸凡夫二乘人等	-12.0723
冊	-12.0723
以能究竟顯實故	-12.0723
蚋	-12.0723
鞠	-12.0723
所謂自體有大智慧光明義故	-12.0723
除疑捨邪執	-12.0723
而知相緣相同故	-12.0724
深密經	-12.0724
諸佛菩薩教令發心	-12.0724
亦有無量種種莊嚴	-12.0724
一切世間生死染法	-12.0724
心與無明俱無形相	-12.0724
是中依未入正定聚眾生	-12.0725
則令妄心厭生死苦	-12.0725
攸	-12.0725
凋	-12.0725
高半由旬	-12.0725
迴此功德如法性	-12.0725
先因後宗	-12.0725
不毀不失	-12.0726
如是摩訶衍諸佛祕藏	-12.0726
尋名取著	-12.0726
若人雖念寶性	-12.0726
芻	-12.0726
沛	-12.0726
傳梵大師賜紫沙門臣法護等奉詔譯	-12.0726
又復說名分別事識	-12.0726
飡	-12.0728
革	-12.0728
境界為緣生六	-12.0729
壺	-12.0729
嚙	-12.0729
以一切染法皆是不覺相故	-12.073
更見前法可念者	-12.073
明真如法身自體不空	-12.073
如是淨法無量功德	-12.073
輟	-12.0731
况	-12.0731
翰	-12.0731
劑	-12.0731
竅	-12.0732
脂	-12.0732
七寶樹林之所圍	-12.0732
兩俱極成非佛語所不攝	-12.0732
不為外緣一切音聲之所驚動	-12.0732
時諸天子從	-12.0733
寂滅寂靜念	-12.0734
牘	-12.0734
磕	-12.0734
但隨妄念不可得故	-12.0734
醯摩跋多	-12.0734
桑	-12.0735
犁	-12.0736
臆	-12.0736
押	-12.0736
則無一切境界之相	-12.0737
暑	-12.0739
瘦	-12.0741
古因明師	-12.0743
栽	-12.0743
喉	-12.0748
鞭	-12.075
祿	-12.075
詎	-12.0756
胞	-12.0758
中入三昧於	-12.0788
初結指科分	-12.0924
来	-12.1456
覚	-12.1462
処	-12.1464
撓	-12.1471
行者常應智慧觀察	-12.1473
寤	-12.1474
則能遠離是諸業障	-12.1474
鎮	-12.1475
或令人知宿命過去之事	-12.1476
透	-12.1476
人頂骨淨	-12.1476
亦知未來之事	-12.1476
以修世間諸禪三昧	-12.1477
摶	-12.1477
亦能使人得諸三昧	-12.1477
溟	-12.1478
則起外道見故	-12.1478
皆不離見愛我慢之心	-12.1478
濤	-12.1479
依諸凡夫說有五種	-12.1479
多疑多慮	-12.1479
劬	-12.1479
板	-12.148
抗	-12.148
直等三心	-12.148
-	-12.1481
所謂於諸善事	-12.1481
㲉	-12.1482
祥	-12.1483
闥	-12.1483
迢	-12.1485
忌	-12.1485
丑	-12.1486
甫	-12.1486
曷	-12.1486
皎	-12.1487
牢	-12.1487
鑿	-12.1487
晴	-12.1487
涸	-12.1489
晃	-12.1489
猫	-12.149
羽	-12.1491
宏	-12.1492
拳	-12.1493
閒	-12.1493
亮	-12.1495
挫	-12.1496
貯	-12.1496
雹	-12.1496
暨	-12.1497
鎔	-12.1497
愆	-12.1497
肌	-12.1497
闢	-12.1498
捶	-12.1498
倏	-12.1498
諠	-12.1499
朕	-12.15
臼	-12.1501
峻	-12.1501
哲	-12.1502
飜	-12.1503
矩	-12.1503
浣	-12.1505
釘	-12.1505
虻	-12.1505
禾	-12.1506
陿	-12.1507
尒	-12.1507
妾	-12.1508
爍	-12.1509
矚	-12.1511
犬	-12.1513
腐	-12.1515
咤	-12.1515
愷	-12.1521
疱	-12.1522
燧	-12.1529
囕	-12.2284
羨	-12.2296
瑣	-12.2302
廟	-12.2304
𦦨	-12.2304
昨	-12.2304
係	-12.2307
虔	-12.2308
遶	-12.231
鴈	-12.2314
楷	-12.2314
搏	-12.2315
祈	-12.2316
松	-12.2316
咄	-12.2316
惺	-12.2316
悴	-12.2317
懵	-12.2318
憫	-12.2318
李	-12.2319
荼	-12.232
殖	-12.2321
癈	-12.2321
韋	-12.2322
棺	-12.2322
琴	-12.2322
庫	-12.2322
綵	-12.2323
奮	-12.2324
袪	-12.2324
遏	-12.2325
陞	-12.2325
鴦	-12.2325
償	-12.2326
儲	-12.2327
万	-12.2328
嗣	-12.2328
􂶗	-12.2328
屣	-12.2329
礫	-12.2329
料	-12.2329
迮	-12.2329
稠	-12.233
俟	-12.233
鋸	-12.233
犀	-12.233
斂	-12.233
銛	-12.2331
輻	-12.2331
蒸	-12.2331
鄭	-12.2331
倉	-12.2332
戌	-12.2332
饌	-12.2332
輾	-12.2334
癩	-12.2334
儻	-12.2335
膽	-12.2336
扃	-12.2337
轂	-12.2339
漿	-12.234
屑	-12.234
鵝	-12.2341
歘	-12.2342
睛	-12.2344
絃	-12.2345
抂	-12.2366
􂵦	-12.2397
粳	-12.3193
猨	-12.3211
揭	-12.3212
膺	-12.3214
麟	-12.3216
陂	-12.3216
謀	-12.3216
醋	-12.3218
拱	-12.322
赫	-12.3221
諱	-12.3222
禍	-12.3222
搆	-12.3222
突	-12.3222
􂶛	-12.3223
肆	-12.3224
骸	-12.3224
惶	-12.3225
刊	-12.3225
殷	-12.3226
旱	-12.3226
㮈	-12.3227
傅	-12.3227
尠	-12.3228
梗	-12.3228
賒	-12.3228
篇	-12.3228
抖	-12.3229
擻	-12.3229
蒲	-12.323
椽	-12.323
獷	-12.323
輙	-12.3233
着	-12.3233
森	-12.3233
紐	-12.3233
擁	-12.3234
粮	-12.3235
壬	-12.3236
脉	-12.3236
遼	-12.3237
埋	-12.3238
减	-12.3238
錫	-12.3238
庭	-12.3238
趨	-12.3239
縈	-12.3239
蛾	-12.3239
允	-12.3242
膳	-12.3242
狩	-12.3244
陷	-12.3244
玩	-12.3245
賞	-12.3245
恍	-12.3246
瞬	-12.3247
悼	-12.3249
措	-12.3249
珊	-12.3249
壅	-12.3251
訪	-12.3251
荒	-12.3251
扣	-12.3251
捄	-12.3253
傭	-12.3258
腋	-12.3259
瘀	-12.3259
􂵧	-12.327
跟	-12.3272
慘	-12.3279
鷄	-12.3283
々	-12.4193
銘	-12.4202
数	-12.421
𦅂	-12.4216
睿	-12.4216
抵	-12.4217
属	-12.422
浸	-12.422
𦘕	-12.4221
孩	-12.4222
輭	-12.4223
豺	-12.4224
刪	-12.4225
捲	-12.4225
諷	-12.4226
冐	-12.4226
塑	-12.4227
媸	-12.4227
邃	-12.4228
粒	-12.4228
晚	-12.4229
聊	-12.4229
碍	-12.4229
漾	-12.4229
芥	-12.4229
拙	-12.423
洎	-12.4231
霑	-12.4231
􂏔	-12.4231
慣	-12.4231
鉗	-12.4232
囀	-12.4232
舡	-12.4233
駛	-12.4233
拾	-12.4233
澍	-12.4233
汲	-12.4234
踞	-12.4234
挑	-12.4234
漬	-12.4235
侯	-12.4236
揔	-12.4236
匡	-12.4237
瑚	-12.4238
蔭	-12.4238
吟	-12.424
晉	-12.424
彊	-12.424
梓	-12.4241
佐	-12.4241
詠	-12.4241
夭	-12.4242
討	-12.4243
嶽	-12.4243
駄	-12.4243
選	-12.4243
鷹	-12.4243
愓	-12.4243
吏	-12.4243
躭	-12.4243
搜	-12.4243
慜	-12.4244
脛	-12.4245
恢	-12.4246
湏	-12.4246
睫	-12.4247
携	-12.4247
構	-12.4248
蝎	-12.4248
掠	-12.4249
蕭	-12.425
材	-12.425
藐	-12.4251
兜	-12.4255
完	-12.4255
粉	-12.4257
􂎶	-12.4257
輦	-12.4259
函	-12.4268
抳	-12.5317
窣	-12.5317
栗	-12.5319
浩	-12.5319
呾	-12.532
􂌞	-12.5325
橋	-12.5326
亥	-12.5326
企	-12.5328
筒	-12.5328
穡	-12.5329
頼	-12.5331
椎	-12.5333
悞	-12.5333
翫	-12.5334
蠶	-12.5334
仲	-12.5334
副	-12.5335
匝	-12.5335
卯	-12.5336
殄	-12.5337
秪	-12.5337
匣	-12.5337
鼎	-12.5337
痴	-12.5337
拜	-12.5337
愜	-12.5338
篤	-12.5339
陌	-12.5339
傘	-12.5339
綠	-12.534
弁	-12.5341
薦	-12.5341
懇	-12.5342
誣	-12.5343
濯	-12.5343
織	-12.5343
肺	-12.5343
穆	-12.5343
詢	-12.5343
楊	-12.5344
ī	-12.5345
瞑	-12.5345
牖	-12.5345
啻	-12.5345
帖	-12.5345
嬌	-12.5345
觧	-12.5345
囚	-12.5347
盾	-12.5347
鄉	-12.5347
啄	-12.5347
怱	-12.5347
酉	-12.5348
巴	-12.5348
禦	-12.5349
赦	-12.5349
氍	-12.5349
沾	-12.5349
粹	-12.5349
屢	-12.535
巡	-12.535
拈	-12.5351
挽	-12.5351
楯	-12.5351
罄	-12.5352
逝	-12.5353
換	-12.5353
衒	-12.5353
這	-12.5354
渠	-12.5354
訟	-12.5355
舶	-12.5355
嗚	-12.5356
燦	-12.5356
冰	-12.5357
棒	-12.5358
洟	-12.5358
巍	-12.5358
姑	-12.5359
稽	-12.5359
眸	-12.536
姹	-12.5362
驕	-12.5363
燋	-12.5365
寢	-12.5365
齶	-12.5367
唇	-12.5371
勃	-12.5374
踏	-12.5375
𠼦	-12.5376
頰	-12.5379
洄	-12.538
鑊	-12.5381
従	-12.6553
鐙	-12.6555
舅	-12.6559
羹	-12.6564
爹	-12.6565
秫	-12.6569
褒	-12.6569
踵	-12.657
詺	-12.6572
輅	-12.6574
鼈	-12.6576
姿	-12.6577
癹	-12.6578
丹	-12.6578
躇	-12.6578
闊	-12.6578
鷺	-12.658
禱	-12.6581
坏	-12.6582
壇	-12.6582
丙	-12.6583
塊	-12.6584
茅	-12.6584
吳	-12.6584
憲	-12.6585
仕	-12.6585
郤	-12.6585
滓	-12.6586
猿	-12.6587
纓	-12.6588
岳	-12.6588
囂	-12.6589
潭	-12.6589
尖	-12.6591
顰	-12.6591
拽	-12.6591
駝	-12.6591
諫	-12.6591
殞	-12.6591
盎	-12.6592
凖	-12.6592
嫁	-12.6592
鵠	-12.6592
娠	-12.6592
狸	-12.6593
湻	-12.6593
郎	-12.6593
舛	-12.6593
痊	-12.6594
淮	-12.6594
朔	-12.6595
絹	-12.6595
昌	-12.6595
宴	-12.6596
擎	-12.6596
碁	-12.6596
兀	-12.6596
壤	-12.6597
賦	-12.6597
豹	-12.6598
瘧	-12.6598
疇	-12.6599
讓	-12.66
𡨋	-12.66
蔓	-12.6601
盥	-12.6601
㝹	-12.6602
咀	-12.6602
餐	-12.6602
个	-12.6602
洋	-12.6602
帙	-12.6602
欻	-12.6603
洽	-12.6604
鉾	-12.6604
螢	-12.6605
櫃	-12.6605
嚼	-12.6605
荔	-12.6606
慼	-12.6606
坤	-12.6606
徃	-12.6607
輞	-12.6607
祭	-12.6607
竄	-12.6607
罕	-12.6608
髏	-12.6609
喬	-12.6609
戊	-12.6609
坌	-12.661
􂵛	-12.6611
榍	-12.6612
蔔	-12.6613
唼	-12.6613
詩	-12.6613
斛	-12.6614
液	-12.6614
嘴	-12.6615
掣	-12.6616
繹	-12.6616
餌	-12.6616
祐	-12.6618
訾	-12.6619
綴	-12.6621
社	-12.6623
罤	-12.6625
架	-12.6628
撻	-12.663
跓	-12.7986
沬	-12.7992
壑	-12.7992
𡫸	-12.7996
憾	-12.7996
戍	-12.7998
敦	-12.8
怡	-12.8004
𤚥	-12.8006
埵	-12.8006
兢	-12.8006
朅	-12.8006
朱	-12.8007
繭	-12.8009
霜	-12.801
𣅍	-12.801
掬	-12.8011
毳	-12.8011
裸	-12.8012
笳	-12.8013
釧	-12.8013
岩	-12.8013
甄	-12.8015
罷	-12.8016
拭	-12.8016
勗	-12.8016
兕	-12.8016
迺	-12.8016
諡	-12.8017
崔	-12.8017
嚚	-12.8017
溪	-12.8018
悽	-12.8018
叛	-12.8018
叔	-12.8018
曝	-12.8019
鶖	-12.8019
撾	-12.802
鹹	-12.802
兆	-12.8021
揩	-12.8021
辜	-12.8021
瞥	-12.8022
戟	-12.8022
璿	-12.8023
跛	-12.8023
線	-12.8023
躰	-12.8023
􂵎	-12.8024
篩	-12.8024
鵄	-12.8025
侮	-12.8025
裔	-12.8025
皷	-12.8025
讒	-12.8025
腕	-12.8025
頴	-12.8025
旭	-12.8026
騐	-12.8026
矜	-12.8026
倘	-12.8027
捍	-12.8028
佑	-12.8028
袒	-12.8028
咥	-12.8028
概	-12.8028
控	-12.8029
撈	-12.8029
􂶖	-12.803
漱	-12.803
瀾	-12.803
誥	-12.803
苾	-12.8031
緇	-12.8031
憤	-12.8031
膾	-12.8032
介	-12.8033
吸	-12.8033
偕	-12.8034
眵	-12.8035
顗	-12.8035
抽	-12.8036
腎	-12.8036
聯	-12.8037
魁	-12.8037
皺	-12.8039
攢	-12.8039
𠰒	-12.8039
臟	-12.804
癊	-12.8042
鑄	-12.8043
闐	-12.8044
稚	-12.8044
肪	-12.8045
讎	-12.8046
狎	-12.805
迄	-12.805
株	-12.8051
㕧	-12.8053
沃	-12.8054
哿	-12.8055
=	-12.8055
憬	-12.8057
号	-12.8057
掁	-12.8059
咇	-12.8061
嚮	-12.807
㘑	-12.963
㒵	-12.9639
賽	-12.9644
桷	-12.9645
廃	-12.9648
寇	-12.9652
湧	-12.966
麵	-12.9662
翠	-12.9664
濃	-12.9665
戚	-12.9667
琢	-12.9668
叚	-12.9668
䭾	-12.9669
驪	-12.9669
磋	-12.9669
曀	-12.9669
㗚	-12.9672
駐	-12.9672
杓	-12.9672
斗	-12.9673
劈	-12.9673
藂	-12.9674
蓏	-12.9675
騃	-12.9675
援	-12.9676
葱	-12.9677
笛	-12.9677
軛	-12.9677
轅	-12.9677
瀉	-12.9678
零	-12.9679
忒	-12.9679
拶	-12.9679
贈	-12.968
筩	-12.968
雉	-12.968
墯	-12.968
操	-12.9681
乙	-12.9681
程	-12.9681
粟	-12.9682
顒	-12.9682
秤	-12.9682
翹	-12.9682
贖	-12.9682
嬉	-12.9682
塼	-12.9683
摘	-12.9683
熙	-12.9683
農	-12.9683
餚	-12.9684
碩	-12.9684
鐶	-12.9684
暉	-12.9684
磣	-12.9685
簫	-12.9685
什	-12.9685
郭	-12.9685
濡	-12.9686
複	-12.9687
梅	-12.9687
塘	-12.9687
罥	-12.9687
呈	-12.9688
刈	-12.9688
襲	-12.9688
粵	-12.9688
耗	-12.9689
瞖	-12.9689
殆	-12.9689
蓄	-12.9691
縫	-12.9691
個	-12.9691
蹤	-12.9691
龕	-12.9692
錍	-12.9692
掖	-12.9692
偃	-12.9692
檻	-12.9692
歿	-12.9692
宇	-12.9692
黠	-12.9692
矟	-12.9693
叡	-12.9693
藻	-12.9694
邦	-12.9694
駃	-12.9694
蛆	-12.9694
昂	-12.9695
碧	-12.9695
閏	-12.9695
泊	-12.9695
澆	-12.9696
鼉	-12.9696
莎	-12.9697
謚	-12.9697
弼	-12.9697
瘳	-12.9698
誌	-12.9698
諛	-12.9698
鼾	-12.9698
漆	-12.9699
歧	-12.9699
訴	-12.9699
嗽	-12.97
闔	-12.97
寓	-12.97
脆	-12.97
衷	-12.97
兮	-12.9701
鍮	-12.9701
憐	-12.9702
鴿	-12.9702
繖	-12.9702
邇	-12.9702
斉	-12.9702
熠	-12.9703
蠢	-12.9704
洒	-12.9704
湎	-12.9704
拄	-12.9704
錦	-12.9705
桴	-12.9705
篆	-12.9706
猷	-12.9707
鉀	-12.9708
祝	-12.9709
舂	-12.971
胤	-12.9711
泳	-12.9712
槍	-12.9713
瓫	-12.9714
疥	-12.9714
枷	-12.9715
穟	-12.9716
褥	-12.9719
桎	-12.9719
賃	-12.972
㿇	-12.972
館	-12.9721
枕	-12.9721
澀	-12.9722
痒	-12.9722
齎	-12.9723
撲	-12.9724
垣	-12.9725
枚	-12.9726
澓	-12.9731
鵲	-12.9734
麋	-12.9735
旻	-12.9738
糠	-12.9739
窓	-12.9745
経	-13.1637
璨	-13.1643
􂋧	-13.1646
妖	-13.1649
􂍊	-13.1653
㝡	-13.1654
沮	-13.1654
蟹	-13.1655
鵬	-13.1656
枲	-13.1658
雍	-13.1661
齅	-13.1662
杲	-13.1663
街	-13.1664
翥	-13.1664
倪	-13.1667
挂	-13.1668
齧	-13.1669
沽	-13.167
咩	-13.1671
当	-13.1671
鸚	-13.1673
棹	-13.1673
鈎	-13.1673
恪	-13.1674
鑰	-13.1674
袖	-13.1675
訣	-13.1675
詵	-13.1675
濺	-13.1676
萌	-13.1676
傴	-13.1677
会	-13.1677
酌	-13.1677
乱	-13.1677
鶴	-13.1678
笈	-13.1679
謁	-13.168
薀	-13.168
租	-13.1681
贅	-13.1682
署	-13.1682
哺	-13.1682
卛	-13.1682
羂	-13.1682
孽	-13.1682
樵	-13.1682
邀	-13.1682
阻	-13.1682
䖍	-13.1682
卦	-13.1683
慵	-13.1683
媚	-13.1684
隋	-13.1685
鑷	-13.1685
璅	-13.1686
𠎝	-13.1687
啞	-13.1687
摛	-13.1687
課	-13.1687
冶	-13.1687
鐘	-13.1687
遘	-13.1687
釜	-13.1687
儉	-13.1688
閫	-13.1688
批	-13.1688
菜	-13.1689
淩	-13.1689
湖	-13.1689
滄	-13.1689
昵	-13.1689
螘	-13.1689
馭	-13.1689
毋	-13.1689
饍	-13.169
ḥ	-13.169
淄	-13.169
牃	-13.1691
蒼	-13.1691
稀	-13.1691
蘆	-13.1691
㡿	-13.1691
腫	-13.1692
惣	-13.1692
蹄	-13.1692
佷	-13.1693
侔	-13.1693
䟽	-13.1693
話	-13.1693
噬	-13.1693
蹲	-13.1694
毱	-13.1694
袍	-13.1694
􂶔	-13.1694
躄	-13.1695
闚	-13.1696
蠱	-13.1696
叨	-13.1696
很	-13.1696
􂶚	-13.1696
𤼵	-13.1697
謟	-13.1697
軒	-13.1697
窹	-13.1697
􂶙	-13.1697
虞	-13.1698
鉞	-13.1698
裴	-13.1698
墻	-13.1699
鎚	-13.1699
詭	-13.1699
几	-13.17
劒	-13.17
䆳	-13.17
齗	-13.17
髴	-13.1701
崛	-13.1702
竿	-13.1702
殫	-13.1702
堤	-13.1702
跪	-13.1703
慾	-13.1703
􂎥	-13.1703
娶	-13.1704
挹	-13.1704
綰	-13.1704
窯	-13.1704
瞳	-13.1705
咃	-13.1706
悷	-13.1706
鍛	-13.1706
僊	-13.1706
訂	-13.1707
茵	-13.1707
槊	-13.1708
蚤	-13.1708
擘	-13.1708
躑	-13.1709
柝	-13.1709
効	-13.171
虱	-13.171
葦	-13.171
倡	-13.171
筭	-13.1711
泄	-13.1712
㺗	-13.1712
蔗	-13.1715
帳	-13.1718
尿	-13.1721
吃	-13.1721
盖	-13.1722
掛	-13.1722
幔	-13.1724
怕	-13.1724
憚	-13.1727
縮	-13.1729
腨	-13.1746
竺	-13.4059
渺	-13.4127
茸	-13.4133
円	-13.4137
学	-13.4137
痆	-13.414
粥	-13.4145
蝠	-13.4148
辺	-13.4148
筞	-13.4152
灸	-13.4152
虵	-13.4156
独	-13.4157
暎	-13.4158
嚧	-13.4159
萍	-13.4159
襟	-13.416
灼	-13.4162
邁	-13.4163
韜	-13.4165
噪	-13.4165
弃	-13.4165
台	-13.4165
姤	-13.4166
姉	-13.4166
慍	-13.4168
厲	-13.4169
槌	-13.4169
琮	-13.4169
莟	-13.4169
勾	-13.417
撚	-13.417
郊	-13.417
蘂	-13.417
態	-13.417
撼	-13.4172
丞	-13.4172
瞢	-13.4173
惻	-13.4173
埀	-13.4174
捫	-13.4175
蒜	-13.4175
篙	-13.4175
迨	-13.4175
薯	-13.4175
叱	-13.4176
蕷	-13.4176
鱗	-13.4176
廬	-13.4176
穽	-13.4177
熊	-13.4177
疆	-13.4177
蚓	-13.4177
寵	-13.4177
雇	-13.4179
隸	-13.4179
鄰	-13.4179
徽	-13.4179
芙	-13.418
擒	-13.418
凹	-13.418
咫	-13.418
簾	-13.418
鐺	-13.418
衝	-13.4181
廉	-13.4181
狡	-13.4182
涶	-13.4183
版	-13.4183
縋	-13.4183
剗	-13.4183
柰	-13.4183
姝	-13.4183
莂	-13.4184
屯	-13.4184
俄	-13.4184
虐	-13.4184
賾	-13.4184
─	-13.4184
彫	-13.4184
鏁	-13.4185
㵎	-13.4186
喙	-13.4186
弑	-13.4186
粘	-13.4186
凍	-13.4186
頒	-13.4187
彥	-13.4187
耎	-13.4187
趙	-13.4187
傑	-13.4187
玅	-13.4187
孟	-13.4187
僉	-13.4188
逍	-13.419
髫	-13.419
痢	-13.419
銜	-13.419
仆	-13.419
渥	-13.419
厶	-13.419
ṁ	-13.419
榜	-13.4191
魂	-13.4191
棗	-13.4191
颯	-13.4191
譜	-13.4193
瘻	-13.4193
匱	-13.4193
裡	-13.4193
縲	-13.4193
噓	-13.4193
閇	-13.4194
呻	-13.4194
庠	-13.4195
扑	-13.4195
挾	-13.4195
戈	-13.4195
癀	-13.4195
臻	-13.4195
寰	-13.4195
帚	-13.4195
蝕	-13.4195
〡	-13.4196
霖	-13.4197
􂶆	-13.4197
悛	-13.4197
姦	-13.4198
舫	-13.4198
矬	-13.4198
迂	-13.4198
翛	-13.4199
握	-13.4199
彷	-13.4199
癬	-13.4199
膀	-13.4199
攪	-13.42
溝	-13.42
祛	-13.42
靖	-13.42
􂢰	-13.42
芟	-13.42
𨒬	-13.4201
𠩋	-13.4201
惚	-13.4201
㮏	-13.4202
賄	-13.4202
酷	-13.4202
鈞	-13.4202
髣	-13.4202
鵽	-13.4202
霞	-13.4202
蹋	-13.4202
募	-13.4204
佞	-13.4204
+	-13.4204
澂	-13.4205
葬	-13.4205
霄	-13.4205
奕	-13.4205
𢪛	-13.4205
卓	-13.4206
俚	-13.4206
眴	-13.4208
臝	-13.4208
榻	-13.4208
儔	-13.4209
腥	-13.4209
飴	-13.4209
捻	-13.4209
緘	-13.4209
妉	-13.4211
譴	-13.4211
霍	-13.4211
謾	-13.4213
煬	-13.4213
采	-13.4214
巒	-13.4215
硃	-13.4215
陜	-13.4216
柄	-13.4216
餧	-13.4217
踝	-13.4219
婿	-13.4219
斟	-13.4219
楗	-13.4219
谿	-13.422
瘖	-13.4223
觴	-13.4223
搔	-13.4224
蠟	-13.4224
廈	-13.4224
泮	-13.4224
鴨	-13.4224
漉	-13.4224
偫	-13.4226
鍾	-13.4226
隘	-13.4229
崙	-13.4229
𦟛	-13.423
跨	-13.4233
蕀	-13.4234
蒭	-13.4241
褫	-13.4252
虜	-13.4256
𦘺	-13.429
弩	-13.7459
鄧	-13.7459
峰	-13.7459
煌	-13.7469
翌	-13.7473
亨	-13.7475
貶	-13.7477
砌	-13.7479
糯	-13.7481
献	-13.7481
焬	-13.7487
㸦	-13.7488
悚	-13.7488
餒	-13.7488
傚	-13.7488
釤	-13.7488
瘥	-13.7488
􂵊	-13.749
喫	-13.749
蟣	-13.7492
轄	-13.7492
􂶇	-13.7493
麄	-13.7496
縦	-13.7496
樊	-13.7496
煗	-13.7496
諧	-13.7496
埳	-13.7498
拼	-13.7498
嗏	-13.75
磷	-13.75
叟	-13.75
徤	-13.75
愽	-13.75
挐	-13.7502
濶	-13.7502
鈐	-13.7502
婚	-13.7502
敻	-13.7502
煉	-13.7502
聒	-13.7502
􂶋	-13.7502
輯	-13.7503
鞋	-13.7504
邐	-13.7504
涵	-13.7504
闠	-13.7504
廕	-13.7504
牌	-13.7505
刮	-13.7506
潮	-13.7506
朦	-13.7506
忖	-13.7508
塢	-13.7508
巫	-13.7508
忙	-13.7508
癸	-13.7508
鶙	-13.7508
鷿	-13.7508
寘	-13.7508
誚	-13.7508
􂵗	-13.7509
催	-13.751
玃	-13.751
跮	-13.751
􂶥	-13.751
旅	-13.751
瑯	-13.751
髆	-13.751
莾	-13.7511
嵬	-13.7511
嫰	-13.7512
熈	-13.7512
㺄	-13.7512
昱	-13.7512
鬻	-13.7512
曙	-13.7512
噫	-13.7512
浦	-13.7512
岑	-13.7512
貽	-13.7513
黜	-13.7513
澈	-13.7513
鰍	-13.7513
餅	-13.7513
咲	-13.7514
牓	-13.7514
嶺	-13.7514
滔	-13.7514
欬	-13.7514
董	-13.7515
斜	-13.7515
鴉	-13.7515
瓠	-13.7515
逭	-13.7515
慄	-13.7515
燬	-13.7515
竈	-13.7516
繇	-13.7516
帷	-13.7517
闌	-13.7517
魑	-13.7517
觜	-13.7517
朵	-13.7517
媿	-13.7519
曬	-13.7519
􂵚	-13.7519
聘	-13.7519
軫	-13.7519
矢	-13.7519
斆	-13.7519
羡	-13.7519
協	-13.7519
蛤	-13.752
坈	-13.752
惘	-13.752
屹	-13.7521
魯	-13.7521
𠃊	-13.7521
鍱	-13.7522
妊	-13.7522
愕	-13.7522
栢	-13.7523
瘼	-13.7523
剏	-13.7523
唄	-13.7523
蹴	-13.7523
挈	-13.7524
駘	-13.7525
褰	-13.7525
莽	-13.7525
搗	-13.7525
搥	-13.7525
絆	-13.7525
拇	-13.7525
嚬	-13.7525
恬	-13.7525
享	-13.7526
俞	-13.7527
查	-13.7527
眇	-13.7527
貊	-13.7527
䞋	-13.7527
咨	-13.7527
燻	-13.7527
貼	-13.7527
駑	-13.7527
稿	-13.7527
繕	-13.7529
哽	-13.7529
怳	-13.7529
諒	-13.7529
宸	-13.7529
恤	-13.7529
樑	-13.7529
嬾	-13.7529
慙	-13.7529
敕	-13.7529
沓	-13.7529
痺	-13.7529
裕	-13.7529
鑪	-13.7529
綾	-13.7531
獎	-13.7531
𧂐	-13.7531
噳	-13.7532
股	-13.7532
坯	-13.7533
疹	-13.7533
睞	-13.7533
艾	-13.7533
󰪠	-13.7533
璞	-13.7533
帆	-13.7533
橛	-13.7535
迸	-13.7535
紋	-13.7535
駿	-13.7535
弦	-13.7535
貳	-13.7535
䜿	-13.7535
檐	-13.7535
鳶	-13.7535
咒	-13.7537
摝	-13.7537
幖	-13.7537
煞	-13.7537
歛	-13.7537
攜	-13.7538
圈	-13.7538
絺	-13.7539
蠡	-13.7539
搦	-13.7539
歐	-13.7539
綆	-13.7539
酇	-13.7539
𠗦	-13.754
蝦	-13.754
叩	-13.754
季	-13.754
􂎫	-13.754
鏘	-13.7541
颺	-13.7541
陛	-13.7541
瞙	-13.7541
馨	-13.7542
燄	-13.7542
穪	-13.7542
飤	-13.7542
甕	-13.7542
踴	-13.7542
慞	-13.7542
撗	-13.7542
輛	-13.7543
蘗	-13.7543
泝	-13.7544
淆	-13.7544
稅	-13.7544
烹	-13.7546
鵶	-13.7546
鉛	-13.7548
獯	-13.755
吝	-13.755
攊	-13.755
􂐔	-13.755
璧	-13.7552
綖	-13.7552
晣	-13.7552
謌	-13.7554
蝸	-13.7554
僂	-13.7556
獘	-13.7557
𥇒	-13.7558
瘤	-13.7558
腑	-13.756
澇	-13.7562
緻	-13.7562
肋	-13.7562
擅	-13.7562
杯	-13.7566
飱	-13.7567
劓	-13.7569
錐	-13.7569
拆	-13.7571
縶	-13.7571
湊	-13.7575
癭	-13.7579
蹇	-13.7579
尻	-13.7625
徙	-14.2451
坡	-14.246
嬭	-14.247
䌥	-14.2482
嚟	-14.2482
咋	-14.2489
将	-14.2492
䨱	-14.2492
埿	-14.2498
慠	-14.2498
霔	-14.2501
券	-14.2501
庇	-14.2501
剔	-14.2504
䏶	-14.2504
嘯	-14.2507
廊	-14.2507
糧	-14.2509
僣	-14.2511
廡	-14.2511
啖	-14.2512
徊	-14.2513
B	-14.2514
閭	-14.2514
罣	-14.2515
唎	-14.2517
峭	-14.2517
帥	-14.2517
姪	-14.2517
忝	-14.2518
員	-14.2518
佚	-14.252
囓	-14.252
卉	-14.252
戱	-14.2522
|	-14.2523
伯	-14.2523
崑	-14.2523
㘕	-14.2523
剉	-14.2523
售	-14.2523
嗁	-14.2523
嘿	-14.2523
俻	-14.2523
另	-14.2524
件	-14.2526
懌	-14.2526
亢	-14.2526
坻	-14.2526
幘	-14.2526
幟	-14.2526
㝵	-14.2528
A	-14.2529
惋	-14.2529
㖀	-14.2529
侈	-14.2529
唅	-14.2529
唌	-14.2529
啒	-14.2529
仞	-14.2533
㧌	-14.2536
冏	-14.2539
伍	-14.2541
恊	-14.2542
剽	-14.2542
㵱	-14.2543
䑛	-14.2545
嚥	-14.2545
弒	-14.2545
刖	-14.2548
廼	-14.2548
堋	-14.2548
宙	-14.2548
嘹	-14.2555
壹	-14.2555
亞	-14.2555
些	-14.2555
咜	-14.2561
忤	-14.2564
悖	-14.2567
婉	-14.258
倀	-14.258
巘	-15.2386
扛	-15.2389
悸	-15.239
悩	-15.2391
恙	-15.2392
怜	-15.2393
征	-15.2394
廳	-15.2395
庵	-15.2396
幰	-15.2397
帑	-15.2398
尹	-15.2399
宵	-15.24
孾	-15.2401
孺	-15.2402
墾	-15.2403
埴	-15.2404
埠	-15.2405
埏	-15.2406
址	-15.2407
吱	-15.2408
卍	-15.2409
医	-15.241
劃	-15.2411
偵	-15.2412
倆	-15.2413
俵	-15.2414
俙	-15.2415
仔	-15.2416
䩭	-15.2417
䠓	-15.2418
䖟	-15.2419
䔧	-15.242
㴑	-15.2421
㓟	-15.2422
ṛ	-15.2423
麝	-15.2424
鵰	-15.2425
髂	-15.2426
雋	-15.2427
鐸	-15.2428
鐲	-15.2429
逶	-15.243
轤	-15.2431
轆	-15.2432
蠃	-15.2433
蜾	-15.2434
蒺	-15.2435
艚	-15.2436
臈	-15.2437
羲	-15.2438
纜	-15.2439
繪	-15.244
繚	-15.2441
綻	-15.2442
綮	-15.2443
紵	-15.2444
紲	-15.2445
窄	-15.2446
窂	-15.2447
犛	-15.2448
満	-15.2449
歍	-15.245
梟	-15.2451
柢	-15.2452
条	-15.2453
愶	-15.2454
寱	-15.2455
孥	-15.2456
埃	-15.2457
圄	-15.2458
囹	-15.2459
凰	-15.246
做	-15.2461
俳	-15.2462
ケ	-15.2463
􂶨	-15.2464
􂵝	-15.2465
􂒲	-15.2466
𢤱	-15.2467
𠯗	-15.2468
𠊷	-15.2469
麞	-15.247
鵡	-15.2471
靂	-15.2472
霹	-15.2473
迤	-15.2474
諄	-15.2475
蠕	-15.2476
螻	-15.2477
蜈	-15.2478
蚣	-15.2479
蚔	-15.248
航	-15.2481
縹	-15.2482
紜	-15.2483
紂	-15.2484
穫	-15.2485
穌	-15.2486
稈	-15.2487
碑	-15.2488
睒	-15.2489
漁	-15.249
溉	-15.2491
榴	-15.2492
梏	-15.2493
柘	-15.2494
懾	-15.2495
恡	-15.2496
廷	-15.2497
嘖	-15.2498
咂	-15.2499
劂	-15.25
剞	-15.2501
俊	-15.2502
驃	-15.2503
亶	-15.2503
T	-15.2504
鴛	-15.2505
絮	-15.2506
粖	-15.2507
窶	-15.2508
爻	-15.2509
溈	-15.251
槁	-15.2511
扼	-15.2512
憨	-15.2513
憔	-15.2514
嘔	-15.2515
馥	-15.2516
郁	-15.2517
躊	-15.2518
蒔	-15.2519
糜	-15.252
琶	-15.2521
琵	-15.2522
妮	-15.2523
匍	-15.2524
儗	-15.2525
倨	-15.2526
亀	-15.2527
ū	-15.2528
髑	-15.2529
閦	-15.253
鐇	-15.2531
迊	-15.2532
粲	-15.2533
稗	-15.2534
稊	-15.2535
煻	-15.2536
桂	-15.2537
搩	-15.2538
庾	-15.2539
慇	-15.2539
峙	-15.254
娉	-15.2541
壙	-15.2542
匐	-15.2543
冑	-15.2544
𡁆	-15.2545
閃	-15.2546
蕅	-15.2547
篌	-15.2548
箜	-15.2549
樸	-15.255
鬧	-15.2551
賈	-15.2552
焼	-15.2553
儼	-15.2554
仮	-15.2555
詈	-15.2556
疽	-15.2557
獼	-15.2558
估	-15.2559
􂵥	-15.256
釐	-15.2561
覃	-15.2562
級	-15.2563
庚	-15.2564
煨	-15.2565
僮	-15.2566
仏	-15.2567
丐	-15.2568
􂵭	-15.2569
虚	-15.257
罽	-15.2571
􂵳	-15.2572
􂵲	-15.2573
􂵱	-15.2574
􂵰	-15.2575
􂵮	-15.2576
􂵫	-15.2577
􂵪	-15.2578
鄽	-15.2579
呰	-15.258
饉	-15.2581
鑞	-15.2582
牸	-15.2583
惕	-15.2584
􂵤	-15.2585
􂵣	-15.2586
􂵡	-15.2587
疫	-15.2588
ṭ	-15.2589
􂵢	-15.259
鶹	-15.2591
乗	-15.2592
>	-15.2593
淤	-15.2594
芭	-15.2595
桓	-15.2596
瑠	-15.2596
寞	-15.2597
堄	-15.2598
埤	-15.2599
ṣ	-15.26
[	-15.2601
栴	-15.2602
姚	-15.2603
→	-15.2604
←	-15.2605
𠾅	-15.2606
婇	-15.2607
膖	-15.2608
惒	-15.2609
𣰽	-15.261
醐	-15.2611
睺	-15.2612
y	-15.2613
臚	-15.2614
袈	-15.2615
凉	-15.2616
v	-15.2617
珞	-15.2618
琉	-15.2619
臾	-15.262
m	-15.2621
剡	-15.2622
N	-15.2623
棃	-15.2624
瑜	-15.2625
洹	-15.2626
悍	-15.2627
衍	-15.2627
