<unk>	0
<s>	0
</s>	0
之	-4.27153
/	-4.73806
以	-4.75747
(	-4.81325
為	-4.97738
者	-5.08146
)	-5.08191
其	-5.08856
一	-5.14108
於	-5.14623
有	-5.31378
不	-5.35687
人	-5.35762
而	-5.39563
官	-5.47136
大	-5.59506
三	-5.63421
至	-5.65779
也	-5.71017
曰	-5.733
上	-5.78971
二	-5.80114
州	-5.8197
及	-5.82796
行	-5.83013
中	-5.85786
所	-5.87634
各	-5.92038
王	-5.93115
)(	-5.9655
自	-5.97756
四	-5.98323
無	-5.99657
等	-5.99695
文	-5.99814
五	-6.01301
則	-6.01523
用	-6.03517
子	-6.04667
事	-6.06059
在	-6.0857
日	-6.11873
皆	-6.12593
如	-6.13088
令	-6.14665
時	-6.15507
又	-6.15623
名	-6.19977
與	-6.20188
縣	-6.22147
内	-6.22173
出	-6.22868
明	-6.23802
/)	-6.24126
下	-6.24296
入	-6.2514
後	-6.25778
臣	-6.25843
天	-6.28219
同	-6.28392
正	-6.31312
定	-6.31615
兵	-6.33759
▁	-6.34371
此	-6.34677
奏	-6.37452
南	-6.3777
禮	-6.37872
應	-6.38656
今	-6.38895
民	-6.39168
年	-6.39412
前	-6.4015
府	-6.4068
六	-6.41452
兩	-6.42013
書	-6.42902
司	-6.43106
安	-6.43694
分	-6.43795
本	-6.43801
山	-6.4382
長	-6.43843
設	-6.44495
西	-6.47623
軍	-6.48075
國	-6.48269
道	-6.488
金	-6.49252
地	-6.4958
門	-6.49861
使	-6.50032
成	-6.50204
東	-6.51004
言	-6.5105
馬	-6.51872
元	-6.51991
次	-6.54441
凡	-6.5477
立	-6.54809
亦	-6.54962
將	-6.54982
進	-6.56453
故	-6.57666
從	-6.57695
城	-6.57743
平	-6.57866
水	-6.58008
得	-6.59268
公	-6.60836
復	-6.62047
外	-6.63157
見	-6.64826
若	-6.65312
並	-6.65321
諸	-6.66006
即	-6.67358
經	-6.67942
置	-6.69487
初	-6.69536
生	-6.70955
通	-6.71074
制	-6.71749
九	-6.71876
石	-6.7281
武	-6.72973
服	-6.73083
錢	-6.73498
相	-6.73769
未	-6.74096
奉	-6.74444
引	-6.75618
請	-6.7584
○	-6.75867
祭	-6.76007
方	-6.76026
河	-6.7614
加	-6.76164
多	-6.76281
議	-6.77104
是	-6.77726
可	-6.78181
命	-6.78696
帝	-6.78793
數	-6.78936
法	-6.80299
徳	-6.80895
實	-6.81024
或	-6.81278
重	-6.81344
封	-6.82057
樂	-6.82211
省	-6.82748
當	-6.82998
七	-6.83202
取	-6.83769
氏	-6.83806
漢	-6.83883
宫	-6.84269
作	-6.84676
八	-6.84827
爾	-6.84881
于	-6.85659
朝	-6.87191
神	-6.87224
屬	-6.882
萬	-6.88492
已	-6.89668
主	-6.91327
興	-6.91594
俱	-6.91962
宗	-6.91964
乃	-6.91969
給	-6.91972
先	-6.92157
里	-6.92395
餘	-6.9337
合	-6.94496
十	-6.94512
北	-6.94551
一人	-6.94806
海	-6.95502
非	-6.95514
位	-6.95995
家	-6.96091
陽	-6.96633
改	-6.9702
營	-6.97184
學	-6.97238
親	-6.98044
皇帝	-6.98091
每	-6.99111
月	-6.99127
知	-6.99194
降	-6.99246
因	-6.99393
殿	-6.99938
黄	-7.00153
銀	-7.00593
部	-7.01461
考	-7.02406
由	-7.02896
聖	-7.03088
儀	-7.03811
罪	-7.04084
仍	-7.04706
古	-7.04749
詔	-7.0506
開	-7.05195
字	-7.05204
升	-7.05541
清	-7.05617
廟	-7.05913
任	-7.0597
和	-7.06274
始	-7.0689
三年	-7.07609
旗	-7.08054
右	-7.08587
衛	-7.09045
例	-7.09245
舊	-7.09392
周	-7.09572
都	-7.09632
舉	-7.09721
領	-7.09869
太	-7.10146
陳	-7.10227
建	-7.11713
宜	-7.11785
云	-7.12629
照	-7.12659
唐	-7.13105
郡	-7.13229
常	-7.13328
理	-7.13625
小	-7.14141
田	-7.14439
龍	-7.14628
嵗	-7.14894
左	-7.14907
食	-7.15102
矣	-7.15871
受	-7.15968
永	-7.16423
發	-7.1765
路	-7.17666
原	-7.1767
稱	-7.17869
白	-7.17941
傳	-7.18174
然	-7.18361
守	-7.19291
士	-7.1962
既	-7.19679
處	-7.20291
廣	-7.20334
江	-7.20337
髙	-7.20651
惟	-7.20817
二年	-7.21368
監	-7.21741
寧	-7.22084
布	-7.2224
祖	-7.2262
著	-7.22872
謂	-7.23236
以下	-7.23416
祀	-7.236
宋	-7.23781
流	-7.23861
首	-7.24167
詣	-7.24255
世	-7.24735
齊	-7.24772
新	-7.25151
口	-7.25193
義	-7.25275
物	-7.25537
張	-7.25689
百	-7.25707
典	-7.25807
工	-7.26136
宣	-7.26297
爵	-7.26506
止	-7.26643
來	-7.26951
星	-7.26986
告	-7.27477
律	-7.28493
必	-7.29334
承	-7.2957
賜	-7.29816
按	-7.30667
額	-7.30693
二人	-7.30774
圖	-7.30775
授	-7.30798
卷	-7.31034
心	-7.31123
歸	-7.31218
功	-7.31386
案	-7.31554
除	-7.31724
犯	-7.32097
御	-7.3232
元年	-7.32366
運	-7.32464
少	-7.32579
章	-7.33345
集	-7.33811
均	-7.34127
掌	-7.34434
夫	-7.34467
色	-7.3451
陵	-7.34641
尊	-7.34834
何	-7.35105
尚	-7.35121
間	-7.35412
特	-7.35588
保	-7.3603
治	-7.36776
職	-7.37277
衆	-7.37971
隨	-7.37981
坐	-7.38203
政	-7.38313
師	-7.38607
論	-7.38731
鎮	-7.38765
米	-7.38965
納	-7.38978
京	-7.39266
居	-7.39454
木	-7.3965
户	-7.3972
率	-7.39732
補	-7.39757
節	-7.39791
遂	-7.39921
車	-7.40437
修	-7.40476
皇	-7.40941
土	-7.41032
執	-7.41206
慶	-7.41237
管理	-7.41322
恭	-7.42382
載	-7.42833
李	-7.42928
共	-7.43364
度	-7.43402
收	-7.43448
交	-7.43535
班	-7.43613
臨	-7.43658
去	-7.43859
獻	-7.43962
拜	-7.44
孝	-7.44078
更	-7.441
依	-7.44167
酒	-7.44287
之妻	-7.44585
易	-7.44709
以上	-7.45208
備	-7.45293
玉	-7.45511
代	-7.45736
青	-7.46423
起	-7.46536
過	-7.46607
具	-7.47117
聲	-7.47145
㑹	-7.47189
克	-7.47313
報	-7.47345
列	-7.47594
春	-7.47638
朕	-7.4768
阿	-7.47751
雲	-7.47904
詩	-7.48309
雖	-7.48383
史	-7.48497
直	-7.4861
志	-7.48701
還	-7.48779
光	-7.48841
壇	-7.4925
計	-7.49434
逺	-7.49617
恩	-7.50188
員	-7.50606
近	-7.50625
選	-7.5079
免	-7.50814
夏	-7.51831
跪	-7.52044
左右	-7.52353
賊	-7.52511
造	-7.52991
送	-7.53014
庫	-7.54177
管	-7.55172
察	-7.55403
號	-7.55525
别	-7.55769
孫	-7.55958
風	-7.56479
科	-7.56976
倉	-7.57015
丁	-7.57067
君	-7.57244
兼	-7.58101
四年	-7.58426
佐領	-7.58744
侯	-7.58775
限	-7.58832
焉	-7.58949
糧	-7.59029
昭	-7.5909
福	-7.59124
遣	-7.59361
差	-7.59509
将	-7.6003
聞	-7.60529
三十	-7.60895
盡	-7.61032
鹽	-7.62124
欲	-7.62139
五年	-7.62523
能	-7.62639
減	-7.62702
晉	-7.62741
千	-7.62919
諭	-7.62927
衣	-7.63108
就	-7.63665
詳	-7.63795
問	-7.64175
吏	-7.64674
死	-7.64923
禁	-7.64937
泰	-7.64938
昌	-7.65006
利	-7.66232
景	-7.66536
林	-7.66572
異	-7.66745
堂	-7.66841
并	-7.67381
該	-7.67885
失	-7.68462
嘉	-7.68587
撰	-7.68688
務	-7.69157
四十	-7.69158
二十	-7.69247
寳	-7.69258
致	-7.69474
訖	-7.6982
貢	-7.70045
五十	-7.70143
視	-7.70229
父	-7.70907
羅	-7.70962
役	-7.71043
皇后	-7.71048
半	-7.71049
紀	-7.71593
表	-7.71688
以為	-7.71715
滿洲	-7.72042
濟	-7.72099
善	-7.72236
女	-7.72283
身	-7.72587
襲	-7.72641
編	-7.72681
意	-7.72785
私	-7.73083
甲	-7.73175
室	-7.73677
解	-7.73907
贊	-7.7399
帶	-7.74008
乾隆	-7.74141
教	-7.74264
音	-7.74269
鼓	-7.74423
折	-7.74456
情	-7.74588
卒	-7.74742
乎	-7.74994
遇	-7.76
觀	-7.7612
達	-7.7613
仁	-7.7624
順	-7.76512
甚	-7.76661
退	-7.76684
角	-7.76826
徴	-7.77497
力	-7.77638
思	-7.77657
深	-7.77795
畢	-7.77967
申	-7.78252
銅	-7.78309
化	-7.78417
殺	-7.78941
十二	-7.79242
留	-7.79522
嚴	-7.79675
華	-7.79707
増	-7.79959
商	-7.8005
全	-7.80242
且	-7.80754
統	-7.8098
題	-7.81036
曲	-7.81472
梁	-7.81509
勒	-7.81528
不得	-7.81548
期	-7.81629
三月	-7.81771
再	-7.82021
劉	-7.8214
副	-7.82442
存	-7.82443
頭	-7.82473
天下	-7.82658
滿	-7.82873
船	-7.82889
房	-7.83135
印	-7.8321
許	-7.83352
六年	-7.83381
不可	-7.83491
調	-7.83771
刑	-7.83824
州縣	-7.84389
我	-7.84569
崇	-7.84601
吉	-7.84614
轉	-7.84646
老	-7.84668
附	-7.84958
望	-7.85128
郎	-7.85278
廢	-7.85502
闗	-7.85521
大臣	-7.85524
伯	-7.85811
充	-7.85993
據	-7.86235
益	-7.86689
難	-7.87088
支	-7.87433
紅	-7.87906
固	-7.87929
籍	-7.88354
冊	-7.88486
試	-7.88492
冠	-7.88703
靈	-7.88983
總	-7.89082
象	-7.89182
駕	-7.89562
雨	-7.89605
序	-7.89658
候	-7.90484
敬	-7.90775
院	-7.91054
移	-7.91277
祝	-7.9132
花	-7.91405
養	-7.9142
地方	-7.91426
查	-7.91457
不能	-7.91606
七年	-7.92349
朱	-7.92376
秋	-7.92575
征	-7.92759
對	-7.93535
格	-7.93633
但	-7.93764
條	-7.9402
賢	-7.94089
咸	-7.94477
悉	-7.94504
臺	-7.94559
宿	-7.95131
奠	-7.95321
魏	-7.95451
秦	-7.95549
業	-7.9581
鄉	-7.96137
火	-7.9616
極	-7.96251
盛	-7.96524
門外	-7.96653
德	-7.96714
記	-7.97318
録	-7.97404
追	-7.97438
價	-7.97481
延	-7.97482
邊	-7.97755
到	-7.97934
四月	-7.98009
注	-7.98053
第	-7.98055
徒	-7.98159
係	-7.98212
供	-7.98304
賦	-7.98711
登	-7.98975
向	-7.99123
祠	-7.9928
刻	-7.99642
卿	-7.99689
丞	-8.00331
誠	-8.00346
尚書	-8.00712
哈	-8.00998
配	-8.01056
母	-8.01108
積	-8.01204
夀	-8.01311
氣	-8.01415
勅	-8.01682
酌	-8.01749
求	-8.0183
闕	-8.01966
良	-8.02058
烏	-8.02181
戰	-8.0225
五月	-8.02524
高	-8.02582
比	-8.02672
巴	-8.02798
忠	-8.02913
舞	-8.03211
便	-8.034
器	-8.0356
康	-8.03789
蘇	-8.03887
要	-8.03887
七月	-8.03918
往	-8.03919
川	-8.03982
端	-8.04232
諡	-8.04259
十月	-8.04653
貴	-8.04654
牛	-8.04708
八年	-8.04895
座	-8.05099
辦	-8.05244
擬	-8.0541
將軍	-8.05579
體	-8.05586
准	-8.05648
伏	-8.05944
騎	-8.06277
毎	-8.06442
席	-8.06465
六十	-8.06485
香	-8.06511
六月	-8.0666
反	-8.07862
手	-8.07923
容	-8.08199
寺	-8.0821
終	-8.08214
猶	-8.08273
再拜	-8.08344
迎	-8.08488
遷	-8.08506
變	-8.08544
被	-8.08602
罷	-8.08972
八月	-8.09329
回	-8.09394
赴	-8.09399
雜	-8.09588
鄭	-8.09716
有司	-8.09793
歌	-8.10028
八十	-8.10041
獲	-8.1006
侍	-8.10686
庶	-8.1069
散	-8.10707
澤	-8.11016
隆	-8.11057
擊	-8.11145
丈	-8.11182
草	-8.11741
九月	-8.11926
御史	-8.1213
十二月	-8.12281
天子	-8.12388
某	-8.12479
久	-8.12799
享	-8.12983
貫	-8.13294
穆	-8.13493
厚	-8.1366
信	-8.1387
趙	-8.13871
式	-8.13905
九年	-8.13928
康熙	-8.13982
八旗	-8.13987
寶	-8.14168
大夫	-8.14277
賔	-8.14278
十一月	-8.14377
釐	-8.14764
類	-8.15372
斯	-8.15537
/)(	-8.16151
豐	-8.16155
頃	-8.16165
牲	-8.16652
疏	-8.16683
買	-8.17008
足	-8.17347
撫	-8.17779
賞	-8.18091
耳	-8.1814
目	-8.18193
署	-8.18406
册	-8.18503
太祖	-8.19193
接	-8.19202
審	-8.19313
辭	-8.19526
界	-8.19563
種	-8.19717
社	-8.19785
主人	-8.19876
禮部	-8.19885
牧	-8.20214
䕶軍	-8.20352
十三年	-8.20497
面	-8.20545
后	-8.20579
費	-8.207
嗣	-8.20924
富	-8.20997
十年	-8.21142
七十	-8.2139
真	-8.21394
姓	-8.21546
尺	-8.21602
連	-8.21807
冬	-8.22043
肅	-8.22069
傷	-8.22192
放	-8.22366
親王	-8.22438
屯	-8.22442
厯	-8.22447
伊	-8.22707
四人	-8.23028
推	-8.23128
魯	-8.23263
乾	-8.23349
末	-8.23429
簡	-8.23578
雅	-8.23582
稍	-8.23619
喪	-8.23977
果	-8.23983
協	-8.2399
漢軍	-8.24012
階	-8.24245
語	-8.24368
動	-8.2453
䝉古	-8.24708
革	-8.24858
沙	-8.24922
仲	-8.25165
十五	-8.2532
遵	-8.25505
郊	-8.25638
委	-8.25693
精	-8.25708
讀	-8.2595
越	-8.25967
莫	-8.26189
羣	-8.26259
帛	-8.26272
孔	-8.26426
防	-8.26547
符	-8.26563
結	-8.26738
蓋	-8.2675
繼	-8.26918
湖	-8.27155
妃	-8.27353
市	-8.27468
斗	-8.27684
垂	-8.27784
博	-8.2782
幸	-8.27852
朔	-8.27859
俸	-8.2789
楊	-8.28212
射	-8.28325
施	-8.28472
𨽻	-8.28544
謹	-8.28562
威	-8.28715
三百	-8.28861
薦	-8.28893
項	-8.28918
侍郎	-8.29001
来	-8.29137
從之	-8.29145
河南	-8.29355
他	-8.29385
輕	-8.29523
所以	-8.30085
遺	-8.30164
豈	-8.30223
習	-8.30239
饌	-8.3024
飾	-8.30642
尋	-8.3069
㫖	-8.31157
爲	-8.31382
亡	-8.31415
奏請	-8.31458
珠	-8.31769
藏	-8.31782
赤	-8.32092
莊	-8.32094
校	-8.32134
之人	-8.32253
勝	-8.32474
圍	-8.32483
裁	-8.32503
齋	-8.32512
行禮	-8.32532
局	-8.32671
官員	-8.32741
戸	-8.33025
量	-8.33103
山東	-8.33286
覆	-8.33298
辰	-8.33516
絶	-8.33524
泉	-8.3373
皇太子	-8.33988
錫	-8.34061
攻	-8.34257
品	-8.34506
税	-8.3459
課	-8.34645
增	-8.3476
資	-8.34768
祥	-8.34861
衞	-8.34905
虞	-8.34911
輿	-8.35361
燕	-8.35364
恐	-8.35856
盖	-8.36121
盜	-8.36121
而不	-8.36238
茶	-8.3626
羽	-8.36274
農	-8.36337
扵	-8.36609
導	-8.36812
曹	-8.36856
匹	-8.3701
隋	-8.3711
斬	-8.37177
仰	-8.37296
須	-8.37597
指	-8.3802
儒	-8.38095
楚	-8.38181
説	-8.38215
敗	-8.3828
權	-8.38417
陞	-8.38516
巡	-8.38584
之後	-8.38713
畫	-8.38842
九十	-8.39146
謂之	-8.39205
責	-8.39206
完	-8.39411
太子	-8.39484
尉	-8.39589
素	-8.39911
驛	-8.39916
孟	-8.4013
十六	-8.40415
羊	-8.40416
獨	-8.40462
寛	-8.40759
十二年	-8.41187
約	-8.41205
太廟	-8.4121
東西	-8.41355
春秋	-8.41692
二百	-8.41693
亭	-8.41826
幣	-8.42327
撥	-8.42509
版	-8.42516
翼	-8.42801
督	-8.42837
欽	-8.43002
帥	-8.43081
歲	-8.43096
謀	-8.43234
鈔	-8.43352
贈	-8.43421
嗣後	-8.43441
徑	-8.43463
賣	-8.43756
勤	-8.43783
盤	-8.43932
待	-8.44227
一等	-8.44272
篇	-8.44518
樂止	-8.446
夜	-8.44713
夷	-8.44736
勢	-8.44855
十一年	-8.45195
勞	-8.45325
族	-8.45565
準	-8.45661
徵	-8.4573
兮	-8.45767
三等	-8.45794
提	-8.45919
公主	-8.45943
雍正	-8.46151
兹	-8.46202
廷	-8.46253
斤	-8.46297
鑄	-8.46352
豆	-8.46463
允	-8.46712
顯	-8.46993
源	-8.47173
停	-8.47247
斷	-8.47432
訓	-8.47449
惠	-8.4779
聽	-8.47801
質	-8.47855
呼	-8.47895
喇	-8.48273
稽	-8.48312
侍衛	-8.48413
亂	-8.4845
紫	-8.4847
位於	-8.48519
瑞	-8.48645
禄	-8.48666
直𨽻	-8.48702
拉	-8.48774
立於	-8.48993
内外	-8.49261
租	-8.49639
畝	-8.49642
輅	-8.49644
閣	-8.49733
輔	-8.49932
級	-8.5016
賛	-8.5023
繫	-8.50257
䕶	-8.50287
破	-8.50338
境	-8.50449
遼	-8.5045
疋	-8.50736
徐	-8.50783
總督	-8.5108
胡	-8.51129
五百	-8.51241
隊	-8.51336
畧	-8.51385
哭	-8.51394
十五年	-8.51424
隂	-8.51605
杖	-8.51638
缺	-8.51661
鐘	-8.51662
郭	-8.5175
各一人	-8.5179
才	-8.5182
邑	-8.51942
持	-8.51952
之制	-8.51982
程	-8.52107
勘	-8.52114
索	-8.52223
關	-8.5246
乗	-8.52693
獄	-8.52728
等處	-8.52776
英	-8.52852
諸侯	-8.53022
江南	-8.53181
十四年	-8.53288
進士	-8.533
場	-8.53426
予	-8.53474
馬甲	-8.53505
病	-8.53555
會	-8.53762
御製	-8.53781
詞	-8.53811
弟	-8.53864
松	-8.54024
都統	-8.54168
等謹按	-8.54195
參	-8.54226
凖	-8.54438
害	-8.54478
客	-8.54557
順治	-8.54617
吳	-8.54617
願	-8.54686
大學士	-8.5508
鐵	-8.5524
庭	-8.55473
好	-8.55514
形	-8.55571
横	-8.5564
嘗	-8.55925
倫	-8.55935
文武	-8.56217
頒	-8.56464
為之	-8.56566
虎	-8.56612
息	-8.56857
改為	-8.56981
三人	-8.57116
副都統	-8.57182
婦	-8.57222
揚	-8.5727
洪	-8.57299
懸	-8.57326
俟	-8.57367
維	-8.57712
季	-8.57868
十三	-8.57942
淮	-8.5795
蘭	-8.57988
頂	-8.58018
東南	-8.58366
户部	-8.58391
賀	-8.5853
敵	-8.58542
示	-8.5864
十八	-8.58716
皮	-8.58761
葉	-8.58848
什	-8.58981
輸	-8.59007
産	-8.59291
疾	-8.59357
柱	-8.59384
乘	-8.59595
優	-8.59639
榖	-8.59686
各一	-8.59688
使者	-8.59808
違	-8.59947
寜	-8.6004
罰	-8.60128
一百	-8.60173
弊	-8.60286
督撫	-8.60515
召	-8.60544
念	-8.6065
捕	-8.6086
洗	-8.60944
館	-8.61079
五分	-8.61141
逆	-8.61201
郎中	-8.61293
葢	-8.61321
吾	-8.61371
疑	-8.6152
故以	-8.62014
乞	-8.62098
各省	-8.62157
累	-8.62161
井	-8.62459
逃	-8.62487
最	-8.62666
哉	-8.62694
切	-8.62786
之例	-8.63038
强	-8.63108
二月	-8.63152
擇	-8.63267
釋	-8.63308
呈	-8.63621
妻	-8.63651
曽	-8.63669
尤	-8.63679
州府	-8.64045
講	-8.64094
叅	-8.64112
仗	-8.64361
丹	-8.64386
築	-8.64464
料	-8.64601
十六年	-8.64732
竹	-8.64752
派	-8.64904
閲	-8.65286
彼	-8.65396
韓	-8.65464
銷	-8.65492
絲	-8.65641
懐	-8.65738
駐	-8.66035
姑	-8.66288
宴	-8.66343
荒	-8.66345
京師	-8.66392
竒	-8.66436
子孫	-8.66648
鳴	-8.66713
財	-8.66818
誤	-8.66966
敢	-8.67106
豫	-8.67136
於是	-8.67284
浙江	-8.67286
筆帖式	-8.67289
鳯	-8.67351
繡	-8.67478
巡撫	-8.67889
專	-8.68016
衙門	-8.68028
錢糧	-8.68059
吏部	-8.68087
二等	-8.6809
啟	-8.68218
占	-8.68249
塘	-8.68251
塞	-8.68288
佐	-8.68632
男	-8.68758
廵	-8.68941
十一	-8.69053
皇太后	-8.69068
俗	-8.69129
池	-8.69172
徽	-8.6928
壽	-8.69307
太宗	-8.6938
一員	-8.69406
耕	-8.69446
遣使	-8.69498
歴	-8.69737
采	-8.69746
十四	-8.69775
十七	-8.69775
魚	-8.69831
之事	-8.6984
貨	-8.69956
祐	-8.70034
橋	-8.70059
抵	-8.7009
靖	-8.70136
併	-8.70326
以來	-8.70375
駐劄	-8.70568
離	-8.70706
躬	-8.70709
姦	-8.71189
旁	-8.71195
惡	-8.71205
樂作	-8.71206
照例	-8.71286
適	-8.71337
銜	-8.71743
災	-8.71751
杜	-8.71757
其後	-8.71771
雍	-8.7178
招	-8.71823
賑	-8.71833
休	-8.71912
牌	-8.71922
幾	-8.72013
賓	-8.72276
衡	-8.72351
預	-8.72407
檢	-8.72575
標	-8.72584
一卷	-8.72616
薨	-8.72619
喜	-8.72733
倍	-8.72929
郡王	-8.72945
較	-8.73256
其餘	-8.73326
園	-8.73472
三分	-8.73535
西南	-8.73639
落	-8.73751
乙	-8.73761
陸	-8.73907
襄	-8.73995
将軍	-8.74016
縁	-8.74184
四川	-8.74475
鄂	-8.7463
宮	-8.74763
根	-8.74763
祗	-8.74771
吕	-8.74844
循	-8.74942
殊	-8.75019
假	-8.75279
十七年	-8.75468
縱	-8.75501
穀	-8.75597
憲	-8.75625
陜西	-8.7563
舍	-8.75631
侍中	-8.7566
百官	-8.75896
薩	-8.76145
之禮	-8.76495
學士	-8.76525
咨	-8.76533
四百	-8.7675
殷	-8.76849
陛	-8.76919
𤣥	-8.76961
距	-8.77017
皇上	-8.77577
偽	-8.77843
慈	-8.77892
不知	-8.78055
甘	-8.78129
至於	-8.78241
助	-8.78335
樓	-8.78374
南向	-8.78404
前鋒	-8.78429
謝	-8.78429
顧	-8.78484
採	-8.78566
之處	-8.7862
塔	-8.78675
驗	-8.78782
竊	-8.78855
借	-8.7886
所屬	-8.78949
夾	-8.79034
舒	-8.79085
昔	-8.7909
蕃	-8.79258
圓	-8.79269
熟	-8.79317
野	-8.79581
雲南	-8.79672
噶	-8.79693
榮	-8.79703
總管	-8.79774
贓	-8.798
所謂	-8.79836
辦理	-8.79844
第一	-8.80135
漕	-8.80177
避	-8.80448
北向	-8.80519
愛	-8.80537
兵部	-8.80556
天地	-8.80571
西北	-8.80715
展	-8.80743
父母	-8.80798
逐	-8.80867
篚	-8.80966
討	-8.81073
一分	-8.812
祈	-8.81247
束	-8.8144
算	-8.8149
之法	-8.81647
江西	-8.81652
尼	-8.81717
福建	-8.81792
各官	-8.81861
空	-8.81882
筵	-8.81925
如有	-8.82029
熙	-8.82161
錦	-8.82191
年二月	-8.82198
者皆	-8.82255
北面	-8.82256
一日	-8.82353
赦	-8.82407
刑部	-8.82831
分别	-8.82927
急	-8.83
圭	-8.83077
叔	-8.83186
似	-8.83263
貝勒	-8.83274
需	-8.83283
普	-8.83449
沿	-8.83544
眀	-8.83582
曾	-8.8381
奪	-8.83883
坊	-8.8395
漸	-8.84094
徹	-8.84238
㕘	-8.84428
桑	-8.84526
欽定四庫全書	-8.84635
揖	-8.8473
罇	-8.8501
可以	-8.85154
兵丁	-8.85161
一年	-8.85254
鳳	-8.85327
宗室	-8.85549
貯	-8.85621
之所	-8.85684
勲	-8.85745
武帝	-8.85796
以次	-8.85801
東北	-8.86081
匠	-8.86108
美	-8.86183
邉	-8.86225
葬	-8.86337
三日	-8.86356
句	-8.86396
傅	-8.86566
宇	-8.86617
顔	-8.86695
旱	-8.8671
俾	-8.86717
飛	-8.86723
盗	-8.86835
零	-8.86968
粟	-8.86979
攝	-8.87066
饗	-8.87172
等官	-8.87275
不許	-8.87814
決	-8.88063
十八年	-8.88229
輪	-8.88503
以後	-8.88534
俎	-8.88556
之子	-8.88655
領催	-8.88659
毆	-8.88666
稅	-8.88761
勿	-8.89128
麥	-8.8913
歳	-8.89141
饑	-8.89225
侵	-8.89285
贖	-8.89459
錄	-8.89498
聚	-8.89559
太常	-8.89679
𫝊	-8.89889
規	-8.89976
罍	-8.89983
刀	-8.90101
步	-8.90266
繁	-8.90294
温	-8.90331
徃	-8.90627
工部	-8.9067
人等	-8.90791
聴	-8.9081
鼎	-8.9087
單	-8.91138
驍騎校	-8.91234
正月	-8.91235
六百	-8.91311
黒	-8.91387
伐	-8.91441
秩	-8.91443
屢	-8.91447
虚	-8.9146
付	-8.91481
叙	-8.915
之地	-8.91585
㸃	-8.9159
毫	-8.91671
而已	-8.91674
尾	-8.91708
僧	-8.9172
卜	-8.91729
識	-8.91734
司馬	-8.91959
環	-8.91998
是以	-8.92035
弓	-8.9209
第二	-8.9212
陪	-8.92174
戒	-8.92289
扇	-8.92455
弁	-8.92495
佛	-8.92676
唯	-8.92723
桂	-8.92746
細	-8.92785
飭	-8.9286
卑	-8.92936
嘉靖	-8.9337
勇	-8.9346
副使	-8.93587
陣	-8.93624
舟	-8.93744
二十四	-8.93845
輦	-8.93874
淳	-8.94443
如此	-8.94453
囚	-8.94492
純	-8.94604
慎	-8.94703
不足	-8.94768
續	-8.9477
議準	-8.94814
哀	-8.94893
樹	-8.95144
太祝	-8.95332
覺	-8.95457
機	-8.95477
太尉	-8.95525
絹	-8.95537
振	-8.95625
袍	-8.9565
𢎞	-8.95802
苑	-8.95807
之數	-8.9583
窮	-8.95881
歩	-8.95929
唱	-8.96192
患	-8.96265
一名	-8.96308
至元	-8.96532
員外郎	-8.96554
干	-8.96563
禮畢	-8.96582
製	-8.96584
諸王	-8.96641
䝉	-8.96645
鹿	-8.96655
飲	-8.96701
十九年	-8.96804
捧	-8.96807
雙	-8.96878
感	-8.96917
湖廣	-8.96926
减	-8.97044
狀	-8.97049
汝	-8.97076
貞	-8.97111
遣官	-8.97137
旋	-8.97149
恒	-8.97582
頌	-8.97591
微	-8.97649
把總	-8.97793
赫	-8.97906
山西	-8.97907
尹	-8.98043
駐防	-8.98058
廣東	-8.98146
蒙古	-8.98172
治罪	-8.98248
溪	-8.98254
己	-8.9834
露	-8.98486
洋	-8.9851
决	-8.98562
邦	-8.98729
扎	-8.98826
専	-8.98828
大小	-8.98978
洪武	-8.99223
奉㫖	-8.99338
述	-8.99371
之時	-8.99416
渠	-8.99529
具奏	-8.99541
雷	-8.99546
一尺	-8.99573
蜀	-8.99629
戎	-8.99884
戴	-8.99939
宰	-9.00161
謁	-9.00299
說	-9.00377
地方官	-9.00496
至是	-9.00782
壩	-9.0087
為一	-9.00896
黎	-9.00974
欠	-9.01132
偏	-9.01323
革職	-9.01328
看	-9.01509
徙	-9.01605
兄	-9.01793
黨	-9.01862
開元	-9.01885
絃	-9.01891
懿	-9.01993
䇿	-9.02057
塲	-9.02119
損	-9.02262
夫人	-9.0231
宗廟	-9.02314
西向	-9.02332
十九	-9.02357
四品	-9.02359
年正月	-9.02682
岳	-9.02742
段	-9.02804
投	-9.02865
者也	-9.02919
逹	-9.02926
呉	-9.02938
筆	-9.02948
國家	-9.03084
太常寺	-9.03303
毁	-9.03347
巾	-9.03518
瞻	-9.03537
緑	-9.03676
練	-9.03817
百姓	-9.03887
介	-9.03981
板	-9.04054
那	-9.04072
救	-9.04294
考試	-9.04298
者亦	-9.04444
材	-9.04491
誅	-9.04496
官兵	-9.04563
盛京	-9.04653
八分	-9.04677
五人	-9.04704
童	-9.04873
鍾	-9.04895
崩	-9.04947
是年	-9.04957
旦	-9.04965
太常卿	-9.05099
互	-9.05129
勾	-9.05138
畨	-9.05167
黄鍾	-9.05167
辟	-9.05208
貧	-9.05229
八人	-9.05272
藩	-9.05367
上下	-9.0547
渡	-9.05728
主事	-9.05749
勸	-9.05926
紹	-9.05936
烈	-9.05966
寢	-9.05974
燎	-9.06091
宻	-9.06433
塗	-9.06443
博士	-9.06519
底	-9.06684
薄	-9.06723
浙	-9.06807
喀	-9.06941
不及	-9.07169
住	-9.07185
不敢	-9.0721
綱	-9.07384
否	-9.07481
叛	-9.07499
又有	-9.075
屋	-9.0765
羣臣	-9.07651
叩	-9.07676
綿	-9.07765
毛	-9.07841
執事	-9.07892
性	-9.08247
致祭	-9.0825
註	-9.08303
苦	-9.08396
祇	-9.0851
畆	-9.08606
乆	-9.08624
谷	-9.08673
祭酒	-9.08852
二十五	-9.09047
希	-9.09245
之意	-9.09387
辨	-9.09482
五品	-9.09505
在京	-9.09676
棄	-9.09702
判	-9.09715
蔡	-9.0981
㕔	-9.09844
陛下	-9.09881
不同	-9.09911
庸	-9.09922
初獻	-9.09977
堡	-9.10077
囘	-9.1008
餉	-9.10118
牙	-9.1017
頗	-9.10205
者不	-9.10484
每年	-9.10523
閏	-9.10598
其所	-9.10722
驍騎	-9.10741
復位	-9.10888
睿	-9.11039
夕	-9.1109
兆	-9.11136
東向	-9.1128
履	-9.11383
所有	-9.11439
岸	-9.11439
先是	-9.11478
皇子	-9.11513
南北	-9.11749
浮	-9.11784
寨	-9.11944
憂	-9.11968
朝廷	-9.11988
嶺	-9.12031
况	-9.12091
滋	-9.12105
人員	-9.12164
一次	-9.12256
有竒	-9.12494
兄弟	-9.12597
早	-9.12711
麟	-9.13047
藥	-9.13082
茂	-9.13183
走	-9.13185
以其	-9.13209
韻	-9.13524
速	-9.13652
負	-9.13721
欽此	-9.13828
嶽	-9.13874
鑲黄旗	-9.13894
䘮	-9.1391
冕	-9.13932
同知	-9.13988
内閣	-9.14052
汛	-9.14053
孔子	-9.14068
紹興	-9.14091
三品	-9.14247
援	-9.1425
隻	-9.14316
直省	-9.14345
綬	-9.14345
収	-9.14372
滅	-9.14509
寒	-9.14584
村	-9.14609
婚	-9.14732
儲	-9.14774
藉	-9.14828
然後	-9.14984
守備	-9.15042
七百	-9.15113
范	-9.15125
禹	-9.1516
宏	-9.15205
廬	-9.15244
厰	-9.15293
引見	-9.15313
提督	-9.1532
之南	-9.15345
添	-9.15474
㕘領	-9.15508
舉人	-9.15741
王公	-9.15761
萬厯	-9.15767
件	-9.15817
敏	-9.15901
佩	-9.15914
丞相	-9.16023
蒼	-9.16117
仙	-9.16142
社稷	-9.16339
堯	-9.16367
十人	-9.1639
前後	-9.16471
湯	-9.16571
之外	-9.16626
敦	-9.16649
五寸	-9.16714
綏	-9.16836
實以	-9.16838
操	-9.16859
隠	-9.16881
獻官	-9.16942
瑪	-9.17046
一千	-9.17078
日月	-9.17177
八百	-9.17332
第三	-9.17466
柴	-9.1747
歡	-9.17554
百餘	-9.17575
太平	-9.17607
秀	-9.17707
四分	-9.17781
擾	-9.17875
究	-9.17897
佳	-9.18064
千總	-9.18093
毋	-9.18134
纂	-9.18174
叅領	-9.18401
不過	-9.18599
碑	-9.18645
二分	-9.18668
敷	-9.18767
雄	-9.18839
指揮	-9.18907
背	-9.18946
堅	-9.19038
津	-9.19063
不必	-9.1911
覈	-9.19133
倘	-9.1929
笞	-9.19347
都司	-9.19411
鳥	-9.19594
鴻	-9.19647
遞	-9.19733
㑹同	-9.19882
執事者	-9.19946
岱	-9.1995
慮	-9.19966
刺史	-9.20018
子弟	-9.20036
緩	-9.20287
斛	-9.20305
瓦	-9.20397
董	-9.20447
弗	-9.20463
之日	-9.20618
裕	-9.20738
六分	-9.20754
糴	-9.20787
蠲	-9.20874
奉天	-9.21
聖祖仁皇帝	-9.21142
溝	-9.21226
肉	-9.21236
廣西	-9.21312
蕭	-9.21447
者以	-9.21534
逢	-9.21572
墨	-9.21596
育	-9.21827
属	-9.21921
恵	-9.21943
整	-9.21982
六人	-9.22037
南京	-9.221
核	-9.22187
沈	-9.22261
題準	-9.22292
敕	-9.22364
彌	-9.22616
略	-9.22952
中書	-9.23207
妄	-9.23245
啓	-9.23303
黑	-9.23347
之類	-9.23362
官吏	-9.23417
番	-9.23418
随	-9.23704
洛	-9.23822
祭祀	-9.239
奔	-9.24086
疆	-9.2422
洞	-9.24363
垣	-9.24366
堪	-9.24411
却	-9.24467
午	-9.24467
荆	-9.24547
朝服	-9.24557
嫁	-9.24582
漏	-9.24624
拱	-9.24641
二千	-9.24733
游	-9.25002
漆	-9.25301
屯田	-9.25322
排	-9.25781
奴	-9.25903
三千	-9.26013
答	-9.26105
遲	-9.26206
用之	-9.26472
拘	-9.26512
行事	-9.26608
九分	-9.26717
一體	-9.26822
現	-9.26888
密	-9.26941
衰	-9.27213
賤	-9.27297
磬	-9.27371
禪	-9.27491
之間	-9.27518
以上者	-9.27556
七品	-9.27557
懷	-9.27647
明堂	-9.27677
捐	-9.27713
是也	-9.27713
簿	-9.27933
祔	-9.28025
竟	-9.28057
亞獻	-9.28131
濫	-9.28218
牢	-9.28262
正白旗	-9.28345
盧	-9.28351
十卷	-9.28352
於此	-9.28373
訪	-9.28503
尸	-9.2857
衝	-9.28623
内務府	-9.28671
之義	-9.28681
藝	-9.28801
未有	-9.28827
之儀	-9.28847
蠻	-9.28852
二尺	-9.28991
陶	-9.29054
覺羅	-9.29066
輝	-9.29259
熈	-9.29277
脚	-9.29282
區	-9.29358
織	-9.29507
命婦	-9.29535
創	-9.29589
趨	-9.29599
短	-9.29687
出入	-9.29717
厥	-9.29735
基	-9.29764
僅	-9.29791
萬夀	-9.29805
陳設	-9.29926
東面	-9.30005
壁	-9.3005
幄	-9.30114
二十二年	-9.30125
肆	-9.30194
邪	-9.30202
鑲白旗	-9.30307
裏	-9.30366
畿	-9.3045
鋪	-9.30457
故事	-9.30476
盈	-9.30508
卯	-9.30517
另	-9.3052
靣	-9.30564
牒	-9.3057
黃	-9.30645
起居	-9.30904
鑾	-9.30914
箭	-9.30915
觧	-9.30928
旬	-9.31009
震	-9.31056
稷	-9.31075
鑲紅旗	-9.31158
防禦	-9.31197
催	-9.31314
壬	-9.31548
即位	-9.31572
鹵簿	-9.31579
旅	-9.31804
樽	-9.31924
軒	-9.31986
哲	-9.32329
騰	-9.32338
湖南	-9.32368
所司	-9.32407
挑	-9.32441
覽	-9.32452
不行	-9.32456
紙	-9.32525
六品	-9.32591
而後	-9.32779
麾	-9.32788
裳	-9.32861
二十三年	-9.33105
貴州	-9.33203
司徒	-9.33261
扶	-9.33273
旌	-9.33358
二名	-9.33416
藍	-9.33475
一品	-9.33502
七分	-9.3357
效	-9.3358
辛	-9.33655
麗	-9.33655
知縣	-9.33664
死者	-9.33844
遊	-9.33845
術	-9.33851
卓	-9.33921
擅	-9.34047
醫	-9.34139
恤	-9.34353
内侍	-9.34436
波	-9.34449
僉	-9.34515
三寸	-9.34626
無所	-9.3475
䕶軍校	-9.34786
典儀	-9.34878
周禮	-9.34881
賈	-9.35001
籩豆	-9.35115
翟	-9.35171
繪	-9.35276
丘	-9.35314
贊引	-9.35384
民間	-9.35393
國公	-9.35421
桓	-9.35421
策	-9.35422
畜	-9.35623
議處	-9.35722
帳	-9.35728
慰	-9.35735
千里	-9.35741
雪	-9.35805
杖一百	-9.35852
佑	-9.36024
以備	-9.36055
愚	-9.36097
奏準	-9.36129
台	-9.3619
吹	-9.36191
諾	-9.36231
街	-9.36334
生員	-9.36339
錯	-9.36346
都督	-9.36383
二十年	-9.36425
抑	-9.36459
觔	-9.36493
墓	-9.36706
秉	-9.36804
險	-9.36849
其子	-9.37042
覆準	-9.37042
擢	-9.3706
鼔	-9.37109
寅	-9.37211
閒散	-9.37215
▁(	-9.37256
有餘	-9.37408
扣	-9.37527
骨	-9.3756
二十八	-9.37611
者各	-9.37708
籌	-9.37772
褥	-9.37865
四寸	-9.3787
伍	-9.38178
逸	-9.38336
部議	-9.38393
麻	-9.38418
亷	-9.3843
紗	-9.3847
祿	-9.38568
冒	-9.38674
二縣	-9.3869
如常儀	-9.38742
績	-9.38788
獸	-9.38896
珍	-9.38918
寸	-9.39024
竢	-9.39028
大將軍	-9.39107
幽	-9.39141
亦如之	-9.3929
渾	-9.3943
軍民	-9.39463
濶	-9.39503
二卷	-9.39525
□	-9.39566
停止	-9.3965
之道	-9.39655
拒	-9.39662
明年	-9.39678
永樂	-9.397
聖人	-9.39706
圗	-9.39712
一寸	-9.39724
僕	-9.39751
戍	-9.39842
礮	-9.39944
滿漢	-9.40101
二十一年	-9.40338
衍	-9.40568
甫	-9.40697
璧	-9.40749
矢	-9.40952
仍照	-9.40984
詐	-9.40992
押	-9.41039
暫	-9.4112
世職	-9.41161
寄	-9.41363
校尉	-9.41416
千餘	-9.41446
鬼	-9.41457
各處	-9.41473
神位前	-9.41495
包	-9.41524
胥	-9.41557
韋	-9.41558
西面	-9.41599
之樂	-9.41606
截	-9.41684
俛伏興	-9.41829
有差	-9.41854
兒	-9.41936
羃	-9.4195
婦人	-9.42006
本朝	-9.42091
貼	-9.42181
皆有	-9.42347
值	-9.42412
後漢	-9.42494
荘	-9.42586
募	-9.4269
在外	-9.4273
一切	-9.42895
神位	-9.42925
宸	-9.43067
騐	-9.43093
文帝	-9.43206
膳	-9.43218
寫	-9.43235
其地	-9.43306
糶	-9.43306
等項	-9.4356
邱	-9.43611
朝鮮	-9.43694
纛	-9.43756
齡	-9.43865
側	-9.43871
彭	-9.44097
奮	-9.44131
馳	-9.44139
以致	-9.44212
乏	-9.4431
耶	-9.4434
匿	-9.44403
令其	-9.44444
二品	-9.4445
緝	-9.44469
包衣	-9.44602
該督撫	-9.44644
虧	-9.44648
其事	-9.44714
笙	-9.44817
緯	-9.44862
就位	-9.44885
沒	-9.4491
冀	-9.44985
侍衞	-9.45009
戚	-9.45018
甘肅	-9.45173
亦不	-9.45229
脱	-9.4527
契	-9.45312
淵	-9.45375
監察御史	-9.45403
太后	-9.45507
一百二十	-9.45523
琴	-9.45644
帝王	-9.45964
西階	-9.46015
神主	-9.46251
絳	-9.46481
髙祖	-9.46615
販	-9.46673
冬至	-9.46804
阜	-9.46816
欽定	-9.46847
賴	-9.46936
確	-9.46966
愈	-9.46989
億	-9.4711
桃	-9.47305
因之	-9.47346
舍人	-9.47401
國王	-9.47406
又設	-9.47465
陳氏曰	-9.47569
溢	-9.47609
百里	-9.47744
輯	-9.47898
彰	-9.47937
弱	-9.47978
之内	-9.48063
柄	-9.48086
豪	-9.48147
孤	-9.48182
植	-9.48188
者為	-9.48251
融	-9.48566
司官	-9.48577
凶	-9.48642
拜位	-9.48657
忌	-9.48779
宅	-9.48829
有功	-9.48925
祖宗	-9.48966
之東	-9.49009
絞	-9.49017
黍	-9.49028
一月	-9.49087
正黄旗	-9.49093
蠶	-9.4914
團	-9.49153
刺	-9.49157
謨	-9.492
仕	-9.49289
耆	-9.4933
萬餘	-9.49365
罕	-9.49395
譜	-9.4953
濬	-9.49575
百五十	-9.49655
隄	-9.49673
禘	-9.49709
也今	-9.49709
蕩	-9.49716
忽	-9.49749
轄	-9.49752
給事中	-9.49796
未嘗	-9.49817
彦	-9.49895
耗	-9.49992
閘	-9.50004
登歌	-9.50054
祫	-9.50064
禮直官	-9.50151
臣等	-9.50189
皇考	-9.50191
正藍旗	-9.50203
四方	-9.50275
懼	-9.5031
之西	-9.50338
璽	-9.50366
千五百	-9.50458
康熈	-9.50568
甸	-9.50829
車駕	-9.5087
析	-9.50961
十萬	-9.50987
托	-9.51039
有所	-9.51078
陰	-9.51145
鎗	-9.51234
縀	-9.51244
河東	-9.51268
宰相	-9.51279
爰	-9.51286
和碩	-9.513
坤	-9.51386
畏	-9.51528
夘	-9.51553
芳	-9.51574
給與	-9.51599
誣	-9.5181
犧	-9.51823
壺	-9.51855
次之	-9.51861
縣界	-9.51895
輕重	-9.51945
萬年	-9.52033
燭	-9.52058
皆以	-9.52181
徧	-9.52203
二十七年	-9.52281
位于	-9.5235
屏	-9.52553
昆	-9.52569
智	-9.52625
填	-9.52629
禱	-9.52802
崔	-9.52838
擒	-9.52914
文武官	-9.53084
三十六	-9.53091
焚	-9.53184
又以	-9.53239
奏准	-9.53249
羣官	-9.53281
閩	-9.53439
南郊	-9.53504
翰林院	-9.5356
奏聞	-9.53592
幼	-9.53596
帑	-9.53616
陣亡	-9.53643
諸州	-9.53646
庚	-9.53714
乾隆四十	-9.53794
姓名	-9.53822
壯	-9.53862
二日	-9.53936
逾	-9.53971
線	-9.53996
亦有	-9.53996
齒	-9.54036
掠	-9.54088
成化	-9.54157
鉛	-9.54238
簫	-9.54518
估	-9.54652
諸司	-9.54677
静	-9.54718
倚	-9.54744
處分	-9.54747
肇	-9.54749
人犯	-9.54757
凌	-9.54757
墾	-9.54762
禮部尚書	-9.54815
總兵	-9.54861
是日	-9.54892
世宗	-9.54948
該管	-9.5502
貸	-9.55152
府州縣	-9.55268
雲騎尉	-9.55353
知府	-9.55391
酌量	-9.55422
俊	-9.55433
一出	-9.55479
太和	-9.55501
暨	-9.55504
故以其子	-9.55553
曉	-9.55557
演	-9.55696
搢笏	-9.55704
行之	-9.5576
得㫖	-9.55814
即行	-9.55859
瀆	-9.55897
御座	-9.55986
貞觀	-9.55996
萬五千	-9.56151
倒	-9.56295
弼	-9.56355
百六十	-9.5642
世祖	-9.56426
逮	-9.56439
綵	-9.56445
範	-9.56451
毅	-9.56458
㡬	-9.56477
禦	-9.56567
勉	-9.56572
隅	-9.56577
嚮	-9.56622
二寸	-9.56645
祚	-9.56695
長安	-9.56758
舊制	-9.56767
三尺	-9.56783
世居	-9.56792
廂	-9.5681
二員	-9.56861
翰	-9.56905
賠	-9.56972
定例	-9.56995
淺	-9.57046
翠	-9.57168
換	-9.57208
斂	-9.57209
從前	-9.57239
蒲	-9.57262
九品	-9.57263
十日	-9.57283
泥	-9.57339
隔	-9.57417
二十四年	-9.57549
潔	-9.57629
阻	-9.57726
國子監	-9.57895
籩	-9.57919
賞給	-9.57975
上帝	-9.57995
終獻	-9.58033
篤	-9.5806
少卿	-9.58142
浦	-9.58159
具題	-9.58172
稽察	-9.58213
施行	-9.58222
只	-9.58233
彚	-9.58254
荷	-9.58267
龜	-9.58271
以前	-9.58388
壝	-9.586
者即	-9.58609
舊例	-9.58658
加恩	-9.58763
隴	-9.58807
山川	-9.58859
旗人	-9.59
鑲藍旗	-9.59108
削	-9.59198
諫	-9.59316
潮	-9.59481
披	-9.59504
匪	-9.59538
典禮	-9.59566
各有	-9.59675
都尉	-9.59743
又定	-9.59873
六寸	-9.59906
三公	-9.59909
北向立	-9.59966
沛	-9.60003
醴	-9.60177
<	-9.60285
="33"/>	-9.60286
t	-9.60288
上香	-9.60288
各二	-9.60303
台吉	-9.60402
𢎞治	-9.60405
站	-9.60523
綴	-9.60524
胙	-9.60596
仁宗	-9.60766
亮	-9.60868
腰	-9.60893
二十六年	-9.60911
正紅旗	-9.60918
陽縣	-9.60933
誥	-9.61006
冦	-9.61011
副將	-9.61031
十有二	-9.61069
糾	-9.61163
禾	-9.61376
油	-9.614
瘞	-9.61456
五尺	-9.61498
鞭	-9.61593
坫	-9.6174
託	-9.61746
困	-9.6175
栁	-9.61758
内大臣	-9.61883
㣲	-9.61889
前導	-9.61988
莽	-9.62133
妾	-9.62297
暴	-9.6237
𤓰	-9.6238
次引	-9.62473
貪	-9.62569
遠	-9.62583
舜	-9.62591
置於	-9.62621
替	-9.62703
謁者	-9.62705
層	-9.62725
爭	-9.62831
馮	-9.62871
超	-9.6299
獵	-9.63038
四卷	-9.63039
頓	-9.63046
藻	-9.63079
漢人	-9.63187
二十五年	-9.63253
謹按	-9.63291
批	-9.63373
奏言	-9.6338
幕	-9.63401
門内	-9.63413
直隸	-9.63415
世職表	-9.63421
枝	-9.63438
祝文	-9.63531
途	-9.63676
饒	-9.63791
一丈	-9.6384
恪	-9.63893
湖北	-9.64018
嫡	-9.64158
打	-9.64186
哩	-9.64251
熊	-9.64281
九百	-9.64319
本年	-9.64432
圜丘	-9.64471
危	-9.64509
通判	-9.64533
踰	-9.64554
膺	-9.64558
丹陛	-9.64597
把	-9.64608
騎都尉	-9.64633
堂官	-9.64665
劾	-9.64721
慕	-9.64884
遇有	-9.64931
巳	-9.64977
丙	-9.65035
迴	-9.65041
刋	-9.65064
醢	-9.65113
忘	-9.65199
節度使	-9.65239
割	-9.65254
不在	-9.65325
所在	-9.65327
僖	-9.65358
之舞	-9.65587
該部	-9.65705
欣	-9.6571
隸	-9.65722
域	-9.65731
謙	-9.65793
諱	-9.65832
磨	-9.65833
嵩	-9.65838
改元	-9.65858
蘆	-9.65868
監生	-9.65921
鑲	-9.65971
架	-9.66111
之北	-9.66128
堤	-9.66171
後魏	-9.6619
五日	-9.66358
廵撫	-9.66377
帖	-9.66404
榜	-9.66405
當時	-9.66607
友	-9.66635
諸臣	-9.66665
片	-9.66689
二十二	-9.66728
謁者引	-9.66732
晋	-9.66783
含	-9.66801
第四	-9.6682
屈	-9.66869
廩	-9.66881
紛	-9.67032
洽	-9.67084
殿中	-9.6718
柔	-9.67243
雞	-9.67244
上諭	-9.67279
黜	-9.67307
承襲詳	-9.67308
主簿	-9.67438
如儀	-9.67451
二十六	-9.67486
官司	-9.67508
十分	-9.6753
旨	-9.67556
艱	-9.67556
䖍	-9.67627
者照	-9.67706
奸	-9.67754
自是	-9.67797
衮	-9.67866
洩	-9.67889
煩	-9.67967
内有	-9.68069
閒	-9.68087
繕	-9.68091
懲	-9.68162
以示	-9.68194
訟	-9.6827
健	-9.68441
禧	-9.6855
二十一	-9.68556
貳	-9.68655
儀仗	-9.68695
讓	-9.68724
緞	-9.68736
釋奠	-9.68783
之屬	-9.68861
歴代	-9.6888
福晉	-9.68952
梅	-9.68969
亥	-9.69081
而無	-9.69204
緣	-9.69381
古者	-9.69407
楹	-9.69439
閉	-9.6966
立定	-9.69713
姚	-9.69749
内府	-9.6979
萬壽	-9.69799
隱	-9.69821
賛者	-9.69835
儀注	-9.6998
亨	-9.70018
覲	-9.70042
並無	-9.70134
一時	-9.70218
銓	-9.70332
帯	-9.70336
階下	-9.70441
又曰	-9.70571
鑒	-9.70577
拔	-9.70585
復置	-9.70711
徇	-9.70714
鸞	-9.70723
誕	-9.70723
執事官	-9.70769
羌	-9.70779
提舉	-9.70791
四名	-9.708
笛	-9.70822
儉	-9.70826
樂章	-9.70965
韶	-9.70974
殘	-9.71041
人之	-9.7111
公卿	-9.71148
戸部	-9.71177
古今	-9.71256
鑑	-9.71315
寵	-9.71318
二十三	-9.71387
不復	-9.71397
之左	-9.7141
曠	-9.71441
國初	-9.7149
其中	-9.71493
敘	-9.71569
江蘇	-9.71573
鮮	-9.71576
葛	-9.71698
金銀	-9.71754
裔	-9.7181
國朝	-9.71857
閤門	-9.71967
勺	-9.71986
箇	-9.72059
靡	-9.72078
萬石	-9.72132
潛	-9.72286
二十九年	-9.72361
竣	-9.72375
爼	-9.72379
證	-9.72392
従	-9.72502
河北	-9.72577
没	-9.72584
京城	-9.72613
乾隆三十	-9.72617
在位	-9.72628
布政司	-9.72767
逰	-9.72822
澄	-9.72955
駝	-9.7297
鄧	-9.72996
一百五十	-9.73009
貝子	-9.73168
匈奴	-9.73205
諸路	-9.73405
何以	-9.73424
遁	-9.73438
事務	-9.73464
詹事	-9.73483
東階	-9.73602
跪奠	-9.73652
泗	-9.7366
燒	-9.73825
纓	-9.7385
讀祝	-9.73903
從征	-9.73928
聼	-9.73947
鶴	-9.73981
苗	-9.73985
南面	-9.74035
黄道	-9.74098
九卿	-9.74173
虛	-9.74177
穿	-9.74294
撃	-9.74356
上司	-9.74409
惜	-9.74434
馬匹	-9.74476
冠者	-9.74505
歩軍	-9.74542
夲	-9.7457
概	-9.74604
翊	-9.74607
部院	-9.7461
肯	-9.74646
之上	-9.74678
各二人	-9.74681
疏言	-9.74748
蔽	-9.74771
測	-9.74797
中國	-9.74817
憑	-9.74823
御書	-9.74877
巻	-9.74917
凉	-9.74936
之心	-9.7495
二十八年	-9.75103
補授	-9.75154
光禄	-9.75173
潤	-9.75178
疎	-9.75293
掩	-9.75303
槍	-9.75321
飯	-9.75336
娶	-9.75455
褒	-9.75562
之神	-9.75574
太監	-9.7558
如常	-9.75661
輒	-9.75676
閤	-9.7572
偶	-9.75747
佟	-9.75819
國之	-9.75833
劄	-9.75867
牽	-9.7594
罰俸一年	-9.75967
衢	-9.75985
沐	-9.76042
五千	-9.76086
如初	-9.76252
禮儀	-9.76412
漲	-9.76496
委署	-9.76505
驅	-9.76518
廡	-9.76538
現在	-9.76543
蒙	-9.76659
簾	-9.76716
正統	-9.76726
免其	-9.76776
城縣	-9.76826
受命	-9.76827
未經	-9.77027
不用	-9.77057
死罪	-9.7709
常平	-9.77138
陞任	-9.7716
繩	-9.77251
賚	-9.7727
勵	-9.77291
大同	-9.77302
東上	-9.77478
大使	-9.77538
怒	-9.77623
汗	-9.77646
寡	-9.77739
廕	-9.77829
司農	-9.77864
是時	-9.77918
崇徳	-9.77919
弩	-9.78009
三十年	-9.78079
詔曰	-9.78119
齎	-9.78142
灌	-9.78234
一十	-9.78387
太官令	-9.78442
摺	-9.78461
請㫖	-9.78494
舉行	-9.78506
單于	-9.78673
還宫	-9.78682
㦸	-9.78691
或有	-9.78708
帷	-9.78772
之中	-9.78831
黙	-9.7884
長史	-9.78878
九寸	-9.78988
巡檢司	-9.79004
罰俸	-9.79091
吴	-9.79157
戌	-9.79214
輔國公	-9.79219
太原	-9.79381
之説	-9.79384
行走	-9.79404
幹	-9.79494
五色	-9.7954
等謹案	-9.79548
七人	-9.79613
巖	-9.79628
從祀	-9.7963
多寡	-9.79729
以授	-9.79731
漫	-9.7976
陜	-9.79804
鼓吹	-9.79805
禮官	-9.79813
耀	-9.79818
淑	-9.79863
前一日	-9.79866
拏	-9.79879
奉禮	-9.79985
後世	-9.8006
之右	-9.80116
長官司	-9.80142
仍令	-9.8015
數目	-9.80157
牆	-9.80164
閱	-9.80168
教習	-9.80212
氏正黄旗滿洲	-9.80223
品級	-9.80285
尺二寸	-9.80285
使副	-9.80357
恩詔	-9.80435
先師	-9.80495
鄰	-9.80546
以聞	-9.80551
郡國	-9.80559
太學	-9.80743
節度	-9.80752
分為	-9.80785
禮儀使	-9.80786
又議準	-9.80824
長子	-9.80838
余	-9.8084
八品	-9.8087
眷	-9.81007
府屬	-9.81277
蝗	-9.813
弦	-9.81336
彩	-9.81417
大唐	-9.81431
霍	-9.81443
郡縣	-9.81569
欺	-9.81709
數十	-9.81818
少退	-9.81828
每月	-9.81967
敎	-9.82033
五代	-9.82063
之前	-9.82077
二十七	-9.82098
贊者	-9.82246
低	-9.82329
西安	-9.82395
朗	-9.8245
萬二千	-9.82486
坦	-9.82487
第五	-9.82586
俘	-9.82614
都察院	-9.82623
殿上	-9.8263
翔	-9.8267
入就位	-9.82753
北上	-9.82772
丕	-9.82796
祝版	-9.82958
篆	-9.82991
之官	-9.83232
伊等	-9.83337
舎人	-9.83412
墳	-9.83423
訥	-9.83471
制度	-9.83473
行宫	-9.83496
官軍	-9.83528
警	-9.83531
三十五	-9.83577
正中	-9.83596
柩	-9.8363
並同	-9.83655
者謂	-9.8369
輙	-9.83708
二十九	-9.83774
皂	-9.84002
充軍	-9.84016
無不	-9.84201
脯	-9.84225
茍	-9.84255
豕	-9.84267
歛	-9.84334
綸	-9.8435
本部	-9.84358
今年	-9.84366
酉	-9.8444
丑	-9.84558
中外	-9.84738
寕	-9.84788
逼	-9.84796
之家	-9.84815
僕射	-9.84925
肩	-9.85061
棺	-9.85068
無疆	-9.85071
若干	-9.85091
際	-9.85215
争	-9.85244
鞍	-9.85299
誦	-9.85347
槩	-9.85383
三卷	-9.8541
乾隆元年	-9.8546
欵	-9.85472
尚書省	-9.85535
章京	-9.8559
袁	-9.85649
禮樂	-9.85661
禮成	-9.85664
司空	-9.85684
各設	-9.85733
稼	-9.85863
爐	-9.85894
每嵗	-9.85926
太史	-9.86067
剛	-9.86147
所載	-9.86157
雖有	-9.86292
菜	-9.86354
再拜訖	-9.86406
稻	-9.86419
百二十	-9.86504
四十五	-9.86523
禍	-9.866
誘	-9.86639
千二百	-9.86671
額駙	-9.86681
劍	-9.867
不應	-9.86721
大功	-9.86808
之弊	-9.86813
雍正元年	-9.86828
珪	-9.8686
重行	-9.86882
夙	-9.86934
狩	-9.87073
前代	-9.87078
混	-9.87105
一曰	-9.87117
邁	-9.8715
緋	-9.87179
退復位	-9.87189
該管官	-9.8723
鄉試	-9.87234
詳見	-9.87277
廪	-9.87331
給銀	-9.87355
几	-9.8737
已上	-9.87419
貞元	-9.87433
七寸	-9.87484
怨	-9.87562
翰林	-9.87621
前期	-9.87641
察哈爾	-9.87641
遜	-9.87644
𦵏	-9.87728
三名	-9.87768
軫	-9.87834
樂奏	-9.87892
五帝	-9.87904
蕤	-9.87943
銀兩	-9.87982
平之章	-9.88004
受爵	-9.88024
郊祀	-9.8809
先後	-9.88146
殺人	-9.88164
翁	-9.88201
晝	-9.88244
贍	-9.88269
揚州	-9.88279
人丁	-9.8832
舎	-9.88432
首領	-9.8857
江浙	-9.88578
之名	-9.8858
通行	-9.88586
償	-9.88601
暢	-9.8864
宛	-9.88697
奉安	-9.88778
京兆	-9.88799
入官	-9.88815
赤道	-9.88823
弔	-9.88968
衛所	-9.88989
闢	-9.89083
影	-9.89104
像	-9.89113
烟	-9.89125
奴婢	-9.89153
之分	-9.89155
然則	-9.89213
夢	-9.89404
鴻臚寺	-9.89422
鑿	-9.89447
峯	-9.89493
二千石	-9.89522
裘	-9.89566
遥	-9.89654
諸道	-9.8967
香案	-9.89682
皇祖	-9.89812
元豐	-9.89852
衫	-9.89871
竿	-9.89872
弓矢	-9.89898
所用	-9.89926
暇	-9.8997
三代	-9.90003
分左右	-9.90015
安徽	-9.90045
昏	-9.90133
邀	-9.90158
胄	-9.90165
大定	-9.90169
莫不	-9.90216
宣徳	-9.9025
東方	-9.90276
萬世	-9.90307
武職	-9.90344
蓄	-9.90358
應行	-9.90369
票	-9.90372
斃	-9.90413
漳	-9.9049
足以	-9.90504
壞	-9.90608
占曰	-9.90629
太守	-9.90638
攸	-9.90649
北齊	-9.90652
委官	-9.90695
滿洲䝉古	-9.90711
壓	-9.90747
一百三十	-9.90913
舅	-9.90987
驚	-9.91058
壊	-9.9112
偕	-9.91127
血	-9.91132
奏稱	-9.91204
其國	-9.91213
一百四十	-9.91362
不敷	-9.91397
俯	-9.91479
喀爾喀	-9.91506
奎	-9.91598
第十	-9.91607
膏	-9.91665
滯	-9.91691
萬六千	-9.91695
碩	-9.91717
州刺史	-9.91774
萬八千	-9.9185
雇	-9.91946
千户所	-9.91949
一百六十	-9.92007
八名	-9.92007
頻	-9.92063
賽	-9.92071
竭	-9.92177
若有	-9.92204
寃	-9.92288
銖	-9.92316
者則	-9.92364
契丹	-9.92366
壤	-9.92404
定制	-9.92432
一百八十	-9.92496
中書省	-9.92509
控	-9.92578
萬三千	-9.92697
大将軍	-9.92727
凝	-9.92729
執笏	-9.92776
來屬	-9.92945
世宗憲皇帝	-9.92965
總兵官	-9.93007
補用	-9.93114
疇	-9.93164
萬七千	-9.93175
播	-9.93207
順天府	-9.93212
陷	-9.93215
䘏	-9.93285
民人	-9.93343
序立	-9.93505
該旗	-9.93509
功臣	-9.93587
㤗	-9.93631
參軍	-9.93633
殯	-9.93752
括	-9.93787
闈	-9.93796
抄	-9.93874
汪	-9.93926
幅	-9.93969
薛	-9.9398
縁事革退以	-9.94042
泛	-9.94063
齋戒	-9.94113
不合	-9.94142
疏曰	-9.94146
萬四千	-9.94232
雩	-9.94287
庻	-9.94814
秘	-9.94852
癸	-9.95184
網	-9.9531
竈	-9.95593
屆	-9.95757
鞏	-9.95849
彈	-9.96053
詢	-9.96225
拾	-9.96324
浩	-9.96386
貽	-9.96636
狄	-9.96683
彛	-9.96705
潘	-9.96795
邵	-9.96816
鉅	-9.96823
偃	-9.96924
簋	-9.96968
两	-9.97002
腹	-9.97061
遐	-9.97064
亞	-9.97068
繖	-9.97258
忍	-9.97452
抽	-9.97511
萊	-9.97519
妥	-9.97519
堰	-9.97553
岡	-9.978
訛	-9.97808
鋭	-9.97832
迄	-9.97851
遭	-9.97983
巨	-9.98003
罔	-9.98038
鏡	-9.98261
強	-9.98439
跡	-9.98521
蹕	-9.98654
銘	-9.98727
貂	-9.98837
廐	-9.98906
淤	-9.9899
悦	-9.99046
繞	-9.99133
孰	-9.99156
蟲	-9.99177
晏	-9.99255
燔	-9.99275
蟒	-9.99299
脩	-9.99342
厲	-9.99572
茅	-9.99705
芝	-9.99726
撤	-9.99727
瓊	-9.99757
㓜	-9.99759
謬	-9.99784
卦	-9.99801
錠	-9.99818
昊	-9.99995
𦂳	-10.0012
樞	-10.0014
黔	-10.0014
裝	-10.0025
斜	-10.0038
繳	-10.0048
扈	-10.0056
吐	-10.0079
掃	-10.0082
誰	-10.0095
𣙜	-10.0095
樁	-10.0107
閭	-10.0115
厨	-10.0123
竇	-10.0145
譯	-10.0146
鐡	-10.0147
綠	-10.015
鏤	-10.016
脊	-10.0185
消	-10.0193
宥	-10.0211
鑪	-10.0223
煌	-10.0231
緒	-10.0233
雕	-10.0237
矜	-10.0256
戈	-10.0266
𠞰	-10.0271
浪	-10.0272
洲	-10.029
霑	-10.0301
貟	-10.0311
瑟	-10.0312
飬	-10.0313
涼	-10.0326
碧	-10.0345
粤	-10.0347
寇	-10.0353
柷	-10.0355
障	-10.0369
歟	-10.0396
酬	-10.0397
圜	-10.0419
霸	-10.0425
祧	-10.0427
猷	-10.0433
抹	-10.0451
傾	-10.0453
弛	-10.0456
旂	-10.0459
傑	-10.0464
佃	-10.0464
偹	-10.0483
恃	-10.0483
厭	-10.0497
貝	-10.0499
訴	-10.05
叚	-10.0501
懋	-10.0504
渭	-10.051
壘	-10.0532
牀	-10.0539
㧞	-10.0544
酋	-10.0547
霞	-10.0552
戲	-10.059
梯	-10.0606
薪	-10.0607
様	-10.0616
搢	-10.062
詠	-10.0626
暑	-10.0627
刪	-10.0635
鎭	-10.0636
灾	-10.0648
枚	-10.0663
逋	-10.0669
溥	-10.0692
肥	-10.0695
突	-10.0697
潭	-10.0727
鈎	-10.0733
倣	-10.0738
掛	-10.074
蘓	-10.0753
抱	-10.0761
叶	-10.0763
楮	-10.0768
杭	-10.0779
嚕	-10.0795
紐	-10.0803
姪	-10.0805
舁	-10.0807
巢	-10.0826
掖	-10.0829
衷	-10.083
絡	-10.0854
呂	-10.086
淹	-10.0867
簠	-10.0888
乖	-10.0892
陟	-10.0902
激	-10.0903
棟	-10.0906
奚	-10.0923
僚	-10.0945
殤	-10.0946
虜	-10.0962
廊	-10.0966
鴈	-10.1005
秒	-10.1006
斥	-10.1013
軌	-10.1014
潰	-10.1015
踐	-10.1024
箋	-10.1025
縗	-10.1042
禽	-10.1043
歉	-10.1054
宵	-10.1061
猛	-10.1067
帽	-10.1096
煥	-10.1102
挾	-10.1106
蹟	-10.1108
禋	-10.111
昨	-10.1122
遽	-10.1125
迹	-10.1134
偷	-10.1145
緬	-10.1164
妙	-10.1168
宦	-10.1186
湏	-10.1187
緡	-10.1189
函	-10.1193
崖	-10.1194
冲	-10.1196
個	-10.12
炭	-10.1203
鐸	-10.1205
裴	-10.1206
惑	-10.1206
幔	-10.1211
瑚	-10.1215
掣	-10.1227
聘	-10.1237
疊	-10.1237
巧	-10.125
炎	-10.1267
濁	-10.1271
措	-10.1284
沃	-10.129
晨	-10.1294
紳	-10.1298
晦	-10.13
炳	-10.1315
了	-10.133
盟	-10.1342
冶	-10.1355
誌	-10.1355
粮	-10.1375
拂	-10.1412
匱	-10.1412
灣	-10.1426
楞	-10.1428
岐	-10.1436
衙	-10.1436
沂	-10.1455
陋	-10.1456
沁	-10.1469
訊	-10.1493
鈞	-10.1501
綽	-10.1512
汾	-10.1531
燈	-10.154
羲	-10.1546
檐	-10.1553
觶	-10.1559
綾	-10.1568
棗	-10.1574
摩	-10.1586
効	-10.1588
戊	-10.1596
榆	-10.1624
懇	-10.1644
漁	-10.1652
滇	-10.1672
旒	-10.1673
歆	-10.1681
劣	-10.169
誓	-10.1704
傍	-10.1715
兇	-10.1716
瀛	-10.1719
刷	-10.1742
潁	-10.1779
状	-10.1802
𤼵	-10.1822
鈐	-10.1826
枷	-10.1836
笏	-10.1903
遍	-10.1919
髤	-10.1921
靜	-10.1941
涇	-10.1944
臘	-10.1983
氊	-10.1988
姜	-10.1999
坎	-10.2002
沉	-10.2008
盥	-10.2029
寓	-10.2031
躍	-10.2039
虹	-10.2052
輩	-10.2053
粉	-10.2055
談	-10.2063
乳	-10.2064
闡	-10.2074
簽	-10.2077
冐	-10.2123
巫	-10.2123
雉	-10.2131
返	-10.2136
箱	-10.216
繹	-10.2167
蓮	-10.2196
灰	-10.2197
䟽	-10.2199
抗	-10.22
鐙	-10.2204
魁	-10.2208
倭	-10.2217
髪	-10.2227
埋	-10.2238
的	-10.224
釘	-10.224
汴	-10.2241
奕	-10.2246
稿	-10.2248
賄	-10.2258
霜	-10.2265
怠	-10.2283
哨	-10.2296
蔵	-10.23
競	-10.2302
紬	-10.2303
牘	-10.2309
袖	-10.2319
苖	-10.2326
俞	-10.2336
膠	-10.2338
殆	-10.2345
塵	-10.235
鬭	-10.2356
頼	-10.2361
犢	-10.2375
忱	-10.238
評	-10.2392
邸	-10.24
駁	-10.2407
臯	-10.2408
豹	-10.2411
駒	-10.2412
匏	-10.2415
舖	-10.2417
勦	-10.2419
技	-10.2448
籠	-10.2461
嫌	-10.2503
觴	-10.2514
逓	-10.2534
島	-10.2543
壻	-10.2564
薊	-10.2568
聰	-10.2569
凱	-10.2571
朋	-10.2571
昻	-10.2587
綺	-10.2617
耿	-10.2628
邇	-10.2663
賁	-10.2674
搶	-10.268
妖	-10.2693
臻	-10.2698
擁	-10.27
溺	-10.2726
㨗	-10.2749
琳	-10.2762
匡	-10.2763
雹	-10.2766
囊	-10.278
港	-10.2781
認	-10.2782
鞾	-10.2783
愍	-10.2787
隣	-10.2801
饋	-10.2802
墜	-10.2804
迤	-10.2811
窩	-10.2818
森	-10.2819
戮	-10.2835
煙	-10.2835
梓	-10.2859
嬪	-10.2862
毓	-10.2868
槽	-10.2874
寰	-10.2877
徭	-10.2888
睦	-10.2891
咎	-10.2894
蓬	-10.2897
刼	-10.2908
巍	-10.2913
筮	-10.2915
揑	-10.2924
溉	-10.2925
栗	-10.2929
闔	-10.2943
鬻	-10.2952
揭	-10.2968
甄	-10.2977
迺	-10.2977
峻	-10.2979
羡	-10.2981
脅	-10.2985
滌	-10.2987
濯	-10.3008
系	-10.3012
笑	-10.3015
絰	-10.3027
暮	-10.303
箕	-10.3031
竄	-10.3041
玩	-10.3052
涉	-10.3064
爽	-10.3077
伸	-10.3093
盆	-10.3112
朶	-10.3112
染	-10.3116
届	-10.3135
䕫	-10.3153
模	-10.3175
䧟	-10.318
籥	-10.3184
札	-10.3189
霖	-10.319
昇	-10.3212
狼	-10.3217
壮	-10.3231
祁	-10.3234
馭	-10.3255
柳	-10.3257
覩	-10.3265
詰	-10.3268
弧	-10.3268
覃	-10.3272
孚	-10.3277
瑶	-10.3278
犀	-10.3287
閑	-10.3291
着	-10.3292
祼	-10.3298
斟	-10.3306
坡	-10.3318
庥	-10.335
檀	-10.335
黼	-10.3365
痛	-10.3377
毒	-10.3382
氷	-10.3421
圻	-10.3433
蛇	-10.344
杆	-10.3459
閔	-10.3483
桐	-10.3487
滄	-10.3508
潼	-10.3508
搜	-10.3521
氐	-10.3521
屠	-10.3523
拍	-10.3526
眼	-10.3529
眉	-10.3531
牐	-10.3541
殁	-10.3541
妣	-10.3544
瀋	-10.3603
汰	-10.3608
杏	-10.3629
玊	-10.3633
荀	-10.3634
敔	-10.3635
聨	-10.364
渥	-10.365
菹	-10.3651
奬	-10.3676
㫁	-10.3679
拆	-10.3688
熹	-10.369
浚	-10.3703
枉	-10.3705
謚	-10.3724
軸	-10.373
郵	-10.3758
矟	-10.3764
樸	-10.3765
亟	-10.3783
響	-10.3791
叟	-10.3796
妨	-10.3798
鷹	-10.38
串	-10.3811
墻	-10.3825
棍	-10.3828
晴	-10.3837
礦	-10.3847
貶	-10.3851
歿	-10.3858
漠	-10.3877
桌	-10.3878
鐫	-10.3893
婁	-10.3909
拊	-10.3935
活	-10.3943
烝	-10.3947
硃	-10.3955
濮	-10.3958
祜	-10.3958
亢	-10.3959
鉞	-10.396
穴	-10.3961
探	-10.3976
姬	-10.4
店	-10.4014
渉	-10.4055
耤	-10.4061
勑	-10.4066
鬱	-10.4068
幡	-10.4082
壅	-10.4086
卧	-10.4088
㳺	-10.4096
孜	-10.4105
冰	-10.4112
臂	-10.4115
芒	-10.4125
旺	-10.4125
膝	-10.4129
寔	-10.4137
鱗	-10.4142
掾	-10.4142
羞	-10.4154
央	-10.4179
屍	-10.4189
鬯	-10.4197
纔	-10.4231
飢	-10.4237
轎	-10.4239
龕	-10.4254
灘	-10.4259
鄙	-10.4261
璋	-10.4263
辯	-10.4266
轡	-10.4292
禆	-10.4304
踏	-10.4322
禀	-10.4324
淫	-10.4334
数	-10.4335
隘	-10.4346
轅	-10.4347
洵	-10.4356
繒	-10.4359
葺	-10.437
刃	-10.4392
蔚	-10.4398
悔	-10.4414
眞	-10.4448
洮	-10.4452
孳	-10.4465
味	-10.4478
窺	-10.4486
溜	-10.4493
揆	-10.4502
栢	-10.4531
鐃	-10.4533
匣	-10.4536
涵	-10.4543
䑓	-10.4547
砦	-10.4548
浴	-10.4571
湘	-10.4573
稀	-10.459
鬬	-10.4609
俄	-10.4632
肖	-10.4633
沅	-10.4645
愧	-10.4658
售	-10.4663
羮	-10.4679
吟	-10.4685
梧	-10.4685
陕	-10.4703
隐	-10.4707
盎	-10.4708
牟	-10.4722
劒	-10.4728
蕪	-10.4736
訂	-10.4746
悼	-10.4754
組	-10.4766
鋒	-10.4792
貺	-10.4804
鈴	-10.4805
遏	-10.4822
鞫	-10.4849
蒸	-10.4872
猪	-10.4875
昧	-10.4893
拖	-10.4894
堵	-10.4895
貌	-10.4898
螺	-10.4902
馨	-10.4908
蔣	-10.4925
愆	-10.4926
泊	-10.4926
辜	-10.4943
鼐	-10.4969
𣲖	-10.4982
祉	-10.4982
潞	-10.4987
鄒	-10.5002
搭	-10.5019
幘	-10.5028
狐	-10.504
乂	-10.5057
廉	-10.5058
浸	-10.5062
庇	-10.5077
䕃	-10.5084
衕	-10.5093
噐	-10.5115
竝	-10.5135
僻	-10.5136
卡	-10.5156
叢	-10.5182
犬	-10.5183
掲	-10.5185
汎	-10.5185
𩔖	-10.5188
迭	-10.5197
誼	-10.5198
袴	-10.5208
隙	-10.5213
裙	-10.5213
庾	-10.5214
繋	-10.522
幷	-10.5222
駮	-10.5223
攬	-10.5227
諳	-10.5246
瓶	-10.528
憫	-10.529
徼	-10.5301
圏	-10.5304
芻	-10.532
㓂	-10.5323
穹	-10.5335
球	-10.5339
譏	-10.5339
迨	-10.5349
股	-10.5359
努	-10.5372
旣	-10.5382
幫	-10.5382
参	-10.5384
繇	-10.5387
怪	-10.5398
摘	-10.5419
兑	-10.5422
灑	-10.5432
護	-10.544
狹	-10.5451
凰	-10.5467
趾	-10.5473
旰	-10.5473
舄	-10.5475
斧	-10.5481
吿	-10.5506
晟	-10.5512
邕	-10.5513
鉶	-10.555
塊	-10.5556
幢	-10.5557
萃	-10.5566
縫	-10.5575
暈	-10.5581
湛	-10.5587
攷	-10.5589
廻	-10.5591
髮	-10.5601
侈	-10.5605
醖	-10.5626
悟	-10.5629
培	-10.5635
喬	-10.5648
琮	-10.5657
偉	-10.5663
沾	-10.5664
聫	-10.5683
嘏	-10.5697
僭	-10.5721
諧	-10.5721
㢘	-10.5728
駿	-10.5747
稔	-10.5754
纁	-10.5761
臧	-10.5761
坍	-10.5775
棉	-10.5775
般	-10.5779
傘	-10.5781
寝	-10.5799
伎	-10.5808
闊	-10.5808
臚	-10.5809
矩	-10.581
忒	-10.5834
墊	-10.5845
躋	-10.5857
恊	-10.5862
晰	-10.5863
琿	-10.5867
鈒	-10.5874
譚	-10.5877
㳟	-10.588
址	-10.588
巷	-10.5894
奈	-10.5895
晚	-10.59
鈕	-10.59
恢	-10.5909
疲	-10.5924
冗	-10.5943
阮	-10.5944
廓	-10.596
讞	-10.5961
旛	-10.5975
濵	-10.5976
鉦	-10.5986
荅	-10.5998
潢	-10.6008
詭	-10.6011
床	-10.6015
掘	-10.602
潜	-10.6027
囉	-10.6027
羙	-10.6031
縂	-10.6031
闐	-10.6041
崑	-10.6041
敖	-10.6051
綜	-10.6059
堆	-10.6065
劵	-10.6104
套	-10.6112
慢	-10.6117
恬	-10.6121
㪚	-10.6126
棚	-10.6128
苛	-10.6129
煎	-10.6129
裂	-10.6149
姻	-10.615
豁	-10.6158
茲	-10.6159
斌	-10.6176
畱	-10.6222
艾	-10.6227
熱	-10.6264
葦	-10.6274
惕	-10.6277
貲	-10.628
婆	-10.6328
搏	-10.633
廼	-10.633
寮	-10.6333
雀	-10.6336
賭	-10.6342
舛	-10.6368
諌	-10.6382
瓜	-10.6384
拿	-10.6389
恕	-10.6398
㡌	-10.6399
藤	-10.6417
倖	-10.6434
簷	-10.6436
耒	-10.6436
剿	-10.6436
汲	-10.6439
兖	-10.6441
彗	-10.6463
映	-10.6469
電	-10.6469
鉤	-10.6481
厫	-10.6484
惰	-10.6487
檄	-10.6487
曜	-10.6493
樊	-10.6512
聿	-10.6536
涿	-10.6539
亘	-10.654
裹	-10.657
恣	-10.6576
戾	-10.6611
瀾	-10.6626
韜	-10.6629
粢	-10.6633
蹈	-10.6656
叠	-10.6662
辱	-10.6664
暉	-10.6664
淨	-10.668
溯	-10.6696
踵	-10.6696
霄	-10.6716
挨	-10.672
畤	-10.6731
紵	-10.6749
昂	-10.6813
砂	-10.6833
欄	-10.6839
奢	-10.6841
虐	-10.6846
仇	-10.6863
揺	-10.6865
粗	-10.6881
鍍	-10.6899
蝕	-10.6899
尅	-10.69
燦	-10.6913
駟	-10.6916
快	-10.6931
仿	-10.6932
悲	-10.6933
爛	-10.6937
握	-10.6948
捷	-10.695
甎	-10.6951
奥	-10.6952
譽	-10.6959
鵬	-10.6966
翎	-10.6976
拓	-10.6983
庠	-10.6984
兢	-10.6985
沮	-10.6989
鑰	-10.6992
鳩	-10.6993
柏	-10.7002
軾	-10.7027
複	-10.7028
汶	-10.7044
匾	-10.7057
趣	-10.7063
輟	-10.7065
陂	-10.7068
焦	-10.708
脫	-10.7098
粥	-10.7116
禎	-10.7126
晡	-10.7128
遮	-10.713
厪	-10.713
樣	-10.713
敇	-10.7135
諒	-10.7136
砌	-10.7144
陌	-10.7155
尖	-10.7167
撒	-10.7174
靄	-10.7177
倡	-10.7189
驕	-10.7191
夥	-10.7201
搆	-10.7226
劇	-10.7232
攤	-10.7244
儼	-10.7269
冄	-10.7271
歎	-10.7282
泣	-10.7283
淄	-10.7287
捍	-10.7287
肺	-10.73
楷	-10.7321
弑	-10.7332
粒	-10.7337
冝	-10.7341
諏	-10.7341
椒	-10.7353
喻	-10.7361
滕	-10.7363
隕	-10.7371
插	-10.7374
礟	-10.7381
磁	-10.7404
葵	-10.7405
奇	-10.7427
栱	-10.7429
簇	-10.7433
株	-10.7433
況	-10.7457
驢	-10.7461
翻	-10.7464
暗	-10.7465
剰	-10.7493
菴	-10.7507
帨	-10.7522
漂	-10.7537
剪	-10.7547
籖	-10.756
簴	-10.7563
侑	-10.759
暖	-10.7593
絨	-10.7599
滑	-10.7615
拭	-10.762
竺	-10.7627
莭	-10.7633
頴	-10.7635
坑	-10.7636
攅	-10.7638
窄	-10.7641
盾	-10.77
兊	-10.7701
雁	-10.7709
睢	-10.771
慧	-10.7716
舶	-10.7767
佾	-10.7773
驍	-10.778
購	-10.7786
詎	-10.7804
禰	-10.7811
賡	-10.7825
簪	-10.7827
狗	-10.7829
圈	-10.7836
芬	-10.7852
艘	-10.7854
繆	-10.7854
牡	-10.7866
装	-10.7878
奨	-10.7885
研	-10.7886
襖	-10.7886
懈	-10.7889
想	-10.7908
瘴	-10.7913
擎	-10.7932
頤	-10.7942
馴	-10.7949
邢	-10.795
礙	-10.7952
縮	-10.7955
讐	-10.7966
愷	-10.7986
瓣	-10.7987
蠟	-10.7999
莞	-10.7999
簧	-10.8003
蘄	-10.8011
両	-10.8012
盞	-10.8028
䓁	-10.8031
涸	-10.8033
碎	-10.8038
瓚	-10.8039
皥	-10.8047
矯	-10.8049
腥	-10.8069
鄴	-10.809
彤	-10.8091
伺	-10.8096
捉	-10.8098
膚	-10.81
彬	-10.8111
迷	-10.8114
幃	-10.8115
棲	-10.8116
螭	-10.8122
昴	-10.8132
邳	-10.8133
㤙	-10.8152
袋	-10.8165
悃	-10.817
奄	-10.8174
虡	-10.8174
袒	-10.8178
鼻	-10.8185
哥	-10.82
塩	-10.8205
糜	-10.8213
囬	-10.8218
琖	-10.8224
筐	-10.8236
彞	-10.8236
瘠	-10.824
敝	-10.8257
穰	-10.8263
彪	-10.8277
鎛	-10.8292
柵	-10.8303
陀	-10.8304
絁	-10.8318
苐	-10.8325
冪	-10.8326
􁀙	-10.8327
犂	-10.8358
朽	-10.836
嬰	-10.8361
酷	-10.8363
做	-10.8373
滙	-10.8381
暹	-10.8387
璜	-10.8411
斿	-10.8436
槃	-10.8451
騷	-10.8467
琅	-10.847
蔬	-10.8499
憚	-10.851
勃	-10.853
迫	-10.8531
乍	-10.8532
枯	-10.8533
攜	-10.8534
麓	-10.8534
慿	-10.8548
擔	-10.8549
樵	-10.855
賂	-10.8551
萌	-10.8555
鎖	-10.8561
菁	-10.8564
踴	-10.8568
怡	-10.8571
顓	-10.8593
聊	-10.8594
筠	-10.8614
牖	-10.8615
航	-10.862
塋	-10.8624
籲	-10.8632
諄	-10.8635
㸔	-10.8642
贏	-10.8643
胃	-10.8657
苞	-10.8664
紋	-10.8669
轝	-10.8672
衾	-10.8676
襪	-10.8682
餅	-10.8682
檜	-10.8695
碉	-10.8699
竽	-10.8705
瀘	-10.8722
駢	-10.8724
檔	-10.8756
峪	-10.8764
僱	-10.8767
誡	-10.877
飽	-10.8792
藁	-10.8793
伴	-10.8796
𨗳	-10.8797
觸	-10.8816
䦨	-10.882
縧	-10.8823
闌	-10.8823
溫	-10.8826
帙	-10.8829
爪	-10.8837
恥	-10.8838
劭	-10.8839
捨	-10.884
蟠	-10.8844
話	-10.8848
埽	-10.8864
俵	-10.8872
賫	-10.8876
琦	-10.8877
恨	-10.8877
狂	-10.888
孽	-10.8882
濕	-10.8883
澗	-10.8928
葱	-10.893
冩	-10.8951
曼	-10.8967
忿	-10.8971
晌	-10.8975
霧	-10.8977
皷	-10.898
龎	-10.8986
抒	-10.8989
褂	-10.9
遑	-10.9011
驟	-10.9015
勁	-10.9015
獅	-10.9025
藴	-10.9033
卽	-10.9041
黻	-10.9055
謄	-10.9059
祕	-10.9063
攀	-10.9082
罵	-10.9085
曺	-10.9101
忻	-10.9103
迅	-10.9103
儆	-10.9123
襯	-10.9124
揮	-10.9141
谿	-10.9146
悠	-10.9149
姊	-10.9149
滚	-10.9153
濤	-10.917
麴	-10.9179
匝	-10.9202
隍	-10.9221
踈	-10.9223
揀	-10.9236
曷	-10.9237
晩	-10.9263
椿	-10.9266
磚	-10.9286
墮	-10.9293
緇	-10.9312
冷	-10.9334
忭	-10.9351
亳	-10.9378
詹	-10.9381
耦	-10.9395
榻	-10.9409
軼	-10.942
贄	-10.9446
䖏	-10.9447
孺	-10.9447
滎	-10.9448
禫	-10.9462
婺	-10.9469
彊	-10.9474
瑯	-10.9482
凛	-10.9494
挺	-10.9497
敞	-10.9497
湧	-10.9498
槐	-10.9498
邏	-10.9498
綂	-10.9502
殱	-10.9522
縷	-10.9526
岷	-10.9533
雒	-10.954
蜡	-10.9573
穢	-10.9575
褐	-10.9582
莅	-10.9589
狥	-10.9611
趕	-10.9615
墀	-10.9616
濠	-10.964
款	-10.9643
幨	-10.966
縻	-10.9661
塟	-10.9669
岑	-10.968
涖	-10.9684
亶	-10.9688
誨	-10.9705
跋	-10.9706
纒	-10.9712
扁	-10.9725
皿	-10.9733
塌	-10.9744
髻	-10.9746
腸	-10.9747
汀	-10.9751
疫	-10.9757
郢	-10.9759
厦	-10.9761
鷺	-10.9761
簮	-10.9765
餌	-10.977
蒐	-10.9787
匀	-10.9789
蹲	-10.979
淡	-10.9807
沔	-10.983
魂	-10.9831
筭	-10.9831
踊	-10.9837
醉	-10.9861
隰	-10.9862
躔	-10.9867
憶	-10.9872
䑕	-10.9884
珮	-10.9892
卭	-10.9904
週	-10.9912
鶻	-10.9922
頡	-10.9925
潦	-10.993
憐	-10.993
旭	-10.9935
頁	-10.9938
跳	-10.995
帕	-10.9959
幂	-10.9963
釵	-10.9971
粱	-10.9991
皁	-11.0011
釁	-11.0024
穫	-11.0035
械	-11.0051
駭	-11.0052
挽	-11.0064
珥	-11.0072
肄	-11.0078
靳	-11.0081
朴	-11.0102
烹	-11.0113
鞠	-11.0129
穡	-11.0133
蠧	-11.0152
灼	-11.0154
蠡	-11.0157
秤	-11.0162
厄	-11.0177
𠫭	-11.0178
椽	-11.0186
暘	-11.0199
顆	-11.02
寘	-11.0211
驃	-11.0226
洙	-11.0228
贛	-11.0228
窪	-11.026
枕	-11.0279
莖	-11.0287
耜	-11.0306
惇	-11.0324
粹	-11.0329
煮	-11.0337
梵	-11.0342
滁	-11.0357
婢	-11.0359
棘	-11.0382
產	-11.0387
豋	-11.0388
迓	-11.0398
挈	-11.043
罄	-11.0432
蜜	-11.044
醬	-11.0467
促	-11.0484
惻	-11.0512
液	-11.0534
柯	-11.0544
葆	-11.0546
椅	-11.0549
醇	-11.056
笳	-11.0575
虢	-11.0576
絛	-11.0581
峩	-11.0588
殫	-11.059
沖	-11.061
懽	-11.0612
襴	-11.0617
屨	-11.062
旄	-11.0623
綢	-11.0628
义	-11.0635
悖	-11.067
峰	-11.0715
紇	-11.0722
卹	-11.0724
凍	-11.0725
淪	-11.0744
枓	-11.0747
琛	-11.0751
氅	-11.0751
杯	-11.0752
栽	-11.0756
釀	-11.0765
葅	-11.0766
燬	-11.0779
醮	-11.078
盔	-11.079
攢	-11.0797
峽	-11.0797
牝	-11.0816
轍	-11.0826
濡	-11.083
冉	-11.084
逞	-11.0858
幟	-11.086
撞	-11.0866
芹	-11.0868
据	-11.0879
彝	-11.0887
衿	-11.0888
榛	-11.0898
壑	-11.0908
櫛	-11.0912
倪	-11.0915
弄	-11.0916
謫	-11.0936
偵	-11.0937
颺	-11.0939
廨	-11.0941
鄆	-11.0966
緊	-11.0969
朂	-11.0993
沽	-11.0996
㝠	-11.1019
梟	-11.1025
寖	-11.1045
迪	-11.107
廹	-11.1102
濱	-11.1106
礪	-11.1126
燧	-11.1127
霽	-11.1132
頑	-11.1133
潯	-11.1153
捲	-11.1161
鑊	-11.1161
諮	-11.1163
舌	-11.117
弋	-11.1186
闘	-11.1187
輛	-11.1187
鵠	-11.1191
祺	-11.1205
遙	-11.121
纎	-11.122
汚	-11.1244
飄	-11.1276
兎	-11.1281
簒	-11.1297
羈	-11.1299
幰	-11.131
浄	-11.133
灤	-11.1353
椀	-11.1355
稜	-11.1357
蠕	-11.136
燄	-11.1364
閻	-11.1384
騶	-11.1391
墩	-11.1413
莒	-11.142
缾	-11.1421
甬	-11.1425
碾	-11.1444
鶉	-11.1449
耄	-11.1464
圃	-11.1465
璣	-11.1465
謡	-11.1474
轂	-11.1503
霤	-11.1504
晷	-11.1507
嗟	-11.1523
㒺	-11.1528
撲	-11.153
逵	-11.155
摧	-11.1554
㝷	-11.1557
鰲	-11.1582
譙	-11.1593
陲	-11.1609
嫻	-11.1611
挿	-11.1618
龔	-11.1638
单	-11.1646
梨	-11.1653
裨	-11.1668
鄜	-11.1674
拷	-11.1678
窑	-11.1687
鄖	-11.1699
儘	-11.1726
峙	-11.173
喧	-11.1734
纘	-11.1752
畔	-11.1759
軰	-11.1759
媒	-11.1764
鷄	-11.1767
澧	-11.1784
箴	-11.1785
豳	-11.1785
瓉	-11.1791
紘	-11.1792
繅	-11.1803
鈿	-11.1813
頊	-11.1815
悞	-11.1816
垓	-11.1817
襟	-11.1823
靴	-11.1833
紊	-11.188
臬	-11.1883
鵲	-11.1888
縉	-11.19
璘	-11.1908
邠	-11.1933
恰	-11.1934
峒	-11.1968
褾	-11.199
淀	-11.1998
舂	-11.1999
畀	-11.2025
梗	-11.2034
戞	-11.2036
債	-11.2057
殉	-11.2057
籙	-11.2084
牓	-11.2118
冢	-11.2126
禩	-11.2144
愁	-11.2146
髦	-11.2161
訐	-11.2179
楫	-11.2184
溷	-11.2195
䟦	-11.2207
裒	-11.2208
浹	-11.2211
苴	-11.2219
輻	-11.2221
韈	-11.2231
曩	-11.2237
兌	-11.2249
壙	-11.2254
桞	-11.231
璟	-11.2325
鞶	-11.2327
郁	-11.2331
帮	-11.2332
聯	-11.2333
熾	-11.2335
甌	-11.234
邈	-11.2342
鼗	-11.2368
剔	-11.2368
撮	-11.2373
夹	-11.2398
埳	-11.2408
妹	-11.2431
駱	-11.2438
拈	-11.2439
櫺	-11.2456
澹	-11.2472
笄	-11.2472
攔	-11.2474
縛	-11.2492
荔	-11.2493
漿	-11.2508
猾	-11.253
巽	-11.2562
紏	-11.2566
透	-11.2566
剌	-11.257
挹	-11.2589
腴	-11.2594
夔	-11.2595
碟	-11.2599
艦	-11.26
塪	-11.2612
璇	-11.2621
涯	-11.2621
銳	-11.2628
毬	-11.2634
嗚	-11.2649
逄	-11.2655
换	-11.2682
蹙	-11.2724
伽	-11.2727
塤	-11.2733
歇	-11.2757
繭	-11.2761
鍋	-11.2766
嶠	-11.2784
孛	-11.2786
聮	-11.279
皓	-11.2811
羔	-11.2818
甞	-11.2819
謳	-11.2819
逝	-11.2819
扆	-11.282
描	-11.283
宙	-11.2847
墉	-11.2861
綰	-11.2887
鹵	-11.289
殳	-11.2901
携	-11.2913
構	-11.2947
閶	-11.295
憤	-11.2952
阡	-11.2955
曦	-11.2957
郝	-11.2983
矛	-11.2989
脂	-11.2992
倧	-11.3011
个	-11.3014
爻	-11.3015
㨿	-11.3015
豚	-11.3028
掄	-11.3047
嘆	-11.3049
渚	-11.3049
戢	-11.305
兠	-11.3095
顛	-11.3115
檻	-11.3116
歙	-11.3118
觜	-11.3131
緦	-11.3142
輓	-11.3158
薰	-11.3159
篥	-11.3161
啻	-11.3184
瀚	-11.3187
凢	-11.3188
麒	-11.3189
殖	-11.3191
肝	-11.3195
攙	-11.3198
鵞	-11.32
盒	-11.3205
陬	-11.3212
翣	-11.3212
渝	-11.3216
瀕	-11.322
佔	-11.3221
鞬	-11.3223
𠡠	-11.3229
瑜	-11.3234
亹	-11.3249
戀	-11.3253
鮑	-11.3254
刁	-11.3257
盂	-11.326
輜	-11.3261
菩	-11.3288
薫	-11.3292
洎	-11.3319
扼	-11.3321
昉	-11.3324
宼	-11.3325
慤	-11.3327
箎	-11.3338
摹	-11.3353
棣	-11.3356
顒	-11.3358
櫜	-11.3363
諉	-11.3368
挖	-11.3369
挂	-11.3371
筍	-11.3376
佚	-11.3385
叨	-11.3389
坻	-11.3391
摭	-11.3393
覇	-11.3393
侮	-11.3395
碣	-11.3427
抃	-11.3428
砲	-11.3428
筩	-11.3453
攘	-11.346
琬	-11.3462
烙	-11.3462
郴	-11.3463
廸	-11.3464
摯	-11.3466
泄	-11.3468
鴨	-11.3469
罽	-11.347
闇	-11.3474
襠	-11.3481
𬗟	-11.3492
拯	-11.3494
崙	-11.3497
圉	-11.3499
毗	-11.3507
鄱	-11.3533
剥	-11.3533
悍	-11.3568
圩	-11.357
頥	-11.3584
証	-11.3602
烽	-11.3604
蛟	-11.361
褶	-11.3613
罹	-11.3637
郯	-11.3638
猗	-11.3641
硯	-11.3643
伶	-11.3649
餻	-11.3659
燉	-11.3671
嵐	-11.3674
譬	-11.3677
稟	-11.3677
痊	-11.3679
竅	-11.3688
磧	-11.3706
柘	-11.3713
珂	-11.3713
䭾	-11.3714
騾	-11.3714
嗜	-11.3744
頸	-11.3748
䧏	-11.3748
囿	-11.3751
苻	-11.3753
醜	-11.3782
䋲	-11.3782
朦	-11.3783
琰	-11.3784
媚	-11.3784
瑛	-11.3784
圎	-11.3786
戯	-11.3788
戶	-11.3794
驤	-11.3809
諷	-11.3812
僎	-11.3813
撓	-11.3818
擡	-11.3819
弭	-11.382
斡	-11.3821
埠	-11.3829
諤	-11.3853
巵	-11.3858
酢	-11.3861
兔	-11.3871
瑗	-11.3895
卞	-11.3896
犁	-11.3896
賃	-11.3897
謗	-11.3925
吞	-11.3927
琊	-11.3941
酺	-11.3965
軟	-11.3981
詮	-11.3988
紆	-11.3998
甕	-11.4003
埏	-11.4004
筋	-11.4009
僣	-11.4041
拳	-11.4044
眇	-11.4048
騙	-11.4048
䨇	-11.4049
蟬	-11.4053
咄	-11.4074
寥	-11.4074
燾	-11.4075
翦	-11.4075
璉	-11.4075
窘	-11.4077
遴	-11.4081
渙	-11.4112
哷	-11.4113
紓	-11.4114
涪	-11.4116
群	-11.4154
囑	-11.4193
逈	-11.4194
㽔	-11.421
楨	-11.4223
餓	-11.4223
廖	-11.4225
槨	-11.423
針	-11.4235
摶	-11.424
姆	-11.4241
襈	-11.425
邾	-11.4261
琪	-11.4264
鎬	-11.4265
胎	-11.4268
勛	-11.427
囂	-11.4271
閬	-11.43
稠	-11.4305
餽	-11.4309
縹	-11.4311
猥	-11.4339
婿	-11.4348
盱	-11.4382
冡	-11.4386
粧	-11.4387
翅	-11.4392
楯	-11.4413
嵇	-11.4416
綦	-11.442
酤	-11.4422
壕	-11.4433
晶	-11.4434
愿	-11.4449
儷	-11.445
羨	-11.4451
臆	-11.4452
倦	-11.4452
闋	-11.4461
淆	-11.4462
醍	-11.4463
裾	-11.4471
髹	-11.4477
鏘	-11.4497
栅	-11.4503
餼	-11.4535
礬	-11.4538
縦	-11.4542
矦	-11.456
郅	-11.4564
鼂	-11.4574
苟	-11.4575
膽	-11.4577
郤	-11.4578
彜	-11.458
岀	-11.4584
徠	-11.4607
禇	-11.4613
閨	-11.462
滴	-11.4627
狡	-11.4648
翹	-11.4649
虗	-11.465
埸	-11.4651
猝	-11.4652
澇	-11.4652
肫	-11.4653
埒	-11.4656
邯	-11.4659
藹	-11.4684
覧	-11.4687
粲	-11.4689
糊	-11.4693
惶	-11.4724
拮	-11.4724
隳	-11.4724
鶚	-11.4727
寂	-11.4729
𢃄	-11.4736
翕	-11.4769
悅	-11.4772
沭	-11.4772
袤	-11.4773
煤	-11.4786
刦	-11.4816
菽	-11.4824
企	-11.4831
剏	-11.4848
炬	-11.4853
詁	-11.4889
瑣	-11.489
筒	-11.4897
阼	-11.4922
歐	-11.4922
劔	-11.4926
坪	-11.4928
慙	-11.4931
剩	-11.4932
蒿	-11.4932
矧	-11.4933
軀	-11.4934
棧	-11.4939
秬	-11.4949
畒	-11.4951
瘦	-11.4963
搥	-11.4973
穗	-11.4982
銑	-11.4983
栿	-11.4985
忝	-11.5007
譴	-11.5012
涓	-11.5013
黥	-11.5014
劑	-11.5017
縵	-11.5026
鑠	-11.5044
庵	-11.5049
瑕	-11.5054
腐	-11.5059
盝	-11.506
柶	-11.5091
仔	-11.5092
滛	-11.5095
鳬	-11.5097
袱	-11.5108
嵌	-11.5116
莆	-11.5126
洱	-11.5127
鎔	-11.5136
懦	-11.5136
澳	-11.5138
喝	-11.5142
玻	-11.5161
輳	-11.5174
墟	-11.5179
髠	-11.5221
倩	-11.5226
纚	-11.5294
鉢	-11.5296
擴	-11.53
踞	-11.5302
們	-11.5303
訾	-11.5303
氓	-11.5305
黷	-11.5305
酹	-11.5307
禖	-11.5339
覔	-11.5344
甥	-11.5355
簍	-11.5372
驥	-11.5388
醋	-11.5398
鵝	-11.5415
涕	-11.5428
蹄	-11.5428
榔	-11.5435
愉	-11.5436
鍰	-11.5467
藪	-11.5469
聶	-11.5472
亰	-11.5475
䜟	-11.5512
饉	-11.5512
慨	-11.5514
僥	-11.5517
謐	-11.5522
魄	-11.5522
嚳	-11.5546
拙	-11.5555
酎	-11.5557
擕	-11.5557
洊	-11.5557
擺	-11.5559
侔	-11.556
餧	-11.556
怯	-11.5561
騍	-11.5561
猺	-11.5561
濛	-11.5562
卸	-11.5573
纊	-11.5574
型	-11.5596
杞	-11.5598
誇	-11.5599
跨	-11.56
茫	-11.5603
羸	-11.5605
欒	-11.5609
筝	-11.5618
蹌	-11.5643
槖	-11.5645
剃	-11.5677
咏	-11.5679
迥	-11.5683
蕆	-11.5686
泮	-11.5688
啐	-11.5688
桀	-11.5691
捜	-11.5691
墠	-11.5702
鏞	-11.5703
罩	-11.5705
菱	-11.571
塼	-11.5711
璃	-11.5716
澶	-11.5727
蔓	-11.5732
縑	-11.5734
飼	-11.5738
秸	-11.5744
茨	-11.5774
馘	-11.578
剖	-11.5783
倅	-11.5785
趺	-11.5787
輴	-11.5795
娣	-11.5819
祏	-11.5822
酳	-11.5827
餙	-11.5829
銃	-11.5836
韭	-11.5842
閫	-11.5858
贑	-11.5867
躡	-11.5871
姨	-11.5872
桿	-11.5873
鞋	-11.5876
兾	-11.5907
縴	-11.5908
慘	-11.5909
鍵	-11.5909
揣	-11.5911
褚	-11.5911
崧	-11.5917
赭	-11.592
龠	-11.592
耽	-11.5951
眂	-11.5953
蟄	-11.5954
棠	-11.5955
隷	-11.5959
唾	-11.5966
璞	-11.6004
鎻	-11.6005
窰	-11.6018
抛	-11.6048
鍊	-11.6049
繚	-11.6049
傭	-11.605
紺	-11.6052
麤	-11.6067
炕	-11.6068
閎	-11.608
覊	-11.6089
蠱	-11.6093
煦	-11.6135
贅	-11.6139
鼠	-11.6146
殄	-11.6176
姿	-11.6176
逕	-11.6186
滸	-11.6187
椎	-11.6188
寗	-11.6189
琥	-11.6196
麫	-11.6215
匕	-11.6229
迂	-11.623
鎧	-11.6236
嫂	-11.624
芡	-11.6254
婪	-11.6269
犒	-11.6275
櫃	-11.629
獮	-11.632
囤	-11.6325
墅	-11.6359
㝢	-11.6361
縈	-11.637
瑾	-11.6371
譁	-11.6373
夭	-11.6373
糗	-11.6386
臭	-11.6419
萄	-11.6423
瀝	-11.643
髀	-11.6432
橫	-11.646
剽	-11.6463
堊	-11.6464
跟	-11.6464
煽	-11.6468
豬	-11.6469
昕	-11.6507
濩	-11.6508
汙	-11.6508
窠	-11.651
訃	-11.6514
貎	-11.6516
瓖	-11.6529
鍠	-11.6531
脉	-11.6549
扉	-11.6556
鞮	-11.6556
恱	-11.6558
袞	-11.6559
啇	-11.6559
悌	-11.656
滂	-11.6563
畋	-11.6564
廳	-11.6564
煟	-11.66
憩	-11.66
慚	-11.6601
𦍑	-11.6603
錮	-11.6605
丸	-11.6612
靠	-11.6613
鞅	-11.6617
縢	-11.6629
嶲	-11.6649
瑄	-11.6654
禳	-11.6656
棒	-11.6665
臡	-11.6671
濓	-11.6691
鋄	-11.6722
紱	-11.6747
肱	-11.6748
聳	-11.6749
杌	-11.6751
窟	-11.6751
啜	-11.6753
禜	-11.6755
兗	-11.6756
嚇	-11.6756
肘	-11.6759
汧	-11.6802
賻	-11.6802
犍	-11.6804
壹	-11.6841
璿	-11.6844
楓	-11.6847
厮	-11.6847
葭	-11.685
芸	-11.6893
杓	-11.6894
漾	-11.6895
劫	-11.6899
羆	-11.69
茹	-11.6901
薌	-11.6906
䆒	-11.6944
匃	-11.6946
縞	-11.6957
陁	-11.6993
軺	-11.6999
斚	-11.7006
殪	-11.7047
驂	-11.7048
悛	-11.7048
怙	-11.7049
挫	-11.7052
塹	-11.7054
氛	-11.7092
倬	-11.7093
搖	-11.7094
嬉	-11.7095
濃	-11.7095
孕	-11.7101
碭	-11.7103
洫	-11.711
盃	-11.7119
焰	-11.7135
鏗	-11.7147
鏃	-11.7148
㐮	-11.7149
胸	-11.7151
蜃	-11.7156
膋	-11.7157
汁	-11.7162
勣	-11.7193
琢	-11.7197
驪	-11.7198
漣	-11.7202
岩	-11.7203
糓	-11.7204
楅	-11.7204
紂	-11.7207
穂	-11.7209
砥	-11.7244
愜	-11.7246
篋	-11.725
詆	-11.7251
屑	-11.7256
褘	-11.7257
穎	-11.7304
琚	-11.7305
嗇	-11.7306
鑼	-11.7317
雋	-11.7345
巒	-11.7346
腦	-11.7367
寐	-11.7402
脈	-11.7404
禺	-11.7404
廿	-11.7404
旃	-11.7406
毳	-11.7418
瑙	-11.7422
騫	-11.7446
淖	-11.7448
鄞	-11.7448
骸	-11.7451
徊	-11.7452
擄	-11.7457
陘	-11.7457
顙	-11.7464
剋	-11.7465
芮	-11.751
庖	-11.7511
𠂻	-11.7511
呵	-11.7518
匙	-11.7519
䦕	-11.7552
堦	-11.756
瞽	-11.7573
卵	-11.7581
酅	-11.7611
阯	-11.7615
顥	-11.7615
讎	-11.7616
盪	-11.7616
磔	-11.7616
冥	-11.7616
僑	-11.7617
䏻	-11.7619
瓌	-11.762
緌	-11.7621
塜	-11.7625
苧	-11.7636
湮	-11.7661
瘼	-11.7665
佞	-11.7669
哺	-11.7669
殃	-11.7671
宄	-11.7674
鄲	-11.7679
瑁	-11.7685
莢	-11.7716
䙝	-11.7723
斫	-11.7724
砍	-11.773
鹻	-11.7731
脾	-11.7736
閃	-11.7739
騸	-11.7769
耐	-11.7771
蘋	-11.7774
逗	-11.7776
澆	-11.7776
弇	-11.7783
絫	-11.7785
刨	-11.7788
昱	-11.7824
翌	-11.7826
悮	-11.7827
縳	-11.7827
戛	-11.7828
焞	-11.7828
棱	-11.7832
喚	-11.7835
摛	-11.7879
釣	-11.7884
餒	-11.7884
禅	-11.7884
舵	-11.7905
訣	-11.7928
塾	-11.7931
莘	-11.7932
擲	-11.7935
翳	-11.7938
餐	-11.7938
觥	-11.794
媵	-11.794
眙	-11.7942
瓘	-11.7944
跌	-11.7944
洺	-11.7945
沱	-11.7995
腊	-11.7995
鉉	-11.7997
綘	-11.7998
羗	-11.7999
袠	-11.8043
樺	-11.8043
鵷	-11.8043
湟	-11.8048
爨	-11.8048
禕	-11.8051
愼	-11.8052
碗	-11.8075
㠯	-11.8098
綍	-11.8098
雝	-11.8102
夤	-11.8103
𨼆	-11.8105
咫	-11.8106
淇	-11.8107
煖	-11.8108
臑	-11.8114
拴	-11.814
繙	-11.8153
煜	-11.8153
刄	-11.8154
昶	-11.8214
朐	-11.8219
鈸	-11.8226
邜	-11.8227
硝	-11.8229
襍	-11.8256
泌	-11.8266
篌	-11.8268
殂	-11.8272
卉	-11.8278
淸	-11.828
喉	-11.8283
螣	-11.8284
鄯	-11.8323
磐	-11.8325
這	-11.8326
療	-11.833
撻	-11.833
塡	-11.833
艮	-11.833
帉	-11.834
獠	-11.8366
燠	-11.8381
箜	-11.8382
凟	-11.8383
瞿	-11.8383
凑	-11.8383
漪	-11.8383
跣	-11.8384
溧	-11.8384
搬	-11.8386
苾	-11.8386
譟	-11.8391
儧	-11.8391
杠	-11.8398
氂	-11.8399
恂	-11.8435
醆	-11.8439
鬚	-11.8445
芽	-11.8452
緹	-11.8452
彙	-11.8453
裲	-11.8456
刹	-11.85
覘	-11.8502
讒	-11.8502
焜	-11.8503
麋	-11.8505
玠	-11.8505
瑀	-11.8507
眡	-11.8513
牕	-11.8529
瑩	-11.856
朞	-11.8565
驘	-11.8567
蓍	-11.8608
蟻	-11.8617
蒋	-11.8617
霈	-11.8617
諴	-11.8618
擠	-11.8619
閼	-11.8621
竪	-11.8626
胳	-11.8629
簨	-11.8637
鬢	-11.866
袵	-11.8671
濊	-11.8674
杉	-11.8682
珉	-11.8682
屡	-11.8682
蜂	-11.8684
襞	-11.8692
耋	-11.8721
忤	-11.8726
侗	-11.873
沴	-11.8732
埃	-11.8732
兀	-11.8735
夸	-11.8735
榭	-11.8737
晁	-11.8738
擯	-11.8739
纍	-11.8741
丐	-11.8741
匜	-11.8742
襦	-11.8749
庄	-11.8766
廏	-11.8789
詡	-11.8794
鶯	-11.8794
舘	-11.8794
鵰	-11.8801
縠	-11.8806
雌	-11.8806
脇	-11.8817
譲	-11.8848
釡	-11.8853
净	-11.886
迦	-11.886
萇	-11.8862
葡	-11.8863
煑	-11.8866
韃	-11.8867
掇	-11.8913
痕	-11.8917
絮	-11.8918
戕	-11.8918
薈	-11.892
欝	-11.892
簟	-11.8924
纉	-11.8969
霆	-11.8973
徘	-11.8973
莎	-11.8974
汜	-11.8975
碍	-11.8976
櫝	-11.898
畦	-11.8984
棨	-11.8986
篪	-11.8989
珀	-11.8994
慟	-11.9029
鍳	-11.9032
煒	-11.9034
筑	-11.9034
幻	-11.9035
豎	-11.9037
蚩	-11.9037
瑤	-11.904
訶	-11.904
稾	-11.9042
擘	-11.9045
絺	-11.9058
帔	-11.9065
榥	-11.9067
嶧	-11.9092
嘴	-11.9093
圄	-11.9097
騁	-11.9097
籽	-11.9102
杵	-11.9104
軻	-11.9111
櫟	-11.9113
掆	-11.9121
稚	-11.9157
斐	-11.9158
蔑	-11.9158
泓	-11.9161
腯	-11.9166
餕	-11.9168
旐	-11.9178
篴	-11.9185
娑	-11.9217
瞭	-11.922
靺	-11.9223
陡	-11.9223
璁	-11.9225
頽	-11.9229
鬛	-11.9229
逡	-11.9231
嫓	-11.9278
菲	-11.9279
曄	-11.928
緜	-11.928
秣	-11.928
廱	-11.928
斁	-11.9281
鉗	-11.9281
瑋	-11.9289
垜	-11.9294
溶	-11.9343
擐	-11.9343
筯	-11.9343
嶼	-11.9345
囹	-11.9346
姒	-11.9348
蝻	-11.9353
琯	-11.9354
剡	-11.9355
葫	-11.9365
醓	-11.937
桯	-11.9379
旻	-11.9406
扄	-11.9407
鯨	-11.941
珣	-11.9413
吻	-11.9417
瓷	-11.9418
箸	-11.9423
糚	-11.9456
鼇	-11.9468
侃	-11.9471
閹	-11.9473
晃	-11.9476
蕉	-11.9477
嬴	-11.9478
紕	-11.9486
獺	-11.9487
譌	-11.953
蓂	-11.9532
棫	-11.9533
顏	-11.9533
踪	-11.9537
杲	-11.9538
躭	-11.9538
宕	-11.9542
哇	-11.9543
鞞	-11.9545
梢	-11.955
淋	-11.956
鍪	-11.9561
闥	-11.9597
忩	-11.9599
㸑	-11.9605
慝	-11.9609
殮	-11.9609
僊	-11.9614
遶	-11.9617
喂	-11.9658
蹂	-11.9669
鋤	-11.9671
詈	-11.9673
糖	-11.9687
灝	-11.9732
笴	-11.9732
瓠	-11.9735
奭	-11.9736
婣	-11.9748
鷩	-11.975
梭	-11.9757
燮	-11.9794
閟	-11.9794
珙	-11.9799
蹇	-11.98
燿	-11.9801
窖	-11.9801
杻	-11.981
拐	-11.9817
紼	-11.9822
緘	-11.9858
吝	-11.9859
莱	-11.9872
覿	-11.9873
紡	-11.9881
瀦	-11.9926
儋	-11.9927
徂	-11.9927
殞	-11.9927
暄	-11.9928
甒	-11.9931
蚤	-11.9933
扛	-11.9933
蓆	-11.9941
玳	-11.9948
撈	-11.9948
彫	-11.9959
詒	-11.999
壼	-11.9991
媯	-11.9992
耨	-11.9999
蓉	-12
楣	-12.0001
𦙍	-12.0002
抉	-12.0003
態	-12.0004
擩	-12.0007
芟	-12.0008
靼	-12.0009
閽	-12.007
兕	-12.0074
璠	-12.0074
删	-12.0127
滷	-12.0129
郷	-12.0132
鍚	-12.0136
沼	-12.0142
麽	-12.0142
楠	-12.0147
窓	-12.0153
禔	-12.0198
婉	-12.02
佗	-12.0203
鞨	-12.0204
懌	-12.0206
鴟	-12.0214
斑	-12.0215
覬	-12.0262
蒞	-12.0265
㤀	-12.0266
靑	-12.0273
嘯	-12.0276
莾	-12.0277
刈	-12.028
錞	-12.0283
隧	-12.0284
舫	-12.0334
狭	-12.0341
瘡	-12.0343
澁	-12.0351
薙	-12.0351
黽	-12.0404
輾	-12.0408
牋	-12.041
寤	-12.0412
炊	-12.042
鞘	-12.0421
鈍	-12.0423
罐	-12.0433
紃	-12.0436
岔	-12.0472
遘	-12.0473
愽	-12.0478
癘	-12.0481
殽	-12.0483
芾	-12.0484
炙	-12.0484
湍	-12.0487
臾	-12.0493
妍	-12.0551
峭	-12.0552
党	-12.0552
悚	-12.0554
扞	-12.0554
禡	-12.0558
蜚	-12.0561
觱	-12.0568
肌	-12.0618
儻	-12.062
貿	-12.0623
粘	-12.0623
縊	-12.0625
弹	-12.0625
駑	-12.0626
孥	-12.0626
繢	-12.0627
扺	-12.0629
鐶	-12.0631
儺	-12.0632
錡	-12.0633
頫	-12.0633
諜	-12.0637
辮	-12.0647
彔	-12.0668
黠	-12.0693
淶	-12.0697
仆	-12.0697
峴	-12.0698
冇	-12.0699
濼	-12.0701
扑	-12.0703
瀼	-12.0703
呢	-12.0703
芙	-12.0704
頰	-12.0714
籐	-12.075
賍	-12.0763
疵	-12.0764
耘	-12.0765
厠	-12.0767
締	-12.0767
㨂	-12.0768
聆	-12.0769
蹤	-12.077
咱	-12.0771
関	-12.0775
鏁	-12.0776
槀	-12.0783
娘	-12.0794
鏐	-12.0837
挟	-12.084
甃	-12.0843
咽	-12.0844
籬	-12.0846
篳	-12.0847
卺	-12.085
俳	-12.0852
棊	-12.0854
濰	-12.0908
凋	-12.091
遄	-12.0911
曙	-12.0915
鳶	-12.0916
眚	-12.0917
㕓	-12.0918
祓	-12.0921
劓	-12.0925
韠	-12.0927
壎	-12.0932
桶	-12.0933
笋	-12.0934
淘	-12.0983
炯	-12.0985
枵	-12.0987
讌	-12.099
雎	-12.0991
洒	-12.0992
絀	-12.0993
錔	-12.0998
螟	-12.1
􁇢	-12.1001
桅	-12.101
憾	-12.1056
攄	-12.1058
惓	-12.1061
奐	-12.1062
僮	-12.1065
㮣	-12.1067
泝	-12.107
鯉	-12.1071
啼	-12.1071
嚢	-12.1073
醯	-12.108
鏄	-12.1082
佇	-12.1131
嫩	-12.1132
毘	-12.1135
馥	-12.1136
遹	-12.1136
蔀	-12.1136
陔	-12.1137
覯	-12.1139
鍼	-12.114
霓	-12.1144
煉	-12.1144
帆	-12.1146
沸	-12.1147
齍	-12.1148
翩	-12.1149
䄂	-12.1154
佶	-12.1196
滔	-12.1211
仞	-12.1211
霏	-12.1212
畸	-12.1212
彖	-12.1217
罸	-12.1218
苫	-12.1219
郃	-12.1219
黝	-12.1224
騮	-12.1226
笠	-12.1226
珩	-12.123
糺	-12.1284
穏	-12.1293
瞞	-12.1294
燃	-12.1295
棹	-12.1295
佯	-12.1296
鹹	-12.1298
觚	-12.1306
塚	-12.1309
泳	-12.1361
胞	-12.1363
㽞	-12.1365
翥	-12.1366
坂	-12.1367
滹	-12.1367
佽	-12.1369
炫	-12.1369
酣	-12.1369
糠	-12.137
詛	-12.1371
蓐	-12.1371
誆	-12.1373
琨	-12.1374
郞	-12.1375
烜	-12.1379
䚢	-12.1393
儔	-12.1443
僰	-12.1443
㦯	-12.1446
毖	-12.1447
傲	-12.1449
糝	-12.1454
別	-12.1456
餈	-12.1463
昑	-12.1509
勻	-12.1515
些	-12.1517
麝	-12.152
淦	-12.1521
塑	-12.1524
耻	-12.1524
璫	-12.1527
酸	-12.1527
槅	-12.1532
臼	-12.1533
熬	-12.1535
摇	-12.16
猜	-12.1601
籟	-12.1603
絜	-12.1603
豊	-12.1604
稲	-12.1607
曇	-12.1612
毯	-12.1614
朢	-12.1614
罣	-12.162
箔	-12.1623
戧	-12.1623
仄	-12.1676
蘿	-12.1677
斵	-12.1685
翮	-12.1685
誑	-12.1686
鄢	-12.1686
邃	-12.1687
熲	-12.1688
肴	-12.1689
獬	-12.1689
籤	-12.1692
藎	-12.1753
屛	-12.1756
䍐	-12.1757
稗	-12.1757
挐	-12.1758
畯	-12.1761
卻	-12.1762
侂	-12.1763
剝	-12.1765
茵	-12.1766
缶	-12.1769
揄	-12.1774
盌	-12.1793
䃭	-12.1815
筦	-12.1832
衽	-12.1839
諺	-12.1839
氤	-12.1841
炷	-12.1842
賮	-12.1844
橘	-12.1846
匭	-12.1846
厘	-12.1853
俶	-12.1915
撙	-12.1916
祊	-12.1927
彯	-12.1927
閠	-12.1929
鴉	-12.193
祲	-12.193
躁	-12.1932
豸	-12.1933
甆	-12.1937
鑽	-12.1937
媛	-12.2007
鬰	-12.2008
叱	-12.2009
瓏	-12.2009
鼙	-12.201
脣	-12.2025
髓	-12.2077
壌	-12.2081
漷	-12.2086
垠	-12.2087
袂	-12.2089
緗	-12.209
燥	-12.2092
曝	-12.2093
糞	-12.2094
淞	-12.2094
遛	-12.2094
昺	-12.21
笥	-12.217
秔	-12.2172
惲	-12.2173
韵	-12.2176
鴛	-12.2177
顗	-12.2178
湊	-12.2178
駞	-12.2179
亾	-12.2179
蝦	-12.2182
曵	-12.2187
膊	-12.2188
廠	-12.219
焯	-12.2252
慄	-12.2254
栖	-12.2256
泠	-12.2256
娥	-12.2256
鋐	-12.2257
茀	-12.2257
値	-12.226
堠	-12.2261
藺	-12.2263
鍮	-12.2264
荼	-12.2267
輈	-12.227
缸	-12.2278
騑	-12.2283
眺	-12.233
豢	-12.2337
淚	-12.2338
椁	-12.234
圯	-12.2341
藐	-12.2341
絢	-12.2342
𤾉	-12.2343
矍	-12.2409
莪	-12.2421
閙	-12.2422
誄	-12.2423
瘁	-12.2424
巔	-12.2425
孶	-12.2426
吁	-12.2427
黯	-12.2429
筴	-12.243
券	-12.2431
庀	-12.2436
妺	-12.2494
屹	-12.2503
蠢	-12.2505
朧	-12.2516
娼	-12.2519
彘	-12.2519
耔	-12.2523
篷	-12.2524
羯	-12.2527
翬	-12.253
𬎼	-12.2547
娛	-12.2594
謠	-12.26
彥	-12.2601
喁	-12.2604
硬	-12.2611
㼧	-12.2645
渤	-12.267
錬	-12.2682
昬	-12.2683
戱	-12.2684
闓	-12.2687
眠	-12.2688
柰	-12.269
皎	-12.2692
粳	-12.2694
褁	-12.2697
喫	-12.2699
櫓	-12.2704
篐	-12.2714
廒	-12.2738
牂	-12.2765
憇	-12.2766
犖	-12.2767
壠	-12.2771
矞	-12.2772
湜	-12.2777
衘	-12.2778
杳	-12.2781
蓼	-12.2783
曳	-12.2784
玲	-12.2784
郕	-12.2794
鱐	-12.2804
睹	-12.2858
澨	-12.286
溟	-12.2861
涌	-12.2866
桷	-12.2868
軋	-12.2871
𤨏	-12.2873
瞎	-12.2875
澮	-12.2882
㕑	-12.2894
俛	-12.2952
璨	-12.2955
騂	-12.2955
浥	-12.2957
沆	-12.2957
褫	-12.2958
蔭	-12.2959
詵	-12.2959
溱	-12.2959
槌	-12.296
茭	-12.2963
磯	-12.2966
瑱	-12.297
鐲	-12.2977
穉	-12.3028
澎	-12.3038
它	-12.3046
敉	-12.3046
圮	-12.3047
塢	-12.305
隲	-12.3138
匐	-12.3139
椘	-12.3139
泯	-12.314
榦	-12.3143
薑	-12.3143
袷	-12.3149
貓	-12.3158
鸚	-12.3158
耉	-12.3216
竑	-12.3227
驩	-12.3228
萍	-12.323
蕚	-12.3232
綉	-12.3234
矮	-12.3235
雛	-12.3237
囷	-12.3238
胯	-12.3243
拽	-12.3245
肋	-12.325
楪	-12.3276
妤	-12.3317
曁	-12.3319
劬	-12.332
恍	-12.332
桴	-12.3326
爕	-12.3326
唘	-12.3328
隗	-12.3329
笲	-12.3335
㝎	-12.3336
肢	-12.3336
䄍	-12.334
懾	-12.3409
崆	-12.3413
冺	-12.3413
讚	-12.3422
饔	-12.3423
彷	-12.3507
㪷	-12.3508
蘩	-12.351
綳	-12.3513
愬	-12.3514
岫	-12.3514
吸	-12.3514
餬	-12.3517
餞	-12.3519
佺	-12.3519
芃	-12.3521
糯	-12.3522
逍	-12.3524
鞵	-12.3531
煇	-12.3532
鵡	-12.3533
儐	-12.3543
黌	-12.3601
氲	-12.3605
軷	-12.3607
飫	-12.3609
琇	-12.3612
撿	-12.3613
幬	-12.3614
噫	-12.3615
稳	-12.3618
菊	-12.3618
汊	-12.3618
黏	-12.3624
鞓	-12.3638
􁑶	-12.3642
紜	-12.37
賅	-12.37
繄	-12.3704
曈	-12.3706
髽	-12.3708
悝	-12.3709
郿	-12.3712
貔	-12.3713
絇	-12.3713
縿	-12.372
熏	-12.3722
篾	-12.3782
箐	-12.3794
玷	-12.38
橐	-12.3801
喙	-12.3804
迯	-12.3807
甦	-12.3808
阨	-12.381
牾	-12.381
卬	-12.3813
猫	-12.3821
軿	-12.3828
酏	-12.3832
箆	-12.3835
澍	-12.3895
杪	-12.3899
訢	-12.3902
綫	-12.3905
翺	-12.3905
榴	-12.3906
你	-12.391
湼	-12.3915
廽	-12.392
昩	-12.3993
渦	-12.3994
倐	-12.3996
箠	-12.3999
忙	-12.4001
彿	-12.4003
杼	-12.4003
厎	-12.4004
儂	-12.4004
禴	-12.4005
瓞	-12.4007
垢	-12.4007
𤯝	-12.4009
壖	-12.401
掦	-12.4011
鎰	-12.4012
滏	-12.4015
愔	-12.4094
楸	-12.4096
牷	-12.4097
扳	-12.4099
虬	-12.4099
澠	-12.4104
茗	-12.4105
騏	-12.4107
硫	-12.4117
梳	-12.4127
屇	-12.4194
泚	-12.4198
僦	-12.4201
縟	-12.4205
呌	-12.4207
貊	-12.4209
㽅	-12.4211
汕	-12.4212
帟	-12.4212
霉	-12.4216
窆	-12.4216
誹	-12.4304
滲	-12.4306
盩	-12.4306
宬	-12.4308
藕	-12.4309
逭	-12.431
狃	-12.431
牴	-12.4315
﨑	-12.4316
仵	-12.4319
怛	-12.4322
酥	-12.4331
麪	-12.435
戡	-12.4405
瀑	-12.4405
愴	-12.4407
噬	-12.4411
耑	-12.4418
譖	-12.4421
鋸	-12.4425
茸	-12.4428
扱	-12.4506
謾	-12.4511
佈	-12.4515
榷	-12.4517
渴	-12.4522
鈚	-12.4523
鬴	-12.4525
魅	-12.4525
臥	-12.4526
峨	-12.4529
翡	-12.453
磺	-12.4538
諍	-12.4611
遡	-12.4616
媿	-12.4616
娱	-12.4619
窻	-12.462
殍	-12.4622
䟎	-12.4624
珽	-12.4627
葩	-12.4627
頺	-12.4628
菑	-12.4629
椶	-12.463
諂	-12.4632
甿	-12.4634
噴	-12.4634
炮	-12.4635
酇	-12.4635
笵	-12.4636
渰	-12.4636
筏	-12.4636
胖	-12.4637
鋼	-12.4645
臕	-12.4723
磴	-12.4727
惬	-12.4728
搗	-12.473
􁁊	-12.4731
埭	-12.4732
秃	-12.4734
畎	-12.4734
趋	-12.4735
扃	-12.4737
諦	-12.4739
酪	-12.4742
爟	-12.4744
貉	-12.4745
睛	-12.4754
羹	-12.4836
厔	-12.4838
侣	-12.484
諶	-12.4846
晳	-12.485
憎	-12.4851
曬	-12.4852
貍	-12.4853
㮚	-12.4853
璈	-12.4853
巹	-12.4858
愾	-12.494
睠	-12.4942
饟	-12.4944
撝	-12.4944
糈	-12.4945
捶	-12.4945
掞	-12.4946
澂	-12.4947
嫗	-12.4949
溘	-12.495
鍜	-12.4951
掯	-12.4952
竦	-12.4953
閥	-12.4954
堞	-12.4956
彧	-12.4957
阪	-12.496
鉆	-12.4971
堉	-12.4973
槫	-12.4997
㟁	-12.5051
斾	-12.5052
懶	-12.5054
伉	-12.5059
枋	-12.5063
􁢌	-12.5066
閾	-12.5066
伋	-12.5066
窵	-12.5067
湫	-12.5067
濉	-12.5068
濘	-12.5071
唇	-12.5074
秫	-12.5087
䕩	-12.5095
厩	-12.5145
伃	-12.5152
昀	-12.5172
䆳	-12.5172
崗	-12.5173
猖	-12.5173
胷	-12.5174
蕙	-12.5175
塍	-12.5176
猴	-12.5176
襃	-12.5177
翫	-12.5177
啖	-12.518
孑	-12.518
盍	-12.518
裡	-12.5181
錐	-12.5182
孩	-12.5183
獞	-12.5185
玕	-12.5186
磽	-12.5187
腋	-12.5192
罘	-12.5193
楔	-12.5287
讃	-12.5288
菓	-12.5288
譎	-12.5288
麵	-12.529
撾	-12.529
糟	-12.5292
冨	-12.5294
俚	-12.5294
烘	-12.5294
慣	-12.5296
逖	-12.5297
賵	-12.5303
㩀	-12.5305
醤	-12.531
蜺	-12.5311
硤	-12.5395
㴻	-12.5395
嚌	-12.5396
汭	-12.5396
磑	-12.5397
刊	-12.5399
蘧	-12.5399
夐	-12.5401
蹶	-12.5402
妓	-12.5405
蠁	-12.5407
藜	-12.5409
箧	-12.5415
汐	-12.5419
偁	-12.5509
悽	-12.551
矗	-12.5513
鬲	-12.5514
麈	-12.5519
狠	-12.5519
浣	-12.5519
薇	-12.5521
褕	-12.5521
孀	-12.5523
諛	-12.5524
靛	-12.5525
銕	-12.5526
蒔	-12.5527
邽	-12.5527
傚	-12.5528
稭	-12.5535
煬	-12.5541
筸	-12.5625
埴	-12.5632
鏑	-12.5633
讙	-12.5635
厓	-12.5637
鼈	-12.5639
駛	-12.564
俠	-12.5643
㓕	-12.5647
釗	-12.565
幙	-12.5652
韎	-12.5654
蠎	-12.566
珏	-12.575
棡	-12.575
栻	-12.5751
妬	-12.5751
豺	-12.5752
窈	-12.5752
嫄	-12.5753
誚	-12.5754
緫	-12.5755
趂	-12.5759
漓	-12.576
酈	-12.5762
柿	-12.5764
黛	-12.5767
熖	-12.5771
骲	-12.5871
紈	-12.5871
槱	-12.5873
澣	-12.5873
棻	-12.5873
娵	-12.5873
无	-12.5877
噲	-12.588
隼	-12.5882
諠	-12.5885
詘	-12.5885
虔	-12.5887
暠	-12.5887
晞	-12.5889
酆	-12.5889
鑣	-12.5891
唬	-12.59
渣	-12.5902
棖	-12.5907
醲	-12.5988
籀	-12.599
跂	-12.599
貤	-12.5992
燼	-12.5996
艶	-12.5996
郾	-12.5997
莵	-12.5999
兜	-12.6001
堕	-12.6001
刖	-12.6003
撘	-12.6004
齧	-12.6005
屉	-12.6008
縚	-12.6014
𫀆	-12.6014
攏	-12.6022
闟	-12.6023
腕	-12.6096
璹	-12.6113
睂	-12.6114
牁	-12.6114
筌	-12.6115
姐	-12.6118
旴	-12.6118
靉	-12.612
鋌	-12.6122
鏹	-12.6123
肸	-12.6127
嶷	-12.6127
鶡	-12.6128
刮	-12.6129
䞇	-12.6132
埂	-12.6135
謊	-12.6146
檩	-12.6163
埔	-12.6242
涂	-12.6244
种	-12.6245
凜	-12.6246
暐	-12.6247
洳	-12.6248
廞	-12.6248
闍	-12.6248
芥	-12.6249
杰	-12.6249
䂓	-12.6249
緱	-12.6252
趲	-12.6254
唆	-12.6254
遒	-12.6255
鴦	-12.6256
惹	-12.6257
揠	-12.6258
叡	-12.6263
韍	-12.627
樗	-12.6362
鄗	-12.6365
螽	-12.6367
苔	-12.6371
搃	-12.6371
嫉	-12.6372
恙	-12.6373
䍧	-12.6373
鈃	-12.6374
濂	-12.6375
躪	-12.6375
戩	-12.6375
碌	-12.6377
狎	-12.638
覓	-12.6381
淅	-12.6381
裼	-12.6384
帗	-12.6389
鯀	-12.6488
訝	-12.6493
譔	-12.6495
盼	-12.6496
爍	-12.6496
鰥	-12.6497
怖	-12.6498
萱	-12.6499
甓	-12.65
訏	-12.65
潑	-12.6501
彀	-12.6502
掊	-12.6503
酗	-12.6505
駘	-12.6506
䡖	-12.6511
槁	-12.6512
萹	-12.6519
襚	-12.6539
饅	-12.6544
堙	-12.6629
搴	-12.663
紿	-12.6631
窒	-12.6634
蔥	-12.6634
匵	-12.6636
蘖	-12.6636
脗	-12.6636
甯	-12.6637
衎	-12.6637
䜿	-12.6638
奩	-12.6642
喏	-12.6642
蕎	-12.6644
睒	-12.6656
嗷	-12.6753
診	-12.676
傔	-12.6761
鏜	-12.6762
蝶	-12.6763
娯	-12.6764
鋋	-12.6765
檝	-12.6765
癃	-12.6765
剗	-12.6766
儁	-12.6767
暾	-12.6768
膟	-12.6768
賾	-12.6768
揷	-12.677
殻	-12.6772
淙	-12.6889
罨	-12.6892
僵	-12.6894
皋	-12.6895
塏	-12.6896
璊	-12.6898
緼	-12.6898
膜	-12.6899
㢲	-12.69
瀏	-12.6901
鞦	-12.6906
猊	-12.6907
豨	-12.6912
猩	-12.6912
吊	-12.6913
擦	-12.6918
霾	-12.6927
僨	-12.7022
鞉	-12.7023
讋	-12.7024
怵	-12.7027
虺	-12.703
璆	-12.7032
鄠	-12.7032
箏	-12.7034
崞	-12.7035
賖	-12.7035
冏	-12.7038
埶	-12.7038
猿	-12.7046
礿	-12.7048
靶	-12.7051
蜼	-12.7051
鄫	-12.7073
漈	-12.7154
柟	-12.7156
笈	-12.716
詿	-12.7163
僾	-12.7166
昃	-12.7167
澈	-12.7168
瘝	-12.717
媳	-12.717
适	-12.7171
蟾	-12.7171
暎	-12.7171
抜	-12.7174
颶	-12.7176
轟	-12.7176
坼	-12.718
鸛	-12.7182
樑	-12.7183
釜	-12.7184
挪	-12.7295
麩	-12.7297
捫	-12.7299
媧	-12.7307
畛	-12.731
洧	-12.731
賸	-12.7311
璀	-12.7311
暵	-12.7313
洹	-12.7315
攪	-12.7317
咒	-12.732
畮	-12.7321
秧	-12.7321
鞔	-12.7324
芍	-12.7326
煠	-12.7345
鑛	-12.7438
舡	-12.7438
綖	-12.7439
壟	-12.7447
憊	-12.7448
蹬	-12.7451
􁋎	-12.7451
僞	-12.7452
郛	-12.7455
穩	-12.7457
飱	-12.7461
瀉	-12.7463
槳	-12.7481
礽	-12.7576
禠	-12.7584
倨	-12.7586
汨	-12.7587
麞	-12.7588
藿	-12.7589
濞	-12.759
匍	-12.7591
郟	-12.7594
炤	-12.7594
讜	-12.7595
闉	-12.7596
瓴	-12.7596
擣	-12.7597
嶇	-12.7598
桁	-12.7598
偪	-12.7601
戬	-12.7604
啞	-12.7605
摸	-12.7608
𦦨	-12.7707
􁎄	-12.7712
渌	-12.7726
醒	-12.7728
瑭	-12.773
醊	-12.7731
澡	-12.7731
瞬	-12.7733
􁈹	-12.7734
蛤	-12.7735
惴	-12.7737
瀹	-12.7737
岢	-12.7738
碁	-12.7739
痘	-12.774
槊	-12.7741
鼖	-12.7741
潄	-12.7743
艍	-12.7746
蔗	-12.7747
狸	-12.7747
釧	-12.7749
噪	-12.7751
褠	-12.7752
瓢	-12.7752
凈	-12.7753
珵	-12.7861
秭	-12.7876
瞰	-12.7881
渺	-12.7882
嵎	-12.7882
沓	-12.7882
鮫	-12.7882
鑚	-12.7882
綈	-12.7883
聪	-12.7885
錙	-12.7885
摠	-12.7885
衅	-12.7885
闑	-12.7887
淩	-12.7889
氈	-12.7891
凹	-12.7892
焕	-12.7892
糙	-12.7897
捆	-12.791
瓪	-12.7941
珅	-12.8017
䂍	-12.8018
爱	-12.8025
荐	-12.8026
洶	-12.8027
裊	-12.8028
璵	-12.8029
悰	-12.8031
鍔	-12.8031
頋	-12.8032
稞	-12.8033
瀰	-12.8034
㛰	-12.8034
櫬	-12.8035
韙	-12.8036
韉	-12.8037
炒	-12.8041
潾	-12.8041
嗎	-12.8041
柬	-12.8042
轓	-12.8053
轜	-12.806
撩	-12.8094
牱	-12.8179
㢤	-12.8179
貙	-12.818
埓	-12.8181
慷	-12.8184
艫	-12.8186
嬖	-12.8187
欃	-12.8188
隈	-12.8192
飴	-12.8193
敺	-12.8194
爓	-12.8195
儕	-12.8195
肚	-12.8201
蔴	-12.8201
撑	-12.8202
櫨	-12.8205
涎	-12.8213
鋜	-12.8213
灋	-12.8215
軛	-12.822
祹	-12.8326
莠	-12.8335
棋	-12.8336
刳	-12.8337
穜	-12.8337
頖	-12.8338
嘻	-12.8338
掉	-12.8339
鐐	-12.8342
愠	-12.8346
臝	-12.8353
犛	-12.8358
湄	-12.848
莩	-12.8484
皤	-12.8486
觝	-12.8488
浃	-12.8488
遅	-12.8488
㙮	-12.849
敲	-12.8494
艷	-12.8495
榱	-12.8497
鄼	-12.8499
貰	-12.8499
梏	-12.85
漬	-12.85
𬒳	-12.85
袪	-12.8501
匯	-12.8505
鷙	-12.8507
彎	-12.8508
鬆	-12.851
柈	-12.8514
鉸	-12.8517
巂	-12.8642
獗	-12.8643
嫺	-12.8644
縶	-12.8644
璩	-12.8646
昜	-12.8647
滉	-12.8647
祛	-12.865
櫻	-12.8651
榘	-12.8651
頲	-12.8652
暁	-12.8655
䜛	-12.8655
呪	-12.8656
臀	-12.8656
畵	-12.8656
膂	-12.8657
𤦺	-12.8661
戳	-12.8661
脡	-12.8662
犠	-12.8665
苣	-12.8668
晒	-12.8672
褙	-12.8673
茁	-12.8805
默	-12.8807
垍	-12.8814
煞	-12.8815
瀟	-12.8816
洄	-12.8816
璐	-12.8817
鈺	-12.8818
楬	-12.8818
砫	-12.8819
哆	-12.8836
醑	-12.8838
瑑	-12.8839
煃	-12.8962
湩	-12.897
瀧	-12.8973
断	-12.8974
颯	-12.8974
弆	-12.8975
埝	-12.8976
麯	-12.8977
賙	-12.8978
罏	-12.8978
欹	-12.8978
熛	-12.8979
攖	-12.8983
慾	-12.8983
諲	-12.8984
鄣	-12.8985
茄	-12.8985
徔	-12.8986
勗	-12.8987
攫	-12.8988
埀	-12.8989
坰	-12.8989
軨	-12.8989
坯	-12.8992
刌	-12.8993
刧	-12.8997
黈	-12.9003
糕	-12.9011
稹	-12.9127
懵	-12.913
絪	-12.9133
崛	-12.9137
㐫	-12.9138
埧	-12.9141
𦕈	-12.9141
怕	-12.9142
柢	-12.9143
蘊	-12.9144
擷	-12.9145
瘳	-12.9146
嗤	-12.9147
勰	-12.9148
褊	-12.9148
篁	-12.9148
劃	-12.9149
繽	-12.9151
驁	-12.9151
蒜	-12.9152
籮	-12.9152
邛	-12.916
鷂	-12.9161
咥	-12.9303
鰈	-12.9303
棐	-12.9305
萼	-12.9306
愕	-12.9306
腵	-12.9309
秪	-12.931
喊	-12.9311
茒	-12.9311
迸	-12.9311
㯶	-12.9312
渇	-12.9313
蚌	-12.9313
岌	-12.9313
鍇	-12.9314
竁	-12.9314
綪	-12.9315
髴	-12.9317
媪	-12.9318
髣	-12.9319
珊	-12.932
脛	-12.932
甜	-12.9326
峝	-12.9327
搓	-12.9331
菉	-12.9334
繶	-12.9334
韇	-12.9335
鍱	-12.9342
曡	-12.9475
癉	-12.9481
燹	-12.9482
鐏	-12.9483
巘	-12.9483
驄	-12.9484
綆	-12.9485
晾	-12.9485
㝡	-12.9485
刲	-12.9486
閆	-12.9486
橛	-12.9487
碓	-12.9487
蹋	-12.9488
廚	-12.9488
枹	-12.9492
曨	-12.9492
澀	-12.9492
蜿	-12.9494
旟	-12.9494
擗	-12.9496
桎	-12.95
麇	-12.9504
瑠	-12.9512
荻	-12.9517
塨	-12.9644
芷	-12.9649
緲	-12.9655
偓	-12.9655
稑	-12.9656
窳	-12.9659
㐲	-12.9661
葑	-12.9662
穽	-12.9662
氾	-12.9663
找	-12.9663
窕	-12.9666
睨	-12.9668
皖	-12.9669
脆	-12.967
幛	-12.9676
戟	-12.9676
劈	-12.9679
闖	-12.968
叉	-12.9708
䥖	-12.9826
嶂	-12.983
湔	-12.9831
雘	-12.9841
鮪	-12.9843
皝	-12.9844
郄	-12.9844
葠	-12.9846
邐	-12.9846
􁈞	-12.985
紥	-12.985
驊	-12.9851
逅	-12.9851
澱	-12.9854
侏	-12.9854
么	-12.9859
緅	-12.986
啄	-12.9861
𧖟	-12.9863
徤	-13.0021
賕	-13.0022
獷	-13.0022
卲	-13.0022
庋	-13.0024
矚	-13.0024
孱	-13.0025
勷	-13.0026
謟	-13.0029
羶	-13.0032
弘	-13.0033
帚	-13.0033
篡	-13.0036
麄	-13.0038
臓	-13.0046
蝀	-13.0183
淏	-13.0191
鶼	-13.0196
墁	-13.0196
橦	-13.0197
蘂	-13.0199
菆	-13.0202
闒	-13.0202
鍤	-13.0203
蕊	-13.0203
騖	-13.0204
酧	-13.0205
絙	-13.0206
銎	-13.0206
眩	-13.0207
憬	-13.0207
搨	-13.0208
吠	-13.021
㳂	-13.0211
宁	-13.0212
蜒	-13.0212
偈	-13.0212
擿	-13.0213
缷	-13.0215
爚	-13.0218
笮	-13.0218
箙	-13.0219
扒	-13.0237
籃	-13.0242
鯤	-13.0386
翽	-13.0389
腑	-13.0392
躅	-13.0393
恡	-13.0394
郇	-13.0394
遯	-13.0395
閿	-13.0395
熒	-13.0396
腿	-13.0399
廆	-13.0399
柑	-13.0399
儈	-13.04
檣	-13.0401
徨	-13.0402
甍	-13.0403
郗	-13.0403
鼉	-13.0404
薤	-13.0406
鐍	-13.0407
剜	-13.041
䒭	-13.0414
尙	-13.0418
宓	-13.0421
琺	-13.0439
傜	-13.0441
畚	-13.0575
倢	-13.0576
躐	-13.058
恧	-13.058
蔟	-13.0581
朘	-13.0581
峡	-13.0582
棓	-13.0586
噎	-13.0586
驆	-13.0587
噉	-13.0587
靁	-13.0589
鄊	-13.0589
苜	-13.0589
痌	-13.0589
翿	-13.0589
殚	-13.0589
漉	-13.0589
嘛	-13.059
厝	-13.0591
痍	-13.0592
鷲	-13.0593
䧺	-13.0593
鍥	-13.0593
饈	-13.0594
蜑	-13.0595
痾	-13.0598
矬	-13.0599
紞	-13.0601
紒	-13.0601
臏	-13.0606
􁟱	-13.0606
棕	-13.0609
篩	-13.0622
町	-13.0759
瑊	-13.0775
囀	-13.0781
韣	-13.0782
戺	-13.0785
犄	-13.0786
粃	-13.0787
葳	-13.0787
䥴	-13.0788
跗	-13.0788
凴	-13.0789
爇	-13.0789
烖	-13.0789
髯	-13.079
歧	-13.0791
萑	-13.0794
齬	-13.0796
赶	-13.0796
繐	-13.08
禊	-13.0801
嵯	-13.0802
瘋	-13.0803
湣	-13.0808
簸	-13.0817
艌	-13.0821
鐮	-13.0943
劂	-13.0972
珦	-13.0973
幪	-13.0974
畹	-13.0975
卨	-13.0976
灊	-13.098
綻	-13.0981
𢷬	-13.0983
􁶌	-13.0984
苕	-13.0984
饘	-13.0984
菟	-13.0985
柞	-13.0988
茆	-13.0988
嵬	-13.0989
罈	-13.099
悶	-13.099
褻	-13.0991
霪	-13.0991
嶮	-13.0991
幇	-13.0993
㓗	-13.0994
𬋩	-13.0994
淯	-13.0996
夣	-13.0996
椵	-13.1001
芋	-13.1002
篠	-13.1006
罳	-13.1011
橚	-13.1023
凊	-13.1179
寀	-13.118
鈇	-13.1181
蕘	-13.1181
賨	-13.1184
鷟	-13.1184
吧	-13.1186
泐	-13.1186
倂	-13.1187
槎	-13.1187
蕞	-13.1187
芊	-13.1188
謩	-13.1188
蹊	-13.119
吼	-13.119
猓	-13.1191
从	-13.1194
靚	-13.1194
􁁏	-13.1194
蒨	-13.1196
椹	-13.1196
尔	-13.1198
仭	-13.1198
銍	-13.1199
踣	-13.1199
跑	-13.1199
軹	-13.12
楼	-13.12
麺	-13.1202
隮	-13.1206
蕡	-13.1212
雯	-13.1378
榕	-13.1385
剞	-13.1385
㠶	-13.1386
渟	-13.1389
騄	-13.1391
鄚	-13.1392
嚨	-13.1393
侄	-13.1395
疈	-13.1395
瀍	-13.1395
牣	-13.1396
荃	-13.1397
駰	-13.1398
埤	-13.1398
爆	-13.1398
縝	-13.1399
綃	-13.14
滓	-13.1401
甑	-13.1402
黟	-13.1404
鄄	-13.1404
釃	-13.1406
筓	-13.1406
㵼	-13.1407
熄	-13.1407
蠅	-13.1408
饎	-13.1411
𥜗	-13.1414
躧	-13.1419
裟	-13.1424
萁	-13.1425
轢	-13.1597
駙	-13.1599
鑴	-13.1601
恚	-13.1603
迢	-13.1604
鴆	-13.1604
狽	-13.1604
矇	-13.1605
腔	-13.1607
𣺌	-13.1607
諟	-13.1607
踢	-13.1607
衂	-13.1611
捄	-13.1611
畬	-13.1612
臠	-13.1614
茌	-13.1614
襁	-13.1615
貅	-13.1615
韁	-13.1617
郫	-13.1617
俺	-13.1617
謖	-13.1622
烱	-13.1622
爝	-13.1623
㺯	-13.1627
暝	-13.1628
穵	-13.163
頷	-13.1632
胉	-13.1636
猞	-13.1644
雱	-13.1813
覦	-13.1816
稄	-13.182
枳	-13.1821
鄔	-13.1822
柝	-13.1822
邨	-13.1822
訕	-13.1823
聃	-13.1823
縡	-13.1824
􁁜	-13.1824
巋	-13.1825
盻	-13.1825
醸	-13.1827
贜	-13.1827
撼	-13.1831
悴	-13.1831
舸	-13.1832
犦	-13.1832
檮	-13.1832
楗	-13.1832
曕	-13.1833
硏	-13.1833
淛	-13.1835
贇	-13.1835
鬪	-13.1837
樟	-13.1837
浞	-13.1839
梃	-13.184
帊	-13.184
曖	-13.1841
絆	-13.1841
洸	-13.1842
臟	-13.1843
㯽	-13.1843
纈	-13.1854
袀	-13.1869
鍈	-13.2037
珞	-13.2038
攽	-13.204
楛	-13.2042
厖	-13.2043
磾	-13.2045
顚	-13.2046
腎	-13.2047
淝	-13.2047
蘉	-13.2048
艤	-13.2048
韝	-13.2051
揲	-13.2051
楙	-13.2051
趁	-13.2052
頎	-13.2054
异	-13.2054
玘	-13.2054
蚪	-13.2055
摰	-13.2055
礫	-13.2055
瘐	-13.2055
璸	-13.2056
尠	-13.2056
蒯	-13.206
鐓	-13.2064
侲	-13.2064
礎	-13.2067
輞	-13.2069
棃	-13.2072
袈	-13.2078
猻	-13.2082
墬	-13.2245
灃	-13.2253
歪	-13.2258
悵	-13.2265
帡	-13.2266
巗	-13.2266
騊	-13.2269
价	-13.2272
瑰	-13.2272
籞	-13.2272
蛙	-13.2273
眊	-13.2274
醃	-13.2274
虵	-13.2275
祅	-13.2275
逥	-13.2275
箾	-13.2275
罅	-13.2277
蠭	-13.2277
綎	-13.2277
郜	-13.2279
滾	-13.228
鋹	-13.228
赧	-13.2281
􁑬	-13.2281
啣	-13.2282
枌	-13.2284
蛾	-13.2284
鋟	-13.2285
迊	-13.2285
朏	-13.2289
戽	-13.2301
韮	-13.2302
蔆	-13.231
畇	-13.2492
涑	-13.2493
鋗	-13.25
􁀒	-13.2502
摉	-13.2505
覡	-13.2506
泡	-13.2507
沍	-13.2507
揉	-13.2508
刎	-13.2508
泱	-13.2509
湞	-13.251
份	-13.2511
搔	-13.2511
嵊	-13.2512
鎸	-13.2514
鯢	-13.2514
柎	-13.2515
睡	-13.2516
駹	-13.2517
駵	-13.2517
躱	-13.2518
峋	-13.2519
溲	-13.2519
晊	-13.2519
盭	-13.252
鼒	-13.2521
筲	-13.2522
錘	-13.2522
韐	-13.2524
椰	-13.2526
邙	-13.2526
砧	-13.2527
熺	-13.2528
栔	-13.2528
栲	-13.2529
􁐞	-13.2541
撱	-13.2542
瓈	-13.2544
蹡	-13.2716
鬃	-13.2725
懃	-13.2733
凄	-13.2737
犴	-13.2737
拄	-13.2737
喘	-13.2741
鄩	-13.2743
徯	-13.2743
椌	-13.2744
鞀	-13.2744
豌	-13.2744
闤	-13.2744
誾	-13.2744
蹻	-13.2745
飈	-13.2747
慥	-13.2748
濳	-13.275
趍	-13.275
瀣	-13.2751
鄕	-13.2751
匈	-13.2752
蹷	-13.2752
褖	-13.2753
頔	-13.2753
纖	-13.2753
鏖	-13.2755
嶸	-13.2757
氆	-13.2758
虀	-13.276
騠	-13.2762
橢	-13.2763
隃	-13.2763
襜	-13.2764
鉏	-13.2764
耍	-13.2766
蠹	-13.2769
剉	-13.2769
膴	-13.2774
硎	-13.2966
瀠	-13.298
詄	-13.298
駼	-13.2982
邴	-13.2984
蝝	-13.2986
睟	-13.2987
蓀	-13.2988
錁	-13.2989
籕	-13.2989
鉄	-13.2989
㩁	-13.299
逌	-13.299
賒	-13.2991
炸	-13.2993
遨	-13.2993
蚡	-13.2994
醞	-13.2995
徕	-13.2996
礓	-13.2998
膾	-13.2999
骼	-13.3001
疃	-13.3003
駃	-13.3003
豻	-13.3015
荍	-13.3018
鏇	-13.3026
鮐	-13.3231
稌	-13.3231
児	-13.3233
鑕	-13.3236
埜	-13.3238
涅	-13.3238
咀	-13.324
羿	-13.324
疴	-13.3242
畺	-13.3242
麅	-13.3242
艇	-13.3242
睥	-13.3243
祘	-13.3243
乣	-13.3243
籓	-13.3243
鶩	-13.3244
臈	-13.3244
挲	-13.3244
𢡟	-13.3245
謔	-13.3246
橈	-13.3246
腶	-13.3246
憝	-13.3246
腆	-13.3247
醪	-13.3247
偘	-13.3248
庳	-13.3249
詬	-13.3252
綑	-13.3253
臍	-13.3254
胊	-13.3254
漙	-13.3254
韀	-13.3255
茟	-13.3256
綁	-13.3257
鞲	-13.326
黿	-13.3266
屜	-13.3267
璚	-13.3269
妝	-13.327
笆	-13.3278
偼	-13.3458
裸	-13.3487
狁	-13.3488
旜	-13.3489
祴	-13.349
􁇧	-13.3491
闠	-13.3492
疚	-13.3492
娃	-13.3495
桔	-13.3495
鹺	-13.3495
罟	-13.3495
蓰	-13.3495
瑒	-13.3496
㷀	-13.3496
鍭	-13.3498
窗	-13.3499
㲈	-13.3499
縋	-13.3499
罝	-13.3499
㾗	-13.3502
凾	-13.3503
娭	-13.3504
餚	-13.3505
鍛	-13.3507
畷	-13.3507
薺	-13.351
頹	-13.3512
獐	-13.3513
抺	-13.3514
閡	-13.3516
葯	-13.3519
讁	-13.352
簰	-13.3522
穄	-13.3522
漊	-13.3522
鏢	-13.3526
仩	-13.3539
銚	-13.3543
亁	-13.3738
秄	-13.3741
惺	-13.3743
丫	-13.3744
璥	-13.3748
丒	-13.3751
鏊	-13.3753
穣	-13.3753
錚	-13.3754
鮒	-13.3755
𡨕	-13.3755
毀	-13.3756
苹	-13.3756
揜	-13.3757
灸	-13.3757
藳	-13.3758
畊	-13.3758
赳	-13.3759
卾	-13.3759
鯁	-13.3761
嚼	-13.3761
咬	-13.3762
褭	-13.3764
邡	-13.3764
撦	-13.3764
陿	-13.3765
寬	-13.3765
喤	-13.3765
緻	-13.3765
箒	-13.3765
儹	-13.3766
襌	-13.3768
纜	-13.377
筤	-13.3773
掏	-13.3775
弰	-13.3776
叭	-13.3777
彍	-13.3779
橑	-13.378
籈	-13.3782
夯	-13.3787
嘒	-13.3789
䙆	-13.3789
垕	-13.3795
􁫭	-13.3798
豔	-13.4016
昵	-13.4022
癡	-13.4023
喈	-13.4024
騤	-13.4025
仝	-13.4026
龢	-13.4028
蘢	-13.4029
蕢	-13.403
侖	-13.403
桄	-13.4031
献	-13.4031
魔	-13.4033
禬	-13.4034
䔍	-13.4034
裀	-13.4035
鵕	-13.4035
譛	-13.4035
鴿	-13.4036
怱	-13.4036
葷	-13.4036
灂	-13.4038
綝	-13.4039
憙	-13.4046
鉷	-13.4049
茜	-13.4053
毦	-13.4054
攛	-13.4059
釳	-13.4067
犆	-13.4085
漋	-13.4293
僂	-13.4295
晫	-13.4297
鼚	-13.4297
栝	-13.4299
紟	-13.4299
恫	-13.4301
礴	-13.4301
鷗	-13.4301
慇	-13.4304
瓔	-13.4305
窿	-13.4306
逶	-13.4307
呐	-13.4308
漚	-13.4308
鐔	-13.4308
玄	-13.4309
倌	-13.4309
酃	-13.4309
縐	-13.4309
韺	-13.4309
嘔	-13.431
隤	-13.431
璪	-13.4311
㳫	-13.4311
挏	-13.4312
靆	-13.4312
趯	-13.4312
鈆	-13.4313
胔	-13.4313
杷	-13.4313
伾	-13.4314
薔	-13.4314
漶	-13.4317
恁	-13.4318
矱	-13.4318
炅	-13.4319
鰓	-13.4321
礲	-13.4321
侁	-13.4321
枲	-13.4321
蟊	-13.4322
术	-13.4323
詧	-13.4327
篦	-13.433
嘠	-13.4335
湾	-13.4346
餠	-13.4352
􁕵	-13.4352
喆	-13.4573
翀	-13.4576
鋝	-13.4577
澐	-13.4584
霫	-13.4587
溆	-13.459
嘽	-13.4591
㪺	-13.4591
憒	-13.4592
廑	-13.4592
嘘	-13.4593
鄘	-13.4593
驀	-13.4593
稂	-13.4593
窣	-13.4594
繾	-13.4595
屧	-13.4597
褓	-13.4597
攣	-13.4599
鱉	-13.4599
䴊	-13.4599
晢	-13.4601
棼	-13.4601
攴	-13.4602
泇	-13.4602
俁	-13.4604
螻	-13.4606
陴	-13.4606
㓙	-13.4607
疉	-13.4613
􁰽	-13.4613
龡	-13.4614
咮	-13.4614
澑	-13.4617
噠	-13.4618
駸	-13.462
桱	-13.462
魌	-13.4622
鵒	-13.4622
晻	-13.4632
鞚	-13.4864
㓲	-13.4874
澥	-13.4876
羾	-13.488
蟹	-13.488
斆	-13.488
罙	-13.488
輊	-13.488
脽	-13.4881
殛	-13.4882
綯	-13.4884
噩	-13.4886
緍	-13.4886
淥	-13.4886
樅	-13.4887
坌	-13.4889
浯	-13.4891
礱	-13.4893
魴	-13.4894
槗	-13.4895
狙	-13.4895
㬰	-13.4896
䑃	-13.4896
饜	-13.4896
簜	-13.4897
邲	-13.4898
璲	-13.4899
檠	-13.4899
澔	-13.4899
㴠	-13.4899
卣	-13.49
蒺	-13.49
杅	-13.4901
饕	-13.4903
繻	-13.4904
䩺	-13.4906
䑩	-13.4911
鑞	-13.4913
輀	-13.4914
鸜	-13.4916
嗢	-13.5162
釴	-13.5176
玭	-13.5176
淜	-13.5177
􁑣	-13.5177
嬗	-13.5178
􁇠	-13.5178
娉	-13.5178
邰	-13.5181
嶤	-13.5182
殲	-13.5182
篙	-13.5182
冽	-13.5184
袝	-13.5184
蠙	-13.5184
玖	-13.5185
毡	-13.5187
闚	-13.5187
磊	-13.5189
佻	-13.5189
敂	-13.519
讟	-13.5191
螳	-13.5191
褰	-13.5192
廛	-13.5193
㲲	-13.5193
菖	-13.5194
枏	-13.5195
歷	-13.5196
?	-13.5197
䄖	-13.5198
蹀	-13.5199
唄	-13.52
韞	-13.52
醅	-13.52
馹	-13.52
屐	-13.52
崤	-13.5201
趫	-13.5201
蠃	-13.5202
舳	-13.5203
聾	-13.5203
輼	-13.5206
蒂	-13.5206
蓊	-13.5208
傉	-13.521
朓	-13.521
肜	-13.5211
搊	-13.5211
吃	-13.5212
柣	-13.5213
鷖	-13.5213
嘓	-13.5218
鰕	-13.5218
緄	-13.5222
頍	-13.5223
伬	-13.5228
襻	-13.5235
栩	-13.5483
坵	-13.5489
胝	-13.549
昞	-13.5492
湑	-13.5492
獪	-13.5492
􁏔	-13.5493
眸	-13.5494
磅	-13.5495
馗	-13.5497
轆	-13.5497
欬	-13.5497
胼	-13.5497
荄	-13.5497
戔	-13.5498
叵	-13.5498
嘱	-13.5499
筞	-13.5499
玫	-13.5499
掎	-13.55
㩦	-13.5501
槧	-13.5501
髫	-13.5501
涘	-13.5502
佖	-13.5503
昫	-13.5503
䥥	-13.5504
窶	-13.5504
晤	-13.5504
媺	-13.5504
稊	-13.5506
愒	-13.5506
琱	-13.5506
袛	-13.5507
宷	-13.5507
釦	-13.5507
摃	-13.5508
弣	-13.5509
鬟	-13.5509
旉	-13.551
洑	-13.551
偫	-13.551
珎	-13.5511
嶙	-13.5512
鵾	-13.5513
銛	-13.5513
烺	-13.5516
剕	-13.5516
阬	-13.5519
㡳	-13.5521
蒍	-13.5521
硪	-13.5524
羖	-13.5529
扮	-13.5535
湇	-13.5538
仜	-13.5548
墡	-13.5808
伷	-13.5812
倓	-13.5814
勩	-13.5814
樾	-13.5814
皡	-13.5815
嶢	-13.5818
撁	-13.5818
棩	-13.5818
菅	-13.5818
沇	-13.5819
杙	-13.582
旡	-13.5822
諝	-13.5823
蔕	-13.5823
嫚	-13.5823
坨	-13.5824
綮	-13.5824
饍	-13.5824
㫤	-13.5826
􁊌	-13.5829
鬂	-13.583
酖	-13.583
鄡	-13.583
恠	-13.5831
媟	-13.5831
鎚	-13.5832
橙	-13.5832
焫	-13.5832
橅	-13.5833
䩥	-13.5834
􁥟	-13.5835
玦	-13.5835
勍	-13.5837
揩	-13.5838
瞀	-13.5838
慊	-13.5839
崐	-13.584
衺	-13.5841
艙	-13.5842
菌	-13.5844
燝	-13.5844
㬋	-13.5845
蓽	-13.5846
万	-13.5847
秖	-13.5849
浿	-13.585
蚣	-13.585
胏	-13.5851
􁐟	-13.5858
􁐤	-13.5859
掍	-13.5864
鷰	-13.5872
开	-13.6135
潺	-13.6141
儗	-13.6142
錽	-13.6143
絏	-13.6145
軄	-13.6151
噦	-13.6151
鞂	-13.6151
譓	-13.6152
渫	-13.6153
祟	-13.6153
煕	-13.6153
蜮	-13.6155
袐	-13.6155
醵	-13.6158
瑨	-13.6158
瑔	-13.6159
瑺	-13.6159
症	-13.6159
蒧	-13.616
蓺	-13.616
繂	-13.616
仡	-13.6161
簣	-13.6162
芑	-13.6162
弃	-13.6162
魘	-13.6162
罼	-13.6164
褲	-13.6165
帀	-13.6166
卅	-13.6167
跽	-13.6167
啿	-13.6169
忖	-13.617
渗	-13.617
慴	-13.617
濙	-13.6171
廙	-13.6172
捃	-13.6174
甽	-13.6176
晹	-13.6176
筰	-13.6177
纏	-13.6178
糁	-13.6178
靷	-13.6179
䩞	-13.6182
熿	-13.619
淂	-13.6197
亿	-13.6212
禝	-13.6474
鼜	-13.6474
扢	-13.6482
坟	-13.6482
㶑	-13.6485
耞	-13.6487
菏	-13.6488
娠	-13.6492
楩	-13.6495
颸	-13.6495
剴	-13.6496
洼	-13.6498
摐	-13.6498
􁐉	-13.6499
毉	-13.6499
畞	-13.65
荏	-13.65
閧	-13.6501
詖	-13.6501
懣	-13.6502
䢴	-13.6502
㢠	-13.6502
頏	-13.6502
蹴	-13.6503
蕋	-13.6504
娟	-13.6504
麛	-13.6505
頬	-13.6507
怎	-13.6507
鸂	-13.6507
芰	-13.6508
饁	-13.6511
嚚	-13.6511
鶒	-13.6511
嶰	-13.6511
玢	-13.6512
梠	-13.6513
􁇋	-13.6513
櫂	-13.6513
脞	-13.6516
匄	-13.6516
鍬	-13.6516
菰	-13.6517
贔	-13.6519
飶	-13.652
𣣔	-13.6522
𥪡	-13.6523
垸	-13.6524
綟	-13.6524
砰	-13.6525
􁐜	-13.6526
嗶	-13.6535
迋	-13.6844
蒭	-13.6848
箑	-13.685
熳	-13.685
姥	-13.6854
詫	-13.6856
捺	-13.6857
壚	-13.6857
鴞	-13.6857
梐	-13.6858
皜	-13.6858
摳	-13.6859
樛	-13.6859
氳	-13.6859
矰	-13.686
𥘉	-13.6861
瓛	-13.6861
䘖	-13.6861
轃	-13.6862
撡	-13.6863
栰	-13.6863
羚	-13.6865
捻	-13.6865
劼	-13.6867
蘚	-13.6868
隩	-13.6868
痼	-13.6869
膛	-13.687
灶	-13.687
羝	-13.6871
虖	-13.6873
愎	-13.6873
眭	-13.6874
蹔	-13.6875
疽	-13.6875
芼	-13.6877
拌	-13.6877
茇	-13.6878
鮓	-13.6878
駔	-13.6878
輭	-13.688
枸	-13.688
蓚	-13.6884
抬	-13.6893
瀬	-13.6895
􁕧	-13.6912
皃	-13.7215
渳	-13.7217
鏨	-13.7218
騩	-13.7219
莋	-13.7219
叧	-13.7219
瞍	-13.7221
漯	-13.7222
熠	-13.7224
沕	-13.7225
莬	-13.7225
獫	-13.7226
偲	-13.7228
蔔	-13.7228
甡	-13.7229
僇	-13.723
撚	-13.723
凭	-13.723
裱	-13.723
嶴	-13.7232
燇	-13.7232
栓	-13.7232
糒	-13.7233
灔	-13.7233
肻	-13.7234
蚊	-13.7234
澌	-13.7236
駉	-13.7236
檉	-13.7237
臉	-13.7238
毐	-13.7239
胾	-13.7239
丱	-13.724
哄	-13.724
懴	-13.724
嚙	-13.7241
􁔪	-13.7243
槿	-13.7243
㪍	-13.7243
耰	-13.7243
猱	-13.7244
鐺	-13.7244
幠	-13.7244
撐	-13.7246
湎	-13.7246
蓁	-13.7247
枇	-13.7247
綌	-13.7248
鮎	-13.7251
夬	-13.7252
磋	-13.7252
巉	-13.7252
𥚑	-13.7252
拲	-13.7253
瓮	-13.7257
丗	-13.726
膞	-13.7264
褡	-13.7264
舗	-13.7266
鏌	-13.7575
璂	-13.7596
虫	-13.7598
煨	-13.7604
餱	-13.7604
鰾	-13.7606
糅	-13.7606
骰	-13.7606
倜	-13.7607
嘲	-13.7608
轘	-13.7611
鼛	-13.7611
婼	-13.7612
齦	-13.7614
􁇥	-13.7614
凷	-13.7614
呻	-13.7614
苓	-13.7614
焬	-13.7614
挍	-13.7616
禨	-13.7617
鄮	-13.7617
硇	-13.7617
鼷	-13.7618
蝌	-13.7618
嬙	-13.7618
檟	-13.7619
搦	-13.7621
幞	-13.7621
徉	-13.7621
爬	-13.7621
惄	-13.7622
輂	-13.7623
冔	-13.7623
煓	-13.7623
窯	-13.7624
顱	-13.7625
廄	-13.7625
媮	-13.7627
鐄	-13.7629
􁆭	-13.7629
浡	-13.7631
􁂗	-13.7631
廌	-13.7632
嬌	-13.7633
齪	-13.7634
蕨	-13.7635
蟀	-13.7636
磻	-13.7636
划	-13.7637
椑	-13.7641
黲	-13.7641
虸	-13.7642
膁	-13.7645
䉡	-13.7652
蘑	-13.7658
鑌	-13.766
豇	-13.7676
櫽	-13.7994
輶	-13.8003
晙	-13.8006
鶱	-13.8007
邶	-13.8008
陥	-13.8008
岵	-13.8008
汸	-13.8008
霿	-13.8009
怏	-13.8009
妞	-13.801
荗	-13.801
鄃	-13.8011
㳙	-13.8011
砮	-13.8012
峘	-13.8012
瞥	-13.8012
葸	-13.8012
瑮	-13.8014
俻	-13.8015
􁲬	-13.8015
瞠	-13.8015
鸑	-13.8016
痩	-13.8016
魑	-13.8016
𣪚	-13.8017
嵒	-13.8017
怦	-13.8018
沌	-13.8018
閈	-13.8018
窋	-13.8019
郪	-13.8019
搪	-13.802
掀	-13.8021
哽	-13.8021
犇	-13.8022
籛	-13.8022
雊	-13.8022
㿽	-13.8022
秅	-13.8023
肹	-13.8025
燻	-13.8025
喟	-13.8026
泲	-13.8026
㲄	-13.8026
柁	-13.8028
舩	-13.8029
筥	-13.8029
麕	-13.803
焙	-13.803
嶍	-13.8031
咳	-13.8031
餳	-13.8031
脰	-13.8038
芭	-13.804
禙	-13.8043
宧	-13.8402
跬	-13.8412
掬	-13.8418
􁁸	-13.8421
濆	-13.8422
琠	-13.8422
骫	-13.8422
鎡	-13.8424
笻	-13.8425
衒	-13.8425
咈	-13.8425
䲭	-13.8426
䛕	-13.8429
瞳	-13.8429
幗	-13.8429
窔	-13.8431
浛	-13.8432
摽	-13.8433
獍	-13.8434
紉	-13.8435
狴	-13.8435
飡	-13.8435
毼	-13.8435
楧	-13.8435
萋	-13.8435
蜎	-13.8436
襢	-13.8436
蜉	-13.8436
滻	-13.8436
幐	-13.8437
靬	-13.8437
䫜	-13.8438
枬	-13.8438
琶	-13.8438
䥷	-13.844
鞻	-13.844
剙	-13.8441
刅	-13.8441
脤	-13.8441
梔	-13.8444
𤇺	-13.8445
壷	-13.8446
腢	-13.8446
墪	-13.8447
輌	-13.8447
蹠	-13.8449
欎	-13.8449
皦	-13.8451
狻	-13.8453
塈	-13.8455
堇	-13.8456
頟	-13.8461
荳	-13.8461
簞	-13.8468
喋	-13.8469
䰟	-13.8469
檿	-13.8473
􁕗	-13.8483
鉁	-13.8822
戻	-13.8835
沚	-13.8847
嵓	-13.8856
䥫	-13.8856
蠆	-13.8858
泫	-13.8858
殣	-13.886
倥	-13.8861
笇	-13.8862
刓	-13.8863
潏	-13.8864
跛	-13.8866
暌	-13.8866
縲	-13.8867
呦	-13.8867
諼	-13.8868
悊	-13.8868
驌	-13.8868
嘎	-13.8869
侶	-13.8869
𣸪	-13.8869
憔	-13.887
擱	-13.887
謭	-13.8871
枑	-13.8872
皈	-13.8872
蹖	-13.8873
楎	-13.8874
涣	-13.8875
褎	-13.8876
㢮	-13.8876
詗	-13.8879
烷	-13.8879
恆	-13.8879
頠	-13.888
絻	-13.888
魫	-13.8881
傀	-13.8881
颷	-13.8881
璮	-13.8881
惱	-13.8882
斮	-13.8882
攩	-13.8883
珈	-13.8883
鰣	-13.8884
崢	-13.8884
䓻	-13.8884
螂	-13.8885
䌓	-13.8887
栨	-13.8887
鱣	-13.8889
碇	-13.8895
姞	-13.8895
郳	-13.8897
趄	-13.8899
饊	-13.8908
鑷	-13.8927
膢	-13.9285
􁀁	-13.9298
轤	-13.9303
堝	-13.9308
霦	-13.9308
柸	-13.9309
鬌	-13.9309
檇	-13.9309
窀	-13.931
骹	-13.9312
腫	-13.9313
搒	-13.9314
濺	-13.9315
蚓	-13.9316
焱	-13.9316
吭	-13.9318
敭	-13.9318
恇	-13.9318
𣅿	-13.9319
翾	-13.932
訌	-13.932
麃	-13.932
㗖	-13.9321
盲	-13.9322
韘	-13.9322
杕	-13.9323
櫍	-13.9324
䥕	-13.9324
穯	-13.9324
癰	-13.9324
軔	-13.9324
慵	-13.9324
鷁	-13.9325
紲	-13.9327
愓	-13.9327
萎	-13.9327
藂	-13.9328
鶖	-13.9328
􁐍	-13.9329
觕	-13.9329
桉	-13.933
翃	-13.933
鈏	-13.933
総	-13.9331
抝	-13.9331
煴	-13.9331
継	-13.9332
馱	-13.9333
庣	-13.9333
鋈	-13.9334
玥	-13.9335
頵	-13.9336
薳	-13.9336
蕖	-13.9337
􁅰	-13.9337
螫	-13.9337
螢	-13.9337
蓏	-13.934
鸇	-13.9342
埈	-13.9344
屣	-13.9345
鈵	-13.935
蟆	-13.935
湳	-13.9355
籧	-13.9356
鏟	-13.9361
挋	-13.9363
鈀	-13.9763
燖	-13.9765
梴	-13.9772
邅	-13.9776
奘	-13.9781
䙫	-13.9783
佘	-13.9783
鸝	-13.9784
洚	-13.9787
穸	-13.9788
􁱸	-13.9791
偬	-13.9792
嬛	-13.9792
樿	-13.9792
蹵	-13.9792
鉟	-13.9794
蘅	-13.9794
悸	-13.9795
禭	-13.9795
冣	-13.9796
鄹	-13.9796
槪	-13.9798
觽	-13.9799
彠	-13.9799
龐	-13.9799
遝	-13.9799
廋	-13.98
贋	-13.98
肓	-13.98
枅	-13.98
皚	-13.9801
垡	-13.9801
堧	-13.9802
睪	-13.9802
肪	-13.9802
醐	-13.9802
鑢	-13.9802
芘	-13.9803
慍	-13.9804
瞼	-13.9804
慼	-13.9805
嘶	-13.9805
疣	-13.9805
鬨	-13.9805
嬸	-13.9806
蝉	-13.9806
堋	-13.9806
匆	-13.9806
蕝	-13.9806
哂	-13.9807
爥	-13.9807
盬	-13.9808
瞑	-13.9808
䑸	-13.9809
飰	-13.9809
癭	-13.981
柙	-13.981
劎	-13.981
絣	-13.981
唳	-13.9811
旼	-13.9811
磡	-13.9811
墱	-13.9812
栴	-13.9812
羢	-13.9812
絍	-13.9812
瘟	-13.9812
担	-13.9813
秠	-13.9814
咤	-13.9814
搘	-13.9815
閷	-13.9815
徜	-13.9815
鵪	-13.9816
縓	-13.9817
吮	-13.9818
􁧝	-13.9819
噍	-13.9819
蚳	-13.9823
菇	-13.9828
廰	-13.9832
􁋑	-13.9834
嶓	-14.0253
营	-14.0279
淬	-14.0281
圑	-14.0281
怍	-14.0283
忸	-14.0284
餗	-14.0285
敶	-14.0286
楝	-14.0287
惸	-14.0287
􁆖	-14.0288
𪠘	-14.0289
戅	-14.0289
虙	-14.0291
愀	-14.0292
鷇	-14.0292
苒	-14.0293
褧	-14.0293
欷	-14.0294
漴	-14.0294
􁱑	-14.0294
蠖	-14.0295
溈	-14.0295
醻	-14.0295
灞	-14.0296
屭	-14.0297
娀	-14.0297
醳	-14.0298
蚍	-14.0299
􁌫	-14.0299
騧	-14.0299
奧	-14.03
惋	-14.0301
捋	-14.0301
嬾	-14.0301
旍	-14.0302
竚	-14.0302
踝	-14.0302
橰	-14.0302
瘵	-14.0302
籸	-14.0303
駣	-14.0303
钁	-14.0304
琤	-14.0305
緤	-14.0305
鬘	-14.0306
縕	-14.0306
曏	-14.0307
懟	-14.0307
抔	-14.0307
柚	-14.0309
嗔	-14.031
栒	-14.031
慱	-14.0312
瘍	-14.0313
捎	-14.0313
旞	-14.0313
冤	-14.0313
凸	-14.0313
䣃	-14.0313
菀	-14.0313
皴	-14.0314
幜	-14.0314
硨	-14.0315
磲	-14.0315
迆	-14.0316
􁕑	-14.0317
撣	-14.032
蚕	-14.0323
䳒	-14.0323
欑	-14.0324
韔	-14.0326
鄀	-14.0326
箍	-14.033
麂	-14.0331
袓	-14.0331
簀	-14.0332
銙	-14.0332
抨	-14.0346
嵋	-14.0801
鏻	-14.0802
沬	-14.0802
㸅	-14.0804
啗	-14.0805
堄	-14.0806
疹	-14.0812
嵸	-14.0814
泅	-14.0814
􁌆	-14.0816
繯	-14.0817
窝	-14.0817
諗	-14.0818
蜷	-14.0819
縯	-14.0819
珤	-14.0819
霙	-14.082
鳧	-14.082
嶻	-14.082
跼	-14.0821
廈	-14.0821
秈	-14.0821
躚	-14.0821
岧	-14.0821
憺	-14.0822
粕	-14.0822
媽	-14.0822
俑	-14.0823
墐	-14.0825
䌫	-14.0825
稈	-14.0825
砭	-14.0825
窴	-14.0825
腄	-14.0825
彄	-14.0825
紖	-14.0826
泖	-14.0828
竂	-14.0828
穪	-14.0828
逷	-14.0829
鯷	-14.083
圅	-14.083
靦	-14.0831
䴥	-14.0832
漑	-14.0832
确	-14.0832
沫	-14.0833
暍	-14.0833
點	-14.0834
觿	-14.0835
𤏡	-14.0835
袄	-14.0836
榑	-14.0836
棷	-14.0836
貭	-14.0836
澉	-14.0837
鍧	-14.0837
頳	-14.0838
淓	-14.0839
鐇	-14.0839
霰	-14.084
貮	-14.084
鵫	-14.084
瑢	-14.0841
霅	-14.0841
硐	-14.0844
囏	-14.0845
綅	-14.0845
絝	-14.0846
蛀	-14.0848
蠏	-14.0849
箝	-14.0851
堈	-14.0858
罃	-14.0865
􁶇	-14.0868
爌	-14.0868
􁕝	-14.0869
玗	-14.0874
堣	-14.0884
熑	-14.1343
浤	-14.1359
朅	-14.1362
鉝	-14.1364
洭	-14.1368
鳷	-14.1368
蹐	-14.137
带	-14.137
𥙷	-14.1371
睫	-14.1371
橄	-14.1371
寞	-14.1373
窅	-14.1373
捏	-14.1374
崒	-14.1374
㠄	-14.1374
蛉	-14.1375
禑	-14.1375
熇	-14.1376
唃	-14.1376
餔	-14.1376
䂎	-14.1376
歃	-14.1377
惨	-14.1377
椴	-14.1378
鞸	-14.1378
煊	-14.1378
誖	-14.1379
姸	-14.1379
彴	-14.1379
毌	-14.138
杝	-14.1381
湃	-14.1381
疢	-14.1381
櫈	-14.1381
侠	-14.1383
謇	-14.1383
辠	-14.1383
勳	-14.1384
矻	-14.1384
籜	-14.1384
箬	-14.1385
髳	-14.1385
幎	-14.1385
迕	-14.1385
溽	-14.1386
噢	-14.1386
呀	-14.1386
儇	-14.1386
䃮	-14.1387
窬	-14.1387
崈	-14.1387
錕	-14.1387
婭	-14.1388
鄾	-14.1389
􁚠	-14.1389
錝	-14.1389
瑵	-14.1389
眄	-14.1391
嘑	-14.1391
撟	-14.1391
膓	-14.1391
揵	-14.1392
栟	-14.1394
罌	-14.1394
虒	-14.1394
蠯	-14.1394
擂	-14.1397
厞	-14.1397
􁎾	-14.1398
崘	-14.1398
帢	-14.1402
洌	-14.1402
㭿	-14.1403
磝	-14.1404
脀	-14.1406
碻	-14.1406
韂	-14.1407
躊	-14.1408
猋	-14.1408
篓	-14.141
奶	-14.1414
燆	-14.1423
㰂	-14.1441
㭼	-14.1442
舀	-14.1469
鼃	-14.1927
埨	-14.1938
罾	-14.1941
敡	-14.1945
褍	-14.1949
衖	-14.1951
媾	-14.1951
嚬	-14.1952
絿	-14.1952
𥚹	-14.1953
閗	-14.1954
泆	-14.1954
蹉	-14.1956
牸	-14.1956
瘸	-14.1957
穠	-14.1958
耏	-14.1958
轔	-14.196
瘧	-14.196
鵜	-14.1962
崱	-14.1963
蒱	-14.1964
睚	-14.1964
歔	-14.1964
冑	-14.1965
􁀤	-14.1965
阸	-14.1965
棁	-14.1966
硜	-14.1966
韗	-14.1966
紤	-14.1967
凳	-14.1967
㮰	-14.1967
塙	-14.1967
贐	-14.1967
暱	-14.1967
趵	-14.1968
躓	-14.1968
鷓	-14.1968
韲	-14.1968
麰	-14.1968
尫	-14.1969
曮	-14.1969
嶪	-14.197
㶚	-14.1971
慳	-14.1971
瀨	-14.1971
軏	-14.1971
蚺	-14.1972
栳	-14.1972
䘵	-14.1972
嗛	-14.1972
睽	-14.1973
虯	-14.1973
暕	-14.1973
魋	-14.1974
眈	-14.1975
綣	-14.1975
斕	-14.1975
拶	-14.1976
戣	-14.1977
膩	-14.1977
愊	-14.1979
樉	-14.1979
椇	-14.1979
桚	-14.198
頮	-14.198
蹰	-14.198
椸	-14.198
疥	-14.198
儛	-14.1983
鄅	-14.1984
煢	-14.1984
衲	-14.1986
蓑	-14.1986
揪	-14.1987
芉	-14.1988
墢	-14.1988
橞	-14.1988
艟	-14.199
榨	-14.199
扭	-14.199
甖	-14.1991
旿	-14.1991
嘖	-14.1991
聒	-14.1992
鐻	-14.1993
璅	-14.1995
鏵	-14.1998
弢	-14.2001
鞢	-14.2005
洿	-14.2006
煚	-14.2008
緶	-14.2008
蠺	-14.2012
犵	-14.2018
䰛	-14.2036
堮	-14.2537
櫏	-14.2553
煐	-14.2568
湲	-14.257
塐	-14.2572
觖	-14.2573
掔	-14.2577
鏈	-14.2578
麐	-14.2578
呷	-14.258
䟆	-14.258
㴭	-14.2581
唅	-14.2582
瞶	-14.2582
鋷	-14.2582
髄	-14.2582
拚	-14.2582
縌	-14.2583
薁	-14.2584
惮	-14.2584
灧	-14.2585
擫	-14.2585
憨	-14.2585
丢	-14.2585
屩	-14.2585
凂	-14.2586
荇	-14.2586
嗾	-14.2587
屺	-14.2587
愞	-14.2587
祍	-14.2588
叫	-14.2589
塽	-14.2589
眦	-14.2589
淠	-14.259
㫋	-14.259
偝	-14.259
垿	-14.259
珝	-14.259
㵎	-14.2591
惚	-14.2591
鈁	-14.2592
棬	-14.2592
阹	-14.2592
鄽	-14.2593
嵕	-14.2593
蘤	-14.2594
檯	-14.2595
窽	-14.2595
鷀	-14.2595
􁇶	-14.2596
闞	-14.2596
嶔	-14.2597
嶒	-14.2597
邘	-14.2597
琉	-14.2597
歘	-14.2597
餵	-14.2598
悄	-14.2598
丰	-14.2599
髭	-14.2599
弈	-14.26
緈	-14.26
􁰹	-14.26
袡	-14.26
磕	-14.2601
琫	-14.2601
輇	-14.2601
鳪	-14.2601
􁃝	-14.2601
茴	-14.2601
􁆵	-14.2601
袜	-14.2601
剄	-14.2602
訇	-14.2602
簉	-14.2602
𣆀	-14.2602
餮	-14.2603
蝸	-14.2603
芄	-14.2603
渢	-14.2603
歹	-14.2604
棽	-14.2605
􁂰	-14.2605
喑	-14.2605
謜	-14.2605
飇	-14.2606
髢	-14.2606
癩	-14.2607
讖	-14.2608
鑅	-14.2608
獒	-14.2609
礁	-14.2611
􁣸	-14.2613
鞥	-14.2614
鋊	-14.2614
殀	-14.2614
􁆡	-14.2615
䮷	-14.2616
儡	-14.2616
壍	-14.2617
舃	-14.2617
騼	-14.2618
躇	-14.2619
梡	-14.2619
㲼	-14.262
簳	-14.262
勔	-14.2621
儤	-14.2624
鷃	-14.2624
珓	-14.2633
駪	-14.2633
㮇	-14.2635
蟇	-14.2637
箛	-14.2638
􁂺	-14.264
麹	-14.2646
􁕡	-14.2649
焌	-14.3206
樨	-14.3227
檳	-14.3231
𢾗	-14.3237
摴	-14.3237
遫	-14.3238
皺	-14.3239
逯	-14.3239
􁏊	-14.324
􁃽	-14.3241
玁	-14.3241
齕	-14.3242
焻	-14.3243
傕	-14.3243
玀	-14.3243
灕	-14.3244
嵂	-14.3245
萟	-14.3248
錧	-14.3253
鋦	-14.3253
旓	-14.3254
瞋	-14.3254
䖝	-14.3254
泂	-14.3256
韡	-14.3256
虓	-14.3256
檾	-14.3256
搤	-14.3257
皛	-14.3257
墭	-14.3257
歈	-14.3258
蔞	-14.3258
溍	-14.3259
噓	-14.326
觗	-14.326
癢	-14.326
茯	-14.326
躞	-14.3261
騢	-14.3261
咻	-14.3261
瑆	-14.3261
狆	-14.3262
墄	-14.3262
菼	-14.3262
腒	-14.3262
憸	-14.3263
睇	-14.3263
䀋	-14.3263
蚋	-14.3263
櫳	-14.3264
眎	-14.3265
頇	-14.3265
阽	-14.3265
橒	-14.3265
禒	-14.3265
綼	-14.3266
􁱰	-14.3267
僃	-14.3267
𤱔	-14.3267
唤	-14.3268
踟	-14.3268
嫪	-14.3269
􁎗	-14.3269
􁑵	-14.3269
晬	-14.327
蝟	-14.327
蜍	-14.3271
笭	-14.3271
蟈	-14.3272
􁅖	-14.3273
㰱	-14.3273
􁘦	-14.3273
柲	-14.3273
荑	-14.3273
嶁	-14.3275
愫	-14.3277
墺	-14.3278
鄶	-14.3279
輗	-14.328
槤	-14.3281
斝	-14.3282
􁉗	-14.3283
篹	-14.3283
壄	-14.3284
聱	-14.3284
㙩	-14.3285
萵	-14.3287
魃	-14.3289
㙜	-14.329
覜	-14.329
埢	-14.3291
摝	-14.3291
絕	-14.3293
劌	-14.3295
墼	-14.3295
筊	-14.3297
䵄	-14.33
靨	-14.3302
鷥	-14.3306
艚	-14.3308
鋙	-14.3309
􁕣	-14.331
􁕔	-14.3315
熨	-14.3923
烰	-14.3925
汞	-14.3936
鐩	-14.3941
䘺	-14.3948
竜	-14.395
劖	-14.3955
奝	-14.3956
絅	-14.3957
怩	-14.3957
歊	-14.3958
癖	-14.3958
崎	-14.3959
驒	-14.396
枘	-14.396
襂	-14.3961
蹁	-14.3962
鵶	-14.3962
囙	-14.3962
穅	-14.3962
醎	-14.3962
􁲵	-14.3962
簏	-14.3962
篲	-14.3965
亊	-14.3965
栐	-14.3965
崚	-14.3965
􁞡	-14.3965
􁲣	-14.3966
秕	-14.3967
賧	-14.3969
嘿	-14.3969
麀	-14.397
踔	-14.397
潪	-14.397
涔	-14.397
窨	-14.397
曀	-14.3971
粺	-14.3971
幵	-14.3971
捩	-14.3971
閌	-14.3972
桮	-14.3972
奫	-14.3972
㟃	-14.3972
姤	-14.3972
㬚	-14.3972
觹	-14.3973
倕	-14.3973
湓	-14.3974
姙	-14.3974
挩	-14.3974
愃	-14.3974
炘	-14.3975
拗	-14.3975
㬎	-14.3975
嘩	-14.3976
显	-14.3976
鏥	-14.3976
憮	-14.3976
熉	-14.3976
騋	-14.3977
􁨑	-14.3977
朡	-14.3977
氍	-14.3978
鄷	-14.3978
妒	-14.3979
噤	-14.3979
驎	-14.398
炰	-14.3981
鎪	-14.3981
芈	-14.3981
撇	-14.3981
凃	-14.3981
䄄	-14.3982
扐	-14.3982
膰	-14.3982
裯	-14.3982
欿	-14.3982
皐	-14.3983
剸	-14.3983
杴	-14.3984
鳲	-14.3984
胆	-14.3984
襮	-14.3986
飜	-14.3986
棜	-14.3987
轇	-14.3987
僸	-14.3988
傒	-14.3988
臋	-14.3989
霮	-14.399
珌	-14.399
􁂴	-14.399
鬐	-14.3991
䓤	-14.3991
蠒	-14.3991
幌	-14.3992
􁐠	-14.3992
漦	-14.3992
觳	-14.3992
咖	-14.3994
譊	-14.3994
儥	-14.3994
顕	-14.3994
羑	-14.3996
柤	-14.3997
颭	-14.3997
轕	-14.3998
橓	-14.3999
㶏	-14.3999
薯	-14.4
獾	-14.4004
縪	-14.4004
朒	-14.4017
鏺	-14.4019
愐	-14.4019
嘰	-14.4035
餃	-14.4038
􁨄	-14.4692
􁋆	-14.4694
􁄻	-14.4697
昷	-14.4698
娙	-14.4705
萯	-14.4705
豽	-14.4706
樻	-14.4707
㙉	-14.4712
臞	-14.4716
䴡	-14.4716
艧	-14.4717
囒	-14.4719
㙔	-14.4721
㙾	-14.4722
棆	-14.4725
暟	-14.4727
羕	-14.4727
䈼	-14.4729
􁧨	-14.4729
衩	-14.473
炟	-14.4731
蒗	-14.4731
儍	-14.4731
獼	-14.4732
澚	-14.4732
𫐠	-14.4733
葇	-14.4733
垤	-14.4733
攟	-14.4733
𢋫	-14.4733
鞗	-14.4734
淲	-14.4734
㬅	-14.4734
烄	-14.4734
燁	-14.4735
恝	-14.4735
剳	-14.4735
嚶	-14.4735
臙	-14.4736
􁄀	-14.4736
齗	-14.4736
􁎒	-14.4738
鈷	-14.4738
崮	-14.4739
蜻	-14.4739
傋	-14.4739
炌	-14.474
劘	-14.4741
櫚	-14.4741
侹	-14.4742
逑	-14.4742
痏	-14.4743
漭	-14.4744
蕾	-14.4745
洟	-14.4746
蜕	-14.4746
橇	-14.4746
燐	-14.4747
銼	-14.4747
舲	-14.4747
薧	-14.4748
􁗁	-14.4748
䑛	-14.4748
䕠	-14.4749
慫	-14.4749
噱	-14.4749
􁂎	-14.475
枿	-14.475
霣	-14.4751
捱	-14.4752
衊	-14.4753
􁛀	-14.4754
槓	-14.4756
坱	-14.4757
蛋	-14.4757
厹	-14.4757
􁁃	-14.4758
壐	-14.4758
膱	-14.4759
嶭	-14.476
嘷	-14.4762
叮	-14.4762
緖	-14.4763
爹	-14.4763
扯	-14.4764
亙	-14.4764
幍	-14.4765
艨	-14.4765
蜯	-14.4766
櫕	-14.4766
癈	-14.4767
捭	-14.4767
湆	-14.4767
禵	-14.4769
栭	-14.477
􁃛	-14.4775
咢	-14.4776
薥	-14.4777
渲	-14.4778
䵺	-14.4779
舋	-14.478
蝠	-14.478
麦	-14.4782
昰	-14.4786
鋏	-14.479
垼	-14.4793
炁	-14.4793
狫	-14.4798
酨	-14.48
叄	-14.4802
槏	-14.4816
謦	-14.5538
𬞞	-14.554
墦	-14.554
堀	-14.5542
􁃊	-14.5551
冞	-14.5553
犎	-14.5553
楡	-14.5556
靽	-14.5556
焆	-14.5557
歠	-14.5557
溠	-14.5558
􁀼	-14.5558
㘧	-14.5558
烆	-14.5559
垙	-14.556
綹	-14.556
伙	-14.556
薶	-14.556
痰	-14.5561
媢	-14.5561
㫄	-14.5561
坁	-14.5563
嵫	-14.5563
杇	-14.5563
柅	-14.5565
陝	-14.5565
孴	-14.5566
弅	-14.5567
䢵	-14.5568
蝮	-14.5569
艸	-14.5569
侫	-14.5569
鼏	-14.5569
胐	-14.5569
􁐓	-14.5571
忮	-14.5571
哦	-14.5572
尢	-14.5572
啾	-14.5572
􁆸	-14.5572
籹	-14.5572
跴	-14.5573
漼	-14.5573
跖	-14.5573
淼	-14.5573
鱻	-14.5574
骩	-14.5574
憃	-14.5574
禂	-14.5574
昝	-14.5575
艎	-14.5575
覼	-14.5575
狷	-14.5575
圁	-14.5575
蓻	-14.5575
儌	-14.5575
磉	-14.5575
嶕	-14.5576
􁒻	-14.5576
踧	-14.5577
峥	-14.5577
尨	-14.5577
􁶃	-14.5578
蓨	-14.5578
韆	-14.5578
溵	-14.5579
潬	-14.5579
豭	-14.5579
蛻	-14.5579
䘲	-14.5579
坳	-14.558
瀲	-14.558
豉	-14.5581
蘸	-14.5581
髲	-14.5582
庌	-14.5582
桼	-14.5583
釂	-14.5583
湝	-14.5583
𠢐	-14.5583
㕁	-14.5583
搉	-14.5583
䄠	-14.5584
庒	-14.5584
茈	-14.5584
崕	-14.5584
􁘭	-14.5584
跕	-14.5585
吒	-14.5585
騃	-14.5585
沗	-14.5585
蝎	-14.5586
蝴	-14.5586
黴	-14.5586
顢	-14.5586
􁪶	-14.5587
􁎱	-14.5587
烇	-14.5587
懘	-14.5587
玼	-14.5587
櫩	-14.5588
鏽	-14.5589
㺨	-14.5589
宂	-14.559
珫	-14.559
㔍	-14.559
棌	-14.5591
瑝	-14.5591
鶬	-14.5591
惔	-14.5591
薹	-14.5591
箈	-14.5592
禟	-14.5593
􁕏	-14.5593
􁊿	-14.5593
嘂	-14.5593
麑	-14.5594
窱	-14.5594
嶡	-14.5594
梲	-14.5594
佅	-14.5595
楶	-14.5596
繰	-14.5596
諢	-14.5597
耎	-14.5598
􁀥	-14.5599
响	-14.56
朥	-14.5601
岠	-14.5601
愖	-14.5601
㦲	-14.5602
熂	-14.5603
倔	-14.5604
癿	-14.5604
墝	-14.5604
拇	-14.5606
滽	-14.5606
爀	-14.5606
榰	-14.5607
烒	-14.5608
涞	-14.5609
篨	-14.5609
垻	-14.561
姫	-14.561
梈	-14.5611
塒	-14.5611
刵	-14.5612
棵	-14.5613
罋	-14.5616
渶	-14.5616
熼	-14.5617
瞢	-14.5622
櫸	-14.5625
偰	-14.5628
蕈	-14.5628
礶	-14.5633
埅	-14.5655
浰	-14.6427
沲	-14.6436
釨	-14.6447
屝	-14.6455
茢	-14.6455
飣	-14.6458
桭	-14.646
賺	-14.6461
塿	-14.6463
鎣	-14.6465
旤	-14.6469
湋	-14.6469
楘	-14.6469
磵	-14.6472
􁈊	-14.6472
􁅭	-14.6473
溳	-14.6473
蓯	-14.6473
𡑞	-14.6475
泔	-14.6475
鯖	-14.6475
􁧈	-14.6476
罥	-14.6476
圬	-14.6477
苢	-14.6477
縰	-14.6477
鰍	-14.6477
􁣼	-14.6478
挻	-14.6478
漵	-14.6478
糲	-14.6478
鬷	-14.6478
􁁂	-14.6478
砯	-14.6478
﨣	-14.6478
忉	-14.6479
癯	-14.6479
嗉	-14.648
蹹	-14.648
琲	-14.6481
淰	-14.6481
􁲻	-14.6481
檗	-14.6482
崦	-14.6482
哮	-14.6483
恟	-14.6483
黵	-14.6483
毊	-14.6483
蹏	-14.6483
颻	-14.6484
騪	-14.6484
垬	-14.6484
芣	-14.6485
窃	-14.6485
璡	-14.6485
擥	-14.6485
躑	-14.6485
袚	-14.6485
晣	-14.6485
摡	-14.6486
魍	-14.6486
乜	-14.6486
珹	-14.6487
侉	-14.6487
橡	-14.6487
沘	-14.6488
僢	-14.6488
踠	-14.6488
欖	-14.6488
鴇	-14.6488
貃	-14.6489
磷	-14.6491
捽	-14.6491
𠺕	-14.6491
駴	-14.6491
犙	-14.6491
戇	-14.6491
䏰	-14.6492
琵	-14.6492
匶	-14.6492
眢	-14.6493
閺	-14.6493
抓	-14.6493
抿	-14.6493
􁊯	-14.6494
鸕	-14.6494
檎	-14.6494
嗒	-14.6494
掐	-14.6494
襏	-14.6494
溼	-14.6494
䃁	-14.6494
腮	-14.6495
菘	-14.6495
霔	-14.6496
襕	-14.6496
𤬪	-14.6496
岊	-14.6496
􁥱	-14.6496
妮	-14.6496
嵳	-14.6497
鷸	-14.6497
篝	-14.6497
嗩	-14.6497
莧	-14.6498
垌	-14.6498
幧	-14.6498
􁔨	-14.6498
岣	-14.6499
縏	-14.6499
熞	-14.6499
戹	-14.6499
釪	-14.65
鴡	-14.65
囓	-14.6501
郏	-14.6501
埕	-14.6501
􁅔	-14.6501
侀	-14.6501
巃	-14.6502
霶	-14.6502
褏	-14.6502
嚀	-14.6503
悺	-14.6503
妁	-14.6503
𥿄	-14.6503
佼	-14.6504
鞕	-14.6504
欐	-14.6505
㒒	-14.6505
襆	-14.6505
鏳	-14.6506
嬀	-14.6506
鞌	-14.6506
欓	-14.6507
㮵	-14.6507
粞	-14.6507
蓤	-14.6508
匳	-14.6508
蔮	-14.6509
躶	-14.6509
潨	-14.651
堛	-14.651
潚	-14.6511
欏	-14.6511
菭	-14.6512
鞴	-14.6513
􁧉	-14.6516
欂	-14.6517
漩	-14.6517
䋿	-14.6517
蒢	-14.6519
揔	-14.652
暻	-14.652
苽	-14.652
戦	-14.6522
舷	-14.6523
窌	-14.6524
悁	-14.6524
穭	-14.6524
圌	-14.6525
􁐑	-14.6525
榼	-14.6531
齓	-14.6535
曚	-14.6539
􁨹	-14.6541
墌	-14.6541
蔻	-14.6541
䇾	-14.6553
瀞	-14.7411
􁕒	-14.7415
㷒	-14.7418
柂	-14.7438
蓘	-14.7441
脿	-14.7446
巇	-14.7447
蹛	-14.7451
􁒺	-14.7451
荈	-14.7457
柍	-14.7458
漎	-14.746
滰	-14.7461
屎	-14.7462
淒	-14.7462
尃	-14.7464
霨	-14.7465
顰	-14.7467
埰	-14.7467
鋩	-14.7469
襤	-14.747
俌	-14.747
陠	-14.747
晧	-14.7471
卍	-14.7472
昖	-14.7473
鑨	-14.7473
憗	-14.7473
讕	-14.7473
𣗳	-14.7473
㸬	-14.7474
藔	-14.7475
􁒊	-14.7475
忞	-14.7475
涍	-14.7475
穈	-14.7475
砑	-14.7476
嶐	-14.7476
眘	-14.7476
罡	-14.7476
嫖	-14.7476
墰	-14.7477
睎	-14.7477
鼊	-14.7478
唫	-14.7479
雺	-14.7479
茱	-14.7479
趼	-14.7479
楳	-14.7479
洨	-14.748
鞙	-14.748
􁰑	-14.748
侐	-14.748
儓	-14.7481
詼	-14.7481
浼	-14.7481
澘	-14.7481
鼘	-14.7482
鯈	-14.7482
哵	-14.7482
麊	-14.7482
𣢾	-14.7483
玹	-14.7483
儦	-14.7484
焄	-14.7484
籪	-14.7484
澷	-14.7484
樷	-14.7485
瞩	-14.7485
蛭	-14.7485
釱	-14.7486
儵	-14.7486
鱖	-14.7486
鋆	-14.7486
菶	-14.7486
櫋	-14.7488
晀	-14.7488
蝥	-14.7488
㶁	-14.7488
菠	-14.7488
甪	-14.7488
鈑	-14.7489
緺	-14.7489
􁈲	-14.749
蜩	-14.749
跧	-14.749
媸	-14.749
飪	-14.749
䔧	-14.749
萸	-14.749
􁫮	-14.749
樝	-14.749
櫪	-14.7491
暸	-14.7491
騣	-14.7492
􁏉	-14.7492
颿	-14.7494
砆	-14.7494
莓	-14.7494
紝	-14.7494
蟜	-14.7494
洤	-14.7495
碔	-14.7495
廧	-14.7495
麌	-14.7496
㡤	-14.7496
翖	-14.7496
䂊	-14.7496
戥	-14.7497
㠗	-14.7497
䍦	-14.7497
黾	-14.7497
蜓	-14.7498
霱	-14.7498
庹	-14.7498
擽	-14.7499
懊	-14.7499
荸	-14.7499
甋	-14.7499
旊	-14.7499
𧺫	-14.75
鯽	-14.75
覷	-14.75
翏	-14.7501
翛	-14.7501
􁚫	-14.7501
𠻳	-14.7501
帬	-14.7502
偭	-14.7502
悒	-14.7502
鍁	-14.7503
犨	-14.7503
􁅯	-14.7504
茝	-14.7505
踉	-14.7505
髏	-14.7505
豜	-14.7506
朙	-14.7506
螞	-14.7507
􁎲	-14.7507
輁	-14.7508
鑱	-14.7508
鄏	-14.7509
𫉬	-14.7509
倎	-14.7509
蕐	-14.751
閴	-14.7511
衹	-14.7511
赬	-14.7512
袿	-14.7512
猳	-14.7513
悱	-14.7513
瓀	-14.7515
䙱	-14.7515
昣	-14.752
靫	-14.7521
瘉	-14.7522
幓	-14.7522
獝	-14.7527
俴	-14.7532
㳋	-14.7533
窐	-14.7534
檡	-14.7536
檽	-14.7537
栘	-14.7549
􁎛	-14.756
沺	-14.8518
棅	-14.8533
埼	-14.8549
銶	-14.855
㷆	-14.8552
爔	-14.8553
禿	-14.8555
琭	-14.8557
􁬹	-14.8561
椐	-14.8563
祤	-14.8565
蓲	-14.8567
𨕖	-14.857
鱏	-14.8571
轙	-14.8572
㓛	-14.8574
懔	-14.8575
媼	-14.8575
昪	-14.8576
蕒	-14.8576
泙	-14.8577
騱	-14.8577
霡	-14.8579
狉	-14.8579
澒	-14.858
碞	-14.858
酵	-14.8581
嗈	-14.8581
撏	-14.8582
㸐	-14.8582
粆	-14.8582
薜	-14.8582
螗	-14.8582
歜	-14.8584
峿	-14.8584
􁆢	-14.8585
齷	-14.8585
􁐇	-14.8586
鈹	-14.8587
􁈯	-14.8587
鞈	-14.8587
釭	-14.8587
胋	-14.8588
臁	-14.8588
熥	-14.8588
潩	-14.8589
橔	-14.8589
僴	-14.8589
剟	-14.859
烴	-14.859
獧	-14.859
諐	-14.859
妯	-14.859
蝱	-14.859
㣶	-14.8591
呶	-14.8591
鴣	-14.8592
靸	-14.8593
枒	-14.8594
巣	-14.8594
曅	-14.8594
襧	-14.8594
􁍵	-14.8594
吚	-14.8596
吵	-14.8596
騅	-14.8596
倞	-14.8596
梇	-14.8596
箘	-14.8596
瘥	-14.8596
攦	-14.8596
晜	-14.8597
蝡	-14.8597
极	-14.8597
􁇡	-14.8597
痁	-14.8598
磜	-14.8598
庪	-14.8598
墖	-14.8598
滃	-14.8598
妊	-14.8599
蝨	-14.86
纆	-14.86
慓	-14.86
旵	-14.86
鎌	-14.86
赩	-14.86
㰖	-14.8601
揎	-14.8602
籋	-14.8602
圞	-14.8602
俅	-14.8603
袘	-14.8603
汦	-14.8603
伻	-14.8604
劚	-14.8604
紾	-14.8604
襫	-14.8604
惪	-14.8605
蜆	-14.8606
瀁	-14.8606
悪	-14.8606
𬒮	-14.8606
軓	-14.8606
㭬	-14.8606
萐	-14.8607
脖	-14.8607
㲪	-14.8608
跅	-14.8608
豝	-14.8609
芚	-14.8609
􁱵	-14.8609
斒	-14.8609
躒	-14.8609
笨	-14.8609
壒	-14.861
鐝	-14.861
炵	-14.8611
鐎	-14.8611
弨	-14.8611
堌	-14.8611
碙	-14.8612
娄	-14.8612
痴	-14.8612
旎	-14.8613
旖	-14.8613
鱸	-14.8613
卝	-14.8614
檛	-14.8614
胇	-14.8616
崿	-14.8617
䤩	-14.8617
緎	-14.8617
机	-14.8617
蒻	-14.8618
髑	-14.8619
瓆	-14.8619
焼	-14.862
瘤	-14.862
隝	-14.862
珧	-14.862
瓝	-14.8621
沄	-14.8621
稃	-14.8621
􁉕	-14.8621
澪	-14.8622
纑	-14.8622
赱	-14.8622
楀	-14.8623
㰇	-14.8624
􁦝	-14.8624
熜	-14.8625
耡	-14.8627
佷	-14.8627
倀	-14.8628
湨	-14.8629
麖	-14.8629
粼	-14.8631
鷴	-14.8632
气	-14.8632
霠	-14.8633
鬍	-14.8633
堘	-14.8633
挎	-14.8633
屓	-14.8636
騘	-14.8636
㖠	-14.8637
楑	-14.8639
􁐔	-14.865
􁕙	-14.865
􁕠	-14.865
摦	-14.8654
磶	-14.8662
䴬	-14.8662
橏	-14.8663
㶇	-14.8667
燏	-14.9734
埫	-14.9772
嫠	-14.9803
圛	-14.9803
瑈	-14.9804
㭊	-14.9807
姧	-14.9811
塉	-14.9811
垹	-14.9812
爁	-14.9815
傛	-14.9816
洓	-14.9816
㷫	-14.9817
咷	-14.9823
墫	-14.9825
埑	-14.9827
孌	-14.9828
礌	-14.9829
咋	-14.983
欱	-14.983
兟	-14.983
滍	-14.983
疻	-14.983
稡	-14.9831
瀺	-14.9831
堩	-14.9831
荚	-14.9832
昈	-14.9832
磎	-14.9833
㙨	-14.9833
妳	-14.9833
嶫	-14.9834
寠	-14.9834
艭	-14.9834
岨	-14.9835
梱	-14.9835
劻	-14.9836
篔	-14.9836
滈	-14.9836
肈	-14.9837
燋	-14.9837
杫	-14.9837
擰	-14.9837
㝛	-14.9838
涗	-14.9838
胗	-14.9838
敳	-14.9838
勱	-14.9838
䇲	-14.9838
庯	-14.9838
艅	-14.9838
唪	-14.984
惘	-14.984
楦	-14.984
痢	-14.984
䘚	-14.9841
皀	-14.9842
嬈	-14.9842
瘢	-14.9842
儳	-14.9842
㞕	-14.9843
憧	-14.9843
俔	-14.9843
罻	-14.9843
惷	-14.9843
幚	-14.9844
懬	-14.9844
壂	-14.9845
膷	-14.9845
嘍	-14.9846
碼	-14.9846
曛	-14.9846
秺	-14.9846
硠	-14.9847
熀	-14.9847
枃	-14.9847
昳	-14.9847
㴶	-14.9848
杗	-14.9849
幏	-14.9849
䖟	-14.9849
嵞	-14.9849
瀳	-14.985
䳓	-14.985
乕	-14.985
俐	-14.985
㒞	-14.9851
笤	-14.9851
䞓	-14.9851
苪	-14.9851
屼	-14.9852
䡾	-14.9853
皞	-14.9853
撎	-14.9853
厙	-14.9853
傎	-14.9853
摚	-14.9854
漅	-14.9854
汹	-14.9855
匴	-14.9855
弸	-14.9855
廯	-14.9856
瓿	-14.9856
晭	-14.9856
滮	-14.9856
痺	-14.9857
荽	-14.9857
焴	-14.9858
泃	-14.9858
櫆	-14.9859
呾	-14.9859
嫘	-14.9859
搯	-14.986
䪐	-14.9861
曣	-14.9862
喔	-14.9862
緁	-14.9863
惆	-14.9864
瑴	-14.9864
菡	-14.9864
䰞	-14.9864
惎	-14.9864
堁	-14.9866
䩴	-14.9866
紽	-14.9867
哱	-14.9867
㺐	-14.9867
猨	-14.9868
窊	-14.9871
塇	-14.9871
痤	-14.9872
翭	-14.9873
笓	-14.9873
狑	-14.9874
孃	-14.9874
埻	-14.9877
肂	-14.9877
昛	-14.9879
椓	-14.9881
圪	-14.9883
梆	-14.9884
埥	-14.9884
坅	-14.9885
烶	-14.9886
橺	-14.9888
乩	-14.9888
櫑	-14.9889
䐁	-14.9892
晸	-14.9893
犉	-14.9899
琁	-14.9905
㡘	-14.9935
􁕜	-15.2947
􁕤	-15.2948
倆	-15.2949
蟋	-15.295
撕	-15.2951
䃋	-15.2952
昄	-15.2953
髃	-15.2954
緙	-15.2955
嚈	-15.2956
蚄	-15.2957
㮮	-15.2958
􁕴	-15.2959
鑁	-15.296
蜈	-15.2961
輬	-15.2962
徬	-15.2963
婕	-15.2964
氌	-15.2965
瑇	-15.2966
糢	-15.2967
菻	-15.2968
猁	-15.2969
齟	-15.297
靂	-15.2971
霹	-15.2972
邂	-15.2973
蓿	-15.2974
媫	-15.2975
餑	-15.2976
衚	-15.2977
>	-15.2978
=	-15.2979
3	-15.298
"	-15.2981
录	-15.2981
