<unk>	0
<s>	0
</s>	0
之	-3.8023
而	-4.50802
也	-4.55796
爲	-4.81497
以	-4.83366
不	-4.85166
者	-4.8959
有	-4.96696
其	-5.10154
一	-5.11282
於	-5.18039
(	-5.1819
)	-5.18219
無	-5.21682
人	-5.25333
則	-5.32661
天	-5.44399
心	-5.48512
道	-5.53276
大	-5.53804
生	-5.54637
中	-5.63431
神	-5.66979
自	-5.67485
此	-5.68608
曰	-5.73041
得	-5.782
是	-5.80508
如	-5.82433
上	-5.83236
天尊大悲	-5.85397
行	-5.93189
眞	-5.94137
矣	-5.97779
在	-5.98096
言	-5.98965
▁	-6.0243
乎	-6.03393
至	-6.03914
三	-6.04191
子	-6.06728
故	-6.1063
卽	-6.12412
非	-6.13122
明	-6.14317
成	-6.1432
氣	-6.15991
與	-6.165
見	-6.17607
下	-6.18073
時	-6.18413
我	-6.18565
可	-6.1958
法	-6.22146
然	-6.2309
山	-6.24634
水	-6.24952
若	-6.25433
能	-6.258
相	-6.26407
所	-6.26412
知	-6.2744
身	-6.28285
亦	-6.28889
出	-6.29736
正	-6.31256
陽	-6.35448
日	-6.35863
火	-6.36938
乃	-6.37216
化	-6.37733
皆	-6.3867
來	-6.39187
事	-6.396
光	-6.41996
金	-6.42787
五	-6.43159
靈	-6.44217
地	-6.46884
用	-6.47393
仙	-6.47428
同	-6.48522
入	-6.4864
又	-6.48744
已	-6.48895
二	-6.49104
當	-6.49561
欲	-6.51772
德	-6.53617
善	-6.53824
經	-6.53824
名	-6.54109
合	-6.54309
何	-6.54614
陰	-6.56755
性	-6.57434
本	-6.58413
命	-6.58538
未	-6.59683
分	-6.59691
修	-6.6002
必	-6.60474
從	-6.6071
精	-6.61369
四	-6.61426
作	-6.61543
聖	-6.61712
方	-6.64203
元	-6.64839
九	-6.66255
處	-6.66487
通	-6.66616
後	-6.67108
物	-6.67131
玄	-6.67668
或	-6.67773
月	-6.67875
風	-6.69299
前	-6.7034
諸	-6.70575
功	-6.70872
常	-6.70996
萬	-6.71029
過	-6.71227
雲	-6.71336
復	-6.72028
難	-6.72092
將	-6.72602
安	-6.73551
吾	-6.73666
丹	-6.74069
盡	-6.74217
體	-6.74932
世	-6.76204
虛	-6.77004
玉	-6.77532
文	-6.7905
外	-6.79244
師	-6.79601
内	-6.79896
意	-6.80027
形	-6.803
今	-6.8034
惟	-6.81311
王	-6.8149
多	-6.82254
空	-6.82327
因	-6.82557
開	-6.82583
去	-6.82706
先	-6.84058
定	-6.84074
長	-6.8461
應	-6.85958
書	-6.85974
六	-6.86466
傳	-6.87221
立	-6.88842
歸	-6.88985
家	-6.89433
觀	-6.89516
夫	-6.8983
始	-6.90253
度	-6.90443
居	-6.90793
旣	-6.90924
實	-6.91137
使	-6.91412
動	-6.928
龍	-6.93199
理	-6.93311
石	-6.93688
死	-6.94137
淸	-6.94308
數	-6.94343
云	-6.94414
易	-6.94449
靜	-6.94583
炁	-6.94848
妙	-6.94974
流	-6.96634
雖	-6.97101
聞	-6.97207
君	-6.97709
不可	-6.98225
主	-6.99093
高	-6.99231
教	-6.99352
臣	-6.99501
全	-7.00286
公	-7.00589
求	-7.00611
帝	-7.0062
凡	-7.0108
門	-7.01366
年	-7.01561
天地	-7.03594
受	-7.04624
哉	-7.0484
不能	-7.05406
焉	-7.05654
小	-7.06049
莫	-7.06672
起	-7.07331
于	-7.07578
兩	-7.0789
重	-7.08506
發	-7.08879
謂	-7.09106
初	-7.09197
深	-7.09197
說	-7.09588
和	-7.10085
要	-7.10811
惡	-7.10903
洞	-7.11524
八	-7.12023
念	-7.12062
而不	-7.12738
極	-7.131
白	-7.13504
寶	-7.13598
守	-7.13787
天尊	-7.13934
運	-7.1495
福	-7.15004
存	-7.15339
由	-7.16069
飛	-7.16705
樂	-7.16913
及	-7.17449
字	-7.17655
百	-7.17979
思	-7.18033
耳	-7.18186
民	-7.18389
力	-7.19176
自然	-7.19247
會	-7.19297
不知	-7.20061
離	-7.20604
南	-7.20727
信	-7.2128
華	-7.22042
聲	-7.22258
取	-7.22603
終	-7.22722
音	-7.22808
願	-7.23329
利	-7.23672
所以	-7.23912
養	-7.24329
等	-7.25002
根	-7.25633
眾	-7.25986
情	-7.26285
老	-7.26522
七	-7.2656
符	-7.26568
猶	-7.2684
平	-7.27284
土	-7.28271
解	-7.28378
○	-7.28893
十	-7.28952
花	-7.30009
語	-7.30662
治	-7.30838
覺	-7.31191
志	-7.31825
還	-7.31898
色	-7.31936
隨	-7.32145
口	-7.3283
足	-7.329
且	-7.32996
結	-7.33461
義	-7.3426
祖	-7.34614
失	-7.34675
黃	-7.34885
遂	-7.35164
關	-7.35389
天下	-7.3637
固	-7.3664
降	-7.36822
好	-7.36994
位	-7.37025
西	-7.37167
千	-7.37614
宗	-7.38177
國	-7.38333
宜	-7.384
便	-7.38519
誠	-7.39429
微	-7.39561
轉	-7.39717
藥	-7.39865
木	-7.40373
問	-7.40761
海	-7.40973
藏	-7.41852
止	-7.41903
東	-7.42053
令	-7.42323
戒	-7.42331
異	-7.42527
所謂	-7.42669
更	-7.42998
煉	-7.43022
節	-7.43323
果	-7.43513
可以	-7.43699
女	-7.43846
直	-7.4398
廣	-7.44077
斯	-7.44119
遇	-7.44205
變	-7.44226
遠	-7.44258
息	-7.44483
望	-7.44753
照	-7.4494
星	-7.4508
母	-7.45081
章	-7.45169
致	-7.45314
少	-7.45322
司	-7.45765
學	-7.46087
陰陽	-7.46204
忘	-7.46472
保	-7.46481
乾	-7.46789
了	-7.47238
俱	-7.47473
著	-7.47723
佛	-7.48309
宫	-7.49168
士	-7.49341
悟	-7.49502
各	-7.4966
須	-7.49665
壇	-7.50036
交	-7.50077
彼	-7.50411
識	-7.505
恩	-7.50556
香	-7.50717
甚	-7.50725
苦	-7.51083
某	-7.51294
但	-7.51548
蓋	-7.52152
遊	-7.52247
周	-7.52248
象	-7.52887
機	-7.52904
獨	-7.52926
進	-7.53284
隱	-7.53516
親	-7.53671
往	-7.53825
永	-7.54117
到	-7.54131
達	-7.54618
太	-7.54704
登	-7.5472
邪	-7.54752
府	-7.548
塵	-7.54804
總	-7.54819
禮	-7.56763
目	-7.56788
眞人	-7.57019
頭	-7.57405
順	-7.5749
證	-7.57877
人之	-7.57881
宮	-7.57951
妄	-7.58312
敬	-7.59072
持	-7.59733
首	-7.59776
濟	-7.60059
以爲	-7.60121
古	-7.60346
伏	-7.60419
滿	-7.60434
官	-7.60572
原	-7.60906
稱	-7.61344
食	-7.61587
大道	-7.61681
春	-7.62074
都	-7.62183
尊	-7.62378
張	-7.62851
坐	-7.6305
屬	-7.63318
報	-7.63397
指	-7.634
罪	-7.63583
謂之	-7.6367
真	-7.63879
向	-7.64091
久	-7.64285
雨	-7.64329
鍊	-7.64365
靑	-7.64383
朝	-7.64583
間	-7.64746
舉	-7.64772
故曰	-7.65131
具	-7.65304
不得	-7.6547
愛	-7.65575
豈	-7.65609
仁	-7.65682
北	-7.66761
幽	-7.67027
境	-7.67155
勝	-7.67735
顯	-7.67755
手	-7.6804
江	-7.68597
雷	-7.68657
反	-7.68728
右	-7.69127
路	-7.69395
滅	-7.6952
先天	-7.69521
夜	-7.69531
視	-7.69861
之所	-7.69989
請	-7.70279
貴	-7.70508
緣	-7.70969
一切	-7.71007
奉	-7.71633
依	-7.71891
幾	-7.7209
似	-7.72219
坤	-7.7312
論	-7.73315
只	-7.74055
魔	-7.74178
源	-7.74184
施	-7.742
圓	-7.74388
乘	-7.74513
除	-7.74814
聽	-7.74962
病	-7.75517
殺	-7.75618
胎	-7.75848
漢	-7.75897
輕	-7.75934
臨	-7.76169
夀	-7.76222
勿	-7.76971
列	-7.77065
景	-7.77465
慈	-7.77558
圖	-7.77561
落	-7.77949
號	-7.77956
馬	-7.7818
爾	-7.7847
執	-7.78487
益	-7.78505
散	-7.79003
皇	-7.80064
亡	-7.80639
現	-7.80676
陳	-7.81084
業	-7.81637
制	-7.81702
窮	-7.81711
就	-7.81791
奇	-7.81805
鼎	-7.82374
興	-7.82673
尙	-7.82956
兮	-7.8326
記	-7.83279
消	-7.83301
予	-7.83343
參	-7.83586
加	-7.8417
威	-7.8438
詩	-7.84438
對	-7.84995
普	-7.85586
之道	-7.86043
害	-7.86264
斷	-7.86618
魂	-7.86651
仰	-7.86703
萬物	-7.86792
鬼	-7.87236
迷	-7.88172
積	-7.88181
聖人	-7.88202
亂	-7.88368
日月	-7.88378
太極	-7.88711
特	-7.88749
室	-7.88767
兵	-7.88891
超	-7.88993
任	-7.89345
虎	-7.90225
智	-7.90302
斗	-7.90438
集	-7.90539
城	-7.90933
感	-7.9103
容	-7.91147
。	-7.91256
孝	-7.91834
寒	-7.92048
尋	-7.92061
林	-7.92379
謹	-7.9261
端	-7.92734
太上	-7.92739
臺	-7.93034
住	-7.93329
半	-7.9336
紫	-7.93405
破	-7.93529
次	-7.93647
賢	-7.93743
如是	-7.9377
乾坤	-7.94152
父	-7.94508
曲	-7.94512
引	-7.94777
左	-7.94888
共	-7.94961
羣	-7.95013
絕	-7.95044
建	-7.9532
者也	-7.95423
造	-7.95476
之中	-7.95803
己	-7.95909
示	-7.96132
慧	-7.9651
類	-7.96833
傷	-7.96871
衣	-7.97199
齊	-7.97264
愚	-7.97323
承	-7.97831
疑	-7.97962
泉	-7.9871
新	-7.98872
秋	-7.99075
武	-7.99418
𡻕	-7.99746
强	-7.99852
羅	-8.0006
他	-8.00111
忽	-8.00245
返	-8.00317
再	-8.00474
留	-8.005
田	-8.00739
昔	-8.01145
清	-8.01202
金丹	-8.01272
備	-8.01337
星君	-8.01344
宣	-8.01544
服	-8.01727
退	-8.0186
升	-8.01939
堂	-8.01993
放	-8.02116
聚	-8.02402
鉛	-8.02639
州	-8.0284
垂	-8.02886
浮	-8.02887
並	-8.03216
救	-8.03297
統	-8.03311
夢	-8.03321
表	-8.03403
餘	-8.03914
漸	-8.04053
甯	-8.04111
美	-8.04339
切	-8.04471
⬤	-8.04493
懷	-8.05012
吉	-8.05447
含	-8.05507
齋	-8.05544
剛	-8.05629
卦	-8.05675
恐	-8.05687
長生	-8.05827
耶	-8.05956
遺	-8.06292
種	-8.06332
看	-8.06428
載	-8.06841
品	-8.07073
面	-8.07491
咸	-8.07559
赤	-8.0776
淨	-8.07847
汝	-8.07969
眞君	-8.07971
劫	-8.08164
無爲	-8.08456
拜	-8.08923
酒	-8.08953
珠	-8.08997
喜	-8.09258
授	-8.09311
愈	-8.09375
逆	-8.09421
俗	-8.09489
假	-8.09765
最	-8.10039
誰	-8.10654
期	-8.10787
接	-8.10856
坎	-8.11179
凝	-8.11278
待	-8.11351
近	-8.11453
良	-8.1157
貪	-8.11738
巳	-8.11831
儒	-8.11959
而後	-8.11989
部	-8.12107
歌	-8.12214
淫	-8.12246
笑	-8.12324
徒	-8.12426
昭	-8.12479
無所	-8.1273
谷	-8.12873
休	-8.12939
如此	-8.13023
舍	-8.13799
先生	-8.14074
許	-8.14173
露	-8.1465
震	-8.14674
災	-8.14914
回	-8.14928
弟子	-8.14981
步	-8.15553
旨	-8.15703
收	-8.15917
厯	-8.15925
每	-8.15968
申	-8.16276
延	-8.16325
採	-8.16335
設	-8.16371
篇	-8.16689
釋	-8.17219
素	-8.17484
忠	-8.17566
調	-8.1777
氏	-8.17789
狀	-8.17829
推	-8.18262
至於	-8.18616
之時	-8.18925
累	-8.18964
啟	-8.19019
竅	-8.19093
河	-8.19109
李	-8.19118
葢	-8.19408
黑	-8.19464
護	-8.20303
慶	-8.20654
裏	-8.21557
盛	-8.21785
喻	-8.22356
謝	-8.22553
樹	-8.22767
呼	-8.23133
勞	-8.23443
而爲	-8.23474
比	-8.23574
誦	-8.23741
注	-8.23933
客	-8.24009
想	-8.24199
光明	-8.24211
悉	-8.24302
柔	-8.24328
候	-8.24574
鶴	-8.24661
奏	-8.2484
勤	-8.24974
池	-8.25279
輔	-8.25332
序	-8.25427
之心	-8.25652
草	-8.25749
絶	-8.25924
私	-8.26497
典	-8.26559
疾	-8.26617
軍	-8.26681
堅	-8.26709
計	-8.26786
松	-8.26832
何以	-8.26934
余	-8.26956
貞	-8.27242
細	-8.27793
脫	-8.27839
刻	-8.27895
澤	-8.27962
眾生	-8.28049
血	-8.2812
察	-8.28142
適	-8.28305
影	-8.28447
告	-8.28615
演	-8.28725
獲	-8.28917
專	-8.28948
註	-8.28979
移	-8.29102
徹	-8.29452
庭	-8.2948
是以	-8.29685
辰	-8.30027
危	-8.30033
才	-8.30044
火候	-8.30131
巖	-8.30161
錄	-8.30191
補	-8.3033
亭	-8.30638
洪	-8.3064
棄	-8.30701
嘗	-8.30753
上帝	-8.30784
爭	-8.30847
嚴	-8.30866
辭	-8.30984
禪	-8.3113
密	-8.31253
冥	-8.31397
亮	-8.31774
帝君	-8.31778
禍	-8.31787
世人	-8.31909
峰	-8.32079
財	-8.32134
布	-8.32165
一日	-8.32396
曾	-8.32515
克	-8.32606
紅	-8.32714
訣	-8.32759
揚	-8.3276
爐	-8.32914
句	-8.33023
末	-8.33087
敢	-8.33107
領	-8.33115
器	-8.3341
界	-8.33411
功德	-8.3364
眼	-8.33921
僧	-8.34068
車	-8.34105
劉	-8.34294
九天	-8.3434
造化	-8.34359
詞	-8.34583
喪	-8.34923
輪	-8.34953
殿	-8.35185
代	-8.35268
波	-8.35296
急	-8.35534
質	-8.35658
盈	-8.35813
汞	-8.35947
遍	-8.36131
侯	-8.3616
走	-8.36222
朱	-8.36234
宿	-8.3636
幸	-8.3637
顧	-8.36681
君子	-8.36841
的	-8.36871
牛	-8.37052
召	-8.37237
骨	-8.37328
別	-8.37473
卻	-8.37479
水火	-8.37536
敗	-8.37563
神仙	-8.37598
之功	-8.37609
御	-8.37854
舊	-8.37908
卷	-8.37951
貫	-8.38015
是也	-8.38091
於此	-8.38134
驚	-8.38307
魚	-8.38406
厚	-8.38412
霞	-8.38458
劍	-8.38493
慮	-8.38617
損	-8.38901
患	-8.38926
祈	-8.38981
中有	-8.39275
工	-8.39429
資	-8.39441
弗	-8.39528
畫	-8.39596
純	-8.39702
戰	-8.39822
維	-8.39826
游	-8.40035
蜀	-8.40313
習	-8.40528
負	-8.40716
寂	-8.40837
濁	-8.4088
之理	-8.40917
遷	-8.41036
吳	-8.41283
惠	-8.41426
術	-8.41548
被	-8.41737
攝	-8.41739
務	-8.42119
無極	-8.42384
其所	-8.42522
抱	-8.42647
䝉	-8.4271
生死	-8.42833
雪	-8.42876
魄	-8.42979
殊	-8.43097
默	-8.43146
樓	-8.43338
勢	-8.43352
碧	-8.43359
政	-8.43437
省	-8.43631
連	-8.43645
變化	-8.43938
五行	-8.44216
元始	-8.44332
按	-8.44527
訓	-8.44701
童	-8.44749
崇	-8.44844
掌	-8.44867
充	-8.44947
速	-8.45432
於是	-8.45588
之間	-8.45682
鼓	-8.4605
十方	-8.46179
竹	-8.46214
障	-8.46417
十二	-8.46708
鎭	-8.46854
縱	-8.47056
紀	-8.47076
鳥	-8.47086
而無	-8.47559
投	-8.47643
榮	-8.48004
點	-8.48006
寺	-8.48073
不見	-8.48086
天地之	-8.48096
工夫	-8.48125
舟	-8.48155
談	-8.48193
拔	-8.48239
淵	-8.48246
况	-8.48273
詳	-8.48307
里	-8.48357
權	-8.48458
孤	-8.48468
封	-8.48512
昏	-8.49373
漏	-8.49382
羽	-8.49434
提	-8.49567
而已	-8.49879
勸	-8.5
兆	-8.50003
房	-8.50146
鳴	-8.50189
基	-8.50283
庶	-8.50324
逐	-8.50471
後天	-8.50576
逢	-8.50702
量	-8.50718
泰	-8.50796
頂	-8.51067
薦	-8.51106
育	-8.51253
溪	-8.51349
諸天	-8.51384
凶	-8.51402
朗	-8.51488
儀	-8.51504
無不	-8.51585
味	-8.5178
父母	-8.51899
幻	-8.51944
蒼	-8.51962
吟	-8.52005
為	-8.52108
簡	-8.52115
透	-8.52246
甲	-8.52456
混	-8.52546
偏	-8.52562
夏	-8.52591
,	-8.52639
刑	-8.52875
囘	-8.53102
惑	-8.53348
祥	-8.53422
野	-8.5389
有所	-8.53906
旋	-8.5399
三界	-8.54071
畢	-8.54197
腎	-8.54383
縣	-8.54467
閉	-8.5456
無量	-8.5504
駕	-8.5506
辨	-8.55062
包	-8.55203
雜	-8.55215
謀	-8.55299
否	-8.55399
性命	-8.5555
不敢	-8.55767
孫	-8.55858
侍	-8.5591
之妙	-8.5599
仍	-8.56209
免	-8.56227
考	-8.56385
道之	-8.56395
薄	-8.5652
愼	-8.5669
繼	-8.56742
怒	-8.5682
卽是	-8.56841
鸞	-8.57066
靈寶	-8.57153
伯	-8.57194
把	-8.57243
畏	-8.57277
陵	-8.5756
廟	-8.57565
干	-8.57753
越	-8.57898
讀	-8.57963
醮	-8.58132
苟	-8.58184
之氣	-8.582
尤	-8.58208
閒	-8.58306
俯	-8.58607
瓊	-8.5864
題	-8.58805
憂	-8.58872
曹	-8.58921
融	-8.58938
科	-8.58996
上下	-8.59251
壁	-8.5947
奪	-8.59544
暗	-8.5962
鑒	-8.59658
覆	-8.59686
兼	-8.59938
跡	-8.60174
也故	-8.60602
雙	-8.60863
希	-8.61154
井	-8.61186
均	-8.61202
友	-8.61357
折	-8.61376
疏	-8.61566
午	-8.61852
賜	-8.62141
盜	-8.62199
銀	-8.62337
唐	-8.62418
律	-8.6242
悲	-8.62774
吏	-8.63012
筆	-8.63014
一點	-8.63201
無窮	-8.63305
增	-8.63504
然後	-8.63653
途	-8.63668
衞	-8.63681
塞	-8.63874
試	-8.63882
青	-8.63891
而成	-8.6391
昌	-8.63946
無上	-8.64082
條	-8.64096
迎	-8.64215
英	-8.64388
違	-8.64412
傾	-8.64415
嗣	-8.64676
翁	-8.64729
渾	-8.64923
完	-8.64972
秘	-8.65327
恭	-8.65336
際	-8.65391
淸淨	-8.65392
助	-8.6554
早	-8.65735
叩	-8.65741
男	-8.66082
富	-8.66132
不足	-8.66228
梵	-8.66498
昇	-8.66583
活	-8.66587
置	-8.66634
徑	-8.66643
履	-8.66813
得道	-8.66919
賊	-8.67015
悔	-8.67124
讚	-8.67264
虛無	-8.67652
之後	-8.67765
大帝	-8.67792
那	-8.67959
呼吸	-8.68118
一念	-8.68148
之意	-8.68215
人間	-8.68325
籍	-8.68357
據	-8.68369
之士	-8.68485
哀	-8.68485
職	-8.6855
蕩	-8.68696
沙	-8.68699
橋	-8.68715
究	-8.68871
約	-8.68878
鳳	-8.6909
道德	-8.69294
效	-8.69445
沈	-8.69448
葉	-8.69671
枯	-8.69868
墮	-8.69971
竟	-8.70203
枝	-8.70205
倫	-8.7021
燈	-8.70262
肅	-8.70431
其心	-8.70485
之法	-8.70532
之人	-8.70579
差	-8.7059
賴	-8.70825
梁	-8.70986
秀	-8.71031
魏	-8.71378
鬼神	-8.71489
穴	-8.71542
玉帝	-8.71881
川	-8.72081
犯	-8.72189
慾	-8.72285
巧	-8.72311
坎離	-8.72344
納	-8.7238
咒	-8.72436
兒	-8.72549
怨	-8.72602
沉	-8.72944
醉	-8.73015
改	-8.73177
欺	-8.7334
管	-8.7338
泥丸	-8.73565
之事	-8.7358
兌	-8.73703
勅	-8.7383
憑	-8.73999
險	-8.74012
翠	-8.74013
橫	-8.74163
宏	-8.74193
規	-8.74377
毋	-8.74567
丁	-8.74754
烟	-8.74759
背	-8.74954
懸	-8.75373
史	-8.75514
着	-8.75624
滯	-8.75777
人也	-8.75892
寡	-8.75934
斬	-8.76017
院	-8.76067
慈悲	-8.7623
戸	-8.7631
格	-8.76365
烏	-8.764
金闕	-8.76403
第一	-8.76525
腹	-8.76551
印	-8.76569
貧	-8.76575
禁	-8.76578
卒	-8.76786
湖	-8.76801
無形	-8.76942
偶	-8.7702
寄	-8.77029
防	-8.77607
契	-8.77609
潛	-8.77832
扶	-8.77873
天下之	-8.7789
純陽	-8.77931
液	-8.77991
爰	-8.78042
伏願	-8.78063
產	-8.78074
盤	-8.78222
即	-8.78476
中之	-8.78642
茲	-8.78656
借	-8.7866
冠	-8.78792
遵	-8.78875
追	-8.7894
綱	-8.79071
鏡	-8.79105
毒	-8.7928
而生	-8.79555
祖師	-8.79566
楊	-8.79725
人心	-8.79772
又曰	-8.79785
其中	-8.79815
寸	-8.80112
二十	-8.80264
大聖	-8.80295
爻	-8.80365
道人	-8.80434
操	-8.80465
巽	-8.80543
避	-8.8055
不過	-8.80653
亦不	-8.80762
祠	-8.80832
曉	-8.81006
俾	-8.81248
淺	-8.81379
驗	-8.81457
煙	-8.81472
太虛	-8.81741
元神	-8.81796
庸	-8.8187
嶽	-8.81874
甘	-8.82007
之則	-8.82163
勇	-8.82322
徐	-8.82487
孰	-8.82565
宇	-8.82566
不爲	-8.82571
座	-8.82802
不同	-8.82908
宋	-8.82957
營	-8.83017
昧	-8.83101
惜	-8.83255
便是	-8.83597
馳	-8.83608
邱	-8.83611
做	-8.83813
北斗	-8.84229
懼	-8.8428
得其	-8.84325
尺	-8.84402
錯	-8.84478
地獄	-8.84482
閣	-8.84537
役	-8.84681
冲	-8.84695
附	-8.84728
訪	-8.84744
津	-8.84759
率	-8.84958
宅	-8.85196
祀	-8.85208
闡	-8.8533
之炁	-8.85345
從此	-8.85748
不可以	-8.85876
闕	-8.85921
咎	-8.86046
衰	-8.86294
隆	-8.86307
刼	-8.86346
循	-8.86492
案	-8.86608
瞻	-8.8676
之謂	-8.86813
派	-8.86815
澄	-8.86838
知其	-8.86901
竊	-8.86963
僞	-8.87191
罔	-8.87211
胡	-8.87414
孔	-8.87485
往來	-8.87538
修行	-8.87591
像	-8.87702
係	-8.87712
天仙	-8.87735
丈	-8.8787
尅	-8.87904
這	-8.88087
如何	-8.881
鄉	-8.88125
道者	-8.88196
言之	-8.88261
鐵	-8.88389
愆	-8.88391
徧	-8.88403
贊	-8.88409
纔	-8.88587
送	-8.88628
左右	-8.88709
壯	-8.88802
怪	-8.89067
招	-8.89073
勉	-8.89227
配	-8.89375
陣	-8.8949
錫	-8.89513
錢	-8.89759
帶	-8.90051
烈	-8.90206
拘	-8.90257
詔	-8.90265
精神	-8.90361
姑	-8.90451
厥	-8.9048
峯	-8.90529
輝	-8.90743
吐	-8.90948
庚	-8.91153
暮	-8.91443
毫	-8.91511
彌	-8.91613
冀	-8.91636
冬	-8.9164
環	-8.91649
頓	-8.91842
鄕	-8.91889
生於	-8.92267
趨	-8.92339
誤	-8.92376
是爲	-8.9238
映	-8.92455
今日	-8.92671
富貴	-8.92675
子曰	-8.9268
牒	-8.92698
冷	-8.92882
虛空	-8.92953
弱	-8.93015
抑	-8.93059
崖	-8.93146
夕	-8.93324
停	-8.9336
潤	-8.93379
无	-8.93521
潔	-8.93595
穢	-8.93628
逸	-8.93815
彰	-8.93842
第	-8.93991
神通	-8.94139
議	-8.94285
浪	-8.94356
遣	-8.94566
龍虎	-8.94648
種種	-8.94658
廢	-8.94747
菴	-8.94811
驅	-8.94817
獻	-8.94828
稍	-8.94849
伐	-8.94975
邊	-8.94992
供	-8.95282
秉	-8.95292
箇	-8.95344
籙	-8.95364
吿	-8.95576
蓮	-8.95612
不動	-8.95785
舞	-8.95816
三十	-8.95831
染	-8.95966
丹田	-8.96
之精	-8.96037
温	-8.96122
蛇	-8.96241
本來	-8.96285
祿	-8.96287
唯	-8.96288
淡	-8.96325
還丹	-8.96504
熟	-8.96515
仲	-8.96548
猛	-8.96554
必有	-8.96571
兹	-8.96604
認	-8.96713
霄	-8.96715
也此	-8.96929
學者	-8.96967
寓	-8.97256
禱	-8.97291
仗	-8.97396
以此	-8.97617
身心	-8.97678
舌	-8.97841
虧	-8.98009
神明	-8.98284
享	-8.98334
賦	-8.98341
别	-8.98453
一時	-8.9853
辛	-8.9856
敷	-8.98614
答曰	-8.98733
迴	-8.98854
黃庭	-8.98971
仁義	-8.99028
賓	-8.99079
底	-8.9915
飲	-8.99267
隔	-8.99283
之義	-8.9941
辱	-8.99473
寅	-8.99616
妻	-8.99644
赦	-8.99648
動靜	-8.99839
溺	-8.9984
自有	-8.99967
堪	-9.00063
出入	-9.00335
妖	-9.004
度人	-9.00534
婦	-9.00591
艮	-9.00599
鍾	-9.0064
顏	-9.00651
渡	-9.00661
説	-9.00708
忍	-9.0077
侵	-9.009
不離	-9.00908
輩	-9.00916
四時	-9.00957
騰	-9.01108
殘	-9.01177
學道	-9.01195
市	-9.0141
天道	-9.01439
仙佛	-9.01616
程	-9.0171
稽首	-9.01796
晉	-9.01934
者不	-9.01972
大藥	-9.02025
墨	-9.02168
岸	-9.02202
功夫	-9.02391
悅	-9.02441
狂	-9.02478
徵	-9.02521
迹	-9.02711
晨	-9.02767
孔明	-9.02909
爽	-9.02963
雄	-9.03016
聖賢	-9.03036
費	-9.03258
答	-9.03373
道也	-9.03411
厄	-9.03437
宰	-9.03575
康	-9.03576
也夫	-9.0359
陶	-9.03591
炎	-9.03595
第十	-9.03596
元帥	-9.03615
三元	-9.03836
響	-9.03854
内外	-9.03855
旁	-9.03994
將軍	-9.04086
巨	-9.04135
十五	-9.04322
振	-9.04373
曜	-9.04385
一身	-9.04613
暴	-9.04619
述	-9.0468
醫	-9.04751
身中	-9.04798
翼	-9.04877
柳	-9.04949
夷	-9.05068
然而	-9.05073
吸	-9.05111
肝	-9.05194
園	-9.05202
未嘗	-9.05202
姓	-9.05229
錦	-9.0555
則有	-9.05641
玉淸	-9.05694
佐	-9.05711
無有	-9.05715
郡	-9.0576
世間	-9.05783
人身	-9.05931
桃	-9.0595
鼻	-9.05951
龜	-9.06016
鬱	-9.0603
綠	-9.06121
觸	-9.06272
楚	-9.06272
短	-9.06296
十月	-9.06366
三教	-9.06709
算	-9.06791
天之	-9.06872
也然	-9.07046
晦	-9.07097
監	-9.07112
判	-9.0713
并	-9.0714
霜	-9.0718
玉皇	-9.07253
蔽	-9.07361
壞	-9.07369
此心	-9.07861
一心	-9.07945
講	-9.07954
擊	-9.0796
豐	-9.07977
二字	-9.08017
是謂	-9.08018
嬰兒	-9.08236
索	-9.08261
乞	-9.08267
付	-9.0829
世之	-9.08292
自在	-9.08711
諸子	-9.08721
酬	-9.08795
赴	-9.08878
之機	-9.08953
大天尊	-9.09213
也若	-9.09344
耀	-9.09555
荒	-9.09637
輿	-9.09666
屋	-9.09676
詣	-9.09678
燭	-9.09964
續	-9.10238
導	-9.10296
趣	-9.10523
毛	-9.10524
脈	-9.10528
滋	-9.10559
於人	-9.10754
是非	-9.10967
困	-9.11054
卑	-9.11065
片	-9.1107
範	-9.11135
亨	-9.11383
麗	-9.11402
闢	-9.11408
植	-9.11421
戲	-9.11437
謁	-9.11443
瑞	-9.1145
人能	-9.11551
亥	-9.11685
竭	-9.11738
貌	-9.11944
允	-9.12029
摩	-9.12246
蟲	-9.12293
之神	-9.12537
者有	-9.1254
壺	-9.12615
不必	-9.12809
者皆	-9.12997
琴	-9.13178
舒	-9.1319
不及	-9.13474
象曰	-9.13589
阿	-9.13838
三寶	-9.13958
亦有	-9.14013
雞	-9.14032
㪚	-9.14062
略	-9.14081
披	-9.14097
而不知	-9.1412
之象	-9.14124
名曰	-9.14164
孚	-9.14218
之用	-9.1432
沐浴	-9.14423
經云	-9.14439
焚	-9.14565
恒	-9.14617
蓬	-9.14653
此經	-9.14685
此言	-9.14701
佑	-9.14738
樸	-9.1489
域	-9.14974
角	-9.14979
敵	-9.15172
儉	-9.15184
洩	-9.15224
痛	-9.15269
子孫	-9.15272
珍	-9.15275
彩	-9.15296
者亦	-9.15369
覩	-9.15553
上淸	-9.15583
嘉	-9.15583
砂	-9.15615
嶺	-9.15648
牽	-9.15842
奚	-9.15853
之體	-9.15987
謙	-9.16027
酉	-9.1614
階	-9.16191
太陽	-9.16272
陽神	-9.16405
繫	-9.16455
顚倒	-9.16462
何處	-9.16488
憫	-9.16512
𡨚	-9.16539
慕	-9.16758
小人	-9.1696
用之	-9.1708
眞炁	-9.17203
羊	-9.1732
藉	-9.17394
奔	-9.17411
愁	-9.17424
爲一	-9.17451
啓	-9.17459
弘	-9.17487
毁	-9.17675
秦	-9.17712
醒	-9.17732
倚	-9.1775
智慧	-9.17795
者必	-9.17898
化爲	-9.17968
旦	-9.18025
商	-9.18046
玅	-9.1809
周天	-9.18153
凡夫	-9.18271
知之	-9.18349
由是	-9.18419
人人	-9.18488
刀	-9.18596
燕	-9.18644
綿	-9.18665
天上	-9.18754
夫人	-9.18815
三稱	-9.18875
博	-9.18919
旡	-9.19236
泥	-9.19265
遲	-9.19279
髮	-9.19302
不生	-9.1938
是故	-9.19409
篆	-9.19447
窺	-9.19616
其身	-9.19627
救苦	-9.19744
擾	-9.19823
混沌	-9.19866
打	-9.19881
鐘	-9.19916
責	-9.20117
匪	-9.20217
䖍	-9.2023
可見	-9.20315
紛	-9.20347
攻	-9.20477
之際	-9.20483
三十六	-9.20636
玉皇大天尊玄穹高上帝	-9.20743
鮮	-9.20834
沾	-9.20855
式	-9.21247
道士	-9.21349
殆	-9.2145
衍	-9.21557
歎	-9.2156
誥	-9.21855
之上	-9.21952
無心	-9.22006
弟	-9.22196
厭	-9.2222
呂	-9.22281
虞	-9.22448
矜	-9.22452
卿	-9.22461
修道	-9.22638
岳	-9.22649
淸靜	-9.22678
武侯	-9.2283
曰吾	-9.22897
元君	-9.22952
億	-9.23018
尾	-9.23035
僅	-9.23103
先主	-9.23163
賤	-9.2338
京	-9.23385
懴	-9.23397
個	-9.23505
一事	-9.23654
般	-9.23804
逍遙	-9.23815
磨	-9.23819
夙	-9.23837
男女	-9.2393
三年	-9.23954
三千	-9.23979
烹	-9.24029
圓滿	-9.24042
肉	-9.24058
八卦	-9.2407
古今	-9.24078
支	-9.24086
之說	-9.24152
祝	-9.24152
則爲	-9.24203
至道	-9.24243
陸	-9.24246
網	-9.24409
i	-9.24514
有爲	-9.24529
不然	-9.24546
本無	-9.2464
躬	-9.24739
燒	-9.24777
倒	-9.2479
則不	-9.24855
孔子	-9.24888
之門	-9.2504
玉清	-9.25146
校	-9.25151
太和	-9.25342
掃	-9.2538
屏	-9.25446
霧	-9.25462
吞	-9.2547
不在	-9.25587
有餘	-9.25649
衡	-9.25782
蘭	-9.25803
修眞	-9.25885
吹	-9.25917
採取	-9.25959
有一	-9.25965
亦無	-9.25986
嘆	-9.26099
策	-9.26118
閑	-9.26144
騎	-9.26155
獄	-9.26237
畜	-9.26401
屈	-9.26449
解脫	-9.26472
分明	-9.26579
道君	-9.26764
擇	-9.26782
之内	-9.26858
呈	-9.26859
決	-9.27123
棲	-9.2714
班	-9.27225
此一	-9.2728
大洞	-9.27325
忌	-9.27437
不用	-9.27446
圍	-9.27455
祕	-9.27793
鴻	-9.27837
之德	-9.27927
洗	-9.28086
恃	-9.28104
捨	-9.28122
之初	-9.28268
審	-9.28486
殃	-9.28511
倘	-9.28512
訟	-9.28524
時時	-9.28621
)(	-9.28756
符命	-9.28779
至尊	-9.28805
遭	-9.28831
弄	-9.28844
芳	-9.28874
肺	-9.28898
潭	-9.28941
廬	-9.28953
妙道	-9.29014
白雲	-9.29291
元炁	-9.29352
等至心皈命禮願	-9.29397
無邊	-9.29735
㝠	-9.29905
歸於	-9.2997
出於	-9.30208
云云	-9.30238
不出	-9.30295
而有	-9.3045
戀	-9.30567
射	-9.3059
萌	-9.30594
者非	-9.30606
不如	-9.30753
以其	-9.30794
耗	-9.30926
米	-9.30945
不死	-9.31162
穿	-9.3126
芝	-9.31297
蕭	-9.31336
一人	-9.31352
有形	-9.31447
穀	-9.31515
預	-9.31646
電	-9.31702
培	-9.31708
天機	-9.31725
世界	-9.31804
爲人	-9.31826
湯	-9.31931
趙	-9.31993
涉	-9.3202
之地	-9.32035
未有	-9.32056
藴	-9.32058
齒	-9.32065
二十四	-9.32414
叨	-9.32768
眞陽	-9.32818
各有	-9.32841
物之	-9.32847
不言	-9.3286
肆	-9.3307
幼	-9.33121
泛	-9.33121
北方	-9.33325
於天	-9.33416
缺	-9.3343
朔	-9.33506
孟	-9.33564
老子	-9.33601
莫不	-9.3363
黃帝	-9.33639
祗	-9.33754
癸	-9.3377
軒	-9.33863
玉女	-9.33894
互	-9.33933
方能	-9.34226
足以	-9.34465
可謂	-9.34606
生生	-9.34789
肯	-9.34858
逃	-9.34884
禳	-9.34891
天人	-9.34929
憐	-9.34945
妙用	-9.34982
桂	-9.34991
至此	-9.35185
探	-9.35301
層	-9.35319
晝夜	-9.35372
歡	-9.35541
曷	-9.35618
煩	-9.35641
搖	-9.35684
恨	-9.35692
削	-9.35696
動而	-9.35697
晚	-9.3573
而不能	-9.3577
限	-9.35824
豫	-9.3598
太乙	-9.35987
較	-9.35991
誅	-9.36025
嗟	-9.36133
五十	-9.3623
雖有	-9.36261
一陽	-9.36345
豈不	-9.36375
飄	-9.36397
函	-9.36452
又何	-9.36565
無非	-9.36703
魯	-9.36734
者爲	-9.36873
古人	-9.36891
靖	-9.37124
西方	-9.37155
減	-9.37163
韻	-9.3722
杖	-9.37223
遙	-9.37246
飛昇	-9.37323
人生	-9.37342
天心	-9.37537
眉	-9.37559
者卽	-9.37581
後世	-9.37677
賞	-9.37899
耕	-9.37922
郭	-9.37934
饑	-9.37944
亦可	-9.38024
元氣	-9.38165
紫微	-9.38192
顚	-9.38297
伸	-9.38299
單	-9.38344
翻	-9.38357
得此	-9.38374
與人	-9.38391
眞鉛	-9.3843
草木	-9.38468
是經	-9.38598
一炁	-9.38618
委	-9.38633
拂	-9.38675
編	-9.38745
司命	-9.38831
人所	-9.38928
之言	-9.38953
乳	-9.38999
菩薩	-9.39092
十六	-9.39156
瑤	-9.39437
卯	-9.3944
征	-9.39451
寛	-9.39519
茂	-9.398
而得	-9.39818
韓	-9.39834
而自	-9.39881
之所以	-9.40007
盟	-9.40188
進退	-9.40384
十一	-9.4044
偕	-9.40619
碑	-9.40625
不善	-9.40681
十八	-9.40711
水中	-9.40753
西南	-9.40896
快	-9.40925
獸	-9.40992
禹	-9.41019
皈依	-9.4107
礙	-9.41146
神氣	-9.41199
髓	-9.41328
四象	-9.41385
給	-9.41395
屯	-9.41401
頃	-9.41412
佳	-9.41419
澗	-9.41423
孽	-9.41424
元精	-9.4153
子等	-9.41533
藥物	-9.41641
此章	-9.41735
晝	-9.41737
托	-9.41774
季	-9.41779
激	-9.41786
檢	-9.41848
軀	-9.41855
不以	-9.41873
諸葛	-9.41883
莫能	-9.4189
之始	-9.41969
又有	-9.42042
以成	-9.4209
三才	-9.4215
奸	-9.42152
覓	-9.42165
陀	-9.42174
至人	-9.42183
贈	-9.42193
一氣	-9.4243
靡	-9.42511
凝神	-9.42597
督	-9.42626
中央	-9.42632
皆是	-9.42735
怠	-9.42911
梅	-9.42933
換	-9.42976
緩	-9.43008
厲	-9.4328
蘇	-9.4337
蒙	-9.43377
握	-9.4338
灌	-9.43413
衆	-9.43417
誕	-9.43433
黃芽	-9.43459
段	-9.43466
畧	-9.43698
疎	-9.43729
雷霆	-9.43752
欽	-9.43825
旁門	-9.43903
羣生	-9.43913
神咒	-9.43998
故能	-9.44004
而能	-9.44078
枉	-9.44097
阻	-9.44136
卜	-9.44195
杜	-9.44223
下手	-9.44229
測	-9.44346
稽	-9.44471
善惡	-9.44517
篤	-9.44553
繩	-9.44574
嬰	-9.44575
寵	-9.44592
可知	-9.44609
不明	-9.44721
若有	-9.44733
與之	-9.44758
者曰	-9.44912
樞	-9.45041
見其	-9.45196
得之	-9.45254
刧	-9.45471
祭	-9.45725
暢	-9.45763
十里	-9.4578
卧	-9.45818
化天尊大悲	-9.45911
乙	-9.4612
又云	-9.46159
茅	-9.46206
添	-9.46237
不自	-9.46299
此時	-9.46306
何如	-9.46365
萬神	-9.46376
聖人之	-9.46418
粗	-9.46564
併	-9.46601
繁	-9.46625
掩	-9.46647
暫	-9.46691
5	-9.46707
輪迴	-9.46717
之道也	-9.46795
鑿	-9.47005
爲主	-9.47024
洲	-9.47078
漫	-9.47099
脩	-9.47129
莊	-9.47135
皈	-9.47308
吾身	-9.47342
拱	-9.47462
太陰	-9.47519
無所不	-9.47589
不識	-9.4769
旺	-9.4789
偈	-9.47898
煥	-9.47901
唱	-9.47923
斤	-9.47928
歟	-9.47931
天尊大悲大	-9.48072
弦	-9.48095
皆有	-9.4817
辯	-9.48202
眞經	-9.4823
慢	-9.48292
丙	-9.48298
介	-9.48306
耳目	-9.48316
晴	-9.48365
譬	-9.48392
之本	-9.48407
涵	-9.48633
以來	-9.48659
垣	-9.48667
在人	-9.48677
猿	-9.48736
席	-9.48764
消息	-9.48979
愧	-9.49103
溢	-9.49137
百日	-9.49177
女子	-9.49199
未能	-9.49281
曰此	-9.49479
行之	-9.49523
牢	-9.49606
則無	-9.4969
柱	-9.49818
必須	-9.49882
男子	-9.499
無事	-9.49929
於心	-9.49958
戴	-9.49983
不信	-9.50237
筵	-9.50284
到此	-9.50319
罰	-9.50367
南方	-9.50417
絡	-9.50438
郎	-9.50458
詠	-9.50465
選	-9.50479
萬物之	-9.50603
壬	-9.50854
捐	-9.50865
十年	-9.50882
族	-9.50898
入道	-9.50899
鑄	-9.50904
懇	-9.50906
叔	-9.50915
豈非	-9.51015
譽	-9.51179
葛	-9.51206
讓	-9.51228
不相	-9.51244
丑	-9.51244
剝	-9.51251
牧	-9.5128
只在	-9.51283
之旨	-9.51297
諱	-9.51351
先天之	-9.51438
升降	-9.51599
垢	-9.51628
而言	-9.51673
臻	-9.51696
擁	-9.5172
之外	-9.51769
只是	-9.51918
而下	-9.52006
人皆	-9.52044
后	-9.521
鉛汞	-9.52104
不是	-9.52106
者以	-9.52133
彭	-9.52147
其神	-9.52428
奉道	-9.52542
警	-9.52565
飯	-9.52615
冰	-9.52632
貨	-9.52922
伊	-9.53042
何謂	-9.53043
雅	-9.53064
驕	-9.53358
東方	-9.53454
不聞	-9.53475
凌	-9.53497
灰	-9.53516
四十	-9.53659
玉京	-9.53693
主宰	-9.53802
因緣	-9.53855
曠	-9.53898
桑	-9.53901
躍	-9.53955
三淸	-9.54026
無名	-9.5406
戊	-9.54085
撫	-9.54358
陰符	-9.54373
𤣥	-9.54375
恬	-9.54392
罷	-9.54414
飾	-9.54746
殷	-9.5476
癡	-9.54818
漠	-9.54834
屢	-9.54839
壑	-9.54845
没	-9.5486
萬里	-9.55092
不息	-9.55243
日直	-9.5525
謬	-9.55264
方可	-9.5528
戶	-9.55299
一物	-9.55419
功成	-9.55438
眞符	-9.55442
之數	-9.55444
眞一	-9.55495
奈何	-9.55536
忠孝	-9.55629
詐	-9.55633
鑑	-9.55732
聯	-9.55738
之下	-9.55742
靈光	-9.55755
第二	-9.55843
東南	-9.56121
託	-9.56157
灑	-9.56213
辟	-9.56657
沒	-9.5666
修煉	-9.56713
人物	-9.56779
也蓋	-9.56825
湛	-9.56854
五臟	-9.56994
崑崙	-9.57136
瘟	-9.57148
村	-9.57169
說法	-9.574
邑	-9.57516
謗	-9.57517
農	-9.5757
矢	-9.57592
抽	-9.57596
安得	-9.57849
䕶	-9.57944
不成	-9.57944
遽	-9.57962
玄關	-9.57962
割	-9.5805
倍	-9.58054
甫	-9.58057
運用	-9.58063
十七	-9.58168
大真君	-9.58443
萬劫	-9.58446
上元	-9.58474
俟	-9.58485
脾	-9.58499
蓬萊	-9.58545
漁	-9.58563
心不	-9.58578
不知其	-9.58637
流行	-9.5873
眞空	-9.58785
展	-9.58908
荷	-9.58985
十四	-9.59
塗	-9.59118
之謂也	-9.59384
北極	-9.59451
終身	-9.59513
一年	-9.59628
健	-9.59812
欣	-9.59924
籠	-9.59935
一粒	-9.60117
牝	-9.60195
或有	-9.60232
誓	-9.60333
繞	-9.60348
瀆	-9.60361
夫子	-9.60369
睡	-9.60385
死生	-9.60455
胎息	-9.60726
朋	-9.6075
大丹	-9.60787
玩	-9.60801
玉虛	-9.60834
墜	-9.60846
坦	-9.60848
奧	-9.60876
梯	-9.60882
之類	-9.60911
民之	-9.61154
絲	-9.6131
沐	-9.61317
心印	-9.61393
千里	-9.61491
之名	-9.61601
春秋	-9.61653
材	-9.61706
而行	-9.61828
宇宙	-9.61829
而不可	-9.61843
呂帝	-9.61846
覽	-9.61851
天眞	-9.61979
能知	-9.62091
尼	-9.62296
衝	-9.62301
也故曰	-9.62363
隊	-9.62386
浩	-9.62432
得一	-9.62603
風雨	-9.62648
廉	-9.62677
枕	-9.62774
歛	-9.62802
萬象	-9.62803
竈	-9.62832
人有	-9.62894
矣然	-9.63055
其間	-9.63099
者乎	-9.63102
三天	-9.63197
乖	-9.63239
奥	-9.63263
閱	-9.63291
協	-9.63297
玄玄	-9.63298
庇	-9.63303
汝等	-9.63493
雖然	-9.6359
之罪	-9.63619
無常	-9.63624
束	-9.63649
占	-9.6373
孕	-9.63748
一名	-9.63815
有道	-9.63839
此道	-9.64065
入於	-9.64075
兄	-9.64105
大法	-9.64116
不求	-9.64209
恍惚	-9.64235
曹官	-9.64248
泄	-9.64262
失其	-9.64378
至眞	-9.64477
方是	-9.645
譬如	-9.6452
上聖	-9.64523
决	-9.64681
榜	-9.64685
若能	-9.64697
此是	-9.64723
洛	-9.64738
K	-9.64816
然則	-9.64835
在天	-9.6485
德天尊大悲	-9.64858
庫	-9.64859
由此	-9.65158
濳	-9.65194
大小	-9.65198
擒	-9.65226
悃	-9.65264
築	-9.65269
成就	-9.65273
人之所	-9.65386
一毫	-9.65441
自得	-9.65472
東西	-9.6551
之眞	-9.65522
團	-9.65568
囊	-9.65743
R	-9.65809
凡人	-9.65937
古之	-9.66041
無礙	-9.66057
第三	-9.66159
靜而	-9.6616
禽	-9.66207
六十	-9.66232
躁	-9.66234
捧	-9.66242
芒	-9.66246
何爲	-9.66264
揭	-9.66301
好生	-9.66349
三日	-9.66468
四方	-9.66625
噫	-9.66651
使人	-9.66667
道法	-9.66715
氷	-9.66718
若不	-9.66738
祇	-9.66807
者其	-9.669
成眞	-9.669
馭	-9.66918
之要	-9.6693
終日	-9.66956
如來	-9.67039
不可不	-9.67043
千萬	-9.6706
神室	-9.67141
此身	-9.67218
你	-9.67255
也今	-9.67403
不易	-9.67439
魂魄	-9.67502
戒者不得	-9.67615
熙	-9.67725
必先	-9.67728
飽	-9.67734
方便	-9.67785
觀其	-9.6783
而已矣	-9.67866
五老	-9.68083
老君	-9.68108
三五	-9.68131
眞火	-9.6814
金剛	-9.68141
淪	-9.68221
諭	-9.68222
下降	-9.68234
温養	-9.68243
混合	-9.68347
不足以	-9.68359
往往	-9.68377
之至	-9.68431
於外	-9.68602
革	-9.68643
奉行	-9.68758
腸	-9.68851
之物	-9.68999
上天	-9.69101
有此	-9.69102
神化	-9.6933
紙	-9.69333
酌	-9.69335
排	-9.6935
頒	-9.69364
大悲大願大聖大慈	-9.69382
局	-9.69388
天帝	-9.69406
其實	-9.69508
沖	-9.69722
側	-9.69791
堯	-9.69791
敦	-9.69832
整	-9.69838
三品	-9.69855
泣	-9.69867
遐	-9.69882
可得	-9.69886
一曰	-9.69962
神光	-9.70098
仙翁	-9.70185
帥	-9.70195
鬬	-9.70234
競	-9.70272
皮	-9.70282
金液	-9.70283
蹈	-9.70315
攸	-9.7035
頻	-9.70364
非有	-9.70451
圓明	-9.70458
坎中	-9.70568
問曰	-9.70634
夫婦	-9.70658
之情	-9.70673
長存	-9.70768
仙道	-9.70768
僕	-9.70779
不外	-9.70866
不覺	-9.70874
兔	-9.70885
眞精	-9.70923
偈曰	-9.70973
精氣	-9.71003
人者	-9.71173
眞意	-9.71201
同前	-9.71278
東北	-9.71378
傍	-9.71496
可不	-9.71507
頌	-9.71599
丹經	-9.71607
以致	-9.71701
與天	-9.71772
南北	-9.71815
生成	-9.71825
尸	-9.71883
犬	-9.71903
鋒	-9.71905
穆	-9.71926
擬	-9.71947
剛柔	-9.7198
滴	-9.72001
卽此	-9.72029
以至	-9.72033
愿	-9.72111
則知	-9.72153
觀之	-9.72173
而復	-9.72181
童子	-9.72357
婆	-9.72426
胥	-9.72434
船	-9.72469
輒	-9.725
視之	-9.7274
台	-9.72825
山之	-9.72906
爲天下	-9.72915
怕	-9.72937
郤	-9.72989
森	-9.72999
邀	-9.73044
巾	-9.73054
隅	-9.73059
副	-9.73065
話	-9.73122
萬古	-9.7314
者乃	-9.73178
也吾	-9.73264
口訣	-9.73269
後人	-9.73304
德之	-9.73305
禍福	-9.73332
有三	-9.73393
合一	-9.73523
鄭	-9.73535
天子	-9.73542
上有	-9.73544
壘	-9.73559
燦	-9.73573
者是	-9.73582
臥	-9.73595
齡	-9.73603
佩	-9.73615
恢	-9.73616
九轉	-9.73645
萬世	-9.73767
其德	-9.7378
爾等	-9.73868
山中	-9.73878
逼	-9.74075
爵	-9.74084
討	-9.74085
酆都	-9.74098
寫	-9.74099
於中	-9.74105
區	-9.74147
性情	-9.74232
吕	-9.74299
體天尊大悲	-9.74346
丈人	-9.74453
何所	-9.74491
場	-9.74494
守之	-9.74527
使之	-9.7455
不失	-9.74566
膏	-9.74594
之極	-9.74627
成仙	-9.74639
西北	-9.74655
憶	-9.74678
冒	-9.74689
丞相	-9.74699
旱	-9.74707
法象	-9.74712
爾時	-9.74743
玄牝	-9.74819
常存	-9.75062
吝	-9.75091
普度	-9.75092
大真人	-9.75101
潮	-9.75145
人事	-9.75146
五帝	-9.7522
標	-9.7522
綿綿	-9.75264
與道	-9.75456
之根	-9.75581
而去	-9.75627
百年	-9.75648
金水	-9.75672
誘	-9.7572
魁	-9.75738
丸	-9.75752
卓	-9.75764
旛	-9.75784
宥	-9.758
盧	-9.75803
一字	-9.75812
仙家	-9.75833
聰明	-9.7593
我之	-9.75983
洞天	-9.7604
誦經	-9.76095
優	-9.76313
銅	-9.7632
循環	-9.76322
廣大	-9.76344
不免	-9.76451
結成	-9.76459
數十	-9.76479
方得	-9.76645
爲用	-9.76673
不復	-9.76698
爲善	-9.7678
飮	-9.76791
明月	-9.76802
神炁	-9.76825
安能	-9.76898
之候	-9.76902
處處	-9.76929
煞	-9.76964
九皇	-9.76992
無知	-9.77056
開化	-9.77057
抵	-9.77097
無可	-9.7711
也非	-9.77198
金華	-9.77221
社	-9.77354
矣故	-9.77393
淮	-9.77429
作用	-9.77464
翔	-9.77496
山川	-9.77508
赤子	-9.77518
一月	-9.77523
三百	-9.7759
其形	-9.77641
東華	-9.7769
元始天尊	-9.77752
天門	-9.77878
污	-9.77922
踰	-9.7795
恆	-9.78005
岡	-9.78006
臍	-9.78008
不壞	-9.78034
十九	-9.78035
宵	-9.78074
天君	-9.78092
陰陽之	-9.78159
混元	-9.78175
本命	-9.78209
兩儀	-9.78235
紫府	-9.78336
兄弟	-9.78497
暇	-9.78536
肩	-9.78552
俄	-9.78564
三丰	-9.78588
歸根	-9.78749
矣此	-9.78958
忿	-9.79037
荆	-9.7905
第四	-9.79518
人自	-9.79675
寥	-9.79691
几	-9.79703
不肯	-9.79725
些	-9.79741
金木	-9.79747
罡	-9.79824
丹成	-9.8012
四大	-9.80146
利益	-9.80178
在上	-9.80188
成功	-9.80194
艱	-9.80197
悖	-9.80236
伍	-9.80237
戾	-9.80238
大羅	-9.80313
茶	-9.80329
中宫	-9.80398
六根	-9.80452
庶幾	-9.80454
以上	-9.80479
奈	-9.80488
慈尊	-9.80554
妙法	-9.80561
奢	-9.80741
盲	-9.80845
值	-9.80861
括	-9.80867
剖	-9.80872
緒	-9.80885
a	-9.80926
而實	-9.80948
昊天	-9.81038
註曰	-9.81042
文字	-9.8113
圓通	-9.81306
𤍠	-9.81397
稟	-9.81425
鹿	-9.81444
准	-9.81514
寒暑	-9.81525
化生	-9.8164
上升	-9.81649
何也	-9.81762
眞仙	-9.81824
人以	-9.81939
貢	-9.81992
熾	-9.82008
件	-9.82019
暑	-9.82031
朕	-9.82056
七日	-9.82123
無私	-9.82176
主者	-9.82221
功行	-9.82352
空空	-9.82442
其道	-9.82467
白虎	-9.82489
之術	-9.82502
修持	-9.82526
旅	-9.82599
隙	-9.8261
嗚呼	-9.8261
教人	-9.82621
不勝	-9.82625
週	-9.82662
在於	-9.82734
大定	-9.82801
化神	-9.82863
切念	-9.82971
無盡	-9.82996
帝子	-9.83044
神霄	-9.83103
言也	-9.83211
重陽	-9.83267
皓	-9.8329
之先	-9.83301
一聲	-9.8332
於道	-9.83357
始終	-9.83423
求之	-9.83425
不已	-9.83446
法門	-9.83466
心心	-9.83556
文昌	-9.83704
眞氣	-9.83714
所云	-9.83737
尹	-9.83788
饒	-9.83826
頗	-9.83828
焦	-9.83834
玄妙	-9.83868
而非	-9.84059
天命	-9.84059
洞玄	-9.84296
無人	-9.84382
拯	-9.84425
館	-9.84427
昭烈	-9.8448
脉	-9.84484
亦非	-9.845
干冒	-9.84562
天理	-9.84568
莫測	-9.84583
終始	-9.84607
中元	-9.84626
上眞	-9.84691
頑	-9.84884
姤	-9.84995
濕	-9.85011
雌	-9.85026
奕	-9.85043
眠	-9.85045
斜	-9.85053
一次	-9.85065
究竟	-9.85086
太玄	-9.85139
下元	-9.85173
子午	-9.85232
消災	-9.85243
及其	-9.85279
千古	-9.85293
之處	-9.85528
六合	-9.85529
抽添	-9.85593
蓄	-9.85614
夾	-9.85621
仕	-9.85634
滌	-9.85645
高眞	-9.85657
播	-9.85664
巢	-9.85677
踏	-9.8568
太平	-9.85705
一片	-9.85757
甘露	-9.85791
○○○	-9.85812
聖眾	-9.85843
接引	-9.85843
三關	-9.86105
漿	-9.86238
蒸	-9.86251
豈知	-9.86277
慨	-9.86285
翳	-9.86305
島	-9.86308
葆	-9.8632
吉凶	-9.86337
而上	-9.86354
不得已	-9.86432
眞性	-9.86497
四海	-9.86579
至誠	-9.86596
在我	-9.86618
仙官	-9.86668
宸	-9.86734
太𡻕	-9.86814
裂	-9.86817
以下	-9.86826
苗	-9.8684
五方	-9.8686
哭	-9.86865
五色	-9.86871
窗	-9.86877
邇	-9.86879
黎	-9.8689
宛	-9.86936
而出	-9.86963
靑城	-9.87043
世尊	-9.87089
不受	-9.87165
相與	-9.87267
化炁	-9.87429
芽	-9.87441
一旦	-9.87453
若無	-9.87454
妾	-9.87468
衷	-9.87494
嵗	-9.87506
有無	-9.87551
g	-9.87565
三者	-9.87575
其氣	-9.87597
一言	-9.87698
修身	-9.87825
恥	-9.87913
萬化	-9.87924
與天地	-9.87931
聰	-9.87932
嗜	-9.8796
前後	-9.87972
飢	-9.87984
尚	-9.88035
金精	-9.88044
人知	-9.88058
奮	-9.88102
捉	-9.88105
既	-9.88158
總是	-9.88185
君臣	-9.88204
之學	-9.8822
以生	-9.88514
我今	-9.88516
讀書	-9.88531
成都	-9.88582
穹	-9.88651
以求	-9.88663
宴	-9.88719
黃金	-9.88732
逝	-9.88741
銖	-9.88772
使者	-9.88845
見之	-9.88856
矣夫	-9.88917
若夫	-9.89067
諦	-9.89083
恍	-9.89302
紫陽	-9.89312
蠻	-9.89313
偃	-9.89347
在此	-9.89352
踐	-9.89365
勳	-9.89388
倦	-9.89419
九年	-9.89441
離中	-9.8956
之象也	-9.89637
慘	-9.89932
黨	-9.89974
粉	-9.89994
宻	-9.90002
柏	-9.9002
銷	-9.90054
無聲	-9.90067
胸	-9.90103
化身	-9.90132
嘯	-9.9034
所言	-9.90345
五千	-9.90374
服食	-9.90409
周流	-9.90434
中間	-9.90543
大慈	-9.90576
赫	-9.90604
成道	-9.90616
屠	-9.90636
湧	-9.90639
雍	-9.90641
買	-9.90645
太淸	-9.90646
此理	-9.90659
自己	-9.90666
卯酉	-9.90668
膺	-9.9069
杯	-9.90699
瑩	-9.90736
不盡	-9.90744
不忍	-9.90904
乎其	-9.91091
無以	-9.91096
東嶽	-9.91163
於物	-9.91171
延生	-9.91176
恤	-9.91237
壤	-9.91253
𣺌	-9.91274
誣	-9.91286
簾	-9.91295
爛	-9.91325
雁	-9.9135
功名	-9.91369
無象	-9.91378
成丹	-9.9151
正道	-9.91541
尊神	-9.91719
大地	-9.91756
未必	-9.91873
跋	-9.91985
裳	-9.91992
眞靈	-9.92006
之性	-9.9205
承誥奉行	-9.92067
生人	-9.92113
知此	-9.92118
令人	-9.92173
修鍊	-9.92194
物也	-9.92233
無物	-9.92279
配合	-9.92355
十三	-9.92385
金石	-9.92478
弊	-9.92501
揮	-9.92564
誑	-9.92565
寢	-9.92581
溟	-9.92604
彈	-9.92622
中黃	-9.92654
之主	-9.92656
感應	-9.92865
不入	-9.92931
戌	-9.93224
舜	-9.93225
禀	-9.93259
撰	-9.93266
濤	-9.93297
名爲	-9.93321
蔭	-9.93333
顔	-9.93348
也又	-9.93389
心以	-9.93462
至矣	-9.93571
之境	-9.9358
本體	-9.93658
當其	-9.93787
其性	-9.93834
七祖	-9.93863
僻	-9.93894
臂	-9.93908
塊	-9.93968
該	-9.93971
尊經	-9.94183
一個	-9.9419
採藥	-9.94197
吾道	-9.94205
養性	-9.9427
知者	-9.94501
腳	-9.94557
夭	-9.94565
嫌	-9.94574
祚	-9.94602
墓	-9.94616
凉	-9.9462
咽	-9.94621
肇	-9.94623
簿	-9.94649
姹女	-9.94652
不容	-9.94946
聞之	-9.95003
則神	-9.95034
神功	-9.95055
能生	-9.95167
至今	-9.95171
鄙	-9.95211
巫	-9.95221
三百六十	-9.95256
賣	-9.95256
遁	-9.9526
蟠	-9.95274
煩惱	-9.95277
【	-9.95326
城隍	-9.95329
飲食	-9.95349
微妙	-9.95477
後學	-9.95695
上昇	-9.95795
需	-9.95824
拔度	-9.95835
而至	-9.95883
粟	-9.95905
中天	-9.95938
鈞	-9.95945
玄元	-9.95951
奠	-9.95954
大眾	-9.95959
須知	-9.96105
大悲	-9.96105
之誠	-9.96137
證盟	-9.96159
一箇	-9.96168
二年	-9.9621
真人	-9.96276
行持	-9.96347
十餘	-9.9639
以養	-9.96407
無方	-9.96457
從事	-9.9647
者何	-9.96472
上仙	-9.96475
天師	-9.9648
告下	-9.96541
眞息	-9.96543
臭	-9.96566
怡	-9.96585
跨	-9.96589
眷	-9.96607
等伏聞	-9.96611
麻	-9.96624
忙	-9.96633
琅	-9.96634
蹟	-9.96641
膽	-9.96644
國之	-9.9665
遯	-9.96658
名利	-9.96693
九幽	-9.96775
以道	-9.96888
歸一	-9.96908
度世	-9.96961
司馬	-9.97072
眞土	-9.97114
五炁	-9.97118
文王	-9.97123
有志	-9.97137
所以爲	-9.97146
淸虛	-9.97234
疫	-9.97244
在心	-9.97261
援	-9.97291
糧	-9.97302
哲	-9.97318
分別	-9.97321
倉	-9.97335
范	-9.97348
魅	-9.97367
祖炁	-9.9749
第五	-9.97668
者則	-9.97737
曰我	-9.97741
矣故曰	-9.97848
全眞	-9.9788
襲	-9.97937
三官	-9.97958
泊	-9.97987
踪	-9.98031
巍巍	-9.9805
啼	-9.98061
不起	-9.98151
二物	-9.98375
相傳	-9.98404
明明	-9.98411
闔	-9.98641
若是	-9.98646
葬	-9.98668
陽生	-9.98675
掛	-9.9872
袖	-9.98729
聖天尊大悲	-9.98732
低	-9.98735
其功	-9.98799
百姓	-9.98813
不欲	-9.98846
一息	-9.98865
萬法	-9.98944
玉光	-9.98958
此章言	-9.99174
無二	-9.99276
五嶽	-9.99297
刀圭	-9.99378
級	-9.99395
瑶	-9.9941
苦海	-9.99417
緯	-9.99419
先後	-9.99482
萬靈	-9.99498
莊子	-9.99576
是時	-9.99636
三光	-9.99824
聖胎	-9.99898
幹	-9.9993
胞	-10.0005
雀	-10.0005
金光	-10.0008
恕	-10.0009
造化之	-10.0012
証	-10.0012
此爲	-10.0014
見性	-10.0014
一分	-10.0015
涯	-10.0022
言語	-10.0024
入定	-10.0025
於世	-10.0028
下民	-10.0031
自古	-10.0036
詮	-10.0052
一生	-10.0055
空中	-10.0059
主人	-10.0071
此乃	-10.0072
湻	-10.0078
埋	-10.0081
崩	-10.0082
浸	-10.0083
鱗	-10.0084
眞心	-10.0107
方寸	-10.0123
西山	-10.0123
此皆	-10.0126
果能	-10.0135
華池	-10.0135
法界	-10.0139
更有	-10.0141
桓	-10.0145
煉丹	-10.0147
興行妙道天尊	-10.0147
零	-10.0151
禮樂	-10.0151
例	-10.0152
知有	-10.0153
丕	-10.0156
築基	-10.0158
庥	-10.0158
聖母	-10.0158
文章	-10.0164
名山	-10.0165
持誦	-10.0165
丹道	-10.0174
詩曰	-10.0177
皈命	-10.018
不待	-10.0206
正陽	-10.0206
一段	-10.0214
出世	-10.0215
矯	-10.0218
之苦	-10.0219
絳	-10.0219
旬	-10.0221
存心	-10.0222
至寶	-10.0224
孩	-10.0224
菩提	-10.0235
此之謂	-10.0239
反覆	-10.0239
囉	-10.0239
乾元	-10.0249
聲色	-10.0252
故有	-10.0267
平日	-10.028
天寶	-10.0287
侮	-10.029
拒	-10.029
茫	-10.0296
牙	-10.0296
斧	-10.0299
旗	-10.03
只要	-10.0316
金仙	-10.0318
明日	-10.0319
於内	-10.0328
養氣	-10.0338
蠱	-10.0349
箕	-10.0363
吾今	-10.0369
妨	-10.0372
腰	-10.0373
峻	-10.0375
】	-10.0375
言其	-10.0377
修奉	-10.0381
卽有	-10.0388
欲求	-10.04
有大	-10.0403
運行	-10.0406
故也	-10.0419
福地	-10.0426
鄰	-10.0433
念念	-10.0433
神靈	-10.0436
𨚫	-10.044
叅	-10.0442
準	-10.0444
喚	-10.0445
研	-10.0446
蒲	-10.0447
萃	-10.0448
寐	-10.045
寰	-10.0451
者多	-10.0454
他人	-10.0456
山林	-10.0457
不悟	-10.0459
在乎	-10.0461
無間	-10.0467
所在	-10.0469
自知	-10.0472
乎天	-10.0472
同類	-10.0473
太一	-10.0488
五行之	-10.0492
惕	-10.0503
殺人	-10.0511
蒂	-10.0511
戮	-10.0512
誇	-10.0513
邦	-10.0514
撥	-10.0514
傅	-10.0519
徙	-10.0519
何必	-10.0522
氣之	-10.0523
一元	-10.0523
針	-10.0523
二炁	-10.0528
而求	-10.0528
十分	-10.0532
我身	-10.0534
二氣	-10.0535
豈有	-10.0541
蓮花	-10.0547
湛然	-10.0549
次第	-10.056
如意	-10.0561
南極	-10.0561
煉精	-10.0563
心爲	-10.0574
戎	-10.0579
第二十	-10.0582
襄	-10.0583
仇	-10.0586
嗔	-10.059
縛	-10.059
廓	-10.0591
苑	-10.0592
偉	-10.0593
峙	-10.0595
皆由	-10.0596
罵	-10.0597
唵	-10.0598
駐	-10.0599
天根	-10.0616
日用	-10.0634
白雪	-10.0636
門下	-10.0639
號曰	-10.0642
又問	-10.0644
曰子	-10.0648
蟾	-10.0648
踵	-10.0658
拙	-10.0661
戈	-10.0661
不可得	-10.0662
三分	-10.0662
鑪	-10.0666
疇	-10.0668
訖	-10.067
采	-10.0671
而歸	-10.0683
七寶	-10.0686
八百	-10.0687
眞實	-10.0688
爐鼎	-10.0694
下土	-10.0695
方知	-10.07
則必	-10.0703
本性	-10.0705
後天之	-10.0705
學道者	-10.0712
在其中	-10.0714
爲大	-10.0715
三月	-10.0719
高明	-10.072
須至	-10.0723
仲尼	-10.0731
迨	-10.0739
戚	-10.0739
餌	-10.0743
纒	-10.0744
瞋	-10.0745
姿	-10.0745
聖眞	-10.0745
淚	-10.0746
叢	-10.075
㤗	-10.0754
詩云	-10.076
山水	-10.0765
之憂	-10.0779
鼎器	-10.0781
惟有	-10.0788
長春	-10.0795
千年	-10.0795
涼	-10.0802
未得	-10.0808
是以聖人	-10.0808
學人	-10.0812
吾心	-10.0813
態	-10.0814
空洞	-10.0815
敝	-10.0815
中正	-10.082
大乘	-10.0821
爲道	-10.0821
守其	-10.0822
濯	-10.0823
亡魂	-10.0827
有何	-10.0829
逕	-10.0829
默默	-10.0841
道場	-10.0845
其事	-10.0846
玉液	-10.0862
豈能	-10.088
以後	-10.0882
其人	-10.0883
所居	-10.089
攀	-10.0891
逞	-10.0893
傲	-10.0893
矣而	-10.0895
冶	-10.0896
勾	-10.0896
性命之	-10.0903
員	-10.0908
無欲	-10.0914
也卽	-10.0917
内有	-10.0924
眾人	-10.0937
未來	-10.0943
曹仙官	-10.0948
精氣神	-10.0951
土地	-10.0955
萬事	-10.0958
蟻	-10.0965
確	-10.0967
卵	-10.0969
麟	-10.0971
懿	-10.0972
柄	-10.0987
精微	-10.0988
億萬	-10.0993
而民	-10.1009
發明	-10.1017
何有	-10.1018
紛紛	-10.1018
眞陰	-10.1026
而入	-10.103
人情	-10.1046
晶	-10.1047
巴	-10.105
渴	-10.1053
溥	-10.1054
盗	-10.1056
伴	-10.1056
銘	-10.1057
死者	-10.1059
疾病	-10.1077
之日	-10.108
一陰	-10.1084
眞道	-10.1091
有心	-10.1093
眞元	-10.1095
天宫	-10.1099
百餘	-10.11
報應	-10.1101
可也	-10.1101
杳	-10.1102
此等	-10.1113
其名	-10.1114
其志	-10.112
平安	-10.112
腐	-10.1121
挽	-10.1122
遜	-10.1126
聾	-10.1126
須臾	-10.1128
胃	-10.113
儼	-10.1132
湘	-10.1134
桐	-10.1136
解厄	-10.1143
與物	-10.1148
妄想	-10.1161
全在	-10.1161
第八	-10.1162
超度	-10.1165
父子	-10.1166
存想	-10.1184
功曹	-10.1193
正一	-10.1193
世上	-10.1199
自是	-10.12
之恩	-10.12
者當	-10.1206
不著	-10.1206
參同契	-10.1208
歧	-10.1209
仞	-10.1209
薰	-10.1209
乍	-10.1213
黃婆	-10.1217
爲我	-10.1237
注曰	-10.1239
之火	-10.1246
高上	-10.1248
之基	-10.1262
神君	-10.1268
心中	-10.1282
逮	-10.1282
之念	-10.1283
天王	-10.1284
璧	-10.1286
汲	-10.1288
巡	-10.1289
鞭	-10.129
澹	-10.1293
突	-10.1294
性也	-10.1296
英雄	-10.1297
當知	-10.1313
不忘	-10.1318
靜坐	-10.1325
靈官	-10.1332
其用	-10.1332
堅固	-10.1334
乎此	-10.1335
要知	-10.1337
谷神	-10.1338
大夫	-10.134
一理	-10.134
而又	-10.134
尙有	-10.1341
易曰	-10.1344
妙行	-10.1353
狗	-10.1358
聞道	-10.136
之患	-10.136
禦	-10.1364
斂	-10.1365
陋	-10.1367
呵	-10.1368
刃	-10.1369
匹	-10.1369
當時	-10.1373
阜	-10.1374
鈴	-10.1375
岱	-10.1375
畔	-10.1376
不昧	-10.1377
有象	-10.1377
不思	-10.1385
超昇	-10.1389
故云	-10.1397
而死	-10.1399
還虛	-10.1402
此卽	-10.141
物物	-10.1411
而化	-10.1414
虛皇	-10.1418
動則	-10.1425
無益	-10.1436
宗師	-10.144
正氣	-10.144
以自	-10.1442
鼠	-10.1444
尾閭	-10.1444
靈符	-10.1444
醜	-10.1447
悠	-10.1447
威儀	-10.1464
一竅	-10.1466
之身	-10.1467
我心	-10.147
河車	-10.147
九州	-10.1478
修仙	-10.1478
上乘	-10.1488
濟度	-10.1489
眞人云	-10.1491
無始	-10.1512
而來	-10.1513
延年	-10.1513
不二	-10.152
正覺	-10.1522
堯舜	-10.1527
恣	-10.1529
靜則	-10.1529
濫	-10.153
縮	-10.153
一般	-10.1532
煎	-10.1532
靈臺	-10.1532
尉	-10.1533
多少	-10.1535
瓦	-10.1537
若此	-10.1537
攜	-10.1537
交媾	-10.1538
不與	-10.1545
昭昭	-10.1554
非眞	-10.1556
之徒	-10.1556
眞文	-10.1556
在下	-10.1558
再拜	-10.1559
求道	-10.1568
天皇	-10.1579
藏於	-10.1592
會合	-10.1604
摧	-10.1612
眞人曰	-10.1613
昆	-10.1614
翕	-10.1617
薪	-10.1618
餐	-10.162
峽	-10.1624
笛	-10.1624
生天	-10.1626
玄珠	-10.1629
等眾	-10.1631
孤魂	-10.1639
八陣	-10.1641
生神	-10.1662
猶有	-10.1662
應化	-10.1667
尙書	-10.1674
淸明	-10.1674
元皇	-10.1677
教主	-10.1682
不得不	-10.1685
懈	-10.1693
眞常	-10.1696
羲	-10.1697
勘	-10.17
敲	-10.1701
鄧	-10.1705
欵	-10.1713
亦是	-10.1723
一體	-10.1724
仙人	-10.1733
調和	-10.1747
大神	-10.1756
未嘗不	-10.1761
善人	-10.1762
此中	-10.1772
須要	-10.1777
䧟	-10.1779
有時	-10.1781
産	-10.1785
圭	-10.1785
涕	-10.1787
渾然	-10.1787
祟	-10.1787
遮	-10.1788
威靈	-10.1791
之可	-10.1792
最上	-10.1808
無定	-10.1812
何人	-10.1825
妻子	-10.1826
思慮	-10.1827
其理	-10.1829
不行	-10.1836
忽然	-10.1836
亡人	-10.1837
不爭	-10.1839
神王	-10.1843
窟	-10.1854
羞	-10.1856
塡	-10.1862
其精	-10.1862
撓	-10.1863
裕	-10.1864
濡	-10.1865
兎	-10.1865
翰	-10.1865
貽	-10.1866
沛	-10.1866
蠢	-10.1867
仙眞	-10.1867
虚	-10.1869
暖	-10.187
裔	-10.1871
額	-10.1872
株	-10.1873
㳟	-10.1873
崔	-10.1874
希夷	-10.1875
侣	-10.1877
事事	-10.1879
於上	-10.1881
是名	-10.1891
和合	-10.1896
脫胎	-10.19
有二	-10.19
日月之	-10.1907
有情	-10.1908
無他	-10.1913
焉能	-10.1916
靜中	-10.1922
風雲	-10.1923
之說也	-10.1929
眞水	-10.193
衣食	-10.193
之路	-10.1936
陷	-10.1942
銳	-10.1947
第六	-10.1949
豪	-10.195
憲	-10.1951
而神	-10.1952
覔	-10.1954
鎻	-10.1954
効	-10.1955
貲	-10.1956
惶	-10.1958
與我	-10.1959
更生永命天尊	-10.1962
娑	-10.1962
佈	-10.1967
身外	-10.1971
眞汞	-10.1972
謹牒	-10.1977
抱一	-10.198
入聖	-10.1983
一朝	-10.1994
人道	-10.1999
首領	-10.2004
日日	-10.2009
相通	-10.201
孟子	-10.2016
示人	-10.2022
勒	-10.2041
忱	-10.2041
昨	-10.2043
時有	-10.2044
洽	-10.2044
仙師	-10.2046
怎	-10.2046
曰汝	-10.2048
形容	-10.2061
證果	-10.2064
觀音	-10.2065
未見	-10.207
於下	-10.2081
者如	-10.2083
遠矣	-10.2084
而止	-10.209
大德	-10.2098
始於	-10.2101
天曹	-10.2105
杳冥	-10.2106
二者	-10.2111
必要	-10.2111
槁	-10.212
而反	-10.2122
敘	-10.2122
𦂳	-10.2123
郊	-10.2123
㝛	-10.2124
碎	-10.2127
匡	-10.2129
梧	-10.213
渠	-10.2132
頃刻	-10.2133
無情	-10.2135
輙	-10.2136
呂祖	-10.2149
何故	-10.215
有功	-10.2157
氣氣	-10.2157
境界	-10.2159
不當	-10.2168
元陽	-10.2169
一身之	-10.217
其下	-10.2181
施行	-10.2182
虛靈	-10.2192
人當	-10.22
法身	-10.2203
金鼎	-10.2204
姦	-10.2204
金丹之	-10.2206
天醫	-10.2207
憎	-10.2208
荆州	-10.221
黍米	-10.2213
樣	-10.2213
道祖	-10.2214
以明	-10.2215
谿	-10.2215
肥	-10.2217
玄門	-10.2217
濛	-10.222
靄	-10.2222
樵	-10.2222
四字	-10.2227
屍	-10.2228
不可得而	-10.223
不止	-10.2235
具足	-10.2237
太守	-10.2238
焚香	-10.2243
靈明	-10.225
至德	-10.2253
無爲而	-10.2256
取其	-10.2265
而况	-10.2268
受持	-10.227
純陽妙道天尊	-10.2277
發生	-10.228
知道	-10.2287
同於	-10.2291
帝王	-10.2293
亢	-10.2294
等因	-10.2295
天尊大悲正	-10.2296
迫	-10.2297
膝	-10.2298
諫	-10.23
殫	-10.23
躋	-10.2301
精炁	-10.2302
赫赫	-10.2303
內	-10.2303
技	-10.2304
遞	-10.2305
輯	-10.2306
至心皈命禮	-10.2307
歇	-10.2307
鍊丹	-10.2307
熒	-10.2309
線	-10.2309
〓	-10.2315
受生	-10.2336
二句	-10.2338
皆可	-10.2344
魔王	-10.2353
貴賤	-10.2363
復圭子曰	-10.2377
甲子	-10.238
保命	-10.2383
衢	-10.2389
寂滅	-10.2391
倡	-10.2393
瀟	-10.2394
藍	-10.2394
伏羲	-10.2395
一刻	-10.2397
阨	-10.2397
浴	-10.2399
供養	-10.2417
自此	-10.2417
之靈	-10.2417
不染	-10.2417
浩浩	-10.2426
或曰	-10.2442
者能	-10.2448
忘其	-10.2462
七元	-10.2469
以應	-10.2472
韜	-10.2474
久久	-10.2474
穩	-10.2475
道在	-10.2475
合道	-10.2477
挾	-10.248
攺	-10.2482
暉	-10.2482
無端	-10.2482
釣	-10.2483
所能	-10.2485
辦	-10.2485
鎔	-10.2485
聊	-10.2487
誡	-10.2487
一陰一陽	-10.2488
扇	-10.2488
抛	-10.2488
汪	-10.2489
見人	-10.2491
訶	-10.2492
未知	-10.2493
南陽	-10.2497
難以	-10.2499
快樂	-10.2501
皆得	-10.2502
成形	-10.2505
相生	-10.2506
人民	-10.2508
何不	-10.2511
恭敬	-10.2514
歡喜	-10.2516
冥冥	-10.2527
十二時	-10.2529
道心	-10.2532
其機	-10.2535
久矣	-10.2538
朽	-10.2538
根本	-10.2539
靑城山	-10.254
眞傳	-10.2541
豈可	-10.255
未有不	-10.2553
何物	-10.2555
腦	-10.2567
燥	-10.2569
濃	-10.2569
寍	-10.2569
諸葛亮	-10.2573
縁	-10.2573
徘徊	-10.2573
裁	-10.2576
蕩蕩	-10.2582
箋	-10.2583
伏以	-10.2588
大事	-10.2596
一句	-10.2611
從何	-10.2612
至妙	-10.2615
返照	-10.262
可與	-10.2626
乃是	-10.2627
陽氣	-10.2628
守一	-10.2636
治天下	-10.2641
清淨	-10.2643
之志	-10.2646
皇帝	-10.2646
交感	-10.2655
截	-10.2663
此竅	-10.2668
塔	-10.2668
成佛	-10.2669
言曰	-10.2674
章第二十	-10.2676
久之	-10.2687
道經	-10.2687
天堂	-10.2694
第九	-10.2699
立命	-10.2706
紅塵	-10.2706
莫非	-10.2708
七十二	-10.2715
爲一過	-10.2721
之秘	-10.2721
恭惟	-10.2723
萬年	-10.2728
靈根	-10.2737
靈通	-10.2737
一家	-10.2742
不窮	-10.2745
藩	-10.2745
二首	-10.2746
遏	-10.2749
丹砂	-10.2751
董	-10.2752
敏	-10.2753
不可思議	-10.2754
嫩	-10.2755
冺	-10.2755
罕	-10.2757
纎	-10.2757
迄	-10.2757
蟄	-10.2757
縷	-10.2758
摇	-10.2759
憚	-10.276
熖	-10.2761
將來	-10.2778
何况	-10.2792
星辰	-10.2793
殊不知	-10.2797
以今	-10.2798
是日	-10.2808
不遠	-10.2816
得失	-10.2821
金玉	-10.2822
豁	-10.2823
百里	-10.2835
叛	-10.284
偷	-10.2848
倐	-10.2848
吿下	-10.285
陟	-10.2854
灾	-10.2854
霽	-10.2855
峩	-10.2856
上章	-10.2876
至聖	-10.2879
所見	-10.2881
帝一	-10.2886
門戸	-10.289
相交	-10.2893
七竅	-10.29
心地	-10.2907
種子	-10.2914
生萬物	-10.2916
之位	-10.2919
玄功	-10.292
和平	-10.2924
不肖	-10.2925
念頭	-10.293
旌	-10.293
之義也	-10.2931
侶	-10.2937
槖籥	-10.2937
蔡	-10.2939
貸	-10.2941
繡	-10.2942
宗旨	-10.2942
玄中	-10.2946
悶	-10.2949
一定	-10.2953
也是以	-10.2955
相應	-10.2955
先天一炁	-10.2955
巓	-10.2955
文武	-10.2957
書曰	-10.296
因其	-10.2962
婦人	-10.2971
謹疏	-10.2978
所生	-10.2979
益州	-10.2984
未生	-10.2985
不畏	-10.2992
一二	-10.3001
也聖人	-10.3006
眞言	-10.3007
生機	-10.3009
以及	-10.3011
食之	-10.3013
吉祥	-10.3015
龍門	-10.3019
點化	-10.3022
第七	-10.3026
山下	-10.3028
太微	-10.3032
詭	-10.3033
噓	-10.3034
紹	-10.3035
鴻濛	-10.3036
牖	-10.3036
呌	-10.3037
聳	-10.3037
筋	-10.3038
却	-10.3038
摘	-10.3039
慰	-10.3039
奴	-10.304
媒	-10.3043
促	-10.3043
八景	-10.3043
筏	-10.3045
世俗	-10.3047
治國	-10.3048
通靈	-10.3051
亦不能	-10.3056
光照	-10.3059
二月	-10.3066
之前	-10.3073
無爲之	-10.308
太素	-10.3086
得聞	-10.3089
惟願	-10.309
羣眞	-10.3099
消滅	-10.3099
十功	-10.3103
大士	-10.3107
及至	-10.3108
洞庭	-10.3109
心法	-10.3116
安樂	-10.3122
結胎	-10.3124
彼此	-10.3126
媾	-10.3126
無異	-10.3128
軸	-10.3129
猜	-10.3135
欄	-10.3135
轍	-10.3136
刋	-10.3137
街	-10.3138
乏	-10.314
咏	-10.3147
玄機	-10.3147
玉宸	-10.3154
行道	-10.3158
兩弦	-10.3159
玄都	-10.3161
相合	-10.3165
鍾離	-10.3165
諸仙	-10.3169
九霄	-10.3188
大哉	-10.3198
仁慈	-10.3203
蛟	-10.3206
三陽	-10.3207
山河	-10.3212
復還	-10.3215
弓	-10.3228
譴	-10.3232
皎	-10.3233
燄	-10.3234
勵	-10.3236
冬至	-10.3239
喉	-10.324
霓	-10.324
m	-10.324
淨明	-10.3241
頼	-10.3241
三昧	-10.3243
縱橫	-10.3243
其體	-10.3243
武夷	-10.3248
自見	-10.3257
善果	-10.3257
天地間	-10.3258
語言	-10.3267
圓成	-10.3274
水銀	-10.3276
七情	-10.3277
八月	-10.3278
自已	-10.3287
則不能	-10.33
淸濁	-10.3301
之災	-10.3304
護持	-10.3305
姥	-10.3306
所以然	-10.331
讚曰	-10.3312
七返	-10.3313
思之	-10.3317
綸	-10.3321
袁	-10.3322
黍	-10.3323
從來	-10.3325
捷	-10.3329
溝	-10.333
畝	-10.3331
坡	-10.3331
蝶	-10.3332
蟬	-10.3333
竿	-10.3333
創	-10.3333
栽	-10.3334
貧賤	-10.3335
隸	-10.3335
一寸	-10.3335
遥	-10.3339
未免	-10.3346
刻刻	-10.3351
虫	-10.3353
鼎爐	-10.3363
和氣	-10.3372
人欲	-10.3374
五月	-10.3381
以待	-10.3383
福天尊大悲	-10.3399
償	-10.3428
璋	-10.3429
譚	-10.3431
襟	-10.3431
騐	-10.3437
e	-10.3437
牆	-10.3526
驟	-10.3526
笙	-10.3529
板	-10.3535
氛	-10.3537
s	-10.3537
/	-10.3537
叶	-10.3538
皷	-10.361
碍	-10.3629
婬	-10.3632
盼	-10.3632
壓	-10.3633
淑	-10.3633
婚	-10.3634
喬	-10.3637
頤	-10.372
吁	-10.3728
餓	-10.3732
悞	-10.3734
叟	-10.3735
邵	-10.3735
訛	-10.3735
搜	-10.3736
賀	-10.3738
債	-10.3831
凈	-10.3834
滑	-10.3835
價	-10.3838
誨	-10.3839
惻	-10.384
値	-10.3843
催	-10.3844
縈	-10.3845
怖	-10.3845
簇	-10.3851
攘	-10.3935
虗	-10.3939
劵	-10.3939
罄	-10.394
馨	-10.3941
顆	-10.3941
迓	-10.3943
另	-10.3943
欠	-10.3943
峭	-10.3944
誌	-10.3945
煮	-10.3948
瑟	-10.4038
跪	-10.4039
匠	-10.404
駭	-10.4041
隣	-10.4043
虐	-10.4044
拈	-10.4046
鎖	-10.4048
寬	-10.4051
柯	-10.4052
匝	-10.4057
懺	-10.4125
狐	-10.4145
雕	-10.4145
懲	-10.4145
帛	-10.4148
柴	-10.4151
蝗	-10.4153
署	-10.4153
牡	-10.4154
壽	-10.4155
詎	-10.4155
拳	-10.4156
棟	-10.4162
虹	-10.4162
腥	-10.4253
媚	-10.4255
趾	-10.4255
汗	-10.4257
麥	-10.4259
洋	-10.4261
灼	-10.4263
募	-10.4265
濶	-10.427
毓	-10.4272
蹇	-10.4334
倪	-10.4345
𨚑	-10.4351
罹	-10.4365
苔	-10.4372
吽	-10.4378
澈	-10.438
橘	-10.4383
譏	-10.4469
膚	-10.4471
囚	-10.4473
朶	-10.4475
梓	-10.4476
竇	-10.4478
擕	-10.448
禾	-10.448
囑	-10.448
憾	-10.4481
簫	-10.4481
挺	-10.4483
琳	-10.4483
邃	-10.4483
杏	-10.4483
堆	-10.4489
刦	-10.449
醴	-10.4494
■	-10.4497
拾	-10.4585
戕	-10.4586
劣	-10.4586
匿	-10.4586
搆	-10.4588
.	-10.4597
觴	-10.4606
狼	-10.4692
儲	-10.4695
莽	-10.4697
臘	-10.4702
邁	-10.4703
竝	-10.4705
衲	-10.4706
巍	-10.4708
戍	-10.4709
籌	-10.4711
炳	-10.481
豆	-10.4812
閭	-10.4813
扁	-10.4814
馥	-10.4815
籟	-10.4815
措	-10.4815
蔣	-10.4816
勃	-10.4816
匱	-10.4816
練	-10.4816
嫁	-10.4817
敎	-10.4818
核	-10.4818
沿	-10.4826
嵩	-10.4828
庵	-10.4922
牀	-10.4923
滄	-10.4925
佞	-10.4926
賈	-10.4927
圃	-10.4928
綺	-10.4928
汨	-10.4932
鋪	-10.4932
坑	-10.4934
煖	-10.4934
擲	-10.4936
驛	-10.4938
磬	-10.4941
榻	-10.4941
渙	-10.5036
琢	-10.504
棺	-10.504
剪	-10.5041
遼	-10.5042
傑	-10.5043
祐	-10.5044
織	-10.5044
笈	-10.5047
挂	-10.5048
爍	-10.5048
馮	-10.5049
粹	-10.5049
蹄	-10.5049
療	-10.5051
剌	-10.5051
黄	-10.5054
唾	-10.5056
熊	-10.5057
叠	-10.5059
肖	-10.5061
龎	-10.5149
窒	-10.5157
詰	-10.516
鈎	-10.5163
轄	-10.5165
航	-10.5165
邈	-10.5168
鉢	-10.5169
蘆	-10.5169
爪	-10.5171
凛	-10.5172
婢	-10.5275
盪	-10.5278
膠	-10.5279
艷	-10.528
冕	-10.5284
濱	-10.5285
薛	-10.5288
霖	-10.5289
薩	-10.5292
躡	-10.5292
轟	-10.5293
闇	-10.5388
墻	-10.5395
迅	-10.5401
晏	-10.5402
𡚱	-10.5403
僚	-10.5405
疲	-10.5405
睹	-10.5406
綴	-10.5408
叱	-10.541
績	-10.5413
覃	-10.5414
粒	-10.5456
獵	-10.5519
頽	-10.5519
兀	-10.5521
揖	-10.5523
乩	-10.5526
睿	-10.5526
諧	-10.5526
笠	-10.5527
製	-10.5527
腑	-10.5527
燃	-10.5528
油	-10.553
宦	-10.553
訂	-10.553
毀	-10.5637
豕	-10.5639
輟	-10.5641
輦	-10.5642
藝	-10.5643
滔	-10.5645
醕	-10.5648
蹤	-10.565
弭	-10.5653
殻	-10.5653
址	-10.5653
駢	-10.5654
骸	-10.574
黜	-10.5763
析	-10.5766
樊	-10.5768
讐	-10.5769
幕	-10.5772
料	-10.5774
恪	-10.5774
恰	-10.5775
俞	-10.5776
貯	-10.5779
竺	-10.5779
絃	-10.578
塲	-10.5783
跳	-10.5874
涓	-10.5896
倖	-10.5896
喧	-10.5898
亟	-10.5899
痴	-10.5899
捕	-10.59
籬	-10.5901
課	-10.5902
㨗	-10.5902
芬	-10.5902
莖	-10.5906
彙	-10.5908
呪	-10.6027
擔	-10.6027
郁	-10.6027
猷	-10.6028
擅	-10.6028
脱	-10.6028
綵	-10.603
捲	-10.603
軌	-10.603
淩	-10.603
廷	-10.6031
斥	-10.6031
酆	-10.6032
狹	-10.6035
麓	-10.6041
毅	-10.6152
秩	-10.6158
慚	-10.6159
項	-10.616
鬚	-10.616
渺	-10.6162
塘	-10.6163
凖	-10.6164
曩	-10.6165
檀	-10.6166
堤	-10.6176
峒	-10.6182
番	-10.6223
衛	-10.6271
潰	-10.6284
諒	-10.6289
挈	-10.6289
距	-10.629
圈	-10.629
裡	-10.629
亷	-10.629
艾	-10.6291
曳	-10.6292
浦	-10.6293
咨	-10.6297
揣	-10.6297
扉	-10.6301
瓶	-10.6302
酣	-10.6304
蕃	-10.6363
脊	-10.6415
釀	-10.6419
銜	-10.642
蘋	-10.6421
唎	-10.6422
辜	-10.6423
鹽	-10.6426
溯	-10.6427
芥	-10.6428
1	-10.6429
漓	-10.6431
岐	-10.6432
炬	-10.6433
晃	-10.6434
棘	-10.6548
炫	-10.6551
刺	-10.6553
嚥	-10.6555
鈍	-10.6556
芸	-10.6558
釜	-10.6558
韋	-10.6559
昬	-10.6559
獅	-10.6559
歆	-10.656
稀	-10.6563
曽	-10.6563
渚	-10.6564
刹	-10.6564
弔	-10.657
亘	-10.6578
弼	-10.6679
洒	-10.6689
搏	-10.6689
𨶒	-10.6693
疊	-10.6693
殞	-10.6693
箭	-10.6695
䇿	-10.6698
姆	-10.6699
潘	-10.6701
涸	-10.6703
瞬	-10.6705
攢	-10.6707
唆	-10.6809
窔	-10.681
暌	-10.6816
挫	-10.6817
憤	-10.682
姬	-10.6821
稼	-10.6828
藻	-10.6828
鵲	-10.683
寇	-10.6831
繹	-10.6833
緘	-10.6833
矩	-10.6834
惰	-10.6834
褒	-10.6838
脚	-10.6839
控	-10.6839
翊	-10.6841
閨	-10.6841
爕	-10.6849
酧	-10.6853
嘻	-10.6968
侈	-10.6969
炊	-10.6969
甕	-10.697
倣	-10.6971
苖	-10.6972
栢	-10.6973
迭	-10.6976
瀛	-10.698
𢆯	-10.6981
册	-10.6981
迺	-10.6981
-	-10.6986
抗	-10.7106
股	-10.7111
繪	-10.7115
懽	-10.7115
蔓	-10.7117
汚	-10.7117
釡	-10.7123
蛻	-10.7123
祁	-10.7123
菊	-10.7123
窩	-10.7123
酷	-10.7124
裝	-10.7124
蘿	-10.7124
袍	-10.7126
囂	-10.713
鷄	-10.7255
揆	-10.7258
巷	-10.7261
曡	-10.7264
臧	-10.7267
渭	-10.7267
纏	-10.7267
綜	-10.7268
幢	-10.7269
簷	-10.7269
凋	-10.7269
岩	-10.7269
磴	-10.7271
遶	-10.7275
貶	-10.7276
鋤	-10.7277
蠅	-10.7408
糾	-10.7409
郞	-10.7412
僭	-10.7416
禎	-10.7416
痊	-10.7416
楫	-10.742
弛	-10.7546
吃	-10.7546
𥳑	-10.7554
疵	-10.7554
汙	-10.7555
悌	-10.7558
嬌	-10.756
隘	-10.756
隴	-10.7561
儔	-10.7562
殄	-10.7564
羡	-10.7564
馴	-10.7565
屑	-10.7565
凍	-10.7565
洵	-10.7568
逾	-10.7569
掠	-10.7705
廵	-10.7707
瓢	-10.7709
脂	-10.7709
贅	-10.771
概	-10.7711
俊	-10.7713
歴	-10.7713
韶	-10.7714
灘	-10.7715
弩	-10.7717
嵐	-10.772
架	-10.7721
牲	-10.7721
竒	-10.7723
床	-10.7724
0	-10.7726
囿	-10.7848
娥	-10.7856
嗇	-10.7857
婁	-10.7861
輸	-10.7863
鶯	-10.7864
漲	-10.7868
孼	-10.7868
鴉	-10.7869
閩	-10.787
漂	-10.787
瀑	-10.787
岑	-10.787
劔	-10.7871
冉	-10.7872
叙	-10.7872
謨	-10.7872
炭	-10.7874
拍	-10.7877
竣	-10.7878
疆	-10.7953
諷	-10.796
丞	-10.7997
吒	-10.8012
沸	-10.8013
蝕	-10.8016
𥥆	-10.8016
斃	-10.8016
劒	-10.8017
墟	-10.8018
釁	-10.8019
妹	-10.8024
髯	-10.8026
苞	-10.8026
崑	-10.8026
詢	-10.8027
啣	-10.8028
眺	-10.8028
殉	-10.8168
緊	-10.8168
㦸	-10.8173
騁	-10.8175
瑕	-10.8175
唇	-10.8178
查	-10.8179
蕊	-10.8182
炷	-10.8184
盂	-10.8185
丘	-10.8186
瞰	-10.8186
姻	-10.8187
_	-10.8189
盆	-10.819
踞	-10.8192
賁	-10.8319
褐	-10.8326
轂	-10.8332
髻	-10.8335
蝸	-10.8338
怯	-10.8339
閃	-10.8341
嚮	-10.8342
霸	-10.8342
吼	-10.8342
妍	-10.8343
聘	-10.8343
茹	-10.8343
廊	-10.8346
模	-10.8346
撼	-10.8347
煆	-10.8348
闌	-10.835
j	-10.835
帆	-10.8351
p	-10.8352
4	-10.8352
躔	-10.8353
貺	-10.8356
噬	-10.8491
葷	-10.8495
蜂	-10.8496
漆	-10.8497
斡	-10.8499
翹	-10.85
鳩	-10.8504
盍	-10.8504
夔	-10.8505
捫	-10.8505
詛	-10.8508
菜	-10.8509
啖	-10.8513
泓	-10.8514
系	-10.8516
霑	-10.8517
桀	-10.8653
佚	-10.8657
暘	-10.8662
騫	-10.8663
璞	-10.8664
啞	-10.8666
亞	-10.8667
疴	-10.8667
喫	-10.8668
墳	-10.8671
凄	-10.8672
蠲	-10.8675
巒	-10.8677
讒	-10.8824
朴	-10.8828
眩	-10.8832
惱	-10.8833
嫉	-10.8835
瘦	-10.8835
鵬	-10.8836
掘	-10.8838
哆	-10.884
榆	-10.8841
軟	-10.8842
廻	-10.8844
滚	-10.8845
敕	-10.8845
壅	-10.8845
替	-10.8846
忝	-10.8846
轅	-10.8848
娛	-10.8849
瞞	-10.8849
嶂	-10.8858
洎	-10.8999
狥	-10.9
忒	-10.9007
腔	-10.9008
遑	-10.9009
斛	-10.901
謾	-10.9011
麽	-10.9012
淆	-10.9012
迦	-10.9013
迂	-10.9014
樽	-10.9014
岷	-10.9015
砥	-10.9018
陞	-10.9018
隻	-10.9019
虬	-10.9019
爇	-10.9021
伽	-10.9022
撮	-10.9025
汎	-10.9173
伎	-10.9181
慳	-10.9183
泠	-10.9184
瘡	-10.9186
撒	-10.9189
殁	-10.919
喝	-10.919
粧	-10.9191
娶	-10.9191
謫	-10.9192
槪	-10.9192
惹	-10.9192
評	-10.9193
闊	-10.9193
奎	-10.9194
凜	-10.9194
藤	-10.9199
漑	-10.92
嘿	-10.9347
斵	-10.9351
躭	-10.9359
鑽	-10.936
狠	-10.936
悼	-10.9364
籥	-10.9364
糞	-10.9364
酸	-10.9365
擢	-10.9365
孜	-10.9366
伺	-10.9367
筌	-10.9371
萍	-10.9374
簪	-10.9376
飡	-10.9377
鴈	-10.9377
痕	-10.9378
譜	-10.9383
肢	-10.9501
丰	-10.953
砌	-10.954
耐	-10.9541
炙	-10.9541
饌	-10.9541
搬	-10.9542
泡	-10.9544
擴	-10.9546
頸	-10.9548
茗	-10.9549
掣	-10.955
兜	-10.955
熱	-10.9551
裘	-10.9551
鉅	-10.9551
𡨴	-10.9551
絮	-10.9552
悵	-10.9553
淹	-10.9554
陂	-10.956
沔	-10.9715
徼	-10.9726
沽	-10.9729
𥚃	-10.9729
瞽	-10.9729
檻	-10.973
貝	-10.9732
眸	-10.9732
綘	-10.9732
泯	-10.9734
瀾	-10.9736
甦	-10.9738
庖	-10.9739
坪	-10.9739
寃	-10.974
瑜	-10.974
閻	-10.9741
叮	-10.9741
灣	-10.9741
稚	-10.9741
插	-10.9743
憩	-10.9743
隋	-10.9751
攖	-10.9905
械	-10.9909
瓜	-10.9909
纖	-10.9913
頴	-10.9918
驪	-10.9919
蚩	-10.992
朿	-10.9924
藜	-10.9924
忤	-10.9924
蠧	-10.9924
蹊	-10.9925
兇	-10.9928
藐	-10.9928
貼	-10.9928
縳	-10.9929
勁	-10.993
隂	-10.993
噴	-10.9932
劄	-10.9933
騙	-11.0096
晰	-11.0106
羸	-11.0107
・	-11.0107
臆	-11.0111
貳	-11.0111
夬	-11.0112
苛	-11.0112
棠	-11.0117
趺	-11.0117
槎	-11.0118
孺	-11.012
丐	-11.012
睦	-11.012
潄	-11.0121
幅	-11.0122
憇	-11.0127
蓉	-11.0128
瀘	-11.0129
纍	-11.0131
屆	-11.0132
輻	-11.0304
椿	-11.0304
芹	-11.0305
摶	-11.0305
雉	-11.0306
藹	-11.0306
觔	-11.0307
軫	-11.0307
淘	-11.0311
迪	-11.0311
坊	-11.0314
貎	-11.0316
廿	-11.0316
迢	-11.0323
紐	-11.0496
稔	-11.0497
狄	-11.0499
誹	-11.0505
娘	-11.0505
昻	-11.0506
繇	-11.0507
拄	-11.0507
聆	-11.0509
梨	-11.0509
妬	-11.051
燎	-11.051
槐	-11.051
撲	-11.0511
擎	-11.0512
𢌿	-11.0512
枚	-11.0514
曁	-11.0514
楹	-11.0514
塑	-11.0516
隕	-11.0517
硯	-11.0521
箱	-11.0522
厨	-11.0523
尖	-11.0523
慎	-11.0523
蓼	-11.0525
綦	-11.0704
渝	-11.0709
椎	-11.0711
劈	-11.0713
諾	-11.0714
椽	-11.0716
羶	-11.0716
稻	-11.0716
㩦	-11.0717
逈	-11.0717
梗	-11.0717
滙	-11.0718
繳	-11.0719
摸	-11.0719
隷	-11.072
雛	-11.0721
浙	-11.0723
鷗	-11.0724
笥	-11.0726
訴	-11.0729
荀	-11.0901
梟	-11.0906
歉	-11.0915
兢	-11.0915
琬	-11.0916
豹	-11.0916
什	-11.0917
璣	-11.0918
構	-11.0918
褘	-11.0921
矧	-11.0922
鞠	-11.0922
鵠	-11.0924
贖	-11.0926
姚	-11.0926
纓	-11.0926
滓	-11.093
鞅	-11.093
袪	-11.0931
挹	-11.0931
驂	-11.0932
掉	-11.0934
裨	-11.0938
䑓	-11.0944
圜	-11.1123
誼	-11.1124
謟	-11.1128
彊	-11.1129
蕪	-11.113
栗	-11.1133
蠶	-11.1133
錮	-11.1134
杉	-11.1134
碩	-11.1135
耆	-11.1135
瀉	-11.1139
禧	-11.1141
磯	-11.1141
掀	-11.1142
鞏	-11.1142
𥸤	-11.1143
杭	-11.1143
匣	-11.1144
帳	-11.1145
寔	-11.1147
攴	-11.1148
扣	-11.1148
嬉	-11.1151
怛	-11.1158
穰	-11.1331
醍	-11.1342
覊	-11.1343
綏	-11.1345
鎮	-11.135
售	-11.135
緖	-11.135
牟	-11.1351
愍	-11.1352
葵	-11.1352
鉞	-11.1352
抒	-11.1353
喘	-11.1353
狎	-11.1353
恙	-11.1354
縫	-11.1354
鐺	-11.1354
鏘	-11.1355
斟	-11.1356
槩	-11.1359
悚	-11.1359
塜	-11.1361
哩	-11.1364
蔬	-11.1364
懶	-11.1364
紊	-11.1366
紂	-11.1554
恁	-11.1567
蔚	-11.1569
撇	-11.1573
燼	-11.1573
歩	-11.1575
蛙	-11.1576
澆	-11.1577
冐	-11.1577
勻	-11.1578
姜	-11.1578
鐸	-11.1579
滇	-11.1581
浣	-11.1581
諶	-11.1581
滛	-11.1584
翫	-11.1584
菓	-11.1585
飈	-11.1587
岫	-11.1587
巵	-11.1786
堵	-11.1796
瘁	-11.1797
哺	-11.1798
複	-11.18
蒿	-11.1801
汁	-11.1803
紳	-11.1805
耽	-11.1807
峨	-11.1807
餒	-11.1811
楮	-11.1811
摹	-11.1812
泗	-11.1813
閫	-11.1813
膀	-11.1813
毘	-11.1814
龕	-11.1814
奄	-11.1814
嚼	-11.1817
徳	-11.1829
咄	-11.2028
霆	-11.2029
妒	-11.2029
沼	-11.2031
劇	-11.2032
釐	-11.2034
聿	-11.2034
鄂	-11.2034
栖	-11.2035
饈	-11.2035
猴	-11.2035
帖	-11.2036
鏗	-11.2038
翦	-11.2038
兑	-11.2038
湫	-11.2038
款	-11.204
迸	-11.2042
絢	-11.2042
𥪡	-11.2043
漾	-11.2043
沂	-11.2044
埃	-11.2045
旻	-11.2046
妥	-11.2046
2	-11.2047
燧	-11.2048
幡	-11.205
嵓	-11.2058
輅	-11.2259
紋	-11.226
鑠	-11.2266
陌	-11.2267
凑	-11.2269
嘲	-11.227
梢	-11.2272
驢	-11.2272
剔	-11.2273
餉	-11.2274
駒	-11.2274
芻	-11.2274
冑	-11.2274
棗	-11.2276
熏	-11.2276
賑	-11.2277
餅	-11.2278
迥	-11.2278
霏	-11.228
恚	-11.2281
楓	-11.2281
邉	-11.2282
巻	-11.2284
瑣	-11.2287
寨	-11.2293
埀	-11.2296
粥	-11.2502
𡽪	-11.2503
硃	-11.251
俺	-11.2511
鉤	-11.2513
齎	-11.2514
批	-11.2515
慄	-11.2515
麾	-11.2516
況	-11.2516
稷	-11.2517
牌	-11.2518
嶠	-11.2521
黔	-11.2522
棒	-11.2522
鞋	-11.2523
溶	-11.2523
郃	-11.2524
儘	-11.2524
b	-11.2527
秤	-11.2528
闗	-11.2528
覿	-11.2529
粘	-11.2531
个	-11.2532
潺	-11.2533
皂	-11.2533
衙	-11.2535
臟	-11.275
蹶	-11.2758
玷	-11.2758
䙝	-11.2759
隳	-11.276
弻	-11.276
睛	-11.2765
檄	-11.2766
跂	-11.2766
胚	-11.2767
鑰	-11.2767
嘛	-11.2767
緬	-11.2768
俠	-11.2768
鬻	-11.277
劑	-11.277
冊	-11.277
鯨	-11.2771
凟	-11.2772
稿	-11.2772
珮	-11.2772
寳	-11.2773
禋	-11.2774
螺	-11.2774
棹	-11.2776
筠	-11.2777
3	-11.2777
抉	-11.2778
琪	-11.2778
陛	-11.2994
惚	-11.3005
鳶	-11.3012
掖	-11.3015
孳	-11.3016
症	-11.3017
裴	-11.3018
雹	-11.3018
鷹	-11.3019
鑊	-11.302
霍	-11.3021
賭	-11.3021
肌	-11.3021
臼	-11.3021
肘	-11.3022
訕	-11.3022
蜜	-11.3023
閏	-11.3023
窘	-11.3024
霎	-11.3024
虔	-11.3025
蘂	-11.3027
瞎	-11.3027
㕓	-11.3029
趁	-11.303
帙	-11.303
汶	-11.3035
磧	-11.304
湥	-11.305
祉	-11.3218
杓	-11.3275
訾	-11.3275
猖	-11.3275
爨	-11.3277
蜩	-11.3277
筮	-11.3278
烝	-11.3279
稅	-11.3286
畦	-11.3287
瘳	-11.3288
駟	-11.3288
豚	-11.3288
敞	-11.3288
謖	-11.3288
戢	-11.3289
盞	-11.3289
筍	-11.329
帷	-11.3291
鷺	-11.3291
閙	-11.3292
孑	-11.3292
搗	-11.3293
7	-11.3294
笋	-11.3294
唳	-11.3294
枷	-11.3297
歿	-11.3298
撑	-11.3298
6	-11.3299
耿	-11.3305
訥	-11.3538
桎	-11.3544
葺	-11.3544
彥	-11.3546
槖	-11.3549
殼	-11.3551
蛾	-11.3553
噩	-11.3554
闓	-11.3555
弁	-11.3555
昴	-11.3558
迍	-11.3559
牕	-11.3561
甄	-11.3562
轡	-11.3563
榛	-11.3563
挑	-11.3563
杵	-11.3565
罅	-11.3565
咦	-11.3566
瞑	-11.3566
翺	-11.3568
鍳	-11.3568
鰲	-11.3568
擺	-11.3569
裙	-11.3571
喃	-11.3571
隲	-11.3575
糟	-11.3821
翟	-11.3825
煦	-11.3826
篋	-11.3826
妓	-11.3826
幃	-11.3826
倩	-11.3828
跛	-11.3828
㓂	-11.3829
儆	-11.383
淋	-11.3832
梏	-11.3832
纂	-11.3834
譎	-11.3835
腋	-11.3836
拭	-11.3838
羨	-11.3838
駁	-11.3838
遡	-11.3839
葦	-11.3839
屹	-11.3841
烜	-11.3841
彬	-11.3842
押	-11.3843
札	-11.3843
鳬	-11.3844
嶼	-11.3846
潦	-11.3846
𦊱	-11.3849
蘚	-11.385
顛	-11.385
溷	-11.3851
啻	-11.401
懦	-11.4107
☷	-11.4108
鹵	-11.4109
褻	-11.4111
肓	-11.4113
緜	-11.4114
歐	-11.4114
榭	-11.4116
乂	-11.4117
羹	-11.4117
奬	-11.4117
矛	-11.4119
糊	-11.4119
舅	-11.412
撞	-11.4122
幪	-11.4122
悍	-11.4122
蚊	-11.4122
軿	-11.4122
洶	-11.4124
猪	-11.4124
惺	-11.4124
蹙	-11.4124
娟	-11.4125
諛	-11.4126
湮	-11.4126
廡	-11.4126
彚	-11.4127
店	-11.4128
熬	-11.4128
慵	-11.413
鴛	-11.4131
曇	-11.4132
碁	-11.4133
鴟	-11.439
軰	-11.4402
飭	-11.4403
窈	-11.4404
閽	-11.4404
屨	-11.4406
饕	-11.4406
蝦	-11.4407
揉	-11.4407
頡	-11.4408
沃	-11.4409
螢	-11.4409
萊	-11.441
窪	-11.441
堰	-11.4411
燮	-11.4411
鄒	-11.4413
㾮	-11.4415
紗	-11.4415
烱	-11.4415
蕋	-11.4416
愉	-11.4417
厓	-11.4418
蠟	-11.4419
棋	-11.442
裊	-11.4422
綬	-11.4422
垠	-11.4422
卉	-11.4422
甸	-11.4423
瘵	-11.4423
懋	-11.4423
憊	-11.4423
譙	-11.4425
磚	-11.4427
睨	-11.4429
磊	-11.443
鵝	-11.443
冩	-11.4433
狙	-11.4698
眚	-11.4707
蠡	-11.4708
䜟	-11.4713
粱	-11.4713
墉	-11.4715
捍	-11.4715
扃	-11.4717
蚤	-11.4718
覯	-11.4718
覲	-11.4719
暄	-11.4719
棧	-11.4719
耦	-11.472
陪	-11.472
剋	-11.4722
衮	-11.4722
覈	-11.4722
企	-11.4723
袋	-11.4723
斾	-11.4724
孀	-11.4725
搯	-11.4725
濙	-11.4725
鬢	-11.4725
姪	-11.4726
竦	-11.4726
黯	-11.4726
硤	-11.4726
拷	-11.4726
犢	-11.4726
呑	-11.4727
叚	-11.4727
姊	-11.4729
俸	-11.473
菲	-11.473
抄	-11.4731
汀	-11.4733
訝	-11.4734
𥈠	-11.4742
☵	-11.5011
☰	-11.5018
繆	-11.5018
曼	-11.5024
鐫	-11.5024
狡	-11.5024
芟	-11.5024
詆	-11.5025
版	-11.5026
挐	-11.5027
睢	-11.5028
珊	-11.5029
慝	-11.503
豔	-11.503
澡	-11.5031
凭	-11.5031
侔	-11.5031
靠	-11.5032
蹉	-11.5032
悴	-11.5033
肫	-11.5033
倏	-11.5033
剩	-11.5033
楷	-11.5034
攬	-11.5034
咀	-11.5034
兕	-11.5034
髏	-11.5035
歘	-11.5035
翛	-11.5036
迤	-11.5037
袂	-11.504
粤	-11.504
閤	-11.504
勛	-11.5041
懵	-11.5046
竄	-11.5047
螭	-11.5335
蕉	-11.5341
賄	-11.5341
虜	-11.5341
諍	-11.5343
諺	-11.5345
驥	-11.5348
煅	-11.5349
醖	-11.5349
掇	-11.535
徂	-11.535
徽	-11.535
慙	-11.5351
繽	-11.5351
徇	-11.5355
旃	-11.5359
噪	-11.536
肱	-11.536
裹	-11.536
癘	-11.5361
掬	-11.5362
醺	-11.5362
淳	-11.5362
瞿	-11.5362
輾	-11.5363
涎	-11.5364
蘊	-11.5365
瞳	-11.5367
携	-11.5368
賫	-11.5369
剎	-11.5369
淒	-11.537
㖿	-11.5664
犧	-11.5672
脅	-11.5673
揜	-11.5675
忻	-11.5679
篡	-11.5682
寤	-11.5682
錙	-11.5683
拊	-11.5684
攫	-11.5686
幗	-11.5686
緇	-11.5686
鍛	-11.5688
稜	-11.5688
𤃉	-11.5688
衾	-11.5688
騷	-11.5688
戯	-11.5691
圯	-11.5692
讎	-11.5694
饉	-11.5695
閬	-11.5697
禕	-11.5698
蜃	-11.5699
榴	-11.5699
澂	-11.57
崆	-11.5702
租	-11.5704
謄	-11.5706
彖	-11.5995
趎	-11.6011
妣	-11.6018
癰	-11.6023
甃	-11.6023
姝	-11.6023
詈	-11.6024
敖	-11.6025
沌	-11.6025
冦	-11.6025
溫	-11.6026
藪	-11.6026
馘	-11.6026
刮	-11.6026
瘞	-11.6027
齧	-11.6028
歲	-11.6028
閎	-11.6029
蔑	-11.603
祛	-11.603
撻	-11.6031
|	-11.6032
磐	-11.6033
耘	-11.6033
瀰	-11.6033
滲	-11.6034
斑	-11.6035
庾	-11.6036
蘖	-11.6036
瞶	-11.6036
牘	-11.6036
眇	-11.6038
鍚	-11.604
儕	-11.6041
霾	-11.6041
紆	-11.6041
賡	-11.6042
幔	-11.6042
勷	-11.6044
夰	-11.6048
窻	-11.6048
罩	-11.6053
瑾	-11.6057
羕	-11.6318
儻	-11.6368
琮	-11.6371
組	-11.6372
婉	-11.6374
扼	-11.6375
痒	-11.6375
箴	-11.6377
☱	-11.6378
睫	-11.6378
湏	-11.6378
怙	-11.638
攷	-11.638
蕙	-11.638
葩	-11.638
鏤	-11.6382
窅	-11.6383
酥	-11.6383
盎	-11.6383
琦	-11.6385
穉	-11.6386
飱	-11.6386
堦	-11.6386
朦	-11.6386
沮	-11.6386
沴	-11.6386
舛	-11.6387
偪	-11.6387
揑	-11.6388
潢	-11.6388
柢	-11.6388
旂	-11.6389
沁	-11.6389
衫	-11.6391
簧	-11.6391
簣	-11.6391
頫	-11.6394
㐫	-11.6394
僉	-11.6395
楠	-11.6396
湍	-11.6397
脆	-11.6398
涪	-11.6399
屐	-11.64
黛	-11.6401
蜿	-11.6401
碣	-11.6403
肚	-11.6403
磁	-11.6404
蓑	-11.6404
徃	-11.6405
燾	-11.6736
涿	-11.6742
刁	-11.6743
饗	-11.6744
隍	-11.6745
檜	-11.6746
爼	-11.6747
郢	-11.6748
寧	-11.6751
扄	-11.6754
沭	-11.6755
逡	-11.6756
憨	-11.6757
懾	-11.6757
苴	-11.6757
拴	-11.6757
滂	-11.6757
傭	-11.6757
錐	-11.6758
諡	-11.676
鷲	-11.676
豺	-11.676
盥	-11.676
暝	-11.6761
阮	-11.6761
昂	-11.6761
杪	-11.6761
閼	-11.6762
鍼	-11.6762
嗅	-11.6763
滕	-11.6763
窄	-11.6764
厦	-11.6764
椒	-11.6765
啄	-11.6766
塢	-11.6768
喟	-11.6768
鶉	-11.6771
泮	-11.6771
逋	-11.6773
减	-11.6775
瞀	-11.7126
嫗	-11.7127
朵	-11.7127
顙	-11.7132
疽	-11.7132
繕	-11.7133
諉	-11.7136
嗑	-11.7136
甌	-11.7138
☴	-11.7138
螟	-11.7138
晌	-11.7138
猥	-11.7138
綽	-11.714
軾	-11.714
佯	-11.714
郝	-11.7141
蔕	-11.7142
弈	-11.7142
涇	-11.7143
礫	-11.7143
閔	-11.7143
坂	-11.7143
犁	-11.7144
梳	-11.7144
詹	-11.7144
賽	-11.7145
屣	-11.7145
翅	-11.7146
殖	-11.7146
頰	-11.7146
型	-11.7147
淙	-11.7147
墅	-11.7147
籲	-11.7148
硫	-11.715
矗	-11.715
翮	-11.7151
篁	-11.7152
恊	-11.7153
墀	-11.7154
嵌	-11.7155
濺	-11.7155
禺	-11.7156
浹	-11.7159
慟	-11.7161
嬴	-11.7166
闋	-11.7166
暈	-11.717
昊	-11.7501
惓	-11.7525
亹	-11.753
吠	-11.753
簞	-11.7531
鮑	-11.7533
☳	-11.7533
膜	-11.7534
鼈	-11.7537
蓍	-11.7538
穡	-11.7538
豎	-11.7539
晷	-11.7539
憔	-11.7539
鉄	-11.754
廕	-11.7542
啾	-11.7542
耨	-11.7543
俛	-11.7543
蹲	-11.7544
驀	-11.7544
藕	-11.7545
贍	-11.7545
甜	-11.7546
邸	-11.7546
删	-11.7547
鞍	-11.7548
駡	-11.7548
犀	-11.755
裸	-11.755
琰	-11.7551
潑	-11.7551
􂆟	-11.7552
蜒	-11.7552
崎	-11.7554
訐	-11.7555
溉	-11.7557
帽	-11.7557
舄	-11.7557
𣷹	-11.7557
昃	-11.7559
棊	-11.7559
㕑	-11.756
璘	-11.7562
央	-11.7905
拇	-11.7931
謔	-11.7933
牿	-11.7933
彫	-11.7937
糠	-11.7937
夸	-11.7939
茨	-11.7941
廹	-11.7947
☶	-11.7948
蘄	-11.795
棍	-11.795
櫛	-11.7951
泳	-11.7951
醯	-11.7951
陲	-11.7953
冡	-11.7954
仆	-11.7954
桴	-11.7954
欹	-11.7954
葭	-11.7955
蚌	-11.7955
亶	-11.7955
泝	-11.7955
彝	-11.7956
妃	-11.7957
腴	-11.7957
灝	-11.7959
茆	-11.7959
怵	-11.7959
啜	-11.796
褰	-11.796
蘧	-11.796
誚	-11.7961
脯	-11.7961
鎗	-11.7961
蹻	-11.7961
縹	-11.7962
刪	-11.7962
翩	-11.7963
觧	-11.7963
沅	-11.7963
瑯	-11.7963
弋	-11.7963
釘	-11.7965
軼	-11.7965
幣	-11.7966
釵	-11.7966
勺	-11.7968
霛	-11.7968
饋	-11.7968
􂆞	-11.7968
謐	-11.797
巉	-11.7971
卭	-11.7972
毗	-11.7972
☉	-11.7975
㧞	-11.7975
柩	-11.7977
慇	-11.7979
雝	-11.8368
庻	-11.837
☲	-11.8377
逰	-11.8384
汾	-11.8384
縻	-11.8384
衒	-11.8386
縧	-11.8386
圞	-11.8389
鴆	-11.8389
怍	-11.839
幷	-11.8391
垓	-11.8391
眄	-11.8392
賚	-11.8392
豢	-11.8394
戞	-11.8394
䑛	-11.8395
鑾	-11.8397
贏	-11.8397
鋸	-11.8397
宓	-11.8397
徤	-11.8397
甑	-11.8398
嶷	-11.8398
彤	-11.8399
𦕈	-11.84
璇	-11.8401
臯	-11.8401
倂	-11.8401
跌	-11.8401
熈	-11.8402
晤	-11.8403
嫡	-11.8403
莢	-11.8403
揀	-11.8403
傘	-11.8404
窠	-11.8405
輳	-11.8405
溜	-11.8407
吻	-11.8408
旭	-11.8408
蝎	-11.841
㫖	-11.841
哈	-11.841
偹	-11.841
駿	-11.8412
舖	-11.8419
鸚	-11.8423
嬾	-11.8432
僖	-11.8438
哪	-11.8818
笏	-11.8826
狸	-11.8827
刳	-11.8832
壹	-11.8833
藿	-11.8836
裒	-11.8837
甓	-11.8839
糜	-11.884
飫	-11.884
剗	-11.884
臬	-11.8841
腕	-11.8842
慣	-11.8843
躅	-11.8843
蕆	-11.8845
餽	-11.8845
謳	-11.8845
胄	-11.8846
顖	-11.8846
譁	-11.8846
賔	-11.8846
鱉	-11.8847
璽	-11.8847
拏	-11.8847
劃	-11.8847
渣	-11.8847
諳	-11.8848
飼	-11.8849
拖	-11.885
賂	-11.885
瓣	-11.8851
届	-11.8851
暎	-11.8852
努	-11.8852
孛	-11.8852
娼	-11.8852
呆	-11.8853
嶲	-11.8854
紺	-11.8854
揺	-11.8855
□	-11.8857
皤	-11.8857
羿	-11.8858
睇	-11.8859
氓	-11.8859
叭	-11.886
葱	-11.886
羆	-11.8861
仄	-11.8861
紏	-11.8861
舘	-11.8862
翌	-11.8862
懃	-11.8863
盻	-11.8865
㟁	-11.8866
壻	-11.8867
澍	-11.8867
鬆	-11.8868
痘	-11.887
䖏	-11.888
缽	-11.8906
拐	-11.9298
宼	-11.9301
徨	-11.9308
簟	-11.931
驤	-11.931
刖	-11.9312
硬	-11.9314
慤	-11.9315
渟	-11.9315
榖	-11.9316
緡	-11.9316
寖	-11.9316
覬	-11.9316
廩	-11.9317
羈	-11.9317
滾	-11.9317
躱	-11.9319
聶	-11.932
廖	-11.932
敻	-11.932
謠	-11.932
熳	-11.9321
槨	-11.9321
凱	-11.9322
沬	-11.9322
鯤	-11.9324
跟	-11.9325
僂	-11.9325
嶮	-11.9327
巿	-11.9327
猨	-11.9327
陡	-11.9327
薇	-11.9328
鐙	-11.9328
踈	-11.9328
跣	-11.9329
皋	-11.9329
瑚	-11.9329
礪	-11.933
瑰	-11.9332
傚	-11.9332
哄	-11.9332
梭	-11.9333
摭	-11.9334
掾	-11.9335
串	-11.9336
曦	-11.9336
裾	-11.9336
麋	-11.9336
媪	-11.9338
翱	-11.9338
胖	-11.9341
粲	-11.9343
餞	-11.9352
彘	-11.9805
罐	-11.9805
焰	-11.9808
跖	-11.9809
猫	-11.981
樟	-11.9813
㗖	-11.9813
闚	-11.9813
矚	-11.9817
菽	-11.9818
矍	-11.9818
净	-11.9818
畛	-11.9818
埴	-11.9819
訊	-11.982
跎	-11.9821
鴨	-11.9821
徠	-11.9822
炯	-11.9822
燠	-11.9823
耜	-11.9823
疣	-11.9823
蛭	-11.9823
愴	-11.9823
悄	-11.9824
蒞	-11.9824
惘	-11.9824
沱	-11.9825
襍	-11.9825
澇	-11.9826
顓	-11.9826
赭	-11.9826
扳	-11.9827
拽	-11.9829
韞	-11.9829
虺	-11.9829
嶇	-11.9829
綻	-11.983
訢	-11.9831
姹	-11.9831
僊	-11.9831
綫	-11.9831
錘	-11.9831
縊	-11.9831
韁	-11.9832
杲	-11.9832
稠	-11.9833
瘴	-11.9833
稳	-11.9833
熄	-11.9834
蜍	-11.9834
咬	-11.9835
丶	-11.9835
艇	-11.9835
瑛	-11.9838
辣	-11.9844
絆	-11.9844
厠	-11.9845
胆	-11.9846
痿	-11.9848
呀	-11.985
嘔	-11.9852
浚	-12.0332
酢	-12.0332
喙	-12.0336
緝	-12.0337
黼	-12.0337
鉉	-12.0338
鬣	-12.0339
麼	-12.034
譔	-12.0341
逗	-12.0341
媿	-12.0345
脇	-12.0346
湼	-12.0346
冤	-12.0346
耄	-12.0347
綢	-12.0347
逵	-12.0347
炒	-12.0348
蒨	-12.0348
悽	-12.0349
攪	-12.0349
徊	-12.035
嚇	-12.035
逭	-12.035
漚	-12.035
颺	-12.0351
蜮	-12.0353
襯	-12.0355
隹	-12.0355
磅	-12.0355
寕	-12.0355
綰	-12.0357
冗	-12.0357
遘	-12.0357
擘	-12.0357
崢	-12.0358
銛	-12.0358
耑	-12.0358
脛	-12.0359
鬟	-12.0359
皥	-12.036
頷	-12.036
燿	-12.036
群	-12.0361
巘	-12.0361
嗷	-12.0361
絹	-12.0361
愫	-12.0362
濬	-12.0362
㓜	-12.0364
繭	-12.0365
閶	-12.0365
埽	-12.0366
髫	-12.0366
逅	-12.0368
邅	-12.037
涌	-12.0372
簽	-12.0374
佃	-12.0374
鯉	-12.0375
囦	-12.0382
黒	-12.0382
痼	-12.0886
噉	-12.0888
剏	-12.0889
攄	-12.089
撤	-12.0893
漕	-12.0894
砭	-12.0895
鈐	-12.0896
駘	-12.0896
耻	-12.0897
竪	-12.0897
墖	-12.0898
􂂁	-12.0898
詡	-12.0899
廸	-12.0899
摯	-12.0899
靳	-12.0899
冽	-12.0899
弃	-12.09
頺	-12.0901
廛	-12.0901
庄	-12.0903
凹	-12.0903
唏	-12.0903
㑹	-12.0904
泒	-12.0904
𦀦	-12.0904
幟	-12.0904
夥	-12.0905
殽	-12.0906
醇	-12.0906
圉	-12.0907
横	-12.0907
橐	-12.0908
抹	-12.0908
牂	-12.0908
氐	-12.0908
躊	-12.0909
愷	-12.0909
弒	-12.0909
悛	-12.091
䘏	-12.091
哂	-12.0911
鼉	-12.0911
媳	-12.0912
徉	-12.0913
窿	-12.0913
煢	-12.0913
歙	-12.0915
怏	-12.0915
鵑	-12.0915
濠	-12.0915
珪	-12.0916
㜑	-12.0916
殀	-12.0918
魑	-12.0919
綃	-12.092
描	-12.0921
蹕	-12.0922
愠	-12.0925
槃	-12.0925
歳	-12.0925
砧	-12.0925
孏	-12.0925
拓	-12.0926
昱	-12.0927
貿	-12.0927
尿	-12.0928
塹	-12.0932
雺	-12.0934
甡	-12.0941
彷	-12.1476
璃	-12.1476
傀	-12.1477
忮	-12.148
竽	-12.148
褊	-12.1482
朧	-12.1482
菑	-12.1482
埏	-12.1483
樗	-12.1484
癢	-12.1484
萱	-12.1485
袵	-12.1485
墊	-12.1485
轆	-12.1485
跏	-12.1485
轝	-12.1485
羌	-12.1486
繚	-12.1487
唧	-12.1488
弧	-12.1489
斌	-12.1489
熹	-12.149
噀	-12.149
脗	-12.1491
它	-12.1491
呻	-12.1492
菱	-12.1493
漬	-12.1493
橙	-12.1493
荄	-12.1494
匕	-12.1494
鏌	-12.1494
浄	-12.1495
嘴	-12.1495
𨓜	-12.1495
笞	-12.1496
皺	-12.1496
薈	-12.1497
躇	-12.1497
嘵	-12.1497
晡	-12.1498
菁	-12.1499
獰	-12.15
慊	-12.15
缶	-12.15
9	-12.1501
渥	-12.1502
䭾	-12.1502
拆	-12.1502
撿	-12.1502
荇	-12.1504
諮	-12.1505
嶧	-12.1505
荏	-12.1506
㘕	-12.1507
瘋	-12.1507
篙	-12.1507
穎	-12.1508
犍	-12.1508
渤	-12.1508
倆	-12.1509
盃	-12.1509
塋	-12.1509
魘	-12.151
詫	-12.1511
簑	-12.1512
碗	-12.1512
翀	-12.1512
茸	-12.1516
焱	-12.1519
㙮	-12.1523
黿	-12.153
颯	-12.1535
虩	-12.2081
韄	-12.2082
尻	-12.2085
邳	-12.2093
塟	-12.21
黻	-12.2105
廼	-12.2109
萎	-12.2111
楯	-12.2111
稊	-12.2113
曙	-12.2113
耒	-12.2114
疼	-12.2114
貂	-12.2115
搐	-12.2115
腮	-12.2115
顒	-12.2116
笻	-12.2116
攣	-12.2116
捩	-12.2116
陝	-12.2116
絜	-12.2117
撘	-12.2117
癩	-12.2117
躐	-12.2117
𢪩	-12.2117
購	-12.2119
氾	-12.2119
寮	-12.2119
帑	-12.2119
毬	-12.2119
煌	-12.212
穗	-12.2121
揲	-12.2122
衎	-12.2123
姙	-12.2123
𥩟	-12.2124
燬	-12.2124
諄	-12.2124
賒	-12.2124
臞	-12.2125
礴	-12.2125
套	-12.2126
橛	-12.2126
縉	-12.2126
嘶	-12.2126
剥	-12.2126
幄	-12.2127
媸	-12.2127
墠	-12.2127
閴	-12.2128
陁	-12.213
涘	-12.213
粮	-12.213
疚	-12.213
蟹	-12.2131
獘	-12.2132
𩲉	-12.2132
絪	-12.2132
峴	-12.2133
栩	-12.2133
佗	-12.2133
褓	-12.2134
臉	-12.2134
樑	-12.2134
愕	-12.2135
闈	-12.2136
璚	-12.2137
嚩	-12.2137
票	-12.2138
颼	-12.2139
匐	-12.2139
匍	-12.2139
炤	-12.2142
厮	-12.2142
銓	-12.2144
鄲	-12.2144
仝	-12.2145
邯	-12.2145
髩	-12.2145
秃	-12.2147
飍	-12.2152
晜	-12.2191
餚	-12.2761
拿	-12.2762
芭	-12.2763
瓠	-12.2764
羔	-12.2767
劓	-12.2768
鍵	-12.277
騏	-12.2771
毦	-12.2771
黷	-12.2772
阱	-12.2772
躑	-12.2773
蟇	-12.2773
婪	-12.2774
􂂀	-12.2774
賾	-12.2775
洊	-12.2776
搔	-12.2777
酹	-12.2778
兗	-12.2778
闤	-12.2779
菌	-12.278
喤	-12.278
盾	-12.2781
昉	-12.2781
响	-12.2781
捻	-12.2781
瞥	-12.2781
筐	-12.2781
賺	-12.2782
燔	-12.2782
峪	-12.2782
恠	-12.2783
黽	-12.2783
䘮	-12.2784
腫	-12.2785
毆	-12.2785
𡧾	-12.2785
庠	-12.2787
騶	-12.2787
伶	-12.2788
緻	-12.2788
烽	-12.2788
娠	-12.2788
瀼	-12.2788
茁	-12.2789
頹	-12.2789
愓	-12.2789
瘥	-12.2789
瑋	-12.279
郵	-12.279
遴	-12.279
僵	-12.2791
嵯	-12.2791
崛	-12.2791
忖	-12.2791
嫓	-12.2791
撚	-12.2791
嶸	-12.2793
薨	-12.2795
嬋	-12.2795
鬧	-12.2795
軻	-12.2796
㴠	-12.2796
覘	-12.2797
莘	-12.2797
筒	-12.2797
撐	-12.2797
8	-12.2797
蹠	-12.2798
氤	-12.2798
膾	-12.2799
劎	-12.2799
鶩	-12.2801
咳	-12.2801
扎	-12.2801
妝	-12.2802
闥	-12.2803
纜	-12.2803
疥	-12.2805
膳	-12.2805
桶	-12.2805
嚙	-12.2806
扈	-12.2806
彀	-12.2808
䟽	-12.2809
騾	-12.2809
飴	-12.2814
嚕	-12.283
枘	-12.3468
皿	-12.3479
欬	-12.348
属	-12.3485
癭	-12.3486
儷	-12.3486
氊	-12.3488
晒	-12.3491
􂈮	-12.3491
祲	-12.3491
筴	-12.3491
哮	-12.3492
濩	-12.3493
畸	-12.3494
渉	-12.3494
強	-12.3495
甥	-12.3495
煽	-12.3495
閟	-12.3496
籛	-12.3496
畱	-12.3496
隈	-12.3497
嬪	-12.3497
賬	-12.3497
跼	-12.3497
叵	-12.3498
杆	-12.3498
瓮	-12.3498
璿	-12.3498
匀	-12.3499
卸	-12.3499
蓊	-12.35
㘞	-12.35
斫	-12.35
扞	-12.35
艘	-12.35
麵	-12.3501
刊	-12.3501
鹹	-12.3502
湃	-12.3502
剡	-12.3502
癖	-12.3503
拌	-12.3503
􂃄	-12.3503
磕	-12.3503
櫃	-12.3503
曛	-12.3503
訉	-12.3503
鸝	-12.3503
璫	-12.3504
萇	-12.3504
彪	-12.3505
黥	-12.3505
舂	-12.3505
旒	-12.3506
攙	-12.3506
阪	-12.3506
灧	-12.3506
詬	-12.3507
晞	-12.3507
忭	-12.3507
愜	-12.3507
徜	-12.3508
欒	-12.3508
芰	-12.3508
碾	-12.3508
拉	-12.3508
禬	-12.3509
芮	-12.351
伫	-12.351
鼕	-12.351
餙	-12.3511
洙	-12.3511
𦙍	-12.3511
袤	-12.3511
㽔	-12.3511
婺	-12.3511
潜	-12.3512
氳	-12.3513
桷	-12.3513
覡	-12.3514
跑	-12.3514
鐔	-12.3514
劖	-12.3514
烘	-12.3515
襁	-12.3516
挨	-12.3516
鄴	-12.3517
璀	-12.3518
秧	-12.3521
緋	-12.3522
唄	-12.3523
菩	-12.3524
荔	-12.3525
琯	-12.3528
屵	-12.3535
􂆥	-12.3537
􂆠	-12.3538
蚕	-12.3542
杠	-12.3552
紜	-12.3878
剽	-12.4221
荊	-12.4237
簋	-12.4237
懊	-12.4245
屎	-12.4249
膂	-12.425
胷	-12.4253
将	-12.4253
匏	-12.4255
憒	-12.4255
軋	-12.4255
隼	-12.4256
鯢	-12.4257
瘠	-12.4259
坯	-12.4259
麤	-12.4259
愀	-12.426
僑	-12.426
冏	-12.426
嗄	-12.426
悦	-12.4261
詘	-12.4261
闠	-12.4261
剜	-12.4262
丟	-12.4262
遨	-12.4262
龔	-12.4262
㫋	-12.4263
刄	-12.4263
堊	-12.4263
苕	-12.4264
羯	-12.4264
脣	-12.4264
螫	-12.4264
縶	-12.4264
禄	-12.4265
膩	-12.4265
褁	-12.4265
曝	-12.4266
鴞	-12.4266
桔	-12.4266
幙	-12.4266
愬	-12.4266
嫖	-12.4267
岌	-12.4267
篠	-12.4268
衅	-12.4268
瀚	-12.4268
觚	-12.4268
鉗	-12.4268
崒	-12.4268
嗚	-12.4268
箸	-12.4268
么	-12.4268
崗	-12.4268
呴	-12.4268
弢	-12.4269
礎	-12.4269
腭	-12.4269
籃	-12.4269
殤	-12.427
淤	-12.4271
濮	-12.4271
魒	-12.4271
暦	-12.4271
宕	-12.4272
沠	-12.4272
僨	-12.4272
翎	-12.4272
繙	-12.4272
睥	-12.4273
疋	-12.4273
旄	-12.4274
丨	-12.4274
褸	-12.4275
猗	-12.4275
眤	-12.4275
酈	-12.4275
璜	-12.4275
髭	-12.4275
蝡	-12.4276
叫	-12.4276
煜	-12.4276
殂	-12.4276
塌	-12.4277
欝	-12.4277
邐	-12.4277
酋	-12.4279
緱	-12.4279
巇	-12.428
漣	-12.428
饅	-12.428
沕	-12.428
姐	-12.4281
旙	-12.4281
站	-12.4282
褚	-12.4282
咤	-12.4282
义	-12.4282
悰	-12.4282
黠	-12.4282
鷙	-12.4282
觜	-12.4283
諂	-12.4283
扑	-12.4283
炮	-12.4284
𢎞	-12.4284
饜	-12.4284
獎	-12.4284
寘	-12.4285
秪	-12.4285
鑛	-12.4285
湄	-12.4286
絞	-12.4287
薜	-12.4287
㨿	-12.4288
籤	-12.4289
僮	-12.429
帔	-12.429
蔀	-12.429
閡	-12.4293
璨	-12.4293
斁	-12.4293
蹴	-12.4294
鼾	-12.4295
縞	-12.4297
哨	-12.4298
珏	-12.43
彦	-12.4301
𡿧	-12.4306
􂆤	-12.4307
祜	-12.4307
鮒	-12.5068
㴱	-12.507
丏	-12.5071
罟	-12.5076
狩	-12.5079
嗌	-12.5083
讟	-12.5084
骷	-12.5084
趕	-12.5085
倬	-12.5086
哽	-12.5087
静	-12.5087
恂	-12.5089
沓	-12.5089
唫	-12.5089
橡	-12.5089
稗	-12.5091
擠	-12.5092
嫂	-12.5092
孱	-12.5093
夤	-12.5093
伉	-12.5093
喩	-12.5093
胝	-12.5093
澟	-12.5094
驩	-12.5094
禴	-12.5095
紱	-12.5095
獮	-12.5095
爆	-12.5097
荻	-12.5097
柘	-12.5097
:	-12.5098
擦	-12.5098
漳	-12.5099
摺	-12.5099
詁	-12.5101
弇	-12.5101
嚧	-12.5101
漉	-12.5101
廳	-12.5102
錬	-12.5102
䕫	-12.5102
糶	-12.5102
壼	-12.5103
琥	-12.5103
榔	-12.5103
嵋	-12.5103
聒	-12.5103
綾	-12.5105
澎	-12.5105
劂	-12.5105
穫	-12.5105
浥	-12.5105
邕	-12.5105
瀦	-12.5105
鋩	-12.5106
悸	-12.5106
淬	-12.5106
袈	-12.5107
闐	-12.5107
吊	-12.5107
𤱶	-12.5107
蹐	-12.5107
莅	-12.5108
㸃	-12.5108
腿	-12.5109
頥	-12.5109
磋	-12.5109
穽	-12.511
緼	-12.511
兖	-12.511
駝	-12.511
罇	-12.5111
呢	-12.5111
崙	-12.5112
黏	-12.5112
碓	-12.5113
劾	-12.5113
儂	-12.5113
檐	-12.5113
痰	-12.5114
鼐	-12.5114
傴	-12.5114
鰥	-12.5114
莠	-12.5114
刎	-12.5115
獬	-12.5115
甍	-12.5115
莾	-12.5115
仭	-12.5117
櫻	-12.5117
囓	-12.5117
篷	-12.5117
𢷬	-12.5117
駛	-12.5117
𢹂	-12.5117
俚	-12.5118
球	-12.5118
蓴	-12.5118
媧	-12.5119
翬	-12.5119
磵	-12.512
殛	-12.512
匙	-12.5121
襖	-12.5121
頁	-12.5121
毎	-12.5121
蟒	-12.5122
𪖙	-12.5122
媵	-12.5122
姨	-12.5123
捺	-12.5124
跬	-12.5126
漪	-12.5127
蛩	-12.5128
籖	-12.5129
㵼	-12.5129
叡	-12.5131
勑	-12.5131
竚	-12.5133
􂆣	-12.5138
喊	-12.514
鋋	-12.5146
慼	-12.5979
靣	-12.598
櫬	-12.5987
盱	-12.5989
缸	-12.5994
螣	-12.5994
愎	-12.5995
踊	-12.5997
秕	-12.5998
蠆	-12.5998
卞	-12.5998
匾	-12.5999
櫟	-12.6
鞫	-12.6
朮	-12.6
猾	-12.6001
◎	-12.6001
戱	-12.6002
霹	-12.6003
唸	-12.6003
苓	-12.6004
瀹	-12.6004
騖	-12.6004
齕	-12.6004
塚	-12.6004
眯	-12.6005
咥	-12.6005
掊	-12.6006
圄	-12.6007
刷	-12.6007
衿	-12.6008
囹	-12.6008
壟	-12.6008
疢	-12.6008
搦	-12.6009
茀	-12.6009
佇	-12.601
霐	-12.601
汰	-12.6011
袒	-12.6012
捶	-12.6012
棣	-12.6012
賙	-12.6012
歷	-12.6013
抺	-12.6013
騭	-12.6013
厰	-12.6014
譯	-12.6014
攔	-12.6014
槽	-12.6014
犂	-12.6015
繒	-12.6015
蟊	-12.6015
摠	-12.6015
鸛	-12.6015
彎	-12.6016
蘸	-12.6016
銕	-12.6016
萋	-12.6016
姫	-12.6016
瀬	-12.6017
􂈜	-12.6017
犖	-12.6017
洄	-12.6017
瘍	-12.6017
靚	-12.6018
擯	-12.6018
茵	-12.6018
􂈝	-12.6018
廪	-12.6018
𤢆	-12.6019
㕔	-12.6019
鰌	-12.602
刈	-12.602
皁	-12.602
霪	-12.602
噏	-12.6021
濂	-12.6021
淖	-12.6021
汩	-12.6021
颷	-12.6021
舫	-12.6022
綆	-12.6022
砒	-12.6022
胭	-12.6022
蒐	-12.6022
抝	-12.6023
汐	-12.6023
券	-12.6023
薺	-12.6023
皞	-12.6023
蛤	-12.6023
蓁	-12.6023
顥	-12.6024
嵾	-12.6025
蕚	-12.6026
澁	-12.6026
隄	-12.6026
泌	-12.6026
謎	-12.6027
櫺	-12.6027
丿	-12.6027
膓	-12.6028
纛	-12.6028
贄	-12.6028
潼	-12.6029
彗	-12.603
沆	-12.6031
罏	-12.6031
蛛	-12.6031
賛	-12.6031
灕	-12.6032
鶻	-12.6034
喇	-12.6037
沫	-12.6041
莎	-12.6043
璈	-12.6043
磷	-12.6047
牋	-12.6048
咱	-12.605
鎚	-12.6052
蘗	-12.6056
瓈	-12.6982
筭	-12.6987
聴	-12.6989
顫	-12.699
从	-12.6991
坼	-12.6991
箆	-12.6991
娃	-12.6993
簮	-12.6993
苐	-12.6993
侃	-12.6994
鬥	-12.6994
皦	-12.6994
煒	-12.6996
扯	-12.6996
汴	-12.6996
蝨	-12.6997
皙	-12.6998
殱	-12.6998
弑	-12.7
柬	-12.7001
猱	-12.7001
靉	-12.7001
湊	-12.7001
擷	-12.7003
蒭	-12.7003
舁	-12.7003
畨	-12.7004
肴	-12.7004
圮	-12.7005
囷	-12.7005
耋	-12.7005
呬	-12.7005
眥	-12.7005
喑	-12.7005
祺	-12.7005
种	-12.7005
柟	-12.7006
涖	-12.7006
崿	-12.7007
􂅶	-12.7007
倨	-12.7008
櫝	-12.7009
躚	-12.7009
珞	-12.701
禿	-12.701
鏁	-12.701
邽	-12.7011
締	-12.7011
㳫	-12.7013
窬	-12.7013
襤	-12.7013
笳	-12.7013
巋	-12.7013
趂	-12.7014
悋	-12.7014
箎	-12.7015
庀	-12.7015
勦	-12.7015
溼	-12.7015
蓐	-12.7015
蚿	-12.7015
煨	-12.7016
筯	-12.7016
蘅	-12.7016
争	-12.7016
杼	-12.7016
鵷	-12.7017
竢	-12.7018
𣗥	-12.7018
覷	-12.7018
嶔	-12.7018
雎	-12.7019
奐	-12.7019
崚	-12.7019
郿	-12.7019
湔	-12.7019
柰	-12.7019
褫	-12.702
翥	-12.7021
挕	-12.7021
扛	-12.7021
扭	-12.7021
嗤	-12.7021
舸	-12.7021
櫂	-12.7022
汛	-12.7022
滉	-12.7022
隰	-12.7022
俎	-12.7022
粵	-12.7023
痢	-12.7023
櫓	-12.7024
蔥	-12.7024
芋	-12.7026
賖	-12.7027
搶	-12.7027
醅	-12.7028
雋	-12.7029
絙	-12.7029
籓	-12.703
怱	-12.703
偽	-12.7031
瀣	-12.7031
蕖	-12.7031
豊	-12.7031
厝	-12.7032
砍	-12.7032
㳂	-12.7032
䀮	-12.7033
跽	-12.7034
郫	-12.7036
髙	-12.7038
灸	-12.7041
霶	-12.7041
鎰	-12.7045
唘	-12.7047
曬	-12.705
肄	-12.7054
譊	-12.7061
􂆢	-12.7062
􂆨	-12.806
痔	-12.8074
宙	-12.808
呾	-12.8089
鋼	-12.8092
蹢	-12.8094
狶	-12.8094
隗	-12.8094
嘟	-12.8094
遄	-12.8095
很	-12.8096
暍	-12.8097
潞	-12.8098
咐	-12.8099
狃	-12.8099
醬	-12.81
迕	-12.8101
痁	-12.8102
磔	-12.8104
侗	-12.8105
綉	-12.8105
婿	-12.8106
僣	-12.8106
暨	-12.8106
遹	-12.8107
鷓	-12.8107
嫠	-12.8107
䜿	-12.8109
禰	-12.8109
禆	-12.8111
鴣	-12.8111
𡸅	-12.8111
惇	-12.8112
䘒	-12.8112
醪	-12.8113
販	-12.8113
淇	-12.8114
歃	-12.8114
垤	-12.8114
鐻	-12.8114
仔	-12.8115
玃	-12.8115
獃	-12.8117
𤓰	-12.8117
蜓	-12.8117
煇	-12.8117
曖	-12.8118
芴	-12.8118
洸	-12.8118
痾	-12.8118
胤	-12.8119
鴒	-12.8119
捴	-12.812
窆	-12.812
嶓	-12.812
邏	-12.8121
薑	-12.8121
哼	-12.8121
􂋔	-12.8121
琤	-12.8122
浯	-12.8122
腠	-12.8122
癤	-12.8122
圻	-12.8122
朂	-12.8122
坵	-12.8123
鋏	-12.8124
槍	-12.8124
篲	-12.8124
阼	-12.8125
殮	-12.8126
賅	-12.8127
糴	-12.8127
彜	-12.8127
鈕	-12.8128
鍔	-12.8128
港	-12.8129
霈	-12.8129
坌	-12.8129
𤊔	-12.8129
壠	-12.8129
唔	-12.8129
瀨	-12.813
𡄦	-12.813
虀	-12.813
澦	-12.813
晁	-12.813
礬	-12.8131
吮	-12.8131
勲	-12.8132
唻	-12.8132
菡	-12.8132
擄	-12.8133
侑	-12.8133
鬂	-12.8133
畿	-12.8133
窖	-12.8133
扆	-12.8133
𠐒	-12.8134
疹	-12.8134
滸	-12.8135
珂	-12.8135
癉	-12.8135
癃	-12.8135
町	-12.8136
瞪	-12.8136
鏹	-12.8136
􂃧	-12.8136
厶	-12.8136
瓞	-12.8136
楙	-12.8136
估	-12.8136
豳	-12.8137
􂋧	-12.8138
麄	-12.8138
鱠	-12.8138
嗈	-12.8138
讃	-12.8139
盖	-12.814
喞	-12.814
𣑱	-12.8141
楨	-12.8141
埜	-12.8142
崦	-12.8142
􂂈	-12.8143
嵬	-12.8144
㘭	-12.8144
沗	-12.8145
麝	-12.8145
螽	-12.8145
泆	-12.8146
碌	-12.8147
譌	-12.8148
鬪	-12.8149
珥	-12.8152
懂	-12.8156
霳	-12.8158
琶	-12.8158
箔	-12.8171
􂆡	-12.8178
礮	-12.8181
殅	-12.9309
𦕟	-12.9311
􂆪	-12.9315
撝	-12.9333
臚	-12.9337
汔	-12.9337
邶	-12.9339
獠	-12.9341
捄	-12.9346
謇	-12.9347
昵	-12.9349
蝝	-12.935
膈	-12.9352
飜	-12.9353
纆	-12.9353
璉	-12.9354
桁	-12.9355
歹	-12.9356
郴	-12.9356
癱	-12.9358
瓴	-12.9358
隧	-12.9358
踣	-12.9358
戛	-12.9359
籩	-12.9359
闞	-12.9359
謊	-12.936
腊	-12.936
髳	-12.936
穠	-12.936
瞭	-12.936
蓂	-12.9362
梱	-12.9362
喔	-12.9363
逓	-12.9363
溲	-12.9363
膿	-12.9364
笄	-12.9364
寞	-12.9364
槔	-12.9364
嚶	-12.9364
咫	-12.9364
闉	-12.9364
腓	-12.9365
泚	-12.9365
匈	-12.9366
棃	-12.9366
玦	-12.9366
摛	-12.9366
鉦	-12.9367
鬯	-12.9367
蹵	-12.9367
坷	-12.9367
鸇	-12.9367
懘	-12.9367
贔	-12.9368
掞	-12.9368
栻	-12.9368
粃	-12.9368
蕨	-12.9369
柑	-12.9369
簒	-12.9369
鉏	-12.9369
胙	-12.9369
薊	-12.9369
􂊑	-12.9369
莞	-12.9369
虱	-12.937
谺	-12.937
鱸	-12.937
􂃒	-12.9371
矮	-12.9371
窑	-12.9371
嗃	-12.9371
紓	-12.9371
罍	-12.9371
嫣	-12.9372
堙	-12.9372
雩	-12.9372
餧	-12.9372
饞	-12.9372
咈	-12.9373
駱	-12.9373
枰	-12.9373
襪	-12.9374
駑	-12.9374
鴿	-12.9374
徭	-12.9374
填	-12.9374
沍	-12.9374
舵	-12.9374
蜎	-12.9374
縲	-12.9375
猊	-12.9375
縕	-12.9375
佔	-12.9375
曺	-12.9376
孃	-12.9376
噠	-12.9376
扺	-12.9377
祼	-12.9377
縠	-12.9377
諠	-12.9377
憬	-12.9377
吚	-12.9377
祧	-12.9378
猝	-12.9378
鼷	-12.9378
柚	-12.9378
艤	-12.9378
𣣱	-12.9379
倮	-12.9379
蛆	-12.9379
儵	-12.938
㮣	-12.938
煑	-12.938
龐	-12.938
萼	-12.938
顱	-12.938
迯	-12.9381
瓔	-12.9381
皜	-12.9381
䌓	-12.9381
鋟	-12.9382
􂁣	-12.9382
蚓	-12.9383
偎	-12.9383
娣	-12.9383
諟	-12.9384
皐	-12.9384
潙	-12.9384
鍋	-12.9384
旴	-12.9385
眎	-12.9385
薤	-12.9385
幬	-12.9386
輓	-12.9387
聃	-12.9388
妁	-12.9388
鵶	-12.9388
鴝	-12.9388
嶙	-12.9389
矇	-12.939
葑	-12.939
鎬	-12.939
饘	-12.939
篩	-12.939
鵞	-12.9391
礦	-12.9391
挿	-12.9391
蹰	-12.9391
罣	-12.9392
芷	-12.9392
䟦	-12.9392
橈	-12.9392
箑	-12.9392
禔	-12.9394
盭	-12.9394
韈	-12.9395
羗	-12.9395
鄢	-12.9396
樾	-12.9397
玘	-12.9399
壎	-12.94
箠	-12.9401
魈	-12.9401
凢	-12.9404
榦	-12.9406
臠	-12.9407
頎	-12.941
漙	-12.9412
肋	-12.9414
𦤀	-12.9422
茭	-12.943
凊	-12.9432
􂆯	-13.0734
圠	-13.0739
乗	-13.0755
嬗	-13.076
蝤	-13.0766
洳	-13.0767
驍	-13.0768
鬨	-13.0769
蓏	-13.077
偁	-13.077
菰	-13.0772
殯	-13.0774
脰	-13.0775
鈔	-13.0777
杰	-13.0779
誶	-13.0779
瑗	-13.0781
畎	-13.0783
㬪	-13.0783
徯	-13.0784
阡	-13.0784
蹷	-13.0784
奭	-13.0785
碔	-13.0787
鷇	-13.0788
鱔	-13.0788
囫	-13.0788
砆	-13.0788
荗	-13.0788
坏	-13.0789
冢	-13.0789
酪	-13.0789
圇	-13.0789
槿	-13.0789
儌	-13.079
蚋	-13.079
鏃	-13.0791
貉	-13.0792
褥	-13.0792
遒	-13.0792
誃	-13.0793
娩	-13.0793
燹	-13.0794
坻	-13.0794
笮	-13.0794
撈	-13.0794
蚯	-13.0795
櫪	-13.0795
广	-13.0795
芍	-13.0796
枲	-13.0796
澮	-13.0796
赧	-13.0796
檣	-13.0796
獺	-13.0796
睂	-13.0797
綍	-13.0797
飪	-13.0797
歪	-13.0797
陬	-13.0797
撾	-13.0798
莪	-13.0798
譖	-13.0798
杞	-13.0799
伹	-13.0799
㢲	-13.0799
糓	-13.08
崕	-13.08
沚	-13.08
䓤	-13.08
礱	-13.08
荅	-13.08
嘏	-13.0801
洫	-13.0801
茯	-13.0802
帕	-13.0802
籜	-13.0802
咿	-13.0803
槌	-13.0803
窶	-13.0804
熠	-13.0805
毖	-13.0805
魋	-13.0805
嗎	-13.0805
鐃	-13.0806
霤	-13.0806
矉	-13.0806
恡	-13.0807
浡	-13.0807
蹌	-13.0807
塍	-13.0808
枳	-13.0808
菅	-13.0809
嘹	-13.0809
纈	-13.0809
埵	-13.0809
芊	-13.0809
脹	-13.0809
癲	-13.0809
壚	-13.0809
掙	-13.0809
矅	-13.081
鄆	-13.081
崶	-13.081
沇	-13.081
鎧	-13.081
讁	-13.081
紿	-13.0811
癯	-13.0811
刲	-13.0811
藁	-13.0812
俑	-13.0812
廂	-13.0813
盒	-13.0813
閧	-13.0813
揩	-13.0813
飬	-13.0813
􂊫	-13.0814
逑	-13.0814
壩	-13.0814
嗒	-13.0814
踴	-13.0815
琛	-13.0815
汭	-13.0815
飣	-13.0815
楸	-13.0816
峋	-13.0816
踽	-13.0816
襃	-13.0817
襘	-13.0817
邠	-13.0817
澣	-13.0818
漭	-13.0818
嵎	-13.0818
嶄	-13.0818
掜	-13.0818
哥	-13.0819
抃	-13.0819
録	-13.0819
𠻳	-13.082
搥	-13.082
𣾀	-13.082
紡	-13.0821
漱	-13.0821
恝	-13.0821
泐	-13.0822
担	-13.0823
𧲣	-13.0825
劌	-13.0825
棕	-13.0826
麯	-13.0826
啝	-13.0826
●	-13.0827
詒	-13.0831
酩	-13.0831
哦	-13.0833
縑	-13.0844
袛	-13.2208
𤽡	-13.2396
􂆬	-13.24
諤	-13.2406
嗛	-13.2428
纊	-13.2429
抖	-13.243
㗳	-13.2433
趍	-13.2434
瑠	-13.2435
頊	-13.2436
棖	-13.2438
胠	-13.2439
苻	-13.244
战	-13.244
贜	-13.2444
堞	-13.2444
諏	-13.2444
呿	-13.2445
灃	-13.2445
麪	-13.2446
螉	-13.2446
厪	-13.2446
臰	-13.2448
郅	-13.2448
蹍	-13.2449
輹	-13.245
筦	-13.2451
貙	-13.2452
驁	-13.2452
鸎	-13.2452
壈	-13.2452
􂋉	-13.2452
舐	-13.2454
雒	-13.2454
蒯	-13.2455
?	-13.2455
囀	-13.2455
瞠	-13.2456
鏟	-13.2456
摽	-13.2456
戡	-13.2457
苧	-13.2457
罘	-13.2458
扮	-13.2459
牴	-13.2459
𠏉	-13.2459
邨	-13.2459
餂	-13.2459
澌	-13.246
蔔	-13.246
鼃	-13.246
柵	-13.246
瘧	-13.246
𨗳	-13.2461
䲭	-13.2461
鏞	-13.2461
莩	-13.2462
喁	-13.2462
淼	-13.2462
喆	-13.2463
痺	-13.2463
惋	-13.2463
潯	-13.2463
簸	-13.2463
唪	-13.2464
劻	-13.2464
賍	-13.2464
錠	-13.2464
髀	-13.2464
砢	-13.2465
愒	-13.2465
鼇	-13.2465
眈	-13.2465
蛸	-13.2465
凸	-13.2465
拚	-13.2465
偓	-13.2465
洌	-13.2465
貓	-13.2465
箐	-13.2465
抓	-13.2466
幘	-13.2466
黝	-13.2466
䖟	-13.2467
幌	-13.2468
朅	-13.2468
咲	-13.2468
犇	-13.2468
訦	-13.2468
絀	-13.2468
靴	-13.2469
臾	-13.2469
黙	-13.2469
矼	-13.2469
嶒	-13.2469
楣	-13.247
凾	-13.247
睠	-13.247
髠	-13.247
顰	-13.247
嚚	-13.2471
瀕	-13.2471
􂀿	-13.2471
䰞	-13.2471
塤	-13.2471
燐	-13.2472
饔	-13.2472
謡	-13.2472
諜	-13.2473
棐	-13.2473
讖	-13.2474
𠴏	-13.2474
杀	-13.2474
糲	-13.2475
斝	-13.2475
蚖	-13.2475
眦	-13.2475
壖	-13.2475
谼	-13.2475
㖠	-13.2475
淍	-13.2475
𤁋	-13.2476
廨	-13.2476
据	-13.2476
晬	-13.2476
瘖	-13.2476
欷	-13.2477
爺	-13.2477
蜺	-13.2477
嚷	-13.2477
羙	-13.2477
璩	-13.2478
鷃	-13.2478
憮	-13.2478
蜚	-13.2478
鏆	-13.2478
噐	-13.2479
舶	-13.2479
縋	-13.2479
橦	-13.2479
丢	-13.248
縵	-13.248
荳	-13.248
剿	-13.248
豗	-13.2481
膻	-13.2481
圊	-13.2481
筞	-13.2481
祻	-13.2481
􂉷	-13.2481
嵂	-13.2481
綮	-13.2481
矌	-13.2481
𥛬	-13.2481
叧	-13.2482
癆	-13.2482
暾	-13.2482
屧	-13.2482
酖	-13.2483
儋	-13.2483
戽	-13.2483
賸	-13.2483
淄	-13.2483
膴	-13.2484
斸	-13.2484
漰	-13.2484
渰	-13.2485
胯	-13.2485
鑼	-13.2485
雯	-13.2485
銚	-13.2486
紈	-13.2486
衹	-13.2486
槳	-13.2486
薔	-13.2487
紵	-13.2487
緗	-13.2487
嬝	-13.2488
酲	-13.2488
蹬	-13.2488
磈	-13.2488
砲	-13.2489
庲	-13.2489
奩	-13.249
虯	-13.249
霰	-13.249
閘	-13.2491
趦	-13.2492
棚	-13.2492
埒	-13.2493
蠏	-13.2494
椅	-13.2494
趄	-13.2495
找	-13.2497
攤	-13.2497
蔵	-13.2497
坴	-13.2498
爹	-13.2498
鑱	-13.2498
緑	-13.2498
逄	-13.2502
缾	-13.2503
詵	-13.2505
嘩	-13.2506
泬	-13.2515
堡	-13.2515
鞦	-13.2536
􂆰	-13.4391
􂆮	-13.4394
􂆱	-13.4397
􂆭	-13.4397
􂃇	-13.4398
㞢	-13.4398
郗	-13.4409
狺	-13.441
䂀	-13.4413
邴	-13.4414
斄	-13.442
縢	-13.4424
桅	-13.4428
窞	-13.4428
唶	-13.4429
豨	-13.4429
絺	-13.4431
鞴	-13.4431
睆	-13.4432
餬	-13.4435
佻	-13.4435
踧	-13.4435
鄶	-13.4436
熺	-13.4437
彧	-13.4437
䷗	-13.4437
湎	-13.4437
吭	-13.4439
憯	-13.4439
駴	-13.4439
噎	-13.444
􂈫	-13.444
畊	-13.4442
亯	-13.4443
噲	-13.4443
縝	-13.4443
髪	-13.4443
呷	-13.4443
耍	-13.4443
嚤	-13.4444
濚	-13.4444
筓	-13.4445
袽	-13.4445
犒	-13.4445
懌	-13.4446
剉	-13.4447
醋	-13.4448
𡃤	-13.4448
姣	-13.4449
蠃	-13.4449
闍	-13.4449
閲	-13.4449
祓	-13.445
璟	-13.4451
趐	-13.4451
醲	-13.4451
靂	-13.4452
荐	-13.4453
僝	-13.4453
䨥	-13.4453
啁	-13.4454
勗	-13.4454
嶁	-13.4454
胼	-13.4455
鈆	-13.4455
罽	-13.4455
宀	-13.4455
翾	-13.4455
讙	-13.4455
蕝	-13.4456
礶	-13.4456
錡	-13.4457
葡	-13.4457
僱	-13.4457
蒹	-13.4457
仿	-13.4457
鶬	-13.4457
窽	-13.4458
磽	-13.4458
􂂃	-13.4458
烖	-13.4459
矞	-13.4459
穪	-13.4459
徴	-13.4459
檠	-13.446
蜾	-13.446
滀	-13.4461
阬	-13.4462
䷁	-13.4462
咭	-13.4462
燋	-13.4463
踔	-13.4463
𠂆	-13.4463
凂	-13.4464
斲	-13.4464
倔	-13.4464
撩	-13.4464
昺	-13.4464
繂	-13.4464
檝	-13.4464
韙	-13.4465
𥜥	-13.4465
襴	-13.4465
嬙	-13.4466
嗸	-13.4466
煬	-13.4466
硎	-13.4466
瘼	-13.4466
搢	-13.4466
陿	-13.4466
槧	-13.4466
漻	-13.4466
鈇	-13.4467
剴	-13.4467
蝌	-13.4467
濆	-13.4467
讌	-13.4468
𥦗	-13.4468
蜦	-13.4468
惽	-13.4468
𦍑	-13.4468
瀧	-13.4468
恫	-13.4468
藂	-13.4468
倅	-13.4469
貍	-13.4469
朒	-13.4469
庒	-13.4469
餗	-13.4469
豸	-13.4469
幫	-13.4469
隤	-13.4469
瞤	-13.4469
匵	-13.447
亙	-13.447
蓆	-13.447
畋	-13.447
頋	-13.4471
傖	-13.4471
𢙀	-13.4471
襦	-13.4471
苾	-13.4471
樁	-13.4471
糖	-13.4472
尫	-13.4473
柎	-13.4473
纘	-13.4473
觥	-13.4473
餔	-13.4474
鋾	-13.4474
裀	-13.4474
躓	-13.4474
糝	-13.4474
鼯	-13.4474
滁	-13.4474
罨	-13.4475
榱	-13.4475
釃	-13.4475
俐	-13.4475
嘈	-13.4475
烺	-13.4475
曀	-13.4475
檉	-13.4475
杻	-13.4476
鬐	-13.4476
勖	-13.4477
坱	-13.4477
勩	-13.4478
貊	-13.4478
檟	-13.4478
麈	-13.4478
壳	-13.4478
昕	-13.4478
愾	-13.4478
袞	-13.4478
喗	-13.4479
吧	-13.4479
蟆	-13.4479
睜	-13.4479
琄	-13.4479
􂁰	-13.448
婣	-13.448
䳱	-13.448
熯	-13.448
楔	-13.448
杇	-13.4481
惝	-13.4481
曵	-13.4481
蘢	-13.4481
𤠔	-13.4482
兾	-13.4482
鋣	-13.4482
鏬	-13.4482
􂄠	-13.4483
𧼈	-13.4483
剃	-13.4483
爝	-13.4483
墩	-13.4484
梔	-13.4484
簌	-13.4484
裦	-13.4484
洑	-13.4485
廋	-13.4485
戥	-13.4486
鯈	-13.4486
𨗁	-13.4486
嚅	-13.4486
兠	-13.4487
牯	-13.4487
獐	-13.4487
譟	-13.4487
瘤	-13.4488
珙	-13.4489
硝	-13.4489
鑣	-13.4489
𤀹	-13.4489
嚳	-13.449
黟	-13.449
捽	-13.4491
榼	-13.4491
莉	-13.4491
旹	-13.4492
氲	-13.4492
袐	-13.4492
矰	-13.4493
􂀴	-13.4493
惛	-13.4495
庋	-13.4495
噭	-13.4495
鞞	-13.4496
蝠	-13.4496
莧	-13.4497
畹	-13.4498
晋	-13.4499
嬈	-13.4499
烙	-13.4499
蝮	-13.45
宂	-13.4501
梦	-13.4502
闖	-13.4502
鍜	-13.4503
碭	-13.4503
皚	-13.4505
𠒋	-13.4506
献	-13.4507
􂁃	-13.4508
橄	-13.4511
篪	-13.4512
啐	-13.4523
𧇖	-13.4525
𥻊	-13.4531
抳	-13.454
斚	-13.686
黬	-13.6865
鐍	-13.6897
絖	-13.6901
愊	-13.6904
苎	-13.6907
跫	-13.6907
㵎	-13.6907
嘒	-13.6912
􂂍	-13.6915
􂄐	-13.6918
廐	-13.6919
棼	-13.6919
縰	-13.6924
嶰	-13.6926
柿	-13.6926
㣲	-13.6929
懟	-13.6931
琱	-13.6932
脢	-13.6932
譆	-13.6933
坍	-13.6936
𦙌	-13.6936
屛	-13.6937
鏜	-13.6937
頇	-13.6937
𣕤	-13.6938
攛	-13.6939
擭	-13.6939
􂁨	-13.6939
栅	-13.694
遝	-13.694
菹	-13.694
􂂋	-13.694
喥	-13.6941
棨	-13.6942
秣	-13.6942
、	-13.6942
胏	-13.6943
跰	-13.6943
𥇮	-13.6944
嵁	-13.6944
謷	-13.6944
涴	-13.6944
診	-13.6946
醨	-13.6946
渦	-13.6947
賠	-13.6947
渫	-13.6947
􂃙	-13.6947
藺	-13.6948
捎	-13.6948
繘	-13.6949
疝	-13.6949
狷	-13.6949
嗶	-13.6949
髢	-13.695
噒	-13.6951
飦	-13.6951
䝟	-13.6951
臀	-13.6951
蠒	-13.6951
嗗	-13.6952
飂	-13.6953
捆	-13.6953
芡	-13.6953
衂	-13.6953
涅	-13.6953
荼	-13.6953
誾	-13.6953
瞢	-13.6953
縟	-13.6954
滷	-13.6954
樛	-13.6954
陜	-13.6954
愽	-13.6954
㗶	-13.6955
􂂂	-13.6955
滎	-13.6955
𤥎	-13.6955
潁	-13.6955
剸	-13.6955
佾	-13.6955
萑	-13.6956
懍	-13.6957
搭	-13.6957
溽	-13.6958
厘	-13.6958
墄	-13.6958
炓	-13.6958
堠	-13.6958
儁	-13.6958
楪	-13.6959
紲	-13.6959
蠖	-13.696
觳	-13.6961
琉	-13.6961
搴	-13.6961
椀	-13.6961
􂁥	-13.6961
餼	-13.6962
𥈤	-13.6962
㗭	-13.6962
壙	-13.6962
鏑	-13.6962
痍	-13.6962
皴	-13.6963
𡾹	-13.6963
玳	-13.6964
盔	-13.6964
蚨	-13.6964
䷊	-13.6964
獯	-13.6964
𩗗	-13.6964
閹	-13.6964
殲	-13.6964
㬥	-13.6964
燌	-13.6965
牾	-13.6965
鷁	-13.6965
䷀	-13.6965
咍	-13.6965
賃	-13.6965
窾	-13.6966
筑	-13.6966
夯	-13.6966
𤉨	-13.6967
蠈	-13.6967
霔	-13.6967
㠉	-13.6967
釧	-13.6967
慫	-13.6968
娜	-13.6968
俶	-13.6968
忡	-13.6968
晻	-13.6968
鍤	-13.6969
媛	-13.6969
刓	-13.6969
飶	-13.6969
嬖	-13.6969
們	-13.6969
閈	-13.6969
擡	-13.6971
愳	-13.6971
鈸	-13.6971
崐	-13.6971
=	-13.6971
喼	-13.6971
舩	-13.6971
蠍	-13.6971
鴳	-13.6971
蚪	-13.6971
䏶	-13.6972
酎	-13.6972
􂊒	-13.6972
蝍	-13.6972
髽	-13.6972
墾	-13.6972
殢	-13.6972
确	-13.6972
軺	-13.6972
枿	-13.6973
洼	-13.6973
檯	-13.6973
刅	-13.6973
􂈉	-13.6973
􂉲	-13.6973
貔	-13.6974
陘	-13.6974
臏	-13.6975
砰	-13.6975
笱	-13.6975
蚉	-13.6975
趲	-13.6975
賕	-13.6976
蠕	-13.6976
蠣	-13.6976
媮	-13.6976
侄	-13.6976
蜣	-13.6976
阽	-13.6976
葫	-13.6976
臝	-13.6977
箝	-13.6977
籐	-13.6977
寉	-13.6977
䙱	-13.6977
澧	-13.6978
曄	-13.6978
柅	-13.6978
吱	-13.6978
窣	-13.6978
繟	-13.6978
袠	-13.6978
詼	-13.6978
鞲	-13.6978
厷	-13.6978
䖝	-13.6978
縯	-13.6978
諔	-13.6978
塠	-13.6978
㳄	-13.6979
扐	-13.6979
玹	-13.6979
覧	-13.6979
畚	-13.6979
声	-13.6979
欃	-13.6979
鑷	-13.6979
𦊅	-13.6979
犴	-13.6979
掐	-13.698
褪	-13.698
朞	-13.698
袴	-13.698
蔴	-13.698
鈿	-13.698
栲	-13.698
灶	-13.698
頯	-13.698
聻	-13.698
􂉗	-13.6982
鷖	-13.6982
蚹	-13.6982
湢	-13.6982
鏊	-13.6982
瓌	-13.6983
􂉹	-13.6983
􂅾	-13.6983
蜴	-13.6983
埈	-13.6983
畇	-13.6983
盌	-13.6983
詧	-13.6983
踝	-13.6984
徘	-13.6985
倶	-13.6985
腆	-13.6985
陔	-13.6985
檗	-13.6986
瓿	-13.6986
栱	-13.6987
儛	-13.6987
攅	-13.6987
噱	-13.6987
揷	-13.6988
衽	-13.6989
桮	-13.6989
涽	-13.6989
鷟	-13.6989
俵	-13.699
椰	-13.699
淅	-13.699
煤	-13.699
岠	-13.699
巃	-13.699
蝟	-13.6991
蠙	-13.6992
齦	-13.6992
踢	-13.6992
増	-13.6993
禩	-13.6993
僦	-13.6993
謅	-13.6993
鍧	-13.6993
􂄦	-13.6993
霅	-13.6993
捱	-13.6994
珈	-13.6994
曶	-13.6995
蕞	-13.6996
銃	-13.6996
虵	-13.6996
㝡	-13.6996
岈	-13.6996
斐	-13.6997
禊	-13.6997
曈	-13.6998
曕	-13.6998
睱	-13.6998
𨶔	-13.6998
㡭	-13.6998
㞐	-13.7
鞵	-13.7001
甬	-13.7001
珣	-13.7001
来	-13.7003
琨	-13.7004
瓏	-13.7006
葅	-13.7009
挪	-13.701
匃	-13.7012
△	-13.7012
􂊷	-13.7012
甿	-13.7019
􂁔	-13.7019
𡹄	-13.7021
緲	-13.7023
􂁭	-13.7028
攞	-13.703
䔩	-13.7033
恌	-13.7039
㶑	-13.7044
侁	-13.7084
釂	-13.7116
鐄	-13.72
輈	-14.0164
鄔	-14.0195
乚	-14.0208
臑	-14.0212
􂆩	-14.0215
胲	-14.0218
毳	-14.0225
吴	-14.0227
鼪	-14.0233
惼	-14.0235
樠	-14.0235
􂃅	-14.0237
妊	-14.0239
啲	-14.0241
崧	-14.0243
吲	-14.0243
囄	-14.0243
􂃚	-14.0243
􂆦	-14.0246
􂆫	-14.0246
昰	-14.0247
􂆹	-14.0247
絯	-14.0249
鮭	-14.0249
醷	-14.0249
礡	-14.0251
棰	-14.0251
𨞬	-14.0253
􂉐	-14.0256
汒	-14.0256
韲	-14.0258
旰	-14.0258
􂄺	-14.0258
枹	-14.026
脤	-14.026
諢	-14.0262
圾	-14.0262
鉶	-14.0262
暏	-14.0263
穯	-14.0264
㾗	-14.0264
甞	-14.0264
􂆶	-14.0264
宎	-14.0266
輛	-14.0266
𣏆	-14.0266
漶	-14.0268
胈	-14.0268
􂇹	-14.0268
鍠	-14.0268
臊	-14.0268
瞍	-14.0268
衺	-14.0268
跈	-14.0268
𧎉	-14.0268
𩐎	-14.0268
叉	-14.027
謭	-14.027
抬	-14.027
􂀵	-14.0271
璝	-14.0272
麞	-14.0272
斻	-14.0272
貚	-14.0272
􂃢	-14.0274
誸	-14.0274
慹	-14.0274
紉	-14.0274
㫬	-14.0274
𡝐	-14.0274
揠	-14.0276
𩯡	-14.0276
捌	-14.0276
𠺕	-14.0277
匚	-14.0278
􂄽	-14.0278
屡	-14.0278
衘	-14.0278
吅	-14.0278
媰	-14.0278
􂋌	-14.0278
虒	-14.0278
謩	-14.0278
𠾬	-14.0278
􂉔	-14.0278
嘙	-14.0279
􂉒	-14.0279
噂	-14.0279
􂉕	-14.0279
韭	-14.028
掄	-14.028
麴	-14.028
𠷈	-14.028
􂉑	-14.028
逹	-14.028
葯	-14.0281
􂂌	-14.0281
饍	-14.0281
籧	-14.0281
跢	-14.0282
圩	-14.0282
覕	-14.0282
慱	-14.0282
􂉖	-14.0282
䠱	-14.0282
啹	-14.0282
靛	-14.0282
􂉓	-14.0282
誆	-14.0283
戟	-14.0283
睟	-14.0283
嫻	-14.0283
􂈞	-14.0283
戩	-14.0283
芚	-14.0283
踦	-14.0283
􂂣	-14.0283
劘	-14.0284
𩆝	-14.0284
鉸	-14.0285
𦈢	-14.0285
嘇	-14.0285
爚	-14.0285
𠻗	-14.0285
簀	-14.0285
頍	-14.0285
􂋾	-14.0286
灉	-14.0286
梲	-14.0286
􂉁	-14.0286
拋	-14.0287
釭	-14.0287
鍥	-14.0287
􂂨	-14.0287
旐	-14.0287
馽	-14.0287
凰	-14.0288
棓	-14.0289
离	-14.0289
𠾱	-14.0289
痞	-14.0289
鸑	-14.0289
荃	-14.0289
倀	-14.029
郟	-14.0291
漯	-14.0291
蜨	-14.0291
䷡	-14.0291
􂃞	-14.0291
㸔	-14.0291
酗	-14.0291
窳	-14.0291
剰	-14.0291
机	-14.0291
莛	-14.0291
闘	-14.0293
佘	-14.0293
啒	-14.0293
喎	-14.0293
頄	-14.0293
餁	-14.0293
􂋺	-14.0293
螤	-14.0293
騤	-14.0293
𦬇	-14.0293
贋	-14.0294
蛀	-14.0295
馹	-14.0295
艭	-14.0295
㐬	-14.0295
㜸	-14.0295
暱	-14.0297
苹	-14.0297
鶚	-14.0297
淜	-14.0297
㷊	-14.0297
蔗	-14.0297
冪	-14.0297
屼	-14.0297
頵	-14.0297
𨽻	-14.0297
脘	-14.0297
奫	-14.0298
淥	-14.0298
漩	-14.0298
頦	-14.0298
䷪	-14.0299
髦	-14.0299
蹩	-14.0299
琚	-14.0299
獪	-14.03
鬛	-14.03
磑	-14.03
絰	-14.03
𧩊	-14.0301
嬀	-14.0301
䫫	-14.0301
亳	-14.0301
瀌	-14.0301
磠	-14.0301
懞	-14.0301
狽	-14.0301
篝	-14.0301
焙	-14.0303
㹠	-14.0303
栁	-14.0303
夣	-14.0303
痀	-14.0303
逖	-14.0303
恓	-14.0303
甎	-14.0303
坆	-14.0305
帘	-14.0305
廠	-14.0305
冝	-14.0305
涂	-14.0305
芾	-14.0305
躠	-14.0305
鶂	-14.0305
俏	-14.0305
猩	-14.0305
􂃓	-14.0306
􂃔	-14.0306
屾	-14.0306
鄞	-14.0306
郄	-14.0307
糈	-14.0307
茄	-14.0307
瑽	-14.0307
䷫	-14.0307
潏	-14.0307
焮	-14.0307
簥	-14.0307
鵓	-14.0307
㗊	-14.0307
虢	-14.0307
蜉	-14.0308
𩱛	-14.0308
􂅻	-14.0309
搰	-14.0309
澶	-14.0309
熨	-14.0309
霙	-14.0309
摻	-14.0309
𤥨	-14.0309
鰻	-14.031
𢭔	-14.031
撅	-14.031
稂	-14.031
紇	-14.031
蝣	-14.031
瀜	-14.031
趼	-14.031
踡	-14.031
􂊮	-14.031
惲	-14.0312
牓	-14.0312
釿	-14.0312
􂈓	-14.0312
𢑥	-14.0312
㯶	-14.0312
䷠	-14.0312
劚	-14.0312
􂋿	-14.0312
耰	-14.0313
汹	-14.0313
􂋓	-14.0314
槲	-14.0314
醢	-14.0314
睍	-14.0314
䷋	-14.0314
蟯	-14.0314
䷖	-14.0314
嗽	-14.0314
臙	-14.0314
覻	-14.0314
𠷣	-14.0314
􂊦	-14.0314
俘	-14.0315
摟	-14.0315
輥	-14.0315
泱	-14.0315
仵	-14.0316
濵	-14.0316
涔	-14.0316
獷	-14.0316
佟	-14.0316
悝	-14.0316
擱	-14.0316
𦒘	-14.0316
轔	-14.0316
廾	-14.0316
砉	-14.0316
􂉵	-14.0316
櫨	-14.0317
蹡	-14.0318
岨	-14.0318
俍	-14.0318
瘸	-14.0318
𤑔	-14.0318
䷓	-14.0318
帬	-14.0318
汸	-14.0318
􂋲	-14.0318
㐀	-14.0318
擿	-14.0318
瞱	-14.0318
跗	-14.032
蝀	-14.032
挍	-14.032
卹	-14.032
鶡	-14.032
秫	-14.032
挖	-14.032
歗	-14.032
双	-14.032
孿	-14.032
慴	-14.032
舡	-14.032
箏	-14.0322
􂇟	-14.0322
灊	-14.0322
溤	-14.0322
簉	-14.0322
隐	-14.0322
麩	-14.0322
􂅽	-14.0322
暜	-14.0322
嚎	-14.0323
斠	-14.0324
蕤	-14.0324
謌	-14.0324
伾	-14.0324
薙	-14.0324
酕	-14.0324
𡒄	-14.0324
焯	-14.0325
嵇	-14.0326
瘢	-14.0326
柮	-14.0326
鷦	-14.0326
鷯	-14.0326
樨	-14.0326
漵	-14.0327
竆	-14.0328
卲	-14.0328
糕	-14.0328
㐲	-14.0329
圅	-14.033
侖	-14.033
囁	-14.033
帚	-14.033
睒	-14.033
纑	-14.033
埠	-14.033
淶	-14.0332
蹋	-14.0332
玲	-14.0332
伙	-14.0332
􂅛	-14.0332
癎	-14.0332
騃	-14.0333
癬	-14.0333
顗	-14.0334
燁	-14.0334
訒	-14.0335
纚	-14.0335
盘	-14.0335
艨	-14.0335
巚	-14.0335
𨽾	-14.0337
緍	-14.0337
逩	-14.0337
畒	-14.0337
随	-14.0337
粳	-14.0338
咧	-14.0341
䟱	-14.0341
蛋	-14.0341
萸	-14.0341
郛	-14.0341
凳	-14.0341
釅	-14.0343
柁	-14.0343
澐	-14.0343
飆	-14.0347
]	-14.0347
牅	-14.0347
齗	-14.0347
宁	-14.0349
㝗	-14.0349
齶	-14.0349
轎	-14.0349
•	-14.0349
众	-14.0349
嘷	-14.0349
泂	-14.0351
𤏡	-14.0351
茝	-14.0351
黮	-14.0353
曆	-14.0353
閾	-14.0357
脬	-14.0359
踄	-14.0359
戁	-14.036
灞	-14.0361
閗	-14.0366
酤	-14.0372
諗	-14.0376
𧶂	-14.0378
孌	-14.0387
晄	-14.5124
坫	-14.5136
􂃆	-14.5158
彛	-14.5183
􂄓	-14.5183
躩	-14.5187
齾	-14.5187
􂆳	-14.5193
􂋒	-14.5193
湣	-14.5196
鼬	-14.5196
芧	-14.5202
穟	-14.5209
唁	-14.5212
蔞	-14.5221
麕	-14.5224
鏝	-14.5224
晈	-14.5224
輐	-14.5224
侅	-14.5227
豓	-14.5227
鱣	-14.5227
謵	-14.5231
釤	-14.5231
囤	-14.5231
軆	-14.5231
邰	-14.5231
􂈱	-14.5234
輇	-14.5234
𠮵	-14.5234
𡄳	-14.5237
楂	-14.5237
夲	-14.5237
褲	-14.5237
窢	-14.5237
謑	-14.5237
髁	-14.5237
𠺗	-14.5237
􂌇	-14.5237
罙	-14.524
暐	-14.524
姘	-14.524
踉	-14.5243
譱	-14.5243
豬	-14.5243
昶	-14.5243
籕	-14.5243
隃	-14.5243
嘓	-14.5246
芉	-14.5246
缷	-14.5246
璠	-14.5246
􂁴	-14.5246
蘃	-14.5249
帨	-14.5249
觭	-14.5249
鷸	-14.5249
咚	-14.5249
􂄼	-14.5249
􂃕	-14.5251
媽	-14.5252
蓰	-14.5252
柤	-14.5253
跱	-14.5253
醎	-14.5253
侫	-14.5253
蠪	-14.5253
􂁳	-14.5253
炕	-14.5254
逍	-14.5255
鰓	-14.5256
眵	-14.5256
鋭	-14.5256
唼	-14.5256
癥	-14.5256
迮	-14.5256
懮	-14.5256
杗	-14.5256
􂈩	-14.5256
槀	-14.5259
埳	-14.5259
鷴	-14.5259
蜷	-14.5259
溧	-14.5259
骼	-14.5259
棉	-14.5259
畬	-14.5259
枅	-14.5261
韮	-14.5262
雇	-14.5262
儇	-14.5262
􂊃	-14.5262
栝	-14.5262
瘨	-14.5262
俳	-14.5262
狚	-14.5262
猵	-14.5262
綑	-14.5262
誙	-14.5262
􂆸	-14.5262
􂇀	-14.5262
迆	-14.5264
瘇	-14.5265
戺	-14.5265
岵	-14.5265
瞷	-14.5265
妸	-14.5265
艫	-14.5265
薾	-14.5265
錞	-14.5265
鏇	-14.5265
餖	-14.5266
眊	-14.5268
輶	-14.5268
虷	-14.5268
躄	-14.5268
嚂	-14.5268
傔	-14.5268
拸	-14.5268
瓘	-14.5268
讏	-14.5268
龗	-14.5268
􂅂	-14.5268
焞	-14.5268
􂇲	-14.5268
淛	-14.5271
邢	-14.5271
㗀	-14.5271
𣸸	-14.5271
贓	-14.5271
𧳶	-14.5271
􂆂	-14.5271
􂇬	-14.5271
敇	-14.5271
禖	-14.5271
訇	-14.5274
秖	-14.5274
麀	-14.5274
鄩	-14.5275
燻	-14.5275
襌	-14.5275
馵	-14.5275
厩	-14.5275
堇	-14.5275
愔	-14.5275
湜	-14.5275
蠹	-14.5275
𩹷	-14.5275
􂁩	-14.5275
􂂩	-14.5275
􂄲	-14.5275
丂	-14.5278
蓻	-14.5278
礨	-14.5278
囅	-14.5278
􂁟	-14.5278
儍	-14.5278
挼	-14.5278
旟	-14.5278
玼	-14.5278
翣	-14.5278
踨	-14.5278
鱍	-14.5278
咩	-14.5278
􂆧	-14.528
胔	-14.5281
胍	-14.5281
𤙖	-14.5281
繅	-14.5281
㱪	-14.5281
𡟎	-14.5281
􂉟	-14.5281
􂉠	-14.5281
􂈇	-14.5281
嘬	-14.5281
炵	-14.5281
芩	-14.5281
諌	-14.5281
𩗙	-14.5281
𩳓	-14.5281
􂄱	-14.5281
􂇭	-14.5281
􂈛	-14.5281
􂉙	-14.5281
􂉚	-14.5281
􂉛	-14.5281
􂉜	-14.5281
􂉝	-14.5281
􂉰	-14.5281
􂋷	-14.5281
􂌛	-14.5281
餟	-14.5282
𠻃	-14.5283
絅	-14.5284
繰	-14.5284
耔	-14.5284
蒔	-14.5284
䝞	-14.5284
咜	-14.5284
樺	-14.5284
蠋	-14.5284
鄮	-14.5284
哇	-14.5284
筥	-14.5284
雘	-14.5284
珩	-14.5284
恑	-14.5284
矟	-14.5284
硼	-14.5284
􂉞	-14.5284
褌	-14.5285
朏	-14.5286
厤	-14.5287
僽	-14.5287
万	-14.5287
韵	-14.5287
摝	-14.5287
昐	-14.5287
猘	-14.5287
籋	-14.5287
勌	-14.5287
卌	-14.5287
吶	-14.5287
坥	-14.5287
夘	-14.5287
溱	-14.5287
甗	-14.5287
篸	-14.5287
肧	-14.5287
訿	-14.5287
靝	-14.5287
􂄤	-14.5288
惥	-14.529
籹	-14.529
㪟	-14.529
厂	-14.529
桫	-14.529
郪	-14.529
婟	-14.529
旆	-14.529
㰕	-14.529
肔	-14.529
􂇿	-14.529
紬	-14.5291
􂁠	-14.5292
駓	-14.5292
􂄿	-14.5293
袄	-14.5293
􂂻	-14.5293
疉	-14.5293
㕭	-14.5293
擉	-14.5293
粽	-14.5293
賨	-14.5293
𨑙	-14.5293
悒	-14.5293
毌	-14.5293
鰍	-14.5293
𡖖	-14.5293
嗁	-14.5293
嫰	-14.5293
昦	-14.5293
畼	-14.5293
郷	-14.5293
龥	-14.5293
􂁵	-14.5293
􂋚	-14.5293
䨛	-14.5293
湝	-14.5293
痤	-14.5293
轢	-14.5293
􂂤	-14.5293
􂂥	-14.5293
虖	-14.5296
狁	-14.5296
瑄	-14.5296
􂈪	-14.5296
莬	-14.5297
踼	-14.5297
􂂶	-14.5297
蘓	-14.5297
媢	-14.5297
偵	-14.5297
蝘	-14.5297
嫫	-14.5297
汋	-14.5297
蹂	-14.5297
丱	-14.5297
扢	-14.5297
璡	-14.5297
萹	-14.5297
蓀	-14.5297
􂁦	-14.5297
噢	-14.5297
誒	-14.5297
黧	-14.5297
㿾	-14.5297
隟	-14.5298
濞	-14.5298
𡣳	-14.53
姒	-14.53
擥	-14.53
凙	-14.53
縐	-14.53
糅	-14.53
隒	-14.53
㜈	-14.53
𨮂	-14.53
峕	-14.53
惏	-14.53
杙	-14.53
鍇	-14.53
𠃌	-14.53
㳺	-14.53
䘲	-14.53
䙫	-14.53
䠓	-14.53
䦧	-14.53
僰	-14.53
坳	-14.53
硏	-14.53
訽	-14.53
鞟	-14.53
鮓	-14.53
􂋻	-14.53
淝	-14.5301
讞	-14.5301
澨	-14.5303
絛	-14.5303
咶	-14.5303
𢋨	-14.5303
匯	-14.5303
槊	-14.5303
輗	-14.5303
俋	-14.5303
僛	-14.5303
嫺	-14.5303
曏	-14.5303
焬	-14.5303
爬	-14.5303
盋	-14.5303
籀	-14.5303
糗	-14.5303
蜆	-14.5303
蜢	-14.5303
趯	-14.5303
軨	-14.5303
靷	-14.5303
􂉪	-14.5303
尠	-14.5304
蹏	-14.5304
杷	-14.5304
嘧	-14.5305
褙	-14.5306
斕	-14.5306
讋	-14.5306
頣	-14.5306
蚔	-14.5306
异	-14.5306
濾	-14.5306
屺	-14.5306
簏	-14.5306
菘	-14.5306
訏	-14.5306
躪	-14.5306
輞	-14.5306
𢋫	-14.5306
䏕	-14.5306
峝	-14.5306
崟	-14.5306
攩	-14.5306
潀	-14.5306
狉	-14.5306
疰	-14.5306
癶	-14.5306
飀	-14.5306
􂋮	-14.5306
􂋗	-14.5307
刴	-14.5307
荿	-14.5308
朘	-14.5308
觱	-14.5308
酡	-14.5308
􂃨	-14.5308
篘	-14.5309
硇	-14.5309
嵒	-14.5309
芘	-14.5309
晩	-14.5309
䷒	-14.5309
婀	-14.5309
鯀	-14.5309
剷	-14.5309
磥	-14.5309
􂃰	-14.5309
倭	-14.5309
冖	-14.5309
冾	-14.5309
唤	-14.5309
妳	-14.5309
岣	-14.5309
挻	-14.5309
揄	-14.5309
榧	-14.5309
欞	-14.5309
聀	-14.5309
蛑	-14.5309
貰	-14.5309
蹔	-14.5309
釬	-14.5309
𧄔	-14.5309
𨻶	-14.5309
􂂅	-14.5309
佽	-14.5311
鐶	-14.5311
鱷	-14.5311
瀠	-14.5312
綯	-14.5312
鸂	-14.5312
厫	-14.5312
㰱	-14.5312
𠰂	-14.5312
驄	-14.5312
鰕	-14.5312
㦄	-14.5312
㦧	-14.5312
儃	-14.5312
怭	-14.5312
枏	-14.5312
歊	-14.5312
甝	-14.5312
瘀	-14.5312
瞧	-14.5312
窱	-14.5312
羃	-14.5312
蚘	-14.5312
辠	-14.5312
𠯻	-14.5312
𠰢	-14.5312
𡄣	-14.5312
𢆶	-14.5312
𧸛	-14.5312
􂁧	-14.5312
􂂛	-14.5312
􂄧	-14.5312
􂅍	-14.5312
􂈊	-14.5312
􂈭	-14.5312
􂋟	-14.5312
o	-14.5312
􂁓	-14.5312
忩	-14.5313
僾	-14.5314
搪	-14.5314
茍	-14.5314
硿	-14.5314
衠	-14.5314
𧥄	-14.5314
袢	-14.5315
螘	-14.5315
鮞	-14.5315
箒	-14.5315
袱	-14.5315
艑	-14.5316
撙	-14.5316
醁	-14.5316
鋹	-14.5316
鼊	-14.5316
􂃋	-14.5316
㹀	-14.5316
侏	-14.5316
嘅	-14.5316
嫵	-14.5316
纇	-14.5316
蟜	-14.5316
譶	-14.5316
豉	-14.5316
鄗	-14.5316
顋	-14.5316
􂄀	-14.5316
􂈖	-14.5316
寜	-14.5317
氵	-14.5317
頳	-14.5317
􂋕	-14.5317
蛔	-14.5319
焭	-14.5319
辧	-14.5319
𤜶	-14.5319
𥆐	-14.5319
𧔞	-14.5319
􂂴	-14.5319
攟	-14.5319
哹	-14.5319
嘐	-14.5319
嚬	-14.5319
嵃	-14.5319
椁	-14.5319
渢	-14.5319
濇	-14.5319
綝	-14.5319
蔉	-14.5319
贛	-14.5319
𢊲	-14.5319
𤍞	-14.5319
𦷧	-14.5319
􂇯	-14.5319
􂋥	-14.5319
􂉏	-14.5319
傎	-14.532
巗	-14.5321
𦨴	-14.5322
摜	-14.5322
雱	-14.5322
䬃	-14.5322
麐	-14.5322
䨱	-14.5322
篾	-14.5322
豭	-14.5322
鷂	-14.5322
𨗠	-14.5322
𪔱	-14.5322
􂈘	-14.5322
齌	-14.5323
騑	-14.5323
㪷	-14.5325
埡	-14.5325
熇	-14.5325
琹	-14.5325
y	-14.5325
㶌	-14.5325
劭	-14.5325
囮	-14.5325
嶕	-14.5325
眴	-14.5325
臈	-14.5325
舲	-14.5325
蕢	-14.5325
􂁜	-14.5325
囬	-14.5327
参	-14.5327
咋	-14.5328
㗘	-14.5328
璆	-14.5328
禇	-14.5328
衊	-14.5328
躧	-14.5328
堕	-14.5328
泪	-14.5328
滳	-14.5328
􂌁	-14.5328
甆	-14.5328
𤉖	-14.5328
𥥛	-14.5328
埇	-14.5329
譛	-14.5331
妲	-14.5331
􂂯	-14.5331
慓	-14.5331
皖	-14.5331
缼	-14.5331
噡	-14.5331
崈	-14.5331
悱	-14.5331
痯	-14.5331
磪	-14.5331
穏	-14.5331
艸	-14.5331
衖	-14.5331
𠀉	-14.5331
𧲖	-14.5331
𩘝	-14.5331
􂃛	-14.5331
􂃥	-14.5331
􂅜	-14.5331
􂅳	-14.5331
􂆅	-14.5331
􂈈	-14.5331
􂈵	-14.5331
澀	-14.5332
􂌚	-14.5334
鬵	-14.5334
擂	-14.5334
烮	-14.5334
覇	-14.5334
枋	-14.5334
𨍭	-14.5334
嵸	-14.5335
𡣕	-14.5337
潻	-14.5338
鬽	-14.5338
茷	-14.5338
譍	-14.5338
㷆	-14.5338
慥	-14.5338
瀏	-14.5338
玫	-14.5338
𤱂	-14.5338
儗	-14.5339
􂁫	-14.5339
Z	-14.534
亾	-14.5341
㟢	-14.5341
噯	-14.5341
罌	-14.5341
窃	-14.5341
㤀	-14.5341
𡾔	-14.5341
􂃽	-14.5341
搨	-14.5344
䱔	-14.5344
𢬵	-14.5344
淦	-14.5344
𩀱	-14.5344
䅋	-14.5344
濈	-14.5344
圬	-14.5346
綈	-14.5347
鍪	-14.5347
坭	-14.5347
譪	-14.5347
􂂖	-14.5347
鄖	-14.535
饀	-14.535
𣊟	-14.535
扦	-14.535
曯	-14.535
灮	-14.535
舠	-14.535
􂃸	-14.535
蟣	-14.5352
眹	-14.5353
萟	-14.5355
䀜	-14.5356
忺	-14.5356
糸	-14.5356
䂓	-14.5356
圳	-14.5356
翯	-14.5356
鬍	-14.5356
􂁼	-14.5356
𠿷	-14.536
匄	-14.536
狻	-14.5363
𤃫	-14.5363
𤥐	-14.5363
「	-14.5366
」	-14.5366
隖	-14.5369
蜡	-14.5369
碪	-14.5369
粼	-14.5369
􂄃	-14.5372
􂉦	-14.5372
劙	-14.5375
袷	-14.5378
魴	-14.5379
懬	-14.5379
􂉣	-14.5379
幛	-14.5382
佶	-14.5382
齁	-14.5382
𤯝	-14.5383
𩗺	-14.5384
􂂇	-14.5394
鬖	-14.5401
厢	-14.5407
􂆘	-15.4923
􂁹	-15.4924
􂁢	-15.4925
􂁡	-15.4926
􂁞	-15.4927
􂁛	-15.4928
􂁚	-15.4929
􂁙	-15.493
􂁘	-15.4931
􂁗	-15.4932
􂁖	-15.4933
𩻣	-15.4934
𩲕	-15.4935
𩲓	-15.4936
𩪸	-15.4937
𩨘	-15.4938
𩊀	-15.4939
𩅑	-15.494
𨓦	-15.4941
𨁝	-15.4942
𧳓	-15.4943
𧟋	-15.4944
𧙪	-15.4945
𧔥	-15.4946
𧋍	-15.4947
𥫽	-15.4948
𥀷	-15.4949
𤴯	-15.495
𤦛	-15.4951
𤚥	-15.4952
𤈎	-15.4953
𣿄	-15.4954
𣷠	-15.4955
𣰉	-15.4956
𢀿	-15.4957
𡾓	-15.4958
𡟬	-15.4959
𡁮	-15.496
𠺅	-15.4961
𠸋	-15.4962
𠯽	-15.4963
𠖏	-15.4964
𠂻	-15.4965
齯	-15.4966
麖	-15.4967
鷾	-15.4968
鷥	-15.4969
鴯	-15.497
鳧	-15.4971
鱁	-15.4972
鮧	-15.4973
驊	-15.4974
驃	-15.4975
騮	-15.4976
馞	-15.4977
馝	-15.4978
餱	-15.4979
靮	-15.498
霡	-15.4981
隩	-15.4982
闃	-15.4983
鐡	-15.4984
鎝	-15.4985
酙	-15.4986
邛	-15.4987
遫	-15.4988
辶	-15.4989
轗	-15.499
軱	-15.4991
軦	-15.4992
軔	-15.4993
蹺	-15.4994
蹭	-15.4995
賻	-15.4996
豀	-15.4997
訞	-15.4998
襶	-15.4999
褶	-15.5
褵	-15.5001
褦	-15.5002
裵	-15.5003
袚	-15.5004
衵	-15.5005
蠸	-15.5006
蠨	-15.5007
蟮	-15.5008
螵	-15.5009
螮	-15.501
螬	-15.5011
蜑	-15.5012
蜊	-15.5013
蛺	-15.5014
蚷	-15.5015
藋	-15.5016
薯	-15.5017
薝	-15.5018
蕰	-15.5019
蒟	-15.502
葸	-15.5021
萠	-15.5022
菏	-15.5023
芫	-15.5024
芨	-15.5025
舎	-15.5026
臲	-15.5027
臌	-15.5028
膕	-15.5029
腞	-15.503
羂	-15.5031
繯	-15.5032
縀	-15.5033
糦	-15.5034
簹	-15.5035
篨	-15.5036
篔	-15.5037
箰	-15.5038
稉	-15.5039
秇	-15.504
祒	-15.5041
礲	-15.5042
矬	-15.5043
矓	-15.5044
睺	-15.5045
睚	-15.5046
眢	-15.5047
癀	-15.5048
瘂	-15.5049
痧	-15.505
痣	-15.5051
疤	-15.5052
猲	-15.5053
猍	-15.5054
犿	-15.5055
犗	-15.5056
爞	-15.5057
焄	-15.5058
烎	-15.5059
澒	-15.506
渻	-15.5061
涶	-15.5062
涒	-15.5063
泘	-15.5064
櫽	-15.5065
櫱	-15.5066
檎	-15.5067
榾	-15.5068
榕	-15.5069
棙	-15.507
曨	-15.5071
斨	-15.5072
攦	-15.5073
摃	-15.5074
搧	-15.5075
掎	-15.5076
捃	-15.5077
拶	-15.5078
拮	-15.5079
㨀	-15.508
慜	-15.508
恿	-15.5081
忼	-15.5082
忳	-15.5083
弚	-15.5084
弆	-15.5085
帠	-15.5086
崍	-15.5087
嬛	-15.5088
嫏	-15.5089
婭	-15.509
夐	-15.5091
壝	-15.5092
壕	-15.5093
墙	-15.5094
堈	-15.5095
埿	-15.5096
垜	-15.5097
圑	-15.5098
嚓	-15.5099
嚆	-15.51
嘍	-15.5101
嗨	-15.5102
嗥	-15.5103
啵	-15.5104
啇	-15.5105
卼	-15.5106
匁	-15.5107
勍	-15.5108
僇	-15.5109
倥	-15.511
佒	-15.5111
剠	-15.5112
䀨	-15.5112
㿈	-15.5113
㢰	-15.5114
㓾	-15.5115
*	-15.5116
􂉘	-15.5117
􂈣	-15.5118
𦯰	-15.5119
𦆯	-15.512
𤉹	-15.5121
𢿋	-15.5122
𡛥	-15.5123
𡅵	-15.5124
𠾐	-15.5125
齷	-15.5126
齪	-15.5127
鶵	-15.5128
顢	-15.5129
鞶	-15.513
雈	-15.5131
閥	-15.5132
鎡	-15.5133
邲	-15.5134
轘	-15.5135
輊	-15.5136
蹣	-15.5137
踆	-15.5138
跚	-15.5139
豶	-15.514
譸	-15.5141
詿	-15.5142
觫	-15.5143
蕘	-15.5144
莨	-15.5145
莓	-15.5146
臹	-15.5147
纁	-15.5148
繮	-15.5149
緹	-15.515
綌	-15.5151
篐	-15.5152
秭	-15.5153
礄	-15.5154
磺	-15.5155
碏	-15.5156
瞌	-15.5157
瑪	-15.5158
瑙	-15.5159
䃾	-15.516
僓	-15.516
瑑	-15.516
獍	-15.5161
焜	-15.5162
澼	-15.5163
滹	-15.5164
洴	-15.5165
洚	-15.5166
泫	-15.5167
檮	-15.5168
槹	-15.5169
榑	-15.517
枒	-15.5171
旖	-15.5172
旎	-15.5173
恧	-15.5174
嵛	-15.5175
㫤	-15.5176
奘	-15.5176
塪	-15.5177
埌	-15.5178
垕	-15.5179
噌	-15.518
嘮	-15.5181
呮	-15.5182
吰	-15.5183
䰇	-15.5184
偌	-15.5184
偊	-15.5185
􂆴	-15.5186
􂆲	-15.5187
𥻘	-15.5188
𡺾	-15.5189
𡷾	-15.519
𠟡	-15.5191
㹖	-15.5192
鼫	-15.5192
鮫	-15.5193
鏖	-15.5194
鈃	-15.5195
躶	-15.5196
踖	-15.5197
趵	-15.5198
赳	-15.5199
褉	-15.52
蠁	-15.5201
螗	-15.5202
蝙	-15.5203
蜈	-15.5204
蛉	-15.5205
蚣	-15.5206
虻	-15.5207
㘑	-15.5208
䡍	-15.5208
萄	-15.5208
茉	-15.5209
艧	-15.521
肸	-15.5211
翐	-15.5212
翏	-15.5213
翂	-15.5214
羑	-15.5215
㗞	-15.5216
㶚	-15.5216
傞	-15.5216
儱	-15.5216
劦	-15.5216
紘	-15.5216
笫	-15.5217
稯	-15.5218
祫	-15.5219
磗	-15.522
矱	-15.5221
玞	-15.5222
獼	-15.5223
㫻	-15.5224
㼜	-15.5224
狌	-15.5224
犄	-15.5225
瀋	-15.5226
湓	-15.5227
歜	-15.5228
歔	-15.5229
欖	-15.523
椓	-15.5231
㔙	-15.5232
㭁	-15.5232
㳙	-15.5232
枻	-15.5232
朓	-15.5233
暵	-15.5234
晹	-15.5235
懣	-15.5236
悻	-15.5237
怓	-15.5238
忉	-15.5239
䋈	-15.524
䦘	-15.524
䰅	-15.524
党	-15.524
卝	-15.524
幈	-15.524
岔	-15.5241
孶	-15.5242
塏	-15.5243
喨	-15.5244
哱	-15.5245
咂	-15.5246
儿	-15.5247
⊙	-15.5248
㣼	-15.5248
㺯	-15.5248
乹	-15.5248
俻	-15.5248
凁	-15.5248
凓	-15.5248
仃	-15.5248
𠨑	-15.5249
齠	-15.525
齔	-15.5251
韆	-15.5252
靦	-15.5253
霢	-15.5254
雽	-15.5255
㥑	-15.5256
侓	-15.5256
谽	-15.5256
覼	-15.5257
蠮	-15.5258
蟋	-15.5259
蟀	-15.526
蜻	-15.5261
蜘	-15.5262
藟	-15.5263
㘄	-15.5264
㡗	-15.5264
㴻	-15.5264
䓂	-15.5264
䘌	-15.5264
䪘	-15.5264
伭	-15.5264
佴	-15.5264
偰	-15.5264
皡	-15.5264
瘓	-15.5265
獗	-15.5266
狴	-15.5267
澘	-15.5268
潧	-15.5269
杌	-15.527
擻	-15.5271
㝢	-15.5272
㨂	-15.5272
㱯	-15.5272
䀠	-15.5272
䀻	-15.5272
䖵	-15.5272
䝤	-15.5272
䡛	-15.5272
佋	-15.5272
巑	-15.5272
岏	-15.5273
婷	-15.5274
塿	-15.5275
塾	-15.5276
齬	-15.5277
齟	-15.5278
鷽	-15.5279
鶘	-15.528
㠌	-15.528
㦬	-15.528
㵳	-15.528
仳	-15.528
伋	-15.528
倜	-15.528
鵜	-15.5281
鯁	-15.5282
駙	-15.5283
鎁	-15.5284
酊	-15.5285
轤	-15.5286
襆	-15.5287
蠓	-15.5288
ㄅ	-15.5288
㗆	-15.5288
㙰	-15.5288
㠟	-15.5288
䄄	-15.5288
䠞	-15.5288
䠥	-15.5288
兪	-15.5288
藎	-15.5289
蒺	-15.529
葂	-15.5291
萏	-15.5292
䤌	-15.5292
莆	-15.5293
舋	-15.5294
痳	-15.5295
甶	-15.5296
㕧	-15.5296
㠋	-15.5296
㠛	-15.5296
㨾	-15.5296
㩋	-15.5296
㹶	-15.5296
䁔	-15.5296
䟫	-15.5296
䣃	-15.5296
䤋	-15.5296
乒	-15.5296
乓	-15.5296
乱	-15.5296
佪	-15.5296
偭	-15.5296
卋	-15.5296
卮	-15.5296
甤	-15.5297
琵	-15.5298
琭	-15.5299
煴	-15.53
亍	-15.53
洟	-15.5301
沄	-15.5302
殍	-15.5303
枸	-15.5304
㖅	-15.5304
㘅	-15.5304
㝔	-15.5304
㱆	-15.5304
䆗	-15.5304
䒱	-15.5304
份	-15.5304
儈	-15.5304
划	-15.5304
劀	-15.5304
摔	-15.5305
惔	-15.5306
䰟	-15.5306
嶪	-15.5307
崏	-15.5308
㽞	-15.5308
宄	-15.5309
哵	-15.531
䳵	-15.531
吷	-15.5311
P	-15.5311
Y	-15.5311
螻	-15.5312
倕	-15.5312
#	-15.5312
;	-15.5312
し	-15.5312
は	-15.5312
㒺	-15.5312
㖀	-15.5312
㘘	-15.5312
㲉	-15.5312
㹸	-15.5312
䃭	-15.5312
䍧	-15.5312
䏃	-15.5312
䧅	-15.5312
卅	-15.5312
r	-15.5312
d	-15.5313
㶁	-15.5313
㤐	-15.5314
𨦐	-15.5315
𧴀	-15.5316
龢	-15.5317
頏	-15.5318
霂	-15.5319
雸	-15.532
彿	-15.532
㖇	-15.532
㟏	-15.532
㠐	-15.532
㤅	-15.532
㬇	-15.532
䆃	-15.532
䇄	-15.532
䈥	-15.532
䈸	-15.532
䊀	-15.532
䞡	-15.532
䯱	-15.532
䵬	-15.532
佀	-15.532
佉	-15.532
儥	-15.532
凘	-15.532
鑵	-15.5321
錚	-15.5322
蠐	-15.5323
蟪	-15.5324
冫	-15.5324
剄	-15.5324
蛄	-15.5325
腪	-15.5326
絏	-15.5327
淯	-15.5328
╳	-15.5328
㖮	-15.5328
㜅	-15.5328
㞤	-15.5328
㫄	-15.5328
㮙	-15.5328
㱔	-15.5328
䈴	-15.5328
䗬	-15.5328
䮚	-15.5328
仚	-15.5328
伻	-15.5328
侻	-15.5328
傕	-15.5328
枌	-15.5329
揵	-15.533
彾	-15.5331
嶤	-15.5332
岧	-15.5333
嫋	-15.5334
靊	-15.5335
蹁	-15.5336
䲧	-15.5336
傒	-15.5336
卍	-15.5336
踶	-15.5337
覦	-15.5338
菖	-15.5339
羝	-15.534
䌩	-15.534
儐	-15.534
笊	-15.5341
滃	-15.5342
洹	-15.5343
毿	-15.5344
㨅	-15.5345
㫒	-15.5345
㬘	-15.5345
䞇	-15.5345
䷼	-15.5345
佼	-15.5345
劳	-15.5345
撢	-15.5345
嵫	-15.5346
娓	-15.5347
嚨	-15.5348
喋	-15.5349
咷	-15.535
吩	-15.5351
㷀	-15.5352
㑀	-15.5353
㵟	-15.5353
䒦	-15.5353
䣛	-15.5353
䷂	-15.5353
䷄	-15.5353
䷽	-15.5353
剮	-15.5353
劊	-15.5353
𧕍	-15.5353
𧏙	-15.5354
靆	-15.5355
輜	-15.5356
裟	-15.5357
虰	-15.5358
瓓	-15.5359
猙	-15.536
☯	-15.5361
㜣	-15.5361
䋡	-15.5361
䌟	-15.5361
倯	-15.5361
偱	-15.5361
刜	-15.5361
濓	-15.5361
枵	-15.5362
徬	-15.5363
𩵄	-15.5364
𩳐	-15.5365
魓	-15.5366
邙	-15.5367
踟	-15.5368
㕹	-15.5369
㫳	-15.5369
㴎	-15.5369
䪺	-15.5369
刵	-15.5369
貅	-15.5369
矻	-15.537
歅	-15.5371
櫳	-15.5372
懨	-15.5373
懔	-15.5374
慌	-15.5375
怦	-15.5376
㚒	-15.5377
㧅	-15.5377
㸑	-15.5377
偑	-15.5377
姮	-15.5377
啍	-15.5378
䰢	-15.5379
𩲃	-15.538
謦	-15.5381
糢	-15.5382
玻	-15.5383
獓	-15.5384
>	-15.5385
C	-15.5385
㡌	-15.5385
湲	-15.5385
氅	-15.5386
娉	-15.5387
駸	-15.5388
逶	-15.5389
蜋	-15.539
繄	-15.5391
粕	-15.5392
㕣	-15.5393
笤	-15.5393
硌	-15.5394
琊	-15.5395
珀	-15.5396
洱	-15.5397
挲	-15.5398
戔	-15.5399
怫	-15.54
㭮	-15.5401
㾃	-15.5401
䨴	-15.5401
卬	-15.5401
娌	-15.5401
妯	-15.5402
呱	-15.5403
剞	-15.5404
餮	-15.5405
颻	-15.5406
嫦	-15.5407
佺	-15.5408
㑗	-15.5409
㘠	-15.5409
㴉	-15.5409
䦱	-15.5409
䧑	-15.5409
仉	-15.5409
傶	-15.5409
翡	-15.5409
硜	-15.541
牁	-15.5411
憍	-15.5412
蓽	-15.5413
惆	-15.5414
廚	-15.5415
嘖	-15.5416
㔶	-15.5417
儡	-15.5417
㬋	-15.5418
麒	-15.5419
鴦	-15.542
孥	-15.5421
鵡	-15.5422
邂	-15.5423
螳	-15.5424
㗁	-15.5425
䗶	-15.5425
佊	-15.5425
螂	-15.5425
苒	-15.5426
窕	-15.5427
髑	-15.5428
鄱	-15.5429
匆	-15.543
蘩	-15.5431
惵	-15.5432
惴	-15.5433
魃	-15.5434
磻	-15.5435
瓚	-15.5436
髴	-15.5437
髣	-15.5438
劬	-15.5439
遢	-15.544
㤙	-15.5441
撕	-15.5441
魎	-15.5442
邋	-15.5443
魍	-15.5444
玕	-15.5445
慷	-15.5446
僥	-15.5447
帡	-15.5448
嚀	-15.5449
涬	-15.545
蝴	-15.5451
憧	-15.5452
胱	-15.5453
█	-15.5454
醐	-15.5455
芙	-15.5456
䘚	-15.5457
楞	-15.5457
