<unk>	0
<s>	0
</s>	0
之	-3.54967
也	-3.88177
而	-4.18049
以	-4.43223
者	-4.46294
/	-4.53677
不	-4.73592
其	-4.74547
則	-4.79862
)	-4.82804
(	-4.83869
爲	-4.861
於	-4.9398
有	-5.00237
人	-5.15736
無	-5.29741
故	-5.35802
一	-5.36716
曰	-5.45076
大	-5.64626
中	-5.75062
言	-5.7701
行	-5.81276
為	-5.81809
生	-5.84891
矣	-5.85825
)(	-5.86215
與	-5.87387
子	-5.87843
自	-5.90851
上	-5.91416
乎	-5.91863
此	-5.93709
天	-5.94752
至	-5.95364
得	-5.95538
非	-5.95575
所	-5.9598
是	-6.01165
皆	-6.03118
必	-6.03328
道	-6.05278
見	-6.08007
在	-6.08706
事	-6.12387
知	-6.13339
三	-6.14959
如	-6.15648
日	-6.16666
下	-6.17063
能	-6.19608
用	-6.21003
若	-6.23441
可	-6.24847
心	-6.25512
相	-6.27437
水	-6.27946
陽	-6.28098
使	-6.28283
時	-6.29212
明	-6.32013
成	-6.32094
亦	-6.33571
地	-6.34542
將	-6.34752
當	-6.35926
君	-6.36005
氣	-6.36151
出	-6.36762
乃	-6.36955
四	-6.40221
五	-6.40954
欲	-6.43541
二	-6.44808
然	-6.44907
正	-6.45093
不能	-6.45298
作	-6.45465
數	-6.45509
謂	-6.4636
或	-6.47842
主	-6.49493
我	-6.4957
不可	-6.50858
公	-6.51106
國	-6.52758
雖	-6.52827
物	-6.53364
名	-6.55092
又	-6.55205
兵	-6.55977
夫	-6.56179
王	-6.56741
同	-6.57446
多	-6.57547
民	-6.5809
令	-6.58532
善	-6.5902
神	-6.59035
法	-6.59132
利	-6.6113
猶	-6.64232
分	-6.65475
而不	-6.65945
入	-6.67605
已	-6.68869
今	-6.6888
于	-6.69211
六	-6.69454
因	-6.69511
臣	-6.69652
長	-6.70109
從	-6.70194
焉	-6.70578
死	-6.71146
衆	-6.71368
方	-6.72674
九	-6.73253
治	-6.73961
易	-6.74934
先	-6.75065
小	-6.75193
陰	-6.76413
處	-6.76795
合	-6.77466
▁	-6.77481
及	-6.78046
吾	-6.78413
居	-6.79821
身	-6.82312
高	-6.84056
重	-6.84294
敵	-6.84374
守	-6.84726
德	-6.8536
後	-6.85739
所以	-6.85879
火	-6.85947
去	-6.86074
○	-6.86132
故曰	-6.87921
内	-6.89234
復	-6.89343
月	-6.9
戰	-6.91305
山	-6.9138
何	-6.91397
取	-6.91486
失	-6.92269
亂	-6.92328
來	-6.92759
未	-6.92848
文	-6.92884
食	-6.93195
勝	-6.93494
命	-6.93512
即	-6.94037
過	-6.94072
士	-6.94094
立	-6.94857
金	-6.94858
盡	-6.95043
常	-6.95434
難	-6.95468
形	-6.95554
世	-6.95692
外	-6.96399
耳	-6.97466
變	-6.97587
天下	-6.98744
馬	-6.98886
安	-6.99597
木	-7.00029
舉	-7.00569
本	-7.01633
軍	-7.01752
惡	-7.01775
彼	-7.02865
義	-7.03181
家	-7.0354
力	-7.04344
以爲	-7.06467
哉	-7.06733
說	-7.0722
動	-7.07579
石	-7.08094
聞	-7.08339
始	-7.0962
理	-7.09656
遠	-7.09823
發	-7.10637
白	-7.1146
極	-7.12432
反	-7.12617
和	-7.12831
星	-7.13156
通	-7.14276
之所	-7.14562
求	-7.14722
門	-7.14961
信	-7.15137
師	-7.15176
齊	-7.15298
風	-7.15312
實	-7.16169
樂	-7.16476
經	-7.16633
貴	-7.17447
七	-7.17472
周	-7.17734
智	-7.17892
書	-7.18752
官	-7.19411
進	-7.19465
八	-7.19911
測曰	-7.20117
殺	-7.20438
受	-7.20912
起	-7.2092
異	-7.21292
不得	-7.21395
少	-7.2162
可以	-7.21782
交	-7.22491
足	-7.22934
應	-7.23182
既	-7.23183
者也	-7.23385
體	-7.23814
親	-7.23998
百	-7.24269
度	-7.25379
好	-7.25608
服	-7.26249
前	-7.26363
虚	-7.26655
亡	-7.27182
萬	-7.27629
土	-7.2764
離	-7.27794
意	-7.28036
平	-7.2859
害	-7.29315
化	-7.2932
車	-7.29836
流	-7.29979
諸	-7.30254
間	-7.30284
止	-7.30419
且	-7.30723
十	-7.31936
年	-7.3202
賢	-7.32058
積	-7.32168
近	-7.32328
輕	-7.32344
遂	-7.3303
攻	-7.33413
位	-7.33519
象	-7.34869
兩	-7.35093
不知	-7.35221
南	-7.35927
節	-7.36069
陳	-7.36102
精	-7.36254
强	-7.3628
城	-7.36562
人之	-7.36918
危	-7.37405
絶	-7.3775
定	-7.37811
玄	-7.37818
疾	-7.38585
功	-7.38752
便	-7.38901
敗	-7.3928
歸	-7.39655
終	-7.39996
天地	-7.40512
固	-7.40637
賞	-7.40677
直	-7.41123
萬物	-7.41149
北	-7.41802
勢	-7.42652
東	-7.43022
謀	-7.43343
凡	-7.43589
是以	-7.43621
禍	-7.43925
蓋	-7.44495
仁	-7.45043
莫	-7.45113
獨	-7.45209
音	-7.45757
女	-7.46153
視	-7.46275
乘	-7.46361
聲	-7.47289
志	-7.47694
問	-7.48226
愛	-7.48284
任	-7.4846
制	-7.48669
計	-7.49448
目	-7.49653
黄	-7.49862
秦	-7.49881
致	-7.5071
西	-7.51069
深	-7.51567
君子	-7.52052
藏	-7.5296
微	-7.53021
口	-7.53116
備	-7.53736
卦	-7.55005
窮	-7.55039
卒	-7.55418
各	-7.55558
其所	-7.55657
聽	-7.5616
厚	-7.56166
施	-7.5639
但	-7.56545
也故	-7.56687
學	-7.56976
政	-7.57272
光	-7.57577
玉	-7.57931
論	-7.57938
豈	-7.58225
益	-7.58367
情	-7.5851
解	-7.58773
觀	-7.59017
刑	-7.60177
伐	-7.61247
指	-7.61526
思	-7.61632
謂之	-7.61656
稱	-7.61954
甚	-7.6218
龍	-7.62184
教	-7.62282
云	-7.62392
所謂	-7.62478
罪	-7.62664
請	-7.63182
宫	-7.63497
疑	-7.63704
禮	-7.63733
尚	-7.63839
元	-7.64035
美	-7.64103
由	-7.65084
武	-7.65642
退	-7.65866
老	-7.66066
傳	-7.66128
聖	-7.66721
色	-7.66906
氏	-7.6699
夏	-7.67213
威	-7.67316
私	-7.67342
之道	-7.67583
性	-7.6759
盛	-7.68842
太	-7.6889
隂	-7.68993
清	-7.69097
宜	-7.69403
邪	-7.69774
隨	-7.69909
擊	-7.69919
田	-7.70307
望	-7.70766
是也	-7.71698
楚	-7.7182
陰陽	-7.71863
衣	-7.72205
首	-7.72471
舍	-7.7272
辭	-7.72725
散	-7.72726
歲	-7.72757
雲	-7.72935
禁	-7.72984
養	-7.73316
次	-7.73421
要	-7.73476
巳	-7.73586
往	-7.74618
帝	-7.74748
乾	-7.74915
病	-7.75683
聖人	-7.75889
斷	-7.76282
修	-7.76528
字	-7.76931
適	-7.77503
堅	-7.78031
十二	-7.78214
初	-7.78314
果	-7.78315
吏	-7.78482
傷	-7.78911
惟	-7.79084
己	-7.79135
勞	-7.79371
執	-7.79613
會	-7.80075
也夫	-7.80127
滅	-7.80131
鬼	-7.80181
患	-7.807
須	-7.80969
財	-7.81043
務	-7.81053
左	-7.8107
尊	-7.81187
夜	-7.81222
室	-7.81228
牛	-7.81624
鼓	-7.81673
屬	-7.81891
福	-7.82071
晋	-7.82188
急	-7.82287
加	-7.82313
飛	-7.82565
弗	-7.82636
存	-7.8299
薄	-7.83308
讀	-7.83534
更	-7.83688
天下之	-7.83768
無所	-7.83901
朝	-7.84007
張	-7.8415
華	-7.8434
廣	-7.84618
父	-7.84907
語	-7.84978
順	-7.85011
隱	-7.85016
引	-7.8518
州	-7.85209
半	-7.85245
術	-7.85269
切	-7.85348
趙	-7.85402
俗	-7.85922
辰	-7.86193
誅	-7.86311
全	-7.86412
遇	-7.8643
爾	-7.86709
弱	-7.86932
或作	-7.87185
久	-7.87263
日月	-7.88094
類	-7.88107
是故	-7.88199
破	-7.88455
靈	-7.88539
還	-7.8855
如此	-7.89253
權	-7.89319
魚	-7.89331
棄	-7.89594
達	-7.8981
角	-7.90192
不足	-7.90268
器	-7.90908
開	-7.91079
右	-7.91221
不可以	-7.91297
愚	-7.91834
運	-7.91926
憂	-7.92216
之中	-7.92712
誠	-7.92719
暴	-7.92997
兼	-7.93424
赤	-7.93434
容	-7.93674
廢	-7.93746
持	-7.93875
甲	-7.9405
河	-7.94248
聚	-7.94607
曲	-7.94614
符	-7.95126
坤	-7.95173
然則	-7.95542
轉	-7.95654
餘	-7.95867
魏	-7.95943
藥	-7.96179
賊	-7.9647
怒	-7.9675
著	-7.96948
降	-7.97098
息	-7.97437
臨	-7.9842
載	-7.98711
而無	-7.98941
吴	-7.99044
而後	-7.99136
古	-7.99201
左右	-7.99404
澤	-7.99619
寒	-7.99678
御	-8.0032
越	-8.0055
怨	-8.0082
富	-8.01005
伯	-8.01139
射	-8.01225
伏	-8.01764
勿	-8.02009
李	-8.02029
才	-8.02261
里	-8.02609
滿	-8.02668
於是	-8.02795
察	-8.03007
業	-8.03234
報	-8.03326
素	-8.03625
一日	-8.03627
恐	-8.03803
待	-8.0387
識	-8.03919
忠	-8.03942
漢	-8.04394
之事	-8.04434
設	-8.04601
寡	-8.04935
苦	-8.05251
比	-8.05544
青	-8.05609
原	-8.0571
卷	-8.05742
罰	-8.06119
具	-8.06121
都	-8.06364
然後	-8.06624
仙	-8.06852
推	-8.07112
告	-8.07138
懷	-8.07369
苟	-8.07377
就	-8.07399
良	-8.07633
塞	-8.07728
走	-8.07925
覆	-8.0797
辯	-8.08018
夷	-8.08021
結	-8.08059
春	-8.08172
千	-8.08246
雨	-8.08443
建	-8.08525
鳥	-8.08696
脩	-8.08723
俱	-8.08752
傳曰	-8.09065
坐	-8.09087
景	-8.09108
共	-8.09475
唯	-8.09755
遺	-8.09809
救	-8.10121
争	-8.10352
冬	-8.10783
酒	-8.10862
丹	-8.10863
險	-8.10942
姦	-8.11047
登	-8.11208
鄭	-8.1141
静	-8.11545
興	-8.1157
昔	-8.11574
圖	-8.11747
律	-8.119
别	-8.11902
敬	-8.11903
諸侯	-8.1193
專	-8.11947
徒	-8.12221
喜	-8.12251
衰	-8.12629
壽	-8.1271
勇	-8.13147
韓	-8.13495
飾	-8.13812
抱朴子曰	-8.13972
機	-8.14056
置	-8.14252
不敢	-8.1444
慮	-8.14514
等	-8.14567
虎	-8.14648
草	-8.14694
篇	-8.15051
小人	-8.15492
有所	-8.15515
奪	-8.15544
濟	-8.15958
路	-8.16361
參	-8.16482
除	-8.16862
也今	-8.1689
章	-8.17085
幽	-8.17221
寳	-8.1723
逆	-8.17235
犯	-8.17236
宋	-8.17337
魯	-8.17609
賤	-8.17821
真	-8.18303
損	-8.18665
譽	-8.18689
向	-8.19151
游	-8.19602
至於	-8.19926
貧	-8.19927
愈	-8.19951
頭	-8.19964
而已	-8.20034
斗	-8.20261
質	-8.20344
審	-8.20381
懼	-8.20695
斯	-8.20732
他	-8.20968
列	-8.21213
對	-8.21218
戒	-8.21364
手	-8.21462
〇	-8.21545
短	-8.21745
商	-8.21916
客	-8.22258
圍	-8.22408
速	-8.22739
宿	-8.228
百姓	-8.22837
面	-8.22872
惑	-8.22888
嘗	-8.23129
表	-8.23465
眞	-8.23675
之數	-8.23816
之士	-8.23824
者必	-8.23833
人也	-8.23952
縣	-8.24235
願	-8.2433
曹操曰	-8.24346
背	-8.24405
收	-8.24409
端	-8.24414
念	-8.24673
關	-8.24785
敵人	-8.25095
巧	-8.25116
禹	-8.25231
閉	-8.2525
秋	-8.25325
侯	-8.25478
感	-8.2553
貪	-8.25626
之地	-8.25655
海	-8.25675
升	-8.26126
之間	-8.2649
淵	-8.2652
四時	-8.26804
不爲	-8.26882
敢	-8.26997
期	-8.27284
鬼神	-8.27304
量	-8.27414
畏	-8.27678
被	-8.27756
候	-8.27807
母	-8.27863
足以	-8.28066
申	-8.28069
毁	-8.28098
貞	-8.28137
忽	-8.28411
營	-8.28645
震	-8.28912
盈	-8.28935
到	-8.29001
步	-8.29175
莫不	-8.29283
天之	-8.29291
保	-8.29434
禄	-8.29458
生於	-8.29464
根	-8.29548
宗	-8.29843
釋	-8.30747
梁	-8.30762
折	-8.30765
率	-8.30825
貌	-8.30871
爲之	-8.31178
午	-8.31222
司	-8.3146
責	-8.31648
奉	-8.31672
堯	-8.32478
穀	-8.32484
又曰	-8.32978
穴	-8.33201
許	-8.33265
空	-8.33351
約	-8.33427
井	-8.33756
召	-8.33899
衛	-8.34071
太極	-8.34652
舟	-8.34742
卑	-8.34787
困	-8.35238
末	-8.3532
使人	-8.3559
丘	-8.35744
干	-8.35754
況	-8.36061
妄	-8.36393
移	-8.36804
野	-8.36844
自然	-8.36944
辟	-8.37141
林	-8.37236
不及	-8.37404
荆	-8.37441
否	-8.37625
人主	-8.37798
負	-8.37976
密	-8.38071
毋	-8.38398
之法	-8.38485
布	-8.38486
余	-8.39013
嚴	-8.39049
不以	-8.394
累	-8.39476
也光謂	-8.39491
甘	-8.39969
得其	-8.40156
似	-8.40465
羊	-8.40489
雜	-8.40517
妻	-8.40953
爭	-8.41002
差	-8.41034
燕	-8.41123
凶	-8.41388
畢	-8.41465
上下	-8.41797
之所以	-8.41856
屈	-8.41881
違	-8.41893
細	-8.41904
履	-8.41942
大夫	-8.42188
孰	-8.42448
一人	-8.42606
之時	-8.4265
血	-8.42757
索	-8.42837
惠	-8.42936
决	-8.4299
塗	-8.4328
代	-8.43331
委	-8.43436
者不	-8.43513
忘	-8.43602
〇張預曰	-8.43726
免	-8.43802
黑	-8.43804
放	-8.43917
驚	-8.43939
連	-8.44044
封	-8.44296
消	-8.44298
趨	-8.44401
□	-8.44482
榮	-8.44792
集	-8.4487
博	-8.44889
鄉	-8.44901
擇	-8.44936
畫	-8.45402
逐	-8.45408
淫	-8.45437
剛	-8.45509
仁義	-8.45753
千里	-8.46285
羽	-8.46408
歷	-8.46487
留	-8.46511
並	-8.4697
調	-8.47031
谷	-8.47031
張預曰	-8.47046
造	-8.47389
偶	-8.47434
魄	-8.47574
飲	-8.47777
竭	-8.48564
避	-8.48567
奇	-8.48599
喪	-8.48924
冠	-8.48977
龜	-8.49051
者非	-8.4906
予	-8.49092
樹	-8.49524
蛇	-8.49528
天地之	-8.49533
市	-8.49588
蒙	-8.49619
謹	-8.49619
孝	-8.49809
知其	-8.50023
湯	-8.50605
陵	-8.50712
不見	-8.50879
汝	-8.50975
以此	-8.50989
獲	-8.51079
議	-8.51159
皇	-8.51186
奚	-8.5163
授	-8.51709
坎	-8.51948
冬至	-8.52175
廉	-8.52248
錯	-8.5228
助	-8.52283
之氣	-8.52542
顯	-8.52744
辱	-8.5275
呼	-8.52777
陽氣	-8.5328
胡	-8.53391
遊	-8.53891
傾	-8.53892
肉	-8.53895
杜牧曰	-8.53981
策	-8.54171
習	-8.54313
舜	-8.54428
鳴	-8.54469
炁	-8.54518
記	-8.54549
朱	-8.54597
味	-8.54815
儀	-8.5488
恩	-8.54924
也若	-8.5498
庶	-8.55073
然而	-8.55266
梅堯臣曰	-8.55737
操	-8.56104
循	-8.56153
柔	-8.5616
拔	-8.56724
彊	-8.5683
揚	-8.56935
笑	-8.57212
照	-8.57271
如是	-8.57275
誰	-8.57276
假	-8.57726
虛	-8.57817
漸	-8.57848
侵	-8.57873
純	-8.5788
蔽	-8.57912
紀	-8.58378
資	-8.58383
仲	-8.58393
不如	-8.58607
縱	-8.59031
文王	-8.59337
勸	-8.59339
接	-8.59583
五行	-8.59692
浮	-8.59693
吕	-8.59746
示	-8.60124
幾	-8.60128
國之	-8.60151
不足以	-8.60386
孔子	-8.60441
曰吾	-8.60523
每	-8.60767
孤	-8.60786
腹	-8.60846
遣	-8.60848
覺	-8.61006
役	-8.61048
先生	-8.61159
新	-8.61388
弊	-8.61404
種	-8.61419
知之	-8.61918
者皆	-8.62005
天子	-8.62054
之人	-8.62159
李筌曰	-8.62254
户	-8.62542
三十	-8.6256
不用	-8.62576
蟲	-8.62596
寧	-8.62597
號	-8.62598
冥	-8.62678
不相	-8.62797
孟	-8.62833
簡	-8.62918
靜	-8.63085
之言	-8.63166
倍	-8.63178
獻	-8.63201
悉	-8.63221
旦	-8.63232
垂	-8.6375
庸	-8.63769
不同	-8.64079
有餘	-8.64277
雷	-8.64334
祭	-8.64455
故能	-8.64553
工	-8.64836
晝	-8.64886
詩	-8.64908
徃	-8.64968
管	-8.6503
寅	-8.65062
而不可	-8.65127
言之	-8.65299
季	-8.65302
儒	-8.65437
府	-8.65582
殊	-8.65631
附	-8.65737
神仙	-8.65746
恃	-8.66151
而行	-8.6628
材	-8.6629
尺	-8.66302
費	-8.66528
而爲	-8.66633
僞	-8.66696
勤	-8.67005
淺	-8.6745
雖有	-8.67509
之心	-8.67513
斬	-8.67528
却	-8.67565
驗	-8.67578
必有	-8.67726
哀	-8.67873
而不能	-8.67976
王曰	-8.68084
銳	-8.68089
偏	-8.68157
子曰	-8.68364
中有	-8.68397
之說	-8.68433
子墨子曰	-8.68484
其身	-8.68535
獸	-8.68697
祖	-8.68698
延	-8.68797
悲	-8.68814
克	-8.68838
并	-8.68881
包	-8.68906
二十	-8.68927
長生	-8.69333
崇	-8.69429
池	-8.69466
闕	-8.69479
耕	-8.69492
旁	-8.70071
襲	-8.7012
效	-8.7013
骨	-8.70134
喻	-8.7017
迎	-8.70199
用之	-8.70259
飢	-8.70677
史	-8.7071
刻	-8.70779
也〇梅堯臣曰	-8.70822
隂陽	-8.70958
江	-8.71223
毒	-8.7143
充	-8.71447
堂	-8.7186
改	-8.71861
悔	-8.72087
統	-8.72113
昌	-8.7215
士卒	-8.72439
無形	-8.72515
以為	-8.72551
圓	-8.72565
迹	-8.72666
虞	-8.72878
邑	-8.72878
有一	-8.73192
群	-8.73329
吉	-8.7335
醜	-8.73459
承	-8.73511
三十六	-8.73529
之象	-8.73993
桓公	-8.7402
唐	-8.74066
輔	-8.74151
無不	-8.7454
投	-8.7456
詐	-8.74732
仲尼	-8.74765
繩	-8.74772
古之	-8.74772
含	-8.74799
筭	-8.74839
得之	-8.75194
賜	-8.75255
妙	-8.75458
君臣	-8.75473
削	-8.75482
割	-8.7555
夢	-8.75552
爲人	-8.75751
獄	-8.75998
臺	-8.7612
抱	-8.76152
變化	-8.76184
寸	-8.76277
測	-8.76585
紂	-8.76762
羅	-8.76824
兆	-8.76849
潜	-8.76853
追	-8.7686
帶	-8.76887
四方	-8.76887
婦	-8.76917
矢	-8.77392
對曰	-8.77605
均	-8.77664
旣	-8.77964
不勝	-8.78266
后	-8.78301
依	-8.78306
也王曰	-8.78355
於人	-8.78597
人有	-8.78652
顧	-8.7873
欺	-8.78776
十六	-8.78836
族	-8.78933
仰	-8.7898
露	-8.78985
了	-8.78993
魂	-8.79131
狀	-8.79437
未有	-8.79464
黨	-8.79628
之後	-8.79631
略	-8.79656
没	-8.79659
試	-8.79673
部	-8.79688
最	-8.79751
光謂	-8.79906
道者	-8.80145
昏	-8.80274
徵	-8.80361
劉	-8.80384
掩	-8.80456
竊	-8.80466
卿	-8.80884
道也	-8.81023
據	-8.81095
招	-8.811
沈	-8.81155
宰	-8.81258
世之	-8.8136
輪	-8.81816
厲	-8.81872
籍	-8.81883
煩	-8.81891
馳	-8.81912
錢	-8.81951
草木	-8.82129
爵	-8.82459
佐	-8.82588
屋	-8.82601
徐	-8.82611
王皙曰	-8.82664
此言	-8.82717
晦	-8.82901
泰	-8.83131
騎	-8.83272
規	-8.83342
第	-8.83364
於此	-8.83374
不過	-8.83672
歌	-8.8398
慕	-8.8405
遁	-8.84074
父母	-8.84218
墮	-8.84779
熱	-8.84793
范	-8.84815
萌	-8.84832
殷	-8.84897
子之	-8.8513
之外	-8.85133
維	-8.85354
朔	-8.85517
之謂	-8.85523
枝	-8.85548
翼	-8.85552
振	-8.85572
先天	-8.85779
將軍	-8.8579
而不知	-8.86062
尸	-8.86157
刃	-8.86302
逸	-8.86319
英	-8.8632
扶	-8.8634
毛	-8.86347
典	-8.86355
諫	-8.86615
丈	-8.87012
濁	-8.87107
恭	-8.87129
之理	-8.8716
於外	-8.8776
横	-8.87774
境	-8.87804
忌	-8.87858
罷	-8.87885
逃	-8.87892
涉	-8.87917
驕	-8.8797
精神	-8.88009
減	-8.88039
之情	-8.8821
宣	-8.88279
曹	-8.8847
不聞	-8.88519
奏	-8.88738
温	-8.88739
尾	-8.88786
其中	-8.89027
聞之	-8.89118
託	-8.89172
伍	-8.89391
竟	-8.89428
廟	-8.89437
柱	-8.8944
靡	-8.89479
枯	-8.89568
未嘗	-8.89783
昔者	-8.90133
尤	-8.9022
燒	-8.90232
悟	-8.90281
鼎	-8.90285
各有	-8.9029
增	-8.90333
序	-8.9063
一年	-8.90856
衡	-8.90968
狗	-8.91022
肆	-8.91039
珠	-8.91041
庭	-8.91056
抑	-8.91095
齒	-8.91103
考	-8.91107
耶	-8.91111
〇王皙曰	-8.91212
不然	-8.91256
耳目	-8.91593
國家	-8.91629
者有	-8.91692
蔡	-8.918
杜	-8.91808
塵	-8.91816
孔	-8.91825
咸	-8.91829
奔	-8.9184
之利	-8.91986
之功	-8.92128
陸	-8.92181
此皆	-8.92431
也〇張預曰	-8.92521
與之	-8.92566
永	-8.926
劫	-8.92626
竒	-8.92628
叔	-8.92634
注	-8.9273
羣臣	-8.92743
而得	-8.92776
誘	-8.92797
曾	-8.92862
吐	-8.93414
刺	-8.93432
畜	-8.9384
羣	-8.94171
禽	-8.94236
竈	-8.94324
醫	-8.9433
側	-8.94338
特	-8.94349
狂	-8.94355
舊	-8.94372
只	-8.94896
幸	-8.94919
繼	-8.94964
者所以	-8.94996
革	-8.95035
兌	-8.95038
讓	-8.95087
道之	-8.95088
丁	-8.95118
壯	-8.95148
防	-8.95165
不失	-8.95288
〇梅堯臣曰	-8.95362
弗能	-8.9554
三百六十	-8.95677
鍾	-8.95828
弩	-8.959
憎	-8.95907
無有	-8.95947
一曰	-8.95984
其事	-8.96001
紫	-8.9601
無爲	-8.96028
回	-8.96035
省	-8.96044
出於	-8.96452
神明	-8.96583
孫	-8.96642
悅	-8.96772
徑	-8.96796
虧	-8.96805
卯	-8.96814
祀	-8.96829
乏	-8.96834
曆	-8.96869
也是故	-8.97033
服之	-8.9716
弟	-8.97256
農	-8.97463
是非	-8.97468
巽	-8.9756
校	-8.97641
矜	-8.97652
怪	-8.97692
彌	-8.97705
遷	-8.97717
遲	-8.97735
貫	-8.97781
其道	-8.98132
昭	-8.98239
可謂	-8.98337
落	-8.98517
亥	-8.98542
格	-8.98572
選	-8.98595
録	-8.98614
牧	-8.98635
訓	-8.98641
句	-8.98653
爻	-8.98922
慈	-8.98929
雞	-8.99364
豐	-8.99371
沉	-8.99377
刀	-8.9945
援	-8.99459
是謂	-8.99505
休	-8.99673
六十	-8.9979
賢者	-8.99942
糧	-8.99952
赴	-9.0018
給	-9.00228
壞	-9.00258
決	-9.00346
賞罰	-9.00361
䟽	-9.00367
介	-9.00432
人皆	-9.00516
之變	-9.00598
春秋	-9.00835
旗	-9.00953
之日	-9.01065
脫	-9.01106
陷	-9.01139
咎	-9.01209
葬	-9.01249
鼻	-9.0126
虜	-9.01267
不復	-9.01564
太一	-9.01711
尋	-9.0194
盜	-9.01958
征	-9.01991
謝	-9.0205
壁	-9.02104
條	-9.02172
芝	-9.02201
其上	-9.02217
大抵	-9.0226
職	-9.02506
三年	-9.02699
焚	-9.02871
髮	-9.02989
再	-9.02999
有功	-9.03014
之上	-9.03015
墨	-9.03389
也故曰	-9.03531
而生	-9.03795
弓	-9.03841
洞	-9.0389
環	-9.03986
桑	-9.03989
而成	-9.04006
黄帝	-9.0413
南方	-9.04275
夏至	-9.04373
姓	-9.04416
而求	-9.0467
顔	-9.04763
繁	-9.04773
納	-9.04867
天道	-9.04909
腎	-9.05572
矣夫	-9.05697
君之	-9.05968
之下	-9.06019
而有	-9.06197
川	-9.06198
進退	-9.06216
三日	-9.06353
名也	-9.06473
於上	-9.06482
按	-9.06584
訟	-9.06652
懸	-9.06664
葉	-9.06678
緩	-9.06792
爲政	-9.0696
不動	-9.07026
八卦	-9.07114
鑿	-9.07525
拜	-9.07553
迷	-9.07573
準	-9.07588
潔	-9.07649
名曰	-9.07669
弦	-9.07903
未必	-9.08147
以成	-9.08197
霸	-9.08238
諭	-9.08279
在於	-9.08289
者爲	-9.08346
管仲	-9.08448
枉	-9.08474
衝	-9.08531
宅	-9.08532
竹	-9.08534
疏	-9.08534
阿	-9.08556
楊	-9.08573
巨	-9.08595
殘	-9.08598
撓	-9.08644
北方	-9.09027
聖王	-9.09163
房	-9.09237
艮	-9.09451
其國	-9.09461
驅	-9.09511
其後	-9.09527
友	-9.09565
亦有	-9.09918
鐵	-9.10357
其心	-9.10404
巢	-9.10414
舌	-9.10497
隆	-9.10508
聖人之	-9.10511
植	-9.10515
不信	-9.10576
利害	-9.10596
慎	-9.10612
古者	-9.10736
之徒	-9.10809
慶	-9.11397
泉	-9.11416
侮	-9.11421
築	-9.11431
以其	-9.11447
繫	-9.11499
令人	-9.11565
中央	-9.11589
出入	-9.12157
倉	-9.1238
倫	-9.12421
不欲	-9.12455
鋒	-9.12477
詳	-9.12486
鹿	-9.12515
契	-9.12538
東方	-9.12543
不死	-9.12723
也然	-9.12782
曰此	-9.12784
萬民	-9.12844
况	-9.13013
以待	-9.13045
佛	-9.13147
或曰	-9.13195
辛	-9.13401
粟	-9.13416
閑	-9.13444
洪	-9.13455
麗	-9.13477
侍	-9.13478
采	-9.13497
觸	-9.13529
不若	-9.13583
今從諸家	-9.13622
見其	-9.13768
源	-9.13811
三軍	-9.14254
峻	-9.1436
液	-9.14392
波	-9.14434
丑	-9.145
司馬	-9.14798
則不	-9.15238
之患	-9.15285
太上	-9.15347
兄	-9.1538
希	-9.15386
烏	-9.15408
激	-9.15439
奮	-9.15484
稽	-9.15498
支	-9.15595
其所以	-9.15975
公子	-9.16112
忍	-9.16237
四十	-9.16314
有道	-9.16358
貨	-9.16386
西北	-9.16425
闇	-9.16452
肅	-9.16483
競	-9.16491
〇杜牧曰	-9.16502
輙	-9.16518
烈	-9.16528
嗚呼	-9.16565
乖	-9.16569
溺	-9.16589
胎	-9.16609
夕	-9.16842
也〇李筌曰	-9.16965
婦人	-9.16984
談	-9.1699
子孫	-9.17035
從事	-9.1712
言其	-9.17353
戮	-9.17381
雄	-9.17427
趣	-9.17471
社	-9.17476
惜	-9.17565
戴	-9.17575
隙	-9.17601
鴻	-9.17645
禦	-9.17708
後世	-9.18059
之類	-9.18381
一作	-9.18388
一月	-9.18398
富貴	-9.18487
早	-9.18605
儉	-9.18634
昧	-9.18662
罔	-9.18664
未可	-9.1871
何以	-9.18719
造化	-9.18784
十五	-9.18797
之術	-9.18805
也〇杜牧曰	-9.18934
於天	-9.19157
民之	-9.19184
武王	-9.19225
其子	-9.19253
之勢	-9.19423
穿	-9.19569
鈞	-9.19606
皮	-9.19633
樓	-9.19637
哭	-9.19644
摇	-9.19656
戎	-9.19677
姑	-9.19695
鮮	-9.19697
駕	-9.19718
邊	-9.19723
晝夜	-9.19963
失其	-9.20089
不行	-9.2012
人之所	-9.20389
之道也	-9.20451
矣故	-9.20495
世人	-9.20617
限	-9.20725
暗	-9.20726
鄙	-9.2073
燭	-9.20739
沙	-9.20759
勁	-9.2076
郡	-9.20785
嘉	-9.20805
不必	-9.20876
五十	-9.21703
慢	-9.2175
傅	-9.21751
補	-9.21817
寡人	-9.21819
狐	-9.21825
閭	-9.21853
泣	-9.21876
鬭	-9.21884
凌	-9.21895
卵	-9.21982
也又	-9.22152
祝	-9.22169
不善	-9.2227
治國	-9.22624
東南	-9.22629
無以	-9.22767
薦	-9.2289
杖	-9.22899
卧	-9.22925
社稷	-9.22962
凝	-9.22987
淪	-9.22997
沮	-9.23009
道德	-9.2305
祥	-9.23087
用兵	-9.23495
曰我	-9.23575
物之	-9.23722
男	-9.23769
二十四	-9.23825
也言	-9.2394
乙	-9.2397
荒	-9.23981
倚	-9.24023
妾	-9.24036
香	-9.24049
殆	-9.24059
寵	-9.24073
匿	-9.24073
災	-9.2408
泄	-9.24088
超	-9.24129
不出	-9.24189
在上	-9.24344
朱子曰	-9.24693
而自	-9.24764
而能	-9.24951
牙	-9.25051
眀	-9.25073
郭	-9.25077
冰	-9.25088
漏	-9.25138
㓂	-9.25153
珍	-9.25178
鼠	-9.25223
究	-9.25228
擊之	-9.25251
熟	-9.25258
之意	-9.25471
之義	-9.25492
箇	-9.2565
便是	-9.25753
不聽	-9.25771
堯舜	-9.26265
謙	-9.26268
暮	-9.26274
仕	-9.26303
酉	-9.26315
犬	-9.26322
迫	-9.26351
餌	-9.2639
頓	-9.26394
上帝	-9.26461
寒暑	-9.26476
智者	-9.26681
不受	-9.26707
不與	-9.26866
雪	-9.27064
說在	-9.272
水火	-9.27241
得道	-9.27366
霜	-9.2737
戌	-9.27414
肥	-9.27504
叛	-9.27517
擒	-9.2752
寢	-9.27534
百里	-9.2754
莊	-9.27565
基	-9.27605
視之	-9.28393
人者	-9.28404
使之	-9.28458
猛	-9.28614
墜	-9.2863
導	-9.28636
陶	-9.2864
嗣	-9.28642
擾	-9.28647
遭	-9.28693
鑒	-9.28695
厥	-9.28701
三百	-9.28708
黃	-9.28723
底	-9.28786
而欲	-9.28872
後天	-9.29055
斤	-9.29058
死生	-9.29071
皆有	-9.29633
而言	-9.29685
束	-9.29752
暑	-9.2979
無窮	-9.29798
擅	-9.298
伸	-9.29807
領	-9.29808
顛	-9.29808
或以	-9.29816
謗	-9.29818
渾	-9.2983
徙	-9.2984
匪	-9.29861
不言	-9.29862
无	-9.29876
踐	-9.29876
父子	-9.29905
戾	-9.29917
敵之	-9.30072
不食	-9.30096
以自	-9.30146
於天下	-9.30346
則無	-9.30484
西方	-9.30507
輕重	-9.30543
賛曰	-9.3067
豫	-9.30839
劍	-9.30861
宇	-9.30914
讎	-9.30914
帛	-9.30935
影	-9.30941
桀	-9.30942
賈	-9.30957
舞	-9.30984
頗	-9.30995
提	-9.3101
舒	-9.31034
耗	-9.31035
乾坤	-9.31089
死者	-9.31089
監	-9.31103
三月	-9.31168
七十	-9.31368
而為	-9.31712
不肖	-9.31736
童	-9.31912
之初	-9.32122
忿	-9.32154
則有	-9.32158
隅	-9.32178
痛	-9.32189
踰	-9.322
偃	-9.32212
窺	-9.32219
賦	-9.32222
盧	-9.32227
則是	-9.32244
濕	-9.32287
也此	-9.32393
不成	-9.32395
不知其	-9.32401
殺之	-9.32421
七日	-9.32432
至于	-9.32534
是為	-9.32547
者亦	-9.32549
若此	-9.32801
彈	-9.33318
康	-9.33325
賣	-9.33352
於下	-9.33359
邦	-9.33387
河圖	-9.33409
佚	-9.3342
總	-9.33434
翟	-9.33471
攝	-9.33512
值	-9.3354
人君	-9.33812
禍福	-9.33848
其功	-9.33911
安得	-9.33925
又有	-9.33932
拘	-9.34313
旱	-9.34621
活	-9.34629
穢	-9.34649
裏	-9.34668
咽	-9.34674
無功	-9.34679
墻	-9.34683
疲	-9.34687
丙	-9.34701
恨	-9.34711
不肯	-9.34721
灌	-9.34768
柄	-9.34769
之物	-9.34773
誤	-9.34798
之國	-9.35377
之民	-9.35541
絲	-9.35805
大道	-9.35831
育	-9.35933
捨	-9.35933
毎	-9.35935
衍	-9.35948
怯	-9.35962
紛	-9.35972
何氏曰	-9.36094
可得	-9.36164
山川	-9.36172
一歲	-9.36181
十八	-9.36352
由是	-9.36436
法也	-9.36664
其德	-9.36829
距	-9.37027
其數	-9.37034
旋	-9.3708
宋曰	-9.37096
蒼	-9.37121
撫	-9.37134
寬	-9.37146
辨	-9.37168
非其	-9.37174
網	-9.37181
巫	-9.37218
證	-9.37257
乎賛曰	-9.37392
之極	-9.37902
鄰	-9.38159
▁(	-9.38166
爲善	-9.38196
與人	-9.38297
薪	-9.38403
買	-9.38411
溢	-9.38418
壘	-9.38423
界	-9.38432
弘	-9.38455
地形	-9.38474
跡	-9.38494
肺	-9.385
僧	-9.38504
夭	-9.3851
殃	-9.38511
郊	-9.38511
杜佑曰	-9.38514
拒	-9.38533
也王本	-9.38537
肝	-9.38561
閏	-9.38614
萬物之	-9.38651
飲食	-9.38717
是月	-9.38724
人臣	-9.39063
其君	-9.39285
夫子	-9.39337
孫子	-9.39577
肯	-9.39612
泥	-9.39712
也昔	-9.39731
賴	-9.39739
棲	-9.39741
裘	-9.39748
括	-9.39766
禀	-9.39853
攻之	-9.3989
大臣	-9.39929
動静	-9.40203
不可勝	-9.40264
之名	-9.40334
成功	-9.4047
日行	-9.40865
不當	-9.40884
恥	-9.40897
嬰	-9.40914
隊	-9.40989
茂	-9.41029
混	-9.41032
潤	-9.41038
輿	-9.41046
占	-9.41056
怠	-9.4106
無常	-9.4109
蕩	-9.41097
矯	-9.41101
配	-9.41122
逢	-9.4113
剥	-9.41145
治也	-9.41152
而死	-9.41173
也是以	-9.41335
丸	-9.41406
有三	-9.41598
而當晝	-9.41692
曉	-9.41723
衆人	-9.41817
白馬	-9.4187
曰夫	-9.4191
公曰	-9.41994
不利	-9.4204
生物	-9.42286
也凡	-9.42297
覽	-9.4237
逺	-9.42383
翕	-9.42385
蜀	-9.42417
之主	-9.42444
樞	-9.42453
誦	-9.42467
之内	-9.42657
或有	-9.42769
四海	-9.42953
之用	-9.43157
莫能	-9.43425
之計	-9.43512
戲	-9.43644
壤	-9.43669
滯	-9.437
蘇	-9.43704
俟	-9.4371
牢	-9.43734
厭	-9.43751
遽	-9.43764
芒	-9.43772
輸	-9.43774
炎	-9.43796
冨	-9.438
返	-9.43822
奈何	-9.43832
黄鍾	-9.43884
詭	-9.43887
缺	-9.43887
二人	-9.43925
王者	-9.43938
而當晝君子	-9.43961
善惡	-9.44414
子墨子	-9.44567
人心	-9.44595
十二月	-9.44604
五色	-9.44719
者謂之	-9.44841
周公	-9.44963
用也	-9.45043
盗	-9.45072
斧	-9.45083
送	-9.45089
俊	-9.45092
謁	-9.45101
織	-9.45118
倒	-9.45125
躁	-9.4514
討	-9.4515
躬	-9.45158
鱗	-9.4517
庚	-9.45206
不明	-9.45231
席	-9.45237
古人	-9.45254
戊	-9.45266
襄	-9.45316
求之	-9.45385
亦不	-9.45481
之君	-9.45557
一時	-9.45712
而去	-9.45716
之性	-9.46051
相與	-9.46308
料	-9.46325
所生	-9.46397
京	-9.464
單	-9.46476
歎	-9.46486
默	-9.46492
域	-9.46511
秀	-9.46521
賔	-9.46547
寄	-9.46558
之屬	-9.46929
何也	-9.47225
箕	-9.47465
人所	-9.47526
卜	-9.47785
西南	-9.478
見之	-9.47819
醉	-9.47857
握	-9.47907
所不	-9.47914
幹	-9.4792
判	-9.47935
整	-9.47949
掌	-9.47951
而弗	-9.47995
綱	-9.48008
十年	-9.48079
動而	-9.48232
而已矣	-9.48356
不待	-9.48429
可見	-9.48567
産	-9.48623
必死	-9.48646
前後	-9.49032
為天	-9.49124
所欲	-9.49142
狹	-9.49237
飽	-9.49261
吹	-9.49272
絃	-9.49313
借	-9.49327
階	-9.49349
誣	-9.49372
三十二	-9.49443
不義	-9.49621
豈不	-9.49812
其可	-9.50084
故不	-9.5011
起於	-9.50192
不識	-9.50196
以利	-9.50383
虚實	-9.50387
氏曰	-9.50427
郎	-9.50474
金玉	-9.5051
如此則	-9.50536
尉	-9.5064
拙	-9.50645
獵	-9.50723
癸	-9.50723
渠	-9.50744
耀	-9.50748
璧	-9.5077
啓	-9.50776
其言	-9.50792
縮	-9.50812
隘	-9.50858
燥	-9.50881
湯武	-9.50884
十三	-9.50904
兹	-9.5091
妖	-9.50959
學者	-9.51099
兄弟	-9.51135
故聖人	-9.51265
之本	-9.51362
往來	-9.51464
欲以	-9.51533
之形	-9.51597
陰氣	-9.51717
歳	-9.51859
而民	-9.51974
可知	-9.52051
吉凶	-9.52184
者不可	-9.52185
桀紂	-9.52223
於内	-9.52235
軌	-9.52237
饑	-9.52238
鳳	-9.52249
爵禄	-9.52252
弟子	-9.52254
嫁	-9.52277
乞	-9.52287
鈎	-9.52301
掠	-9.52301
看	-9.52364
不在	-9.52444
渡	-9.52474
其神	-9.5333
明日	-9.53461
不通	-9.53619
不求	-9.53621
曠	-9.5364
澄	-9.53658
毫	-9.53691
禱	-9.53709
裂	-9.53722
鷹	-9.53739
享	-9.5376
鏡	-9.53789
住	-9.53796
瞻	-9.5381
銅	-9.53815
膏	-9.5384
完	-9.53857
班	-9.53885
曰天	-9.54129
北斗	-9.54199
有形	-9.54265
五穀	-9.54265
不能自	-9.54276
今日	-9.54707
甲子	-9.54828
則民	-9.54845
程	-9.54889
然也	-9.54908
何謂	-9.5493
騰	-9.55177
歛	-9.55181
道士	-9.55187
輩	-9.55209
優	-9.55239
篤	-9.55248
供	-9.55256
其次	-9.55263
踈	-9.5528
脾	-9.55295
析	-9.55308
流行	-9.55314
覩	-9.55353
壬	-9.55363
所以爲	-9.55436
而反	-9.55472
十月	-9.555
一度	-9.5563
而天下	-9.55804
去之	-9.55881
之臣	-9.55894
真人	-9.56103
也曹操曰	-9.56116
日在	-9.56258
無益	-9.56453
夫人	-9.56662
不得已	-9.56727
徹	-9.56747
赦	-9.56782
者無	-9.56794
品	-9.56809
搏	-9.56824
途	-9.56842
虐	-9.56851
樸	-9.56858
播	-9.56866
朱子	-9.56914
船	-9.56924
坎離	-9.56934
而立	-9.57158
日中	-9.57277
穆	-9.57357
問之	-9.57442
太子	-9.57488
有罪	-9.57562
不止	-9.57684
不可謂	-9.57943
一物	-9.57957
之禍	-9.5797
自此	-9.58133
一陽	-9.58149
鎮	-9.5824
壅	-9.58262
從而	-9.58296
蹈	-9.583
護	-9.58312
冀	-9.58335
以求	-9.58337
安能	-9.58384
蠶	-9.58386
盖	-9.58404
眉	-9.58408
佯	-9.58425
採	-9.58435
闘	-9.58459
誓	-9.58476
冒	-9.58497
以上	-9.58505
治之	-9.58511
其志	-9.58518
則必	-9.58621
〇又曰	-9.58649
五百	-9.59017
者多	-9.59212
數也	-9.59337
而知	-9.59351
不從	-9.59361
明主	-9.59366
其氣	-9.59467
不免	-9.59543
者衆	-9.59658
其實	-9.59661
某	-9.59662
甞	-9.59888
晚	-9.5989
響	-9.59936
溝	-9.59965
勉	-9.59985
炭	-9.59986
誑	-9.59998
灰	-9.60007
摩	-9.6004
預	-9.60098
人主之	-9.60266
始於	-9.60379
旣而	-9.60458
害也	-9.60609
如何	-9.60808
因其	-9.60862
孔子曰	-9.60965
抱朴子外篇卷之	-9.61132
賛	-9.61169
一箇	-9.61234
大小	-9.61408
洛書	-9.61456
愼	-9.61499
遏	-9.61514
恒	-9.61517
焦	-9.61526
頃	-9.61556
元氣	-9.61581
凍	-9.61589
臭	-9.61592
誕	-9.61639
毅	-9.61674
翔	-9.61679
得位當晝	-9.61726
匠	-9.61779
故有	-9.61837
治亂	-9.61864
觀之	-9.62023
十日	-9.62057
刑罰	-9.6222
答	-9.6235
事者	-9.62527
于天	-9.62577
乎昔	-9.62902
挾	-9.63159
伏羲	-9.63183
陋	-9.6319
崩	-9.63201
蚤	-9.63203
捐	-9.63221
兔	-9.63227
碎	-9.63237
伊尹	-9.63254
叙	-9.63258
快	-9.63269
恣	-9.633
慧	-9.63301
闔	-9.63319
詩云	-9.63347
牽牛	-9.63556
一百	-9.63697
二十八	-9.63698
在天	-9.637
何故	-9.63718
北極	-9.63803
古今	-9.63873
不仁	-9.63892
存亡	-9.63944
初一	-9.64006
遠近	-9.64154
只是	-9.64207
染	-9.64225
其意	-9.64241
及其	-9.64247
得失	-9.64576
一切	-9.64592
旅	-9.64619
吴王	-9.64629
其父	-9.64632
緯	-9.64696
藉	-9.64741
捷	-9.64746
其形	-9.64756
馮	-9.64785
斥	-9.64798
霄	-9.64815
稷	-9.64862
悖	-9.64875
冝	-9.6493
藻	-9.64946
滋	-9.64974
練	-9.6499
范曰	-9.64997
蕃	-9.65001
而止	-9.65024
風雨	-9.65303
東北	-9.65477
晏子	-9.6549
仙人	-9.65494
而非	-9.65629
為陰	-9.65656
地之	-9.6581
文公	-9.65992
也范曰	-9.66012
若夫	-9.66236
生也	-9.66323
終始	-9.66332
城上	-9.6643
兒	-9.66463
禾	-9.66464
漁	-9.66487
乆	-9.66507
㝠	-9.66513
汙	-9.66539
饗	-9.66544
吞	-9.66585
鉤	-9.66613
芳	-9.6662
豪	-9.66648
者何也	-9.66659
齋	-9.6668
這	-9.66712
拂	-9.66724
之精	-9.66831
行也	-9.66845
之世	-9.67094
歲星	-9.67179
人情	-9.67249
十萬	-9.67286
百日	-9.673
為陽	-9.67545
從之	-9.6762
得一	-9.67632
變而	-9.67647
者謂	-9.6766
以示	-9.67669
亦可	-9.67935
終身	-9.68027
嗜	-9.68033
津	-9.68233
剖	-9.68241
帥	-9.68251
魁	-9.6828
軫	-9.6829
闢	-9.68309
之令	-9.68313
仇	-9.68318
雍	-9.68319
羞	-9.68342
効	-9.68369
鳩	-9.68447
楚人	-9.68618
曰子	-9.68843
常以	-9.6885
不正	-9.68851
之末	-9.68881
法令	-9.68923
而下	-9.68972
皆以	-9.69034
者也故	-9.69095
百二十	-9.69495
也且	-9.69657
也范本	-9.6989
取勝	-9.6992
俯	-9.69938
師曠	-9.69991
註	-9.7004
晨	-9.70054
彭	-9.70065
雀	-9.70071
烹	-9.70083
詣	-9.70152
緫	-9.7016
也〇王皙曰	-9.70171
賈林曰	-9.70172
鷄	-9.70211
羸	-9.70211
十九	-9.70394
其人	-9.70502
而進	-9.70514
先王	-9.70522
太玄	-9.7057
山林	-9.7075
臣也	-9.70762
千歲	-9.71021
不變	-9.71381
或問	-9.71404
世間	-9.71432
爲一	-9.71644
箭	-9.71723
麥	-9.71738
琴	-9.7178
冶	-9.71793
遼	-9.71798
攸	-9.71805
歡	-9.7182
腐	-9.71872
化爲	-9.71891
屯	-9.71895
旬	-9.71899
浩	-9.71906
迂	-9.71921
𩔖	-9.71923
蒲	-9.71924
脂	-9.71926
之罪	-9.71933
亢	-9.71945
滑	-9.7195
係	-9.7195
花	-9.71952
聾	-9.71959
徧	-9.71964
書曰	-9.7211
者是	-9.72148
利也	-9.72292
十一	-9.72348
智伯	-9.7239
居中	-9.724
南北	-9.72628
子華子曰	-9.72662
之際	-9.72786
言曰	-9.72795
使敵	-9.72812
也然則	-9.72857
而用	-9.72867
有司	-9.72954
氏之	-9.72981
必先	-9.72998
其行	-9.73171
必以	-9.7324
牽	-9.73407
愛人	-9.73424
六日	-9.73474
雅	-9.73545
洛	-9.73567
艾	-9.73573
捕	-9.73576
縁	-9.73591
霧	-9.73595
松	-9.7361
亭	-9.73633
轡	-9.73642
屠	-9.73658
瓦	-9.73674
髙	-9.73679
崑崙	-9.73706
殿	-9.73721
蒸	-9.73734
飯	-9.73783
男女	-9.73806
擬	-9.73813
曹公	-9.7383
必不	-9.7386
聦明	-9.73893
其家	-9.73974
以治	-9.74004
一名	-9.74042
不至	-9.74244
合於	-9.74269
而當夜	-9.74598
無道	-9.74782
四象	-9.74883
用事	-9.74965
法度	-9.75284
僕	-9.7543
姬	-9.75439
科	-9.7545
檢	-9.75454
圉	-9.75507
伺	-9.75531
隋	-9.75533
爲天下	-9.75537
像	-9.75592
嘆	-9.756
淮南鴻烈解卷之	-9.75668
而動	-9.75782
賢人	-9.75803
不亦	-9.75904
未能	-9.75931
三十日	-9.75967
取之	-9.76106
矣今	-9.76162
數十	-9.7634
為主	-9.76344
曰汝	-9.76444
於民	-9.76539
易曰	-9.7659
子華子	-9.76616
有過	-9.76671
不覺	-9.76851
貢	-9.76952
妻子	-9.76963
取其	-9.77023
之貌	-9.7704
凡人	-9.77043
二者	-9.77099
人事	-9.77118
使者	-9.77193
也或曰	-9.77194
尹	-9.77201
囚	-9.77252
臂	-9.77312
寇	-9.7732
右行	-9.77333
鮑	-9.77335
項	-9.77341
圭	-9.77345
晩	-9.77378
萬里	-9.7738
夾	-9.77417
續	-9.77428
奢	-9.77432
棘	-9.77441
釣	-9.77452
不容	-9.77481
所在	-9.77497
玩	-9.77499
宴	-9.77522
㫖	-9.77557
延年	-9.77614
挈	-9.7767
無所不	-9.77677
道理	-9.77748
者雖	-9.77818
故老子曰	-9.7797
禮樂	-9.78067
道而	-9.7807
中國	-9.78125
不顧	-9.78216
以相	-9.78252
之本也	-9.78257
五月	-9.78365
言不	-9.78403
吾所	-9.7854
無間	-9.78622
陸曰	-9.78717
善者	-9.78734
鬼神之	-9.78819
而用之	-9.78882
所愛	-9.78951
越人	-9.7896
不祥	-9.79069
人間	-9.79079
者以其	-9.79205
其間	-9.79254
矩	-9.79262
督	-9.79281
廬	-9.79292
鐘	-9.79295
而復	-9.79301
佞	-9.79324
浸	-9.79335
恤	-9.7934
以應	-9.7935
劇	-9.79357
多少	-9.79376
轂	-9.79442
譬猶	-9.79475
有五	-9.79478
以告	-9.79623
分為	-9.7993
不離	-9.80028
曰善	-9.80069
以致	-9.80095
人不	-9.8015
次四	-9.80243
地有	-9.8036
春分	-9.80419
際	-9.8046
不備	-9.80682
實也	-9.80842
於世	-9.80907
桓	-9.80911
無極	-9.80951
昇	-9.80988
胥	-9.81028
則國	-9.81072
之禮	-9.81082
甫	-9.81173
瞽	-9.81193
徇	-9.81193
式	-9.81199
柳	-9.8123
朋黨	-9.81235
匡	-9.81237
彰	-9.81259
敦	-9.81268
述	-9.81285
𢖍	-9.81318
漠	-9.81321
圃	-9.81328
康節	-9.81352
腸	-9.81356
日月星辰	-9.81405
汗	-9.81411
赫	-9.81424
性命	-9.81429
失位當夜	-9.8148
亦然	-9.81524
升降	-9.81612
吴起	-9.81656
不失其	-9.81701
不忍	-9.81745
而未	-9.8177
也〇賈林曰	-9.81878
太白	-9.82002
諸侯之	-9.82036
曰臣	-9.82057
而不得	-9.8219
救之	-9.82343
大國	-9.82578
之謂也	-9.82761
地而	-9.82881
利者	-9.82979
必勝	-9.82992
不知所	-9.83089
七十二	-9.83119
麻	-9.83195
兮	-9.83196
通於	-9.83221
邈	-9.83244
胃	-9.83269
桃	-9.83301
巷	-9.83303
黍	-9.83322
所爲	-9.8335
鴈	-9.83367
麟	-9.83395
裁	-9.83418
園	-9.83472
儒者	-9.83516
也抱朴子曰	-9.83631
亂也	-9.83685
所得	-9.83718
之器	-9.83728
眞人	-9.83775
貞測曰	-9.83818
牛馬	-9.83905
於中	-9.83925
度量	-9.83962
告之	-9.84065
東西	-9.84179
利而	-9.84209
十一月	-9.84242
百官	-9.84253
乃可	-9.84298
其說	-9.84326
不愛	-9.84345
不窮	-9.84482
見於	-9.84557
一國	-9.84862
名山	-9.84982
老君	-9.84995
秋分	-9.85067
則能	-9.85104
斂	-9.85171
法者	-9.85179
區	-9.85228
頤	-9.85234
竇	-9.85235
宵	-9.85237
也上九	-9.85244
於心	-9.85255
賓	-9.85256
俄	-9.8527
鶴	-9.85296
胷	-9.85305
恕	-9.85307
盲	-9.8531
憚	-9.85311
圜	-9.85321
蹇	-9.85323
隔	-9.85329
想	-9.8533
洽	-9.85333
明也	-9.85336
濫	-9.85341
脉	-9.85344
朝廷	-9.85351
創	-9.85358
規矩	-9.85361
駟	-9.85372
敖	-9.85383
挫	-9.85419
之始	-9.85439
相應	-9.85463
旌旗	-9.85464
詩曰	-9.85474
剛柔	-9.85487
子墨子言曰	-9.85524
城郭	-9.85587
思慮	-9.85638
奇正	-9.85716
玉女	-9.85917
不易	-9.8604
使民	-9.86117
樂也	-9.86121
之位	-9.86183
五星	-9.86224
其本	-9.86308
禮義	-9.86486
以一	-9.86509
而入	-9.86615
君子之	-9.86787
治天下	-9.86817
以知	-9.8683
明於	-9.86876
相去	-9.86927
一說	-9.86983
説	-9.8699
餓	-9.87011
之學	-9.87069
況於	-9.87093
盟	-9.87277
仞	-9.87285
蕭	-9.87285
蓬	-9.87334
巖	-9.87336
謬	-9.87344
措	-9.87346
淩	-9.87357
老子	-9.87365
慾	-9.87378
豆	-9.8738
之聲	-9.87387
秉	-9.87389
宇宙	-9.87394
疫	-9.87401
黎	-9.87413
衢	-9.87428
朽	-9.87432
詔	-9.87436
匱	-9.87441
函	-9.87442
於物	-9.87447
印	-9.87448
臧	-9.87454
酷	-9.87473
那	-9.87479
愧	-9.87485
丞	-9.87505
左旋	-9.87511
祭祀	-9.87515
一分	-9.87652
則為	-9.87694
將來	-9.87794
愛之	-9.87818
九天	-9.87841
明堂	-9.87955
也所謂	-9.88105
百歲	-9.88278
千人	-9.8831
百步	-9.88444
用其	-9.8853
司命	-9.8855
三尺	-9.88568
終不	-9.8866
在乎	-9.88881
十人	-9.8902
王本	-9.89053
未見	-9.89056
不測	-9.8909
死而	-9.89103
互	-9.89109
骸	-9.8913
其餘	-9.89131
三千	-9.89165
身死	-9.89258
劔	-9.89289
之難	-9.89302
愚者	-9.89316
墓	-9.8944
聦	-9.89445
排	-9.89456
憤	-9.89464
寫	-9.89476
掘	-9.89477
犀	-9.8948
谿	-9.89491
唱	-9.89498
之才	-9.89508
煙	-9.8951
稍	-9.89512
逼	-9.89532
由此觀之	-9.89567
貶	-9.89583
輜重	-9.89612
韋	-9.89626
銜	-9.89627
輟	-9.89636
行者	-9.89647
磨	-9.89671
椎	-9.89683
在我	-9.89744
魂魄	-9.89799
殺人	-9.89804
盡其	-9.89815
不生	-9.89972
至矣	-9.89976
譬	-9.90064
其情	-9.90206
氣也	-9.90237
不已	-9.90266
其位	-9.90285
宣王	-9.90599
之失	-9.90609
答曰	-9.90635
也宋陸本	-9.90637
不中	-9.90685
一身	-9.90891
能知	-9.90907
推之	-9.91012
之門	-9.91026
日月之	-9.91061
第四	-9.91087
也次八	-9.91111
千金	-9.91114
黄金	-9.91166
何必	-9.91196
死地	-9.91208
方圓	-9.9122
攻其	-9.91333
莫之	-9.91336
其名	-9.91521
自有	-9.91548
羿	-9.91591
今夫	-9.91603
五日	-9.91629
者乎	-9.91658
鄕	-9.91675
突	-9.91676
填	-9.91679
侈	-9.91679
難也	-9.91684
讒	-9.91686
雌	-9.91689
億	-9.9169
濡	-9.91691
膽	-9.91692
則亂	-9.91692
筋	-9.91708
普	-9.9172
譏	-9.91724
盤	-9.91753
蟄	-9.91764
踵	-9.9177
疆	-9.9179
者不能	-9.91818
案	-9.91847
歟	-9.91849
者可亡也	-9.9185
骨肉	-9.91855
其妻	-9.91869
且夫	-9.91939
三代	-9.92044
對待	-9.92045
喜怒	-9.92057
切王曰	-9.92086
凡此	-9.92173
一氣	-9.92216
文章	-9.92374
夜半	-9.92398
而又	-9.92409
物也	-9.92449
其勢	-9.92886
此乃	-9.92912
失之	-9.9293
萬人	-9.92996
之美	-9.93012
問曰	-9.9315
則知	-9.93268
金石	-9.93346
地中	-9.93429
不入	-9.93585
而出	-9.93591
此則	-9.93592
則天下	-9.93714
銀	-9.93723
戚	-9.93786
幼	-9.93791
探	-9.93812
諸將	-9.93834
講	-9.93844
詞	-9.93847
構	-9.9386
陽生	-9.93869
荀	-9.93877
成形	-9.93879
狼	-9.9389
熒惑	-9.93893
訾	-9.93901
枚	-9.93904
價	-9.93907
漆	-9.93945
紹	-9.93951
軒	-9.93952
則不能	-9.93976
於君	-9.93993
頂	-9.93996
軸	-9.94033
生死	-9.94069
入山	-9.94093
粹	-9.94096
囊	-9.9413
韓魏	-9.94149
八十	-9.94281
陰陽之	-9.94368
勝負	-9.94438
辜	-9.9457
韓信	-9.94576
若以	-9.94619
水中	-9.9462
也然而	-9.94627
而歸	-9.9463
則不然	-9.94672
則不可	-9.94743
次七	-9.94882
上九	-9.94909
晏	-9.95029
次三	-9.95156
不畏	-9.9525
三人	-9.95266
次二	-9.95286
之端	-9.95362
在人	-9.95748
鍊	-9.95754
地利	-9.95805
晋陽	-9.95815
觀其	-9.9582
抵	-9.95856
生者	-9.95972
乃至	-9.95996
偷	-9.96085
股	-9.96102
匹	-9.96127
麋	-9.96138
屢	-9.96157
傲	-9.96174
逮	-9.96185
弋	-9.96187
董	-9.96212
筆	-9.96219
耻	-9.96227
鞭	-9.96249
鹽	-9.96259
廓	-9.9628
題	-9.96339
此是	-9.96551
形也	-9.96554
二十五	-9.9664
地獄	-9.96665
其罪	-9.96666
是猶	-9.9671
霸王	-9.9676
皆是	-9.96844
於道	-9.96998
五味	-9.97037
仁者	-9.97111
二百	-9.9717
此所謂	-9.97339
治者	-9.97391
襄子	-9.97478
次六	-9.97516
動也	-9.97539
女子	-9.97567
無罪	-9.97578
次五	-9.97621
鄭君	-9.97635
也〇	-9.97645
己者	-9.97956
不忘	-9.97964
之體	-9.98061
可勝	-9.98119
可使	-9.9815
問於	-9.98205
為一	-9.98215
皆得	-9.9831
弃	-9.98428
五音	-9.98453
眩	-9.9847
雉	-9.98474
懦	-9.98484
墨子	-9.98491
饒	-9.98491
渴	-9.98491
鬱	-9.98492
郷	-9.98493
可與	-9.98494
的	-9.98498
藝	-9.98505
壺	-9.98511
湖	-9.9852
繡	-9.98538
又云	-9.98539
員	-9.9855
曜	-9.9855
瀆	-9.98552
逝	-9.98565
錫	-9.98602
披	-9.98605
眼	-9.9861
禽獸	-9.98622
宗廟	-9.98662
也蓋	-9.98669
險阻	-9.98675
旨	-9.98689
亦猶	-9.98716
做	-9.9872
緣	-9.98738
宫室	-9.98954
所見	-9.99026
十二辰	-9.99137
衆生	-9.99173
少陽	-9.99175
七星	-9.99331
而易	-9.99415
也〇陳皥曰	-9.99487
之至也	-9.9953
未得	-9.99637
貴賤	-9.99678
也雖	-9.99681
忠臣	-9.99691
衣食	-9.99715
五事	-9.9977
以備	-9.99816
多矣	-9.99832
未知	-9.99858
天有	-9.99863
食之	-9.99867
第二	-9.99909
苗	-9.99913
三者	-9.99925
哉夫	-10
於地	-10.0034
五帝	-10.0037
亡者	-10.0037
動則	-10.0041
終日	-10.0047
〇李筌曰	-10.0048
亦何	-10.0052
在下	-10.0055
也〇杜佑曰	-10.006
卦氣	-10.0068
嶽	-10.0072
揆	-10.0073
誹	-10.0075
弑	-10.0077
呪	-10.008
明君	-10.0081
姤	-10.0081
橋	-10.0083
拱	-10.0083
婁	-10.0085
籠	-10.0086
羹	-10.0086
牀	-10.0088
賂	-10.0088
氷	-10.0088
駭	-10.0093
脚	-10.0093
曷	-10.0094
抗	-10.0096
貳	-10.0097
蘭	-10.0098
電	-10.0101
乎曰	-10.0102
也次七	-10.0102
伎	-10.0103
詰	-10.0104
再拜	-10.0106
也次二	-10.0115
其主	-10.0119
休息	-10.012
何如	-10.0126
人自	-10.0136
守之	-10.0137
其親	-10.0149
〇杜佑曰	-10.015
傷也	-10.0152
也一曰	-10.0154
者蓋	-10.0172
一事	-10.0173
四面	-10.019
天時	-10.0192
敵國	-10.0208
六陰	-10.0215
無害	-10.0225
與天地	-10.0235
曰君	-10.024
何以知	-10.0254
白公	-10.0258
次八	-10.0261
此亦	-10.0279
當知	-10.0283
為用	-10.0297
將欲	-10.0308
迅	-10.0317
殺其	-10.0319
亦不可	-10.032
擢	-10.0323
虎豹	-10.0324
知此	-10.0326
眇	-10.0327
寤	-10.033
垣	-10.033
縛	-10.0331
燧	-10.0331
績	-10.0332
趍	-10.0332
賀	-10.0333
訪	-10.0333
米	-10.0333
祕	-10.0334
溪	-10.0337
銷	-10.0338
佩	-10.0338
閣	-10.0339
所出	-10.0342
儲	-10.0342
祈	-10.0343
腦	-10.0343
也次三	-10.0345
埋	-10.0347
苛	-10.0348
非有	-10.0357
障	-10.036
無一	-10.0362
雖然	-10.0365
其法	-10.0367
養生	-10.0373
道路	-10.0397
消長	-10.041
也次六	-10.041
長短	-10.0415
無私	-10.0418
必敗	-10.0429
遠矣	-10.0446
其利	-10.0448
無事	-10.0452
百人	-10.0452
此之謂	-10.0455
不得其	-10.0467
天文	-10.0477
性也	-10.0485
之節	-10.0495
不加	-10.0497
十五日	-10.0499
不自	-10.0501
矣若	-10.0502
思之	-10.0508
之盛	-10.0521
與其	-10.0522
無復	-10.0525
而退	-10.0528
非所以	-10.0529
德之	-10.0539
以正	-10.054
在地	-10.0543
陽中	-10.0544
其性	-10.0555
寂	-10.0568
地下	-10.0572
掇	-10.0574
淮	-10.0574
脅	-10.0574
槩	-10.0575
挺	-10.0579
羨	-10.0582
戈	-10.0582
誨	-10.0582
繆	-10.0585
板	-10.0585
伊	-10.0585
懈	-10.0586
沃	-10.0588
何可	-10.0588
庶幾	-10.059
崖	-10.0591
之妙	-10.0593
之業	-10.0593
潦	-10.0593
豕	-10.0593
匹夫	-10.0594
孟氏曰	-10.0595
相反	-10.0597
廪	-10.0598
淳	-10.0599
六十四	-10.0601
伯夷	-10.0604
度數	-10.0604
今從范本	-10.0606
中山	-10.0607
他人	-10.061
棺	-10.0612
在外	-10.0615
金液	-10.0619
造父	-10.0626
國君	-10.0627
神農	-10.0627
法而	-10.0633
疾病	-10.0644
所由	-10.0647
豈有	-10.0651
太清	-10.0655
也次五	-10.0659
亦如	-10.0661
其色	-10.0661
養之	-10.0664
說之	-10.0665
易也	-10.0674
而走	-10.0677
欲得	-10.0692
小大	-10.0696
若有	-10.0726
終於	-10.0728
與我	-10.0734
矣又	-10.0766
帝王	-10.0767
非所	-10.0769
爲禍	-10.077
鬻	-10.0776
可得而	-10.079
得仙	-10.079
不解	-10.0799
而忘	-10.0799
之神	-10.0809
十七	-10.0812
孚	-10.0819
吝	-10.0831
之力	-10.0832
釜	-10.0832
孕	-10.0834
湛	-10.0834
付	-10.0836
岳	-10.0837
寺	-10.0837
鄧	-10.0838
譎	-10.0839
敷	-10.0839
乳	-10.084
嫌	-10.0841
躍	-10.0843
偉	-10.0844
曽	-10.0844
鈍	-10.0844
融	-10.0846
今從宋陸范本	-10.0849
盆	-10.085
狄	-10.0851
逾	-10.086
不能使	-10.0868
譬若	-10.0869
譬如	-10.0869
第一	-10.0873
之月	-10.088
内外	-10.0882
吾子	-10.0885
可用	-10.0885
其用	-10.0885
不欺	-10.0886
久而	-10.0886
先王之	-10.0893
太初	-10.0894
强弱	-10.0896
其義	-10.0897
金丹	-10.091
忠信	-10.0913
而當夜小人	-10.0922
攻城	-10.0937
形勢	-10.0944
其類	-10.0946
則謂之	-10.0951
衛君	-10.0962
三百六十日	-10.0966
者言	-10.0967
子産	-10.0974
守其	-10.0981
者何	-10.0981
至此	-10.0989
有命	-10.0989
人物	-10.0991
之具	-10.0993
車馬	-10.1004
第十	-10.1006
二氣	-10.101
九十	-10.1012
非不	-10.1012
形而	-10.1028
君也	-10.103
也李筌曰	-10.1031
事君	-10.1057
地則	-10.1064
此其	-10.1067
受命	-10.1079
王公大人	-10.108
首尾	-10.1081
替	-10.1087
所用	-10.1089
牛羊	-10.1089
者為	-10.1092
朋	-10.1098
牲	-10.1099
暫	-10.11
禪	-10.11
廷	-10.1101
絳	-10.1101
褐	-10.1101
哲	-10.1101
沸	-10.1101
粗	-10.1103
叅	-10.1103
蟻	-10.1103
竦	-10.1104
灼	-10.1105
惰	-10.1105
粉	-10.1105
輒	-10.1108
陳皥曰	-10.1109
攘	-10.111
寐	-10.1111
秘	-10.1111
闊	-10.1112
拾	-10.1113
今從宋陸王本	-10.1113
桐	-10.1113
勒	-10.1113
庫	-10.1114
岸	-10.1115
蓄	-10.1116
二十八宿	-10.1118
截	-10.1118
翁	-10.1122
貧賤	-10.1124
有常	-10.1132
敗也	-10.1146
十四	-10.1153
手足	-10.1155
乎其	-10.1158
非常	-10.1162
十里	-10.117
堪	-10.1175
男子	-10.1177
山中	-10.118
木也	-10.1181
以明	-10.1181
聖賢	-10.1184
之分	-10.1197
不改	-10.1199
可知也	-10.1201
生而	-10.1207
民無	-10.121
上有	-10.1211
名實	-10.1222
豈能	-10.1231
愚謂	-10.1243
示以	-10.1254
先後	-10.126
争利	-10.1268
楚王	-10.1293
不立	-10.13
邵子	-10.1308
以至	-10.132
可以爲	-10.132
止也	-10.132
理也	-10.1322
歸之	-10.1327
北辰	-10.1328
彼此	-10.1339
不得不	-10.1345
勞而	-10.1346
所知	-10.1348
三公	-10.1351
以攻	-10.1358
霍	-10.1358
鵲	-10.1358
扁	-10.1359
若無	-10.1359
天下無	-10.136
罵	-10.1365
唫	-10.1365
則可以	-10.1366
僻	-10.1369
邀	-10.137
贊	-10.1371
葛	-10.1372
恬	-10.1374
台	-10.1376
擁	-10.1377
什	-10.1377
器械	-10.1378
竄	-10.1379
涕	-10.1379
瑕	-10.1381
傍	-10.1381
乗	-10.1383
曰何	-10.1383
疵	-10.1384
灾	-10.1386
柴	-10.1391
炊	-10.1392
不獲	-10.1392
今從宋陸本	-10.1395
切范曰	-10.1397
相對	-10.1406
若是	-10.1407
今從	-10.1412
有九	-10.1413
不可得	-10.1413
城下	-10.1426
舉兵	-10.1434
海内	-10.1444
一元	-10.1452
極則	-10.1464
一二	-10.1484
相生	-10.1485
一本	-10.1486
地上	-10.1492
黄道	-10.1496
則我	-10.1501
六陽	-10.1514
何爲	-10.152
也次四	-10.1523
察其	-10.1526
好惡	-10.1531
而任	-10.154
不能得	-10.1544
善人	-10.1547
之數也	-10.1564
之志	-10.1564
景公	-10.1565
乎夫	-10.1572
而來	-10.16
人無	-10.1604
先知	-10.1607
下降	-10.1609
於我	-10.1614
其地	-10.1622
竅	-10.1623
無術	-10.1625
嵩	-10.1637
茅	-10.164
範	-10.1641
彗	-10.1641
壇	-10.1641
榦	-10.1642
之實	-10.1646
齊王	-10.1646
寓	-10.1647
妨	-10.1648
揮	-10.1648
娶	-10.1649
藪	-10.165
嬰兒	-10.165
爛	-10.1651
幣	-10.1652
憲	-10.1652
鑄	-10.1655
臍	-10.1655
垢	-10.1657
扇	-10.1657
昆	-10.1659
潰	-10.166
梓	-10.1661
大功	-10.1661
枕	-10.1662
輻	-10.1662
酋	-10.1663
當此之時	-10.1665
五聲	-10.1667
而卒	-10.1671
其民	-10.1675
太公	-10.1678
明年	-10.1678
勝敵	-10.1689
死也	-10.1691
不可不察	-10.1692
其力	-10.1693
范本	-10.1695
此之謂也	-10.17
賞之	-10.17
貴於	-10.1703
生焉	-10.1705
門户	-10.1719
天地之間	-10.1729
堅白	-10.173
爲上	-10.1732
五行之	-10.1743
乎此	-10.1751
戰勝	-10.1753
哀公	-10.1754
立而	-10.1756
能得	-10.1774
四者	-10.1774
一家	-10.1775
陰生	-10.1779
其下	-10.1784
俗人	-10.1785
避之	-10.1786
在前	-10.1787
不盡	-10.1788
兵法	-10.179
正月	-10.1792
六甲	-10.1812
若使	-10.1822
非一	-10.1824
六合	-10.1826
度世	-10.1846
此二	-10.1872
清明	-10.1876
曰若	-10.1879
平生	-10.1891
隨之	-10.1893
於齊	-10.1893
怒而	-10.1893
不辜	-10.1897
轉而	-10.1902
遵	-10.1918
不息	-10.1919
知伯	-10.1924
嬴	-10.1924
翰	-10.1925
飄	-10.193
訣	-10.1931
貸	-10.1932
褒	-10.1932
阜	-10.1937
少陰	-10.1937
弛	-10.1939
郢	-10.1941
煎	-10.1942
翠	-10.1943
䘮	-10.1944
日用	-10.1944
迭	-10.1945
遐	-10.1946
曼	-10.1946
遍	-10.1946
虎狼	-10.195
礙	-10.1951
鳳凰	-10.1951
先天圖	-10.1952
纍	-10.1953
未及	-10.1954
牝	-10.1954
撰	-10.1956
鳥獸	-10.1963
比干	-10.1965
之處	-10.1966
二千	-10.197
程子曰	-10.1971
福禄	-10.1983
數年	-10.1987
制勝	-10.1988
文侯	-10.1996
白虎	-10.2005
倦	-10.2011
焉故	-10.2017
簡公	-10.202
夫婦	-10.2038
無方	-10.2043
故云	-10.2048
不治	-10.2066
亦無	-10.2068
因以	-10.2069
其母	-10.2069
各得	-10.2072
孰謂	-10.2072
死矣	-10.2075
代之	-10.2083
一變	-10.2087
而終	-10.2101
亦曰	-10.2129
二子	-10.2132
山之	-10.2138
德也	-10.2145
月建	-10.2146
無用	-10.2147
而利	-10.2147
不亂	-10.2158
以德	-10.2158
中間	-10.2162
父兄	-10.2162
不虞	-10.2173
所居	-10.2175
〇賈林曰	-10.2182
也〇何氏曰	-10.2182
先至	-10.2185
無益於	-10.2185
小宋本作	-10.22
剋	-10.2205
知己	-10.2205
受之	-10.2212
酸	-10.2215
此三	-10.2216
錦	-10.2219
斲	-10.2221
副	-10.2223
騁	-10.2223
銖	-10.2224
雷霆	-10.2224
轅	-10.2227
拯	-10.2232
麤	-10.2232
遜	-10.2233
朕	-10.2235
稼	-10.2235
稅	-10.2236
蹠	-10.2237
耦	-10.2237
兕	-10.2238
芻	-10.224
嗇	-10.2241
瑞	-10.2242
洋	-10.2242
鶡冠子曰	-10.2243
筌	-10.2243
而治	-10.2245
涸	-10.2248
飢寒	-10.2249
秒	-10.225
愆	-10.2255
睟	-10.2271
大怒	-10.2271
淮南	-10.2272
立功	-10.2274
七月	-10.2276
聞之曰	-10.2277
八月	-10.2286
徃來	-10.2288
存乎	-10.231
而無所	-10.2318
死亡	-10.2329
或無	-10.2333
則可	-10.2334
文子	-10.2348
之鬼	-10.2352
九地	-10.2356
萬事	-10.2357
久矣	-10.2365
二曰	-10.237
也初一	-10.2374
也賛曰	-10.2382
也又曰	-10.2394
士也	-10.2395
不修	-10.2396
百餘	-10.241
尚同	-10.2413
不惑	-10.2414
爲君	-10.2422
在其	-10.2427
故有是象	-10.2432
九變	-10.2438
將以	-10.2439
萬世	-10.2443
之宜	-10.2444
號曰	-10.2464
則雖	-10.2465
不使	-10.2473
之所由	-10.2473
隂氣	-10.2476
數百	-10.2477
豈可	-10.2483
義者	-10.2484
抱朴子	-10.2488
反間	-10.2493
又如	-10.2503
盡力	-10.2506
其體	-10.2506
之書	-10.2506
爲天子	-10.2506
三分	-10.2508
之類也	-10.251
之政	-10.251
瘁	-10.2513
俠	-10.2518
膚	-10.2522
舉事	-10.2523
戟	-10.2525
斛	-10.2525
級	-10.2527
噬	-10.2528
爽	-10.2529
翳	-10.2531
爪	-10.2531
乃得	-10.2531
墳	-10.2531
兊	-10.2531
奥	-10.2532
萊	-10.2533
在南	-10.2534
之山	-10.2535
撲	-10.2536
㑹	-10.2536
小過	-10.2539
欽	-10.2542
類也	-10.2543
丹砂	-10.2543
繞	-10.2545
珠玉	-10.2549
其變	-10.255
〇朱子曰	-10.255
之迹	-10.2553
南極	-10.2553
匈奴	-10.2554
子罕	-10.2555
之資	-10.2562
嗜欲	-10.2565
太宗	-10.2565
裝	-10.2566
境内	-10.2577
九地之	-10.2586
太隂	-10.2592
大人	-10.2593
其外	-10.2595
無聲	-10.2602
不可以爲	-10.2605
不服	-10.2607
江河	-10.2608
者也夫	-10.261
號令	-10.2614
又以	-10.2616
童子	-10.2627
二分	-10.263
不疑	-10.2637
勇者	-10.2637
其根	-10.2638
將何	-10.2653
白黑	-10.2655
齊人	-10.2656
君人者	-10.2656
一斤	-10.2669
也所以	-10.2675
而聽	-10.2686
無知	-10.2688
不免於	-10.2689
爲物	-10.269
丹田	-10.2696
之制	-10.2698
乎天	-10.27
止於	-10.2702
至德	-10.2712
在内	-10.2723
而不敢	-10.2723
此謂	-10.273
太陰	-10.2738
不堪	-10.2742
數日	-10.2747
所貴	-10.2754
六月	-10.2763
有能	-10.2772
論之	-10.2782
五藏	-10.2791
矣故曰	-10.2795
見利	-10.2805
攻守	-10.2806
何也曰	-10.2807
失道	-10.2809
死於	-10.2814
於國	-10.2823
有二	-10.2823
妬	-10.283
靖	-10.2833
零	-10.2834
㓜	-10.2834
綸	-10.2836
所作	-10.2837
豹	-10.2839
奴	-10.2839
健	-10.284
驪	-10.2841
署	-10.2841
疇	-10.2843
熊	-10.2844
俾	-10.2844
十餘	-10.2844
蓍	-10.2845
煞	-10.2846
乎若	-10.2847
雙	-10.2848
薛	-10.2849
家人	-10.285
槁	-10.2851
洗	-10.2851
汜	-10.2852
祠	-10.2852
當日之晝	-10.2854
腰	-10.2855
須臾	-10.2855
功成	-10.2856
警	-10.2857
䧟	-10.2857
揣	-10.2858
煖	-10.286
鑑	-10.2861
誘之	-10.2861
林鍾	-10.2862
八爲禍中	-10.2863
十尺	-10.2867
杪	-10.2867
馴	-10.2877
莫如	-10.2882
爲大	-10.2884
左行	-10.2884
少而	-10.2891
周孔	-10.2893
曲直	-10.2918
曰某	-10.2925
形者	-10.2925
所不能	-10.293
不絶	-10.2936
於無形	-10.2939
故無	-10.2965
而見	-10.2966
能令	-10.2968
日夜	-10.2981
三寸	-10.2981
非馬	-10.2983
太平	-10.2999
九州	-10.3006
太山	-10.3019
恐其	-10.302
此法	-10.3025
暇	-10.3038
皆爲	-10.3042
亡國	-10.3043
大王	-10.3044
月行	-10.3045
無物	-10.3045
而惡	-10.3046
以來	-10.3052
故謂之	-10.306
而不以	-10.3062
五尺	-10.3063
八極	-10.3074
六六	-10.3083
置之	-10.309
相愛	-10.3091
自以爲	-10.3091
一一	-10.3092
乘之	-10.3105
一言	-10.312
莽	-10.3122
為正	-10.313
其臣	-10.3132
二月	-10.3133
無欲	-10.315
楯	-10.3154
繳	-10.3156
羲	-10.3157
償	-10.3161
善用兵者	-10.3161
打	-10.3165
編	-10.3166
熙	-10.3166
諱	-10.3168
顓頊	-10.3168
促	-10.317
臻	-10.317
贖	-10.3171
暢	-10.3172
滔	-10.3172
晷	-10.3172
亟	-10.3173
六十四卦	-10.3174
祐	-10.3174
冷	-10.3174
膠	-10.3175
隣	-10.3175
柯	-10.3175
詘	-10.3175
贏	-10.3177
停	-10.3177
燎	-10.3177
岐	-10.3178
勾	-10.3178
昭侯	-10.3179
老子曰	-10.3185
仍	-10.3186
消息	-10.3189
子弟	-10.3193
八尺	-10.3201
微妙	-10.3201
循環	-10.3207
曰凡	-10.3208
盛衰	-10.3213
官府	-10.3215
〇何氏曰	-10.3218
此所以	-10.322
有數	-10.3226
安可	-10.3233
當夜	-10.3233
感應	-10.3234
生人	-10.324
高下	-10.3244
鄰國	-10.3249
而誅	-10.3251
順天	-10.3258
立春	-10.326
星辰	-10.3261
狀如	-10.3264
見一	-10.3264
邵子曰	-10.3264
之兵	-10.3274
不暇	-10.3277
百萬	-10.3277
則止	-10.3278
之序	-10.3291
文武	-10.3309
之精也	-10.3312
賢而	-10.3319
真氣	-10.3322
天命	-10.3323
又況	-10.3325
之機	-10.3325
之智	-10.3327
語曰	-10.3334
有天下	-10.3336
智能	-10.3343
與物	-10.3343
之策	-10.3345
數千	-10.3346
則當	-10.3361
刑德	-10.3373
之前	-10.3375
相持	-10.3382
遠者	-10.3389
下有	-10.3391
恃其	-10.3393
之官	-10.3395
日日	-10.3436
入於	-10.3442
之德	-10.3446
日出	-10.3448
故人	-10.3462
千萬	-10.3473
即日	-10.3476
於身	-10.3478
橐	-10.3481
軍争	-10.3483
歐	-10.3483
者也故曰	-10.3486
未足	-10.3487
仗	-10.3489
刖	-10.3491
僚	-10.3493
場	-10.3495
媚	-10.3497
唐虞	-10.3497
昊	-10.3499
汁	-10.3499
瘡	-10.3499
忤	-10.35
栢	-10.3502
凉	-10.3503
般	-10.3504
無異	-10.3504
炳	-10.3505
蟬	-10.3505
葆	-10.3506
藍	-10.3507
牡	-10.3507
愚按	-10.3507
宻	-10.3508
墨子卷之	-10.3508
吸	-10.3509
戍	-10.3509
陂	-10.351
澹	-10.351
璞	-10.3511
裹	-10.3511
翮	-10.3512
聘	-10.3513
致遠	-10.3513
二君	-10.3513
汲	-10.3514
閔	-10.3514
必欲	-10.3514
睡	-10.3514
鏤	-10.3516
叔孫	-10.3516
四月	-10.3518
憑	-10.3518
恚	-10.3519
麾	-10.352
較	-10.3521
大破之	-10.3521
踦	-10.3522
演	-10.3523
郄	-10.3524
甲乙	-10.3525
然後可以	-10.3528
會稽	-10.3532
不周	-10.3532
上下相	-10.3536
中孚	-10.3541
運行	-10.3543
親戚	-10.3543
料敵	-10.3544
子貢	-10.3551
以濟	-10.3555
子胥	-10.3563
正直	-10.3563
難以	-10.3565
同也	-10.3568
先據	-10.3572
比周	-10.3575
天子之	-10.3584
立冬	-10.3591
不幸	-10.3593
治世	-10.36
姓名	-10.3609
在此	-10.362
明主之	-10.3623
投之	-10.3624
之高	-10.3627
不肖者	-10.3628
糧道	-10.3629
不去	-10.3629
一陰	-10.3634
者乃	-10.3641
不合	-10.3649
教之	-10.3661
太守	-10.3661
亡也	-10.3664
而巳	-10.3679
之方	-10.3686
周天	-10.369
今以	-10.3691
豈非	-10.3705
既已	-10.3705
莫知	-10.3709
〇陳皥曰	-10.3717
諫曰	-10.3722
丈夫	-10.3726
而擊之	-10.373
之術也	-10.373
水也	-10.3743
何足	-10.3744
知人	-10.3748
之源	-10.3751
未若	-10.3755
韓非	-10.3764
皆然	-10.3769
軍士	-10.3789
主人	-10.3804
以養	-10.3805
五者	-10.3813
未發	-10.3819
九月	-10.3821
菽	-10.3821
當時	-10.3823
嫗	-10.3824
賁	-10.3832
弄	-10.3835
之論	-10.3838
售	-10.3838
一世	-10.384
肩	-10.3841
勢利	-10.3842
冢	-10.3842
慨	-10.3842
能自	-10.3843
簿	-10.3844
惕	-10.3844
爐	-10.3845
韜	-10.3846
十二萬九千六百	-10.3846
械	-10.3847
苑	-10.3847
碧	-10.3848
傑	-10.3848
菌	-10.3849
季孫	-10.3849
畝	-10.3849
訖	-10.385
躡	-10.3852
嘻	-10.3853
梯	-10.3854
卯酉	-10.3854
晦朔	-10.3855
軀	-10.3856
誡	-10.3857
佳	-10.3858
壓	-10.3859
纔	-10.386
國有	-10.3861
氐	-10.3861
盜賊	-10.3861
株	-10.3864
不忠	-10.3865
日舍	-10.3865
乍	-10.3865
喬	-10.3865
好憎	-10.3867
屈伸	-10.3868
於前	-10.3869
丘陵	-10.3871
與道	-10.3875
之野	-10.3885
令尹	-10.3889
兩儀	-10.3895
與天	-10.3896
之義也	-10.3898
大敗	-10.3915
吏卒	-10.3915
不察	-10.3928
已成	-10.3939
以下	-10.3943
大將	-10.3944
亂世	-10.396
姦臣	-10.3962
本於	-10.397
不樂	-10.3971
故明主	-10.4001
以勸	-10.4004
奪之	-10.401
天神	-10.4011
王本作	-10.4011
秦王	-10.4015
以取	-10.4016
五千	-10.4034
在其中	-10.4039
其所欲	-10.404
不休	-10.4042
用此	-10.4049
諸家	-10.406
之所在	-10.4061
八百	-10.4061
所以能	-10.4067
齊之	-10.4073
故君子	-10.4077
一爻	-10.4087
者少	-10.4092
天理	-10.4094
不遠	-10.41
屬陽	-10.4107
聞而	-10.4122
隨時	-10.4123
法則	-10.4134
夫差	-10.4135
與敵	-10.4143
不宜	-10.4147
名爲	-10.4153
自是	-10.4162
而實	-10.4172
經云	-10.4183
在後	-10.4186
三州	-10.419
八節	-10.419
熾	-10.4191
攺	-10.4193
技	-10.4194
臯	-10.4195
局	-10.4197
綺	-10.4198
汞	-10.4198
四尺	-10.4199
片	-10.4199
隸	-10.42
朴	-10.4201
頸	-10.4201
鄒	-10.4201
喙	-10.4201
牟	-10.4201
亮	-10.4201
婚	-10.4201
彘	-10.4203
驥	-10.4204
蹶	-10.4204
曩	-10.4205
瑶	-10.4207
文學	-10.4207
府庫	-10.4208
秋毫	-10.4209
狡	-10.4209
段	-10.421
蝕	-10.4211
峭	-10.4212
虹	-10.4213
所惡	-10.4216
跂	-10.4217
飲酒	-10.4217
詹	-10.4217
自知	-10.4219
復生	-10.422
庖	-10.4224
沖	-10.4225
洲	-10.4225
朝夕	-10.4227
必得	-10.423
制也	-10.4245
莫敢	-10.425
光明	-10.4256
二十四氣	-10.4261
平公	-10.4262
未幾	-10.4267
孟子曰	-10.4271
舟車	-10.4277
登第	-10.4278
有四	-10.429
未易	-10.4293
雖多	-10.4294
三家	-10.4295
武帝	-10.4297
四維	-10.4297
孟子	-10.4299
之言也	-10.4314
水上	-10.4318
始生	-10.4325
曹公曰	-10.4326
死戰	-10.4329
丹法	-10.4341
神丹	-10.4348
小宋本	-10.4364
得罪	-10.437
陽升	-10.4382
在北	-10.4385
道家	-10.4387
土地	-10.4389
便有	-10.4392
不曉	-10.44
不孝	-10.4403
五六	-10.4403
於朝	-10.4414
於子	-10.4414
趙王	-10.4422
也或問	-10.4433
不妄	-10.4437
禮之	-10.4447
何所	-10.4449
不應	-10.4455
穆公	-10.4456
非爲	-10.4473
治病	-10.4482
而行之	-10.4482
之費	-10.4482
欲求	-10.4484
未嘗不	-10.4501
入于	-10.4505
以制	-10.4506
三五	-10.451
為奇	-10.4512
以救	-10.4514
於己	-10.4516
不見其	-10.4525
邵	-10.453
官至	-10.453
政事	-10.4539
二十七	-10.454
乾卦	-10.454
貴其	-10.4545
熏	-10.4559
頑	-10.4559
雛	-10.4559
罟	-10.4561
諂	-10.4562
莫知其	-10.4562
睢	-10.4564
洿	-10.4568
駿	-10.4568
漫	-10.4569
即是	-10.4569
一二三四	-10.457
組	-10.4573
几	-10.4573
綿	-10.4574
脛	-10.4575
叢	-10.4575
允	-10.4576
毁譽	-10.4576
此理	-10.4577
緒	-10.4577
攫	-10.4577
拊	-10.4578
古者聖王	-10.4579
頌	-10.458
牖	-10.458
畧	-10.4581
皓	-10.4581
當日之夜	-10.4582
部二家	-10.4582
睹	-10.4582
殫	-10.4583
蹻	-10.4583
畔	-10.4584
之大者	-10.4584
低	-10.4584
敏	-10.4585
雕	-10.4586
方一州	-10.4586
孝子	-10.4587
摧	-10.4587
閼	-10.4587
治民	-10.4587
蜂	-10.4588
勵	-10.4588
蕪	-10.4588
旺	-10.4589
桂	-10.4589
污	-10.459
今從二宋陸王本	-10.459
阻	-10.4591
經世	-10.4591
太尉祭酒臣許愼記上	-10.4591
顔色	-10.4598
之元	-10.46
待敵	-10.4603
也若夫	-10.4607
清濁	-10.4609
未甞	-10.4611
姦邪	-10.4621
二物	-10.4623
齊桓公	-10.4624
人道	-10.463
喪其	-10.464
動靜	-10.4643
高祖	-10.4653
衆寡	-10.4654
盡也	-10.4668
廣大	-10.4678
良馬	-10.4679
六尺	-10.468
惠王	-10.468
詐僞	-10.4684
養性	-10.4696
一念	-10.4697
尚書	-10.4701
許由	-10.4716
堅固	-10.4719
死後	-10.4728
孰能	-10.473
從此	-10.4735
則無以	-10.4735
也子墨子曰	-10.4738
大川	-10.4739
無他	-10.4741
有備	-10.4741
得意	-10.4749
是故聖人	-10.475
也昔者	-10.4751
太陽	-10.4751
用心	-10.4756
仙道	-10.4759
盛德	-10.4762
神字	-10.477
一體	-10.4774
不避	-10.4776
一爲思始	-10.4776
者天之	-10.4782
燕王	-10.4784
自來	-10.4784
譬之	-10.4785
進而	-10.4794
不務	-10.4801
深入	-10.4815
由乎	-10.4829
不傷	-10.4846
救火	-10.4855
離卦	-10.4861
王天下	-10.4875
與同	-10.4875
魏王	-10.4875
難知	-10.4881
而制	-10.4893
然後能	-10.4899
第三十	-10.4899
六爻	-10.4905
伐之	-10.4911
澗	-10.4925
缶	-10.4925
孔丘	-10.4926
形名	-10.4932
變為	-10.4932
不克	-10.4935
鄴	-10.4935
櫓	-10.4939
梟	-10.494
鐸	-10.4942
以類	-10.4942
孜	-10.4944
版	-10.4944
鴟	-10.4951
鈆	-10.4951
菜	-10.4954
觴	-10.4954
酌	-10.4955
搆	-10.4956
殖	-10.4956
韶	-10.4956
睦	-10.4956
磬	-10.4957
館	-10.4958
矛	-10.4959
脯	-10.4959
燔	-10.496
跪	-10.496
股肱	-10.496
摶	-10.496
淡	-10.496
訴	-10.496
卓	-10.4961
鸞	-10.4961
柰何	-10.4961
冕	-10.4962
僅	-10.4962
顓	-10.4963
嚮	-10.4963
尉繚子曰	-10.4963
無過	-10.4963
碩	-10.4964
濯	-10.4964
崔	-10.4965
喉	-10.4965
萃	-10.4965
煉形	-10.4966
屏	-10.4968
綴	-10.4968
誥	-10.4968
沐	-10.4969
弼	-10.4969
咨	-10.497
恢	-10.4971
羈	-10.4972
方二州	-10.4974
周旋	-10.4974
善言	-10.4975
貨財	-10.4975
此說	-10.4975
陛下	-10.4977
之色	-10.4979
諾	-10.4994
歸於	-10.4998
此書	-10.5005
萬八千	-10.5006
飛鳥	-10.5006
已上	-10.5006
近習	-10.501
一云	-10.5013
何異	-10.5018
南面	-10.5019
疑惑	-10.5019
奇兵	-10.5023
無可	-10.5024
故言	-10.5024
圖書	-10.5029
比於	-10.5031
小宋	-10.5033
無禮	-10.5036
神也	-10.5055
易有	-10.5059
音聲	-10.5076
精氣	-10.5081
以道	-10.5084
太虚	-10.5085
失其所	-10.5089
血氣	-10.5103
本末	-10.5105
之巧	-10.5107
其光	-10.511
屬陰	-10.5114
越王	-10.5121
乃能	-10.5122
一方	-10.5125
六律	-10.5125
衣服	-10.5129
靈王	-10.5136
以威	-10.5141
真君	-10.5144
以諭	-10.515
王道	-10.5161
之役	-10.5168
不學	-10.5168
安危	-10.5172
固守	-10.5176
人臣之	-10.5244
矣是故	-10.5251
愛利	-10.5253
不任	-10.5263
便可	-10.5269
老陽	-10.5284
弗知	-10.5299
教人	-10.5307
下生	-10.5315
無備	-10.5317
奪其	-10.5326
勝於	-10.534
幟	-10.534
酣	-10.5347
勃	-10.5347
艱	-10.5348
蛟	-10.5348
窟	-10.5348
不急	-10.5348
懲	-10.5348
揜	-10.535
菑	-10.535
子夏	-10.5351
荷	-10.5351
瓊	-10.5352
淑	-10.5352
慘	-10.5353
杯	-10.5355
䘏	-10.5356
隕	-10.5356
龐	-10.5357
隳	-10.5357
鑪	-10.5357
儒墨	-10.5357
倡	-10.5358
掃	-10.5359
蚩	-10.536
脊	-10.536
兵者	-10.536
悍	-10.5361
宛	-10.5361
坑	-10.5362
刋	-10.5363
炙	-10.5364
砥	-10.5365
其内	-10.5366
秩	-10.5366
慝	-10.5366
浴	-10.5367
灑	-10.5368
岀	-10.5369
水火土石	-10.5369
减	-10.5369
扁鵲	-10.537
彭祖	-10.537
四爲下禄	-10.5371
莫大於	-10.5371
各自	-10.5371
潭	-10.5373
帷	-10.5373
壑	-10.5376
獨見	-10.538
部一家	-10.538
成敗	-10.5383
至乾	-10.5385
經緯	-10.5386
脩短	-10.5393
若乃	-10.5399
損益	-10.5401
焚其	-10.5408
也小宋本	-10.5409
者不以	-10.541
不拔	-10.541
黄白	-10.5411
太公曰	-10.5435
箕子	-10.5459
有一人	-10.5461
趙氏	-10.5468
暴亂	-10.5485
封之	-10.549
生數	-10.5493
又復	-10.5499
魯人	-10.5499
東井	-10.5502
爲義	-10.5506
所守	-10.5519
曰吾聞	-10.5533
分野	-10.5538
在東	-10.5544
必待	-10.5551
文正	-10.5551
而取之	-10.5556
伐楚	-10.5563
至精	-10.5568
甚於	-10.557
當作	-10.5588
二尺	-10.5596
未形	-10.561
大吕	-10.5612
魯君	-10.5616
攻戰	-10.5619
勝敗	-10.5641
著於	-10.5648
有異	-10.5653
有德	-10.5654
尚賢	-10.5662
服食	-10.5666
二三	-10.5678
所說	-10.5685
君之所	-10.5686
自謂	-10.5688
當晝	-10.571
脩其	-10.5737
分數	-10.5745
抱朴子答曰	-10.5751
無名	-10.5753
貟	-10.5754
噲	-10.5758
詠	-10.5759
黜	-10.5763
頽	-10.5763
譴	-10.5766
婆	-10.5766
筩	-10.5766
攷	-10.5768
贍	-10.5768
悌	-10.5769
叟	-10.577
挑	-10.577
醮	-10.5771
燿	-10.5771
鑠	-10.5771
公孫龍	-10.5771
惶	-10.5771
搜	-10.5771
非其人	-10.5772
脣	-10.5772
緑	-10.5773
要在	-10.5774
葦	-10.5774
蔚	-10.5775
樵	-10.5775
幕	-10.5775
僇	-10.5776
而使	-10.5777
欣	-10.5777
窈	-10.5777
生萬物	-10.5778
夾鍾	-10.5778
鑽	-10.578
辦	-10.578
飛金晶	-10.5781
未生	-10.5781
上黨	-10.5782
餒	-10.5783
后稷	-10.5783
煑	-10.5783
研	-10.5783
栗	-10.5784
妃	-10.5784
絞	-10.5785
三軍之衆	-10.5785
挑戰	-10.5786
呼吸	-10.5786
物物	-10.5787
壹	-10.5788
漿	-10.5788
渝	-10.5789
闔閭	-10.5789
例	-10.5789
𤕠	-10.579
針	-10.5791
欒	-10.5791
跋	-10.5791
矣光謂	-10.5796
也易曰	-10.58
丙丁	-10.5801
加十五日指	-10.5804
奇伏	-10.5808
潤澤	-10.5808
善戰者	-10.5811
衣冠	-10.5811
尊卑	-10.5812
應鍾	-10.5813
圈	-10.5817
節按	-10.582
遂得	-10.5823
布衣	-10.5825
情欲	-10.5833
春夏	-10.5836
南吕	-10.584
三十里	-10.5844
賢良	-10.5856
而使之	-10.5858
不戰而	-10.5861
立秋	-10.5874
小宋曰	-10.5875
興師	-10.5879
襄王	-10.5882
華蓋	-10.5884
已定	-10.5886
久則	-10.5887
用力	-10.589
地仙	-10.5896
足以知	-10.5898
范小宋本	-10.59
所以然者	-10.5904
不救	-10.591
玄武	-10.5913
或問曰	-10.5922
也且夫	-10.5924
夜光	-10.5941
曰寡人	-10.5944
田常	-10.5947
不戒	-10.5948
得其宜	-10.595
無何	-10.5955
無量	-10.5956
之所爲	-10.5958
所敗	-10.5967
陽虎	-10.5972
不便	-10.5974
刑政	-10.5983
但凡	-10.5988
染於	-10.599
之所能	-10.5997
有術	-10.601
四十九	-10.6011
言語	-10.6013
始終	-10.6038
道術	-10.6039
水草	-10.6041
敵若	-10.6066
木石	-10.6072
不移	-10.6074
又何	-10.6077
而待	-10.6088
是夕	-10.6089
甲兵	-10.613
不可得也	-10.613
重人	-10.6131
未聞	-10.6152
而不用	-10.6154
瞢	-10.6154
曾子	-10.6178
行列	-10.618
盜跖	-10.619
婢	-10.6196
繩墨	-10.6199
孫叔敖	-10.6199
城中	-10.6199
橫	-10.6199
艮卦	-10.62
鬪	-10.62
滌	-10.6201
釁	-10.6202
怖	-10.6203
臞	-10.6203
旌	-10.6204
黿	-10.6205
巾	-10.6205
不可復	-10.6207
宦	-10.6207
尅	-10.6207
叩	-10.6208
鼈	-10.6208
淨	-10.6208
邇	-10.6209
凑	-10.621
併	-10.621
逍遥	-10.6211
八十一	-10.6212
抽	-10.6212
熒	-10.6212
圯	-10.6212
漬	-10.6212
輯	-10.6213
模	-10.6213
七尺	-10.6214
毀	-10.6214
〇邵子曰	-10.6214
謾	-10.6214
藴	-10.6214
虱	-10.6214
朱雀	-10.6215
狸	-10.6215
窕	-10.6216
諧	-10.6217
泊	-10.6217
姑洗	-10.6218
沛	-10.6219
撞	-10.6219
耿	-10.622
劑	-10.622
便利	-10.622
頻	-10.6221
浪	-10.6221
贅	-10.6222
裳	-10.6222
淖	-10.6222
蓐	-10.6222
晋文公	-10.6223
於淵	-10.6224
潢	-10.6225
餐	-10.6225
蠹	-10.6227
非獨	-10.6227
犧	-10.6228
紙	-10.623
饋	-10.6231
張孟談	-10.6231
裔	-10.6232
諌	-10.6233
榖	-10.6234
慚	-10.6234
採藥	-10.6236
三光	-10.6237
五臟	-10.6237
河東	-10.6239
太祖	-10.6247
賢不肖	-10.6249
一本作	-10.6258
德行	-10.626
至誠	-10.6263
公孫	-10.6271
管仲曰	-10.6274
相救	-10.6274
范王本	-10.6277
空虚	-10.6285
十二時	-10.6285
大藥	-10.6287
青龍	-10.6296
泰山	-10.6298
雄黄	-10.63
隂降	-10.6302
昭王	-10.6303
腎氣	-10.6304
先儒	-10.6304
自取	-10.6305
群臣	-10.632
積聚	-10.6324
不喜	-10.6366
無怨	-10.6366
精微	-10.6367
不敬	-10.6369
彼我之	-10.637
變易	-10.6381
亡國之	-10.6392
備矣	-10.6397
宋君	-10.6422
讀書	-10.6427
法術	-10.6452
請問	-10.6462
獨立	-10.6464
未至	-10.6465
揚子	-10.6466
下弦	-10.6472
不可使	-10.6486
老陰	-10.6525
不爭	-10.6527
乃始	-10.6555
外内	-10.6587
八方	-10.6596
百事	-10.6621
待其	-10.6636
臘	-10.6639
莒	-10.6646
聰	-10.6647
憐	-10.6648
不逮	-10.665
滄海	-10.6651
街	-10.6652
徽	-10.6655
奕	-10.6656
寜	-10.6656
濮	-10.6656
胸	-10.6656
篡	-10.666
該	-10.666
棟	-10.666
禳	-10.6661
釐	-10.6661
相似	-10.6661
嫉	-10.6663
駑	-10.6664
漂	-10.6665
妍	-10.6665
愁	-10.6666
莖	-10.6666
溟	-10.6667
李靖	-10.6667
孫臏	-10.6667
款	-10.6668
洪範	-10.6668
樞宻	-10.6669
忒	-10.6669
璽	-10.667
尼	-10.667
朗	-10.667
而後能	-10.667
撥	-10.6671
昭昭	-10.6671
弇	-10.6671
斃	-10.6671
蟄蟲	-10.6672
把	-10.6672
恪	-10.6672
點	-10.6673
劒	-10.6673
竽	-10.6674
梧	-10.6674
也〇孟氏曰	-10.6676
募	-10.6676
餉	-10.6676
耽	-10.6677
聽治	-10.6678
羙	-10.6678
厨	-10.6678
絳宫	-10.668
徴	-10.6683
芬	-10.6684
雨露	-10.6684
扣	-10.6685
其故何也	-10.669
律吕	-10.6693
未始有	-10.6694
畜生	-10.6694
赤道	-10.6695
司空	-10.6696
營室	-10.6702
常在	-10.6722
車騎	-10.6723
流血	-10.6725
農夫	-10.6753
權勢	-10.6767
太微	-10.6768
兼愛	-10.6775
郎中	-10.6781
西施	-10.6794
四季	-10.6808
賢聖	-10.6812
者必有	-10.6818
有苗	-10.6819
三尸	-10.6822
愚曰	-10.6825
王良	-10.6852
四十八	-10.6855
立夏	-10.6856
天地間	-10.686
六畜	-10.6869
七年	-10.6879
人亦有	-10.6889
城門	-10.6894
節制	-10.6909
不慈	-10.6926
輕舉	-10.6928
晋人	-10.6929
八風	-10.6929
和氣	-10.6943
小利	-10.697
相連	-10.6977
上升	-10.6982
一升	-10.6988
何足以	-10.6991
第三	-10.6994
二年	-10.7016
祝曰	-10.7022
聖人之所	-10.704
之力也	-10.7064
曰諾	-10.7069
皇帝	-10.7097
餘分	-10.7102
入水	-10.711
䂓	-10.7112
畛	-10.7117
煉	-10.7118
勳	-10.7119
不能制	-10.7122
劣	-10.7124
陟	-10.7125
携	-10.7127
閨	-10.7128
穰	-10.7128
踞	-10.7129
圄	-10.713
奎	-10.7131
粲	-10.7131
騏	-10.7133
膝	-10.7133
蛤	-10.7135
貯	-10.7136
簫	-10.7136
懈怠	-10.7138
叔向	-10.7138
翅	-10.7139
暖	-10.714
虬	-10.714
民力	-10.7141
跳	-10.7141
繕	-10.7142
晉	-10.7142
煬	-10.7142
殄	-10.7142
壬癸	-10.7143
鬲	-10.7143
戀	-10.7143
熈	-10.7145
捉	-10.7146
苴	-10.7146
惜其不知	-10.7147
夷狄	-10.7147
虺	-10.7147
渭	-10.7149
祇	-10.715
夸	-10.7151
俎	-10.7151
傳曰按	-10.7151
膳	-10.7152
展	-10.7152
衮	-10.7152
昴	-10.7153
糞	-10.7153
座	-10.7154
爰	-10.7154
孫子註解卷之	-10.7154
囿	-10.7155
雒	-10.7156
嶺	-10.7156
纏	-10.7157
算	-10.7157
今從范王本	-10.7158
愠	-10.7158
瑟	-10.7161
羌	-10.7161
三爲成意	-10.7164
療	-10.7164
聰明	-10.7166
共工	-10.7166
準繩	-10.7169
然後可	-10.7179
徯	-10.7183
太上感應篇卷之	-10.7187
二爲思中	-10.7195
布施	-10.7209
長丈	-10.7219
冬夏	-10.7223
無以異	-10.7226
加之以	-10.723
互相	-10.7232
二星	-10.7236
千餘	-10.7237
既濟	-10.7239
斗杓	-10.7243
神化	-10.7245
丈人	-10.7251
勇力	-10.7255
合戰	-10.726
死生之	-10.7267
不拘	-10.7276
仙經	-10.7278
視聽	-10.7289
託於	-10.7292
兩軍	-10.7305
玄黄	-10.7307
圓圖	-10.7309
分别	-10.7322
伐齊	-10.7346
矣抱朴子曰	-10.7347
修身	-10.7349
伏兵	-10.737
不可得而	-10.7392
兵强	-10.7394
三代之	-10.7396
權變	-10.7403
根本	-10.7407
在位	-10.7407
引兵	-10.7408
多力	-10.7408
雨水	-10.7418
言談	-10.7428
財物	-10.7428
學士	-10.7434
元始	-10.745
攻取	-10.746
後漢	-10.7467
辰為	-10.7472
賢士	-10.7482
或云	-10.7517
應變	-10.7518
匠人	-10.754
宰相	-10.7565
輕兵	-10.7582
一旦	-10.7606
衒	-10.7606
仲父	-10.7607
跌	-10.761
以我之	-10.7614
狎	-10.7617
堞	-10.7618
汎	-10.7623
説在	-10.7623
酬	-10.7623
旄	-10.7625
豺狼	-10.7627
死力	-10.7627
疽	-10.7629
庶人	-10.763
罕	-10.763
誇	-10.763
淄	-10.7632
亞	-10.7633
恍	-10.7635
霆	-10.7637
醇	-10.7637
恠	-10.7638
汲汲	-10.7639
縷	-10.764
司馬法曰	-10.764
滓	-10.764
呈	-10.764
午至亥	-10.764
蛾	-10.7641
蟠	-10.7641
蹊	-10.7642
殻	-10.7642
剪	-10.7642
龐涓	-10.7643
東西南北	-10.7643
筴	-10.7643
軻	-10.7644
紅	-10.7644
弭	-10.7646
遥	-10.7646
諛	-10.7646
枝葉	-10.7646
駮	-10.7647
蓮	-10.7647
棋	-10.7648
纖	-10.7648
絡	-10.7649
奔走	-10.7649
標	-10.7649
林宗	-10.765
肴	-10.765
爲人臣者	-10.765
出奇	-10.765
牒	-10.7651
輝	-10.7652
盗賊	-10.7654
辰星	-10.7655
肌膚	-10.7655
駒	-10.7656
虢	-10.7656
龐子曰	-10.7657
太簇	-10.7658
鹵	-10.7659
殽	-10.766
跙	-10.7661
縻	-10.7662
軔	-10.7664
朱鳥	-10.7665
先王之書	-10.7666
揭	-10.7668
祟	-10.7676
寂然	-10.7678
官爵	-10.7682
恐懼	-10.7682
次序	-10.7682
權衡	-10.7691
水銀	-10.7692
第六	-10.7698
守職	-10.7702
五嶽	-10.7702
莫見其	-10.7704
三苗	-10.7718
五寸	-10.7724
聖王之	-10.7725
平陸	-10.7728
十二會	-10.7729
兩端	-10.773
哉昔	-10.7743
百家	-10.7751
聲色	-10.7757
昇天	-10.7768
鬻子	-10.7785
卿相	-10.7798
高山	-10.7799
離散	-10.78
楚人謂	-10.7807
周禮	-10.7824
未盡	-10.7827
佛言	-10.783
其職	-10.7837
各異	-10.784
忽然	-10.7842
先聖	-10.7843
福德	-10.7846
天地人	-10.7877
太上感應篇卷之二十	-10.7885
反覆	-10.7888
千二百	-10.7888
可知矣	-10.7889
乘馬	-10.7899
身體	-10.7908
攻伐	-10.7932
三皇	-10.7946
〇天	-10.7957
觀其所	-10.7965
而示之	-10.7972
危亡	-10.7974
勿令	-10.7978
不能救	-10.7979
甚多	-10.7983
二字	-10.7993
智士	-10.8021
存焉	-10.8031
二十六	-10.8038
未定	-10.8038
一丸	-10.8058
杓	-10.8059
抱朴子外篇卷之三十	-10.8101
一寸	-10.8105
天地之中	-10.8106
情性	-10.8112
嗟	-10.8126
法制	-10.8128
二爲思中而當夜	-10.8148
戢	-10.8149
韓非子卷之十	-10.8149
燈	-10.8151
浚	-10.8152
呉	-10.8153
筐	-10.8153
駢	-10.8153
鍛	-10.8154
一百八十	-10.8156
舛	-10.8157
朋友	-10.8157
用兵之	-10.8157
艷	-10.8158
瑣	-10.8158
蘆	-10.8158
樽	-10.8158
干戈	-10.8159
怳	-10.816
夫唯	-10.816
蠃	-10.8161
弧	-10.8162
㝠㝠	-10.8162
棗	-10.8162
眷	-10.8163
籥	-10.8164
缾	-10.8164
螫	-10.8164
遑	-10.8165
悶	-10.8166
凋	-10.8166
娱	-10.8166
盈縮	-10.8167
弔	-10.8168
勒陽關	-10.8168
稻	-10.8169
飢渴	-10.8169
眄	-10.8169
甕	-10.817
亶	-10.817
夬	-10.8171
紈	-10.8171
巿	-10.8171
獺	-10.8172
姿	-10.8172
確	-10.8172
秤	-10.8172
齊桓	-10.8173
侏儒	-10.8173
何以知其然也	-10.8174
麋鹿	-10.8174
攝提	-10.8175
四千三百二十	-10.8176
梅	-10.8176
槃	-10.8176
擣	-10.8176
寶	-10.8176
霜雪	-10.8177
堯舜禹湯文武	-10.8177
蒼龍	-10.8177
訐	-10.8178
巴	-10.8178
諺	-10.8178
揖	-10.818
醴	-10.8182
卉	-10.8183
懾	-10.8183
認	-10.8184
庚辛	-10.8184
爾雅	-10.8187
閎	-10.8187
表裏	-10.8188
萬乘之	-10.8188
九竅	-10.8188
商鞅	-10.8188
巡	-10.8195
犀首	-10.82
玉帛	-10.8203
抱朴子内篇卷之十	-10.8203
用兵之法	-10.8211
知敵情	-10.8212
很	-10.8214
尋常	-10.8217
黄庭	-10.8225
五百歲	-10.8226
吴越	-10.8231
革車	-10.8234
申子	-10.8238
六十卦	-10.8255
星紀	-10.8257
對曰臣	-10.8267
獲罪	-10.8267
昭公	-10.8268
一周天	-10.828
第五	-10.8282
賢愚	-10.8282
精誠	-10.8293
千乘	-10.8297
數萬	-10.8307
千歳	-10.8308
假令	-10.8309
簡子	-10.8317
風俗	-10.832
黄老	-10.8324
抱朴子外篇卷之二十	-10.8338
勇士	-10.8344
神靈	-10.8348
大雪	-10.8353
各有所	-10.8367
弗敢	-10.8369
文字	-10.8389
莊王	-10.8392
惠子	-10.8404
太上感應篇卷之十	-10.842
眞君	-10.8421
入室	-10.8422
諸軍	-10.843
畏死	-10.8431
堅守	-10.8437
王小宋本	-10.8471
十步一	-10.8481
方術	-10.8491
十二次	-10.8498
不恃	-10.8528
上古	-10.8549
不倦	-10.8569
嚴刑	-10.8612
豚	-10.8696
法術之士	-10.8697
孳	-10.8701
兢	-10.8703
嶮	-10.8703
踊	-10.8703
鵬	-10.8705
軒轅	-10.8707
珪	-10.8708
扈	-10.8709
六日七分	-10.871
妹	-10.8711
叱	-10.8712
垠	-10.8713
被髮	-10.8714
黔	-10.8714
埃	-10.8714
迴	-10.8715
阨	-10.8715
壼	-10.8716
逮至	-10.8716
沽	-10.8717
瘠	-10.8717
剌	-10.8718
堙	-10.8718
漉	-10.8718
鉛	-10.8719
螟	-10.8719
塊	-10.872
峙	-10.8721
袒	-10.8721
奄	-10.8721
倨	-10.8721
蠱	-10.8722
蠻	-10.8722
琴瑟	-10.8722
咫尺	-10.8723
廐	-10.8723
天原發微卷之十	-10.8723
沾	-10.8724
倕	-10.8724
闡	-10.8724
祼	-10.8725
勘	-10.8725
増	-10.8725
矞	-10.8725
怛	-10.8725
金木水火	-10.8726
驂	-10.8726
鷙	-10.8726
蹤	-10.8726
夙	-10.8726
岫	-10.8727
姚	-10.8727
孽	-10.8727
亨	-10.8727
鑚	-10.8727
匝	-10.8727
斫	-10.8728
課	-10.8729
雷電	-10.8729
璜	-10.8729
犢	-10.8729
蔑	-10.873
遮	-10.8731
日月五星	-10.8731
托	-10.8731
廟堂	-10.8731
萍	-10.8733
彩	-10.8733
楚師	-10.8733
悴	-10.8733
爪牙	-10.8733
純粹	-10.8735
躓	-10.8735
裨	-10.8735
袁	-10.8736
收歛	-10.8737
恍惚	-10.8738
九疇	-10.8738
閱	-10.874
江海	-10.874
今從王本	-10.874
埒	-10.8742
脆	-10.8744
庳	-10.8744
鶉火	-10.8744
左右前後	-10.8745
臧獲	-10.8746
主君之	-10.8747
夏后氏	-10.8748
欠	-10.8748
凉風	-10.8749
倉卒	-10.8749
勇怯	-10.8749
鯉	-10.8749
蔭	-10.875
迂直	-10.8752
供養	-10.8753
紫房	-10.8754
夔	-10.8755
粮	-10.876
財貨	-10.876
某甲	-10.8764
右轉	-10.8766
儀表	-10.8767
官職	-10.8771
程子	-10.8773
斷穀	-10.8776
向背	-10.8776
吕尚	-10.878
白刃	-10.8782
畜積	-10.8789
適足以	-10.8792
勞苦	-10.8792
離朱	-10.8794
北面	-10.8815
軍旅	-10.8824
十斤	-10.8834
樹木	-10.8834
復歸	-10.8862
林木	-10.8865
百一十	-10.8891
在天為	-10.8896
政教	-10.8901
目視	-10.8921
子房	-10.8925
工夫	-10.8932
縣令	-10.8935
晦日	-10.8995
五十步	-10.9009
人主之所	-10.9022
始皇	-10.9039
知識	-10.904
第七	-10.9074
是以聖人	-10.9107
此五者	-10.92
諮	-10.9289
个	-10.9291
粒	-10.9292
舅犯	-10.9293
嘔	-10.9293
評	-10.9294
縞	-10.9296
廊	-10.9296
軾	-10.9296
喑	-10.9299
闚	-10.93
憫	-10.93
淹	-10.93
賁育	-10.93
奸	-10.9301
嘘	-10.9301
撻	-10.9302
謳	-10.9302
潘	-10.9303
魚鼈	-10.9303
六七八九	-10.9303
翦	-10.9304
謟	-10.9305
拓	-10.9305
穽	-10.9305
楹	-10.9306
控	-10.9306
輦	-10.9306
泛	-10.9306
子至巳	-10.9306
乹	-10.9306
鹹	-10.9306
齋鮑雲龍景翔編著虚谷方回萬里校正	-10.9307
巵	-10.9307
黒	-10.9307
瑩	-10.9308
雲梯	-10.9308
犧牲	-10.9308
礫	-10.9309
四海之内	-10.931
涯	-10.931
甄	-10.931
珥	-10.931
瓜	-10.931
遯	-10.9311
岡	-10.9311
袖	-10.9311
涓	-10.9311
毫釐	-10.9311
贛	-10.9311
陣	-10.9312
揖讓	-10.9312
吟	-10.9312
挂	-10.9313
錐	-10.9315
繭	-10.9316
剔	-10.9316
塹	-10.9316
抄	-10.9317
怡	-10.9317
二百一十六	-10.9317
宙	-10.9318
禆	-10.9318
肌	-10.9318
愎	-10.9318
髓	-10.9318
厄	-10.9318
桎梏	-10.9319
現	-10.9319
敝	-10.9319
譁	-10.9319
頰	-10.9319
逹	-10.932
昩	-10.9321
俛	-10.9322
聊	-10.9323
稼穡	-10.9323
茹	-10.9323
蟹	-10.9324
螻	-10.9324
導引	-10.9325
七十二候	-10.9326
蛟龍	-10.9326
哭泣	-10.9327
項羽	-10.9327
蘇秦	-10.9327
鶡	-10.9328
殉	-10.9328
觜	-10.9329
千里之外	-10.9329
璣	-10.9329
隧	-10.9329
詢	-10.9331
妓	-10.9332
戊己	-10.9332
貺	-10.9332
今天下之士君子	-10.9334
乎抱朴子答曰	-10.9335
翻	-10.9336
哇	-10.9336
縱横	-10.9336
泥丸	-10.9337
御史	-10.9337
忠孝	-10.934
十餘年	-10.9342
趙襄子	-10.9343
覘	-10.9343
黄泉	-10.9345
紐	-10.9346
嵩山	-10.9349
劉向	-10.9352
江南	-10.9352
張子曰	-10.9354
卑賤	-10.9354
秋冬	-10.9355
孰知其	-10.9356
清靜	-10.9357
能如是乎	-10.9363
因縁	-10.9365
一舉而	-10.937
易牙	-10.9373
刑戮	-10.9374
河伯	-10.9376
眞武	-10.9382
隂司	-10.9389
餓死	-10.9396
專任	-10.9414
唯聖人	-10.9415
方寸	-10.9421
今王公大人	-10.9424
先王之道	-10.9436
太歲	-10.9437
相繼	-10.9458
荆山	-10.9474
東海	-10.9484
父毋	-10.9485
使之然	-10.9501
百病	-10.9501
愚智	-10.9573
三百日	-10.9731
王孫	-10.9765
巧詐	-10.9773
還丹	-10.9776
宋陸本	-10.9889
酤	-10.9908
飈	-10.991
芥	-10.9911
聆	-10.9911
二百五十六	-10.9915
剡	-10.9919
邃	-10.992
勛	-10.992
荼	-10.9921
驟	-10.9922
䕶	-10.9922
碑	-10.9922
彦	-10.9923
三百八十四	-10.9923
楚莊王	-10.9923
頡	-10.9923
銘	-10.9925
鰥	-10.9925
烽	-10.9925
騶	-10.9926
炮	-10.9927
輼	-10.9927
跖	-10.9928
竪	-10.9928
浹	-10.9928
周公旦	-10.9929
騖	-10.9929
掣	-10.9929
衣裳	-10.993
貝	-10.9931
歩	-10.9931
擲	-10.9932
鉞	-10.9932
馳騁	-10.9933
檀	-10.9933
扃	-10.9934
鍵	-10.9934
糟	-10.9934
謌	-10.9934
涵	-10.9935
讙	-10.9935
厠	-10.9936
一陰一陽	-10.9936
吿	-10.9937
透	-10.9937
雍季	-10.9938
驢	-10.9938
綜	-10.9938
苓	-10.9939
嵗	-10.9939
蚑	-10.9939
悼	-10.9939
鵠	-10.994
榆	-10.994
孺	-10.994
墟	-10.994
堤	-10.994
犠	-10.994
㡬	-10.9941
復姤	-10.9941
吻	-10.9942
二百四十	-10.9942
醴泉	-10.9942
三百六十五度四分度之一	-10.9944
惻隱	-10.9944
籌	-10.9945
捶	-10.9945
暝	-10.9946
黙	-10.9946
猪	-10.9947
焕	-10.9947
磐	-10.9947
摯	-10.9947
蹏	-10.9948
姜	-10.9948
覿	-10.9948
潞	-10.9949
涅	-10.9949
猒	-10.995
故下文云	-10.995
謫	-10.9951
琢	-10.9951
長幼	-10.9952
猿	-10.9954
諸葛	-10.9954
燼	-10.9954
偪	-10.9956
偕	-10.9956
汾	-10.9956
黄石公	-10.9956
偽	-10.9957
齋戒	-10.9957
劾	-10.9958
論語曰	-10.996
未戰而	-10.996
八十一首	-10.996
玉液	-10.9961
迷惑	-10.9963
堁	-10.9964
鎮星	-10.9964
冥冥	-10.9964
嗟乎	-10.9967
不可勝計	-10.9972
羽翼	-10.9973
斬首	-10.9976
蠭	-10.9977
仲春	-10.998
之類是也	-10.9982
漸漸	-10.9984
矢石	-10.9989
榮華	-10.999
部曲	-10.9992
關梁	-10.9996
也范本作	-11.0008
長生之道	-11.0008
萬殊	-11.0008
糧食	-11.0014
莫之能	-11.0015
武侯	-11.0018
恩信	-11.0029
王莽	-11.0038
期年	-11.0042
賞賜	-11.0045
季氏	-11.0052
之治天下也	-11.0052
坎卦	-11.0063
第五十	-11.0161
又况	-11.0168
一爲思始而當夜	-11.0214
十有二	-11.0224
莊子	-11.0269
衆人之所	-11.0296
示之以	-11.0348
斗柄	-11.048
菽麥	-11.0574
惻	-11.0577
幅	-11.0577
昨	-11.058
顙	-11.0581
癘	-11.0581
吳	-11.0583
摽	-11.0583
礥	-11.0586
癡	-11.0587
褻	-11.0588
屨	-11.0588
霤	-11.0589
恂	-11.0589
黷	-11.0589
嘲	-11.0589
絜	-11.059
企	-11.059
蠅	-11.0592
暉	-11.0592
猨	-11.0593
柏	-11.0593
蚊	-11.0595
箸	-11.0595
元凱	-11.0595
嚚	-11.0596
蜜	-11.0596
竿	-11.0596
霞	-11.0597
榛	-11.0597
俞	-11.0597
二百五十二	-11.0598
璋	-11.0598
矧	-11.0598
洩	-11.0598
自上而下	-11.0599
譟	-11.0599
餓鬼	-11.0599
僥	-11.0599
褊	-11.0599
澆	-11.06
鉅	-11.06
濤	-11.06
春夏秋冬	-11.0601
矰	-11.0601
纓	-11.0601
狐狸	-11.0601
瞑	-11.0602
錘	-11.0602
厦	-11.0603
侣	-11.0603
慙	-11.0603
伊川	-11.0603
轍	-11.0604
番	-11.0605
樊	-11.0605
冲	-11.0606
老聃	-11.0606
騄	-11.0606
螘	-11.0607
鮑叔	-11.0607
勑	-11.0607
挹	-11.0607
架	-11.0607
添	-11.0607
囂	-11.0608
優劣	-11.0608
腥	-11.0608
毗	-11.0609
塵埃	-11.0609
贄	-11.0609
需	-11.0609
婿	-11.061
涔	-11.0611
刻鏤	-11.0611
樗	-11.0613
殯	-11.0613
蔟	-11.0613
烏獲	-11.0614
態	-11.0614
賦歛	-11.0614
協	-11.0615
糾	-11.0616
厚葬久喪	-11.0616
清淨	-11.0616
遞	-11.0617
昬	-11.0618
武王伐紂	-11.0618
額	-11.0619
蹄	-11.0619
翊	-11.062
五居盛位	-11.062
窾	-11.062
臧否	-11.0622
猛獸	-11.0622
儼	-11.0623
廣狹	-11.0623
戸	-11.0623
孔墨	-11.0624
伉	-11.0624
冀州	-11.0626
太廟	-11.0627
恁	-11.0627
阪	-11.0628
雁	-11.0629
齦	-11.063
六爲上禄	-11.0631
諜	-11.0633
孫武	-11.0635
張氏曰	-11.0638
小兒	-11.064
澒	-11.0641
二爲思中而當晝君子	-11.0643
張儀	-11.0645
口訣	-11.0649
無極而太極	-11.065
四正卦	-11.0651
彊弱	-11.066
龍蛇	-11.066
殺戮	-11.0662
柔弱	-11.0662
傅說	-11.0668
李斯	-11.0685
〇何氏曰如	-11.0698
良久	-11.0714
鶉首	-11.0742
問其故	-11.0911
可得而知	-11.1004
豺	-11.1273
昻	-11.1282
秃	-11.1286
梗	-11.1291
溶	-11.1293
莫大焉	-11.1293
檻	-11.1293
鼃	-11.1297
奈	-11.1298
刳	-11.1299
堅刁	-11.1299
徼	-11.1301
湘	-11.1302
踴	-11.1303
猜	-11.1303
波濤	-11.1304
巽離兌	-11.1304
愴	-11.1304
沫	-11.1305
其卦為	-11.1305
蒿	-11.1306
千仞	-11.1306
膠漆	-11.1306
跀	-11.1307
坂	-11.1307
袴	-11.1308
曳	-11.1308
巍巍	-11.1308
軼	-11.1308
㦸	-11.1309
曄	-11.1309
蹙	-11.131
村	-11.131
豫章	-11.131
胞	-11.1312
是可爲乎	-11.1312
鬚	-11.1313
挽	-11.1314
蝮	-11.1314
顚	-11.1314
川谷	-11.1314
魅	-11.1314
岷	-11.1315
帑	-11.1315
臯陶	-11.1315
媒	-11.1316
佻	-11.1317
玄光玉女	-11.1318
凖	-11.1318
芻豢	-11.1319
蔬	-11.1319
沐浴	-11.1319
爨	-11.1319
猾	-11.132
涿	-11.1321
壻	-11.1321
慰	-11.1322
壟	-11.1322
彫	-11.1322
盂	-11.1322
殁	-11.1322
筮	-11.1323
縫	-11.1323
祚	-11.1324
突厥	-11.1324
懇	-11.1325
躋	-11.1325
薩	-11.1325
粟米	-11.1326
杼	-11.1327
㪷	-11.1327
芻狗	-11.1328
七八九六	-11.1329
隴	-11.1329
絹	-11.1329
杭	-11.133
軰	-11.133
以此觀之	-11.1331
辤	-11.1331
鉗	-11.1331
瓠	-11.1332
雕琢	-11.1332
幻	-11.1332
瘖	-11.1332
趾	-11.1332
伊吕	-11.1334
荄	-11.1335
鷙鳥	-11.1336
郞	-11.1339
耨	-11.1339
良醫	-11.134
晋平公	-11.1341
萬乘之主	-11.1343
黼黻	-11.1343
為敵所	-11.1343
鍊形	-11.1344
鯀	-11.1344
忿爭	-11.1344
教導	-11.1345
溉	-11.1345
鍾鼓	-11.1345
諷	-11.1346
庚申	-11.1346
咸池	-11.1347
迦	-11.1347
虧盈	-11.1347
郯	-11.1347
耎	-11.1348
太公望	-11.135
啗	-11.1351
渾沌	-11.1352
齧	-11.1354
咎犯	-11.1359
六藝	-11.1359
太史	-11.136
螮	-11.1362
勤苦	-11.1364
歐陽	-11.1364
征伐	-11.1367
漢末	-11.1368
薛公	-11.1369
今從諸家王曰	-11.1371
𠮷	-11.1373
金銀	-11.1374
斥澤	-11.1388
兩箇	-11.1394
形骸	-11.1425
尺五寸	-11.1463
二宋陸	-11.1759
肖	-11.1993
梅堯臣	-11.2026
攖	-11.2038
蜃	-11.2052
氣質之性	-11.2054
曹操	-11.2055
纂	-11.2056
否泰	-11.2056
公輸盤	-11.2057
蚓	-11.2058
瞿	-11.206
丘園	-11.206
菟	-11.2062
舅姑	-11.2063
緬	-11.2065
埴	-11.2066
蹲	-11.2066
鷃	-11.2067
慶賞	-11.2068
舟楫	-11.2069
翺翔	-11.2069
瞋	-11.2069
彝倫	-11.207
乾坤坎離	-11.207
魔	-11.2071
殞	-11.2072
扞	-11.2072
朞	-11.2072
邁	-11.2073
橈	-11.2074
沂	-11.2074
昵	-11.2074
撮	-11.2074
裕	-11.2074
噫	-11.2075
漕	-11.2075
五帝三王	-11.2076
埵	-11.2076
椽	-11.2076
詬	-11.2077
括囊	-11.2078
陬	-11.208
北宫子	-11.208
掉	-11.208
飴	-11.208
騏驥	-11.2081
蹉	-11.2081
入敵境	-11.2081
换	-11.2081
躔	-11.2081
䦯	-11.2082
酆	-11.2082
昆蟲	-11.2083
比肩	-11.2083
觚	-11.2083
讃	-11.2083
九九八十一	-11.2083
出其不意	-11.2083
金液還丹	-11.2083
概	-11.2084
淚	-11.2084
寖	-11.2084
韻	-11.2084
今從二宋陸本	-11.2084
雌雄	-11.2084
卞	-11.2085
錮	-11.2085
迪	-11.2086
驛	-11.2086
漣	-11.2086
恬愉	-11.2086
蠢	-11.2086
庇	-11.2087
鮪	-11.2087
則如之何武曰	-11.2087
俛仰	-11.2087
箴	-11.2087
捍	-11.2087
暘	-11.2087
蠡	-11.2087
閶闔	-11.2087
鶩	-11.2087
自下而上	-11.2088
菱	-11.2088
羡	-11.2088
幣帛	-11.2088
僮	-11.2088
畋	-11.2088
怵	-11.2088
聯	-11.2088
逋	-11.209
恱	-11.209
蜺	-11.209
啄	-11.209
璇	-11.209
橑	-11.209
別	-11.2091
綏	-11.2091
湍	-11.2091
逵	-11.2091
䰟	-11.2092
靖郭君	-11.2092
逞	-11.2092
茫	-11.2092
餅	-11.2092
豢	-11.2093
厮	-11.2094
揲	-11.2094
昆弟	-11.2094
膊	-11.2094
𥘉	-11.2095
攪	-11.2095
濱	-11.2095
齡	-11.2095
稚	-11.2095
挐	-11.2095
賓客	-11.2096
橘	-11.2096
㣲	-11.2097
一刀圭	-11.2097
佃	-11.2097
鳶	-11.2097
玄枵	-11.2098
暴虐	-11.2098
鞅	-11.2098
俸	-11.2098
准	-11.2098
核	-11.2098
貍	-11.2098
傴	-11.2098
干戚	-11.2099
窘	-11.2099
卿大夫	-11.2099
崑	-11.21
雹	-11.21
鱣	-11.21
由是觀之	-11.2101
費仲	-11.2101
侔	-11.2101
油	-11.2101
貉	-11.2101
賑	-11.2102
蒼頡	-11.2103
降婁	-11.2103
榜	-11.2103
蕤賓	-11.2103
千鈞	-11.2104
九爲禍極	-11.2104
日之光	-11.2104
沼	-11.2104
一動一静	-11.2104
六過中而當夜	-11.2104
鬼魅	-11.2105
禪師	-11.2106
混沌	-11.2106
強	-11.2107
集註太玄經卷之	-11.2107
肘後	-11.2108
角亢	-11.2108
營壘	-11.2108
齊景公	-11.2109
紀綱	-11.2109
希夷	-11.2109
秦穆公	-11.2112
坦	-11.2113
卜筮	-11.2114
唐太宗	-11.2115
葱	-11.2115
菊	-11.2116
元會運世	-11.2116
傳曰太上	-11.2116
慈母	-11.2117
㩖	-11.2118
太尉	-11.2122
押	-11.2122
毛羽	-11.2125
公孫鞅	-11.2127
趙奢	-11.2127
慎勿	-11.2128
侏	-11.2132
有力者	-11.2167
則其義也	-11.2204
公曰寡人	-11.2399
十餘萬	-11.2814
媪	-11.2834
憾	-11.289
藜藿	-11.289
盤旋	-11.2894
拭	-11.2895
袂	-11.2896
隻	-11.2896
緼	-11.2896
芸	-11.2897
嘿	-11.2897
嚼	-11.2897
槐	-11.2899
甯	-11.29
恰	-11.29
疋	-11.29
韱	-11.2902
鍼	-11.2904
嗤	-11.2904
衽	-11.2904
蛩	-11.2907
蒞	-11.2908
五十有五	-11.2908
綽	-11.2909
夫是之謂	-11.2909
轄	-11.2909
月與之晨出東方	-11.2909
爲對太隂在	-11.2909
笏	-11.291
鉢	-11.291
恊	-11.291
兕虎	-11.291
穎	-11.291
跛	-11.291
湎	-11.2911
縵	-11.2911
猥	-11.2912
刈	-11.2912
㸃	-11.2912
笞	-11.2912
叫	-11.2912
鼎俎	-11.2912
郤	-11.2913
垤	-11.2913
昱	-11.2913
苞	-11.2913
罘	-11.2914
鈴	-11.2914
𨱆	-11.2915
孛	-11.2915
鴛	-11.2915
豪傑	-11.2915
紆	-11.2916
紘	-11.2916
羔	-11.2916
航	-11.2916
吮	-11.2918
歆	-11.2918
揺	-11.2918
穗	-11.2918
一夕夢	-11.2918
謨	-11.2919
詈	-11.2919
券	-11.2919
隄	-11.292
忮	-11.292
莢	-11.292
𥙷	-11.292
趙簡子	-11.292
家性爲	-11.292
墾	-11.2921
糠	-11.2921
弑其君	-11.2921
何以明之	-11.2921
狖	-11.2921
輅	-11.2921
螾	-11.2921
怙	-11.2922
姻	-11.2922
一日一夜	-11.2922
斗斛	-11.2922
太上感應篇	-11.2922
罝	-11.2923
彭蠡	-11.2924
鴻鵠	-11.2924
渚	-11.2924
鶉尾	-11.2924
碣	-11.2924
贈	-11.2924
布帛	-11.2924
蕩蕩	-11.2924
京房	-11.2925
穫	-11.2925
閲	-11.2926
冐頓	-11.2926
弓矢	-11.2926
臺榭	-11.2926
驍	-11.2927
懿	-11.2927
龜鶴	-11.2927
萇弘	-11.2928
兖	-11.2928
蝯	-11.2928
蠆	-11.2928
葭	-11.2929
影響	-11.2929
葅	-11.293
濛	-11.293
坼	-11.293
甲冑	-11.293
窒	-11.293
廟堂之上	-11.293
位律中	-11.2931
堵	-11.2932
今有人於此	-11.2932
月失政	-11.2932
蝦	-11.2933
鞶	-11.2933
曇	-11.2933
蛙	-11.2933
治隂官右	-11.2933
驚蟄	-11.2934
三爲思終	-11.2934
嫫	-11.2934
唾	-11.2935
僣	-11.2935
裴	-11.2935
蘧	-11.2936
錣	-11.2936
瓶	-11.2937
塚	-11.2937
笄	-11.2937
紾	-11.2937
兑	-11.2938
鎰	-11.2939
詎	-11.2941
繇	-11.2942
茵	-11.2943
嬖	-11.2944
跨	-11.2948
胏	-11.2959
菲	-11.2959
鶉	-11.3642
睒	-11.3784
薺	-11.3785
帳	-11.3795
槀	-11.38
栖	-11.38
耒	-11.38
鋸	-11.3801
螭	-11.3802
皎	-11.3804
債	-11.3805
騃	-11.3808
倖	-11.3809
尫	-11.3811
憒	-11.3813
喈	-11.3813
查	-11.3815
麽	-11.3816
泮	-11.3817
粥	-11.3818
啞	-11.3818
莠	-11.3819
溼	-11.3819
阮	-11.3819
忻	-11.3819
峰	-11.3819
慼	-11.382
髀	-11.382
泳	-11.382
醒	-11.382
嶷	-11.382
臼	-11.3821
磁	-11.3821
訕	-11.3821
噪	-11.3822
汰	-11.3822
譯	-11.3823
灘	-11.3823
擿	-11.3823
扼	-11.3823
遨	-11.3824
洫	-11.3824
狠	-11.3824
勺	-11.3825
儻	-11.3825
戇	-11.3825
札	-11.3826
懴	-11.3827
稀	-11.3827
吠	-11.3828
脇	-11.3828
壚	-11.3828
淊	-11.3828
譙	-11.3829
兎	-11.3829
垓	-11.383
骭	-11.383
凢	-11.383
猴	-11.383
罄	-11.383
租	-11.3831
棠	-11.3831
屍	-11.3831
礬	-11.3831
歙	-11.3832
埶	-11.3833
楮	-11.3833
燠	-11.3834
錞	-11.3834
腑	-11.3835
衾	-11.3835
絓	-11.3835
霖	-11.3836
婉	-11.3836
皂	-11.3836
沬	-11.3836
蹷	-11.3836
匕	-11.3837
湣	-11.3838
謡	-11.3838
昂	-11.3839
漚	-11.3839
掛	-11.3839
浣	-11.3839
慊	-11.384
攀	-11.384
薰	-11.384
泯	-11.3841
奠	-11.3841
籙	-11.3841
駐	-11.3842
礪	-11.3842
蜩	-11.3842
懽	-11.3844
翫	-11.3845
暍	-11.3845
衞	-11.3848
甌	-11.3848
叚	-11.3849
脱	-11.3849
宥	-11.3849
惱	-11.3849
撤	-11.385
釘	-11.385
誌	-11.385
畒	-11.3851
爍	-11.3852
啖	-11.3852
嚭	-11.3852
祗	-11.3852
販	-11.3853
蔣	-11.3854
驩	-11.3855
隰	-11.3881
蒯	-11.4773
紏	-11.4789
鼉	-11.4796
蝡	-11.4799
坡	-11.48
綃	-11.4805
筦	-11.4806
咀	-11.4806
隼	-11.4811
臾	-11.4811
陜	-11.4812
縶	-11.4812
鎬	-11.4814
艘	-11.4815
㮣	-11.4816
庾	-11.4816
嘯	-11.4816
葵	-11.4816
衷	-11.4816
鳯	-11.4817
盃	-11.4817
盾	-11.4817
憶	-11.4818
慄	-11.4818
祁	-11.4818
蟾	-11.4819
齕	-11.482
堰	-11.482
笙	-11.4821
懟	-11.4821
徭	-11.4821
剽	-11.4821
搢	-11.4822
仆	-11.4823
緇	-11.4823
蝱	-11.4823
湊	-11.4824
蔓	-11.4824
旃	-11.4824
闉	-11.4825
穡	-11.4825
睫	-11.4825
郵	-11.4826
蠬	-11.4826
系	-11.4826
綵	-11.4826
磔	-11.4827
擔	-11.4827
弁	-11.4827
杵	-11.4827
鞀	-11.4827
煦	-11.4828
薨	-11.4829
▲	-11.4829
倏	-11.483
詮	-11.483
盪	-11.4831
仿	-11.4831
劓	-11.4831
駔	-11.4831
貲	-11.4831
縠	-11.4831
眯	-11.4832
讐	-11.4832
祛	-11.4832
簪	-11.4832
擯	-11.4832
雋	-11.4833
𨓜	-11.4834
哆	-11.4834
鋭	-11.4834
些	-11.4834
飡	-11.4834
悒	-11.4835
塘	-11.4835
豁	-11.4835
冤	-11.4836
饜	-11.4836
瀕	-11.4836
駁	-11.4837
炤	-11.4837
蜋	-11.4837
笈	-11.4837
籬	-11.4838
冉	-11.4838
枳	-11.4838
伴	-11.4838
罩	-11.4839
涌	-11.4839
幄	-11.4839
芟	-11.484
恡	-11.4841
洎	-11.4841
檝	-11.4842
鞠	-11.4842
韈	-11.4842
覃	-11.4842
慤	-11.4842
𡨚	-11.4842
攓	-11.4842
惛	-11.4843
楨	-11.4843
稠	-11.4843
掊	-11.4844
軵	-11.4846
掖	-11.4847
蓏	-11.4848
韯	-11.4848
饕	-11.4848
潮	-11.4848
鈇	-11.4849
嘬	-11.4849
熬	-11.485
杏	-11.485
呵	-11.485
殪	-11.4851
徂	-11.4851
舂	-11.4852
它	-11.4854
汶	-11.4854
層	-11.4856
冡	-11.4857
翣	-11.486
嚇	-11.4861
胼	-11.4861
䝉	-11.4864
蹪	-11.4869
窴	-11.4872
央	-11.5817
朓	-11.588
礛	-11.5899
陛	-11.5902
螣	-11.5907
囷	-11.5907
舄	-11.5908
蚈	-11.591
蟒	-11.591
羑	-11.5911
敕	-11.5914
抮	-11.5915
鯨	-11.5916
郈	-11.5916
倪	-11.5917
緡	-11.5919
愍	-11.592
砭	-11.592
嬪	-11.592
倮	-11.5922
翹	-11.5922
頴	-11.5922
勲	-11.5922
畿	-11.5923
覈	-11.5923
繹	-11.5923
膺	-11.5925
涇	-11.5925
絺	-11.5925
軄	-11.5926
絰	-11.5926
院	-11.5927
嘈	-11.5927
窬	-11.5927
宓	-11.5927
麑	-11.5928
榻	-11.5928
婬	-11.5929
嬈	-11.5929
縈	-11.593
厝	-11.593
扛	-11.593
砂	-11.593
劌	-11.5931
飆	-11.5931
寛	-11.5932
甑	-11.5933
耆	-11.5933
梵	-11.5933
棧	-11.5934
衂	-11.5934
宂	-11.5935
勣	-11.5935
沿	-11.5935
貽	-11.5935
紿	-11.5936
愉	-11.5937
醯	-11.5937
蚌	-11.5937
齎	-11.5938
蝗	-11.5938
泓	-11.5938
榭	-11.5938
件	-11.5938
鴆	-11.5938
摛	-11.5939
鞫	-11.5939
毆	-11.5939
鸚	-11.5939
謚	-11.5939
岱	-11.5939
姊	-11.594
穉	-11.594
閹	-11.594
瀨	-11.594
賄	-11.594
鸇	-11.594
吁	-11.5941
肘	-11.5941
蟯	-11.5941
綬	-11.5941
汩	-11.5942
㕔	-11.5942
吊	-11.5942
紊	-11.5942
𦆵	-11.5942
捲	-11.5942
訶	-11.5942
欬	-11.5943
攄	-11.5943
㬰	-11.5943
彬	-11.5943
呌	-11.5944
貂	-11.5945
培	-11.5945
謐	-11.5945
樛	-11.5945
歧	-11.5945
瑰	-11.5945
斜	-11.5946
諏	-11.5946
傭	-11.5947
坱	-11.5947
霑	-11.5947
扎	-11.5947
儔	-11.5947
藐	-11.5947
輜	-11.5948
製	-11.5949
娥	-11.5949
猗	-11.5949
鋪	-11.5949
螳	-11.595
熯	-11.595
歃	-11.595
陁	-11.595
彍	-11.5951
哺	-11.5952
黂	-11.5952
瓮	-11.5953
兜	-11.5953
滂	-11.5953
孩	-11.5953
鏑	-11.5955
酈	-11.5955
筠	-11.5955
瑗	-11.5955
澠	-11.5955
蛻	-11.5955
鴦	-11.5956
凈	-11.5956
柚	-11.5957
竺	-11.5958
僖	-11.5958
腊	-11.5958
鯁	-11.5958
糅	-11.5959
柝	-11.596
媧	-11.5961
蜚	-11.5962
籟	-11.5962
絆	-11.5962
捧	-11.5963
笥	-11.5963
巔	-11.5964
狷	-11.5964
豨	-11.5964
夀	-11.5965
蛛	-11.5965
狧	-11.5966
钁	-11.5966
喁	-11.5968
箎	-11.5969
揉	-11.597
彤	-11.5972
汨	-11.5974
屑	-11.5978
玦	-11.598
隗	-11.5981
蛡	-11.5981
蛉	-11.5982
弸	-11.5993
棊	-11.5999
柘	-11.7134
惇	-11.7157
罌	-11.7157
缻	-11.716
麓	-11.7161
歉	-11.7162
琬	-11.7163
臏	-11.7166
椿	-11.7168
袍	-11.7169
簋	-11.717
穹	-11.717
床	-11.7171
鱓	-11.7171
嗚	-11.7172
黥	-11.7172
㗖	-11.7172
藜	-11.7173
憯	-11.7173
幃	-11.7173
愷	-11.7174
螢	-11.7174
罡	-11.7175
种	-11.7175
悝	-11.7176
靳	-11.7178
醪	-11.7178
刮	-11.7178
批	-11.7179
釀	-11.7179
僂	-11.7179
鋤	-11.7181
扢	-11.7181
歇	-11.7181
蒺	-11.7181
覬	-11.7182
虵	-11.7182
潼	-11.7182
閡	-11.7182
喋	-11.7182
尠	-11.7183
册	-11.7183
跼	-11.7183
萎	-11.7184
鑊	-11.7184
銑	-11.7185
蕙	-11.7185
彝	-11.7186
錙	-11.7186
諒	-11.7187
裊	-11.7187
刎	-11.7187
拆	-11.7187
閩	-11.7187
糝	-11.7188
縑	-11.7188
篋	-11.7188
驎	-11.7188
擐	-11.7188
遶	-11.7189
躆	-11.7189
悦	-11.7189
宏	-11.7189
鉦	-11.719
錬	-11.7191
浦	-11.7191
詆	-11.7191
瑾	-11.7192
儕	-11.7192
曝	-11.7192
諦	-11.7192
閻	-11.7193
刊	-11.7193
忝	-11.7193
瓴	-11.7194
廵	-11.7194
甸	-11.7194
犂	-11.7194
柰	-11.7194
饉	-11.7194
窳	-11.7195
緝	-11.7195
茸	-11.7195
娉	-11.7196
逄	-11.7198
僦	-11.7198
盻	-11.7198
莘	-11.7198
炫	-11.7198
鬢	-11.7198
肇	-11.7198
术	-11.7199
煗	-11.7199
緘	-11.72
躄	-11.72
檄	-11.7201
濊	-11.7202
蘖	-11.7202
掎	-11.7202
薶	-11.7202
隈	-11.7202
𨽻	-11.7203
漱	-11.7204
呴	-11.7204
儺	-11.7205
臠	-11.7205
洮	-11.7205
邅	-11.7205
𤓰	-11.7206
箱	-11.7206
塜	-11.7206
浙	-11.7207
粢	-11.7207
埤	-11.7208
婺	-11.7209
肓	-11.7209
蜾	-11.7209
簞	-11.7209
肚	-11.721
暈	-11.721
猫	-11.7211
溥	-11.7211
糵	-11.7212
聿	-11.7213
麛	-11.7213
冗	-11.7214
欄	-11.7214
旒	-11.7215
坊	-11.7216
摹	-11.7216
翡	-11.7216
餔	-11.7217
衘	-11.722
墝	-11.7221
楝	-11.7222
熲	-11.7223
蠧	-11.7225
髪	-11.7225
恛	-11.7229
顫	-11.723
晞	-11.7232
廖	-11.7234
窯	-11.8545
眥	-11.857
𡛖	-11.8571
轔	-11.8575
惽	-11.8577
誖	-11.8578
璨	-11.8583
裸	-11.8585
摭	-11.8587
諍	-11.8588
烟	-11.8589
峯	-11.8589
蟁	-11.8589
沓	-11.859
梢	-11.859
纁	-11.8591
鼷	-11.8591
徤	-11.8591
軋	-11.8592
陌	-11.8593
詛	-11.8593
瑜	-11.8594
燃	-11.8594
縗	-11.8595
舳	-11.8595
艫	-11.8595
嫚	-11.8596
紳	-11.8597
邠	-11.8598
菖	-11.8598
餗	-11.8599
繒	-11.86
螺	-11.86
軛	-11.86
悸	-11.86
乂	-11.86
銓	-11.8601
痺	-11.8602
娘	-11.8603
髠	-11.8603
㝷	-11.8603
慟	-11.8603
澮	-11.8603
㧞	-11.8604
耘	-11.8604
勗	-11.8605
兀	-11.8606
姒	-11.8607
雚	-11.8607
賾	-11.8607
纊	-11.8607
㪍	-11.8607
鷇	-11.8608
兇	-11.8608
閫	-11.8609
蚣	-11.8609
刁	-11.8609
茝	-11.8609
霰	-11.861
㹠	-11.861
睨	-11.861
悚	-11.861
譛	-11.861
涪	-11.861
跗	-11.8611
啜	-11.8612
摻	-11.8612
蟇	-11.8612
鳧	-11.8612
颺	-11.8612
滎	-11.8613
麴	-11.8613
滕	-11.8613
儈	-11.8613
淇	-11.8613
耐	-11.8614
斐	-11.8614
税	-11.8615
𥹋	-11.8615
笠	-11.8615
鏌	-11.8615
盱	-11.8615
湧	-11.8616
遄	-11.8616
溷	-11.8616
嚬	-11.8616
楫	-11.8617
洹	-11.8617
團	-11.8618
閒	-11.8618
霽	-11.8618
晃	-11.8618
杠	-11.8618
嬉	-11.8619
嘷	-11.8619
衿	-11.8619
跣	-11.8619
倅	-11.8619
儋	-11.8619
芙	-11.8619
𦔳	-11.8619
訥	-11.862
銛	-11.862
柢	-11.862
檠	-11.862
涂	-11.862
鶻	-11.8621
瓢	-11.8621
瞳	-11.8621
絀	-11.8621
纎	-11.8621
瀁	-11.8622
纚	-11.8622
傚	-11.8623
洒	-11.8623
嬾	-11.8623
酪	-11.8624
涣	-11.8624
坏	-11.8625
楞	-11.8625
蠲	-11.8625
寘	-11.8625
蜉	-11.8625
刷	-11.8626
渥	-11.8627
戕	-11.8627
皺	-11.8627
紲	-11.8627
萇	-11.8627
亘	-11.8627
糲	-11.8628
匈	-11.8628
鯤	-11.8628
稔	-11.8628
茍	-11.8628
檐	-11.8628
梨	-11.863
琅	-11.863
隍	-11.863
鄢	-11.863
鷦	-11.863
磑	-11.8631
搔	-11.8631
燄	-11.8631
陪	-11.8631
蔈	-11.8631
糊	-11.8631
冐	-11.8632
襦	-11.8633
瘗	-11.8633
悵	-11.8633
插	-11.8633
肪	-11.8634
迓	-11.8635
紗	-11.8636
䇿	-11.8638
駱	-11.8639
犁	-11.8639
輓	-11.8639
殛	-11.8639
杞	-11.864
羶	-11.864
宼	-11.8641
孑	-11.8643
饌	-11.8644
櫛	-11.8644
𢙅	-11.8644
燋	-11.8645
藁	-11.8649
彖	-11.8651
蒂	-11.8652
邸	-11.8652
姝	-11.8652
蓆	-11.8653
呱	-11.8655
跰	-11.8655
袀	-11.8656
觟	-11.8658
窖	-11.8658
僭	-11.8661
櫟	-11.8664
繘	-11.8673
蝠	-11.8677
頷	-11.8682
擸	-11.8684
輆	-11.8694
䂦	-11.8715
輴	-11.8717
漲	-12.0195
篆	-12.0236
棓	-12.024
蕢	-12.0244
𠜾	-12.0244
擘	-12.0246
橢	-12.0246
澀	-12.0247
閈	-12.0251
庠	-12.0251
㐜	-12.0253
玷	-12.0255
剄	-12.0256
騮	-12.0256
簇	-12.0257
誚	-12.0257
飭	-12.0257
渉	-12.0257
烝	-12.0257
軺	-12.0257
𦊙	-12.0258
雝	-12.0258
僵	-12.0258
邢	-12.0259
鋌	-12.0261
莎	-12.0262
濘	-12.0262
剞	-12.0262
唇	-12.0263
藿	-12.0264
攢	-12.0264
殳	-12.0264
鈐	-12.0264
侖	-12.0264
龔	-12.0266
盼	-12.0266
蓉	-12.0266
漳	-12.0267
寔	-12.0268
嶢	-12.0268
巍	-12.0269
泗	-12.0269
絫	-12.0269
搶	-12.027
纑	-12.0271
鴞	-12.0271
愽	-12.0271
慿	-12.0271
霹	-12.0272
馭	-12.0272
鷺	-12.0272
糺	-12.0273
嫡	-12.0273
扆	-12.0273
倣	-12.0274
蘿	-12.0274
廅	-12.0274
鍜	-12.0274
篨	-12.0274
暐	-12.0274
犴	-12.0274
闞	-12.0275
剃	-12.0275
匣	-12.0275
鸛	-12.0275
㩣	-12.0275
鬯	-12.0276
斁	-12.0276
軟	-12.0276
髴	-12.0276
攜	-12.0276
剗	-12.0277
琰	-12.0278
盎	-12.0278
氂	-12.0278
隽	-12.0278
鉏	-12.0278
騷	-12.0278
鄶	-12.0278
綣	-12.0278
醖	-12.0278
瘦	-12.028
潛	-12.028
姧	-12.028
焰	-12.028
撝	-12.028
忉	-12.028
沔	-12.0281
迸	-12.0281
佼	-12.0281
抒	-12.0281
枋	-12.0281
簮	-12.0281
啼	-12.0281
剱	-12.0282
疊	-12.0282
杌	-12.0282
犒	-12.0282
媾	-12.0283
㛰	-12.0283
涼	-12.0283
劃	-12.0283
珮	-12.0284
閤	-12.0284
栝	-12.0284
嗑	-12.0285
狩	-12.0285
譚	-12.0286
栽	-12.0286
鄆	-12.0287
頼	-12.0287
杳	-12.0287
莧	-12.0287
伽	-12.0289
𥚑	-12.0289
栅	-12.0289
屩	-12.0289
訛	-12.029
糴	-12.029
叡	-12.029
媿	-12.029
腕	-12.029
𣗳	-12.029
茨	-12.0291
緊	-12.0291
揀	-12.0291
繪	-12.0291
絭	-12.0291
吒	-12.0292
斟	-12.0293
𥿄	-12.0293
禺	-12.0293
腫	-12.0293
迄	-12.0293
隠	-12.0293
𨃨	-12.0293
痾	-12.0294
鎭	-12.0294
沅	-12.0294
氓	-12.0295
㳙	-12.0295
蚋	-12.0295
篙	-12.0295
沌	-12.0296
島	-12.0296
搗	-12.0296
輗	-12.0296
雩	-12.0296
狶	-12.0297
蕤	-12.0297
臊	-12.0298
椀	-12.0298
摸	-12.0298
軏	-12.0298
欵	-12.0299
肱	-12.0301
虓	-12.0301
映	-12.0301
倩	-12.0301
畎	-12.0301
殤	-12.0301
枅	-12.0301
蝨	-12.0301
劵	-12.0302
蔀	-12.0303
揵	-12.0303
咄	-12.0303
甬	-12.0303
胔	-12.0304
劬	-12.0305
阼	-12.0305
蔂	-12.0306
瘟	-12.0306
埏	-12.0307
尟	-12.0307
祧	-12.0308
蕘	-12.0308
椒	-12.0308
址	-12.0308
胝	-12.0309
敞	-12.0309
擠	-12.0309
撚	-12.0309
侃	-12.031
蠕	-12.031
𢡖	-12.0312
牘	-12.0312
誾	-12.0312
翺	-12.0312
喘	-12.0313
怕	-12.0313
藎	-12.0313
複	-12.0313
讜	-12.0313
霓	-12.0314
奬	-12.0315
葺	-12.0315
覡	-12.0317
瀷	-12.0317
陀	-12.0318
薈	-12.0318
滄	-12.0322
孥	-12.0322
餱	-12.0323
儆	-12.0325
秆	-12.0325
坫	-12.0325
赨	-12.0326
喧	-12.0327
踤	-12.0328
鉒	-12.033
俶	-12.0331
𡻕	-12.0331
圎	-12.0332
濞	-12.0333
趹	-12.0334
䚦	-12.0335
悾	-12.0337
穩	-12.0342
朏	-12.035
㬆	-12.0352
嶁	-12.0352
䪻	-12.0352
荔	-12.2171
雊	-12.2197
翿	-12.2212
卹	-12.2228
佴	-12.2232
讟	-12.2232
蹴	-12.2233
媵	-12.2234
孱	-12.2239
紱	-12.2239
傒	-12.2242
畦	-12.2242
阬	-12.2245
牂	-12.2247
緜	-12.2248
筵	-12.2249
殥	-12.2249
鏻	-12.2249
蹐	-12.2251
賕	-12.2251
𧇊	-12.2252
凊	-12.2252
壃	-12.2254
舩	-12.2254
汚	-12.2254
嵇	-12.2255
診	-12.2255
摺	-12.2255
仮	-12.2256
着	-12.2257
徳	-12.2257
墉	-12.2258
么	-12.2258
錡	-12.2259
臟	-12.2259
鎖	-12.226
幘	-12.226
匏	-12.2261
滉	-12.2261
饟	-12.2261
鷁	-12.2261
雿	-12.2261
蹔	-12.2262
愕	-12.2263
楗	-12.2263
壍	-12.2263
煇	-12.2263
寑	-12.2265
擏	-12.2266
葈	-12.2266
瓏	-12.2267
兾	-12.2268
蛆	-12.2268
聵	-12.2269
抈	-12.2269
揫	-12.227
俳	-12.227
奭	-12.227
甽	-12.227
摐	-12.227
髯	-12.2271
摘	-12.2272
聒	-12.2272
悮	-12.2272
櫨	-12.2273
悁	-12.2273
蒐	-12.2273
怱	-12.2273
梳	-12.2273
黽	-12.2273
蹎	-12.2273
諄	-12.2274
遡	-12.2274
𩲸	-12.2274
殮	-12.2274
笛	-12.2274
獫	-12.2274
閙	-12.2275
坰	-12.2275
磋	-12.2275
覦	-12.2275
莙	-12.2275
贓	-12.2276
佗	-12.2277
桎	-12.2277
仳	-12.2277
髣	-12.2278
燐	-12.2278
濬	-12.2278
蝸	-12.2278
茶	-12.2279
線	-12.228
堆	-12.228
瞥	-12.228
褚	-12.228
菅	-12.228
鷂	-12.2281
灸	-12.2281
諝	-12.2281
鑱	-12.2281
噎	-12.2282
籧	-12.2282
偈	-12.2282
腯	-12.2283
迥	-12.2283
洶	-12.2283
甥	-12.2283
杚	-12.2283
猝	-12.2284
⬤	-12.2284
抃	-12.2284
玲	-12.2284
癰	-12.2284
絝	-12.2284
枘	-12.2284
盍	-12.2285
燾	-12.2285
蘢	-12.2285
溱	-12.2285
鏏	-12.2285
懌	-12.2286
箒	-12.2286
縳	-12.2286
潁	-12.2286
懐	-12.2286
儡	-12.2286
嚌	-12.2286
聶	-12.2287
瀾	-12.2287
堊	-12.2287
赭	-12.2287
頟	-12.2287
逅	-12.2288
鬬	-12.2288
罦	-12.2288
䟎	-12.2288
餕	-12.2288
𢙢	-12.2289
諤	-12.2289
崤	-12.2289
麞	-12.229
剟	-12.229
唤	-12.2291
噉	-12.2291
𥚹	-12.2292
洙	-12.2292
袤	-12.2292
睿	-12.2292
拳	-12.2293
冽	-12.2293
炬	-12.2293
黯	-12.2293
蜓	-12.2293
迨	-12.2294
陞	-12.2294
禰	-12.2294
癩	-12.2294
襟	-12.2295
泠	-12.2296
徠	-12.2296
貊	-12.2296
邳	-12.2296
嗔	-12.2297
觡	-12.2297
荻	-12.2297
㓪	-12.2297
黠	-12.2298
鞼	-12.2298
壠	-12.2298
娠	-12.2298
逜	-12.2298
晽	-12.2298
儷	-12.2299
翩	-12.2299
內	-12.2299
噣	-12.2299
筥	-12.2299
鏩	-12.2299
蓽	-12.23
鞍	-12.23
俓	-12.23
鼇	-12.23
胄	-12.2301
晡	-12.2301
殂	-12.2301
殲	-12.2301
綰	-12.2301
詡	-12.2301
麃	-12.2301
蒔	-12.2301
黻	-12.2302
瘳	-12.2302
丰	-12.2302
狢	-12.2303
迵	-12.2303
嗄	-12.2303
𨂜	-12.2304
桅	-12.2305
梲	-12.2305
頒	-12.2305
郁	-12.2306
痕	-12.2306
痊	-12.2306
窠	-12.2307
跬	-12.2307
訽	-12.2307
蹋	-12.2308
籩	-12.2308
綆	-12.2308
酗	-12.2308
睽	-12.2309
暨	-12.2309
挻	-12.231
𣯛	-12.231
嚘	-12.231
孀	-12.231
噞	-12.2311
廞	-12.2312
昳	-12.2312
莅	-12.2313
寰	-12.2313
杲	-12.2313
黧	-12.2314
傉	-12.2314
嗃	-12.2315
醲	-12.2316
換	-12.2318
繦	-12.2318
飫	-12.2319
塉	-12.2321
蠟	-12.2322
沲	-12.2324
磧	-12.2325
瘧	-12.2326
薏	-12.2327
鷰	-12.2327
斑	-12.2329
忣	-12.2329
淢	-12.233
𥢕	-12.2331
礜	-12.2333
柩	-12.2336
姙	-12.2336
奰	-12.2336
膂	-12.2339
㸑	-12.2341
敺	-12.2343
毈	-12.235
𪃿	-12.236
墠	-12.2363
㘩	-12.2367
頏	-12.2376
碬	-12.2379
鴽	-12.2396
憃	-12.4568
纉	-12.467
簴	-12.4707
酖	-12.4714
鮒	-12.4714
瀟	-12.4717
酇	-12.472
灟	-12.4726
餽	-12.4728
冑	-12.4729
埻	-12.473
惴	-12.473
嘖	-12.4737
糜	-12.4738
勦	-12.4739
彎	-12.4741
攅	-12.4741
荐	-12.4741
穌	-12.4742
棼	-12.4742
橡	-12.4743
鼔	-12.4743
䏶	-12.4744
篲	-12.4745
藺	-12.4746
阡	-12.4746
謔	-12.4747
嶇	-12.4748
躟	-12.4748
晁	-12.4749
裾	-12.4749
衺	-12.475
屣	-12.475
渙	-12.475
藩	-12.4752
靻	-12.4752
瑋	-12.4753
姪	-12.4753
徊	-12.4754
撿	-12.4754
熠	-12.4755
朒	-12.4756
湏	-12.4756
渟	-12.4756
躅	-12.4756
涒	-12.4756
岑	-12.4756
攋	-12.4756
槍	-12.4757
薑	-12.4758
旂	-12.4759
撩	-12.4759
紺	-12.4759
鉉	-12.4759
唁	-12.4759
瘉	-12.4759
鎸	-12.476
湔	-12.476
襌	-12.476
鷞	-12.476
焯	-12.476
煒	-12.476
𢜔	-12.4761
迒	-12.4761
憀	-12.4761
羂	-12.4762
鋩	-12.4762
鎛	-12.4762
廡	-12.4763
矇	-12.4763
僨	-12.4763
稟	-12.4763
鞞	-12.4763
飼	-12.4763
爝	-12.4763
縊	-12.4764
嫂	-12.4764
駡	-12.4764
舋	-12.4766
宸	-12.4766
椓	-12.4766
虔	-12.4766
誼	-12.4766
泫	-12.4767
飱	-12.4767
麫	-12.4767
貿	-12.4767
敲	-12.4767
箋	-12.4767
婀	-12.4767
𤦺	-12.4767
囑	-12.4767
跐	-12.4768
憍	-12.4768
隤	-12.4768
綦	-12.4768
𣏌	-12.4768
樠	-12.4768
蠖	-12.477
浼	-12.477
枷	-12.477
蠰	-12.477
巒	-12.477
茭	-12.477
袷	-12.477
𤤽	-12.4771
慣	-12.4771
蝎	-12.4771
櫂	-12.4771
粱	-12.4771
唼	-12.4771
迍	-12.4771
玃	-12.4771
狁	-12.4771
鼛	-12.4772
艶	-12.4772
紋	-12.4773
鑛	-12.4773
球	-12.4773
垝	-12.4774
叶	-12.4774
褰	-12.4775
聮	-12.4775
怍	-12.4775
巇	-12.4775
你	-12.4775
龎	-12.4775
勅	-12.4775
棿	-12.4775
踆	-12.4775
醠	-12.4775
邂	-12.4777
鵝	-12.4777
俘	-12.4777
淋	-12.4777
鎧	-12.4777
桴	-12.4778
楛	-12.4778
踣	-12.4778
紃	-12.4778
涖	-12.4778
耄	-12.4778
睚	-12.4779
胾	-12.4779
躊	-12.4779
騾	-12.4779
魃	-12.4779
綌	-12.4779
鎗	-12.478
忼	-12.478
諶	-12.478
𣎅	-12.478
訊	-12.4781
芰	-12.4781
樣	-12.4781
剉	-12.4781
桷	-12.4781
阤	-12.4781
跟	-12.4782
虆	-12.4782
衊	-12.4782
攬	-12.4782
荅	-12.4782
浄	-12.4782
鼙	-12.4782
碌	-12.4782
秪	-12.4782
燁	-12.4783
毳	-12.4784
疚	-12.4784
堀	-12.4784
猰	-12.4784
貐	-12.4784
漻	-12.4784
膲	-12.4784
紵	-12.4785
渺	-12.4785
藹	-12.4785
酢	-12.4785
斡	-12.4785
觝	-12.4785
苣	-12.4785
鍪	-12.4785
稜	-12.4786
狃	-12.4786
彀	-12.4786
鱉	-12.4786
簀	-12.4786
纆	-12.4786
馨	-12.4786
隮	-12.4786
芴	-12.4786
蜴	-12.4786
瀝	-12.4788
汭	-12.4788
剩	-12.4788
宕	-12.4788
棒	-12.4788
驁	-12.4788
澳	-12.4788
購	-12.4788
蓑	-12.4789
嚙	-12.4789
噐	-12.4789
慷	-12.4789
縟	-12.4789
焜	-12.4789
嗷	-12.479
䡖	-12.4791
𦵏	-12.4791
眠	-12.4791
湫	-12.4791
𠯒	-12.4791
𡵨	-12.4791
絮	-12.4792
踏	-12.4792
鈔	-12.4792
𢡚	-12.4792
醎	-12.4793
鴨	-12.4793
鑣	-12.4793
䧺	-12.4793
跱	-12.4793
邾	-12.4793
駏	-12.4793
眺	-12.4795
耜	-12.4795
沍	-12.4795
葷	-12.4795
蠋	-12.4795
龢	-12.4795
齲	-12.4796
捽	-12.4796
峽	-12.4796
祓	-12.4796
醬	-12.4796
剸	-12.4796
鉿	-12.4796
聃	-12.4797
搐	-12.4797
僑	-12.4797
㳅	-12.4798
蒢	-12.4798
廻	-12.4799
薔	-12.4799
韞	-12.4799
芮	-12.4799
瀏	-12.4799
㕹	-12.4799
䖏	-12.48
寃	-12.48
遫	-12.48
毬	-12.48
磕	-12.48
髫	-12.4802
婪	-12.4802
簾	-12.4802
倠	-12.4802
餼	-12.4802
榱	-12.4803
瘕	-12.4803
頊	-12.4804
諳	-12.4804
揄	-12.4804
牆	-12.4804
鐃	-12.4804
捻	-12.4806
飪	-12.4806
椁	-12.4806
傠	-12.4806
黼	-12.4807
埆	-12.4807
塔	-12.4807
𤑔	-12.4807
菆	-12.4809
旛	-12.4809
𣈆	-12.4809
傰	-12.4809
尖	-12.4809
𩥡	-12.4809
㨿	-12.481
瞰	-12.481
硥	-12.481
垁	-12.481
𦴑	-12.481
讖	-12.4811
弈	-12.4811
囓	-12.4811
碁	-12.4811
劗	-12.4811
跚	-12.4811
儵	-12.4813
彚	-12.4813
檟	-12.4813
癢	-12.4814
禋	-12.4814
朼	-12.4814
𠑩	-12.4814
湮	-12.4815
綉	-12.4816
魋	-12.4816
敘	-12.4817
醢	-12.4817
虫	-12.4818
腴	-12.4818
倜	-12.4818
搉	-12.482
催	-12.482
籃	-12.482
箠	-12.4821
蔏	-12.4821
觥	-12.4821
訬	-12.4821
逑	-12.4822
肋	-12.4822
滒	-12.4822
塤	-12.4824
踖	-12.4824
虻	-12.4825
蝟	-12.4825
朶	-12.4825
义	-12.4826
𥅠	-12.4827
堡	-12.4828
槽	-12.4829
估	-12.4829
坷	-12.4829
捬	-12.4831
箑	-12.4831
儃	-12.4832
𧋒	-12.4832
皋	-12.4834
坯	-12.4834
沆	-12.4834
蓲	-12.4836
𪖣	-12.4836
坽	-12.4838
槨	-12.4838
滴	-12.4839
戁	-12.4839
蟈	-12.484
欶	-12.484
嚖	-12.4842
㧓	-12.4842
黈	-12.4842
螽	-12.485
𦮼	-12.485
牷	-12.4852
樾	-12.4853
㒧	-12.4864
杘	-12.8012
𣆺	-12.8032
慱	-12.8033
睄	-12.8035
儠	-12.8037
䀹	-12.8043
銚	-12.8047
㷭	-12.8049
袃	-12.8055
氛	-12.8057
褥	-12.8057
煄	-12.8061
珧	-12.8061
翌	-12.8061
咆	-12.8064
攴	-12.8066
轢	-12.8066
䙝	-12.8066
鵂	-12.8066
鮫	-12.8066
獬	-12.8068
翎	-12.8068
礎	-12.8068
甂	-12.8068
胤	-12.8068
騕	-12.807
誋	-12.807
泌	-12.8072
譖	-12.8072
矟	-12.8072
咡	-12.8072
圻	-12.8072
蹯	-12.8074
妳	-12.8074
簣	-12.8074
枲	-12.8076
鰕	-12.8076
琪	-12.8076
店	-12.8078
鏃	-12.8078
歴	-12.8078
𨄍	-12.8078
枵	-12.8079
誂	-12.808
昃	-12.808
懋	-12.808
帕	-12.808
蘄	-12.808
呿	-12.808
曊	-12.808
慴	-12.8082
讌	-12.8082
哮	-12.8082
畀	-12.8082
嗅	-12.8082
柙	-12.8082
澶	-12.8082
霏	-12.8082
訢	-12.8082
鄠	-12.8082
羮	-12.8084
墯	-12.8084
琮	-12.8084
郛	-12.8085
恫	-12.8085
琦	-12.8086
矍	-12.8086
鷫	-12.8086
穸	-12.8087
儇	-12.8087
稹	-12.8087
沱	-12.8087
彧	-12.8087
狴	-12.8088
甜	-12.8089
賫	-12.8089
䁲	-12.8089
蹀	-12.8089
蹛	-12.8089
罹	-12.8091
𡨋	-12.8091
哿	-12.8091
皈	-12.8091
尪	-12.8091
蔶	-12.8091
皬	-12.8091
𥧲	-12.8091
緻	-12.8093
髦	-12.8093
裒	-12.8093
儛	-12.8093
覲	-12.8093
䟾	-12.8093
塼	-12.8093
愜	-12.8093
煮	-12.8093
蜥	-12.8093
椅	-12.8093
夤	-12.8093
抎	-12.8093
懊	-12.8095
珉	-12.8095
喝	-12.8095
汪	-12.8095
鎋	-12.8095
鎌	-12.8095
闥	-12.8095
鬛	-12.8095
毓	-12.8095
齅	-12.8095
瑱	-12.8095
𡵯	-12.8095
昫	-12.8097
捫	-12.8097
魘	-12.8097
稸	-12.8097
㩌	-12.8097
塡	-12.8097
蹍	-12.8097
逈	-12.8097
鰓	-12.8097
凰	-12.8098
祅	-12.8099
芊	-12.8099
琳	-12.8099
薇	-12.8099
絙	-12.8099
熛	-12.8099
叁	-12.8099
卨	-12.8099
掞	-12.8099
芃	-12.8099
䖟	-12.8101
溲	-12.8101
陊	-12.8101
徘	-12.8101
槖	-12.8101
纒	-12.8101
踳	-12.8101
㤥	-12.8101
娀	-12.8101
瓾	-12.8101
膎	-12.8101
鞈	-12.8101
𦕅	-12.8101
躐	-12.8103
侫	-12.8103
犇	-12.8103
慠	-12.8103
忙	-12.8103
鷗	-12.8103
爼	-12.8103
佇	-12.8103
倘	-12.8105
瓌	-12.8105
棖	-12.8105
賙	-12.8105
詁	-12.8105
仵	-12.8105
煥	-12.8105
𨲠	-12.8105
甀	-12.8105
瞀	-12.8105
蔰	-12.8105
靨	-12.8105
梏	-12.8107
𡖖	-12.8107
炷	-12.8107
愬	-12.8107
唶	-12.8107
湄	-12.8107
㘈	-12.8107
唭	-12.8107
侗	-12.8108
𢈔	-12.8109
䃺	-12.8109
猳	-12.8109
躑	-12.8109
㥄	-12.8109
蔕	-12.8109
懵	-12.8111
鑰	-12.8111
匙	-12.8111
櫪	-12.8111
胴	-12.8111
蹵	-12.8111
琱	-12.8111
聳	-12.8111
藕	-12.8111
𥨸	-12.8111
拶	-12.8111
芩	-12.8111
忖	-12.8111
湡	-12.8111
刓	-12.8112
蛺	-12.8112
惷	-12.8113
曙	-12.8113
潄	-12.8113
甓	-12.8113
讚	-12.8113
揳	-12.8113
㑺	-12.8113
䫏	-12.8113
捭	-12.8113
嬌	-12.8114
葩	-12.8114
娣	-12.8114
蚉	-12.8114
杝	-12.8114
濩	-12.8116
撦	-12.8116
撙	-12.8116
腋	-12.8116
孌	-12.8116
祉	-12.8116
簠	-12.8116
顒	-12.8116
瞬	-12.8116
縹	-12.8116
䕃	-12.8116
廼	-12.8116
禧	-12.8116
㓻	-12.8116
瀍	-12.8116
繢	-12.8118
騑	-12.8118
鏗	-12.8118
燻	-12.8118
腓	-12.8118
摋	-12.8118
綫	-12.8118
猋	-12.8118
罥	-12.8118
聴	-12.8118
𧩻	-12.8118
埳	-12.812
圂	-12.812
𠔃	-12.812
撾	-12.812
躣	-12.812
拄	-12.812
昉	-12.812
曬	-12.812
臑	-12.812
褓	-12.812
𤵜	-12.812
攉	-12.812
緂	-12.812
鐡	-12.812
掾	-12.8122
烜	-12.8122
畼	-12.8122
抉	-12.8122
嶲	-12.8122
抜	-12.8122
襁	-12.8122
頥	-12.8122
澣	-12.8122
晰	-12.8122
潯	-12.8122
硝	-12.8124
貛	-12.8124
屎	-12.8124
帙	-12.8124
話	-12.8124
㒵	-12.8124
礱	-12.8124
型	-12.8124
爟	-12.8124
狟	-12.8124
逕	-12.8124
銋	-12.8124
騵	-12.8124
殍	-12.8126
恙	-12.8126
碓	-12.8126
咋	-12.8126
慥	-12.8126
泏	-12.8126
纗	-12.8126
醋	-12.8126
駤	-12.8126
眹	-12.8128
漓	-12.8128
陔	-12.8128
蜯	-12.8128
汔	-12.8128
懶	-12.8128
撣	-12.8128
紇	-12.8128
驊	-12.8128
帔	-12.813
䖍	-12.813
緍	-12.813
耑	-12.813
蜄	-12.813
舘	-12.813
蕳	-12.813
遘	-12.813
逯	-12.813
咫	-12.813
俿	-12.8132
瑘	-12.8132
薊	-12.8132
罏	-12.8132
蹟	-12.8132
莩	-12.8134
溽	-12.8134
窅	-12.8134
縢	-12.8134
闓	-12.8134
刄	-12.8134
𣵡	-12.8134
櫃	-12.8134
絪	-12.8134
歾	-12.8134
苽	-12.8134
蕕	-12.8134
踹	-12.8134
媸	-12.8136
伋	-12.8136
楷	-12.8136
飂	-12.8136
慳	-12.8136
灖	-12.8136
芋	-12.8136
暱	-12.8137
崛	-12.8138
鏹	-12.8138
帖	-12.8138
帽	-12.8138
䋚	-12.8138
𢹂	-12.8138
羗	-12.8139
熺	-12.814
羃	-12.814
蛷	-12.814
逖	-12.814
鼽	-12.814
嵬	-12.8141
彪	-12.8141
瀉	-12.8141
笱	-12.8141
膻	-12.8141
悠	-12.8143
幨	-12.8143
泝	-12.8143
櫝	-12.8143
螚	-12.8143
詫	-12.8143
駻	-12.8143
紬	-12.8145
眚	-12.8145
槎	-12.8145
鵙	-12.8145
偓	-12.8145
𤠔	-12.8145
𦤺	-12.8147
哾	-12.8147
緰	-12.8147
蓂	-12.8147
蛁	-12.8147
鼦	-12.8147
蛄	-12.8149
炯	-12.8149
熨	-12.8149
簷	-12.8151
叠	-12.8151
唈	-12.8151
噴	-12.8151
捔	-12.8151
釂	-12.8153
眦	-12.8153
禓	-12.8153
蛭	-12.8153
䗓	-12.8153
臛	-12.8155
盥	-12.8155
删	-12.8155
蕡	-12.8155
駬	-12.8157
窶	-12.8157
𣲖	-12.8157
呬	-12.8157
蕎	-12.8157
詖	-12.8157
猘	-12.8159
璿	-12.8159
癭	-12.8159
骼	-12.8159
嶼	-12.8165
㹎	-12.8165
緺	-12.8165
𢆶	-12.8165
収	-12.8166
蛣	-12.8168
翾	-12.817
𥅡	-12.817
廋	-12.8172
醻	-12.8172
蟪	-12.8172
篅	-12.8172
仔	-12.8174
盬	-12.8176
桄	-12.8178
榘	-12.8178
㤰	-12.8178
蒻	-12.818
睥	-12.818
蘋	-12.8182
瘣	-12.8182
傂	-12.8186
隟	-12.8188
砋	-12.8188
縉	-12.819
巓	-12.8192
朂	-12.8197
嫭	-12.8199
茠	-12.8205
臿	-12.8211
巛	-12.8217
嘰	-12.8228
綢	-13.2914
卬	-13.2992
疱	-13.2993
噍	-13.3011
罻	-13.3011
幬	-13.3012
葴	-13.3012
簑	-13.3015
堨	-13.3015
𢷘	-13.3015
嘶	-13.3018
洼	-13.3018
伃	-13.3021
踔	-13.3027
蹗	-13.3027
嶵	-13.3033
訞	-13.3033
枻	-13.3034
捃	-13.3036
咈	-13.3037
蓯	-13.3039
蓁	-13.304
𨥲	-13.304
俚	-13.304
倔	-13.304
擥	-13.304
澈	-13.304
蹮	-13.304
賭	-13.3043
謲	-13.3043
餞	-13.3046
餬	-13.3046
蜻	-13.3046
澁	-13.3046
𧈳	-13.3046
滫	-13.3046
踽	-13.3046
啁	-13.3049
產	-13.3049
觳	-13.3052
瓘	-13.3052
嗛	-13.3055
𧨜	-13.3055
墽	-13.3055
畤	-13.3055
謇	-13.3055
丗	-13.3056
葪	-13.3056
椊	-13.3059
惔	-13.3059
䕫	-13.3059
恲	-13.3059
舲	-13.3059
賃	-13.3059
𥁞	-13.3059
厈	-13.3062
拖	-13.3062
櫜	-13.3062
豬	-13.3062
爆	-13.3065
閥	-13.3065
煅	-13.3065
憧	-13.3065
堦	-13.3068
𦉾	-13.3068
嶠	-13.3068
咺	-13.3068
姽	-13.3068
揍	-13.3068
擴	-13.3068
虯	-13.3068
迕	-13.3068
鍒	-13.3068
鎻	-13.3068
盞	-13.3071
鏁	-13.3071
粃	-13.3071
攏	-13.3071
㹖	-13.3071
呫	-13.3071
岌	-13.3071
楺	-13.3071
烱	-13.3071
牗	-13.3071
瞂	-13.3071
硜	-13.3071
硯	-13.3071
薆	-13.3071
𤏟	-13.3071
𦭼	-13.3071
佪	-13.3074
汴	-13.3074
緌	-13.3074
樅	-13.3074
黶	-13.3074
侻	-13.3074
盭	-13.3074
湟	-13.3077
袵	-13.3077
樐	-13.3077
暒	-13.3078
棹	-13.3078
殼	-13.3078
繶	-13.3078
醼	-13.3078
鶚	-13.3078
爇	-13.308
漑	-13.3081
窄	-13.3081
桶	-13.3081
幢	-13.3081
猷	-13.3081
舁	-13.3081
圪	-13.3081
抆	-13.3081
潏	-13.3081
睆	-13.3081
霣	-13.3081
陲	-13.3084
紟	-13.3084
䩜	-13.3084
亳	-13.3084
悢	-13.3084
晭	-13.3084
禨	-13.3084
枹	-13.3087
荏	-13.3087
淤	-13.3087
痔	-13.3087
罅	-13.3087
茲	-13.3087
俻	-13.3087
氊	-13.3087
㳏	-13.3087
曖	-13.3087
蚘	-13.3087
蜮	-13.3087
葶	-13.3089
𦊨	-13.309
苙	-13.309
麄	-13.309
𨤲	-13.309
鄣	-13.309
㘖	-13.309
唲	-13.309
嬗	-13.309
斆	-13.309
杕	-13.309
簵	-13.309
耰	-13.309
虋	-13.309
覇	-13.309
鐏	-13.309
顰	-13.309
𠟂	-13.309
𡫴	-13.309
漾	-13.3093
撅	-13.3093
焱	-13.3093
𧦽	-13.3093
㡳	-13.3093
敠	-13.3093
澧	-13.3093
篸	-13.3093
讁	-13.3093
舅	-13.3096
陝	-13.3096
搦	-13.3096
仡	-13.3096
潑	-13.3096
澖	-13.3096
濃	-13.3096
琛	-13.3096
褶	-13.3096
轙	-13.3096
黏	-13.3096
齏	-13.3096
𧩆	-13.3096
𨴗	-13.3096
暦	-13.3099
䜛	-13.3099
烕	-13.3099
慆	-13.31
趄	-13.31
擮	-13.31
槿	-13.31
蔘	-13.31
掔	-13.3103
虙	-13.3103
㕮	-13.3103
椹	-13.3103
兠	-13.3103
刲	-13.3103
剜	-13.3103
氈	-13.3103
浟	-13.3103
箔	-13.3103
殱	-13.3103
牌	-13.3103
䥶	-13.3103
牾	-13.3103
飜	-13.3103
㼜	-13.3103
姆	-13.3103
悄	-13.3103
摲	-13.3103
擎	-13.3103
淅	-13.3103
潝	-13.3103
璆	-13.3103
窐	-13.3103
詨	-13.3103
鬺	-13.3103
𠟣	-13.3103
𥲫	-13.3103
𥿉	-13.3103
𧍃	-13.3103
羆	-13.3105
鼬	-13.3105
惚	-13.3106
祑	-13.3106
鶬	-13.3106
啇	-13.3106
粈	-13.3106
躪	-13.3106
顗	-13.3106
𥬇	-13.3106
淼	-13.3106
薾	-13.3106
圮	-13.3106
惝	-13.3106
𦒿	-13.3106
𪔛	-13.3106
晴	-13.3106
蕁	-13.3106
朦	-13.3109
渇	-13.3109
貁	-13.3109
𦙴	-13.3109
㳂	-13.3109
佷	-13.3109
掀	-13.3109
卭	-13.3109
哈	-13.3109
垸	-13.3109
烑	-13.3109
薜	-13.3109
駙	-13.3109
𢶊	-13.3109
幀	-13.3112
柑	-13.3112
嚾	-13.3112
搤	-13.3112
腆	-13.3112
鸑	-13.3112
篾	-13.3112
咐	-13.3112
姮	-13.3112
悱	-13.3112
拉	-13.3112
拚	-13.3112
梱	-13.3112
牓	-13.3112
璹	-13.3112
錄	-13.3112
闌	-13.3112
篩	-13.3112
飊	-13.3115
芫	-13.3115
訂	-13.3115
嚂	-13.3115
馘	-13.3115
怫	-13.3115
椘	-13.3115
鱠	-13.3115
莚	-13.3115
撢	-13.3115
浯	-13.3115
觖	-13.3115
邙	-13.3115
鐍	-13.3115
顊	-13.3115
妯	-13.3118
闃	-13.3118
濺	-13.3118
𦍙	-13.3118
噩	-13.3118
捆	-13.3118
瑁	-13.3118
皰	-13.3118
菹	-13.3118
菼	-13.3118
衹	-13.3118
顱	-13.3118
痿	-13.3121
顣	-13.3122
䑕	-13.3122
䐜	-13.3122
噅	-13.3122
噆	-13.3122
妣	-13.3122
撟	-13.3122
繽	-13.3122
蕈	-13.3122
蘀	-13.3122
酹	-13.3122
粕	-13.3124
黣	-13.3125
壙	-13.3125
禇	-13.3125
蛔	-13.3125
栁	-13.3125
终	-13.3125
匵	-13.3125
臬	-13.3125
趫	-13.3125
𨼥	-13.3125
拏	-13.3125
甃	-13.3125
鄛	-13.3125
釤	-13.3125
𢚢	-13.3125
𦝢	-13.3125
𩃎	-13.3125
杻	-13.3125
觶	-13.3125
澍	-13.3127
剰	-13.3128
曵	-13.3128
醵	-13.3128
隲	-13.3128
膓	-13.3128
譌	-13.3128
䎚	-13.3128
份	-13.3128
噭	-13.3128
憺	-13.3128
栞	-13.3128
焄	-13.3128
碭	-13.3128
笮	-13.3128
繄	-13.3128
膩	-13.3128
萁	-13.3128
趑	-13.3128
郅	-13.3128
鍥	-13.3128
騤	-13.3128
𢅏	-13.3128
𤛛	-13.3128
㢘	-13.3131
擗	-13.3131
縋	-13.3131
唳	-13.3131
芼	-13.3131
哂	-13.3131
鞮	-13.3131
鱔	-13.3131
鷖	-13.3131
僈	-13.3131
憩	-13.3131
畸	-13.3131
虣	-13.3131
伶	-13.3131
呻	-13.3131
塪	-13.3131
挿	-13.3131
疕	-13.3131
㓨	-13.3131
㯶	-13.3131
啳	-13.3131
岠	-13.3131
惸	-13.3131
犞	-13.3131
茄	-13.3131
訇	-13.3131
軥	-13.3131
稉	-13.3131
凱	-13.3132
蹹	-13.3134
獐	-13.3134
纘	-13.3134
㳺	-13.3134
媮	-13.3134
砰	-13.3134
靣	-13.3134
椔	-13.3134
袨	-13.3134
闠	-13.3134
蒭	-13.3137
鞏	-13.3137
偁	-13.3137
吼	-13.3137
欷	-13.3137
愿	-13.3137
羯	-13.3137
跔	-13.3137
轘	-13.3137
鏦	-13.3137
髡	-13.3137
𤷡	-13.3137
猱	-13.314
擕	-13.314
曈	-13.314
糶	-13.314
鎚	-13.314
墅	-13.314
旆	-13.314
禘	-13.314
鬋	-13.314
麈	-13.314
塏	-13.3144
菁	-13.3144
塢	-13.3144
隃	-13.3144
倭	-13.3144
咼	-13.3144
瘢	-13.3144
瞠	-13.3144
綈	-13.3144
耇	-13.3144
荇	-13.3144
骫	-13.3144
𦯶	-13.3144
𥙿	-13.3146
蠏	-13.3147
幔	-13.3147
剬	-13.3147
胚	-13.3147
苕	-13.3147
蠍	-13.3147
陴	-13.3147
啑	-13.3147
姶	-13.3147
撌	-13.3147
榴	-13.3147
櫬	-13.3147
欋	-13.3147
滲	-13.3147
睘	-13.3147
睛	-13.3147
誄	-13.3147
踝	-13.3147
銶	-13.3147
蜆	-13.315
叨	-13.315
疢	-13.315
琨	-13.315
鵰	-13.315
沴	-13.315
獍	-13.315
甦	-13.315
菰	-13.315
𢪬	-13.315
驤	-13.3153
駈	-13.3153
瀛	-13.3153
岟	-13.3153
燮	-13.3153
藂	-13.3153
𠫤	-13.3153
䴸	-13.3153
劘	-13.3153
惓	-13.3153
晻	-13.3153
膿	-13.3153
讋	-13.3153
贕	-13.3153
彷	-13.3156
桒	-13.3156
䍧	-13.3156
慹	-13.3156
疈	-13.3156
竘	-13.3156
𠝜	-13.3156
𣐀	-13.3156
漶	-13.3159
觧	-13.3159
筯	-13.3159
莿	-13.3159
秬	-13.3159
侳	-13.3159
僉	-13.3159
慬	-13.3159
櫻	-13.3159
毇	-13.3159
汀	-13.3159
瀅	-13.3159
尃	-13.3162
綯	-13.3162
伷	-13.3162
欱	-13.3162
芠	-13.3162
蹰	-13.3166
毚	-13.3166
嘹	-13.3166
櫚	-13.3166
𢺡	-13.3166
𤍂	-13.3166
硬	-13.3169
筳	-13.3169
厖	-13.3169
鵾	-13.3172
霪	-13.3172
肬	-13.3172
薬	-13.3172
垀	-13.3172
藟	-13.3172
閶	-13.3174
趎	-13.3175
淬	-13.3175
𡌡	-13.3175
汋	-13.3178
絿	-13.3178
駎	-13.3178
随	-13.3181
嗁	-13.3185
撜	-13.3185
螬	-13.3185
𩉇	-13.3185
鸙	-13.3187
郫	-13.3188
幎	-13.3188
淌	-13.3188
𣍘	-13.3188
𣖂	-13.3191
稊	-13.3194
蜷	-13.3194
彠	-13.3194
憢	-13.3194
拗	-13.3197
眭	-13.3206
僰	-13.3207
糈	-13.3213
絻	-13.3216
浡	-13.3219
稗	-13.3232
崝	-13.3235
螈	-13.3238
璠	-13.3254
𠏄	-13.3257
鏵	-13.3263
侶	-13.3279
尻	-14.2785
䪥	-14.2873
筝	-14.2889
嫪	-14.2921
櫽	-14.2921
穟	-14.2937
肹	-14.2937
𩓣	-14.2944
𥼴	-14.2945
𥫱	-14.2946
𤸇	-14.2947
𣵀	-14.2948
𣛰	-14.2949
𢿛	-14.295
𢮎	-14.2951
𢦙	-14.2952
𡨽	-14.2953
𡙻	-14.2954
𡒄	-14.2955
𡁕	-14.2956
𠲮	-14.2957
龠	-14.2958
齷	-14.2959
齪	-14.296
伔	-14.2961
捌	-14.2961
朅	-14.2961
澘	-14.2961
齓	-14.2961
鼾	-14.2962
鼫	-14.2963
黓	-14.2964
鸎	-14.2965
鵻	-14.2966
鵞	-14.2967
鵜	-14.2968
㢡	-14.2969
欛	-14.2969
泡	-14.2969
鵀	-14.2969
鴡	-14.297
鳲	-14.2971
鳱	-14.2972
鮋	-14.2973
鬴	-14.2974
髑	-14.2975
髏	-14.2976
拃	-14.2977
睞	-14.2977
禡	-14.2977
糂	-14.2977
髊	-14.2977
驌	-14.2978
騻	-14.2979
騊	-14.298
駼	-14.2981
駃	-14.2982
馯	-14.2983
饘	-14.2984
㐫	-14.2985
坳	-14.2985
抬	-14.2985
摙	-14.2985
欃	-14.2985
眕	-14.2985
饅	-14.2985
餚	-14.2986
颻	-14.2987
韙	-14.2988
霩	-14.2989
阯	-14.299
鐔	-14.2991
鏘	-14.2992
㑷	-14.2993
䋴	-14.2993
匀	-14.2993
吡	-14.2993
晢	-14.2993
珂	-14.2993
罋	-14.2993
鍱	-14.2993
鉶	-14.2994
鈚	-14.2995
醨	-14.2996
酺	-14.2997
鄖	-14.2998
輳	-14.2999
豸	-14.3
㱙	-14.3001
壕	-14.3001
夣	-14.3001
妁	-14.3001
挨	-14.3001
揗	-14.3001
撕	-14.3001
朧	-14.3001
沚	-14.3001
礩	-14.3001
祏	-14.3001
籕	-14.3001
謦	-14.3001
謖	-14.3002
諞	-14.3003
誶	-14.3004
覸	-14.3005
裟	-14.3006
袈	-14.3007
蠳	-14.3008
娋	-14.3009
宮	-14.3009
曀	-14.3009
杆	-14.3009
沘	-14.3009
沺	-14.3009
漪	-14.3009
犖	-14.3009
琯	-14.3009
羝	-14.3009
蠩	-14.3009
蠛	-14.301
蠓	-14.3011
蟭	-14.3012
蝶	-14.3013
蝪	-14.3014
蜲	-14.3015
蜧	-14.3016
㨂	-14.3017
䠧	-14.3017
呷	-14.3017
哽	-14.3017
奩	-14.3017
媐	-14.3017
庻	-14.3017
愒	-14.3017
朁	-14.3017
棣	-14.3017
樁	-14.3017
熀	-14.3017
秕	-14.3017
筞	-14.3017
粧	-14.3017
蜣	-14.3017
蜎	-14.3018
蚙	-14.3019
藳	-14.302
薠	-14.3021
薉	-14.3022
蔵	-14.3023
蒹	-14.3024
㝝	-14.3025
䊇	-14.3025
俲	-14.3025
偩	-14.3025
懔	-14.3025
抖	-14.3025
拑	-14.3025
捥	-14.3025
揩	-14.3025
擻	-14.3025
柁	-14.3025
泪	-14.3025
濼	-14.3025
獮	-14.3025
癬	-14.3025
矔	-14.3025
禜	-14.3025
胅	-14.3025
蒱	-14.3025
莞	-14.3026
荑	-14.3027
茇	-14.3028
苫	-14.3029
苨	-14.303
苔	-14.3031
臀	-14.3032
㓕	-14.3033
㠀	-14.3033
㭘	-14.3033
䃴	-14.3033
䥢	-14.3033
亲	-14.3033
努	-14.3033
厽	-14.3033
嶔	-14.3033
廧	-14.3033
慔	-14.3033
揷	-14.3033
斨	-14.3033
斵	-14.3033
柞	-14.3033
棞	-14.3033
楴	-14.3033
榡	-14.3033
櫩	-14.3033
皷	-14.3033
磛	-14.3033
祩	-14.3033
緅	-14.3033
罽	-14.3033
膴	-14.3033
腔	-14.3034
腄	-14.3035
脁	-14.3036
緆	-14.3037
紞	-14.3038
籯	-14.3039
箘	-14.304
䑓	-14.3041
嘸	-14.3041
塯	-14.3041
奫	-14.3041
妝	-14.3041
崏	-14.3041
憿	-14.3041
柂	-14.3041
楑	-14.3041
橝	-14.3041
瀹	-14.3041
玊	-14.3041
磏	-14.3041
票	-14.3041
窿	-14.3041
筑	-14.3041
絣	-14.3041
綻	-14.3041
窫	-14.3041
窔	-14.3042
禎	-14.3043
碔	-14.3044
砆	-14.3045
矬	-14.3046
瞪	-14.3047
瞎	-14.3048
㕑	-14.3049
䗐	-14.3049
䧎	-14.3049
仄	-14.3049
佁	-14.3049
娌	-14.3049
幌	-14.3049
怚	-14.3049
惎	-14.3049
慜	-14.3049
戛	-14.3049
擄	-14.3049
槧	-14.3049
橦	-14.3049
殀	-14.3049
殗	-14.3049
殜	-14.3049
瀦	-14.3049
烘	-14.3049
獗	-14.3049
玘	-14.3049
玠	-14.3049
珈	-14.3049
瘄	-14.3049
礦	-14.3049
禠	-14.3049
秭	-14.3049
稌	-14.3049
窗	-14.3049
簟	-14.3049
籖	-14.3049
縝	-14.3049
缷	-14.3049
肎	-14.3049
胈	-14.3049
瞍	-14.3049
盩	-14.305
癥	-14.3051
癖	-14.3052
痰	-14.3053
畮	-14.3054
璃	-14.3055
琥	-14.3056
㦤	-14.3057
㧢	-14.3057
㩘	-14.3057
䖻	-14.3057
佈	-14.3057
僊	-14.3057
儓	-14.3057
呑	-14.3057
呡	-14.3057
塟	-14.3057
姗	-14.3057
宁	-14.3057
庀	-14.3057
恇	-14.3057
惄	-14.3057
惺	-14.3057
慺	-14.3057
憸	-14.3057
掬	-14.3057
撬	-14.3057
擡	-14.3057
枱	-14.3057
楔	-14.3057
樟	-14.3057
檖	-14.3057
檛	-14.3057
汱	-14.3057
滀	-14.3057
濵	-14.3057
犍	-14.3057
獖	-14.3057
璪	-14.3057
瓔	-14.3057
畡	-14.3057
畾	-14.3057
礭	-14.3057
絛	-14.3057
綪	-14.3057
琉	-14.3057
珣	-14.3058
珊	-14.3059
珀	-14.306
玗	-14.3061
獧	-14.3062
猵	-14.3063
煆	-14.3064
㤙	-14.3065
䄤	-14.3065
䋶	-14.3065
䔧	-14.3065
䕠	-14.3065
䣓	-14.3065
峿	-14.3065
廕	-14.3065
徟	-14.3065
憊	-14.3065
戹	-14.3065
扚	-14.3065
楪	-14.3065
牋	-14.3065
璩	-14.3065
畲	-14.3065
瘇	-14.3065
瘵	-14.3065
磊	-14.3065
筏	-14.3065
簉	-14.3065
灂	-14.3065
瀺	-14.3066
濠	-14.3067
澥	-14.3068
澡	-14.3069
滛	-14.307
溓	-14.3071
洧	-14.3072
㧀	-14.3073
偵	-14.3073
儁	-14.3073
喃	-14.3073
嫓	-14.3073
嫰	-14.3073
帬	-14.3073
忸	-14.3073
怩	-14.3073
愊	-14.3073
愝	-14.3073
戯	-14.3073
扑	-14.3073
抅	-14.3073
搓	-14.3073
敍	-14.3073
晲	-14.3073
曮	-14.3073
柅	-14.3073
柎	-14.3073
楓	-14.3073
橜	-14.3073
淥	-14.3073
爺	-14.3073
獠	-14.3073
珤	-14.3073
瓉	-14.3073
痏	-14.3073
祰	-14.3073
粻	-14.3073
綎	-14.3073
缿	-14.3073
羖	-14.3073
翽	-14.3073
耋	-14.3073
泜	-14.3073
汧	-14.3074
欂	-14.3075
橉	-14.3076
楬	-14.3077
楩	-14.3078
梣	-14.3079
桔	-14.308
䌫	-14.3081
卮	-14.3081
呢	-14.3081
奐	-14.3081
崗	-14.3081
嶕	-14.3081
异	-14.3081
抓	-14.3081
据	-14.3081
曁	-14.3081
棰	-14.3081
様	-14.3081
檳	-14.3081
沭	-14.3081
涎	-14.3081
涙	-14.3081
漩	-14.3081
澇	-14.3081
濆	-14.3081
瀧	-14.3081
燦	-14.3081
獾	-14.3081
疪	-14.3081
痍	-14.3081
睎	-14.3081
砌	-14.3081
箄	-14.3081
篚	-14.3081
篠	-14.3081
絅	-14.3081
緶	-14.3081
柸	-14.3081
柈	-14.3082
斿	-14.3083
斾	-14.3084
斮	-14.3085
攔	-14.3086
撠	-14.3087
撒	-14.3088
㝗	-14.3089
㧊	-14.3089
㫁	-14.3089
䂄	-14.3089
伾	-14.3089
刍	-14.3089
参	-14.3089
呐	-14.3089
呸	-14.3089
咳	-14.3089
唧	-14.3089
啾	-14.3089
夌	-14.3089
奓	-14.3089
姫	-14.3089
娜	-14.3089
庵	-14.3089
廿	-14.3089
懣	-14.3089
拍	-14.3089
挬	-14.3089
昞	-14.3089
机	-14.3089
柵	-14.3089
栭	-14.3089
楘	-14.3089
橄	-14.3089
歗	-14.3089
涽	-14.3089
濓	-14.3089
灧	-14.3089
煢	-14.3089
狪	-14.3089
獘	-14.3089
璅	-14.3089
瞭	-14.3089
硎	-14.3089
碍	-14.3089
磚	-14.3089
祜	-14.3089
筡	-14.3089
簒	-14.3089
糗	-14.3089
綳	-14.3089
縲	-14.3089
胜	-14.3089
輈	-14.3089
捖	-14.3089
捎	-14.309
抯	-14.3091
悃	-14.3092
怎	-14.3093
徨	-14.3094
庄	-14.3095
幗	-14.3096
㩴	-14.3097
㩷	-14.3097
㽵	-14.3097
偟	-14.3097
厓	-14.3097
听	-14.3097
塩	-14.3097
壩	-14.3097
妥	-14.3097
娛	-14.3097
嫩	-14.3097
愶	-14.3097
擪	-14.3097
攣	-14.3097
暄	-14.3097
杙	-14.3097
楄	-14.3097
槔	-14.3097
檸	-14.3097
沁	-14.3097
瀇	-14.3097
玳	-14.3097
畹	-14.3097
痡	-14.3097
盌	-14.3097
秫	-14.3097
簸	-14.3097
粤	-14.3097
紓	-14.3097
繾	-14.3097
嶧	-14.3097
崎	-14.3098
崆	-14.3099
峒	-14.31
岍	-14.3101
孋	-14.3102
嬛	-14.3103
嫥	-14.3104
㐲	-14.3105
㢮	-14.3105
㬋	-14.3105
伇	-14.3105
俔	-14.3105
冼	-14.3105
卻	-14.3105
厘	-14.3105
噓	-14.3105
噤	-14.3105
寗	-14.3105
尿	-14.3105
嵐	-14.3105
廑	-14.3105
廳	-14.3105
憝	-14.3105
扉	-14.3105
抨	-14.3105
拇	-14.3105
攵	-14.3105
晵	-14.3105
梜	-14.3105
殑	-14.3105
泚	-14.3105
淆	-14.3105
渣	-14.3105
滇	-14.3105
濳	-14.3105
灈	-14.3105
熄	-14.3105
璀	-14.3105
璲	-14.3105
瘍	-14.3105
礉	-14.3105
礓	-14.3105
筈	-14.3105
篬	-14.3105
簽	-14.3105
糩	-14.3105
罾	-14.3105
媳	-14.3105
娵	-14.3106
娟	-14.3107
奯	-14.3108
塲	-14.3109
堮	-14.311
嘄	-14.3111
喏	-14.3112
㓵	-14.3113
䄂	-14.3113
䈕	-14.3113
䌓	-14.3113
䠳	-14.3113
䦧	-14.3113
䨥	-14.3113
亷	-14.3113
仭	-14.3113
厩	-14.3113
叉	-14.3113
呂	-14.3113
唆	-14.3113
嗴	-14.3113
噏	-14.3113
嫘	-14.3113
尒	-14.3113
崥	-14.3113
帆	-14.3113
廩	-14.3113
怏	-14.3113
怬	-14.3113
惈	-14.3113
惋	-14.3113
愓	-14.3113
憇	-14.3113
憮	-14.3113
戡	-14.3113
攎	-14.3113
檮	-14.3113
淙	-14.3113
熳	-14.3113
犐	-14.3113
獱	-14.3113
畯	-14.3113
癃	-14.3113
碾	-14.3113
簌	-14.3113
粘	-14.3113
紩	-14.3113
絕	-14.3113
呶	-14.3113
厔	-14.3114
匷	-14.3115
勍	-14.3116
劂	-14.3117
剿	-14.3118
凛	-14.3119
冊	-14.312
㟭	-14.3121
㤗	-14.3121
凟	-14.3121
匄	-14.3121
匯	-14.3121
卸	-14.3121
吪	-14.3121
嵎	-14.3121
嶰	-14.3121
搬	-14.3121
槢	-14.3121
歔	-14.3121
歫	-14.3121
氤	-14.3121
氲	-14.3121
洄	-14.3121
洑	-14.3121
濜	-14.3121
瑇	-14.3121
璝	-14.3121
瘙	-14.3121
瘥	-14.3121
眎	-14.3121
瞶	-14.3121
窻	-14.3121
籤	-14.3121
籲	-14.3121
絽	-14.3121
罃	-14.3121
儌	-14.3121
傜	-14.3122
倆	-14.3123
侑	-14.3124
佾	-14.3125
佺	-14.3126
䧿	-14.3127
䛕	-14.3128
㢓	-14.3129
㱕	-14.3129
万	-14.3129
偞	-14.3129
儗	-14.3129
刼	-14.3129
厶	-14.3129
啥	-14.3129
喚	-14.3129
嚥	-14.3129
墣	-14.3129
姣	-14.3129
尙	-14.3129
巋	-14.3129
幡	-14.3129
怓	-14.3129
悗	-14.3129
拕	-14.3129
挃	-14.3129
捂	-14.3129
描	-14.3129
揠	-14.3129
摎	-14.3129
摜	-14.3129
摝	-14.3129
旻	-14.3129
梔	-14.3129
槱	-14.3129
樀	-14.3129
毕	-14.3129
瀬	-14.3129
爁	-14.3129
犗	-14.3129
猎	-14.3129
睇	-14.3129
祫	-14.3129
窊	-14.3129
笨	-14.3129
篕	-14.3129
篷	-14.3129
粳	-14.3129
𠹑	-14.3129
䇺	-14.3129
㨽	-14.313
𩥵	-14.3131
𧋈	-14.3132
𦾑	-14.3133
𦋯	-14.3134
𥌓	-14.3135
𣗥	-14.3136
䃘	-14.3137
䊸	-14.3137
䛟	-14.3137
䠙	-14.3137
䶧	-14.3137
丕	-14.3137
僬	-14.3137
凸	-14.3137
凹	-14.3137
嗈	-14.3137
嚈	-14.3137
嚏	-14.3137
塋	-14.3137
妲	-14.3137
姹	-14.3137
孿	-14.3137
寥	-14.3137
崞	-14.3137
幙	-14.3137
廥	-14.3137
彙	-14.3137
惘	-14.3137
憗	-14.3137
搴	-14.3137
楽	-14.3137
榰	-14.3137
檦	-14.3137
檽	-14.3137
欿	-14.3137
汐	-14.3137
渃	-14.3137
濰	-14.3137
燬	-14.3137
牱	-14.3137
甒	-14.3137
癉	-14.3137
砦	-14.3137
硤	-14.3137
磅	-14.3137
礴	-14.3137
祔	-14.3137
窚	-14.3137
箤	-14.3137
粺	-14.3137
紕	-14.3137
翛	-14.3137
胘	-14.3137
黴	-14.3137
鵒	-14.3138
鴝	-14.3139
驉	-14.314
鑕	-14.3141
醽	-14.3142
醟	-14.3143
醁	-14.3144
㗸	-14.3145
䅶	-14.3145
䲭	-14.3145
佹	-14.3145
侜	-14.3145
倛	-14.3145
净	-14.3145
劦	-14.3145
匭	-14.3145
呤	-14.3145
唵	-14.3145
喨	-14.3145
喫	-14.3145
囐	-14.3145
墌	-14.3145
墐	-14.3145
夥	-14.3145
媛	-14.3145
屚	-14.3145
崧	-14.3145
恔	-14.3145
撼	-14.3145
旡	-14.3145
昺	-14.3145
暾	-14.3145
柷	-14.3145
棳	-14.3145
樴	-14.3145
渌	-14.3145
溜	-14.3145
溧	-14.3145
狙	-14.3145
猬	-14.3145
獼	-14.3145
玫	-14.3145
瑧	-14.3145
瓿	-14.3145
甖	-14.3145
痒	-14.3145
癈	-14.3145
皿	-14.3145
眸	-14.3145
砳	-14.3145
祺	-14.3145
絢	-14.3145
翥	-14.3145
鄯	-14.3145
躇	-14.3146
賌	-14.3147
觿	-14.3148
蠉	-14.3149
蝘	-14.315
蝍	-14.3151
蓰	-14.3152
㢭	-14.3153
䄇	-14.3153
䆳	-14.3153
伹	-14.3153
傐	-14.3153
凭	-14.3153
剒	-14.3153
叮	-14.3153
吃	-14.3153
吽	-14.3153
哥	-14.3153
啐	-14.3153
嚀	-14.3153
囬	-14.3153
屐	-14.3153
徦	-14.3153
惣	-14.3153
找	-14.3153
柺	-14.3153
榣	-14.3153
欀	-14.3153
欝	-14.3153
淘	-14.3153
淸	-14.3153
渫	-14.3153
滃	-14.3153
熹	-14.3153
磷	-14.3153
禔	-14.3153
稙	-14.3153
筒	-14.3153
籜	-14.3153
綋	-14.3153
繺	-14.3153
胣	-14.3153
臚	-14.3153
繿	-14.3154
簨	-14.3155
稃	-14.3156
瘤	-14.3157
痼	-14.3158
琶	-14.3159
琵	-14.316
㒒	-14.3161
㩁	-14.3161
䏻	-14.3161
䤄	-14.3161
䲷	-14.3161
佝	-14.3161
呀	-14.3161
唏	-14.3161
嗽	-14.3161
囘	-14.3161
埇	-14.3161
埓	-14.3161
墊	-14.3161
婭	-14.3161
嫠	-14.3161
幰	-14.3161
庬	-14.3161
廛	-14.3161
徉	-14.3161
惹	-14.3161
捩	-14.3161
昕	-14.3161
柠	-14.3161
橿	-14.3161
渦	-14.3161
溯	-14.3161
瀋	-14.3161
獒	-14.3161
疼	-14.3161
稈	-14.3161
稭	-14.3161
縦	-14.3161
纛	-14.3161
琊	-14.3161
猖	-14.3162
歍	-14.3163
榼	-14.3164
棁	-14.3165
栒	-14.3166
挏	-14.3167
悇	-14.3168
䀨	-14.3169
俵	-14.3169
凄	-14.3169
劈	-14.3169
厫	-14.3169
扄	-14.3169
数	-14.3169
暎	-14.3169
桿	-14.3169
樑	-14.3169
淒	-14.3169
濇	-14.3169
瀸	-14.3169
牿	-14.3169
癲	-14.3169
皤	-14.3169
禊	-14.3169
粰	-14.3169
綖	-14.3169
緉	-14.3169
羵	-14.3169
肐	-14.3169
嶸	-14.3169
嵯	-14.317
嵒	-14.3171
崘	-14.3172
峴	-14.3173
屹	-14.3174
寨	-14.3175
媕	-14.3176
䁟	-14.3177
䦕	-14.3177
嘑	-14.3177
恧	-14.3177
扐	-14.3177
扡	-14.3177
梌	-14.3177
欹	-14.3177
殣	-14.3177
泒	-14.3177
獷	-14.3177
畨	-14.3177
皯	-14.3177
皴	-14.3177
窀	-14.3177
糒	-14.3177
綛	-14.3177
姐	-14.3177
塿	-14.3178
咤	-14.3179
侁	-14.318
仾	-14.3181
䝤	-14.3182
齶	-14.3183
齬	-14.3184
劄	-14.3185
墀	-14.3185
帀	-14.3185
滸	-14.3185
眙	-14.3185
絯	-14.3185
耔	-14.3185
齟	-14.3185
鵔	-14.3186
髻	-14.3187
骾	-14.3188
驀	-14.3189
馥	-14.319
餧	-14.3191
闍	-14.3192
䰢	-14.3193
圌	-14.3193
彛	-14.3193
彿	-14.3193
椑	-14.3193
歘	-14.3193
洌	-14.3193
畆	-14.3193
砮	-14.3193
糓	-14.3193
閽	-14.3193
鄂	-14.3194
邕	-14.3195
逡	-14.3196
躭	-14.3197
豉	-14.3198
諠	-14.3199
詻	-14.32
㟝	-14.3201
䱇	-14.3201
丄	-14.3201
傺	-14.3201
庒	-14.3201
廆	-14.3201
晬	-14.3201
沒	-14.3201
瀣	-14.3201
瀿	-14.3201
磻	-14.3201
訿	-14.3201
蝀	-14.3202
蚯	-14.3203
蘙	-14.3204
薎	-14.3205
芉	-14.3206
羇	-14.3207
繀	-14.3208
傖	-14.3209
慇	-14.3209
懃	-14.3209
攧	-14.3209
硟	-14.3209
緦	-14.3209
緱	-14.3209
翶	-14.3209
縿	-14.3209
簧	-14.321
筲	-14.3211
碕	-14.3212
碏	-14.3213
皛	-14.3214
瑊	-14.3215
獎	-14.3216
㺄	-14.3217
䗫	-14.3217
张	-14.3217
忲	-14.3217
拈	-14.3217
窋	-14.3217
獅	-14.3217
瀚	-14.3218
泱	-14.3219
毱	-14.322
棚	-14.3221
柟	-14.3222
攡	-14.3223
攙	-14.3224
埑	-14.3225
摿	-14.3225
瓚	-14.3225
瘻	-14.3225
眛	-14.3225
掜	-14.3226
扺	-14.3227
愀	-14.3228
惙	-14.3229
恓	-14.323
峩	-14.3231
宄	-14.3232
堇	-14.3233
儱	-14.3233
塒	-14.3233
椯	-14.3233
坌	-14.3234
嚶	-14.3235
咷	-14.3236
䱉	-14.3237
䏔	-14.3238
㒁	-14.3239
鷯	-14.324
魎	-14.3241
怜	-14.3241
魍	-14.3242
騠	-14.3243
靂	-14.3244
閃	-14.3245
邲	-14.3246
蟋	-14.3247
蟆	-14.3248
蟀	-14.3249
咵	-14.325
膀	-14.325
胱	-14.3251
翱	-14.3252
祲	-14.3253
睺	-14.3254
瘞	-14.3255
瑯	-14.3256
瑚	-14.3257
䈥	-14.3258
玕	-14.3258
煨	-14.3259
渤	-14.326
斌	-14.3261
巂	-14.3262
娑	-14.3263
佽	-14.3264
黛	-14.3265
嗺	-14.3266
鵡	-14.3266
髹	-14.3267
闒	-14.3268
闐	-14.3269
蟣	-14.327
蝣	-14.3271
蝙	-14.3272
蜍	-14.3273
愡	-14.3274
芽	-14.3274
瘀	-14.3275
狽	-14.3276
淝	-14.3277
泆	-14.3278
氾	-14.3279
旰	-14.328
忞	-14.3281
嶓	-14.3282
峥	-14.3283
啻	-14.3284
刹	-14.3285
亹	-14.3286
乜	-14.3287
㵱	-14.3288
𠾱	-14.3289
鶤	-14.329
餮	-14.3291
蜘	-14.3292
茯	-14.3293
肄	-14.3294
犓	-14.3295
煴	-14.3296
濂	-14.3297
䁝	-14.3298
湜	-14.3298
涬	-14.3298
橛	-14.3299
榑	-14.33
悛	-14.3301
峨	-14.3302
寞	-14.3303
嬙	-14.3304
嚳	-14.3305
唬	-14.3306
簦	-14.3306
丐	-14.3306
䚩	-14.3307
𢛅	-14.3308
麝	-14.3309
驃	-14.331
閬	-14.3311
腠	-14.3312
疣	-14.3313
洳	-14.3314
森	-14.3315
旭	-14.3316
悽	-14.3317
嘍	-14.3318
厀	-14.3319
㝱	-14.332
蓼	-14.3321
罛	-14.3322
硫	-14.3322
皡	-14.3323
憔	-14.3324
吭	-14.3325
麒	-14.3326
煌	-14.3327
騫	-14.3328
陘	-14.3329
璵	-14.333
絍	-14.333
痤	-14.3331
喟	-14.3332
匐	-14.3333
匍	-14.3334
秣	-14.3335
猩	-14.3336
紡	-14.3337
曏	-14.3338
轒	-14.3339
臆	-14.334
烙	-14.3341
囹	-14.3342
紜	-14.3343
鄲	-14.3344
邯	-14.3345
菩	-14.3346
逍	-14.3347
肢	-14.3348
晶	-14.3349
繚	-14.335
崙	-14.3351
皥	-14.3352
佑	-14.3353
皙	-14.3354
罣	-14.3354
