<unk>	0
<s>	0
</s>	0
之	-3.57122
也	-3.70692
/	-3.87865
而	-4.3029
以	-4.42419
(	-4.54062
)(	-4.57976
其	-4.58447
)	-4.61816
為	-4.72061
者	-4.72343
有	-4.80977
則	-4.90612
不	-4.94962
曰	-4.98592
言	-5.0768
於	-5.24337
人	-5.38386
此	-5.43992
無	-5.45854
故	-5.46906
云	-5.4795
反	-5.51856
是	-5.51916
矣	-5.6108
于	-5.65514
謂	-5.66861
大	-5.66893
如	-5.71071
與	-5.7212
在	-5.75798
○	-5.75979
王	-5.80077
我	-5.80139
音	-5.80519
一	-5.82619
自	-5.84339
皆	-5.85524
亦	-5.89585
所	-5.94013
子	-5.94166
作	-5.96511
然	-6.0113
又	-6.03209
非	-6.03678
詩	-6.11618
見	-6.19808
乎	-6.22066
時	-6.22383
行	-6.24994
上	-6.26938
既	-6.27176
同	-6.27233
至	-6.27552
今	-6.27662
相	-6.29124
中	-6.30295
下	-6.30464
事	-6.30913
得	-6.38184
公	-6.38233
乃	-6.38678
國	-6.39145
▁	-6.39555
用	-6.41291
樂	-6.42048
能	-6.42745
民	-6.42807
生	-6.42898
何	-6.42974
天	-6.44497
可	-6.45035
三	-6.45262
正	-6.45413
成	-6.49023
以為	-6.49735
猶	-6.50358
明	-6.50604
即	-6.51432
彼	-6.52107
文	-6.52338
禮	-6.53072
當	-6.54366
已	-6.55316
爲	-6.5644
周	-6.5653
及	-6.56749
從	-6.57459
二	-6.57536
本	-6.59485
爾	-6.60803
名	-6.62707
耳	-6.63139
出	-6.6319
君	-6.6519
來	-6.65447
女	-6.6631
居	-6.6708
心	-6.67123
焉	-6.67252
或	-6.68194
日	-6.69131
水	-6.70217
多	-6.70388
將	-6.70462
必	-6.71623
義	-6.73307
所以	-6.73859
氏	-6.74576
歸	-6.74707
意	-6.74731
字	-6.74826
未	-6.74977
君子	-6.75444
始	-6.7574
五	-6.75923
後	-6.75979
使	-6.76819
小	-6.77147
叶	-6.7798
止	-6.78416
傳	-6.78555
思	-6.78596
長	-6.78892
方	-6.78971
祭	-6.78974
命	-6.79887
文王	-6.80673
篇	-6.81187
序	-6.82195
風	-6.82219
美	-6.82321
若	-6.82374
雖	-6.82723
兮	-6.83548
道	-6.85065
鄭	-6.85919
維	-6.85991
安	-6.86614
服	-6.86986
夫	-6.87461
諸侯	-6.87909
且	-6.88746
實	-6.89036
知	-6.90678
車	-6.91017
食	-6.91882
馬	-6.92954
所謂	-6.95308
山	-6.95752
説	-6.95931
取	-6.96488
聲	-6.9719
物	-6.97521
欲	-6.97537
興	-6.98406
白	-7.00168
善	-7.00401
士	-7.01068
四	-7.01596
世	-7.0236
謂之	-7.02987
齊	-7.03659
古	-7.04022
田	-7.04079
先	-7.0418
南	-7.04439
好	-7.05602
哉	-7.06084
稱	-7.07342
徳	-7.07352
韻	-7.0741
亂	-7.08637
終	-7.09442
朝	-7.09522
不可	-7.10097
刺	-7.10746
此詩	-7.10983
夏	-7.11168
地	-7.11199
入	-7.11713
處	-7.11897
東	-7.1207
因	-7.12091
木	-7.13
去	-7.13211
載	-7.1331
而不	-7.1345
家	-7.14185
師	-7.14352
合	-7.14799
百	-7.15077
注	-7.15291
惟	-7.16457
語	-7.16476
立	-7.18174
通	-7.18229
宜	-7.18362
之意	-7.18493
經	-7.18731
陽	-7.18777
異	-7.18833
蓋	-7.1898
陳	-7.19602
如此	-7.20381
歌	-7.2046
不能	-7.20788
天子	-7.20909
求	-7.20921
定	-7.20924
復	-7.21166
平	-7.21192
憂	-7.22527
前	-7.22549
治	-7.23042
臣	-7.23211
書	-7.24937
易	-7.2504
逺	-7.25153
侯	-7.25636
常	-7.25665
由	-7.26329
魚	-7.26529
莫	-7.26547
衣	-7.26611
似	-7.2663
主	-7.2718
周公	-7.27624
指	-7.28032
伯	-7.29163
六	-7.29198
燕	-7.29799
重	-7.29929
但	-7.30227
色	-7.30357
惡	-7.30397
遂	-7.30632
武	-7.30645
外	-7.30835
和	-7.30948
敬	-7.3137
凡	-7.32427
盡	-7.32438
大夫	-7.32842
神	-7.32912
說	-7.3323
甚	-7.33391
諸	-7.34078
力	-7.34226
親	-7.34258
章	-7.35636
/)	-7.36041
衛	-7.36042
豈	-7.36295
切	-7.3684
之事	-7.36902
政	-7.37159
黄	-7.37666
西	-7.38319
賢	-7.38508
伐	-7.38529
舉	-7.38696
土	-7.38885
德	-7.39963
毛	-7.40165
盛	-7.40333
釋	-7.40603
受	-7.40808
是也	-7.41023
衆	-7.41847
獨	-7.42025
斯	-7.4206
固	-7.42433
勞	-7.42752
父	-7.43203
信	-7.44185
天下	-7.44533
深	-7.44877
令	-7.45628
發	-7.45656
内	-7.46241
流	-7.46258
武王	-7.47715
)○	-7.47807
鳥	-7.48114
采	-7.48242
成王	-7.48251
可以	-7.48391
戒	-7.49272
比	-7.49361
予	-7.49456
草	-7.49817
首	-7.50056
之詩	-7.50062
告	-7.50072
賦也	-7.50515
之所	-7.51049
北	-7.51641
氣	-7.52358
兩	-7.52868
酒	-7.52965
之時	-7.52973
賦	-7.53013
理	-7.53169
七	-7.53176
室	-7.53334
近	-7.53855
解	-7.53883
魯	-7.53904
直	-7.54228
射	-7.544
亡	-7.55788
葢	-7.5667
類	-7.56974
官	-7.57933
尚	-7.5796
城	-7.58344
難	-7.58778
九	-7.58801
節	-7.58991
祀	-7.59067
疏	-7.59157
河	-7.59197
不得	-7.59304
疑	-7.60037
分	-7.60142
引	-7.60143
祖	-7.60245
州	-7.60278
志	-7.60574
殷	-7.60676
年	-7.61145
而已	-7.61927
髙	-7.62033
封	-7.62514
死	-7.62572
極	-7.63108
言其	-7.63116
貌	-7.63258
聞	-7.63844
身	-7.63865
廟	-7.6445
訓	-7.64574
盖	-7.64906
數	-7.6523
縣	-7.65505
晉	-7.65552
過	-7.65898
十	-7.65943
孔	-7.66075
謀	-7.66297
别	-7.66393
母	-7.66536
傷	-7.66678
兄弟	-7.67046
按	-7.67403
法	-7.67585
失	-7.67745
功	-7.67757
觀	-7.678
厚	-7.68001
考	-7.68286
共	-7.68557
宗	-7.68628
視	-7.68839
體	-7.68947
爾雅	-7.69406
屬	-7.69573
帝	-7.69749
徒	-7.69871
教	-7.70359
備	-7.70576
尊	-7.70593
華	-7.70733
月	-7.71151
句	-7.71235
怨	-7.71884
度	-7.72156
都	-7.72179
桑	-7.72726
婦	-7.72899
廣	-7.72909
商	-7.7316
次	-7.73205
者也	-7.74156
容	-7.74662
匪	-7.74862
變	-7.75138
往	-7.76345
足	-7.76933
致	-7.77591
葉	-7.78031
順	-7.78163
夷	-7.7817
漢	-7.78205
人之	-7.78454
鳴	-7.7852
問	-7.79072
疾	-7.79297
門	-7.79361
起	-7.79416
飛	-7.79577
卒	-7.79721
頌	-7.79799
至於	-7.79849
不知	-7.79954
執	-7.80047
獻	-7.80507
福	-7.8074
叔	-7.80795
特	-7.80873
▁(	-7.81058
玉	-7.81776
三章	-7.82019
父母	-7.82282
詩人	-7.82833
申	-7.82861
初	-7.82877
各	-7.82884
㑹	-7.83225
交	-7.83262
養	-7.83469
故曰	-7.83688
克	-7.83689
俱	-7.83713
喻	-7.83818
據	-7.84012
辭	-7.84122
秦	-7.84132
制	-7.84132
動	-7.84329
野	-7.84414
雅	-7.84447
愛	-7.84702
,	-7.84789
象	-7.85065
之人	-7.85136
澤	-7.85688
宣王	-7.85713
舊	-7.86466
胡	-7.86649
助	-7.86752
邑	-7.86828
應	-7.86968
二章	-7.87627
仲	-7.87882
保	-7.88192
舞	-7.88567
位	-7.88681
御	-7.89099
間	-7.90242
念	-7.90435
降	-7.90762
新	-7.91328
赤	-7.91586
左	-7.91611
種	-7.91629
旣	-7.91844
老	-7.92333
鼓	-7.92337
論	-7.92411
昭	-7.92573
戎	-7.92588
箋	-7.9263
春	-7.92681
益	-7.92699
楚	-7.93197
害	-7.93552
周禮	-7.93659
殺	-7.94267
進	-7.94382
許	-7.94482
雨	-7.94668
兵	-7.94738
良	-7.94923
苦	-7.95268
讀	-7.95648
化	-7.95819
適	-7.95861
哀	-7.96054
望	-7.96673
飾	-7.96755
徐	-7.96811
報	-7.97212
少	-7.97355
依	-7.9742
張	-7.97517
學	-7.98066
右	-7.98078
加	-7.98218
任	-7.98269
修	-7.98339
春秋	-7.98375
繼	-7.98424
遷	-7.98454
郊	-7.9864
妻	-7.9879
金	-7.98806
著	-7.99008
小人	-7.99038
夫人	-7.99041
八	-7.99161
萬	-7.99467
他	-7.9962
俗	-7.9994
皇	-7.99952
羊	-7.99999
靡	-8.00168
孝	-8.00457
微	-8.01451
太	-8.01468
柔	-8.01763
原	-8.01871
里	-8.0213
尸	-8.02159
清	-8.02209
之後	-8.02382
餘	-8.02455
棄	-8.02645
宫	-8.02723
職	-8.029
左傳	-8.02917
述	-8.03011
私	-8.03103
嘉	-8.03206
淫	-8.0323
息	-8.03282
器	-8.03483
誠	-8.03629
之義	-8.03644
就	-8.03827
星	-8.04478
儀	-8.0457
寧	-8.04901
式	-8.0503
率	-8.0525
唐	-8.05448
注云	-8.05748
仁	-8.05863
離	-8.06207
設	-8.06217
情	-8.06229
。	-8.06334
一名	-8.06388
廢	-8.064
爵	-8.06415
光	-8.06556
形	-8.06814
衞	-8.06889
朱	-8.07028
不敢	-8.07092
恐	-8.07198
集	-8.07393
享	-8.074
罪	-8.07574
存	-8.07626
錫	-8.07635
冬	-8.08592
感	-8.08874
之言	-8.09095
施	-8.09447
石	-8.09556
升	-8.09601
汝	-8.09716
曲	-8.09783
元	-8.10105
后稷	-8.10221
而後	-8.10376
久	-8.10523
配	-8.10666
牛	-8.10876
辟	-8.10921
對	-8.11099
宋	-8.1142
火	-8.11462
絶	-8.11552
遺	-8.11726
孔氏曰	-8.1175
改	-8.11822
之辭	-8.12049
皮	-8.12148
畏	-8.12211
永	-8.12329
並	-8.12506
呼	-8.12509
興也	-8.12767
守	-8.12993
友	-8.13332
薄	-8.13345
庶	-8.136
尤	-8.14229
箋云	-8.14267
婦人	-8.14312
秋	-8.14543
言之	-8.14635
期	-8.14947
顧	-8.1513
而無	-8.15184
青	-8.15228
羣	-8.15511
揚	-8.157
承	-8.15762
無所	-8.15857
四方	-8.16121
林	-8.16395
民之	-8.1641
角	-8.16434
之心	-8.16458
役	-8.16597
性	-8.16751
其所	-8.1681
四章	-8.17515
傳曰	-8.17572
羽	-8.17705
豐	-8.1804
飲	-8.18247
路	-8.18427
畢	-8.18823
附	-8.19166
吾	-8.19171
乗	-8.19261
丘	-8.19421
於是	-8.19546
己	-8.19614
喜	-8.2005
嘗	-8.20215
邦	-8.21087
氏曰	-8.21307
奏	-8.21336
然後	-8.21555
旅	-8.22006
弗	-8.22042
虎	-8.22229
軍	-8.2237
厥	-8.22413
記	-8.22512
隂	-8.22558
更	-8.23152
利	-8.23221
業	-8.23266
豳	-8.23787
后	-8.23812
顯	-8.23976
此章	-8.2402
威	-8.24528
烝	-8.24741
具	-8.25093
一章	-8.25172
建	-8.25211
之道	-8.25832
列	-8.25844
李	-8.25969
之間	-8.25996
衰	-8.2606
目	-8.26432
等	-8.26461
推	-8.26503
夜	-8.26601
勤	-8.26614
朱子	-8.26753
翼	-8.26906
口	-8.26924
集傳	-8.27405
史	-8.27451
子孫	-8.27521
賢者	-8.27522
弓	-8.27618
梁	-8.27748
而言	-8.28078
之地	-8.28336
龍	-8.28525
榖	-8.28537
是以	-8.28953
總	-8.29249
誤	-8.29289
将	-8.29409
祝	-8.29477
𤣥	-8.29627
堂	-8.29692
季	-8.29871
末	-8.29875
矢	-8.30209
孫	-8.30299
病	-8.30587
卷	-8.30679
急	-8.30976
手	-8.31501
𫝊	-8.31642
鄭氏	-8.32121
寒	-8.32293
假	-8.32395
滅	-8.32435
賔	-8.32511
棘	-8.32572
泉	-8.32689
幽王	-8.32796
誰	-8.32961
唯	-8.33035
高	-8.33124
純	-8.33237
穀	-8.3351
怒	-8.33554
乘	-8.3392
積	-8.34028
陵	-8.34404
以爲	-8.34638
昔	-8.34672
喪	-8.34677
要	-8.34944
農	-8.35057
責	-8.35113
蟲	-8.35118
嚴	-8.35273
上帝	-8.35316
賜	-8.35753
愚按	-8.35849
威儀	-8.35893
者以	-8.35953
聖	-8.36033
掌	-8.36455
被	-8.36508
邪	-8.36537
聽	-8.37018
征	-8.37039
樹	-8.37218
專	-8.37573
忘	-8.37702
辨	-8.37733
敢	-8.3775
京	-8.37898
周之	-8.37907
全	-8.38321
之禮	-8.38443
嵗	-8.3858
也此	-8.39061
臨	-8.39195
衡	-8.39242
懐	-8.39309
禍	-8.39429
國之	-8.39543
嗟	-8.39731
露	-8.39788
韓	-8.40096
也言	-8.40222
號	-8.40269
虞	-8.4038
説文云	-8.40514
不同	-8.4053
有所	-8.40543
姜	-8.40792
牧	-8.40874
也箋云	-8.40933
惠	-8.41201
司	-8.41521
説文	-8.41547
陸	-8.42057
嫁	-8.42329
布	-8.42435
勝	-8.42461
留	-8.42513
弟	-8.42788
至于	-8.42868
待	-8.43085
蘇	-8.43096
貴	-8.43151
歎	-8.43258
以下	-8.43388
介	-8.43535
也故	-8.43577
奉	-8.43685
后妃	-8.43888
營	-8.43893
追	-8.44005
還	-8.44085
翻	-8.44233
覆	-8.4426
王之	-8.44342
左右	-8.44344
千	-8.44347
兼	-8.44362
蒲	-8.44362
願	-8.44393
質	-8.44586
患	-8.447
尺	-8.44745
便	-8.4479
詳	-8.44947
肆	-8.45232
禄	-8.4545
景	-8.45498
紀	-8.45535
况	-8.46229
黍	-8.46229
吕	-8.46243
文王之	-8.4642
代	-8.46992
武公	-8.4704
文武	-8.47082
尾	-8.47279
首章	-8.47309
祭祀	-8.47349
戰	-8.47759
舒	-8.47805
饗	-8.48055
連	-8.48066
强	-8.48199
聖人	-8.4833
荒	-8.48446
竹	-8.48535
獸	-8.49011
敗	-8.49257
遇	-8.49257
鳩	-8.49395
休	-8.49415
簡	-8.49481
暴	-8.49486
案	-8.49624
湯	-8.50413
二十	-8.50492
結	-8.50579
天之	-8.50607
然則	-8.50832
除	-8.50873
危	-8.50984
洛	-8.50992
小雅	-8.51005
見其	-8.51041
□	-8.51098
稷	-8.51276
才	-8.51321
鄭氏曰	-8.51338
忽	-8.51519
爰	-8.51529
開	-8.51968
聚	-8.52008
救	-8.52026
知其	-8.52065
天命	-8.52101
閔	-8.52166
素	-8.52196
我心	-8.52247
又曰	-8.52253
厲	-8.52412
詞	-8.52542
之子	-8.52691
幽	-8.52695
此言	-8.52771
先王	-8.52824
根	-8.52831
薪	-8.52929
典	-8.53225
靈	-8.54052
歟	-8.54222
祈	-8.54355
讒	-8.54541
國人	-8.54589
宣	-8.5459
窮	-8.54707
送	-8.5472
宿	-8.5484
管	-8.54848
干	-8.54872
於此	-8.54954
禘	-8.54957
吉	-8.55221
習	-8.55403
慎	-8.55474
酌	-8.55751
舍	-8.55799
牲	-8.56064
納	-8.56168
姓	-8.56347
伊	-8.56443
輔	-8.56538
侵	-8.56823
烏	-8.56824
轉	-8.56831
果	-8.56891
之説	-8.56984
裳	-8.57291
寡	-8.57504
楊	-8.57768
甲	-8.57984
紂	-8.58437
向	-8.58633
恩	-8.58651
嗣	-8.5868
毛傳	-8.58748
醉	-8.58806
舟	-8.58809
味	-8.58853
輕	-8.58872
持	-8.5897
岐	-8.59044
補	-8.5911
昏	-8.59121
逸	-8.59186
之類	-8.59188
卿	-8.59371
冠	-8.59521
苟	-8.59532
何以	-8.59832
古者	-8.60024
束	-8.60305
毛氏曰	-8.60392
魏	-8.60814
上下	-8.60877
故以	-8.61013
君臣	-8.6108
屋	-8.61085
熟	-8.61549
其心	-8.61602
曹	-8.61606
勢	-8.61726
必有	-8.61789
勉	-8.61845
履	-8.61882
細	-8.62469
側	-8.62505
端	-8.6251
不見	-8.62627
薦	-8.6292
刑	-8.6299
條	-8.63085
置	-8.63211
府	-8.63259
革	-8.63302
豆	-8.63315
公子	-8.63564
耕	-8.63731
禾	-8.63774
荆	-8.63872
公劉	-8.63937
奔	-8.64017
庭	-8.64032
崇	-8.64068
户	-8.64274
背	-8.64277
工	-8.64292
甫	-8.64341
其事	-8.64431
未有	-8.64449
桓	-8.64506
卜	-8.64556
退	-8.64709
隨	-8.64872
者皆	-8.64973
之徳	-8.6498
懷	-8.64983
圭	-8.65134
江	-8.65288
牡	-8.6533
之中	-8.65358
懼	-8.65416
盈	-8.65558
計	-8.65586
精	-8.65988
亦有	-8.66135
劉	-8.66152
駕	-8.66183
詩曰	-8.66252
第	-8.66582
兄	-8.66689
勸	-8.6699
宗廟	-8.66995
之詞	-8.67004
狐	-8.67146
烈	-8.67413
孔子	-8.67415
莊公	-8.67433
菜	-8.67528
五章	-8.67772
示	-8.67799
綏	-8.68054
富	-8.68095
獲	-8.68121
落	-8.68191
之功	-8.68197
均	-8.68201
斷	-8.68321
僖公	-8.68494
二句	-8.6863
朱氏曰	-8.68678
之情	-8.68784
勿	-8.68793
旁	-8.6888
旦	-8.6917
證	-8.69189
達	-8.6922
康	-8.69283
禦	-8.69519
杜	-8.69587
栗	-8.69703
雜	-8.6988
襄公	-8.69888
以其	-8.70193
散	-8.70194
圖	-8.70229
疆	-8.70441
只	-8.70568
最	-8.70721
男女	-8.70745
悔	-8.70762
須	-8.70819
佩	-8.70828
不足	-8.70835
漸	-8.70854
召	-8.7091
㫖	-8.71074
之盛	-8.71163
之故	-8.71231
徂	-8.71432
飲酒	-8.71436
匹	-8.71466
又云	-8.7149
南山	-8.71512
七月	-8.71766
淺	-8.71874
契	-8.71958
族	-8.71966
驅	-8.72117
黒	-8.72262
狄	-8.72426
淮	-8.72452
召公	-8.72522
垂	-8.72562
蒿	-8.72679
故知	-8.72694
謹	-8.7295
弁	-8.73119
不如	-8.73156
造	-8.73205
堅	-8.73324
羣臣	-8.73517
人君	-8.73538
受命	-8.73543
俾	-8.73562
谷	-8.73701
天子之	-8.73844
姑	-8.73991
耶	-8.74042
鄉	-8.74125
雉	-8.74253
監	-8.74359
未嘗	-8.74418
恭	-8.74526
其君	-8.74576
迎	-8.74889
用之	-8.74914
孟	-8.75125
麻	-8.7515
後世	-8.75438
禹	-8.75514
無不	-8.7558
每	-8.7559
不必	-8.756
四牡	-8.75707
穆	-8.75716
茅	-8.75826
社	-8.75981
陶	-8.76176
昊天	-8.76311
文公	-8.76335
面	-8.7636
悲	-8.76515
海	-8.76568
然而	-8.76584
畝	-8.76603
濟	-8.76729
故云	-8.76757
寸	-8.76819
授	-8.76897
驕	-8.77563
註	-8.77622
朋友	-8.7773
来	-8.78268
古人	-8.78353
祥	-8.78675
擇	-8.7883
舜	-8.79091
申伯	-8.79579
蔽	-8.79678
表	-8.79708
天下之	-8.79932
淮夷	-8.80243
笙	-8.80287
愈	-8.80317
忠	-8.80439
徃	-8.8045
絲	-8.80543
瞻	-8.80756
游	-8.80824
差	-8.80872
賤	-8.8091
鮮	-8.81099
愚	-8.81111
荼	-8.81225
鹿	-8.81236
足以	-8.81337
室家	-8.81349
輯録	-8.81349
客	-8.81352
之名	-8.81366
以此	-8.81606
子之	-8.8163
乆	-8.81838
麥	-8.8192
甘	-8.81995
鸞	-8.82088
大雅	-8.82145
登	-8.8218
渭	-8.822
丁	-8.82269
頭	-8.82551
花	-8.82558
恤	-8.82693
諸侯之	-8.82758
房	-8.82777
歴	-8.82872
請	-8.82925
滿	-8.83041
韓詩	-8.83259
録	-8.83407
六章	-8.83472
秉	-8.83532
否	-8.83576
厭	-8.83795
弱	-8.83856
桃	-8.84213
繹	-8.84225
閑	-8.84235
慶	-8.84475
如字	-8.84497
昌	-8.84597
脩	-8.84604
真	-8.84727
茂	-8.8473
之日	-8.84831
平王	-8.85336
不可以	-8.85382
戾	-8.85515
蘇氏曰	-8.85529
說文	-8.85536
慮	-8.85785
枝	-8.8582
黃	-8.85953
材	-8.85975
遠	-8.86098
日月	-8.86303
再	-8.86353
不言	-8.86375
爾雅云	-8.86605
蒼	-8.86795
草木	-8.8686
蕭	-8.86996
早	-8.87018
苗	-8.87143
皆有	-8.87198
允	-8.87505
儉	-8.87775
肉	-8.87884
厲王	-8.88075
在位	-8.88114
羅	-8.88205
其實	-8.88361
續	-8.88435
之美	-8.88594
桓公	-8.88605
龜	-8.88626
察	-8.88742
天地	-8.8879
王命	-8.88828
謝	-8.8887
不以	-8.88961
温	-8.89151
漢書	-8.89153
堯	-8.89298
闕	-8.89344
仕	-8.89462
徹	-8.89639
㣲	-8.8966
鼔	-8.8988
藏	-8.9012
羙	-8.90172
防	-8.90272
識	-8.90367
逆	-8.90627
則是	-8.90639
彊	-8.90645
池	-8.90687
川	-8.90833
抑	-8.90898
史記	-8.90905
佐	-8.90993
孔氏	-8.91001
巳	-8.91032
蠶	-8.91045
壽	-8.91093
胥	-8.91103
裘	-8.91203
越	-8.91319
比也	-8.91333
男	-8.91467
笑	-8.9151
朱傳	-8.91633
之樂	-8.91646
葛	-8.91749
繫	-8.91824
蠻	-8.91993
莫不	-8.91998
可謂	-8.92104
香	-8.92128
也今	-8.92143
逐	-8.92233
取其	-8.92307
王季	-8.92311
臧	-8.92361
不我	-8.92775
或曰	-8.93026
鄭云	-8.93057
也又	-8.93106
則有	-8.9317
收	-8.93232
篤	-8.93338
卑	-8.93347
君之	-8.93447
者謂	-8.93462
而有	-8.93469
困	-8.93502
并	-8.93577
黎	-8.93688
孟子	-8.9394
黑	-8.93993
寢	-8.9415
禮記	-8.94152
以見	-8.94457
上章	-8.94529
旋	-8.94554
釋文	-8.94572
使之	-8.94662
不然	-8.94676
三年	-8.94693
翟	-8.94713
夕	-8.94799
如是	-8.94825
之所以	-8.9491
浮	-8.95015
之說	-8.95083
省	-8.95111
莖	-8.95122
主人	-8.95568
遊	-8.95629
艾	-8.95712
辰	-8.95761
黍稷	-8.96088
襄	-8.9649
毛曰	-8.96521
夢	-8.96559
避	-8.96585
約	-8.96722
子曰	-8.96858
錯	-8.9687
粲	-8.97017
閒	-8.97172
曷	-8.97191
當時	-8.97195
磬	-8.97423
淵	-8.97466
夫婦	-8.97483
虐	-8.97494
亦不	-8.97497
妾	-8.97668
之貌	-8.97721
殊	-8.97737
姬	-8.97979
者亦	-8.98032
沃	-8.98299
敎	-8.98302
可見	-8.98353
先祖	-8.98503
歲	-8.98597
雲	-8.98726
豈不	-8.98851
循	-8.98987
奄	-8.99018
而作	-8.99051
乾	-8.99083
賓	-8.99086
四國	-8.99087
蔓	-8.9911
築	-8.99128
攸	-8.99228
通作	-8.99299
畫	-8.99368
鄭箋	-8.99411
月令	-8.9954
戚	-8.9977
旂	-8.99903
其徳	-9.00074
蓼	-9.00106
徧	-9.0028
傳云	-9.00309
可知	-9.0036
穫	-9.00462
序曰	-9.00585
雞	-9.00628
一人	-9.00693
猗	-9.00718
震	-9.00951
大王	-9.01052
本草	-9.011
答	-9.01117
英	-9.01169
託	-9.01184
莊	-9.01264
密	-9.01672
童	-9.01873
其後	-9.02003
斥	-9.02046
故言	-9.02269
女子	-9.02278
不用	-9.02318
織	-9.02365
殆	-9.02369
本作	-9.02395
粟	-9.02468
王者	-9.02622
阿	-9.02634
東方	-9.02648
繩	-9.02673
接	-9.02799
遣	-9.02825
卿士	-9.02846
哲	-9.02966
秀	-9.02997
格	-9.03001
人所	-9.03006
横	-9.0304
矛	-9.03107
潔	-9.03226
帶	-9.0327
歐陽	-9.03285
扵	-9.03461
虚	-9.03543
則其	-9.03761
鹿鳴	-9.03864
貪	-9.04025
負	-9.04053
苞	-9.04066
毛氏	-9.04084
禽	-9.04262
貫	-9.04296
六月	-9.04505
博	-9.04593
忌	-9.04782
鎬	-9.048
擊	-9.04876
詠	-9.04975
剛	-9.0499
誦	-9.05
緩	-9.0513
育	-9.05487
敦	-9.05649
米	-9.05666
召伯	-9.05708
是詩	-9.05807
幾	-9.05849
所以為	-9.05881
玁狁	-9.06106
基	-9.06116
半	-9.06124
萬物	-9.06137
躬	-9.06269
泥	-9.06301
說文云	-9.06426
沈	-9.06575
違	-9.06831
勇	-9.06912
醜	-9.07062
不及	-9.07138
泰	-9.0722
統	-9.07224
王氏曰	-9.07294
詩者	-9.07331
戍	-9.0738
仍	-9.07465
竊	-9.07553
出於	-9.07652
速	-9.07759
蒙	-9.07891
之法	-9.07983
委	-9.07985
音義	-9.08192
宰	-9.08324
助祭	-9.08396
回	-9.08567
移	-9.08623
之上	-9.0865
短	-9.08676
趙	-9.08683
藻	-9.08932
旱	-9.09053
豕	-9.09106
司馬	-9.09144
井	-9.09216
下章	-9.09324
未必	-9.094
作詩	-9.09496
侮	-9.09628
不忘	-9.09758
雍	-9.09797
臺	-9.09805
三十	-9.10129
縱	-9.10135
也鄭箋	-9.10244
之國	-9.10282
缺	-9.10298
欲其	-9.10341
皆以	-9.1036
狩	-9.10642
參	-9.10694
詩之	-9.10775
朱曰	-9.10978
肅	-9.11006
譽	-9.11015
舅	-9.1104
覺	-9.11161
而又	-9.11187
冕	-9.11207
福禄	-9.11228
人心	-9.11256
斗	-9.11261
不過	-9.11305
攻	-9.11372
當作	-9.11508
車馬	-9.11685
遭	-9.11721
穴	-9.11888
坐	-9.11921
毛云	-9.11962
刀	-9.11973
雷	-9.12001
犬	-9.12004
箋曰	-9.12031
程	-9.1213
振	-9.12165
夀	-9.12223
嘆	-9.12465
昭公	-9.12538
又有	-9.12578
傅	-9.12638
孔云	-9.12761
繁	-9.13066
敖	-9.1315
孔疏	-9.13163
矜	-9.13252
源	-9.1337
放	-9.13415
折	-9.13474
僕	-9.13481
曽	-9.13515
凶	-9.1365
章八句	-9.13675
古之	-9.13681
遲	-9.1374
江漢	-9.13833
冝	-9.13903
歳	-9.14145
郭	-9.14149
百里	-9.14171
也毛傳	-9.14187
其意	-9.14268
娶	-9.14277
霜	-9.1442
豫	-9.14714
狂	-9.14795
之辭也	-9.14854
兔	-9.14883
席	-9.14925
涇	-9.14927
畜	-9.14999
如何	-9.15081
太子	-9.15132
丈	-9.15152
空	-9.1518
候	-9.15576
殽	-9.15661
咸	-9.15767
舎	-9.15993
寛	-9.16067
之下	-9.16076
究	-9.1608
得其	-9.16081
諫	-9.16145
調	-9.16223
宣公	-9.16419
從之	-9.16443
見於	-9.1657
略	-9.16673
之德	-9.16769
陰	-9.16775
伏	-9.16839
叛	-9.16944
从	-9.16958
暇	-9.17127
梅	-9.17129
四句	-9.17302
小子	-9.17345
扶	-9.1746
使我	-9.17521
濯	-9.17549
貞	-9.17586
俟	-9.17596
王室	-9.17731
啓	-9.17759
邁	-9.18034
毛詩	-9.18131
之世	-9.18171
熊	-9.18379
災	-9.18674
籥	-9.18714
朔	-9.18764
故謂之	-9.18785
貢	-9.18807
憂心	-9.19062
漆	-9.19172
羔裘	-9.19345
葵	-9.19716
牽	-9.19925
以自	-9.20024
渠	-9.20039
大也	-9.20056
蔡	-9.20179
陟	-9.20194
耦	-9.20212
誅	-9.20214
正義曰	-9.20216
巧	-9.20279
牙	-9.20379
事也	-9.20395
隱	-9.20527
孔曰	-9.20547
誓	-9.2062
同姓	-9.20628
陸璣	-9.20713
為一	-9.2072
隠	-9.20728
者為	-9.20729
兹	-9.20852
三百	-9.20953
逝	-9.21066
懿	-9.21078
例	-9.21091
惑	-9.21219
道也	-9.21376
亦可	-9.2141
充	-9.21449
肥	-9.21565
于天	-9.21597
貝	-9.21644
所云	-9.21669
緑	-9.2169
以上	-9.21786
豹	-9.21849
朱註	-9.21851
趨	-9.21869
中國	-9.21951
悦	-9.21953
及其	-9.22006
吹	-9.22114
整	-9.2226
之外	-9.22325
以興	-9.22389
辛	-9.22404
貧	-9.2254
徙	-9.23047
杞	-9.23062
狀	-9.2309
曾	-9.23092
錦	-9.23128
朝廷	-9.23162
檜	-9.23319
他人	-9.23361
八章	-9.23408
䑕	-9.23575
驪	-9.23662
得之	-9.23667
騂	-9.23692
支	-9.23745
不復	-9.23839
域	-9.24101
務	-9.2429
䟽	-9.24381
以禮	-9.24528
也按	-9.24568
寵	-9.24578
較	-9.24729
妄	-9.24765
仰	-9.24791
之臣	-9.24825
界	-9.24828
塗	-9.24852
其義	-9.24978
其説	-9.25053
稼	-9.25079
巢	-9.25111
鄭曰	-9.25123
畆	-9.25347
鐘	-9.25462
麟	-9.25622
安得	-9.2568
騶虞	-9.25688
免	-9.25711
不已	-9.25837
韋	-9.25865
隰	-9.25882
審	-9.26328
規	-9.26346
況	-9.26356
譬	-9.26442
之處	-9.26473
鑿	-9.26485
宛	-9.26582
王氏	-9.26836
毁	-9.26947
二字	-9.26951
樊	-9.26991
鬱	-9.2704
播	-9.27053
譖	-9.27054
斧	-9.27154
其子	-9.27253
塞	-9.27354
其地	-9.27437
幸	-9.27442
桐	-9.27464
當是	-9.27518
先生	-9.2752
稻	-9.27651
飲食	-9.27668
茹	-9.27725
綱	-9.27738
所作	-9.2774
境	-9.27792
疏云	-9.27822
壯	-9.27839
相與	-9.2805
不相	-9.28252
暑	-9.28376
孝子	-9.28419
庚	-9.28423
欽定四庫全書	-9.28535
賊	-9.28542
叙	-9.28617
板	-9.28637
之甚	-9.28652
今之	-9.2874
宅	-9.28842
則不	-9.28897
卿大夫	-9.28932
也夫	-9.28948
貎	-9.28957
蕩	-9.29116
律	-9.29173
晚	-9.29345
詩序	-9.29372
范	-9.29527
也若	-9.29539
〇	-9.29593
思之	-9.29613
毛鄭	-9.29626
廬	-9.29697
兆	-9.29914
召南	-9.29939
松	-9.30011
魴	-9.30068
斂	-9.30097
借	-9.30177
遐	-9.30207
衍	-9.30238
黨	-9.30255
下文	-9.30321
輔氏曰	-9.30339
觧	-9.30486
亦以	-9.30521
互	-9.30553
四月	-9.30583
十月	-9.30619
夲	-9.30622
奠	-9.30671
求之	-9.30851
食之	-9.30865
之屬	-9.30876
者言	-9.30902
寐	-9.3091
懲	-9.30965
強	-9.31011
莊姜	-9.31033
延	-9.31089
其葉	-9.31189
雀	-9.31264
宻	-9.31265
戴	-9.31325
善也	-9.31412
毒	-9.31521
崩	-9.31575
逹	-9.31724
三章章四句	-9.31738
専	-9.31739
靜	-9.31758
𤼵	-9.31768
矣故	-9.3179
衆多	-9.31804
岡	-9.31824
卒章	-9.31906
慢	-9.31976
至此	-9.32018
其身	-9.32108
染	-9.32132
踐	-9.32281
宴	-9.32324
讓	-9.32339
李氏曰	-9.32415
瓠	-9.32608
警	-9.32666
此篇	-9.32704
各有	-9.32736
解見	-9.32753
而歸	-9.32768
朋	-9.32835
禮樂	-9.32858
撰	-9.3289
臯	-9.32961
宇	-9.33142
仇	-9.33198
朱子曰	-9.33213
猶言	-9.33389
也蓋	-9.33458
集說	-9.33665
昬	-9.33755
仲山甫	-9.33879
先王之	-9.33942
則又	-9.33973
箕	-9.34066
樂也	-9.34079
周人	-9.34123
贈	-9.34172
璋	-9.3442
太王	-9.34434
矣然	-9.34551
詁	-9.3461
祫	-9.3462
其辭	-9.34724
駟	-9.34794
嘏	-9.34939
也然	-9.34944
國語	-9.34981
變風	-9.35028
迹	-9.35034
編	-9.3507
選	-9.35124
行役	-9.35429
藥	-9.3553
雄	-9.3555
咨	-9.3561
其人	-9.35661
西戎	-9.35722
雖有	-9.35757
爭	-9.3577
静	-9.35789
勞苦	-9.35861
飢	-9.35941
淑	-9.35988
瑟	-9.361
敷	-9.36247
市	-9.36252
末章	-9.36287
黄鳥	-9.36298
畧	-9.36455
聘	-9.36631
故其	-9.36667
咎	-9.36699
穆公	-9.36702
夫子	-9.36788
使人	-9.37013
腹	-9.37013
蹶	-9.37031
闗雎	-9.37146
其中	-9.37225
庸	-9.37304
馮	-9.3777
植	-9.37849
蕃	-9.37858
倫	-9.37868
!	-9.37901
圓	-9.38039
周道	-9.3806
隅	-9.38091
此則	-9.38151
紫	-9.38296
榮	-9.3841
諷	-9.38485
又言	-9.38529
雪	-9.38622
髦	-9.38782
投	-9.39034
破	-9.39101
敵	-9.39228
筐	-9.39321
鍾	-9.39324
疏曰	-9.39451
訟	-9.3958
狼	-9.39621
君子之	-9.39805
牝	-9.39888
之服	-9.39913
忍	-9.39959
三月	-9.39963
先儒	-9.39966
媚	-9.40014
髪	-9.40042
其民	-9.40066
痛	-9.40167
環	-9.40192
荷	-9.40199
肅肅	-9.40227
蛇	-9.40244
韓侯	-9.40248
潰	-9.40374
段	-9.40378
東萊	-9.40429
以成	-9.40446
園	-9.4046
棲	-9.40475
几	-9.40483
周南	-9.40626
犯	-9.40744
菽	-9.40811
帥	-9.40916
甚矣	-9.40946
展	-9.40966
翰	-9.41078
田獵	-9.41219
十二	-9.41249
皇父	-9.4125
之文	-9.41286
未詳	-9.41458
譏	-9.41619
灌	-9.41643
齒	-9.4175
尹氏	-9.4178
儀禮	-9.41868
美之	-9.41929
援	-9.41938
者非	-9.42069
招	-9.42082
底	-9.4212
筵	-9.4219
婉	-9.42198
莪	-9.42311
階	-9.42324
燔	-9.42474
險	-9.42575
孰	-9.42576
事而	-9.42585
譜	-9.42862
渡	-9.42906
其聲	-9.42979
迫	-9.43037
命之	-9.43138
禁	-9.43161
媵	-9.43163
琴瑟	-9.43189
七章	-9.43231
有此	-9.43263
中心	-9.43284
十五	-9.4335
無有	-9.43433
之意也	-9.43487
鞠	-9.43609
旐	-9.43645
鄰	-9.43671
副	-9.43675
不知其	-9.437
酬	-9.43772
大國	-9.43814
下同	-9.43845
其情	-9.43855
明矣	-9.43859
使臣	-9.43935
水之	-9.43973
康公	-9.44152
而下	-9.44316
驚	-9.44329
豐年	-9.44424
丹	-9.44475
竭	-9.4449
未知	-9.44501
舌	-9.44568
競	-9.44644
國家	-9.44706
關雎	-9.44797
效	-9.44801
盟	-9.44838
二南	-9.44925
供	-9.44948
農夫	-9.4497
妃	-9.45046
淇	-9.45047
男子	-9.45059
衣服	-9.45172
時也	-9.45185
怠	-9.45195
議	-9.452
誨	-9.45213
會	-9.45236
闗	-9.45268
百姓	-9.45354
索	-9.45389
不應	-9.454
優	-9.45418
倉	-9.45553
遏	-9.45576
此章言	-9.45763
拜	-9.45805
太平	-9.45987
思其	-9.46031
旟	-9.46048
奪	-9.46149
鬼	-9.46174
亦作	-9.46196
沮	-9.46334
孚	-9.46346
之際	-9.46365
采薇	-9.46412
姜嫄	-9.46475
領	-9.46579
告之	-9.46604
提	-9.46615
舊説	-9.46696
栁	-9.46715
單	-9.46735
嶽	-9.46745
桀	-9.46811
孤	-9.46873
稼穡	-9.46913
吳	-9.4695
皆是	-9.47091
正月	-9.47098
征伐	-9.47101
駿	-9.47215
慕	-9.4727
讀如	-9.47358
一句	-9.47368
不顯	-9.47438
啟	-9.47446
貽	-9.47455
伐木	-9.47489
詩云	-9.47513
賢人	-9.47578
禮義	-9.47603
累	-9.47716
牆	-9.47726
敏	-9.47757
協	-9.47873
玩	-9.47968
夙夜	-9.47976
盛也	-9.47984
而成	-9.47985
酢	-9.48067
二年	-9.48086
榛	-9.48087
碩	-9.48097
鼠	-9.48129
國風	-9.4813
則知	-9.48142
羞	-9.4821
之什	-9.48215
以致	-9.48237
明堂	-9.48241
寫	-9.48324
獵	-9.48338
歩	-9.48426
之行	-9.48441
析	-9.48468
王事	-9.48531
泮	-9.48598
符	-9.48613
濟濟	-9.48845
心之憂矣	-9.48859
吉甫	-9.48868
釐	-9.4895
盧	-9.49122
顔	-9.49138
冰	-9.49172
遵	-9.49255
舄	-9.4927
膏	-9.49345
彌	-9.49349
山川	-9.49364
武王之	-9.49453
羮	-9.49559
晦	-9.49581
旗	-9.49699
失其	-9.49914
如此則	-9.49926
詩中	-9.49935
親迎	-9.49961
照	-9.49965
詩言	-9.50084
恒	-9.50205
屢	-9.50366
煩	-9.50375
瓜	-9.50442
之事也	-9.50477
其德	-9.50576
大者	-9.50576
削	-9.50586
想	-9.50592
喬	-9.50596
慰	-9.50625
瓊	-9.50628
靖	-9.5067
周室	-9.50713
鄙	-9.50741
可食	-9.50759
以喻	-9.50781
罔	-9.50839
不當	-9.50851
可知矣	-9.50929
聴	-9.50966
亦云	-9.50999
有功	-9.51024
而生	-9.51036
毛公	-9.51038
骨	-9.51169
亦無	-9.51178
洽	-9.51252
埤雅	-9.51292
徳之	-9.51343
悠悠	-9.51388
又以	-9.51402
梓	-9.5144
在上	-9.51449
占	-9.51458
渉	-9.51459
䘮	-9.51464
那	-9.51495
蘭	-9.51535
駒	-9.5161
踰	-9.51822
誘	-9.51836
不與	-9.51853
之實	-9.51888
以比	-9.51906
反覆	-9.52038
之使	-9.5223
暮	-9.52243
先公	-9.52316
尹	-9.5234
智	-9.52391
矣而	-9.52415
以告	-9.52579
風俗	-9.52599
賞	-9.5261
鵲	-9.52668
不善	-9.52692
之物	-9.52759
不自	-9.52782
濁	-9.52794
緝	-9.52938
阜	-9.52972
𤓰	-9.53054
却	-9.5322
之命	-9.53251
其國	-9.5333
之志	-9.53424
其上	-9.53465
巾	-9.53517
或作	-9.53697
觀之	-9.53711
後人	-9.53741
郡	-9.53755
此亦	-9.53823
寜	-9.53841
其所以	-9.53897
衆也	-9.53914
偕	-9.53939
僭	-9.54
今人	-9.54011
躍	-9.5402
菁	-9.54077
管蔡	-9.54314
轡	-9.54341
飽	-9.54379
僖	-9.54427
何也	-9.54489
政事	-9.54511
不可得	-9.54511
在於	-9.54517
也朱註	-9.54519
屈	-9.54544
之本	-9.54593
歡	-9.54596
可為	-9.54742
樂之	-9.54761
濕	-9.54811
病也	-9.54847
而行	-9.54901
牢	-9.54963
肇	-9.55112
偏	-9.55127
鬯	-9.55139
甫田	-9.5518
董	-9.55209
討	-9.55222
悉	-9.55256
文姜	-9.55261
東都	-9.55313
竟	-9.55361
濡	-9.55371
司徒	-9.55396
血	-9.55403
方叔	-9.55447
碩人	-9.55587
一日	-9.55632
偶	-9.55648
鴈	-9.55772
之正	-9.55792
浸	-9.55815
講	-9.55906
服之	-9.55984
粱	-9.55993
傳正義曰	-9.56014
庶幾	-9.56019
不為	-9.56024
翩	-9.56158
孫子	-9.56172
嫡	-9.56189
無疆	-9.56192
陸氏	-9.56248
刺之	-9.5626
圃	-9.5627
則無	-9.56286
壺	-9.5629
瞽	-9.56292
鼎	-9.56305
燕飲	-9.56396
芾	-9.56416
南方	-9.56421
刻	-9.56433
資	-9.56473
億	-9.56518
愆	-9.56521
旌	-9.56579
赫	-9.56692
人情	-9.56706
鵲巢	-9.56709
題	-9.56715
鴻	-9.56809
褒姒	-9.56877
亦曰	-9.56981
消	-9.57015
績	-9.57393
湛	-9.57398
坎	-9.57569
驂	-9.57607
聲也	-9.57613
之語	-9.5764
幣	-9.57669
甸	-9.57776
倒	-9.57785
肯	-9.57799
於天	-9.57821
蜩	-9.57869
歆	-9.57935
寘	-9.57981
帛	-9.58077
禹貢	-9.58122
湑	-9.58134
燕禮	-9.5825
集傳賦也	-9.58272
所用	-9.58273
所言	-9.5834
騏	-9.58521
賈	-9.58568
而得	-9.586
包	-9.5861
䜛	-9.5864
懸	-9.58696
鴟鴞	-9.58714
稍	-9.58724
場	-9.5877
關	-9.58812
學者	-9.58819
赫赫	-9.58898
之月	-9.58925
脂	-9.58926
邶	-9.58952
弑	-9.58962
鷺	-9.58999
祭之	-9.59006
誕	-9.59058
反叶	-9.59151
醻	-9.5918
自然	-9.59203
安也	-9.59215
導	-9.59289
遽	-9.59305
之多	-9.59316
章六句	-9.59411
雅頌	-9.59435
可以為	-9.59597
央	-9.59614
東南	-9.59831
戸	-9.59832
行也	-9.59926
茀	-9.59979
棣	-9.60127
宮	-9.60245
矣此	-9.60266
亟	-9.60277
八月	-9.60383
醴	-9.60407
宫室	-9.6041
恃	-9.60435
璧	-9.60538
琴	-9.60551
聿	-9.60572
權	-9.60682
非一	-9.60687
渚	-9.60709
不忍	-9.60722
即位	-9.6094
一物	-9.60949
殘	-9.61017
下民	-9.61025
南仲	-9.61065
辟廱	-9.61138
之福	-9.61184
生於	-9.6136
曉	-9.61397
泣	-9.61434
我之	-9.61459
衮	-9.6146
弋	-9.61518
者必	-9.61607
弦	-9.61634
旄	-9.61659
榆	-9.61659
阻	-9.61819
藉	-9.61826
之前	-9.61858
法也	-9.61861
取之	-9.61961
冀	-9.62049
左氏	-9.62072
一篇	-9.62078
芳	-9.62098
傍	-9.62142
我思	-9.62253
即今	-9.62335
俎	-9.62356
孔氏穎達曰	-9.6236
隆	-9.62378
縫	-9.62391
涉	-9.62394
悟	-9.62396
鴞	-9.62549
之聲	-9.62583
南國	-9.62654
商之	-9.62673
之化	-9.62706
屏	-9.62784
葦	-9.62794
猶有	-9.62816
賔客	-9.62855
法度	-9.62894
州吁	-9.62963
軌	-9.62992
尋	-9.63092
行之	-9.63327
揚之水	-9.63337
奚	-9.63383
邇	-9.63418
公尸	-9.63459
零	-9.63654
者蓋	-9.63716
常棣	-9.63884
步	-9.63929
二人	-9.63962
涕	-9.64038
反又	-9.64147
相應	-9.64332
形容	-9.64355
攷	-9.64383
者乃	-9.64399
佗	-9.64439
覲	-9.645
祼	-9.64532
亂也	-9.64557
之祭	-9.6464
十里	-9.64653
愛之	-9.64697
而自	-9.64699
錄	-9.64703
戲	-9.64965
樗	-9.64979
毋	-9.65029
鄘	-9.65056
鶉	-9.65092
京師	-9.6511
馳	-9.65155
錢	-9.6522
序云	-9.65286
愧	-9.65306
維其	-9.65326
之初	-9.65464
水中	-9.65536
走	-9.65557
其言	-9.65641
傾	-9.65722
起興	-9.65744
網	-9.65854
奮	-9.65862
鶴	-9.65925
淫奔	-9.65942
正義	-9.66125
鮪	-9.66137
鎬京	-9.66193
刈	-9.66217
櫟	-9.6628
翼翼	-9.66299
晏	-9.66305
曾孫	-9.66315
述其	-9.66391
靈臺	-9.66393
而去	-9.66465
漕	-9.66469
臭	-9.66557
畿	-9.66628
罰	-9.66731
而能	-9.66984
緇衣	-9.67006
緜	-9.67034
某	-9.67043
薄言	-9.67115
決	-9.67186
矣又	-9.67226
醢	-9.67299
枚	-9.67302
昏姻	-9.67369
之變	-9.67455
雝	-9.67523
清廟	-9.67585
風雨	-9.67704
漆沮	-9.67772
輿	-9.6788
服也	-9.67925
炙	-9.67949
貳	-9.67963
隂陽	-9.67978
化之	-9.67987
柞	-9.67987
七年	-9.68145
柳	-9.6819
祖考	-9.68204
荘	-9.68204
既見君子	-9.68229
増	-9.68263
檀	-9.6831
春秋傳	-9.68337
揖	-9.68381
曲沃	-9.68477
鬼神	-9.68525
人皆	-9.6855
寓	-9.68565
嚴氏曰	-9.6868
籩豆	-9.68743
小序	-9.68761
氷	-9.68849
瘁	-9.68943
彭	-9.68994
岸	-9.68996
大射	-9.69122
咏	-9.6915
蒸	-9.69158
財	-9.69164
今日	-9.69167
謬	-9.69274
而不能	-9.69372
不信	-9.69415
不至	-9.69516
刺幽王也	-9.69522
相似	-9.69589
王業	-9.69608
我獨	-9.69755
芮	-9.69768
堪	-9.69776
亦如	-9.69978
其說	-9.70005
係	-9.7008
箋正義曰	-9.70082
之至也	-9.70102
亦非	-9.70175
而不知	-9.70179
耜	-9.7023
鯉	-9.70243
社稷	-9.70302
耆	-9.70369
幼	-9.70401
何所	-9.70448
亳	-9.70503
有常	-9.70551
柄	-9.70573
所見	-9.70587
弓矢	-9.70726
是為	-9.70829
椒	-9.70831
灼	-9.70863
謂其	-9.70878
生民	-9.70975
鰥	-9.7099
多矣	-9.71133
大武	-9.71263
以待	-9.71283
曠	-9.7132
謙	-9.71329
惜	-9.71341
賚	-9.71351
之耳	-9.71383
班	-9.71422
壊	-9.71478
畿内	-9.7152
澗	-9.71527
谷風	-9.71579
繇	-9.7158
故詩人	-9.71594
以後	-9.71646
岳	-9.71659
泉水	-9.71735
呂	-9.71742
其始	-9.71754
什	-9.71766
九月	-9.7177
李曰	-9.71804
虺	-9.71825
次章	-9.71898
厯	-9.71934
罟	-9.71971
不宜	-9.71984
中興	-9.72024
突	-9.72055
西北	-9.72094
圍	-9.72184
采蘩	-9.72194
眉	-9.72243
融	-9.72279
不遑	-9.72285
廵	-9.72381
則非	-9.72438
謔	-9.72471
駁	-9.72518
敝	-9.72521
即此	-9.72545
輪	-9.72548
運	-9.72566
創	-9.72573
周家	-9.72594
旨	-9.7261
到	-9.72615
苕	-9.72678
周頌	-9.72833
貉	-9.7285
因以	-9.72863
畔	-9.72885
恣	-9.72895
薇	-9.72927
螽斯	-9.73001
垣	-9.73029
弔	-9.73112
禱	-9.7315
之君	-9.73176
預	-9.732
其功	-9.73213
也孔疏	-9.73221
大小	-9.73236
止於	-9.73256
隰有	-9.73348
如之何	-9.73504
之車	-9.73508
其文	-9.73598
草也	-9.736
為大	-9.73602
之士	-9.73621
言文王	-9.73767
戈	-9.73781
脱	-9.73812
吐	-9.73841
潛	-9.73848
辭也	-9.7399
余	-9.74156
誥	-9.74292
之制	-9.74347
集于	-9.74385
虢	-9.74386
何為	-9.74394
蘇氏	-9.74423
辯	-9.74485
倚	-9.74492
簋	-9.74517
牛羊	-9.74526
東征	-9.74578
燎	-9.7458
豈弟君子	-9.74587
一時	-9.7459
濮	-9.74595
妹	-9.74609
亦是	-9.74629
鳲鳩	-9.74632
截	-9.74638
古今	-9.74639
王肅	-9.74648
股	-9.74658
寺人	-9.74673
樂只君子	-9.74703
覯	-9.74819
只是	-9.74969
斾	-9.7497
之始	-9.74984
有餘	-9.75096
來朝	-9.75105
抱	-9.75139
其餘	-9.75176
物之	-9.75346
觀其	-9.75367
夙	-9.75434
河南	-9.75456
王曰	-9.75543
眀	-9.75632
刪	-9.75751
文章	-9.75832
是用	-9.75879
蓬	-9.75918
郭璞	-9.7594
隕	-9.7595
鐘鼓	-9.75952
程子曰	-9.76015
神之	-9.76054
伋	-9.76089
棗	-9.7613
匏	-9.76155
古音	-9.76254
兢	-9.76263
勺	-9.76281
毛傳曰	-9.7633
作樂	-9.76428
憚	-9.76472
岐山	-9.76508
之内	-9.76725
聊	-9.76732
攘	-9.76771
囿	-9.76802
丗	-9.76819
牖	-9.76855
無所不	-9.76943
髮	-9.76952
非也	-9.77006
皆言	-9.77159
通用	-9.77197
侈	-9.77224
瑞	-9.77225
狹	-9.77227
豈有	-9.77234
無可	-9.77336
國君	-9.77391
詩緝	-9.77408
之狀	-9.77409
庶人	-9.77462
孔子曰	-9.77475
儒	-9.77686
崔	-9.77709
勤勞	-9.77722
于此	-9.77733
名也	-9.77779
出車	-9.77788
淫亂	-9.77839
亮	-9.7792
四方之	-9.77934
西南	-9.77958
之業	-9.77998
曽孫	-9.78012
先後	-9.78032
語辭	-9.78057
偽	-9.78066
者不	-9.7813
混	-9.78181
組	-9.78193
論語	-9.7821
若此	-9.78227
糾	-9.784
得其所	-9.78445
紅	-9.7868
潤	-9.78705
白華	-9.78813
沼	-9.78863
此意	-9.78897
其夫	-9.78914
無罪	-9.79086
父子	-9.79163
山之	-9.79195
驗	-9.79228
量	-9.79237
美也	-9.79269
北山	-9.79354
鐵	-9.79388
拘	-9.7942
併	-9.79574
徴	-9.79578
巨	-9.79587
訊	-9.79597
在下	-9.79609
其時	-9.7964
亶	-9.79649
黼	-9.79668
隼	-9.79802
之深	-9.79816
故為	-9.79836
蘀	-9.79916
鑒	-9.79925
掩	-9.79926
决	-9.79941
憲	-9.80022
無禮	-9.80119
一曰	-9.80147
滑	-9.80147
于飛	-9.80161
尚書	-9.80186
巷	-9.80193
不足以	-9.80249
考之	-9.8034
不易	-9.80352
顛	-9.80399
五年	-9.80411
畀	-9.80485
卷耳	-9.80559
苑	-9.80567
晝	-9.80591
寄	-9.80592
而復	-9.80672
止于	-9.80823
看	-9.80875
鵻	-9.80898
萊	-9.80899
蓄	-9.80926
其下	-9.80972
東西	-9.81172
而不可	-9.8119
萬民	-9.81213
不在	-9.81222
劉氏	-9.81222
嫌	-9.81273
姻	-9.81292
匡	-9.81296
恥	-9.81307
邶鄘	-9.81392
武功	-9.81406
喙	-9.81425
憂之	-9.81443
章句	-9.81507
曹氏曰	-9.81576
産	-9.81591
郭璞曰	-9.81627
四十	-9.81638
先君	-9.81649
了	-9.81718
武丁	-9.81791
郝	-9.81808
東門	-9.81837
寤	-9.81874
挾	-9.81941
韓詩作	-9.81963
五月	-9.81988
饋	-9.82013
流言	-9.82024
艸	-9.82076
其道	-9.82134
先言	-9.82243
之理	-9.82246
輔氏廣曰	-9.82309
望之	-9.8243
僻	-9.82506
趣	-9.8251
邦國	-9.82524
餞	-9.82584
慶源輔氏曰	-9.82648
宣姜	-9.82787
楚茨	-9.82918
魚麗	-9.82927
牟	-9.82931
知之	-9.8294
也然則	-9.82999
大抵	-9.83012
三千	-9.83016
亨	-9.83102
成湯	-9.83225
菅	-9.8323
甘棠	-9.83231
受之	-9.83265
郎	-9.83307
但言	-9.83311
商頌	-9.83351
鵠	-9.83404
媒	-9.83408
故能	-9.8342
試	-9.8342
王后	-9.83442
狐裘	-9.8363
初生	-9.83695
苖	-9.83752
輯	-9.83773
而出	-9.83805
邰	-9.83898
羆	-9.83923
曹曰	-9.83935
言天	-9.83976
大車	-9.83977
笄	-9.84092
四海	-9.84132
桑扈	-9.84139
徳音	-9.84168
有二	-9.84219
竒	-9.84246
迷	-9.8426
與此	-9.84262
當為	-9.84275
未可	-9.84342
乙	-9.84352
轂	-9.84361
光明	-9.84412
集説	-9.84448
於人	-9.84481
雖無	-9.8456
幹	-9.84566
部	-9.84574
隔	-9.84634
戢	-9.84662
武庚	-9.84688
於外	-9.84733
訛	-9.84917
逢	-9.84929
恨	-9.84973
九年	-9.84985
無窮	-9.85018
蹙	-9.8503
美其	-9.8527
有三	-9.85322
蟋蟀	-9.8533
此時	-9.85352
書曰	-9.8541
而非	-9.85415
五十	-9.85416
雞鳴	-9.85423
柴	-9.8544
芻	-9.85527
草蟲	-9.85532
偕老	-9.85589
信也	-9.85594
䖍	-9.85676
雌	-9.85694
此皆	-9.85927
行者	-9.85945
則必	-9.85969
四時	-9.85992
莠	-9.86016
軒	-9.86053
詩傳	-9.86205
茨	-9.86254
有天下	-9.86277
而不敢	-9.86331
巡	-9.8635
不從	-9.86357
東遷	-9.86379
不明	-9.86387
萬邦	-9.86441
所在	-9.86499
侯伯	-9.8651
獄	-9.86577
詩意	-9.86581
齊侯	-9.86621
者以其	-9.86709
僅	-9.86756
膚	-9.86805
徵	-9.8693
不能自	-9.86933
倡	-9.86948
芬	-9.87031
之長	-9.8707
螽	-9.87088
棠	-9.87091
緯	-9.87099
不欲	-9.87115
陳氏曰	-9.87164
無良	-9.87178
今曰	-9.87195
其職	-9.87325
于周	-9.87345
出入	-9.87409
的	-9.87453
簧	-9.87497
辜	-9.87538
活	-9.87581
藝	-9.87621
烈祖	-9.87623
祗	-9.87695
稽	-9.87714
王者之	-9.87719
罍	-9.87741
小者	-9.87756
菑	-9.8782
徑	-9.87832
頃	-9.87837
明明	-9.87838
胡不	-9.87871
皮弁	-9.87936
子夏	-9.87938
攝	-9.87967
翔	-9.88007
穗	-9.8802
緒	-9.88059
王姬	-9.8806
謨	-9.88086
薛	-9.88206
既醉	-9.88239
鋪	-9.88245
鳯	-9.88292
汾	-9.88362
壹	-9.88382
用兵	-9.8839
既成	-9.8839
之可	-9.88391
配天	-9.88416
相類	-9.88459
而不得	-9.88497
大如	-9.8853
炎	-9.8858
括	-9.88737
欽	-9.88763
而思	-9.88773
今按	-9.88869
惟其	-9.88923
偃	-9.88969
其詩	-9.89045
麗	-9.89079
征夫	-9.89082
二月	-9.89117
侍	-9.8912
祉	-9.89143
肩	-9.89143
滌	-9.89178
沙	-9.89184
上有	-9.8919
王制	-9.89289
旃	-9.89317
四年	-9.89336
琢	-9.89355
鱣	-9.89513
衣裳	-9.89577
綠	-9.89691
冇	-9.89716
鑣	-9.8974
之賢	-9.89746
僚	-9.89774
祿	-9.8981
不出	-9.89857
其羽	-9.89874
受福	-9.89897
宗周	-9.89914
之謂也	-9.89947
内則	-9.89952
淑女	-9.90091
之女	-9.90111
芑	-9.90161
毖	-9.90353
豈可	-9.90358
太師	-9.90415
東山	-9.90457
宏	-9.90477
自有	-9.90479
而知	-9.90593
葛藟	-9.90663
筆	-9.90703
文王之徳	-9.90741
地名	-9.9081
紹	-9.90869
?	-9.90879
其名	-9.90888
蜀	-9.9099
夾	-9.91023
稱其	-9.91138
汲	-9.91193
孔氏穎逹曰	-9.91214
何哉	-9.91277
阪	-9.91369
方言	-9.91385
裏	-9.914
瑕	-9.91446
江東	-9.91539
蘋	-9.91553
叶音	-9.9157
邊	-9.916
前後	-9.91612
之職	-9.91617
長也	-9.91629
疎	-9.91783
愼	-9.91801
蟬	-9.91873
成功	-9.91905
殄	-9.91999
菹	-9.92004
𤣥鳥	-9.9204
及於	-9.92153
筮	-9.92171
朱子云	-9.92199
逮	-9.92223
衝	-9.9231
齋	-9.92366
綴	-9.92373
藩	-9.9255
穎	-9.9255
駱	-9.92563
繡	-9.92604
訪	-9.92614
戎狄	-9.92685
以正	-9.92691
従	-9.92784
致其	-9.92841
以見其	-9.92915
溢	-9.92918
蘆	-9.92924
旒	-9.9296
庻	-9.9297
有徳	-9.93021
必先	-9.93057
機	-9.93126
未見	-9.93135
十三	-9.93202
邢	-9.93219
不待	-9.93227
作是詩	-9.93314
而小	-9.93452
之難	-9.93464
杜預	-9.93514
殖	-9.93523
逃	-9.93748
賴	-9.93779
遹	-9.93909
怪	-9.9392
大臣	-9.93942
朝夕	-9.93959
神明	-9.94028
所當	-9.94056
二詩	-9.94063
休息	-9.94082
溝	-9.94088
紙	-9.94104
葭	-9.94121
遑	-9.94136
跋	-9.94163
當從	-9.94178
正也	-9.94222
萬年	-9.94233
之象	-9.94338
章四句	-9.94356
戎車	-9.94493
為正	-9.94551
陽縣	-9.94579
大師	-9.9467
含	-9.94686
籍	-9.94714
羔羊	-9.94727
兒	-9.94734
三章章六句	-9.94761
屨	-9.94794
摯	-9.94828
在天	-9.94828
酒食	-9.94834
陂	-9.94872
廣雅	-9.94999
千里	-9.95203
不安	-9.95231
在彼	-9.95284
詒	-9.95292
九十	-9.95296
仲春	-9.95338
嘉賔	-9.95369
艱難	-9.95398
悼	-9.95482
雁	-9.95501
豐本	-9.95562
彤弓	-9.95615
聖人之	-9.95671
限	-9.95684
公侯	-9.95721
之時也	-9.95745
溥	-9.95747
兎	-9.95866
讒人	-9.95969
鷹	-9.96061
麌	-9.9608
阮	-9.9622
縁	-9.9624
柏舟	-9.96286
穆穆	-9.96349
獻公	-9.96359
詳見	-9.96369
纓	-9.96412
往來	-9.96425
冢	-9.96502
淪	-9.96546
無以	-9.96604
不可不	-9.96687
慈	-9.96693
其臣	-9.96739
盛貌	-9.96791
眷	-9.96871
不入	-9.96887
始生	-9.96952
道路	-9.97066
周官	-9.97078
嗇	-9.9709
盾	-9.97091
恵	-9.97118
上文	-9.97135
讀詩	-9.97157
兕	-9.97192
兵車	-9.97195
不逺	-9.97302
熱	-9.97333
於民	-9.97415
于是	-9.97428
至矣	-9.97451
詩記	-9.9749
二章言	-9.9752
此説	-9.97586
疚	-9.97762
雲漢	-9.97792
所居	-9.97836
三句	-9.97846
甥	-9.97876
洵	-9.97918
犧	-9.97965
無衣	-9.97995
昧	-9.98127
禽獸	-9.98139
我以	-9.98167
行而	-9.9821
膺	-9.98259
詢	-9.98318
鳥獸	-9.98356
睦	-9.98363
荅	-9.98369
《	-9.98481
枸	-9.98487
十六	-9.98578
東北	-9.98712
紛	-9.98712
拔	-9.98842
一種	-9.98844
之稱	-9.98863
不若	-9.9889
俊	-9.98932
悠	-9.98942
桓叔	-9.98969
於周	-9.98978
去聲	-9.9898
雒	-9.99065
之末	-9.99105
鴟	-9.99108
魯頌	-9.99166
土地	-9.99335
昭明	-9.99399
俾爾	-9.99438
豈弟	-9.99454
黜	-9.99544
汝墳	-9.99561
迨	-9.99564
田祖	-9.99612
其志	-9.99629
膳	-9.99768
轍	-9.99778
葉似	-9.99781
言我	-9.99833
鄂	-9.99858
蝗	-9.99926
宵	-9.99927
亦名	-9.99946
般	-9.99972
賁	-9.99978
歛	-9.99987
充耳	-9.99992
采蘋	-10.0001
其母	-10.0002
鉤	-10.0011
壞	-10.0016
者故	-10.0028
求賢	-10.0029
亂世	-10.003
莘	-10.0031
或謂之	-10.0033
髙宗	-10.0046
燕燕	-10.0051
沚	-10.0056
漏	-10.006
廼	-10.0068
斬	-10.0077
註云	-10.0088
孫炎曰	-10.009
卵	-10.0093
内外	-10.01
劬勞	-10.01
瓚	-10.0102
下國	-10.0104
風化	-10.0104
洗	-10.0106
大邦	-10.0108
引詩	-10.0114
饑	-10.0119
陜	-10.0119
有道	-10.0124
元年	-10.0129
天保	-10.013
為主	-10.0132
西方	-10.0134
三星	-10.0136
争	-10.0141
斤	-10.0141
歐陽氏曰	-10.0147
撫	-10.0162
𢎞	-10.0162
毫	-10.0166
妣	-10.0178
襲	-10.0179
版	-10.0184
於君	-10.0191
陟彼	-10.0193
吏	-10.0201
不肯	-10.0201
者謂之	-10.0208
圉	-10.022
毎	-10.0225
泛	-10.0228
菀	-10.0229
承上	-10.0231
董氏曰	-10.0233
六十	-10.0235
吕氏曰	-10.0241
終南	-10.0241
也音義	-10.0242
浚	-10.0246
卬	-10.0254
宛丘	-10.0257
之樂歌	-10.0262
没	-10.0268
觸	-10.0268
洒	-10.027
齊人	-10.0275
山甫	-10.0289
鴛鴦	-10.0297
貍	-10.0309
遥	-10.031
贊	-10.031
笠	-10.0317
沱	-10.033
摇	-10.0331
憎	-10.0332
虛	-10.0332
腓	-10.0337
異於	-10.034
今乃	-10.0346
吕記	-10.0353
完	-10.0358
之禍	-10.0373
鄭氏康成曰	-10.0375
三章皆	-10.0387
則可以	-10.0388
燭	-10.0389
蘩	-10.039
亦孔之	-10.039
波	-10.0397
六轡	-10.0404
言采其	-10.0404
夭	-10.041
伯禽	-10.0412
簟	-10.0413
熾	-10.0422
以求	-10.0428
泮宫	-10.0431
茂盛	-10.044
笱	-10.0442
嚴緝	-10.0443
䟽曰	-10.0447
菼	-10.0463
誰謂	-10.0464
王事靡盬	-10.0465
葑	-10.0465
懌	-10.0469
載馳	-10.0469
頗	-10.0481
辱	-10.0482
成康	-10.0482
頑	-10.0482
艱	-10.0486
和樂	-10.0488
閉	-10.0497
譛	-10.0501
拾	-10.0502
亦當	-10.0502
奥	-10.0504
可見矣	-10.0507
四章章四句	-10.051
奢	-10.051
把	-10.0511
也箋正義曰	-10.0515
嚴氏粲曰	-10.0525
竝	-10.0526
翦	-10.0527
失之	-10.053
欣	-10.0533
湯孫	-10.0538
卦	-10.0547
駜	-10.055
姊	-10.0553
思古	-10.0562
話	-10.0581
伐崇	-10.0586
天降	-10.0587
項	-10.0591
呉	-10.0592
諱	-10.0594
多福	-10.0595
椓	-10.0598
上天	-10.0601
稱王	-10.0601
舊說	-10.0603
墨	-10.0616
彭彭	-10.0618
茍	-10.062
翳	-10.0628
中庸	-10.0632
秩秩	-10.0634
駉	-10.0641
愚謂	-10.0645
北方	-10.0648
莫我	-10.0649
採	-10.0652
地理志	-10.0653
芒	-10.0655
誤矣	-10.0656
捷	-10.066
榦	-10.0661
誣	-10.0661
考工記	-10.0678
蹌	-10.0682
邠	-10.0683
薁	-10.0683
梟	-10.07
農事	-10.07
安成劉氏曰	-10.0702
孽	-10.0705
嬖	-10.0708
行道	-10.0715
饁	-10.0717
鼈	-10.0717
蒐	-10.0718
爽	-10.0719
荆楚	-10.0722
和平	-10.0723
生子	-10.0725
韠	-10.0725
箴	-10.0726
四馬	-10.0727
騤	-10.0728
采芑	-10.0729
三章言	-10.0736
閟宫	-10.0741
黍離	-10.0744
七十	-10.0749
正直	-10.0759
費	-10.0767
雨雪	-10.0771
蜡	-10.0779
可知也	-10.0782
望其	-10.0787
相親	-10.0789
雝雝	-10.0795
之官	-10.08
釋文曰	-10.0805
燕樂	-10.0806
虞惇按	-10.0814
亦猶	-10.0828
其間	-10.0832
多士	-10.0839
壽考	-10.084
之基	-10.0852
莊子	-10.0858
汙	-10.0867
禮儀	-10.0877
萌	-10.0879
嚴氏	-10.0881
一事	-10.0896
不勝	-10.0899
其性	-10.0901
葛屨	-10.0901
進退	-10.0902
軾	-10.0903
家室	-10.0904
叢生	-10.0914
墜	-10.0932
之思	-10.0932
彼其之子	-10.0943
若是	-10.0944
孟子曰	-10.0945
狡童	-10.0947
程氏曰	-10.0958
枝葉	-10.0962
深矣	-10.0967
校	-10.0968
夷狄	-10.0988
釋詁文	-10.0989
藍	-10.0991
裼	-10.0994
祊	-10.0995
蔚	-10.0997
飬	-10.0997
世子	-10.1006
爾雅曰	-10.1012
遡	-10.1018
輩	-10.1019
孌	-10.1022
罔極	-10.1028
陋	-10.1043
亞	-10.1046
廣大	-10.1051
岐周	-10.1052
不顧	-10.1054
緇	-10.1054
繫之	-10.1058
善人	-10.1073
羔	-10.1077
淮南子	-10.1084
朱氏	-10.1089
謂我	-10.109
大學	-10.1091
測	-10.1091
無常	-10.1091
塵	-10.1097
大姒	-10.1102
品	-10.1112
欺	-10.1121
奈	-10.1137
撥	-10.1152
盤	-10.1158
乖	-10.1162
區	-10.1163
昆	-10.12
陷	-10.1207
猛	-10.123
虹	-10.124
摧	-10.1257
莎	-10.1257
耘	-10.1262
輻	-10.1273
秬	-10.1274
弛	-10.1275
跡	-10.1276
毳	-10.1277
邱	-10.1304
翕	-10.131
豝	-10.1321
斁	-10.1324
沸	-10.1329
寳	-10.1366
苴	-10.1373
洲	-10.1395
訏	-10.142
雙	-10.1463
袪	-10.1466
貊	-10.1467
孑	-10.1471
毗	-10.1489
倬	-10.1497
秣	-10.1521
澣	-10.1522
頸	-10.1534
攜	-10.1537
揭	-10.1542
倍	-10.1561
芹	-10.1582
稂	-10.1585
氓	-10.1586
絺	-10.1593
蕨	-10.1603
溺	-10.1613
損	-10.1635
麋	-10.1648
鞉	-10.1654
埽	-10.1661
滋	-10.1663
拒	-10.168
飭	-10.1684
鳳	-10.1685
峻	-10.1686
堵	-10.17
褒	-10.1707
諡	-10.1707
詔	-10.1712
替	-10.1714
操	-10.1732
肄	-10.1735
忒	-10.1744
戊	-10.1753
悖	-10.1758
僣	-10.1761
逼	-10.1763
栩	-10.1781
鳶	-10.1831
晨	-10.1844
增	-10.1857
墟	-10.1876
吁	-10.188
迺	-10.1892
影	-10.1898
纒	-10.1904
瑱	-10.1906
樸	-10.1907
諌	-10.1908
聰	-10.1912
訴	-10.1914
蹈	-10.1935
距	-10.1952
普	-10.1959
午	-10.1976
罹	-10.201
衿	-10.2031
蜂	-10.2033
闢	-10.2039
亭	-10.2054
祠	-10.2057
蟄	-10.2057
懈	-10.2062
幅	-10.2085
覃	-10.2088
潦	-10.2092
釣	-10.2113
札	-10.2132
奭	-10.2133
姞	-10.2138
荀	-10.2157
遄	-10.22
員	-10.2207
洧	-10.2208
脫	-10.2213
柏	-10.2217
焦	-10.2218
穉	-10.2219
縮	-10.2238
穢	-10.224
》	-10.2259
磨	-10.2267
禖	-10.2287
術	-10.2291
槩	-10.2293
瓦	-10.2316
膠	-10.2316
旬	-10.2341
褎	-10.2345
捄	-10.2347
恱	-10.2349
慝	-10.2371
給	-10.2398
箇	-10.2401
芼	-10.2424
佳	-10.2424
朕	-10.2428
俶	-10.2435
軫	-10.2436
汁	-10.2441
卉	-10.2452
沓	-10.2457
訖	-10.2473
鸛	-10.2496
鈴	-10.2499
臆	-10.2502
謗	-10.2504
擬	-10.253
糧	-10.2535
絃	-10.2554
虧	-10.2556
頒	-10.2557
際	-10.256
緫	-10.258
猷	-10.2581
冥	-10.2581
軸	-10.2584
焚	-10.2585
籩	-10.2603
淒	-10.2609
豵	-10.261
絳	-10.2627
溱	-10.2633
館	-10.2634
讎	-10.2634
汎	-10.2636
爪	-10.2644
苓	-10.2655
鄒	-10.266
涼	-10.2661
駵	-10.2666
詛	-10.2673
貨	-10.2689
健	-10.2693
頓	-10.2694
椅	-10.271
嚮	-10.2716
弭	-10.2718
巫	-10.2718
姝	-10.2719
甞	-10.272
譚	-10.272
談	-10.2721
氐	-10.2723
䝉	-10.2738
鳧	-10.2744
饒	-10.2748
烹	-10.2768
殿	-10.2779
脅	-10.2795
婁	-10.28
耿	-10.2803
牂	-10.2818
弊	-10.2828
壁	-10.2829
薺	-10.2839
穿	-10.2849
鎮	-10.2855
唁	-10.2856
樵	-10.2856
荏	-10.2859
狡	-10.2873
凌	-10.2877
据	-10.2878
漚	-10.2879
覽	-10.2879
穹	-10.2892
輈	-10.2921
寝	-10.2941
萍	-10.2962
敘	-10.2963
滛	-10.2967
墻	-10.2968
鴇	-10.2991
妙	-10.2999
熏	-10.3006
蠅	-10.3011
湏	-10.3019
剥	-10.302
愁	-10.3021
頍	-10.3033
鱗	-10.3049
軷	-10.3054
捕	-10.308
珍	-10.3099
脊	-10.3101
躋	-10.3101
萑	-10.3101
脚	-10.3104
嬪	-10.313
囘	-10.3132
荑	-10.3134
卽	-10.3134
琫	-10.314
控	-10.3161
凉	-10.3162
㦸	-10.3188
葽	-10.3193
遍	-10.3194
淠	-10.32
銜	-10.3214
壻	-10.3218
浪	-10.322
鳬	-10.322
佞	-10.3226
秩	-10.3242
迂	-10.3247
佃	-10.3248
渙	-10.3248
漬	-10.325
濫	-10.325
藹	-10.3284
沔	-10.3303
揆	-10.3306
檻	-10.331
舝	-10.3322
珠	-10.3328
䇿	-10.3332
羡	-10.3333
騷	-10.3335
祜	-10.3336
挹	-10.3346
潘	-10.3359
褧	-10.336
蕪	-10.3364
鞞	-10.337
庾	-10.3372
叢	-10.3375
墉	-10.3393
杼	-10.3397
輦	-10.3427
琚	-10.344
靷	-10.3445
諼	-10.3448
箱	-10.345
侑	-10.3456
㡬	-10.348
炰	-10.3513
拳	-10.3536
趾	-10.3541
枯	-10.3565
麕	-10.3568
恪	-10.357
挈	-10.357
藿	-10.3571
促	-10.3571
尼	-10.3573
囚	-10.3589
韔	-10.3593
慘	-10.3597
収	-10.3599
激	-10.36
筥	-10.3602
判	-10.3602
楸	-10.3608
祚	-10.3612
握	-10.3625
怛	-10.3626
覩	-10.3626
愬	-10.3629
巖	-10.363
鰋	-10.3636
珩	-10.3648
堇	-10.3649
吟	-10.3657
倦	-10.3659
值	-10.366
囊	-10.3664
矯	-10.3687
涖	-10.369
俯	-10.369
傲	-10.3693
綿	-10.3716
練	-10.3723
滯	-10.3724
湎	-10.3725
輸	-10.3746
爼	-10.3747
擾	-10.3749
赳	-10.3764
萋	-10.3775
穰	-10.3779
酉	-10.3779
抽	-10.378
冦	-10.3784
鏘	-10.3785
曀	-10.3786
汚	-10.3788
暢	-10.3809
滸	-10.3812
忡	-10.3812
黻	-10.383
夸	-10.3835
隴	-10.3837
閲	-10.3841
伍	-10.3842
膴	-10.3842
褊	-10.3864
彘	-10.3869
嗜	-10.3871
稅	-10.3875
纍	-10.3875
菲	-10.388
縞	-10.39
𦙍	-10.3913
洪	-10.3926
卭	-10.3934
搏	-10.3958
婚	-10.396
罩	-10.3969
拂	-10.3987
聼	-10.3989
熙	-10.3993
遜	-10.3996
溫	-10.3996
汶	-10.4007
蜴	-10.4021
藪	-10.4021
綬	-10.4044
栲	-10.4045
竦	-10.4052
勑	-10.4054
耽	-10.4054
忮	-10.4056
沐	-10.4058
局	-10.4062
狗	-10.4081
翅	-10.4084
纘	-10.4093
霍	-10.4103
培	-10.4115
憐	-10.4119
諄	-10.4123
鄧	-10.4146
㓜	-10.4152
穡	-10.4153
莞	-10.4169
駮	-10.4171
飯	-10.4177
諧	-10.4178
饌	-10.4179
頻	-10.4184
鱧	-10.4219
栢	-10.424
馨	-10.4249
刃	-10.4276
絜	-10.4278
裒	-10.4279
惴	-10.4303
綦	-10.4305
渴	-10.431
轅	-10.4333
墳	-10.4333
沒	-10.4338
暗	-10.4339
嚶	-10.4356
弼	-10.4367
舂	-10.4368
耄	-10.4378
敕	-10.4406
諏	-10.4438
盗	-10.4467
拊	-10.447
啄	-10.447
傚	-10.4473
蘿	-10.4478
岵	-10.4494
漿	-10.4496
麀	-10.4497
濵	-10.4502
隋	-10.4503
鞫	-10.4504
饎	-10.4515
柯	-10.4519
叚	-10.4532
捋	-10.4532
伶	-10.4539
冡	-10.456
確	-10.4562
迭	-10.4563
鼻	-10.4565
跂	-10.4565
愾	-10.4572
闊	-10.4572
餱	-10.4576
禡	-10.4591
矦	-10.4593
脯	-10.4593
樞	-10.4625
虡	-10.4627
羹	-10.4629
卯	-10.4631
彛	-10.4631
簫	-10.4633
雩	-10.4656
眞	-10.4663
娣	-10.4667
乂	-10.4668
粢	-10.4671
鋭	-10.4699
廹	-10.4701
斨	-10.4702
賛	-10.4727
膝	-10.4729
複	-10.4733
藴	-10.4735
睆	-10.4739
構	-10.4764
翁	-10.4791
粉	-10.4793
隘	-10.4797
付	-10.4798
瓉	-10.4799
麃	-10.4805
緌	-10.4823
匠	-10.4824
佚	-10.4825
乞	-10.4837
埸	-10.4845
斑	-10.4855
苹	-10.4859
状	-10.4863
厓	-10.4898
迄	-10.4898
悅	-10.4899
割	-10.4931
填	-10.4932
群	-10.4938
柱	-10.4952
鱮	-10.4959
杖	-10.4961
肺	-10.4962
疊	-10.4966
庖	-10.4968
鷄	-10.4969
孺	-10.4971
呦	-10.4981
乳	-10.4994
浦	-10.4998
彫	-10.4999
徽	-10.4999
廷	-10.5022
韭	-10.5022
津	-10.5059
瑾	-10.5065
希	-10.5066
蔞	-10.5091
宥	-10.5095
纁	-10.5096
抗	-10.5098
妖	-10.5103
盜	-10.5105
頼	-10.5111
兖	-10.5132
蓺	-10.5139
趯	-10.5141
贅	-10.5143
瑣	-10.5145
輒	-10.5171
寇	-10.5172
顚	-10.5172
郇	-10.5174
饔	-10.5175
嚳	-10.5192
筍	-10.5192
鵜	-10.5199
溉	-10.5216
騶	-10.5232
壬	-10.5236
算	-10.5239
慆	-10.524
返	-10.5242
濶	-10.5243
褐	-10.5246
螗	-10.5268
犉	-10.5284
餐	-10.531
腰	-10.5311
態	-10.5317
豪	-10.5318
臻	-10.5318
吞	-10.5342
衎	-10.5345
㨗	-10.5349
奴	-10.5349
缶	-10.5354
獫	-10.5373
扈	-10.5382
頷	-10.5384
縶	-10.539
隮	-10.5394
株	-10.5416
騰	-10.5421
鍭	-10.5422
踈	-10.5423
佼	-10.545
凄	-10.5457
酷	-10.5457
酤	-10.5459
喓	-10.546
瓞	-10.5472
矇	-10.5474
圜	-10.5485
秠	-10.549
馘	-10.5512
粒	-10.5524
庫	-10.5525
㝠	-10.5527
涵	-10.5533
鉦	-10.556
它	-10.556
丙	-10.556
掘	-10.5564
祇	-10.5567
殳	-10.5587
釡	-10.5597
咽	-10.5598
垢	-10.5605
鼉	-10.5624
霸	-10.5628
鵙	-10.5628
襍	-10.5629
冒	-10.5631
坤	-10.5637
暵	-10.5656
瑩	-10.5661
芟	-10.5666
耒	-10.5667
貶	-10.5667
蓍	-10.567
亥	-10.567
翬	-10.5671
儆	-10.5673
姦	-10.5673
嬰	-10.5673
屑	-10.5679
番	-10.5679
縢	-10.5707
楫	-10.5708
沉	-10.5713
鱨	-10.5715
泳	-10.5716
鬛	-10.5745
届	-10.5751
禰	-10.5753
寺	-10.5754
鷮	-10.5755
騋	-10.5774
遁	-10.5784
㸔	-10.5794
鉞	-10.582
塈	-10.5821
綽	-10.5855
牀	-10.5857
訩	-10.5859
凢	-10.5862
儦	-10.5885
霏	-10.5895
佑	-10.5896
妬	-10.5897
玷	-10.5898
鹽	-10.5927
忿	-10.5931
托	-10.5934
詹	-10.5935
觥	-10.5958
寅	-10.5966
策	-10.5966
凝	-10.5968
沖	-10.5971
螫	-10.5974
庇	-10.5976
誇	-10.6
頽	-10.6004
亹	-10.6008
伸	-10.601
泲	-10.6015
罷	-10.6042
萃	-10.6049
渥	-10.6051
嫉	-10.6053
柘	-10.6063
昴	-10.6081
蚩	-10.6081
宼	-10.6084
鶖	-10.6084
鷦	-10.6087
歐	-10.6112
洸	-10.6116
額	-10.612
税	-10.6155
廩	-10.6156
飄	-10.6157
飱	-10.6158
罶	-10.6159
鵰	-10.6161
墮	-10.6194
乏	-10.6194
禋	-10.6227
檢	-10.6233
滎	-10.6263
核	-10.6263
箭	-10.6272
彰	-10.6274
鶬	-10.6274
爛	-10.6274
羌	-10.6276
彩	-10.6277
䕶	-10.6278
惕	-10.6278
娀	-10.6307
楹	-10.6312
熈	-10.6316
葍	-10.6316
翽	-10.6323
摻	-10.6345
晞	-10.6347
橋	-10.635
廉	-10.6354
鱒	-10.6355
郷	-10.6362
鬻	-10.6389
酋	-10.639
芸	-10.6398
球	-10.6424
泗	-10.6425
孕	-10.6428
証	-10.643
枕	-10.6432
纉	-10.6435
憯	-10.6437
漁	-10.647
潜	-10.6471
逵	-10.6475
勾	-10.6476
閟	-10.6499
鏤	-10.6506
裕	-10.6511
霆	-10.6511
捨	-10.6513
罝	-10.6515
禪	-10.6536
譌	-10.654
㬥	-10.6546
灰	-10.6547
寶	-10.6549
㸃	-10.655
蘖	-10.655
壎	-10.6551
鉶	-10.6551
泂	-10.6563
鄶	-10.6582
蚤	-10.6588
楨	-10.6591
鼛	-10.6591
窒	-10.66
犀	-10.6619
肖	-10.663
鞏	-10.6631
掲	-10.6633
噐	-10.6635
匕	-10.6637
吴	-10.6638
丸	-10.6638
坰	-10.6638
鋈	-10.6663
快	-10.6669
睠	-10.6678
緡	-10.6708
讐	-10.6709
擅	-10.671
嘯	-10.6711
坊	-10.6711
賀	-10.6712
觱	-10.6719
觶	-10.672
漣	-10.6753
猱	-10.6754
雕	-10.6757
台	-10.676
燥	-10.6784
錡	-10.6786
稌	-10.6789
胄	-10.6791
卧	-10.6792
欒	-10.6793
狎	-10.6795
蹄	-10.6826
絡	-10.6827
篪	-10.6831
寔	-10.6832
觩	-10.6835
薍	-10.6837
蟊	-10.6862
瀰	-10.6871
帨	-10.6872
該	-10.6873
逑	-10.6878
渝	-10.6879
祁	-10.6881
妒	-10.6886
玖	-10.6902
螟	-10.6911
爨	-10.6917
葅	-10.695
湖	-10.6951
粗	-10.6951
搖	-10.6955
朗	-10.6958
浩	-10.6959
暫	-10.6964
電	-10.6971
煑	-10.6987
丰	-10.6994
豚	-10.6995
澮	-10.7002
顒	-10.7011
豺	-10.7037
愠	-10.7042
矩	-10.7047
𩔖	-10.7048
墓	-10.7071
瑲	-10.7078
洫	-10.7079
壇	-10.7082
芘	-10.7089
悌	-10.7117
蜮	-10.7118
脆	-10.7123
閭	-10.7125
釀	-10.713
伎	-10.7138
蓴	-10.7149
彦	-10.7162
賂	-10.7163
赴	-10.7166
蔑	-10.7171
蠐	-10.7192
祐	-10.7208
馭	-10.7211
僮	-10.7213
途	-10.7256
皓	-10.729
頂	-10.7297
竄	-10.73
栘	-10.7328
溪	-10.7334
踵	-10.7336
遯	-10.735
酸	-10.7373
匊	-10.7375
煮	-10.7382
惸	-10.7385
鬷	-10.7387
妥	-10.7392
戮	-10.7422
嘒	-10.7429
做	-10.7429
闇	-10.743
綸	-10.7431
鷙	-10.7432
葬	-10.7461
鶻	-10.7462
勲	-10.7468
燒	-10.7471
隧	-10.7474
噬	-10.748
涘	-10.7513
无	-10.7513
潁	-10.7514
菶	-10.7519
奬	-10.752
昊	-10.7522
懆	-10.7524
閣	-10.7549
凱	-10.755
紞	-10.7552
摽	-10.7558
叟	-10.756
葚	-10.7591
憤	-10.7602
鞅	-10.7602
輾	-10.7604
窶	-10.7605
譴	-10.7607
厄	-10.7643
泌	-10.7645
冓	-10.7645
詐	-10.7646
惄	-10.7648
丑	-10.7692
圻	-10.7693
揥	-10.7694
紽	-10.7695
畬	-10.7723
樓	-10.7725
㳺	-10.7734
肝	-10.7739
畨	-10.7742
薨	-10.7775
汜	-10.7779
膋	-10.779
厖	-10.7821
稚	-10.7823
枲	-10.7823
嘵	-10.7826
鸒	-10.7831
鈎	-10.7869
韎	-10.787
措	-10.7873
靣	-10.7874
佻	-10.7875
豔	-10.7879
詵	-10.7881
皁	-10.7911
遙	-10.7918
褘	-10.7921
噫	-10.7921
函	-10.7926
櫜	-10.7955
輝	-10.7961
玄	-10.7964
崧	-10.7996
楛	-10.8002
摘	-10.8011
𨽻	-10.8012
逰	-10.8015
匱	-10.8019
技	-10.8047
蠋	-10.8047
闐	-10.8049
耀	-10.8049
緣	-10.8051
漂	-10.8055
畎	-10.8064
璜	-10.8093
璣	-10.8094
竈	-10.814
琇	-10.8141
黙	-10.8145
羖	-10.8147
纔	-10.8147
餼	-10.8151
扁	-10.8152
彝	-10.8152
紕	-10.8153
墐	-10.8168
杻	-10.819
諒	-10.8194
泄	-10.8194
悴	-10.8195
珌	-10.8197
腐	-10.8199
閱	-10.82
涯	-10.8201
俴	-10.8234
繒	-10.8238
瘞	-10.824
障	-10.8241
姒	-10.8243
躁	-10.8246
着	-10.8248
慇	-10.825
郿	-10.8255
葱	-10.8281
螢	-10.8284
低	-10.8285
郵	-10.8288
翿	-10.8288
惓	-10.8291
苾	-10.8302
祛	-10.8337
壅	-10.8341
坦	-10.8341
螣	-10.838
莒	-10.8385
踖	-10.8387
淳	-10.8388
蘓	-10.8388
騫	-10.8388
荓	-10.8389
盱	-10.8391
霰	-10.8392
彤	-10.8421
譁	-10.8429
卓	-10.8436
踧	-10.8438
驖	-10.8465
拱	-10.8478
奸	-10.8478
繆	-10.8478
怙	-10.8484
䲭	-10.852
娛	-10.8525
揄	-10.8534
耇	-10.8537
筋	-10.8579
麤	-10.8579
裹	-10.8581
䧟	-10.8583
罄	-10.8588
飫	-10.8593
焞	-10.8612
飴	-10.8617
尖	-10.862
謡	-10.8627
袂	-10.8628
這	-10.8642
串	-10.8664
弄	-10.8677
銘	-10.8679
抵	-10.8687
剔	-10.8718
冽	-10.8739
斐	-10.8775
緎	-10.8777
鞙	-10.8777
慨	-10.8777
丕	-10.8778
皎	-10.8778
憫	-10.878
汕	-10.8783
摶	-10.8824
凋	-10.8825
逕	-10.8825
迅	-10.8827
騑	-10.8829
磋	-10.8829
韘	-10.8832
蟻	-10.8868
荇	-10.8868
㧞	-10.8871
儺	-10.8876
袁	-10.8876
憑	-10.8876
扞	-10.8884
棧	-10.8913
械	-10.8922
蕳	-10.8924
畱	-10.8971
垤	-10.8974
簸	-10.8981
衾	-10.8981
疐	-10.8986
鮎	-10.899
栒	-10.9021
沛	-10.9025
驟	-10.9026
禴	-10.9027
揜	-10.9028
桂	-10.9028
悄	-10.9032
鬭	-10.9032
枌	-10.9069
鷊	-10.9071
掃	-10.9077
弃	-10.9077
凖	-10.9078
惰	-10.908
鶯	-10.9082
偪	-10.9082
忝	-10.9086
驛	-10.9089
柷	-10.9094
劣	-10.9128
讙	-10.9128
巻	-10.9136
凍	-10.9138
瑳	-10.9139
騁	-10.914
屯	-10.9174
莽	-10.9179
疇	-10.9183
潝	-10.9185
縿	-10.9191
踽	-10.9193
缾	-10.9193
穋	-10.9232
詭	-10.9232
竿	-10.9233
奕	-10.9234
盬	-10.9234
荻	-10.9235
譙	-10.9235
壤	-10.9236
銳	-10.9238
晳	-10.9238
纚	-10.9239
隙	-10.9239
啖	-10.9281
棫	-10.9281
繭	-10.9284
萇	-10.9285
臂	-10.9285
賄	-10.9288
製	-10.929
杭	-10.9291
燬	-10.9294
鷯	-10.9295
矧	-10.9296
炮	-10.9297
虜	-10.9337
裂	-10.9343
眼	-10.9344
馴	-10.939
鈞	-10.9391
耨	-10.9398
佌	-10.9403
輶	-10.9442
騐	-10.9444
掇	-10.9446
櫄	-10.9448
岀	-10.9453
蔦	-10.9455
鯊	-10.9456
湜	-10.9469
貺	-10.9493
減	-10.9496
鎛	-10.9499
柚	-10.9501
掊	-10.9502
旆	-10.9504
穈	-10.9504
貓	-10.9513
銍	-10.9546
妨	-10.9551
耗	-10.9554
鋒	-10.9559
蓁	-10.9565
偈	-10.9568
檿	-10.9592
帷	-10.9601
戌	-10.9603
倣	-10.9605
撮	-10.9606
阼	-10.9607
毅	-10.9607
模	-10.9609
砥	-10.9611
冩	-10.9612
鏞	-10.9645
靁	-10.9646
梧	-10.9651
茁	-10.9653
卣	-10.9659
濩	-10.9663
梗	-10.9663
随	-10.9664
韜	-10.9666
哭	-10.9666
藚	-10.9715
輙	-10.9717
紲	-10.9717
韶	-10.9717
闋	-10.9718
陣	-10.9721
髢	-10.9726
梨	-10.9756
燮	-10.9761
鍼	-10.9762
町	-10.9767
吪	-10.9768
曼	-10.977
罕	-10.9772
枉	-10.9773
属	-10.9778
匐	-10.9782
蝱	-10.9814
袒	-10.9824
冲	-10.9824
蜎	-10.9824
沬	-10.9828
𥘉	-10.983
鞹	-10.9874
湝	-10.9894
渾	-10.9932
袍	-10.9934
埤	-10.9938
茲	-10.9939
唱	-10.9939
瀌	-10.9943
豜	-10.9945
斿	-10.9984
祓	-10.9988
冶	-10.9988
簒	-10.9991
噲	-10.9994
繋	-10.9996
佽	-10.9997
懟	-11.0002
剝	-11.0011
蠜	-11.0043
韌	-11.0045
韍	-11.0046
狁	-11.0048
粺	-11.0051
鶚	-11.0051
瘉	-11.0052
坻	-11.0052
塾	-11.0053
稺	-11.0053
狸	-11.0055
戕	-11.0056
羝	-11.0059
蓷	-11.0089
芙	-11.0096
隣	-11.0107
伴	-11.0112
傑	-11.0112
紓	-11.0117
匍	-11.0119
彧	-11.0127
濬	-11.016
雎	-11.0161
鷂	-11.0162
䙝	-11.0167
戀	-11.0167
畟	-11.0181
科	-11.0215
釁	-11.0215
浴	-11.0216
腫	-11.0218
儇	-11.022
駰	-11.0221
蒹	-11.0222
墾	-11.0234
歇	-11.0268
惙	-11.0273
翊	-11.0277
油	-11.0333
瑶	-11.0336
桷	-11.0341
惻	-11.0341
鉏	-11.0342
洩	-11.0343
蜥	-11.0393
礼	-11.0401
纂	-11.0403
釃	-11.0411
樅	-11.0443
郁	-11.0446
拙	-11.0448
亷	-11.0448
楅	-11.0456
蠲	-11.0458
鬰	-11.0461
隐	-11.0461
祋	-11.051
醫	-11.051
纎	-11.0513
俄	-11.0514
祧	-11.0515
巔	-11.0518
圗	-11.0519
𦂳	-11.0519
羜	-11.052
濈	-11.0522
㸑	-11.0525
埋	-11.0527
頎	-11.0564
岱	-11.0565
縭	-11.0568
療	-11.0568
恫	-11.0573
料	-11.0573
溼	-11.0574
詆	-11.0574
㫁	-11.0574
繳	-11.0574
勁	-11.0576
儼	-11.0577
馵	-11.0578
諭	-11.058
坼	-11.0581
脣	-11.0582
檉	-11.0609
蓫	-11.0619
怭	-11.0625
黏	-11.0628
頰	-11.0633
貆	-11.0635
蠆	-11.0635
泆	-11.0636
鸇	-11.0684
滂	-11.0691
緻	-11.0693
瀆	-11.0693
粹	-11.0695
胙	-11.0695
珈	-11.0701
憮	-11.0701
糓	-11.0702
雊	-11.0703
杏	-11.0743
痗	-11.0754
茇	-11.0755
菉	-11.0756
僞	-11.0759
蹲	-11.0768
跪	-11.081
胎	-11.0813
軓	-11.0813
咮	-11.0817
襃	-11.0818
彞	-11.0819
陪	-11.0825
朴	-11.0868
紵	-11.087
貿	-11.0881
廪	-11.0882
俅	-11.0885
蓮	-11.0929
停	-11.0937
頴	-11.0939
訂	-11.094
蔵	-11.0941
奐	-11.0945
揉	-11.0945
檖	-11.0981
臼	-11.0994
箾	-11.1002
桋	-11.1003
橐	-11.1004
偷	-11.1006
1	-11.1018
帑	-11.1019
2	-11.1028
秫	-11.1062
演	-11.1063
骭	-11.1064
窈	-11.1065
礙	-11.1065
恕	-11.1067
搆	-11.1068
懽	-11.1069
歗	-11.1108
仡	-11.1119
亢	-11.1124
畛	-11.113
惔	-11.1133
觿	-11.1134
縷	-11.1135
伾	-11.1135
屺	-11.1175
弩	-11.1177
蔬	-11.1181
菡	-11.1184
煇	-11.1189
槃	-11.1192
屠	-11.1193
侜	-11.1194
濊	-11.1198
泱	-11.12
漘	-11.1203
瞍	-11.1236
觼	-11.1248
鴂	-11.1248
暱	-11.1254
䕃	-11.1261
綌	-11.1263
橘	-11.13
仳	-11.1302
僛	-11.1314
羨	-11.1319
姚	-11.132
怡	-11.1322
猴	-11.1327
淄	-11.137
蛾	-11.1377
袖	-11.1378
瀼	-11.1379
勅	-11.1382
贄	-11.1385
槱	-11.1386
邉	-11.1387
瘼	-11.1392
畇	-11.1398
蠢	-11.1439
槁	-11.144
墠	-11.1441
愷	-11.1442
耻	-11.1444
齎	-11.1446
謠	-11.1446
濆	-11.1446
駪	-11.1447
萎	-11.1447
璲	-11.1448
壮	-11.145
吝	-11.1451
駸	-11.1452
皷	-11.1453
嬛	-11.1456
鬵	-11.1465
慄	-11.1503
黝	-11.1505
遼	-11.1509
鐃	-11.1511
響	-11.1513
聨	-11.1514
肱	-11.1517
謁	-11.1522
翯	-11.1561
昺	-11.1566
銀	-11.1575
仙	-11.1577
鴆	-11.1583
餉	-11.1587
壼	-11.1595
瑀	-11.1631
甜	-11.1637
茆	-11.1637
飼	-11.1639
醓	-11.1641
鳦	-11.1643
蹂	-11.1644
虵	-11.1646
薈	-11.1647
蠱	-11.1648
頡	-11.1651
袢	-11.1654
莢	-11.1676
栵	-11.1694
鄠	-11.1702
皥	-11.1704
奇	-11.1708
濛	-11.1708
禎	-11.1708
濱	-11.1709
勒	-11.171
褖	-11.1713
霑	-11.1719
藎	-11.1768
綢	-11.1773
陌	-11.1776
貔	-11.1786
豬	-11.1836
軜	-11.1842
僴	-11.1842
幝	-11.185
冨	-11.1852
塤	-11.1855
穟	-11.1858
隸	-11.1895
銚	-11.19
蝤	-11.1902
鐸	-11.1905
嬴	-11.1907
軧	-11.191
䜴	-11.1918
􁂶	-11.1968
麓	-11.197
栝	-11.1972
鴥	-11.1974
鼗	-11.1975
闥	-11.1978
挑	-11.1979
哆	-11.198
迴	-11.1981
蝘	-11.1981
髲	-11.1984
泯	-11.1987
曳	-11.1987
渇	-11.1987
晢	-11.1989
汭	-11.199
唪	-11.1991
繞	-11.204
湘	-11.2041
瘠	-11.205
瘳	-11.2051
囷	-11.2052
諛	-11.2053
傭	-11.2061
銎	-11.2061
荍	-11.2062
甓	-11.2066
壑	-11.2119
茷	-11.2119
魄	-11.2119
􁂎	-11.2123
夘	-11.2123
嚏	-11.2124
亾	-11.2124
㒺	-11.2126
滮	-11.2127
縐	-11.2131
熇	-11.2132
臝	-11.2176
吠	-11.2188
腸	-11.2188
伺	-11.219
寕	-11.2192
噂	-11.2199
慱	-11.2202
佛	-11.2212
晋	-11.2248
鷩	-11.2262
遒	-11.2263
喈	-11.2263
壘	-11.2266
麾	-11.2266
蕘	-11.2267
甡	-11.2275
弨	-11.2321
鐡	-11.2329
菣	-11.2331
摩	-11.2331
廐	-11.2338
瘨	-11.2339
繪	-11.2339
煽	-11.2343
紼	-11.2345
鉉	-11.2394
蜻	-11.2396
租	-11.2401
蓑	-11.2405
楷	-11.2406
脾	-11.2406
枤	-11.2408
耐	-11.2414
薿	-11.2429
襮	-11.2464
裔	-11.247
啍	-11.2472
勃	-11.2474
璞	-11.2475
朅	-11.2478
窺	-11.2479
隤	-11.2485
斃	-11.254
祔	-11.2544
剪	-11.2545
苛	-11.2545
隊	-11.2546
躐	-11.2546
璊	-11.2546
邾	-11.2547
披	-11.2549
痯	-11.2553
衷	-11.2554
跗	-11.2613
糞	-11.2617
狃	-11.2618
羑	-11.2618
鶹	-11.2619
斛	-11.2619
豉	-11.262
跳	-11.262
探	-11.2623
峩	-11.2623
釜	-11.2624
頤	-11.2625
俁	-11.2639
沿	-11.2686
噣	-11.2688
庠	-11.2688
愉	-11.2692
浼	-11.2693
萱	-11.2693
騵	-11.2694
挽	-11.2698
姪	-11.2699
峙	-11.2703
懇	-11.276
標	-11.2764
棟	-11.2766
顓	-11.2768
裁	-11.277
蔌	-11.2775
挃	-11.2781
耔	-11.2791
咺	-11.2835
茵	-11.2836
胷	-11.2837
隈	-11.2839
礪	-11.2839
哺	-11.284
赦	-11.2841
匿	-11.2841
稙	-11.2842
概	-11.2844
婢	-11.2846
濳	-11.2849
蕡	-11.2849
潮	-11.285
欵	-11.285
嶷	-11.2854
釵	-11.2909
籊	-11.2912
瀟	-11.2915
糲	-11.2915
邵	-11.2918
杙	-11.2919
窘	-11.2924
悁	-11.2929
餴	-11.2936
綃	-11.2967
扇	-11.2987
鵂	-11.2988
船	-11.2992
餙	-11.2995
撻	-11.3
雰	-11.3019
廓	-11.3059
槿	-11.3067
彚	-11.3068
勵	-11.3069
跨	-11.3069
駭	-11.307
翛	-11.3073
諶	-11.3073
逞	-11.3074
寁	-11.3075
別	-11.3076
盼	-11.3077
夔	-11.3081
漫	-11.3141
呶	-11.3145
睢	-11.3145
䏻	-11.3145
諂	-11.3145
恊	-11.315
護	-11.315
脛	-11.3153
箎	-11.3154
甑	-11.3156
綣	-11.3159
媛	-11.3164
汧	-11.3213
廏	-11.3216
緄	-11.3217
羲	-11.3217
鰷	-11.3222
鞗	-11.3223
鼒	-11.3223
淹	-11.3224
魂	-11.3225
晣	-11.3225
炤	-11.3226
裯	-11.3228
揺	-11.3228
䖏	-11.3229
準	-11.323
苐	-11.3231
戯	-11.3233
蝎	-11.3285
忱	-11.3291
皋	-11.3294
枳	-11.3294
啻	-11.3297
藟	-11.3297
冔	-11.3299
銅	-11.33
瘵	-11.3302
罦	-11.3303
屆	-11.3304
騧	-11.3305
朽	-11.3307
芣	-11.3308
排	-11.3309
睘	-11.3311
澳	-11.3314
恁	-11.3316
啜	-11.3368
廛	-11.337
繢	-11.3373
搜	-11.3373
楰	-11.3374
駑	-11.3377
誼	-11.3381
杲	-11.3382
烖	-11.3383
賣	-11.3383
擣	-11.3385
櫛	-11.3385
㓂	-11.339
饟	-11.3392
詈	-11.3394
洳	-11.3446
倨	-11.3457
媾	-11.3461
淡	-11.3462
像	-11.3462
尨	-11.3464
槖	-11.3465
鯇	-11.3466
禀	-11.3467
𬒳	-11.3467
鬈	-11.3531
幷	-11.3533
籬	-11.3537
旭	-11.354
儲	-11.3543
睂	-11.3545
軹	-11.3549
鮐	-11.3559
麰	-11.3606
芋	-11.3614
煖	-11.3618
鐲	-11.3619
痒	-11.3622
簠	-11.3622
僾	-11.3624
碎	-11.3626
睍	-11.3628
繾	-11.3634
淢	-11.369
錞	-11.3696
弧	-11.3699
閨	-11.37
忖	-11.3701
袞	-11.3701
鑑	-11.3702
邈	-11.3702
誑	-11.3703
詰	-11.3704
沾	-11.3705
繕	-11.3705
泚	-11.3706
删	-11.3708
遨	-11.3708
𧖟	-11.3718
菟	-11.3773
滕	-11.3775
挺	-11.3781
晤	-11.3782
殪	-11.3784
寮	-11.3784
燼	-11.3786
樛	-11.3787
恬	-11.3787
愒	-11.3788
鑠	-11.3789
謫	-11.3789
赬	-11.3791
盍	-11.3792
暖	-11.3793
崒	-11.3794
穧	-11.3801
癸	-11.3855
礿	-11.3856
尉	-11.386
爇	-11.3863
蘞	-11.3863
郤	-11.3864
髀	-11.3864
蛛	-11.3867
隹	-11.3867
羈	-11.387
洞	-11.3871
烕	-11.3873
赭	-11.3873
鷖	-11.3874
艽	-11.3877
旻	-11.392
嵩	-11.3943
粼	-11.3943
芃	-11.3945
售	-11.3947
紡	-11.3948
顙	-11.3948
罿	-11.395
鴨	-11.3952
叠	-11.3952
劭	-11.3953
佶	-11.3956
徇	-11.3956
姆	-11.3957
買	-11.3958
嗸	-11.3959
掎	-11.3966
眡	-11.4028
寖	-11.4029
喧	-11.4033
霽	-11.4034
潨	-11.4034
慾	-11.4036
瘏	-11.4037
薅	-11.4037
㓗	-11.4038
轄	-11.4041
畒	-11.4052
椐	-11.4101
刋	-11.4108
㤗	-11.412
稔	-11.4124
霾	-11.4131
洄	-11.4197
芩	-11.4198
蠨	-11.4204
蹟	-11.4205
戩	-11.4206
蜃	-11.4206
玼	-11.4213
廻	-11.4214
黮	-11.4278
繅	-11.4282
膾	-11.4285
薰	-11.4286
斝	-11.4287
綺	-11.4287
彷	-11.429
鍇	-11.4293
桴	-11.4298
浹	-11.4298
脉	-11.4301
鳸	-11.437
橫	-11.4372
毚	-11.4373
綜	-11.4373
噉	-11.4373
腥	-11.4375
僊	-11.4377
滺	-11.4378
坡	-11.4378
仄	-11.4378
驔	-11.438
蜘	-11.4381
哿	-11.4382
蹐	-11.4386
喉	-11.4388
跲	-11.4389
藾	-11.4458
柰	-11.4461
媯	-11.4463
翹	-11.4463
鋤	-11.4463
䟦	-11.4464
蹢	-11.4464
襢	-11.4467
胸	-11.4468
䘏	-11.4469
摰	-11.447
鮦	-11.4471
菘	-11.4472
巘	-11.4475
拚	-11.4477
蓆	-11.4534
嘅	-11.4542
秭	-11.4551
鸋	-11.4552
塡	-11.4553
蛸	-11.4554
悸	-11.4556
縛	-11.4556
晛	-11.4559
龡	-11.456
駓	-11.4565
幪	-11.4565
嶞	-11.4565
宁	-11.4633
襌	-11.4634
郃	-11.4635
巴	-11.4639
蠭	-11.464
芽	-11.4641
系	-11.4642
麄	-11.4645
昵	-11.4645
簀	-11.4647
盆	-11.4652
蝕	-11.4653
撃	-11.4655
瞿	-11.472
鞶	-11.4722
架	-11.4726
丞	-11.4728
拮	-11.4729
菴	-11.473
䋲	-11.4731
噳	-11.4732
閎	-11.4732
澄	-11.4733
雛	-11.4733
認	-11.4734
麒	-11.4734
超	-11.4735
篚	-11.474
鍛	-11.4746
襭	-11.4819
偲	-11.4819
擁	-11.4821
蜜	-11.4824
鼐	-11.4824
炳	-11.4825
穂	-11.4829
喘	-11.483
搔	-11.4832
絆	-11.4837
齡	-11.4906
丱	-11.4909
炊	-11.4913
蜓	-11.4913
㦧	-11.4915
綂	-11.4916
駾	-11.4919
紒	-11.4921
臄	-11.4921
靦	-11.4922
耋	-11.4996
殉	-11.4997
餌	-11.5006
映	-11.5008
夣	-11.5008
暨	-11.5008
督	-11.501
剖	-11.501
慤	-11.5011
舛	-11.5011
疲	-11.5012
灑	-11.5014
俔	-11.5098
箸	-11.5098
液	-11.5099
皤	-11.51
陛	-11.5101
𤨏	-11.5103
線	-11.5105
襛	-11.5106
軰	-11.5107
燧	-11.5107
陾	-11.5108
玊	-11.511
3	-11.5111
訣	-11.5113
囯	-11.5114
萹	-11.5119
槐	-11.5185
豋	-11.5187
鞭	-11.5189
杵	-11.5191
繚	-11.5192
殻	-11.5192
衽	-11.5194
稜	-11.5195
憔	-11.5195
螓	-11.5197
諺	-11.5198
幭	-11.5199
掖	-11.5199
冐	-11.52
怓	-11.52
縈	-11.5201
敔	-11.5207
昄	-11.5213
楘	-11.5282
傞	-11.5284
楮	-11.5285
鹵	-11.5286
捍	-11.5288
恂	-11.5291
肌	-11.5292
諾	-11.5294
臘	-11.5295
鷕	-11.5295
憾	-11.5296
需	-11.5298
鍜	-11.5299
㓕	-11.5299
螻	-11.5373
蛄	-11.5373
緼	-11.538
蠧	-11.5381
騎	-11.5388
倩	-11.539
爻	-11.539
滔	-11.539
寂	-11.5392
愿	-11.5393
癉	-11.5402
氿	-11.5403
萏	-11.5475
搢	-11.5478
諦	-11.548
猨	-11.5483
偹	-11.5487
枋	-11.5487
愴	-11.5487
稀	-11.5492
褕	-11.5495
輅	-11.5498
熹	-11.5498
祺	-11.5503
肴	-11.5504
陔	-11.5565
囂	-11.5573
藤	-11.5575
宦	-11.5577
霧	-11.5577
靑	-11.5578
蕖	-11.5579
譎	-11.5579
覬	-11.558
奰	-11.558
餓	-11.5581
圎	-11.5584
邸	-11.5585
悍	-11.5587
曜	-11.5588
皂	-11.5588
怳	-11.559
銶	-11.5591
襋	-11.5669
漾	-11.567
梯	-11.5673
昕	-11.5675
觽	-11.5676
袵	-11.5678
鄗	-11.5679
价	-11.5679
匈	-11.568
尰	-11.5681
誚	-11.5686
黷	-11.5686
飶	-11.5696
蝑	-11.5697
疷	-11.57
濔	-11.5753
紆	-11.5772
閽	-11.5775
黔	-11.5775
紐	-11.5779
筦	-11.578
妁	-11.5781
曵	-11.5782
醒	-11.5783
倘	-11.5784
銷	-11.5784
膽	-11.5784
迪	-11.5785
訌	-11.5786
莱	-11.5791
䑓	-11.5792
憶	-11.5874
龐	-11.5874
皦	-11.5877
歷	-11.5881
彈	-11.5883
輓	-11.5884
岨	-11.5886
謷	-11.5887
諗	-11.5888
輊	-11.5894
戶	-11.5972
涌	-11.5985
裝	-11.5986
岷	-11.5987
膍	-11.599
囬	-11.5991
:	-11.6012
菫	-11.6042
鏃	-11.6075
鋂	-11.6076
抒	-11.6084
菊	-11.6084
兊	-11.6085
髻	-11.6089
勩	-11.6089
呈	-11.6091
塒	-11.6091
耉	-11.6092
杕	-11.6092
魗	-11.6094
鬬	-11.6096
鵩	-11.6176
贖	-11.6183
罛	-11.6192
盎	-11.6193
住	-11.6193
瘦	-11.6195
妯	-11.6198
憩	-11.6198
胾	-11.6198
魃	-11.6199
靳	-11.62
楀	-11.6204
瞭	-11.6204
掤	-11.6204
鵒	-11.6275
陿	-11.6284
砠	-11.6285
蜋	-11.6287
針	-11.6288
殱	-11.6288
媟	-11.6292
鹹	-11.6294
麞	-11.6295
鵓	-11.6295
倭	-11.6296
頥	-11.6297
閼	-11.6297
芥	-11.6297
竅	-11.6298
瘥	-11.6301
㽔	-11.6302
逍	-11.6302
鬩	-11.6302
樽	-11.6304
饛	-11.6305
嬀	-11.631
廱	-11.6393
禚	-11.6399
蒯	-11.64
印	-11.6402
逄	-11.6402
咢	-11.6405
啼	-11.6407
慿	-11.6407
芭	-11.6407
栖	-11.6407
謚	-11.6409
麐	-11.6411
縳	-11.6411
霄	-11.6495
柟	-11.6501
獺	-11.6503
雚	-11.6503
闍	-11.6504
髧	-11.6504
嶧	-11.6505
點	-11.6506
龎	-11.6506
沂	-11.6509
貯	-11.651
叅	-11.651
冷	-11.6511
騢	-11.6513
閏	-11.6515
驈	-11.6516
疢	-11.6517
煒	-11.6517
疵	-11.6522
棸	-11.6522
綅	-11.6522
幟	-11.6524
鬒	-11.6524
纊	-11.6611
鵝	-11.6611
椹	-11.6616
俚	-11.6618
揣	-11.662
棃	-11.6622
愔	-11.6623
蜼	-11.6625
寗	-11.6626
獮	-11.6637
霡	-11.6642
霂	-11.6643
嶺	-11.671
檍	-11.6718
壙	-11.672
鬄	-11.6724
伉	-11.6728
冊	-11.6729
紏	-11.673
偉	-11.6732
噎	-11.6733
碑	-11.6734
瑰	-11.6736
鞘	-11.6736
猜	-11.6738
熯	-11.6739
烋	-11.674
頏	-11.674
悶	-11.6741
篆	-11.6836
駽	-11.6839
嘲	-11.684
𫉬	-11.684
犢	-11.6841
瓣	-11.6842
凛	-11.6842
猪	-11.6844
膟	-11.6844
踊	-11.6845
騅	-11.6846
扤	-11.6848
拇	-11.6849
紃	-11.6852
儐	-11.6859
仔	-11.686
琛	-11.6937
秸	-11.6942
蔣	-11.6946
橡	-11.6948
軛	-11.6953
漙	-11.6953
祲	-11.6953
鮑	-11.6954
稟	-11.6955
笛	-11.6955
峯	-11.6955
狠	-11.6959
鸝	-11.696
聦	-11.6965
熲	-11.6965
觚	-11.7061
燠	-11.7063
蠃	-11.7067
藜	-11.7067
錐	-11.7067
嶭	-11.7068
現	-11.707
筭	-11.707
熄	-11.7071
鞃	-11.7073
紑	-11.7074
訧	-11.7077
烘	-11.7077
筩	-11.7078
玦	-11.7082
襜	-11.7083
燋	-11.7169
澀	-11.717
秃	-11.7173
紳	-11.7175
觜	-11.7176
苽	-11.7176
饉	-11.7177
穜	-11.7177
闉	-11.7178
坂	-11.718
絿	-11.7182
縠	-11.7183
範	-11.7184
剡	-11.7188
漼	-11.7189
渰	-11.7191
惇	-11.7193
軟	-11.7291
濃	-11.7292
鄢	-11.7293
􁈍	-11.7297
攀	-11.73
觴	-11.7301
㕓	-11.7301
螈	-11.7302
仆	-11.7302
桵	-11.7302
漠	-11.7303
篡	-11.7304
煁	-11.7305
逷	-11.7306
韵	-11.7318
厹	-11.7407
崖	-11.7413
塲	-11.7416
恚	-11.7416
邀	-11.7418
秘	-11.742
屎	-11.7421
斜	-11.7423
蘡	-11.7425
𡵨	-11.7425
痡	-11.7425
茺	-11.7517
憬	-11.7525
絞	-11.7525
擯	-11.7529
戁	-11.7532
嗚	-11.7534
翶	-11.7535
灾	-11.7535
咥	-11.7536
劒	-11.7537
添	-11.7537
卞	-11.7538
睿	-11.7539
賙	-11.7539
帳	-11.754
蛟	-11.7541
鼖	-11.7635
綯	-11.7644
鴉	-11.765
衢	-11.765
隷	-11.7653
暘	-11.7654
两	-11.7655
魁	-11.7657
逈	-11.7657
儕	-11.7658
薖	-11.7658
欠	-11.7658
癙	-11.7658
輢	-11.7658
鮀	-11.7666
虗	-11.7666
悞	-11.7682
逾	-11.7767
蘝	-11.7774
秔	-11.7776
効	-11.7778
鼫	-11.778
肻	-11.7782
埆	-11.7783
𥙷	-11.7783
蹇	-11.7783
蝮	-11.7784
攪	-11.7793
嘌	-11.7796
嫄	-11.7893
焫	-11.7894
袺	-11.7895
佸	-11.7896
爕	-11.7896
頊	-11.7898
柎	-11.79
蓛	-11.7901
檵	-11.7902
汗	-11.7903
鼙	-11.7904
貟	-11.7904
殁	-11.7905
驒	-11.7905
汔	-11.7906
惽	-11.7908
餤	-11.7908
螬	-11.8
茶	-11.8
蒻	-11.8017
郯	-11.8018
糝	-11.8022
曺	-11.8026
昨	-11.803
踟	-11.8032
懠	-11.8034
層	-11.8035
弈	-11.8035
逋	-11.8036
唇	-11.8036
玈	-11.8146
幕	-11.8148
糯	-11.815
檠	-11.8151
驩	-11.8154
慉	-11.8154
浥	-11.8161
恌	-11.8169
嗿	-11.8171
㢘	-11.8274
蒨	-11.8276
纛	-11.8278
斚	-11.828
犴	-11.8282
糗	-11.8287
祕	-11.8289
䔩	-11.8294
盩	-11.84
酆	-11.8405
霤	-11.8406
齧	-11.8409
倌	-11.8411
兾	-11.8412
㐮	-11.8413
輟	-11.8414
饇	-11.8415
溷	-11.8415
聯	-11.8416
呌	-11.8418
驄	-11.8418
奨	-11.8419
洌	-11.8419
怲	-11.8434
牣	-11.8526
絮	-11.8534
椇	-11.8534
峱	-11.8536
兗	-11.8538
臥	-11.8539
緵	-11.8541
与	-11.8542
陀	-11.8543
􁈹	-11.8544
贏	-11.8546
晴	-11.8547
閫	-11.8547
樕	-11.8551
籠	-11.8552
佇	-11.8553
椎	-11.8555
幩	-11.8556
泭	-11.8556
薸	-11.865
鬚	-11.8658
櫻	-11.8668
劍	-11.8668
蕰	-11.8668
雱	-11.8669
猿	-11.867
晁	-11.8671
攫	-11.8672
駘	-11.8673
懮	-11.8673
胃	-11.8674
酈	-11.8676
朂	-11.8677
茫	-11.8677
遮	-11.8677
􁂋	-11.8678
賡	-11.8678
啇	-11.8678
賽	-11.868
斟	-11.868
臾	-11.8681
畽	-11.8681
斵	-11.8684
㡳	-11.8701
眸	-11.8781
茸	-11.88
煙	-11.8805
穄	-11.8808
漈	-11.8809
稠	-11.8813
墍	-11.8813
絢	-11.8813
捐	-11.8814
蓞	-11.8814
譲	-11.8816
蠡	-11.8816
讁	-11.8817
筏	-11.8819
栽	-11.8819
鯿	-11.8819
瘡	-11.8935
龠	-11.8937
窟	-11.8941
繻	-11.8941
茜	-11.8942
荐	-11.8944
㫄	-11.8945
迋	-11.8945
喩	-11.8946
腊	-11.8947
紘	-11.8947
彪	-11.8948
闞	-11.8948
詎	-11.8949
愍	-11.8949
貼	-11.895
涓	-11.895
糠	-11.895
紊	-11.8951
懦	-11.8951
隳	-11.8952
襟	-11.8953
蹰	-11.8954
捫	-11.8962
紺	-11.9075
鵴	-11.9078
庤	-11.908
糦	-11.908
鏡	-11.9081
兌	-11.9082
竽	-11.9085
莝	-11.9087
換	-11.909
睹	-11.909
飮	-11.9095
皃	-11.9096
媿	-11.9098
酲	-11.9099
藇	-11.9102
蜢	-11.9105
鐏	-11.9202
栭	-11.921
莧	-11.9215
鶘	-11.9217
窠	-11.922
沫	-11.9223
抜	-11.9224
慅	-11.9224
稃	-11.9225
㪚	-11.9226
数	-11.9228
鏜	-11.923
稑	-11.9231
薕	-11.9233
晰	-11.9233
辦	-11.9234
髳	-11.9236
蚱	-11.9238
櫬	-11.9362
兑	-11.9363
閻	-11.9364
柲	-11.9364
擔	-11.9365
菔	-11.9366
腯	-11.9366
脈	-11.9368
嚻	-11.9368
謐	-11.937
唈	-11.9371
倖	-11.9373
攬	-11.9373
虆	-11.9373
郢	-11.9373
􁉁	-11.9373
毀	-11.9373
團	-11.9374
参	-11.9374
斫	-11.9374
蕮	-11.9374
趍	-11.9375
垝	-11.9377
粘	-11.9379
幦	-11.938
遟	-11.9386
覇	-11.9502
湄	-11.9503
萼	-11.9503
䳺	-11.9505
鵞	-11.9513
歉	-11.9513
諠	-11.9516
艶	-11.9516
揮	-11.9518
簿	-11.9519
羸	-11.9521
蘄	-11.9521
徨	-11.9522
孥	-11.9523
粻	-11.9525
個	-11.9525
蓉	-11.9643
醬	-11.9648
絛	-11.9651
妘	-11.9652
苻	-11.9655
櫂	-11.9659
洋	-11.9659
肜	-11.9661
悛	-11.9663
燐	-11.9664
逌	-11.9665
醇	-11.9668
勻	-11.9672
􁀆	-11.9673
苣	-11.9674
璂	-11.9675
梴	-11.9675
酳	-11.9677
筓	-11.9681
醹	-11.9684
嶓	-11.9799
堤	-11.9801
驁	-11.9803
拓	-11.9804
迥	-11.9805
鏄	-11.9805
鵬	-11.9805
螉	-11.9807
翠	-11.9808
姨	-11.9809
仞	-11.9809
鷃	-11.981
蓐	-11.9811
蕑	-11.9814
痻	-11.9823
呱	-11.9825
糜	-11.9945
頖	-11.9949
韣	-11.9954
椽	-11.9954
椿	-11.9955
澶	-11.9956
孳	-11.9958
杯	-11.9958
詘	-11.9958
犂	-11.9959
聳	-11.996
􁀙	-11.9961
貸	-11.9961
俞	-11.9961
迃	-11.9965
憒	-11.9965
鶩	-11.9965
瑤	-11.9966
幠	-11.9968
畦	-11.9969
鋸	-11.9972
蜤	-11.9972
壓	-11.9972
飧	-12.0008
瓝	-12.0075
梂	-12.01
薌	-12.0112
軀	-12.0112
鎧	-12.0113
穠	-12.0115
枹	-12.0115
企	-12.0115
璫	-12.0117
恢	-12.0117
妍	-12.0118
蠑	-12.0118
猥	-12.0121
喚	-12.0121
惨	-12.0124
侣	-12.0128
肈	-12.0129
蚣	-12.0129
鷗	-12.0133
鶪	-12.0258
鑊	-12.0265
涂	-12.0266
碧	-12.0266
濰	-12.0266
侐	-12.0267
熒	-12.0267
璆	-12.0268
懰	-12.0268
呻	-12.0271
扱	-12.0273
瀾	-12.0277
慍	-12.0278
遞	-12.0278
簪	-12.0279
擲	-12.0279
煢	-12.0281
諤	-12.0284
甿	-12.0285
恰	-12.0285
㳫	-12.0287
壠	-12.0301
槲	-12.0416
鰱	-12.0418
級	-12.0424
鯋	-12.0425
蔕	-12.0427
貛	-12.0427
烟	-12.0427
𤾉	-12.0428
森	-12.0428
絰	-12.0431
峨	-12.0431
訝	-12.0432
倅	-12.0434
臠	-12.0436
𢷬	-12.0436
芴	-12.0442
蹻	-12.0442
;	-12.0466
楡	-12.0561
蜚	-12.0562
藕	-12.0571
琅	-12.0574
甯	-12.0578
礱	-12.0579
邅	-12.0581
鸎	-12.0587
虫	-12.0587
蛣	-12.0588
絅	-12.0589
谿	-12.0591
敞	-12.0592
槮	-12.0593
幻	-12.0593
疧	-12.0593
㤙	-12.0594
狥	-12.0596
羶	-12.0596
緊	-12.0596
4	-12.0598
匝	-12.0599
勗	-12.06
盪	-12.06
訕	-12.0601
吿	-12.0602
淚	-12.0604
暄	-12.0604
杝	-12.0616
䪐	-12.0734
鵃	-12.0746
蠙	-12.0747
躡	-12.0749
隄	-12.075
槄	-12.0751
誡	-12.0752
甗	-12.0754
鑄	-12.0754
斲	-12.0754
怖	-12.0755
値	-12.0757
㦲	-12.0757
娠	-12.0758
蕚	-12.0759
麴	-12.0759
韐	-12.0759
糟	-12.0759
薊	-12.076
虓	-12.0761
幡	-12.0762
隻	-12.0762
隩	-12.0762
褓	-12.0763
軝	-12.0763
婆	-12.0765
㴱	-12.0767
羗	-12.0776
膂	-12.0776
朄	-12.0778
5	-12.0781
蘈	-12.0897
膘	-12.0907
院	-12.0907
洿	-12.0911
鄫	-12.0914
褰	-12.0916
鬲	-12.0917
蕙	-12.0918
鮥	-12.0919
瀏	-12.0919
蠮	-12.0919
鉅	-12.0921
烜	-12.0921
弇	-12.0921
泊	-12.0921
吼	-12.0921
毓	-12.0922
蓏	-12.0924
恠	-12.0924
齍	-12.0924
鈔	-12.0925
婣	-12.0926
謳	-12.0926
闡	-12.0927
劇	-12.0927
禓	-12.0927
床	-12.0928
鵯	-12.0929
覡	-12.0932
逓	-12.0932
9	-12.0949
8	-12.0951
6	-12.0952
7	-12.0956
漳	-12.1072
鴝	-12.1073
灃	-12.1078
椘	-12.1085
䰞	-12.1086
型	-12.1088
絹	-12.1091
橛	-12.1093
憖	-12.1093
鯶	-12.1095
透	-12.1096
儔	-12.1099
謖	-12.11
樔	-12.1103
漑	-12.1104
撋	-12.1107
㚄	-12.1114
蓱	-12.1254
帖	-12.1255
侔	-12.1256
􁈞	-12.1256
揷	-12.1261
閩	-12.1262
嫩	-12.1264
㭬	-12.1264
雋	-12.1266
餳	-12.1266
黽	-12.1268
禆	-12.1269
腔	-12.1271
褻	-12.1272
歧	-12.1272
様	-12.1277
挫	-12.1279
蜙	-12.128
蔀	-12.1418
課	-12.1424
䔰	-12.143
终	-12.143
㪺	-12.1435
腦	-12.144
昀	-12.1442
眩	-12.1442
徼	-12.1442
潞	-12.1443
珧	-12.1443
烽	-12.1445
寃	-12.1446
狭	-12.1446
禕	-12.1446
闈	-12.1446
嶇	-12.1448
澆	-12.1448
戡	-12.1448
畞	-12.1449
鍚	-12.1462
胖	-12.1606
鴶	-12.1607
㮚	-12.161
稹	-12.161
淘	-12.1611
縝	-12.1613
闔	-12.1614
訾	-12.1615
俘	-12.1616
茄	-12.1617
鴒	-12.1618
鎭	-12.1618
罬	-12.162
笰	-12.1622
蚓	-12.1622
珕	-12.1623
縂	-12.1623
亘	-12.1625
薫	-12.1627
弢	-12.163
叫	-12.1631
徤	-12.1632
瘣	-12.1634
0	-12.1636
荁	-12.1779
鱓	-12.1781
鷽	-12.1782
鴽	-12.1784
慙	-12.1788
鱅	-12.1793
檾	-12.1793
睡	-12.1794
衘	-12.1794
梀	-12.1797
搤	-12.1797
蜺	-12.1797
拯	-12.1798
郕	-12.1798
畷	-12.1799
罽	-12.1799
爓	-12.18
螘	-12.18
娓	-12.1801
揵	-12.1803
姥	-12.1806
穽	-12.1808
蹤	-12.1809
綫	-12.1809
迓	-12.1809
謟	-12.1811
纏	-12.1812
繄	-12.1818
詖	-12.1818
臬	-12.1963
絇	-12.1965
禫	-12.1974
豻	-12.1978
萯	-12.1979
渒	-12.1979
氛	-12.198
䳕	-12.198
涔	-12.1982
乍	-12.1984
黯	-12.1985
盲	-12.1985
洮	-12.1986
侗	-12.1987
喟	-12.1988
恍	-12.1988
嗷	-12.1989
徊	-12.1989
㳟	-12.1993
􁀾	-12.1994
莤	-12.1994
址	-12.1997
悒	-12.1999
䦧	-12.1999
塜	-12.2002
榎	-12.2155
犆	-12.2166
湥	-12.2167
硬	-12.2168
彿	-12.217
潢	-12.217
榭	-12.217
撓	-12.217
蠍	-12.2171
貃	-12.2172
掠	-12.2172
訃	-12.2173
蜣	-12.2174
殃	-12.2174
堆	-12.2174
蟠	-12.2174
詣	-12.2175
銑	-12.2175
踴	-12.2176
熠	-12.2176
𣏌	-12.2176
酣	-12.2176
聮	-12.2176
腴	-12.2179
嬉	-12.2179
誹	-12.218
瀋	-12.2182
踦	-12.2186
藐	-12.2187
邛	-12.2194
蒠	-12.2195
綵	-12.2352
潧	-12.2357
楙	-12.2359
芝	-12.2359
滓	-12.2359
䜟	-12.236
矰	-12.2362
峰	-12.2366
弘	-12.2366
汪	-12.2366
軼	-12.2367
瑜	-12.2368
鷢	-12.2368
􁊈	-12.237
覊	-12.237
壟	-12.2371
宐	-12.2372
片	-12.2373
墝	-12.2376
蒤	-12.2377
揔	-12.2381
萸	-12.2525
葳	-12.2538
琥	-12.2553
崑	-12.2553
瓢	-12.2557
皐	-12.2557
冉	-12.2558
擢	-12.256
襺	-12.256
耑	-12.2561
澁	-12.2561
韗	-12.2561
擘	-12.2561
莭	-12.2562
翮	-12.2562
蛬	-12.2564
廂	-12.2564
粥	-12.2564
殞	-12.2565
冺	-12.2565
聾	-12.2566
忻	-12.2567
駢	-12.2567
拆	-12.2568
𦵏	-12.257
轢	-12.257
甕	-12.2571
敺	-12.2571
汨	-12.2572
撩	-12.2574
暉	-12.2575
慧	-12.2577
蟪	-12.2749
满	-12.2752
餕	-12.2753
滴	-12.2753
愽	-12.2758
嘽	-12.2761
摹	-12.2762
藁	-12.2763
瀉	-12.2764
悽	-12.2765
蔈	-12.2765
竇	-12.2767
艮	-12.2768
玁	-12.2772
轊	-12.2772
恝	-12.2773
擕	-12.2776
碏	-12.2778
餾	-12.2789
茱	-12.2932
蟘	-12.2944
殤	-12.2951
殲	-12.2952
娱	-12.2955
稗	-12.2959
慚	-12.2959
尗	-12.296
个	-12.2962
鍳	-12.2964
覧	-12.2967
帯	-12.2967
炫	-12.2968
燦	-12.2969
幢	-12.2972
詮	-12.2973
翺	-12.2973
縦	-12.2974
艷	-12.2975
瓶	-12.2981
侏	-12.2984
、	-12.3001
覿	-12.3165
芄	-12.3166
闓	-12.3166
僩	-12.3167
莵	-12.3173
另	-12.3177
脰	-12.3178
塚	-12.3179
麑	-12.318
柝	-12.318
杳	-12.3181
銖	-12.3182
簷	-12.3182
漦	-12.3182
㛰	-12.3183
􁈡	-12.3185
厎	-12.3186
戱	-12.3188
劬	-12.3379
曄	-12.3381
臡	-12.3381
劑	-12.3383
蒂	-12.3383
褥	-12.3383
湆	-12.3384
幄	-12.3384
盻	-12.3385
貈	-12.3387
鑰	-12.3389
榱	-12.3389
迤	-12.339
駹	-12.339
涸	-12.339
卻	-12.3391
盥	-12.3391
駝	-12.3391
欝	-12.3395
涎	-12.3396
踞	-12.3397
昂	-12.3397
㷀	-12.3398
婭	-12.3399
鴛	-12.34
宄	-12.3401
壝	-12.3401
饙	-12.3402
翣	-12.3406
軞	-12.3587
扆	-12.3592
諍	-12.3594
鬌	-12.3594
樲	-12.3595
鎒	-12.3595
溯	-12.3601
躭	-12.3601
逖	-12.3601
姿	-12.3602
肚	-12.3602
鱉	-12.3603
汋	-12.3603
虔	-12.3606
减	-12.3606
悝	-12.3608
蝀	-12.361
珮	-12.361
姤	-12.361
扣	-12.3611
煎	-12.3614
剏	-12.3615
岌	-12.3617
甽	-12.3619
罙	-12.362
湧	-12.3623
僤	-12.3625
蟦	-12.3797
惺	-12.3812
龔	-12.3814
蝦	-12.3814
崙	-12.3815
鯤	-12.3817
蔭	-12.3819
犖	-12.382
宂	-12.3824
研	-12.3824
羀	-12.3824
阡	-12.3826
彖	-12.3826
靶	-12.3826
淅	-12.3826
塊	-12.3827
刲	-12.3829
籌	-12.3829
俛	-12.383
郟	-12.383
紜	-12.3831
噰	-12.3831
鷅	-12.3831
縵	-12.3832
迮	-12.3833
秕	-12.3835
嫗	-12.3836
抄	-12.3836
悪	-12.3836
册	-12.3837
遘	-12.3837
暬	-12.3838
篧	-12.3841
堰	-12.3842
淸	-12.3843
泠	-12.3844
諮	-12.3847
苧	-12.3855
鐓	-12.4023
藋	-12.4036
蘦	-12.4046
窔	-12.4046
瀍	-12.4046
汰	-12.4048
瘍	-12.4049
炭	-12.405
縊	-12.405
畮	-12.4052
纖	-12.4053
稲	-12.4053
煌	-12.4053
珪	-12.4054
屛	-12.4055
嘻	-12.4055
內	-12.4056
嫚	-12.4057
彜	-12.4059
贍	-12.406
豊	-12.406
傴	-12.406
評	-12.406
嵬	-12.406
酏	-12.4062
腆	-12.4063
淆	-12.4063
誌	-12.4064
徘	-12.4066
禜	-12.4077
陘	-12.4276
烓	-12.4278
邕	-12.4279
鏑	-12.428
嶩	-12.428
姣	-12.428
眇	-12.4281
煥	-12.4282
莆	-12.4283
蛆	-12.4283
瀹	-12.4283
抉	-12.4283
緍	-12.4283
荊	-12.4284
胞	-12.4284
欹	-12.4286
讟	-12.4287
娯	-12.429
村	-12.4291
簨	-12.4292
葺	-12.4293
肘	-12.4294
禳	-12.4295
叡	-12.4296
鞬	-12.4297
譸	-12.4297
訿	-12.4298
瓴	-12.43
携	-12.43
澘	-12.4303
巽	-12.4305
繂	-12.4308
枏	-12.4501
涿	-12.4512
殫	-12.452
栻	-12.4524
庵	-12.4524
逶	-12.4525
疽	-12.4526
閤	-12.4526
款	-12.4526
萄	-12.4528
蟹	-12.4528
掣	-12.4529
鏐	-12.4532
飪	-12.4532
犁	-12.4532
鳺	-12.4533
倐	-12.4533
緘	-12.4534
嚌	-12.4535
灋	-12.4535
朞	-12.4538
弰	-12.454
麛	-12.4543
胤	-12.4548
蚍	-12.4548
擥	-12.4758
棺	-12.4758
雹	-12.4762
圈	-12.4763
貂	-12.4764
虋	-12.4766
慣	-12.4767
遫	-12.4768
梏	-12.477
琮	-12.4771
㝷	-12.4772
茭	-12.4773
宙	-12.4774
荂	-12.4775
􁈏	-12.4776
些	-12.4783
儻	-12.4788
儗	-12.4789
苨	-12.479
鮫	-12.4797
躔	-12.4802
蘺	-12.4993
蔏	-12.4999
蘢	-12.5004
埜	-12.5007
䊷	-12.501
塋	-12.5011
腢	-12.5011
瓀	-12.5011
舘	-12.5012
顆	-12.5012
帙	-12.5013
啗	-12.5015
脗	-12.5015
蚳	-12.5016
􁉂	-12.5017
締	-12.5019
㵼	-12.502
忤	-12.502
麇	-12.502
逡	-12.502
彀	-12.5021
陕	-12.5022
爍	-12.5022
豎	-12.5023
懣	-12.5023
㧘	-12.5023
乱	-12.5023
邃	-12.5024
璗	-12.5025
姡	-12.5026
佾	-12.5026
餒	-12.5027
蚻	-12.5027
怯	-12.5029
鄱	-12.5029
崎	-12.503
𨼆	-12.503
醪	-12.5038
鮧	-12.5042
蛹	-12.5252
眠	-12.5263
荎	-12.5264
声	-12.5265
𥚹	-12.5268
㵎	-12.527
滄	-12.5271
煦	-12.5273
戛	-12.5273
姫	-12.5273
疫	-12.5274
笏	-12.5274
隒	-12.5275
勰	-12.5276
葡	-12.5277
蜾	-12.5277
燄	-12.5278
炕	-12.5278
掦	-12.5279
刄	-12.5279
湊	-12.528
𤱔	-12.5281
扼	-12.5281
㨿	-12.5281
戻	-12.5282
縻	-12.5284
誶	-12.5288
鍊	-12.5288
鄼	-12.5292
殯	-12.552
梢	-12.5523
耊	-12.5523
蹊	-12.5524
豸	-12.5525
紝	-12.553
鍪	-12.553
汴	-12.553
葹	-12.5531
琳	-12.5532
稊	-12.5533
义	-12.5534
奎	-12.5534
霞	-12.5534
掬	-12.5536
臛	-12.5536
緅	-12.5537
狨	-12.5537
魅	-12.5538
黿	-12.5539
蛤	-12.5539
裸	-12.5539
鷲	-12.554
吸	-12.5541
蔥	-12.5541
猋	-12.5541
拭	-12.5541
𣗳	-12.5541
陲	-12.5542
􁂍	-12.5542
牷	-12.5542
詀	-12.5542
驎	-12.5543
脇	-12.5544
寥	-12.5544
鄜	-12.5545
躓	-12.5547
􁆵	-12.5548
耤	-12.5548
樻	-12.5785
紗	-12.5794
櫓	-12.5795
沇	-12.5798
讖	-12.58
努	-12.5802
噦	-12.5802
澧	-12.5803
芉	-12.5803
闘	-12.5804
恙	-12.5805
粃	-12.5805
肓	-12.5806
蕒	-12.5806
駐	-12.5807
潸	-12.5808
􁈛	-12.5808
蚊	-12.5809
昉	-12.581
閹	-12.5811
磐	-12.5811
阨	-12.5813
峽	-12.5813
彬	-12.5815
眊	-12.5815
絀	-12.5817
簇	-12.5817
刼	-12.5817
磯	-12.5818
凰	-12.5818
婿	-12.5818
浙	-12.5819
焭	-12.5824
靚	-12.5824
篠	-12.5825
娑	-12.5825
霓	-12.5838
饜	-12.584
圛	-12.6066
薏	-12.6071
殛	-12.6071
妺	-12.6071
𥻘	-12.6072
菌	-12.6073
淨	-12.6075
斄	-12.6075
褁	-12.6076
鯀	-12.6077
皪	-12.6078
冗	-12.6079
襪	-12.6081
㾖	-12.6081
怵	-12.6081
蘊	-12.6082
鳻	-12.6082
䝨	-12.6083
珉	-12.6083
縓	-12.6085
搴	-12.6086
袴	-12.6086
愀	-12.6087
潭	-12.6088
巉	-12.6089
徠	-12.609
鐐	-12.609
窕	-12.6091
諉	-12.6091
劫	-12.6091
燿	-12.6093
沽	-12.6094
拖	-12.6094
圯	-12.6094
旜	-12.6094
撞	-12.6094
蜉	-12.6095
俠	-12.6098
幃	-12.6098
竣	-12.6098
彄	-12.6099
賑	-12.61
廸	-12.6104
憇	-12.6104
竆	-12.6105
壷	-12.6107
憗	-12.6111
莍	-12.6321
檟	-12.6345
茗	-12.6349
觵	-12.6352
楯	-12.6353
桼	-12.6356
燈	-12.6357
汀	-12.6363
詡	-12.6364
犍	-12.6365
蔤	-12.6366
蚌	-12.6366
攴	-12.6367
畯	-12.6367
惛	-12.6367
麎	-12.6368
署	-12.6369
珽	-12.637
仗	-12.6371
庳	-12.6372
孜	-12.6372
孩	-12.6374
翥	-12.6374
輞	-12.6374
哥	-12.6374
瀕	-12.6375
扺	-12.6375
很	-12.6376
疹	-12.6376
旰	-12.6376
豢	-12.6377
襗	-12.6377
鬢	-12.6378
憊	-12.6378
紉	-12.6378
穯	-12.6379
籧	-12.6381
櫝	-12.6382
槷	-12.6645
菏	-12.6648
禒	-12.665
禂	-12.6651
厠	-12.6652
購	-12.6653
朻	-12.6659
聶	-12.6659
聒	-12.6662
㤀	-12.6662
挼	-12.6662
昇	-12.6663
珥	-12.6664
紩	-12.6665
妊	-12.6665
逅	-12.6668
儷	-12.6669
橬	-12.6669
岫	-12.6669
聫	-12.667
蔟	-12.667
癡	-12.6671
頳	-12.6671
篋	-12.6672
箠	-12.6672
押	-12.6672
酺	-12.6673
旞	-12.6673
喤	-12.6673
昻	-12.6674
嚼	-12.6674
搶	-12.6675
匀	-12.6675
巍	-12.6676
騘	-12.6677
歙	-12.6677
𦵔	-12.6677
臚	-12.6678
豭	-12.6678
𫐠	-12.6679
鑢	-12.668
怍	-12.6684
昩	-12.6685
繶	-12.6943
徔	-12.6947
豌	-12.6948
洹	-12.6952
噪	-12.6953
聃	-12.6954
熂	-12.6954
婺	-12.6957
黠	-12.696
島	-12.696
慊	-12.6962
籟	-12.6963
赧	-12.6965
坫	-12.6966
鎌	-12.6967
薑	-12.6968
醆	-12.6968
輜	-12.6969
孶	-12.697
湍	-12.697
凥	-12.6971
摭	-12.6971
嚇	-12.6971
闌	-12.6972
瀦	-12.6973
酇	-12.6973
鈍	-12.6973
籀	-12.6974
骹	-12.6974
挶	-12.6974
豁	-12.6975
灘	-12.6975
寞	-12.6976
蓯	-12.6977
杓	-12.6978
鴀	-12.6979
眂	-12.698
扡	-12.698
悚	-12.698
虦	-12.6981
椌	-12.6983
煞	-12.6984
捧	-12.6984
囟	-12.6985
鬣	-12.6986
鸜	-12.7252
楠	-12.7259
栜	-12.7259
吻	-12.7272
幂	-12.7273
塘	-12.7275
凟	-12.7277
粳	-12.7277
葒	-12.728
頁	-12.728
㕦	-12.7281
𨗳	-12.7282
篴	-12.7283
廖	-12.7284
勦	-12.7285
帚	-12.7286
鑾	-12.7286
祴	-12.7287
賃	-12.7287
厨	-12.7288
磔	-12.7289
塼	-12.7289
躅	-12.7289
砌	-12.7289
牴	-12.729
裴	-12.7291
魾	-12.7292
万	-12.7293
邂	-12.7293
撲	-12.7293
冞	-12.7297
兀	-12.7299
鴦	-12.7303
瞎	-12.7306
樝	-12.7312
榝	-12.757
网	-12.7579
蒔	-12.7583
楓	-12.7583
醮	-12.7594
兠	-12.7595
晜	-12.7596
鱘	-12.7596
倪	-12.7597
㳂	-12.7599
觝	-12.7599
埀	-12.7599
鵹	-12.7601
批	-12.7601
瑁	-12.7601
玭	-12.7602
羿	-12.7602
叩	-12.7603
簴	-12.7603
呪	-12.7603
埴	-12.7603
疃	-12.7603
鶌	-12.7604
唶	-12.7605
氾	-12.7605
訐	-12.7605
蘧	-12.7605
楽	-12.7606
虌	-12.7607
睛	-12.7608
彎	-12.7609
啐	-12.7609
桞	-12.7609
爱	-12.7609
浄	-12.761
蒺	-12.761
鞍	-12.7611
鶡	-12.7612
懾	-12.7615
楬	-12.7615
踶	-12.7615
甋	-12.7615
灸	-12.7617
鍵	-12.7618
撿	-12.7622
肢	-12.7623
呞	-12.7623
餈	-12.7626
菙	-12.791
窰	-12.7923
蚯	-12.7924
潏	-12.7927
緹	-12.7927
芨	-12.7927
蒍	-12.7929
鎗	-12.7929
螇	-12.793
桺	-12.793
窳	-12.793
莕	-12.793
醯	-12.7931
蛉	-12.7931
畋	-12.7933
磚	-12.7933
醋	-12.7934
痺	-12.7935
装	-12.7936
僉	-12.7936
筯	-12.7937
頺	-12.7937
曙	-12.7937
籜	-12.7938
邲	-12.794
廕	-12.794
畵	-12.794
甄	-12.794
懃	-12.7941
插	-12.7941
爆	-12.7942
蠒	-12.7942
繣	-12.7942
懵	-12.7942
鯽	-12.7942
賫	-12.7943
慼	-12.7943
薋	-12.7944
􁉝	-12.7945
鉗	-12.7945
綰	-12.7945
輖	-12.7949
昃	-12.7951
牘	-12.7952
爗	-12.7952
膮	-12.7952
鯷	-12.7954
騮	-12.7955
齟	-12.7959
湣	-12.825
杉	-12.8253
㢮	-12.8258
蟆	-12.8262
漉	-12.8268
珙	-12.827
羒	-12.8271
獢	-12.8272
􁈸	-12.8273
稬	-12.8274
掛	-12.8274
產	-12.8275
猲	-12.8277
旺	-12.8279
橈	-12.828
猫	-12.828
鞸	-12.8281
毿	-12.8283
杌	-12.8284
苃	-12.8284
鮒	-12.8285
勘	-12.8285
嘑	-12.8285
澹	-12.8285
桎	-12.8286
罅	-12.8287
仝	-12.8287
票	-12.8288
鸍	-12.829
闑	-12.829
刳	-12.8291
犅	-12.8291
罭	-12.8291
蒞	-12.8291
嫠	-12.8292
蓻	-12.8292
䄠	-12.8293
臐	-12.8297
芧	-12.8298
畚	-12.8301
鯈	-12.8302
簑	-12.8304
膰	-12.8304
麽	-12.8304
打	-12.8309
脃	-12.861
楣	-12.8616
畤	-12.8622
渤	-12.8624
禇	-12.8625
簮	-12.8626
煬	-12.8628
杪	-12.8629
苡	-12.863
罃	-12.8631
秪	-12.8632
鴿	-12.8632
䳭	-12.8633
舩	-12.8634
藂	-12.8634
頋	-12.8635
慷	-12.8636
騜	-12.8636
槍	-12.8636
咀	-12.8637
箙	-12.8637
莩	-12.8638
譯	-12.8638
蘴	-12.864
鶺	-12.864
錮	-12.864
窄	-12.864
辣	-12.864
鑮	-12.8641
梭	-12.8641
焱	-12.8642
轘	-12.8642
岊	-12.8643
罵	-12.8643
㮣	-12.8644
座	-12.8644
熬	-12.8644
澡	-12.8644
鉛	-12.8644
紬	-12.8645
􁈰	-12.8646
䱷	-12.8647
􁃿	-12.8647
䆒	-12.8648
甎	-12.8649
咈	-12.865
熖	-12.865
踏	-12.8651
航	-12.8651
酗	-12.8653
屇	-12.8654
齬	-12.8657
薙	-12.866
嶃	-12.8663
貘	-12.8674
濼	-12.898
縹	-12.8982
巒	-12.8987
竢	-12.8992
黧	-12.8996
醵	-12.8996
螰	-12.8999
翱	-12.9001
噩	-12.9002
􁁊	-12.9002
鈇	-12.9002
佯	-12.9004
癘	-12.9005
玃	-12.9005
嵇	-12.9007
娩	-12.9007
枵	-12.9008
懋	-12.9008
獯	-12.9008
杠	-12.9009
蟾	-12.9009
疈	-12.9009
琰	-12.9009
徬	-12.901
擠	-12.901
懕	-12.901
顏	-12.9011
駛	-12.9011
橜	-12.9011
侁	-12.9012
㩀	-12.9013
焰	-12.9013
儘	-12.9014
駈	-12.9014
蕸	-12.9016
㦯	-12.9016
憨	-12.9016
疋	-12.9016
尻	-12.9017
伹	-12.9018
燃	-12.9018
牾	-12.9019
梱	-12.9019
鷞	-12.9019
􁊌	-12.9021
蕢	-12.9022
螮	-12.9023
𦍑	-12.9024
綘	-12.9024
狽	-12.9024
浣	-12.9028
敶	-12.9029
髠	-12.9035
𣙗	-12.9322
朹	-12.9362
檴	-12.9365
劵	-12.9372
刓	-12.9376
茒	-12.9379
􁉄	-12.938
枓	-12.938
扊	-12.9383
扅	-12.9383
嶡	-12.9383
㐫	-12.9384
觖	-12.9385
眚	-12.9386
晃	-12.9387
葆	-12.9387
鵶	-12.9388
跟	-12.9389
莅	-12.9389
蒭	-12.9389
臟	-12.9389
哦	-12.9391
琊	-12.9392
鄴	-12.9392
坑	-12.9392
昜	-12.9392
邘	-12.9394
嬌	-12.9394
宀	-12.9395
裙	-12.9398
厝	-12.9399
䧏	-12.9399
廡	-12.9399
晷	-12.9399
爐	-12.94
鎋	-12.9402
猾	-12.9402
裨	-12.9404
蓲	-12.9404
湮	-12.9404
颺	-12.9404
尫	-12.9406
韁	-12.9407
俳	-12.9408
㬰	-12.9408
漪	-12.9408
錘	-12.941
藨	-12.941
扄	-12.9411
謾	-12.9415
睪	-12.9421
萩	-12.9759
啞	-12.978
䂓	-12.9782
梡	-12.9785
髓	-12.9785
凑	-12.9785
簾	-12.9785
寴	-12.9786
竺	-12.9787
檕	-12.9787
誾	-12.9788
薹	-12.9788
褚	-12.9788
蘂	-12.9789
􁉲	-12.9789
罥	-12.9789
􁉊	-12.979
䯚	-12.9791
劔	-12.9791
粤	-12.9792
嘔	-12.9792
蟀	-12.9792
鳲	-12.9792
罻	-12.9793
菩	-12.9794
瑯	-12.9794
継	-12.9794
籓	-12.9794
葘	-12.9795
戟	-12.9795
覈	-12.9795
磊	-12.9796
嘴	-12.9796
麝	-12.9796
餅	-12.9796
炬	-12.9797
䄖	-12.9797
琄	-12.9797
蹼	-12.9798
晡	-12.9798
祍	-12.9799
􁈱	-12.98
睫	-12.98
卹	-12.98
冪	-12.98
鶋	-12.9801
暌	-12.9801
蛗	-12.9801
禯	-12.9802
菰	-12.9803
烰	-12.9803
窬	-12.9803
洶	-12.9804
暈	-12.9804
捉	-12.9807
齹	-12.981
裦	-12.981
旴	-12.9812
巛	-12.9812
件	-12.9814
辝	-12.9816
餫	-12.9817
蝶	-13.0177
芍	-13.0181
藬	-13.0188
朿	-13.019
叨	-13.0195
瞳	-13.0198
澇	-13.0199
閾	-13.02
攣	-13.02
䙅	-13.0201
暀	-13.0203
簜	-13.0204
竞	-13.0206
偝	-13.0206
笞	-13.0206
岑	-13.0207
掉	-13.0208
㓙	-13.0209
誄	-13.0211
獐	-13.0211
蝯	-13.0211
藘	-13.0212
梩	-13.0212
棚	-13.0212
笥	-13.0213
咠	-13.0214
蕐	-13.0214
冋	-13.0214
篨	-13.0215
虯	-13.0215
嚚	-13.0216
痱	-13.0217
蹷	-13.0217
龢	-13.0217
顇	-13.0217
鷟	-13.0218
廿	-13.0218
迸	-13.0218
躇	-13.022
簞	-13.0221
碍	-13.0222
骸	-13.0222
䁥	-13.0224
􁉛	-13.0224
彇	-13.0225
䨇	-13.0226
聸	-13.0227
簦	-13.0232
蓽	-13.0235
鉹	-13.0238
袡	-13.0625
莔	-13.0626
窴	-13.0628
刷	-13.0628
藑	-13.063
笴	-13.0631
檓	-13.0633
夬	-13.0633
徉	-13.0634
𠂻	-13.0634
洎	-13.0635
彥	-13.0635
尢	-13.0635
渺	-13.0636
􁈭	-13.0637
呴	-13.0637
皙	-13.0638
瘖	-13.0639
槸	-13.064
撠	-13.064
腎	-13.064
恆	-13.0642
疥	-13.0642
翫	-13.0642
猝	-13.0642
挟	-13.0643
扃	-13.0643
徦	-13.0644
濘	-13.0644
撼	-13.0644
蠟	-13.0644
澔	-13.0645
蚪	-13.0645
巵	-13.0645
罸	-13.0647
霖	-13.0648
蟋	-13.0648
鱏	-13.0649
薾	-13.0649
轔	-13.065
眾	-13.065
詬	-13.065
筒	-13.065
惚	-13.065
睨	-13.0651
衫	-13.0652
隗	-13.0652
鼂	-13.0652
哂	-13.0653
㗖	-13.0654
么	-13.0654
癭	-13.0655
䓿	-13.0657
躊	-13.0657
詫	-13.0657
捲	-13.0658
﨣	-13.0662
愜	-13.0664
篳	-13.0665
挏	-13.067
䕩	-13.1075
腳	-13.1076
䕲	-13.1078
迆	-13.108
􁆒	-13.1085
蝟	-13.1085
媞	-13.1086
紋	-13.1088
虖	-13.1089
瞗	-13.109
郜	-13.1091
幬	-13.1093
藳	-13.1093
拈	-13.1094
娘	-13.1094
苢	-13.1096
鏗	-13.1096
藼	-13.1096
椵	-13.1097
牒	-13.1098
侃	-13.1098
夥	-13.1099
緱	-13.11
騯	-13.1101
啾	-13.1101
鬪	-13.1102
瞷	-13.1102
戦	-13.1103
藶	-13.1103
蛩	-13.1104
鞎	-13.1105
溲	-13.1105
葷	-13.1105
洍	-13.1106
㰱	-13.1106
螺	-13.1106
僂	-13.1108
􁉭	-13.1108
鼘	-13.1109
鄆	-13.1109
禭	-13.111
麏	-13.111
剽	-13.111
驥	-13.1111
芷	-13.1111
撤	-13.1113
􁈶	-13.1114
睇	-13.1114
􁊧	-13.1115
罺	-13.1116
餁	-13.1116
滈	-13.1116
尔	-13.1116
瑗	-13.1116
茦	-13.1117
覔	-13.112
捼	-13.1121
擿	-13.1121
鷻	-13.1123
侞	-13.1131
𡨕	-13.1138
櫐	-13.1544
淋	-13.1544
貒	-13.1547
眹	-13.1558
棖	-13.1559
釗	-13.1559
鷇	-13.156
瀵	-13.156
笩	-13.1563
􁊵	-13.1564
悊	-13.1565
藄	-13.1565
矍	-13.1566
軏	-13.1568
氊	-13.1569
旝	-13.1569
鼩	-13.157
姙	-13.1571
霹	-13.1571
菱	-13.1571
跬	-13.1571
澱	-13.1571
甌	-13.1571
坁	-13.1573
俑	-13.1573
街	-13.1574
媧	-13.1574
𢃄	-13.1574
㢲	-13.1575
甾	-13.1575
麚	-13.1576
刮	-13.1576
蕞	-13.1576
獿	-13.1576
羇	-13.1577
㱕	-13.1577
圄	-13.1577
絙	-13.1577
􁀌	-13.1578
皿	-13.1578
唾	-13.1578
陞	-13.1578
渫	-13.1579
咒	-13.1581
鄝	-13.1581
憸	-13.1581
葶	-13.1582
􁅆	-13.1582
噴	-13.1583
凜	-13.1584
㼾	-13.1586
惶	-13.1586
躑	-13.1586
𣆀	-13.1586
浘	-13.1587
巓	-13.1588
悵	-13.159
訥	-13.159
儵	-13.1591
虴	-13.1592
嗔	-13.1592
㳙	-13.1594
鍠	-13.1594
蟣	-13.1597
􁉑	-13.1597
溞	-13.1599
䕫	-13.1601
鋙	-13.1603
橢	-13.1604
摡	-13.1615
皵	-13.2037
訢	-13.2046
拉	-13.2054
娜	-13.2057
褗	-13.2058
砅	-13.2059
玕	-13.2059
徯	-13.206
裓	-13.2061
邽	-13.2062
厡	-13.2062
挂	-13.2067
蚞	-13.2067
蝪	-13.2068
皡	-13.2069
腮	-13.2069
衵	-13.207
籕	-13.207
遶	-13.2072
筑	-13.2072
趺	-13.2072
擩	-13.2072
靂	-13.2073
礫	-13.2073
曣	-13.2073
琕	-13.2073
忉	-13.2073
痕	-13.2074
坶	-13.2074
觔	-13.2074
畊	-13.2074
獠	-13.2074
磽	-13.2074
碫	-13.2075
蝝	-13.2075
t	-13.2076
虭	-13.2076
熛	-13.2076
驤	-13.2076
跛	-13.2077
祤	-13.2077
哇	-13.2077
獪	-13.2077
柬	-13.2078
蹯	-13.2078
槌	-13.2078
鄣	-13.2078
醤	-13.2081
稿	-13.2081
聱	-13.2082
筴	-13.2082
<	-13.2082
劃	-13.2083
翡	-13.2084
瞢	-13.2084
縆	-13.2084
髴	-13.2085
咫	-13.2085
腜	-13.2085
擒	-13.2085
寍	-13.2085
虣	-13.2086
呬	-13.2087
戞	-13.2088
眥	-13.2089
趂	-13.2089
搗	-13.2089
睽	-13.2091
鯸	-13.2091
雈	-13.2095
竷	-13.2099
訑	-13.2116
蕅	-13.2547
稉	-13.255
葝	-13.2565
鷱	-13.2571
􁇠	-13.2575
螿	-13.2577
虉	-13.2578
鼽	-13.2579
厞	-13.2583
朶	-13.2585
幺	-13.2589
鄄	-13.2591
槎	-13.2591
筊	-13.2591
掺	-13.2592
砂	-13.2593
聆	-13.2593
麵	-13.2593
沍	-13.2594
蝃	-13.2595
萁	-13.2595
蟧	-13.2596
讃	-13.2597
塹	-13.2597
􁂄	-13.2597
繴	-13.2597
郛	-13.2597
檐	-13.2598
摠	-13.2598
嫙	-13.2598
諳	-13.2599
蘽	-13.2599
丌	-13.26
変	-13.26
遰	-13.26
剸	-13.26
孼	-13.26
騩	-13.2601
糵	-13.2601
鎦	-13.2602
懶	-13.2602
拍	-13.2602
箔	-13.2602
嗤	-13.2603
䳢	-13.2604
鞔	-13.2604
祮	-13.2604
螒	-13.2605
姱	-13.2606
鄏	-13.2607
嘂	-13.2607
欥	-13.2608
柢	-13.2608
䗥	-13.2609
籲	-13.2609
鵋	-13.2609
􁈑	-13.2609
䳫	-13.2609
梳	-13.261
咳	-13.261
夐	-13.261
淖	-13.2611
尅	-13.2611
噍	-13.2611
踪	-13.2611
塢	-13.2611
曖	-13.2612
􁉀	-13.2612
﨑	-13.2613
堕	-13.2614
仌	-13.2614
欎	-13.2616
㝌	-13.2617
莏	-13.2618
觳	-13.2618
堲	-13.2619
紇	-13.262
仿	-13.2625
踣	-13.2626
嗑	-13.2626
犠	-13.2628
坭	-13.2628
穮	-13.2629
魨	-13.263
褵	-13.3091
梜	-13.3106
茮	-13.3118
皞	-13.313
廾	-13.3134
蔿	-13.3135
鞀	-13.3137
縕	-13.3142
珊	-13.3142
喫	-13.3145
蝒	-13.3147
獷	-13.3149
圮	-13.3149
杶	-13.3149
鬴	-13.315
蔔	-13.315
开	-13.3151
枅	-13.3152
嫓	-13.3152
弣	-13.3153
臍	-13.3154
絕	-13.3154
瑇	-13.3155
廄	-13.3155
㫺	-13.3155
䘳	-13.3155
襁	-13.3155
窿	-13.3156
葈	-13.3156
瞶	-13.3157
蘬	-13.3157
丄	-13.3157
跣	-13.3158
煟	-13.3159
催	-13.3159
鼃	-13.3159
爞	-13.3159
蚖	-13.3159
蕍	-13.316
单	-13.316
毉	-13.3161
葩	-13.3163
湔	-13.3163
醑	-13.3164
輳	-13.3164
狙	-13.3164
儋	-13.3164
唳	-13.3164
嘖	-13.3164
蕣	-13.3164
菆	-13.3164
𫝑	-13.3164
牋	-13.3165
犇	-13.3165
堀	-13.3165
処	-13.3165
譟	-13.3166
羍	-13.3166
豣	-13.3167
莾	-13.3167
苺	-13.3167
䢴	-13.3167
穪	-13.3169
𬞞	-13.3172
晥	-13.3172
僑	-13.3173
覓	-13.3173
匣	-13.3174
穣	-13.3174
㤄	-13.3177
䄡	-13.3179
袋	-13.318
彆	-13.3183
墅	-13.3184
桶	-13.3187
橀	-13.372
陬	-13.3723
韡	-13.3725
薔	-13.373
圅	-13.3731
㠯	-13.3731
剴	-13.3731
畺	-13.3732
芎	-13.3733
鄕	-13.3736
蝣	-13.3736
櫽	-13.3736
邗	-13.3737
蹔	-13.3737
笋	-13.3738
𥙿	-13.3738
嗺	-13.3739
馗	-13.3739
蟟	-13.3739
紱	-13.3739
鼷	-13.3739
倀	-13.3739
鱻	-13.374
偁	-13.374
遅	-13.3741
棬	-13.3742
樟	-13.3742
襦	-13.3744
眺	-13.3744
娟	-13.3744
穅	-13.3745
棊	-13.3745
蛜	-13.3745
蜇	-13.3745
鷚	-13.3746
覦	-13.3746
隶	-13.3746
刅	-13.3747
吭	-13.3747
鸐	-13.3747
籗	-13.3747
􁄃	-13.3748
􁈎	-13.3748
璇	-13.3748
确	-13.3749
綖	-13.3749
愕	-13.375
劌	-13.375
蒋	-13.375
愐	-13.3751
悱	-13.3751
犄	-13.3751
價	-13.3752
疉	-13.3752
蟃	-13.3752
夹	-13.3752
兜	-13.3753
洚	-13.3753
鼯	-13.3754
凸	-13.3754
棐	-13.3756
搯	-13.3756
鄁	-13.3756
嘘	-13.3757
鷑	-13.3758
楗	-13.3758
籈	-13.3759
悮	-13.3759
婘	-13.3761
默	-13.3761
跼	-13.3761
妲	-13.3761
潑	-13.3763
鷫	-13.3763
奂	-13.3764
虬	-13.3765
錬	-13.3768
仭	-13.377
鱯	-13.3771
怕	-13.3771
䰝	-13.3772
襫	-13.3774
濤	-13.3774
襏	-13.3775
睎	-13.3776
牗	-13.378
頬	-13.3781
亐	-13.3792
鸅	-13.4329
􁉟	-13.4349
萴	-13.4351
芡	-13.4351
薶	-13.4355
彡	-13.4355
酪	-13.4355
𬒮	-13.4355
岍	-13.4358
䨘	-13.4359
赩	-13.436
霛	-13.4361
邯	-13.4362
孱	-13.4362
嶠	-13.4364
娥	-13.4364
㟁	-13.4364
邳	-13.4364
盂	-13.4365
頞	-13.4365
醸	-13.4365
秈	-13.4365
扎	-13.4365
冄	-13.4366
喆	-13.4366
蛙	-13.4366
鵑	-13.4366
鮓	-13.4366
蒬	-13.4366
玠	-13.4367
柤	-13.4367
瞬	-13.4367
璅	-13.4367
皺	-13.4368
羭	-13.4368
晩	-13.4368
膜	-13.4368
囑	-13.4368
塟	-13.4369
侶	-13.4369
旊	-13.437
净	-13.437
􁀤	-13.437
柿	-13.437
毇	-13.4371
㝛	-13.4371
膻	-13.4371
琖	-13.4371
騽	-13.4372
䰟	-13.4372
栰	-13.4372
桮	-13.4373
㕘	-13.4373
羕	-13.4373
膩	-13.4374
朘	-13.4374
牿	-13.4374
歃	-13.4375
䄂	-13.4375
吊	-13.4375
戬	-13.4376
荄	-13.4376
蓂	-13.4376
鉄	-13.4376
擴	-13.4376
䛕	-13.4376
靃	-13.4376
炯	-13.4377
舃	-13.4377
軋	-13.4377
瘐	-13.4377
販	-13.4377
冑	-13.4377
捊	-13.4377
縚	-13.4378
哮	-13.4378
罾	-13.4378
蔾	-13.4378
捆	-13.4379
両	-13.438
沭	-13.438
縉	-13.438
綆	-13.438
虒	-13.438
枎	-13.4381
甹	-13.4381
裾	-13.4381
黶	-13.4381
喣	-13.4381
耰	-13.4382
呰	-13.4382
獜	-13.4382
埃	-13.4383
秖	-13.4383
瑚	-13.4383
彳	-13.4383
夆	-13.4385
䶂	-13.4385
朸	-13.4385
覘	-13.4386
檝	-13.4387
𫀆	-13.4387
箌	-13.4388
緦	-13.4388
黂	-13.4388
敉	-13.4389
犒	-13.439
眄	-13.439
縟	-13.4391
􁈥	-13.4391
榠	-13.4392
呭	-13.4392
刜	-13.4392
㝢	-13.4392
倞	-13.4394
摳	-13.4397
窩	-13.4402
芓	-13.4403
㕍	-13.498
叉	-13.4983
􁉽	-13.4987
荔	-13.4991
蒮	-13.5002
帟	-13.5009
􁊠	-13.5014
􁉯	-13.5015
鵪	-13.5016
㥑	-13.5016
􁉺	-13.5017
漓	-13.5017
􁈙	-13.5018
蟈	-13.5019
軻	-13.502
缹	-13.5021
曝	-13.5023
碣	-13.5023
耼	-13.5023
莬	-13.5025
薜	-13.5026
衙	-13.5028
蝸	-13.5028
廋	-13.5028
兦	-13.5028
鳱	-13.503
糁	-13.503
蕀	-13.5031
淤	-13.5032
匙	-13.5032
剙	-13.5032
綻	-13.5033
跽	-13.5033
槀	-13.5034
鰕	-13.5035
謍	-13.5036
絍	-13.5036
㩗	-13.5036
醍	-13.5037
淩	-13.5037
敇	-13.5037
逭	-13.5037
駂	-13.5037
禩	-13.5039
掫	-13.5039
蒜	-13.5039
臷	-13.5039
瀀	-13.5039
篦	-13.504
蛻	-13.504
笺	-13.504
柸	-13.504
馥	-13.504
鴳	-13.5041
㕧	-13.5041
囏	-13.5041
䱰	-13.5041
疌	-13.5041
獥	-13.5041
茙	-13.5042
鶵	-13.5042
緀	-13.5043
鱑	-13.5044
宓	-13.5044
僥	-13.5044
鴱	-13.5045
璿	-13.5045
𪷟	-13.5045
沁	-13.5046
祸	-13.5047
蘘	-13.5047
蒫	-13.5047
幘	-13.5047
夊	-13.5047
鱍	-13.5048
婼	-13.5048
箘	-13.5049
鵅	-13.5051
觓	-13.5051
餗	-13.5051
漲	-13.5051
轑	-13.5051
焯	-13.5052
贛	-13.5052
􁈦	-13.5052
丐	-13.5052
屐	-13.5054
㽦	-13.5055
启	-13.5055
凊	-13.5055
鑽	-13.5057
謞	-13.5058
獑	-13.506
憴	-13.5061
瑑	-13.5065
䬸	-13.5065
􁈿	-13.5067
茠	-13.5067
䒒	-13.5073
薚	-13.5697
鴮	-13.5709
滙	-13.571
郄	-13.571
嗉	-13.5712
薧	-13.5713
堙	-13.5715
䏧	-13.572
牸	-13.5723
翪	-13.5723
鮛	-13.5723
蓨	-13.5726
炒	-13.5727
惲	-13.573
蹕	-13.5734
摙	-13.5734
顁	-13.5735
窓	-13.5736
栱	-13.5737
蚅	-13.5737
衺	-13.5738
揫	-13.5738
瞑	-13.5738
􁈐	-13.5738
嶼	-13.5738
薤	-13.5738
榴	-13.5739
喑	-13.5739
薻	-13.5741
膁	-13.5742
燂	-13.5743
鈐	-13.5743
澌	-13.5743
芊	-13.5744
嫻	-13.5744
獒	-13.5745
嚨	-13.5745
慴	-13.5746
嵂	-13.5746
酖	-13.5746
袚	-13.5746
湇	-13.5747
揲	-13.5747
孛	-13.5747
僇	-13.5748
鞛	-13.5748
鮅	-13.5748
瑛	-13.5749
蔠	-13.575
枿	-13.575
猒	-13.575
尞	-13.5751
僔	-13.5751
餽	-13.5751
撕	-13.5752
軔	-13.5752
鑛	-13.5752
椔	-13.5753
猖	-13.5753
䡾	-13.5753
潄	-13.5753
鈆	-13.5754
祟	-13.5754
齕	-13.5754
㪅	-13.5754
晻	-13.5754
艁	-13.5755
厦	-13.5755
驓	-13.5756
貙	-13.5756
唸	-13.5756
檄	-13.5756
禧	-13.5756
剗	-13.5756
巂	-13.5757
眤	-13.5757
墊	-13.5757
沰	-13.5758
惋	-13.5758
蟢	-13.5758
陗	-13.5759
穬	-13.5759
躒	-13.576
屹	-13.576
螝	-13.576
貑	-13.576
酧	-13.576
倂	-13.576
冤	-13.5761
讚	-13.5761
􁊹	-13.5761
埒	-13.5762
癢	-13.5762
㝎	-13.5762
雇	-13.5763
碬	-13.5763
縗	-13.5763
箝	-13.5763
沴	-13.5764
媸	-13.5764
䍧	-13.5764
賵	-13.5764
劄	-13.5765
薃	-13.5765
韈	-13.5765
瘧	-13.5765
皜	-13.5766
霿	-13.5766
􁉜	-13.5766
陑	-13.5766
晹	-13.5766
涏	-13.5766
髣	-13.5767
鑚	-13.5767
幎	-13.5768
犚	-13.5769
鶠	-13.5769
鳭	-13.5769
粰	-13.577
钀	-13.5771
牰	-13.5771
􁉣	-13.5771
豓	-13.5771
枖	-13.5772
曕	-13.5775
污	-13.5775
􁈩	-13.5776
嶲	-13.5777
騃	-13.5778
舠	-13.5779
諐	-13.578
䑛	-13.578
軄	-13.5784
酟	-13.5787
籙	-13.6457
靨	-13.6473
隍	-13.6485
鼜	-13.6485
蒚	-13.6486
蠀	-13.649
㰦	-13.6491
􁉻	-13.6493
芰	-13.6493
鴪	-13.6496
卝	-13.6497
佹	-13.6501
耓	-13.6501
菸	-13.6503
櫸	-13.6503
醳	-13.6504
橧	-13.6505
貜	-13.6506
􁉵	-13.6506
准	-13.6506
㖡	-13.6507
佖	-13.6507
楔	-13.6508
蟺	-13.6509
袤	-13.651
鶆	-13.6511
轚	-13.6511
蕉	-13.6511
虱	-13.6511
朁	-13.6512
漱	-13.6513
宕	-13.6513
蝭	-13.6513
跖	-13.6514
「	-13.6514
匄	-13.6514
鴃	-13.6515
蠺	-13.6516
豰	-13.6516
雗	-13.6516
閌	-13.6516
灉	-13.6516
荳	-13.6516
适	-13.6517
描	-13.6518
濇	-13.6519
蜍	-13.6519
鐙	-13.6519
虀	-13.6519
挿	-13.652
竪	-13.6521
懑	-13.6521
虙	-13.6521
腋	-13.6521
殬	-13.6522
羃	-13.6522
蟜	-13.6522
膄	-13.6522
廊	-13.6523
肎	-13.6523
贗	-13.6524
櫨	-13.6524
譊	-13.6524
洊	-13.6524
跌	-13.6524
糊	-13.6524
痬	-13.6524
旡	-13.6525
娵	-13.6525
􁋞	-13.6525
眈	-13.6525
㑴	-13.6526
􁅈	-13.6527
鬺	-13.6527
觲	-13.6527
篾	-13.6527
沅	-13.6527
塍	-13.6527
倮	-13.6527
讜	-13.6527
溜	-13.6528
潼	-13.6528
辵	-13.6528
埶	-13.6528
鼬	-13.6528
匾	-13.6528
揀	-13.6529
鄊	-13.6529
藺	-13.653
鵾	-13.653
􁅂	-13.6531
憝	-13.6532
愓	-13.6532
匭	-13.6532
咡	-13.6534
煨	-13.6534
舫	-13.6534
棋	-13.6535
禬	-13.6535
圑	-13.6535
氄	-13.6535
樴	-13.6535
䞇	-13.6535
醖	-13.6535
䣝	-13.6535
㐀	-13.6536
湫	-13.6536
輨	-13.6536
毬	-13.6536
蓿	-13.6536
毘	-13.6536
阱	-13.6536
肶	-13.6537
醺	-13.6537
𧰼	-13.6538
忕	-13.6538
朐	-13.6539
筠	-13.6539
蹴	-13.654
匆	-13.6541
榜	-13.6542
獾	-13.6543
菺	-13.6546
掔	-13.6552
䨾	-13.6552
驊	-13.6555
窋	-13.7274
湼	-13.7318
瞏	-13.7318
鐶	-13.732
璠	-13.7322
溵	-13.7326
蕕	-13.7327
䓑	-13.7327
鶂	-13.7327
顥	-13.7328
郈	-13.733
觪	-13.7332
䫤	-13.7333
梔	-13.7333
綎	-13.7333
軨	-13.7335
芀	-13.7336
藲	-13.7336
䧺	-13.7336
鄖	-13.7336
砮	-13.7337
螳	-13.7338
鸊	-13.7339
莙	-13.7341
麯	-13.7341
鶝	-13.7342
㩥	-13.7342
鱠	-13.7342
禝	-13.7343
巙	-13.7343
鶷	-13.7344
羵	-13.7344
滲	-13.7344
燾	-13.7345
惷	-13.7346
曁	-13.7346
鰓	-13.7347
傒	-13.7347
􁉆	-13.7347
蝇	-13.7348
蛥	-13.7348
珂	-13.7348
蚗	-13.7349
忙	-13.735
涑	-13.735
筲	-13.735
磧	-13.735
鵫	-13.7351
綉	-13.7351
愎	-13.7352
癬	-13.7353
粛	-13.7353
庥	-13.7353
僃	-13.7353
􁌈	-13.7353
蓘	-13.7354
痞	-13.7354
䌰	-13.7355
癰	-13.7355
雺	-13.7355
堛	-13.7355
暎	-13.7356
蚋	-13.7356
袷	-13.7356
拽	-13.7357
卺	-13.7357
叵	-13.7358
萉	-13.7358
㹠	-13.7358
咄	-13.7358
􁉉	-13.7359
菥	-13.736
簥	-13.736
鵁	-13.736
鍬	-13.736
欿	-13.736
愵	-13.736
殂	-13.736
闚	-13.7361
帰	-13.7361
腕	-13.7361
䖝	-13.7361
錙	-13.7361
呑	-13.7361
鎖	-13.7361
媅	-13.7361
銛	-13.7361
䅻	-13.7362
疣	-13.7362
筰	-13.7363
獎	-13.7363
蜒	-13.7363
􁊳	-13.7363
砭	-13.7364
叱	-13.7364
顱	-13.7364
夃	-13.7365
泝	-13.7365
寀	-13.7365
荗	-13.7365
鱟	-13.7366
叮	-13.7366
鵧	-13.7367
崱	-13.7368
疛	-13.7368
碌	-13.7368
騣	-13.7369
䳎	-13.7369
𥅆	-13.737
貾	-13.7372
􁇩	-13.7374
賒	-13.7374
駫	-13.7375
脞	-13.7375
衃	-13.7376
虇	-13.7379
肵	-13.7379
襚	-13.7379
愮	-13.738
尓	-13.7384
鮠	-13.7386
吅	-13.8204
䓞	-13.8217
黸	-13.8227
璩	-13.8233
穨	-13.8235
罋	-13.8237
螂	-13.8238
癩	-13.824
蛭	-13.8241
彗	-13.8243
樺	-13.8243
葜	-13.8243
隃	-13.8243
蠦	-13.8243
蝥	-13.8244
漯	-13.8244
檮	-13.8244
鶛	-13.8244
广	-13.8245
冂	-13.8245
蟇	-13.8245
喋	-13.8246
灣	-13.8246
颲	-13.8247
麉	-13.8247
叒	-13.8248
褭	-13.8248
􁀂	-13.8249
轐	-13.8249
輮	-13.8249
罇	-13.825
閬	-13.8251
謌	-13.8251
你	-13.8252
舀	-13.8252
蘵	-13.8253
菨	-13.8256
橑	-13.8256
壌	-13.8256
􁋵	-13.8256
倔	-13.8257
鶄	-13.8257
朢	-13.8257
嬾	-13.8258
蠖	-13.8258
䝿	-13.8259
狷	-13.8259
騖	-13.8259
禷	-13.8259
楝	-13.826
儁	-13.826
紈	-13.826
僨	-13.8261
垓	-13.8262
禊	-13.8262
蝍	-13.8262
勛	-13.8262
僧	-13.8262
媮	-13.8262
拏	-13.8263
聵	-13.8263
撝	-13.8263
厮	-13.8263
翾	-13.8264
魋	-13.8264
貅	-13.8264
蓈	-13.8265
陼	-13.8265
峭	-13.8265
窻	-13.8265
舋	-13.8265
蔆	-13.8265
糖	-13.8266
䔧	-13.8266
璱	-13.8266
鱄	-13.8266
簣	-13.8266
伃	-13.8266
巇	-13.8267
㨨	-13.8267
鼏	-13.8268
匽	-13.8269
䲅	-13.8269
餔	-13.8269
刁	-13.8269
㐲	-13.827
魧	-13.827
䍘	-13.827
惬	-13.827
弲	-13.827
蚡	-13.827
怊	-13.8271
朦	-13.8271
韅	-13.8271
癥	-13.8271
鸕	-13.8271
䓟	-13.8272
肪	-13.8272
䩯	-13.8272
氲	-13.8272
藡	-13.8273
􁄵	-13.8273
閶	-13.8273
刖	-13.8273
枑	-13.8273
㙪	-13.8273
姁	-13.8273
儿	-13.8273
䄙	-13.8273
緖	-13.8273
帡	-13.8274
㬱	-13.8275
蕝	-13.8276
􁉎	-13.8276
媻	-13.8276
砧	-13.8276
笫	-13.8277
弴	-13.8277
蛨	-13.8277
償	-13.8277
噏	-13.8277
䞓	-13.8278
嗼	-13.8278
㘲	-13.8278
亰	-13.8279
尽	-13.8279
軥	-13.8279
􁈃	-13.8279
笮	-13.8279
怱	-13.828
蛮	-13.828
攙	-13.8281
􁄟	-13.8281
鮇	-13.8283
葴	-13.8283
牯	-13.8284
􁉫	-13.8284
崛	-13.8285
㔢	-13.8285
鯁	-13.8285
甒	-13.8285
苒	-13.8289
貰	-13.8289
㧻	-13.8289
斮	-13.829
攧	-13.8291
𠡠	-13.8292
鰦	-13.8292
橶	-13.8293
䓤	-13.8294
燁	-13.8295
縑	-13.8297
剟	-13.8299
邜	-13.8306
獶	-13.8308
胆	-13.8311
茢	-13.8314
糳	-13.9149
厶	-13.9223
蒡	-13.9228
頫	-13.923
椰	-13.9231
藭	-13.9232
䕯	-13.9234
礜	-13.9235
泓	-13.9236
峡	-13.9237
洙	-13.9237
薆	-13.9238
柩	-13.9238
蕫	-13.9238
􁈽	-13.9239
脡	-13.924
啣	-13.9241
䍮	-13.9241
麳	-13.9243
桔	-13.9243
鐎	-13.9243
堥	-13.9243
埓	-13.9246
涗	-13.9246
􁉍	-13.9246
蒩	-13.9246
䲹	-13.9247
㯉	-13.9247
蛅	-13.9247
濞	-13.9247
莓	-13.9248
溽	-13.9249
鄷	-13.9249
号	-13.925
摸	-13.925
慓	-13.9251
簭	-13.9251
􁊶	-13.9252
輭	-13.9252
駣	-13.9253
玟	-13.9253
嫂	-13.9253
毼	-13.9253
􁉬	-13.9253
豨	-13.9255
琵	-13.9255
嫰	-13.9255
鸂	-13.9255
蕎	-13.9256
韝	-13.9256
蕺	-13.9257
僄	-13.9257
蜕	-13.9257
柵	-13.9258
穏	-13.9258
驢	-13.9258
澈	-13.9258
袸	-13.926
璵	-13.926
衹	-13.9261
套	-13.9261
朏	-13.9261
獧	-13.9261
蠕	-13.9262
僵	-13.9263
饕	-13.9263
臅	-13.9264
肸	-13.9264
􁄄	-13.9265
榑	-13.9265
膓	-13.9265
瀛	-13.9266
顦	-13.9266
气	-13.9266
联	-13.9267
䳡	-13.9267
葮	-13.9267
踳	-13.9267
齝	-13.9267
臿	-13.9268
鋋	-13.9268
獍	-13.9268
蠓	-13.9268
嫋	-13.9268
痔	-13.9269
苫	-13.9269
厂	-13.9269
鎡	-13.9269
痑	-13.9269
擗	-13.9269
缻	-13.9269
黹	-13.9269
􁈯	-13.927
衒	-13.927
鬐	-13.9271
懔	-13.9271
麈	-13.9271
瞀	-13.9271
㜝	-13.9272
卸	-13.9272
斸	-13.9272
鴊	-13.9273
肫	-13.9274
悈	-13.9274
嬥	-13.9274
􁌖	-13.9275
稾	-13.9275
杅	-13.9275
倏	-13.9275
楳	-13.9275
襧	-13.9275
譍	-13.9275
寰	-13.9276
滭	-13.9276
鷸	-13.9276
幛	-13.9277
㓠	-13.9277
郉	-13.9277
飜	-13.9277
韙	-13.9278
鱺	-13.9279
蹏	-13.9279
陁	-13.928
糸	-13.928
邭	-13.928
轆	-13.928
􁋝	-13.9281
㕒	-13.9281
雔	-13.9281
鮂	-13.9281
􁉌	-13.9281
􁈉	-13.9282
悻	-13.9282
柹	-13.9282
􁈻	-13.9285
仐	-13.9285
􁉈	-13.9286
頯	-13.9287
逗	-13.929
銕	-13.9291
筈	-13.9292
䎵	-13.9292
脤	-13.9293
舐	-13.93
􁌠	-13.93
椈	-13.9311
窑	-14.0318
橙	-14.0328
枬	-14.0332
柒	-14.0335
哠	-14.0337
擺	-14.034
崗	-14.034
勹	-14.0341
湟	-14.0341
婀	-14.0342
䜿	-14.0343
㻆	-14.0347
㑥	-14.0349
杸	-14.0349
褶	-14.0349
萵	-14.0351
綾	-14.0351
檏	-14.0351
盭	-14.0351
峐	-14.0352
眅	-14.0352
旼	-14.0354
畸	-14.0354
鐋	-14.0355
撟	-14.0356
譱	-14.0357
䳄	-14.0357
麫	-14.0358
茻	-14.0359
鏕	-14.0359
旈	-14.036
匯	-14.036
惎	-14.036
昦	-14.036
柛	-14.036
桰	-14.036
瞰	-14.0361
凭	-14.0361
嬼	-14.0362
觹	-14.0362
㓖	-14.0363
縰	-14.0365
捶	-14.0365
烱	-14.0365
㽞	-14.0365
鷷	-14.0366
鵷	-14.0366
郅	-14.0366
蝚	-14.0366
㗋	-14.0366
苔	-14.0366
􁀎	-14.0366
鵗	-14.0367
鶅	-14.0367
禺	-14.0367
鐫	-14.0367
譔	-14.0367
妤	-14.0368
䡴	-14.0368
浞	-14.0368
蛑	-14.0368
卄	-14.0368
簵	-14.0369
戹	-14.0369
䗁	-14.0369
苪	-14.037
􁍍	-14.037
􁄧	-14.037
韲	-14.037
匚	-14.0371
澠	-14.0371
鴾	-14.0372
贔	-14.0372
髃	-14.0372
緋	-14.0372
摍	-14.0372
襯	-14.0373
症	-14.0373
俲	-14.0373
暦	-14.0373
怎	-14.0373
劎	-14.0373
蛁	-14.0373
鰹	-14.0373
嚙	-14.0374
䏂	-14.0374
帗	-14.0374
橿	-14.0374
􁄗	-14.0374
媆	-14.0375
褏	-14.0375
鱤	-14.0375
狖	-14.0375
脀	-14.0376
頟	-14.0376
菳	-14.0376
鳪	-14.0376
卩	-14.0376
鴡	-14.0376
藦	-14.0376
媪	-14.0376
畐	-14.0377
抛	-14.0377
曩	-14.0377
啙	-14.0377
槨	-14.0377
妉	-14.0377
臃	-14.0378
鞌	-14.0378
冹	-14.0378
竑	-14.0379
韞	-14.0379
薳	-14.0379
迢	-14.0379
蔗	-14.0379
􁊜	-14.0379
𡊮	-14.0379
蘐	-14.038
齮	-14.038
鞮	-14.038
矮	-14.038
鰡	-14.038
陡	-14.038
齔	-14.038
腨	-14.038
棥	-14.0381
曡	-14.0381
玳	-14.0381
宧	-14.0382
慥	-14.0382
秏	-14.0382
絏	-14.0382
􁊃	-14.0383
换	-14.0383
敲	-14.0383
耡	-14.0383
犮	-14.0383
􁀐	-14.0383
辠	-14.0383
扳	-14.0384
臓	-14.0384
茝	-14.0384
馰	-14.0385
臲	-14.0385
尟	-14.0385
攄	-14.0385
倕	-14.0385
皭	-14.0385
瞫	-14.0386
􁈢	-14.0386
煴	-14.0387
轤	-14.0387
罘	-14.0387
徭	-14.0387
􁈟	-14.0387
邐	-14.0387
夒	-14.0387
鴯	-14.0387
黤	-14.0388
鷾	-14.0388
萆	-14.0388
縌	-14.0388
衊	-14.0389
􁊙	-14.039
梐	-14.039
怗	-14.039
憢	-14.039
鮵	-14.039
􁉇	-14.039
剉	-14.0391
旤	-14.0391
獘	-14.0391
俣	-14.0392
厜	-14.0393
􁊁	-14.0393
齗	-14.0394
柅	-14.0394
賅	-14.0395
巅	-14.0395
丂	-14.0395
撙	-14.0396
圪	-14.0397
媺	-14.0397
􁊱	-14.0397
杴	-14.0398
蕤	-14.0398
枘	-14.0401
螭	-14.0402
䗘	-14.0402
㝤	-14.0403
淊	-14.0403
㗉	-14.0404
􁆹	-14.0405
詍	-14.0406
趐	-14.0406
袠	-14.0408
扑	-14.0408
璉	-14.0411
酹	-14.0412
鋟	-14.0415
丣	-14.0416
曆	-14.0422
胠	-14.0434
􁎇	-14.1483
庛	-14.1565
蜰	-14.158
蠵	-14.1581
蓎	-14.1585
痍	-14.1587
蘼	-14.1594
玲	-14.1594
柜	-14.1594
峴	-14.1594
㒷	-14.1598
瘕	-14.1598
巜	-14.16
燅	-14.16
癶	-14.1601
睟	-14.1602
豶	-14.1602
券	-14.1602
轙	-14.1603
􁊚	-14.1603
􁉹	-14.1603
葌	-14.1604
􁀔	-14.1604
寠	-14.1605
靧	-14.1606
燀	-14.1607
絨	-14.1608
􁆡	-14.1609
僶	-14.1609
萲	-14.161
泡	-14.161
膱	-14.1612
􁈳	-14.1612
椀	-14.1614
婕	-14.1615
蚕	-14.1615
蚔	-14.1615
惪	-14.1615
泃	-14.1616
鼞	-14.1616
􁊄	-14.1617
糈	-14.1617
鮞	-14.1617
眎	-14.1617
䘖	-14.1617
蝨	-14.1617
襞	-14.1617
蔇	-14.1617
竫	-14.1618
臀	-14.1618
罧	-14.1619
駥	-14.162
腑	-14.162
傖	-14.162
飰	-14.1621
􁆻	-14.1621
瘂	-14.1622
瘤	-14.1622
駞	-14.1623
叄	-14.1623
觡	-14.1624
氂	-14.1624
挻	-14.1624
脕	-14.1625
鵀	-14.1625
瀝	-14.1625
鶒	-14.1626
蜲	-14.1626
膈	-14.1626
妝	-14.1626
衂	-14.1627
婬	-14.1627
鱖	-14.1627
裡	-14.1628
抌	-14.1628
蠚	-14.1628
倥	-14.1628
溠	-14.1628
誐	-14.1628
惌	-14.1628
醧	-14.1628
嘩	-14.1629
丿	-14.1629
牁	-14.1629
甖	-14.1629
䓆	-14.1629
擷	-14.1629
痿	-14.1629
喝	-14.1629
韖	-14.1629
笻	-14.163
甐	-14.163
觕	-14.163
稰	-14.163
􁋠	-14.1631
㴑	-14.1631
搥	-14.1631
窪	-14.1632
㣎	-14.1633
佀	-14.1633
嵓	-14.1633
棷	-14.1633
鴔	-14.1633
箧	-14.1634
帉	-14.1634
榻	-14.1634
􁉷	-14.1634
朡	-14.1635
鍱	-14.1635
䬴	-14.1635
毊	-14.1636
靛	-14.1636
碓	-14.1636
螯	-14.1637
旎	-14.1637
痏	-14.1637
娿	-14.1637
傓	-14.1637
蟒	-14.1637
􁉚	-14.1638
䜅	-14.1638
墫	-14.1639
鏚	-14.1639
㘈	-14.1639
蟰	-14.1639
凵	-14.1639
嘿	-14.1639
蒵	-14.164
膷	-14.164
匃	-14.164
蠰	-14.164
嚀	-14.164
焄	-14.1642
箐	-14.1642
蚢	-14.1642
萭	-14.1642
豴	-14.1642
縧	-14.1643
箆	-14.1643
嬒	-14.1643
劈	-14.1643
俻	-14.1643
忳	-14.1644
硯	-14.1644
賖	-14.1645
蟓	-14.1645
􁉃	-14.1646
鰌	-14.1646
俜	-14.1646
纇	-14.1647
鱎	-14.1648
蔯	-14.1648
囹	-14.1649
𧃊	-14.165
慟	-14.1651
鮭	-14.1651
疒	-14.1652
厔	-14.1652
蜿	-14.1656
靽	-14.1656
噋	-14.1657
涣	-14.1657
醎	-14.1657
甝	-14.166
㨄	-14.1661
掄	-14.1668
瘇	-14.1672
㽥	-14.1673
琬	-14.1678
庬	-14.1688
奧	-14.1694
筤	-14.1695
蠁	-14.2969
焌	-14.2987
柣	-14.299
辢	-14.3005
汍	-14.301
嬝	-14.3013
褌	-14.3014
榼	-14.3015
柭	-14.3016
幙	-14.3016
䰍	-14.3017
牕	-14.3017
蛷	-14.3018
蘗	-14.3018
椑	-14.302
卪	-14.302
箈	-14.302
蹗	-14.302
蒢	-14.3023
箄	-14.3026
椉	-14.3027
祡	-14.3027
釆	-14.3028
蕋	-14.3028
芅	-14.3031
珏	-14.3031
瓤	-14.3031
嶻	-14.3032
磏	-14.3032
䳓	-14.3032
髤	-14.3034
鷒	-14.3034
􁉘	-14.3035
蛦	-14.3035
岩	-14.3035
芔	-14.3035
拼	-14.3035
叴	-14.3035
瞋	-14.3036
觭	-14.3037
鶭	-14.3037
􁂅	-14.3037
頵	-14.3038
阞	-14.3038
捔	-14.3038
蘥	-14.3039
甛	-14.3039
蠹	-14.3039
蓤	-14.304
瞞	-14.304
鱼	-14.3041
嵐	-14.3041
􁀦	-14.3041
戉	-14.3041
屡	-14.3041
蟅	-14.3042
膊	-14.3042
繸	-14.3042
潒	-14.3042
屭	-14.3042
訶	-14.3043
纈	-14.3043
莨	-14.3043
鶗	-14.3043
趁	-14.3044
继	-14.3044
嫺	-14.3044
椁	-14.3046
鷀	-14.3046
齓	-14.3046
睱	-14.3047
跱	-14.3047
鋌	-14.3047
鏦	-14.3048
煉	-14.3048
獗	-14.3049
麷	-14.3049
烔	-14.305
筝	-14.305
鱔	-14.305
猩	-14.305
挨	-14.305
䳲	-14.305
轟	-14.305
譪	-14.305
抆	-14.305
髫	-14.305
」	-14.3051
􁉏	-14.3051
亲	-14.3051
鶞	-14.3052
蘚	-14.3052
踝	-14.3052
恡	-14.3052
鞢	-14.3052
孀	-14.3053
郫	-14.3053
餮	-14.3053
蝽	-14.3053
壴	-14.3053
磷	-14.3054
勳	-14.3054
飤	-14.3054
扐	-14.3055
蚺	-14.3055
躉	-14.3055
摺	-14.3055
鵽	-14.3056
冸	-14.3056
蟁	-14.3056
淲	-14.3056
枮	-14.3056
鼄	-14.3056
献	-14.3056
鼅	-14.3056
袇	-14.3056
錧	-14.3056
恧	-14.3057
捽	-14.3057
簍	-14.3057
汛	-14.3057
赠	-14.3057
伻	-14.3057
􁂙	-14.3057
霝	-14.3058
牌	-14.3058
誖	-14.3058
䀠	-14.3059
凷	-14.3059
鼸	-14.3059
稞	-14.3059
断	-14.3059
廽	-14.3059
䱤	-14.306
慵	-14.306
釳	-14.3061
驍	-14.3061
惹	-14.3061
悃	-14.3061
庀	-14.3061
攖	-14.3061
㲈	-14.3061
夤	-14.3061
塏	-14.3062
詧	-14.3062
詼	-14.3062
閃	-14.3062
臊	-14.3062
炅	-14.3062
呵	-14.3063
扒	-14.3063
亍	-14.3063
簎	-14.3063
鬋	-14.3064
鴣	-14.3065
凂	-14.3065
枇	-14.3065
菭	-14.3065
䁩	-14.3065
螸	-14.3065
鍤	-14.3065
􁀋	-14.3066
獅	-14.3067
捩	-14.3067
搰	-14.3067
膞	-14.3067
梲	-14.3067
沗	-14.3067
􁂳	-14.3068
殀	-14.3068
弹	-14.3068
亏	-14.3068
㮮	-14.3068
棹	-14.3068
挍	-14.3069
􁂑	-14.3069
离	-14.3069
梮	-14.3069
榩	-14.3069
旖	-14.3069
髯	-14.307
袲	-14.307
躰	-14.307
盉	-14.307
鮁	-14.3071
䆅	-14.3071
黥	-14.3072
浟	-14.3072
撒	-14.3072
麙	-14.3072
斉	-14.3072
䓯	-14.3074
秱	-14.3074
􁊏	-14.3075
抹	-14.3075
阽	-14.3076
疴	-14.3077
韮	-14.3077
􁉠	-14.3078
蓊	-14.3078
厪	-14.3078
㿒	-14.308
溴	-14.3081
絣	-14.3082
歠	-14.3082
覒	-14.3083
螀	-14.3083
唘	-14.3083
謼	-14.3085
鑴	-14.3085
臙	-14.3085
疪	-14.3085
莣	-14.3086
廚	-14.3086
顕	-14.3092
艇	-14.3095
庪	-14.3095
縏	-14.3095
裧	-14.3097
擽	-14.3099
㸮	-14.3102
燉	-14.3103
夌	-14.3107
籔	-14.4645
鄯	-14.4658
謣	-14.466
隿	-14.4662
庮	-14.4662
杈	-14.4668
􁃝	-14.4668
䒫	-14.4668
髽	-14.467
幑	-14.4671
䩉	-14.4675
崘	-14.4676
瀑	-14.4677
崐	-14.4678
夅	-14.4682
䢷	-14.4683
鵌	-14.4684
臽	-14.4685
夂	-14.4685
卨	-14.4689
輂	-14.469
􁂟	-14.469
蓧	-14.4691
輼	-14.4691
鳼	-14.4691
㸤	-14.4693
䝠	-14.4694
斌	-14.4694
瑬	-14.4694
峕	-14.4695
蝛	-14.4695
胹	-14.4695
􁉢	-14.4697
紾	-14.4697
溓	-14.4697
􁈴	-14.4697
絝	-14.4697
楩	-14.4698
縄	-14.4698
囱	-14.4698
殣	-14.4699
䀪	-14.4699
𠞰	-14.47
蟥	-14.47
􁋒	-14.47
狶	-14.47
􁀹	-14.47
魊	-14.47
傎	-14.4701
麔	-14.4702
貲	-14.4702
犭	-14.4702
唼	-14.4703
􁉕	-14.4703
兇	-14.4704
潺	-14.4704
藗	-14.4704
咆	-14.4704
璓	-14.4705
􁈒	-14.4705
菤	-14.4705
淈	-14.4705
蟿	-14.4706
􁆁	-14.4706
贓	-14.4706
閙	-14.4706
帬	-14.4706
􁌌	-14.4706
蜬	-14.4707
斡	-14.4707
􁉸	-14.4707
蛀	-14.4707
顈	-14.4707
㜪	-14.4707
吮	-14.4707
齷	-14.4707
茐	-14.4707
齪	-14.4708
奡	-14.4708
縜	-14.4708
䴢	-14.4708
粕	-14.4708
爚	-14.4709
鷐	-14.4709
掐	-14.4709
趕	-14.4709
㡛	-14.4709
胭	-14.4709
鋀	-14.4709
眔	-14.471
硩	-14.471
㐱	-14.471
废	-14.471
辬	-14.471
禠	-14.4711
􁊼	-14.4711
帀	-14.4711
琯	-14.4711
􁈲	-14.4712
璙	-14.4712
剜	-14.4712
玫	-14.4713
菖	-14.4713
隞	-14.4713
躳	-14.4713
緬	-14.4713
毯	-14.4713
陊	-14.4713
㢠	-14.4714
斪	-14.4714
雘	-14.4714
澍	-14.4714
睞	-14.4714
磻	-14.4714
暜	-14.4715
犲	-14.4715
腿	-14.4715
䥫	-14.4715
堊	-14.4715
梵	-14.4715
債	-14.4715
㫃	-14.4716
䔛	-14.4716
䖸	-14.4716
淰	-14.4716
瑉	-14.4716
痰	-14.4716
􁋣	-14.4716
渟	-14.4717
攵	-14.4718
甬	-14.4718
㾯	-14.4718
鸘	-14.4718
忩	-14.4718
隲	-14.4719
丏	-14.4719
􁆐	-14.4719
蔨	-14.4719
忸	-14.4719
兟	-14.4719
术	-14.4719
派	-14.4719
怩	-14.4719
嗛	-14.4719
㶣	-14.4719
躕	-14.472
閍	-14.472
婪	-14.472
勣	-14.472
璟	-14.4721
擭	-14.4721
誧	-14.4721
崈	-14.4721
剰	-14.4721
奩	-14.4722
迯	-14.4722
繍	-14.4722
踉	-14.4722
伽	-14.4723
狘	-14.4723
䆤	-14.4723
煆	-14.4723
坺	-14.4723
蹮	-14.4723
垠	-14.4723
歰	-14.4723
崍	-14.4723
曏	-14.4723
㓨	-14.4723
喿	-14.4723
鋚	-14.4723
崌	-14.4724
卅	-14.4724
紿	-14.4725
姕	-14.4725
鄔	-14.4725
餹	-14.4725
袛	-14.4725
敻	-14.4725
絫	-14.4726
闒	-14.4726
䌓	-14.4727
迊	-14.4727
鋝	-14.4727
卼	-14.4727
䯤	-14.4728
犣	-14.4728
遝	-14.4728
贋	-14.4728
䍖	-14.4728
䎘	-14.4728
慫	-14.4728
秧	-14.4729
訰	-14.4729
蕊	-14.4729
鸓	-14.4729
􁀨	-14.4729
攅	-14.473
涪	-14.473
嚅	-14.473
窊	-14.473
郞	-14.473
窗	-14.473
㽨	-14.473
眧	-14.473
鐊	-14.4731
駃	-14.4731
汸	-14.4731
䥴	-14.4731
哻	-14.4731
嗃	-14.4731
竂	-14.4731
嵎	-14.4732
靺	-14.4732
狴	-14.4732
冏	-14.4732
机	-14.4733
䴥	-14.4733
嬃	-14.4733
啁	-14.4733
迒	-14.4733
閠	-14.4733
懍	-14.4733
嵯	-14.4733
蘅	-14.4733
倢	-14.4734
雧	-14.4734
駻	-14.4734
􁂿	-14.4734
维	-14.4734
礲	-14.4734
溈	-14.4734
秤	-14.4734
篁	-14.4735
鶾	-14.4735
戼	-14.4735
矻	-14.4735
轛	-14.4736
瘝	-14.4736
􁋭	-14.4736
瑄	-14.4736
􁋾	-14.4736
􁂠	-14.4737
葫	-14.4737
爿	-14.4737
諴	-14.4738
㣧	-14.4738
訒	-14.4738
燻	-14.4738
扢	-14.4738
迕	-14.4738
繘	-14.4739
􁈕	-14.4739
顄	-14.4739
鼶	-14.4739
晫	-14.4739
篹	-14.4739
斈	-14.474
㝡	-14.474
剋	-14.474
軑	-14.474
縡	-14.4741
䰲	-14.4742
粮	-14.4743
憧	-14.4743
嶮	-14.4743
茈	-14.4743
懥	-14.4744
狻	-14.4744
碁	-14.4744
亻	-14.4744
劓	-14.4744
躧	-14.4744
鄚	-14.4745
螔	-14.4745
鈸	-14.4746
抔	-14.4746
涽	-14.4746
鑱	-14.4746
茞	-14.4746
􁁛	-14.4747
攔	-14.4748
惆	-14.4748
蔶	-14.4748
毶	-14.4749
甃	-14.4752
吚	-14.4752
耎	-14.4752
糇	-14.4753
捃	-14.4753
廧	-14.4754
􁋁	-14.4754
駏	-14.4756
蹠	-14.4758
幨	-14.476
㴞	-14.4762
抶	-14.4768
爊	-14.4768
菧	-14.4769
䱜	-14.4769
忞	-14.4795
䓅	-14.6562
䑞	-14.6636
幵	-14.6644
鎰	-14.6646
霈	-14.6659
􁍋	-14.666
盇	-14.6661
丨	-14.6663
􁍌	-14.6666
榽	-14.6669
斆	-14.6672
跦	-14.6674
蔁	-14.6674
洺	-14.6676
鼵	-14.6676
䶆	-14.6678
欘	-14.6679
螋	-14.668
藙	-14.6681
􁅅	-14.6681
籐	-14.6682
戽	-14.6684
屖	-14.6686
􁋊	-14.6687
估	-14.6688
轒	-14.669
馽	-14.669
哽	-14.669
笔	-14.669
􁋲	-14.669
嵍	-14.6691
悳	-14.6691
䱔	-14.6692
夰	-14.6693
􁇌	-14.6693
灂	-14.6694
氍	-14.6694
凾	-14.6695
阤	-14.6695
迍	-14.6696
噱	-14.6696
胉	-14.6696
秷	-14.6696
犈	-14.6697
蕿	-14.6697
稳	-14.6697
胊	-14.6697
拗	-14.6697
䵷	-14.6697
絭	-14.6697
蛒	-14.6698
柂	-14.6698
壃	-14.6699
坏	-14.6699
画	-14.6699
糅	-14.6699
梖	-14.6699
􁀇	-14.67
䈚	-14.6701
􁋻	-14.6701
蒟	-14.6701
楞	-14.6701
媲	-14.6701
黈	-14.6701
鏬	-14.6702
㪯	-14.6702
睅	-14.6702
沆	-14.6702
榷	-14.6702
悥	-14.6702
􁊝	-14.6702
蝙	-14.6703
棁	-14.6703
琦	-14.6703
璪	-14.6703
䳏	-14.6705
櫃	-14.6705
扉	-14.6705
褫	-14.6705
蝠	-14.6705
疀	-14.6706
㵒	-14.6706
椶	-14.6706
莃	-14.6706
礟	-14.6707
聝	-14.6707
戔	-14.6707
塿	-14.6707
磝	-14.6708
䇾	-14.6708
蹵	-14.6708
鏵	-14.6708
椏	-14.6708
喁	-14.6708
甶	-14.6709
㕙	-14.6709
㡭	-14.6709
拌	-14.6709
欄	-14.6709
䣛	-14.6709
顋	-14.6709
棨	-14.6709
崿	-14.671
躪	-14.671
纣	-14.671
欷	-14.671
璨	-14.671
樁	-14.671
瞂	-14.671
㚘	-14.671
犨	-14.6711
绳	-14.6711
􁂆	-14.6711
橭	-14.6711
屍	-14.6712
查	-14.6712
偒	-14.6712
簌	-14.6712
荃	-14.6712
暝	-14.6713
繙	-14.6713
笒	-14.6713
誂	-14.6714
犗	-14.6714
鲋	-14.6714
絚	-14.6714
慽	-14.6714
砢	-14.6714
祏	-14.6714
陴	-14.6715
鄲	-14.6715
枊	-14.6715
䍤	-14.6715
􁂥	-14.6715
庿	-14.6715
泔	-14.6715
済	-14.6715
嘷	-14.6715
琱	-14.6716
胝	-14.6716
䩛	-14.6716
􁄋	-14.6716
恋	-14.6716
􁍵	-14.6716
屰	-14.6717
濠	-14.6717
遬	-14.6717
鳽	-14.6717
𤯝	-14.6717
䧿	-14.6717
腝	-14.6718
蹎	-14.6718
囤	-14.6718
曬	-14.6719
芫	-14.6719
覸	-14.6719
冘	-14.6719
􁅕	-14.6719
姎	-14.6719
綮	-14.672
儛	-14.672
㶏	-14.672
嶄	-14.672
矚	-14.672
抃	-14.6721
濓	-14.6721
卟	-14.6721
霎	-14.6721
煜	-14.6721
篥	-14.6721
沷	-14.6722
瞥	-14.6722
昫	-14.6722
鼱	-14.6723
忭	-14.6723
洓	-14.6723
涚	-14.6724
珎	-14.6724
庋	-14.6724
􁉿	-14.6724
偼	-14.6724
臑	-14.6724
㓝	-14.6724
屝	-14.6724
偎	-14.6724
刦	-14.6725
侫	-14.6725
曚	-14.6725
璀	-14.6725
帽	-14.6726
鶿	-14.6726
䴡	-14.6726
竀	-14.6726
翏	-14.6726
蚆	-14.6727
渣	-14.6727
絻	-14.6727
㻫	-14.6727
樿	-14.6727
㩁	-14.6727
憍	-14.6727
鷁	-14.6728
歂	-14.6728
肁	-14.6728
醃	-14.6728
憭	-14.6728
鞇	-14.6728
嬿	-14.6728
􁊍	-14.6728
罣	-14.6728
褱	-14.6729
賻	-14.6729
佺	-14.6729
􁋡	-14.6729
誃	-14.673
翎	-14.673
刎	-14.673
赐	-14.673
碭	-14.673
亯	-14.673
銓	-14.673
店	-14.6731
攡	-14.6731
樠	-14.6731
瀞	-14.6732
叀	-14.6732
霢	-14.6732
豖	-14.6732
鈃	-14.6732
峒	-14.6733
迁	-14.6733
鰉	-14.6733
肰	-14.6733
扯	-14.6734
鷜	-14.6734
帆	-14.6734
㝱	-14.6734
麮	-14.6734
虍	-14.6735
齯	-14.6735
稈	-14.6735
泦	-14.6735
蠣	-14.6736
􁆮	-14.6736
怏	-14.6736
􁊘	-14.6736
鰿	-14.6737
􁅃	-14.6737
脹	-14.6737
楂	-14.6737
潙	-14.6737
魦	-14.6737
吒	-14.6737
泅	-14.6737
膫	-14.6738
檡	-14.6738
袓	-14.6738
歬	-14.6738
㨐	-14.6738
怞	-14.6738
鑪	-14.6739
峞	-14.6739
疄	-14.6739
𣙜	-14.674
蕈	-14.674
揩	-14.674
讞	-14.674
􁋷	-14.674
偫	-14.674
諽	-14.6741
摋	-14.6741
䔺	-14.6741
苶	-14.6742
㣻	-14.6742
尒	-14.6742
鳵	-14.6742
訦	-14.6743
惮	-14.6743
暏	-14.6743
捎	-14.6744
箬	-14.6744
罼	-14.6745
佋	-14.6746
淝	-14.6747
􁌵	-14.6747
祅	-14.6747
蝉	-14.6749
䚢	-14.6749
冫	-14.6749
攕	-14.675
丼	-14.675
嚔	-14.675
蜠	-14.675
􁃛	-14.6751
窖	-14.6751
瓮	-14.6751
莟	-14.6752
􁉋	-14.6752
贑	-14.6753
腄	-14.6755
㬊	-14.6755
㫋	-14.6755
䘲	-14.6756
潯	-14.6756
轝	-14.6758
嶢	-14.6759
潟	-14.6759
蹋	-14.6759
匜	-14.6761
􁈨	-14.6761
豼	-14.6761
􁆳	-14.6763
汦	-14.6764
虪	-14.6765
𦦨	-14.6765
㭊	-14.6766
􁄞	-14.6767
瓿	-14.6768
􁈤	-14.6768
驉	-14.6768
撡	-14.6773
㷸	-14.6775
禈	-14.678
蘤	-14.678
栯	-14.6785
劚	-14.6788
晬	-14.6793
䶉	-14.9164
㿥	-14.9165
偰	-14.9175
䩨	-14.9178
㬋	-14.9183
㥶	-14.9187
䔖	-14.9189
䀻	-14.919
䴠	-14.9191
䓁	-14.9191
䘁	-14.9197
㔨	-14.9197
㒹	-14.9197
㹟	-14.9197
丅	-14.92
䅵	-14.9208
䠧	-14.9211
剌	-14.9212
亁	-14.9213
㹀	-14.9216
䍽	-14.9216
㞵	-14.9216
䢵	-14.9219
僢	-14.9219
刌	-14.9222
凹	-14.9222
䀣	-14.9222
叐	-14.9222
䩊	-14.9223
䵖	-14.9223
䢅	-14.9224
䳸	-14.9225
偬	-14.9225
㚇	-14.9225
䡈	-14.9226
䨓	-14.9226
䶵	-14.9227
傹	-14.9227
䕵	-14.9227
呥	-14.9229
䃺	-14.923
䬆	-14.9232
体	-14.9232
傋	-14.9232
亙	-14.9233
䦨	-14.9233
倆	-14.9234
䜋	-14.9235
剄	-14.9238
㺯	-14.924
偵	-14.9243
僬	-14.9245
䍐	-14.9246
劘	-14.925
剫	-14.9252
㪷	-14.9252
䝁	-14.9254
䗔	-14.9254
䳨	-14.9257
㐭	-14.9268
㓪	-14.9275
㤅	-14.9276
䡲	-14.9281
㓛	-14.9297
勴	-14.9303
䎒	-14.9304
墢	-14.9305
瘯	-14.9306
澨	-14.9307
噀	-14.9308
鷥	-14.9309
噭	-14.931
鵄	-14.9311
虸	-14.9312
蚄	-14.9313
鈳	-14.9314
䕡	-14.9315
>	-14.9316
=	-14.9317
鸑	-14.9318
荽	-14.9319
薞	-14.932
蛚	-14.9321
茯	-14.9322
㙔	-14.9323
渢	-14.9324
"	-14.9325
獼	-14.9326
丩	-14.9327
墀	-14.9327
