<unk>	0
<s>	0
</s>	0
之	-3.66147
也	-3.85857
而	-4.09439
者	-4.4332
以	-4.52619
則	-4.59288
為	-4.66223
其	-4.70287
不	-4.72049
有	-4.81122
於	-4.95257
是	-4.9951
(	-5.00342
言	-5.04587
)	-5.05726
曰	-5.13599
人	-5.17117
無	-5.34459
矣	-5.36724
此	-5.396
故	-5.46517
與	-5.46956
一	-5.50818
自	-5.61479
然	-5.65037
非	-5.69021
乎	-5.69644
如	-5.70911
亦	-5.73213
謂	-5.78383
○	-5.81614
皆	-5.82445
知	-5.83007
得	-5.86153
事	-5.90258
所	-5.91632
行	-5.91651
在	-5.91971
大	-5.95007
子	-5.9679
道	-5.97109
見	-5.98559
至	-6.05059
心	-6.0526
若	-6.08279
又	-6.08951
上	-6.12933
必	-6.12941
已	-6.13912
能	-6.14427
字	-6.14502
處	-6.17373
正	-6.19535
云	-6.21651
可	-6.21809
所以	-6.21854
當	-6.23347
仁	-6.24517
欲	-6.27143
雖	-6.28027
用	-6.28301
問	-6.28543
中	-6.28568
時	-6.28586
説	-6.29467
下	-6.30753
禮	-6.30776
孟子	-6.32825
焉	-6.33734
反	-6.36205
孔子	-6.36974
民	-6.37272
學	-6.38602
明	-6.39151
意	-6.39446
王	-6.4009
聖人	-6.4043
善	-6.41414
所謂	-6.41799
義	-6.42224
生	-6.43751
而不	-6.44428
使	-6.44801
不可	-6.44892
本	-6.47175
何	-6.47342
耳	-6.47494
乃	-6.47543
即	-6.48331
哉	-6.48589
文	-6.49113
我	-6.50004
樂	-6.51215
爲	-6.51578
天	-6.52454
同	-6.53665
君	-6.5536
以為	-6.58471
猶	-6.59099
三	-6.59542
不能	-6.59607
章	-6.60397
相	-6.60574
作	-6.61387
▁	-6.61707
出	-6.62598
如此	-6.63339
君子	-6.64172
或	-6.65788
夫子	-6.65809
未	-6.66027
從	-6.67986
既	-6.69527
夫	-6.70971
公	-6.71029
名	-6.71111
易	-6.71132
物	-6.71703
先	-6.71756
立	-6.72085
去	-6.72939
後	-6.73616
二	-6.73779
方	-6.73887
國	-6.74947
實	-6.75351
蓋	-6.76327
便	-6.76374
吾	-6.77107
成	-6.77374
之意	-6.77864
敬	-6.77936
理	-6.77954
小	-6.78963
但	-6.80215
惡	-6.80349
說	-6.82825
惟	-6.82961
盡	-6.8312
今	-6.83275
取	-6.84438
世	-6.86073
氣	-6.87391
性	-6.8746
而已	-6.8802
多	-6.88266
者也	-6.8834
及	-6.89272
子曰	-6.89953
求	-6.91075
過	-6.91145
命	-6.9203
天下	-6.92047
來	-6.9293
周	-6.93179
徳	-6.933
食	-6.93715
安	-6.94131
信	-6.94419
論	-6.94605
音	-6.94801
固	-6.94907
齊	-6.95153
要	-6.9595
居	-6.96287
身	-6.97301
難	-6.97396
己	-6.97506
誠	-6.98358
通	-6.98446
四	-7.00442
書	-7.00498
節	-7.00645
分	-7.01404
死	-7.02092
志	-7.02419
因	-7.02553
直	-7.03284
合	-7.03317
只	-7.03664
不知	-7.04349
將	-7.04512
五	-7.04704
聞	-7.05329
常	-7.06236
發	-7.0628
長	-7.07015
好	-7.07226
親	-7.07664
治	-7.07705
思	-7.07916
由	-7.08114
重	-7.08537
利	-7.08976
語	-7.09718
士	-7.10155
盖	-7.10164
外	-7.10346
且	-7.10541
凡	-7.11189
之事	-7.11882
臣	-7.11886
豈	-7.1195
于	-7.12081
聖	-7.12214
力	-7.13065
可以	-7.13684
深	-7.1461
不得	-7.15536
人之	-7.15555
)○	-7.15728
賢	-7.15867
動	-7.16541
指	-7.16723
師	-7.16926
學者	-7.18039
獨	-7.18129
逺	-7.18205
德	-7.18301
他	-7.19501
日	-7.20605
始	-7.20717
復	-7.21318
前	-7.21411
舉	-7.21589
教	-7.21939
主	-7.22605
舜	-7.22854
,	-7.23648
只是	-7.23724
致	-7.24261
就	-7.24662
法	-7.25636
傳	-7.25795
/	-7.26397
地	-7.26748
和	-7.2776
稱	-7.2795
止	-7.28163
諸	-7.28271
甚	-7.28599
入	-7.28826
而後	-7.2935
之心	-7.2936
魯	-7.29467
服	-7.29747
家	-7.29836
近	-7.29952
切	-7.30031
氏	-7.30563
諸侯	-7.30629
註	-7.31765
辭	-7.31802
謂之	-7.31935
體	-7.32485
兩	-7.33101
終	-7.33486
亂	-7.34215
位	-7.34756
彼	-7.35134
其所	-7.35415
疑	-7.35785
至於	-7.35889
之道	-7.3596
又曰	-7.36827
内	-7.36917
了	-7.37502
觀	-7.37884
祭	-7.37988
進	-7.38515
似	-7.38708
極	-7.39605
異	-7.40041
詩	-7.40229
平	-7.40739
父	-7.41058
愛	-7.41188
受	-7.4155
失	-7.42507
經	-7.42708
養	-7.42826
此章	-7.43607
斯	-7.43914
推	-7.44253
數	-7.45477
不同	-7.4552
注	-7.45543
政	-7.45552
宜	-7.46381
之所	-7.4672
大夫	-7.46725
便是	-7.46852
歸	-7.47374
少	-7.4788
視	-7.48432
爾	-7.48779
兼	-7.49057
定	-7.49137
守	-7.49569
去聲	-7.4971
變	-7.49791
足	-7.5013
孟子曰	-7.50344
朝	-7.50626
害	-7.51002
存	-7.51096
制	-7.51156
孝	-7.51168
衆	-7.52466
子路	-7.52994
各	-7.53224
古	-7.53524
水	-7.53566
須	-7.5404
有所	-7.54621
遂	-7.55184
解	-7.55614
言之	-7.55626
中庸	-7.56189
對	-7.56204
故曰	-7.57967
不足	-7.58068
然後	-7.58216
無所	-7.58878
九	-7.59021
尚	-7.59097
加	-7.59159
著	-7.59191
色	-7.5958
全	-7.60305
執	-7.60373
喪	-7.60984
六	-7.61357
才	-7.61672
容	-7.61711
益	-7.62236
亡	-7.62284
葢	-7.62455
達	-7.62853
山	-7.63565
尊	-7.63815
而無	-7.64231
之言	-7.64763
智	-7.65662
年	-7.66262
看	-7.66639
衣	-7.67333
於此	-7.67519
而言	-7.6786
嘗	-7.68186
之間	-7.685
仕	-7.68583
美	-7.68921
之説	-7.69076
髙	-7.69139
順	-7.69327
引	-7.69764
門	-7.69979
陳	-7.70224
憂	-7.70798
小人	-7.70821
莫	-7.72349
起	-7.73292
形	-7.7346
田	-7.73815
到	-7.74206
忠	-7.74455
原	-7.74589
流	-7.74682
私	-7.7507
化	-7.75236
却	-7.75486
徒	-7.75791
精	-7.75964
程子	-7.76196
十	-7.76452
殺	-7.7653
篇	-7.766
應	-7.76678
苟	-7.76811
友	-7.76845
往	-7.76916
勝	-7.76919
情	-7.76974
改	-7.77827
官	-7.77869
勇	-7.78
自然	-7.78151
更	-7.78435
末	-7.78658
窮	-7.78994
老	-7.79246
朱子	-7.79248
告	-7.80102
比	-7.80323
或問	-7.80753
詳	-7.80865
文王	-7.81349
權	-7.81589
子貢	-7.81882
記	-7.82121
疏	-7.82326
東	-7.82503
仁者	-7.82614
伯	-7.82823
之中	-7.83063
次	-7.83888
這	-7.84323
仁義	-7.84387
神	-7.84518
天子	-7.84613
恐	-7.84807
初	-7.84884
質	-7.85113
百	-7.8537
是以	-7.8554
集註	-7.85574
功	-7.85692
貴	-7.85759
月	-7.86192
放	-7.86733
八	-7.87402
等	-7.87445
夏	-7.87697
交	-7.87772
也故	-7.87877
其心	-7.87913
器	-7.8792
微	-7.88105
之時	-7.88348
備	-7.89286
習	-7.89648
任	-7.90013
間	-7.90029
興	-7.90086
務	-7.90671
專	-7.90707
唯	-7.91044
責	-7.91081
厚	-7.91374
察	-7.91665
待	-7.91803
聲	-7.92193
邪	-7.9233
特	-7.92534
不敢	-7.92823
按	-7.92901
令	-7.92959
病	-7.9324
真	-7.93591
天下之	-7.93851
足以	-7.93935
尤	-7.94005
南	-7.94009
朱子曰	-7.94334
度	-7.94413
伐	-7.94537
釋	-7.94604
知其	-7.94708
辨	-7.94997
是也	-7.95157
識	-7.95569
輕	-7.95755
七	-7.95861
必有	-7.96058
宋	-7.96473
馬	-7.96647
何以	-7.96928
萬	-7.97283
予	-7.97425
而已矣	-7.97514
適	-7.97647
做	-7.97687
如何	-7.97909
都	-7.97985
别	-7.98123
之理	-7.98267
疾	-7.98385
以其	-7.98953
廣	-7.992
室	-7.99334
廢	-7.99781
工夫	-8.00169
强	-8.00259
約	-8.00364
勿	-8.00593
施	-8.00652
絶	-8.00708
天理	-8.00765
太	-8.01414
射	-8.01524
天地	-8.0193
楚	-8.02562
愚	-8.02973
可見	-8.03405
類	-8.03494
見其	-8.03616
不必	-8.03861
不及	-8.03882
底	-8.04175
目	-8.04229
屬	-8.04362
程子曰	-8.04465
路	-8.04629
論語	-8.04784
風	-8.04989
聖人之	-8.05485
)(	-8.05787
口	-8.05828
堯舜	-8.05869
不是	-8.06227
讀	-8.06293
的	-8.06322
氏曰	-8.06347
怨	-8.06356
商	-8.06409
最	-8.0665
可謂	-8.06998
無不	-8.07039
湯	-8.07273
考	-8.07502
辟	-8.08108
簡	-8.08426
答	-8.08512
富	-8.08699
木	-8.08727
舍	-8.08803
顔子	-8.08867
請	-8.08926
輔氏曰	-8.09052
虚	-8.09174
周公	-8.09486
首	-8.0964
禄	-8.09892
恥	-8.10442
果	-8.10834
車	-8.10937
據	-8.11331
之義	-8.11339
俱	-8.11483
向	-8.11585
西	-8.12057
知之	-8.12078
盛	-8.12288
勉	-8.12827
修	-8.12866
並	-8.13272
不為	-8.13468
二字	-8.13737
克	-8.13904
謹	-8.14665
偏	-8.1477
餘	-8.14912
量	-8.14925
卒	-8.14957
聽	-8.15065
大學	-8.15195
恕	-8.15437
禮樂	-8.15455
武	-8.15537
春秋	-8.15744
聖賢	-8.15916
序	-8.15939
元	-8.16031
道之	-8.16347
也然	-8.16702
邦	-8.16702
不以	-8.16949
父母	-8.16964
愈	-8.17492
陽	-8.1777
里	-8.18111
句	-8.18325
舊	-8.18375
則是	-8.18376
亦有	-8.18485
否	-8.18575
望	-8.18806
未嘗	-8.18892
象	-8.18993
之功	-8.1902
條	-8.19345
之人	-8.19449
張	-8.19493
衛	-8.19586
弟子	-8.19621
傷	-8.19647
畏	-8.19669
之說	-8.19957
行之	-8.20381
隠	-8.20408
則其	-8.20448
脩	-8.2054
具	-8.20719
感	-8.21024
宗	-8.21028
以下	-8.21657
味	-8.21985
右	-8.2201
離	-8.22512
弗	-8.23006
患	-8.23127
子思	-8.23343
得之	-8.23366
隱	-8.23409
有以	-8.23428
端	-8.2346
邑	-8.23554
人心	-8.23668
依	-8.23975
衰	-8.23983
人也	-8.24113
當時	-8.24267
幾	-8.24411
恭	-8.24614
㑹	-8.25017
不可以	-8.25088
兵	-8.25133
息	-8.25191
禹	-8.25201
遺	-8.25441
卿	-8.25606
堯	-8.25986
白	-8.26209
耶	-8.2642
夷	-8.26519
之類	-8.26689
戒	-8.2712
斷	-8.27285
久	-8.27388
廟	-8.27862
不仁	-8.27899
博	-8.28246
設	-8.283
讓	-8.28323
卷	-8.28398
孟	-8.28572
章句	-8.28572
之謂	-8.29034
萬物	-8.29317
封	-8.29336
素	-8.29416
喻	-8.29471
漢	-8.29529
使之	-8.29705
亦不	-8.29745
開	-8.29811
充	-8.29876
退	-8.29952
勞	-8.30041
。	-8.30061
帝	-8.30109
講	-8.30171
載	-8.30309
暴	-8.30414
助	-8.30474
財	-8.30746
寡	-8.30937
見得	-8.31208
箇	-8.31225
忘	-8.31233
為之	-8.31319
武王	-8.31905
叔	-8.32006
共	-8.32103
扵	-8.32167
擇	-8.32415
承	-8.32699
謀	-8.3299
不過	-8.33113
喜	-8.33144
土	-8.33227
三年	-8.33256
上下	-8.33463
於人	-8.33627
之實	-8.33641
其言	-8.33769
弟	-8.33793
以此	-8.33973
孫	-8.34009
玉	-8.34086
耕	-8.34122
出於	-8.3415
罪	-8.34219
之後	-8.34635
下文	-8.34783
曽子	-8.3483
誤	-8.34971
顯	-8.35378
季氏	-8.35551
持	-8.35969
北	-8.36048
也言	-8.36249
也若	-8.36487
巳	-8.36516
者亦	-8.3653
言其	-8.37177
敢	-8.37344
晉	-8.37426
况	-8.37747
差	-8.37859
手	-8.37893
仲	-8.37905
蔽	-8.38056
此心	-8.3814
熟	-8.3828
費	-8.38646
敎	-8.38783
戰	-8.38826
然則	-8.3885
侯	-8.39095
為仁	-8.39187
道理	-8.393
哀	-8.39532
鄉	-8.39632
逆	-8.39739
千	-8.39994
孰	-8.40049
賜	-8.40071
新	-8.40224
細	-8.40273
俗	-8.40284
矣然	-8.40293
述	-8.40328
虞	-8.40446
皆是	-8.4045
清	-8.40471
為政	-8.4114
薄	-8.41175
也此	-8.4139
保	-8.41458
卑	-8.41489
其身	-8.41507
訓	-8.41524
賦	-8.41701
則不	-8.41706
循	-8.41887
期	-8.42038
女	-8.42305
牛	-8.42424
所以為	-8.42521
不足以	-8.42573
之學	-8.42626
高	-8.42638
隨	-8.42665
兄弟	-8.42959
繼	-8.43179
者皆	-8.43244
賢者	-8.4341
秦	-8.43627
假	-8.43657
篤	-8.43705
勢	-8.43764
未有	-8.43816
殷	-8.43985
此言	-8.4402
金	-8.44157
兄	-8.44242
怒	-8.44396
如是	-8.44431
覺	-8.44512
管仲	-8.44799
史	-8.4501
祖	-8.45385
違	-8.45537
積	-8.45543
之所以	-8.45579
一句	-8.4563
来	-8.45761
不見	-8.46237
懼	-8.4641
得其	-8.46837
不如	-8.47166
未能	-8.47546
為善	-8.47549
不待	-8.47686
冠	-8.4804
許	-8.48101
召	-8.48108
計	-8.48252
賊	-8.48366
格	-8.48422
:「	-8.48429
惑	-8.4853
良	-8.4861
天命	-8.48684
急	-8.48743
率	-8.48747
坐	-8.49262
一事	-8.49521
不善	-8.49531
旣	-8.49712
後世	-8.49928
惠	-8.50077
道也	-8.50172
其事	-8.50372
奪	-8.50712
梁	-8.51309
曾子	-8.51312
慮	-8.51406
姓	-8.51531
造	-8.51548
空	-8.51644
曲	-8.51649
移	-8.51925
剛	-8.51925
河	-8.52028
為人	-8.52039
藏	-8.52044
門人	-8.52184
顧	-8.52247
面	-8.52259
儀	-8.52381
之辭	-8.524
賤	-8.52492
省	-8.52637
念	-8.5268
棄	-8.53003
民之	-8.53365
也云	-8.53384
井	-8.53573
也夫	-8.5369
嚴	-8.53806
之禮	-8.5382
鬼神	-8.54027
子夏	-8.54126
申	-8.54174
危	-8.54487
抑	-8.54525
統	-8.54779
二者	-8.54883
審	-8.55378
忠信	-8.55699
告子	-8.56174
之地	-8.56263
而有	-8.56448
證	-8.56476
二十	-8.56498
則有	-8.56535
職	-8.56587
何也曰	-8.56605
列	-8.56675
而不知	-8.56718
刑	-8.56959
之法	-8.57008
君子之	-8.57065
肉	-8.57317
不然	-8.57474
鄭	-8.57523
徃	-8.57616
總	-8.57644
包	-8.57755
而不能	-8.58227
誠意	-8.58231
周禮	-8.58567
妄	-8.58943
代	-8.59078
之本	-8.59084
竊	-8.59084
新安陳氏曰	-8.59418
至誠	-8.5951
君臣	-8.59826
自有	-8.59939
悦	-8.60073
願	-8.60313
爵	-8.60341
史記	-8.60443
升	-8.60525
遇	-8.60595
澤	-8.6064
使人	-8.60697
失之	-8.60718
那	-8.60731
置	-8.60825
孔	-8.6087
上文	-8.60993
純	-8.61024
雖有	-8.6108
孝弟	-8.61093
昭	-8.61135
逹	-8.61174
再	-8.61555
慎	-8.61587
與之	-8.61691
㣲	-8.61846
避	-8.62146
可也	-8.62247
淺	-8.62258
古之	-8.62332
接	-8.62459
丘	-8.62764
不在	-8.62823
頭	-8.62952
孔子曰	-8.6327
尺	-8.63304
其實	-8.6333
濟	-8.63347
子張	-8.63502
堂	-8.63755
宫	-8.64087
於是	-8.64137
古人	-8.64803
妻	-8.6498
闕	-8.65014
降	-8.65021
散	-8.65272
父子	-8.65449
以禮	-8.65586
舎	-8.65932
天地之	-8.66428
夫子之	-8.66554
附	-8.66566
仲尼	-8.66697
貫	-8.66756
貧	-8.66772
驕	-8.66776
専	-8.66792
歎	-8.6695
有餘	-8.66992
乆	-8.67064
之際	-8.67153
温	-8.67383
富貴	-8.67559
及其	-8.67605
莊	-8.67639
亦是	-8.67739
均	-8.67794
見於	-8.68554
其意	-8.68558
乗	-8.68923
滅	-8.6894
所當	-8.69103
宰	-8.69212
乎曰	-8.69337
徹	-8.69568
迹	-8.69596
遷	-8.69596
未必	-8.69636
救	-8.69757
速	-8.69776
漸	-8.69815
欺	-8.69862
忽	-8.69974
州	-8.70056
母	-8.70158
用之	-8.70593
燕	-8.70639
拜	-8.70657
無以	-8.70683
參	-8.70791
嵗	-8.70941
業	-8.70957
人所	-8.70996
今之	-8.71277
布	-8.71476
黨	-8.71926
歌	-8.72109
伊尹	-8.72234
而又	-8.72267
即是	-8.72292
諫	-8.72308
子之	-8.72395
曉	-8.72454
趨	-8.72467
何如	-8.72528
厲	-8.7255
城	-8.72653
集	-8.72728
覆	-8.72766
根	-8.72815
辱	-8.73079
左	-8.73112
歟	-8.7336
修身	-8.73411
不當	-8.73506
則又	-8.73562
朱	-8.7369
貌	-8.73821
君之	-8.74057
誰	-8.74173
庸	-8.74455
胡氏曰	-8.74469
魏	-8.74486
告之	-8.74562
回	-8.74629
寛	-8.74852
通曰	-8.74857
征	-8.74888
魚	-8.74891
義理	-8.74945
将	-8.75029
好惡	-8.7541
飲	-8.75477
人之所	-8.75623
術	-8.75807
補	-8.76085
事君	-8.76113
靈	-8.76125
雜	-8.76167
故夫子	-8.76329
恩	-8.76334
石	-8.76335
之外	-8.76454
其所以	-8.76532
冕	-8.76666
百姓	-8.76741
者必	-8.76833
介	-8.76865
泰	-8.76919
示	-8.77028
其本	-8.77345
可知	-8.77511
氣質	-8.77536
知者	-8.77541
臨	-8.7755
寸	-8.77564
以爲	-8.77671
性之	-8.77781
人君	-8.77833
上聲	-8.77909
奉	-8.77958
春	-8.7803
誅	-8.78414
語録曰	-8.78425
偽	-8.78605
求之	-8.78989
顔淵	-8.79166
忠恕	-8.79189
朋友	-8.79451
季	-8.79507
不欲	-8.79719
海	-8.79989
則無	-8.80119
觀之	-8.80517
錯	-8.80706
欲其	-8.80712
其君	-8.8078
授	-8.80846
儒	-8.80874
連	-8.81027
賓	-8.81082
強	-8.81158
犯	-8.81201
大人	-8.81245
乘	-8.81392
不忍	-8.81516
典	-8.8171
是非	-8.81734
殊	-8.81742
略	-8.81805
豈不	-8.81932
勸	-8.81991
工	-8.82061
不行	-8.8209
借	-8.82311
而行	-8.82461
仁也	-8.82629
二句	-8.82734
纔	-8.82792
佞	-8.82823
而能	-8.82905
被	-8.83004
飾	-8.8308
市	-8.83185
妙	-8.83584
蔡	-8.83617
矣故	-8.83669
干	-8.83743
忍	-8.83822
以明	-8.83837
報	-8.83837
轉	-8.839
案	-8.84193
紂	-8.84224
爭	-8.84394
還	-8.8441
好學	-8.84441
祀	-8.84488
於外	-8.84573
踐	-8.84701
議	-8.84792
驗	-8.84836
每	-8.8501
藝	-8.85248
皆有	-8.85268
恱	-8.85292
輔	-8.85313
失其	-8.85429
心之	-8.85491
不容	-8.85579
與人	-8.85631
聘	-8.8567
人皆	-8.85733
享	-8.85886
其中	-8.85888
困	-8.86041
一日	-8.86043
遜	-8.86175
天之	-8.86201
至此	-8.86247
屈	-8.86368
而非	-8.86391
取之	-8.86496
此意	-8.8654
又有	-8.86626
不相	-8.86698
衞	-8.86714
曰吾	-8.86876
教人	-8.86919
此是	-8.86997
歴	-8.87014
内外	-8.87118
慕	-8.87174
聚	-8.87178
不言	-8.87386
於心	-8.87413
五十	-8.87554
各有	-8.87662
源	-8.87711
半	-8.87754
火	-8.87778
結	-8.87813
𤼵	-8.88188
古者	-8.88202
者非	-8.88204
也蓋	-8.88283
決	-8.88341
則亦	-8.88467
華	-8.88491
段	-8.88558
光	-8.88706
羣	-8.88708
掌	-8.88717
然而	-8.88752
則必	-8.88778
終身	-8.8887
教之	-8.89097
丁	-8.89258
倍	-8.89329
顔	-8.8938
辯	-8.89403
運	-8.89408
奚	-8.89508
姑	-8.89515
該	-8.89604
二子	-8.89957
縣	-8.9001
氣象	-8.90091
越	-8.90287
齊王	-8.90319
攻	-8.90392
種	-8.90582
如此則	-8.90737
衆人	-8.91256
敗	-8.91327
役	-8.91383
也今	-8.91567
司	-8.91587
御	-8.91684
潔	-8.91732
管	-8.91735
莫不	-8.91751
乎此	-8.91798
討	-8.91967
眀	-8.92189
受之	-8.92305
閒	-8.92398
把	-8.92429
曾	-8.9244
賈	-8.92444
於天下	-8.92494
若是	-8.92626
先生	-8.92657
其理	-8.92964
野	-8.93044
倫	-8.93066
無所不	-8.93177
累	-8.93185
效	-8.93201
機	-8.93295
不正	-8.93307
見之	-8.93371
巧	-8.9347
畧	-8.93518
除	-8.93535
䘮	-8.93552
陵	-8.93583
余	-8.9369
荅	-8.93737
禽獸	-8.93761
學之	-8.93819
畢	-8.94005
不復	-8.94167
固有	-8.94179
絜矩	-8.94278
寧	-8.94331
柔	-8.94428
用力	-8.94535
儉	-8.94543
一節	-8.94689
楊氏	-8.94727
其道	-8.94921
學問	-8.95046
之分	-8.95058
禍	-8.95116
堅	-8.95222
事親	-8.95234
崇	-8.9529
亦非	-8.95315
追	-8.95499
此理	-8.95529
表	-8.95799
三者	-8.95854
淫	-8.959
他人	-8.95932
物之	-8.96046
免	-8.96117
肆	-8.96138
舞	-8.96212
一人	-8.96235
大小	-8.96691
徐	-8.96787
配	-8.96817
或曰	-8.96849
游	-8.97106
粟	-8.97178
其親	-8.9719
也曰	-8.97428
狂	-8.97455
之道也	-8.97676
陳氏曰	-8.97897
輕重	-8.97909
庶	-8.97936
如之何	-8.9817
隂	-8.98317
程	-8.98383
言之則	-8.98459
須是	-8.9846
安得	-8.98525
横	-8.98564
材	-8.98632
語録	-8.98675
謙	-8.98753
先王	-8.98774
威	-8.98774
一章	-8.98834
昔	-8.98894
紀	-8.98897
警	-8.99026
三十	-8.99106
農	-8.99113
獲	-8.9918
致知	-8.99259
愚謂	-8.99309
主於	-8.99394
非禮	-8.99627
而不可	-8.99671
慶源輔氏曰	-8.99679
之事也	-9.00045
舜之	-9.00058
草	-9.0008
譏	-9.00217
毁	-9.00234
私意	-9.00272
四者	-9.00272
號	-9.00522
飲食	-9.00724
善惡	-9.00846
三子	-9.0089
楊	-9.00962
酒	-9.01057
無窮	-9.01063
揚	-9.01162
大抵	-9.01436
曽	-9.015
㸃	-9.01569
一時	-9.01667
徳之	-9.01717
懐	-9.01797
貪	-9.018
鮮	-9.01989
羊	-9.02001
皮	-9.02032
國之	-9.02057
之至	-9.02132
畫	-9.02135
在我	-9.02148
遠	-9.02156
建	-9.02277
在其中	-9.02412
皆以	-9.0253
拘	-9.02573
郊	-9.02604
此則	-9.02658
何也	-9.02847
力行	-9.02857
其志	-9.0303
恒	-9.03065
先後	-9.03199
其為	-9.03224
收	-9.03353
亦可	-9.03384
后	-9.03646
損	-9.03767
聞之	-9.03801
雍	-9.03832
育	-9.04013
悟	-9.04057
之名	-9.04507
於我	-9.04575
之徳	-9.04666
較	-9.04729
桀	-9.04822
音義	-9.04929
焉則	-9.05073
孟子言	-9.05132
譬	-9.05135
不明	-9.05226
四十	-9.05311
夫人	-9.05375
左傳	-9.05395
不用	-9.05604
之士	-9.05608
優	-9.05717
自是	-9.05788
故云	-9.05867
操	-9.05908
而自	-9.05918
相似	-9.05944
不失	-9.05966
四書	-9.05972
新民	-9.05983
黄	-9.0604
所言	-9.06054
唐	-9.06176
祿	-9.06184
第	-9.06197
豈有	-9.06381
玩	-9.06461
苦	-9.065
矣此	-9.06536
淵	-9.06559
非謂	-9.06699
資	-9.06775
殆	-9.06835
。」	-9.06986
無道	-9.07003
葬	-9.07073
滕	-9.07083
對曰	-9.07109
照	-9.07114
密	-9.07127
塞	-9.07306
在於	-9.07358
因其	-9.07477
禘	-9.07815
有此	-9.0782
全體	-9.07901
者言	-9.07975
留	-9.07987
孔子之	-9.08209
不可不	-9.0823
破	-9.08232
關	-9.08269
之大	-9.08296
縱	-9.0837
泛	-9.08406
弱	-9.08499
㫖	-9.08602
獻	-9.08619
誦	-9.08758
譽	-9.08764
矜	-9.08882
背	-9.09161
孤	-9.09455
文武	-9.09532
道者	-9.09559
慈	-9.09641
一言	-9.0976
有天下	-9.09921
甲	-9.09938
事之	-9.09955
不肯	-9.10041
桓公	-9.10044
推之	-9.10085
文公	-9.10161
汝	-9.10272
今日	-9.10308
七十	-9.1039
伯夷	-9.10422
翼註曰	-9.10446
則非	-9.10555
履	-9.10568
公孫丑	-9.10596
況	-9.10605
戚	-9.10991
也如	-9.11005
靜	-9.11015
慢	-9.11109
人倫	-9.11149
所欲	-9.11303
寒	-9.11306
禁	-9.11334
格物	-9.11381
趙	-9.11403
事物	-9.1152
下同	-9.11852
尹曰	-9.1197
仰	-9.12075
禮義	-9.12098
窮理	-9.12118
1	-9.12284
以求	-9.12394
之極	-9.1253
也孟子曰	-9.12591
觀其	-9.12723
亦無	-9.12743
静	-9.12779
天道	-9.12804
者其	-9.12856
之體	-9.12885
雨	-9.13286
使民	-9.13289
蒙引	-9.13303
詩云	-9.13312
自家	-9.13357
負	-9.13413
己之	-9.13459
於己	-9.13584
霸	-9.13586
以道	-9.13598
先生曰	-9.13649
敵	-9.13789
韓	-9.13821
昏	-9.13836
一箇	-9.13837
故以	-9.13885
發明	-9.13951
秋	-9.14118
也孟子	-9.14124
之徒	-9.14145
正心	-9.14209
悔	-9.14355
未嘗不	-9.1443
盡其	-9.14516
畜	-9.14522
飯	-9.14609
踰	-9.14763
鄙	-9.14785
以自	-9.14889
吕	-9.14955
宿	-9.15035
百里	-9.1519
階	-9.15197
本末	-9.15249
之志	-9.15359
分明	-9.15401
寢	-9.15478
圖	-9.15577
賔	-9.15582
於民	-9.15588
究	-9.15691
不至	-9.15896
人者	-9.15992
衡	-9.16001
提	-9.16006
有道	-9.16091
至善	-9.16131
説得	-9.16141
人欲	-9.16184
也盖	-9.1621
未發	-9.16221
盈	-9.16326
李	-9.16407
龍	-9.16481
索	-9.16544
虛	-9.16571
平聲	-9.16603
言語	-9.16611
胡	-9.16611
善人	-9.16615
遊	-9.16704
懷	-9.16863
問曰	-9.16869
脩身	-9.17074
之謂也	-9.17086
掩	-9.17165
襲	-9.17308
溺	-9.17325
為一	-9.17351
一物	-9.17365
逐	-9.17398
并	-9.17405
為主	-9.17429
正是	-9.17596
飢	-9.17693
景	-9.17831
采	-9.1785
萌	-9.17882
想	-9.17964
幽	-9.1798
不若	-9.17998
故其	-9.18072
社	-9.18087
敏	-9.18092
取其	-9.18142
日月	-9.18206
融	-9.18287
盡心	-9.18383
也君子	-9.18388
仁之	-9.18449
親親	-9.1849
有所不	-9.18686
王者	-9.18689
角	-9.18836
消	-9.18965
之性	-9.18978
未見	-9.18992
凶	-9.19136
赤	-9.19175
仲子	-9.19211
從之	-9.19248
為己	-9.193
君子之道	-9.1938
鼓	-9.19395
悖	-9.19536
眞	-9.19657
帶	-9.19752
學而	-9.19843
茍	-9.19873
註云	-9.19914
倚	-9.20087
例	-9.20138
尹氏曰	-9.20289
有司	-9.20333
無非	-9.20352
不與	-9.20391
於天	-9.20433
四方	-9.20846
則為	-9.20908
乾	-9.21007
烏	-9.21044
逸	-9.2105
限	-9.21147
猶有	-9.21269
平日	-9.21335
會	-9.21501
短	-9.21666
笑	-9.21736
滿	-9.21964
幸	-9.22034
意思	-9.22246
止於	-9.22258
之失	-9.22305
理之	-9.2248
未可	-9.22486
義也	-9.22556
境	-9.22592
豫	-9.22604
䟽	-9.22652
冬	-9.22775
存心	-9.22808
王道	-9.22814
闗	-9.23073
故不	-9.2308
截	-9.23182
本文	-9.23357
防	-9.23362
委	-9.23396
者是	-9.23428
人情	-9.23501
招	-9.23574
.	-9.23609
當然	-9.23615
中和	-9.23622
則民	-9.23623
個	-9.2363
以仁	-9.23655
者又	-9.23666
未盡	-9.23764
左右	-9.23807
裘	-9.24106
之過	-9.24186
枉	-9.24264
有不	-9.24275
可使	-9.24405
夫音扶	-9.24536
禮也	-9.2458
也子曰	-9.24619
則知	-9.24693
折	-9.2485
至矣	-9.24919
粗	-9.24999
羽	-9.25008
致其	-9.2504
楊氏曰	-9.25079
是亦	-9.25082
冉有	-9.25113
綱	-9.25257
裏	-9.25316
尋	-9.25445
又何	-9.25635
僭	-9.25796
然其	-9.25807
毋	-9.25978
也故曰	-9.26013
文王之	-9.26108
吏	-9.26122
决	-9.26234
極其	-9.26354
之政	-9.26381
吳	-9.26395
仲弓	-9.26455
繫	-9.26574
迎	-9.26593
大全	-9.26625
形容	-9.26654
客	-9.26682
遽	-9.26696
可知矣	-9.26707
而得	-9.26716
本心	-9.26756
是故	-9.26837
禦	-9.26905
以至	-9.26992
之罪	-9.27151
在外	-9.27159
未知	-9.27344
得失	-9.27362
若夫	-9.2747
者蓋	-9.27665
毛	-9.27699
虎	-9.27788
性善	-9.27879
世之	-9.27887
俟	-9.28054
擯	-9.28104
鳥	-9.28105
裳	-9.2812
必先	-9.28365
竭	-9.28436
夫婦	-9.28589
稍	-9.28735
之妙	-9.28744
天理之	-9.28763
者謂	-9.28841
减	-9.28876
仁義禮智	-9.28911
所能	-9.28915
戾	-9.28922
勤	-9.28927
不合	-9.2894
饒氏曰	-9.28981
詞	-9.29047
齋	-9.29373
撰	-9.29382
雖不	-9.29427
惰	-9.29563
一貫	-9.29578
流行	-9.29595
互	-9.29725
畝	-9.29841
在此	-9.29862
愧	-9.30036
毎	-9.30056
謝氏	-9.30077
而言之	-9.30116
惜	-9.30201
故孔子	-9.30236
王之	-9.30273
其餘	-9.30293
怪	-9.30332
不息	-9.30424
不義	-9.30486
以見	-9.30531
故也	-9.30533
試	-9.30626
徴	-9.30641
三百	-9.30665
詐	-9.30679
則可	-9.30685
之善	-9.30885
矢	-9.31153
雅	-9.31269
啓	-9.31454
孟子之	-9.31466
哀公	-9.31502
登	-9.31525
矣夫	-9.31657
豈可	-9.31761
故孟子	-9.31776
不厭	-9.31823
休	-9.31843
異於	-9.31928
私欲	-9.3193
弊	-9.31947
無可	-9.31999
聖人之道	-9.32045
皇	-9.32175
國家	-9.32203
一般	-9.32213
江	-9.32264
侍	-9.32303
律	-9.32324
歸之	-9.32376
子産	-9.3238
帥	-9.32435
席	-9.32568
厭	-9.32637
革	-9.32638
;	-9.32741
曰此	-9.32748
樹	-9.32786
否曰	-9.32807
天子之	-9.32824
之私	-9.32874
不信	-9.32971
側	-9.32977
宻	-9.33127
之序	-9.33193
露	-9.33313
異端	-9.33338
不受	-9.33389
族	-9.33396
如何曰	-9.33423
宗廟	-9.33491
惡之	-9.33546
貢	-9.3359
鄒	-9.33603
託	-9.33967
穀	-9.34007
軍	-9.3413
拒	-9.34178
體用	-9.34211
尊賢	-9.34243
也又	-9.3429
也注	-9.343
旅	-9.34409
孟子之言	-9.34433
在人	-9.34454
愛人	-9.34509
夫子之言	-9.34632
與平聲	-9.34669
如字	-9.34683
其性	-9.34713
㡬	-9.34787
張子	-9.34823
星	-9.34893
貧賤	-9.34956
不違	-9.34998
貨	-9.35105
明徳	-9.35118
痛	-9.35251
謬	-9.35264
悅	-9.35265
范氏	-9.354
莫非	-9.35455
罔	-9.35477
第二	-9.3548
不食	-9.35531
奔	-9.35579
所行	-9.3566
有過	-9.35699
吉	-9.35833
陸	-9.35837
者有	-9.35937
萬世	-9.35957
沒	-9.35995
性也	-9.36017
者乎	-9.36246
一也	-9.3625
係	-9.363
圭	-9.36309
故君子	-9.36403
齊人	-9.36429
塗	-9.3651
認	-9.3667
何為	-9.36757
政事	-9.3676
以告	-9.36986
不忘	-9.3702
若不	-9.37052
汙	-9.37054
范	-9.37082
使其	-9.37112
言者	-9.37176
冝	-9.37182
旁	-9.37228
血氣	-9.37263
此亦	-9.37291
者以其	-9.37326
納	-9.37345
是就	-9.37369
反覆	-9.3737
品	-9.37375
重在	-9.37482
先王之	-9.37496
陶	-9.37721
必以	-9.37747
惟其	-9.37804
於中	-9.37824
又以	-9.37844
故謂之	-9.37877
劉	-9.37918
欽定四庫全書	-9.38017
吝	-9.3802
怠	-9.38034
尸	-9.38056
之甚	-9.38059
丗	-9.38078
事而	-9.3808
仁則	-9.38116
楊曰	-9.38306
之論	-9.38333
臺	-9.38408
註孔安國曰	-9.38531
則雖	-9.38547
揖	-9.38563
命也	-9.38652
之所在	-9.38782
禮之	-9.38815
㸔	-9.38894
之制	-9.3891
耳目	-9.38941
尹	-9.39009
知也	-9.39149
社稷	-9.39293
云云	-9.39316
先儒	-9.39474
所為	-9.39524
康	-9.3961
此所以	-9.39631
則曰	-9.39683
今人	-9.39754
理㑹	-9.39799
卿大夫	-9.39811
日用	-9.39847
不知其	-9.39877
乃是	-9.39911
宰我	-9.39927
𢎞	-9.39998
而反	-9.4023
鬼	-9.40236
不求	-9.4034
聴	-9.40464
其義	-9.40554
歸於	-9.40562
不盡	-9.40581
不勝	-9.40642
人物	-9.40685
元按	-9.4071
隂陽	-9.40723
攝	-9.40856
仁人	-9.40939
偶	-9.41036
六十	-9.41175
注孔曰	-9.4121
之可	-9.41288
去之	-9.41377
此説	-9.41384
此所謂	-9.41578
林	-9.41597
子貢曰	-9.4171
未免	-9.41759
者乃	-9.4184
府	-9.41889
甘	-9.41925
裁	-9.41934
不從	-9.42012
題	-9.42047
户	-9.42117
只在	-9.4212
恁地	-9.42129
輿	-9.42165
也然則	-9.42355
有二	-9.42388
蒙	-9.4241
分别	-9.42437
導	-9.42481
其説	-9.42505
四字	-9.42513
也又曰	-9.42539
一身	-9.42601
欲以	-9.42691
何謂	-9.42744
莫之	-9.42757
樊遲	-9.42758
僅	-9.42812
此節	-9.42864
為本	-9.42908
求諸	-9.42941
行道	-9.4299
毅	-9.42998
悉	-9.43034
萬章	-9.43035
縁	-9.43191
上章	-9.43269
子游	-9.43326
這箇	-9.43352
着	-9.43355
非有	-9.43393
渾然	-9.43538
徇	-9.43579
呼	-9.43579
未至	-9.43674
祭祀	-9.43708
不止	-9.43715
禀	-9.43797
賢人	-9.43929
其位	-9.44052
闢	-9.44113
楊墨	-9.44137
利害	-9.44168
此皆	-9.44205
様	-9.44275
可見矣	-9.44328
斂	-9.44334
此又	-9.44478
走	-9.4449
黙	-9.44501
殺之	-9.44668
羞	-9.44726
由是	-9.44741
件	-9.44812
出入	-9.44822
之屬	-9.44861
匡	-9.44912
於其	-9.44987
尹氏	-9.44989
自得	-9.4502
穆	-9.45035
古今	-9.45078
庶人	-9.45153
不成	-9.45165
逃	-9.45216
父兄	-9.45273
子孫	-9.45377
刻	-9.45383
牆	-9.4541
則當	-9.45487
許多	-9.45574
以上	-9.45598
其間	-9.45706
測	-9.45791
誘	-9.45989
潤	-9.45996
於仁	-9.46069
而民	-9.46091
周之	-9.46125
求其	-9.46177
也疏	-9.46233
何所	-9.46267
善而	-9.46274
發見	-9.46288
文子	-9.46333
宣	-9.46378
其民	-9.46397
草木	-9.46421
其徳	-9.46492
之語	-9.46578
有三	-9.46728
人有	-9.46777
與其	-9.46803
完	-9.46876
而立	-9.46928
道而	-9.46944
知言	-9.46987
治天下	-9.4703
三月	-9.47053
畔	-9.47138
入於	-9.47155
文章	-9.47233
竟	-9.47276
守之	-9.47284
恭敬	-9.47385
大國	-9.47429
相反	-9.47442
齒	-9.47477
泰伯	-9.47478
迫	-9.47484
公子	-9.475
襄	-9.47516
存疑	-9.47529
者此	-9.47535
聖賢之	-9.47536
以成	-9.47593
小學	-9.47608
諒	-9.47625
援	-9.47635
之正	-9.47671
韶	-9.47672
遲	-9.47694
便有	-9.47846
之意也	-9.47846
振	-9.48081
首章	-9.48114
誨	-9.482
前後	-9.48228
所得	-9.48238
玄	-9.48349
四海	-9.4839
而言也	-9.484
之美	-9.48529
在上	-9.48639
仍	-9.48822
三代	-9.48957
一理	-9.48986
不易	-9.48991
自欺	-9.49016
之國	-9.49048
則可以	-9.49198
肅	-9.4922
治國	-9.49226
名也	-9.49252
弔	-9.49277
集義	-9.49383
禮記	-9.4942
呉	-9.49436
激	-9.49443
然亦	-9.49507
得以	-9.49526
可以為	-9.49566
貼	-9.49578
垂	-9.49614
禽	-9.49614
彊	-9.49632
進退	-9.4965
堯舜之道	-9.49661
雙峯饒氏曰	-9.49701
榮	-9.49797
甚矣	-9.49838
何哉	-9.49853
下學	-9.4987
其人	-9.49955
昧	-9.49965
争	-9.50004
没	-9.50006
節文	-9.50038
之臣	-9.5005
大徳	-9.50333
飽	-9.50375
千里	-9.50409
又言	-9.50474
活	-9.50541
不去	-9.50693
方是	-9.50736
嘆	-9.50763
薦	-9.50811
夜	-9.50845
存焉	-9.50908
科	-9.50988
謝曰	-9.51021
書曰	-9.51024
恐其	-9.51038
福	-9.51154
之篇	-9.5125
子曰君子	-9.51387
之内	-9.51408
亦不可	-9.51539
樂之	-9.51553
彌	-9.51589
於身	-9.51716
范氏曰	-9.51975
行事	-9.5208
也孔子	-9.52141
舒	-9.52201
不得其	-9.52273
廣大	-9.52302
烈	-9.52343
不動心	-9.52665
其可	-9.52703
束	-9.52783
已矣	-9.52807
上説	-9.52852
范曰	-9.53086
治人	-9.5314
沈	-9.53192
物欲	-9.53397
榖	-9.53487
知人	-9.53507
?」	-9.53602
豐	-9.53607
十二	-9.53645
羿	-9.53693
憲	-9.53718
其國	-9.53743
聖人之心	-9.53758
君子小人	-9.53762
衍	-9.5377
事也	-9.53809
不出	-9.53848
亦未	-9.53873
湯武	-9.53989
歲	-9.54025
之問	-9.54082
古之人	-9.54125
贊	-9.54168
雲峯胡氏曰	-9.54274
祥	-9.54389
戎	-9.54451
慊	-9.54463
滯	-9.54574
以義	-9.54693
不可以不	-9.54785
含	-9.54973
荒	-9.54991
之所為	-9.55024
云云者	-9.55038
能知	-9.55075
續	-9.5508
養之	-9.55097
不思	-9.55146
緩	-9.55206
子弟	-9.55292
可與	-9.55324
貞	-9.55404
牧	-9.55456
道則	-9.55501
為大	-9.55519
洪	-9.55573
其次	-9.55576
言行	-9.55641
鄉黨	-9.55644
者矣	-9.55711
或有	-9.55823
好善	-9.55841
以天下	-9.55886
丑	-9.55888
不免	-9.55948
三句	-9.56003
以正	-9.56006
未得	-9.56028
昔者	-9.56051
而行之	-9.56051
誓	-9.56058
躬	-9.56123
之難	-9.56173
之情	-9.56273
而為之	-9.56295
於齊	-9.56296
屋	-9.56456
所惡	-9.56495
送	-9.56495
善者	-9.56555
為君	-9.56589
生於	-9.56618
戰國	-9.56729
人能	-9.56828
大本	-9.56835
理而	-9.57035
不動	-9.57046
暇	-9.57051
却是	-9.57059
瞽瞍	-9.5711
變化	-9.57127
希	-9.57258
叚	-9.57307
受命	-9.57312
落	-9.57492
禱	-9.57584
朔	-9.57604
以行	-9.57661
上達	-9.57747
郷	-9.57759
殺人	-9.57906
曰然則	-9.57906
恃	-9.57928
在其中矣	-9.5799
之君	-9.58108
四時	-9.58278
擊	-9.58333
輒	-9.58338
此之謂	-9.58341
博學	-9.58353
性情	-9.58369
有功	-9.58386
父母之	-9.5848
浮	-9.58574
繹	-9.58583
土地	-9.58595
又云	-9.58688
以致	-9.58725
若此	-9.58747
愠	-9.58747
行者	-9.58779
吾之	-9.58793
胡氏	-9.5887
法度	-9.58927
而欲	-9.58943
水之	-9.59114
不離	-9.59148
而未	-9.59209
雖然	-9.59211
者正	-9.59227
理也	-9.59338
以至於	-9.59399
奢	-9.59446
屏	-9.59474
傳之	-9.59503
咸	-9.59581
故能	-9.59613
此語	-9.59631
混	-9.59646
某	-9.59652
者盖	-9.59695
之不可	-9.59703
然後可以	-9.59727
邇	-9.59808
宣王	-9.59808
中節	-9.59897
不能無	-9.599
語錄曰	-9.59923
聖門	-9.59943
何必	-9.6
稷	-9.60013
惟恐	-9.6008
狹	-9.60105
妻子	-9.60253
之用	-9.60256
欲使	-9.60286
是心	-9.60291
諡	-9.60293
曰君子	-9.60369
於理	-9.60398
以事	-9.60442
忿	-9.60485
人道	-9.60487
隅	-9.6049
契	-9.60512
慎獨	-9.60523
步	-9.60529
憤	-9.60544
南軒張氏曰	-9.6063
亦曰	-9.60637
莊子	-9.60678
害於	-9.60705
養氣	-9.60728
告之以	-9.60735
豈非	-9.60738
亷	-9.60765
在内	-9.60845
無一	-9.60858
誠者	-9.61001
於義	-9.61313
水火	-9.61316
吕氏	-9.61476
之病	-9.61508
矯	-9.61538
次第	-9.61542
雙峰	-9.61555
哭	-9.61582
之氣	-9.61605
太王	-9.61612
不已	-9.61799
距	-9.61802
諌	-9.61823
可得而	-9.61825
幣	-9.61829
歩	-9.61839
校	-9.61847
克己	-9.6192
之㫖	-9.62061
渾	-9.62078
人皆有	-9.6212
固是	-9.62166
謂其	-9.62305
損益	-9.62315
川	-9.62346
亦何	-9.62363
宅	-9.62426
殘	-9.62481
正義曰	-9.6249
泄	-9.62496
稽	-9.62579
侵	-9.62684
析	-9.62686
相近	-9.62689
此章言	-9.62707
德之	-9.62741
奥	-9.62892
中國	-9.62941
稟	-9.63024
而復	-9.63037
以徳	-9.63094
不得已	-9.63122
驅	-9.6313
能盡	-9.63275
語意	-9.63287
桓	-9.6333
盜	-9.63333
缺	-9.63347
地位	-9.63355
臧	-9.63371
周公之	-9.63489
而成	-9.63548
兮	-9.63614
藉	-9.63633
雖欲	-9.63685
始終	-9.63761
措	-9.63765
之樂	-9.63824
不敬	-9.63826
非其	-9.63899
考之	-9.63991
泥	-9.64008
行也	-9.64009
泉	-9.64061
集曰	-9.64086
庶幾	-9.64087
其後	-9.64104
小者	-9.64188
伸	-9.64224
戒懼	-9.64364
永	-9.6444
徧	-9.64509
無有	-9.64553
𤣥	-9.64566
不察	-9.64636
定公	-9.64663
良心	-9.64682
者故	-9.64811
則不可	-9.64868
之説曰	-9.64923
帛	-9.64975
歳	-9.64989
為臣	-9.65003
言則	-9.65041
也但	-9.65061
司馬	-9.65076
三家	-9.65122
者何	-9.65148
有一	-9.65209
孔子之言	-9.65231
齊宣王	-9.65278
所見	-9.65335
鄰	-9.65409
治之	-9.65425
表裏	-9.65439
未及	-9.65441
世子	-9.65541
朝廷	-9.65647
他日	-9.65673
厯	-9.65836
之盛	-9.65837
心之所	-9.65879
自謂	-9.65903
於上	-9.65906
葛	-9.65906
成功	-9.65987
施於	-9.66047
而實	-9.6606
此等	-9.66073
雲	-9.66082
而知	-9.66133
前章	-9.6616
伊川	-9.66266
於君	-9.66278
辰	-9.66282
陋	-9.66304
諂	-9.6631
冉求	-9.66339
卓	-9.6651
鄉原	-9.66526
一段	-9.66667
學也	-9.66685
幼	-9.66705
圍	-9.66725
蹈	-9.66776
不怨	-9.66785
無異	-9.66792
為學	-9.66804
都是	-9.66827
其辭	-9.6687
以及	-9.66929
在下	-9.6696
晝	-9.67014
謝	-9.67014
樂正子	-9.67055
由此	-9.67215
愼	-9.67218
死者	-9.67283
娶	-9.6729
實理	-9.67398
性命	-9.67415
此句	-9.67455
徑	-9.67521
不通	-9.67609
領	-9.67641
無他	-9.67656
維	-9.6769
而可	-9.67837
之異	-9.67906
死生	-9.67941
給	-9.67951
挾	-9.6796
堯之	-9.68014
而遂	-9.68146
於孔子	-9.6828
譬如	-9.68319
猶言	-9.68349
而求	-9.684
可為	-9.68401
進於	-9.68428
聖人之言	-9.68446
墨	-9.68537
用心	-9.68577
戴	-9.68628
耻	-9.68629
囿	-9.68659
盡性	-9.68717
不可得	-9.68738
其功	-9.68749
十五	-9.68824
凡人	-9.68942
訟	-9.68954
五者	-9.68959
倦	-9.69101
齊家	-9.69179
知天	-9.69313
不孝	-9.69425
之子	-9.69445
不惑	-9.69556
亟	-9.69561
稅	-9.69615
疆	-9.69662
注云	-9.69702
弓	-9.69803
兩句	-9.69848
曹	-9.6985
廉	-9.69853
之始	-9.6996
二章	-9.69986
成徳	-9.69986
讀書	-9.70022
之端	-9.70061
之要	-9.70065
不安	-9.70155
秉	-9.70243
王曰	-9.70254
盟	-9.70257
問於	-9.70301
竹	-9.70315
能行	-9.7032
嗜	-9.70362
快	-9.70371
髙明	-9.70398
無一毫	-9.70401
其能	-9.70412
其大	-9.70429
省察	-9.70457
亦然	-9.7049
庭	-9.70493
乎哉	-9.7071
則能	-9.7075
媚	-9.70786
皆非	-9.70834
又問	-9.70873
公田	-9.70885
本無	-9.70913
明矣	-9.70987
之行	-9.70996
斗	-9.70997
之至也	-9.7107
不由	-9.71118
不可得而	-9.71138
寡人	-9.71138
自反	-9.71199
做得	-9.71224
甫	-9.71275
士之	-9.71295
不自	-9.71336
亦可以	-9.71358
太子	-9.71456
餒	-9.71494
不仁者	-9.71567
為先	-9.71582
而死	-9.71654
暗	-9.71725
也惟	-9.71745
豆	-9.71749
明堂	-9.71789
義之	-9.71796
煩	-9.71978
一條	-9.71986
興起	-9.72025
日新	-9.72189
近於	-9.72222
牲	-9.72282
人事	-9.72356
成物	-9.72439
知止	-9.72441
先王之道	-9.72491
徵	-9.72493
格物致知	-9.72568
蕩	-9.72699
之弊	-9.72757
恤	-9.72767
一家	-9.72838
張彦陵曰	-9.72882
不誠	-9.72913
預	-9.72929
嘉	-9.72946
好色	-9.73074
耳若	-9.73077
人之心	-9.73101
威儀	-9.73102
百官	-9.73181
不識	-9.73207
曰子	-9.73222
之貌	-9.73267
敢問	-9.73271
天下國家	-9.73345
三字	-9.73383
倒	-9.73408
不肖	-9.73458
獸	-9.73466
昬	-9.73529
所由	-9.73637
疎	-9.73713
狀	-9.73719
飬	-9.7372
智者	-9.73743
鑿	-9.73748
矣又	-9.73776
責之	-9.73778
血	-9.73781
云爾	-9.73797
氣之	-9.73896
堯舜之	-9.74008
兩端	-9.7402
馳	-9.74218
奏	-9.74245
居之	-9.74359
知所	-9.74443
謹獨	-9.74617
見孟子	-9.74652
税	-9.74683
此一章書是	-9.74723
小人之	-9.74767
之位	-9.74784
嗚呼	-9.74933
敖	-9.74955
不幸	-9.74969
之使	-9.74969
毫	-9.75016
稱之	-9.75028
恵	-9.75037
過於	-9.75075
扶	-9.75135
大王	-9.75197
賛	-9.75201
一國	-9.75277
下章	-9.75293
式	-9.75317
稱其	-9.75354
體之	-9.75402
者固	-9.75404
饑	-9.75417
餓	-9.7546
磨	-9.75465
出來	-9.75538
小國	-9.75548
則不能	-9.75573
濫	-9.75721
而天下	-9.75801
之效	-9.75807
鄉人	-9.75867
時中	-9.75954
岐	-9.75972
崩	-9.7598
知覺	-9.75988
不改	-9.75997
不顧	-9.75999
黄氏曰	-9.76036
為我	-9.76103
明白	-9.76111
故有	-9.76164
自明	-9.76218
規矩	-9.76221
詩書	-9.76234
不逺	-9.76277
行而	-9.7638
誣	-9.76443
傾	-9.76457
膚	-9.76503
不至於	-9.76568
禹稷	-9.76576
論之	-9.76596
忌	-9.76682
二人	-9.76687
孝子	-9.7671
夢	-9.76733
班	-9.76753
是説	-9.7682
由也	-9.76879
佩	-9.76926
諸侯之	-9.76928
輩	-9.76936
觸	-9.76979
揜	-9.77018
此一節	-9.77117
也夫子	-9.77129
亦必	-9.7719
王制	-9.77193
夷狄	-9.77222
鳴	-9.77255
孰能	-9.77397
以來	-9.77474
單	-9.77524
所知	-9.77534
性者	-9.77619
顔子之	-9.77627
不得不	-9.77642
其才	-9.77665
正義曰此章言	-9.77715
肯	-9.7783
是時	-9.77863
之詩	-9.77887
四端	-9.77916
之所以為	-9.77936
季孫	-9.78037
君命	-9.78172
不失其	-9.78174
視之	-9.78192
知行	-9.78316
之大者	-9.78328
觀之則	-9.78351
從而	-9.78465
為不善	-9.78483
惡惡	-9.78509
家語	-9.7852
刺	-9.78597
從容	-9.78627
七年	-9.78637
此篇	-9.78642
知禮	-9.78657
當以	-9.78721
邊	-9.78727
確	-9.78754
閉	-9.78805
己者	-9.78836
無事	-9.78864
不聞	-9.78888
環	-9.78928
旦	-9.78951
為國	-9.78953
貫通	-9.78983
孔安國曰	-9.78986
於世	-9.78999
屢	-9.79027
寄	-9.79043
獄	-9.79058
骨	-9.79071
貎	-9.79095
者也故	-9.79121
我之	-9.79139
十六	-9.79202
信之	-9.79214
郭	-9.79311
盤	-9.79335
二節	-9.79337
一念	-9.79386
不但	-9.79393
魯之	-9.79404
貴賤	-9.79446
有徳	-9.79448
本意	-9.79449
以示	-9.79479
無適	-9.79481
人心之	-9.79582
籍	-9.79589
制度	-9.7959
小大	-9.79595
即此	-9.797
之才	-9.79783
而言則	-9.79784
知此	-9.79809
婦	-9.79823
潛	-9.79851
帝王	-9.79877
其子	-9.79914
則心	-9.79951
桑	-9.80085
杞	-9.80086
編	-9.80102
終始	-9.80107
寓	-9.80119
長者	-9.80129
合於	-9.80137
淺深	-9.80158
其行	-9.80325
䖏	-9.80329
僕	-9.80393
非是	-9.80428
之初	-9.80453
家臣	-9.80481
恐懼	-9.80527
公孫	-9.8055
不好	-9.80576
一體	-9.80582
些	-9.80637
成人	-9.80645
險	-9.80667
久矣	-9.80677
南軒曰	-9.80681
是理	-9.80722
莫能	-9.80777
精粗	-9.80777
大臣	-9.80802
在我者	-9.80863
天下之人	-9.80943
奈何	-9.80968
鐘	-9.80994
顔色	-9.81004
相去	-9.81013
終日	-9.81063
之下	-9.81089
事理	-9.81112
叛	-9.81133
生之	-9.81173
而止	-9.81179
栁	-9.81202
頌	-9.81205
猶未	-9.81218
之前	-9.81232
百畝	-9.81273
趙氏曰	-9.81343
界	-9.81374
厥	-9.81408
閑	-9.81421
太公	-9.81423
項	-9.81476
之教	-9.81509
誠身	-9.81543
逺矣	-9.81552
大道	-9.81557
養其	-9.81617
曰我	-9.81634
歛	-9.81646
孟子所謂	-9.81692
基	-9.81699
緊	-9.817
所及	-9.817
壞	-9.81705
大意	-9.81796
亦以	-9.81822
國人	-9.81879
第一	-9.81916
物而	-9.81923
此乃	-9.81938
傅	-9.8197
羙	-9.81995
耳非	-9.81998
於物	-9.81998
趣	-9.82013
苗	-9.82038
觚	-9.82169
隆	-9.82232
餽	-9.82254
但以	-9.82473
鍾	-9.82529
緒	-9.82557
字是	-9.82601
寳	-9.82613
齊之	-9.82623
用也	-9.82642
好仁	-9.82657
事事	-9.8266
三王	-9.82688
之勇	-9.82711
而進	-9.82768
窺	-9.82777
畆	-9.82809
厚薄	-9.82921
未有不	-9.82946
皆可	-9.83085
𤼵明	-9.83207
此處	-9.83244
是乃	-9.83403
用功	-9.83472
有箇	-9.835
之家	-9.835
於道	-9.83539
陷	-9.83576
好勇	-9.8358
非聖人	-9.83583
䇿	-9.8362
經文	-9.83783
安於	-9.8379
葉	-9.83792
靣	-9.83934
昌	-9.83954
然後能	-9.83959
生物	-9.83961
景公	-9.83982
夷齊	-9.83983
録	-9.84007
乎其	-9.84035
天下之大	-9.84063
也至於	-9.84103
規	-9.84122
精神	-9.84166
陽貨	-9.84247
所引	-9.84375
牽	-9.84405
遵	-9.84437
條理	-9.84453
謝氏曰	-9.84462
存養	-9.84527
矣若	-9.8454
之深	-9.84603
逮	-9.84697
而至於	-9.8471
達道	-9.84753
舉其	-9.8477
者如	-9.84871
為惡	-9.84889
指其	-9.84947
沮	-9.84959
民心	-9.85023
於魯	-9.85026
㓜	-9.85039
為貴	-9.85044
自以為	-9.85174
其情	-9.85203
檢	-9.85215
人性	-9.85228
濁	-9.85242
阿	-9.85275
靈公	-9.85323
小徳	-9.85325
其善	-9.85332
知有	-9.8534
無過不及	-9.85404
求仁	-9.8547
監	-9.85471
不患	-9.8549
於事	-9.85593
饋	-9.856
執中	-9.85745
欠	-9.85786
賞	-9.85811
雉	-9.85834
供	-9.85834
徳行	-9.85836
藥	-9.85876
聰明	-9.8595
黒	-9.85968
世家	-9.85989
引詩	-9.86111
未聞	-9.86216
好之	-9.86326
憾	-9.8634
慾	-9.86359
則自	-9.8636
?	-9.86385
貧而	-9.86402
道義	-9.86428
染	-9.86443
顓臾	-9.86572
臯陶	-9.86639
兹	-9.86669
艾	-9.86674
臭	-9.86674
當作	-9.86838
知得	-9.86855
盗	-9.86899
論其	-9.86902
弑	-9.86924
虧	-9.86936
旨	-9.86948
主人	-9.87055
化之	-9.87058
事上	-9.87063
不順	-9.87127
杜	-9.87167
何嘗	-9.87208
嫌	-9.87229
億	-9.87236
大事	-9.87296
不貳	-9.87333
而無所	-9.87349
其極	-9.87355
多聞	-9.87368
去聲下同	-9.87501
以善	-9.87575
兩節	-9.87672
文義	-9.87695
間斷	-9.87702
尚書	-9.87712
之長	-9.87725
匹夫	-9.87749
盍	-9.87757
隔	-9.878
下句	-9.87957
瞽	-9.88018
芟	-9.8806
矩	-9.881
之常	-9.88286
一端	-9.88295
語錄	-9.883
之民	-9.8832
荆	-9.88367
成王	-9.88534
魯人	-9.88586
雞	-9.88638
祝	-9.88646
、	-9.88678
至于	-9.88719
君子不	-9.88763
四句	-9.88818
且如	-9.88856
侮	-9.88859
施之	-9.88879
躍	-9.88917
克己復禮	-9.88928
宮	-9.88944
虐	-9.88962
峻	-9.88975
琴	-9.88984
而不敢	-9.89011
初無	-9.89033
諸人	-9.89038
即所謂	-9.89044
明善	-9.89085
中道	-9.89096
礼	-9.89175
朝服	-9.8921
閔	-9.89272
侈	-9.89282
遭	-9.89285
有異	-9.89286
而出	-9.89312
不能盡	-9.89418
於内	-9.89652
者所以	-9.89686
也孔子曰	-9.89699
壊	-9.89795
此以	-9.89826
者言之	-9.89827
伏	-9.89858
實有	-9.89937
吾身	-9.89974
於禮	-9.9
詩曰	-9.9
若有	-9.90008
禮者	-9.90054
無益	-9.90056
義者	-9.90096
擾	-9.90103
征伐	-9.90261
中間	-9.90278
翼	-9.90284
而發	-9.90303
憚	-9.90351
之文	-9.90368
支	-9.90375
黜	-9.9039
之賢	-9.90443
諱	-9.90462
食之	-9.9052
佛	-9.90566
飛	-9.90652
天下無	-9.90666
括	-9.90676
亦猶	-9.90681
胥	-9.9069
不能自	-9.90735
字與	-9.90785
發於	-9.90804
也葢	-9.90828
而弗	-9.90851
其父	-9.90966
凡事	-9.90987
可行	-9.9099
讀者	-9.90996
物也	-9.91033
愛之	-9.91133
乖	-9.91251
従	-9.91262
佐	-9.91276
者即	-9.91278
本然之	-9.91283
止於至善	-9.91292
以生	-9.9132
其失	-9.91362
野人	-9.9141
第三	-9.91415
之不同	-9.9144
悠	-9.91477
所存	-9.91508
而知之	-9.91532
以利	-9.91535
不暇	-9.91546
庻	-9.91553
攷	-9.91567
思之	-9.91572
一字	-9.91587
曠	-9.91599
青	-9.91629
子謂	-9.91689
一篇	-9.91745
在位	-9.91748
十分	-9.91755
囘	-9.91832
造化	-9.91841
許行	-9.91841
志於	-9.91928
産	-9.91969
明之	-9.91985
2	-9.92094
法也	-9.92106
理義	-9.92174
正義曰此章	-9.92333
十年	-9.92373
要之	-9.92388
人臣	-9.92401
所聞	-9.92466
看來	-9.92475
龜	-9.92485
可知也	-9.92494
叙	-9.92497
晏子	-9.926
不亦	-9.92708
談	-9.92732
則吾	-9.92736
第十	-9.92764
涵養	-9.92811
人亦	-9.92898
為天子	-9.92926
兆	-9.93104
隙	-9.93109
貉	-9.93117
牛羊	-9.93149
過也	-9.93173
壽	-9.93264
偃	-9.93335
梁惠王	-9.93417
國君	-9.93469
本於	-9.93487
徳者	-9.93531
蘇	-9.93591
僣	-9.93679
精微	-9.93702
隘	-9.93721
存乎	-9.93745
以俟	-9.938
比干	-9.93835
明德	-9.93857
死而	-9.93869
與此	-9.93904
方百里	-9.93919
併	-9.93962
匠	-9.93981
禪	-9.93987
子貢問	-9.94012
男	-9.94014
將以	-9.94077
之本也	-9.94137
鬼神之	-9.94234
為難	-9.94259
削	-9.94289
中庸之	-9.9432
不入	-9.94326
外物	-9.94392
自知	-9.94423
其罪	-9.94479
與夫	-9.94507
井田	-9.94516
薛	-9.94561
符	-9.94562
竒	-9.94587
𫝊	-9.94633
免於	-9.94639
存之	-9.94715
正也	-9.94721
者豈	-9.94731
之末	-9.94759
不倦	-9.94818
揆	-9.94906
之門	-9.94958
何有	-9.94961
吾心	-9.94962
則無以	-9.95003
之迹	-9.9507
饒氏	-9.95107
勉强	-9.95119
丈	-9.95144
矣曰	-9.95163
此三者	-9.95169
此說	-9.9517
義理之	-9.95171
佚	-9.95211
南子	-9.95216
而去	-9.95316
其說	-9.95317
是謂	-9.95361
言君子	-9.95362
可乎	-9.95419
赤子	-9.95435
中有	-9.95447
藴	-9.95484
之節	-9.95492
寜	-9.95512
晦	-9.95521
受其	-9.95525
蒲	-9.95534
總是	-9.95581
云者	-9.95597
衣服	-9.95652
緇	-9.95652
有罪	-9.95701
無禮	-9.95723
築	-9.95752
惡而	-9.95782
不顯	-9.95797
甞	-9.95843
文也	-9.9585
秀	-9.95864
醫	-9.95882
也聖人	-9.96028
鼎	-9.96068
犬	-9.96077
五年	-9.9608
及物	-9.96087
匿	-9.9609
南面	-9.96102
去其	-9.96122
館	-9.96127
無疑	-9.96157
以身	-9.9616
不齊	-9.96291
以理言	-9.96312
說得	-9.9637
災	-9.96431
所宜	-9.96477
恨	-9.96485
五行	-9.9655
此事	-9.96564
先覺	-9.96654
趙氏	-9.96658
咎	-9.96695
天命之性	-9.96772
其大者	-9.96855
一百	-9.96893
般	-9.96902
人不知	-9.96929
命之	-9.96986
小子	-9.97025
滕文公	-9.97038
貶	-9.97058
徳也	-9.97126
中也	-9.97217
之偏	-9.97249
有常	-9.97252
樂也	-9.97287
斈	-9.97303
啟	-9.97346
増	-9.97377
常人	-9.9738
所守	-9.97423
其用	-9.97456
麻	-9.97472
而不及	-9.97622
一本	-9.97638
非義	-9.97641
墮	-9.97674
不學	-9.97688
童子	-9.9769
出處	-9.97691
有序	-9.97695
筆	-9.97706
全在	-9.97734
知至	-9.97742
告以	-9.97754
晦菴朱氏	-9.97765
而終	-9.97805
禹之	-9.97834
而忘	-9.97877
一心	-9.97925
五人	-9.97928
善道	-9.97944
為君子	-9.97971
孔氏	-9.97981
滋	-9.9802
所止	-9.98023
子路之	-9.98107
亦當	-9.98118
孔子弟子	-9.98128
禮則	-9.98163
也且	-9.98254
於彼	-9.98276
夀	-9.98277
夭	-9.98296
豈能	-9.9831
濯	-9.98326
三章	-9.98359
之心也	-9.9842
此道	-9.98484
以待	-9.98568
迂	-9.98606
手足	-9.98634
屨	-9.9864
炙	-9.98665
若以	-9.98701
以後	-9.9873
之閒	-9.98815
游氏	-9.98845
須要	-9.98884
莫如	-9.9896
神明	-9.98966
俯	-9.98975
誠之	-9.9898
而不為	-9.98994
裼	-9.99095
後人	-9.99135
五霸	-9.992
三軍	-9.99256
英	-9.99287
凝	-9.99288
懸	-9.99307
必至於	-9.99323
人之性	-9.994
此正	-9.99418
則固	-9.99489
淮	-9.9949
為能	-9.99551
牖	-9.99574
稼	-9.99588
三年之喪	-9.99596
斬	-9.99619
猛	-9.99621
君臣父子	-9.9963
只就	-9.99674
中者	-9.99717
也或問	-9.99718
三代之	-9.99754
一邊	-9.99796
為義	-9.9981
汚	-9.99885
教民	-9.99889
君子所	-9.99891
逢	-9.9993
不恭	-9.99932
不應	-10.0004
拂	-10.0017
必欲	-10.0019
浩然之氣	-10.002
播	-10.0024
曲禮	-10.0031
人之道	-10.0032
之别	-10.0035
際	-10.0037
有命	-10.0043
之耳	-10.0049
十一	-10.0054
綏	-10.0058
於前	-10.0061
一毫	-10.0064
樂音洛	-10.0068
無罪	-10.0068
話	-10.0069
之害	-10.007
百年	-10.0073
容貌	-10.0075
齊國	-10.0076
自古	-10.0076
並去聲	-10.0085
皆然	-10.0089
在己	-10.0089
溢	-10.009
無間	-10.0092
太甲	-10.0096
明道	-10.0097
承上章	-10.0098
之患	-10.0098
什一	-10.0112
看得	-10.0117
超	-10.0122
杖	-10.0125
皆當	-10.0132
世俗	-10.0133
過不及	-10.0136
生民	-10.0141
旋	-10.0145
乙	-10.0149
無怨	-10.015
其初	-10.0151
詔	-10.0155
駕	-10.0155
其政	-10.0159
則天下	-10.0166
知所以	-10.0168
好禮	-10.017
人知	-10.0179
若無	-10.0184
探	-10.0185
狂者	-10.0186
不得已而	-10.019
一件	-10.0191
自成	-10.0196
改過	-10.0199
不然則	-10.0205
異乎	-10.0206
人人	-10.0213
故必	-10.0219
規模	-10.022
張子曰	-10.0221
平天下	-10.0223
所在	-10.0223
所當然	-10.0227
熊	-10.0228
後來	-10.0236
皆同	-10.0239
不屑	-10.0247
而入	-10.0247
多少	-10.0248
身上	-10.0253
姦	-10.0254
伐之	-10.0255
所居	-10.0257
相應	-10.0258
亦自	-10.0263
引之	-10.0268
惡人	-10.028
延	-10.0292
而不得	-10.0303
不得而	-10.0308
涉	-10.0316
巻	-10.0317
此三	-10.0321
灌	-10.0332
也按	-10.0336
問孟子	-10.0343
繁	-10.0349
豚	-10.0352
誠則	-10.0355
罷	-10.0359
馮	-10.0383
誠也	-10.0385
早	-10.0387
斥	-10.0387
不中	-10.0392
物事	-10.0396
君子之所	-10.0411
兼愛	-10.0411
昭公	-10.0411
付	-10.0417
言性	-10.0419
靡	-10.0419
鄰國	-10.042
同而	-10.0429
更無	-10.0432
字子	-10.0436
其仁	-10.0444
狄	-10.0448
箕子	-10.045
所同	-10.0453
生知	-10.0455
所好	-10.0455
十八	-10.046
之仁	-10.0461
之心而	-10.0468
道體	-10.047
至聖	-10.0475
九經	-10.0482
賴	-10.0482
不智	-10.0485
不特	-10.0486
植	-10.0487
一以貫之	-10.0487
蠻	-10.0492
吿	-10.0498
明明徳	-10.0499
下愚	-10.0506
荘	-10.0514
此便是	-10.0517
畿	-10.0521
住	-10.0522
栁下惠	-10.0523
夷子	-10.0539
至徳	-10.0542
讎	-10.0555
疑其	-10.0555
得天下	-10.0559
八十	-10.056
成就	-10.0567
孔門	-10.0571
與天地	-10.0572
躬行	-10.0574
合乎	-10.0581
壤	-10.0586
卦	-10.059
調	-10.0592
中之	-10.0607
春秋傳	-10.0608
者不能	-10.0613
嗣	-10.0624
救之	-10.0627
黍	-10.0627
泰山	-10.0628
紫	-10.0632
一分	-10.064
各有所	-10.064
四體	-10.0643
或人	-10.0646
焉者	-10.0649
不可為	-10.0653
懿	-10.0653
渉	-10.0657
壯	-10.0658
是箇	-10.0665
為天下	-10.0668
徙	-10.0671
司徒	-10.0672
聞見	-10.0675
食色	-10.068
子張問	-10.0682
圓	-10.0691
鄭氏	-10.0695
微子	-10.0705
康子	-10.0712
驩	-10.0713
只説	-10.0715
吳因之曰	-10.0723
判	-10.0723
影	-10.0723
輯	-10.0724
弘	-10.0724
二三子	-10.0727
之本然	-10.0734
資質	-10.0734
能使	-10.0737
於其所	-10.0738
庶乎	-10.0751
洞	-10.0758
脱	-10.0758
米	-10.0764
創	-10.0791
慶	-10.0796
所云	-10.0796
梏	-10.0804
而食	-10.081
乞	-10.0819
於國	-10.0825
辨之	-10.0827
而下	-10.0831
陳氏	-10.0831
猶可	-10.0835
在乎	-10.0841
其體	-10.085
其一	-10.0854
之書	-10.086
區	-10.0862
竈	-10.0867
立於	-10.0875
自為	-10.0875
識其	-10.0877
矣今	-10.0877
愚案	-10.0884
之方	-10.0885
道心	-10.0885
天性	-10.0886
之稱	-10.0891
溝	-10.0892
頓	-10.0895
割	-10.0901
亦不能	-10.0905
其效	-10.0905
可畏	-10.0916
獻子	-10.0917
天下之理	-10.0924
問政	-10.0925
本體	-10.0927
其他	-10.0929
何事	-10.093
惠王	-10.0931
允	-10.0932
壬	-10.0933
而况	-10.0933
蓄	-10.0937
綱領	-10.0946
臣之	-10.0947
其樂	-10.095
前日	-10.0954
為去聲	-10.0958
矣故曰	-10.0962
知其所	-10.0962
而后	-10.0963
之勢	-10.0964
晏	-10.0965
倉	-10.0965
然非	-10.0967
攘	-10.097
喜怒哀樂	-10.0971
其上	-10.0971
其時	-10.0975
蘇氏	-10.0975
廬	-10.0976
由之	-10.0984
舜禹	-10.0991
耳故	-10.0999
紂之	-10.1003
而作	-10.1004
莫不有	-10.1006
自得之	-10.1006
畢竟	-10.1007
相對	-10.1008
之禍	-10.1011
齊景公	-10.1018
當如此	-10.1024
若曰	-10.1025
亦可謂	-10.1037
遏	-10.104
呂	-10.1041
之服	-10.1041
晚	-10.1042
裕	-10.1042
寇	-10.1044
許之	-10.1048
人自	-10.1048
有恒	-10.1049
絲	-10.1049
循理	-10.1054
擇善	-10.1055
一意	-10.1063
未至於	-10.1074
公都子	-10.1074
準	-10.1076
擴充	-10.1079
韻	-10.108
漢書	-10.1081
鹿	-10.1082
諸説	-10.1083
無私	-10.109
侯氏	-10.1091
不可及	-10.1103
親切	-10.1105
在天	-10.1106
所當為	-10.1113
天之所	-10.1117
繩	-10.1117
文質	-10.112
而可以	-10.1121
繆公	-10.1127
便見	-10.1133
一旦	-10.1135
卜	-10.1153
時習	-10.1162
得罪於	-10.1163
曾子曰	-10.117
此與	-10.1172
必得	-10.1184
為心	-10.1189
次序	-10.1194
此其所以	-10.1203
進而	-10.1205
之辨	-10.1209
程子所謂	-10.1211
閔子	-10.1211
敬也	-10.1213
頗	-10.1217
既曰	-10.1219
及於	-10.1227
雖曰	-10.1235
明日	-10.1237
博厚	-10.1248
條目	-10.1248
夕	-10.1251
盛徳	-10.1252
大哉	-10.1255
瑟	-10.126
婦人	-10.126
雄	-10.126
如有	-10.1262
而必	-10.1263
舟	-10.1263
二事	-10.1263
所記	-10.1265
陷於	-10.1265
大體	-10.1269
又謂	-10.1276
伊	-10.1283
添	-10.1295
孚	-10.1296
是以君子	-10.1296
脉	-10.1297
戮	-10.1299
扶又反	-10.1299
先進	-10.1303
以此為	-10.1305
固非	-10.1311
其德	-10.1311
駟	-10.1328
礙	-10.1334
流於	-10.1339
之一字	-10.134
有不同	-10.1342
檀弓	-10.1342
貧富	-10.1353
多能	-10.1357
絶之	-10.1361
妨	-10.1363
而不知其	-10.1365
睿	-10.1368
拔	-10.1373
取諸	-10.1375
雖是	-10.1376
篤信	-10.139
推己	-10.1405
横渠	-10.141
伐燕	-10.1415
伊川曰	-10.1415
之主	-10.1428
相為	-10.1433
知道	-10.1433
名之	-10.1435
為士	-10.1435
營	-10.1442
者葢	-10.1445
令尹	-10.1453
天也	-10.1453
馮氏曰	-10.1454
五百	-10.1454
安能	-10.1456
戈	-10.1474
時人	-10.1476
有定	-10.148
於此而	-10.1483
頃	-10.1484
無惡	-10.1494
無復	-10.1499
以是為	-10.15
察之	-10.1503
功用	-10.1514
減	-10.1516
迷	-10.1517
愚按	-10.1518
章總㫖	-10.1519
語之	-10.152
天下之事	-10.1522
賢才	-10.1528
泣	-10.1528
無常	-10.1533
未易	-10.1535
川流	-10.1548
浩	-10.155
一説	-10.1552
所載	-10.1554
肥	-10.1556
不難	-10.1562
去就	-10.1565
固不可	-10.1566
占	-10.1567
李氏	-10.157
二百	-10.1582
做工夫	-10.1588
不爲	-10.1593
棺	-10.1595
遁	-10.1596
狎	-10.1596
夾	-10.1598
三日	-10.1598
固執	-10.16
十章	-10.1603
自修	-10.1603
傳云	-10.1607
山川	-10.1613
氣禀	-10.1614
一夫	-10.1619
三節	-10.1626
凖	-10.1628
有時而	-10.1642
然有	-10.1643
引此	-10.1643
而推之	-10.1644
不覺	-10.1649
之理也	-10.1652
乃能	-10.1654
自治	-10.1655
:『	-10.1657
孟子對曰	-10.1662
芟一條	-10.1664
二十五	-10.1665
知仁	-10.1666
大學之	-10.1668
僻	-10.1672
卷十	-10.168
醬	-10.1688
自盡	-10.1699
從政	-10.1702
酌	-10.1703
枝	-10.1704
相與	-10.1706
聞其	-10.1707
瞻	-10.1709
淳	-10.1713
陽虎	-10.1715
叔孫	-10.1723
而不失	-10.1727
上帝	-10.1731
人欲之私	-10.1752
左氏	-10.1754
三千	-10.1762
而夫子	-10.1765
非特	-10.1769
特以	-10.1776
以德	-10.1777
慝	-10.1777
文字	-10.1778
栗	-10.1782
接物	-10.1786
未達	-10.1789
耳然	-10.1792
正名	-10.1794
不重	-10.1799
意誠	-10.1807
諸子	-10.1809
惟聖人	-10.1816
邾	-10.1817
聼	-10.1823
芻	-10.1827
坤	-10.1828
離婁	-10.1828
黙識	-10.1831
作亂	-10.1834
太極	-10.1834
桀紂	-10.1835
但言	-10.1846
敦	-10.1848
及人	-10.1852
在彼	-10.1853
一偏	-10.1854
平常	-10.1855
之詞	-10.1857
許子	-10.1861
不修	-10.1865
奮	-10.1865
之差	-10.1867
繼之	-10.1871
專以	-10.1873
治民	-10.1875
深矣	-10.1878
宗廟之	-10.1883
却不	-10.1889
如今	-10.1895
圃	-10.1898
而安	-10.1902
記者	-10.1903
随	-10.1904
親愛	-10.1911
之説則	-10.1915
一定	-10.1933
而生	-10.1934
跡	-10.1939
懲	-10.1939
罰	-10.1939
禍福	-10.194
亦只是	-10.194
不移	-10.1941
房	-10.1943
之人也	-10.195
玉藻	-10.1951
其名	-10.1952
仁知	-10.1957
别有	-10.1958
正與	-10.1963
道徳	-10.1967
諸家	-10.1974
銘	-10.198
亞	-10.1982
閭	-10.1982
顛	-10.1983
不能行	-10.1998
責人	-10.2001
子夏曰	-10.2009
自新	-10.2011
逝	-10.2015
傳曰	-10.2023
之類是也	-10.2029
輅	-10.203
有疾	-10.203
東西	-10.2032
不願	-10.2036
無形	-10.2038
夫子之道	-10.2051
得人	-10.2055
柯	-10.2056
刪	-10.2058
憎	-10.2062
仁政	-10.2062
乎外	-10.2062
詩大雅	-10.2063
人之所以	-10.2063
展	-10.2064
武城	-10.2071
爾雅	-10.2073
三分	-10.208
妾	-10.2096
康誥	-10.2097
嬖	-10.21
内則	-10.2102
根本	-10.2111
究其	-10.2112
自此	-10.212
蕭	-10.2129
穿	-10.2134
闇	-10.214
譬之	-10.2141
盡善	-10.2144
姬	-10.2144
所學	-10.2147
唐虞	-10.2149
無過	-10.2157
天下之民	-10.2171
觧	-10.2175
何如曰	-10.2175
也以其	-10.2176
躁	-10.2177
整	-10.2177
愬	-10.2177
問仁	-10.2178
途	-10.2178
璧	-10.218
百里奚	-10.2182
吉凶	-10.2183
萬鍾	-10.2184
善言	-10.2185
亦豈	-10.2189
百工	-10.2197
動静	-10.22
羞惡	-10.2203
固無	-10.2211
諾	-10.2213
與人同	-10.2216
暫	-10.2219
巫	-10.222
牙	-10.2222
犬馬	-10.2227
信乎	-10.223
者多矣	-10.2232
之變	-10.2235
方可	-10.2237
須知	-10.2239
不謹	-10.2239
動靜	-10.2242
裏面	-10.2247
無違	-10.2254
盡其道	-10.2256
行仁	-10.2256
而用之	-10.2258
舌	-10.2261
菜	-10.2261
清濁	-10.2262
軌	-10.2266
雷	-10.2267
輪	-10.2272
承上文	-10.2276
之殊	-10.229
天下有道	-10.2292
而後能	-10.2296
抱	-10.23
局	-10.2301
纎	-10.2301
暢	-10.2301
耆	-10.2303
廹	-10.2305
一切	-10.2308
此類	-10.2317
好去聲	-10.232
長短	-10.2332
王季	-10.2336
常存	-10.2337
祗	-10.2341
者是也	-10.2348
豈得	-10.2359
繆	-10.2367
反復	-10.2372
顏	-10.2373
季康子	-10.2373
自任	-10.2377
始得	-10.2377
之所能	-10.2378
季子	-10.2378
緣	-10.2385
飲酒	-10.2394
上句	-10.2396
功利	-10.2396
宫室	-10.2398
子路曰	-10.2402
之資	-10.2415
財用	-10.2415
真知	-10.2416
髙下	-10.2418
溪	-10.242
拱	-10.2421
鼻	-10.2423
庚	-10.2425
苖	-10.2427
不可勝	-10.2427
彼此	-10.2441
風俗	-10.2442
闑	-10.246
墻	-10.246
何足	-10.2461
隨其	-10.2461
孟子謂	-10.2461
叢	-10.2462
愛之理	-10.2463
透	-10.2463
久而	-10.2466
往往	-10.2466
京	-10.2466
斯民	-10.2469
技	-10.2472
人之善	-10.2473
孔孟	-10.2479
得志	-10.248
上說	-10.2481
各得其所	-10.2482
百世之	-10.2482
不可以為	-10.2484
知命	-10.2489
其地	-10.2498
之術	-10.2502
醒	-10.2502
愿	-10.2508
淺説	-10.2512
所論	-10.2515
孰為	-10.2516
王者之	-10.2517
儒者	-10.2518
於其間	-10.2523
也或曰	-10.2525
丈夫	-10.2526
此書	-10.2535
浴	-10.2539
㫁	-10.254
磬	-10.2541
謨	-10.2542
睹	-10.255
織	-10.2551
羔	-10.2552
亦未嘗	-10.2553
能守	-10.2563
大倫	-10.2567
其勢	-10.257
而卒	-10.2573
萬章曰	-10.2577
天地萬物	-10.2579
而後可以	-10.2584
縮	-10.2586
毫釐	-10.2586
窒	-10.2592
全是	-10.2603
未嘗有	-10.2608
饒	-10.2616
侯曰	-10.2617
其所以然	-10.2619
薨	-10.2622
入徳	-10.2624
子路問	-10.2626
踈	-10.2628
鑑	-10.2628
萬事	-10.2639
有德	-10.2643
其類	-10.2658
道不行	-10.2661
墓	-10.2667
存亡	-10.2667
眼	-10.2668
方能	-10.2671
曷	-10.2672
熱	-10.2677
行仁政	-10.2691
誠實	-10.2702
一語	-10.2703
尾	-10.271
辭氣	-10.2713
魯大夫	-10.2714
刑罰	-10.2715
巍巍	-10.2716
頑	-10.2717
臨事	-10.2718
曲折	-10.2718
孺子	-10.2719
吾心之	-10.272
箋	-10.2721
功夫	-10.2726
專指	-10.2737
穆公	-10.2739
立言	-10.2742
讒	-10.2752
或謂	-10.2752
些子	-10.2755
以及人	-10.2763
生死	-10.2763
斯道	-10.2765
不同然	-10.2775
節張彦陵曰	-10.278
充滿	-10.2784
莒	-10.2789
事業	-10.2793
驚	-10.2796
敝	-10.2797
知仁勇	-10.2798
思慮	-10.28
為大夫	-10.2807
已發	-10.2807
不可易	-10.2814
言外	-10.2815
章指言	-10.2826
哲	-10.2837
寂	-10.2842
集注	-10.2858
未足	-10.2878
惻隱	-10.2879
夜氣	-10.2881
性與天道	-10.2884
黎	-10.2885
脚	-10.2886
人主	-10.289
荀子	-10.2893
觀人	-10.2898
庶民	-10.2913
天爵	-10.2915
所蔽	-10.2926
豪	-10.2927
淪	-10.2929
辛	-10.2929
䧟	-10.2929
好樂	-10.2933
居敬	-10.2951
隨時	-10.2963
外面	-10.2964
鳥獸	-10.297
集疏曰	-10.2971
士師	-10.2974
氣質之性	-10.2979
二説	-10.298
不悦	-10.2981
武仲	-10.299
者能之	-10.2997
具於	-10.2999
光明	-10.3004
亢	-10.3015
武子	-10.3017
纂	-10.3019
不遷	-10.3033
但知	-10.3037
而後可	-10.3038
六尺	-10.3041
柳	-10.3052
紛	-10.3055
詖	-10.3061
委曲	-10.3061
二年	-10.3069
救民	-10.3082
一等	-10.3085
十一年	-10.309
品節	-10.3091
只是一箇	-10.3095
宴	-10.3096
焚	-10.3101
䙝	-10.3111
十六章	-10.3112
是之謂	-10.3113
其始	-10.3115
昭穆	-10.3121
右師	-10.3127
誠其意	-10.3128
陰	-10.3142
膏	-10.3148
註苞氏曰	-10.3149
糧	-10.3152
心之徳	-10.3154
音扶	-10.3156
而求之	-10.3158
今乃	-10.3162
蔡氏曰	-10.3162
五世	-10.3164
十二章	-10.3171
有不善	-10.3173
貴於	-10.3175
夫子所以	-10.3175
如此説	-10.3176
清明	-10.3187
深造	-10.3188
伯夷叔齊	-10.319
上面	-10.3199
有甚於	-10.3199
志於仁	-10.3205
氣稟	-10.3212
襄公	-10.3215
公室	-10.3215
心術	-10.3223
能充	-10.323
高明	-10.3232
道問學	-10.3232
𦂳	-10.3234
於人者	-10.3234
亮	-10.3236
至誠無息	-10.324
赦	-10.3241
秦楚	-10.3263
大賢	-10.3268
與之言	-10.3269
。』	-10.3269
其㫖	-10.327
朋	-10.3273
叩	-10.3279
磋	-10.328
是故君子	-10.3284
率性	-10.3285
之義也	-10.3293
4	-10.3308
縫	-10.3314
文集曰	-10.3317
洽	-10.332
當是時	-10.3321
詠	-10.3324
勃	-10.3324
汎	-10.3324
八佾	-10.3326
周流	-10.3339
苟且	-10.334
伯魚	-10.3342
翼註	-10.3352
這裏	-10.3355
池	-10.3367
樂天	-10.337
注包曰	-10.3371
谷	-10.3373
教化	-10.3373
必待	-10.3375
一朝	-10.3387
見聖人	-10.3391
魯論	-10.3393
人爵	-10.3397
卻	-10.3412
膾	-10.3415
狐	-10.3425
而去之	-10.3451
又當	-10.3451
級	-10.3457
饗	-10.3457
仁心	-10.3459
不曽	-10.346
厎	-10.3466
酬	-10.3466
匹	-10.3473
好貨	-10.3478
行其道	-10.3481
貳	-10.3483
天下之物	-10.3484
又引	-10.3489
洛	-10.349
如天	-10.3493
憂患	-10.3495
自棄	-10.3496
未詳	-10.3504
然後知	-10.3504
暑	-10.3505
捨	-10.3505
範	-10.3506
聚斂	-10.3507
副	-10.3507
無不善	-10.3509
慧	-10.3516
亦將	-10.3521
鄙夫	-10.3526
按此	-10.3528
但當	-10.3529
逺近	-10.3532
愛親	-10.354
行王政	-10.3544
何歟	-10.3544
魄	-10.3547
升堂	-10.3552
赴	-10.3552
而遽	-10.3556
冇	-10.3557
交際	-10.3557
用其力	-10.3558
槩	-10.3558
髪	-10.3559
太廟	-10.3584
殖	-10.3593
必不能	-10.36
刃	-10.36
柳下惠	-10.3602
理會	-10.3609
未安	-10.3609
充塞	-10.361
化育	-10.3615
!	-10.3625
助法	-10.3633
斯二者	-10.3636
殉	-10.3641
爲政	-10.3643
不睹不聞	-10.3647
此數	-10.3648
邦有道	-10.3654
儀禮	-10.3656
大綱	-10.3659
其所以為	-10.366
孟氏	-10.3666
著力	-10.3679
郡	-10.3682
衛靈公	-10.3684
詭	-10.3688
不如是	-10.3689
孟子之意	-10.3693
之職	-10.3693
鳯	-10.3694
得於心	-10.3696
莫知	-10.3699
中正	-10.37
蟲	-10.37
童	-10.3702
胷中	-10.3705
下面	-10.3706
陳蔡	-10.371
疾病	-10.3724
撫	-10.3732
芟一條减	-10.3734
盧	-10.3735
議論	-10.374
顔回	-10.3742
子糾	-10.3744
徳性	-10.3749
小異	-10.3749
以心言	-10.3759
相因	-10.3768
心體	-10.3771
謂之仁	-10.3773
別	-10.3779
勉人	-10.378
琢	-10.3785
十四年	-10.3787
者何曰	-10.3788
邪說	-10.3789
管叔	-10.3793
神農	-10.3803
賽合註曰	-10.3804
也孟子言	-10.3821
慟	-10.3826
乏	-10.3828
無訟	-10.3829
繼之以	-10.3831
旱	-10.3831
洋洋	-10.3835
寅	-10.384
衽	-10.3842
必由	-10.3848
節目	-10.3851
當世	-10.3856
只要	-10.3863
羣臣	-10.3869
冶	-10.3872
鬭	-10.3875
竝	-10.3875
彦	-10.3876
傲	-10.3876
刀	-10.3885
七篇	-10.3888
大學之道	-10.3898
推廣	-10.3898
大槩	-10.3906
守約	-10.3915
鈞	-10.3919
棖	-10.3921
擬	-10.3922
尊徳性	-10.3925
所以爲	-10.3927
北面	-10.3929
桓子	-10.3943
止至善	-10.3958
錄	-10.3959
魯君	-10.3967
可疑	-10.3973
墜	-10.3974
物格	-10.3974
培	-10.3975
論性	-10.3979
鄭玄	-10.3982
敦化	-10.3984
有是心	-10.3984
之域	-10.4
大節	-10.4007
君臣之義	-10.4008
健	-10.4017
阻	-10.4018
所固有	-10.4019
椁	-10.4019
戸	-10.402
十二年	-10.4022
錢	-10.4022
隨事	-10.4022
此二句	-10.4025
不獲	-10.4045
僖	-10.4053
子男	-10.4059
不忍人之心	-10.4062
伍	-10.4074
修己	-10.41
患難	-10.4106
從事於	-10.4108
元年	-10.4109
從周	-10.4109
固當	-10.4111
松	-10.4115
膠	-10.4116
緫	-10.4117
庠	-10.4119
陳相	-10.412
鬻	-10.4123
接輿	-10.4128
欲速	-10.4136
奕	-10.414
同姓	-10.4143
舊説	-10.4146
誠能	-10.4154
七人	-10.4161
俊	-10.4162
狩	-10.4162
怍	-10.4164
治國平天下	-10.4165
所施	-10.4166
羅	-10.4167
囚	-10.4169
邪正	-10.4171
所以養	-10.4171
穿窬	-10.4171
萬章問曰	-10.4175
謙辭	-10.4201
得其正	-10.4203
譎	-10.4208
惻隠	-10.4211
學者當	-10.4211
宇	-10.4215
洒掃應對	-10.4216
必須	-10.4219
两	-10.4221
聲音	-10.4224
曽子曰	-10.4226
未始	-10.424
將去	-10.4261
達徳	-10.4262
明明德	-10.4268
雪	-10.427
䝉引	-10.4273
奴	-10.4276
日用之間	-10.4278
修道	-10.428
成德	-10.4282
之所存	-10.429
之全體	-10.4302
功效	-10.4304
董	-10.4313
托	-10.4314
經綸	-10.4314
姜	-10.4326
鵠	-10.4326
無不盡	-10.4329
女子	-10.4331
罕	-10.4346
冉	-10.435
道之大	-10.4358
己之心	-10.4362
欣	-10.4363
壹	-10.4363
諭	-10.4363
柄	-10.4366
晝夜	-10.4368
覲	-10.4369
模	-10.4369
茂	-10.4369
釁	-10.4372
士大夫	-10.4374
可與言	-10.4378
天資	-10.4379
屑	-10.4381
可以見	-10.4382
龜山	-10.4383
物我	-10.439
講學	-10.4399
中庸之道	-10.4401
枉道	-10.4408
未有能	-10.441
彭	-10.4412
諷	-10.4412
脫	-10.4414
值	-10.4415
農夫	-10.4419
茅	-10.4419
吳氏曰	-10.443
域	-10.4435
急於	-10.4437
所養	-10.444
氣化	-10.4442
崔	-10.4446
牢	-10.4463
嗟	-10.4464
此四者	-10.4471
伯子	-10.4477
后稷	-10.4478
僖公	-10.4479
國政	-10.4492
孔安國	-10.4499
心存	-10.4503
王政	-10.4504
貨殖	-10.4511
人之情	-10.4512
丈人	-10.4514
孝弟慈	-10.4514
羞惡之心	-10.4519
敎人	-10.4521
未甞	-10.4524
蔽於	-10.4525
髙逺	-10.4544
幅	-10.4546
説到	-10.4551
篤實	-10.4553
往而不	-10.4559
協	-10.4564
豕	-10.4565
浪	-10.4567
駁	-10.4569
祫	-10.4574
蜡	-10.458
孔子對曰	-10.4586
聰	-10.4588
德行	-10.4588
天地之間	-10.4588
章首	-10.4593
成章	-10.4595
志氣	-10.4608
概	-10.4616
寫	-10.4616
之本體	-10.4619
濶	-10.4621
柱	-10.4621
七十里	-10.4622
戲	-10.4623
不見諸侯	-10.4629
必有所	-10.4641
逸民	-10.4648
公私	-10.465
標	-10.466
斟酌	-10.4661
何等	-10.4662
箴	-10.4674
故集註	-10.4675
周室	-10.4681
3	-10.4704
謟	-10.471
成己	-10.4712
鐘鼓	-10.4724
各得其	-10.4729
邦無道	-10.473
註文	-10.4731
衛君	-10.4737
天理人欲	-10.4737
順理	-10.4744
誠之者	-10.4747
禁止	-10.4751
今夫	-10.4767
粹	-10.4769
惻怛	-10.477
敷	-10.4772
悲	-10.4773
三月不違	-10.4773
季桓子	-10.4774
邱	-10.4775
計較	-10.4777
忮	-10.478
葉公	-10.4806
沂	-10.4809
兵車	-10.4812
叔子	-10.4816
不外乎	-10.4818
冨	-10.4821
羮	-10.4821
此一章書見	-10.4821
懈	-10.4821
遷善	-10.4825
坫	-10.4826
不可曉	-10.4827
烝	-10.4831
坦	-10.4832
周旋	-10.484
六藝	-10.4843
功業	-10.4848
罕言	-10.4851
底道理	-10.4854
惜乎	-10.487
安百姓	-10.4874
嬰	-10.4876
志於道	-10.4878
視聽	-10.4881
深切	-10.4883
相類	-10.4883
九年	-10.4905
君子之於	-10.4906
子賤	-10.4913
女樂	-10.4913
天地間	-10.492
暮	-10.4928
湏	-10.4928
菴	-10.493
狥	-10.4933
狼	-10.4934
性分	-10.4935
芥	-10.4936
殯	-10.4937
識得	-10.4938
厚葬	-10.4939
狂狷	-10.494
邉	-10.494
入門	-10.4944
理之當然	-10.4951
萬殊	-10.4955
無妄	-10.4971
只管	-10.4971
有許多	-10.498
巨	-10.4982
䝉	-10.4982
艱	-10.4984
五十里	-10.4984
愚不肖	-10.4985
有一毫	-10.4987
赤子之心	-10.5002
考證	-10.5002
溺於	-10.5006
當其可	-10.5011
動其心	-10.5011
門外	-10.5025
桮棬	-10.5031
守身	-10.5032
寵	-10.5038
分曉	-10.5039
俎	-10.504
公侯	-10.5041
蒼	-10.5044
程子之言	-10.5045
殊不知	-10.5049
黄帝	-10.505
費隠	-10.5058
平公	-10.5071
相接	-10.5087
轍	-10.5088
邢	-10.509
優劣	-10.509
聲色	-10.5092
萊	-10.5092
子西	-10.5093
珠	-10.5094
闊	-10.5097
桴	-10.5097
八年	-10.5102
三桓	-10.5111
第四	-10.5131
燭	-10.514
擴	-10.5141
圉	-10.5148
鼔	-10.5149
乆矣	-10.5151
形體	-10.5154
皮弁	-10.5155
黻	-10.5161
十五年	-10.5164
萬理	-10.5165
五穀	-10.5176
主忠信	-10.5196
㳺	-10.5199
冰	-10.5199
搏	-10.5199
桐	-10.52
不得其正	-10.5201
幾希	-10.5201
陷溺	-10.5205
狷者	-10.5215
太宰	-10.5218
前篇	-10.5222
學校	-10.5247
齊其家	-10.5249
丹	-10.5249
又從而	-10.5249
浸	-10.5251
廛	-10.5251
冀	-10.5252
郢	-10.5252
弁	-10.5262
曽晳	-10.5262
玩味	-10.5263
片	-10.5304
不免於	-10.5307
員	-10.5308
賔客	-10.531
司馬牛	-10.5313
相承	-10.5317
未足以	-10.5322
不可勝用	-10.5348
荀	-10.5349
千萬	-10.5352
覇	-10.5355
養老	-10.5359
鏡	-10.5362
緝	-10.5364
安排	-10.5368
昆弟	-10.5378
鄭聲	-10.5381
無時不	-10.5384
之為言	-10.5404
太祖	-10.5408
儘	-10.5414
歡	-10.5416
齊大夫	-10.5419
積累	-10.5421
末節	-10.5424
首尾	-10.5425
異於人	-10.5425
結上文	-10.5426
吕氏曰	-10.5426
練	-10.5428
纓	-10.5429
經傳	-10.5433
羔裘	-10.5435
人之身	-10.5436
昆	-10.5453
有淺深	-10.5457
涵	-10.5465
仇	-10.547
部	-10.5471
勲	-10.5473
因其所	-10.5476
汲汲	-10.5477
錦	-10.548
南容	-10.5484
偏倚	-10.5485
昭昭	-10.5495
事父母	-10.5514
哀公問	-10.5516
有意於	-10.552
區區	-10.5521
選	-10.5522
収	-10.5525
聽訟	-10.5526
輙	-10.5527
六經	-10.5529
体	-10.5529
喚	-10.553
躐等	-10.553
出奔	-10.5531
可否	-10.5535
仁之方	-10.5536
勉齋黄氏曰	-10.5536
蕩蕩	-10.5537
仁智	-10.5557
見前篇	-10.5559
㕓	-10.5559
節翼註曰	-10.5575
荷	-10.5579
沽	-10.5579
壁	-10.5579
郤	-10.5581
打	-10.5583
麥	-10.5583
絺	-10.5591
民之所	-10.56
宰予	-10.5605
伯玉	-10.5619
尊卑	-10.5627
鳶	-10.5628
樞	-10.5632
恣	-10.5638
幹	-10.5639
有諸己	-10.5641
伊川解曰	-10.5642
純粹	-10.5642
候	-10.5642
歉	-10.5642
南北	-10.5668
體認	-10.5678
齊侯	-10.5681
津	-10.5692
惕	-10.5695
真實	-10.5696
亳	-10.5701
田獵	-10.5707
此五者	-10.5712
寶	-10.5743
評	-10.5745
曾㸃	-10.5747
南軒張氏	-10.575
亥	-10.5751
先祖	-10.5751
謗	-10.5752
儼	-10.5753
男女	-10.5754
騐	-10.5755
彰	-10.5756
六年	-10.5762
九十	-10.5763
果能	-10.5765
孟子答	-10.5766
致曲	-10.577
何以異	-10.5793
助長	-10.5803
沐浴	-10.5805
蘧伯玉	-10.581
枝葉	-10.5811
忿懥	-10.5813
沼	-10.5813
事親從兄	-10.5814
韋	-10.5818
作春秋	-10.5835
與天地同	-10.5836
合而言之	-10.5837
道路	-10.5843
策	-10.5861
属	-10.5868
孟軻	-10.5869
悱	-10.5871
橫	-10.5871
新安	-10.5873
不妨	-10.5883
二女	-10.5891
無所不至	-10.5893
應物	-10.5901
瀆	-10.5911
一層	-10.5912
宗建曰	-10.5915
佛肸	-10.5921
樂天齋翼註曰	-10.5923
天命之謂性	-10.5924
廪	-10.5926
蒯聵	-10.5927
口腹	-10.5929
須臾	-10.593
臻	-10.5932
莫大於	-10.5938
朝音潮	-10.5938
言此以	-10.5943
果何	-10.596
夏商	-10.5973
乍	-10.5975
哂	-10.5981
曾晳	-10.5981
寮	-10.5982
勵	-10.5984
摩	-10.5986
墨子	-10.5987
見於外	-10.5989
滛	-10.599
簞食	-10.5992
欽定四庫全書論語	-10.5993
衮	-10.5997
與民同樂	-10.6005
此一章書是孔子	-10.6012
而不自知	-10.6013
排	-10.6035
慨	-10.6038
賁	-10.604
巖	-10.6041
投	-10.6041
噫	-10.6044
壅	-10.6046
算	-10.6047
巽	-10.6049
菑	-10.605
千乗之國	-10.6052
沛	-10.6066
車馬	-10.6089
冉子	-10.6093
堪	-10.6094
雩	-10.6095
註馬融曰	-10.6098
几	-10.6098
餼	-10.6098
公劉	-10.6099
生知安行	-10.61
渴	-10.6101
仞	-10.6102
遯	-10.6103
翕	-10.6105
棘	-10.6106
注馬曰	-10.6108
林放	-10.6109
恰好	-10.611
所遇	-10.6116
十六年	-10.6133
徙義	-10.6137
明道曰	-10.6138
鎰	-10.6158
兢	-10.6158
鬬	-10.6163
寐	-10.6164
藻	-10.6168
未之有也	-10.6168
賣	-10.6172
經界	-10.6179
國之君	-10.6185
憂懼	-10.6203
未必能	-10.6208
十四章	-10.6213
髮	-10.6223
掃	-10.6223
饒氏謂	-10.6227
效驗	-10.6227
紹	-10.6227
焉於䖍反	-10.6229
匪	-10.6229
叟	-10.6231
形甸反	-10.6232
率性之道	-10.6233
浩然	-10.6236
縷	-10.624
喜怒	-10.6241
藐	-10.6279
麟	-10.628
報怨	-10.6283
毁譽	-10.6284
邵	-10.6286
蹙	-10.6288
詘	-10.629
所以然者	-10.6309
莽	-10.6334
誇	-10.6342
脈	-10.6343
薪	-10.6349
庠序	-10.6352
哀矜	-10.6352
濡	-10.6355
西北	-10.6355
苞氏曰	-10.6361
洪水	-10.6366
干禄	-10.6368
以成其	-10.639
授受	-10.6395
庳	-10.6403
長上聲	-10.6407
胸中	-10.6408
秩	-10.6408
持守	-10.6409
洗	-10.6411
告朔	-10.6413
百畆	-10.6436
思無邪	-10.6449
7	-10.6459
陪臣	-10.6459
悻	-10.6464
褐	-10.6465
沓	-10.647
抑揚	-10.647
喟然	-10.6473
主宰	-10.6484
盛德	-10.6509
太師	-10.6509
真氏曰	-10.6514
擅	-10.6526
獵較	-10.6527
附庸	-10.6529
桓魋	-10.6529
黃	-10.653
版	-10.653
緩急	-10.6534
玉帛	-10.6534
在這裏	-10.6538
尋常	-10.654
緅	-10.6545
儲子	-10.6551
方千里	-10.6564
惡平聲	-10.6587
價	-10.6588
熙	-10.659
攸	-10.659
釋氏	-10.659
頒	-10.659
門之外	-10.6625
耦	-10.6641
壇	-10.6643
博施濟衆	-10.6645
其為人也	-10.6647
天下歸仁	-10.6648
返	-10.6649
無聲無臭	-10.6649
饌	-10.6653
倣	-10.6657
弛	-10.6658
軍旅	-10.6659
徼	-10.666
事物之理	-10.6671
糾	-10.668
首節	-10.6688
失其本心	-10.6703
天子諸侯	-10.6703
南軒	-10.6707
悼	-10.671
訥	-10.6712
婉	-10.6712
楹	-10.6717
錫	-10.6717
兒	-10.6717
踵	-10.6718
諸儒	-10.6729
旒	-10.673
墨氏	-10.673
小弁	-10.6741
王驩	-10.6747
得於天	-10.6774
鳳	-10.6777
迭	-10.6778
料	-10.678
庶㡬	-10.6788
失其正	-10.6789
都鄙	-10.6791
醉	-10.6794
帷	-10.6794
病痛	-10.6795
第五	-10.683
章諸生	-10.6831
臧文仲	-10.6832
林氏	-10.6832
桓文	-10.6835
鯉	-10.6836
朴	-10.6838
冡	-10.6839
漏	-10.684
殃	-10.6843
醜	-10.6844
噐	-10.6848
醢	-10.6857
目前	-10.6873
説話	-10.6881
生而知之	-10.6885
5	-10.6897
彀	-10.6902
殿	-10.6903
汨	-10.6906
塵	-10.6909
千乘	-10.6914
什	-10.6922
如何先生曰	-10.6922
釐	-10.6969
巡	-10.6971
膺	-10.6978
妃	-10.6979
翦	-10.6985
十一章	-10.6999
賔主	-10.7013
不以其道	-10.7021
祖考	-10.703
正義曰云	-10.7034
敦厚	-10.7034
喫	-10.7034
弼	-10.7035
懇	-10.7036
宏	-10.7037
晨	-10.7038
皇皇	-10.7038
絜	-10.7039
醯	-10.7042
箕	-10.7051
千古	-10.7054
執圭	-10.7061
公西華	-10.7096
羊棗	-10.7098
增	-10.7101
嫁	-10.7102
个	-10.7102
巷	-10.7103
詣	-10.7106
耘	-10.7108
木鐸	-10.7117
黑	-10.7117
長幼	-10.7124
二十八	-10.7129
昭著	-10.714
巧言令色	-10.7163
驟	-10.7164
涖	-10.7165
眩	-10.7166
園	-10.7166
擔	-10.7169
無私心	-10.7169
五祀	-10.717
緯	-10.717
庾	-10.7171
絞	-10.7172
捐	-10.7172
巨室	-10.7174
悠久	-10.7185
門弟子	-10.7195
沛然	-10.7217
純亦不已	-10.7229
天下後世	-10.723
反身而誠	-10.723
誥	-10.7231
不可須臾離	-10.7232
甸	-10.7232
肩	-10.7235
食音嗣	-10.7237
季路	-10.7243
再拜	-10.7256
念慮	-10.728
受業	-10.7285
井地	-10.7298
視聽言動	-10.73
普	-10.7302
粥	-10.7302
事事物物	-10.7303
髠	-10.7303
孝悌	-10.7307
忠厚	-10.7309
畒	-10.7312
白圭	-10.7316
可得聞	-10.7343
袒	-10.7358
誾誾	-10.7364
夲	-10.7365
覿	-10.7366
絡	-10.7367
者鮮矣	-10.7374
紳	-10.7375
孔顔	-10.7376
溫	-10.738
賢不肖	-10.7393
司敗	-10.7397
鄭注	-10.7397
東南	-10.7421
柴	-10.743
博文約禮	-10.7432
無忌憚	-10.7433
不害其為	-10.7436
陰陽	-10.7443
三山陳氏曰	-10.7444
仲雍	-10.7468
章張彦陵曰	-10.7483
北辰	-10.7489
衷	-10.7496
睦	-10.7499
杜預	-10.7501
孽	-10.7501
梓	-10.7502
遍	-10.7503
屋廬子	-10.7504
淡	-10.7505
懦	-10.7505
憑	-10.7508
麤	-10.7509
績	-10.7511
圈外	-10.7514
貢法	-10.7536
何晏	-10.7543
宣公	-10.7543
弑君	-10.7545
十七章	-10.7545
輔氏	-10.7546
魂	-10.756
鈍	-10.7565
嗇	-10.7566
泗	-10.7567
朞	-10.7569
蒸	-10.7571
怕	-10.7571
不忍之心	-10.7573
氓	-10.7573
互相發	-10.7574
泯	-10.7574
大而化之	-10.7577
紐	-10.7581
恭儉	-10.7582
紺	-10.7588
黄氏	-10.7616
狷	-10.7619
貨財	-10.7623
詰	-10.7633
撓	-10.7635
惻隠之心	-10.7638
奄	-10.7639
蚤	-10.764
無可無不可	-10.764
鞭	-10.764
喜怒哀樂未發	-10.7641
嫡	-10.7642
聦	-10.7644
寗	-10.7644
惻隱之心	-10.7648
斤	-10.7697
囂囂	-10.7702
闔	-10.7706
湍	-10.7707
張敬夫	-10.7709
生之謂性	-10.7709
蚓	-10.7711
正義曰案	-10.772
底意思	-10.7723
㤗	-10.7727
所當止	-10.773
視朔	-10.7732
西南	-10.7767
愆	-10.7774
渭	-10.7774
豪傑	-10.7774
瓜	-10.7776
麟士	-10.778
魋	-10.7782
卧	-10.7783
紇	-10.7783
王文憲曰	-10.7784
天下之達道	-10.779
仲孫	-10.7798
語黙	-10.7835
宛	-10.7843
註鄭𤣥曰	-10.7845
亂臣賊子	-10.7845
軒	-10.7851
咨	-10.7852
頂	-10.7853
辜	-10.7856
弑其君	-10.7857
鬱	-10.786
繅	-10.7867
荷蕢	-10.7911
複	-10.792
邠	-10.792
雲峰	-10.792
輟	-10.792
譖	-10.7925
苑	-10.7927
爰	-10.7929
所自出	-10.7959
此孟子所以	-10.7976
違道不逺	-10.7986
諛	-10.799
光輝	-10.7994
音洛	-10.7995
郎	-10.8
鉤	-10.8
膳	-10.8
武帝	-10.8025
匡章	-10.8054
跖	-10.8057
尼	-10.8058
儺	-10.806
絃	-10.8062
莭	-10.8062
麗	-10.8063
陋巷	-10.8063
屋漏	-10.8064
吐	-10.8065
關雎	-10.8067
廓	-10.8068
悠逺	-10.8086
與民同	-10.813
霍	-10.8132
軻	-10.8132
公冶長	-10.8134
停	-10.8135
芟二條减	-10.8136
屢空	-10.8137
怡怡	-10.8138
十三章	-10.8181
太宗	-10.8188
斛	-10.8208
召忽	-10.8211
瑞	-10.8212
彞	-10.8214
霄	-10.8219
爾汝	-10.8253
畎	-10.8279
儻	-10.828
欽	-10.828
揭	-10.8281
千乘之國	-10.8282
心廣體胖	-10.8287
疇	-10.8288
亨	-10.8288
千乗	-10.8316
五榖	-10.8321
四書脉曰	-10.835
敺	-10.8352
孜	-10.8354
悪	-10.8356
莫先於	-10.8357
匏	-10.8357
酉	-10.8359
惓	-10.8361
鄭𤣥	-10.8363
桃	-10.8363
克伐怨欲	-10.8364
滑	-10.8371
精㣲	-10.8397
可不慎	-10.8405
揮	-10.8427
浹	-10.8428
履祥	-10.843
祈	-10.843
彘	-10.8435
臂	-10.8439
東陽許氏曰	-10.8446
道之不行	-10.8472
當然之則	-10.8493
涵泳	-10.8499
惻	-10.8499
証	-10.85
為季氏宰	-10.8503
惺	-10.8504
阼階	-10.8506
敘	-10.8507
誼	-10.8508
鑒	-10.8509
篤恭而天下平	-10.8512
洒	-10.8514
凱	-10.8514
6	-10.8522
武丁	-10.8523
勉強	-10.8526
權衡	-10.8533
栖	-10.8574
廵	-10.8577
不改其樂	-10.8583
拾	-10.8583
丙	-10.8584
旌	-10.8587
贄	-10.8588
循序	-10.861
佛氏	-10.8615
操存	-10.8631
求放心	-10.8647
圗	-10.8653
競	-10.8654
偷	-10.8654
吁	-10.8658
郁	-10.8658
明徳新民	-10.8659
物格知至	-10.8659
軀	-10.866
彫	-10.8661
厚齋馮氏曰	-10.8664
潜	-10.8665
穿鑿	-10.8667
有諸已	-10.8673
漢儒	-10.8676
之説曰程子	-10.8726
撥	-10.8729
熄	-10.8731
腹	-10.8732
誕	-10.8736
戀	-10.8736
偕	-10.874
癰	-10.8742
伯夷伊尹	-10.8745
層	-10.8746
戚戚	-10.8746
十二月	-10.8747
9	-10.8749
巢	-10.8807
穴	-10.8808
姚	-10.881
黝	-10.8812
無父無君	-10.8812
碎	-10.8813
挽	-10.8814
天道人道	-10.8818
私淑	-10.8822
如惡惡臭	-10.8825
繪	-10.8889
峯	-10.8891
顛倒	-10.8891
輸	-10.8892
沉	-10.8893
朕	-10.8893
簒	-10.8895
匹夫匹婦	-10.8895
注鄭曰	-10.8896
府庫	-10.8899
見音現	-10.8903
朝夕	-10.8912
殀	-10.8958
沈無回曰	-10.8965
郵	-10.8966
紊	-10.897
鼓瑟	-10.8971
舅	-10.8971
篡	-10.8972
湛	-10.8974
雅頌	-10.8976
嚮	-10.8977
四海之内	-10.8978
原憲	-10.8982
袂	-10.8987
芟二條	-10.9039
震	-10.9044
裔	-10.9047
牟	-10.9049
戒謹恐懼	-10.905
突	-10.905
厄	-10.9052
䕶	-10.9053
隐	-10.9056
踐履	-10.9064
持其志	-10.9065
驥	-10.9119
柏	-10.912
弦	-10.9122
匱	-10.9124
啻	-10.9131
不亦宜乎	-10.9132
薑	-10.9133
態	-10.9133
掘	-10.9133
富貴貧賤	-10.9135
順乎親	-10.9138
公綽	-10.9139
如好好色	-10.9142
訑	-10.9142
揖遜	-10.9145
袁	-10.9205
閔子騫	-10.9207
拈	-10.9208
馴	-10.9209
翁	-10.921
企	-10.9213
葵	-10.9215
遣	-10.9218
屈伸	-10.9218
支離	-10.9218
鼈	-10.9221
揖讓	-10.9224
孔文子	-10.9228
人倫之至	-10.927
摇	-10.9288
樣	-10.9289
溝洫	-10.9289
樊	-10.929
捉	-10.9291
覩	-10.9292
鑽	-10.9294
粉	-10.9297
爛	-10.9297
以全其	-10.9298
頼	-10.93
眸	-10.9306
驕吝	-10.9308
勿忘勿助	-10.9368
疵	-10.9369
淑	-10.9369
率性之謂道	-10.9369
譲	-10.937
臆	-10.9371
郊社	-10.9373
花	-10.9373
蹶	-10.9374
不自知其	-10.9375
攷證	-10.9376
熈	-10.9376
褒	-10.9381
冒	-10.9381
咈	-10.9382
廩	-10.9383
天理流行	-10.9386
暴虐	-10.9388
史魚	-10.9394
子聞之曰	-10.9415
肫	-10.945
像	-10.9451
柝	-10.9452
毫髪	-10.9453
不忍人之政	-10.9454
扉	-10.9455
数	-10.9455
儆	-10.9456
溝壑	-10.9459
涼	-10.9462
豳	-10.9462
倪	-10.9463
倉廩	-10.9463
曽㸃	-10.9463
适	-10.9463
械	-10.9468
喬	-10.9474
鬲	-10.9535
奸	-10.9536
鹵	-10.9537
形而上者	-10.9538
滄	-10.9538
淳于髠	-10.9538
筵	-10.9538
四書家訓曰	-10.954
剖	-10.9542
學問思辨	-10.9542
鑚	-10.9544
奠	-10.9549
腥	-10.9549
獧	-10.9553
鬯	-10.9554
軫	-10.9554
紅	-10.9557
組	-10.957
庖	-10.9613
響	-10.962
棠	-10.9621
漫	-10.9621
歆	-10.9623
日月至焉	-10.9623
狗	-10.9624
慙	-10.9624
具衆理	-10.9624
鞠躬	-10.9625
朽	-10.9625
被其澤	-10.9626
憫	-10.9627
低	-10.9628
遏人欲	-10.9628
麋	-10.9628
濵	-10.9629
揠	-10.9631
甚麽	-10.9631
應萬事	-10.9633
悝	-10.9635
卞	-10.9696
顓	-10.9699
茫	-10.97
貽	-10.9708
商鞅	-10.9709
餂	-10.971
漆	-10.9713
網	-10.9714
擴而充之	-10.9716
詩小雅	-10.9718
脯	-10.9719
簞	-10.9783
股	-10.979
彬彬	-10.979
另	-10.9791
鮀	-10.9791
抗	-10.9793
枯	-10.9795
詭遇	-10.9799
橋	-10.9799
女音汝	-10.9799
武王伐紂	-10.9799
涕	-10.9799
槁	-10.9804
師摯	-10.981
妾婦	-10.9814
㝠	-10.9873
湣	-10.9873
詆	-10.9879
䕫	-10.9879
永嘉陳氏曰	-10.988
章這一章	-10.9882
烹	-10.9882
矯揉	-10.9883
隣	-10.9884
臯	-10.9884
訕	-10.9884
荀卿	-10.9887
㧞	-10.9889
尭	-10.989
旗	-10.9891
幽厲	-10.9892
觶	-10.9893
能盡其性	-10.9894
庫	-10.9894
字更定次序	-10.996
絢	-10.9963
寤	-10.9967
晁	-10.9967
壑	-10.9967
戕賊	-10.9969
逞	-10.997
佑	-10.9971
㡳	-10.9971
蒙引存疑	-10.9972
毒	-10.9972
油	-10.9976
穆穆	-10.9976
《	-11.0004
》	-11.0004
此謂知本	-11.0049
亭	-11.005
揣	-11.0052
無暴其氣	-11.0053
紾	-11.0053
無敵於天下	-11.0053
糞	-11.0054
捷	-11.0056
四肢	-11.0057
沙	-11.0058
司冦	-11.0059
籩豆	-11.0059
旬	-11.0059
侗	-11.0059
毋自欺	-11.0063
鶃	-11.0064
豢	-11.0064
央	-11.0066
祧	-11.0079
妻妾	-11.0127
氷	-11.0129
恰	-11.0132
倘	-11.0136
零	-11.0139
豁	-11.0141
怵惕	-11.0141
霤	-11.0142
不憂不懼	-11.0142
幣帛	-11.0143
靖	-11.0144
愉	-11.0146
天地之化育	-11.0146
凑	-11.0147
勾	-11.0149
撻	-11.0149
簣	-11.0151
孺悲	-11.0157
祔	-11.017
十九章	-11.0177
「	-11.0188
致知格物	-11.0202
盾	-11.0225
戊	-11.023
媢	-11.0232
夸	-11.0233
饔	-11.0235
歠	-11.0235
膰	-11.0238
赫	-11.0241
』	-11.0272
讐	-11.0316
傑	-11.0316
障	-11.0317
瓢	-11.0317
莘	-11.032
釡	-11.0322
齊桓晉文	-11.0325
阨	-11.0326
頃刻	-11.0326
梓匠輪輿	-11.0327
燔	-11.0333
鴻	-11.0337
廷	-11.0404
赧	-11.0407
徂	-11.0413
漆雕開	-11.0414
二千五百	-11.0416
㳟	-11.0416
瑕	-11.0416
盻	-11.0416
𦵏	-11.0417
從容中道	-11.0419
所共由	-11.0422
不告而娶	-11.0432
繡	-11.0498
蛇	-11.0501
訪	-11.0502
訒	-11.0504
叅	-11.0504
萃	-11.0507
文之以禮樂	-11.0507
敬以直内	-11.0508
嶽	-11.0508
研	-11.0509
謚	-11.0514
疚	-11.0514
綽	-11.0583
嫂	-11.0593
函	-11.0599
闡	-11.0599
眷	-11.0602
透徹	-11.0605
轅	-11.0606
口之於味	-11.061
弈	-11.0628
㦸	-11.0679
卽	-11.0681
虎豹	-11.0684
澮	-11.0686
十九年	-11.0687
諺	-11.0689
冥	-11.0689
老彭	-11.069
公明儀	-11.069
詁	-11.0691
雕	-11.0691
趙岐	-11.0697
夏后氏	-11.0699
場	-11.07
丹朱	-11.0703
半塗而廢	-11.0778
鮑	-11.0779
灼	-11.0781
興於詩	-11.0781
冢宰	-11.0781
軰	-11.0782
輯釋亦引	-11.0782
折衷	-11.0782
騂	-11.0782
妖	-11.0784
彝	-11.0785
界限	-11.0787
奭	-11.0788
良知良能	-11.0789
溥	-11.0789
西山真氏曰	-11.0791
褊	-11.0793
轂	-11.0796
㢘	-11.0798
牼	-11.0804
旦晝	-11.0807
尺二寸	-11.0824
恁	-11.0874
噲	-11.0874
明明徳於天下	-11.0875
裂	-11.0879
採	-11.0879
芸	-11.088
樊遲問仁	-11.0881
紛紛	-11.0882
逰	-11.0882
豹	-11.0882
知所先後	-11.0884
茹	-11.0887
悾	-11.0887
恝	-11.0895
十七年	-11.092
骸	-11.097
誠者天之道	-11.0971
侃侃	-11.0972
道不逺人	-11.0973
俾	-11.0974
牀	-11.0974
醇	-11.0974
犧牲	-11.0978
棲	-11.0978
肺	-11.0983
板	-11.0985
慎其獨	-11.0986
脅	-11.0987
孳孳	-11.0988
南宫适	-11.0992
性之所有	-11.0997
蹠	-11.0999
新安陳氏	-11.1003
愛無差等	-11.1067
張彥陵曰	-11.107
李毅侯曰	-11.1073
多學而識	-11.1073
繋	-11.1074
行其所無事	-11.1074
戌	-11.1076
孩	-11.1077
現	-11.1077
宼	-11.1077
三分天下有其二	-11.108
棣	-11.108
諧	-11.1083
佾	-11.1083
牡	-11.1083
唐棣	-11.1083
誄	-11.1084
僴	-11.1084
纁	-11.1096
狐裘	-11.1105
摯	-11.1156
渠	-11.116
嬴	-11.1166
印	-11.1166
札	-11.1169
硬	-11.1169
本諸身	-11.117
駢	-11.117
額	-11.117
琴瑟	-11.1172
硜硜	-11.1175
疽	-11.1184
恂慄	-11.1189
」	-11.1206
有待於	-11.1259
祇	-11.1262
必有事焉而勿正	-11.1264
禹湯文武	-11.1265
煞	-11.1266
形而下者	-11.1268
丕	-11.1268
靠	-11.1268
黙而識之	-11.1269
耜	-11.1271
怎	-11.1271
芒	-11.1272
墨翟	-11.1272
精義入神	-11.1272
伏羲	-11.1273
欲罷不能	-11.1273
䏻	-11.1274
中人以上	-11.1275
吴	-11.1277
真實無妄	-11.1281
與物接	-11.1283
状	-11.1284
0	-11.1306
汶	-11.1359
督	-11.136
癸	-11.1361
銖	-11.1364
弑父與君	-11.1364
蠻貊	-11.1366
泚	-11.1367
云子曰云云者	-11.1368
邢昺	-11.1369
天地生物之心	-11.1369
不偏不倚	-11.1369
肝	-11.137
穢	-11.1372
袗	-11.1373
拯	-11.1375
考工記	-11.1376
渡	-11.1377
慰	-11.1377
粲	-11.1378
賀孫	-11.138
奡	-11.138
無待於	-11.1391
至大至剛	-11.1466
倡	-11.147
自暴自棄	-11.1471
樸	-11.1472
飱	-11.1472
饜	-11.1472
洫	-11.1474
僥倖	-11.1474
俞	-11.1475
辦	-11.1475
凍	-11.1475
欒	-11.1475
菽	-11.1476
綌	-11.1477
中人以下	-11.1478
覽	-11.1479
訐	-11.148
鑄	-11.148
皥	-11.1568
肱	-11.1568
公羊傳	-11.157
瑩	-11.157
蘓	-11.1571
蕃	-11.1572
錮	-11.1572
時措之宜	-11.1573
祠	-11.1575
踧踖	-11.1578
卯	-11.1581
餉	-11.1582
觳觫	-11.1583
驂	-11.1583
□	-11.1585
嘐嘐	-11.1592
轡	-11.1606
蔬	-11.1668
樓	-11.1669
釜	-11.1672
人之常情	-11.1672
慚	-11.1674
妥	-11.1676
怯	-11.1679
誨人不倦	-11.1679
瀾	-11.1681
僩	-11.1681
傍	-11.1684
淇澳	-11.1684
斧斤	-11.1686
可以語上	-11.1698
不勉而中	-11.1772
發政施仁	-11.1774
闗雎	-11.1774
配義與道	-11.1775
効	-11.1776
臧倉	-11.1777
知覺運動	-11.1777
鎮	-11.1782
漠	-11.1782
彛	-11.1783
垢	-11.1783
恪	-11.1787
蕢	-11.1788
盎	-11.1788
漁	-11.1795
塾	-11.1796
虢	-11.1878
旄	-11.1881
㬰	-11.1881
贈	-11.1882
籥	-11.1882
必有事焉	-11.1884
坎	-11.1885
切磋琢磨	-11.1886
稼穡	-11.1887
爼	-11.1888
栢	-11.1888
慘	-11.189
嫉	-11.1891
逼	-11.1891
不踰矩	-11.1892
瘠	-11.1893
郊特牲	-11.1895
臼	-11.1895
阱	-11.1896
瑚璉	-11.1897
欠缺	-11.1898
磷	-11.198
蓧	-11.1981
串	-11.1987
濱	-11.1989
翔	-11.199
删	-11.1991
拙	-11.1991
肌	-11.1993
諍	-11.1995
促	-11.1997
毫髮	-11.1997
戒慎恐懼	-11.1998
威而不猛	-11.1998
可與適道	-11.2001
鶴	-11.2001
𤓰	-11.2001
栽	-11.2001
璞	-11.209
蹴	-11.2093
阜	-11.2096
替	-11.2096
公叔文子	-11.2098
偲	-11.2099
弋	-11.2099
粢	-11.21
丒	-11.2101
緜	-11.2104
不誠無物	-11.2105
贍	-11.2106
可與共學	-11.2109
蠡	-11.2112
繳	-11.2113
隋	-11.2199
渇	-11.22
孟施舍	-11.2201
矛	-11.2201
依乎中庸	-11.2202
駭	-11.2203
碩	-11.2203
獵	-11.2203
扞	-11.2204
孟懿子	-11.2206
旂	-11.2208
遮	-11.2208
冺	-11.2208
頴	-11.2209
壺	-11.221
釣	-11.2211
䖍	-11.2217
香	-11.2219
凢	-11.222
蹊	-11.2226
疢	-11.223
刋	-11.2304
劣	-11.231
活潑潑地	-11.231
芟三條减	-11.2312
稻	-11.2315
浼	-11.2315
僞	-11.2317
錘	-11.2319
波	-11.232
贅	-11.2322
何必曰利	-11.2323
斧	-11.2323
誠者物之終始	-11.2323
倩	-11.2325
你	-11.2325
泰而不驕	-11.2326
緦	-11.2326
蠶	-11.2329
耨	-11.2333
庾公之斯	-11.2335
綿	-11.2421
蚳鼃	-11.2422
喭	-11.2422
所過者化	-11.2425
緼	-11.2425
勞而不怨	-11.2426
肇	-11.2428
穎	-11.2429
脛	-11.2429
秉彛	-11.243
其言也訒	-11.243
顚	-11.2431
拳拳	-11.2431
三綱五常	-11.2431
呈	-11.2433
呉因之曰	-11.2433
乂	-11.2434
心之所同然	-11.2436
勺	-11.2438
煥	-11.2443
磯	-11.2446
絳	-11.245
縲	-11.2534
詢	-11.2539
蔑	-11.254
圈	-11.2541
動容周旋	-11.2543
麽	-11.2543
簿	-11.2544
由仁義行	-11.2545
聰明睿知	-11.2547
慤	-11.2547
寗武子	-11.2547
筮	-11.2548
塊	-11.2548
蔵	-11.2553
炎	-11.2553
俑	-11.2555
陌	-11.2561
胷	-11.2627
杼	-11.2629
枕	-11.2641
不念舊惡	-11.2646
諶	-11.2646
怡	-11.265
騶	-11.2651
換	-11.2655
教誨之	-11.2656
栁下恵	-11.2657
子桑伯子	-11.2659
内省不疚	-11.2659
鐵	-11.266
潦	-11.2664
亶	-11.2667
絅	-11.2668
蘖	-11.2671
抵	-11.2737
掖	-11.276
奇	-11.2762
曰諸説如何曰	-11.2764
澆	-11.2764
鳶飛魚躍	-11.2764
粱	-11.2771
黼	-11.2774
犂	-11.2774
酬酢	-11.2775
頻	-11.2778
芽	-11.2781
內	-11.2864
陟	-11.288
汗	-11.2885
宁	-11.2885
糗	-11.2885
午	-11.2885
鞅	-11.2886
雙峯	-11.2886
仆	-11.2886
仔	-11.2887
㓗	-11.289
柰	-11.289
忠信篤敬	-11.289
皦	-11.2892
棗	-11.2892
璋	-11.2892
勘	-11.2893
祐	-11.2894
杌	-11.2895
擇乎中庸	-11.2897
莩	-11.2898
忤	-11.2996
慍	-11.2998
袍	-11.3
父不得而子	-11.3
睨	-11.3001
翻	-11.3002
弄	-11.3004
從心所欲不踰矩	-11.3004
䆒	-11.3006
溥博淵泉	-11.3006
耰	-11.3007
虺	-11.3007
和而不流	-11.3008
踞	-11.3011
苞	-11.3012
岳	-11.3015
梁恵王	-11.3017
縓	-11.3021
逄	-11.3021
抽	-11.311
挈	-11.3114
諉	-11.3116
棘子成	-11.3118
孟施舎	-11.312
公山弗擾	-11.3121
鏗	-11.3122
伋	-11.3122
霜	-11.3123
家國天下	-11.3124
瓦	-11.3131
寖	-11.3135
奈	-11.322
矦	-11.3225
產	-11.3231
杵	-11.3235
晋	-11.3238
騎	-11.3239
坊	-11.324
憮	-11.3243
白虎通	-11.3243
王孫賈	-11.3243
富而無驕	-11.3244
殄	-11.3244
諄諄	-11.3245
番	-11.3245
嗅	-11.3246
籠	-11.3247
騖	-11.3248
汪	-11.3252
綴	-11.3253
浚	-11.3255
腔	-11.3355
物有本末	-11.3359
凌	-11.3359
群	-11.336
簀	-11.3362
存心養性	-11.3363
艮	-11.3363
苛	-11.3363
無一息之	-11.3365
賚	-11.3366
反求諸己	-11.3366
爽	-11.3367
悌	-11.3368
雌	-11.3371
珍	-11.3372
燧	-11.3373
祼	-11.3374
俛	-11.3379
銜	-11.3399
蓼	-11.3482
天地位萬物育	-11.3483
北宫黝	-11.3487
惴	-11.3489
易地則皆然	-11.349
鹽	-11.349
饐	-11.3492
自衛反魯	-11.3493
吾道一以貫之	-11.3493
熾	-11.3494
禰	-11.3496
薛居州	-11.35
靈公問陳	-11.3521
韠	-11.3525
8	-11.3552
『	-11.3559
湖	-11.3607
犯而不校	-11.361
此謂知之至也	-11.3611
鄭康成	-11.3611
葸	-11.3615
凛	-11.3615
遥	-11.3617
筭	-11.362
監本訛	-11.362
彈	-11.3621
芳	-11.3621
今改正	-11.3622
潘	-11.3624
格君心之非	-11.3624
洧	-11.3625
簋	-11.3627
不嗜殺人	-11.3629
毀	-11.3637
鳩	-11.3728
綜	-11.3731
銳	-11.3733
顙	-11.3736
尓	-11.3736
宇宙	-11.3737
櫝	-11.3738
㓂	-11.374
學知利行	-11.374
造次顛沛	-11.374
壓	-11.374
漬	-11.3741
鯀	-11.3743
義以方外	-11.3744
查滓	-11.3746
碍	-11.3748
浞	-11.3749
閹	-11.375
鴈	-11.3753
縛	-11.3759
岑	-11.3862
隕	-11.3862
澄	-11.3865
齊治平	-11.3865
素位而行	-11.3868
鋭	-11.3868
修己以敬	-11.3869
撮	-11.3869
元亨利貞	-11.387
躩	-11.3871
閾	-11.3873
閣	-11.3875
允執厥中	-11.3876
昨	-11.3877
蒯瞶	-11.3886
軏	-11.3886
紏	-11.3988
侃	-11.3988
甯	-11.399
臏	-11.3991
忒	-11.3993
吸	-11.3994
琅	-11.3995
填	-11.3995
無為而治	-11.3996
腦	-11.3997
仁民愛物	-11.3998
庶人在官者	-11.3998
楷	-11.3999
咏	-11.4
昊	-11.4002
伺	-11.4004
愁	-11.4004
廐	-11.4004
恍惚	-11.4008
覺軒蔡氏曰	-11.4008
垤	-11.4012
瞷	-11.4013
臘	-11.4015
㓕	-11.4117
於從政乎何有	-11.4117
先事後得	-11.412
尉	-11.4121
僇	-11.4122
宋朱子撰	-11.4122
洚	-11.4125
胄	-11.4127
滔滔	-11.4128
竦	-11.4128
司城貞子	-11.413
褻	-11.413
制民之産	-11.413
凂	-11.4131
虞仲夷逸	-11.4131
日用常行	-11.4133
槨	-11.4133
漿	-11.4135
撤	-11.4138
悉井反	-11.4138
垣	-11.4142
矙	-11.4146
夜之所息	-11.4146
:	-11.4212
纊	-11.4247
尊德性	-11.4254
洩	-11.4255
衾	-11.426
能近取譬	-11.426
澹	-11.426
裹	-11.4262
四書脈曰	-11.4262
格致誠正	-11.4263
徐儆弦曰	-11.4264
欿	-11.4267
恬	-11.4267
動容周旋中禮	-11.4268
佳	-11.4268
輗	-11.4279
新安倪氏曰	-11.4281
恆	-11.4385
冦	-11.4392
切切偲偲	-11.4395
獺	-11.4397
舛	-11.4397
無所不用其極	-11.4398
子畏於匡	-11.4398
搆	-11.4398
竄	-11.4398
摘	-11.44
焦	-11.4402
動心忍性	-11.4404
買	-11.4406
捍	-11.4407
未知孰是	-11.4407
惟義所在	-11.4408
玉溪盧氏曰	-11.4408
扣	-11.4408
檮	-11.4411
悶	-11.4526
斐	-11.4531
摟	-11.4533
屠	-11.4534
恂恂	-11.4537
庵	-11.4538
憐	-11.4545
居天下之廣居	-11.4545
裨	-11.4548
盆成括	-11.4669
謳	-11.4669
剥	-11.467
聊	-11.467
兕	-11.4672
淨	-11.4672
鐸	-11.4673
畎畝之中	-11.4674
為仁由己	-11.4674
䘏	-11.4677
訂	-11.4677
濳	-11.4677
鄧	-11.4677
周南召南	-11.4679
圎	-11.4679
率獸食人	-11.4679
出門使民	-11.468
瞭	-11.468
㨗	-11.4681
筲	-11.4681
倨	-11.4682
潮	-11.4682
然而不王者未之有也	-11.4683
人焉廋哉	-11.4683
沃	-11.4684
阡	-11.4697
乳	-11.4807
困知勉行	-11.4812
桎	-11.4813
絏	-11.4816
寂然不動	-11.4816
胎	-11.4817
體物而不可遺	-11.4818
曰何如斯可	-11.4825
溱	-11.4825
膝	-11.4827
北溪陳氏曰	-11.4827
驪	-11.4835
平旦之氣	-11.4837
一言以蔽之	-11.4944
百乘之家	-11.4947
跪	-11.4952
無諂無驕	-11.4954
江熙曰	-11.4954
上天之載無聲無臭	-11.4956
煖	-11.4958
禆	-11.4959
簞食豆羮	-11.496
萬物皆備於我	-11.496
晏平仲	-11.4961
予欲無言	-11.4962
悴	-11.4963
切問近思	-11.4965
耒	-11.4965
嚚	-11.4967
佯	-11.4968
左丘明	-11.5085
迨	-11.509
譜	-11.5095
訛	-11.5097
埋	-11.5101
吞	-11.5104
温故而知新	-11.5104
餲	-11.5105
濕	-11.5105
意必固我	-11.5106
淹	-11.5106
涸	-11.5108
爻	-11.5109
鄹	-11.5109
稗	-11.511
幡	-11.511
睡	-11.5112
鉞	-11.5112
沿	-11.5242
施由親始	-11.5244
掲	-11.5248
兖	-11.5248
它	-11.5251
畨	-11.5251
禮儀三百威儀三千	-11.5251
歐	-11.5252
齊明盛服	-11.5253
古字通用	-11.5254
學者讀這章書	-11.5254
薰	-11.5255
湼	-11.5255
百乗之家	-11.5259
鎬	-11.5259
婢	-11.5261
挫	-11.5262
千四百	-11.5295
憶	-11.5381
狃	-11.5391
夔	-11.5392
姒	-11.5397
縦	-11.5398
不屑之教誨	-11.5399
再拜稽首	-11.54
貸	-11.54
以三隅反	-11.5402
腐	-11.5403
畦	-11.5405
罟	-11.5405
糜	-11.5408
棁	-11.5408
徹上徹下	-11.5409
羡	-11.5411
睟	-11.5411
菲	-11.5416
一鄉之善士	-11.542
麑	-11.5431
碑	-11.5537
裡	-11.5539
鴟	-11.554
倖	-11.5546
枉尺直尋	-11.5548
虜	-11.5549
己所不欲勿施於人	-11.5549
三過其門而不入	-11.555
擁	-11.5551
笙	-11.5551
叫	-11.5552
諟	-11.5553
盼	-11.5556
禎	-11.5556
淅	-11.5558
鼗	-11.5559
閎	-11.5569
剛毅木訥	-11.5697
嘑	-11.5698
禮樂刑政	-11.5698
長沮桀溺	-11.5701
頽	-11.5702
貿	-11.5702
三復白圭	-11.5702
君君臣臣父父子子	-11.5702
視聴言動	-11.5704
洋	-11.5706
人皆可以為堯舜	-11.5707
偹	-11.5707
詖淫邪遁	-11.5707
衣錦尚絅	-11.5708
吟	-11.5708
騁	-11.5709
梅	-11.5713
罅	-11.5713
靳	-11.5718
廋	-11.5722
純一無偽	-11.5727
儲	-11.5829
扈	-11.5849
荼	-11.5849
丞	-11.5854
二帝三王	-11.5855
摹	-11.5856
戕	-11.5858
頤	-11.586
如有所立卓爾	-11.586
虗	-11.5861
不負戴於道路	-11.5862
囬	-11.5863
僑	-11.5863
如琢如磨	-11.5866
藍田吕氏	-11.5866
睢	-11.5866
咸丘蒙	-11.5868
瞽瞍底豫	-11.5869
舉而措之	-11.5869
甑	-11.587
炭	-11.587
孥	-11.5871
繪事後素	-11.5878
默	-11.6012
殻	-11.6014
炳	-11.6015
請事斯語	-11.6016
抄	-11.6016
堯舜其猶病諸	-11.6017
参	-11.6018
袁了凡曰	-11.6018
斃	-11.6019
𥘉	-11.6019
親親而仁民仁民而愛物	-11.602
稜	-11.602
婚	-11.602
疫	-11.602
一怒而安天下之民	-11.6022
論語注疏卷	-11.6022
宦	-11.6022
先難後獲	-11.6022
核	-11.6024
畱	-11.6024
糴	-11.6024
尺寸之膚	-11.6024
蒐	-11.6026
荑	-11.6027
粒	-11.6027
拳拳服膺	-11.6028
洙	-11.6029
搜	-11.603
貴戚之卿	-11.6032
耽	-11.6034
瓠	-11.6036
緇布冠	-11.6055
躐	-11.6169
濮	-11.6172
遯世不見知而不悔	-11.6173
點	-11.6175
無入而不自得	-11.6176
蕘	-11.6177
㪯	-11.6178
十室之邑	-11.6179
握	-11.618
冷	-11.6181
閏	-11.6181
羞惡辭讓是非	-11.6182
杏	-11.6182
居仁由義	-11.6183
盥	-11.6183
飫	-11.6184
聶	-11.6185
炊	-11.6185
騫	-11.6186
𨽻	-11.6187
潜室陳氏曰	-11.6188
鉏	-11.6188
枉尺而直尋	-11.6188
冊	-11.6189
篚	-11.6189
遑	-11.619
耳目口鼻	-11.619
嚭	-11.619
訖	-11.6195
昜	-11.6198
。」13.	-11.6287
世希不失矣	-11.632
勝殘去殺	-11.6333
荏	-11.6333
聃	-11.6334
驛	-11.6337
唱	-11.6339
子臣弟友	-11.6339
自始至終	-11.6342
歇	-11.6345
邀	-11.6346
陽貨欲見孔子	-11.6346
董仲舒	-11.6346
外本内末	-11.6346
賂	-11.6347
熹	-11.6348
梧	-11.6348
繭	-11.6349
並行而不相悖	-11.6349
塲	-11.6349
亘	-11.6352
呌	-11.6353
偪	-11.6354
寝	-11.6355
喙	-11.6358
筋	-11.6502
不得於言勿求於心	-11.6507
盡人物之性	-11.6508
需	-11.6508
邁	-11.6511
涇	-11.6512
㐮	-11.6513
禾	-11.6513
孺子入井	-11.6513
疊	-11.6513
詎	-11.6513
茁	-11.6514
刼	-11.6514
無所忌憚	-11.6515
莅	-11.6516
見危授命	-11.6517
齊側皆反	-11.6517
毗	-11.6518
礪	-11.6519
胙	-11.6522
侔	-11.6523
君子哉若人	-11.6525
墦	-11.6528
笏	-11.654
翰林院	-11.6568
胸	-11.6659
總纂官	-11.6668
月恭校上	-11.6668
陸費墀	-11.667
欲居九夷	-11.6676
緡	-11.6677
售	-11.6678
涯	-11.6678
反經合道	-11.6678
簞瓢陋巷	-11.6679
迸	-11.6679
女安則為之	-11.668
絰	-11.6681
淇	-11.6681
泊	-11.6681
飪	-11.6683
發憤忘食	-11.6684
賑	-11.6684
沐	-11.6684
若合符節	-11.6684
㪚	-11.6685
㮣	-11.6685
醴	-11.6686
莫之致而至	-11.6687
徯	-11.6688
翅	-11.6688
岌	-11.6692
擘	-11.6693
麰	-11.6695
薫	-11.6696
絹	-11.6701
輈	-11.6736
孫士毅總校官	-11.684
大畏民志	-11.6841
使枉者直	-11.6842
舉直錯諸枉能使枉者直	-11.6843
徐自溟曰	-11.6844
姻	-11.6845
夙	-11.6849
色斯舉矣	-11.6849
飭	-11.685
墟	-11.685
樂以忘憂	-11.6852
曳	-11.6852
箭	-11.6853
盪	-11.6857
皎	-11.6858
灑	-11.6858
圜	-11.6858
皷	-11.686
頞	-11.686
蔚	-11.686
取瑟而歌	-11.6861
㝢	-11.6863
見賢遍反	-11.6864
盲	-11.6867
酢	-11.6869
帖	-11.6873
而不足以解憂	-11.6876
皜	-11.6877
屛	-11.7
鋪	-11.7018
羈	-11.7019
覸	-11.702
馭	-11.7021
賢賢易色	-11.7021
僎	-11.7022
勁	-11.7022
悍	-11.7022
不出家而成教於國	-11.7023
取之而燕民	-11.7024
翳	-11.7025
涓	-11.7025
趾	-11.7025
枲	-11.7026
王觀濤曰	-11.7028
遞	-11.7028
遡	-11.7029
過化存神	-11.703
亦可以為成人矣	-11.7032
戰戰兢兢	-11.7032
羲	-11.7034
䛕	-11.7034
民無得而稱	-11.7035
割烹要湯	-11.7037
暖	-11.7038
蜀	-11.7041
畮	-11.7048
梃	-11.7053
賽合註	-11.7127
楯	-11.7197
閨	-11.7203
以辭害意	-11.7203
煦	-11.7203
掠	-11.7204
欽定四庫全書經部八	-11.7205
潰	-11.7205
架	-11.7205
菹	-11.7206
森	-11.7206
鰥	-11.7206
腸	-11.7207
團	-11.7207
隨感而應	-11.7208
莞	-11.7209
汲	-11.721
飦	-11.7211
蓍	-11.7212
掇	-11.7213
錡	-11.7213
明季講家	-11.7214
愽	-11.7218
𣏌	-11.7221
製	-11.7222
鲁	-11.7241
隄	-11.7376
閲	-11.738
灑掃應對	-11.738
禮樂射御書數	-11.7382
漯	-11.7382
瀹	-11.7383
鋒	-11.7387
沾	-11.7389
嫂溺援之以手	-11.7389
躓	-11.7389
義精仁熟	-11.739
駒	-11.7392
如切如磋	-11.7394
牝	-11.7395
獯	-11.7396
稚	-11.7396
灰	-11.7396
佗	-11.7397
墊	-11.7397
巾	-11.7398
杠	-11.7398
莠	-11.74
狭	-11.74
喧	-11.7402
齧	-11.7402
胖	-11.7403
四書集義精要	-11.7403
樲	-11.7407
子濯孺子	-11.7409
鴃	-11.741
瑚	-11.741
戒愼恐懼	-11.7558
陸錫熊	-11.7563
所以行之者一也	-11.7564
甥	-11.7565
冢	-11.7567
宵	-11.7569
翔而後集	-11.757
斁	-11.7571
遼	-11.7572
砥	-11.7572
殽	-11.7573
篆	-11.7574
㴱	-11.7576
鑠	-11.7576
雀	-11.7577
瑣	-11.7577
躋	-11.7577
恠	-11.7578
弭	-11.7578
羨	-11.7579
齡	-11.758
嚳	-11.758
縝	-11.7581
咺	-11.7581
拓	-11.7582
磽	-11.7583
蛟	-11.7584
啜	-11.7586
眉	-11.7586
楣	-11.7587
鸞	-11.7588
墁	-11.759
」8.	-11.7684
竂	-11.7743
餙	-11.7751
使民戰栗	-11.7755
糊	-11.7757
襁	-11.7757
掊	-11.7757
祚	-11.7758
不怨天不尤人	-11.7758
恍	-11.7758
亹	-11.7758
淆	-11.7758
厨	-11.776
眇	-11.776
見善如不及	-11.7761
派	-11.7761
劒	-11.7761
孑	-11.7762
燾	-11.7762
歷	-11.7763
濩	-11.7763
蟻	-11.7764
鶩	-11.7764
迅	-11.7765
羹	-11.7765
李衷一曰	-11.7765
杇	-11.7766
榦	-11.7766
譛	-11.7766
可離非道	-11.7766
蠱	-11.7767
比必二反	-11.7772
葷	-11.7772
駸	-11.7775
焉於虔反	-11.7776
餔	-11.7776
三月無君則弔	-11.7777
璉	-11.7782
陛	-11.7784
斿	-11.7802
租	-11.7944
滓	-11.7946
不患人之不已知	-11.7948
夫里之布	-11.7949
暨	-11.7949
不遷怒不貳過	-11.7953
賀	-11.7953
維天之命於穆不已	-11.7954
洲	-11.7954
窈	-11.7955
四時行焉百物生焉	-11.7957
殺身成仁	-11.7958
蹄	-11.7959
所厚者薄	-11.796
可以仕則仕可以止則止	-11.796
匝	-11.7961
祁	-11.7963
不在其位不謀其政	-11.7964
五畝之宅	-11.7964
藹	-11.7965
斲	-11.7968
毳	-11.7975
皋	-11.7977
媵	-11.8134
桓公殺公子糾	-11.8135
邕	-11.8137
造端乎夫婦	-11.8138
雙	-11.8142
脗	-11.8143
豺	-11.8146
湊	-11.8146
彪	-11.8146
臨大節而不可奪	-11.8146
琮	-11.8147
竇	-11.8147
輝	-11.8147
懵	-11.8149
昇	-11.815
譚	-11.815
見賢思齊	-11.815
寕	-11.8151
羸	-11.8151
惇	-11.8152
諮	-11.8152
妍	-11.8153
凰	-11.8153
寃	-11.8153
跌	-11.8153
撃	-11.8153
仁敬孝慈信	-11.8154
哇	-11.8157
謁	-11.8158
麄	-11.8158
䨇峯饒氏曰	-11.816
鈎	-11.816
皿	-11.8161
涅	-11.8331
事君事長使衆	-11.8332
譌	-11.8338
百世以俟聖人而不惑	-11.8343
綸	-11.8344
霓	-11.8344
仕止久速	-11.8345
衒	-11.8348
繞	-11.8348
聨	-11.8351
繚	-11.8351
軛	-11.8351
摳	-11.8351
秤	-11.8351
凟	-11.8352
瞑	-11.8352
行法以俟命	-11.8353
阮	-11.8355
博我以文約我以禮	-11.8356
演	-11.8357
冐	-11.8357
畀	-11.8359
卵	-11.8359
匍	-11.836
匐	-11.8361
剪	-11.8362
大哉堯之為君	-11.8362
揉	-11.8365
天時不如地利	-11.8367
凉	-11.8369
輻	-11.8374
麛	-11.8389
滹	-11.8543
所識窮乏者得我	-11.8544
墉	-11.8548
紆	-11.8548
襜	-11.8551
蘇秦張儀	-11.8552
徽	-11.8553
粘	-11.8555
湖南講曰	-11.8556
崖	-11.8556
雖欲從之末由也已	-11.8557
國不以利為利以義為利	-11.8558
囊	-11.8558
跳	-11.8558
曵	-11.8559
浄	-11.856
檟	-11.8561
懾	-11.8561
挺	-11.8562
坑	-11.8562
牛山之木	-11.8562
吾斯之未能信	-11.8563
出門如見大賔使民如承大祭	-11.8563
軾	-11.8563
劄	-11.8565
餐	-11.8566
裴	-11.8573
脊	-11.8573
蹲	-11.8575
專心致志	-11.8585
壝	-11.8754
肎	-11.8755
纒	-11.8756
所令反其所好	-11.8757
志至焉氣次焉	-11.8758
日講四書解義	-11.8759
世衰道微	-11.8759
衢	-11.876
秘	-11.876
僚	-11.876
榱	-11.8761
艴	-11.8762
扺	-11.8763
鸇	-11.8763
徳輶如毛	-11.8764
踊	-11.8765
過則勿憚改	-11.8765
仗	-11.8765
侑	-11.8765
幬	-11.8767
範我馳驅	-11.8767
贈内閣學士陸隴其撰	-11.8768
張狀元孟子傳卷第	-11.8768
酷	-11.8769
好古敏求	-11.8769
月無忘其所能	-11.877
無終食之間違仁	-11.8771
兢兢業業	-11.8771
號泣于旻天	-11.8773
𩔖	-11.8775
涂	-11.8775
辟與闢同	-11.8777
食稻衣錦	-11.8786
兔	-11.879
埀	-11.8796
摸	-11.8962
虆	-11.8967
温良恭儉讓	-11.897
晳	-11.8971
殛	-11.8972
綯	-11.8972
在邦必聞在家必聞	-11.8972
四書講義困勉録卷	-11.8973
滌	-11.8974
柙	-11.8975
以直養而無害	-11.8976
閻	-11.8977
翟	-11.8977
誰毁誰譽	-11.8978
濬	-11.8978
墳	-11.8978
蘭	-11.8979
碌	-11.8979
跂	-11.8983
忖	-11.8985
銷	-11.8987
冉牛閔子顔淵	-11.8987
不素餐兮	-11.8993
媒	-11.8994
雞鳴而起	-11.8995
鷩	-11.9
畞	-11.9007
肖	-11.9025
逵	-11.9184
觚哉觚哉	-11.9186
文王之囿方七十里	-11.9188
隳	-11.9188
施諸己而不願亦勿施於人	-11.9189
天未欲平治天下	-11.919
紜	-11.919
蘊	-11.919
以其兄之子妻之	-11.9192
殁	-11.9193
不知老之將至	-11.9195
雛	-11.9197
睟面盎背	-11.9198
尅	-11.9198
冩	-11.9198
皡	-11.9199
肻	-11.92
峰	-11.9201
分田制禄	-11.9202
吹	-11.9202
襯	-11.9203
犀	-11.9203
耿	-11.9203
懽	-11.9203
並育並行	-11.9204
逈	-11.9205
贐	-11.9205
懟	-11.9205
紘	-11.9207
不以三公易其介	-11.9209
閽	-11.9214
質諸鬼神而無疑	-11.9404
陪	-11.9407
恢	-11.9408
四書類提要	-11.941
汜	-11.941
麾	-11.9414
不言不笑不取	-11.9416
巧言令色鮮矣仁	-11.9416
袪	-11.9417
无	-11.9417
腰	-11.9418
狠	-11.942
没世而名不稱	-11.9421
撞	-11.9421
行有餘力則以學文	-11.9421
穫	-11.9421
僨	-11.9422
猖	-11.9422
詹	-11.9422
臥	-11.9422
顣	-11.9423
誑	-11.9423
隊	-11.9423
護	-11.9424
泛應曲當	-11.9424
罟擭陷阱	-11.9426
縕	-11.9426
勿軒熊氏曰	-11.9427
好徳如好色	-11.9427
宥	-11.9428
竅	-11.9429
捆	-11.9429
我欲仁斯仁至矣	-11.943
槖	-11.943
禓	-11.9443
襞	-11.9458
彖	-11.963
分崩離析	-11.9631
臾	-11.9633
陳善閉邪	-11.9636
祓	-11.9637
鞟	-11.9637
噬	-11.9638
偉	-11.9639
蠢	-11.9639
竿	-11.9641
不知命無以為君子	-11.9642
苐	-11.9645
象憂亦憂象喜亦喜	-11.9646
陣	-11.9647
販	-11.9647
血流漂杵	-11.9648
凋	-11.9649
鬰	-11.965
勑	-11.965
忸	-11.9652
繇	-11.9655
猗	-11.9659
頸	-11.9659
巍	-11.9662
緑	-11.9665
闞	-11.9848
鍼	-11.9865
郯	-11.9868
鄒肇敏曰	-11.9869
窮理盡性以至於命	-11.987
抹	-11.9872
燦	-11.9873
議禮制度考文	-11.9874
刁蒙吉	-11.9874
先行其言而後從之	-11.9875
疲	-11.9877
袖	-11.9878
公山不狃	-11.9878
戍	-11.9879
得志行乎中國	-11.9879
閧	-11.9879
不動而敬不言而信	-11.9881
顧諟天之明命	-11.9882
苙	-11.9882
袒裼裸裎	-11.9882
滲	-11.9883
瑗	-11.9883
鰥寡孤獨	-11.9884
斜	-11.9885
軔	-11.9885
耄	-11.9887
熏	-11.9888
四時行百物生	-11.9889
燒	-11.9891
非禮之禮非義之義	-11.9894
衝	-11.9905
鴞	-12.0095
鄉為身死而不受	-12.0096
摰	-12.0098
衣敝緼袍	-12.0101
片言可以折獄	-12.0102
罵	-12.0105
斯人也而有斯疾也	-12.0105
窟	-12.0106
漂	-12.0109
異乎三子者之撰	-12.011
春夏秋冬	-12.011
不復夢見周公	-12.0111
蹉	-12.0111
藩	-12.0111
饉	-12.0112
莫見乎隱莫顯乎微	-12.0113
榆	-12.0113
壮	-12.0114
矧	-12.0115
爨	-12.0116
弩	-12.0117
㩀	-12.0117
徹頭徹尾	-12.0117
紙	-12.0117
夏禮吾能言之	-12.0118
昵	-12.0118
摽	-12.0118
夘	-12.0121
怩	-12.0122
恊	-12.0123
簠	-12.013
斵	-12.0131
蹝	-12.0131
嗛	-12.0157
贖	-12.0345
腊	-12.0347
藪	-12.035
隷	-12.0351
幕	-12.0352
逓	-12.0353
天子不能以天下與人	-12.0354
闈	-12.0355
稠	-12.0357
啇	-12.0357
慿	-12.0357
盆	-12.0358
棟	-12.0358
痺	-12.0359
絮	-12.0359
鶻	-12.036
俄	-12.036
席不正不坐	-12.036
麓	-12.036
蹵	-12.0361
脂	-12.0361
幻	-12.0363
纑	-12.0363
躬自厚而薄責於人	-12.0363
君子思不出其位	-12.0364
民無所措手足	-12.0364
學如不及猶恐失之	-12.0365
吾末如之何也已矣	-12.0365
戹	-12.0366
言近而指逺	-12.0366
禹吾無間然矣	-12.0366
犢	-12.0366
杯	-12.0366
裸	-12.0367
莧	-12.0368
鈔	-12.0368
檀	-12.037
慄	-12.037
鉅	-12.0371
居處恭執事敬與人忠	-12.0371
咻	-12.0376
蕩蕩乎民無能名焉	-12.0377
旺	-12.0382
酸	-12.0382
靷	-12.0409
衿	-12.0589
癢	-12.0593
縚	-12.0594
蒯	-12.0595
㓙	-12.0596
套	-12.0597
犁	-12.0598
劍	-12.0599
塟	-12.0599
山節藻梲	-12.0599
無情者不得盡其辭	-12.0599
覬	-12.0601
湮	-12.0602
桞	-12.0602
鑑空衡平	-12.0602
儛	-12.0605
奬	-12.0606
三年無改於父之道可謂孝矣	-12.0607
自天子以至於庶人	-12.0607
蚩	-12.0607
瘁	-12.0608
猜	-12.061
笥	-12.0612
博學而篤志切問而近思	-12.0613
舂	-12.0614
十目所視十手所指	-12.0614
覈	-12.0614
邈	-12.0614
悞	-12.0615
朝聞道夕死可矣	-12.0615
陘	-12.0615
劑	-12.0615
掉	-12.0616
槃	-12.062
旻	-12.062
賄	-12.062
出疆必載質	-12.062
宓	-12.0622
吾不與祭如不祭	-12.0625
祭神如神在	-12.0625
梯	-12.0626
援而止之而止	-12.0627
帑	-12.0629
倐	-12.0632
軸	-12.0651
蹇	-12.0841
訣	-12.0847
禮樂征伐自諸侯出	-12.0852
課	-12.0854
袵	-12.0854
穩	-12.0856
籩	-12.0858
蕪	-12.0859
槐	-12.0859
鳶飛戾天魚躍于淵	-12.086
逾	-12.086
葦	-12.0861
之斯行綏之斯來動之斯和	-12.0862
萇	-12.0862
拖	-12.0862
危邦不入亂邦不居	-12.0862
渺	-12.0863
攖	-12.0864
糲	-12.0864
若聖與仁則吾豈敢	-12.0865
捄	-12.0866
揺	-12.0868
構	-12.0871
狙	-12.0871
燥	-12.0873
絀	-12.0873
橐	-12.0876
蜚	-12.0876
憒	-12.0876
泳	-12.0879
秬	-12.088
縞	-12.0884
棊	-12.0891
綬	-12.0901
迄	-12.1115
猷	-12.1119
不使不仁者加乎其身	-12.1119
色厲而内荏	-12.1121
遐	-12.1121
與衣狐貉者立	-12.1123
芮	-12.1124
屯	-12.1127
谿	-12.1129
鎡	-12.1129
髓	-12.1129
渙	-12.113
有不期然而然者	-12.1132
麀	-12.1132
論語集註大全卷	-12.1132
彷	-12.1132
廿	-12.1133
釀	-12.1133
晰	-12.1134
彿	-12.1134
揀	-12.1135
簫	-12.1135
䂓	-12.1136
避兄離母	-12.1136
鎛	-12.1137
攙	-12.1138
彩	-12.1139
戯	-12.1139
誡	-12.114
樂正雅頌各得其所	-12.1142
穏	-12.1142
言不必信行不必果	-12.1143
􁈭	-12.1143
𫝑	-12.1144
絕	-12.1146
黔	-12.1148
韍	-12.1166
淄	-12.1382
綢	-12.1382
肢	-12.1382
洒埽應對	-12.1383
左丘明恥之丘亦恥之	-12.1383
色取仁而行違	-12.1387
洵	-12.1388
胞	-12.1389
踏	-12.1391
用之則行舍之則藏	-12.1394
頎	-12.1397
座	-12.1397
非其義也非其道也	-12.1398
仁政必自經界始	-12.1398
韞	-12.1398
内省不疚夫何憂何懼	-12.1398
襟	-12.1401
阨窮而不憫	-12.1401
庇	-12.1402
閫	-12.1402
放辟邪侈	-12.1403
博學審問慎思明辨	-12.1403
恒胡登反	-12.1405
仰事俯育	-12.1405
灾	-12.1406
簟	-12.1408
豎	-12.1408
咽	-12.1411
泆	-12.1411
栻	-12.1412
餱	-12.1413
鈇	-12.1413
侏	-12.1414
地利不如人和	-12.1414
諠	-12.1416
廱	-12.1417
眊	-12.142
觽	-12.142
齕	-12.1422
觳	-12.1654
虹	-12.166
変	-12.1667
闌	-12.1668
寔	-12.167
讙	-12.1671
造次必於是顛沛必於是	-12.1671
摧	-12.1673
見不賢而内自省	-12.1673
孔子曰以吾從大夫之後不敢不告也	-12.1676
子貢欲去告朔之餼羊	-12.1677
猾	-12.1678
子罕言利與命與仁	-12.1678
有朋自逺方來	-12.1679
伶	-12.1679
騷	-12.168
何莫學夫詩	-12.168
賻	-12.1682
継	-12.1683
珪	-12.1683
綺	-12.1683
跟	-12.1684
倍上士上士倍中士中士倍下士下士與	-12.1684
浡	-12.1684
出入無時莫知其鄉	-12.1687
球	-12.169
犧	-12.169
妬	-12.169
剰	-12.1693
繒	-12.1704
纉	-12.1706
断	-12.1947
冗	-12.1953
耐	-12.1955
昩	-12.1955
吾聞西伯善養老者	-12.1957
迴	-12.1957
放鄭聲逺佞人	-12.1958
耀	-12.1958
籩豆之事則有司存	-12.1959
曼	-12.196
質勝文則野	-12.1961
申申夭夭	-12.1962
蝕	-12.1962
終日不食終夜不寢	-12.1963
徒法不能以自行	-12.1963
訾	-12.1964
周雖舊邦其命維新	-12.1964
桂	-12.1966
主癰疽與侍人瘠環	-12.1968
鷹	-12.1971
踖	-12.1971
麒	-12.1971
非天之降才爾殊	-12.1972
吾猶及史之闕文	-12.1973
天地之道可一言而盡	-12.1973
君仁莫不仁君義莫不義	-12.1976
貯	-12.1981
戢	-12.1982
手舞足蹈	-12.1983
汁	-12.199
孶	-12.1994
戒愼不睹恐懼不聞	-12.2232
徐岩泉曰	-12.2239
乃若其情則可以為善	-12.2242
子行三軍則誰與	-12.2246
蘧	-12.2247
寺	-12.2247
系	-12.2248
凡為天下國家有九經	-12.2248
𬒳	-12.2249
窶	-12.2249
踴	-12.225
鏤	-12.2251
苴	-12.2252
放僻邪侈	-12.2252
潑	-12.2253
烖	-12.2254
羖	-12.2255
閟	-12.2255
痿	-12.2256
舜何人也予何人也	-12.2256
喜怒哀樂之未發謂之中	-12.2257
蜂	-12.2257
君子去仁惡乎成名	-12.2257
諦	-12.2258
寥	-12.2258
曰未之思也夫何逺之有	-12.2259
煢	-12.226
天與賢則與賢天與子則與子	-12.226
自天子達於庶人	-12.226
剔	-12.226
桷	-12.2261
言必信行必果	-12.2261
滸	-12.2262
灑埽應對	-12.2262
饕	-12.2265
訢	-12.2265
迤	-12.2265
焄	-12.2266
嵩	-12.2266
玷	-12.2266
滚	-12.2267
韜	-12.2267
孕	-12.2268
在邦無怨在家無怨	-12.2268
窄	-12.2268
纘	-12.2269
罃	-12.227
貟	-12.2275
妁	-12.2276
剡	-12.2536
檻	-12.2546
彼長而我長之	-12.2549
璿	-12.2549
敕	-12.2549
裝	-12.2551
當仁不讓於師	-12.2553
乾道變化各正性命	-12.2553
聳	-12.2554
迅雷風烈必變	-12.2554
舉斯心加諸彼	-12.2555
猥	-12.2555
博學於文約之以禮亦可以弗畔矣夫	-12.2556
窬	-12.2558
陂	-12.2558
鴻鴈麋鹿	-12.2559
一隂一陽之謂道	-12.256
用我者吾其為東周乎	-12.256
訝	-12.256
哺	-12.256
很	-12.2563
寘	-12.2564
彎	-12.2565
正其衣冠尊其瞻視	-12.2565
非徒無益而又害之	-12.2567
君子不以紺緅飾	-12.2569
糓	-12.257
檐	-12.2571
不賢者雖有此不樂	-12.2573
鄕	-12.2575
曰王之好樂甚則齊	-12.2575
韎	-12.2578
乱	-12.2579
佃	-12.2582
蔟	-12.2586
縐	-12.2587
不明乎善不誠乎身	-12.286
鰌	-12.286
仭	-12.2866
孔子對曰言不可以若是其幾也	-12.2866
閱	-12.2866
址	-12.2867
祕	-12.2867
陳成子弑簡公	-12.2868
我善養吾浩然之氣	-12.2868
君子有三樂而王天下不與存焉	-12.2869
謾	-12.287
𠂻	-12.2871
婁	-12.2871
痒	-12.2872
軟	-12.2872
生事之以禮死葬之以禮祭之以禮	-12.2873
匵	-12.2874
耗	-12.2874
凊	-12.2875
彥	-12.2875
怵	-12.2876
已所不欲勿施於人	-12.2876
貍	-12.2877
雖之夷狄不可棄也	-12.2877
炫	-12.2877
脅肩諂笑	-12.2877
瓊	-12.2878
以及禽獸而功不至於百姓者獨何與	-12.2878
君子道者三我無能焉	-12.2878
知之為知之不知為不知	-12.2879
叶	-12.288
恂	-12.2881
墾	-12.2881
蒞	-12.2883
䢵	-12.2883
蕤	-12.2884
幷	-12.2885
莖	-12.2895
訴	-12.2896
孺	-12.3143
蘆	-12.3164
皁	-12.3179
斟	-12.318
翺	-12.3182
𥙷	-12.3182
寬	-12.3185
㝷	-12.3187
瓘	-12.3188
壹是皆以修身為本	-12.3188
畛	-12.3189
屺	-12.319
称	-12.319
壙	-12.3191
嘿	-12.3192
据	-12.3192
罹	-12.3193
功烈如彼其卑	-12.3193
廀	-12.3194
俚	-12.3194
逡	-12.3194
㤀	-12.3194
隴	-12.3195
充類至義之盡	-12.3195
旃	-12.3196
撙	-12.3196
忝	-12.3196
埤	-12.3196
癩	-12.3197
子路使子羔為費宰	-12.3197
郝	-12.3197
剝	-12.3198
汩	-12.3198
冲	-12.3198
攜	-12.32
牣	-12.3201
瞻之在前忽焉在後	-12.3201
梗	-12.3201
鷄	-12.3202
妣	-12.3203
螬	-12.3205
狐貉之厚以居	-12.3206
殍	-12.3206
舜有臣五人而天下治	-12.3212
眂	-12.3229
靮	-12.3513
鵝	-12.3514
搖	-12.3516
袷	-12.3516
兜	-12.3518
筏	-12.3518
鐡	-12.3518
恔	-12.3518
君不君臣不臣父不父子不子	-12.3518
蠧	-12.3518
廏	-12.3519
郉	-12.352
仰不愧俯不怍	-12.3521
子曰聽訟吾猶人也必也使無訟乎	-12.3521
觴	-12.3522
挑	-12.3523
願無伐善無施勞	-12.3524
詩云永言配命自求多福	-12.3524
船	-12.3526
燼	-12.3526
䋲	-12.3526
伎	-12.3527
関	-12.3528
蔣	-12.353
㢤	-12.353
壟	-12.353
瞶	-12.353
株	-12.353
岸	-12.3531
勅	-12.3531
浙	-12.3532
劫	-12.3533
邶	-12.3533
刄	-12.3533
夫何使我至於此極也	-12.3536
栘	-12.3536
翩	-12.3536
鍵	-12.3536
魁	-12.3537
戎狄是膺荆舒是懲	-12.3537
瞞	-12.3539
茨	-12.354
孔子曰殷有三仁焉	-12.354
璜	-12.3541
䳘	-12.3541
謫	-12.3543
邃	-12.3544
堕	-12.3547
銅	-12.3549
勒	-12.355
街	-12.3551
竪	-12.3853
攻其惡無攻人之惡	-12.3858
三年無改於父之道	-12.3862
豈若匹夫匹婦之為諒也	-12.3862
食無求飽居無求安	-12.3862
雖曰未學吾必謂之學矣	-12.3862
罔之生也幸而免	-12.3863
芑	-12.3865
鼃	-12.3865
與朋友交言而有信	-12.3865
煬	-12.3867
慱	-12.3868
攣	-12.3868
亾	-12.3868
性相近也習相逺也	-12.3869
嬉	-12.3869
龎	-12.387
兾	-12.387
㢲	-12.387
綂	-12.387
雎	-12.3871
怛	-12.3872
憧	-12.3873
曰得其所哉得其所哉	-12.3873
辭尊居卑辭富居貧	-12.3873
杳	-12.3873
嘬	-12.3873
孩提之童無不知愛其親	-12.3873
為法於天下可傳於後世	-12.3874
疋	-12.3874
其大者不賢者識其小者莫不有文	-12.3875
兀	-12.3875
蒍	-12.3876
事其大夫之賢者友其士之仁者	-12.3878
如用之則吾從先進	-12.3878
赫兮喧兮	-12.3879
耑	-12.3879
齊景公田招虞人以旌不至將殺之	-12.388
跛	-12.3881
以其所愛及其所不愛	-12.3882
宋趙順孫撰	-12.3883
駑	-12.3883
蒿	-12.3884
翰	-12.3886
鋸	-12.3888
吉月必朝服而朝	-12.3889
扁	-12.389
斑	-12.3891
翣	-12.4212
矇	-12.4213
養心莫善於寡欲	-12.4216
村	-12.4219
頰	-12.4219
㒺	-12.4222
緘	-12.4223
梢	-12.4223
薇	-12.4223
也使先知覺後知使先覺覺後覺	-12.4224
叠	-12.4226
鋤	-12.4226
蓁	-12.4226
有不善未嘗不知知之未嘗復行	-12.4227
周監於二代郁郁乎文哉	-12.4228
雁	-12.4228
扇	-12.4228
其義則丘竊取之矣	-12.4229
暱	-12.4229
摶	-12.4233
謐	-12.4234
跲	-12.4234
芬	-12.4235
予也有三年之愛於其父母乎	-12.4235
姣	-12.4235
阼	-12.4236
姊	-12.4236
償	-12.4237
紬	-12.4237
疾沒世而名不稱	-12.4237
不逆詐不億不信	-12.4238
田獵於此百姓聞王車馬之音見羽旄之	-12.4239
子曰無欲速無見小利	-12.4241
黶	-12.4241
剽	-12.4242
椎	-12.4244
隧	-12.425
箱	-12.4251
繢	-12.4253
肘	-12.4258
眾	-12.4538
鄄	-12.4572
䑛	-12.4577
逭	-12.458
頫	-12.4587
慣	-12.4588
牾	-12.459
子張問政子曰居之無倦行之以忠	-12.4591
肸	-12.4591
霆	-12.4592
合性與知覺有心之名	-12.4593
某在斯某在斯	-12.4594
挟	-12.4594
趍	-12.4595
生而知之者上也學而知之者次也	-12.4595
物有本末事有終始知所先後則近道矣	-12.4595
摭	-12.4595
滔	-12.4596
潁	-12.4597
賢者在位能者在職	-12.4597
漓	-12.4597
柞	-12.4598
黨之小子狂簡斐然成章不知所以裁之	-12.4598
學問之道無他求其放心而已矣	-12.4599
天作孽猶可違自作孽不可活此之謂也	-12.46
夫子循循然善誘人	-12.46
洿	-12.46
邦有道不廢邦無道免於刑戮	-12.4601
濱聞文王作興曰盍歸乎	-12.4602
壻	-12.4603
是可忍也孰不可忍也	-12.4604
殫	-12.4604
子貢曰文武之道未墜於地在人賢者識	-12.4604
庶人在官者同禄禄足以代其耕也	-12.4604
如不可求從吾所好	-12.4605
蘄	-12.4605
岀	-12.4606
紓	-12.4606
輶	-12.4606
以不賢人之招招賢人	-12.4606
卹	-12.4607
崇國文忠公臨安府鹽官張九成子韶	-12.4608
請野九一而助國中什一使自賦	-12.4608
躡	-12.4608
莾	-12.4609
悽	-12.4611
君子固窮小人窮斯濫矣	-12.4611
悛	-12.4611
富有四海之内宗廟饗之子孫保之	-12.4612
劈	-12.4612
愴	-12.4612
豉	-12.4612
黿	-12.4614
父子不相見兄弟妻子離散	-12.4614
儔	-12.4615
硜	-12.4615
郈	-12.4616
上祀先公以天子之禮	-12.4616
葱	-12.4617
蹯	-12.4618
陳司敗問昭公知禮乎	-12.4626
伹	-12.4626
綦	-12.4626
傒	-12.4947
紲	-12.496
痔	-12.4964
酈	-12.4967
凜	-12.4974
籔	-12.4976
刖	-12.4978
跋	-12.4978
隻	-12.4978
鎧	-12.4978
台	-12.4979
懌	-12.4979
𥙿	-12.4979
不患無位患所以立	-12.4979
老者安之朋友信之少者懷之	-12.4979
岱	-12.498
濓	-12.498
跬	-12.4981
聖人復起不易吾言	-12.4982
人莫不飲食也鮮能知味也	-12.4982
覜	-12.4983
渝	-12.4983
以能問於不能以多問於寡有若無實若	-12.4983
其本亂而末治者否矣	-12.4984
帯	-12.4984
子不語怪力亂神	-12.4985
殞	-12.4985
多識於鳥獸草木之名	-12.4985
聞一善言見一善行	-12.4985
糟	-12.4986
今之大夫今之諸侯之罪人也	-12.4986
糒	-12.4987
詈	-12.4988
周因於殷禮所損益可知也	-12.4988
孟氏使陽膚為士師	-12.4989
灸	-12.499
志士不忘在溝壑勇士不忘喪其元	-12.499
雞豚狗彘之畜無失其時	-12.4992
吠	-12.4992
暘	-12.4992
面而征西夷怨南面而征北狄怨曰奚	-12.4993
錐	-12.4993
蛙	-12.4994
闘	-12.4994
蜃	-12.4994
燎	-12.4995
躬行君子則吾未之有得	-12.4995
脾	-12.4995
兠	-12.4995
鱉	-12.4996
沽酒市脯不食	-12.4996
膽	-12.4997
鏃	-12.4998
昂	-12.4999
閤	-12.5005
杭	-12.5005
鞠	-12.5006
嚶	-12.501
斆	-12.5019
摺	-12.5019
軓	-12.5026
劵	-12.535
埽	-12.5364
儕	-12.5365
自經於溝瀆而莫之知也	-12.5367
夏后氏五十而貢殷人七十而助周人百	-12.5369
知止而后有定定而后能	-12.5369
致中和天地位焉萬物育焉	-12.537
拆	-12.5372
愕	-12.5373
啄	-12.5374
饘	-12.5375
刮	-12.5375
忙	-12.5375
雖有粟吾得而食諸	-12.5375
騰	-12.5376
傚	-12.5377
由之瑟奚為於丘之門	-12.5377
蔓	-12.5377
龠	-12.5378
升車必正立執綏	-12.5379
黈	-12.5379
仙	-12.538
氾	-12.538
王者之迹熄而詩亡詩亡然後春秋作	-12.5381
尢	-12.5382
劭	-12.5382
有一言而可以終身行之者乎	-12.5385
一日用其力於仁矣乎我未見力不足者	-12.5385
惽	-12.5385
别長幼有序朋友有信	-12.5385
割雞焉用牛刀	-12.5386
先正其心欲正其心者先誠其意	-12.5386
獮	-12.5387
嵎	-12.5387
非其君不事非其民不使治則進亂則退	-12.5387
籌	-12.5388
描	-12.5388
揔	-12.5389
聒	-12.5389
老者衣帛食肉黎民不飢不寒	-12.5389
廸	-12.5389
君子賢其賢而親其親	-12.5391
菟	-12.5391
鵞	-12.5391
斯民也三代之所以直道而行也	-12.5391
有斐君子終不可諠兮	-12.5391
天之未喪斯文也匡人其如予何	-12.5391
擭	-12.5392
㨿	-12.5392
煮	-12.5393
蟄	-12.5393
妹	-12.5393
富與貴是人之所欲也	-12.5393
姞	-12.5395
鏘	-12.5397
老吾老以及人之老幼吾幼以及人之幼	-12.5398
蜼	-12.5399
裎	-12.54
虔	-12.5401
盂	-12.5403
喟	-12.5771
衎	-12.5781
墠	-12.5782
䑕	-12.5788
季氏使閔子騫為費宰	-12.5789
舘	-12.5791
􁂯	-12.5791
臟	-12.5792
陥	-12.5792
老者安之朋友信之少者懐之	-12.5793
穪	-12.5794
披	-12.5794
泌	-12.5794
邸	-12.5795
溷	-12.5795
恙	-12.5795
唇	-12.5795
孔子沐浴而朝告於哀公	-12.5796
事父母能竭其力事君能致其身	-12.5797
陜	-12.5797
君子喻於義小人喻於利	-12.5797
道之將行也與命也道之將廢也與命也	-12.5798
其所厚者薄而其所薄者厚未之有也	-12.5798
弃	-12.5799
螻	-12.5799
名不正則言不順言不順則事不成	-12.5799
欲誠其意者先致其知致知在格物	-12.58
誚	-12.58
恫	-12.58
子路有聞未之能行唯恐有聞	-12.58
上老老而民興孝上長長而民興弟	-12.58
昻	-12.58
贏	-12.5801
慢令致期謂之賊	-12.5801
吾未見能見其過而内自訟	-12.5801
賾	-12.5802
們	-12.5802
俠	-12.5802
庸徳之行庸言之謹	-12.5802
窳	-12.5802
許子必種粟而後食乎	-12.5802
酖	-12.5803
誌	-12.5804
彜	-12.5804
躱	-12.5805
所求乎子以事父未能	-12.5805
催	-12.5805
駿	-12.5805
及其長也無不知敬其兄	-12.5806
陬	-12.5806
朗	-12.5806
猝	-12.5806
濂	-12.5807
瞿	-12.5807
刑于寡妻至于兄弟以御于家邦	-12.5808
濤	-12.5808
子夏之門人問交於子張	-12.5809
徭	-12.581
私覿愉愉如也	-12.581
大全辨芑山張氏曰	-12.581
好仁不好學其蔽也愚	-12.5811
銀	-12.5812
學而不思則罔思而不學則殆	-12.5812
簇	-12.5812
君子欲訥於言而敏於行	-12.5813
魯無君子者斯焉取斯	-12.5814
堊	-12.5815
輢	-12.5816
瞰	-12.5816
出則事公卿入則事父兄	-12.5816
痼	-12.5816
良人出則必饜酒肉而後反	-12.5816
酧	-12.5819
剋	-12.5819
莆	-12.5821
卬	-12.5821
胡炳文撰朱子集註	-12.5822
擇其善者而從之多見而識之知之次也	-12.5823
珩	-12.5823
芝	-12.5824
湎	-12.5824
曰今日我疾作不可以執弓	-12.5827
惬	-12.5828
碧	-12.5829
抔	-12.5831
緌	-12.5849
吾未見好德如好色者也	-12.6211
泮	-12.6215
汰	-12.622
廚	-12.6224
吾十有五而志于學	-12.6225
蹟	-12.6226
寰	-12.6226
甄	-12.6227
嶺	-12.6227
煌	-12.6228
迥	-12.6229
譈	-12.623
公叔文子之臣大夫僎與文子同升諸公	-12.623
襃	-12.6231
从	-12.6231
鎔	-12.6231
車馬衣輕裘與朋友共敝之而無憾	-12.6232
攀	-12.6232
數罟不入洿池	-12.6232
欲治其國者先齊其家欲齊其家者先	-12.6233
岩	-12.6233
椅	-12.6233
后國治國治而后天下平	-12.6233
如有政雖不吾以吾其與聞之	-12.6233
拳	-12.6234
胾	-12.6234
恚	-12.6235
侍食於君君祭先飯	-12.6235
泝	-12.6236
而后知至知至而后意誠意誠而后心正	-12.6236
蚋	-12.6236
好直不好學其蔽也絞	-12.6236
古者民有三疾今也或是之亡也	-12.6237
䜟	-12.6237
勞之來之匡之直之輔之翼之	-12.6237
舜相堯二十有八載	-12.6237
筐	-12.6237
蟠	-12.6237
耼	-12.6237
蚔	-12.6237
以善及人而信從者衆	-12.6238
好好之民之所惡惡之此之謂民之父母	-12.6239
篤於親則民興於仁故舊不遺則民不偷	-12.6239
堂堂乎張也難與並為仁矣	-12.6239
戒謹不睹恐懼不聞	-12.6239
淡而不厭簡而文温而理	-12.6239
悚	-12.624
忠信行不篤敬雖州里行乎哉	-12.624
人而不仁如禮何人而不仁如樂何	-12.6241
孟子曰伯夷辟紂居北海之	-12.6241
惲	-12.6241
箸	-12.6241
掾	-12.6241
食飲水曲肱而枕之樂亦在其中矣	-12.6241
先進於禮樂野人也後進於禮樂君子也	-12.6242
鴆	-12.6242
弤	-12.6243
岡	-12.6243
伊尹耕於有莘之野	-12.6244
燖	-12.6244
蹌	-12.6244
黯	-12.6246
如有所譽者其有所試矣	-12.6247
縂	-12.6248
餕	-12.6248
針	-12.6248
以其所不愛及其所愛也	-12.6249
父母之不我愛於我何哉	-12.6251
疾首蹙頞而相告曰吾王之好	-12.6251
誾	-12.6251
皞	-12.6251
狸	-12.6253
藿	-12.6253
堆	-12.6254
唤	-12.6255
茶	-12.6256
學射於尹公之他尹公之他學射於	-12.6261
武王曰予有亂臣十人	-12.6265
褎	-12.6272
畷	-12.6672
牘	-12.6676
狡	-12.6678
詮	-12.6678
槀	-12.668
隰	-12.668
鬨	-12.668
脤	-12.6681
昔者吾友嘗從事於斯矣	-12.6681
单	-12.6682
豷	-12.6682
棬	-12.6683
斉	-12.6684
子問公叔文子於公明賈曰	-12.6684
遙	-12.6686
非公事未嘗至於偃之室	-12.6686
周有大賚善人是富	-12.6687
行有不慊於心則餒矣	-12.6687
予不得視猶子也非我也夫二三子也	-12.6687
為人父止於慈與國人交止於信	-12.6688
慷	-12.6689
囂	-12.6689
霧	-12.6689
孟子對曰昔者大王居邠狄人侵之	-12.669
安見方六七十如五六十而非邦也者	-12.669
所藏乎身不恕而能喻諸人者未之有也	-12.669
矢人豈不仁於函人哉	-12.669
我不欲人之加諸我也吾亦欲無加諸人	-12.669
見賢而不能舉舉而不能先	-12.6691
不講聞義不能徙不善不能改是吾憂也	-12.6691
見之雖少必作過之必趨	-12.6691
君子有大道必忠信以得之驕泰以失之	-12.6691
言忠信行篤敬雖蠻貊之邦行矣言不	-12.6691
姪	-12.6692
可與適道未可與立可與立未可與權	-12.6692
不知足之蹈之手之舞之	-12.6692
所惡於上毋以使下所惡於下毋以事上	-12.6693
黽	-12.6693
貝	-12.6694
天下之本在國國之本在家家之本在身	-12.6694
亦悖而入貨悖而入者亦悖而出	-12.6694
貊	-12.6695
璟	-12.6695
顰	-12.6695
久則久可以速則速	-12.6695
子見齊衰者冕衣裳者與瞽者	-12.6695
猶之與人也出納之吝謂之有司	-12.6695
十一月徒杠成十二月輿梁成	-12.6696
署	-12.6696
有盛饌必變色而作	-12.6697
我非生而知之者好古敏以求之者也	-12.6697
歃	-12.6697
惶	-12.6697
媸	-12.6697
厩	-12.6697
曰可者與之其不可者拒之	-12.6698
有事弟子服其勞有酒食先生饌	-12.6698
王如改諸則必反予	-12.6698
挨	-12.6698
煎	-12.67
子曰不得中行而與之必也狂狷乎	-12.67
之將喪斯文也後死者不得與於斯文也	-12.6701
拗	-12.6701
净	-12.6703
立不中門行不履閾	-12.6703
帨	-12.6704
醤	-12.6704
聿	-12.6704
肄	-12.6705
瓚	-12.6706
鑊	-12.6708
汭	-12.6709
煑	-12.6709
見齊衰者雖狎必變	-12.671
四書講義困勉錄卷	-12.6712
祛	-12.6717
杓	-12.6718
軹	-12.6718
綠	-12.6723
臝	-12.7138
帙	-12.7145
樊遲從遊於舞雩之下	-12.7146
逕	-12.715
燠	-12.7153
瞀	-12.7153
皙	-12.7154
駮	-12.7155
㰱	-12.7155
之心仁之端也羞惡之心義之端也	-12.7156
好犯上而好作亂者未之有也	-12.7156
賸	-12.7157
霽	-12.7157
紾兄之臂而奪之食	-12.7158
在下位不獲乎上民不可得而治矣	-12.7158
㤙	-12.7158
彚	-12.7158
植桑種田育雞豚畜狗彘	-12.7158
衆物之表裏精粗無不到	-12.7159
巴	-12.7159
今不取後世必為子孫憂	-12.7159
瞬	-12.716
朝與下大夫言侃侃如也	-12.7162
君止於仁為人臣止於敬為人子止於孝	-12.7162
子在齊聞韶三月不知肉味	-12.7162
棋	-12.7162
莫敢不敬上好義則民莫敢不服上好信	-12.7163
以吾從大夫之後不可徒行也	-12.7163
季路問事鬼神子曰未能事人焉能事鬼	-12.7164
夫子之得邦家者所謂立之斯立道	-12.7164
撇	-12.7164
豭	-12.7164
曰詩云如切如磋如琢如磨其斯之謂與	-12.7164
異邦人稱之亦曰君夫人	-12.7164
帝臣不蔽簡在帝心	-12.7166
纍	-12.7166
不以四方之食供簿正	-12.7166
鵲	-12.7166
馹	-12.7166
斡	-12.7166
事之云乎豈曰友之云乎	-12.7166
而不仁者有矣夫未有小人而仁者也	-12.7166
不義而富且貴於我如浮雲	-12.7167
溟	-12.7167
藁	-12.7167
線	-12.7167
夫仁天之尊爵也人之安宅也	-12.7167
不行知和而和不以禮節之亦不可行也	-12.7168
曰陳恒弑其君請討之	-12.7168
子貢曰子如不言則小子何述焉	-12.7169
儗	-12.7169
瘍	-12.7169
方里而井井九百	-12.7169
鈃	-12.7169
嶲	-12.7169
之夜以繼日幸而得之坐以待旦	-12.717
怙	-12.717
孟莊子之孝也其他可能也其不	-12.717
頥	-12.717
梲	-12.717
愾	-12.7171
使吏治其國而納其貢	-12.7171
迪	-12.7171
儼然人望而畏之斯不亦威而不猛乎	-12.7171
一家仁一國興仁一家讓一國興讓	-12.7172
枉道而事人何必去父母之邦	-12.7172
四海困窮天禄永終	-12.7172
嬪	-12.7173
雝	-12.7173
學不厭智也教不倦仁也	-12.7174
於前也在輿則見其倚於衡也夫然後行	-12.7174
巍巍乎舜禹之有天下也而不與焉	-12.7174
欝	-12.7174
事不成則禮樂不興禮樂不興則	-12.7174
怖	-12.7174
拜下禮也今拜乎上泰也雖違衆吾從下	-12.7175
抑為之不厭誨人不倦則可謂云爾已矣	-12.7175
穡	-12.7175
子曰可以為難矣仁則吾不知也	-12.7176
秦誓曰若有一个臣	-12.7176
飢色野有餓莩此率獸而食人也	-12.7177
凶服者式之式負版者	-12.7177
春省耕而補不足秋省斂而助不給	-12.7177
劔	-12.7178
畋	-12.7178
厭然揜其不善而著其善	-12.7178
志士仁人無求生以害仁有殺身以成仁	-12.7178
子曰弗如也吾與女弗如也	-12.7179
予未得為孔子徒也予私淑諸人也	-12.7179
肹	-12.7179
毓	-12.718
仁者必有勇勇者不必有仁	-12.7182
聵	-12.7182
罥	-12.7183
帝使其子九男二女	-12.7183
娣	-12.7183
脡	-12.7184
域民不以封疆之界	-12.7185
鄉人之善者好之其不善者惡之	-12.7188
搢	-12.7188
灋	-12.7195
芾	-12.7212
仄	-12.7621
茲	-12.7642
鄘	-12.7649
鍊	-12.7653
牴	-12.7653
仰不愧於天俯不怍於人	-12.7654
曰二吾猶不足如之何其徹也	-12.7655
炯	-12.7656
君子有三戒少之時血氣未定	-12.7657
壘	-12.7657
覷	-12.7658
尙	-12.7658
吾學周禮今用之吾從周	-12.7659
夫聞也者色取仁而行違居之不疑	-12.7659
好人之所惡惡人之所好是謂拂人之性	-12.7659
廖	-12.7659
百姓足君孰與不足百姓不足君孰與足	-12.7659
容城孫竒逢撰	-12.766
子噲不得與人燕子之不得受燕於子噲	-12.766
凡有四端於我者知皆擴而充之	-12.766
有人此有土有土此有財有財此有用	-12.766
不以兵車管仲之力也如其仁如其仁	-12.7661
㸑	-12.7661
努	-12.7661
告於王而私與之吾子之	-12.7662
學而不厭誨人不倦何有於我哉	-12.7662
簞食壺漿以迎王師	-12.7662
仁言不如仁聲之入人深也	-12.7662
疾君視之東首加朝服拖紳	-12.7663
扼	-12.7663
捕	-12.7663
之節不可廢也君臣之義如之何其廢之	-12.7664
敢問死曰未知生焉知死	-12.7664
劇	-12.7664
聾	-12.7664
子曰求也退故進之由也兼人故退之	-12.7664
强恕而行求仁莫近焉	-12.7664
加之以師旅因之以饑饉	-12.7665
君在踧踖如也與與如也	-12.7665
澡	-12.7665
問聞斯行諸子曰聞斯行之赤也惑敢問	-12.7665
猶質也質猶文也虎豹之鞟猶犬羊之鞟	-12.7665
子張問士何如斯可謂之達矣	-12.7666
稱諸異邦曰寡小君	-12.7666
冉有問聞斯行諸子曰聞斯行之	-12.7666
埸	-12.7666
已欲立而立人已欲達而達人	-12.7666
鄫	-12.7666
富而可求也雖執鞭之士吾亦為之	-12.7666
文勝質則史文質彬彬然後君子	-12.7667
子曰有父兄在如之何其聞斯行之	-12.7667
或學而知之或困而知之及其知之一也	-12.7667
臧氏之子焉能使予不遇哉	-12.7667
子曰才不才亦各言其子也鯉	-12.7668
於我空空如也我叩其兩端而竭焉	-12.7668
有臣吾誰欺欺天乎	-12.7668
所謂大臣者以道事君不可則止	-12.7669
揷	-12.7669
熬	-12.7669
不幸短命死矣今也則亡未聞好學者也	-12.7669
峙	-12.7669
其或繼周者雖百世可知也	-12.767
面盎於背施於四體四體不言而喻	-12.767
不好學其蔽也亂好剛不好學其蔽也狂	-12.767
其生也榮其死也哀如之何其可及也	-12.767
待孔子曰若季氏則吾不能以季孟之	-12.7671
公西華曰正唯弟子不能學也	-12.7671
敢問其次曰言必信行必果硜硜然小人	-12.7671
他日又獨立鯉趨而過庭曰學禮乎	-12.7671
而今而後吾知免夫小子	-12.7671
䰟	-12.7671
瘳	-12.7671
兌	-12.7672
峭	-12.7672
彤	-12.7672
火吾見蹈而死者矣未見蹈仁而死者也	-12.7672
君子病無能焉不病人之不已知也	-12.7672
鞶	-12.7672
夫子之求之也其諸異乎人之求之與	-12.7672
出降一等逞顔色怡怡如也	-12.7672
公事畢然後敢治私事	-12.7673
閃	-12.7673
一怒而諸侯懼安居而天下熄	-12.7673
勦	-12.7673
䨇	-12.7673
祭肉不出三日出三日不食之矣	-12.7673
羶	-12.7674
故君子名之必可言也言之必可行也	-12.7674
惡得有其一以慢其二哉	-12.7674
閼	-12.7674
賤是人之所惡也不以其道得之不去也	-12.7674
欬	-12.7674
子貢問曰何如斯可謂之士矣子曰行	-12.7674
祝鮀治宗廟王孫賈治軍旅夫如是奚其	-12.7674
賜也女以予為多學而識之者與	-12.7675
逍	-12.7675
五畝之宅樹之以桑五十者可以衣帛矣	-12.7675
少也賤故多能鄙事君子多乎哉不多也	-12.7675
孔子豈不欲中道哉不可必得故思其次	-12.7676
迁	-12.7676
姑舍女所學而從我	-12.7676
孟武伯問子路仁乎子曰不知也	-12.7677
邐	-12.7677
謹庠序之教申之以孝悌之義頒白者	-12.7677
攝齊升堂鞠躬如也屏氣似不息者	-12.7677
擺	-12.7678
吾不得而見之矣得見君子者斯可矣	-12.7678
愍	-12.7678
之於天下也無適也無莫也義之與比	-12.7679
堵	-12.768
厮	-12.768
掬	-12.768
㐫	-12.768
肉雖多不使勝食氣	-12.7681
仲弓曰雍雖不敏請事斯語矣	-12.7681
卑宫室而盡力乎溝洫	-12.7683
胼	-12.7685
回也聞一以知十賜也聞一以知二	-12.7685
蔥	-12.7687
謂武盡美矣未盡善也	-12.7688
舄	-12.7696
必有寢衣長一身有半	-12.7699
鹹	-12.7703
献	-12.816
或乞醯焉乞諸其鄰而與之	-12.817
拚	-12.8171
映	-12.8172
縈	-12.8175
液	-12.8177
怨天不尤人下學而上達知我者其天乎	-12.8178
召忽死之管仲不死曰未仁乎	-12.8178
知所以治人則知所以治天下國家矣	-12.8178
今此下民或敢侮予	-12.8179
孔子對曰君使臣以禮臣事君以忠	-12.8179
婣	-12.8181
餌	-12.8182
退而省其私亦足以發回也不愚	-12.8182
謡	-12.8183
節彼南山維石巖巖赫赫師尹民具爾瞻	-12.8183
以萬乗之國伐萬乗之國	-12.8183
子曰吾與回言終日不違如愚	-12.8183
子曰管仲相桓公霸諸侯一匡天下	-12.8183
舜有天下選於衆舉臯陶不仁者	-12.8183
懋	-12.8184
季康子問仲由可使從政也與	-12.8184
榜	-12.8185
則四方之民襁負其子而至矣焉用稼	-12.8185
稔	-12.8185
子路曰昔者由也聞諸夫子曰親於其	-12.8185
君賜食必正席先嘗之	-12.8185
吃	-12.8186
而學之又其次也困而不學民斯為下矣	-12.8186
尖	-12.8186
覊	-12.8186
子曰禮云禮云玉帛云乎哉	-12.8187
翫	-12.8187
子曰夫召我者而豈徒哉如有	-12.8187
顔淵閔子騫冉伯牛仲弓言語	-12.8188
溉	-12.8188
其何傷於日月乎多見其不知量也	-12.8188
中天下而立定四海之民君子樂之	-12.8188
找	-12.8188
子為政焉用殺子欲善而民善矣	-12.8188
鄉人飲酒杖者出斯出矣	-12.8188
籬	-12.8188
絆	-12.8189
他人之賢者丘陵也猶可踰也仲尼	-12.8189
廻	-12.8189
丘也聞有國有家者不患寡而患不均	-12.8189
塹	-12.819
仲弓曰居敬而行簡以臨其民不亦可乎	-12.819
事思敬疑思問忿思難見得思義	-12.819
季文子三思而後行子聞之曰再斯可矣	-12.819
師冕出子張問曰與師言之道與	-12.8191
恤孤而民不倍是以君子有絜矩之道也	-12.8191
洋洋乎如在其上如在其左右	-12.8191
軋	-12.8191
子曰何傷乎亦各言其志也	-12.8191
且予與其死於臣之手也無	-12.8191
子之燕居申申如也夭夭如也	-12.8191
友直友諒友多聞益矣	-12.8191
腎	-12.8191
所惡於前毋以先後所惡於後毋以從前	-12.8192
父母全而生之子全而歸之	-12.8192
君子哉蘧伯玉邦有道則仕邦無道則可	-12.8192
焉有仁人在位罔民而可為也	-12.8192
嚼	-12.8192
御子告之曰孟孫問孝於我我對曰無違	-12.8193
路問曰子見夫子乎丈人曰四體不勤五	-12.8194
今由與求也可謂具臣矣	-12.8194
勇而無禮則亂直而無禮則絞	-12.8194
有子曰信近於義言可復也	-12.8194
冉有曰夫子欲之吾二臣者皆不欲也	-12.8194
􁂒	-12.8195
喝	-12.8196
朕躬有罪無以萬方萬方有罪罪在朕躬	-12.8196
刈	-12.8196
眠	-12.8196
孺悲欲見孔子孔子辭以疾	-12.8196
燈	-12.8196
長國家而務財用者必自小人	-12.8196
孔子曰唐虞禪夏后殷周繼其義一也	-12.8196
始條理者智之事也終條理者聖之事也	-12.8196
爐	-12.8196
沮桀溺耦而耕孔子過之使子路問津焉	-12.8197
睫	-12.8197
子曰敏而好學不恥下問是以謂之文也	-12.8197
覘	-12.8197
璣	-12.8197
求也何如子曰求也千室之邑百	-12.8197
言寡尤行寡悔禄在其中矣	-12.8197
矣彼為善之小人之使為國家	-12.8197
相維辟公天子穆穆奚取於三家之堂	-12.8197
斷斷兮無他技其心休休焉其如有容焉	-12.8197
赤也何如子曰赤也束帶立於朝可使與	-12.8198
子路曰有是哉子之迂也奚其正	-12.8198
昔者偃也聞諸夫子曰君子學道則愛人	-12.8198
子貢曰固天縱之將聖又多能也	-12.8198
弟子曰吾何執執御乎執射乎吾執御矣	-12.8198
王庶幾改之予日望之	-12.8198
人歸女樂季桓子受之三日不朝孔子行	-12.8199
黷	-12.8199
未有上好仁而下不好義者也未有好義	-12.8199
禮與其奢也寧儉喪與其易也寧戚	-12.8199
塡	-12.8199
蹤	-12.8199
髡	-12.8199
悵	-12.82
子曰切切偲偲怡怡如也可謂士矣	-12.82
鏝	-12.82
正其誼不謀其利明其道不計其功	-12.8201
㷀	-12.8201
輦	-12.8201
君子謀道不謀食耕也餒在其中矣學也	-12.8201
七十者可以食肉矣百畝之田勿奪其時	-12.8202
欲速則不達見小利則大事不成	-12.8202
莬	-12.8202
舉爾所知爾所不知人其舍諸	-12.8202
祜	-12.8202
寇或曰寇至盍去諸	-12.8203
張問善人之道子曰不踐迹亦不入於室	-12.8204
子與人歌而善必使反之而後和之	-12.8204
大車無輗小車無軏其何以行之哉	-12.8205
椒	-12.8206
鬴	-12.8206
出則弟謹而信汎愛衆而親仁	-12.8206
人吾不得而見之矣得見有恒者斯可矣	-12.8206
豻	-12.8206
然而無有乎爾則亦無有乎爾	-12.8207
生於其心害於其政發於其政害於其事	-12.8209
櫟	-12.8209
胝	-12.821
士志於道而恥惡衣惡食者未足與議也	-12.8211
褘	-12.8212
鼉	-12.8214
粃	-12.8215
孔子曰才難不其然乎唐虞之際於斯	-12.8215
翯	-12.8215
炮	-12.8216
巍巍乎其有成功也煥乎其有文章	-12.822
互鄉難與言童子見門人惑	-12.8222
礿	-12.8224
瞍	-12.8233
珽	-12.8251
皂	-12.8728
定公問君使臣臣事君如之何	-12.8731
一朝之忿忘其身以及其親非惑與	-12.8731
徤	-12.8733
雋	-12.8734
聯	-12.8735
𥚹	-12.8736
嘖	-12.8739
㳂	-12.8739
孔子於鄉黨恂恂如也似不能言者	-12.8739
辭讓之心禮之端也是非之心智之端也	-12.8739
莱	-12.8739
愷	-12.8739
臣弑其君者有之子弑其父者有之	-12.8739
居則曰不吾知也如或知爾則何以哉	-12.874
也弟者所以事長也慈者所以使衆也	-12.874
柜	-12.8741
殺其麋鹿者如殺人之罪	-12.8741
不亦善乎如不善而莫之違也不	-12.8741
子路問事君子曰勿欺也而犯之	-12.8742
張問仁於孔子孔子曰能行五者於天下	-12.8743
殷峻命不易道得衆則得國失衆則失國	-12.8743
宰我子貢政事冉有季路文學子游子夏	-12.8743
顔淵曰回雖不敏請事斯語矣	-12.8743
於言勿求於心不得於心勿求於氣	-12.8743
魅	-12.8743
民無職事者出夫家之征	-12.8743
豊	-12.8743
詩云殷之未喪師克配上帝儀監	-12.8744
肚	-12.8744
好樂則不得其正有所憂患則不得其正	-12.8744
問政於孔子曰如殺無道以就有道何如	-12.8744
云其儀不忒正是四國	-12.8744
日月也無得而踰焉人雖欲自絶	-12.8745
憝	-12.8745
敬而無失與人恭而有禮四海之内皆	-12.8745
韙	-12.8746
蓬	-12.8746
琥	-12.8747
不敬子路子曰由也升堂矣未入於室也	-12.8747
冠者五六人童子六七人浴乎沂風乎舞	-12.8747
至於是邦也必聞其政求之與抑與之與	-12.8747
醋	-12.8747
求爾何如對曰方六七十如五六十	-12.8747
子所雅言詩書執禮皆雅言也	-12.8748
騧	-12.8748
司馬牛憂曰人皆有兄弟我獨亡	-12.8748
孔子曰益者三友損者三友	-12.8748
我非堯舜之道不敢以陳於王前	-12.8748
曰求周任有言曰陳力就列不能者止	-12.8748
少連降志辱身矣言中倫行中慮其斯而	-12.8748
子曰清矣曰仁矣乎曰未知焉得仁	-12.8749
定公問一言而可以興邦有諸	-12.8749
與先生並行也非求益者也欲速成者也	-12.8749
子曰不教而殺謂之虐不戒視成謂之暴	-12.8749
季子然問仲由冉求可謂大臣與	-12.8749
邦無道則愚其知可及也其愚不可及也	-12.8749
夫子何為對曰夫子欲寡其過而未能也	-12.875
子之仕也行其義也道之不行已知之矣	-12.875
所惡於左毋以交於右此之謂絜矩之道	-12.875
仁而遺其親者也未有義而後其君者也	-12.875
忻	-12.8751
曰吾宗國魯先君莫之行	-12.8751
駘	-12.8751
也小人不可大受而可小知也	-12.8751
己欲立而立人己欲達而達人	-12.8751
檜	-12.8751
陳亢退而喜曰問一得三	-12.8751
夫達也者質直而好義察言而	-12.8751
曰去食自古皆有死民無信不立	-12.8751
桮	-12.8751
牢曰子云吾不試故藝	-12.8752
搬	-12.8752
路曰自孔氏曰是知其不可而為之者與	-12.8752
蕢而過孔氏之門者曰有心哉擊磬乎	-12.8752
踧	-12.8754
䑓	-12.8755
焞	-12.8755
袤	-12.8758
嘻	-12.8758
俸	-12.8759
丸	-12.8759
栭	-12.8759
瘡	-12.8761
沖	-12.8763
吻	-12.8763
􁃦	-12.8765
磔	-12.8766
襌	-12.8767
葅	-12.8768
郕	-12.8773
厠	-12.8782
嫗	-12.93
齎	-12.9303
弒	-12.9309
吮	-12.9312
廼	-12.9319
圻	-12.9319
澗	-12.932
帚	-12.9324
坂	-12.9324
筴	-12.9325
畸	-12.9326
聪	-12.9326
綰	-12.9328
撼	-12.933
藍	-12.9331
窠	-12.9332
銓	-12.9332
鈴	-12.9333
螟	-12.9333
褰	-12.9334
膜	-12.9337
屍	-12.9337
趕	-12.9338
夣	-12.9339
册	-12.9339
軼	-12.9339
伴	-12.9339
瓶	-12.9339
症	-12.9341
豔	-12.9341
賙	-12.9341
鬪	-12.9341
婺	-12.9343
僧	-12.9343
縳	-12.9344
宄	-12.9344
煉	-12.9344
爱	-12.9346
姍	-12.9347
両	-12.9347
澳	-12.9349
抒	-12.9351
衘	-12.9352
喘	-12.9357
郰	-12.9359
礱	-12.9359
捶	-12.9361
禴	-12.9361
僂	-12.9362
埴	-12.9365
郄	-12.9366
邯	-12.9935
樴	-12.9942
奨	-12.9945
聫	-12.995
菁	-12.995
裒	-12.9951
璽	-12.9955
蕕	-12.9956
㕘	-12.9957
譁	-12.9958
窘	-12.9958
腯	-12.9959
羯	-12.996
呆	-12.996
鷙	-12.996
隸	-12.9961
㽦	-12.9961
覃	-12.9962
澀	-12.9962
咄	-12.9962
插	-12.9963
穰	-12.9963
腴	-12.9963
巵	-12.9963
懥	-12.9964
苫	-12.9964
掦	-12.9964
柘	-12.9964
漾	-12.9964
簾	-12.9964
彄	-12.9964
丐	-12.9965
爪	-12.9965
拭	-12.9967
焰	-12.9967
楫	-12.9968
院	-12.9968
諄	-12.9969
牿	-12.9969
禫	-12.997
掛	-12.9971
攬	-12.9971
􁎠	-12.9972
讜	-12.9972
鄊	-12.9973
圯	-12.9974
療	-12.9974
顕	-12.9975
藜	-12.9976
鈕	-12.9976
腒	-12.9978
痕	-12.9978
穽	-12.9979
䜴	-12.998
𬒮	-12.998
䜛	-12.9981
乿	-12.9984
筩	-12.9984
啼	-12.9985
勛	-12.9987
瞳	-12.9988
罘	-12.9989
酳	-12.999
弧	-12.9992
韐	-12.9992
笄	-12.9998
筓	-12.9999
裾	-13.0036
棱	-13.0594
譙	-13.0607
逋	-13.0608
値	-13.061
頡	-13.0611
膓	-13.0612
樵	-13.0613
屡	-13.0613
櫽	-13.0614
僮	-13.0618
鶂	-13.0618
佔	-13.0618
葺	-13.0618
貓	-13.0619
泓	-13.062
嘘	-13.062
覦	-13.0621
苽	-13.0621
查	-13.0622
儷	-13.0623
唾	-13.0624
瀠	-13.0624
稿	-13.0624
詒	-13.0626
擲	-13.0626
闋	-13.0627
煙	-13.0628
尽	-13.0628
羇	-13.0628
擎	-13.0628
惹	-13.0629
媿	-13.063
搭	-13.063
躭	-13.063
謔	-13.063
繕	-13.0631
枚	-13.0632
闥	-13.0632
腋	-13.0632
扃	-13.0633
縊	-13.0633
楢	-13.0633
襍	-13.0633
晃	-13.0633
匈	-13.0635
翬	-13.0635
戞	-13.0635
萑	-13.0636
懶	-13.0636
趋	-13.0636
湧	-13.0636
脆	-13.0636
鉶	-13.0636
䐑	-13.0638
嚬	-13.064
啐	-13.0642
菉	-13.0643
兎	-13.0643
駰	-13.0643
轕	-13.0644
𨗳	-13.0644
欵	-13.0644
杲	-13.0645
鱐	-13.0646
衫	-13.0647
綻	-13.0647
綉	-13.0649
苻	-13.0649
皐	-13.0651
万	-13.0652
臊	-13.0652
玦	-13.0653
飧	-13.0653
椘	-13.0654
齗	-13.0654
𫉬	-13.0656
泭	-13.1282
駉	-13.1321
剩	-13.1324
瑑	-13.1327
譴	-13.1328
型	-13.1329
稊	-13.133
扄	-13.133
儱	-13.1331
逗	-13.1333
爟	-13.1337
島	-13.1338
穹	-13.1338
昺	-13.1338
跽	-13.1339
鷺	-13.1339
㦯	-13.1339
銑	-13.1339
稀	-13.1339
淘	-13.134
椀	-13.134
𬞞	-13.134
祍	-13.1342
暌	-13.1344
愜	-13.1346
娛	-13.1347
刁	-13.1348
廊	-13.1348
睛	-13.1349
僃	-13.1349
黠	-13.1351
歧	-13.1351
擗	-13.1352
㕔	-13.1354
戱	-13.1355
恧	-13.1356
蹷	-13.1357
斫	-13.1357
榛	-13.1357
抉	-13.1359
砭	-13.136
臑	-13.1367
遰	-13.1369
頍	-13.1415
鞹	-13.2077
窻	-13.2084
殤	-13.2085
滴	-13.2086
縗	-13.2086
龔	-13.209
浦	-13.2092
扆	-13.2093
溯	-13.2095
輜	-13.2097
膩	-13.2097
倅	-13.2098
倆	-13.2098
晢	-13.2101
藤	-13.2103
肓	-13.2104
瀕	-13.2105
杉	-13.2105
矰	-13.2105
娱	-13.2107
燮	-13.2107
鳬	-13.2108
電	-13.2108
姿	-13.2108
魑	-13.2108
栰	-13.2109
閩	-13.2109
厝	-13.211
蔕	-13.2112
攪	-13.2112
萎	-13.2112
澁	-13.2113
妒	-13.2115
粧	-13.2115
琊	-13.2116
鄂	-13.2116
粕	-13.2116
萹	-13.2116
覓	-13.2117
嗤	-13.2117
䕃	-13.2118
紕	-13.2118
徊	-13.2119
酆	-13.2119
踣	-13.212
瑱	-13.2121
纇	-13.2121
撲	-13.2122
叱	-13.2122
丢	-13.2122
孳	-13.2123
滂	-13.2124
渊	-13.2124
棫	-13.2125
騑	-13.2126
縟	-13.2127
睽	-13.2127
僥	-13.2129
𦙍	-13.2129
笠	-13.213
宐	-13.213
邰	-13.213
昱	-13.2131
􁈘	-13.2131
頮	-13.2132
堤	-13.2134
墐	-13.2134
鉛	-13.2134
枙	-13.2138
甿	-13.2142
壷	-13.2143
鞀	-13.2143
瑜	-13.2145
􁀣	-13.2162
缶	-13.2914
詛	-13.2919
郛	-13.2921
詬	-13.2922
鄆	-13.2925
酣	-13.2925
罸	-13.2926
縵	-13.2927
髴	-13.2929
擒	-13.293
杙	-13.2931
刷	-13.2931
觯	-13.2933
啖	-13.2933
喋	-13.2934
腑	-13.2934
縠	-13.2934
穉	-13.2936
兗	-13.2936
罄	-13.2939
禇	-13.2939
擩	-13.294
霑	-13.2941
鼠	-13.2941
茀	-13.2942
撒	-13.2942
眡	-13.2942
刓	-13.2943
㽔	-13.2943
牂	-13.2944
鮒	-13.2945
諳	-13.2945
悮	-13.2945
滎	-13.2945
箾	-13.2945
戦	-13.2946
侁	-13.2946
闚	-13.2946
稲	-13.2947
敔	-13.2947
躰	-13.2948
懣	-13.2948
矻	-13.2949
噓	-13.2949
籓	-13.2949
款	-13.2949
氐	-13.2949
俘	-13.295
褚	-13.295
糳	-13.295
蜉	-13.2952
昴	-13.2952
觿	-13.2952
閴	-13.2953
声	-13.2953
旜	-13.2953
頖	-13.2953
殰	-13.2953
麫	-13.2953
殈	-13.2953
璠	-13.2954
芧	-13.2954
刳	-13.2955
茸	-13.2956
氂	-13.2956
蝗	-13.2957
㧻	-13.2959
睪	-13.2962
艶	-13.2962
篠	-13.2962
禕	-13.2962
梟	-13.2964
兊	-13.2966
孼	-13.2966
癡	-13.2967
紩	-13.2967
鑢	-13.2968
瀦	-13.2969
胤	-13.2969
罍	-13.2969
繂	-13.297
簜	-13.297
椇	-13.2971
蘗	-13.2978
僬	-13.298
綵	-13.2982
檾	-13.2983
瑀	-13.2988
罳	-13.2989
刅	-13.2996
轐	-13.2999
隤	-13.3808
杅	-13.3824
儋	-13.3827
拊	-13.3828
虫	-13.3829
碣	-13.3832
戡	-13.3832
芹	-13.3833
垠	-13.3834
臰	-13.3836
髣	-13.3837
拏	-13.3837
瑶	-13.3837
匜	-13.3837
敞	-13.3838
郿	-13.3839
㨂	-13.384
拄	-13.384
莵	-13.3841
辝	-13.3841
禋	-13.3842
綆	-13.3842
貲	-13.3842
雊	-13.3842
曩	-13.3843
絇	-13.3844
溼	-13.3845
黏	-13.3846
遫	-13.3846
圏	-13.3847
匙	-13.3847
蠭	-13.3847
縻	-13.3848
埶	-13.3848
糠	-13.3849
崛	-13.3849
惨	-13.3849
僵	-13.3849
兑	-13.3849
蕞	-13.3849
纖	-13.385
琱	-13.3852
蕺	-13.3853
澧	-13.3853
㦲	-13.3853
皓	-13.3853
厦	-13.3854
柟	-13.3854
塤	-13.3854
柷	-13.3854
笞	-13.3855
夹	-13.3855
轝	-13.3855
漳	-13.3855
藎	-13.3856
擢	-13.3857
箅	-13.3857
櫛	-13.3858
咀	-13.3858
塋	-13.3858
撑	-13.3859
沍	-13.3859
澌	-13.3859
聮	-13.386
懃	-13.3861
軄	-13.3861
婐	-13.3861
胇	-13.3861
遅	-13.3862
搔	-13.3862
牗	-13.3862
鏞	-13.3862
樽	-13.3863
棒	-13.3863
珮	-13.3863
戛	-13.3864
豬	-13.3864
惛	-13.3864
䝿	-13.3864
犒	-13.3866
筍	-13.3866
殂	-13.3866
訃	-13.3866
拍	-13.3866
讚	-13.3866
淸	-13.3866
崑	-13.3868
鱻	-13.3868
蠃	-13.3868
櫨	-13.3868
欂	-13.3869
擕	-13.387
茵	-13.3871
禜	-13.3872
鯁	-13.3872
賵	-13.3872
蠅	-13.3872
磊	-13.3873
嶧	-13.3874
朐	-13.3877
麕	-13.3878
頷	-13.3879
褓	-13.3881
眚	-13.3883
跗	-13.3887
莝	-13.389
瘧	-13.3891
鞔	-13.3892
琚	-13.3899
戶	-13.4802
趲	-13.4821
朏	-13.4823
庀	-13.4827
闒	-13.4828
变	-13.483
䢴	-13.4831
顒	-13.4832
鑰	-13.4834
犇	-13.4834
秫	-13.4834
覧	-13.4835
璀	-13.4836
鷃	-13.4839
鐲	-13.4839
縶	-13.484
鐃	-13.484
酤	-13.484
熒	-13.484
彬	-13.4842
㛰	-13.4843
咡	-13.4844
甬	-13.4844
沫	-13.4846
笛	-13.4846
鶉	-13.4847
碏	-13.4847
悃	-13.4847
喉	-13.4847
嘔	-13.4848
湘	-13.4848
飴	-13.4849
扱	-13.485
恡	-13.485
褁	-13.4851
煇	-13.4851
站	-13.4852
儐	-13.4852
异	-13.4853
𣲖	-13.4853
蚍	-13.4853
貺	-13.4854
觫	-13.4854
琬	-13.4854
錙	-13.4854
弣	-13.4854
叮	-13.4855
踶	-13.4856
譊	-13.4856
抝	-13.4856
呱	-13.4856
蒭	-13.4856
郅	-13.4856
儳	-13.4857
袞	-13.4858
堁	-13.4859
斍	-13.4859
携	-13.486
嶇	-13.486
眺	-13.486
昃	-13.486
碁	-13.486
捧	-13.486
駔	-13.486
魴	-13.4861
徘	-13.4862
綮	-13.4863
橈	-13.4863
翹	-13.4863
綘	-13.4863
瘦	-13.4864
韭	-13.4864
嘲	-13.4864
餅	-13.4867
沱	-13.4867
嫄	-13.4867
遨	-13.4868
薤	-13.487
蚯	-13.487
欹	-13.4871
蟹	-13.4872
咤	-13.4872
媯	-13.4875
讃	-13.4875
忱	-13.4877
蚳	-13.4877
阪	-13.4878
鱗	-13.4878
兇	-13.4879
禳	-13.488
骼	-13.488
鴨	-13.488
椽	-13.4881
粮	-13.4887
鵙	-13.4888
䆫	-13.4888
鄼	-13.4891
龞	-13.4895
蝦	-13.4901
駵	-13.4923
飡	-13.5936
筥	-13.5938
烱	-13.5939
箠	-13.5942
呵	-13.5944
枌	-13.5944
蛉	-13.5945
瑯	-13.5946
𫀆	-13.5948
俻	-13.5948
眹	-13.5948
廄	-13.5949
畣	-13.595
𥅆	-13.595
曖	-13.595
暉	-13.5951
鄠	-13.5951
港	-13.5952
暵	-13.5952
酋	-13.5953
讖	-13.5954
床	-13.5954
鞕	-13.5955
批	-13.5955
噎	-13.5956
篲	-13.5956
䡄	-13.5956
霖	-13.5956
汛	-13.5956
筠	-13.5957
衙	-13.5957
􁂰	-13.5958
涘	-13.5958
凄	-13.5958
劬	-13.5958
罩	-13.5959
稌	-13.596
蛄	-13.596
汾	-13.596
旰	-13.596
𧖟	-13.596
控	-13.5961
跨	-13.5962
飄	-13.5962
濃	-13.5962
晤	-13.5962
厓	-13.5962
扯	-13.5962
窊	-13.5962
岷	-13.5963
梜	-13.5963
竽	-13.5963
丧	-13.5964
伉	-13.5964
燉	-13.5964
醮	-13.5964
麇	-13.5964
疄	-13.5965
碔	-13.5965
箝	-13.5966
暁	-13.5966
砆	-13.5966
抛	-13.5966
薌	-13.5966
呫	-13.5966
粤	-13.5966
彧	-13.5967
儈	-13.5967
帳	-13.5967
沸	-13.5967
瞋	-13.5967
泲	-13.5968
娯	-13.5968
滰	-13.5969
虙	-13.5969
葭	-13.597
䧏	-13.597
倂	-13.597
押	-13.597
瑄	-13.597
篋	-13.597
贛	-13.5971
捩	-13.5971
諜	-13.5972
臲	-13.5972
瞢	-13.5972
疴	-13.5972
炰	-13.5972
攔	-13.5973
喩	-13.5973
諼	-13.5975
禨	-13.5975
蟬	-13.5975
紞	-13.5975
菓	-13.5975
飼	-13.5976
苓	-13.5977
頺	-13.5977
鼂	-13.5977
剗	-13.5978
嘐	-13.5978
攫	-13.5978
芼	-13.5978
顆	-13.5979
屣	-13.598
眄	-13.5981
倞	-13.5981
顗	-13.5983
抜	-13.5983
臠	-13.5983
擿	-13.5984
髦	-13.5984
乚	-13.5985
晩	-13.5985
欄	-13.5985
氛	-13.5985
鄱	-13.5985
晞	-13.5985
駾	-13.5986
枵	-13.5986
芰	-13.5987
𡨕	-13.5988
痬	-13.5988
枹	-13.5989
弇	-13.5989
頟	-13.5991
鯤	-13.5993
窗	-13.5994
惸	-13.5995
蒧	-13.5995
宧	-13.5995
䀻	-13.5997
擣	-13.5998
卅	-13.5998
呶	-13.5998
櫜	-13.6002
膊	-13.6002
𣸪	-13.6002
卄	-13.6003
禬	-13.6006
耔	-13.6008
讄	-13.601
鞞	-13.602
綃	-13.6022
顥	-13.6022
裙	-13.6026
栝	-13.6035
襢	-13.7154
鄴	-13.7169
樁	-13.718
􁁥	-13.7188
躇	-13.7189
媟	-13.719
泠	-13.7191
鄪	-13.7196
頁	-13.7198
籙	-13.7198
𤨏	-13.72
跣	-13.72
朂	-13.7201
惱	-13.7202
牒	-13.7202
晴	-13.7203
䜿	-13.7204
齰	-13.7205
迺	-13.7205
咫	-13.7206
嚀	-13.7206
蚊	-13.7206
傴	-13.7206
蹐	-13.7208
鍚	-13.7208
荄	-13.7208
挹	-13.7208
覔	-13.7208
邳	-13.7208
爍	-13.7209
剏	-13.7209
𣆀	-13.7209
㝡	-13.721
逅	-13.721
邂	-13.721
萍	-13.7211
跼	-13.7211
菫	-13.7211
稾	-13.7212
秣	-13.7215
慳	-13.7216
蛤	-13.7216
犨	-13.7216
衺	-13.7217
厪	-13.7217
匭	-13.7218
勳	-13.7218
犠	-13.7219
臚	-13.7219
躔	-13.7219
壌	-13.7219
饎	-13.722
蠐	-13.7222
呻	-13.7222
曜	-13.7223
坯	-13.7223
梡	-13.7224
藺	-13.7224
隮	-13.7224
臬	-13.7224
隈	-13.7224
㽞	-13.7224
埏	-13.7224
嶡	-13.7226
瓉	-13.7226
餮	-13.7226
㴻	-13.7226
袢	-13.7226
曄	-13.7227
琰	-13.7228
栱	-13.7228
鍳	-13.7228
驀	-13.7228
廂	-13.7228
埃	-13.7228
遄	-13.7229
矝	-13.7229
嘏	-13.723
縉	-13.723
浃	-13.723
罋	-13.723
烜	-13.7231
溈	-13.7232
塜	-13.7232
愎	-13.7232
蓊	-13.7233
琳	-13.7233
䏂	-13.7233
戻	-13.7233
瑳	-13.7234
届	-13.7234
駙	-13.7235
揩	-13.7235
䟎	-13.7236
胃	-13.7236
楬	-13.7237
慇	-13.724
姫	-13.7242
㳙	-13.7243
鴄	-13.7243
戅	-13.7243
璵	-13.7246
匕	-13.7246
雒	-13.7246
瀌	-13.7249
僾	-13.725
蒨	-13.7252
酺	-13.7252
禅	-13.7252
䗜	-13.726
傞	-13.7264
僛	-13.7264
晶	-13.7267
􁊪	-13.7271
冔	-13.7273
頳	-13.7273
显	-13.7293
緎	-13.7308
萭	-13.735
湫	-13.8591
稯	-13.8596
堙	-13.8599
▫	-13.8602
傀	-13.8602
勻	-13.8606
蹕	-13.861
淚	-13.8617
秪	-13.8617
醖	-13.862
侫	-13.8622
槪	-13.8624
沭	-13.8625
痤	-13.8626
轄	-13.8626
摠	-13.8627
郃	-13.8629
髀	-13.8629
盃	-13.8629
甜	-13.8629
尔	-13.863
籛	-13.863
齪	-13.863
术	-13.8631
購	-13.8631
餬	-13.8631
噦	-13.8632
漲	-13.8632
澣	-13.8632
絬	-13.8632
陡	-13.8634
潞	-13.8634
鑪	-13.8634
鏑	-13.8634
冄	-13.8635
釘	-13.8635
窣	-13.8635
訊	-13.8635
橛	-13.8635
獒	-13.8636
璇	-13.8636
蜮	-13.8636
椿	-13.8636
荁	-13.8637
厘	-13.8638
蟊	-13.8638
鏄	-13.8638
玲	-13.8638
錧	-13.8639
鎋	-13.8639
炬	-13.864
拽	-13.864
捱	-13.864
荊	-13.864
澈	-13.8641
徠	-13.8641
掣	-13.8641
暏	-13.8642
綫	-13.8642
箙	-13.8642
彗	-13.8644
怫	-13.8644
螽	-13.8644
叨	-13.8644
圬	-13.8644
嵇	-13.8645
惚	-13.8646
筦	-13.8646
蝸	-13.8647
戺	-13.8647
堦	-13.8647
愀	-13.8647
猴	-13.8648
緱	-13.8648
㺯	-13.8648
卼	-13.8648
歂	-13.8648
刌	-13.8649
軨	-13.8649
敇	-13.8649
隍	-13.8649
侖	-13.865
寨	-13.865
颯	-13.865
䘚	-13.865
瞌	-13.865
咳	-13.8651
醓	-13.8651
糯	-13.8651
柩	-13.8652
賖	-13.8652
嶓	-13.8653
簧	-13.8653
偝	-13.8654
匣	-13.8654
麴	-13.8656
㓛	-13.8656
熖	-13.8656
訧	-13.8656
蓺	-13.8656
潭	-13.8656
榭	-13.8656
閡	-13.8656
姤	-13.8657
陔	-13.8657
魔	-13.8658
喑	-13.8658
隼	-13.8658
愒	-13.8659
軥	-13.8659
幄	-13.866
轢	-13.866
蜾	-13.866
膋	-13.8661
潄	-13.8661
蘩	-13.8661
募	-13.8662
卉	-13.8663
劾	-13.8663
礲	-13.8665
潢	-13.8666
晛	-13.8667
䔍	-13.8668
臡	-13.8668
傃	-13.8669
昶	-13.867
剉	-13.8671
圡	-13.8673
緻	-13.8673
胚	-13.8674
鐋	-13.8676
吊	-13.8676
隃	-13.8676
炁	-13.8677
䧺	-13.8677
幔	-13.868
篩	-13.8684
簭	-13.8689
甓	-13.8689
嫓	-13.8692
紡	-13.8695
盞	-13.8699
瓀	-13.87
鋈	-13.8707
纚	-13.8708
􁈿	-14.0205
蒋	-14.0251
佊	-14.0259
褶	-14.0264
苕	-14.0272
觥	-14.0272
舫	-14.0275
芋	-14.0275
閙	-14.0276
琯	-14.0277
袴	-14.0278
錚	-14.0278
鍜	-14.0278
迓	-14.0281
痾	-14.0281
豰	-14.0282
蠟	-14.0282
㲈	-14.0282
倭	-14.0283
潏	-14.0283
澇	-14.0283
糝	-14.0283
嗚	-14.0287
堲	-14.0289
膷	-14.029
唶	-14.0292
詡	-14.0293
傭	-14.0294
祸	-14.0294
淋	-14.0294
阽	-14.0294
瞥	-14.0295
畵	-14.0295
捺	-14.0295
靧	-14.0295
覯	-14.0296
阯	-14.0296
瓏	-14.0296
稹	-14.0296
尫	-14.0296
婼	-14.0297
捫	-14.0298
厖	-14.0298
萋	-14.0298
簙	-14.0298
盱	-14.0298
曁	-14.0299
睱	-14.0299
墩	-14.0299
􁂟	-14.03
洳	-14.03
糅	-14.03
蠲	-14.03
齷	-14.03
姧	-14.0301
旊	-14.0301
漑	-14.0301
篹	-14.0303
装	-14.0303
莪	-14.0303
陞	-14.0303
沌	-14.0303
瞯	-14.0303
褥	-14.0303
盭	-14.0304
酗	-14.0305
狊	-14.0305
蓏	-14.0305
刲	-14.0306
袚	-14.0306
垜	-14.0307
碗	-14.0307
䟦	-14.0307
肴	-14.0308
枸	-14.0308
鈐	-14.0308
薧	-14.0309
轇	-14.0309
龐	-14.031
䉉	-14.031
烟	-14.031
詻	-14.031
航	-14.031
閠	-14.0311
斚	-14.0311
厞	-14.0311
騮	-14.0311
闐	-14.0311
􁆡	-14.0311
猿	-14.0312
囁	-14.0312
噍	-14.0312
隩	-14.0312
庮	-14.0312
艷	-14.0313
纏	-14.0313
羆	-14.0313
玊	-14.0313
遟	-14.0313
晬	-14.0313
沗	-14.0313
腫	-14.0314
儌	-14.0314
楸	-14.0314
􁃻	-14.0314
魍	-14.0315
擐	-14.0315
仿	-14.0315
攢	-14.0315
隉	-14.0315
䳺	-14.0315
挐	-14.0316
螢	-14.0317
鋟	-14.0318
酇	-14.0318
洮	-14.0318
鱠	-14.0318
溶	-14.0318
疣	-14.0318
殪	-14.0319
渚	-14.0319
棧	-14.0319
燄	-14.0319
町	-14.0319
咬	-14.032
拇	-14.0321
刹	-14.0321
靦	-14.0321
喈	-14.0321
粻	-14.0322
讟	-14.0322
􁐷	-14.0322
㾗	-14.0322
紝	-14.0323
訿	-14.0323
梠	-14.0324
嫚	-14.0325
囑	-14.0325
毆	-14.0325
絪	-14.0325
曓	-14.0325
爕	-14.0326
耋	-14.0326
遒	-14.0326
㫄	-14.0326
晷	-14.0327
蓐	-14.0328
慼	-14.0328
塔	-14.0328
柚	-14.0328
仉	-14.0329
䞇	-14.0329
爝	-14.0329
狁	-14.033
繄	-14.033
蹋	-14.033
换	-14.0331
辤	-14.0331
襵	-14.0332
秃	-14.0332
蘋	-14.0332
獱	-14.0332
崙	-14.0333
絛	-14.0333
蔿	-14.0334
薾	-14.0334
坏	-14.0335
鬚	-14.0335
廇	-14.0335
杗	-14.0335
㝔	-14.0336
崎	-14.0336
淬	-14.0336
终	-14.0336
㴞	-14.0336
紱	-14.0336
韲	-14.0336
湇	-14.0336
揄	-14.0337
澠	-14.0337
禝	-14.0339
翠	-14.034
㗖	-14.034
騵	-14.034
阤	-14.034
嗷	-14.034
仝	-14.0341
剌	-14.0342
戇	-14.0342
屦	-14.0342
犆	-14.0342
劌	-14.0343
眴	-14.0343
瓴	-14.0343
燁	-14.0344
讁	-14.0344
驢	-14.0346
嶷	-14.0346
哆	-14.0347
旡	-14.0347
㳿	-14.0347
侣	-14.0352
䬸	-14.0354
幘	-14.0356
梨	-14.0356
琦	-14.0356
撗	-14.036
鞏	-14.0363
觼	-14.0367
囯	-14.0368
璂	-14.0372
軜	-14.0373
玫	-14.0379
轛	-14.0389
灂	-14.0411
汀	-14.2243
僉	-14.2248
襦	-14.2255
扑	-14.226
掎	-14.2261
薈	-14.2263
刊	-14.2265
謄	-14.2265
祊	-14.2265
柲	-14.2269
澂	-14.227
譯	-14.2271
檇	-14.2273
佻	-14.2276
棚	-14.2278
戟	-14.2281
輴	-14.2281
汴	-14.2282
蕣	-14.2282
鍋	-14.2283
駐	-14.2284
屹	-14.2285
楛	-14.2286
峩	-14.2287
墢	-14.2287
挍	-14.2288
漕	-14.2289
隗	-14.2289
曺	-14.2289
巅	-14.2289
癘	-14.229
燬	-14.2291
竣	-14.2292
緬	-14.2292
叵	-14.2293
堠	-14.2293
塩	-14.2293
袛	-14.2293
虱	-14.2294
粛	-14.2294
簷	-14.2294
腆	-14.2294
淖	-14.2295
洄	-14.2295
猫	-14.2295
斎	-14.2295
徨	-14.2296
赭	-14.2296
痴	-14.2296
馨	-14.2296
癖	-14.2296
繙	-14.2296
稳	-14.2297
擡	-14.2297
郜	-14.2297
擠	-14.2297
襚	-14.2298
鍛	-14.2298
■	-14.2298
瘥	-14.2299
脇	-14.23
迩	-14.23
夬	-14.2301
馘	-14.2301
凴	-14.2301
橔	-14.2302
蓮	-14.2303
誹	-14.2304
柂	-14.2304
抺	-14.2305
漈	-14.2306
絻	-14.2306
腕	-14.2306
萼	-14.2306
櫃	-14.2307
污	-14.2307
睠	-14.2308
攅	-14.2308
屝	-14.2309
豖	-14.2309
刧	-14.2309
蜜	-14.231
刦	-14.231
楔	-14.231
葆	-14.231
縹	-14.231
瑛	-14.2311
觖	-14.2311
迦	-14.2311
媺	-14.2313
醲	-14.2313
蝨	-14.2313
駱	-14.2313
䓁	-14.2313
嚇	-14.2313
滫	-14.2313
㝅	-14.2313
廡	-14.2314
挿	-14.2314
週	-14.2314
鄀	-14.2314
悳	-14.2315
疥	-14.2315
敲	-14.2315
徉	-14.2315
脞	-14.2315
籲	-14.2316
箎	-14.2316
祟	-14.2316
嚅	-14.2316
妊	-14.2316
瑤	-14.2317
䫫	-14.2317
呪	-14.2317
沴	-14.2317
嵬	-14.2318
褧	-14.2318
詫	-14.2318
蘽	-14.2318
柣	-14.2318
嗑	-14.2319
旐	-14.2319
櫓	-14.2319
譸	-14.232
纣	-14.2321
倏	-14.2321
臿	-14.2322
惮	-14.2322
䄂	-14.2323
盩	-14.2323
祲	-14.2323
騋	-14.2323
絍	-14.2323
曏	-14.2324
覵	-14.2324
欎	-14.2324
哄	-14.2325
謵	-14.2325
譟	-14.2326
昉	-14.2326
皃	-14.2326
輊	-14.2327
翊	-14.2327
䲭	-14.2327
妓	-14.2327
瘵	-14.2327
瀟	-14.2328
梭	-14.2328
楶	-14.2328
煜	-14.2329
颺	-14.2329
槌	-14.2329
嘯	-14.2329
紿	-14.2329
㓊	-14.2329
糸	-14.2329
薁	-14.2329
陁	-14.233
聡	-14.233
觕	-14.2331
芈	-14.2331
窔	-14.2331
怳	-14.2331
玆	-14.2331
竑	-14.2332
湆	-14.2332
䄇	-14.2333
甕	-14.2334
膴	-14.2336
踔	-14.2337
踸	-14.2337
旞	-14.2337
槚	-14.2338
璘	-14.234
㷭	-14.234
薊	-14.2342
弹	-14.2343
佋	-14.2343
檝	-14.2343
枘	-14.2344
寞	-14.2345
頋	-14.2345
疈	-14.2346
袧	-14.2346
甒	-14.2347
嚾	-14.2347
聆	-14.2347
譾	-14.2347
綖	-14.2348
窓	-14.235
謇	-14.2355
哈	-14.2356
秕	-14.2356
噽	-14.2359
腵	-14.236
䄡	-14.2361
慫	-14.2361
煗	-14.2368
槷	-14.2373
蠙	-14.2388
酪	-14.2402
蔞	-14.2404
紽	-14.2412
玭	-14.2413
藘	-14.2414
茈	-14.2436
輹	-14.2481
丰	-14.4832
宙	-14.8157
墀	-15.3057
糖	-15.3084
貔	-15.3085
貅	-15.3086
陗	-15.3087
璆	-15.3088
檉	-15.3089
晡	-15.309
夅	-15.3091
齬	-15.3092
齟	-15.3093
鄲	-15.3094
㙄	-15.3095
礫	-15.3096
窋	-15.3097
稂	-15.3098
畯	-15.3099
縢	-15.31
璩	-15.3101
煨	-15.3102
窕	-15.3103
鳲	-15.3104
娥	-15.3105
靚	-15.3106
輾	-15.3107
羑	-15.3108
柢	-15.3109
倀	-15.311
漪	-15.3111
檗	-15.3112
哿	-15.3113
頊	-15.3114
渣	-15.3115
捭	-15.3116
梩	-15.3117
憔	-15.3118
昀	-15.3119
撕	-15.312
悄	-15.3121
睊	-15.3122
蓰	-15.3123
坡	-15.3124
踽	-15.3125
慥	-15.3126
賽	-15.3127
蹜	-15.3127
