<unk>	0
<s>	0
</s>	0
之	-4.01124
(	-4.18062
/	-4.55323
)	-4.5586
而	-4.73861
以	-4.82542
為	-4.95133
也	-4.98637
其	-4.99098
書	-5.09789
有	-5.11585
字	-5.17077
者	-5.18736
人	-5.1972
於	-5.31591
/)	-5.32354
不	-5.38139
曰	-5.41886
王	-5.60094
一	-5.63165
文	-5.63506
中	-5.6631
碑	-5.69453
子	-5.73504
大	-5.80619
唐	-5.81163
又	-5.82371
公	-5.85302
則	-5.85412
▁	-5.87297
無	-5.90029
作	-5.90499
撰	-5.92163
三	-5.93328
此	-5.96402
闕	-5.97645
自	-5.98079
言	-6.01416
與	-6.01443
元	-6.01878
經	-6.02594
傳	-6.03805
二	-6.06192
所	-6.07873
在	-6.0827
本	-6.10082
至	-6.10167
故	-6.10538
行	-6.12815
氏	-6.14107
集	-6.16369
時	-6.16436
云	-6.17353
事	-6.17492
正	-6.19205
詩	-6.19446
皆	-6.19459
上	-6.205
明	-6.20514
亦	-6.20595
易	-6.21038
記	-6.22917
矣	-6.2333
今	-6.23882
道	-6.24605
名	-6.26969
州	-6.27354
是	-6.27903
山	-6.28653
得	-6.29395
四	-6.29448
非	-6.32523
後	-6.33627
乃	-6.3768
春秋	-6.37688
天	-6.38784
張	-6.38909
李	-6.39065
然	-6.39084
知	-6.40466
學	-6.40501
見	-6.41777
五	-6.43281
義	-6.43778
世	-6.45823
石	-6.47665
志	-6.48953
日	-6.49395
漢	-6.49403
爲	-6.50492
)(	-6.51788
成	-6.52007
下	-6.53134
如	-6.5341
可	-6.5356
同	-6.54265
君	-6.55071
家	-6.55145
周	-6.55252
宋	-6.55581
及	-6.56139
用	-6.57116
古	-6.57311
立	-6.58693
禮	-6.58834
右	-6.59105
通	-6.59837
復	-6.60441
六	-6.61089
多	-6.61339
論	-6.61546
一卷	-6.62038
官	-6.62616
相	-6.63996
宗	-6.64034
史	-6.6505
于	-6.65086
録	-6.6688
序	-6.66895
乎	-6.67721
出	-6.68248
方	-6.6837
陳	-6.69066
九	-6.69842
國	-6.70496
年	-6.70835
法	-6.70922
已	-6.7208
焉	-6.72377
平	-6.72659
謂	-6.72807
注	-6.7332
生	-6.73334
説	-6.75044
安	-6.75386
何	-6.75665
劉	-6.76867
南	-6.77102
初	-6.7954
陽	-6.81072
定	-6.81663
長	-6.82349
始	-6.82376
數	-6.82736
當	-6.83015
臣	-6.84886
諸	-6.8635
師	-6.86669
惟	-6.87514
從	-6.87637
觀	-6.88522
令	-6.89791
圖	-6.90113
卷	-6.90335
徳	-6.90819
未	-6.91539
意	-6.91556
七	-6.91847
縣	-6.92835
若	-6.93338
因	-6.93749
前	-6.94179
載	-6.94217
東	-6.94396
武	-6.94929
稱	-6.9651
心	-6.97407
士	-6.97508
考	-6.97664
帖	-6.98365
即	-6.98779
孫	-6.98825
先生	-6.9945
使	-6.99753
解	-6.99847
或	-7.01531
取	-7.01953
分	-7.0197
存	-7.03291
善	-7.04047
象	-7.0496
雖	-7.05362
篇	-7.05363
章	-7.0551
類	-7.05826
命	-7.05943
刻	-7.06213
西	-7.0626
著	-7.06835
八	-7.06878
伯	-7.07123
釋	-7.07844
凡	-7.08152
門	-7.08358
疑	-7.08441
理	-7.09118
遂	-7.09203
等	-7.09213
楊	-7.09374
郡	-7.09568
居	-7.09658
折	-7.09828
先	-7.0994
能	-7.10606
新	-7.11452
民	-7.11783
金	-7.11827
重	-7.12093
林	-7.132
余	-7.14017
異	-7.14406
入	-7.14407
十	-7.14798
次	-7.14874
髙	-7.15009
既	-7.15268
神	-7.15389
按	-7.15639
修	-7.15819
小	-7.16219
府	-7.16499
建	-7.17018
光	-7.17172
少	-7.17414
廣	-7.18954
黄	-7.19068
夫	-7.19086
銘	-7.19093
水	-7.1925
鄭	-7.19361
合	-7.19563
聖	-7.2002
江	-7.2032
樂	-7.20338
朝	-7.20424
晉	-7.20494
齊	-7.20616
卿	-7.20938
思	-7.21208
十卷	-7.2139
以為	-7.21566
趙	-7.21577
歸	-7.21907
紀	-7.22027
聞	-7.23165
耳	-7.23208
仲	-7.23317
寺	-7.24666
語	-7.24738
興	-7.25015
="33"/>	-7.25099
t	-7.25099
<	-7.251
要	-7.25383
清	-7.2546
欲	-7.26284
去	-7.26722
和	-7.27186
間	-7.27756
帝	-7.27877
真	-7.28022
嘗	-7.28059
獨	-7.28306
編	-7.28739
尚書	-7.28941
治	-7.29497
梁	-7.29686
萬	-7.30869
舊	-7.31519
二卷	-7.31873
魏	-7.32221
錄	-7.32371
問	-7.32428
信	-7.32638
德	-7.33038
精	-7.33232
應	-7.33899
政	-7.3417
不可	-7.34504
必	-7.34544
祖	-7.35429
佚	-7.35886
龍	-7.36485
辭	-7.36704
守	-7.3678
侯	-7.3682
城	-7.36873
舉	-7.3693
辨	-7.37153
卦	-7.37652
實	-7.37661
吾	-7.3774
常	-7.3783
首	-7.37831
直	-7.37869
筆	-7.3825
孔子	-7.38573
魯	-7.38735
體	-7.38777
太	-7.38908
哉	-7.38925
地	-7.38995
題	-7.39021
白	-7.39062
尚	-7.39147
父	-7.39216
補	-7.39487
三卷	-7.39513
仁	-7.39777
孝	-7.39846
變	-7.39993
遺	-7.40477
風	-7.40588
内	-7.41671
盡	-7.41777
深	-7.42161
進	-7.4281
餘	-7.42911
來	-7.42984
表	-7.44663
月	-7.44701
堂	-7.44873
外	-7.45275
一部一冊	-7.45448
雲	-7.45729
周易	-7.46051
兩	-7.46691
予	-7.46725
玉	-7.46813
都	-7.47457
忠	-7.47506
秦	-7.47613
缺	-7.47855
授	-7.48432
原	-7.48558
起	-7.49113
猶	-7.4985
北	-7.50171
說	-7.50293
且	-7.50484
甚	-7.50544
號	-7.50597
物	-7.50737
夏	-7.50964
將	-7.51126
左	-7.51316
蓋	-7.51713
吳	-7.51813
卒	-7.51847
各	-7.521
節	-7.52348
目	-7.52913
續	-7.52941
二年	-7.53106
逺	-7.5358
第	-7.53598
百	-7.5369
豈	-7.53964
難	-7.54147
𤣥	-7.54159
陵	-7.54287
别	-7.54303
朱	-7.54362
徐	-7.54572
敬	-7.54677
老	-7.54813
賢	-7.55316
亡	-7.55488
發	-7.55572
華	-7.55684
景	-7.55882
詳	-7.55994
孔	-7.55996
益	-7.5637
述	-7.56486
主	-7.56773
求	-7.56897
改	-7.57118
齋	-7.58414
臨	-7.58674
元年	-7.59345
功	-7.59787
兼	-7.59813
簡	-7.60061
固	-7.6032
封	-7.60505
昌	-7.60814
誤	-7.61074
制	-7.61186
司	-7.6127
極	-7.61354
教	-7.62113
海	-7.6245
叔	-7.62512
畧	-7.62604
進士	-7.6279
不能	-7.63016
近	-7.63045
開	-7.63206
訓	-7.63283
處	-7.63504
爾	-7.63745
韓	-7.64105
典	-7.64436
過	-7.64524
終	-7.64693
奉	-7.64699
廟	-7.65175
詔	-7.65222
遷	-7.65323
盖	-7.65719
附	-7.65766
永	-7.65837
讀	-7.6619
畫	-7.66474
承	-7.68439
雜	-7.68524
力	-7.68801
田	-7.68821
宜	-7.68904
止	-7.69887
㑹	-7.69916
靈	-7.70158
絶	-7.70257
許	-7.70777
馬	-7.7137
學者	-7.71753
流	-7.71767
全	-7.72385
引	-7.72475
千	-7.72662
置	-7.73095
氣	-7.73129
音	-7.7354
里	-7.73808
工	-7.73972
議	-7.74167
昭	-7.75019
呉	-7.75131
陸	-7.75217
列	-7.75485
末	-7.75504
而不	-7.75686
葢	-7.76156
我	-7.76361
宣	-7.76388
稿	-7.76645
宫	-7.76695
草	-7.76819
論語	-7.77266
失	-7.7727
春	-7.77278
軍	-7.7729
屬	-7.77434
寧	-7.78016
聖人	-7.78137
崇	-7.78269
胡	-7.78349
藏	-7.7835
尊	-7.78443
識	-7.78847
疏	-7.79027
加	-7.79058
孟	-7.79592
微	-7.79668
備	-7.79783
顧	-7.79828
致	-7.79858
程	-7.79894
并	-7.80957
不知	-7.80997
天下	-7.81034
博	-7.81329
四卷	-7.81633
寳	-7.81714
三年	-7.81796
儀	-7.81842
更	-7.82119
斯	-7.8217
受	-7.8295
所謂	-7.83244
儒	-7.83452
比	-7.83692
良	-7.83834
度	-7.83848
並	-7.83871
鄉	-7.84008
此書	-7.84154
未見	-7.84187
兵	-7.84848
尤	-7.8539
頌	-7.85716
好	-7.86108
代	-7.86228
但	-7.86407
由	-7.86504
皇	-7.86638
高	-7.86642
據	-7.86691
位	-7.87685
死	-7.87855
特	-7.87913
俱	-7.89054
河	-7.891
乾	-7.89157
具	-7.89162
廢	-7.89361
部	-7.90509
業	-7.90651
孟子	-7.90728
臺	-7.90785
莫	-7.91039
順	-7.91103
季	-7.91282
亂	-7.91685
歴	-7.92434
嚴	-7.92589
郭	-7.9259
金石	-7.92752
化	-7.92815
朱子	-7.93203
略	-7.9334
正書	-7.93366
僧	-7.93439
登	-7.93733
手	-7.93751
似	-7.93776
京	-7.93941
逸	-7.93978
纂	-7.94756
周禮	-7.9516
身	-7.95287
杜	-7.95396
誠	-7.95774
孝經	-7.95885
服	-7.96245
耶	-7.96313
造	-7.96398
竒	-7.96443
所以	-7.96513
四年	-7.96692
賜	-7.96895
斷	-7.96904
請	-7.97131
蘇	-7.97508
蔡	-7.97688
推	-7.97784
冊	-7.97954
篆	-7.97997
共	-7.98011
衛	-7.98318
此碑	-7.9915
者也	-7.99353
顯	-7.99493
郎	-7.99827
聲	-7.99833
閣	-8.00022
嘉	-8.0026
隂	-8.00264
親	-8.0034
虞	-8.00462
句	-8.00681
謝	-8.01175
大夫	-8.01287
盛	-8.01373
縣志	-8.01598
濟	-8.01643
墨	-8.01739
例	-8.0193
望	-8.01975
賦	-8.02195
貞	-8.02368
雅	-8.028
嵗	-8.03242
溪	-8.03471
㫖	-8.03482
勝	-8.03508
指	-8.03519
省	-8.03756
曹	-8.0399
講	-8.04233
五卷	-8.04261
沈	-8.04325
端	-8.04391
六卷	-8.0449
任	-8.04491
刋	-8.04781
總	-8.04884
慶	-8.05283
楚	-8.05363
之所	-8.05426
咸	-8.05641
太守	-8.05933
足	-8.06398
延	-8.06763
才	-8.06843
十二	-8.07004
拜	-8.07104
衆	-8.07166
十二卷	-8.07446
左氏	-8.07747
奏	-8.07819
邑	-8.08074
如此	-8.08076
贈	-8.08098
州刺史	-8.08115
源	-8.08266
其書	-8.08935
古文	-8.08977
獻	-8.09312
禮記	-8.09346
二十卷	-8.09914
殿	-8.10227
女	-8.1041
泉	-8.10584
英	-8.10681
墓	-8.10744
范	-8.11001
川	-8.11308
厯	-8.11693
貴	-8.11759
之説	-8.11774
丘	-8.11991
姓	-8.12101
之書	-8.12509
容	-8.1251
食	-8.12835
譜	-8.13056
參	-8.13125
利	-8.13146
弟子	-8.1321
汝	-8.13287
而已	-8.14132
友	-8.14182
吕	-8.14244
土	-8.14734
韻	-8.1486
石經	-8.15271
路	-8.15278
弟	-8.1536
八卷	-8.15364
君子	-8.15431
希	-8.15638
詞	-8.15776
反	-8.15817
習	-8.15919
康	-8.15959
叙	-8.16022
律	-8.16049
久	-8.16119
崔	-8.16156
祠	-8.16392
越	-8.17131
素	-8.17544
薛	-8.17834
繼	-8.17946
冠	-8.18244
二十	-8.18574
性	-8.18586
於是	-8.18679
吉	-8.18776
運	-8.19073
嘉靖	-8.1908
占	-8.19186
商	-8.19236
條	-8.19239
蜀	-8.19445
視	-8.19458
洪	-8.19493
衡	-8.19496
不得	-8.19522
印	-8.1989
告	-8.19914
歲	-8.20039
顔	-8.20316
游	-8.20439
𨽻	-8.20743
謂之	-8.21017
昔	-8.21175
俗	-8.21954
之學	-8.21968
就	-8.22037
室	-8.22111
還	-8.22404
秋	-8.22513
八分書	-8.22573
采	-8.22845
五年	-8.22999
司馬	-8.23003
之後	-8.23169
散	-8.23276
蕭	-8.23479
甫	-8.23585
曲	-8.23657
隱	-8.2387
徒	-8.23901
除	-8.23939
殊	-8.24
木	-8.24024
福	-8.24024
攷	-8.24054
摹	-8.24084
悉	-8.24235
盧	-8.2438
可以	-8.24421
疾	-8.24595
形	-8.24685
錢	-8.24701
召	-8.2501
偽	-8.25024
校	-8.25349
當時	-8.25736
頗	-8.26306
泰	-8.26766
美	-8.26878
一部	-8.27328
二百	-8.27365
隋	-8.27396
對	-8.27704
至於	-8.27949
青	-8.2802
器	-8.28133
四書	-8.28161
五經	-8.28353
每	-8.28431
克	-8.28444
諸儒	-8.28589
休	-8.28591
權	-8.28875
禹	-8.2891
達	-8.28919
轉	-8.29007
情	-8.29118
開元	-8.29158
闕二	-8.29371
温	-8.29463
六經	-8.29554
院	-8.29832
母	-8.29975
夷	-8.3083
監	-8.30956
不同	-8.31026
科	-8.31146
湖	-8.31687
妙	-8.32047
穆	-8.32292
翼	-8.32497
輔	-8.32533
秀	-8.32615
差	-8.32704
王氏	-8.32899
動	-8.32956
仙	-8.33222
丞	-8.3331
澤	-8.33334
尹	-8.33692
出於	-8.33712
申	-8.33733
感	-8.33775
約	-8.34157
惠	-8.34312
吏	-8.3433
維	-8.34423
羅	-8.34424
升	-8.34427
輯	-8.34546
惡	-8.34776
古今	-8.3484
執	-8.34856
質	-8.34873
蘭亭	-8.34937
最	-8.34943
歌	-8.34972
示	-8.35126
六年	-8.35179
愛	-8.35209
庭	-8.35389
彦	-8.35676
病	-8.35721
統	-8.3587
喜	-8.35877
星	-8.35931
葉	-8.3628
諱	-8.36325
字子	-8.36402
窮	-8.36549
之言	-8.36702
懐	-8.37192
翁	-8.3722
依	-8.3743
馮	-8.37462
遊	-8.38073
袁	-8.38135
羣	-8.38162
隨	-8.38238
御	-8.38301
其所	-8.38344
施	-8.38571
萬厯	-8.38655
儀禮	-8.38689
一作	-8.38962
佳	-8.39268
爻	-8.39302
彼	-8.39314
兮	-8.39921
韋	-8.39979
證	-8.4
鼎	-8.40033
車	-8.40112
適	-8.40183
再	-8.40408
后	-8.40604
恭	-8.40633
便	-8.40695
愚	-8.40856
覽	-8.40949
果	-8.41202
野	-8.41254
得之	-8.41459
移	-8.41487
誤作	-8.41856
夀	-8.42227
祀	-8.42248
仕	-8.42313
又有	-8.42684
十三	-8.42744
寶	-8.42746
嗣	-8.42907
曾	-8.431
三十卷	-8.43336
談	-8.43679
保	-8.44124
刑	-8.44214
河南	-8.44487
向	-8.44498
佛	-8.44583
私	-8.44622
當是	-8.44703
□	-8.44874
幾	-8.45531
離	-8.45535
祭	-8.46041
謙	-8.46164
莊	-8.46184
計	-8.4626
賈	-8.46354
苐	-8.46512
恐	-8.46577
震	-8.46805
谷	-8.46895
碑隂	-8.46925
薦	-8.47083
其後	-8.4723
丹	-8.47491
得其	-8.4752
其文	-8.47541
隋志	-8.47664
大學	-8.47862
術	-8.47998
肅	-8.48177
集古	-8.4824
陶	-8.48262
選	-8.48665
宏	-8.4869
職	-8.48706
曽	-8.48901
案	-8.49083
飛	-8.49243
坐	-8.49248
尺	-8.49316
堯	-8.4935
尉	-8.4957
題名	-8.496
虚	-8.49791
丁	-8.49877
宋志	-8.49918
榮	-8.50097
威	-8.50348
貫	-8.50505
洞	-8.506
而後	-8.5068
尋	-8.5078
交	-8.50797
六十	-8.50893
察	-8.50912
資	-8.50958
天子	-8.5119
亭	-8.51366
他	-8.51378
降	-8.51479
留	-8.51686
專	-8.51755
邦	-8.51901
裴	-8.51939
又曰	-8.52037
董	-8.5214
天地	-8.52222
傅	-8.52278
之意	-8.52473
戴	-8.52586
式	-8.52654
憂	-8.52694
哀	-8.52793
學士	-8.52833
半	-8.53146
松	-8.53301
未嘗	-8.53468
試	-8.53524
智	-8.53572
符	-8.53676
太子	-8.53835
䝉	-8.54222
後世	-8.54348
竊	-8.54373
空	-8.54607
紹興	-8.5462
夫子	-8.54748
燕	-8.54952
十八	-8.55168
綱	-8.55186
鎮	-8.55257
錫	-8.55274
夢	-8.5544
厚	-8.55548
文字	-8.55582
毛詩	-8.55618
又云	-8.5603
淵	-8.56059
中庸	-8.56061
自序曰	-8.56225
衣	-8.56275
幽	-8.56314
雨	-8.56545
像	-8.56789
竹	-8.56812
憲	-8.56889
幸	-8.56982
篆額	-8.57017
遇	-8.57336
右軍	-8.57626
期	-8.57687
籍	-8.57709
三百	-8.57756
率	-8.57762
岳	-8.57802
贊	-8.58134
爵	-8.58232
十一	-8.58281
妄	-8.58424
五十	-8.58456
晦	-8.58556
博士	-8.58579
一字	-8.58612
切	-8.58621
徴	-8.58631
諸侯	-8.58671
七十	-8.59203
樓	-8.59217
四十	-8.59792
靖	-8.59875
三十	-8.60085
洛	-8.60195
敏	-8.60271
旁	-8.60284
姚	-8.60596
池	-8.60864
佐	-8.60959
襄	-8.61036
緯	-8.6135
射	-8.61388
追	-8.61498
謹	-8.61746
跋	-8.6191
客	-8.62007
門人	-8.62454
序曰	-8.62466
殷	-8.6265
十五卷	-8.62663
十六	-8.62824
往	-8.62844
周公	-8.62916
鍾	-8.6295
舍	-8.62986
章句	-8.62988
垂	-8.63407
一百	-8.63611
辟	-8.63748
堅	-8.63781
註	-8.63802
房	-8.64165
倫	-8.64229
雍	-8.64232
模	-8.64303
諸家	-8.64417
仍	-8.64527
之道	-8.64911
戒	-8.6504
館	-8.65549
行書	-8.6555
甲	-8.6573
於此	-8.65881
文集	-8.6595
獲	-8.66
皇帝	-8.66147
二字	-8.66198
跡	-8.66214
刪	-8.66235
連	-8.66288
廷	-8.66308
姓名	-8.66364
以來	-8.66373
熊	-8.66425
豐	-8.66464
隠	-8.66527
十五	-8.66576
謀	-8.66664
純	-8.66752
畢	-8.67167
𢎞	-8.67489
覺	-8.67511
充	-8.67533
口	-8.67669
掌	-8.67806
然則	-8.67964
朔	-8.6804
為之	-8.68182
淳	-8.68303
巖	-8.68658
色	-8.68664
見於	-8.6881
弗	-8.68864
茂	-8.69047
恩	-8.69058
僅	-8.69092
毛	-8.69131
是書	-8.69482
壁	-8.6964
滅	-8.69691
患	-8.70069
寫	-8.70173
養	-8.70253
七卷	-8.70326
費	-8.70367
謬	-8.70539
敢	-8.70659
是也	-8.70845
落	-8.7089
十四	-8.70907
格	-8.70957
一人	-8.71121
管	-8.71249
忘	-8.71257
牧	-8.71293
允	-8.71308
品	-8.71562
務	-8.71592
不敢	-8.71593
墓誌	-8.71738
兄	-8.71768
持	-8.71963
設	-8.71972
一篇	-8.7199
侍郎	-8.72028
審	-8.72133
紹	-8.72157
脩	-8.72513
夫人	-8.72647
棄	-8.7269
十七	-8.72709
後人	-8.72719
誦	-8.72845
完	-8.72863
雄	-8.72984
烈	-8.73008
碑唐	-8.73275
勤	-8.73383
下闕	-8.73594
庶	-8.736
唐志	-8.73615
圗	-8.73644
文王	-8.73773
七年	-8.73783
機	-8.73864
退	-8.73874
苑	-8.73912
廟碑	-8.73922
積	-8.74071
以爲	-8.74132
懷	-8.74225
面	-8.74378
殆	-8.74566
况	-8.74573
勒	-8.74745
遣	-8.7476
刻石	-8.74963
公羊	-8.75052
易之	-8.75101
増	-8.75127
歐陽	-8.75132
祥	-8.75146
伏	-8.7517
一部二冊	-8.75208
將軍	-8.7555
兹	-8.75713
所載	-8.7578
史記	-8.75786
字畫	-8.75795
石刻	-8.75918
聖人之	-8.7606
虎	-8.7606
冬	-8.76248
龜	-8.7644
邵	-8.76447
故吏	-8.7656
井	-8.76626
葬	-8.76653
種	-8.76946
邪	-8.7697
會	-8.77372
元和	-8.7749
經傳	-8.77836
眞	-8.7787
司空	-8.77961
先儒	-8.7809
勢	-8.78106
不及	-8.78324
惜	-8.78557
錯	-8.78588
揚	-8.78591
額	-8.78711
想	-8.78821
布	-8.78822
未有	-8.78948
索	-8.79016
慎	-8.7902
集十卷	-8.79057
八年	-8.7926
繫	-8.79711
教授	-8.79784
征	-8.79985
不復	-8.80118
勞	-8.80154
撫	-8.80336
宰	-8.80355
壇	-8.8037
寛	-8.80453
貢	-8.80464
誥	-8.80638
族	-8.80711
罪	-8.80753
十年	-8.80811
己	-8.81183
君碑	-8.81326
隂陽	-8.81356
十九	-8.81392
竟	-8.81425
稽	-8.81625
收	-8.81778
火	-8.81884
履	-8.8192
上下	-8.81923
報	-8.82068
乆	-8.82101
麟	-8.82103
瑞	-8.82109
搨	-8.82134
間修	-8.82137
八分	-8.82148
桓	-8.82201
所著	-8.82456
鴻	-8.82469
之義	-8.82575
户	-8.82689
究	-8.82695
之類	-8.82756
寜	-8.82878
隆	-8.82902
玩	-8.83026
紙	-8.83155
結	-8.83185
標	-8.83188
均	-8.83256
貞觀	-8.83411
翰	-8.83519
亦有	-8.8359
漸	-8.83661
舜	-8.83787
以下	-8.84018
芳	-8.84034
喪	-8.84086
演	-8.84239
關	-8.84377
願	-8.84391
軒	-8.84408
須	-8.84507
恒	-8.84608
聚	-8.8461
之事	-8.8479
厥	-8.8481
富	-8.84821
之文	-8.84952
坤	-8.84994
繫辭	-8.85359
蘭	-8.85564
不足	-8.85595
晚	-8.85681
伐	-8.85767
念	-8.85807
循	-8.85816
勿	-8.86018
十四卷	-8.86042
今在	-8.8633
淮	-8.86346
姑	-8.86388
稍	-8.86549
無所	-8.86702
評	-8.86735
然後	-8.86797
息	-8.87002
助	-8.87023
湯	-8.87256
壽	-8.87259
輿	-8.87428
浮	-8.87473
彭	-8.87568
碑云	-8.87694
陳氏	-8.87711
米	-8.87749
潘	-8.87795
其名	-8.87978
可謂	-8.87996
歎	-8.87999
姜	-8.88006
偶	-8.8802
啟	-8.88112
弼	-8.8827
發明	-8.88321
園	-8.88331
其事	-8.8836
其説	-8.88541
包	-8.88596
慈	-8.8866
一巻	-8.88675
汪	-8.88699
秘	-8.88765
九卷	-8.89126
司徒	-8.89129
寸	-8.89177
範	-8.89235
第一	-8.89357
愈	-8.89598
古人	-8.8965
麗	-8.89653
有所	-8.89925
抄	-8.8995
夜	-8.90081
繁	-8.90099
其言	-8.90142
徵	-8.90313
旨	-8.90514
丞相	-8.90522
領	-8.90526
之說	-8.90619
州人	-8.90703
俞	-8.90775
五行	-8.91312
規	-8.91332
郎中	-8.91397
䟦	-8.91463
而無	-8.91482
諡	-8.91521
楷	-8.91635
庸	-8.91655
祝	-8.91669
板	-8.91892
九年	-8.91966
魚	-8.92007
太宗	-8.92039
衍	-8.92214
􁶚	-8.92428
擇	-8.9245
釋文	-8.92561
李氏	-8.92857
南京	-8.93183
鑑	-8.93184
字伯	-8.93223
樹	-8.93524
雪	-8.93545
寺碑	-8.93685
破	-8.93936
避	-8.94141
樞	-8.9416
横	-8.94188
啓	-8.94323
側	-8.94533
累	-8.9458
屋	-8.94612
皆有	-8.94704
賞	-8.94824
亮	-8.95016
年十月	-8.95268
塔	-8.95331
所書	-8.95343
晋	-8.95495
密	-8.95672
閒	-8.95679
所作	-8.95679
殺	-8.95681
宿	-8.95699
俾	-8.95712
叅	-8.9589
析	-8.95942
敦	-8.95989
婦	-8.96018
一卷存	-8.9602
其一	-8.96066
一卷又	-8.96076
被	-8.96147
苟	-8.96156
徙	-8.96159
掾	-8.96199
荆	-8.96211
烏	-8.96226
毁	-8.96535
版	-8.96619
唯	-8.96627
賊	-8.96636
蔵	-8.96951
大中	-8.9698
花	-8.97249
嗚呼	-8.97255
天寳	-8.97338
禪	-8.97517
十三卷	-8.97989
太學	-8.98022
右唐	-8.98073
禄	-8.98115
忽	-8.98155
集本	-8.98243
辰	-8.98372
苦	-8.98423
之間	-8.9843
醫	-8.9856
庵	-8.98562
爾雅	-8.98773
撰并書	-8.98806
增	-8.98845
互	-8.99009
害	-8.99061
巻	-8.99146
翰林	-8.99162
禮樂	-8.99178
也其	-8.99225
十六卷	-8.99267
幼	-8.99287
黨	-8.9935
集一卷	-8.99421
所藏	-8.99426
此本	-8.99439
奏議	-8.99449
潤	-8.995
放	-8.99549
八卦	-8.99553
橋	-8.99564
侍	-8.99564
假	-8.99733
鄒	-8.99775
鳳	-8.99812
天下之	-8.99847
欽	-9.00012
也故	-9.00116
惑	-9.00212
栁	-9.0022
狀	-9.00496
其間	-9.0066
知其	-9.00708
殘缺	-9.01
長安	-9.01105
從事	-9.01105
否	-9.01145
復齋	-9.01292
待	-9.01309
陰	-9.01353
䇿	-9.01594
訪	-9.01678
勁	-9.01727
損	-9.01805
鄭氏	-9.02211
乙	-9.02261
大觀	-9.02265
一日	-9.02348
書法	-9.02357
豫	-9.02553
旦	-9.02674
張氏	-9.02716
日月	-9.02751
託	-9.02785
遠	-9.03001
字仲	-9.03023
太和	-9.03034
委	-9.03047
慮	-9.03079
本義	-9.03175
峯	-9.03613
卜	-9.03782
御史	-9.0386
嶽	-9.03944
驗	-9.03998
文公	-9.04044
香	-9.04239
段	-9.04456
足以	-9.04715
者皆	-9.04733
强	-9.04776
鳴	-9.04787
隷	-9.04811
農	-9.04914
酒	-9.04934
梓	-9.04965
郊	-9.04981
緒	-9.05014
子夏	-9.05174
阿	-9.05234
某	-9.05248
脱	-9.05281
碑在	-9.05304
藝	-9.05325
勅	-9.05427
仰	-9.05452
後漢	-9.05732
梅	-9.05768
亦不	-9.05897
衰	-9.05936
候	-9.05937
謨	-9.06001
伏羲	-9.06024
融	-9.06109
足下	-9.06273
孤	-9.06456
其義	-9.06512
太尉	-9.06573
三傳	-9.06577
碑以	-9.06643
怪	-9.06685
来	-9.06843
瞻	-9.06935
鶴	-9.06976
基	-9.07206
振	-9.07463
樊	-9.07492
奇	-9.07684
珍	-9.077
抑	-9.07703
貞元	-9.07732
不見	-9.07915
藥	-9.07946
之法	-9.0798
雷	-9.08199
闗	-9.08208
舟	-9.08417
勸	-9.08467
紫	-9.0855
超	-9.08597
曉	-9.08656
易傳	-9.08676
周官	-9.08874
篤	-9.08926
逢	-9.08972
熙	-9.09138
法帖	-9.09356
帥	-9.09397
闕三	-9.09587
訛	-9.09664
數十	-9.09867
圓	-9.09929
羽	-9.10003
是以	-9.10017
擬	-9.10228
㣲	-9.10237
懸	-9.10414
宅	-9.1047
之士	-9.10475
誰	-9.10487
時人	-9.10644
年二月	-9.10969
録一卷	-9.11088
書目	-9.11214
覆	-9.11235
京兆金	-9.11259
營	-9.11267
奥	-9.1149
乗	-9.11531
寓	-9.11818
干	-9.11879
一卷佚	-9.11905
劉氏	-9.11919
蒼	-9.11993
蒙	-9.12003
襲	-9.12016
昇	-9.12041
輕	-9.12258
徽	-9.12277
悟	-9.12289
閩	-9.1233
詩集	-9.12687
骨	-9.12694
騎	-9.12826
彌	-9.12836
寒	-9.13076
測	-9.131
波	-9.13335
剛	-9.13336
讓	-9.13633
正義	-9.13717
以此	-9.13725
唐人	-9.13914
宇	-9.13974
以其	-9.13994
不載	-9.14003
此帖	-9.14017
孔氏	-9.14064
右漢	-9.14403
介	-9.14427
玄	-9.14598
之下	-9.14602
浩	-9.14616
懼	-9.14665
遵	-9.14923
賔	-9.14943
𫝊	-9.14979
漫	-9.1504
桂	-9.15167
提	-9.1537
老子	-9.15403
到	-9.1546
歟	-9.15476
毅	-9.15746
國子監	-9.15777
鄧	-9.15809
所得	-9.159
府志	-9.1591
彖	-9.16198
較	-9.1627
赤	-9.16281
鮮	-9.16311
集解	-9.1634
通志	-9.16664
所見	-9.1672
處士	-9.16776
策	-9.1679
慰	-9.1685
兆	-9.16855
坊	-9.1687
漢書	-9.16957
年正月	-9.16957
藴	-9.17079
三月	-9.17328
淺	-9.17332
劉向	-9.17371
苐一千	-9.17405
洪範	-9.17431
後魏	-9.17438
納	-9.17653
言之	-9.17653
晏	-9.17658
普	-9.17667
照	-9.17712
南陽	-9.17754
册	-9.17888
迄	-9.17917
辯	-9.17925
亨	-9.17988
遭	-9.18198
調	-9.18442
府君	-9.18526
秉	-9.1855
靜	-9.18564
石錄	-9.18646
其為	-9.18687
恨	-9.18713
偏	-9.18716
衞	-9.18745
偉	-9.1875
嵩	-9.18757
蔡邕	-9.18763
洛陽	-9.18974
京兆	-9.18984
乞	-9.19012
一書	-9.19066
大厯	-9.1914
製	-9.19526
國公	-9.19527
送	-9.19568
借	-9.19574
寅	-9.19597
牛	-9.19632
所傳	-9.19704
子孫	-9.19739
徃	-9.19857
中有	-9.19868
配	-9.19886
舎	-9.19898
三代	-9.20054
頴	-9.20109
年四月	-9.20206
㑹稽	-9.20219
廿	-9.20222
諫	-9.20456
鳯	-9.2051
人也	-9.20575
孰	-9.20678
材	-9.2077
講義	-9.20784
筆法	-9.20855
一時	-9.20917
倉	-9.21004
逹	-9.21012
擢	-9.21041
一卷未見	-9.21057
細	-9.21269
訂	-9.21292
係	-9.21358
仲尼	-9.21366
童	-9.21561
括	-9.21578
碣	-9.21653
太極	-9.21676
碑録	-9.2186
藝文志	-9.21861
迹	-9.21877
悲	-9.21906
長史	-9.21934
薄	-9.22137
静	-9.22209
年月	-9.22391
鑒	-9.22393
男	-9.22425
賀	-9.22472
之辭	-9.22628
績	-9.22823
答	-9.22843
左傳	-9.22856
字元	-9.22961
侍中	-9.23045
接	-9.23074
傷	-9.23076
廬	-9.23513
舒	-9.23564
督	-9.23602
一本	-9.23666
太平	-9.23812
鐫	-9.23924
齡	-9.23944
後有	-9.24072
饒	-9.24542
虛	-9.24561
浦	-9.24602
禁	-9.24652
聽	-9.24788
契	-9.24799
胡氏	-9.24828
何以	-9.25018
異同	-9.25028
輩	-9.25033
荒	-9.251
滿	-9.25102
萬物	-9.25196
永樂	-9.25212
求之	-9.25348
其辭	-9.25365
笑	-9.25389
勉	-9.25407
懿	-9.25424
雙	-9.25435
本末	-9.25682
賓	-9.25719
獻之	-9.25903
班	-9.2594
二篇	-9.25954
採	-9.25989
嘉定	-9.26132
者亦	-9.26299
為一	-9.26444
以後	-9.26542
賛	-9.26566
䕶	-9.26585
負	-9.26597
鑿	-9.26613
欽定四庫全書	-9.26639
熈	-9.26815
頭	-9.26821
觧	-9.2683
乘	-9.26877
丈	-9.2688
聘	-9.2697
讀書	-9.26997
副	-9.27138
沒	-9.27184
筮	-9.27193
慕	-9.27213
門生	-9.27228
五百	-9.27263
沙	-9.27266
一部三冊	-9.27376
獄	-9.27538
妻	-9.27874
暇	-9.27902
其中	-9.28042
潛	-9.28151
吴	-9.28159
戰	-9.28232
淳化	-9.28301
署	-9.2839
君之	-9.2849
安國	-9.28561
逆	-9.28734
禍	-9.28971
縣令	-9.29011
也然	-9.29051
操	-9.2906
先天	-9.29253
祐	-9.29346
霸	-9.29667
御製	-9.29675
珠	-9.29689
録目	-9.29823
道士	-9.29857
八十	-9.30063
見其	-9.30135
前後	-9.30224
整	-9.30278
勲	-9.30289
武帝	-9.30367
可見	-9.30382
帝王	-9.30403
歳	-9.30568
眀	-9.30605
粹	-9.3064
味	-9.30658
㸃	-9.30886
誌	-9.30893
罷	-9.3095
不著	-9.30991
闕一	-9.30994
免	-9.31074
往往	-9.3124
秩	-9.3125
創	-9.31536
黎	-9.31542
喬	-9.31601
璧	-9.31605
儒學	-9.31656
象數	-9.31681
文章	-9.31772
江西	-9.31778
洪武	-9.31792
不合	-9.31826
遜	-9.31872
乾坤	-9.31936
刻之	-9.3195
著書	-9.32148
斗	-9.32186
效	-9.32205
殘	-9.32238
之徒	-9.32711
必有	-9.32785
含	-9.3281
革	-9.32824
也今	-9.32866
之名	-9.32975
恕	-9.33215
二十八	-9.33282
刺	-9.33287
而為	-9.33296
逮	-9.33455
於易	-9.33457
珪	-9.33469
亷	-9.33527
縱	-9.33731
研	-9.33766
役	-9.33808
飲	-9.33834
十八卷	-9.33964
之數	-9.34043
判	-9.34167
集注	-9.3443
榖	-9.34434
窺	-9.34453
根	-9.34464
黄帝	-9.34467
鹿	-9.34468
彚	-9.34481
中興	-9.3457
削	-9.34659
漢儒	-9.34694
鐘	-9.34704
攻	-9.34753
享	-9.34756
十一年	-9.34763
羲	-9.34775
之子	-9.34858
僕	-9.34921
辛	-9.34997
貶	-9.34998
屈	-9.35085
誓	-9.35087
元祐	-9.35235
各有	-9.35339
邊	-9.35362
樵	-9.35445
存者	-9.35496
洽	-9.35712
裕	-9.35781
京師	-9.35796
澄	-9.35806
謁	-9.35819
考之	-9.35863
年五月	-9.3589
失其	-9.3591
逸少	-9.35932
援	-9.36078
諡文	-9.36083
繹	-9.36084
頃	-9.36097
肇	-9.36101
謚	-9.36116
俊	-9.36134
二十四	-9.36137
一冊	-9.36268
蹟	-9.36283
箋	-9.36386
程子	-9.36402
防	-9.36407
字缺	-9.36523
諸書	-9.36668
早	-9.36703
官至	-9.3672
裔	-9.36769
喻	-9.36812
十巻	-9.36818
國史	-9.36841
宋史	-9.36874
十七卷	-9.36967
北海	-9.36985
十三年	-9.37231
歐陽公	-9.37294
奔	-9.37371
琴	-9.37386
之外	-9.37422
圭	-9.37437
巨	-9.37442
給	-9.37478
荀	-9.37532
自序	-9.37648
岐	-9.37665
市	-9.37726
決	-9.37742
露	-9.37746
函	-9.37883
故曰	-9.37884
子曰	-9.37924
戰國	-9.37925
二人	-9.37937
敗	-9.38041
弱	-9.38064
九經	-9.38103
吕氏	-9.38113
五代	-9.38136
姓氏	-9.38143
四月	-9.38284
宰相	-9.38301
挍	-9.38379
炎	-9.38389
竇	-9.38423
角	-9.38435
十餘	-9.38611
宻	-9.38707
痛	-9.38791
𢎞治	-9.38899
趙氏	-9.38913
八百	-9.38983
名曰	-9.38985
一部四冊	-9.38997
焚	-9.39071
量	-9.39075
屢	-9.39111
程氏	-9.39115
未必	-9.39369
陋	-9.39459
父子	-9.39489
崖	-9.39494
年七月	-9.39514
今文	-9.39576
陽人	-9.39738
三禮	-9.39744
詠	-9.39751
咸通	-9.39767
付	-9.39775
本朝	-9.39807
稷	-9.39808
莫不	-9.39822
焦	-9.39831
單	-9.39835
即位	-9.39883
鼓	-9.39897
讀易	-9.39901
不過	-9.40005
輒	-9.40129
卜筮	-9.40184
以上	-9.40316
六十四卦	-9.40322
集二卷	-9.40333
後漢書	-9.40384
集傳	-9.40427
閲	-9.40468
桑	-9.40476
弊	-9.4048
决	-9.40489
其餘	-9.40514
哲	-9.40532
陳振孫曰	-9.40569
七月	-9.4059
三家	-9.4065
記一卷	-9.40693
鳥	-9.40837
沛	-9.40882
未詳	-9.40908
髙宗	-9.40926
百餘	-9.41121
蔣	-9.41233
二月	-9.41295
是非	-9.41344
十月	-9.41516
柔	-9.41554
繆	-9.41571
大小	-9.41621
成化	-9.41936
浙	-9.41979
十四年	-9.42098
肆	-9.42224
駕	-9.42225
熟	-9.42231
圖次	-9.42244
帙	-9.42249
易者	-9.42299
将	-9.42488
急	-9.42561
戎	-9.42574
卑	-9.42629
文帝	-9.42646
之心	-9.42825
舉人	-9.4288
詩書	-9.43022
始於	-9.43078
十二年	-9.43203
頓	-9.43205
諸道石	-9.434
書者	-9.43404
由是	-9.43461
用之	-9.43484
二十九	-9.43502
導	-9.43586
鏡	-9.43631
河東	-9.43663
而下	-9.43808
五十卷	-9.43809
永嘉	-9.43867
臯	-9.441
晁	-9.4417
摩	-9.44288
只	-9.44288
傳之	-9.4431
没	-9.44337
従	-9.44409
自號	-9.4442
夕	-9.44421
諸生	-9.44545
定武	-9.4462
四十卷	-9.44743
芝	-9.44757
無不	-9.44791
集二十卷	-9.44835
十卷佚	-9.44926
朝廷	-9.45008
歴代	-9.45018
譏	-9.45038
兒	-9.45047
汲	-9.4509
違	-9.45118
榖梁	-9.45252
臨川	-9.45304
危	-9.45478
本傳	-9.45506
項	-9.45535
國語	-9.45596
世之	-9.45617
之際	-9.45643
背	-9.45846
楊氏	-9.45944
歐	-9.46087
北齊	-9.46095
支	-9.46149
縁	-9.46166
臆	-9.46166
塗	-9.46169
繇	-9.46257
義理	-9.4632
右皇朝	-9.46333
扶	-9.46527
探	-9.46534
學官	-9.46538
該	-9.46547
刺史	-9.46682
禪師	-9.46803
全書	-9.46813
靡	-9.46883
馳	-9.46903
太常	-9.46913
寡	-9.46921
曜	-9.46946
左右	-9.46951
東坡	-9.46975
太𤣥	-9.4705
山人	-9.47122
宣和	-9.4714
年三月	-9.47155
訣	-9.47301
攝	-9.47334
社	-9.47351
成都	-9.47383
公之	-9.47395
之語	-9.47415
之功	-9.47505
崑山	-9.47578
阮	-9.47673
君臣	-9.47746
翰林院	-9.47774
魯公	-9.47865
褚	-9.4793
大義	-9.47961
庾	-9.47968
者則	-9.48005
了	-9.48008
羊	-9.48058
年八月	-9.4808
懋	-9.48155
系	-9.48169
建安	-9.48211
爰	-9.48441
謫	-9.48522
正月	-9.48569
為之序	-9.48572
㡬	-9.48775
寄	-9.48793
域	-9.48822
通鑑	-9.48885
唐贈	-9.48974
短	-9.49154
幹	-9.49169
躬	-9.49223
冀	-9.4923
安人	-9.49358
見之	-9.49437
天地之	-9.49567
真蹟	-9.49596
先後	-9.49679
以示	-9.4978
恵	-9.49846
倣	-9.49877
黃	-9.49889
近世	-9.49902
舛	-9.49918
界	-9.49949
主簿	-9.50001
之中	-9.50089
二十二	-9.50113
二十一	-9.50139
尾	-9.50186
六月	-9.50253
毫	-9.50293
人物	-9.50306
鄭康成	-9.50364
延熹	-9.50418
絳	-9.50521
誅	-9.50631
甘	-9.50663
預	-9.50665
艮	-9.50807
優	-9.51018
取其	-9.51042
五月	-9.51094
遲	-9.51096
塞	-9.51098
孚	-9.51144
祁	-9.5115
柱	-9.51295
峻	-9.513
葛	-9.51337
都尉	-9.51386
拙	-9.51469
至正	-9.51474
以前	-9.51522
者不	-9.51638
臧	-9.51834
庫	-9.51862
叟	-9.51876
十一卷	-9.51902
祚	-9.51923
吉凶	-9.5193
州志	-9.52068
討	-9.5207
開元二十	-9.52096
之易	-9.52151
丗	-9.52215
彰	-9.52229
禮部	-9.52307
湛	-9.52308
折衷	-9.5232
外傳	-9.52478
鬼	-9.52489
藻	-9.52618
勑	-9.52655
何如	-9.52841
集四卷	-9.52924
河圖	-9.52939
韶	-9.53011
以明	-9.53023
甲子	-9.53181
之㫖	-9.53285
年十一月	-9.53293
裂	-9.534
其人	-9.53414
回	-9.53434
萬世	-9.53442
郷	-9.53444
得失	-9.53506
桐	-9.5357
之所以	-9.53818
傳注	-9.53824
罕	-9.53828
罔	-9.53839
𨽻書	-9.53858
然而	-9.53941
之理	-9.54014
邕	-9.54082
四方	-9.54093
褒	-9.54115
凢	-9.54123
暢	-9.54183
唐李	-9.54218
環	-9.5423
縣人	-9.54241
少卿	-9.54284
崇禎	-9.54287
分書	-9.543
至今	-9.54364
詣	-9.54569
鄙	-9.54587
槩	-9.54653
耕	-9.54693
闕四	-9.5486
云云	-9.5501
其意	-9.55038
毋	-9.5505
植	-9.55051
踰	-9.55059
二十五	-9.55076
一二	-9.55243
月令	-9.55346
觀其	-9.55405
柳	-9.55412
明皇	-9.55469
不然	-9.55539
郡守	-9.55561
書也	-9.55674
徐氏	-9.55796
村	-9.55865
之餘	-9.55896
千載	-9.55973
之傳	-9.56174
列傳	-9.56235
淑	-9.56263
君諱	-9.56273
政和	-9.56382
其下	-9.56476
渠	-9.5653
巳	-9.56556
相傳	-9.566
壯	-9.56617
公碑	-9.56819
重修	-9.56958
乖	-9.56997
未知	-9.57014
􁀙	-9.57037
之時	-9.57096
也夫	-9.57345
敷	-9.57436
誕	-9.57449
也而	-9.57456
年九月	-9.57457
知府	-9.57533
年十二月	-9.57642
祕	-9.57738
二十七	-9.57799
文選	-9.57809
蒲	-9.57859
慧	-9.57869
不應	-9.57886
闡	-9.57892
摘	-9.57901
翻	-9.5797
論一卷	-9.57975
字文	-9.58158
其學	-9.58159
諸子	-9.58175
専	-9.58271
潭	-9.58272
軌	-9.58278
彛	-9.58338
刻於	-9.58403
道之	-9.58435
未能	-9.58463
所記	-9.58476
曰吾	-9.58487
黄氏	-9.58524
太史	-9.58529
卓	-9.58557
齋集	-9.58646
名臣	-9.58653
誣	-9.5869
之故	-9.58701
招	-9.58703
一家	-9.58786
年六月	-9.58815
則有	-9.5887
第二	-9.58974
趣	-9.59045
舞	-9.59071
其先	-9.5912
倪	-9.59143
伊	-9.59477
或作	-9.59519
奚	-9.59565
四字	-9.59624
皆以	-9.59678
不相	-9.59866
準	-9.59915
津	-9.59943
吟	-9.59957
朗	-9.59976
八月	-9.60003
襍	-9.60063
書并篆額	-9.60076
墳	-9.60122
經義	-9.60139
治平元年	-9.60153
泰山	-9.60222
是故	-9.60353
肥	-9.60353
裁	-9.60361
讀之	-9.60445
曾子	-9.60463
節度	-9.60568
不可以	-9.60644
唐書	-9.60727
煩	-9.60759
投	-9.60774
者有	-9.60838
禹貢	-9.6092
太傅	-9.60924
者以	-9.61018
僖	-9.61165
粗	-9.61192
盈	-9.61219
磨滅	-9.61255
儉	-9.61256
公主	-9.61264
畏	-9.61275
非也	-9.61369
太祖	-9.61417
集三卷	-9.61526
育	-9.61649
匡	-9.61678
牒	-9.61685
其子	-9.61712
三字	-9.61842
十五年	-9.61892
自然	-9.61929
開成	-9.61936
堪	-9.62016
旋	-9.62032
疇	-9.62098
涇	-9.62119
銅	-9.62154
建寧	-9.62219
注云	-9.62409
隸	-9.62429
救	-9.62454
頒	-9.62459
趨	-9.62479
殘碑	-9.62529
盤	-9.62577
大抵	-9.62588
叢	-9.62593
議郎	-9.62788
詩一卷	-9.62873
九十	-9.62917
冢	-9.63403
不為	-9.63442
吏部尚書	-9.63469
天寶	-9.6348
百家	-9.63652
台	-9.63716
墜	-9.63786
篆書	-9.63815
汾	-9.63876
不傳	-9.63938
無疑	-9.64005
故事	-9.6408
之則	-9.64606
祈	-9.64708
禧	-9.64708
龔	-9.64715
蓍	-9.6474
翰林學士	-9.64762
易學	-9.64878
者其	-9.64956
姪	-9.65031
傑	-9.6505
鈔	-9.65072
山谷	-9.65185
伊川	-9.65216
十二月	-9.65506
黙	-9.65532
知縣	-9.65543
邱	-9.65567
泥	-9.65586
釐	-9.65611
屯	-9.65612
頥	-9.65647
地理	-9.65881
毎	-9.65995
邢	-9.66017
宦	-9.66025
錄一部一冊	-9.66041
蔡氏	-9.66234
行於世	-9.66239
元豐	-9.66374
昧	-9.66413
徑	-9.66426
靈帝	-9.6647
諭	-9.66476
巡	-9.66484
太原	-9.66506
陸氏	-9.66558
諸經	-9.66708
之上	-9.66715
可疑	-9.66773
暨	-9.66932
之論	-9.66961
綸	-9.66996
皇朝	-9.67016
文義	-9.67044
庚	-9.67109
成書	-9.67227
□(	-9.67229
𤣥宗	-9.6728
盟	-9.67282
王弼	-9.67288
金華	-9.67316
昏	-9.67351
遼	-9.67367
也按	-9.67415
㳺	-9.67446
三千	-9.67661
大將軍	-9.67706
者為	-9.67737
驚	-9.67778
鐵	-9.67802
混	-9.67838
甞	-9.67851
東萊	-9.67922
之屬	-9.67939
明堂	-9.68013
所為	-9.68094
之本	-9.68186
歩	-9.68219
赴	-9.68247
峰	-9.68256
巧	-9.68265
兄弟	-9.68297
御書	-9.68384
内外	-9.68431
之末	-9.68503
州府志	-9.68509
冬官	-9.68591
磨	-9.68621
漏	-9.68655
僞	-9.68707
義疏	-9.68708
綂	-9.68727
搜	-9.68764
皆不	-9.68784
九月	-9.68876
經籍	-9.68919
髙祖	-9.69103
如是	-9.6916
確	-9.6918
爽	-9.69209
陽縣	-9.69228
給事中	-9.69247
庶幾	-9.69252
禮部尚書	-9.69427
或以	-9.69467
當作	-9.6965
王應麟曰	-9.6966
垣	-9.6968
大全	-9.69685
奕	-9.69695
侍講	-9.69752
人所	-9.69784
漢志	-9.69812
易解	-9.69925
二卷又	-9.69986
可知	-9.7003
併	-9.70118
卯	-9.70126
庻	-9.70136
國朝	-9.70137
枝	-9.70157
刻録	-9.70162
柏	-9.70205
城人	-9.70214
皇甫	-9.70278
喪服	-9.70347
嗟	-9.70417
古之	-9.7052
未見黄虞稷曰	-9.70522
以求	-9.70542
剥	-9.70583
塵	-9.70583
局	-9.70585
谿	-9.70606
却	-9.70626
又以	-9.70657
綱目	-9.70682
一篇存	-9.70704
其說	-9.70778
宣王	-9.70778
顧作	-9.70821
十篇	-9.70932
正徳	-9.71012
責	-9.71012
禽	-9.71015
險	-9.71028
旣	-9.71045
蕃	-9.71059
凌	-9.71059
獸	-9.71067
部郎中	-9.7109
蕩	-9.71102
訓詁	-9.71105
晨	-9.71116
朕	-9.71129
猶有	-9.71131
漕	-9.71135
所刻	-9.71209
經一卷	-9.71249
間有	-9.71311
鋒	-9.71348
十二篇	-9.71433
邈	-9.71469
紛	-9.71477
譔	-9.71481
凝	-9.71492
文學	-9.71525
摭	-9.71559
属	-9.7156
茶	-9.71611
濳	-9.71629
而成	-9.71712
綴	-9.71961
所未	-9.71968
長慶	-9.71985
嘆	-9.71998
碎	-9.71998
傳云	-9.72044
紳	-9.72051
孔子廟	-9.72212
於後	-9.72242
一帖	-9.72333
未及	-9.72419
擊	-9.72486
輙	-9.72492
寵	-9.72497
經文	-9.72581
一行	-9.72894
自為	-9.72925
狄	-9.72959
之變	-9.72974
宛	-9.72993
旅	-9.73024
朱氏	-9.73037
記唐	-9.73058
孺	-9.73079
提舉	-9.73115
晁公武曰	-9.73138
致仕	-9.73172
也此	-9.73251
城縣	-9.73338
三十六	-9.73352
乏	-9.73416
冲	-9.73421
庠	-9.73445
岡	-9.73461
家語	-9.73472
陞	-9.73548
六百	-9.73628
題云	-9.73657
後周	-9.7366
公孫	-9.73693
尼	-9.73876
協	-9.7389
闢	-9.73911
況	-9.7392
階	-9.73926
迂	-9.73939
財	-9.73949
煥	-9.73984
崇文總目	-9.73989
長沙	-9.74051
易也	-9.74135
歸藏	-9.74158
者矣	-9.74241
居士	-9.74254
一百卷	-9.74266
有一	-9.74278
節度使	-9.74279
字叔	-9.74298
潮	-9.74368
譌	-9.74408
供	-9.74413
築	-9.74423
屏	-9.74432
第三	-9.74433
五日	-9.74435
困	-9.74447
祭酒	-9.74518
書成	-9.74533
東漢	-9.74677
話	-9.74706
一部五冊	-9.74776
不言	-9.74856
崩	-9.74879
凶	-9.74929
之作	-9.74982
副使	-9.75103
不具	-9.75121
三篇	-9.75223
伏生	-9.75229
通考	-9.75315
撰人	-9.75337
遽	-9.75351
渾	-9.75359
踐	-9.75361
儼	-9.75399
霞	-9.75462
昆	-9.75478
士大夫	-9.75644
有餘	-9.75802
學易	-9.75847
飾	-9.75849
猷	-9.75893
亦無	-9.75897
也又	-9.76016
法師	-9.76047
文武	-9.76169
之禮	-9.76171
顔真卿	-9.76328
嘉祐	-9.76349
疎	-9.76357
滕	-9.76376
厲	-9.76398
嶺	-9.76415
淳熙	-9.7645
㕘	-9.76479
秘書	-9.76502
廬陵	-9.76507
集五卷	-9.76625
書無姓名	-9.76683
板本	-9.76689
矣然	-9.76796
中郎	-9.76822
席	-9.76835
大業	-9.76851
怒	-9.76851
不類	-9.76872
滋	-9.76894
億	-9.76898
不以	-9.76907
敕	-9.76924
荘	-9.76938
人萬厯	-9.7695
之妙	-9.7697
或問	-9.76999
王羲之	-9.77147
巴	-9.77222
圍	-9.77314
悦	-9.77341
抱	-9.77356
拘	-9.77371
産	-9.77388
淫	-9.77409
訪碑	-9.77412
割	-9.77432
汝南	-9.77567
小學	-9.77582
前有	-9.77722
瘦	-9.77817
排	-9.77838
帶	-9.77853
目録	-9.77896
寂	-9.7791
牽	-9.77911
坎	-9.77919
豫章	-9.7805
列於	-9.78155
立碑	-9.78239
而未	-9.78282
或曰	-9.78289
境	-9.78319
而有	-9.78332
菴	-9.78367
二十四卷	-9.7841
有此	-9.78419
草書	-9.78495
秦漢	-9.78611
逐	-9.78853
譜一卷	-9.78905
薨	-9.78942
文言	-9.79019
原本	-9.79066
隆慶	-9.79082
上元	-9.79135
字體	-9.79153
江南	-9.79164
乎其	-9.79206
三日	-9.79298
鈎	-9.79339
覩	-9.79396
鹽	-9.7941
注疏	-9.7942
永興	-9.79427
翔	-9.79434
䖍	-9.79438
欣	-9.79441
偹	-9.79448
好古	-9.79452
咏	-9.79509
武王	-9.79527
實録	-9.79533
之制	-9.79558
觀之	-9.79722
得於	-9.79876
俟	-9.79882
大學士	-9.79887
鄱陽	-9.79892
艱	-9.79904
挺	-9.79939
閏	-9.79954
稱其	-9.79986
新安	-9.8007
圖一卷	-9.80077
世傳	-9.80078
六十四	-9.80121
▁同上	-9.80232
丹陽	-9.80239
潔	-9.80395
佑	-9.80398
失之	-9.80402
駁	-9.80419
郁	-9.80493
婁	-9.80496
一千	-9.80608
快	-9.80834
舊本	-9.80843
名氏	-9.80861
逵	-9.809
鄴	-9.80907
賴	-9.80937
遁	-9.80937
炳	-9.80958
賤	-9.80971
譚	-9.81021
無窮	-9.81103
草木	-9.8113
二十三	-9.81373
其父	-9.81389
藉	-9.81402
之大	-9.81414
呂	-9.81436
吏部	-9.81446
奪	-9.81464
筠	-9.81466
閔	-9.81514
潜	-9.81538
不知何	-9.81552
熹平	-9.81558
之前	-9.81637
水經	-9.81718
杭	-9.81882
傾	-9.81959
綜	-9.82007
蘓	-9.82009
然其	-9.8201
甲辰	-9.82075
天文	-9.82115
夏侯	-9.82199
次第	-9.82202
五字	-9.82254
集一部一冊	-9.82256
後學	-9.82296
東都	-9.82311
淮南	-9.82358
檢	-9.82369
有云	-9.82417
迎	-9.82469
雕	-9.82532
旌	-9.82533
編修	-9.8255
朱文公	-9.82661
孔子之	-9.82697
事實	-9.82738
行事	-9.82914
沉	-9.83013
耆	-9.83037
雖然	-9.83056
顔魯公	-9.83063
之盛	-9.83067
騰	-9.83076
行之	-9.83081
彪	-9.83084
㕥	-9.83234
變化	-9.83245
天台	-9.8332
羲之	-9.83384
八十一	-9.83404
小字	-9.83492
辨疑	-9.83498
舘	-9.83522
之謂	-9.83546
區	-9.83559
題曰	-9.83565
鉉	-9.83605
牟	-9.8362
不盡	-9.83631
攸	-9.83637
拾遺	-9.83648
學之	-9.83659
明經	-9.83858
何也	-9.83885
乾道	-9.83906
十一月	-9.83916
距	-9.8407
瓘	-9.84075
之用	-9.84076
漢人	-9.84085
隱居	-9.841
閭	-9.84118
璽	-9.84132
冡	-9.84137
詮	-9.84149
百九十	-9.84367
儒者	-9.84437
因之	-9.84498
諤	-9.8463
銜	-9.84655
走	-9.84662
隅	-9.84702
濓	-9.84733
孔安國	-9.84741
并書	-9.84906
之象	-9.84938
也又曰	-9.85126
減	-9.85134
孫氏	-9.85139
昨	-9.85145
藩	-9.85198
二冊	-9.85226
溥	-9.85237
聖賢	-9.85257
濬	-9.85279
一函	-9.85282
不必	-9.85358
萃	-9.85738
戚	-9.85741
耀	-9.85756
衢	-9.85762
住	-9.85796
眉	-9.858
三人	-9.85815
首尾	-9.8582
音義	-9.85922
晦庵	-9.85966
慨	-9.86028
子思	-9.86128
遺稿	-9.86149
傍	-9.862
誼	-9.86265
竝	-9.86266
爭	-9.86282
夘	-9.8633
訟	-9.86367
二巻	-9.86565
自是	-9.8668
易經	-9.867
嬰	-9.86797
藁	-9.86804
斥	-9.86831
其上	-9.86841
揆	-9.86846
壊	-9.86847
使人	-9.86925
所立	-9.87036
沙門	-9.87093
求其	-9.87101
人事	-9.87102
所存	-9.87172
同時	-9.87193
修撰	-9.87263
雜記	-9.87288
一部六冊	-9.87312
琳	-9.87325
冕	-9.87364
胄	-9.87434
饗	-9.87451
貧	-9.87457
所撰	-9.87503
百八十	-9.87631
易説	-9.87649
是時	-9.87669
訣一卷	-9.87739
七録	-9.87745
有二	-9.87821
洗	-9.87823
忌	-9.87873
算	-9.87889
進士官	-9.8792
黜	-9.8793
翟	-9.87942
匪	-9.87948
繩	-9.87952
逰	-9.87962
琰	-9.87972
伸	-9.87977
下有	-9.87978
嘗為	-9.88052
三十二	-9.88101
也余	-9.88112
堯舜	-9.88136
門下	-9.88143
子雲	-9.88181
而不知	-9.88239
太師	-9.88382
則其	-9.88433
午	-9.88497
胥	-9.88525
儲	-9.88542
不知其	-9.88545
之詩	-9.88663
本於	-9.8869
碑文	-9.88774
陽令	-9.88793
改正	-9.88825
小序	-9.88839
相與	-9.88907
顛	-9.8897
鉤	-9.88971
時有	-9.89044
監察御史	-9.89065
帛	-9.89082
員	-9.89136
經世	-9.89371
開皇	-9.89411
漢碑	-9.89426
之誤	-9.89491
山陽	-9.89581
古者	-9.89588
和尚	-9.89634
朋	-9.8968
二千	-9.89685
禎	-9.89693
書院	-9.89732
二十年	-9.89746
都督	-9.89756
州都督	-9.89767
則知	-9.89778
穿	-9.89797
上之	-9.89843
國家	-9.89858
遒	-9.89999
四冊	-9.90061
圖經	-9.90074
者必	-9.90075
識者	-9.90119
集八卷	-9.90135
札	-9.90156
束	-9.90169
争	-9.90174
謂其	-9.90193
倍	-9.90207
涉	-9.90237
劉歆	-9.90275
東南	-9.90279
四篇	-9.90283
連山	-9.905
十里	-9.90711
詁	-9.90738
絲	-9.90742
步	-9.90767
完好	-9.9083
改元	-9.90831
班固	-9.9084
九百	-9.90858
重刻	-9.90968
字季	-9.90982
陸元輔曰	-9.90994
人心	-9.91005
之初	-9.91036
不可得	-9.91101
禇	-9.91233
明年	-9.91263
倒	-9.91266
簿	-9.91307
撮	-9.91316
亦可	-9.9132
五篇	-9.91332
奈何	-9.91355
犯	-9.91358
二十六	-9.91371
僭	-9.91372
則曰	-9.91389
錦	-9.914
謹案右一帖草書	-9.91404
瞿	-9.91405
别為	-9.91483
國子	-9.9149
志一冊	-9.91499
圖書	-9.91576
同異	-9.91669
亦云	-9.91705
漢故	-9.91778
二書	-9.91844
岑	-9.91898
瓊	-9.91908
巢	-9.9192
疆	-9.91938
寢	-9.91954
影	-9.91962
歙	-9.92001
以是	-9.92011
先生之	-9.92012
僅存	-9.9206
弓	-9.922
上有	-9.92229
陣	-9.92352
寕	-9.92439
蔽	-9.92487
經史	-9.92516
膺	-9.92532
平生	-9.92551
洲	-9.92569
噐	-9.92585
𦙍	-9.92627
大令	-9.9274
序云	-9.92751
丙	-9.92771
際	-9.92775
所聞	-9.92848
滯	-9.93002
昭陵	-9.93012
而作	-9.9306
以俟	-9.93064
凱	-9.93089
東海	-9.93099
發揮	-9.93169
從之	-9.93207
穀梁	-9.93223
訓導	-9.93235
之舊	-9.93249
集古録	-9.93303
中書	-9.93313
光禄	-9.93313
中立	-9.93366
之失	-9.93465
南唐	-9.93529
肉	-9.93576
或有	-9.93611
片	-9.93662
偃	-9.93667
健	-9.93669
廵	-9.93673
播	-9.93701
戸	-9.93723
開元十	-9.93732
山川	-9.93794
於世	-9.93801
説文	-9.93822
太僕	-9.93828
集六卷	-9.93829
未盡	-9.9383
作春秋	-9.93928
若干	-9.93959
邵子	-9.94079
百篇	-9.94084
大師	-9.941
禊	-9.94164
可考	-9.94172
何氏	-9.94193
鸞	-9.94246
貽	-9.94254
奉勅	-9.94343
者謂	-9.94368
教諭	-9.94379
十七年	-9.94499
堂集	-9.94517
之地	-9.94578
通判	-9.94578
十翼	-9.94664
与	-9.94761
䟽	-9.94769
羙	-9.94786
䘮	-9.94821
銓	-9.94877
上柱國	-9.94882
常山	-9.9489
悔	-9.94902
庵集	-9.94947
六日	-9.951
石本	-9.95123
平原	-9.95143
二卷佚	-9.95164
或云	-9.9517
以成	-9.95177
問答	-9.95227
俯	-9.95424
穿鑿	-9.95427
諌	-9.9544
旬	-9.95521
作者	-9.95556
湜	-9.95561
韓愈	-9.95578
詩話	-9.95805
廟記	-9.95856
一部十冊	-9.96004
散騎常侍	-9.96044
暴	-9.96046
劍	-9.96057
凖	-9.9608
曰易	-9.96085
皇祐	-9.96089
成王	-9.96091
誨	-9.96095
咨	-9.96099
止於	-9.96106
四時	-9.96111
以見	-9.96113
舊唐書	-9.96116
無以	-9.96155
生於	-9.9634
縉	-9.96622
豪	-9.96679
癸丑	-9.96688
湘	-9.96689
敞	-9.96709
東平	-9.96733
小人	-9.96775
古本	-9.96785
其他	-9.96961
一卷右	-9.97099
㑹昌	-9.97155
有司	-9.97156
可也	-9.97177
弑	-9.97205
輝	-9.97273
本也	-9.97301
附於	-9.9734
消	-9.97359
詩序	-9.97458
所云	-9.97498
詩傳	-9.97526
仁義	-9.97576
程朱	-9.97577
著述	-9.97623
諸公	-9.97752
邁	-9.97787
福建	-9.97813
得此	-9.97848
矢	-9.97875
考工記	-9.97913
艾	-9.97926
祗	-9.97956
塘	-9.97963
天之	-9.97968
編次	-9.97984
自有	-9.98024
記云	-9.98024
乙未	-9.98147
鄭𤣥	-9.98157
遂以	-9.98279
功曹	-9.98331
從而	-9.98363
嘉興	-9.98365
一部十	-9.98369
此則	-9.98456
遐	-9.98485
今觀	-9.98546
聖經	-9.98555
渉	-9.98562
廉	-9.98578
檢校	-9.98601
者何	-9.98638
三巻	-9.98776
孔作	-9.98816
於經	-9.98831
不仕	-9.9892
制度	-9.98992
萬言	-9.99006
國之	-9.99011
敎	-9.99062
碧	-9.99099
詭	-9.99107
𥘉	-9.9911
鉅	-9.99128
又按	-9.99129
咎	-9.99178
顔氏	-9.9918
立石	-9.99223
杖	-9.99224
徐浩	-9.99225
蝕	-9.99409
孔廟	-9.99452
者乎	-9.99458
嵗月	-9.99526
百年	-9.99531
第四	-9.99537
十冊	-9.9959
三卷佚	-9.99633
武后	-9.99696
取之	-9.99697
萊	-9.99718
厭	-9.99736
訖	-9.99749
年號	-9.99845
十九卷	-10.0001
黄庭	-10.0005
出入	-10.0013
災	-10.0025
與此	-10.0026
的	-10.0029
鋟	-10.0032
冩	-10.0035
蔚	-10.0035
㝠	-10.0036
麓	-10.0037
春秋傳	-10.0038
其本	-10.0039
醇	-10.0045
㑹要	-10.0047
琦	-10.005
睦	-10.0051
傳者	-10.0052
二十二卷	-10.0065
矣而	-10.0071
者惟	-10.0072
所引	-10.0073
豈不	-10.0074
則又	-10.0078
性命	-10.0095
集賢	-10.0096
氷	-10.0101
稚	-10.0105
黄虞稷曰	-10.0107
豈非	-10.0125
志二冊	-10.0126
多有	-10.0127
解佚	-10.0135
康節	-10.0142
類編	-10.0143
長樂	-10.0155
矩	-10.0156
杜預	-10.016
奴	-10.0161
妃	-10.0163
亟	-10.0163
十餘年	-10.0167
壺	-10.0168
恪	-10.017
沂	-10.0171
不與	-10.0173
奎	-10.0176
家藏	-10.0182
今日	-10.0183
經學	-10.0191
十卷右皇朝	-10.0191
終於	-10.0195
安得	-10.0195
當以	-10.0207
者非	-10.0213
卷第	-10.0217
若夫	-10.0221
牘	-10.0234
其實	-10.024
闕五	-10.024
彖象	-10.0253
墓碑	-10.0262
神道碑	-10.0265
經解	-10.0276
錄目	-10.0276
者多	-10.0286
久矣	-10.0287
仕至	-10.0287
冦	-10.0291
脫	-10.0292
淳熈	-10.0292
潁	-10.0294
淹	-10.0295
譽	-10.0297
之世	-10.0301
漁	-10.0301
叚	-10.0303
澹	-10.0308
無復	-10.0309
神道	-10.0311
何人	-10.0311
卦爻	-10.0312
五官	-10.0314
海鹽	-10.0319
八字	-10.032
雖有	-10.0331
坡	-10.0345
紀事	-10.0347
祕書	-10.0351
麻	-10.0354
慶元	-10.0354
鼔	-10.0356
陸徳明	-10.0357
鍾繇	-10.0357
球	-10.0367
西南	-10.0368
政事	-10.0371
序卦	-10.0371
録二卷	-10.0388
古易	-10.0417
聊	-10.042
寔	-10.0422
立在	-10.0422
好事者	-10.0423
今本	-10.0425
将軍	-10.0427
那	-10.0427
綏	-10.0432
圃	-10.0434
周公之	-10.0438
無傳	-10.044
莫知	-10.0451
山東	-10.0456
不免	-10.0469
而卒	-10.0476
博學	-10.0483
購	-10.0483
戾	-10.0485
進士第	-10.0485
壬辰	-10.0486
奮	-10.0487
夔	-10.0489
霜	-10.0492
乂	-10.0494
瀆	-10.0495
巫	-10.0495
自謂	-10.0497
鈐	-10.0498
可見者	-10.0499
華陽	-10.0511
進退	-10.0513
小戴	-10.0515
塔銘	-10.0518
其家	-10.0541
譯	-10.0547
什	-10.0551
眼	-10.0552
可讀	-10.0554
卞	-10.0555
涼	-10.0557
沖	-10.0559
措	-10.0562
府學	-10.0576
七百	-10.0578
左氏傳	-10.0579
之書也	-10.0585
十六年	-10.0586
知之	-10.059
茅	-10.0604
分為	-10.0605
二百四十	-10.0611
考異	-10.0612
歐陽詢	-10.0616
譙	-10.0616
汴	-10.0621
坦	-10.0621
呼	-10.0622
爻辭	-10.0622
不失	-10.0625
牲	-10.063
潁川	-10.0633
待詔	-10.0634
㠯	-10.0635
尚有	-10.0637
布衣	-10.0642
唐虞	-10.0666
三體	-10.0668
注釋	-10.068
河内	-10.068
父母	-10.0681
裒	-10.0682
迷	-10.0687
倚	-10.0688
森	-10.0689
真人	-10.069
小篆	-10.0691
鄰	-10.0692
宙	-10.0693
酌	-10.0694
楨	-10.0695
浚	-10.0696
繪	-10.0697
一曰	-10.0699
熈寧	-10.0699
施作	-10.0707
曲禮	-10.0716
乃知	-10.0719
紫陽	-10.072
題額	-10.0721
晉書	-10.0722
七十二	-10.0723
周氏	-10.0725
治平	-10.0727
建武	-10.0729
多矣	-10.0729
曰此	-10.0735
有功於	-10.0742
文淵	-10.0744
像碑	-10.0745
鏤	-10.0752
迨	-10.0753
淪	-10.0754
祿	-10.0755
披	-10.0756
纔	-10.0759
无	-10.076
瑛	-10.076
驛	-10.0761
畜	-10.0762
大字	-10.0762
詩經	-10.0763
宣帝	-10.0764
耿	-10.0764
三十年	-10.0785
同而	-10.0792
石鼓	-10.0793
部員外郎	-10.0797
四卷又	-10.0802
易象	-10.0802
諸人	-10.0809
稽古	-10.0813
渭	-10.0815
十五日	-10.0818
詢	-10.0822
盜	-10.0824
鮑	-10.0825
劉次莊	-10.0826
洋	-10.0826
中書舍人	-10.0832
杭州	-10.0844
詩云	-10.0851
之要	-10.0851
藏之	-10.0851
漢魏	-10.0852
云爾	-10.0865
若此	-10.0866
部主事	-10.0866
傳一卷	-10.0867
晁氏	-10.0868
不明	-10.0869
未可	-10.0879
不足以	-10.0884
姦	-10.0894
拱	-10.0896
蓮	-10.0898
所在	-10.09
魏晉	-10.0901
建中	-10.0904
鬼神	-10.0918
紹聖	-10.0918
子敬	-10.0919
隋唐	-10.0924
季子	-10.0926
孝子	-10.0938
四十八	-10.0942
韓詩	-10.0953
沿	-10.0958
浙江	-10.0958
矜	-10.0958
西漢	-10.096
聖教序	-10.0964
與前	-10.0964
噫	-10.0968
莫能	-10.0968
字汝	-10.0968
山隂	-10.0968
婺	-10.0969
之序	-10.0979
校尉	-10.0986
參軍	-10.0992
郡太守	-10.0999
者如	-10.1007
人名	-10.1009
拾	-10.1025
千里	-10.1029
徧	-10.1031
亦非	-10.1034
卧	-10.1035
文辭	-10.1036
愽	-10.1038
西山	-10.1051
他書	-10.1052
仁宗	-10.1053
洪武中	-10.1054
高宗	-10.1066
受業	-10.1069
一言	-10.1071
石墨鐫華	-10.1085
以自	-10.1085
皆在	-10.109
媚	-10.1093
前人	-10.1099
揮	-10.11
抗	-10.1103
好學	-10.1105
練	-10.1107
翕	-10.1108
歴官	-10.1114
建炎	-10.1117
自得	-10.112
四十九	-10.1132
六藝	-10.1137
先王	-10.1138
古文尚書	-10.1146
史官	-10.1147
因以	-10.1152
之孫	-10.1157
展	-10.1165
十八篇	-10.1166
千古	-10.1169
竭	-10.1171
碩	-10.1172
賁	-10.1176
濤	-10.1176
讐	-10.1177
怨	-10.1177
猶存	-10.1179
筆削	-10.1181
詹事	-10.1191
司農	-10.1194
不一	-10.1198
判官	-10.1207
不如	-10.1209
毛公	-10.1215
精義	-10.1218
之文也	-10.1225
蘇州	-10.1237
宴	-10.124
二年立	-10.1244
閱	-10.1244
石室	-10.1245
掩	-10.1245
消息	-10.1246
滄	-10.1246
十有二	-10.1251
然亦	-10.1255
補遺	-10.1261
編年	-10.127
新書	-10.1271
書傳	-10.1278
金陵	-10.129
榜	-10.1312
層	-10.1312
瑾	-10.1314
奄	-10.1316
河間	-10.1316
吳氏	-10.1316
壤	-10.1317
兖	-10.1318
勇	-10.1319
鵬	-10.1321
圖説	-10.1321
不在	-10.1323
尚存	-10.1327
誤也	-10.1333
不存	-10.1334
所有	-10.1342
則是	-10.1349
隋書	-10.1351
史傳	-10.1355
風俗	-10.1358
昔人	-10.1359
二卷存	-10.1362
學於	-10.1366
祕閣	-10.138
㓜	-10.1383
戲	-10.1384
精微	-10.1385
紅	-10.1385
頂	-10.1386
嗜	-10.1388
侵	-10.1388
㕔	-10.139
熹	-10.139
二家	-10.139
左僕射	-10.1391
揚雄	-10.1391
速	-10.1391
莭	-10.1394
夫子之	-10.1407
數百	-10.1419
别有	-10.1423
至元	-10.1424
長睿	-10.1425
不朽	-10.1429
都御史	-10.1433
詹	-10.1443
禪師碑	-10.1447
最為	-10.1448
世家	-10.1449
截	-10.1454
暮	-10.1456
掃	-10.1456
弘	-10.1458
終始	-10.1458
貞元十	-10.1458
徃徃	-10.1459
掇	-10.146
銀	-10.1463
漳	-10.1466
三公	-10.1468
訥	-10.147
為主	-10.1476
禮經	-10.1477
作易	-10.1483
唐太宗	-10.1489
傳授	-10.1506
世孫	-10.1515
宮	-10.1522
於斯	-10.1523
第五	-10.1523
魯詩	-10.1527
林氏	-10.1529
敵	-10.1534
藍	-10.1535
聴	-10.1538
渙	-10.154
皮	-10.154
正統	-10.1544
先聖	-10.1545
二碑	-10.1547
永徽	-10.1549
一首	-10.155
京房	-10.1552
於朝	-10.1559
常侍	-10.1579
明矣	-10.158
丁未	-10.1584
軸	-10.1595
字景	-10.1599
觸	-10.16
七篇	-10.16
緝	-10.1601
可觀	-10.1601
愧	-10.1602
澗	-10.1604
匠	-10.1605
幕	-10.1606
是正	-10.1607
鵠	-10.1612
看	-10.1612
及其	-10.1615
不當	-10.1615
列國	-10.1617
集十二卷	-10.1618
衍義	-10.1619
毛氏	-10.1624
乾隆	-10.1629
唐史	-10.1632
華山	-10.165
年譜	-10.1657
濶	-10.166
書在	-10.1661
九江	-10.1664
歆	-10.1669
鐸	-10.1675
底	-10.1677
豆	-10.1678
姿	-10.1678
議論	-10.1678
閑	-10.1679
大傳	-10.1682
别集	-10.1682
陳留	-10.1684
秘閣	-10.1684
一章	-10.1685
昉	-10.1685
栢	-10.169
明道	-10.1692
今世	-10.1699
許氏	-10.1711
舍人	-10.1721
中和	-10.1728
四十六	-10.1729
忍	-10.1734
無極	-10.1743
衷	-10.1748
曠	-10.1749
批	-10.1751
仿	-10.1753
翠	-10.1753
魯史	-10.1753
王安石	-10.1753
邇	-10.1753
甲午	-10.1753
襄陽	-10.1754
己丑	-10.1755
以備	-10.1755
激	-10.1758
丁丑	-10.1758
譬	-10.1758
讖	-10.176
憤	-10.176
會稽	-10.1764
以道	-10.1769
辛未	-10.1776
志十卷	-10.1783
壬	-10.1785
是編	-10.1785
府君碑	-10.1801
千餘	-10.1807
座	-10.1824
所稱	-10.1826
綽	-10.1826
不著名氏	-10.1829
輪	-10.1829
説卦	-10.183
曺	-10.1831
先王之	-10.1832
滑	-10.1832
翰林院檢討朱彝尊撰	-10.1832
叶	-10.1833
䑓	-10.1834
諒	-10.1834
諡曰	-10.1835
郝	-10.1835
零	-10.1837
叛	-10.1897
血	-10.19
玊	-10.1903
鬱	-10.1904
禦	-10.1904
淡	-10.1905
漆	-10.1905
璣	-10.1907
蠻	-10.1915
渡	-10.1963
亞	-10.1979
㫁	-10.1979
裳	-10.1982
壞	-10.1983
瑗	-10.1984
濮	-10.1987
唱	-10.1988
魂	-10.1989
㢲	-10.1993
貌	-10.2051
狩	-10.2051
睿	-10.2053
強	-10.2057
荅	-10.2058
吐	-10.2059
戈	-10.2062
娶	-10.2068
曷	-10.2068
𦵏	-10.207
龕	-10.2129
聰	-10.213
陷	-10.2132
証	-10.2133
燈	-10.2134
歷	-10.2139
梧	-10.214
朴	-10.214
柯	-10.2142
鑰	-10.2142
弔	-10.2145
軰	-10.2204
韜	-10.2219
欺	-10.2286
倦	-10.2289
徹	-10.2293
鈞	-10.2294
冝	-10.2294
貨	-10.2294
勛	-10.2296
桃	-10.2301
添	-10.2365
溫	-10.237
轍	-10.2371
頤	-10.2372
拔	-10.2374
揖	-10.2374
廼	-10.2374
尸	-10.2374
蓬	-10.2376
拓	-10.2421
晟	-10.2445
塲	-10.2445
畿	-10.2447
籀	-10.245
粤	-10.2451
茫	-10.2452
穎	-10.2453
旭	-10.2454
暉	-10.2457
郗	-10.2515
筌	-10.2531
競	-10.2531
几	-10.2532
皓	-10.2532
贅	-10.2534
鑄	-10.2535
擅	-10.2536
握	-10.2536
歿	-10.2536
停	-10.261
矯	-10.2611
寥	-10.2611
睢	-10.2613
忤	-10.2614
諧	-10.2614
澂	-10.2615
鞏	-10.2616
宼	-10.2617
牙	-10.2618
豹	-10.2619
屠	-10.262
陜	-10.2683
瑩	-10.2694
賾	-10.2698
赫	-10.2698
葵	-10.2699
捨	-10.27
禾	-10.27
態	-10.2767
烟	-10.2775
蕪	-10.2779
箴	-10.2781
警	-10.2781
𨼆	-10.2786
醉	-10.2786
亳	-10.2788
尔	-10.2858
僚	-10.2859
伽	-10.2862
隔	-10.2862
穴	-10.2865
丕	-10.2866
敘	-10.2942
諷	-10.2943
寘	-10.2944
苗	-10.2948
陟	-10.2957
課	-10.3024
宸	-10.3031
悖	-10.3032
涯	-10.3032
雞	-10.3033
兢	-10.3033
泣	-10.3039
莽	-10.3074
溺	-10.3113
髪	-10.3113
膠	-10.3113
壹	-10.3114
禱	-10.3115
凉	-10.3116
僻	-10.3118
癸	-10.3118
蠡	-10.3118
毒	-10.3193
遍	-10.3199
悼	-10.32
燾	-10.3202
巾	-10.3203
猛	-10.321
伍	-10.321
掖	-10.3212
廖	-10.3287
網	-10.3287
㧞	-10.3291
㤗	-10.3292
栖	-10.3292
随	-10.3294
吹	-10.3297
戊	-10.3347
鳩	-10.3371
湮	-10.3373
響	-10.3376
枚	-10.3376
洵	-10.3376
誡	-10.3378
詆	-10.3379
佩	-10.3379
技	-10.338
洙	-10.3382
翊	-10.3382
揲	-10.3383
貪	-10.3385
黍	-10.3454
狂	-10.346
迥	-10.3461
淄	-10.3464
昻	-10.3466
雋	-10.3472
愍	-10.3473
邃	-10.3474
粲	-10.3538
捐	-10.3551
劣	-10.3551
邠	-10.3552
揭	-10.3553
肖	-10.3554
羡	-10.3554
夙	-10.3557
劇	-10.3558
臻	-10.3558
彬	-10.3559
龎	-10.3559
樸	-10.356
粟	-10.356
貳	-10.356
僉	-10.3629
嫌	-10.364
曇	-10.3641
晝	-10.3646
恢	-10.3646
竄	-10.3648
矦	-10.3656
煌	-10.373
惲	-10.3731
場	-10.3732
脚	-10.3735
彞	-10.3735
蹈	-10.3738
怡	-10.3739
棟	-10.374
哭	-10.3741
劭	-10.3743
蟲	-10.3818
婉	-10.3818
岱	-10.3821
郢	-10.3822
潼	-10.3826
恥	-10.3827
罰	-10.3831
冷	-10.3831
摧	-10.3834
灾	-10.3834
呈	-10.3911
䜟	-10.3914
駿	-10.3915
瑕	-10.3916
煙	-10.3917
桞	-10.3918
檜	-10.3919
歡	-10.3922
兌	-10.3925
覃	-10.4001
丑	-10.4007
泛	-10.4009
軻	-10.4009
姬	-10.401
酬	-10.4011
派	-10.4012
托	-10.4016
収	-10.4016
匹	-10.4017
溢	-10.4019
綿	-10.402
綬	-10.4023
穀	-10.4079
裝	-10.41
逃	-10.4104
泯	-10.4106
曼	-10.4108
襃	-10.411
脈	-10.411
浸	-10.4112
䕫	-10.4114
溧	-10.4117
踈	-10.4192
弁	-10.4192
竦	-10.4203
奠	-10.4206
讃	-10.4206
侃	-10.4206
衮	-10.4207
夲	-10.4209
孜	-10.4209
仇	-10.421
杲	-10.4295
葺	-10.4295
幣	-10.4297
棲	-10.4298
黔	-10.4302
殁	-10.4303
杞	-10.4304
棗	-10.4308
丨	-10.4308
贛	-10.4309
溝	-10.4309
儋	-10.4387
瓚	-10.4392
棠	-10.4394
返	-10.4402
岩	-10.4415
􁁊	-10.4489
騐	-10.4489
俄	-10.449
濫	-10.449
塋	-10.4491
酷	-10.4492
脉	-10.4493
愼	-10.4496
奭	-10.4496
顓	-10.4497
囊	-10.4498
膚	-10.4498
躍	-10.4498
濂	-10.4499
霄	-10.45
齒	-10.4501
霍	-10.4502
犧	-10.4503
駮	-10.4506
􁬿	-10.4509
僊	-10.4588
彥	-10.4589
肩	-10.4589
搆	-10.4593
刊	-10.4593
辱	-10.4594
旻	-10.4595
寮	-10.4598
涵	-10.4599
輸	-10.4601
輟	-10.4602
途	-10.4602
衝	-10.4606
嶠	-10.4681
獵	-10.4693
蓄	-10.4694
啻	-10.4694
隍	-10.4695
萌	-10.4696
昊	-10.4697
汶	-10.4699
寗	-10.4699
翺	-10.4705
豳	-10.4776
瓌	-10.4778
活	-10.4782
劄	-10.4787
嫁	-10.4789
浪	-10.4801
巽	-10.4805
暎	-10.4881
刀	-10.4882
緫	-10.4887
緩	-10.4888
馴	-10.4896
覧	-10.4898
彈	-10.4899
閻	-10.4901
畔	-10.4901
覲	-10.4904
逝	-10.4905
斬	-10.499
悠	-10.4994
驅	-10.4995
值	-10.4996
雁	-10.4996
璘	-10.4998
陪	-10.4999
逾	-10.5001
轅	-10.5003
亢	-10.5006
瑜	-10.5007
戍	-10.5009
詰	-10.5096
两	-10.5097
牢	-10.5099
酉	-10.5102
暑	-10.5105
珣	-10.5107
䖏	-10.5108
耽	-10.5109
遯	-10.511
隴	-10.5199
般	-10.52
璋	-10.5207
圻	-10.5209
籕	-10.5211
盗	-10.5211
枕	-10.5214
槐	-10.522
鄂	-10.5221
淂	-10.5308
珉	-10.5309
恬	-10.5313
爛	-10.5313
巷	-10.5315
勾	-10.5316
佃	-10.5318
阜	-10.532
胸	-10.5321
緄	-10.5327
覈	-10.5413
倡	-10.5413
勘	-10.5416
磬	-10.5418
恤	-10.542
甄	-10.5421
淆	-10.5422
蛇	-10.5424
誘	-10.5425
潞	-10.5426
㓕	-10.5522
輦	-10.5527
岸	-10.5529
廓	-10.553
限	-10.5534
阻	-10.5535
裘	-10.5536
茲	-10.5538
愔	-10.5628
摸	-10.5631
弇	-10.5634
贍	-10.5637
硯	-10.5637
腹	-10.5638
偕	-10.5639
冰	-10.5639
闔	-10.5639
琬	-10.5641
禆	-10.5641
熱	-10.5642
閉	-10.5642
挾	-10.5748
苞	-10.5752
鴈	-10.5752
冥	-10.5754
槃	-10.5754
灌	-10.5756
迺	-10.576
涕	-10.5763
冉	-10.5765
棐	-10.5769
圜	-10.5769
毗	-10.5769
暦	-10.584
箕	-10.5841
枯	-10.5853
紂	-10.5854
幢	-10.5857
灼	-10.5858
廡	-10.586
仆	-10.5861
淨	-10.5863
梵	-10.5865
夾	-10.5867
夬	-10.587
敝	-10.587
埋	-10.587
繋	-10.5871
聨	-10.5873
栗	-10.5874
抵	-10.5942
敖	-10.5969
映	-10.5972
醜	-10.5977
彊	-10.5977
鎭	-10.5977
郵	-10.598
洎	-10.5982
瑶	-10.5983
隣	-10.5984
荷	-10.5985
銑	-10.6
泐	-10.6075
拂	-10.6081
級	-10.6085
逈	-10.6086
緇	-10.6087
踵	-10.6087
輅	-10.6088
茍	-10.6092
椒	-10.6095
瓦	-10.6098
壻	-10.6098
霖	-10.61
隕	-10.6101
邸	-10.6102
萟	-10.6118
肯	-10.614
現	-10.6187
欵	-10.6193
吁	-10.6203
濕	-10.6206
纎	-10.6207
冗	-10.621
汎	-10.621
曄	-10.621
矧	-10.6211
鎬	-10.6211
苻	-10.6211
酸	-10.6217
逄	-10.6218
泳	-10.6219
􁮖	-10.6318
戯	-10.632
璞	-10.6322
昂	-10.6322
壑	-10.6323
廙	-10.6323
刹	-10.6325
糾	-10.6325
筭	-10.6325
巍	-10.6325
頼	-10.6325
概	-10.6326
魁	-10.6327
恱	-10.6328
它	-10.6329
莘	-10.6329
櫟	-10.6331
憾	-10.6332
墻	-10.6335
冶	-10.6335
稼	-10.6335
燭	-10.6438
涪	-10.6439
押	-10.644
汨	-10.6442
拳	-10.6444
拒	-10.6445
陁	-10.6448
斤	-10.6449
綺	-10.6449
庖	-10.645
懲	-10.6452
繕	-10.6452
椿	-10.6453
栻	-10.6454
雒	-10.6477
畵	-10.6554
㦸	-10.6555
曩	-10.6562
群	-10.6562
掘	-10.6563
蒐	-10.6567
換	-10.6568
舅	-10.6569
鬻	-10.657
苖	-10.6571
筵	-10.6656
甥	-10.6676
謗	-10.6676
妾	-10.668
姊	-10.6684
圎	-10.6686
攀	-10.6688
旗	-10.6689
贄	-10.669
芸	-10.669
妖	-10.6693
滁	-10.6694
麾	-10.6797
遥	-10.6808
燦	-10.6809
㢘	-10.6812
檀	-10.6812
擾	-10.6812
删	-10.6812
黒	-10.6812
悌	-10.6815
泌	-10.6825
駢	-10.6828
陀	-10.6932
惇	-10.6934
陂	-10.6936
霧	-10.6937
核	-10.694
顏	-10.694
閨	-10.6941
逼	-10.6942
複	-10.6943
璠	-10.6944
璹	-10.6947
泊	-10.6948
庿	-10.7005
嚮	-10.7054
檄	-10.7059
姤	-10.7061
惶	-10.7062
番	-10.7065
突	-10.7066
劔	-10.707
昶	-10.707
狹	-10.7071
陏	-10.7073
蠱	-10.7185
蹤	-10.7188
叩	-10.719
恂	-10.7191
牡	-10.7192
穉	-10.7194
旱	-10.7194
楹	-10.7194
恠	-10.7195
瀛	-10.7196
兾	-10.7196
扈	-10.7197
蹇	-10.7199
遏	-10.7199
廊	-10.72
祉	-10.7202
菊	-10.7202
炫	-10.7306
减	-10.7314
崧	-10.7317
買	-10.7319
燔	-10.7321
涿	-10.7321
峙	-10.7321
状	-10.7322
从	-10.7322
頡	-10.7323
撥	-10.7323
妹	-10.7324
沃	-10.7326
泮	-10.733
璉	-10.7331
顒	-10.7332
樗	-10.7337
飭	-10.7445
侈	-10.7445
剔	-10.7447
萇	-10.7448
牾	-10.7451
讚	-10.7455
屑	-10.7455
沐	-10.7456
瑟	-10.7456
黑	-10.7458
芬	-10.746
耦	-10.7465
扵	-10.7576
募	-10.7581
烝	-10.7584
据	-10.7584
聶	-10.7585
詎	-10.7585
憶	-10.7585
廸	-10.7589
枉	-10.7589
俸	-10.759
俚	-10.759
桀	-10.7591
斑	-10.7601
珂	-10.7601
筋	-10.7705
島	-10.7713
奬	-10.7718
酈	-10.7723
顥	-10.7724
䓁	-10.7726
電	-10.7727
架	-10.7727
璟	-10.7728
倩	-10.7728
淸	-10.7728
准	-10.773
楞	-10.7853
疵	-10.7856
飬	-10.7859
剖	-10.786
鱗	-10.786
股	-10.7862
諮	-10.7865
厨	-10.7865
亰	-10.7865
謐	-10.7866
黯	-10.7867
憑	-10.7867
潢	-10.7868
嘯	-10.7868
彩	-10.7989
攜	-10.799
暗	-10.7992
卭	-10.7994
幅	-10.7996
禅	-10.7997
祇	-10.7998
繡	-10.8
釣	-10.8
緜	-10.8001
滔	-10.8001
勃	-10.8003
鼠	-10.8005
杯	-10.8005
剝	-10.8018
猗	-10.8018
寃	-10.8128
船	-10.813
沔	-10.8131
参	-10.8131
閎	-10.8133
狐	-10.8133
泗	-10.8133
髮	-10.8137
盾	-10.8138
揣	-10.8138
犬	-10.8138
填	-10.8139
饑	-10.8139
㳟	-10.814
芻	-10.8141
蘄	-10.8141
儻	-10.8142
閬	-10.8145
柴	-10.8146
欒	-10.8146
貝	-10.8148
峴	-10.8154
􁭆	-10.8155
莆	-10.8273
穹	-10.8274
灰	-10.8278
衙	-10.8278
點	-10.8279
彝	-10.8279
廨	-10.8281
駱	-10.8281
紊	-10.8282
朂	-10.8283
禕	-10.8284
髓	-10.8284
琮	-10.8285
痕	-10.8286
墮	-10.8286
緑	-10.8287
詡	-10.8291
璜	-10.8292
雝	-10.8294
崑	-10.8364
替	-10.8419
構	-10.8419
瑣	-10.842
赦	-10.8422
税	-10.8422
靣	-10.8425
染	-10.8427
奢	-10.8427
蒸	-10.8431
冨	-10.8431
矛	-10.8431
刓	-10.8432
澍	-10.8433
恊	-10.8435
貯	-10.8435
囘	-10.844
㴻	-10.8563
璇	-10.8563
榻	-10.8564
侗	-10.8568
驟	-10.857
蔓	-10.8572
匱	-10.8576
迪	-10.8576
窟	-10.8577
莒	-10.8577
璿	-10.8579
濵	-10.858
亐	-10.859
鄞	-10.8681
鞠	-10.8712
邾	-10.8713
挈	-10.8718
浄	-10.872
售	-10.8721
斜	-10.8721
闇	-10.8722
婚	-10.8725
紐	-10.8725
鋭	-10.8727
蠶	-10.8729
紋	-10.8732
扁	-10.8737
祺	-10.8738
絃	-10.8864
默	-10.887
滌	-10.8872
愁	-10.8873
藪	-10.8874
劾	-10.8874
歛	-10.8874
繞	-10.8877
頻	-10.888
竺	-10.888
僑	-10.8881
殫	-10.8882
恃	-10.8884
湍	-10.8884
弦	-10.8887
央	-10.8888
啖	-10.9002
蘊	-10.9012
万	-10.9013
効	-10.902
騷	-10.9024
鶚	-10.9025
攘	-10.9027
料	-10.9029
㐮	-10.9029
汗	-10.9029
尭	-10.9029
縮	-10.903
憚	-10.9031
禀	-10.9033
鑱	-10.9033
玠	-10.9033
需	-10.9034
耒	-10.9036
牓	-10.9037
瑀	-10.9037
渚	-10.9041
朽	-10.9099
塾	-10.9111
稾	-10.9176
裏	-10.9179
厄	-10.918
勵	-10.9184
穢	-10.9184
柟	-10.9188
豁	-10.9189
捷	-10.9189
桷	-10.919
促	-10.919
箱	-10.9192
怠	-10.9198
娥	-10.92
胎	-10.9319
㨿	-10.9324
亥	-10.9333
恙	-10.9335
翩	-10.9336
騁	-10.9339
糧	-10.9339
逡	-10.934
遡	-10.934
緣	-10.9341
㪚	-10.9341
偁	-10.9341
湏	-10.9342
籙	-10.9343
様	-10.9344
翳	-10.9345
佞	-10.9345
甸	-10.9347
垢	-10.9349
嫡	-10.9351
虐	-10.9495
斂	-10.9498
籖	-10.9499
廻	-10.9499
寤	-10.9499
眷	-10.95
宕	-10.9503
軾	-10.9503
靳	-10.9505
旂	-10.9505
笥	-10.9505
寖	-10.9505
隘	-10.9505
虜	-10.9506
琛	-10.9508
壘	-10.9508
毓	-10.9508
冺	-10.9515
濠	-10.9521
礼	-10.9649
辦	-10.9664
鑾	-10.9664
柄	-10.9664
頊	-10.9665
奐	-10.9666
騶	-10.9667
障	-10.967
蛟	-10.967
篋	-10.9671
纒	-10.9673
沮	-10.9674
楫	-10.9675
忱	-10.9676
㤙	-10.9678
礪	-10.9679
絡	-10.968
鵲	-10.9682
愷	-10.9822
猥	-10.9823
荼	-10.9826
郃	-10.9826
琢	-10.9827
揔	-10.983
燼	-10.983
艸	-10.9833
墟	-10.9834
醮	-10.9835
濡	-10.9836
鍼	-10.9836
迦	-10.9837
駐	-10.9838
毘	-10.9839
僣	-10.9839
街	-10.9841
徂	-10.9842
棘	-10.9842
航	-10.9843
棺	-10.9846
㾗	-10.9848
轡	-10.9996
液	-11
饋	-11.0002
駭	-11.0003
岷	-11.0003
戀	-11.0004
吞	-11.0005
怛	-11.0006
刃	-11.0006
舌	-11.0007
把	-11.0007
羞	-11.0007
晃	-11.0009
迭	-11.0011
拯	-11.0011
綰	-11.0012
駟	-11.0016
肱	-11.0016
妣	-11.0017
覇	-11.0019
穰	-11.0021
腕	-11.0149
斧	-11.0171
濱	-11.0172
牖	-11.0173
枋	-11.0175
昕	-11.0175
盍	-11.0175
瞽	-11.0176
灑	-11.0176
鵞	-11.0177
净	-11.0178
豕	-11.0178
邉	-11.018
掲	-11.018
醒	-11.018
擁	-11.0181
驥	-11.0182
釗	-11.0182
諶	-11.0184
􁅟	-11.0184
馨	-11.0185
掛	-11.0188
璵	-11.019
慿	-11.0342
逌	-11.0345
梯	-11.0345
峭	-11.0347
譲	-11.0349
黼	-11.0351
莱	-11.0352
燬	-11.0353
裨	-11.0353
忝	-11.0354
㸔	-11.0355
讜	-11.0355
鋪	-11.0357
稹	-11.0357
瀾	-11.0359
昱	-11.0359
鷹	-11.036
鏜	-11.0361
訢	-11.0362
晳	-11.0362
觴	-11.0364
􁭁	-11.0366
伋	-11.0524
悶	-11.0525
鬯	-11.0529
沆	-11.053
虢	-11.053
軼	-11.0532
剪	-11.0532
戮	-11.0534
龢	-11.0534
曦	-11.0534
纘	-11.0535
企	-11.0536
憫	-11.0537
乳	-11.0538
􁬬	-11.0545
􁭋	-11.0549
弋	-11.055
笙	-11.0696
錡	-11.0702
鉞	-11.0703
悵	-11.0703
愿	-11.0704
擕	-11.0704
籌	-11.0707
泄	-11.0707
低	-11.0707
蔑	-11.0709
琅	-11.0709
詵	-11.071
砥	-11.0711
鐡	-11.0712
頑	-11.0713
虹	-11.0713
詐	-11.0713
淇	-11.0714
縫	-11.0714
数	-11.0715
逕	-11.0716
𤨏	-11.0717
軫	-11.0718
騫	-11.072
勣	-11.072
翬	-11.0721
埤	-11.0722
瑋	-11.0725
适	-11.0728
愆	-11.0728
麈	-11.0729
阼	-11.088
寐	-11.0886
麤	-11.0887
捕	-11.089
頽	-11.0891
胤	-11.0893
慘	-11.0894
晷	-11.0894
摶	-11.0895
虬	-11.0896
價	-11.0897
𠂻	-11.0897
䕃	-11.0897
誇	-11.0898
牆	-11.0898
􁁜	-11.0898
尅	-11.0899
梗	-11.09
藳	-11.09
偈	-11.0901
雎	-11.0902
驕	-11.0903
褐	-11.0903
皎	-11.0905
罹	-11.0906
團	-11.0907
隐	-11.0908
禘	-11.0908
趾	-11.0908
忩	-11.0908
塟	-11.0915
誚	-11.1077
倅	-11.1085
堰	-11.1086
綦	-11.1086
蚤	-11.1086
織	-11.1086
芒	-11.1087
𥙷	-11.1087
濁	-11.1088
帷	-11.1089
圉	-11.1089
涓	-11.109
雀	-11.1091
狼	-11.1091
晞	-11.1092
虗	-11.1092
譎	-11.1093
匿	-11.1094
絜	-11.1096
豊	-11.1096
鍇	-11.11
圈	-11.1267
腐	-11.1269
疲	-11.1269
憒	-11.127
貍	-11.1272
牋	-11.1275
霆	-11.1277
銖	-11.1278
啇	-11.1278
酢	-11.128
殽	-11.128
剡	-11.1281
煜	-11.1282
夭	-11.1283
淙	-11.1284
臂	-11.1286
奸	-11.1288
㝡	-11.1289
錠	-11.1289
侮	-11.1296
磔	-11.1439
癖	-11.1459
眇	-11.1465
驪	-11.1466
戌	-11.1466
澧	-11.1471
吝	-11.1471
擴	-11.1472
聯	-11.1472
魄	-11.1472
膏	-11.1473
膳	-11.1473
飄	-11.1473
襟	-11.1474
絹	-11.1475
棣	-11.1476
惻	-11.1478
暹	-11.1478
滛	-11.1479
訾	-11.1479
慙	-11.1481
聿	-11.1483
燧	-11.1483
㛐	-11.1483
惓	-11.1483
薊	-11.1484
郯	-11.1484
飢	-11.1485
珙	-11.1485
孳	-11.1495
羸	-11.1654
掠	-11.1656
餗	-11.1663
瘞	-11.1665
駒	-11.1666
狥	-11.1667
愬	-11.1671
楮	-11.1672
巋	-11.1672
揺	-11.1674
喈	-11.1674
銷	-11.1675
亾	-11.1676
甌	-11.1677
禋	-11.1678
冒	-11.1679
謡	-11.1679
袤	-11.1681
鄆	-11.1682
犂	-11.1682
租	-11.1683
燒	-11.1684
芾	-11.1684
贑	-11.1685
抽	-11.1688
儆	-11.1691
厓	-11.1697
徊	-11.1868
簒	-11.1869
護	-11.1871
翌	-11.1876
俠	-11.1878
焕	-11.1878
翹	-11.1879
晴	-11.188
䆒	-11.188
圯	-11.1881
夸	-11.1881
憬	-11.1881
瞭	-11.1881
眠	-11.1884
翫	-11.1885
睹	-11.1886
霽	-11.1887
鍊	-11.1888
壙	-11.1891
􁑷	-11.1893
羌	-11.1895
倬	-11.2071
妍	-11.2076
焯	-11.2077
莞	-11.208
囚	-11.2081
棫	-11.2081
彷	-11.2082
柬	-11.2085
囬	-11.2086
打	-11.2086
鉛	-11.2086
犀	-11.2088
遘	-11.2088
蒋	-11.2089
鹵	-11.209
棊	-11.209
錮	-11.2091
彫	-11.2091
濯	-11.2092
絢	-11.2094
燮	-11.2094
曙	-11.2095
亘	-11.2095
椅	-11.2095
址	-11.2095
溟	-11.2097
灸	-11.2097
媿	-11.2099
䧟	-11.21
賣	-11.2102
称	-11.2285
縷	-11.2288
鰲	-11.2289
悒	-11.2291
羨	-11.2294
儷	-11.2295
戡	-11.2299
欄	-11.23
翥	-11.2302
冐	-11.2304
培	-11.2304
畀	-11.2304
詛	-11.231
灘	-11.231
惕	-11.2311
浴	-11.2313
覯	-11.2314
菜	-11.2314
秊	-11.2316
雩	-11.2319
蠧	-11.2504
炙	-11.2505
胙	-11.2507
洧	-11.2509
壓	-11.251
侔	-11.2511
袖	-11.2512
蹄	-11.2515
汸	-11.2517
斐	-11.2518
殉	-11.2519
溍	-11.2519
杰	-11.2521
闊	-11.2522
筴	-11.2522
叡	-11.2522
暐	-11.2524
榆	-11.2525
喆	-11.2527
認	-11.2529
虧	-11.253
犍	-11.2532
眩	-11.2725
聳	-11.2727
硬	-11.2728
畋	-11.2729
杌	-11.273
皥	-11.2732
卽	-11.2732
汜	-11.2733
蘋	-11.2734
墖	-11.2735
諦	-11.2735
凛	-11.2736
遹	-11.2736
菁	-11.2737
葆	-11.2738
紕	-11.2739
恍	-11.2739
甎	-11.2739
煇	-11.274
颺	-11.274
紬	-11.274
墅	-11.274
挹	-11.274
奘	-11.2741
帑	-11.2741
瀧	-11.2741
紆	-11.2741
㓂	-11.2741
汀	-11.2742
蟠	-11.2742
纖	-11.2744
灝	-11.2744
兑	-11.2745
熾	-11.2747
樷	-11.2753
茹	-11.2754
羔	-11.2762
椘	-11.2771
槀	-11.2954
仞	-11.2954
飯	-11.2959
匣	-11.2959
耄	-11.296
橅	-11.2963
盪	-11.2964
洺	-11.2965
昺	-11.2966
堵	-11.2969
滂	-11.2969
蚩	-11.2971
曆	-11.2971
絀	-11.2971
弧	-11.2973
嶷	-11.2973
慤	-11.2974
宓	-11.2976
燿	-11.2976
焞	-11.2977
稗	-11.2981
彤	-11.2982
种	-11.2983
貸	-11.2985
殖	-11.2986
嬴	-11.3187
懇	-11.3192
鎰	-11.3192
藹	-11.3192
縢	-11.3193
麋	-11.3195
牀	-11.3195
聼	-11.3195
携	-11.3195
貲	-11.3197
祓	-11.3197
讎	-11.3198
雱	-11.32
苴	-11.3202
眺	-11.3203
迫	-11.3204
瀚	-11.3205
鯉	-11.3207
隙	-11.3208
柩	-11.321
贏	-11.3211
㨗	-11.342
稜	-11.3427
斟	-11.3429
脗	-11.343
􁓑	-11.3431
貟	-11.3431
弛	-11.3434
遞	-11.3435
馭	-11.3436
俛	-11.3437
針	-11.3437
鼂	-11.3437
蕐	-11.3438
丸	-11.3438
凰	-11.3438
巗	-11.3441
斛	-11.3441
畨	-11.3441
汙	-11.3442
雉	-11.3444
帳	-11.3444
賚	-11.3445
琪	-11.3455
盱	-11.3665
琯	-11.3667
藤	-11.3667
戢	-11.367
苛	-11.3671
彧	-11.3672
脯	-11.3674
撿	-11.3674
緱	-11.3677
濛	-11.3677
躋	-11.3678
遑	-11.3679
鞅	-11.3681
墉	-11.3683
忿	-11.3684
窒	-11.3684
蘿	-11.3684
跨	-11.3687
○	-11.3688
紱	-11.3688
繚	-11.3688
磐	-11.3689
螭	-11.369
躭	-11.369
紘	-11.3691
鏊	-11.3691
瑄	-11.3692
卅	-11.3695
釁	-11.3695
疊	-11.3697
牝	-11.3704
嵇	-11.3915
洒	-11.3919
腰	-11.3921
徼	-11.3922
芟	-11.3924
朐	-11.3924
誄	-11.3927
装	-11.3927
幻	-11.3928
墀	-11.3931
乍	-11.3931
斵	-11.3933
盆	-11.3933
宥	-11.3934
腴	-11.3934
俎	-11.3937
稀	-11.3938
晰	-11.3938
辜	-11.3938
汁	-11.3939
祜	-11.3939
磻	-11.394
婢	-11.3942
隄	-11.3942
囿	-11.3943
溉	-11.3945
𦂳	-11.4168
鏘	-11.4171
礎	-11.4176
頲	-11.4176
舫	-11.4181
潯	-11.4183
薪	-11.4183
恣	-11.4184
綵	-11.4184
別	-11.4185
悅	-11.4186
慝	-11.4186
榛	-11.4188
浹	-11.419
慢	-11.419
訴	-11.419
鼻	-11.419
翦	-11.4191
囉	-11.4191
朞	-11.4191
暁	-11.4192
黻	-11.4193
宵	-11.4193
滇	-11.4193
抉	-11.4194
隳	-11.4194
鯨	-11.4195
狗	-11.4195
寰	-11.4196
撓	-11.4196
粉	-11.4196
慟	-11.4197
堤	-11.4198
咒	-11.4206
亶	-11.4208
夐	-11.4209
裹	-11.4435
籥	-11.444
捧	-11.4442
崡	-11.4448
摯	-11.4448
杼	-11.4448
壮	-11.4448
隰	-11.4449
姻	-11.4449
溯	-11.445
塜	-11.445
傲	-11.445
儁	-11.4451
縝	-11.4451
嘻	-11.4452
槎	-11.4453
剏	-11.4453
韙	-11.4453
廪	-11.4454
逋	-11.4455
孩	-11.4455
臘	-11.4458
蒞	-11.4458
顗	-11.4459
諄	-11.446
菩	-11.4463
㢤	-11.4466
堙	-11.4467
涖	-11.4695
𥙿	-11.4702
泠	-11.4704
燥	-11.471
贋	-11.4715
絪	-11.4715
籠	-11.4717
埴	-11.4721
祔	-11.4721
鈍	-11.4721
覿	-11.4723
慥	-11.4725
稅	-11.4725
㓗	-11.4725
簽	-11.4725
肄	-11.4725
閤	-11.4726
廩	-11.4726
儔	-11.4727
棻	-11.4727
轄	-11.4728
仗	-11.4728
淚	-11.473
麥	-11.473
婆	-11.4731
琚	-11.4733
謇	-11.4736
隊	-11.4736
楳	-11.474
嵊	-11.4765
郄	-11.4959
竈	-11.4982
頋	-11.4982
瑚	-11.4984
陛	-11.4988
繙	-11.4988
檇	-11.499
鏗	-11.499
閫	-11.4991
霅	-11.4991
悚	-11.4994
佺	-11.4994
秪	-11.4996
油	-11.4997
涂	-11.4999
暘	-11.5
燎	-11.5
郴	-11.5002
膝	-11.5002
鳬	-11.5004
刼	-11.5005
禺	-11.5006
剰	-11.5006
𤓰	-11.5007
澣	-11.5009
弩	-11.5011
薫	-11.5012
翃	-11.5264
纍	-11.5269
僎	-11.527
髀	-11.527
隲	-11.5272
鷄	-11.5272
珊	-11.5272
拖	-11.5272
糓	-11.5276
巒	-11.5277
透	-11.5278
𣲖	-11.5279
飽	-11.5279
紜	-11.528
闈	-11.528
讒	-11.5282
洩	-11.5283
迅	-11.5284
亹	-11.5284
畆	-11.5285
幡	-11.5285
筞	-11.5286
蓼	-11.5286
汚	-11.5287
炯	-11.5287
闚	-11.5289
茟	-11.529
蕙	-11.529
叨	-11.5292
稔	-11.5292
款	-11.5293
鮒	-11.5293
耻	-11.5294
煒	-11.5295
萍	-11.5295
崙	-11.5296
鐙	-11.5296
冏	-11.5297
娑	-11.5298
朙	-11.5298
􁂗	-11.53
挑	-11.5546
轂	-11.5563
另	-11.557
敇	-11.5571
沅	-11.5571
魔	-11.5572
侣	-11.5572
伎	-11.5572
組	-11.5574
芮	-11.5574
軀	-11.5575
籩	-11.5576
甯	-11.5577
驍	-11.5578
𧺫	-11.5578
孽	-11.5579
漿	-11.558
仝	-11.5581
銳	-11.5581
畝	-11.5581
覬	-11.5582
隧	-11.5582
裦	-11.5582
薤	-11.5582
麒	-11.5585
鏞	-11.5587
鄩	-11.5588
查	-11.5588
纓	-11.5589
憐	-11.5591
􁧸	-11.5592
簋	-11.5593
卋	-11.5594
噬	-11.5608
郤	-11.5838
澁	-11.5861
迴	-11.5863
壼	-11.587
喙	-11.5872
倭	-11.5873
杳	-11.5873
暫	-11.5873
臚	-11.5873
潰	-11.5875
佗	-11.5875
駛	-11.5877
幷	-11.5877
惋	-11.588
舂	-11.5881
榦	-11.5882
屨	-11.5882
蟄	-11.5883
臭	-11.5883
陌	-11.5883
腫	-11.5883
勦	-11.5883
杏	-11.5884
緻	-11.5884
欠	-11.5884
弄	-11.5885
訶	-11.5885
莾	-11.5886
荔	-11.5886
䔍	-11.5887
噉	-11.5887
勺	-11.5888
渝	-11.5889
蟾	-11.5889
殤	-11.5889
蠢	-11.589
諲	-11.5891
澈	-11.5891
蔬	-11.5892
旃	-11.5893
攬	-11.5894
鼐	-11.5899
缶	-11.5907
詧	-11.6165
尝	-11.6177
勰	-11.618
盂	-11.6184
虺	-11.6184
氾	-11.6185
兎	-11.6188
憎	-11.6188
樣	-11.619
旄	-11.6191
峩	-11.6191
骸	-11.6191
刁	-11.6192
闋	-11.6193
霈	-11.6193
槧	-11.6194
殄	-11.6195
鍵	-11.6195
窘	-11.6197
倖	-11.6197
鷟	-11.6198
瓛	-11.6198
撃	-11.6199
頫	-11.62
愴	-11.6201
礙	-11.6201
杓	-11.6201
伉	-11.6202
窽	-11.6202
貺	-11.6204
阯	-11.6205
蠲	-11.6206
鍳	-11.6208
嶁	-11.6211
窓	-11.6213
旧	-11.649
陕	-11.6504
湫	-11.6504
奈	-11.6504
卄	-11.6504
鵝	-11.6506
擯	-11.6509
劒	-11.6509
烜	-11.651
絕	-11.6512
縦	-11.6513
聃	-11.6513
鄖	-11.6514
邳	-11.6514
跂	-11.6514
楓	-11.6514
飫	-11.6516
趺	-11.6516
妥	-11.6516
爪	-11.6516
扣	-11.6517
賄	-11.6517
卬	-11.6517
熄	-11.6517
聱	-11.6517
韞	-11.6518
衒	-11.6519
𤾉	-11.6519
汰	-11.6519
欝	-11.652
挽	-11.6521
廹	-11.6521
隻	-11.6522
療	-11.6523
罄	-11.6523
浯	-11.6525
賂	-11.6525
斌	-11.6526
爚	-11.6527
嗇	-11.6527
嬉	-11.6528
蹔	-11.6529
鯤	-11.653
㤀	-11.653
靚	-11.6532
􁭉	-11.6533
扇	-11.6533
阬	-11.6537
觚	-11.6538
畦	-11.6538
沾	-11.6833
皋	-11.6834
挂	-11.6838
躅	-11.6839
緡	-11.6841
倘	-11.6841
駸	-11.6841
扆	-11.6842
瑤	-11.6843
髦	-11.6844
盲	-11.6845
滴	-11.6845
㙮	-11.6845
紺	-11.6846
靄	-11.6846
悊	-11.6847
蠟	-11.6848
𣙜	-11.6849
㝎	-11.6849
妨	-11.6849
醴	-11.685
椽	-11.6851
緬	-11.6851
鄜	-11.6851
鑠	-11.6852
貿	-11.6854
閟	-11.6855
遴	-11.6857
櫛	-11.6857
斿	-11.6858
嬪	-11.6858
㩀	-11.6859
炤	-11.686
祛	-11.6862
庇	-11.6862
涒	-11.6862
薇	-11.6863
爼	-11.6865
埜	-11.6866
畯	-11.6866
錬	-11.6867
􁡿	-11.6867
汭	-11.6868
闥	-11.6869
旴	-11.718
澀	-11.7181
狡	-11.7184
漠	-11.7184
堆	-11.7187
粥	-11.7188
猿	-11.7188
蘆	-11.7189
蟬	-11.719
峨	-11.719
叱	-11.7193
㝢	-11.7195
壅	-11.7195
芑	-11.7196
伴	-11.7196
爐	-11.7199
昬	-11.7199
叠	-11.72
苔	-11.7202
䘏	-11.7202
苹	-11.7202
楙	-11.7202
岵	-11.7204
蹕	-11.7204
瀘	-11.7204
爕	-11.7207
扉	-11.7207
賑	-11.7209
弃	-11.7209
諺	-11.7211
竑	-11.7211
聫	-11.7212
甬	-11.7215
稻	-11.7215
甗	-11.7216
玘	-11.7218
禰	-11.7528
稠	-11.753
𣸪	-11.753
竪	-11.7531
拊	-11.7534
鴟	-11.7537
呪	-11.7538
酣	-11.7541
喟	-11.7542
厠	-11.7545
柢	-11.7546
峽	-11.7548
邜	-11.7549
苕	-11.7549
峒	-11.7549
彜	-11.755
觕	-11.755
箭	-11.7551
齎	-11.7551
丐	-11.7552
讞	-11.7552
淛	-11.7552
瀑	-11.7552
㒒	-11.7552
繭	-11.7552
慷	-11.7553
凑	-11.7553
扐	-11.7553
崐	-11.7554
閼	-11.7554
俶	-11.7555
忻	-11.7555
邴	-11.7556
竅	-11.7556
岫	-11.7556
巔	-11.7556
凍	-11.7557
攄	-11.7558
媵	-11.7558
鋩	-11.7559
䋲	-11.7559
黷	-11.7559
袐	-11.756
郾	-11.7561
煉	-11.7562
㦤	-11.7562
愉	-11.7562
塏	-11.7563
珮	-11.7563
虵	-11.7564
娯	-11.7566
歉	-11.7566
凋	-11.7567
茨	-11.7567
耘	-11.7577
柘	-11.7577
濃	-11.7895
袒	-11.7904
拠	-11.7905
紓	-11.7905
坑	-11.7907
撤	-11.7908
縛	-11.7909
訊	-11.791
欹	-11.7912
餞	-11.7913
笈	-11.7914
驩	-11.7915
蓉	-11.7915
炭	-11.7915
諍	-11.7915
疋	-11.7916
愕	-11.7918
溱	-11.7919
償	-11.7919
謄	-11.7919
筍	-11.792
聾	-11.7921
犖	-11.7921
竣	-11.7922
遮	-11.7922
菽	-11.7922
玭	-11.7922
擒	-11.7922
頔	-11.7923
賽	-11.7923
褘	-11.7923
兔	-11.7923
沸	-11.7924
跳	-11.7924
瓉	-11.7925
㳂	-11.7925
鑽	-11.7925
渤	-11.7926
踊	-11.7927
漂	-11.7927
賡	-11.7928
窆	-11.7928
縂	-11.7929
顚	-11.7929
紇	-11.7929
悽	-11.7929
萱	-11.793
贗	-11.7931
械	-11.7932
异	-11.7932
炅	-11.7934
碭	-11.7934
甃	-11.7935
鄺	-11.7935
砂	-11.7935
椎	-11.7935
􁗩	-11.7935
簠	-11.7936
贖	-11.7936
菀	-11.7941
耐	-11.8277
蹲	-11.828
莪	-11.8285
梨	-11.8285
屺	-11.8287
献	-11.829
殞	-11.8296
鶡	-11.8297
昜	-11.8299
嫄	-11.8299
諝	-11.83
𬒳	-11.83
扎	-11.8302
臮	-11.8303
殯	-11.8303
劫	-11.8303
倐	-11.8304
駰	-11.8305
隤	-11.8306
澳	-11.8306
驤	-11.8306
􁓤	-11.8306
伶	-11.8306
塼	-11.8308
洮	-11.8308
沁	-11.8308
簫	-11.8309
熒	-11.831
酇	-11.831
夥	-11.8312
埃	-11.8313
豎	-11.8313
氛	-11.8313
澮	-11.8314
甕	-11.8314
線	-11.8315
彀	-11.8315
岀	-11.8316
肝	-11.8317
雌	-11.8317
㱕	-11.8317
鄢	-11.8317
鎔	-11.8317
皷	-11.8318
璩	-11.8318
踪	-11.8318
纉	-11.8318
㲄	-11.8318
瑒	-11.8318
釡	-11.8319
蛾	-11.8319
馥	-11.8319
絅	-11.832
控	-11.832
穡	-11.8322
忉	-11.8322
㳅	-11.8325
逞	-11.8325
褧	-11.8343
臟	-11.8347
䜿	-11.8682
憕	-11.8684
汧	-11.8688
渥	-11.8689
蠅	-11.8694
餙	-11.8694
閹	-11.8694
哥	-11.8696
㝷	-11.8698
綘	-11.8699
价	-11.87
慚	-11.8703
旒	-11.8703
苾	-11.8703
咄	-11.8704
饌	-11.8705
珵	-11.8706
澔	-11.8706
㐫	-11.8707
咽	-11.8707
尢	-11.8708
斆	-11.8708
鶉	-11.8708
儕	-11.8708
橫	-11.8708
茗	-11.8708
㽜	-11.8709
棖	-11.871
逖	-11.871
臥	-11.8711
抒	-11.8716
璁	-11.8716
葦	-11.8716
牕	-11.8718
簾	-11.8718
徠	-11.8719
詺	-11.872
餌	-11.8723
􁭇	-11.8723
垓	-11.8724
虙	-11.8725
脅	-11.8726
畤	-11.8726
鉢	-11.8727
䨇	-11.9099
㽒	-11.9105
銕	-11.9106
盩	-11.9106
駉	-11.9109
締	-11.911
槖	-11.9111
癡	-11.9113
蹊	-11.9116
昩	-11.9118
匀	-11.9118
騏	-11.9119
檻	-11.912
鄠	-11.9122
臾	-11.9123
扄	-11.9124
氓	-11.9124
断	-11.9125
眭	-11.9125
哽	-11.9126
俘	-11.9126
珏	-11.9126
寞	-11.9126
擔	-11.9127
尙	-11.9127
党	-11.9128
歇	-11.9128
嵬	-11.9128
袵	-11.9129
醳	-11.9129
螺	-11.9129
娛	-11.913
簪	-11.9131
芥	-11.9131
暠	-11.9131
巘	-11.9133
芭	-11.9134
烱	-11.9135
蕘	-11.9135
圮	-11.9135
擿	-11.9135
菑	-11.9136
澷	-11.9137
蕡	-11.9137
殃	-11.9137
蕫	-11.9139
沼	-11.914
㙔	-11.914
𨗳	-11.914
攽	-11.914
塢	-11.9141
魴	-11.9142
薩	-11.9143
嗑	-11.9156
粒	-11.9534
肘	-11.9534
暌	-11.9541
嘏	-11.9542
株	-11.9543
畊	-11.9543
艷	-11.9544
瀟	-11.9545
偓	-11.9545
膽	-11.9546
擲	-11.9546
衘	-11.9547
兇	-11.9549
漼	-11.955
玢	-11.955
礫	-11.9553
砌	-11.9553
拆	-11.9553
遙	-11.9553
􁃟	-11.9555
衿	-11.9555
鞭	-11.9555
珩	-11.9555
蜚	-11.9555
剽	-11.9556
蘩	-11.9556
斁	-11.9556
豚	-11.9557
呵	-11.9558
棋	-11.9558
晤	-11.9559
蟻	-11.9559
鬚	-11.9559
澥	-11.9561
义	-11.9561
隗	-11.9562
阡	-11.9562
筑	-11.9562
悍	-11.9563
湧	-11.9563
譴	-11.9563
笠	-11.9564
旡	-11.9564
摠	-11.9565
鼇	-11.9566
泝	-11.9566
莅	-11.9566
笏	-11.9567
楯	-11.9567
幄	-11.9568
㒺	-11.957
搢	-11.9571
鏐	-11.9571
鞍	-11.9571
浣	-11.9571
洫	-11.9572
畸	-11.9573
憙	-11.9573
羿	-11.9573
菲	-11.9574
罵	-11.9575
件	-11.9577
昴	-11.9577
鉦	-11.9578
驂	-11.9578
滙	-11.958
耜	-11.9582
芹	-11.9584
亊	-11.9983
鄘	-11.9985
罍	-11.9987
胷	-11.9997
塊	-11.9999
㽔	-12.0001
糟	-12.0002
跌	-12.0002
穜	-12.0003
刮	-12.0003
薈	-12.0006
鉄	-12.0006
餐	-12.0007
殱	-12.0007
嶸	-12.0008
聦	-12.0009
謟	-12.0009
謩	-12.001
籬	-12.001
侑	-12.001
簷	-12.0011
袪	-12.0012
諛	-12.0013
渴	-12.0013
涌	-12.0014
繳	-12.0014
瑊	-12.0015
莖	-12.0019
堡	-12.0019
䧺	-12.002
袠	-12.002
哈	-12.002
蠭	-12.0021
粮	-12.0021
撝	-12.0021
泓	-12.0022
怖	-12.0022
豔	-12.0023
䂓	-12.0023
瘧	-12.0024
型	-12.0024
麴	-12.0024
拍	-12.0025
朓	-12.0026
謔	-12.0026
笳	-12.0033
葩	-12.0033
玅	-12.0035
鄔	-12.0035
廕	-12.0038
楠	-12.0043
彗	-12.0044
趯	-12.0454
峪	-12.0464
濩	-12.0465
邽	-12.0466
袂	-12.0469
楽	-12.0471
漓	-12.0474
闍	-12.0474
帯	-12.0475
嵌	-12.0476
倕	-12.0477
剞	-12.0478
皴	-12.0479
緘	-12.0479
妓	-12.0481
昰	-12.0482
偷	-12.0482
珦	-12.0483
扃	-12.0483
拈	-12.0484
漲	-12.0485
粕	-12.0485
掊	-12.0485
庋	-12.0487
硏	-12.0488
諾	-12.0488
糺	-12.0489
躡	-12.0489
貼	-12.049
暈	-12.049
尖	-12.049
捍	-12.0491
焱	-12.0491
磁	-12.0491
祧	-12.0492
瑯	-12.0493
籟	-12.0493
氊	-12.0494
侁	-12.0494
搃	-12.0495
捃	-12.0496
菅	-12.0496
仔	-12.0496
枳	-12.0497
姉	-12.0497
慱	-12.0497
窪	-12.0497
璫	-12.0498
沽	-12.0499
乹	-12.05
忭	-12.05
畼	-12.05
惰	-12.0501
窈	-12.0502
㦯	-12.0502
藜	-12.0503
楗	-12.0503
陬	-12.0503
烹	-12.0505
伷	-12.0505
筦	-12.0505
儵	-12.0506
厝	-12.0507
􁶜	-12.0507
蘧	-12.0514
鞞	-12.0538
啄	-12.0947
堇	-12.096
贙	-12.0964
厔	-12.0965
匆	-12.0965
􁢉	-12.097
㞢	-12.097
尠	-12.0972
穠	-12.0972
惚	-12.0973
渇	-12.0974
劂	-12.0975
丰	-12.0975
蚪	-12.0977
繢	-12.0978
迤	-12.0981
蜜	-12.0981
兀	-12.0982
滓	-12.0983
珽	-12.0983
斃	-12.0983
禩	-12.0984
糅	-12.0984
璲	-12.0985
諴	-12.0986
悝	-12.0986
矇	-12.0987
祫	-12.0988
仄	-12.0989
勳	-12.0989
曵	-12.099
頎	-12.099
劓	-12.099
耑	-12.099
伺	-12.099
躔	-12.0991
両	-12.0991
淦	-12.0992
葭	-12.0992
蒯	-12.0993
􁊬	-12.0993
灣	-12.0993
倞	-12.0994
凟	-12.0994
爱	-12.0995
戔	-12.0995
蒿	-12.0996
緗	-12.0996
鄣	-12.0998
瘠	-12.0998
巵	-12.0998
剌	-12.1
萼	-12.1
軄	-12.1
淶	-12.1001
匜	-12.1001
糜	-12.1001
毖	-12.1002
樽	-12.1002
顰	-12.1003
聮	-12.1003
孛	-12.1003
㫥	-12.1004
卻	-12.1006
霣	-12.1006
蕳	-12.1007
紼	-12.1008
胃	-12.1009
􁨾	-12.101
馯	-12.1011
藎	-12.1013
謳	-12.1017
姨	-12.1494
蹙	-12.1495
纁	-12.1496
匾	-12.1497
釀	-12.1499
徭	-12.15
憇	-12.1501
辤	-12.1503
燋	-12.1503
挫	-12.1504
諏	-12.1505
頺	-12.1506
霤	-12.1507
磚	-12.1507
劖	-12.1507
孕	-12.1508
畱	-12.1509
鷺	-12.1509
獬	-12.151
諗	-12.151
蓺	-12.151
奨	-12.151
墠	-12.151
悞	-12.1511
埀	-12.1511
皦	-12.1512
埽	-12.1513
鎩	-12.1514
鎧	-12.1515
廞	-12.1515
夣	-12.1515
覊	-12.1515
曖	-12.1515
苢	-12.1516
睨	-12.1516
礱	-12.1516
墊	-12.1516
澶	-12.1517
虔	-12.1518
銍	-12.1519
嗤	-12.152
囙	-12.152
玷	-12.152
鳶	-12.1521
弭	-12.1522
篁	-12.1522
湼	-12.1523
喧	-12.1523
荣	-12.1523
抃	-12.1523
棼	-12.1523
媒	-12.1524
眎	-12.1524
棨	-12.1524
璨	-12.1524
煮	-12.1525
鯀	-12.1526
砭	-12.1528
懈	-12.1528
酺	-12.1528
詒	-12.153
袍	-12.1532
㮮	-12.1534
黟	-12.1534
羑	-12.1534
窩	-12.1535
臼	-12.1537
滸	-12.1539
䠂	-12.1541
瑴	-12.1549
嶮	-12.2041
籤	-12.2044
怳	-12.2045
訝	-12.2048
床	-12.2049
怏	-12.2049
曝	-12.205
篡	-12.2051
醪	-12.2052
嵐	-12.2054
徇	-12.2056
赧	-12.2058
秬	-12.2058
匏	-12.2059
惙	-12.206
懃	-12.206
鄕	-12.206
拭	-12.2061
霑	-12.2063
咫	-12.2063
兗	-12.2064
薰	-12.2066
着	-12.2067
柰	-12.2068
凄	-12.2069
訕	-12.2069
縟	-12.207
晊	-12.207
弈	-12.207
朏	-12.207
鶯	-12.2071
緋	-12.2071
脂	-12.2071
涸	-12.2071
騤	-12.2072
綯	-12.2072
湊	-12.2072
櫺	-12.2073
脞	-12.2073
嘔	-12.2073
郕	-12.2073
􁜭	-12.2074
簣	-12.2074
鬭	-12.2074
酋	-12.2074
揜	-12.2074
邀	-12.2075
卲	-12.2075
抹	-12.2075
腸	-12.2076
煎	-12.2077
掣	-12.2077
寝	-12.2077
詘	-12.2078
蕉	-12.2078
珫	-12.2079
縈	-12.2079
鬰	-12.2079
蕚	-12.2079
炬	-12.2079
竿	-12.2079
褎	-12.208
漯	-12.2081
橘	-12.2082
拏	-12.2083
噩	-12.2084
蜂	-12.2084
蔭	-12.2084
衎	-12.2085
縹	-12.2086
賖	-12.2089
逯	-12.2089
嶼	-12.2089
榘	-12.2091
塡	-12.2092
屛	-12.2093
桼	-12.2096
睽	-12.2101
滎	-12.2581
劑	-12.2624
努	-12.263
釵	-12.2634
餽	-12.2634
㳫	-12.2635
潦	-12.2635
囑	-12.2635
頠	-12.264
盎	-12.2644
櫜	-12.2647
糞	-12.2647
聟	-12.2647
餉	-12.2647
奧	-12.2648
霓	-12.2648
㒷	-12.2648
鄊	-12.265
闌	-12.265
忒	-12.265
豢	-12.2651
脾	-12.2651
踣	-12.2652
溶	-12.2653
䧏	-12.2653
溷	-12.2653
嫂	-12.2654
竢	-12.2654
尓	-12.2654
斾	-12.2654
諉	-12.2656
噲	-12.2656
紿	-12.2656
陲	-12.2657
閶	-12.2657
懽	-12.2659
璆	-12.2659
㫄	-12.2659
縑	-12.266
寇	-12.266
槁	-12.266
羯	-12.266
緼	-12.266
嵒	-12.2661
鎖	-12.2661
丱	-12.2661
黽	-12.2662
胛	-12.2662
狎	-12.2662
遄	-12.2662
黌	-12.2662
逶	-12.2662
濰	-12.2662
凈	-12.2662
荃	-12.2663
盥	-12.2663
芙	-12.2663
翅	-12.2664
刾	-12.2664
羈	-12.2664
駙	-12.2664
塚	-12.2665
瘳	-12.2665
窻	-12.2665
瘁	-12.2665
絛	-12.2666
䏻	-12.2666
膊	-12.2666
琁	-12.2666
髫	-12.2667
聆	-12.2668
􁐇	-12.2669
曅	-12.2669
褊	-12.2669
阨	-12.2669
駝	-12.267
吸	-12.2671
賵	-12.2671
甓	-12.2671
睡	-12.2671
邯	-12.2671
􁫱	-12.2673
漱	-12.2674
藺	-12.2674
慼	-12.2674
瓢	-12.2674
牂	-12.2675
鈴	-12.2675
曳	-12.2675
繻	-12.2676
单	-12.2677
峡	-12.2678
騖	-12.2679
蘂	-12.2679
卣	-12.2679
懾	-12.268
旺	-12.268
柜	-12.2681
􁉗	-12.2682
攺	-12.2685
螢	-12.2687
馘	-12.2691
􁃰	-12.2692
囦	-12.2696
縠	-12.3231
逭	-12.3261
洊	-12.327
眙	-12.3271
鬬	-12.3271
戶	-12.3272
惎	-12.3272
𣺌	-12.3272
躁	-12.3273
稟	-12.3273
敔	-12.3273
瑱	-12.3274
􁊓	-12.3274
夤	-12.3274
耨	-12.3275
頸	-12.3276
硤	-12.3277
玕	-12.3277
壌	-12.3279
攙	-12.3279
琨	-12.328
睠	-12.328
猾	-12.3281
腳	-12.3281
剗	-12.3282
禜	-12.3282
宝	-12.3282
鑪	-12.3282
婿	-12.3285
麄	-12.3285
繒	-12.3285
崕	-12.3286
譁	-12.3286
畎	-12.3286
瘡	-12.3286
􁨿	-12.3287
帚	-12.3287
熲	-12.3287
惪	-12.3288
郟	-12.3288
崛	-12.3288
堦	-12.3288
劬	-12.3288
錐	-12.3288
睂	-12.3289
恰	-12.329
壎	-12.3291
犁	-12.3292
鬲	-12.3292
屹	-12.3292
鍚	-12.3293
糴	-12.3293
縚	-12.3293
輓	-12.3293
榭	-12.3294
蠙	-12.3294
綠	-12.3295
劵	-12.3295
桴	-12.3295
蒹	-12.3295
灋	-12.3296
驎	-12.3296
肜	-12.3297
姒	-12.3297
娘	-12.3297
㬌	-12.3297
佾	-12.3298
喉	-12.3298
藐	-12.3299
誾	-12.3299
戞	-12.33
潄	-12.3301
邅	-12.3301
弥	-12.3302
嗚	-12.3303
貭	-12.3305
㙒	-12.3307
葯	-12.3313
訐	-12.3316
廋	-12.3319
妺	-12.3319
冣	-12.3923
肌	-12.3925
鷃	-12.3926
鯁	-12.3926
蔀	-12.3927
弡	-12.3931
秃	-12.3931
緦	-12.3933
窅	-12.3935
柷	-12.3937
搏	-12.3937
鍔	-12.3937
惘	-12.3937
穏	-12.3938
龐	-12.3938
燹	-12.3938
縞	-12.3938
佇	-12.3939
擘	-12.3939
徤	-12.3939
熖	-12.394
衲	-12.3941
濆	-12.3941
斫	-12.3942
縯	-12.3942
昫	-12.3942
殳	-12.3943
坣	-12.3944
薬	-12.3944
郇	-12.3944
琥	-12.3944
鉗	-12.3944
磋	-12.3945
泚	-12.3945
䧕	-12.3947
杵	-12.3947
沓	-12.3947
犢	-12.3948
讌	-12.3948
譖	-12.3948
腎	-12.3948
扞	-12.395
禳	-12.395
踦	-12.3951
瀏	-12.3951
凜	-12.3951
蓂	-12.3951
鐶	-12.3951
迸	-12.3952
儘	-12.3953
閌	-12.3954
碁	-12.3954
啼	-12.3954
躐	-12.3955
奩	-12.3956
瓜	-12.3956
櫝	-12.3956
洹	-12.3956
撡	-12.3956
催	-12.3956
􁒐	-12.3957
滉	-12.3957
􁐓	-12.3958
沚	-12.3958
𬋩	-12.3958
貉	-12.3958
擷	-12.3959
翀	-12.3959
蟀	-12.3959
謾	-12.3959
刷	-12.3959
埏	-12.396
㽞	-12.3961
珤	-12.3961
艶	-12.3961
凃	-12.3961
𩔖	-12.3961
鰥	-12.3962
蚓	-12.3962
翮	-12.3962
嶲	-12.3963
氐	-12.3963
彣	-12.3963
䑕	-12.3963
垍	-12.3963
髠	-12.3963
診	-12.3963
鑚	-12.3964
傖	-12.3964
蘖	-12.3965
墩	-12.3965
箎	-12.3965
縊	-12.3966
澠	-12.3966
狷	-12.3968
蘅	-12.3968
﨑	-12.3968
軆	-12.3969
港	-12.397
漣	-12.397
薺	-12.3971
餓	-12.3973
匽	-12.3973
嵓	-12.3975
秫	-12.3975
串	-12.3976
諜	-12.3978
耰	-12.3981
佖	-12.3983
瀋	-12.3984
塑	-12.4631
垕	-12.4632
仭	-12.4634
踏	-12.464
穫	-12.4641
懴	-12.4641
怯	-12.4644
佻	-12.4645
鹤	-12.4645
渢	-12.4647
舁	-12.4647
咺	-12.4648
卵	-12.4649
捫	-12.4651
靑	-12.4651
套	-12.4652
窠	-12.4652
佶	-12.4653
橐	-12.4653
猜	-12.4653
箧	-12.4653
鎡	-12.4654
愻	-12.4654
漬	-12.4655
雛	-12.4655
慇	-12.4655
繄	-12.4655
郫	-12.4655
䆳	-12.4655
蘚	-12.4656
睫	-12.4656
燠	-12.4656
懌	-12.4657
絰	-12.4657
悱	-12.4658
棧	-12.4658
璪	-12.4658
妬	-12.4659
陘	-12.4659
舶	-12.466
郜	-12.466
裯	-12.4662
弨	-12.4662
嶧	-12.4663
冈	-12.4663
麃	-12.4663
晢	-12.4663
瑪	-12.4664
瓶	-12.4664
愜	-12.4664
攣	-12.4665
閠	-12.4665
辝	-12.4666
䬃	-12.4667
壂	-12.4667
䛕	-12.4668
肋	-12.4668
寨	-12.4668
閽	-12.4668
煦	-12.4669
癰	-12.4669
琇	-12.4669
咲	-12.4669
咈	-12.467
羗	-12.467
狭	-12.467
庙	-12.467
憸	-12.467
鷙	-12.467
蟹	-12.4671
兠	-12.4671
耗	-12.4671
􁒤	-12.4671
宐	-12.4671
傚	-12.4671
瑰	-12.4673
矚	-12.4673
偘	-12.4673
軺	-12.4674
峕	-12.4674
麕	-12.4674
秣	-12.4675
傭	-12.4675
釴	-12.4675
憮	-12.4675
栩	-12.4676
頰	-12.4676
匝	-12.4677
弆	-12.4677
哂	-12.4677
􁅧	-12.4677
篚	-12.4678
逓	-12.4678
栽	-12.4681
昃	-12.4681
㐲	-12.4682
嘖	-12.4682
鍜	-12.4683
塤	-12.4683
頖	-12.4683
􁶙	-12.4684
鴞	-12.4685
賻	-12.4685
槗	-12.4685
獒	-12.4685
鸛	-12.4686
瀹	-12.4686
晧	-12.4686
闓	-12.4687
褰	-12.4687
㑓	-12.4689
唾	-12.4697
个	-12.5366
剙	-12.5403
鄗	-12.5408
麽	-12.541
鶺	-12.5411
琱	-12.5412
粧	-12.5414
藂	-12.5414
呻	-12.5414
漶	-12.5417
嵎	-12.5417
㪅	-12.5418
傒	-12.542
堊	-12.542
鄄	-12.542
𡨕	-12.542
鈇	-12.5421
蝌	-12.5421
娟	-12.5421
焜	-12.5421
暖	-12.5422
鮪	-12.5422
欎	-12.5424
桮	-12.5424
蜿	-12.5424
罅	-12.5424
驁	-12.5425
簀	-12.5426
欤	-12.5426
琉	-12.5427
肺	-12.5427
犨	-12.5427
掎	-12.5428
碾	-12.5428
插	-12.5428
晬	-12.5428
紏	-12.5428
纊	-12.5428
㩦	-12.5428
餒	-12.5429
㬊	-12.543
讙	-12.543
枲	-12.543
崗	-12.543
庀	-12.543
耋	-12.5432
郛	-12.5432
鱣	-12.5432
岌	-12.5433
咀	-12.5433
疫	-12.5434
鑊	-12.5434
憧	-12.5434
銛	-12.5435
寀	-12.5436
慾	-12.5436
萋	-12.5437
頁	-12.5437
鼈	-12.5437
饜	-12.5437
內	-12.5437
梟	-12.5438
泆	-12.5439
症	-12.544
鷲	-12.544
阪	-12.5441
冽	-12.5441
遝	-12.5441
壠	-12.5442
嘲	-12.5442
埒	-12.5442
份	-12.5442
晻	-12.5443
縻	-12.5443
鹹	-12.5443
饕	-12.5443
齗	-12.5443
柝	-12.5443
㮣	-12.5443
疣	-12.5444
罽	-12.5444
輶	-12.5445
糊	-12.5445
􁚔	-12.5445
烽	-12.5446
蒭	-12.5446
丼	-12.5447
粱	-12.5447
綫	-12.5447
幘	-12.5448
蒧	-12.5448
紈	-12.5448
瞰	-12.5449
拄	-12.5449
攡	-12.5449
覀	-12.545
媯	-12.545
騭	-12.5451
穸	-12.5451
悴	-12.5451
頵	-12.5451
沌	-12.5451
熠	-12.5451
軟	-12.5452
㿃	-12.5453
埶	-12.5453
屐	-12.5453
机	-12.5454
賸	-12.5454
琟	-12.5454
髯	-12.5455
柒	-12.5455
愠	-12.5456
憔	-12.5456
廌	-12.5457
蛻	-12.5457
鄲	-12.5461
裵	-12.5463
戕	-12.5468
抍	-12.5492
醖	-12.621
溜	-12.6241
醢	-12.6242
廚	-12.6243
猝	-12.6244
凷	-12.6246
豬	-12.6247
芉	-12.6248
癉	-12.6248
鞫	-12.6249
鴛	-12.6249
詖	-12.6249
塩	-12.6249
戣	-12.625
鴒	-12.6251
蕆	-12.6251
磊	-12.6252
臏	-12.6253
蹶	-12.6253
埭	-12.6254
堕	-12.6256
踞	-12.6256
筏	-12.6257
韵	-12.6257
描	-12.6257
甝	-12.6258
桄	-12.6258
簭	-12.6258
箇	-12.6258
眈	-12.6259
燄	-12.6259
吠	-12.626
勗	-12.6261
頷	-12.6261
蝗	-12.6261
熺	-12.6262
跪	-12.6263
衾	-12.6263
轟	-12.6263
睇	-12.6263
荄	-12.6263
兕	-12.6264
莩	-12.6264
伾	-12.6264
釜	-12.6264
僥	-12.6264
洄	-12.6264
兊	-12.6265
燃	-12.6265
臠	-12.6265
焰	-12.6266
􁖯	-12.6267
蟜	-12.6268
刈	-12.6268
㪷	-12.6269
䞇	-12.627
淯	-12.627
窗	-12.627
暄	-12.627
継	-12.6271
杪	-12.6271
匙	-12.6271
捭	-12.6271
饉	-12.6271
篠	-12.6271
㫤	-12.6272
簏	-12.6272
縳	-12.6272
珞	-12.6273
囂	-12.6273
届	-12.6273
篹	-12.6274
謠	-12.6274
臞	-12.6274
瀕	-12.6276
涘	-12.6276
磵	-12.6276
蠒	-12.6277
屍	-12.6277
􁭃	-12.6277
蜕	-12.6277
顆	-12.6278
蓘	-12.6278
癘	-12.6278
嚳	-12.6278
覘	-12.6278
臬	-12.6278
豸	-12.6279
涅	-12.6279
苓	-12.6279
棹	-12.628
􁃽	-12.628
嫉	-12.6281
佔	-12.6281
莠	-12.6282
雹	-12.6282
爟	-12.6282
鶻	-12.6283
􁀉	-12.6283
昞	-12.6283
獅	-12.6283
􁬾	-12.6283
荐	-12.6284
飡	-12.6285
餼	-12.6285
厪	-12.6285
榕	-12.6286
㳤	-12.6286
􁀫	-12.6286
漪	-12.6288
醯	-12.6289
佀	-12.6289
冇	-12.6289
瘴	-12.6291
蛙	-12.6291
􁄂	-12.6294
粦	-12.6299
蠕	-12.6302
逍	-12.7143
櫬	-12.7148
綝	-12.715
􁇒	-12.7153
摰	-12.7153
隼	-12.7154
瘵	-12.7156
娱	-12.7157
𫐠	-12.7162
肹	-12.7162
瑁	-12.7162
䡖	-12.7163
箸	-12.7163
僵	-12.7163
屣	-12.7163
痼	-12.7163
斡	-12.7166
頏	-12.7166
嚞	-12.7167
褫	-12.7169
膾	-12.7169
湟	-12.7169
煚	-12.717
闐	-12.717
洸	-12.7171
狸	-12.7171
􁆖	-12.7172
笛	-12.7173
甑	-12.7174
壷	-12.7175
涑	-12.7175
勩	-12.7175
邍	-12.7175
寉	-12.7176
雯	-12.7176
笞	-12.7176
尒	-12.7176
戹	-12.7176
撏	-12.7177
坻	-12.7177
瑭	-12.7178
夹	-12.7178
攫	-12.7179
輊	-12.7179
縵	-12.7179
媧	-12.718
笄	-12.718
嶂	-12.7181
剋	-12.7181
􁂮	-12.7181
綃	-12.7182
袞	-12.7182
扺	-12.7182
磯	-12.7182
撻	-12.7182
墁	-12.7183
冤	-12.7183
䙝	-12.7184
揉	-12.7184
体	-12.7184
懦	-12.7184
謏	-12.7184
窄	-12.7185
疴	-12.7186
宧	-12.7186
栞	-12.7186
螽	-12.7186
佘	-12.7187
忼	-12.7187
嫓	-12.7188
戩	-12.7188
敶	-12.7188
璃	-12.7188
粘	-12.7189
嚕	-12.7189
㕓	-12.719
疽	-12.719
祲	-12.719
怙	-12.719
耉	-12.719
棃	-12.719
鼒	-12.719
玖	-12.7191
悸	-12.7192
媛	-12.7192
鈕	-12.7192
㪺	-12.7192
黠	-12.7193
劮	-12.7193
荚	-12.7193
窀	-12.7193
祏	-12.7194
蕋	-12.7195
𥅆	-12.7195
袓	-12.7197
秕	-12.7197
搶	-12.7199
搖	-12.7201
鶩	-12.7202
邰	-12.7203
罟	-12.7204
鎛	-12.7205
霏	-12.7205
濄	-12.7207
沭	-12.7212
䣊	-12.7212
缸	-12.812
鄹	-12.8137
絺	-12.814
飴	-12.8142
婓	-12.8142
匕	-12.8145
麏	-12.8145
纛	-12.8148
脆	-12.8151
稡	-12.8151
窿	-12.8151
惆	-12.8152
偭	-12.8155
偪	-12.8155
僃	-12.8157
芽	-12.8157
摉	-12.8158
嬖	-12.8158
祼	-12.8158
刖	-12.8159
犒	-12.8159
磴	-12.8159
鋐	-12.816
衽	-12.816
肈	-12.816
逅	-12.8163
錚	-12.8163
幙	-12.8163
繅	-12.8163
擠	-12.8164
做	-12.8164
瞑	-12.8164
霹	-12.8166
駘	-12.8166
膞	-12.8166
產	-12.8167
捶	-12.8167
獪	-12.8167
穩	-12.8168
姥	-12.8168
慄	-12.8168
叫	-12.8168
戻	-12.8169
児	-12.8169
蜡	-12.817
岊	-12.817
渼	-12.817
迢	-12.817
輗	-12.817
楼	-12.817
泫	-12.8171
黏	-12.8172
蔥	-12.8172
潺	-12.8172
􁁏	-12.8173
摽	-12.8173
聵	-12.8173
瀦	-12.8174
鶠	-12.8174
俌	-12.8174
旼	-12.8174
漙	-12.8175
猖	-12.8175
閘	-12.8175
坰	-12.8176
壟	-12.8176
皤	-12.8176
鐔	-12.8176
湲	-12.8176
揄	-12.8176
覔	-12.8177
萹	-12.8178
墾	-12.8178
鬛	-12.8178
錞	-12.8178
觶	-12.8178
嶙	-12.8179
彘	-12.8179
煬	-12.8179
㫺	-12.8179
豺	-12.8179
佼	-12.8179
洼	-12.818
眡	-12.818
洶	-12.8181
胝	-12.8181
鞮	-12.8181
畚	-12.8181
嘘	-12.8182
虓	-12.8182
怱	-12.8183
鉏	-12.8183
誹	-12.8183
驢	-12.8183
盭	-12.8184
訽	-12.8184
䪺	-12.8184
壖	-12.8185
絫	-12.8185
薜	-12.8186
檟	-12.8186
粃	-12.8187
窕	-12.8187
匯	-12.8188
邡	-12.8188
蠆	-12.8188
詼	-12.8188
畺	-12.8188
稯	-12.8188
睥	-12.8188
痊	-12.8188
巛	-12.8189
黝	-12.819
鉶	-12.819
旉	-12.819
飜	-12.819
徯	-12.819
遨	-12.8191
渺	-12.8191
屡	-12.8191
肴	-12.8191
眹	-12.8191
捌	-12.8191
鑣	-12.8192
䓦	-12.8192
鎸	-12.8192
盼	-12.8192
晹	-12.8193
鷗	-12.8193
䭾	-12.8193
篪	-12.8194
啜	-12.8194
埧	-12.8195
煟	-12.8195
酤	-12.8195
縗	-12.8195
􁉋	-12.8197
帆	-12.8197
璀	-12.8197
裾	-12.8197
獠	-12.8197
瀉	-12.8198
􁚦	-12.8198
榱	-12.8198
鎻	-12.8199
􁅋	-12.8201
醬	-12.8201
諂	-12.8202
絮	-12.8203
嚻	-12.8204
禔	-12.8205
悙	-12.8206
囈	-12.8206
㓝	-12.8207
怵	-12.8208
惺	-12.8213
駈	-12.8214
􁚤	-12.8215
笴	-12.9233
悻	-12.9244
圛	-12.9245
埊	-12.9251
㟁	-12.9253
瀝	-12.9258
掉	-12.9261
腦	-12.9261
孑	-12.9262
玹	-12.9264
鴨	-12.9265
店	-12.9265
罃	-12.9267
斸	-12.9267
噂	-12.9268
柈	-12.9268
簧	-12.9268
鬢	-12.9269
諠	-12.927
邂	-12.9271
貊	-12.9271
邙	-12.9272
韠	-12.9273
緊	-12.9274
纪	-12.9274
羖	-12.9274
溵	-12.9274
柞	-12.9274
淞	-12.9275
稧	-12.9276
嘿	-12.9276
迓	-12.9277
懵	-12.9279
嫚	-12.928
賫	-12.928
剳	-12.9281
揀	-12.9281
艦	-12.9282
坪	-12.9282
厖	-12.9282
暝	-12.9282
璐	-12.9282
觥	-12.9283
竽	-12.9283
辠	-12.9284
脣	-12.9284
疚	-12.9284
扼	-12.9285
捄	-12.9285
槨	-12.9286
闞	-12.9286
宄	-12.9286
沇	-12.9287
㞼	-12.9287
褢	-12.9287
剟	-12.9288
皂	-12.9288
煞	-12.9288
欷	-12.9288
坼	-12.9288
皐	-12.9289
哺	-12.9289
㐀	-12.929
牌	-12.929
􁆣	-12.9291
崈	-12.9291
慊	-12.9291
沱	-12.9291
紲	-12.9291
庄	-12.9291
玦	-12.9292
椁	-12.9292
疢	-12.9292
蓰	-12.9292
襜	-12.9293
趍	-12.9293
踴	-12.9294
跛	-12.9294
殹	-12.9294
鴉	-12.9294
懶	-12.9294
圄	-12.9294
㭊	-12.9294
踔	-12.9295
詫	-12.9296
旰	-12.9296
𤼵	-12.9296
脊	-12.9296
殂	-12.9296
掜	-12.9296
匄	-12.9297
畬	-12.9297
虖	-12.9297
蹴	-12.9297
冔	-12.9297
礦	-12.9297
苧	-12.9297
籒	-12.9298
眂	-12.9298
俅	-12.9298
咳	-12.9298
㦲	-12.9299
跱	-12.9299
秖	-12.93
㡌	-12.93
碍	-12.9301
𠡠	-12.9301
檐	-12.9302
譸	-12.9302
拇	-12.9303
梏	-12.9303
檣	-12.9303
廏	-12.9303
笋	-12.9304
儗	-12.9304
柤	-12.9304
悰	-12.9305
剿	-12.9305
堞	-12.9305
𣪚	-12.9305
厫	-12.9306
㩁	-12.9306
挟	-12.9306
樾	-12.9307
悺	-12.9307
贇	-12.9308
煑	-12.9308
憨	-12.9309
灊	-12.931
鑛	-12.9312
􁂘	-12.9313
埸	-12.9314
皖	-12.9314
杠	-12.9316
爨	-12.9316
痾	-12.9319
蓲	-12.9319
嬾	-12.932
􁇷	-12.932
蘠	-12.9327
鶬	-13.0493
閴	-13.0501
瘍	-13.0505
嶄	-13.0505
廐	-13.0506
圀	-13.0506
芊	-13.0508
眘	-13.0509
櫄	-13.051
筐	-13.0513
㷀	-13.0513
𥿄	-13.0515
􁋙	-13.0515
敂	-13.0516
猴	-13.0517
廳	-13.0517
薌	-13.0518
􁄴	-13.0519
䄂	-13.0519
蜒	-13.0519
忞	-13.0519
哦	-13.0519
抜	-13.052
悛	-13.0521
釘	-13.0523
溽	-13.0524
莢	-13.0524
躓	-13.0524
妒	-13.0524
摺	-13.0525
觽	-13.0525
愎	-13.0525
沫	-13.0525
饔	-13.0525
卉	-13.0525
啾	-13.0526
頞	-13.0527
胚	-13.0528
顙	-13.0528
鍥	-13.0528
潾	-13.0529
澆	-13.0529
暾	-13.053
覓	-13.053
祤	-13.053
􁗁	-13.0531
鴿	-13.0531
皃	-13.0531
茘	-13.0531
螟	-13.0531
𬗟	-13.0532
拉	-13.0532
鼉	-13.0532
琤	-13.0532
鷂	-13.0532
輻	-13.0532
怕	-13.0533
閧	-13.0533
蜺	-13.0533
𬗋	-13.0533
嚼	-13.0534
曁	-13.0534
羮	-13.0534
箠	-13.0534
淤	-13.0535
顕	-13.0535
庳	-13.0535
𡵨	-13.0535
峘	-13.0535
狃	-13.0536
関	-13.0536
鑴	-13.0536
坱	-13.0536
㓙	-13.0537
􁎓	-13.0537
鎚	-13.0537
勍	-13.0537
淝	-13.0538
藟	-13.0538
濙	-13.0538
刳	-13.0538
塹	-13.0539
呌	-13.0539
弢	-13.0539
籓	-13.0539
倂	-13.0539
挿	-13.0539
葑	-13.054
碓	-13.054
捺	-13.0541
蜃	-13.0541
叄	-13.0541
籜	-13.0541
檉	-13.0541
殛	-13.0541
僮	-13.0541
錙	-13.0541
珥	-13.0542
諼	-13.0542
澌	-13.0542
萎	-13.0542
狠	-13.0542
粢	-13.0543
攟	-13.0543
媪	-13.0544
餅	-13.0544
玲	-13.0544
呆	-13.0544
閥	-13.0544
餝	-13.0545
舄	-13.0545
爌	-13.0545
偰	-13.0545
襁	-13.0545
㢕	-13.0546
攴	-13.0546
熏	-13.0546
柉	-13.0546
欬	-13.0546
莎	-13.0547
逴	-13.0547
腥	-13.0547
毌	-13.0547
㭍	-13.0548
䜛	-13.0548
崟	-13.0548
稂	-13.0549
瑨	-13.055
芷	-13.055
輞	-13.0551
婣	-13.0551
齔	-13.0551
敭	-13.0551
縆	-13.0551
虫	-13.0551
渊	-13.0552
𢋫	-13.0552
沴	-13.0552
倜	-13.0553
齧	-13.0553
鵰	-13.0553
袋	-13.0553
耔	-13.0553
霰	-13.0554
魅	-13.0554
疉	-13.0554
灤	-13.0554
杉	-13.0554
恁	-13.0554
菌	-13.0554
晙	-13.0554
輈	-13.0555
􁒨	-13.0555
㭿	-13.0555
㛃	-13.0556
楩	-13.0556
湄	-13.0556
戅	-13.0557
嵲	-13.0558
蛩	-13.0558
綈	-13.0558
戇	-13.0559
滻	-13.0559
㬎	-13.056
壆	-13.0561
咤	-13.0561
卨	-13.0561
焭	-13.0563
矝	-13.0564
痰	-13.0564
瓠	-13.0564
鷇	-13.0566
娉	-13.0566
痴	-13.0567
哆	-13.0568
痢	-13.0568
軋	-13.0569
蜴	-13.057
鈆	-13.0571
夆	-13.0572
隃	-13.0573
坂	-13.0573
甡	-13.0577
叁	-13.0577
肚	-13.0579
􁊈	-13.058
䘐	-13.191
汛	-13.1914
伻	-13.1923
簇	-13.1923
亀	-13.1924
儺	-13.1925
鄱	-13.1925
雘	-13.1927
撇	-13.1929
脇	-13.193
圅	-13.1932
簴	-13.1932
峋	-13.1932
䆠	-13.1934
砯	-13.1934
蜼	-13.1936
耼	-13.1936
凭	-13.1937
懟	-13.1937
町	-13.1938
瞀	-13.1938
眄	-13.1938
􁂞	-13.1941
槊	-13.1941
𦍑	-13.1942
垹	-13.1943
猱	-13.1944
澘	-13.1944
漉	-13.1945
楸	-13.1949
些	-13.195
這	-13.195
喚	-13.195
黥	-13.195
騊	-13.195
摳	-13.1952
㶚	-13.1952
紵	-13.1952
薳	-13.1952
菉	-13.1953
緹	-13.1954
撲	-13.1954
􁐴	-13.1954
枽	-13.1954
噴	-13.1955
摛	-13.1955
瀬	-13.1956
枘	-13.1956
袝	-13.1957
榷	-13.1957
􁀖	-13.1958
歧	-13.1958
甍	-13.1958
斝	-13.1958
殪	-13.1958
㛰	-13.1958
悮	-13.1958
䦨	-13.1958
晶	-13.1959
啞	-13.1959
噱	-13.1959
鹺	-13.196
憝	-13.196
販	-13.196
淋	-13.1961
堀	-13.1961
撙	-13.1962
掄	-13.1962
輜	-13.1962
唁	-13.1962
汞	-13.1962
肸	-13.1962
俳	-13.1963
侄	-13.1963
兟	-13.1963
閾	-13.1963
玼	-13.1963
脛	-13.1963
鏌	-13.1964
俁	-13.1964
脰	-13.1964
個	-13.1964
肓	-13.1965
窣	-13.1965
膩	-13.1965
痺	-13.1965
鋸	-13.1965
鍤	-13.1965
鄯	-13.1965
跖	-13.1966
鐍	-13.1966
歔	-13.1967
卌	-13.1967
娠	-13.1968
撢	-13.1968
絙	-13.1968
誑	-13.1968
犹	-13.1968
吅	-13.1968
盉	-13.1968
􁕓	-13.197
劘	-13.197
剃	-13.1971
蕕	-13.1971
艤	-13.1971
貎	-13.1971
韡	-13.1971
蚊	-13.1971
㪍	-13.1971
㮚	-13.1971
罸	-13.1971
禬	-13.1971
甿	-13.1971
㠜	-13.1972
廛	-13.1972
隩	-13.1972
杍	-13.1972
囏	-13.1972
睪	-13.1973
馹	-13.1973
貂	-13.1973
昪	-13.1973
櫨	-13.1974
鏕	-13.1974
颯	-13.1975
茀	-13.1975
􁁆	-13.1975
旐	-13.1975
簮	-13.1976
𢾗	-13.1976
爤	-13.1976
鱉	-13.1977
禫	-13.1977
磾	-13.1977
䰟	-13.1977
戬	-13.1978
佪	-13.1978
吼	-13.1978
籲	-13.1979
漈	-13.1979
偵	-13.1979
嗛	-13.1979
週	-13.198
闘	-13.198
軨	-13.198
桎	-13.198
􁠭	-13.1981
􁎼	-13.1981
柦	-13.1981
幃	-13.1982
鍠	-13.1982
旟	-13.1982
沄	-13.1982
郍	-13.1983
麫	-13.1983
㦱	-13.1983
洿	-13.1983
􁀁	-13.1984
鄮	-13.1984
値	-13.1984
轓	-13.1984
訒	-13.1984
琭	-13.1984
鐉	-13.1985
眚	-13.1986
擣	-13.1987
袽	-13.1988
怦	-13.1989
㬇	-13.1989
羼	-13.1989
壵	-13.199
戛	-13.199
􁏉	-13.1992
麀	-13.1992
悪	-13.1992
畹	-13.1994
汦	-13.1995
刄	-13.1995
鞉	-13.1996
廱	-13.1996
􁀤	-13.1997
郸	-13.1998
澡	-13.1999
掬	-13.2
隮	-13.2001
惱	-13.2003
鯖	-13.2003
縶	-13.2004
闖	-13.2005
騂	-13.2005
藕	-13.2006
艇	-13.2009
􁎽	-13.2022
軷	-13.2078
匔	-13.3541
鎗	-13.357
龡	-13.3571
􁉔	-13.358
襦	-13.3584
幵	-13.3585
坌	-13.3586
嬋	-13.3593
􁁄	-13.3596
敳	-13.3598
撞	-13.3598
飈	-13.3599
䜌	-13.36
惔	-13.3604
轕	-13.3604
㟭	-13.3604
橈	-13.3606
媺	-13.3607
肃	-13.3607
薉	-13.3608
喫	-13.3609
蕞	-13.361
聒	-13.3611
櫃	-13.3612
鼙	-13.3612
飶	-13.3612
懣	-13.3612
瘥	-13.3612
舖	-13.3613
搗	-13.3613
虡	-13.3614
砅	-13.3615
葱	-13.3615
嵸	-13.3616
炁	-13.3618
轘	-13.3618
孶	-13.3618
厂	-13.362
陊	-13.3621
糗	-13.3621
籃	-13.3622
薙	-13.3622
壝	-13.3623
揷	-13.3623
淩	-13.3624
梢	-13.3624
孿	-13.3625
慫	-13.3626
巙	-13.3626
鲁	-13.3626
穗	-13.3627
啣	-13.3627
昵	-13.3627
啚	-13.3627
秭	-13.3628
衫	-13.3628
撼	-13.3628
吻	-13.3629
彎	-13.3629
麯	-13.3629
橢	-13.3629
稲	-13.3629
曡	-13.363
邛	-13.363
椀	-13.363
欻	-13.363
綍	-13.363
郅	-13.363
諞	-13.3631
𢃄	-13.3631
勱	-13.3631
岧	-13.3631
瞠	-13.3631
羍	-13.3631
枹	-13.3632
謭	-13.3632
􁚟	-13.3632
扳	-13.3632
涎	-13.3633
炮	-13.3633
爝	-13.3634
筯	-13.3634
輳	-13.3634
鋼	-13.3634
誶	-13.3634
毳	-13.3635
敲	-13.3635
叐	-13.3635
蓁	-13.3635
禖	-13.3635
鼃	-13.3636
硎	-13.3636
巉	-13.3636
穨	-13.3636
㵼	-13.3636
閈	-13.3636
詶	-13.3636
㷆	-13.3636
酆	-13.3636
估	-13.3636
􁃋	-13.3637
㐬	-13.3637
囷	-13.3637
怍	-13.3637
姸	-13.3637
崍	-13.3637
唎	-13.3638
湑	-13.3638
禴	-13.3638
覦	-13.3638
隟	-13.3638
鵷	-13.3639
摻	-13.364
斨	-13.364
滮	-13.364
羆	-13.364
嫺	-13.364
獯	-13.364
􁣕	-13.364
瞞	-13.3641
蒔	-13.3641
逗	-13.3641
蝟	-13.3641
悤	-13.3641
徦	-13.3641
稌	-13.3642
贔	-13.3642
怉	-13.3642
嶪	-13.3642
髻	-13.3643
唵	-13.3643
慛	-13.3643
胊	-13.3643
蹬	-13.3643
騮	-13.3643
岍	-13.3643
幟	-13.3643
泂	-13.3644
歘	-13.3644
闻	-13.3644
􁁇	-13.3644
𪠘	-13.3645
萁	-13.3645
潑	-13.3645
暜	-13.3646
櫂	-13.3646
槿	-13.3646
涍	-13.3647
玫	-13.3647
㑺	-13.3647
諳	-13.3647
觿	-13.3647
􁄪	-13.3647
毉	-13.3647
篷	-13.3647
剩	-13.3647
㴠	-13.3647
篔	-13.3647
窂	-13.3647
㠕	-13.3647
闟	-13.3648
蜩	-13.3648
鯈	-13.3648
汋	-13.3648
賨	-13.3649
歍	-13.3649
磑	-13.3649
駞	-13.3649
漷	-13.3649
寋	-13.3649
衊	-13.3649
轗	-13.3649
瘢	-13.365
𦕈	-13.365
嫠	-13.365
􁚉	-13.365
暕	-13.365
煖	-13.365
􁬭	-13.3651
卝	-13.3651
惛	-13.3651
棅	-13.3651
􁑨	-13.3651
噶	-13.3651
憗	-13.3652
䇓	-13.3652
蠖	-13.3653
㣧	-13.3653
璚	-13.3654
搔	-13.3654
稳	-13.3654
徲	-13.3654
艘	-13.3655
柿	-13.3655
垤	-13.3656
蜉	-13.3656
爍	-13.3656
襪	-13.3656
􁃎	-13.3656
觜	-13.3657
澇	-13.3657
詬	-13.3657
㬜	-13.3657
笪	-13.3658
㕑	-13.3658
㴞	-13.3659
謖	-13.366
蓀	-13.366
訔	-13.3661
樛	-13.3663
杅	-13.3664
醨	-13.3665
舷	-13.3665
􁁛	-13.3667
矍	-13.3667
棿	-13.3675
滹	-13.3675
鈃	-13.3678
攖	-13.3679
􁳅	-13.3681
蘷	-13.3687
􁔷	-13.3687
菰	-13.3693
烷	-13.3693
㢧	-13.557
􁁢	-13.5578
萧	-13.5579
倨	-13.558
笱	-13.5582
丧	-13.5583
䚮	-13.5587
袛	-13.5587
瞥	-13.5588
㨂	-13.5589
矱	-13.559
堈	-13.5592
徨	-13.5593
靉	-13.5597
瞬	-13.5597
輼	-13.5598
賅	-13.5599
柶	-13.5599
勔	-13.5599
臲	-13.5602
駼	-13.5602
咋	-13.5604
仡	-13.5605
擉	-13.5605
慆	-13.5605
姫	-13.5605
㜸	-13.5607
彂	-13.5607
埓	-13.5608
蟈	-13.5608
ꇵ	-13.5609
獷	-13.5609
沍	-13.561
屆	-13.561
冫	-13.561
􁃶	-13.5611
腆	-13.5613
焴	-13.5613
浞	-13.5613
毬	-13.5613
縕	-13.5614
埈	-13.5614
潏	-13.5615
廧	-13.5615
炔	-13.5615
祍	-13.5616
怫	-13.5617
捉	-13.5617
礭	-13.5617
鋌	-13.5617
􁆨	-13.5617
璡	-13.5618
媮	-13.5618
濊	-13.5618
僂	-13.5618
攢	-13.5618
蹖	-13.5618
沗	-13.5619
􁂧	-13.5619
嫗	-13.5619
􁌽	-13.5619
酃	-13.562
乱	-13.562
茆	-13.562
黛	-13.5621
琡	-13.5622
券	-13.5622
櫓	-13.5622
㘴	-13.5622
忮	-13.5623
㴶	-13.5623
崋	-13.5623
麁	-13.5623
鞬	-13.5623
􁝏	-13.5623
噪	-13.5624
饎	-13.5624
薖	-13.5624
譛	-13.5624
萑	-13.5625
搴	-13.5625
虣	-13.5625
儂	-13.5626
䥴	-13.5626
僇	-13.5627
蕤	-13.5627
韎	-13.5627
蒱	-13.5627
墦	-13.5627
皁	-13.5627
籛	-13.5628
磷	-13.5628
綾	-13.5628
磎	-13.5628
帋	-13.5628
繽	-13.5628
譱	-13.5628
鞶	-13.5629
愓	-13.5629
冋	-13.5629
敡	-13.5629
譫	-13.5629
扯	-13.563
莬	-13.563
淘	-13.563
轢	-13.5631
昝	-13.5631
􁜳	-13.5631
􁅾	-13.5631
糠	-13.5632
躇	-13.5632
淀	-13.5632
辣	-13.5633
网	-13.5633
舩	-13.5633
湎	-13.5633
薶	-13.5633
墼	-13.5633
恚	-13.5633
间	-13.5633
􁆶	-13.5633
蝣	-13.5633
觹	-13.5633
􁫕	-13.5633
賺	-13.5634
裼	-13.5634
冄	-13.5634
􁇛	-13.5634
雊	-13.5634
倗	-13.5634
觝	-13.5635
厦	-13.5635
奡	-13.5635
蹌	-13.5635
苫	-13.5636
􁍆	-13.5636
隚	-13.5636
宁	-13.5636
屭	-13.5636
褉	-13.5636
􁁷	-13.5636
鸖	-13.5636
􁚧	-13.5637
僴	-13.5637
开	-13.5637
侊	-13.5637
箝	-13.5637
蓴	-13.5637
燐	-13.5637
謌	-13.5637
氶	-13.5637
㢮	-13.5637
崿	-13.5638
薾	-13.5638
煢	-13.5638
紗	-13.5638
蒨	-13.5638
覼	-13.5638
鏟	-13.5638
炊	-13.5639
䕏	-13.5639
􁅼	-13.5639
遶	-13.5639
蠃	-13.5639
稊	-13.564
悋	-13.564
矞	-13.564
鍭	-13.564
􁐾	-13.564
􁄰	-13.5641
揵	-13.5641
壐	-13.5641
纕	-13.5641
􁑀	-13.5641
毀	-13.5642
遟	-13.5642
燁	-13.5642
􁃔	-13.5642
竆	-13.5642
㷱	-13.5642
薿	-13.5643
霾	-13.5644
鵑	-13.5644
耇	-13.5644
塍	-13.5644
肻	-13.5645
疃	-13.5645
瑺	-13.5645
瓴	-13.5646
淅	-13.5646
赭	-13.5646
柙	-13.5646
穣	-13.5646
遅	-13.5646
朶	-13.5647
韐	-13.5647
陑	-13.5647
憖	-13.5647
窖	-13.5647
蚌	-13.5647
繤	-13.5647
􁈯	-13.5647
赳	-13.5648
臽	-13.5648
戦	-13.5648
勌	-13.5648
綣	-13.5648
􁶝	-13.5648
頙	-13.5649
搥	-13.5649
眸	-13.5649
甦	-13.565
紉	-13.565
軹	-13.565
檝	-13.565
攅	-13.565
瀣	-13.565
鏄	-13.5651
𤯝	-13.5651
蹵	-13.5652
鱻	-13.5652
盄	-13.5652
羇	-13.5653
嚙	-13.5653
偅	-13.5653
􁶢	-13.5653
鐃	-13.5653
棬	-13.5654
鞋	-13.5655
姃	-13.5655
橦	-13.5655
㗛	-13.5656
瑢	-13.5656
戱	-13.5656
葚	-13.5656
汔	-13.5657
彳	-13.5657
㿈	-13.5657
􁃼	-13.5657
凮	-13.5658
帨	-13.5658
浤	-13.5658
梭	-13.5658
慉	-13.5658
襚	-13.5658
䍧	-13.5658
枃	-13.5658
蔾	-13.5658
鸚	-13.5658
煴	-13.5658
侠	-13.5659
卺	-13.5659
漾	-13.566
􁀥	-13.5661
栝	-13.5662
屮	-13.5663
涙	-13.5663
㘸	-13.5664
㢠	-13.5665
笵	-13.5667
􁃝	-13.5667
郿	-13.5667
涔	-13.5668
蘗	-13.5668
媾	-13.567
㳙	-13.567
颷	-13.5671
􁶫	-13.5672
鈺	-13.5673
𢡟	-13.5673
債	-13.5673
偫	-13.5673
蜎	-13.5677
澐	-13.5682
羭	-13.5683
甾	-13.5695
栴	-13.5697
涷	-13.5714
瑝	-13.8047
讁	-13.8061
􁇟	-13.8063
语	-13.8064
茇	-13.8076
肫	-13.8076
豋	-13.8077
訑	-13.8082
彑	-13.8083
􁆪	-13.8085
􁀅	-13.8085
礿	-13.8088
菖	-13.809
愞	-13.8092
𠞰	-13.8092
顫	-13.8093
霦	-13.8093
缾	-13.8096
驊	-13.8096
蓑	-13.8096
厎	-13.8096
獮	-13.8097
壈	-13.8097
簉	-13.8097
昳	-13.8097
絖	-13.8098
撐	-13.8099
蕊	-13.81
茝	-13.81
呱	-13.8101
粻	-13.8101
劼	-13.8101
飇	-13.8103
辵	-13.8103
恮	-13.8103
畛	-13.8104
瓮	-13.8104
薝	-13.8104
𣏌	-13.8105
踉	-13.8106
裊	-13.8106
嘶	-13.8106
鏁	-13.8107
灞	-13.8107
軿	-13.8107
汩	-13.8107
恫	-13.8107
韃	-13.8108
葳	-13.8108
葷	-13.8108
烕	-13.8109
舡	-13.811
剉	-13.811
瑮	-13.811
孱	-13.811
硩	-13.811
澎	-13.8111
橓	-13.8111
􁦃	-13.8111
珝	-13.8112
猊	-13.8112
樌	-13.8112
瘖	-13.8112
鏑	-13.8112
嚭	-13.8113
朦	-13.8114
溳	-13.8114
酧	-13.8114
跼	-13.8114
屼	-13.8114
佹	-13.8115
駑	-13.8115
腋	-13.8115
㬢	-13.8115
窶	-13.8115
􁊸	-13.8115
蹀	-13.8117
薑	-13.8117
黿	-13.8117
遰	-13.8117
卹	-13.8117
㑭	-13.8117
陿	-13.8118
陥	-13.8118
罩	-13.8118
􁈹	-13.8118
吮	-13.8119
瞳	-13.8119
宷	-13.8119
帰	-13.8119
跬	-13.8119
䗜	-13.8119
ဇ	-13.812
皿	-13.812
阸	-13.8121
蹂	-13.8121
裡	-13.8121
鮌	-13.8121
挐	-13.8121
泡	-13.8121
縋	-13.8122
恡	-13.8122
逑	-13.8122
翎	-13.8122
灃	-13.8122
謪	-13.8122
䍐	-13.8123
讟	-13.8123
稁	-13.8123
塨	-13.8124
褙	-13.8124
処	-13.8124
蹷	-13.8125
鈿	-13.8125
嚌	-13.8125
荏	-13.8125
獎	-13.8125
滃	-13.8125
贓	-13.8125
栱	-13.8125
仌	-13.8125
噏	-13.8125
湋	-13.8125
噎	-13.8126
棚	-13.8126
􁈍	-13.8126
吊	-13.8126
扑	-13.8126
弹	-13.8126
矮	-13.8127
鞌	-13.8128
茁	-13.8128
嘅	-13.8128
􁅩	-13.8128
韍	-13.8128
嗢	-13.8128
敓	-13.8128
肢	-13.8129
瞋	-13.8129
蜮	-13.8129
謦	-13.8129
縡	-13.8129
囀	-13.8129
搦	-13.8129
抔	-13.8129
滲	-13.8129
訃	-13.8129
蝀	-13.8129
浥	-13.8129
燂	-13.8129
冭	-13.813
哨	-13.813
鵶	-13.813
纏	-13.813
葙	-13.813
麞	-13.813
臍	-13.8131
䑛	-13.8131
􁓒	-13.8131
碗	-13.8131
譟	-13.8131
􁦹	-13.8131
䆮	-13.8131
珒	-13.8132
婔	-13.8132
鏹	-13.8132
飱	-13.8132
画	-13.8132
憺	-13.8132
礧	-13.8132
祸	-13.8132
麐	-13.8132
愘	-13.8132
蕑	-13.8133
氲	-13.8133
瀞	-13.8133
牎	-13.8133
朢	-13.8133
鄶	-13.8134
槌	-13.8134
璅	-13.8135
简	-13.8135
媢	-13.8135
遳	-13.8135
柅	-13.8136
蛑	-13.8136
袚	-13.8136
㳿	-13.8136
淖	-13.8136
甽	-13.8136
鋗	-13.8136
撟	-13.8136
􁇂	-13.8137
厘	-13.8137
䡅	-13.8137
峥	-13.8137
憼	-13.8137
梳	-13.8137
唘	-13.8139
厮	-13.8139
筒	-13.8139
眊	-13.8139
籝	-13.8139
旊	-13.8139
犮	-13.8139
犠	-13.814
桶	-13.814
磧	-13.814
雚	-13.814
驌	-13.814
佋	-13.814
枿	-13.814
厸	-13.814
睎	-13.814
魋	-13.8141
ခ	-13.8141
迕	-13.8141
􁂍	-13.8142
鸝	-13.8142
咥	-13.8142
㡛	-13.8142
谼	-13.8142
鄚	-13.8142
菞	-13.8142
瀐	-13.8143
腓	-13.8143
浃	-13.8143
瘐	-13.8143
瞍	-13.8143
溘	-13.8143
蕖	-13.8143
儛	-13.8143
􁔇	-13.8144
鄼	-13.8144
冑	-13.8144
褓	-13.8144
滀	-13.8144
筥	-13.8144
胲	-13.8144
螻	-13.8145
􁑮	-13.8145
賃	-13.8146
殻	-13.8146
隽	-13.8146
鵜	-13.8146
瑑	-13.8146
􁶂	-13.8146
闛	-13.8146
妵	-13.8147
螙	-13.8147
弍	-13.8147
胗	-13.8147
腧	-13.8147
􁊅	-13.8147
圬	-13.8147
穽	-13.8147
腔	-13.8147
莚	-13.8147
􁦰	-13.8147
􁣡	-13.8148
䢫	-13.8148
麦	-13.8148
圡	-13.8148
膜	-13.8148
斲	-13.8148
曒	-13.8149
􁳛	-13.8149
瀫	-13.815
嗅	-13.815
噍	-13.815
敉	-13.815
㓪	-13.815
䢴	-13.815
㚘	-13.815
琹	-13.815
换	-13.8151
崚	-13.8151
􁍑	-13.8151
呐	-13.8151
腊	-13.8151
詈	-13.8151
􁒅	-13.8151
􁒙	-13.8151
穻	-13.8152
膴	-13.8153
傁	-13.8153
盁	-13.8153
硥	-13.8153
缿	-13.8153
医	-13.8154
㬅	-13.8154
淏	-13.8154
蝦	-13.8154
僰	-13.8154
鶼	-13.8154
倓	-13.8154
瀨	-13.8155
貆	-13.8155
􁲔	-13.8155
瘼	-13.8155
皜	-13.8155
戫	-13.8155
嶔	-13.8156
阝	-13.8156
悀	-13.8156
刲	-13.8157
苲	-13.8157
饟	-13.8158
亲	-13.8158
􁱝	-13.8158
恝	-13.8158
滍	-13.8158
幀	-13.8158
陴	-13.8159
醊	-13.8159
橱	-13.816
棓	-13.8161
腑	-13.8161
襌	-13.8162
鵙	-13.8162
佉	-13.8162
𥜗	-13.8162
鄡	-13.8162
偯	-13.8162
錟	-13.8162
勹	-13.8164
玶	-13.8164
錘	-13.8164
漚	-13.8164
肎	-13.8164
穅	-13.8165
瀍	-13.8165
蘉	-13.8165
桱	-13.8165
猒	-13.8165
鞔	-13.8166
憊	-13.8166
蟊	-13.8166
蕢	-13.8167
軓	-13.8167
窊	-13.8168
脤	-13.8171
躳	-13.8176
盌	-13.8176
涣	-13.8176
厰	-13.8178
䓺	-13.8178
糶	-13.8182
柎	-13.8185
宬	-13.8186
跽	-13.8187
荗	-13.8187
踖	-13.8187
莧	-13.8193
梃	-13.8196
鵃	-13.8196
鷖	-13.8201
幔	-13.8204
罝	-13.8205
蔗	-13.8207
撜	-13.8219
丠	-13.8236
噭	-14.1367
丽	-14.1376
瀼	-14.1382
ဋ	-14.1389
趋	-14.1392
􁀴	-14.1392
娃	-14.1394
鸑	-14.1396
桯	-14.1396
灧	-14.1398
蝎	-14.1401
劈	-14.1401
姢	-14.1403
?	-14.1403
椔	-14.1403
误	-14.1403
豝	-14.1405
豵	-14.1405
纚	-14.1411
岕	-14.1411
箉	-14.1413
癃	-14.1415
唧	-14.1415
酹	-14.1417
郈	-14.1417
擫	-14.1417
疁	-14.1419
蠁	-14.1419
讕	-14.1421
憩	-14.1421
柵	-14.1421
睟	-14.1421
罇	-14.1423
酎	-14.1423
頣	-14.1423
扛	-14.1425
懫	-14.1425
絓	-14.1426
珷	-14.1426
傘	-14.1426
煽	-14.1427
衜	-14.1427
喏	-14.1428
鍰	-14.1428
撾	-14.1429
陗	-14.143
炷	-14.143
玞	-14.143
壃	-14.143
㴱	-14.1432
濼	-14.1432
瞶	-14.1432
纇	-14.1432
湃	-14.1434
赩	-14.1434
邨	-14.1434
忙	-14.1434
詀	-14.1436
跣	-14.1436
襆	-14.1436
酲	-14.1436
渘	-14.1437
冓	-14.1438
􁌛	-14.1438
甜	-14.1438
紡	-14.1438
璥	-14.144
痔	-14.144
䙡	-14.144
淼	-14.144
鼯	-14.144
揩	-14.144
唃	-14.144
筩	-14.1441
搯	-14.1442
囯	-14.1442
塪	-14.1442
􁏅	-14.1442
衂	-14.1442
搬	-14.1442
麌	-14.1442
桉	-14.1444
謎	-14.1444
庥	-14.1444
㳒	-14.1444
怗	-14.1444
烺	-14.1444
􁆒	-14.1444
撒	-14.1444
㦛	-14.1444
鋤	-14.1445
捆	-14.1446
隉	-14.1446
牼	-14.1446
毡	-14.1446
羃	-14.1446
痒	-14.1446
郳	-14.1446
刧	-14.1446
蛛	-14.1448
傴	-14.1448
姝	-14.1448
嵠	-14.1448
憀	-14.1448
逨	-14.1448
鮫	-14.1449
暏	-14.1449
昒	-14.145
鄫	-14.145
􁆅	-14.145
沺	-14.145
綌	-14.145
巃	-14.145
崞	-14.145
琠	-14.145
頮	-14.145
搭	-14.145
詅	-14.145
縲	-14.145
沬	-14.1451
䲭	-14.1451
輛	-14.1451
栰	-14.1451
嘽	-14.1451
确	-14.1452
㒡	-14.1452
懺	-14.1452
闃	-14.1452
阙	-14.1452
􁆸	-14.1452
旜	-14.1452
橰	-14.1452
籧	-14.1452
鵒	-14.1452
虯	-14.1453
瘉	-14.1453
丏	-14.1453
渦	-14.1453
悆	-14.1453
轔	-14.1453
唇	-14.1453
哻	-14.1453
櫪	-14.1453
澒	-14.1453
𣆀	-14.1455
柚	-14.1455
椶	-14.1455
麝	-14.1455
唫	-14.1455
泪	-14.1455
茤	-14.1455
僾	-14.1455
鮚	-14.1455
迁	-14.1455
ဉ	-14.1456
朖	-14.1457
坫	-14.1457
猫	-14.1457
洏	-14.1457
賙	-14.1457
棰	-14.1457
榼	-14.1457
雇	-14.1457
စ	-14.1457
剜	-14.1457
竉	-14.1457
鎪	-14.1457
韲	-14.1457
􁆚	-14.1457
䓆	-14.1457
礲	-14.1457
秤	-14.1457
􁀎	-14.1458
饁	-14.1458
翨	-14.1458
鷫	-14.1459
擎	-14.1459
眛	-14.1459
𨳩	-14.1459
裓	-14.1459
䀎	-14.1459
䇽	-14.1459
湔	-14.1461
湥	-14.1461
鈌	-14.1461
喇	-14.1461
煤	-14.1461
偄	-14.1461
僩	-14.1461
韗	-14.1461
崒	-14.1461
盻	-14.1461
鋋	-14.1461
艫	-14.1461
堣	-14.1462
胞	-14.1462
蔿	-14.1462
鎜	-14.1463
禠	-14.1463
嚬	-14.1463
裙	-14.1463
㨶	-14.1463
娣	-14.1463
乩	-14.1463
槈	-14.1463
盅	-14.1463
𧦬	-14.1463
囤	-14.1463
声	-14.1463
弎	-14.1465
驄	-14.1465
閇	-14.1465
饘	-14.1465
骾	-14.1465
杙	-14.1465
㝮	-14.1465
寱	-14.1465
楛	-14.1467
巏	-14.1467
蝨	-14.1467
芡	-14.1467
䘖	-14.1467
餂	-14.1467
烓	-14.1467
靦	-14.1467
鱮	-14.1467
枵	-14.1467
砧	-14.1467
鯊	-14.1467
ထ	-14.1467
蓧	-14.1468
荑	-14.1469
缷	-14.1469
窋	-14.1469
㕠	-14.1469
滚	-14.1469
擐	-14.1469
槍	-14.1469
櫆	-14.1469
澉	-14.1469
蔪	-14.1469
尫	-14.1469
􁦳	-14.147
荻	-14.1471
痡	-14.1471
衺	-14.1471
絻	-14.1471
􁰋	-14.1471
呢	-14.1471
綖	-14.1471
薔	-14.1471
朼	-14.1471
墬	-14.1472
䆿	-14.1472
旹	-14.1472
梴	-14.1472
㧾	-14.1473
弌	-14.1473
嘷	-14.1473
岨	-14.1473
􁆐	-14.1473
痿	-14.1473
誖	-14.1473
􁇋	-14.1473
葴	-14.1473
袗	-14.1473
汹	-14.1473
犇	-14.1473
礥	-14.1473
郪	-14.1473
甔	-14.1473
疒	-14.1473
崌	-14.1473
蕰	-14.1474
髭	-14.1474
㱙	-14.1474
邔	-14.1474
䓗	-14.1475
􁋇	-14.1475
■	-14.1475
荊	-14.1475
𤦺	-14.1475
幌	-14.1475
电	-14.1475
鵩	-14.1475
㘽	-14.1475
宂	-14.1475
爬	-14.1475
􁦍	-14.1475
攵	-14.1475
痻	-14.1475
碈	-14.1475
佰	-14.1475
轝	-14.1476
昘	-14.1477
涞	-14.1477
簟	-14.1477
蓆	-14.1477
勻	-14.1477
惸	-14.1477
愃	-14.1477
輴	-14.1477
䑞	-14.1477
嬌	-14.1477
㡭	-14.1477
揗	-14.1477
㒃	-14.1477
梱	-14.1478
蹋	-14.1478
䕬	-14.1478
蠄	-14.1479
迼	-14.1479
􁇾	-14.1479
惨	-14.1479
癈	-14.1479
盃	-14.1479
旪	-14.1479
寑	-14.1479
椹	-14.1479
膓	-14.1479
蔦	-14.1479
糲	-14.1479
檏	-14.1479
吷	-14.1479
􁛮	-14.148
㣆	-14.148
竫	-14.148
亏	-14.148
賒	-14.148
荁	-14.148
术	-14.148
騾	-14.148
鍪	-14.148
䢨	-14.148
儐	-14.148
􁆢	-14.148
恧	-14.148
淒	-14.148
㒵	-14.148
吀	-14.148
莁	-14.148
訿	-14.148
迡	-14.1481
籣	-14.1481
廎	-14.1481
漰	-14.1481
勊	-14.1481
俵	-14.1482
臤	-14.1482
汳	-14.1482
荇	-14.1482
蔇	-14.1482
弻	-14.1482
站	-14.1482
廽	-14.1482
剷	-14.1482
呿	-14.1482
䄢	-14.1482
喘	-14.1482
嫩	-14.1482
􁂬	-14.1483
􁌜	-14.1484
矗	-14.1484
门	-14.1484
鉌	-14.1484
翏	-14.1484
帀	-14.1484
悄	-14.1484
繂	-14.1484
皛	-14.1485
㺩	-14.1485
䘚	-14.1485
鋹	-14.1485
軏	-14.1486
􁭌	-14.1486
暱	-14.1486
匃	-14.1486
繾	-14.1486
裭	-14.1486
罏	-14.1486
㢙	-14.1486
矌	-14.1488
茜	-14.1488
􁀧	-14.1488
祟	-14.1488
藿	-14.1488
熥	-14.1488
蓊	-14.1488
萸	-14.1488
悃	-14.1488
拽	-14.1488
潸	-14.1488
煃	-14.1488
礶	-14.1488
隈	-14.1489
錝	-14.149
孥	-14.149
懆	-14.149
嬈	-14.149
琫	-14.149
槱	-14.149
鬪	-14.149
䨮	-14.149
塈	-14.149
楝	-14.149
邏	-14.149
囗	-14.149
瑫	-14.149
􁃛	-14.1491
垔	-14.1491
嬀	-14.1491
煨	-14.1492
絞	-14.1492
嚅	-14.1492
曬	-14.1492
菡	-14.1492
坏	-14.1492
殮	-14.1492
耴	-14.1494
㫋	-14.1494
䟭	-14.1494
戟	-14.1494
唄	-14.1494
呰	-14.1494
弜	-14.1494
矼	-14.1494
蛣	-14.1494
螳	-14.1494
褱	-14.1494
垻	-14.1495
蝸	-14.1495
垠	-14.1495
娄	-14.1496
芩	-14.1496
柁	-14.1496
桒	-14.1497
玗	-14.1497
劳	-14.1498
􁚛	-14.1498
馗	-14.1498
襞	-14.1498
愒	-14.1498
扱	-14.1498
姮	-14.1498
郞	-14.1498
䎖	-14.1498
殍	-14.1498
㤁	-14.1498
嚜	-14.1499
㦂	-14.1499
㽵	-14.15
䙫	-14.15
䆃	-14.15
蓽	-14.15
骭	-14.15
箐	-14.15
藚	-14.15
醵	-14.15
咻	-14.1502
巠	-14.1502
霝	-14.1502
联	-14.1503
鈛	-14.1504
歈	-14.1505
􁉒	-14.1506
鎦	-14.1507
麵	-14.1507
莋	-14.1507
獺	-14.1507
萄	-14.1507
樟	-14.1508
琊	-14.1509
慜	-14.1509
糸	-14.1509
葡	-14.1509
訌	-14.1509
􁁉	-14.1511
榿	-14.1511
☰	-14.1511
騑	-14.1511
蝶	-14.1511
妲	-14.1513
㽙	-14.1513
窳	-14.1514
㶏	-14.1514
􁋊	-14.1515
緾	-14.1515
禯	-14.1515
睛	-14.1517
揑	-14.1517
紃	-14.1517
榔	-14.1519
茒	-14.1521
􁃸	-14.1521
盙	-14.1525
􁶕	-14.1525
牁	-14.1527
􁶖	-14.1527
勖	-14.1534
磥	-14.1536
栘	-14.1536
唬	-14.1539
渫	-14.154
綉	-14.154
囧	-14.1544
圁	-14.1556
􁒳	-14.1571
鍛	-14.1596
喁	-14.1604
䟐	-14.6286
琩	-14.6298
罡	-14.6339
愳	-14.6348
澦	-14.6352
邶	-14.6352
ဃ	-14.6355
嗷	-14.6361
䬰	-14.6364
酖	-14.637
侓	-14.637
婞	-14.6374
㺇	-14.6377
沲	-14.6383
硺	-14.6383
捻	-14.6386
嶻	-14.6386
㛂	-14.6386
澲	-14.6386
很	-14.6389
碱	-14.6392
歕	-14.6392
瑲	-14.6392
嚾	-14.6392
砢	-14.6395
晩	-14.6395
曕	-14.6396
瞢	-14.6399
瑳	-14.6399
緢	-14.6399
羜	-14.6399
豜	-14.6399
粼	-14.6401
芈	-14.6402
蒜	-14.6402
劃	-14.6402
嶨	-14.6403
嗔	-14.6405
蛀	-14.6408
蠹	-14.6408
茸	-14.6408
㓃	-14.6408
拿	-14.6408
捩	-14.6408
珨	-14.6408
窑	-14.6408
凊	-14.6411
喑	-14.6411
獰	-14.6411
虆	-14.6411
秒	-14.6411
鈗	-14.6411
蜘	-14.6414
缽	-14.6414
苒	-14.6414
瓖	-14.6414
蒃	-14.6416
㒞	-14.6417
姹	-14.6417
翽	-14.6418
褾	-14.6418
ဈ	-14.6418
憯	-14.6418
蔔	-14.6418
呶	-14.6418
硜	-14.6418
翑	-14.6418
蹣	-14.6418
䨱	-14.6421
郶	-14.6421
熬	-14.6421
苪	-14.6421
泖	-14.6424
佽	-14.6424
污	-14.6424
矴	-14.6424
莓	-14.6424
㤅	-14.6424
鄿	-14.6424
醧	-14.6424
斚	-14.6427
庒	-14.6427
喃	-14.6427
觭	-14.6427
嵿	-14.6427
橙	-14.6427
搰	-14.6427
磅	-14.6427
葽	-14.6427
蘤	-14.6427
籞	-14.643
㠋	-14.643
慵	-14.643
梂	-14.643
瓣	-14.643
礴	-14.643
襮	-14.643
訦	-14.643
赱	-14.643
趁	-14.643
䧢	-14.6432
欱	-14.6433
摴	-14.6433
磓	-14.6433
纳	-14.6433
跟	-14.6433
烚	-14.6433
稘	-14.6433
糖	-14.6433
槲	-14.6436
訧	-14.6436
媦	-14.6436
浡	-14.6436
姱	-14.6436
嶒	-14.6436
澨	-14.6436
痍	-14.6436
嵂	-14.6436
芘	-14.6436
蝝	-14.6436
谺	-14.6436
谽	-14.6436
喔	-14.6436
粳	-14.6439
贐	-14.6439
槙	-14.6439
磽	-14.6439
洌	-14.644
蟫	-14.644
僲	-14.644
苶	-14.644
嚏	-14.644
煆	-14.644
獳	-14.644
絆	-14.644
螣	-14.6442
朁	-14.6442
僦	-14.6442
ဂ	-14.6443
㑰	-14.6443
姆	-14.6443
薗	-14.6443
噓	-14.6443
楶	-14.6443
糵	-14.6443
壒	-14.6443
荎	-14.6443
觖	-14.6443
谹	-14.6443
醻	-14.6443
璬	-14.6446
篾	-14.6446
莛	-14.6446
剄	-14.6446
慳	-14.6446
蟇	-14.6446
跎	-14.6446
譣	-14.6446
茭	-14.6446
沕	-14.6449
猲	-14.6449
晣	-14.6449
曛	-14.6449
势	-14.6449
輨	-14.6449
䖻	-14.6449
䬙	-14.6449
佌	-14.6449
嗃	-14.6449
姕	-14.6449
巇	-14.6449
惝	-14.6449
樁	-14.6449
篨	-14.6449
翐	-14.6449
蜹	-14.6449
庬	-14.6449
刅	-14.6452
詗	-14.6452
炱	-14.6452
溔	-14.6452
捦	-14.6452
侏	-14.6452
媰	-14.6452
捲	-14.6452
笨	-14.6452
䢃	-14.6452
堋	-14.6452
灒	-14.6452
盫	-14.6452
綷	-14.6452
謷	-14.6452
惧	-14.6452
窃	-14.6452
豑	-14.6455
裱	-14.6455
鈳	-14.6455
烶	-14.6455
諅	-14.6455
蹢	-14.6455
呤	-14.6455
㮄	-14.6455
弤	-14.6455
愮	-14.6455
舋	-14.6455
訰	-14.6455
鉁	-14.6455
邫	-14.6457
諆	-14.6458
奰	-14.6458
斈	-14.6458
堍	-14.6458
徕	-14.6458
礉	-14.6458
肪	-14.6458
辮	-14.6458
劋	-14.6458
痂	-14.6458
笇	-14.6458
醋	-14.6458
ဏ	-14.6459
嘑	-14.646
抪	-14.6461
戺	-14.6461
偡	-14.6462
褻	-14.6462
唳	-14.6462
抝	-14.6462
偝	-14.6462
囱	-14.6462
浟	-14.6462
甖	-14.6462
穮	-14.6462
郏	-14.6462
婐	-14.6463
㿖	-14.6465
卩	-14.6465
圑	-14.6465
气	-14.6465
笻	-14.6465
腪	-14.6465
葠	-14.6465
鄏	-14.6465
㶾	-14.6465
僠	-14.6465
儑	-14.6465
跁	-14.6465
軔	-14.6465
氈	-14.6466
㮵	-14.6466
剭	-14.6468
䘵	-14.6468
㥶	-14.6468
痏	-14.6468
磗	-14.6468
偟	-14.6468
姙	-14.6468
嶢	-14.6468
惮	-14.6468
淥	-14.6468
犴	-14.6468
祅	-14.6468
茿	-14.6468
䋠	-14.6468
墫	-14.6468
挃	-14.6468
歂	-14.6468
縭	-14.6468
蘀	-14.6468
跒	-14.6468
鈭	-14.6468
蝉	-14.6469
䢻	-14.6469
愭	-14.6471
橭	-14.6471
豨	-14.6471
皞	-14.6471
褁	-14.6471
䩵	-14.6471
圊	-14.6471
淓	-14.6471
熑	-14.6471
鈜	-14.6471
媟	-14.6471
烖	-14.6471
罌	-14.6471
曈	-14.6471
癯	-14.6471
㡳	-14.6473
蠓	-14.6473
蠛	-14.6473
裟	-14.6474
迆	-14.6474
啁	-14.6474
箏	-14.6474
胏	-14.6474
㜰	-14.6474
毆	-14.6474
氂	-14.6474
䀢	-14.6474
僙	-14.6474
儦	-14.6474
妭	-14.6474
惬	-14.6474
玟	-14.6474
畮	-14.6474
眳	-14.6474
蔟	-14.6474
醸	-14.6474
髴	-14.6474
燫	-14.6475
朒	-14.6476
俈	-14.6477
袈	-14.6477
諑	-14.6477
蝮	-14.6477
慴	-14.6477
溼	-14.6477
卼	-14.6477
腯	-14.6477
蜞	-14.6477
蟛	-14.6477
箒	-14.6477
膰	-14.6477
褥	-14.6477
䁱	-14.6477
吽	-14.6477
崤	-14.6477
恋	-14.6477
爇	-14.6477
珖	-14.6477
琖	-14.6477
禝	-14.6477
誒	-14.6477
謜	-14.6477
蹉	-14.6477
迯	-14.6477
邹	-14.6477
袘	-14.6478
ပ	-14.6478
檖	-14.6478
跕	-14.6479
㛎	-14.648
稙	-14.648
䡄	-14.648
皼	-14.648
礬	-14.648
煐	-14.648
搘	-14.648
㒋	-14.648
㕀	-14.648
㴜	-14.648
䆫	-14.648
卮	-14.648
嘛	-14.648
嶃	-14.648
惷	-14.648
捾	-14.648
歮	-14.648
磪	-14.648
禨	-14.648
螎	-14.648
訜	-14.648
諩	-14.648
諵	-14.648
鉘	-14.648
曎	-14.6481
秝	-14.6481
芃	-14.6481
徛	-14.6481
硑	-14.6481
ယ	-14.6481
徍	-14.6481
潚	-14.6481
ဎ	-14.6481
㯓	-14.6481
䃪	-14.6481
柗	-14.6481
菨	-14.6481
ဟ	-14.6482
芓	-14.6482
猧	-14.6482
㬭	-14.6482
䁆	-14.6482
慍	-14.6482
茬	-14.6482
蔍	-14.6482
畒	-14.6482
ဠ	-14.6482
澭	-14.6483
澸	-14.6483
箜	-14.6483
篌	-14.6483
枸	-14.6483
讔	-14.6483
畍	-14.6484
妷	-14.6484
珎	-14.6484
簸	-14.6484
樅	-14.6484
孠	-14.6484
擗	-14.6484
䓑	-14.6484
腠	-14.6484
埿	-14.6484
磩	-14.6484
罨	-14.6484
跏	-14.6484
ါ	-14.6484
㞑	-14.6484
㬥	-14.6484
圩	-14.6484
垝	-14.6484
濞	-14.6484
竚	-14.6484
茵	-14.6484
裠	-14.6484
譒	-14.6484
輱	-14.6484
倶	-14.6485
㓛	-14.6486
怊	-14.6487
硌	-14.6487
䈤	-14.6487
嘴	-14.6487
瀰	-14.6487
萦	-14.6487
譻	-14.6487
賕	-14.6487
酙	-14.6487
欗	-14.6487
袥	-14.6488
䦿	-14.6489
嬺	-14.6489
厈	-14.649
襯	-14.649
唲	-14.649
懠	-14.649
歬	-14.649
礟	-14.649
虀	-14.649
螂	-14.649
僬	-14.649
牗	-14.649
垐	-14.649
瑻	-14.649
躪	-14.649
慓	-14.6492
磒	-14.6493
珹	-14.6493
姞	-14.6493
秠	-14.6493
邲	-14.6493
䢙	-14.6493
䣛	-14.6493
乚	-14.6493
樨	-14.6493
玻	-14.6493
瞂	-14.6493
臉	-14.6493
諓	-14.6493
邐	-14.6493
柲	-14.6494
偲	-14.6495
叵	-14.6496
㳻	-14.6496
㵱	-14.6496
瑠	-14.6496
蜣	-14.6496
簹	-14.6496
䕻	-14.6496
傜	-14.6496
崏	-14.6496
紩	-14.6496
蝘	-14.6496
禑	-14.6496
牣	-14.6496
恆	-14.6499
芴	-14.6499
亯	-14.6499
䂖	-14.6499
檗	-14.6499
掔	-14.6499
洤	-14.6499
湶	-14.6499
澱	-14.6499
唅	-14.6499
汃	-14.6499
猩	-14.6499
芋	-14.6499
跧	-14.6502
躄	-14.6502
坺	-14.6503
慣	-14.6503
䟏	-14.6503
岠	-14.6503
泹	-14.6505
橑	-14.6506
烇	-14.6506
觱	-14.6506
㰖	-14.6506
貰	-14.6506
囇	-14.6506
埰	-14.6506
猨	-14.6506
酳	-14.6506
絟	-14.6509
樑	-14.6509
釧	-14.6509
緖	-14.6509
墐	-14.6509
愫	-14.6509
緃	-14.6509
蛭	-14.6509
暵	-14.6512
㨱	-14.6512
禙	-14.6512
脽	-14.6512
蝱	-14.6512
尞	-14.6512
拚	-14.6512
掀	-14.6512
貜	-14.6512
吭	-14.6512
帽	-14.6514
羶	-14.6515
襴	-14.6515
杇	-14.6515
蒂	-14.6515
蹻	-14.6515
忡	-14.6515
倔	-14.6515
菱	-14.6515
嵪	-14.6515
璛	-14.6518
嚶	-14.6518
䒫	-14.6518
嚩	-14.6518
扸	-14.6518
菹	-14.6518
䳒	-14.6519
睍	-14.6521
渌	-14.6521
袴	-14.6521
屩	-14.6525
䷀	-14.6525
簞	-14.6525
蛤	-14.6525
皫	-14.6525
竻	-14.6525
胠	-14.6525
蜾	-14.6525
踘	-14.6525
緲	-14.6528
㯽	-14.6528
悳	-14.6528
繐	-14.6528
扌	-14.6529
淬	-14.6531
茞	-14.6531
袟	-14.6534
侶	-14.6534
漑	-14.6535
你	-14.6537
厶	-14.6537
㲻	-14.6543
㸑	-14.6544
眯	-14.6546
罋	-14.6547
䮯	-14.6547
遬	-14.6547
杶	-14.6548
趩	-14.655
辿	-14.6553
䏸	-14.6556
罻	-14.6559
帘	-14.6562
虩	-14.6562
趪	-14.6566
䋈	-14.6569
㔾	-14.6588
苡	-14.66
曀	-14.6609
噞	-14.6619
釆	-15.6056
醲	-15.6057
邟	-15.6058
逷	-15.6059
辶	-15.606
輮	-15.6061
躑	-15.6062
跗	-15.6063
豶	-15.6064
詻	-15.6065
詷	-15.6066
觢	-15.6067
覡	-15.6068
衖	-15.6069
蚯	-15.607
蚑	-15.6071
蘬	-15.6072
蘜	-15.6073
蓷	-15.6074
蓫	-15.6075
蓡	-15.6076
蒽	-15.6077
蒻	-15.6078
菙	-15.6079
腏	-15.608
綻	-15.6081
紽	-15.6082
簰	-15.6083
箘	-15.6084
筲	-15.6085
竾	-15.6086
禚	-15.6087
硂	-15.6088
砑	-15.6089
皈	-15.609
癩	-15.6091
癢	-15.6092
瘅	-15.6093
甆	-15.6094
瓝	-15.6095
瓔	-15.6096
璱	-15.6097
璯	-15.6098
璒	-15.6099
獑	-15.61
猢	-15.6101
焙	-15.6102
炡	-15.6103
濋	-15.6104
潫	-15.6105
潒	-15.6106
淔	-15.6107
涽	-15.6108
浛	-15.6109
洚	-15.611
残	-15.6111
歠	-15.6112
歑	-15.6113
歊	-15.6114
欏	-15.6115
欃	-15.6116
橛	-15.6117
橚	-15.6118
楦	-15.6119
楔	-15.612
梔	-15.6121
梐	-15.6122
柑	-15.6123
枒	-15.6124
杚	-15.6125
杗	-15.6126
朡	-15.6127
曏	-15.6128
暸	-15.6129
晥	-15.613
晄	-15.6131
昈	-15.6132
斪	-15.6133
撕	-15.6134
揶	-15.6135
揠	-15.6136
揟	-15.6137
捥	-15.6138
捖	-15.6139
挶	-15.614
戠	-15.6141
懱	-15.6142
懔	-15.6143
愗	-15.6144
怩	-15.6145
忸	-15.6146
嶫	-15.6147
崢	-15.6148
峗	-15.6149
岝	-15.615
嬛	-15.6151
嫏	-15.6152
婭	-15.6153
娩	-15.6154
姐	-15.6155
堶	-15.6156
埼	-15.6157
垜	-15.6158
囁	-15.6159
嚀	-15.616
喀	-15.6161
哩	-15.6162
哄	-15.6163
呴	-15.6164
叮	-15.6165
卍	-15.6166
剴	-15.6167
剕	-15.6168
刵	-15.6169
凹	-15.617
僶	-15.6171
僓	-15.6172
傺	-15.6173
倰	-15.6174
俻	-15.6175
俒	-15.6176
侫	-15.6177
侘	-15.6178
乕	-15.6179
䴏	-15.618
䱄	-15.6181
䯢	-15.6182
䢼	-15.6183
䞉	-15.6184
䗶	-15.6185
䔄	-15.6186
䄈	-15.6187
䃣	-15.6188
㷡	-15.6189
㳦	-15.619
㲙	-15.6191
㦷	-15.6192
㡨	-15.6193
㠻	-15.6194
㠶	-15.6195
㝈	-15.6196
㜏	-15.6197
㚃	-15.6198
㓷	-15.6199
𣅿	-15.62
齠	-15.6201
黵	-15.6202
鸕	-15.6203
鷀	-15.6204
鵕	-15.6205
鯔	-15.6206
餖	-15.6207
飣	-15.6208
顣	-15.6209
頄	-15.621
阽	-15.6211
鐏	-15.6212
鍗	-15.6213
鉷	-15.6214
釚	-15.6215
轤	-15.6216
轆	-15.6217
豲	-15.6218
譡	-15.6219
觟	-15.622
蠨	-15.6221
蝃	-15.6222
蛸	-15.6223
蓿	-15.6224
蓩	-15.6225
葇	-15.6226
菼	-15.6227
苜	-15.6228
臃	-15.6229
羕	-15.623
罭	-15.6231
繦	-15.6232
緍	-15.6233
簜	-15.6234
篲	-15.6235
窞	-15.6236
瞫	-15.6237
睴	-15.6238
痁	-15.6239
猪	-15.624
狽	-15.6241
牷	-15.6242
爋	-15.6243
熰	-15.6244
熉	-15.6245
溴	-15.6246
浠	-15.6247
泾	-15.6248
氤	-15.6249
櫻	-15.625
橒	-15.6251
槄	-15.6252
楅	-15.6253
梲	-15.6254
梣	-15.6255
梈	-15.6256
梇	-15.6257
栐	-15.6258
斺	-15.6259
敺	-15.626
拮	-15.6261
憉	-15.6262
慂	-15.6263
幂	-15.6264
嶓	-15.6265
嵳	-15.6266
岢	-15.6267
嫻	-15.6268
嫣	-15.6269
娬	-15.627
妁	-15.6271
啽	-15.6272
厷	-15.6273
匭	-15.6274
匐	-15.6275
匍	-15.6276
儓	-15.6277
倧	-15.6278
倆	-15.6279
䌓	-15.628
䂬	-15.6281
㞴	-15.6282
㕹	-15.6283
㔠	-15.6284
鸉	-15.6285
鷢	-15.6286
鵡	-15.6287
鮀	-15.6288
鬳	-15.6289
髤	-15.629
骳	-15.6291
騝	-15.6292
餮	-15.6293
餬	-15.6294
飪	-15.6295
顇	-15.6296
鎋	-15.6297
錧	-15.6298
鄎	-15.6299
轇	-15.63
躞	-15.6301
躊	-15.6302
譓	-15.6303
訞	-15.6304
訏	-15.6305
螘	-15.6306
蝠	-15.6307
蝙	-15.6308
蚡	-15.6309
蘾	-15.631
薞	-15.6311
蓨	-15.6312
蒺	-15.6313
蒍	-15.6314
葫	-15.6315
荈	-15.6316
茡	-15.6317
胼	-15.6318
翢	-15.6319
翡	-15.632
絏	-15.6321
紞	-15.6322
箔	-15.6323
睊	-15.6324
狟	-15.6325
狁	-15.6326
焬	-15.6327
灡	-15.6328
渣	-15.6329
渑	-15.633
泱	-15.6331
歹	-15.6332
楣	-15.6333
枤	-15.6334
曌	-15.6335
旳	-15.6336
扢	-15.6337
懖	-15.6338
憹	-15.6339
愀	-15.634
徬	-15.6341
徜	-15.6342
徉	-15.6343
崘	-15.6344
妢	-15.6345
奝	-15.6346
嚆	-15.6347
嘐	-15.6348
呦	-15.6349
么	-15.635
䢱	-15.6351
㥩	-15.6352
㟧	-15.6353
㚟	-15.6354
魑	-15.6355
餱	-15.6356
跑	-15.6357
誧	-15.6358
詿	-15.6359
茌	-15.636
艐	-15.6361
膿	-15.6362
窔	-15.6363
碔	-15.6364
砆	-15.6365
璙	-15.6366
涬	-15.6367
洳	-15.6368
糢	-15.6368
洨	-15.6369
椷	-15.637
撅	-15.6371
捂	-15.6372
戵	-15.6373
戝	-15.6374
惽	-15.6375
惹	-15.6376
悈	-15.6377
彄	-15.6378
弅	-15.6379
嵋	-15.638
姍	-15.6381
壡	-15.6382
圠	-15.6383
匋	-15.6384
凸	-15.6385
䱷	-15.6386
䥫	-15.6387
㸁	-15.6388
鳧	-15.6389
鱠	-15.639
骫	-15.6391
鞻	-15.6392
闤	-15.6393
闠	-15.6394
醐	-15.6395
醍	-15.6396
譊	-15.6397
蜍	-15.6398
綢	-15.6399
窬	-15.64
祋	-15.6401
砲	-15.6402
瓏	-15.6403
獫	-15.6404
獗	-15.6405
熛	-15.6406
湓	-15.6407
汐	-15.6408
旛	-15.6409
嫵	-15.641
堽	-15.6411
囹	-15.6412
嚨	-15.6413
哮	-15.6414
俑	-15.6415
侖	-15.6416
懊	-15.6416
佯	-15.6417
㽦	-15.6418
鴦	-15.6419
鮦	-15.642
蕺	-15.6421
祩	-15.6422
碏	-15.6423
甪	-15.6424
髣	-15.6424
琶	-15.6425
琵	-15.6426
渰	-15.6427
愐	-15.6428
崦	-15.6429
䶵	-15.643
㬰	-15.6431
㒜	-15.6432
鳲	-15.6433
郔	-15.6434
疕	-15.6435
珌	-15.6436
洭	-15.6437
檴	-15.6438
懮	-15.6439
嵯	-15.644
峿	-15.6441
喋	-15.6442
咠	-15.6443
僝	-15.6444
鮓	-15.6445
餳	-15.6446
靂	-15.6447
輾	-15.6448
湢	-15.6449
洓	-15.645
欿	-15.6451
朅	-15.6452
擺	-15.6453
媸	-15.6454
埵	-15.6455
㲈	-15.6456
㬋	-15.6457
蜥	-15.6458
膂	-15.6459
瑙	-15.646
梪	-15.6461
枇	-15.6462
惴	-15.6463
嶇	-15.6464
咷	-15.6465
翿	-15.6466
佟	-15.6467
篝	-15.6468
矻	-15.6469
癭	-15.647
杷	-15.6471
嘵	-15.6472
踳	-15.6473
蟋	-15.6474
玥	-15.6475
嵕	-15.6476
齬	-15.6477
齟	-15.6478
綮	-15.6479
晜	-15.648
倀	-15.6481
芍	-15.6482
崆	-15.6483
罘	-15.6484
碌	-15.6485
滏	-15.6486
彠	-15.6487
垞	-15.6488
笁	-15.6489
湞	-15.649
痘	-15.6491
芣	-15.6492
翛	-15.6493
堉	-15.6494
礜	-15.6495
櫽	-15.6496
媞	-15.6497
岣	-15.6498
疹	-15.6499
釲	-15.65
瓿	-15.6501
悢	-15.6502
湣	-15.6503
挲	-15.6504
廂	-15.6505
燉	-15.6506
郙	-15.6507
侂	-15.6508
匈	-15.6509
檮	-15.651
陔	-15.6511
閿	-15.6512
徘	-15.6513
昀	-15.6514
驃	-15.6515
彿	-15.6516
牴	-15.6517
>	-15.6518
=	-15.6519
3	-15.652
"	-15.6521
鸇	-15.6521
