<unk>	0
<s>	0
</s>	0
之	-4.0821
也	-4.83379
爲	-4.92923
以	-5.02996
者	-5.0978
而	-5.13748
不	-5.14113
有	-5.21781
一	-5.25488
於	-5.26303
天	-5.32245
/	-5.34334
)	-5.34782
(	-5.35712
其	-5.39806
人	-5.42993
生	-5.44858
上	-5.45221
中	-5.45957
神	-5.47188
無	-5.51464
道	-5.58256
則	-5.69854
心	-5.72971
大	-5.74231
眞	-5.75097
三	-5.78386
此	-5.82117
自	-5.85381
曰	-5.85448
得	-5.86348
明	-5.89431
靈	-5.96138
在	-5.97735
玄	-5.98412
行	-5.99211
至	-5.99663
是	-6.00414
日	-6.02012
如	-6.0248
氣	-6.03657
下	-6.06325
見	-6.09788
所	-6.13215
子	-6.14977
山	-6.1599
入	-6.16648
九	-6.17262
金	-6.1791
身	-6.20008
乃	-6.20904
法	-6.21064
故	-6.21961
炁	-6.22025
火	-6.22524
仙	-6.23122
元	-6.23777
時	-6.2406
水	-6.25506
玉	-6.26907
成	-6.27386
相	-6.289
言	-6.29227
五	-6.30101
陽	-6.30169
與	-6.30883
)(	-6.31182
二	-6.31514
非	-6.321
光	-6.32665
經	-6.32709
化	-6.33387
名	-6.34993
四	-6.3527
地	-6.3584
皆	-6.36644
即	-6.37363
出	-6.3844
精	-6.38542
君	-6.3911
符	-6.40543
書	-6.41855
文	-6.42185
合	-6.42592
矣	-6.43178
我	-6.44863
來	-6.45675
命	-6.46347
通	-6.47595
度	-6.47872
帝	-6.48612
若	-6.49658
形	-6.51368
雲	-6.52159
當	-6.53136
用	-6.5341
同	-6.53518
師	-6.54039
龍	-6.54247
常	-6.54332
主	-6.5446
萬	-6.54675
事	-6.5646
能	-6.56629
方	-6.57209
六	-6.57632
无	-6.57966
宫	-6.58004
妙	-6.58408
正	-6.5924
或	-6.59241
知	-6.60086
後	-6.60386
可	-6.62081
音	-6.62557
諸	-6.62635
丹	-6.63219
内	-6.63563
應	-6.63687
又	-6.63925
空	-6.64423
王	-6.64839
然	-6.65535
作	-6.67062
受	-6.67193
復	-6.70164
今	-6.70909
亦	-6.712
▁	-6.71373
長	-6.71445
分	-6.71612
未	-6.72263
令	-6.72372
月	-6.73045
真	-6.74127
世	-6.74293
年	-6.74527
前	-6.74545
何	-6.75225
及	-6.75561
風	-6.78143
數	-6.78932
云	-6.79018
清	-6.79316
華	-6.79935
臣	-6.80154
從	-6.80325
善	-6.80742
飛	-6.80759
開	-6.80785
八	-6.81476
去	-6.81773
欲	-6.82285
觀	-6.82381
眞人	-6.82526
洞	-6.82655
七	-6.8291
居	-6.8311
傳	-6.84069
陰	-6.8425
天地	-6.86121
運	-6.86681
物	-6.871
乎	-6.87696
門	-6.87778
本	-6.88045
降	-6.88934
景	-6.89442
白	-6.89537
字	-6.8957
立	-6.89591
歸	-6.89913
流	-6.89956
聞	-6.90001
安	-6.90474
因	-6.90813
使	-6.9135
吾	-6.91985
聖	-6.92769
死	-6.93935
青	-6.94441
虚	-6.94804
右	-6.95044
體	-6.96696
修	-6.97315
自然	-6.97906
性	-6.98251
十	-6.99423
德	-6.99545
寳	-7.00002
將	-7.00428
鬼	-7.00541
定	-7.00611
外	-7.00887
天帝	-7.01409
已	-7.01427
先	-7.02143
處	-7.03616
土	-7.04356
隨	-7.04993
章	-7.05934
和	-7.06077
衆	-7.06324
存	-7.06684
家	-7.07214
黄	-7.08616
功	-7.08759
召	-7.09031
象	-7.09166
變	-7.09436
過	-7.09679
星	-7.09762
始	-7.10236
色	-7.10583
隂	-7.10647
起	-7.11186
極	-7.11421
意	-7.11458
位	-7.13687
太	-7.14646
念	-7.15114
木	-7.15454
凡	-7.15659
盡	-7.1573
靜	-7.15957
求	-7.16242
重	-7.16722
多	-7.17092
根	-7.18023
紫	-7.18371
取	-7.18613
官	-7.18762
先生	-7.18826
離	-7.19296
動	-7.19395
還	-7.19872
公	-7.20181
教	-7.21146
散	-7.21164
難	-7.21322
次	-7.21568
守	-7.21749
聲	-7.21929
初	-7.22527
南	-7.22595
百	-7.22754
雷	-7.22803
石	-7.23109
邪	-7.23145
結	-7.23255
于	-7.24443
遊	-7.24512
天尊	-7.24648
惡	-7.25
發	-7.25493
都	-7.25753
謂	-7.26266
千	-7.26497
魂	-7.26734
解	-7.26762
府	-7.26792
國	-7.27195
保	-7.273
理	-7.28025
滅	-7.28116
各	-7.28265
樂	-7.28506
藥	-7.28537
元始	-7.28569
治	-7.28909
福	-7.29114
說	-7.29265
遂	-7.29798
必	-7.30343
東	-7.30429
號	-7.30554
交	-7.30649
等	-7.31105
周	-7.31469
奉	-7.31807
朝	-7.31976
海	-7.3208
兩	-7.32599
易	-7.32673
香	-7.32941
思	-7.33053
不可	-7.33301
會	-7.33917
焉	-7.34343
宗	-7.34583
目	-7.34641
女	-7.35174
幽	-7.35664
西	-7.35676
願	-7.35742
小	-7.36268
登	-7.36619
諸天	-7.36749
隱	-7.3689
罪	-7.37264
終	-7.38002
夫	-7.3958
老	-7.39966
問	-7.4015
服	-7.40269
赤	-7.40469
劫	-7.40582
除	-7.40858
鍊	-7.40905
遇	-7.40927
平	-7.41223
苦	-7.41636
口	-7.41784
實	-7.43017
養	-7.43389
左	-7.44016
既	-7.44034
食	-7.44499
高	-7.44982
坐	-7.45033
藏	-7.45076
深	-7.45451
須	-7.46167
日月	-7.46315
惟	-7.46454
衣	-7.46812
北	-7.46859
一切	-7.47049
司	-7.47141
雖	-7.47176
異	-7.47252
上清	-7.47386
向	-7.47393
攝	-7.47498
圖	-7.47917
並	-7.48078
中有	-7.49107
不能	-7.49289
皇	-7.50091
機	-7.50346
信	-7.50578
致	-7.50827
關	-7.5088
乾	-7.50914
微	-7.51056
絶	-7.5123
回	-7.51315
轉	-7.51556
母	-7.51828
告	-7.5192
尊	-7.52057
夜	-7.52445
張	-7.52469
止	-7.52819
持	-7.53041
呪	-7.5329
執	-7.5355
照	-7.53774
制	-7.53793
要	-7.54487
耳	-7.5478
素	-7.54941
少	-7.55135
病	-7.55557
蓋	-7.55964
之中	-7.56287
伏	-7.56423
魔	-7.56536
不得	-7.56683
請	-7.56911
壇	-7.57112
臨	-7.57981
三界	-7.58095
胎	-7.58734
廣	-7.5896
力	-7.59002
首	-7.59054
足	-7.5911
俱	-7.59254
禮	-7.59669
全	-7.59704
塵	-7.59888
更	-7.59907
十方	-7.59982
便	-7.60083
識	-7.60223
志	-7.60891
由	-7.60953
但	-7.61763
失	-7.6195
感	-7.62019
祖	-7.62178
威	-7.62216
之道	-7.62233
羅	-7.62271
室	-7.62393
陰陽	-7.6249
頭	-7.62538
莫	-7.62673
語	-7.62739
巳	-7.62774
宜	-7.62793
舉	-7.63132
指	-7.64313
著	-7.64331
永	-7.64731
太上	-7.64938
息	-7.64951
汝	-7.65166
學	-7.65256
授	-7.65311
直	-7.6611
爾	-7.66376
斗	-7.66745
果	-7.66827
訣	-7.66852
卦	-7.66873
兵	-7.67413
節	-7.67837
臺	-7.68661
面	-7.68996
往	-7.69422
衆生	-7.69574
集	-7.69626
神仙	-7.69823
髙	-7.70264
馬	-7.70267
畢	-7.70425
萬物	-7.70563
庭	-7.70749
間	-7.70778
奏	-7.71308
五行	-7.71689
古	-7.72052
之炁	-7.72067
情	-7.72241
啓	-7.72477
積	-7.72575
九天	-7.72603
戒	-7.72909
災	-7.73626
雨	-7.73641
升	-7.73886
民	-7.74113
悟	-7.7438
顯	-7.74446
宿	-7.74531
黑	-7.74722
遠	-7.74777
業	-7.75158
普	-7.75183
落	-7.76063
滿	-7.76207
輪	-7.76217
總	-7.76843
義	-7.76944
不知	-7.77199
建	-7.77726
哉	-7.7806
害	-7.78112
延	-7.78255
到	-7.78516
加	-7.78558
虎	-7.78607
甚	-7.7882
品	-7.78991
稱	-7.7901
辰	-7.79024
覺	-7.7915
對	-7.79172
依	-7.79206
境	-7.79217
歲	-7.79426
士	-7.79495
謂之	-7.79533
縁	-7.79657
坤	-7.79721
靈寳	-7.80214
屬	-7.80258
返	-7.80465
别	-7.80614
布	-7.81038
利	-7.81167
朱	-7.81214
列	-7.81318
混	-7.81392
餘	-7.81538
花	-7.82082
咸	-7.82125
玉女	-7.82177
且	-7.82316
州	-7.8245
長生	-7.82528
録	-7.82729
好	-7.82866
誦	-7.82872
消	-7.83204
壽	-7.83208
太一	-7.83284
凝	-7.83377
齊	-7.83687
乘	-7.84094
仰	-7.84293
所以	-7.84481
恩	-7.8464
玉清	-7.84762
某	-7.84873
鉛	-7.85296
林	-7.85622
固	-7.86029
了	-7.86314
施	-7.86498
卷	-7.86654
震	-7.86773
珠	-7.87067
育	-7.87148
霞	-7.87181
源	-7.87219
疾	-7.87283
汞	-7.87738
歌	-7.87914
親	-7.87945
聽	-7.88087
超	-7.88731
城	-7.88861
達	-7.88908
順	-7.8905
故曰	-7.89061
濟	-7.89074
留	-7.89108
望	-7.89417
圓	-7.89419
慶	-7.89551
期	-7.89554
亡	-7.89867
河	-7.90029
泉	-7.90162
宣	-7.90173
興	-7.90367
侍	-7.90426
手	-7.90475
容	-7.90776
冥	-7.90914
殺	-7.90954
謹	-7.91432
具	-7.91466
童	-7.91507
獨	-7.91959
反	-7.92009
變化	-7.92507
乗	-7.92541
住	-7.92613
寒	-7.927
昇	-7.92724
車	-7.93085
腎	-7.93319
造	-7.93367
十二	-7.93506
兆	-7.94436
瓊	-7.94472
進	-7.94484
齋	-7.94554
忘	-7.94806
賜	-7.94835
誠	-7.9494
浮	-7.94972
却	-7.95141
視	-7.95223
輕	-7.95226
拜	-7.95291
引	-7.95388
許	-7.9544
破	-7.95591
尋	-7.95702
慈	-7.95724
悉	-7.9588
淨	-7.95909
而不	-7.96302
共	-7.96726
猶	-7.9691
路	-7.96983
旣	-7.97288
可以	-7.97329
愛	-7.97362
駕	-7.97386
忽	-7.97634
妄	-7.97724
呼	-7.97756
備	-7.97798
煉	-7.97887
御	-7.97906
骨	-7.98258
春	-7.9827
益	-7.98314
注	-7.98356
天下	-7.98845
寧	-7.99228
勝	-7.99465
就	-7.99511
報	-7.99534
血	-7.99576
記	-7.99621
祕	-7.99706
帝君	-7.998
載	-8.00086
部	-8.00333
遍	-8.00627
江	-8.00629
太極	-8.00804
煙	-8.0114
天尊志心朝禮	-8.01153
辭	-8.01184
羽	-8.01259
鼎	-8.01449
垂	-8.01496
護	-8.01572
父	-8.01717
簡	-8.02656
上帝	-8.02758
曲	-8.03041
諱	-8.03127
敬	-8.03384
己	-8.03474
水火	-8.03783
勿	-8.03902
篇	-8.03912
傷	-8.03921
敕	-8.04076
昭	-8.04091
斷	-8.04149
承	-8.04158
速	-8.04309
陳	-8.04368
大道	-8.05139
房	-8.05183
晨	-8.05398
生死	-8.05611
眞君	-8.05653
堂	-8.05747
英	-8.05762
吏	-8.05947
弟子	-8.06271
乆	-8.06379
坎	-8.06445
酒	-8.06508
道士	-8.0666
謝	-8.06778
大神	-8.06979
於是	-8.07545
昔	-8.07772
封	-8.07939
每	-8.08015
論	-8.08387
聚	-8.08476
所謂	-8.08823
籍	-8.08854
質	-8.09036
闕	-8.09275
再	-8.09598
窮	-8.09727
昌	-8.10079
魄	-8.10751
金丹	-8.10878
斯	-8.10896
穢	-8.1104
夢	-8.11062
考	-8.11261
證	-8.11336
種	-8.1145
姓	-8.11668
童子	-8.1179
獲	-8.11939
冠	-8.11942
智	-8.12055
使者	-8.12161
氏	-8.12174
收	-8.12418
盛	-8.12459
隂陽	-8.12488
亂	-8.12593
示	-8.12662
造化	-8.12873
毒	-8.1304
之所	-8.13143
○	-8.13324
表	-8.13691
印	-8.14026
聖人	-8.14355
碧	-8.14449
之上	-8.14832
貴	-8.14839
一日	-8.15066
累	-8.15079
漢	-8.15154
萬神	-8.15376
徒	-8.15625
梵	-8.15856
犯	-8.15923
澤	-8.16206
禁	-8.16336
吉	-8.16389
黃	-8.16398
如是	-8.16553
紀	-8.16791
朗	-8.17139
是也	-8.17192
乾坤	-8.17361
救	-8.17587
如此	-8.17841
切	-8.17875
豈	-8.17956
伯	-8.18107
含	-8.18402
卿	-8.18606
賢	-8.18664
領	-8.18684
元君	-8.18892
被	-8.1905
類	-8.19301
李	-8.19377
寂	-8.1946
崇	-8.20306
魔王	-8.2033
獄	-8.20512
監	-8.20734
秋	-8.20775
仁	-8.20794
鬼神	-8.20834
得道	-8.20938
現	-8.20948
鳳	-8.21099
他	-8.212
勑	-8.21276
尚	-8.21288
眼	-8.21579
予	-8.21728
慧	-8.22101
三元	-8.22518
武	-8.22896
迷	-8.22925
喜	-8.22937
按	-8.2306
連	-8.23065
候	-8.23138
以爲	-8.23242
甲	-8.23286
勤	-8.23325
徹	-8.23448
急	-8.23512
休	-8.23526
科	-8.23639
遺	-8.23914
榮	-8.24055
并	-8.24658
彼	-8.24766
想	-8.24862
然後	-8.25209
左右	-8.25357
呪曰	-8.25918
飲	-8.25982
劉	-8.25994
鎮	-8.26034
唯	-8.26238
驚	-8.2624
谷	-8.26257
端	-8.26296
歷	-8.26333
禍	-8.26426
道君	-8.26498
地獄	-8.26867
籙	-8.26883
霄	-8.26895
貪	-8.27353
宅	-8.27444
似	-8.27755
界	-8.27957
俗	-8.2825
露	-8.28647
任	-8.28649
池	-8.28661
尸	-8.28685
祥	-8.29268
停	-8.29712
急急如律令	-8.29874
田	-8.29915
契	-8.30006
无量	-8.30081
鶴	-8.30682
焚	-8.30754
五帝	-8.30971
曜	-8.31382
徧	-8.31462
光明	-8.31533
遣	-8.31595
參	-8.31832
只	-8.31962
衛	-8.31987
驅	-8.32364
耀	-8.32415
近	-8.32495
䰟	-8.32656
騰	-8.32892
遷	-8.33549
演	-8.33727
宮	-8.33879
疑	-8.33984
迎	-8.34081
液	-8.34112
良	-8.3428
輔	-8.34357
而爲	-8.34745
代	-8.35257
推	-8.35283
丁	-8.35309
嘗	-8.35337
淵	-8.35569
北方	-8.3558
頂	-8.35615
肺	-8.35703
逆	-8.35733
凶	-8.35863
蒙	-8.35944
接	-8.35953
比	-8.35977
客	-8.3657
統	-8.3672
緑	-8.36749
付	-8.36895
之後	-8.36996
舍	-8.37131
草	-8.37514
序	-8.37539
飛天	-8.37665
殿	-8.37713
密	-8.37765
覆	-8.37804
詩	-8.37958
惠	-8.381
儀	-8.38228
津	-8.38284
嚴	-8.38315
之氣	-8.38377
㑹	-8.38401
妖	-8.38697
紅	-8.38766
味	-8.38799
半	-8.38847
放	-8.39023
申	-8.39125
負	-8.39158
揚	-8.39165
愚	-8.39441
釋	-8.39496
之法	-8.39603
炎	-8.39629
午	-8.39655
泰	-8.39821
賊	-8.39877
父母	-8.40087
人之	-8.4017
功德	-8.40233
孝	-8.40654
假	-8.40749
洪	-8.40792
映	-8.40857
裏	-8.40919
盈	-8.4108
泥丸	-8.41389
曹	-8.41411
敢	-8.41635
燈	-8.41686
招	-8.41878
夫人	-8.42014
閉	-8.42136
而成	-8.42182
律	-8.42199
術	-8.42609
清淨	-8.42657
肝	-8.42956
之時	-8.43144
樓	-8.43526
恭	-8.43661
户	-8.43723
人也	-8.43903
詔	-8.43972
充	-8.43978
恐	-8.44095
掌	-8.44195
東方	-8.44243
唐	-8.44284
宇	-8.44871
縣	-8.45261
蒼	-8.45658
調	-8.45714
待	-8.46063
秀	-8.46078
採	-8.46083
牛	-8.46087
移	-8.46122
鬱	-8.46159
龍虎	-8.46197
阿	-8.46198
陵	-8.46201
奔	-8.46332
舊	-8.46563
新	-8.46578
真人	-8.46595
南方	-8.46684
履	-8.46697
天人	-8.4687
太玄	-8.4696
蕩	-8.46983
嶽	-8.47729
丘	-8.47812
康	-8.47841
爽	-8.4798
堅	-8.48077
投	-8.48315
吐	-8.48322
輝	-8.4833
鼓	-8.48477
役	-8.48488
司命	-8.48605
沉	-8.48609
旋	-8.48731
懷	-8.48762
金闕	-8.4891
三天	-8.48986
勞	-8.49075
憂	-8.49135
患	-8.49285
營	-8.49613
詣	-8.49624
違	-8.49626
畫	-8.49654
㫖	-8.49761
察	-8.49788
純	-8.50046
久	-8.50183
損	-8.50218
敷	-8.50685
拔	-8.51204
之内	-8.51399
二十四	-8.51488
追	-8.51488
兮	-8.51578
傾	-8.51582
漸	-8.51643
巽	-8.51954
原	-8.52036
幾	-8.52102
世人	-8.52247
芝	-8.52366
游	-8.524
不見	-8.52477
筆	-8.52505
无極	-8.52576
無極	-8.52643
兊	-8.52737
夏	-8.53002
抱	-8.53091
西方	-8.53163
佩	-8.53399
潜	-8.53406
而生	-8.53512
走	-8.53593
無爲	-8.53665
設	-8.53873
送	-8.54149
爻	-8.542
愈	-8.54208
鳴	-8.54265
爐	-8.54401
寅	-8.5448
刻	-8.54498
祈	-8.54779
里	-8.54816
斬	-8.54839
吞	-8.54997
冲	-8.55073
五色	-8.55318
群	-8.55403
鐵	-8.55459
神王	-8.55617
井	-8.55673
末	-8.55737
刑	-8.55822
尺	-8.55975
格	-8.56161
度人	-8.56164
劍	-8.56183
辛	-8.5624
鄉	-8.56583
學道	-8.56724
置	-8.56847
之人	-8.56894
殃	-8.57012
今日	-8.57049
雪	-8.5725
澄	-8.57414
梁	-8.57487
笑	-8.57522
錬	-8.5763
絳	-8.5778
迴	-8.57816
昏	-8.57906
退	-8.57923
三十	-8.57963
北斗	-8.58041
黄帝	-8.5808
天地之	-8.58113
納	-8.58154
逐	-8.58203
三十六	-8.58441
無窮	-8.58477
之間	-8.5853
服之	-8.5859
專	-8.58717
五嶽	-8.58755
若有	-8.58774
怪	-8.58796
剛	-8.58807
棄	-8.58862
孫	-8.58866
步	-8.58932
之士	-8.58993
太清	-8.59042
顧	-8.59435
丹田	-8.59651
上下	-8.59691
特	-8.59811
松	-8.59854
强	-8.60136
波	-8.60152
典	-8.60181
玉京	-8.60294
盜	-8.60297
稽首	-8.60324
迹	-8.6051
七祖	-8.60798
此經	-8.61016
龜	-8.6122
計	-8.61236
男	-8.61307
捨	-8.61344
天尊至心歸命信禮	-8.61601
史	-8.61692
天中	-8.62067
資	-8.62117
座	-8.62174
乞	-8.62196
人間	-8.62249
器	-8.62273
葉	-8.62376
瑞	-8.62549
美	-8.62678
是以	-8.62797
像	-8.62897
基	-8.62926
煥	-8.63121
看	-8.63246
虛	-8.63276
狀	-8.63336
酉	-8.63418
之神	-8.63512
生於	-8.63539
三年	-8.63554
曾	-8.63836
中央	-8.63882
燒	-8.63972
干	-8.63976
三官	-8.63993
披	-8.64019
扶	-8.64215
鎭	-8.64321
祝	-8.64332
響	-8.64409
大聖	-8.64591
巨	-8.64763
染	-8.64885
閑	-8.6512
逢	-8.65138
竹	-8.65179
殊	-8.65434
亥	-8.65468
箇	-8.65528
錢	-8.65547
角	-8.65704
烈	-8.65771
艮	-8.65965
盟	-8.66233
魚	-8.66246
四十	-8.66255
誰	-8.66284
侯	-8.66373
慮	-8.66445
將軍	-8.66493
越	-8.66851
禳	-8.66922
耶	-8.66983
濁	-8.67113
否	-8.67163
脾	-8.67356
試	-8.67381
樹	-8.67448
修行	-8.67459
野	-8.67497
卯	-8.6757
句	-8.6758
帶	-8.67602
經云	-8.67726
火候	-8.67756
灌	-8.67816
還丹	-8.6795
改	-8.68402
五方	-8.68498
逺	-8.68547
庚	-8.68929
量	-8.68961
宋	-8.69029
差	-8.69099
仲	-8.69171
館	-8.69206
條	-8.69235
世界	-8.6949
之精	-8.6981
之理	-8.70033
吹	-8.70057
無量	-8.70182
職	-8.70194
滯	-8.70197
騎	-8.70221
奇	-8.70554
仍	-8.70563
雙	-8.70571
校	-8.707
最	-8.70751
第二	-8.70985
玉帝	-8.70986
玄都	-8.71037
腹	-8.71144
省	-8.71236
之日	-8.71349
答	-8.71489
綱	-8.71546
謁	-8.71756
内外	-8.71861
其中	-8.7192
輿	-8.72179
篆	-8.72206
習	-8.72218
註	-8.72323
大洞	-8.72462
㝠	-8.72568
八卦	-8.73099
羣	-8.73335
陶	-8.73551
雜	-8.73563
朱書	-8.73678
名曰	-8.73712
一炁	-8.73722
第一	-8.73828
暗	-8.73876
哀	-8.74012
禀	-8.74189
兒	-8.74371
竟	-8.74453
嘉	-8.74801
者也	-8.74888
雷霆	-8.74958
出入	-8.75257
權	-8.7527
詞	-8.75304
市	-8.75473
影	-8.75476
驗	-8.75492
衰	-8.75673
適	-8.75859
男女	-8.76097
元始天尊	-8.76519
兼	-8.76535
洞章	-8.76716
十五	-8.76819
冬	-8.77021
鼻	-8.77273
又曰	-8.7743
太空	-8.77658
鳥	-8.77748
峰	-8.77791
髮	-8.77802
太陽	-8.78044
訪	-8.7806
善男子	-8.78106
徳	-8.78261
八景	-8.78355
詳	-8.78418
友	-8.78459
京	-8.78537
縱	-8.78617
□	-8.78637
億	-8.78747
曉	-8.78849
寶	-8.78927
歩	-8.79183
悲	-8.79245
寸	-8.79258
横	-8.79361
无上	-8.79577
蟲	-8.79726
免	-8.79741
曰吾	-8.79884
三清	-8.79969
貫	-8.8
夕	-8.80163
背	-8.80196
而去	-8.80216
廟	-8.80282
沙	-8.80398
溪	-8.80449
云何	-8.80451
學者	-8.80489
一時	-8.80577
軒	-8.80666
砂	-8.80868
丈	-8.80911
紙	-8.81123
導	-8.81181
暉	-8.81283
於此	-8.81388
翁	-8.81567
盖	-8.81711
化生	-8.81821
天眞	-8.82025
太微	-8.82124
筭	-8.82192
厄	-8.82271
題	-8.82377
身中	-8.82423
四象	-8.82496
天子	-8.82533
鍾	-8.82553
紫微	-8.82842
庶	-8.8306
銀	-8.83063
吴	-8.83136
壁	-8.83307
拘	-8.83498
貞	-8.83519
而已	-8.83539
逍遥	-8.83543
智慧	-8.83581
三炁	-8.83651
財	-8.8366
混沌	-8.83726
郡	-8.83761
太虚	-8.83874
貌	-8.84002
也故	-8.84113
穴	-8.84685
補	-8.84856
萬劫	-8.8489
烏	-8.85581
黙	-8.85594
吿	-8.85606
罡	-8.85809
咽	-8.85819
無所	-8.86066
兹	-8.86264
邊	-8.86395
魁	-8.86492
樞	-8.86573
管	-8.86809
戊	-8.86928
慾	-8.86955
醉	-8.86992
産	-8.8719
卧	-8.87438
漏	-8.87455
道德	-8.87475
芒	-8.87479
蛇	-8.8748
默	-8.87659
甘	-8.87677
禄	-8.87738
歳	-8.87755
性命	-8.87784
誓	-8.87788
巖	-8.87944
仙人	-8.87967
之數	-8.87978
細	-8.88066
賔	-8.88066
嬰	-8.88139
瑶	-8.88172
嗣	-8.88199
蜀	-8.88635
喪	-8.88658
徐	-8.88669
第三	-8.88822
功曹	-8.88861
祐	-8.88964
化爲	-8.89005
鏡	-8.89376
至眞	-8.89403
敗	-8.89596
逸	-8.89636
黒	-8.89642
至道	-8.89755
愆	-8.89864
危	-8.89867
之妙	-8.89894
希	-8.9004
玉皇	-8.90307
夷	-8.90319
川	-8.90347
泄	-8.9048
赴	-8.90628
顔	-8.90728
舌	-8.9075
上昇	-8.90775
先天	-8.90827
十六	-8.90966
奪	-8.91257
墮	-8.91313
世間	-8.91319
徑	-8.91331
伐	-8.91369
昧	-8.91372
種種	-8.91382
私	-8.91519
吸	-8.9155
錦	-8.91568
老君	-8.91649
幸	-8.91775
融	-8.91778
趙	-8.91894
戸	-8.91899
四時	-8.9193
一身	-8.92005
趣	-8.92011
枯	-8.92023
述	-8.92046
限	-8.92052
不死	-8.92179
爲一	-8.92199
策	-8.92276
那	-8.92288
天門	-8.92453
喻	-8.92478
茅	-8.92622
純陽	-8.92723
師曰	-8.92791
白虎	-8.92969
衝	-8.93077
頌	-8.93218
萬里	-8.93268
猛	-8.93383
丑	-8.93504
長存	-8.93557
索	-8.93569
九幽	-8.93574
鉛汞	-8.93708
至於	-8.93744
助	-8.9382
五十	-8.93848
辟	-8.93866
之事	-8.93914
範	-8.93962
毛	-8.94012
郎	-8.94051
是謂	-8.94127
略	-8.94275
乙	-8.945
務	-8.94553
眞炁	-8.94728
霹靂	-8.94734
因縁	-8.94823
鸞	-8.9505
屋	-8.95078
眞一	-8.95151
上元	-8.95163
戰	-8.95311
十月	-8.95391
大羅	-8.95429
無有	-8.95477
彩	-8.95557
黄庭	-8.95617
隆	-8.95657
庵	-8.95693
不敢	-8.95708
吕	-8.95786
泥	-8.95811
晝夜	-8.96066
錫	-8.96095
際	-8.96103
更生	-8.96193
慕	-8.96326
潤	-8.96334
熟	-8.96342
贈	-8.96369
珍	-8.9637
馳	-8.96395
弦	-8.96463
符命	-8.96623
爭	-8.96647
竅	-8.96795
翼	-8.96888
爾時	-8.9699
電	-8.96997
坎離	-8.9704
吟	-8.97084
廼	-8.97091
孤	-8.97099
天君	-8.97111
杖	-8.97128
上天	-8.97362
檢	-8.97412
約	-8.97652
早	-8.97668
政	-8.97726
四方	-8.97777
包	-8.97843
式	-8.98007
大帝	-8.98056
懸	-8.9818
各有	-8.98214
莫不	-8.98431
如何	-8.986
東南	-8.98789
晋	-8.99014
一人	-8.99043
帥	-8.99065
柔	-8.99165
混合	-8.99234
尤	-8.99237
蕭	-8.99251
誦經	-8.99275
人身	-8.99306
煩惱	-8.99362
軍	-8.9941
癸	-8.99505
摧	-8.99537
没	-8.99561
慈悲	-8.9962
空洞	-8.99631
汝等	-8.99661
不動	-8.99665
束	-8.9973
克	-8.99774
玉皇大天尊玄穹髙上帝	-8.99879
西北	-8.99949
沖	-8.9996
南宫	-8.9997
三日	-9.00004
係	-9.00043
一名	-9.00296
塞	-9.00321
潔	-9.00327
誅	-9.00358
下降	-9.00466
之門	-9.00509
清微	-9.00651
仗	-9.00669
脱	-9.00681
二十	-9.0078
壬	-9.00813
赦	-9.00856
讀	-9.00983
上聖	-9.01002
浩	-9.0108
畏	-9.0111
秘	-9.01125
肅	-9.0113
旦	-9.01166
把	-9.01356
激	-9.01386
丙	-9.01632
霧	-9.01683
宰	-9.01832
燿	-9.01963
議	-9.02166
霜	-9.02197
翠	-9.02228
壯	-9.0245
旛	-9.02457
跡	-9.02495
解脫	-9.02528
途	-9.02722
脉	-9.02734
洗	-9.0276
植	-9.02773
遵	-9.02812
繫	-9.02942
梵炁	-9.02951
階	-9.03036
沐浴	-9.03042
環	-9.0306
道人	-9.03076
厚	-9.03249
俯	-9.03283
再拜	-9.03388
三光	-9.03415
三五	-9.03421
天師	-9.03658
薄	-9.03828
廻	-9.03884
緫	-9.03921
才	-9.0403
十八	-9.04085
怒	-9.04109
修眞	-9.04355
崑崙	-9.04371
熱	-9.04383
奥	-9.04397
狂	-9.04403
后	-9.04432
神靈	-9.04477
紫陽	-9.04516
温	-9.04594
丈人	-9.04756
郭	-9.04904
忠	-9.04936
虚空	-9.05212
竒	-9.05232
棲	-9.05242
經曰	-9.05373
上眞	-9.05405
飛昇	-9.05421
配	-9.0547
叔	-9.05483
祠	-9.05551
之下	-9.05685
妻	-9.05746
▲	-9.05808
般	-9.05819
生成	-9.05884
醮	-9.05932
效	-9.0606
灾	-9.06198
亦不	-9.06307
卒	-9.06407
提	-9.06428
麗	-9.06617
弘	-9.06694
豐	-9.06702
況	-9.06924
委	-9.06942
微妙	-9.06954
供養	-9.06975
開度	-9.0712
是時	-9.07134
廓	-9.07202
俾	-9.07287
嘯	-9.07295
嬰兒	-9.07528
盤	-9.07529
戌	-9.07537
瞻	-9.07836
惑	-9.0803
天機	-9.08039
二年	-9.0829
振	-9.08416
沈	-9.08417
靖	-9.08474
摩	-9.08702
擊	-9.08703
壞	-9.08737
院	-9.08793
彌	-9.089
漠	-9.08925
繼	-9.08947
岀	-9.08953
旨	-9.08993
底	-9.09003
雄	-9.09023
厭	-9.09121
寄	-9.09279
維	-9.09332
茅山	-9.09426
郷	-9.09564
彰	-9.09604
太平	-9.09628
海空	-9.09705
青龍	-9.09742
煞	-9.09775
三十二天	-9.0978
曰此	-9.09821
自在	-9.09851
域	-9.09862
楊	-9.09917
得其	-9.09994
君子	-9.10035
太乙	-9.10045
傍	-9.10215
六十	-9.10304
續	-9.10439
神霄	-9.10555
宛	-9.10732
皓	-9.10796
靈官	-9.10927
勸	-9.11022
蘭	-9.11098
着	-9.11129
頓	-9.11177
肉	-9.11289
五老	-9.11312
大梵	-9.11362
墨	-9.11644
天上	-9.11763
秦	-9.11944
往來	-9.12006
佐	-9.1201
善惡	-9.12135
茂	-9.12289
一切衆生	-9.12457
之術	-9.12495
水中	-9.12532
障	-9.12535
獸	-9.12536
偶	-9.1254
以此	-9.12643
究	-9.12812
脫	-9.12859
暮	-9.12906
東華	-9.12921
峯	-9.12923
保命	-9.13046
大法	-9.1307
舞	-9.13188
之功	-9.13247
九炁	-9.13276
宴	-9.13413
西南	-9.13451
髙上	-9.13537
法師	-9.13708
毫	-9.13736
之象	-9.13816
觸	-9.14071
佛	-9.14134
九宫	-9.14318
獻	-9.14331
無上	-9.14439
等志心歸命禮願	-9.14505
恒	-9.14648
龍漢	-9.14678
奉行	-9.14766
孔	-9.14791
三寳	-9.14864
鮮	-9.14983
有一	-9.15004
剋	-9.15062
答曰	-9.15064
分明	-9.1507
有所	-9.15107
魏	-9.15117
是故	-9.15143
讃	-9.15375
萬靈	-9.15517
之宫	-9.15569
枝	-9.15661
人能	-9.15767
夭	-9.15935
腦	-9.15958
齒	-9.15968
日中	-9.15994
增	-9.15995
無不	-9.16027
翳	-9.16266
髓	-9.16273
附	-9.16306
六甲	-9.1632
審	-9.16562
透	-9.16583
一年	-9.16696
眞文	-9.16871
胡	-9.17008
誥	-9.17021
無形	-9.17133
儒	-9.17194
懼	-9.17209
脩	-9.17238
是爲	-9.174
貧	-9.17517
苟	-9.17522
天之	-9.17541
酆都	-9.17566
不生	-9.17809
判	-9.17819
五臟	-9.17865
湯	-9.17916
上有	-9.17937
輒	-9.18146
遥	-9.18205
燭	-9.18227
欽	-9.1824
妙道	-9.18287
金剛	-9.18334
號曰	-9.18367
説	-9.18519
七寳	-9.18749
也若	-9.18792
桃	-9.18796
眉	-9.18836
湖	-9.1885
見之	-9.19041
朔	-9.1923
身心	-9.19244
頌曰	-9.19255
東北	-9.19343
眞王	-9.19352
撰	-9.19487
催	-9.19583
即是	-9.19744
幻	-9.19771
滋	-9.19773
鑒	-9.19882
長夜	-9.20019
精神	-9.20077
覩	-9.20125
也此	-9.20133
眞氣	-9.20359
甲子	-9.20423
談	-9.20496
華陽	-9.20574
工	-9.20705
水銀	-9.20747
第四	-9.20994
之則	-9.20998
博	-9.21059
太素	-9.21234
神明	-9.21337
晝	-9.21398
祖師	-9.21433
眞仙	-9.21541
皆得	-9.21694
妃	-9.21836
翔	-9.22062
避	-9.22136
道者	-9.22171
僧	-9.22224
元氣	-9.22414
而後	-9.22431
律令	-9.22442
三才	-9.22451
宻	-9.22745
橋	-9.22768
詠	-9.23064
晦	-9.23079
虧	-9.23111
三千	-9.2312
席	-9.23121
山中	-9.23252
故云	-9.23295
一百	-9.23324
刀	-9.23402
侵	-9.23479
舟	-9.23483
飛行	-9.23715
者即	-9.23747
滌	-9.2379
罰	-9.23835
洞天	-9.23941
胃	-9.24072
羊	-9.24113
唱	-9.24114
忌	-9.24233
金液	-9.24291
葛	-9.24477
洞玄	-9.24693
占	-9.24757
陸	-9.24797
琅	-9.24831
飛仙	-9.24934
韓	-9.25102
亭	-9.2521
胞	-9.25459
錯	-9.25475
輩	-9.255
咎	-9.25505
預	-9.25567
射	-9.25584
責	-9.25856
臻	-9.25913
洞陽	-9.26101
盗	-9.26121
五炁	-9.26171
凌	-9.26213
廬	-9.26274
其所	-9.26289
此道	-9.26531
瑩	-9.26547
完	-9.26579
給	-9.26606
燒香	-9.26709
玉符	-9.26801
牢	-9.26907
七星	-9.26941
婦	-9.26963
而有	-9.27112
神虎	-9.27195
赤帝	-9.27215
不復	-9.27221
琴	-9.27255
絡	-9.27265
巾	-9.27273
第	-9.27318
短	-9.27569
削	-9.27597
率	-9.2762
中宫	-9.27864
毋	-9.27901
昇天	-9.27941
灰	-9.27983
塗	-9.27989
三十二	-9.28251
冰	-9.2827
尾	-9.28295
天道	-9.28348
曆	-9.2849
辯	-9.28633
痛	-9.28633
層	-9.28677
戲	-9.28683
雷公	-9.28691
捉	-9.28775
淳	-9.29028
誤	-9.2906
倒	-9.29061
混元	-9.29098
之根	-9.29303
九轉	-9.29304
清靜	-9.29485
之初	-9.29492
晶	-9.29535
仙道	-9.29606
之本	-9.2961
不同	-9.29619
二字	-9.29629
誦之	-9.29716
五星	-9.29943
衡	-9.30101
四字	-9.30117
本命	-9.30178
一氣	-9.30193
暫	-9.30434
元年	-9.30452
浪	-9.30453
十四	-9.30471
之機	-9.305
虚無	-9.30571
名山	-9.30705
寫	-9.30803
名也	-9.30829
醫	-9.30831
不離	-9.30837
禱	-9.30846
動靜	-9.3085
十三	-9.30884
大夫	-9.31165
祅	-9.31586
繞	-9.31599
毎	-9.31613
者是	-9.31623
魂魄	-9.31638
得之	-9.31684
淪	-9.31882
北極	-9.32047
邈	-9.32232
慎	-9.32277
十一	-9.32333
知其	-9.32337
活	-9.3234
遐	-9.32341
神通	-9.32425
老子	-9.32473
南極	-9.32623
測	-9.32798
神氣	-9.32828
輪轉	-9.33042
亦有	-9.33062
朱陵	-9.33131
用之	-9.33147
名爲	-9.33239
嶺	-9.33374
淫	-9.33385
堪	-9.33414
幼	-9.3345
所居	-9.33626
救苦	-9.33709
幽棲曰	-9.3374
八方	-9.33747
謀	-9.33752
尊神	-9.33848
訖	-9.33905
自有	-9.34089
葬	-9.34139
祭	-9.34552
金光	-9.34831
骸	-9.34838
勢	-9.34848
玄元	-9.34872
六天	-9.34887
辨	-9.34895
邑	-9.34928
廢	-9.34929
雞	-9.34938
標	-9.34944
若能	-9.35056
此言	-9.35076
第五	-9.35109
五藏	-9.35114
弱	-9.353
携	-9.35314
子孫	-9.35519
風雨	-9.35544
白帝	-9.35669
伸	-9.35693
則爲	-9.35699
蓬萊	-9.35704
而無	-9.3592
功徳	-9.35955
睡	-9.36045
蘇	-9.36056
青帝	-9.36129
黄芽	-9.36139
方便	-9.3616
弟	-9.36182
孕	-9.3638
暢	-9.36428
富	-9.36437
五雷	-9.36552
不信	-9.36611
焚香	-9.36677
我今	-9.36744
訓	-9.36823
此乃	-9.36857
學人	-9.37023
一陽	-9.3713
祝曰	-9.37136
彭	-9.37242
七日	-9.37307
點	-9.37431
周天	-9.37459
誡	-9.37487
國土	-9.37551
虚无	-9.37583
度世	-9.37593
享	-9.37632
者乃	-9.37808
北帝	-9.3787
隱居	-9.38099
旱	-9.38312
旬	-9.38391
側	-9.38416
泛	-9.38438
升降	-9.38585
急急如	-9.3861
巧	-9.38729
冀	-9.38813
捧	-9.3883
亡魂	-9.38901
百年	-9.3891
六合	-9.39021
眇	-9.39087
覽	-9.39146
飄	-9.39168
掃	-9.39198
大神無鞅之衆浮空而至	-9.39212
烟	-9.39229
醜	-9.39328
悔	-9.39508
衞	-9.39577
折	-9.39577
而得	-9.39783
桑	-9.39917
行之	-9.39939
十七	-9.40046
鹿	-9.40298
纒	-9.40364
舒	-9.40373
偏	-9.40401
逹	-9.40412
元炁	-9.40547
正一	-9.40684
須臾	-9.40755
冷	-9.40776
翻	-9.40832
清虚	-9.41048
芳	-9.41136
腰	-9.41199
尅	-9.41208
千里	-9.41234
之名	-9.41362
下元	-9.41378
互	-9.41392
令人	-9.41459
開明	-9.41487
餌	-9.41499
拂	-9.41585
天王	-9.4169
僊	-9.41894
欣	-9.42002
虚皇	-9.42002
驛	-9.42036
然而	-9.42169
歎	-9.42255
炁吹	-9.42303
杜	-9.42451
二人	-9.42466
大丹	-9.42538
三洞	-9.42624
東曰	-9.42655
三百	-9.42687
握	-9.42744
圍	-9.42806
莫能	-9.42924
七十	-9.43075
絳宫	-9.43135
族	-9.43188
簿	-9.43234
者皆	-9.43238
夙	-9.43245
屍	-9.4328
之地	-9.43577
竭	-9.43605
太和	-9.43607
擇	-9.43623
神光	-9.43783
之物	-9.43806
受度	-9.4385
在人	-9.43926
道之	-9.43976
陀	-9.44008
之要	-9.44038
循	-9.44057
罷	-9.44062
仙官	-9.44112
八字	-9.44124
佑	-9.4413
天罡	-9.44215
行道	-9.44257
二炁	-9.44264
為	-9.44393
暴	-9.44406
寢	-9.44488
言之	-9.44533
赤明	-9.44582
宸	-9.44662
未嘗	-9.4477
杳	-9.4477
神人	-9.44806
慢	-9.44832
磨	-9.44856
鑑	-9.44858
憑	-9.44866
成就	-9.44915
隔	-9.45235
烹	-9.45299
百日	-9.45326
誕	-9.45338
何以	-9.45339
班	-9.45394
飢	-9.45727
蓮	-9.45845
季	-9.45934
也夫	-9.46014
之義	-9.46029
肇	-9.46128
内音	-9.46129
搯	-9.46162
人皆	-9.46171
殘	-9.46177
菴	-9.46221
工夫	-9.46247
行持	-9.46254
人有	-9.46283
草木	-9.46352
恍惚	-9.46562
閣	-9.46573
燕	-9.46604
薦	-9.46664
九年	-9.46722
視之	-9.46828
一月	-9.46941
頃	-9.46962
崖	-9.46966
大慈	-9.47076
不祥	-9.47081
至人	-9.47146
所在	-9.47172
三月	-9.47253
神呪	-9.47271
戊己	-9.47386
爛	-9.47391
柱	-9.47436
口訣	-9.47548
金華	-9.47611
萬象	-9.47655
玉字	-9.47693
入室	-9.47717
遭	-9.47887
溢	-9.47906
結成	-9.47908
之音	-9.4792
孰	-9.48021
天寳	-9.48136
遊行	-9.48139
淺	-9.4827
寒暑	-9.48277
是經	-9.48325
奕	-9.4865
支	-9.48718
竊	-9.48725
旌	-9.48746
第十	-9.48752
大小	-9.48773
局	-9.4882
疫	-9.48823
眞人曰	-9.48946
之心	-9.49153
脚	-9.49174
二物	-9.49285
功成	-9.49577
自然之	-9.49625
赫	-9.49625
劫運	-9.49635
俄	-9.49652
王母	-9.49686
函	-9.49697
我身	-9.49771
尸解	-9.49807
穀	-9.49865
仙翁	-9.49881
是名	-9.50031
憫	-9.50035
孟	-9.50037
遁	-9.50052
垢	-9.50054
延生	-9.50079
纏	-9.50081
輦	-9.50092
罪福	-9.50203
瘟	-9.50261
三塗	-9.50288
不知其	-9.50299
余	-9.50432
抽添	-9.50441
之用	-9.50451
託	-9.50496
窺	-9.505
晴	-9.50527
斧	-9.50535
南斗	-9.50551
金精	-9.50667
以成	-9.50866
甫	-9.50897
防	-9.50914
商	-9.50922
牙	-9.50999
伏願	-9.51007
億劫	-9.51039
修鍊	-9.51077
歡	-9.51298
第六	-9.51317
穿	-9.51337
溟	-9.51408
正月	-9.51662
姑	-9.51667
困	-9.51721
郁	-9.51779
膽	-9.51809
網	-9.51814
綿	-9.51844
爲人	-9.51857
圎	-9.51883
唵	-9.52021
之宗	-9.52028
之外	-9.52088
值	-9.52284
决	-9.5229
禪	-9.52333
嘆	-9.52346
人民	-9.52448
芽	-9.52559
丹陽	-9.52598
供	-9.52686
偃	-9.5273
之位	-9.52738
出於	-9.52865
之謂	-9.52932
姦	-9.53135
虞	-9.53189
不出	-9.53191
盧	-9.533
四海	-9.53406
南嶽	-9.53407
萬炁	-9.53426
玉晨	-9.53598
躍	-9.53621
併	-9.53636
无窮	-9.53677
叩齒	-9.53709
冬至	-9.53809
法輪	-9.53829
帝王	-9.5385
大乗	-9.53865
不識	-9.54085
皮	-9.54107
懇	-9.54119
捷	-9.54281
其人	-9.54393
學士	-9.54432
曰我	-9.54438
逮	-9.54533
纔	-9.54534
真君	-9.54589
呈	-9.54611
肆	-9.54613
揮	-9.54629
神化	-9.54632
諸法	-9.54638
由是	-9.54674
五月	-9.54747
生人	-9.54752
之際	-9.54925
壺	-9.55024
逃	-9.55028
兔	-9.55032
朕	-9.55037
額	-9.55062
穹	-9.55099
這	-9.55106
山川	-9.55357
當以	-9.55371
神炁	-9.55567
精氣	-9.55737
軀	-9.55919
廉	-9.55924
岸	-9.55951
俟	-9.55959
七月	-9.55984
劒	-9.56026
下方	-9.56274
均	-9.56372
而行	-9.56372
牧	-9.56379
五日	-9.56428
單	-9.56447
栢	-9.56476
靈文	-9.56519
眞經	-9.5655
分别	-9.56607
眞鉛	-9.56772
萬化	-9.56852
則有	-9.56856
眷	-9.56899
希夷	-9.56918
元精	-9.56954
之境	-9.57037
成道	-9.57051
十年	-9.57143
仙公	-9.57177
明堂	-9.57185
禽	-9.57302
九十	-9.57325
惜	-9.57366
墜	-9.57366
規	-9.57393
中元	-9.57402
无爲	-9.57629
萌	-9.57718
妙經	-9.57742
皆是	-9.57781
編	-9.57791
繒	-9.57802
欺	-9.57848
歡喜	-9.57851
焦	-9.57869
知之	-9.57886
天關	-9.58
稽	-9.58178
空中	-9.5824
牽	-9.58284
疏	-9.5829
雌	-9.58293
正氣	-9.58294
皈	-9.58295
太清樂	-9.58327
荒	-9.58331
罔	-9.58336
怨	-9.58342
百神	-9.58424
三田	-9.58454
色界	-9.58478
八月	-9.58566
姓名	-9.58582
文昌	-9.58693
躬	-9.58771
超度	-9.58772
忍	-9.58781
棺	-9.58782
嚥	-9.58807
丸	-9.58821
認	-9.58837
九色	-9.58842
十餘	-9.58854
膺	-9.58858
遲	-9.58879
歌曰	-9.58986
心不	-9.59162
一點	-9.59225
藴	-9.59264
墓	-9.59304
縛	-9.59336
允	-9.59357
六丁	-9.59372
元神	-9.59407
度命	-9.59427
眞道	-9.59443
不爲	-9.59503
禹	-9.59656
不在	-9.59687
僕	-9.59753
之曰	-9.59761
婁	-9.59776
此是	-9.5985
玄武	-9.59857
癘	-9.60067
不可思議	-9.60217
仕	-9.60244
之府	-9.60277
吉凶	-9.60286
几	-9.60294
八十一	-9.60502
豈非	-9.6054
平等	-9.60613
朽	-9.60648
亦復如是	-9.60712
爰	-9.60717
寥	-9.60763
潭	-9.60802
戴	-9.60812
牒	-9.60836
玉虚	-9.60845
无有	-9.60966
之始	-9.61019
萬物之	-9.61183
即得	-9.61216
頗	-9.61246
蓬	-9.61252
倫	-9.61284
奚	-9.61724
自生	-9.61742
蹤	-9.61806
闡	-9.61821
具足	-9.61913
飲食	-9.61962
白雲	-9.62016
金木	-9.62141
也又	-9.62168
漿	-9.62199
帛	-9.62213
攻	-9.62278
山林	-9.62294
第八	-9.6235
洞明	-9.62534
豈不	-9.62657
顛倒	-9.62668
旺	-9.62739
拱	-9.6278
挺	-9.62797
告下	-9.62877
何以故	-9.62944
第七	-9.62962
賤	-9.63162
鑪	-9.63218
寓	-9.63236
當知	-9.63278
甘露	-9.63305
九玄	-9.63409
利益	-9.63413
腸	-9.63417
靈書	-9.63541
之章	-9.63569
一曰	-9.63622
通靈	-9.63707
尹	-9.63743
擲	-9.63757
齡	-9.63776
呼吸	-9.63797
皇帝	-9.63802
使人	-9.63837
神君	-9.63988
天一	-9.64158
鑄	-9.64186
韻	-9.64188
騫	-9.64193
司馬	-9.6422
賦	-9.64222
戀	-9.64226
卑	-9.64227
毀	-9.64229
副	-9.64273
荷	-9.64289
正炁	-9.64315
丹砂	-9.64522
成眞	-9.64609
亦如	-9.6461
見其	-9.64623
丹成	-9.64633
生神	-9.64659
叩	-9.64761
稍	-9.64784
十過	-9.64889
報應	-9.65051
諸衆生	-9.65067
靈符	-9.65176
又以	-9.65178
黎	-9.65206
延壽	-9.65219
程	-9.65253
括	-9.65255
厥	-9.65263
齎	-9.65264
弗	-9.65278
軿	-9.65291
主人	-9.6532
虔	-9.65339
太陰	-9.65364
濟度	-9.65404
武帝	-9.65462
祖炁	-9.65588
復有	-9.65673
巍巍	-9.65794
彈	-9.6583
自己	-9.65835
其文	-9.65851
元陽	-9.65952
妙用	-9.65952
三宫	-9.66058
若不	-9.66098
前後	-9.66166
亦無	-9.66199
闢	-9.66308
鄭	-9.66325
祀	-9.66337
渾	-9.66347
撫	-9.66361
扶桑	-9.66372
一一	-9.66417
世之	-9.66448
大衆	-9.66475
開化	-9.66542
普度	-9.66719
一云	-9.66723
礙	-9.66751
正道	-9.66755
悉皆	-9.66764
鍊形	-9.66788
寡	-9.66813
皆有	-9.66847
儲	-9.66898
魅	-9.66918
子曰	-9.67155
與道	-9.67178
有三	-9.67248
手執	-9.67256
䇿	-9.67315
常以	-9.67318
賓	-9.67364
鎖	-9.67371
神也	-9.6738
據	-9.67404
洛	-9.67428
天丁	-9.67451
天宫	-9.67459
宫中	-9.67656
其身	-9.67657
之意	-9.67717
謙	-9.67854
庸	-9.67887
徘徊	-9.67905
飛天神王	-9.67917
火鈴	-9.67953
陽神	-9.68088
大魔	-9.68129
疾病	-9.68261
三素	-9.68282
扇	-9.68398
旗	-9.68444
船	-9.6856
上品	-9.68644
我等	-9.68772
人心	-9.68844
授以	-9.68909
革	-9.68928
與天地	-9.68974
二月	-9.68975
朱雀	-9.69018
神王長生大聖無量度人	-9.69167
洞房	-9.69188
不可得	-9.69222
之至	-9.69241
三一	-9.69254
道成	-9.69307
大將軍	-9.69395
日辰	-9.69454
紛	-9.69458
裳	-9.6947
其心	-9.69479
之體	-9.69493
囊	-9.69507
寳珠	-9.69563
玉童	-9.69643
故能	-9.69919
桂	-9.69991
藥物	-9.70002
卜	-9.70016
莊	-9.70083
不失	-9.70112
上皇	-9.7015
修之	-9.70272
東西	-9.70312
古今	-9.70322
魂神	-9.70344
聖胎	-9.70358
者爲	-9.70393
兄	-9.70492
伏以	-9.70497
缺	-9.70504
上仙	-9.70573
焰	-9.70583
靈光	-9.70584
囚	-9.70605
瀆	-9.70614
兇	-9.70678
河車	-9.70684
侍衛	-9.70695
人道	-9.70721
妙行	-9.70844
講	-9.71098
碑	-9.71106
増	-9.71201
數十	-9.71225
玄牝	-9.71234
畜	-9.71239
又云	-9.71325
以來	-9.71328
延年	-9.71366
一粒	-9.71411
太隂	-9.71464
無所不	-9.71516
某人	-9.71536
偈	-9.71622
繁	-9.71647
得一	-9.71694
陰符	-9.71704
大有	-9.71766
轟	-9.71774
東海	-9.71797
曰汝	-9.71857
華池	-9.71899
玄關	-9.71936
此天	-9.72009
消滅	-9.72127
愼	-9.72151
三百六十	-9.72187
睹	-9.72209
其道	-9.7224
鋒	-9.72255
上升	-9.72548
世世	-9.72585
靡	-9.72696
園	-9.72727
玉文	-9.72751
不成	-9.72759
猷	-9.72775
訟	-9.72816
無極無量品	-9.72822
三景	-9.72953
不足	-9.72962
少微曰	-9.7304
齋戒	-9.73146
赤書	-9.7315
无形	-9.73269
朴	-9.73271
展	-9.73276
受持	-9.73283
勉	-9.73283
安鎮	-9.73286
埋	-9.73381
眞火	-9.7346
衆眞	-9.73557
直符	-9.73633
上生	-9.73635
天元	-9.73647
五年	-9.73703
柳	-9.73769
白鶴	-9.73775
道經	-9.73819
呵	-9.73874
無邊	-9.73875
竈	-9.73912
一念	-9.73923
煩	-9.73945
不用	-9.73959
流行	-9.74116
青華	-9.7422
曰子	-9.74265
洞神	-9.74334
遏	-9.74378
采	-9.7441
枚	-9.74413
斡	-9.74422
鴻	-9.74432
案	-9.7447
而來	-9.74516
假令	-9.74831
時人	-9.74844
女子	-9.74898
箕	-9.74944
泣	-9.74953
曽	-9.74955
綿綿	-9.74962
僞	-9.74965
屈	-9.7497
逝	-9.74998
擒	-9.75029
以其	-9.75105
和合	-9.75105
道言	-9.75119
玉光	-9.75324
亦可	-9.75379
婆	-9.75447
元皇	-9.7549
曠	-9.75524
操	-9.75557
恨	-9.75588
便是	-9.75598
屢	-9.75605
銅	-9.75626
各一	-9.75707
天仙	-9.75799
幽魂	-9.75944
姹女	-9.7607
魯	-9.76147
神水	-9.76151
抵	-9.76158
黑帝	-9.76203
左手	-9.76352
五氣	-9.76359
无量度人	-9.76411
姤	-9.76605
之類	-9.76607
南北	-9.76612
灑	-9.76645
紫雲	-9.7666
健	-9.76689
眞形	-9.76702
探	-9.76717
秉	-9.76725
及諸	-9.76732
怠	-9.76746
好道	-9.76784
不覺	-9.76892
又有	-9.76951
太元	-9.77058
星君	-9.77124
役使	-9.77239
競	-9.77258
普告	-9.7727
鳯	-9.77295
憐	-9.77307
咽液	-9.77346
者以	-9.77354
紫虚	-9.77414
日月之	-9.77495
之文	-9.77579
白日	-9.7763
玄珠	-9.77696
丞	-9.77765
整	-9.77824
而言	-9.77848
添	-9.77856
而出	-9.7786
區	-9.77867
擁	-9.77883
富貴	-9.77899
𡨚	-9.77909
金甲	-9.78044
之道也	-9.78116
九霄	-9.78162
徃	-9.78261
姿	-9.78418
二氣	-9.7843
旁	-9.78432
耳目	-9.78444
熙	-9.78474
隅	-9.78486
巴	-9.78535
上方	-9.78586
帝一	-9.78616
洲	-9.78685
運度	-9.78705
於人	-9.78724
一心	-9.78738
百餘	-9.78743
元帥	-9.78757
黄籙	-9.78867
也其	-9.78868
穆	-9.7894
浄	-9.78986
焕	-9.78996
藉	-9.79005
億萬	-9.79015
溺	-9.79031
島	-9.79037
書符	-9.79044
敢有	-9.79074
寃	-9.79075
打	-9.79075
夫婦	-9.79178
天尊曰	-9.79201
日用	-9.79262
好生	-9.79306
神將	-9.79448
月中	-9.79495
其神	-9.79508
相生	-9.79529
四月	-9.79541
淡	-9.79572
耗	-9.7958
隸	-9.79606
星在	-9.79615
掠	-9.79616
倍	-9.79626
選	-9.79644
屏	-9.79657
乖	-9.79674
戈	-9.79692
饑	-9.79703
有道	-9.79744
天官	-9.79746
朝元	-9.80075
湛	-9.80076
此文	-9.80119
非有	-9.80138
能生	-9.80259
犬	-9.80276
西山	-9.80303
後世	-9.80326
安寧	-9.8033
斗中	-9.80331
玄妙	-9.80487
八百	-9.80566
諭	-9.80771
臍	-9.80844
裂	-9.80846
壘	-9.81042
之尊	-9.81164
八節	-9.81167
修齋	-9.81283
惱	-9.81301
雷神	-9.81338
陷	-9.81352
征	-9.81357
篤	-9.81402
傅	-9.81416
猿	-9.8142
死魂	-9.81424
亨	-9.81481
眠	-9.81483
濛	-9.81505
守一	-9.81534
施行	-9.81558
一旦	-9.81666
上道	-9.81668
功過	-9.81821
運用	-9.8186
九月	-9.81946
人以	-9.81948
筋	-9.81998
者則	-9.81998
氛	-9.82022
邦	-9.82025
楚	-9.82035
戮	-9.82048
項	-9.82053
癡	-9.82057
上宫	-9.82172
未有	-9.82249
五賊	-9.82296
六月	-9.82349
此法	-9.82353
風雷	-9.82472
循環	-9.82613
恣	-9.82616
衍	-9.82653
莫測	-9.82685
麻	-9.82686
治病	-9.82781
七返	-9.82809
五苦	-9.82856
九陽	-9.82883
三尸	-9.8289
難可	-9.82913
至于	-9.83051
者謂	-9.8306
抑	-9.83161
堯	-9.83166
八十	-9.83175
決	-9.83191
愍	-9.83195
十二月	-9.83196
賞	-9.83206
頻	-9.8321
悦	-9.83221
牀	-9.83223
保舉	-9.83226
祗	-9.8325
赤子	-9.83252
湘	-9.83267
紹	-9.83282
真符	-9.8329
皂	-9.83397
九靈	-9.83432
三關	-9.83442
上朝	-9.83586
大藥	-9.83588
天炁	-9.83717
別	-9.83762
正法	-9.83877
勒	-9.83889
爾時天尊	-9.83914
修道	-9.8394
之處	-9.83987
降眞	-9.84048
詩曰	-9.84093
玄明	-9.84188
大劫	-9.8425
無礙	-9.84393
峨	-9.84427
馥	-9.84437
昨	-9.84504
茶	-9.84537
爍	-9.84575
全眞	-9.84587
定録	-9.84591
凡人	-9.84608
清明	-9.84715
說經	-9.84732
不相	-9.84829
兩手	-9.84922
詩云	-9.85008
恬	-9.85041
玄師曰	-9.85132
躡	-9.85133
膏	-9.8515
帔	-9.85154
至此	-9.8519
導引	-9.85228
良乆	-9.85253
天皇	-9.85314
内有	-9.85347
閉目	-9.85394
八極	-9.85411
中黄	-9.85503
不聞	-9.85511
𩲸	-9.85663
五千	-9.85699
絲	-9.85709
凝神	-9.85736
有二	-9.8574
逼	-9.85746
靄	-9.85749
若人	-9.8575
覓	-9.85763
促	-9.85764
七年	-9.85898
無名	-9.85915
碧落	-9.85941
無復	-9.86175
之前	-9.86294
敎	-9.86315
森	-9.86327
眇眇	-9.86337
臭	-9.86354
蔽	-9.8637
倚	-9.86375
甲乙	-9.86389
馭	-9.86436
苦惱	-9.86511
兩儀	-9.86519
亦名	-9.86568
運行	-9.86579
譬如	-9.86595
皇人	-9.86696
故有	-9.86751
緯	-9.86801
右符	-9.86886
險	-9.86991
蔚	-9.87019
鄰	-9.87051
闊	-9.87055
其形	-9.87058
遽	-9.87081
湛然	-9.87108
陛下	-9.87109
五行之	-9.87189
陽精	-9.87333
場	-9.87364
道也	-9.87404
門人	-9.87575
消除	-9.87584
暑	-9.87652
研	-9.87658
肩	-9.8766
偉	-9.87672
亦非	-9.8789
一物	-9.87909
在心	-9.88099
湧	-9.88302
裙	-9.88315
哭	-9.88344
未能	-9.88381
崔	-9.88398
或有	-9.88473
吾今	-9.88492
不及	-9.88492
聞之	-9.8866
二八	-9.88669
神丹	-9.8879
大洞經	-9.88832
形神	-9.88911
辱	-9.88965
倉	-9.89013
進退	-9.89037
馘	-9.89066
二十八	-9.89202
四年	-9.89253
九日	-9.89361
圓明	-9.89454
也今	-9.89507
百里	-9.89538
謬	-9.8959
玉章	-9.8959
懴	-9.89596
徴	-9.89599
隠	-9.89602
恢	-9.89602
飾	-9.89608
煇	-9.89619
眞符	-9.89637
誦詠	-9.89647
練	-9.89665
金水	-9.89669
功行	-9.8968
片	-9.89681
千二百	-9.89955
可得	-9.89955
生身	-9.90019
重陽	-9.90051
福德	-9.90224
况	-9.90237
北方八天	-9.9027
符呪曰	-9.90292
鑿	-9.90314
之先	-9.90339
爲主	-9.90425
雷電	-9.9046
長春	-9.90461
十九	-9.90485
與之	-9.90601
在天	-9.90659
力士	-9.90773
能知	-9.90886
亢	-9.90901
佩之	-9.90904
沐	-9.90916
西方八天	-9.90941
▲▲	-9.90951
一十二	-9.91021
一寸	-9.91068
經法	-9.9109
大吉	-9.91183
金石	-9.91267
一卷	-9.91321
抱一	-9.91339
元始上帝	-9.91442
毁	-9.91547
减	-9.91571
擾	-9.91596
交媾	-9.91646
阜	-9.91686
米	-9.91744
學仙	-9.91854
玉宸	-9.91872
贊	-9.91951
周流	-9.92212
截	-9.92224
嵩	-9.92226
元洞	-9.92244
六根	-9.92251
華蓋	-9.92282
飈	-9.92306
進火	-9.92368
有五	-9.92402
萬人	-9.92474
三寸	-9.92592
蟾	-9.92683
南昌	-9.92759
内義曰	-9.9281
農	-9.92894
警	-9.92914
件	-9.92919
雅	-9.92931
度厄	-9.92947
殆	-9.92958
坦	-9.92965
頼	-9.92977
南方八天	-9.92977
二十七	-9.92993
八威	-9.93017
妙化	-9.93051
皇君	-9.93072
十五日	-9.93095
先生曰	-9.93114
吒	-9.93159
終不	-9.9328
陰陽之	-9.93402
神變	-9.93456
丹書	-9.93513
孚	-9.93559
鐘	-9.93577
垣	-9.93647
天文	-9.93651
築	-9.93655
熾	-9.93663
蘂	-9.93701
叱	-9.93753
玉音	-9.93975
威神	-9.93999
入於	-9.94047
斤	-9.94084
太眞	-9.9417
所說	-9.94202
誘	-9.94216
生天	-9.94246
掩	-9.9427
殻	-9.94272
仞	-9.94275
其事	-9.94279
拯	-9.94313
璧	-9.94335
驂	-9.94371
的	-9.94373
長跪	-9.94375
獅子	-9.94378
玄玄	-9.94392
何處	-9.94415
地仙	-9.94545
洞淵	-9.94562
内名	-9.94628
相交	-9.9464
千年	-9.94664
凡有	-9.9467
宗師	-9.94676
風火	-9.94724
與天	-9.94737
交合	-9.94742
下有	-9.94873
擬	-9.94929
海空智藏	-9.9493
飽	-9.94953
道法	-9.94965
劔	-9.95039
銜	-9.9504
鄧	-9.95068
準	-9.9511
身形	-9.95158
安樂	-9.95216
仙姑	-9.95328
消息	-9.95401
之源	-9.95424
髙眞	-9.9544
星辰	-9.95621
婬	-9.95646
汗	-9.95693
駐	-9.95703
刃	-9.95719
眞靈	-9.95746
口中	-9.9575
晃	-9.95759
丕	-9.95818
風雲	-9.95831
光照	-9.96077
太霄	-9.96119
主宰	-9.9614
得見	-9.9616
死生	-9.96178
之性	-9.96183
哲	-9.96268
莽	-9.96293
之身	-9.96384
粉	-9.96399
范	-9.96401
華山	-9.96406
巡	-9.96416
餐	-9.96421
迅	-9.96429
水府	-9.96439
内丹	-9.96521
主者	-9.96639
臣某	-9.96664
自是	-9.96666
上相	-9.96738
幽冥	-9.96782
百靈	-9.96839
七元	-9.96914
心中	-9.96947
上奏	-9.96972
无所	-9.96982
如意	-9.9705
濯	-9.97067
盲	-9.97071
勃	-9.97076
跨	-9.97094
借	-9.97096
托	-9.97111
流光	-9.97111
快	-9.97115
奴	-9.97119
緒	-9.97134
眷屬	-9.97142
介	-9.97154
成丹	-9.97257
洞清	-9.97272
威儀	-9.97294
子午	-9.97515
台	-9.97553
八難	-9.97612
太守	-9.9766
得聞	-9.97765
問曰	-9.97786
卓	-9.97828
謗	-9.97839
具位	-9.97864
大王	-9.9795
朱砂	-9.97957
山嶽	-9.98068
非人	-9.98086
本來	-9.98121
九州	-9.98169
猶如	-9.98203
之光	-9.98216
受生	-9.98278
在乎	-9.98334
精思	-9.98442
涉	-9.98445
出離	-9.9847
漱	-9.98495
枉	-9.98497
陽生	-9.98524
捕	-9.98527
法身	-9.98533
始生	-9.98643
東向	-9.98678
二百	-9.98716
太上道君	-9.9877
其間	-9.98806
五神	-9.98815
天蓬	-9.98868
食之	-9.9889
生生	-9.98915
各各	-9.98993
胎息	-9.99013
或問	-9.99018
眞誥	-9.99051
梵行	-9.9918
得仙	-9.99192
幢	-9.99211
賴	-9.99213
社	-9.99216
玉堂	-9.99224
神室	-9.99236
頑	-9.99241
橫	-9.99244
栖	-9.9927
煉度	-9.99273
一乘	-9.99397
與我	-9.99578
法門	-9.99669
未來	-9.99685
起死	-9.99709
剥	-9.99848
成仙	-9.99875
歟	-9.99886
兆身	-9.99933
嗟	-9.99958
叙	-9.99958
子時	-9.99962
涯	-9.9997
揺	-10.0002
幡	-10.0003
山下	-10.0005
碎	-10.0007
於天	-10.0009
句曲	-10.001
丹天	-10.0013
說法	-10.0025
中生	-10.0026
居之	-10.003
金門	-10.0031
三台	-10.0036
而行之	-10.0048
之狀	-10.0048
汲	-10.0064
吁	-10.0064
泯	-10.0067
愁	-10.0067
謫	-10.0068
急急	-10.0072
勇	-10.0072
伺	-10.0073
丙丁	-10.0076
弼	-10.008
宏	-10.0087
有大	-10.0089
无不	-10.0094
通玄	-10.0108
神風	-10.0109
九竅	-10.0123
欲界	-10.0128
橘	-10.0136
静	-10.0138
五百	-10.0138
不息	-10.0141
冶	-10.0142
抽	-10.0142
遼	-10.0147
闔	-10.0148
勵	-10.015
内諱	-10.0167
青衣	-10.0174
不絶	-10.0176
紫光	-10.0178
所有	-10.0178
一千	-10.0188
可謂	-10.0189
於物	-10.0197
成形	-10.02
次第	-10.0207
太華	-10.0208
材	-10.0216
煎	-10.0217
趨	-10.0217
百骸	-10.0222
袍	-10.0228
必有	-10.0229
化身	-10.0242
泉曲	-10.0243
善功	-10.0244
可不	-10.0258
帝諱	-10.0258
生化	-10.026
自此	-10.0262
以至	-10.0271
而至	-10.028
不行	-10.0281
受命	-10.0286
法界	-10.0287
琳	-10.029
掛	-10.0291
玉華	-10.0292
佳	-10.0293
剪	-10.0294
麟	-10.0294
枕	-10.0295
暎	-10.0295
岳	-10.0297
喬	-10.0298
尉	-10.0299
鼎器	-10.03
恊	-10.0301
之符	-10.0304
飲酒	-10.0307
夜半	-10.0307
符使	-10.0313
其色	-10.0316
採藥	-10.0331
白元	-10.0332
萬法	-10.0338
夏至	-10.0345
奉道	-10.0346
至尊	-10.0351
服食	-10.0358
公子	-10.036
凉	-10.0366
金液還丹	-10.0367
乳	-10.0369
排	-10.037
相見	-10.0375
靈章	-10.0384
一道	-10.0386
北酆	-10.0393
天尊歸命信禮	-10.0393
受鍊	-10.0396
四衆	-10.0402
解釋	-10.0403
天眞皇人	-10.0406
玉曆	-10.0409
南宮	-10.0414
何謂	-10.0414
百姓	-10.0421
眞陽	-10.0422
不受	-10.0426
制伏	-10.0427
敵	-10.0433
豁	-10.0437
刀圭	-10.044
大神无鞅之衆浮空而至	-10.0441
如法	-10.0444
黨	-10.0446
憲	-10.0446
漂	-10.0449
雖有	-10.0452
杳冥	-10.0459
有形	-10.0461
二儀	-10.0463
或爲	-10.0473
月華	-10.0473
内觀	-10.0475
天真	-10.0477
過去	-10.048
諸仙	-10.0482
▁(	-10.0483
三陽	-10.0495
出家	-10.0495
不食	-10.0504
聾	-10.0512
逾	-10.0518
六十四	-10.0518
濕	-10.0519
至真	-10.0521
究竟	-10.0522
仇	-10.0525
繩	-10.0525
寵	-10.0525
皆由	-10.0533
十餘年	-10.0546
九光	-10.0557
道備	-10.0561
方可	-10.0589
天台	-10.0592
筌	-10.0593
霐	-10.0594
蠲	-10.0594
三魂	-10.0594
三皇	-10.0595
冒	-10.0596
命門	-10.0598
四肢	-10.0598
低	-10.0599
渡	-10.0602
妙法	-10.0605
演說	-10.061
老人	-10.0615
不可以	-10.0617
云云	-10.0622
此章	-10.063
者亦	-10.0644
金籙	-10.0645
丹靈	-10.0645
時有	-10.0651
金鼎	-10.0658
剛柔	-10.0662
怡	-10.0671
寰	-10.0672
徊	-10.0672
邀	-10.0673
常存	-10.0673
尼	-10.0676
劵	-10.0676
蔡	-10.0677
存思	-10.0679
玉眞	-10.0683
減	-10.0685
此符	-10.0707
也故曰	-10.0714
從此	-10.0721
仙都	-10.0741
三境	-10.0742
闇	-10.0743
蛟	-10.0748
煮	-10.0748
思惟	-10.0751
渴	-10.0751
繡	-10.0752
此時	-10.0753
有人	-10.0757
太子	-10.076
有餘	-10.0767
入山	-10.0768
之難	-10.0772
白雪	-10.0794
二十五	-10.0805
五道	-10.0808
札	-10.0811
六十四卦	-10.0821
宇宙	-10.0824
模	-10.0828
斷絶	-10.0829
恃	-10.0832
鷄	-10.0834
構	-10.0839
叟	-10.084
勾	-10.084
從官	-10.0856
大千	-10.0871
九眞	-10.0881
五篇	-10.0887
聰	-10.0888
太白	-10.0889
洞眞	-10.0892
拔度	-10.0895
神符	-10.0903
卵	-10.0904
攀	-10.0905
話	-10.0907
乆之	-10.0907
窗	-10.0908
飯	-10.0909
叅	-10.0909
旅	-10.091
弄	-10.0914
文字	-10.0916
魁罡	-10.0919
靈風	-10.092
恭敬	-10.0921
温養	-10.0923
飛空	-10.0934
眞空	-10.0955
三十九	-10.0962
朱宫	-10.0964
丹經	-10.0966
變爲	-10.0972
後學	-10.0975
盻	-10.0986
神神	-10.0987
上陽子曰	-10.0988
衢	-10.0988
已上	-10.0989
懴悔	-10.0994
遶	-10.0994
虹	-10.0995
禦	-10.0998
頒	-10.0998
貺	-10.0999
夀	-10.1
飛神	-10.1001
璞	-10.1002
後天	-10.1004
之言	-10.1004
流精	-10.1029
八門	-10.103
不肯	-10.1031
造化之	-10.1036
如前	-10.1037
茅君	-10.1037
去來	-10.1038
七十二	-10.1043
四大	-10.1043
金書	-10.1045
消災	-10.1046
數百	-10.1055
宥	-10.1067
梯	-10.1067
邵	-10.1067
涕	-10.1069
詰	-10.1071
岡	-10.1072
浮黎	-10.1076
二十八宿	-10.1079
侍衞	-10.108
狀如	-10.1084
北都	-10.1087
梅	-10.1089
无色	-10.1104
歸於	-10.1114
生萬物	-10.1119
攝召	-10.112
洞靈	-10.1124
與人	-10.1128
玄中	-10.114
屯	-10.1143
念念	-10.1145
饒	-10.1146
膝	-10.1147
之方	-10.115
金玉	-10.1151
之災	-10.1157
村	-10.1159
祈禱	-10.1166
易曰	-10.1173
廣大	-10.1174
鍊丹	-10.1174
聰明	-10.1175
人所	-10.1176
日夜	-10.1176
也乃	-10.1204
愚人	-10.1207
法象	-10.1212
凝結	-10.1219
其言	-10.1222
八年	-10.1223
蠢	-10.1225
玉府	-10.1227
渺	-10.1228
是非	-10.1229
陣	-10.1229
匪	-10.1231
而下	-10.1231
古人	-10.1232
不言	-10.1233
恍	-10.1234
揖	-10.1236
郞	-10.1236
三人	-10.1236
奈何	-10.1239
心爲	-10.1245
平叔	-10.1247
堅固	-10.1247
武夷	-10.1249
浩劫	-10.1249
而復	-10.1254
飛雲	-10.1255
又問	-10.1262
公曰	-10.1281
則神	-10.1284
菩	-10.1297
明日	-10.1299
千萬	-10.1301
羲	-10.1307
乏	-10.1313
爲用	-10.1314
蒸	-10.1314
棗	-10.1315
矜	-10.1315
喉	-10.1316
津液	-10.1317
怖	-10.1317
徽	-10.1317
曷	-10.1318
轅	-10.1318
浴	-10.1318
之臺	-10.132
無方	-10.133
道場	-10.1342
之號	-10.1343
鈴	-10.1346
聖衆	-10.1359
紫清	-10.1364
匡	-10.1386
霍	-10.1391
麤	-10.1391
入道	-10.1394
罏	-10.14
郊	-10.1401
綵	-10.1402
費	-10.1402
眞元	-10.141
啼	-10.1413
上登	-10.1415
終日	-10.1416
冥冥	-10.1425
人知	-10.1427
朱履	-10.1433
藏於	-10.1447
威靈	-10.1455
作用	-10.1458
九壘	-10.1463
太无	-10.1468
不悟	-10.1473
桓	-10.1476
感應	-10.1479
韶	-10.148
不欲	-10.1481
崩	-10.1481
之說	-10.1481
神公	-10.1485
璫	-10.1486
優	-10.1486
百二十	-10.1488
寺	-10.1488
太歲	-10.1491
延康	-10.1493
靈童	-10.1494
黃帝	-10.1497
運轉	-10.1506
種民	-10.1512
元元	-10.1516
黄金	-10.1519
之徒	-10.1522
諸惡	-10.1525
一聲	-10.1529
追魂	-10.1543
三華	-10.1559
以應	-10.1561
悟眞篇	-10.1561
媒	-10.1563
綺	-10.1564
帀	-10.1565
軌	-10.1567
漫	-10.1567
灼	-10.1568
疆	-10.1568
眞藏	-10.1569
淑	-10.1569
眞水	-10.1571
荆	-10.1571
訶	-10.1573
七魄	-10.1576
根本	-10.1579
无復	-10.1581
遊宴	-10.1586
於道	-10.1594
下手	-10.1594
希有	-10.1596
譬	-10.1599
念呪	-10.1602
王君	-10.1606
其後	-10.1613
小人	-10.1614
真王	-10.1616
福堂	-10.1617
知此	-10.1629
飛騰	-10.1638
酆	-10.1639
在世	-10.164
生氣	-10.1641
生滅	-10.1642
分形	-10.1645
顚倒	-10.1648
傳授	-10.1649
寐	-10.165
粹	-10.1651
无極无量品	-10.1653
乃至	-10.1653
寳藏	-10.1655
骨肉	-10.1658
快樂	-10.166
寳經	-10.1661
發生	-10.1674
動而	-10.1677
龍王	-10.1681
東井	-10.1688
金童	-10.169
四百	-10.1695
紫府	-10.1702
水旱	-10.1703
不壞	-10.1709
赤炁	-10.171
玉闕	-10.1711
九龍	-10.1715
存想	-10.172
變成	-10.1724
忽然	-10.1727
五靈	-10.1729
將吏	-10.1736
兄弟	-10.1737
祚	-10.1738
醴	-10.1738
正陽	-10.174
氤氲	-10.1742
叩齒九通	-10.1746
九祖	-10.1746
褒	-10.1747
良久	-10.1749
収	-10.175
樵	-10.1753
飛玄	-10.1754
布施	-10.1775
受之	-10.1783
誦此經	-10.1785
安鎭	-10.1785
巳上	-10.1794
聖母	-10.1798
之力	-10.1805
言曰	-10.1808
不已	-10.181
㧞	-10.1811
溟涬	-10.1816
嘘	-10.1818
是知	-10.1819
紐	-10.1825
膀胱	-10.1825
朋	-10.1826
生炁	-10.1827
圃	-10.1829
異之	-10.1832
翊	-10.1833
對曰	-10.1838
道本	-10.1841
長生不死	-10.1846
宿命	-10.1854
河海	-10.1857
玉簡	-10.1861
二者	-10.1864
飛升	-10.1872
傳送	-10.1879
不過	-10.188
陽明	-10.1884
大定	-10.1895
胎仙	-10.1895
福地	-10.1896
大乘	-10.1903
泊	-10.191
至今	-10.1911
酬	-10.1911
奢	-10.1913
苗	-10.1914
應化	-10.1916
顛	-10.1918
鞭	-10.1918
豁落	-10.1919
澗	-10.1919
死者	-10.1925
衣服	-10.1926
家人	-10.1927
些	-10.1927
三十日	-10.1931
丞相	-10.1947
兆民	-10.1949
修煉	-10.1952
禍福	-10.1957
九地	-10.1958
非常	-10.1969
還元	-10.1976
以致	-10.1989
跪	-10.199
寳籙	-10.1993
燥	-10.1995
舜	-10.1998
赤文	-10.1998
徵	-10.1999
倏	-10.2003
笙	-10.2004
駭	-10.2006
拒	-10.2007
軸	-10.2007
肘	-10.201
合道	-10.2011
精炁	-10.2012
清齋	-10.2013
餓鬼	-10.2019
救苦天尊	-10.2021
十方无極	-10.2033
明月	-10.2035
唯願	-10.2036
皆當	-10.2038
玉液	-10.2039
不解	-10.2049
故得	-10.205
其功	-10.2053
葉士表曰	-10.207
一本	-10.2074
明皇	-10.2077
可見	-10.208
簫	-10.2087
後人	-10.2088
册	-10.2089
晩	-10.2093
熏	-10.2096
榖	-10.2097
翰	-10.2102
雍	-10.2103
杏	-10.2108
之象也	-10.2113
一百二十	-10.2122
自得	-10.2123
黄素	-10.2125
紫房	-10.2159
諒	-10.2176
蟠	-10.2177
憎	-10.2177
蒲	-10.218
炭	-10.218
臂	-10.2183
疊	-10.2184
邁	-10.2184
拾	-10.2185
之謂也	-10.2187
愧	-10.2187
地祇	-10.2189
冝	-10.219
燦	-10.2191
孽	-10.2191
嗔	-10.2195
仙眞	-10.2202
化成	-10.2204
不測	-10.2205
昇仙	-10.2205
五味	-10.2206
皆爲	-10.222
授之	-10.2226
萬事	-10.2236
不散	-10.2236
作禮	-10.2242
人物	-10.225
輪迴	-10.2256
有時	-10.2258
豫	-10.2258
石室	-10.2258
員	-10.2261
萬天	-10.2263
终	-10.2264
儻	-10.2265
三萬六千	-10.2266
之鬼	-10.2267
師云	-10.2267
肌	-10.2268
傲	-10.2269
笈	-10.2272
敦	-10.2276
成功	-10.2276
沸	-10.2276
不明	-10.2278
玉童玉女	-10.2279
蝗	-10.2281
眞精	-10.2283
北向	-10.2291
惡業	-10.2296
東嶽	-10.2311
丹元	-10.2313
中指	-10.2314
二景	-10.2321
薛	-10.2323
不起	-10.2323
於外	-10.233
朝禮	-10.233
常行	-10.2332
子母	-10.2336
洞照	-10.2339
之節	-10.235
十一月	-10.2352
度人經	-10.2354
九重	-10.2358
憶	-10.2358
割	-10.2359
慶雲	-10.2362
鈞	-10.2363
胸	-10.2363
殷	-10.2364
謾	-10.2364
銘	-10.2364
亘	-10.2365
鱗	-10.2365
賈	-10.2367
璇璣	-10.2367
轡	-10.2369
匱	-10.2369
之義也	-10.2372
下觀	-10.2373
所受	-10.2382
大將	-10.2385
罩	-10.2386
四極	-10.2386
陽氣	-10.2388
此皆	-10.2392
正音	-10.2395
天堂	-10.2396
七炁	-10.2408
衆妙	-10.2413
无邊	-10.2413
觀之	-10.2419
存焉	-10.242
既濟	-10.243
聲色	-10.2438
其下	-10.2447
六府	-10.2447
啖	-10.2454
鄙	-10.2454
雀	-10.2454
艱	-10.2455
躋	-10.2457
孩	-10.2459
倦	-10.2461
道炁	-10.2474
春秋	-10.2476
碧霞	-10.2486
歸一	-10.249
豈有	-10.2517
賣	-10.2537
例	-10.2541
歛	-10.2543
苑	-10.2544
白日昇天	-10.2545
暖	-10.2551
瓦	-10.2552
洒	-10.2553
閬	-10.2553
白炁	-10.2555
製	-10.2557
滄	-10.2558
門下	-10.2567
頓首	-10.2569
天下之	-10.2571
萬年	-10.258
昇入	-10.2603
紫霄	-10.2613
之聲	-10.2614
谷神	-10.2622
而退	-10.2623
生靈	-10.2623
寂然	-10.263
陽光	-10.2636
洞虚	-10.2637
寜	-10.2638
三茅	-10.2639
浸	-10.264
匿	-10.2641
奸	-10.2644
粗	-10.2644
也蓋	-10.2645
妾	-10.2647
經典	-10.265
袖	-10.2651
晚	-10.2652
之㫖	-10.2653
搜	-10.2655
无礙	-10.2659
高眞	-10.2662
吽	-10.2665
太上老君	-10.2672
右手	-10.2693
群生	-10.2697
泰山	-10.2698
牝	-10.2711
洞府	-10.2715
廬山	-10.2719
隱顯	-10.2723
記名	-10.2725
嗜	-10.2726
陽炁	-10.2727
高上	-10.2733
窈	-10.2735
窟	-10.2736
踐	-10.2736
君臣	-10.2737
昆	-10.2739
弊	-10.2744
卯酉	-10.2744
做	-10.2744
亶	-10.2744
壬癸	-10.2744
翹	-10.2748
黄婆	-10.2748
歷世眞仙體道通鑑卷之	-10.2749
筵	-10.275
薩	-10.2752
地官	-10.2758
流珠	-10.2759
祟	-10.276
之色	-10.2762
之魂	-10.277
天地萬物	-10.2781
凡夫	-10.2781
玄微	-10.2784
學之士	-10.2797
至誠	-10.2816
五符	-10.2821
成數	-10.2822
耽	-10.2823
微塵	-10.2832
玊	-10.2832
勤行	-10.2833
耕	-10.2834
换	-10.2835
東斗	-10.2836
伊	-10.2836
扉	-10.2836
詐	-10.2837
說是	-10.2839
所言	-10.2842
侣	-10.2842
禧	-10.2842
第九	-10.2842
苦爽	-10.2842
亦曰	-10.2844
板	-10.2845
鉞	-10.2847
六年	-10.29
至聖	-10.2907
太初	-10.2909
亦是	-10.291
功滿	-10.2912
復還	-10.2914
十轉	-10.2919
黍	-10.2924
离	-10.2925
蠱	-10.2929
聞其	-10.293
崑	-10.2931
買	-10.2932
乍	-10.2932
蜕	-10.2934
算	-10.2935
扣	-10.2937
入口	-10.2938
釣	-10.2939
床	-10.2939
瓶	-10.2939
軫	-10.2939
狼	-10.2942
羣生	-10.2942
皈依	-10.2951
森羅	-10.2954
不傳	-10.296
靈根	-10.2965
眞土	-10.2969
午時	-10.2969
至神	-10.2971
明年	-10.2972
尚書	-10.2975
道性	-10.2979
玉清樂	-10.2984
吏兵	-10.2989
河圖	-10.2991
己身	-10.2991
萬變	-10.2994
京師	-10.2994
若是	-10.2997
鬼官	-10.2999
謹請	-10.3001
之主	-10.3014
名字	-10.3014
謡	-10.3017
以是因縁	-10.3023
青童	-10.3024
級	-10.3029
秩	-10.303
奮	-10.3031
胥	-10.3031
相合	-10.3031
使之	-10.3035
譚	-10.3037
霑	-10.3037
西王母	-10.3038
蔣	-10.3039
各三十二人	-10.3041
五臓	-10.3042
室中	-10.3049
無間	-10.3049
敷落	-10.3057
隱名	-10.3057
仙君	-10.3058
館主	-10.3062
尊師	-10.3062
長安	-10.3071
圓滿	-10.3073
端坐	-10.3075
羽蓋	-10.3082
靈飛	-10.3083
終始	-10.3084
無色	-10.3096
乘雲	-10.3105
召靈	-10.3107
歸命	-10.3116
塊	-10.3124
䟽	-10.3126
爵	-10.313
有異	-10.3132
逕	-10.3132
踏	-10.3132
襲	-10.3134
尾閭	-10.3135
不須	-10.3136
鬚	-10.314
道光曰	-10.314
流鈴	-10.3146
群仙	-10.3149
唎	-10.3153
以示	-10.3161
鍾離	-10.3167
水官	-10.3171
中間	-10.3181
法相	-10.3195
開悟	-10.3197
刀山	-10.3197
運火	-10.3208
登眞	-10.3213
志心朝禮	-10.3222
淮	-10.3222
唾	-10.3225
狗	-10.3226
准	-10.3227
撓	-10.3229
阻	-10.3231
段	-10.3232
精血	-10.3232
中嶽	-10.3233
庚辛	-10.3233
療	-10.3233
忽有	-10.3234
洋	-10.3235
譴	-10.3236
蕩蕩	-10.3236
有情	-10.3239
千餘	-10.324
五雲	-10.3256
經上清	-10.3259
若非	-10.3261
眞人志心朝禮	-10.3261
教化	-10.3262
是一病	-10.3265
仙王	-10.327
未知	-10.3275
日精	-10.3275
隱諱	-10.3282
數日	-10.3282
調和	-10.3285
衆聖	-10.3288
人鬼	-10.3293
下丹田	-10.3293
東極	-10.3305
地下	-10.3308
星宿	-10.3325
四十九	-10.3328
奎	-10.3329
長年	-10.3331
騫林	-10.3331
金龍	-10.3333
貨	-10.3334
峻	-10.3335
銷	-10.3337
玄都四極明科曰	-10.3339
青玄	-10.3347
只是	-10.3349
洞觀	-10.3354
其理	-10.3356
始青	-10.3361
生民	-10.3364
制魔	-10.3369
遠近	-10.3373
神兵	-10.3384
太宗	-10.3385
自稱	-10.3391
少陽	-10.3395
卷下	-10.34
不必	-10.3405
寬	-10.342
精華	-10.3425
泠	-10.3429
吉祥檀熾鈞	-10.3429
腥	-10.3433
陞	-10.3435
跛	-10.3436
債	-10.3438
懿	-10.3438
攸	-10.3439
遮	-10.3439
萬鬼	-10.344
淸	-10.344
復命	-10.3441
控	-10.3442
玄冥	-10.3443
炳	-10.3444
勘	-10.3447
靈寳大法	-10.3448
洞視	-10.345
釋氏	-10.345
殊不知	-10.3459
爲一藥	-10.3463
求道	-10.3469
歸根	-10.3481
肯	-10.3481
生殺	-10.3485
相剋	-10.3486
書云	-10.3493
天魔	-10.3497
九華	-10.3499
離宫	-10.3499
豈知	-10.3502
中斗	-10.3508
未盡	-10.3517
者蓋	-10.3522
精進	-10.3524
析	-10.3527
拙	-10.3528
愚癡	-10.3529
九皇	-10.3531
子良	-10.3532
縱横	-10.3536
裝	-10.3537
換	-10.3537
日魂	-10.3541
圭	-10.3541
頃刻	-10.3546
無鞅之衆	-10.3547
殄	-10.3548
煌	-10.3548
痾	-10.3549
海蟾	-10.3552
笑曰	-10.3554
始皇	-10.3554
玉札	-10.3555
使我	-10.3555
彌羅	-10.3556
列言	-10.356
天中之	-10.3564
元始符命	-10.3575
九宮	-10.3597
復歸	-10.3598
救度	-10.3599
敕命	-10.3602
不勝	-10.3628
二千	-10.3629
當時	-10.3638
藍	-10.364
潮	-10.3643
內	-10.3643
醒	-10.3644
之子	-10.3645
異名	-10.3645
渠	-10.3649
亮	-10.3651
形容	-10.3652
萬丈	-10.3654
洽	-10.3656
一斤	-10.3656
受苦	-10.3657
飛龍	-10.3661
无色界	-10.3662
年月日時	-10.3666
風刀	-10.3678
三塗五苦	-10.3684
流通	-10.3687
皆從	-10.369
寳章	-10.3693
西華	-10.371
青城	-10.3712
長史	-10.3713
神功	-10.3714
上詣	-10.372
天尊言	-10.3724
異香	-10.3724
玄宗	-10.3728
玉房	-10.3732
歸依	-10.3736
萬聖	-10.3737
諦	-10.3742
抗	-10.3744
教人	-10.3745
拳	-10.3748
髪	-10.3749
杯	-10.3749
墳	-10.3752
他人	-10.3753
轄	-10.3754
黒帝	-10.3756
泓	-10.3766
禮拜	-10.3767
得長生	-10.3778
昇遷	-10.3779
得遇	-10.378
一徧	-10.378
人世	-10.3787
呪畢	-10.3791
訣曰	-10.3796
之山	-10.3797
光華	-10.3797
眞官	-10.3801
清濁	-10.3806
玉清訣	-10.3808
方寸	-10.3812
火急	-10.3815
十天	-10.3825
到此	-10.384
不容	-10.3844
壑	-10.3845
巢	-10.3846
黄老	-10.3847
梨	-10.3849
顏	-10.3849
涵	-10.385
蟬	-10.385
潰	-10.3851
子野曰	-10.3853
迷惑	-10.3854
惶	-10.3855
藹	-10.3855
䝉	-10.3856
至妙	-10.3856
鞅	-10.3859
髻	-10.386
馮	-10.3864
日月星辰	-10.3865
故名	-10.3865
反覆	-10.387
夫妻	-10.3873
衣冠	-10.3874
間隔	-10.3874
二十一	-10.3882
若見	-10.3883
修持	-10.3905
妙行眞人	-10.3906
吉祥	-10.3913
柄	-10.392
言訖	-10.3923
十徧	-10.3928
國王	-10.3935
纓	-10.3949
持符	-10.3951
黄炁	-10.3953
火輪	-10.3954
養生	-10.3955
剖	-10.3955
穩	-10.3957
邇	-10.396
蔭	-10.3963
宵	-10.3964
梓	-10.3964
歴	-10.3965
熒	-10.3966
黍米	-10.3967
㝷	-10.3967
至眞大神無鞅之衆浮空而至	-10.3969
安得	-10.3969
狐	-10.3972
可知	-10.3976
臣等	-10.3986
鍊神	-10.3998
中指中	-10.4004
勿令	-10.4009
白素	-10.4014
下鬼	-10.4017
紫炁	-10.4024
開通	-10.4024
身體	-10.4032
徙	-10.4061
妨	-10.4062
陰德	-10.4062
飬	-10.4063
五斗	-10.4064
匠	-10.4065
擔	-10.4068
畔	-10.4069
道術	-10.4072
帳	-10.4073
靣	-10.4073
瀛	-10.4074
交會	-10.4074
柯	-10.4074
峙	-10.4076
團	-10.4076
迸	-10.4079
系	-10.4081
永離	-10.4081
脱胎	-10.4083
吕曰	-10.4087
輕泄	-10.4087
邪精	-10.411
口舌	-10.4111
離合	-10.4133
孔子	-10.4135
太皇	-10.4142
永無	-10.4142
隱語	-10.4143
異人	-10.4151
紫金	-10.416
開圖	-10.4163
滓	-10.417
曇	-10.4174
褐	-10.4174
縷	-10.4174
芬	-10.4176
賛	-10.4177
鬰	-10.4178
摶	-10.4179
伴	-10.4179
蹈	-10.4181
嗚	-10.4181
玩	-10.4182
仙籍	-10.4186
熒惑	-10.4187
畜生	-10.4187
聳	-10.4188
无常	-10.4194
始終	-10.42
運化	-10.4201
混洞	-10.4208
速降	-10.4212
不干	-10.4216
妙理	-10.4224
十二時	-10.4251
真炁	-10.4261
俱入	-10.4266
玉訣	-10.4267
三尺	-10.4274
流火	-10.4285
罕	-10.4288
縳	-10.4288
外藥	-10.4289
三要	-10.429
最上	-10.4291
普度天人	-10.4291
匝	-10.4294
長生大君	-10.4294
唤	-10.4297
鍊成	-10.4297
三業	-10.4301
塚	-10.4302
照耀	-10.4303
雖然	-10.431
養氣	-10.4312
妄想	-10.4312
玄臺	-10.432
无英	-10.432
眞實	-10.4328
顔色	-10.433
孰能	-10.4348
門户	-10.4351
忽見	-10.4359
二十二	-10.437
還山	-10.4371
三辰	-10.4382
高士	-10.4386
方外	-10.4392
鈎	-10.4393
元始天王	-10.4395
存亡	-10.4397
諧	-10.4398
膚	-10.4398
扃	-10.4399
董	-10.4399
填	-10.4401
皎	-10.4402
過度	-10.4403
厲	-10.4404
聦	-10.4405
陋	-10.4405
雹	-10.4406
赫奕	-10.4406
儼	-10.4406
塘	-10.4406
縮	-10.4407
彦	-10.4408
猛獸	-10.4409
緘	-10.4409
白簡	-10.441
閱	-10.441
叢	-10.4413
隱韻	-10.4415
百千萬	-10.4416
擲火	-10.4416
俯仰	-10.4418
虬	-10.4419
父子	-10.4427
從來	-10.443
感通	-10.4435
言語	-10.4449
邪魔	-10.4463
悟道	-10.4465
雷火	-10.4466
未聞	-10.4467
天樞	-10.4469
來迎	-10.4474
蓮花	-10.4474
火車	-10.4476
分野	-10.4485
金母	-10.4487
臟	-10.4496
腑	-10.4508
常住	-10.4509
四司	-10.4511
瓜	-10.4511
汙	-10.4511
絹	-10.4511
挹	-10.4512
酸	-10.4512
稼	-10.4513
零	-10.4513
羅浮	-10.4514
黄華	-10.4516
稚	-10.4517
晏	-10.4522
蝕	-10.4523
吐納	-10.4531
莫知其	-10.4534
表裏	-10.4536
靈臺	-10.455
社令	-10.4552
沖和	-10.4552
禳災	-10.4566
昊	-10.4568
一身之	-10.457
十里	-10.4576
或云	-10.4591
法籙	-10.4597
鍊度	-10.4597
未幾	-10.4601
洞徹	-10.4602
七曜	-10.4606
妻子	-10.4612
偷	-10.4615
攬	-10.4615
綂	-10.4616
黄帝陰符經	-10.4617
少年	-10.4619
但見	-10.4622
西斗	-10.4623
蓊	-10.4624
諫	-10.4625
桐	-10.4626
天曹	-10.4627
翫	-10.463
該	-10.463
壤	-10.4631
摇	-10.4634
薰	-10.4634
幽夜	-10.4634
娥	-10.4637
术	-10.4639
葆	-10.4641
事畢	-10.4643
至真大神無鞅之衆浮空而至	-10.4646
孛	-10.4656
服氣	-10.4682
粒	-10.4686
若夫	-10.4732
軒轅	-10.4738
頂門	-10.4741
渺渺	-10.4743
鼠	-10.4743
二十九	-10.4745
阮	-10.4746
鳥獸	-10.4747
他日	-10.4748
籟	-10.4749
一如告命	-10.475
霓	-10.475
衷	-10.4752
紫庭	-10.4755
高宗	-10.4758
眄	-10.476
互相	-10.4789
衣食	-10.4791
周迴	-10.4792
輕舉	-10.4802
壽命	-10.4806
冲和	-10.4806
昊天	-10.4807
執法	-10.481
貴人	-10.4813
六畜	-10.4818
離坎	-10.482
形體	-10.4835
瑛	-10.4856
遯	-10.4858
少女	-10.486
長生久視	-10.4863
一國男女	-10.4864
遨	-10.4866
陟	-10.4867
紋	-10.4867
䕃	-10.4868
豪	-10.4868
禎	-10.487
無量度人上品妙經	-10.487
幅	-10.4871
檄	-10.4872
遜	-10.4872
酌	-10.4873
物外	-10.4878
長齋	-10.4879
韋	-10.4881
隱書	-10.4885
將來	-10.4887
多少	-10.4895
聖師	-10.4899
政和	-10.4901
天眞皇人曰	-10.4908
春夏	-10.4914
進士	-10.4918
者何也	-10.4923
陽之炁	-10.4933
通達	-10.4951
煉丹	-10.4952
莊子	-10.4959
消魔	-10.4964
祝云	-10.4964
頥	-10.4971
戎	-10.4976
踵	-10.4977
銖	-10.4978
踰	-10.4978
遞	-10.4978
聖賢	-10.4978
薪	-10.4982
叩齒三通	-10.4983
依法	-10.4985
纖	-10.4988
霆	-10.4989
裕	-10.4993
謝以聞	-10.4994
涼	-10.4994
萬二千	-10.4997
修丹	-10.5014
滅度	-10.5027
西嶽	-10.503
時刻	-10.5035
五穀	-10.5035
昇度	-10.5051
返本	-10.5053
五苦八難	-10.5062
萬民	-10.5071
黄房	-10.5081
道之人	-10.5088
佩服	-10.5092
戍	-10.5092
裹	-10.5093
矯	-10.5097
舘	-10.5099
墟	-10.5101
斬邪	-10.5103
冨	-10.5104
驕	-10.5105
冕	-10.5105
僚	-10.5106
紛紛	-10.5112
璃	-10.5113
嫌	-10.5115
降伏	-10.5129
轉輪	-10.5133
欻火	-10.5139
流傳	-10.514
月魄	-10.515
殺害	-10.5153
神后	-10.5161
群魔	-10.5162
不退	-10.5175
豈能	-10.5188
説經	-10.519
地户	-10.5199
之數也	-10.5203
魔鬼	-10.5206
本性	-10.521
求仙	-10.5216
濫	-10.5217
風吹	-10.5219
眀	-10.522
冤	-10.5221
玄壇	-10.5223
脂	-10.5223
屬陰	-10.5223
踈	-10.5224
挑	-10.5224
大梵隱語	-10.5225
滴	-10.5226
麾	-10.5227
麽	-10.5227
赫赫	-10.5227
諷	-10.5228
押	-10.5229
抛	-10.5229
龜蛇	-10.5234
蹟	-10.5237
參同契曰	-10.5237
播	-10.5238
喫	-10.5242
甲申	-10.5253
現形	-10.526
劄	-10.526
玉蟾	-10.5262
境界	-10.5265
受煉	-10.5282
諸侯	-10.5305
往往	-10.5309
羅列	-10.5313
參同契	-10.5314
一夕	-10.5321
碧玉	-10.5322
玉樞	-10.5325
七世	-10.5328
酷	-10.5336
汞鉛	-10.5339
陁	-10.534
運動	-10.5341
鵲	-10.5341
緩	-10.5343
糧	-10.5343
詢	-10.5344
織	-10.5344
挈	-10.5345
讃歎	-10.5346
洎	-10.5347
偕	-10.5348
物物	-10.5349
閭	-10.535
庫	-10.5351
百歲	-10.5352
凖	-10.5353
捐	-10.5353
萬福	-10.5353
緬	-10.5353
簇	-10.5354
姬	-10.5354
不免	-10.5354
忿	-10.5355
襟	-10.5355
男子	-10.5356
價	-10.5356
永保	-10.5357
沓	-10.5357
弓	-10.5357
漸漸	-10.5358
次存	-10.5361
九江	-10.5364
祛	-10.5364
呪詛	-10.5367
浮沉	-10.5375
號令	-10.5392
情性	-10.5395
修習	-10.5404
贊曰	-10.5417
袁公輔曰	-10.5454
玄英曰	-10.5457
塵世	-10.5458
蠶	-10.547
昩	-10.5471
榜	-10.5471
斥	-10.5471
欲求	-10.5473
祉	-10.5478
刺	-10.5479
油	-10.5484
桃康	-10.5484
紏	-10.5485
激切之至謹奉表	-10.5487
戾	-10.5487
混融	-10.5487
杳㝠	-10.5489
未可	-10.549
升入	-10.5491
侍郎	-10.5505
秋冬	-10.551
視聽	-10.5518
姓某	-10.5521
總領	-10.5524
罪魂	-10.5524
樞機	-10.5527
採取	-10.5529
寂滅	-10.5535
女青	-10.5538
要知	-10.5541
雲霞	-10.5576
亦當修齋行香誦經	-10.5579
勝先	-10.558
伏藏	-10.5583
太霞	-10.5595
歇	-10.5596
讚	-10.5598
不知何許人	-10.56
罄	-10.5602
寇	-10.5602
縈	-10.5603
誨	-10.5603
暇	-10.5604
所以爾者	-10.5605
汝今	-10.5606
賜號	-10.5609
稟	-10.5611
噴	-10.5614
亟	-10.5615
豈可	-10.5615
痊	-10.5618
禹餘	-10.5619
庚申	-10.5619
金蓮	-10.5622
慧光	-10.5625
所治	-10.5627
五寸	-10.563
接引	-10.5634
節度	-10.564
無差	-10.5649
煥明	-10.5649
无量度人上品妙經卷之	-10.5655
護持	-10.5658
周易	-10.5672
羽衣	-10.5681
小吉	-10.5684
七轉	-10.5695
浮空	-10.5716
圓象	-10.572
迫	-10.572
風澤	-10.5724
虎嘯	-10.5724
善男子譬如	-10.5725
廷	-10.5726
儉	-10.5728
沉淪	-10.5732
忙	-10.5732
笛	-10.5733
貼	-10.5742
聖境	-10.5757
行於世	-10.5777
疾速	-10.5778
朱衣	-10.5785
先須	-10.5806
符吏	-10.5823
輕重	-10.5833
欻	-10.5837
二十三	-10.5838
无極飛天神王長生大聖无量度人	-10.5844
伍	-10.5852
浮空而至	-10.5853
一乘海空	-10.5855
萃	-10.5856
兀	-10.5856
夾	-10.5856
討	-10.5857
屠	-10.586
諦聽	-10.5861
劣	-10.5861
說經十遍	-10.5862
鑊湯	-10.5863
繪	-10.5863
閻	-10.5864
官吏	-10.5869
督	-10.5871
胞胎	-10.5876
魔試	-10.588
不知所在	-10.588
娑	-10.5883
萬類	-10.5883
囉	-10.589
髙上神霄	-10.5895
洛書	-10.5907
婦人	-10.5914
卷之四	-10.5924
侍女	-10.5941
赤城	-10.595
寂寂	-10.5974
急急如律令召	-10.598
懶	-10.5981
始青天	-10.5985
訝	-10.5988
隻	-10.5988
巫	-10.5988
柏	-10.5989
籠	-10.599
緣	-10.5991
讎	-10.5992
幹	-10.5994
形神俱妙	-10.5995
俞	-10.5996
翅	-10.5996
笥	-10.5997
䖍	-10.6001
歡樂	-10.6001
南昌上宫	-10.6005
圓光	-10.6009
此之謂也	-10.6017
仙品	-10.6022
含眞	-10.6028
小兒	-10.6028
一本作	-10.6031
依科	-10.6042
財物	-10.6043
神僊	-10.6047
皇后	-10.6049
靈寶	-10.6075
地戸	-10.6088
老子曰	-10.6099
一片	-10.6105
平坐	-10.6109
形質	-10.6109
歷劫	-10.6113
瀟	-10.6114
遣使	-10.6115
太始	-10.6115
噫	-10.6118
三千六百	-10.6118
鵠	-10.6122
埃	-10.6123
較	-10.6123
萬魔	-10.6123
晉	-10.6125
挾	-10.6125
擎	-10.6128
彚	-10.6128
檀	-10.613
日月星宿	-10.613
懽	-10.6132
掾	-10.6133
濃	-10.6135
紫微宫	-10.6152
到處	-10.6152
妖精	-10.6164
休息	-10.6169
洞煥	-10.6183
光映	-10.6199
卷之五	-10.6221
交感	-10.6249
臘	-10.6254
詮	-10.6258
賁	-10.6259
槁	-10.626
梧	-10.626
穎	-10.626
說經九遍	-10.6264
城隍	-10.6266
疲	-10.6266
熈	-10.6268
永斷	-10.6269
衮	-10.6272
閒	-10.6274
天尊說	-10.6274
噀	-10.6278
服餌	-10.6284
叉	-10.6287
與道合眞	-10.6294
金陵	-10.6302
善哉	-10.631
功夫	-10.6353
玉池	-10.638
茍	-10.6382
嫁	-10.6383
襌	-10.6388
膜	-10.6388
谿	-10.6389
媾	-10.639
芥	-10.639
宣和	-10.6391
鼔	-10.6394
墻	-10.6396
攺	-10.6396
斑	-10.6398
燼	-10.6399
說經八遍	-10.64
沾	-10.64
說經七遍	-10.64
溥	-10.6401
裔	-10.6402
皆即受度	-10.6404
街	-10.6412
叩頭	-10.6412
慈尊	-10.6419
根源	-10.6421
品訣在	-10.6427
坐卧	-10.6427
雷雨	-10.6429
統御	-10.6432
卷之二	-10.6436
煙霞	-10.6445
河源	-10.645
景霄	-10.6453
妹	-10.6524
頤	-10.6525
甚多	-10.6534
囑	-10.6534
廕	-10.6535
顆	-10.6535
屠割	-10.6535
貢	-10.6537
韜	-10.6537
厨	-10.6538
無鞅數衆	-10.6539
說經三遍	-10.6539
獵	-10.6539
金銀	-10.6541
福地仙官聖衆	-10.6543
飄飄	-10.6543
手足	-10.6545
僅	-10.6546
眉間	-10.656
神祇	-10.6566
春分	-10.6574
經緯	-10.6576
月十五日	-10.6592
黄紙	-10.6593
金晶	-10.6598
不足以	-10.6603
紫皇	-10.6657
羣仙	-10.6667
輻	-10.6671
誦呪	-10.6672
脊	-10.6672
創	-10.6675
簾	-10.6677
肥	-10.6678
竇	-10.6679
歘	-10.668
說經四遍	-10.668
矢	-10.668
說經六遍	-10.668
說經二遍	-10.668
閏	-10.6681
澆	-10.6683
贖	-10.6683
十月長齋誦詠是經	-10.6685
派	-10.669
撼	-10.6695
歎曰	-10.6709
崇寧	-10.6724
下弦	-10.673
玄洲	-10.6731
悟解	-10.6747
二十年	-10.6754
四維	-10.6764
飛歩	-10.6767
六爻	-10.677
澄清	-10.6771
甚深	-10.6774
玉隆	-10.6784
散花	-10.6799
蠻	-10.6814
大哀天尊	-10.6815
宦	-10.6815
雌雄	-10.6816
妬	-10.6816
婚	-10.6817
捲	-10.6818
𨽻	-10.6818
菜	-10.6819
匹	-10.6821
說經五遍	-10.6821
撥	-10.6821
碧落空歌	-10.6822
倘	-10.6822
囘	-10.6823
替	-10.6823
甞	-10.6824
幕	-10.6825
態	-10.6825
旙	-10.6826
濤	-10.6826
七月長齋誦詠是經	-10.6827
無任感幸	-10.6831
宫殿	-10.6843
百關	-10.6845
玉珮	-10.6846
筆書	-10.6858
一百八十	-10.6863
白天尊言	-10.6869
四季	-10.6872
七竅	-10.6873
甲午	-10.6873
讀誦	-10.6876
九醜	-10.6886
勲	-10.6903
小童	-10.6916
雲篆	-10.692
二十六	-10.6948
争	-10.6952
汎	-10.6953
漆	-10.6954
誹謗	-10.6962
襄	-10.6963
辦	-10.6964
隱祕之音	-10.6965
玃	-10.6965
拈	-10.6966
沃	-10.6967
當此之時	-10.6968
猪	-10.6968
搏	-10.697
幘	-10.6971
協	-10.6972
鹽	-10.6972
重陽祖師	-10.6972
瞳	-10.6972
咀	-10.6972
咄	-10.6975
氐	-10.6976
頭戴	-10.6986
雷震	-10.6987
百餘年	-10.6994
无所不	-10.7015
妖魔	-10.7056
度脫	-10.7068
握固	-10.7068
東方青	-10.709
俠	-10.7095
麥	-10.7096
竺	-10.7103
栽	-10.7104
誣	-10.7109
聊	-10.7109
俓	-10.7111
署	-10.7112
賀	-10.7112
勳	-10.7112
翌日	-10.7113
罹	-10.7113
奠	-10.7115
瘡	-10.7115
戹	-10.7116
你	-10.7118
岩	-10.7118
五帝大魔	-10.7121
慘	-10.7123
國祚	-10.7124
考校	-10.7134
元始天王曰	-10.7138
鄉里	-10.714
旣濟	-10.7159
長生大帝	-10.7179
司徒	-10.7182
八維	-10.7187
年月日	-10.7241
橐籥	-10.7249
㝠㝠	-10.7253
叨	-10.7256
悅	-10.7256
悶	-10.7261
裴	-10.7263
鎔	-10.7263
針	-10.7263
儔	-10.7265
躔	-10.7265
淩	-10.7266
寔	-10.7266
勅	-10.7266
綬	-10.7267
吟詠	-10.7269
細塵	-10.7269
祕宻	-10.7273
批	-10.7275
閉塞	-10.7281
刀兵	-10.7284
紹興	-10.7286
生神章	-10.7289
靴	-10.7291
甲寅	-10.7295
白鹿	-10.7305
紫宸	-10.7305
禁戒	-10.7311
宣揚	-10.7312
重樓	-10.7324
果報	-10.7325
七政	-10.7332
黄老君	-10.7351
電光	-10.7358
金丹之道	-10.7361
兩腎	-10.7369
滿室	-10.737
羅酆	-10.7378
天地之間	-10.7379
口鼻	-10.7389
輟	-10.7404
隴	-10.7404
七日七夜	-10.7406
夾脊	-10.7407
行香誦經	-10.7409
周而復始	-10.7409
繿	-10.7409
葷	-10.7409
轂	-10.7409
鬢	-10.741
珏	-10.7411
瓢	-10.7413
肖	-10.7415
恕	-10.7417
謡歌	-10.7418
訛	-10.7418
斬馘	-10.7423
豆	-10.7424
與道合	-10.7424
宋徽宗	-10.7424
黃芽	-10.7425
毗	-10.7426
吼	-10.7427
忠孝	-10.7427
青童君	-10.7434
徃來	-10.7436
東方八天	-10.7438
日月五星	-10.7442
告盟	-10.7459
太歳	-10.747
超昇	-10.7475
點化	-10.7487
伏望	-10.7503
祇	-10.7506
第三十	-10.7508
小腸	-10.7517
直指	-10.7517
北辰	-10.7527
舊註曰	-10.7532
煅	-10.7545
强名	-10.7551
慰	-10.7553
嫉	-10.7553
粟	-10.7554
岐	-10.7558
援	-10.7558
疇	-10.7559
漁	-10.7559
誑	-10.756
殁	-10.7561
鐡	-10.7565
澡	-10.7566
踊	-10.7568
敏	-10.7568
撞	-10.7569
浙	-10.7569
需	-10.7569
㸃	-10.7569
薈	-10.7569
茅山志卷之	-10.757
是時一國是男是女莫不傾心	-10.757
𩔖	-10.757
伽	-10.7571
髯	-10.7572
州刺史	-10.7572
渉	-10.7574
庶幾	-10.7574
默默	-10.7576
蛟龍	-10.7581
某誠感誠慶頓首頓首再拜上言	-10.7582
戟	-10.7582
掃蕩	-10.7588
平旦	-10.7602
解脱	-10.7604
仁義	-10.7618
丈夫	-10.7621
華陽洞	-10.7627
吞服	-10.7634
二十三日	-10.7663
月朔	-10.7671
陛	-10.769
年正月	-10.7693
奈	-10.7707
祕訣	-10.7711
讓	-10.7712
斂	-10.7713
貽	-10.7717
防危	-10.7717
濡	-10.7721
跳	-10.7721
迦	-10.7722
淮南	-10.7722
徂	-10.7723
兌	-10.7723
屯蒙	-10.7725
譜	-10.7725
鄷	-10.7726
拭	-10.7727
瀉	-10.7727
莖	-10.7728
徼	-10.773
忻	-10.7736
枯骨	-10.7743
豫章	-10.7747
燈儀	-10.7748
㧞度	-10.7757
細微	-10.7767
福田	-10.7792
差别	-10.7838
蹇	-10.7852
供飬	-10.7859
道言夫	-10.7871
藪	-10.7871
臍下	-10.7875
属	-10.7878
葩	-10.788
矩	-10.788
璣	-10.7882
烏兔	-10.7882
瞑目	-10.7882
隊	-10.7883
嵗	-10.7884
浮雲山聖壽萬年宮道士趙道一編修	-10.7885
貪嗔	-10.7886
箭	-10.7887
壓	-10.7887
竿	-10.7887
十二河源	-10.7889
赤松子	-10.7889
莊嚴	-10.7891
憩	-10.7892
道言行道之日皆當香湯沐浴齋戒入室	-10.7893
閃	-10.7894
萊	-10.7896
陰符經	-10.7897
揭	-10.7897
一切諸法	-10.7898
賣藥	-10.7899
輕慢	-10.79
韓司	-10.7909
會稽	-10.7915
正音云	-10.793
洛陽	-10.7944
洞賔	-10.7968
江河	-10.8016
虐	-10.8026
興隆	-10.8031
帷	-10.8032
刊	-10.8035
馨	-10.8035
普濟	-10.8038
悖	-10.804
廣成子	-10.804
赤書玉字	-10.804
孺	-10.8042
綸	-10.8042
腐	-10.8043
悮	-10.8043
疑惑	-10.8045
株	-10.8046
飮	-10.8049
晦朔	-10.805
包含	-10.805
俄頃	-10.8051
虎豹	-10.8051
貴賤	-10.8051
神王長生大聖无量度人	-10.8051
毫髮	-10.8053
怕	-10.8053
紫微上宫	-10.8058
炎炎	-10.8064
超凌	-10.8065
鬱鬱	-10.8066
冠帶	-10.8069
校録	-10.8073
徹視	-10.8088
亡過某人	-10.809
閉息	-10.8092
甲辰	-10.8106
蕩除	-10.8108
易遷	-10.8115
周旋	-10.8115
青紙	-10.812
嫗	-10.8185
懈	-10.8193
筮	-10.8196
寥廓	-10.8197
七月七日	-10.8199
瘴	-10.8201
產	-10.8201
璽	-10.8202
搬	-10.8203
混洞赤文	-10.8203
寤	-10.8203
磬	-10.8205
超凡入聖	-10.8206
罵	-10.8206
茫	-10.8206
嶷	-10.8206
𠃔	-10.8206
酣	-10.8207
驢	-10.821
下觀其身書其功勤	-10.821
耿	-10.821
喧	-10.8211
囂	-10.8211
閲	-10.8211
玄牝之門	-10.8212
氷	-10.8213
朝廷	-10.8213
邕	-10.8213
絃	-10.8213
聿	-10.8214
稽首再拜	-10.8215
某誠感誠慶頓首頓首再拜謹言	-10.8218
償	-10.8225
大洞眞經	-10.8226
太衝	-10.8247
無量度人	-10.825
鬱羅	-10.8264
救護	-10.8268
鼻引	-10.83
沛	-10.8357
曇誓天	-10.8358
頁	-10.8363
善哉善哉	-10.8365
長生乆視	-10.8365
蘿	-10.8369
騁	-10.8369
肌膚	-10.837
俊	-10.837
溉	-10.8372
暘谷	-10.8373
盪	-10.8373
涓	-10.8373
牖	-10.8373
揲	-10.8375
翩	-10.8376
鴈	-10.8376
勾陳	-10.8376
誇	-10.8377
貧窮	-10.8378
荐	-10.8381
茹	-10.8381
諾	-10.8381
出臣身中三五功曹左右官使者侍香	-10.8383
潘	-10.8384
否泰	-10.8386
閼	-10.8387
佩帶	-10.839
瘟鬼	-10.8438
青城山	-10.8442
品卷第	-10.8449
亡過某	-10.8483
王亦保舉爾身得道者乃當洞明至言也	-10.8516
百八十	-10.8519
麻姑	-10.8532
鴉	-10.8534
䘮	-10.8536
料	-10.8536
綜	-10.8537
戚	-10.8537
措	-10.8538
區區	-10.8538
袁	-10.8538
稀	-10.8539
樸	-10.8541
隋	-10.8542
斛	-10.8543
鄕	-10.8543
司命司録	-10.8544
浹	-10.8546
慳	-10.8546
迥	-10.8546
榻	-10.8546
枷	-10.8548
漏泄	-10.8549
姚	-10.8549
糞	-10.855
瀝	-10.855
結璘	-10.8552
匀	-10.8554
玉童傳言玉女五帝直符直日香官	-10.8556
當此之時喜慶難言法事粗悉諸天復位	-10.8558
庇	-10.8559
侍宸	-10.8562
永嘉	-10.8579
御史	-10.8588
朝夕	-10.8613
億千	-10.8624
央	-10.8654
珮	-10.8691
當願一切	-10.8697
半斤	-10.8702
禾	-10.8706
片餉	-10.8709
裘	-10.871
恱	-10.8711
詎	-10.8712
揆	-10.8714
架	-10.8716
㖟	-10.8717
辟穀	-10.8717
喜怒	-10.8719
盞	-10.8719
須㬰	-10.8719
姜	-10.872
遘	-10.8722
袋	-10.8723
鎚	-10.8725
玉眸	-10.8725
瘞	-10.8726
咒	-10.8726
代諱	-10.8726
六腑	-10.8731
祈雨	-10.8775
斗柄	-10.8789
上白天尊	-10.885
降下定三䰟安七𩲸保胎護命	-10.8873
菩提	-10.8878
柰	-10.8881
齋醮	-10.8883
睿	-10.8883
剔	-10.8884
冢	-10.8885
鋪	-10.8888
羸	-10.8888
歸根復命	-10.8889
無任懇倒之至謹詞	-10.889
玄之又玄	-10.889
澹	-10.8891
佇	-10.8891
上聖髙尊	-10.8891
斜	-10.8891
綽	-10.8893
有知其音能齋而誦之者諸天皆遣	-10.8894
土釜	-10.8895
貯	-10.8895
亰	-10.8895
頸	-10.8896
鈆	-10.8897
旻	-10.8898
凛	-10.8898
耆	-10.8898
蒂	-10.89
箱	-10.89
炬	-10.8901
恪	-10.8901
鬱儀	-10.8925
句容	-10.8931
魔王保舉	-10.8979
學仙之人	-10.905
嵋	-10.9058
瞽	-10.906
鬥	-10.906
倐	-10.9061
版	-10.9064
弭	-10.9068
鴻濛	-10.9069
焼	-10.9069
墉	-10.907
虎狼	-10.907
皆是大梵之言非世上常辭	-10.9071
涸	-10.9073
丐	-10.9074
殞	-10.9076
慄	-10.9077
貟	-10.9078
汨	-10.9078
濱	-10.9079
岑	-10.908
臼	-10.9084
幞頭	-10.91
眸	-10.9233
凋	-10.9239
不生不滅	-10.9244
眞一之水	-10.9246
九天應元雷聲普化天尊	-10.9248
筠	-10.9249
禽獸	-10.9249
芸	-10.9249
岱	-10.925
纎	-10.925
諮	-10.9252
擕	-10.9253
葺	-10.9256
譔	-10.9256
猜	-10.9257
彊	-10.9258
雕	-10.9258
棘	-10.9259
栗	-10.9259
纂	-10.9263
忱	-10.9273
凱	-10.9394
抜	-10.9421
潛	-10.9423
臆	-10.9427
蕃	-10.9428
粲	-10.9428
裁	-10.9433
杓	-10.9434
艾	-10.9435
䕶	-10.9436
数	-10.9437
緊	-10.944
唇	-10.9442
恁	-10.9442
掣	-10.9443
駢	-10.9443
飊	-10.9445
炷	-10.9446
璇	-10.9447
崐	-10.9447
緋	-10.9449
暈	-10.9451
彖	-10.9603
拆	-10.961
釜	-10.9613
釐	-10.9621
盆	-10.9622
侮	-10.9622
琪	-10.9622
顙	-10.9623
辜	-10.9623
煒	-10.9624
蛻	-10.9626
靑	-10.9626
奄	-10.9626
蜜	-10.9626
隙	-10.9626
昴	-10.9627
顚	-10.9627
兢	-10.9628
竦	-10.9629
孜	-10.9631
翛	-10.9632
翟	-10.9635
箋	-10.9638
突	-10.9638
噬	-10.9792
娶	-10.9799
姥	-10.98
惒	-10.9805
偽	-10.9806
刋	-10.9808
淚	-10.981
慨	-10.981
曳	-10.9813
陪	-10.9813
霽	-10.9813
迪	-10.9815
忒	-10.9816
藻	-10.9817
苔	-10.9818
爪	-10.9818
鄂	-10.9818
槩	-10.9818
蔕	-10.9819
蟻	-10.982
𥘉	-10.982
徇	-10.9821
擢	-10.9821
驟	-10.9827
績	-10.9829
凍	-10.9829
柴	-10.9831
懐	-10.9996
瞋	-11
嵎	-11.0004
楅	-11.0005
汁	-11.0008
迨	-11.0008
滑	-11.001
翕	-11.0011
闌	-11.0011
慚	-11.0011
羡	-11.0012
窒	-11.0013
嚮	-11.0016
縫	-11.0018
靚	-11.002
彤	-11.002
牌	-11.0022
苓	-11.0023
衘	-11.0023
魒	-11.0024
燮	-11.0026
鳩	-11.003
肢	-11.0189
夬	-11.0192
茲	-11.0204
仭	-11.0205
沒	-11.0206
租	-11.0213
蟄	-11.0213
噉	-11.0214
邃	-11.0214
棟	-11.0215
欹	-11.0215
黜	-11.0215
婢	-11.0218
剌	-11.0218
巒	-11.0218
憚	-11.022
廵	-11.0221
瑕	-11.0221
芙	-11.0222
哺	-11.0223
鮑	-11.0224
暨	-11.0226
溝	-11.0228
袂	-11.0406
瞬	-11.0407
啄	-11.0407
倣	-11.0413
迭	-11.0414
鹹	-11.0414
渥	-11.0415
巍	-11.0416
驪	-11.0417
岫	-11.0417
蔵	-11.0418
樣	-11.0421
掘	-11.0422
攪	-11.0423
熊	-11.0423
甕	-11.0424
脇	-11.0425
芟	-11.0427
殖	-11.0427
摘	-11.0428
釘	-11.0428
核	-11.0615
謚	-11.0619
譽	-11.062
擅	-11.062
怎	-11.0623
棋	-11.0626
嚼	-11.0626
睛	-11.0627
扁	-11.0629
𡻕	-11.0634
硯	-11.0635
確	-11.0637
彗	-11.0646
蓄	-11.0819
恚	-11.0822
餓	-11.0826
随	-11.0828
貸	-11.0831
篋	-11.0832
紂	-11.0833
爓	-11.0834
堆	-11.0835
斃	-11.0835
牡	-11.0836
籥	-11.0836
迄	-11.0839
淘	-11.0839
鈍	-11.084
饌	-11.084
覬	-11.0844
巿	-11.0845
矧	-11.0845
蹄	-11.0847
霖	-11.0849
渚	-11.085
寞	-11.0851
飴	-11.0857
叶	-11.0859
恠	-11.0865
椿	-11.1042
躁	-11.1043
繇	-11.1045
峭	-11.1047
欠	-11.1048
僻	-11.1051
惚	-11.1051
燎	-11.1051
倪	-11.1052
藝	-11.1054
袐	-11.1055
閤	-11.1056
旂	-11.1057
婉	-11.1057
擘	-11.1057
胄	-11.1057
杪	-11.1062
熖	-11.1062
拍	-11.1066
凈	-11.1068
邸	-11.1069
溶	-11.1069
紺	-11.107
寮	-11.1072
鬭	-11.1074
飡	-11.1261
頽	-11.1266
攢	-11.1266
沌	-11.1269
璘	-11.1273
𩀱	-11.1274
扄	-11.1276
樊	-11.1276
硃	-11.1276
昉	-11.1277
巵	-11.1278
拷	-11.1278
滔	-11.1278
懲	-11.128
悃	-11.1281
刹	-11.1281
嘿	-11.1282
豹	-11.1282
遙	-11.1284
甦	-11.1284
距	-11.1284
鑽	-11.1285
輙	-11.1285
磚	-11.1288
叫	-11.1288
杵	-11.1288
捻	-11.1288
逞	-11.1289
魈	-11.1294
輸	-11.1295
盃	-11.1297
劑	-11.1496
竪	-11.1497
賚	-11.1498
昂	-11.1501
侈	-11.1502
劾	-11.1503
稔	-11.1504
净	-11.1505
浦	-11.1506
祺	-11.1506
擺	-11.1507
漬	-11.1508
跣	-11.1509
逰	-11.1509
峩	-11.151
詭	-11.151
伎	-11.1511
霏	-11.1512
垠	-11.1512
掖	-11.1514
効	-11.1517
羙	-11.1527
涌	-11.1722
麄	-11.1728
佞	-11.1729
懺	-11.1729
凑	-11.1729
籌	-11.1729
鍛	-11.173
壅	-11.1732
囿	-11.1732
瘦	-11.1733
航	-11.1734
菌	-11.1734
摹	-11.1736
恰	-11.1736
媚	-11.1737
呬	-11.1737
輅	-11.174
炙	-11.174
蝶	-11.1741
邅	-11.1744
冩	-11.1745
泝	-11.1748
陂	-11.1749
禰	-11.1749
巷	-11.175
覃	-11.1753
鑰	-11.1768
苴	-11.1945
蹠	-11.1959
耦	-11.1963
聘	-11.1967
翦	-11.197
娠	-11.1974
鎻	-11.1974
沼	-11.1974
楫	-11.1975
甜	-11.1975
艷	-11.1976
衫	-11.1976
簪	-11.1977
綏	-11.1977
顓	-11.1977
賫	-11.1978
槐	-11.1978
喝	-11.1978
兜	-11.1981
睦	-11.1982
㦸	-11.1983
屨	-11.1983
鄒	-11.1986
盂	-11.1986
昬	-11.1987
钁	-11.1993
觴	-11.2203
恤	-11.2205
慙	-11.2211
鏗	-11.2213
鉤	-11.2213
迂	-11.2214
嘻	-11.2214
𠔃	-11.2215
酥	-11.2215
畿	-11.2216
韞	-11.2218
椎	-11.2219
挽	-11.2221
廊	-11.2221
娱	-11.2223
掐	-11.2223
闘	-11.2225
暁	-11.2226
券	-11.2226
瘵	-11.2227
鯨	-11.2227
荀	-11.2229
醖	-11.2231
狄	-11.2234
尖	-11.2238
暦	-11.2246
鐺	-11.2458
𡨋	-11.2465
強	-11.2465
駿	-11.2468
瘥	-11.2469
𣗳	-11.2469
斟	-11.247
朵	-11.2471
曩	-11.2471
擣	-11.2471
届	-11.2473
謨	-11.2474
翮	-11.2474
𥙷	-11.2474
毓	-11.2474
綴	-11.2474
唳	-11.2474
評	-11.2475
晷	-11.2476
簷	-11.2477
疵	-11.2477
釁	-11.2479
蹊	-11.248
燄	-11.2481
邢	-11.2481
掀	-11.2483
沴	-11.2485
燔	-11.2487
拓	-11.2497
㣲	-11.2708
犢	-11.2714
蔓	-11.2716
弩	-11.2717
汴	-11.272
悴	-11.272
頰	-11.2724
鑚	-11.2724
衲	-11.2726
傑	-11.2727
塡	-11.2728
咨	-11.2728
哥	-11.273
鷹	-11.2732
姻	-11.2733
痕	-11.2734
矛	-11.2734
污	-11.2735
冑	-11.2741
線	-11.2749
睽	-11.2961
坑	-11.2978
股	-11.2978
浣	-11.2985
揣	-11.2987
旡	-11.2989
喘	-11.2989
呌	-11.2991
倩	-11.2991
瑟	-11.2993
迮	-11.2993
汩	-11.2993
坡	-11.2995
濳	-11.2995
彷	-11.2995
猖	-11.2996
呂	-11.2997
眩	-11.2998
亳	-11.3
輳	-11.3003
掇	-11.3004
颺	-11.3005
礫	-11.3005
汪	-11.3006
鐸	-11.3007
粤	-11.3008
匣	-11.3009
夔	-11.3012
絕	-11.3243
忤	-11.3247
稻	-11.3251
軟	-11.3255
迢	-11.3257
燧	-11.3257
帖	-11.3258
盥	-11.3259
聯	-11.326
麓	-11.3261
胷	-11.3261
閔	-11.3261
醇	-11.3261
款	-11.3262
脯	-11.3263
鋤	-11.3263
熠	-11.3264
掬	-11.3264
訥	-11.3264
踞	-11.3265
鉢	-11.3272
敞	-11.3272
夐	-11.3272
妓	-11.3272
騶	-11.3276
劈	-11.3278
茭	-11.3282
吝	-11.3521
豕	-11.3523
渙	-11.3523
藩	-11.3524
榆	-11.3525
叛	-11.3526
廚	-11.3526
玕	-11.353
蹻	-11.3531
暝	-11.3532
汧	-11.3532
泳	-11.3534
燁	-11.3535
圜	-11.3535
惻	-11.3535
亞	-11.3538
𡜍	-11.3538
塲	-11.3539
迤	-11.3539
潑	-11.3539
蜃	-11.3539
鬻	-11.3539
夤	-11.3539
侔	-11.354
薑	-11.3541
舅	-11.3541
暘	-11.3542
喚	-11.3542
秪	-11.3543
燃	-11.3543
闈	-11.3544
甄	-11.3548
啞	-11.3551
汾	-11.3552
琚	-11.3555
炯	-11.3562
縉	-11.3804
蓍	-11.3806
頡	-11.3807
廛	-11.3811
舂	-11.3812
艶	-11.3817
惕	-11.3819
培	-11.3819
迓	-11.3819
膠	-11.382
檜	-11.382
厠	-11.382
漑	-11.3823
顒	-11.3823
嗽	-11.3823
来	-11.3824
舄	-11.3825
饉	-11.3825
劃	-11.3826
玲	-11.3827
霸	-11.3827
餅	-11.3828
湮	-11.3829
儛	-11.383
查	-11.3831
梟	-11.3832
堵	-11.3833
珊	-11.3834
殯	-11.3835
廨	-11.3843
皛	-11.3855
轍	-11.4101
械	-11.4101
癰	-11.4102
薫	-11.4104
訴	-11.4105
羈	-11.4106
莭	-11.4107
龔	-11.4107
聃	-11.4108
鼈	-11.411
憤	-11.4111
勁	-11.4112
胤	-11.4112
鈕	-11.4113
壷	-11.4113
駡	-11.4114
孳	-11.4115
瞿	-11.4116
遑	-11.4116
鵬	-11.4118
盱	-11.4119
鐶	-11.412
剡	-11.4121
埏	-11.4121
寛	-11.4122
𩵄	-11.4122
隷	-11.4122
墀	-11.4123
橐	-11.4123
姪	-11.4123
刳	-11.4124
涂	-11.4125
𨇠	-11.4126
弈	-11.4131
咤	-11.4136
媪	-11.4157
愔	-11.4391
趾	-11.4402
棹	-11.4404
啗	-11.4408
丗	-11.441
拊	-11.4411
㓜	-11.4412
貝	-11.4413
疋	-11.4415
虜	-11.4415
馴	-11.4415
址	-11.4416
琢	-11.4417
妍	-11.4417
恥	-11.4418
璿	-11.4419
蘆	-11.4419
菊	-11.4421
扈	-11.4421
崘	-11.4422
嬉	-11.4422
隳	-11.4423
嶸	-11.4423
幣	-11.4423
𨓜	-11.4425
吳	-11.4426
釡	-11.4426
狹	-11.4427
×	-11.4429
番	-11.4431
𧵥	-11.4434
螭	-11.4441
杞	-11.445
隗	-11.4704
猒	-11.4707
誌	-11.4715
畀	-11.4717
笞	-11.4723
羞	-11.4724
洩	-11.4726
蹉	-11.4727
努	-11.4728
繕	-11.4728
栁	-11.4728
寘	-11.4729
粥	-11.473
球	-11.4731
觜	-11.4731
簧	-11.4732
鏘	-11.4732
怙	-11.4735
魑	-11.4736
魎	-11.4739
忝	-11.4741
痼	-11.4741
綾	-11.4743
榛	-11.4743
澮	-11.4747
塔	-11.4747
牟	-11.4749
縹	-11.4751
姊	-11.504
彙	-11.5043
緼	-11.5044
泡	-11.505
挂	-11.5052
蕤	-11.5052
渭	-11.5053
覲	-11.5055
淹	-11.5055
啜	-11.5055
課	-11.5056
囬	-11.5056
謐	-11.5056
撮	-11.5057
梗	-11.5058
彿	-11.5058
帙	-11.5059
䧟	-11.506
娘	-11.506
斌	-11.506
坼	-11.5061
抹	-11.5062
斫	-11.5062
漲	-11.5062
霈	-11.5063
𥋋	-11.5064
胚	-11.5065
肚	-11.5065
裸	-11.5065
閟	-11.5069
閩	-11.507
兠	-11.5081
筒	-11.5368
敲	-11.5372
疽	-11.5375
𥟵	-11.5375
葱	-11.5376
拄	-11.5378
柩	-11.5379
霎	-11.5382
涎	-11.5382
躭	-11.5383
梏	-11.5384
麈	-11.5384
籬	-11.5385
愉	-11.5385
抄	-11.5385
腴	-11.5386
捫	-11.5387
釀	-11.5388
欄	-11.5388
壼	-11.5388
𩲃	-11.5389
晡	-11.539
槎	-11.539
癩	-11.539
荼	-11.539
裾	-11.539
楷	-11.5391
䆫	-11.5391
捍	-11.5391
駟	-11.5391
恙	-11.5391
幃	-11.5392
鞋	-11.5393
冐	-11.5393
嬪	-11.5395
𥿄	-11.5395
泗	-11.5395
笏	-11.5398
㳙	-11.5399
腫	-11.54
壊	-11.54
菖	-11.5403
絢	-11.5405
姨	-11.5407
咭	-11.5415
甸	-11.5719
諄	-11.5721
儵	-11.5722
饋	-11.5722
狩	-11.5722
圗	-11.5724
蠡	-11.5726
煆	-11.5727
嚨	-11.5727
綉	-11.5727
雉	-11.5728
摸	-11.5729
蜂	-11.5729
煖	-11.573
喑	-11.573
辤	-11.573
撲	-11.5731
蹙	-11.5731
稷	-11.5732
屑	-11.5733
义	-11.5733
舛	-11.5733
𠑽	-11.5734
鯉	-11.5734
汚	-11.5735
悵	-11.5735
紊	-11.5737
粮	-11.5737
廡	-11.5738
縻	-11.5738
瓏	-11.5738
歆	-11.5739
翥	-11.574
戢	-11.5741
凾	-11.5742
疼	-11.5744
瓌	-11.5745
梳	-11.5747
嶼	-11.5751
肱	-11.5752
晤	-11.5752
姆	-11.5759
𦍙	-11.5773
嗑	-11.605
技	-11.6071
卉	-11.6081
茨	-11.6083
咳	-11.6083
咦	-11.6084
藜	-11.6085
髭	-11.6088
趺	-11.6088
黔	-11.6089
撻	-11.6089
蕪	-11.609
濬	-11.609
邐	-11.6091
滂	-11.6092
宙	-11.6092
琰	-11.6092
闓	-11.6092
彫	-11.6092
繚	-11.6092
耐	-11.6093
讖	-11.6094
塜	-11.6095
疰	-11.6095
嗇	-11.6096
氲	-11.6097
兕	-11.6097
䰢	-11.6098
趁	-11.6098
轆	-11.6099
鈺	-11.6101
牘	-11.6102
襪	-11.6105
棠	-11.6108
迍	-11.6108
垓	-11.611
赭	-11.6111
哩	-11.6114
灝	-11.6114
沆	-11.6116
聶	-11.6116
紱	-11.645
訊	-11.645
荅	-11.6451
脅	-11.6452
潼	-11.6452
畝	-11.6452
貳	-11.6454
芻	-11.6454
岷	-11.6454
昺	-11.6454
鍼	-11.6455
斲	-11.6455
瑋	-11.6456
漕	-11.6458
嵯	-11.6459
鄞	-11.6462
販	-11.6462
搗	-11.6463
藤	-11.6464
訾	-11.6464
殂	-11.6464
脣	-11.6465
悼	-11.6465
魓	-11.6465
猴	-11.6466
愕	-11.6468
薊	-11.6469
暄	-11.6469
巔	-11.6469
蜺	-11.6469
幄	-11.6471
欵	-11.6472
歐	-11.6472
塑	-11.6473
鑊	-11.6474
湊	-11.6476
姝	-11.6477
杭	-11.6477
聴	-11.6478
覔	-11.648
洙	-11.6483
袪	-11.6492
頊	-11.6826
蔬	-11.683
膿	-11.6832
朦	-11.6833
什	-11.6835
賾	-11.6836
礬	-11.6837
刄	-11.6841
臧	-11.6841
梢	-11.6841
煑	-11.6842
搆	-11.6842
鞠	-11.6843
驥	-11.6844
贅	-11.6844
臓	-11.6844
帆	-11.6845
勦	-11.6845
鉅	-11.6846
槨	-11.6846
鏤	-11.6846
巓	-11.6847
碩	-11.6847
淋	-11.6848
庠	-11.6849
𩳐	-11.6849
衾	-11.6849
軰	-11.685
嵐	-11.685
躅	-11.685
臉	-11.6851
覿	-11.6851
嬌	-11.6852
懃	-11.6852
摽	-11.6852
幔	-11.6854
茗	-11.6854
葵	-11.6855
兎	-11.6855
蓐	-11.6856
彬	-11.6857
熬	-11.6858
祁	-11.6859
潢	-11.6861
踪	-11.6861
畧	-11.6863
嶮	-11.6863
圈	-11.6866
婺	-11.6867
紗	-11.6868
墠	-11.6881
膳	-11.7214
僑	-11.7221
麋	-11.7233
砌	-11.7234
鍳	-11.7235
翱	-11.7236
牲	-11.7237
粧	-11.7237
坊	-11.7238
鳧	-11.7239
乂	-11.724
珪	-11.724
滛	-11.7241
曄	-11.7241
溜	-11.7241
劇	-11.7241
璨	-11.7242
峽	-11.7243
曦	-11.7243
渤	-11.7243
紆	-11.7243
碍	-11.7243
徉	-11.7244
悚	-11.7244
𦋇	-11.7244
盍	-11.7245
售	-11.7247
笳	-11.7248
陜	-11.7248
隕	-11.7248
拽	-11.7249
帽	-11.7249
猫	-11.725
插	-11.7251
体	-11.7251
澇	-11.7254
泮	-11.7254
嶠	-11.7254
拉	-11.7256
弛	-11.7259
噏	-11.726
廽	-11.7261
弔	-11.7262
逵	-11.7263
蠟	-11.7266
繳	-11.7266
傘	-11.7266
湍	-11.7267
窅	-11.7629
㖿	-11.7642
隄	-11.7644
瀑	-11.7648
腭	-11.7648
瑤	-11.7653
趍	-11.7653
賄	-11.7654
舫	-11.7654
毅	-11.7655
秤	-11.7656
贍	-11.7656
啻	-11.7657
恡	-11.7657
蛙	-11.7658
弁	-11.7658
涣	-11.7659
崢	-11.7659
騾	-11.766
沿	-11.766
甯	-11.766
舐	-11.766
槃	-11.7661
竄	-11.7662
笪	-11.7662
診	-11.7663
鞍	-11.7663
炊	-11.7664
譏	-11.7664
檐	-11.7664
嗅	-11.7664
𠂻	-11.7664
窿	-11.7666
聮	-11.7666
硫	-11.7666
瑰	-11.7666
灘	-11.7666
㓂	-11.7666
厖	-11.7667
潯	-11.7668
璈	-11.7668
䙱	-11.7668
蜒	-11.7669
繆	-11.767
龕	-11.7672
崿	-11.7674
賑	-11.7674
卞	-11.7675
窆	-11.7675
鵝	-11.7675
瀹	-11.7677
哆	-11.7682
頷	-11.7683
鱠	-11.7704
畋	-11.8074
訂	-11.8079
朧	-11.8079
僣	-11.8081
櫛	-11.8082
戶	-11.8088
皷	-11.8089
譯	-11.809
皺	-11.809
嬴	-11.8091
蟒	-11.8091
傭	-11.8092
笠	-11.8094
螟	-11.8094
刼	-11.8095
錄	-11.8095
殫	-11.8096
懋	-11.8096
嵒	-11.8097
昻	-11.8097
碌	-11.8097
覧	-11.8097
冊	-11.8097
浚	-11.8099
蘊	-11.8099
樽	-11.81
緱	-11.81
瑚	-11.81
翺	-11.81
矚	-11.8101
欒	-11.8101
奧	-11.8102
乹	-11.8103
腋	-11.8103
倡	-11.8104
攜	-11.8104
窕	-11.8105
殽	-11.8105
蛾	-11.8105
拖	-11.8108
嵇	-11.8109
穰	-11.8109
渇	-11.811
兖	-11.811
瑜	-11.811
霹	-11.8112
睠	-11.8113
釗	-11.8119
酢	-11.812
狸	-11.8124
坂	-11.8532
畞	-11.8536
渝	-11.8537
禺	-11.8538
貲	-11.8539
悠	-11.8539
衿	-11.854
鋸	-11.854
跋	-11.8542
専	-11.8543
萎	-11.8543
閡	-11.8544
蒿	-11.8544
脘	-11.8545
𢖍	-11.8545
籛	-11.8545
組	-11.8545
涿	-11.8546
咬	-11.8546
懀	-11.8547
羶	-11.8547
閫	-11.8548
槌	-11.8548
涅	-11.8548
銳	-11.8549
萍	-11.8549
娉	-11.8549
儕	-11.855
閽	-11.855
蚌	-11.855
飼	-11.8551
蠅	-11.8551
碁	-11.8553
瘖	-11.8554
壟	-11.8555
濮	-11.8556
鷗	-11.8556
牋	-11.8559
渟	-11.8562
苞	-11.8563
緜	-11.8563
飱	-11.8563
晞	-11.8564
獰	-11.8566
詵	-11.8567
曵	-11.8568
磻	-11.8569
腠	-11.857
臥	-11.8571
諶	-11.8573
惹	-11.8574
裒	-11.8574
琯	-11.8599
睫	-11.9011
嫩	-11.9011
攷	-11.9012
隣	-11.9012
鼉	-11.9013
燠	-11.9013
嫂	-11.9014
鈐	-11.9017
逓	-11.9017
饗	-11.9018
沮	-11.9018
凰	-11.902
蚪	-11.902
颼	-11.902
潦	-11.9021
鉉	-11.9022
詈	-11.9022
嶂	-11.9022
禆	-11.9022
榦	-11.9023
餞	-11.9024
縊	-11.9026
繹	-11.9026
庻	-11.9026
滚	-11.9026
珎	-11.9028
譙	-11.903
佺	-11.903
耄	-11.903
殟	-11.9031
詹	-11.9031
芋	-11.9031
婪	-11.9032
崗	-11.9032
濵	-11.9033
宂	-11.9033
鑾	-11.9033
漚	-11.9033
珞	-11.9034
涬	-11.9035
幨	-11.9035
𡖖	-11.9036
呉	-11.9036
郝	-11.9037
惰	-11.9037
殗	-11.9038
瀾	-11.904
慵	-11.904
犀	-11.9041
臈	-11.9042
隘	-11.9043
撒	-11.9043
碭	-11.9044
磁	-11.9045
醺	-11.9045
漾	-11.9048
杲	-11.9049
罙	-11.9051
遄	-11.9052
彎	-11.9054
巘	-11.9055
爕	-11.9063
遒	-11.9063
靉	-11.9065
剉	-11.9066
犧	-11.9501
絆	-11.9505
殼	-11.9513
萇	-11.9513
𦤺	-11.9514
僉	-11.9514
殤	-11.9514
佯	-11.9514
嘔	-11.9514
劬	-11.9519
璜	-11.9519
緇	-11.9523
撑	-11.9523
嗷	-11.9523
錐	-11.9524
諂	-11.9524
騭	-11.9526
紳	-11.9526
礴	-11.9526
硬	-11.9528
曖	-11.9528
愡	-11.9529
轝	-11.9529
週	-11.9529
覷	-11.953
椒	-11.9531
歃	-11.9531
嚙	-11.9531
餒	-11.9531
蚊	-11.9532
𢍆	-11.9532
稜	-11.9533
僖	-11.9533
鶉	-11.9534
抉	-11.9536
旃	-11.9536
痢	-11.9537
𨚧	-11.9538
𡵯	-11.9538
鋟	-11.9539
醪	-11.9539
磕	-11.954
楓	-11.9541
煬	-11.9542
虫	-11.9542
烜	-11.9542
徤	-11.9542
猥	-11.9543
汶	-11.9543
敖	-11.9544
蒨	-11.9548
誼	-11.955
砥	-11.9551
嚩	-11.9564
罌	-12.0036
蝦	-12.0037
翶	-12.0038
讒	-12.004
魘	-12.0042
沫	-12.0044
秖	-12.0044
鄱	-12.0044
狎	-12.0047
蕙	-12.0047
甌	-12.0049
蘄	-12.0049
倖	-12.0051
螻	-12.0051
弋	-12.0052
琉	-12.0053
潄	-12.0053
獬	-12.0053
嵳	-12.0054
泒	-12.0054
韁	-12.0055
猗	-12.0055
滕	-12.0055
蔑	-12.0056
鑠	-12.0056
攄	-12.0057
湫	-12.0057
楮	-12.0058
縑	-12.0059
歉	-12.0059
䑓	-12.006
沽	-12.006
窠	-12.006
迯	-12.0061
羹	-12.0061
糜	-12.0062
驀	-12.0063
稠	-12.0064
亹	-12.0064
鎬	-12.0064
㔶	-12.0065
氈	-12.0066
𤔵	-12.0066
詛	-12.0067
憊	-12.0067
魃	-12.007
旭	-12.0071
抺	-12.0078
杰	-12.0082
螺	-12.059
鞏	-12.059
兑	-12.0591
刮	-12.0594
謟	-12.0595
妊	-12.0595
㓕	-12.0597
蹔	-12.0599
筏	-12.0599
諠	-12.0599
揀	-12.0599
倶	-12.0599
侖	-12.06
仆	-12.06
蟹	-12.0601
鍵	-12.0601
陌	-12.0603
跎	-12.0603
𥨸	-12.0604
旒	-12.0604
颯	-12.0604
蟆	-12.0606
溷	-12.0606
捩	-12.0607
仝	-12.0607
笄	-12.0607
踴	-12.0608
勺	-12.0609
脆	-12.0609
濠	-12.0609
榭	-12.0609
璚	-12.0609
埴	-12.061
謄	-12.061
旤	-12.0611
悸	-12.0611
菲	-12.0611
闠	-12.0611
慜	-12.0612
矅	-12.0612
鷃	-12.0612
懾	-12.0613
皁	-12.0613
炅	-12.0614
慿	-12.0615
鉗	-12.0615
湄	-12.0615
膈	-12.0616
糺	-12.0618
叠	-12.062
潺	-12.062
蹶	-12.0621
慇	-12.0622
膩	-12.0622
縞	-12.0623
嚳	-12.0623
軻	-12.0623
滉	-12.0624
𤑔	-12.0625
碓	-12.0626
棒	-12.0628
漪	-12.0629
梭	-12.0631
刁	-12.0635
毬	-12.0636
歙	-12.0646
愬	-12.0646
僮	-12.1164
磐	-12.1173
壙	-12.1178
卭	-12.1182
瞑	-12.1184
狠	-12.1187
甃	-12.1188
奬	-12.1188
瑣	-12.1189
澈	-12.1189
羌	-12.1189
悞	-12.119
玷	-12.1191
箴	-12.1191
莱	-12.1192
緡	-12.1193
雛	-12.1193
叮	-12.1194
税	-12.1194
様	-12.1195
昱	-12.1195
瑯	-12.1195
缾	-12.1195
鬧	-12.1195
糠	-12.1195
蓼	-12.1195
褥	-12.1196
凭	-12.1196
迺	-12.1197
㝢	-12.1197
鏁	-12.1197
牓	-12.1197
礪	-12.1197
囗	-12.1198
沁	-12.1198
愷	-12.1199
飜	-12.12
餉	-12.1201
鍚	-12.1201
洫	-12.1201
䂓	-12.1201
磧	-12.1202
鷺	-12.1202
楝	-12.1203
廳	-12.1203
鎗	-12.1203
鰲	-12.1204
𢹂	-12.1205
驤	-12.1205
摳	-12.1205
俛	-12.1205
伶	-12.1205
燾	-12.1206
蓑	-12.1206
扆	-12.1207
鱉	-12.1207
楹	-12.1208
拏	-12.1209
砭	-12.121
聻	-12.121
眚	-12.121
脗	-12.1211
逭	-12.1211
瘧	-12.1212
霾	-12.1213
嘹	-12.1213
噓	-12.1215
店	-12.1217
瓮	-12.1218
炫	-12.1222
禬	-12.1223
吊	-12.1223
哪	-12.123
顱	-12.1232
憾	-12.1798
莾	-12.1805
屣	-12.1806
懌	-12.1807
遡	-12.1807
飆	-12.1807
叚	-12.1808
庖	-12.1808
将	-12.181
郴	-12.181
脛	-12.181
庾	-12.1811
愜	-12.1811
蒞	-12.1811
斿	-12.1812
戕	-12.1813
櫃	-12.1814
瓔	-12.1814
牎	-12.1816
摙	-12.1816
熳	-12.1817
犁	-12.1817
眹	-12.1817
螢	-12.1819
杻	-12.1819
鼇	-12.1819
勛	-12.1819
䑕	-12.1819
溫	-12.182
醎	-12.182
漙	-12.182
琥	-12.1821
窻	-12.1821
糾	-12.1822
覈	-12.1822
盼	-12.1822
謳	-12.1822
硤	-12.1823
飭	-12.1823
寨	-12.1824
蚤	-12.1824
斐	-12.1826
沔	-12.1826
裊	-12.1826
噪	-12.1827
漣	-12.1828
搦	-12.1828
蕊	-12.1828
涪	-12.1828
貶	-12.1829
灣	-12.1829
蘚	-12.1829
满	-12.1829
褻	-12.183
滲	-12.183
觚	-12.1832
蠁	-12.1832
聒	-12.1833
潁	-12.1833
錮	-12.1834
焴	-12.1834
怱	-12.1835
虵	-12.1835
綻	-12.1835
澍	-12.1836
𣲖	-12.1836
綃	-12.1836
闍	-12.1837
臯	-12.1837
兟	-12.1838
悛	-12.1839
蜿	-12.1839
扐	-12.1839
恵	-12.1842
屐	-12.1842
霪	-12.1844
怛	-12.185
蕆	-12.1856
鬛	-12.1857
吻	-12.1869
蒜	-12.2463
桀	-12.2469
褚	-12.2477
愴	-12.2479
蠧	-12.2479
痰	-12.2479
孑	-12.248
惋	-12.248
薤	-12.248
嚀	-12.2482
嘏	-12.2482
憍	-12.2482
摭	-12.2482
粘	-12.2483
荘	-12.2483
攴	-12.2484
冽	-12.2485
淆	-12.2486
憔	-12.2486
鶯	-12.2488
甥	-12.2488
串	-12.2488
怏	-12.2488
髏	-12.2488
駁	-12.2489
鬬	-12.249
逗	-12.2491
沂	-12.2491
黿	-12.2492
鮓	-12.2492
嘶	-12.2492
屹	-12.2493
姧	-12.2493
剩	-12.2493
旄	-12.2494
氅	-12.2494
殳	-12.2494
歧	-12.2494
懊	-12.2495
凄	-12.2495
撚	-12.2496
廩	-12.2497
慟	-12.2497
繋	-12.2498
顫	-12.2498
嵌	-12.2498
誚	-12.2499
逋	-12.2499
藁	-12.2499
漉	-12.25
鴛	-12.2502
紿	-12.2506
郢	-12.2506
絛	-12.2507
萼	-12.2507
堕	-12.2507
縶	-12.2508
邏	-12.2511
纛	-12.2511
冗	-12.2512
莎	-12.2513
槍	-12.2516
匏	-12.2517
噠	-12.2518
攘	-12.2522
畦	-12.2525
鍪	-12.2527
嵬	-12.2533
琛	-12.2538
蟉	-12.257
謠	-12.3174
傚	-12.3176
匕	-12.318
圯	-12.3181
檻	-12.3184
衒	-12.3186
揉	-12.3191
娟	-12.3191
賺	-12.3191
瀘	-12.3191
絮	-12.3192
烝	-12.3192
凹	-12.3193
哂	-12.3193
睨	-12.3193
襃	-12.3193
閶	-12.3193
翽	-12.3194
晻	-12.3194
鶩	-12.3194
盎	-12.3194
膻	-12.3195
緝	-12.3195
蕉	-12.3196
爇	-12.3196
賒	-12.3197
罟	-12.3198
櫟	-12.3199
曼	-12.3199
瘕	-12.3199
皿	-12.3199
逈	-12.3201
腕	-12.3201
佚	-12.3201
諳	-12.3201
侶	-12.3202
頫	-12.3202
黯	-12.3203
睢	-12.3203
涇	-12.3203
滸	-12.3203
椽	-12.3203
箸	-12.3204
㗸	-12.3204
彝	-12.3205
鬟	-12.3205
汰	-12.3206
堤	-12.3206
渦	-12.3206
刅	-12.3208
榼	-12.3209
狡	-12.3209
茆	-12.3209
薨	-12.321
弑	-12.321
匆	-12.3211
疥	-12.3212
企	-12.3212
吠	-12.3213
鹵	-12.3214
搖	-12.3215
虺	-12.3216
睟	-12.3216
澒	-12.3218
黛	-12.3218
耘	-12.3218
衙	-12.3218
攅	-12.3218
妥	-12.3219
隲	-12.3219
憧	-12.3219
樗	-12.322
璖	-12.3221
邛	-12.3222
紇	-12.3223
甓	-12.3224
喗	-12.3225
璉	-12.3226
掉	-12.3226
闋	-12.3226
軺	-12.3227
縟	-12.3229
鋭	-12.3229
泆	-12.323
滇	-12.323
祓	-12.3238
頴	-12.3239
繖	-12.3241
揈	-12.3252
龐	-12.3252
薬	-12.3934
膂	-12.3945
蠹	-12.3946
厢	-12.3949
螫	-12.3951
磴	-12.3953
眥	-12.3953
鄴	-12.3953
畊	-12.3955
豚	-12.3956
糴	-12.3957
謌	-12.3958
宕	-12.396
帬	-12.3962
騷	-12.3964
竽	-12.3965
撿	-12.3965
攣	-12.3965
詧	-12.3965
襯	-12.3966
篡	-12.3967
抃	-12.3967
麝	-12.3968
冡	-12.397
竚	-12.397
种	-12.397
慷	-12.3971
黷	-12.3971
傀	-12.3971
帑	-12.3971
瀨	-12.3972
襁	-12.3972
朂	-12.3973
敭	-12.3974
㨿	-12.3975
袴	-12.3976
闐	-12.3977
摺	-12.3977
雁	-12.3977
慝	-12.3977
鑛	-12.3978
鄲	-12.3979
甑	-12.3979
漳	-12.3979
閴	-12.3979
藂	-12.3979
懵	-12.3979
個	-12.398
闃	-12.398
粱	-12.3981
䘵	-12.3982
泬	-12.3982
煜	-12.3982
幟	-12.3983
沱	-12.3983
賂	-12.3984
茱	-12.3985
估	-12.3985
罅	-12.3985
罐	-12.3985
婿	-12.3985
郵	-12.3986
痺	-12.3986
戯	-12.3987
莢	-12.3987
挫	-12.3988
擯	-12.3988
嗤	-12.399
珂	-12.399
軋	-12.3994
涘	-12.3996
嚞	-12.3999
捜	-12.4
敇	-12.4007
呢	-12.4011
蛆	-12.4013
騤	-12.4015
㠯	-12.402
𤤠	-12.4043
鸚	-12.4765
隥	-12.4773
宓	-12.478
凊	-12.4782
删	-12.4782
攖	-12.4788
殢	-12.4788
嶓	-12.4789
呑	-12.4789
嫰	-12.4791
豢	-12.4791
蝸	-12.4791
澀	-12.4791
崎	-12.4793
窘	-12.4794
尪	-12.4795
椀	-12.4795
芷	-12.4795
捶	-12.4796
躇	-12.4796
敘	-12.4798
爨	-12.4798
斁	-12.48
笻	-12.4802
瓣	-12.4802
酩	-12.4802
碣	-12.4802
嶇	-12.4803
髽	-12.4803
煦	-12.4804
聆	-12.4804
嚧	-12.4804
悌	-12.4805
蜚	-12.4805
餚	-12.4805
瞞	-12.4805
廖	-12.4806
茟	-12.4806
恂	-12.4807
豺	-12.4808
甍	-12.4808
跼	-12.4808
邙	-12.481
珀	-12.481
攔	-12.481
詫	-12.4811
僝	-12.4811
崙	-12.4811
糵	-12.4812
朶	-12.4813
叵	-12.4813
楠	-12.4813
釵	-12.4814
貰	-12.4814
筯	-12.4814
:	-12.4815
塋	-12.4815
躶	-12.4816
蘋	-12.4816
俻	-12.4816
脹	-12.4817
韵	-12.4817
寖	-12.4817
炤	-12.4817
薜	-12.4817
丰	-12.4817
芹	-12.4819
玻	-12.4819
㗶	-12.4819
瘁	-12.4819
羨	-12.482
葦	-12.4821
茸	-12.4821
棊	-12.4824
喃	-12.4825
鍔	-12.4826
喙	-12.4826
洄	-12.4827
霶	-12.4828
徯	-12.4828
筍	-12.4828
畛	-12.483
呱	-12.483
蚖	-12.483
帯	-12.4831
郄	-12.4833
瀰	-12.4833
崛	-12.4834
翬	-12.4834
顥	-12.4835
𩲙	-12.484
腆	-12.4845
嚤	-12.4853
欀	-12.5677
檏	-12.5684
韭	-12.5685
淄	-12.5688
狻	-12.569
礦	-12.5691
糊	-12.5694
聵	-12.5697
邠	-12.5697
膊	-12.5698
仔	-12.5698
獅	-12.5699
瞎	-12.5699
孱	-12.57
忖	-12.57
𧷤	-12.57
撤	-12.5701
譎	-12.5702
嶔	-12.5703
讁	-12.5703
躊	-12.5703
舁	-12.5704
俸	-12.5704
荄	-12.5704
嚇	-12.5705
悋	-12.5705
熛	-12.5707
複	-12.5709
尫	-12.571
蝎	-12.571
驎	-12.571
諺	-12.571
灸	-12.571
昃	-12.571
醋	-12.5711
磊	-12.5712
耻	-12.5713
踖	-12.5713
曝	-12.5713
袒	-12.5714
搶	-12.5714
妣	-12.5714
糟	-12.5715
趕	-12.5715
鵰	-12.5715
儘	-12.5715
斸	-12.5716
𠮷	-12.5717
矍	-12.5717
幷	-12.5717
𧇊	-12.5717
沍	-12.5718
裨	-12.5718
酹	-12.5719
癃	-12.5719
捏	-12.572
瞰	-12.572
閥	-12.5721
慊	-12.5721
蕚	-12.5721
瑾	-12.5721
烱	-12.5722
埀	-12.5722
袠	-12.5722
寗	-12.5723
銓	-12.5723
靂	-12.5724
閎	-12.5724
𣣱	-12.5725
姹	-12.5725
艤	-12.5725
𧕏	-12.5726
玦	-12.5726
攫	-12.5726
廐	-12.5727
隈	-12.5727
纘	-12.5727
祿	-12.5728
犂	-12.5729
榴	-12.573
闥	-12.573
窄	-12.5731
哽	-12.5731
朞	-12.5732
缸	-12.5734
褁	-12.5734
奭	-12.5735
詡	-12.5736
磑	-12.5736
枸	-12.5737
贏	-12.5738
淙	-12.5738
腿	-12.5738
幪	-12.574
壻	-12.5743
鈃	-12.5743
𩴑	-12.5746
璟	-12.5746
閨	-12.5755
扎	-12.5757
莘	-12.578
凙	-12.6635
鎸	-12.6673
僭	-12.6683
譁	-12.6687
殮	-12.669
柝	-12.669
漭	-12.6691
湎	-12.6691
悄	-12.6696
躓	-12.6697
疣	-12.6697
鎰	-12.6698
瞭	-12.6698
两	-12.67
氓	-12.67
祼	-12.6701
剗	-12.6702
霳	-12.6703
簑	-12.6703
燋	-12.6704
彪	-12.6705
碽	-12.6705
襦	-12.6705
瀣	-12.6705
屛	-12.6706
鷰	-12.6706
勗	-12.6707
嘈	-12.6707
泪	-12.6707
痒	-12.6707
狙	-12.6708
闚	-12.6708
翌	-12.6708
澳	-12.671
柘	-12.671
腮	-12.671
叡	-12.671
蚓	-12.6711
楯	-12.6711
焜	-12.6711
邴	-12.6712
瑗	-12.6713
夸	-12.6714
徭	-12.6714
笋	-12.6714
髫	-12.6714
冦	-12.6715
㗭	-12.6715
麵	-12.6716
卻	-12.6716
嶢	-12.6716
濩	-12.6716
峪	-12.6717
荔	-12.6717
簉	-12.6717
㳺	-12.6718
沬	-12.6718
旍	-12.6719
鴨	-12.6719
愠	-12.6719
隤	-12.6719
肸	-12.672
跌	-12.672
䜛	-12.672
逥	-12.672
巇	-12.6722
瘳	-12.6724
疹	-12.6725
戛	-12.6725
鴆	-12.6727
紵	-12.6727
豸	-12.6727
𦍒	-12.6727
戞	-12.6727
瘢	-12.6727
僥	-12.6728
窪	-12.6729
訕	-12.6729
褰	-12.6729
勻	-12.6729
珉	-12.673
桉	-12.673
秣	-12.673
絞	-12.6731
欝	-12.6731
𦕈	-12.6731
𤓁	-12.6731
蘧	-12.6732
茄	-12.6732
弃	-12.6732
忮	-12.6733
藕	-12.6733
駝	-12.6734
縝	-12.6734
淼	-12.6734
𡣕	-12.6736
募	-12.6737
佪	-12.6737
搢	-12.6738
杉	-12.6739
鉏	-12.674
軄	-12.674
烘	-12.6741
巻	-12.6743
烽	-12.6744
憇	-12.6746
埤	-12.6753
𠷈	-12.6759
荣	-12.6773
飦	-12.7769
邳	-12.7788
惔	-12.7792
箠	-12.7792
姒	-12.7792
懦	-12.7793
丿	-12.7797
弇	-12.7797
犠	-12.7802
憨	-12.7803
悽	-12.7803
齁	-12.7804
肴	-12.7805
詬	-12.7806
鳶	-12.7806
撇	-12.7807
㕑	-12.7807
丧	-12.7808
幌	-12.7808
燌	-12.7809
簟	-12.7809
甖	-12.781
帕	-12.7811
嗄	-12.7811
𦂶	-12.7811
楙	-12.7812
熄	-12.7812
咥	-12.7812
諌	-12.7812
跟	-12.7812
暐	-12.7813
氤	-12.7813
鸛	-12.7815
𡨕	-12.7815
𡵨	-12.7815
矻	-12.7815
錠	-12.7815
頏	-12.7816
悒	-12.7817
皦	-12.7817
竸	-12.7817
俎	-12.7818
异	-12.7819
慱	-12.7819
頺	-12.7819
靳	-12.782
吮	-12.782
儆	-12.782
蛤	-12.782
咏	-12.782
欷	-12.7821
莅	-12.7823
揜	-12.7823
匍	-12.7823
匐	-12.7823
壠	-12.7823
蒭	-12.7824
㐲	-12.7826
⬤	-12.7826
擦	-12.7826
褶	-12.7826
侁	-12.7827
𥞫	-12.7827
淤	-12.7827
苐	-12.7827
輯	-12.7827
㓗	-12.7827
琁	-12.7828
瘂	-12.7828
譖	-12.7829
怯	-12.7829
譌	-12.7829
鉦	-12.7829
厮	-12.783
郤	-12.783
𥝠	-12.783
娛	-12.7831
箒	-12.7831
僵	-12.7831
綦	-12.7831
曈	-12.7831
禫	-12.7831
纊	-12.7832
惺	-12.7832
扛	-12.7832
桶	-12.7832
賙	-12.7832
㐫	-12.7832
賽	-12.7832
撩	-12.7833
捺	-12.7833
紈	-12.7834
狴	-12.7834
鋩	-12.7834
稅	-12.7834
碾	-12.7835
芭	-12.7835
桔	-12.7835
姙	-12.7835
芊	-12.7835
囹	-12.7836
沅	-12.7836
撈	-12.7838
昶	-12.7838
蔌	-12.7838
澶	-12.7838
衹	-12.7838
涖	-12.7839
跂	-12.7839
枳	-12.7839
忉	-12.7839
髼	-12.7839
嘷	-12.784
瘠	-12.7842
舋	-12.7842
欬	-12.7843
胖	-12.7844
嶪	-12.7844
矇	-12.7844
軾	-12.7845
撃	-12.7846
竢	-12.7846
睇	-12.7846
蹕	-12.7846
骼	-12.7847
攙	-12.7847
縲	-12.7848
泱	-12.7848
嵓	-12.7849
豔	-12.7849
澌	-12.785
汀	-12.785
腔	-12.785
黼	-12.7851
洼	-12.7853
佃	-12.7853
桴	-12.7854
璋	-12.7855
傞	-12.7857
岨	-12.7857
鏹	-12.7858
癖	-12.7858
籃	-12.7862
个	-12.7863
偁	-12.7864
驄	-12.7866
咈	-12.7868
洊	-12.7869
浥	-12.7869
岵	-12.7874
寝	-12.7874
暾	-12.7875
㦎	-12.7876
𠗂	-12.9012
葭	-12.9024
窩	-12.9036
穽	-12.9048
穗	-12.9048
閈	-12.9051
躄	-12.9054
彘	-12.9056
瞀	-12.9057
缶	-12.9058
饕	-12.9058
瓠	-12.9059
仿	-12.906
伋	-12.9061
饍	-12.9061
𢌞	-12.9061
瑀	-12.9061
耜	-12.9063
閙	-12.9063
䑛	-12.9063
厦	-12.9064
菑	-12.9064
酪	-12.9065
覡	-12.9066
櫝	-12.9066
塢	-12.9067
湟	-12.9067
犇	-12.9068
癱	-12.9068
𢡖	-12.9068
苛	-12.9068
儂	-12.9069
騮	-12.9069
癎	-12.9069
嫡	-12.907
紉	-12.907
俚	-12.907
琬	-12.907
駑	-12.9071
鴟	-12.9071
曙	-12.9071
装	-12.9071
慤	-12.9071
慼	-12.9072
𢇁	-12.9072
悍	-12.9072
藿	-12.9073
蝣	-12.9073
哦	-12.9073
嶧	-12.9074
䘙	-12.9074
屇	-12.9074
蛛	-12.9074
啇	-12.9075
櫬	-12.9075
斾	-12.9076
硝	-12.9076
蠕	-12.9076
吃	-12.9076
糅	-12.9077
睥	-12.9078
羆	-12.9078
齧	-12.9078
磅	-12.9078
稊	-12.9078
皋	-12.9078
碗	-12.9078
麴	-12.9078
暠	-12.9079
奩	-12.908
紬	-12.908
繭	-12.908
毳	-12.908
淇	-12.9081
圄	-12.9082
齓	-12.9082
霔	-12.9082
匙	-12.9082
丫	-12.9082
鬲	-12.9083
龢	-12.9083
怳	-12.9083
庥	-12.9084
撝	-12.9084
謔	-12.9084
摛	-12.9085
蚩	-12.9085
娼	-12.9085
嗒	-12.9085
賖	-12.9085
陲	-12.9086
鋉	-12.9086
篙	-12.9086
櫳	-12.9086
琮	-12.9087
𠎝	-12.9087
灧	-12.9087
苾	-12.9088
呷	-12.9089
搐	-12.9089
娣	-12.9089
胯	-12.9089
懣	-12.9089
匈	-12.909
騖	-12.909
繄	-12.909
輾	-12.909
遅	-12.909
剽	-12.9091
䆒	-12.9091
峴	-12.9093
羗	-12.9093
鍜	-12.9093
駸	-12.9093
璀	-12.9094
璠	-12.9094
琤	-12.9094
胜	-12.9095
弧	-12.9096
嫣	-12.9096
霰	-12.9096
纁	-12.9096
臾	-12.9097
篩	-12.9098
𠰢	-12.9099
跽	-12.9099
髦	-12.91
酎	-12.91
苖	-12.9101
馹	-12.9102
漯	-12.9102
柞	-12.9103
炮	-12.9104
餔	-12.9104
欎	-12.9104
錞	-12.9105
喏	-12.9106
醯	-12.9107
舸	-12.9108
卹	-12.911
汜	-12.911
崦	-12.9111
𠻗	-12.9113
洚	-12.9113
咖	-12.9113
遹	-12.9113
璆	-12.9119
蓀	-12.9119
犍	-12.9124
氊	-12.9124
絓	-13.0437
酈	-13.046
柚	-13.0462
凢	-13.0468
淬	-13.0471
囷	-13.0472
𡪹	-13.0475
糲	-13.0476
埳	-13.0476
皥	-13.0476
藎	-13.0477
洹	-13.0478
壮	-13.0479
佗	-13.048
啾	-13.048
颷	-13.0481
曁	-13.0481
鷙	-13.0482
畨	-13.0483
疴	-13.0484
奂	-13.0487
蹷	-13.0487
觔	-13.0487
蛸	-13.0487
檝	-13.0489
𠆸	-13.049
箓	-13.049
煨	-13.049
締	-13.049
鑣	-13.0491
𦆵	-13.0491
諛	-13.0491
蜎	-13.0491
刷	-13.0492
𦤀	-13.0492
蜩	-13.0492
蜋	-13.0492
赬	-13.0492
蹴	-13.0493
蜉	-13.0493
尭	-13.0495
劎	-13.0495
熨	-13.0495
搔	-13.0496
屩	-13.0497
疢	-13.0497
夘	-13.0497
愊	-13.0498
飫	-13.0499
耨	-13.0499
盾	-13.0499
秃	-13.0501
肓	-13.0501
觥	-13.0501
簣	-13.0501
騏	-13.0501
莞	-13.0502
踢	-13.0502
圉	-13.0502
藐	-13.0503
焱	-13.0503
輭	-13.0503
灊	-13.0503
芘	-13.0503
痣	-13.0503
犴	-13.0503
籲	-13.0504
倨	-13.0504
羿	-13.0504
菁	-13.0504
杼	-13.0504
齗	-13.0505
䜟	-13.0505
鯤	-13.0505
阼	-13.0506
摯	-13.0506
禋	-13.0506
烕	-13.0507
貿	-13.0507
蹲	-13.0507
呆	-13.0507
栴	-13.0508
誾	-13.0508
莓	-13.0508
妝	-13.0509
坯	-13.0509
㗖	-13.0509
臰	-13.051
溏	-13.051
𥠖	-13.051
疚	-13.051
邡	-13.0511
缘	-13.0511
㟪	-13.0511
宄	-13.0511
讟	-13.0512
澣	-13.0513
顗	-13.0513
旆	-13.0513
瘍	-13.0513
筇	-13.0514
蕖	-13.0514
蛭	-13.0514
縠	-13.0514
葳	-13.0515
猱	-13.0515
殍	-13.0516
侑	-13.0516
諤	-13.0516
鰥	-13.0517
㮣	-13.0517
它	-13.0517
槲	-13.0519
哿	-13.0519
磔	-13.0519
𠒋	-13.0519
蓂	-13.052
翾	-13.052
描	-13.052
謦	-13.0521
幙	-13.0521
俁	-13.0521
窬	-13.0522
飇	-13.0523
膾	-13.0523
畎	-13.0523
霙	-13.0524
墅	-13.0524
𨶒	-13.0525
蘸	-13.0525
悆	-13.0525
墾	-13.0525
栰	-13.0525
爟	-13.0526
眺	-13.0526
嚚	-13.0527
䙝	-13.0527
嬖	-13.0528
暵	-13.0529
鈇	-13.0529
畸	-13.0529
爱	-13.0529
鏐	-13.053
茵	-13.053
徠	-13.0531
烙	-13.0531
燻	-13.0531
桒	-13.0531
𣑽	-13.0531
賡	-13.0533
岧	-13.0534
敝	-13.0534
傴	-13.0534
蝮	-13.0535
𦆑	-13.0535
𤤽	-13.0535
堲	-13.0536
洮	-13.0537
厩	-13.0538
潞	-13.0539
贄	-13.054
孥	-13.054
襖	-13.0541
瓘	-13.0542
洺	-13.0542
黠	-13.0543
适	-13.0543
鄼	-13.0545
珥	-13.0546
繽	-13.0549
鏜	-13.0554
嶤	-13.0559
淀	-13.056
邾	-13.0563
掲	-13.0566
耒	-13.2109
𨤲	-13.2125
噐	-13.213
眊	-13.213
穄	-13.2133
崟	-13.2134
駒	-13.2134
尿	-13.2136
确	-13.2136
煴	-13.2136
鎧	-13.214
菡	-13.2141
尢	-13.2142
蒯	-13.2143
鞾	-13.2144
䨱	-13.2146
蠆	-13.2147
鯀	-13.2147
槿	-13.2147
郍	-13.2147
伹	-13.2148
俣	-13.2148
𩴮	-13.2148
顴	-13.2149
癭	-13.215
蔔	-13.215
菹	-13.215
廂	-13.2152
簞	-13.2153
蜣	-13.2153
餽	-13.2153
芡	-13.2154
羯	-13.2154
麞	-13.2154
躃	-13.2154
妒	-13.2156
蒺	-13.2156
玞	-13.2156
檮	-13.2158
塼	-13.2158
袤	-13.2158
孾	-13.2158
籜	-13.2158
諍	-13.2158
薾	-13.2158
蝨	-13.2158
駮	-13.2159
褫	-13.2161
鱔	-13.2161
俵	-13.2162
㳂	-13.2162
纍	-13.2162
蕘	-13.2163
蜘	-13.2163
邉	-13.2163
禇	-13.2163
冉	-13.2164
驃	-13.2164
呴	-13.2164
机	-13.2165
琵	-13.2165
丱	-13.2165
睎	-13.2166
飪	-13.2166
𢘆	-13.2166
瀦	-13.2167
掯	-13.2167
隰	-13.2167
詆	-13.2168
𣸉	-13.2168
鵑	-13.2168
箬	-13.2168
夊	-13.2169
籖	-13.217
搭	-13.217
杇	-13.2171
蟜	-13.2171
扵	-13.2171
惷	-13.2171
状	-13.2171
跏	-13.2171
鱸	-13.2171
雩	-13.2171
稗	-13.2171
𦆯	-13.2172
黥	-13.2172
拶	-13.2172
賵	-13.2173
齅	-13.2174
戽	-13.2174
栱	-13.2174
剜	-13.2174
陬	-13.2174
蚋	-13.2175
彥	-13.2175
粛	-13.2175
嶒	-13.2176
擗	-13.2176
霅	-13.2176
趄	-13.2176
痴	-13.2177
昕	-13.2177
劓	-13.2177
楂	-13.2177
芍	-13.2177
翎	-13.2177
黅	-13.2177
蚣	-13.2177
亷	-13.2178
呻	-13.2178
坌	-13.2178
灤	-13.2179
妟	-13.2179
N	-13.2179
櫺	-13.218
擴	-13.218
断	-13.218
𠜍	-13.218
A	-13.2181
U	-13.2181
晣	-13.2181
𩲕	-13.2182
髀	-13.2183
俶	-13.2183
J	-13.2183
扳	-13.2184
汭	-13.2184
唆	-13.2185
芮	-13.2185
剃	-13.2185
璐	-13.2185
搧	-13.2186
鄔	-13.2186
穏	-13.2186
莧	-13.2186
紲	-13.2186
渌	-13.2186
驍	-13.2186
儋	-13.2187
酋	-13.2187
棚	-13.2188
忸	-13.219
概	-13.219
賭	-13.219
駞	-13.2191
賃	-13.2191
痿	-13.2191
鼐	-13.2192
堦	-13.2193
仄	-13.2193
簽	-13.2193
箔	-13.2193
懟	-13.2194
韮	-13.2194
旼	-13.2194
頳	-13.2194
皤	-13.2194
怍	-13.2194
翣	-13.2195
奣	-13.2195
𦤎	-13.2195
諜	-13.2196
菓	-13.2197
毆	-13.2197
哨	-13.2198
𩲲	-13.2198
𧓍	-13.2199
臚	-13.2199
嚕	-13.22
洸	-13.22
蔀	-13.2201
咆	-13.2202
僂	-13.2202
瓿	-13.2203
闉	-13.2203
踣	-13.2203
巑	-13.2203
淦	-13.2203
蟊	-13.2204
蜍	-13.2205
綘	-13.2206
錚	-13.2209
醻	-13.221
祧	-13.221
埒	-13.221
蚿	-13.221
𢷤	-13.2214
呇	-13.2216
狢	-13.2217
嘙	-13.2219
悰	-13.222
枲	-13.222
鐫	-13.2221
袱	-13.2223
醅	-13.2223
璲	-13.2226
囦	-13.2231
侃	-13.2233
桁	-13.2239
堇	-13.4095
筐	-13.4107
畺	-13.4114
貎	-13.412
淖	-13.4123
鋼	-13.4131
鬯	-13.4131
衽	-13.4134
𪃋	-13.4134
雇	-13.4135
𡬶	-13.4135
諗	-13.4136
黧	-13.4139
𥘞	-13.4139
袷	-13.414
穫	-13.4142
揄	-13.4142
霤	-13.4142
㛗	-13.4144
迕	-13.4144
雚	-13.4144
滎	-13.4146
㨂	-13.4146
瓴	-13.4146
昪	-13.4146
宬	-13.4147
鼾	-13.4147
岌	-13.4147
蕞	-13.4147
緻	-13.4148
𥬇	-13.4148
齕	-13.4149
赧	-13.4149
爺	-13.415
觧	-13.4152
𨊧	-13.4153
砒	-13.4153
嶰	-13.4153
鑱	-13.4154
箎	-13.4155
䈁	-13.4156
兾	-13.4156
踧	-13.4157
参	-13.4157
蝱	-13.4157
湩	-13.4157
薇	-13.4157
亊	-13.4158
攧	-13.4158
廪	-13.4158
跖	-13.4158
趎	-13.4158
蜞	-13.4159
万	-13.4159
踝	-13.4159
坰	-13.4159
晁	-13.4159
䖏	-13.416
躐	-13.416
輹	-13.4161
煤	-13.4161
棣	-13.4161
舎	-13.4161
㸔	-13.4162
菱	-13.4162
輜	-13.4162
氳	-13.4162
癤	-13.4162
倅	-13.4162
蝡	-13.4162
套	-13.4162
郿	-13.4163
鍋	-13.4163
鷇	-13.4163
䏶	-13.4163
蚯	-13.4163
墊	-13.4164
莠	-13.4164
濶	-13.4165
㫁	-13.4165
揩	-13.4165
菽	-13.4165
肋	-13.4167
鍤	-13.4167
姫	-13.4167
蔗	-13.4168
斵	-13.4168
莛	-13.4168
𠪨	-13.4169
㘽	-13.4169
趯	-13.4169
鏌	-13.4169
𡖥	-13.4169
軨	-13.4169
囓	-13.417
嘲	-13.417
鉸	-13.417
挨	-13.417
惲	-13.417
鐃	-13.417
靨	-13.4171
廿	-13.4171
鬒	-13.4171
𥹋	-13.4172
纉	-13.4172
膓	-13.4172
媅	-13.4172
渰	-13.4172
卛	-13.4172
䋲	-13.4173
鸇	-13.4173
莒	-13.4173
竝	-13.4173
擡	-13.4174
砧	-13.4174
鍍	-13.4174
搓	-13.4174
黽	-13.4174
枰	-13.4175
陡	-13.4175
髑	-13.4175
殛	-13.4176
棧	-13.4176
涔	-13.4176
醑	-13.4176
橈	-13.4177
獺	-13.4177
拋	-13.4177
楪	-13.4177
桷	-13.4177
裀	-13.4178
蒐	-13.4178
篁	-13.4178
玗	-13.4178
曨	-13.4178
䡠	-13.4178
𨌩	-13.4178
塤	-13.4179
緗	-13.4179
嗶	-13.4179
燬	-13.4179
𨎿	-13.4179
緾	-13.4179
䡩	-13.4179
誹	-13.418
靶	-13.4181
貍	-13.4181
慥	-13.4182
纈	-13.4182
驩	-13.4183
縢	-13.4183
鵶	-13.4184
虯	-13.4184
橡	-13.4184
畚	-13.4184
澥	-13.4185
孀	-13.4185
犮	-13.4186
蝟	-13.4186
憮	-13.4186
鈔	-13.4186
塾	-13.4187
昵	-13.4187
唧	-13.4187
愿	-13.4188
瀼	-13.4188
𤩹	-13.4188
購	-13.4188
錘	-13.4189
唏	-13.4189
畤	-13.4189
𠋣	-13.4189
傒	-13.4189
寀	-13.4189
覀	-13.4189
蓽	-13.4189
媛	-13.419
柢	-13.419
胙	-13.419
簮	-13.419
沭	-13.419
𣢾	-13.419
扑	-13.419
鶱	-13.4191
抬	-13.4191
鈸	-13.4191
腪	-13.4192
䤈	-13.4192
靦	-13.4192
櫓	-13.4192
瀚	-13.4192
壌	-13.4192
滁	-13.4193
讌	-13.4193
螣	-13.4194
剙	-13.4194
噩	-13.4194
鄠	-13.4195
呤	-13.4196
从	-13.4196
㪍	-13.4196
蔞	-13.4197
䦨	-13.4198
鬃	-13.4198
衎	-13.4198
鎪	-13.4199
従	-13.4199
澠	-13.42
橙	-13.42
荃	-13.42
瞢	-13.42
硏	-13.4201
厝	-13.4201
偎	-13.4203
㽔	-13.4203
苧	-13.4203
𤼣	-13.4203
汹	-13.4204
篷	-13.4205
怫	-13.4205
嵫	-13.4205
荊	-13.4205
蹋	-13.4205
桅	-13.4206
蓆	-13.4206
泫	-13.4207
閧	-13.4209
筞	-13.4209
酇	-13.4209
港	-13.4209
儺	-13.421
蚑	-13.421
喭	-13.4211
郯	-13.4214
沲	-13.4216
𣰉	-13.4218
瓷	-13.4218
胼	-13.4219
鄽	-13.4222
扭	-13.4223
墩	-13.4223
𠯐	-13.4223
淒	-13.4223
唫	-13.4227
蕣	-13.4227
黳	-13.4227
湏	-13.4228
棐	-13.4229
貙	-13.4229
澱	-13.4231
箚	-13.4231
羃	-13.4232
轣	-13.4244
𥬒	-13.6594
椉	-13.6598
尻	-13.6609
洳	-13.661
龠	-13.661
殈	-13.6616
蜮	-13.6617
椅	-13.6618
溽	-13.6623
么	-13.6624
晳	-13.6624
仐	-13.6625
刈	-13.6627
鞴	-13.6627
筦	-13.6627
穪	-13.663
洌	-13.663
麕	-13.663
眎	-13.6631
阯	-13.6631
銍	-13.6631
艦	-13.6632
币	-13.6632
叄	-13.6634
髣	-13.6636
媵	-13.6636
雘	-13.6637
鏨	-13.6638
捄	-13.6641
蠓	-13.6641
蹰	-13.6642
歕	-13.6642
㕓	-13.6642
琦	-13.6642
䔉	-13.6642
洟	-13.6644
皐	-13.6645
覯	-13.6645
阨	-13.6646
躩	-13.6646
㽞	-13.6646
毐	-13.6646
玘	-13.6646
窑	-13.6647
踟	-13.6647
醨	-13.6647
喊	-13.6648
搉	-13.6648
峒	-13.6649
歿	-13.6649
㤙	-13.665
綖	-13.665
佀	-13.665
𠋫	-13.665
枋	-13.6652
敺	-13.6652
隽	-13.6652
孃	-13.6653
繰	-13.6653
刪	-13.6653
詒	-13.6653
喎	-13.6653
塌	-13.6654
剿	-13.6654
軓	-13.6654
圠	-13.6654
猨	-13.6656
坱	-13.6656
懹	-13.6656
窴	-13.6656
𢬵	-13.6656
瀕	-13.6657
阪	-13.6657
蘖	-13.6657
憙	-13.6659
瘤	-13.6659
瞶	-13.6659
鼙	-13.6659
嘟	-13.666
爬	-13.666
甆	-13.666
軹	-13.666
犒	-13.6661
茀	-13.6661
鬨	-13.6663
蟪	-13.6663
蜄	-13.6663
倞	-13.6663
蚕	-13.6663
佽	-13.6664
翇	-13.6664
熹	-13.6664
硋	-13.6664
躚	-13.6664
䌝	-13.6664
匃	-13.6664
澁	-13.6664
雰	-13.6666
賸	-13.6666
閹	-13.6666
絜	-13.6667
埵	-13.6667
柬	-13.6667
𤪽	-13.6667
簦	-13.6668
虗	-13.6668
㡬	-13.6668
𥩈	-13.6668
甎	-13.6668
㕘	-13.6668
䘏	-13.6668
済	-13.6669
鋌	-13.667
籀	-13.667
茁	-13.667
憣	-13.667
袢	-13.667
隹	-13.667
彀	-13.667
怵	-13.667
媿	-13.6671
擷	-13.6671
栩	-13.6671
熔	-13.6671
圮	-13.6671
苕	-13.6671
䡇	-13.6671
簀	-13.6672
湃	-13.6672
瓓	-13.6672
荻	-13.6672
矰	-13.6672
蟇	-13.6672
緃	-13.6672
凳	-13.6674
咂	-13.6674
噍	-13.6674
鶻	-13.6675
堙	-13.6675
曡	-13.6675
刖	-13.6675
祔	-13.6675
仵	-13.6677
岭	-13.6677
䕫	-13.6677
繍	-13.6677
嗌	-13.6678
灨	-13.6678
泩	-13.6678
羔	-13.6678
崧	-13.6679
擿	-13.6679
檠	-13.6679
逯	-13.6681
圏	-13.6681
蹁	-13.6681
郪	-13.6681
綆	-13.6682
㠌	-13.6682
濺	-13.6682
冋	-13.6682
尨	-13.6682
豊	-13.6683
肫	-13.6683
蕕	-13.6683
滃	-13.6684
惙	-13.6684
䄂	-13.6684
苽	-13.6684
璺	-13.6685
炒	-13.6685
逄	-13.6685
瞖	-13.6686
銛	-13.6686
臄	-13.6686
縚	-13.6688
睚	-13.6688
訃	-13.6688
龎	-13.6688
爆	-13.6689
禔	-13.6689
浼	-13.6691
栝	-13.6692
窶	-13.6692
𡒄	-13.6692
篨	-13.6692
琨	-13.6692
儷	-13.6692
瓖	-13.6693
虢	-13.6693
癲	-13.6693
鄜	-13.6693
罽	-13.6693
簁	-13.6693
勍	-13.6693
䣙	-13.6693
渢	-13.6693
麒	-13.6694
屧	-13.6695
罍	-13.6695
畆	-13.6695
顖	-13.6696
䟦	-13.6696
曛	-13.6696
薯	-13.6696
醬	-13.6697
咁	-13.6697
匭	-13.6697
槽	-13.6697
筝	-13.6697
沄	-13.6698
騑	-13.6699
猊	-13.6699
秫	-13.6699
駱	-13.6699
黏	-13.6699
漈	-13.6699
埛	-13.67
豬	-13.67
峕	-13.67
黮	-13.6701
臠	-13.6702
滬	-13.6702
泌	-13.6702
闻	-13.6702
𢈔	-13.6702
伾	-13.6703
憒	-13.6703
敔	-13.6703
飣	-13.6703
顇	-13.6703
慣	-13.6704
洑	-13.6704
瀋	-13.6705
剸	-13.6705
鬐	-13.6706
㠗	-13.6706
飤	-13.6706
玎	-13.6706
鷂	-13.6706
礱	-13.6707
𩴹	-13.6707
琩	-13.6708
訐	-13.6708
町	-13.6709
猋	-13.671
礎	-13.671
垜	-13.671
呶	-13.6711
娃	-13.6712
洴	-13.6713
濆	-13.6713
諴	-13.6713
櫨	-13.6713
瓉	-13.6714
輗	-13.6714
窊	-13.6714
蛺	-13.6715
淝	-13.6715
𠾬	-13.6715
緉	-13.6717
抒	-13.6717
逍	-13.6717
檉	-13.6718
簜	-13.6718
糶	-13.6718
嚲	-13.6718
圩	-13.6719
鬆	-13.6719
岏	-13.672
愎	-13.672
櫻	-13.6722
鋹	-13.6722
甡	-13.6724
𦈢	-13.6725
柷	-13.6725
臒	-13.6728
焮	-13.6729
喁	-13.6729
囁	-13.6729
馗	-13.6732
菟	-13.6733
瑑	-13.6735
遝	-13.6736
皜	-13.6738
礔	-13.674
蘤	-13.6742
垕	-13.6743
愐	-13.6743
䝟	-13.6747
祸	-13.6761
畐	-13.6821
暌	-13.9903
柙	-13.9905
剱	-13.9928
𤇍	-13.993
玪	-13.994
譍	-13.9941
𨵈	-13.9943
釿	-13.9947
臬	-13.9947
癢	-13.9949
洔	-13.9949
伉	-13.9951
卽	-13.9951
荇	-13.9951
睪	-13.9951
蒹	-13.9951
襍	-13.9953
噲	-13.9953
跫	-13.9955
蠍	-13.9955
牗	-13.9957
惴	-13.9957
襞	-13.9957
岺	-13.9959
軴	-13.9959
糗	-13.9959
㬢	-13.9959
溲	-13.9961
㫰	-13.9961
𣙗	-13.9961
餵	-13.9963
蘅	-13.9963
酤	-13.9963
醢	-13.9965
菰	-13.9965
灞	-13.9965
鳬	-13.9966
𨳕	-13.9967
綍	-13.9968
萱	-13.9968
箑	-13.9968
襈	-13.9968
脢	-13.9968
尠	-13.997
艘	-13.997
瞠	-13.997
醼	-13.997
贓	-13.9972
筩	-13.9972
煽	-13.9972
劊	-13.9972
褭	-13.9972
俘	-13.9974
墎	-13.9974
噎	-13.9974
鈜	-13.9976
虱	-13.9976
淊	-13.9976
瑱	-13.9976
蕳	-13.9976
屡	-13.9976
洶	-13.9976
昝	-13.9978
篚	-13.9978
蛄	-13.9978
臊	-13.9978
癥	-13.9978
据	-13.9978
騃	-13.9978
腊	-13.9978
挿	-13.998
襆	-13.998
馤	-13.9982
鮒	-13.9982
獐	-13.9982
呦	-13.9982
諉	-13.9982
秔	-13.9984
蕋	-13.9984
旴	-13.9984
椷	-13.9984
薙	-13.9984
眏	-13.9985
𣏌	-13.9986
髠	-13.9986
埦	-13.9986
拐	-13.9986
靸	-13.9986
㳄	-13.9988
吚	-13.9988
棃	-13.9988
阡	-13.9988
聼	-13.9988
苻	-13.9988
齟	-13.9988
厪	-13.9988
肧	-13.9988
鱨	-13.9988
嗛	-13.9988
逑	-13.9988
砰	-13.9989
秕	-13.999
祲	-13.999
詘	-13.999
掄	-13.999
囟	-13.9991
篠	-13.9991
眙	-13.9991
牕	-13.9991
盩	-13.9991
醲	-13.9992
苫	-13.9992
賻	-13.9992
辠	-13.9993
髄	-13.9993
楼	-13.9993
莬	-13.9993
螘	-13.9995
潴	-13.9995
淛	-13.9995
丄	-13.9995
扼	-13.9995
殉	-13.9995
𧙓	-13.9995
鞲	-13.9995
絫	-13.9995
胝	-13.9995
覦	-13.9995
鬅	-13.9995
糖	-13.9995
覊	-13.9997
璵	-13.9997
鵷	-13.9997
襴	-13.9997
宼	-13.9997
繟	-13.9997
㡳	-13.9997
篛	-13.9997
䘖	-13.9997
籯	-13.9997
趂	-13.9999
橛	-13.9999
窱	-13.9999
煕	-13.9999
馱	-13.9999
麫	-13.9999
塪	-13.9999
蹌	-13.9999
弹	-14
羾	-14.0001
咇	-14.0001
黻	-14.0001
擄	-14.0001
㲄	-14.0001
尔	-14.0001
灃	-14.0001
经	-14.0001
𥘵	-14.0001
彧	-14.0003
贇	-14.0003
鷟	-14.0003
胴	-14.0003
嶚	-14.0003
苣	-14.0003
䦦	-14.0005
飧	-14.0005
𡾗	-14.0005
扅	-14.0005
搥	-14.0005
濔	-14.0007
鄺	-14.0007
揫	-14.0007
軼	-14.0007
繂	-14.0007
𨋔	-14.0007
蘷	-14.0008
梃	-14.0009
礲	-14.0009
黝	-14.0009
嫖	-14.0009
垛	-14.0009
妷	-14.0009
禩	-14.0009
𨕞	-14.0009
穉	-14.0011
崒	-14.0011
臞	-14.0011
戇	-14.0011
瑄	-14.0011
罨	-14.0011
鶡	-14.0011
𦣱	-14.0011
嬀	-14.0011
畒	-14.0011
譛	-14.0012
瑘	-14.0012
䨥	-14.0012
扺	-14.0013
嗼	-14.0013
烋	-14.0013
皖	-14.0013
跑	-14.0013
隼	-14.0013
𡖉	-14.0013
𨴋	-14.0014
麩	-14.0015
㢘	-14.0015
𨾏	-14.0015
紓	-14.0015
餳	-14.0015
惇	-14.0015
噆	-14.0015
𠕋	-14.0015
𣋎	-14.0015
㢤	-14.0015
絺	-14.0015
𤥨	-14.0015
曶	-14.0015
碪	-14.0015
国	-14.0017
哼	-14.0017
刓	-14.0017
𡨥	-14.0017
珌	-14.0018
窖	-14.0018
俅	-14.0019
閾	-14.0019
嬾	-14.0019
讐	-14.0019
鏟	-14.0019
鷁	-14.0019
赐	-14.0019
帗	-14.0019
曀	-14.0019
籧	-14.0019
𣿼	-14.0019
鑲	-14.002
辣	-14.002
摐	-14.002
紡	-14.002
銚	-14.002
孶	-14.002
拚	-14.002
嵉	-14.002
彜	-14.002
瘼	-14.002
餗	-14.002
痤	-14.0022
崪	-14.0022
粢	-14.0022
嘧	-14.0022
咍	-14.0022
錀	-14.0022
釆	-14.0022
梘	-14.0022
噂	-14.0022
虀	-14.0022
駛	-14.0022
𨄔	-14.0022
夑	-14.0023
貉	-14.0024
綩	-14.0024
嘖	-14.0024
澧	-14.0024
諏	-14.0024
䢖	-14.0026
厓	-14.0026
矝	-14.0026
霂	-14.0026
䳱	-14.0028
哈	-14.0028
檳	-14.0028
纜	-14.0028
喇	-14.0028
曬	-14.0028
甿	-14.0028
銲	-14.0028
徘	-14.003
㵼	-14.003
睞	-14.003
𪉹	-14.003
鄊	-14.0032
咯	-14.0032
棓	-14.0032
啍	-14.0032
焯	-14.0032
褘	-14.0032
鸑	-14.0032
沠	-14.0033
痞	-14.0034
礜	-14.0034
矗	-14.0034
癯	-14.0034
熇	-14.0034
莆	-14.0034
譟	-14.0034
冪	-14.0036
驘	-14.0036
棖	-14.0036
荑	-14.0036
舲	-14.0036
𡏖	-14.0036
壹	-14.0036
慞	-14.0036
瑝	-14.0036
蓁	-14.0036
禭	-14.0036
瞹	-14.0036
顢	-14.0038
姐	-14.0038
鷲	-14.0038
驆	-14.004
凸	-14.004
屭	-14.004
朏	-14.004
罥	-14.004
綠	-14.004
滻	-14.004
寕	-14.004
蛀	-14.004
隃	-14.004
癉	-14.0041
誷	-14.0042
嚏	-14.0042
●	-14.0042
稉	-14.0044
穟	-14.0044
凟	-14.0044
圡	-14.0044
矴	-14.0045
惛	-14.0045
禊	-14.0045
听	-14.0046
岍	-14.0047
夥	-14.0047
昫	-14.0049
欸	-14.0049
䫙	-14.0049
畹	-14.0049
嘰	-14.0049
鋏	-14.0049
𡃳	-14.0049
菂	-14.005
榱	-14.0051
柤	-14.0051
妮	-14.0051
璹	-14.0053
𥼶	-14.0053
䧏	-14.0053
啟	-14.0055
湜	-14.0055
𡄦	-14.0055
纇	-14.0057
啵	-14.0057
篥	-14.0059
烠	-14.006
槧	-14.0061
囌	-14.0061
嵠	-14.0063
𥿈	-14.0063
獃	-14.0063
薌	-14.0063
菅	-14.0065
玟	-14.0067
郗	-14.0067
虖	-14.0067
詗	-14.0069
禂	-14.0069
闆	-14.0069
儈	-14.0073
𦬼	-14.0074
彯	-14.0074
𢘍	-14.0076
璩	-14.0082
㖂	-14.0084
濊	-14.0092
喯	-14.0092
啊	-14.0096
灹	-14.0098
捾	-14.0101
嘀	-14.0102
爹	-14.0102
摑	-14.0103
狨	-14.0105
𠾳	-14.0111
𧵣	-14.0138
䚃	-14.4856
臀	-14.4887
剻	-14.4893
踘	-14.4906
晬	-14.4909
䬠	-14.4912
䨔	-14.4915
晄	-14.4921
琲	-14.4922
㵆	-14.4925
涆	-14.4925
戻	-14.4925
賷	-14.4925
㢁	-14.4925
.	-14.4931
丌	-14.4931
楨	-14.4931
繙	-14.4931
腻	-14.4931
酘	-14.4934
桮	-14.4937
庣	-14.4937
窨	-14.4937
萯	-14.4937
螯	-14.4937
裎	-14.494
摝	-14.494
秬	-14.494
膴	-14.4944
墌	-14.4947
醤	-14.4947
间	-14.4947
砦	-14.4947
笁	-14.495
儐	-14.495
毿	-14.495
鏃	-14.4953
炓	-14.4956
蔾	-14.4956
䡄	-14.4956
襜	-14.4956
怜	-14.4956
熌	-14.4956
趐	-14.4959
堀	-14.4959
堞	-14.4959
䬃	-14.4959
蠏	-14.4959
輶	-14.4959
燖	-14.4961
揵	-14.4962
隍	-14.4965
殰	-14.4965
联	-14.4966
埇	-14.4966
咪	-14.4969
鈌	-14.4969
栥	-14.4969
劭	-14.4969
詁	-14.4969
耍	-14.4969
愽	-14.4969
贛	-14.4969
醁	-14.4969
醸	-14.4969
閘	-14.4969
厯	-14.4969
岊	-14.4969
浢	-14.4969
脰	-14.4969
轢	-14.4969
则	-14.4972
睱	-14.4972
醃	-14.4972
秭	-14.4972
㸑	-14.4972
斕	-14.4972
樿	-14.4972
牾	-14.4972
珩	-14.4972
篲	-14.4972
謢	-14.4972
舷	-14.4972
幬	-14.4975
輲	-14.4975
薿	-14.4975
湔	-14.4975
耋	-14.4975
胱	-14.4975
㿇	-14.4975
崷	-14.4975
帨	-14.4975
拴	-14.4975
昜	-14.4975
礼	-14.4975
穌	-14.4975
篘	-14.4975
闞	-14.4975
繾	-14.4978
髴	-14.4978
枹	-14.4978
盬	-14.4978
胾	-14.4978
鎌	-14.4978
蝙	-14.4978
鑴	-14.4978
蘢	-14.4981
疱	-14.4981
拁	-14.4981
坵	-14.4981
娌	-14.4981
擠	-14.4981
誄	-14.4981
瞵	-14.4981
篦	-14.4981
庬	-14.4984
珽	-14.4984
侫	-14.4984
剝	-14.4984
檣	-14.4984
硎	-14.4984
筲	-14.4984
扯	-14.4984
汋	-14.4984
稹	-14.4984
蝠	-14.4984
禅	-14.4987
榾	-14.4987
籤	-14.4987
?	-14.4988
榷	-14.4988
樅	-14.4988
鍧	-14.4988
摉	-14.4988
猾	-14.4988
蠖	-14.4988
丏	-14.4988
傖	-14.4988
喂	-14.4988
屎	-14.4988
憭	-14.4988
搰	-14.4988
浡	-14.4988
皪	-14.4988
睆	-14.4988
禕	-14.4988
緌	-14.4988
肪	-14.4988
葯	-14.4988
詇	-14.4988
郛	-14.4988
迊	-14.499
样	-14.4991
葽	-14.4991
晰	-14.4991
惨	-14.4991
抶	-14.4991
玼	-14.4991
蒮	-14.4991
軔	-14.4991
訢	-14.4991
咕	-14.4991
啨	-14.4991
祑	-14.4991
筳	-14.4991
縦	-14.4991
蜓	-14.4991
逌	-14.4991
䥴	-14.4991
庋	-14.4991
掦	-14.4991
枮	-14.4991
㖵	-14.4994
卅	-14.4994
憺	-14.4994
殭	-14.4994
尓	-14.4994
〇	-14.4994
剏	-14.4994
僶	-14.4994
幂	-14.4994
橑	-14.4994
渧	-14.4994
熺	-14.4994
猳	-14.4994
啿	-14.4994
玖	-14.4994
眤	-14.4994
赳	-14.4994
悪	-14.4997
㓛	-14.4997
拿	-14.4997
䙧	-14.4997
劖	-14.4997
噤	-14.4997
牸	-14.4997
咿	-14.4997
橰	-14.4997
荗	-14.4997
軏	-14.4997
宁	-14.5
诸	-14.5
䲴	-14.5
堊	-14.5
搂	-14.5
酲	-14.5
咢	-14.5
揓	-14.5
广	-14.5
輥	-14.5
痩	-14.5
㮏	-14.5
斆	-14.5
蹩	-14.5
燀	-14.5002
塹	-14.5003
煿	-14.5003
媲	-14.5003
毘	-14.5003
壕	-14.5003
檛	-14.5003
讙	-14.5003
佘	-14.5003
嗢	-14.5003
嚌	-14.5003
嚘	-14.5003
忭	-14.5003
殲	-14.5003
毖	-14.5003
焭	-14.5003
腷	-14.5003
衄	-14.5003
吱	-14.5006
盌	-14.5006
撙	-14.5006
灭	-14.5006
竉	-14.5006
㢰	-14.5006
㤗	-14.5006
为	-14.5006
們	-14.5006
堰	-14.5006
軚	-14.5006
酧	-14.5006
酴	-14.5006
鏺	-14.5006
葫	-14.501
繢	-14.501
俺	-14.501
坻	-14.501
扊	-14.501
鄣	-14.501
桄	-14.501
犖	-14.501
疎	-14.501
痔	-14.501
綫	-14.501
緍	-14.501
腧	-14.501
蠒	-14.501
鏑	-14.501
媱	-14.5013
柂	-14.5013
悁	-14.5013
挟	-14.5013
礡	-14.5013
輛	-14.5013
䌓	-14.5013
僽	-14.5013
姢	-14.5013
竂	-14.5013
舩	-14.5013
芫	-14.5013
鑕	-14.5013
衂	-14.5016
繅	-14.5016
㛹	-14.5016
眦	-14.5016
啹	-14.5016
拌	-14.5016
烗	-14.5016
爼	-14.5016
见	-14.5016
踳	-14.5016
遆	-14.5016
昞	-14.5016
晒	-14.5016
秧	-14.5016
蒔	-14.5016
喓	-14.5016
掊	-14.5016
毣	-14.5016
疉	-14.5016
聇	-14.5016
葢	-14.5019
偵	-14.5019
拗	-14.5019
伫	-14.5019
吭	-14.5019
忐	-14.5019
䆳	-14.5019
胇	-14.5019
軆	-14.5019
㑺	-14.5019
㴠	-14.5019
揍	-14.5019
棕	-14.5019
磋	-14.5019
磶	-14.5019
糝	-14.5019
耎	-14.5019
奐	-14.5021
㳟	-14.5022
佉	-14.5022
貓	-14.5022
侅	-14.5022
癆	-14.5022
辿	-14.5022
㠊	-14.5022
踡	-14.5022
冼	-14.5022
喈	-14.5022
孌	-14.5022
櫩	-14.5022
牯	-14.5022
癈	-14.5022
葅	-14.5022
芾	-14.5025
咜	-14.5025
㡌	-14.5025
紕	-14.5025
崵	-14.5025
㝏	-14.5025
嚦	-14.5025
坏	-14.5025
塈	-14.5025
墯	-14.5025
娀	-14.5025
旎	-14.5025
朒	-14.5025
甁	-14.5025
秷	-14.5025
輞	-14.5025
閠	-14.5025
覇	-14.5027
篝	-14.5028
垍	-14.5028
䦕	-14.5028
噭	-14.5029
攤	-14.5029
栲	-14.5029
痁	-14.5029
礕	-14.5029
踔	-14.5029
糿	-14.503
詖	-14.503
瓛	-14.5032
鑼	-14.5032
阖	-14.5032
䗁	-14.5032
嗗	-14.5032
庳	-14.5032
忪	-14.5032
焊	-14.5032
胦	-14.5032
臗	-14.5032
趫	-14.5032
酕	-14.5032
鐐	-14.5032
噁	-14.5035
栅	-14.5035
磎	-14.5035
薢	-14.5035
挼	-14.5035
莩	-14.5035
俳	-14.5035
哇	-14.5035
唈	-14.5035
弸	-14.5035
盅	-14.5038
嘬	-14.5038
罶	-14.5038
冏	-14.5038
瘉	-14.5038
蹝	-14.5038
慴	-14.5038
燉	-14.5038
呰	-14.5038
眯	-14.5038
吙	-14.5041
噇	-14.5041
僦	-14.5041
另	-14.5041
鏳	-14.5041
菘	-14.5041
釂	-14.5044
妺	-14.5044
穾	-14.5044
嘽	-14.5044
撆	-14.5044
箁	-14.5044
刦	-14.5044
昈	-14.5047
抨	-14.5047
荽	-14.5047
焙	-14.5047
哄	-14.5047
擉	-14.5047
䋿	-14.5051
沇	-14.5051
熯	-14.5051
嘍	-14.5051
紞	-14.5053
鐀	-14.5053
佶	-14.5054
胔	-14.5054
踱	-14.5054
鐙	-14.5054
埭	-14.5054
唌	-14.5054
幰	-14.5054
獎	-14.5054
㒒	-14.5057
伙	-14.5057
唬	-14.5057
螋	-14.5057
阤	-14.5057
摜	-14.506
珙	-14.506
邱	-14.506
楔	-14.506
弢	-14.506
菀	-14.506
棼	-14.5061
蒻	-14.5063
廠	-14.5063
懤	-14.5063
蟯	-14.5063
椸	-14.5063
咮	-14.5063
嘵	-14.5063
柮	-14.5066
灔	-14.5066
摻	-14.5069
澨	-14.5069
濼	-14.5069
嘸	-14.5069
叻	-14.5069
㠓	-14.5069
閗	-14.5072
漻	-14.5073
瀏	-14.5073
琡	-14.5073
帟	-14.5073
糚	-14.5073
苶	-14.5076
窾	-14.5076
蚹	-14.5076
絙	-14.5076
嘮	-14.5076
澟	-14.5076
塩	-14.5079
瀁	-14.5079
溆	-14.5082
錂	-14.5082
鎞	-14.5082
矬	-14.5082
貚	-14.5082
焞	-14.5088
稌	-14.5088
鈀	-14.5091
螾	-14.5095
䐈	-14.5095
晢	-14.5098
堠	-14.51
芤	-14.5101
釧	-14.5101
廁	-14.5101
啥	-14.5107
倮	-14.511
喋	-14.5114
懂	-14.5114
垚	-14.5117
鐏	-14.512
㽵	-14.5126
仡	-14.5148
闒	-15.4648
鍇	-15.4649
銙	-15.465
鉼	-15.4651
鉟	-15.4652
鈼	-15.4653
醶	-15.4654
郜	-15.4655
轞	-15.4656
輁	-15.4657
赩	-15.4658
贐	-15.4659
豌	-15.466
谽	-15.4661
谺	-15.4662
觖	-15.4663
褊	-15.4664
袝	-15.4665
蠛	-15.4666
蟮	-15.4667
螚	-15.4668
蝢	-15.4669
蝖	-15.467
蜰	-15.4671
蜟	-15.4672
蜅	-15.4673
蛑	-15.4674
蚡	-15.4675
虰	-15.4676
蕷	-15.4677
芰	-15.4678
艫	-15.4679
脈	-15.468
胭	-15.4681
胠	-15.4682
肹	-15.4683
羝	-15.4684
緦	-15.4685
糛	-15.4686
糓	-15.4687
篾	-15.4688
筥	-15.4689
穖	-15.469
禖	-15.4691
磲	-15.4692
硨	-15.4693
硇	-15.4694
眂	-15.4695
皴	-15.4696
瘗	-15.4697
瘓	-15.4698
瑳	-15.4699
瑪	-15.47
瑙	-15.4701
珷	-15.4702
獹	-15.4703
獯	-15.4704
牥	-15.4705
爝	-15.4706
爏	-15.4707
煼	-15.4708
焄	-15.4709
焂	-15.471
濜	-15.4711
潙	-15.4712
溱	-15.4713
溈	-15.4714
淞	-15.4715
淅	-15.4716
涶	-15.4717
汵	-15.4718
毸	-15.4719
毰	-15.472
欖	-15.4721
橄	-15.4722
槫	-15.4723
楩	-15.4724
椁	-15.4725
棫	-15.4726
栀	-15.4727
枿	-15.4728
枻	-15.4729
斠	-15.473
撾	-15.4731
怩	-15.4732
巋	-15.4733
岢	-15.4734
嫜	-15.4735
婥	-15.4736
奫	-15.4737
壝	-15.4738
壚	-15.4739
埼	-15.474
垤	-15.4741
嘩	-15.4742
唦	-15.4743
吧	-15.4744
叭	-15.4745
厙	-15.4746
厘	-15.4747
厔	-15.4748
卮	-15.4749
劂	-15.475
刲	-15.4751
䭫	-15.4752
䗫	-15.4753
䏁	-15.4754
䆴	-15.4755
㪷	-15.4756
㨀	-15.4757
㒺	-15.4758
𩖿	-15.4759
𨓦	-15.476
𨋫	-15.4761
𧤩	-15.4762
𧃍	-15.4763
𥚑	-15.4764
𤇨	-15.4765
𢧐	-15.4766
𡾊	-15.4767
𡸍	-15.4768
𠮀	-15.4769
齠	-15.477
鼷	-15.4771
駙	-15.4772
饘	-15.4773
韉	-15.4774
雒	-15.4775
雎	-15.4776
隖	-15.4777
鎁	-15.4778
錙	-15.4779
趑	-15.478
覼	-15.4781
蠣	-15.4782
蚰	-15.4783
虒	-15.4784
葡	-15.4785
菉	-15.4786
茴	-15.4787
粳	-15.4788
簋	-15.4789
笊	-15.479
盭	-15.4791
痪	-15.4792
獼	-15.4793
猧	-15.4794
犲	-15.4795
熀	-15.4796
澎	-15.4797
洧	-15.4798
暹	-15.4799
昀	-15.48
揶	-15.4801
彛	-15.4802
巂	-15.4803
崳	-15.4804
妁	-15.4805
塏	-15.4806
埪	-15.4807
坷	-15.4808
剰	-15.4809
偊	-15.481
倥	-15.4811
仃	-15.4812
䔥	-15.4813
䀎	-15.4814
𪖙	-15.4815
𩃱	-15.4816
𧥶	-15.4817
𤳗	-15.4818
𤢟	-15.4819
𠷢	-15.482
饅	-15.4821
鐍	-15.4822
鈿	-15.4823
裵	-15.4824
螮	-15.4825
蜴	-15.4826
蜥	-15.4827
蓞	-15.4828
萋	-15.4829
萄	-15.483
芃	-15.4831
舳	-15.4832
簌	-15.4833
筤	-15.4834
矞	-15.4835
瞪	-15.4836
癀	-15.4837
甪	-15.4838
獪	-15.4839
獗	-15.484
狽	-15.4841
瀧	-15.4842
湲	-15.4843
汆	-15.4844
樟	-15.4845
槔	-15.4846
撕	-15.4847
捎	-15.4848
扮	-15.4849
惘	-15.485
惓	-15.4851
徬	-15.4852
崚	-15.4853
劌	-15.4854
䡾	-15.4855
㤜	-15.4856
㕮	-15.4857
𩕄	-15.4858
𨀛	-15.4859
𡅵	-15.486
鸝	-15.4861
鯢	-15.4862
魉	-15.4863
鞶	-15.4864
鏞	-15.4865
鋋	-15.4866
跬	-15.4867
貂	-15.4868
蝀	-15.4869
蜈	-15.487
蛉	-15.4871
藟	-15.4872
葪	-15.4873
肄	-15.4874
羑	-15.4875
痍	-15.4876
琶	-15.4877
濾	-15.4878
潧	-15.4879
歔	-15.488
榔	-15.4881
椹	-15.4882
杌	-15.4883
旰	-15.4884
挲	-15.4885
拇	-15.4886
嫫	-15.4887
娩	-15.4888
剞	-15.4889
冱	-15.489
俏	-15.4891
䭀	-15.4892
㰱	-15.4893
魴	-15.4894
顰	-15.4895
頵	-15.4896
虩	-15.4897
薺	-15.4898
荏	-15.4899
碼	-15.49
碯	-15.4901
瀲	-15.4902
濓	-15.4903
濂	-15.4904
楸	-15.4905
帢	-15.4906
嫘	-15.4907
婇	-15.4908
嗊	-15.4909
嗃	-15.491
倜	-15.4911
鼕	-15.4912
蹐	-15.4913
粃	-15.4914
箏	-15.4915
祊	-15.4916
碏	-15.4917
瓈	-15.4918
槖	-15.4919
嵛	-15.492
埜	-15.4921
喨	-15.4922
㖮	-15.4923
骷	-15.4924
躑	-15.4925
蘁	-15.4926
綢	-15.4927
璝	-15.4928
檎	-15.4929
昳	-15.493
惆	-15.4931
徜	-15.4932
嬋	-15.4933
嫦	-15.4934
倆	-15.4935
侏	-15.4936
鴦	-15.4937
轗	-15.4938
覘	-15.4939
萸	-15.494
膀	-15.4941
翡	-15.4941
篌	-15.4942
箜	-15.4943
筑	-15.4944
睺	-15.4945
枵	-15.4946
徨	-15.4947
帡	-15.4948
峥	-15.4949
媧	-15.495
偓	-15.4951
㬋	-15.4952
靊	-15.4953
蘩	-15.4954
腓	-15.4955
粕	-15.4956
牆	-15.4957
侗	-15.4958
鵡	-15.4959
闤	-15.496
酊	-15.4961
邯	-15.4962
咫	-15.4963
諟	-15.4963
艇	-15.4964
箍	-15.4965
垞	-15.4966
儡	-15.4967
㬰	-15.4967
鴿	-15.4968
邗	-15.4969
譊	-15.497
褓	-15.4971
猩	-15.4972
楞	-15.4973
擻	-15.4974
抖	-15.4975
姮	-15.4976
㾮	-15.4977
颻	-15.4978
喟	-15.4979
靆	-15.498
穡	-15.4981
溧	-15.4982
邂	-15.4983
逅	-15.4984
轤	-15.4985
絨	-15.4986
苒	-15.4987
瞥	-15.4988
崆	-15.4989
紘	-15.4989
桎	-15.499
蝴	-15.4991
榑	-15.4992
嗈	-15.4993
哮	-15.4994
琊	-15.4995
漓	-15.4996
絪	-15.4997
醐	-15.4998
醍	-15.4999
緲	-15.5
罣	-15.5001
紜	-15.5002
逡	-15.5003
魍	-15.5004
蓉	-15.5005
茯	-15.5006
瑠	-15.5007
噰	-15.5008
幞	-15.5008
