<unk>	0
<s>	0
</s>	0
之	-3.71497
也	-4.23603
而	-4.25587
以	-4.50276
者	-4.63305
其	-4.76661
為	-4.77937
有	-4.80605
則	-4.80858
不	-4.81761
/	-4.8748
(	-5.02578
於	-5.06225
曰	-5.08888
人	-5.13218
)	-5.28475
是	-5.28702
無	-5.33323
一	-5.38781
言	-5.49703
自	-5.56861
此	-5.60636
如	-5.65948
故	-5.70547
大	-5.73557
矣	-5.73801
與	-5.74195
事	-5.75725
得	-5.76035
然	-5.8705
所	-5.88536
中	-5.90571
上	-5.9346
子	-5.93782
皆	-5.95341
行	-5.95761
)(	-5.96226
至	-5.97627
心	-5.98183
在	-5.99244
亦	-5.99251
非	-5.99404
時	-5.99924
乎	-6.01115
道	-6.01344
知	-6.017
見	-6.03966
謂	-6.08658
用	-6.10008
問	-6.11544
處	-6.12637
正	-6.13309
又	-6.14492
生	-6.15085
明	-6.16299
若	-6.16925
必	-6.20935
天	-6.22459
下	-6.25965
公	-6.28036
説	-6.28618
當	-6.29573
王	-6.31722
民	-6.36012
能	-6.36899
相	-6.38321
學	-6.3838
臣	-6.38788
所以	-6.38823
可	-6.38914
已	-6.38921
作	-6.39018
于	-6.39241
三	-6.39936
乃	-6.40541
書	-6.40753
文	-6.41937
欲	-6.42078
成	-6.42648
便	-6.42836
禮	-6.43935
使	-6.45132
日	-6.45194
雖	-6.45862
/)	-6.46612
焉	-6.47453
今	-6.49719
出	-6.50122
義	-6.51615
易	-6.5231
云	-6.53562
物	-6.53582
君	-6.54347
仁	-6.54446
去	-6.54943
國	-6.56395
立	-6.57932
何	-6.58034
善	-6.58232
二	-6.58573
理	-6.59012
及	-6.59641
未	-6.60177
本	-6.60264
▁	-6.60904
方	-6.61172
後	-6.61618
不可	-6.62396
五	-6.63118
即	-6.64722
夫	-6.65268
氣	-6.65571
說	-6.66992
多	-6.67082
同	-6.6723
從	-6.67469
安	-6.67759
四	-6.67808
先	-6.67882
法	-6.69129
分	-6.70034
或	-6.70626
惟	-6.71041
樂	-6.71618
意	-6.71859
既	-6.72341
官	-6.73122
徳	-6.73867
地	-6.74037
所謂	-6.74449
論	-6.77702
實	-6.77786
○	-6.78209
字	-6.78233
性	-6.78448
聖人	-6.785
如此	-6.79085
以為	-6.79236
名	-6.79913
數	-6.80573
合	-6.80852
盡	-6.81084
我	-6.81329
來	-6.8236
耳	-6.82707
命	-6.83252
治	-6.83612
哉	-6.84271
因	-6.84934
而不	-6.85419
不能	-6.85871
家	-6.86116
天下	-6.86331
爲	-6.86531
只	-6.86599
入	-6.86796
復	-6.86939
居	-6.87091
將	-6.87284
只是	-6.87687
長	-6.87904
主	-6.88373
敬	-6.88554
動	-6.88931
他	-6.89268
過	-6.8935
甚	-6.89353
常	-6.89945
但	-6.90448
小	-6.908
取	-6.91132
世	-6.91169
好	-6.91741
猶	-6.92112
通	-6.92909
要	-6.93361
陽	-6.93711
定	-6.94536
始	-6.95714
經	-6.96205
外	-6.96612
吾	-6.97439
士	-6.9856
了	-6.99053
六	-6.99833
誠	-6.99921
且	-7.00307
難	-7.01318
死	-7.015
親	-7.02396
反	-7.02554
周	-7.02572
重	-7.02888
體	-7.03128
利	-7.04622
身	-7.0479
極	-7.05391
發	-7.05968
諸	-7.0685
平	-7.07055
水	-7.07126
舉	-7.07731
令	-7.07896
師	-7.07998
教	-7.08002
求	-7.08101
神	-7.08548
惡	-7.09182
凡	-7.09232
却	-7.09491
思	-7.0952
節	-7.10947
志	-7.12288
固	-7.12955
力	-7.13802
遂	-7.14229
年	-7.14801
進	-7.15182
聞	-7.15366
制	-7.15387
齊	-7.16146
不得	-7.16307
和	-7.16412
食	-7.16541
服	-7.16736
語	-7.16868
不知	-7.18397
變	-7.18499
君子	-7.18601
兵	-7.19884
元	-7.20006
深	-7.20277
觀	-7.21403
信	-7.21562
止	-7.22362
異	-7.22736
德	-7.22786
終	-7.22915
著	-7.23689
孔子	-7.23696
内	-7.24451
守	-7.24988
少	-7.25026
致	-7.25326
詩	-7.25817
政	-7.25848
祭	-7.26187
亂	-7.2627
隂	-7.26283
便是	-7.2672
前	-7.26801
傳	-7.26948
古	-7.27037
初	-7.27123
賢	-7.27417
須	-7.27922
豈	-7.28264
父	-7.28567
者也	-7.29055
先生	-7.2979
直	-7.31357
兩	-7.31698
近	-7.31843
稱	-7.31843
失	-7.31845
而已	-7.3187
順	-7.31938
氏	-7.32422
化	-7.32462
歸	-7.32601
逺	-7.34258
九	-7.3431
朝	-7.34785
應	-7.35812
漢	-7.35835
帝	-7.35917
孝	-7.35949
聲	-7.3605
聖	-7.36626
由	-7.37
宗	-7.37373
底	-7.37457
養	-7.37536
都	-7.37636
爾	-7.37638
山	-7.37664
己	-7.39843
音	-7.39857
章	-7.4015
學者	-7.40734
看	-7.40793
存	-7.40853
陳	-7.4107
宜	-7.41463
位	-7.41583
受	-7.4188
某	-7.42059
蓋	-7.42069
萬	-7.42229
月	-7.43305
切	-7.43361
愛	-7.43593
起	-7.43768
孟子	-7.43973
功	-7.44892
可以	-7.45137
讀	-7.4656
就	-7.46786
田	-7.47039
老	-7.47198
百	-7.47294
各	-7.4757
之意	-7.47758
推	-7.47944
之道	-7.48019
全	-7.48366
衆	-7.48569
刑	-7.48811
風	-7.4899
辭	-7.49171
等	-7.50144
髙	-7.50319
州	-7.5049
如何	-7.50526
門	-7.50554
流	-7.51385
興	-7.51732
尚	-7.51875
形	-7.52013
盖	-7.52386
獨	-7.52629
亡	-7.52727
更	-7.52737
天地	-7.53096
象	-7.53733
人之	-7.53738
精	-7.54005
這	-7.54163
任	-7.54312
益	-7.5441
宋	-7.54491
彼	-7.54908
南	-7.55151
疑	-7.5551
别	-7.55595
㑹	-7.55794
交	-7.55997
類	-7.56106
恐	-7.56351
尊	-7.56485
做	-7.57188
張	-7.57303
謂之	-7.57644
似	-7.57806
東	-7.59199
之心	-7.5932
武	-7.60127
嘗	-7.60133
情	-7.60803
其所	-7.60932
間	-7.61275
斯	-7.61353
解	-7.61504
之所	-7.61784
殺	-7.62001
度	-7.62152
害	-7.6276
然後	-7.62799
馬	-7.63138
修	-7.63603
伯	-7.63862
次	-7.64332
到	-7.64407
母	-7.64512
而後	-7.64575
加	-7.64813
祖	-7.64914
記	-7.65835
八	-7.65848
卦	-7.66259
視	-7.66326
忠	-7.66331
太	-7.66406
西	-7.66674
秦	-7.66675
勝	-7.66766
指	-7.68415
備	-7.68612
才	-7.68676
至於	-7.69529
軍	-7.7035
請	-7.70551
廣	-7.70673
十	-7.70965
晉	-7.71161
莫	-7.7144
貴	-7.71669
比	-7.71764
史	-7.71781
識	-7.71782
又曰	-7.72008
金	-7.72688
私	-7.72708
足	-7.74125
釋	-7.75534
感	-7.75722
土	-7.75871
七	-7.76029
屬	-7.778
具	-7.77973
女	-7.78023
開	-7.78135
習	-7.78449
諸侯	-7.78659
之事	-7.7983
器	-7.79847
卒	-7.79889
原	-7.80175
葢	-7.80219
不同	-7.80402
清	-7.80493
容	-7.80535
魯	-7.80608
對	-7.80744
虚	-7.80981
幾	-7.81357
天下之	-7.81702
夏	-7.81965
窮	-7.823
告	-7.82536
執	-7.82636
篇	-7.82718
絶	-7.82831
戒	-7.83388
載	-7.83941
病	-7.84062
春秋	-7.84196
盛	-7.84222
厚	-7.84329
廢	-7.84712
楚	-7.84854
木	-7.85175
唐	-7.85288
辨	-7.85326
萬物	-7.85329
序	-7.85351
智	-7.85518
輕	-7.85631
司	-7.85687
坐	-7.85709
真	-7.85728
天子	-7.85845
考	-7.85863
向	-7.859
首	-7.86165
之言	-7.86221
務	-7.86235
光	-7.87176
自然	-7.8733
李	-7.88201
不敢	-7.88286
議	-7.88597
引	-7.88624
放	-7.88879
保	-7.88985
宫	-7.89186
達	-7.89482
邪	-7.89698
謀	-7.89891
克	-7.90046
夫子	-7.90206
憂	-7.9028
廟	-7.9045
千	-7.90495
舊	-7.90527
乾	-7.90819
之理	-7.90856
業	-7.91088
目	-7.9122
有所	-7.91726
端	-7.92226
久	-7.92358
設	-7.9254
剛	-7.92812
大夫	-7.92918
北	-7.9321
色	-7.93214
那	-7.93761
吏	-7.93762
差	-7.93954
侯	-7.94317
置	-7.94368
望	-7.9472
叔	-7.94997
改	-7.95184
而無	-7.95994
離	-7.96115
待	-7.96341
計	-7.96381
石	-7.96466
来	-7.96551
無所	-7.96984
之間	-7.97044
罪	-7.97058
卷	-7.97422
孫	-7.97608
子曰	-7.97739
口	-7.98173
火	-7.98267
最	-7.9877
嚴	-7.98919
按	-7.99475
隨	-7.99573
察	-7.99669
省	-7.9971
建	-7.99725
隂陽	-7.99869
徒	-7.99947
城	-8.00065
新	-8.00096
謹	-8.00388
良	-8.00408
權	-8.00417
白	-8.00439
兼	-8.00559
息	-8.00845
車	-8.01211
疾	-8.01231
美	-8.01339
喪	-8.01592
静	-8.01959
室	-8.02095
見得	-8.02153
積	-8.02261
伐	-8.02425
適	-8.0281
施	-8.02839
承	-8.02987
奉	-8.03012
臨	-8.03454
詳	-8.03698
不足	-8.03866
吉	-8.03976
約	-8.03978
後世	-8.04031
天理	-8.04069
尤	-8.04366
不是	-8.04609
縣	-8.04658
微	-8.04712
勿	-8.05037
父母	-8.05125
鄉	-8.05665
勞	-8.05755
果	-8.05797
嵗	-8.06153
是以	-8.06538
繼	-8.06735
往	-8.0688
皇	-8.07086
責	-8.07519
遇	-8.07693
之時	-8.07756
每	-8.07819
故曰	-8.0801
路	-8.08128
財	-8.08191
講	-8.0827
强	-8.08403
共	-8.08733
典	-8.08792
散	-8.08887
愚	-8.09084
退	-8.09126
耶	-8.09436
仲	-8.09585
申	-8.09636
之義	-8.09669
於此	-8.09883
鄭	-8.09973
質	-8.10398
專	-8.10399
訓	-8.10542
封	-8.10713
太極	-8.10797
道理	-8.10805
舜	-8.11184
衣	-8.11462
並	-8.11806
職	-8.1185
偏	-8.11989
賦	-8.11999
除	-8.12446
将	-8.1249
戰	-8.13288
春	-8.13415
威	-8.13518
降	-8.13551
言之	-8.13621
聽	-8.13762
也故	-8.13776
昭	-8.1388
黄	-8.14061
工夫	-8.14558
俗	-8.14922
小人	-8.14998
持	-8.15018
答	-8.15094
敗	-8.15109
古人	-8.15291
富	-8.15402
斷	-8.15438
詔	-8.15529
濟	-8.15682
特	-8.16006
魏	-8.161
之法	-8.16179
之中	-8.16386
頭	-8.16609
末	-8.16757
之説	-8.16863
卿	-8.16939
顯	-8.17012
右	-8.17076
空	-8.17103
伊川	-8.17145
否	-8.17264
靜	-8.17393
圖	-8.17597
律	-8.17825
讀書	-8.17916
足以	-8.1802
患	-8.18414
擇	-8.18468
必有	-8.18541
還	-8.19102
聚	-8.19314
注	-8.1988
運	-8.19988
餘	-8.20135
茍	-8.20458
江	-8.20487
勢	-8.20509
畏	-8.20858
朱子	-8.20939
趙	-8.21076
予	-8.21242
簡	-8.21694
劉	-8.21724
手	-8.21874
遺	-8.2203
許	-8.22112
商	-8.22266
弗	-8.22479
人心	-8.22749
錢	-8.22796
敢	-8.22845
㸔	-8.23099
婦	-8.23173
知其	-8.23394
賜	-8.23403
列	-8.24056
上下	-8.24324
慮	-8.24359
藏	-8.24379
禁	-8.24483
何以	-8.245
箇	-8.24662
未嘗	-8.24689
條	-8.24714
雜	-8.25019
柔	-8.25277
高	-8.25447
河	-8.25759
聖賢	-8.25827
慎	-8.26006
后	-8.26103
傷	-8.2616
危	-8.26271
舍	-8.26292
遷	-8.26394
儒	-8.26614
寛	-8.26635
代	-8.26664
不及	-8.26718
集	-8.27101
奏	-8.27194
福	-8.27923
統	-8.28103
半	-8.28151
鬼神	-8.28207
率	-8.28277
須是	-8.28297
急	-8.2838
喜	-8.28449
朱子曰	-8.29167
敵	-8.29173
府	-8.29213
祀	-8.29214
理㑹	-8.29246
依	-8.29271
念	-8.2974
怒	-8.29913
愈	-8.29984
一日	-8.30201
農	-8.31093
可謂	-8.31194
役	-8.31335
否曰	-8.3139
其心	-8.31519
熟	-8.31581
滅	-8.31679
忘	-8.31695
造	-8.31757
扵	-8.31804
哀	-8.31838
禹	-8.31854
覺	-8.3197
恭	-8.32101
恁地	-8.32386
顔子	-8.32623
况	-8.32736
怨	-8.32821
面	-8.32935
漸	-8.33097
之類	-8.33322
格	-8.33567
衰	-8.33585
亦有	-8.33697
救	-8.33808
畫	-8.33819
文王	-8.3383
酒	-8.34126
再	-8.34243
天之	-8.34522
被	-8.34544
據	-8.34578
參	-8.34605
汝	-8.34661
儀	-8.34942
胡	-8.34998
當時	-8.35027
不過	-8.35105
義理	-8.35281
衛	-8.35405
轉	-8.35661
獻	-8.35667
移	-8.35876
細	-8.35969
充	-8.36108
量	-8.36159
是也	-8.36199
周公	-8.3626
召	-8.36478
之後	-8.36507
弟	-8.36515
免	-8.36566
御	-8.36677
程子	-8.36775
期	-8.36868
費	-8.36884
工	-8.36892
之學	-8.36942
中庸	-8.37199
棄	-8.37225
無不	-8.37291
或問	-8.37317
雨	-8.3785
勉	-8.37875
報	-8.38126
友	-8.38361
未有	-8.38879
崇	-8.38981
納	-8.39219
澤	-8.39437
朝廷	-8.39551
賊	-8.39869
拜	-8.40003
附	-8.40107
根	-8.40684
虞	-8.40844
博	-8.41079
左	-8.41207
脩	-8.4126
夜	-8.41435
補	-8.41488
顧	-8.41503
吕	-8.41901
星	-8.42176
妄	-8.42227
玉	-8.42412
妻	-8.42414
句	-8.42488
秋	-8.42583
諫	-8.42619
逆	-8.42727
授	-8.42834
海	-8.43012
素	-8.43483
堂	-8.43486
攻	-8.435
靈	-8.43873
里	-8.43906
勸	-8.43914
懼	-8.43985
苦	-8.4434
禮樂	-8.44392
仁義	-8.44481
人君	-8.44563
勇	-8.446
術	-8.44607
此心	-8.44848
恩	-8.44995
陵	-8.44999
永	-8.45055
者皆	-8.45064
越	-8.45183
先生曰	-8.45277
羣	-8.45483
如何曰	-8.45507
寧	-8.45676
韓	-8.45822
程	-8.45854
自是	-8.4587
乆	-8.45892
薄	-8.45963
龍	-8.46097
純	-8.46279
自家	-8.46458
以下	-8.46466
升	-8.46704
總	-8.4677
華	-8.46904
大學	-8.46935
之人	-8.47062
皆是	-8.47266
布	-8.47384
假	-8.47539
庶	-8.47546
輔	-8.47876
資	-8.47889
昔	-8.48083
蔽	-8.48193
示	-8.48397
射	-8.48604
於是	-8.48915
為之	-8.49145
三年	-8.49245
審	-8.49323
民之	-8.49355
坤	-8.49489
爭	-8.49604
兄弟	-8.4976
臣按	-8.49862
亦不	-8.49867
之功	-8.49902
幸	-8.50016
塞	-8.50359
凶	-8.50381
逐	-8.50389
夷	-8.50422
願	-8.5052
表	-8.50542
敎	-8.50641
賞	-8.50964
號	-8.51273
闕	-8.51299
季	-8.51324
唯	-8.51402
收	-8.51422
掌	-8.51621
康	-8.51738
曲	-8.5209
梁	-8.52124
户	-8.52284
違	-8.52509
寡	-8.5261
管	-8.52655
貞	-8.52848
行之	-8.52881
篤	-8.52939
邑	-8.52965
助	-8.53002
勤	-8.53019
也夫	-8.53111
可見	-8.53247
出於	-8.53459
而言	-8.53536
殊	-8.53555
仕	-8.53874
循	-8.53963
天地之	-8.53992
孰	-8.54005
誅	-8.54014
一人	-8.54172
古之	-8.54178
閒	-8.54281
暴	-8.54436
宣	-8.54451
卑	-8.54721
禍	-8.54854
紀	-8.55092
留	-8.55345
朱	-8.55601
歌	-8.55737
雲	-8.55974
尺	-8.55998
獄	-8.56051
眀	-8.56074
楊	-8.56183
兄	-8.56213
林	-8.56252
昏	-8.56295
爵	-8.5634
累	-8.5639
破	-8.56484
避	-8.56531
俱	-8.56558
接	-8.56678
試	-8.56905
冠	-8.56917
今日	-8.57019
爻	-8.57259
燕	-8.57354
犯	-8.57449
百姓	-8.57873
今人	-8.57916
毋	-8.5795
䘮	-8.58445
録	-8.58629
不可以	-8.58631
冬	-8.58698
侍	-8.58743
奪	-8.5886
吳	-8.58876
讓	-8.58937
又問	-8.58949
忽	-8.58999
寒	-8.59225
不為	-8.59255
之說	-8.59385
結	-8.59498
之謂	-8.59521
惠	-8.59616
抑	-8.59629
左右	-8.60073
貧	-8.6008
竊	-8.60583
配	-8.60659
甲	-8.60901
隠	-8.61162
妙	-8.61281
辟	-8.61311
防	-8.61321
以此	-8.61404
禄	-8.61496
困	-8.61504
咸	-8.61514
竒	-8.61572
亦是	-8.61575
寸	-8.617
之地	-8.61755
惑	-8.61968
則是	-8.6207
均	-8.6238
揚	-8.62663
厥	-8.62744
十二	-8.62849
則有	-8.62907
弱	-8.62935
文字	-8.63011
邊	-8.63087
而為	-8.63419
不然	-8.63644
歟	-8.63705
以其	-8.63747
不必	-8.63843
給	-8.64249
之所以	-8.64304
二十	-8.64763
以上	-8.64777
詞	-8.6488
曾	-8.64887
材	-8.64907
莫不	-8.65436
邦	-8.65673
之禮	-8.65762
草	-8.65784
一事	-8.65886
伏	-8.65903
也然	-8.66466
聖人之	-8.66475
得其	-8.66691
略	-8.66715
滿	-8.6686
履	-8.66949
貫	-8.66951
游	-8.66981
選	-8.67059
不以	-8.67068
郡	-8.67078
震	-8.67236
味	-8.67537
君臣	-8.67706
源	-8.67776
的	-8.67844
乗	-8.67949
偽	-8.6809
罷	-8.68222
誤	-8.68387
一箇	-8.6847
嘉	-8.68801
慈	-8.6882
道之	-8.68823
畢	-8.68867
㣲	-8.68889
自有	-8.69323
佛	-8.6946
野	-8.69584
包	-8.69638
革	-8.69639
魚	-8.69699
客	-8.69814
堯	-8.69877
意思	-8.70042
錯	-8.70221
其言	-8.70359
豐	-8.70367
堅	-8.70553
莊	-8.70589
負	-8.70666
族	-8.70889
淵	-8.71194
者亦	-8.71511
葬	-8.71596
孔	-8.71606
薦	-8.71708
虛	-8.71835
太子	-8.71974
温	-8.72072
見其	-8.72097
䝉	-8.72115
堯舜	-8.72131
休	-8.72445
不如	-8.72515
使人	-8.72651
種	-8.72665
蔡	-8.72782
趨	-8.72991
湯	-8.73004
對曰	-8.73105
效	-8.73129
説得	-8.73221
曹	-8.73252
不見	-8.73469
是非	-8.73588
子孫	-8.73787
耕	-8.73824
享	-8.7404
京	-8.74083
恕	-8.742
國家	-8.74252
荒	-8.74283
損	-8.74478
黨	-8.74612
纔	-8.74632
日月	-8.74734
厯	-8.74746
連	-8.75014
使之	-8.75043
第	-8.75094
縱	-8.75199
牛	-8.75219
淳	-8.75329
誦	-8.75439
孟	-8.7546
厲	-8.75516
巳	-8.75621
用之	-8.75742
述	-8.75774
之本	-8.75894
悔	-8.75912
臣若水通曰	-8.75976
曰此	-8.76359
論語	-8.76608
丘	-8.76807
速	-8.76989
陛下	-8.77443
雖有	-8.77514
皆有	-8.77575
征	-8.77614
其身	-8.77749
險	-8.78184
屈	-8.78198
鬼	-8.78491
悉	-8.7853
闗	-8.78539
市	-8.78565
景	-8.78663
井	-8.78668
郊	-8.78987
道也	-8.79268
畧	-8.7928
干	-8.79287
弊	-8.79362
照	-8.79628
未必	-8.79642
之際	-8.79669
謝	-8.79732
淫	-8.79772
然而	-8.79893
而已矣	-8.79898
然則	-8.80554
明道	-8.80557
姦	-8.80646
泰	-8.80848
飲	-8.80853
驕	-8.80884
此理	-8.81044
曉	-8.81065
註	-8.81109
且如	-8.81133
孤	-8.81151
狀	-8.81294
氏曰	-8.81347
人主	-8.81721
朕	-8.8173
之士	-8.81855
徐	-8.81882
者必	-8.81967
決	-8.82353
庸	-8.82493
誰	-8.82503
不足以	-8.82522
觀之	-8.8255
折	-8.82695
川	-8.82768
盈	-8.82773
豫	-8.82958
曽	-8.82989
為人	-8.83158
獲	-8.83261
逸	-8.83273
齋	-8.83347
内外	-8.83376
孔子曰	-8.83399
討	-8.83442
肅	-8.83461
毁	-8.83489
陰	-8.83738
稍	-8.83814
宻	-8.84235
登	-8.84472
所以為	-8.84558
營	-8.84571
不相	-8.8458
大抵	-8.84582
則不	-8.84736
倫	-8.84931
知之	-8.85
這箇	-8.85124
先王	-8.85234
監	-8.85249
許多	-8.85255
姑	-8.85451
國之	-8.85468
不當	-8.86032
遣	-8.86057
其中	-8.86206
覆	-8.8627
幽	-8.86306
窮理	-8.8632
占	-8.86352
尋	-8.8646
背	-8.86592
機	-8.86696
疏	-8.8675
乞	-8.86871
之於	-8.87004
武王	-8.87023
四時	-8.87169
乘	-8.87251
分明	-8.87269
専	-8.87328
周禮	-8.87336
歲	-8.87397
巧	-8.87406
會	-8.87432
也若	-8.8751
殷	-8.87578
丁	-8.87647
消	-8.87667
肆	-8.8779
之外	-8.87974
䇿	-8.88044
賤	-8.88153
各有	-8.88161
落	-8.88261
范	-8.88277
仁者	-8.88336
祥	-8.88409
刻	-8.88735
朋友	-8.88741
并	-8.8895
不善	-8.89018
品	-8.89331
司馬	-8.89393
部	-8.89475
亨	-8.89598
天命	-8.89809
究	-8.89876
之數	-8.90131
湏	-8.90203
善惡	-8.90261
調	-8.90417
如是	-8.90474
懐	-8.90681
之氣	-8.90696
父子	-8.90715
賔	-8.90962
朔	-8.91002
驗	-8.91014
天道	-8.9108
操	-8.9109
虎	-8.91187
飾	-8.91198
災	-8.9126
雷	-8.91355
无	-8.91453
喻	-8.91481
擊	-8.91646
横渠	-8.91763
却是	-8.91775
其實	-8.92035
繫	-8.92113
忠信	-8.92168
笑	-8.92208
教人	-8.92223
委	-8.92316
迹	-8.92543
𫝊	-8.92653
也今	-8.92779
無窮	-8.92845
决	-8.92919
欽定四庫全書	-8.92956
例	-8.92992
豈不	-8.93096
杜	-8.93402
夫人	-8.93636
貪	-8.9366
貨	-8.93848
矣然	-8.94002
采	-8.94013
戎	-8.94094
悟	-8.94116
辰	-8.94317
古者	-8.94356
宰	-8.9437
五十	-8.94412
此言	-8.94681
徵	-8.94699
君之	-8.94856
垂	-8.94863
徃	-8.94961
歴	-8.9502
苟	-8.95171
㫖	-8.95198
荅	-8.95319
哭	-8.95372
曾子	-8.9538
振	-8.95416
淺	-8.95521
其後	-8.95592
其事	-8.95625
陸	-8.95646
顔	-8.95776
走	-8.95821
追	-8.95934
言語	-8.96081
人也	-8.96286
飛	-8.96299
若是	-8.96302
衡	-8.96485
於人	-8.96501
辱	-8.96653
想	-8.96995
旣	-8.97111
之象	-8.97235
恒	-8.97277
較	-8.97422
穆	-8.97545
不用	-8.97668
又云	-8.97682
屋	-8.97856
三十	-8.97886
謙	-8.982
臺	-8.98228
縁	-8.98508
露	-8.98553
𤣥	-8.98564
慶	-8.98768
昌	-8.9884
欺	-8.98985
角	-8.99057
有司	-8.99061
未能	-8.99158
科	-8.99345
密	-8.99376
儉	-8.99426
牧	-8.99617
如此則	-8.99725
不可不	-8.99789
四方	-8.99815
子路	-8.99837
米	-8.99885
迎	-8.99957
榮	-9.00043
而不能	-9.00427
又有	-9.00494
仰	-9.00548
浮	-9.00588
延	-9.00602
古今	-9.00732
富貴	-9.00851
大臣	-9.01171
聴	-9.01341
送	-9.01453
肉	-9.01588
相似	-9.0164
便有	-9.0164
後來	-9.01867
不在	-9.0191
横	-9.0191
䖏	-9.02169
旁	-9.02292
余	-9.02318
此是	-9.02401
之實	-9.02549
蘇	-9.02583
逹	-9.02646
隱	-9.02699
庭	-9.02749
畜	-9.02814
氣象	-9.02944
而有	-9.02981
有餘	-9.02998
支	-9.03032
恥	-9.03186
五行	-9.03258
流行	-9.03561
一般	-9.03709
慢	-9.03824
稽	-9.0395
得之	-9.04011
羽	-9.04165
賢者	-9.04229
把	-9.04255
及其	-9.04266
是故	-9.04302
編	-9.04437
佐	-9.04473
遠	-9.04665
姓	-9.04681
戚	-9.04885
諭	-9.05066
育	-9.05067
程子曰	-9.05074
裏	-9.05132
索	-9.05133
求之	-9.05165
隆	-9.05183
雅	-9.0542
未發	-9.0543
仲尼	-9.05445
聞之	-9.05452
倍	-9.05654
以爲	-9.0566
三代	-9.05666
一物	-9.05734
於外	-9.05862
關	-9.06076
豈有	-9.06337
英	-9.06616
侵	-9.06622
盟	-9.06872
倉	-9.0695
所當	-9.06966
此意	-9.06988
不待	-9.07066
痛	-9.07189
子貢	-9.07203
鄙	-9.07374
以來	-9.07462
截	-9.07662
太宗	-9.07678
殿	-9.07719
則為	-9.07756
恤	-9.07772
變化	-9.07942
錄	-9.07943
則無	-9.07983
遊	-9.08018
借	-9.08038
學問	-9.08136
宿	-9.08182
人物	-9.08258
不復	-9.08407
或曰	-9.08477
維	-9.0855
㡬	-9.08582
緩	-9.08592
綱	-9.08634
談	-9.08752
藝	-9.08765
忌	-9.088
奔	-9.09068
賈	-9.09074
其間	-9.09134
禪	-9.09178
曰吾	-9.09215
則其	-9.09245
萬世	-9.0932
中國	-9.09395
傅	-9.09502
太祖	-9.0952
青	-9.09545
晦	-9.09561
領	-9.09596
回	-9.09772
貌	-9.09813
争	-9.10137
早	-9.10205
偶	-9.1026
之名	-9.10278
黙	-9.10362
強	-9.10372
衍	-9.10463
籍	-9.10735
做得	-9.10896
不肯	-9.1092
撰	-9.11037
可也	-9.11507
性之	-9.11794
氣質	-9.11971
其道	-9.11979
靡	-9.1201
人皆	-9.12068
尚書	-9.1219
訟	-9.12614
墨	-9.12741
貢	-9.12771
詐	-9.12837
房	-9.12957
之體	-9.13188
怪	-9.13213
亦無	-9.13232
妾	-9.13303
而不知	-9.13388
榖	-9.13449
導	-9.13483
之制	-9.13803
優	-9.13826
擾	-9.13962
飲食	-9.13974
一句	-9.14025
為善	-9.14244
歳	-9.14314
嗣	-9.14373
提	-9.14413
判	-9.1446
介	-9.14474
粟	-9.14541
𢎞	-9.14567
帥	-9.14682
拘	-9.14707
躬	-9.14823
係	-9.14883
夫婦	-9.1526
鹽	-9.15311
供	-9.15394
藥	-9.15426
一時	-9.15549
為學	-9.15724
矣故	-9.15743
而行	-9.15841
不成	-9.16083
舟	-9.16516
為一	-9.16537
夢	-9.16594
甘	-9.16606
而能	-9.16667
者為	-9.16701
有箇	-9.16767
帶	-9.17055
旦	-9.17165
舞	-9.17184
而不可	-9.17242
者不	-9.17256
不行	-9.17458
有以	-9.17698
出入	-9.17724
失其	-9.17791
㸃	-9.1782
煩	-9.17893
之性	-9.17903
者非	-9.17955
泉	-9.1819
張子	-9.1832
夀	-9.18336
生於	-9.18509
豈可	-9.18572
鮮	-9.18575
筆	-9.18587
胥	-9.186
歎	-9.18615
巽	-9.18799
翼	-9.18832
側	-9.18894
說得	-9.19018
不曾	-9.19063
竭	-9.19187
卜	-9.19207
着	-9.19211
其所以	-9.19249
寢	-9.19302
殆	-9.19347
物之	-9.19451
幼	-9.19625
尹	-9.19718
人欲	-9.19736
可知	-9.19747
圍	-9.19914
▁(	-9.19936
罔	-9.1996
之徳	-9.20036
濁	-9.20045
斂	-9.20144
之道也	-9.20195
校	-9.20205
魄	-9.20247
其意	-9.20338
都是	-9.20359
郎	-9.20365
沒	-9.20403
怠	-9.20473
鼓	-9.20541
成王	-9.20545
竟	-9.20799
咎	-9.20807
席	-9.20885
見於	-9.20886
徴	-9.20915
子之	-9.20999
規	-9.21031
萌	-9.21228
忍	-9.2124
墓	-9.21303
遽	-9.2142
限	-9.21683
坎	-9.21725
嗚呼	-9.21727
有一	-9.21749
而成	-9.21795
遜	-9.21895
尸	-9.21947
悦	-9.22039
亦可	-9.22098
其志	-9.22134
祭祀	-9.22288
厭	-9.22318
毎	-9.22475
於天	-9.22608
裁	-9.22659
千里	-9.22738
之初	-9.22782
壊	-9.2306
書曰	-9.23116
無所不	-9.23323
預	-9.23351
境	-9.2356
之極	-9.23652
玩	-9.23653
之大	-9.23758
仍	-9.23824
其理	-9.23852
徹	-9.23857
甫	-9.23866
教之	-9.2397
毛	-9.23984
事物	-9.24007
某云	-9.24052
契	-9.24186
短	-9.24313
兮	-9.24376
扶	-9.2457
襲	-9.24594
候	-9.24619
有功	-9.2466
至于	-9.24787
闢	-9.25109
桓	-9.2518
不盡	-9.25202
出來	-9.25226
粗	-9.25241
子思	-9.25498
無非	-9.25499
希	-9.25728
警	-9.25758
由是	-9.25766
耳目	-9.25878
男	-9.25963
呼	-9.26048
之書	-9.26115
人情	-9.26217
禮義	-9.26299
故其	-9.26328
與人	-9.26375
續	-9.26394
弟子	-9.26444
事君	-9.26569
世之	-9.26571
恃	-9.26573
不容	-9.26574
輕重	-9.26617
人所	-9.26655
辯	-9.26669
發明	-9.26672
孝弟	-9.26711
樹	-9.26843
二者	-9.26914
罰	-9.26937
矜	-9.26951
私意	-9.26992
觀其	-9.27046
憲	-9.2709
三月	-9.27099
釋氏	-9.27134
慕	-9.27188
社	-9.27194
以至	-9.27303
終身	-9.27306
言其	-9.27379
周子	-9.27418
遲	-9.27493
四海	-9.27604
健	-9.27754
尉	-9.27794
踰	-9.27819
其君	-9.27851
二字	-9.27858
何如	-9.27872
門人	-9.27921
盜	-9.28086
不忍	-9.28183
寵	-9.28209
它	-9.28257
祝	-9.28371
寳	-9.28439
税	-9.2845
惜	-9.28674
於心	-9.28899
譽	-9.2911
無事	-9.29215
利害	-9.29224
中正	-9.29479
不明	-9.29521
格物	-9.29584
衞	-9.29612
主人	-9.29618
致知	-9.29714
則又	-9.29714
四十	-9.29757
之徒	-9.29777
式	-9.29823
乾坤	-9.29863
烈	-9.29885
減	-9.29886
鳴	-9.29891
即是	-9.29927
孟子曰	-9.30008
以求	-9.30037
以禮	-9.30065
之用	-9.30078
之情	-9.30187
基	-9.30262
也此	-9.30316
取之	-9.30354
歩	-9.30354
不至	-9.30403
其本	-9.30435
所見	-9.30462
赤	-9.30542
謹按	-9.30548
進退	-9.30587
傳曰	-9.30611
叙	-9.3062
頗	-9.3071
而又	-9.3072
造化	-9.31052
證	-9.31439
二年	-9.31452
十六	-9.31531
倚	-9.31548
郭	-9.31601
不合	-9.31626
盡其	-9.31689
而下	-9.31765
旅	-9.31776
符	-9.31794
没	-9.31815
増	-9.31833
僕	-9.31854
之故	-9.31898
有此	-9.31917
不出	-9.32061
穀	-9.32162
君子之	-9.32224
様	-9.32237
輩	-9.32321
無以	-9.32465
禀	-9.32524
洛	-9.3254
子弟	-9.32593
物事	-9.32635
掩	-9.32681
艮	-9.32692
愚按	-9.32768
不言	-9.32791
繁	-9.32838
議論	-9.32862
社稷	-9.32876
廬	-9.32964
安得	-9.33019
階	-9.33314
宗廟	-9.33329
如今	-9.33375
悖	-9.33419
不免	-9.33459
婦人	-9.33471
不正	-9.33691
些	-9.33693
事親	-9.33729
敦	-9.33748
用力	-9.33777
與之	-9.3379
文武	-9.33796
鍾	-9.33893
谷	-9.34208
今之	-9.34224
措	-9.34227
不好	-9.34346
沈	-9.34446
旋	-9.34451
之罪	-9.34471
為主	-9.3448
若不	-9.34621
靣	-9.34621
者則	-9.34664
文章	-9.34727
項	-9.34799
饑	-9.34905
之辭	-9.35076
塗	-9.35101
先王之	-9.35108
性命	-9.35136
人有	-9.35299
四者	-9.35504
者其	-9.3554
徑	-9.3561
自古	-9.35668
欽	-9.35688
誘	-9.35735
刺	-9.35737
段	-9.35848
在於	-9.35876
宅	-9.35948
隔	-9.36114
一段	-9.36131
皆以	-9.36164
十五	-9.36228
在上	-9.36295
傾	-9.36359
植	-9.36359
凝	-9.36389
鳥	-9.36614
草木	-9.36681
斬	-9.3673
以成	-9.36756
動静	-9.36756
故能	-9.36968
其人	-9.36995
奚	-9.37022
元年	-9.37099
日用	-9.37115
此等	-9.37133
他人	-9.37151
夕	-9.37159
不息	-9.37224
皇帝	-9.37454
圓	-9.37472
吉凶	-9.37472
陰陽	-9.37537
者有	-9.37698
氣之	-9.37783
譏	-9.37814
渾	-9.37851
云云	-9.37892
分别	-9.37934
雍	-9.37975
踐	-9.37984
撫	-9.38069
禮記	-9.38092
武帝	-9.38143
象曰	-9.38174
逃	-9.38196
未知	-9.38222
是如此	-9.38237
頌	-9.3826
血	-9.38267
聰明	-9.38515
詩曰	-9.38541
其義	-9.38578
贊	-9.38591
鎮	-9.38697
先後	-9.38702
中有	-9.38775
蜀	-9.38812
於天下	-9.38849
涵養	-9.38902
敏	-9.38987
伸	-9.39067
大小	-9.39077
葉	-9.39091
則必	-9.39114
影	-9.39135
舎	-9.39196
壯	-9.39366
祠	-9.39385
而非	-9.39412
在人	-9.39416
奠	-9.39574
允	-9.39682
七十	-9.39682
之始	-9.39708
斗	-9.39759
老子	-9.39872
精神	-9.39932
固有	-9.39988
不動	-9.4
麗	-9.40013
思慮	-9.40201
潛	-9.40339
知得	-9.40643
齒	-9.40687
之子	-9.40689
帛	-9.40706
譬如	-9.40861
閉	-9.40972
男女	-9.41042
不失	-9.41143
文公	-9.41199
彊	-9.41284
未盡	-9.413
閭	-9.41393
院	-9.41439
為仁	-9.41502
羊	-9.41548
不若	-9.41576
孚	-9.41596
赦	-9.41605
不仁	-9.41606
風俗	-9.41619
哲	-9.4171
霸	-9.42001
茂	-9.42073
戴	-9.42239
之分	-9.42622
聘	-9.42729
三百	-9.42765
何也曰	-9.4283
百官	-9.42917
止於	-9.42924
百里	-9.43116
烏	-9.43142
住	-9.43175
賀	-9.43187
其親	-9.43265
蒙	-9.4327
伊尹	-9.43304
不與	-9.43346
至誠	-9.43436
單	-9.4347
隋	-9.43528
襄	-9.43582
此章	-9.43643
失之	-9.43662
馳	-9.43665
付	-9.43667
在此	-9.43698
秀	-9.4372
也是	-9.43729
髙祖	-9.43739
八卦	-9.43746
滯	-9.43825
杖	-9.4389
知覺	-9.44004
固是	-9.44006
寅	-9.44064
未嘗不	-9.44078
之謂也	-9.44168
看得	-9.44293
晝	-9.44323
混	-9.44522
祖宗	-9.4459
暗	-9.44729
一章	-9.44859
疎	-9.45039
界	-9.45158
僴	-9.45431
含	-9.45557
匪	-9.45672
天子之	-9.45682
衆人	-9.45742
悲	-9.45794
仁義禮智	-9.46069
湖	-9.46102
錫	-9.46145
何也	-9.46262
公子	-9.46282
兹	-9.46495
諌	-9.46542
不勝	-9.46591
侈	-9.46631
伊	-9.46675
桑	-9.46812
招	-9.46872
而民	-9.46873
不肖	-9.46995
宰相	-9.47012
策	-9.47058
溺	-9.47111
羣臣	-9.47155
殺之	-9.47229
雄	-9.47247
治之	-9.47412
之主	-9.47492
羅	-9.47566
之屬	-9.47577
託	-9.47713
矯	-9.47818
輿	-9.4795
泣	-9.48023
其餘	-9.48112
十年	-9.48254
絲	-9.48272
陋	-9.48353
骨	-9.48355
先儒	-9.48369
當然	-9.4851
辛	-9.48551
之文	-9.48557
産	-9.48569
左氏	-9.48588
以自	-9.48601
徧	-9.48606
學之	-9.48668
孝子	-9.48676
狂	-9.48699
兆	-9.48754
寄	-9.48802
然其	-9.48854
陶	-9.48983
僅	-9.49122
管仲	-9.49215
之弊	-9.49245
蕩	-9.49314
竹	-9.49352
六十	-9.4936
頃	-9.4943
牽	-9.4946
取其	-9.49525
心之	-9.4966
禦	-9.49862
淮	-9.49884
弑	-9.49898
束	-9.50007
京師	-9.50064
夲	-9.50074
賀孫	-9.50131
缺	-9.50137
整	-9.50189
透	-9.50245
士大夫	-9.50301
幹	-9.50327
洞	-9.50333
嫁	-9.50436
禘	-9.50522
嫌	-9.50558
則知	-9.5056
異端	-9.50628
即位	-9.50635
州縣	-9.50658
不欲	-9.50702
以明	-9.5078
之變	-9.50853
性也	-9.50864
魂	-9.50916
昧	-9.51113
乃是	-9.51137
激	-9.51149
必先	-9.51353
亦未	-9.51425
歛	-9.51441
枉	-9.51575
投	-9.5158
之要	-9.51663
推之	-9.51777
活	-9.51825
鄭氏	-9.51832
平日	-9.51843
敷	-9.51885
倒	-9.51914
之物	-9.51933
呉	-9.52025
伍	-9.52031
一也	-9.52063
檢	-9.52103
從之	-9.52198
之君	-9.52206
六經	-9.52225
之盛	-9.52316
亷	-9.52325
一身	-9.52329
至此	-9.52351
懷	-9.52353
誣	-9.52359
班	-9.52489
虧	-9.52508
徙	-9.52598
一字	-9.52636
龜山	-9.52637
其子	-9.52644
舒	-9.52667
因其	-9.5267
亭	-9.52729
午	-9.52794
性情	-9.52847
動靜	-9.52967
無一	-9.52968
此語	-9.53053
為政	-9.53135
其為	-9.53159
事之	-9.53251
俾	-9.53462
做工夫	-9.53472
詩云	-9.53488
往往	-9.53528
嘆	-9.53586
之妙	-9.53654
故君子	-9.5368
啓	-9.53709
可不	-9.53748
殘	-9.53821
得失	-9.53873
買	-9.53947
毫	-9.54026
誠意	-9.54036
而得	-9.54078
方是	-9.5416
寺	-9.54185
謨	-9.54187
蓄	-9.54201
飯	-9.54244
山川	-9.54254
致其	-9.54255
以後	-9.54294
驅	-9.54295
豪	-9.54309
不易	-9.54326
也又曰	-9.54382
焚	-9.54405
裕	-9.5441
三日	-9.54505
儒者	-9.54535
不忘	-9.54558
之前	-9.54561
而生	-9.54574
上帝	-9.54655
奈何	-9.54707
艱	-9.54708
驚	-9.54765
欲其	-9.54858
荆	-9.54894
銘	-9.54919
快	-9.55004
屢	-9.55006
之論	-9.55027
祿	-9.55111
无咎	-9.55123
㓜	-9.5523
沙	-9.55368
忿	-9.55381
閣	-9.55588
欠	-9.55592
誥	-9.556
饗	-9.55622
奸	-9.557
文帝	-9.557
攝	-9.55712
則民	-9.5572
潔	-9.5582
兒	-9.55824
磨	-9.5583
該	-9.55853
力行	-9.5589
多少	-9.55911
鼎	-9.55945
體用	-9.55955
池	-9.55986
董	-9.56018
俟	-9.56108
奮	-9.56161
而天下	-9.56186
靖	-9.56209
曽子	-9.56341
愧	-9.56345
壽	-9.56406
司徒	-9.56416
叛	-9.5661
者乎	-9.5673
不已	-9.56744
剛柔	-9.56799
好惡	-9.56837
其説	-9.56841
題	-9.56968
鄰	-9.56993
猛	-9.57011
所得	-9.57043
只管	-9.57063
援	-9.57144
不通	-9.57159
案	-9.57161
吝	-9.57224
其徳	-9.57294
毅	-9.57312
所言	-9.57353
不識	-9.5736
融	-9.57378
徳之	-9.57383
鐘	-9.57398
生物	-9.57405
者乃	-9.57418
政事	-9.57438
未至	-9.57581
無益	-9.57582
訪	-9.57711
人事	-9.57784
其性	-9.57802
故也	-9.5781
之患	-9.5781
赴	-9.57825
乖	-9.57828
第一	-9.58014
渠	-9.58038
況	-9.58074
阿	-9.58094
遵	-9.58128
庻	-9.58207
萬民	-9.58428
秩	-9.58564
騎	-9.58701
輪	-9.58737
懲	-9.58787
萬事	-9.5891
督	-9.58914
於上	-9.58954
者又	-9.59081
凖	-9.59146
有不	-9.59149
迫	-9.5917
之内	-9.59179
王者	-9.59375
次第	-9.59387
桓公	-9.59389
一理	-9.59442
認	-9.59474
以正	-9.59599
非禮	-9.59602
彌	-9.59626
童	-9.59642
之政	-9.59761
死生	-9.598
互	-9.59826
眞	-9.5988
晝夜	-9.59914
糧	-9.60014
理也	-9.60026
庶人	-9.60202
夾	-9.60303
猶有	-9.60329
思之	-9.60351
肯	-9.60383
又何	-9.60412
無可	-9.60639
水火	-9.60645
不敬	-9.60713
人臣	-9.60764
人倫	-9.60825
協	-9.60831
誓	-9.60847
輒	-9.60866
步	-9.60979
上蔡	-9.61015
秉	-9.61025
佞	-9.61027
不從	-9.61106
築	-9.61129
完	-9.6113
荘	-9.6114
弼	-9.61254
禽獸	-9.61271
帝王	-9.61337
飢	-9.61356
康節	-9.61367
以待	-9.61554
知所	-9.61737
之教	-9.61758
幣	-9.61856
中間	-9.61862
然亦	-9.61874
十三	-9.61913
矢	-9.61966
後人	-9.62038
懸	-9.62253
觧	-9.62289
相與	-9.62316
一言	-9.62332
此亦	-9.62343
頓	-9.62379
治天下	-9.62424
丈	-9.62426
弓	-9.62443
不信	-9.62478
神明	-9.62557
啟	-9.62617
豈非	-9.62731
第二	-9.62733
西銘	-9.62742
泥	-9.62767
測	-9.62812
脚	-9.62882
弔	-9.62906
言之則	-9.62996
為本	-9.6301
於民	-9.63034
自得	-9.63049
削	-9.63105
庶幾	-9.63147
人之所	-9.63179
牲	-9.63237
陷	-9.63295
紂	-9.6333
有道	-9.63462
諱	-9.63502
卓	-9.63643
之職	-9.63672
公曰	-9.63702
朱熹曰	-9.63731
道者	-9.63772
姬	-9.63858
添	-9.6388
藉	-9.63882
祕曰	-9.6394
惰	-9.64003
泛	-9.64007
未見	-9.64026
析	-9.64047
詩書	-9.64182
告之	-9.6424
而知	-9.64293
花	-9.64357
麻	-9.644
戾	-9.64408
之志	-9.64534
寓	-9.64537
窺	-9.64538
本末	-9.6455
之位	-9.64603
之至	-9.64658
御史	-9.64691
去聲	-9.64739
前後	-9.64761
百年	-9.64811
何故	-9.64892
理㑹得	-9.64975
此則	-9.65063
之私	-9.65089
乎此	-9.65103
文集	-9.65185
矣夫	-9.6521
暇	-9.65263
輸	-9.65295
在我	-9.65366
邉	-9.65443
以示	-9.65561
或有	-9.65573
一切	-9.65633
寂	-9.65718
一家	-9.65856
潤	-9.6587
只在	-9.65894
皮	-9.65917
此事	-9.65944
壞	-9.65958
丹	-9.66039
又如	-9.66127
之使	-9.66357
全體	-9.66388
龜	-9.66405
宮	-9.66633
仁也	-9.66761
荀	-9.66776
其功	-9.66899
克己	-9.67047
史記	-9.67064
一節	-9.67069
滋	-9.67233
之上	-9.67235
邇	-9.67246
浩	-9.6725
飬	-9.67254
明白	-9.67277
之民	-9.67285
己之	-9.67351
盤	-9.67402
蕃	-9.6741
者謂	-9.67411
也臣按	-9.67445
非是	-9.67487
朋	-9.67639
随	-9.677
一件	-9.67713
是理	-9.67877
從容	-9.68023
惟其	-9.68057
狄	-9.68085
增	-9.68199
亦然	-9.68216
庚	-9.6829
矣此	-9.68301
雪	-9.68324
之術	-9.68344
在外	-9.68368
所能	-9.68481
件	-9.68575
而今	-9.68601
以致	-9.68611
終始	-9.68627
揖	-9.68699
人者	-9.68737
始得	-9.68767
死者	-9.68911
之序	-9.6896
斥	-9.6899
却不	-9.6913
租	-9.69211
盗	-9.69391
制度	-9.69452
以養	-9.69487
其氣	-9.69507
臧	-9.69509
確	-9.69527
卿大夫	-9.69543
括	-9.69553
為己	-9.69566
未可	-9.69752
奇	-9.69776
其情	-9.69947
守之	-9.7001
之世	-9.70045
大事	-9.70074
員	-9.70144
者矣	-9.70194
樞	-9.70209
併	-9.70336
冦	-9.70458
諸子	-9.70521
之語	-9.70653
終日	-9.70655
宴	-9.70701
其他	-9.7075
萬物之	-9.70836
乏	-9.70855
誨	-9.70867
見之	-9.70901
廣大	-9.70961
話	-9.70972
彖	-9.71006
醫	-9.71032
亦非	-9.71044
無形	-9.71144
求其	-9.71206
不違	-9.71224
以道	-9.71318
學校	-9.71357
為大	-9.71358
䟽	-9.7138
更無	-9.71662
寫	-9.71714
僧	-9.71718
則亦	-9.71738
太后	-9.7174
蕭	-9.71843
王道	-9.71851
貳	-9.71871
禮也	-9.71871
亦自	-9.71901
黎	-9.71946
諸儒	-9.72037
曠	-9.72094
丞相	-9.72253
光曰	-9.72463
在下	-9.72557
所為	-9.72672
閑	-9.72692
之事也	-9.72713
戮	-9.72797
孔氏	-9.72819
小學	-9.72848
謬	-9.72956
在天	-9.73038
主於	-9.73067
擬	-9.73083
非有	-9.73137
無極	-9.73175
賓	-9.73193
是謂	-9.73217
些子	-9.73282
疆	-9.73362
旱	-9.73394
従	-9.73477
可與	-9.73543
修身	-9.73544
用兵	-9.73567
禮之	-9.73678
漏	-9.73782
腹	-9.73824
法度	-9.73841
冕	-9.73855
理之	-9.73954
必以	-9.74062
抱	-9.7408
道心	-9.74089
使民	-9.74146
入於	-9.74165
歸於	-9.74174
銖	-9.74199
寜	-9.74203
使其	-9.74229
譬	-9.7426
副	-9.7433
課	-9.74378
諸公	-9.74382
胡氏	-9.74449
之禍	-9.74466
無私	-9.74467
屏	-9.74579
宇	-9.74648
觸	-9.74652
而反	-9.74697
儲	-9.74748
鑿	-9.7479
也蓋	-9.74812
五年	-9.7484
姜	-9.74907
宏	-9.74911
底意思	-9.74958
至矣	-9.75051
攸	-9.75341
易之	-9.75385
忠恕	-9.75395
閏	-9.75533
不聞	-9.7554
恵	-9.75592
奢	-9.75627
緒	-9.75637
算	-9.75683
子夏	-9.75768
冀	-9.758
韻	-9.75829
之失	-9.75924
動而	-9.75946
而立	-9.75967
洪	-9.76024
創	-9.76026
亦不可	-9.7603
只有	-9.76077
上文	-9.76162
不幸	-9.76164
遭	-9.7618
一心	-9.76201
不曽	-9.76202
績	-9.76307
畝	-9.76401
南北	-9.76404
雖然	-9.76418
也言	-9.7642
反覆	-9.76461
何謂	-9.76521
藩	-9.76619
戸	-9.76625
事事	-9.76629
排	-9.76648
也如	-9.76669
思量	-9.76733
上面	-9.76786
雖不	-9.76876
邵	-9.7688
乙	-9.76893
域	-9.7692
駕	-9.76922
得以	-9.77031
之治	-9.772
此皆	-9.77275
欲以	-9.77279
香	-9.77284
十八	-9.773
尾	-9.77327
一書	-9.77329
之臣	-9.77333
一旦	-9.77382
一貫	-9.77411
一篇	-9.77464
薛	-9.77479
易曰	-9.77542
四年	-9.77713
宗子	-9.77719
太平	-9.77724
天地萬物	-9.77863
濫	-9.7809
本於	-9.78101
柄	-9.78214
羞	-9.78302
溪	-9.78364
道徳	-9.78413
只要	-9.78434
俊	-9.78502
乎曰	-9.78571
方可	-9.78638
狹	-9.78667
藴	-9.78783
呂	-9.78865
獸	-9.78945
義也	-9.79019
則不能	-9.7904
正月	-9.79053
能盡	-9.79083
二人	-9.79121
脱	-9.79122
之利	-9.79147
何所	-9.7922
賣	-9.79263
貧賤	-9.79354
貶	-9.79422
渉	-9.7945
王之	-9.79468
直是	-9.7949
衣服	-9.79806
虐	-9.79824
克己復禮	-9.79879
是箇	-9.79894
明徳	-9.79984
無間	-9.79996
用也	-9.80069
無有	-9.80081
莫非	-9.80137
弛	-9.80161
之正	-9.80243
苗	-9.8026
廉	-9.80303
吕氏	-9.80319
七年	-9.80321
性善	-9.80328
迷	-9.80337
瞻	-9.80349
將去	-9.8035
貴賤	-9.80362
酌	-9.80403
在這裏	-9.80453
牢	-9.80479
是他	-9.8052
世子	-9.80548
嗟	-9.80572
實理	-9.80717
翁	-9.80777
受命	-9.80905
不食	-9.80977
釐	-9.81085
可以為	-9.81273
蒼	-9.81376
嗜	-9.81391
然也	-9.81584
裘	-9.81633
之詩	-9.81678
於道	-9.81691
一二	-9.81702
戍	-9.81814
禽	-9.8193
近世	-9.81939
遍	-9.81985
拒	-9.82097
受之	-9.82122
圭	-9.82128
妃	-9.82154
溝	-9.82285
諡	-9.82285
以告	-9.82474
只得	-9.82487
繩	-9.82604
臣良勝曰	-9.82743
所在	-9.82767
遏	-9.8277
沉	-9.82786
未得	-9.82812
故謂之	-9.82815
曰然	-9.82879
割	-9.82904
紛	-9.82926
事業	-9.82993
則雖	-9.83029
刀	-9.83164
往來	-9.83293
不能無	-9.83326
練	-9.8334
祗	-9.83359
盡心	-9.83381
屯	-9.8347
之樂	-9.83497
之端	-9.83575
館	-9.83822
可為	-9.84007
韋	-9.84077
賢人	-9.84113
祫	-9.84118
亮	-9.8412
而不敢	-9.84136
學士	-9.84302
甚矣	-9.84377
光明	-9.84392
始終	-9.84553
祈	-9.84607
彰	-9.84622
其說	-9.84629
緣	-9.8464
之官	-9.84684
將軍	-9.84718
崩	-9.84764
頥	-9.84806
説話	-9.84847
匡	-9.84914
犬	-9.84928
莽	-9.84959
若此	-9.85054
威儀	-9.85076
賴	-9.85086
聖王	-9.8509
畢竟	-9.85163
乎其	-9.85206
霜	-9.85282
際	-9.85339
有三	-9.85358
閔	-9.85369
額	-9.85388
焉則	-9.85418
廷	-9.85434
如之何	-9.85462
競	-9.85522
有過	-9.85534
毒	-9.85543
教化	-9.85574
楊氏	-9.85645
而求	-9.85662
發見	-9.85672
於君	-9.85687
捨	-9.85704
十一	-9.8583
仇	-9.85883
之下	-9.85904
叚	-9.85905
須要	-9.85962
講學	-9.85995
朝夕	-9.86008
詣	-9.86032
之過	-9.86048
鑒	-9.86053
儘	-9.8606
底人	-9.86108
者是	-9.86178
而止	-9.86192
馮	-9.86197
是為	-9.86218
用其	-9.86263
一念	-9.86275
不受	-9.86277
行也	-9.86281
準	-9.8635
以見	-9.86381
世俗	-9.86425
聰	-9.8643
若有	-9.86485
文王之	-9.86542
此書	-9.8661
恨	-9.86667
是心	-9.86683
則不可	-9.86763
娶	-9.86798
從而	-9.86804
明日	-9.86813
丞	-9.86822
則可	-9.86878
私欲	-9.86932
僚	-9.86978
也又	-9.8699
愚謂	-9.86999
壁	-9.87004
飽	-9.87006
人才	-9.87007
不知其	-9.87045
左傳	-9.87105
隅	-9.87179
恐懼	-9.87249
底道理	-9.87272
之勢	-9.87276
本無	-9.87293
孔孟	-9.8741
旌	-9.87436
礙	-9.87481
都不	-9.87488
其可	-9.87529
渾然	-9.87533
妨	-9.8756
超	-9.87632
九年	-9.87642
大人	-9.8773
當以	-9.87731
覽	-9.87799
者如	-9.87954
燭	-9.87973
於中	-9.8815
而歸	-9.88217
價	-9.8825
伏羲	-9.88296
其用	-9.88401
脩身	-9.88542
饒	-9.88557
得一	-9.88567
二百	-9.88621
嬰	-9.88701
區	-9.88729
者多	-9.88799
是就	-9.88903
長者	-9.8893
根本	-9.89002
監察御史	-9.89111
趣	-9.89123
潮	-9.89183
而復	-9.89357
已發	-9.89385
打	-9.89412
徇	-9.89413
之德	-9.89417
属	-9.89429
謁	-9.89614
六年	-9.89616
飲酒	-9.89642
有二	-9.89678
而致	-9.8968
蹈	-9.89741
在其中	-9.89834
彦	-9.89847
只為	-9.89871
之餘	-9.89898
之至也	-9.89909
吾心	-9.89963
文義	-9.89983
般	-9.90124
之才	-9.9019
収	-9.90198
栁	-9.90399
有罪	-9.90411
親切	-9.90423
有常	-9.905
天地間	-9.90515
正是	-9.90559
環	-9.9073
中和	-9.90747
始於	-9.90824
以上語	-9.90829
而行之	-9.909
途	-9.90936
其位	-9.90976
徽	-9.90995
雖是	-9.91027
羞惡	-9.9108
自此	-9.91093
聖賢之	-9.91127
所生	-9.91178
更不	-9.91205
晏	-9.91302
矣而	-9.91331
所載	-9.91358
所欲	-9.9138
可乎	-9.91408
隙	-9.91431
子細	-9.9146
善而	-9.91481
事也	-9.91618
為先	-9.9164
東西	-9.91728
温公	-9.91729
八十	-9.91754
何為	-9.91821
何嘗	-9.91828
乎天	-9.91853
稷	-9.9192
浙	-9.91926
天地之心	-9.91999
本朝	-9.92113
不去	-9.92144
父母之	-9.92178
祐	-9.92178
逢	-9.92218
以及	-9.9225
不自	-9.92254
治亂	-9.92292
䏻	-9.92401
一年	-9.92401
三公	-9.92463
三者	-9.9249
塵	-9.92581
仙	-9.92634
巫	-9.92746
侮	-9.92749
皆可	-9.92761
甚麽	-9.92777
若無	-9.92779
這裏	-9.928
之方	-9.92838
此説	-9.92857
墜	-9.92899
規模	-9.92991
盡性	-9.93025
聼	-9.93099
而死	-9.93109
於内	-9.93235
不止	-9.93285
眼	-9.93397
二子	-9.93411
戲	-9.93429
安能	-9.93433
髙宗	-9.93457
之計	-9.93518
囚	-9.93549
賛	-9.93594
三分	-9.93601
光武	-9.93622
知者	-9.93626
分曉	-9.9376
若夫	-9.93783
亦須	-9.93797
前日	-9.9382
未免	-9.93902
懿	-9.93904
睦	-9.93942
唐虞	-9.93965
不安	-9.93993
妖	-9.93999
則非	-9.94008
未有不	-9.94039
只説	-9.94117
頑	-9.94129
浸	-9.94132
踈	-9.94133
東坡	-9.94305
彭	-9.94322
與天地	-9.94417
愛之	-9.94422
告子	-9.94447
崔	-9.94448
像	-9.94452
五常	-9.94497
義剛	-9.94562
或以	-9.94605
未及	-9.94645
其民	-9.94677
中節	-9.94722
皆然	-9.94782
簿	-9.94783
黜	-9.94812
僭	-9.94831
峻	-9.94841
恭敬	-9.94934
一體	-9.94956
也凡	-9.94957
伯夷	-9.95009
下文	-9.9506
諸侯之	-9.95082
周官	-9.951
過於	-9.95113
善者	-9.95134
十四	-9.95142
十七	-9.95212
以前	-9.95214
知至	-9.95253
貫通	-9.95266
匹	-9.95269
是時	-9.95282
天下之事	-9.95283
道夫	-9.95352
灌	-9.95363
在内	-9.95372
輙	-9.95483
亟	-9.95501
寶	-9.95682
於下	-9.95717
而欲	-9.95761
集義	-9.95764
曉得	-9.95803
其家	-9.95807
者何	-9.95817
憤	-9.95859
故有	-9.95909
自記	-9.95924
而言之	-9.96116
鑑	-9.9612
歸之	-9.96237
怕	-9.96247
之難	-9.96249
日新	-9.96309
得他	-9.96311
湯武	-9.96326
識得	-9.96419
公孫	-9.96429
行事	-9.96494
去其	-9.96512
逺矣	-9.96612
何必	-9.96626
不應	-9.9671
十分	-9.96791
九二	-9.96823
極其	-9.96851
匈奴	-9.96865
稅	-9.96885
曷	-9.96921
也君子	-9.96923
暑	-9.96957
料	-9.96967
其國	-9.97055
鼔	-9.97104
宣王	-9.97119
喫	-9.97123
無他	-9.97137
熈	-9.97232
亥	-9.97273
溢	-9.97313
僻	-9.97344
物也	-9.97366
言者	-9.97423
糴	-9.97433
寒暑	-9.97563
只是一箇	-9.97589
應之	-9.97594
此篇	-9.97615
憚	-9.97637
殺人	-9.97729
刑罰	-9.97733
至善	-9.97749
不求	-9.97806
敝	-9.97807
其體	-9.97855
十九	-9.97919
而未	-9.97933
不得不	-9.97957
父之	-9.97989
主一	-9.98013
也故曰	-9.98136
珠	-9.98154
天人	-9.98305
與其	-9.98332
傳之	-9.98338
法也	-9.98341
繆	-9.98358
在乎	-9.98523
異於	-9.98614
然後能	-9.98645
以至於	-9.98654
臯陶	-9.98691
下面	-9.98705
而為之	-9.98713
禮者	-9.98725
者所以	-9.98764
人道	-9.98786
謂其	-9.98875
夭	-9.98905
人生	-9.98938
場	-9.99045
於己	-9.99049
曰天	-9.99072
形容	-9.99087
也惟	-9.99116
數十	-9.99119
他日	-9.99133
不失其	-9.99138
皇后	-9.99166
不入	-9.99204
周之	-9.99232
仁宗	-9.99362
什	-9.99453
兩儀	-9.99466
存養	-9.9954
事而	-9.99552
禱	-9.99588
而出	-9.99604
其勢	-9.99614
桀	-9.99634
歡	-9.99634
大槩	-9.99673
又以	-9.99692
之長	-9.99706
其次	-9.99783
夷狄	-9.99785
之本也	-9.99802
劄	-9.99817
遺書	-9.99828
寡人	-9.99831
公卿	-9.9984
個	-9.99859
間斷	-9.99872
養之	-9.99876
亦只是	-10.0001
親親	-10.0006
莫能	-10.0009
四端	-10.0012
麟	-10.0016
存乎	-10.0018
好學	-10.0019
繹	-10.0035
行而	-10.0036
人自	-10.0039
不可得而	-10.004
知道	-10.0043
曰君子	-10.0045
之日	-10.0047
不窮	-10.0049
懈	-10.0052
戰國	-10.0053
之命	-10.0056
攷	-10.0057
聖人之道	-10.0063
一毫	-10.0069
其初	-10.0074
甞	-10.0081
闔	-10.0089
恣	-10.009
四象	-10.0091
損益	-10.0094
物欲	-10.0096
表裏	-10.0098
氏之	-10.0102
惻隠	-10.0106
探	-10.0108
卜筮	-10.011
此所以	-10.0112
夫子之	-10.0118
賑	-10.0124
頒	-10.0126
到得	-10.0127
耗	-10.013
淺深	-10.0131
是如何	-10.0137
粹	-10.0142
炎	-10.0147
為君	-10.0153
之善	-10.016
裏面	-10.0175
恱	-10.0176
不立	-10.0177
墮	-10.0182
不得已	-10.0187
唐太宗	-10.0191
不離	-10.0191
如何是	-10.0195
平生	-10.0197
之家	-10.0197
衣食	-10.0199
博學	-10.0204
那裏	-10.0205
不要	-10.0208
枝	-10.0216
地位	-10.0217
便自	-10.0218
誕	-10.0219
其辭	-10.022
以義	-10.0223
三代之	-10.0226
問曰	-10.0229
性者	-10.0239
也是故	-10.0242
髪	-10.0242
君子以	-10.0254
風雨	-10.0254
這般	-10.0263
隂陽之	-10.0264
天下之大	-10.0265
體之	-10.0266
亦何	-10.0268
視之	-10.027
要之	-10.0277
)○	-10.0278
惕	-10.0278
第三	-10.0301
之美	-10.0304
其罪	-10.0306
詠	-10.0327
省察	-10.0331
㳺	-10.0332
醉	-10.0336
必欲	-10.0337
由此	-10.0339
層	-10.0339
一分	-10.0343
執事	-10.0349
熙	-10.035
二程	-10.0353
十餘	-10.0364
旗	-10.0366
於物	-10.0367
則能	-10.0367
嫡	-10.0368
丑	-10.0368
奥	-10.037
停	-10.0372
暮	-10.0373
命之	-10.0379
豈能	-10.038
掃	-10.0387
生民	-10.039
如此説	-10.0391
别有	-10.0395
祖考	-10.0398
而實	-10.04
邾	-10.0406
季氏	-10.0406
時便	-10.0406
沛	-10.0407
張預曰	-10.0408
旬	-10.0408
王曰	-10.041
脉	-10.0412
所行	-10.042
井田	-10.0424
覩	-10.043
其父	-10.0438
孝經	-10.0439
烝	-10.0443
箴	-10.0445
也然則	-10.0445
亦當	-10.045
之義也	-10.0451
天性	-10.0455
莫之	-10.0463
局	-10.0463
蟲	-10.0464
洪範	-10.0465
百世	-10.0466
播	-10.0466
神宗	-10.0468
九五	-10.0471
太守	-10.0473
此便是	-10.0477
祔	-10.0483
慾	-10.0485
几	-10.0485
程先生	-10.0487
所論	-10.0493
雞	-10.0506
起於	-10.0511
黍	-10.0511
範	-10.0519
辦	-10.0522
莫如	-10.0525
低	-10.0525
雖欲	-10.053
鈔	-10.0532
於是乎	-10.0533
與天	-10.0533
士之	-10.0535
不可以不	-10.0536
鹿	-10.0537
吾之	-10.0539
巨	-10.054
大本	-10.0541
其名	-10.0543
陽氣	-10.0544
挾	-10.0545
本心	-10.0559
用功	-10.056
洽	-10.0561
展	-10.0561
徳行	-10.0568
之末	-10.0574
曰我	-10.0581
圗	-10.0582
諸生	-10.0583
淡	-10.0583
變而	-10.0584
女子	-10.0584
二三	-10.0589
成就	-10.0592
跡	-10.0598
用心	-10.0605
生生	-10.0606
不須	-10.0612
擅	-10.0615
讎	-10.0616
貸	-10.062
六月	-10.063
實有	-10.0638
勵	-10.064
編修	-10.065
讐	-10.0655
心之所	-10.0655
大率	-10.0662
太虚	-10.0663
人能	-10.0667
覺得	-10.0668
舜之	-10.0679
南軒	-10.0679
血氣	-10.0679
逮	-10.0682
相應	-10.0683
䧟	-10.0694
茅	-10.0697
園	-10.0701
佛氏	-10.0702
氣也	-10.0712
宥	-10.0715
一一	-10.0718
壇	-10.0719
脫	-10.0721
阻	-10.0722
屈伸	-10.0731
之所為	-10.0732
下學	-10.0737
纎	-10.0739
能知	-10.074
氷	-10.0752
一向	-10.0754
熱	-10.0757
瑞	-10.0758
船	-10.0759
非謂	-10.076
人多	-10.076
潜	-10.0761
讒	-10.0762
地之	-10.0764
也子曰	-10.0765
二句	-10.077
則可以	-10.0775
汙	-10.0777
臭	-10.0778
煞	-10.0779
不察	-10.0781
命也	-10.0783
中書	-10.0788
則心	-10.0789
於世	-10.079
儀禮	-10.079
鑄	-10.0791
皇極	-10.0791
此又	-10.0795
堯夫	-10.0803
此處	-10.0805
不由	-10.0806
不許	-10.0821
存心	-10.0828
施之	-10.083
兩句	-10.0832
昨	-10.0836
詭	-10.0837
黒	-10.0838
歐陽	-10.0839
咸曰	-10.0846
莊子	-10.0849
七月	-10.0856
䕶	-10.0859
然後可以	-10.086
水之	-10.0868
之門	-10.087
棺	-10.0873
至今	-10.0876
技	-10.0878
者固	-10.0881
三千	-10.0885
矣又	-10.0888
佳	-10.0895
蠱	-10.0899
傑	-10.0899
顛	-10.09
者以其	-10.09
則自	-10.0901
畆	-10.0902
者蓋	-10.0913
形體	-10.0914
祭之	-10.0916
與他	-10.0922
莒	-10.0934
印	-10.0936
則謂之	-10.0945
牙	-10.0954
哀公	-10.0957
黃	-10.0964
為治	-10.0965
道義	-10.0966
有許多	-10.0968
勲	-10.0976
一百	-10.0978
子厚	-10.0982
僖	-10.0983
騐	-10.0984
凡事	-10.0989
底事	-10.0991
此所謂	-10.0993
大義	-10.0994
耦	-10.0995
方能	-10.0996
戊	-10.0996
也哉	-10.0999
捕	-10.0999
湏是	-10.1001
蹇	-10.1003
□	-10.1015
庫	-10.1015
銀	-10.1017
清明	-10.1018
澄	-10.1019
鄧	-10.1021
宦	-10.1023
氣禀	-10.1025
知人	-10.1026
採	-10.1036
元亨利貞	-10.1039
耻	-10.1039
主宰	-10.1041
於事	-10.1049
咨	-10.1055
酉	-10.1058
不測	-10.1059
八年	-10.1062
聖祖	-10.1066
不能自	-10.1075
荆公	-10.1078
孟子言	-10.1093
諸家	-10.1097
剥	-10.11
去之	-10.1105
理會	-10.1106
太學	-10.1108
妻子	-10.1112
愛人	-10.1117
不可勝	-10.1118
羙	-10.112
上達	-10.1136
贈	-10.1138
紹	-10.1152
進士	-10.1155
韶	-10.1158
裳	-10.1158
緯	-10.1158
枯	-10.116
暢	-10.1161
也葢	-10.1174
不改	-10.1177
方得	-10.1194
死而	-10.1197
褒	-10.1197
王制	-10.1199
集註	-10.1214
三王	-10.1215
受其	-10.1215
其始	-10.1218
合於	-10.122
鼻	-10.1222
杞	-10.1223
可見矣	-10.1223
也盖	-10.1238
也非	-10.1243
琴	-10.1243
穿	-10.1262
膚	-10.1264
舅姑	-10.1264
鏡	-10.1266
謗	-10.1267
循環	-10.1267
賁	-10.1268
黄帝	-10.1274
有定	-10.1276
先天	-10.1279
安排	-10.1286
猶未	-10.1286
本意	-10.13
奴	-10.1301
黑	-10.1303
渡	-10.1305
其文	-10.131
可行	-10.1313
天地之間	-10.1318
魏公	-10.1319
者雖	-10.132
此二	-10.1324
攘	-10.1325
故以	-10.1326
合而	-10.1333
你	-10.1343
其能	-10.1348
晚	-10.1356
父兄	-10.1371
自謂	-10.1373
大段	-10.1374
章句	-10.1378
小大	-10.1381
言性	-10.1384
揆	-10.1387
不思	-10.1401
冬至	-10.1411
拂	-10.1411
葛	-10.1413
之賢	-10.1415
稱其	-10.1421
條理	-10.1421
斧	-10.1426
成功	-10.143
之風	-10.1431
人之心	-10.1434
麥	-10.1444
俯	-10.1448
若以	-10.1456
清濁	-10.1464
所用	-10.1486
丙	-10.1491
闇	-10.1498
之節	-10.1499
都無	-10.1503
者即	-10.1507
晏子	-10.1508
二氣	-10.1509
之宜	-10.1511
洗	-10.1515
片	-10.1515
敬則	-10.1521
太公	-10.1522
東南	-10.1523
蒲	-10.1524
此乃	-10.1525
王氏	-10.1526
西北	-10.153
看來	-10.1535
處便	-10.1536
文學	-10.1538
所存	-10.1538
賞罰	-10.154
晩	-10.1556
迂	-10.1557
無復	-10.1566
各自	-10.1568
乂	-10.1575
則當	-10.1576
竇	-10.158
與夫	-10.1581
盧	-10.1595
然有	-10.1595
書之	-10.1598
莫是	-10.1599
可畏	-10.1603
逺近	-10.1603
弦	-10.1607
之所在	-10.1617
淑	-10.1618
冒	-10.1618
億	-10.1619
而弗	-10.1626
恐其	-10.1627
於我	-10.1627
聖門	-10.1629
以生	-10.163
所宜	-10.1633
不亦	-10.1638
家人	-10.1639
媚	-10.1641
於前	-10.1643
不覺	-10.1651
顔淵	-10.1652
有此理	-10.166
身心	-10.1675
有益	-10.1677
不顧	-10.1679
之别	-10.1682
糾	-10.1682
弄	-10.1683
其弊	-10.1684
無異	-10.1686
紙	-10.169
猶言	-10.1692
而動	-10.1693
一邊	-10.1695
是之謂	-10.1697
岐	-10.1705
愼	-10.1706
也是以	-10.1709
五月	-10.1725
僣	-10.1725
敖	-10.1726
之病	-10.1727
醇	-10.1728
伊川曰	-10.1734
之機	-10.1739
大綱	-10.1742
更有	-10.1744
封建	-10.1745
睿	-10.1748
佩	-10.1748
狼	-10.1752
十月	-10.1757
凡人	-10.1758
二十四	-10.1759
無疑	-10.176
赤子	-10.1761
不惑	-10.1765
馭	-10.1769
狐	-10.177
其書	-10.1772
天下無	-10.1772
千萬	-10.1774
一陽	-10.1776
譬之	-10.1785
之力	-10.1791
子産	-10.1792
辜	-10.1792
如是則	-10.1802
方始	-10.1807
筮	-10.1812
突	-10.1814
返	-10.1815
畔	-10.1818
也且	-10.1822
者也故	-10.1825
聖人之心	-10.1826
之大者	-10.1827
第十	-10.1829
熊	-10.1832
饋	-10.1836
昔者	-10.1841
之精	-10.1846
貽	-10.1859
周旋	-10.1862
初無	-10.1866
書云	-10.1867
不如此	-10.1869
又却	-10.1876
録云	-10.1881
又謂	-10.1884
侍郎	-10.1888
功夫	-10.1901
級	-10.1903
肥	-10.1904
覇	-10.1905
本原	-10.1906
出来	-10.1907
而用之	-10.1912
求諸	-10.192
標	-10.1921
不齊	-10.1924
嚮	-10.1925
身上	-10.1926
佚	-10.1926
状	-10.1928
善則	-10.193
精微	-10.1944
一條	-10.1945
唱	-10.1951
不變	-10.1951
響	-10.1953
河圖	-10.1958
𨽻	-10.1967
民者	-10.1969
之㫖	-10.197
這道理	-10.1972
外面	-10.1978
是要	-10.198
有言	-10.1984
巡	-10.1987
考之	-10.1988
倡	-10.1991
傲	-10.1991
通書	-10.1993
章問	-10.2001
○/	-10.2003
惟恐	-10.2006
偃	-10.201
誼	-10.2017
不可得	-10.2019
得人	-10.202
所作	-10.2027
而后	-10.2027
周易	-10.2033
吴	-10.2034
菜	-10.2036
梅堯臣曰	-10.2037
冊	-10.2039
膳	-10.2039
無道	-10.2051
無過	-10.2061
坊	-10.2062
到此	-10.2062
研	-10.2066
有形	-10.2067
又是	-10.2069
敬之	-10.207
此說	-10.2077
冉	-10.2082
涉	-10.2086
尚有	-10.2086
為義	-10.209
若只	-10.2092
大雅	-10.21
珍	-10.2103
畿	-10.2104
邵子	-10.2109
或謂	-10.2113
不暇	-10.2115
汚	-10.2124
八月	-10.2125
壅	-10.2126
不能盡	-10.2129
人亦	-10.2131
所由	-10.214
正心	-10.2142
㫁	-10.2148
大體	-10.2154
終不	-10.216
體認	-10.2168
者惟	-10.217
札	-10.2178
繫辭	-10.2179
可得而	-10.2183
百餘	-10.2183
其才	-10.2195
硬	-10.2196
遯	-10.2197
太極圖	-10.2201
寐	-10.2203
者當	-10.2203
其母	-10.2206
自欺	-10.2208
涵	-10.2213
隨時	-10.2217
裂	-10.2218
撥	-10.2219
闊	-10.2222
𦵏	-10.2223
上有	-10.2224
吾儒	-10.2226
以敬	-10.223
髙明	-10.2234
也聖人	-10.2238
躁	-10.2243
膏	-10.2262
訴	-10.2263
了又	-10.2271
一定	-10.2283
綏	-10.2285
升降	-10.2285
刃	-10.2288
囘	-10.2289
孔門	-10.229
存亡	-10.2292
尊卑	-10.2292
又言	-10.2301
精粗	-10.2305
噫	-10.2311
拙	-10.2312
漸漸	-10.2312
惡之	-10.2317
不義	-10.2317
一月	-10.2318
之效	-10.2325
頼	-10.2328
姚	-10.233
之迹	-10.2331
豆	-10.2333
後来	-10.2335
本義	-10.2336
不至於	-10.2344
者謂之	-10.235
有天下	-10.2354
分為	-10.2376
斤	-10.2377
板	-10.238
之爲	-10.2394
吟	-10.2396
溫	-10.2399
寃	-10.24
銅	-10.24
汪	-10.2401
自己	-10.2403
亦以	-10.2411
何哉	-10.2412
遁	-10.2421
巷	-10.2422
錦	-10.2423
氣質之性	-10.2433
倦	-10.2436
故聖人	-10.2436
宫室	-10.244
莫若	-10.2441
為國	-10.2445
得其正	-10.2447
天下之理	-10.2448
用人	-10.2448
之可	-10.2448
換	-10.2449
所云	-10.2453
之異	-10.2457
揚子	-10.2466
廵	-10.2466
發於	-10.2468
施於	-10.247
何處	-10.2471
舌	-10.2474
不疑	-10.2476
利貞	-10.2485
翕	-10.2485
正如	-10.2486
可知矣	-10.2491
天下之人	-10.2509
刪	-10.2518
矣若	-10.2519
牆	-10.252
漢唐	-10.2521
之權	-10.2524
人心之	-10.2525
荀子	-10.2526
中道	-10.2529
禍福	-10.2536
墳	-10.2545
高祖	-10.2546
縮	-10.2548
少間	-10.255
蠶	-10.2557
太和	-10.2561
訓曰	-10.2564
謝氏	-10.257
是知	-10.2576
事天	-10.2585
愆	-10.2589
紫	-10.259
亦必	-10.2596
二十五	-10.2602
知言	-10.2604
亦猶	-10.2606
祚	-10.2612
臨事	-10.2612
酬	-10.2614
袁	-10.2615
故云	-10.2617
之流	-10.2618
貼	-10.262
士卒	-10.2623
此數	-10.2632
禰	-10.2635
䕫	-10.2637
渙	-10.2638
而無所	-10.2638
撓	-10.2638
朴	-10.2641
大意	-10.2642
說話	-10.2643
喜怒哀樂	-10.2644
次序	-10.2646
其法	-10.2655
長短	-10.2659
知此	-10.2659
繇	-10.2663
吐	-10.2665
消長	-10.2666
郡縣	-10.2675
而至於	-10.2677
璧	-10.2681
竊謂	-10.2682
而入	-10.2683
碎	-10.2684
鴻	-10.2685
為惡	-10.2691
尋常	-10.2706
齊侯	-10.2712
兩端	-10.2712
后稷	-10.2714
常存	-10.2717
手足	-10.2721
十二月	-10.2732
偷	-10.2736
不惟	-10.2737
既有	-10.2737
躬行	-10.2743
退而	-10.2743
小人之	-10.2746
有事	-10.2748
非聖人	-10.2753
可學	-10.2754
漕	-10.2756
殯	-10.276
衝	-10.276
帝曰	-10.2762
改過	-10.2778
者哉	-10.2779
邦國	-10.2781
不死	-10.2786
故為	-10.2787
絃	-10.2788
上説	-10.2789
程氏	-10.2795
伯恭	-10.2797
其德	-10.2804
蒸	-10.2806
與我	-10.2806
治道	-10.281
此段謂	-10.2811
以利	-10.2812
九月	-10.2819
以立	-10.282
匿	-10.2825
樓	-10.2827
便不是	-10.2829
五帝	-10.2836
掛	-10.2838
河南	-10.2841
一本	-10.2841
詢	-10.2853
罕	-10.2854
髮	-10.2857
駁	-10.2858
依舊	-10.2859
二十八	-10.2863
雉	-10.2873
冝	-10.2874
可疑	-10.288
已有	-10.288
為心	-10.2885
亦可以	-10.2886
子張	-10.2888
多矣	-10.2889
只就	-10.289
於理	-10.2892
集注	-10.2894
五行之	-10.2895
戒之	-10.2895
其職	-10.2899
滛	-10.29
有些	-10.29
之害	-10.29
燾	-10.29
噐	-10.2905
稟	-10.2908
揲	-10.2912
沮	-10.2923
詩人	-10.2923
瀆	-10.2925
齊家	-10.2925
製	-10.2927
迭	-10.2931
相對	-10.2931
不誠	-10.2937
山林	-10.2937
矣今	-10.2938
信之	-10.2942
諸人	-10.2945
為天下	-10.2946
倣	-10.2948
摩	-10.2955
久矣	-10.2958
楊墨	-10.2961
六二	-10.2962
相反	-10.2965
聞見	-10.2969
多是	-10.2972
貞觀	-10.2973
波	-10.2976
大矣	-10.298
九三	-10.2985
察其	-10.2987
只是要	-10.2988
壬	-10.2998
織	-10.2998
拱	-10.3002
大凡	-10.3002
者盖	-10.3007
紀綱	-10.3013
而終	-10.3016
不利	-10.3018
明矣	-10.3018
男子	-10.3022
萬里	-10.3026
堪	-10.3029
不和	-10.303
矩	-10.3046
以天下	-10.3054
其要	-10.3055
土地	-10.3055
生意	-10.3055
相近	-10.3064
舅	-10.3067
漢儒	-10.3071
軌	-10.3074
普	-10.3075
染	-10.3076
莫大於	-10.3085
處如	-10.3085
十有二	-10.3086
黄鐘	-10.3093
所以能	-10.3099
語録	-10.31
蛇	-10.3101
不然則	-10.3101
以身	-10.3105
代之	-10.3106
也但	-10.3111
乎哉	-10.3113
亦不能	-10.3114
茫	-10.3127
樸	-10.3127
注云	-10.3128
博士	-10.3131
征伐	-10.3135
以俟	-10.3136
反復	-10.3145
巢	-10.3148
滕	-10.3149
其生	-10.3153
誌	-10.3154
黄鍾	-10.3157
之微	-10.3162
旨	-10.3171
自以為	-10.3171
以仁	-10.3172
虜	-10.3172
諷	-10.3174
必須	-10.3179
此之謂	-10.3182
本體	-10.3185
之衆	-10.3189
聲色	-10.3191
癸	-10.3191
存焉	-10.3193
所及	-10.3198
治國	-10.3205
者衆	-10.3207
此詩	-10.3207
下同	-10.321
斛	-10.321
疇	-10.3218
獵	-10.3221
寇	-10.3225
齡	-10.3226
吹	-10.3228
其行	-10.3234
所聞	-10.3235
天徳	-10.3246
茶	-10.3253
天資	-10.3253
州郡	-10.3256
臣下	-10.3259
贖	-10.3267
喜怒	-10.3274
吁	-10.3276
諂	-10.3276
因言	-10.3282
便要	-10.3293
祧	-10.3296
殖	-10.3297
躍	-10.3302
十里	-10.3307
不使	-10.3307
此其	-10.3309
劉氏	-10.3309
時舉	-10.3312
不獨	-10.3314
可得	-10.3317
官司	-10.3323
鞭	-10.3325
而後有	-10.3326
替	-10.3329
近於	-10.3346
三十二	-10.3347
不學	-10.335
賂	-10.335
屑	-10.3351
伊川先生	-10.3352
抗	-10.3352
筭	-10.3352
木之	-10.3361
濶	-10.3378
悅	-10.3378
儆	-10.3379
未嘗有	-10.338
孔明	-10.3381
漁	-10.3382
言仁	-10.3388
科舉	-10.3389
水旱	-10.3397
閎	-10.3402
苑	-10.3404
是亦	-10.3406
天之道	-10.3407
當世	-10.3407
智者	-10.3417
爽	-10.3427
司空	-10.3428
上九	-10.3429
聖學	-10.343
公羊	-10.3434
鄉黨	-10.3444
艾	-10.3451
為貴	-10.3451
鳥獸	-10.3453
之所以為	-10.3454
輯	-10.3454
掠	-10.3455
文子	-10.3462
周公之	-10.3476
互相	-10.3478
慨	-10.3479
能使	-10.3485
久之	-10.3489
之類皆	-10.349
至是	-10.349
易傳	-10.3494
當初	-10.3495
槩	-10.3498
衣冠	-10.3499
薪	-10.3502
藻	-10.3509
景公	-10.3509
六五	-10.3512
玩味	-10.3514
洛書	-10.352
文中子	-10.3522
𦂳	-10.3522
大功	-10.3525
不到	-10.3526
若能	-10.3532
巖	-10.3532
轍	-10.3534
瞽	-10.3538
忠臣	-10.3544
三十六	-10.3552
言行	-10.3555
萃	-10.3557
軰	-10.3577
村	-10.3583
格物致知	-10.3592
方其	-10.3593
資質	-10.3593
陳氏	-10.3596
漢書	-10.3599
有徳	-10.3603
飭	-10.3605
六爻	-10.3609
鳯	-10.3611
芻	-10.3611
婢	-10.3611
衷	-10.3612
未聞	-10.3614
而進	-10.3616
在位	-10.3622
求仁	-10.3625
緊	-10.363
跪	-10.363
道路	-10.3631
一以貫之	-10.364
朱熹	-10.3649
民間	-10.3651
有所不	-10.3652
非獨	-10.3658
醜	-10.3666
區區	-10.3666
隘	-10.3666
誠心	-10.3672
三曰	-10.3682
為民	-10.3691
髙下	-10.3693
个	-10.3695
狩	-10.3704
而况	-10.3705
庠	-10.3711
愛民	-10.3713
杜牧曰	-10.3716
曰子	-10.3716
距	-10.3717
卯	-10.3719
曰昔	-10.3725
其上	-10.3726
召公	-10.3731
成性	-10.3736
人之性	-10.3739
恪	-10.3741
驟	-10.3742
纂	-10.3744
也至於	-10.3746
論之	-10.375
盜賊	-10.3754
相去	-10.3757
外物	-10.3761
其政	-10.3764
耆	-10.3766
壤	-10.3767
鞅	-10.3771
餓	-10.3772
帖	-10.3774
十一月	-10.3775
一等	-10.3785
禾	-10.3786
苖	-10.3791
艱難	-10.3793
催	-10.3793
橋	-10.3798
常人	-10.3799
何事	-10.38
得箇	-10.38
賢才	-10.3801
二曰	-10.3806
利用	-10.3807
西南	-10.3813
監司	-10.3813
不孝	-10.3814
㝢	-10.3821
長安	-10.3824
甚多	-10.3827
傍	-10.3849
曲禮	-10.385
因問	-10.385
善人	-10.386
孟子所謂	-10.3862
此之謂也	-10.3862
去做	-10.3867
訖	-10.3871
興起	-10.3872
世間	-10.3873
薨	-10.3874
殤	-10.3877
下手	-10.3879
皆當	-10.3879
箕子	-10.388
㝠	-10.388
必待	-10.389
也朱子曰	-10.389
孰能	-10.3896
豳	-10.39
嘗言	-10.39
今世	-10.3902
無常	-10.3903
數年	-10.3904
本然之	-10.3904
勅	-10.3907
宣公	-10.391
某嘗	-10.391
節文	-10.3918
仁人	-10.3924
規矩	-10.3931
為陽	-10.3932
夙夜	-10.3932
壻	-10.3934
天下國家	-10.3935
持敬	-10.3939
將來	-10.3942
邪正	-10.3951
苛	-10.396
不備	-10.3961
晦庵	-10.3962
君臣父子	-10.3971
任之	-10.3971
不妨	-10.3981
俸	-10.3982
松	-10.3989
前代	-10.3989
為能	-10.3997
賔客	-10.4
諒	-10.4007
三軍	-10.4009
後面	-10.4011
聖人之言	-10.4028
軒	-10.4028
象山	-10.4032
鄒	-10.4035
不獲	-10.4035
主敬	-10.4038
不逺	-10.404
帝王之	-10.4041
流於	-10.4046
委曲	-10.4049
甚好	-10.4051
正直	-10.4051
察之	-10.4056
從此	-10.406
鐵	-10.4066
而卒	-10.4069
萬一	-10.4071
先聖	-10.4074
而不得	-10.4086
檜	-10.4088
道體	-10.409
詰	-10.409
鈞	-10.4096
十萬	-10.4101
亦多	-10.4102
綱紀	-10.4108
其地	-10.4113
胸中	-10.4118
綴	-10.4126
襄公	-10.4129
通鑑	-10.4136
晉侯	-10.4143
暫	-10.4149
阜	-10.4151
固已	-10.4152
熟讀	-10.4161
再拜	-10.4164
語孟	-10.4168
五百	-10.4168
嶽	-10.4171
蠲	-10.4173
諧	-10.4177
僖公	-10.4179
乃能	-10.4184
於朝	-10.4187
之資	-10.4192
便見	-10.4194
赫	-10.42
及至	-10.42
棘	-10.42
人君之	-10.4201
李筌曰	-10.4206
君子小人	-10.4206
浩然之氣	-10.4211
天下事	-10.4215
是氣	-10.4218
立志	-10.4218
五刑	-10.4223
漫	-10.4233
亢	-10.4233
馴	-10.4234
處便是	-10.4242
平易	-10.4256
逼	-10.4262
兩箇	-10.4265
仲弓	-10.4271
元祐	-10.4275
明道先生	-10.4278
淪	-10.4286
胄	-10.4286
猷	-10.4288
懇	-10.4288
甸	-10.4289
閲	-10.429
介甫	-10.4299
一端	-10.431
昭公	-10.431
之源	-10.4313
汲	-10.4318
零	-10.4321
五經	-10.4333
這是	-10.4336
梅	-10.4342
需	-10.4342
婚	-10.4348
明年	-10.435
曾㸃	-10.4352
變易	-10.4359
一生	-10.436
慰	-10.4369
財用	-10.4374
施行	-10.4375
庶民	-10.4383
起居	-10.4385
顔色	-10.439
了便	-10.4393
悼	-10.4395
蘭	-10.4398
卧	-10.4401
厚薄	-10.4402
專以	-10.4408
真實	-10.4409
其下	-10.4414
敬字	-10.4414
於其間	-10.4417
四字	-10.442
此其所以	-10.4421
臯	-10.4427
那箇	-10.4428
稼	-10.4428
值	-10.4434
考其	-10.4434
而不為	-10.4451
番	-10.4458
巾	-10.4459
培	-10.4459
歆	-10.446
之所由	-10.4466
自知	-10.447
明堂	-10.448
叔孫	-10.448
廩	-10.4484
穴	-10.4486
醒	-10.449
梏	-10.449
可觀	-10.4492
小子	-10.4499
七八	-10.4501
恁	-10.451
刋	-10.4512
純粹	-10.4517
灰	-10.4522
牝	-10.4522
民心	-10.4527
紹興	-10.4529
此類	-10.453
紅	-10.4537
九四	-10.4542
惇	-10.4542
經文	-10.4542
贄	-10.4542
勃	-10.4547
五聲	-10.4549
恰	-10.4566
恬	-10.4572
絰	-10.4574
潘	-10.4574
百物	-10.4584
和平	-10.4587
制禮	-10.4589
人傑	-10.4594
酷	-10.4596
何足	-10.4596
四書	-10.4598
簒	-10.4599
勉强	-10.4603
汎	-10.4603
劒	-10.4605
兩字	-10.4608
可使	-10.4609
先儒謂	-10.461
抵	-10.4621
豕	-10.4629
托	-10.4632
漠	-10.4632
鳳	-10.4635
一太極	-10.4641
屨	-10.4655
匱	-10.4659
榜	-10.4661
碑	-10.4663
姤	-10.4669
治民	-10.4673
其聲	-10.4673
未易	-10.4681
㢘	-10.4687
柱	-10.4689
减	-10.469
陣	-10.469
淮南	-10.469
狎	-10.4693
日月星辰	-10.4698
講論	-10.4705
和靖	-10.4706
網	-10.4713
喚	-10.4715
諛	-10.4717
廹	-10.4719
一時之	-10.4719
乃可	-10.4719
不宜	-10.4724
尹氏	-10.473
堯舜之	-10.4735
懋	-10.474
竝	-10.475
前輩	-10.4752
者葢	-10.4756
臣若水通曰此	-10.4757
這便是	-10.4764
誠敬	-10.4765
好處	-10.4765
而言則	-10.4765
宣帝	-10.4766
功名	-10.4767
備矣	-10.4767
公私	-10.4774
一嵗	-10.4778
不可曉	-10.4781
如水	-10.4791
筵	-10.4796
鳩	-10.4797
月令	-10.4801
羲	-10.4807
著力	-10.4812
消息	-10.4828
拔	-10.4833
而言也	-10.4834
罵	-10.4836
膠	-10.4836
盛徳	-10.4838
行道	-10.4841
匠	-10.4841
脈	-10.4842
曰固是	-10.4843
立法	-10.4853
佛老	-10.4857
先君	-10.4858
日月之	-10.486
秋冬	-10.4861
濓溪	-10.4863
慤	-10.4867
糶	-10.4868
無妄	-10.4868
堯之	-10.4868
賈誼	-10.4869
駭	-10.4869
成周	-10.4874
所記	-10.4877
岳	-10.4879
專一	-10.4889
晨	-10.4893
障	-10.4897
莫不有	-10.4897
一氣	-10.4897
㧞	-10.4897
捉	-10.4898
成物	-10.4899
欣	-10.49
當如此	-10.4906
看他	-10.4911
只說	-10.4911
太史	-10.4913
莊公	-10.4915
骨肉	-10.4924
彛	-10.4925
呈	-10.4926
而後能	-10.4934
事理	-10.4937
否曰然	-10.4939
程朱	-10.4941
在其中矣	-10.4944
最為	-10.4952
按此	-10.4956
官吏	-10.4958
則無以	-10.4958
吾身	-10.4959
老氏	-10.497
在前	-10.4974
五日	-10.4982
剖	-10.4983
非特	-10.4985
擔	-10.4988
常在	-10.499
耳若	-10.4993
一曰	-10.4997
二月	-10.5005
宦官	-10.5006
合當	-10.5006
溺於	-10.5008
不貳	-10.5009
凌	-10.5012
冗	-10.5015
賄	-10.5017
叅	-10.502
墻	-10.5021
此段	-10.5032
蔵	-10.504
養氣	-10.5042
武侯	-10.5043
鬱	-10.5044
浪	-10.5045
閱	-10.5045
㸔得	-10.505
柳	-10.5053
刺史	-10.5057
民力	-10.5063
荷	-10.5072
孺子	-10.5076
牒	-10.5076
擢	-10.5077
九十	-10.5085
取諸	-10.5086
皆由	-10.5092
只是箇	-10.5103
翻	-10.5105
慝	-10.5105
誡	-10.5108
畨	-10.5109
版	-10.511
溥	-10.5111
庶子	-10.5112
見聞	-10.5121
萊	-10.5129
邢	-10.5132
足矣	-10.5135
秘	-10.5136
刼	-10.514
募	-10.5142
不特	-10.5156
物物	-10.5156
南軒曰	-10.5156
即所謂	-10.5157
安得不	-10.516
本文	-10.516
涕	-10.5161
二條	-10.5163
鬻	-10.5165
百工	-10.5167
君子之道	-10.5167
不聽	-10.5172
有限	-10.5189
津	-10.52
屠	-10.5224
捐	-10.5229
牖	-10.5231
瘠	-10.5231
熹	-10.5252
憾	-10.5291
趾	-10.5319
償	-10.5323
隐	-10.5324
裴	-10.5324
縫	-10.5379
憐	-10.5382
綿	-10.5414
灑	-10.5415
潰	-10.5416
㕔	-10.5416
册	-10.5478
膺	-10.5482
揜	-10.5484
繡	-10.5505
饌	-10.5512
漆	-10.5514
廓	-10.5514
概	-10.5515
遼	-10.5541
燒	-10.5542
貎	-10.5542
蠻	-10.5557
沃	-10.5568
泳	-10.5569
諾	-10.557
坦	-10.5574
慊	-10.5574
訛	-10.5576
模	-10.5602
座	-10.5636
群	-10.5643
幻	-10.5648
弩	-10.5668
䜛	-10.5668
灼	-10.5668
勒	-10.5671
儼	-10.5671
盥	-10.5672
豹	-10.5672
逰	-10.5674
盍	-10.5695
忒	-10.5699
朽	-10.5735
詆	-10.5735
勘	-10.5764
頤	-10.5768
昬	-10.5771
戌	-10.5771
恢	-10.58
柴	-10.58
宛	-10.5828
歉	-10.583
鈍	-10.5864
兑	-10.5865
抄	-10.587
牀	-10.589
惻	-10.5896
卽	-10.5898
肇	-10.5899
訂	-10.5927
鮑	-10.5929
台	-10.593
促	-10.5933
戈	-10.5961
穢	-10.5963
浚	-10.5963
醴	-10.5963
袒	-10.5965
雙	-10.5966
妹	-10.5967
揺	-10.5995
两	-10.6002
郷	-10.6005
麄	-10.6033
冲	-10.6035
盾	-10.6053
慘	-10.6061
怯	-10.6063
粥	-10.6063
埋	-10.6068
乳	-10.6094
泄	-10.6097
柩	-10.6099
勁	-10.6102
翰	-10.6123
箕	-10.6128
愁	-10.6132
羮	-10.6136
扇	-10.6137
雕	-10.6159
銷	-10.6165
悠	-10.6175
壹	-10.6201
繋	-10.6203
電	-10.6205
栗	-10.6231
狗	-10.6232
陟	-10.6261
昆	-10.6263
焦	-10.6266
絳	-10.6266
弁	-10.6298
濯	-10.63
祁	-10.63
湛	-10.6304
塊	-10.6304
綂	-10.6308
踵	-10.6339
繞	-10.6342
㽦	-10.6366
樣	-10.6369
冶	-10.6371
竈	-10.6371
俞	-10.6373
伺	-10.6408
圜	-10.6414
衮	-10.6433
械	-10.644
濕	-10.6445
蓍	-10.6446
乍	-10.6474
兊	-10.6476
岸	-10.6506
丕	-10.6508
劇	-10.6515
寤	-10.6518
隕	-10.6542
効	-10.6581
態	-10.6583
鋒	-10.6615
蠧	-10.6619
叩	-10.6619
隣	-10.6619
𤼵	-10.6653
狥	-10.6655
桂	-10.6685
擁	-10.6687
卻	-10.669
眉	-10.6718
偉	-10.6722
窒	-10.6722
汗	-10.6723
骸	-10.6723
鬬	-10.6755
翔	-10.6757
陜	-10.6759
鶴	-10.676
嗇	-10.6761
嶺	-10.6763
碩	-10.6792
枕	-10.6794
兌	-10.6795
冰	-10.6798
稻	-10.6816
沿	-10.6825
殃	-10.6831
磬	-10.6831
塲	-10.6899
嬖	-10.69
瓦	-10.6902
憑	-10.6905
腐	-10.6906
演	-10.6935
臂	-10.6935
牡	-10.6937
冩	-10.6939
絹	-10.694
祇	-10.6941
爛	-10.6944
叢	-10.6974
疲	-10.6976
閩	-10.701
陂	-10.701
叟	-10.7011
隊	-10.7011
囿	-10.7047
峰	-10.7048
穫	-10.7048
懦	-10.7048
嬪	-10.7048
礪	-10.7082
䘏	-10.7083
軀	-10.7087
憎	-10.709
琢	-10.7121
緝	-10.7124
巴	-10.7158
誇	-10.716
瑕	-10.716
幕	-10.7197
砥	-10.7198
佗	-10.7204
僞	-10.7225
姒	-10.7231
輟	-10.7239
翟	-10.7274
濡	-10.7275
餒	-10.7278
踊	-10.7279
䙝	-10.7309
笞	-10.734
爰	-10.7345
怡	-10.7346
遑	-10.735
勾	-10.7353
騰	-10.7353
泗	-10.7385
遮	-10.7388
絡	-10.7395
敕	-10.7425
鋭	-10.743
鋪	-10.7464
綽	-10.7467
祕	-10.7468
阼	-10.7497
粲	-10.7501
肩	-10.7502
麤	-10.7504
輝	-10.7541
彈	-10.7544
凛	-10.7576
帷	-10.7578
濬	-10.7579
桃	-10.758
芳	-10.7616
蚤	-10.7616
疵	-10.762
脅	-10.7658
填	-10.7659
妣	-10.7698
凢	-10.7698
渭	-10.77
奕	-10.77
遐	-10.7729
睽	-10.7737
廪	-10.7738
幅	-10.7742
璋	-10.7776
烹	-10.7777
㒺	-10.778
胎	-10.778
愿	-10.7808
樊	-10.7813
劾	-10.7815
吞	-10.7817
勑	-10.782
眩	-10.7824
㪚	-10.7838
牟	-10.7854
迨	-10.7895
侃	-10.7895
姪	-10.7899
握	-10.7936
疊	-10.7936
邀	-10.7939
靠	-10.794
緇	-10.7973
郤	-10.7977
蔬	-10.7979
聊	-10.8015
挈	-10.8021
冷	-10.8022
豁	-10.8024
亞	-10.8039
蔑	-10.8055
孽	-10.806
臆	-10.806
肺	-10.8061
炙	-10.8063
肝	-10.8063
核	-10.8092
股	-10.8097
鉅	-10.81
捷	-10.8102
戕	-10.8104
孺	-10.8152
紐	-10.8182
逞	-10.8183
㨗	-10.8188
覲	-10.8216
雩	-10.822
渴	-10.8222
榦	-10.8225
臻	-10.8226
籠	-10.8231
胸	-10.8236
裔	-10.8257
衢	-10.8263
羸	-10.8265
揣	-10.8267
塘	-10.8267
梢	-10.8303
贍	-10.8303
棣	-10.8305
暨	-10.8309
隴	-10.831
亹	-10.8313
羔	-10.8346
釁	-10.8349
耀	-10.8352
垢	-10.8354
紳	-10.839
擯	-10.8393
訥	-10.8394
虗	-10.8396
睡	-10.8397
瓊	-10.8422
扈	-10.8431
滔	-10.8433
数	-10.8434
菴	-10.8434
餉	-10.8435
耐	-10.8436
裡	-10.8437
俄	-10.8482
鬭	-10.8517
拾	-10.8555
銳	-10.8558
鞠	-10.8561
盎	-10.8563
涯	-10.8566
纓	-10.8567
淨	-10.8569
䖍	-10.8601
譎	-10.8601
吸	-10.8606
夬	-10.8608
洩	-10.8608
睹	-10.8649
泯	-10.865
掇	-10.865
頻	-10.8652
燥	-10.8655
夙	-10.8686
摧	-10.8696
佑	-10.8698
壘	-10.8734
頂	-10.8736
鯀	-10.8738
敘	-10.8774
竄	-10.8776
倖	-10.8782
紊	-10.8783
晁	-10.8786
炭	-10.882
陪	-10.8825
擴	-10.8827
團	-10.8835
搜	-10.8865
仗	-10.8867
蘓	-10.887
妬	-10.8907
睢	-10.8908
貯	-10.8913
矧	-10.8958
壮	-10.8959
邱	-10.8965
婉	-10.9
壑	-10.9004
頴	-10.9006
徼	-10.9006
弭	-10.9006
寔	-10.9007
偕	-10.9007
璽	-10.9045
醢	-10.9046
贏	-10.9095
瑩	-10.9099
壓	-10.9137
殻	-10.9139
熾	-10.9183
派	-10.9186
燈	-10.9187
邁	-10.9228
迄	-10.9228
披	-10.9229
冥	-10.923
嵩	-10.9231
浴	-10.9232
駟	-10.9237
悍	-10.9276
逾	-10.9276
闡	-10.9278
斁	-10.9309
批	-10.9317
揀	-10.9317
槁	-10.9325
鬯	-10.9326
售	-10.9327
瑟	-10.9365
慙	-10.9368
架	-10.9375
羌	-10.9412
潁	-10.9412
壺	-10.9414
㓂	-10.9415
豚	-10.9416
忤	-10.9417
慟	-10.9421
剪	-10.9464
胷	-10.9469
譜	-10.951
現	-10.9514
㓕	-10.9549
禆	-10.9557
箭	-10.956
穏	-10.9561
肖	-10.9595
貲	-10.9602
滌	-10.9603
煖	-10.9604
𤓰	-10.9605
胞	-10.9608
函	-10.9615
尼	-10.964
参	-10.9645
菽	-10.9646
膝	-10.9693
涇	-10.9694
押	-10.9695
鵲	-10.9697
銜	-10.9699
耘	-10.9701
梓	-10.9709
帳	-10.9742
耿	-10.9748
署	-10.9749
囊	-10.975
蟻	-10.9789
啻	-10.98
愠	-10.9801
珪	-10.9803
埶	-10.984
餌	-10.9842
汨	-10.9844
棟	-10.9855
輅	-10.9888
菑	-10.9893
晋	-10.9896
簞	-10.9898
滚	-10.9898
姻	-10.9898
冢	-10.9941
晳	-10.9942
詹	-10.9945
戯	-10.9946
謟	-10.9952
扐	-10.9954
濮	-10.999
銓	-10.9995
嫉	-10.9995
垣	-11
㓙	-11.0003
蒐	-11.0032
悌	-11.0039
淹	-11.0041
麓	-11.0042
酢	-11.0045
騷	-11.0045
卵	-11.0047
詘	-11.0048
冨	-11.0049
涼	-11.0051
蝕	-11.0058
苴	-11.0098
奄	-11.0135
拯	-11.0144
騶	-11.0144
衾	-11.0145
腰	-11.0147
蔚	-11.0171
粒	-11.0197
寝	-11.0197
厄	-11.0198
沐	-11.0198
脊	-11.0202
桐	-11.0243
訊	-11.0244
湊	-11.0244
擒	-11.0245
覈	-11.0245
雀	-11.0249
囂	-11.0292
撻	-11.0297
贅	-11.0298
錮	-11.0298
㳟	-11.0299
凉	-11.0301
茹	-11.0303
峯	-11.0329
霍	-11.0335
轡	-11.034
評	-11.0345
頽	-11.0345
籥	-11.0346
誑	-11.0347
兢	-11.0348
冐	-11.0352
慧	-11.0352
矛	-11.0354
殄	-11.0393
筋	-11.0396
圏	-11.0396
彬	-11.0397
耜	-11.0399
坑	-11.0399
鈎	-11.0401
跋	-11.0404
蠡	-11.0406
斜	-11.045
贓	-11.0452
凍	-11.0453
孩	-11.0503
燠	-11.0503
斃	-11.0505
膽	-11.0506
挽	-11.0548
摯	-11.0552
緡	-11.0553
隳	-11.0553
粉	-11.0555
巍	-11.0557
澹	-11.0559
婁	-11.0559
鐡	-11.0599
鴈	-11.0603
漳	-11.0605
掘	-11.0605
驪	-11.0606
纒	-11.061
油	-11.0611
盪	-11.0621
笙	-11.0649
迪	-11.066
遥	-11.066
黯	-11.0661
炳	-11.0661
寘	-11.0664
挺	-11.0705
犧	-11.0706
緦	-11.0708
滑	-11.0711
咏	-11.0713
㦸	-11.0713
宵	-11.0714
闈	-11.0717
窟	-11.0718
鉤	-11.0719
柯	-11.0727
顓	-11.0764
庇	-11.0764
憫	-11.0767
栢	-11.0768
舛	-11.077
漿	-11.0771
䆒	-11.0772
朂	-11.0778
虢	-11.0819
廖	-11.0819
灾	-11.0821
笏	-11.0823
寖	-11.0823
羡	-11.0824
譲	-11.0828
翦	-11.0863
眷	-11.0871
爼	-11.0873
徂	-11.0874
芒	-11.0875
隄	-11.0876
彚	-11.0876
摸	-11.0877
溉	-11.0878
駿	-11.0881
緼	-11.0886
劍	-11.0926
蔓	-11.0927
莘	-11.0928
鸞	-11.0979
聨	-11.0984
鎬	-11.0988
扁	-11.1034
倪	-11.1036
戀	-11.1036
腦	-11.1037
潦	-11.1037
搏	-11.104
恠	-11.104
驩	-11.104
朞	-11.1044
轂	-11.1044
殽	-11.1044
汴	-11.1089
庖	-11.1091
樵	-11.1096
逝	-11.1097
芥	-11.1097
喬	-11.1144
笄	-11.1145
凱	-11.1147
圃	-11.1153
蹙	-11.1205
恂	-11.1211
鹵	-11.1212
璘	-11.1254
複	-11.1258
轅	-11.1258
泊	-11.1267
譴	-11.1267
掖	-11.1268
醮	-11.131
摘	-11.1315
顙	-11.1318
躋	-11.1319
黼	-11.1319
燔	-11.132
狡	-11.1321
谿	-11.1323
鷄	-11.137
墾	-11.1371
梗	-11.1373
譚	-11.1373
亘	-11.1374
騁	-11.1375
剝	-11.1381
㐫	-11.1382
崖	-11.1429
芝	-11.1432
掉	-11.1432
簋	-11.1433
奬	-11.1433
姊	-11.1434
郢	-11.1435
狷	-11.1436
霧	-11.1439
滎	-11.1486
飄	-11.1487
洋	-11.1488
查	-11.149
遞	-11.1494
仞	-11.1496
孳	-11.15
楹	-11.1545
欒	-11.1548
嫂	-11.1548
魁	-11.1553
緑	-11.1555
渝	-11.16
叶	-11.16
襟	-11.1605
詖	-11.1606
縛	-11.1606
裹	-11.1606
販	-11.1609
釣	-11.1609
勺	-11.161
森	-11.1615
寗	-11.1656
縷	-11.1659
彞	-11.1661
㤗	-11.1662
衫	-11.1664
徭	-11.1664
洲	-11.1665
寨	-11.1668
棲	-11.1669
奈	-11.1695
塟	-11.1718
畎	-11.1718
伋	-11.1725
庾	-11.1781
蟄	-11.1784
衙	-11.1833
閫	-11.1838
鰥	-11.1839
耒	-11.1842
株	-11.1842
儻	-11.1844
洒	-11.1893
繕	-11.1896
苐	-11.1896
僉	-11.1898
沂	-11.1898
鷹	-11.1899
猜	-11.1902
軟	-11.1902
訾	-11.1906
繪	-11.1906
綜	-11.1947
鐸	-11.1959
肌	-11.1962
涖	-11.1962
輦	-11.1963
偹	-11.1965
喟	-11.1967
譖	-11.1968
歐	-11.1993
罹	-11.2014
塾	-11.202
浄	-11.2024
腸	-11.2025
撞	-11.2029
沾	-11.2084
畀	-11.2084
薰	-11.2085
寕	-11.2085
諍	-11.2086
沖	-11.2089
苞	-11.2093
伎	-11.2142
浦	-11.2142
藹	-11.2142
恊	-11.2145
媿	-11.2146
瓢	-11.2147
芽	-11.2205
戢	-11.221
揉	-11.221
㤀	-11.2211
綸	-11.2242
殫	-11.2262
澮	-11.2263
組	-11.2263
翫	-11.2264
欵	-11.2269
淆	-11.2269
籌	-11.2272
郵	-11.2272
慄	-11.2273
踏	-11.2274
䟦	-11.2324
忝	-11.2326
亾	-11.2327
洙	-11.2329
豎	-11.2333
俛	-11.2334
暌	-11.2386
隻	-11.2393
扞	-11.2394
夸	-11.2394
糊	-11.2396
䑕	-11.24
鉞	-11.2453
撃	-11.2457
脂	-11.2457
羿	-11.2513
拈	-11.2515
齎	-11.2519
盞	-11.2525
瞿	-11.2527
繒	-11.258
葦	-11.258
拊	-11.2581
韜	-11.2581
嘻	-11.2583
誾	-11.2587
謫	-11.2587
豺	-11.2588
琦	-11.2588
簾	-11.2591
忙	-11.2594
迅	-11.2597
囬	-11.2648
撤	-11.2649
咈	-11.2654
噬	-11.2654
証	-11.2656
葵	-11.2708
蔣	-11.2711
裝	-11.2713
潞	-11.2713
袂	-11.2718
閤	-11.2719
雝	-11.2719
繳	-11.277
猾	-11.2776
劑	-11.2783
恍	-11.279
玄	-11.2823
𦙍	-11.2832
嬴	-11.2835
浹	-11.2838
麽	-11.2838
澗	-11.2841
慚	-11.2842
謾	-11.2845
暖	-11.2846
蓼	-11.2846
騖	-11.2847
軸	-11.2849
虺	-11.285
霤	-11.2856
逵	-11.29
凰	-11.291
汾	-11.2915
俠	-11.2916
昻	-11.2916
駸	-11.2918
癢	-11.292
劓	-11.2977
汰	-11.2978
慿	-11.2981
穰	-11.3044
們	-11.3051
漬	-11.3052
岷	-11.3062
蓬	-11.3109
臼	-11.3109
揭	-11.311
綦	-11.311
眚	-11.3111
諺	-11.3112
逋	-11.3113
愉	-11.3113
鏤	-11.3114
皓	-11.3114
疚	-11.3115
黔	-11.3116
軻	-11.3116
歇	-11.3118
鄫	-11.3176
脯	-11.3177
廸	-11.3178
摶	-11.318
緫	-11.318
楫	-11.3181
黥	-11.3183
觴	-11.3185
潭	-11.3185
剽	-11.3247
糞	-11.325
悝	-11.3253
迴	-11.3258
陛	-11.33
跛	-11.3311
禫	-11.3311
滓	-11.3312
絞	-11.3316
俎	-11.3321
盆	-11.3327
揮	-11.3372
謚	-11.338
軾	-11.3385
黻	-11.3385
莭	-11.3385
煉	-11.3388
濤	-11.339
邸	-11.3392
蜡	-11.3393
甥	-11.3456
旺	-11.3462
賡	-11.3463
鵠	-11.3463
兀	-11.3468
朗	-11.3523
頸	-11.3524
牌	-11.3526
雌	-11.3527
黷	-11.3529
佃	-11.353
廼	-11.3534
誹	-11.3545
瀾	-11.36
跖	-11.3601
驛	-11.3601
倘	-11.3603
壙	-11.3604
藁	-11.3604
挑	-11.3661
疫	-11.3665
悶	-11.3667
煙	-11.3671
尖	-11.3675
秤	-11.3676
蚩	-11.3726
姿	-11.3741
燎	-11.3744
逓	-11.3744
邕	-11.375
庵	-11.3812
阮	-11.3812
蜚	-11.3814
訐	-11.3816
櫛	-11.3816
帯	-11.3816
絪	-11.3831
濵	-11.3881
鄂	-11.3886
宸	-11.3887
栽	-11.3888
彫	-11.389
貝	-11.389
柏	-11.3893
廂	-11.3896
餽	-11.3898
爪	-11.3899
抽	-11.3953
扑	-11.3956
縦	-11.3961
騫	-11.3961
別	-11.3963
譯	-11.403
冺	-11.4031
猗	-11.4031
喧	-11.4034
亶	-11.4034
瘁	-11.4039
薫	-11.4039
雹	-11.4046
㽔	-11.4053
狃	-11.41
舂	-11.4106
愽	-11.4106
茲	-11.4107
飫	-11.4108
豢	-11.4108
衽	-11.4111
懥	-11.4117
耽	-11.4119
挨	-11.4119
䑓	-11.4119
敞	-11.4181
裒	-11.4185
肚	-11.4187
縝	-11.4188
彝	-11.419
婺	-11.4258
爐	-11.4259
殁	-11.4261
弧	-11.4262
攜	-11.4262
蘊	-11.4262
貿	-11.4263
稔	-11.4264
掲	-11.4265
系	-11.4332
肄	-11.4334
隰	-11.4335
屍	-11.4337
瑣	-11.434
絮	-11.4342
蒿	-11.4344
兖	-11.4399
鄆	-11.4412
霄	-11.4415
搆	-11.4416
控	-11.4417
㬰	-11.4417
拆	-11.4418
沽	-11.442
愴	-11.4428
琮	-11.4485
裼	-11.449
絀	-11.449
邈	-11.449
塑	-11.4492
傭	-11.4493
竪	-11.4493
掾	-11.4494
怙	-11.4495
牘	-11.4498
斵	-11.4566
翠	-11.4568
麾	-11.4568
湘	-11.4568
杯	-11.4574
謔	-11.4576
竅	-11.4579
朢	-11.4603
昊	-11.4617
曼	-11.4643
昇	-11.4643
𣙜	-11.4645
涪	-11.4646
稚	-11.4646
菲	-11.4651
蕪	-11.4652
媵	-11.4653
劣	-11.4654
串	-11.4654
㢤	-11.4655
狠	-11.4723
藪	-11.4724
鼠	-11.4725
寥	-11.4727
攬	-11.473
𠂻	-11.4731
聦	-11.4733
輻	-11.4733
匝	-11.4734
鑚	-11.4734
譛	-11.4735
撮	-11.4736
駒	-11.4742
穉	-11.4745
眇	-11.4803
濳	-11.4807
詎	-11.4811
粢	-11.4811
埽	-11.4812
顏	-11.4863
髠	-11.4883
稀	-11.4885
种	-11.4886
愬	-11.4888
賚	-11.4889
聳	-11.489
廊	-11.489
涸	-11.4892
岡	-11.4893
暘	-11.4893
圉	-11.4894
蓮	-11.4962
嘘	-11.4966
戱	-11.497
煌	-11.497
葺	-11.497
㕘	-11.4971
匏	-11.4973
餼	-11.5039
夔	-11.5044
呌	-11.5045
藜	-11.5046
煥	-11.5047
驥	-11.5048
龎	-11.5049
腥	-11.5051
棠	-11.5051
帙	-11.5054
髦	-11.5054
霽	-11.5054
筐	-11.5055
鞏	-11.5057
街	-11.5057
檄	-11.5057
鑽	-11.5059
蹶	-11.506
褐	-11.506
愷	-11.5062
礼	-11.5111
燧	-11.512
桎	-11.5128
粱	-11.5134
箸	-11.5135
汩	-11.5136
軫	-11.5136
叱	-11.5137
晴	-11.514
構	-11.5157
泮	-11.5213
泌	-11.5215
両	-11.5215
臘	-11.5216
帑	-11.5218
闘	-11.5218
穎	-11.5221
兎	-11.5223
璣	-11.5224
鱗	-11.5299
罅	-11.5299
蹉	-11.53
曩	-11.53
焞	-11.53
藐	-11.5301
澆	-11.5301
簀	-11.5302
殉	-11.5302
挫	-11.5304
凑	-11.5307
甄	-11.537
荼	-11.5373
嬉	-11.5384
沼	-11.5384
悴	-11.5385
鑠	-11.5387
悚	-11.539
枚	-11.539
賾	-11.5467
繭	-11.5469
岀	-11.547
寮	-11.547
桞	-11.5473
洵	-11.5476
皥	-11.5478
線	-11.5478
燦	-11.548
旒	-11.5547
裨	-11.5548
螽	-11.5551
偪	-11.5553
縉	-11.5557
針	-11.5559
袖	-11.556
蝗	-11.5562
拓	-11.5565
懽	-11.5565
胙	-11.5635
龔	-11.5639
萇	-11.564
覿	-11.5644
窘	-11.5644
凋	-11.5645
椒	-11.5645
迺	-11.5646
侔	-11.5647
娣	-11.565
昃	-11.565
餕	-11.5659
竿	-11.5719
肘	-11.5726
楷	-11.573
璞	-11.5734
瞑	-11.5736
另	-11.5736
怍	-11.5739
兔	-11.5743
幷	-11.5812
躡	-11.5816
惴	-11.5816
羈	-11.5818
茨	-11.5818
簫	-11.5819
瑗	-11.5819
耨	-11.5821
箋	-11.5821
尅	-11.5824
酸	-11.5824
墟	-11.5824
賻	-11.5825
曜	-11.5825
猝	-11.5826
鳶	-11.5826
梧	-11.5828
仆	-11.5828
綺	-11.5828
旡	-11.583
褊	-11.5904
陞	-11.5904
䛕	-11.5905
惶	-11.5905
薇	-11.5907
隧	-11.5909
奭	-11.5909
覬	-11.5911
憶	-11.5911
聾	-11.5912
袍	-11.5912
嘿	-11.5914
弋	-11.5915
怎	-11.5985
昉	-11.5991
縊	-11.5992
廻	-11.6001
彩	-11.6002
訣	-11.6007
昵	-11.6008
聃	-11.6009
龠	-11.6014
藎	-11.6081
篆	-11.6084
汜	-11.6086
厮	-11.6091
跌	-11.6093
霆	-11.6093
橫	-11.6093
糓	-11.6098
汐	-11.6101
伶	-11.6105
璟	-11.6116
臾	-11.618
篋	-11.6181
槐	-11.6181
籬	-11.6184
劫	-11.6185
纖	-11.6186
熒	-11.6188
綰	-11.6192
磋	-11.6193
惚	-11.6194
紏	-11.6263
毗	-11.6267
縻	-11.6268
濓	-11.627
卞	-11.6271
堤	-11.6271
彧	-11.6271
彤	-11.6273
赧	-11.6274
亳	-11.6276
弃	-11.6277
愍	-11.628
竦	-11.6286
妍	-11.6288
杲	-11.6364
芮	-11.6365
旄	-11.6366
瓜	-11.6367
縞	-11.6368
佯	-11.6368
畱	-11.637
渇	-11.6371
忱	-11.6372
窄	-11.6373
瓶	-11.6375
梯	-11.6376
涂	-11.6378
滄	-11.638
悽	-11.6385
㕓	-11.639
礿	-11.6452
媒	-11.6453
蠢	-11.646
宄	-11.6462
准	-11.6462
紿	-11.6462
耄	-11.6462
棗	-11.6463
咽	-11.6463
柢	-11.6464
蜂	-11.6464
雒	-11.6464
暉	-11.6465
綬	-11.6466
跳	-11.6467
嚚	-11.6468
椿	-11.6468
餐	-11.6469
烟	-11.647
覃	-11.6549
抹	-11.655
殛	-11.655
徤	-11.6557
霖	-11.6558
孕	-11.656
餙	-11.656
刖	-11.656
攀	-11.6561
猥	-11.6562
撙	-11.6563
疋	-11.6564
閻	-11.6567
􁀙	-11.6569
旃	-11.6642
藍	-11.6645
彘	-11.6651
窠	-11.6651
禅	-11.6653
詈	-11.6655
熄	-11.6656
侑	-11.6657
娛	-11.6658
酣	-11.666
瞬	-11.666
樽	-11.6661
搖	-11.6666
丸	-11.6666
莾	-11.6745
冡	-11.6746
翳	-11.675
皷	-11.675
顚	-11.6751
髓	-11.6751
僑	-11.6755
晷	-11.6757
哺	-11.6758
廡	-11.6758
瘳	-11.6759
點	-11.6844
禳	-11.6846
懶	-11.6847
漓	-11.6847
鍼	-11.6848
剔	-11.6852
剡	-11.6852
夘	-11.6853
鄕	-11.6856
秬	-11.6863
緘	-11.6865
莅	-11.694
䜟	-11.694
鼈	-11.6943
麋	-11.6945
貉	-11.6946
沌	-11.6947
捄	-11.6947
倨	-11.6947
彪	-11.6948
犀	-11.695
䕃	-11.6953
𤨏	-11.6953
璜	-11.6954
湧	-11.6955
產	-11.6955
犢	-11.6957
碧	-11.7031
煎	-11.7043
屛	-11.7045
饉	-11.7045
鴟	-11.7047
拖	-11.7048
摭	-11.7048
捍	-11.705
剰	-11.7051
阨	-11.7051
諤	-11.7052
窈	-11.7055
聯	-11.7056
肫	-11.7059
匣	-11.7065
蔟	-11.7072
䋲	-11.714
覘	-11.7144
坡	-11.7147
漲	-11.7148
丗	-11.7149
蘖	-11.715
迤	-11.7151
煦	-11.7155
嚳	-11.7162
侗	-11.7242
滂	-11.7248
淚	-11.725
圎	-11.7251
鋤	-11.7251
孥	-11.7253
槃	-11.7254
懾	-11.7254
㝷	-11.7255
昀	-11.7255
禴	-11.7351
汶	-11.7352
􁆪	-11.7354
歷	-11.7354
嘯	-11.7355
賵	-11.7356
檀	-11.7358
蹊	-11.7358
劔	-11.7359
穩	-11.736
郯	-11.7451
捧	-11.7455
絜	-11.7456
鄴	-11.7456
盂	-11.7458
駐	-11.746
絺	-11.7461
杼	-11.7461
袋	-11.7463
燼	-11.7464
祜	-11.7465
扣	-11.7466
堰	-11.7467
郁	-11.747
罟	-11.7555
湮	-11.7561
袵	-11.7563
釀	-11.7563
劵	-11.7564
儕	-11.7566
誚	-11.7569
楮	-11.7571
鉗	-11.7573
妥	-11.7574
聶	-11.766
翊	-11.7662
枲	-11.7664
詛	-11.7667
鉏	-11.7667
轄	-11.7668
畋	-11.7669
舄	-11.7669
愕	-11.7672
櫟	-11.7672
縳	-11.7673
肻	-11.7676
椁	-11.7678
欹	-11.7684
桉	-11.7689
纊	-11.7773
雇	-11.7774
幄	-11.7775
覧	-11.7775
倅	-11.7776
輜	-11.7777
吿	-11.7777
据	-11.7779
拍	-11.778
渤	-11.7781
囑	-11.7781
糜	-11.7782
蒯	-11.7782
缶	-11.7784
劌	-11.7882
迥	-11.7883
塔	-11.7887
燮	-11.7887
殞	-11.7887
喉	-11.7888
忮	-11.7889
搢	-11.7889
澁	-11.789
巻	-11.7892
僮	-11.7892
槨	-11.7894
港	-11.7898
漂	-11.7898
丐	-11.7899
皎	-11.7903
椎	-11.7991
療	-11.7995
彥	-11.7996
臥	-11.7996
幞	-11.8
閹	-11.8002
羨	-11.8002
𣲖	-11.8009
鶉	-11.8022
郛	-11.8101
杵	-11.8101
醯	-11.8102
瑜	-11.8107
堕	-11.8107
悱	-11.8108
慷	-11.8109
樁	-11.811
俚	-11.811
衿	-11.811
榭	-11.811
凟	-11.811
㨿	-11.8112
諳	-11.8118
軋	-11.8119
唾	-11.8123
囯	-11.8198
峽	-11.8203
顥	-11.8209
翺	-11.8209
炊	-11.8212
雛	-11.8213
傚	-11.8214
糟	-11.8218
剗	-11.8224
挹	-11.8224
踞	-11.8226
杭	-11.8227
駢	-11.8227
煮	-11.8228
俘	-11.8318
甯	-11.8329
譁	-11.8329
岱	-11.8331
輓	-11.8332
㝡	-11.8335
馨	-11.8335
慣	-11.8336
澶	-11.8338
霑	-11.8339
覊	-11.834
啼	-11.8341
顒	-11.8345
隍	-11.8347
閘	-11.8359
掣	-11.8442
箠	-11.8444
狙	-11.8445
玷	-11.8445
嘏	-11.8446
厨	-11.8447
曵	-11.8447
酈	-11.8449
憸	-11.845
峙	-11.845
鬚	-11.8451
獺	-11.8451
鍊	-11.8453
祊	-11.8456
斟	-11.8459
映	-11.8459
恙	-11.8464
觶	-11.8554
堵	-11.8562
紘	-11.8562
劬	-11.8564
呵	-11.8567
瞞	-11.8569
貊	-11.8569
涓	-11.8569
硜	-11.8569
倐	-11.8573
誄	-11.8575
棊	-11.8576
騂	-11.8579
球	-11.8674
盲	-11.8674
縢	-11.8677
啖	-11.8678
護	-11.868
遙	-11.8681
苻	-11.8683
撲	-11.8684
怛	-11.8684
榆	-11.8685
犆	-11.8687
讙	-11.8688
祺	-11.8689
鯉	-11.869
搔	-11.869
渚	-11.8691
禎	-11.8693
媯	-11.8786
墠	-11.8792
婣	-11.8792
瞭	-11.8802
邯	-11.8803
褚	-11.8805
儔	-11.8806
旻	-11.8806
悞	-11.8811
跨	-11.8812
粘	-11.8816
莠	-11.8908
宓	-11.8913
曺	-11.8913
緜	-11.8916
芟	-11.8917
摹	-11.8918
帨	-11.8921
叨	-11.8921
默	-11.8922
鹹	-11.8924
絢	-11.8924
暁	-11.8927
粮	-11.8928
訕	-11.8932
斫	-11.8932
懌	-11.8933
讞	-11.8934
駑	-11.8939
蘋	-11.9035
酋	-11.904
餅	-11.9044
詬	-11.9045
匐	-11.9045
皂	-11.9047
勣	-11.9047
犂	-11.9048
怵	-11.9048
莪	-11.905
穡	-11.9051
柟	-11.9051
黝	-11.9052
墉	-11.9055
窶	-11.906
蕤	-11.9066
島	-11.9157
腴	-11.9162
簟	-11.9163
紬	-11.9164
沸	-11.9167
蕢	-11.9169
汭	-11.917
陌	-11.917
紗	-11.9171
渥	-11.9171
叠	-11.9172
肸	-11.9172
彗	-11.9172
祼	-11.9173
綵	-11.9174
湍	-11.9175
粤	-11.9175
㸑	-11.9285
啞	-11.9287
淄	-11.929
郈	-11.9291
悻	-11.9292
宼	-11.9292
旂	-11.9293
扺	-11.9293
閽	-11.9294
螟	-11.9295
磊	-11.9296
榛	-11.9297
㢲	-11.9298
愎	-11.93
篡	-11.93
廐	-11.9301
禋	-11.9303
腎	-11.9307
兠	-11.941
讜	-11.9414
拳	-11.9417
虹	-11.9418
肱	-11.9419
蟬	-11.942
匍	-11.942
啜	-11.9422
迸	-11.9422
淇	-11.9423
悪	-11.9423
企	-11.9424
桴	-11.9426
閃	-11.9428
沱	-11.9444
澂	-11.9535
閨	-11.9539
紡	-11.9544
厠	-11.9545
隸	-11.9548
凊	-11.9549
閙	-11.9549
蛟	-11.9551
纍	-11.9551
櫝	-11.9552
濂	-11.9552
跣	-11.9553
匕	-11.9553
罄	-11.9553
鴆	-11.9554
芸	-11.9554
梟	-11.9554
椀	-11.956
喙	-11.956
鎰	-11.9571
坫	-11.9669
菁	-11.9674
窕	-11.9676
鄢	-11.9677
郕	-11.968
諟	-11.9684
怖	-11.9686
爍	-11.9687
釡	-11.9689
驢	-11.969
帽	-11.98
稗	-11.9801
俳	-11.9804
瘞	-11.9806
昺	-11.9806
醬	-11.9806
繚	-11.9807
嘔	-11.9809
蕘	-11.9809
驂	-11.981
蹟	-11.9812
榕	-11.9812
猖	-11.9812
檻	-11.9813
彜	-11.9815
斾	-11.9929
甕	-11.9936
鬪	-11.9936
埃	-11.9937
忻	-11.9937
逄	-11.9939
塋	-11.994
埀	-11.994
秣	-11.9941
蒞	-11.9944
咫	-11.9944
舘	-11.9945
佾	-11.9946
潄	-11.9946
䂓	-11.9947
愀	-11.9947
黠	-11.9948
憒	-11.9949
臟	-11.9949
閼	-11.9951
与	-12.0059
玊	-12.0071
异	-12.0071
歿	-12.0074
婆	-12.0074
秪	-12.0077
賙	-12.0077
髀	-12.0078
隗	-12.0078
挍	-12.0078
綢	-12.0079
譙	-12.0079
蹕	-12.008
紞	-12.0082
愾	-12.0082
糲	-12.0084
跂	-12.0084
嚼	-12.0085
闋	-12.0085
搬	-12.0087
煑	-12.0087
航	-12.021
莱	-12.0211
蹤	-12.0211
畤	-12.0212
黽	-12.0212
拗	-12.0212
床	-12.0212
隼	-12.0213
椅	-12.0213
氓	-12.0213
皿	-12.0217
扼	-12.0217
擠	-12.0217
頡	-12.0218
悛	-12.0218
蹄	-12.0219
詡	-12.022
瑄	-12.022
澣	-12.022
旰	-12.0223
攫	-12.0227
獮	-12.0336
灋	-12.0345
饜	-12.0349
淸	-12.0349
訃	-12.0349
冇	-12.035
昂	-12.0351
鷙	-12.0353
兕	-12.0354
刄	-12.0358
蠅	-12.0358
昩	-12.0359
麒	-12.0361
紓	-12.0369
狁	-12.0484
簽	-12.0486
濱	-12.0489
蘩	-12.0489
刈	-12.0489
徯	-12.049
晰	-12.049
徠	-12.0493
址	-12.0493
郅	-12.0494
衒	-12.0495
畬	-12.0496
綠	-12.0499
猪	-12.0508
孑	-12.0619
琰	-12.0627
嫚	-12.0627
躐	-12.0629
僩	-12.0632
瑀	-12.0634
槖	-12.0637
覔	-12.0637
逡	-12.0638
軼	-12.0639
狭	-12.0641
伴	-12.0642
砂	-12.0653
鳬	-12.0656
廏	-12.066
箱	-12.0769
臚	-12.077
哈	-12.0772
䞇	-12.0773
謡	-12.0773
債	-12.0776
暱	-12.0777
劈	-12.0778
芾	-12.078
葭	-12.0782
癘	-12.0784
購	-12.0784
畯	-12.0784
嶇	-12.0785
氐	-12.0786
汁	-12.0786
渺	-12.0787
溷	-12.0787
戶	-12.0788
鏘	-12.0788
趕	-12.0788
㐮	-12.0789
祉	-12.079
携	-12.079
𣣔	-12.0791
豊	-12.0916
謐	-12.0923
凜	-12.0924
漈	-12.0924
稜	-12.0925
錐	-12.0926
拭	-12.0926
戡	-12.0927
憊	-12.0931
徊	-12.0932
﨑	-12.0933
删	-12.0933
鬰	-12.0934
膾	-12.0934
沴	-12.0934
撑	-12.0936
栖	-12.0947
弘	-12.1054
韠	-12.1059
貟	-12.1072
蟠	-12.1078
髻	-12.1079
簠	-12.1079
䧏	-12.1083
剩	-12.1084
啇	-12.1086
颺	-12.1086
岑	-12.1092
縶	-12.1093
悄	-12.1093
炮	-12.1221
鍵	-12.1226
碌	-12.1227
魅	-12.1227
埴	-12.1228
曳	-12.1229
廿	-12.1231
掞	-12.1231
卬	-12.1232
翣	-12.1234
痕	-12.1239
滲	-12.1239
鄘	-12.1239
摠	-12.124
坱	-12.1241
焄	-12.1247
齧	-12.1253
筠	-12.1372
斆	-12.1373
髣	-12.1375
邠	-12.1375
雎	-12.1375
驍	-12.1376
韡	-12.1379
諮	-12.1382
筦	-12.1382
龕	-12.1383
斡	-12.1383
圯	-12.1383
拏	-12.1383
襁	-12.1384
挟	-12.1385
脾	-12.1388
癡	-12.1389
痺	-12.1391
捱	-12.1391
泚	-12.1392
纁	-12.1393
鞶	-12.1394
敺	-12.1394
罩	-12.14
隲	-12.1403
閾	-12.1521
螻	-12.1536
肴	-12.1537
腑	-12.1537
炫	-12.1538
糠	-12.1539
遡	-12.154
睟	-12.154
净	-12.1541
菅	-12.1541
顆	-12.1542
砭	-12.1542
毆	-12.1543
巵	-12.1543
夣	-12.1543
甦	-12.1545
謳	-12.1545
鎭	-12.1547
瓚	-12.1548
擲	-12.1548
薈	-12.1548
嫗	-12.1548
縠	-12.155
翩	-12.1552
訒	-12.1553
皋	-12.1556
盃	-12.1569
詒	-12.1685
塩	-12.1693
噍	-12.1693
靳	-12.1694
緌	-12.1694
羶	-12.1694
畛	-12.1695
穽	-12.1696
聿	-12.1696
譔	-12.1697
装	-12.1697
掊	-12.1698
錙	-12.1698
雋	-12.1698
邃	-12.17
峭	-12.1701
訶	-12.1702
碍	-12.1702
迦	-12.1702
榻	-12.1702
羹	-12.1703
抉	-12.1706
轎	-12.1706
燄	-12.1707
歠	-12.1732
央	-12.1814
捶	-12.185
熏	-12.1852
鍳	-12.1852
瘡	-12.1852
鋸	-12.1853
勦	-12.1854
蘆	-12.1856
刳	-12.1857
藿	-12.1859
聮	-12.1863
棐	-12.1864
頷	-12.1865
籲	-12.1865
蹴	-12.1865
脞	-12.1865
液	-12.1865
僊	-12.1866
琛	-12.1869
禧	-12.1873
厦	-12.1874
紇	-12.2005
酤	-12.2009
斑	-12.2012
髴	-12.2014
莖	-12.2018
脆	-12.2021
洫	-12.2021
塈	-12.2025
翬	-12.2026
晟	-12.2027
鞫	-12.2029
芬	-12.2032
拄	-12.2032
碣	-12.2041
琅	-12.2179
奎	-12.2182
鵬	-12.2182
笥	-12.2186
闥	-12.2187
挂	-12.2187
罍	-12.2188
叡	-12.219
貺	-12.219
襍	-12.2192
湎	-12.2192
湜	-12.2192
堆	-12.2193
𨗳	-12.2193
柝	-12.2193
兇	-12.2193
跬	-12.2194
稳	-12.2195
楣	-12.2195
畦	-12.2197
勗	-12.2199
洊	-12.2201
衎	-12.2202
刮	-12.2203
趍	-12.2344
蔀	-12.2351
邳	-12.2357
挿	-12.2358
廱	-12.2358
趂	-12.2359
訝	-12.2361
懵	-12.2362
慱	-12.2365
敇	-12.2366
輳	-12.2368
惹	-12.2369
諦	-12.2369
諉	-12.237
冏	-12.2372
愜	-12.2374
嚭	-12.2376
雁	-12.238
塡	-12.25
嶠	-12.2519
袴	-12.252
臏	-12.2525
兾	-12.2526
犒	-12.2527
㓗	-12.2529
䟎	-12.2529
矇	-12.2529
鬴	-12.2531
岩	-12.2532
嗚	-12.2533
卭	-12.2534
媾	-12.2537
鼂	-12.2537
抃	-12.254
鎗	-12.2542
舡	-12.2544
幡	-12.2545
貍	-12.269
怏	-12.2695
搭	-12.2696
鴞	-12.2697
褓	-12.2698
奐	-12.27
瘼	-12.27
駮	-12.2702
圄	-12.2703
瀕	-12.2705
擺	-12.2708
牾	-12.2708
鄲	-12.2709
紱	-12.2709
滴	-12.2712
脗	-12.2712
祟	-12.2713
邐	-12.2715
貂	-12.2716
娥	-12.2716
塹	-12.2718
圻	-12.272
伉	-12.2721
襯	-12.2725
斌	-12.2872
呻	-12.2872
犁	-12.2875
旭	-12.2877
菹	-12.2879
瀛	-12.288
鵝	-12.2881
蘄	-12.2881
烽	-12.2882
瓠	-12.2884
薌	-12.2884
𤯝	-12.2885
堡	-12.2886
沓	-12.2888
纘	-12.2888
隤	-12.2888
洎	-12.2888
遶	-12.2888
苫	-12.2888
眡	-12.2889
閟	-12.2891
匆	-12.2892
逈	-12.2896
詮	-12.2903
乱	-12.3047
宁	-12.3056
毀	-12.306
錡	-12.306
揔	-12.306
圈	-12.3063
鞍	-12.3063
殍	-12.3064
酹	-12.3064
萎	-12.3065
耉	-12.3066
㷀	-12.3066
擘	-12.3067
鑰	-12.3067
躅	-12.3068
妲	-12.3069
畸	-12.3069
甿	-12.307
潢	-12.3071
洮	-12.3071
簣	-12.3072
鰌	-12.3072
呪	-12.3073
藟	-12.3074
腓	-12.3074
遄	-12.3074
窆	-12.3075
耼	-12.3077
洶	-12.3077
覯	-12.3079
斐	-12.308
薩	-12.3089
変	-12.3231
腔	-12.3231
晞	-12.3242
灘	-12.3244
袤	-12.3244
刁	-12.3246
倩	-12.3247
橈	-12.3247
袷	-12.3249
穹	-12.3249
𤾉	-12.3249
痒	-12.325
膂	-12.325
鏗	-12.3251
紆	-12.3251
藺	-12.3251
孛	-12.3253
竺	-12.3254
鎔	-12.3254
牴	-12.3255
驤	-12.3256
粧	-12.3256
剏	-12.3256
沆	-12.3259
硯	-12.326
磚	-12.326
煨	-12.3263
㳂	-12.3263
酳	-12.3267
顗	-12.3267
琬	-12.3271
慥	-12.3282
廛	-12.3426
幬	-12.3427
爕	-12.343
枷	-12.3438
估	-12.344
逕	-12.3441
浣	-12.3443
酺	-12.3445
湣	-12.3445
恚	-12.3446
禇	-12.3446
刷	-12.3448
齟	-12.345
窻	-12.3451
汀	-12.3451
髽	-12.3455
茀	-12.3615
鶻	-12.3618
粃	-12.3621
葱	-12.3627
刲	-12.3628
烖	-12.3628
囹	-12.3628
熬	-12.363
諜	-12.3631
鉛	-12.3632
膩	-12.3632
姆	-12.3635
琳	-12.3635
啄	-12.3635
杏	-12.3635
僇	-12.3636
悵	-12.3637
爱	-12.3638
柬	-12.3638
胃	-12.3639
飼	-12.364
矦	-12.3641
攙	-12.3642
澔	-12.3642
痿	-12.3643
陘	-12.3644
楞	-12.3644
咳	-12.3651
簷	-12.3655
絿	-12.3799
鞮	-12.3823
躓	-12.3825
祲	-12.3825
撿	-12.3825
蹌	-12.3827
鐫	-12.3827
嗃	-12.3828
磐	-12.3829
慆	-12.3829
剕	-12.3829
篚	-12.3829
朶	-12.3829
倀	-12.3829
憔	-12.383
莩	-12.383
椽	-12.3831
縈	-12.3832
魋	-12.3833
謠	-12.3838
瑶	-12.3838
桌	-12.3839
殂	-12.3839
淬	-12.384
躔	-12.3845
皁	-12.3845
駉	-12.3867
●	-12.3914
■	-12.3944
溱	-12.4021
枋	-12.4024
聪	-12.4027
胝	-12.4027
哥	-12.4027
頺	-12.4028
𣺌	-12.4031
嵬	-12.4032
淤	-12.4032
睨	-12.4034
套	-12.4034
濩	-12.4037
抛	-12.4037
泝	-12.4038
壼	-12.4039
齬	-12.4039
脇	-12.404
絅	-12.4042
醤	-12.4043
爆	-12.4051
戔	-12.4081
麛	-12.4222
疽	-12.4222
簧	-12.4225
㬥	-12.4228
闒	-12.4228
觚	-12.4229
臬	-12.4229
裾	-12.423
覡	-12.4231
桷	-12.4233
袪	-12.4233
襚	-12.4234
籩	-12.4234
讃	-12.4235
攤	-12.4235
綌	-12.4235
吠	-12.4235
楛	-12.4236
昜	-12.4236
涿	-12.4237
蹷	-12.4237
堙	-12.4239
褻	-12.4239
礫	-12.424
餞	-12.4245
瑾	-12.4245
瞶	-12.4248
惲	-12.425
菩	-12.4256
姨	-12.4434
脛	-12.4435
磽	-12.4435
鯁	-12.4437
厝	-12.4441
飱	-12.4441
肢	-12.4442
柅	-12.4442
儐	-12.4442
槀	-12.4443
鮒	-12.4444
碁	-12.4444
咀	-12.4446
葷	-12.4446
珥	-12.4446
踣	-12.4446
蚡	-12.4447
懟	-12.4448
甽	-12.445
仄	-12.4451
酖	-12.4453
鄱	-12.4454
頰	-12.4457
筴	-12.4465
从	-12.4614
膰	-12.4642
蒔	-12.4643
騏	-12.4646
㺯	-12.465
煬	-12.465
唇	-12.4651
諴	-12.4651
淖	-12.4653
鬲	-12.4653
蹠	-12.4653
彷	-12.4655
莆	-12.4656
甜	-12.4657
瘴	-12.4658
羑	-12.466
洧	-12.466
攪	-12.4663
臍	-12.4663
吃	-12.4664
匃	-12.4665
鞋	-12.4665
灝	-12.4666
妓	-12.4666
瓘	-12.4667
𥘉	-12.486
陲	-12.4863
橘	-12.4863
瑱	-12.4864
猴	-12.4864
訢	-12.4867
樛	-12.4867
嵇	-12.4867
麴	-12.4867
攅	-12.4869
諄	-12.4869
韞	-12.4869
曄	-12.487
㩀	-12.487
瞀	-12.487
踴	-12.4871
型	-12.4871
僎	-12.4871
牓	-12.4872
琪	-12.4872
萍	-12.4872
蕡	-12.4873
闌	-12.4873
紼	-12.4874
絕	-12.4874
獒	-12.4874
鈇	-12.4874
鎛	-12.4874
盱	-12.4875
稠	-12.4875
稿	-12.4875
㤙	-12.4875
祛	-12.4876
堊	-12.4878
媪	-12.4878
咺	-12.4878
坂	-12.488
佻	-12.4881
伽	-12.4881
潼	-12.4881
剋	-12.4881
奨	-12.4883
璿	-12.4884
曇	-12.4885
諶	-12.4886
蕞	-12.489
郄	-12.5073
紺	-12.508
恝	-12.5082
恆	-12.5088
棫	-12.5091
𬒳	-12.5091
阡	-12.5093
欝	-12.5093
摺	-12.5095
俑	-12.5095
噲	-12.5096
跟	-12.5096
肓	-12.5097
邶	-12.5098
杌	-12.5098
努	-12.5099
爨	-12.5101
彀	-12.5101
阪	-12.5103
韭	-12.5103
劭	-12.5103
黿	-12.5103
歙	-12.5103
敲	-12.5105
庳	-12.5105
豶	-12.5111
棖	-12.5112
秒	-12.5116
銑	-12.5306
蚊	-12.5308
饔	-12.5308
內	-12.5309
痤	-12.5309
遒	-12.5311
梨	-12.5313
蓐	-12.5317
縑	-12.5318
侏	-12.5319
㐲	-12.532
寰	-12.532
皐	-12.5321
哩	-12.5321
筲	-12.5322
耑	-12.5324
簪	-12.5325
瘦	-12.5325
楯	-12.5326
妤	-12.5326
赭	-12.5328
逍	-12.5328
毓	-12.5329
荔	-12.5329
俶	-12.533
宂	-12.533
澳	-12.533
眠	-12.5331
駙	-12.5331
匯	-12.5332
惱	-12.5332
苓	-12.5332
袞	-12.5332
煇	-12.5333
杪	-12.5335
闑	-12.5336
盬	-12.5337
殀	-12.5338
胾	-12.5343
蹻	-12.5537
仭	-12.5541
鄞	-12.5541
邰	-12.5542
嘲	-12.5543
嫠	-12.5547
狸	-12.5549
竽	-12.555
諏	-12.5554
鄣	-12.5554
撒	-12.5555
夤	-12.5555
萹	-12.5555
翌	-12.5555
瑋	-12.5558
艶	-12.556
翹	-12.556
猫	-12.5561
攣	-12.5562
拽	-12.5562
慍	-12.5563
詁	-12.5563
泆	-12.5564
糗	-12.5564
縕	-12.5567
饘	-12.5567
毬	-12.5568
羃	-12.5569
券	-12.5569
羆	-12.5572
甌	-12.5576
斈	-12.5758
飪	-12.5778
毳	-12.5778
踖	-12.578
僱	-12.5781
嗛	-12.5782
儷	-12.5783
娯	-12.5788
鋟	-12.5789
㛰	-12.579
逖	-12.5792
卲	-12.5795
驃	-12.5795
昶	-12.5796
焰	-12.5796
鏃	-12.5796
蠆	-12.5796
夹	-12.5798
娘	-12.5798
枵	-12.5798
剌	-12.5799
縰	-12.5799
䰟	-12.5799
昕	-12.58
沔	-12.58
禜	-12.5802
褰	-12.5805
僨	-12.5805
刎	-12.5806
孶	-12.5807
揠	-12.5807
甑	-12.5807
峴	-12.5809
燬	-12.6018
犇	-12.6022
孀	-12.6026
楨	-12.6028
賭	-12.6029
腆	-12.6029
瀦	-12.603
譌	-12.6032
脤	-12.6033
嗤	-12.6033
娱	-12.6034
垓	-12.6034
僥	-12.6036
襃	-12.6038
寞	-12.6038
鴨	-12.6038
締	-12.6039
桶	-12.6041
祓	-12.6042
瀝	-12.6043
蠖	-12.6045
螫	-12.6045
泓	-12.6046
畵	-12.6047
歜	-12.605
媸	-12.605
蹢	-12.6054
莧	-12.6264
爇	-12.6275
殮	-12.6278
衘	-12.6278
綈	-12.6279
煽	-12.628
弇	-12.6282
陬	-12.6284
嗷	-12.6284
綫	-12.6284
卹	-12.6285
譟	-12.6285
吻	-12.6285
店	-12.6286
捜	-12.6286
擕	-12.6286
胼	-12.6287
樗	-12.6287
吊	-12.6288
疢	-12.6289
鄠	-12.6289
酇	-12.6289
忖	-12.6292
禕	-12.6292
穗	-12.6292
壝	-12.6295
譊	-12.6295
酧	-12.6297
屣	-12.6297
緋	-12.6298
緹	-12.6299
儱	-12.6303
潑	-12.6305
芑	-12.6307
曀	-12.6322
鳲	-12.6525
㗖	-12.6526
鉉	-12.6526
閧	-12.6529
郜	-12.6529
饁	-12.653
涑	-12.6534
磔	-12.6534
漚	-12.6536
扉	-12.6538
毉	-12.6539
屹	-12.654
鈐	-12.654
簇	-12.6543
喘	-12.6544
嶢	-12.6544
郴	-12.6545
闚	-12.6545
縲	-12.6547
眸	-12.6547
迓	-12.6547
芘	-12.6548
釘	-12.6548
藤	-12.6548
艷	-12.6549
饕	-12.655
惨	-12.6551
儇	-12.6552
犴	-12.6552
疣	-12.6555
鸇	-12.6556
帚	-12.6558
繢	-12.6559
輈	-12.6564
鈴	-12.6788
噴	-12.6789
掎	-12.6789
愔	-12.6791
酗	-12.6791
僂	-12.6797
沫	-12.6798
塜	-12.6799
罝	-12.68
摽	-12.68
扆	-12.68
茸	-12.6801
尭	-12.6803
睫	-12.6804
餗	-12.6804
縵	-12.6804
賽	-12.6805
涅	-12.6805
媢	-12.6806
璉	-12.6806
囷	-12.6807
棼	-12.6807
鱉	-12.6808
裸	-12.6809
揑	-12.681
崛	-12.681
扱	-12.6811
櫓	-12.6811
旐	-12.6811
抝	-12.6814
綾	-12.6815
毖	-12.6817
款	-12.6817
柰	-12.7038
壟	-12.705
㳙	-12.7057
縟	-12.7058
恫	-12.706
秧	-12.7062
儋	-12.7065
尔	-12.7066
萋	-12.7068
裙	-12.7068
氊	-12.7069
灣	-12.7069
罸	-12.7069
隷	-12.7074
躭	-12.7074
醋	-12.7075
駱	-12.7075
諗	-12.7076
縂	-12.7076
濃	-12.7076
阱	-12.7077
獅	-12.7077
叫	-12.7078
𦕈	-12.7078
棒	-12.7079
㴠	-12.7079
㦯	-12.7079
觳	-12.708
咬	-12.7081
杠	-12.7081
斨	-12.7081
喝	-12.7082
釜	-12.7082
杓	-12.7083
盼	-12.7083
筍	-12.7084
耰	-12.7084
哂	-12.7084
僵	-12.7085
喋	-12.7086
揩	-12.7088
桮	-12.7088
适	-12.7089
薊	-12.7089
眹	-12.7089
漾	-12.7089
匙	-12.709
鬛	-12.7094
喑	-12.7094
渫	-12.7096
筓	-12.7318
嚶	-12.7329
鴉	-12.7339
倂	-12.734
蟋	-12.734
稊	-12.7341
鑊	-12.7342
睎	-12.7344
楓	-12.7345
坯	-12.7346
娩	-12.7346
鶩	-12.7346
攔	-12.7346
絆	-12.7349
蛤	-12.735
捲	-12.7351
昞	-12.7352
垠	-12.7352
覦	-12.7353
筒	-12.7354
𤦺	-12.7355
辠	-12.7355
娑	-12.7356
㴱	-12.7356
珮	-12.7357
倭	-12.7357
棋	-12.7358
棬	-12.7359
絇	-12.7359
荏	-12.7359
偲	-12.7359
掀	-12.7359
蓁	-12.736
蚓	-12.736
頋	-12.7361
奧	-12.7362
鏑	-12.7363
媟	-12.7363
杳	-12.7363
擦	-12.7363
嚇	-12.7364
戻	-12.7365
鍛	-12.7365
蚌	-12.7366
轝	-12.7366
賃	-12.7367
咤	-12.7374
洟	-12.7377
扛	-12.7387
俵	-12.7624
傴	-12.7628
菊	-12.7628
摳	-12.7628
櫽	-12.763
曖	-12.7632
抜	-12.7633
蒍	-12.7634
黏	-12.7634
梳	-12.7634
惸	-12.7635
皦	-12.7636
躑	-12.7636
遴	-12.7636
軄	-12.7636
猿	-12.7638
娠	-12.7638
悃	-12.7639
奩	-12.7639
鼃	-12.7641
簮	-12.7643
鏞	-12.7643
㡌	-12.7644
蒋	-12.7644
飴	-12.7644
擗	-12.7646
腊	-12.7646
茵	-12.7647
仿	-12.7648
悮	-12.7649
郝	-12.7649
邲	-12.765
尫	-12.765
澧	-12.7651
諠	-12.7653
滁	-12.7654
窓	-12.7655
錘	-12.7655
殳	-12.7659
霾	-12.7666
墩	-12.791
畮	-12.7911
珦	-12.7915
揄	-12.7916
虩	-12.7918
眺	-12.7918
殱	-12.7919
飜	-12.7922
栝	-12.7923
徨	-12.7924
紕	-12.7925
禖	-12.7926
紃	-12.7927
鎻	-12.7928
踽	-12.7929
阯	-12.793
峩	-12.793
恡	-12.793
葆	-12.793
孜	-12.793
褁	-12.793
翅	-12.793
鎖	-12.793
礲	-12.793
薺	-12.793
紵	-12.7931
緍	-12.7933
剃	-12.7933
皜	-12.7933
闐	-12.7934
痼	-12.7935
瘝	-12.7935
擎	-12.7936
塌	-12.7936
幟	-12.7937
籧	-12.7937
逗	-12.7937
䨇	-12.7938
虵	-12.7939
釵	-12.794
聫	-12.7941
垜	-12.7942
捺	-12.7943
癰	-12.7943
婿	-12.7944
蜴	-12.7945
炯	-12.7945
霞	-12.7946
捭	-12.7949
筯	-12.795
詫	-12.7951
輾	-12.7953
廨	-12.7956
訏	-12.8218
荐	-12.8219
吮	-12.8222
㮣	-12.8223
莞	-12.8226
澡	-12.8227
侀	-12.8229
輴	-12.8229
陀	-12.823
岌	-12.8233
箧	-12.8233
贛	-12.8235
幙	-12.8235
溟	-12.8236
嚕	-12.8236
戞	-12.8238
攄	-12.8238
燃	-12.8239
鍜	-12.8239
摰	-12.824
舶	-12.824
擿	-12.824
醖	-12.8241
呆	-12.8242
睚	-12.8242
鬢	-12.8243
蔕	-12.8243
朘	-12.8243
瓉	-12.8243
筌	-12.8243
璵	-12.8244
儗	-12.8244
㡳	-12.8245
匄	-12.8245
笛	-12.8247
伾	-12.8248
珙	-12.8248
𥚹	-12.8248
哇	-12.8251
婼	-12.8251
緻	-12.8252
惺	-12.8252
耤	-12.8255
棁	-12.8256
哨	-12.8256
瑊	-12.826
騋	-12.8261
鳸	-12.8524
㪯	-12.8526
湑	-12.8527
蠋	-12.8528
繻	-12.8529
紈	-12.8531
㬊	-12.8537
杕	-12.8538
聆	-12.8538
蟹	-12.8538
佔	-12.8539
嶮	-12.8543
驁	-12.8543
賸	-12.8544
枅	-12.8545
嶷	-12.8545
蟊	-12.8546
瑛	-12.8546
賫	-12.8546
纛	-12.8547
拶	-12.8547
戇	-12.8548
輶	-12.8549
苕	-12.8549
炬	-12.8549
戩	-12.855
偈	-12.8551
胖	-12.8551
傀	-12.8551
瑁	-12.8551
椘	-12.8551
薑	-12.8552
魑	-12.8553
牿	-12.8553
牕	-12.8553
啗	-12.8553
䡖	-12.8554
晢	-12.8554
拇	-12.8555
擡	-12.8556
齗	-12.8556
兜	-12.8557
撼	-12.8558
衺	-12.8558
疴	-12.8558
摇	-12.856
綻	-12.8561
蜥	-12.8562
諝	-12.8562
琇	-12.8563
鼗	-12.8566
稹	-12.8567
儌	-12.8575
垤	-12.884
鷩	-12.8844
媛	-12.8851
稂	-12.8854
玠	-12.8857
醆	-12.8859
䦧	-12.8859
𣆀	-12.886
麑	-12.8861
䲭	-12.8863
匀	-12.8863
抒	-12.8865
磁	-12.8866
顕	-12.8866
燿	-12.8868
屡	-12.8868
剸	-12.8868
矍	-12.8869
茁	-12.8869
暄	-12.8869
柘	-12.887
壠	-12.887
謄	-12.887
臀	-12.887
嚬	-12.8871
靴	-12.8872
壌	-12.8873
児	-12.8874
氾	-12.8874
侣	-12.8875
僦	-12.8875
愨	-12.8877
淘	-12.8879
咡	-12.8881
牐	-12.8881
溼	-12.8882
磷	-12.8882
癉	-12.8883
柷	-12.8883
嗔	-12.8884
繅	-12.8884
凂	-12.8886
崑	-12.8888
檐	-12.8895
浞	-12.918
珽	-12.9187
馘	-12.9189
鄊	-12.9191
埸	-12.9191
伱	-12.9191
倆	-12.9193
烙	-12.9194
逭	-12.9196
膜	-12.9196
鐃	-12.9198
拚	-12.9198
噪	-12.9198
韙	-12.9199
炤	-12.92
夐	-12.92
义	-12.92
瀚	-12.9202
陿	-12.9204
蕕	-12.9204
覷	-12.9205
遘	-12.9206
螢	-12.9206
凄	-12.9207
濠	-12.9207
瑤	-12.9207
屐	-12.9207
𠖇	-12.9208
斿	-12.9208
酪	-12.9209
忩	-12.9209
襌	-12.921
圮	-12.921
糅	-12.921
梱	-12.921
蜮	-12.9213
扯	-12.9214
瑯	-12.9214
瞰	-12.9214
愓	-12.9215
擣	-12.9215
肜	-12.9216
瓏	-12.9217
婕	-12.9218
蠃	-12.9228
珣	-12.9518
鱄	-12.9527
冽	-12.9528
饎	-12.9533
覓	-12.9538
湼	-12.9538
瀟	-12.9539
幃	-12.9539
葅	-12.954
拉	-12.954
榷	-12.954
霓	-12.9541
闞	-12.9542
亊	-12.9543
筥	-12.9543
豔	-12.9544
邴	-12.9544
蜜	-12.9544
唤	-12.9544
銍	-12.9545
酏	-12.9545
肹	-12.9546
𡨕	-12.9546
倬	-12.9546
梲	-12.9547
獃	-12.9547
蹂	-12.9548
襦	-12.9549
閡	-12.9549
曆	-12.9549
撐	-12.955
洿	-12.9551
厪	-12.9551
舁	-12.9551
踪	-12.9551
羯	-12.9552
餱	-12.9553
淋	-12.9553
燁	-12.9553
瓌	-12.9554
氛	-12.9554
峨	-12.9554
柞	-12.9555
鵒	-12.9555
𨼆	-12.9557
霎	-12.9557
癖	-12.9558
蘀	-12.9558
匈	-12.9559
溯	-12.956
睇	-12.9561
邨	-12.9562
姫	-12.9563
貓	-12.9564
嘖	-12.9576
廄	-12.9584
豉	-12.9873
扃	-12.9877
斉	-12.9889
鷦	-12.9889
袠	-12.9893
蜃	-12.9893
勛	-12.9894
茇	-12.9894
啐	-12.9899
蠭	-12.99
萑	-12.9901
嚢	-12.9902
涘	-12.9902
蝦	-12.9903
秃	-12.9903
葩	-12.9903
踧	-12.9904
腋	-12.9904
麯	-12.9906
癃	-12.9906
㨂	-12.9906
灸	-12.9906
綖	-12.9907
螺	-12.9908
巔	-12.9909
禭	-12.9909
瀉	-12.9909
諼	-12.991
怫	-12.9911
晶	-12.9912
騃	-12.9912
噩	-12.9912
榱	-12.9912
蓰	-12.9913
晡	-12.9914
黶	-12.9916
綍	-12.9917
齕	-12.9918
牂	-12.9918
翛	-12.992
刓	-12.9922
侁	-12.9922
嫓	-12.9924
冤	-12.9924
慇	-12.9925
撅	-12.9927
汔	-12.9927
甒	-12.9936
筞	-12.9937
睪	-13.0256
慼	-13.0259
盻	-13.0262
醲	-13.0267
螣	-13.0267
頖	-13.0268
惛	-13.027
絍	-13.0272
蠟	-13.0273
哦	-13.0274
唁	-13.0275
很	-13.0275
㽞	-13.0275
畚	-13.0276
琊	-13.0276
緬	-13.0277
驀	-13.0277
崧	-13.0277
綘	-13.0278
姙	-13.0278
聒	-13.0278
珩	-13.0278
浃	-13.0278
扄	-13.0279
飡	-13.0279
窖	-13.0281
儺	-13.0281
檮	-13.0281
堦	-13.0283
捽	-13.0285
紝	-13.0285
澇	-13.0285
雊	-13.0286
埒	-13.0288
澌	-13.0288
嘽	-13.0289
鷺	-13.0292
斲	-13.0293
玅	-13.0295
昴	-13.0295
笠	-13.0296
噶	-13.0296
蜉	-13.0624
呐	-13.0635
纏	-13.0641
𥙷	-13.0641
窩	-13.0643
䧺	-13.0647
釗	-13.0649
泠	-13.065
膋	-13.0654
邜	-13.0655
倞	-13.0656
壩	-13.0656
陔	-13.0657
䆳	-13.0657
厖	-13.0657
祸	-13.0658
欄	-13.0658
墊	-13.0658
鑪	-13.0659
朐	-13.066
琨	-13.066
熖	-13.066
鷇	-13.0661
聵	-13.0661
芷	-13.0663
凈	-13.0663
礴	-13.0664
㳫	-13.0664
綯	-13.0664
碞	-13.0664
喈	-13.0664
孱	-13.0664
鈆	-13.0664
讟	-13.0667
瞥	-13.0667
蛙	-13.0667
酆	-13.0667
僃	-13.0668
戅	-13.0668
掄	-13.0669
滉	-13.0669
䔍	-13.0669
鉦	-13.067
聱	-13.067
籙	-13.067
眦	-13.0672
觫	-13.0672
澈	-13.0673
儁	-13.0673
窳	-13.0676
暈	-13.0676
鄄	-13.0676
噦	-13.0677
駘	-13.0677
霹	-13.0678
狴	-13.068
蛾	-13.1037
麀	-13.1039
剄	-13.1041
芰	-13.1044
佽	-13.1046
雱	-13.1048
蕉	-13.1048
纉	-13.105
嚌	-13.1051
烜	-13.1051
黈	-13.1052
㝎	-13.1055
艘	-13.1055
賍	-13.1055
㩁	-13.1056
悒	-13.1056
瘉	-13.1056
棧	-13.1058
寬	-13.1058
龡	-13.1059
杉	-13.106
㵼	-13.106
撝	-13.106
鴦	-13.1061
澠	-13.1061
蘧	-13.1061
堲	-13.1062
襖	-13.1062
盭	-13.1062
滇	-13.1063
攧	-13.1063
芃	-13.1063
暐	-13.1063
瘥	-13.1064
丼	-13.1064
賠	-13.1064
鑾	-13.1064
紉	-13.1064
讖	-13.1064
皡	-13.1064
銛	-13.1067
葑	-13.1067
欿	-13.1068
妺	-13.1068
櫜	-13.1069
㫄	-13.1069
蛩	-13.107
泖	-13.1071
弹	-13.1071
紋	-13.1071
茗	-13.1071
鷲	-13.1071
倮	-13.1073
掬	-13.1074
鼉	-13.1074
攢	-13.1075
獠	-13.1076
僾	-13.1076
氤	-13.1076
艸	-13.1079
觥	-13.1079
暝	-13.1081
槍	-13.1081
𣪚	-13.1083
彍	-13.1083
妯	-13.1086
娌	-13.1086
蜾	-13.1087
儳	-13.109
贑	-13.1098
泂	-13.1443
哆	-13.145
鞀	-13.1454
涗	-13.1456
麕	-13.1457
訿	-13.1463
栻	-13.1463
蔭	-13.1464
芭	-13.1464
荑	-13.1466
曁	-13.1466
霏	-13.1466
蹲	-13.1466
瓛	-13.1467
术	-13.1468
􁃻	-13.1469
憧	-13.1469
搶	-13.1469
湢	-13.1469
媮	-13.1474
湄	-13.1474
磯	-13.1475
憝	-13.1475
鯨	-13.1476
熲	-13.1477
㓪	-13.1477
憮	-13.1477
剟	-13.1477
惬	-13.1477
醍	-13.1478
靑	-13.1479
関	-13.1479
弈	-13.1479
隮	-13.1479
鴛	-13.148
齪	-13.148
圑	-13.148
沍	-13.148
戹	-13.1481
禬	-13.1482
儂	-13.1482
噓	-13.1482
暦	-13.1482
謇	-13.1483
崎	-13.1484
糖	-13.1485
瑚	-13.1485
帟	-13.1486
値	-13.1486
甓	-13.1486
腕	-13.1487
䜿	-13.1487
鶡	-13.1487
鮪	-13.1488
懔	-13.1489
噉	-13.149
詵	-13.1491
蝎	-13.1492
簸	-13.1492
柵	-13.1492
丅	-13.1492
氲	-13.1493
譸	-13.1493
璠	-13.1495
漙	-13.1495
袝	-13.1497
嚏	-13.1503
紲	-13.1504
謖	-13.1506
髭	-13.1885
褘	-13.1886
幘	-13.1889
姝	-13.1894
鮓	-13.1899
紟	-13.1901
玦	-13.1901
愒	-13.1901
鼐	-13.1903
鍤	-13.1904
虫	-13.1904
豝	-13.1905
琚	-13.1906
瘧	-13.1906
顰	-13.1906
竣	-13.1907
阸	-13.1907
靄	-13.1908
荇	-13.1908
卉	-13.1909
淩	-13.1909
颯	-13.1909
廳	-13.191
㴞	-13.191
砮	-13.191
澀	-13.1911
簨	-13.1912
鉶	-13.1912
鄜	-13.1913
㮚	-13.1913
靚	-13.1914
朏	-13.1914
噎	-13.1915
梃	-13.1915
妊	-13.1916
橐	-13.1916
厓	-13.1916
嫩	-13.1916
垍	-13.1917
纚	-13.1917
罽	-13.192
􁂎	-13.192
鸜	-13.192
碗	-13.1921
剴	-13.1922
扎	-13.1922
羇	-13.1922
?	-13.1922
嘑	-13.1924
趲	-13.1925
厎	-13.1928
贒	-13.1933
脢	-13.1933
蛉	-13.1937
晫	-13.1941
漣	-13.2349
鄖	-13.235
艦	-13.235
禨	-13.2351
嬙	-13.2353
檠	-13.2355
瀘	-13.2356
僬	-13.2358
矻	-13.2358
翮	-13.2359
鷃	-13.236
濛	-13.2361
窣	-13.2361
碏	-13.2362
椸	-13.2362
鄶	-13.2363
郟	-13.2364
薙	-13.2364
宙	-13.2364
嚙	-13.2364
梵	-13.2364
蠕	-13.2365
巇	-13.2365
殣	-13.2365
鍰	-13.2365
擐	-13.2366
剉	-13.2367
卺	-13.2368
晬	-13.2368
洸	-13.2369
埏	-13.237
靦	-13.237
喏	-13.2371
揷	-13.2371
捫	-13.2371
趺	-13.2371
瀍	-13.2372
枘	-13.2372
臠	-13.2373
徉	-13.2374
醪	-13.2374
蒂	-13.2375
沬	-13.2375
棹	-13.2375
瘖	-13.2375
煆	-13.2376
堇	-13.2377
錬	-13.2377
丱	-13.2377
囁	-13.2378
彄	-13.2379
䄂	-13.2381
鐶	-13.2383
傘	-13.2384
蚳	-13.2386
篙	-13.2387
猺	-13.2389
䖝	-13.2389
煒	-13.2389
砦	-13.2392
祍	-13.2393
忉	-13.2808
洳	-13.2809
頎	-13.2816
魴	-13.2818
瑪	-13.2822
騑	-13.2825
蓧	-13.2826
瀰	-13.2826
窑	-13.283
尽	-13.283
泫	-13.2831
鱣	-13.2831
隩	-13.2831
輊	-13.2833
鎧	-13.2833
甬	-13.2836
琵	-13.2836
猒	-13.2836
璀	-13.2837
蹋	-13.2838
箎	-13.2839
湫	-13.284
幔	-13.284
鸚	-13.284
櫬	-13.2841
曝	-13.2841
穪	-13.2841
蟣	-13.2841
跗	-13.2843
旟	-13.2843
逑	-13.2844
遨	-13.2844
翀	-13.2844
蘿	-13.2844
篲	-13.2845
昱	-13.2845
陡	-13.2846
瓣	-13.2846
柚	-13.2846
痾	-13.2846
眊	-13.2846
尢	-13.2847
襡	-13.2848
讚	-13.2849
褥	-13.2849
踦	-13.2849
泡	-13.2849
禡	-13.285
籖	-13.285
篩	-13.285
煅	-13.285
塤	-13.2851
邏	-13.2852
橛	-13.2852
悸	-13.2852
廕	-13.2852
禺	-13.2853
葸	-13.2854
酅	-13.2855
璇	-13.2856
漱	-13.2857
枸	-13.2859
淝	-13.286
媧	-13.2861
溜	-13.2863
玲	-13.2864
攖	-13.2865
坼	-13.2866
閠	-13.2867
坰	-13.2871
畷	-13.2874
箾	-13.3316
貜	-13.3317
麫	-13.3318
机	-13.3323
蜩	-13.3324
枳	-13.3326
芼	-13.3326
鵰	-13.3332
町	-13.3334
脣	-13.3334
罃	-13.3334
倔	-13.3334
欎	-13.3336
濞	-13.3336
汛	-13.3337
蛆	-13.3337
耔	-13.3337
豬	-13.3337
虔	-13.3338
濘	-13.3338
觜	-13.3339
㪷	-13.3339
跲	-13.3339
琶	-13.3339
讌	-13.3339
夥	-13.334
閥	-13.334
匜	-13.334
爝	-13.3341
駞	-13.3341
舖	-13.3342
梭	-13.3342
矮	-13.3343
卸	-13.3344
莎	-13.3344
琯	-13.3344
畒	-13.3345
絏	-13.3345
耋	-13.3346
豨	-13.3347
訑	-13.3347
尠	-13.3347
劘	-13.3347
釂	-13.3348
懃	-13.3348
兗	-13.3349
憯	-13.3349
柁	-13.3349
撘	-13.3349
饟	-13.335
韵	-13.3351
膴	-13.3352
摟	-13.3354
砌	-13.3356
腫	-13.3356
軆	-13.3357
錚	-13.3358
簴	-13.336
虬	-13.3363
緱	-13.3363
攛	-13.3363
呶	-13.3369
啍	-13.3369
嵊	-13.3375
症	-13.3378
潯	-13.338
郇	-13.3826
菀	-13.3843
鞞	-13.3844
㱕	-13.3847
伃	-13.3847
断	-13.3855
璨	-13.3855
暵	-13.3856
嘵	-13.3856
渦	-13.3856
万	-13.3857
敔	-13.3858
湓	-13.3858
觽	-13.3859
暠	-13.3859
虱	-13.386
繄	-13.3861
餔	-13.3862
漑	-13.3863
跽	-13.3863
鬷	-13.3864
璆	-13.3866
蜺	-13.3866
褎	-13.3866
塚	-13.3867
蕚	-13.3867
讋	-13.3867
黌	-13.3868
軔	-13.3868
麵	-13.3869
羗	-13.3869
恧	-13.3869
鄗	-13.387
嗑	-13.3871
唘	-13.3873
卨	-13.3873
篨	-13.3873
庥	-13.3874
蝱	-13.3875
宕	-13.3876
礬	-13.3877
螭	-13.3877
衂	-13.3878
漉	-13.3879
捻	-13.3879
祅	-13.3879
郿	-13.388
魍	-13.3881
魎	-13.3881
抔	-13.3882
换	-13.3884
髯	-13.3885
滾	-13.3885
芋	-13.3885
聡	-13.3886
袗	-13.3886
稌	-13.3886
肋	-13.3888
縗	-13.3888
搤	-13.3889
嗅	-13.3891
媺	-13.3891
丨	-13.3892
賖	-13.3895
銃	-13.3895
礟	-13.3895
晜	-13.4352
偝	-13.4386
翂	-13.4394
䫉	-13.4395
騮	-13.4395
斚	-13.44
繐	-13.4403
龐	-13.4406
篾	-13.4407
溶	-13.4408
窌	-13.441
瘐	-13.4412
薿	-13.4412
蝝	-13.4412
躰	-13.4413
厰	-13.4413
䓁	-13.4414
鬌	-13.4415
鰓	-13.4415
𢃄	-13.4416
褅	-13.4417
鄹	-13.4419
紒	-13.4419
槌	-13.442
楽	-13.442
摛	-13.4421
爬	-13.4421
嶲	-13.4422
窽	-13.4422
枹	-13.4422
魔	-13.4423
絛	-13.4424
滙	-13.4424
庀	-13.4425
牗	-13.4425
倕	-13.4425
竢	-13.4425
刦	-13.4426
渢	-13.4427
釃	-13.4427
勌	-13.4428
刊	-13.4428
珓	-13.4429
秸	-13.4429
搴	-13.4429
瘢	-13.443
誶	-13.443
珉	-13.443
旤	-13.4431
儈	-13.4432
賕	-13.4433
懣	-13.4433
瑰	-13.4433
惘	-13.4434
楪	-13.4435
靮	-13.4435
緖	-13.4436
沁	-13.4436
蝨	-13.4436
佺	-13.4436
塢	-13.4436
埤	-13.4437
戛	-13.4437
溈	-13.4439
缾	-13.4439
璃	-13.4441
儵	-13.4442
怱	-13.4443
熯	-13.4444
轟	-13.4444
碾	-13.4445
牋	-13.4445
荄	-13.4446
週	-13.4446
黲	-13.4446
讇	-13.4447
覸	-13.4448
鴇	-13.4454
犖	-13.4978
蓽	-13.4988
鍪	-13.4989
縓	-13.4989
咒	-13.499
訩	-13.4991
耙	-13.4993
涌	-13.4995
欬	-13.4996
幪	-13.4996
臓	-13.5001
綮	-13.5002
閬	-13.5003
罘	-13.5003
曏	-13.5003
瘍	-13.5004
輭	-13.5005
撾	-13.5005
舩	-13.5005
嗌	-13.5006
頄	-13.5006
捃	-13.5006
蝥	-13.5007
堠	-13.5007
殪	-13.5008
慴	-13.5008
瞫	-13.5009
睠	-13.5009
餬	-13.5009
㾗	-13.5009
軺	-13.501
殲	-13.501
艴	-13.501
檝	-13.5011
笋	-13.5011
帆	-13.5011
蹐	-13.5012
㩦	-13.5013
虡	-13.5013
靁	-13.5013
惷	-13.5013
滸	-13.5013
襜	-13.5013
鄼	-13.5014
仔	-13.5015
縚	-13.5015
霰	-13.5015
􁆣	-13.5016
轢	-13.5016
玆	-13.5016
炷	-13.5016
鮀	-13.5016
劃	-13.5017
插	-13.5017
襴	-13.5017
吭	-13.5018
瀹	-13.5018
穠	-13.5018
硏	-13.5019
琉	-13.502
樅	-13.502
圩	-13.502
惽	-13.502
籟	-13.5021
脹	-13.5021
爓	-13.5021
獫	-13.5021
犫	-13.5021
汞	-13.5022
鷁	-13.5023
靧	-13.5023
惙	-13.5024
饅	-13.5024
桔	-13.5024
烱	-13.5025
膢	-13.5025
犍	-13.5025
􁋑	-13.5026
玭	-13.5027
陑	-13.5027
晤	-13.5028
胚	-13.5029
亙	-13.5029
罇	-13.503
牁	-13.503
沅	-13.5034
趁	-13.5035
紾	-13.5036
餂	-13.504
噭	-13.5045
䍐	-13.5046
蹺	-13.5048
蒺	-13.5051
輹	-13.506
偼	-13.5601
忸	-13.5606
嵒	-13.5608
皃	-13.5613
阽	-13.5614
継	-13.5615
菓	-13.5617
蕙	-13.5618
苹	-13.562
芣	-13.5621
淂	-13.5621
楶	-13.5622
妒	-13.5622
暍	-13.5623
珊	-13.5623
緅	-13.5624
偁	-13.5625
秫	-13.5625
罣	-13.5625
秖	-13.5625
蓆	-13.5625
邽	-13.5625
瑔	-13.5626
矟	-13.5626
冔	-13.5627
姣	-13.5627
倜	-13.5628
僈	-13.563
櫃	-13.5631
倏	-13.5631
貰	-13.5632
苡	-13.5632
罻	-13.5632
鄯	-13.5633
炒	-13.5633
盩	-13.5634
欷	-13.5634
犛	-13.5635
臊	-13.5636
鷸	-13.5637
庿	-13.5638
祏	-13.5638
票	-13.5638
濼	-13.564
菟	-13.5641
繰	-13.5641
䢴	-13.5641
䄠	-13.5641
甃	-13.5641
佇	-13.5642
价	-13.5644
搥	-13.5644
涎	-13.5644
籕	-13.5644
氂	-13.5645
槽	-13.5645
单	-13.5645
疉	-13.5645
鏄	-13.5646
淅	-13.5646
届	-13.5647
齷	-13.5647
咄	-13.5647
晃	-13.5648
卣	-13.5648
倥	-13.5648
壷	-13.5648
蔞	-13.5648
膟	-13.5649
璫	-13.565
巒	-13.565
􁂗	-13.565
筩	-13.565
蛛	-13.5651
讁	-13.5651
毘	-13.5651
刵	-13.5652
嚅	-13.5653
疐	-13.5656
貔	-13.5658
辣	-13.5658
䑛	-13.566
熨	-13.566
抖	-13.5662
錠	-13.5663
瞳	-13.5664
牣	-13.5664
嵐	-13.5673
蚖	-13.5673
庣	-13.5679
尙	-13.6245
憗	-13.6271
膈	-13.6273
号	-13.6275
勱	-13.6276
槱	-13.6278
刅	-13.628
厶	-13.6281
㰱	-13.6282
曬	-13.6283
糵	-13.6285
蓑	-13.6286
蚍	-13.6287
珎	-13.6289
搃	-13.629
齓	-13.6291
髫	-13.6291
咥	-13.6291
芹	-13.6293
緤	-13.6294
韣	-13.6294
牼	-13.6295
疥	-13.6296
鞌	-13.6297
宧	-13.6297
攺	-13.6297
秔	-13.6298
窀	-13.6298
鑛	-13.6298
穸	-13.6298
睛	-13.6299
獪	-13.6299
惮	-13.63
礱	-13.6301
荳	-13.6301
腠	-13.6302
崤	-13.6302
擭	-13.6302
墐	-13.6303
岵	-13.6303
栩	-13.6303
鸛	-13.6304
淛	-13.6304
姞	-13.6304
浼	-13.6305
蹔	-13.6305
喀	-13.6305
羝	-13.6306
嫪	-13.6307
絁	-13.6307
訞	-13.6307
浥	-13.6308
螘	-13.6309
彎	-13.6309
鏖	-13.631
楸	-13.6312
徜	-13.6313
墀	-13.6315
捩	-13.6316
鼷	-13.6317
廽	-13.6317
謏	-13.6318
嬗	-13.6318
忡	-13.6318
瞍	-13.6319
糙	-13.6319
腯	-13.6319
站	-13.6319
􁔱	-13.6319
塼	-13.632
茝	-13.632
刹	-13.632
踝	-13.6321
杅	-13.6321
墝	-13.6322
琥	-13.6323
傋	-13.6324
詻	-13.6325
虣	-13.633
壎	-13.6332
侠	-13.6334
旉	-13.6335
廋	-13.6338
溽	-13.6338
蝣	-13.6968
窞	-13.6986
霣	-13.6988
􁁊	-13.699
坏	-13.6995
郳	-13.6996
竑	-13.7001
枤	-13.7001
獷	-13.7002
偓	-13.7002
榔	-13.7003
柎	-13.7007
逶	-13.7008
佶	-13.7008
献	-13.7009
犠	-13.7009
駰	-13.701
敶	-13.701
呴	-13.701
袛	-13.7012
歧	-13.7012
鉷	-13.7012
墅	-13.7013
鋌	-13.7013
腳	-13.7014
槧	-13.7014
遹	-13.7014
描	-13.7017
耡	-13.7017
糺	-13.7018
躩	-13.7018
蝟	-13.7018
盝	-13.7018
􁆸	-13.7018
苾	-13.7019
蹜	-13.7019
哽	-13.7019
抇	-13.7019
籞	-13.7019
痍	-13.702
么	-13.7022
觖	-13.7023
眯	-13.7023
坍	-13.7023
鵞	-13.7023
罏	-13.7023
鼙	-13.7024
惋	-13.7024
鷖	-13.7025
冄	-13.7026
褫	-13.7026
顇	-13.7026
虒	-13.7027
璩	-13.7027
帕	-13.7027
癯	-13.7029
莵	-13.7029
咻	-13.7029
稡	-13.7029
揫	-13.703
睂	-13.703
呱	-13.703
胔	-13.703
躄	-13.703
灕	-13.7032
侶	-13.7032
鉄	-13.7033
毐	-13.7033
碔	-13.7033
謩	-13.7033
刧	-13.7034
絫	-13.7035
籃	-13.7035
顱	-13.7035
贐	-13.7037
蝸	-13.7038
醵	-13.7039
䦨	-13.7039
閴	-13.7039
蓺	-13.704
旴	-13.704
嘒	-13.7041
晻	-13.7042
翾	-13.7044
椑	-13.7046
娵	-13.7054
蟾	-13.7055
蟜	-13.7068
虓	-13.7068
傞	-13.7072
瞢	-13.774
拲	-13.7745
丏	-13.7747
薁	-13.7753
崙	-13.7755
怳	-13.7757
佼	-13.7759
嚾	-13.7765
柤	-13.7765
觵	-13.7765
稞	-13.7766
溲	-13.7766
籀	-13.7767
觝	-13.7769
麺	-13.7769
睥	-13.777
糝	-13.777
珂	-13.7772
憇	-13.7774
粳	-13.7776
巂	-13.7776
鬆	-13.7777
喇	-13.7778
輥	-13.7779
觱	-13.7779
椇	-13.778
拮	-13.7781
暏	-13.7782
姧	-13.7783
擄	-13.7783
蘂	-13.7783
棍	-13.7783
瀼	-13.7784
莢	-13.7784
躃	-13.7784
菶	-13.7785
嘅	-13.7785
麇	-13.7785
蛭	-13.7787
菱	-13.7787
悰	-13.7787
淒	-13.7787
慌	-13.7787
秕	-13.7788
鞈	-13.7789
壍	-13.7789
婬	-13.779
枻	-13.779
臞	-13.779
屎	-13.779
剳	-13.779
懴	-13.779
覉	-13.779
箒	-13.779
胤	-13.7791
蝮	-13.7791
湔	-13.7791
鐋	-13.7791
蒱	-13.7791
匭	-13.7792
眤	-13.7793
懍	-13.7793
㦲	-13.7794
哮	-13.7794
勷	-13.7794
呫	-13.7794
泲	-13.7794
禩	-13.7794
确	-13.7796
螳	-13.7796
鼬	-13.7797
酎	-13.7797
堩	-13.7797
砲	-13.7797
骼	-13.7797
鶚	-13.7797
襕	-13.7797
礦	-13.7798
縹	-13.7798
喁	-13.7798
𦍑	-13.7799
熠	-13.7799
輤	-13.7799
憍	-13.78
囏	-13.78
迕	-13.7801
檟	-13.7801
軏	-13.7801
奡	-13.7802
湟	-13.7803
璪	-13.7804
瑨	-13.7804
禔	-13.7804
洚	-13.7804
幠	-13.7804
閶	-13.7805
砧	-13.7805
蓏	-13.7805
苽	-13.7805
婪	-13.7806
橰	-13.7806
玕	-13.7807
騾	-13.7808
牷	-13.7808
箔	-13.7809
羖	-13.781
􁂯	-13.7814
贋	-13.7815
岫	-13.7819
歃	-13.7821
鞴	-13.7831
嘬	-13.7858
囗	-13.8487
錞	-13.8507
睊	-13.8577
曌	-13.8579
蚋	-13.8587
㒷	-13.859
勩	-13.8593
㕑	-13.8598
楎	-13.86
臝	-13.8601
毚	-13.8602
駵	-13.8606
唅	-13.8607
鯤	-13.8608
齔	-13.8608
窪	-13.8609
燝	-13.8609
焬	-13.8609
餧	-13.8609
韍	-13.861
疈	-13.861
蓉	-13.861
箙	-13.8611
蛄	-13.8611
蹵	-13.8612
芙	-13.8612
眄	-13.8614
嘈	-13.8615
嬀	-13.8615
帔	-13.8615
躱	-13.8616
餮	-13.8616
潏	-13.8616
𬒮	-13.8616
愊	-13.8616
隈	-13.8616
嘷	-13.8617
軛	-13.8617
闖	-13.8617
獧	-13.8617
窗	-13.8618
􁅾	-13.8618
綃	-13.8619
啾	-13.8619
㢮	-13.8619
痡	-13.862
憩	-13.8621
喣	-13.8621
儡	-13.8621
掦	-13.8622
盫	-13.8622
澎	-13.8622
伹	-13.8622
咆	-13.8623
頵	-13.8623
箝	-13.8623
韈	-13.8623
侫	-13.8624
厘	-13.8626
頏	-13.8626
鏁	-13.8626
􁠤	-13.8626
跕	-13.8626
繙	-13.8627
磧	-13.8627
芚	-13.8627
喆	-13.8627
窬	-13.8627
襧	-13.8627
𬞞	-13.8628
嵎	-13.8628
枰	-13.8628
鉢	-13.8628
傒	-13.8629
焫	-13.863
趋	-13.863
汧	-13.863
頞	-13.8631
纆	-13.8632
鞂	-13.8632
澍	-13.8633
溧	-13.8633
醎	-13.8633
鶃	-13.8633
栱	-13.8634
瀑	-13.8634
魃	-13.8635
摉	-13.8635
凾	-13.8636
餤	-13.8636
篁	-13.8637
党	-13.8637
喊	-13.8638
霈	-13.864
拌	-13.8644
駹	-13.8644
羵	-13.8645
乹	-13.8645
崐	-13.8646
螾	-13.8647
笱	-13.8648
䌓	-13.8649
豸	-13.8649
慳	-13.8651
甎	-13.8653
綆	-13.8654
踶	-13.8656
嶓	-13.866
濰	-13.8667
髢	-13.8669
繘	-13.8679
飮	-13.9471
怩	-13.9481
离	-13.9486
皺	-13.9492
臑	-13.9493
𥙿	-13.9497
蒹	-13.95
撗	-13.9501
丰	-13.9502
􁊾	-13.9503
嫫	-13.9503
薤	-13.9505
稾	-13.9505
􁊓	-13.9508
玖	-13.9508
溴	-13.951
皖	-13.9511
秆	-13.9511
抺	-13.9513
贇	-13.9513
畊	-13.9513
駛	-13.9516
騤	-13.9517
嗾	-13.9517
沚	-13.9519
媫	-13.9519
燉	-13.9519
熺	-13.952
畇	-13.952
尨	-13.952
艇	-13.952
矞	-13.952
韐	-13.9521
誖	-13.9521
搦	-13.9521
㟁	-13.9521
屆	-13.9523
騙	-13.9524
歔	-13.9524
缸	-13.9524
娀	-13.9525
碭	-13.9526
頁	-13.9526
渰	-13.9526
荻	-13.9526
唆	-13.9527
􁅅	-13.9527
觕	-13.9527
窔	-13.9527
筏	-13.9528
惆	-13.9528
鐙	-13.9528
霅	-13.9528
脰	-13.9529
瑑	-13.9529
鵷	-13.9529
醺	-13.9529
啣	-13.9531
齮	-13.9531
撩	-13.9533
罳	-13.9533
蒢	-13.9533
蹀	-13.9533
捋	-13.9533
拑	-13.9533
薉	-13.9533
腵	-13.9533
媼	-13.9534
煢	-13.9534
甖	-13.9534
胯	-13.9534
躒	-13.9534
攴	-13.9535
禚	-13.9535
沭	-13.9535
頔	-13.9536
拷	-13.9536
澥	-13.9536
崒	-13.9537
韔	-13.9537
裯	-13.9538
襪	-13.9538
樿	-13.9539
潺	-13.9539
憃	-13.9539
漯	-13.954
涔	-13.954
鍇	-13.954
藂	-13.954
𣙗	-13.954
埆	-13.9541
幚	-13.9542
婭	-13.9542
瓴	-13.9543
瑇	-13.9544
廙	-13.9544
嚥	-13.9545
鮦	-13.9545
䘵	-13.9545
袡	-13.9546
犨	-13.9546
覜	-13.9547
塍	-13.9547
磻	-13.9547
䴡	-13.9549
痹	-13.9549
頲	-13.955
嫺	-13.9551
粻	-13.9556
鷗	-13.9556
笈	-13.9556
澨	-13.9558
狘	-13.9558
贗	-13.9558
軹	-13.9559
輼	-13.9559
擂	-13.956
瞎	-13.9561
籓	-13.9561
睆	-13.9562
臲	-13.9564
轒	-13.9566
􁭤	-13.9566
袢	-13.9567
楔	-13.9571
磑	-13.9571
肵	-13.9575
蜍	-13.9576
跅	-13.959
燀	-14.0474
声	-14.0479
齍	-14.0483
澦	-14.0491
鈕	-14.0495
㥳	-14.0495
襮	-14.0495
虙	-14.0497
穋	-14.05
襞	-14.0502
紩	-14.0503
滷	-14.0505
禝	-14.0505
遫	-14.0505
鴽	-14.0506
崏	-14.0506
踳	-14.0506
觔	-14.0507
柙	-14.0508
燋	-14.0509
靸	-14.051
楠	-14.051
櫂	-14.051
璡	-14.051
嬾	-14.0511
㚄	-14.0512
鞉	-14.0513
晒	-14.0513
幂	-14.0513
菆	-14.0513
哿	-14.0514
謎	-14.0514
偟	-14.0514
旛	-14.0515
篠	-14.0515
凭	-14.0516
淦	-14.0517
穟	-14.0517
阬	-14.0519
蒨	-14.0519
餝	-14.0519
眙	-14.0519
矰	-14.0519
楬	-14.0519
𢷬	-14.0519
倓	-14.052
痁	-14.052
遛	-14.0521
鈃	-14.0521
搒	-14.0521
嶼	-14.0522
鄪	-14.0522
穂	-14.0523
飣	-14.0523
翽	-14.0523
鍔	-14.0524
蹞	-14.0524
掯	-14.0524
枇	-14.0524
辝	-14.0525
襘	-14.0525
騄	-14.0526
胆	-14.0526
鄏	-14.0526
偵	-14.0527
閈	-14.0527
麈	-14.0528
舳	-14.0528
椹	-14.0528
抶	-14.0528
獼	-14.0528
舫	-14.0529
跎	-14.0529
殼	-14.053
蒧	-14.053
佖	-14.0531
欛	-14.0532
忞	-14.0532
魘	-14.0532
諰	-14.0532
亰	-14.0533
翡	-14.0533
寀	-14.0533
醻	-14.0533
埧	-14.0533
㔾	-14.0533
蒭	-14.0534
縿	-14.0535
鯢	-14.0535
柿	-14.0535
閌	-14.0535
嫻	-14.0535
驎	-14.0536
盌	-14.0536
㧖	-14.0536
焕	-14.0536
菖	-14.0536
憙	-14.0536
蛻	-14.0536
醞	-14.0536
慵	-14.0537
𠞰	-14.0537
􁈍	-14.0538
㡇	-14.0538
貙	-14.0538
蠓	-14.0539
喭	-14.0539
穣	-14.0539
鍋	-14.0539
滫	-14.0539
痰	-14.054
隉	-14.0541
峝	-14.0541
鞹	-14.0542
联	-14.0542
邅	-14.0543
袐	-14.0543
鈹	-14.0544
旹	-14.0544
鋐	-14.0544
筧	-14.0545
廚	-14.0545
躊	-14.0545
畞	-14.0545
甆	-14.0545
撈	-14.0545
牸	-14.0546
墁	-14.0546
萼	-14.0547
耎	-14.0547
啚	-14.0548
䁥	-14.0548
叵	-14.0548
叮	-14.0549
瞋	-14.0549
勰	-14.0549
噂	-14.0549
撡	-14.0549
詼	-14.055
槪	-14.055
跼	-14.0551
枿	-14.0551
竞	-14.0552
駝	-14.0553
禓	-14.0553
楩	-14.0554
髧	-14.0554
灃	-14.0554
瀋	-14.0555
頍	-14.0556
焯	-14.0557
縯	-14.0557
偩	-14.056
遝	-14.056
曦	-14.0561
蜕	-14.0561
𠡠	-14.0565
曙	-14.0566
茢	-14.0567
陁	-14.0568
診	-14.057
倛	-14.0573
闉	-14.0574
幦	-14.0574
梡	-14.0575
㲄	-14.0576
僛	-14.0589
戣	-14.059
淈	-14.0591
嚃	-14.0635
瑲	-14.1574
䎒	-14.1593
鵙	-14.1594
曡	-14.1596
処	-14.1598
瓀	-14.1601
済	-14.1601
椓	-14.1601
驊	-14.1606
弨	-14.1609
庋	-14.1609
靷	-14.1609
􁢗	-14.1609
䦱	-14.1612
紖	-14.1612
笲	-14.1613
曎	-14.1613
黮	-14.1614
仡	-14.1614
䄡	-14.1617
芡	-14.1618
蜎	-14.1618
鄟	-14.1619
杴	-14.162
銚	-14.1623
穄	-14.1623
醨	-14.1624
瑒	-14.1624
邿	-14.1624
鏵	-14.1625
蜓	-14.1626
豵	-14.1626
苒	-14.1629
喎	-14.1629
黛	-14.1629
鐲	-14.163
棃	-14.163
缻	-14.1631
篐	-14.1632
禠	-14.1632
枌	-14.1632
萱	-14.1632
輮	-14.1633
䏂	-14.1633
剜	-14.1634
絻	-14.1634
裋	-14.1637
甗	-14.1637
􁌙	-14.1637
藳	-14.1637
繶	-14.1637
頟	-14.1638
尒	-14.1638
鮐	-14.1638
徕	-14.1638
筝	-14.1638
㙲	-14.1638
喩	-14.1639
唳	-14.1639
繂	-14.164
撎	-14.164
悤	-14.164
菌	-14.1641
吒	-14.1641
鞾	-14.1641
韎	-14.1641
倌	-14.1642
挐	-14.1642
軿	-14.1642
蟨	-14.1643
翎	-14.1644
飦	-14.1644
蟆	-14.1644
苧	-14.1644
𬋩	-14.1645
蓴	-14.1645
稲	-14.1645
𢋫	-14.1646
舸	-14.1646
峒	-14.1646
蓘	-14.1646
􁆡	-14.1646
幇	-14.1647
娼	-14.1647
眂	-14.1648
迢	-14.1649
囦	-14.165
襏	-14.165
襫	-14.165
櫺	-14.1651
瓿	-14.1651
燻	-14.1652
仝	-14.1652
𥅆	-14.1652
殰	-14.1652
餫	-14.1652
暹	-14.1652
蝶	-14.1652
鴥	-14.1653
䟱	-14.1653
蠛	-14.1654
躇	-14.1655
楙	-14.1656
􁀤	-14.1656
腒	-14.1656
糯	-14.1656
翥	-14.1657
疹	-14.1657
栅	-14.1658
幓	-14.1659
徬	-14.166
鞔	-14.166
鍥	-14.1661
堞	-14.1662
栲	-14.1662
庌	-14.1662
綉	-14.1662
嬌	-14.1662
棷	-14.1663
橧	-14.1663
嚀	-14.1663
扳	-14.1664
偬	-14.1665
檉	-14.1665
芄	-14.1666
劼	-14.1666
柶	-14.1667
烘	-14.1667
鶖	-14.1668
搯	-14.1668
頇	-14.1668
鬩	-14.1669
僄	-14.167
癭	-14.167
盒	-14.167
槎	-14.167
惣	-14.1672
賺	-14.1672
苔	-14.1674
鷯	-14.1675
撏	-14.1675
貅	-14.1678
陻	-14.1678
饐	-14.1678
􁇚	-14.1679
髲	-14.1683
鞙	-14.1683
摐	-14.1685
燂	-14.1695
喤	-14.2816
鄅	-14.2816
气	-14.2826
灔	-14.2836
国	-14.2841
餴	-14.2843
擏	-14.2851
檳	-14.2856
歈	-14.2856
姐	-14.2859
体	-14.2863
洹	-14.2864
栘	-14.2864
䜴	-14.2865
杷	-14.2866
麏	-14.2866
棨	-14.2866
幛	-14.2866
侲	-14.2867
荗	-14.2868
勳	-14.2868
螂	-14.2868
啁	-14.287
尻	-14.287
弤	-14.287
斍	-14.2871
陥	-14.2871
鮫	-14.2871
桒	-14.2872
噤	-14.2873
罶	-14.2874
帡	-14.2875
薧	-14.2875
鐍	-14.2877
嵓	-14.2877
儛	-14.2877
欸	-14.2877
憞	-14.2877
汋	-14.2878
橙	-14.2879
蜯	-14.2879
鋹	-14.2879
唶	-14.288
噱	-14.2881
痴	-14.2881
愞	-14.2881
弣	-14.2881
琖	-14.2881
蟇	-14.2882
駣	-14.2882
煜	-14.2882
璲	-14.2883
薳	-14.2883
惔	-14.2883
扭	-14.2883
瞹	-14.2883
褶	-14.2883
玼	-14.2884
褧	-14.2884
糒	-14.2884
鏟	-14.2885
煤	-14.2886
㶚	-14.2886
訇	-14.2886
渗	-14.2886
蔗	-14.2886
猩	-14.2887
軷	-14.2887
匾	-14.2888
蟪	-14.2888
纇	-14.2888
馥	-14.2889
戭	-14.2889
鐻	-14.2889
唄	-14.289
茭	-14.289
觷	-14.289
朦	-14.289
悾	-14.289
艫	-14.2891
頫	-14.2891
鞟	-14.2891
溆	-14.2891
膓	-14.2891
獀	-14.2892
爚	-14.2892
斮	-14.2892
饍	-14.2892
蹮	-14.2892
頮	-14.2892
㦛	-14.2892
槥	-14.2892
桁	-14.2892
朧	-14.2892
􁂋	-14.2892
鵩	-14.2893
㮄	-14.2894
棉	-14.2894
踔	-14.2894
壕	-14.2895
頀	-14.2895
􁁷	-14.2896
毌	-14.2896
箐	-14.2896
纑	-14.2896
蚕	-14.2896
泱	-14.2897
鰲	-14.2898
訰	-14.2898
餰	-14.2899
縭	-14.2899
勔	-14.29
鵑	-14.29
憺	-14.29
縏	-14.29
豋	-14.2901
寠	-14.2901
嘱	-14.2901
彿	-14.2901
輗	-14.2901
巉	-14.2901
煕	-14.2902
輀	-14.2903
殈	-14.2903
漪	-14.2903
䖟	-14.2903
丢	-14.2904
䪺	-14.2904
琱	-14.2904
莨	-14.2905
騈	-14.2905
窹	-14.2905
陕	-14.2905
訔	-14.2905
衲	-14.2905
墦	-14.2905
焼	-14.2905
柂	-14.2906
騵	-14.2906
珵	-14.2906
撢	-14.2906
囓	-14.2906
爹	-14.2907
雘	-14.2908
桺	-14.2909
鋼	-14.2909
挻	-14.291
戬	-14.291
揍	-14.291
眥	-14.291
攟	-14.291
麪	-14.291
棕	-14.291
窋	-14.2911
郃	-14.2911
韃	-14.2911
筈	-14.2912
棚	-14.2912
瀏	-14.2912
睍	-14.2912
媞	-14.2912
圇	-14.2913
珧	-14.2914
㲈	-14.2914
瀧	-14.2914
瓆	-14.2914
涣	-14.2915
瞠	-14.2915
顢	-14.2915
虀	-14.2917
☷	-14.2918
迯	-14.2918
狶	-14.2918
􁂣	-14.2918
艤	-14.2918
偯	-14.2918
綀	-14.2918
鏹	-14.2918
份	-14.2919
喓	-14.292
餁	-14.292
鶵	-14.2921
檣	-14.2921
开	-14.2922
衅	-14.2922
漦	-14.2922
濺	-14.2923
䘚	-14.2924
嶰	-14.2925
臋	-14.2925
崘	-14.2925
㙮	-14.2926
卼	-14.2929
櫕	-14.293
郪	-14.2931
勠	-14.2932
獝	-14.2932
稈	-14.2947
梠	-14.2948
悺	-14.2952
瑝	-14.2962
苄	-14.4241
郰	-14.4263
芊	-14.4265
捂	-14.4266
欤	-14.4268
畹	-14.4275
朌	-14.4277
仳	-14.4278
鞸	-14.4278
􁈎	-14.428
蓷	-14.4283
萄	-14.4284
颼	-14.4285
軨	-14.4287
鸎	-14.4288
𧺫	-14.4289
鍧	-14.4289
蝘	-14.4291
牎	-14.4291
弢	-14.4291
抓	-14.4292
耺	-14.4292
駃	-14.4292
餚	-14.4293
嶂	-14.4294
秭	-14.4294
郞	-14.4294
痔	-14.4296
鄀	-14.4296
烕	-14.4296
栒	-14.4296
醷	-14.4297
􁝠	-14.4297
玟	-14.4299
蒻	-14.4299
袱	-14.4299
恌	-14.4299
珈	-14.4301
杰	-14.4301
仂	-14.4301
矙	-14.4302
罥	-14.4303
攽	-14.4304
䀨	-14.4304
昷	-14.4304
髄	-14.4305
蕾	-14.4305
萸	-14.4305
飈	-14.4305
傃	-14.4306
鵜	-14.4306
峛	-14.4307
崺	-14.4307
鎌	-14.4307
惝	-14.4307
侄	-14.4307
埜	-14.4308
鍬	-14.4308
荁	-14.4308
昳	-14.4309
懘	-14.431
穜	-14.4311
玈	-14.4311
隟	-14.4311
妝	-14.4311
埭	-14.4311
粺	-14.4312
鮌	-14.4312
頬	-14.4312
磕	-14.4312
哄	-14.4313
檃	-14.4313
醸	-14.4313
鐏	-14.4313
鬠	-14.4313
怗	-14.4314
矗	-14.4314
涴	-14.4314
癠	-14.4314
堋	-14.4314
㓛	-14.4315
縋	-14.4315
紽	-14.4316
棜	-14.4316
胏	-14.4316
闓	-14.4316
鷂	-14.4316
勍	-14.4316
摲	-14.4316
譞	-14.4316
㢸	-14.4316
邛	-14.4317
簜	-14.4317
簚	-14.4317
钁	-14.4317
泜	-14.4317
玘	-14.4317
􁀉	-14.4317
埂	-14.4317
􁊇	-14.4318
幢	-14.4318
橦	-14.4318
焜	-14.4319
贜	-14.4319
祻	-14.4319
鏬	-14.432
鞬	-14.432
墢	-14.432
宷	-14.432
嵌	-14.432
􁁜	-14.4321
嚍	-14.4321
綳	-14.4321
遅	-14.4321
☰	-14.4321
笴	-14.4322
􁂮	-14.4322
胠	-14.4322
忭	-14.4322
觹	-14.4322
僝	-14.4323
躪	-14.4323
朅	-14.4323
猊	-14.4323
穧	-14.4323
矚	-14.4323
撟	-14.4323
洑	-14.4323
廧	-14.4323
鱷	-14.4323
洄	-14.4323
蟁	-14.4324
噆	-14.4324
佈	-14.4325
檇	-14.4326
眕	-14.4326
涫	-14.4326
􁃊	-14.4326
楼	-14.4327
愅	-14.4327
嬛	-14.4327
黪	-14.4327
𥜗	-14.4328
灤	-14.4328
礎	-14.4328
湥	-14.4329
潬	-14.4329
􁐜	-14.433
貆	-14.4331
哅	-14.4331
廌	-14.4331
硃	-14.4331
馹	-14.4331
蹰	-14.4332
沗	-14.4332
扮	-14.4332
憬	-14.4333
蔿	-14.4333
郚	-14.4333
岍	-14.4333
鑣	-14.4333
謊	-14.4333
榼	-14.4334
衊	-14.4334
灊	-14.4335
鍚	-14.4335
鱐	-14.4335
凴	-14.4335
蜻	-14.4335
蔥	-14.4337
􁐑	-14.4337
蛬	-14.4338
划	-14.4338
毨	-14.4339
螬	-14.4339
☵	-14.434
睱	-14.434
駔	-14.434
𢾗	-14.434
慗	-14.4341
襆	-14.4341
赶	-14.4341
趯	-14.4343
囫	-14.4343
萁	-14.4344
侖	-14.4344
眅	-14.4344
坳	-14.4344
藨	-14.4344
滻	-14.4344
鑕	-14.4344
攵	-14.4346
鍭	-14.4346
缷	-14.4347
蕨	-14.4347
龢	-14.4347
擥	-14.4347
噢	-14.4349
矱	-14.435
墖	-14.435
籤	-14.435
璹	-14.435
瘤	-14.4352
蒜	-14.4352
菰	-14.4353
蜑	-14.4356
偦	-14.436
䵄	-14.4362
窅	-14.4364
靼	-14.4365
淰	-14.4366
帬	-14.4379
牏	-14.4385
捖	-14.4397
綝	-14.4407
紜	-14.5836
惎	-14.5901
罛	-14.5919
䋽	-14.5926
恈	-14.5926
觭	-14.593
轓	-14.5931
潐	-14.5937
葽	-14.5937
鴡	-14.5939
庤	-14.5939
旍	-14.5939
砍	-14.594
疼	-14.594
皽	-14.5941
冣	-14.5945
庬	-14.5946
臰	-14.5948
蠙	-14.595
氶	-14.5953
葡	-14.5954
遰	-14.5954
綪	-14.5954
寍	-14.5954
騧	-14.5955
檼	-14.5955
弸	-14.5956
櫻	-14.5958
舝	-14.5958
𢡟	-14.5959
繖	-14.596
煴	-14.596
褖	-14.596
肬	-14.596
硎	-14.5961
􁊋	-14.5961
撇	-14.5961
悋	-14.5962
嚻	-14.5962
泅	-14.5962
酊	-14.5963
漶	-14.5963
娓	-14.5964
䩜	-14.5964
酩	-14.5965
稭	-14.5965
逌	-14.5965
𣏌	-14.5965
軶	-14.5966
焠	-14.5966
㲼	-14.5967
􁂟	-14.5968
窿	-14.5969
濈	-14.5969
灂	-14.597
萴	-14.597
榴	-14.597
翶	-14.597
慓	-14.597
傌	-14.5971
邙	-14.5972
瘵	-14.5972
駬	-14.5972
乜	-14.5972
謲	-14.5973
檿	-14.5973
􁉭	-14.5973
薾	-14.5974
耇	-14.5974
鄋	-14.5975
蠹	-14.5975
顫	-14.5975
涥	-14.5976
渟	-14.5976
㶁	-14.5976
稑	-14.5976
茄	-14.5976
篹	-14.5976
齚	-14.5977
佟	-14.5977
裟	-14.5977
荣	-14.5977
暬	-14.5978
粛	-14.5978
袈	-14.5978
麰	-14.5978
菼	-14.5978
泔	-14.5978
嗒	-14.5978
腄	-14.5979
筰	-14.598
麞	-14.5981
獞	-14.5981
抆	-14.5981
糸	-14.5981
幗	-14.5981
耬	-14.5981
穮	-14.5982
鐄	-14.5982
甡	-14.5983
豗	-14.5983
觿	-14.5984
酡	-14.5984
泒	-14.5985
㖧	-14.5985
諓	-14.5985
墼	-14.5985
髖	-14.5985
禊	-14.5985
熇	-14.5986
猳	-14.5986
髕	-14.5986
朒	-14.5987
漷	-14.5987
湲	-14.5987
芉	-14.5987
䘖	-14.5988
愫	-14.5988
熳	-14.5988
癈	-14.5988
凷	-14.5989
鎚	-14.5989
鱠	-14.5989
𤱔	-14.599
郫	-14.599
臉	-14.599
趫	-14.599
偘	-14.599
涬	-14.599
氈	-14.599
郾	-14.5991
鼫	-14.5991
𥚑	-14.5991
螯	-14.5991
㳅	-14.5991
癬	-14.5992
㪍	-14.5992
㳒	-14.5992
咿	-14.5992
瀨	-14.5992
齅	-14.5992
𩔖	-14.5992
蚔	-14.5993
碓	-14.5993
焱	-14.5993
傜	-14.5993
陴	-14.5994
摴	-14.5994
癩	-14.5994
廞	-14.5994
瑳	-14.5994
踟	-14.5995
迃	-14.5995
郗	-14.5995
鴠	-14.5995
孌	-14.5996
蕝	-14.5996
囉	-14.5997
幎	-14.5997
晅	-14.5998
魈	-14.5998
鞗	-14.5999
嵲	-14.5999
咋	-14.5999
☱	-14.5999
􁈂	-14.6
珀	-14.6001
􁆖	-14.6001
忣	-14.6001
𫐠	-14.6001
㪺	-14.6001
厫	-14.6001
瘃	-14.6001
褉	-14.6001
痱	-14.6002
淟	-14.6002
詧	-14.6002
肎	-14.6003
磈	-14.6004
纈	-14.6004
姁	-14.6004
謌	-14.6004
佪	-14.6004
𠻳	-14.6005
熛	-14.6006
戄	-14.6006
踉	-14.6006
􁉼	-14.6007
鬨	-14.6008
倢	-14.6008
☲	-14.6008
湆	-14.6008
瓞	-14.6008
絓	-14.6008
􁁃	-14.6008
䔩	-14.6009
霶	-14.6009
悊	-14.6009
㬠	-14.6009
楗	-14.6009
鼛	-14.6009
豓	-14.6009
旊	-14.601
鼇	-14.601
􁁣	-14.6011
嶄	-14.6011
爟	-14.6011
臐	-14.6011
荃	-14.6012
汊	-14.6012
􁗁	-14.6012
膷	-14.6012
蚯	-14.6013
栳	-14.6014
趄	-14.6015
夯	-14.6015
膀	-14.6016
檖	-14.6017
􁃛	-14.6017
菉	-14.6017
覵	-14.6018
韌	-14.6018
鄑	-14.6019
隃	-14.6019
篪	-14.602
驒	-14.6021
懊	-14.6022
拐	-14.6023
鑱	-14.6023
􁂜	-14.6024
􁐍	-14.6027
蚿	-14.6029
纜	-14.603
綣	-14.6032
搗	-14.6037
獬	-14.6038
縐	-14.6039
蚪	-14.6043
誻	-14.6047
餲	-14.6047
􁆵	-14.6047
稯	-14.6049
􁉁	-14.6052
汕	-14.6057
怭	-14.6059
圳	-14.6062
〇	-14.7969
䳨	-14.7969
䔧	-14.7974
佹	-14.7974
㒩	-14.7984
㵸	-14.7987
䥥	-14.7989
亁	-14.7993
䖃	-14.7996
☴	-14.8003
㡛	-14.8003
䍧	-14.8004
☳	-14.8005
☶	-14.8005
㢠	-14.8007
䌫	-14.8014
㔻	-14.8018
㒹	-14.8026
粕	-15.0478
撕	-15.0488
渣	-15.3849
惓	-15.8761
裎	-15.883
挰	-15.8831
薏	-15.8832
葫	-15.8833
苢	-15.8834
砆	-15.8835
厔	-15.8836
頠	-15.8837
詿	-15.8838
擻	-15.8839
袽	-15.884
痌	-15.8841
滹	-15.8842
咷	-15.8843
齦	-15.8844
獗	-15.8845
鵡	-15.8846
瞌	-15.8847
巋	-15.8848
罭	-15.8849
磅	-15.885
蝃	-15.8851
邂	-15.8852
逅	-15.8853
磾	-15.8854
蝀	-15.8855
靂	-15.8856
赳	-15.8857
嘐	-15.8858
侂	-15.8859
呦	-15.886
蟀	-15.8861
嫄	-15.8862
玁	-15.8863
徘	-15.8864
狽	-15.8865
頊	-15.8865
