<unk>	0
<s>	0
</s>	0
之	-3.71839
/	-4.65144
以	-4.72468
也	-4.75507
而	-4.75954
者	-4.78079
其	-4.88717
有	-4.9256
不	-4.95581
(	-4.98996
為	-5.05776
)	-5.06845
則	-5.10344
一	-5.11603
水	-5.20583
生	-5.39686
中	-5.4212
大	-5.42262
種	-5.43995
用	-5.44307
於	-5.45839
曰	-5.49327
子	-5.50102
如	-5.5502
人	-5.60733
上	-5.69769
田	-5.6988
無	-5.70386
地	-5.72572
又	-5.73011
葉	-5.73547
)(	-5.73938
時	-5.74045
作	-5.74209
可	-5.79597
下	-5.80259
土	-5.83507
長	-5.8437
此	-5.84391
三	-5.86854
多	-5.87026
白	-5.9283
亦	-5.93012
日	-5.9403
小	-5.97331
食	-6.01769
或	-6.02986
令	-6.05297
出	-6.07025
即	-6.07757
至	-6.08561
宜	-6.09358
得	-6.09754
法	-6.11643
成	-6.12965
二	-6.13041
所	-6.13173
民	-6.14572
皆	-6.14822
四	-6.21288
草	-6.21406
根	-6.22557
實	-6.23999
與	-6.24852
故	-6.2696
熟	-6.28265
若	-6.28545
黄	-6.28664
木	-6.30036
方	-6.3008
自	-6.30944
取	-6.3115
今	-6.31418
去	-6.32
後	-6.33159
行	-6.34453
矣	-6.34831
及	-6.35844
花	-6.36987
一名	-6.3917
入	-6.40196
在	-6.40526
▁	-6.41261
蠶	-6.41868
樹	-6.42511
收	-6.43538
米	-6.44099
内	-6.44332
于	-6.44479
五	-6.44498
山	-6.44555
耕	-6.46757
氣	-6.47327
欲	-6.5299
雨	-6.53035
是	-6.53692
細	-6.5499
相	-6.55464
云	-6.56655
風	-6.5678
凡	-6.57189
數	-6.5743
必	-6.58175
豆	-6.60219
麥	-6.60953
間	-6.61249
先	-6.61705
乃	-6.61798
分	-6.62553
開	-6.64165
深	-6.64483
兩	-6.64621
州	-6.65116
稻	-6.65395
青	-6.6767
春	-6.67672
然	-6.67741
名	-6.68592
言	-6.68746
色	-6.69348
未	-6.69434
頭	-6.71323
本	-6.72368
天	-6.72686
當	-6.73275
處	-6.73483
使	-6.73775
桑	-6.74267
年	-6.74888
平	-6.75796
力	-6.7655
菜	-6.7656
事	-6.76777
治	-6.77248
河	-6.77573
髙	-6.7804
苗	-6.78459
官	-6.79129
各	-6.79941
同	-6.80151
便	-6.82597
謂	-6.82697
農	-6.82912
莖	-6.83057
見	-6.83216
易	-6.83955
秋	-6.84222
糞	-6.85146
糯	-6.85859
乾	-6.85931
似	-6.86161
物	-6.87619
百	-6.87737
石	-6.87817
少	-6.87967
前	-6.88242
常	-6.88275
早	-6.88443
竹	-6.88496
復	-6.90345
牛	-6.90461
皮	-6.90532
和	-6.90959
通	-6.91097
經	-6.9136
赤	-6.91892
麻	-6.92017
榖	-6.92904
味	-6.92949
既	-6.93555
火	-6.93586
等	-6.9372
過	-6.93739
冬	-6.93792
非	-6.94747
南	-6.95036
合	-6.95986
利	-6.96469
謂之	-6.97141
十	-6.97434
初	-6.98001
須	-6.99057
縣	-6.9927
紅	-6.9936
穀	-7.00294
馬	-7.00524
諸	-7.01238
盡	-7.01594
家	-7.02508
禾	-7.02861
每	-7.04005
甚	-7.05059
厚	-7.05444
香	-7.05519
夫	-7.05864
夏	-7.06605
嵗	-7.07661
置	-7.07915
正	-7.08518
惟	-7.08642
將	-7.08838
條	-7.08934
廣	-7.09053
寒	-7.09289
能	-7.09292
焉	-7.09713
不可	-7.09744
粟	-7.10937
著	-7.10949
已	-7.10956
葉似	-7.11084
半	-7.11217
足	-7.11863
枝	-7.11869
布	-7.12603
熱	-7.13175
重	-7.13713
起	-7.14534
東	-7.14694
千	-7.14998
鋤	-7.1504
從	-7.15299
耳	-7.15331
節	-7.15779
來	-7.15971
心	-7.16961
車	-7.17021
海	-7.17723
萬	-7.17789
九	-7.18324
雖	-7.18437
陽	-7.18453
何	-7.18713
但	-7.18713
近	-7.19184
性	-7.19359
外	-7.20129
口	-7.20244
江	-7.20578
月	-7.20851
盛	-7.21368
六	-7.21587
始	-7.21666
加	-7.21691
積	-7.22132
肥	-7.2227
知	-7.22924
主	-7.23
直	-7.2366
功	-7.2367
七	-7.23732
黍	-7.24112
西	-7.2525
餘	-7.25529
切	-7.2607
澤	-7.2636
安	-7.26516
次	-7.26649
微	-7.27197
立	-7.27982
别	-7.28187
止	-7.28784
泥	-7.28906
高	-7.29162
明	-7.29415
書	-7.29751
流	-7.30943
定	-7.31035
更	-7.31349
難	-7.315
薄	-7.31589
爲	-7.31746
度	-7.32047
北	-7.32334
接	-7.32513
湖	-7.32839
酒	-7.32892
轉	-7.33668
因	-7.34154
美	-7.34575
國	-7.34655
新	-7.34722
濕	-7.35068
蓋	-7.35203
倉	-7.35655
老	-7.3579
旱	-7.35832
文	-7.35924
道	-7.36446
八	-7.36456
勞	-7.36711
/)	-7.36855
果	-7.37334
野	-7.37922
苦	-7.38507
養	-7.38559
魚	-7.38571
金	-7.39309
留	-7.39543
隨	-7.39637
候	-7.4056
絲	-7.4115
要	-7.41688
發	-7.42177
器	-7.42211
古	-7.42342
計	-7.42871
稍	-7.43198
畝	-7.43316
極	-7.43749
最	-7.4392
王	-7.4471
角	-7.44739
好	-7.46498
居	-7.46857
類	-7.46965
工	-7.47017
肉	-7.4787
棗	-7.48715
蒸	-7.49167
俱	-7.49385
鹽	-7.4956
異	-7.49606
手	-7.49858
井	-7.49977
紫	-7.50649
科	-7.50702
圓	-7.50792
堅	-7.50822
桃	-7.50964
理	-7.5099
油	-7.51702
甘	-7.51744
斗	-7.51884
公	-7.52079
末	-7.52246
死	-7.52313
結	-7.52589
疏	-7.52676
再	-7.52753
可以	-7.52891
音	-7.53481
久	-7.5369
制	-7.53694
齊	-7.54342
勝	-7.54393
傳	-7.54568
尺	-7.54604
連	-7.55092
周	-7.55599
益	-7.56052
比	-7.56208
門	-7.56372
栽	-7.5665
良	-7.57007
隂	-7.57371
務	-7.57429
乎	-7.57606
黑	-7.57788
毛	-7.58057
食之	-7.58235
清	-7.58579
灰	-7.58946
底	-7.59339
亦可	-7.60244
李	-7.60712
不能	-7.60887
以為	-7.61056
不得	-7.61541
之法	-7.61897
且	-7.62031
荒	-7.62602
元	-7.62637
藏	-7.62793
省	-7.62874
附	-7.62972
就	-7.6299
短	-7.63146
落	-7.63963
黒	-7.64061
葉而	-7.64269
受	-7.64633
羊	-7.64638
臣	-7.6559
採	-7.65961
損	-7.66005
蟲	-7.66202
黏	-7.66313
歲	-7.66595
形	-7.66887
散	-7.67057
屋	-7.67274
二月	-7.67309
溝	-7.67517
遂	-7.6754
注	-7.6805
量	-7.68055
倍	-7.6812
待	-7.68149
鄉	-7.68927
尤	-7.69305
粒	-7.69499
興	-7.69615
衣	-7.69851
夜	-7.6987
世	-7.70185
𤓰	-7.7064
傷	-7.70854
収	-7.70884
太	-7.71026
急	-7.71078
輪	-7.71161
泉	-7.71172
病	-7.71226
雲	-7.71801
移	-7.72479
並	-7.72567
雞	-7.726
種之	-7.72838
雜	-7.73215
給	-7.73511
池	-7.7357
命	-7.73689
浸	-7.73689
汁	-7.73705
具	-7.73856
失	-7.74139
兒	-7.74542
變	-7.75009
覆	-7.75457
原	-7.75632
芽	-7.75818
仍	-7.76139
冷	-7.76961
應	-7.77265
除	-7.7731
而不	-7.77976
沙	-7.78239
面	-7.78666
向	-7.79046
漸	-7.79383
修	-7.79823
丈	-7.79898
晚	-7.80074
二十	-7.80469
築	-7.80522
瓜	-7.80681
燥	-7.80784
化	-7.8101
所以	-7.81016
圍	-7.81024
烏	-7.81187
均	-7.81347
繭	-7.81431
滿	-7.81491
八月	-7.81836
龍	-7.81888
他	-7.82007
尖	-7.82207
聲	-7.8239
禮	-7.82391
煑	-7.82443
身	-7.82468
畆	-7.82572
畦	-7.8405
露	-7.84412
論	-7.84427
許	-7.84924
引	-7.85485
邊	-7.85649
刈	-7.85718
逺	-7.85903
然後	-7.86016
梅	-7.86086
味甘	-7.86217
猶	-7.8624
任	-7.86591
載	-7.87183
岸	-7.87211
卷	-7.87523
遇	-7.87698
骨	-7.87707
五月	-7.87816
又似	-7.88055
備	-7.89015
勤	-7.89217
三月	-7.89217
區	-7.89444
佳	-7.89559
秫	-7.89823
神	-7.89919
漢	-7.8994
都	-7.90015
府	-7.90733
放	-7.90786
城	-7.90971
晴	-7.9111
磨	-7.91544
依	-7.91585
全	-7.9159
服	-7.91818
志	-7.92028
意	-7.92182
可食	-7.92489
造	-7.92565
獨	-7.9293
視	-7.92968
解	-7.93163
里	-7.93193
害	-7.93216
正月	-7.93362
錢	-7.93654
陳	-7.93711
舊	-7.93715
穂	-7.93735
氏	-7.93765
豐	-7.93821
淨	-7.93944
善	-7.94275
業	-7.94314
飯	-7.94504
旋	-7.9457
司	-7.94672
川	-7.94775
反	-7.94835
致	-7.9528
頗	-7.9531
圖	-7.9532
升	-7.95845
聞	-7.95918
刺	-7.96437
稱	-7.96485
水利	-7.96576
還	-7.96719
帶	-7.9672
㣲	-7.97205
嫩	-7.97382
芒	-7.97433
調	-7.97589
嘗	-7.97619
稼	-7.98444
核	-7.98462
動	-7.98692
梨	-7.98731
舉	-7.98763
渠	-7.98829
體	-7.99034
茶	-7.99163
光	-7.99472
貴	-7.99479
樂	-7.99561
壅	-7.99597
由	-7.99608
葵	-7.99817
遍	-7.99838
横	-8.00413
齒	-8.00467
七月	-8.00491
指	-8.00568
四月	-8.00577
輕	-8.00638
歸	-8.00748
按	-8.00789
葢	-8.01004
淺	-8.0102
惡	-8.01602
之地	-8.01867
永	-8.01916
詩	-8.0195
霜	-8.02134
饑	-8.0247
悉	-8.02504
代	-8.0254
脚	-8.02714
勿	-8.02717
殺	-8.02785
差	-8.03073
蒿	-8.03076
費	-8.03376
盖	-8.0341
率	-8.03483
終	-8.03635
十月	-8.03898
湯	-8.03941
户	-8.03988
字	-8.04044
尾	-8.04196
天下	-8.04583
擇	-8.04583
首	-8.04597
俗	-8.04876
速	-8.0489
其葉	-8.04974
麴	-8.05841
亦有	-8.05854
空	-8.06104
朝	-8.06339
約	-8.06389
絶	-8.0675
目	-8.06767
旁	-8.07082
刀	-8.073
建	-8.0759
簇	-8.07616
哉	-8.07687
六月	-8.07826
朕	-8.07839
求	-8.07942
祭	-8.08241
畢	-8.08497
大小	-8.08677
軍	-8.08901
議	-8.08908
豈	-8.08945
粉	-8.09129
對	-8.09152
雪	-8.09162
郡	-8.09303
杏	-8.09833
燒	-8.10026
匀	-8.10139
九月	-8.10264
説	-8.10466
藥	-8.1075
屬	-8.10764
頃	-8.10767
女	-8.11063
糓	-8.11082
總	-8.11096
衆	-8.11152
淡	-8.11529
潤	-8.11649
盆	-8.11759
洗	-8.11953
部	-8.11985
耘	-8.12104
齊民要術	-8.12181
植	-8.12274
孔	-8.12452
産	-8.12671
穗	-8.12712
芋	-8.1272
共	-8.12757
納	-8.12762
蜜	-8.12762
打	-8.13698
畜	-8.1399
徑	-8.14045
勸	-8.14146
軸	-8.14276
寸	-8.14362
尚	-8.14367
交	-8.14393
破	-8.14404
資	-8.14742
固	-8.14757
大如	-8.15045
宻	-8.15102
飼	-8.15177
毎	-8.15672
犂	-8.15796
宿	-8.1584
蜀	-8.16037
設	-8.16094
聚	-8.16096
辛	-8.16247
却	-8.16389
塞	-8.1644
社	-8.16683
園	-8.16715
爛	-8.16754
飲	-8.16778
三年	-8.16896
徧	-8.17076
之後	-8.17078
灌	-8.17087
又有	-8.1715
也又	-8.17759
鐵	-8.1777
濶	-8.18075
甲	-8.18079
織	-8.18105
所謂	-8.18234
義	-8.18333
如此	-8.18442
考	-8.18468
密	-8.18469
報	-8.18496
背	-8.18763
恐	-8.18781
濟	-8.18786
殻	-8.18813
順	-8.1882
箔	-8.19032
塗	-8.19116
冝	-8.19181
帝	-8.19325
奏	-8.1945
遲	-8.19488
政	-8.19508
母	-8.19563
林	-8.1985
掘	-8.19906
廢	-8.19915
精	-8.20178
星	-8.20183
忌	-8.20184
賦	-8.20612
彼	-8.20634
稷	-8.20775
陸	-8.20964
蘇	-8.21232
浮	-8.21649
觀	-8.21651
息	-8.21654
茂	-8.22634
曲	-8.22703
栗	-8.22731
稀	-8.22737
之間	-8.22929
嘉	-8.23015
胡	-8.23705
房	-8.23788
乆	-8.23801
煮	-8.24153
華	-8.24184
爾	-8.24466
災	-8.24527
親	-8.2453
澆	-8.2458
截	-8.24885
斷	-8.24894
守	-8.24969
兼	-8.2527
免	-8.25279
脂	-8.25616
望	-8.25636
飢	-8.25638
藍	-8.26003
照	-8.26003
唐	-8.26043
温	-8.26268
封	-8.26737
充	-8.26763
并	-8.26774
容	-8.26808
供	-8.27395
減	-8.27566
者為	-8.27833
薑	-8.27899
橘	-8.28001
註	-8.28287
本草	-8.28385
我	-8.28705
步	-8.28716
梁	-8.28726
不知	-8.28927
貯	-8.28972
酸	-8.29226
種者	-8.29386
富	-8.29453
丁	-8.29509
一尺	-8.29872
摘	-8.29882
粱	-8.29963
之利	-8.29976
凍	-8.30169
硬	-8.30214
存	-8.30258
特	-8.3026
遺	-8.3027
壤	-8.30318
宗	-8.3061
餅	-8.31089
甕	-8.31331
淘	-8.31508
勢	-8.31645
𤣥扈先生曰	-8.3175
湏	-8.31798
請	-8.31814
南方	-8.31882
莫	-8.32238
板	-8.32426
虚	-8.32556
枯	-8.32979
停	-8.32996
役	-8.33068
是也	-8.33266
列	-8.33407
張	-8.33407
眼	-8.33685
暑	-8.33746
歳	-8.338
架	-8.34187
庶	-8.34203
穫	-8.34477
椒	-8.34566
味苦	-8.34895
以上	-8.34988
施	-8.35102
思	-8.35415
韭	-8.35436
大者	-8.35619
期	-8.35815
銀	-8.35839
糧	-8.36219
活	-8.36248
三十	-8.36417
保	-8.36563
管	-8.366
寧	-8.36625
占	-8.37015
一種	-8.37154
縣物産	-8.37581
蔓	-8.37788
降	-8.37821
登	-8.37894
仁	-8.37955
勿令	-8.38295
兮	-8.38355
寛	-8.38375
亦不	-8.38622
塘	-8.38767
訖	-8.38769
强	-8.38781
呼	-8.38943
一日	-8.38977
蓄	-8.3916
篇	-8.39209
苖	-8.39222
宋	-8.39266
蒲	-8.39621
京	-8.39629
二年	-8.39673
室	-8.39949
蒜	-8.40041
晩	-8.40052
秈	-8.40061
路	-8.40068
眠	-8.40401
綿	-8.40442
記	-8.40473
􁀙	-8.40475
支	-8.40511
耬	-8.40522
斫	-8.40622
滋	-8.40896
碎	-8.40897
籠	-8.41351
陵	-8.41426
諭	-8.41761
救	-8.41801
仰	-8.42241
皆可	-8.42546
繩	-8.42586
折	-8.42647
農家	-8.42953
松	-8.42989
暖	-8.43093
吳	-8.4316
七日	-8.43269
第	-8.43347
又曰	-8.43391
吏	-8.43601
昔	-8.43616
士	-8.43661
史	-8.43699
號	-8.43917
斛	-8.43963
婦	-8.43971
舂	-8.43972
炊	-8.43974
消	-8.43974
北方	-8.44271
疾	-8.44366
逐	-8.44392
榆	-8.44875
繁	-8.44945
秧	-8.45324
剪	-8.45325
孟	-8.45341
諺云	-8.45351
徒	-8.45442
芥	-8.4545
葱	-8.45511
柱	-8.45747
頻	-8.45777
十二	-8.45823
盤	-8.45824
又名	-8.45972
水浸	-8.46012
栁	-8.46194
補	-8.46222
鄭	-8.46343
結實	-8.46518
限	-8.46773
為之	-8.47078
壓	-8.47186
運	-8.47205
用之	-8.47414
緑	-8.4764
弱	-8.47643
狀	-8.48098
信	-8.48135
濬	-8.48507
蘆	-8.48569
楊	-8.48797
患	-8.48834
詩云	-8.48959
膏	-8.49069
二尺	-8.49697
曬	-8.499
賣	-8.49972
臨	-8.49991
腹	-8.50002
緩	-8.50029
職	-8.5003
上下	-8.50176
教	-8.50179
了	-8.50373
菽	-8.50864
穿	-8.50939
秀	-8.50948
軟	-8.50963
鑿	-8.51011
玉	-8.51384
牧	-8.51431
則不	-8.51573
三日	-8.51864
蔬	-8.51897
端	-8.52249
看	-8.52328
束	-8.52379
煎	-8.52415
集	-8.52416
狹	-8.52917
荆	-8.53166
蛾	-8.5327
紙	-8.53313
皆有	-8.53796
線	-8.53843
糠	-8.53887
江南	-8.54033
編	-8.54235
離	-8.54391
推	-8.54825
瓦	-8.54853
名曰	-8.55189
墻	-8.55209
品	-8.55314
又云	-8.55316
将	-8.55331
筩	-8.55339
而已	-8.55523
結子	-8.55581
梢	-8.55696
問	-8.55777
只	-8.55799
牆	-8.55934
小豆	-8.56123
疎	-8.5633
被	-8.56382
耙	-8.56415
源	-8.5644
水旱	-8.56921
柔	-8.57365
埋	-8.5738
績	-8.57398
之屬	-8.57403
授	-8.57462
凉	-8.5772
其利	-8.57759
之水	-8.57789
祈	-8.57833
章	-8.57834
頓	-8.57877
割	-8.57886
采	-8.57997
堪	-8.58014
詔	-8.58067
裏	-8.58353
誠	-8.58439
大麥	-8.58441
督	-8.58915
闊	-8.58918
煖	-8.58922
蝗	-8.59038
毒	-8.59089
喜	-8.59389
詳	-8.59426
坑	-8.59481
一升	-8.59531
杜	-8.59559
不用	-8.5991
柴	-8.59928
盈	-8.59997
至於	-8.60041
甜	-8.60378
防	-8.6053
邑	-8.60548
戸	-8.60561
酢	-8.60634
不宜	-8.60697
愈	-8.60753
壠	-8.61543
貧	-8.61872
麵	-8.62031
十日	-8.62301
一斗	-8.62318
助	-8.62403
辰	-8.62492
鹹	-8.62545
價	-8.62615
機	-8.62636
延	-8.62665
二種	-8.62731
取其	-8.62841
東南	-8.62945
欲得	-8.63074
粥	-8.63137
亦得	-8.63395
唯	-8.63707
武	-8.63713
材	-8.63743
吾	-8.6378
羅	-8.6422
猪	-8.64236
申	-8.64255
農事	-8.64478
真	-8.64796
棄	-8.64881
君	-8.64989
初生	-8.65014
之時	-8.65017
雙	-8.65281
語	-8.65399
熟時	-8.65473
之田	-8.65511
莖葉	-8.65662
有司	-8.65729
查	-8.65944
之制	-8.6636
雷	-8.66387
之所	-8.66425
之處	-8.6643
例	-8.66475
委	-8.66477
告	-8.66516
禁	-8.66519
開花	-8.66522
移栽	-8.66699
南北	-8.66857
五十	-8.6686
索	-8.66969
蠟	-8.66995
垂	-8.67005
草木	-8.67115
生者	-8.67156
州縣	-8.67191
墾	-8.67197
可作	-8.67315
團	-8.67561
糴	-8.67603
祖	-8.67621
爾雅曰	-8.68032
插	-8.68124
懸	-8.68187
承	-8.68187
株	-8.68195
宣	-8.68223
筒	-8.68229
三四	-8.68453
耨	-8.68672
棉	-8.68675
典	-8.68727
潮	-8.68784
柄	-8.68818
厥	-8.68886
瓣	-8.69155
營	-8.69201
浥	-8.69311
槐	-8.69317
洩	-8.69357
斯	-8.69512
小麥	-8.69521
炒	-8.69846
低	-8.6987
大而	-8.70059
可種	-8.70183
救飢採	-8.70338
糶	-8.70444
伏	-8.70486
三尺	-8.70652
鋪	-8.71001
暴	-8.71015
毋	-8.71059
徐	-8.71081
掌	-8.71114
浦	-8.71226
五寸	-8.71475
其根	-8.71595
預	-8.71605
御	-8.71617
郊	-8.7163
不同	-8.71656
秦	-8.71715
十八	-8.72059
換	-8.72257
卵	-8.72292
閘	-8.72304
食法採	-8.7231
山谷	-8.72357
沃	-8.72479
說	-8.72744
鳥	-8.72763
紀	-8.72844
效	-8.72845
瓠	-8.72867
窖	-8.72914
傍	-8.73276
不過	-8.7329
裹	-8.73394
卧	-8.73402
穰	-8.7342
柿	-8.73438
雄	-8.7344
殊	-8.73457
大豆	-8.73514
也其	-8.7354
辨	-8.73547
午	-8.73923
莢	-8.73933
撥	-8.74047
漬	-8.74061
輸	-8.74071
闕	-8.74072
杷	-8.74127
陂	-8.74128
窮	-8.7421
不足	-8.74356
乳	-8.74602
村	-8.74618
虎	-8.7462
醋	-8.7465
魏	-8.74687
情	-8.74692
獻	-8.75161
陰	-8.75177
界	-8.75265
慮	-8.75295
芟	-8.75337
粳	-8.75629
夏至	-8.75697
下種	-8.75738
畏	-8.75833
謹	-8.75898
麻子	-8.76237
之中	-8.76327
添	-8.76432
砧	-8.76464
朱	-8.76508
衡	-8.7697
不如	-8.77057
畧	-8.77061
葛	-8.77082
燕	-8.77123
藤	-8.77142
牙	-8.77686
五榖	-8.77711
斤	-8.77713
槽	-8.77731
幹	-8.77743
財	-8.77747
某	-8.7776
三寸	-8.78066
一人	-8.78292
捲	-8.78308
斑	-8.78309
憂	-8.78317
閉	-8.78348
顆	-8.78363
適	-8.78368
倒	-8.7837
買	-8.78373
煩	-8.78388
圖說	-8.78418
叉	-8.78795
故曰	-8.78926
越	-8.7902
繫	-8.79021
有餘	-8.791
不及	-8.79105
味甜	-8.7923
地方	-8.79335
染	-8.79549
滑	-8.79616
案	-8.79657
之類	-8.79693
避	-8.79712
珠	-8.80195
澁	-8.80225
扵	-8.80413
一莖	-8.80555
帛	-8.80825
租	-8.80905
漿	-8.80925
漫	-8.80936
願	-8.80949
徳	-8.80955
者名	-8.81049
之患	-8.81218
愛	-8.81292
農桑	-8.814
仲	-8.81432
福	-8.81499
提	-8.81505
壟	-8.81537
丹	-8.81552
分野	-8.81555
左	-8.81577
稠	-8.8158
兵	-8.81598
碾	-8.8165
爾雅	-8.81667
歩	-8.81705
旬	-8.81723
之事	-8.82061
揚	-8.82126
鳴	-8.82127
環	-8.82136
其子	-8.8216
春秋	-8.82161
犁	-8.82161
坐	-8.82172
到	-8.82176
右	-8.82179
該	-8.82187
恒	-8.82235
伐	-8.82237
茅	-8.8224
灌溉	-8.82355
而後	-8.82467
其實	-8.8281
踏	-8.82866
歴	-8.82904
達	-8.82943
虞	-8.8296
是以	-8.83453
麤	-8.83502
三升	-8.83521
脆	-8.83569
試	-8.83611
搗	-8.84152
隔	-8.84157
皇	-8.84165
祀	-8.84196
虛	-8.84197
刻	-8.84216
進	-8.8422
拌	-8.84257
人力	-8.8451
無毒	-8.84518
所在	-8.84591
明年	-8.84748
旦	-8.84805
曝	-8.84815
假	-8.84861
羣	-8.84879
乏	-8.84953
周禮	-8.85044
綠	-8.85502
笋	-8.85551
今處處有之	-8.85586
豬	-8.85596
葦	-8.85605
者皆	-8.85922
税	-8.86251
孫	-8.86285
西北	-8.86773
尺餘	-8.8678
邉	-8.86932
獲	-8.86963
者也	-8.87004
黃	-8.8701
黄色	-8.87029
二寸	-8.87194
聖	-8.8721
壯	-8.87563
稈	-8.87574
拔	-8.87581
課	-8.87596
故也	-8.87825
挿	-8.88257
撒	-8.883
遠	-8.8831
察	-8.88381
鬚	-8.88909
飽	-8.88999
畫	-8.89014
故名	-8.89177
一二	-8.8919
覆之	-8.89524
壁	-8.89552
排	-8.89643
驗	-8.89652
象	-8.89705
擊	-8.89764
晉	-8.89773
冬月	-8.89775
多種	-8.89777
臘月	-8.89788
第一	-8.89948
一年	-8.90272
㑹	-8.90356
様	-8.90358
枚	-8.9041
以備	-8.90433
飛	-8.9044
釋	-8.90462
百姓	-8.90498
商	-8.90524
堰	-8.90535
貨	-8.91123
撫	-8.91126
隴	-8.91191
中有	-8.91289
莧	-8.91785
腐	-8.91793
暮	-8.91794
景	-8.91854
師	-8.91875
為上	-8.92185
而生	-8.92288
俗名	-8.9229
單	-8.9248
义	-8.9249
季	-8.92517
乘	-8.92566
茹	-8.9257
躬	-8.92579
蹄	-8.92614
注曰	-8.92638
酘	-8.92659
令人	-8.92661
導	-8.92688
所宜	-8.93121
苗葉	-8.93197
包	-8.93209
塊	-8.93315
執	-8.9333
救飢	-8.93366
培	-8.93958
學	-8.93991
桐	-8.93999
併	-8.94024
筋	-8.94025
漏	-8.94054
籍	-8.94083
淤	-8.94104
自然	-8.94317
白色	-8.94501
来	-8.94678
參	-8.94729
蟻	-8.94734
掃	-8.94771
徃	-8.94783
術	-8.94802
亂	-8.94804
藉	-8.94804
十年	-8.95147
屯	-8.95172
牽	-8.95442
茄	-8.95453
送	-8.95465
專	-8.95472
筐	-8.95529
序	-8.95535
劉	-8.95545
回	-8.95545
攤	-8.95552
苗高	-8.95711
浙	-8.96174
農政全書	-8.96176
幾	-8.96261
雅	-8.96271
含	-8.96273
脉	-8.96276
増	-8.96278
父	-8.96286
穴	-8.96299
市	-8.96303
純	-8.96322
也今	-8.96339
油鹽調食	-8.96478
相去	-8.96799
料	-8.96937
多少	-8.97052
削	-8.9733
二百	-8.97595
賤	-8.97675
遣	-8.97758
股	-8.97762
剝	-8.97767
借	-8.97799
示	-8.97809
習	-8.9783
稗	-8.97835
稼穡	-8.97858
炙	-8.97885
饒	-8.97918
蓮	-8.98148
四五	-8.9817
耐	-8.98477
録	-8.98505
闗	-8.98527
康	-8.98536
累	-8.98561
舌	-8.98574
惰	-8.98586
之功	-8.98599
溝洫	-8.98668
禹	-8.98704
十六	-8.98872
而無	-8.98879
葉微	-8.98938
谷	-8.99238
圩	-8.99301
鹿	-8.99304
焦	-8.99315
賑	-8.99334
忽	-8.99351
今人	-8.99721
粗	-9.00048
念	-9.00071
㸃	-9.0008
鋸齒	-9.0011
續	-9.00172
決	-9.00231
扶	-9.00233
小而	-9.00311
救飢採嫩	-9.00313
農夫	-9.00485
各有	-9.00605
柑	-9.00787
其上	-9.00886
攪	-9.00911
透	-9.00922
俟	-9.00924
趙	-9.00934
鴨	-9.00944
趨	-9.00951
潦	-9.00954
來年	-9.00955
血	-9.00959
舍	-9.00963
胡麻	-9.01427
七十	-9.01503
𦂳	-9.01586
片	-9.01601
退	-9.01624
翻	-9.01636
有三	-9.0165
蒼	-9.01659
瘦	-9.01697
絹	-9.017
浄	-9.01703
改	-9.01723
投	-9.01732
鼓	-9.01744
杖	-9.01752
據	-9.01778
壞	-9.01796
不生	-9.02105
製	-9.02409
釡	-9.02454
舒	-9.02468
負	-9.02522
斜	-9.02536
溢	-9.02571
紫色	-9.02585
嘉禾	-9.02649
四時	-9.03059
用水	-9.03071
髙下	-9.03176
苧	-9.03231
麄	-9.03283
巧	-9.03302
五日	-9.03338
歌	-9.03363
不復	-9.03959
之家	-9.04021
係	-9.04106
博	-9.04115
增	-9.04145
鼻	-9.04197
者謂之	-9.04229
瘠	-9.04235
至春	-9.04287
者不	-9.04371
苗髙	-9.04637
十餘	-9.04702
以水	-9.0481
柳	-9.0484
辣	-9.04878
碓	-9.04906
己	-9.04908
妙	-9.04933
慶	-9.04947
耗	-9.04968
歛	-9.04986
循	-9.05
境	-9.05
二三	-9.05017
涸	-9.05026
也凡	-9.05257
▁(	-9.05372
之月	-9.05434
十五	-9.05665
李時珍曰	-9.05692
咸	-9.05693
姑	-9.05738
擘	-9.05743
鎮	-9.05768
棠	-9.0578
㝷	-9.05793
走	-9.05826
鮮	-9.05827
杵	-9.05838
味辛	-9.06056
以此	-9.062
扁	-9.06525
菊	-9.06603
戒	-9.06611
縱	-9.06616
抑	-9.06679
刃	-9.06681
前後	-9.06777
菉豆	-9.07375
休	-9.07398
纒	-9.07411
必須	-9.07429
零	-9.07542
淮	-9.07758
詩曰	-9.07806
狀如	-9.08183
竪	-9.08275
敬	-9.08282
場	-9.08288
側	-9.08337
夷	-9.08344
鬱	-9.08347
瀦	-9.08443
清明	-9.08477
其中	-9.08902
往	-9.09057
魯	-9.09064
腸	-9.09169
豫	-9.09195
珍	-9.09202
者以	-9.09215
私	-9.0923
一丈	-9.09253
疆	-9.09254
楚	-9.09259
予	-9.09281
黍稷	-9.09351
水田	-9.09598
箕	-9.09853
穄	-9.09926
也若	-9.09977
𤣥	-9.09978
貫	-9.0998
溪	-9.09983
責	-9.09995
窠	-9.10018
農書	-9.10034
堤	-9.10043
育	-9.10068
譜	-9.10072
齊民要術曰	-9.10192
五尺	-9.1037
豉	-9.10769
上有	-9.10779
辟	-9.10795
漆	-9.1084
耜	-9.10852
持	-9.10855
窄	-9.10857
昌	-9.10865
蓼	-9.1087
農政全書卷	-9.1088
仙	-9.10883
奉	-9.10891
臼	-9.10906
柰	-9.10919
着	-9.10947
次之	-9.10984
風雨	-9.11202
之上	-9.11211
爪	-9.11664
蔥	-9.11722
庚	-9.11737
棘	-9.11772
諺曰	-9.11775
德	-9.11786
弊	-9.11816
䟽	-9.11837
必有	-9.11872
芹	-9.11901
况	-9.11919
椹	-9.12467
夾	-9.12539
冬至	-9.12545
剥	-9.12579
扇	-9.12597
淘淨油鹽調食	-9.12608
閒	-9.12629
雀	-9.12632
鐡	-9.12655
溉	-9.12712
人家	-9.12768
縁	-9.12772
百里	-9.1345
稽	-9.13457
務本新書	-9.13463
津	-9.1352
一石	-9.1353
艾	-9.13548
醤	-9.13557
六十	-9.13629
古人	-9.13765
紫花	-9.13965
次年	-9.14326
圃	-9.14388
稜	-9.14392
汲	-9.14423
選	-9.14436
腰	-9.14446
薦	-9.14461
格	-9.1452
小者	-9.14582
五六	-9.14608
港	-9.14626
者亦	-9.14634
冷水	-9.1482
印	-9.1513
監	-9.15267
樞	-9.15282
掩	-9.15288
竿	-9.15296
完	-9.15309
頂	-9.15312
擡	-9.15337
堆	-9.15352
輒	-9.15399
奠	-9.15425
竇	-9.15569
一寸	-9.1564
衣食	-9.15856
元年	-9.15912
臘	-9.16041
寄	-9.16158
巳	-9.16207
亢	-9.16215
潔	-9.16236
臭	-9.16238
窗	-9.16243
兹	-9.16255
擾	-9.16276
俾	-9.16289
素	-9.16299
二升	-9.16324
甕中	-9.16381
可為	-9.16568
􁁊	-9.17135
位	-9.17139
楮	-9.17149
游	-9.17178
領	-9.17192
羮	-9.17209
穢	-9.17222
状	-9.1724
客	-9.17253
酪	-9.17261
殖	-9.17264
英	-9.17305
則無	-9.17454
叢	-9.17583
瓮	-9.17807
注云	-9.17838
蓬	-9.18065
㫖	-9.18094
殷	-9.18115
貢	-9.18157
否	-9.18161
簡	-9.18181
柘	-9.18186
衝	-9.18194
圏	-9.18206
田野	-9.18353
一云	-9.18692
於是	-9.18805
春夏	-9.18864
一本	-9.1899
薅	-9.19015
卒	-9.19015
䕶	-9.19025
嚴	-9.19044
䑕	-9.19055
壺	-9.19076
識	-9.19085
十三	-9.19175
隂陽	-9.19407
寒無毒	-9.19602
不堪	-9.19786
繰	-9.19873
四尺	-9.19905
之民	-9.19945
狗	-9.19956
靣	-9.19975
天子	-9.19993
四年	-9.20034
紡	-9.20038
逸	-9.20047
裂	-9.20085
治馬	-9.20156
曝乾	-9.20243
國家	-9.20589
五升	-9.20634
五年	-9.20685
白花	-9.20764
浴	-9.20805
藷	-9.20866
籬	-9.20874
豌豆	-9.20896
較	-9.20949
朔	-9.20952
樁	-9.20966
值	-9.20977
糟	-9.21053
丘	-9.21091
去苦味	-9.21379
二三尺	-9.21391
西南	-9.21581
第三	-9.21621
上旬	-9.21689
尺許	-9.21703
秔	-9.2182
段	-9.21893
研	-9.21904
蘿蔔	-9.21912
准	-9.21923
五穀	-9.21947
沸	-9.21958
没	-9.2196
鵝	-9.2196
巨	-9.21974
算	-9.21985
困	-9.21987
侵	-9.22011
隄	-9.22129
曬乾	-9.22184
枝葉	-9.22344
黄白	-9.22756
寸許	-9.22813
寅	-9.22826
幸	-9.22904
梗	-9.2292
奪	-9.22981
之令	-9.22981
岐	-9.23022
崇	-9.23022
審	-9.23022
擬	-9.23038
一曰	-9.23041
罪	-9.23049
規	-9.23168
數十	-9.23217
日中	-9.23239
記曰	-9.23323
十二月	-9.23601
不必	-9.23674
山野	-9.23726
瘡	-9.23855
惜	-9.23937
若干	-9.23946
賈	-9.23953
耒耜	-9.23957
質	-9.23985
箭	-9.24003
召	-9.24008
戊	-9.24027
塗之	-9.24187
灌之	-9.24397
者曰	-9.24463
甚多	-9.24695
形如	-9.24797
葶	-9.248
釀	-9.24828
把	-9.24851
瑞	-9.24923
篩	-9.24923
薤	-9.24941
㧞	-9.24952
厯	-9.2496
荏	-9.24993
澮	-9.25065
六百	-9.25086
不致	-9.25462
畦種	-9.25609
條下	-9.25632
處處有之	-9.2571
十四	-9.25859
昏	-9.25905
斂	-9.25934
繼	-9.2595
不成	-9.25958
竟	-9.25969
竊	-9.26005
斧	-9.26009
斸	-9.2602
遷	-9.26057
鋒	-9.26104
淘浄油鹽調食	-9.26218
農桑通訣	-9.26557
葉如	-9.26574
擣	-9.26907
式	-9.26911
菜生	-9.26917
邪	-9.26927
而小	-9.26945
迎	-9.26951
橋	-9.26954
槩	-9.26958
惠	-9.26962
煙	-9.26966
疑	-9.26977
誤	-9.27024
圖説	-9.27192
第二	-9.27421
耕種	-9.27502
子如	-9.27645
於此	-9.27868
維	-9.27903
磚	-9.27919
晝	-9.27945
層	-9.27952
敗	-9.2797
洛	-9.27978
井田	-9.28017
沿	-9.28064
一畝	-9.28077
舟	-9.28099
以其	-9.2811
山東	-9.28445
水中	-9.2874
楸	-9.2893
皇帝	-9.2897
茭	-9.28993
成熟	-9.29003
宫	-9.29005
雌	-9.29013
句	-9.29017
崔寔曰	-9.29023
搭	-9.29078
收子	-9.29104
僅	-9.29128
若不	-9.29541
不須	-9.29631
之物	-9.29713
其所	-9.29717
儲	-9.29779
繳	-9.29944
簸	-9.30007
其餘	-9.30031
槌	-9.30059
項	-9.30079
觧	-9.30121
勸課	-9.30127
彌	-9.3013
陶	-9.30146
四寸	-9.30152
無不	-9.30264
傳曰	-9.30337
多寡	-9.30371
十一	-9.30494
以供	-9.30525
百餘	-9.30716
江淮	-9.30816
三分	-9.3082
漉	-9.30873
十七	-9.3097
不然	-9.30976
萌	-9.31061
煮食	-9.31074
壇	-9.31095
溫	-9.31145
巡	-9.31161
驅	-9.31179
賜	-9.31228
貸	-9.31238
十一月	-9.31249
去其	-9.31343
鑱	-9.31374
際	-9.31896
萬物	-9.31915
之道	-9.31961
汗	-9.3209
履	-9.32146
月令	-9.32166
侯	-9.32191
畿	-9.32196
矮	-9.32208
蔽	-9.32217
和之	-9.32219
曉	-9.3222
榦	-9.3222
蔓菁	-9.32234
耶	-9.32235
决	-9.32271
下水	-9.32569
種植	-9.32685
色白	-9.32703
八十	-9.32755
小民	-9.32847
為一	-9.32899
閩	-9.33035
治之	-9.33077
三斗	-9.33138
勃	-9.33207
另	-9.33247
臺	-9.33249
揀	-9.33281
壬	-9.33287
筍	-9.33291
葡萄	-9.33295
苫	-9.33299
甑	-9.33306
随	-9.3331
黄花	-9.33339
擲	-9.33353
茍	-9.33377
激	-9.3343
有白	-9.33528
為佳	-9.33573
赤色	-9.33587
無所	-9.336
木棉	-9.33648
入藥	-9.33852
取子	-9.34089
三百	-9.34199
紋	-9.34308
黎	-9.34363
逆	-9.34364
會	-9.34367
鍾	-9.34367
藁	-9.34374
旺	-9.34383
犬	-9.3439
凝	-9.34396
踐	-9.34409
圜	-9.34423
礱	-9.34441
蘭	-9.34452
屑	-9.34458
佃	-9.3446
男	-9.34486
顧	-9.345
蕩	-9.34525
十九	-9.34673
廣志曰	-9.34698
播	-9.34819
百日	-9.35239
凶	-9.3539
律	-9.35444
艱	-9.35501
廬	-9.35522
銅	-9.35534
表	-9.35535
辭	-9.35562
兩端	-9.35754
丈餘	-9.36156
卯	-9.36468
鬼	-9.36541
耆	-9.36593
竅	-9.36622
百畝	-9.36695
額	-9.36705
剛	-9.36708
菱	-9.36739
俗呼	-9.36797
十里	-9.3691
河南	-9.36969
其種	-9.37017
府古	-9.37094
六尺	-9.37268
澆之	-9.37458
天氣	-9.37605
葅	-9.37645
摘取	-9.37655
溉田	-9.37707
㫁	-9.37708
錫	-9.37732
衛	-9.37735
欽定四庫全書	-9.37737
瀉	-9.37746
石榴	-9.37748
竭	-9.37759
薪	-9.37763
晒乾	-9.37784
輔	-9.37793
羙	-9.37805
互	-9.37807
蕪菁	-9.37829
撻	-9.3783
鹵	-9.37846
土地	-9.37903
亦無	-9.38068
中間	-9.38179
叢生	-9.38377
之本	-9.38433
兩頭	-9.38462
為末	-9.38816
􁎈	-9.38876
庭	-9.38897
儀	-9.389
鉤	-9.3894
塵	-9.38941
后稷	-9.38947
驢	-9.38993
坎	-9.39061
而為	-9.3907
墳	-9.39095
三種	-9.3911
天地	-9.39358
種子	-9.39458
豐年	-9.39478
者有	-9.39605
勸農	-9.39837
多食	-9.39896
駕	-9.39978
徴	-9.40017
雍	-9.40022
烟	-9.4005
余	-9.40074
堂	-9.40086
祥	-9.40102
阜	-9.40116
稅	-9.40126
炎	-9.40137
菘	-9.4019
衍	-9.40199
毫	-9.40254
釐	-9.40259
微苦	-9.40563
大率	-9.40681
有所	-9.40737
為上時	-9.408
生於	-9.40858
恭	-9.41116
民田	-9.41165
絡	-9.41177
荷	-9.41177
箱	-9.4118
液	-9.41187
抽	-9.41211
貼	-9.41213
士農必用	-9.41221
權	-9.41249
丑	-9.4125
刮	-9.41251
曾	-9.41255
突	-9.4126
聽	-9.41275
徹	-9.41307
農桑輯要	-9.41314
偏	-9.41361
民之	-9.41468
地氣	-9.41896
水澆	-9.41984
栽之	-9.42217
數年	-9.4234
氷	-9.42369
略	-9.424
莊	-9.42401
席	-9.42423
七八	-9.42454
蕃	-9.42457
竒	-9.42462
騰	-9.42471
缺	-9.4248
宅	-9.42493
之人	-9.42496
澀	-9.42497
漲	-9.42502
良田	-9.42586
種麥	-9.42659
也夫	-9.4286
十畝	-9.43024
熟食	-9.43234
旱則	-9.43406
胃	-9.43495
痛	-9.43591
歉	-9.43595
澇	-9.43661
阬	-9.43661
多則	-9.43672
靈	-9.43694
紅花	-9.43784
菌	-9.438
六十日	-9.44273
其地	-9.44509
者必	-9.44516
民間	-9.44538
六七	-9.44578
慢	-9.44769
感	-9.44784
藕	-9.44808
脊	-9.44813
儉	-9.44826
塲	-9.4485
先生	-9.44867
輭	-9.44871
關	-9.44871
郭璞	-9.44909
緣	-9.4495
壩	-9.44998
箔上	-9.45163
以手	-9.45227
古之	-9.45234
大抵	-9.45236
後世	-9.45242
去皮	-9.45338
之意	-9.455
古者	-9.45507
其木	-9.45898
禦	-9.45976
左右	-9.4608
竈	-9.46102
穊	-9.46103
罷	-9.46105
畔	-9.46111
泊	-9.46116
可用	-9.46117
庻	-9.46126
吉	-9.46135
粢	-9.46146
壊	-9.4615
蔵	-9.462
扈	-9.46236
千里	-9.46514
下田	-9.46566
熟則	-9.46824
味甜救飢採	-9.47083
晒	-9.47156
煠	-9.47215
地勢	-9.47257
釘	-9.47265
如前	-9.47327
卑	-9.47328
嶺	-9.4733
傾	-9.47336
净	-9.4737
牡	-9.47371
泰	-9.47378
縷	-9.47388
萊	-9.47398
芸	-9.47405
脈	-9.47409
渾	-9.47415
地中	-9.47472
淳	-9.47476
此法	-9.47481
葉頗	-9.4752
太湖	-9.47828
以土	-9.47851
之際	-9.47851
二日	-9.47864
入於	-9.4791
牛羊	-9.48049
者即	-9.48119
立秋	-9.4819
也故	-9.48326
釜	-9.48502
千石	-9.48504
涼	-9.48508
苑	-9.48528
或作	-9.48547
燈	-9.48588
以防	-9.48601
剉	-9.48608
庫	-9.48613
霖	-9.48616
挑	-9.48634
啖	-9.48673
淘洗	-9.48786
如前法	-9.48901
勿使	-9.49088
又可	-9.49192
藝	-9.49248
播種	-9.49432
墾田	-9.49516
下流	-9.49546
寡	-9.49666
員	-9.49709
揉	-9.49864
統	-9.49885
乗	-9.4989
募	-9.49892
蕎麥	-9.49932
汝	-9.49963
摩	-9.49965
斬	-9.4997
恤	-9.49974
欽定授時通考卷	-9.49979
欽定四庫全書欽定授時通考卷	-9.49985
遵	-9.49997
一二尺	-9.50001
浚	-9.50006
丙	-9.5003
以來	-9.50151
一百	-9.5025
數日	-9.5025
其莖	-9.50259
蒔	-9.50455
畒	-9.50582
為田	-9.50712
得其	-9.50716
不食	-9.51073
住	-9.51077
弦	-9.5113
枲	-9.51133
洪	-9.5114
寳	-9.51153
田家	-9.51159
障	-9.51177
棚	-9.51182
蠧	-9.51184
滯	-9.51202
啟	-9.51237
殿	-9.51245
聴	-9.51267
澄	-9.51278
器也	-9.51282
豪	-9.51283
刄	-9.51321
菹	-9.51404
梢間	-9.51533
無雨	-9.51649
流民	-9.51816
取之	-9.51818
葉煠熟水浸淘浄油鹽調食	-9.51855
之數	-9.51912
慎	-9.52246
一宿	-9.52247
鉏	-9.52455
榮	-9.52486
薺	-9.52493
勒	-9.52515
婆	-9.52526
幾何	-9.52527
填	-9.52538
灑	-9.52544
讀	-9.52546
細切	-9.52562
賴	-9.52611
瓶	-9.52611
隰	-9.52639
以後	-9.52676
爾雅云	-9.52782
凡種	-9.53056
高下	-9.53066
神農	-9.53109
多者	-9.53117
作一	-9.5317
或用	-9.53263
澆灌	-9.53336
令熟	-9.53548
不敢	-9.53661
霧	-9.53751
快	-9.53771
勘	-9.53777
拘	-9.53806
踈	-9.53829
阡陌	-9.53832
熬	-9.53832
廵	-9.53833
鼎	-9.53835
醬	-9.53835
噉	-9.5385
拖	-9.53861
戎	-9.53872
后	-9.5388
拾	-9.53881
挈	-9.53897
漕	-9.53899
違	-9.539
亡	-9.53902
徙	-9.53966
粒大	-9.53985
中心	-9.54553
相似	-9.5459
石灰	-9.5462
地利	-9.54698
八尺	-9.54923
縣土産	-9.54984
葉煠熟換水浸	-9.55044
椿	-9.55133
烈	-9.55137
洞	-9.55142
霜降	-9.55201
乙	-9.55214
禱	-9.55215
屈	-9.55219
芳	-9.55221
土宜	-9.55229
抱	-9.55271
雞子	-9.55275
億	-9.55285
司農	-9.5532
今之	-9.55333
八九	-9.55563
生田野中	-9.55575
本草名	-9.55617
一嵗	-9.55754
生田野中苗	-9.56173
至秋	-9.5623
翼	-9.56484
肅	-9.56487
江河	-9.56498
廟	-9.565
衰	-9.56558
纔	-9.56597
融	-9.56604
師古曰	-9.56619
膚	-9.56659
牛糞	-9.56696
則易	-9.5671
常平	-9.56887
早稻	-9.56964
葉煠熟水浸	-9.57076
妨	-9.57279
也詩云	-9.57654
青白	-9.57685
六年	-9.57743
沒	-9.57823
院	-9.5789
椽	-9.57918
隆	-9.5793
糊	-9.57963
擁	-9.57993
顔	-9.57995
騐	-9.57996
漚	-9.58003
鵞	-9.5802
曠	-9.58032
熟者	-9.5806
為民	-9.58066
泄	-9.58076
智	-9.58133
得所	-9.58239
其法	-9.58359
秋冬	-9.58522
之害	-9.58636
一根	-9.58952
至冬	-9.59031
取汁	-9.59103
雖有	-9.59269
勾	-9.59275
粘	-9.59295
栢	-9.59302
臂	-9.59339
燭	-9.59356
熏	-9.59376
烝	-9.59384
之名	-9.59386
秕	-9.59403
耩	-9.59424
闢	-9.59444
吴	-9.59452
淹	-9.59508
不厭	-9.59792
古今	-9.59817
聖人	-9.60172
桑葉	-9.60329
之外	-9.60367
生食	-9.60443
山中	-9.60571
取出	-9.60638
爭	-9.60748
蕪	-9.60762
白露	-9.60766
褐色	-9.60774
凖	-9.60776
懐	-9.60777
郭	-9.60784
吐	-9.60794
熙	-9.60806
専	-9.60807
羣芳譜	-9.60814
伊	-9.60827
輙	-9.60853
其下	-9.6092
苞	-9.60929
三十六	-9.61022
十石	-9.61053
力田	-9.61224
北土	-9.62076
蜂	-9.62186
錄	-9.62218
佐	-9.62218
坡	-9.62231
革	-9.62243
弗	-9.62256
天時	-9.62269
夕	-9.62287
曽	-9.6229
蔕	-9.62301
乂	-9.62309
砂	-9.62311
忘	-9.62327
為良	-9.62337
滓	-9.62415
揚州	-9.62446
䥥	-9.62459
澱	-9.62495
雨水	-9.62515
泥封	-9.62542
收穫	-9.62815
合穂	-9.62844
煠熟油鹽調食	-9.62877
南人	-9.63147
耕地	-9.63236
也然	-9.63344
一分	-9.63348
詔曰	-9.63529
蓄積	-9.63552
疫	-9.63631
稔	-9.63633
鈎	-9.63697
菰	-9.63706
揺	-9.63708
配	-9.63723
孝	-9.63736
耦	-9.63739
匪	-9.63741
昭	-9.63743
奴	-9.63747
䇿	-9.63757
亭	-9.63778
渴	-9.63787
轅	-9.6381
官員	-9.63813
開黄花	-9.63859
開墾	-9.63898
者其	-9.6391
種法	-9.63955
七年	-9.64007
樹枝	-9.64023
栽種	-9.64244
味酸	-9.64275
州禾	-9.64571
法用	-9.64605
是月也	-9.65034
尺五寸	-9.65036
匾	-9.65087
牟	-9.65125
軖	-9.65139
簿	-9.65151
第四	-9.65158
練	-9.65167
基	-9.65171
泛	-9.65186
副	-9.652
减	-9.65226
招	-9.65235
圗	-9.65236
創	-9.65248
流水	-9.65286
伯	-9.65287
享	-9.65289
鷄	-9.65291
征	-9.65294
集韻	-9.65296
禹貢	-9.65307
上用	-9.65332
九穂	-9.65334
樹藝	-9.65435
一畆	-9.65556
二曰	-9.65684
之間謂之	-9.65742
其味	-9.6594
又方	-9.66057
欲其	-9.66097
二十四	-9.66176
抵	-9.66317
宜用	-9.66626
匠	-9.66667
痩	-9.66672
驚	-9.66675
摻	-9.66682
遊	-9.66688
平地	-9.66742
敷	-9.66746
芡	-9.66775
臥	-9.66784
𢎞	-9.66794
覺	-9.66799
夏秋	-9.66824
自生	-9.66832
洫	-9.6689
煠食	-9.66951
敢	-9.66964
荒政	-9.6697
冀州	-9.67041
收藏	-9.67826
已上	-9.67847
沃之	-9.67853
嵗嵗	-9.67952
東西	-9.68077
掛	-9.68127
搯	-9.68214
校	-9.68233
拳	-9.68265
牕	-9.68266
巴	-9.68274
江東	-9.68282
縫	-9.68282
槃	-9.68308
尤佳	-9.68498
紅色	-9.68539
河東	-9.68569
火燒	-9.68606
開五瓣	-9.68668
其事	-9.68882
開小	-9.68948
肥地	-9.69003
香美	-9.69125
平無毒	-9.69134
北人	-9.69202
秋耕	-9.69441
以致	-9.69551
色青	-9.69657
秬	-9.69661
班	-9.69707
逢	-9.69725
裁	-9.69752
管子	-9.69774
旣	-9.69777
以下	-9.69821
説文曰	-9.69824
桂	-9.69832
雩	-9.69838
一兩	-9.6987
脱	-9.69876
釀酒	-9.69882
䝉	-9.69888
不盡	-9.69892
汜勝之書	-9.69894
麪	-9.69911
晨	-9.69912
滅	-9.69933
距	-9.70016
天下之	-9.70058
蒸食	-9.70372
春分	-9.70401
一切	-9.70407
所出	-9.70466
不妨	-9.70554
分為	-9.706
田畝	-9.7098
其力	-9.71168
老農	-9.71198
九年	-9.71241
先王	-9.71243
柚	-9.71318
萵苣	-9.7133
疥	-9.7133
番	-9.71349
搨地生	-9.71355
生蟲	-9.71355
捐	-9.71362
襄	-9.71381
蛇	-9.71383
錦	-9.71385
溺	-9.71387
沈	-9.7139
范	-9.71407
屢	-9.71424
童	-9.71425
地桑	-9.71444
講	-9.7145
遼	-9.71455
震	-9.71501
愚	-9.71532
壽	-9.71548
夏月	-9.71593
魯桑	-9.71609
九州	-9.71727
十分	-9.71813
今年	-9.71859
二尺許	-9.72107
二三月	-9.72225
有黄	-9.72324
色黄	-9.72558
不許	-9.72701
出於	-9.72752
萬石	-9.72772
五六月	-9.72821
蟄	-9.72855
藜	-9.72887
耒	-9.72911
述	-9.72918
齋	-9.72925
主水	-9.7293
囷	-9.72961
濃	-9.72978
遮	-9.72999
蓐	-9.73001
乞	-9.73006
脾	-9.73011
恩	-9.73051
樓	-9.73067
五分	-9.73068
上流	-9.73085
櫻桃	-9.73089
堯	-9.73094
即今	-9.73097
御史	-9.73121
蕈	-9.73218
春種	-9.73256
淮南子	-9.73289
早晚	-9.73298
社倉	-9.73384
肥大	-9.7345
草一名	-9.73741
枝條	-9.73807
太平	-9.73937
以時	-9.74082
如是	-9.7415
後五日	-9.74156
作餅	-9.74195
豇豆	-9.74473
廪	-9.74511
每一	-9.74515
而出	-9.74588
溲	-9.74594
梓	-9.74596
蠲	-9.74626
酉	-9.74631
做	-9.74636
糝	-9.7464
鱗	-9.74644
呉	-9.74648
挼	-9.74679
展	-9.74689
脯	-9.74698
鬻	-9.74698
控	-9.74702
頒	-9.74705
苜蓿	-9.74707
沛	-9.7471
蓏	-9.7471
括	-9.74763
飬	-9.74764
銍	-9.74792
膝	-9.74827
粟米	-9.75346
下地	-9.7537
則有	-9.75542
令極	-9.75547
教民	-9.75963
曝之	-9.76076
一月	-9.76118
軫	-9.76196
橙	-9.76201
雁	-9.76212
東北	-9.76216
木𤓰	-9.7623
芝	-9.76268
麫	-9.76283
皺	-9.76299
赴	-9.76325
符	-9.76357
膩	-9.76362
懷	-9.76366
四時類要	-9.76369
矢	-9.76382
盪	-9.76384
岡	-9.76407
酥	-9.76419
常平倉	-9.76426
榛	-9.76442
比之	-9.7646
忍	-9.76466
翻車	-9.76494
椎	-9.76505
芒種	-9.76518
不任	-9.7655
耐旱	-9.76576
具也	-9.76593
等處	-9.7671
葉味甘	-9.76715
區種	-9.76894
本草云	-9.76992
苗長	-9.77034
在上	-9.77209
呼為	-9.77365
一時	-9.77373
潤澤	-9.77442
早熟	-9.77472
救飢採苗葉煠熟水浸	-9.77563
秥	-9.77709
至于	-9.77724
大夫	-9.77878
豎	-9.77891
郎	-9.77897
眉	-9.77898
卿	-9.77916
級	-9.77933
辦	-9.77977
冀	-9.77999
陜	-9.78024
抄	-9.78025
以爲	-9.78031
枸杞	-9.7805
賞	-9.78065
波	-9.78135
性温	-9.78262
六寸	-9.78339
皆以	-9.78373
縣物産稻	-9.78418
種稻	-9.78627
為之使	-9.78806
者則	-9.7899
四五尺	-9.79183
以待	-9.79484
開白花結	-9.79545
吹	-9.79598
獸	-9.79608
鞭	-9.79647
炭	-9.797
餾	-9.79712
疋	-9.79719
療	-9.79724
凈油鹽調食	-9.79727
普	-9.79741
寫	-9.7975
賢	-9.79759
誰	-9.79767
祝	-9.7977
跡	-9.79786
戽	-9.79802
浪	-9.79805
疊	-9.79812
尋	-9.79826
芻	-9.79852
箋	-9.79855
薹	-9.79877
腳	-9.79884
縱横	-9.7989
甸	-9.79915
為中時	-9.79942
土中	-9.80115
所生	-9.80425
下濕	-9.81336
纂	-9.81417
冠	-9.81418
廩	-9.81424
穎	-9.81426
酌	-9.81441
輾	-9.81443
碧	-9.81452
脹	-9.81466
魁	-9.8147
揷	-9.81476
戴	-9.81507
匹	-9.81511
稭	-9.81511
撰	-9.8154
挾	-9.81557
阻	-9.81561
茱萸	-9.81575
瀕	-9.81589
之氣	-9.82048
皮薄	-9.82284
或云	-9.82324
芥菜	-9.82418
橘皮	-9.82465
二十五	-9.82706
王禎	-9.82813
極細	-9.82971
淘去苦味油鹽調食	-9.83029
救飢採嫩苗葉煠熟	-9.83136
牛馬	-9.83184
鴉	-9.83191
寺	-9.83245
焚	-9.83247
䕃	-9.83252
淋	-9.83267
膠	-9.83271
針	-9.83274
中國	-9.8328
犯	-9.83296
牀	-9.83313
題	-9.83315
髪	-9.83328
争	-9.83365
究	-9.8338
兖	-9.8338
蝦	-9.83385
那	-9.83403
夀	-9.83436
耕耤	-9.8344
江浙	-9.83517
畛	-9.83553
次第	-9.8359
漢書	-9.83707
十五日	-9.8406
或謂之	-9.84062
有二種	-9.84158
黄帝	-9.84227
種蒔	-9.84359
晚稻	-9.84381
重農	-9.84494
三穂	-9.84575
十倍	-9.84811
耤	-9.84869
厫	-9.84884
刷	-9.84958
戌	-9.85005
種樹書	-9.85011
乃止	-9.85018
網	-9.85027
謀	-9.85033
庾	-9.85052
兆	-9.85064
墨	-9.85064
座	-9.85085
弓	-9.85102
濁	-9.85111
蔡	-9.85118
籌	-9.85119
汚	-9.85134
穡	-9.8515
園圃	-9.85169
羸	-9.85175
趣	-9.85227
陽氣	-9.85337
覆土	-9.85714
蔓生	-9.85727
民生	-9.8605
飼蠶	-9.86364
八寸	-9.86397
人户	-9.86573
一科	-9.86603
三月種	-9.8664
鎛	-9.86827
去之	-9.86837
餌	-9.86911
孤	-9.86914
船	-9.86918
贍	-9.86927
擔	-9.86927
程	-9.86929
催	-9.86929
朽	-9.86934
羽	-9.86937
驟	-9.86961
類也	-9.86967
觸	-9.86978
徵	-9.87008
百五十	-9.87009
是故	-9.87052
甃	-9.87056
啓	-9.87066
抛	-9.87068
往往	-9.87082
易生	-9.87117
而上	-9.87321
性平	-9.87417
之義	-9.87477
不齊	-9.87516
農器	-9.87546
出入	-9.88011
田疇	-9.88054
救飢採嫩葉煠熟	-9.88316
救飢採葉煠熟水浸	-9.88331
韻	-9.88498
虹	-9.88626
蓴	-9.88729
莫不	-9.88743
蓑	-9.88759
蠶事	-9.8876
掉	-9.8877
絮	-9.88794
絞	-9.88799
二分	-9.888
生荒野中	-9.8881
癸	-9.88816
袋	-9.8883
輩	-9.88831
鈞	-9.88831
遶	-9.88846
杉	-9.88848
糖	-9.88849
盧	-9.88863
宛	-9.88872
奸	-9.88892
𢷬	-9.88893
有毛	-9.88897
胎	-9.88914
沾	-9.88934
豕	-9.88939
孰	-9.88955
暫	-9.88957
鋸	-9.88964
為下時	-9.88979
鳬	-9.8901
性寒	-9.89012
賑濟	-9.89019
熟糞	-9.89048
陂塘	-9.8905
太守	-9.89118
㣲苦	-9.89203
即愈	-9.89646
向上	-9.89691
雨澤	-9.89772
使之	-9.89808
立夏	-9.89859
二十日	-9.89953
雨後	-9.89987
危	-9.90484
霑	-9.90643
州物産	-9.90646
榴	-9.90695
韌	-9.90701
藿	-9.90702
戍	-9.90707
囊	-9.90711
黍米	-9.90714
禽	-9.9073
裕	-9.90748
皇帝御製	-9.90749
羔	-9.90752
飲食	-9.90754
鴈	-9.90765
庸	-9.90774
犢	-9.90775
需	-9.90799
剗	-9.90804
貪	-9.90804
纎	-9.9081
梔子	-9.90816
川谷	-9.90819
陜西	-9.90845
族	-9.9087
武帝	-9.90881
樹高	-9.91155
鏵	-9.91155
八九月	-9.91159
花叉	-9.91304
則死	-9.91596
蠶桑	-9.91764
數尺	-9.91871
黒色	-9.92009
禮記月令	-9.92514
如此則	-9.92523
蕨	-9.92566
簷	-9.92624
姓	-9.92625
響	-9.92642
爵	-9.92654
攻	-9.92676
優	-9.92708
拐	-9.92725
豚	-9.92728
縛	-9.92736
繅	-9.92756
歟	-9.92758
椀	-9.92786
簾	-9.928
健	-9.92803
樝	-9.92812
颺	-9.92812
鎌	-9.92812
賊	-9.92817
靖	-9.9283
鄰	-9.92833
捕	-9.92908
涇	-9.92972
杴	-9.93094
松江	-9.93102
糯稻	-9.93281
皆可食	-9.93445
七尺	-9.93671
東方	-9.93734
淡黄	-9.9387
葱白	-9.93877
水勢	-9.93978
無窮	-9.94107
有毒	-9.94437
倣	-9.94441
坊	-9.94559
稃	-9.94617
糜	-9.94621
件	-9.94636
杼	-9.94658
梧桐	-9.94688
梯	-9.9471
性温無毒	-9.94711
曳	-9.94719
爽	-9.94725
隠	-9.94737
百穀	-9.94737
暇	-9.94745
忠	-9.94747
握	-9.94754
餓	-9.94756
靡	-9.94762
勉	-9.94783
崔	-9.94792
晝夜	-9.94794
橛	-9.94797
殆	-9.94808
錯	-9.94853
粮	-9.94859
皇后	-9.94862
莽	-9.94893
王禎曰	-9.95082
旱稻	-9.95361
農桑通訣曰	-9.95523
百榖	-9.95626
貧民	-9.95657
可愛	-9.95666
以助	-9.9569
黑豆	-9.96008
使民	-9.96043
器中	-9.96302
五斗	-9.96625
綴	-9.96625
緊	-9.96629
救荒本草	-9.96669
掘地	-9.96678
域	-9.96685
蔗	-9.96685
倚	-9.96726
俯	-9.96734
擺	-9.96752
廣雅曰	-9.96756
測	-9.96764
追	-9.96777
輓	-9.96779
㡬	-9.9678
頌	-9.96796
秉	-9.96821
酌量	-9.96824
強	-9.96842
萎	-9.96844
日曝	-9.96913
凶年	-9.96931
龍眼	-9.96974
眠起	-9.97144
茂盛	-9.97222
蠶豆	-9.97299
六七月	-9.97328
開濬	-9.97405
胡豆	-9.97426
西方	-9.97526
青州	-9.97626
救飢採苗葉煠熟	-9.98628
蕡	-9.98672
帚	-9.98741
次五日	-9.98784
隋	-9.98816
宰	-9.9882
杓	-9.9882
準	-9.98821
聖祖仁皇帝御製	-9.98825
耰	-9.98828
林檎	-9.98833
什	-9.98838
生青熟	-9.9885
寜	-9.98855
妄	-9.98857
弟	-9.98859
豉汁	-9.98868
麗	-9.98871
盜	-9.98873
灾	-9.98887
雛	-9.98907
懼	-9.98932
汙	-9.98946
峻	-9.98963
丞	-9.98964
分栽	-9.98999
苧麻	-9.99083
凍死	-9.99171
義倉	-9.9929
修築	-9.99298
尺寸	-9.99343
川澤	-9.99345
逺近	-9.99532
制度	-9.99634
一尺許	-10.004
褐	-10.0066
雨雪	-10.008
餳	-10.0082
沐	-10.0083
檾	-10.0083
射	-10.0087
垣	-10.0091
凋	-10.0093
必先	-10.0094
冊	-10.0094
抪	-10.0094
煮熟	-10.0094
輝	-10.0094
荔支	-10.0094
振	-10.0095
瓤	-10.0097
世宗憲皇帝御製	-10.0098
㸔	-10.0098
直𨽻	-10.0098
訓	-10.0099
静	-10.01
匝	-10.01
薊	-10.0101
縮	-10.0102
豳風	-10.0103
蔓延	-10.0104
斟酌	-10.0105
偶	-10.0105
瀆	-10.0106
畮	-10.0108
肌	-10.011
輪軸	-10.0126
雨諺云	-10.0155
千頃	-10.0174
山藥	-10.0191
春月	-10.0204
半月	-10.023
黑色	-10.0233
周官	-10.0243
來春	-10.026
嘴	-10.0306
淨油鹽調食	-10.031
薥	-10.031
蒴	-10.0311
蕉	-10.0312
燠	-10.0313
介	-10.0314
整	-10.0314
洲	-10.0315
㵼	-10.0315
牢	-10.0315
隙	-10.0316
荼	-10.0316
兠	-10.0317
飭	-10.0317
繞	-10.0318
撮	-10.0319
繰絲	-10.032
龜	-10.032
京師	-10.0325
亷	-10.0326
彊	-10.0329
闔	-10.033
妃	-10.0332
錢糧	-10.0337
四角	-10.034
芽出	-10.0372
亦如之	-10.0391
齊民要術云	-10.0418
一畒	-10.0431
瓮中	-10.0435
各省	-10.0441
務本	-10.0453
二三寸	-10.0463
生山野中	-10.0491
立春	-10.0509
花結實	-10.0512
葚	-10.0522
刋	-10.0525
烹	-10.0526
䖍	-10.0532
鍋	-10.0533
碗	-10.0533
苴	-10.0533
氊	-10.0534
鉅	-10.0534
囘	-10.0536
倉廪	-10.0537
訪	-10.0537
淘洗浄油鹽調食	-10.0537
躡	-10.0539
卽	-10.0539
凌	-10.054
尹	-10.054
鬆	-10.054
挽	-10.0543
答	-10.0543
菑	-10.0543
忙	-10.0546
披	-10.0546
従	-10.0547
保甲	-10.0547
枳	-10.0547
醃	-10.0547
匏	-10.0548
紛	-10.0549
膏腴	-10.055
鐮	-10.0551
旱澇	-10.0563
尚書	-10.0594
冬青	-10.0596
輕重	-10.0598
如指	-10.0648
蓮子	-10.065
人呼為	-10.0671
地形	-10.069
二斗	-10.0698
隂雨	-10.0714
菠	-10.0746
饌	-10.0752
幽	-10.0754
亥	-10.0754
狼	-10.0756
舜	-10.0757
硫	-10.0759
淀	-10.076
貞	-10.0761
敎	-10.0762
協	-10.0762
□	-10.0762
燃	-10.0763
不佳	-10.0763
文獻通考	-10.0763
判	-10.0764
高宗純皇帝御製恭和聖祖仁皇帝原韻	-10.0764
苣	-10.0766
鑄	-10.0767
廉	-10.0767
逼	-10.0767
踰	-10.0767
漁	-10.0768
閣	-10.0769
遭	-10.0769
柯	-10.0769
倘	-10.0769
慈	-10.077
榆莢	-10.0771
督撫	-10.0772
城郭	-10.0772
纑	-10.0773
蘿	-10.0774
覽	-10.0774
付	-10.0775
十斤	-10.0783
預備	-10.0787
率多	-10.0794
漉出	-10.0831
隂乾	-10.0891
白楊	-10.0895
千餘	-10.0913
昴	-10.0967
冰	-10.098
頸	-10.0981
㡳	-10.0987
宵	-10.0988
州郡	-10.0989
返	-10.0989
寶	-10.0989
槿	-10.0991
壘	-10.0992
騎	-10.0992
蓆	-10.0993
旗	-10.0993
丸	-10.0995
肯	-10.0995
虫	-10.0997
兎	-10.0997
占城	-10.0997
塍	-10.0998
檢	-10.0999
吉貝	-10.0999
彈	-10.1
朴	-10.1
祐	-10.1001
劑	-10.1004
頼	-10.1004
葑	-10.1004
派	-10.1004
曵	-10.1006
甫	-10.1006
穬麥	-10.1006
拜	-10.1007
隅	-10.101
薄荷	-10.1013
堅實	-10.1025
倣此	-10.1036
荆州	-10.1078
少許	-10.1104
江西	-10.1129
斯民	-10.1143
甚美	-10.1144
每嵗	-10.1187
淮南	-10.1196
濕潤	-10.1208
怕	-10.1211
臛	-10.1213
鳩	-10.1221
轆轤	-10.1222
聼	-10.1225
叙	-10.1228
皂莢	-10.1229
箇	-10.123
影	-10.1231
彚	-10.1231
上帝	-10.1234
轂	-10.1234
才	-10.1235
藪	-10.1236
紐	-10.1236
滌	-10.1239
阿	-10.1239
勁	-10.124
玉衡	-10.124
盗	-10.1242
駒	-10.1242
說文云	-10.1243
虧	-10.1244
暗	-10.1247
人掌	-10.1249
尊	-10.1251
開白花	-10.1252
挹	-10.1256
萬五千	-10.1266
浙西	-10.1267
說文曰	-10.1271
钁	-10.1277
四升	-10.1346
則不生	-10.136
斫去	-10.1389
君子	-10.1418
秠	-10.1455
個	-10.1456
熈	-10.1458
牲	-10.1468
翠	-10.1468
氐	-10.147
治病文具本草草部條下	-10.1472
指揮	-10.1473
墢	-10.1474
螺	-10.1474
蒂	-10.1475
鯉	-10.1475
敦	-10.1476
諸般	-10.1477
麰	-10.1477
洋	-10.1477
挂	-10.1478
熊	-10.1478
奔	-10.1479
迤	-10.148
構	-10.148
肩	-10.148
憲	-10.1481
輻	-10.1481
緒	-10.1483
趂	-10.1483
腫	-10.1484
迴	-10.1484
閑	-10.1486
薉	-10.1487
滴	-10.1489
策	-10.1491
脩	-10.1491
傅	-10.1493
柞	-10.1493
喙	-10.1495
柏	-10.15
白茆	-10.1508
牐	-10.151
秔稻	-10.1518
任意	-10.1523
狀似	-10.153
光澤	-10.1536
不蛀	-10.1577
平原	-10.1599
屯田	-10.1604
雉	-10.1715
樗	-10.1717
畨	-10.1719
鼠	-10.172
澗	-10.1724
遥	-10.1724
亞	-10.1724
篾	-10.1727
薰	-10.1727
顛	-10.1728
䖏	-10.1728
滲	-10.1729
暢	-10.1731
効	-10.1731
繀	-10.1731
紹興	-10.1732
杵臼	-10.1736
韋	-10.1737
脫	-10.1738
第五	-10.1738
冨	-10.1739
綽	-10.1739
諸侯	-10.1741
餉	-10.1743
異物志曰	-10.1746
埴	-10.1749
逹	-10.1749
壚	-10.1756
淨洗	-10.1764
兩傍	-10.1764
廣志	-10.1771
仲春	-10.1777
陣	-10.1966
鳳	-10.1967
柵	-10.197
欄	-10.1974
鴻	-10.1974
人家園圃中	-10.1976
卜	-10.1977
翁	-10.1977
宇	-10.1979
喫	-10.198
般	-10.1981
欵	-10.1981
味苦救飢採	-10.1981
床	-10.1983
朶	-10.1984
枸	-10.1986
遽	-10.1986
刑	-10.1986
批	-10.1987
几	-10.1988
帑	-10.1989
虀	-10.1989
胡荽	-10.199
輝縣太行山	-10.1992
蕭	-10.1995
鮓	-10.1996
農隙	-10.2002
農器圖譜	-10.2002
荔枝	-10.2003
湮	-10.2004
形勢	-10.2027
穹	-10.2031
雍州	-10.2032
以禦	-10.2034
祈榖	-10.2047
荆桑	-10.2049
米一石	-10.2089
疇	-10.212
蜡	-10.2239
焙	-10.224
楝	-10.2245
愆	-10.2247
救飢採葉煠熟	-10.2247
豳	-10.2247
碪	-10.2247
週	-10.2247
張騫	-10.2248
桶	-10.2249
腴	-10.2249
鐺	-10.2251
鼈	-10.2252
冐	-10.2252
濱	-10.2252
稌	-10.2252
貝	-10.2253
暵	-10.2253
薙	-10.2253
荽	-10.2253
朝廷	-10.2255
胥	-10.2255
翅	-10.2255
償	-10.2255
逃	-10.2257
迹	-10.2257
覈	-10.2259
磽	-10.2261
又有一種	-10.2275
往來	-10.2278
太祖	-10.2281
桑椹	-10.2283
俗謂	-10.2295
六畜	-10.2315
五六寸	-10.2371
種藝	-10.2384
婁	-10.2497
嵌	-10.25
屎	-10.2505
萁	-10.2509
帥	-10.2509
歇	-10.251
葫蘆	-10.2512
猫	-10.2515
隱	-10.2516
釵	-10.2516
怠	-10.2517
紗	-10.2517
絳	-10.2517
詣	-10.2517
粃	-10.2517
的	-10.2517
憫	-10.2518
幼	-10.2519
籰	-10.2519
瘥	-10.2519
迫	-10.2519
托	-10.252
九卿	-10.2522
崖	-10.2522
銜	-10.2522
訛	-10.2524
葖	-10.2524
耬耩	-10.2525
嫌	-10.2525
攸	-10.2525
餵	-10.2526
䪥	-10.2527
醉	-10.2527
沮	-10.2528
緯	-10.2528
瓢	-10.2528
墟	-10.253
郭璞注曰	-10.253
叔	-10.2532
姚	-10.2535
栽培	-10.2538
翦	-10.254
偃	-10.2543
祈報	-10.2549
杮	-10.2553
山野間	-10.2554
簁	-10.2556
酸棗	-10.2559
史記	-10.271
郡縣	-10.2732
卦	-10.2783
茸	-10.2785
陷	-10.2787
寢	-10.2788
產	-10.2788
匙	-10.2788
𫝊	-10.279
趾	-10.2793
匱	-10.2793
臍	-10.2793
詢	-10.2796
現	-10.2798
兔	-10.2798
黨	-10.2798
醴	-10.2798
秤	-10.2798
鉸	-10.2799
堈	-10.2799
遏	-10.2801
茇	-10.2801
嗟	-10.2801
場圃	-10.2801
牝	-10.2802
緝	-10.2802
淫	-10.2802
蟹	-10.2803
甽	-10.2804
祠	-10.2804
西域	-10.2806
狐	-10.2807
劈	-10.2807
芬	-10.2811
罰	-10.2812
捍	-10.2816
欖	-10.282
二百四十	-10.2823
開小白花	-10.2852
說文	-10.3053
觜	-10.3057
雹	-10.3065
輿	-10.3067
霞	-10.3069
薇	-10.3069
歡	-10.307
攢	-10.3071
矩	-10.3074
箬	-10.3074
肚	-10.3074
懶	-10.3075
窪	-10.3076
尉	-10.3077
臙脂	-10.3077
醫	-10.3077
威	-10.3081
枇杷	-10.3082
簨	-10.3083
荻	-10.3083
蝻	-10.3084
䅖	-10.3084
陌	-10.3084
險	-10.3085
禄	-10.3085
曹	-10.3085
寓	-10.3086
邦	-10.3086
爰	-10.3087
墜	-10.3087
檀	-10.3088
欣	-10.3088
罨	-10.3089
裛	-10.3089
穉	-10.309
篚	-10.3091
搦	-10.3091
帯	-10.3093
爾雅翼	-10.3093
肺	-10.3094
漳	-10.3096
濵	-10.3099
祭祀	-10.31
閩廣	-10.31
菔	-10.31
涂	-10.3102
圭	-10.3113
户部	-10.3113
池塘	-10.3118
自之得積	-10.3124
収貯	-10.3125
胡桃	-10.3129
最佳	-10.314
百六十	-10.3228
削去	-10.3288
備荒	-10.3294
榨	-10.3359
缸	-10.336
鳥獸	-10.3365
劐	-10.3366
爐	-10.3372
晏	-10.3372
瑩	-10.3373
窊	-10.3375
桔橰	-10.3375
衞	-10.3377
渇	-10.3378
晦	-10.3378
沉	-10.3378
坤	-10.3379
畎	-10.3379
嗇	-10.338
偽	-10.338
犍	-10.3381
秩	-10.3381
罅	-10.3382
鋭	-10.3385
呈	-10.3386
咨	-10.3388
閭	-10.3389
奈	-10.3394
藻	-10.3397
荒蕪	-10.3397
噐	-10.34
沸湯	-10.3404
玄	-10.3406
鍤	-10.3437
慎勿	-10.3438
鷹	-10.3658
允	-10.3666
不耐寒	-10.3669
撲	-10.3674
㟁	-10.3676
搖	-10.3677
戾	-10.3678
宮	-10.3679
髮	-10.3679
缶	-10.368
筆	-10.368
岳	-10.3681
憑	-10.3681
芍	-10.3683
笑	-10.3683
粤	-10.3684
簟	-10.3684
淞	-10.3684
淵	-10.3685
幕	-10.3685
襲	-10.3689
蠻	-10.3689
培壅	-10.3689
昆	-10.3691
無定度	-10.3694
冗	-10.3696
圩岸	-10.3697
肝	-10.3697
風吹	-10.3698
齧	-10.3699
味甘性平	-10.3701
不利人	-10.3706
幽州	-10.3717
鶴	-10.3976
拭	-10.3976
侍郎	-10.3978
治病文具本草草部	-10.3979
標	-10.3983
僧	-10.3985
鄙	-10.3985
鏟	-10.3985
版	-10.3986
韓	-10.3987
圎	-10.3987
巢	-10.3987
膽	-10.3988
术	-10.3988
翹	-10.3988
祗	-10.3989
頴	-10.3989
拂	-10.399
貽	-10.399
跳	-10.3991
操	-10.3992
櫻	-10.3992
鏡	-10.3992
販	-10.3993
包裹	-10.3993
韓氏直説	-10.3994
皂角	-10.3994
劣	-10.3994
緜	-10.3996
欽	-10.3996
杭	-10.3997
墊	-10.3998
蒙	-10.3998
豐稔	-10.3998
冒	-10.3999
麥䴷	-10.4
菖	-10.4
躍	-10.4
嚼	-10.4
析	-10.4001
喉	-10.4003
胡蘿蔔	-10.4006
賞罰	-10.4008
滋茂	-10.4012
逾	-10.4014
冶	-10.4015
鍬	-10.4017
蘇松	-10.4018
社稷	-10.403
厭	-10.4216
干	-10.4289
暈	-10.4294
叅	-10.4303
剶	-10.4304
明徐光啓撰	-10.4309
痕	-10.4309
確	-10.4309
書食貨志	-10.431
渡	-10.4311
嵩	-10.4312
剔	-10.4312
押	-10.4313
恃	-10.4315
饋	-10.4315
婢	-10.4316
僕	-10.4316
沫	-10.4316
蘓	-10.4317
捋	-10.4317
春分前後	-10.4317
搓	-10.4317
趁	-10.4317
崗	-10.4317
籃	-10.4318
莠	-10.432
繪	-10.432
肆	-10.4321
厨	-10.4321
侈	-10.4321
稂莠	-10.4321
髓	-10.4322
援	-10.4322
两	-10.4324
護	-10.4327
爬	-10.4327
櫟	-10.4328
圖譜	-10.4329
欺	-10.4329
潰	-10.4329
棠梨	-10.433
孝弟	-10.4333
掐	-10.4336
沃壤	-10.435
食法採葉煠熟	-10.4554
値	-10.4629
瀝	-10.4631
膳	-10.4634
冩	-10.4635
挺	-10.4635
綆	-10.4635
鬯	-10.4636
蘖	-10.464
㸑	-10.464
猛	-10.4641
茘	-10.4641
扦	-10.4643
劚	-10.4644
桔	-10.4644
明徐光啟撰	-10.4645
繋	-10.4645
隣	-10.4645
磑	-10.4647
杞	-10.4647
飾	-10.4648
洽	-10.4648
㬠	-10.465
鶉	-10.465
便民圖	-10.465
寔	-10.4652
吕氏春秋	-10.4652
鏺	-10.4653
勻	-10.4653
碩	-10.4653
洪武	-10.4654
芑	-10.4655
麨	-10.4655
軒	-10.4655
説文云	-10.4655
眀	-10.4655
鼔	-10.4657
顯	-10.4657
旅	-10.4658
腎	-10.4659
槁	-10.4659
認	-10.466
舎	-10.466
崑	-10.466
荘	-10.4662
徭	-10.4663
泗	-10.4663
磁	-10.4664
樸	-10.4664
嗣	-10.4664
檜	-10.4665
隄防	-10.4667
萑	-10.4668
臿	-10.4669
跨	-10.4672
壌	-10.4672
荒歉	-10.4676
換水浸去	-10.4847
窩	-10.4962
燎	-10.4975
拯	-10.498
疲	-10.4983
茗	-10.4987
夙	-10.4988
娘	-10.4989
促	-10.4989
概	-10.4989
孕	-10.4989
攀	-10.4989
賔	-10.499
裨	-10.4991
麩	-10.4992
䔧	-10.4992
叠	-10.4993
甘蔗	-10.4993
巖	-10.4993
紵	-10.4993
黲	-10.4994
叚	-10.4994
楂	-10.4994
饗	-10.4995
逮	-10.4997
汾	-10.4997
複	-10.4997
罕	-10.4997
臠	-10.5001
濡	-10.5001
食法採嫩苗葉煠熟	-10.5002
翰	-10.5002
弭	-10.5004
怒	-10.5005
怪	-10.5005
硝	-10.5007
棲	-10.5009
捉	-10.5009
埂	-10.5011
溪澗	-10.5011
苡	-10.5013
蔞	-10.5029
礪	-10.5038
儲蓄	-10.508
煠熟水浸	-10.5133
稍間開	-10.5287
㕔	-10.5319
陞	-10.5333
荔	-10.5334
乍	-10.5339
薔	-10.5339
腊	-10.5341
攅	-10.5342
篅	-10.5343
筥	-10.5343
䋲	-10.5343
暘	-10.5343
愁	-10.5344
鑒	-10.5344
吕	-10.5345
欒	-10.5345
抒	-10.5345
溼	-10.5346
渤	-10.5346
諭内閣	-10.5348
亟	-10.535
儋	-10.5351
女貞	-10.5351
襯	-10.5351
邱	-10.5352
枕	-10.5352
攝	-10.5352
浄油鹽調食	-10.5352
裳	-10.5352
癘	-10.5352
壑	-10.5353
彘	-10.5354
漑	-10.5355
册	-10.5357
籖	-10.5357
撈	-10.5357
鄧	-10.5358
􁓰􁥯	-10.5359
敵	-10.536
逓	-10.5362
濫	-10.5362
腦	-10.5364
芰	-10.5365
匡	-10.5365
柤	-10.5366
土之次曰五	-10.539
江東呼	-10.5407
取其榦可作骨	-10.569
屨	-10.5691
茨	-10.5697
畬	-10.5698
府古揚州斗分野	-10.5701
貲	-10.5706
腥	-10.5707
尿	-10.5707
礙	-10.571
蠅	-10.5712
肋	-10.5712
欝	-10.5712
揩	-10.5713
榜	-10.5713
揆	-10.5713
萍	-10.5713
芙	-10.5714
虎皮糯	-10.5714
謝	-10.5716
卻	-10.5716
渭	-10.5716
豁	-10.5716
芝蔴	-10.5717
飴	-10.5717
膜	-10.5718
稉	-10.5718
克	-10.5718
絍	-10.5718
搥	-10.5719
纊	-10.5719
笠	-10.5719
臾	-10.572
栝	-10.572
蘘荷	-10.572
途	-10.572
劄	-10.5721
偷	-10.5722
誘	-10.5722
壮	-10.5722
撓	-10.5722
拒	-10.5726
盞	-10.5726
喘	-10.5727
痰	-10.5729
灼	-10.5729
勅	-10.5729
奮	-10.5729
惑	-10.5731
聊	-10.5731
鴟	-10.5731
食經曰	-10.5731
畎澮	-10.5732
陟	-10.574
蛀	-10.5947
𨽻	-10.6069
呌	-10.607
鵲	-10.6074
虱	-10.609
蘇頌曰	-10.6093
蟬	-10.6093
棃	-10.6095
羊鬚糯	-10.6096
秸	-10.6098
猴	-10.6098
五七寸	-10.6098
契	-10.6099
瘢	-10.6099
獵	-10.61
鳯	-10.61
缹	-10.6102
氾勝之	-10.6103
詞	-10.6103
厰	-10.6104
本草綱目李時珍曰	-10.6104
芭	-10.6105
玊	-10.6105
絺	-10.6105
汎	-10.6106
董	-10.6106
蕢	-10.6107
葉攅生一處	-10.6107
稙	-10.6108
隻	-10.6109
螟	-10.6109
談	-10.6109
競	-10.611
麝	-10.611
霍	-10.6111
飜	-10.6111
映	-10.6111
倦	-10.6111
妻	-10.6112
濯	-10.6112
稞	-10.6112
詠	-10.6113
抨	-10.6114
倡	-10.6114
畚	-10.6114
帖	-10.6114
敝	-10.6115
內	-10.6115
箒	-10.6115
郁	-10.6116
嫁	-10.6116
玩	-10.6116
閲	-10.6117
皴	-10.6117
異畝同穎	-10.6117
墾闢	-10.6117
椑	-10.6118
衙	-10.6118
湧	-10.6119
甿	-10.612
掲	-10.612
渫	-10.6125
滇	-10.613
鄴	-10.6134
畝用子	-10.6159
葉煠熟水浸淘去苦味油鹽調食	-10.6163
渝	-10.6481
本草原有	-10.6486
閃	-10.6491
桞	-10.6491
廷	-10.6492
味苦性平無毒	-10.6493
潭	-10.6495
唇	-10.65
蘂	-10.6502
縳	-10.6502
混	-10.6503
暄	-10.6504
飄	-10.6504
餒	-10.6505
措	-10.6506
戯	-10.6506
毁	-10.6507
羡	-10.6508
傚	-10.6508
卷四十	-10.6508
袴	-10.6509
該督撫	-10.6509
苕	-10.6509
揮	-10.6509
迷	-10.6509
穋	-10.651
儒	-10.651
㨗	-10.6513
臻	-10.6513
呂	-10.6515
楔	-10.6515
藩	-10.6515
島	-10.6515
儘	-10.6515
㽟	-10.6516
欽定四庫全書農書卷	-10.6517
蒲萄	-10.6518
潘	-10.6518
饙	-10.6518
斥	-10.6518
範	-10.6518
綺	-10.6518
岀	-10.6519
羣芳譜種植	-10.652
斥鹵	-10.6521
㳺	-10.6522
靜	-10.6523
祇	-10.6895
䋔	-10.6899
治病文具本草木部	-10.6904
矜	-10.6904
佛	-10.6905
汪	-10.6908
陶𢎞景曰	-10.6909
煌	-10.691
撤	-10.691
敕	-10.6911
贊	-10.6912
坼	-10.6912
繡	-10.6913
坍	-10.6913
櫃	-10.6914
筭	-10.6915
遞	-10.6915
蕎	-10.6916
亮	-10.6916
械	-10.6917
丼	-10.6917
僮	-10.6917
莩	-10.6918
耖	-10.6918
麋	-10.6918
葉對生	-10.692
戰	-10.6921
生山谷中	-10.6921
􁲼	-10.6924
葫	-10.6924
悦	-10.6925
剖	-10.6925
贖	-10.6926
偹	-10.6926
輥	-10.6926
署	-10.6927
橫	-10.6927
邀	-10.6927
撘	-10.6927
閏	-10.6928
殘	-10.6928
鬃	-10.6928
掠	-10.693
塼	-10.693
垢	-10.693
交阯	-10.6932
褁	-10.6932
刳	-10.6932
勵	-10.6933
渰	-10.6934
廣州記曰	-10.6934
苓	-10.6935
茈	-10.6936
髙三四尺	-10.6937
釤	-10.6937
弇	-10.6938
畯	-10.6941
敇	-10.6943
擅	-10.6945
幷	-10.6947
高一二尺莖	-10.6966
嫩葉煠熟	-10.7173
鈴	-10.7334
幅	-10.7342
龔	-10.7343
生密縣山野中	-10.7343
旰	-10.7345
下馬看	-10.7347
搜	-10.7348
治病今人	-10.7349
葷	-10.7349
薯蕷	-10.7349
溜	-10.735
韶	-10.735
淅	-10.7352
綏	-10.7353
棟	-10.7355
台	-10.7356
希	-10.7356
慰	-10.7357
閭閻	-10.7357
蔴	-10.7358
桓	-10.7359
吸	-10.736
廻	-10.7361
㓙	-10.7361
梧	-10.7361
皁	-10.7361
厲	-10.7361
𤣥扈先生曰嘗過	-10.7362
揭	-10.7362
彎	-10.7362
救公饑	-10.7363
四民月令	-10.7365
聳	-10.7365
溥	-10.7365
蔚	-10.7366
𥘉	-10.7366
模	-10.7366
詰	-10.7367
弛	-10.7367
怨	-10.7368
酷	-10.7369
徽	-10.7369
樊	-10.737
覩	-10.737
戈	-10.7371
喬	-10.7371
洳	-10.7372
􁋁	-10.7373
堇	-10.7376
榔	-10.7379
贏	-10.7379
脣	-10.7379
砥	-10.7381
逕	-10.7383
蘄	-10.7386
水浸去苦味淘浄油鹽調食	-10.7407
後十五日斗柄指	-10.7775
齏	-10.7775
潛	-10.779
串	-10.7791
牌	-10.7792
縑	-10.7792
屝	-10.7796
裙	-10.7796
栅	-10.7796
舞	-10.7797
蛤	-10.7797
蹂	-10.7798
侍	-10.78
馳	-10.7801
荅	-10.7801
兢	-10.7803
彰	-10.7805
罌	-10.7806
痢	-10.7806
便民圖纂曰	-10.7807
劒	-10.7807
絃	-10.7808
面青背	-10.7809
館	-10.7809
蓺	-10.7809
謬	-10.781
蟠	-10.781
喚	-10.781
雇	-10.7811
蓧	-10.7811
窘	-10.7811
觔	-10.7811
菓	-10.7812
卉	-10.7812
歙	-10.7812
晶	-10.7813
臬	-10.7813
濾	-10.7813
繇	-10.7814
箸	-10.7814
塡	-10.7814
烙	-10.7817
攷	-10.7817
檻	-10.7818
㓜	-10.7818
俞	-10.7818
篠	-10.7819
煉	-10.7819
儻	-10.7821
綱	-10.7821
禍	-10.7821
昨	-10.7822
梭	-10.7823
杬	-10.7823
棧	-10.7824
卓	-10.7824
州刺史	-10.7824
楫	-10.7826
彭	-10.7827
山海經曰	-10.7827
奚	-10.7828
羃	-10.7829
瀰	-10.7829
𣲖	-10.783
涉	-10.783
吴淞江	-10.783
椰	-10.7831
槖	-10.7837
用子三升	-10.7849
山野中苗高	-10.7899
􁗮	-10.8267
倫	-10.827
輦	-10.8271
蕓薹	-10.8271
耕織圖	-10.8274
姦	-10.8275
皂	-10.8275
茜	-10.8276
碢	-10.8277
賽	-10.8278
僉	-10.828
滁	-10.828
郤	-10.828
荑	-10.8281
潁	-10.8281
○	-10.8282
慿	-10.8282
作成黄色換水淘	-10.8284
誅	-10.8285
樣	-10.8286
電	-10.8286
繒	-10.8286
啻	-10.8286
飱	-10.8286
擗	-10.8287
灣	-10.8287
殍	-10.8287
掣	-10.8288
瞿	-10.8288
吳淞江	-10.8289
纍纍	-10.829
佩	-10.829
迄	-10.829
逋	-10.829
梂	-10.8291
譬	-10.8292
樵	-10.8293
函	-10.8294
􁋕	-10.8294
狸	-10.8294
夭	-10.8295
徐光啓曰	-10.8295
捻	-10.8295
祁	-10.8296
秃	-10.8296
西京雜記曰	-10.8298
荀	-10.8299
銳	-10.83
仕	-10.83
驪	-10.83
昬	-10.8301
博物志	-10.8302
汰	-10.8303
萬八千	-10.8303
售	-10.8305
浩	-10.8306
鱉	-10.8309
西陵氏	-10.831
櫧	-10.8311
迨	-10.8312
䜴	-10.8768
套	-10.8768
枘	-10.8774
郷	-10.8774
軌	-10.8777
雕	-10.8778
滎	-10.8779
禪	-10.8779
夘	-10.878
荳	-10.878
毳	-10.878
芼	-10.8781
宏	-10.8782
胼	-10.8782
㾗	-10.8782
厦	-10.8782
孳	-10.8782
櫐	-10.8782
蚤	-10.8783
藋	-10.8783
劍	-10.8784
枋	-10.8784
𦵔	-10.8785
葭	-10.8785
警	-10.8787
酵	-10.8787
古雍州井鬼分野	-10.8788
簞	-10.8788
陳藏器	-10.8788
肫	-10.8788
博聞録	-10.8788
俊	-10.8789
泡	-10.8789
胸	-10.8789
驕	-10.8789
戚	-10.8789
洒	-10.8789
奢	-10.879
齎	-10.8792
茰	-10.8793
寃	-10.8793
甌	-10.8794
況	-10.8794
煨	-10.8794
摶	-10.8794
墩	-10.8795
訣	-10.8795
貌	-10.8795
眞	-10.8796
邇	-10.8796
汜勝之	-10.8796
陛	-10.8797
碡	-10.8798
碌碡	-10.8798
高三四尺	-10.8799
羲	-10.8799
奄	-10.8799
墮	-10.88
鄂	-10.88
駁	-10.8802
渚	-10.8803
竝	-10.8804
漂	-10.8804
駢	-10.8805
蠡	-10.8807
葍	-10.881
朳	-10.8815
瓴	-10.8822
萬六千	-10.8824
輳	-10.8826
廿	-10.9256
倶	-10.9291
燉	-10.9294
𥫱	-10.9295
糕	-10.9296
府古揚州牛女分野	-10.9296
輯	-10.9297
䉛	-10.9298
靠	-10.9299
湘	-10.9299
慕	-10.93
以副朕	-10.9301
殃	-10.9301
獺	-10.9303
毬	-10.9304
脇	-10.9305
撩	-10.9306
孝經援神契	-10.9307
㕘	-10.9307
悞	-10.9307
佑	-10.9308
宕	-10.9309
妥	-10.931
杯	-10.931
抹	-10.9311
泠	-10.9311
滙	-10.9311
癰	-10.9311
替	-10.9312
考工記	-10.9312
款	-10.9312
拽	-10.9312
阡	-10.9313
鹻	-10.9313
鄒	-10.9313
府古梁州井鬼分野	-10.9314
裴	-10.9314
軋	-10.9314
璣	-10.9314
鬰	-10.9314
邵	-10.9315
苐	-10.9316
巫	-10.9317
伍	-10.9318
衢	-10.9318
麥秀兩岐	-10.9319
泰西水法	-10.9319
筠	-10.932
檐	-10.932
夢	-10.932
攜	-10.9322
萬餘頃	-10.9322
仞	-10.9324
笨	-10.9324
謙	-10.9325
隘	-10.9325
奬	-10.9325
咎	-10.9326
辱	-10.9328
笐	-10.9329
煆	-10.9331
棣	-10.9332
櫌	-10.9334
禜	-10.9335
町	-10.9338
沁	-10.9338
髙一二尺莖	-10.9355
師曠占	-10.9819
軠	-10.9832
􁣮	-10.984
黂	-10.984
戲	-10.9843
箄	-10.985
羞	-10.9851
􁐡	-10.9851
潑	-10.9852
􁁜	-10.9853
鑽	-10.9853
籮	-10.9853
中氣初五日	-10.9854
荇	-10.9854
藶	-10.9855
鍼	-10.9856
苽	-10.9857
靛	-10.9858
璧	-10.9858
􁥬	-10.9859
扞	-10.986
薍	-10.9861
凈	-10.9862
穬	-10.9862
沂	-10.9862
聖祖仁皇帝	-10.9863
亨	-10.9864
渥	-10.9864
挖	-10.9864
霏	-10.9864
砘	-10.9864
本草綱目	-10.9865
稚	-10.9866
垎	-10.9867
藴	-10.9867
迅	-10.9867
莙	-10.9867
浣	-10.9867
柅	-10.9868
埤	-10.9868
天工開物	-10.9868
舊不載所出州土	-10.9868
旨	-10.9869
生熟皆可食	-10.9869
晋	-10.987
有赤白二種	-10.987
膿	-10.987
匕	-10.987
羌	-10.9871
兜	-10.9871
涎	-10.9872
芎	-10.9872
窺	-10.9872
䥷	-10.9872
訟	-10.9873
帳	-10.9873
莱	-10.9874
輟	-10.9874
馨	-10.9874
甞	-10.9874
奇	-10.9874
技	-10.9875
懲	-10.9875
曷	-10.9876
耿	-10.9877
岱	-10.9877
尸	-10.9877
穏	-10.9878
坵	-10.9879
萟	-10.9879
趕	-10.988
㨊	-10.988
如彈丸	-10.9882
咽	-10.9882
歧	-10.9883
駟	-10.9883
喪	-10.9884
曝令乾	-10.9885
臟	-10.9886
沱	-10.9887
踵	-10.989
滹	-10.989
兗	-10.9891
㕓	-10.9893
黔	-10.9898
籥	-10.9899
瞻	-11.0425
蓉	-11.0431
砌	-11.0433
帆	-11.0435
稑	-11.0437
爼	-11.0437
薫	-11.0438
鐴	-11.0439
耞	-11.0439
墝	-11.0439
紉	-11.0439
醎	-11.044
愧	-11.0442
藊	-11.0442
嗜	-11.0444
趕陳糯	-11.0445
寇宗奭曰	-11.0446
味苦性寒無毒	-11.0446
蘸	-11.0448
治病文具本草果部	-11.0449
􁟓	-11.0449
大學士	-11.045
舊不著所出州土	-11.045
敏	-11.045
漠	-11.045
餧	-11.045
傘	-11.0451
劖	-11.0452
廧	-11.0452
恣	-11.0453
爆	-11.0453
陡	-11.0453
壍	-11.0453
眷	-11.0454
證	-11.0454
葈	-11.0454
孚	-11.0454
敞	-11.0455
薘	-11.0455
欠	-11.0455
篝	-11.0455
巷	-11.0456
菁	-11.0456
羝	-11.0457
菅	-11.0457
鈔	-11.0457
銷	-11.0457
縈	-11.0458
韵	-11.0458
僻	-11.0458
府古荆州翼軫分野	-11.0459
軛	-11.0459
篛	-11.046
擦	-11.046
腕	-11.046
田家五行	-11.0461
周而復始	-11.0461
姜	-11.0462
咬	-11.0462
釅	-11.0463
㽔	-11.0463
挨	-11.0463
崙	-11.0466
拆	-11.0466
陳旉農書	-11.0467
寇	-11.0467
坻	-11.0468
瘞	-11.0468
伸	-11.0468
醜	-11.0468
驛	-11.0468
㒺	-11.047
冲	-11.047
翔	-11.0471
想	-11.0472
俸	-11.0473
昧	-11.0473
錐	-11.0473
騾	-11.0474
靑	-11.0474
瑟	-11.0475
汐	-11.0475
阪	-11.0475
汴	-11.0476
彫	-11.0476
灤	-11.0479
琴	-11.048
呂氏春秋	-11.048
啼	-11.0483
蜃	-11.1042
笆	-11.1045
厪	-11.1056
蛆	-11.1058
治病文具本草菜部	-11.1062
蒡	-11.1062
砍	-11.1063
膾	-11.1063
􁭼	-11.1063
敲	-11.1064
毅	-11.1067
萱	-11.1068
捧	-11.107
估	-11.107
慣	-11.1071
鏃	-11.1071
榎	-11.1072
兄	-11.1073
穩	-11.1073
纍	-11.1073
䝁	-11.1073
葉似獨掃葉	-11.1074
恰	-11.1074
蚓	-11.1074
諳	-11.1074
探	-11.1074
蚯	-11.1075
梳	-11.1076
金裹銀	-11.1076
硃	-11.1076
峪	-11.1077
知稼穡之艱難	-11.1078
刪	-11.1079
夲	-11.1079
暨	-11.1079
喧	-11.108
裘	-11.108
懇	-11.1081
彷	-11.1081
閱	-11.1081
燼	-11.1081
隸	-11.1081
葺	-11.1082
粲	-11.1082
椏	-11.1082
繘	-11.1082
唱	-11.1083
臯	-11.1083
駞	-11.1083
坯	-11.1084
磟	-11.1084
淄	-11.1084
莎	-11.1084
孛	-11.1085
刅	-11.1085
抖	-11.1085
摧	-11.1086
靨	-11.1086
評	-11.1087
換水浸淘浄油鹽調食	-11.1087
鮑	-11.1089
吞	-11.1089
幣	-11.109
蹙	-11.1091
季秋之月	-11.1091
盫	-11.1091
禀	-11.1092
貿	-11.1092
閼	-11.1093
見農器譜	-11.1093
榧	-11.1095
礋	-11.1096
肕	-11.1096
薿	-11.1097
僂	-11.1097
哀	-11.1099
𨗳	-11.11
撃	-11.11
袁	-11.1102
拙	-11.1107
剡	-11.1107
浹	-11.1108
􁣒	-11.1119
雚	-11.1129
諺	-11.1676
庛	-11.1719
醸	-11.1719
旉	-11.1721
囤	-11.1724
坏	-11.1726
賓	-11.1727
螘	-11.1728
􁷕	-11.1728
仔	-11.173
籭	-11.1731
航	-11.1731
籩	-11.1731
墐	-11.1732
鑊	-11.1733
墼	-11.1734
婺	-11.1734
鏤	-11.1737
巾	-11.1737
捨	-11.1739
㯶	-11.1739
鑚	-11.1739
縹	-11.1741
衷	-11.1741
霽	-11.1741
埀	-11.1742
拱	-11.1742
駐	-11.1742
哺	-11.1743
坂	-11.1743
扺	-11.1743
撁	-11.1743
徼	-11.1744
騷	-11.1744
迸	-11.1744
弧	-11.1744
蔔	-11.1745
恥	-11.1745
狭	-11.1745
桿	-11.1746
繕	-11.1746
㨂	-11.1747
喻	-11.1747
鄭司農云	-11.1747
賈思勰	-11.1747
牒	-11.1748
枿	-11.1748
昻	-11.1748
鍊	-11.1748
埽	-11.1748
森	-11.1748
誦	-11.1748
峙	-11.1748
潼	-11.1749
結子如豌豆大	-11.1749
猗	-11.1749
冽	-11.1749
换	-11.175
憚	-11.1751
胡芹小蒜	-11.1751
綸	-11.1752
捃	-11.1752
陶隠居	-11.1752
窳	-11.1752
討	-11.1752
搆	-11.1753
綌	-11.1753
霸	-11.1753
桯	-11.1753
矧	-11.1754
紓	-11.1754
迂	-11.1755
鐙	-11.1755
軰	-11.1756
俎	-11.1756
䕸	-11.1758
肖	-11.1758
歎	-11.1758
噴	-11.1758
汜	-11.1759
家給人足	-11.176
芷	-11.1761
鍫	-11.1762
枵	-11.1762
潞	-11.1763
篤	-11.1763
菼	-11.1763
袤	-11.1763
綵	-11.1765
蕚	-11.1766
剌	-11.1767
礰	-11.1767
棒	-11.1768
蔆	-11.1772
揜	-11.1775
徂	-11.1776
駑	-11.1776
蓄殖果木不如三土以十分之	-11.1778
薁	-11.1778
湛	-11.178
㽞	-11.1781
銎	-11.1785
鯶	-11.1786
眶	-11.1806
苗葉煠熟換水	-11.2349
梔	-11.2395
鐘	-11.2417
穜	-11.2429
稿	-11.2429
菉	-11.2434
茆	-11.2434
虋	-11.244
節氣初五日	-11.2445
楱	-11.2445
尻	-11.2447
殭	-11.2449
誇	-11.2452
蘘	-11.2453
㦸	-11.2455
誕	-11.2456
傭	-11.2456
之宜篇第	-11.2457
醯	-11.2457
䨇	-11.2457
剰	-11.2457
礬	-11.2458
躋	-11.2458
厎	-11.2459
溽	-11.246
盎	-11.2461
董仲舒	-11.2461
狂	-11.2461
敖	-11.2463
窟	-11.2463
舁	-11.2463
新鄭縣山野中	-11.2463
𥿄	-11.2463
酬	-11.2463
劙	-11.2463
滂	-11.2464
壖	-11.2464
蒻	-11.2465
淖	-11.2465
愼	-11.2466
朗	-11.2466
斵	-11.2466
盂	-11.2466
肪	-11.2466
柹	-11.2467
犧	-11.2467
棺	-11.2467
諫	-11.2467
釣	-11.2469
携	-11.247
糾	-11.247
彩	-11.247
擠	-11.247
像	-11.247
悟	-11.2471
迥	-11.2472
櫨	-11.2472
埃	-11.2472
訴	-11.2472
醢	-11.2472
峭	-11.2473
聰	-11.2474
詳見樹藝果部救飢	-11.2474
弔	-11.2475
緡	-11.2475
廼	-11.2476
麓	-11.2476
鞅	-11.2477
瀹	-11.2477
忱	-11.2477
憐	-11.2477
濤	-11.2477
軀	-11.2477
臧	-11.2478
悝	-11.2478
恵	-11.2479
獄	-11.248
詭	-11.248
湊	-11.2481
妾	-11.2482
蝕	-11.2484
局	-11.2485
滄	-11.2485
殫	-11.2485
寥	-11.2491
肘	-11.2492
谿	-11.2494
託	-11.25
剽	-11.2515
怸	-11.2522
葉煠熟水浸去苦味油鹽調食	-11.2597
貍	-11.3198
罹	-11.3199
汛	-11.32
舶	-11.3205
峯	-11.3212
􁓰	-11.3212
邈	-11.3213
桁	-11.3213
翎	-11.3213
筵	-11.3215
鞠	-11.3215
泆	-11.3215
薯	-11.3217
痺	-11.3217
笮	-11.3219
滚	-11.322
屏	-11.322
甎	-11.322
弄	-11.322
荚	-11.3221
宼	-11.3221
弩	-11.3221
楷	-11.3221
梜	-11.3222
輞	-11.3222
楹	-11.3222
淑	-11.3222
札	-11.3222
窑	-11.3223
庇	-11.3223
濛	-11.3224
迭	-11.3224
攔	-11.3225
痂	-11.3225
鬴	-11.3226
薈	-11.3227
礧	-11.3227
睡	-11.3227
恪	-11.3227
寝	-11.3227
店	-11.3228
禳	-11.3229
㢘	-11.3229
攘	-11.3229
茫	-11.3229
汶	-11.3229
貓	-11.3229
籸	-11.3229
塌	-11.323
辮	-11.323
纖	-11.323
焰	-11.323
群	-11.323
肇	-11.3231
膺	-11.3231
醇	-11.3232
鷰	-11.3233
紹	-11.3233
鎖	-11.3234
埒	-11.3234
蔣	-11.3234
穭	-11.3234
迮	-11.3234
䜿	-11.3235
芃	-11.3236
剜	-11.3236
袍	-11.3237
擕	-11.3237
𩥇	-11.3237
酉陽雜俎	-11.3237
栲	-11.3237
覃	-11.3238
隐	-11.3238
銘	-11.3238
匣	-11.3239
糙	-11.3239
翰林院編修	-11.3239
荄	-11.3239
烘	-11.3239
喂	-11.324
鈐	-11.3241
賠	-11.3242
腋	-11.3243
𢃄	-11.3243
箆	-11.3243
徐光啟曰	-11.3244
滛	-11.3244
悠	-11.3244
磊	-11.3244
盍	-11.3244
鸛	-11.3246
蘩	-11.3247
邢	-11.3248
脅	-11.3248
糲	-11.3248
菲	-11.3248
稲	-11.3248
騂	-11.3249
埸	-11.3249
幡	-11.3249
傑	-11.325
嘆	-11.325
徤	-11.325
勺	-11.3251
悴	-11.3252
陸璣詩疏	-11.3252
南方草物狀曰	-11.3253
弁	-11.3253
瀋	-11.3253
湍	-11.3254
犀	-11.3254
庄	-11.3255
詩義䟽曰	-11.3256
朋	-11.3256
裔	-11.3259
朹	-11.3261
浜	-11.3279
陳澔曰此記	-11.4027
世宗憲皇帝	-11.4035
取其刺可却姦取其	-11.4037
葧	-11.4038
黧	-11.4039
階	-11.404
鞍	-11.4043
墉	-11.4044
溶	-11.4045
瓊	-11.4045
筯	-11.4046
琥	-11.4049
跪	-11.4049
墀	-11.405
嫰	-11.4051
叫	-11.4051
龠	-11.4052
而終無出也	-11.4052
一稃二米	-11.4052
鉢	-11.4053
上中央四齒	-11.4053
駝	-11.4053
届	-11.4055
缾	-11.4055
笛	-11.4056
汀	-11.4057
崩	-11.4057
賛	-11.4057
糗	-11.4057
楓	-11.4058
冦	-11.4058
羨	-11.4058
葉及實皆可食	-11.4058
竄	-11.4059
𤾉	-11.4059
櫛	-11.4059
䃺	-11.406
􁣑	-11.406
脃	-11.406
開淡粉紫花	-11.406
鞋	-11.406
聨	-11.406
槧	-11.4061
斟酌焉而為之度	-11.4061
籜	-11.4061
糵	-11.4061
桀	-11.4062
徇	-11.4062
􁆵	-11.4063
稕	-11.4063
祿	-11.4063
捷	-11.4063
蝶	-11.4064
油鹽調食生醃食亦可	-11.4064
枌	-11.4064
縦	-11.4065
堙	-11.4065
餻	-11.4066
㝠	-11.4066
懈	-11.4066
䖟	-11.4066
畊	-11.4066
篘	-11.4066
耡	-11.4066
謨	-11.4067
潢	-11.4067
詹	-11.4067
擢	-11.4067
陋	-11.4068
啄	-11.4069
頰	-11.4069
骼	-11.4069
尅	-11.407
鉛	-11.407
斟	-11.407
嬾	-11.407
鬭	-11.407
冉	-11.4071
惻	-11.4071
諱	-11.4071
涿	-11.4071
蹋	-11.4071
㮕	-11.4071
确	-11.4071
爨	-11.4072
豊	-11.4072
歆	-11.4072
裝	-11.4073
祓	-11.4073
萹	-11.4073
忻	-11.4074
僑	-11.4074
氓	-11.4075
剸	-11.4075
悅	-11.4075
捄	-11.4075
䘮	-11.4076
㕑	-11.4077
扼	-11.4077
樛	-11.4078
廂	-11.4078
簍	-11.4078
凢	-11.4079
滔	-11.408
糯柳條糯	-11.408
吝	-11.4081
轆	-11.4081
餐	-11.4082
恨	-11.4082
潟	-11.4083
蹲	-11.4083
友	-11.4083
㯺	-11.4083
謁	-11.4085
蘋	-11.4086
鎡	-11.4086
佚	-11.4086
哲	-11.4087
黜	-11.4088
月而種九月而熟	-11.4089
鰱	-11.409
菭	-11.4092
址	-11.4093
姤	-11.4093
盔	-11.4826
鴿	-11.4944
絆	-11.4946
紺	-11.4949
湅	-11.4949
黙	-11.4952
徠	-11.4955
嵐	-11.4955
懋	-11.4955
餔	-11.4956
螻	-11.4957
陶朱公書	-11.4957
甖	-11.4957
欽定四庫全書子部四	-11.4958
惕	-11.4958
柎	-11.4958
䈰	-11.4959
疄	-11.496
詐	-11.4961
蛟	-11.4962
焯	-11.4962
就地拖秧而生	-11.4963
燋	-11.4963
蕛	-11.4965
莞	-11.4965
襍	-11.4966
茵	-11.4967
瘁	-11.4967
枷	-11.4967
採周憲王救荒本	-11.4968
巵	-11.4968
庖	-11.4968
隈	-11.4969
穈	-11.4969
鉄	-11.497
遙	-11.497
穇	-11.497
夬	-11.497
斃	-11.4971
舄	-11.4971
醪	-11.4971
貆	-11.4972
嘯	-11.4972
虐	-11.4972
蘺	-11.4972
樲	-11.4973
懿	-11.4973
縵	-11.4974
籧	-11.4974
牸	-11.4974
超	-11.4974
蚊	-11.4974
馮	-11.4974
媚	-11.4975
券	-11.4975
蚌	-11.4975
罩	-11.4976
熾	-11.4976
膈	-11.4976
紆	-11.4976
蠱	-11.4977
蒹	-11.4978
畱	-11.4978
冡	-11.4978
縟	-11.4978
俶	-11.4979
㹀	-11.4979
曩	-11.498
票	-11.498
洮	-11.498
悶	-11.4981
龡	-11.4981
搏	-11.4982
丫	-11.4983
夥	-11.4984
瘟	-11.4984
稂	-11.4984
癩	-11.4984
蹉	-11.4985
彦	-11.4985
泣	-11.4985
摜	-11.4985
数	-11.4985
薕	-11.4985
塾	-11.4985
葉味甜救飢採嫩苗葉煠熟水浸淘	-11.4985
旄	-11.4985
饁	-11.4986
元王禎撰農器圖譜	-11.4986
𠻳	-11.4987
馥	-11.4987
耀	-11.4988
擐	-11.4988
藂	-11.4988
擒	-11.4989
莪	-11.4991
泖	-11.4991
梅聖俞詩云	-11.4992
悪	-11.4992
撚	-11.4992
仆	-11.4995
鑑	-11.4997
龍魚河圖	-11.4997
賃	-11.4998
剏	-11.4999
購	-11.5
妖	-11.5005
猒	-11.5005
匿	-11.5005
噫	-11.5006
霤	-11.5025
豌	-11.5927
綯	-11.594
腔	-11.5941
吃	-11.5946
麯	-11.5947
薌	-11.5949
龕	-11.595
塔	-11.5955
膁	-11.5955
檟	-11.5956
蔫	-11.5958
王荆公詩云	-11.5958
慙	-11.5958
貳	-11.5958
通志康熙	-11.5959
吟	-11.596
罄	-11.596
猾	-11.596
䤅	-11.596
禎	-11.5961
賀	-11.5961
窒	-11.5961
􁍩	-11.5962
茁	-11.5962
駭	-11.5962
黼	-11.5962
㙷	-11.5963
墓	-11.5963
嬰	-11.5963
肢	-11.5964
諧	-11.5964
菥	-11.5964
晾	-11.5964
怡	-11.5965
兌	-11.5965
𦙍	-11.5965
苛	-11.5966
瀘	-11.5966
裡	-11.5966
籺	-11.5967
皷	-11.5967
昂	-11.5968
据	-11.5968
褊	-11.5969
菀	-11.5969
齍	-11.5969
圈	-11.5969
撅	-11.5969
債	-11.597
南陽府馬鞍山	-11.597
沼	-11.597
盻	-11.5971
襫	-11.5971
坦	-11.5971
拈	-11.5972
袖	-11.5972
寰	-11.5972
穟	-11.5972
驘	-11.5973
褒	-11.5973
昊	-11.5974
無毒食法採嫩葉煠熟油鹽調食	-11.5974
邕	-11.5975
灘	-11.5975
瓏	-11.5975
醅	-11.5976
毇	-11.5977
絟	-11.5977
楗	-11.5977
漾	-11.5977
逗	-11.5977
搬	-11.5977
宦	-11.5978
琢	-11.5978
哈	-11.5978
翩	-11.5979
陪	-11.598
参	-11.598
坌	-11.598
飪	-11.598
簣	-11.598
宴	-11.598
澡	-11.5981
晰	-11.5981
蛛	-11.5981
炮	-11.5982
榠	-11.5983
窓	-11.5983
宋史食貨志	-11.5984
掬	-11.5984
物類相感志	-11.5985
搨	-11.5985
蛹	-11.5985
晳	-11.5985
撞	-11.5986
􁗿	-11.5987
覧	-11.5987
跗	-11.5987
涯	-11.5988
漊	-11.5988
蹶	-11.5988
扣	-11.5988
淪	-11.5989
篲	-11.5989
齡	-11.5989
旌	-11.599
鈍	-11.599
煤	-11.5991
哭	-11.5991
頽	-11.5991
狄	-11.5991
譽	-11.5991
葡	-11.5992
稊	-11.5992
㝡	-11.5992
緗	-11.5993
瓞	-11.5994
寕	-11.5996
閨	-11.5996
苹	-11.5997
飰	-11.5997
儼	-11.6
顏	-11.6
垜	-11.6
楙	-11.6005
􁆴	-11.6006
睛	-11.6008
垡	-11.6008
莓	-11.6009
𣙗	-11.601
柺	-11.6013
艮	-11.7034
鱧	-11.7048
膂	-11.7049
拍	-11.7051
頑	-11.7053
臈	-11.7053
禆	-11.7055
觝	-11.7056
螂	-11.7057
鴽	-11.7058
毯	-11.7059
抬	-11.7059
黯	-11.706
廹	-11.7061
昀	-11.7061
扛	-11.7061
稳	-11.7063
峽	-11.7064
枉	-11.7065
昇	-11.7066
蝨	-11.7068
叩	-11.7068
明周王朱橚撰	-11.7069
螢	-11.7069
蔠	-11.7072
人車之接輪齒	-11.7072
夔	-11.7072
甄	-11.7072
車則有卧軸也卧軸之	-11.7073
柂	-11.7074
燔	-11.7074
讓	-11.7074
鷺	-11.7075
雋	-11.7076
杌	-11.7076
糺	-11.7076
薙氏掌殺草	-11.7077
妳	-11.7078
炕	-11.7078
䟎	-11.7078
饅	-11.7079
蒚	-11.7079
羖	-11.708
馭	-11.708
閙	-11.7081
澣	-11.7081
芊	-11.7081
洵	-11.7082
醖	-11.7082
縞	-11.7082
欎	-11.7082
黻	-11.7083
眩	-11.7083
紬	-11.7083
蒭	-11.7083
淘去澁味油鹽調食	-11.7083
攬	-11.7084
櫳	-11.7084
胞	-11.7084
穆	-11.7084
藄	-11.7085
麞	-11.7085
罐	-11.7085
禋	-11.7086
鶵	-11.7086
凄	-11.7087
悲	-11.7087
秣	-11.7087
葉攢生一處	-11.7087
芮	-11.7087
覔	-11.7087
諒	-11.7087
鵠	-11.7087
栞	-11.7088
靳	-11.7088
斁	-11.7088
庤	-11.7088
堘	-11.7089
瑣	-11.7089
𤨏	-11.7089
玲	-11.709
纁	-11.709
逰	-11.709
鞏	-11.709
鮎	-11.7091
聿	-11.7091
拊	-11.7091
煏	-11.7091
倖	-11.7091
杈	-11.7091
勲	-11.7092
楊泉物理論	-11.7092
捩	-11.7092
誼	-11.7092
鉗	-11.7092
樽	-11.7092
姙	-11.7092
囿	-11.7093
丕	-11.7093
渉	-11.7094
瓷	-11.7095
撼	-11.7095
藙	-11.7095
凸	-11.7096
菂	-11.7096
紳	-11.7096
豹	-11.7097
榼	-11.7097
捜	-11.7097
棊	-11.7097
淚	-11.7098
沴	-11.7098
祲	-11.7099
膓	-11.71
装	-11.71
話	-11.7103
鶩	-11.7103
篥	-11.7103
㩥	-11.7105
韮	-11.7105
畀	-11.7107
蒯	-11.7108
圉	-11.7109
蓻	-11.7109
􁉩	-11.7111
蕘	-11.7112
瀼	-11.7112
岷	-11.7112
粹	-11.7112
橐	-11.7113
竦	-11.7113
冥	-11.7113
祺	-11.7117
涓	-11.7118
倭	-11.7118
進瑞麥一莖	-11.7119
檉	-11.7121
轍	-11.7121
簜	-11.7122
愽	-11.7123
甓	-11.7128
骹	-11.7129
哥	-11.8281
蹤	-11.8291
掖	-11.8295
摯	-11.8298
疙	-11.8299
鞘	-11.8301
馴	-11.8303
忩	-11.8305
鎔	-11.8306
鑾	-11.8308
簪	-11.8308
牂	-11.831
諮	-11.831
鄘	-11.8313
爻	-11.8314
晁	-11.8314
石焉或瓴甋焉	-11.8315
繹	-11.8316
棬	-11.8316
疵	-11.8317
騸	-11.8317
赫	-11.8318
演	-11.8318
螳	-11.8319
捺	-11.832
萄	-11.8321
豺	-11.8321
篣	-11.8322
碁	-11.8322
帙	-11.8323
摟	-11.8323
肱	-11.8323
誌	-11.8323
荍	-11.8324
鍜	-11.8325
圻	-11.8325
槎	-11.8326
花色仍連著實	-11.8326
鱟	-11.8326
荈	-11.8327
塢	-11.8327
紈	-11.8327
蔀	-11.8327
蘧	-11.8327
旃	-11.8327
櫈	-11.8327
塹	-11.8328
襟	-11.8328
墁	-11.8328
涪	-11.8328
睢	-11.8328
滷	-11.8329
潜	-11.8329
㓗	-11.8329
爇	-11.833
隊	-11.833
衲	-11.8331
菟	-11.8332
摭	-11.8333
茒	-11.8333
划	-11.8334
敘	-11.8334
腿	-11.8334
萃	-11.8334
擷	-11.8334
麟	-11.8334
茀	-11.8334
悍	-11.8334
阨	-11.8335
吁	-11.8335
蕖	-11.8335
組	-11.8336
明年正月初附地芟殺	-11.8336
諤	-11.8336
隩	-11.8337
渗	-11.8337
蚢	-11.8337
僚	-11.8338
埆	-11.8338
釁	-11.8338
􁗳	-11.8338
虗	-11.8338
元史食貨志	-11.8338
棍	-11.8338
別	-11.8338
堡	-11.8339
椵	-11.8339
蘊	-11.834
哨	-11.834
絨	-11.834
賄	-11.834
藭	-11.834
窶	-11.8341
跌	-11.8341
㓂	-11.8341
臆	-11.8342
藳	-11.8342
緻	-11.8342
苔	-11.8342
橇	-11.8343
𧖟	-11.8343
亶	-11.8343
茖	-11.8343
諉	-11.8343
欹	-11.8344
綾	-11.8344
堵	-11.8345
朂	-11.8345
肄	-11.8345
緹	-11.8346
不耕者出屋粟	-11.8346
瓚	-11.8346
譚	-11.8346
㼐	-11.8346
鰕	-11.8346
廕	-11.8347
翳	-11.8348
禧	-11.8349
劬	-11.8349
娛	-11.8349
灋	-11.8349
酣	-11.835
觴	-11.835
莭	-11.8351
聒	-11.8352
甦	-11.8353
􁣌	-11.8353
濇	-11.8354
濰	-11.8354
澧	-11.8354
涕	-11.8355
熹	-11.8355
嶼	-11.8355
隳	-11.8356
鮐	-11.8356
銚	-11.8357
拏	-11.8357
尚書考靈曜	-11.8357
乖	-11.836
莾	-11.8361
迓	-11.8361
秘	-11.8362
鰻	-11.8362
茲	-11.8362
熨	-11.8363
尔	-11.8364
蓘	-11.8364
􁆤	-11.8364
韜	-11.8367
糁	-11.837
睫	-11.8371
櫄	-11.8375
桴	-11.8375
䥛	-11.8375
駵	-11.8379
椇	-11.8388
薜	-11.8399
煠熟換水浸淘	-11.9146
篆	-11.9694
幔	-11.9719
皡	-11.9726
剩	-11.9727
縻	-11.9731
嬌	-11.9731
龎	-11.9733
秪	-11.9735
饔	-11.9739
挫	-11.9739
䧟	-11.974
杚	-11.9741
霾	-11.9742
蛙	-11.9745
螣	-11.9745
幢	-11.9746
蘥	-11.9748
蘹	-11.9748
扒	-11.9749
遯	-11.975
虡	-11.975
嬴	-11.9751
咏	-11.9752
蛋	-11.9752
睹	-11.9752
㳂	-11.9752
秱	-11.9752
豘	-11.9752
竣	-11.9753
􁍢	-11.9753
蓰	-11.9753
日講官起居注	-11.9753
炳	-11.9753
曜	-11.9755
㗖	-11.9755
疸	-11.9755
顚	-11.9755
鏇	-11.9755
跛	-11.9755
鶯	-11.9756
它	-11.9756
街	-11.9756
瑰	-11.9757
釃	-11.9757
耕荒畢以鐡齒	-11.9758
祛	-11.9758
熯	-11.9758
諭總理事務王大臣	-11.9758
𣙜	-11.9758
瘴	-11.9758
孽	-11.9758
贓	-11.9758
邠	-11.9758
叟	-11.9758
箅	-11.9758
怯	-11.9759
韲	-11.9759
㙲	-11.9759
舘	-11.976
以滚水湯三五次	-11.976
辯	-11.9761
磴	-11.9761
碑	-11.9761
抝	-11.9761
寖	-11.9761
澈	-11.9762
葝	-11.9762
纓	-11.9762
醒	-11.9762
卸	-11.9762
全繳細絲中等繭可繰	-11.9763
萆	-11.9763
嚙	-11.9764
毓	-11.9764
後雖濕亦無嫌	-11.9764
曼	-11.9764
杆	-11.9765
惹	-11.9765
嚥	-11.9766
䗣	-11.9767
大學衍義補	-11.9767
伺	-11.9767
廽	-11.9767
杪	-11.9767
水浸去苦味換水淘	-11.9767
腯	-11.9768
篋	-11.9768
寐	-11.977
綜	-11.977
妍	-11.977
熇	-11.977
濩	-11.977
盲	-11.977
潄	-11.977
刁	-11.9771
瀛	-11.9771
藐	-11.9771
驎	-11.9772
不易一易再易之	-11.9772
掊	-11.9773
撿	-11.9773
涌	-11.9773
閤	-11.9773
卹	-11.9774
覓	-11.9774
耕必有一年之食九年耕必有三年之食	-11.9775
罔	-11.9776
橰	-11.9776
詎	-11.9776
梃	-11.9777
萋	-11.9777
尼	-11.9778
磐	-11.9778
棕	-11.9778
簽	-11.9779
其人與千户侯等	-11.9779
掾	-11.978
栖	-11.978
狃	-11.978
圯	-11.9782
醭	-11.9782
稬	-11.9782
蒳	-11.9782
珎	-11.9782
鐸	-11.9783
鍥	-11.9783
抉	-11.9784
殄	-11.9784
餽	-11.9784
蓫	-11.9784
肴	-11.9784
啌	-11.9785
褥	-11.9785
咀	-11.9788
踊	-11.9788
顱	-11.9788
淶	-11.9788
㢤	-11.9788
嶠	-11.979
佈	-11.979
弘	-11.979
赦	-11.9791
儗	-11.9791
蔑	-11.9793
弹	-11.9794
莘	-11.9794
倪	-11.9796
卭	-11.9796
疐	-11.9796
塥	-11.9797
顙	-11.9798
甸甸方八里	-11.9798
孶	-11.98
聾	-11.9801
廓	-11.9801
鷃	-11.9802
蹯	-11.9805
貤	-11.9811
箘	-11.9826
赨	-11.9827
棹	-12.132
褫	-12.1366
􁊽	-12.1378
粽	-12.1379
䆘	-12.1381
䓁	-12.1382
贅	-12.1383
咮	-12.1383
盝	-12.1388
睂	-12.1392
璇	-12.1393
鄢	-12.1396
􁏱	-12.1396
烽	-12.1398
撣	-12.1401
丢	-12.1402
纂文曰養苗之道鋤不	-12.1402
慵	-12.1402
衡衡也軸縱也鑿枘而合之欲其固也軸	-12.1403
霹	-12.1405
覷	-12.1406
皓	-12.1407
睦	-12.1407
嶽	-12.1407
娜	-12.1408
晡	-12.1408
盤者中筩之水所由出也	-12.1408
廊	-12.141
髻	-12.141
羶	-12.141
佇	-12.1411
繟	-12.1411
訾	-12.1411
緫	-12.1412
寘	-12.1413
圍者外體也所以為固抱也	-12.1413
癡	-12.1413
搶	-12.1413
錮	-12.1413
中筩者壺水所由上也	-12.1414
菇	-12.1414
尺開濶尺堆土離河丈尺月日起至日止	-12.1414
鵙	-12.1414
蹏	-12.1415
魅	-12.1415
晞	-12.1415
壺者水之總也水所由續而不絶也	-12.1415
戧	-12.1415
驄	-12.1415
倐	-12.1416
苟	-12.1416
車者井泉挈水之器也	-12.1416
一端有接輪卧軸之上有	-12.1417
今宻縣梁家衝山谷	-12.1417
任置一輪焉如置在軸之	-12.1417
筩者水所由入也所以束水而上也	-12.1417
瘤	-12.1418
琅	-12.1418
縉	-12.1418
遐	-12.1418
羹	-12.1418
樞者所以為利轉也	-12.1418
提柱者水所由恒升也	-12.1418
是拐木一轉而得	-12.1418
而轉之接輪與乙輪相發也若	-12.1418
孩	-12.1419
苵	-12.1419
因隤其土以附苗根	-12.142
袱	-12.142
㔯	-12.142
每幾何丈尺而下一尺	-12.142
要術云採桑必須	-12.142
蹴	-12.1421
曰衡軸衡軸者所以挈	-12.1421
搘	-12.1421
广	-12.1421
潯	-12.1422
椋	-12.1422
鏁	-12.1422
帷	-12.1422
其有失時行罪無疑	-12.1422
炷	-12.1422
穅	-12.1423
苻	-12.1423
虌	-12.1423
深痛過鋤力三倍所辦之田日不啻二十	-12.1424
公私之積猶可哀痛	-12.1424
欇	-12.1424
䎪	-12.1424
丳	-12.1424
踣	-12.1425
佀	-12.1425
紝	-12.1425
戢	-12.1425
燄	-12.1425
食法採苗葉煠熟水淘浄油鹽調食	-12.1425
縠	-12.1426
儆	-12.1426
檓	-12.1426
邑千樹棗燕秦千樹栗蜀漢江陵千樹橘	-12.1426
濺	-12.1427
悔	-12.1427
緬	-12.1427
物者備斯成器矣更為之機	-12.1427
柫	-12.1427
踠	-12.1427
嫗	-12.1428
䆊	-12.1428
靴	-12.1428
燻	-12.1429
鞮	-12.1429
衮	-12.1429
勇	-12.1429
礦	-12.143
糒	-12.143
軸者轉之主也水所由以下而為上也	-12.143
箠	-12.1431
戕	-12.1431
治畦下水一同葵法	-12.1431
粔	-12.1431
􁪾	-12.1431
臓	-12.1431
鎻	-12.1432
戀	-12.1432
龍首渠河内有史起十二渠	-12.1432
栘	-12.1434
霆	-12.1434
倂	-12.1434
星應車動以過添梯	-12.1434
昉	-12.1435
曙	-12.1435
飥	-12.1435
淛	-12.1435
萼	-12.1435
酤	-12.1435
載芟載柞其耕澤澤	-12.1436
艋	-12.1436
䔖	-12.1436
南北簇法俱未得中	-12.1436
軺	-12.1436
苃	-12.1436
侔	-12.1436
憎	-12.1437
莉	-12.1437
䆧	-12.1437
馗	-12.1437
簮	-12.1437
覇	-12.1437
暍	-12.1437
塩	-12.1437
渣	-12.1437
虜	-12.1437
芘	-12.1438
恕	-12.1438
盾	-12.1438
雙筩者水所由代入也	-12.1438
亳	-12.1438
藲	-12.1438
刊	-12.1439
鶤	-12.144
締	-12.144
儔	-12.144
雙提者水所由代升也	-12.144
䔛	-12.144
僞	-12.144
僵	-12.1441
䐑	-12.1441
摺	-12.1442
其美與蠶矢熟糞同	-12.1442
䑔	-12.1442
洿	-12.1442
鎭	-12.1443
囚	-12.1443
􁝐	-12.1443
黍心未生雨灌其心心傷無實	-12.1443
欬	-12.1443
飡	-12.1444
凛	-12.1444
蟊	-12.1444
廨	-12.1445
旭	-12.1445
嘔	-12.1445
蹇	-12.1445
櫺	-12.1446
驒	-12.1446
耕耙欲受種之地非勞不可	-12.1447
冕	-12.1447
嗤	-12.1447
鄞	-12.1447
駱	-12.1447
以溝蕩水以遂均水以列舍水	-12.1447
謡	-12.1448
勑	-12.1448
孱	-12.1448
㤗	-12.1448
和泥渥漉深埋禾苗根下漚罨既	-12.1448
生鈞州風谷頂山	-12.1448
愍	-12.1449
其密切而無滯也展轉之上下之猶是也	-12.1449
奥	-12.1449
若少遲慢一值隂雨即為災傷	-12.1449
醍	-12.1449
脛	-12.1449
徊	-12.145
糅	-12.145
孺	-12.145
磬	-12.145
澍	-12.145
痔	-12.1451
牘	-12.1451
䳱	-12.1451
苒	-12.1451
癃	-12.1452
楛	-12.1452
逵	-12.1452
蕾	-12.1452
偫	-12.1452
滸	-12.1452
檄	-12.1453
檖	-12.1453
瓝	-12.1453
天子諸侯必有公桑蠶室	-12.1453
罈	-12.1454
莒	-12.1454
窻	-12.1454
劵	-12.1454
瞞	-12.1456
欓	-12.1456
考工記匠人為溝洫耜廣五寸二耜為耦	-12.1456
萉	-12.1457
彗	-12.1459
蓍	-12.1459
篷	-12.1459
繄	-12.1459
丘城上皆可為區田	-12.146
峰	-12.146
恬	-12.146
柟	-12.146
莍	-12.1461
檠	-12.1461
檽	-12.1461
豵	-12.1461
菴	-12.1462
貎	-12.1462
踞	-12.1467
伶	-12.1467
柜	-12.1468
㩍	-12.1468
鍔	-12.1469
蹟	-12.147
蘟	-12.1472
鬛	-12.1475
必謹察之而加功焉	-12.1476
揔	-12.1476
頥	-12.1478
柸	-12.1481
盌	-12.1482
㙡	-12.1482
壏	-12.1483
􁉢	-12.1551
鎪	-12.331
倕	-12.3359
邸	-12.336
臀	-12.3361
夹	-12.3365
漓	-12.3366
颯	-12.3366
鈹	-12.3375
痼	-12.3377
甀	-12.3379
髭	-12.3383
䓗	-12.3385
娥	-12.3386
胷	-12.3387
蘢	-12.3389
陲	-12.3389
鑠	-12.339
蠏	-12.3396
誰謂爾無牛九十其犉	-12.3397
洶	-12.3398
鏹	-12.3398
爍	-12.3399
裊	-12.34
腤	-12.3401
告民出五種命農計耦耕事	-12.3403
抜	-12.3403
去其兄而養其弟不收其粟而收其	-12.3403
橢	-12.3403
纜	-12.3403
之漫散即勞勞訖引水停之至秋	-12.3405
瘧	-12.3405
鎗	-12.3405
姿	-12.3406
瀾	-12.3407
唧	-12.3408
舖	-12.3408
而芟之冬日至而耜之	-12.3408
睿	-12.3408
斲	-12.3409
酈	-12.3409
􁔁	-12.3409
羊一千口者三四月中種大豆一頃雜	-12.3409
俵	-12.341
􁀋	-12.341
憶	-12.341
撥動如箔上繭滿打起更攤一箔候	-12.341
晷	-12.341
䳺	-12.3411
庣	-12.3411
綉	-12.3411
蒐	-12.3412
黛	-12.3412
弋	-12.3413
豆生布葉鋤之生五六葉又鋤之	-12.3413
俛	-12.3413
有膏盡治之則傷膏傷則不成而	-12.3414
冬民既入婦人同巷相	-12.3414
梜榆刺榆凡榆三種色	-12.3414
槅	-12.3414
倌	-12.3414
恂	-12.3414
櫜	-12.3415
矯	-12.3415
桑十二月為上時正月次之二月為下	-12.3415
穣	-12.3415
鸞	-12.3415
中種者以陳屋草布壍	-12.3415
夜績女工一月得四十五日	-12.3415
煗	-12.3415
崔亮在雍州讀杜	-12.3415
直省志書宛平縣物産	-12.3415
穵	-12.3416
魃	-12.3416
瑪	-12.3416
孫叔均始作牛耕	-12.3416
史記禹乘四載泥行	-12.3416
㱕	-12.3416
用子二升漫種者先以耬耩然後	-12.3417
榻	-12.3417
蜚	-12.3417
初生三年不用採葉尤忌	-12.3417
見其為八磨嘉其有濟時用	-12.3417
為上小豆胡麻次之悉皆五六月	-12.3418
屠	-12.3418
粟楚漢相拒滎陽民不得耕	-12.3418
伴	-12.3419
栽一切樹木欲記其隂陽不令轉易	-12.3419
勞之榆生共草俱長	-12.3419
蒨	-12.3419
霂	-12.3419
婀	-12.3419
輅	-12.342
鴛	-12.342
田中不得有樹用妨五	-12.3421
噎	-12.3421
幪	-12.3421
順天時量地利則用力少而成功多任	-12.3421
嵇	-12.3421
壷	-12.3422
若寒熱不均後必眠起不齊	-12.3422
慚	-12.3422
属	-12.3422
蔭	-12.3422
五木者五榖之先欲知五榖但視五木	-12.3423
近必須與人居相連開	-12.3423
麺	-12.3423
㤙	-12.3423
所包土上條芽長出	-12.3423
皎	-12.3423
蕹	-12.3423
靄	-12.3423
竺	-12.3424
蜻	-12.3424
敺	-12.3424
麥禾不成則書之以此見聖人	-12.3424
䑓	-12.3424
蓄曰急無三年之蓄曰國非其國	-12.3424
瘙	-12.3424
者草根繁茂用功多而	-12.3424
之家度視地形築土作	-12.3425
紖	-12.3425
十五年後中為車轂及蒲桃	-12.3425
十年之後魁椀瓶榼器皿無所不任	-12.3425
日以外子鴨六七十日佳過此肉硬大率	-12.3425
處薄攤蛾自遲出免使抽繰相逼	-12.3425
鏉	-12.3425
如本篇二圖之甲乙	-12.3425
陀	-12.3425
聶	-12.3426
須使老樹肌肉與接頭肌肉相對著	-12.3426
駔	-12.3426
臚	-12.3426
鎬	-12.3426
嗉	-12.3426
新芽一發便長寸餘	-12.3426
泯	-12.3426
冢	-12.3426
啗	-12.3426
奶	-12.3426
諍	-12.3426
殳	-12.3426
泲	-12.3427
觚	-12.3427
作籠籠之先以粳米為粥	-12.3427
筲	-12.3427
芐	-12.3427
豇	-12.3428
蓲	-12.3428
蟣	-12.3428
恍	-12.3428
時不下連及縁上連背	-12.3428
醮	-12.3428
虇	-12.3428
緋	-12.3428
倩	-12.3429
笙	-12.3429
聘	-12.3429
量其力能寒温飲飼適其天性如不肥充	-12.3429
埏	-12.3429
拗	-12.3429
餦	-12.3429
餭	-12.3429
躭	-12.343
塸	-12.343
閹	-12.343
両	-12.343
仗	-12.343
伏不起者須五六日一與食起之令洗浴	-12.343
纏	-12.343
奕	-12.343
磈	-12.343
毨	-12.343
骸	-12.343
侮	-12.343
慘	-12.3431
田種弱苗以求華實	-12.3431
揖	-12.3431
䴸	-12.3432
漫散之即勞秋冬仍留麻勿刈為楮作	-12.3432
煥	-12.3432
善相丘陵阪險原隰土地所	-12.3432
恢	-12.3432
澼	-12.3432
種非連雨不生所以不同春月要求濕	-12.3432
袪	-12.3432
後魏高陽太守賈思勰撰	-12.3432
鐶	-12.3432
纘	-12.3433
捎	-12.3433
涵	-12.3433
屐	-12.3433
池中令水無聲魚必生至四月	-12.3433
榆性扇地其隂下五	-12.3433
一煖處以柔細草覆	-12.3433
科大如穊者五六月中霖雨時	-12.3433
多亦得雨少則生不盡但根細科小不同	-12.3433
下或漫散種或耬下一如種麻法亦有鋤	-12.3433
人摘以一家手力十不充一但駕車地頭	-12.3433
良三徧細耕三月中浸子令芽生乃畦	-12.3433
䈒	-12.3434
二月半種稻為上時三月為中時四月	-12.3434
及半為下時漬種如法裛令開口耬耩	-12.3434
皆令草失色其利勝藍若欲	-12.3434
酋	-12.3434
桌	-12.3434
民無職事者出夫家之征	-12.3434
厓	-12.3434
落時可種藍五月可刈藍六月	-12.3434
紘	-12.3435
雨後為佳遇小雨宜接濕種遇大雨待薉	-12.3435
雌鴨無令雜雄足其粟豆常令肥飽一鴨	-12.3435
洄	-12.3435
斨	-12.3435
棧上其棚下勿使驢馬糞及人溺又忌	-12.3435
熖	-12.3435
不畜者祭無牲不耕者祭無盛不	-12.3435
埓	-12.3435
洴	-12.3435
紇	-12.3435
賸	-12.3435
田然大率欲早早田倍多於	-12.3436
後魏裴延雋為幽州刺史	-12.3436
過使教田太常三輔	-12.3436
筌	-12.3436
槮	-12.3436
瘃	-12.3436
吻	-12.3437
􁵡	-12.3437
窨	-12.3437
使熟以水淘布袋絞去黄汁更	-12.3437
遁	-12.3437
刈穄欲早刈黍欲晚	-12.3437
糞種騂剛用牛赤緹用羊墳	-12.3438
土一和解夏至天氣始暑隂氣始盛土復	-12.3438
幇	-12.3438
悌	-12.3438
繆	-12.3438
陂潁川有鴻隙陂廣陵有雷陂	-12.3438
珣	-12.3439
一而當五名曰膏澤皆得時功	-12.3439
無流水曝井水殺其寒氣以澆之	-12.3439
後魏髙陽太守賈思勰撰	-12.3439
復一轉至春種稻萬不失一	-12.3439
笞	-12.3439
薛	-12.3439
還叢之三日一打四五遍乃盡耳	-12.344
蓷	-12.344
瘝	-12.344
蘗	-12.344
慱	-12.344
蓁	-12.344
棪	-12.344
䕩	-12.344
站	-12.3441
邁	-12.3441
區上為堆潤澤肥好乃勝春種	-12.3441
治畦下水糞覆悉與葵同	-12.3441
地内苫積天晴乘夜載上	-12.3441
浭	-12.3441
醂	-12.3441
宰以九職任萬民一曰三農生九	-12.3442
有小雨復耕和之勿令有塊以待時所謂	-12.3442
牋	-12.3442
弱米味有美惡粒實有息耗	-12.3442
槨	-12.3442
即攤一二車薄則易乾碾過一	-12.3442
芨	-12.3442
竑	-12.3442
翕	-12.3442
胏	-12.3442
鶻	-12.3443
姬	-12.3443
濮	-12.3443
斡	-12.3443
良之地青沙地亦善開荒黍穄下	-12.3443
賫	-12.3443
雖曰愛之其實害之雖曰憂之其實	-12.3443
雊	-12.3443
拄	-12.3444
囂	-12.3444
撏	-12.3444
亦須小厰以避雨雪春夏	-12.3444
祉	-12.3445
贄	-12.3445
賙	-12.3445
莅	-12.3446
誥	-12.3446
悠悠之論率以風土不宜為	-12.3446
擴	-12.3446
於旦暮潤時以耬耩作壟以手	-12.3446
蒢	-12.3446
龡豳雅擊土鼓以樂田畯	-12.3447
酳	-12.3447
也十月號陽月又曰小春木	-12.3447
彤	-12.3447
抳	-12.3447
饘	-12.3447
候口開乘車詣田	-12.3447
瀚	-12.3448
滾	-12.3448
寸以熟糞及土相和正月晦日種	-12.3448
之三沸漉去滓以汁漬附子五枚	-12.3448
大小麥皆須五月六月暵地	-12.3448
審其時月又合地方之宜使之不失其中	-12.3448
搧	-12.3448
令洞洞如稠粥先種二十日	-12.3448
濕至可種時以餘汁溲而種之則禾稼不	-12.3448
蘡	-12.3448
衾	-12.3448
𥙷	-12.3449
宓	-12.3449
𫀆	-12.3449
蜆	-12.3449
菢	-12.3449
楤	-12.3449
蜇	-12.3449
瀏	-12.345
㳟	-12.345
圮	-12.345
昩	-12.345
槀	-12.345
壝	-12.345
鮆	-12.345
熄	-12.3451
供食豚乳下者佳簡取别飼之	-12.3451
晹	-12.3451
卬	-12.3452
屆	-12.3452
欲開莩為下時先作麻紉	-12.3452
榝	-12.3452
庳	-12.3453
蠣	-12.3453
埧	-12.3453
皤	-12.3453
頤	-12.3453
一夜置霜露中即舂	-12.3454
是故三以為族乃多粟	-12.3454
區田以糞氣為美非必	-12.3454
趙過為捜粟都尉	-12.3454
取根者用大小麥底六月中種十月	-12.3454
薢	-12.3454
舛	-12.3455
豔	-12.3455
踪	-12.3455
堆食數口以馬踐過為種無虸	-12.3455
櫸	-12.3455
証	-12.3456
蒟	-12.3456
牖	-12.3456
昵	-12.3456
𥻘	-12.3457
引根并莖芟去葉於園内東北角種之令	-12.3457
􁄾	-12.3457
弃	-12.3457
區田不耕旁地庶盡地力	-12.3457
闋	-12.3457
凑	-12.3458
豶	-12.3459
髦	-12.346
聚十莖一處以布纒之五寸許	-12.346
煼	-12.3463
揣	-12.3464
藨	-12.3465
一耦之伐廣尺深尺謂之	-12.3465
獠	-12.3465
洱	-12.3466
塉	-12.3467
蜿	-12.3469
啚	-12.3469
蚶	-12.3471
猷	-12.3471
碣	-12.3471
烖	-12.3473
逞	-12.3473
洙	-12.3474
軼	-12.3474
絕	-12.3475
縋	-12.3477
痤	-12.3477
􁎐	-12.3479
洨	-12.348
蕺	-12.3483
䒩	-12.3483
坰	-12.3495
蓃	-12.3495
駉	-12.3503
騫	-12.5855
醲	-12.5859
莆	-12.586
􁁟	-12.5861
榱	-12.5863
逄	-12.5864
犉	-12.5867
衿	-12.5868
㾑	-12.5871
三日太史謁之天子曰某日立	-12.5875
蓯	-12.5879
杠	-12.588
鱖	-12.5881
麛	-12.5882
行耕耤禮親祭先農壇	-12.5882
痿	-12.5883
篁	-12.5886
尨	-12.5887
蹷	-12.5888
餈	-12.5889
啞	-12.5892
蔎	-12.5892
寠	-12.5892
䕫	-12.5892
黍或三四實實二米得黍三斛八斗	-12.5892
其日壬癸其帝顓頊其神𤣥㝠	-12.5893
顓	-12.5893
某項應用若干該價若干	-12.5894
鬲	-12.5896
寗	-12.5896
䩕	-12.5896
秋必須燥濕得所為佳若水旱不調寧燥	-12.5897
杳	-12.5899
比及月望數連一卷桑皮索繫定	-12.5899
嶲	-12.59
縐	-12.59
轡	-12.59
乃擇元辰天子親載耒耜	-12.59
廡	-12.59
蓽	-12.5901
呪	-12.5901
撡	-12.5902
冬初梓角熟時摘取曝乾打取子耕地作	-12.5902
石至數萬而豪傑金玉盡歸任氏任氏以	-12.5903
檆	-12.5903
者初草實成時收刈雜草薄鋪使乾勿令	-12.5904
㐫	-12.5904
匆	-12.5904
㐭	-12.5904
二寸以水澆之足踐令保澤取五芋子	-12.5904
取區上濕土與糞和之内區中萁上令厚	-12.5904
其日丙丁其帝炎帝其神祝融	-12.5904
水道相直夏至後大熱令水道錯	-12.5905
倅	-12.5906
土壤氣脉其類不一肥沃磽	-12.5906
凡伐木四月七月則不蟲而堅	-12.5906
長也欲相與居其熟也欲相	-12.5906
筴	-12.5906
卞	-12.5906
撇	-12.5907
耕耬下以為良澤多者耬耩漫擲而勞之	-12.5907
蓿	-12.5908
既至冬寒多饒風霜或春初雨落	-12.5908
草未生時則須飼不宜出放	-12.5908
恠	-12.5908
千樹則足柴十年以後髠一樹得一載	-12.5908
蟆	-12.591
鼉	-12.591
菅茅之地宜縱牛羊踐之	-12.591
􁲑	-12.5911
壤之地信美矣然肥沃之過	-12.5911
為粃是故其耨也長其兄而去其弟	-12.5911
每天雨時即觸雨折取春生少枝長	-12.5911
櫾	-12.5911
盛其精者精粗各適所受不可易也	-12.5911
詘	-12.5912
春始生而萌之夏日至而夷之秋繩	-12.5913
圏中作臺開竇無令停水二日一除	-12.5913
燖	-12.5913
洑	-12.5913
白地種二三月為上時四月上旬為中	-12.5913
後五十日發取量之息最多者	-12.5913
炙曝天寒於火上熬過拌菜食之味頗辛	-12.5913
蠢	-12.5913
蹊	-12.5913
刈甫畢無以餬口者其能給終嵗之用乎	-12.5913
稀豁之處鋤而補之凡五榖	-12.5913
飫	-12.5913
底為上麻黍胡麻次之蕪菁大豆為下	-12.5913
隂之地開坎圓三尺深一尺熟斸著糞	-12.5914
扳	-12.5914
笥	-12.5914
亦籮屬比籮稍匾而	-12.5914
必用兩牛三牛或四牛以一人執之量牛	-12.5914
擯	-12.5914
雜木唯有果實者及望而止	-12.5914
豢	-12.5915
黠	-12.5915
巽	-12.5915
世無窮比之農夫勞逸萬倍去山逺者實	-12.5915
抗	-12.5915
共相蹙迫交柯錯葉特	-12.5915
樹訖以水沃之著土令如薄泥東西南北	-12.5915
鐵為管施之柱首迤而	-12.5915
試之如手不禁熱可取去底扇	-12.5916
北地不見此種若於附近	-12.5916
逡	-12.5917
砲	-12.5917
擿	-12.5917
謳	-12.5917
餱	-12.5917
凡栽樹訖皆不用手捉及六畜	-12.5917
早種者必秋耕十月末地將凍散子勞之	-12.5917
毗	-12.5917
者非能耕而食之織而衣之	-12.5917
其日甲乙其帝太皥其神勾芒	-12.5917
笳	-12.5917
魄	-12.5917
面訪學栽植甚得濟用	-12.5917
點	-12.5918
系	-12.5918
綻	-12.5918
勛	-12.5918
即編其種榆莢者一同酸棗如其栽榆與	-12.5918
攣	-12.5918
輛	-12.5918
之南方人畜耐暑其耕四時皆以中	-12.5918
菵	-12.5918
簌	-12.5918
巍	-12.5918
上又以桐葉平鋪如此重重隔之以至滿	-12.5919
埋大甕地上甕中先鋪竹	-12.5919
耑	-12.5919
囬	-12.5919
瞭	-12.5919
旻	-12.5919
癤	-12.5919
此號内十丈河身中共該起土幾何方數	-12.592
韌必待其朽腐易為牛力	-12.592
匪直盪汰不生兼與草薉俱出凡田欲早	-12.592
沖	-12.592
畵	-12.592
聯	-12.592
侑	-12.592
茼	-12.5921
郝	-12.5921
宸	-12.5921
深掘以熟糞對半和土覆其上令厚一寸	-12.5921
蔨	-12.5921
接博其法有六一曰身接	-12.5921
正月二月中取弱栁枝大如臂長一	-12.5921
掌療獸病凡療獸病灌而行之以發其惡	-12.5921
胠	-12.5921
豚狗彘毋失其時女	-12.5921
㑭	-12.5921
鑵	-12.5921
咼	-12.5921
之至明年四月又耕熟勿令有塊即作	-12.5922
治畦下水一如葵法五寸下一子少與熟	-12.5922
苘	-12.5922
令起斫去浮根以蠶矢糞之	-12.5922
細又實立根在細實土中又碾過根土相	-12.5922
皥	-12.5922
慣熟不用人止一人輕扶	-12.5922
誣	-12.5922
三四次出以糞苧因以肥桑愈	-12.5922
十五日草爛得轉并種耕三	-12.5922
躁	-12.5922
閬	-12.5922
櫓	-12.5922
禮記月令孟春之月禁止伐木	-12.5922
絮製新浣故及韋履賤好預買以備冬寒	-12.5922
舴	-12.5922
之後根交當隔一尺許斸一钁即滋旺矣	-12.5922
矍	-12.5922
苗葉似豇豆葉肥大開淡粉紅花結角	-12.5922
儈	-12.5922
夏至後二十日漚枲枲和如絲	-12.5923
獐	-12.5923
擇其木盛者來年多種之萬不	-12.5924
霈	-12.5924
轄	-12.5924
摙	-12.5924
霰	-12.5924
耽	-12.5924
軹	-12.5924
成好葦十月後刈之一法二月熟耕地作	-12.5924
摥	-12.5924
窐	-12.5924
羔小未食常飲熱乳所以亦惡	-12.5924
鏊	-12.5924
取墐土作熟泥封之如三指大長二寸使	-12.5924
溯	-12.5925
扎	-12.5925
瞽	-12.5925
廐	-12.5925
柞氏掌攻草木及林麓夏日至令	-12.5925
等並須收貯一處每日布牛	-12.5925
菀窳婦人寓氏公主	-12.5925
莵	-12.5925
㰅	-12.5925
墅	-12.5925
季夏之月樹木方盛乃命虞人入山行木	-12.5925
鴨六年以上老不復生伏矣宜去之少者	-12.5925
小竅使通出入另開一小門泥封時時開	-12.5925
水盡燥濕得所時急耕則	-12.5925
艽	-12.5925
酓	-12.5925
櫠	-12.5925
簀	-12.5925
藁草細剉之和以麥麩	-12.5925
霪	-12.5925
夫區方九寸深六寸相去二尺一畝	-12.5925
翺	-12.5925
麧	-12.5925
時調其宜適卜式云牧民何異於是	-12.5926
竹及名國萬家之城帶郭千	-12.5926
堦	-12.5926
聖祖御製幾暇格物編	-12.5926
春夏早起與雞俱興秋冬晏起必	-12.5926
耕者除種粟地外其餘黍豆等地春耕亦	-12.5926
秋天氣寒冷有霜時必待日	-12.5926
鬢	-12.5926
仲冬之月日短至則伐木取竹箭	-12.5926
觱	-12.5926
夫區方深各六寸間相去九寸一	-12.5926
與人膝等莖葉皆美科雖不	-12.5926
三千七百區一日作千區區種粟二十粒	-12.5926
之側必置糞屋低為簷楹以避風雨飄浸	-12.5926
去牢欄中積滯蓐糞	-12.5926
䴽	-12.5926
務令稻根之傍液液然而後已	-12.5926
悮	-12.5927
楟	-12.5927
礲	-12.5928
然後以粟飯切苦菜蕪菁英	-12.5928
窠中令煖先刻白木為卵形窠别	-12.5928
巔	-12.5928
根三十石有草鋤不限徧數鋤時	-12.5928
為種者即在地中勿掘之待	-12.5928
羊有疥者間别之不别相染	-12.5928
雒	-12.5928
鴨皆一月雛出量雛欲出	-12.5928
種五石其種還用三月中掘取者逐犁後	-12.5928
一升收粟五十一石一日作三百區下	-12.5928
仲冬斬陽木仲夏斬隂木	-12.5928
种	-12.5928
菽粟古人豈重畜如此哉以此為衣食之	-12.5928
􁊼	-12.5928
璞	-12.5928
揠	-12.5929
㫰	-12.5929
懊	-12.5929
其實亦鹵莽而報予芸而滅裂之	-12.5929
芣	-12.5929
樑	-12.5929
以土壓上令兩頭出土向上直	-12.5929
或能合羣致死羊疥先著口者難治多死	-12.5929
生苗訖至八月盡九月初根成中染若須	-12.5929
銖	-12.5929
之五年之後便堪作椽不梜者即可斫賣	-12.5929
幄	-12.5929
柁	-12.5929
用種二升秋收區别三升粟	-12.5929
篙	-12.5929
稰	-12.5929
穛	-12.5929
羝少則不孕羝多則亂羣不	-12.5929
箝	-12.593
稹	-12.593
訝	-12.5931
田常以五月耕六月再耕七月勿耕	-12.5931
翟	-12.5931
分摘正須平量中半分取是以單夫隻	-12.5931
區用種六升收二十八石一日作二百區	-12.5931
得入窖夏還出之但不濕亦得五六年停	-12.5931
硏	-12.5931
蕙	-12.5931
陽木生山南者隂木生山北者冬	-12.5931
燒馬蹄羊角成灰春散著濕地羅勒乃生	-12.5932
腑	-12.5932
四月五月種者為穉禾二月上旬及麻菩	-12.5932
周禮天官食醫凡㑹膳食之宜	-12.5932
耕地至春又轉耕之三月種之耬耩地逐	-12.5932
騮	-12.5932
人掌土化之法以物地相其宜而為之種	-12.5932
伎	-12.5932
五年任為屋椽十年堪為棟	-12.5932
地為上兩和地為次園圃内種之如無園	-12.5932
羊膿鼻眼不淨者皆以	-12.5932
禮記吕氏月令季冬出土牛示農耕早晚	-12.5932
黶	-12.5932
簞盛種竹器也其量可容數斗形如	-12.5932
蒋	-12.5932
抃	-12.5932
銃	-12.5932
奨	-12.5932
抌	-12.5932
棫	-12.5932
菠薐作畦下種如蘿蔔法春正月二月	-12.5933
凱	-12.5933
狥	-12.5933
譏	-12.5933
三兩日即生又法畦中下爛糞取	-12.5933
凡下田停水處燥則堅垎	-12.5933
倮	-12.5933
種法與蕪菁同既生亦不鋤之	-12.5933
霜下實成速斫之其樹大者以鋸鋸之	-12.5933
四千三百二十株三年中為蠶	-12.5933
伏時大鵝一十子大鴨二十子小者	-12.5933
藺之土甚輕者以牛羊踐之如此則土	-12.5933
偕	-12.5933
生血勞血勞則發强行何以察五勞終日	-12.5933
賚	-12.5933
駛	-12.5933
㔇	-12.5933
􁱦	-12.5933
凡稼澤夏以水殄草而芟夷之	-12.5933
戩	-12.5933
者皆魯之類也荆之類根固而心實能	-12.5933
至來春春分時甜水浸子十日治畦下水	-12.5934
堕	-12.5935
為中時五月初為下時大率二尺留一	-12.5935
亦善樹一升天旱以流水澆之	-12.5935
悵	-12.5935
頭牡鯉魚長三尺者四頭以二月上庚日	-12.5935
澤少者暫浸即出不得待	-12.5935
麥麥時水澇不得納種者九月	-12.5935
𬞞	-12.5935
檁	-12.5935
過者無病不能過者入瀆中行過便别之	-12.5936
麻子地間散蕪菁子而鋤之擬收其根	-12.5936
霄	-12.5936
汗不乾則生皮勞皮勞者𩥇而不振汗未	-12.5936
胊	-12.5936
鏟柄長二尺刄廣二寸以剗地除草此	-12.5936
氣勞也噴而不溺者血勞也筋勞者兩絆	-12.5936
稴	-12.5936
耬種後惟用砘車碾之然執耬種者亦須	-12.5936
穧	-12.5936
裒	-12.5936
遷延過時秋苗亦誤鋤治	-12.5936
酇	-12.5936
亦如此二年之後三月中帶土移	-12.5936
攴	-12.5938
至焉時雨降焉始之耕田終之簠簋惰者	-12.5938
者骨勞也起而不振者皮勞也振而不噴	-12.5938
澤草所生種之芒種是也芒種有二義鄭	-12.5938
田旱稻自種至收不過五六月其間	-12.5938
蓀	-12.5938
不喘以發散藥投之熱結即鼻汗而喘以	-12.5938
節後十日封生薑至四月立夏後蠶大食	-12.5938
薥稭籬以禦北風畦内亂撒麥糠覆樹令	-12.5939
驚蟄前後五日斬新枝斸阬入枝下泥杵	-12.5939
持刀劍者使賣劍買牛賣刀買犢	-12.5939
劾	-12.5939
當年之中即與麻齊麻熟刈去獨留槐槐	-12.5939
少加厚變青則正食宜益加厚	-12.5939
種桑法五月取椹著水中即以手漬之以	-12.5939
者令人牽之起從後笞之起而已皮勞者	-12.5939
䒒	-12.5939
四五次此可力致其常稔也	-12.5939
孔用木釘釘之泥封竅即結	-12.5939
耻	-12.5939
萬物因時受氣因氣發生	-12.5939
賂	-12.5939
䟦	-12.5939
於山阜之曲三徧熟耕漫散橡子即	-12.5939
杙	-12.5939
畔周匝小渠子深四五寸以水停之令其	-12.5939
區用糞土相合内區中水調成稀泥植栽	-12.5939
蕦	-12.5939
樆	-12.594
八月初天晴時摘葉薄布曬令乾可以染	-12.594
曺	-12.594
沬	-12.594
慝	-12.594
氣未寒將陽和之氣掩在地中其苗易榮	-12.594
水面以葑泥附木架上而種	-12.594
浙西諸郡蘇松最居下流太湖綿亘數百	-12.594
簫	-12.594
籔	-12.594
所種樹或移徙無不活且碩茂早實以蕃	-12.594
如欲出種留食不盡者八月收子	-12.5941
盃	-12.5941
若移大栽者二月三月中移之先作熟	-12.5941
梮	-12.5942
㯠	-12.5942
逈	-12.5942
其春耕者殺種尤甚故宜五六月	-12.5942
兩三宿竪頭著日中曝之令浥浥然	-12.5942
一時辰約飼四頓一晝夜通飼四十	-12.5942
㹠	-12.5942
一石受一石者得收十石先掘地作坑方	-12.5942
之前末曰槃言可轉也左右繫以樫乎軛	-12.5942
寸一子篩土覆之令厚寸許復篩熟糞以	-12.5942
歷	-12.5942
種榖必雜五種以備災害	-12.5942
䔅	-12.5942
二月種之可為常食秋社前一二日種者	-12.5942
下剸去枝三二層樹記南北運至區	-12.5942
土上旱輒澆之常令潤澤生	-12.5942
用泥泥之不過數日纒處便合為一莖留	-12.5942
節可種薄田秋分種中田後十日種美田	-12.5943
尢	-12.5943
春若遇旱秋耕之地得仰壟待	-12.5943
農三輔太常民皆便代田用力少而得	-12.5943
時何謂也一曰惡芻二曰中芻三曰善芻	-12.5943
間令滿外復以草圍之以葛	-12.5943
為農者可不趨時致力以成其終而自廢	-12.5943
記曰種而不耨耨而不穫譏其不能圖功	-12.5943
中間白色味甜性微寒本草有沙參苗葉	-12.5943
叶	-12.5943
鄜	-12.5943
㠯	-12.5943
州里有千頭木奴不責汝衣食嵗上一	-12.5943
疃	-12.5943
霓	-12.5943
數寸夏連雨時可移之移法先作小	-12.5944
餞	-12.5944
三年内每到十月常須草裹至二月	-12.5944
嚮	-12.5944
收條中子種者一年為獨瓣	-12.5944
矇	-12.5944
第一次曰撮苗第二次曰布第三次曰	-12.5944
如小指檜枝長一尺五寸許下削成馬耳	-12.5944
寸以上栽宜稠密常澆令潤澤上	-12.5944
五町町間分為十四道以通人行道廣一	-12.5944
區種不先治地便荒地為之以	-12.5944
即下瓠子十顆復以前糞覆之既生長二	-12.5944
慨	-12.5944
碶	-12.5944
䏶	-12.5944
栽松春社前帶土栽培百株百活	-12.5945
訶	-12.5945
酎	-12.5945
三年正月移而植之亭亭條	-12.5945
欲旦起避熱時良地三	-12.5945
梵	-12.5945
梣	-12.5946
汧	-12.5946
璿	-12.5946
寵	-12.5946
春夏畦種供食者與畦葵法同	-12.5946
時雨降可種大小豆美田欲稀薄田欲稠	-12.5946
季終赴縣逓改行従善結	-12.5946
脿	-12.5946
黍心初生畏天露令兩人對持長索	-12.5947
廠	-12.5947
古稱澤國其西南翕受太湖陽城諸水	-12.5947
樹生宻縣梁家衝山谷中樹髙	-12.5947
生即去箔常令足水六月連雨	-12.5947
裁截碎木中作錐刀靶	-12.5947
四釐五毫七絲六忽	-12.5947
籓	-12.5948
二月七月種種法以升盞合地為處布子	-12.5948
毋使露樹至春去土次年不	-12.5948
謐	-12.5948
登非不利也然王者法禁之為其殘桑也	-12.5949
三老力田及里父老善田者受田器學耕	-12.5949
峒	-12.5949
􁋲	-12.5949
歐	-12.5949
煴	-12.5949
濓	-12.5949
小蒜六月七月可種小蒜八月可種大蒜	-12.5949
為中時中旬為下時先放水十日後曳	-12.5949
筤	-12.5949
春種小小供食者自可畦種	-12.5949
眠後十五六頓即老得絲多少全在此數	-12.5949
蝗蟲無馬骨亦可用雪汁雪汁者五	-12.5949
隧	-12.5949
犇	-12.5949
竿稍大者截去近根三尺許通其節以糞	-12.5949
荽子一日三度以水沃之二三	-12.5949
閷	-12.5949
㨿	-12.595
殽	-12.595
幃	-12.595
乾明日復溲天隂雨則勿溲六七溲而止	-12.595
湖又開吳淞江并大石趙屯等浦洩澱山	-12.595
皮木之際令深一寸許折取其	-12.595
闓	-12.595
厚五寸竹忌手把及洗手面脂水澆	-12.595
根無不向南必用雨下遇	-12.595
死花結實如稗謂之竹米一竿如此	-12.595
璫	-12.595
艘	-12.595
萪	-12.595
有西風則不可花木亦然諺云栽竹無時	-12.5951
茂而實不堅磽确之土	-12.5951
秒	-12.5951
􁁙	-12.5951
正月種春大麥二三月種山藥芋子三四	-12.5951
椈	-12.5951
繁茂而甜脆勝野生者	-12.5951
天旱燥時溲之立乾薄布數撓令	-12.5951
沅	-12.5951
地中令曲如橋十年之後便是渾成柘橋	-12.5951
參夕杏花盛桑椹赤可種大豆謂之上時	-12.5951
夢溪云種竹但林外取向陽者向北而栽	-12.5951
小枝樹形可喜五年方結子	-12.5952
凡欲識雌雄當自根上第一枝觀之有	-12.5952
記取南枝志林云竹有雌雄雌者多	-12.5952
陁	-12.5953
羗	-12.5953
十夫有溝溝上有畛百夫有洫洫上有涂	-12.5953
䖝	-12.5953
之則禾不蟲又取馬骨剉一石以水三石	-12.5953
四日去附子以汁和蠶矢羊矢各等分撓	-12.5953
為秋菜如欲出種春菜食不盡者可為子	-12.5953
傷苗如此令地熟軟易鋤省力	-12.5953
湫	-12.5953
阞	-12.5953
􁆜	-12.5953
脞	-12.5954
搐	-12.5954
滕	-12.5954
散蠶訖又薄以薪覆之一槌得安十箔	-12.5954
蚕	-12.5954
瀑	-12.5954
者五萬枚長四尺者四萬枚留長二尺者	-12.5954
挟	-12.5954
以萬夫耕者授以萬夫之田為萬夫之長	-12.5954
此時二十日以後和氣去即土剛以	-12.5954
候實開便收之挂著屋裏壁上	-12.5954
偉	-12.5955
痟	-12.5955
窈	-12.5956
漢桓帝詔曰横水為災五	-12.5956
􁟧	-12.5956
䅽	-12.5956
迦	-12.5956
之仍即下水十日塊既散液持木斫平之	-12.5956
㵸	-12.5957
盅	-12.5957
二十日尚可種戴甲而生不用深耕大豆	-12.5957
及其蟊賊無害我田穉田祖有神秉畀	-12.5957
而稀豆花憎見日見日則黄爛而根焦也	-12.5957
堯命羲和厯象日月星辰	-12.5957
媮	-12.5957
騧	-12.5957
芴	-12.5957
莜	-12.5958
其地爽潤上有油土四指許春雖	-12.5958
故田多墾闢過試以離宫卒田其宫壖地	-12.5958
園中築作小屋覆雞得養子烏不得就	-12.5958
譴	-12.5958
形勢尤卑而東北際海岡隴之地	-12.5958
豨	-12.5958
溧	-12.5958
水芟之草悉膿死稻苗漸長復須薅	-12.5959
䅘	-12.596
湯有旱災伊尹作為區田教民糞種	-12.596
且溉且糞長我禾黍衣食京師億萬之口	-12.596
鄭國在前白渠起後舉	-12.596
陕	-12.596
齊明與我犧羊以社以方我田既臧農夫	-12.596
䓈	-12.596
蓊	-12.596
良熟七月種之畦種水澆一如韭法	-12.5961
䓤	-12.5961
泮	-12.5961
槭	-12.5961
簳	-12.5961
钃	-12.5962
恚	-12.5962
此物長生種者一勞永逸都邑負郭所	-12.5962
畤	-12.5962
洺	-12.5962
府古兖豫二州角亢分野	-12.5962
鸎	-12.5963
厥土惟塗泥厥田惟下下	-12.5964
蠐	-12.5964
同時非夏者大率以椹赤為候	-12.5964
涖	-12.5965
尺半亦打去心葉葉不空開花結實直待	-12.5965
酲	-12.5965
鋼	-12.5965
匯	-12.5965
荵	-12.5965
槲	-12.5967
縓	-12.5967
葐	-12.5967
蹼	-12.5967
六釐六毫六絲六忽零	-12.5967
􁣊	-12.5967
白露俱下酢漿令麥耐旱蠶矢令麥忍寒	-12.5968
噬	-12.5969
邏	-12.5969
六十五萬七千八百五十六尺	-12.5969
朧	-12.5971
碎炊作飱甚滑細磨下絹簁作餅亦滑美	-12.5971
之槩之次日以後皆如之候其乾十分之	-12.5971
豱	-12.5971
貉	-12.5972
讐	-12.5973
朦	-12.5974
濶六百十二尺自之得積一百一十	-12.5974
豝	-12.5974
槍	-12.5975
淆	-12.5975
四十六萬七千九百零四尺	-12.5975
㪚	-12.5975
䅞	-12.5975
􁖩	-12.5975
狡	-12.5976
䉡	-12.5976
婚	-12.5976
埭	-12.5976
􁈱	-12.5976
仭	-12.5976
􁇊	-12.5976
艷	-12.5978
梁州厥土青黎厥田惟下上	-12.5978
荆州厥土惟塗泥厥田惟下中	-12.5978
灃	-12.5978
㓕	-12.5979
汊	-12.598
􁐍	-12.598
里開方計之八八六十四	-12.5982
讟	-12.5982
蕣	-12.5983
燧	-12.5985
觳	-12.5986
屍	-12.5986
迺	-12.5987
邍	-12.5996
簵	-12.5998
杇	-12.6003
兇	-12.6022
䬃	-12.6044
縭	-12.9113
粿	-12.9136
椌	-12.915
瓨	-12.916
秖	-12.9165
雝	-12.9169
鸝	-12.9171
纚	-12.9173
喁	-12.9173
离	-12.9175
顒	-12.9175
緞	-12.9177
腄	-12.9181
葹	-12.9183
䴷	-12.9184
穠	-12.9188
桷	-12.9189
砌脚三層上用地伏磚扁砌	-12.9189
喝	-12.9192
圬	-12.9197
洚	-12.92
沭	-12.9201
昶	-12.9201
絲老翁上清絲約十五絲之上	-12.9202
瀧	-12.9204
菡	-12.9204
饗農及郵表畷禽獸仁之至義之盡也	-12.9204
琦	-12.9206
用耆老一人牽牛農夫二人扶犁	-12.9206
匈	-12.9207
􁍍	-12.9208
草茂可燒灰是月也可作棄蛹以禦	-12.9214
綈	-12.9214
用漆油作諸日煎藥可糶黍買布四月繭	-12.9216
賅	-12.9216
揫	-12.9216
黍桑當俱生鋤之桑令稀疏調適黍熟	-12.9216
提之柱其相去也視雙筩雙提之上枘入	-12.9216
衡而無定度圜其尾去首二尺而圜其	-12.9216
鹽水中洗菜即内甕中若先用淡水洗者	-12.9218
鑲	-12.9218
棋	-12.9218
旋覆花一名戴椹一名金沸草一名盛椹	-12.9218
諾	-12.922
草即鋤之旱即灌之冬芥經春長心	-12.922
皆七月芟艾之草乾即放火至春而開墾	-12.922
蠶房槌箔上從頭合籠内繭在上用手	-12.922
之上端上端者三圖之坎艮也	-12.922
畸	-12.9222
以小衡為弦句股之交立之柄持其柄而	-12.9222
周禮曰㮚氏為量改煎金錫則不耗	-12.9222
警設守備以禦春饑草竊之	-12.9222
溠	-12.9222
之儲莫不各節其用以濟凶乏此固知堯	-12.9222
甲乙丙丁盤也丙丁為孔以合	-12.9222
日一覆十日除一次牛一具三隻	-12.9224
蠶沙乾桑葉水三桶浸之牛下餉噍透刷	-12.9224
亦大開淡粉紫花結角似家豌豆角但秕	-12.9224
軟了絲頭亦不要蒸得不及不及則蛾必	-12.9226
闌	-12.9226
暉	-12.9226
之用餘多者倉箱之富餘少者儋	-12.9226
磨具七日遂作麴及曝經書與衣	-12.9226
蓖	-12.9226
壟漫散即再勞之明年春生有草	-12.9227
熟時收取子和濕沙土拌筐籠盛之穰草	-12.9227
爾即凍不生至二月中出種之於樹下或	-12.9227
挐	-12.9227
圌	-12.9227
中筩之徑等管之長無定度其下迤也及	-12.9228
東井井之水人所汲用缶楊惲	-12.9228
洌	-12.9228
田家作苦嵗時伏臘烹羊炰羔斗酒自勞	-12.9228
涷	-12.9228
峴	-12.9228
錡	-12.9228
布菜一行以䴷末薄坌之即下熱粥清重	-12.9229
摸	-12.9229
暎	-12.9229
蠶沙澆擁之又不可太多恐根嫩故也大	-12.9229
取清絲約量添加務要兩絲窩大小長均	-12.9229
之勢也五曰盤鍊銅或錫以為盤中盤之	-12.9229
其上以竹木焉續之竹木之筩之徑必與	-12.9229
孔以當中筩之上端融錫而合之盤	-12.9229
徑等其上出之徑寧縮也無贏也水之入	-12.9229
梁横亘焉梁之上為二陷以居雙筩之	-12.9229
黴	-12.9229
家園圃亦多栽種樹髙丈餘葉似櫻桃葉	-12.9229
苜	-12.923
縱遇根株不至擘缺妨誤工力或地	-12.9231
草雞或一隻或二隻退毛不用肚腸懸掛	-12.9231
開十五箔擡飽食二十箔大眠擡三十箔	-12.9231
媒	-12.9231
篇三圖之坎艮庚辛是也上出之徑必縮	-12.9231
長筩旁管之徑等中筩之下端為敞口以	-12.9231
五上以方木管之立柱各通一軸軸端俱	-12.9231
其數九其味辛其臭腥其祀門祭先肝	-12.9231
絶又可蓄為魚塘蓮蕩其利亦博或貫穿	-12.9231
苦病少繭成一室之功也然寒不可驟加	-12.9231
邑巷陌及注之園囿池沼悉周於用雖	-12.9231
也凡桑者欲得逺揚枝葉引近就摘故用	-12.9231
茡	-12.9231
龕狀如三星務要玲瓏頓藏熟火以通	-12.9231
之端或居外或居内為刻而受之如為溝	-12.9231
榖粟耗竭無餘一遇小歉則舉貸出息	-12.9231
環之束在兩端者與木環相抵卯午也	-12.9231
其數七其味苦其臭焦其祀竈祭先肺	-12.9231
洛山谷今鈞州鄭州山野中亦有之	-12.9231
皆可便食是用接新代飯充飽	-12.9232
田器養耕牛選任田者以俟農事之起去	-12.9233
鮝	-12.9233
深開溝壠洩水水浸根必死三年後收茶	-12.9233
引水而至若别無隔礙則當踏視地形用	-12.9233
餾繰冷盆絲其繭薄紋理細者必繰不快	-12.9233
之孔融錫而合之其長無定度量水之出	-12.9233
人掉軸一人喂上棉英二軸相軋則子落	-12.9233
作甃穴上覆元土亦是一法如灌	-12.9233
漢志云十升為斗斗者聚升之量也	-12.9233
環以繩約之而塗之齊與劑同合以塗	-12.9233
癢	-12.9233
而窄小微尖開淡粉紫花結小角其豆似	-12.9233
以受雨露也圍其合也欲無罅圍之合	-12.9233
如本篇三圖之卯寅辰午等是也環以堅	-12.9233
小刺葉似杏葉頗團小開白花結實如葡	-12.9233
粕	-12.9233
至春凍釋於山陂河坎之旁刈取箕	-12.9233
鼕	-12.9233
年中即髙一丈餘其旁生枝葉即搯去令	-12.9234
樹千錢柴在外車板盤合樂器所在任用	-12.9234
之其根即死而易朽又有經暑雨後用牛	-12.9235
菜茹有畦𤓰瓠果蓏殖於疆	-12.9235
兩頭以木箄貫之後用手執為柄前用作	-12.9235
亢之間是也雖下向必入者以迤故水趨	-12.9235
則用之是者暑日架之則以苫蓋之水入	-12.9235
圍也既其出則在卯寅辰午之間矣一法	-12.9235
布囊盛粟等諸物種平量之埋隂地冬至	-12.9235
暑日也為下而欲速成則用之欲解而時	-12.9235
洗者鹽醋浸潤氣徹則皺器便壞矣其朱	-12.9235
糭	-12.9235
者孔在環之内軸之外四柱之中	-12.9235
艶	-12.9235
􁢌	-12.9235
山色此必收之種也若頂平焦乾及蒼黄	-12.9235
是也若兩中環者則在尾與箕也或不用	-12.9235
朱本和油性潤耐日故盛夏連雨土氣蒸	-12.9235
上有短銎以受鋤鉤鉤如鵝項下	-12.9235
之中餓死過半假有在者疥瘦羸	-12.9235
功出水當五分之一今省十九焉是不憂	-12.9235
圍故水入螺旋之孔而不絶無罅故水行	-12.9235
如斸是名钁鋤故陸田多不豐收今表此	-12.9235
廣而合之則角見也其内面稍刳之以就	-12.9235
惴	-12.9235
田舉皆用此江淮間雖有陸田習俗水種	-12.9235
鍪	-12.9235
長以兩環約之圍之版其相合也與其合	-12.9235
其子作米可食餘及牛馬又可濟荒其	-12.9236
色生好粉黍米粥清亦用絹篩麥䴷末澆	-12.9237
絜	-12.9237
大小籠内匀鋪繭厚三四指許頻	-12.9237
綫	-12.9237
箕星好風謂主簸揚農家所以資其用也	-12.9237
維南有箕載翕其舌故箕皆有舌易	-12.9237
而上溢其終無出也而有筩之容以俟其	-12.9237
一復時可六頓次日可漸漸加葉可開捲	-12.9237
之開圍板之下端而水入之開上端之圓	-12.9237
勰	-12.9237
取精集韻作簛又作簁或作篩其制有	-12.9237
房前有簷楹謂之明厦倉為總名	-12.9237
秬黍中者千二百實其龠以井水凖其	-12.9237
似如有膚羊羔乳食其母比至正月母皆	-12.9237
其長酌全體之重輕而制厚薄焉其長竟	-12.9237
十五日薄滋味勿多食肥醲距立秋無食	-12.9237
四月上旬及棗葉生桑花落為下時嵗道	-12.9237
平衍率多洿下一有數日之雨即便淹	-12.9237
渠焉累接而上可使在山是不憂	-12.9237
煩用力少而得水多其大者一器所出若	-12.9237
田築為堤塍而出之計日可盡是不憂潦	-12.9237
箔上已後節節病生多因此弊今後比及	-12.9237
能獨食水草㝷亦俱死非直不滋息或	-12.9237
豆胡麻糴穬大小麥收弊絮及布帛至後	-12.9237
過以鈹刀子刺空中皮令突過以手當	-12.9237
􁗰	-12.9237
覆之時用泔澆灌越數時則以槌棒擊樹	-12.9238
一一單排日數既足其蛾自生免熏罨	-12.9238
擇治淨洗沸湯煠即出於水中淨洗	-12.9239
之又束之者水力大而易渫也四曰中筩	-12.9239
圖之乙丙是也二孔者未申也酉	-12.9239
細淺則務盡草根深則不至塞墢	-12.9239
再耕曰轉生者欲深而猛熟者欲淺而	-12.9239
如本篇二圖甲乙丙丁形是也	-12.9239
其蒸餾之法用籠三扇用軟草札一圏加	-12.9239
半焉如雙筩共容四升則壺容六升也弇	-12.9239
為木也無味水不受之變梁在其下	-12.9239
車所由孔安而利用也故曰架者所以居	-12.9239
其枝莖生樵爇燭明而無煙	-12.9239
列仙傳云赤松子食栢子齒落更生採	-12.9239
初向黄時宜極暖眠定宜暖起齊宜微暖	-12.9239
也六寸所以入苗間廣雅又云定謂之耨	-12.9239
愆則有辟是也凡紡絡經緯之有數梭	-12.9239
氈	-12.9239
甬	-12.9239
積所在内外材木露者悉宜灰泥塗飾以	-12.9239
能變惡為美種少收多諺云糞田勝如買	-12.9239
腐朽之物人視之而輕忽田得之為膏潤	-12.9239
遹	-12.9239
以舞魚魚振添梯故絲不過偏	-12.9239
冬藏濕又分減栽時併忙區方深各二尺	-12.9239
即兹器所在不為無功已獨其人終	-12.9239
左右民之一事今世江南之民皆雜蒔諸	-12.9239
帶一鈴草盡牛不食則鈴無聲即拌之飽	-12.9239
暖知時開掯得法使之莫有先後	-12.9239
稠為後患也養蠶過三十箔者可更加下	-12.9239
良可憫也北方地經霜雪不甚懼旱惟水	-12.9239
費財用實無所益故表而出之以	-12.9239
近世利民之法如漢之常平倉榖賤則	-12.9239
長梯梯不長則髙枝折正謂此也	-12.9239
黍生荒野中科苗皆類家黍而莖葉細弱	-12.9239
農家種之亦廣人俱作豆粥豆飯或作餌	-12.924
為良醫又曰亡羊治牢未為晚也	-12.924
厠	-12.9241
塍内開耕畢便撒稻種直至成熟不須薅	-12.9241
之逼之也則上衝而壺之舌為之開以入	-12.9241
壺水勢盡而彼舌開則此闔矣是代入	-12.9241
耕地之法未耕曰生已耕曰熟初耕曰塌	-12.9241
卯亥也辰乾也柱也當辰卯為山口者	-12.9241
瑶	-12.9241
相和於葫蘆内㸃種過處用箒掃	-12.9241
酉為三角形也酉戌柄也立之柄者立柄	-12.9241
凡黍黏者收薄穄味美者亦收薄難舂	-12.9241
又種榆法其於地畔種者致雀損	-12.9241
尺留一根必須稀穊均調行五條直相	-12.9241
為䈰箕南曰䉛北曰䈰南方用竹北方用	-12.9241
農家所先雖南北名制不同而其用則一	-12.9241
周禮倉人掌粟入之藏此名著於公府者	-12.9241
近上向陽或在苫草上者此乃强良好繭	-12.9241
以來盛資龍骨龍骨之制日灌水田二十	-12.9241
其本身無銖兩之重且交纒相發可以	-12.9241
其餘以濟不足雖遇儉嵗而不憂	-12.9241
凜	-12.9241
即下樹栽樹大者須以木扶架若根不動	-12.9241
大澤平曠而用風此不勞人力自轉矣枝	-12.9241
少者止可用一小甑水須熱宜旋旋下繭	-12.9241
屬雖不經夏用六七月中各須一曝使乾	-12.9241
恊	-12.9241
接口添水至甑中八分滿甑中用一板攔	-12.9241
旃裘毛毳之物及箭羽以竿	-12.9241
日老一箔可得絲二十五兩二十八日老	-12.9241
有志於勤民者宜倣宋主此意通行南北	-12.9241
添梯故車運以牽環繩繩簇	-12.9241
濬則挈水而出畚鍤焉不有水之器不	-12.9241
移連入蠶房就地一箔上單鋪少間	-12.9241
稀連必頻移生盡之後再秤空連便知蠶	-12.9241
者約留四五條鋤治添糞條有定數葉不	-12.9241
而南土水田支分櫛比國計民生于焉是	-12.9241
聚於一葉其葉自大即是地桑栽地桑法	-12.9241
蓌	-12.9241
豐年納榖而藏之凶年出榖以賙貧乏官	-12.9241
輪輻俱轉用力少而見功多後魏	-12.9241
雖丈許之木可活仍須芟去繁枝	-12.9241
雨新晴北風寒切是夜必霜此時放火作	-12.9241
之俗居常積榖儉以足用雖間有	-12.9241
云此器出自海壖號曰耬鋤耬	-12.9241
其汁纔令相淹不用過多泥頭七日便熟	-12.9243
于未申孔之上向丙而開闔之也辰午加	-12.9243
氛	-12.9243
之心在乙丙線之上也二孔㨊圓者如酉	-12.9243
以惡為美以彼易此其利有不可勝言者	-12.9243
力也鑿石為圓徑可尺許竅其中以受機	-12.9243
帚今作箒又謂之篲集韻云少康作箕	-12.9243
在不搓揉了麻之骨力好灰水蘸	-12.9243
一手撮捻清絲一手用漏杓	-12.9243
啜	-12.9243
平旦收聚堆積之還依前布之	-12.9243
法春月先於熟地内東西成行匀稀種	-12.9243
為雙環而交纒束之當其合而錮之	-12.9243
度復提起其囊頭下即是清絲摘去囊頭	-12.9243
與篅皆𥫱之别名但大小有差亦蓧	-12.9243
蹕	-12.9243
星主倉史記天官書胃為天倉此名著	-12.9243
民之蓄積當粒米狼戾之年計一嵗一家	-12.9243
積少成多施之種藝稼穡倍收桑果愈茂	-12.9243
風戒寒趣練縑帛染綵色	-12.9243
一女不織民有寒者古謂庶士以下各衣	-12.9243
上之兩足後踏屋壁以胸前向壓住兩手	-12.9243
仄	-12.9243
几或用夾南方蠶無大小切桑俱用碪也	-12.9243
回豆又名那合豆生田野中莖青葉似蒺	-12.9243
房屋椽箔人力柴薪俱各不給因而兩失	-12.9243
晝夜飼若頓數多者蠶必疾老少者遲老	-12.9243
桑具也用木礩上仰置叉股髙可二三尺	-12.9243
水牛飲飼與黄牛同夏須得水池冬須得	-12.9243
法有五水畜第一水畜所謂魚池也以六	-12.9243
紴	-12.9243
腩	-12.9243
鴨靡不食矣水稗實成時尤是所便	-12.9243
二三尺莖方窊面四楞對分莖叉葉	-12.9243
出焉治水之法淺涸則挈水而入方舟焉	-12.9243
牽引漸長右手均撚俱成𦂳	-12.9243
生就地叢生長則四散分垂葉似萱草葉	-12.9243
葉狹而長狀如益母草葉一枝七葉	-12.9244
平因以利鎌摩地刈之曝令燥後有風	-12.9245
安能以有其民哉明主知其然也故務民	-12.9245
哆	-12.9245
用有遲速也古農法云耬種後用撻則	-12.9245
絁	-12.9245
者甲與庚是也若車大而軸長出水之地	-12.9245
誡	-12.9245
麂	-12.9245
齒狀横條上約五寸留一芽其餘	-12.9245
具也用堅大四木各圍可五尺長可丈餘	-12.9245
旱宜澆十月刈燒加糞如前冬春擁雪	-12.9245
然北俗伐桑而少採南人採桑而少伐嵗	-12.9245
者軸與樞當受轂之處也辰入樞之空也	-12.9245
一枝弱者所接樹選其向陽細嫩枝如筯	-12.9245
之注曰專一也架法見恒升篇恒升車記	-12.9245
亦安骨石其斸根栽者亦圓布之安骨石	-12.9245
今並載之使南北通知隨宜而用	-12.9245
偏廢然後治田之法可得論其全功也	-12.9245
壞合著隂潤之地雖欲愛慎朽敗更速矣	-12.9245
夾之小者若蠶多之家乃用長椽二莖駢	-12.9245
常得數人之功又向所言風與水能敗龍	-12.9245
性甚勁直堪為屋材折則折	-12.9245
有蛾出者便就出種罨壓熏蒸因熱而生	-12.9245
生衣厚潤徹膠便皺動處起發颯然破矣	-12.9245
處令入五分其入須兩邊批所接枝皮處	-12.9245
蠶多不旺已後簇内懶老翁赤	-12.9245
齊短兩兩對生開淡紫花結小角兒其豆	-12.9245
八磨之重竊謂此雖並載前史然世罕有	-12.9245
制比麻苧紡車頗小夫輪動弦轉莩繀	-12.9245
故堯禹有九年之水湯有七年之旱而國	-12.9245
灌畦治田致為利益矣若為之複井井之	-12.9245
為成人遂好耕農相地之宜宜榖者稼穡	-12.9245
生物不如古之多人之謀事不如古之智	-12.9245
用一牛挽之作止回旋惟人所便	-12.9245
磑也世本曰公輸班作磑方言或謂之䃀	-12.9245
秋宜日髙耕中原地皆平曠旱田陸地一	-12.9245
稀布稠則强者得食弱者不得食必	-12.9245
箔遊走又風氣不通忽遇倉卒開	-12.9245
箕内堆聚多時蠶身有汗後必病損漸漸	-12.9245
細背頗白開紅白花亦有千葉者味甜淡	-12.9245
縷就繞繀上欲作線織置車在左再	-12.9245
而糶之不使之傷民唐之義倉計墾田頃	-12.9245
蛻	-12.9245
蠶中庭使日氣煦照擡一箔則復布一箔	-12.9245
言籮所以注斛陳魏宋楚之間謂之䈪自	-12.9245
䰞	-12.9247
之民以此代耕殆天茁此品以遺其利也	-12.9247
耨柄尺此其度也其耨六寸所以間稼也	-12.9247
室必選置蠶宅負隂抱陽地位平爽正室	-12.9247
動左邊大輪弦隨輪轉衆機皆動	-12.9247
者當在甲乙丙矣用水力當在戊	-12.9247
三四尺莖方窊面四楞對節分生枝	-12.9247
是水恒入而不出也兩入而不出則溢	-12.9247
江淮之間地多藪澤或瀕水不時渰没妨	-12.9247
亦其時也然則凡木有子實者候其子實	-12.9247
其枝須兩節兼須是二年枝方可接接時	-12.9247
得此以免曝烈之苦亦一壺千金之比也	-12.9247
惡之事邪穢之氣辟除蠲潔夙夜齋敬不	-12.9247
煻	-12.9247
緒一綜之交各有倫叙皆須積勤而得累	-12.9247
㮣	-12.9247
䵄	-12.9247
上皆用漏斗盛麥下之眼中則利齒旋轉	-12.9247
上管以受上樞戊也下管以受下樞	-12.9247
向下裁切此桑夾之大者南方切	-12.9247
坭	-12.9247
天子三推三公五推卿諸侯九推反執爵	-12.9247
截則地氣難應須以細齒鋸截鋸齒	-12.9247
捉鼻令馬眼中淚出乃止良也	-12.9247
正月自朔暨晦可移諸樹竹漆桐梓松	-12.9247
此制故官民異屬復有圩田謂疊為圩岸	-12.9247
水與此相類雖有水旱皆可救禦凡一熟	-12.9247
玉衡之雙筩與中筩為二此則合之筩入	-12.9247
破麥作麩然後收之篩羅乃得成	-12.9247
簇子若根則能療疾咸無棄材誠蔬	-12.9247
蓬一名鹽蓬生水傍下濕地莖似落	-12.9247
角狀而長其形似屠刀様故以名之味甜	-12.9247
遇枯枝勁節不能拒遏又為上如剛而不	-12.9247
鐏	-12.9247
門暗值賊風後多紅殭布蠶須要手輕不	-12.9247
炤	-12.9248
西川唐鄧多有栽種成就懷州亦有舊日	-12.9248
車於内車之踏軸外端作一竪輪竪輪之	-12.9249
百本䪥五十本葱一畦韭家二母彘五雞	-12.9249
本云伯益作井堯民鑿井而飲湯旱伊尹	-12.9249
窮汲而不竭此天然之井也皆可灌溉田	-12.9249
犝	-12.9249
泉食甃之以石則潔而不泥汲之以器則	-12.9249
一則束篠為之擁掃庭院制則叢長謂之	-12.9249
覲	-12.9249
作槽其下用厚板嵌作底槃槃上圓鑿小	-12.9249
氍	-12.9249
疼	-12.9249
凡瀝青加蠟與桐油取和澤而止石	-12.9249
十株比至嫁娶悉任車轂一樹三具一具	-12.9249
多比之南布或有價髙數倍者真良法也	-12.9249
惟所為之既畢以瀝青和蠟或和熟桐油	-12.9249
既入之水而砧降焉則無復之也則上衝	-12.9249
瀝青和蠟依螺旋之線層層塗而積之累	-12.9249
相半桐油或漆和之取燥濕得宜而止累	-12.9249
種子人功之費不慮水旱風蟲之災比之	-12.9249
舂或輾碾令爛上甑蒸過理草為衣貯之	-12.9249
間攛葶開紫花結三瓣蒴兒中有子如芥	-12.9249
去毛以泔清淨洗乾以鹹汁洗之三度即	-12.9249
取鹹土兩石許以水淋取一石五斗	-12.9249
輪相發也疾徐之數與他輪相視者如乙	-12.9249
之則無用筩也若江河泉澗索水之處過	-12.9249
井量井淺深筩長短而置之近上	-12.9249
人既省力蠶亦無損又按南方蠶書云簇	-12.9249
令樹知區宜寛深以水攪土成泥	-12.9249
以鋸子割所患蹄頭前正當中斜割之	-12.9249
伐逺揚士農必用云轉身運斧條葉偃落	-12.9249
六約畧作之非定率也趣欲使兩輪之交	-12.9249
夐	-12.9249
孫之庾如坻如京又曰我庾維億	-12.9249
從石榩從木即木碪也碪截木為碢圓形	-12.9249
拖脚車也以脚木二莖長可四尺前頭微	-12.9249
撐	-12.9249
方蠶簇法也嘗見南方蠶簇止就屋内蠶	-12.9249
景帝末年太倉之粟陳陳相因而民亦富	-12.9249
水澆常令潤澤既生又以骨石布其	-12.9249
津脉不出則葉必復茂故農語云斧頭自	-12.9249
生既齊取新葉用快利刀切極細	-12.9249
筒車流水筒輪凡制此車先視岸之	-12.9249
紋皺梢間開粉紅花結子如小粟粒	-12.9249
者無鶴膝無斗板器居水中環轉而已湍	-12.9249
而滑今他處多用無節竹條代之其法先	-12.9249
臍注磨曰眼轉磨曰榦承磨曰槃載磨曰	-12.9249
與樵斧不同詩謂蠶月條桑取彼斧	-12.9249
茶褐色對分莖叉葉亦對生葉似	-12.9249
葉就地叢生葉長三四寸四散分垂	-12.9249
葉與豇豆同但結角色紫長尺許味微甜	-12.9249
蠶有多少故簇有大小難易之不同也然	-12.9249
踆	-12.9249
轂左手引麻牽軖既轉右手續接麻皮成	-12.9249
鼻下燒之使烟入馬鼻中須臾即	-12.9249
𠂻	-12.9249
宻泥勿使風入漏氣過立秋然後開	-12.9249
時被雨霑濕雨纔止纔晴即選一簇地盤	-12.9249
葉間開細瓣淡粉紫花黄心葉味	-12.9249
􁈸	-12.9249
匀撒蠶上上再摻葉移時蠶因食葉沿上	-12.9249
堅厚倉卒不能生也種藕法春初掘藕根	-12.925
頭著魚池泥中種之當年即有蓮花	-12.925
六萬四千八百根根直八錢合	-12.925
不敢慢易絶其妄殺憫其羸瘠豐其	-12.9251
之本故也若為民牧者當先知愛重祈報	-12.9251
莛	-12.9251
蹈	-12.9251
子打油燃燈甚明或熬油以油諸物	-12.9251
為二此則合之又玉衡之水皆實取此有	-12.9251
畔近道者亦可另種蘇子以遮六畜傷踐	-12.9251
壟作訖又以鍬掘底一坑作小塹	-12.9251
尖開白花似李子花結實比櫻桃又小熟	-12.9251
攫	-12.9251
稍弱其砧之徑以氊罽之屬皮革之屬附	-12.9251
尤忌西南風起大傷蠶氣可外置	-12.9251
所以養鯉者鯉不相食易長又貴也	-12.9251
相從者所以省費燎火同巧拙而合習俗	-12.9251
翻過又不下者並連棄了此殘病	-12.9251
以板為級上用木槽引水直下射轉	-12.9251
以籜箬覆於人背繩繫肩下耘	-12.9251
收訖至來年更不須種自旅生也	-12.9251
方孔也庚辛壬癸方筩也壬癸其	-12.9251
柱之下端合之欲其固也砧之厚以其枝	-12.9251
梯木階也夫桑之穉者用几採	-12.9251
焉如本篇一圖甲乙丙丁圓筩也丙丁其	-12.9251
繵	-12.9251
辛卯管也辰午未申之屬環也環之多寡	-12.9251
郄	-12.9251
頭作三道急裹之骨小者一宿便盡大者	-12.9251
䋔縷既盈乃脱軖付之繩車或作别用	-12.9251
䵀	-12.9251
不乏尤為上也然用斧有法必須轉腕回	-12.9251
之困苦羸瘠視牛之疫癘若	-12.9251
令大旱能救一夫之田數家共井亦可無	-12.9251
割蜜天氣漸寒百花已盡宜開蜂	-12.9251
勢量物力相大小而制徐疾焉今圖樞輪	-12.9251
南方水田泥耕其田髙下濶狹不等以一	-12.9251
取樹本大如斧柯及臂者皆堪接謂之	-12.9251
圓倉也禮月令曰修囷倉説文	-12.9251
在土中故不成溝子第二遍加擗土木	-12.9251
如用小灰紙更妙連須以時浴之浴畢	-12.9251
惡者其一株上有七八根生者悉皆斫去	-12.9251
挈古樂府云羅敷善採桑	-12.9251
時令蠶子向外恐有風磨損冬至日及臘	-12.9251
氣始虧隂慝將萌煖氣始盛蠱蠧並興乃	-12.9251
水輪轉碾也後魏書崔亮教民為	-12.9251
牛糞火比翻簇之法又為妙也又一法槌	-12.9251
甾	-12.9251
線自上樞之末亢作垂線而兩線相遇	-12.9251
連匠者嘗别抄以鬻之務本新書云蠶連	-12.9251
量黄白分數抽減所飼之葉漸次細切薄	-12.9251
雨風冷則不敢擡用茅草細切如	-12.9251
齒形去之如剪箭括向深一寸許刀子摘	-12.9251
䡄	-12.9251
之費給無窮無怪乎有餘不足之不同也	-12.9251
架槽而灌之或迤而建之以當龍尾恒升	-12.9251
氐其亢氐線必長六尺氐房線	-12.9251
祕	-12.9251
篻	-12.9251
紅色者亦有紫色者莖葉間結實比莧實	-12.9251
蟠車纒纑具也又謂之撥車南人謂撥	-12.9251
隴様梢出細葶開小黲白花結小青蓇葖	-12.9251
騰遷移别簇封苫如前小雨則不須但可	-12.9251
乾者易之灰不復濕乃止然後削去四畔	-12.9251
何哉夫南簇蠶少規制狹小殆若	-12.9252
料南北之間去短就長制此良法	-12.9252
牧潔其欄牢則無不字育蕃息	-12.9252
髙可三尺許廣可四尺上有横柄下有列	-12.9252
䵖	-12.9252
露晞解然後放之不爾則逢毒氣令羊口	-12.9253
鮪	-12.9253
熱湯潑灰忌産婦孝子入家忌燒皮毛亂	-12.9253
篸	-12.9253
粒蕃息也諺云坐賈行商不如開荒言其	-12.9253
五分其筩之徑以其一為柱之徑砧之合	-12.9253
閉其罅而噏之凡井淺者實取焉井深者	-12.9253
存問九族孤寡老病不能自存者分厚	-12.9253
窖繕五兵習戰射以備寒凍窮厄之	-12.9253
髂	-12.9253
之八平分長線為直角如立柱	-12.9253
之後桑與黍稭同時刈倒順風燒之仍	-12.9253
柱依螺旋之線而立之每立一柱即與軸	-12.9253
熟至正月二月中以犁作壟一壟之中以	-12.9253
脢	-12.9253
舫	-12.9253
近水處和柔糞之二月注雨可種芋率二	-12.9253
須内外泥飾材木以防火患復要間架寛	-12.9253
頺	-12.9253
以相民宅而知其利害以阜人民以	-12.9253
次之髻欲桎而厚且折季毛欲長多覆肝	-12.9253
澗谷間種之地欲極良秋上楮子熟時多	-12.9253
砧厚者稍剡其周之上下如鼓木當其剡	-12.9253
而方尾欲減本欲大脅肋欲大而	-12.9253
央足踐之旱數澆之萁爛芋生子皆長三	-12.9253
左捲每日交換捲那捲罷依前	-12.9253
譙子曰朝發而夕異宿勤則菜盈傾筐且	-12.9253
輪輪者所以受轉也六曰架架者所以制	-12.9253
野艾蒿生田野中苗葉類艾而細又多花	-12.9253
之時四五日内不用聞打鼓紡車	-12.9253
之累接之法亦以接輪交而相發也	-12.9253
亦薄花開白色結子紅紫色附枝莖而生	-12.9253
其數八其味酸其臭羶其祀户祭先脾	-12.9253
厦屋㝷常别用至蠶老時置簇於内隨其	-12.9253
地法不宜此係拙謬今後應栽小樹若路	-12.9253
如種麥治地畢豫浸一宿然後打潭下子	-12.9253
孔孔之方圜反其筩若圜筩而方孔七分	-12.9253
尙	-12.9253
徑以其四為孔之徑若方筩而圜孔七分	-12.9253
抽筳每筒牽紡易為匀細皆捲筳之效也	-12.9253
榘	-12.9253
溝之水皆有所歸不至溢出而田禾無淹	-12.9253
百步平治路上車轍務要平坦不令車輪	-12.9253
目桑蝦蟇眼榆負瘤散自餘雜木	-12.9253
矍矍然此籰之義也然必竅貫以軸乃適	-12.9253
秦雍之地所拒川水率用巨	-12.9253
等名目皆是葉生形容之所象似以此時	-12.9253
約量本家育蠶多少選於院内空	-12.9253
者皆於長木柄頭造為擐軸舉而轉之以	-12.9253
諡	-12.9253
貯泥土狀如小磨仍以竹木排為密齒破	-12.9253
閨閫之屬務之不惟防閑驕逸又使知其	-12.9253
下上之也七曰架架者所以居庶物也七	-12.9253
可當數人若以灌畦約省夫力五分之四	-12.9253
水度地制器者以此計之若水過深岸過	-12.9253
病一眠候十分眠纔可住食至十分起	-12.9253
瞑	-12.9253
竈比圓壘低一半揜火透	-12.9253
筩之長無定度下端所至居水之中已上	-12.9253
觤	-12.9253
量力均辦所需工物乃深植樁木列置石	-12.9253
閣置蟲亦不生如其不爾無不生蟲	-12.9253
雨㸃兒菜生田野中就地叢生其莖脚紫	-12.9253
揚雄以為蒲器然南方以蒲竹北方用荆	-12.9254
故獲利亦薄北簇雖大其弊頗多蒿薪積	-12.9254
約四寸兩桯相離五寸許其桯上相間	-12.9254
種不失足致豐盈此誠善政務本之意也	-12.9254
頭不時跂足閃去所擁草木根	-12.9254
詁	-12.9254
拉	-12.9254
朞	-12.9254
正月以終季夏不可伐木必生蠧蟲或曰	-12.9254
扉	-12.9254
多以為永業又中土大河之側及淮灣水	-12.9255
掃塵埃預期泥補若逼近臨時	-12.9255
一截稍短而勁控以繩絃用彈棉英如彈	-12.9255
个	-12.9255
后妃齋戒親東鄉躬桑禁婦女毋觀	-12.9255
然後可視梯檻長廣得所制雖不等道路	-12.9255
用之竊計人力可以半省天災可以半免	-12.9255
不救之田地上有可興之雨其用水有法	-12.9255
之善也八分之一者如軸長八尺則	-12.9255
則無蟲以刀斧班駁敲打樹身則結實此	-12.9255
砧可無厚無厚則輕餘見玉衡篇三曰衡	-12.9255
筩短長斟酌焉而為之數筩之下端為之	-12.9255
食之餘者揀大蜜脾用利刀割下却封其	-12.9255
今法寡力之家比耕耙耬砘易為功也	-12.9255
似花苦苣葉甚大開淡棠褐花表	-12.9255
子生函谷川谷及巴西河東皆有今古崤	-12.9255
微薰其蜂自然飛向前去若怕蜂	-12.9255
拓	-12.9255
散垂結實作莢子極薄細味甘性平無毒	-12.9255
然木杵既輕動防狂迸須	-12.9255
煜	-12.9255
率種數既多不可一一備舉凡不見者栽	-12.9255
篘内堈既圓滑米自翻倒	-12.9255
而不乏省而有要誠便民之活法造物之	-12.9255
而同於生物生物之性雖同而所生之物	-12.9255
䰝	-12.9255
三嵗而一周也先王之制如此非獨以	-12.9255
三時一曰朝飲少之二曰晝飲則胷	-12.9255
之掉枝而首為圓孔焉以掉枝之圓孔入	-12.9255
之法多從綆缶饔飱朝夕未覺其煩所見	-12.9255
二尺用竹篾均列四彎内引下座四繀紡	-12.9255
倍始出閩建今欲傳之他方同趨省便	-12.9255
分其軸之長以其二為之徑木之圜必中	-12.9255
合三四五之句股法也凡圍板長一丈水	-12.9255
布機釋名曰布列諸縷淮南子曰伯	-12.9255
常法伏内壓條特為滋茂一法截條長四	-12.9255
形類桃様極小有子似蘿蔔子取之易迸	-12.9255
或藉桔橰似為便矣乃俛仰盡日潤不終	-12.9255
柱之植欲堅以固也下柱居水中以	-12.9255
毖	-12.9255
無用輪方其樞之末别為衡衡之一端入	-12.9255
種八月熟出西方赤小麥赤而肥出鄭縣	-12.9255
籟	-12.9255
籰上然後紡合今得此制甚為速妙	-12.9255
線架以木為之下作方座長濶尺餘	-12.9255
聞三晉最勤汲井灌田旱熯之	-12.9255
與揜火相對圓壘匝近上開	-12.9255
若大者而欲無用輪則以兩掉枝同加	-12.9255
荆魯桑小樹如轉盤時於臘月内可去不	-12.9255
近枝莖薄安黍穰彌佳無穰直安	-12.9255
速眠不惟眠起得齊且無葉罨燠熱之病	-12.9255
雌木填之乃實以銀杏雄樹試之便	-12.9255
預於栽所掘區下糞樹到之時	-12.9255
礓	-12.9256
僱	-12.9256
煿	-12.9256
郢	-12.9256
驥	-12.9256
䴳	-12.9256
恡	-12.9256
磧	-12.9256
窰	-12.9256
趼	-12.9256
鴝	-12.9256
球	-12.9257
趍	-12.9258
淸	-12.9258
簑	-12.9258
遜	-12.9258
䬇	-12.9258
帽	-12.9258
猝	-12.9258
眺	-12.9258
䴭	-12.9258
炫	-12.9258
穯	-12.9258
紂	-12.9258
藹	-12.9258
崎	-12.9259
葰	-12.926
从	-12.926
攟	-12.926
疣	-12.926
檩	-12.926
彛	-12.926
蔟	-12.926
㺯	-12.926
衂	-12.926
轔	-12.926
邙	-12.926
麳	-12.926
㨶	-12.926
剨	-12.926
摀	-12.926
栭	-12.9261
餙	-12.9261
劃	-12.9261
諏	-12.9262
赬	-12.9262
䐊	-12.9262
拴	-12.9262
靭	-12.9262
咿	-12.9262
緇	-12.9262
鄽	-12.9262
杶	-12.9262
譙	-12.9262
躃	-12.9262
泳	-12.9262
絖	-12.9262
胚	-12.9262
騖	-12.9262
瓾	-12.9262
箜	-12.9262
鱣	-12.9262
儕	-12.9264
遟	-12.9264
楥	-12.9264
櫪	-12.9264
渺	-12.9264
騁	-12.9264
凳	-12.9264
洎	-12.9264
軏	-12.9264
鬵	-12.9264
蕋	-12.9265
㱿	-12.9265
㯳	-12.9266
岫	-12.9266
儂	-12.9266
紏	-12.9266
猥	-12.9266
粞	-12.9266
㢮	-12.9266
叄	-12.9266
擱	-12.9266
琪	-12.9266
螽	-12.9266
賖	-12.9266
鰓	-12.9266
􁂶	-12.9266
贈	-12.9267
轤	-12.9268
縢	-12.9268
綃	-12.9268
啇	-12.9268
餺	-12.9268
􁋵	-12.9268
梆	-12.9268
鯫	-12.9269
箵	-12.927
淒	-12.927
閈	-12.927
㳫	-12.927
湗	-12.927
牯	-12.927
膊	-12.927
駰	-12.927
吮	-12.927
檗	-12.927
毡	-12.927
赭	-12.927
譲	-12.9272
撑	-12.9272
佞	-12.9272
謫	-12.9272
坨	-12.9272
􁇌	-12.9272
芧	-12.9272
蕤	-12.9272
懽	-12.9272
跑	-12.9272
妬	-12.9272
熒	-12.9272
芁	-12.9272
邐	-12.9272
懦	-12.9274
糢	-12.9274
絀	-12.9274
関	-12.9274
隷	-12.9274
飣	-12.9274
頹	-12.9274
岔	-12.9276
摇	-12.9276
朘	-12.9276
叨	-12.9276
垤	-12.9276
愷	-12.9276
些	-12.9276
鏄	-12.9276
鐻	-12.9276
韞	-12.9276
餡	-12.9277
廖	-12.9277
饀	-12.9278
趄	-12.9278
逶	-12.9278
郪	-12.9278
燦	-12.9278
胖	-12.9278
𬒳	-12.9278
濠	-12.9278
菺	-12.9278
䈚	-12.9279
褶	-12.9279
挶	-12.9279
茋	-12.928
峩	-12.928
錛	-12.928
癖	-12.928
􁕺	-12.928
蕊	-12.928
㮚	-12.928
塚	-12.928
頁	-12.928
􁑞	-12.928
棵	-12.9281
佟	-12.9281
遘	-12.9281
䆫	-12.9281
莃	-12.9282
薟	-12.9282
逭	-12.9282
鎧	-12.9282
􁢖	-12.9282
噭	-12.9282
蝎	-12.9282
􁔻	-12.9282
劇	-12.9283
盼	-12.9283
掄	-12.9283
柀	-12.9283
籽	-12.9285
憾	-12.9285
赶	-12.9285
䕺	-12.9285
宙	-12.9285
憤	-12.9287
磔	-12.9287
蘪	-12.9287
餲	-12.9287
庠	-12.9287
爚	-12.9287
吊	-12.9287
嬭	-12.9287
䘏	-12.9287
跋	-12.9287
晼	-12.9287
燮	-12.9287
􁏳	-12.9287
煅	-12.9288
児	-12.9289
擂	-12.9289
圳	-12.9289
俄	-12.9289
堀	-12.9289
祊	-12.9289
鈆	-12.929
攙	-12.9291
拿	-12.9291
狎	-12.9291
玂	-12.9291
脤	-12.9291
菕	-12.9291
壄	-12.9291
搔	-12.9291
蝇	-12.9291
剋	-12.9293
柢	-12.9293
膢	-12.9293
錠	-12.9293
䔩	-12.9293
溟	-12.9293
盱	-12.9293
跟	-12.9295
戛	-12.9295
蘴	-12.9295
庥	-12.9295
梟	-12.9295
蠒	-12.9295
粼	-12.9295
藑	-12.9295
澹	-12.9296
癥	-12.9296
汋	-12.9297
忭	-12.9297
㐮	-12.9297
抺	-12.9297
荁	-12.9297
揄	-12.9299
扄	-12.9299
隕	-12.9299
芓	-12.9299
碌	-12.9301
﨑	-12.9301
蔾	-12.9301
崈	-12.9301
麃	-12.9301
寂	-12.9303
譁	-12.9305
雓	-12.9305
汨	-12.9307
椄	-12.9308
濊	-12.9309
砢	-12.9309
挍	-12.9309
頔	-12.9309
繖	-12.931
􁥏	-12.931
菣	-12.931
煦	-12.931
娱	-12.9312
暹	-12.9312
塋	-12.9312
䄮	-12.9312
遄	-12.9312
踦	-12.9314
僖	-12.9314
諦	-12.9314
㫄	-12.9316
橧	-12.9316
佔	-12.9318
彞	-12.932
鮦	-12.932
獬	-12.932
餹	-12.9322
􁝿	-12.9324
眤	-12.9324
鋩	-12.9328
畼	-12.933
欘	-12.9335
斆	-12.9337
狩	-12.9341
駣	-12.9343
罙	-12.9349
驈	-12.9353
㭉	-12.9355
睷	-12.937
蹔	-12.9374
樅	-13.3988
鏦	-13.3995
灉	-13.4104
罿	-13.411
艟	-13.411
鎚	-13.411
胔	-13.411
鏞	-13.411
邛	-13.4113
橦	-13.4116
禺	-13.4116
錘	-13.4119
丰	-13.4122
訌	-13.4129
榰	-13.4129
悾	-13.4132
輋	-13.4139
禔	-13.4148
羆	-13.4178
瀊	-13.418
籕	-13.4183
黐	-13.4183
絛	-13.4186
㴙	-13.4189
䩩	-13.4189
婉	-13.4189
漤	-13.4189
韁	-13.4192
蟟	-13.4195
鋟	-13.4198
搽	-13.4199
䍧	-13.4202
䑎	-13.4202
祼	-13.4202
晤	-13.4205
詮	-13.4205
枇	-13.4206
蝝	-13.4208
黿	-13.4208
􁋭	-13.4208
䊦	-13.4214
蒮	-13.4214
鉼	-13.4214
􁄗	-13.4214
珥	-13.4217
玆	-13.4217
􁎊	-13.4217
訐	-13.4221
㔍	-13.4221
埔	-13.4221
昳	-13.4221
蒫	-13.4221
鏕	-13.4221
俠	-13.4224
冄	-13.4224
䈏	-13.4224
駥	-13.4224
緘	-13.4224
羜	-13.4224
謾	-13.4224
襁	-13.4227
磯	-13.4227
嚇	-13.4227
嘶	-13.4227
犖	-13.4227
骲	-13.4227
􁇠	-13.4227
􁙖	-13.423
眥	-13.423
觢	-13.423
璨	-13.423
䄈	-13.423
幟	-13.423
蒩	-13.423
帮	-13.423
礎	-13.423
􁚌	-13.423
䄂	-13.4233
楠	-13.4233
觭	-13.4233
㪷	-13.4233
机	-13.4233
嗽	-13.4233
摹	-13.4233
螕	-13.4233
㩦	-13.4233
㰂	-13.4233
单	-13.4233
樀	-13.4233
瀟	-13.4233
祫	-13.4233
貺	-13.4233
􁋄	-13.4236
鼐	-13.4236
噪	-13.4236
頬	-13.4236
琛	-13.4236
㶑	-13.4236
埳	-13.4236
窿	-13.4236
􁠴	-13.4236
莨	-13.4236
􁠭	-13.4236
􁃇	-13.4237
䥶	-13.4239
犣	-13.4239
犩	-13.4239
虵	-13.4239
妊	-13.4239
坸	-13.4239
冇	-13.4239
纉	-13.4239
閎	-13.4239
􁙘	-13.4239
􁷓	-13.4239
党	-13.424
橚	-13.424
鎒	-13.424
荊	-13.424
犤	-13.4242
惄	-13.4243
枹	-13.4243
戶	-13.4243
臁	-13.4243
䴾	-13.4243
態	-13.4243
糸	-13.4243
飈	-13.4243
旤	-13.4243
汭	-13.4243
犦	-13.4246
碱	-13.4246
罇	-13.4246
憙	-13.4246
漱	-13.4246
煽	-13.4246
惱	-13.4246
沄	-13.4246
琮	-13.4246
秆	-13.4246
裋	-13.4246
麮	-13.4246
𥚹	-13.4246
􁣗	-13.4246
䀋	-13.4247
菾	-13.4247
䥫	-13.4249
犘	-13.4249
兾	-13.4249
曦	-13.4249
䔇	-13.4249
纈	-13.4249
歊	-13.4249
麕	-13.4249
廥	-13.4249
這	-13.4249
剷	-13.4249
嬉	-13.4249
屹	-13.4249
彥	-13.4249
橅	-13.4249
瑿	-13.4249
舅	-13.4249
蠃	-13.4249
辧	-13.4249
飵	-13.4249
檎	-13.4249
䐗	-13.4251
氾	-13.4252
袵	-13.4252
𡨕	-13.4252
䬪	-13.4252
邜	-13.4252
晢	-13.4252
闡	-13.4252
霅	-13.4252
􁋒	-13.4252
异	-13.4252
忿	-13.4252
掦	-13.4252
榭	-13.4252
橿	-13.4252
畺	-13.4252
篦	-13.4252
罝	-13.4252
莕	-13.4252
輈	-13.4252
􁮐	-13.4252
綀	-13.4253
胾	-13.4255
淥	-13.4255
臰	-13.4255
䬼	-13.4255
宂	-13.4255
熝	-13.4255
鍮	-13.4255
飩	-13.4255
鶬	-13.4255
靱	-13.4255
齾	-13.4255
噮	-13.4255
婪	-13.4255
怏	-13.4255
悄	-13.4255
柬	-13.4255
漪	-13.4255
獅	-13.4255
訢	-13.4255
鄼	-13.4255
觥	-13.4255
蕷	-13.4257
瞖	-13.4257
濼	-13.4258
痘	-13.4258
簩	-13.4258
􁉨	-13.4258
􁛉	-13.4258
㦯	-13.4258
瞪	-13.4258
鷗	-13.4258
轟	-13.4258
􁎙	-13.4258
嬖	-13.4258
蠺	-13.4258
詫	-13.4258
輶	-13.4258
銓	-13.4258
􁟪	-13.4258
愕	-13.4258
䵆	-13.4258
兕	-13.4258
喔	-13.4258
朒	-13.4258
楰	-13.4258
瑛	-13.4258
礮	-13.4258
窌	-13.4258
絰	-13.4258
臊	-13.4258
酴	-13.4258
鉚	-13.4258
􁐓	-13.4258
櫱	-13.426
彖	-13.4261
趋	-13.4262
䳉	-13.4262
檣	-13.4262
洸	-13.4262
哽	-13.4262
塏	-13.4262
緼	-13.4262
􁩈	-13.4262
㫪	-13.4262
䡤	-13.4262
廏	-13.4262
潨	-13.4262
礶	-13.4262
秜	-13.4262
覿	-13.4262
郏	-13.4262
􁣎	-13.4262
諯	-13.4265
兀	-13.4265
壙	-13.4265
孑	-13.4265
箧	-13.4265
椓	-13.4265
僣	-13.4265
恫	-13.4265
懌	-13.4265
􁟖	-13.4265
䂓	-13.4265
嶷	-13.4265
帀	-13.4265
彧	-13.4265
彬	-13.4265
悽	-13.4265
慍	-13.4265
撾	-13.4265
筦	-13.4265
緖	-13.4265
胳	-13.4265
褎	-13.4265
奩	-13.4265
菆	-13.4266
駂	-13.4268
駓	-13.4268
夤	-13.4268
皖	-13.4268
鄆	-13.4268
鄠	-13.4268
鞾	-13.4268
駿	-13.4268
㭒	-13.4268
䵒	-13.4268
唾	-13.4268
嗛	-13.4268
彀	-13.4268
悖	-13.4268
捱	-13.4268
朐	-13.4268
瞳	-13.4268
胰	-13.4268
裸	-13.4268
酟	-13.4269
錬	-13.4271
腠	-13.4271
忤	-13.4271
庀	-13.4271
䭾	-13.4271
侣	-13.4271
桵	-13.4271
洊	-13.4271
燁	-13.4271
甍	-13.4271
秷	-13.4271
粇	-13.4271
絏	-13.4271
蜠	-13.4271
蟓	-13.4271
躅	-13.4271
遒	-13.4271
闉	-13.4271
𦵏	-13.4271
琉	-13.4273
涔	-13.4274
厘	-13.4274
蒒	-13.4274
鷥	-13.4274
断	-13.4274
笪	-13.4274
蝉	-13.4274
頳	-13.4274
𣣔	-13.4274
侏	-13.4274
榞	-13.4274
鍳	-13.4274
髤	-13.4274
砣	-13.4277
臞	-13.4277
湄	-13.4277
蝸	-13.4277
蜣	-13.4277
㿋	-13.4277
帋	-13.4277
捫	-13.4277
瑕	-13.4277
痒	-13.4277
㯆	-13.4277
仐	-13.4277
坳	-13.4277
摽	-13.4277
熛	-13.4277
禫	-13.4277
舀	-13.4277
蚑	-13.4277
詡	-13.428
嵓	-13.428
扆	-13.428
驃	-13.428
佗	-13.428
綬	-13.428
衃	-13.428
企	-13.428
倨	-13.428
奓	-13.428
璀	-13.428
睨	-13.428
羯	-13.428
荗	-13.428
諰	-13.428
軔	-13.428
鱔	-13.428
齘	-13.428
簔	-13.4283
痴	-13.4283
泌	-13.4284
􁁺	-13.4284
秅	-13.4284
萸	-13.4284
樫	-13.4284
濳	-13.4284
縕	-13.4284
貰	-13.4284
􁀧	-13.4284
忝	-13.4284
􁷔	-13.4284
䓝	-13.4284
䔮	-13.4284
吠	-13.4284
孥	-13.4284
掗	-13.4284
曁	-13.4284
曡	-13.4284
滮	-13.4284
禊	-13.4284
緅	-13.4284
蚜	-13.4284
鍰	-13.4284
韡	-13.4284
齁	-13.4284
􁌊	-13.4284
捶	-13.4285
梡	-13.4286
鍛	-13.4287
𠞰	-13.4287
摳	-13.4287
棱	-13.4287
駽	-13.4287
㲼	-13.4287
㭬	-13.4287
媍	-13.4287
寤	-13.4287
嵬	-13.4287
楪	-13.4287
騢	-13.4287
䲭	-13.429
𧺫	-13.429
㼔	-13.429
囑	-13.429
匭	-13.429
崐	-13.429
嶮	-13.429
巇	-13.429
砒	-13.429
㸌	-13.429
嗷	-13.429
疝	-13.429
萩	-13.429
雱	-13.429
駩	-13.429
紕	-13.4293
眚	-13.4293
祟	-13.4293
騥	-13.4293
坩	-13.4293
燐	-13.4293
殞	-13.4293
髯	-13.4293
蠊	-13.4293
袷	-13.4293
迆	-13.4293
腮	-13.4293
狫	-13.4293
猺	-13.4293
罥	-13.4296
餼	-13.4296
䫫	-13.4296
䯑	-13.4296
怵	-13.4296
樟	-13.4296
焮	-13.4299
盒	-13.4299
厄	-13.4299
幘	-13.4299
捆	-13.4299
圞	-13.4299
摏	-13.4299
䝌	-13.4299
偁	-13.4299
嚶	-13.4299
憇	-13.4299
栻	-13.4299
綖	-13.4299
藫	-13.4299
謠	-13.4299
僦	-13.4302
污	-13.4302
袐	-13.4302
􁋗	-13.4302
偪	-13.4303
敜	-13.4303
牴	-13.4303
緄	-13.4303
茿	-13.4303
螯	-13.4303
鑪	-13.4303
鮠	-13.4303
鮿	-13.4303
􁇨	-13.4306
槪	-13.4306
倥	-13.4306
戞	-13.4306
碍	-13.4306
粧	-13.4306
朅	-13.4309
崧	-13.4309
嵿	-13.4309
蓨	-13.4309
姢	-13.4309
惌	-13.4309
榕	-13.4309
甐	-13.4309
腛	-13.4309
郴	-13.4309
隲	-13.4309
騇	-13.4309
憩	-13.4312
邨	-13.4312
嫡	-13.4315
閔	-13.4315
偈	-13.4315
僆	-13.4315
斌	-13.4315
矱	-13.4315
刼	-13.4318
屣	-13.4318
罍	-13.4318
􁘗	-13.4318
㡌	-13.4318
鯨	-13.4318
弥	-13.4318
蟛	-13.4321
䌫	-13.4321
垾	-13.4321
淩	-13.4321
綘	-13.4321
菒	-13.4321
蘜	-13.4321
闘	-13.4325
􁇖	-13.4325
􁱿	-13.4328
鍵	-13.4328
瀵	-13.4328
躱	-13.4331
脠	-13.4331
􁜦	-13.4334
嶇	-13.4334
伋	-13.4334
嫋	-13.4334
蛬	-13.4334
貊	-13.4334
鏐	-13.4337
姻	-13.4337
㧊	-13.4337
淬	-13.434
䉢	-13.434
瑀	-13.434
刨	-13.4343
豭	-13.4343
釿	-13.4347
駹	-13.4347
儵	-13.4347
拷	-13.4347
斳	-13.4347
栰	-13.4347
滏	-13.4347
綂	-13.435
􁀆	-13.4353
皜	-13.4353
蹢	-13.4353
驓	-13.4353
驤	-13.4362
嗿	-13.4366
騴	-13.4366
驠	-13.4366
舵	-13.4372
葼	-13.4372
躔	-13.4375
枎	-13.4378
矻	-13.4385
㴻	-13.4391
茾	-13.4391
濘	-13.4407
荓	-13.4422
𡋯	-14.3716
齷	-14.3717
齬	-14.3718
齪	-14.3719
齟	-14.372
黪	-14.3721
鸚	-14.3722
鸇	-14.3723
鷦	-14.3724
鶿	-14.3725
鶚	-14.3726
鶘	-14.3727
鵡	-14.3728
鵜	-14.3729
鱒	-14.373
鯸	-14.3731
鯷	-14.3732
鯇	-14.3733
鬾	-14.3734
骭	-14.3735
騽	-14.3736
騵	-14.3737
騱	-14.3738
騪	-14.3739
騝	-14.374
騜	-14.3741
騏	-14.3742
騅	-14.3743
駺	-14.3744
馰	-14.3745
饜	-14.3746
餕	-14.3747
顗	-14.3748
韈	-14.3749
韆	-14.375
鞦	-14.3751
鞓	-14.3752
雔	-14.3753
隼	-14.3754
隮	-14.3755
隫	-14.3756
阮	-14.3757
闐	-14.3758
鑮	-14.3759
鐹	-14.376
鏝	-14.3761
鏌	-14.3762
鎁	-14.3763
鍑	-14.3764
鍇	-14.3765
鋑	-14.3766
釬	-14.3767
釫	-14.3768
鄺	-14.3769
鄮	-14.377
郯	-14.3771
郛	-14.3772
邶	-14.3773
邰	-14.3774
邂	-14.3775
逅	-14.3776
轓	-14.3777
輮	-14.3778
輜	-14.3779
輗	-14.378
貶	-14.3781
貕	-14.3782
貂	-14.3783
豸	-14.3784
豠	-14.3785
谹	-14.3786
謟	-14.3787
諼	-14.3788
覦	-14.3789
褗	-14.379
袚	-14.3791
蠦	-14.3792
蠈	-14.3793
蟾	-14.3794
蟮	-14.3795
蟪	-14.3796
蜱	-14.3797
蜫	-14.3798
蜓	-14.3799
蚛	-14.38
蚘	-14.3801
虼	-14.3802
虰	-14.3803
虖	-14.3804
蘚	-14.3805
薶	-14.3806
蕸	-14.3807
蕧	-14.3808
蕕	-14.3809
蒠	-14.381
葽	-14.3811
葓	-14.3812
葇	-14.3813
萐	-14.3814
萏	-14.3815
菙	-14.3816
苾	-14.3817
芿	-14.3818
芤	-14.3819
艻	-14.382
艌	-14.3821
臝	-14.3822
臃	-14.3823
胘	-14.3824
肹	-14.3825
肶	-14.3826
翑	-14.3827
翊	-14.3828
羫	-14.3829
罾	-14.383
罱	-14.3831
繂	-14.3832
緲	-14.3833
綍	-14.3834
紃	-14.3835
粺	-14.3836
籪	-14.3837
簥	-14.3838
篳	-14.3839
篐	-14.384
篌	-14.3841
箯	-14.3842
笎	-14.3843
笇	-14.3844
秮	-14.3845
磥	-14.3846
磓	-14.3847
硯	-14.3848
瞷	-14.3849
瞬	-14.385
瞎	-14.3851
眴	-14.3852
眡	-14.3853
眄	-14.3854
盥	-14.3855
盟	-14.3856
癍	-14.3857
瘳	-14.3858
瘩	-14.3859
瘖	-14.386
疹	-14.3861
疢	-14.3862
甗	-14.3863
璽	-14.3864
瑯	-14.3865
瑁	-14.3866
玳	-14.3867
猻	-14.3868
猣	-14.3869
猢	-14.387
狶	-14.3871
犚	-14.3872
犗	-14.3873
犌	-14.3874
犈	-14.3875
榍	-14.3875
犄	-14.3876
牬	-14.3877
牣	-14.3878
牁	-14.3879
燌	-14.388
熳	-14.3881
煬	-14.3882
炱	-14.3883
漙	-14.3884
漈	-14.3885
漅	-14.3886
湼	-14.3887
湲	-14.3888
渲	-14.3889
涣	-14.389
䄜	-14.3891
䕻	-14.3891
憧	-14.3891
泂	-14.3891
汞	-14.3892
氿	-14.3893
欀	-14.3894
櫼	-14.3895
櫑	-14.3896
櫂	-14.3897
檳	-14.3898
檕	-14.3899
橏	-14.39
橁	-14.3901
樠	-14.3902
槫	-14.3903
槤	-14.3904
棰	-14.3905
桼	-14.3906
夆	-14.3907
摛	-14.3907
桻	-14.3907
檂	-14.3907
灕	-14.3907
桍	-14.3907
栵	-14.3908
柠	-14.3909
柆	-14.391
杣	-14.3911
擎	-14.3912
掙	-14.3913
挄	-14.3914
抿	-14.3915
扱	-14.3916
憮	-14.3917
憃	-14.3918
愜	-14.3919
彙	-14.392
廚	-14.3921
嶝	-14.3922
俫	-14.3923
凘	-14.3923
噰	-14.3923
嫠	-14.3923
孋	-14.3923
廝	-14.3923
澌	-14.3923
犛	-14.3923
跂	-14.3923
寮	-14.3923
宥	-14.3924
嫻	-14.3925
媪	-14.3926
墎	-14.3927
堧	-14.3928
堊	-14.3929
垸	-14.393
嚏	-14.3931
响	-14.3932
咷	-14.3933
叡	-14.3934
匼	-14.3935
匐	-14.3936
匍	-14.3937
刴	-14.3938
哤	-14.3939
庬	-14.3939
凥	-14.3939
冪	-14.394
傲	-14.3941
倬	-14.3942
俑	-14.3943
伽	-14.3944
丐	-14.3945
䳄	-14.3946
䰍	-14.3947
䕵	-14.3948
䕯	-14.3949
䕙	-14.395
䕅	-14.3951
䓮	-14.3952
䋁	-14.3953
䈟	-14.3954
囱	-14.3954
䈙	-14.3955
䇺	-14.3956
䅳	-14.3957
䅀	-14.3958
䃮	-14.3959
㼡	-14.396
㼚	-14.3961
㸽	-14.3962
㷈	-14.3963
㴩	-14.3964
㲦	-14.3965
㰙	-14.3966
㮼	-14.3967
㮏	-14.3968
㬰	-14.3969
㧻	-14.397
㟢	-14.3971
㑊	-14.3972
麷	-14.3973
麒	-14.3974
鷂	-14.3975
鶞	-14.3976
鴞	-14.3977
鳻	-14.3978
魘	-14.3979
魂	-14.398
髴	-14.3981
髣	-14.3982
靽	-14.3983
霡	-14.3984
陘	-14.3985
闤	-14.3986
闠	-14.3987
閫	-14.3988
鑰	-14.3989
鐳	-14.399
鏑	-14.3991
鎋	-14.3992
鎊	-14.3993
錤	-14.3994
鉉	-14.3995
逯	-14.3996
輊	-14.3997
軭	-14.3998
躑	-14.3999
蹹	-14.4
蹬	-14.4001
趐	-14.4002
贑	-14.4003
賭	-14.4004
貒	-14.4005
豴	-14.4006
諴	-14.4007
誨	-14.4008
訏	-14.4009
覼	-14.401
覡	-14.4011
褘	-14.4012
蟒	-14.4013
螬	-14.4014
蝠	-14.4015
蝟	-14.4016
蝙	-14.4017
蜩	-14.4018
蜘	-14.4019
蜈	-14.402
蚾	-14.4021
蚵	-14.4022
蚩	-14.4023
蚣	-14.4024
藠	-14.4025
藇	-14.4026
薝	-14.4027
薃	-14.4028
蔊	-14.4029
蓎	-14.403
葬	-14.4031
萮	-14.4032
荾	-14.4033
苢	-14.4034
膀	-14.4035
脝	-14.4036
胱	-14.4037
胯	-14.4038
羭	-14.4039
羒	-14.404
羇	-14.4041
罃	-14.4042
緤	-14.4043
絪	-14.4044
紜	-14.4045
籼	-14.4046
籅	-14.4047
籄	-14.4048
簹	-14.4049
簦	-14.405
屁	-14.405
惮	-14.405
簢	-14.4051
簛	-14.4052
篨	-14.4053
篔	-14.4054
筧	-14.4055
筡	-14.4056
笱	-14.4057
笯	-14.4058
笭	-14.4059
竢	-14.406
窯	-14.4061
窕	-14.4062
禕	-14.4063
碨	-14.4064
硼	-14.4065
硐	-14.4066
㼭	-14.4066
硎	-14.4067
瘯	-14.4068
痍	-14.4069
畋	-14.407
瓺	-14.4071
瓈	-14.4072
瑚	-14.4073
瑙	-14.4074
兑	-14.4074
啃	-14.4074
珊	-14.4075
玻	-14.4076
玫	-14.4077
獾	-14.4078
獫	-14.4079
獢	-14.408
猲	-14.4081
狣	-14.4082
牤	-14.4083
爁	-14.4084
瀍	-14.4085
涒	-14.4086
泝	-14.4087
毘	-14.4088
欛	-14.4089
櫶	-14.409
呞	-14.409
榹	-14.4091
桎	-14.4092
柍	-14.4093
昺	-14.4094
掭	-14.4095
慊	-14.4096
愒	-14.4097
惲	-14.4098
牱	-14.4098
庵	-14.4099
庋	-14.41
幺	-14.4101
帣	-14.4102
嶔	-14.4103
嵎	-14.4104
孃	-14.4105
嬃	-14.4106
嫄	-14.4107
嚳	-14.4108
喇	-14.4109
咳	-14.411
卣	-14.4111
勩	-14.4112
僥	-14.4113
俐	-14.4114
䏑	-14.4114
搾	-14.4114
敓	-14.4114
仂	-14.4115
䮑	-14.4116
䝐	-14.4117
䙝	-14.4118
䔡	-14.4119
䓠	-14.412
䈱	-14.4121
䃙	-14.4122
岕	-14.4122
㼶	-14.4123
㯿	-14.4124
㪺	-14.4125
㢏	-14.4126
鴦	-14.4127
鴠	-14.4128
鱭	-14.4129
鱨	-14.413
桅	-14.413
馵	-14.4131
靹	-14.4132
雰	-14.4133
闍	-14.4134
鐯	-14.4135
鍏	-14.4136
錙	-14.4137
鉞	-14.4138
槳	-14.4138
橈	-14.4138
蹌	-14.4139
趠	-14.414
讎	-14.4141
襌	-14.4142
蝴	-14.4143
蜮	-14.4144
蜢	-14.4145
蜒	-14.4146
䄱	-14.4146
䴥	-14.4146
儐	-14.4146
厝	-14.4146
掯	-14.4146
蛄	-14.4147
蚼	-14.4148
蚱	-14.4149
蚠	-14.415
虺	-14.4151
薚	-14.4152
蔻	-14.4153
蓓	-14.4154
䰿	-14.4154
䵃	-14.4154
儡	-14.4154
径	-14.4154
昝	-14.4154
楺	-14.4154
灶	-14.4154
蒍	-14.4155
莥	-14.4156
荐	-14.4157
茩	-14.4158
芾	-14.4159
胮	-14.416
胄	-14.4161
耎	-14.4162
䠞	-14.4162
厩	-14.4162
惧	-14.4162
潩	-14.4162
翮	-14.4163
翛	-14.4164
羢	-14.4165
綢	-14.4166
籹	-14.4167
篰	-14.4168
箉	-14.4169
筀	-14.417
殕	-14.417
穮	-14.4171
穖	-14.4172
矛	-14.4173
睍	-14.4174
癆	-14.4175
痌	-14.4176
珂	-14.4177
犲	-14.4178
㨠	-14.4178
侜	-14.4178
枤	-14.4178
獒	-14.4178
牿	-14.4179
煞	-14.418
濈	-14.4181
洧	-14.4182
汔	-14.4183
楨	-14.4184
楢	-14.4185
椐	-14.4186
􁥯	-14.4186
䀨	-14.4186
凓	-14.4186
嚷	-14.4186
棯	-14.4187
棓	-14.4188
梴	-14.4189
桋	-14.419
栩	-14.4191
臙	-14.4192
摝	-14.4192
掎	-14.4193
閻	-14.4194
挲	-14.4194
㠌	-14.4194
䆂	-14.4194
䵍	-14.4194
佽	-14.4194
儹	-14.4194
庌	-14.4194
悃	-14.4194
慳	-14.4194
楼	-14.4194
犠	-14.4194
鱠	-14.4194
扯	-14.4195
慄	-14.4196
恙	-14.4197
忖	-14.4198
徬	-14.4199
徨	-14.42
彪	-14.4201
嵊	-14.4202
㡛	-14.4202
䵟	-14.4202
噩	-14.4202
墋	-14.4202
妝	-14.4202
尘	-14.4202
戱	-14.4202
挻	-14.4202
歃	-14.4202
滬	-14.4202
澭	-14.4202
熡	-14.4202
猋	-14.4202
屧	-14.4203
寨	-14.4204
娵	-14.4205
圊	-14.4206
嚌	-14.4207
嚀	-14.4208
嗅	-14.4209
喿	-14.421
㞜	-14.421
䋀	-14.421
亹	-14.421
仳	-14.421
凃	-14.421
妹	-14.421
妺	-14.421
孅	-14.421
曛	-14.421
杔	-14.421
杲	-14.421
棑	-14.421
槓	-14.421
毹	-14.421
氽	-14.421
淝	-14.421
渒	-14.421
湭	-14.421
澘	-14.421
爺	-14.421
喎	-14.4211
叮	-14.4212
劫	-14.4213
冱	-14.4214
䥓	-14.4215
䝄	-14.4216
䗲	-14.4217
䓞	-14.4218
㠄	-14.4218
㦄	-14.4218
䅜	-14.4218
䘌	-14.4218
兊	-14.4218
号	-14.4218
唻	-14.4218
塪	-14.4218
娭	-14.4218
懟	-14.4218
旴	-14.4218
溵	-14.4218
澽	-14.4218
焠	-14.4218
熅	-14.4218
䈪	-14.4219
䃀	-14.422
㸤	-14.4221
㰖	-14.4222
㕮	-14.4223
黽	-14.4224
黦	-14.4225
鱺	-14.4226
㓨	-14.4226
䄋	-14.4226
䅌	-14.4226
䘙	-14.4226
佷	-14.4226
妓	-14.4226
嫣	-14.4226
宷	-14.4226
崸	-14.4226
怛	-14.4226
悼	-14.4226
揳	-14.4226
揵	-14.4226
摠	-14.4226
昜	-14.4226
枓	-14.4226
桮	-14.4226
槼	-14.4226
檘	-14.4226
鯔	-14.4227
靶	-14.4228
靂	-14.4229
軾	-14.423
誑	-14.4231
褰	-14.4232
蠍	-14.4233
蚄	-14.4234
㰱	-14.4234
㽘	-14.4234
䅹	-14.4234
䇞	-14.4234
䋺	-14.4234
䏺	-14.4234
䣃	-14.4234
勗	-14.4234
吼	-14.4234
哦	-14.4234
唁	-14.4234
噶	-14.4234
型	-14.4234
慓	-14.4234
揸	-14.4234
撱	-14.4234
桚	-14.4234
棖	-14.4234
橊	-14.4234
檇	-14.4234
櫽	-14.4234
殣	-14.4234
狠	-14.4234
螄	-14.4234
蘬	-14.4235
蔤	-14.4236
葴	-14.4237
荎	-14.4238
茳	-14.4239
茉	-14.424
朏	-14.424
膨	-14.4241
縶	-14.4242
䂩	-14.4242
䅝	-14.4242
䅵	-14.4242
僨	-14.4242
勌	-14.4242
勠	-14.4242
匳	-14.4242
垈	-14.4242
姥	-14.4242
娉	-14.4242
娟	-14.4242
尫	-14.4242
廛	-14.4242
愀	-14.4242
摰	-14.4242
攄	-14.4242
攰	-14.4242
梩	-14.4242
毆	-14.4242
汉	-14.4242
沆	-14.4242
淼	-14.4242
牓	-14.4242
緂	-14.4242
羳	-14.4242
羷	-14.4242
覬	-14.4242
颭	-14.4242
糳	-14.4243
篃	-14.4244
稐	-14.4245
稇	-14.4246
禬	-14.4247
眇	-14.4248
畷	-14.4249
琊	-14.425
㒹	-14.425
㓢	-14.425
䇶	-14.425
䔫	-14.425
䬯	-14.425
䭓	-14.425
䴹	-14.425
仿	-14.425
佯	-14.425
僊	-14.425
凴	-14.425
勹	-14.425
叛	-14.425
呰	-14.425
咄	-14.425
嚐	-14.425
堥	-14.425
寀	-14.425
彝	-14.425
悰	-14.425
柮	-14.425
榾	-14.425
橞	-14.425
殯	-14.425
泞	-14.425
潚	-14.425
灸	-14.425
瑜	-14.425
觠	-14.425
訥	-14.425
獮	-14.4251
爂	-14.4252
䏎	-14.4252
溏	-14.4253
湢	-14.4254
壼	-14.4254
褪	-14.4254
阯	-14.4255
檵	-14.4255
樨	-14.4256
猼	-14.4256
楯	-14.4257
梬	-14.4258
㚄	-14.4258
㨑	-14.4258
䍽	-14.4258
䎱	-14.4258
䦆	-14.4258
䧏	-14.4258
䲻	-14.4258
凊	-14.4258
凟	-14.4258
咫	-14.4258
啔	-14.4258
喈	-14.4258
嘒	-14.4258
噀	-14.4258
埇	-14.4258
嫂	-14.4258
峨	-14.4258
嶍	-14.4258
嶧	-14.4258
廰	-14.4258
慒	-14.4258
懅	-14.4258
挣	-14.4258
捒	-14.4258
搤	-14.4258
擸	-14.4258
曖	-14.4258
杕	-14.4258
柲	-14.4258
桕	-14.4258
槷	-14.4258
淙	-14.4258
溱	-14.4258
漯	-14.4258
漴	-14.4258
瀨	-14.4258
灧	-14.4258
爞	-14.4258
舠	-14.4258
搒	-14.4259
曄	-14.4259
煒	-14.4259
攕	-14.4259
嘿	-14.4259
岩	-14.4259
搪	-14.426
徘	-14.4261
墖	-14.4261
妣	-14.4262
劎	-14.4262
塈	-14.4263
囏	-14.4264
儽	-14.4265
䪊	-14.4266
㓚	-14.4266
㖥	-14.4266
㙭	-14.4266
㟭	-14.4266
㤀	-14.4266
㤝	-14.4266
㰍	-14.4266
㳰	-14.4266
㺅	-14.4266
䆏	-14.4266
䉀	-14.4266
䓪	-14.4266
䔍	-14.4266
䔒	-14.4266
䘖	-14.4266
䙫	-14.4266
䜫	-14.4266
仃	-14.4266
仇	-14.4266
佻	-14.4266
偘	-14.4266
儺	-14.4266
劻	-14.4266
勍	-14.4266
勳	-14.4266
唘	-14.4266
囁	-14.4266
堋	-14.4266
塿	-14.4266
姪	-14.4266
娀	-14.4266
崽	-14.4266
忡	-14.4266
怙	-14.4266
悋	-14.4266
悤	-14.4266
慧	-14.4266
憘	-14.4266
懵	-14.4266
暱	-14.4266
曚	-14.4266
曨	-14.4266
曯	-14.4266
朣	-14.4266
权	-14.4266
枑	-14.4266
桒	-14.4266
棤	-14.4266
涑	-14.4266
涫	-14.4266
渢	-14.4266
滱	-14.4266
漣	-14.4266
炸	-14.4266
煢	-14.4266
狨	-14.4266
筏	-14.4266
䞇	-14.4267
䜶	-14.4268
㲲	-14.4269
齕	-14.427
鷓	-14.4271
鶡	-14.4272
鴣	-14.4273
駸	-14.4274
㑺	-14.4274
㽵	-14.4274
㿔	-14.4274
䉴	-14.4274
仝	-14.4274
嫘	-14.4274
孿	-14.4274
帨	-14.4274
惆	-14.4274
捥	-14.4274
搌	-14.4274
无	-14.4274
旧	-14.4274
曈	-14.4274
朢	-14.4274
杄	-14.4274
柝	-14.4274
栨	-14.4274
椁	-14.4274
楇	-14.4274
槵	-14.4274
樾	-14.4274
毚	-14.4274
淯	-14.4274
渦	-14.4274
滍	-14.4274
澂	-14.4274
焣	-14.4274
猱	-14.4274
甔	-14.4274
砭	-14.4274
駮	-14.4275
颿	-14.4276
閶	-14.4277
逍	-14.4278
躪	-14.4279
跎	-14.428
虸	-14.4281
薞	-14.4282
㠶	-14.4283
㮇	-14.4283
㯈	-14.4283
䄛	-14.4283
䓢	-14.4283
䬦	-14.4283
䵩	-14.4283
侗	-14.4283
冺	-14.4283
剞	-14.4283
劂	-14.4283
呀	-14.4283
囓	-14.4283
姒	-14.4283
悁	-14.4283
憒	-14.4283
扙	-14.4283
扡	-14.4283
扭	-14.4283
旂	-14.4283
朌	-14.4283
汏	-14.4283
渙	-14.4283
漥	-14.4283
灔	-14.4283
熁	-14.4283
爱	-14.4283
蔯	-14.4283
蒾	-14.4284
葸	-14.4285
葳	-14.4286
葎	-14.4287
苨	-14.4288
胙	-14.4289
繚	-14.429
㕍	-14.4291
䓴	-14.4291
䘲	-14.4291
䮂	-14.4291
侃	-14.4291
劔	-14.4291
匵	-14.4291
嗔	-14.4291
嘏	-14.4291
埠	-14.4291
墥	-14.4291
壹	-14.4291
宄	-14.4291
屡	-14.4291
崢	-14.4291
徕	-14.4291
忼	-14.4291
愉	-14.4291
愞	-14.4291
抓	-14.4291
晬	-14.4291
暾	-14.4291
曇	-14.4291
梱	-14.4291
湔	-14.4291
濉	-14.4291
炁	-14.4291
煟	-14.4291
牰	-14.4291
箑	-14.4291
礩	-14.4292
疀	-14.4293
甆	-14.4294
喟	-14.4295
瀽	-14.4295
滀	-14.4296
渟	-14.4297
櫰	-14.4298
㛰	-14.4299
䒭	-14.4299
你	-14.4299
傯	-14.4299
卝	-14.4299
嘵	-14.4299
圝	-14.4299
姨	-14.4299
孏	-14.4299
愓	-14.4299
拚	-14.4299
揑	-14.4299
敉	-14.4299
榣	-14.4299
檈	-14.4299
氤	-14.4299
氲	-14.4299
瀺	-14.4299
灂	-14.4299
焕	-14.4299
牾	-14.4299
瑄	-14.4299
櫬	-14.4299
榩	-14.43
柌	-14.4301
昕	-14.4302
斾	-14.4303
斪	-14.4304
挃	-14.4305
戔	-14.4306
㙮	-14.4307
㴽	-14.4307
䅂	-14.4307
䡦	-14.4307
么	-14.4307
囹	-14.4307
圄	-14.4307
媧	-14.4307
帊	-14.4307
怗	-14.4307
悚	-14.4307
惶	-14.4307
扠	-14.4307
拃	-14.4307
攗	-14.4307
櫝	-14.4307
爟	-14.4307
茢	-14.4307
陬	-14.4307
憔	-14.4307
忒	-14.4308
录	-14.4309
弼	-14.431
嬪	-14.4311
嘖	-14.4312
唶	-14.4313
叱	-14.4314
蕓	-14.4314
㬢	-14.4315
㯏	-14.4315
䀌	-14.4315
刲	-14.4315
厖	-14.4315
墹	-14.4315
寞	-14.4315
崘	-14.4315
崴	-14.4315
幻	-14.4315
怱	-14.4315
悸	-14.4315
慤	-14.4315
挱	-14.4315
晣	-14.4315
枺	-14.4315
犜	-14.4315
猜	-14.4315
䕲	-14.4315
䄷	-14.4316
㼎	-14.4317
㷀	-14.4318
㨝	-14.4319
鰥	-14.432
颶	-14.4321
頊	-14.4322
㒒	-14.4323
㞯	-14.4323
㢠	-14.4323
㫺	-14.4323
䱒	-14.4323
伉	-14.4323
喞	-14.4323
嫜	-14.4323
巓	-14.4323
惋	-14.4323
慆	-14.4323
憜	-14.4323
擭	-14.4323
歜	-14.4323
漶	-14.4323
瀠	-14.4323
炰	-14.4323
邳	-14.4323
轢	-14.4324
螵	-14.4325
藾	-14.4326
翫	-14.4327
簠	-14.4328
簋	-14.4329
穁	-14.433
䁧	-14.4331
䭸	-14.4331
侠	-14.4331
啙	-14.4331
婵	-14.4331
媛	-14.4331
岑	-14.4331
廞	-14.4331
恱	-14.4331
昃	-14.4331
涘	-14.4331
瀐	-14.4331
瘼	-14.4331
獼	-14.4332
犒	-14.4333
泓	-14.4334
櫞	-14.4335
櫅	-14.4336
榅	-14.4337
撝	-14.4338
㙩	-14.4339
㮶	-14.4339
偬	-14.4339
咯	-14.4339
壒	-14.4339
壻	-14.4339
嵋	-14.4339
戺	-14.4339
担	-14.4339
殱	-14.4339
湡	-14.4339
濆	-14.4339
焭	-14.4339
遫	-14.4339
撙	-14.4339
拮	-14.434
戮	-14.4341
娠	-14.4342
咂	-14.4343
䩞	-14.4344
䕡	-14.4345
餿	-14.4346
㧹	-14.4347
䶉	-14.4347
删	-14.4347
剿	-14.4347
呆	-14.4347
妒	-14.4347
姫	-14.4347
欷	-14.4347
歔	-14.4347
涙	-14.4347
瀬	-14.4347
頷	-14.4347
隤	-14.4348
趵	-14.4349
諄	-14.435
訂	-14.4351
蟈	-14.4352
蛸	-14.4353
萯	-14.4354
凾	-14.4355
剴	-14.4355
彜	-14.4355
徯	-14.4355
淇	-14.4355
茺	-14.4355
芩	-14.4356
胭	-14.4357
罽	-14.4358
皵	-14.4359
潺	-14.436
歪	-14.4361
栟	-14.4362
搰	-14.4363
䬲	-14.4363
倳	-14.4363
崤	-14.4363
橝	-14.4363
拶	-14.4364
孜	-14.4365
嘻	-14.4366
䈽	-14.4367
㵚	-14.4368
㘭	-14.4369
鷙	-14.437
鵪	-14.4371
咋	-14.4371
囙	-14.4371
娶	-14.4371
媿	-14.4371
懁	-14.4371
毦	-14.4371
浡	-14.4371
爕	-14.4371
頡	-14.4372
鑼	-14.4373
芫	-14.4374
礫	-14.4375
疽	-14.4376
氄	-14.4377
桲	-14.4378
噍	-14.4379
㯼	-14.4379
体	-14.4379
夸	-14.4379
撛	-14.4379
泜	-14.4379
牎	-14.4379
鮧	-14.4379
劭	-14.438
凹	-14.4381
䆉	-14.4382
𨫼	-14.4383
颼	-14.4384
鋻	-14.4385
郟	-14.4386
襏	-14.4387
卺	-14.4387
蔏	-14.4388
框	-14.4389
擻	-14.439
俚	-14.4391
餬	-14.4392
鄲	-14.4393
蹠	-14.4394
踴	-14.4395
䥟	-14.4395
柈	-14.4395
賁	-14.4396
菩	-14.4397
荸	-14.4398
稏	-14.4399
珀	-14.44
溷	-14.4401
沍	-14.4402
楣	-14.4403
㵲	-14.4403
堫	-14.4403
瀸	-14.4403
栳	-14.4404
噏	-14.4405
努	-14.4406
儁	-14.4407
鹺	-14.4408
頟	-14.4409
遑	-14.441
蟇	-14.4411
俏	-14.4411
搃	-14.4411
澳	-14.4411
蘼	-14.4412
蓂	-14.4413
蒝	-14.4414
茯	-14.4415
筳	-14.4416
皿	-14.4417
癬	-14.4418
畟	-14.4419
咤	-14.4419
慟	-14.4419
柙	-14.4419
劁	-14.442
詵	-14.4421
沔	-14.4422
娑	-14.4423
嗚	-14.4424
邯	-14.4425
蟋	-14.4426
蟀	-14.4427
㨱	-14.4427
蚖	-14.4428
葆	-14.4429
畇	-14.443
瑾	-14.4431
葒	-14.4432
櫚	-14.4433
椅	-14.4434
堨	-14.4435
駃	-14.4436
澔	-14.4436
拇	-14.4437
彿	-14.4438
噙	-14.4439
䖆	-14.444
㯽	-14.4441
藺	-14.4442
秭	-14.4443
䕷	-14.4444
薐	-14.4445
胝	-14.4446
沽	-14.4447
傴	-14.4448
鯽	-14.4449
豍	-14.445
檿	-14.4451
㼓	-14.4452
奎	-14.4452
甋	-14.4453
桄	-14.4454
掇	-14.4455
蕒	-14.4456
亘	-14.4457
髠	-14.4458
郵	-14.4459
耔	-14.446
惓	-14.4461
髀	-14.4462
橄	-14.4463
奭	-14.4464
蒺	-14.4465
蓇	-14.4466
茴	-14.4467
薏	-14.4468
饉	-14.4469
萵	-14.447
楞	-14.4471
泔	-14.4472
茱	-14.4473
橡	-14.4474
攛	-14.4475
㦲	-14.4476
央	-14.4476
銛	-14.4476
