<unk>	0
<s>	0
</s>	0
/	-4.08857
之	-4.17696
(	-4.41189
也	-4.54331
為	-4.59858
)	-4.66574
而	-4.8212
者	-4.8382
)(	-4.89929
有	-4.94404
以	-4.99645
則	-5.14272
日	-5.17725
不	-5.25418
其	-5.31972
一	-5.42819
主	-5.49951
中	-5.56874
無	-5.61227
人	-5.64348
在	-5.65751
星	-5.67072
生	-5.67436
於	-5.68826
天	-5.71567
如	-5.73948
水	-5.7833
三	-5.79161
月	-5.81806
若	-5.82263
大	-5.8255
見	-5.82628
/)	-5.83777
故	-5.8378
子	-5.83971
得	-5.86366
□	-5.86994
與	-5.87113
四	-5.87911
上	-5.88146
金	-5.88738
二	-5.88751
火	-5.90419
時	-5.95663
相	-5.97862
行	-6.00341
五	-6.01359
曰	-6.02062
陽	-6.02513
入	-6.05564
是	-6.05841
木	-6.06344
多	-6.07418
合	-6.07653
至	-6.08592
土	-6.08639
又	-6.10151
自	-6.10738
此	-6.11148
用	-6.12348
貴	-6.13329
氣	-6.13723
神	-6.16261
或	-6.16408
出	-6.17245
命	-6.19628
下	-6.20132
吉	-6.20869
六	-6.21906
地	-6.23438
隂	-6.25069
分	-6.25274
宫	-6.26951
所	-6.27898
年	-6.28509
皆	-6.32144
位	-6.37227
凶	-6.39032
亦	-6.42615
▁	-6.43227
未	-6.43964
居	-6.44233
事	-6.45574
正	-6.46184
乃	-6.46244
成	-6.46634
王	-6.49271
數	-6.49808
明	-6.51139
同	-6.51386
當	-6.5208
財	-6.52181
死	-6.5242
官	-6.52577
後	-6.53914
作	-6.5465
煞	-6.55217
九	-6.56224
必	-6.57627
辰	-6.57907
起	-6.58917
來	-6.59615
方	-6.59649
言	-6.60476
從	-6.63054
七	-6.64721
元	-6.65849
身	-6.66908
矣	-6.69787
遇	-6.70812
度	-6.71066
八	-6.7177
心	-6.72413
宜	-6.72705
論	-6.73486
道	-6.73508
平	-6.75105
于	-6.75999
逢	-6.76032
巳	-6.76595
臨	-6.76838
運	-6.76984
兩	-6.77195
忌	-6.77259
更	-6.77889
國	-6.7908
加	-6.80169
寅	-6.80792
申	-6.81318
福	-6.81452
長	-6.81726
兵	-6.82251
非	-6.82771
及	-6.82867
亥	-6.82893
卦	-6.83203
外	-6.83448
山	-6.83568
小	-6.85783
將	-6.86017
重	-6.8641
前	-6.87016
喜	-6.87154
名	-6.88343
甲	-6.88546
難	-6.88777
午	-6.88951
内	-6.89039
刑	-6.89503
旺	-6.89518
可	-6.90816
禄	-6.92319
十	-6.924
尅	-6.92971
家	-6.93692
即	-6.93809
守	-6.94483
乎	-6.94652
本	-6.94822
南	-6.9492
嵗	-6.95509
乾	-6.95752
龍	-6.96138
定	-6.9637
占	-6.96515
易	-6.96887
處	-6.97262
丑	-6.9886
傷	-6.99291
雖	-6.99428
取	-6.99788
失	-6.99789
反	-7.00134
戌	-7.00618
交	-7.01044
然	-7.01293
酉	-7.01671
動	-7.02565
立	-7.02611
離	-7.02873
變	-7.02994
徳	-7.03663
應	-7.04811
馬	-7.05128
破	-7.05227
門	-7.05492
臣	-7.05546
干	-7.06087
象	-7.06595
㑹	-7.07082
君	-7.0717
夫	-7.07377
能	-7.0757
鬼	-7.07934
始	-7.08929
宿	-7.09623
物	-7.09732
已	-7.10303
法	-7.10786
安	-7.10816
去	-7.11074
謂	-7.11255
化	-7.11297
災	-7.11905
憂	-7.11937
通	-7.12788
女	-7.13126
亡	-7.13566
發	-7.13704
北	-7.13961
西	-7.14008
先	-7.14144
文	-7.14151
禍	-7.15616
周	-7.15912
東	-7.16149
食	-7.16389
云	-7.16923
不可	-7.18576
爲	-7.18613
何	-7.18843
五行	-7.1899
俱	-7.1972
坤	-7.19783
知	-7.2005
利	-7.20276
要	-7.20385
風	-7.20704
餘	-7.21141
凡	-7.21353
復	-7.2138
少	-7.22088
公	-7.2214
形	-7.22251
足	-7.23064
髙	-7.23204
天下	-7.23874
終	-7.25075
卯	-7.26981
常	-7.27463
限	-7.28544
庚	-7.28684
頭	-7.30091
殺	-7.30165
虚	-7.30201
隂陽	-7.30325
又曰	-7.30839
好	-7.30959
白	-7.31369
坐	-7.31386
局	-7.3182
犯	-7.3195
衝	-7.32193
初	-7.32798
須	-7.33152
十二	-7.33217
體	-7.3348
空	-7.33585
經	-7.34327
欲	-7.34938
丁	-7.35338
丙	-7.36211
各	-7.36374
我	-7.36544
理	-7.36666
○	-7.37044
角	-7.37106
乙	-7.37453
義	-7.37646
病	-7.37781
直	-7.37822
光	-7.38033
絶	-7.38127
陰	-7.38683
萬	-7.39365
受	-7.39369
極	-7.39429
和	-7.39866
流	-7.40186
害	-7.4093
敗	-7.41055
實	-7.4154
格	-7.41645
夜	-7.41773
全	-7.41842
因	-7.42059
謂之	-7.42072
民	-7.42698
向	-7.43201
休	-7.43235
建	-7.4381
歸	-7.44187
印	-7.44444
夏	-7.44763
進	-7.44775
帝	-7.44964
順	-7.45076
壬	-7.45377
辛	-7.45696
支	-7.45819
耳	-7.45913
春	-7.46381
震	-7.47522
危	-7.47985
次	-7.48223
推	-7.48591
盡	-7.486
止	-7.4898
世	-7.48988
艮	-7.49777
伏	-7.50271
色	-7.50592
祿	-7.5087
求	-7.5144
今	-7.52134
日月	-7.52191
令	-7.52305
貴人	-7.5249
開	-7.53182
性	-7.53339
亂	-7.53555
一曰	-7.53809
書	-7.5413
母	-7.54152
到	-7.54386
制	-7.54504
過	-7.54575
清	-7.54933
黄	-7.54996
首	-7.5507
太	-7.55853
縣	-7.55943
歲	-7.56293
使	-7.56617
惡	-7.56947
帶	-7.56965
天地	-7.57136
秋	-7.57466
德	-7.57495
妻	-7.57759
惟	-7.58663
盛	-7.59195
百	-7.5937
祥	-7.59938
張	-7.60454
咎	-7.60983
刻	-7.6156
藏	-7.62155
聲	-7.62174
戊	-7.62299
富	-7.62965
軍	-7.63737
退	-7.63815
戰	-7.63818
右	-7.64009
屬	-7.64011
疾	-7.64538
冬	-7.64632
甲子	-7.6472
墓	-7.64956
字	-7.64993
善	-7.65438
癸	-7.65674
左	-7.65834
坎	-7.66119
逺	-7.66844
節	-7.66951
不能	-7.67581
却	-7.6785
虎	-7.6787
近	-7.67871
赤	-7.68103
目	-7.68358
半	-7.69269
己	-7.69622
乗	-7.69681
逆	-7.69972
照	-7.70144
飛	-7.70451
富貴	-7.70592
曜	-7.70686
室	-7.70743
乘	-7.7082
音	-7.70952
灾	-7.71025
焉	-7.71608
諸	-7.71708
齊	-7.72152
井	-7.72172
異	-7.72229
且	-7.72252
損	-7.72373
所以	-7.72455
謀	-7.72665
强	-7.72695
解	-7.73475
竒	-7.74039
觀	-7.74338
弱	-7.74425
巽	-7.74551
圖	-7.74763
漢	-7.74843
天子	-7.75555
武	-7.75962
孤	-7.76218
萬物	-7.76364
龜	-7.76389
晉	-7.76574
傳	-7.76646
衰	-7.76912
參	-7.77148
州	-7.77455
興	-7.77486
悔	-7.78131
類	-7.78293
治	-7.78784
夘	-7.78855
精	-7.78901
雨	-7.79196
勝	-7.79224
樂	-7.79923
生人	-7.80314
隨	-7.8046
朝	-7.80547
獨	-7.80868
别	-7.81422
太陽	-7.81658
散	-7.81913
權	-7.81993
等	-7.82127
口	-7.82235
既	-7.82336
猶	-7.82353
之象	-7.82549
只	-7.8323
莫	-7.83244
兼	-7.8338
男	-7.83562
但	-7.83798
榮	-7.83837
三合	-7.83855
斗	-7.84283
氏	-7.84295
石氏曰	-7.84548
之地	-7.84585
克	-7.8466
政	-7.84686
是也	-7.84743
積	-7.84918
而不	-7.84976
並	-7.85438
秦	-7.85502
便	-7.85817
背	-7.86299
暗	-7.86515
君子	-7.86528
剛	-7.8666
聚	-7.87183
計	-7.87598
故曰	-7.87751
吝	-7.87792
尾	-7.88022
偏	-7.88825
顯	-7.8914
深	-7.89291
以為	-7.8945
賊	-7.89563
衆	-7.89825
視	-7.90164
真	-7.90264
期	-7.90296
牛	-7.90834
甲寅	-7.91821
輕	-7.9201
配	-7.92506
師	-7.92591
間	-7.92869
石	-7.92922
太隂	-7.9332
葢	-7.93527
伐	-7.93532
最	-7.93554
值	-7.93735
轉	-7.93778
比	-7.93834
除	-7.9406
孛	-7.94314
丙寅	-7.94478
滿	-7.94572
河	-7.94934
尤	-7.95295
吉凶	-7.95488
親	-7.95501
千	-7.95597
斷	-7.95722
舉	-7.9624
厯	-7.97005
夀	-7.97386
被	-7.97875
十六	-7.9789
雲	-7.98104
併	-7.98202
客	-7.98571
意	-7.98609
晝	-7.98671
太白	-7.99006
原	-7.99566
爻	-7.99776
不得	-7.99799
不宜	-7.99944
城	-8.00203
益	-8.00575
畢	-8.00589
望	-8.00637
胎	-8.00777
力	-8.00799
信	-8.00929
詳	-8.0153
助	-8.01725
玉	-8.02
歳	-8.02258
老	-8.02455
宅	-8.02791
修	-8.03213
厚	-8.03382
房	-8.03521
鄉	-8.03771
對	-8.03952
還	-8.04346
靈	-8.04535
青	-8.04645
十一	-8.04666
其國	-8.05129
留	-8.05383
丙丁	-8.05841
骨	-8.05877
輔	-8.06018
中有	-8.06044
看	-8.06093
庫	-8.06381
車	-8.06479
尊	-8.06514
并	-8.06545
兵起	-8.06564
羅	-8.06941
按	-8.06969
壬子	-8.07377
府	-8.07667
勢	-8.07862
紀	-8.07891
甲申	-8.08062
横	-8.08522
之類	-8.08715
之所	-8.08746
切	-8.09665
柔	-8.09924
古	-8.10043
所謂	-8.10278
之氣	-8.10742
課	-8.10925
微	-8.11197
三十	-8.11233
丙午	-8.11302
由	-8.11302
𤣥	-8.11842
之數	-8.11959
高	-8.12061
㐫	-8.12192
致	-8.12299
怕	-8.12301
候	-8.12368
父	-8.12497
空亡	-8.12653
二十	-8.12666
田	-8.12672
再	-8.12729
就	-8.13149
五十	-8.13162
寒	-8.13269
宋	-8.13461
旬	-8.13865
甚	-8.13911
禮	-8.13954
上下	-8.13961
甲午	-8.14031
不利	-8.14217
走	-8.14383
穴	-8.14924
之位	-8.15
甲戌	-8.15088
説	-8.15242
滅	-8.15347
海	-8.15393
他	-8.15826
垣	-8.15866
刃	-8.15928
癸亥	-8.16203
逄	-8.16357
蛇	-8.16755
熒惑	-8.16972
卷	-8.17062
降	-8.17578
差	-8.17766
丙子	-8.17867
之中	-8.17923
丁巳	-8.17933
指	-8.18112
賤	-8.18146
白虎	-8.19118
稱	-8.19234
甘氏曰	-8.19846
伯	-8.19936
黒	-8.19944
落	-8.20287
三月	-8.20481
戊寅	-8.20617
諸侯	-8.20864
不見	-8.21287
窮	-8.2133
躔	-8.21345
宮	-8.21489
辰戌	-8.21642
金水	-8.21664
共	-8.2206
五星	-8.2227
章	-8.22472
疑	-8.22602
壬午	-8.22721
庚寅	-8.22806
正月	-8.23083
壬寅	-8.23116
根	-8.2312
乙丑	-8.23132
納音	-8.23452
生旺	-8.23712
蓋	-8.23889
貧	-8.23918
四時	-8.23974
十三	-8.24016
遂	-8.24068
戊午	-8.24145
庚午	-8.24237
總	-8.24282
賢	-8.24336
長生	-8.24356
甲乙	-8.24454
置	-8.24713
庚子	-8.24777
年月	-8.25128
箕	-8.25292
貞	-8.25317
宗	-8.25455
庚辛	-8.25925
雷	-8.26153
訟	-8.26182
都	-8.26241
財官	-8.26254
乙酉	-8.2626
楚	-8.2637
将	-8.26422
存	-8.26513
載	-8.26718
己亥	-8.26786
景	-8.26788
舍	-8.26888
十五	-8.27099
庚申	-8.27588
端	-8.27869
暴	-8.27898
雜	-8.27919
己巳	-8.28014
兮	-8.28049
炁	-8.28255
邑	-8.28273
列	-8.28284
亢	-8.28889
誅	-8.28987
學	-8.29034
消	-8.29223
露	-8.29236
威	-8.2932
虛	-8.29491
末	-8.2954
夭	-8.29643
眼	-8.29654
恩	-8.29697
逆行	-8.29724
戊子	-8.2986
甲辰	-8.29919
戊辰	-8.29981
祖	-8.30014
魏	-8.30317
王者	-8.30414
息	-8.30448
父母	-8.30501
翼	-8.3057
可以	-8.30634
美	-8.31225
任	-8.31549
司	-8.31654
薄	-8.31677
丙戌	-8.31737
商	-8.31902
太嵗	-8.32128
兌	-8.322
救	-8.32222
遊	-8.3226
身命	-8.32336
左右	-8.32463
丁丑	-8.32599
衛	-8.32682
仁	-8.32849
小人	-8.33012
癸丑	-8.33099
圓	-8.332
盖	-8.33376
壬申	-8.33381
拱	-8.33415
闗	-8.33529
妙	-8.33583
丁亥	-8.33666
豐	-8.33716
癸酉	-8.33762
官星	-8.33811
兆	-8.33865
短	-8.33882
奎	-8.33962
辛未	-8.34022
壽	-8.34212
功	-8.34303
血	-8.34456
壬癸	-8.34577
似	-8.34671
路	-8.34725
囚	-8.34736
志	-8.34919
辛亥	-8.3496
十四	-8.35021
執	-8.35069
陳	-8.35215
乙亥	-8.35233
測曰	-8.353
秀	-8.35354
折	-8.35493
季	-8.35602
急	-8.3563
升	-8.35819
辛酉	-8.35829
純	-8.35852
䘮	-8.35928
朔	-8.36034
四柱	-8.36057
士	-8.36263
癸未	-8.36382
生於	-8.36484
也故	-8.36656
遲	-8.36721
移	-8.36929
依	-8.36967
辰巳	-8.37
戊申	-8.37021
十月	-8.37106
之事	-8.37174
養	-8.37261
六合	-8.37341
庚辰	-8.37428
咸	-8.37436
有兵	-8.37704
辛丑	-8.37873
太極	-8.37899
戊戌	-8.38036
廣	-8.38149
代	-8.38278
驚	-8.38392
必有	-8.3862
昌	-8.38675
卜	-8.38757
澤	-8.38892
表	-8.38973
例	-8.39132
兄弟	-8.3916
面	-8.39287
㸔	-8.39307
著	-8.39493
際	-8.39826
己未	-8.39829
后	-8.39877
丁未	-8.40211
胃	-8.40284
干上	-8.40356
大貴	-8.40383
梁	-8.40458
禽	-8.40527
癸巳	-8.4055
情	-8.40618
眉	-8.40924
乙未	-8.41024
丙申	-8.41054
二十四	-8.41102
夾	-8.41281
己丑	-8.41331
困	-8.41397
野	-8.41426
者也	-8.41454
庚戌	-8.41693
否	-8.41856
又云	-8.42044
大臣	-8.42054
永	-8.42218
扶	-8.42261
軫	-8.42767
逐	-8.42842
壬辰	-8.42953
律	-8.43024
殃	-8.4307
▁(	-8.43334
氐	-8.43412
傷官	-8.43496
丁酉	-8.43529
尚	-8.43685
廟	-8.43703
燕	-8.43724
江	-8.44103
遷	-8.44105
漸	-8.44355
登	-8.44754
語	-8.44792
三十六	-8.44808
喪	-8.44825
華	-8.4501
豈	-8.45106
之間	-8.45157
濟	-8.45434
固	-8.45533
東南	-8.4569
春秋	-8.45744
辛巳	-8.45786
手	-8.45868
連	-8.46271
專	-8.46301
堂	-8.46457
考	-8.46656
引	-8.46729
備	-8.46856
六十	-8.46961
魚	-8.47022
日時	-8.47032
哉	-8.47092
昴	-8.47268
不同	-8.47585
畏	-8.47594
細	-8.47694
太乙	-8.477
丙辰	-8.47756
進士	-8.47797
聖人	-8.47887
侯	-8.48036
說	-8.48094
西北	-8.48123
己酉	-8.48303
壬戌	-8.4836
序	-8.48433
郗萌曰	-8.48486
晦	-8.48637
造	-8.48978
陰陽	-8.49076
辨	-8.49244
乙巳	-8.49373
是謂	-8.49471
西方	-8.49755
尚書	-8.49796
舊	-8.49846
縱	-8.50004
蝕	-8.50065
名曰	-8.50123
將軍	-8.50217
擊	-8.50242
十二月	-8.50282
㣲	-8.50348
趙	-8.50406
八卦	-8.50533
旺相	-8.50721
強	-8.51042
泰	-8.51071
東方	-8.51273
篇	-8.51319
二月	-8.51365
枝	-8.5147
不出	-8.5156
月建	-8.51578
機	-8.51795
號	-8.52005
往	-8.5212
四月	-8.52143
盈	-8.52241
林	-8.52258
問	-8.52464
服	-8.527
術	-8.52907
揚	-8.52969
則為	-8.53076
戊巳	-8.53094
火土	-8.53282
為福	-8.53469
聖	-8.53535
良	-8.53617
職	-8.53936
唐	-8.53996
納	-8.54145
夷	-8.54167
人之	-8.54244
八月	-8.5443
旱	-8.54569
至於	-8.54646
一生	-8.54659
淫	-8.54999
干支	-8.55236
卒	-8.55287
為官	-8.55312
㓙	-8.55327
十一月	-8.55411
蒙	-8.5556
十八	-8.5614
封	-8.56356
鳴	-8.5642
而後	-8.56638
者為	-8.57051
二十五	-8.57054
黑	-8.57228
患	-8.57563
以上	-8.5786
承	-8.57876
源	-8.57901
詩	-8.58347
有憂	-8.58412
羣	-8.5843
符	-8.58488
夜生	-8.5851
日辰	-8.58546
南方	-8.59025
獄	-8.59145
荆州占曰	-8.59201
一日	-8.59238
不知	-8.59265
婁	-8.59268
冬至	-8.59355
陷	-8.59383
不足	-8.59401
歴	-8.59408
天乙	-8.59421
自然	-8.59424
魯	-8.59449
結	-8.59478
辰星	-8.59514
侵	-8.5963
減	-8.59702
十七	-8.59715
防	-8.60277
不用	-8.60294
為主	-8.60297
聞	-8.6037
互	-8.60463
鳥	-8.60516
部	-8.60603
来	-8.60761
鼻	-8.60767
智	-8.60847
五月	-8.61003
三年	-8.61067
衣	-8.61122
六月	-8.61137
獲	-8.6144
靜	-8.61643
仲	-8.61895
鄭	-8.62088
隔	-8.62403
恐	-8.62404
相生	-8.62479
印綬	-8.6249
厄	-8.62556
花	-8.62669
避	-8.62686
遭	-8.62862
幽	-8.63064
平丅	-8.63378
雄	-8.63571
思	-8.63582
身旺	-8.63819
元年	-8.63893
刼	-8.6423
出入	-8.64273
保	-8.643
收	-8.64335
爭	-8.6449
駕	-8.6458
雙	-8.6471
辰午	-8.64744
改	-8.64806
攻	-8.64945
曲	-8.6508
辰酉	-8.6509
十九	-8.65218
水火	-8.65235
乾坤	-8.65315
關	-8.65319
冲	-8.65691
羊	-8.65798
天地之	-8.66112
招	-8.66117
青龍	-8.66133
會	-8.6614
奪	-8.6619
不成	-8.66427
舉人	-8.66469
孟	-8.66548
邊	-8.66618
黄帝占曰	-8.66623
具	-8.66633
早	-8.66698
持	-8.66819
新	-8.66903
邪	-8.671
紋	-8.67101
業	-8.67104
閏	-8.67145
里	-8.67212
劉	-8.67347
施	-8.67612
久	-8.67755
皇	-8.6782
辰辰	-8.67841
統	-8.68093
辰未	-8.68223
陵	-8.68256
吾	-8.68367
如此	-8.68471
産	-8.68546
日蝕	-8.68652
覆	-8.68736
婦	-8.69304
市	-8.69324
發用	-8.69384
布	-8.69405
容	-8.69562
愛	-8.69573
李	-8.69834
貫	-8.69839
才	-8.70011
假	-8.70093
乙卯	-8.70406
二十八	-8.70529
九月	-8.70556
延	-8.70562
之理	-8.70579
耗	-8.70678
辰丑	-8.70773
晝夜	-8.7099
得地	-8.71409
廢	-8.71413
履	-8.71549
為用	-8.7156
革	-8.71853
四十	-8.72114
辰申	-8.72233
繫	-8.72279
斯	-8.72297
察	-8.72497
西南	-8.72658
軌	-8.72794
之人	-8.72797
康	-8.72799
辰亥	-8.72822
識	-8.72848
昏	-8.72858
尺	-8.7305
柱	-8.73085
子孫	-8.735
辰卯	-8.73667
禄馬	-8.73724
言之	-8.73842
七月	-8.74067
質	-8.74307
儀	-8.74316
私	-8.74483
天之	-8.74542
每	-8.74639
北方	-8.74761
日干	-8.74938
申子辰	-8.75191
兊	-8.75338
資	-8.75399
敵	-8.75448
魁	-8.75577
屯	-8.75707
辰寅	-8.76044
屋	-8.76218
辰子	-8.76236
文章	-8.764
太陰	-8.76419
申酉	-8.7709
福徳	-8.77096
星入	-8.77156
慶	-8.77309
二十一	-8.77316
東北	-8.77451
卑	-8.77481
火羅	-8.77499
孫	-8.77608
造化	-8.77788
二年	-8.78068
教	-8.78345
經云	-8.78382
而無	-8.78521
包	-8.78571
之義	-8.78777
闕	-8.78877
越	-8.78895
金木	-8.79091
倍	-8.79132
丁卯	-8.79273
進退	-8.79297
苦	-8.79352
假令	-8.79562
死絶	-8.79722
二十七	-8.79724
筭	-8.79913
湏	-8.79928
順行	-8.79952
同宫	-8.80476
官禄	-8.80504
濁	-8.80716
鼎	-8.80859
財帛	-8.81192
錯	-8.813
三日	-8.81404
朱雀	-8.81417
静	-8.81492
填星	-8.81674
紫	-8.81729
達	-8.81735
附	-8.818
犬	-8.81844
管	-8.81921
辛卯	-8.81967
又為	-8.82357
堅	-8.82443
缺	-8.82444
衡	-8.82467
不然	-8.82585
休囚	-8.82631
男女	-8.82635
也若	-8.82646
吏	-8.82709
東井	-8.82945
勞	-8.83042
彼	-8.83069
寸	-8.83189
四季	-8.83223
戍	-8.83277
嫌	-8.83618
蹇	-8.83627
恒	-8.83652
禍福	-8.83719
之道	-8.83798
畫	-8.83866
敬	-8.83888
貪	-8.83911
脱	-8.83946
之法	-8.84107
虧	-8.84158
隠	-8.84194
者主	-8.84407
夏至	-8.84513
營	-8.84595
免	-8.84676
滯	-8.84774
四正	-8.85093
愚	-8.8525
狼	-8.8535
為吉	-8.85387
皆為	-8.85416
土計	-8.858
先天	-8.85802
不明	-8.85834
掌	-8.86166
壁	-8.86168
生氣	-8.86246
不吉	-8.86313
枯	-8.86449
怒	-8.86637
前後	-8.86793
是為	-8.8701
秋冬	-8.87145
癸卯	-8.8724
命宫	-8.87248
尋	-8.87275
泉	-8.87296
魄	-8.87332
决	-8.87478
傍	-8.87532
崩	-8.87582
玄	-8.87714
孝	-8.87874
己卯	-8.87924
二十六	-8.87947
四方	-8.88066
羽	-8.88228
寳	-8.88301
賦	-8.88456
注	-8.88533
争	-8.88555
食神	-8.88647
旦	-8.88649
昭	-8.8866
魂	-8.88743
寅午戌	-8.88767
宫主	-8.88779
繼	-8.888
不及	-8.88889
不安	-8.89131
浮	-8.8916
二十二	-8.89317
盗	-8.89396
千里	-8.89445
貌	-8.89465
腹	-8.89583
葬	-8.89597
幹	-8.89744
速	-8.89802
偶	-8.89874
嵗星	-8.89898
日在	-8.89923
巫咸曰	-8.90002
奔	-8.90006
仍	-8.90353
愈	-8.90395
柱中	-8.9041
栁	-8.90436
庶	-8.90553
三十二	-8.90588
卿	-8.90732
黃	-8.90807
嘉	-8.90981
之時	-8.91131
其所	-8.91215
垂	-8.91324
九十	-8.91351
集	-8.91601
驛馬	-8.91617
而為	-8.91732
仰	-8.91888
棄	-8.91912
福禄	-8.91995
也如	-8.92092
舎	-8.92171
閉	-8.92343
二十三	-8.9253
器	-8.9286
一名	-8.92889
辭	-8.93141
赦	-8.93142
辰戌丑未	-8.93251
詩斷	-8.93256
徒	-8.93337
射	-8.93432
雞	-8.93501
若有	-8.93553
暈	-8.93795
運行	-8.93905
内外	-8.93945
殿	-8.94012
倚	-8.94117
率	-8.94135
泊	-8.94158
三百六十	-8.94243
䑕	-8.94273
春夏	-8.94351
鬬	-8.94396
宫中	-8.94474
行年	-8.94583
逃	-8.94682
迎	-8.94761
遁	-8.94788
透	-8.94887
草	-8.95032
温	-8.95052
第	-8.95103
用事	-8.9518
勾陳	-8.95356
不相	-8.95533
誠	-8.95708
潤	-8.95794
丈	-8.95811
三傳	-8.95814
月令	-8.95857
一度	-8.95892
一年	-8.95957
奸	-8.96303
子午	-8.96319
珠	-8.96349
一百	-8.96371
𫝊	-8.9654
木星	-8.96572
羊刃	-8.9667
占曰	-8.96852
亦不	-8.97049
各有	-8.97219
第一	-8.97258
為天	-8.97274
樞	-8.97307
條	-8.97346
二星	-8.97493
緯	-8.97522
女主	-8.97639
低	-8.97835
謙	-8.98005
丑未	-8.98284
官印	-8.98637
故以	-8.98747
亦有	-8.98839
三竒	-8.98948
饑	-8.9895
特	-8.98953
怪	-8.98975
三元	-8.99043
𤣥武	-8.99349
金星	-8.99385
有氣	-8.9951
輪	-8.99563
歌	-8.99649
距	-8.99708
二十九	-8.99752
吉星	-9.00101
七十	-9.00212
寶	-9.00234
係	-9.00272
七煞	-9.00489
寧	-9.00702
裏	-9.00902
豫	-9.01176
酒	-9.01192
支干	-9.012
韓	-9.0154
塞	-9.01626
為人	-9.01653
海中占曰	-9.01653
而成	-9.01734
之命	-9.01752
段	-9.01971
四十九	-9.01978
亥子	-9.02178
兒	-9.02284
無所	-9.02329
郡	-9.02557
六害	-9.02613
註	-9.02674
牽牛	-9.02683
朱	-9.02696
其中	-9.02802
相逢	-9.02928
隆	-9.02951
唯	-9.03007
剥	-9.03017
十日	-9.03029
天門	-9.03042
六甲	-9.03055
婦人	-9.0306
川	-9.03233
俗	-9.03389
待	-9.03425
無氣	-9.03466
驗	-9.03683
沉	-9.03698
而已	-9.03711
補	-9.03718
假如	-9.03944
天干	-9.03966
木炁	-9.04012
停	-9.04027
之神	-9.0407
旅	-9.04223
臨官	-9.04309
爾	-9.04395
步	-9.04395
為財	-9.04458
又有	-9.04529
五年	-9.04794
谷	-9.04807
所在	-9.04872
命主	-9.04929
七星	-9.04983
旗	-9.05104
扵	-9.05346
烏	-9.05411
果	-9.05455
感	-9.05455
人主	-9.05484
經曰	-9.05526
邦	-9.05621
則吉	-9.0586
功名	-9.05871
庭	-9.05885
寅卯	-9.05889
水土	-9.06069
抱	-9.06145
三方	-9.06149
衍	-9.06222
之象也	-9.06442
東西	-9.06531
釋	-9.06568
少年	-9.06634
宣	-9.06662
星辰	-9.06703
/□	-9.06806
中央	-9.06916
壯	-9.06946
平生	-9.06999
則有	-9.07019
是以	-9.0709
淵	-9.07243
人命	-9.07384
以其	-9.07486
兵大起	-9.07562
徐	-9.07566
姓	-9.07845
在寅	-9.07871
大吉	-9.08241
戒	-9.083
姤	-9.08373
寡	-9.08508
者以	-9.08961
鎮	-9.09146
曹震圭曰	-9.09163
享	-9.09199
郎	-9.09236
亦主	-9.09339
熒惑犯	-9.09417
邜	-9.09481
詩曰	-9.095
人君	-9.09731
丘	-9.09769
生時	-9.09829
然後	-9.09883
辰為	-9.10039
弟	-9.10109
均	-9.10113
不過	-9.10156
傾	-9.10176
陸	-9.10226
吕	-9.10322
地支	-9.1043
變化	-9.10509
約	-9.10554
雖有	-9.10571
多死	-9.10711
人生	-9.1073
木火	-9.10809
必主	-9.10866
崇	-9.1096
㢲	-9.11214
負	-9.11249
奉	-9.11272
榖	-9.11356
者乃	-9.1149
許	-9.11662
䧟	-9.11666
臺	-9.11668
妄	-9.11687
的	-9.11743
芒	-9.12014
毒	-9.12063
流星	-9.12254
淺	-9.12318
圍	-9.12342
官煞	-9.12378
御	-9.12404
故也	-9.12471
量	-9.1248
女人	-9.12629
肉	-9.12705
誤	-9.12878
君臣	-9.12921
妖	-9.1312
維	-9.13206
一星	-9.13218
南北	-9.13221
熒惑守	-9.13224
黄道	-9.13454
桓	-9.13485
毛	-9.13519
忠	-9.13835
得之	-9.13885
人民	-9.13916
懼	-9.13955
巳酉丑	-9.13977
天道	-9.14019
貧賤	-9.14022
火星	-9.14119
天元	-9.14149
忽	-9.14224
胡	-9.14316
亦可	-9.14342
婚	-9.14378
不為	-9.14474
三十日	-9.14479
支上	-9.14519
霜	-9.14628
史	-9.14631
基	-9.14695
殊	-9.14696
營室	-9.1481
之説	-9.14842
日生	-9.14919
蒼	-9.14996
紅	-9.15092
慎	-9.15107
奴	-9.15115
發福	-9.15346
太歲	-9.15368
得其	-9.1544
審	-9.15475
而生	-9.15487
咸池	-9.15519
主人	-9.15676
河圖	-9.15749
之上	-9.15795
太子	-9.15886
乖	-9.15901
十干	-9.15902
了	-9.15904
金神	-9.15932
田宅	-9.16059
品	-9.16127
究	-9.16315
稍	-9.16316
冠	-9.16611
之宫	-9.16621
星主	-9.16625
險	-9.16684
緩	-9.16691
没	-9.1671
之鄉	-9.16732
中孚	-9.16876
接	-9.17035
兑	-9.17043
齒	-9.17066
人得	-9.17075
英	-9.17129
金火	-9.17374
亥卯未	-9.17472
返	-9.17481
不通	-9.17722
佐	-9.17919
違	-9.17962
縮	-9.18254
主星	-9.18415
為貴	-9.18467
出於	-9.1848
為陽	-9.18501
罪	-9.18545
水星	-9.18555
旁	-9.18682
鬼神	-9.18724
傳曰	-9.18814
若是	-9.18976
據	-9.19065
専	-9.19072
遺	-9.19102
禹	-9.19115
疾病	-9.19153
陽氣	-9.19212
二千一百	-9.19398
縁	-9.19444
黨	-9.19481
厥	-9.19834
侍郎	-9.19981
刼煞	-9.2009
起於	-9.20091
太白犯	-9.20262
四分	-9.20276
蟲	-9.20278
楊	-9.20315
歳星	-9.20512
用神	-9.20643
彗星出	-9.20666
狐	-9.20759
數也	-9.20787
一陽	-9.21
沈	-9.21043
北斗	-9.21075
子丑	-9.2111
陽刃	-9.2112
刀	-9.21144
隱	-9.21166
五日	-9.2117
殘	-9.21182
授	-9.21546
漏	-9.21679
盤	-9.2171
爵	-9.21794
口舌	-9.21962
池	-9.21968
夬	-9.21978
徙	-9.22025
七日	-9.22281
倉	-9.22387
㫁	-9.22439
大水	-9.22481
水孛	-9.22585
相尅	-9.22762
界	-9.22774
適	-9.22831
之精	-9.22843
之日	-9.22891
愁	-9.22895
也其	-9.22908
大人	-9.23071
二千二百	-9.23226
鹿	-9.23295
祿馬	-9.23314
用之	-9.23436
蓍	-9.23537
彗星	-9.23939
辛夘	-9.24019
分野	-9.24053
神煞	-9.24131
二分	-9.24324
夢	-9.24458
孕	-9.24463
勾	-9.24497
賜	-9.24531
一云	-9.24535
巧	-9.24546
孔	-9.24615
行人	-9.24681
明堂	-9.24886
額	-9.24919
閒	-9.24933
消息	-9.24944
提	-9.24971
需	-9.24988
不可以	-9.24995
推之	-9.25158
在於	-9.25265
小過	-9.25338
改元	-9.25434
偏官	-9.25437
箇	-9.25437
為凶	-9.25459
環	-9.25742
寄	-9.2577
徵	-9.25807
在子	-9.26103
地之	-9.26175
刑衝	-9.26274
又如	-9.26294
甲巳	-9.2632
在亥	-9.26487
抵	-9.2663
柳	-9.26662
𦂳	-9.26715
拘	-9.26719
恭	-9.26746
大小	-9.2683
後天	-9.26973
征	-9.271
猪	-9.27148
錢	-9.27158
厭	-9.27282
四象	-9.27705
倒	-9.27787
犯守	-9.27899
焦	-9.28037
聰明	-9.28119
巳午	-9.28548
晚	-9.28741
之始	-9.28825
三十一	-9.28827
閑	-9.28858
而有	-9.28955
己夘	-9.29058
而言	-9.29198
陳卓曰	-9.29293
禁	-9.29335
比肩	-9.29384
期三年	-9.29393
逹	-9.29395
之說	-9.29504
測	-9.29532
之月	-9.29647
皆以	-9.29717
坎離	-9.2976
蠱	-9.29798
請	-9.29818
一偏	-9.29912
晝生	-9.30042
工	-9.30138
三公	-9.30208
朱子	-9.30372
盜	-9.3065
句	-9.30706
拜	-9.3074
羅㬋	-9.30773
土星	-9.30845
烈	-9.31118
沒	-9.31144
呼	-9.31176
設	-9.31183
脫	-9.31192
渾	-9.31255
絲	-9.3158
蔽	-9.31648
六十四	-9.31697
混	-9.32049
粟	-9.32098
奴僕	-9.32125
顧	-9.32138
螣蛇	-9.32139
天罡	-9.32379
之意	-9.32514
熟	-9.32514
在申	-9.32543
阻	-9.32547
脉	-9.32555
觜	-9.32579
大將	-9.32697
行限	-9.32714
畜	-9.32845
獸	-9.3285
舌	-9.32892
三陽	-9.33087
賦云	-9.33101
為禍	-9.33103
五行之	-9.33135
含	-9.33437
綱	-9.33447
上有	-9.33473
單	-9.33893
歸妹	-9.33932
姑	-9.34012
八十	-9.34148
洛書	-9.34169
在午	-9.34253
記	-9.34336
住	-9.34445
者皆	-9.34455
户	-9.3447
便是	-9.34509
天后	-9.34719
炎	-9.34725
之變	-9.348
况	-9.34828
有所	-9.34861
豪	-9.3491
勿	-9.35347
軒轅	-9.35349
哭	-9.35356
天空	-9.3536
鍾	-9.35387
叔	-9.35404
為隂	-9.35415
循	-9.35449
帝座	-9.35449
日主	-9.35687
狀	-9.35691
雀	-9.35814
哀	-9.35827
墜	-9.35842
索	-9.35859
賁	-9.35886
何以	-9.35938
紫炁	-9.35946
百二十	-9.36173
輿鬼	-9.36187
名利	-9.36219
晷	-9.36259
百事	-9.36282
三分	-9.36285
慮	-9.36285
夕	-9.3629
竊	-9.36301
彗	-9.36328
大將軍	-9.36477
本命	-9.36481
亦是	-9.36624
懐	-9.36701
儒	-9.36713
燥	-9.36744
大夫	-9.36779
為水	-9.36803
正官	-9.3687
二十八宿	-9.36947
穀	-9.37086
相合	-9.3724
客星犯	-9.37291
三百	-9.37336
九宫	-9.37545
飢	-9.37626
妻子	-9.37629
掩	-9.37704
超	-9.3771
八十一	-9.37748
嫁	-9.37768
十分	-9.37912
凡事	-9.38042
乙夘	-9.38057
年月日時	-9.38065
其數	-9.38074
不和	-9.38095
之星	-9.38166
䇿	-9.38202
京房曰	-9.38231
南斗	-9.38488
大抵	-9.38594
属	-9.38628
亦然	-9.38703
為一	-9.38707
懸	-9.38757
屈	-9.38778
虞	-9.38778
此宫	-9.38846
國有	-9.39007
流年	-9.39104
迍	-9.39126
月暈	-9.3917
若遇	-9.3938
太守	-9.3941
觀之	-9.39459
狗	-9.39608
日之	-9.39632
當生	-9.39652
三十三	-9.39653
輕重	-9.39678
春秋緯曰	-9.398
氏曰	-9.39802
數之	-9.39835
為害	-9.40024
案	-9.40148
唇	-9.40182
旋	-9.40241
二宫	-9.40407
居之	-9.4041
腰	-9.40425
四百	-9.40444
者必	-9.40611
精神	-9.40622
吉神	-9.40704
肥	-9.40721
務	-9.40736
増	-9.40737
鷄	-9.40781
遷移	-9.40828
既濟	-9.4086
欽定四庫全書	-9.41215
衝破	-9.4122
歩	-9.41255
育	-9.41256
謹	-9.41265
五穀	-9.41451
始於	-9.41469
族	-9.41476
臨之	-9.41557
而得	-9.41561
妨	-9.41638
兄	-9.41726
蓬	-9.41737
凌	-9.41756
尖	-9.41799
議	-9.41824
御史	-9.41825
學堂	-9.41837
主有	-9.42017
四十八	-9.42022
知其	-9.42027
故名	-9.42053
徃	-9.42114
填星犯	-9.42174
晨	-9.42301
訣	-9.42318
一位	-9.42355
歡	-9.42358
去極	-9.42419
分明	-9.42563
之下	-9.42599
惠	-9.42723
逰	-9.42803
人見	-9.43031
身弱	-9.43045
在上	-9.43102
其君	-9.43174
逢之	-9.43204
太常	-9.43266
遯	-9.43325
悲	-9.43329
寛	-9.43337
遇之	-9.43379
在未	-9.43506
太過	-9.43628
四十五	-9.43631
脈	-9.43768
獻	-9.43774
畧	-9.43797
堪	-9.43799
鳯	-9.43823
其餘	-9.43847
為正	-9.44069
無光	-9.44247
未濟	-9.44328
途	-9.4433
趨	-9.44349
七十二	-9.44374
科	-9.44402
丙辛	-9.44487
准	-9.44508
只是	-9.44607
不忌	-9.44702
少隂	-9.44792
刺	-9.44799
乙庚	-9.44804
貴賤	-9.4481
側	-9.44896
笑	-9.44897
萃	-9.44903
北極	-9.44961
凶星	-9.45092
在酉	-9.45112
在外	-9.45321
種	-9.45358
叅	-9.45388
三十四	-9.45419
惑	-9.45442
中國	-9.45482
占病	-9.45511
丁夘	-9.4563
同人	-9.45673
續	-9.45947
戴	-9.45948
丙火	-9.45967
日出	-9.46182
游	-9.46398
丁壬	-9.46485
月犯	-9.46641
子曰	-9.46762
辰星犯	-9.46905
仇	-9.46949
兎	-9.46979
甘	-9.4698
擇	-9.46982
回	-9.47019
六畜	-9.47077
天目	-9.47161
有四	-9.47198
八百	-9.47302
在天	-9.47339
計都	-9.47403
皆是	-9.4741
截	-9.47487
星在	-9.47499
且如	-9.4773
病者	-9.47752
蕩	-9.47895
一分	-9.48003
亦為	-9.48016
㸃	-9.48084
貴格	-9.48116
幸	-9.48132
聽	-9.48133
在巳	-9.4817
日為	-9.48261
色赤	-9.48265
在丑	-9.48418
長官司	-9.48431
佳	-9.48484
草木	-9.48505
項	-9.48619
般	-9.48642
茂	-9.48691
須女	-9.48799
見之	-9.48852
不盡	-9.48951
之體	-9.49067
醫	-9.49093
吳	-9.49096
決	-9.49101
矢	-9.49117
而下	-9.49142
塵	-9.49163
天上	-9.49169
三星	-9.49207
又以	-9.49349
奇	-9.49405
大運	-9.49603
妾	-9.49617
活	-9.49669
之物	-9.49705
詐	-9.49713
暮	-9.4973
若逢	-9.49937
羅計	-9.49939
少陽	-9.50014
之謂	-9.50021
觸	-9.50228
所生	-9.50269
四位	-9.50281
宗廟	-9.50322
無疑	-9.5049
嵗星犯	-9.50494
百一十	-9.50521
天牢	-9.50571
乙木	-9.50609
一月	-9.50649
珥	-9.50668
八字	-9.50748
嚴	-9.50753
立春	-9.50768
四星	-9.50771
天下有	-9.50776
有餘	-9.50782
鬭	-9.50838
雪	-9.50933
煞星	-9.50939
交於	-9.50969
小畜	-9.51025
卯酉	-9.51099
土為	-9.51122
次之	-9.51181
亨	-9.51281
葉	-9.51325
鼓	-9.51407
如何	-9.51578
三十七	-9.51607
剛柔	-9.51709
司馬	-9.51892
斜	-9.51924
叛	-9.51947
渙	-9.51961
水木	-9.51971
於此	-9.51978
饒	-9.52003
官福	-9.52008
有大	-9.52184
爻變	-9.52201
不行	-9.52254
一氣	-9.52273
月蝕	-9.5231
當之	-9.52321
赤道	-9.52404
洪範	-9.52477
牧	-9.525
祀	-9.52503
四年	-9.52582
凶神	-9.52695
於是	-9.52721
也此	-9.52787
此格	-9.52867
女子	-9.52883
迺	-9.5293
魁罡	-9.5298
一嵗	-9.52997
耀	-9.53066
之用	-9.53075
祭	-9.5308
春分	-9.53147
若見	-9.53201
最為	-9.5331
六年	-9.53358
六百	-9.53414
乆	-9.53566
稽	-9.53566
同行	-9.53585
陣	-9.53603
蜀	-9.53645
欺	-9.53647
婚姻	-9.53665
域	-9.53669
洞	-9.53672
安命	-9.53798
星出	-9.53843
卦氣	-9.53963
亥為	-9.54025
遠	-9.54167
巫	-9.5417
骨肉	-9.54226
賔	-9.54245
呉	-9.54261
調	-9.54281
蠶	-9.54365
名為	-9.54501
加臨	-9.54634
大過	-9.5473
有三	-9.54732
故言	-9.54735
毫	-9.5477
荒	-9.548
泄	-9.54804
蔡	-9.5512
月中	-9.55231
甲日	-9.55241
而行	-9.55286
猴	-9.5532
時上	-9.55382
弓	-9.55384
騰	-9.55402
剝	-9.55418
嵗運	-9.55435
作事	-9.5546
東壁	-9.55573
刑害	-9.55623
不動	-9.55624
更有	-9.5585
墨	-9.5589
見於	-9.55907
昔	-9.5591
霧	-9.55936
促	-9.56013
三十五	-9.56071
丞相	-9.56092
生子	-9.56105
六爻	-9.56196
罷	-9.56249
十年	-9.56341
去其	-9.56381
風雨	-9.56408
秒	-9.56445
其下	-9.56455
梟	-9.56523
沐浴	-9.56564
秋分	-9.56604
璧	-9.5663
甲木	-9.56734
天市	-9.56862
寅為	-9.56872
守之	-9.56916
悉	-9.57087
藝	-9.57131
萌	-9.57165
求財	-9.57169
有喜	-9.57304
五車	-9.57322
以此	-9.57483
夫婦	-9.57535
京	-9.57634
相應	-9.57691
農	-9.57693
省	-9.57699
靣	-9.57703
戌亥	-9.57705
曹	-9.57721
雉	-9.57725
月行	-9.57728
榮華	-9.57806
之内	-9.57812
第三	-9.57834
天乙貴人	-9.57889
之方	-9.57962
財星	-9.57986
於天	-9.58041
五度	-9.58042
皆主	-9.58046
朱子曰	-9.58129
座	-9.58154
不欲	-9.58207
也又	-9.58248
侍	-9.58249
牽	-9.58249
戊癸	-9.58262
寅申	-9.58278
腎	-9.58278
滋	-9.58303
猛	-9.58341
日行	-9.58344
三𫝊	-9.58416
通書	-9.58482
將相	-9.58502
可見	-9.58573
上見	-9.58581
午未	-9.5866
疾厄	-9.58819
迫	-9.58917
投	-9.58922
振	-9.58928
可知	-9.58943
徑	-9.58976
之後	-9.59035
二日	-9.59093
之妙	-9.59119
津	-9.59282
亡神	-9.59369
送	-9.59396
荆	-9.59402
倣此	-9.5943
在辰	-9.59558
藥	-9.59561
馳	-9.59565
絡	-9.59587
洛	-9.59774
四十四	-9.59816
若在	-9.59888
故有	-9.59898
醜	-9.59955
綿	-9.6015
死於	-9.60221
累	-9.60233
夭折	-9.60382
不如	-9.60414
屬木	-9.60538
仙	-9.60581
脚	-9.60676
算	-9.60796
狂	-9.60805
凖	-9.60833
如甲	-9.60968
者如	-9.61105
五榖	-9.61156
元武	-9.61178
七百	-9.61183
圗	-9.613
牙	-9.61356
財物	-9.6141
録	-9.6145
與日	-9.6167
一刻	-9.61746
健	-9.61805
加亥	-9.61817
己午	-9.61871
五鬼	-9.619
契	-9.61969
穿	-9.6197
中年	-9.61971
在戌	-9.61971
上元	-9.62038
疊	-9.6206
滛	-9.62095
天倉	-9.62119
妻妾	-9.62189
熒惑入	-9.62289
戮	-9.623
木為	-9.62437
貴神	-9.62525
嗣	-9.62608
徴	-9.62625
寅時	-9.6264
隂氣	-9.62675
若無	-9.62708
其上	-9.62828
宰	-9.62848
大旱	-9.62852
官事	-9.62862
終於	-9.62934
無成	-9.63059
姦	-9.63239
賴	-9.63268
泥	-9.63268
規	-9.63301
格局	-9.6333
天馬	-9.63401
立命	-9.63422
正月起	-9.63496
路空	-9.63499
其義	-9.63506
之兆	-9.63508
十二辰	-9.63623
變而	-9.63779
大有	-9.6379
刄	-9.63827
財旺	-9.63834
脩	-9.63856
則不	-9.63861
此乃	-9.63868
蕃	-9.639
者是	-9.64007
三煞	-9.64105
十二宫	-9.64352
天庭	-9.64398
大敗	-9.64513
二交	-9.6454
懷	-9.64542
充	-9.6456
得時	-9.64579
其氣	-9.64623
嫁娶	-9.64643
玉堂	-9.64644
貴顯	-9.64706
未為	-9.64747
官符	-9.64808
驛	-9.65067
博	-9.65098
男子	-9.65098
其間	-9.65108
竹	-9.6513
裁	-9.65131
癸水	-9.65147
追	-9.65148
撰	-9.65183
味	-9.65193
家人	-9.65204
慈	-9.65241
父子	-9.65268
失其	-9.65343
是非	-9.65434
二百	-9.65677
月在	-9.65705
无妄	-9.65778
鋒	-9.65784
舒	-9.65816
詔	-9.65825
耶	-9.65838
砂	-9.6592
三度	-9.661
隅	-9.66146
客星出	-9.66149
三刑	-9.66202
之卦	-9.66234
廷	-9.66402
辟	-9.66408
其人	-9.6641
凝	-9.66416
孰	-9.6644
化為	-9.66444
戾	-9.66454
匿	-9.66473
誰	-9.66496
為妻	-9.6651
期一年	-9.66548
四十二	-9.66584
太白守	-9.66625
田財	-9.66738
年命	-9.66852
戎	-9.66947
之辰	-9.66956
憲	-9.67026
丹	-9.67049
熱	-9.67066
髪	-9.671
領	-9.67101
巢	-9.67103
女命	-9.67139
古人	-9.67148
湯	-9.67149
善惡	-9.67186
大赦	-9.67196
則以	-9.67197
一宫	-9.67412
無窮	-9.67589
三十九	-9.67714
熒	-9.67753
幾	-9.67754
宻	-9.67807
遥	-9.67826
物之	-9.67873
四仲	-9.68251
以成	-9.68274
明夷	-9.68295
癸夘	-9.68372
殷	-9.68402
希	-9.68404
余	-9.68408
鸞	-9.68411
桑	-9.68443
僧道	-9.68449
盗賊	-9.6846
未有	-9.68503
色青	-9.68626
制伏	-9.68642
不正	-9.68666
騎	-9.68666
為鬼	-9.68778
不合	-9.68784
凡占	-9.68786
六壬	-9.6879
月厭	-9.6885
二千	-9.68867
聰	-9.68979
換	-9.69021
値	-9.69036
辱	-9.69055
班	-9.69069
判	-9.69074
迷	-9.69113
斬	-9.69123
流行	-9.69126
二十日	-9.69159
戊己	-9.69163
六日	-9.69248
也凡	-9.69263
四十六	-9.69274
五十五	-9.69327
嘗	-9.69495
六分	-9.69611
刑囚	-9.69711
簡	-9.69753
植	-9.69784
頤	-9.69792
托	-9.69808
不必	-9.69939
敢	-9.69985
大衍	-9.70212
之處	-9.70252
往來	-9.70267
易之	-9.70298
厲	-9.70382
去之	-9.70423
减	-9.70426
借	-9.70436
影	-9.70459
秉	-9.70478
溢	-9.70487
五分	-9.70505
皇后	-9.70518
縱有	-9.70596
黄帝曰	-9.70617
三十八	-9.70658
辛金	-9.7069
屬火	-9.70722
屬水	-9.70878
中之	-9.71013
沙	-9.7103
肩	-9.71033
杜	-9.71094
有水	-9.71111
凢	-9.71122
麥	-9.71124
華葢	-9.7121
乙日	-9.71229
故為	-9.7132
屬金	-9.71388
取其	-9.71477
者亦	-9.71824
流星入	-9.71829
有一	-9.71832
㫖	-9.71849
夫妻	-9.71854
是故	-9.71878
九星	-9.71899
雲氣	-9.7192
末傳	-9.71954
第二	-9.72103
者謂	-9.72111
不遇	-9.72136
願	-9.72161
天下之	-9.72178
氣之	-9.72237
此為	-9.72389
孔子	-9.72391
較	-9.7245
厯例曰	-9.72472
壞	-9.72484
流星犯	-9.72509
素	-9.7251
纒	-9.72529
此言	-9.72541
太微	-9.72567
此二	-9.72634
大凶	-9.72644
生我	-9.72677
一元	-9.72702
衣食	-9.72758
月日時	-9.72879
五十六	-9.72882
六親	-9.73036
午時	-9.73064
惡死	-9.73078
濶	-9.73132
役	-9.73181
監	-9.73182
示	-9.73184
揲	-9.73188
桃花	-9.73192
噬嗑	-9.73215
樹	-9.73223
都憲	-9.73268
平常	-9.73273
惡星	-9.73643
四十三	-9.73644
庚金	-9.73672
號天	-9.73722
正位	-9.7378
錫	-9.73888
癸日	-9.73929
天徳	-9.73929
船	-9.73968
司命	-9.73984
子時	-9.73997
倫	-9.74162
申時	-9.74178
動靜	-9.74216
萬里	-9.74358
河圖曰	-9.74361
為兵	-9.74533
地鏡曰	-9.74576
禀	-9.74584
堯	-9.74588
相刑	-9.74611
舟	-9.74656
或有	-9.74737
日入	-9.74919
隂陽之	-9.74951
居中	-9.75057
生物	-9.75241
眀	-9.75244
娶	-9.75259
僕	-9.75276
頥	-9.75279
怨	-9.75374
百八十	-9.75557
顔	-9.75807
不敢	-9.75865
文王	-9.75959
昧	-9.75974
若得	-9.75978
皆吉	-9.75981
典	-9.75994
不出其年	-9.75997
人也	-9.7603
闢	-9.76092
午為	-9.76248
而復	-9.7625
為亂	-9.76276
之本	-9.7634
十五度	-9.76472
損益	-9.76483
則凶	-9.76523
終始	-9.76558
人事	-9.76596
冥	-9.76656
麗	-9.76718
談	-9.76723
底	-9.76724
選	-9.76763
百姓	-9.76768
肅	-9.76783
荆州占曰太白	-9.76789
期二年	-9.76838
巳為	-9.76909
戌為	-9.7692
死氣	-9.77228
潛	-9.77401
毁	-9.77447
抑	-9.77455
㓜	-9.77457
旣	-9.7746
冝	-9.77461
溺	-9.77473
周天	-9.77475
曉	-9.77486
子午卯酉	-9.77499
筮	-9.77522
初傳	-9.77539
氣如	-9.77606
上神	-9.77627
丑為	-9.77647
更得	-9.77682
以下	-9.77953
又名	-9.78078
郭	-9.78115
四度	-9.78129
已上	-9.78154
伏吟	-9.78248
廬	-9.78273
一世	-9.78388
廟旺	-9.78476
此是	-9.78629
分為	-9.78679
大畜	-9.78717
有情	-9.78743
四十一	-9.78767
瑞	-9.78884
眞	-9.78889
為上	-9.78898
雌	-9.789
繁	-9.78918
坐命	-9.78934
完	-9.78938
亦吉	-9.78944
友	-9.78951
古今同	-9.78993
太㣲	-9.78997
納甲	-9.78999
虹	-9.79019
酉為	-9.79078
不喜	-9.79098
月將	-9.79106
曰天	-9.79331
之分	-9.7936
更加	-9.79455
巳日	-9.79477
肺	-9.79599
雅	-9.7964
放	-9.79655
述	-9.79657
頼	-9.79664
削	-9.79687
排	-9.79724
大煞	-9.79727
欽	-9.79731
火為	-9.79757
亥子丑	-9.79764
言其	-9.79799
不免	-9.79818
重重	-9.79875
有救	-9.79937
非其	-9.80047
尅我	-9.80102
寅夘	-9.80223
也假令	-9.80342
恃	-9.80363
雍	-9.80409
焚	-9.80425
睽	-9.80484
飄	-9.80499
旬空	-9.80559
告	-9.80696
自刑	-9.80718
則主	-9.80808
色白	-9.80868
合於	-9.80904
無不	-9.81056
先生	-9.81087
初一	-9.81097
軒	-9.81104
二度	-9.81109
睛	-9.81122
二氣	-9.81146
丁火	-9.81147
慢	-9.81154
相貌	-9.8116
乏	-9.81172
能生	-9.81176
郗萌曰熒惑	-9.81185
材	-9.81191
煩	-9.81244
有急	-9.81411
不言	-9.81421
郗萌曰太白	-9.81467
百里	-9.81519
德合	-9.81523
所居	-9.81604
之士	-9.81704
鐘	-9.81814
僧	-9.81837
童	-9.81879
傅	-9.8188
輿	-9.81884
不論	-9.81902
書曰	-9.81969
勇	-9.8202
密	-9.82048
日暈	-9.8207
出行	-9.82071
光明	-9.82089
如甲子	-9.82099
九百	-9.8228
而用	-9.82345
若守之	-9.82389
網	-9.82389
中間	-9.82435
有用	-9.82436
一千五百	-9.8245
也然	-9.82565
大壯	-9.82625
灰	-9.8268
兔	-9.82681
皆有	-9.82689
不定	-9.82703
天下大亂	-9.82727
彗孛犯	-9.82731
也夫	-9.82738
鷹	-9.82747
寵	-9.8275
日躔	-9.82775
聳	-9.83347
切忌	-9.83375
頗	-9.83375
子息	-9.83401
罰	-9.83425
不以	-9.83426
顛	-9.83444
故云	-9.8345
生死	-9.83487
膽	-9.83578
其年	-9.8363
之數也	-9.83644
主事	-9.83764
郗萌曰嵗星	-9.8379
非常	-9.83795
體用	-9.83819
以生	-9.84062
萬物之	-9.84062
擬	-9.84177
貢	-9.84184
制之	-9.84214
旺氣	-9.8424
譬	-9.84244
升降	-9.84351
須要	-9.84396
二千四百	-9.84465
犯之	-9.84514
道也	-9.84542
始終	-9.84552
矣故	-9.84629
子為	-9.8468
何曰	-9.84703
不來	-9.84918
濕	-9.8495
賈	-9.84977
某	-9.84997
脾	-9.85003
謝	-9.8502
戊土	-9.85057
學者	-9.85066
鈎	-9.8507
倉庫	-9.85117
月為	-9.85187
之前	-9.85339
若還	-9.85346
然則	-9.8535
為火	-9.85396
夘酉	-9.85582
裂	-9.85608
在下	-9.85687
灼	-9.85751
壓	-9.85756
三千六百	-9.8577
酉時	-9.85771
準	-9.85789
黄白	-9.85797
即是	-9.85815
覺	-9.8584
竟	-9.85855
亥時	-9.85965
一名天	-9.85977
格如	-9.85984
之形	-9.86026
公卿	-9.86052
暑	-9.86061
三台	-9.86065
刑尅	-9.86156
貴氣	-9.86199
度主	-9.86296
至于	-9.86324
之國	-9.86325
十日不下	-9.86333
六陽	-9.86417
火木	-9.8646
客星	-9.86467
淮	-9.86481
疫	-9.86501
坤之	-9.86571
舞	-9.86585
洪	-9.86597
凉	-9.86602
氷	-9.86604
召	-9.86616
之象象曰	-9.86619
泛	-9.86628
讒	-9.86629
得位	-9.86677
天狗	-9.86735
囊	-9.86771
人多	-9.86798
丑時	-9.86811
皆不	-9.86865
顔曰	-9.86897
又占曰	-9.8694
官祿	-9.86952
八煞	-9.87229
無有	-9.87245
吟	-9.87263
六十日	-9.87362
鑑	-9.87368
溪	-9.87387
波	-9.87415
觧	-9.87423
第四	-9.87566
不在	-9.87604
内有	-9.87618
六庚	-9.87672
申為	-9.87694
三千五百	-9.87729
三千	-9.87922
孛星	-9.87928
也又曰	-9.87936
一千二百	-9.87937
有力	-9.87957
易曰	-9.87983
五十四	-9.88038
諸事	-9.88055
剋	-9.88095
下有	-9.88157
歌曰	-9.88175
麻	-9.88181
茍	-9.88229
丙日	-9.88236
捕	-9.88239
取用	-9.88261
入垣	-9.88281
一千四百	-9.88286
經辰之	-9.8829
八分	-9.88292
當以	-9.88463
不祥	-9.88483
十二支	-9.88557
不死	-9.88608
台	-9.88729
閣	-9.8876
氣也	-9.88782
邵子	-9.88817
直符	-9.88865
主貴	-9.88876
功曹	-9.8891
四維	-9.88918
年正月	-9.8892
無情	-9.8892
帥	-9.88975
邉	-9.88984
肝	-9.88999
皮	-9.89001
責	-9.89008
零	-9.89035
牢	-9.89058
擾	-9.89067
頂	-9.89071
頑	-9.89077
予	-9.89098
最忌	-9.8912
金匱	-9.89153
左角	-9.89196
見金	-9.89199
最怕	-9.89209
起兵	-9.89211
木局	-9.89212
巳時	-9.8928
而蝕	-9.89282
為金	-9.89326
一千三百	-9.89408
五十一	-9.89556
在地	-9.89575
禄主	-9.89593
道路	-9.89638
將死	-9.89693
俯	-9.89699
二位	-9.89712
初初	-9.89725
人有	-9.89739
起例	-9.89768
祭祀	-9.89842
車騎	-9.89847
委	-9.89855
伸	-9.89864
亦無	-9.89886
涉	-9.899
一千八百	-9.89976
九分	-9.89984
而反	-9.90033
黄帝	-9.90103
吉將	-9.90166
五十七	-9.90198
者言	-9.9029
陳曰	-9.90339
此星	-9.90382
月孛	-9.90472
校	-9.90509
其位	-9.90517
地下	-9.90545
金土	-9.90611
相去	-9.90642
詞	-9.90655
認	-9.90667
壊	-9.90689
快	-9.9073
火金	-9.90798
金局	-9.90799
動摇	-9.90811
立秋	-9.90911
自立	-9.90983
水局	-9.90993
反覆	-9.91008
庚日	-9.91249
日忌	-9.91249
有喪	-9.91259
之謂也	-9.91447
不出三年	-9.91468
秘	-9.91471
釐	-9.91481
潔	-9.91484
奴婢	-9.91509
仕	-9.91521
斷之	-9.9163
三才	-9.91682
即為	-9.91751
一時	-9.91776
弑	-9.91793
二千九百	-9.91797
而終	-9.91933
乃是	-9.91953
帶煞	-9.92147
所忌	-9.92225
耦	-9.92282
互換	-9.92284
之次	-9.92324
掛	-9.92329
之例	-9.92338
豕	-9.92346
隂陽相	-9.92347
也此課	-9.9238
太白入	-9.92397
為地	-9.92454
乗之	-9.92499
水為	-9.92526
一作	-9.92533
終身	-9.92579
成敗	-9.92629
死者	-9.92646
有財	-9.927
而上	-9.92726
主死	-9.92832
寅午	-9.92836
其星	-9.92843
合而	-9.92847
之學	-9.92882
於上	-9.9289
其主	-9.92951
為災	-9.92989
有兵起	-9.92999
清明	-9.93084
随	-9.93108
諸星	-9.93144
員	-9.93152
逢生	-9.93174
𢃄	-9.93178
欽定四庫全書唐開元占經卷	-9.93198
毎	-9.932
䕃	-9.93203
門户	-9.93233
本宫	-9.93269
選擇	-9.93271
聖人之	-9.93324
身衰	-9.93398
十度	-9.93503
五十二	-9.93604
五十九	-9.93619
吉曜	-9.9362
弦	-9.93638
九年	-9.93759
㧞	-9.93848
襄	-9.93858
穆	-9.94014
着	-9.9403
唐開元占經卷	-9.94057
在卯	-9.94065
病符	-9.94136
火旺	-9.94177
命坐	-9.94259
髙强	-9.94278
十五日	-9.943
一千一百	-9.94371
一白	-9.94373
手足	-9.94441
益之	-9.94444
二千五百	-9.94452
立夏	-9.94518
雨水	-9.94586
壬日	-9.94622
惡之	-9.94723
有福	-9.94762
反為	-9.94763
如是	-9.94786
己酉丑	-9.94787
六度	-9.94826
見火	-9.94849
踈	-9.94871
京氏曰	-9.94872
討	-9.94887
此卦	-9.9508
辰上	-9.95123
三千三百	-9.95165
三千二百	-9.9525
右行	-9.95262
失地	-9.95272
之木	-9.95314
帛	-9.95381
五六	-9.95504
天下大	-9.95554
福星	-9.95605
河魁	-9.95714
两	-9.95748
戌時	-9.9575
腸	-9.95769
二千六百	-9.95801
壬水	-9.95879
時逢	-9.9605
其邑	-9.96109
明年	-9.9617
入墓	-9.96171
得失	-9.96302
克日	-9.964
刑傷	-9.96454
騐	-9.9659
蔵	-9.96591
聖洽符曰	-9.96634
入於	-9.96636
鶴	-9.96638
織女	-9.9664
三位	-9.9664
奏	-9.96642
熈	-9.96651
把	-9.96654
熊	-9.96665
演	-9.96667
有二	-9.96688
潤澤	-9.96697
舜	-9.96715
資財	-9.96721
小吉	-9.96733
岳	-9.96749
左旋	-9.96753
金為	-9.96816
天盤	-9.96932
文昌	-9.9694
必定	-9.97148
同類	-9.97149
山林	-9.97173
為妙	-9.9721
為四	-9.97216
定主	-9.97381
弔客	-9.97389
得一	-9.97495
不失	-9.97505
鳳	-9.97561
孤寡	-9.97578
寜	-9.97579
耕	-9.97584
日中	-9.97592
賞	-9.97594
占事	-9.97648
戊日	-9.97661
方可	-9.97806
之序	-9.97822
夫人	-9.98014
受尅	-9.98045
有謀	-9.98085
三四	-9.98086
石氏曰太白	-9.9811
角亢	-9.9814
四十七	-9.98272
破敗	-9.98281
徳合	-9.9835
生成	-9.98403
莊	-9.98414
吞	-9.98434
二千八百	-9.98466
殆	-9.98481
惡曜	-9.98483
㓕	-9.98486
多主	-9.98636
宫室	-9.98656
執法	-9.98741
公侯	-9.98747
中宫	-9.9876
官貴	-9.98802
六隂	-9.98803
九五	-9.98817
郗萌曰填星	-9.98822
辛日	-9.98831
太歳	-9.98838
無子	-9.98947
則是	-9.98983
三千一百	-9.99013
身宫	-9.991
樓	-9.99187
牛馬	-9.99216
朔日	-9.99226
之道也	-9.99261
二千三百	-9.99287
屏	-9.99288
俊	-9.99317
翻	-9.99318
鉞	-9.9932
股	-9.99356
庸	-9.9936
日月星辰	-9.99361
一尺	-9.99368
二千七百	-9.99371
曽	-9.99386
必是	-9.9941
四孟	-9.99419
司空	-9.9943
流血	-9.99645
喪門	-9.99662
此時	-9.99667
七年	-9.99714
妻財	-9.99735
勝光	-9.9974
喜神	-9.9975
行運	-9.99769
自有	-9.99825
偏財	-9.99844
消長	-9.99865
未可	-9.99922
歲運	-9.99936
日月之	-9.99941
其説	-10
夜半	-10.0005
拆	-10.001
居於	-10.0014
罔	-10.0015
夘時	-10.0015
人物	-10.0015
一千七百	-10.0018
社	-10.0022
鮮	-10.0023
冦	-10.0024
唐瞿曇悉達撰	-10.0024
播	-10.0026
驅	-10.0029
地盤	-10.0031
宇	-10.0032
𦵏	-10.0034
之火	-10.0042
他人	-10.0045
有罪	-10.0048
則無	-10.005
也故曰	-10.0053
小兒	-10.0054
方為	-10.0054
者多	-10.0059
必然	-10.0061
亥加	-10.0067
其理	-10.0075
動而	-10.0077
之極	-10.0082
見其	-10.0083
九度	-10.0084
無極	-10.0087
無咎	-10.0089
二者	-10.0091
故謂之	-10.0094
民多	-10.0097
奮	-10.0111
故曰云云劉曰	-10.0115
三千七百	-10.0116
斂	-10.0119
逺行	-10.012
配之	-10.012
倘	-10.012
瑩	-10.0127
布政	-10.0127
故稱	-10.013
十二分	-10.0134
尤甚	-10.0141
其次	-10.0142
又是	-10.0143
天中	-10.0147
初度	-10.0147
天文	-10.0147
未嘗	-10.0152
生日	-10.0155
五十三	-10.016
火局	-10.016
入酉	-10.0165
餘分	-10.0166
不勝	-10.0173
人所	-10.0173
賛	-10.0174
成就	-10.0177
一字	-10.0182
七宿	-10.0189
之㑹	-10.019
多則	-10.0192
聲名	-10.0194
者是也	-10.0194
相對	-10.0197
法推	-10.0199
卓	-10.0202
式	-10.0204
相㑹	-10.0204
周而復始	-10.0205
報	-10.0205
晴	-10.0206
貨	-10.0207
寅申巳亥	-10.0208
陶	-10.0208
其法	-10.0209
鴈	-10.021
叚	-10.0213
在内	-10.0214
之言	-10.022
以五	-10.022
兵革	-10.0227
一千九百	-10.0232
三千四百	-10.0235
孤辰	-10.0236
狀元	-10.0236
於地	-10.024
萬事	-10.0244
若不	-10.0249
中元	-10.0254
之外	-10.0263
與月	-10.0265
受制	-10.0266
者貴	-10.0273
其色	-10.0273
三千九百	-10.0273
枕	-10.0275
安身	-10.0286
辰時	-10.0287
二百四十	-10.0289
一千六百	-10.029
古今	-10.0293
乍	-10.0297
階	-10.0298
三千八百	-10.0299
仲尼	-10.0302
變色	-10.0306
妻宫	-10.0309
屬土	-10.0311
不生	-10.0311
老人	-10.0312
四千一百	-10.0312
祖業	-10.0315
寡宿	-10.0315
今日	-10.0328
之水	-10.0333
未時	-10.0345
上文	-10.0349
者謂之	-10.0351
於下	-10.0354
官職	-10.0362
也或	-10.0367
針	-10.0385
先後	-10.0389
憑	-10.0389
偽	-10.039
悦	-10.0392
百六	-10.0395
為竒	-10.0405
四廢	-10.0416
最喜	-10.0419
十二度	-10.0424
文武	-10.0447
一十	-10.0447
秋生	-10.045
四日	-10.0452
立冬	-10.0454
客星守	-10.0462
申酉戌	-10.0481
峯	-10.0484
響	-10.0493
丅	-10.0494
添	-10.0494
磨	-10.0498
鴻	-10.0499
至此	-10.0503
拱夾	-10.0506
正印	-10.0513
土功	-10.0524
亦如	-10.053
晝見	-10.0533
大利	-10.0535
填星守	-10.0541
客星入	-10.0548
程	-10.055
生者	-10.0554
月徳	-10.0554
計孛	-10.0555
亦貴	-10.0558
常居	-10.056
木旺	-10.0564
攝提	-10.0577
哭泣	-10.0577
恣	-10.058
弧	-10.0585
圎	-10.0585
謁	-10.0587
祠	-10.0591
題	-10.0592
現	-10.0593
甘氏讃曰	-10.0593
不貴	-10.0594
乳	-10.0595
冠帶	-10.0598
入太微	-10.0607
尾箕	-10.0609
餘倣此	-10.0617
七政	-10.062
孤獨	-10.0628
福德	-10.0634
天津	-10.0637
官鬼	-10.064
石氏曰嵗星	-10.0651
同位	-10.0672
天鏡曰	-10.0676
科名	-10.0678
建禄	-10.0679
二三	-10.0681
隣	-10.0682
破碎	-10.0683
猿	-10.0684
旺於	-10.0684
埋	-10.0685
吹	-10.0687
時日	-10.069
者非	-10.0691
融	-10.0695
對照	-10.0696
四千二百	-10.0704
入廟	-10.0708
為煞	-10.0711
後有	-10.0712
臣下	-10.0712
修造	-10.0712
晚年	-10.0726
也今	-10.0741
對衝	-10.0749
陽貴	-10.0751
用也	-10.0752
百六十	-10.0754
身主	-10.0754
之際	-10.0759
之䇿	-10.0773
籍	-10.0774
屠	-10.0775
變為	-10.0775
吐	-10.0776
競	-10.0777
一身	-10.0778
禾	-10.0779
主客	-10.078
謬	-10.078
之初	-10.078
習	-10.0782
操	-10.0782
彌	-10.0784
丗	-10.0784
香	-10.0785
悖	-10.0785
大寒	-10.0799
六乙	-10.0801
是主星	-10.0806
六十四卦	-10.081
四夷	-10.0837
春生	-10.0837
六星	-10.0839
之災	-10.0843
無救	-10.0848
師之	-10.0859
大富	-10.0862
第五	-10.0863
四課	-10.0873
象也	-10.0875
戈	-10.0876
豹尾	-10.0876
贏	-10.0877
天官書曰	-10.0877
溝	-10.088
乂	-10.0881
寒暑	-10.0881
繩	-10.0882
喻	-10.0883
竈	-10.0888
疆	-10.0889
木生	-10.0892
足以	-10.0893
東行	-10.0896
常人	-10.0896
地上	-10.0898
七八	-10.0907
觀其	-10.0913
世之	-10.0917
除之	-10.092
死亡	-10.0924
如人	-10.0939
未免	-10.0942
寅亥	-10.0943
之性	-10.0948
一百八十	-10.0952
京房	-10.0957
有官	-10.0961
如逢	-10.0962
體也	-10.0966
王良	-10.0968
廼	-10.0969
六儀	-10.097
攝	-10.0977
天下有兵	-10.0978
飾	-10.098
疾疫	-10.0981
運至	-10.0981
禦	-10.0981
神將	-10.0982
優	-10.0982
寃	-10.0982
斧	-10.0985
十里	-10.0986
七分	-10.0987
格也	-10.0993
木土	-10.0998
或曰	-10.1005
尅制	-10.1009
此則	-10.1015
巳午未	-10.1015
有變	-10.1019
用數	-10.1031
生尅	-10.1045
失位	-10.1049
之名	-10.1057
是時	-10.1061
遣	-10.1075
妃	-10.1075
億	-10.1075
賀	-10.1079
燭	-10.108
守禦千户所	-10.1081
賣	-10.1081
之正	-10.1083
麟	-10.1083
括	-10.1084
協	-10.1085
必死	-10.1088
蚓	-10.1089
之情	-10.1095
貫索	-10.1096
六丁	-10.1097
不離	-10.11
月生	-10.1101
相配	-10.1107
以正	-10.1115
七十六	-10.1127
亦名	-10.1128
無力	-10.113
一箇	-10.1131
者其	-10.1134
之餘	-10.1141
天喜	-10.1147
其道	-10.1151
紫宫	-10.1156
或以	-10.1169
無官	-10.1169
藉	-10.1175
齋	-10.118
佞	-10.118
四九	-10.1181
肆	-10.1182
喉	-10.1183
勤	-10.1183
竭	-10.1184
禱	-10.1186
寅卯辰	-10.1187
涯	-10.1189
羽林	-10.1198
五十八	-10.1201
日上	-10.1204
忽然	-10.1209
午加	-10.1226
之患	-10.1228
之義也	-10.1229
破財	-10.1231
方位	-10.1235
大飢	-10.1238
太后	-10.1244
丙戊	-10.126
天羅	-10.1261
荆州占曰嵗星	-10.1266
色黄	-10.1271
無傷	-10.1271
躍	-10.1276
豹	-10.1278
天下亂	-10.1279
劒	-10.1282
在前	-10.1284
律吕	-10.1288
渠	-10.1291
迹	-10.1292
一千	-10.1293
得此	-10.1293
欄	-10.1293
筋	-10.1294
佛	-10.1297
大戰	-10.1304
之陽	-10.1304
節之	-10.1305
身命主	-10.1307
者即	-10.1308
生枝	-10.1309
而言之	-10.1323
隂貴	-10.1332
首尾	-10.134
一寸	-10.1357
析	-10.1357
小運	-10.1365
節氣	-10.1368
相扶	-10.1372
相連	-10.1374
下元	-10.1376
五色	-10.1384
阿	-10.1388
之運	-10.1388
墮	-10.139
訖	-10.139
第六	-10.1391
諧	-10.1392
䕶	-10.1392
彩	-10.1396
官旺	-10.14
長安	-10.1404
北辰	-10.1409
罡	-10.1413
内亂	-10.1417
元辰	-10.1422
火孛	-10.1424
三辰	-10.143
乾之	-10.1432
純陽	-10.1433
之官	-10.1438
三宫	-10.1449
之所以	-10.1453
見水	-10.1459
孚	-10.1459
生月	-10.1462
死符	-10.1465
所求	-10.1473
不順	-10.1473
居官	-10.1479
故主	-10.1483
乾亥	-10.1487
不寧	-10.1489
冷	-10.1489
用兵	-10.1491
荆州	-10.1492
尸	-10.1493
荆州占曰熒惑	-10.1497
有五	-10.1498
亥夘未	-10.1498
該	-10.1499
錦	-10.1499
身强	-10.1501
妬	-10.1501
鑿	-10.1502
司徒	-10.1506
柄	-10.1507
吴	-10.151
為我	-10.1528
九州	-10.1534
㑹於	-10.1535
互相	-10.1539
大角	-10.1539
一百二十	-10.1552
催官	-10.1553
八宫	-10.156
玉女	-10.1573
武帝	-10.1581
十三度	-10.1593
卧	-10.1599
纔	-10.1602
冀	-10.1603
誕	-10.1604
郊	-10.1605
日雨	-10.1605
盈縮	-10.1607
金旺	-10.1608
之土	-10.1609
敦	-10.1609
當權	-10.1609
淮南	-10.1611
曇瑩曰	-10.1612
見木	-10.1615
甲子日	-10.1622
六十一	-10.1628
顯達	-10.1634
十二年	-10.1634
二隂	-10.1654
莫不	-10.1663
以定	-10.1665
成功	-10.1665
不至	-10.167
又名天	-10.167
無破	-10.1683
丁日	-10.1688
出東方	-10.1693
昆	-10.1694
庚申辛酉	-10.1697
清貴	-10.1698
豆	-10.1702
尒	-10.1702
盪	-10.1703
艮之	-10.1703
之交	-10.1705
不去	-10.1706
榮貴	-10.1707
范	-10.1707
廿	-10.1708
忘	-10.1709
奥	-10.171
循環	-10.171
多病	-10.1713
翁	-10.1713
沖	-10.1717
朝廷	-10.1717
洋	-10.1718
弗	-10.1718
犴	-10.1718
犀	-10.1724
臨於	-10.1741
文書	-10.175
而出	-10.1768
於寅	-10.1776
財多	-10.1779
而未	-10.1783
上九	-10.1783
荆州占曰月	-10.1786
卯為	-10.1787
次三	-10.1787
不妨	-10.1789
凶惡	-10.1792
柱有	-10.18
五位	-10.1805
金牛	-10.1807
偃	-10.181
一般	-10.1811
園	-10.1811
策	-10.1814
而論	-10.1816
橋	-10.1817
媒	-10.1817
筆	-10.1817
峻	-10.1818
緒	-10.1819
徹	-10.182
陽明	-10.1824
天皇	-10.1824
跡	-10.1825
飛鳥	-10.1832
入宫	-10.1832
行度	-10.1835
其形	-10.1836
四海	-10.1837
交而	-10.1839
天獄	-10.1845
天刑	-10.1847
歟	-10.185
則應	-10.1853
出軍	-10.1854
山崩	-10.1857
不變	-10.1859
帝王	-10.1867
時干	-10.1886
道之	-10.1887
三限	-10.1888
命之	-10.1907
月破	-10.1911
不從	-10.1919
百日	-10.192
稷	-10.1921
杖	-10.1924
成數	-10.1927
費	-10.1927
翕	-10.1933
彊	-10.1934
頓	-10.1935
伏羲	-10.1935
初年	-10.1943
月宿	-10.1944
土也	-10.1945
赤色	-10.1946
無憂	-10.1951
虎豹	-10.1955
建星	-10.1959
赤氣	-10.1961
威權	-10.1961
七度	-10.1969
酉加	-10.1974
土木	-10.1976
吉㐫	-10.1987
亦以	-10.1997
水旺	-10.1999
發財	-10.2003
在其中	-10.2004
已為	-10.2007
多是	-10.2012
月值	-10.2014
嶽	-10.2015
命中	-10.2024
見土	-10.2027
廉	-10.2027
銳	-10.2027
守照	-10.2029
淳	-10.2032
朋	-10.2034
徤	-10.2036
其性	-10.2036
弔	-10.2037
祐	-10.2039
銜	-10.2041
六丙	-10.2044
朽	-10.2045
證	-10.2045
撫	-10.2045
勃	-10.2046
塗	-10.2047
文曜鈎曰	-10.2048
獅子	-10.205
以後	-10.2056
人道	-10.2059
無形	-10.2067
占之	-10.2068
大耗	-10.2068
財禄	-10.2078
十二日	-10.2085
之辰也	-10.2092
一隂	-10.2098
郗萌曰月	-10.21
喜見	-10.2106
歸於	-10.2118
相克	-10.2127
大饑	-10.2129
為本	-10.213
無定	-10.2135
此課	-10.2138
三命	-10.2138
逸	-10.2149
賓	-10.2153
鵲	-10.2156
皆在	-10.2156
遇此	-10.2157
那	-10.2157
糧	-10.2159
禪	-10.2159
圭	-10.2161
鼠	-10.2166
在夘	-10.2173
之君	-10.2178
仁義	-10.2188
牛生	-10.2196
六癸	-10.2197
財庫	-10.2202
地户	-10.2239
丑寅	-10.224
註曰	-10.2244
有疾	-10.2247
丑月	-10.2249
尉	-10.2251
一卦	-10.2254
若守	-10.2255
黍	-10.2257
㝠	-10.2257
飛亷	-10.2259
劣	-10.226
無害	-10.2261
尅妻	-10.2261
天赦	-10.2262
夲	-10.2264
㝛	-10.2266
箭	-10.2268
稟	-10.2269
寂	-10.2269
疎	-10.227
黄鐘	-10.2271
編	-10.2272
館	-10.2276
相衝	-10.2277
為土	-10.2285
白氣	-10.2292
申加	-10.2293
詩云	-10.23
山川	-10.231
當有	-10.2311
太𤣥	-10.2311
左行	-10.2319
十有二	-10.2319
俱吉	-10.2322
經星	-10.2322
有功	-10.2326
燒	-10.2334
巳亥	-10.2336
獨火	-10.2343
周公	-10.2349
巳土	-10.235
來者	-10.2359
失時	-10.236
老陽	-10.2362
袁	-10.2362
巨門	-10.2366
芝	-10.2374
武曲	-10.2381
浪	-10.2383
尹	-10.2385
閣老	-10.2388
祝	-10.2388
縱横	-10.2393
喜忌	-10.2404
凡人	-10.2405
言之則	-10.2413
有䘮	-10.242
九十六	-10.2427
六十三	-10.2429
往亡	-10.2431
次四	-10.2445
秀氣	-10.2449
亡地	-10.2455
有赦	-10.247
有憂若	-10.2476
無財	-10.2476
入命	-10.2477
五墓	-10.2479
歲星	-10.2483
坼	-10.2487
九十一	-10.2489
若臨	-10.2493
繇	-10.2494
披	-10.2495
珍	-10.2495
受傷	-10.2498
彭	-10.2498
之臣	-10.2498
狹	-10.2501
給	-10.2502
壅	-10.2502
従	-10.2503
墻	-10.2503
子午夘酉	-10.2504
五穀不成	-10.2505
天一	-10.2509
癸為	-10.2525
天德	-10.253
三品	-10.253
忌見	-10.2532
八年	-10.2537
限行	-10.2543
七百二十	-10.2554
下賤	-10.2555
衣禄	-10.2559
隂生	-10.2563
一卷	-10.2563
在命	-10.2565
受命	-10.257
干頭	-10.2576
引從	-10.2577
各以	-10.258
次五	-10.2585
象數	-10.2588
之首	-10.259
叠	-10.2592
值此	-10.2595
天官符	-10.2599
寅加	-10.2601
此論	-10.2607
爐	-10.2608
掃	-10.261
成器	-10.2612
不是	-10.2612
略	-10.2612
孽	-10.2614
庻	-10.2614
八度	-10.2615
勲	-10.2616
翔	-10.2618
於外	-10.262
星明	-10.2625
之神也	-10.2647
天雨	-10.2673
太平	-10.2675
須知	-10.2676
形者	-10.268
旬中	-10.2686
大雪	-10.2689
無用	-10.269
如遇	-10.2691
正東	-10.2698
平平	-10.2699
逢金	-10.2704
此理	-10.2706
傷殘	-10.2708
之終	-10.2712
在後	-10.2713
有權	-10.2715
當時	-10.2717
戌加	-10.272
棺	-10.2722
自旺	-10.2725
託	-10.2728
繞	-10.2728
逼	-10.273
痛	-10.2732
大星	-10.2732
攸	-10.2732
不出一年	-10.2733
驟	-10.2734
貎	-10.2734
胷	-10.2735
醉	-10.2735
麄	-10.2735
更兼	-10.2737
寇	-10.2738
襲	-10.274
以前	-10.274
攢	-10.2742
太尉	-10.2744
物也	-10.2745
得令	-10.2752
性命	-10.2754
上安命	-10.2761
一丈	-10.2761
受福	-10.2763
其後	-10.2763
有八	-10.2764
必得	-10.2768
無故	-10.2769
衆星	-10.2774
財印	-10.2775
金玉	-10.2776
五諸侯	-10.2778
凶煞	-10.2787
木之	-10.2788
端門	-10.279
洛書曰	-10.2791
再見	-10.2796
宰相	-10.2797
斗杓	-10.2801
陽也	-10.2801
陽干	-10.2804
破軍	-10.2808
月内	-10.2815
地中	-10.2821
享福	-10.2822
金生	-10.2823
數至	-10.2826
民飢	-10.2829
入局	-10.2832
星不明	-10.2832
風從	-10.2834
之功	-10.2834
虚危	-10.2838
忌星	-10.2841
民流亡	-10.2847
丨凶	-10.2847
廓	-10.285
奏書	-10.285
撓	-10.2852
難星	-10.2852
蘇	-10.2853
淡	-10.2853
彰	-10.2854
苗	-10.2854
家性爲	-10.2854
薦	-10.2855
割	-10.286
岐	-10.286
之貴	-10.2864
姜	-10.2867
盲	-10.2868
不畏	-10.2871
文曲	-10.2871
二陽	-10.2878
侯王	-10.2881
為真	-10.2888
為重	-10.2901
原有	-10.2904
夘加	-10.2909
尅身	-10.2911
三尺	-10.2912
以土	-10.2919
次七	-10.292
寅宫	-10.2923
一星在	-10.293
皆可	-10.2931
摇	-10.2936
次六	-10.2939
由是	-10.2944
則可	-10.2947
有死者	-10.2948
性情	-10.295
炎上	-10.2954
霹靂	-10.2955
有吉星	-10.2956
蒙之	-10.2956
六辛	-10.2956
勸	-10.2964
巨	-10.2964
匹	-10.2966
酌	-10.2969
邱	-10.297
隕	-10.2971
隂府	-10.2971
欠	-10.2972
錄	-10.2972
期百八十日	-10.2972
獵	-10.2974
七十一	-10.2974
陽宫	-10.2975
曾	-10.2977
今以	-10.2977
傳送	-10.2977
也天	-10.2978
嗔	-10.2978
壬為	-10.2979
辯	-10.298
築	-10.2983
混雜	-10.2983
奎婁	-10.2984
地動	-10.2986
諸家	-10.2988
飲食	-10.2989
子年	-10.2993
乎天	-10.2999
學士	-10.3002
移徙	-10.3011
中和	-10.3011
曲直	-10.3013
地官符	-10.3015
經世之	-10.3019
一二	-10.3025
六位	-10.303
下臨	-10.3034
周禮	-10.3037
志曰	-10.3041
之疾	-10.3046
為母	-10.3049
生火	-10.3055
不犯	-10.3065
細推	-10.3068
萬民	-10.3081
逆數	-10.3084
使我	-10.3087
三五	-10.3088
譽	-10.3088
狠	-10.3096
四煞	-10.3098
巡	-10.3101
丙為	-10.3102
啟	-10.3102
陞	-10.3102
湖	-10.3103
彼此	-10.3103
赫	-10.3103
最宜	-10.3105
熾	-10.3106
纂	-10.3107
盜賊	-10.3109
天數	-10.3112
郗萌曰熒惑守	-10.3114
其本	-10.3117
右角	-10.3119
貧窮	-10.3119
風憲	-10.3121
尅害	-10.3123
之應	-10.3125
歳運	-10.3132
家宅	-10.3133
正二刻	-10.3138
求之	-10.3139
二字	-10.3141
道不通	-10.3144
不復	-10.3146
有光	-10.3147
六十七	-10.3147
相助	-10.3161
然而	-10.3165
神明	-10.3189
午月	-10.3193
不善	-10.3194
化氣	-10.32
占者	-10.3201
三光	-10.3212
渉	-10.3216
戸	-10.3217
傷身	-10.3218
牀	-10.3219
鄙	-10.322
疏	-10.322
效	-10.322
有土功	-10.322
贅	-10.3221
常以	-10.3222
諭	-10.3223
食禄	-10.3223
二刻	-10.3225
拔	-10.3225
隋	-10.3226
天官	-10.3226
凍	-10.3226
踰	-10.3228
姚	-10.3228
劍	-10.3228
導	-10.3229
雖然	-10.3232
塡星	-10.3234
增	-10.3236
日十二時	-10.3239
經緯	-10.3239
寅月	-10.3244
兊之	-10.3248
厨	-10.3254
逃亡	-10.3257
黄色	-10.3261
南極	-10.3266
此四	-10.3272
國家	-10.3274
文學	-10.3276
日月五星	-10.3276
則曰	-10.3277
六十二	-10.3282
於人	-10.3284
以水為	-10.3287
善星	-10.3289
逺近	-10.329
震巽	-10.3303
六戊	-10.3303
所臨	-10.3307
四十日	-10.3311
人馬	-10.3315
巳上	-10.3328
公子	-10.3332
博士	-10.3336
中末	-10.3336
澗	-10.334
媚	-10.3343
鐵	-10.3344
為君	-10.3344
瘦	-10.3345
日破	-10.3345
腦	-10.3345
也言	-10.3348
蝗	-10.3348
霽	-10.335
迭	-10.3352
甲戊庚	-10.3352
龍虎	-10.3352
黙	-10.3352
酒色	-10.3356
祈	-10.3356
姬	-10.336
亭	-10.3361
立身	-10.3361
生意	-10.3361
竅	-10.3361
不要	-10.3362
酉戌	-10.3363
根基	-10.3368
扶持	-10.3369
大人憂	-10.3379
刼財	-10.3379
若居	-10.3381
不可不	-10.3384
白色	-10.339
此謂	-10.3393
火也	-10.3397
上吉	-10.3398
入格	-10.3407
壬癸日	-10.3415
則不能	-10.3416
其日	-10.3416
糴貴	-10.3419
宫安命	-10.3422
照臨	-10.3433
石氏曰熒惑	-10.3435
入中宫	-10.3454
後世	-10.3457
叢	-10.3468
積筭起	-10.3472
六十六	-10.3473
期不出年	-10.3474
三隂	-10.3475
嬰	-10.3476
八日	-10.3476
窺	-10.3477
頃	-10.3477
洩	-10.3478
虐	-10.3478
國有憂	-10.348
三三	-10.348
璣	-10.3482
讓	-10.3482
􁀙	-10.3484
返吟	-10.3489
之徒	-10.3494
取象	-10.3495
不問	-10.3495
表裏	-10.3495
芒角	-10.3496
官魁	-10.3503
封侯	-10.3506
週	-10.3507
伏兵	-10.3511
初九	-10.3511
後宫	-10.3514
以水	-10.3517
有竒	-10.3519
寅上	-10.3535
不易	-10.3539
受氣	-10.3551
舊本	-10.3553
九十二	-10.3554
申宫	-10.356
為隂陽	-10.3564
得用	-10.357
于天	-10.3572
無功	-10.358
丨悔	-10.358
最吉	-10.3594
中道	-10.3594
純粹	-10.3605
蠶室	-10.3605
其體	-10.3608
蕭	-10.361
尼	-10.361
单	-10.3611
嗟	-10.3614
艱難	-10.3615
懽	-10.3617
七十五	-10.3617
有大䘮	-10.3619
籌	-10.3619
福星貴人	-10.3625
閑極	-10.363
子平	-10.3636
大而	-10.364
死神	-10.3648
取之	-10.3654
土孛	-10.3662
亦能	-10.3662
旅之	-10.3663
相交	-10.3663
之隂	-10.3663
比刼	-10.3664
孛羅	-10.3669
糴	-10.3673
臨身	-10.3676
煞旺	-10.3677
根本	-10.368
定是	-10.3689
人元	-10.3691
之度	-10.3697
配合	-10.3699
日馬	-10.3705
命限	-10.3714
不窮	-10.3723
月德	-10.3723
初爻	-10.3723
而止	-10.3724
天河	-10.3727
否則	-10.3728
班固天文志曰	-10.373
體數	-10.373
流星出	-10.3734
歛	-10.3736
粗	-10.3737
伊	-10.3739
史記	-10.374
標	-10.374
蘭	-10.374
念	-10.3742
敏	-10.3744
魯齋	-10.3746
何如	-10.3747
遵	-10.3747
囚死	-10.375
辰宫	-10.3751
鳩	-10.3752
偷	-10.3754
陽縣	-10.3755
奔走	-10.3756
水也	-10.3758
極品	-10.3758
發於	-10.3759
只宜	-10.3761
六四	-10.3765
九日	-10.3768
甘氏曰熒惑	-10.3769
竒門	-10.3775
皆得	-10.3782
造化之	-10.3785
其實	-10.3785
卒子	-10.379
順逆	-10.379
不當	-10.3793
武王	-10.3794
不測	-10.3801
禍患	-10.3803
午上	-10.3816
閉日	-10.3818
國君	-10.3826
七十四	-10.3828
過於	-10.3839
飲	-10.3846
惟有	-10.3846
此法	-10.3847
在中	-10.3851
萬五千	-10.3853
槩	-10.3853
本年	-10.3861
輝	-10.3864
則氣	-10.3867
頻	-10.3868
動也	-10.387
悟	-10.387
俟	-10.3871
人相食	-10.3872
娼	-10.3872
昊	-10.3873
喬	-10.3874
暢	-10.3875
做	-10.3875
祟	-10.3877
棟	-10.3877
帝崩	-10.3878
爽	-10.388
稀	-10.3884
層	-10.3885
不仁	-10.3887
不入	-10.3888
術士	-10.389
六十八	-10.3892
月刑	-10.3894
無根	-10.3903
衝刑	-10.3911
其說	-10.3917
旺地	-10.3923
火氣	-10.3924
順數	-10.3924
論之	-10.3925
旺之地	-10.3929
兩儀	-10.3933
隂也	-10.3935
五音	-10.3938
守命	-10.394
向背	-10.3945
八十五	-10.3947
破祖	-10.395
藏於	-10.3952
限主	-10.3961
酉亥	-10.3966
他星	-10.3968
相攻	-10.397
天機	-10.397
又占曰熒惑	-10.3974
此皆	-10.3985
丑加	-10.3988
虵	-10.3994
更逢	-10.3995
為體	-10.3997
天時	-10.4
子上	-10.4002
輩	-10.4004
矩	-10.4005
試	-10.4006
枉	-10.4006
干合	-10.4006
招摇	-10.4009
氣色	-10.4011
淮南子曰	-10.4011
伍	-10.4013
不全	-10.4015
闔	-10.4015
衞	-10.4018
無禮	-10.4018
出西方	-10.4019
郎中	-10.402
驚恐	-10.4023
帝旺	-10.4026
近臣	-10.4032
千五百	-10.4033
其神	-10.4035
屬陽	-10.404
黃帝占曰	-10.4045
對待	-10.4047
定位	-10.4065
八十四	-10.4075
可謂	-10.4089
年上	-10.409
豈不	-10.4095
休咎	-10.4111
水中	-10.4121
上下相	-10.4122
辰戌丑未月	-10.4126
鏡	-10.4133
奢	-10.4134
遇火	-10.4134
上生	-10.4134
吊	-10.4142
碧	-10.4143
昻	-10.4144
桂	-10.4144
藩	-10.4146
柱無	-10.4146
墳	-10.4147
填	-10.4147
吉慶	-10.4148
以應	-10.4149
亥上	-10.4149
巫咸曰太白	-10.4149
蓄	-10.4151
甲乙日	-10.4153
英雄	-10.4153
米	-10.4153
和合	-10.4154
範	-10.4155
八十三	-10.4155
連珠	-10.4159
城郭	-10.416
呪	-10.416
二百五十	-10.4161
到此	-10.4166
康節	-10.4183
元戎	-10.4187
庶人	-10.4192
健旺	-10.4193
定其	-10.4194
入卦	-10.4197
始生	-10.4197
大風	-10.4202
過房	-10.4206
之宿	-10.4208
留守	-10.4212
正直	-10.4217
也葢	-10.4234
七十九	-10.4235
如木	-10.4236
逆順	-10.424
隂建	-10.4246
日光	-10.4249
嵗星守	-10.4252
京氏	-10.4258
野獸	-10.4259
一本	-10.426
妹	-10.4263
煞神	-10.4265
尅破	-10.4267
春秋潛潭巴曰	-10.4268
狀如	-10.4271
激	-10.4277
銀	-10.4278
芳	-10.4283
中犯乗守	-10.4284
劫	-10.4285
訂訛	-10.4285
大衍之數	-10.4285
齊伯曰	-10.4287
頸	-10.4287
靡	-10.4287
檢	-10.4288
収	-10.4289
髮	-10.4289
木氣	-10.4295
力士	-10.4296
寧按	-10.4298
皆然	-10.4298
天官貴人	-10.4299
艮為	-10.4302
洎	-10.4302
四卦	-10.4308
江河	-10.4315
凡命	-10.4323
初𫝊	-10.4324
求官	-10.4326
四餘	-10.4329
無道	-10.4332
矣若	-10.4336
本家	-10.4336
神仙	-10.4343
反復	-10.4344
從魁	-10.4351
白衣	-10.4352
庚酉	-10.4353
豈能	-10.4363
印堂	-10.437
不齊	-10.4378
生焉	-10.4382
冬月	-10.4389
注曰	-10.4395
丞	-10.4397
大亂	-10.44
之人也	-10.4402
日禄	-10.4411
兹	-10.4416
瓦	-10.4419
薨	-10.442
黜	-10.4424
禄位	-10.4424
肖	-10.4424
十二萬九千六百	-10.4424
汝	-10.4424
挺	-10.4425
釣	-10.4429
睦	-10.4432
暗昧	-10.4437
大忌	-10.4438
尊卑	-10.4442
不化	-10.4442
生人見	-10.4451
禄馬貴人	-10.4458
他鄉	-10.4459
官宫	-10.446
貴命	-10.4461
官至	-10.447
八十七	-10.447
倒食	-10.4475
有大兵	-10.4485
青雲	-10.4489
此例	-10.4491
成名	-10.4494
歸禄	-10.4497
其方	-10.4497
皇帝	-10.4504
明矣	-10.4506
成形	-10.4507
六十五	-10.4509
斗建	-10.4516
分離	-10.4521
亡刼	-10.4523
雙女	-10.4524
得力	-10.4524
使人	-10.453
加申	-10.4533
丨祥	-10.4537
丨休	-10.454
小滿	-10.4558
價	-10.4559
燈	-10.4562
㢘	-10.4564
慕容	-10.4567
對宫	-10.4568
僅	-10.4569
援	-10.457
緣	-10.457
淹	-10.4573
觜觹	-10.4574
芒種	-10.4575
允	-10.4575
壘	-10.4578
績	-10.458
初三	-10.4582
心鏡	-10.4583
救助	-10.4584
淺深	-10.4584
華蓋	-10.4586
無妨	-10.4586
絶嗣	-10.4588
全無	-10.4588
反吟	-10.4588
或問	-10.4591
不應	-10.4594
蠶命	-10.4597
干透	-10.4609
大陵	-10.4612
白羊	-10.4619
大暑	-10.4626
其光	-10.4634
和氣	-10.4636
丨咎	-10.4645
為權	-10.4647
無依	-10.4656
亥月	-10.4657
八十八	-10.4659
水流	-10.4659
不克	-10.466
丨吝	-10.4664
定知	-10.4666
一變	-10.4672
將兵	-10.4672
强弱	-10.4687
之端	-10.4688
言語	-10.4697
八專	-10.4699
助之	-10.4702
羲	-10.4702
七十八	-10.4705
這	-10.4706
憎	-10.4707
修方	-10.4708
泣	-10.471
遞	-10.4711
烟	-10.4713
瘡	-10.4714
各自	-10.4715
歇	-10.4715
抽	-10.4716
地數	-10.4717
駟	-10.4723
摧	-10.4724
跌	-10.4725
肯	-10.4727
腐	-10.4727
為僧道	-10.473
且有	-10.4737
蛟龍	-10.4738
福祿	-10.4741
乘之	-10.4752
中氣	-10.4752
以象	-10.4755
血光	-10.4766
生來	-10.4777
須是	-10.4779
邵子曰	-10.478
圖曰	-10.4788
城縣	-10.4792
老隂	-10.4795
是知	-10.4802
義例	-10.4803
高强	-10.4807
潤下	-10.4818
為灾	-10.4822
財鄉	-10.4823
九三	-10.4824
安得	-10.4829
以明	-10.483
南門	-10.4835
九九	-10.4838
無常	-10.4843
灸退	-10.4845
次八	-10.4847
而非	-10.4848
膏	-10.4851
行也	-10.4853
亦宜	-10.4853
聴	-10.4857
黒氣入	-10.4858
大發	-10.4858
擢	-10.4859
鼔	-10.486
揆	-10.4862
后妃	-10.4862
缺陷	-10.4862
踐	-10.4864
壠	-10.4865
涸	-10.4866
㡬	-10.4867
憲副	-10.4868
四宫	-10.487
相得	-10.4876
太史	-10.4879
士卒	-10.4882
身居	-10.4884
官爵	-10.4885
重見	-10.4895
酉丑	-10.4905
不久	-10.4908
辰星守	-10.4909
不食	-10.4911
成家	-10.4912
金氣	-10.4916
未加	-10.4926
九紫	-10.4927
衝尅	-10.4934
土旺	-10.4938
夏月	-10.4942
遁得	-10.4948
帝覽嬉曰	-10.495
未申	-10.4953
福神	-10.4969
八門	-10.4975
收日	-10.4975
却有	-10.4976
未必	-10.4993
亷	-10.4994
八九	-10.4995
坤為	-10.4999
蛟	-10.5
恵	-10.5002
呂	-10.5002
握	-10.5004
卵	-10.5004
又占曰熒惑守	-10.5006
境	-10.5007
辛戌	-10.5008
太初	-10.501
弊	-10.501
臣謀主	-10.5011
唱	-10.5011
雌雄	-10.5013
惶	-10.5018
冰	-10.5019
第十	-10.502
華盖	-10.5023
蠶官	-10.5027
硬	-10.503
有亡國	-10.5031
石氏曰熒惑守	-10.5031
西門	-10.5032
震為	-10.5038
命同	-10.5042
先儒	-10.5046
形而	-10.5048
餘氣	-10.5048
不可得	-10.5049
無制	-10.5049
歲破	-10.5059
甲乙丙丁	-10.5063
九十八	-10.5064
尅子	-10.5065
六七	-10.5066
第七	-10.5067
以金為	-10.5071
玉井	-10.5071
出走	-10.5073
獨行	-10.5075
國亡	-10.5077
六六	-10.5082
使者	-10.509
其他	-10.5093
郄萌曰客星入	-10.5093
不居	-10.5096
青色	-10.5097
一物	-10.51
十八日	-10.5101
長短	-10.5103
天下兵起	-10.5105
終是	-10.5111
為旱	-10.5114
胎月	-10.512
文帝	-10.512
吉昌	-10.5121
遼	-10.5124
合格	-10.5147
合照	-10.5152
小限	-10.5153
攷	-10.5155
四千三百二十	-10.5157
潜	-10.5157
蚩尤	-10.5159
膚	-10.516
像	-10.516
銅	-10.5161
跛	-10.5161
矛	-10.5162
九十九	-10.5163
又何	-10.5164
介	-10.5164
一家	-10.5165
諫	-10.5167
桀	-10.5169
卷舌	-10.5169
驚蟄	-10.5169
嵩	-10.517
圖書	-10.5171
酉月	-10.5171
二百七十	-10.5173
絆	-10.5173
清濁	-10.5178
無禄	-10.5182
天庫	-10.5193
漢書	-10.5195
小雪	-10.5198
大凡	-10.5202
止於	-10.5217
地網	-10.5219
艮寅	-10.5224
同居	-10.5226
也是故	-10.5229
照命	-10.5231
比和	-10.5244
八白	-10.5264
不息	-10.5265
重則	-10.5267
神后	-10.5267
亦曰	-10.5267
喜慶	-10.528
八際	-10.5283
邵	-10.5284
浮天空亡	-10.5294
巡山羅㬋	-10.5297
孛計	-10.53
原本	-10.5303
駁雜	-10.5305
七十七	-10.5307
狄	-10.5309
刪	-10.5309
件	-10.5309
霸	-10.531
督	-10.5311
突	-10.5312
訛	-10.5314
一二三四	-10.5314
知縣	-10.5314
拂	-10.5315
鄧	-10.5315
寺	-10.5316
訓	-10.5317
匈奴	-10.5317
戚	-10.5318
渡	-10.5319
一百四十	-10.5319
歴例曰	-10.532
啓	-10.532
田園	-10.5321
鈇鑕	-10.5322
惡煞	-10.5324
豐隆	-10.5326
黎	-10.5326
所宜	-10.5327
郗萌曰熒惑入	-10.5327
狩	-10.5332
以次	-10.534
不堪	-10.5342
忌曜	-10.5347
末𫝊	-10.5356
孤貧	-10.5359
須防	-10.5364
計羅	-10.5367
者天之	-10.537
戮死	-10.5371
之事也	-10.5377
鎮星	-10.5379
相加	-10.5386
不戰	-10.5391
二百九十	-10.5406
支神	-10.5407
陽遁	-10.5419
福力	-10.5425
也又如	-10.5434
丨吉	-10.5437
璚	-10.5451
紹	-10.5452
席	-10.5452
坤申	-10.5458
幣	-10.546
房心	-10.5462
一周天	-10.5464
伴	-10.5465
慾	-10.5469
阜	-10.5469
欲知	-10.5469
夷狄	-10.5472
濫	-10.5474
𢎞	-10.5476
淪	-10.5478
填實	-10.5479
儲	-10.5481
臣有謀	-10.5482
戌月	-10.5483
臭	-10.5486
通月氣	-10.55
中傳	-10.5505
有白衣	-10.5506
休廢	-10.5508
生萬物	-10.5509
正垣	-10.551
六十九	-10.551
落空亡	-10.5516
丑戌	-10.5518
天苑	-10.5519
頭髙	-10.5533
各有所	-10.5541
七十三	-10.5541
尺五寸	-10.5551
災殃	-10.5552
純隂	-10.5553
在東方	-10.5555
形如	-10.5558
孝武	-10.556
以致	-10.5586
改正	-10.5587
近於	-10.5589
交互	-10.559
登明	-10.5597
次二	-10.5604
寅戌	-10.561
打	-10.5619
吉丅	-10.562
雹	-10.5622
八尺	-10.5626
匪	-10.5628
聾	-10.563
噐	-10.5632
伶	-10.5634
一百五十	-10.5636
蟾	-10.5638
翰林	-10.5639
覽	-10.5641
洎此宮	-10.5642
稼穡	-10.5643
傷妻	-10.5648
羣隂	-10.5652
武職	-10.5653
興隆	-10.5654
先天圖	-10.5657
酉宫	-10.5658
西行	-10.5662
男女宫	-10.5664
萬物不成	-10.5665
相近	-10.5676
獲福	-10.5676
丑宫	-10.5688
落空	-10.569
小耗	-10.569
㑹合	-10.5691
相隨	-10.5692
五帝	-10.5692
為父	-10.5701
大梁	-10.5718
之財	-10.572
所屬	-10.572
人倫	-10.5727
利用	-10.5729
病死	-10.5732
之職	-10.5736
决主	-10.5739
日建	-10.5744
刑煞	-10.5755
河圖帝覽嬉曰月	-10.576
年六月	-10.5764
韻	-10.5768
枉矢	-10.5773
立成	-10.5779
未能	-10.5779
驕	-10.578
入傳	-10.5782
叙	-10.5783
同躔	-10.5784
搖	-10.5785
京房易傳曰	-10.5787
荆州占曰填星	-10.5787
者所以	-10.5788
荆州占曰月暈	-10.5789
稻	-10.5789
羙	-10.579
期不出三年	-10.579
海中占曰熒惑	-10.5792
綂	-10.5794
八八	-10.5794
亮	-10.5795
採	-10.5795
天醫	-10.5795
探	-10.5796
躁	-10.5796
塲	-10.5798
有大喪	-10.58
顴	-10.58
洪潤	-10.5801
盆	-10.5806
婦女	-10.581
紫微	-10.5811
之年	-10.5812
濛	-10.5812
廵	-10.5812
霜降	-10.5813
九十日	-10.5823
占人	-10.5823
其北	-10.5829
昴星	-10.5835
本是	-10.5835
正財	-10.5842
腰金	-10.5849
福夀	-10.5868
月陽建	-10.587
所指	-10.5874
石氏曰填星	-10.5881
東門	-10.5881
十有八	-10.5884
復還	-10.5885
星明大	-10.5886
無益	-10.5891
隂謀	-10.5893
的煞	-10.5896
不雨	-10.5899
變通	-10.59
五爲	-10.5906
董	-10.5928
四利三元	-10.5931
大勝	-10.5935
破敗五鬼	-10.5936
奈	-10.594
爲飛伏	-10.5942
上盤	-10.5943
三百八十四	-10.5945
衆人	-10.5946
熙	-10.5947
懸針	-10.5948
甲卯	-10.5948
金木水火土	-10.5949
臂	-10.5949
地平	-10.5951
在東	-10.5952
擅	-10.5952
禳	-10.5955
買	-10.5956
敷	-10.5956
昇	-10.5958
期六十日	-10.5959
𨽻	-10.5959
獐	-10.596
又按	-10.5963
不熟	-10.5964
雙魚	-10.5969
之應也	-10.5974
一切	-10.5975
囷	-10.5975
春月	-10.5983
貧寒	-10.5983
彗孛	-10.5989
寒露	-10.599
交易	-10.5998
千八十	-10.6001
五嶽	-10.6006
經世	-10.6007
變易	-10.6011
太旺	-10.6012
透出	-10.6013
丨	-10.6022
視其	-10.6026
天地之數	-10.603
赤氣入	-10.6032
陽貴人	-10.6039
卯月	-10.6042
太元	-10.6046
刑破	-10.6074
九十四	-10.6075
科甲	-10.6076
隂貴人	-10.6081
八十二	-10.6081
天府	-10.6092
八方	-10.6092
必須	-10.61
絀	-10.6102
丙丁日	-10.6106
夫星	-10.6107
綬	-10.6108
五星從位起	-10.611
奚	-10.6113
能制	-10.6118
祚	-10.6118
腑	-10.6118
浸	-10.6121
讀	-10.6121
岡	-10.6122
屢	-10.6123
地理	-10.6123
采	-10.6123
蠻夷	-10.6123
春秋感精符曰	-10.6124
鄰	-10.6125
頌	-10.6126
宏	-10.6126
様	-10.6126
遍	-10.6127
巳酉	-10.6128
坦	-10.6129
宴	-10.613
晋	-10.6132
冨	-10.6133
京氏曰日	-10.6133
愆	-10.6133
大海	-10.6135
建始	-10.6137
也其日忌	-10.6138
定吉凶	-10.6139
譌	-10.6141
雖是	-10.6152
度半	-10.6161
一品	-10.6178
分數	-10.6186
朝陽	-10.6189
君死	-10.6191
砂水	-10.6211
子母	-10.6213
二星在	-10.622
從革	-10.6224
强宫	-10.6225
卯加	-10.6236
干犯	-10.6237
隂徳	-10.6239
不知其	-10.6243
妻兒	-10.6244
陽極	-10.6257
其鄉	-10.6257
亦不可	-10.6263
無差	-10.6267
木盛	-10.627
龍徳	-10.6275
黄幡	-10.6278
下弦	-10.6278
元命包曰	-10.6281
腫	-10.6282
杵	-10.6284
天柱	-10.6286
㤗	-10.6287
躬	-10.629
俾	-10.629
䏻	-10.629
屍	-10.6291
桃	-10.6291
晏	-10.6293
呈	-10.6294
偹	-10.6294
誣	-10.6294
函	-10.6296
惹	-10.6296
衢	-10.6297
普	-10.6298
坑	-10.6298
囘	-10.63
瞻	-10.63
遷官	-10.6303
恨	-10.6305
勞苦	-10.6305
紋者	-10.6309
水旱	-10.6312
天棓	-10.6313
乙辰	-10.6315
有大水	-10.634
若夫	-10.634
土司空	-10.6344
洛陽	-10.6345
髙強	-10.6352
八十六	-10.6356
屬隂	-10.6358
夀星	-10.6358
九十三	-10.6365
飛入	-10.6369
魁星	-10.6383
狼星	-10.6386
馬生人	-10.6395
此等	-10.6397
天關	-10.641
伏逆	-10.6413
總論	-10.6418
北河	-10.6421
聚於	-10.6431
本位	-10.644
天文志曰	-10.6442
太公	-10.6448
漂	-10.6449
弑其君	-10.6453
冇	-10.6454
甫	-10.646
䜛	-10.6461
胥	-10.6462
祗	-10.6462
蔀	-10.6463
出入留舍	-10.6463
堆	-10.6464
卜筮	-10.6464
懿	-10.6466
刑衝破害	-10.6466
慕	-10.6467
碍	-10.6467
入首	-10.6467
考原曰	-10.6468
運限	-10.6468
璇	-10.6468
䝉	-10.647
仕宦	-10.647
窠	-10.647
星學大成卷	-10.647
飽	-10.647
十八度	-10.6471
丸	-10.6472
迴	-10.6472
制煞	-10.6478
勝負	-10.648
嬴	-10.6483
市賈	-10.6483
寅午戌月	-10.6484
八節	-10.6486
貧夭	-10.6488
亨通	-10.6489
甲辰乙巳	-10.6494
石氏曰太白守	-10.6497
道理	-10.6498
小暑	-10.6499
尤妙	-10.65
大兵起	-10.6502
上元甲子	-10.6505
冬夏	-10.6508
鬼賊	-10.651
發達	-10.6514
公孫	-10.6515
初六	-10.6515
動静	-10.6524
我尅	-10.6526
兵罷	-10.6531
偏正	-10.6536
五常	-10.6548
一際	-10.6549
列宿	-10.6549
上弦	-10.6552
此名	-10.6574
東海	-10.6575
行疾	-10.6575
身坐	-10.6594
旺處	-10.6595
無患	-10.66
壬申癸酉	-10.6601
早年	-10.6605
成帝	-10.6608
坐煞向煞	-10.6613
次第	-10.6613
地道	-10.662
二尺	-10.6624
絳	-10.6627
逢空	-10.6629
䰟	-10.663
下賊上	-10.663
渾天	-10.6632
水火土石	-10.6633
貪狼	-10.6633
輔弼	-10.6635
荘	-10.6635
豈可	-10.6637
復生	-10.6637
灌	-10.6638
冶	-10.6639
玉歴曰	-10.6639
胸	-10.6639
煉	-10.664
朗	-10.664
雜氣	-10.6643
形體	-10.6645
斗牛	-10.6646
隂極	-10.6646
慳	-10.6646
毅	-10.6647
以火為	-10.6651
修方凶	-10.6654
火生土	-10.6655
三百六十日	-10.6657
不遂	-10.6661
無所不	-10.6662
夾拱	-10.6664
酒食	-10.6673
甲申乙酉	-10.6676
可畏	-10.6686
九醜	-10.6687
登科	-10.6692
乘旺	-10.6697
二十四氣	-10.67
為命主	-10.6701
留逆	-10.6702
可取	-10.6704
宣王	-10.6713
右轉	-10.6714
九坎	-10.6726
隨時	-10.6736
謀反	-10.6739
八十九	-10.6742
福壽	-10.6743
安寧	-10.6756
舉兵	-10.6765
不怕	-10.6765
二百二十	-10.6775
稱王	-10.6785
冬至後	-10.6789
書云	-10.6791
通天竅	-10.6794
更看	-10.6794
顚	-10.6801
相似	-10.6803
副	-10.6809
挨	-10.6809
参	-10.681
寓	-10.6811
貼	-10.6811
蒿	-10.6813
臨照	-10.6815
潰	-10.6815
殘疾	-10.6816
擁	-10.6818
展	-10.6818
歎	-10.682
墟	-10.6822
誇	-10.6822
襄王	-10.6823
夀夭	-10.6825
跳	-10.6827
霍	-10.6828
期二十日	-10.683
栽	-10.683
爪	-10.6832
相侵	-10.6834
翼軫	-10.6835
利害	-10.6845
實沈	-10.6852
經營	-10.6855
察其	-10.6855
破家	-10.6859
注云	-10.6868
此之謂也	-10.6881
天街	-10.6895
成都	-10.69
及第	-10.6904
飛來	-10.6905
聲音	-10.6913
法令	-10.6914
以木為	-10.6916
交加	-10.6918
尺二寸	-10.6924
耳目	-10.6936
其勢	-10.6943
遁甲	-10.6943
日子時	-10.6946
星入命	-10.6952
白露	-10.6952
何謂	-10.6957
苑	-10.6962
夏令	-10.6967
州府	-10.6968
壬戌癸亥	-10.6974
發明	-10.6976
南河	-10.6977
分别	-10.6982
吉㓙	-10.6982
虚實	-10.6991
郗萌曰月暈	-10.6993
賢人	-10.6995
胞	-10.6997
銷	-10.6997
療	-10.6997
隄防	-10.6998
爍	-10.6998
社稷	-10.6998
羸	-10.6999
軸	-10.7001
鬚	-10.7002
珞琭子	-10.7003
哲	-10.7005
太蔟	-10.7005
瑞應圖曰	-10.7009
壇	-10.7009
不善終	-10.7011
巽巳	-10.7015
鶉火	-10.7019
鶉首	-10.7019
有殃	-10.7022
天地人	-10.7025
王侯	-10.7029
一説	-10.7032
星紀	-10.7035
閣道	-10.704
本身	-10.7081
杓	-10.7089
甲子乙丑	-10.7101
天願	-10.7106
九十七	-10.7112
太一	-10.7118
寅午戌火	-10.7137
尅山家	-10.7166
宿從位降	-10.7171
臼	-10.7171
今按	-10.7172
災煞	-10.7175
橫	-10.7175
死囚	-10.7176
婢	-10.7178
講	-10.7179
捨	-10.718
娘	-10.7182
預	-10.7182
兇	-10.7183
穏	-10.7185
閭	-10.7185
佩	-10.7185
江湖	-10.7186
緊	-10.7186
匏𤓰	-10.7186
上克下	-10.7187
布帛	-10.7187
趣	-10.7188
佑	-10.7189
拙	-10.719
培	-10.7192
擒	-10.7194
漫	-10.7195
臧	-10.7196
黄帝座	-10.72
有誅者	-10.72
征伐	-10.7203
孝服	-10.7203
棲	-10.7203
一百三十	-10.7207
刪去	-10.7209
黄泉	-10.7209
令不行	-10.7212
必能	-10.7213
妨夫	-10.7214
之用也	-10.7221
為佳	-10.7227
隂遁	-10.7232
稱意	-10.7235
如甲日	-10.7251
破害	-10.7255
午戌	-10.7258
除之得	-10.7258
之類是也	-10.7258
旺鄉	-10.7264
白雲	-10.7267
乙辛	-10.7268
背禄	-10.7268
可知也	-10.7303
今人	-10.7304
天下兵	-10.7319
六辛日	-10.7325
亦不能	-10.7336
不可言	-10.7336
利名	-10.7341
七十日	-10.7347
在黄道内	-10.735
是也如	-10.735
五緯	-10.735
青赤	-10.7355
馴	-10.7362
盟	-10.7362
權貴	-10.7369
第八	-10.737
簇	-10.7372
煙	-10.7373
也餘倣此	-10.7375
勉	-10.7375
暇	-10.7375
懦	-10.7376
杪	-10.7376
斵	-10.7376
進人口	-10.7377
顛倒	-10.7379
技	-10.7381
災禍	-10.7383
虜	-10.7384
旌旗	-10.7384
東西南北	-10.7385
奔波	-10.7389
四肢	-10.7391
前一辰	-10.7391
紫㣲	-10.7391
鋭	-10.7395
衰敗	-10.7395
郄萌曰客星	-10.7402
牛羊	-10.7404
天闗	-10.7405
河南	-10.7408
國有兵	-10.7411
七爲	-10.7412
隔角	-10.7419
男命	-10.7432
禮樂	-10.7437
榮顯	-10.7443
者何也	-10.7451
墓絶	-10.7453
喜怒	-10.7458
不宜見	-10.7478
不待	-10.7481
交差	-10.7491
坎艮	-10.7519
交㑹	-10.7533
三合前方	-10.7534
春秋緯	-10.7535
重犯	-10.7535
三合後方	-10.7536
石氏曰辰星	-10.7537
巫咸	-10.7541
瑕	-10.7553
圜	-10.7558
句為一條	-10.7559
絞	-10.7562
怯	-10.7562
區	-10.7563
輸	-10.7563
淨	-10.7564
電	-10.7564
紐	-10.7564
齡	-10.7565
瘥	-10.7566
紛	-10.7567
纎	-10.7567
攙	-10.7567
吠	-10.7568
神樞經曰	-10.7568
況	-10.7568
敎	-10.7569
在天為	-10.7569
㺄	-10.757
乞	-10.7572
抝	-10.7574
鄕	-10.7577
查	-10.7577
答曰	-10.7578
澄	-10.758
日出夘	-10.758
义	-10.7581
四千三百	-10.7582
闊	-10.7584
天槍	-10.7587
辛苦	-10.7606
愚謂	-10.7626
尋常	-10.763
大司馬	-10.7645
甲寅乙卯	-10.7649
流星抵	-10.765
厠	-10.7655
依此	-10.7655
頭低	-10.7667
偏印	-10.7676
天下大水	-10.7688
青黒	-10.769
丨災	-10.7712
又五日	-10.7721
十有五	-10.7726
立向凶	-10.7733
四寸	-10.7742
天吏	-10.7749
評	-10.7751
餘倣此推	-10.7752
宋均曰	-10.7752
金紫	-10.7754
運斗樞曰	-10.7756
備矣	-10.7756
黄帝占曰填星	-10.7757
韋	-10.7758
權星	-10.7759
由此	-10.7759
畨	-10.776
蜂	-10.7762
咽	-10.7764
優游	-10.7765
鈍	-10.7765
吸	-10.7765
罕	-10.7765
戲	-10.7766
鱗	-10.7767
牆	-10.7768
寢	-10.7769
冊	-10.7772
松	-10.7773
儉	-10.7773
悠	-10.7773
火炎	-10.778
廩	-10.7783
三十年	-10.7784
萬九千	-10.7788
戰不勝	-10.78
刑獄	-10.7805
各以其	-10.7806
蒼龍	-10.7808
二百五十六	-10.7819
各得其	-10.782
入南斗	-10.7825
可知矣	-10.7825
徃來	-10.7826
蛇虎	-10.7832
納財	-10.7836
蔡氏	-10.7845
四隅	-10.7849
隂建於	-10.7855
丈夫	-10.7856
等事	-10.7862
最凶	-10.7864
騎官	-10.7874
存乎	-10.7879
一週	-10.7882
豕生	-10.7888
失勢	-10.7899
太白犯守	-10.7906
海中占曰嵗星	-10.7925
走馬六壬神后	-10.7933
星占三	-10.7937
㦸	-10.795
䨇	-10.7952
黃帝占曰嵗星	-10.7952
一隂一陽	-10.7953
苻	-10.7955
駁	-10.7955
偕	-10.7958
訂	-10.7958
梗河	-10.7959
斤	-10.7961
鼈	-10.7961
環繞	-10.7962
郷	-10.7963
餓	-10.7963
妓	-10.7964
盧	-10.7964
秤	-10.7966
安縣	-10.7969
級	-10.797
鶉尾	-10.7971
曠	-10.7972
宗鏡	-10.7973
黒色	-10.7978
一百六十	-10.7981
闇	-10.7982
當雨不雨	-10.7995
貧薄	-10.7996
丙午丁未	-10.7996
忠臣	-10.8001
滿野	-10.8003
順布	-10.8009
人主憂	-10.8026
郄萌曰	-10.8032
之體乃	-10.8042
夜生人	-10.8049
須看	-10.8052
邦國	-10.8056
巫咸曰熒惑	-10.8058
徙居	-10.8082
九十五	-10.8104
開山凶年	-10.8136
豎	-10.8151
畔	-10.8152
別	-10.8153
生貴子	-10.8153
師于	-10.816
百二十占曰	-10.8161
鈞	-10.8161
幼	-10.8163
䟽	-10.8165
線	-10.8168
髓	-10.817
直難	-10.8171
离	-10.8171
積尸	-10.8172
軰	-10.8172
馮	-10.8172
疲	-10.8173
滔	-10.8173
汚	-10.8174
藴	-10.8175
河鼓	-10.8179
足肣	-10.818
最重	-10.8182
小寒	-10.8183
期三十日	-10.8185
聖賢	-10.8188
一百九十	-10.8192
制化	-10.8194
不失其	-10.8202
註云	-10.8208
禽獸	-10.821
寶光	-10.8213
多招	-10.8222
朝元	-10.8225
大將出	-10.8244
乙丙丁	-10.8248
嵗駕	-10.8252
福厚	-10.8255
甲子旬	-10.8268
事不成	-10.8273
所載	-10.8279
三奇	-10.8283
風雲	-10.8292
廟堂	-10.8303
三百三十	-10.8309
者歟	-10.8316
性剛	-10.8325
春令	-10.8333
原守	-10.8337
開山立向修方凶太	-10.8345
鄴	-10.8355
商王	-10.8364
匡	-10.8368
臻	-10.8372
穢	-10.8375
獬	-10.8375
李仝曰	-10.8376
富貴雙全	-10.8377
贊	-10.8377
石氏讚曰	-10.8378
滑	-10.8378
玩	-10.8379
膠	-10.8379
紂	-10.8379
觀月經	-10.838
豁	-10.8382
莫能	-10.8383
二十日以上	-10.8383
火羅計孛	-10.8383
前程	-10.8385
研	-10.8385
骨起	-10.8385
无咎	-10.8387
株	-10.8389
提綱	-10.8389
邊境	-10.8396
例推	-10.8401
降婁	-10.8401
互垣	-10.8406
丙申丁酉	-10.8408
入輿鬼	-10.8424
歌云	-10.8424
朔望	-10.8426
衰旺	-10.8426
占訟	-10.8439
昭明	-10.846
堡	-10.846
天地間	-10.8468
年四月	-10.847
惡弱	-10.85
五品	-10.8523
破散	-10.8532
三百二十	-10.8539
斗柄	-10.854
酋	-10.8573
趾	-10.8577
孝經内記曰	-10.8578
眠	-10.8579
拒	-10.8582
肇	-10.8584
辜	-10.8584
昔王由是	-10.8586
忙	-10.8587
六七八九	-10.8587
天地萬物	-10.8588
濃	-10.8588
弁	-10.8588
岸	-10.8589
崇勲	-10.8591
藝術	-10.8591
伺	-10.8592
啞	-10.8592
苖	-10.8592
潦	-10.8593
蟄	-10.8593
宛	-10.8594
髀	-10.8594
茅	-10.8595
豺	-10.8596
長沙	-10.8596
木生火	-10.8596
戀	-10.8597
懶	-10.8598
辛癸	-10.8598
冡	-10.86
殊不知	-10.8602
十有九	-10.8602
蓍龜	-10.8607
有土功事	-10.8607
在其中矣	-10.8608
千四十	-10.8608
主人勝	-10.861
光輝	-10.8612
歲枝	-10.8621
大槩	-10.8627
巫咸曰嵗星	-10.8632
晦朔	-10.864
官鄉	-10.8642
爵禄	-10.8643
地閣	-10.8647
倒限	-10.8653
山根	-10.8655
聚散	-10.8662
少㣲	-10.8663
難免	-10.8664
無故自	-10.8669
帶疾	-10.8681
金生水	-10.8686
術家	-10.8687
代立	-10.8691
通書曰	-10.8712
三十度	-10.875
凖頭	-10.8772
壮	-10.879
驀	-10.8795
苟	-10.8796
酷	-10.8796
司馬彪天文志曰孝	-10.8799
鳯凰	-10.8801
鍵	-10.8801
嗚呼	-10.8801
郗萌占曰	-10.8802
窄	-10.8803
石勒	-10.8803
薪	-10.8803
王廷光曰	-10.8804
犯乗	-10.8804
蔭	-10.8804
毋	-10.8804
繼是謂	-10.8804
搜	-10.8805
滄	-10.8806
朋友	-10.8806
年五月	-10.8807
巨富	-10.8808
溫	-10.8808
創	-10.8809
歷	-10.8809
勞碌	-10.8809
茹	-10.881
巨蟹	-10.8811
束	-10.8814
觜參	-10.8815
斛	-10.8816
驪	-10.8817
枝葉	-10.8818
荆州占曰熒惑守	-10.8828
河皷	-10.8834
專政	-10.8836
祖宗	-10.8837
庫樓	-10.8847
貴格云	-10.885
宦者	-10.8852
陰私	-10.8855
眼目	-10.8856
性急	-10.8857
生於申	-10.886
重權	-10.8869
第九	-10.8884
心腹	-10.8889
疾厄宫	-10.8897
竒偶	-10.8901
柔順	-10.8902
九賛	-10.8913
壬子癸丑	-10.8914
千六十	-10.8948
建除	-10.8948
直符加	-10.8956
四星在	-10.8979
六十甲子	-10.8986
大熟	-10.8995
睡	-10.9016
狡	-10.9016
中犯乘守	-10.9017
鑄	-10.9018
姑洗	-10.9022
覩	-10.9023
緑	-10.9025
鬱	-10.9027
瘟	-10.9028
欣	-10.9028
水火木金	-10.9028
汨	-10.9028
蘭臺	-10.9028
効	-10.9029
瞽	-10.9029
大人當之	-10.903
劒鋒	-10.9031
詭	-10.9032
裕	-10.9033
攘	-10.9033
艱辛	-10.9033
有倚托	-10.9038
臯	-10.9038
殿駕	-10.9039
羅網	-10.9042
謹按	-10.9044
又曰嵗星	-10.9045
架	-10.9048
軟	-10.905
郗萌曰嵗星守	-10.9059
憂患	-10.9062
前一位	-10.9075
大小運	-10.9086
郎將	-10.9087
清秀	-10.9096
其日宜	-10.9096
墓庫	-10.9097
乘白虎	-10.9101
荆州占曰辰星	-10.9108
火燒	-10.9119
巫咸曰填星	-10.9123
寅夘辰	-10.9124
百世	-10.9124
通闗	-10.9136
盛衰	-10.9143
第二星	-10.9154
艮巽	-10.9164
風雷	-10.9166
千五十	-10.9204
不能制	-10.9211
年七月	-10.9216
兖	-10.9226
𫝊送	-10.9238
痣	-10.9239
徭	-10.924
田宅宫	-10.924
甸	-10.924
千户所	-10.9241
皷	-10.9244
三百五十	-10.9246
蕪	-10.9248
河間	-10.9248
蒸	-10.9251
整	-10.9254
牡	-10.9254
壺	-10.9255
燋	-10.9255
媾	-10.9255
堯舜	-10.9256
膺	-10.9257
猜	-10.9258
麤	-10.9258
惜	-10.9258
怠	-10.9259
状	-10.9259
綸	-10.9259
不得力	-10.926
確	-10.926
臨官帝旺	-10.926
僉憲	-10.9262
鈎鈐	-10.9262
謗	-10.9262
遶	-10.9262
女牀	-10.9263
旨	-10.9264
寅申己亥	-10.9269
綏	-10.9269
有反臣	-10.9271
商賈	-10.9272
産厄	-10.9273
庚寅辛卯	-10.9278
水生木	-10.9278
升殿	-10.9278
壬癸亥子	-10.9279
甘氏曰嵗星	-10.9287
附路	-10.9287
丙寅丁卯	-10.9292
庚午辛未	-10.9296
重叠	-10.93
荆州占曰熒惑入	-10.9302
羣臣	-10.9304
榮昌	-10.9305
程子	-10.9306
徒流	-10.9307
晷長	-10.9308
遲疾	-10.9311
後二辰	-10.9324
稱帝	-10.9328
血支	-10.9329
雲雨	-10.9331
剛柔相	-10.9332
後一辰	-10.9341
人主有憂	-10.9348
先生曰	-10.9363
九卿	-10.9363
古法	-10.9389
二十四度	-10.9395
今測	-10.9397
斗魁	-10.9414
千萬	-10.9424
轄	-10.9443
右旋	-10.9445
度距	-10.9452
葬造後	-10.9459
蒲	-10.9469
壺中子云	-10.9474
致富	-10.9474
玉管照神	-10.9477
瓶	-10.9481
雒	-10.9481
考異郵曰	-10.9482
南官候曰	-10.9484
沃	-10.9484
粹	-10.9484
漿	-10.9485
𤣥枵	-10.9486
旌	-10.9487
翰	-10.9487
西官候曰	-10.9489
姻	-10.9489
明萬民英撰	-10.949
㕘	-10.9491
春夏秋冬	-10.9491
掠	-10.9492
幷	-10.9493
牲	-10.9493
脊	-10.9494
生尅制化	-10.9495
寳瓶	-10.9495
京師	-10.9495
眷	-10.9501
街	-10.9635
■	-10.9696
瀆	-10.9704
无	-10.971
鑒	-10.9717
𤓰	-10.9718
羡	-10.9719
匠	-10.9721
靠	-10.9722
彪	-10.9722
粉	-10.9723
邀	-10.9724
恰	-10.9725
駒	-10.9725
涼	-10.9725
隴	-10.9725
蝎	-10.9727
秩	-10.9727
榜	-10.9728
爛	-10.9728
挾	-10.9729
謫	-10.973
竇	-10.9731
遮	-10.9734
蝠	-10.9739
􁁿	-10.9739
潮	-10.9751
倣	-10.9942
鴛	-10.9954
蠻	-10.9955
鞭	-10.9961
嫩	-10.9963
翌	-10.9967
筐	-10.9967
慘	-10.9968
涵	-10.9969
訪	-10.9969
崔	-10.997
佚	-10.9971
群	-10.9972
茫	-10.9973
霖	-10.9973
踵	-10.9973
迅	-10.9973
徧	-10.9973
肘	-10.9974
惻	-10.9974
梅	-10.9974
濡	-10.9976
猾	-10.9979
芽	-10.998
芮	-10.9981
篤	-10.9986
朦	-10.9991
齧	-11.0168
潭	-11.0203
洗	-11.0205
撃	-11.0206
謡	-11.0206
蟠	-11.0208
籥	-11.021
簒	-11.0212
頁	-11.0213
葛	-11.0215
壻	-11.0216
陂	-11.0217
䖏	-11.0217
陋	-11.0219
嬪	-11.022
逞	-11.022
慿	-11.0221
稼	-11.0221
霞	-11.0223
膝	-11.0224
耿	-11.0224
另	-11.0225
浩	-11.0226
迤	-11.0226
院	-11.0228
圏	-11.023
艱	-11.0444
織	-11.0458
床	-11.0459
稜	-11.0464
畝	-11.0465
臍	-11.047
沛	-11.047
模	-11.047
亾	-11.0471
慝	-11.0471
裔	-11.0472
疵	-11.0472
恤	-11.0474
冕	-11.0474
慧	-11.0476
巷	-11.0476
貝	-11.0478
靖	-11.0479
概	-11.0482
販	-11.0482
汪	-11.0483
昀	-11.0483
忍	-11.0483
雁	-11.0484
巍	-11.0486
牝	-11.0486
蠢	-11.0488
窩	-11.0489
雛	-11.0489
催	-11.0575
莽	-11.0658
扐	-11.0723
碎	-11.0724
淑	-11.0735
僖	-11.0736
籠	-11.0738
嶺	-11.0742
穩	-11.0744
駝	-11.075
嘆	-11.0755
俞	-11.0757
蜺	-11.0763
肢	-11.0958
障	-11.0988
鬢	-11.0994
虢	-11.0994
摩	-11.0998
煇	-11.0999
恊	-11.0999
䖝	-11.1
片	-11.1
昂	-11.1001
燦	-11.1001
羞	-11.1003
遐	-11.1004
翳	-11.1004
劔	-11.1004
霄	-11.1005
逓	-11.1005
想	-11.1007
廪	-11.1007
縈	-11.1008
凸	-11.101
傑	-11.1011
忻	-11.1011
汲	-11.1011
鎖	-11.1011
聊	-11.1012
揖	-11.1013
㳺	-11.1014
弼	-11.1015
巖	-11.1015
駭	-11.1016
凋	-11.1016
製	-11.1017
惕	-11.1018
閻	-11.1019
讐	-11.102
拓	-11.102
裘	-11.1024
潢	-11.1176
穰	-11.1269
拾	-11.1273
茀	-11.1277
梗	-11.1277
漁	-11.1279
狸	-11.128
捧	-11.1282
湛	-11.1282
虗	-11.1283
巴	-11.1284
浄	-11.1285
悴	-11.1286
蹄	-11.1286
毀	-11.1287
菽	-11.1287
螣	-11.1287
劈	-11.129
銓	-11.129
彈	-11.129
產	-11.129
滂	-11.1292
遏	-11.1292
歐	-11.1293
僵	-11.1296
棘	-11.1297
弄	-11.1298
蹻	-11.1304
沸	-11.1305
殂	-11.1542
疇	-11.1547
㽔	-11.1558
系	-11.1562
警	-11.1562
皓	-11.1564
聘	-11.1564
囬	-11.1566
癆	-11.1568
供	-11.1568
祕	-11.1569
繋	-11.1572
骸	-11.1574
鎭	-11.1575
甞	-11.1575
侮	-11.1576
戯	-11.1578
坡	-11.1578
焰	-11.1579
岱	-11.158
犧	-11.158
寫	-11.1583
巻	-11.1584
臟	-11.1832
倪	-11.1838
穎	-11.1848
疽	-11.185
絮	-11.1853
板	-11.1856
甡	-11.1856
暌	-11.1861
悼	-11.1861
鉤	-11.1861
叶	-11.1862
聦	-11.1862
壤	-11.1862
庾	-11.1864
暫	-11.1864
嘯	-11.1865
攀	-11.1865
啄	-11.1866
渭	-11.1867
轅	-11.1868
縦	-11.1868
竿	-11.187
宓	-11.187
撞	-11.1871
裳	-11.1871
闡	-11.1872
檀	-11.1872
噬	-11.1875
閩	-11.1877
夹	-11.1879
奕	-11.1879
両	-11.1884
釁	-11.2145
藁	-11.2159
荅	-11.2162
燃	-11.2163
鑚	-11.2164
縷	-11.2165
蹤	-11.2165
螟	-11.2166
暖	-11.2166
洽	-11.2166
蝦	-11.2168
脇	-11.2168
森	-11.2169
纍	-11.2169
浙	-11.2169
逾	-11.2171
嫉	-11.2172
琴	-11.2172
㓂	-11.2172
翹	-11.2172
鎻	-11.2173
簿	-11.2174
湧	-11.2176
侣	-11.2176
数	-11.2176
匝	-11.2176
朴	-11.2176
稚	-11.2177
揮	-11.2177
鯉	-11.2177
廏	-11.2178
摶	-11.2179
漠	-11.2182
頒	-11.2184
答	-11.246
吁	-11.247
頰	-11.2474
㪚	-11.2475
峙	-11.2477
菓	-11.2477
卽	-11.2477
朞	-11.2479
綠	-11.2479
雕	-11.248
煖	-11.2481
榴	-11.2482
濳	-11.2482
仗	-11.2483
兜	-11.2484
餙	-11.2485
勒	-11.2486
染	-11.2486
摺	-11.2486
誥	-11.2486
嚮	-11.2486
𠖇	-11.2487
悞	-11.2489
睟	-11.249
礙	-11.2491
窟	-11.2491
遙	-11.2491
捉	-11.2496
閔	-11.2498
麓	-11.2498
麋	-11.2776
翟	-11.2783
赴	-11.2791
囦	-11.2796
煌	-11.2796
繹	-11.2796
忒	-11.2796
冒	-11.2797
護	-11.2799
恠	-11.2799
替	-11.2801
臓	-11.2801
悵	-11.2801
脛	-11.2802
覇	-11.2802
扇	-11.2802
軀	-11.2803
鹽	-11.2804
崖	-11.2805
赧	-11.2805
閼	-11.2805
歆	-11.2806
庖	-11.2806
臆	-11.2808
煎	-11.2809
褒	-11.281
袍	-11.2811
脂	-11.2811
邾	-11.2815
桐	-11.2815
訾	-11.2815
枚	-11.2816
鑰	-11.2822
憕	-11.2824
廕	-11.2835
匱	-11.3098
肚	-11.3109
團	-11.3123
癰	-11.3124
唫	-11.3124
洫	-11.3126
聮	-11.3127
屵	-11.313
攜	-11.3135
禎	-11.3135
輻	-11.3136
爰	-11.3137
喧	-11.3137
趕	-11.3137
杼	-11.3137
棗	-11.3137
鎔	-11.3138
晶	-11.3138
憐	-11.3139
搏	-11.3139
搆	-11.3139
菜	-11.314
鵠	-11.314
荷	-11.3141
腥	-11.3141
汗	-11.3144
頦	-11.3144
瞳	-11.3145
踦	-11.3145
淋	-11.3147
閫	-11.3147
裹	-11.3147
榆	-11.3148
囿	-11.3148
繕	-11.3149
滎	-11.3149
逮	-11.3149
䑓	-11.3149
祉	-11.3152
詰	-11.3152
驥	-11.3156
劇	-11.3461
個	-11.3467
盾	-11.3472
莭	-11.3472
屛	-11.3473
遽	-11.3474
喘	-11.3474
諌	-11.3476
鈐	-11.3476
映	-11.3477
飬	-11.3477
喚	-11.3478
鐡	-11.3479
泗	-11.3479
聨	-11.3481
謾	-11.3482
恥	-11.3484
耆	-11.3485
僻	-11.3486
拖	-11.3486
嗇	-11.3486
沐	-11.3486
敘	-11.3487
竄	-11.3488
罹	-11.349
嘻	-11.349
躓	-11.3492
栗	-11.3494
傲	-11.3494
鄒	-11.3496
隘	-11.3496
駿	-11.3498
櫃	-11.3503
霆	-11.3519
宦	-11.3761
槍	-11.3792
疼	-11.3822
箱	-11.3824
隊	-11.3832
􁎮	-11.3833
藻	-11.3835
膿	-11.3835
奠	-11.3837
倡	-11.3837
頷	-11.3837
琅	-11.3837
態	-11.3838
帯	-11.3838
觴	-11.3838
寤	-11.3839
珪	-11.3839
儘	-11.384
痕	-11.3841
廊	-11.3842
驂	-11.3842
僚	-11.3842
肌	-11.3844
帳	-11.3844
陟	-11.3845
庄	-11.3845
炳	-11.3846
鏘	-11.3847
鱉	-11.3847
羖	-11.3849
輯	-11.3851
腕	-11.3851
苛	-11.3853
蠡	-11.3857
莖	-11.4191
啼	-11.42
玅	-11.4202
繒	-11.4202
閙	-11.4202
炭	-11.4202
瘵	-11.4202
恬	-11.4203
碩	-11.4203
梯	-11.4204
狭	-11.4205
蹉	-11.4205
旄	-11.4205
偉	-11.4206
綴	-11.4206
惆	-11.4207
甑	-11.4208
悚	-11.4208
僭	-11.4208
鈴	-11.4209
閨	-11.4209
跨	-11.421
繭	-11.4213
癡	-11.4213
潘	-11.4214
昬	-11.4214
徽	-11.4216
梧	-11.4216
熖	-11.4216
桴	-11.4216
汾	-11.4217
輒	-11.4217
刈	-11.4218
几	-11.4219
捐	-11.4221
璋	-11.4223
鮑	-11.4223
怡	-11.4224
詘	-11.4224
鑕	-11.4224
欹	-11.4584
嘘	-11.4585
粧	-11.4587
貳	-11.4587
潁	-11.4589
𨼆	-11.459
症	-11.459
挫	-11.4591
裝	-11.4591
䖍	-11.4592
姿	-11.4593
痩	-11.4593
匀	-11.4594
鑠	-11.4594
村	-11.4595
蟬	-11.4595
縫	-11.4595
斥	-11.4595
殞	-11.4595
悍	-11.4596
燔	-11.4596
堤	-11.4596
荀	-11.4596
恱	-11.4596
􁵸	-11.4596
凑	-11.4597
皎	-11.4598
楫	-11.4598
剖	-11.4598
睿	-11.4599
宵	-11.4599
娣	-11.4599
絃	-11.4599
僣	-11.4599
澁	-11.46
莘	-11.46
紊	-11.46
寐	-11.4602
撮	-11.4602
萍	-11.4602
孳	-11.4604
酸	-11.4604
䜟	-11.4609
踏	-11.4611
喙	-11.4611
羿	-11.4611
恢	-11.4617
逝	-11.4956
矜	-11.4976
咬	-11.4977
糓	-11.4978
黔	-11.4978
熹	-11.4978
恁	-11.4979
携	-11.4979
纓	-11.4981
盃	-11.4985
剪	-11.4986
芻	-11.4987
頽	-11.4988
渴	-11.4991
輙	-11.4991
湊	-11.4991
淸	-11.4993
誼	-11.4994
㨿	-11.4994
莒	-11.4995
缶	-11.4996
墀	-11.4996
摘	-11.4996
庇	-11.4997
瑟	-11.4997
貶	-11.4998
付	-11.4998
繡	-11.5
闘	-11.5
闌	-11.5002
譎	-11.5002
鎗	-11.5002
踝	-11.5003
婺	-11.5003
冢	-11.5004
彚	-11.5004
汙	-11.5004
轂	-11.5005
寕	-11.5005
彫	-11.5006
裸	-11.5009
挈	-11.501
拳	-11.501
瓮	-11.5013
鵝	-11.5015
塊	-11.5397
竝	-11.5399
煥	-11.5399
悅	-11.5402
勅	-11.5403
孩	-11.5407
誘	-11.5407
弋	-11.5407
罵	-11.5407
釡	-11.5408
丐	-11.5408
艾	-11.5409
臥	-11.5409
嗜	-11.5409
輅	-11.5411
佈	-11.5411
朒	-11.5412
沾	-11.5413
穽	-11.5414
鋪	-11.5416
藪	-11.5416
薛	-11.5418
宸	-11.5419
饗	-11.5419
眸	-11.542
鑾	-11.5421
措	-11.5422
孀	-11.5422
曇	-11.5424
絕	-11.5426
眥	-11.5431
挟	-11.5432
眡	-11.5432
瞢	-11.5821
叫	-11.5823
閃	-11.5825
溷	-11.5825
瀛	-11.5829
轝	-11.5831
圉	-11.5833
勵	-11.5834
烹	-11.5836
油	-11.5836
嬌	-11.5837
溟	-11.5837
壑	-11.5837
虫	-11.5837
䫫	-11.5838
萇	-11.584
璽	-11.584
噪	-11.5842
玷	-11.5842
邯	-11.5842
馭	-11.5843
灘	-11.5843
棒	-11.5843
鴨	-11.5844
掖	-11.5844
軻	-11.5844
譖	-11.5844
伎	-11.5845
鞍	-11.5845
瘳	-11.5845
寨	-11.5845
襟	-11.5846
扺	-11.5846
沿	-11.5846
糞	-11.5847
貉	-11.5848
敝	-11.5848
覃	-11.5848
鱔	-11.5848
甄	-11.5849
筵	-11.5849
讎	-11.5849
餌	-11.585
姊	-11.585
譯	-11.5851
蹈	-11.5852
燠	-11.5852
鵬	-11.5852
竪	-11.5853
浦	-11.5853
蠅	-11.5854
攔	-11.5855
宀	-11.5856
萊	-11.5857
岀	-11.5857
耐	-11.586
鬲	-11.588
􁀴	-11.6247
顒	-11.6269
扁	-11.6273
亘	-11.6277
澮	-11.6278
鑞	-11.6278
菑	-11.6281
燼	-11.6284
漆	-11.6288
釜	-11.6291
灸	-11.6291
昨	-11.6292
螻	-11.6293
擔	-11.6293
陛	-11.6293
巾	-11.6295
頴	-11.6295
幕	-11.6295
彖	-11.6296
祼	-11.6296
嘷	-11.6296
迂	-11.6297
輦	-11.6297
帷	-11.6297
卅	-11.6298
踞	-11.6298
垠	-11.6299
梓	-11.6299
窒	-11.63
祁	-11.63
垢	-11.6301
灑	-11.6301
黯	-11.6301
俛	-11.6302
舅	-11.6302
覔	-11.6303
瑯	-11.6303
婆	-11.6304
貯	-11.6305
簾	-11.6305
謨	-11.6307
訴	-11.6308
睢	-11.6308
遜	-11.6309
掀	-11.6309
腋	-11.6309
穹	-11.6309
匣	-11.631
塌	-11.6311
穉	-11.6312
谿	-11.6313
靑	-11.6313
弩	-11.6313
醴	-11.632
鳧	-11.6327
廐	-11.6684
銖	-11.6738
懲	-11.6747
液	-11.6765
脯	-11.6765
廹	-11.6767
醒	-11.677
粘	-11.6772
樸	-11.6773
戕	-11.6773
礪	-11.6773
頡	-11.6774
甌	-11.6775
彘	-11.6775
愧	-11.6777
亞	-11.6777
弹	-11.6778
拗	-11.6778
躡	-11.6779
殽	-11.678
憤	-11.6781
鬪	-11.6783
徼	-11.6783
哺	-11.6784
夙	-11.6785
蟹	-11.6785
魴	-11.6786
侈	-11.6786
䎡	-11.6787
枵	-11.6787
腮	-11.6788
紆	-11.6788
葆	-11.6788
凰	-11.6789
蘓	-11.6789
翊	-11.6789
𣺌	-11.679
些	-11.6791
敖	-11.6796
燎	-11.6796
秃	-11.68
兾	-11.722
槨	-11.7246
縊	-11.725
㕑	-11.7263
倦	-11.7264
痊	-11.7264
怙	-11.7265
邁	-11.7266
柯	-11.7266
咨	-11.7266
碓	-11.7266
腧	-11.7266
弃	-11.7267
飯	-11.7268
廻	-11.7268
豳	-11.7269
畿	-11.727
掘	-11.727
挑	-11.727
痢	-11.727
驢	-11.7271
宥	-11.7271
悶	-11.7272
繆	-11.7273
忿	-11.7274
枷	-11.7276
派	-11.7277
顓	-11.7278
胄	-11.7279
磑	-11.728
浴	-11.728
漤	-11.7281
倖	-11.7281
逡	-11.7282
􁂂	-11.7282
亹	-11.7282
醇	-11.7283
哇	-11.7283
匙	-11.7283
朓	-11.7283
暉	-11.7283
邐	-11.7284
槐	-11.7285
瘧	-11.7285
粒	-11.7286
紳	-11.7287
躭	-11.7287
蛛	-11.7288
粮	-11.7288
核	-11.7289
贛	-11.7289
沮	-11.729
嵬	-11.7291
癱	-11.7292
啖	-11.7292
嫡	-11.7292
掇	-11.7294
净	-11.7294
賾	-11.7295
袴	-11.7301
涂	-11.7729
瓜	-11.7782
鴦	-11.7788
迄	-11.7788
蹶	-11.7789
凹	-11.7792
魅	-11.7792
夰	-11.7792
暨	-11.7793
曺	-11.7795
綜	-11.7795
亟	-11.7796
痔	-11.7796
兀	-11.7796
笏	-11.7796
沱	-11.7796
揭	-11.7797
堕	-11.7797
抗	-11.7797
釵	-11.7797
朕	-11.7798
鉅	-11.7798
塜	-11.7798
湘	-11.7798
咀	-11.7798
瘋	-11.7799
栢	-11.78
昦	-11.7801
疋	-11.7801
鰥	-11.7801
丕	-11.7801
燿	-11.7801
攴	-11.7802
儻	-11.7802
脁	-11.7803
揑	-11.7803
蘆	-11.7803
苞	-11.7803
肣	-11.7804
傒	-11.7804
綵	-11.7804
抛	-11.7804
柴	-11.7804
寥	-11.7805
瀝	-11.7805
恍	-11.7805
婪	-11.7806
喝	-11.7806
俐	-11.7806
鋤	-11.7807
婿	-11.7808
勁	-11.7809
靨	-11.7809
蜚	-11.7809
隐	-11.7809
涿	-11.7811
襦	-11.7811
螫	-11.7811
債	-11.7812
騷	-11.7814
䍧	-11.7814
巔	-11.7815
焱	-11.7816
崢	-11.7816
鰲	-11.7816
恪	-11.7816
諏	-11.7816
晁	-11.7816
祇	-11.7817
衷	-11.7819
場	-11.7819
鷙	-11.782
諒	-11.7821
愽	-11.7821
啇	-11.7823
搃	-11.7828
棓	-11.8314
冉	-11.8324
弇	-11.8327
􁁊	-11.8334
𡨕	-11.8335
尢	-11.8335
汜	-11.8339
桞	-11.834
畱	-11.834
晡	-11.834
茶	-11.8341
亳	-11.8343
撒	-11.8343
叩	-11.8344
恕	-11.8345
𧺫	-11.8347
衙	-11.8349
炬	-11.8349
熄	-11.835
淆	-11.8352
蛤	-11.8352
眩	-11.8352
搶	-11.8353
噫	-11.8353
邢	-11.8353
隤	-11.8353
蔓	-11.8355
侖	-11.8355
譚	-11.8356
窘	-11.8357
螽	-11.8357
峽	-11.8357
韶	-11.8357
帑	-11.8357
煆	-11.8358
濤	-11.8358
僉	-11.8359
恓	-11.8359
嘴	-11.8359
淚	-11.836
鴉	-11.836
牖	-11.836
姨	-11.8361
娛	-11.8361
姒	-11.8363
羨	-11.8364
垓	-11.8364
郵	-11.8364
梵	-11.8364
嘔	-11.8365
㨗	-11.8365
冏	-11.8365
蛾	-11.8365
眇	-11.8366
臉	-11.8366
貿	-11.8367
辦	-11.8367
誓	-11.8367
逈	-11.8368
掲	-11.8369
濵	-11.837
蕾	-11.8371
渝	-11.8372
窕	-11.8373
翅	-11.8374
滴	-11.8377
澆	-11.8378
龎	-11.8379
覊	-11.8382
榦	-11.8395
塟	-11.8909
蒭	-11.8922
郢	-11.8925
聼	-11.8926
皂	-11.8928
峰	-11.8929
襯	-11.8932
翠	-11.8932
蓮	-11.8933
咳	-11.8935
誦	-11.8936
杯	-11.8938
洲	-11.8939
炤	-11.8939
龔	-11.8939
鉛	-11.8942
隧	-11.8942
攅	-11.8942
蟻	-11.8942
閹	-11.8943
尠	-11.8943
諷	-11.8943
痼	-11.8946
侏	-11.8946
寞	-11.8946
陌	-11.8946
琢	-11.8946
囂	-11.8947
淄	-11.8948
粱	-11.8949
渚	-11.895
瘢	-11.8951
緇	-11.8951
怖	-11.8951
憚	-11.8952
跖	-11.8952
碣	-11.8952
刋	-11.8953
泓	-11.8954
丰	-11.8954
寰	-11.8954
絓	-11.8954
舛	-11.8955
閱	-11.8955
遡	-11.8955
獺	-11.8956
渥	-11.8956
瀉	-11.8957
彦	-11.8957
俸	-11.8958
隲	-11.8958
璞	-11.8959
睹	-11.8959
褰	-11.896
濯	-11.8961
杞	-11.8962
瀦	-11.8963
卲	-11.8971
𬎼	-11.8974
窈	-11.8977
彎	-11.9534
虓	-11.9541
顙	-11.9541
斡	-11.9545
𠻳	-11.9548
署	-11.9553
􁃦	-11.9553
荄	-11.9554
貸	-11.9555
沽	-11.9556
璺	-11.9557
舘	-11.9559
册	-11.956
岑	-11.956
阡	-11.9561
鑪	-11.9561
矯	-11.9562
鄂	-11.9562
祸	-11.9562
隄	-11.9565
啾	-11.9565
摹	-11.9566
隗	-11.9566
勑	-11.9567
誡	-11.9567
涇	-11.9568
轡	-11.9568
番	-11.9568
祛	-11.9568
猫	-11.9568
頺	-11.9569
炙	-11.9569
奄	-11.9569
􁜤	-11.957
梏	-11.957
泆	-11.957
蛀	-11.9571
聫	-11.9571
讙	-11.9572
怎	-11.9573
陪	-11.9573
蜃	-11.9573
詣	-11.9573
勘	-11.9574
耽	-11.9574
迯	-11.9574
岷	-11.9575
誌	-11.9576
撥	-11.9577
寔	-11.9577
黿	-11.9578
洮	-11.9578
杏	-11.9578
羔	-11.9578
話	-11.9578
䆒	-11.9578
蔑	-11.9579
糠	-11.958
滚	-11.958
閎	-11.958
裡	-11.9582
栖	-11.9582
惱	-11.9583
漳	-11.9583
繳	-11.9583
釀	-11.9583
噎	-11.9583
甦	-11.9584
鼐	-11.9584
踒	-11.9585
竺	-11.9587
榭	-11.9588
憒	-11.9589
捷	-11.959
阪	-11.9591
仆	-11.9591
汎	-11.9591
蔚	-11.9591
蠧	-11.9592
挽	-11.9593
濓	-11.9594
嫗	-11.9595
曆	-11.9597
蹊	-11.9603
臀	-12.0196
􁁜	-12.0206
葦	-12.0215
韯	-12.0216
枲	-12.0217
苫	-12.0218
蹙	-12.0219
楯	-12.0221
瓠	-12.0221
礥	-12.0224
匏	-12.0225
甕	-12.0227
漣	-12.0228
坊	-12.0229
鎬	-12.0232
髭	-12.0233
攣	-12.0233
焌	-12.0233
丮	-12.0233
韜	-12.0233
陜	-12.0234
羗	-12.0234
郤	-12.0234
瑜	-12.0235
鴿	-12.0235
税	-12.0236
迨	-12.0236
曷	-12.0237
譜	-12.0237
蒔	-12.0237
牟	-12.0237
暘	-12.0237
㓗	-12.0238
縉	-12.0238
圄	-12.0238
跎	-12.0239
换	-12.0239
悮	-12.024
妍	-12.024
殫	-12.024
殖	-12.0241
店	-12.0241
燄	-12.0241
㐮	-12.0242
㵼	-12.0242
噀	-12.0242
舂	-12.0242
愍	-12.0242
戶	-12.0242
㝷	-12.0242
鵰	-12.0243
譙	-12.0244
插	-12.0244
欒	-12.0245
跪	-12.0245
薇	-12.0245
羌	-12.0245
浚	-12.0247
揷	-12.0248
綰	-12.0248
鴟	-12.0248
樊	-12.0248
診	-12.0249
狢	-12.0251
闈	-12.0251
孥	-12.0251
醮	-12.0251
昩	-12.0251
愎	-12.0251
羮	-12.0253
蓐	-12.0253
妒	-12.0255
殻	-12.0257
朢	-12.0258
涌	-12.0262
騮	-12.0263
螮	-12.0905
攡	-12.092
峒	-12.0924
犢	-12.0931
旛	-12.0932
辵	-12.0934
唾	-12.0934
隼	-12.0935
沼	-12.0936
幂	-12.0936
畛	-12.0936
惰	-12.0939
脹	-12.0941
兟	-12.0941
稅	-12.0941
縛	-12.0942
衮	-12.0942
跙	-12.0942
啣	-12.0942
牂	-12.0942
姙	-12.0942
么	-12.0943
痰	-12.0944
簪	-12.0944
燧	-12.0944
笙	-12.0945
䧏	-12.0945
殤	-12.0946
冐	-12.0947
翮	-12.0947
詹	-12.0948
冽	-12.0948
脅	-12.0948
僮	-12.0949
駢	-12.0949
愕	-12.0949
磬	-12.0949
飭	-12.095
罟	-12.095
冗	-12.095
剗	-12.0951
撲	-12.0951
鶚	-12.0952
囹	-12.0952
麞	-12.0952
贈	-12.0952
賄	-12.0953
騁	-12.0953
䕫	-12.0953
鄆	-12.0953
杭	-12.0953
圃	-12.0954
粥	-12.0955
竦	-12.0955
㕔	-12.0956
㤙	-12.0956
揫	-12.0956
寘	-12.0956
槽	-12.0956
䋲	-12.0957
忤	-12.0958
轍	-12.0958
膻	-12.0958
簷	-12.0959
溶	-12.0959
茲	-12.0959
諱	-12.0959
沓	-12.0961
緋	-12.0961
幃	-12.0962
謐	-12.0962
幙	-12.0963
燾	-12.0963
叨	-12.0964
鍼	-12.0965
轟	-12.0966
眎	-12.0966
昱	-12.0966
巒	-12.0966
涕	-12.0967
騂	-12.0967
嗑	-12.0968
酆	-12.0968
鴞	-12.0968
蹲	-12.0969
殄	-12.097
姐	-12.097
滓	-12.0971
蝀	-12.0978
砧	-12.0989
髻	-12.102
睒	-12.1677
彬	-12.1684
斿	-12.1691
徇	-12.1693
慙	-12.1694
閶	-12.1702
昃	-12.1703
邇	-12.1704
揣	-12.1705
疉	-12.1705
妁	-12.1705
茾	-12.1706
毬	-12.1706
棿	-12.1707
扈	-12.1707
嚎	-12.1709
鰍	-12.171
闓	-12.1711
芬	-12.1711
券	-12.1711
葵	-12.1711
鬛	-12.1712
氛	-12.1713
邕	-12.1714
兢	-12.1714
埃	-12.1714
麦	-12.1714
囧	-12.1714
眚	-12.1714
咋	-12.1715
琨	-12.1718
槖	-12.1718
儔	-12.1718
料	-12.1718
膈	-12.1719
貲	-12.1719
鹹	-12.1719
齦	-12.1719
舩	-12.1719
瓊	-12.172
諾	-12.172
痍	-12.172
覓	-12.1721
艶	-12.1721
紙	-12.1722
駙	-12.1722
盻	-12.1723
煦	-12.1723
滕	-12.1724
翩	-12.1724
婉	-12.1725
邃	-12.1725
熬	-12.1725
瞿	-12.1725
弛	-12.1725
瞭	-12.1726
薊	-12.1726
俠	-12.1727
岩	-12.1727
羈	-12.1727
兕	-12.1727
焯	-12.1727
槎	-12.1728
簮	-12.1728
蜜	-12.173
攬	-12.173
組	-12.173
塘	-12.173
猩	-12.1731
陘	-12.1731
窰	-12.1732
尭	-12.1733
悸	-12.1734
螢	-12.1734
隸	-12.1736
猷	-12.1736
侔	-12.1738
跟	-12.1738
癩	-12.1739
呵	-12.1739
衘	-12.1739
什	-12.1742
愷	-12.1743
鰌	-12.1746
恙	-12.1746
慵	-12.1749
饕	-12.1752
臰	-12.1756
勹	-12.2518
喆	-12.252
􁃽	-12.2523
沂	-12.2531
耜	-12.2532
堰	-12.2532
嬉	-12.2535
噴	-12.2535
霰	-12.2538
逵	-12.2539
閲	-12.2539
豸	-12.2539
奧	-12.254
倐	-12.254
旭	-12.2541
旡	-12.2541
趯	-12.2541
襍	-12.2542
綉	-12.2544
控	-12.2545
擺	-12.2546
脆	-12.2547
雋	-12.2547
䦯	-12.2547
潼	-12.2547
薫	-12.2547
呌	-12.2548
蛙	-12.2548
􁈯	-12.2548
祓	-12.2548
杳	-12.2548
牒	-12.255
譏	-12.255
騶	-12.2551
抄	-12.2552
堦	-12.2552
賭	-12.2553
蘖	-12.2554
邈	-12.2554
衾	-12.2554
嶠	-12.2554
圡	-12.2555
隻	-12.2555
羝	-12.2556
箒	-12.2556
杲	-12.2556
迥	-12.2557
鯨	-12.2558
幟	-12.2559
軋	-12.2559
譛	-12.2559
膩	-12.256
裴	-12.256
䲭	-12.256
葭	-12.256
螳	-12.2561
磊	-12.2562
卬	-12.2562
瞬	-12.2562
藜	-12.2562
諂	-12.2564
桎	-12.2564
嚚	-12.2564
癘	-12.2565
懈	-12.2565
趂	-12.2566
棋	-12.2566
蚕	-12.2566
蔣	-12.2567
旻	-12.2567
豚	-12.2567
廖	-12.2568
輟	-12.2568
擎	-12.2568
翺	-12.2569
誨	-12.257
鍊	-12.2571
苐	-12.2572
幡	-12.2572
螺	-12.2572
䟦	-12.2572
臑	-12.2573
袤	-12.2574
裒	-12.2576
猬	-12.2579
羆	-12.2579
詎	-12.2582
兠	-12.259
鶉	-12.3378
瘞	-12.3405
翦	-12.3422
蚩	-12.343
獅	-12.3431
鸜	-12.3435
湣	-12.344
吃	-12.344
杠	-12.3442
窖	-12.3442
𠂻	-12.3443
耻	-12.3444
臘	-12.3446
毓	-12.3447
滌	-12.3448
賑	-12.3448
湎	-12.3448
捲	-12.3448
濮	-12.3449
笠	-12.3449
揄	-12.3449
蛄	-12.345
槁	-12.345
揜	-12.345
塔	-12.3451
膓	-12.3452
儈	-12.3453
扛	-12.3455
擕	-12.3455
猥	-12.3456
俘	-12.3456
摭	-12.3456
𤯝	-12.3457
塩	-12.3457
祲	-12.3457
劑	-12.3458
樑	-12.3458
聿	-12.3459
嬖	-12.3459
穫	-12.3459
艻	-12.3459
顗	-12.3459
卭	-12.346
耄	-12.346
蚤	-12.346
飡	-12.346
緜	-12.346
痺	-12.3461
秭	-12.3461
豬	-12.3461
孺	-12.3461
霹	-12.3461
瘖	-12.3462
沅	-12.3462
疴	-12.3462
擲	-12.3462
讚	-12.3463
嘶	-12.3463
耑	-12.3463
娠	-12.3464
俄	-12.3465
峩	-12.3466
蠲	-12.3466
𦙍	-12.3467
詁	-12.3467
炊	-12.3467
蝶	-12.3467
揉	-12.3467
賂	-12.3467
駮	-12.3467
譲	-12.3468
札	-12.3468
膞	-12.3468
顆	-12.3468
滙	-12.3468
掉	-12.3469
飍	-12.3469
麾	-12.3469
晃	-12.347
逋	-12.3471
鉗	-12.3471
彛	-12.3472
儋	-12.3472
暝	-12.3472
臚	-12.3472
弭	-12.3472
毌	-12.3473
叟	-12.3473
蜒	-12.3473
訥	-12.3473
柰	-12.3474
庡	-12.3474
罙	-12.3474
稳	-12.3475
剃	-12.3476
宼	-12.3476
泯	-12.3477
騫	-12.3477
隙	-12.3477
橘	-12.3477
刖	-12.3477
嶓	-12.3477
塋	-12.3478
塚	-12.3479
諺	-12.3479
償	-12.3479
鹵	-12.3481
卸	-12.3481
娥	-12.3481
踪	-12.3481
筥	-12.3482
姪	-12.3483
棠	-12.3484
朧	-12.3484
鞅	-12.3484
𣲖	-12.3485
斃	-12.3488
詢	-12.3488
咫	-12.3489
扆	-12.349
柢	-12.349
沴	-12.3494
侃	-12.3495
蜮	-12.3499
鴽	-12.3506
頬	-12.3525
髃	-12.4424
劭	-12.4433
蝟	-12.4433
邳	-12.4438
乑	-12.4439
卉	-12.4441
亶	-12.4441
稠	-12.4443
蘊	-12.4444
仿	-12.4445
証	-12.4445
贓	-12.4445
惨	-12.4446
晞	-12.4447
俚	-12.4449
禝	-12.4449
䛕	-12.4449
撩	-12.445
諤	-12.4452
吻	-12.4453
欵	-12.4454
逥	-12.4455
糊	-12.4455
嚨	-12.4456
殛	-12.4456
曀	-12.4456
僊	-12.4457
練	-12.4458
歙	-12.4458
遅	-12.4459
賖	-12.4459
閤	-12.446
舡	-12.446
酬	-12.4461
嘬	-12.4461
鎣	-12.4461
爨	-12.4461
挹	-12.4461
瑶	-12.4462
䦨	-12.4462
瘀	-12.4462
島	-12.4463
擘	-12.4463
噩	-12.4464
漲	-12.4464
銘	-12.4464
痴	-12.4465
蓼	-12.4465
檻	-12.4465
犇	-12.4465
儼	-12.4465
刅	-12.4465
砭	-12.4466
􁃭	-12.4467
爟	-12.4467
磁	-12.4467
複	-12.4468
烜	-12.4468
扣	-12.4468
媵	-12.4468
潯	-12.4469
濱	-12.4469
爇	-12.4469
邠	-12.447
洒	-12.447
脣	-12.4471
藍	-12.4471
漬	-12.4472
剩	-12.4472
搔	-12.4474
袪	-12.4475
唆	-12.4475
仝	-12.4476
猱	-12.4476
漚	-12.4476
汶	-12.4476
棣	-12.4477
􁁆	-12.4477
揺	-12.4477
窵	-12.4478
皿	-12.4478
贍	-12.4478
侑	-12.4479
漾	-12.4479
跗	-12.4479
畆	-12.4479
柏	-12.4479
踴	-12.4479
樵	-12.4481
胙	-12.4481
鸇	-12.4482
犂	-12.4484
賒	-12.4484
魔	-12.4486
瘁	-12.4487
烘	-12.4487
錮	-12.4488
械	-12.4489
宙	-12.4496
鞋	-12.4501
淊	-12.454
蚌	-12.5537
薆	-12.5539
欻	-12.5549
䘏	-12.5549
巟	-12.5552
跋	-12.5554
蟊	-12.5555
澹	-12.5556
雎	-12.5556
膂	-12.5556
坪	-12.5557
倂	-12.5559
煨	-12.5559
纏	-12.5559
莢	-12.5559
熏	-12.556
曵	-12.556
掣	-12.556
橿	-12.5561
𥪡	-12.5561
絹	-12.5561
霾	-12.5562
憙	-12.5562
佷	-12.5564
甜	-12.5565
懋	-12.5565
淬	-12.5565
劘	-12.5566
潞	-12.5566
串	-12.5566
謟	-12.5567
鉏	-12.5568
褚	-12.5569
兗	-12.5569
禇	-12.557
諍	-12.557
僥	-12.557
椎	-12.557
幻	-12.5571
煅	-12.5571
凈	-12.5571
㗖	-12.5571
勛	-12.5572
烽	-12.5572
疣	-12.5572
絛	-12.5573
捄	-12.5573
邅	-12.5574
斫	-12.5575
蠏	-12.5575
幇	-12.5575
膊	-12.5575
惢	-12.5575
沁	-12.5576
庒	-12.5576
蜩	-12.5576
窬	-12.5576
娄	-12.5576
峨	-12.5576
砥	-12.5576
莾	-12.5576
缾	-12.5577
禧	-12.5577
咥	-12.5577
慄	-12.5578
覧	-12.5578
贖	-12.5578
鬍	-12.5578
瞶	-12.5578
藿	-12.5578
它	-12.5578
琭	-12.5579
咏	-12.5579
綘	-12.5579
琮	-12.5579
鋩	-12.5579
虺	-12.558
帙	-12.558
饋	-12.558
咄	-12.558
凛	-12.558
呻	-12.5581
詛	-12.5582
癶	-12.5582
洵	-12.5582
簧	-12.5582
廡	-12.5582
剉	-12.5583
袂	-12.5583
瘤	-12.5583
汭	-12.5583
郗	-12.5583
撼	-12.5584
喁	-12.5584
盼	-12.5584
聯	-12.5584
溽	-12.5589
簞	-12.5589
嚘	-12.559
縞	-12.559
彷	-12.559
疥	-12.559
肓	-12.5591
嵐	-12.5592
㗊	-12.5592
鳬	-12.5592
遨	-12.5592
鞶	-12.5593
穣	-12.5593
瘠	-12.5593
痿	-12.5594
胚	-12.5594
僑	-12.5596
鄊	-12.5596
臸	-12.5598
龞	-12.5598
蹰	-12.5598
摸	-12.5601
楨	-12.5602
溥	-12.5602
諡	-12.5603
㤀	-12.5605
蹺	-12.5607
禺	-12.5609
綽	-12.5629
􁤽	-12.6768
塡	-12.6769
佗	-12.6782
嚼	-12.6783
瑣	-12.6785
郟	-12.6786
莱	-12.68
塹	-12.68
涪	-12.68
歉	-12.6801
愼	-12.6801
驁	-12.6801
罘	-12.6801
遘	-12.6802
龢	-12.6802
貍	-12.6804
耋	-12.6805
漓	-12.6807
瘂	-12.6808
湮	-12.6809
瀘	-12.6809
糺	-12.681
袵	-12.681
軹	-12.6811
䄂	-12.6812
曝	-12.6812
喫	-12.6812
彤	-12.6812
櫪	-12.6812
茆	-12.6813
𧖟	-12.6813
肱	-12.6813
襁	-12.6813
捍	-12.6814
鄢	-12.6814
蒂	-12.6816
蜋	-12.6816
堵	-12.6817
俎	-12.6817
輆	-12.6817
欝	-12.6817
粲	-12.6817
裙	-12.6817
隳	-12.6817
歿	-12.6818
砌	-12.6819
犍	-12.6819
坏	-12.6819
觭	-12.6819
磔	-12.682
盂	-12.682
租	-12.6821
蚣	-12.6821
蜈	-12.6821
嶷	-12.6821
鴆	-12.6822
觽	-12.6822
袖	-12.6822
餐	-12.6823
慨	-12.6823
幢	-12.6823
猝	-12.6823
淘	-12.6823
删	-12.6823
腿	-12.6823
躋	-12.6824
媐	-12.6824
餒	-12.6824
褐	-12.6824
贄	-12.6824
賺	-12.6825
廞	-12.6826
衫	-12.6826
鏃	-12.6826
饌	-12.6826
嬗	-12.6826
荔	-12.6826
陬	-12.6827
鐸	-12.6827
珞	-12.6828
聵	-12.6828
艸	-12.6828
窻	-12.6828
褓	-12.683
遟	-12.683
礦	-12.683
杌	-12.683
憾	-12.6831
馨	-12.6831
稔	-12.6831
褁	-12.6831
劃	-12.6831
眊	-12.6832
矗	-12.6832
趍	-12.6832
鑽	-12.6832
纛	-12.6833
蜉	-12.6833
鯁	-12.6833
喑	-12.6834
玊	-12.6834
讃	-12.6834
瀾	-12.6834
訐	-12.6835
罄	-12.6835
貽	-12.6835
琳	-12.6836
夣	-12.6836
䜿	-12.6836
構	-12.6837
碭	-12.6838
庵	-12.6839
蕡	-12.6839
遄	-12.6841
忩	-12.6841
溼	-12.6841
靚	-12.6842
殮	-12.6842
郄	-12.6843
椿	-12.6843
罇	-12.6843
泳	-12.6843
茨	-12.6845
雊	-12.6845
㺯	-12.6846
菟	-12.6847
戢	-12.6847
沍	-12.6847
戱	-12.6847
忉	-12.6847
鶡	-12.6847
柝	-12.6847
迸	-12.6849
呴	-12.6852
筠	-12.6853
溱	-12.6853
鷂	-12.6858
汐	-12.6869
梳	-12.6872
滲	-12.6875
昕	-12.6875
覿	-12.6887
踖	-12.8202
靁	-12.8204
褥	-12.8205
蹷	-12.8208
樽	-12.8208
龠	-12.8211
屎	-12.8214
紏	-12.8215
沔	-12.8217
氂	-12.8218
縑	-12.8218
仡	-12.8218
涎	-12.8219
駞	-12.822
炫	-12.822
眵	-12.822
銕	-12.8223
嘖	-12.8223
詡	-12.8227
駃	-12.823
旂	-12.823
扞	-12.823
郁	-12.8231
汁	-12.8232
芸	-12.8233
縳	-12.8233
吭	-12.8233
軔	-12.8235
暐	-12.8235
縻	-12.8235
摯	-12.8236
徂	-12.8236
縵	-12.8237
罅	-12.8237
燮	-12.8237
扄	-12.8237
憧	-12.8238
葱	-12.8239
拑	-12.8239
韁	-12.8239
刁	-12.8241
嗉	-12.8241
擄	-12.8241
吼	-12.8241
綦	-12.8242
譁	-12.8242
扃	-12.8243
詆	-12.8243
癤	-12.8243
狴	-12.8244
矞	-12.8244
腴	-12.8244
㐲	-12.8244
嘍	-12.8244
蜾	-12.8244
嶮	-12.8245
𤨏	-12.8245
𥘉	-12.8246
蔟	-12.8246
憩	-12.8246
軨	-12.8246
蕙	-12.8246
霑	-12.8247
耒	-12.8247
圈	-12.8248
糜	-12.8248
斌	-12.8248
仄	-12.8248
挂	-12.8248
𦦨	-12.8248
觔	-12.8249
娱	-12.8249
悽	-12.8249
飱	-12.825
渇	-12.825
墾	-12.825
坂	-12.825
欎	-12.8251
絜	-12.8251
黽	-12.8251
酢	-12.8251
宄	-12.8252
篡	-12.8252
迓	-12.8252
顰	-12.8252
曳	-12.8253
妣	-12.8253
鬯	-12.8254
嫂	-12.8254
檜	-12.8254
綝	-12.8254
撣	-12.8254
紵	-12.8254
渤	-12.8255
嗤	-12.8255
瓘	-12.8255
昉	-12.8256
耼	-12.8256
嚙	-12.8256
罌	-12.8256
浹	-12.8256
䇂	-12.8257
輗	-12.8257
濬	-12.8257
懾	-12.8257
岌	-12.8257
䍚	-12.8257
尙	-12.8258
囓	-12.8259
尻	-12.8259
扮	-12.8259
葺	-12.8259
鞏	-12.826
厦	-12.826
逅	-12.826
慰	-12.826
沫	-12.826
嗃	-12.826
鏗	-12.826
扉	-12.8261
譔	-12.8261
鷁	-12.8261
劵	-12.8262
鳶	-12.8262
䣛	-12.8263
畤	-12.8263
矮	-12.8263
譴	-12.8263
顕	-12.8263
樗	-12.8263
抉	-12.8264
汀	-12.8264
拯	-12.8264
劾	-12.8264
諑	-12.8264
髯	-12.8265
艷	-12.8265
壹	-12.8265
麑	-12.8265
皝	-12.8265
彀	-12.8266
鯀	-12.8266
貂	-12.8266
溯	-12.8266
瑋	-12.8267
芟	-12.8267
㓛	-12.8267
􁀾	-12.8267
罦	-12.8267
誑	-12.8268
槃	-12.8268
衿	-12.8268
熨	-12.8268
騏	-12.8268
絺	-12.8268
犖	-12.8268
珂	-12.8268
冄	-12.8269
蝸	-12.8269
怫	-12.8269
棊	-12.8269
駱	-12.8269
焼	-12.827
倩	-12.827
靳	-12.827
斁	-12.8271
妊	-12.8271
朏	-12.8271
屑	-12.8271
緫	-12.8271
熛	-12.8273
彞	-12.8275
筒	-12.8275
㳟	-12.8275
齎	-12.8275
溜	-12.8275
侗	-12.8275
縲	-12.8275
癭	-12.8276
鉄	-12.8276
詿	-12.8276
噲	-12.8277
繪	-12.8278
愿	-12.8278
姥	-12.8281
㒁	-12.8283
睚	-12.8284
塑	-12.8285
鄖	-12.8286
偪	-12.8287
璜	-12.8288
殁	-12.8289
噣	-12.829
磉	-12.8292
児	-12.8292
鍜	-12.8293
䀠	-12.8301
䖟	-12.8305
涖	-12.831
装	-12.8311
覞	-12.8314
咮	-12.8328
央	-12.9755
蛡	-12.9824
螾	-12.9834
炟	-12.9849
藺	-12.9854
菲	-12.9854
㒺	-12.986
覘	-12.9868
爼	-12.987
聶	-12.987
䴡	-12.9877
蠒	-12.9879
丼	-12.9881
㦯	-12.9886
􁏹	-12.9887
洙	-12.989
愠	-12.9893
轎	-12.9894
踤	-12.9895
癎	-12.9895
藐	-12.9895
忝	-12.9896
𣪚	-12.9897
綺	-12.9898
韞	-12.9898
惷	-12.9898
忖	-12.99
莅	-12.99
瞑	-12.9901
佀	-12.9901
荼	-12.9902
涘	-12.9902
惓	-12.9902
黷	-12.9903
鄗	-12.9903
詮	-12.9904
藕	-12.9905
粤	-12.9905
☷	-12.9905
☱	-12.9905
珮	-12.9906
羂	-12.9906
閽	-12.9906
盍	-12.9907
鶤	-12.9907
渺	-12.9907
凄	-12.9907
珎	-12.9908
☲	-12.9908
皃	-12.9908
櫽	-12.9909
☵	-12.9909
汧	-12.9909
㬥	-12.9909
挍	-12.9909
袋	-12.9909
宕	-12.991
堠	-12.991
樣	-12.9911
櫟	-12.9911
鞠	-12.9911
䭾	-12.9911
裨	-12.9912
嚢	-12.9913
簟	-12.9913
笞	-12.9913
聒	-12.9913
虬	-12.9913
勻	-12.9913
愀	-12.9913
欱	-12.9913
灞	-12.9913
瞞	-12.9914
諜	-12.9914
洹	-12.9915
膳	-12.9915
湫	-12.9916
憶	-12.9916
睂	-12.9917
术	-12.9918
迪	-12.9918
沭	-12.9919
琬	-12.9919
鄫	-12.9919
剔	-12.9919
絣	-12.992
汰	-12.992
盞	-12.992
爆	-12.992
倨	-12.9921
壙	-12.9921
訝	-12.9921
拭	-12.9921
娟	-12.9921
晰	-12.9922
雑	-12.9922
孱	-12.9922
麒	-12.9922
碌	-12.9923
匆	-12.9923
昜	-12.9923
姝	-12.9923
頫	-12.9923
篁	-12.9924
鶻	-12.9924
寝	-12.9924
椒	-12.9924
涓	-12.9924
瞀	-12.9924
矰	-12.9924
閠	-12.9924
泌	-12.9924
籬	-12.9924
􁐍	-12.9924
耍	-12.9924
飫	-12.9924
卻	-12.9925
飴	-12.9925
奭	-12.9925
瓢	-12.9925
魍	-12.9925
眂	-12.9926
閡	-12.9926
𦕈	-12.9926
柚	-12.9926
洧	-12.9926
囉	-12.9927
售	-12.9927
瑤	-12.9928
陀	-12.9928
疚	-12.9928
窑	-12.9928
弘	-12.9929
寮	-12.993
壟	-12.993
巓	-12.9931
墊	-12.9931
蕕	-12.9931
寖	-12.9932
漦	-12.9932
萼	-12.9932
廂	-12.9932
窓	-12.9932
俶	-12.9932
鍬	-12.9933
覷	-12.9933
翫	-12.9933
鋸	-12.9934
穗	-12.9934
枳	-12.9935
佃	-12.9935
愴	-12.9935
鵙	-12.9936
瘍	-12.9936
憊	-12.9936
祺	-12.9937
迦	-12.9937
攪	-12.9937
儕	-12.9938
詈	-12.9938
廸	-12.9939
撝	-12.994
􁛜	-12.994
喨	-12.994
崛	-12.9941
穡	-12.9941
澇	-12.9941
篾	-12.9941
珊	-12.9942
洿	-12.9942
譶	-12.9942
菊	-12.9943
鏤	-12.9943
酥	-12.9943
殯	-12.9944
抜	-12.9945
豊	-12.9945
寗	-12.9945
泠	-12.9945
鄩	-12.9945
喃	-12.9946
侟	-12.9946
斑	-12.9946
揔	-12.9947
蹟	-12.9947
球	-12.9947
詠	-12.9948
捽	-12.9948
筦	-12.9949
?	-12.9949
橈	-12.995
刎	-12.995
哮	-12.9951
稗	-12.9952
隍	-12.9952
璃	-12.9953
眦	-12.9955
􁡍	-12.9955
蟈	-12.9955
纉	-12.9957
溉	-12.9958
赥	-12.9958
賚	-12.9959
羶	-12.996
倔	-12.9969
􁜳	-12.997
鱻	-12.9971
禿	-12.9975
紗	-13.1797
磤	-13.1814
敜	-13.1824
傕	-13.1827
鷕	-13.1849
麈	-13.185
歘	-13.1856
伋	-13.1857
鷺	-13.1861
􁁾	-13.1863
湍	-13.1863
氾	-13.1867
椹	-13.1868
瑾	-13.187
蜴	-13.1873
殉	-13.1878
禆	-13.1882
鬻	-13.1882
糾	-13.1883
仮	-13.1883
焍	-13.1883
噉	-13.1885
踊	-13.1885
熿	-13.1885
𬒳	-13.1885
圵	-13.1886
慽	-13.1888
濩	-13.1891
􁌫	-13.1891
崧	-13.1892
藹	-13.1893
蘄	-13.1893
䷋	-13.1893
捴	-13.1894
畺	-13.1894
囤	-13.1894
罩	-13.1895
㳅	-13.1895
疝	-13.1896
闐	-13.1896
瓉	-13.1896
圯	-13.1897
蠓	-13.1897
蛁	-13.1898
嬃	-13.1898
☰	-13.1899
攫	-13.19
牌	-13.19
嫚	-13.1901
歾	-13.1901
偎	-13.1901
㩣	-13.1901
濆	-13.1901
樛	-13.1902
䌓	-13.1902
􁞳	-13.1902
軄	-13.1903
嘲	-13.1903
漕	-13.1905
磚	-13.1905
嘿	-13.1906
巂	-13.1906
懝	-13.1907
忪	-13.1907
䷗	-13.1908
楓	-13.1908
闚	-13.1909
鈕	-13.1909
倜	-13.1909
摓	-13.1909
觚	-13.191
旉	-13.1911
淤	-13.1911
雺	-13.1911
砉	-13.1911
貓	-13.1911
皬	-13.1911
驫	-13.1911
茸	-13.1911
苴	-13.1911
黻	-13.1912
濞	-13.1912
燬	-13.1912
萹	-13.1913
弈	-13.1913
釗	-13.1913
匕	-13.1913
祫	-13.1914
䟎	-13.1914
貔	-13.1914
旒	-13.1914
縂	-13.1915
𤾉	-13.1915
顋	-13.1915
曄	-13.1916
䷫	-13.1916
佯	-13.1917
猗	-13.1917
夸	-13.1917
徨	-13.1917
隰	-13.1917
覲	-13.1918
揀	-13.1918
幄	-13.1919
蹐	-13.1919
隟	-13.1919
渫	-13.192
飪	-13.192
赭	-13.1921
菙	-13.1921
懇	-13.1921
浼	-13.1922
緘	-13.1922
跼	-13.1922
鯽	-13.1922
紡	-13.1922
衎	-13.1922
瓏	-13.1922
霣	-13.1923
臮	-13.1923
癃	-13.1923
貊	-13.1923
瀰	-13.1923
很	-13.1923
摎	-13.1923
玲	-13.1923
薰	-13.1923
毆	-13.1924
仞	-13.1924
貟	-13.1924
倀	-13.1924
孃	-13.1924
灣	-13.1925
㛰	-13.1925
噂	-13.1925
筍	-13.1925
敞	-13.1925
攄	-13.1925
締	-13.1925
隷	-13.1925
甹	-13.1926
淶	-13.1926
阯	-13.1926
磕	-13.1927
盱	-13.1927
崗	-13.1927
侶	-13.1927
凱	-13.1927
􁁇	-13.1927
讕	-13.1927
唁	-13.1928
尫	-13.1928
氓	-13.1928
嵓	-13.1929
璿	-13.1929
餗	-13.193
儗	-13.193
膀	-13.1931
哂	-13.1931
繘	-13.1931
戻	-13.1931
狷	-13.1931
籟	-13.1932
矚	-13.1933
娉	-13.1933
泝	-13.1933
颺	-13.1933
筌	-13.1934
扸	-13.1934
据	-13.1934
旃	-13.1934
赶	-13.1934
褭	-13.1934
撿	-13.1934
摽	-13.1934
誹	-13.1934
髦	-13.1935
梢	-13.1935
豋	-13.1936
棧	-13.1936
軾	-13.1936
臏	-13.1936
萎	-13.1936
殍	-13.1937
嚌	-13.1937
夥	-13.1937
䈥	-13.1937
鬩	-13.1937
訽	-13.1938
鵞	-13.1938
摠	-13.1938
𠢐	-13.1938
厝	-13.1939
潄	-13.194
拈	-13.194
縠	-13.194
沬	-13.1941
僞	-13.1941
􁁃	-13.1942
霈	-13.1942
婬	-13.1945
懌	-13.1945
緝	-13.1945
黧	-13.1945
篋	-13.1945
驩	-13.1945
棹	-13.1947
酗	-13.1948
縶	-13.1948
怏	-13.1949
􁟧	-13.1951
獰	-13.1952
卞	-13.1952
腯	-13.1952
垁	-13.1954
炵	-13.1954
嶂	-13.1955
蝮	-13.1955
啗	-13.1956
蒯	-13.1957
琯	-13.1961
妭	-13.1962
咿	-13.1962
櫴	-13.1963
𥙿	-13.1968
躆	-13.1969
苔	-13.1976
毉	-13.1977
觥	-13.198
碑	-13.1986
埜	-13.1991
笋	-13.2022
狧	-13.4289
𥙷	-13.431
擣	-13.4322
鏩	-13.4335
㽞	-13.4336
䷊	-13.4354
䷒	-13.4354
弸	-13.4358
崆	-13.4358
熸	-13.436
魑	-13.4364
秬	-13.4366
䷪	-13.4368
䷓	-13.4368
趹	-13.4371
麃	-13.4371
鐏	-13.4371
罃	-13.4371
齮	-13.4372
杅	-13.4372
瀏	-13.4373
䷀	-13.4374
魒	-13.4374
蟇	-13.4375
䃸	-13.4375
磹	-13.4375
䷖	-13.4376
䋚	-13.4378
䷠	-13.4378
嫪	-13.4378
欨	-13.4381
橑	-13.4383
澶	-13.4385
䷁	-13.4385
拊	-13.4385
斲	-13.4386
默	-13.4386
遫	-13.4386
嘹	-13.4386
霿	-13.4387
搬	-13.4388
㤰	-13.4389
讌	-13.4389
㗇	-13.4389
芥	-13.4389
鼷	-13.439
蚪	-13.439
鷸	-13.439
霚	-13.439
䏴	-13.4392
稿	-13.4392
酇	-13.4393
筯	-13.4394
朶	-13.4394
淩	-13.4394
蓏	-13.4394
媱	-13.4394
𠫭	-13.4396
梨	-13.4396
矦	-13.4396
㩴	-13.4397
晅	-13.4397
鐶	-13.4397
狥	-13.4397
㢤	-13.4397
綪	-13.4397
畀	-13.4399
擯	-13.4399
霓	-13.44
觝	-13.44
烝	-13.44
晒	-13.44
歹	-13.44
鋻	-13.44
悋	-13.44
泪	-13.4401
厰	-13.4401
靷	-13.4401
膎	-13.4402
糗	-13.4403
禋	-13.4403
胖	-13.4403
鐃	-13.4403
蛆	-13.4404
餔	-13.4404
㥷	-13.4404
帚	-13.4404
嚇	-13.4404
鑛	-13.4404
􁂫	-13.4404
紘	-13.4404
屩	-13.4404
絝	-13.4404
耘	-13.4404
𩔖	-13.4404
􁃵	-13.4404
嗚	-13.4405
臝	-13.4405
忡	-13.4405
陕	-13.4405
敕	-13.4405
忱	-13.4407
胼	-13.4407
杻	-13.4407
逕	-13.4407
笛	-13.4407
翬	-13.4407
鼦	-13.4407
龖	-13.4407
諦	-13.4408
秫	-13.4408
肪	-13.4408
埀	-13.4408
☶	-13.4408
杆	-13.441
癖	-13.441
㕈	-13.441
瀚	-13.441
褊	-13.4411
籙	-13.4411
莠	-13.4411
钁	-13.4411
㷔	-13.4412
溧	-13.4412
獷	-13.4412
☳	-13.4412
厪	-13.4412
票	-13.4412
穄	-13.4412
絪	-13.4412
牘	-13.4414
㩀	-13.4414
㕓	-13.4414
㐜	-13.4414
囏	-13.4414
䷏	-13.4415
訊	-13.4415
庀	-13.4415
􁇨	-13.4415
賡	-13.4416
瘴	-13.4416
蔕	-13.4417
齚	-13.4417
垜	-13.4417
曼	-13.4417
咠	-13.4418
跣	-13.4418
錠	-13.4418
聆	-13.4418
潑	-13.4419
撻	-13.4419
􁅨	-13.4419
澡	-13.4419
顏	-13.4419
罸	-13.4419
銍	-13.4419
晩	-13.442
𤼵	-13.4421
謔	-13.4421
价	-13.4421
豨	-13.4422
淖	-13.4422
灊	-13.4422
噓	-13.4422
閥	-13.4422
鵩	-13.4423
醬	-13.4423
墩	-13.4423
娯	-13.4423
疒	-13.4423
蜣	-13.4424
讁	-13.4425
彝	-13.4425
藳	-13.4425
鐔	-13.4425
惇	-13.4426
押	-13.4426
酺	-13.4426
禰	-13.4426
妥	-13.4426
邴	-13.4426
黥	-13.4426
崒	-13.4427
陡	-13.4427
櫜	-13.4428
緡	-13.4428
帔	-13.4428
企	-13.4428
汴	-13.4428
孿	-13.4428
􁌏	-13.4428
錘	-13.4428
凜	-13.4429
阱	-13.4429
剽	-13.4429
䷂	-13.4429
淇	-13.4429
峕	-13.4429
敺	-13.4429
蔴	-13.443
簸	-13.443
瓚	-13.443
憫	-13.443
殳	-13.443
刮	-13.443
筏	-13.443
臬	-13.443
㝡	-13.443
䒶	-13.443
嗄	-13.443
嶇	-13.443
荳	-13.4431
殪	-13.4432
叡	-13.4432
凥	-13.4432
躑	-13.4432
鼉	-13.4432
芑	-13.4433
屾	-13.4433
扎	-13.4435
懵	-13.4435
罝	-13.4435
萑	-13.4435
皥	-13.4435
矅	-13.4436
㹠	-13.4436
䃔	-13.4436
䃧	-13.4436
磾	-13.4436
悝	-13.4436
迃	-13.4436
懃	-13.4437
窪	-13.4437
纗	-13.4437
儆	-13.4439
蕚	-13.4439
莩	-13.4439
琁	-13.4439
諛	-13.4439
􁆅	-13.4439
䑛	-13.4439
醖	-13.444
錡	-13.444
讟	-13.444
萱	-13.4441
鍳	-13.4442
抹	-13.4442
礫	-13.4443
熯	-13.4443
廋	-13.4443
髠	-13.4443
􁄄	-13.4443
琦	-13.4444
廚	-13.4444
你	-13.4444
宂	-13.4446
笥	-13.4446
煬	-13.4446
幘	-13.4447
騋	-13.4448
瑰	-13.4448
筴	-13.445
椀	-13.445
媯	-13.4451
盥	-13.4451
岵	-13.4451
蠪	-13.4451
􁃰	-13.4451
飊	-13.4451
紱	-13.4453
誩	-13.4453
蠟	-13.4454
稂	-13.4454
駈	-13.4455
廄	-13.4455
穪	-13.4455
弜	-13.4455
僂	-13.4457
咆	-13.4457
駑	-13.4457
聪	-13.4459
奩	-13.4459
螭	-13.4461
欋	-13.4461
淲	-13.4461
﨑	-13.4462
估	-13.4462
䆕	-13.4462
洶	-13.4464
跂	-13.4464
餁	-13.4465
􁟎	-13.4469
槌	-13.4472
䪼	-13.4475
䁲	-13.4479
磐	-13.4483
扢	-13.4484
吪	-13.7627
顇	-13.763
跰	-13.7632
奯	-13.7634
唳	-13.7646
儛	-13.7648
晣	-13.7649
㾓	-13.7657
韮	-13.7669
餕	-13.7671
菰	-13.7673
繈	-13.7674
䂄	-13.7675
䷶	-13.7677
僃	-13.7679
佅	-13.7679
傠	-13.7679
蜥	-13.7682
种	-13.7686
􁢾	-13.7686
裊	-13.7692
酣	-13.7696
傘	-13.7696
惘	-13.7698
譺	-13.7698
筩	-13.7699
叄	-13.7699
浥	-13.77
勺	-13.77
嗷	-13.77
輓	-13.7702
諿	-13.7703
䩜	-13.7706
郴	-13.7706
猇	-13.7706
狁	-13.7707
緰	-13.7707
昵	-13.7708
汞	-13.7709
㜸	-13.7711
酖	-13.7711
嶲	-13.7713
勮	-13.7713
殱	-13.7713
皁	-13.7715
藂	-13.7715
呑	-13.7715
孶	-13.7715
阨	-13.7715
䐜	-13.7715
卝	-13.7715
娩	-13.7715
胊	-13.7717
㳙	-13.7717
勦	-13.7717
戞	-13.7717
姣	-13.7717
椅	-13.7717
屹	-13.7719
哆	-13.7719
酈	-13.7719
茗	-13.7719
摐	-13.7721
儷	-13.7721
个	-13.7721
埻	-13.7721
鐫	-13.7721
俿	-13.7721
䷃	-13.7723
巉	-13.7723
䷬	-13.7723
斾	-13.7723
茵	-13.7723
磧	-13.7723
霅	-13.7723
邸	-13.7725
羇	-13.7725
䘚	-13.7725
鈇	-13.7726
惲	-13.7727
覈	-13.7727
脘	-13.7727
胯	-13.7727
噭	-13.7727
欬	-13.7727
蛬	-13.7727
敲	-13.7728
鞴	-13.7729
楮	-13.7729
軺	-13.7729
鑼	-13.7729
䙝	-13.7729
劌	-13.7729
吽	-13.7729
㬋	-13.7729
鵾	-13.773
黶	-13.773
鑢	-13.7731
㸑	-13.7731
遑	-13.7731
摴	-13.7731
滃	-13.7731
睪	-13.7731
勼	-13.7731
哨	-13.7732
濰	-13.7733
蕖	-13.7733
䪻	-13.7733
齕	-13.7733
囑	-13.7733
㩦	-13.7734
駛	-13.7734
瀋	-13.7734
遹	-13.7734
鄄	-13.7735
輜	-13.7735
闋	-13.7735
瘕	-13.7736
滇	-13.7738
牸	-13.7738
娵	-13.7738
郾	-13.7738
藤	-13.7738
鉢	-13.7738
囮	-13.7738
妝	-13.774
㕹	-13.774
壌	-13.774
纊	-13.774
戡	-13.774
緬	-13.774
窌	-13.774
䷇	-13.774
帀	-13.774
冩	-13.774
䷥	-13.7742
砍	-13.7742
嗌	-13.7742
恟	-13.7742
㘩	-13.7742
媿	-13.7742
憇	-13.7742
肛	-13.7742
雩	-13.7742
􁏋	-13.7742
臞	-13.7743
嵇	-13.7743
曙	-13.7744
䷌	-13.7744
劓	-13.7744
苽	-13.7745
緍	-13.7746
箋	-13.7746
洊	-13.7746
哥	-13.7746
錙	-13.7746
柩	-13.7746
鬰	-13.7746
伻	-13.7746
蕢	-13.7746
閧	-13.7746
芡	-13.7746
笈	-13.7747
畋	-13.7748
袚	-13.7748
恚	-13.7748
湓	-13.7748
籩	-13.7748
諳	-13.7748
馥	-13.7748
擿	-13.7748
豉	-13.7748
疤	-13.7748
磎	-13.7748
暦	-13.7749
拏	-13.775
潾	-13.775
衲	-13.775
☴	-13.775
䧺	-13.775
攤	-13.775
敧	-13.775
煮	-13.7752
俲	-13.7752
航	-13.7752
𥜗	-13.7752
薈	-13.7752
薑	-13.7752
簀	-13.7752
藟	-13.7752
狊	-13.7752
瞰	-13.7752
鉉	-13.7752
徊	-13.7753
蚊	-13.7754
僇	-13.7754
矍	-13.7754
垤	-13.7754
瞤	-13.7754
葩	-13.7754
坵	-13.7754
撐	-13.7754
煜	-13.7754
罾	-13.7754
龡	-13.7754
𣙗	-13.7754
􁀸	-13.7754
􁐘	-13.7754
鏜	-13.7754
戦	-13.7755
蒜	-13.7756
痡	-13.7756
侠	-13.7756
刹	-13.7756
牋	-13.7756
瑀	-13.7756
霩	-13.7756
瞎	-13.7756
綻	-13.7757
銑	-13.7757
睫	-13.7758
尘	-13.7758
冺	-13.7758
屭	-13.7758
猋	-13.7758
獒	-13.7758
蓆	-13.7758
曖	-13.7758
棍	-13.7758
濘	-13.7758
紇	-13.7758
呦	-13.7759
恡	-13.7759
戩	-13.7759
孑	-13.776
戹	-13.776
繚	-13.776
蓉	-13.776
飜	-13.776
毗	-13.776
㲻	-13.776
刓	-13.776
螗	-13.776
𥚹	-13.776
繽	-13.776
拿	-13.7761
芙	-13.7761
淦	-13.7761
蹛	-13.7761
椷	-13.7761
睨	-13.7761
薩	-13.7762
倮	-13.7762
渰	-13.7762
㳫	-13.7762
扳	-13.7762
胏	-13.7762
篆	-13.7762
瀕	-13.7763
㜑	-13.7763
掬	-13.7763
妺	-13.7763
鼗	-13.7763
吅	-13.7763
嚻	-13.7763
慇	-13.7763
渦	-13.7763
徉	-13.7764
縹	-13.7765
􁁎	-13.7765
夆	-13.7765
儌	-13.7765
禘	-13.7765
獹	-13.7765
璉	-13.7765
靄	-13.7765
倭	-13.7765
詧	-13.7766
詵	-13.7766
濂	-13.7767
歬	-13.7767
綈	-13.7767
憨	-13.7767
捶	-13.7767
掜	-13.7767
洼	-13.7767
嗅	-13.7768
鶯	-13.7768
猖	-13.7769
痾	-13.7769
瀑	-13.7769
罍	-13.7769
滁	-13.7769
刳	-13.7769
怛	-13.7769
咒	-13.7769
嶧	-13.7769
惬	-13.7769
柘	-13.7771
驤	-13.7771
阧	-13.7771
醢	-13.7771
㤅	-13.7771
媲	-13.7771
渣	-13.7771
廽	-13.7773
瘇	-13.7773
邶	-13.7773
泮	-13.7773
鏞	-13.7773
鴣	-13.7773
扼	-13.7773
蚡	-13.7773
飇	-13.7773
鞮	-13.7775
媞	-13.7775
僨	-13.7775
豢	-13.7775
骩	-13.7775
氊	-13.7775
峭	-13.7775
関	-13.7775
万	-13.7775
笱	-13.7775
䷟	-13.7775
嘈	-13.7775
甬	-13.7776
㠶	-13.7776
頞	-13.7777
佇	-13.7777
坯	-13.7777
玦	-13.7777
叧	-13.7777
緺	-13.7777
窴	-13.7777
鷇	-13.7777
䷮	-13.7779
疹	-13.7779
旴	-13.7779
胗	-13.7779
版	-13.7779
鮪	-13.7779
硃	-13.7779
囁	-13.7779
鋋	-13.7779
衒	-13.778
幅	-13.7781
纆	-13.7781
郯	-13.7781
騅	-13.7781
鍋	-13.7781
讞	-13.7781
駐	-13.7781
宷	-13.7781
盭	-13.7782
坟	-13.7782
㝎	-13.7783
扒	-13.7783
满	-13.7785
胱	-13.7785
誾	-13.7785
閘	-13.7787
蹢	-13.7787
鎧	-13.7787
奐	-13.7787
傭	-13.7787
巵	-13.7787
覬	-13.7788
𬋩	-13.7788
䷕	-13.7788
紕	-13.7789
稲	-13.7789
呆	-13.7789
詶	-13.7789
郇	-13.7789
鷰	-13.7789
厮	-13.779
媪	-13.779
淼	-13.779
蓁	-13.779
鰓	-13.779
鄶	-13.7792
􁭽	-13.7792
謠	-13.7792
偵	-13.7793
餉	-13.7794
攓	-13.7794
􁀨	-13.7794
鄜	-13.7796
皺	-13.7796
䷐	-13.7796
裾	-13.7796
蚗	-13.7796
􁁣	-13.78
䷈	-13.7802
狎	-13.7802
瀼	-13.7804
㐬	-13.7804
黠	-13.7804
閗	-13.781
誚	-13.7814
敇	-13.7817
曈	-13.7817
錝	-13.7818
愬	-13.7825
芖	-13.7841
䂓	-13.7875
戁	-14.2593
瞴	-14.2593
絭	-14.2624
獪	-14.2624
朂	-14.2631
繖	-14.2636
潺	-14.265
疸	-14.2659
侫	-14.2659
●	-14.2668
簼	-14.2668
燐	-14.2674
崟	-14.2675
偈	-14.2681
蒨	-14.2681
㱕	-14.2681
塾	-14.2681
夽	-14.2684
纑	-14.2684
䷘	-14.2687
䷞	-14.269
峪	-14.269
皞	-14.269
籧	-14.269
薉	-14.2693
咺	-14.2693
拍	-14.2693
䷚	-14.2694
桶	-14.2694
䷣	-14.2697
箴	-14.2697
沚	-14.2697
濇	-14.2697
痪	-14.2697
柵	-14.27
甪	-14.27
㒧	-14.2703
藎	-14.2703
彧	-14.2703
帽	-14.2703
涔	-14.2703
竢	-14.2703
䷦	-14.2706
忮	-14.2706
惋	-14.2706
䷔	-14.2706
椽	-14.2709
䷿	-14.2709
擴	-14.2709
唶	-14.2709
湟	-14.2709
芋	-14.2709
奬	-14.2712
确	-14.2712
莪	-14.2712
㾿	-14.2715
喖	-14.2716
丱	-14.2716
刊	-14.2716
瑙	-14.2716
菷	-14.2716
喟	-14.2718
蕘	-14.2718
澧	-14.2719
塢	-14.2719
泡	-14.2719
堙	-14.2719
紉	-14.2719
楠	-14.2719
緻	-14.2719
綫	-14.2719
喊	-14.2722
舖	-14.2722
㓻	-14.2722
兙	-14.2722
厘	-14.2722
溠	-14.2722
䷆	-14.2722
咢	-14.2722
矱	-14.2725
濠	-14.2725
䷴	-14.2725
噏	-14.2725
圊	-14.2725
壼	-14.2725
媸	-14.2725
恆	-14.2725
囈	-14.2728
届	-14.2728
㬉	-14.2728
尿	-14.2728
吿	-14.2728
劄	-14.2728
嘵	-14.2728
喭	-14.2728
埶	-14.2728
曎	-14.2728
漶	-14.2731
葶	-14.2731
䷩	-14.2731
厖	-14.2731
眄	-14.2731
塤	-14.2731
洄	-14.2731
皚	-14.2731
荐	-14.2731
耎	-14.2734
䷜	-14.2734
皋	-14.2734
3	-14.2734
䷄	-14.2734
憃	-14.2734
柿	-14.2734
桺	-14.2734
皈	-14.2734
"	-14.2736
繄	-14.2736
㮣	-14.2737
漑	-14.2737
姸	-14.2737
愾	-14.2737
溆	-14.2738
溳	-14.2738
氶	-14.2738
焫	-14.2738
䷼	-14.2738
廨	-14.2738
穂	-14.2738
䷽	-14.2741
盒	-14.2741
菁	-14.2741
禴	-14.2741
㳂	-14.2741
劬	-14.2741
埓	-14.2741
暒	-14.2741
杝	-14.2741
葰	-14.2741
頊	-14.2741
龕	-14.2742
湄	-14.2744
纖	-14.2744
苪	-14.2744
洌	-14.2744
嵕	-14.2744
摛	-14.2744
摻	-14.2744
柈	-14.2744
綆	-14.2744
䷧	-14.2744
帖	-14.2744
徯	-14.2744
悪	-14.2744
箣	-14.2744
靂	-14.2747
呢	-14.2747
䷲	-14.2747
䷳	-14.2747
港	-14.2747
窾	-14.2747
涑	-14.275
甥	-14.275
夤	-14.275
挐	-14.275
凾	-14.275
囱	-14.275
斕	-14.275
杷	-14.275
枘	-14.275
箑	-14.275
篷	-14.275
羃	-14.275
杰	-14.2751
妳	-14.2753
盎	-14.2753
䷾	-14.2753
檄	-14.2753
慱	-14.2753
套	-14.2753
幔	-14.2753
彴	-14.2753
捬	-14.2753
晬	-14.2753
楞	-14.2753
毈	-14.2753
瀐	-14.2753
痏	-14.2753
癢	-14.2753
甓	-14.2754
篙	-14.2754
畬	-14.2756
牕	-14.2756
沇	-14.2756
璟	-14.2756
䷤	-14.2756
抆	-14.2756
曦	-14.2756
蒍	-14.2756
喋	-14.2756
䷯	-14.2756
姫	-14.2756
晟	-14.2756
晻	-14.2756
枇	-14.2756
棃	-14.2756
繀	-14.2756
纇	-14.2756
肈	-14.2756
爌	-14.2759
剜	-14.2759
棚	-14.2759
羭	-14.276
幬	-14.276
歠	-14.276
籓	-14.276
䷙	-14.276
嗹	-14.276
墬	-14.276
宍	-14.276
峴	-14.276
梃	-14.276
痒	-14.276
碁	-14.276
簋	-14.276
菶	-14.276
㭿	-14.276
箎	-14.2761
甔	-14.2761
喔	-14.2763
箠	-14.2763
牣	-14.2763
甯	-14.2763
崿	-14.2763
攛	-14.2763
䷸	-14.2763
啑	-14.2763
巋	-14.2763
涙	-14.2763
皤	-14.2763
秪	-14.2763
㡌	-14.2763
瞋	-14.2763
羵	-14.2763
櫂	-14.2764
蛉	-14.2766
儁	-14.2766
綳	-14.2766
聃	-14.2766
倬	-14.2766
圮	-14.2766
憬	-14.2766
舄	-14.2766
癈	-14.2766
丄	-14.2767
䷎	-14.2769
磽	-14.2769
簫	-14.2769
䘵	-14.2769
愉	-14.2769
絙	-14.2769
慣	-14.2769
捫	-14.2769
肋	-14.2772
䷢	-14.2772
䷍	-14.2772
藘	-14.2772
榘	-14.2772
幞	-14.2772
䷝	-14.2772
剏	-14.2772
緧	-14.2772
䥴	-14.2773
徘	-14.2774
揩	-14.2775
苕	-14.2775
庠	-14.2775
㡳	-14.2775
䀨	-14.2775
㷀	-14.2775
洳	-14.2775
揵	-14.2778
屨	-14.2778
筑	-14.2778
㘁	-14.2779
痁	-14.2782
䖡	-14.2782
刧	-14.2782
蒐	-14.2782
簦	-14.2785
肄	-14.2785
圻	-14.2785
畵	-14.2785
䓆	-14.2785
樟	-14.2785
烖	-14.2785
蕨	-14.2785
瓿	-14.2786
楹	-14.2788
䷹	-14.2788
縢	-14.2788
喩	-14.2788
笄	-14.2788
哈	-14.2788
尔	-14.2788
噋	-14.2791
嚾	-14.2791
䷅	-14.2794
悤	-14.2794
炌	-14.2795
嚶	-14.2797
筈	-14.2797
撑	-14.2799
䷛	-14.28
楬	-14.28
瑁	-14.2801
煽	-14.2801
堁	-14.2804
偟	-14.281
祔	-14.2813
昶	-14.2816
曶	-14.2816
澌	-14.2816
慁	-14.2823
摰	-14.2826
櫛	-14.2829
曕	-14.2848
廥	-14.2857
祏	-14.2873
蕆	-15.2476
营	-15.2477
莧	-15.2478
荻	-15.2479
荏	-15.248
茒	-15.2481
苧	-15.2482
臃	-15.2483
腔	-15.2484
肸	-15.2485
聱	-15.2486
翎	-15.2487
繅	-15.2488
縯	-15.2489
緲	-15.249
綾	-15.2491
糢	-15.2492
箬	-15.2493
窞	-15.2494
稊	-15.2495
秧	-15.2496
禖	-15.2497
硯	-15.2498
硫	-15.2499
硖	-15.25
眙	-15.2501
眕	-15.2502
盩	-15.2503
癧	-15.2504
瘰	-15.2505
痞	-15.2506
畯	-15.2507
璠	-15.2508
獫	-15.2509
猙	-15.251
狳	-15.2511
犰	-15.2512
爕	-15.2513
熲	-15.2514
焬	-15.2515
灝	-15.2516
漱	-15.2517
漪	-15.2518
漙	-15.2519
滍	-15.252
泲	-15.2521
毖	-15.2522
殢	-15.2523
歜	-15.2524
欛	-15.2525
榬	-15.2526
榛	-15.2527
楘	-15.2528
楔	-15.2529
棼	-15.253
桼	-15.2531
柅	-15.2532
枹	-15.2533
朡	-15.2534
朐	-15.2535
斐	-15.2536
擐	-15.2537
揶	-15.2538
挿	-15.2539
拌	-15.254
担	-15.2541
懆	-15.2542
慚	-15.2543
悛	-15.2544
彲	-15.2545
彜	-15.2546
廆	-15.2547
庳	-15.2548
幓	-15.2549
嶰	-15.255
嶤	-15.2551
嵖	-15.2552
岧	-15.2553
岢	-15.2554
岟	-15.2555
岍	-15.2556
岈	-15.2557
屼	-15.2558
孜	-15.2559
嬾	-15.256
媳	-15.2561
媧	-15.2562
姹	-15.2563
妲	-15.2564
壈	-15.2565
埭	-15.2566
垝	-15.2567
坻	-15.2568
嚭	-15.2569
厔	-15.257
卨	-15.2571
劊	-15.2572
刦	-15.2573
儓	-15.2574
僽	-15.2575
僝	-15.2576
倥	-15.2577
侂	-15.2578
佖	-15.2579
伾	-15.258
乚	-15.2581
䷵	-15.2582
䷨	-15.2583
䷉	-15.2584
䴸	-15.2585
䳌	-15.2586
䗫	-15.2587
㴞	-15.2588
㮦	-15.2589
㕛	-15.259
㓨	-15.2591
〇	-15.2592
黛	-15.2593
黓	-15.2594
鸛	-15.2595
鷖	-15.2596
鳲	-15.2597
騕	-15.2598
騊	-15.2599
駼	-15.26
馹	-15.2601
饞	-15.2602
餞	-15.2603
頠	-15.2604
鎩	-15.2605
鎌	-15.2606
釘	-15.2607
邂	-15.2608
逌	-15.2609
轊	-15.261
輥	-15.2611
蹕	-15.2612
豌	-15.2613
蝌	-15.2614
蜲	-15.2615
蜎	-15.2616
蚰	-15.2617
虱	-15.2618
蘧	-15.2619
蕤	-15.262
菉	-15.2621
艫	-15.2622
艇	-15.2623
舳	-15.2624
肻	-15.2625
肬	-15.2626
联	-15.2627
翡	-15.2628
粕	-15.2629
竑	-15.263
礴	-15.2631
磅	-15.2632
眹	-15.2633
眶	-15.2634
璆	-15.2635
琰	-15.2636
猳	-15.2637
爹	-15.2638
滹	-15.2639
渗	-15.264
欃	-15.2641
榨	-15.2642
桌	-15.2643
暠	-15.2644
掊	-15.2645
彳	-15.2646
嶒	-15.2647
嵂	-15.2648
崚	-15.2649
崐	-15.265
屆	-15.2651
嬙	-15.2652
嬈	-15.2653
婷	-15.2654
唭	-15.2655
匭	-15.2656
儱	-15.2657
亍	-15.2658
䷻	-15.2659
䷡	-15.266
䷑	-15.2661
㘈	-15.2662
􁈓	-15.2663
鸎	-15.2664
魃	-15.2665
驊	-15.2666
駸	-15.2667
餼	-15.2668
鑊	-15.2669
鄱	-15.267
鄘	-15.2671
邽	-15.2672
辡	-15.2673
轔	-15.2674
輳	-15.2675
躐	-15.2676
躅	-15.2677
蹏	-15.2678
跦	-15.2679
贔	-15.268
貅	-15.2681
諄	-15.2682
裎	-15.2683
蠛	-15.2684
蟋	-15.2685
蟀	-15.2686
蝝	-15.2687
蓑	-15.2688
萋	-15.2689
莞	-15.269
茘	-15.2691
芭	-15.2692
膴	-15.2693
膜	-15.2694
胝	-15.2695
耨	-15.2696
翶	-15.2697
罳	-15.2698
綢	-15.2699
絏	-15.27
糝	-15.2701
粢	-15.2702
籃	-15.2703
瞪	-15.2704
眈	-15.2705
牁	-15.2706
炷	-15.2707
歍	-15.2708
曩	-15.2709
晹	-15.271
昺	-15.2711
攧	-15.2712
搢	-15.2713
拇	-15.2714
悻	-15.2715
帆	-15.2716
娑	-15.2717
喓	-15.2718
哅	-15.2719
厫	-15.272
勳	-15.2721
佾	-15.2722
䷷	-15.2723
䉔	-15.2724
㾮	-15.2725
㸦	-15.2726
黅	-15.2727
麴	-15.2728
鴠	-15.2729
鱣	-15.273
魎	-15.2731
鏝	-15.2732
逯	-15.2733
轘	-15.2734
軏	-15.2735
貆	-15.2736
豷	-15.2737
謌	-15.2738
薺	-15.2739
蒺	-15.274
菌	-15.2741
繰	-15.2742
琉	-15.2743
猊	-15.2744
狻	-15.2745
煤	-15.2746
氤	-15.2747
搐	-15.2748
捏	-15.2749
崥	-15.275
匐	-15.2751
匍	-15.2752
􁬗	-15.2753
髴	-15.2754
髣	-15.2755
慷	-15.2756
雝	-15.2756
郃	-15.2757
訩	-15.2758
覡	-15.2759
蠺	-15.276
蝣	-15.2761
蜿	-15.2762
綎	-15.2763
禨	-15.2764
盬	-15.2765
瓞	-15.2766
瑚	-15.2767
狽	-15.2768
燉	-15.2769
澈	-15.277
浞	-15.2771
泱	-15.2772
楩	-15.2773
慊	-15.2774
彿	-15.2775
尨	-15.2776
嫫	-15.2777
刲	-15.2778
䦕	-15.2779
蠆	-15.278
蝃	-15.2781
紿	-15.2782
秣	-15.2783
廛	-15.2784
焞	-15.2784
氲	-15.2785
楷	-15.2786
枋	-15.2787
姮	-15.2788
壷	-15.2789
㬰	-15.279
霏	-15.2791
輾	-15.2792
踟	-15.2793
螂	-15.2794
蜘	-15.2795
蜍	-15.2796
脗	-15.2797
牾	-15.2798
牴	-15.2799
爝	-15.28
款	-15.2801
昳	-15.2802
戔	-15.2803
娌	-15.2804
妯	-15.2805
址	-15.2806
䂦	-15.2807
醲	-15.2808
㲄	-15.2808
鵡	-15.2809
鵓	-15.281
謳	-15.2811
蟆	-15.2812
碗	-15.2813
暅	-15.2814
砒	-15.2814
瘓	-15.2815
獼	-15.2816
唧	-15.2817
㕧	-15.2818
臊	-15.2819
瀟	-15.282
涒	-15.2821
惙	-15.2822
彡	-15.2823
咷	-15.2824
鸚	-15.2825
鵒	-15.2826
饉	-15.2827
錐	-15.2828
羑	-15.2829
漉	-15.283
觿	-15.2831
扦	-15.2831
媦	-15.2832
啻	-15.2833
驃	-15.2834
跃	-15.2835
臾	-15.2836
墉	-15.2837
嚳	-15.2838
傉	-15.2839
齬	-15.284
齟	-15.2841
􁥰	-15.2842
惺	-15.2843
惚	-15.2844
醞	-15.2845
薤	-15.2846
悌	-15.2847
峥	-15.2848
紜	-15.2849
怵	-15.285
糟	-15.2851
逶	-15.2852
辿	-15.2853
坷	-15.2854
爺	-15.2855
瀍	-15.2856
鄲	-15.2857
琊	-15.2858
憔	-15.2859
蹭	-15.286
蹬	-15.2861
匃	-15.2862
逍	-15.2863
迢	-15.2864
沌	-15.2865
惸	-15.2866
仃	-15.2867
鎡	-15.2868
玕	-15.2869
箔	-15.287
蚯	-15.2871
喈	-15.2872
炅	-15.2873
嶸	-15.2874
斟	-15.2875
崙	-15.2876
崑	-15.2877
觹	-15.2878
仔	-15.2879
匈	-15.288
釧	-15.288
