<unk>	0
<s>	0
</s>	0
之	-3.83448
/	-3.86805
(	-4.1099
)	-4.14899
也	-4.44288
以	-4.49343
而	-4.74929
為	-4.81063
不	-5.09492
其	-5.10948
人	-5.114
王	-5.13645
者	-5.14001
有	-5.18725
)(	-5.24258
曰	-5.35623
於	-5.38579
言	-5.54867
一	-5.654
則	-5.70503
上	-5.72868
子	-5.74283
無	-5.74329
事	-5.74968
與	-5.79402
此	-5.8219
大	-5.83605
秦	-5.86013
所	-5.89172
公	-5.91428
自	-5.9264
使	-5.95983
齊	-5.96374
臣	-5.97765
矣	-6.00105
至	-6.01215
謂	-6.03511
今	-6.03611
故	-6.04781
文	-6.06356
行	-6.12829
在	-6.14195
見	-6.1506
官	-6.15449
反	-6.17902
國	-6.18244
三	-6.19623
下	-6.19883
中	-6.20415
亦	-6.22447
兵	-6.23416
相	-6.2415
時	-6.24771
趙	-6.24789
又	-6.25093
必	-6.25888
及	-6.27872
令	-6.2858
非	-6.29154
得	-6.29406
等	-6.29989
皆	-6.32392
知	-6.33493
州	-6.33665
乃	-6.34275
用	-6.34481
是	-6.34755
同	-6.35854
安	-6.36299
爲	-6.36683
二	-6.37659
欲	-6.38511
魏	-6.3867
楚	-6.39336
復	-6.40425
後	-6.40583
將	-6.4105
正	-6.41341
君	-6.42156
名	-6.43136
出	-6.43584
已	-6.44885
從	-6.46217
如	-6.48777
可	-6.49135
韓	-6.49531
城	-6.51848
書	-6.52913
入	-6.53566
軍	-6.54194
當	-6.55418
成	-6.56352
命	-6.57341
若	-6.58237
道	-6.59386
字	-6.59444
然	-6.60913
何	-6.62237
因	-6.62246
作	-6.62626
地	-6.62734
云	-6.62756
于	-6.64273
遂	-6.64283
張	-6.65891
民	-6.66295
猶	-6.66736
請	-6.67068
詔	-6.68054
注	-6.68967
即	-6.69183
周	-6.69569
明	-6.69866
日	-6.71032
死	-6.71777
任	-6.72289
李	-6.73112
武	-6.73636
年	-6.74694
取	-6.75126
乎	-6.75406
馬	-6.75716
未	-6.76667
封	-6.77686
天	-6.78167
重	-6.78228
兩	-6.78235
本	-6.79092
多	-6.79603
能	-6.79857
四	-6.80063
章	-6.80226
進	-6.80733
前	-6.80935
陳	-6.81504
五	-6.82524
天下	-6.83008
平	-6.83227
主	-6.83618
▁	-6.83913
守	-6.84483
士	-6.84554
先	-6.84638
賜	-6.84683
徳	-6.84825
山	-6.85298
且	-6.86516
定	-6.86623
去	-6.8779
侯	-6.88261
南	-6.89037
立	-6.89142
加	-6.89148
聞	-6.89173
善	-6.89664
陽	-6.8976
我	-6.89889
朝	-6.90197
補音	-6.90897
府	-6.92446
音	-6.92495
生	-6.9253
長	-6.9325
雖	-6.93884
合	-6.9402
方	-6.94071
内	-6.95336
舉	-6.96069
初	-6.96836
議	-6.97228
禮	-6.97954
奏	-6.98706
卒	-7.00242
闕	-7.0044
西	-7.00461
伯	-7.00791
東	-7.00956
燕	-7.01396
來	-7.01678
稱	-7.02271
劉	-7.02777
信	-7.05123
史	-7.05245
分	-7.05757
和	-7.05976
實	-7.06178
或	-7.06368
金	-7.06772
/)	-7.06862
法	-7.074
各	-7.0764
忠	-7.07844
宋	-7.07875
夫	-7.09952
元	-7.09956
不可	-7.10323
親	-7.1073
歸	-7.1089
兼	-7.11791
意	-7.11913
外	-7.12226
諸	-7.12309
通	-7.12408
俱	-7.12768
論	-7.12771
戰	-7.1283
攻	-7.12945
心	-7.13445
亡	-7.1347
義	-7.13817
世	-7.13845
治	-7.13901
既	-7.14069
政	-7.1437
始	-7.14432
六	-7.15449
門	-7.17438
過	-7.17479
右	-7.17638
氏	-7.17858
爾	-7.17971
常	-7.18364
師	-7.1887
髙	-7.1922
居	-7.1981
以為	-7.20179
服	-7.20239
恐	-7.20337
萬	-7.20773
制	-7.2107
殺	-7.21344
正曰	-7.21502
不能	-7.21953
家	-7.22175
衆	-7.22521
數	-7.22959
問	-7.23023
北	-7.23216
甚	-7.23982
惟	-7.24077
降	-7.24307
吾	-7.2523
固	-7.25256
改	-7.25702
補曰	-7.2581
功	-7.25825
都	-7.25988
宜	-7.26135
求	-7.26234
利	-7.27364
昭	-7.28377
焉	-7.28383
逺	-7.28412
難	-7.29145
水	-7.29309
易	-7.29453
司	-7.29645
九	-7.29714
計	-7.3018
盡	-7.30648
樂	-7.30778
失	-7.33076
賢	-7.33917
孫	-7.34399
晉	-7.34437
並	-7.34511
處	-7.34725
起	-7.34774
應	-7.35054
寧	-7.35155
召	-7.35877
嗣	-7.36391
聖	-7.36852
異	-7.37017
宗	-7.37301
力	-7.37314
屬	-7.38031
卿	-7.38548
罪	-7.38939
惡	-7.39202
謀	-7.39208
發	-7.3934
罷	-7.39861
奉	-7.40002
直	-7.40222
敗	-7.40412
辭	-7.40454
左	-7.40567
理	-7.40931
石	-7.41162
小	-7.4144
說	-7.41785
受	-7.42058
止	-7.42134
德	-7.4251
衛	-7.42527
次	-7.43019
近	-7.4315
尚	-7.43219
古	-7.43713
經	-7.4376
置	-7.43777
儀	-7.43877
帝	-7.43914
少	-7.44027
嵗	-7.44142
傳	-7.44165
好	-7.45255
縣	-7.45533
按	-7.46024
疑	-7.46786
益	-7.46842
梁	-7.47224
十	-7.47388
唐	-7.47511
許	-7.47744
陛下	-7.47895
耳	-7.48264
凡	-7.48764
聲	-7.48853
漢	-7.49324
廣	-7.49635
職	-7.49703
遣	-7.49735
䇿	-7.49746
江	-7.49931
勝	-7.50056
興	-7.50468
太子	-7.50596
元作	-7.50663
補	-7.5088
特	-7.51281
聽	-7.5147
鄭	-7.51769
食	-7.52066
還	-7.52214
路	-7.52457
代	-7.52629
錢	-7.52828
保	-7.52928
朕	-7.52935
楊	-7.53334
學	-7.53671
志	-7.53807
黄	-7.53877
朝廷	-7.53889
百	-7.5399
宣	-7.54604
思	-7.5473
順	-7.54744
深	-7.55614
永	-7.56099
八	-7.56149
身	-7.56868
哉	-7.56891
亂	-7.56997
告	-7.57095
宫	-7.57225
貴	-7.57503
邊	-7.57555
獨	-7.57617
語	-7.57947
舊	-7.57979
新	-7.58191
位	-7.58494
致	-7.58924
進士	-7.5946
引	-7.60045
約	-7.61195
賊	-7.61303
女	-7.61493
間	-7.62039
太宗	-7.62124
田	-7.62664
克	-7.63412
説	-7.63636
父	-7.63976
不得	-7.64094
白	-7.64426
誠	-7.64635
由	-7.64679
七	-7.64836
餘	-7.65432
交	-7.65647
物	-7.6603
賞	-7.66082
試	-7.66096
仍	-7.66862
河	-7.66893
更	-7.66972
納	-7.6705
仁	-7.67055
乞	-7.67325
吏	-7.67434
終	-7.67447
觀	-7.67629
願	-7.6811
夏	-7.68244
教	-7.68302
三年	-7.68496
陵	-7.68574
豈	-7.68672
獻	-7.6875
坐	-7.68948
臨	-7.69105
二年	-7.69265
權	-7.69341
并	-7.69512
留	-7.70017
承	-7.70056
敵	-7.70118
除	-7.70184
伐	-7.70238
望	-7.70267
所以	-7.70553
恩	-7.70795
而不	-7.71197
厚	-7.71464
絶	-7.71881
彼	-7.72025
盖	-7.72148
清	-7.7234
再	-7.72472
御	-7.7271
郡	-7.73322
破	-7.73521
備	-7.73745
首	-7.73748
考	-7.73843
㑹	-7.7411
光	-7.74268
衍	-7.7466
報	-7.74675
私	-7.75003
輕	-7.75471
致仕	-7.75494
號	-7.76016
節	-7.76615
遷	-7.7712
殿	-7.77271
元年	-7.77338
免	-7.77717
胡	-7.77897
里	-7.77933
給	-7.77966
靖	-7.78568
害	-7.78936
嘉靖	-7.79024
惠	-7.7907
朱	-7.7972
建	-7.79836
諭	-7.80122
變	-7.80309
具	-7.80384
老	-7.80544
比	-7.8062
濟	-7.80729
千	-7.8075
鎮	-7.81329
嘗	-7.81593
布	-7.82063
疾	-7.8237
别	-7.82473
神	-7.8254
車	-7.8258
不敢	-7.82747
皇	-7.82883
解	-7.8294
往	-7.83057
威	-7.83289
紀	-7.8359
記	-7.83773
視	-7.84028
海	-7.84134
强	-7.84771
掌	-7.85674
徐	-7.85883
監	-7.85922
務	-7.86322
愛	-7.86432
四年	-7.86455
修	-7.86625
開	-7.86932
吳	-7.87137
恭	-7.87352
幸	-7.87509
省	-7.87644
祖	-7.87758
孝	-7.88029
便	-7.88202
怒	-7.88491
昌	-7.885
據	-7.88578
慶	-7.8859
選	-7.88739
授	-7.88772
察	-7.88849
遇	-7.88908
尚書	-7.89132
存	-7.89269
對	-7.89269
銀	-7.89418
良	-7.89516
共	-7.8963
乗	-7.89637
輔	-7.8984
收	-7.90339
太	-7.90416
但	-7.90581
福	-7.90673
執	-7.90728
科	-7.91018
郭	-7.91218
直𨽻	-7.91582
典	-7.91638
玉	-7.91902
度	-7.91953
魯	-7.91963
責	-7.92009
全	-7.92464
甲	-7.92772
隂	-7.92793
敬	-7.93052
母	-7.93258
果	-7.93347
謝	-7.94127
康	-7.94533
土	-7.94558
陞	-7.94573
人由進士	-7.94807
汝	-7.94893
悉	-7.94924
嘉	-7.95668
講	-7.95807
懐	-7.95914
諸侯	-7.95982
扵	-7.9603
才	-7.96222
端	-7.96225
汗	-7.96321
於是	-7.96623
姓	-7.9684
尊	-7.96878
可以	-7.96914
患	-7.97057
怨	-7.97133
不知	-7.97309
達	-7.97341
急	-7.97352
圖	-7.97547
救	-7.97627
部	-7.97866
口	-7.97872
林	-7.97893
申	-7.98
卷	-7.98137
智	-7.98155
設	-7.98563
足	-7.98707
襄	-7.98838
獲	-7.99244
敢	-7.99601
五年	-7.998
越	-7.99803
廢	-7.99976
御史	-8.00028
營	-8.00558
流	-8.01129
衣	-8.01154
化	-8.01222
秦王	-8.0132
色	-8.01532
率	-8.0163
繼	-8.01732
榮	-8.01793
動	-8.01804
華	-8.02124
贈	-8.02355
累	-8.0273
原	-8.03066
對曰	-8.03342
龍	-8.03587
拜	-8.03776
憂	-8.03789
勞	-8.04188
大夫	-8.04543
退	-8.04545
京	-8.05015
向	-8.05119
将	-8.05148
體	-8.05182
載	-8.05275
懼	-8.05278
遺	-8.0559
月	-8.05679
國公	-8.0577
曹	-8.05859
要	-8.05947
左右	-8.05992
危	-8.07017
每	-8.07384
充	-8.07459
景	-8.07478
英	-8.07646
顧	-8.07785
誤	-8.07872
㫖	-8.08006
第	-8.08468
弟	-8.08589
領	-8.08623
誅	-8.08946
皇帝	-8.09011
列	-8.09078
持	-8.09283
表	-8.09401
伏	-8.09556
鈔	-8.09809
木	-8.09819
刑	-8.10621
如此	-8.10826
美	-8.10936
業	-8.11284
邑	-8.11358
簡	-8.11472
大臣	-8.11665
被	-8.12015
須	-8.12312
策	-8.12498
后	-8.12504
切	-8.12748
就	-8.12748
質	-8.12763
六年	-8.12849
勿	-8.13035
崇	-8.13111
資	-8.13559
河南	-8.13974
隨	-8.14142
嚴	-8.14172
成化	-8.14176
勢	-8.14623
寡人	-8.14668
韓魏	-8.14861
莊	-8.14884
施	-8.14948
依	-8.15123
管	-8.15137
詳	-8.15243
附	-8.15258
莫	-8.15581
弱	-8.15619
養	-8.15643
楚王	-8.15949
極	-8.16048
風	-8.16088
器	-8.16258
吕	-8.16487
送	-8.16604
盛	-8.16608
客	-8.1674
廟	-8.17024
病	-8.17035
𥙷曰	-8.17204
期	-8.17305
商	-8.17314
役	-8.17338
息	-8.17448
追	-8.17535
仲	-8.17622
他	-8.17812
禁	-8.17822
中山	-8.18312
市	-8.1839
畏	-8.18397
延	-8.18857
於秦	-8.18933
之所	-8.18947
夷	-8.19015
差	-8.19513
騎	-8.19632
春	-8.19654
副	-8.2011
二人	-8.20164
結	-8.20454
慮	-8.21452
著	-8.22005
傷	-8.22118
洪武	-8.22273
登	-8.22291
夀	-8.22467
容	-8.22497
喜	-8.22793
久	-8.22801
襲	-8.22887
強	-8.22998
手	-8.23075
例	-8.23095
革	-8.23142
吉	-8.23283
棄	-8.23429
叔	-8.23498
呉	-8.2378
天下之	-8.2379
山東	-8.2416
禍	-8.24382
籍	-8.2468
阿	-8.24956
一人	-8.25022
戒	-8.25074
十年	-8.25381
圍	-8.25586
走	-8.25589
泰	-8.25784
邪	-8.25926
校	-8.25953
委	-8.25961
犯	-8.25974
詩	-8.26037
助	-8.26324
學士	-8.26783
肅	-8.26844
侍	-8.26905
弗	-8.26971
滅	-8.27314
太監	-8.27399
負	-8.27467
七年	-8.27882
院	-8.27885
二十	-8.27938
耶	-8.2799
移	-8.28346
顯	-8.28662
離	-8.29373
永樂	-8.29659
澤	-8.29748
奪	-8.29785
係	-8.29927
情	-8.29957
待	-8.30015
庶	-8.30051
川	-8.30208
草	-8.30281
族	-8.30648
而已	-8.30828
帥	-8.30857
逐	-8.30861
爵	-8.30906
羅	-8.31196
丘	-8.31327
勒	-8.31363
連	-8.31485
征	-8.31635
目	-8.31806
示	-8.31994
素	-8.32028
推	-8.32292
徒	-8.32358
造	-8.32419
戎	-8.32494
𢎞治	-8.32695
錠	-8.32695
所謂	-8.32739
謹	-8.32823
之事	-8.3283
廷	-8.32911
曽	-8.33003
集	-8.33127
違	-8.33135
八年	-8.33419
聞之	-8.3345
擊	-8.33517
巴	-8.33718
尋	-8.34472
五十	-8.34775
真	-8.34777
諫	-8.34779
孟	-8.34942
專	-8.35038
蘇	-8.35286
塞	-8.35354
妃	-8.35541
指	-8.35563
氣	-8.35578
賈	-8.35882
指揮	-8.35887
諌	-8.36023
黨	-8.36421
擇	-8.36713
酒	-8.37002
寳	-8.37047
面	-8.37336
之後	-8.37622
南京	-8.37945
户	-8.3838
録	-8.38719
尤	-8.38726
富	-8.38952
撫	-8.39047
太后	-8.39179
公子	-8.39182
夜	-8.39464
曲	-8.39585
丁	-8.39953
帶	-8.40038
博	-8.40059
勅	-8.41079
習	-8.41092
▁(	-8.41196
之言	-8.41223
斷	-8.41315
費	-8.41516
憲	-8.41637
疋	-8.41894
者也	-8.41902
葢	-8.41919
雲	-8.42192
覆	-8.4226
斯	-8.42263
佐	-8.4235
逆	-8.42521
予	-8.42525
不如	-8.42529
最	-8.42535
昔	-8.42822
陶	-8.42924
天子	-8.42982
訓	-8.43106
支	-8.43125
馮	-8.43174
也今	-8.43617
射	-8.43688
堅	-8.44019
放	-8.44151
三十	-8.44161
工	-8.44333
迎	-8.44526
烏	-8.44681
王曰	-8.44855
勸	-8.44954
適	-8.44954
將軍	-8.45266
浙江	-8.45533
巳	-8.45545
境	-8.45567
薨	-8.45744
蔡	-8.45749
散	-8.45779
靈	-8.45886
闗	-8.46609
舍	-8.46629
郎	-8.46747
中書	-8.46913
十二	-8.47318
洪	-8.4736
祭	-8.47389
竒	-8.47389
調	-8.47465
温	-8.47516
避	-8.47923
高	-8.48081
四十	-8.48258
米	-8.48396
勇	-8.4869
張儀	-8.49343
統	-8.49552
都督	-8.49798
律	-8.49848
從之	-8.50125
蓋	-8.50272
釋	-8.50401
畢	-8.50672
援	-8.51055
横	-8.51066
割	-8.51092
句	-8.51109
大王	-8.51277
不足	-8.513
百姓	-8.51408
班	-8.5149
薄	-8.5151
穆	-8.51567
機	-8.51664
徃	-8.51734
囯	-8.51791
閣	-8.51861
回	-8.51907
虞	-8.52041
杜	-8.52186
孤	-8.5219
九年	-8.52194
貢	-8.52338
之地	-8.5244
疏	-8.52513
鄉	-8.52514
折	-8.52605
背	-8.5327
三月	-8.53384
勤	-8.53495
積	-8.53707
瑾	-8.53889
糧	-8.5391
寛	-8.54204
祥	-8.54376
堂	-8.54729
十二年	-8.54738
諡	-8.54854
索	-8.55027
聚	-8.55288
呼	-8.55289
到	-8.55505
𫝊	-8.55549
况	-8.55739
臺	-8.55815
念	-8.56198
無所	-8.56264
乆	-8.56402
會	-8.56488
隆	-8.56576
季	-8.56748
候	-8.56913
條	-8.5693
决	-8.56938
唯	-8.56982
陜西	-8.57185
羊	-8.57387
増	-8.574
范	-8.5746
衞	-8.57493
薦	-8.57494
半	-8.57839
有所	-8.58006
宰相	-8.58112
欽	-8.58352
禄	-8.58502
財	-8.5879
形	-8.58989
上曰	-8.59029
哀	-8.59391
運	-8.59402
轉	-8.59677
獄	-8.59766
庫	-8.59849
優	-8.59961
見前	-8.60064
頭	-8.6017
萬厯	-8.60401
火	-8.60456
室	-8.60715
愚	-8.60775
茂	-8.60936
□	-8.61155
供	-8.61358
精	-8.61429
正徳	-8.61661
江西	-8.61834
困	-8.61868
青	-8.61897
奔	-8.62017
使人	-8.62122
升	-8.62166
印	-8.62181
傅	-8.62247
魚	-8.62383
虎	-8.62403
其後	-8.62412
以爲	-8.62551
賦	-8.62592
假	-8.62597
赴	-8.62779
十六年	-8.63113
湖廣	-8.6312
魏王	-8.63485
歲	-8.63602
禮部	-8.63671
之意	-8.63912
曰吾	-8.63937
循	-8.64146
蜀	-8.64169
討	-8.6423
牛	-8.64328
員	-8.64375
儒	-8.64487
先生	-8.64529
斬	-8.64696
丞相	-8.64886
䝉	-8.6498
序	-8.65057
干	-8.65103
友	-8.65108
貞	-8.65554
界	-8.65559
滿	-8.65596
何以	-8.6588
君之	-8.65953
屈	-8.6609
有司	-8.6613
赦	-8.66348
春秋	-8.66359
照	-8.66601
庭	-8.66658
寨	-8.6679
付	-8.66812
十三年	-8.67102
奸	-8.67125
鹽	-8.67378
尹	-8.67478
遣使	-8.67704
先是	-8.67745
来	-8.67776
招	-8.67848
貞觀	-8.67865
竊	-8.68251
狀	-8.68378
羣臣	-8.6841
詞	-8.68423
司馬	-8.68532
野	-8.68695
爭	-8.68715
似	-8.68739
其所	-8.68789
窮	-8.69124
薛	-8.69239
二月	-8.69248
即位	-8.69285
之心	-8.69304
國家	-8.69355
舟	-8.69372
苦	-8.69395
讀	-8.69425
乘	-8.69443
荆	-8.69451
貫	-8.69657
宻	-8.6971
俗	-8.69911
脩	-8.70253
余	-8.70283
末	-8.70319
督	-8.70458
洛	-8.70468
寵	-8.70814
畧	-8.70903
内閣	-8.70957
休	-8.71006
均	-8.71099
參	-8.71247
不聽	-8.71277
妄	-8.7155
正統	-8.71573
大事記	-8.71646
倍	-8.71844
祀	-8.7186
之子	-8.71882
振	-8.71927
歴	-8.72033
大學士	-8.72149
彭	-8.72224
量	-8.72371
頃	-8.72375
懷	-8.72429
州人	-8.72606
倉	-8.72646
幾	-8.72826
篇	-8.72902
象	-8.72953
總	-8.72961
恃	-8.73152
兵部尚書	-8.73299
於齊	-8.73647
格	-8.73735
禮部尚書	-8.73763
震	-8.73794
丞	-8.73872
宿	-8.74017
侵	-8.74275
審	-8.74321
希	-8.74333
以下	-8.74544
曾	-8.74623
反下	-8.74814
趨	-8.74818
毅	-8.74827
𢎞	-8.74879
伊	-8.75085
接	-8.75131
頗	-8.75143
性	-8.75422
庸	-8.75432
吏部	-8.75439
雄	-8.75652
狄	-8.75876
防	-8.75937
邦	-8.75953
八十	-8.76088
敏	-8.76161
衡	-8.76272
戍	-8.76531
郊	-8.76676
匹	-8.76679
京師	-8.76708
尺	-8.76754
註	-8.76895
不許	-8.77014
雍	-8.77129
讓	-8.7713
縱	-8.77319
然則	-8.77331
郎中	-8.77429
陸	-8.77504
今日	-8.77567
誰	-8.7769
俊	-8.77725
聴	-8.77931
仕	-8.77942
錫	-8.77953
惜	-8.78176
識	-8.78295
絹	-8.78474
鮑	-8.7857
太祖	-8.78664
葉	-8.78801
弊	-8.78992
彬	-8.79053
十四年	-8.79054
程	-8.7914
安石	-8.7949
十七年	-8.79591
欺	-8.79622
十一年	-8.79869
副使	-8.79879
稍	-8.79951
盟	-8.80038
以來	-8.80206
給事中	-8.80219
早	-8.80248
淮	-8.80251
翟	-8.8033
遵	-8.80757
慎	-8.81659
預	-8.81733
寶	-8.81751
虚	-8.81757
損	-8.82272
毛	-8.82368
題	-8.82628
是以	-8.82642
類	-8.82708
姚	-8.82906
弼	-8.82959
今王	-8.83023
先帝	-8.83094
宴	-8.83219
河東	-8.83485
顔	-8.83845
𥙷	-8.8385
額	-8.84132
祿	-8.84162
五月	-8.8418
山西	-8.84333
壽	-8.84423
兵部	-8.84579
十八年	-8.8461
三百	-8.84631
辨	-8.84705
云云	-8.84739
勲	-8.84818
婦	-8.85009
險	-8.85037
惠王	-8.85353
孔	-8.85376
國之	-8.85537
十五	-8.85714
君子	-8.85793
八月	-8.86031
一日	-8.86082
符	-8.86261
雜	-8.86303
任左	-8.86434
冠	-8.86526
朔	-8.86541
桓	-8.86543
房	-8.86551
微	-8.86577
谷	-8.8658
喪	-8.86865
忘	-8.87019
契丹	-8.87138
裕	-8.8719
争	-8.87192
湯	-8.87388
暴	-8.87482
妻	-8.87885
曰臣	-8.87986
属	-8.88414
速	-8.88427
孰	-8.88446
十五年	-8.88468
抑	-8.88514
九月	-8.88601
豐	-8.88672
却	-8.88722
旦	-8.88734
効	-8.8877
藏	-8.88775
密	-8.8882
六十	-8.88844
羣	-8.88891
於此	-8.88918
至於	-8.88956
丹	-8.89005
蘇秦	-8.89027
藉	-8.89043
然後	-8.89162
本年	-8.89186
而後	-8.89273
刺	-8.89295
馳	-8.89353
叛	-8.89407
賀	-8.89426
厲	-8.89476
己	-8.89515
侍郎	-8.89701
兹	-8.89702
雨	-8.89769
謂之	-8.89868
公仲	-8.89912
社稷	-8.90048
贊	-8.90181
使者	-8.90374
飲	-8.9086
遼	-8.90869
之時	-8.90894
秋	-8.90971
落	-8.9099
烈	-8.91033
源	-8.91043
不及	-8.9113
亮	-8.91314
用之	-8.91466
署	-8.91497
閔	-8.91549
六月	-8.91552
珠	-8.91594
允	-8.9164
駕	-8.9166
正月	-8.9168
冦	-8.91711
賂	-8.91727
沈	-8.91745
貪	-8.91751
惑	-8.91998
宇	-8.92019
詣	-8.92033
子孫	-8.92061
茍	-8.92345
子之	-8.92512
單	-8.9264
肆	-8.92656
倫	-8.92663
齊王	-8.92712
徴	-8.92745
隋	-8.92902
忽	-8.92961
敝	-8.92994
之間	-8.93082
堯	-8.93266
蕭	-8.93369
彪謂	-8.93444
不然	-8.93538
未有	-8.93577
館	-8.93653
可謂	-8.93721
轉左	-8.93801
略	-8.93981
之士	-8.94089
投	-8.94286
逃	-8.9432
判	-8.94451
祖宗	-8.94521
表裏	-8.94593
慈	-8.94626
勉	-8.94696
寡	-8.94745
細	-8.94974
擢	-8.95012
愈	-8.95013
幣	-8.95023
詐	-8.95294
吏部尚書	-8.95306
竟	-8.95313
十二月	-8.95501
謙	-8.95702
不過	-8.95845
徙	-8.96361
毁	-8.96394
以此	-8.96477
由進士	-8.96608
裁	-8.96684
品	-8.96691
熟	-8.96736
扶	-8.9699
乾	-8.97041
削	-8.97088
偽	-8.97356
是也	-8.97418
僅	-8.97429
趙王	-8.9751
彦	-8.97699
感	-8.97724
葬	-8.97764
帛	-8.98067
忌	-8.98079
中國	-8.98079
妾	-8.98097
邯鄲	-8.98129
兄弟	-8.98135
辱	-8.98165
宣王	-8.98335
十一月	-8.98342
知之	-8.98359
薨子	-8.98437
鍾	-8.98451
畫	-8.9847
殺之	-8.98796
一本	-8.98888
見前嘉靖	-8.98999
鼎	-8.99109
辟	-8.99165
之故	-8.9933
少師	-8.99365
空	-8.99463
牧	-8.99528
人也	-8.99532
禦	-8.9972
一百	-8.99745
遽	-8.99814
黜	-8.99837
蘇子	-8.99907
旣	-9.00199
揚	-9.00204
勛	-9.00234
某	-9.00234
言其	-9.00239
材	-9.00267
悼	-9.003
否	-9.00436
鼓	-9.00594
施行	-9.00798
足以	-9.00865
逸	-9.00895
殊	-9.00948
辯	-9.00951
缺	-9.01203
撰	-9.01279
介	-9.01309
秩	-9.01334
至是	-9.01346
笑	-9.01508
白金	-9.01625
卑	-9.01683
愚按	-9.01726
河北	-9.01856
仰	-9.01992
維	-9.02015
辰	-9.02048
言之	-9.02155
太師	-9.02219
漸	-9.02326
郢	-9.02355
執政	-9.02359
關	-9.02381
翼	-9.02391
其言	-9.02493
厯	-9.02568
咸	-9.02607
劾	-9.02609
文武	-9.02657
借	-9.02711
衰	-9.03074
擅	-9.03091
及第	-9.03212
之道	-9.03403
拔	-9.03504
姑	-9.03507
游	-9.0351
小人	-9.03585
皇后	-9.03737
禹	-9.03771
蒲	-9.039
臣等	-9.03966
舜	-9.04128
咎	-9.04239
如字	-9.04254
述	-9.04259
謁	-9.0426
翰林	-9.04268
之國	-9.04341
雅	-9.04552
天地	-9.04618
讎	-9.0462
圗	-9.04627
其子	-9.04694
其事	-9.04698
懿	-9.04733
農	-9.04768
矢	-9.04923
減	-9.0493
仇	-9.05355
悔	-9.05358
户部	-9.05591
之人	-9.05634
五百	-9.05717
未嘗	-9.05885
驕	-9.0605
也言	-9.06231
在位	-9.06297
驚	-9.06428
覺	-9.06464
藥	-9.06477
鄧	-9.06515
屯	-9.0658
冬	-9.06747
訪	-9.0687
基	-9.06888
此言	-9.06948
少傅	-9.0698
君臣	-9.07154
拒	-9.07205
寺	-9.07215
者皆	-9.07255
刑部	-9.07478
稽	-9.07566
知其	-9.07572
桂	-9.07579
僖	-9.07792
太子太保	-9.07816
甫	-9.07952
屢	-9.07975
伐齊	-9.07984
焚	-9.08005
噶	-9.08009
哈	-9.08292
錦	-9.08299
亟	-9.08348
疆	-9.08358
三人	-9.08701
斥	-9.09149
藩	-9.09189
逮	-9.09204
術	-9.09221
兄	-9.09372
擾	-9.09536
姦	-9.09615
千户	-9.09931
豫	-9.09968
岳	-9.09993
官軍	-9.10148
擒	-9.1016
七十	-9.10248
也正曰	-9.10459
皮	-9.10725
蔽	-9.10739
董	-9.10817
與之	-9.10887
少保	-9.10937
夫人	-9.1103
不為	-9.11041
捕	-9.11123
以聞	-9.11163
卜	-9.11206
景泰	-9.11211
殷	-9.11219
去聲	-9.11455
𩔖	-9.11457
補曰一本	-9.11476
階	-9.11489
紹	-9.11538
星	-9.11546
鄙	-9.11912
俟	-9.11924
喇	-9.12072
賤	-9.12354
公孫	-9.12516
亨	-9.12637
飛	-9.12709
與秦	-9.12724
踰	-9.12761
賣	-9.12784
秦之	-9.12814
用兵	-9.1287
蘇代	-9.12924
沙	-9.13083
亭	-9.1311
襄王	-9.1327
的	-9.13437
也故	-9.13511
黎	-9.13612
二十年	-9.13831
三千	-9.13844
一千	-9.13869
決	-9.13999
犀首	-9.14016
二百	-9.14051
燕王	-9.14277
伍	-9.14307
答	-9.14411
規	-9.14417
享	-9.14419
於王	-9.14474
毋	-9.1455
垂	-9.14783
俸	-9.1481
州縣	-9.14902
陣	-9.14989
不勝	-9.15
四月	-9.15089
純	-9.15122
步	-9.15159
殘	-9.15242
湖	-9.15262
之計	-9.15285
一時	-9.15414
追封	-9.15572
於楚	-9.15588
煩	-9.15625
䟽	-9.15712
之罪	-9.15751
之功	-9.15872
欲以	-9.15958
寒	-9.16077
甘茂	-9.16079
何也	-9.16251
擬	-9.16419
隱	-9.16427
限	-9.16433
之法	-9.16499
三國	-9.16501
剛	-9.16541
千里	-9.16665
蠻	-9.16817
兒	-9.16849
墨	-9.17199
地方	-9.17285
曰此	-9.17297
曉	-9.17317
南陽	-9.17427
後世	-9.17599
料	-9.17688
鄰	-9.17736
戴	-9.17738
諱	-9.17744
檢	-9.18077
太平	-9.18097
竭	-9.18114
㧞	-9.18157
恕	-9.18183
祐	-9.18416
了	-9.18447
蕃	-9.18492
天順	-9.18778
都指揮	-9.18894
邉	-9.18911
樓	-9.18928
儲	-9.18937
司馬光	-9.19042
自是	-9.19091
當時	-9.19098
二子	-9.19135
悦	-9.19373
甘	-9.19376
吴	-9.19442
寄	-9.19464
桓公	-9.19537
不與	-9.19562
齊楚	-9.19774
錦衣衛	-9.19788
花	-9.19794
併	-9.1983
飾	-9.19841
寜	-9.19857
虛	-9.19877
也夫	-9.20088
諸矦	-9.20111
羽	-9.20337
必不	-9.20726
必有	-9.21019
盧	-9.21163
角	-9.21187
正德	-9.21403
専	-9.21622
淵	-9.21623
絳	-9.21689
中外	-9.21714
巡	-9.21951
足下	-9.22057
不復	-9.22207
而無	-9.22263
其地	-9.22365
霸	-9.22432
戮	-9.22474
䕶	-9.22493
托	-9.2252
談	-9.22523
昭王	-9.22561
第一	-9.22676
囘	-9.22883
緩	-9.22886
旅	-9.22945
遜	-9.22955
俞	-9.22996
户部尚書	-9.23037
世襲	-9.23214
臣之	-9.23267
啓	-9.23293
亦不	-9.23371
局	-9.23394
舉人	-9.23433
段	-9.23438
以其	-9.23514
福建	-9.23549
曰君	-9.23565
以上	-9.23744
不當	-9.23803
貨	-9.23842
子曰	-9.23864
式	-9.24055
人由	-9.24114
四川	-9.24147
挾	-9.24264
毎	-9.24264
夢	-9.24321
拉	-9.24353
太原	-9.24424
宰	-9.24611
佛	-9.2473
僕	-9.24741
喻	-9.24786
總督	-9.24842
雲南	-9.24942
短	-9.2514
恤	-9.25194
勘	-9.25237
之上	-9.25411
提	-9.25453
男	-9.25631
刻	-9.25664
逹	-9.25669
於天下	-9.25745
十九年	-9.25917
夕	-9.25995
完	-9.26059
嬰	-9.26062
綱	-9.26069
弓	-9.26082
繫	-9.26097
血	-9.26102
案	-9.26125
誣	-9.26139
泉	-9.26139
歳	-9.26167
由是	-9.26281
偏	-9.26489
故也	-9.26595
七月	-9.26955
躬	-9.26984
軫	-9.27025
編	-9.2707
溥	-9.2712
之辭	-9.27417
三晉	-9.27465
歟	-9.27469
泣	-9.27489
輿	-9.27499
掩	-9.27537
史作	-9.27609
不同	-9.27869
三司	-9.27905
下同	-9.27918
燕趙	-9.27954
露	-9.27957
軾	-9.27986
輒	-9.27993
二十二年	-9.28015
公叔	-9.28054
仁宗	-9.28131
級	-9.28178
誓	-9.28265
人主	-9.28386
粟	-9.28396
傾	-9.28462
翰林學士	-9.28483
操	-9.28492
員外郎	-9.28524
江南	-9.28575
又言	-9.28698
故事	-9.287
曰朕	-9.28708
罰	-9.28817
西周	-9.28873
賔	-9.28908
浮	-9.28941
池	-9.2902
有功	-9.29119
導	-9.29342
芳	-9.29357
種	-9.2941
事秦	-9.29449
奈何	-9.29496
孟子	-9.29591
公主	-9.29716
奢	-9.29843
究	-9.29849
是時	-9.29867
抵	-9.30045
頓	-9.3032
上下	-9.30365
塲	-9.30377
賛	-9.30384
宜陽	-9.30397
二十三年	-9.30609
鑑	-9.3072
誘	-9.30791
殆	-9.30809
徵	-9.3084
諸路	-9.30846
冒	-9.30869
亦有	-9.30881
買	-9.30884
○	-9.30894
筆	-9.30947
普	-9.31185
項	-9.31323
香	-9.31325
諸將	-9.31325
覽	-9.31361
莫不	-9.31597
恵	-9.31652
四方	-9.3177
珪	-9.31775
募	-9.3178
歌	-9.31802
虜	-9.31803
只	-9.31857
聖人	-9.31868
縣人	-9.32193
珍	-9.32256
集韻	-9.32332
於趙	-9.32406
臣請	-9.32412
韋	-9.32674
十月	-9.32717
之兵	-9.32721
都督僉事	-9.32881
侈	-9.32918
太子太傅	-9.32966
三十年	-9.33155
寸	-9.33241
姬	-9.33344
閒	-9.33391
十一	-9.33566
父子	-9.33702
斗	-9.33744
奮	-9.33773
𤣥	-9.33861
二千	-9.33893
不從	-9.33921
皇太后	-9.33928
明日	-9.33995
於魏	-9.34089
智伯	-9.34229
不用	-9.3431
魏徴	-9.34363
宣徳	-9.3445
人心	-9.34721
不足以	-9.34736
崔	-9.34778
昨	-9.34784
縁	-9.3479
准	-9.34791
屠	-9.34814
津	-9.34838
罕	-9.34844
人皆	-9.34994
有差	-9.35147
該	-9.35231
隠	-9.3528
奚	-9.35282
側	-9.35288
效	-9.3529
茶	-9.35297
旗	-9.3537
遊	-9.35737
履	-9.35782
乏	-9.3581
廬	-9.35845
百官	-9.35873
五千	-9.35892
前後	-9.35993
東周	-9.36202
十六	-9.3622
太傅	-9.36245
環	-9.36292
厭	-9.36313
崩	-9.36316
齒	-9.36349
此時	-9.36472
長子	-9.36578
之義	-9.36596
旋	-9.36751
舞	-9.36809
薩	-9.36812
百餘	-9.36826
輸	-9.36843
不若	-9.36852
璧	-9.36894
故曰	-9.36938
十萬	-9.36974
陳軫	-9.36996
行之	-9.37176
之際	-9.37254
矣今	-9.37294
鄂	-9.37311
汪	-9.37326
榖	-9.37332
隙	-9.37351
潘	-9.37367
超	-9.37406
太皇太后	-9.37426
左都督	-9.37739
不合	-9.37801
彌	-9.37843
秉	-9.37915
杖	-9.3792
二國	-9.382
十八	-9.38338
不欲	-9.38383
弇山堂别集卷	-9.38464
斤	-9.38751
俾	-9.38857
肉	-9.3888
拘	-9.38903
偃	-9.38921
欽定四庫全書	-9.38933
掠	-9.39376
劒	-9.3943
淺	-9.39433
桑	-9.39453
輩	-9.39476
鄒	-9.39484
先王	-9.39492
穀	-9.39549
甞	-9.39873
誥	-9.39899
睢	-9.39939
慰	-9.39943
静	-9.39945
二十一年	-9.40085
以待	-9.40126
其罪	-9.40156
死者	-9.40219
僧	-9.40463
薛公	-9.40477
蒙	-9.40532
袁	-9.40558
補音古	-9.40861
它	-9.41009
節度使	-9.41011
畨	-9.41045
徽	-9.41053
狐	-9.41055
冝	-9.41076
盈	-9.4108
補音上	-9.41082
刀	-9.41457
既而	-9.41482
大事	-9.41497
驅	-9.41518
丗	-9.41528
貶	-9.41613
工部尚書	-9.41648
其國	-9.41709
琦	-9.41921
収	-9.42073
禽	-9.42117
刼	-9.4213
錯	-9.42135
狀元	-9.42301
自今	-9.42419
臣竊	-9.42441
何如	-9.42452
百户	-9.4254
太子少保	-9.42595
賚	-9.4263
黙	-9.4269
工部	-9.42724
内外	-9.428
許之	-9.42969
訛	-9.4297
當作	-9.42972
孔子	-9.43137
哭	-9.43161
瑞	-9.43226
元帥	-9.43386
十三	-9.43421
元昊	-9.43664
右俱	-9.43682
席	-9.43742
批	-9.43753
臣聞	-9.43855
元祐	-9.43901
太保	-9.43945
紵絲	-9.44216
荒	-9.44246
樹	-9.44264
恥	-9.44294
幼	-9.44296
采	-9.44323
謫	-9.44335
注同	-9.44343
都察院	-9.44344
者不	-9.44418
其餘	-9.445
麟	-9.44808
趙魏	-9.44839
配	-9.44861
産	-9.44871
釐	-9.44893
辦	-9.44896
澄	-9.44916
隆慶	-9.45008
其人	-9.45038
十疋	-9.45076
三日	-9.45088
攻魏	-9.45301
大國	-9.45381
得其	-9.45389
勁	-9.45403
儉	-9.45414
骨	-9.45424
十四	-9.45429
榜	-9.45433
十九	-9.45459
之臣	-9.45601
楚之	-9.45784
哲	-9.45923
十七	-9.4614
平章	-9.46338
貧	-9.46511
恨	-9.46517
鐵	-9.46564
貌	-9.46573
父母	-9.4665
渡	-9.46863
苑	-9.47016
撃	-9.47039
靡	-9.47165
不至	-9.47325
武王	-9.4761
叙	-9.4764
曰我	-9.47641
占	-9.47651
踐	-9.47676
閏	-9.47716
育	-9.47719
淫	-9.47756
之役	-9.47809
是日	-9.47836
割地	-9.47842
百里	-9.48012
鬼	-9.48236
築	-9.48406
判官	-9.4854
宗廟	-9.48702
鳳	-9.48803
翰	-9.48845
淳	-9.48846
歡	-9.48872
哩	-9.48877
明年	-9.4899
如是	-9.49145
嵗次	-9.49257
政事	-9.49275
查	-9.49401
鳴	-9.49408
徑	-9.49433
謬	-9.49433
賴	-9.49455
銜	-9.49464
文王	-9.49601
牙	-9.49955
貳	-9.50015
都督同知	-9.50037
不肯	-9.5004
之所以	-9.50109
建文	-9.50198
不見	-9.5032
宅	-9.50505
帝王	-9.50548
痛	-9.50644
武英殿大學士	-9.50721
蘭	-9.50811
尉	-9.50854
秦必	-9.50959
詢	-9.51158
舒	-9.5122
柔	-9.51222
二十八年	-9.51446
㕘	-9.51454
上疏	-9.51562
辛	-9.51598
一員	-9.51636
不善	-9.51676
壯	-9.51713
紫	-9.51764
提督	-9.51834
曰善	-9.52013
利害	-9.52181
曰王	-9.52204
駐	-9.52291
拱	-9.52295
厥	-9.52321
陷	-9.52322
堡	-9.52329
迪	-9.5234
寢	-9.52361
練	-9.52364
松	-9.52365
盜	-9.5241
昇	-9.52412
文公	-9.52772
雖有	-9.52872
麗	-9.52908
戚	-9.52915
二字	-9.52937
赫	-9.52976
正義云	-9.53002
庻	-9.53009
鳥	-9.5303
然而	-9.53073
鐘	-9.53129
後同	-9.53195
世子	-9.53222
遁	-9.53415
綏	-9.53537
睦	-9.53557
鮮	-9.53613
聘	-9.53624
總兵官	-9.53708
今按	-9.53847
祠	-9.54171
冀	-9.54176
何不	-9.54242
謗	-9.5425
濮	-9.54266
懋	-9.54275
豈可	-9.54342
爾等	-9.5443
等處	-9.54677
堪	-9.54698
無子	-9.54719
舎	-9.5473
周君	-9.54781
上言	-9.54794
犬	-9.54808
邵	-9.54847
未可	-9.54889
垣	-9.54901
台吉	-9.54922
之衆	-9.55048
通判	-9.55133
數十	-9.55306
下文	-9.55358
沒	-9.55393
曰夫	-9.55412
銘	-9.55429
賓	-9.55527
一品	-9.5553
而去	-9.55571
姓名	-9.55608
先王之	-9.55624
之日	-9.55639
士卒	-9.55702
三萬	-9.55782
江陵	-9.55893
敕	-9.55966
狂	-9.55976
進封	-9.56018
停	-9.56033
觧	-9.5604
傑	-9.56045
託	-9.56071
不出	-9.56088
上黨	-9.56223
都御史	-9.56224
孟嘗君	-9.56228
幽	-9.56424
井	-9.56648
採	-9.56653
徧	-9.56692
秦楚	-9.56694
不可以	-9.56696
與齊	-9.56713
内官	-9.56726
無不	-9.56736
童	-9.56757
熊	-9.56784
奉陽君	-9.56789
三代	-9.56866
確	-9.56949
毒	-9.57199
紅	-9.57213
巧	-9.57283
驗	-9.57295
耕	-9.57306
價	-9.57333
牟	-9.57382
㐮	-9.57388
文字	-9.57554
應侯	-9.57564
為一	-9.5757
丈	-9.57596
出兵	-9.57775
自古	-9.57797
隊	-9.57846
而死	-9.57872
倚	-9.57933
四百	-9.57943
閒住	-9.57972
不可不	-9.58027
沐	-9.58078
胥	-9.58247
彪	-9.58335
諫官	-9.58356
肯	-9.58511
薨壽	-9.58526
㓕	-9.58562
疲	-9.58562
受命	-9.58572
也且	-9.58583
不行	-9.58727
之難	-9.58827
髙祖	-9.5892
鎮守	-9.5912
矜	-9.59194
屏	-9.59225
荀	-9.59239
忍	-9.59482
五國	-9.59531
兆	-9.59595
順天	-9.59598
守備	-9.59608
惇	-9.5975
盗	-9.59774
忿	-9.59801
雷	-9.59803
醫	-9.59865
抗	-9.59868
百五十	-9.59873
園	-9.59896
王安石	-9.60163
不相	-9.60181
鋭	-9.60476
沮	-9.6049
仲淹	-9.60511
葛	-9.60524
曰子	-9.60529
距	-9.60541
不信	-9.60672
世宗	-9.60898
同知	-9.60967
㡬	-9.60989
補曰史	-9.61099
宥	-9.61118
祚	-9.61119
竄	-9.61144
搆	-9.61148
創	-9.61155
斉	-9.61173
溪	-9.61196
增	-9.61196
啟	-9.61265
伐之	-9.61356
秦攻	-9.61363
至于	-9.61447
取之	-9.61505
㑹試	-9.6157
腹	-9.61697
指揮使	-9.61699
偶	-9.61786
叅	-9.61797
台	-9.61807
迹	-9.61807
天順元年	-9.61828
整	-9.61849
濫	-9.61856
渭	-9.6187
朋	-9.61875
下獄	-9.61922
樞密院	-9.61977
九十	-9.62032
文臣	-9.62059
輔臣	-9.62228
三品	-9.62303
之名	-9.62399
佞	-9.62422
嫌	-9.62456
宏	-9.62474
蔣	-9.62507
偉	-9.62528
韶	-9.62538
之禮	-9.62558
凖	-9.63096
尼	-9.63103
主事	-9.63106
憚	-9.63136
莒	-9.6319
鉞	-9.63197
没	-9.63199
赧王	-9.63459
昏	-9.63724
廣東	-9.63734
牒	-9.63739
災	-9.63754
閲	-9.63796
激	-9.63806
彊	-9.63827
斌	-9.63887
場	-9.63918
監察御史	-9.63919
其心	-9.64158
人君	-9.6418
其名	-9.64225
是故	-9.64367
禧	-9.64427
入朝	-9.64436
功封	-9.64454
潰	-9.64462
屋	-9.64473
祝	-9.64539
巡撫	-9.64572
陰	-9.6458
綿	-9.64649
使臣	-9.64691
之君	-9.65005
所言	-9.6506
鼻	-9.65129
徹	-9.6515
汾	-9.65184
藝	-9.65202
与	-9.65206
第三	-9.65228
不肖	-9.65394
諸州	-9.65546
數百	-9.65556
束	-9.65805
根	-9.65814
綸	-9.6582
譽	-9.65821
齊魏	-9.65826
恪	-9.65847
雪	-9.65878
矯	-9.65895
大小	-9.65914
戾	-9.65917
刑部尚書	-9.65933
四年任	-9.65951
史記	-9.6613
無功	-9.66212
二十九年	-9.6623
一作	-9.66259
彰	-9.66512
讒	-9.66559
姜	-9.66561
翠	-9.66569
有餘	-9.6659
而有	-9.66623
獸	-9.6664
髙注	-9.66669
此䇿	-9.66672
斬首	-9.66772
以兵	-9.66837
冉	-9.66862
反又	-9.66985
右都督	-9.67016
鳯	-9.6708
誨	-9.6719
璽	-9.67198
攻秦	-9.67199
閉	-9.67225
亷	-9.67229
状	-9.67238
堯舜	-9.67255
閭	-9.67266
之禍	-9.67267
賄	-9.67279
不聞	-9.6737
等官	-9.67417
郤	-9.67429
無以	-9.67444
不通	-9.67577
第二	-9.67653
周最	-9.67666
事也	-9.67742
四人	-9.67764
不必	-9.67801
韻	-9.67834
船	-9.67869
悟	-9.6792
仗	-9.67921
訖	-9.67922
凌	-9.67945
柄	-9.67963
祁	-9.67978
仙	-9.6799
匿	-9.68
侍講	-9.68002
轉運使	-9.68095
之說	-9.68116
以示	-9.68341
臯	-9.68418
昔者	-9.68423
其君	-9.68495
畜	-9.68583
阻	-9.68614
排	-9.68636
歎	-9.68687
銅	-9.68731
安邑	-9.68813
鎮撫	-9.68823
以告	-9.6883
不以	-9.68946
而不能	-9.68966
其家	-9.68979
右都御史	-9.69091
㣲	-9.69277
若此	-9.69291
諒	-9.69304
契	-9.69316
況	-9.69325
之初	-9.69327
黒	-9.69329
竹	-9.69347
瓊	-9.6937
文綺	-9.6942
矦	-9.69428
涉	-9.69437
起居	-9.69476
魏之	-9.69505
丁憂	-9.69552
曰臣聞	-9.69577
二十五	-9.69717
士大夫	-9.69827
中丞	-9.69878
上以	-9.69906
不便	-9.69963
而攻	-9.70007
可也	-9.70032
塔	-9.70038
㓜	-9.70059
狼	-9.70083
攝	-9.70099
錄	-9.70104
協	-9.70111
宛	-9.70114
東宫	-9.70143
御史中丞	-9.70188
再拜	-9.70206
如何	-9.70287
入秦	-9.70291
又有	-9.70293
瑪	-9.70565
救之	-9.70612
八百	-9.70621
廵	-9.70706
新城	-9.7071
宣德	-9.70726
樞宻	-9.70737
愍	-9.70783
壬辰	-9.7079
逢	-9.70849
又曰	-9.70962
皆有	-9.70976
國事	-9.71145
大怒	-9.71172
柱國	-9.71342
大金	-9.71446
庶人	-9.71465
翊	-9.71519
圭	-9.71527
黄金	-9.71532
課	-9.71558
韓琦	-9.71583
官吏	-9.71607
之外	-9.71618
觀之	-9.71655
幾瑟	-9.71683
大軍	-9.71705
有此	-9.71934
閔王	-9.71982
聰	-9.72057
得罪	-9.72065
以備	-9.72075
鑒	-9.72168
少卿	-9.72205
豈不	-9.72232
内臣	-9.72273
攷	-9.72282
瞻	-9.72305
軍民	-9.72614
鹿	-9.72885
戈	-9.72914
敖	-9.7296
人臣	-9.7312
欒	-9.73234
此事	-9.73243
伐秦	-9.7325
州刺史	-9.73299
仁義	-9.73455
周府	-9.73658
橋	-9.73659
訴	-9.73702
𨽻	-9.73708
匠	-9.73745
尾	-9.73811
見之	-9.73815
兵馬	-9.73911
大將軍	-9.74036
遼東	-9.74047
說見	-9.74116
皇太子	-9.74198
己未	-9.74218
者亦	-9.74231
冊	-9.74328
未詳	-9.74336
測	-9.74404
壘	-9.74408
帳	-9.7442
一旦	-9.74456
褒	-9.7446
又以	-9.74462
囚	-9.74465
不可得	-9.74487
藍	-9.7451
上書	-9.7456
鐸	-9.74571
州人由進士	-9.74632
陽人	-9.74787
實録	-9.74794
為民	-9.74796
之利	-9.74873
姚同	-9.74977
相國	-9.75003
稷	-9.75126
衮	-9.75184
遭	-9.75187
昧	-9.75192
塗	-9.7521
出於	-9.75228
緣	-9.75232
睿	-9.75243
孚	-9.75244
壊	-9.75252
鵬	-9.7527
譏	-9.75288
威王	-9.75327
縉	-9.75385
司空	-9.75401
文忠	-9.75439
周禮	-9.75599
綵	-9.75772
皆以	-9.75793
也若	-9.75834
出身	-9.75899
芻	-9.75899
㸃	-9.75927
午	-9.75945
憤	-9.75947
未能	-9.75963
羙	-9.75963
枝	-9.76002
者非	-9.76069
遣人	-9.76172
樊	-9.76184
姚本	-9.76217
軍士	-9.76431
萬人	-9.7646
二品	-9.76492
而行	-9.76625
蕩	-9.7665
溝	-9.7666
四海	-9.76672
以自	-9.76742
凶	-9.7679
展	-9.76827
伏望	-9.76963
民之	-9.77038
戸	-9.77055
未知	-9.77216
不受	-9.77254
所在	-9.77257
斡	-9.77473
兮	-9.77487
浩	-9.77498
祈	-9.77534
誦	-9.77545
議者	-9.7755
敝邑	-9.77641
鑄	-9.77669
虢	-9.77721
諾	-9.77775
㕘政	-9.7779
先朝	-9.77845
五品	-9.77864
數千	-9.77936
廣西	-9.78149
包	-9.7821
銳	-9.78215
恒	-9.78228
邀	-9.78239
秀	-9.78253
䘮	-9.78267
遲	-9.78274
總兵	-9.78333
俱嘉	-9.78347
提舉	-9.78461
矣然	-9.78528
河間	-9.78723
二萬	-9.78891
之民	-9.78934
柱	-9.78952
願陛下	-9.78957
詰	-9.79005
忠臣	-9.79044
添	-9.79065
古之	-9.79074
懲	-9.79088
文子	-9.79095
大同	-9.79106
攻楚	-9.79593
使之	-9.79703
本作	-9.79708
住	-9.79719
三省	-9.79748
撥	-9.79812
文皇	-9.79831
嫁	-9.79832
鈞	-9.79837
慢	-9.79841
怠	-9.79855
抱	-9.79864
訥	-9.7992
摩	-9.79936
而欲	-9.80072
所欲	-9.80271
之情	-9.80372
官員	-9.80434
攻之	-9.80552
祗	-9.80572
禪	-9.80579
驛	-9.80626
齎	-9.80626
敦	-9.80633
扎	-9.80674
乙丑	-9.80678
焦	-9.80694
五年任	-9.8071
修撰	-9.80803
無事	-9.80881
成功	-9.8095
東西	-9.81011
則是	-9.81239
晦	-9.81394
括	-9.81396
慕	-9.81423
苟	-9.8145
其實	-9.8145
灾	-9.81479
懇	-9.81494
門下	-9.81495
君曰	-9.81496
壇	-9.81547
為王	-9.81581
三子	-9.81721
若不	-9.81767
如故	-9.81853
僚	-9.81965
舊制	-9.82077
舍人	-9.82128
警	-9.82192
途	-9.82213
犀	-9.8222
快	-9.82237
貽	-9.82237
大梁	-9.8225
墓	-9.82265
奴	-9.8227
知制誥	-9.82275
悖	-9.82307
績	-9.82325
秦而	-9.82392
先君	-9.82401
一年	-9.82411
言者	-9.8257
之説	-9.82624
周公	-9.8268
僉	-9.82703
三公	-9.82784
洪武三年	-9.82824
者必	-9.82862
至今	-9.82954
従	-9.82967
一子	-9.83011
雎	-9.8305
熙	-9.83056
姪	-9.83076
於韓	-9.83183
脱	-9.83206
其間	-9.83247
春申君	-9.83326
國初	-9.83582
都指揮使	-9.83771
償	-9.83828
晚	-9.83833
城中	-9.83867
閱	-9.839
憎	-9.83902
謨	-9.83909
坊	-9.83924
絲	-9.83936
數日	-9.84064
齊秦	-9.8407
乙未	-9.84196
二十四	-9.84243
始皇	-9.84579
羌	-9.84581
襄子	-9.84595
節度	-9.84624
押	-9.84666
而歸	-9.84674
伐楚	-9.847
税	-9.84721
諸王	-9.84728
人等	-9.84743
翁	-9.84743
勵	-9.84751
邢	-9.84761
樞宻院	-9.84776
侍讀	-9.84846
甲辰	-9.84884
或作	-9.85029
皆不	-9.85235
入閣	-9.85312
漢中	-9.85402
簡王	-9.85426
百萬	-9.85497
之謀	-9.8552
㓂	-9.85531
驥	-9.85541
鞅	-9.85626
而得	-9.85689
國子監	-9.85756
六年任	-9.86042
此書	-9.86055
喇嘛	-9.86233
以成	-9.86322
滋	-9.86358
豹	-9.86384
㝷	-9.86385
麻	-9.86395
晏	-9.86413
編修	-9.86538
元豐	-9.86708
辛未	-9.86733
不忍	-9.86738
詔書	-9.8676
之力	-9.86815
乙	-9.86855
淮南	-9.86965
懐王	-9.87034
千餘	-9.87115
曰陛下	-9.87167
潛	-9.87187
疎	-9.87218
特穆爾	-9.87251
鬻	-9.87256
岱	-9.87262
且夫	-9.87268
二年任右	-9.8736
豈有	-9.8751
軍務	-9.87595
生靈	-9.87673
平原	-9.87674
與楚	-9.87722
也又	-9.87732
惠公	-9.8774
于是	-9.87929
互	-9.87957
獵	-9.8804
寫	-9.88042
不免	-9.88044
斂	-9.88057
大兵	-9.88058
勾	-9.88078
輕重	-9.88079
愧	-9.88082
駭	-9.88086
彈	-9.88106
濬	-9.88108
朴	-9.88136
穰侯	-9.88239
秦兵	-9.88267
虞卿	-9.88425
世家	-9.88443
知州	-9.88561
今君	-9.88565
傳曰	-9.88621
郡王	-9.88738
應天	-9.88847
氏之	-9.88855
㫁	-9.88867
輙	-9.88873
廉	-9.8889
暇	-9.88894
臂	-9.88928
釁	-9.88928
丁未	-9.88935
夾	-9.88957
匡	-9.88958
伐趙	-9.88958
潤	-9.89049
行事	-9.89069
古今	-9.89134
萬世	-9.89263
也然	-9.89288
上謂	-9.89305
之交	-9.89321
子弟	-9.89581
其父	-9.89608
軍中	-9.89625
看	-9.89743
轍	-9.89753
虧	-9.89772
篤	-9.89791
酌	-9.89817
幹	-9.89817
丙辰	-9.89821
鴻	-9.8983
擊之	-9.89853
漳	-9.89869
已而	-9.89874
諤	-9.89896
亦可	-9.89908
奇	-9.89922
待之	-9.89938
伐魏	-9.89957
西北	-9.90005
庶子	-9.90012
未任	-9.90067
侍御史	-9.90118
有一	-9.90211
不利	-9.90222
特進	-9.90262
賢者	-9.90361
歸附	-9.90364
晉陽	-9.90386
知縣	-9.90418
此章	-9.9047
代之	-9.90581
出入	-9.90604
覩	-9.90623
本部	-9.9065
渠	-9.90653
貸	-9.90668
佩	-9.90675
翰林院學士	-9.90705
補音直	-9.90719
丙戌	-9.90748
二十六年	-9.90806
可乎	-9.91007
城下	-9.91087
之美	-9.91142
攻宋	-9.91304
也補曰	-9.91366
臣恐	-9.91435
洛陽	-9.91519
巨	-9.9152
勃	-9.91539
消	-9.91556
壤	-9.91575
楚魏	-9.9159
植	-9.91597
續	-9.91616
各一	-9.91655
隘	-9.91673
戰於	-9.91783
合從	-9.91789
金帛	-9.91827
二十五年	-9.91846
軍馬	-9.91925
不報	-9.92047
者乎	-9.9205
令尹	-9.92155
其母	-9.92197
數萬	-9.92253
知府	-9.92309
其身	-9.92311
簿	-9.92352
玄	-9.92363
粮	-9.92378
健	-9.92397
詆	-9.92427
赤	-9.92435
捷	-9.92468
肥	-9.92472
牢	-9.92478
沁	-9.92485
噲	-9.92499
戊戌	-9.92504
奎	-9.92513
五人	-9.92517
旌	-9.92527
冕	-9.9253
函	-9.92532
舉兵	-9.92657
僖王	-9.92804
二十七年	-9.9281
縣令	-9.92864
詹	-9.93054
則無	-9.93116
親王	-9.93162
九年任	-9.93208
踈	-9.93282
副將軍	-9.9332
未必	-9.93369
五日	-9.93375
炳	-9.9348
錦衣	-9.93643
法司	-9.93643
齊人	-9.937
文學	-9.93809
西南	-9.93823
而下	-9.93866
一切	-9.93927
諸軍	-9.93942
浙	-9.93947
言臣	-9.93984
萬餘	-9.94108
突	-9.94168
欲得	-9.94191
繁	-9.94204
跡	-9.94225
秘	-9.94233
賫	-9.9425
輪	-9.9427
二年任	-9.94293
饒	-9.94305
三川	-9.94464
公孫衍	-9.94477
之賢	-9.94533
得之	-9.94837
彦博	-9.94945
紂	-9.95086
社	-9.95105
膳	-9.95116
盤	-9.95151
旁	-9.95173
敷	-9.95184
郝	-9.95204
猛	-9.95221
跪	-9.95232
綬	-9.95236
趣	-9.95275
王祐	-9.95338
卿等	-9.95351
以後	-9.95361
輝	-9.95382
真宗	-9.95542
趙氏	-9.95619
安能	-9.95646
已上	-9.95762
為君	-9.95779
以禮	-9.95967
弑	-9.95977
趙之	-9.95982
之盛	-9.95995
可得	-9.96063
隻	-9.96068
競	-9.96078
反今按	-9.96082
亦無	-9.96098
雖然	-9.96364
子也	-9.96472
用事	-9.96482
以事	-9.96631
年表	-9.96787
又云	-9.9681
之數	-9.9686
豈非	-9.96979
依舊	-9.96998
曰不可	-9.97011
彛	-9.97036
忤	-9.97053
耿	-9.97057
胄	-9.97062
亢	-9.97065
說文	-9.97073
怪	-9.97081
减	-9.97086
庚戌	-9.97089
北平	-9.97093
旨	-9.97096
輅	-9.97124
潁	-9.97132
廕	-9.97174
李兊	-9.97198
不成	-9.97239
於外	-9.97265
王珪	-9.97393
司徒	-9.97413
則不	-9.97495
古者	-9.97536
令人	-9.97872
軍前	-9.97883
暮	-9.97993
豪	-9.97996
額森	-9.98002
替	-9.98018
亊	-9.98019
安石曰	-9.98062
群臣	-9.98128
對曰臣	-9.98198
咨	-9.98209
不忘	-9.98487
臣也	-9.98528
終身	-9.98532
太史	-9.98684
金銀	-9.98761
織金	-9.98833
之患	-9.98885
泄	-9.98904
丕	-9.98911
鎬	-9.98916
畿	-9.98919
旬	-9.98924
玩	-9.98932
恣	-9.9894
鬬	-9.98949
鞏	-9.98982
瑛	-9.98982
糾	-9.98989
戰勝	-9.98994
餉	-9.98999
雞	-9.99015
飭	-9.99019
陕西	-9.99026
墮	-9.99035
必以	-9.991
為人	-9.99126
在外	-9.99148
大敗	-9.99158
王師	-9.99226
北征	-9.99296
數年	-9.99341
莫如	-9.99353
平原君	-9.99418
必無	-9.99512
可見	-9.99605
在京	-9.99638
之重	-9.99721
之勢	-9.99818
之徒	-9.99908
軰	-9.99915
軒	-9.99922
奬	-9.99938
癸未	-9.99944
卓	-9.9995
囊	-9.99956
齋	-9.9997
滯	-9.99978
紛	-9.99994
含	-10.0001
蘇軾	-10.0003
平聲	-10.0019
中書省	-10.002
書曰	-10.0021
熈	-10.0034
承㫖	-10.0037
嶺	-10.0041
按史	-10.0056
從事	-10.0062
那	-10.0067
冗	-10.0075
域	-10.0077
不聴	-10.0084
億	-10.0087
纂	-10.0088
翔	-10.0088
髙麗	-10.0089
曰公	-10.009
諾延	-10.0091
嘆	-10.0092
經筵	-10.0095
晟	-10.0096
以求	-10.0099
立為	-10.0102
十餘	-10.0102
不應	-10.0103
不義	-10.0107
補曰姚云	-10.011
無過	-10.0114
相魏	-10.0114
武臣	-10.0116
其不	-10.0116
於國	-10.0122
姚云	-10.0123
右丞	-10.0129
僉事	-10.0135
本朝	-10.014
萬貫	-10.0145
十餘年	-10.0151
待制	-10.0154
安王	-10.0154
欵	-10.0173
壁	-10.0185
飢	-10.0185
嫡	-10.0186
洞	-10.0187
則有	-10.0187
把	-10.0187
樓緩	-10.0192
頌	-10.0193
戊辰	-10.0194
榆	-10.0194
丁丑	-10.0195
無忌	-10.0197
近臣	-10.0198
秦魏	-10.0233
如此則	-10.0236
七百	-10.0248
綺	-10.0256
甲子	-10.0257
後語	-10.0259
所得	-10.026
三十五年	-10.0262
䖏	-10.0273
荆州	-10.0274
罔	-10.0277
箭	-10.028
弔	-10.0282
起兵	-10.0282
披	-10.0283
與魏	-10.0284
虐	-10.0285
伺	-10.0285
洎	-10.0285
薊	-10.0286
裏	-10.0286
饑	-10.0286
荅	-10.0288
鉉	-10.0289
融	-10.029
幕	-10.0292
詠	-10.0295
不取	-10.0307
莫若	-10.0311
王厚	-10.0318
其民	-10.0328
請以	-10.0328
二十四年	-10.0336
此皆	-10.0343
曰卿	-10.0356
四十年	-10.0359
所部	-10.0366
曰寡人	-10.0369
七日	-10.037
為大	-10.0373
唐制	-10.0374
長安	-10.0375
寘	-10.0379
冲	-10.038
宸	-10.0382
製	-10.0383
宦	-10.0384
本無	-10.0385
辛丑	-10.0389
四國	-10.0389
脫	-10.039
庶吉士	-10.0395
筠	-10.0395
之制	-10.0408
甚矣	-10.041
伐宋	-10.0416
之内	-10.0424
參政	-10.044
臣願	-10.044
四品	-10.0447
曰諾	-10.0451
安得	-10.0451
百六十	-10.0459
鋒	-10.0461
至此	-10.0464
未至	-10.0474
酋	-10.0476
劍	-10.0477
摯	-10.048
件	-10.0481
衝	-10.0481
歩	-10.0482
戲	-10.0484
燭	-10.0484
𥘉	-10.0484
華陽	-10.0485
租	-10.0488
弘	-10.0488
壬戌	-10.049
譚	-10.0495
廖	-10.0498
舅	-10.05
見前正徳	-10.0501
浦	-10.0501
者多	-10.0505
丙子	-10.0508
蔡確	-10.0513
楚國	-10.0518
見其	-10.0531
都監	-10.0538
事者	-10.0554
魏冉	-10.0554
功臣	-10.0561
與國	-10.0564
中軍	-10.0568
為秦	-10.0568
不顧	-10.057
皇子	-10.0576
以少傅	-10.0581
溺	-10.0582
徹辰	-10.0584
遠	-10.0585
窺	-10.0586
之憂	-10.0586
莊王	-10.0586
較	-10.0587
探	-10.0587
数	-10.0588
撓	-10.059
補曰姚	-10.0593
銓	-10.0594
邸	-10.0594
庚辰	-10.0596
二十萬	-10.0598
宗室	-10.0612
甲申	-10.0617
鄉試	-10.0624
第十	-10.0635
傳有	-10.0643
河内	-10.0647
此下	-10.0651
而立	-10.0668
俘	-10.0682
不下	-10.0685
指揮僉事	-10.0687
恱	-10.0688
攘	-10.0689
擁	-10.069
甲戌	-10.0696
佑	-10.0696
觸	-10.0696
夏四月	-10.0702
田單	-10.0706
地也	-10.0708
婦人	-10.0721
患之	-10.0722
有㫖	-10.0725
於君	-10.0733
不盡	-10.0735
其意	-10.0736
以致	-10.0768
三年任	-10.0782
荷	-10.0784
大王之	-10.0788
之中	-10.079
人情	-10.0792
貝	-10.0792
或有	-10.0793
漏	-10.0794
武安君	-10.0796
醜	-10.0797
紙	-10.0799
逵	-10.0799
軌	-10.0802
潞	-10.0804
栁	-10.0805
左都御史	-10.0816
由此	-10.0819
䕃	-10.082
之弊	-10.0828
往往	-10.0832
韓氏	-10.0837
為天下	-10.0841
曰秦	-10.0855
直言	-10.0859
東南	-10.0865
之道也	-10.0876
奏事	-10.0888
逼	-10.0891
措	-10.0891
拯	-10.0894
倦	-10.0894
萊	-10.0894
明矣	-10.0898
邇	-10.0899
眷	-10.09
誼	-10.0901
牌	-10.0902
内侍	-10.0904
自知	-10.0904
吿	-10.0906
泗	-10.0907
册	-10.0908
岐	-10.0909
古人	-10.0915
無考	-10.0918
上章	-10.0931
章惇	-10.0934
平王	-10.0936
五代	-10.0939
惡之	-10.0948
將以	-10.0953
六千	-10.0956
曰汝	-10.0969
宫中	-10.0975
他日	-10.0983
未見	-10.0983
無罪	-10.0984
是嵗	-10.0988
隴	-10.0995
紗羅	-10.0996
通鑑	-10.0997
有罪	-10.0997
荘	-10.1004
贈封	-10.1004
疇	-10.1005
琮	-10.1007
弩	-10.1008
子元年	-10.1009
癸丑	-10.1009
渉	-10.1009
懸	-10.101
頭目	-10.1012
取其	-10.1012
懽	-10.1013
寓	-10.1013
范仲淹	-10.1015
涼	-10.1016
禎	-10.1016
訟	-10.1016
雙	-10.1017
劉摯	-10.1023
呂	-10.1024
戊子	-10.1024
綵幣	-10.1027
是非	-10.1046
伐韓	-10.1064
或謂	-10.1066
平章事	-10.1085
相去	-10.1097
聊	-10.1099
甚衆	-10.11
文帝	-10.1102
需	-10.111
孟甞君	-10.1111
札	-10.1114
裂	-10.1115
喬	-10.1116
磨	-10.1116
裔	-10.1117
狗	-10.1118
三十一年	-10.1118
痤	-10.1119
裴	-10.112
䕫	-10.1121
岸	-10.1121
謹身殿大學士	-10.1123
璟	-10.1124
六百	-10.1125
手詔	-10.113
黍	-10.1131
敵人	-10.1141
深入	-10.1156
加兼	-10.1157
十三年任	-10.1164
䝉古	-10.1168
越王	-10.1168
武帝	-10.1169
侍中	-10.1185
棄之	-10.1211
得失	-10.1212
潜	-10.1214
牽	-10.122
卧	-10.122
頤	-10.1223
什	-10.1226
頒	-10.1226
反覆	-10.1226
輦	-10.1226
㦸	-10.1227
濠	-10.1228
範	-10.1229
茅	-10.1229
己丑	-10.1231
長史	-10.1232
柴	-10.1234
坤	-10.124
而能	-10.1245
涇陽	-10.1246
寧王	-10.125
百疋	-10.1252
此則	-10.1263
學者	-10.1266
行人	-10.1269
其衆	-10.1276
定王	-10.1278
事君	-10.1287
不在	-10.1294
宰臣	-10.1301
之術	-10.1306
𥙷曰一本	-10.1318
言事	-10.133
乖	-10.133
丙寅	-10.133
肇	-10.1333
妖	-10.1333
孽	-10.1335
饋	-10.1335
瀚	-10.1336
滑	-10.1338
都察院左都御史	-10.1338
伸	-10.1338
矣而	-10.134
太尉	-10.1341
洲	-10.1341
之主	-10.1349
六品	-10.1365
張子	-10.1365
文彦博	-10.1365
而出	-10.1368
復有	-10.1391
贈太子少保	-10.14
之師	-10.1402
則必	-10.1405
安南	-10.1424
號令	-10.1427
壬午	-10.1435
晉國	-10.1437
嗟	-10.1438
前日	-10.1438
刺史	-10.1439
暗	-10.144
靳	-10.1441
麥	-10.1442
衷	-10.1444
械	-10.1444
之下	-10.1445
挺	-10.1446
校尉	-10.1446
飬	-10.1446
恢	-10.1449
朋黨	-10.1451
等各	-10.1451
明王世貞撰	-10.1452
饗	-10.1452
柰何	-10.1453
敎	-10.1458
詹事	-10.1461
進呈	-10.1467
上表	-10.1476
凡十	-10.1479
觀其	-10.1486
冬十月	-10.1487
曰昔	-10.1495
顯王	-10.1507
太常	-10.1524
死而	-10.1526
旱	-10.1548
汴	-10.1553
弛	-10.1554
妙	-10.1556
臧	-10.1556
膺	-10.1559
輟	-10.1561
霍	-10.1563
戰國䇿	-10.1564
禮部左侍郎	-10.1565
卞	-10.1565
謚	-10.1566
賞罰	-10.157
日月	-10.1571
索隱云	-10.1572
太常卿	-10.1573
十年任右	-10.1575
討之	-10.1582
富貴	-10.1594
其說	-10.1596
庚子	-10.16
並同	-10.16
是為	-10.1609
之甚	-10.1616
攻韓	-10.1629
國史	-10.1646
進退	-10.1653
國除	-10.1658
青苗	-10.1659
俯	-10.1664
䧟	-10.1666
飯	-10.1666
逰	-10.1667
妨	-10.1667
鈐轄	-10.1669
倡	-10.1669
碩	-10.167
讐	-10.167
迫	-10.167
儆	-10.1671
棘	-10.1671
驟	-10.1672
勑	-10.1674
己巳	-10.1675
羞	-10.1676
舎人	-10.1677
丙午	-10.1678
吕公著	-10.1678
公卿	-10.1679
所有	-10.1686
奏曰	-10.169
之𩔖	-10.1701
入見	-10.1701
上意	-10.1706
其時	-10.1706
汝南	-10.1707
謂齊王	-10.1707
洪武中	-10.1708
翰林院	-10.171
成王	-10.1712
劉瑾	-10.1719
及其	-10.1721
王安	-10.1734
可不	-10.1735
襄公	-10.1737
之國也	-10.1739
王曰善	-10.174
為左	-10.1744
上音	-10.1746
失其	-10.1749
道路	-10.1762
南北	-10.1767
而復	-10.1772
隆慶元年	-10.1777
梧	-10.1781
詭	-10.1784
靖王	-10.1788
尸	-10.1789
播	-10.1789
謂魏王曰	-10.1792
廸	-10.1794
潭	-10.1794
鎰	-10.1795
濁	-10.1796
參知政事	-10.1797
歐陽	-10.1797
昆	-10.1797
不知何許人	-10.1798
將帥	-10.1798
南京兵部尚書	-10.1798
在此	-10.1808
鄢陵	-10.1808
将軍	-10.181
於前	-10.1811
相與	-10.1813
汗之	-10.1815
朝夕	-10.182
門外	-10.1826
州軍	-10.1837
曰不如	-10.184
王載	-10.1847
博士	-10.1855
安撫	-10.1856
諸科	-10.1867
玄齡	-10.1885
揚州	-10.1895
洽	-10.1897
蒼	-10.1897
凢	-10.1897
於朝	-10.1899
孰與	-10.19
值	-10.1901
薨壽五十	-10.1901
贖	-10.1902
捐	-10.1902
寅	-10.1904
像	-10.1904
舛	-10.1904
右副都御史	-10.1905
滕	-10.1906
沂	-10.1906
混	-10.1906
於上	-10.1907
黔	-10.191
車駕	-10.1913
經義	-10.1916
務要	-10.1919
田忌	-10.193
王子	-10.1946
妻子	-10.1949
所為	-10.1965
開封	-10.197
王曰寡人	-10.1975
布衣	-10.1998
六人	-10.2004
厮	-10.2008
勣	-10.2009
織	-10.2013
矣夫	-10.2013
治之	-10.2015
戰國	-10.2016
上命	-10.2016
凱	-10.2019
庇	-10.202
塵	-10.2024
闔	-10.2024
殁	-10.2025
瓉	-10.2026
壬子	-10.2037
無窮	-10.2045
十餘萬	-10.2064
臣僚	-10.2068
得㫖	-10.2069
民間	-10.2074
推官	-10.2077
一事	-10.2083
京城	-10.2086
按此	-10.2091
神宗	-10.2093
之類	-10.2099
何為	-10.21
敗之	-10.2102
為國	-10.2109
詩云	-10.2122
逐之	-10.2122
去之	-10.2124
寇	-10.2128
嵩	-10.2131
考之	-10.2131
不得已	-10.2133
返	-10.2136
糴	-10.2137
稅	-10.2138
樞	-10.2138
問之	-10.214
偕	-10.214
苗	-10.2141
鞫	-10.2144
潔	-10.2147
壞	-10.2147
殖	-10.2152
大防	-10.2155
曰請	-10.2162
新序	-10.217
奏請	-10.2179
不易	-10.218
百貫	-10.2194
王公	-10.2206
更不	-10.2209
西京	-10.2215
萬一	-10.2226
亡國	-10.2239
正義	-10.2247
字通	-10.2248
何所	-10.225
竇	-10.2251
桀	-10.2255
脅	-10.2257
沔	-10.2257
壓	-10.2258
纔	-10.2259
翦	-10.2259
巖	-10.226
帖	-10.2261
辛巳	-10.2263
頼	-10.2264
隷	-10.2267
常平	-10.2273
濟農	-10.2276
詩賦	-10.2281
之世	-10.2285
臣下	-10.2294
伐燕	-10.2299
國主	-10.23
由薦舉	-10.2315
郡縣	-10.2316
不明	-10.2316
見前萬厯	-10.2323
豈得	-10.2323
真定	-10.2326
生子	-10.2336
皇上	-10.2338
三十萬	-10.2342
東北	-10.2348
諸國	-10.2351
以少保	-10.2367
遥	-10.2368
五萬	-10.237
悍	-10.2375
簾	-10.2375
袍	-10.2376
掖	-10.2377
騰	-10.238
蹈	-10.238
鶴	-10.2385
壬申	-10.2386
教之	-10.2386
蠲	-10.2386
往來	-10.2386
綰	-10.2386
晋	-10.239
諫議大夫	-10.2391
髙帝	-10.2392
總管	-10.2392
郷	-10.2392
右丞相	-10.2402
宣府	-10.2415
齊趙	-10.2419
長沙	-10.2421
安陵	-10.2436
而又	-10.2439
不宜	-10.2452
進加	-10.2457
其功	-10.2462
誤也	-10.2486
陘	-10.2491
艱	-10.2492
左傳	-10.2494
炎	-10.2496
蟒	-10.2496
賁	-10.2497
護	-10.2498
艾	-10.2499
棟	-10.2502
佳	-10.2503
不失	-10.2505
譬	-10.2506
洙	-10.2507
靖郭君	-10.2509
二員	-10.2509
論語	-10.2512
愚謂	-10.2514
祭酒	-10.2522
儼	-10.2522
中書舍人	-10.2522
無可	-10.2536
日夜	-10.2539
王不如	-10.2551
開封府	-10.2554
復以	-10.2555
多矣	-10.2557
内使	-10.256
康王	-10.2561
先後	-10.2576
遣之	-10.2577
之女	-10.2583
而還	-10.2594
涇	-10.2606
謂楚王曰	-10.261
百人	-10.2619
般	-10.262
之屬	-10.2624
不自	-10.2624
乙亥	-10.2624
晩	-10.2625
區	-10.2626
巡檢	-10.2628
楚人	-10.2629
歿	-10.2629
瑄	-10.2632
析	-10.2632
僻	-10.2633
魁	-10.2633
行也	-10.2633
味	-10.2634
墜	-10.2636
岷	-10.2638
㳺	-10.2638
吕大防	-10.2639
舌	-10.264
綵段	-10.264
以報	-10.2641
無道	-10.2641
久之	-10.2648
英宗	-10.265
左丞	-10.2654
成都	-10.2656
乆矣	-10.2664
是年	-10.2672
洪武元年	-10.2677
三軍	-10.2678
李公	-10.2679
字訛	-10.2681
問曰	-10.2682
相繼	-10.2688
王者	-10.2696
之語	-10.2702
監司	-10.2704
公著	-10.2715
因而	-10.2717
司禮監	-10.273
不識	-10.273
奉天	-10.2734
覲	-10.2742
捨	-10.2744
四夷	-10.2745
叢	-10.2746
潮	-10.2746
欣	-10.2751
囬	-10.2751
一二	-10.2751
誕	-10.2753
耆	-10.2753
箕	-10.2754
踵	-10.2754
壅	-10.2756
繕	-10.2757
歛	-10.2758
算	-10.276
不待	-10.2764
來朝	-10.2764
補音於	-10.2765
吏部左侍郎	-10.2774
繼遷	-10.2778
豈能	-10.278
願大王	-10.2785
後志	-10.2786
爲之	-10.2795
耳目	-10.2797
右正言	-10.2797
民力	-10.28
八年任	-10.2806
留之	-10.2807
趙䇿	-10.2815
小國	-10.2821
太宰	-10.2836
左侍郎	-10.2843
第四	-10.2843
滬	-10.2844
不容	-10.2852
詳定	-10.2853
下音	-10.2855
俶	-10.2858
補曰姚本	-10.2863
河外	-10.2863
陪	-10.2872
紗	-10.2872
倒	-10.2875
欲伐	-10.2877
瓦	-10.2878
制置	-10.2881
財用	-10.2881
欠	-10.2882
漕	-10.2882
吞	-10.2883
伴	-10.2883
髪	-10.2884
肩	-10.2884
拾	-10.2884
語曰	-10.2885
必欲	-10.2886
㒺	-10.2887
不忠	-10.2891
庚申	-10.2891
昻	-10.2893
宮	-10.2894
巫	-10.2896
在前	-10.2897
於是乎	-10.29
奸邪	-10.2902
見前係	-10.2904
之恩	-10.2904
平陽	-10.2915
之志	-10.2916
代府	-10.2924
以来	-10.293
夷簡	-10.2932
强秦	-10.2936
又何	-10.294
庚	-10.2948
十人	-10.2949
重耳	-10.2953
等言	-10.2953
州郡	-10.2959
與我	-10.296
十五年任	-10.2977
聖明	-10.298
上䟽	-10.2983
臨安	-10.2992
徇	-10.3002
納之	-10.3003
湏	-10.3003
法度	-10.3004
椘	-10.3005
煬帝	-10.3006
俄	-10.301
覇	-10.301
訐	-10.3014
鸞	-10.3014
沉	-10.3016
𦵏	-10.3017
叱	-10.3017
灌	-10.3017
景鯉	-10.3017
陋	-10.3019
巢	-10.3019
沛	-10.302
匱	-10.302
告之	-10.3021
関	-10.3021
旗軍	-10.3023
愆	-10.3023
殽	-10.3025
不暇	-10.3031
之言也	-10.3032
司禮監太監	-10.3045
史館	-10.3056
於内	-10.3062
至京	-10.3078
交割	-10.3079
赧	-10.3086
前代	-10.3116
補曰此	-10.3119
未聞	-10.3129
涇原	-10.3131
舊音	-10.3131
突厥	-10.3131
促	-10.3136
迷	-10.3136
媾	-10.3141
暨	-10.3143
邁	-10.3143
蘓	-10.3144
爰	-10.3144
年任掌院事	-10.3144
燒	-10.3145
壬寅	-10.3145
旻	-10.3146
鉅	-10.3146
明主	-10.3148
偷	-10.315
髙宗	-10.315
扞	-10.3152
乙酉	-10.3153
檢討	-10.3155
甲午	-10.3156
生事	-10.3156
頓首	-10.316
宣撫	-10.3169
恭王	-10.3171
發兵	-10.3173
雖欲	-10.3183
補音丁	-10.3187
正曰此	-10.3191
即日	-10.3208
兩國	-10.3208
非所以	-10.3227
二公	-10.3234
北京	-10.3242
圖之	-10.3252
詩曰	-10.3261
墳	-10.3269
三十三	-10.3272
刃	-10.3273
鄢	-10.3274
丁亥	-10.3274
耻	-10.3275
愽	-10.3276
若是	-10.3277
隔	-10.3278
靜	-10.3279
椒	-10.3279
碑	-10.3279
齡	-10.3281
鄜延	-10.3283
鏜	-10.3283
己亥	-10.3283
蓄	-10.3283
妬	-10.3284
癸酉	-10.3285
槩	-10.3288
今後	-10.329
畔	-10.3299
侯贈	-10.33
兼翰林院學士	-10.3304
錦衣衞	-10.3306
少監	-10.3313
不問	-10.3314
左侍	-10.333
者何也	-10.3334
似道	-10.3342
數人	-10.3343
福晉	-10.3358
十一年任右	-10.3363
十日	-10.3364
二十六	-10.3365
二十八	-10.339
南郡	-10.3392
久矣	-10.3393
詔令	-10.3395
職事	-10.34
太宗謂侍臣曰	-10.3401
隂陽	-10.3404
罵	-10.3408
䖍	-10.3408
侮	-10.3409
辛亥	-10.341
縮	-10.341
鄆	-10.3412
無子除	-10.3413
兾	-10.3414
交阯	-10.3416
蚤	-10.3416
浸	-10.3417
拂	-10.3417
釋之	-10.342
喀	-10.342
轅	-10.3421
仍舊	-10.3422
駙馬都尉	-10.3423
張孟談	-10.3426
留守	-10.343
將來	-10.3436
不知其	-10.3442
各處	-10.3444
太子太師	-10.3452
千二百	-10.3452
僉都御史	-10.3459
嘉靖中	-10.3471
其説	-10.3476
毋得	-10.3478
太宗謂	-10.348
懿王	-10.3497
賢良	-10.35
前去	-10.3506
將士	-10.3507
太公	-10.3511
之論	-10.3515
議論	-10.3517
副都	-10.3519
之戰	-10.3531
無益	-10.3536
想	-10.3536
旄	-10.3539
浪	-10.3543
蛇	-10.3545
逋	-10.3547
百户所鎮撫	-10.3548
渝	-10.3548
䜛	-10.355
千户衛鎮撫	-10.355
嬖	-10.3554
丁酉	-10.3558
建信君	-10.3563
賔客	-10.3568
先卒	-10.3574
十一年任	-10.358
二十九	-10.3582
秦也	-10.3583
莫敢	-10.3588
不止	-10.3594
特賜	-10.3596
加太子太保	-10.3596
三疋	-10.3598
聖㫖	-10.3602
而弗	-10.3618
宣諭	-10.3621
寧夏	-10.3648
臺諫	-10.3657
其弟	-10.3662
扈	-10.3663
禁中	-10.3668
萬里	-10.3675
㢘	-10.3677
猷	-10.3681
觴	-10.3682
遐	-10.3686
柳	-10.3687
筭	-10.3688
蹇	-10.3688
諍	-10.3688
躍	-10.369
汲	-10.3691
衣一襲	-10.3691
辛酉	-10.3692
閻	-10.3693
遞	-10.3693
江乙	-10.3695
崇政殿	-10.3696
頴	-10.3696
説文	-10.3697
莽	-10.3697
紳	-10.3698
簽	-10.37
楚趙	-10.3703
子榮	-10.3706
未甞	-10.3722
守禦	-10.3729
無他	-10.3736
四十一年	-10.3737
安平	-10.3739
前來	-10.3752
魏氏	-10.3753
千餘人	-10.3755
經典	-10.3755
不允	-10.3762
文淵閣大學士	-10.3764
晉府	-10.3764
而止	-10.3769
大抵	-10.3775
亦非	-10.3798
哨	-10.3803
戶	-10.3806
十八年任	-10.3809
轉運	-10.3815
太守	-10.3817
泊	-10.3819
證	-10.3821
控	-10.3825
握	-10.3825
己酉	-10.3826
曩	-10.3828
薪	-10.383
曠	-10.383
憐	-10.3831
珉	-10.3834
翌日	-10.3835
芮	-10.3837
牛羊	-10.3838
貟	-10.3838
荆軻	-10.3838
庶幾	-10.3839
蘇轍	-10.384
牲	-10.384
眉	-10.3842
純仁	-10.385
一級	-10.385
年三十	-10.3851
又謂	-10.3852
都統	-10.3857
中官	-10.3862
當從	-10.3871
其妻	-10.3875
十四年任右	-10.3882
四子	-10.3884
平江	-10.3887
徐公	-10.3893
恭順	-10.3895
公不如	-10.3895
父兄	-10.3902
以少師	-10.3905
賜之	-10.3905
第二子	-10.3908
當是	-10.3914
大功	-10.3915
州府	-10.3917
憲宗	-10.3925
三十六年	-10.3926
稱之	-10.3927
永興	-10.393
乃止	-10.393
何故	-10.3956
忠信	-10.3956
呈	-10.3958
十餘人	-10.3958
王曰善乃	-10.3963
唱	-10.3966
未及	-10.3966
在魯	-10.3966
厰	-10.3967
鄴	-10.3968
揮	-10.3968
左右曰	-10.3969
懈	-10.397
從容	-10.3972
合格	-10.3973
逞	-10.3973
太常少卿	-10.3976
戊午	-10.3977
諷	-10.3979
圉	-10.3981
繆	-10.3981
寕	-10.3982
樗里疾	-10.3985
富弼	-10.3989
慶厯	-10.3992
漢書	-10.3994
標	-10.4015
恵王	-10.4015
縣人由進士	-10.4027
補曰大事記	-10.4028
靖難	-10.4041
第三子	-10.4045
府庫	-10.4056
甲兵	-10.4061
主父	-10.4061
四十五年	-10.4067
之職	-10.4076
國朝	-10.4091
旦反	-10.4097
兢	-10.4106
昊	-10.4107
緘	-10.4109
悲	-10.411
障	-10.4114
是月	-10.4115
忱	-10.4115
吳王	-10.4116
繡	-10.4116
聶政	-10.4117
行省	-10.4119
煜	-10.4119
随	-10.4119
漠	-10.4119
鬭	-10.412
遍	-10.412
譴	-10.4121
叚	-10.4121
乎王曰	-10.4121
覈	-10.4123
波	-10.4123
丙申	-10.4124
不救	-10.4124
蔑	-10.4124
梗	-10.4124
寃	-10.4125
秋七月	-10.4127
濓	-10.4127
燾	-10.4128
而退	-10.4129
由進士五年任右	-10.4129
鼔	-10.4129
湘	-10.4129
戸部	-10.4132
謂秦王曰	-10.4134
飲食	-10.4137
三十二年	-10.4142
冊封	-10.4143
嗣薨夀	-10.4144
四十四年	-10.4144
劄子	-10.4149
海内	-10.4159
為首	-10.4171
御史大夫	-10.4171
渡江	-10.4172
所稱	-10.4177
必危	-10.4195
尤為	-10.4196
所載	-10.4196
侍從	-10.4206
夫差	-10.4208
入冦	-10.4209
不疑	-10.4209
遣官	-10.421
節制	-10.4214
夫子	-10.423
中尉	-10.4234
穆王	-10.4243
東平	-10.4246
善惡	-10.4246
㢤	-10.4253
斛	-10.4256
欲攻	-10.4257
隅	-10.4258
甸	-10.4258
暫	-10.426
網	-10.4263
嚕	-10.4265
監生	-10.4265
朗	-10.4265
凝	-10.4266
環慶	-10.4266
溢	-10.4267
庚午	-10.4268
叟	-10.4268
狡	-10.427
鋪	-10.4271
繩	-10.4273
宗社	-10.4273
主應天試	-10.4274
春正月	-10.428
夏人	-10.4285
谿	-10.4286
丁巳	-10.4289
不韋	-10.4301
成臯	-10.4305
襄陽	-10.4316
司農	-10.4327
尚書省	-10.4328
七千	-10.4338
讀書	-10.4352
燕齊	-10.4358
青州	-10.4358
其勢	-10.4369
不避	-10.4375
文華	-10.4386
致書	-10.4396
生民	-10.44
緫	-10.4404
昭奚恤	-10.4408
座	-10.441
靣	-10.4411
打	-10.4411
郵	-10.4412
股	-10.4412
太常寺	-10.4412
春申	-10.4413
百二十	-10.4414
鞭	-10.4414
吐	-10.4416
賈似道	-10.4417
范純仁	-10.4421
范雎	-10.4425
贈太子太保	-10.4436
邊事	-10.444
見前𢎞治	-10.444
汪直	-10.4442
未幾	-10.4451
御史臺	-10.4454
末年	-10.4488
成化中	-10.4489
市易	-10.45
講讀	-10.4502
數月	-10.4507
臣之所	-10.4509
小旗	-10.4525
本路	-10.4535
今年	-10.4536
大破	-10.4549
巴圖爾	-10.4552
畋	-10.4558
填	-10.4558
眼	-10.4559
數十萬	-10.456
五百里	-10.4561
景泰三年	-10.4563
窘	-10.4563
迄	-10.4565
暉	-10.4566
潁川	-10.4568
補音所	-10.4569
枉	-10.4569
兵部左侍郎	-10.457
娶	-10.4572
乳	-10.4574
底	-10.4577
㕔	-10.4577
延州	-10.4578
蘄	-10.4578
囿	-10.4579
淑	-10.4582
風俗	-10.4584
昉	-10.4587
管仲	-10.4593
徐州	-10.4596
永樂元年	-10.4598
首領	-10.4599
景隆	-10.4602
㕘議	-10.4606
主簿	-10.4607
不載	-10.4612
率兵	-10.4625
免役	-10.464
十表裏	-10.4642
太學	-10.4647
明堂	-10.4653
四十二年	-10.4659
三十六	-10.4681
國語	-10.4685
凡四	-10.469
杭	-10.47
逺近	-10.4706
抽	-10.4711
傍	-10.4711
耗	-10.4713
禆	-10.4713
謀臣	-10.4714
聼	-10.4714
贍	-10.4714
汶	-10.4718
奭	-10.4718
蔵	-10.4719
攻燕	-10.4719
倪	-10.4721
醉	-10.4721
鯉	-10.4721
廩	-10.4722
衙門	-10.4722
觀察使	-10.4722
辜	-10.4723
衢	-10.4723
餌	-10.4724
戊寅	-10.4724
字誤	-10.4724
弭	-10.4726
歐陽修	-10.4731
廊	-10.4732
禱	-10.4732
琴	-10.4734
彪謂此	-10.4742
不堪	-10.4744
十五年任右	-10.4766
女真	-10.4769
商君	-10.4769
即墨	-10.4771
宗伯	-10.4774
莊子	-10.4774
中原	-10.4783
赴闕	-10.4788
未嘗不	-10.4814
山川	-10.4815
所宜	-10.4818
群	-10.4832
未盡	-10.4835
陛	-10.4851
王何不	-10.4852
七年任	-10.4861
惟陛下	-10.4861
興師	-10.4864
這	-10.4865
祿一千石	-10.4869
亳	-10.487
緒	-10.4871
哈屯	-10.4871
庠	-10.4871
夭	-10.4872
沿	-10.4872
惶	-10.4873
毫	-10.4873
壮	-10.4876
準	-10.4876
未得	-10.4876
貂	-10.4879
峻	-10.4879
婚	-10.488
凉	-10.488
大都督府	-10.488
措置	-10.4882
梅	-10.4884
蹙	-10.4885
鼐	-10.4885
贄	-10.4885
熈寧	-10.4887
三年任右	-10.4901
安危	-10.4902
立功	-10.4902
勅諭	-10.4903
聊城	-10.4903
馬陵	-10.4913
無患	-10.4914
元帥府	-10.4917
兼任	-10.4922
七品	-10.4926
魏䇿	-10.4929
教授	-10.4937
獻子	-10.4967
二十一	-10.5001
處置	-10.5006
奉御	-10.5011
初名	-10.5015
苛	-10.5022
你	-10.5026
璞	-10.5026
禀	-10.5026
舘	-10.5027
屍	-10.5027
穴	-10.5029
矛	-10.5031
活	-10.5033
叶	-10.5036
貴州	-10.5037
文信侯	-10.5037
揆	-10.5038
沃	-10.5038
殉	-10.5039
玊	-10.504
桃	-10.5041
遏	-10.5042
鑿	-10.5043
太子太保兵部尚書	-10.5043
洗	-10.5044
頥	-10.5044
戸部尚書	-10.5045
龜	-10.5045
抃	-10.5046
監軍	-10.5059
未㡬	-10.5059
科塲	-10.5061
四疋	-10.5065
安平君	-10.5066
問罪	-10.5068
萬五千	-10.5068
淮北	-10.5074
陣亡	-10.5074
掌院	-10.5077
萬安	-10.5085
夏國	-10.5088
保甲	-10.5091
一月	-10.5091
楊公	-10.5093
哀侯	-10.5093
所司	-10.5095
十九年任	-10.5108
廷和	-10.5109
強秦	-10.5115
上怒	-10.5118
三司使	-10.5143
出師	-10.5146
補音乃	-10.5164
取士	-10.5179
二十二	-10.5179
誠意	-10.5182
涕	-10.5186
其情	-10.5186
嗚呼	-10.5186
芒	-10.5186
陟	-10.5187
無敢	-10.5187
等物	-10.5191
鞠	-10.5192
倘	-10.5194
人才	-10.5195
村	-10.5195
薨壽六十	-10.5196
鴈	-10.5198
果莊	-10.5199
捍	-10.5203
公孫郝	-10.5206
反下同	-10.5208
布政使	-10.5209
鐡	-10.5211
二十七	-10.5211
朱光庭	-10.5212
摰	-10.5212
戊申	-10.5217
差役	-10.5236
都給事中	-10.5239
南郊	-10.5258
次子	-10.5261
宣子	-10.5282
嗣君	-10.5293
太子太保吏部尚書	-10.5294
文敏	-10.5299
鞍	-10.5319
之利也	-10.5322
南面	-10.5329
陜	-10.5351
挫	-10.5357
𣙜	-10.5358
大理寺	-10.5358
渾	-10.5359
滁	-10.536
庚寅	-10.536
晨	-10.5362
售	-10.5362
穣侯	-10.5363
仍令	-10.5363
酬	-10.5368
索隠云	-10.537
按察使	-10.5372
楊廷和	-10.5375
扈從	-10.5376
豕	-10.5379
徽廟	-10.5383
其黨	-10.5393
母弟	-10.5399
十六年任	-10.5399
九鼎	-10.5402
推恩	-10.541
廷試	-10.5415
親征	-10.5426
吏反	-10.5428
張永	-10.543
征伐	-10.5455
翰林院侍講	-10.5491
緑	-10.5508
婢	-10.5514
巷	-10.5515
誡	-10.5515
訊	-10.5517
嗜	-10.5518
景公	-10.5519
膝	-10.552
隣	-10.552
乂	-10.552
爽	-10.5521
穿	-10.5522
腰	-10.5522
檄	-10.5522
犒	-10.5522
堵	-10.5523
撒	-10.5525
耀	-10.5526
褐	-10.5526
錢塘	-10.5527
弦	-10.5527
盼	-10.5529
十六年任右	-10.553
緝	-10.5531
琳	-10.5536
盾	-10.5538
土地	-10.554
掲	-10.5543
贈少保	-10.5551
布二疋	-10.5557
韓珉	-10.5563
親戚	-10.5564
聰明	-10.5583
人由鄉舉	-10.5584
衆皆	-10.559
孝公	-10.5603
吕氏	-10.5608
明經	-10.5615
具奏	-10.562
義勇	-10.5622
近日	-10.563
惠卿	-10.5635
清河	-10.5642
二十三	-10.5655
鎮國將軍	-10.5658
傲	-10.5673
矩	-10.5682
簡子	-10.5685
坦	-10.5689
豆	-10.5689
鈔二百錠	-10.569
巾	-10.5693
構	-10.5695
驢	-10.5696
两	-10.5699
癸亥	-10.57
贓	-10.5703
僕射	-10.5704
叩	-10.5705
禮部侍郎	-10.5705
腹心	-10.5707
由進士四年任右	-10.5712
珝	-10.5716
田嬰	-10.5722
玉帶	-10.5723
龢	-10.5723
畧曰	-10.5724
此所謂	-10.5726
經畧	-10.5728
徐達	-10.5744
知貢舉	-10.5769
冠帶	-10.5774
職官	-10.5798
十一日	-10.5803
以為不可	-10.5818
所惡	-10.5822
千六百	-10.5833
貢舉	-10.584
鴆	-10.584
考官	-10.5846
湖南	-10.5847
未敢	-10.5848
禾	-10.5849
閤	-10.5851
黃	-10.5855
徼	-10.5855
姊	-10.5857
裝	-10.5858
兼太子太師	-10.586
刋	-10.5865
滄	-10.5867
繒	-10.5868
賑	-10.5869
癸巳	-10.587
膠	-10.587
范祖禹	-10.587
迨	-10.587
軻	-10.5871
鑾	-10.5873
丁夘	-10.5873
染	-10.5874
覿	-10.5874
羸	-10.5876
霖	-10.5878
冷	-10.5878
鉤	-10.5878
廂	-10.5884
景祐	-10.5887
梓	-10.5888
弟姪	-10.5893
禮義	-10.5897
閣門	-10.5901
詳内閣	-10.5903
此策	-10.5916
諸司	-10.5921
萬計	-10.5922
第五	-10.5924
保定	-10.5925
樂毅	-10.5927
湯和	-10.593
劾奏	-10.5934
本末	-10.5943
奉㫖	-10.5945
勇士	-10.5958
申生	-10.5975
制度	-10.598
北漢	-10.598
差官	-10.5981
劉向	-10.5983
敏中	-10.6004
劄	-10.6012
右侍郎	-10.602
衙	-10.6025
聦	-10.6028
孟嘗	-10.6032
胙	-10.6033
狩	-10.6034
㳂	-10.6035
寔	-10.6041
竦	-10.6041
縝	-10.6041
掃	-10.6042
逾	-10.6042
烝	-10.6044
餽	-10.6045
朽	-10.6045
濤	-10.6046
殿中侍御史	-10.6047
漆	-10.6047
淹	-10.6049
阮	-10.605
嚮	-10.605
笞	-10.605
蠧	-10.6051
𦙍	-10.6051
愷	-10.6052
漁	-10.6052
甥	-10.6057
部落	-10.6061
鄒忌	-10.6064
瀋府	-10.6064
開平	-10.6065
第五子	-10.607
機務	-10.6074
絹二疋	-10.608
良臣	-10.6097
豈敢	-10.6101
監丞	-10.6118
笑曰	-10.6119
次年	-10.6156
加太子少保	-10.6157
直學士	-10.6159
綿布	-10.6166
衣冠	-10.617
指揮同知	-10.62
殿下	-10.6205
匈奴	-10.6207
圻	-10.6208
頡	-10.6208
帷	-10.6211
蘓轍	-10.6214
差遣	-10.6215
晝	-10.6216
瑶	-10.6217
騷	-10.6218
截	-10.622
銷	-10.6221
冨	-10.6221
夙夜	-10.6223
恊	-10.6223
贏	-10.6224
戰國策	-10.6225
扼	-10.6225
宸濠	-10.6226
礪	-10.6227
僣	-10.6229
閤門	-10.623
鏊	-10.6231
璋	-10.6233
封建	-10.6234
殿前	-10.6234
滎	-10.6235
威武	-10.6236
龔	-10.6236
華蓋殿大學士	-10.6237
駁	-10.6239
少詹事	-10.624
南京吏部尚書	-10.624
叅政	-10.624
侍讀學士	-10.6248
運使	-10.6251
河陽	-10.6257
司禮	-10.628
分宜	-10.6287
元年任右	-10.6291
兩路	-10.6295
依前	-10.6306
弗聽	-10.6317
威福	-10.6321
劉氏	-10.6329
求救	-10.6334
加少保	-10.6343
天聖	-10.6344
何足	-10.6351
莫能	-10.6353
漢志	-10.6354
三十三年	-10.6355
晉大夫	-10.6356
大喜	-10.6364
救韓	-10.6367
發遣	-10.6377
臣愚	-10.6387
竝同	-10.639
斃	-10.639
辛夘	-10.6397
閼	-10.6398
悅	-10.64
友諒	-10.64
奉詔	-10.64
冩	-10.64
縛	-10.6402
四十五	-10.6403
嫉	-10.6404
萌	-10.6405
挈	-10.6405
佯	-10.6407
粗	-10.6407
淇	-10.6408
鄕	-10.6409
固辭	-10.6409
迂	-10.6409
綵幣二表裏	-10.641
谷大用	-10.641
雇	-10.641
寛樂令終	-10.6411
禮部右侍郎	-10.6415
通政司	-10.6415
䑓	-10.6417
咱	-10.6418
左氏	-10.6419
㑹稽	-10.6426
呡	-10.6427
宣宗	-10.6441
司馬喜	-10.6442
魯僖	-10.6443
總制	-10.6466
忠義	-10.6469
安陵君	-10.6476
京兆	-10.6478
率衆	-10.6496
江淮	-10.6498
髙皇帝	-10.6517
新法	-10.6518
禮樂	-10.6522
三十四年	-10.6528
出奔	-10.6536
城池	-10.6542
右僉都御史	-10.655
愛民	-10.6555
衛籍	-10.6569
股肱	-10.6573
冐	-10.6576
諒祚	-10.6579
洮	-10.6582
暑	-10.6583
梟	-10.6583
換	-10.6583
僭	-10.6584
由進士六年任右	-10.6587
籌	-10.6587
廪	-10.6587
衣服	-10.6588
阜	-10.6588
靈州	-10.6589
楷	-10.6589
裘	-10.6591
黑	-10.6591
釣	-10.6591
餓	-10.6592
旭	-10.6592
甲寅	-10.6593
楊一清	-10.6593
盇	-10.6595
疵	-10.6596
貯	-10.6596
剌	-10.6597
繳	-10.6598
夙	-10.6599
駟	-10.66
幽王	-10.6603
瑜	-10.6605
翰林院侍讀學士	-10.6607
邇英	-10.6608
陳留	-10.6609
春坊	-10.6611
姚賈	-10.6613
右僕射	-10.6615
淮安	-10.6618
石亨	-10.6618
經術	-10.6628
梁儲	-10.663
贈太保	-10.6646
七十餘	-10.6649
永樂二十二年	-10.6659
誓書	-10.6661
百七十	-10.6666
中式	-10.6679
奏乞	-10.6691
恐懼	-10.671
秦昭王	-10.6712
中允	-10.6723
示天下	-10.6742
做	-10.6756
捧	-10.6762
俠	-10.6765
愁	-10.6767
嬴	-10.6771
㳟	-10.6771
劵	-10.6772
蔚	-10.6773
閫	-10.6774
乙夘	-10.6776
稼	-10.6777
奠	-10.6778
龎	-10.6778
慙	-10.6779
挑	-10.678
稔	-10.678
茹	-10.678
君王后	-10.6781
便宜	-10.6781
譲	-10.6782
攜	-10.6783
辠	-10.6784
穰	-10.6784
冶	-10.6784
璠	-10.6785
李東陽	-10.679
張居正	-10.679
檢校	-10.6792
永樂八年	-10.6797
說苑	-10.6798
丗家	-10.6802
禄米	-10.6806
領兵	-10.6809
吉祥	-10.6813
同列	-10.6816
改元	-10.6826
亦如之	-10.6827
嗣薨夀四十	-10.6827
二千石	-10.6832
侍講學士	-10.6839
瑪哈	-10.6846
待罪	-10.6853
生員	-10.6859
典禮	-10.6903
黄河	-10.6918
都尉	-10.6919
蘭州	-10.6928
千五百石	-10.6928
戊	-10.6937
丙	-10.6939
交通	-10.6942
由進士二十	-10.695
話	-10.696
恬	-10.696
驍	-10.6963
劇	-10.6963
黷	-10.6964
圓	-10.6964
團	-10.6969
摇	-10.6969
別	-10.6969
輯	-10.697
斶	-10.697
箴	-10.697
寮	-10.6973
房玄齡	-10.6973
等廷試賜	-10.6974
哷	-10.6974
番	-10.6975
劉安世	-10.6976
焦芳	-10.6977
藺	-10.6978
浚	-10.6978
棗	-10.6979
隕	-10.698
訾	-10.6981
豎	-10.6981
煥	-10.6982
布政司	-10.6983
譯	-10.6984
履正志和	-10.6985
團營	-10.6987
屯田	-10.6993
和好	-10.7002
燕昭王	-10.7021
經歴	-10.7024
萬户	-10.704
趙普	-10.7056
可否	-10.7069
周室	-10.7074
子胥	-10.7079
七年任右	-10.7101
白起	-10.7113
北面	-10.7117
太子太保禮部尚書	-10.7121
諡文	-10.7133
賽	-10.715
亞	-10.7154
諜	-10.7155
綵幣表裏	-10.7156
江夏	-10.7158
声	-10.716
駝	-10.716
閑	-10.7163
州安置	-10.7164
纓	-10.7165
緋	-10.7165
馭	-10.7166
翰林院侍讀	-10.7166
枯	-10.7166
麾下	-10.7167
乙巳	-10.7167
篆	-10.7168
弄	-10.7168
劔	-10.7169
芝	-10.7169
催	-10.7169
諧	-10.717
逓	-10.7171
蕃部	-10.7171
涓	-10.7171
剪	-10.7171
鄢郢	-10.7172
闈	-10.7173
蟲	-10.7173
床	-10.7175
栢	-10.7175
副總兵	-10.7175
臨淄	-10.7175
正統十四年	-10.7176
總旗	-10.7177
荐	-10.7179
掛	-10.7181
藍田	-10.7185
秘閣	-10.719
爾雅	-10.7201
役法	-10.7203
鄉里	-10.721
軍節度使	-10.7211
莊宗	-10.7243
諡法	-10.7247
合於秦	-10.7264
伯爵	-10.7269
鎮守太監	-10.7313
解元	-10.7339
樞密	-10.735
遙	-10.7351
拿	-10.7352
儻	-10.7357
次第	-10.7357
嬪	-10.7361
扣	-10.7364
腸	-10.7365
匪	-10.7365
湛	-10.7365
亘	-10.7366
憾	-10.7366
閹	-10.7367
綵幣一表裏	-10.7367
酣	-10.7368
兎	-10.7369
囉	-10.7369
祇	-10.737
眩	-10.7371
瓚	-10.7371
為考試官取中	-10.7371
鏞	-10.7371
鈎	-10.7373
駮	-10.7373
膏	-10.7376
惕	-10.7377
梁燾	-10.7378
戌	-10.7379
許諾	-10.7383
宰執	-10.7384
杭州	-10.7384
磬	-10.7385
舉人才	-10.7386
四十八	-10.74
太子少傅	-10.7408
荆湖	-10.7414
伯嬰	-10.7421
建議	-10.7433
伏乞	-10.7439
幽州	-10.7448
孝陵	-10.7455
府知府	-10.7465
燕京	-10.7497
安陸	-10.7503
精兵	-10.7525
五百兩	-10.7526
萬物	-10.753
鏡	-10.7555
唐氏仲友曰	-10.7557
骨肉	-10.7562
騐	-10.7564
澶	-10.7565
僇	-10.7565
兠	-10.7566
吝	-10.7566
曷	-10.7566
摧	-10.7567
吕惠卿	-10.7567
閩	-10.7569
任讀學	-10.757
帽	-10.757
筵	-10.7571
門下侍郎	-10.7572
瑟	-10.7573
飽	-10.7573
慝	-10.7575
厨	-10.7575
洋	-10.7577
艱難	-10.7578
卦	-10.7579
殃	-10.7581
信陵君	-10.7582
大宋皇帝	-10.7583
壺	-10.7583
燧	-10.7583
蠻夷	-10.7585
甘肅	-10.7585
佚	-10.7588
吏部侍郎	-10.7591
瓘	-10.7592
靖難兵	-10.7593
男女	-10.7596
乞罷	-10.7605
遇春	-10.7609
宫室	-10.7611
戰不勝	-10.7613
兖州	-10.7618
㕘將	-10.7629
荆南	-10.7645
補音徒	-10.7656
侍衛	-10.7658
肖	-10.7704
右侍	-10.7749
都部署	-10.7758
縦	-10.7773
麒麟	-10.7774
𬒳	-10.7774
㩀	-10.7776
𤦺	-10.7776
頻	-10.7777
憑	-10.7777
瀛	-10.7777
抄	-10.7777
諳	-10.7778
錮	-10.7782
𨼆	-10.7783
幅	-10.7784
桀紂	-10.7785
鴻臚寺	-10.7788
嘉祐	-10.7791
左僕射	-10.7792
少師太子太師吏部尚書	-10.7793
弟兄	-10.7793
南京禮部尚書	-10.7793
紀綱	-10.7795
巴延	-10.7806
蔡澤	-10.7806
蔡京	-10.7809
順天府	-10.781
薦舉	-10.7814
直𨽻華亭人	-10.7819
覆試	-10.7823
此臣之所	-10.7827
樞密使	-10.7832
伏誅	-10.7835
最後	-10.7854
丈夫	-10.7859
考試	-10.786
地缺	-10.7867
鈔六十錠	-10.7868
儒士	-10.7874
當是時	-10.7878
上柱國	-10.7888
西戎	-10.7889
哈喇	-10.7926
衛指揮	-10.7969
曰吾聞	-10.7973
索隱	-10.7979
闢	-10.7984
无	-10.7985
第六子	-10.7986
狥	-10.7986
皷	-10.7987
狎	-10.7988
晁	-10.7988
覬	-10.799
温良好樂	-10.7992
㨗	-10.7992
淄	-10.7992
姒	-10.7993
墻	-10.7993
洪武初年	-10.7994
主順天試命	-10.7994
洪熈元年	-10.7995
罹	-10.7996
昆弟	-10.7999
板	-10.7999
謫戍	-10.8
文綺帛	-10.8001
任講學	-10.8001
淳于髠	-10.8002
奉聖㫖	-10.8003
偪	-10.8005
廿	-10.8005
髮	-10.8007
璉	-10.8007
申時行	-10.8007
中書侍郎	-10.8009
丒	-10.8011
祭祀	-10.8013
紹興	-10.8016
謂周君曰	-10.8017
太子少師	-10.8033
繼恩	-10.8048
師傅	-10.8093
堅守	-10.8107
竝	-10.8165
三十八	-10.8188
千斤	-10.8192
胸	-10.8196
州防禦使	-10.8199
沿邊	-10.8201
訓導	-10.8202
鈔五十錠	-10.8207
悛	-10.8207
懦	-10.8207
扇	-10.8208
洪武三十五年	-10.8209
䢉	-10.8211
枷	-10.8212
北漢主	-10.8212
程頤	-10.8213
貼	-10.8214
柯	-10.8214
檀	-10.8215
土伯特	-10.8216
煖	-10.8219
敘	-10.8219
綽	-10.8219
吹	-10.8219
鎧	-10.8219
都察院右副都御史	-10.822
光祿大夫	-10.822
翺	-10.822
鷹	-10.822
衛喇特	-10.8226
訕	-10.8227
左副都御史	-10.8227
仍兼任	-10.823
孺子	-10.8233
堯佐	-10.8236
根本	-10.824
劉健	-10.8246
貢院	-10.8251
三十七	-10.8254
萬緡	-10.8257
按通鑑	-10.8258
馬匹	-10.826
生擒	-10.8262
太廟	-10.8266
四十六	-10.8268
班師	-10.8285
咸平	-10.8287
便殿	-10.8295
涿州	-10.8302
保全	-10.8314
楊榮	-10.8316
屯兵	-10.8329
崑	-10.8393
掌詹事府	-10.8401
丑	-10.8413
頂	-10.8416
嘉靖元年	-10.8421
斧	-10.8424
顥	-10.8424
亥	-10.8424
袖	-10.8425
韜	-10.8425
瀆	-10.8428
雕	-10.8428
上尊號	-10.8429
聶	-10.8429
嗇	-10.8429
銑	-10.8429
藴	-10.843
慨	-10.8431
貲	-10.8432
苖	-10.8432
怯	-10.8434
馴	-10.8435
癸夘	-10.8435
右布政使	-10.8435
藻	-10.8435
擯	-10.8436
繹	-10.8436
都察院右都御史	-10.8438
瞽	-10.844
張方平	-10.8441
沆	-10.8441
甌	-10.8445
平章政事	-10.8446
琛	-10.8447
曲沃	-10.845
霜	-10.845
休息	-10.8454
東厰	-10.8456
商賈	-10.8458
陘山	-10.846
徐階	-10.8463
安撫使	-10.8464
勤勞	-10.8473
見前隆慶	-10.8476
布一疋	-10.848
互相	-10.8482
第四子	-10.8486
僧道	-10.8495
建昌	-10.8516
食邑	-10.8517
景帝	-10.852
皇考	-10.8522
千戸	-10.8557
築城	-10.8601
毗	-10.8637
狄青	-10.8642
枕	-10.8648
戯	-10.865
覘	-10.8654
譖	-10.8656
驪姬	-10.8657
販	-10.8658
織造	-10.8659
侔	-10.8659
仆	-10.866
版	-10.866
飲酒	-10.8661
太僕寺	-10.8661
水旱	-10.8662
評	-10.8664
譛	-10.8664
綵幣三表裏	-10.8665
首尾	-10.8666
宵	-10.8667
瑗	-10.8669
承乾	-10.867
總督軍務	-10.867
忻	-10.8672
敗績	-10.8672
郄	-10.8673
旂	-10.8673
㳙	-10.8673
槐	-10.8673
魯連	-10.8708
土木	-10.8715
教習	-10.8718
以禮書	-10.8721
貴妃	-10.8731
員外	-10.8734
叔父	-10.8743
緡	-10.8751
熈河	-10.8756
十斤	-10.8757
十八日	-10.8778
正曰大事記	-10.8819
鬱	-10.8871
𤼵	-10.888
尅	-10.888
璁	-10.8882
帑	-10.8882
僑	-10.8883
炭	-10.8886
太平治迹統𩔖卷	-10.8886
猝	-10.8887
兇	-10.8887
慧	-10.8887
靴	-10.8887
希範	-10.8888
愕	-10.8888
綵幣四表裏	-10.8889
團練	-10.889
遣中使	-10.8891
䘏	-10.8891
慟	-10.8892
渚	-10.8892
大中祥符	-10.8893
區區	-10.8894
常遇春	-10.8894
直𨽻長洲人	-10.8897
擲	-10.8898
浹	-10.8898
癸卯	-10.8898
燈	-10.8898
約束	-10.89
月十五日	-10.89
旺	-10.8901
媚	-10.8901
珤	-10.8902
兵部右侍郎	-10.8903
費宏	-10.8903
黔國公	-10.8908
麓川	-10.8909
總裁	-10.8913
隧	-10.8914
少保太子太保	-10.8917
都指揮同知	-10.8918
珠玉	-10.8919
建隆	-10.8931
繼隆	-10.8941
唐虞	-10.8945
贈太師	-10.8963
禍亂	-10.8965
涿	-10.902
部署	-10.9102
驪	-10.911
姚本作	-10.9113
辛垣衍	-10.9117
𤓰	-10.9119
猜	-10.9119
袒	-10.9122
拆	-10.9122
茲	-10.9122
顛	-10.9122
邠	-10.9124
努	-10.9125
庶㡬	-10.9126
碎	-10.9126
戢	-10.9126
塟	-10.9127
攸	-10.9128
寰	-10.9128
絹一疋	-10.913
渤海	-10.9131
諺	-10.9131
臻	-10.9131
珣	-10.9132
杲	-10.9134
妹	-10.9134
繋	-10.9134
檜	-10.9135
嫡長子	-10.9135
謄	-10.9136
傀	-10.9138
桐	-10.9138
滽	-10.9139
武英殿學	-10.9139
㡬瑟	-10.914
詘	-10.9141
洵	-10.9141
淳化	-10.9142
按察副使	-10.9144
嚴嵩	-10.9149
通政使	-10.915
館閣	-10.9151
中書門下	-10.9154
博羅特	-10.9154
本年轉左	-10.9156
太監張永	-10.9159
稽首	-10.9162
遁去	-10.9168
英國公	-10.9181
恭靖	-10.9201
改吏部	-10.9212
反下注	-10.9224
太子少保兵部尚書	-10.9277
禮部尚書文淵閣大學士	-10.9281
衛指揮使	-10.9293
幣帛	-10.9345
邕	-10.9346
個	-10.9353
嗣薨壽四十	-10.9354
戬	-10.9355
霄	-10.936
州居住	-10.9363
玘	-10.9366
蘓軾	-10.9368
鎛	-10.9368
畆	-10.9368
瑕	-10.9368
丁卯	-10.9368
讜	-10.9368
膚	-10.937
泥	-10.937
灼	-10.937
看詳	-10.9371
幄	-10.9371
巢穴	-10.9372
夔	-10.9372
狃	-10.9373
倖	-10.9374
矧	-10.9374
枚	-10.9375
漫	-10.9376
菜	-10.9377
耨	-10.9377
槖	-10.9378
國子生	-10.9379
潼	-10.938
隐	-10.938
琪	-10.9381
濵	-10.9381
田需	-10.9382
巴圖魯	-10.9382
萃	-10.9383
泛	-10.9385
遮	-10.9386
甄	-10.9386
楊士竒	-10.9388
月初一日	-10.9388
先鋒	-10.9389
任本年致仕	-10.939
景泰元年	-10.939
招討	-10.9393
熙寧	-10.9397
提學	-10.9411
恵卿	-10.9414
愚按太宗	-10.9421
財物	-10.9424
鳯陽	-10.9427
切責	-10.9432
英廟	-10.9436
嶺南	-10.949
奈	-10.9593
弋	-10.9603
聿	-10.9603
學士院	-10.9604
陂	-10.9615
穎	-10.9617
知諫院	-10.9617
駐蹕	-10.9618
揜	-10.9619
氷	-10.962
鈔百錠	-10.962
惰	-10.962
㨿	-10.9621
奉國將軍	-10.9621
堂上官	-10.9622
故有是命	-10.9622
岩	-10.9623
兊	-10.9623
鬪	-10.9623
騏	-10.9624
扁	-10.9624
着	-10.9625
棺	-10.9625
趾	-10.9625
蝗	-10.9625
朞	-10.9628
際	-10.963
両	-10.9631
黽	-10.9631
揖	-10.9631
譜	-10.9631
峒	-10.9632
雝	-10.9632
卵	-10.9634
鄖	-10.9637
酷	-10.9638
隰	-10.9639
竈	-10.9643
豉	-10.9858
麾	-10.986
譁	-10.9865
醴	-10.9867
拓	-10.9867
鋹	-10.9871
奄	-10.9871
珂	-10.9872
朂	-10.9872
参	-10.9872
刄	-10.9873
轂	-10.9874
䑕	-10.9875
犧	-10.9875
驩	-10.9876
瞿	-10.9876
劣	-10.9877
幟	-10.9878
覧	-10.9878
疊	-10.9878
瓶	-10.9879
濶	-10.988
諮	-10.988
卨	-10.9881
憫	-10.9881
鯀	-10.9881
顒	-10.9881
牆	-10.9881
俛	-10.9882
軹	-10.9883
零	-10.9884
阨	-10.9884
誹	-10.9885
歇	-10.9887
沾	-10.9891
鞮	-10.9894
綴	-10.9897
夘	-11.013
系	-11.0132
侃	-11.0133
嶽	-11.0135
𠞰	-11.0136
羗	-11.0136
釗	-11.0138
庾	-11.0139
饌	-11.014
湣	-11.0141
塘	-11.0141
盍	-11.0145
誌	-11.0146
繞	-11.0148
眀	-11.0149
盂	-11.0152
寐	-11.0153
瀋	-11.0153
闇	-11.0154
貿	-11.0154
笄	-11.0154
剔	-11.0154
泌	-11.0156
雀	-11.0402
墀	-11.0404
癸	-11.0404
郁	-11.0405
綾	-11.0406
諂	-11.0407
鍳	-11.0408
惴	-11.0408
倣	-11.0409
慿	-11.0409
誑	-11.041
圜	-11.0411
裳	-11.0412
艘	-11.0412
拙	-11.0412
崖	-11.0413
捜	-11.0414
摘	-11.0414
稟	-11.0415
蠡	-11.0416
囑	-11.0416
兕	-11.0417
駿	-11.0417
軸	-11.0417
氊	-11.0419
竿	-11.042
汭	-11.042
夣	-11.0421
沖	-11.0423
戦	-11.0426
𠡠	-11.0429
烹	-11.068
撤	-11.0682
脂	-11.0682
墟	-11.0683
䓁	-11.0684
汰	-11.0684
組	-11.0685
縊	-11.0687
蘆	-11.0688
渙	-11.0688
渥	-11.0688
脊	-11.069
竪	-11.069
懌	-11.0691
姻	-11.0691
莘	-11.0691
躡	-11.0692
模	-11.0693
縳	-11.0693
詮	-11.0693
楮	-11.0693
坂	-11.0697
斟	-11.0699
糞	-11.0699
隗	-11.0702
峽	-11.0704
轄	-11.0707
昶	-11.0728
醢	-11.0953
頸	-11.0957
亾	-11.0966
森	-11.0967
柏	-11.0967
蕚	-11.0967
瘡	-11.0971
漂	-11.0973
冥	-11.0974
墾	-11.0974
剖	-11.0975
棲	-11.0975
歷	-11.0977
油	-11.0977
燦	-11.0978
惻	-11.0978
愎	-11.0978
殛	-11.098
冢	-11.098
技	-11.098
葺	-11.098
繪	-11.0981
錡	-11.0982
牘	-11.0982
纍	-11.0982
喝	-11.0983
拊	-11.0984
郟	-11.0985
掘	-11.0985
鈍	-11.0985
种	-11.0989
繇	-11.0991
玠	-11.0991
噬	-11.0998
兌	-11.0998
姧	-11.101
葵	-11.1254
笏	-11.1257
皂	-11.1259
梯	-11.1263
埒	-11.1263
啇	-11.1265
瑀	-11.1265
䛕	-11.1267
線	-11.1269
寗	-11.1269
肝	-11.1269
軀	-11.1269
嫂	-11.1272
壻	-11.1273
鹵	-11.1273
緯	-11.1273
釡	-11.1274
喧	-11.1276
昂	-11.1277
孥	-11.1277
僵	-11.128
諛	-11.1281
劫	-11.1281
倨	-11.1282
縷	-11.1282
岡	-11.1283
枳	-11.1284
麒	-11.1285
儂	-11.1557
擔	-11.1562
鑰	-11.1562
片	-11.1563
噐	-11.1563
㦲	-11.1564
謐	-11.1565
丸	-11.1566
臾	-11.1568
邏	-11.1568
汚	-11.1569
芉	-11.157
銖	-11.157
遑	-11.1571
紊	-11.1571
殫	-11.1571
膽	-11.1572
几	-11.1573
揀	-11.1573
睹	-11.1573
弁	-11.1573
凋	-11.1574
複	-11.1574
雉	-11.1575
揭	-11.1577
髠	-11.1577
硃	-11.158
壑	-11.158
祕	-11.1581
巍	-11.1581
琥	-11.1581
媒	-11.1582
净	-11.1584
刧	-11.1586
驂	-11.1593
暢	-11.1863
滛	-11.1868
譎	-11.1871
杼	-11.1871
派	-11.1874
苴	-11.1874
逄	-11.1876
羮	-11.188
寝	-11.1881
㤙	-11.1882
僞	-11.1883
儁	-11.1883
邯	-11.1884
脉	-11.1885
熱	-11.1886
皋	-11.1887
鑠	-11.1887
贇	-11.1887
糓	-11.1888
愬	-11.1889
迭	-11.1893
響	-11.1893
搜	-11.1893
跳	-11.1893
岑	-11.1893
籠	-11.1893
澠	-11.1894
蒯	-11.1896
愼	-11.1897
騾	-11.1898
筮	-11.1899
呵	-11.1903
蒐	-11.1916
臘	-11.2182
烟	-11.219
砲	-11.2193
廡	-11.2197
媪	-11.22
殞	-11.2201
殄	-11.2201
穢	-11.2203
毐	-11.2203
演	-11.2203
榻	-11.2204
挟	-11.2205
瑋	-11.2206
讙	-11.2206
鏐	-11.2207
駑	-11.2207
岊	-11.2207
窟	-11.2208
洶	-11.2211
聨	-11.2211
懾	-11.2211
悰	-11.2212
璫	-11.2212
孜	-11.2212
苐	-11.2212
綦	-11.2212
迴	-11.2212
揣	-11.2215
縠	-11.2217
愿	-11.2219
詈	-11.222
緤	-11.2228
棨	-11.2228
企	-11.2233
昺	-11.2238
壬	-11.2501
胎	-11.252
殪	-11.2526
蟻	-11.2527
啻	-11.2528
捉	-11.253
曺	-11.253
粉	-11.2531
骸	-11.2532
璣	-11.2532
蕪	-11.2533
鵲	-11.2533
礼	-11.2537
沸	-11.2539
們	-11.254
狹	-11.254
肘	-11.254
現	-11.254
竣	-11.254
趍	-11.2541
牀	-11.2542
婁	-11.2542
鎖	-11.2542
佔	-11.2542
濡	-11.2542
影	-11.2543
炊	-11.2544
航	-11.2545
敞	-11.2546
磐	-11.2547
襃	-11.2548
巻	-11.2549
猾	-11.255
態	-11.255
熒	-11.2551
亹	-11.2551
球	-11.2551
卯	-11.2553
佃	-11.2553
粹	-11.2555
鍪	-11.2562
槍	-11.2873
禘	-11.2873
翻	-11.2875
爪	-11.2875
犂	-11.2875
謟	-11.2876
鄗	-11.2877
榭	-11.2878
認	-11.2881
熾	-11.2881
螻	-11.2882
燮	-11.2883
佶	-11.2884
彗	-11.2884
錐	-11.2885
緬	-11.2885
寖	-11.2886
曼	-11.2886
店	-11.2886
抜	-11.2886
稻	-11.2887
讚	-11.2888
瘠	-11.2888
俎	-11.2888
搖	-11.2888
恂	-11.2889
搏	-11.2889
拳	-11.2889
耄	-11.2889
皓	-11.289
歙	-11.2891
畀	-11.2891
祺	-11.2892
彘	-11.2894
培	-11.2894
伶	-11.2896
核	-11.2896
燿	-11.2896
婉	-11.2897
竑	-11.29
瑯	-11.2902
鎗	-11.2903
昱	-11.2903
磔	-11.2904
棣	-11.3217
戩	-11.3219
酉	-11.3224
牡	-11.323
黼	-11.3232
逝	-11.3234
廐	-11.3235
灝	-11.3236
邳	-11.3237
袵	-11.3238
倭	-11.3238
粲	-11.3238
粒	-11.324
襟	-11.3241
壕	-11.3242
豁	-11.3243
敇	-11.3244
凍	-11.3244
輓	-11.3244
疚	-11.3244
詎	-11.3247
慤	-11.3247
〇	-11.3247
擄	-11.3248
夸	-11.3248
樵	-11.3249
蒿	-11.325
荼	-11.325
蚌	-11.3251
餼	-11.3251
誇	-11.3252
鱗	-11.3253
暹	-11.3254
套	-11.3254
璿	-11.3254
猥	-11.3255
鏤	-11.3256
街	-11.3257
皃	-11.3257
鋐	-11.3258
餞	-11.3266
嵓	-11.3288
䜴	-11.3575
跟	-11.3596
恠	-11.3601
菽	-11.3603
稿	-11.3603
纛	-11.3606
貎	-11.3606
㤀	-11.3607
吟	-11.3608
棊	-11.3608
闘	-11.3608
剰	-11.3609
埋	-11.361
唇	-11.3611
癰	-11.3612
攺	-11.3612
纎	-11.3612
慘	-11.3612
瀾	-11.3613
怙	-11.3613
砥	-11.3614
闚	-11.3615
悪	-11.3615
躋	-11.3616
罄	-11.3616
湜	-11.3616
䜟	-11.3616
羨	-11.3616
瘴	-11.3616
讋	-11.3617
擠	-11.3617
煒	-11.3617
咒	-11.3618
莅	-11.3618
匕	-11.3618
歆	-11.3618
燔	-11.3619
恚	-11.3619
棠	-11.3619
楨	-11.362
辝	-11.3622
柵	-11.3623
紘	-11.3623
琰	-11.3623
峰	-11.3629
毆	-11.3634
瑣	-11.3636
匏	-11.3643
㑴	-11.3645
叡	-11.3645
棼	-11.3983
蹤	-11.3984
怵	-11.3986
棧	-11.3986
袂	-11.3987
軼	-11.3987
霞	-11.3987
仞	-11.3987
徭	-11.3989
陲	-11.3991
奕	-11.3992
隳	-11.3993
喉	-11.3993
慚	-11.3993
埸	-11.3993
慄	-11.3994
縻	-11.3994
跋	-11.3996
拷	-11.3996
跣	-11.3996
隼	-11.3997
藪	-11.3999
忝	-11.3999
离	-11.3999
儐	-11.4
頋	-11.4001
咠	-11.4002
駞	-11.4003
槃	-11.4003
卬	-11.4004
剽	-11.4004
涂	-11.4007
蒋	-11.4008
蠱	-11.4008
孕	-11.4009
轡	-11.4009
楫	-11.4011
寥	-11.4015
㦤	-11.4017
塊	-11.4028
鬯	-11.4372
徔	-11.4372
㐫	-11.4377
禇	-11.4377
概	-11.4377
搢	-11.4379
雒	-11.4382
褥	-11.4386
濕	-11.4387
騁	-11.4388
邱	-11.4389
鵠	-11.4389
頑	-11.4389
澳	-11.439
伎	-11.439
裒	-11.4392
飄	-11.4393
翕	-11.4394
偵	-11.4394
箋	-11.4395
寂	-11.4395
駢	-11.4395
繭	-11.4397
購	-11.4397
㤗	-11.4398
悠	-11.4398
研	-11.4398
黯	-11.4398
脚	-11.4399
鄜	-11.4399
灑	-11.4399
旃	-11.44
奨	-11.4401
燎	-11.4402
盱	-11.4403
靼	-11.4403
毀	-11.4405
㫤	-11.4408
胷	-11.4409
怏	-11.4409
刁	-11.4411
暱	-11.4413
狸	-11.4419
鼈	-11.4423
箸	-11.4423
涸	-11.4426
兖	-11.4744
帯	-11.4784
陀	-11.4791
瞭	-11.4792
蹕	-11.4792
楞	-11.4794
黧	-11.4799
電	-11.4802
顆	-11.4802
覃	-11.4802
飫	-11.4804
澮	-11.4805
麋	-11.4806
埊	-11.4806
遴	-11.4808
醇	-11.4809
箇	-11.4809
怡	-11.4809
廓	-11.481
浴	-11.4811
冡	-11.4811
穡	-11.4812
据	-11.4812
架	-11.4812
郯	-11.4812
腦	-11.4813
涯	-11.4814
裹	-11.4814
鄫	-11.4814
攀	-11.4814
逈	-11.4816
鷙	-11.4816
曙	-11.4818
吠	-11.4818
瑤	-11.4818
眇	-11.4819
汙	-11.482
刪	-11.482
攬	-11.4821
葱	-11.4822
臏	-11.4823
樁	-11.4823
煎	-11.4824
卽	-11.4824
杰	-11.4824
羔	-11.4826
澗	-11.4826
箠	-11.4827
聳	-11.4827
珩	-11.4827
㮚	-11.4829
蓺	-11.4829
謾	-11.4829
樗	-11.4829
鎡	-11.4829
虹	-11.483
輗	-11.4831
雋	-11.4832
鶻	-11.4835
袋	-11.4836
臆	-11.4837
咄	-11.4839
黶	-11.4842
䦨	-11.4879
澆	-11.5225
猖	-11.5231
翳	-11.5236
䏻	-11.5237
坑	-11.5237
菴	-11.5238
厠	-11.5239
聪	-11.5241
氐	-11.5241
艦	-11.5243
綜	-11.5244
絞	-11.5245
跖	-11.5245
黥	-11.5247
戀	-11.5247
尔	-11.5247
悞	-11.5247
栗	-11.5249
彩	-11.5249
抛	-11.5249
翀	-11.525
纒	-11.525
闡	-11.525
臼	-11.5252
𦂳	-11.5253
睪	-11.5253
腐	-11.5254
琅	-11.5254
詬	-11.5255
羲	-11.5255
籥	-11.5255
貺	-11.5255
蹟	-11.5256
芊	-11.5256
汁	-11.5256
軏	-11.5256
歐	-11.5257
訂	-11.5258
滔	-11.5259
葦	-11.526
鶚	-11.5261
淶	-11.5261
另	-11.5261
鋌	-11.5262
洩	-11.5263
辞	-11.5263
涖	-11.5263
麤	-11.5264
瑺	-11.5264
份	-11.5264
萇	-11.5266
閈	-11.5266
鈐	-11.5269
璪	-11.5271
坡	-11.5271
鶉	-11.5275
巒	-11.5275
玦	-11.5672
僨	-11.5679
濱	-11.5684
鳶	-11.5688
嚳	-11.5694
渴	-11.5695
祉	-11.5695
煦	-11.5696
粤	-11.5698
櫓	-11.5698
臭	-11.5698
羡	-11.57
慷	-11.5701
氓	-11.5701
証	-11.5702
丐	-11.5703
芰	-11.5703
岀	-11.5704
沽	-11.5704
狠	-11.5705
邈	-11.5705
淚	-11.5705
黠	-11.5706
悴	-11.5706
樸	-11.5707
遘	-11.5707
黿	-11.5707
鰲	-11.5707
牾	-11.5708
糜	-11.5708
兔	-11.5708
跨	-11.5708
咫	-11.5708
悃	-11.5709
哥	-11.5709
掾	-11.571
蠶	-11.571
諄	-11.571
礙	-11.5711
縶	-11.5712
踣	-11.5712
邃	-11.5713
㝠	-11.5714
鈺	-11.5714
稠	-11.5716
璜	-11.5717
豺	-11.5718
霽	-11.5719
殯	-11.572
鉛	-11.5721
蔓	-11.5721
站	-11.5722
騶	-11.5724
鄳	-11.5725
匣	-11.5727
杞	-11.5732
从	-11.6137
珙	-11.6144
嗛	-11.6153
魄	-11.6155
款	-11.6157
亶	-11.6164
逗	-11.6167
嘯	-11.6167
筋	-11.6168
靄	-11.6168
駒	-11.6169
拏	-11.6169
療	-11.617
盎	-11.6171
臚	-11.6172
杯	-11.6172
迁	-11.6172
戡	-11.6174
篡	-11.6175
斜	-11.6175
葭	-11.6175
沬	-11.6175
揺	-11.6176
妓	-11.6176
峯	-11.6176
鼠	-11.6176
湔	-11.6177
刎	-11.6177
趕	-11.6179
玷	-11.6179
愉	-11.6179
媯	-11.6179
鮒	-11.6179
旒	-11.6179
璲	-11.618
厘	-11.6181
絀	-11.6181
嗾	-11.6183
獬	-11.6184
擿	-11.6184
泯	-11.6185
囂	-11.6185
撻	-11.6186
儋	-11.6187
栖	-11.6189
壌	-11.619
瑱	-11.619
堞	-11.619
偹	-11.6191
淪	-11.6192
綂	-11.6192
巽	-11.6192
燫	-11.6192
鳩	-11.6192
珥	-11.6194
雱	-11.6194
秬	-11.6194
潢	-11.6195
躁	-11.6197
坎	-11.62
眞	-11.6204
諗	-11.6205
湫	-11.6209
吁	-11.6654
翫	-11.6662
塋	-11.6662
仔	-11.6663
飴	-11.6664
蓬	-11.6664
鉏	-11.6665
層	-11.6668
縑	-11.6668
訹	-11.6669
輛	-11.667
很	-11.6671
霑	-11.6672
弃	-11.6672
捽	-11.6673
盔	-11.6673
蠟	-11.6675
筦	-11.6675
伉	-11.6675
縞	-11.6675
煬	-11.6676
鬲	-11.6677
灣	-11.6677
瘳	-11.6678
漬	-11.6678
溱	-11.6679
祼	-11.6679
搶	-11.668
瓢	-11.668
巵	-11.6681
繖	-11.6682
鐩	-11.6682
鬚	-11.6682
罸	-11.6683
乍	-11.6683
䧏	-11.6683
輻	-11.6684
箝	-11.6684
邜	-11.6684
炙	-11.6685
羈	-11.6685
昵	-11.6685
誾	-11.6686
羇	-11.6687
儔	-11.6687
衫	-11.6688
摭	-11.6688
壹	-11.669
阪	-11.6691
萼	-11.6691
詵	-11.6691
紞	-11.6692
旟	-11.6692
𬋩	-11.6692
廹	-11.6694
蹄	-11.6695
椿	-11.6699
緱	-11.67
琬	-11.67
錞	-11.6702
爕	-11.6712
鄶	-11.6714
絃	-11.6716
侑	-11.6721
畞	-11.6721
鴟	-11.7175
攄	-11.7184
柰	-11.7186
勦	-11.7187
估	-11.7189
昪	-11.7189
顓	-11.719
銃	-11.7192
洒	-11.7194
汎	-11.7195
飱	-11.7195
牝	-11.7195
㸔	-11.7196
婆	-11.7196
餙	-11.7196
蓮	-11.7196
飼	-11.7197
些	-11.7198
䙝	-11.7198
紿	-11.7199
頰	-11.7201
鄣	-11.7201
囷	-11.7201
覊	-11.7203
獮	-11.7204
璘	-11.7204
盥	-11.7204
饉	-11.7205
廼	-11.7205
暁	-11.7205
㝡	-11.7206
皥	-11.7206
卻	-11.7206
薫	-11.7207
厝	-11.7207
堆	-11.7208
禋	-11.7208
橐	-11.7208
摶	-11.7208
豊	-11.7209
菲	-11.721
踏	-11.721
瞑	-11.7211
㭿	-11.7211
喟	-11.7211
婿	-11.7212
譟	-11.7212
喙	-11.7213
郇	-11.7213
毬	-11.7215
炫	-11.7215
珏	-11.7215
翥	-11.7216
汜	-11.7216
脯	-11.7216
叨	-11.7217
嫗	-11.7218
妣	-11.7218
雁	-11.7219
剥	-11.7219
仐	-11.7219
彤	-11.7221
券	-11.7223
臬	-11.7223
瓛	-11.7227
珊	-11.7227
楹	-11.723
砍	-11.7731
喚	-11.7743
怖	-11.7744
愜	-11.7746
糗	-11.7747
冤	-11.7747
䄂	-11.7748
踴	-11.7748
軟	-11.7748
踊	-11.775
孛	-11.775
紓	-11.7751
耜	-11.7751
櫜	-11.7751
堤	-11.7752
㽞	-11.7752
衘	-11.7752
爼	-11.7755
酢	-11.7757
歉	-11.7758
鯁	-11.7758
皐	-11.7758
戕	-11.7759
魂	-11.776
潦	-11.776
隍	-11.776
牖	-11.7761
郾	-11.7761
悌	-11.7763
宙	-11.7764
濳	-11.7765
爛	-11.7765
旰	-11.7765
瑩	-11.7766
肄	-11.7766
菑	-11.7767
龐	-11.7767
矰	-11.7768
稸	-11.7769
篋	-11.7769
涅	-11.7769
聾	-11.7769
枹	-11.777
碧	-11.777
劌	-11.7771
傒	-11.7771
涵	-11.7771
瞀	-11.7771
絡	-11.7772
瘦	-11.7772
沱	-11.7772
闊	-11.7772
蹶	-11.7773
瑁	-11.7773
謡	-11.7774
鉄	-11.7774
酖	-11.7774
羾	-11.7774
杵	-11.7775
央	-11.7775
脆	-11.7775
僮	-11.7776
笙	-11.7777
昕	-11.7778
犨	-11.7779
隸	-11.7783
氛	-11.7783
桞	-11.7791
匄	-11.7794
豢	-11.7799
蹯	-11.7819
孺	-11.8293
携	-11.8318
獅	-11.8324
羃	-11.8327
媵	-11.8331
柩	-11.8333
爚	-11.8334
衿	-11.8334
椽	-11.8336
嵌	-11.8336
姿	-11.8338
抎	-11.8338
迯	-11.8339
挽	-11.8342
藁	-11.8342
尭	-11.8342
迺	-11.8342
擴	-11.8342
抉	-11.8342
䡖	-11.8343
昀	-11.8344
澧	-11.8344
阼	-11.8344
厄	-11.8345
灰	-11.8345
彷	-11.8345
癘	-11.8346
耘	-11.8346
莭	-11.8347
腋	-11.8347
戱	-11.8347
祓	-11.8348
㗖	-11.8348
鄲	-11.8349
耦	-11.8349
昬	-11.8349
郴	-11.8349
㒒	-11.8349
迓	-11.835
䆒	-11.835
郕	-11.835
縫	-11.8352
猲	-11.8352
斫	-11.8352
炅	-11.8352
眦	-11.8353
罝	-11.8353
廏	-11.8353
睚	-11.8353
餅	-11.8354
煙	-11.8354
嘻	-11.8354
紬	-11.8355
綯	-11.8355
濂	-11.8355
逡	-11.8357
瓜	-11.8357
讃	-11.8357
睡	-11.8358
脛	-11.8358
燥	-11.8359
龕	-11.836
晞	-11.836
彞	-11.836
舖	-11.836
鷸	-11.8361
繄	-11.8361
湊	-11.8361
低	-11.8363
媿	-11.8364
屡	-11.8364
熹	-11.8366
眙	-11.8367
鋏	-11.8368
刷	-11.8369
鎭	-11.8372
驎	-11.8372
㬱	-11.838
斆	-11.8386
煌	-11.8387
娘	-11.8944
麑	-11.8944
醮	-11.895
堇	-11.895
炤	-11.8952
暦	-11.8952
簒	-11.8956
粥	-11.8956
畝	-11.8957
鰥	-11.8957
煮	-11.8958
狷	-11.8959
糶	-11.8959
劭	-11.896
絨	-11.8962
屑	-11.8962
咽	-11.8963
湼	-11.8963
葆	-11.8964
朶	-11.8965
踪	-11.8965
掎	-11.8965
裨	-11.8966
彫	-11.8966
遹	-11.8967
枋	-11.8967
楠	-11.8967
衾	-11.8967
碣	-11.8968
駈	-11.8971
啼	-11.8971
劓	-11.8972
佗	-11.8973
涪	-11.8973
俳	-11.8973
鷄	-11.8973
趹	-11.8974
蔬	-11.8974
椅	-11.8974
装	-11.8974
鐔	-11.8974
罃	-11.8975
豚	-11.8975
伋	-11.8975
垢	-11.8975
揉	-11.8976
衂	-11.8976
沅	-11.8977
釀	-11.8978
奥	-11.8978
彂	-11.8978
屛	-11.8978
堙	-11.8979
䞇	-11.8979
竢	-11.8979
櫟	-11.898
烽	-11.8981
阯	-11.8981
楩	-11.8982
粱	-11.8983
譙	-11.8983
珵	-11.8983
漿	-11.8984
贅	-11.8985
橫	-11.8986
禩	-11.8986
虺	-11.8987
針	-11.8987
透	-11.8987
腕	-11.8987
銛	-11.8988
剗	-11.8989
澹	-11.8989
疫	-11.8989
縢	-11.8989
虱	-11.899
蟜	-11.899
誂	-11.8991
訑	-11.8996
稀	-11.8996
聵	-11.8997
棐	-11.8998
鉆	-11.9005
踦	-11.901
頵	-11.96
捲	-11.9605
咈	-11.9608
弧	-11.9619
鑲	-11.9621
嵐	-11.9621
盆	-11.9622
汀	-11.9626
娣	-11.9626
訃	-11.9626
鋤	-11.9627
慊	-11.9627
遛	-11.9628
慾	-11.9631
堠	-11.9631
盩	-11.9631
柟	-11.9632
筑	-11.9632
邾	-11.9633
鑕	-11.9633
債	-11.9634
鍵	-11.9636
杏	-11.9636
隄	-11.9636
粢	-11.9636
盃	-11.9637
賻	-11.9637
弢	-11.9638
掊	-11.9638
盒	-11.9638
禬	-11.9639
埃	-11.9639
掇	-11.9639
嶷	-11.9641
椎	-11.9641
濯	-11.9643
匐	-11.9644
檐	-11.9645
瀝	-11.9646
芬	-11.9646
腆	-11.9647
炬	-11.9647
摠	-11.9647
宼	-11.9647
曳	-11.9647
蒸	-11.9647
憸	-11.9648
斵	-11.9648
焰	-11.9648
址	-11.9648
碭	-11.9648
牓	-11.9648
簮	-11.9648
竽	-11.9649
梱	-11.965
肋	-11.965
闋	-11.965
恫	-11.9652
澯	-11.9652
删	-11.9653
醒	-11.9653
秃	-11.9654
磧	-11.9654
讁	-11.9656
匈	-11.9656
􁲰	-11.9656
剋	-11.9656
刈	-11.9658
暘	-11.966
溫	-11.9661
駱	-11.9661
咺	-11.9662
蟣	-11.9663
曜	-11.9663
滏	-11.9664
挿	-11.9665
圃	-11.9671
栶	-11.9674
芈	-11.9679
畛	-12.0323
莠	-12.0327
跌	-12.0332
扑	-12.0335
鐶	-12.0335
俺	-12.0338
斮	-12.034
簪	-12.034
侫	-12.0341
侁	-12.0342
佇	-12.0342
縂	-12.0343
蚩	-12.0343
宐	-12.0343
穹	-12.0343
愠	-12.0343
欝	-12.0344
衽	-12.0344
禴	-12.0344
砂	-12.0345
𢷬	-12.0345
膂	-12.0346
贛	-12.0346
𣣔	-12.0346
閽	-12.0347
緇	-12.0347
柞	-12.0347
縋	-12.0347
戻	-12.0348
虗	-12.0348
紐	-12.0349
閎	-12.0349
秣	-12.0349
糅	-12.035
甕	-12.0351
慱	-12.0351
譔	-12.0351
瞋	-12.0352
芥	-12.0352
凛	-12.0352
磻	-12.0353
孱	-12.0353
淖	-12.0354
岌	-12.0354
檟	-12.0355
塹	-12.0356
噫	-12.0356
爱	-12.0356
撾	-12.0356
剏	-12.0356
檻	-12.0357
擺	-12.0357
圈	-12.0357
殤	-12.0358
崙	-12.0358
鼒	-12.0359
霦	-12.0359
梏	-12.0359
蹠	-12.0359
匍	-12.0359
舫	-12.0359
祧	-12.036
歃	-12.036
遶	-12.0361
灤	-12.0361
惋	-12.0362
刳	-12.0362
朐	-12.0362
緄	-12.0363
淨	-12.0363
掄	-12.0364
挂	-12.0364
槨	-12.0364
點	-12.0365
溉	-12.0366
肺	-12.0366
榛	-12.0367
瑚	-12.0367
熿	-12.0367
淋	-12.0368
鶩	-12.0368
徨	-12.0369
纉	-12.0369
鉗	-12.037
浄	-12.037
沴	-12.037
薔	-12.0371
鍊	-12.0373
紈	-12.0373
溶	-12.0373
閥	-12.0373
逕	-12.0373
礦	-12.0373
貉	-12.0373
肱	-12.0373
椀	-12.0374
洧	-12.0375
鍼	-12.0377
懟	-12.0378
瑢	-12.0379
杌	-12.0382
穨	-12.0387
祏	-12.039
吮	-12.1093
嬉	-12.1097
郜	-12.1101
溍	-12.1101
湧	-12.1101
㢮	-12.1103
啗	-12.1104
磁	-12.1105
翅	-12.1107
汨	-12.1107
弇	-12.1109
跛	-12.1109
狽	-12.111
龠	-12.111
晴	-12.1112
笠	-12.1112
郛	-12.1113
悸	-12.1114
洺	-12.1114
唾	-12.1115
橞	-12.1115
幡	-12.1116
泠	-12.1116
液	-12.1116
讌	-12.1116
兀	-12.1116
癩	-12.1118
盞	-12.1118
啄	-12.1118
燼	-12.112
釴	-12.112
菱	-12.112
伽	-12.112
穏	-12.1121
皎	-12.1121
宓	-12.1122
狙	-12.1122
様	-12.1123
虵	-12.1123
㒜	-12.1123
擣	-12.1123
疽	-12.1123
蜃	-12.1123
峙	-12.1123
佻	-12.1124
慆	-12.1125
瑴	-12.1125
腫	-12.1125
椹	-12.1126
躓	-12.1126
黏	-12.1126
楽	-12.1127
黈	-12.1127
堰	-12.1127
璵	-12.1127
鄞	-12.1129
轎	-12.1129
紇	-12.1129
幷	-12.113
匝	-12.113
灓	-12.113
驁	-12.113
𠂻	-12.1131
廨	-12.1131
褚	-12.1131
攫	-12.1131
寤	-12.1132
鏸	-12.1133
瑭	-12.1133
畎	-12.1134
閙	-12.1134
溜	-12.1135
㸅	-12.1135
醬	-12.1135
躐	-12.1135
脾	-12.1135
欤	-12.1136
賡	-12.1136
凟	-12.1136
芟	-12.1137
穣	-12.1137
忭	-12.1137
眚	-12.1139
蹻	-12.114
煉	-12.114
賠	-12.1141
歠	-12.1141
楯	-12.1141
擐	-12.1145
醳	-12.1147
闞	-12.1147
鄺	-12.1148
莞	-12.1149
璡	-12.115
鉦	-12.1151
紏	-12.1155
匙	-12.1157
挐	-12.1158
諏	-12.1171
呴	-12.1172
嫈	-12.1918
綋	-12.1919
糟	-12.1922
獷	-12.1934
淡	-12.1936
裋	-12.1936
氾	-12.1941
藤	-12.1941
琢	-12.1942
陴	-12.1944
睠	-12.1945
啜	-12.1945
湍	-12.1946
檝	-12.1946
櫛	-12.1947
熬	-12.1947
煨	-12.1947
鋸	-12.1949
熖	-12.195
懃	-12.195
櫃	-12.1951
燬	-12.1951
墊	-12.1951
刦	-12.1951
濙	-12.1952
豔	-12.1953
耒	-12.1953
縵	-12.1953
盻	-12.1954
曵	-12.1954
穽	-12.1954
啖	-12.1954
葴	-12.1954
㳄	-12.1955
糠	-12.1955
濊	-12.1956
祟	-12.1956
帕	-12.1956
嵬	-12.1957
鏘	-12.1958
鎣	-12.1959
夲	-12.1959
襪	-12.1959
蒞	-12.196
桎	-12.196
饜	-12.196
撲	-12.196
鎻	-12.1961
焞	-12.1961
掉	-12.1962
臥	-12.1963
􁓑	-12.1963
殱	-12.1964
鎔	-12.1964
帰	-12.1964
爌	-12.1964
筴	-12.1964
麄	-12.1964
楧	-12.1964
彧	-12.1965
撙	-12.1965
糊	-12.1966
陌	-12.1966
哺	-12.1967
爝	-12.1967
尖	-12.1968
票	-12.1969
髓	-12.1969
簫	-12.197
踞	-12.197
婺	-12.1972
㬰	-12.1972
覉	-12.1972
蟄	-12.1972
禕	-12.1973
稜	-12.1973
烱	-12.1974
帙	-12.1974
瘞	-12.1975
毓	-12.1975
臞	-12.1977
餐	-12.1977
宄	-12.1978
嚭	-12.1978
鐫	-12.1978
廧	-12.1979
祲	-12.1982
頽	-12.1984
祜	-12.1984
娼	-12.1986
矇	-12.1986
罟	-12.1987
麵	-12.1989
荻	-12.1997
鬷	-12.1999
妘	-12.2
􁛄	-12.2007
羿	-12.2837
勠	-12.2839
鏃	-12.284
幔	-12.2842
詛	-12.2843
蔀	-12.2845
噣	-12.2846
碆	-12.2846
酈	-12.2847
㩁	-12.2847
墩	-12.2848
耽	-12.2849
栐	-12.2849
鳬	-12.285
徂	-12.2851
蒭	-12.2851
綳	-12.2852
鐇	-12.2852
襕	-12.2853
脰	-12.2853
鏑	-12.2853
傚	-12.2855
瘁	-12.2856
拭	-12.2857
剿	-12.2858
猫	-12.2858
坰	-12.2859
坔	-12.2859
峪	-12.2859
娯	-12.286
脈	-12.286
义	-12.286
滇	-12.286
靷	-12.2861
𦕈	-12.2861
桌	-12.2862
甯	-12.2862
蘖	-12.2862
藿	-12.2862
匜	-12.2864
錙	-12.2864
藐	-12.2865
苫	-12.2865
紵	-12.2866
誚	-12.2866
仭	-12.2866
襖	-12.2868
蓍	-12.2869
䭾	-12.2869
徤	-12.2869
猺	-12.287
瑑	-12.2871
棚	-12.2871
儕	-12.2872
謠	-12.2872
蜜	-12.2872
撞	-12.2872
俌	-12.2873
筏	-12.2873
烜	-12.2873
斿	-12.2873
芋	-12.2874
孩	-12.2874
睨	-12.2874
焯	-12.2875
熂	-12.2875
祔	-12.2875
滌	-12.2875
壠	-12.2876
嶠	-12.2876
爻	-12.2876
捄	-12.2876
舋	-12.2876
塑	-12.2877
撿	-12.2877
靚	-12.2878
牋	-12.2878
猿	-12.2878
鼂	-12.2879
諉	-12.2879
攅	-12.2879
舁	-12.288
熺	-12.288
顕	-12.2881
蛟	-12.2881
忙	-12.2882
迦	-12.2882
餒	-12.2882
昳	-12.2882
疪	-12.2882
珎	-12.2883
榱	-12.2884
絺	-12.2885
棹	-12.2885
鄼	-12.2885
滹	-12.2886
鏁	-12.2886
悝	-12.2888
塾	-12.2888
适	-12.2889
蔭	-12.2891
埤	-12.2891
槁	-12.2894
􁗁	-12.2895
埜	-12.2897
馨	-12.2903
袪	-12.2904
厹	-12.2907
嚂	-12.291
魀	-12.292
窋	-12.3793
魅	-12.3825
祫	-12.3829
缶	-12.3833
菟	-12.3835
泮	-12.3838
蚡	-12.3838
顏	-12.3839
貰	-12.3841
堦	-12.3844
霆	-12.3844
斑	-12.3845
鞬	-12.3847
鴉	-12.3847
悶	-12.3848
慣	-12.3849
驤	-12.3849
籬	-12.385
餔	-12.385
卭	-12.3851
开	-12.3854
陕	-12.3854
麴	-12.3855
呪	-12.3856
鉢	-12.3857
剸	-12.3857
届	-12.3857
雩	-12.3857
陬	-12.3857
畡	-12.3858
暖	-12.3858
顙	-12.3859
襁	-12.3859
崤	-12.386
倔	-12.386
栻	-12.386
庖	-12.3861
褁	-12.3861
眄	-12.3861
㰱	-12.3861
搤	-12.3861
抹	-12.3861
昩	-12.3862
曄	-12.3862
株	-12.3863
礬	-12.3863
晳	-12.3863
漲	-12.3864
蝕	-12.3865
殮	-12.3866
笮	-12.3866
熄	-12.3866
筯	-12.3866
眺	-12.3867
傘	-12.3867
訶	-12.3867
紱	-12.3867
馘	-12.3867
僥	-12.3867
孳	-12.3867
捶	-12.3868
劑	-12.3868
泝	-12.3868
浣	-12.3869
漣	-12.3869
諶	-12.3869
映	-12.3869
臀	-12.3869
醋	-12.3869
幢	-12.387
蛾	-12.387
昃	-12.387
絣	-12.387
纆	-12.387
娛	-12.387
冰	-12.3871
顱	-12.3871
僬	-12.3871
斁	-12.3871
鬢	-12.3871
堕	-12.3872
変	-12.3872
鄯	-12.3872
頷	-12.3873
洫	-12.3873
褘	-12.3873
邲	-12.3873
鄠	-12.3873
㸑	-12.3873
刘	-12.3874
竺	-12.3874
苻	-12.3874
祛	-12.3875
鱉	-12.3875
𨗳	-12.3875
瘵	-12.3875
艮	-12.3875
閨	-12.3876
稹	-12.3876
喫	-12.3877
沭	-12.3877
蹊	-12.3877
仿	-12.3878
緦	-12.3878
諟	-12.3878
鏌	-12.3878
橛	-12.3878
騫	-12.3879
酸	-12.3879
僂	-12.3879
䟦	-12.388
郗	-12.3881
癉	-12.3882
悚	-12.3882
嘿	-12.3883
偁	-12.3883
雌	-12.3884
憒	-12.3884
甬	-12.3885
糲	-12.3885
挹	-12.3886
胤	-12.3886
炯	-12.3888
畱	-12.389
忖	-12.3891
塤	-12.3891
怕	-12.3892
礱	-12.3892
墉	-12.3896
揕	-12.3897
鍚	-12.3898
蟠	-12.3898
犢	-12.39
筞	-12.39
䢿	-12.3904
蔿	-12.3907
换	-12.3907
穫	-12.3907
轘	-12.3909
肸	-12.3914
韎	-12.393
柤	-12.3946
鬴	-12.4917
鵰	-12.4937
櫝	-12.494
蜂	-12.494
嘔	-12.4942
沼	-12.4944
垓	-12.4944
岢	-12.4946
儷	-12.4946
島	-12.4954
俚	-12.4955
串	-12.4955
隩	-12.4956
鴞	-12.4956
鵕	-12.4956
驃	-12.4959
閬	-12.4959
殂	-12.4961
舂	-12.4962
侣	-12.4963
彀	-12.4963
漦	-12.4963
穜	-12.4964
憍	-12.4964
拽	-12.4965
礛	-12.4965
秪	-12.4965
琚	-12.4966
秤	-12.4966
袑	-12.4967
裼	-12.4967
惹	-12.4968
齧	-12.4969
熲	-12.497
継	-12.497
剄	-12.4971
覔	-12.4971
榕	-12.4971
圄	-12.4971
蹹	-12.4971
纁	-12.4972
断	-12.4973
繻	-12.4973
闌	-12.4973
跼	-12.4973
阡	-12.4974
㺯	-12.4974
䍧	-12.4974
㳅	-12.4974
渇	-12.4974
宷	-12.4974
酺	-12.4975
蹵	-12.4975
峴	-12.4975
洿	-12.4975
閘	-12.4976
榦	-12.4976
讟	-12.4976
顚	-12.4977
欄	-12.4978
淂	-12.4978
蟹	-12.4978
済	-12.4978
薰	-12.4979
愴	-12.4979
埽	-12.4979
蜚	-12.4979
馹	-12.498
嶧	-12.498
訒	-12.498
蚠	-12.4981
桴	-12.4982
郪	-12.4982
倂	-12.4983
郸	-12.4983
筐	-12.4983
窩	-12.4984
蟬	-12.4984
猪	-12.4985
壩	-12.4986
鑨	-12.4986
獠	-12.4987
齮	-12.4987
賃	-12.4987
沲	-12.4988
纊	-12.499
齕	-12.499
胃	-12.4991
搬	-12.4991
湟	-12.4991
痕	-12.4992
牂	-12.4992
槌	-12.4993
郃	-12.4993
訏	-12.4994
槿	-12.4994
爍	-12.4995
欹	-12.4996
爨	-12.4997
箱	-12.4997
扮	-12.4998
澍	-12.4998
鍔	-12.5
鞋	-12.5001
棬	-12.5001
訔	-12.5001
憶	-12.5003
挨	-12.5007
柬	-12.5008
鼃	-12.5009
桷	-12.5009
緍	-12.5014
鼗	-12.502
觭	-12.5025
羖	-12.5026
紃	-12.5071
墢	-12.6165
翎	-12.6174
硬	-12.6184
矍	-12.619
瘨	-12.6195
孶	-12.6195
勍	-12.6196
遡	-12.6202
掣	-12.6203
碁	-12.6205
稗	-12.6206
謇	-12.6206
兑	-12.6206
鴨	-12.6207
慴	-12.6208
沓	-12.6208
磯	-12.6208
䱧	-12.6209
剬	-12.6209
鹹	-12.6212
瀕	-12.6212
冺	-12.6213
燄	-12.6213
㽔	-12.6213
庳	-12.6213
羹	-12.6214
甑	-12.6214
霧	-12.6214
幃	-12.6216
逭	-12.6216
鑽	-12.6216
倐	-12.6216
儇	-12.6217
徉	-12.6217
酧	-12.6218
莖	-12.6219
扆	-12.6219
鍥	-12.6219
䄈	-12.6219
釘	-12.6219
蠢	-12.6219
狭	-12.6219
撮	-12.6219
輳	-12.6219
蛤	-12.6219
忒	-12.622
轢	-12.622
篁	-12.622
煽	-12.6221
捂	-12.6221
腴	-12.6221
浃	-12.6221
摹	-12.6221
攣	-12.6221
迕	-12.6222
鑚	-12.6222
脇	-12.6222
佽	-12.6222
塢	-12.6223
鑊	-12.6223
吻	-12.6224
茌	-12.6224
机	-12.6224
喘	-12.6225
鋼	-12.6225
寬	-12.6225
榷	-12.6225
窒	-12.6225
碾	-12.6225
觔	-12.6225
价	-12.6225
祸	-12.6226
讞	-12.6226
翮	-12.6226
蹷	-12.6226
沫	-12.6226
荏	-12.6227
肴	-12.6227
燃	-12.6227
鄀	-12.6227
璨	-12.6228
灘	-12.6228
廻	-12.6228
踧	-12.6229
豸	-12.6229
爇	-12.6229
謔	-12.623
鯷	-12.623
􁢉	-12.623
鈇	-12.623
冇	-12.6231
𧺫	-12.6231
蘧	-12.6231
竅	-12.6231
醯	-12.6232
諼	-12.6232
紕	-12.6232
鏗	-12.6232
崧	-12.6232
偈	-12.6232
傭	-12.6232
掫	-12.6232
軋	-12.6233
竚	-12.6234
簟	-12.6234
嗤	-12.6234
瘐	-12.6234
芘	-12.6234
衒	-12.6234
港	-12.6234
憩	-12.6234
鵝	-12.6234
輢	-12.6235
姫	-12.6235
獺	-12.6235
个	-12.6235
坻	-12.6235
耎	-12.6235
卲	-12.6236
漓	-12.6236
魔	-12.6236
𠫭	-12.6237
麓	-12.6237
艶	-12.6238
鍇	-12.6238
夹	-12.6239
圎	-12.6239
滲	-12.6239
緊	-12.624
窄	-12.624
缾	-12.6242
侠	-12.6242
䋲	-12.6242
桔	-12.6242
霈	-12.6243
鄔	-12.6244
埭	-12.6244
曦	-12.6245
㛮	-12.6245
鈁	-12.6246
竱	-12.6246
􁲵	-12.6247
廱	-12.6247
鑛	-12.6248
璆	-12.6249
㯽	-12.6249
詒	-12.6249
􁨄	-12.6249
擡	-12.6251
躧	-12.6251
􁇨	-12.6251
爐	-12.6254
歜	-12.6256
鈆	-12.6256
楎	-12.6257
鎋	-12.6257
㬥	-12.6258
屣	-12.6258
㕹	-12.6262
薳	-12.6263
垕	-12.6266
勺	-12.6267
栽	-12.627
肻	-12.6273
犛	-12.628
礮	-12.7578
姟	-12.759
耰	-12.7603
么	-12.7608
襜	-12.7612
彿	-12.7614
腊	-12.7614
鬛	-12.7617
蕙	-12.7618
碗	-12.7624
蔆	-12.7626
刲	-12.7626
卉	-12.7626
幙	-12.7627
鞘	-12.7627
崢	-12.763
俵	-12.7632
茨	-12.7633
袀	-12.7634
懣	-12.7636
眊	-12.7636
覡	-12.7638
籖	-12.7638
煃	-12.7639
簋	-12.7639
濺	-12.7639
蕢	-12.7639
墝	-12.764
釵	-12.764
孑	-12.7641
肫	-12.7641
紆	-12.7641
軷	-12.7641
称	-12.7642
痊	-12.7642
磽	-12.7642
䡰	-12.7642
樣	-12.7643
徯	-12.7645
刖	-12.7645
肢	-12.7645
𤱔	-12.7645
誃	-12.7645
贐	-12.7646
磋	-12.7646
鯨	-12.7647
孿	-12.7647
輈	-12.7648
畵	-12.7648
瓖	-12.7649
嘱	-12.7649
騖	-12.7649
黻	-12.765
鞴	-12.765
芸	-12.7651
皁	-12.7651
暌	-12.7651
杳	-12.7651
勗	-12.7651
粃	-12.7651
翹	-12.7652
秫	-12.7652
凜	-12.7653
儌	-12.7654
籙	-12.7654
塨	-12.7654
闥	-12.7654
穵	-12.7654
佀	-12.7655
妍	-12.7656
渦	-12.7656
悁	-12.7656
髯	-12.7657
雛	-12.7657
褰	-12.7657
猗	-12.7657
渤	-12.7657
肌	-12.7657
閾	-12.7657
彉	-12.7657
劬	-12.7658
忸	-12.7659
嘲	-12.7659
脤	-12.7659
滂	-12.7659
闐	-12.7659
尓	-12.766
𢡟	-12.766
堀	-12.766
棱	-12.766
莱	-12.766
糖	-12.766
鯤	-12.7661
蝦	-12.7661
跽	-12.7661
柲	-12.7661
賕	-12.7662
圯	-12.7662
惱	-12.7662
啞	-12.7663
栅	-12.7663
睥	-12.7663
䜿	-12.7664
瀞	-12.7664
姝	-12.7664
斾	-12.7664
窠	-12.7664
埓	-12.7665
雹	-12.7665
煑	-12.7666
跔	-12.7666
擎	-12.7666
垠	-12.7666
饔	-12.7666
週	-12.7666
噪	-12.7666
爟	-12.7666
实	-12.7666
纏	-12.7666
戟	-12.7666
毖	-12.7668
沍	-12.7668
翩	-12.7669
僱	-12.7669
剝	-12.7669
暄	-12.7669
娙	-12.7669
蒍	-12.767
崐	-12.767
窑	-12.767
颺	-12.767
閶	-12.767
玹	-12.767
惛	-12.767
呌	-12.7671
壼	-12.7671
僦	-12.7671
湮	-12.7671
漉	-12.7671
棡	-12.7672
靦	-12.7672
璚	-12.7672
慁	-12.7672
喋	-12.7672
曝	-12.7674
燆	-12.7674
烷	-12.7674
玭	-12.7675
庀	-12.7675
冑	-12.7676
聮	-12.7676
潪	-12.7676
簇	-12.7676
埴	-12.7676
鍍	-12.7677
樛	-12.7677
憖	-12.7677
訣	-12.7678
㡳	-12.7678
盪	-12.7679
鍑	-12.768
虬	-12.7683
跗	-12.7684
袴	-12.7684
嵇	-12.7685
籩	-12.7686
厎	-12.7686
僊	-12.7687
俆	-12.769
憱	-12.7691
蹴	-12.7692
騤	-12.7695
畚	-12.7695
禰	-12.7698
玞	-12.7715
禳	-12.7716
醖	-12.7717
妎	-12.9267
娃	-12.9272
蓑	-12.9274
盭	-12.9284
碍	-12.9285
蛙	-12.9286
骿	-12.9286
麽	-12.9286
檛	-12.9286
鬃	-12.9289
犄	-12.929
忼	-12.9291
炷	-12.9291
癲	-12.9293
胖	-12.9294
禓	-12.9294
橘	-12.9294
磉	-12.9294
蕞	-12.9295
拖	-12.9297
邰	-12.9297
疹	-12.9298
菹	-12.93
插	-12.93
飡	-12.9301
緜	-12.9301
鏖	-12.9301
坼	-12.9301
麀	-12.9302
姨	-12.9302
椑	-12.9303
罜	-12.9303
淩	-12.9304
迸	-12.9305
垜	-12.9306
齍	-12.9307
潯	-12.9308
陁	-12.9308
貊	-12.9309
簞	-12.9309
扉	-12.9309
擕	-12.9309
攪	-12.931
癡	-12.931
姤	-12.931
喂	-12.9311
鵡	-12.9312
穪	-12.9312
酹	-12.9313
蝎	-12.9313
辤	-12.9313
营	-12.9313
鸚	-12.9313
𤨏	-12.9313
攽	-12.9314
穉	-12.9314
愒	-12.9314
撡	-12.9314
腥	-12.9315
銲	-12.9315
璃	-12.9315
稂	-12.9315
澣	-12.9316
紋	-12.9316
迥	-12.9317
嗞	-12.9317
嗚	-12.9317
梵	-12.9317
􁟸	-12.9317
匭	-12.9317
鈴	-12.9317
軔	-12.9317
隃	-12.9318
脣	-12.9318
炮	-12.9319
𥙿	-12.9319
摎	-12.9319
鞨	-12.932
臊	-12.932
箒	-12.932
儘	-12.932
嶮	-12.9321
欬	-12.9321
塩	-12.9322
褫	-12.9322
㟁	-12.9322
莾	-12.9322
暠	-12.9323
叭	-12.9324
拄	-12.9324
倩	-12.9324
秕	-12.9324
剡	-12.9324
㩦	-12.9324
懔	-12.9324
嚇	-12.9324
蹔	-12.9324
泚	-12.9325
晡	-12.9325
鬩	-12.9325
綘	-12.9325
縈	-12.9325
裡	-12.9325
万	-12.9326
紲	-12.9326
鋆	-12.9326
輾	-12.9326
螟	-12.9327
􁞞	-12.9327
摽	-12.9327
猒	-12.9327
憧	-12.9328
悽	-12.9328
蜺	-12.9328
􁅾	-12.9328
瞰	-12.9329
嫫	-12.9329
梨	-12.9329
逯	-12.9329
粘	-12.9329
葅	-12.9329
噉	-12.9329
瓌	-12.9329
毘	-12.933
饕	-12.9331
勳	-12.9331
吃	-12.9331
扛	-12.9331
悵	-12.9331
熇	-12.9332
􁄰	-12.9332
韣	-12.9332
异	-12.9332
胕	-12.9332
濘	-12.9333
脧	-12.9333
牣	-12.9333
粻	-12.9333
蛉	-12.9334
迅	-12.9334
臍	-12.9334
壙	-12.9334
胞	-12.9335
媮	-12.9335
􁃛	-12.9335
畯	-12.9336
簴	-12.9336
烴	-12.9336
怛	-12.9336
煐	-12.9338
隲	-12.9338
楸	-12.9338
苞	-12.9338
褊	-12.9339
楬	-12.9339
剱	-12.934
匀	-12.934
濛	-12.934
髀	-12.934
㕁	-12.9341
禠	-12.9341
儳	-12.9341
􁰋	-12.9341
幻	-12.9342
畒	-12.9342
鉟	-12.9342
溷	-12.9342
產	-12.9343
帚	-12.9344
鐲	-12.9345
􁧨	-12.9345
懧	-12.9345
􁈍	-12.9346
盲	-12.9346
篓	-12.9346
闍	-12.9347
㵣	-12.935
恡	-12.935
雯	-12.9351
彚	-12.9351
詖	-12.9351
顗	-12.9351
㚥	-12.9354
􁅅	-12.9355
尢	-12.9356
梳	-12.9359
䌓	-12.9361
芽	-12.9362
㢋	-12.9362
巠	-12.9364
鍛	-12.9371
鄮	-12.9388
謳	-13.1237
卸	-13.1237
𦵔	-13.1248
締	-13.126
尨	-13.1262
㷀	-13.1272
妺	-13.1279
詁	-13.1287
弈	-13.1288
浞	-13.1288
砭	-13.1289
筥	-13.1289
稯	-13.1289
靺	-13.1291
􁈩	-13.1292
鎌	-13.1293
􁊛	-13.1293
衊	-13.1293
啣	-13.1293
斈	-13.1293
芹	-13.1294
袠	-13.1294
裻	-13.1294
鐙	-13.1295
鴿	-13.1295
摺	-13.1296
陻	-13.1296
燇	-13.1297
秔	-13.1297
􁒯	-13.1298
耼	-13.1298
塚	-13.1299
孃	-13.1299
髽	-13.1299
𢋫	-13.13
稑	-13.13
􁲱	-13.13
㔋	-13.1301
甦	-13.1301
傋	-13.1301
掦	-13.1301
毯	-13.1301
廛	-13.1302
樟	-13.1302
悊	-13.1302
鄚	-13.1303
燀	-13.1304
棻	-13.1304
攟	-13.1305
袤	-13.1305
諦	-13.1305
遯	-13.1306
剉	-13.1306
遄	-13.1306
呻	-13.1306
毡	-13.1307
夐	-13.1308
曁	-13.1308
欘	-13.1308
舸	-13.1309
筒	-13.1309
冄	-13.1309
蒱	-13.131
譌	-13.1311
躭	-13.1311
麯	-13.1312
橦	-13.1312
䴠	-13.1313
单	-13.1313
瀼	-13.1313
絙	-13.1313
煴	-13.1313
徬	-13.1313
膈	-13.1313
鮞	-13.1314
趂	-13.1314
樽	-13.1314
枇	-13.1314
鞾	-13.1315
党	-13.1315
曆	-13.1315
傿	-13.1315
檖	-13.1315
墅	-13.1315
彥	-13.1315
夥	-13.1316
菁	-13.1316
殣	-13.1316
瘉	-13.1316
蟾	-13.1316
跿	-13.1316
髭	-13.1316
型	-13.1317
峭	-13.1318
拮	-13.1318
迃	-13.1319
聯	-13.1319
趋	-13.1319
麪	-13.1319
呑	-13.1319
埨	-13.132
枵	-13.132
鋷	-13.132
餧	-13.132
捃	-13.1321
瓠	-13.1321
曖	-13.1321
薜	-13.1322
杙	-13.1322
萱	-13.1322
爀	-13.1322
㪚	-13.1323
焜	-13.1323
垙	-13.1323
塜	-13.1323
鎜	-13.1324
髦	-13.1324
搔	-13.1325
栘	-13.1325
檉	-13.1325
㐲	-13.1325
皿	-13.1325
泳	-13.1326
屨	-13.1327
燠	-13.1327
偲	-13.1328
槽	-13.1328
扄	-13.1328
䄇	-13.1328
嶲	-13.1328
禫	-13.1328
朘	-13.1329
爁	-13.1329
暏	-13.1329
洊	-13.1329
牗	-13.1329
諴	-13.1329
戅	-13.133
貓	-13.133
聃	-13.1331
鸇	-13.1331
蠆	-13.1331
黝	-13.1332
号	-13.1332
綖	-13.1332
瞢	-13.1332
赭	-13.1332
㝎	-13.1332
璇	-13.1333
臠	-13.1333
槊	-13.1333
滙	-13.1334
詡	-13.1334
弹	-13.1334
喏	-13.1334
僎	-13.1335
乱	-13.1335
潏	-13.1335
媼	-13.1335
閃	-13.1336
忮	-13.1336
哂	-13.1336
瀹	-13.1336
琇	-13.1336
佾	-13.1336
咏	-13.1337
硯	-13.1337
蠹	-13.1337
鴳	-13.1337
疢	-13.1337
妥	-13.1338
凾	-13.1339
謩	-13.1339
銍	-13.1339
彖	-13.134
寀	-13.134
嚙	-13.134
㨂	-13.1341
誄	-13.1342
􁰆	-13.1342
窕	-13.1342
峡	-13.1342
殳	-13.1342
瑊	-13.1343
綍	-13.1343
淦	-13.1343
矞	-13.1343
祊	-13.1344
蠭	-13.1344
墣	-13.1344
笛	-13.1344
薑	-13.1346
钁	-13.1346
䂓	-13.1347
偰	-13.1347
娠	-13.1347
撚	-13.1347
礎	-13.1347
𫀆	-13.1347
垶	-13.1348
犴	-13.1348
濰	-13.1348
㓗	-13.1349
烇	-13.1349
䣆	-13.1349
娵	-13.1349
梃	-13.1349
軺	-13.1349
鉥	-13.135
搭	-13.135
犖	-13.135
酗	-13.135
錬	-13.1351
窻	-13.1351
萑	-13.1352
絮	-13.1352
瀍	-13.1352
蠅	-13.1353
淓	-13.1353
箔	-13.1353
繓	-13.1354
藎	-13.1354
勻	-13.1355
􁄍	-13.1356
刹	-13.1357
愀	-13.1357
鈸	-13.1358
卅	-13.136
韙	-13.136
螺	-13.1364
􁊎	-13.1364
淤	-13.1365
瓿	-13.1365
庵	-13.1367
眸	-13.1373
􁙉	-13.1398
㞑	-13.1402
荗	-13.141
簎	-13.3762
絜	-13.3773
槀	-13.3775
䔲	-13.3776
賭	-13.3782
暝	-13.3783
蹛	-13.3785
饍	-13.3786
茀	-13.3787
汛	-13.3787
廙	-13.3787
鶹	-13.3788
夬	-13.3789
􁆁	-13.379
繰	-13.3791
剴	-13.3793
蓆	-13.3793
惷	-13.3793
襏	-13.3793
仄	-13.3793
砆	-13.3794
鞼	-13.3794
囹	-13.3795
䔖	-13.3796
彝	-13.3796
箐	-13.3796
礟	-13.3797
椰	-13.3797
睛	-13.3798
儡	-13.3798
媛	-13.38
嶼	-13.38
𥚹	-13.38
豳	-13.38
頁	-13.38
俻	-13.38
斐	-13.38
𬗋	-13.38
稚	-13.3801
稳	-13.3801
鈫	-13.3801
泫	-13.3801
醸	-13.3801
荊	-13.3802
摛	-13.3802
餚	-13.3802
莆	-13.3802
砮	-13.3804
卺	-13.3804
擗	-13.3804
猴	-13.3805
頺	-13.3805
蝟	-13.3805
粳	-13.3805
囡	-13.3805
蚊	-13.3807
娎	-13.3807
蝮	-13.3807
騃	-13.3808
呆	-13.3808
樀	-13.3808
衉	-13.3808
鍤	-13.3808
㣧	-13.3808
憇	-13.3809
耑	-13.3809
恁	-13.3809
惬	-13.3809
囓	-13.3809
䛂	-13.3809
泭	-13.3809
袨	-13.3809
艸	-13.3811
时	-13.3811
殚	-13.3811
芷	-13.3811
詫	-13.3811
隟	-13.3811
豓	-13.3812
剃	-13.3812
襴	-13.3812
凑	-13.3812
麨	-13.3812
賍	-13.3814
桿	-13.3814
訢	-13.3814
倅	-13.3814
莬	-13.3814
飈	-13.3814
邴	-13.3814
症	-13.3814
鳧	-13.3814
畺	-13.3815
禅	-13.3815
厪	-13.3815
韵	-13.3815
玃	-13.3815
芾	-13.3815
畦	-13.3815
繅	-13.3815
鉷	-13.3816
倜	-13.3816
䘚	-13.3816
滸	-13.3816
怎	-13.3818
敺	-13.3818
𣺌	-13.3818
醤	-13.3818
塡	-13.3818
耐	-13.3818
樨	-13.3818
絅	-13.3818
闓	-13.3819
簸	-13.3819
驀	-13.3819
扺	-13.3819
愔	-13.3819
蹰	-13.3819
抒	-13.3819
晐	-13.382
顴	-13.382
杓	-13.382
奶	-13.382
跂	-13.382
噩	-13.382
茭	-13.382
詼	-13.382
畸	-13.3821
􁆿	-13.3822
㪟	-13.3822
亰	-13.3822
璹	-13.3822
墐	-13.3822
賖	-13.3823
懵	-13.3823
壄	-13.3823
劈	-13.3823
緹	-13.3823
敡	-13.3823
疥	-13.3823
熏	-13.3823
薅	-13.3824
樅	-13.3825
嵒	-13.3826
幘	-13.3826
鬰	-13.3826
㕥	-13.3826
覯	-13.3826
柿	-13.3826
瑒	-13.3827
丢	-13.3827
淯	-13.3827
滴	-13.3827
姥	-13.3827
珦	-13.3827
揄	-13.3827
搯	-13.3827
舄	-13.3827
腎	-13.3827
炵	-13.3829
腿	-13.3829
溯	-13.3829
𣲖	-13.3829
螫	-13.383
絰	-13.383
􁠜	-13.383
屐	-13.383
埶	-13.383
辮	-13.383
勩	-13.383
柜	-13.383
湞	-13.383
鑷	-13.3832
藳	-13.3832
鰌	-13.3832
圮	-13.3832
勌	-13.3832
瘍	-13.3832
髻	-13.3833
詗	-13.3833
櫬	-13.3833
厦	-13.3833
瞎	-13.3833
粧	-13.3833
蕕	-13.3833
旹	-13.3834
祍	-13.3834
畤	-13.3834
鈿	-13.3834
餂	-13.3834
􁃕	-13.3834
淸	-13.3836
琨	-13.3836
宕	-13.3836
憊	-13.3836
琱	-13.3836
墧	-13.3836
湎	-13.3836
酪	-13.3837
纘	-13.3837
痰	-13.3837
埼	-13.3837
掀	-13.3837
釧	-13.3837
䴡	-13.3838
嶢	-13.3839
悮	-13.3839
縲	-13.3839
欑	-13.384
霓	-13.384
晶	-13.384
縧	-13.384
劳	-13.384
柍	-13.384
槎	-13.3841
濞	-13.3841
楀	-13.3841
枎	-13.3841
銙	-13.3841
􁀺	-13.3842
茠	-13.3842
攔	-13.3843
鷇	-13.3844
簧	-13.3844
鵞	-13.3844
听	-13.3844
漑	-13.3844
㬇	-13.3844
􁬹	-13.3845
澂	-13.3845
􁀋	-13.3845
爔	-13.3847
崛	-13.3847
愾	-13.3847
鋈	-13.3848
皖	-13.3848
倬	-13.3848
愞	-13.3848
㙺	-13.3848
躱	-13.3849
瘥	-13.385
蹝	-13.385
叠	-13.385
瀨	-13.3851
楪	-13.3851
囧	-13.3851
毚	-13.3851
膋	-13.3852
墺	-13.3852
騑	-13.3852
絕	-13.3852
䵑	-13.3852
藂	-13.3852
􁧑	-13.3854
淅	-13.3854
桱	-13.3854
漷	-13.3854
叫	-13.3855
朾	-13.3855
淀	-13.3856
錝	-13.3857
埢	-13.3858
銸	-13.3858
卹	-13.3859
蜡	-13.386
鬨	-13.3861
埏	-13.3861
峨	-13.3862
灕	-13.3862
■	-13.3863
膊	-13.3863
旐	-13.3865
揔	-13.3866
捆	-13.3868
烒	-13.3868
忨	-13.3869
罌	-13.3869
壝	-13.3872
紡	-13.3872
窖	-13.3872
􁒐	-13.3873
罶	-13.3877
耇	-13.3882
晃	-13.3894
挶	-13.3897
礫	-13.7041
恙	-13.7072
􁌛	-13.7072
翡	-13.7074
袚	-13.7074
檠	-13.7078
彳	-13.7082
櫌	-13.7094
嬀	-13.7095
餱	-13.7099
葩	-13.7099
孀	-13.7099
釆	-13.7099
葷	-13.7101
苾	-13.7103
鈕	-13.7105
螭	-13.7107
埆	-13.7107
蜹	-13.7109
嘴	-13.7111
罏	-13.7111
猋	-13.7111
虫	-13.7111
𬞞	-13.7111
濼	-13.7113
枲	-13.7113
惵	-13.7113
䳒	-13.7115
禚	-13.7115
嬻	-13.7115
𪠘	-13.7115
痺	-13.7117
鯽	-13.7117
埧	-13.7118
媟	-13.7119
帔	-13.7119
嘘	-13.7119
奡	-13.7119
柚	-13.7119
歧	-13.7121
鼇	-13.7121
銹	-13.7121
痿	-13.7121
蚋	-13.7121
詧	-13.7121
耉	-13.7121
魍	-13.7122
韭	-13.7122
伇	-13.7124
煗	-13.7124
熛	-13.7124
鮌	-13.7124
忩	-13.7124
鋋	-13.7124
禔	-13.7126
窬	-13.7126
鑼	-13.7126
輶	-13.7126
趫	-13.7128
涑	-13.7128
鞗	-13.7128
舩	-13.7128
㙸	-13.7128
觥	-13.7128
㝢	-13.713
攴	-13.713
踢	-13.713
媢	-13.713
襍	-13.713
襫	-13.713
埻	-13.713
焆	-13.713
蠃	-13.713
虀	-13.7132
闒	-13.7132
􁛮	-13.7132
噍	-13.7134
􁈰	-13.7134
菀	-13.7134
餗	-13.7134
閧	-13.7134
熚	-13.7134
膓	-13.7134
觶	-13.7134
瀰	-13.7134
裾	-13.7134
鱔	-13.7136
昜	-13.7136
玈	-13.7136
变	-13.7136
蝶	-13.7136
崈	-13.7136
蕳	-13.7136
鏹	-13.7136
鵂	-13.7138
䆠	-13.7138
鍜	-13.7138
垸	-13.7138
旛	-13.7138
蕝	-13.7138
騮	-13.7138
酤	-13.714
砌	-13.714
蓤	-13.714
㶏	-13.714
㪷	-13.714
値	-13.714
嘖	-13.714
黛	-13.714
虔	-13.7142
燂	-13.7142
旡	-13.7142
惮	-13.7142
牸	-13.7142
砦	-13.7142
絧	-13.7142
滰	-13.7142
艇	-13.7142
贜	-13.7142
嘷	-13.7142
譆	-13.7142
嘽	-13.7144
癖	-13.7144
昰	-13.7144
憮	-13.7144
偫	-13.7144
縿	-13.7144
蘂	-13.7144
湄	-13.7144
璀	-13.7144
邽	-13.7144
鋟	-13.7144
駘	-13.7144
鮐	-13.7144
寋	-13.7144
溈	-13.7144
齓	-13.7144
鍋	-13.7145
絍	-13.7145
卣	-13.7146
棃	-13.7146
􁊽	-13.7146
妤	-13.7146
斸	-13.7146
邶	-13.7146
熑	-13.7146
䘐	-13.7146
浰	-13.7146
慍	-13.7146
朌	-13.7146
桒	-13.7146
纖	-13.7146
䦱	-13.7148
痔	-13.7148
罽	-13.7148
襯	-13.7148
鯢	-13.7148
懶	-13.7148
敉	-13.7148
煞	-13.7148
胻	-13.7149
渫	-13.7149
焀	-13.7149
壆	-13.7149
椂	-13.7149
哆	-13.715
惲	-13.715
杕	-13.715
瘧	-13.715
袓	-13.715
鷟	-13.7151
鸑	-13.7151
摍	-13.7151
蹭	-13.7151
拇	-13.7151
兜	-13.7151
揷	-13.7151
禝	-13.7151
僃	-13.7151
帨	-13.7151
棌	-13.7151
􁁬	-13.7152
􁗣	-13.7153
菒	-13.7153
确	-13.7153
鎀	-13.7153
墱	-13.7153
簷	-13.7153
酅	-13.7153
㵼	-13.7153
岫	-13.7153
泱	-13.7153
蹋	-13.7153
茵	-13.7155
㓛	-13.7155
穩	-13.7155
柣	-13.7155
蹬	-13.7155
瞬	-13.7155
蝢	-13.7155
鎦	-13.7155
埔	-13.7155
墌	-13.7155
稲	-13.7155
㬌	-13.7155
䃺	-13.7155
坺	-13.7155
娱	-13.7155
庄	-13.7155
渗	-13.7155
軆	-13.7155
稛	-13.7157
伻	-13.7157
㒵	-13.7157
殲	-13.7157
楺	-13.7157
逖	-13.7157
哇	-13.7157
鑅	-13.7157
暕	-13.7157
难	-13.7157
桉	-13.7158
㫿	-13.7158
澉	-13.7159
瞞	-13.7159
涘	-13.7159
阤	-13.7159
䖟	-13.7159
䗽	-13.7159
婣	-13.7159
􁒢	-13.7159
㺹	-13.7159
侗	-13.7159
嫺	-13.7159
潑	-13.7159
炕	-13.7159
鋉	-13.7159
鑌	-13.7159
窳	-13.7161
媺	-13.7161
煁	-13.7161
曇	-13.7161
黟	-13.7163
淝	-13.7163
䗶	-13.7163
塐	-13.7163
鵶	-13.7163
塎	-13.7163
峩	-13.7163
鐄	-13.7163
郅	-13.7163
鞵	-13.7163
􁠙	-13.7163
籋	-13.7164
彜	-13.7165
㙂	-13.7165
宁	-13.7165
堮	-13.7165
梢	-13.7165
䐈	-13.7165
杉	-13.7165
烄	-13.7165
禿	-13.7165
綃	-13.7165
醃	-13.7165
胆	-13.7167
堋	-13.7167
唤	-13.7167
扃	-13.7167
譿	-13.7167
􁪎	-13.7167
噴	-13.7167
獐	-13.7167
硉	-13.7167
鰈	-13.7168
劎	-13.7169
畬	-13.7169
剩	-13.7169
澐	-13.7169
勰	-13.7169
𬗟	-13.7169
墁	-13.7169
鏋	-13.7169
􁥪	-13.7169
灵	-13.7169
炑	-13.7169
献	-13.7169
𤾉	-13.7169
漈	-13.7169
瘢	-13.7169
眂	-13.7171
壐	-13.7171
炟	-13.7171
鐃	-13.7171
搉	-13.7171
桶	-13.7171
魴	-13.7171
戓	-13.7171
牁	-13.7171
繚	-13.7171
匆	-13.7171
睱	-13.7171
觚	-13.7171
搰	-13.7173
屩	-13.7173
泪	-13.7173
鸛	-13.7173
棖	-13.7173
椐	-13.7173
溽	-13.7173
蹉	-13.7173
饟	-13.7173
忬	-13.7174
蝝	-13.7174
􁲶	-13.7175
箎	-13.7175
鬆	-13.7175
㮣	-13.7175
渶	-13.7175
㳫	-13.7175
熠	-13.7175
蚳	-13.7176
昴	-13.7176
棒	-13.7176
罻	-13.7176
袐	-13.7176
嬌	-13.7177
跲	-13.7177
祒	-13.7177
螢	-13.7178
蔕	-13.7178
溟	-13.7178
駼	-13.7178
騊	-13.7178
橏	-13.718
釜	-13.718
佺	-13.718
咋	-13.718
軛	-13.718
綉	-13.7182
􁐪	-13.7182
儧	-13.7182
籓	-13.7182
貍	-13.7182
眈	-13.7182
簀	-13.7184
麇	-13.7184
宂	-13.7184
抈	-13.7184
报	-13.7184
妒	-13.7186
趐	-13.7186
㙫	-13.7186
呐	-13.7186
贑	-13.7186
鼙	-13.7186
覜	-13.7188
騙	-13.7188
㙨	-13.7188
糺	-13.7188
膞	-13.7188
􁅋	-13.7188
毉	-13.719
虡	-13.719
䍡	-13.7192
䃭	-13.7192
廋	-13.7192
碓	-13.7192
焠	-13.7192
柃	-13.7192
罅	-13.7192
遫	-13.7192
靶	-13.7192
軄	-13.7192
綠	-13.7194
緻	-13.7194
睫	-13.7194
櫱	-13.7195
樒	-13.7196
鄐	-13.7196
簵	-13.7196
漗	-13.7196
蔴	-13.7198
咳	-13.7198
魋	-13.7198
龞	-13.72
㡌	-13.72
㴱	-13.72
硝	-13.72
檇	-13.72
瀉	-13.72
秸	-13.72
逑	-13.72
矠	-13.7201
鈌	-13.7202
霤	-13.7202
烊	-13.7203
㷂	-13.7204
饁	-13.7204
甜	-13.7205
蒔	-13.7205
哤	-13.7205
浤	-13.7205
㦂	-13.7207
醻	-13.7207
庬	-13.7207
􁤲	-13.7209
罛	-13.7209
姙	-13.7209
驌	-13.7211
甍	-13.7211
墰	-13.7213
邂	-13.7213
眠	-13.7217
鈳	-13.7217
棫	-13.7217
譸	-13.7217
矮	-13.7221
㣥	-13.7244
屆	-14.2023
檏	-14.2036
虣	-14.2045
啾	-14.2064
芃	-14.2064
罋	-14.207
甎	-14.2074
繢	-14.2077
娥	-14.208
擉	-14.208
屎	-14.2083
嚼	-14.2089
緗	-14.2089
㷒	-14.2093
袛	-14.2093
䄡	-14.2093
軿	-14.2093
嶸	-14.2096
㷼	-14.2096
䒶	-14.2099
恓	-14.2099
狺	-14.2099
訝	-14.2102
艷	-14.2102
諲	-14.2102
讖	-14.2102
簨	-14.2102
絫	-14.2102
怜	-14.2105
摏	-14.2105
鄁	-14.2105
䥥	-14.2108
媳	-14.2108
幬	-14.2108
墪	-14.2108
爯	-14.2108
网	-14.2108
璩	-14.2111
杪	-14.2111
旴	-14.2111
㑥	-14.2111
柸	-14.2111
㞐	-14.2114
籀	-14.2115
縜	-14.2115
覷	-14.2115
瞶	-14.2115
絪	-14.2115
繯	-14.2115
跘	-14.2115
柂	-14.2118
垹	-14.2118
廳	-14.2118
咍	-14.2118
撝	-14.2118
晤	-14.2118
琿	-14.2121
頊	-14.2121
摸	-14.2121
荇	-14.2121
柝	-14.2121
洳	-14.2121
㞦	-14.2121
喑	-14.2121
蹀	-14.2124
㽜	-14.2124
焟	-14.2124
禊	-14.2124
瞷	-14.2127
泟	-14.2127
忞	-14.2127
繤	-14.2127
醎	-14.213
觜	-14.213
吊	-14.213
翿	-14.213
巘	-14.2133
匃	-14.2133
攙	-14.2133
縟	-14.2133
錤	-14.2133
䨇	-14.2133
悳	-14.2133
瀑	-14.2133
烕	-14.2133
祻	-14.2133
㶚	-14.2133
嘵	-14.2133
熜	-14.2133
鄊	-14.2133
屇	-14.2137
筍	-14.2137
舡	-14.2137
逜	-14.2137
凊	-14.2137
枓	-14.2137
灮	-14.2137
簏	-14.2137
鋻	-14.2137
抆	-14.2137
皤	-14.2137
豋	-14.214
珽	-14.214
瀧	-14.214
踹	-14.214
䫫	-14.214
懹	-14.214
灸	-14.214
裎	-14.214
襗	-14.214
酎	-14.214
荈	-14.2143
脁	-14.2143
癃	-14.2143
遨	-14.2143
㬎	-14.2143
咩	-14.2143
螽	-14.2143
奂	-14.2143
煆	-14.2143
貃	-14.2143
蓼	-14.2144
䠶	-14.2146
戛	-14.2146
藕	-14.2146
袞	-14.2146
䆮	-14.2146
榑	-14.2146
凴	-14.2146
窅	-14.2146
虯	-14.2146
踟	-14.2146
釅	-14.2146
巇	-14.2149
鍉	-14.2149
衎	-14.2149
覓	-14.2149
尃	-14.2149
銶	-14.2149
磾	-14.2149
䘙	-14.2149
暈	-14.2149
箏	-14.2152
国	-14.2152
眥	-14.2152
絭	-14.2152
嫓	-14.2152
㪯	-14.2152
䂊	-14.2152
灉	-14.2152
哽	-14.2152
漙	-14.2152
喁	-14.2152
嬛	-14.2152
栝	-14.2152
熻	-14.2152
爖	-14.2152
竜	-14.2152
蚕	-14.2152
崕	-14.2155
垬	-14.2155
帆	-14.2155
燻	-14.2155
嫩	-14.2155
戇	-14.2155
禭	-14.2155
絢	-14.2155
媸	-14.2155
睴	-14.2155
紺	-14.2155
怍	-14.2156
椁	-14.2156
洓	-14.2156
濃	-14.2156
瑮	-14.2156
箧	-14.2156
紉	-14.2156
肤	-14.2156
裸	-14.2158
郠	-14.2159
惧	-14.2159
咢	-14.2159
揑	-14.2159
叜	-14.2159
昝	-14.2159
糕	-14.2159
吼	-14.2162
瓮	-14.2162
硤	-14.2162
癒	-14.2162
銈	-14.2162
屹	-14.2162
洢	-14.2162
冽	-14.2162
埍	-14.2162
㕙	-14.2162
䖝	-14.2162
壖	-14.2162
弮	-14.2162
愓	-14.2162
捺	-14.2162
樿	-14.2162
燨	-14.2162
螾	-14.2162
轝	-14.2162
㕛	-14.2165
墼	-14.2165
渌	-14.2165
蜒	-14.2165
还	-14.2165
㳘	-14.2165
㷫	-14.2165
㻞	-14.2165
刅	-14.2165
崗	-14.2165
弒	-14.2165
搴	-14.2165
棋	-14.2165
涞	-14.2165
珮	-14.2165
稡	-14.2165
笳	-14.2165
訩	-14.2165
諞	-14.2165
眧	-14.2168
燋	-14.2168
燽	-14.2168
䰟	-14.2168
欿	-14.2168
惨	-14.2168
晷	-14.2168
煅	-14.2168
裙	-14.2168
沚	-14.2168
瀺	-14.2168
癯	-14.2171
掯	-14.2171
㢲	-14.2171
埥	-14.2171
儜	-14.2171
吧	-14.2171
奩	-14.2171
掞	-14.2171
敲	-14.2171
爹	-14.2171
嗽	-14.2174
䆳	-14.2174
厩	-14.2174
嚎	-14.2174
恟	-14.2174
緼	-14.2174
蝻	-14.2174
蠯	-14.2174
崘	-14.2176
笥	-14.2177
䣛	-14.2177
奐	-14.2177
堊	-14.2177
瓏	-14.2177
聡	-14.2177
縀	-14.2177
鄬	-14.2177
丰	-14.2177
処	-14.2177
肚	-14.2177
渰	-14.2178
拴	-14.2178
涙	-14.2178
睂	-14.2178
鏵	-14.2178
憙	-14.2179
縓	-14.2181
賵	-14.2181
塈	-14.2181
擷	-14.2181
晢	-14.2181
檳	-14.2181
滓	-14.2181
䧺	-14.2181
焲	-14.2181
睆	-14.2181
珷	-14.2181
慌	-14.2184
澈	-14.2184
兗	-14.2184
慳	-14.2184
捫	-14.2184
惽	-14.2184
戄	-14.2184
晄	-14.2184
痴	-14.2184
籃	-14.2184
喣	-14.2184
鏬	-14.2185
芑	-14.2187
錏	-14.2187
蘩	-14.2187
櫈	-14.2187
䫉	-14.2187
尫	-14.2187
巔	-14.2187
裭	-14.2187
跕	-14.2187
醟	-14.2187
汔	-14.219
菓	-14.219
咬	-14.219
秖	-14.219
詾	-14.219
櫑	-14.2193
蟊	-14.2193
旤	-14.2193
誆	-14.2196
㧢	-14.2196
污	-14.2196
肈	-14.2196
纪	-14.2199
抝	-14.22
鏟	-14.22
噱	-14.22
焫	-14.22
獧	-14.22
菊	-14.2203
㮯	-14.2203
熀	-14.2203
渢	-14.2203
襌	-14.2203
珀	-14.2206
笱	-14.2206
賺	-14.2206
敔	-14.2206
䣄	-14.2206
㴻	-14.2206
癭	-14.2206
豨	-14.2207
䟎	-14.2209
賷	-14.2209
窈	-14.2212
蝨	-14.2212
攖	-14.2215
坌	-14.2215
覛	-14.2215
賾	-14.2215
㴠	-14.2218
莗	-14.2219
㕤	-14.2222
叴	-14.2222
儶	-14.2222
瞂	-14.2222
赱	-14.2222
遒	-14.2222
觝	-14.2225
枘	-14.2225
撅	-14.2225
襦	-14.2231
䭔	-14.2234
坪	-14.2237
瓞	-14.2237
礴	-14.2244
鐰	-15.1401
鐮	-15.1402
鐭	-15.1403
鐪	-15.1404
鐎	-15.1405
鐊	-15.1406
鏻	-15.1407
鏺	-15.1408
鏷	-15.1409
鏶	-15.141
鏳	-15.1411
鏢	-15.1412
鏝	-15.1413
鏏	-15.1414
鎘	-15.1415
鎕	-15.1416
鍶	-15.1417
鍱	-15.1418
鍰	-15.1419
鍨	-15.142
鍖	-15.1421
鍈	-15.1422
錧	-15.1423
錚	-15.1424
鋿	-15.1425
鋺	-15.1426
鋥	-15.1427
鋠	-15.1428
鋖	-15.1429
鉻	-15.143
鉹	-15.1431
鉙	-15.1432
鉐	-15.1433
鉋	-15.1434
鉀	-15.1435
鈽	-15.1436
鈼	-15.1437
鈰	-15.1438
鈮	-15.1439
鈘	-15.144
鈀	-15.1441
釾	-15.1442
釨	-15.1443
釙	-15.1444
醵	-15.1445
酥	-15.1446
酆	-15.1447
郲	-15.1448
郈	-15.1449
逅	-15.145
轕	-15.1451
轇	-15.1452
躒	-15.1453
蹣	-15.1454
跚	-15.1455
趼	-15.1456
賅	-15.1457
譊	-15.1458
誖	-15.1459
襞	-15.146
褑	-15.1461
蠺	-15.1462
蠩	-15.1463
螳	-15.1464
螘	-15.1465
螂	-15.1466
蝣	-15.1467
蝄	-15.1468
蜽	-15.1469
蜴	-15.147
蜥	-15.1471
蜉	-15.1472
蜈	-15.1473
蚣	-15.1474
蚖	-15.1475
蘁	-15.1476
薵	-15.1477
薴	-15.1478
蕡	-15.1479
蕆	-15.148
蓰	-15.1481
蒗	-15.1482
葫	-15.1483
葑	-15.1484
莩	-15.1485
茦	-15.1486
茄	-15.1487
苽	-15.1488
臟	-15.1489
膜	-15.149
腮	-15.1491
胱	-15.1492
胯	-15.1493
胭	-15.1494
耔	-15.1495
翬	-15.1496
罡	-15.1497
纕	-15.1498
縐	-15.1499
緌	-15.15
緂	-15.1501
綌	-15.1502
絖	-15.1503
絏	-15.1504
籛	-15.1505
簦	-15.1506
簣	-15.1507
篪	-15.1508
筝	-15.1509
笴	-15.151
秭	-15.1511
秌	-15.1512
禥	-15.1513
祹	-15.1514
磵	-15.1515
矬	-15.1516
眨	-15.1517
瘤	-15.1518
痾	-15.1519
痑	-15.152
疴	-15.1521
甂	-15.1522
瑝	-15.1523
玥	-15.1524
玁	-15.1525
獒	-15.1526
獍	-15.1527
犠	-15.1528
燝	-15.1529
燖	-15.153
燌	-15.1531
熮	-15.1532
熡	-15.1533
煤	-15.1534
煣	-15.1535
煝	-15.1536
煘	-15.1537
煋	-15.1538
焵	-15.1539
焴	-15.154
焃	-15.1541
烺	-15.1542
烯	-15.1543
烠	-15.1544
烚	-15.1545
烑	-15.1546
炪	-15.1547
炨	-15.1548
炣	-15.1549
炔	-15.155
灊	-15.1551
灂	-15.1552
瀷	-15.1553
瀶	-15.1554
瀴	-15.1555
瀳	-15.1556
濜	-15.1557
濚	-15.1558
澼	-15.1559
澻	-15.156
澓	-15.1561
澇	-15.1562
潿	-15.1563
潩	-15.1564
漽	-15.1565
漴	-15.1566
漯	-15.1567
漨	-15.1568
漖	-15.1569
滵	-15.157
滜	-15.1571
滃	-15.1572
湒	-15.1573
湁	-15.1574
渿	-15.1575
渳	-15.1576
渜	-15.1577
淕	-15.1578
淔	-15.1579
淐	-15.158
涷	-15.1581
涭	-15.1582
涔	-15.1583
浢	-15.1584
洴	-15.1585
泲	-15.1586
泙	-15.1587
泘	-15.1588
沺	-15.1589
沌	-15.159
沄	-15.1591
汸	-15.1592
汥	-15.1593
汕	-15.1594
汌	-15.1595
歪	-15.1596
歔	-15.1597
欷	-15.1598
欓	-15.1599
欀	-15.16
檤	-15.1601
檗	-15.1602
檔	-15.1603
檈	-15.1604
橪	-15.1605
橝	-15.1606
橜	-15.1607
橎	-15.1608
樳	-15.1609
樬	-15.161
樤	-15.1611
樔	-15.1612
槻	-15.1613
槱	-15.1614
槫	-15.1615
榬	-15.1616
榞	-15.1617
楒	-15.1618
楑	-15.1619
楅	-15.162
楃	-15.1621
椻	-15.1622
椔	-15.1623
椈	-15.1624
棶	-15.1625
梴	-15.1626
梡	-15.1627
梠	-15.1628
桮	-15.1629
桍	-15.163
栺	-15.1631
栮	-15.1632
栓	-15.1633
柢	-15.1634
柑	-15.1635
柎	-15.1636
柌	-15.1637
枿	-15.1638
枸	-15.1639
枔	-15.164
曚	-15.1641
曅	-15.1642
晊	-15.1643
晅	-15.1644
摐	-15.1645
搪	-15.1646
搠	-15.1647
愫	-15.1648
惘	-15.1649
惏	-15.165
恰	-15.1651
怱	-15.1652
彲	-15.1653
彎	-15.1654
弣	-15.1655
廚	-15.1656
幵	-15.1657
幞	-15.1658
嶪	-15.1659
崆	-15.166
尠	-15.1661
宬	-15.1662
媕	-15.1663
婭	-15.1664
婕	-15.1665
娑	-15.1666
姆	-15.1667
壧	-15.1668
壥	-15.1669
壜	-15.167
壏	-15.1671
壎	-15.1672
壉	-15.1673
墿	-15.1674
墤	-15.1675
墏	-15.1676
墂	-15.1677
塼	-15.1678
塶	-15.1679
塙	-15.168
塍	-15.1681
塀	-15.1682
堸	-15.1683
堭	-15.1684
堩	-15.1685
堧	-15.1686
堣	-15.1687
堚	-15.1688
埱	-15.1689
埯	-15.169
埬	-15.1691
埫	-15.1692
垽	-15.1693
垻	-15.1694
垧	-15.1695
垟	-15.1696
垌	-15.1697
坿	-15.1698
坾	-15.1699
坴	-15.17
坫	-15.1701
圿	-15.1702
圪	-15.1703
囦	-15.1704
嚀	-15.1705
嘶	-15.1706
喊	-15.1707
叮	-15.1708
匾	-15.1709
劂	-15.171
剞	-15.1711
剚	-15.1712
刮	-15.1713
划	-15.1714
冏	-15.1715
傫	-15.1716
俴	-15.1717
俜	-15.1718
俁	-15.1719
丌	-15.172
䭫	-15.1721
䥸	-15.1722
䥵	-15.1723
䤪	-15.1724
䘍	-15.1725
䐑	-15.1726
䀌	-15.1727
㾗	-15.1728
㸎	-15.1729
㷿	-15.173
㷷	-15.1731
㷬	-15.1732
㷆	-15.1733
㶠	-15.1734
㵾	-15.1735
㵹	-15.1736
㵪	-15.1737
㵟	-15.1738
㴫	-15.1739
㴦	-15.174
㳻	-15.1741
㰍	-15.1742
㮿	-15.1743
㮧	-15.1744
㮙	-15.1745
㭄	-15.1746
㡽	-15.1747
㙷	-15.1748
㙴	-15.1749
㙩	-15.175
㙞	-15.1751
㙎	-15.1752
㕍	-15.1753
齬	-15.1754
齟	-15.1755
鸜	-15.1756
鵒	-15.1757
魑	-15.1758
骰	-15.1759
驆	-15.176
騩	-15.1761
騅	-15.1762
韐	-15.1763
鞓	-15.1764
靂	-15.1765
隤	-15.1766
阽	-15.1767
鑭	-15.1768
鑣	-15.1769
鍗	-15.177
鉣	-15.1771
鈱	-15.1772
鈠	-15.1773
鈋	-15.1774
鈉	-15.1775
釩	-15.1776
釦	-15.1777
釃	-15.1778
郿	-15.1779
軘	-15.178
蹲	-15.1781
蹐	-15.1782
踁	-15.1783
謖	-15.1784
觖	-15.1785
蟆	-15.1786
蛄	-15.1787
蚉	-15.1788
薇	-15.1789
蓽	-15.179
茷	-15.1791
茁	-15.1792
芣	-15.1793
臋	-15.1794
腨	-15.1795
脗	-15.1796
耹	-15.1797
罘	-15.1798
繗	-15.1799
緷	-15.18
綢	-15.1801
篥	-15.1802
磑	-15.1803
磈	-15.1804
碨	-15.1805
碔	-15.1806
皈	-15.1807
癬	-15.1808
瘼	-15.1809
畹	-15.181
璮	-15.1811
璙	-15.1812
獀	-15.1813
猘	-15.1814
狴	-15.1815
熽	-15.1816
熞	-15.1817
焨	-15.1818
炓	-15.1819
炆	-15.182
灴	-15.1821
漼	-15.1822
滈	-15.1823
浥	-15.1824
氂	-15.1825
氁	-15.1826
歂	-15.1827
橒	-15.1828
樉	-15.1829
榿	-15.183
榳	-15.1831
榣	-15.1832
栟	-15.1833
攍	-15.1834
搗	-15.1835
拗	-15.1836
懺	-15.1837
憃	-15.1838
惚	-15.1839
怩	-15.184
幐	-15.1841
嵕	-15.1842
岯	-15.1843
塏	-15.1844
埈	-15.1845
埅	-15.1846
垍	-15.1847
圳	-15.1848
噤	-15.1849
吒	-15.185
劘	-15.1851
劊	-15.1852
剳	-15.1853
剮	-15.1854
凈	-15.1855
儹	-15.1856
儛	-15.1857
俑	-15.1858
佼	-15.1859
佋	-15.186
䲭	-15.1861
䡴	-15.1862
䍽	-15.1863
㽥	-15.1864
㶇	-15.1865
㳦	-15.1866
㳋	-15.1867
㰘	-15.1868
㰂	-15.1869
㮁	-15.187
𧖟	-15.1871
齗	-15.1872
黚	-15.1873
麩	-15.1874
鵅	-15.1875
驘	-15.1876
頏	-15.1877
陔	-15.1878
鐓	-15.1879
鉖	-15.188
鈒	-15.1881
邥	-15.1882
躪	-15.1883
躄	-15.1884
跬	-15.1885
趺	-15.1886
謏	-15.1887
諓	-15.1888
蠋	-15.1889
茸	-15.189
艤	-15.1891
肓	-15.1892
罳	-15.1893
緞	-15.1894
絛	-15.1895
籲	-15.1896
磚	-15.1897
碉	-15.1898
皞	-15.1899
瘖	-15.19
玕	-15.1901
獫	-15.1902
獞	-15.1903
犇	-15.1904
燏	-15.1905
熥	-15.1906
煡	-15.1907
煓	-15.1908
焮	-15.1909
烙	-15.191
烐	-15.1911
烆	-15.1912
炥	-15.1913
炒	-15.1914
瀬	-15.1915
濩	-15.1916
澱	-15.1917
澁	-15.1918
漎	-15.1919
滆	-15.192
湳	-15.1921
涍	-15.1922
汧	-15.1923
毳	-15.1924
殍	-15.1925
殀	-15.1926
欏	-15.1927
欆	-15.1928
檯	-15.1929
檡	-15.193
橺	-15.1931
樻	-15.1932
槤	-15.1933
槏	-15.1934
榰	-15.1935
桄	-15.1936
栳	-15.1937
柫	-15.1938
杷	-15.1939
杫	-15.194
暵	-15.1941
撇	-15.1942
摴	-15.1943
搒	-15.1944
描	-15.1945
愊	-15.1946
弥	-15.1947
巏	-15.1948
巋	-15.1949
嵿	-15.195
崞	-15.1951
寠	-15.1952
姐	-15.1953
壂	-15.1954
塛	-15.1955
塒	-15.1956
堉	-15.1957
堄	-15.1958
垗	-15.1959
坽	-15.196
坯	-15.1961
嚬	-15.1962
嗷	-15.1963
嗔	-15.1964
吸	-15.1965
凂	-15.1966
偘	-15.1967
佹	-15.1968
乜	-15.1969
䵺	-15.197
鮎	-15.1971
騍	-15.1972
飤	-15.1973
鞁	-15.1974
鐏	-15.1975
鏴	-15.1976
鏓	-15.1977
鉌	-15.1978
鈹	-15.1979
郚	-15.198
輊	-15.1981
診	-15.1982
褓	-15.1983
藜	-15.1984
臉	-15.1985
翱	-15.1986
羆	-15.1987
籧	-15.1988
簬	-15.1989
篨	-15.199
箘	-15.1991
窰	-15.1992
玖	-15.1993
烰	-15.1994
炌	-15.1995
瀏	-15.1996
潾	-15.1997
渲	-15.1998
檿	-15.1999
敭	-15.2
恍	-15.2001
嫚	-15.2002
姁	-15.2003
妲	-15.2004
墦	-15.2005
堛	-15.2006
垿	-15.2007
劃	-15.2008
傔	-15.2009
㮵	-15.201
􁁦	-15.2011
鶀	-15.2012
騸	-15.2013
鎒	-15.2014
裀	-15.2015
蜻	-15.2016
萍	-15.2017
苹	-15.2018
脞	-15.2019
簠	-15.202
禺	-15.2021
琊	-15.2022
狁	-15.2023
牴	-15.2024
爺	-15.2025
熼	-15.2026
烶	-15.2027
洌	-15.2028
泓	-15.2029
歹	-15.203
櫸	-15.2031
櫏	-15.2032
橓	-15.2033
梈	-15.2034
栲	-15.2035
暐	-15.2036
恝	-15.2037
廆	-15.2038
娓	-15.2039
墠	-15.204
堈	-15.2041
喆	-15.2042
㙾	-15.2043
㘧	-15.2044
鵋	-15.2045
駰	-15.2046
邐	-15.2047
蓉	-15.2048
苔	-15.2049
芙	-15.205
艫	-15.2051
舳	-15.2052
罈	-15.2053
犍	-15.2054
澋	-15.2055
浡	-15.2056
洸	-15.2057
檮	-15.2058
榴	-15.2059
栩	-15.206
柘	-15.2061
悒	-15.2062
帟	-15.2063
墭	-15.2064
墡	-15.2065
勔	-15.2066
䴊	-15.2067
㙉	-15.2068
頞	-15.2069
闉	-15.207
鍬	-15.2071
轚	-15.2072
踖	-15.2073
諠	-15.2074
藹	-15.2075
臃	-15.2076
胊	-15.2077
罐	-15.2078
痍	-15.2079
潚	-15.208
泆	-15.2081
楗	-15.2082
媽	-15.2083
婪	-15.2084
傴	-15.2085
㮮	-15.2086
鼉	-15.2087
騄	-15.2088
逍	-15.2089
裟	-15.209
袈	-15.2091
莧	-15.2092
荔	-15.2093
腓	-15.2094
胝	-15.2095
繙	-15.2096
磊	-15.2097
玳	-15.2098
焌	-15.2099
榼	-15.21
楛	-15.2101
敫	-15.2102
徠	-15.2103
嚚	-15.2104
叵	-15.2105
厓	-15.2106
侹	-15.2107
䳢	-15.2108
鶡	-15.2109
駸	-15.211
腑	-15.2111
淆	-15.2112
櫍	-15.2113
朧	-15.2114
朦	-15.2115
徘	-15.2116
徊	-15.2117
嬙	-15.2118
唪	-15.2119
鄏	-15.212
煇	-15.2121
懴	-15.2122
怫	-15.2123
姞	-15.2124
垝	-15.2125
蔟	-15.2126
苓	-15.2127
琉	-15.2128
憔	-15.2129
侂	-15.213
銚	-15.2131
艴	-15.2132
獗	-15.2133
匽	-15.2134
凰	-15.2135
茫	-15.2136
碌	-15.2137
琶	-15.2138
琵	-15.2139
燉	-15.214
洹	-15.2141
冓	-15.2142
詿	-15.2143
擘	-15.2144
壟	-15.2145
嘍	-15.2146
韃	-15.2147
橚	-15.2148
㿈	-15.2149
鄄	-15.2149
覦	-15.215
蕘	-15.2151
羫	-15.2152
梲	-15.2153
蓐	-15.2154
紜	-15.2155
嘛	-15.2156
獪	-15.2156
淬	-15.2157
侏	-15.2158
舶	-15.2159
蹂	-15.216
捭	-15.2161
翌	-15.2162
迤	-15.2162
瀘	-15.2163
鄱	-15.2164
溧	-15.2165
惓	-15.2166
菩	-15.2167
夤	-15.2168
輜	-15.2169
嫪	-15.217
棉	-15.2171
褏	-15.2172
鋄	-15.2173
駙	-15.2173
