<unk>	0
<s>	0
</s>	0
之	-3.66343
也	-4.05183
/	-4.27603
而	-4.29892
以	-4.34398
其	-4.62868
者	-4.66575
為	-4.69151
)(	-4.73145
則	-4.83483
有	-4.95711
(	-5.03602
曰	-5.05586
不	-5.06069
)	-5.11519
於	-5.16552
言	-5.18159
故	-5.38867
此	-5.42651
于	-5.43175
自	-5.44599
是	-5.4936
在	-5.58008
大	-5.58394
無	-5.59281
人	-5.60044
一	-5.62347
與	-5.73739
惟	-5.74176
至	-5.75117
皆	-5.76803
矣	-5.79045
謂	-5.81467
乃	-5.8206
所	-5.8543
王	-5.87802
天	-5.89365
非	-5.91158
亦	-5.92889
民	-5.92916
用	-5.92969
作	-5.96649
水	-6.04444
事	-6.04768
云	-6.07341
又	-6.08657
今	-6.09234
明	-6.11308
中	-6.12365
命	-6.12662
如	-6.15146
我	-6.17766
時	-6.19022
然	-6.19727
當	-6.19875
三	-6.23481
既	-6.24733
徳	-6.24802
若	-6.25551
乎	-6.25655
上	-6.25891
正	-6.26582
山	-6.27933
下	-6.28492
行	-6.28898
必	-6.31664
子	-6.32054
能	-6.32508
得	-6.32728
即	-6.32963
日	-6.33017
爲	-6.36076
五	-6.3856
見	-6.39957
同	-6.40801
使	-6.41532
治	-6.41875
相	-6.41892
汝	-6.41914
所以	-6.43042
知	-6.4424
成	-6.44259
河	-6.4432
出	-6.4488
書	-6.45433
州	-6.45752
已	-6.46563
君	-6.48998
道	-6.49779
▁	-6.50333
哉	-6.50521
二	-6.51211
東	-6.52388
反	-6.52548
○	-6.52676
可	-6.54014
從	-6.54357
心	-6.54441
周公	-6.56588
禹	-6.6058
安	-6.61039
南	-6.61517
名	-6.6247
文	-6.62596
國	-6.6368
四	-6.64193
雖	-6.64327
欲	-6.65368
傳	-6.65923
周	-6.66129
地	-6.66201
居	-6.66241
及	-6.66881
公	-6.67234
生	-6.68324
始	-6.68407
後	-6.69166
爾	-6.69236
分	-6.70961
以為	-6.71105
臣	-6.71355
刑	-6.72306
服	-6.72325
或	-6.7328
本	-6.73893
敬	-6.74535
德	-6.74903
法	-6.76774
縣	-6.76855
西	-6.77883
經	-6.79648
北	-6.81133
官	-6.81539
何	-6.81806
入	-6.82378
未	-6.82463
平	-6.82612
立	-6.82703
善	-6.83254
所謂	-6.83542
先	-6.83573
蓋	-6.83899
方	-6.84502
常	-6.84966
不可	-6.85837
多	-6.85881
舜	-6.86775
世	-6.87301
意	-6.87443
合	-6.87765
土	-6.88662
焉	-6.89421
漢	-6.90488
師	-6.90675
耳	-6.91847
天下	-6.91871
長	-6.92324
定	-6.92443
厥	-6.92792
訓	-6.92992
諸侯	-6.94321
成王	-6.94334
禮	-6.95243
殷	-6.95489
通	-6.95716
義	-6.95896
夏	-6.96408
和	-6.96456
功	-6.96861
亂	-6.97117
六	-6.9717
易	-6.98249
陽	-6.98346
告	-6.99568
去	-6.99769
氏	-6.99792
帝	-6.9987
終	-7.00003
政	-7.00085
復	-7.00168
九	-7.00657
猶	-7.00673
實	-7.01024
受	-7.01069
稱	-7.0136
江	-7.0175
古	-7.01778
重	-7.03325
字	-7.03801
因	-7.0426
物	-7.04947
流	-7.04994
/)	-7.05383
武王	-7.06353
將	-7.06543
而不	-7.08727
舉	-7.09209
謂之	-7.10022
過	-7.10458
數	-7.10849
如此	-7.11429
凡	-7.11903
説	-7.11958
小	-7.11958
順	-7.13646
遷	-7.14171
盡	-7.15264
逺	-7.15296
信	-7.15852
夫	-7.15984
衆	-7.16226
處	-7.17125
惡	-7.1727
不能	-7.17547
理	-7.1837
商	-7.18588
來	-7.19555
前	-7.20119
克	-7.20267
湯	-7.20364
外	-7.20602
都	-7.21841
屬	-7.22406
之事	-7.23897
之意	-7.2397
樂	-7.24059
主	-7.24242
音	-7.25114
極	-7.25378
度	-7.25507
豈	-7.25808
固	-7.25953
難	-7.26533
次	-7.28881
罪	-7.29004
海	-7.29725
教	-7.3019
而已	-7.30444
遂	-7.30726
紂	-7.31105
志	-7.31633
盖	-7.31874
近	-7.32456
予	-7.32523
家	-7.33734
之所	-7.3392
由	-7.34048
諸	-7.34346
戒	-7.35016
但	-7.35705
說	-7.36467
祭	-7.3647
疑	-7.36575
文王	-7.36848
取	-7.38143
位	-7.38651
濟	-7.38925
異	-7.38986
序	-7.39617
賢	-7.39909
月	-7.39997
堯	-7.40125
深	-7.40127
考	-7.403
初	-7.40496
失	-7.40572
陳	-7.40803
保	-7.41104
思	-7.41337
觀	-7.41353
致	-7.41358
歸	-7.42356
注	-7.42381
各	-7.42424
篇	-7.42975
且	-7.43086
内	-7.43091
舊	-7.43104
變	-7.43932
武	-7.45369
封	-7.4582
朝	-7.46144
百	-7.46228
元	-7.46262
身	-7.46262
澤	-7.4631
甚	-7.46421
聖人	-7.47346
至于	-7.4793
載	-7.48419
引	-7.48604
修	-7.48699
止	-7.49094
可以	-7.4967
天子	-7.49988
八	-7.50351
亡	-7.505
七	-7.50622
謀	-7.50667
廣	-7.51023
是也	-7.51162
年	-7.51177
辭	-7.51198
聖	-7.51316
親	-7.51576
語	-7.5166
求	-7.51673
宗	-7.52364
獨	-7.52455
制	-7.52482
田	-7.53124
承	-7.53185
者也	-7.53436
郡	-7.53459
之心	-7.53659
神	-7.53665
興	-7.54469
典	-7.54567
邦	-7.54587
㑹	-7.55371
卜	-7.55954
氣	-7.56173
城	-7.56186
士	-7.5624
齊	-7.56388
天命	-7.56884
葢	-7.57365
兩	-7.57798
力	-7.57863
等	-7.58001
至於	-7.5805
學	-7.581
祀	-7.58347
宜	-7.58355
金	-7.58369
伯	-7.58418
應	-7.58479
率	-7.58671
死	-7.58907
論	-7.59082
動	-7.591
視	-7.59147
貢	-7.60033
聞	-7.60036
令	-7.60674
永	-7.60793
絶	-7.61122
罰	-7.61694
祖	-7.61706
體	-7.61715
化	-7.61813
之道	-7.61882
聲	-7.62085
益	-7.62296
任	-7.62535
尚	-7.62989
降	-7.64024
少	-7.64257
口	-7.64497
木	-7.64557
指	-7.64753
章	-7.65275
食	-7.65431
洛	-7.65543
代	-7.65849
,	-7.65895
發	-7.66041
父	-7.66388
而後	-7.66698
正義曰	-7.67513
府	-7.67538
建	-7.67761
餘	-7.67978
别	-7.6869
史	-7.68709
威	-7.69132
好	-7.69516
進	-7.69624
髙	-7.69766
起	-7.69797
唐	-7.69822
太	-7.69967
殺	-7.70565
己	-7.70578
念	-7.70611
其所	-7.70802
畏	-7.71514
改	-7.72209
風	-7.72495
簡	-7.72613
伊尹	-7.72708
直	-7.72811
伐	-7.72826
往	-7.72859
弗	-7.73362
不敢	-7.73489
象	-7.73522
孔	-7.74067
吉	-7.74077
越	-7.74606
新	-7.75168
賦	-7.75242
石	-7.75426
誠	-7.75718
記	-7.76432
聽	-7.76445
不知	-7.7645
太甲	-7.76869
門	-7.76945
之言	-7.77364
望	-7.77368
先王	-7.77677
故曰	-7.7771
侯	-7.78071
彼	-7.78275
然後	-7.78742
按	-7.7896
詩	-7.79423
夷	-7.79617
問	-7.79973
後世	-7.8017
繼	-7.80684
備	-7.80852
不得	-7.81267
逸	-7.81389
職	-7.814
要	-7.81447
開	-7.81592
尊	-7.81799
節	-7.81858
據	-7.82293
玉	-7.82394
原	-7.8259
星	-7.82908
之後	-7.83059
輕	-7.83127
仁	-7.83623
紀	-7.84086
利	-7.84426
詳	-7.8447
之人	-7.8453
首	-7.8487
敢	-7.84964
之地	-7.85583
吾	-7.85652
奉	-7.85802
川	-7.86011
性	-7.86203
輔	-7.86325
休	-7.86499
並	-7.86672
守	-7.8706
共	-7.87142
恭	-7.87338
加	-7.87588
召公	-7.87614
美	-7.87627
罔	-7.87855
廢	-7.88007
萬	-7.88454
存	-7.88581
火	-7.88938
享	-7.88972
間	-7.8898
害	-7.89075
勤	-7.89327
之時	-7.89562
十	-7.89951
▁(	-7.90372
邑	-7.90746
庶	-7.90976
光	-7.91316
𫝊	-7.91467
廟	-7.91952
執	-7.92018
更	-7.92311
格	-7.92451
誥	-7.92944
喪	-7.9299
疏	-7.94062
禹貢	-7.94806
里	-7.94871
馬	-7.94925
怨	-7.95315
之間	-7.95386
酒	-7.95503
淮	-7.9561
宅	-7.95738
解	-7.9597
特	-7.96276
昭	-7.96592
言之	-7.96766
鄭	-7.96905
憂	-7.9711
句	-7.97237
白	-7.97371
顯	-7.97872
旣	-7.97932
臨	-7.98241
圖	-7.98249
后	-7.98252
不同	-7.98287
人之	-7.98665
謹	-7.98669
源	-7.98674
敷	-7.9899
天之	-7.99201
推	-7.99263
嵗	-7.9941
晉	-7.99658
色	-7.9968
責	-8.00161
於此	-8.00247
康	-8.00282
咸	-8.00337
秦	-8.01286
莫	-8.01362
釋	-8.01493
陵	-8.01541
兵	-8.01795
斷	-8.01955
掌	-8.01992
四方	-8.02084
寧	-8.02219
慎	-8.02635
宋	-8.02752
總	-8.02988
列	-8.03061
人君	-8.03118
著	-8.03561
逆	-8.03871
有所	-8.03958
誤	-8.0426
就	-8.04305
歴	-8.04429
足	-8.04522
周禮	-8.04701
施	-8.04878
辟	-8.05085
容	-8.05093
形	-8.05431
比	-8.05725
敎	-8.05835
他	-8.05979
置	-8.06142
類	-8.06364
厚	-8.06383
養	-8.06775
氏曰	-8.06842
違	-8.06983
勉	-8.07312
愛	-8.0799
厯	-8.0816
私	-8.08374
監	-8.08545
叙	-8.08942
納	-8.08982
千	-8.09188
導	-8.09214
兼	-8.09257
民之	-8.093
不言	-8.09323
福	-8.0981
最	-8.0985
恐	-8.10136
五行	-8.10466
朔	-8.10734
文武	-8.10968
桀	-8.11079
又曰	-8.11102
無所	-8.11152
臯陶	-8.11187
隂	-8.11613
精	-8.12028
歌	-8.12182
全	-8.12419
放	-8.12512
盤庚	-8.12564
器	-8.12795
天下之	-8.13018
兹	-8.13093
疾	-8.13113
須	-8.13275
天地	-8.13733
尤	-8.14325
讀	-8.14734
虞	-8.14771
孫	-8.14956
布	-8.15455
勿	-8.15891
畢	-8.16183
清	-8.163
朕	-8.16493
微	-8.17186
虐	-8.17325
乂	-8.17926
棄	-8.18234
君子	-8.18319
盛	-8.18369
達	-8.18945
滅	-8.19737
仲	-8.19815
於是	-8.19944
差	-8.20015
之中	-8.20394
之辭	-8.20475
錫	-8.2056
勞	-8.20664
察	-8.20867
便	-8.21066
十二	-8.21079
軍	-8.21082
張	-8.21623
邪	-8.21695
箕子	-8.21752
誅	-8.21812
敘	-8.22122
君臣	-8.22178
梁	-8.22356
衛	-8.22368
目	-8.22477
征	-8.22511
皇	-8.22709
也故	-8.23047
春	-8.23115
上下	-8.23223
揚	-8.2323
律	-8.23247
案	-8.23357
者皆	-8.23413
漢孔氏曰	-8.23798
無不	-8.23849
凶	-8.24009
之功	-8.24125
危	-8.24209
交	-8.24304
亳	-8.24339
魯	-8.24628
工	-8.24636
迪	-8.24662
老	-8.24746
春秋	-8.24913
上帝	-8.24951
果	-8.25051
昔	-8.25105
對	-8.25918
情	-8.2596
勝	-8.25986
統	-8.26215
。	-8.26317
向	-8.2638
肆	-8.26435
助	-8.26456
允	-8.26573
以下	-8.266
界	-8.26624
司	-8.2667
雨	-8.26752
此言	-8.27048
室	-8.27114
徒	-8.27216
誓	-8.27808
庸	-8.27984
感	-8.2822
錯	-8.28243
黄	-8.2834
徐	-8.28508
嘗	-8.28561
辨	-8.29192
依	-8.29221
孝	-8.29245
留	-8.2961
良	-8.29703
決	-8.29727
宫	-8.29812
設	-8.29842
待	-8.29905
龜	-8.2993
使之	-8.2998
入海	-8.30021
寛	-8.301
條	-8.30103
右	-8.30801
三年	-8.30805
之法	-8.31062
切	-8.31245
只	-8.31381
蔡	-8.31919
卷	-8.32049
之義	-8.32125
表	-8.32535
而無	-8.32574
尹	-8.32611
省	-8.32881
當時	-8.33105
路	-8.33136
以此	-8.33257
久	-8.33592
似	-8.33706
俗	-8.34583
而言	-8.34668
授	-8.34711
造	-8.34784
牧	-8.34916
車	-8.35037
塞	-8.35231
古文	-8.35846
苟	-8.35932
豐	-8.36329
叛	-8.36538
遺	-8.36538
申	-8.36563
敗	-8.36752
不及	-8.36765
渠	-8.37071
東北	-8.37152
獻	-8.37327
康叔	-8.37382
并	-8.37653
面	-8.37836
之説	-8.37912
荒	-8.38093
斯	-8.38149
業	-8.38279
史記	-8.38334
升	-8.38833
適	-8.38886
嘉	-8.38916
其事	-8.39047
辰	-8.39234
人心	-8.39281
大夫	-8.39371
述	-8.3971
湖	-8.39762
嚴	-8.39794
左右	-8.40438
左	-8.40439
之徳	-8.40729
才	-8.40824
嗣	-8.4089
旅	-8.40964
末	-8.40987
漸	-8.4126
郊	-8.41281
西南	-8.41463
卒	-8.41862
勸	-8.4195
祗	-8.42032
略	-8.4207
况	-8.4208
農	-8.42368
退	-8.42539
秋	-8.4257
必有	-8.4266
之理	-8.42669
忠	-8.42672
具	-8.42728
否	-8.42776
華	-8.42943
髙宗	-8.43111
勢	-8.43176
懼	-8.43349
俱	-8.4368
巳	-8.43751
冀	-8.43796
計	-8.43893
協	-8.43901
林	-8.44029
荆	-8.44427
東南	-8.4459
尚書	-8.44665
顧	-8.44728
積	-8.44812
未嘗	-8.44828
審	-8.45201
幾	-8.4544
專	-8.45566
習	-8.45599
上文	-8.45607
足以	-8.45807
日月	-8.45883
淫	-8.4596
證	-8.4603
出於	-8.46087
昌	-8.46289
慮	-8.46572
恤	-8.46694
啓	-8.46766
丕	-8.46955
崩	-8.47005
除	-8.4723
其心	-8.47355
孔子	-8.47433
冬	-8.48114
者以	-8.48127
小人	-8.48225
豫	-8.4883
運	-8.48937
被	-8.48983
離	-8.49024
曲	-8.49038
則是	-8.49301
楚	-8.49614
還	-8.49665
病	-8.49692
期	-8.49856
下文	-8.50199
謨	-8.50258
再	-8.50512
言其	-8.50624
此篇	-8.50756
貴	-8.50795
隨	-8.50858
智	-8.50872
忽	-8.51103
爵	-8.51139
四海	-8.51238
雍	-8.51299
附	-8.51686
患	-8.51745
懐	-8.51978
青	-8.52301
吕氏曰	-8.5275
也此	-8.53069
欽	-8.53421
戰	-8.53446
一人	-8.53558
接	-8.53751
龍	-8.54341
𤼵	-8.54553
羣	-8.54818
孟子	-8.54937
采	-8.54998
谷	-8.55007
偏	-8.55522
真	-8.56116
宣	-8.5615
百官	-8.56227
叔	-8.56519
戎	-8.56727
註	-8.56916
儀	-8.57319
嗚呼	-8.57511
蒙	-8.57613
崇	-8.57773
之書	-8.5783
何以	-8.57843
羣臣	-8.57875
端	-8.5793
人主	-8.57981
弟	-8.5812
受命	-8.58156
渭	-8.58228
惠	-8.58263
子孫	-8.58478
集	-8.58649
故以	-8.58915
圭	-8.58977
不足	-8.5903
不可不	-8.59033
示	-8.59086
肅	-8.59109
循	-8.59558
務	-8.59771
兆	-8.59832
貨	-8.59965
高	-8.59969
半	-8.60139
武庚	-8.60456
移	-8.6048
革	-8.60591
俊	-8.60595
鯀	-8.60612
歟	-8.60667
之類	-8.60813
西北	-8.60843
甲	-8.60858
得其	-8.60933
𤣥	-8.60972
之命	-8.60986
咎	-8.61001
水出	-8.6101
社	-8.61015
會	-8.61215
成湯	-8.6148
古人	-8.61494
九州	-8.61543
左傳	-8.61582
縱	-8.61628
為一	-8.61731
配	-8.61855
役	-8.62165
獄	-8.62174
號	-8.62332
之官	-8.62471
吕	-8.63046
之外	-8.63384
友	-8.63524
覆	-8.63963
魏	-8.64039
欲其	-8.6415
犯	-8.64443
如何	-8.64597
尺	-8.64889
富	-8.64935
唐孔氏曰	-8.65023
徙	-8.65103
之所以	-8.65183
延	-8.65419
知其	-8.65507
一日	-8.65814
徃	-8.65881
祥	-8.66064
艱	-8.66348
窮	-8.66363
百姓	-8.6656
御	-8.6658
懋	-8.66607
微子	-8.66699
識	-8.66751
昏	-8.66938
靈	-8.67032
每	-8.67087
之名	-8.67213
彭蠡	-8.67216
今日	-8.67458
二十	-8.67861
然則	-8.67958
不可以	-8.68436
恒	-8.68439
剛	-8.68484
垂	-8.68568
四岳	-8.68783
孟	-8.6891
卿	-8.68983
耶	-8.69093
衡	-8.69215
集傳	-8.69261
胡	-8.69275
怠	-8.69304
撫	-8.69374
女	-8.69623
在今	-8.69787
山在	-8.69789
包	-8.69824
闕	-8.69909
寸	-8.70057
景	-8.70061
刻	-8.70134
洪範	-8.70267
許	-8.70548
千里	-8.70596
之臣	-8.70684
權	-8.70701
虚	-8.71232
哲	-8.71278
太保	-8.71286
救	-8.71611
孔氏	-8.71648
皇極	-8.71651
息	-8.71658
孔氏曰	-8.71742
泰誓	-8.71889
呼	-8.71933
余	-8.71959
羽	-8.71983
君陳	-8.72017
聚	-8.72097
連	-8.72146
三十	-8.72264
藏	-8.72286
治之	-8.72428
故言	-8.72504
强	-8.72518
猷	-8.7264
百里	-8.72733
以爲	-8.72843
災	-8.72884
族	-8.72983
二年	-8.72983
不然	-8.7308
其地	-8.73214
驗	-8.73304
即位	-8.7331
賞	-8.73386
冀州	-8.73561
急	-8.73597
者亦	-8.73752
也然	-8.73771
浮	-8.73813
距	-8.73855
播	-8.73948
而為	-8.74194
録	-8.74258
卿士	-8.74337
純	-8.74353
細	-8.74403
五事	-8.74443
底	-8.74525
稽	-8.74621
衣	-8.74624
可知	-8.74673
可見	-8.74763
至此	-8.74783
讓	-8.74862
怒	-8.75001
伏生	-8.75012
射	-8.75057
司徒	-8.75106
偽	-8.75218
味	-8.75335
治水	-8.75357
莫不	-8.75358
不復	-8.75395
鄉	-8.75597
賔	-8.75782
朱	-8.75795
營	-8.75829
其徳	-8.75956
乗	-8.76227
之本	-8.76279
也言	-8.76362
畫	-8.7649
種	-8.76657
轉	-8.76694
潛	-8.7678
縣南	-8.7685
黎	-8.76894
草	-8.76913
一篇	-8.77053
結	-8.77161
妄	-8.77375
周官	-8.77619
徴	-8.77622
元年	-8.77658
擇	-8.77722
而下	-8.77887
野	-8.77918
牛	-8.78229
朱子曰	-8.78275
愚	-8.78328
拜	-8.78405
宿	-8.78422
之下	-8.78436
先王之	-8.78472
襄	-8.78625
報	-8.78789
洛邑	-8.78862
奏	-8.79278
悉	-8.79401
懷	-8.79479
赦	-8.79562
賜	-8.79656
寒	-8.79679
陸	-8.79986
自然	-8.80162
柔	-8.80348
父母	-8.80385
是以	-8.80483
管	-8.80772
暴	-8.80963
雜	-8.81032
堂	-8.81153
五刑	-8.81281
幽	-8.81333
參	-8.81362
井	-8.81423
均	-8.81445
寅	-8.81597
攸	-8.81635
也夫	-8.81711
皆以	-8.81873
赤	-8.81945
質	-8.82173
皆是	-8.82316
無有	-8.82318
林氏曰	-8.82366
占	-8.82473
翼	-8.82543
康王	-8.82644
境	-8.82663
之說	-8.82742
逹	-8.82845
丘	-8.82849
遜	-8.82924
旁	-8.82942
見其	-8.83152
竹	-8.832
逕	-8.83253
篤	-8.83293
沔	-8.83382
将	-8.83474
入河	-8.83504
九江	-8.83529
孤	-8.83543
在位	-8.83551
王者	-8.83806
鳥	-8.84078
亦有	-8.84351
側	-8.84416
可謂	-8.84465
之職	-8.84475
積石	-8.84629
衞	-8.84682
奄	-8.84687
淮夷	-8.84769
碣石	-8.84828
坐	-8.84853
愼	-8.84967
爾雅	-8.84986
毛	-8.85032
禹之	-8.85117
苦	-8.85216
茍	-8.85254
皆有	-8.85366
泉	-8.85411
以見	-8.8548
曉	-8.85487
只是	-8.85615
乘	-8.8563
穆王	-8.85779
朱子	-8.85789
其言	-8.86042
扵	-8.86148
溢	-8.86171
殷民	-8.86413
殷之	-8.86494
季	-8.86551
周之	-8.8656
山川	-8.86581
不必	-8.86666
于天	-8.86732
資	-8.86765
聰明	-8.8679
多士	-8.86902
手	-8.87004
亦不	-8.87133
登	-8.87293
不過	-8.87373
敵	-8.87399
漢書	-8.87478
鬼神	-8.87509
諫	-8.87536
折	-8.87594
立政	-8.87628
歲	-8.87631
聴	-8.87681
岳	-8.87713
則其	-8.87933
貌	-8.88218
竊	-8.8827
背	-8.88389
悔	-8.88394
傷	-8.88446
王命	-8.88534
横	-8.88564
之故	-8.88581
某	-8.88582
舞	-8.88591
告之	-8.88669
式	-8.88721
劉	-8.88876
散	-8.88882
卑	-8.89182
姓	-8.89208
夀	-8.8923
召	-8.89293
績	-8.89463
禍	-8.8954
磬	-8.89557
弼	-8.89586
文王之	-8.89695
三公	-8.89823
弱	-8.90034
舍	-8.90135
未有	-8.90141
攻	-8.90173
討	-8.90186
司馬	-8.90299
湯之	-8.90377
孰	-8.90442
供	-8.90834
其意	-8.90878
之君	-8.91319
貞	-8.91319
雲	-8.915
蔡傳	-8.91525
夜	-8.91716
繫	-8.91734
無逸	-8.91796
入于	-8.92113
惑	-8.92316
未必	-8.92399
周公之	-8.92444
其君	-8.92575
則有	-8.92613
喜	-8.93221
階	-8.93226
舜典	-8.9326
之民	-8.93398
魚	-8.93476
議	-8.93479
疇	-8.93553
如是	-8.93562
持	-8.93633
俾	-8.93637
在於	-8.93687
荆州	-8.93731
水經	-8.93769
堯典	-8.93813
歎	-8.93966
麗	-8.93986
胥	-8.93991
誕	-8.94012
蔡氏	-8.94031
戮	-8.94049
況	-8.94082
者非	-8.94297
河南	-8.94466
蔽	-8.94476
洪水	-8.94501
縣北	-8.94607
小民	-8.94663
愈	-8.94676
雍州	-8.94814
吳	-8.9482
禁	-8.94877
中國	-8.94903
夾	-8.94956
沈	-8.95036
旦	-8.95057
古之	-8.95073
皮	-8.95183
蘇	-8.95412
大臣	-8.95434
例	-8.95704
其實	-8.95712
而又	-8.9588
壤	-8.95939
支	-8.96088
用之	-8.96176
以其	-8.96198
藝	-8.96267
眀	-8.96323
堯舜	-8.96718
䘮	-8.96723
之文	-8.96738
於天	-8.9678
迹	-8.96932
萬物	-8.96935
二字	-8.97155
漢志	-8.97222
天道	-8.97223
壽	-8.97286
于此	-8.9735
祭祀	-8.97428
穀	-8.9757
江漢	-8.97598
龍門	-8.97719
王之	-8.97793
又按	-8.97878
築	-8.97884
来	-8.97887
傅	-8.97989
四時	-8.97995
兖	-8.98011
祝	-8.98261
殊	-8.98318
矣故	-8.98466
所當	-8.98744
之水	-8.98761
下民	-8.98994
沙	-8.99053
寳	-8.99288
貫	-8.99328
成周	-8.99392
所以為	-8.99492
徳之	-8.99521
九河	-8.99562
者則	-8.9993
黜	-9.00075
五十	-9.0026
羲和	-9.00281
之使	-9.0037
成功	-9.00494
震	-9.00687
鼓	-9.00728
泗	-9.00774
蘇氏曰	-9.00803
法度	-9.0083
乆	-9.00863
試	-9.00905
頑	-9.01132
機	-9.01151
古者	-9.01205
不善	-9.01208
博	-9.01223
鑿	-9.01442
關	-9.01474
禄	-9.01493
忘	-9.01508
干	-9.01635
顧命	-9.01848
之際	-9.01904
不以	-9.02017
薄	-9.02092
纂註	-9.02199
李	-9.02204
速	-9.02242
罔不	-9.02322
撰	-9.0236
秩	-9.02378
輕重	-9.02487
其功	-9.0272
小子	-9.03148
却	-9.03497
材	-9.03599
冕	-9.03656
負	-9.03703
冊	-9.03705
廸	-9.03895
呉	-9.03966
賊	-9.03977
短	-9.04049
喻	-9.04109
伏	-9.04134
宥	-9.04209
之罪	-9.0425
行之	-9.04424
抑	-9.04572
恃	-9.04622
宗廟	-9.04775
王氏	-9.04809
之初	-9.04871
大抵	-9.0488
揚州	-9.04988
咨	-9.05237
武王之	-9.05382
飾	-9.054
故云	-9.05423
國之	-9.05483
綱	-9.05486
國家	-9.05521
先後	-9.05524
則為	-9.05639
慶	-9.05667
王曰	-9.05816
幣	-9.0582
倫	-9.05845
趨	-9.0597
各有	-9.06036
南北	-9.06056
六卿	-9.06127
先儒	-9.06163
明徳	-9.06294
伊	-9.0632
陽縣	-9.06325
鎮	-9.06349
烈	-9.06351
東西	-9.06406
張氏曰	-9.06457
誰	-9.06506
故謂之	-9.06606
亦惟	-9.06659
見於	-9.06671
契	-9.06747
輅	-9.06852
殄	-9.06883
衰	-9.06903
也今	-9.0693
畢公	-9.07037
梁州	-9.07042
收	-9.07281
也蓋	-9.07345
高宗	-9.07465
佑	-9.07534
萬邦	-9.07547
隋	-9.0766
五百里	-9.07793
辛	-9.07805
其所以	-9.07995
庭	-9.08039
舜之	-9.08163
所言	-9.0831
音義	-9.08321
也惟	-9.08351
三篇	-9.08405
避	-9.08542
于是	-9.08556
母	-9.08567
擊	-9.08648
夢	-9.08781
三江	-9.0883
此説	-9.09107
墨	-9.09111
無窮	-9.09154
縣西	-9.09185
之禮	-9.09353
雖有	-9.094
卜筮	-9.09432
畧	-9.09488
鮮	-9.09521
竒	-9.09562
穆	-9.09591
迷	-9.09669
經文	-9.09676
桑	-9.09712
事也	-9.09747
奠	-9.09748
五服	-9.09764
秉	-9.09786
萬世	-9.09842
桓	-9.09865
陳氏曰	-9.09913
舟	-9.10128
綏	-9.1014
不敬	-9.10225
于民	-9.10251
曾	-9.10314
卦	-9.10356
而有	-9.1052
民心	-9.10561
之數	-9.10672
矣然	-9.10725
帝曰	-9.10835
僕	-9.10906
奪	-9.10926
然而	-9.10966
賓	-9.11057
險	-9.11074
五年	-9.11152
愆	-9.1123
迎	-9.11352
約	-9.11451
姦	-9.11464
正月	-9.11491
沱	-9.11547
財	-9.11702
其後	-9.11797
班	-9.11806
徵	-9.11836
瀆	-9.1187
嶺	-9.11899
司空	-9.12026
有功	-9.1217
君之	-9.12218
也若	-9.12282
知之	-9.12393
黒水	-9.12424
津	-9.12459
注云	-9.12479
兄	-9.12518
之政	-9.12535
侮	-9.12558
寶	-9.1256
堯之	-9.12586
漢水	-9.1259
庶民	-9.12689
寡	-9.12733
矜	-9.12994
太康	-9.13147
汶	-9.13216
虎	-9.13225
佐	-9.13381
介	-9.13393
聖人之	-9.13461
遇	-9.13813
墜	-9.13848
者蓋	-9.13852
效	-9.13873
男	-9.13889
命之	-9.13897
於民	-9.13899
三月	-9.13914
也傳	-9.13987
飲	-9.14062
歳	-9.14069
遠	-9.14078
姑	-9.14329
如此則	-9.14335
充	-9.14344
有罪	-9.14431
闗	-9.14462
其罪	-9.14754
慢	-9.14908
之謂	-9.15005
閒	-9.15149
者謂	-9.15186
燕	-9.15446
矣此	-9.15448
温	-9.15489
㫖	-9.1563
角	-9.15992
艱難	-9.16042
房	-9.16158
後人	-9.16185
葛	-9.16231
孔傳	-9.16259
小大	-9.16371
躬	-9.16394
甘	-9.16562
諸侯之	-9.16584
覺	-9.16625
席	-9.16646
請	-9.1668
縣東	-9.1669
單	-9.16727
滿	-9.16768
者必	-9.16951
雅	-9.17002
耕	-9.17003
弱水	-9.17136
疆	-9.17179
寜	-9.17457
丁	-9.17474
學者	-9.17554
玩	-9.17587
遊	-9.17745
羿	-9.17797
九州之	-9.18091
逾	-9.18178
又云	-9.1843
夫子	-9.18467
彰	-9.18623
答	-9.18625
脩	-9.18633
乾	-9.18747
之内	-9.18827
茲	-9.18941
四年	-9.18981
暨	-9.19057
不明	-9.19101
為善	-9.19244
黒	-9.19247
㣲	-9.19301
大陸	-9.19507
攝	-9.19628
昬	-9.1975
維	-9.19763
又有	-9.20001
假	-9.2008
唐虞	-9.20183
哀	-9.20221
泰	-9.20275
追	-9.20357
儒	-9.20412
濟水	-9.20553
王室	-9.20588
之南	-9.20661
衍	-9.20763
仍	-9.20792
十三	-9.20817
仰	-9.20963
不相	-9.21002
之序	-9.2103
觀之	-9.2109
乙	-9.21107
吏	-9.21219
正義	-9.21315
之實	-9.21332
尾	-9.21395
百工	-9.21409
其身	-9.21529
釐	-9.21536
析	-9.2176
榖	-9.21761
之屬	-9.21914
戒之	-9.21971
黨	-9.21981
多方	-9.22159
武成	-9.22238
豈有	-9.22399
太史	-9.22498
謙	-9.22617
天地之	-9.22708
紂之	-9.22731
下流	-9.22845
斯民	-9.22851
失其	-9.22906
相與	-9.22976
其間	-9.23029
陟	-9.23084
割	-9.23168
其中	-9.23191
戾	-9.23203
嚮	-9.23464
遽	-9.23493
鄰	-9.23501
二水	-9.23502
陳氏大猷曰	-9.23534
傲	-9.23543
貝	-9.2373
不與	-9.23816
求之	-9.23866
三代	-9.2391
甫	-9.23976
安得	-9.24083
七年	-9.24125
稷	-9.24164
古今	-9.24225
幼	-9.24261
天子之	-9.24278
為君	-9.24566
故也	-9.24622
禾	-9.24643
欽定四庫全書	-9.24733
不應	-9.24763
荆山	-9.24796
入於	-9.2493
史官	-9.25114
防	-9.25288
規	-9.25351
考之	-9.25426
新邑	-9.25607
𢎞	-9.25648
法也	-9.25658
盈	-9.25663
了	-9.25665
囚	-9.25687
其民	-9.25962
受之	-9.26002
詔	-9.26105
其義	-9.26146
獲	-9.26267
安國	-9.26318
鳥獸	-9.26367
决	-9.26523
二人	-9.26547
之位	-9.26621
三危	-9.26821
王若曰	-9.2695
不當	-9.27038
商之	-9.27126
御事	-9.27241
草木	-9.27256
有此	-9.27367
惟其	-9.2745
緩	-9.27531
周書	-9.27611
蘇氏	-9.27687
邇	-9.27859
丹	-9.2797
蔡氏曰	-9.28002
隂陽	-9.2809
岐	-9.28125
政事	-9.28175
西土	-9.28231
者言	-9.28331
履	-9.28465
之上	-9.28639
豈可	-9.28659
三百	-9.28723
無垢曰	-9.28928
大誥	-9.2896
基	-9.28969
量	-9.28983
續	-9.28988
啟	-9.29148
蜀	-9.29149
不用	-9.29189
免	-9.29429
彝	-9.29446
有夏	-9.29559
斂	-9.29587
嗣王	-9.29625
所出	-9.29689
反覆	-9.29745
此心	-9.29817
天理	-9.29821
取其	-9.29868
以告	-9.30003
出于	-9.30047
之大	-9.30065
準	-9.30099
商民	-9.30173
又東	-9.3026
纂疏	-9.30488
豈不	-9.30499
十六	-9.30501
矢	-9.30533
岷山	-9.30678
之前	-9.30699
上天	-9.307
候	-9.30718
王氏曰	-9.30773
趙	-9.30907
耿	-9.31026
贖	-9.31029
蹈	-9.311
庶幾	-9.31168
忌	-9.31188
毖	-9.3124
則不	-9.31275
之國	-9.31291
憲	-9.31316
洛書	-9.31623
靡	-9.31885
昧	-9.31981
沂	-9.31997
有司	-9.32015
勇	-9.32016
金縢	-9.32031
是為	-9.32035
其説	-9.3212
一時	-9.32127
青州	-9.32178
淺	-9.32192
池	-9.3239
渾	-9.3243
之事也	-9.32621
領	-9.32717
濁	-9.3273
有天下	-9.32938
傳云	-9.33027
墳	-9.33106
一曰	-9.33128
此章	-9.33129
不在	-9.33374
孚	-9.33595
之意也	-9.33599
十二月	-9.33684
冠	-9.33727
厎	-9.33826
三苗	-9.33925
兖州	-9.34001
鄭氏	-9.34085
岱	-9.34194
困	-9.342
浸	-9.34208
慕	-9.34214
懲	-9.34224
熟	-9.3424
聖賢	-9.34375
烝	-9.34495
符	-9.34557
東流	-9.34582
洪	-9.34674
索	-9.34689
閏	-9.3474
聰	-9.34988
縣西南	-9.35011
術	-9.35237
者為	-9.35241
孟津	-9.35254
社稷	-9.35435
之北	-9.3545
則無	-9.35513
人事	-9.3562
可也	-9.35669
嗟	-9.35721
有常	-9.35768
晦	-9.35974
杜	-9.36019
限	-9.36059
洛誥	-9.3609
狂	-9.36114
渡	-9.36261
稍	-9.36285
君牙	-9.36313
曽	-9.36316
豫州	-9.36337
溝	-9.36387
京	-9.36393
以來	-9.36405
怪	-9.36446
無非	-9.36595
刑之	-9.36705
有以	-9.36733
縣西北	-9.36753
得之	-9.36788
冢宰	-9.36802
徧	-9.36814
子曰	-9.36943
冒	-9.36973
道也	-9.37114
又東逕	-9.37116
不易	-9.37122
或曰	-9.37345
以成	-9.37409
陂	-9.37413
之情	-9.37447
紹	-9.37514
十五	-9.37545
獸	-9.37602
東征	-9.37622
康誥	-9.37649
賢者	-9.37701
震澤	-9.37702
兄弟	-9.37789
地志	-9.37857
裕	-9.38012
専	-9.38026
稼穡	-9.38204
一名	-9.38209
丈	-9.38253
冝	-9.38326
則曰	-9.38338
周家	-9.38434
治民	-9.38439
二月	-9.38461
逐	-9.38508
蕩	-9.38681
吉凶	-9.38714
補	-9.38739
三監	-9.38827
倚	-9.38922
此說	-9.38929
忍	-9.38981
奔	-9.39042
擾	-9.39054
者盖	-9.39087
大小	-9.39154
曷	-9.39259
則必	-9.39269
縣東北	-9.39493
明矣	-9.39524
以上	-9.39545
蒲	-9.39605
正直	-9.3968
萬民	-9.39683
恩	-9.39806
妻	-9.3984
可畏	-9.39875
域	-9.39927
唯	-9.39928
刑罰	-9.39948
頭	-9.39961
今文	-9.39991
陰	-9.401
淵	-9.40112
在下	-9.40259
品	-9.40293
貳	-9.4032
偶	-9.40352
予一人	-9.40385
人臣	-9.40443
漳	-9.4046
盧	-9.40487
鼎	-9.40526
不見	-9.40543
其職	-9.40603
韓	-9.40875
陶	-9.4092
臺	-9.41001
別	-9.41013
委	-9.4106
密	-9.4107
一節	-9.41165
踐	-9.41165
部	-9.41228
遲	-9.4123
沮	-9.41241
殛	-9.41251
不足以	-9.41373
盤	-9.4153
彞	-9.41601
汴	-9.41693
乎此	-9.417
言曰	-9.41759
璧	-9.41907
其道	-9.41912
濬	-9.41936
惇	-9.42007
故其	-9.42106
而言之	-9.42147
羞	-9.42166
瑞	-9.42283
増	-9.42317
其文	-9.42415
之西	-9.42447
之制	-9.42531
遵	-9.42542
陳氏	-9.42566
看	-9.42568
五福	-9.42653
皆在	-9.42771
入江	-9.42811
羊	-9.42854
訖	-9.42898
卿大夫	-9.4297
傳曰	-9.43013
人所	-9.43055
禪	-9.43117
截	-9.43205
付	-9.43266
朝廷	-9.43273
殆	-9.43436
籍	-9.43469
於人	-9.43502
隱	-9.43587
伯夷	-9.43599
不忍	-9.43718
僭	-9.43836
三王	-9.43891
蠻	-9.43909
堅	-9.43924
當以	-9.43967
贊	-9.43981
屈	-9.4403
羌	-9.44176
教之	-9.44189
河東	-9.44233
之德	-9.44286
染	-9.443
庚	-9.44349
賴	-9.44368
在上	-9.44375
損	-9.44633
用刑	-9.44636
庻	-9.44753
帥	-9.4485
盡其	-9.44856
雷	-9.44968
誨	-9.45049
者不	-9.45065
所載	-9.451
知人	-9.45102
事而	-9.45129
音釋經	-9.45137
有徳	-9.45154
者惟	-9.4516
河水	-9.45224
也盖	-9.45236
不從	-9.45329
豈非	-9.45358
地名	-9.45418
亮	-9.45434
孟子曰	-9.45459
益稷	-9.45473
六十	-9.45569
鍾	-9.45577
空	-9.456
一月	-9.45658
文武之	-9.45688
及其	-9.45734
不如	-9.45756
屢	-9.45896
集說	-9.46023
岸	-9.46032
而非	-9.46045
辯	-9.46053
殘	-9.46249
諧	-9.4628
此又	-9.46283
無所不	-9.46409
振	-9.46435
之語	-9.4665
西傾	-9.46705
有一	-9.46706
因其	-9.46746
賤	-9.46917
桐	-9.46967
到	-9.47006
之東	-9.47125
遏	-9.47169
自有	-9.4718
係	-9.47199
警	-9.47276
京師	-9.47507
鐘	-9.47588
編	-9.47596
漯	-9.47626
有二	-9.47729
調	-9.47738
猶有	-9.47778
之道也	-9.47799
於天下	-9.47819
河北	-9.47858
丗	-9.47874
環	-9.47908
絲	-9.4792
甸	-9.47947
厲	-9.47992
此書	-9.47995
竄	-9.48012
然也	-9.4804
涇	-9.48138
也自	-9.48263
亦曰	-9.48388
巧	-9.48528
静	-9.48544
悟	-9.48555
水之	-9.48559
缺	-9.48591
拜手稽首	-9.48607
可知矣	-9.48639
此則	-9.48649
不盡	-9.48826
徐州	-9.48858
遷都	-9.48873
甲子	-9.49015
賈	-9.49096
事之	-9.49141
斗	-9.49259
枝	-9.49308
於上	-9.49346
人情	-9.49406
亦可	-9.49459
其餘	-9.49494
漆	-9.4963
左氏	-9.49729
嶓冢	-9.49744
百揆	-9.49907
詢	-9.50001
唐孔氏	-9.50017
亦無	-9.50075
是時	-9.50099
彊	-9.50113
不為	-9.50128
我民	-9.50213
照	-9.50327
之變	-9.50379
為主	-9.50393
共工	-9.50442
第	-9.50453
禮記	-9.50542
黄帝	-9.50546
孔安國	-9.50591
從而	-9.50651
壁	-9.50686
一句	-9.50722
東方	-9.50838
其本	-9.50853
講	-9.5114
不忘	-9.51144
愚謂	-9.51168
之世	-9.51283
之責	-9.51336
仲虺	-9.5135
八政	-9.51358
一也	-9.51448
荅	-9.51521
弓	-9.5162
而不可	-9.51648
使人	-9.51683
七十	-9.51711
予小子	-9.51762
畀	-9.51781
詩曰	-9.51847
辜	-9.51876
其可	-9.51985
伯禽	-9.52025
九年	-9.52128
董	-9.52141
傅説	-9.52155
五者	-9.52179
不肯	-9.52182
則民	-9.52182
扶	-9.52272
則知	-9.52297
爽	-9.52397
不通	-9.52463
史臣	-9.52473
旱	-9.52534
肇	-9.52537
地理志	-9.5256
灼	-9.52565
此皆	-9.52654
費	-9.5266
其人	-9.527
而不知	-9.52711
耳目	-9.52731
在此	-9.52854
安民	-9.52903
非一	-9.52941
四國	-9.52989
隆	-9.52991
卽	-9.53016
斥	-9.53059
而能	-9.53071
顔	-9.53153
勑	-9.53161
較	-9.53289
讎	-9.53307
狀	-9.53356
鹽	-9.53459
當在	-9.53646
篚	-9.53657
集説	-9.53697
塗	-9.53761
則又	-9.5378
内外	-9.53783
導之	-9.53856
所行	-9.53863
四十	-9.53887
午	-9.53963
冬至	-9.54124
朋	-9.54154
歩	-9.54156
悦	-9.54177
與天	-9.54266
第一	-9.54347
侵	-9.54372
鳴	-9.54384
征伐	-9.54432
言我	-9.54452
羣后	-9.54475
心之	-9.5449
惟時	-9.54513
平王	-9.54555
之辭也	-9.54561
武帝	-9.5463
之長	-9.54701
彭	-9.54742
頌	-9.54748
緫	-9.54785
善惡	-9.54915
五典	-9.54926
厭	-9.55018
東至	-9.55105
召誥	-9.55112
黑	-9.55126
為天子	-9.55293
五紀	-9.55325
牲	-9.55376
祠	-9.55393
靜	-9.55425
𩔖	-9.55494
齒	-9.5559
㑹于	-9.55663
皇天	-9.5567
論語	-9.55686
得以	-9.55733
滎	-9.55734
裳	-9.55735
禮樂	-9.55737
流沙	-9.55779
洞庭	-9.55783
倍	-9.55797
壺口	-9.55857
繹	-9.55868
壬	-9.55882
固有	-9.56009
託	-9.5604
其德	-9.56159
筮	-9.56186
水經注	-9.56245
這	-9.56295
嘆	-9.56311
管蔡	-9.56461
此所以	-9.56513
者有	-9.56618
波	-9.56622
不得不	-9.56647
不順	-9.56659
知所	-9.56676
緯	-9.56703
戴	-9.56726
后稷	-9.56829
也又	-9.56969
其能	-9.56989
十三年	-9.56993
終始	-9.57104
屏	-9.57126
逸豫	-9.57136
合於	-9.57147
相去	-9.57202
尸	-9.57306
九疇	-9.57313
鄭𤣥	-9.57354
姦宄	-9.57505
無以	-9.57531
謬	-9.57551
明德	-9.5766
互	-9.57662
王肅	-9.57665
没	-9.57744
步	-9.57801
治天下	-9.58163
鄙	-9.58167
大命	-9.58363
莊	-9.58368
肯	-9.58372
在天	-9.58409
衡山	-9.58426
南方	-9.58485
澧	-9.58537
沖	-9.58648
之性	-9.58684
庶邦	-9.58744
徑	-9.58804
繩	-9.58812
痛	-9.58823
丑	-9.58847
暇	-9.58872
治也	-9.58881
之體	-9.58938
而不敢	-9.58978
汭	-9.58982
校	-9.59041
所在	-9.59162
未知	-9.59192
前日	-9.59226
㣲子	-9.59258
仲康	-9.59263
測	-9.59269
天威	-9.59274
臣下	-9.59337
苗	-9.59345
者乎	-9.59437
二百	-9.59585
織	-9.59607
壇	-9.59624
箕	-9.59648
之謂也	-9.59649
出入	-9.59661
燠	-9.59674
書序	-9.59689
想	-9.59701
便是	-9.59711
煩	-9.59869
水土	-9.59891
為惡	-9.59957
箋	-9.59999
曹	-9.60089
人者	-9.60097
頗	-9.60103
江水	-9.60145
臯	-9.6015
忱	-9.60154
三徳	-9.60172
菏	-9.60177
寵	-9.60331
縁	-9.60337
我之	-9.60481
所云	-9.60502
泥	-9.60511
由是	-9.6054
非是	-9.60547
徳者	-9.6055
宻	-9.6056
三宅	-9.60574
毋	-9.60602
爰	-9.60618
百餘里	-9.6068
鄭云	-9.60684
矧	-9.60808
錄	-9.6083
漆沮	-9.60904
累	-9.60946
一度	-9.60948
志云	-9.60948
人皆	-9.60971
烏	-9.6101
驕	-9.61013
自此	-9.61109
無常	-9.61194
無一	-9.61232
惟天	-9.61243
竟	-9.61267
以至	-9.61497
東郊	-9.61564
其有	-9.61617
霍	-9.61645
西河	-9.61698
邦國	-9.61843
六年	-9.61844
強	-9.61856
以致	-9.61871
隅	-9.61883
俟	-9.61885
而不能	-9.6193
之患	-9.61939
隠	-9.6194
王制	-9.62006
侈	-9.62072
而東	-9.62085
選	-9.62134
蒼	-9.6215
薦	-9.62166
前人	-9.6222
郭	-9.62279
帛	-9.62284
溺	-9.623
四月	-9.62397
之訓	-9.62403
珠	-9.62687
蔡叔	-9.62712
呂	-9.62767
炎	-9.62826
有不	-9.62874
舉其	-9.62879
三百里	-9.62896
亦非	-9.62919
三日	-9.62994
兆民	-9.63124
天意	-9.63138
傳言	-9.632
十年	-9.63321
文祖	-9.63465
而南	-9.63483
素	-9.63491
爭	-9.63505
人也	-9.6359
故城	-9.6367
崑崙	-9.63672
泛	-9.63674
市	-9.63676
凖	-9.63676
狹	-9.63679
十四	-9.63714
用人	-9.63714
父子	-9.63801
熊	-9.63822
潤	-9.63926
夔	-9.63962
豬	-9.64037
邦君	-9.64078
故道	-9.64106
楊	-9.64119
自古	-9.64155
頑民	-9.64166
之用	-9.64215
㒺	-9.64237
逺近	-9.64241
二十八	-9.64312
俞	-9.64467
二公	-9.64467
十有二	-9.64491
沃	-9.64629
敏	-9.64633
縣東南	-9.64823
壅	-9.64838
襲	-9.64861
亦是	-9.64878
根	-9.64909
壊	-9.65075
踰	-9.65105
皐陶	-9.6516
臣民	-9.65215
帝都	-9.65268
日新	-9.65371
之極	-9.65467
奮	-9.65522
大河	-9.65548
此意	-9.65558
不待	-9.65604
元和志	-9.65713
其性	-9.65828
即今	-9.65869
伐紂	-9.65886
也然則	-9.65979
賛	-9.6602
亦以	-9.66064
黑水	-9.66174
不服	-9.66227
可不	-9.66241
之正	-9.66273
之刑	-9.66367
此二	-9.66392
成王之	-9.66396
即此	-9.66465
有大	-9.66492
其辭	-9.66535
欽哉	-9.66582
也周公	-9.66681
以治	-9.66864
宗周	-9.66877
使民	-9.66881
不合	-9.66885
匹	-9.66904
致其	-9.67104
大江	-9.67124
巢	-9.67134
有餘	-9.67143
一身	-9.6715
而天下	-9.67197
之日	-9.67338
一心	-9.67383
創	-9.67394
亭	-9.67687
諸儒	-9.67748
苖	-9.67831
歸于	-9.67875
台	-9.6788
虞書	-9.67928
君奭	-9.67952
早	-9.68091
甸服	-9.68107
殺之	-9.68131
縣界	-9.68168
老成	-9.68179
其國	-9.68221
藪	-9.68247
消	-9.68348
廬	-9.68392
愚按	-9.68426
不暇	-9.68452
二者	-9.68466
矣而	-9.68481
刺	-9.68531
一事	-9.68618
無敢	-9.68674
之勢	-9.68686
如字	-9.68701
羲	-9.68736
狄	-9.68748
黄河	-9.68761
眷	-9.68787
城縣	-9.68799
之主	-9.68848
之物	-9.69053
為大	-9.69097
所經	-9.6917
道心	-9.69199
括	-9.69252
㡬	-9.69317
匡	-9.69361
丙	-9.69376
十一	-9.69429
本紀	-9.69475
未可	-9.69476
河之	-9.6968
自是	-9.69709
縣有	-9.69714
毎	-9.69785
宗伯	-9.69797
繁	-9.69803
孺子	-9.69841
夭	-9.69944
派	-9.69982
既言	-9.70007
不欲	-9.70086
不容	-9.70439
毒	-9.70486
榮	-9.7053
曠	-9.70538
殖	-9.70554
山東	-9.70563
風俗	-9.70715
誘	-9.70734
何也	-9.70884
帝堯	-9.70896
而已矣	-9.70946
而復	-9.70985
其大	-9.71028
馬融	-9.71239
以正	-9.71387
几	-9.71416
其說	-9.71609
熊耳	-9.71666
舎	-9.7168
之氣	-9.71716
棐	-9.71736
不至	-9.71876
雉	-9.71951
輯	-9.71953
巴	-9.71959
儉	-9.71962
苗民	-9.71986
臣之	-9.72004
詞	-9.72029
者乃	-9.72124
之要	-9.72133
一徳	-9.72175
䇿	-9.72216
又東北	-9.72281
而立	-9.72288
吁	-9.72469
猶言	-9.72483
祖考	-9.72582
淮泗	-9.72711
堪	-9.72713
攷	-9.72724
不知其	-9.72834
太子	-9.72873
次第	-9.72925
大禹	-9.7294
破	-9.72985
入于海	-9.73004
三分	-9.73013
夏書	-9.73026
又言	-9.73047
鐵	-9.73081
曰嗚呼	-9.73136
殺人	-9.73247
四夷	-9.73333
之士	-9.73389
以後	-9.73476
丹朱	-9.7351
落	-9.73517
衷	-9.73576
箇	-9.73654
葬	-9.73704
優	-9.73715
祇	-9.73736
茅	-9.73845
畎	-9.73908
畝	-9.73925
巡	-9.73954
隄	-9.73967
之處	-9.74093
此州	-9.74146
故能	-9.74148
可疑	-9.74259
太平	-9.74298
隔	-9.74469
先言	-9.74485
齋	-9.74504
為天下	-9.74525
于上	-9.74539
書傳	-9.74539
粟	-9.74656
弔	-9.74687
縣故城	-9.74718
訟	-9.74737
者所以	-9.74752
韻	-9.74754
九族	-9.74799
失之	-9.74801
流言	-9.7486
為民	-9.74909
征之	-9.74938
究	-9.7497
祖乙	-9.75024
説文	-9.75026
諭	-9.75032
之美	-9.75147
毁	-9.75222
我周	-9.75248
比干	-9.75253
措	-9.75261
帝舜	-9.75304
以示	-9.75357
十八	-9.75405
題	-9.75527
做	-9.7553
傳正義曰	-9.75578
又以	-9.75661
新安	-9.75762
鳥鼠	-9.75811
觀其	-9.75823
上言	-9.75839
天降	-9.75899
何所	-9.75988
分為	-9.76012
之難	-9.76017
提	-9.76044
作書	-9.76048
故稱	-9.761
殷命	-9.76142
産	-9.76201
牽	-9.76231
旋	-9.76262
五日	-9.76309
享國	-9.76318
天之所	-9.76394
的	-9.76514
僅	-9.76534
預	-9.76546
者葢	-9.76556
此一節書是	-9.76589
無事	-9.76616
輸	-9.76676
徳也	-9.76713
教化	-9.76729
嫌	-9.76758
徽	-9.76767
替	-9.76778
其名	-9.76896
止於	-9.76904
葉	-9.76953
阜	-9.76972
一百	-9.76998
黙	-9.77057
說文	-9.77061
億	-9.77076
二曰	-9.77269
蕃	-9.77287
沒	-9.77301
阿	-9.77324
書曰	-9.77397
大事	-9.77415
同心	-9.77437
蠻夷	-9.77554
遣	-9.77568
敬徳	-9.77622
熙	-9.77623
天心	-9.77695
慰	-9.7781
冢	-9.77814
壞	-9.77832
穴	-9.77837
好惡	-9.78031
忿	-9.78061
王肅云	-9.78068
其終	-9.78131
太原	-9.78158
厥徳	-9.7817
無疑	-9.78542
佞	-9.78563
逃	-9.78567
禹曰	-9.78587
聼	-9.78609
衆人	-9.78706
涉	-9.78848
亦當	-9.78875
渭按	-9.78887
以明	-9.79003
而成	-9.79046
利害	-9.79049
衆士	-9.79081
所居	-9.79107
不恭	-9.79118
宏	-9.79129
河圖	-9.7927
化之	-9.79305
天所	-9.79317
屋	-9.7939
己之	-9.79421
三十里	-9.79461
猶未	-9.79486
育	-9.79579
黃	-9.79616
王畿	-9.7963
欺	-9.79637
有三	-9.79809
名也	-9.79835
江南	-9.79953
十里	-9.80009
民不	-9.80014
生民	-9.80063
祖父	-9.80087
十一年	-9.80126
弁	-9.8015
攘	-9.80163
範	-9.80203
管叔	-9.80211
其勢	-9.80226
于周	-9.80257
程氏	-9.80286
為二	-9.80304
推之	-9.80327
言之則	-9.80375
乎天	-9.80479
舒	-9.80485
宰	-9.80568
而行	-9.80597
清河	-9.80615
南流	-9.8064
徂	-9.80685
貪	-9.80708
併	-9.80722
雲夢	-9.80724
毫	-9.8097
去聲	-9.80999
洛水	-9.81012
觧	-9.81024
鬼	-9.81066
達于	-9.81125
故知	-9.81126
下同	-9.81154
十七	-9.81165
新安陳氏曰	-9.81198
巫	-9.81205
樹	-9.81254
萌	-9.81258
闢	-9.81276
洲	-9.81293
必以	-9.81296
訪	-9.81298
同姓	-9.81346
睿	-9.8147
歴年	-9.81475
行而	-9.81573
讒	-9.81596
五十里	-9.81614
或問	-9.81614
尋	-9.81624
銅	-9.8168
有德	-9.81721
禋	-9.8179
彛	-9.81795
河自	-9.81804
而歸	-9.81934
不克	-9.81955
名篇	-9.82006
濮	-9.82065
酈道元	-9.82092
乃命	-9.82113
我先王	-9.82141
此理	-9.82218
帝王	-9.82281
即是	-9.82301
孔子曰	-9.82305
程	-9.82335
焚	-9.82366
願	-9.82436
之行	-9.82494
含	-9.82627
緒	-9.82651
非有	-9.8276
與此	-9.82778
夏之	-9.82805
詠	-9.82879
、	-9.82918
漕	-9.83037
若是	-9.83059
陵縣	-9.83136
乖	-9.8318
拘	-9.832
汝當	-9.83203
入于河	-9.83222
不安	-9.83257
穆公	-9.83309
而用之	-9.83319
賢人	-9.83355
顛	-9.83458
私意	-9.8352
本漢	-9.8354
股肱	-9.8355
前後	-9.83565
其一	-9.83568
十九	-9.83571
之始	-9.83586
西伯	-9.83593
十二年	-9.83667
以前	-9.83699
匯	-9.83755
增	-9.83783
可知也	-9.83912
脉	-9.84007
太公	-9.84065
德之	-9.84081
告汝	-9.84161
用也	-9.84167
正朔	-9.84176
王曰嗚呼	-9.84227
予惟	-9.84237
二十四	-9.8424
於下	-9.84249
淪	-9.84305
皆可	-9.84396
入渭	-9.84443
吕刑	-9.84494
夏商	-9.84542
者如此	-9.84563
不常	-9.84591
也王	-9.84625
龜筮	-9.84732
五百	-9.84778
鹿	-9.84803
茂	-9.84827
遂以	-9.84933
鎬京	-9.84964
歸之	-9.8498
圻	-9.85027
之效	-9.85069
肉	-9.85097
徳而	-9.85102
也周禮	-9.85129
禦	-9.8513
朝夕	-9.85157
幸	-9.85159
而行之	-9.85165
倡	-9.85166
旬	-9.85209
帝乙	-9.85265
若曰	-9.85278
婦	-9.85382
邊	-9.8539
二百里	-9.85392
洋	-9.8541
使其	-9.85462
北流	-9.85525
濫	-9.85637
之任	-9.85698
在我	-9.85712
迫	-9.85712
侍	-9.85719
諸家	-9.85748
不得已	-9.85839
畿	-9.85881
九十	-9.85953
罔有	-9.8596
灌	-9.85967
善者	-9.85971
酉	-9.85975
得人	-9.86163
障	-9.86219
嶽	-9.86234
畜	-9.86259
該	-9.86261
其命	-9.86297
詩云	-9.86329
而得	-9.86445
言天	-9.86501
堯舜之	-9.86572
以待	-9.86591
人之所	-9.86716
陷	-9.86796
𦙍	-9.86819
有衆	-9.86841
悖	-9.86855
暘	-9.86886
天人	-9.86956
也葢	-9.8704
歸於	-9.8705
恐其	-9.87103
僚	-9.87129
此所謂	-9.87189
泰山	-9.8723
天之命	-9.87268
治亂	-9.87269
黼	-9.87322
郭璞	-9.87382
大别	-9.8743
非特	-9.87509
大禹謨	-9.8751
禹治水	-9.87523
義理	-9.87594
戈	-9.87617
穿	-9.87628
而使	-9.87634
山也	-9.87637
矯	-9.87683
戚	-9.87696
之論	-9.87735
灃	-9.87757
皇極之	-9.87884
所能	-9.87915
殯	-9.87974
此亦	-9.88028
甘盤	-9.88032
今我	-9.88042
亦未	-9.88046
水患	-9.88089
則當	-9.88183
職方	-9.88186
勲	-9.88279
弊	-9.8829
神明	-9.88297
三事	-9.88324
今王	-9.88406
西方	-9.88407
跨	-9.88531
薛	-9.88547
與夫	-9.88563
辱	-9.88579
有事	-9.88612
第二	-9.88639
其上	-9.88643
祖甲	-9.88731
南海	-9.88766
嵎夷	-9.88821
祖宗	-9.88981
惜	-9.89121
戊午	-9.89128
斁	-9.89167
在西	-9.89191
平地	-9.89224
罪人	-9.89261
六極	-9.89289
之子	-9.89315
始終	-9.89387
取之	-9.89421
鈞	-9.89451
跡	-9.89457
中星	-9.89533
亦猶	-9.8957
生於	-9.89677
垣	-9.89728
范	-9.89733
山海經	-9.89764
昵	-9.89764
未詳	-9.89769
小臣	-9.89838
至是	-9.89843
以道	-9.89973
潔	-9.90012
百年	-9.90026
譽	-9.90036
睦	-9.90055
麓	-9.9008
土地	-9.90116
班固	-9.9018
伐之	-9.90189
之分	-9.90209
阻	-9.90257
未能	-9.90265
者此	-9.90281
紛	-9.90284
虎賁	-9.90299
誣	-9.90313
鄭康成	-9.90342
勤勞	-9.90359
不若	-9.90431
克艱	-9.90445
之常	-9.90492
功成	-9.90521
整	-9.90546
典禮	-9.90572
馬云	-9.9059
遭	-9.90614
亥	-9.90636
文字	-9.907
可以為	-9.90742
劓	-9.90889
慈	-9.90919
三千	-9.9095
慙	-9.90954
不自	-9.90984
區	-9.91165
厯數	-9.91207
武丁	-9.91241
之私	-9.91261
所由	-9.91318
也禹	-9.91328
太行	-9.91374
曰我	-9.91376
庶人	-9.91403
者即	-9.91444
溪	-9.91469
操	-9.91488
臧	-9.91528
安能	-9.91568
也如	-9.91706
伊訓	-9.91711
王家	-9.91722
東南流	-9.9182
由此	-9.91844
無過	-9.91866
太戊	-9.91886
蔡仲	-9.91904
生魄	-9.91933
泗水	-9.92021
圗	-9.92072
祈	-9.92142
滎澤	-9.92159
而作	-9.9216
稱王	-9.92166
鬱	-9.92168
之失	-9.92179
古人之	-9.92203
愧	-9.92247
傅說	-9.92304
不成	-9.92305
稽疑	-9.92327
藉	-9.92422
童	-9.92426
也凡	-9.92429
賚	-9.9243
柱	-9.92432
有扈	-9.92475
巡守	-9.92509
我所	-9.92512
文考	-9.92521
入淮	-9.92616
麻	-9.92647
客	-9.92661
蓄	-9.92677
張掖	-9.92688
滋	-9.92731
馨香	-9.92732
掩	-9.9275
元子	-9.92791
漢孔氏	-9.92805
八年	-9.92837
非天	-9.92876
豫章	-9.92895
之山	-9.92898
逮	-9.92899
非常	-9.92954
晝	-9.92997
或有	-9.93138
其情	-9.93233
璣	-9.93291
斧	-9.933
柴	-9.93354
耄	-9.93414
師保	-9.93556
敷淺原	-9.9361
導山	-9.93622
訛	-9.93633
賁	-9.93653
邱	-9.93666
脱	-9.93714
今按	-9.93721
無罪	-9.93849
其位	-9.93878
鄭𤣥云	-9.93929
之衆	-9.93952
王城	-9.9401
為九	-9.94033
裔	-9.94143
因以	-9.94152
南至	-9.94213
鰥寡	-9.94269
輿	-9.94286
國名	-9.94331
之謀	-9.9435
能敬	-9.94415
博士	-9.94419
視聽	-9.94431
理也	-9.94467
浦	-9.94469
渉	-9.94554
憚	-9.94574
四十里	-9.94579
陳氏經曰	-9.94627
王屋	-9.94635
其子	-9.94694
於王	-9.94744
為正	-9.94815
斜	-9.94829
卯	-9.94892
皆不	-9.94914
䟽	-9.95119
水名	-9.95134
之志	-9.9517
竝	-9.95195
者當	-9.95204
君道	-9.95255
二州	-9.9534
而民	-9.95387
林氏之竒曰	-9.95477
也又曰	-9.95487
沱潛	-9.95487
靖	-9.9549
帝位	-9.95494
六師	-9.95689
之别	-9.95707
者以其	-9.95746
重言	-9.95775
倉	-9.95789
中有	-9.95857
矣夫	-9.95893
人以	-9.95922
安危	-9.95965
道理	-9.96046
命汝	-9.9605
湘	-9.96081
三人	-9.96222
五行之	-9.96233
無他	-9.96242
攝位	-9.96302
不失	-9.964
孔疏	-9.96405
洽	-9.96461
日月星辰	-9.96467
侯甸	-9.96491
明年	-9.9653
揆	-9.96561
輔相	-9.96594
纎	-9.96672
削	-9.9675
眞	-9.96759
華山	-9.96801
在東	-9.96815
暴虐	-9.96851
必先	-9.96858
國語	-9.96928
商家	-9.96942
上篇	-9.96961
臭	-9.9702
此經	-9.97021
恥	-9.97069
能用	-9.97096
惟爾	-9.97155
松	-9.97253
滙	-9.97327
!	-9.97357
匪	-9.97393
林氏	-9.97402
奔走	-9.97427
三曰	-9.97448
者何	-9.97505
扈	-9.97512
順天	-9.97611
獒	-9.9765
褒	-9.97674
徇	-9.97696
三百六十	-9.97801
尊卑	-9.97847
也既	-9.97852
一二	-9.97865
雖不	-9.97946
不行	-9.97979
僻	-9.97998
竭	-9.98013
宮	-9.98056
一嵗	-9.98076
無道	-9.98145
記曰	-9.98181
改過	-9.98194
北至	-9.98269
七十里	-9.9854
所作	-9.98667
咈	-9.98706
田賦	-9.98811
恒山	-9.98898
漳水	-9.98917
旌	-9.98935
能盡	-9.98936
篇首	-9.98939
佚	-9.98955
雖然	-9.98965
二句	-9.98977
裁	-9.98977
鳳	-9.98985
畿内	-9.99048
欲使	-9.99049
不可以不	-9.99106
者是	-9.99208
廣大	-9.99223
則可以	-9.9924
也舜	-9.99268
奚	-9.99312
西漢	-9.99399
之治	-9.99436
工夫	-9.99502
𫝑	-9.99592
物之	-9.99594
禱	-9.99617
當然	-9.99623
仇	-9.99631
孜孜	-9.99655
四方之	-9.99694
大伾	-9.99759
於外	-9.99791
真氏曰	-9.99819
浮于	-9.99898
回	-9.99934
黍	-9.9994
冇	-9.99979
顓頊	-9.99985
長短	-10.0002
可見矣	-10.0004
又何	-10.0006
通典	-10.0009
無疆	-10.0019
王莽	-10.0021
若此	-10.0023
諱	-10.0027
羙	-10.003
乎其	-10.0037
其時	-10.0044
人君之	-10.0047
賞罰	-10.0057
不改	-10.0059
為三	-10.006
費誓	-10.0063
東萊	-10.0063
民皆	-10.0063
惟恐	-10.0067
以生	-10.0075
沿	-10.0084
有苗	-10.0086
此等	-10.0086
給	-10.009
閭	-10.0093
敬德	-10.0098
非謂	-10.0099
是非	-10.0102
于天下	-10.0105
隴西	-10.0107
陜	-10.011
協于	-10.0113
歐陽	-10.0125
招	-10.0129
縣今	-10.0131
是謂	-10.0139
在于	-10.0143
臯陶謨	-10.0146
夕	-10.0151
太宗	-10.0154
書之	-10.0158
左傳云	-10.0161
激	-10.0161
此事	-10.0164
桐柏	-10.0165
之次	-10.0179
道之	-10.0179
纁	-10.0181
南江	-10.0182
無間	-10.0184
首尾	-10.0185
八十	-10.0186
酒誥	-10.0187
詰	-10.0189
游	-10.0191
腹	-10.0193
露	-10.0194
際	-10.0194
之徒	-10.0197
束	-10.0218
日之	-10.0219
揖	-10.0225
霸	-10.0232
黎民	-10.0237
王朝	-10.0239
之利	-10.0244
惟一	-10.0244
五帝	-10.0244
善也	-10.0254
合黎	-10.0257
於我	-10.0261
釋文	-10.0262
随	-10.0263
争	-10.0265
夏氏曰	-10.0268
周公以	-10.0279
者矣	-10.0282
來朝	-10.0285
湯誓	-10.0286
卜之	-10.0291
侯服	-10.0292
㓜	-10.0297
徳則	-10.0305
後漢	-10.0316
減	-10.0322
梁山	-10.0323
恱	-10.0323
祖伊	-10.0324
受其	-10.033
六日	-10.033
勵	-10.0333
庶徴	-10.0339
八百	-10.0353
天時	-10.0354
岡	-10.0358
汨	-10.0364
遐	-10.0368
不惟	-10.037
中正	-10.0373
睢	-10.0389
匱	-10.039
至誠	-10.0391
笙	-10.0392
漫	-10.0392
虛	-10.0393
歛	-10.0394
熈	-10.0397
當作	-10.0402
乃心	-10.0404
之野	-10.0404
五月	-10.0408
以安	-10.0409
已有	-10.0412
柄	-10.0421
滎陽	-10.0422
告以	-10.0424
饗	-10.0426
本於	-10.0427
天下之大	-10.0428
伊陟	-10.0431
誓師	-10.0432
不畏	-10.0439
我一人	-10.044
夏至	-10.0443
未盡	-10.0446
五色	-10.045
覲	-10.0453
二篇	-10.0456
商書	-10.0456
悔過	-10.0458
則非	-10.046
而為之	-10.0461
亞	-10.0462
逸樂	-10.0464
盛徳	-10.0467
大學	-10.0471
休美	-10.0472
惟王	-10.0476
者如	-10.0479
以敬	-10.048
知此	-10.0482
牧誓	-10.0484
典常	-10.0488
矣又	-10.0489
絺	-10.0491
繡	-10.0495
𨽻	-10.0498
刋	-10.0502
東北流	-10.0504
闇	-10.0504
邦之	-10.052
鹵	-10.0521
之末	-10.0524
而北	-10.0524
而猶	-10.053
畋	-10.0531
饒	-10.0532
得罪	-10.0533
求其	-10.0533
册	-10.0533
貽	-10.0537
見于	-10.0538
𦙍侯	-10.0544
之盛	-10.0553
漾	-10.0555
有道	-10.0557
所引	-10.0559
于先王	-10.0566
鬯	-10.0567
太師	-10.057
斬	-10.057
有九	-10.0573
配天	-10.0578
湯武	-10.058
扶風	-10.0583
是故	-10.0583
;	-10.0586
而未	-10.059
則亦	-10.059
植	-10.0599
誅之	-10.0602
其始	-10.0609
制度	-10.0613
常人	-10.0614
吕氏	-10.0614
不出	-10.0615
此乃	-10.0618
山名	-10.0619
鄭氏曰	-10.062
之業	-10.0627
抵	-10.0631
剛克	-10.0632
州府	-10.0632
標	-10.0635
米	-10.0637
者又	-10.0639
文侯	-10.0648
養民	-10.0653
合流	-10.0654
地理	-10.0654
之大者	-10.0658
隴	-10.0661
之異	-10.0666
之言也	-10.0667
穎	-10.0668
絡	-10.067
亦如	-10.067
投	-10.0671
貢賦	-10.0675
必不	-10.0681
而終	-10.0691
次序	-10.0692
不特	-10.0696
淄	-10.0699
彌	-10.0703
檢	-10.0705
確	-10.0707
之詩	-10.071
未至	-10.0712
始於	-10.0718
常道	-10.0732
此時	-10.074
而後可	-10.0745
星辰	-10.0746
汾	-10.0747
念哉	-10.0749
河内	-10.075
鄭玄云	-10.0755
則天下	-10.0765
五等	-10.077
賢臣	-10.0772
韶	-10.0773
户	-10.0773
雄	-10.0774
驅	-10.0777
瞽	-10.0781
之域	-10.0783
亦云	-10.0783
人為	-10.0785
飲酒	-10.0786
為政	-10.0788
髙下	-10.0796
銀	-10.0798
一年	-10.0798
安定	-10.0799
爾惟	-10.08
之禍	-10.0803
盟	-10.0804
當是	-10.0805
伐桀	-10.0805
縣地	-10.081
筆	-10.0813
漢儒	-10.0814
互相	-10.082
絳	-10.082
為治	-10.082
其生	-10.0823
狎侮	-10.0839
縣也	-10.0842
濕	-10.0844
不正	-10.0846
脅	-10.0849
故又	-10.085
傾	-10.0866
亦然	-10.0871
行也	-10.0874
閉	-10.0879
柔克	-10.0887
不止	-10.0891
不違	-10.0897
北方	-10.0897
豈能	-10.0899
山南	-10.0901
聦明	-10.0908
萬方	-10.0914
四曰	-10.0916
頒	-10.0925
至矣	-10.0925
鄭玄	-10.0929
云云	-10.0929
不已	-10.0934
未嘗不	-10.0947
伍	-10.095
嶓冡	-10.0953
廵守	-10.096
大野	-10.0965
能使	-10.0969
六十里	-10.0974
告于	-10.0974
濵	-10.098
八音	-10.0983
縮	-10.0984
畔	-10.0989
于下	-10.0995
脊	-10.1023
岍	-10.1023
公卿	-10.1024
皆為	-10.1027
相應	-10.1028
五聲	-10.1036
地理志云	-10.104
也吕氏曰	-10.1042
久矣	-10.1045
翟	-10.1053
廷	-10.1055
日行	-10.1056
思之	-10.1058
慝	-10.1061
枯	-10.1061
逆河	-10.1064
秬鬯	-10.1068
不能自	-10.1068
周公既	-10.1074
記云	-10.1076
文帝	-10.1077
一言	-10.1082
故周公	-10.1083
者是也	-10.1086
二三	-10.1087
典獄	-10.1089
彤	-10.1096
徹	-10.1096
拒	-10.1096
而致	-10.1097
本末	-10.11
亦皆	-10.1106
其臣	-10.111
矣今	-10.1116
及於	-10.1122
南河	-10.1125
雒	-10.1128
牢	-10.1128
話	-10.1133
䝉	-10.1137
酗	-10.1138
其理	-10.1138
焉則	-10.1141
山西	-10.1141
夙夜	-10.1143
之教	-10.1147
有過	-10.1147
西戎	-10.1153
忠厚	-10.1154
一旦	-10.1155
在外	-10.1169
湯誥	-10.1171
以求	-10.1174
恵	-10.1175
仁人	-10.1182
萬事	-10.1186
四人	-10.1195
綴	-10.1199
過也	-10.1201
廵	-10.1203
北江	-10.1204
小人之	-10.1205
蠢	-10.1208
我惟	-10.1218
曰予	-10.1219
所以能	-10.1221
耆	-10.1241
拊	-10.1242
脈	-10.1245
晚	-10.1249
者猶	-10.125
譬	-10.1262
進退	-10.1271
又謂	-10.128
倒	-10.1281
之所在	-10.1288
輯録	-10.1296
八卦	-10.1298
未見	-10.13
臯陶之	-10.1304
送	-10.1312
浚	-10.1318
梓材	-10.1322
之年	-10.1325
毅	-10.1326
疏云	-10.134
明明	-10.134
衝	-10.1353
巨	-10.1354
羅	-10.1354
礪	-10.1356
滛	-10.1358
菏澤	-10.1359
此四	-10.1361
無復	-10.1362
百篇	-10.1365
中庸	-10.1367
有能	-10.1367
正人	-10.137
畢命	-10.1377
水火	-10.1378
。」	-10.1381
稽古	-10.1382
説者	-10.1388
橋	-10.1392
受天命	-10.1395
贄	-10.1396
東坡	-10.1396
冲	-10.1397
䕫	-10.1398
何如	-10.1412
人欲	-10.1423
導河	-10.1427
僖	-10.1431
藻	-10.1433
騐	-10.1435
淳	-10.1437
邁	-10.1439
行事	-10.1441
厥德	-10.145
將以	-10.1455
中道	-10.1468
既已	-10.1469
刀	-10.1469
歷	-10.1473
主於	-10.1477
用此	-10.1477
分明	-10.1477
無辜	-10.1478
修身	-10.1484
公曰	-10.1484
應之	-10.1488
四凶	-10.1496
弦	-10.1505
惰	-10.1507
孔氏穎達曰	-10.1507
蚩尤	-10.151
心之所	-10.1514
所用	-10.1516
無可	-10.1517
也按	-10.1526
營洛	-10.1527
當有	-10.1536
河源	-10.1541
桃	-10.1544
之妙	-10.1544
諄諄	-10.1547
澄	-10.1547
弛	-10.1547
怙	-10.1548
昴	-10.1548
婁	-10.1549
屯	-10.1549
馭	-10.155
孽	-10.155
三者	-10.1552
精神	-10.1553
杜預	-10.1563
注于	-10.1565
皆然	-10.157
所見	-10.157
罰之	-10.1571
亦不可	-10.1581
成王既	-10.1583
路寢	-10.1583
走	-10.1583
百二十	-10.1585
下云	-10.1604
鉞	-10.1617
堰	-10.1623
鳯	-10.1625
稼	-10.1627
萊	-10.1634
歎息	-10.1635
順之	-10.1643
大法	-10.1644
作威	-10.1645
乃有	-10.1648
號令	-10.1649
之稱	-10.165
十一月	-10.1652
也且	-10.1655
綿	-10.1657
三叔	-10.166
洞	-10.1663
古文尚書	-10.1666
松江	-10.167
在人	-10.1687
告戒	-10.1692
泲	-10.1692
玄	-10.1694
遼	-10.17
百四十	-10.1703
誦	-10.1705
明白	-10.172
于洛	-10.1734
昆	-10.1735
凝	-10.174
秀	-10.174
可考	-10.174
恭敬	-10.1743
戒其	-10.1744
穆穆	-10.1747
禍福	-10.1752
渭水	-10.1755
故先	-10.1761
而不言	-10.1764
所聞	-10.1768
滌	-10.1771
穢	-10.1774
奴	-10.1775
笑	-10.1775
貎	-10.1775
司冦	-10.1778
常法	-10.1778
馳	-10.178
當從	-10.178
商人	-10.1782
恊	-10.1783
勅	-10.1784
二女	-10.1785
導水	-10.1787
司寇	-10.1789
之差	-10.1797
臣名	-10.1798
球	-10.1803
夫婦	-10.1804
乃能	-10.1806
晋	-10.1807
戰國	-10.1811
圍	-10.1813
之義也	-10.182
捨	-10.182
干戈	-10.182
二十里	-10.1823
任之	-10.185
重意	-10.1853
陋	-10.1855
蓍	-10.1857
改元	-10.1862
魄	-10.1877
五禮	-10.1878
受終	-10.1884
牙	-10.1884
偃	-10.189
儆	-10.189
妙	-10.1899
九川	-10.1905
太僕	-10.1912
三卿	-10.1917
斤	-10.1929
湎	-10.1931
從之	-10.1931
栗	-10.1934
頼	-10.1934
宇	-10.194
癸	-10.1942
于酒	-10.1949
纂	-10.1969
島夷	-10.197
重黎	-10.197
二十七	-10.1978
五子之歌	-10.1979
王道	-10.1993
則可	-10.2008
顧氏	-10.2008
萬國	-10.201
臯陶曰	-10.2011
三苖	-10.2013
武功	-10.2013
墊	-10.2013
疎	-10.2014
讐	-10.2015
如是則	-10.2022
音釋	-10.2022
合為一	-10.2025
勉之	-10.2026
相似	-10.2042
乃以	-10.2046
世家	-10.2048
巖	-10.2056
藥	-10.2056
濬川	-10.2065
禹時	-10.2072
此下	-10.2078
之境	-10.2082
虢	-10.2082
威儀	-10.2084
技	-10.2092
史氏	-10.2093
無異	-10.2098
善政	-10.2101
瀍水	-10.2107
之心也	-10.2109
其志	-10.2121
第三	-10.2121
曲直	-10.2122
灉	-10.2124
民之所	-10.2125
多矣	-10.2126
亦必	-10.2128
忒	-10.213
經言	-10.213
祼	-10.2132
寓	-10.2135
長安	-10.2137
皆言	-10.214
月令	-10.2152
申言	-10.2152
漢中	-10.2152
蔡𫝊	-10.216
所陳	-10.2171
之子孫	-10.2174
陳氏櫟曰	-10.2175
基業	-10.2185
先生	-10.2196
未有不	-10.2208
遼東	-10.2213
之計	-10.2214
諌	-10.2216
亶	-10.2219
敦	-10.2219
萬年	-10.223
有辭	-10.2231
吉士	-10.2236
根本	-10.2239
澗	-10.2245
之詞	-10.2248
也故曰	-10.2251
考工記	-10.2255
圓	-10.2258
規模	-10.2258
九徳	-10.2266
他人	-10.2269
二十五	-10.2269
成湯之	-10.227
雖欲	-10.227
即所謂	-10.2279
而遂	-10.228
風雨	-10.2283
𤾉	-10.2292
迂	-10.2295
融	-10.2296
說命	-10.2305
定陶	-10.2316
洛陽	-10.2318
寇	-10.232
逺矣	-10.232
堯時	-10.2322
任人	-10.2331
鎬	-10.2332
紊	-10.2336
一人之	-10.2338
禀	-10.2339
不怠	-10.2339
渡河	-10.2346
帝曰俞	-10.2347
前人之	-10.2354
所受	-10.2357
四門	-10.2357
天位	-10.2358
蔡傳曰	-10.2365
鹹	-10.2367
自取	-10.2376
甚矣	-10.2377
艾	-10.2381
頓	-10.2383
聖人之心	-10.2387
無遺	-10.2396
周召	-10.2397
史記作	-10.2407
多寡	-10.2408
謂我	-10.2411
隩	-10.2414
之源	-10.2415
所掌	-10.2415
恕	-10.242
鞠	-10.2421
仕	-10.2421
拜稽首	-10.2424
其下	-10.2429
故特	-10.2436
庶官	-10.2437
華隂	-10.2444
之害	-10.2448
不義	-10.2454
東海	-10.2457
牛馬	-10.246
蠶	-10.2461
庶殷	-10.2462
脫	-10.2462
昭明	-10.2462
之首	-10.2469
西山	-10.247
導江	-10.2477
六月	-10.2483
旄	-10.2496
膠	-10.25
潜	-10.2504
懌	-10.2507
遯	-10.251
不肖	-10.2532
矛	-10.2539
不幸	-10.254
有位	-10.254
懸	-10.2542
摇	-10.2545
然後可以	-10.2547
不聽	-10.2547
拱	-10.2549
天下之民	-10.2564
十月	-10.2564
髙祖	-10.2567
方伯	-10.2575
坤	-10.2582
軌	-10.2584
洛汭	-10.2586
秦漢	-10.2587
徐戎	-10.2596
用兵	-10.261
不可得而	-10.2613
堯舜禹	-10.2613
文公	-10.2617
施功	-10.2626
貧	-10.263
織皮	-10.2631
泯	-10.2632
墓	-10.2633
饑	-10.2636
不聞	-10.2641
三德	-10.2646
慎罰	-10.2648
濟南	-10.265
若夫	-10.2653
胡氏	-10.2662
而上	-10.2664
従	-10.2668
冡宰	-10.2673
洮	-10.2675
頃	-10.2675
十五里	-10.2682
各以其	-10.2686
之權	-10.2692
為心	-10.2694
隨山	-10.2709
詐	-10.2713
夷狄	-10.2717
初無	-10.2719
陪尾	-10.2721
三載	-10.2733
地志在	-10.2742
修徳	-10.2746
則謂之	-10.2746
錢	-10.275
日食	-10.2751
敬畏	-10.2755
王業	-10.2755
異於	-10.2757
纔	-10.2762
援	-10.2762
方且	-10.279
浮言	-10.2797
幹	-10.2799
以身	-10.28
醉	-10.28
王氏樵曰	-10.2801
戕	-10.2803
峻	-10.2803
嚚	-10.2805
弗克	-10.2814
所宜	-10.2816
百八十	-10.2823
各得其	-10.2825
要服	-10.2831
相傳	-10.2838
賄	-10.2843
言語	-10.2843
隷	-10.2844
大川	-10.2845
膺	-10.2847
水道	-10.2848
借	-10.2848
若兹	-10.2851
九疇之	-10.2852
伐商	-10.2859
攝政	-10.2869
作誥	-10.2876
冡	-10.2882
混	-10.2884
也古者	-10.2884
段	-10.2888
顔師古	-10.2888
釋詁文	-10.2888
六府	-10.2889
八十里	-10.2891
勸勉	-10.2893
惟當	-10.2902
萬姓	-10.2909
又東北逕	-10.2919
服事	-10.2932
第十	-10.2934
黄道	-10.2938
岐山	-10.2941
異姓	-10.2951
困窮	-10.2951
又當	-10.2965
率循	-10.2966
番	-10.2972
嗜	-10.2976
虧	-10.2977
汝衆	-10.298
廹	-10.2982
庶徵	-10.2983
明堂	-10.2986
大業	-10.2996
縞	-10.3005
犬	-10.3011
属	-10.302
姚	-10.302
純一	-10.3025
奉天	-10.3029
昊天	-10.3038
水所出	-10.3059
可乎	-10.3067
所及	-10.308
在内	-10.3084
髙明	-10.3089
萬里	-10.31
洗	-10.3105
芮	-10.3106
黍稷	-10.3108
相對	-10.3122
稷契	-10.3124
之𩔖	-10.3129
蹌	-10.3137
叢	-10.3147
牖	-10.3151
蕭	-10.3152
隕	-10.3157
刪	-10.3158
甘誓	-10.3166
孔𫝊	-10.3173
埴	-10.3181
太史公	-10.3183
此其所以	-10.3185
韋	-10.3192
源出	-10.3194
可得而	-10.3212
荒服	-10.3213
喪亡	-10.3215
陜西	-10.3227
所稱	-10.323
黄鐘	-10.3233
也林氏曰	-10.3238
懿	-10.3239
腆	-10.3243
展	-10.3244
發源	-10.3244
韋昭	-10.3244
旅獒	-10.3247
夲	-10.3247
表裏	-10.3248
流入	-10.3252
大國	-10.3252
衣服	-10.3253
桀紂	-10.3254
江淮	-10.3269
厎柱	-10.3281
徒駭	-10.3285
邵	-10.3288
城北	-10.3289
倦	-10.3293
生生	-10.3299
一書	-10.3317
沂水	-10.3332
寄	-10.3334
圯	-10.3335
王氏炎曰	-10.3337
燮	-10.3337
而巳	-10.3339
朋友	-10.3344
不勝	-10.3351
七政	-10.3352
七月	-10.3355
秦誓	-10.3356
爾多方	-10.3358
第九	-10.3362
:「	-10.3363
我小子	-10.3364
一念	-10.3366
一體	-10.3367
什	-10.337
妹	-10.3372
東漢	-10.3376
居攝	-10.3378
猛	-10.3378
民生	-10.3379
副	-10.3379
沉	-10.3379
克商	-10.338
普	-10.3387
箴	-10.3388
建極	-10.3389
先后	-10.3404
天討	-10.3416
帝王之	-10.3421
亦謂之	-10.3422
讓于	-10.3425
鴻	-10.3427
渤海	-10.3427
尉	-10.3428
䕶	-10.343
周人	-10.3437
治道	-10.3437
曰吾	-10.344
猶可	-10.3447
如此故	-10.3462
閑	-10.3466
地中	-10.3467
閔	-10.3469
梅	-10.3474
暗	-10.3474
劉歆	-10.3474
神人	-10.3478
驛	-10.3482
今爾	-10.3483
咸有一徳	-10.3484
仲壬	-10.3484
寧王	-10.3492
歸周	-10.3493
先正	-10.3494
儆戒	-10.3499
武王既	-10.3505
剛柔	-10.3511
君徳	-10.3514
也或曰	-10.3517
國君	-10.3521
袁	-10.3521
分别	-10.3522
後王	-10.3526
黄鍾	-10.3526
月行	-10.3537
在其中	-10.3545
中宗	-10.3546
太湖	-10.3548
感動	-10.3561
戛	-10.3562
程子曰	-10.3571
即政	-10.3579
東平	-10.358
厥篚	-10.3582
觀此	-10.3598
潁	-10.3606
涯	-10.3606
邢	-10.3608
僉	-10.3615
相通	-10.3616
迓	-10.3619
有一毫	-10.362
我周家	-10.3624
有疾	-10.3631
山林	-10.3632
賢才	-10.3639
故城在今	-10.3645
簜	-10.365
採	-10.3656
希	-10.3657
峽	-10.3657
兮	-10.3657
挾	-10.3659
兾	-10.3661
太祖	-10.3662
朂	-10.3663
閲	-10.3663
九等	-10.3674
不廢	-10.3674
一語	-10.3681
經傳	-10.3685
穫	-10.3703
於其間	-10.3704
第六	-10.3709
滅亡	-10.3709
獨言	-10.371
諸水	-10.3712
時則有	-10.3712
瞽瞍	-10.3713
慎厥	-10.3715
甚明	-10.3717
要囚	-10.3722
諸臣	-10.3724
進戒	-10.3738
簫	-10.374
鉅鹿	-10.3746
朏	-10.3749
策	-10.3752
金氏曰	-10.3754
説命	-10.3759
滔天	-10.3763
侯伯	-10.3767
嶧	-10.3774
九官	-10.3795
帶	-10.3796
趣	-10.3797
贖刑	-10.38
瘳	-10.3802
得其人	-10.3819
殷人	-10.3821
沛	-10.3842
聽朕	-10.3842
儀禮	-10.3845
窺	-10.3846
不免	-10.3846
吴	-10.3846
飛	-10.3849
原隰	-10.3851
虞夏	-10.3867
大功	-10.3875
得天下	-10.3887
藩	-10.3896
孔氏謂	-10.3898
湏	-10.3899
驚	-10.39
英	-10.39
妖	-10.3902
何哉	-10.3904
那	-10.3907
未敢	-10.3923
政教	-10.3929
不可得	-10.3938
朔食	-10.394
福極	-10.3944
彦	-10.3946
朔方	-10.3959
厥辟	-10.396
上古	-10.3976
楯	-10.3982
瑁	-10.3985
五千	-10.3987
溝洫	-10.3988
磨	-10.3995
僣	-10.3995
死魄	-10.3998
潤下	-10.3999
詳見	-10.4004
我有周	-10.4006
蜀郡	-10.401
一夫	-10.4011
鄭注	-10.4012
四瀆	-10.4014
宫室	-10.4014
烈祖	-10.402
卣	-10.4039
要荒	-10.4041
暢	-10.4041
文侯之命	-10.4044
凱	-10.4044
忝	-10.4044
叚	-10.4044
綽	-10.4046
靣	-10.4046
牧野	-10.4051
上流	-10.4056
十夫	-10.4058
婦人	-10.4077
夫人	-10.4079
拳拳	-10.4088
上生	-10.409
識其	-10.4091
枉	-10.4092
内史	-10.4093
藴	-10.4093
奈何	-10.4094
所生	-10.4097
圻内	-10.4098
職方氏	-10.4131
戊	-10.4135
暑	-10.4136
康王之誥	-10.4141
祚	-10.4142
入泗	-10.4146
殷家	-10.4151
反徐	-10.4152
庶㡬	-10.4155
三后	-10.417
前代	-10.4171
變化	-10.4173
巴陵	-10.4182
揔	-10.4186
暫	-10.4187
祿	-10.419
盜	-10.4192
蔡仲之命	-10.4193
綴衣	-10.4196
墮	-10.4196
無有不	-10.4201
𦙍征	-10.4202
漢孔氏曰言	-10.4203
九月	-10.4204
八尺	-10.4213
之一字	-10.4218
核	-10.4236
鑑	-10.4236
骨	-10.4237
沮水	-10.4238
踈	-10.424
雀	-10.4241
勃	-10.4245
懇	-10.4248
他州	-10.4249
商周	-10.4257
為北江	-10.4269
𫝊言	-10.427
尋陽	-10.427
諸州	-10.4272
繒	-10.4277
安得不	-10.4282
東陵	-10.4291
貢道	-10.4296
阿衡	-10.4302
天下之事	-10.431
鉅野	-10.4333
淤	-10.4336
殃	-10.4337
恪	-10.4338
姜	-10.4339
鄒	-10.4339
輝	-10.4346
罸	-10.4347
第七	-10.4347
夏桀	-10.4351
雪	-10.4351
地勢	-10.4357
遏絶	-10.4358
枚	-10.4359
澗水	-10.4363
元后	-10.4367
二千五百	-10.437
羽山	-10.4387
孟豬	-10.4387
飢	-10.4388
犧	-10.4393
造化	-10.4413
州牧	-10.4417
氣象	-10.4422
施於	-10.4424
光明	-10.4428
之至也	-10.4433
船	-10.4436
炎上	-10.4438
遷徙	-10.4439
申命	-10.444
遥	-10.444
嗣位	-10.4447
十六日	-10.4452
庶士	-10.4454
吳氏曰	-10.4462
徳之人	-10.4464
文勢	-10.4466
未及	-10.4477
元首	-10.448
寕	-10.4486
所致	-10.449
幽州	-10.4491
十五年	-10.4492
戌	-10.4493
俯	-10.4494
怠惰	-10.4495
晝夜	-10.4496
北境	-10.4509
洚水	-10.4518
禮義	-10.4524
相近	-10.4533
是之謂	-10.4536
喪服	-10.4543
撻	-10.4545
鑒	-10.4545
旗	-10.4546
寒暑	-10.4547
災異	-10.4553
寰宇記	-10.4577
漢武帝	-10.4583
刃	-10.4589
膏	-10.459
赴	-10.4592
又東過	-10.4594
平原	-10.4594
鶉	-10.4596
詛	-10.4598
宣王	-10.4599
氐道	-10.4601
事神	-10.4602
周公攝政	-10.4612
兗	-10.4614
太華	-10.4622
好徳	-10.4624
經營	-10.4627
坎	-10.4635
琴瑟	-10.4635
酌	-10.4637
罹	-10.4641
不念	-10.4641
諡	-10.4649
墟	-10.4649
悛	-10.4652
彝倫	-10.4655
元祀	-10.4658
往往	-10.4662
太岳	-10.4671
聲教	-10.4679
下篇	-10.468
渭汭	-10.4685
神宗	-10.4689
血	-10.4693
牆	-10.4693
鑄	-10.4695
先哲王	-10.4695
弓矢	-10.4698
成就	-10.47
冏命	-10.4701
之所當	-10.4703
誠信	-10.4714
放勲	-10.4717
九功	-10.4718
刑殺	-10.4722
中間	-10.473
西域	-10.474
廬江	-10.474
相宅	-10.4743
紀綱	-10.4747
岳陽	-10.4748
疵	-10.4748
千餘里	-10.475
莫非	-10.4751
完	-10.4755
飬	-10.4758
狎	-10.4759
安知	-10.4759
飭	-10.4759
豈得	-10.4772
虞舜	-10.4773
山澤	-10.4784
無愧	-10.4787
廂	-10.4793
楛	-10.48
璋	-10.4804
寫	-10.4807
嵩	-10.4808
耉	-10.4809
倣	-10.4809
黜陟	-10.4817
一段	-10.4818
岷	-10.4826
雷夏	-10.4827
不可曉	-10.4832
于新邑	-10.4834
文王武王	-10.4836
一物	-10.4838
中篇	-10.4839
九徳之	-10.4842
明哲	-10.4856
舌	-10.4857
□	-10.4861
括地志	-10.4868
未聞	-10.4872
一箇	-10.4885
任賢	-10.4886
我聞	-10.4894
五千里	-10.4904
爻	-10.4904
梓	-10.4905
建立	-10.4906
鳩	-10.4909
鳴條	-10.4913
其所當	-10.4913
庚戌	-10.4913
平聲	-10.4921
所好	-10.4924
后土	-10.4928
九德	-10.4929
何也曰	-10.493
聦	-10.4932
建官	-10.4932
殊不知	-10.4934
不可復	-10.4935
馬鄭	-10.4936
故瀆	-10.4945
莫如	-10.4948
愛民	-10.4953
相距	-10.4954
燉煌	-10.4958
文義	-10.4961
陸氏	-10.4963
匿	-10.4974
斆	-10.4974
滄	-10.4974
官之長	-10.4979
城南	-10.4982
唐虞之	-10.4983
觀兵	-10.4989
青徐	-10.4991
春秋傳	-10.4993
請命	-10.4998
吕侯	-10.4999
瀍	-10.5002
西流	-10.5005
不失其	-10.5011
休命	-10.5014
涵	-10.5016
冕服	-10.5017
渠搜	-10.5017
漏	-10.5017
彞倫	-10.502
零	-10.5023
帝嚳	-10.5024
百僚	-10.5025
㑹稽	-10.5034
道路	-10.5037
準人	-10.5045
水出焉	-10.5047
綏服	-10.506
力行	-10.5065
蟲	-10.5068
項	-10.5069
抱	-10.5071
拂	-10.5074
天下之人	-10.5083
禽	-10.5087
九黎	-10.5091
飲食	-10.5096
聲色	-10.51
江夏	-10.5101
從諫	-10.5101
榦	-10.5117
沅	-10.5119
先祖	-10.5127
輩	-10.5128
濳	-10.513
父師	-10.5131
娶	-10.5133
第五	-10.5134
數十	-10.516
和夷	-10.516
故先言	-10.516
涇水	-10.5167
毳	-10.5177
卓	-10.5179
崖	-10.5179
今文古文皆有	-10.5184
相連	-10.5184
芮伯	-10.5187
祈天永命	-10.5187
莫大於	-10.519
尙書	-10.5195
所據	-10.5221
各有所	-10.5236
巽	-10.5236
旨	-10.5237
雞	-10.524
恣	-10.524
郎	-10.5241
從容	-10.5265
陰陽	-10.5272
苖民	-10.5272
其可不	-10.5273
繇	-10.5284
科	-10.5289
羑	-10.5291
蘭	-10.5292
般	-10.5294
第四	-10.53
呂氏曰	-10.5304
召南	-10.5307
罔攸	-10.5316
先儒謂	-10.5319
組	-10.5335
糧	-10.5338
酸	-10.5339
潘	-10.5345
酷	-10.5346
神祇	-10.5349
翕	-10.5351
拔	-10.5353
槩	-10.5354
少頴	-10.5357
敬典	-10.5367
讀書	-10.5373
唐叔	-10.5375
篇末	-10.5377
形容	-10.539
奭	-10.5391
杞	-10.5397
二説	-10.5399
註云	-10.54
闊	-10.5402
粒	-10.5404
伯冏	-10.5409
膚	-10.5409
湎于酒	-10.5421
十八年	-10.5431
方岳	-10.5451
峙	-10.5451
酈	-10.5452
壯	-10.5452
殷士	-10.5455
不可勝	-10.5455
逰	-10.5456
敖	-10.5457
穡	-10.546
徯	-10.5464
肜	-10.5468
入洛	-10.5491
又案	-10.5496
黎陽	-10.55
治洛	-10.5508
算	-10.5508
孔氏以	-10.5512
栁	-10.5513
籲	-10.5514
戲	-10.5515
夘	-10.5517
督	-10.5518
戊辰	-10.5518
邦君御事	-10.5519
武王克商	-10.5521
寛裕	-10.5527
休咎	-10.5533
十七年	-10.5541
張氏	-10.5545
康寧	-10.5559
此三者	-10.556
不可易	-10.5563
下邳	-10.5571
繆	-10.5574
晏	-10.5574
㫁	-10.5574
潞	-10.5577
臆	-10.5577
諴	-10.5578
十九年	-10.5583
周制	-10.5591
萊夷	-10.5596
親近	-10.5596
不逮	-10.5596
都邑	-10.5607
長沙	-10.5611
北面	-10.5612
錦	-10.5622
者多矣	-10.5624
汲	-10.5628
無一毫	-10.5637
「	-10.5646
分為二	-10.5654
八月	-10.5654
六宗	-10.566
命羲和	-10.567
頴	-10.5674
子弟	-10.5674
酢	-10.5678
冦	-10.5679
周公之訓	-10.5682
二十八宿	-10.5684
戎狄	-10.5686
逢	-10.5689
馮翊	-10.5691
後嗣	-10.5692
雷首	-10.5704
貴賤	-10.5708
衡漳	-10.5715
十二牧	-10.5719
可以見	-10.5722
赤道	-10.5723
濱	-10.5738
豳	-10.5744
粗	-10.5744
慄	-10.5747
此之謂	-10.5747
濰	-10.5749
冐	-10.5749
祐	-10.5754
先儒以	-10.5757
偃師	-10.576
議論	-10.5774
秸	-10.5787
一統志	-10.5796
奸	-10.58
尚書詳解卷	-10.58
繪	-10.5803
父子兄弟	-10.5805
三辰	-10.5808
我國家	-10.581
求賢	-10.5818
三十六	-10.5822
幽王	-10.5824
:	-10.5825
仁義	-10.583
許多	-10.5842
厯象	-10.5858
亘	-10.5859
賀	-10.5859
雜出	-10.5863
懈	-10.5864
仲虺之誥	-10.5867
仲丁	-10.5869
禹之治水	-10.587
播種	-10.588
吾心	-10.5881
殺戮	-10.5884
武王伐紂	-10.5886
毛詩	-10.5891
康成	-10.5892
興起	-10.5901
霍叔	-10.5912
馴	-10.5917
裏	-10.5919
剕	-10.592
致敬	-10.5921
惕	-10.5922
左旋	-10.5932
沃丁	-10.5936
往來	-10.5937
重華	-10.5953
堂上	-10.5961
冥	-10.5971
醫	-10.5977
輪	-10.5978
托	-10.5978
相接	-10.5979
奇	-10.5981
寢	-10.5982
葉氏曰	-10.5989
媯	-10.599
皇帝	-10.5991
殷先哲王	-10.5996
孔氏安國曰	-10.6033
浪	-10.6033
狐	-10.6036
逖	-10.6037
菑	-10.6038
渚	-10.6038
曁	-10.6038
陳氏雅言曰	-10.6043
紂之惡	-10.6045
濟隂	-10.6047
綱領	-10.6049
愚案	-10.6057
牧夫	-10.6073
談	-10.6091
驩兜	-10.6096
譌	-10.6097
以是知	-10.6098
豆	-10.6099
憑	-10.6099
銘	-10.6101
滹沱	-10.6103
孟子所謂	-10.6129
貢篚	-10.6135
九州之外	-10.614
鞭	-10.6154
㸔	-10.6157
粤	-10.6162
伏羲	-10.6163
墜厥命	-10.6168
蕩蕩	-10.6169
桐宫	-10.6169
三澨	-10.6175
微子之命	-10.6182
沇水	-10.6189
不知何	-10.6191
衣食	-10.6191
左𫝊	-10.62
六軍	-10.6201
銍	-10.6201
絃	-10.621
鬲	-10.6214
浩	-10.6219
皇甫謐	-10.622
驪	-10.6221
整齊	-10.6231
求諸	-10.6232
存亡	-10.6244
常任	-10.6249
漆水	-10.6256
鍰	-10.6275
腥	-10.6277
姬	-10.628
䖍	-10.6281
衮冕	-10.6284
巫咸	-10.6288
汶水	-10.6289
洪範九疇	-10.6292
聘	-10.6293
公劉	-10.632
▁新安陳氏曰	-10.6323
先生曰	-10.6327
南面	-10.633
亷	-10.6335
粉米	-10.634
車服	-10.634
戡	-10.6342
謗	-10.6343
狼	-10.6347
金城	-10.6366
過九江	-10.6375
稅	-10.638
降災	-10.6386
漢地理志	-10.6387
瞻	-10.6402
羆	-10.6403
焦	-10.6403
毗	-10.6404
咤	-10.6407
蘇公	-10.6407
威福	-10.6407
耇	-10.641
非其人	-10.6421
税	-10.6447
醜	-10.6457
底柱	-10.6462
劣	-10.6462
洩	-10.6463
十四年	-10.6463
蘓	-10.6465
迤	-10.6467
漁	-10.6467
隙	-10.6467
鄱陽	-10.6468
滑	-10.647
孝經	-10.6472
御覽	-10.6472
歆	-10.6474
譲	-10.6475
春分	-10.6477
朝歌	-10.6499
我周王	-10.6508
蠙	-10.6511
龠	-10.6526
覽	-10.6526
判	-10.6526
乃祖乃父	-10.6527
繞	-10.6527
妨	-10.6528
罷	-10.653
薨	-10.653
鴈	-10.6531
勉力	-10.6537
荀	-10.6551
伏流	-10.6572
升降	-10.6574
百穀	-10.6574
籥	-10.6583
悍	-10.6586
奥	-10.6586
互見	-10.6591
屑	-10.6591
親親	-10.6592
畆	-10.6594
蠱	-10.6595
朱圉	-10.6596
如之何	-10.6597
監視	-10.6601
析城	-10.6615
稽首	-10.6618
北條	-10.6621
丕顯	-10.6626
躬行	-10.6644
瓉	-10.6646
四寸	-10.665
萃	-10.6652
黷	-10.6653
盗	-10.6653
伻	-10.6654
勗	-10.6654
擬	-10.6656
緜	-10.6656
薛氏曰	-10.6661
鰥	-10.6666
又東至	-10.6667
敬忌	-10.6669
常性	-10.6684
恐懼	-10.6687
十六年	-10.6699
戸	-10.6714
劓刵	-10.6716
祖廟	-10.6717
矩	-10.672
臬	-10.6721
三孤	-10.6723
二十五篇	-10.6733
附㑹	-10.6762
丁未	-10.6767
何嘗	-10.6769
李氏	-10.6773
迴	-10.6777
裘	-10.6778
從革	-10.6778
複	-10.6779
百執事	-10.6781
䧟	-10.6782
摩	-10.6784
曽氏曰	-10.6785
股	-10.6789
翔	-10.6792
成王即政	-10.6793
宅洛	-10.6798
寰宇記云	-10.6811
七宿	-10.6815
荀子	-10.6825
九十里	-10.6831
濶	-10.6838
飽	-10.684
橘柚	-10.6841
氷	-10.6843
樵	-10.6845
晁氏	-10.6848
吐蕃	-10.6851
十有二月	-10.6869
州之境	-10.6882
父兄	-10.6895
搏	-10.6906
冰	-10.6907
耀	-10.691
谿	-10.6914
樞	-10.6916
悠	-10.6918
禹迹	-10.692
安陸	-10.6939
四方之民	-10.6947
保衡	-10.6962
程子	-10.6963
菁茅	-10.6964
珍	-10.6967
鬲津	-10.6968
富貴	-10.6975
肥	-10.6976
酣	-10.6978
砥	-10.6978
憤	-10.6978
少昊	-10.6979
沴	-10.6986
乙卯	-10.6992
厯年	-10.6998
庶獄	-10.7
數百里	-10.7031
二十九篇	-10.7033
鐸	-10.704
區區	-10.7041
汎	-10.7045
悲	-10.7048
維持	-10.7049
元龜	-10.7049
未免	-10.7052
商郊	-10.7053
損益	-10.7054
丁寧	-10.7058
甞	-10.7084
典謨	-10.7099
獵	-10.7105
汧	-10.7109
西伯戡黎	-10.7111
百九十	-10.7111
司牧	-10.7116
上黨	-10.7117
司宼	-10.7119
林少頴謂	-10.7121
忠信	-10.7121
宰相	-10.7135
未足	-10.7137
士大夫	-10.7144
譬如	-10.7153
篠	-10.7166
眚	-10.7167
隮	-10.717
鼔	-10.7171
停	-10.7173
駕	-10.7174
鼻	-10.7175
魁	-10.7176
南境	-10.7178
苑	-10.7179
周禮司	-10.718
不啻	-10.7184
功業	-10.7186
壁中	-10.7186
徂征	-10.719
漾水	-10.7203
曽氏	-10.7213
顚	-10.7233
圮	-10.7234
迭	-10.7236
排	-10.7237
灉沮	-10.724
潰	-10.7241
哀矜	-10.7243
蝕	-10.7244
泣	-10.7246
條理	-10.7285
沈湎	-10.729
地理今釋	-10.7301
姑洗	-10.7304
銖	-10.7305
陶丘	-10.7306
佩	-10.7308
封康叔	-10.7309
据	-10.731
豬野	-10.7314
坂	-10.7319
曰若稽古	-10.7321
忠良	-10.7337
輔弼	-10.7343
觸	-10.7372
鞭扑	-10.7372
潮	-10.7373
湮	-10.7375
梧	-10.7377
敝	-10.7378
折獄	-10.7379
丞	-10.7379
糾	-10.738
泄	-10.7383
百榖	-10.7401
沇	-10.7403
劉氏	-10.7424
乏	-10.7442
喬	-10.7444
胄	-10.7446
柏	-10.7449
釗	-10.7453
朝覲	-10.7463
梁雍	-10.7471
輔翼	-10.748
警戒	-10.75
呂氏祖謙曰	-10.7512
峰	-10.7516
噐	-10.7516
謝	-10.7517
隘	-10.7517
輒	-10.7519
健	-10.7521
朋黨	-10.7524
颺	-10.7528
咨四岳	-10.7529
幷	-10.753
七十二	-10.7548
吕梁	-10.7561
蹇叔	-10.7574
文王受命	-10.7576
仞	-10.7577
枲	-10.7581
伸	-10.7582
考終命	-10.7583
嵗月日	-10.7585
中央	-10.7585
滄浪	-10.7586
百鍰	-10.7588
座	-10.7589
五十八篇	-10.7589
諛	-10.7592
疆界	-10.7593
賡	-10.7593
自此以下	-10.7602
第八	-10.7617
扞	-10.7642
島	-10.7643
思慮	-10.7646
晁	-10.7652
悅	-10.7658
析支	-10.7661
兗州	-10.7694
經緯	-10.7713
塾	-10.7718
蔵	-10.7719
紵	-10.7719
滎波	-10.7719
之類是也	-10.772
滯	-10.7724
大槩	-10.7725
綸	-10.7726
交修	-10.7731
旻	-10.7733
黄金	-10.7778
塗泥	-10.7788
雙	-10.779
櫟	-10.7795
匹夫匹婦	-10.7796
逞	-10.7796
牡	-10.7797
潼	-10.7799
佑助	-10.7811
憂勤	-10.7841
憸人	-10.7846
鞏	-10.7851
鏞	-10.7855
滇	-10.7862
黼黻	-10.7863
河亶甲	-10.7865
冶	-10.7865
亢	-10.7867
緣	-10.7867
肩	-10.7868
憝	-10.7868
隰	-10.7868
扆	-10.7875
劉向	-10.7884
滄州	-10.7926
鉅	-10.7926
導漾	-10.7933
匏	-10.7937
宕	-10.7937
作民父母	-10.7941
粹	-10.7942
禍亂	-10.7943
夾室	-10.7944
賜姓	-10.7948
横流	-10.7955
朝鮮	-10.7974
杜預云	-10.798
壚	-10.7998
闐	-10.8004
錫貢	-10.8005
靑	-10.801
儻	-10.8011
詁	-10.8019
恭儉	-10.8025
四海之内	-10.803
陶唐	-10.8043
河南府	-10.8045
氣質	-10.8054
衮	-10.8068
匭	-10.8068
閩	-10.8071
奢	-10.8079
瀾	-10.8082
鎭	-10.8086
覩	-10.8086
寃	-10.8087
汾水	-10.8087
蒲姑	-10.8089
黥	-10.8091
軒	-10.8092
鄠	-10.8093
榆	-10.8095
毫釐	-10.8098
二十五里	-10.8117
叔父	-10.813
兩端	-10.8142
金氏履祥曰	-10.8151
逋逃	-10.8152
僞	-10.8153
哭	-10.8155
畎澮	-10.816
璿	-10.816
燭	-10.8161
妹邦	-10.8162
昧爽	-10.8165
瘝	-10.8165
兢兢業業	-10.8165
桑欽	-10.8168
戡黎	-10.8168
斷獄	-10.8181
郷	-10.8225
絜	-10.8226
䙝	-10.8227
諒	-10.8234
入南海	-10.8258
烝祭	-10.8262
莽	-10.8265
牿	-10.8288
砮	-10.8299
陑	-10.83
軫	-10.8302
愿	-10.8305
譴	-10.8309
耽樂	-10.8309
醴	-10.831
華蟲	-10.8312
纂䟽	-10.8316
杜氏	-10.8319
歴試	-10.8335
度量	-10.8362
廉	-10.8377
芒	-10.8377
箘簵	-10.8378
鄆	-10.8379
兒	-10.8379
歡	-10.8382
禰	-10.8387
梁岐	-10.8405
羣飲	-10.8443
㦸	-10.8446
豕	-10.8453
瑶	-10.8453
䜛	-10.8454
影	-10.8457
瑕	-10.8457
樊	-10.8459
攸好徳	-10.8459
弑	-10.846
紫	-10.8461
朞	-10.8462
曲折	-10.8464
淇	-10.8465
黼扆	-10.8465
凉	-10.8466
髙山大川	-10.8466
化育	-10.8468
母弟	-10.848
憸	-10.8486
洚	-10.8503
儲	-10.8531
賈逵	-10.8533
宵	-10.8534
扑	-10.8534
杜佑	-10.8534
蔑	-10.8535
拙	-10.8536
蘖	-10.8537
揆度	-10.8549
更端	-10.8572
灘	-10.8605
遍	-10.8607
返	-10.8608
亟	-10.8608
宄	-10.8609
襃	-10.861
荷	-10.8611
瀘	-10.8612
惻	-10.8616
羽毛	-10.8619
十餘里	-10.8636
慶府	-10.8637
水注之	-10.8637
四裔	-10.8637
千乗	-10.864
未甞	-10.8643
两	-10.868
岷嶓	-10.8684
茫	-10.8684
馬頰	-10.8684
篆	-10.8688
治事之臣	-10.8688
突	-10.8689
琅	-10.8689
傍	-10.8689
它	-10.8691
祁	-10.8696
委曲	-10.8705
岷江	-10.8721
苞	-10.8763
釁	-10.8765
晷	-10.8765
曲阜	-10.8768
澮	-10.8768
寔	-10.8768
𫉬	-10.8769
吝	-10.877
鄴	-10.8773
麟	-10.8775
臨洮	-10.8777
荆揚	-10.8787
汳	-10.8831
㸃	-10.884
豹	-10.8844
潭	-10.8845
超	-10.8847
泛濫	-10.8847
汜	-10.8847
𠂻	-10.8847
科斗	-10.8848
轍	-10.8848
陻	-10.8848
憫	-10.8848
燥	-10.8848
迄	-10.8849
舛	-10.885
卻	-10.8851
兢兢	-10.8851
翁	-10.8852
庶獄庶慎	-10.8854
又東南逕	-10.8859
鞏縣	-10.8866
」	-10.887
教誨	-10.889
邳	-10.889
牟	-10.8921
遑	-10.8921
釋詁云	-10.8922
閱	-10.8922
嚌	-10.8928
豪	-10.8928
渙	-10.893
知人安民	-10.8932
媚	-10.8933
京兆	-10.8939
濟漯	-10.8952
蕪	-10.8999
堙	-10.8999
銳	-10.8999
蜼	-10.9001
漂	-10.9002
夏后氏	-10.9003
憐	-10.9004
譜	-10.9005
蠲	-10.9007
眩	-10.9008
癸亥	-10.9012
姑息	-10.9017
溉	-10.9076
涸	-10.9079
秬	-10.9082
吐	-10.9085
㝠	-10.9085
攜	-10.9086
眉	-10.9087
貶	-10.9088
隨山刋木	-10.9091
翦	-10.9092
咨嗟	-10.9092
兢業	-10.9092
岍岐	-10.9096
十有三年	-10.9097
宅百揆	-10.9101
鏤	-10.9155
犬戎	-10.9164
稟	-10.9165
芳	-10.9166
嗇夫	-10.9166
訂	-10.9166
恨	-10.9167
髙宗肜日	-10.9174
積累	-10.9175
踐奄	-10.9176
頟	-10.9181
委任	-10.9214
泝	-10.924
琅玕	-10.9241
琨	-10.9242
墠	-10.9243
崐	-10.9246
乞	-10.9247
恫	-10.9248
杖	-10.9249
剖	-10.9249
囂	-10.9251
舟楫	-10.9252
甲戌	-10.9253
二十九日	-10.9256
天降威	-10.9258
霽	-10.9259
邠	-10.926
血氣	-10.9262
馬本作	-10.9316
琴	-10.9319
艮	-10.9322
刑人殺人	-10.9325
漲	-10.9327
甲胄	-10.933
樸	-10.933
弘	-10.933
競	-10.9331
辟疑赦	-10.9332
躔	-10.9334
馮	-10.9336
紛紛	-10.9336
鴟	-10.9337
時乃功	-10.9347
弗弔	-10.9358
穗	-10.94
吹	-10.9403
祧	-10.9404
卞	-10.9406
饋	-10.9412
陳氏師凱曰	-10.9414
敉	-10.9418
穿鑿	-10.9419
郫	-10.9421
孟春	-10.9441
千二百	-10.9455
鳴球	-10.9487
壘	-10.9494
快	-10.95
汙	-10.95
網	-10.9501
顛倒	-10.9504
咸有一德	-10.9507
凢	-10.9508
太宰	-10.951
館	-10.9513
飫	-10.9516
蟻	-10.9569
阪	-10.9574
邉	-10.958
数	-10.9581
繋	-10.9582
覃	-10.9583
禘	-10.9584
禽獸	-10.9584
騭	-10.9584
燎	-10.9584
㓕	-10.9587
漬	-10.9588
璣衡	-10.9589
應劭	-10.9589
雊雉	-10.9591
衣裳	-10.9596
侮慢	-10.9603
澨	-10.9648
卉	-10.966
礙	-10.9661
刈	-10.9662
姒	-10.9669
屠	-10.9669
藝文志	-10.967
認	-10.9671
粢	-10.9672
恁	-10.9675
亮采	-10.9676
創業	-10.968
演	-10.9681
臣妾	-10.9683
阼階	-10.9743
殽	-10.9745
燔	-10.9749
吕氏祖謙曰	-10.9753
溫	-10.9753
苛	-10.9758
傑	-10.9759
尭	-10.9768
置閏	-10.978
妾	-10.9816
彩	-10.9825
稾	-10.9833
筍	-10.9835
版	-10.9838
香	-10.984
晨	-10.9842
涿	-10.9842
沾	-10.9845
簒	-10.9845
怨詈	-10.9847
尚書纂傳卷	-10.9848
孔穎達	-10.9849
霖	-10.985
鼠	-10.9855
乙丑	-10.9857
徼	-10.9913
璆	-10.9917
妲己	-10.992
百五十里	-10.9922
惓	-10.9928
恢	-10.9929
隐	-10.9932
伋	-10.9933
収	-10.9933
浙江	-10.9935
汲汲	-10.9939
迷惑	-10.994
彗	-10.9981
穽	-10.9996
氐	-10.9998
太蔟	-11.0006
纖	-11.0012
捍	-11.0015
司徒司馬司空	-11.0018
瓚	-11.0021
恬	-11.0021
徼外	-11.0024
轅	-11.0025
知稼穡之艱難	-11.0026
𢎞農	-11.0031
答拜	-11.0035
莞	-11.0091
浙	-11.0094
牝	-11.0098
王樵曰	-11.0103
鴟鴞	-11.0103
太丁	-11.0105
惻怛	-11.0106
孔頴達	-11.0107
熱	-11.0107
馨	-11.0108
坊	-11.0109
宴	-11.0112
地平天成	-11.0115
㦲	-11.0116
恰	-11.0116
底績	-11.0117
戊申	-11.0119
三江既入	-11.0146
垢	-11.0193
三郊三遂	-11.0193
无	-11.0196
嶓	-11.0197
雋	-11.0198
匠	-11.0198
今商王受	-11.0199
霜	-11.0201
隸	-11.0202
酈注	-11.0205
具區	-11.0205
𨗳	-11.021
眷顧	-11.0247
藁	-11.0278
畨	-11.0281
珪	-11.0288
聒	-11.0289
閣	-11.029
乾坤	-11.0291
聳	-11.0291
胙	-11.0293
朽	-11.0295
庫	-11.0295
殿	-11.0299
圭瓚	-11.0302
集大命	-11.0302
弋	-11.0303
豐鎬	-11.0352
宼	-11.036
太王王季	-11.0371
劼	-11.0375
昆弟	-11.0379
湔	-11.038
朴	-11.038
勾	-11.038
噫	-11.0381
秘	-11.0381
很	-11.0381
級	-11.0383
掖	-11.0384
塗炭	-11.0384
六府三事	-11.0385
厎績	-11.0387
証	-11.0387
伏犧	-11.0389
》	-11.0392
《	-11.0392
彛倫	-11.0395
堂上之樂	-11.0458
㳂	-11.0463
湛	-11.0465
巍	-11.047
檀	-11.0472
棣	-11.0473
誼	-11.0474
輙	-11.0475
欠	-11.0478
格于皇天	-11.0478
萊蕪	-11.0479
筵	-11.0555
雕	-11.0564
優游	-11.0565
錫之福	-11.0568
不孝不友	-11.0571
澗瀍	-11.0571
董氏鼎曰	-11.0571
㳟	-11.0572
嫡	-11.0572
又南逕	-11.0578
琳	-11.0653
餞	-11.0654
鋒	-11.0654
濰淄	-11.0655
黻	-11.0658
鴻溝	-11.0658
摯	-11.0658
途	-11.0659
繼自今	-11.066
澠	-11.066
仲尼	-11.0664
今文無古文有	-11.0666
驩	-11.0667
坦	-11.0669
巨室	-11.0672
綬	-11.0741
孥	-11.0743
杶	-11.0746
覃懐	-11.0746
孳	-11.0749
逋	-11.075
犍	-11.0758
汚	-11.0758
銜	-11.0758
任土作貢	-11.0761
碎	-11.0762
概	-11.0764
効	-11.0765
旺	-11.0839
眇	-11.0844
纊	-11.0846
板	-11.0847
鐡	-11.0854
廩	-11.0854
叅	-11.0855
幕	-11.0856
隣	-11.0856
嘉靖	-11.0857
揭	-11.0858
戍	-11.0858
剥	-11.086
林少穎	-11.086
隄防	-11.0862
溢為滎	-11.0863
擭	-11.0933
孫炎曰	-11.0942
交趾	-11.0944
兠	-11.0948
琬	-11.0949
琰	-11.0949
孥戮	-11.0949
鄂	-11.0949
凶短折	-11.0951
傲上從康	-11.0952
赫	-11.0953
柔逺能邇	-11.0954
盥	-11.0954
嬖	-11.0955
犀	-11.0958
巡狩	-11.096
仡	-11.1036
晢	-11.1037
綴衣虎賁	-11.1043
茨	-11.1043
檿絲	-11.1044
頂	-11.1044
涼	-11.1046
響	-11.1047
杌	-11.1047
日月五星	-11.1048
賂	-11.1048
狥	-11.1048
慾	-11.1049
逼	-11.1049
誡	-11.1053
燄	-11.1055
邰	-11.1055
滱	-11.1062
欽明文思	-11.1063
耦	-11.1129
箭	-11.114
糗	-11.114
壑	-11.114
崤	-11.1145
低	-11.1145
類于上帝	-11.1146
秦始皇	-11.1147
淫泆	-11.1149
遁	-11.1151
貊	-11.1151
殂落	-11.1161
千七百	-11.1177
奢侈	-11.124
探	-11.1243
行其所無事	-11.1244
虢叔	-11.1244
裂	-11.1244
暋	-11.1247
巫蠱	-11.1249
這箇	-11.1254
水入焉	-11.1316
瀕	-11.1337
皇輿表	-11.1339
圜	-11.1339
莠	-11.1343
絕	-11.1344
駁	-11.1345
險阻	-11.1348
朝至于洛	-11.1349
唱	-11.1349
弃	-11.135
懍	-11.1355
嬪	-11.1356
第二十	-11.1409
堂下之樂	-11.1436
上上錯	-11.144
瀦	-11.1441
湍	-11.1443
粟米	-11.1443
培	-11.1447
渝	-11.1448
翳	-11.1448
暮	-11.1451
状	-11.1451
仁義禮智	-11.1453
憾	-11.1455
肄	-11.1467
塘	-11.1546
械	-11.1546
把	-11.1546
狠	-11.1548
鵠	-11.1549
潯	-11.155
園	-11.1552
肈	-11.1553
值	-11.1554
詈	-11.1555
誑	-11.1557
闡	-11.1562
峯	-11.1562
九百四十分日之	-11.1564
安汝止	-11.1566
皋陶	-11.1568
宛	-11.1648
桂	-11.1651
掘	-11.1652
莒	-11.1652
梗	-11.1656
鄧	-11.1656
有虞氏	-11.1656
葭	-11.1658
伊洛瀍澗	-11.1661
麥	-11.1661
稚	-11.1662
抗	-11.1663
廓	-11.1663
五福六極	-11.1664
遷殷頑民	-11.1665
影響	-11.1669
?	-11.1683
稻	-11.175
鼗	-11.1751
慼	-11.1756
瓜	-11.176
瓠	-11.1762
殱	-11.1764
齡	-11.1764
驟	-11.1765
蘇軾	-11.1768
癸酉	-11.1783
本又作	-11.1858
律度量衡	-11.1861
鋭	-11.1862
森	-11.1862
墉	-11.1864
水火木金	-11.1865
灌溉	-11.1865
濡	-11.1866
臼	-11.1867
拯	-11.1868
贅	-11.1869
聨	-11.1869
礫	-11.187
雩	-11.1875
恂	-11.1876
叢脞	-11.1878
一百二十里	-11.189
鳯凰	-11.1967
裹	-11.1969
酬	-11.197
譏	-11.1974
麴	-11.1974
渴	-11.1976
綜	-11.1976
澶	-11.1978
寛而栗	-11.1978
庾	-11.1979
點	-11.1981
遒	-11.1983
幄帳	-11.1983
慎徽五典	-11.1991
孔氏穎逹曰	-11.2075
埋	-11.2079
墻	-11.2079
㓂	-11.208
麤	-11.2081
縫	-11.2082
擅	-11.2082
嫉	-11.2084
拾	-11.2085
濼	-11.2085
駭	-11.2087
康誥酒誥梓材	-11.2088
岀	-11.2088
頮	-11.2093
廵狩	-11.2093
臻	-11.2096
餉	-11.2168
摶	-11.2185
漠	-11.2189
大司樂	-11.2189
尺二寸	-11.2192
促	-11.2192
㤗	-11.2193
棼	-11.2194
弭	-11.2199
聊	-11.2199
荘	-11.22
鳥鼠同穴	-11.2203
上洛縣	-11.2241
練	-11.229
捕	-11.229
淸	-11.2296
懦	-11.2298
綂	-11.23
栝	-11.2301
崘	-11.2302
醇	-11.2302
蔡邕	-11.2303
戞	-11.2304
纘	-11.2304
芟	-11.2306
乍	-11.2307
湯放桀	-11.2311
叶	-11.2312
耽	-11.2407
罽	-11.2409
日月所㑹	-11.2412
参	-11.2413
髪	-11.2415
鳥䑕	-11.2415
閎夭	-11.2417
踵	-11.2417
郢	-11.2419
奎	-11.2423
些	-11.2424
烈風雷雨	-11.2429
䖏	-11.2526
名山大川	-11.2527
葉榆	-11.253
閱實其罪	-11.253
雘	-11.2531
崑	-11.2532
愁	-11.2532
勒	-11.2532
魚鼈	-11.2532
伺	-11.2533
盪	-11.2533
蠡	-11.2533
涔	-11.2537
虗	-11.2538
耻	-11.254
蕤賔	-11.2633
陛	-11.2635
柷敔	-11.2638
胤	-11.2642
鈎	-11.2643
祕	-11.2647
巧言令色	-11.2647
蘇氏軾曰	-11.2648
卬	-11.2649
粉	-11.265
偕	-11.2651
幻	-11.2652
莭	-11.2654
列爵惟五	-11.2655
坑	-11.2752
奕	-11.2755
窒	-11.276
淑	-11.276
緇	-11.2761
耘	-11.2761
金作贖刑	-11.2762
迤邐	-11.2763
林氏之奇曰	-11.2764
鄘	-11.2765
隳	-11.2765
夸	-11.2767
諄	-11.2771
駿	-11.2773
閟	-11.2775
孛	-11.2797
瘠	-11.2867
綦	-11.2868
服食器用	-11.2871
𥘉	-11.2875
緘	-11.2876
血流漂杵	-11.2876
縻	-11.2877
詭	-11.2879
瓦	-11.2879
纉	-11.288
荼	-11.2881
協時月正日	-11.2884
栢	-11.2885
恆	-11.2885
罕	-11.2889
壹	-11.2893
翰林院	-11.2903
敔	-11.2981
芻	-11.2988
瀰	-11.2992
髮	-11.2994
罪人斯得	-11.2997
羔	-11.2998
浩浩	-11.2998
縂	-11.3001
導岍及岐	-11.3001
㧞	-11.3003
猾	-11.3003
呱	-11.3004
十有三載	-11.3005
殳	-11.3005
天難諶	-11.3007
瑟	-11.311
填	-11.3116
敬授人時	-11.3117
翰	-11.3119
知小人之依	-11.3121
製	-11.3121
公侯伯子男	-11.3122
律厯志	-11.3122
欣	-11.3123
狩	-11.3125
遹	-11.3125
帖	-11.3126
郤	-11.3126
鄒季友曰	-11.3129
前寧人	-11.3133
巻	-11.3137
肥瘠	-11.3224
迨	-11.3234
葱	-11.3235
撥	-11.3236
婚	-11.3239
胷	-11.3241
侯甸男衛	-11.3242
慿	-11.3242
諺	-11.3244
以禮制心	-11.3245
毫髪	-11.3246
活	-11.3246
誇	-11.3246
祗見厥祖	-11.325
槀	-11.325
涪	-11.3353
譁	-11.3354
瞿	-11.3355
郊特牲	-11.3357
曆	-11.3357
樏	-11.3357
楨榦	-11.3358
疊	-11.3359
雌	-11.336
斟酌	-11.336
弼成五服	-11.336
山古文以為	-11.3362
騂	-11.3363
迆	-11.3364
三宅三俊	-11.3366
閻	-11.3367
蒸	-11.3367
添	-11.3367
友邦冢君	-11.3369
磧	-11.3369
朡	-11.3373
頡	-11.3375
煬	-11.3375
隲	-11.3377
蘆	-11.338
菁	-11.3476
榭	-11.3479
沭	-11.3485
菴	-11.3488
挈	-11.349
油	-11.3491
狃	-11.3493
壺	-11.3494
啇	-11.3495
撲	-11.3495
盾	-11.3497
諟	-11.3497
悌	-11.35
揉	-11.3608
叟	-11.3608
縛	-11.3613
黄氏度曰	-11.3617
未知孰是	-11.3618
兜	-11.3618
柘	-11.3619
廡	-11.362
以義制事	-11.362
仆	-11.3621
畱	-11.3622
扇	-11.3622
翻	-11.3625
碞	-11.3625
正月上日	-11.3632
簣	-11.3734
枝江縣	-11.3734
鄖	-11.3741
羡	-11.3742
騰	-11.3745
慚	-11.3747
鉤	-11.3747
寐	-11.3747
父師少師	-11.3747
慘	-11.3749
湧	-11.375
沫	-11.3754
雁	-11.3754
梅賾	-11.3755
殪	-11.3757
肖	-11.3791
閼	-11.3864
舅	-11.3866
嬴	-11.3867
帝王世紀	-11.3869
額	-11.3869
嚻	-11.387
蕩析離居	-11.3872
蒐	-11.3873
鄯	-11.3874
棘	-11.3874
緝	-11.3876
柩	-11.3877
凛	-11.3879
閎	-11.388
護	-11.3881
愍	-11.3883
一百一十	-11.3905
孔氏頴達曰	-11.3997
璜	-11.3997
黔	-11.3998
篾	-11.3998
齊桓公	-11.3998
潦	-11.4
廻	-11.4002
應門之内	-11.4003
灾	-11.4005
泆	-11.4005
様	-11.4006
世變風移	-11.4007
尚書注疏卷	-11.4008
碑	-11.4009
惟有司之牧夫	-11.401
倘	-11.401
俶	-11.4011
住	-11.4011
函	-11.4013
譸張為幻	-11.4013
斨	-11.4014
怵	-11.4015
件	-11.4016
柷	-11.4122
苴	-11.4125
祫	-11.4127
芻茭	-11.4128
劫	-11.4129
片	-11.4131
洳	-11.4133
禹貢錐指	-11.4134
儼	-11.4135
髳	-11.4136
麋	-11.4136
慨	-11.4137
𣲖	-11.4138
怙終賊刑	-11.4138
構	-11.4139
浹	-11.414
寖	-11.414
治梁及岐	-11.4141
㳺	-11.4143
洫	-11.4143
殁	-11.4143
堲	-11.4143
員	-11.4146
呈	-11.4147
慆	-11.4153
電	-11.4156
自今以往	-11.4157
滔	-11.4224
控	-11.4261
煢	-11.4265
佳	-11.4269
肅慎氏	-11.4271
减	-11.4272
蘄	-11.4275
幄	-11.4275
羈	-11.4277
鷩	-11.4277
囘	-11.4278
錫土姓	-11.4278
諶	-11.4278
尚書全解卷	-11.428
魂	-11.4286
百夫長	-11.4403
倖	-11.4405
趾	-11.4408
挽	-11.4408
村	-11.441
此二節書是	-11.4411
復歸于亳	-11.4411
歲月日	-11.4412
棟	-11.4412
撮	-11.4414
撓	-11.4415
蛇	-11.4415
浴	-11.4415
椓	-11.4418
默	-11.442
彪	-11.4421
亂臣十人	-11.4421
謨明弼諧	-11.4424
圎	-11.4534
箾	-11.4536
髀	-11.4539
兌	-11.454
圉	-11.4542
三百六十五度四分度之一	-11.4545
辦	-11.4545
筐	-11.4546
刖	-11.4547
沈酗于酒	-11.4547
燒	-11.4547
掠	-11.4549
凡厥庶民	-11.455
東為北江入于海	-11.4552
九州攸同	-11.4552
筭	-11.4555
蔓	-11.4557
厄	-11.4558
摹	-11.4559
柳	-11.4562
諷	-11.4564
浞	-11.4568
嚳	-11.4681
濯	-11.4687
港	-11.4687
爕	-11.4688
九江孔殷	-11.4689
裴	-11.469
札	-11.469
昜	-11.4691
獄之兩辭	-11.4692
凌	-11.4692
胎	-11.4693
蠻夷猾夏	-11.4695
侍御僕從	-11.4696
導洛自熊耳	-11.4696
届	-11.4697
終南惇物	-11.4697
剪	-11.4699
俘	-11.4701
嫁	-11.4702
絀	-11.4702
悶	-11.4703
亹	-11.4706
輴	-11.4825
腐	-11.4826
謚	-11.4828
鬭	-11.4828
紬	-11.483
胎簪	-11.4831
杵	-11.4832
巷	-11.4834
肝	-11.4834
復子明辟	-11.4835
陣	-11.4835
昩	-11.4835
孔子序書	-11.4835
汗	-11.4836
聱	-11.4836
華容縣	-11.484
𦵏	-11.484
笥	-11.4843
分土惟三	-11.4846
黏	-11.4962
閘	-11.4967
瀛	-11.4968
程大昌	-11.4971
沬	-11.4971
橫	-11.4971
刵	-11.4973
場	-11.4974
王應麟曰	-11.4974
胸	-11.4974
張皇六師	-11.4974
勁	-11.4975
訾	-11.4978
律和聲	-11.4983
贏	-11.4983
象以典刑	-11.4983
百獸率舞	-11.4984
百官族姓	-11.4985
籩	-11.4985
一篇之綱領	-11.4985
皇建其有極	-11.4986
雊	-11.4987
咸秩無文	-11.4987
湊	-11.5118
匈	-11.512
吞	-11.5122
九域志	-11.5122
騫	-11.5124
沽	-11.5125
課	-11.5126
巾	-11.5127
詆	-11.5127
掃	-11.5128
黽	-11.5129
妣	-11.5132
克終允徳	-11.5136
吐谷渾	-11.514
陟方乃死	-11.5148
昊	-11.5212
蒗	-11.5266
古人有言曰	-11.5267
秕	-11.5268
侯甸男衞	-11.5268
流宥五刑	-11.527
膂	-11.5273
剔	-11.5275
聿	-11.5275
時氏瀾曰	-11.5279
偷	-11.5279
躋	-11.5281
教胄子	-11.5283
新安胡氏曰	-11.5283
忸怩	-11.5284
沁	-11.5285
料	-11.5285
糞	-11.5416
槐	-11.5417
贑	-11.5422
遘	-11.5422
〇	-11.5423
圃	-11.5424
論道經邦	-11.5424
治直吏反	-11.5425
殫	-11.5426
葵	-11.5427
九山刋旅	-11.5427
王氏安石曰	-11.5427
麾	-11.5428
鉛	-11.543
沐	-11.543
丕丕基	-11.5431
諂	-11.5431
瞑	-11.5431
天乃錫禹洪範九疇	-11.5433
常伯常任準人	-11.5434
彘	-11.5434
肇稱殷禮	-11.5437
輟	-11.5439
蚌	-11.5569
淞	-11.5571
尼	-11.5574
肺	-11.5576
軸	-11.5576
覬	-11.5577
鬻	-11.5577
率西方諸侯	-11.5578
庶土交正	-11.5578
斮	-11.5579
㡳	-11.5581
迅	-11.5582
聲依永	-11.5583
涇屬渭汭	-11.5584
東匯澤為彭蠡	-11.5584
饕	-11.5585
龜從筮	-11.5585
儒林傳	-11.5585
着	-11.5585
旂	-11.5586
蔚	-11.5586
妃	-11.5587
文子文孫	-11.5588
柯	-11.5591
扺	-11.5592
寂	-11.5595
匣	-11.5721
羮	-11.5721
㬥	-11.5723
縢	-11.573
旒	-11.5731
姻	-11.5733
三分天下有其二	-11.5734
异	-11.5735
像	-11.5735
耨	-11.5735
䧏	-11.5735
脛	-11.5736
覈	-11.5736
散宜生	-11.5737
砂	-11.5737
枵	-11.5737
怡	-11.5737
建子之月	-11.5737
憑玉几	-11.5737
剝	-11.5737
同惡相濟	-11.5738
訊	-11.5739
揮	-11.5739
檿	-11.574
憎	-11.574
肢	-11.574
彊弗友	-11.574
保乂有殷	-11.5743
譸	-11.5744
彜	-11.5746
騎	-11.5746
四十六卷	-11.5746
廿	-11.5747
允執厥中	-11.5748
兊	-11.5883
鼖	-11.5884
昃	-11.5891
不敢侮鰥寡	-11.5895
改過不吝	-11.5896
旌别淑慝	-11.5896
朗	-11.5898
塈	-11.59
殉	-11.59
粲	-11.5902
爛	-11.5902
誌	-11.5902
大統未集	-11.5903
九共九篇	-11.5915
三百四十八	-11.5918
不剛不柔	-11.6047
塊	-11.605
盍	-11.6052
福善禍淫	-11.6053
偹	-11.6053
綺	-11.6055
齬	-11.6055
降丘宅土	-11.6055
棗	-11.6056
鬬	-11.6057
六府孔修	-11.6057
眚災肆赦	-11.6058
濤	-11.6058
顓	-11.6058
五十九篇	-11.606
淆	-11.606
弄	-11.606
摧	-11.606
埤	-11.606
顙	-11.6061
懫	-11.6062
克明俊徳	-11.6063
舊勞于外	-11.6063
堤	-11.6063
以今輿地言之	-11.6065
彈	-11.6068
三風十愆	-11.6068
魏晉間	-11.6069
喜怒哀樂	-11.6069
雎	-11.621
式化厥訓	-11.6213
斵	-11.6214
崔	-11.6215
楨	-11.6217
薪	-11.6217
彖	-11.6217
衙	-11.6217
徽柔懿恭	-11.6217
藍	-11.6218
申氏時行曰	-11.6219
煖	-11.6219
跋	-11.622
過九江至于東陵	-11.622
恭黙思道	-11.622
恭行天之罰	-11.6221
惟皇作極	-11.6222
朐	-11.6222
邶	-11.6222
岌	-11.6223
汩	-11.6223
肆命徂后	-11.6225
朕卜并吉	-11.6225
絶地天通	-11.6225
董仲舒	-11.6226
㷀	-11.6228
坰	-11.6229
觀政于商	-11.623
灊	-11.6233
朱虎熊羆	-11.6234
糓	-11.6373
北極出地	-11.6373
斛	-11.6379
花	-11.6381
戀	-11.6384
師尹惟日	-11.6386
㪚	-11.6386
江漢朝宗于海	-11.6387
搜	-11.6387
山龍華蟲	-11.6388
予則孥戮汝	-11.6388
勦	-11.6389
耐	-11.639
薰	-11.6391
敕	-11.6392
溥	-11.6392
坼	-11.6396
璩	-11.6396
摘	-11.6397
現	-11.6399
擊石拊石	-11.64
拓	-11.6541
槎	-11.6545
祖考來格	-11.6545
涌	-11.6549
雨𤾉燠寒風	-11.655
揲	-11.6552
惟正之供	-11.6553
袤	-11.6553
逝	-11.6554
吿	-11.6554
耜	-11.6554
覇	-11.6555
糵	-11.6556
復扶又反	-11.6557
模	-11.6557
鏡	-11.6558
𤓰	-11.6558
制禮作樂	-11.6558
噬	-11.6559
今朕必往	-11.6559
宦	-11.6559
遯于荒野	-11.656
蚤	-11.656
見形甸反	-11.6561
元王天與撰	-11.6562
内有百揆四岳	-11.6562
三昭三穆	-11.6562
銷	-11.6562
删	-11.6564
十有三祀	-11.6567
澆	-11.6567
庶績咸熙	-11.6567
恐懼修省	-11.6569
侗	-11.6573
讙	-11.6575
諞	-11.6713
笴	-11.6722
懔	-11.6723
泌	-11.6723
謐	-11.6725
遡	-11.6726
誚	-11.6727
涕	-11.6728
平秩東作	-11.6728
戊辰王在新邑	-11.6729
褻	-11.6729
局	-11.673
侔	-11.673
雨暘燠寒風	-11.673
握	-11.6732
篡	-11.6736
湟	-11.6736
我生不有命在天	-11.6737
你	-11.6737
仙	-11.6738
遞	-11.6739
不矜不伐	-11.6745
楣	-11.6748
兑	-11.6888
蹟	-11.6894
侖	-11.6897
庖	-11.6898
曜	-11.69
雲土夢作乂	-11.69
舂	-11.6901
淹	-11.6902
寗	-11.6903
灣	-11.6904
輯五瑞	-11.6904
􁀾	-11.6905
鶴	-11.6906
者未之有也	-11.6907
鸞	-11.6907
臾	-11.6907
禋于六宗	-11.6907
𨼆	-11.691
卵	-11.691
貸	-11.691
昔朕來自奄	-11.6912
駰	-11.6914
禫	-11.6917
冩	-11.707
梮	-11.707
戣	-11.707
鍪	-11.7074
餙	-11.7076
寝	-11.708
烙	-11.708
創業垂統	-11.7081
𤯝	-11.7083
又東為滄浪之水	-11.7084
莘	-11.7084
杓	-11.7086
莅	-11.7086
喉	-11.7086
六年五服一朝	-11.7086
顧諟天之明命	-11.7087
犂	-11.7088
建邦設都	-11.7088
彫	-11.7089
刼	-11.7089
揣	-11.7089
無反無側	-11.709
駮	-11.7092
胃	-11.7094
劍	-11.7242
簇	-11.7255
浮于積石至于龍門西河	-11.7258
奉圭兼幣	-11.7258
甸侯綏	-11.726
紩	-11.7261
允迪厥徳	-11.7261
炮	-11.7261
鞅	-11.7263
躁	-11.7264
煥	-11.7265
餮	-11.7265
庶獄庶愼	-11.7266
炙	-11.7266
簧	-11.7267
風雷之變	-11.7267
民之所欲天必從之	-11.7268
鉏	-11.7268
謁	-11.7268
逭	-11.7269
擯	-11.727
枕	-11.727
時人斯其惟皇之極	-11.7271
陸費墀	-11.7273
月恭校上	-11.7274
鈔	-11.7274
昀	-11.7274
惟三月哉生魄	-11.7275
庶明勵翼	-11.7278
跣	-11.7285
壩	-11.7407
釡	-11.743
伾	-11.7434
橇	-11.7437
佛	-11.7437
租	-11.7438
卭	-11.7439
燮理隂陽	-11.744
椎	-11.7441
內	-11.7442
觜	-11.7443
鏃	-11.7444
崑崙析支渠搜	-11.7446
陘	-11.7446
愉	-11.7446
琊	-11.7446
紆	-11.7446
摭	-11.7448
琮	-11.7449
航	-11.7449
需	-11.7449
刳	-11.7449
簫韶九成	-11.745
三帛二生一死	-11.7451
脂	-11.7452
廢時亂日	-11.7452
暖	-11.7453
抽	-11.7453
紐	-11.7456
叨	-11.7457
欽定四庫全書經部二	-11.7457
尹躬暨湯	-11.7458
態	-11.7459
方命圯族	-11.7459
欲敗度縱敗禮	-11.746
后王君公	-11.746
罔不率俾	-11.746
槃	-11.7461
惟帝時克	-11.7462
諾	-11.7463
雹	-11.7467
』	-11.7478
『	-11.7479
乳	-11.7627
鞫	-11.763
賣	-11.7631
郟	-11.7631
譯	-11.7631
九夷八蠻	-11.7631
潤下作鹹	-11.7632
碣	-11.7633
濬畎澮距川	-11.7634
竹書紀年	-11.7635
瀟	-11.7635
伶	-11.7635
帷	-11.7636
僃	-11.7636
陪	-11.7637
竇	-11.7637
躍	-11.7638
敞	-11.7638
薊	-11.7639
玆	-11.7639
不邇聲色不殖貨利	-11.764
訴	-11.764
庶草蕃廡	-11.7641
繢	-11.7642
亨	-11.7643
印	-11.7645
擁	-11.7646
七世之廟	-11.7647
贛	-11.7647
水火金木土榖	-11.7647
黎民於變時雍	-11.7648
號泣于旻天	-11.7648
肱	-11.7648
嚴恭寅畏	-11.7651
汝則有大疑	-11.7659
敿	-11.7812
腎	-11.7819
張氏九成曰	-11.7819
禜	-11.782
羣叔流言	-11.7821
鬛	-11.7823
个	-11.7823
橘	-11.7824
弩	-11.783
皥	-11.783
寘	-11.783
遶	-11.7831
謟	-11.7831
東為中江入于海	-11.7832
設官分職	-11.7832
允釐百工	-11.7832
釀	-11.7833
陽鳥攸居	-11.7835
推亡固存	-11.7836
稔	-11.7836
凍	-11.7837
鞏昌府	-11.7838
騷	-11.7839
址	-11.784
郁	-11.7841
䢴	-11.801
樓	-11.8012
鎧	-11.8018
孔頴逹	-11.8018
熾	-11.8019
㐮	-11.8019
肅乂哲謀聖	-11.8022
毨	-11.8022
菽	-11.8026
研	-11.8026
璿璣玉衡	-11.8026
竦	-11.8027
廪	-11.8028
蹙	-11.8028
偉	-11.8028
峨	-11.8028
碧	-11.8029
作十有三載乃同	-11.8029
彰厥有常吉哉	-11.8029
捐	-11.8029
悼	-11.803
系	-11.803
擴	-11.803
揜	-11.8031
冺	-11.8031
䞇	-11.8032
㕘	-11.8032
威克厥愛	-11.8033
誹	-11.8033
禹拜昌言曰俞	-11.8034
渇	-11.8036
炫	-11.8038
嵐	-11.8039
剽	-11.8039
从	-11.804
蒻	-11.821
世輕世重	-11.8213
腸	-11.8216
泊	-11.8217
邗	-11.8218
金銀銅	-11.8218
溠	-11.8219
婢	-11.822
墾	-11.8221
祔	-11.8222
埽	-11.8224
猗	-11.8225
犢	-11.8226
秣	-11.8226
邈	-11.8227
旁求俊彦	-11.8228
方施象刑惟明	-11.8228
四隩既宅	-11.8228
㝡	-11.8229
仗	-11.8229
永樂大典	-11.823
肆汝小子封	-11.8232
導渭自鳥鼠同穴	-11.8233
濩	-11.8233
四分度之一	-11.8235
罰弗及嗣	-11.8236
庶頑讒説	-11.8237
宙	-11.8238
虹	-11.8248
孺	-11.8411
冨	-11.8425
宋黄倫撰	-11.8426
寺	-11.8427
檮	-11.8429
膳	-11.843
嶲	-11.843
菟	-11.843
頤	-11.8432
犧牷牲	-11.8433
詣	-11.8434
僎	-11.8435
幅	-11.8435
竅	-11.8435
滕	-11.8435
惟狂克念作聖	-11.8435
摰	-11.8436
在璿璣玉衡以齊七政	-11.8436
嬰	-11.8437
頻	-11.8437
貌言視聽思	-11.8438
睹	-11.8438
詹	-11.8439
𦂳	-11.844
蓬	-11.8441
檢身若不及	-11.8442
纓	-11.8442
慤	-11.8442
梟	-11.8443
闞	-11.8443
以寵利居成功	-11.8445
泳	-11.8445
尙	-11.8594
縷	-11.8621
浮于淮泗達于河	-11.8631
㢲	-11.8632
毀	-11.8634
三面距河	-11.8634
濠	-11.8634
欽定四庫全書尚書精義卷	-11.8635
鋤	-11.8635
莱	-11.8636
蚩	-11.8636
官不必備惟其人	-11.8638
貔	-11.864
冉	-11.864
眼	-11.8641
祓	-11.8642
脗	-11.8642
惟聖罔念作狂	-11.8643
鄜	-11.8644
惟明克允	-11.8645
明明揚側陋	-11.8647
臣作朕股肱耳目	-11.8654
昇	-11.8654
邽	-11.8655
藐	-11.8835
戺	-11.8836
劒	-11.8841
歙	-11.8843
邸	-11.8846
煌	-11.8846
煮	-11.8846
牷	-11.8847
耗	-11.8848
孕	-11.885
鮒	-11.885
滹	-11.8851
水火金木土穀	-11.8851
飲食醉飽	-11.8852
焯	-11.8853
臘	-11.8854
遮	-11.8854
駟	-11.8854
掦	-11.8855
闔	-11.8856
萊蕪縣原山	-11.8856
通鑑前編	-11.8856
芥	-11.8857
鯀則殛死禹乃嗣興	-11.8858
鱗	-11.8858
牀	-11.8859
心勞日拙	-11.8859
壓	-11.8861
髦	-11.8861
帝告釐沃	-11.8862
予曷敢不	-11.8862
丸	-11.8863
聪	-11.8879
阼	-11.9053
心腹腎腸	-11.9056
鷄	-11.9061
荊	-11.9062
導菏澤被孟豬	-11.9062
僝	-11.9062
遙	-11.9065
㐫	-11.9065
一月戊午師渡孟津	-11.9066
史敘其事作	-11.9067
汝鳩汝方	-11.9068
僰	-11.9068
皓	-11.9069
伎	-11.9069
捷	-11.907
絰	-11.9071
􁅾	-11.9071
咏	-11.9071
邀	-11.9072
貿	-11.9072
鴆	-11.9072
阯	-11.9072
朱子語類問	-11.9073
燦	-11.9073
比事臣我宗多遜	-11.9073
肌	-11.9074
𧰼	-11.9075
賢聖之君六七作	-11.9076
喚	-11.9076
克綏厥猷	-11.9076
洙	-11.9076
秒	-11.9076
百姓有過在予一人	-11.9077
南陽平氏縣	-11.9077
金履祥曰	-11.9077
在我後嗣子孫	-11.9078
煙	-11.9078
率百官若帝之初	-11.9079
刑期于無刑	-11.9079
殳斨伯與	-11.9085
欲王以小民受天永命	-11.9085
熒	-11.9096
巂	-11.9272
璞	-11.9275
敹	-11.9278
夙	-11.9283
頽	-11.9284
栽	-11.9284
庶尹允諧	-11.9286
侉	-11.9286
鄏	-11.9287
多材多藝	-11.9288
東出于陶丘北	-11.9289
塵	-11.9289
烹	-11.929
牂	-11.929
㨗	-11.929
壷	-11.929
牾	-11.9291
龎	-11.9291
窋	-11.9292
羹	-11.9292
群	-11.9294
怍	-11.9294
氄	-11.9295
鳬	-11.9295
忻	-11.9295
砱	-11.9296
茹	-11.9296
搖	-11.9296
禆	-11.9297
傚	-11.9297
塔	-11.9299
籌	-11.93
顒	-11.9301
酆	-11.9301
勘	-11.9303
逵	-11.9305
閬	-11.9498
鍜	-11.9499
鍛	-11.9505
窟	-11.9506
稀	-11.9509
寤	-11.9514
刄	-11.9514
貍	-11.9514
阨	-11.9516
臂	-11.9517
齒革羽毛惟木	-11.9517
寰	-11.9517
潟	-11.9517
軰	-11.9518
燾	-11.9518
惟一月壬辰旁死魄	-11.9519
幡	-11.952
外薄四海咸建五長	-11.952
禎	-11.9522
外有州牧侯伯	-11.9522
方鳩僝功	-11.9524
嶓冢導漾東流為漢	-11.9525
典謨訓誥誓命	-11.9526
無若爾考之違王命	-11.9528
㤀	-11.953
瞍	-11.9533
庶績咸熈	-11.9534
饔	-11.9736
瀹	-11.9737
俎	-11.974
囬	-11.9741
畤	-11.9743
苐	-11.9745
炭	-11.9746
浮于濟漯達于河	-11.9747
狗	-11.9747
歉	-11.9748
癉	-11.9748
淮海惟揚州	-11.9749
夏氏僎曰	-11.975
亾	-11.9751
嗚	-11.9751
伊尹相湯伐桀	-11.9752
伻來毖殷	-11.9752
庇	-11.9752
惟爾王家我適	-11.9753
導淮自桐柏	-11.9754
惟我事不貳適	-11.9754
前徒倒戈	-11.9755
箘	-11.9755
瑣	-11.9755
陌	-11.9756
絫	-11.9758
羨	-11.9758
十萬曰億	-11.976
堆	-11.976
囧	-11.976
伊尹以冕服奉嗣王	-11.9763
在武丁時則有若甘盤	-11.9763
熹	-11.9769
豁	-11.9972
敜	-11.9977
纒	-11.9979
禳	-11.9979
逓	-11.998
邾	-11.9981
灤	-11.9982
管叔及其羣弟	-11.9982
畛	-11.9984
鋝	-11.9985
葛伯仇餉	-11.9985
惟婦言是用	-11.9985
呂祖謙曰	-11.9986
孫氏繼有曰	-11.9986
藹	-11.9989
殞	-11.9989
悚	-11.9989
杶榦栝柏	-11.999
咨汝羲暨和	-11.999
偪	-11.999
王與大夫盡弁	-11.9991
羑里之囚	-11.9991
佗	-11.9993
笞	-11.9994
厮	-11.9995
靜言庸違	-11.9997
酹	-11.9997
珥	-11.9999
自貽哲命	-12.0001
郿	-12.0003
眾	-12.0007
殂	-12.0015
盱	-12.0218
凰	-12.0222
瑯	-12.0226
梏	-12.0227
澱	-12.0228
痡	-12.0229
灋	-12.023
相息亮反	-12.023
礪砥砮丹	-12.0231
層	-12.0231
兢	-12.0232
隈	-12.0232
樗	-12.0233
敬敷五教在寛	-12.0235
朽索之馭六馬	-12.0235
評	-12.0236
無有作好遵王之道無有作惡遵王之路	-12.0237
儘	-12.0238
慊	-12.0241
戯	-12.0241
靈承于旅	-12.0241
終始惟一時乃日新	-12.0242
雺	-12.0242
侯甸男采衛	-12.0243
隧	-12.0245
念終始典于學	-12.0247
嗣守文武大訓	-12.0247
垂拱而天下治	-12.0247
闋	-12.0247
濬哲文明温恭允塞	-12.0253
䜟	-12.0254
穯	-12.0255
鈗	-12.0468
錐	-12.0472
隊	-12.0474
厖	-12.0476
脚	-12.0476
虜	-12.0478
摠	-12.0479
殊厥井疆	-12.048
齊聖廣淵	-12.0482
海岱及淮惟徐州	-12.0483
崈	-12.0484
妥	-12.0484
欽哉欽哉惟刑之恤哉	-12.0484
虺	-12.0484
一曰水二曰火三曰木四曰金五曰土	-12.0485
發號施令	-12.0486
諍	-12.0486
吟	-12.0486
簡賢附勢	-12.0486
鄕	-12.0486
洵	-12.0487
隉	-12.0489
壟	-12.0489
寬	-12.0489
静言庸違	-12.049
曷其奈何弗敬	-12.0491
偃武修文	-12.0493
疇咨若時登庸	-12.0493
惟皇上帝降衷于下民	-12.0494
唐虞稽古建官惟百	-12.0496
四海困窮天禄永終	-12.0505
衆非元后何戴	-12.0505
磯	-12.0532
遴	-12.0725
叩	-12.0731
薛氏季宣曰	-12.0733
膩	-12.0733
惟十有二年六月庚午朏	-12.0733
厥貢惟球琳琅玕	-12.0734
斲	-12.0734
䋲	-12.0736
柚	-12.0736
覦	-12.0737
渦	-12.0738
匝	-12.0738
紏	-12.074
隻	-12.074
撞	-12.0741
罵	-12.0742
次九曰嚮用五福威用六極	-12.0742
宋林之竒撰	-12.0742
豢	-12.0742
祲	-12.0743
三百六十五日四分日之一	-12.0744
鷟	-12.0745
翠	-12.0745
殺越人于貨	-12.0745
趨事赴功	-12.0746
無偏無陂遵王之義	-12.0747
枿	-12.0754
僧	-12.099
頰	-12.0991
洱	-12.0992
慧	-12.0993
荆及衡陽惟荆州	-12.0994
溷	-12.0996
懷山襄陵	-12.0997
肆覲東后	-12.1
棫	-12.1
輕重諸罰有權	-12.1001
鈍	-12.1001
淶	-12.1002
王氏充耘曰	-12.1003
茶	-12.1003
膽	-12.1003
迺	-12.1007
天其永我命于	-12.1007
駸	-12.1008
芽	-12.1011
卜河朔黎水	-12.1012
四罪而天下咸服	-12.1012
有言逆于汝心	-12.1013
㭬	-12.1013
鍵	-12.1014
僑	-12.1014
掌天地四時之官	-12.1014
蓼	-12.1015
驂	-12.1016
后非衆罔與守邦	-12.103
藳	-12.125
檻	-12.1256
三百里納秸服	-12.1258
僥	-12.126
厥貢惟土五色	-12.1261
黹	-12.1262
㠀	-12.1263
四百里粟五百里米	-12.1264
杼	-12.1264
嵎	-12.1266
竒技淫巧	-12.1266
釣	-12.1266
奬	-12.1267
圛	-12.1268
雝	-12.1269
愾	-12.1269
閠	-12.1269
楩	-12.127
又其外方五百里曰	-12.127
里伯七十里子男五十里	-12.1272
愷	-12.1272
蒯	-12.1273
㬰	-12.1273
籈	-12.1273
百姓不親五品不遜	-12.1273
喋	-12.1273
尅	-12.1274
娵	-12.1274
垂裕後昆	-12.1275
眡	-12.1275
准	-12.1276
鄣	-12.1276
狡	-12.1277
惟天地萬物父母惟人萬物之靈	-12.1277
咸則三壤成賦中邦	-12.1278
愚夫愚婦	-12.1278
一極備凶一極無凶	-12.1279
院	-12.1279
融堂書解卷	-12.128
永不忘在王家	-12.1283
騶	-12.1284
蟄	-12.1284
歸馬放牛	-12.1285
苗頑弗即工	-12.1285
天視自我民視天聽自我民聽	-12.1286
威侮五行怠棄三正	-12.1286
庶頑讒說	-12.1291
鄱	-12.1496
筋	-12.1531
緹	-12.1534
簸	-12.1538
疲	-12.154
郵	-12.1543
洎	-12.1544
洶	-12.1544
蕝	-12.1545
皷	-12.1547
阮	-12.1549
紅	-12.155
打	-12.155
以旦代某之身	-12.155
兕	-12.1551
西傾因桓是來	-12.1552
黯	-12.1553
越厥命以自覆	-12.1554
軾	-12.1554
大降爾四國民命	-12.1555
刷	-12.1555
無偏無黨王道蕩蕩無黨無偏王道平平	-12.1556
筠	-12.1556
紜	-12.1556
舞干羽于兩階	-12.1557
披	-12.1557
㑹其有極歸其有極	-12.1558
囿	-12.1558
周公初基作新大邑于東國洛	-12.1558
帙	-12.1559
一戎衣天下大定	-12.156
垂衣拱手	-12.1566
惟十有三祀王訪于箕子	-12.1567
與其殺不辜寧失不經	-12.1567
無或敢伏小人之攸箴	-12.1567
筮短龜長	-12.1568
文命敷于四海祗承于帝	-12.1568
查	-12.1574
功虧一簣	-12.1819
躭	-12.1828
涖	-12.183
丘陵墳衍	-12.183
糠	-12.1831
東滙澤為彭蠡	-12.1831
厠	-12.1832
棲	-12.1832
譙	-12.1835
倨	-12.1835
狸	-12.1837
俄	-12.1837
窄	-12.1838
㵎	-12.1838
韌	-12.1838
惟周公誕保文武受命惟七年	-12.1839
蘷	-12.184
文王惟克厥宅心	-12.184
予決九川距四海濬畎澮距川	-12.184
庸蜀羌髳微盧彭濮	-12.184
遺厥先宗廟弗祀	-12.184
水曰潤下火曰炎上木曰曲直金曰從革	-12.1841
狄設黼扆綴衣	-12.1841
線	-12.1843
繳	-12.1843
惟戊午王次于河朔	-12.1843
予欲聞六律五聲八音	-12.1843
乃聖乃神乃武乃文	-12.1843
馘	-12.1845
降年有永有不永	-12.1845
望于山川徧于羣神	-12.1845
嘏	-12.1846
璠	-12.1846
蠧	-12.1847
天佑下民作之君作之師	-12.1847
月之行則有冬有夏月之從星則以風雨	-12.1848
正徳利用厚生	-12.1849
僴	-12.185
刊	-12.1851
凟	-12.1853
鼵	-12.186
鬴	-12.186
鮪	-12.208
𧖟	-12.2115
償	-12.2115
劑	-12.2118
擿	-12.2119
舄	-12.2122
楙	-12.2123
樽	-12.2124
式敬爾由獄	-12.2124
衢	-12.2126
聯	-12.2126
梯	-12.2126
勖	-12.2126
謳	-12.2126
婉	-12.2128
毘	-12.2128
繕	-12.2128
諳	-12.213
南郡臨沮縣	-12.213
浮于汶達于濟	-12.213
尚書正義卷第	-12.2131
繅	-12.2132
亶聰明作元后元后作民父母	-12.2132
畋于有洛之表	-12.2132
氏敘章指見	-12.2133
凡厥庶民有猷有為有守汝則念之	-12.2133
兪	-12.2133
汝弗能使有好于而家時人斯其辜	-12.2133
郯	-12.2134
乃惟孺子頒朕	-12.2135
伻嚮即有僚	-12.2135
惟時厥庶民于汝極錫汝保極	-12.2136
文王騂牛一武王騂牛一	-12.2136
敢求爾于天邑商	-12.2136
十三度十九分度之七	-12.2137
致天之罰于爾躬	-12.2137
莖	-12.2137
恍	-12.2138
冗	-12.2138
庶民惟星星有好風星有好雨	-12.2139
掇	-12.2139
監于先王成憲其永無愆	-12.214
汝則從龜從筮從卿士從庶民從	-12.2141
鍳	-12.2141
諉	-12.2142
巒	-12.2142
崧	-12.2144
慣	-12.2146
不虐無告不廢困窮	-12.2149
宅乃事宅乃牧宅乃準	-12.215
埏	-12.241
六千五百六十一	-12.2419
夙夜罔或不勤	-12.2419
輓	-12.242
禺	-12.242
稜	-12.2421
韜	-12.2423
勺	-12.2427
次輅在右塾之前	-12.2427
齧	-12.2427
擢	-12.2429
劇	-12.243
丕乃崇降弗祥	-12.243
䘏	-12.2431
乃卜三龜一習吉	-12.2431
郴	-12.2432
其于爾躬有戮	-12.2433
耒	-12.2433
簿	-12.2433
覡	-12.2433
壺口雷首至于太岳	-12.2434
帝曰來禹汝亦昌言	-12.2434
衽	-12.2434
天聰明自我民聰明	-12.2435
矧汝剛制于酒	-12.2435
王亦未敢誚公	-12.2436
若農服田力穡乃亦有秋	-12.2436
錮	-12.2436
皇天既付中國民	-12.2437
又北播為九河同為逆河入于海	-12.2437
炳	-12.2437
妍	-12.2438
蟜	-12.2439
瞀	-12.244
増修東萊書說卷	-12.2441
惟三祀十有二月朔	-12.2441
餒	-12.2441
署	-12.2441
墨劓剕宫大辟	-12.2442
詩言志歌永言聲依永律和聲	-12.2443
商曰祀周曰年	-12.2444
俚	-12.2444
咎單作明居	-12.2445
今爾奔走臣我監五祀	-12.2445
不于我政人得罪	-12.2446
各守爾典以承天休	-12.2447
繭	-12.2447
謀及乃心謀及卿士謀及庶人謀及卜筮	-12.2447
愜	-12.2448
鋸	-12.2448
邇可逺在兹	-12.2448
其爾萬方有罪在予一人	-12.245
拆	-12.2453
同寅協恭和衷	-12.2454
十七萬七千一百四十七	-12.2714
甌	-12.272
飼	-12.2727
婺	-12.2728
卧	-12.273
甯	-12.273
脾	-12.2731
苹	-12.2733
滲	-12.2735
厥貢羽毛齒革惟金三品	-12.2737
先輅在左塾之前	-12.2739
民訖自若是多盤	-12.274
熊羆狐貍織皮	-12.2741
刑亂國用重典	-12.2742
屨	-12.2744
套	-12.2745
欒	-12.2745
不協于極不罹于咎皇則受之	-12.2746
惟乃丕顯考文王	-12.2746
冤	-12.2746
架	-12.2746
矇	-12.2747
儔	-12.2747
昂	-12.2747
澀	-12.2748
如五器卒乃復	-12.2749
聿求元聖與之戮力	-12.275
臣之有作福作威玉食其害于而	-12.275
葦	-12.275
煞	-12.2751
瓴	-12.2751
誥告庶殷越自乃御事	-12.2751
庶殷侯甸男邦伯	-12.2752
鬰	-12.2752
饉	-12.2752
轘	-12.2752
蟬	-12.2753
穪	-12.2753
先王克謹天戒	-12.2753
王乃言曰嗚呼箕子惟天	-12.2753
燧	-12.2754
夬	-12.2754
熄	-12.2754
蔟	-12.2754
譚	-12.2754
㠯	-12.2755
兹在兹釋兹在兹	-12.2758
嫂	-12.2759
罟	-12.2761
予一人有罪無以爾萬方	-12.2761
凶人為不善亦惟日不足	-12.2762
龔	-12.2763
踞	-12.2763
禧	-12.2765
虖	-12.2771
觴	-12.3049
讞	-12.305
菹	-12.3051
不作無益害有益	-12.3056
上刑適輕下服下刑適重上服	-12.3058
司空掌邦土居四民時地利	-12.3062
汝萬民乃不生生	-12.3065
徂兹淮夷徐戎並興	-12.3065
朞三百有六旬有六日以閏月定四時成	-12.3065
琢	-12.3065
戢	-12.3066
外四面又各五百里	-12.3066
𡊮	-12.3067
媿	-12.3067
孩	-12.3068
熏	-12.3068
筦	-12.3068
諦	-12.3068
杭	-12.3068
惟爾有神尚克相予以濟兆民無作神羞	-12.3069
率遏衆力率割夏邑	-12.3069
我武惟揚侵于之疆	-12.307
侯甸男邦采衛	-12.307
購	-12.3071
堵	-12.3071
王若曰孟侯朕其弟小子封	-12.3072
㢘	-12.3072
釜	-12.3072
腴	-12.3073
寥	-12.3075
月正元日舜格于文祖	-12.3077
殲	-12.3078
王徂桐宫居憂	-12.3078
惟帝降格于夏	-12.308
袒	-12.308
河出圖洛出書聖人則之	-12.3081
庶民從龜從筮從汝則逆卿士逆吉	-12.3081
滴	-12.3082
眊	-12.3082
枹	-12.3083
后非民罔以辟四方	-12.3084
皋	-12.3084
菲	-12.3084
卿士從龜從筮從汝則逆庶民逆吉	-12.3084
溼	-12.3086
可愛非君可畏非民	-12.3089
三過其門而不入	-12.309
敢知曰不其延惟不敬厥徳乃早墜厥命	-12.3091
晹	-12.3371
棧	-12.3385
襟	-12.3389
䛕	-12.339
緅	-12.3391
貟	-12.3395
厥土惟壤下土墳壚	-12.3396
悱	-12.3396
過三澨至于大别南入于江	-12.3396
踊	-12.3397
釃	-12.3397
鍊	-12.3397
陬	-12.3399
蹤	-12.34
若濟巨川用汝作舟楫	-12.34
于其無好徳汝雖錫之福其作汝用咎	-12.34
二曰貨三曰祀四曰司空五曰司徒六曰	-12.3401
峒	-12.3401
厥四月哉生明王來自商至于豐	-12.3402
皇天眷佑誕受厥命	-12.3402
厥田惟上上厥賦中下	-12.3402
壌	-12.3402
皇帝哀矜庶戮之不辜	-12.3403
㽔	-12.3403
棺	-12.3403
朢	-12.3404
有大艱于西土西土人亦不	-12.3404
克寛克仁彰信兆民	-12.3404
王遺我大寶龜	-12.3405
袞	-12.3405
人之有能有為使羞其行而邦其昌	-12.3406
䜴	-12.3406
縉	-12.3406
二曰疾三曰憂四曰貧五曰惡六曰弱	-12.3406
郝	-12.3407
惟辟作福惟辟作威惟辟玉食	-12.3407
屆	-12.3407
受克予非朕文考有罪惟予小子無良	-12.3408
無皇曰今日耽樂	-12.3409
萇	-12.3409
予克受非予武惟朕文考無罪	-12.341
槁	-12.341
度作刑以詰四方	-12.3411
冑	-12.3411
宐	-12.3411
汝則從龜從筮逆卿士逆庶民逆作内	-12.3412
予沖子夙夜毖祀	-12.3413
醒	-12.3413
肆予大化誘我友邦君	-12.3414
汝則從龜從筮從卿士逆庶民逆吉	-12.3415
王如弗敢及天基命定命	-12.3415
三載考績三考黜陟幽明	-12.3417
雨霽蒙驛克	-12.3417
瑗	-12.342
鄢	-12.3422
凑	-12.3425
朕承王之休無斁	-12.3426
洸	-12.3726
冏	-12.3726
綌	-12.3727
眙	-12.3732
珊	-12.3734
厥田惟下下厥賦下上上錯	-12.3735
簟	-12.3735
蕤	-12.3736
䂓	-12.3736
昳	-12.3736
竺	-12.3737
輻	-12.3737
甲戌我惟征徐戎	-12.3737
玊	-12.3738
植璧秉珪	-12.3739
溧	-12.374
授宗人同拜王答拜	-12.374
嘉績于朕邦	-12.374
楹	-12.3742
𢎞敷五典式和民則	-12.3742
疫	-12.3742
佯	-12.3743
予念我先神后之勞爾先	-12.3743
炎上作苦曲直作酸從革作辛稼穡作甘	-12.3743
導弱水至于合黎餘波入于流沙	-12.3744
刑發聞惟腥	-12.3745
無或私家于獄之兩辭	-12.3745
騁	-12.3746
換	-12.3746
盡執拘以歸于周予其殺	-12.3747
狭	-12.3747
魅	-12.3747
渮	-12.3747
太行恒山至于碣石入于海	-12.3748
壮	-12.3748
泮	-12.3748
戊午師逾孟津癸亥陳于商郊俟天休命	-12.3748
䟦	-12.3748
顏	-12.3748
其克詰爾戎兵以陟禹之迹	-12.3749
個	-12.3749
蟠	-12.375
王享國百年耄荒	-12.375
殷小腆誕敢紀其	-12.375
斫	-12.375
㨿	-12.375
柰	-12.3751
肆祖甲之享國三十有三年	-12.3751
承保乃文祖受命民越乃光烈考武王	-12.3751
曰予恐來世以台為口實	-12.3751
百姓如喪考妣	-12.3751
企	-12.3751
縦	-12.3752
晰	-12.3752
夔曰於予擊石拊石百獸率舞	-12.3753
用能定爾子孫于下地	-12.3753
鎖	-12.3753
煽	-12.3753
帳	-12.3753
而泣予弗子惟荒度土功	-12.3754
駢	-12.3754
膊	-12.3755
敢對揚天子之休命	-12.3755
爾小子乃興從爾遷	-12.3755
懽	-12.3756
啓乃心沃朕心	-12.3756
敷奏以言明試以功車服以庸	-12.3756
明四目達四聰	-12.3756
越三日庚戌柴望大告武成	-12.3757
凡厥庶民極之敷言是訓是行以近天	-12.3757
澹	-12.3758
暨益奏庶鮮食	-12.3758
凡七卜五占用二衍忒	-12.3758
立時人作卜筮三人占則從二人之言	-12.3759
孜	-12.3759
若有恒性克綏厥猷惟后	-12.3759
5	-12.376
娥	-12.376
日講書經解義	-12.3761
王先服殷御事比介于我有周御事	-12.3761
天惟純佑命則商實百姓	-12.3762
是之謂大同身其康彊子孫其逢吉	-12.3763
周公拜手稽首曰朕復子明辟	-12.3763
節性惟日其邁	-12.3763
朕志先定詢謀僉同鬼神其依龜筮協從	-12.3766
汝惟不矜天下莫與汝	-12.3769
黿	-12.4081
貯	-12.4083
瑚	-12.4091
厥田惟上中厥賦中中	-12.4092
衋	-12.4092
汝曷弗念我古后之聞	-12.4093
厓	-12.4094
苻	-12.4095
厥田惟上下厥賦中上	-12.4097
汪	-12.4097
桶	-12.4098
厥田惟下上厥賦下中三錯	-12.4099
菜	-12.41
賾	-12.41
濋	-12.41
刑新國用輕典	-12.41
冷	-12.4101
淦	-12.4101
薫	-12.4102
少師少傅少保曰三孤	-12.4102
氾	-12.4102
皇天無親惟徳是輔	-12.4102
瀚	-12.4103
周公曰未可以戚我先王	-12.4103
惲	-12.4103
輳	-12.4104
罰及爾身弗可悔	-12.4104
胖	-12.4104
予畏上帝不敢不正	-12.4104
霄	-12.4105
惟厥攸居政事惟醇	-12.4105
耎	-12.4105
囊	-12.4106
寨	-12.4106
華夏蠻貊罔不率俾	-12.4106
映	-12.4106
泠	-12.4107
家凶于而國人用側頗僻民用僭忒	-12.4107
罔有敵于我師前徒倒戈攻于後以北	-12.4107
翊	-12.4108
腑	-12.4108
不役耳目百度惟貞	-12.4109
覧	-12.4109
天不庸釋于文王受命	-12.4111
若跣弗視地厥足用傷	-12.4111
弗迓克奔以役西土	-12.4112
罄	-12.4112
鋪	-12.4112
掊	-12.4112
亦惟爾多士攸服奔走臣我多遜	-12.4113
鎔	-12.4113
無胥戕無胥虐	-12.4113
9	-12.4114
斟	-12.4114
自契至于成湯八遷	-12.4115
欽哉惟時亮天功	-12.4115
商罪貫盈天命誅之予弗順天厥罪惟鈞	-12.4115
東漸于海西被于流沙朔南暨聲教	-12.4115
亦惟助王宅天命作新民	-12.4116
帝曰咨汝二十有二人	-12.4117
王惟庸罔念聞	-12.4117
爾乃自時洛邑尚永力畋爾田	-12.4117
惟其克相上帝寵綏四方	-12.4118
哈	-12.4119
君罔以辯言亂舊政	-12.4119
淯	-12.4119
躇	-12.4119
昔先正保衡作我先王	-12.4119
瘁	-12.4121
王命衆悉至于庭	-12.4122
肆嗣王丕承基緒	-12.4123
嬀	-12.4124
我不敢知曰有夏服天命惟有	-12.4124
嗇	-12.4449
跖	-12.4456
下管鼗鼓合止柷敔笙鏞以	-12.4456
是信是使是以為大夫卿士	-12.446
緡	-12.4462
隤	-12.4462
罍	-12.4462
厥貢漆絲厥篚織文	-12.4463
咫	-12.4463
厥田惟中上厥賦錯上中	-12.4465
䑓	-12.4465
醢	-12.4465
賙	-12.4467
碩	-12.4468
碭	-12.447
酋	-12.447
竑	-12.447
天非虐惟民自速辜	-12.447
有其善喪厥善矜其能喪厥功	-12.4471
臟	-12.4471
爾尚輔予一人致天之罰	-12.4473
凡爾衆其惟致告	-12.4475
慮善以動動惟厥時	-12.4476
王命周公後作冊逸誥	-12.4476
擕	-12.4476
曰雨曰霽曰蒙曰驛曰克	-12.4476
周公拜手稽首曰王命予來	-12.4477
盩	-12.4477
或十年或七八年或五六年或四三年	-12.4477
爾曷不忱裕之于爾多方	-12.4477
惟王受命無疆惟休亦無疆惟恤	-12.4478
尖	-12.4478
㕓	-12.4478
予不敢宿則禋于文王武王	-12.4478
汊	-12.4478
予視天下愚夫愚婦一能勝予	-12.4479
七稽疑擇建立卜筮人乃命卜筮	-12.4479
若網在綱有條而不紊	-12.4479
朕夢協朕卜	-12.4479
知之曰明哲明哲實作則	-12.4479
肆中宗之享國七十有五年	-12.4479
夏暑雨小民惟曰怨咨	-12.448
蘉	-12.448
株	-12.448
憶	-12.4481
焚炙忠良刳剔孕婦	-12.4481
髓	-12.4481
矧予制乃短長之命	-12.4481
眺	-12.4481
之格則承之庸之否則威之	-12.4482
簮	-12.4482
唘	-12.4483
另	-12.4483
頥	-12.4483
􁅟	-12.4483
乃裕民曰我惟有及則予一人以懌	-12.4484
讚	-12.4484
八音克諧無相奪倫神人以和	-12.4484
麽	-12.4486
輦	-12.4486
允恭克讓光被四表格于上下	-12.4487
姊	-12.4487
王來紹上帝自服于土中	-12.4488
予不允惟若兹誥	-12.4488
曰惟先格王正厥事	-12.4489
庠	-12.449
哲時燠若曰謀時寒若曰聖時風若	-12.449
無曠庶官天工人其代之	-12.4494
涐	-12.4524
啻	-12.4774
䨇	-12.4822
稹	-12.4831
􁆣	-12.4831
坡	-12.4833
我心之憂日月逾邁若弗云來	-12.4846
涂	-12.4847
𢾗	-12.4848
岷山之陽至于衡山過九江至于敷淺原	-12.485
煑	-12.485
唇	-12.485
瀉	-12.485
祸	-12.4851
爾其孜孜奉予一人恭行天罰	-12.4851
牝雞之晨惟家之索	-12.4851
小曰橘大曰柚	-12.4853
蒿	-12.4853
今予將試以汝遷安定厥邦	-12.4853
桎	-12.4854
汝不憂朕心之攸困	-12.4855
不愆于四伐五伐六伐七伐乃止齊焉	-12.4855
月之從星則以風雨	-12.4855
爍	-12.4856
厥土白墳海濵廣斥	-12.4856
貼	-12.4856
欵	-12.4858
阡	-12.4858
厥賦惟上上錯厥田惟中中	-12.4858
乃言曰我聞在昔鯀陻洪水汨陳其五行	-12.4858
沲	-12.4858
故我至于今克受殷之命	-12.4859
欲敗度縱敗禮以速戾于厥躬	-12.4859
漿	-12.4859
螫	-12.486
紓	-12.486
羗	-12.486
凜	-12.486
惟克商遂通道于九夷八蠻	-12.486
瑩	-12.4861
鼂	-12.4861
灰	-12.4861
儕	-12.4861
逄	-12.4861
其一曰皇祖有訓	-12.4861
汝乃是不蘉乃時惟不永哉	-12.4861
越五日甲寅位成	-12.4862
軼	-12.4862
紳	-12.4862
乃審厥象俾以形旁求于天下	-12.4862
褊	-12.4863
弼成五服至于五千州十有二師	-12.4863
予旦以多子越御事篤前人成烈	-12.4864
冬祁寒小民亦惟曰怨咨	-12.4864
慄慄危懼若將隕于深淵	-12.4864
造攻自鳴條朕哉自亳	-12.4864
位不期驕禄不期侈	-12.4864
熊耳外方桐柏至于陪尾	-12.4864
二公及王乃問諸史與百執事	-12.4865
天子惟君萬邦百官承式	-12.4865
若藥弗瞑眩厥疾弗瘳	-12.4865
佾	-12.4865
用其義刑義殺勿庸以次汝封	-12.4866
不知稼穡之艱難不聞小人之勞惟耽樂	-12.4866
疚	-12.4866
予違汝弼汝無面從退有後言	-12.4867
予創若時娶于塗山辛壬癸甲	-12.4868
胼	-12.4868
詎	-12.4868
勱	-12.4868
害虐烝民為天下逋逃主萃淵藪	-12.4868
堡	-12.4869
娑	-12.4869
胝	-12.4869
霧	-12.487
炊	-12.487
王敬作所不可不敬徳	-12.487
忤	-12.4871
祗台徳先不距朕行	-12.4871
爾有善朕弗敢蔽	-12.4871
股肱惟人良臣惟聖	-12.4873
人心惟危道心惟微惟精惟一允執厥中	-12.4873
燼	-12.4874
后克艱厥后臣克艱厥臣政乃乂黎民敏	-12.4874
受有億兆夷人離心離	-12.4874
兹予大享于先王爾祖其從與享之	-12.4875
勳	-12.4876
惟天惠民惟辟奉天	-12.4877
格人元龜罔敢知吉	-12.4877
惇宗將禮稱秩元祀咸秩無文	-12.4877
其惟王勿以小民淫用非	-12.4878
爾尚一乃心力其克有勲	-12.4879
茭	-12.524
庳	-12.5243
厥土惟塗泥厥田惟下中厥賦上下	-12.5246
迥	-12.5246
曄	-12.5249
佃	-12.5252
鎛	-12.5252
穉	-12.5252
其刑其罰其審克之	-12.5252
撕	-12.5252
緑	-12.5253
鼈	-12.5254
蹇	-12.5254
禹拜曰都帝予何言予思日孜孜	-12.5254
澇	-12.5254
洺	-12.5255
箱	-12.5255
滂	-12.5255
惟事事乃其有備有備無患	-12.5256
霆	-12.5256
方行天下至于海表罔有不服	-12.5258
殻	-12.5259
爾身克正罔敢弗正民心罔中惟爾之中	-12.5259
王曰封我聞惟曰在昔殷	-12.5259
自古商人亦越我周文王立政立事牧夫	-12.5259
命君陳分正東郊成周	-12.526
以五采彰施于五色作服汝明	-12.5261
趵	-12.5261
不役志于享凡民惟曰不享惟事其爽侮	-12.5261
喧	-12.5261
両	-12.5261
猜	-12.5262
以秬鬯二卣曰明禋拜手稽首休享	-12.5262
怯	-12.5262
越翼日戊午乃社于新邑牛一羊一豕一	-12.5262
汝其敬識百辟享亦識其有不	-12.5262
餓	-12.5263
彷	-12.5263
麄	-12.5264
澡	-12.5264
予惟率肆矜爾非予罪時惟天命	-12.5264
先知稼穡之艱難乃逸則知小人之依	-12.5264
乃偃武修文歸馬于華山之陽放牛	-12.5264
肆予東征綏厥士女惟其士女篚厥	-12.5264
爾無忿疾于頑無求備于一夫	-12.5264
克諧以孝烝烝乂不格姦	-12.5265
譊	-12.5265
雖爾身在外乃心罔不在王室	-12.5265
乃用三有宅克即宅曰三有俊克即俊	-12.5265
曰其自時中乂萬邦咸休惟王有成績	-12.5265
俾萬姓咸曰大哉王言	-12.5265
瞭	-12.5266
彚	-12.5266
隗	-12.5266
懵	-12.5266
于弟弗念天顯乃弗克恭厥兄	-12.5267
昨	-12.5267
扼	-12.5267
閤	-12.5267
稃	-12.5268
乃惟以爾多方之義民不克永于多享	-12.5268
締	-12.5268
命汝作納言夙夜出納朕命惟允	-12.5269
五刑有服五服三就五流有宅五宅三居	-12.5269
婣	-12.5269
平康正直彊弗友剛克燮友柔克	-12.5269
亦罔不克敬典乃由裕民惟文王之敬忌	-12.5269
闌	-12.5269
必求諸道有言遜于汝志必求諸非道	-12.5269
獺	-12.527
邦君有一于身國必亡	-12.527
皇天眷命奄有四海為天下君	-12.5271
予告汝于難若射之有志	-12.5271
文考文王克成厥勲誕膺天命以撫方夏	-12.5271
惟四月哉生魄王不懌	-12.5271
王曰公予小子其退即辟于周命公後	-12.5271
亦則以穆穆在乃位	-12.5272
召公為保周公為師相成王為左右	-12.5272
天秩有禮自我五禮有庸哉	-12.5272
堯授舜舜授禹	-12.5273
帝曰咨四岳有能典朕三禮僉曰伯夷	-12.5273
罔遊于逸罔淫于樂	-12.5274
俾予一人輯寧爾邦家	-12.5274
奉先思孝接下思	-12.5275
公曰君告汝朕允	-12.5275
若曰豫恒燠若曰急恒寒若曰蒙恒風若	-12.5276
爾有嘉謀嘉猷則入告爾后于内	-12.5276
我聞吉人為善惟日不足	-12.5277
鵌	-12.5277
我不可不監于有夏亦不可不監于有殷	-12.5277
暈	-12.5283
郃	-12.5289
惟口出好興戎朕言不再	-12.529
筒	-12.5649
笛	-12.5653
𬒳	-12.5658
駒	-12.5662
戛擊鳴球搏拊琴瑟以詠	-12.5664
厥貢璆鐵銀鏤砮磬	-12.5666
洑	-12.5666
以佑乃辟永康兆民萬邦惟無斁	-12.5666
穰	-12.5666
叔卒乃命諸王邦之蔡	-12.5667
廼	-12.5667
絹	-12.5669
稠	-12.567
厥罪小乃不可不殺乃有大罪非終乃惟	-12.567
漷	-12.5671
立太師太傅太保兹惟三公	-12.5671
詰姦慝刑暴亂	-12.5671
腰	-12.5672
鐫	-12.5672
二曰月三曰日四曰星辰五曰厯數	-12.5672
聃	-12.5674
忞	-12.5674
氂	-12.5675
文王受命惟中身厥享國五十年	-12.5675
今我民用蕩析離居罔有定極	-12.5675
苫	-12.5675
罰之屬三百大辟之罰其屬二百	-12.5675
資富能訓惟以永年	-12.5675
售	-12.5676
入應門左畢公率東方諸侯入應門右	-12.5676
商今其有災我興受其敗	-12.5676
五辭簡孚正于五刑	-12.5676
夷微盧烝三亳阪尹	-12.5677
湼	-12.5677
殄戮多罪亦克用勸開釋無辜亦克用勸	-12.5677
簡厥修亦簡其或不修	-12.5677
享享多儀儀不及物惟曰不享	-12.5677
爾曷不夾介乂我周王享天之命	-12.5677
我聞亦惟曰在今後嗣王酣身	-12.5677
詮	-12.5677
洪惟圖天之命弗永寅念于祀	-12.5677
厥愆曰朕之愆允若時不啻不敢含怒	-12.5677
后式典集庶邦丕享	-12.5678
欽若先王成烈以休于前政	-12.5678
公其惟時成周建無窮之基	-12.5678
五子咸怨述大禹之戒以作歌	-12.5678
跌	-12.5679
以覲文王之耿光以揚武王之大烈	-12.5679
壄	-12.5679
導沇水東流為濟入于河溢為滎	-12.5679
我惟無斁其康事公勿替刑四方其世享	-12.568
王執書以泣曰其勿穆卜	-12.568
進厥良以率其或不良	-12.568
岫	-12.568
若不在時侯以明之撻以記之書用識	-12.568
𤣥黄昭我周王天休震動用附我大邑周	-12.568
予不敢閉于天降威用	-12.568
岳曰瞽子父頑母嚚象傲	-12.568
撿	-12.5681
明作有功惇大成裕汝永有辭	-12.5681
越三日丁巳用牲于郊牛二	-12.5681
内卦為貞外卦為悔	-12.5681
乃元孫不若旦多材多藝不能事鬼神	-12.5681
乃非民攸訓非天攸若時人丕則有愆	-12.5681
肻	-12.5681
漓	-12.5682
厥考翼其肯曰予有後弗棄基	-12.5682
岷山導江東别為沱又東至于澧	-12.5682
謾	-12.5682
斷制五刑以亂無辜上帝不蠲	-12.5682
盆	-12.5683
予其曰惟爾洪無度我不爾動自乃邑	-12.5683
亦越成湯陟丕釐上帝之耿命	-12.5683
予齊百工伻從王于周予惟曰庶有事	-12.5683
今汝永念則有固命厥亂明我新造邦	-12.5683
今王即命曰記功宗以功作元祀	-12.5683
予大降爾四國民命我乃明致天	-12.5683
萬邦黎獻共惟帝臣惟帝時舉	-12.5683
今商王受弗敬上天降災下民	-12.5683
椁	-12.5683
王曰汝陳時臬事罰蔽殷	-12.5684
肆亦見厥君事戕敗人宥	-12.5684
又曰時惟爾初不克敬于和則無我怨	-12.5684
有天命謂敬不足行謂祭無益謂暴無傷	-12.5684
厥不聽人乃訓之乃變亂先王之正刑至	-12.5684
若兄考乃有友伐厥子民養其勸弗救	-12.5684
既生魄庶邦冢君暨百工受命于周	-12.5685
公不敢不敬天之休來相宅其作周匹休	-12.5685
越七日甲子周公乃朝用書命	-12.5685
無違朕不敢有後無我怨	-12.5685
師氏虎臣百尹御事	-12.5685
乃反商政政由舊釋箕子囚封比干墓	-12.5685
王歸自克夏至于亳誕告萬方	-12.5685
孺子來相宅其大惇典殷獻民亂	-12.5685
爾之許我我其以璧與珪歸俟爾	-12.5685
延入翼室恤宅宗	-12.5685
于父不能字厥子乃疾厥子	-12.5685
肆爾多士非我小國敢弋殷命	-12.5686
周公曰嗚呼我聞曰昔在殷王中宗	-12.5686
不敢侮鰥寡庸庸祗祗威威顯民	-12.5686
徭	-12.5686
朕夢協朕卜襲于休祥戎商必克	-12.5686
告君乃猷裕我不以後人迷	-12.5687
故一人有事于四方若卜筮罔不是孚	-12.5687
斃	-12.5687
予曰宥爾惟勿宥惟厥中	-12.5687
爾不克敬爾不啻不有爾土予亦	-12.5687
大戰于甘乃召六卿	-12.5688
疻	-12.5688
非天私我有商惟天佑	-12.5689
有臣億萬惟億萬心予有臣三千惟一心	-12.5689
惟三月周公初于新邑洛用告商王士	-12.569
熬	-12.569
惟九年大統未集予小子其承厥志	-12.5691
爾無昵于憸人充耳目之官	-12.5691
在太戊時則有若伊陟臣扈格于上帝	-12.5692
篤棐時二人我式克至于今日休	-12.5692
赧	-12.5692
迪簡在王庭尚爾事有服在大僚	-12.5693
嗚呼臣人咸若時惟良顯哉	-12.5694
乃曰予弗克俾厥后惟堯舜其心	-12.5695
與治同道罔不興與亂同事罔不亡	-12.5698
爭能汝惟不伐天下莫與汝爭功	-12.5698
帝曰禹官占惟先蔽志昆命于元龜	-12.5705
畮	-12.6049
醟	-12.6088
邕	-12.6093
泇	-12.6094
綾	-12.6095
管叔于商囚蔡叔于郭鄰以車七	-12.6097
牁	-12.6097
倭	-12.6097
柞	-12.6098
搢	-12.6098
􁂵	-12.6099
乃惟四方之多罪逋逃是崇是長	-12.6099
蹶	-12.6099
閹	-12.6099
檜	-12.6099
漣	-12.61
徠	-12.61
咽	-12.6101
劾	-12.6101
肘	-12.6102
劬	-12.6102
貉	-12.6103
無敢不供汝則有無餘刑非殺	-12.6103
頸	-12.6103
腦	-12.6104
䏻	-12.6104
聮	-12.6104
蕞	-12.6105
霤	-12.6105
透	-12.6105
曰嗚呼厥亦惟我周太王王季克自抑畏	-12.6106
予迓續乃命于天予豈汝威用奉畜汝衆	-12.6106
分命和仲宅西曰昧谷	-12.6106
謫	-12.6106
惟予小子嗣守文武成康遺緒	-12.6107
爾謂朕曷震動萬民以遷	-12.6108
濞	-12.6109
用五紀次五曰建用皇極次六曰乂用三	-12.6109
嗣爾股肱純其藝黍稷奔走事厥考厥長	-12.611
取彼凶殘我伐用張于湯有光	-12.611
自靖人自獻于先王我不顧行遯	-12.611
惟天降命肇我民惟元祀	-12.611
峭	-12.611
居寵思危罔不惟畏弗畏入畏	-12.611
乃不良于言予罔聞于行	-12.611
今惟殷墜厥命我其可不大監撫于時	-12.611
䀌	-12.6111
乃命三后恤功于民伯夷降典折民惟刑	-12.6111
噩	-12.6112
嗚呼乃祖成湯克齊聖廣淵	-12.6112
嗚呼欽予時命其惟有終	-12.6112
仭	-12.6113
明王立政不惟其官惟其人	-12.6113
拳	-12.6113
天道福善禍淫降災于夏以彰厥罪	-12.6113
緱	-12.6113
楫	-12.6113
爾乃不大宅天命爾乃屑播天命	-12.6113
丌	-12.6113
予惟曰汝劼毖殷獻臣	-12.6113
東南據濟西北距河	-12.6113
周公曰王若曰猷告爾四國多方	-12.6114
厥或誥曰羣飲汝勿佚	-12.6114
嗚呼王若曰誥告爾多方非天庸釋有夏	-12.6114
乃有不用我降爾命我乃其大罰殛之	-12.6115
庵	-12.6115
王曰嗚呼肆汝小子封惟命不于常	-12.6115
古人有言曰撫我則后虐我則	-12.6115
乃惟爾商後王逸厥逸	-12.6115
愬	-12.6115
戻	-12.6116
爽惟天其罰殛我我其不怨	-12.6116
我西土棐徂邦君御事小子尚克用文王	-12.6116
天作孽猶可違自作孽不可逭	-12.6116
惟五月丁亥王來自奄至于宗周	-12.6116
士有正越庶伯君子其爾典	-12.6116
罔敢湎于酒不惟不敢亦不暇	-12.6116
今汝其曰夏罪其如台	-12.6116
若曰爾殷多士今惟我周王丕靈承帝事	-12.6117
王其效邦君越御事厥命曷以	-12.6117
王曰若昔朕其逝朕言艱日思	-12.6117
今予以爾有衆奉將天罰	-12.6117
今我曷敢多誥我惟大降爾四國民命	-12.6117
㦯	-12.6117
涓	-12.6119
王曰封元惡大憝矧惟不孝不友	-12.6119
敷求哲人俾輔于爾後嗣	-12.6119
天畏棐忱民情大可見小人難保	-12.6119
惟夏之恭多士大不克明保享于民	-12.6119
王曰嗚呼多士爾不克勸忱我命	-12.612
乃命爾先祖成湯革夏俊民甸四方	-12.612
惟爾知惟殷先人有冊有典殷革夏命	-12.612
于周周公咸勤乃洪大誥治	-12.612
恠	-12.612
爾克敬天惟畀矜爾	-12.612
晳	-12.612
言曰在時二人天休滋至惟時二人弗戡	-12.612
王曰猷告爾多士予惟時其遷居西爾	-12.6121
帟	-12.6122
岯	-12.6122
垻	-12.6123
㓗	-12.6124
𠞰	-12.613
䳜	-12.613
韈	-12.6131
淖	-12.6539
緻	-12.6547
嵯	-12.6548
奈	-12.6554
澁	-12.6559
塲	-12.6559
陞	-12.656
皁	-12.656
腋	-12.656
瓊	-12.6561
轂	-12.6561
斿	-12.6562
剏	-12.6562
鋙	-12.6562
鵲	-12.6563
鮑	-12.6564
譖	-12.6564
街	-12.6564
昉	-12.6564
怛	-12.6565
灕	-12.6565
渃	-12.6565
訑	-12.6566
悴	-12.6566
攬	-12.6567
飱	-12.6567
愽	-12.657
峪	-12.657
莆	-12.657
悝	-12.657
逈	-12.6571
􁆈	-12.6571
夹	-12.6572
撼	-12.6572
豎	-12.6572
飯	-12.6572
䳺	-12.6572
荐	-12.6572
棉	-12.6572
洹	-12.6574
􁆞	-12.6574
瘡	-12.6574
􁆦	-12.6575
菆	-12.6576
裝	-12.6581
疴	-12.6583
甑	-12.6583
葘	-12.6587
吸	-12.659
駱	-12.701
盎	-12.7014
穟	-12.7016
糜	-12.7021
憒	-12.7022
陲	-12.7027
夑	-12.7027
埸	-12.7029
紈	-12.7034
硤	-12.7034
歇	-12.7034
買	-12.7034
犛	-12.7035
殤	-12.7035
液	-12.7037
產	-12.7037
曩	-12.7037
柢	-12.7038
槽	-12.7039
畊	-12.7039
匕	-12.7039
阞	-12.704
薳	-12.704
佶	-12.7041
聫	-12.7041
琥	-12.7042
鈴	-12.7042
覿	-12.7043
漊	-12.7043
猥	-12.7044
瑤	-12.7046
皐	-12.7047
牘	-12.7047
桞	-12.7048
娛	-12.7048
涅	-12.7048
杳	-12.7049
𥙿	-12.7049
鑰	-12.7049
杪	-12.7051
郕	-12.7052
苾	-12.7054
襍	-12.7054
邯	-12.7055
咅	-12.7056
朓	-12.7058
濛	-12.7059
贍	-12.706
沌	-12.7062
怕	-12.7063
濊	-12.708
悊	-12.7511
笮	-12.7512
罇	-12.7526
緬	-12.7528
滓	-12.7528
圄	-12.753
抄	-12.7531
串	-12.7531
琪	-12.7531
價	-12.7531
𡵨	-12.7533
賑	-12.7534
鶻	-12.7535
孶	-12.7535
狁	-12.7536
笠	-12.7537
墩	-12.7537
珣	-12.7538
桴	-12.7539
飄	-12.7541
鯁	-12.7542
鍔	-12.7543
旼	-12.7543
盂	-12.7544
筑	-12.7544
贈	-12.7545
溯	-12.7545
饜	-12.7546
翡	-12.7547
緊	-12.7547
軀	-12.7548
莾	-12.7548
蒞	-12.7549
軟	-12.7549
怖	-12.755
劭	-12.7551
嘔	-12.7553
佷	-12.7555
砭	-12.7558
㢤	-12.756
椒	-12.7561
赭	-12.7562
縳	-12.7566
秭	-12.8036
煉	-12.8039
竈	-12.8047
歐	-12.8049
畞	-12.805
蕉	-12.805
溜	-12.8051
􁀈	-12.8051
汁	-12.8051
餐	-12.8053
抹	-12.8054
妬	-12.8055
蹄	-12.8058
芑	-12.8059
弧	-12.806
櫽	-12.806
敺	-12.806
淡	-12.8061
甬	-12.8061
沓	-12.8062
簷	-12.8062
膰	-12.8062
筴	-12.8063
詒	-12.8064
訐	-12.8065
膝	-12.8065
惸	-12.8066
聾	-12.8067
矦	-12.8067
徨	-12.8068
蹉	-12.8068
沸	-12.8068
紺	-12.8069
愎	-12.807
𡨕	-12.8071
麯	-12.8071
嶠	-12.8072
糊	-12.8073
义	-12.8073
紙	-12.8074
斑	-12.8074
盲	-12.8076
枋	-12.8076
罡	-12.8076
㓙	-12.8076
朶	-12.8077
喩	-12.8078
籠	-12.8078
屹	-12.8078
媢	-12.8079
楷	-12.808
鄊	-12.8081
蔣	-12.8081
胞	-12.8081
爇	-12.8088
鱉	-12.8089
痾	-12.8089
堨	-12.8101
㲼	-12.8122
溱	-12.8596
蚳	-12.8596
箎	-12.86
塡	-12.86
爪	-12.86
霞	-12.8605
蜯	-12.8605
駛	-12.8607
獾	-12.8608
讋	-12.8609
壝	-12.861
柟	-12.861
劔	-12.861
聆	-12.861
榎	-12.8611
萹	-12.8613
㵼	-12.8613
銕	-12.8614
坈	-12.8614
荔	-12.8614
糴	-12.8615
淨	-12.8615
峴	-12.8615
穹	-12.8615
苕	-12.8615
滚	-12.8616
悞	-12.8617
餼	-12.8617
崙	-12.8617
覊	-12.8618
塟	-12.8618
𣺌	-12.8619
蔬	-12.8619
仄	-12.8621
裒	-12.8621
貲	-12.8621
尫	-12.8622
瑄	-12.8622
癘	-12.8623
葆	-12.8623
撤	-12.8624
澣	-12.8625
笄	-12.8626
篁	-12.8626
䦨	-12.8626
僮	-12.8626
輂	-12.8626
糲	-12.8627
适	-12.8627
櫛	-12.8627
抉	-12.8628
軻	-12.8628
邔	-12.8628
㫄	-12.8629
𦕈	-12.8629
窬	-12.863
賫	-12.863
拉	-12.863
兀	-12.8631
悻	-12.8631
椿	-12.8631
猫	-12.8632
嘵	-12.8633
塹	-12.8633
掛	-12.8633
瞶	-12.8633
䆒	-12.8634
閫	-12.8634
斡	-12.8634
垠	-12.8635
稗	-12.8636
玭	-12.8636
泓	-12.8636
霑	-12.8637
涑	-12.8637
擣	-12.8638
滻	-12.8639
疉	-12.8639
蹲	-12.8642
批	-12.8648
洄	-12.8649
劄	-12.8669
貃	-12.9182
鏐	-12.9182
㣧	-12.9185
饌	-12.9191
刮	-12.9195
虡	-12.9196
琛	-12.9196
菌	-12.9197
缶	-12.9198
紕	-12.9199
塤	-12.9199
濄	-12.92
鉉	-12.9201
芝	-12.9202
曓	-12.9202
挑	-12.9203
訣	-12.9204
仔	-12.9204
闚	-12.9204
衎	-12.9205
聵	-12.9205
挺	-12.9205
妲	-12.9205
皂	-12.9205
彥	-12.9206
臚	-12.9206
閿	-12.9206
衅	-12.9207
扁	-12.9207
肎	-12.9208
薇	-12.9208
鴞	-12.9208
銓	-12.9209
蔀	-12.9209
鷹	-12.9209
焰	-12.921
昺	-12.9211
僊	-12.9212
杯	-12.9212
讃	-12.9212
閽	-12.9213
葅	-12.9213
翌	-12.9214
縈	-12.9214
㛰	-12.9214
鷺	-12.9215
臝	-12.9215
砆	-12.9215
圈	-12.9216
姪	-12.9217
鄡	-12.9218
髠	-12.9218
憔	-12.9218
湥	-12.9219
謡	-12.922
嶂	-12.922
綻	-12.9222
卅	-12.9223
豚	-12.9225
豺	-12.9225
奡	-12.9226
穩	-12.9226
瀵	-12.9227
媵	-12.9228
挹	-12.9228
鮐	-12.9229
坻	-12.923
篋	-12.9233
璺	-12.9246
眎	-12.9254
鑛	-12.98
蜃	-12.9809
畵	-12.9809
玈	-12.9817
馯	-12.9818
籬	-12.982
澬	-12.9823
羶	-12.9825
狙	-12.9827
翹	-12.9828
澈	-12.9828
鷙	-12.9828
倪	-12.9829
喈	-12.9829
膴	-12.9829
磽	-12.9829
靳	-12.983
趍	-12.983
絮	-12.9831
脯	-12.9831
爼	-12.9832
鈆	-12.9833
晃	-12.9834
剡	-12.9834
毆	-12.9835
闥	-12.9835
陀	-12.9835
荏	-12.9836
萋	-12.9836
甄	-12.9836
珩	-12.9836
斐	-12.9836
廊	-12.9836
輶	-12.9836
滳	-12.9837
薾	-12.9837
渺	-12.9838
倂	-12.9838
沼	-12.9838
姺	-12.9839
跳	-12.9839
漈	-12.9841
暱	-12.9842
鑽	-12.9842
惱	-12.9843
褱	-12.9844
㓃	-12.9844
褚	-12.9845
洊	-12.9846
搆	-12.9848
䓁	-12.9848
潢	-12.9848
綘	-12.985
洒	-12.985
旤	-12.9852
騑	-12.9855
穏	-12.9855
党	-12.9856
髴	-12.9856
縵	-12.9856
璇	-12.9859
􁃋	-12.9862
戟	-13.0463
莤	-13.0471
檋	-13.0481
驃	-13.0482
檄	-13.0482
礿	-13.0483
嬉	-13.0489
蓺	-13.0489
烜	-13.049
㟁	-13.0491
隼	-13.0492
銎	-13.0493
豔	-13.0493
飪	-13.0495
􁇢	-13.0496
糒	-13.0497
聶	-13.0498
霅	-13.0498
鍚	-13.0499
靠	-13.0499
䲭	-13.0499
褐	-13.0499
骸	-13.05
昻	-13.05
陧	-13.05
睽	-13.0501
鑚	-13.0501
犒	-13.0501
簋	-13.0501
开	-13.0501
槱	-13.0502
縶	-13.0502
臩	-13.0503
竽	-13.0504
浄	-13.0504
邛	-13.0504
邃	-13.0505
旃	-13.0505
贓	-13.0505
倮	-13.0505
忸	-13.0506
悮	-13.0507
崛	-13.0507
惺	-13.0508
拈	-13.0508
掾	-13.0509
玅	-13.0509
磋	-13.051
夐	-13.0512
訥	-13.0512
揀	-13.0513
漑	-13.0513
陕	-13.0514
襁	-13.0514
燈	-13.0515
怎	-13.0515
錡	-13.0516
装	-13.0516
迢	-13.0517
甾	-13.0517
屛	-13.0517
㽞	-13.0522
眂	-13.0523
弇	-13.0525
纍	-13.0525
朒	-13.0526
箸	-13.0528
睂	-13.0532
茌	-13.0572
鎰	-13.1181
臏	-13.1185
棠	-13.1186
洧	-13.1193
茆	-13.1194
堽	-13.1194
渤	-13.1195
皡	-13.1197
蜡	-13.1198
虔	-13.12
飮	-13.1201
葺	-13.1202
瀁	-13.1204
䑕	-13.1204
磁	-13.1204
弹	-13.1206
桷	-13.1207
轄	-13.1207
剰	-13.1208
茀	-13.1208
漉	-13.1208
䍐	-13.1211
𥙷	-13.1212
筰	-13.1212
脞	-13.1212
姤	-13.1212
踏	-13.1213
孱	-13.1213
詬	-13.1213
攦	-13.1213
磐	-13.1213
侜	-13.1214
軋	-13.1214
詀	-13.1215
宁	-13.1215
摟	-13.1215
綢	-13.1215
犴	-13.1216
玷	-13.1218
跂	-13.1218
廋	-13.1221
簵	-13.1221
擔	-13.1221
媒	-13.1223
拄	-13.1223
枳	-13.1223
擒	-13.1223
蕡	-13.1224
髣	-13.1225
鑠	-13.1226
蘊	-13.1226
褓	-13.1227
岑	-13.1227
岢	-13.1228
㞴	-13.1228
胊	-13.1229
鉗	-13.1229
扐	-13.123
堕	-13.1231
犁	-13.1232
勠	-13.1236
蔪	-13.1242
鄔	-13.1256
郏	-13.1944
汀	-13.1948
嶭	-13.1958
揄	-13.1959
軹	-13.196
圁	-13.196
肓	-13.1962
氓	-13.1965
騏	-13.1966
餱	-13.1967
泒	-13.1968
獮	-13.1968
穂	-13.197
蹂	-13.1971
蠃	-13.1971
㩀	-13.1973
舋	-13.1973
籀	-13.1973
嚬	-13.1974
躐	-13.1975
𦍑	-13.1976
廐	-13.1978
郇	-13.1979
懃	-13.1979
袵	-13.198
魋	-13.198
曼	-13.198
鴨	-13.1981
淬	-13.1982
譎	-13.1982
􁆂	-13.1984
脆	-13.1984
渟	-13.1984
縝	-13.1984
潕	-13.1985
窪	-13.1985
猺	-13.1986
灝	-13.1987
巔	-13.1988
㸑	-13.1988
簠	-13.1989
惶	-13.1989
旰	-13.1989
盼	-13.199
晻	-13.1991
畬	-13.1991
粱	-13.1991
彿	-13.1991
菱	-13.1991
僩	-13.1991
𠖇	-13.1993
蚡	-13.1993
寮	-13.1995
匆	-13.1995
嗤	-13.1996
獠	-13.1996
丄	-13.1997
浯	-13.1997
欝	-13.1998
喇	-13.1998
辠	-13.1998
㳒	-13.1998
汋	-13.1999
摉	-13.1999
粘	-13.2
瞰	-13.2001
1	-13.2001
貕	-13.2002
裸	-13.2003
犠	-13.2004
塚	-13.2006
虒	-13.2007
甹	-13.2016
𤱔	-13.202
碉	-13.205
央	-13.2677
嶻	-13.2787
傭	-13.2788
齎	-13.279
翬	-13.2797
爂	-13.2797
鞞	-13.2799
款	-13.28
盬	-13.2801
㟭	-13.2801
媺	-13.2802
匚	-13.2803
募	-13.2803
礱	-13.2806
捉	-13.2806
婞	-13.2807
妺	-13.2808
冣	-13.2808
莎	-13.2808
詖	-13.2809
奨	-13.2809
灑	-13.281
挟	-13.281
崗	-13.2811
醲	-13.2811
蛤	-13.2811
跪	-13.2812
團	-13.2813
埒	-13.2813
涘	-13.2813
邘	-13.2813
醬	-13.2813
秪	-13.2813
烖	-13.2814
濆	-13.2815
岣	-13.2815
諮	-13.2816
諏	-13.2816
擺	-13.2816
祉	-13.2816
嫓	-13.2817
芊	-13.2817
噴	-13.2817
疋	-13.2818
煆	-13.2818
􁂒	-13.2818
硬	-13.2819
攪	-13.282
爱	-13.282
淅	-13.282
俛	-13.282
嶁	-13.2821
傒	-13.2821
顗	-13.2822
佺	-13.2822
噎	-13.2822
讟	-13.2822
㝷	-13.2822
淀	-13.2823
逗	-13.2823
溴	-13.2824
罅	-13.2824
劵	-13.2824
郅	-13.2824
懾	-13.2824
芸	-13.2825
摽	-13.2825
喘	-13.2825
蝦	-13.2826
帆	-13.2826
薮	-13.2827
訃	-13.2828
拍	-13.2828
綵	-13.2828
簞	-13.2828
溽	-13.283
宓	-13.283
洿	-13.283
黠	-13.283
燿	-13.283
鄃	-13.283
僨	-13.2831
皦	-13.2831
熲	-13.2831
𫐠	-13.2831
廖	-13.2831
炯	-13.2831
舘	-13.2832
皎	-13.2832
棊	-13.2833
栻	-13.2833
魮	-13.2833
喙	-13.2834
歧	-13.2835
䥫	-13.2835
䕃	-13.2835
訕	-13.2836
剌	-13.2836
蹻	-13.2836
偁	-13.2837
焬	-13.2839
鵽	-13.284
讜	-13.2841
冔	-13.2843
膈	-13.2844
㝛	-13.2852
礲	-13.2865
煇	-13.2867
錞	-13.364
鋼	-13.3673
嬌	-13.3684
陡	-13.3698
憬	-13.3699
廛	-13.3704
敳	-13.3707
悙	-13.3708
畯	-13.3708
磻	-13.3708
彬	-13.3708
庬	-13.3709
艸	-13.3709
肹	-13.3711
蘋	-13.3711
騃	-13.3711
栲	-13.3712
鬚	-13.3713
苧	-13.3714
芙	-13.3714
梱	-13.3715
甥	-13.3716
拽	-13.3716
坶	-13.3716
鏘	-13.3717
猒	-13.3717
裨	-13.3718
倐	-13.3718
术	-13.3718
詘	-13.3718
皖	-13.3719
秫	-13.3721
挻	-13.3722
榛	-13.3723
艦	-13.3723
厪	-13.3723
尨	-13.3724
杠	-13.3724
焄	-13.3725
靁	-13.3725
惎	-13.3725
緦	-13.3725
衿	-13.3725
闑	-13.3725
瘞	-13.3726
涒	-13.3726
型	-13.3726
暌	-13.3726
污	-13.3727
頊	-13.3728
䰟	-13.3728
倞	-13.3728
晴	-13.3729
嵒	-13.3729
恙	-13.3729
􁀮	-13.3729
曺	-13.373
韙	-13.373
曖	-13.373
萎	-13.373
腔	-13.3731
猴	-13.3731
叠	-13.3731
醯	-13.3731
痕	-13.3731
欹	-13.3731
酧	-13.3732
匃	-13.3732
邜	-13.3733
秠	-13.3734
邐	-13.3734
稳	-13.3734
徤	-13.3735
袛	-13.3735
燃	-13.3735
㮣	-13.3736
鋟	-13.3736
鯉	-13.3737
汐	-13.3737
瑜	-13.3737
幪	-13.3737
𠡠	-13.3737
衺	-13.3738
甕	-13.3739
潏	-13.3739
窘	-13.3739
􁃻	-13.374
拏	-13.374
瘼	-13.3741
兔	-13.3741
阸	-13.3741
駐	-13.3741
蜆	-13.3742
翩	-13.3742
悒	-13.3743
蜂	-13.3744
沗	-13.3744
媪	-13.3745
脇	-13.3747
驁	-13.3748
絞	-13.3751
崆	-13.3751
婆	-13.3752
滁	-13.3754
譟	-13.3776
孼	-13.3781
显	-13.3798
擽	-13.4675
倀	-13.468
鱣	-13.4688
牐	-13.4691
蓰	-13.4692
鉦	-13.4693
𣏌	-13.4696
埭	-13.4696
鐃	-13.4698
髕	-13.4698
溟	-13.4698
瑑	-13.4701
㯺	-13.4702
虙	-13.4702
瑻	-13.4703
鑱	-13.4708
淋	-13.4708
攙	-13.4708
櫄	-13.4709
擘	-13.4712
嗾	-13.4712
蘧	-13.4712
暉	-13.4713
繻	-13.4713
簪	-13.4713
霓	-13.4715
笏	-13.4715
濂	-13.4715
禬	-13.4716
慇	-13.4716
俠	-13.4716
鎌	-13.4717
衘	-13.4717
鶬	-13.4717
㯉	-13.4717
觚	-13.4717
赳	-13.4717
臍	-13.4718
敻	-13.4718
趋	-13.4718
徊	-13.472
剠	-13.4721
岩	-13.4721
蜚	-13.4722
螟	-13.4722
娱	-13.4723
拖	-13.4723
愴	-13.4724
櫜	-13.4724
璟	-13.4724
蓮	-13.4725
挫	-13.4725
繄	-13.4725
畒	-13.4725
樣	-13.4726
峩	-13.4726
艶	-13.4726
癢	-13.4727
灞	-13.4727
祋	-13.4728
玕	-13.4728
攀	-13.4729
蠒	-13.4729
呌	-13.473
槖	-13.473
豻	-13.473
諜	-13.473
滏	-13.473
疢	-13.473
諠	-13.473
怗	-13.473
瘢	-13.4731
鳧	-13.4731
竆	-13.4731
椘	-13.4731
㤙	-13.4732
囷	-13.4732
鵝	-13.4732
惮	-13.4732
躡	-13.4732
螭	-13.4733
茄	-13.4733
隍	-13.4733
湜	-13.4734
𦦨	-13.4734
痰	-13.4734
喫	-13.4734
泚	-13.4734
沍	-13.4734
跬	-13.4734
憧	-13.4734
霾	-13.4735
湃	-13.4735
吒	-13.4735
熖	-13.4735
㶌	-13.4735
侃	-13.4735
楠	-13.4736
鄀	-13.4736
螽	-13.4736
鷖	-13.4737
頋	-13.4737
鈐	-13.4737
叵	-13.4738
壻	-13.4738
傋	-13.4738
􁂎	-13.474
亙	-13.474
拭	-13.4741
甝	-13.4741
菅	-13.4741
逡	-13.4741
誄	-13.4743
娠	-13.4743
催	-13.4743
駘	-13.4743
蹊	-13.4743
彃	-13.4743
哺	-13.4744
刁	-13.4744
埜	-13.4744
祊	-13.4745
2	-13.4745
盻	-13.4745
鍼	-13.4747
踪	-13.4747
𤨏	-13.4748
渥	-13.4749
湓	-13.475
溳	-13.4752
鄼	-13.4754
禅	-13.4755
讖	-13.4758
鼐	-13.4761
謠	-13.4777
筓	-13.4786
潬	-13.4789
窻	-13.5757
蚍	-13.5791
􁁎	-13.5793
筝	-13.5794
蚔	-13.5801
戠	-13.5811
痼	-13.5811
墍	-13.5813
耔	-13.5815
濉	-13.5816
菊	-13.5817
漚	-13.5818
邲	-13.582
簨	-13.582
禴	-13.5822
蓉	-13.5822
莬	-13.5826
俑	-13.5826
禕	-13.5826
霏	-13.5826
捧	-13.5827
嘒	-13.5829
鞀	-13.5829
筩	-13.583
扄	-13.583
諤	-13.583
葸	-13.5831
揺	-13.5831
箜	-13.5832
篌	-13.5832
妊	-13.5832
詫	-13.5832
阱	-13.5833
磔	-13.5833
藺	-13.5835
鍇	-13.5836
驍	-13.5836
藜	-13.5836
霿	-13.5837
窽	-13.5837
梢	-13.5837
煨	-13.5837
孑	-13.5837
璽	-13.5837
鄗	-13.5838
妒	-13.5839
掲	-13.5839
斌	-13.584
剸	-13.584
祺	-13.5841
蹴	-13.5841
橁	-13.5841
鑢	-13.5841
蛟	-13.5841
鞔	-13.5842
捺	-13.5842
鏑	-13.5842
揵	-13.5842
餕	-13.5842
蟇	-13.5843
祤	-13.5843
襚	-13.5843
啐	-13.5844
贗	-13.5844
鄫	-13.5844
幬	-13.5845
携	-13.5845
癡	-13.5845
牋	-13.5846
薈	-13.5846
耼	-13.5846
賵	-13.5846
惬	-13.5847
僇	-13.5848
畸	-13.5849
喟	-13.5849
黧	-13.5849
㮚	-13.5849
㐲	-13.585
砦	-13.585
榜	-13.585
竿	-13.5851
烽	-13.5852
闈	-13.5853
睨	-13.5853
竪	-13.5853
蓐	-13.5854
閡	-13.5854
噲	-13.5854
罝	-13.5855
謔	-13.5855
扣	-13.5856
蔕	-13.5857
㝢	-13.5857
祜	-13.5858
繚	-13.5858
泑	-13.5859
輾	-13.5859
憊	-13.5859
媸	-13.5859
稿	-13.5859
瓶	-13.5859
焜	-13.586
湫	-13.5861
滆	-13.5863
撙	-13.5864
鄩	-13.5876
輜	-13.5879
韤	-13.5887
稒	-13.5915
㘅	-13.7036
蜉	-13.7039
床	-13.7043
璪	-13.7044
貆	-13.7046
淩	-13.7051
澍	-13.7053
簴	-13.7058
疈	-13.7062
畇	-13.7063
愒	-13.7063
虣	-13.7064
鰅	-13.7065
蟹	-13.7065
㲈	-13.7065
蠯	-13.7067
攣	-13.7069
泐	-13.7069
畚	-13.7069
畦	-13.707
倕	-13.7071
杕	-13.7071
縓	-13.7072
紘	-13.7073
桁	-13.7075
灨	-13.7075
勻	-13.7075
塢	-13.7076
陿	-13.7076
餅	-13.7077
侫	-13.7078
謌	-13.7078
蝗	-13.7078
刲	-13.7078
袖	-13.7078
郞	-13.7079
眸	-13.708
禝	-13.708
緄	-13.708
䢵	-13.7081
顕	-13.7082
汰	-13.7082
煦	-13.7082
珽	-13.7084
捃	-13.7084
龢	-13.7084
渫	-13.7085
旐	-13.7086
耋	-13.7086
蛉	-13.7086
亰	-13.7086
匄	-13.7086
茸	-13.7086
换	-13.7086
柲	-13.7086
腻	-13.7087
櫃	-13.7087
紋	-13.7087
牕	-13.7088
斕	-13.7088
尢	-13.7089
綯	-13.7089
闘	-13.7089
挍	-13.709
徘	-13.709
鎻	-13.7091
靺	-13.7091
倅	-13.7093
燬	-13.7093
虁	-13.7093
􁂛	-13.7093
箐	-13.7093
毓	-13.7093
􁇽	-13.7093
惚	-13.7094
廧	-13.7094
鼷	-13.7095
翺	-13.7095
簭	-13.7095
綰	-13.7096
溈	-13.7096
珌	-13.7096
狷	-13.7096
鯤	-13.7096
粥	-13.7096
丼	-13.7096
冄	-13.7097
栒	-13.7097
翅	-13.7097
鏺	-13.7097
凴	-13.7098
蘩	-13.7099
酖	-13.7099
癃	-13.7099
郜	-13.7099
暬	-13.71
矍	-13.71
簬	-13.71
撗	-13.71
惨	-13.7101
店	-13.7101
羯	-13.7102
劅	-13.7102
巉	-13.7103
艧	-13.7104
啼	-13.7104
禡	-13.7104
箠	-13.7106
騄	-13.7106
滸	-13.7106
玦	-13.7108
棖	-13.7108
疣	-13.7108
湽	-13.7109
肸	-13.7109
掄	-13.7109
簀	-13.711
甜	-13.711
爨	-13.711
挨	-13.711
辣	-13.7111
睯	-13.7112
㬱	-13.7112
醋	-13.7113
叡	-13.7114
宸	-13.7116
豷	-13.7117
擦	-13.7117
丒	-13.7121
藂	-13.7122
靧	-13.7123
厤	-13.7133
鑴	-13.8456
蠕	-13.8466
麩	-13.8476
碍	-13.848
鵬	-13.8482
觹	-13.8487
賕	-13.8488
皤	-13.8492
蓚	-13.8492
啄	-13.8493
瞢	-13.8494
蓂	-13.8494
吻	-13.8495
蟊	-13.8496
臡	-13.8497
黝	-13.8497
㩁	-13.8497
棸	-13.8497
苪	-13.8497
鼉	-13.8498
衂	-13.8498
勛	-13.8499
祍	-13.85
儐	-13.85
曀	-13.85
詿	-13.8501
綀	-13.8501
嵫	-13.8501
頫	-13.8501
楮	-13.8502
㢠	-13.8502
餌	-13.8502
牣	-13.8502
暎	-13.8503
擎	-13.8504
頺	-13.8505
㰎	-13.8505
璘	-13.8505
轡	-13.8506
醖	-13.8506
駝	-13.8506
扃	-13.8506
燋	-13.8506
鏗	-13.8506
𣗳	-13.8506
糅	-13.8507
穅	-13.8508
麒	-13.8508
臊	-13.8508
椽	-13.8508
匐	-13.8509
朁	-13.8509
愀	-13.851
陁	-13.851
湄	-13.851
涣	-13.851
淛	-13.851
緼	-13.851
牒	-13.8511
劃	-13.8511
詷	-13.8511
塍	-13.8513
債	-13.8513
藿	-13.8513
鮫	-13.8513
嘻	-13.8513
槨	-13.8513
錘	-13.8514
濓	-13.8514
嵏	-13.8515
殍	-13.8515
璗	-13.8516
徬	-13.8516
緌	-13.8516
栞	-13.8516
吠	-13.8516
翯	-13.8518
瘥	-13.8518
捄	-13.8519
樅	-13.8519
眠	-13.8519
趕	-13.8519
悃	-13.8519
軨	-13.8519
蜒	-13.852
滬	-13.852
熯	-13.8521
煎	-13.8521
掎	-13.8521
斄	-13.8522
邏	-13.8522
殀	-13.8523
療	-13.8523
頁	-13.8523
脤	-13.8523
鷔	-13.8524
岠	-13.8524
劈	-13.8524
郗	-13.8524
覯	-13.8524
薑	-13.8524
澳	-13.8525
鬵	-13.8525
愔	-13.8525
鶚	-13.8525
狽	-13.8525
夥	-13.8525
袪	-13.8525
儷	-13.8526
澦	-13.8526
䜎	-13.8526
剋	-13.8526
販	-13.8527
曳	-13.8527
濘	-13.8527
廮	-13.8528
罭	-13.8528
烱	-13.8528
􁇂	-13.8528
睥	-13.8528
嘿	-13.8528
姨	-13.8529
仿	-13.8529
綠	-13.8529
卹	-13.8529
竢	-13.8531
糇	-13.8531
餁	-13.8531
縑	-13.8531
垞	-13.8532
愕	-13.8532
岨	-13.8533
厨	-13.8533
逶	-13.8533
蒍	-13.8533
撃	-13.8533
焕	-13.8533
􁆴	-13.8534
豵	-13.8534
瞬	-13.8535
豊	-13.8535
咻	-13.8536
梨	-13.8537
揷	-13.8537
遄	-13.8538
隹	-13.8538
蓨	-13.854
龐	-13.8544
攢	-13.8545
纛	-13.8546
糸	-13.8547
苓	-13.8547
窳	-13.8551
扳	-13.8553
䵾	-13.8561
押	-13.8563
鄄	-13.8563
棃	-13.8565
俸	-13.8567
抒	-13.8573
桺	-13.8574
鐲	-14.0096
瑛	-14.0109
檴	-14.0116
堋	-14.0133
氊	-14.0138
酳	-14.0142
旞	-14.0144
忬	-14.0148
豸	-14.015
椅	-14.015
黶	-14.0152
綫	-14.0152
犆	-14.0153
笳	-14.0153
醪	-14.0154
紡	-14.0156
萑	-14.0157
麇	-14.0157
杅	-14.0158
睟	-14.0159
阽	-14.0159
昱	-14.0159
虫	-14.0161
襯	-14.0161
粊	-14.0162
噍	-14.0162
睱	-14.0164
駜	-14.0164
窈	-14.0164
靚	-14.0165
秤	-14.0165
翮	-14.0166
絢	-14.0166
臮	-14.0167
巇	-14.0167
昫	-14.0167
忩	-14.0167
禇	-14.0168
􁀤	-14.0168
礴	-14.0168
縟	-14.0168
􁇌	-14.0168
輈	-14.0169
翫	-14.0169
􁆅	-14.017
悵	-14.017
朘	-14.017
傕	-14.0171
橙	-14.0171
鞮	-14.0172
糟	-14.0172
跽	-14.0172
鐶	-14.0172
确	-14.0172
匍	-14.0172
廽	-14.0173
鞕	-14.0173
鷸	-14.0173
覘	-14.0173
澉	-14.0173
戭	-14.0173
刧	-14.0173
汸	-14.0174
搤	-14.0174
㕔	-14.0174
站	-14.0174
刓	-14.0175
屐	-14.0175
酤	-14.0175
囑	-14.0176
耡	-14.0176
餽	-14.0178
礦	-14.0178
萍	-14.0178
褰	-14.0179
慱	-14.0179
帚	-14.0179
悪	-14.0179
荄	-14.0179
逌	-14.0179
呪	-14.018
复	-14.018
槄	-14.018
湋	-14.018
䫉	-14.018
􁆭	-14.018
蠆	-14.018
剴	-14.018
趂	-14.018
蝌	-14.0181
筌	-14.0181
媾	-14.0181
壖	-14.0181
芡	-14.0181
滍	-14.0181
稡	-14.0181
瞫	-14.0181
貺	-14.0182
吭	-14.0182
蜿	-14.0183
棋	-14.0183
汉	-14.0183
嵕	-14.0184
抜	-14.0184
揫	-14.0184
樟	-14.0185
倔	-14.0185
愠	-14.0185
鞨	-14.0185
啖	-14.0185
㽕	-14.0185
臈	-14.0186
詡	-14.0186
揃	-14.0187
旴	-14.0187
獘	-14.0187
堧	-14.0187
縊	-14.0187
櫓	-14.0187
曦	-14.0187
沚	-14.0188
秔	-14.0188
喀	-14.0188
琫	-14.0188
閃	-14.0189
叉	-14.0189
㕣	-14.0189
􁃦	-14.0189
蕕	-14.0189
檐	-14.0189
豨	-14.019
逷	-14.0191
甓	-14.0191
尔	-14.0191
坫	-14.0191
鴉	-14.0192
鐐	-14.0193
秖	-14.0193
頷	-14.0193
乿	-14.0193
痏	-14.0194
拗	-14.0194
兇	-14.0194
戱	-14.0194
螢	-14.0194
䟎	-14.0194
堞	-14.0195
慫	-14.0195
磷	-14.0195
茁	-14.0196
睫	-14.0196
牌	-14.0196
兎	-14.0196
楸	-14.0196
籕	-14.0197
柝	-14.0197
蠅	-14.0198
臥	-14.0198
抃	-14.0199
袚	-14.0199
腫	-14.02
廁	-14.02
喑	-14.02
齗	-14.02
蜩	-14.02
剿	-14.02
􁆧	-14.02
侑	-14.0201
襌	-14.0201
蜜	-14.0202
獂	-14.0202
汮	-14.0203
轢	-14.0203
夣	-14.0204
瀑	-14.0204
貾	-14.0204
褁	-14.0204
佔	-14.0207
秃	-14.0207
蘬	-14.0208
胚	-14.0208
珦	-14.0209
紇	-14.0211
崎	-14.0211
璚	-14.0212
訝	-14.0212
啾	-14.0212
芾	-14.0212
炒	-14.0213
鬆	-14.0213
圩	-14.0214
舩	-14.0215
邍	-14.0216
薩	-14.0216
氛	-14.0219
竣	-14.0219
䆫	-14.022
襪	-14.0221
虵	-14.0222
譛	-14.0225
𬞞	-14.0227
崞	-14.0229
徉	-14.0234
砌	-14.0236
彧	-14.0242
渽	-14.0252
沘	-14.0256
毊	-14.2079
𬎼	-14.2117
鞂	-14.2121
鉄	-14.2124
𤦺	-14.2126
儋	-14.2129
鋈	-14.2129
篴	-14.2132
駉	-14.2134
蹕	-14.2135
醎	-14.2138
嶰	-14.214
朄	-14.2141
杍	-14.2141
搶	-14.2143
哻	-14.2143
奐	-14.2145
鯷	-14.2145
棱	-14.2146
帕	-14.2146
嵬	-14.2148
雱	-14.2148
闍	-14.2148
攔	-14.215
旡	-14.215
㓷	-14.2151
觥	-14.2151
黺	-14.2152
祡	-14.2155
𣪚	-14.2156
煜	-14.2156
酺	-14.2156
螣	-14.2158
嶼	-14.216
蒂	-14.216
輛	-14.2161
碾	-14.2161
黈	-14.2161
窿	-14.2161
珤	-14.2162
崍	-14.2162
蓊	-14.2162
祅	-14.2162
觿	-14.2163
暄	-14.2163
勰	-14.2163
榷	-14.2163
絆	-14.2163
絪	-14.2163
侏	-14.2163
崌	-14.2164
蹋	-14.2164
漱	-14.2164
篛	-14.2164
虯	-14.2164
蝨	-14.2166
詧	-14.2166
韍	-14.2166
嘽	-14.2167
擲	-14.2167
漭	-14.2167
壼	-14.2168
褎	-14.2168
訏	-14.2168
姿	-14.2168
硏	-14.2168
㗖	-14.2169
昕	-14.2169
肫	-14.2169
賸	-14.2171
頬	-14.2171
􁆄	-14.2172
怱	-14.2172
􁆑	-14.2172
皿	-14.2173
劌	-14.2173
梵	-14.2173
諼	-14.2173
腯	-14.2173
卝	-14.2173
螺	-14.2174
莩	-14.2174
綮	-14.2174
閧	-14.2175
欄	-14.2175
璃	-14.2175
鶩	-14.2175
橐	-14.2175
祛	-14.2175
瑀	-14.2175
葫	-14.2175
爝	-14.2176
嫚	-14.2176
琚	-14.2176
烟	-14.2176
菙	-14.2177
錙	-14.2177
莵	-14.2177
􁆮	-14.2177
淚	-14.2178
眤	-14.2178
紿	-14.2179
濃	-14.2179
㵲	-14.218
琉	-14.218
騖	-14.218
耰	-14.218
☰	-14.218
哇	-14.2181
巋	-14.2182
繙	-14.2182
挂	-14.2182
獼	-14.2182
蜻	-14.2182
芍	-14.2183
暵	-14.2183
怩	-14.2183
驌	-14.2183
隞	-14.2183
侀	-14.2183
旪	-14.2184
鞉	-14.2184
腳	-14.2184
忖	-14.2184
輊	-14.2185
薉	-14.2185
誶	-14.2185
紼	-14.2185
顆	-14.2186
嚶	-14.2186
楡	-14.2186
瀧	-14.2186
槍	-14.2187
暅	-14.2187
泜	-14.2187
蘗	-14.2187
腠	-14.2187
䦧	-14.2188
豋	-14.2188
鼬	-14.2189
捭	-14.2189
粃	-14.2189
挏	-14.219
爐	-14.219
瑪	-14.2191
蚶	-14.2191
曇	-14.2192
酃	-14.2192
凭	-14.2193
卄	-14.2193
笱	-14.2193
莪	-14.2193
輲	-14.2193
唾	-14.2194
顢	-14.2194
斾	-14.2194
崟	-14.2195
頇	-14.2195
遨	-14.2195
嶸	-14.2195
敓	-14.2195
哥	-14.2196
厈	-14.2196
咀	-14.2196
氶	-14.2198
癰	-14.2198
㴱	-14.2198
悽	-14.2199
蜺	-14.2199
戶	-14.2199
窓	-14.2199
鄞	-14.22
犵	-14.2201
篪	-14.2201
􁂣	-14.2202
哂	-14.2203
嶇	-14.2203
盃	-14.2203
淠	-14.2204
嘘	-14.2204
屣	-14.2204
謦	-14.2204
鑪	-14.2204
􁆨	-14.2205
酇	-14.2206
􁇒	-14.2206
儗	-14.2206
暍	-14.2206
寞	-14.2206
掬	-14.2206
􁄼	-14.2206
鞘	-14.2207
僵	-14.2207
粵	-14.2207
塴	-14.2207
佻	-14.2208
馗	-14.2208
潄	-14.2209
郈	-14.2209
猖	-14.221
腊	-14.221
脽	-14.2213
漅	-14.2214
鼚	-14.2214
膓	-14.2215
􁆜	-14.2215
訌	-14.2215
値	-14.2216
攴	-14.2217
邙	-14.2217
燉	-14.2218
猝	-14.2218
痌	-14.2218
冽	-14.2218
幵	-14.2219
絿	-14.2219
曶	-14.222
䌓	-14.222
週	-14.222
迸	-14.2221
杏	-14.2222
倥	-14.2222
䋽	-14.2222
娣	-14.2223
撒	-14.2225
謩	-14.2229
坯	-14.2242
濜	-14.2247
箏	-14.2297
捔	-14.4608
墱	-14.4613
匸	-14.4616
咳	-14.4632
哌	-14.4633
彎	-14.4642
单	-14.4644
唤	-14.4647
喆	-14.4651
壙	-14.4652
䰞	-14.4652
橈	-14.4655
嬛	-14.4658
呵	-14.4659
伉	-14.4659
䣱	-14.466
傎	-14.4662
扯	-14.4662
儁	-14.4662
帑	-14.4663
嵇	-14.4663
巵	-14.4664
埶	-14.4666
堦	-14.4669
啞	-14.467
搃	-14.467
䉁	-14.467
劎	-14.467
彂	-14.467
惷	-14.4671
刌	-14.4671
啜	-14.4671
佼	-14.4673
坏	-14.4673
姞	-14.4673
杆	-14.4674
榨	-14.4674
慥	-14.4674
伹	-14.4675
榱	-14.4676
樛	-14.4677
僾	-14.4677
㶚	-14.4678
暦	-14.4679
嚭	-14.468
券	-14.468
橛	-14.468
欿	-14.468
槌	-14.4681
嶮	-14.4681
䎡	-14.4681
嚅	-14.4681
愊	-14.4683
攄	-14.4683
☵	-14.4683
凄	-14.4684
崮	-14.4684
埀	-14.4684
噱	-14.4684
嚼	-14.4684
4	-14.4685
旭	-14.4685
檠	-14.4685
㢮	-14.4687
俳	-14.4687
橆	-14.4688
儇	-14.4688
慂	-14.4688
堊	-14.4688
叱	-14.4688
怫	-14.4689
弤	-14.469
䥘	-14.4691
坳	-14.4692
掣	-14.4693
旧	-14.4694
柣	-14.4694
呶	-14.4694
慓	-14.4694
憣	-14.4694
峜	-14.4695
帯	-14.4696
們	-14.4696
戔	-14.4698
悄	-14.4698
欬	-14.4699
儿	-14.4699
嘲	-14.4699
恺	-14.4699
卸	-14.47
彄	-14.47
帀	-14.4701
奰	-14.4701
弌	-14.4701
桉	-14.4701
抝	-14.4702
㙔	-14.4702
㯟	-14.4702
尠	-14.4703
垓	-14.4703
䤸	-14.4703
媮	-14.4703
䱷	-14.4704
懥	-14.4706
伽	-14.4708
娯	-14.4709
旛	-14.4713
忮	-14.4714
塜	-14.4714
丱	-14.4723
樁	-14.4724
搯	-14.4727
掉	-14.4728
噪	-14.4735
査	-14.4741
怭	-16.2993
堭	-16.2994
谽	-16.2995
谺	-16.2996
稭	-16.2997
柁	-16.2998
廕	-16.2999
㪷	-16.3
畺	-16.3001
泱	-16.3002
荻	-16.3003
玗	-16.3004
鄲	-16.3005
蕘	-16.3006
恝	-16.3007
慷	-16.3008
妢	-16.3009
囹	-16.301
嚀	-16.3011
叮	-16.3012
齦	-16.3013
媧	-16.3014
魑	-16.3015
踴	-16.3016
碔	-16.3017
陔	-16.3018
轝	-16.3019
嵹	-16.302
玁	-16.3021
鮀	-16.3022
嗑	-16.3023
厔	-16.3024
莨	-16.3025
琶	-16.3026
琵	-16.3027
閨	-16.3028
稂	-16.3029
.	-16.303
豉	-16.3031
櫬	-16.3032
鈇	-16.3033
牴	-16.3034
芬	-16.3035
蔥	-16.3036
惴	-16.3037
墀	-16.3038
齟	-16.3038
