<unk>	0
<s>	0
</s>	0
之	-4.27201
有	-5.02341
(	-5.0257
不	-5.10095
為	-5.10345
人	-5.11995
/	-5.15291
詩	-5.1943
云	-5.19936
也	-5.20318
以	-5.25457
而	-5.32464
其	-5.35054
一	-5.3722
中	-5.4538
)	-5.46877
者	-5.56805
無	-5.57921
山	-5.60127
曰	-5.64218
此	-5.71963
子	-5.76812
作	-5.77456
如	-5.79777
自	-5.80349
時	-5.85053
上	-5.8689
與	-5.8839
於	-5.90031
王	-5.94762
文	-5.95523
公	-5.96299
字	-5.96797
天	-5.98418
書	-5.98534
言	-6.00091
在	-6.00442
風	-6.012
/)	-6.0203
大	-6.0568
見	-6.06345
得	-6.06414
日	-6.07159
事	-6.09187
水	-6.12481
是	-6.12875
來	-6.13301
三	-6.13532
花	-6.13703
雲	-6.1593
)(	-6.16461
生	-6.17639
下	-6.18741
亦	-6.21123
則	-6.21948
長	-6.22106
行	-6.22587
名	-6.23358
出	-6.24814
又	-6.25131
後	-6.26024
知	-6.27042
然	-6.2709
道	-6.27576
相	-6.27856
春	-6.27882
所	-6.31755
州	-6.32417
故	-6.33141
至	-6.33629
歸	-6.33851
皆	-6.33876
多	-6.35102
何	-6.3609
家	-6.37167
月	-6.3905
清	-6.39519
入	-6.40349
君	-6.41219
未	-6.42464
語	-6.43193
李	-6.43503
矣	-6.43859
前	-6.44621
意	-6.45363
去	-6.46459
聲	-6.46546
非	-6.47855
老	-6.48177
乃	-6.48351
玉	-6.5154
可	-6.51758
心	-6.52109
石	-6.53779
成	-6.55706
今	-6.55767
詩云	-6.56542
金	-6.57085
同	-6.57106
謂	-6.57366
江	-6.57369
元	-6.57911
門	-6.58122
方	-6.583
用	-6.5854
明	-6.59
欲	-6.60218
白	-6.60923
正	-6.6117
古	-6.61943
官	-6.62742
若	-6.63904
南	-6.64133
小	-6.64451
我	-6.64944
客	-6.65582
新	-6.6565
集	-6.65912
傳	-6.66258
年	-6.66341
已	-6.66374
張	-6.66847
髙	-6.68124
初	-6.68218
句	-6.6845
世	-6.68915
秋	-6.69213
當	-6.69376
酒	-6.69444
朝	-6.69452
題	-6.69687
雨	-6.7089
夜	-6.71706
東	-6.72217
飛	-6.7232
國	-6.72632
深	-6.73109
西	-6.73442
過	-6.73723
二	-6.7374
能	-6.73884
盡	-6.7394
于	-6.74321
聞	-6.75003
因	-6.75086
寒	-6.75126
黄	-6.77176
▁	-6.77776
城	-6.78539
歌	-6.78877
空	-6.79219
平	-6.80057
思	-6.80232
觀	-6.80707
四	-6.8113
從	-6.81806
五	-6.82205
馬	-6.8336
復	-6.84067
唐	-6.84425
龍	-6.84663
林	-6.84921
獨	-6.85501
流	-6.85788
和	-6.8638
重	-6.87222
居	-6.87458
開	-6.87752
氣	-6.8916
光	-6.89267
陳	-6.89676
落	-6.90027
逺	-6.90455
問	-6.90624
安	-6.90963
似	-6.91191
及	-6.91613
起	-6.91905
青	-6.92289
處	-6.92711
使	-6.92799
香	-6.93071
好	-6.94976
舊	-6.95631
本	-6.95674
頭	-6.96141
樂	-6.96155
間	-6.97479
劉	-6.9784
先	-6.97897
雖	-6.98415
陽	-6.98593
漢	-6.98675
數	-6.98733
少	-6.99929
萬	-7.00028
爲	-7.00068
地	-7.0047
令	-7.01042
耳	-7.01778
學	-7.02217
更	-7.0224
外	-7.0351
情	-7.03638
紅	-7.03905
難	-7.0399
華	-7.04153
經	-7.04203
雪	-7.04281
即	-7.04472
宗	-7.04597
九	-7.04717
賦	-7.04807
對	-7.05245
將	-7.05372
兩	-7.06529
還	-7.07213
色	-7.07834
應	-7.08141
論	-7.08394
别	-7.09989
物	-7.10281
嘗	-7.10522
送	-7.10615
衣	-7.10736
草	-7.1106
北	-7.11379
宫	-7.11383
曲	-7.11781
氏	-7.1204
詞	-7.12279
真	-7.12314
猶	-7.12447
路	-7.12688
始	-7.13333
望	-7.14123
身	-7.14142
師	-7.14171
志	-7.14372
竹	-7.14569
分	-7.14669
士	-7.14738
章	-7.14875
樹	-7.15396
取	-7.15498
臣	-7.16299
乎	-7.16325
死	-7.16609
莫	-7.16667
或	-7.16729
女	-7.17127
常	-7.17152
海	-7.17179
千	-7.17574
辭	-7.18162
景	-7.18562
畫	-7.18675
寄	-7.18814
巻	-7.18869
溪	-7.19147
仙	-7.19213
體	-7.20058
夢	-7.20197
到	-7.2032
坐	-7.20385
樓	-7.20524
僧	-7.21098
六	-7.21293
高	-7.2147
遂	-7.2177
帝	-7.22046
法	-7.22218
百	-7.2248
滿	-7.22901
惟	-7.23799
絶	-7.23803
野	-7.23832
興	-7.23854
謝	-7.24245
近	-7.24766
稱	-7.24953
吾	-7.25203
宋	-7.2526
善	-7.25509
葉	-7.25654
向	-7.25877
筆	-7.25966
首	-7.26253
夫	-7.26856
立	-7.26902
餘	-7.26975
才	-7.27352
神	-7.27871
誰	-7.27967
遊	-7.27979
命	-7.2823
篇	-7.28519
異	-7.29066
通	-7.29243
載	-7.29647
十	-7.29677
尚	-7.30062
閒	-7.3038
甚	-7.30641
贈	-7.30792
周	-7.30966
韻	-7.31119
松	-7.3142
手	-7.31426
史	-7.31484
記	-7.31764
看	-7.31845
東坡	-7.3203
堂	-7.32126
不可	-7.326
豈	-7.32648
亭	-7.33289
終	-7.334
楊	-7.33622
寺	-7.33786
余	-7.34968
太	-7.35762
易	-7.35941
合	-7.36535
直	-7.3759
愁	-7.37849
吟	-7.37992
泉	-7.38488
鳥	-7.39311
隨	-7.39917
實	-7.40142
醉	-7.40253
巳	-7.40304
發	-7.40456
秦	-7.41064
武	-7.41261
魚	-7.41457
以為	-7.41464
定	-7.41491
且	-7.41569
喜	-7.41593
舉	-7.42374
工	-7.42445
但	-7.42919
遺	-7.43301
音	-7.43521
郎	-7.44755
留	-7.44854
半	-7.44907
號	-7.44953
孫	-7.45372
必	-7.46137
臺	-7.46501
義	-7.47359
諸	-7.4782
八	-7.48387
理	-7.48466
著	-7.48755
登	-7.49104
許	-7.49175
㑹	-7.49258
河	-7.49348
詠	-7.49909
七	-7.50377
不知	-7.50567
求	-7.50914
節	-7.51272
父	-7.51312
極	-7.52047
食	-7.52804
守	-7.52904
信	-7.53064
焉	-7.53097
予	-7.53151
輕	-7.53494
孤	-7.53498
影	-7.54131
勝	-7.54191
驚	-7.54249
楚	-7.55262
閣	-7.55461
仲	-7.5628
池	-7.56313
主	-7.56389
田	-7.56563
幽	-7.56736
陵	-7.56869
病	-7.57043
枝	-7.57456
愛	-7.57801
目	-7.58709
圖	-7.58909
燕	-7.59068
徳	-7.59194
足	-7.59195
伯	-7.59247
杜	-7.59662
隂	-7.59849
既	-7.6011
都	-7.60279
失	-7.60362
引	-7.60386
度	-7.60442
朱	-7.60563
笑	-7.60566
韓	-7.61012
翁	-7.61912
連	-7.61978
不能	-7.62085
功	-7.62605
塵	-7.62694
注	-7.63112
力	-7.63163
曉	-7.63368
露	-7.63686
邊	-7.6386
讀	-7.64076
靈	-7.64255
齊	-7.64741
蜀	-7.64766
俗	-7.6484
殿	-7.65308
縣	-7.65507
梁	-7.6586
幾	-7.66064
回	-7.66441
蘇	-7.66584
卿	-7.66626
詩曰	-7.66845
離	-7.67041
梅	-7.67309
波	-7.67443
翠	-7.67482
動	-7.67558
亂	-7.68552
臨	-7.68666
鄭	-7.6926
碧	-7.69371
精	-7.69422
賢	-7.6983
竒	-7.69895
疑	-7.70033
尤	-7.70069
致	-7.70131
舞	-7.70163
舟	-7.7018
比	-7.70332
口	-7.70552
便	-7.71044
改	-7.71244
要	-7.71459
忽	-7.71487
紫	-7.71977
嵗	-7.721
如此	-7.72184
烟	-7.72377
照	-7.72568
貴	-7.7274
吳	-7.72756
眼	-7.7285
變	-7.7297
雙	-7.72975
恨	-7.72983
雅	-7.73011
爾	-7.73107
祖	-7.7313
民	-7.73317
裏	-7.73455
府	-7.73556
羅	-7.73688
盖	-7.73711
詩話	-7.73795
解	-7.73835
說	-7.73975
鳴	-7.7401
卒	-7.74169
休	-7.74204
共	-7.74446
内	-7.74551
哉	-7.74559
車	-7.74663
飲	-7.74769
録	-7.75033
霜	-7.75182
庭	-7.75331
美	-7.75662
苦	-7.75691
進	-7.75829
宜	-7.75872
説	-7.76081
聖	-7.76565
齋	-7.77022
盛	-7.77045
表	-7.77221
斷	-7.77584
葢	-7.77969
鶴	-7.78005
按	-7.78292
最	-7.78361
沙	-7.78471
指	-7.78586
湖	-7.78695
先生	-7.78733
端	-7.78805
全	-7.78807
徐	-7.79266
浮	-7.79448
只	-7.79822
錢	-7.80107
廣	-7.80345
郡	-7.80506
次	-7.80513
轉	-7.80727
隱	-7.80843
悲	-7.8097
蓋	-7.81069
佳	-7.81568
固	-7.81573
調	-7.81583
兵	-7.81966
懐	-7.82077
獻	-7.82359
賜	-7.82359
垂	-7.82538
感	-7.82543
趙	-7.82632
識	-7.82897
覺	-7.82918
破	-7.82961
親	-7.83013
代	-7.83036
試	-7.83094
禮	-7.83236
微	-7.8353
却	-7.83633
凡	-7.83686
宿	-7.83696
園	-7.83781
尋	-7.8379
胡	-7.83892
妙	-7.84264
夏	-7.84591
曽	-7.84612
皇	-7.8465
建	-7.84724
院	-7.84754
星	-7.84841
放	-7.85193
兒	-7.85352
窮	-7.85352
火	-7.85455
又云	-7.85494
所謂	-7.8557
昔	-7.85809
律	-7.86282
煙	-7.86392
謂之	-7.86439
類	-7.86541
川	-7.86964
容	-7.87046
等	-7.87063
殘	-7.8741
栁	-7.87507
末	-7.8752
暮	-7.87769
良	-7.87907
素	-7.87909
兮	-7.88034
化	-7.88235
曾	-7.88238
止	-7.88303
散	-7.89616
第	-7.89761
軍	-7.90002
顧	-7.90404
叔	-7.90465
須	-7.90674
壁	-7.91422
骨	-7.91789
晉	-7.91812
侯	-7.92345
英	-7.92363
結	-7.92374
封	-7.92407
存	-7.92598
廟	-7.92896
京	-7.9292
永	-7.93745
珠	-7.93766
任	-7.93781
曹	-7.93808
味	-7.93975
早	-7.94374
木	-7.9445
衆	-7.94701
碑	-7.94717
洞	-7.94763
移	-7.94979
游	-7.95259
晚	-7.96301
麗	-7.96452
橋	-7.96493
天下	-7.9664
此詩	-7.96774
緑	-7.96991
沈	-7.97191
序	-7.97247
来	-7.97276
谷	-7.97776
面	-7.98
忠	-7.98444
室	-7.98844
教	-7.99003
帶	-7.99468
横	-7.99629
村	-7.99871
德	-7.9996
里	-8.00075
汝	-8.00238
嚴	-8.00292
待	-8.00315
切	-8.00404
益	-8.00466
久	-8.00595
土	-8.00812
之句	-8.0125
鄉	-8.01285
細	-8.01296
原	-8.01304
藏	-8.01325
薄	-8.01327
冠	-8.01616
越	-8.01624
罷	-8.01638
昭	-8.01822
幸	-8.0187
交	-8.01886
逢	-8.02091
請	-8.02136
逸	-8.0221
簡	-8.02317
丹	-8.02572
不得	-8.0263
仁	-8.02697
呉	-8.02791
耶	-8.0285
進士	-8.04049
雜	-8.04109
拜	-8.0422
恩	-8.04273
闕	-8.0452
每	-8.04614
適	-8.04721
遇	-8.04816
宣	-8.04905
期	-8.05022
錦	-8.05087
友	-8.05324
奏	-8.0543
承	-8.05451
吹	-8.05692
茶	-8.06242
絲	-8.06603
並	-8.06713
詔	-8.07168
持	-8.07203
召	-8.07376
形	-8.07663
顔	-8.07753
羣	-8.0808
格	-8.08119
宴	-8.08395
奉	-8.0848
呼	-8.08526
紀	-8.08553
魏	-8.08853
哀	-8.09517
寧	-8.09848
斯	-8.09856
淚	-8.09887
亡	-8.10445
聽	-8.10476
作詩	-8.10622
羽	-8.1086
各	-8.1103
司	-8.11098
修	-8.11224
虚	-8.11325
倚	-8.11393
屋	-8.11513
蘭	-8.11863
傷	-8.1192
陶	-8.11956
冷	-8.12013
就	-8.12149
服	-8.12174
文章	-8.1226
制	-8.12468
墨	-8.12501
俱	-8.12525
當時	-8.12677
御	-8.12736
憶	-8.12756
考	-8.12916
崔	-8.12938
陸	-8.13052
屬	-8.13148
孟	-8.13328
性	-8.1334
船	-8.13362
恐	-8.13503
燈	-8.13598
忘	-8.14171
扵	-8.1425
軒	-8.14827
再	-8.15033
巖	-8.15198
虎	-8.15501
願	-8.15693
頗	-8.16011
殊	-8.16122
閑	-8.16153
秀	-8.1623
蒼	-8.1631
盧	-8.16684
斜	-8.16791
侍	-8.1704
牛	-8.171
延	-8.17157
政	-8.17538
烏	-8.17616
除	-8.17739
藥	-8.17863
逰	-8.18451
往	-8.18667
逐	-8.18725
反	-8.1877
偶	-8.18811
角	-8.19408
短	-8.19525
象	-8.19586
母	-8.19623
山谷	-8.19768
隠	-8.20126
置	-8.20272
房	-8.20354
議	-8.20417
隔	-8.20461
嘉	-8.20546
而不	-8.2072
晴	-8.20749
甫	-8.20823
賞	-8.21431
慶	-8.21819
惜	-8.21824
芳	-8.21929
遣	-8.2216
右	-8.2219
萬里	-8.22293
歴	-8.22432
果	-8.22453
左	-8.2249
昌	-8.22604
兼	-8.22647
談	-8.22806
某	-8.22809
琴	-8.22816
厚	-8.22866
怨	-8.23148
誤	-8.23179
千里	-8.2332
漁	-8.23355
列	-8.23549
折	-8.23555
一日	-8.23887
選	-8.24264
憂	-8.24276
晩	-8.24445
闗	-8.24468
不見	-8.24486
孝	-8.24635
荒	-8.24762
歎	-8.2497
康	-8.25067
徒	-8.25128
韋	-8.25238
寳	-8.25419
戲	-8.25445
乗	-8.25569
峯	-8.25699
吏	-8.25945
夕	-8.25981
盤	-8.26087
朩	-8.2636
浪	-8.26483
業	-8.26697
省	-8.27041
銘	-8.27183
蕭	-8.27474
妻	-8.27539
柳	-8.27686
雄	-8.27822
季	-8.27977
子美	-8.28134
市	-8.28181
春風	-8.28563
關	-8.28804
特	-8.28845
寫	-8.2885
惠	-8.28924
郭	-8.28932
受	-8.29087
是也	-8.29091
依	-8.29135
苑	-8.29615
禁	-8.29619
種	-8.29906
江南	-8.30489
洪	-8.3055
報	-8.30852
以上	-8.30998
遷	-8.31002
急	-8.31061
他	-8.31106
崇	-8.31149
編	-8.31225
毛	-8.31748
蔡	-8.31973
殺	-8.32298
被	-8.32518
治	-8.32556
㸃	-8.3259
錄	-8.3259
補	-8.32622
收	-8.32985
追	-8.33063
迎	-8.33135
管	-8.33153
造	-8.33221
疎	-8.3324
視	-8.33254
勢	-8.33287
儀	-8.33301
約	-8.3358
眉	-8.33603
尚書	-8.33699
負	-8.33851
塞	-8.33954
含	-8.34055
榮	-8.34253
騎	-8.34262
荆公	-8.34384
井	-8.3441
尊	-8.34503
鴻	-8.34589
老杜	-8.3484
退	-8.35308
商	-8.35309
暗	-8.35411
擬	-8.35634
投	-8.35736
夷	-8.35753
古人	-8.35814
桂	-8.35862
姓	-8.36127
徑	-8.3617
推	-8.36323
根	-8.36326
儒	-8.36446
禪	-8.3654
銀	-8.36724
鍾	-8.36975
源	-8.37009
歳	-8.3713
竟	-8.37462
巧	-8.37589
㡬	-8.37594
范	-8.37721
簾	-8.37761
接	-8.37806
念	-8.3782
附	-8.37934
翻	-8.38016
述	-8.38054
唐人	-8.38069
利	-8.38305
繼	-8.3863
館	-8.3872
訪	-8.38847
薦	-8.38857
漫	-8.38873
淺	-8.3912
鴈	-8.39194
辨	-8.39266
采	-8.3947
歡	-8.39814
貧	-8.40068
由	-8.4028
澤	-8.4032
吕	-8.4051
乆	-8.40767
刻	-8.40852
雞	-8.41112
眠	-8.41214
典	-8.41502
疾	-8.41509
加	-8.42002
部	-8.42064
鬼	-8.42155
總	-8.42258
㣲	-8.42339
湘	-8.42457
鼓	-8.42682
吳旦生曰	-8.42931
具	-8.42995
博	-8.43264
懷	-8.43296
誠	-8.43298
品	-8.43592
唱	-8.436
丘	-8.43669
惡	-8.43713
駕	-8.43906
堪	-8.43928
了	-8.43931
今日	-8.44256
借	-8.44482
嶺	-8.44544
二十	-8.44697
十二	-8.44747
赤	-8.44755
熟	-8.44976
衰	-8.45047
弟	-8.45059
倒	-8.45277
霞	-8.45345
戰	-8.45571
遲	-8.45621
郊	-8.45639
唯	-8.45852
位	-8.45935
衡	-8.45968
鼎	-8.46581
乞	-8.46668
鏡	-8.46693
底	-8.46803
傍	-8.46927
之意	-8.47187
卧	-8.47232
岸	-8.47409
何處	-8.47436
誦	-8.47501
洛	-8.47618
希	-8.47656
權	-8.47726
濟	-8.47854
凝	-8.4786
退之	-8.48039
人間	-8.48136
婦	-8.48231
鳯	-8.48329
避	-8.48335
屏	-8.48425
丁	-8.48736
例	-8.48737
墓	-8.48744
𤣥	-8.49048
條	-8.49099
憐	-8.49192
長安	-8.49325
坡	-8.49427
漸	-8.49523
所以	-8.49673
泥	-8.498
妾	-8.49921
答	-8.50101
魂	-8.50176
冬	-8.50306
計	-8.50433
温	-8.50472
豪	-8.50601
古今	-8.50604
敢	-8.50706
魯	-8.50902
赴	-8.50952
傾	-8.50962
孔	-8.5107
索	-8.51091
佛	-8.51348
賀	-8.51619
枕	-8.51621
平生	-8.5201
鳳	-8.5217
住	-8.52428
詩人	-8.52571
揚	-8.52649
歲	-8.52808
程	-8.52832
邪	-8.53031
桑	-8.53085
低	-8.53219
畧	-8.53416
養	-8.53564
機	-8.53899
賈	-8.53937
想	-8.53983
静	-8.54021
遥	-8.5403
紙	-8.54207
學士	-8.54427
危	-8.54583
淡	-8.54609
樂天	-8.54732
洗	-8.54879
狀	-8.54994
話	-8.55014
福	-8.55073
授	-8.55121
步	-8.55179
彼	-8.55201
莊	-8.55246
嗟	-8.55276
歩	-8.55287
勞	-8.55432
拂	-8.55677
謁	-8.55697
潮	-8.55838
招	-8.55852
尺	-8.55869
中有	-8.55914
桃	-8.55959
無人	-8.56003
狂	-8.56106
席	-8.56108
降	-8.56296
廢	-8.56302
告	-8.56302
撰	-8.56413
斗	-8.56447
甲	-8.56665
靜	-8.56815
虞	-8.56854
符	-8.57237
閩	-8.5748
舍	-8.57544
宅	-8.57566
偏	-8.57689
以詩	-8.57705
渡	-8.57927
妓	-8.57957
背	-8.58211
荷	-8.58386
龜	-8.5839
可以	-8.58394
備	-8.58555
夫人	-8.58599
續	-8.58805
啼	-8.59024
累	-8.59311
懸	-8.59362
息	-8.59633
爭	-8.59827
亦有	-8.59958
明月	-8.59981
怪	-8.60132
綠	-8.60521
燭	-8.60586
釋	-8.60593
十年	-8.60665
祠	-8.60679
之曰	-8.60851
兄	-8.6125
峰	-8.61259
仍	-8.61601
敬	-8.61624
叢	-8.61865
将	-8.62028
穿	-8.6218
羊	-8.62331
詳	-8.62551
乾	-8.62704
籍	-8.6278
扶	-8.62912
掩	-8.62923
况	-8.62938
后	-8.63024
質	-8.63235
弄	-8.63326
甘	-8.63418
積	-8.63514
者也	-8.63694
征	-8.63899
把	-8.6392
童	-8.63939
浦	-8.63962
達	-8.63974
悟	-8.63998
棄	-8.64733
戒	-8.649
施	-8.64951
怒	-8.65146
愈	-8.6517
妃	-8.65274
干	-8.65323
貢	-8.66003
未嘗	-8.66184
五言	-8.66198
跡	-8.66421
抱	-8.6655
繁	-8.66569
枯	-8.6672
屈	-8.66866
絶句	-8.66868
寓	-8.67035
映	-8.67322
樂府	-8.67351
釣	-8.67385
徃	-8.6761
罪	-8.67663
黃	-8.67773
杯	-8.67787
渾	-8.67914
縁	-8.67986
天子	-8.68609
鎮	-8.68757
布	-8.68801
壯	-8.68841
尾	-8.68902
參	-8.69022
鐘	-8.69047
不敢	-8.69389
太白	-8.69501
雷	-8.69534
户	-8.69576
丈	-8.69608
社	-8.69658
監	-8.69688
迷	-8.69858
豐	-8.69906
器	-8.70225
棲	-8.70519
薛	-8.70533
腰	-8.70826
僕	-8.70837
霧	-8.70841
扇	-8.70974
評	-8.70987
謫	-8.7099
謀	-8.71159
顯	-8.71183
暖	-8.71292
争	-8.71338
三年	-8.71409
舒	-8.71507
蓮	-8.71688
粉	-8.71807
融	-8.71815
堯	-8.7212
沉	-8.72191
白雲	-8.72696
睡	-8.72738
阿	-8.72987
云云	-8.73034
示	-8.7343
迹	-8.73454
吉	-8.73455
司馬	-8.73496
泣	-8.73621
略	-8.73687
寶	-8.73879
境	-8.73927
圓	-8.74112
裴	-8.74118
卷	-8.74179
執	-8.74278
又有	-8.7428
耕	-8.7444
晝	-8.74618
巢	-8.74777
哭	-8.75144
誌	-8.75228
響	-8.75293
彦	-8.75303
夀	-8.75322
一篇	-8.75488
假	-8.75657
淮	-8.75807
鬢	-8.76112
頻	-8.76127
荆	-8.76205
維	-8.76309
兹	-8.76337
不及	-8.7636
潘	-8.76446
頌	-8.76612
虛	-8.76658
不如	-8.76716
之類	-8.76771
富	-8.76943
叙	-8.77232
勿	-8.77394
第一	-8.77394
率	-8.77587
聊	-8.77665
升	-8.77876
伏	-8.7789
風吹	-8.78096
不同	-8.78293
買	-8.78544
掃	-8.78547
勸	-8.78559
運	-8.78709
注云	-8.78753
牧	-8.78772
環	-8.78832
厭	-8.78884
㸔	-8.78931
崖	-8.79056
稍	-8.79094
鹿	-8.7925
傅	-8.79295
據	-8.79316
天地	-8.79562
走	-8.79695
廬	-8.79773
菊	-8.79785
射	-8.79797
側	-8.79817
㫖	-8.79847
不足	-8.79922
校	-8.7997
不復	-8.80007
堅	-8.80132
術	-8.80243
綺	-8.80462
採	-8.80504
蓬	-8.80651
三十	-8.80673
咸	-8.80852
馳	-8.8087
譏	-8.81047
毎	-8.81073
瓊	-8.81416
飄	-8.81527
刺	-8.8156
諷	-8.81587
輩	-8.81629
鶯	-8.81706
遠	-8.81719
潤	-8.81746
畢	-8.81757
製	-8.81758
彈	-8.81801
詩有	-8.8204
泛	-8.82481
否	-8.82502
着	-8.82511
輿	-8.82638
盈	-8.82646
掌	-8.82679
仕	-8.82983
農	-8.83025
日月	-8.83313
氷	-8.83393
禽	-8.83398
覽	-8.83411
潭	-8.8354
䇿	-8.83615
催	-8.83734
消	-8.8376
錫	-8.83782
一時	-8.83888
資	-8.83978
大夫	-8.84109
履	-8.84124
職	-8.84137
禹	-8.84172
賔	-8.84226
刀	-8.84362
昏	-8.84772
午	-8.8485
繫	-8.84901
伴	-8.85217
尹	-8.85268
縱	-8.8558
故人	-8.85665
梅花	-8.85944
之語	-8.8605
窺	-8.86156
洲	-8.86364
寸	-8.8637
驅	-8.86388
旋	-8.86588
窗	-8.86665
凉	-8.86921
强	-8.86923
奇	-8.86939
邑	-8.86966
岳	-8.87016
丞相	-8.87067
班	-8.87084
順	-8.87354
侍郎	-8.87395
又曰	-8.87511
巾	-8.87523
辰	-8.87672
愚	-8.87725
姑	-8.87759
之詩	-8.87794
訓	-8.87961
凌	-8.88043
叟	-8.88091
畏	-8.88098
潛	-8.88455
所作	-8.88512
殆	-8.88539
案	-8.88681
輔	-8.88861
壺	-8.88861
諱	-8.89069
奴	-8.89095
尉	-8.8913
眞	-8.89182
趣	-8.89224
晦	-8.8923
翰	-8.89233
劍	-8.89265
效	-8.89272
貶	-8.89277
其詩	-8.89348
湯	-8.89434
振	-8.89435
春秋	-8.89448
規	-8.89467
杖	-8.89828
仰	-8.90022
雁	-8.90585
披	-8.90594
嘆	-8.90644
淵明	-8.90681
至於	-8.90696
腸	-8.91168
稀	-8.91168
保	-8.9119
燒	-8.91201
印	-8.91395
圍	-8.91434
藻	-8.91581
威	-8.91601
態	-8.91604
憲	-8.9163
那	-8.91717
瑞	-8.91784
并	-8.91953
鄰	-8.9198
務	-8.92053
蒲	-8.92224
霄	-8.92551
神仙	-8.92588
旁	-8.92614
踈	-8.92783
旅	-8.92989
旗	-8.92994
宇	-8.93199
宻	-8.93214
吐	-8.93432
笛	-8.93591
申	-8.93612
聚	-8.93624
侵	-8.93764
柱	-8.93785
擁	-8.94012
茅	-8.94174
澄	-8.94221
四十	-8.94395
操	-8.94402
葛	-8.94478
百年	-8.94518
旦	-8.94573
十五	-8.94802
供	-8.95003
喚	-8.95021
敗	-8.95083
絃	-8.95241
支	-8.95302
覆	-8.9544
蕩	-8.95457
巴	-8.95482
帳	-8.95645
習	-8.9571
塘	-8.9577
可謂	-8.95836
壑	-8.96045
差	-8.96062
血	-8.96084
賦詩	-8.96105
祐	-8.96254
用事	-8.96328
漏	-8.96496
㫁	-8.96512
譜	-8.96938
其後	-8.97008
君子	-8.97083
險	-8.97114
揺	-8.97136
晨	-8.9714
鸞	-8.97315
酬	-8.97338
弱	-8.97359
没	-8.97362
荅	-8.97367
句云	-8.97475
撫	-8.97526
肅	-8.97704
賊	-8.97822
風雨	-8.97839
貫	-8.9794
羞	-8.97967
穆	-8.98007
優	-8.98025
疊	-8.98114
至今	-8.98164
戴	-8.98169
飯	-8.98201
鐵	-8.98227
如何	-8.98391
營	-8.98454
涼	-8.98756
青山	-8.98882
幕	-8.99177
靖	-8.99223
袖	-8.99243
竊	-8.9927
片	-8.99415
開元	-8.99433
伊	-8.9944
輪	-8.99468
繡	-8.99638
植	-8.9968
鱗	-8.99708
設	-8.99715
一字	-8.99834
團	-8.99886
七言	-9.00006
劒	-9.00074
道士	-9.00074
粧	-9.0008
恭	-9.00126
佐	-9.003
爐	-9.00755
葬	-9.00858
麻	-9.0098
戎	-9.00983
苔	-9.011
少年	-9.01164
擊	-9.0122
㳺	-9.01251
換	-9.01257
二年	-9.01293
揮	-9.01378
戸	-9.01392
宰	-9.01401
藝	-9.01454
碎	-9.0146
咏	-9.01472
山中	-9.01495
免	-9.01582
肯	-9.01596
湏	-9.01624
渠	-9.01877
私	-9.01896
佳句	-9.01971
脫	-9.02093
鮮	-9.02095
蟬	-9.0228
題詩	-9.02304
京師	-9.02337
寛	-9.02346
候	-9.02577
驛	-9.02732
壽	-9.02758
肉	-9.0277
弓	-9.02807
占	-9.02973
刑	-9.02982
魯直	-9.03008
太守	-9.03062
纔	-9.03184
甞	-9.03244
拙	-9.03246
裁	-9.03393
邉	-9.03425
敏	-9.03442
亦不	-9.03552
醒	-9.03619
諫	-9.03658
座	-9.03893
築	-9.03916
白樂天	-9.03932
髪	-9.03956
元年	-9.04029
猿	-9.04066
壓	-9.04079
屢	-9.04124
淵	-9.04195
科	-9.0427
讀書	-9.04286
添	-9.04548
而已	-9.04674
紹興	-9.04727
饒	-9.04748
式	-9.04813
聨	-9.04899
為詩	-9.04935
見之	-9.05013
雀	-9.05171
排	-9.05239
秋風	-9.05378
金陵	-9.05392
納	-9.05468
充	-9.0547
旣	-9.05484
疏	-9.05501
酌	-9.05513
渭	-9.05658
嫌	-9.0566
牀	-9.05684
牽	-9.05686
助	-9.05734
翼	-9.05925
寵	-9.05934
一作	-9.06067
籠	-9.06129
健	-9.06141
姬	-9.06143
打	-9.06338
帥	-9.06362
磨	-9.06395
皮	-9.06421
將軍	-9.067
激	-9.0688
介	-9.07046
族	-9.0712
愧	-9.07125
宮	-9.07271
乘	-9.07281
寜	-9.07286
委	-9.07341
衛	-9.07355
之後	-9.07372
暫	-9.0751
暇	-9.0752
臯	-9.07546
貞	-9.07564
流水	-9.07667
辛	-9.07675
澗	-9.07755
辟	-9.07765
領	-9.0777
競	-9.07803
獲	-9.08047
奪	-9.08245
祭	-9.08261
渚	-9.08268
十八	-9.08468
鹽	-9.08486
材	-9.08685
於此	-9.08768
之所	-9.08823
夕陽	-9.08906
騷	-9.08923
像	-9.08942
李白	-9.09014
安得	-9.09216
廷	-9.09263
嗣	-9.09332
害	-9.09503
何人	-9.09776
茂	-9.0982
馮	-9.09904
風流	-9.10031
提	-9.10038
奔	-9.10123
貌	-9.10136
囊	-9.10357
齒	-9.10412
智	-9.10421
毫	-9.10604
煩	-9.10626
濃	-9.10823
津	-9.10829
滅	-9.10859
鑿	-9.10906
濤	-9.11006
樵	-9.11063
筵	-9.11081
明皇	-9.11225
繞	-9.11339
帖	-9.11356
鑑	-9.11365
俊	-9.11409
曰此	-9.11437
熙	-9.11515
銷	-9.11545
𥘉	-9.11565
託	-9.11609
銅	-9.11619
肥	-9.1163
踏	-9.11789
彩	-9.118
牙	-9.11829
靡	-9.11832
夣	-9.11843
隆	-9.12044
腹	-9.12097
簷	-9.12125
杜子美	-9.12256
歸來	-9.12542
菴	-9.12546
佩	-9.12566
錯	-9.12827
攀	-9.13021
彌	-9.13069
巨	-9.13296
雕	-9.13302
䝉	-9.13341
浩	-9.13355
際	-9.13382
其意	-9.13443
歸去	-9.13465
蟲	-9.13515
子厚	-9.13578
庶	-9.13606
有詩云	-9.137
洞庭	-9.1371
途	-9.1379
以此	-9.14113
染	-9.1429
徹	-9.14307
厯	-9.1432
穴	-9.14322
契	-9.14323
古詩	-9.14557
集中	-9.14667
邦	-9.14774
蝶	-9.14804
瓦	-9.14837
珍	-9.14841
卜	-9.14844
桐	-9.14919
束	-9.15033
泊	-9.15037
賣	-9.15059
濕	-9.15075
喻	-9.15088
忍	-9.15157
西湖	-9.15165
冰	-9.15271
姚	-9.1547
界	-9.15475
喧	-9.15489
澹	-9.15516
挽	-9.15532
朔	-9.15604
會	-9.16049
泰	-9.16097
妄	-9.1615
炎	-9.16263
攜	-9.16308
困	-9.16608
寂	-9.1661
喬	-9.16787
琵琶	-9.17111
頃	-9.17163
五年	-9.17192
江湖	-9.17284
祥	-9.17309
擇	-9.17394
滴	-9.17577
網	-9.17581
輒	-9.17631
桃花	-9.17843
後人	-9.1788
賤	-9.17886
忌	-9.17887
挂	-9.18058
籬	-9.18066
暉	-9.18091
脱	-9.18109
禍	-9.1812
用之	-9.18337
硯	-9.18575
詩也	-9.18587
廻	-9.18593
呉旦生曰	-9.18745
輝	-9.18873
隋	-9.18873
自是	-9.19093
欽定四庫全書	-9.1923
太子	-9.19364
勤	-9.194
綿	-9.19438
朋	-9.19444
麥	-9.19724
嫁	-9.19731
舎	-9.19782
知其	-9.19914
娥	-9.19916
役	-9.19949
敵	-9.19959
襲	-9.19985
克	-9.20001
落花	-9.20092
陰	-9.20148
量	-9.20211
悉	-9.20216
男	-9.20263
壇	-9.20441
慕	-9.20479
郎中	-9.20663
島	-9.20715
璧	-9.20752
塔	-9.20967
幹	-9.20976
柔	-9.21033
超	-9.21097
預	-9.21315
東風	-9.21497
迴	-9.21503
杜詩	-9.21515
旌	-9.21517
嘲	-9.21574
沒	-9.21586
十四	-9.21767
烈	-9.21784
姿	-9.21795
伐	-9.22103
宰相	-9.22339
觴	-9.22615
慈	-9.22904
婉	-9.2291
傑	-9.22926
有餘	-9.2305
諸公	-9.23085
洛陽	-9.23088
庚	-9.23182
往往	-9.23309
文字	-9.23375
此語	-9.23378
鎖	-9.23408
遶	-9.23423
給	-9.23424
宵	-9.23428
韓退之	-9.23612
卻	-9.23618
少陵	-9.23644
純	-9.2369
五十	-9.23697
窓	-9.23713
察	-9.23735
脚	-9.23747
詞云	-9.23811
憑	-9.23951
聴	-9.23955
呈	-9.23973
押	-9.24005
費	-9.24024
其所	-9.24038
織	-9.24187
標	-9.24267
寒食	-9.24333
鮑	-9.24574
孰	-9.24601
處士	-9.24615
未有	-9.24628
杜甫	-9.24714
舜	-9.24825
篆	-9.24828
晏	-9.2485
浙	-9.25085
祀	-9.25094
為之	-9.25115
兄弟	-9.25199
有所	-9.25222
痕	-9.25389
均	-9.25403
啟	-9.25476
之言	-9.25564
頂	-9.25619
鞭	-9.25657
階	-9.25669
太宗	-9.25671
犯	-9.25894
祝	-9.25974
可憐	-9.26041
觧	-9.26202
黨	-9.26205
鈎	-9.26237
無所	-9.26303
陪	-9.26443
層	-9.26459
藍	-9.26559
黒	-9.26584
元祐	-9.2666
左右	-9.26675
擢	-9.26741
一首	-9.26805
麟	-9.26834
學者	-9.27021
/)(	-9.27081
御史	-9.27314
塗	-9.2734
練	-9.27358
翰林	-9.27516
戯	-9.27661
白日	-9.27686
太平	-9.27809
紛	-9.27894
停	-9.27913
山水	-9.27988
輦	-9.28158
圃	-9.28196
自然	-9.28218
卑	-9.28252
朝廷	-9.28428
州人	-9.28953
然後	-9.2904
飽	-9.29095
汗	-9.29107
墜	-9.29326
翔	-9.29585
趨	-9.2961
瑶	-9.29624
暑	-9.29655
墮	-9.29656
局	-9.29666
嬌	-9.29926
董	-9.29934
曠	-9.29934
宏	-9.29988
南山	-9.30078
清風	-9.30218
快	-9.30238
誇	-9.30528
隴	-9.30559
九日	-9.30618
囘	-9.30798
寢	-9.30805
阮	-9.30814
專	-9.30853
亮	-9.31106
返	-9.31114
謬	-9.31159
年年	-9.31183
三月	-9.31279
曰吾	-9.31311
芝	-9.31375
巷	-9.314
賓	-9.31435
慮	-9.31689
帆	-9.3169
拘	-9.31734
閉	-9.31873
襄	-9.31966
芙蓉	-9.31999
貪	-9.32008
當年	-9.3201
箇	-9.32045
密	-9.32302
纎	-9.32316
脩	-9.32326
米	-9.32349
竿	-9.3235
橘	-9.32363
也又	-9.32502
偉	-9.32625
違	-9.32649
彭	-9.328
殷	-9.3286
两	-9.32907
子瞻	-9.32917
綸	-9.32925
活	-9.32955
黄金	-9.33163
汲	-9.332
其事	-9.33431
蠻	-9.3351
倫	-9.33527
熊	-9.3353
鬚	-9.33609
娘	-9.33814
後主	-9.33865
祕	-9.34085
落日	-9.34201
天上	-9.34207
姓名	-9.34411
嶽	-9.34438
誅	-9.34459
飾	-9.34465
宛	-9.34684
弔	-9.34709
付	-9.34715
成都	-9.34741
一人	-9.34795
廬山	-9.34985
倦	-9.34986
邀	-9.35004
別	-9.35045
冩	-9.35077
中書	-9.35195
偃	-9.35297
牡丹	-9.35317
雍	-9.35338
促	-9.3534
俯	-9.35344
十六	-9.35347
逹	-9.35373
随	-9.3539
元和	-9.35485
展	-9.35638
䑓	-9.35647
遽	-9.35652
緩	-9.35662
墳	-9.35678
銜	-9.35926
講	-9.35971
婦人	-9.36019
綴	-9.36249
摘	-9.36285
之間	-9.36389
遜	-9.36502
人生	-9.3651
潜	-9.36527
獄	-9.36557
乙	-9.36559
䕶	-9.36588
主人	-9.36687
江上	-9.36705
歐公	-9.36781
袁	-9.3687
觸	-9.36887
明年	-9.36965
鷗	-9.37052
千載	-9.37138
韶	-9.37152
飢	-9.37178
灑	-9.3718
十三	-9.37181
筠	-9.37191
瘦	-9.37219
策	-9.37321
得之	-9.37475
鄙	-9.37539
簫	-9.37712
也然	-9.37764
而後	-9.37769
敎	-9.37803
悠悠	-9.37807
榜	-9.37819
強	-9.37831
道人	-9.38015
樽	-9.38153
丞	-9.38171
缺	-9.38201
司空	-9.38338
二字	-9.38388
故事	-9.3839
牆	-9.38403
謹	-9.38441
聯	-9.38448
時人	-9.38501
何事	-9.38608
慙	-9.38791
詩話云	-9.38937
晁	-9.39137
警	-9.39215
用此	-9.39388
絳	-9.39444
諧	-9.39449
膏	-9.39452
其間	-9.39741
欄	-9.39776
詩集	-9.39853
之子	-9.39917
乃知	-9.3996
諡	-9.3999
自有	-9.4
灰	-9.40014
廊	-9.40014
岑	-9.40051
襟	-9.4006
何以	-9.40081
啓	-9.40126
皇帝	-9.40226
使君	-9.40238
冥	-9.40351
東南	-9.40373
乾坤	-9.4038
逆	-9.40389
不識	-9.40395
乳	-9.404
苕溪漁隱曰	-9.404
十里	-9.40607
騰	-9.40691
爛	-9.40704
邵	-9.40709
勒	-9.41007
庾	-9.41032
十九	-9.41254
以其	-9.41257
坊	-9.41361
畔	-9.4137
藉	-9.4137
遭	-9.41372
歟	-9.41408
紹	-9.41507
僅	-9.41693
如今	-9.41845
不然	-9.42001
几	-9.42008
寂寞	-9.42021
富貴	-9.42148
髮	-9.4226
詣	-9.42334
欺	-9.42338
相思	-9.42362
庸	-9.42369
之以	-9.42439
見其	-9.42462
徧	-9.42664
瞻	-9.42691
第三	-9.42738
陋	-9.4274
出於	-9.42831
月明	-9.42896
摩	-9.42996
凍	-9.43038
唐詩	-9.43108
不是	-9.4314
綵	-9.43347
責	-9.43364
徙	-9.43378
君王	-9.43392
審	-9.43401
峽	-9.43449
歐陽	-9.43461
徽	-9.43568
居士	-9.43682
何如	-9.43706
昇	-9.43712
一句	-9.43727
東坡云	-9.4397
絮	-9.43981
不用	-9.43997
場	-9.44035
厥	-9.44081
頓	-9.44358
防	-9.44665
涕	-9.4467
板	-9.44682
黙	-9.44698
埋	-9.44705
故曰	-9.44733
弗	-9.44734
註	-9.44736
携	-9.4475
亦可	-9.448
時有	-9.4481
語也	-9.44879
淳	-9.4494
剪	-9.4502
記云	-9.45096
千古	-9.45123
一巻	-9.45267
臥	-9.45315
床	-9.4534
桞	-9.45345
閨	-9.45375
隣	-9.45396
仗	-9.45427
有一	-9.45483
序云	-9.45483
▁(	-9.45652
緣	-9.45723
剛	-9.45764
證	-9.45818
瑟	-9.45861
山川	-9.45947
獵	-9.46096
蕭蕭	-9.46118
堆	-9.46414
爽	-9.46742
探	-9.46747
吏部	-9.46943
終日	-9.46995
蹤	-9.47062
慎	-9.47136
其名	-9.47155
千年	-9.47451
苕溪漁隠曰	-9.47463
四海	-9.47485
其一	-9.47496
鷺	-9.47682
宦	-9.47743
揚州	-9.47751
衢	-9.47793
盃	-9.47808
鄧	-9.47831
塲	-9.47846
判	-9.47927
竇	-9.48074
蘿	-9.48089
筍	-9.48148
肆	-9.48204
行人	-9.48261
二人	-9.48562
不成	-9.48564
皷	-9.48573
詩云云	-9.4877
捲	-9.4883
亞	-9.48838
吴	-9.48844
患	-9.48871
笙	-9.4914
春色	-9.49171
州刺史	-9.49197
卓	-9.49202
蒙	-9.49217
悞	-9.49277
虹	-9.49536
裕	-9.496
於是	-9.49645
獸	-9.49649
何時	-9.49787
白頭	-9.49832
群	-9.49905
陣	-9.49911
明日	-9.50052
拾遺	-9.50135
焚	-9.50141
肩	-9.50228
江山	-9.50229
遍	-9.50236
人家	-9.50267
援	-9.50294
一聲	-9.50298
致仕	-9.50323
憤	-9.50328
徘徊	-9.50584
僻	-9.50624
日暮	-9.5064
勲	-9.50649
海棠	-9.50672
之義	-9.50699
今人	-9.50794
河南	-9.50891
録云	-9.50961
包	-9.50969
痛	-9.51
而去	-9.51103
悔	-9.51348
欽	-9.51369
蓬萊	-9.51393
非也	-9.51399
舌	-9.51407
稽	-9.51589
拍	-9.51709
未必	-9.51894
乍	-9.52087
茍	-9.52134
是時	-9.52351
偷	-9.52389
森	-9.52431
齡	-9.52432
贊	-9.52443
扉	-9.52447
媚	-9.52482
西山	-9.52501
元豐	-9.52778
釵	-9.5278
裘	-9.52782
忙	-9.52789
救	-9.52812
耆	-9.52829
以來	-9.53003
軰	-9.53042
吞	-9.53115
美人	-9.5312
魄	-9.53156
震	-9.53199
羙	-9.53229
勉	-9.53259
讀之	-9.53363
春日	-9.53467
得其	-9.53537
不為	-9.53618
豈不	-9.53708
涯	-9.5377
四年	-9.53814
𢎞	-9.53917
言之	-9.53937
錢塘	-9.53962
相逢	-9.54045
仄	-9.54097
府志	-9.54223
鵲	-9.54249
戚	-9.54265
熈	-9.54268
汪	-9.54274
統	-9.54358
其二	-9.5454
有詩	-9.54606
藤	-9.54655
掛	-9.54667
岐	-9.54668
值	-9.54687
抛	-9.54693
使人	-9.54699
嗜	-9.54703
倉	-9.54722
人皆	-9.54866
一枝	-9.54926
灘	-9.54988
檻	-9.55002
晋	-9.55037
斑	-9.55045
弦	-9.5533
霽	-9.55332
削	-9.55387
郷	-9.55405
登第	-9.55422
賛	-9.55435
第二	-9.55449
工部	-9.55524
四句	-9.55589
蛇	-9.55738
弼	-9.55752
能詩	-9.55768
三百	-9.55958
老人	-9.55989
相見	-9.56048
武帝	-9.56054
回首	-9.56178
律詩	-9.56304
朴	-9.56496
戀	-9.56554
聮	-9.56845
七十	-9.56845
芳草	-9.5688
文選	-9.56885
駐	-9.56914
槐	-9.56935
脂	-9.5694
敷	-9.56942
西風	-9.56965
惟有	-9.57105
江西	-9.57129
二公	-9.57162
棹	-9.57251
書云	-9.57425
惆悵	-9.57615
斧	-9.57695
花落	-9.57736
畱	-9.58018
讓	-9.58034
鋪	-9.58049
秉	-9.58076
範	-9.58104
者皆	-9.58137
十七	-9.58213
皆有	-9.5837
不堪	-9.58408
署	-9.58434
項	-9.58475
況	-9.58477
損	-9.58506
辱	-9.58508
陌	-9.58528
十一	-9.58534
世間	-9.58549
之事	-9.58586
亦云	-9.58734
太學	-9.58797
數十	-9.588
濁	-9.58852
乖	-9.58875
李太白	-9.58906
犬	-9.59152
不盡	-9.59172
玄	-9.59208
檀	-9.59215
孺	-9.59221
浴	-9.59243
寡	-9.59255
誥	-9.59369
相如	-9.59446
五代	-9.59491
軸	-9.59589
謨	-9.59602
之作	-9.59608
東西	-9.59618
羡	-9.59626
粟	-9.59639
喪	-9.59672
毅	-9.59756
謙	-9.59997
潁	-9.60025
垣	-9.6003
文公	-9.60131
徴	-9.60368
徵	-9.6038
之文	-9.60431
焦	-9.60486
他日	-9.60545
字子	-9.60776
媿	-9.60796
互	-9.60846
翰林學士	-9.60863
菜	-9.60866
士大夫	-9.61
八十	-9.61011
杭	-9.61132
紗	-9.61172
禄	-9.61174
嘉祐	-9.6118
樊	-9.61204
托	-9.61249
他人	-9.61338
其言	-9.61466
余觀	-9.61516
十餘	-9.61529
鴛鴦	-9.61593
蕪	-9.61599
自號	-9.6161
諌	-9.61642
抑	-9.61654
褒	-9.61664
是以	-9.61815
未知	-9.61825
八月	-9.61862
栢	-9.61976
夾	-9.61987
播	-9.6201
價	-9.62022
整	-9.62023
搜	-9.62038
蟾	-9.62064
暢	-9.62372
宸	-9.62391
門前	-9.62525
不必	-9.62606
山下	-9.6275
曙	-9.62763
緯	-9.62785
嵩	-9.62804
懼	-9.62809
臂	-9.6282
棊	-9.62843
桓	-9.62848
寅	-9.62848
飲酒	-9.62857
粲	-9.62881
分明	-9.63221
墻	-9.63255
二句	-9.63326
桃李	-9.63345
無窮	-9.63592
榻	-9.63633
前輩	-9.63636
哲	-9.63646
循	-9.63652
邁	-9.63683
佳人	-9.63794
兩句	-9.63797
歌云	-9.6384
饑	-9.64031
從此	-9.64077
鬱	-9.64077
羮	-9.6408
箋	-9.64084
允	-9.64122
宣和	-9.64137
娶	-9.64164
門外	-9.64356
圗	-9.64436
遙	-9.64437
鴉	-9.6444
爵	-9.64486
蒸	-9.64496
辯	-9.64504
譬	-9.64512
進士第	-9.64588
淮南	-9.64818
衍	-9.64863
歇	-9.64868
譽	-9.64962
浮雲	-9.64985
杏	-9.6522
淨	-9.65241
袍	-9.6528
眀	-9.6528
淹	-9.65285
或云	-9.65289
配	-9.65297
𤓰	-9.65298
閲	-9.65322
偽	-9.65329
子孫	-9.65487
一笑	-9.65513
屯	-9.65692
裙	-9.65711
枚	-9.65714
紛紛	-9.6572
涉	-9.65741
輸	-9.65741
衫	-9.66007
春水	-9.66029
閩書	-9.66033
杭州	-9.6609
風月	-9.66212
遮	-9.66515
認	-9.66574
限	-9.66591
女子	-9.66667
後世	-9.6667
嘗有	-9.66712
笑曰	-9.66763
其詞	-9.66802
拾	-9.66846
刋	-9.67006
然則	-9.67013
閱	-9.67015
暴	-9.6703
勇	-9.67041
多少	-9.67138
句法	-9.67215
不覺	-9.67236
闌	-9.67316
公子	-9.67358
栽	-9.67372
攻	-9.67392
逼	-9.67399
躍	-9.67408
濶	-9.6741
舘	-9.6741
二首	-9.67419
上有	-9.67613
可見	-9.67796
鞍	-9.67807
料	-9.67808
涵	-9.67813
檄	-9.67823
令人	-9.67824
頴	-9.67838
綱	-9.6784
熱	-9.67841
以爲	-9.67934
誕	-9.67936
也故	-9.68225
有此	-9.68228
瑩	-9.68244
蕃	-9.68275
人以	-9.68411
三千	-9.68422
子由	-9.68457
奈	-9.68458
二子	-9.68485
李杜	-9.68489
彥	-9.68594
行云	-9.68614
隅	-9.68644
零	-9.68907
荀	-9.69118
槩	-9.69123
其中	-9.69153
襄陽	-9.69229
誠齋	-9.69601
王荆公	-9.69779
靄	-9.69915
蔽	-9.69986
覩	-9.69986
裂	-9.69989
蜂	-9.69989
浸	-9.69992
皓	-9.70032
作者	-9.7004
可知	-9.70064
言其	-9.70324
嘯	-9.70368
嶠	-9.70402
𦵏	-9.70411
峻	-9.70417
猛	-9.70432
稻	-9.70448
也其	-9.70573
萬古	-9.70662
五月	-9.70691
圭	-9.70789
不相	-9.70793
鷹	-9.70836
段	-9.7088
誓	-9.7089
葵	-9.70898
臘	-9.70902
慚	-9.70905
顛	-9.70914
丙	-9.70975
及第	-9.71067
南北	-9.71161
六年	-9.71214
點	-9.71242
梢	-9.71285
酸	-9.71304
株	-9.71312
誰能	-9.71317
艶	-9.71332
的	-9.71337
二月	-9.71432
酣	-9.71522
詩一	-9.71716
峭	-9.71746
不忍	-9.71979
白髪	-9.72028
子羙	-9.72156
禾	-9.72168
割	-9.7217
檢	-9.72185
街	-9.72186
珪	-9.72283
者如	-9.72391
一夜	-9.72409
單	-9.72499
玉堂	-9.72548
箴	-9.72577
玩	-9.72616
楓	-9.72624
鈞	-9.72642
花開	-9.72648
増	-9.72688
今朝	-9.72712
世人	-9.72866
柴	-9.7287
無復	-9.72889
得意	-9.72957
帛	-9.73015
百餘	-9.73025
磬	-9.73026
鼻	-9.73029
摧	-9.7304
蘓	-9.73065
擅	-9.73093
属	-9.73129
何必	-9.73165
雉	-9.73487
扁舟	-9.73517
慘	-9.73535
較	-9.73549
箭	-9.7355
汴	-9.73561
不在	-9.73678
衝	-9.7395
俞	-9.73953
幼	-9.73965
六十	-9.73967
遵	-9.7397
拔	-9.73972
閭	-9.74016
一曲	-9.74017
擲	-9.74018
氣象	-9.74041
舉進士	-9.74113
山寺	-9.74145
柯	-9.74324
歌舞	-9.74378
濯	-9.74421
衮	-9.7448
烹	-9.74489
余嘗	-9.74612
不勝	-9.74628
各有	-9.74687
寥	-9.74712
禪師	-9.74716
取其	-9.74764
耀	-9.74866
慰	-9.74892
豹	-9.74893
妍	-9.74893
其人	-9.74905
踰	-9.7492
研	-9.74961
丹青	-9.74969
絶句云	-9.75072
劇	-9.75316
堤	-9.7534
岡	-9.75357
繩	-9.7537
速	-9.75371
鬬	-9.75417
麾	-9.75523
楊栁	-9.75712
蠶	-9.75789
瓶	-9.75802
詩句	-9.75813
番	-9.75817
傲	-9.75843
鴨	-9.75856
建安	-9.76119
一名	-9.76189
闊	-9.76235
議論	-9.76247
渺	-9.76248
蟠	-9.76251
阻	-9.76263
區	-9.76265
戍	-9.76276
豫章	-9.76316
児	-9.76333
抵	-9.76467
詩者	-9.76526
簿	-9.76639
藩	-9.76689
癡	-9.76718
挾	-9.76751
滄浪	-9.76804
訛	-9.76812
一片	-9.76823
聖俞	-9.76865
皎	-9.76987
大抵	-9.77039
人所	-9.77106
余謂	-9.77174
紳	-9.77175
鉤	-9.7719
之士	-9.772
江水	-9.77227
為文	-9.77228
黛	-9.77231
鯨	-9.77233
攷	-9.77272
江東	-9.77322
其文	-9.77522
敲	-9.77587
世傳	-9.77671
苕溪	-9.77686
豆	-9.77692
艸	-9.77701
塵埃	-9.77705
鑄	-9.77716
長沙	-9.77723
夢中	-9.77742
布衣	-9.7788
漢書	-9.77995
驢	-9.78059
樞	-9.78076
障	-9.78119
謾	-9.78125
杳	-9.78126
榖	-9.78131
古今詩話	-9.78141
潔	-9.78147
僚	-9.78176
壁間	-9.78302
三尺	-9.7845
祗	-9.78628
匹	-9.78659
餅	-9.78674
人也	-9.78782
弟子	-9.78947
滑	-9.79053
七年	-9.79063
聫	-9.79097
幅	-9.79098
䖍	-9.791
系	-9.791
近世	-9.79104
俄	-9.79114
太祖	-9.79128
従	-9.7916
聞之	-9.792
而無	-9.79323
永叔	-9.79434
妖	-9.7954
跋	-9.79583
厲	-9.79592
鄴	-9.80008
貽	-9.80047
栖	-9.8007
昻	-9.80122
本朝	-9.80279
無事	-9.80347
不若	-9.80487
犀	-9.80528
檜	-9.80533
必有	-9.8054
參差	-9.80564
而巳	-9.80591
牋	-9.80597
夫子	-9.80659
何所	-9.80896
霑	-9.8097
餞	-9.81027
䕫	-9.81039
劉禹錫	-9.81082
不自	-9.81176
中興	-9.81338
者謂	-9.81474
人多	-9.81486
矜	-9.81514
墀	-9.81517
域	-9.8152
敦	-9.81536
懿	-9.81537
叚	-9.81588
此意	-9.81713
者亦	-9.81724
撥	-9.81952
次韻	-9.81967
滋	-9.8198
巡	-9.81996
朽	-9.82055
其子	-9.82101
二詩	-9.82199
金石	-9.82229
王維	-9.82243
而意	-9.82389
䖏	-9.82522
出處	-9.82593
六朝	-9.82693
不肯	-9.82748
甚多	-9.82753
三日	-9.82835
䦨	-9.82932
怕	-9.82969
者以	-9.83061
上人	-9.83138
相公	-9.83155
則曰	-9.83425
寐	-9.83451
復齋漫録云	-9.83477
捨	-9.83481
决	-9.83512
奚	-9.83521
宫詞	-9.83527
消息	-9.83551
䑕	-9.8356
者為	-9.83647
昔人	-9.83675
有人	-9.83682
不過	-9.83731
棠	-9.83924
凄	-9.83957
擾	-9.83971
棘	-9.83973
顔色	-9.83981
草堂	-9.83991
嗚呼	-9.84004
清明	-9.84044
史記	-9.84052
梅聖俞	-9.84088
千金	-9.84192
所居	-9.84192
誰家	-9.84245
鄭谷	-9.8426
彬	-9.84429
則有	-9.84439
肌	-9.84467
玊	-9.84469
跨	-9.84472
語意	-9.84473
揖	-9.84475
公主	-9.84483
勁	-9.84487
肇	-9.84508
縷	-9.84623
臨川	-9.84839
䨇	-9.84956
遼	-9.84993
乏	-9.85001
黍	-9.85045
此事	-9.85421
事也	-9.85484
礙	-9.85491
額	-9.85512
盟	-9.85515
戈	-9.85531
矯	-9.85532
躬	-9.85538
透	-9.85556
天涯	-9.85867
山人	-9.85923
台	-9.85952
茫	-9.85963
搖	-9.85997
逝	-9.86
黎	-9.86001
摭	-9.86016
草木	-9.86019
黑	-9.86039
此句	-9.86041
旬	-9.8605
討	-9.86051
産	-9.8608
門下	-9.86246
嘗作	-9.86339
仙人	-9.86344
煎	-9.86586
少游	-9.86622
四方	-9.86639
一百	-9.86639
昨夜	-9.86736
文忠	-9.86793
八年	-9.86795
前人	-9.86971
砌	-9.86981
覓	-9.86995
薪	-9.87005
詩中	-9.87014
以下	-9.87014
梧	-9.87017
札	-9.87019
輙	-9.87046
僕射	-9.87074
咽	-9.87075
足以	-9.87127
李義山	-9.87259
造化	-9.87274
蘇州	-9.87301
名曰	-9.8751
鵠	-9.87518
靣	-9.87539
汀	-9.87552
廵	-9.87572
派	-9.87593
无	-9.87606
㝷	-9.87609
俟	-9.87634
窟	-9.87634
揚雄	-9.87699
上下	-9.87723
左傳	-9.87819
副	-9.87972
從來	-9.87973
嬾	-9.88021
瀛	-9.88025
崩	-9.88036
洞霄	-9.88053
歛	-9.88068
冝	-9.88078
鑒	-9.88084
衣冠	-9.88095
毁	-9.88095
羲	-9.88123
山谷云	-9.88169
滄海	-9.88173
艾	-9.88191
徃徃	-9.882
韓愈	-9.88346
功名	-9.88376
觀其	-9.88596
混	-9.88597
欠	-9.88619
斥	-9.88623
淑	-9.88637
驗	-9.88646
宫中	-9.88678
與之	-9.88758
其家	-9.88773
此時	-9.88885
如是	-9.88984
狐	-9.88999
無限	-9.89055
諸侯	-9.89075
作也	-9.8908
縈	-9.89083
般	-9.891
由是	-9.89102
滔	-9.89121
伸	-9.89122
青青	-9.89128
㦸	-9.89134
沾	-9.89138
惑	-9.89154
確	-9.89158
崑	-9.89173
之詞	-9.89406
不應	-9.89452
黄昏	-9.89492
秀才	-9.89581
柄	-9.89604
南唐	-9.89609
多矣	-9.89612
柏	-9.89615
張籍	-9.89622
稷	-9.89647
掖	-9.89653
曲江	-9.89654
杜鵑	-9.89673
三十六	-9.897
陛下	-9.89738
正月	-9.89839
二十年	-9.89862
公之	-9.89884
蔣	-9.90095
詰	-9.90171
鸚鵡	-9.90182
弊	-9.90185
薨	-9.9021
苗	-9.90213
丸	-9.90215
渉	-9.90234
謔	-9.9024
待制	-9.90295
墓誌	-9.90383
有云	-9.90392
刺史	-9.90447
諸人	-9.90455
豈非	-9.90657
儲	-9.90663
諭	-9.90687
堦	-9.90721
拱	-9.90736
駿	-9.90743
䟦	-9.90747
賴	-9.90757
春草	-9.9083
不到	-9.90883
半夜	-9.90943
盡日	-9.91009
一生	-9.91046
豔	-9.91212
架	-9.91251
亥	-9.91328
京兆	-9.91331
併	-9.91358
㢤	-9.91368
離騷	-9.91407
之說	-9.91419
杜牧之	-9.91681
逃	-9.91762
傳云	-9.91769
兆	-9.91788
基	-9.91789
懶	-9.91796
裳	-9.91799
驕	-9.91803
九月	-9.91806
蕙	-9.91807
珊瑚	-9.9182
恵	-9.91844
誣	-9.91852
胥	-9.91856
悦	-9.9187
醫	-9.9189
蘆	-9.92067
則知	-9.92107
叠	-9.92297
叩	-9.92329
疇	-9.92334
濵	-9.92352
槎	-9.92379
不知何	-9.9245
雖有	-9.92479
天台	-9.92588
之辭	-9.92591
年少	-9.9261
山色	-9.92653
六月	-9.92703
風雅	-9.92732
枉	-9.92849
囬	-9.92859
竄	-9.92888
所得	-9.93077
樓臺	-9.93137
相對	-9.93167
介甫	-9.93205
博士	-9.9325
杜牧	-9.9331
對曰	-9.93312
寕	-9.93392
鋒	-9.934
漲	-9.93416
督	-9.93437
鷄	-9.93439
椒	-9.93446
奮	-9.93478
膚	-9.93484
姜	-9.93486
秋月	-9.93511
出門	-9.9353
夜深	-9.93677
林下	-9.93765
梳	-9.93894
鎻	-9.9395
湛	-9.93974
姦	-9.93986
去年	-9.9399
栗	-9.94001
匠	-9.9401
庵	-9.94027
狼	-9.94036
題云	-9.9448
模	-9.94556
鼔	-9.94558
什	-9.9456
牢	-9.94568
壘	-9.94577
稱其	-9.94581
見於	-9.94739
二年進士	-9.94879
蘂	-9.94926
太史	-9.94966
岩	-9.95087
悽	-9.95091
叅	-9.95122
謡	-9.95142
之妙	-9.95146
杏花	-9.95154
十月	-9.95161
縱横	-9.95203
為人	-9.95224
數百	-9.95271
王建	-9.95503
簮	-9.95617
駭	-9.95639
輟	-9.95643
啄	-9.95644
何足	-9.95654
芒	-9.95697
蟻	-9.95711
篤	-9.95734
緒	-9.95742
突	-9.95762
可喜	-9.95785
精神	-9.95789
孔子	-9.95948
鬼神	-9.96033
迥	-9.96156
艱	-9.96173
炙	-9.96201
享	-9.96232
浣	-9.96233
茗	-9.96239
梓	-9.9625
魁	-9.96254
雌	-9.96261
毒	-9.96267
䘮	-9.96284
艷	-9.96325
壻	-9.96339
歷	-9.96725
滯	-9.96783
覔	-9.9679
娟	-9.96791
醜	-9.9683
咎	-9.96858
朕	-9.96865
淫	-9.96867
瀟	-9.97303
電	-9.97313
溫	-9.97317
斬	-9.97365
麓	-9.97365
陂	-9.97367
肝	-9.97371
蘚	-9.97371
摹	-9.97379
婢	-9.97379
斤	-9.97414
拳	-9.97415
盜	-9.9744
纂	-9.97451
荘	-9.97555
逈	-9.97943
鳬	-9.97945
榆	-9.97951
倍	-9.97953
谿	-9.97955
甕	-9.9796
誄	-9.97965
琢	-9.97966
倡	-9.98443
嵐	-9.98447
灼	-9.98541
虜	-9.98541
恠	-9.98542
淪	-9.98565
鍊	-9.98605
扈	-9.98974
昆	-9.99063
㟁	-9.99099
橫	-9.9911
衾	-9.99125
協	-9.99147
鬟	-9.99665
癸	-9.99667
羈	-9.99675
亟	-9.99685
帷	-9.99708
創	-9.99713
革	-9.99719
滕	-9.99722
括	-9.99729
謗	-9.99786
秘	-10
毬	-10.0019
朶	-10.0021
莽	-10.0024
梵	-10.0024
収	-10.0025
衞	-10.0027
祈	-10.0029
閤	-10.0031
綬	-10.0031
諺	-10.0035
粗	-10.0036
芽	-10.0036
捧	-10.0084
甌	-10.0086
酷	-10.0087
郵	-10.0088
詎	-10.0088
秩	-10.0088
逾	-10.0089
測	-10.0091
遐	-10.0139
闢	-10.0144
㡌	-10.0145
濫	-10.0146
儉	-10.0147
蘋	-10.0148
螢	-10.0152
亷	-10.0199
旨	-10.0204
詹	-10.0205
冦	-10.0206
専	-10.0217
舂	-10.026
眺	-10.0263
裝	-10.0264
畵	-10.0264
綽	-10.0266
眷	-10.0267
髯	-10.0267
詢	-10.0268
昉	-10.0269
煮	-10.0269
溢	-10.0271
踐	-10.0275
蛟	-10.0314
髻	-10.032
艇	-10.0323
裹	-10.0324
盆	-10.0328
陜	-10.0329
恥	-10.0329
恰	-10.0385
俚	-10.0385
欵	-10.0391
箕	-10.0391
莖	-10.0391
呌	-10.0392
朗	-10.0392
庫	-10.0394
冶	-10.0398
㠶	-10.0443
萍	-10.0445
旱	-10.0455
兎	-10.0458
恃	-10.0505
冲	-10.0508
鵝	-10.0511
匪	-10.0512
霖	-10.0514
紋	-10.0514
碣	-10.0516
黯	-10.0517
俾	-10.0521
腐	-10.0522
欣	-10.0557
怯	-10.0566
嶂	-10.057
褐	-10.0571
猷	-10.0572
㓜	-10.0575
仇	-10.0576
闈	-10.0578
蜜	-10.0586
拗	-10.0614
蔓	-10.063
犢	-10.0633
逕	-10.0633
偕	-10.0634
霍	-10.0637
繪	-10.064
呂	-10.0643
濛	-10.0693
鄒	-10.0696
沿	-10.0698
沼	-10.0698
様	-10.0701
簟	-10.0705
衙	-10.0705
藴	-10.0708
婆	-10.0752
琳	-10.0755
函	-10.0757
抽	-10.0759
蠟	-10.076
凋	-10.0761
纓	-10.0763
斛	-10.0765
究	-10.0767
洎	-10.0815
轡	-10.0822
鸖	-10.0822
屐	-10.0824
鵬	-10.0825
岫	-10.0826
棟	-10.0827
奕	-10.0828
夭	-10.083
姪	-10.0831
猨	-10.0879
畝	-10.0885
滌	-10.0886
駒	-10.0886
絡	-10.0888
屑	-10.0889
驥	-10.0889
灣	-10.089
韵	-10.0891
帽	-10.0892
汾	-10.0894
郤	-10.0947
巒	-10.0948
閻	-10.0948
顏	-10.0951
演	-10.0954
膽	-10.0955
膺	-10.0955
笠	-10.0961
遁	-10.0964
蜨	-10.1007
蹇	-10.1013
秪	-10.1016
壤	-10.1018
倩	-10.1018
鑾	-10.1019
翫	-10.102
竭	-10.1023
恣	-10.1023
痩	-10.1023
捷	-10.1026
冕	-10.1026
歐	-10.1055
逮	-10.1056
瑤	-10.1074
慵	-10.1077
裡	-10.1082
忩	-10.1087
馭	-10.1089
捕	-10.1093
溝	-10.1142
聳	-10.1145
漆	-10.1148
牕	-10.1149
峨	-10.115
屠	-10.1151
劔	-10.1154
截	-10.1154
𨽻	-10.1156
藁	-10.116
鼇	-10.1214
倅	-10.1215
尼	-10.1216
覧	-10.1221
昨	-10.1231
膝	-10.1277
貯	-10.1279
簪	-10.1279
績	-10.1283
䜟	-10.1285
洽	-10.1287
㕔	-10.1288
减	-10.1288
脉	-10.1289
毋	-10.1294
瑣	-10.1338
牓	-10.1346
沖	-10.1347
挺	-10.1347
慢	-10.1348
梯	-10.1348
忤	-10.1349
頼	-10.1351
衲	-10.1351
壊	-10.1353
閬	-10.1354
戊	-10.1356
滄	-10.1402
邕	-10.1414
嘶	-10.1418
嫩	-10.1419
悠	-10.1419
汚	-10.142
欹	-10.1421
沐	-10.1425
勃	-10.1427
叶	-10.1427
繆	-10.143
粹	-10.144
邸	-10.1483
厨	-10.1483
舅	-10.1484
匡	-10.1489
苐	-10.1489
偈	-10.1492
罕	-10.1492
店	-10.1552
億	-10.1555
黔	-10.1557
㝠	-10.1558
蹟	-10.1559
導	-10.1559
帯	-10.1562
兔	-10.1619
絹	-10.162
增	-10.162
澁	-10.162
措	-10.1623
祜	-10.1624
壬	-10.1626
驟	-10.163
纒	-10.1631
凛	-10.1632
鳩	-10.1632
侈	-10.1636
減	-10.1663
埃	-10.168
秖	-10.1686
雋	-10.169
磯	-10.1695
挑	-10.1695
煖	-10.1698
蹙	-10.1698
訴	-10.1699
剡	-10.1758
完	-10.176
訝	-10.1763
吁	-10.1763
悼	-10.1764
雛	-10.1765
禦	-10.1766
薰	-10.1767
鯉	-10.1769
汎	-10.177
篋	-10.1829
邈	-10.183
綜	-10.183
隙	-10.1832
睿	-10.1832
媒	-10.1832
赫	-10.1835
㧞	-10.1838
握	-10.1839
肖	-10.1898
疲	-10.1902
抗	-10.1906
詭	-10.1908
漿	-10.1909
做	-10.1914
翳	-10.1954
伎	-10.1968
逄	-10.1969
侣	-10.197
数	-10.1974
薫	-10.1974
寰	-10.1976
状	-10.1978
洋	-10.1979
遯	-10.1979
昧	-10.198
牒	-10.1981
粒	-10.1988
胸	-10.2037
恕	-10.2045
𬒳	-10.2045
陟	-10.2046
砧	-10.2046
慧	-10.2046
湧	-10.2047
綉	-10.2048
軟	-10.2048
頰	-10.2049
轂	-10.205
冀	-10.2051
潞	-10.2052
捐	-10.2054
凢	-10.2115
妝	-10.2116
綃	-10.2117
郢	-10.2118
贍	-10.2119
赦	-10.2125
迫	-10.2127
膠	-10.2128
繇	-10.213
巫	-10.2151
庠	-10.2186
祿	-10.2188
儼	-10.2189
瘴	-10.2191
耿	-10.2192
版	-10.2192
郁	-10.2194
撲	-10.2199
釀	-10.22
稚	-10.2235
萊	-10.2235
竈	-10.2261
丑	-10.2266
謠	-10.2267
誚	-10.2271
批	-10.2273
俠	-10.2273
蔚	-10.2275
暝	-10.2334
插	-10.2336
拆	-10.2336
填	-10.2337
浄	-10.2339
疆	-10.2342
酉	-10.2343
蹄	-10.2396
嵓	-10.24
馨	-10.2404
鬭	-10.2405
匣	-10.2408
溼	-10.2408
漾	-10.2413
麈	-10.2415
喫	-10.2418
聰	-10.2424
穀	-10.2426
線	-10.2428
粘	-10.2481
摶	-10.2486
羨	-10.2492
濺	-10.2493
讒	-10.2493
嬰	-10.2496
煥	-10.2562
拈	-10.2567
胎	-10.2567
軀	-10.2568
䕃	-10.2568
罵	-10.2568
逋	-10.2571
轍	-10.2571
鈿	-10.2636
鞏	-10.2638
斾	-10.2638
攝	-10.2641
臧	-10.2643
榭	-10.2643
黜	-10.2644
娛	-10.2644
貂	-10.2646
裔	-10.2647
育	-10.2655
斂	-10.2717
渙	-10.2719
裊	-10.2721
尸	-10.2721
蓑	-10.2723
鏤	-10.2727
腥	-10.2788
凭	-10.279
狎	-10.2795
坦	-10.2798
決	-10.2799
笳	-10.2801
矢	-10.2804
蟹	-10.2804
洒	-10.2804
狗	-10.2804
蓄	-10.2808
蠅	-10.2811
稾	-10.2861
稜	-10.2864
瓠	-10.2869
菱	-10.287
䄂	-10.2871
擔	-10.2871
抹	-10.2871
瓢	-10.2877
飬	-10.2878
駱	-10.2878
溜	-10.2879
嚼	-10.2885
梨	-10.2923
溺	-10.295
頑	-10.295
愴	-10.2952
紆	-10.2953
㱕	-10.2954
耒	-10.2956
掉	-10.2956
箱	-10.2956
幃	-10.2958
普	-10.2959
聘	-10.2959
鐡	-10.296
尔	-10.296
抄	-10.2962
棗	-10.2972
幻	-10.3026
咄	-10.3026
鼠	-10.3028
璣	-10.3028
惱	-10.3031
屨	-10.3031
䟽	-10.3035
刪	-10.3037
胄	-10.3041
􁀙	-10.3048
淸	-10.3106
揷	-10.3108
涓	-10.3113
蓴	-10.3114
緘	-10.3115
餐	-10.3117
莘	-10.3121
臉	-10.3189
漳	-10.319
羌	-10.3193
氛	-10.3194
財	-10.3195
駢	-10.3195
蛙	-10.3195
恍	-10.3195
豁	-10.3196
矩	-10.3197
蹈	-10.3197
碩	-10.3198
課	-10.3199
叛	-10.32
囚	-10.3205
悵	-10.3261
瀾	-10.3269
翺	-10.3275
頽	-10.3275
穎	-10.3276
奥	-10.3277
鐫	-10.3278
趂	-10.3278
鄂	-10.3279
盞	-10.328
斟	-10.3352
纖	-10.3353
闋	-10.3353
籌	-10.3356
芸	-10.3357
嘏	-10.3357
讌	-10.3359
嗔	-10.336
闔	-10.336
鴛	-10.3362
邇	-10.3364
蔬	-10.3364
庻	-10.3365
冊	-10.3373
員	-10.3435
蛾	-10.3437
戌	-10.3438
泗	-10.3439
慨	-10.3441
巍	-10.3441
偓	-10.3442
隐	-10.3443
緋	-10.3445
組	-10.3447
籟	-10.3511
豫	-10.3516
咨	-10.3517
袂	-10.3518
隄	-10.3522
昂	-10.3524
翟	-10.3525
護	-10.3525
盗	-10.3527
瑕	-10.3527
懽	-10.3527
卽	-10.3527
脈	-10.36
炳	-10.3602
漕	-10.3604
惹	-10.3606
骸	-10.3606
羸	-10.3608
沛	-10.3608
航	-10.3609
翹	-10.3609
鎭	-10.3609
曜	-10.361
己	-10.361
聼	-10.3611
祇	-10.3613
冢	-10.3685
軾	-10.3689
迂	-10.3692
翦	-10.3694
霸	-10.3694
峩	-10.3695
窘	-10.3698
縮	-10.37
笋	-10.3701
巵	-10.3776
涇	-10.3777
鈔	-10.3778
儻	-10.3779
祁	-10.3779
灌	-10.3781
貨	-10.3782
墟	-10.3783
磊	-10.3784
稼	-10.3853
鉛	-10.3855
嶼	-10.3858
鈴	-10.386
僖	-10.3861
麝	-10.3861
噐	-10.3862
鉉	-10.3864
牖	-10.3865
杞	-10.3866
穏	-10.3867
析	-10.387
蝦	-10.3872
鞠	-10.3943
噪	-10.3948
擕	-10.3949
夙	-10.395
貼	-10.3951
昬	-10.3952
敘	-10.3953
伍	-10.3953
伶	-10.3955
複	-10.3955
琯	-10.3957
幢	-10.3958
腴	-10.3965
它	-10.3965
悄	-10.4026
躋	-10.4033
鉢	-10.4035
荔	-10.4036
簇	-10.4037
頤	-10.4038
鬻	-10.4039
油	-10.4039
輯	-10.4042
顆	-10.4043
棋	-10.4045
窻	-10.4046
騁	-10.4047
涪	-10.4048
鏗	-10.4119
囀	-10.4121
絕	-10.4122
鶻	-10.4128
悅	-10.4128
溟	-10.4128
璘	-10.413
泪	-10.4132
畦	-10.4132
奠	-10.4134
諒	-10.4212
跳	-10.4213
醪	-10.4215
苖	-10.4216
恱	-10.4217
怡	-10.4218
繭	-10.4218
禱	-10.4219
椀	-10.422
妨	-10.4222
頸	-10.4223
婚	-10.4226
从	-10.4232
断	-10.4299
躡	-10.4302
遒	-10.4303
彫	-10.4303
閙	-10.4304
忝	-10.4305
頷	-10.431
餌	-10.4312
謳	-10.4315
柘	-10.4317
塢	-10.4395
隊	-10.4395
針	-10.4396
訖	-10.4397
沃	-10.4397
芬	-10.44
榴	-10.4401
悶	-10.4401
僊	-10.4401
儂	-10.4402
醇	-10.4402
轅	-10.4402
篷	-10.448
辦	-10.4485
虬	-10.4485
捫	-10.4486
衘	-10.4486
彚	-10.4487
峴	-10.4488
些	-10.4488
爰	-10.4489
妹	-10.449
蠡	-10.4491
慿	-10.4492
彰	-10.4492
挈	-10.4492
狄	-10.4493
邢	-10.4495
蟄	-10.4497
彪	-10.4575
穹	-10.4579
佇	-10.458
漂	-10.4583
榛	-10.4583
概	-10.4583
陷	-10.4584
珮	-10.4585
藹	-10.4585
霓	-10.4587
倣	-10.4588
畜	-10.4589
𥙷	-10.459
噴	-10.4667
窄	-10.4668
藕	-10.4669
柰	-10.4671
潼	-10.4673
孚	-10.4674
仞	-10.4674
弃	-10.4675
夸	-10.4675
睨	-10.4676
技	-10.4678
龎	-10.4683
畨	-10.4684
爪	-10.4685
詆	-10.4687
煉	-10.4762
瓌	-10.4764
漠	-10.4765
倪	-10.4765
誼	-10.4767
劾	-10.4771
稿	-10.4772
蒿	-10.4773
貝	-10.4774
惻	-10.4775
肺	-10.4779
構	-10.4861
寮	-10.4863
晞	-10.4864
係	-10.4864
覊	-10.4864
恒	-10.4864
瞿	-10.4867
葩	-10.4872
旄	-10.4874
哦	-10.4955
杵	-10.4957
翅	-10.4962
拭	-10.4964
替	-10.4964
壮	-10.4969
佞	-10.497
靑	-10.5043
葦	-10.5048
敞	-10.5049
萋	-10.5051
櫓	-10.5052
尖	-10.5053
沸	-10.5055
嬉	-10.5056
駟	-10.5057
颯	-10.5057
訣	-10.5059
鵞	-10.5059
阜	-10.5062
冨	-10.5065
糧	-10.5066
巔	-10.515
涙	-10.5152
湍	-10.5152
肱	-10.5154
掾	-10.5155
蹕	-10.5156
譚	-10.5157
奢	-10.5161
笻	-10.5244
龔	-10.5249
𣺌	-10.5253
驂	-10.5254
縑	-10.5254
掲	-10.5255
誨	-10.5259
貎	-10.5259
叱	-10.5261
災	-10.5265
廓	-10.5349
邠	-10.5352
臆	-10.5353
亨	-10.5353
楷	-10.5354
訟	-10.5357
拄	-10.5357
睦	-10.5357
楸	-10.537
駁	-10.5372
氊	-10.5452
堵	-10.5452
液	-10.5452
俸	-10.5454
儔	-10.5456
澆	-10.5457
髭	-10.5458
廖	-10.5461
隻	-10.5462
疵	-10.5463
距	-10.5463
兀	-10.5464
乂	-10.5464
穠	-10.5556
蔵	-10.5556
廉	-10.5557
画	-10.5557
慣	-10.5559
忿	-10.556
恬	-10.556
嶸	-10.5561
侮	-10.5564
喉	-10.5566
炭	-10.5567
敝	-10.5568
岀	-10.5651
瀑	-10.5652
愜	-10.5656
熏	-10.5657
馴	-10.5658
飜	-10.5659
韜	-10.5662
凖	-10.5664
掠	-10.5665
膩	-10.5665
拒	-10.5667
纍	-10.5667
殁	-10.5667
軻	-10.567
槃	-10.5674
謚	-10.5677
篁	-10.5756
餳	-10.5759
祚	-10.5763
陀	-10.5765
𥿄	-10.5766
勾	-10.5767
敕	-10.5768
梭	-10.5768
湜	-10.5768
贄	-10.5768
岷	-10.5769
剥	-10.577
緇	-10.577
凶	-10.577
扣	-10.5771
藜	-10.5774
驪	-10.5808
鴟	-10.5859
墅	-10.586
腳	-10.586
□	-10.586
渥	-10.5865
暈	-10.5867
煜	-10.5868
邱	-10.5868
牘	-10.587
楫	-10.5871
娯	-10.5872
寇	-10.5872
穩	-10.5874
佑	-10.5877
股	-10.588
耐	-10.5884
胷	-10.5929
夔	-10.5971
蝸	-10.5973
控	-10.5974
筝	-10.5975
縫	-10.5975
烽	-10.5975
㓕	-10.5976
呵	-10.5976
憎	-10.5979
鸎	-10.598
遞	-10.598
恢	-10.5983
譙	-10.5984
荻	-10.5989
鋤	-10.5989
榕	-10.5994
暄	-10.6078
裾	-10.6081
憚	-10.6085
迄	-10.6086
粱	-10.6086
虧	-10.6087
䴡	-10.6088
戮	-10.6091
棺	-10.6092
狩	-10.6099
禧	-10.6186
婺	-10.6186
穢	-10.6193
廸	-10.6195
暦	-10.6195
掘	-10.6196
濡	-10.6196
琰	-10.6198
舸	-10.6198
鞋	-10.62
悮	-10.6203
焙	-10.6217
杉	-10.6287
夘	-10.6294
膾	-10.6296
髓	-10.6301
槁	-10.6302
賡	-10.6303
㕘	-10.6306
楹	-10.6307
挹	-10.6308
渇	-10.631
冒	-10.6314
奎	-10.6407
撼	-10.6409
彤	-10.6411
諤	-10.6411
粥	-10.6414
卦	-10.6416
璫	-10.6417
稗	-10.6418
噫	-10.642
𣣔	-10.642
寃	-10.642
罰	-10.642
攸	-10.6424
諾	-10.643
猪	-10.6433
瓜	-10.6517
臠	-10.6519
檣	-10.6521
潄	-10.6522
坤	-10.6522
瞰	-10.6524
螭	-10.6526
萌	-10.6527
渴	-10.6528
颺	-10.653
勅	-10.653
勑	-10.6534
牟	-10.6629
縉	-10.6634
繹	-10.6635
㾗	-10.6638
义	-10.6638
麴	-10.6638
薜	-10.6638
熒	-10.6639
㶚	-10.6639
囂	-10.664
炊	-10.6641
壞	-10.6641
沮	-10.6641
饌	-10.6642
跪	-10.6648
滛	-10.6649
莎	-10.6654
鶚	-10.6743
翃	-10.6747
曷	-10.6747
漪	-10.6747
幄	-10.6748
擎	-10.6751
昊	-10.6754
軌	-10.6754
夲	-10.6755
両	-10.6756
嗚	-10.6758
狹	-10.6759
眸	-10.6759
郴	-10.6759
畆	-10.6759
菰	-10.6759
揆	-10.6764
顥	-10.6857
灮	-10.6862
刹	-10.6865
攬	-10.6866
該	-10.6867
碁	-10.6871
笏	-10.6873
掇	-10.6874
準	-10.6875
售	-10.6879
萹	-10.6881
荼	-10.6881
剌	-10.6897
趁	-10.6975
膳	-10.6982
曵	-10.6983
粤	-10.6987
餓	-10.6988
麋	-10.6989
迅	-10.699
斫	-10.6991
租	-10.6991
刼	-10.6992
筯	-10.6993
翩	-10.6993
猜	-10.6994
禎	-10.6995
隗	-10.6997
蚊	-10.7001
参	-10.7096
稅	-10.7098
綘	-10.7101
杪	-10.7103
浚	-10.7103
豕	-10.7105
琅	-10.7106
効	-10.7106
沆	-10.7106
熖	-10.7107
紈	-10.7108
刃	-10.7108
螺	-10.7108
鬂	-10.7109
餉	-10.7109
芻	-10.7109
騫	-10.7109
蓼	-10.711
皺	-10.7112
槽	-10.7113
琪	-10.7117
芊	-10.7219
戢	-10.7226
曩	-10.7227
凱	-10.7227
芲	-10.7228
算	-10.7228
勻	-10.723
筋	-10.7232
卯	-10.7233
眇	-10.7238
剰	-10.7238
筒	-10.7339
藪	-10.734
税	-10.7341
巗	-10.7344
啇	-10.7344
翊	-10.7346
幡	-10.7349
鎔	-10.7349
芋	-10.735
翮	-10.735
蠧	-10.735
匿	-10.7353
奬	-10.7355
綯	-10.7356
卞	-10.7357
厓	-10.7359
盼	-10.7464
鑰	-10.7468
曇	-10.747
銖	-10.7473
滁	-10.7474
窠	-10.7475
恤	-10.7476
璋	-10.7476
揭	-10.7476
嗤	-10.7478
莭	-10.7481
惇	-10.7481
脣	-10.7482
弁	-10.7483
莱	-10.7595
鏘	-10.7596
泠	-10.7596
醖	-10.7596
擺	-10.7597
騶	-10.7598
鐸	-10.7598
暁	-10.7598
彎	-10.7598
椽	-10.7599
竦	-10.7599
儷	-10.7599
覲	-10.76
蕉	-10.7601
伺	-10.7602
霏	-10.7602
渝	-10.7604
啜	-10.7605
捉	-10.7607
迨	-10.7607
塜	-10.7611
筭	-10.7618
溥	-10.7712
翎	-10.7715
瀉	-10.7716
櫂	-10.7717
漣	-10.772
煑	-10.7722
唾	-10.7722
遨	-10.7723
擘	-10.7724
萼	-10.7724
昱	-10.7725
吸	-10.7725
歙	-10.7726
撚	-10.7727
勘	-10.7728
帙	-10.7728
趾	-10.7728
腦	-10.7729
臻	-10.7732
辜	-10.7732
蹊	-10.7732
敖	-10.7733
贖	-10.7734
葱	-10.7735
沽	-10.7833
潺	-10.7848
寤	-10.7852
諳	-10.7852
妥	-10.7853
璠	-10.7853
甥	-10.7854
薇	-10.7854
忻	-10.7854
耘	-10.7854
鵶	-10.7854
戱	-10.7855
頋	-10.7855
弇	-10.7856
徂	-10.786
廹	-10.7863
莆	-10.7975
酥	-10.7978
俎	-10.7979
嵇	-10.798
搔	-10.7982
奄	-10.7983
奩	-10.7983
卉	-10.7983
踵	-10.7983
默	-10.7983
贏	-10.7984
賖	-10.7984
擒	-10.7986
趺	-10.7987
鳶	-10.7989
袴	-10.7991
○	-10.8101
猫	-10.8102
扃	-10.8104
秧	-10.8106
姊	-10.811
庇	-10.8111
垢	-10.8111
摽	-10.8112
隘	-10.8113
勵	-10.8113
誡	-10.8114
奸	-10.8114
䧟	-10.8115
霆	-10.8115
覇	-10.8115
丐	-10.8115
関	-10.8116
箔	-10.8116
苞	-10.8119
闥	-10.8119
虢	-10.812
樣	-10.8121
俳	-10.8122
搏	-10.8123
廼	-10.8123
妬	-10.8126
卵	-10.8127
牡	-10.8131
㝛	-10.8232
埽	-10.8233
魴	-10.8235
逵	-10.8238
迺	-10.8241
扁	-10.8242
㵎	-10.8244
劣	-10.8245
蔗	-10.8246
闘	-10.8247
寘	-10.8248
銓	-10.8249
譎	-10.8252
旃	-10.8252
軫	-10.8253
諛	-10.8253
鈍	-10.8254
訊	-10.8254
飱	-10.8254
瑜	-10.8256
掬	-10.8257
罔	-10.8262
蕋	-10.8263
鄕	-10.8365
央	-10.8371
茘	-10.8372
迢	-10.8378
馥	-10.8378
㳂	-10.8381
涎	-10.8383
拖	-10.8383
款	-10.8385
册	-10.8386
綾	-10.8386
僮	-10.8388
暨	-10.8389
芰	-10.8391
曼	-10.8391
潦	-10.8395
塩	-10.8401
顰	-10.8515
臭	-10.8517
葭	-10.8518
疋	-10.8518
閔	-10.8519
璟	-10.852
唇	-10.8521
圎	-10.8522
蕨	-10.8522
昶	-10.8522
蝕	-10.8522
癖	-10.8523
璞	-10.8525
迭	-10.8526
倖	-10.8526
净	-10.8526
逞	-10.8527
鎬	-10.8529
斵	-10.8537
鵰	-10.8643
憩	-10.8651
詐	-10.8652
磴	-10.8656
翛	-10.8658
樸	-10.8658
膓	-10.8658
褰	-10.8659
笥	-10.866
衷	-10.8661
嬪	-10.8662
拯	-10.8662
巽	-10.8662
汙	-10.8662
秃	-10.8663
徤	-10.8665
殯	-10.8667
証	-10.8672
諶	-10.8702
澈	-10.8789
侔	-10.8793
逓	-10.8797
牌	-10.8797
哥	-10.8798
伽	-10.8799
濱	-10.88
朅	-10.8801
鼉	-10.8801
偁	-10.8803
緻	-10.8804
現	-10.8805
嬴	-10.8806
倘	-10.8807
萃	-10.8815
閏	-10.8916
肎	-10.8936
姥	-10.8938
姻	-10.894
壠	-10.8941
覃	-10.8943
讐	-10.8943
鉅	-10.8945
撞	-10.8945
萄	-10.8945
杲	-10.8946
鋭	-10.8947
罘	-10.8949
蕖	-10.8949
矛	-10.8949
祔	-10.8959
嫗	-10.9074
鳧	-10.9077
䡖	-10.9077
皂	-10.9077
娑	-10.908
頒	-10.9085
罍	-10.9086
籃	-10.9086
梗	-10.9087
躁	-10.9087
蛛	-10.9088
坎	-10.9089
驄	-10.9089
饗	-10.909
舛	-10.9091
愍	-10.9091
甜	-10.9093
戾	-10.9095
頎	-10.9096
肘	-10.9096
杷	-10.9097
鬛	-10.9101
碌	-10.9105
陛	-10.9217
牎	-10.9217
悪	-10.9225
䆫	-10.9228
葺	-10.9231
叨	-10.9232
㕠	-10.9232
晶	-10.9233
竅	-10.9234
彊	-10.9235
瘡	-10.9235
龕	-10.9235
磔	-10.9236
虐	-10.9236
倐	-10.9237
璩	-10.9238
襪	-10.924
憫	-10.924
頡	-10.924
屍	-10.924
搆	-10.9241
燎	-10.9241
硬	-10.9241
縦	-10.9241
核	-10.9242
麤	-10.9243
縛	-10.9244
佚	-10.9245
炬	-10.9376
燃	-10.9377
觚	-10.9378
盂	-10.9379
毘	-10.9381
柑	-10.9382
旭	-10.9383
俛	-10.9384
腕	-10.9385
蚤	-10.9387
庖	-10.9389
弩	-10.9389
紱	-10.939
蕚	-10.9391
釐	-10.9392
剖	-10.9396
畿	-10.9527
摇	-10.953
縟	-10.9534
礪	-10.9535
驤	-10.9537
臼	-10.9537
搗	-10.9537
匝	-10.9537
讎	-10.9537
匆	-10.9537
濠	-10.9538
騐	-10.9538
詮	-10.9539
賁	-10.954
洩	-10.9541
猴	-10.9542
隕	-10.9545
萱	-10.9555
槀	-10.9678
厄	-10.9679
茵	-10.9681
叫	-10.9682
杼	-10.9682
亳	-10.9685
苕	-10.9685
砂	-10.9686
儘	-10.9688
哺	-10.9688
屹	-10.9689
榔	-10.9689
靚	-10.9689
璉	-10.9692
飈	-10.9692
吼	-10.9698
贅	-10.9698
炯	-10.9698
縠	-10.9838
踞	-10.984
耽	-10.9841
鱸	-10.9842
吻	-10.9842
貸	-10.9844
㤗	-10.9847
啾	-10.9848
滂	-10.985
礫	-10.9852
趍	-10.9852
糟	-10.9854
㓂	-10.9857
這	-10.9858
梦	-10.986
銳	-10.9863
訕	-10.9866
篙	-10.9996
薊	-10.9996
掣	-10.9996
畋	-10.9999
紵	-10.9999
淄	-10.9999
檝	-11
旒	-11.0001
巘	-11.0002
償	-11.0004
芥	-11.0004
貟	-11.0005
愼	-11.0005
緱	-11.0007
勰	-11.0007
橈	-11.0008
醴	-11.0008
魅	-11.0009
恊	-11.001
隸	-11.0013
釘	-11.0018
曝	-11.0019
琨	-11.0023
翥	-11.0155
瀝	-11.016
瀆	-11.0162
怜	-11.0162
冤	-11.0162
孜	-11.0162
称	-11.0163
㨗	-11.0165
毗	-11.0165
牲	-11.0165
貔	-11.0165
頥	-11.0169
冗	-11.017
厦	-11.017
歆	-11.017
吃	-11.0171
鬰	-11.0171
攘	-11.0171
寔	-11.0183
鑠	-11.0187
貺	-11.0314
唳	-11.0317
綰	-11.032
蛻	-11.0322
苓	-11.0325
慟	-11.0326
羇	-11.0326
鉏	-11.0328
坑	-11.0328
薤	-11.0329
襦	-11.033
㽞	-11.0331
迪	-11.0331
廡	-11.0332
猗	-11.0333
儋	-11.0333
堕	-11.0334
址	-11.0335
讚	-11.0335
憾	-11.0336
鼈	-11.0336
灔	-11.0336
誘	-11.0337
貳	-11.0337
鹵	-11.0338
麄	-11.034
鷁	-11.035
声	-11.0483
棧	-11.0488
泳	-11.049
峙	-11.0493
体	-11.0494
侃	-11.0496
耻	-11.0496
濬	-11.0496
霅	-11.0497
愕	-11.0498
曦	-11.0501
鑚	-11.0501
恙	-11.0502
拊	-11.0502
渤	-11.0506
薑	-11.0509
蘄	-11.0513
駸	-11.0655
蔟	-11.0657
峒	-11.0657
脊	-11.0661
賸	-11.0662
閫	-11.0664
繋	-11.0664
辞	-11.0665
亶	-11.0666
兢	-11.0666
瞑	-11.0668
亢	-11.0668
罨	-11.0669
棃	-11.0669
槿	-11.0671
覈	-11.0672
仔	-11.0672
盍	-11.0673
缸	-11.0676
姝	-11.0676
簧	-11.0678
禊	-11.0826
淩	-11.0827
弋	-11.0828
愿	-11.0829
輈	-11.0831
喙	-11.0832
礬	-11.0832
逗	-11.0833
潑	-11.0834
摸	-11.0835
剝	-11.0835
舫	-11.0837
岱	-11.0838
阡	-11.0839
聾	-11.084
幙	-11.084
俶	-11.084
鶩	-11.0841
沫	-11.0841
殻	-11.0841
漬	-11.0842
拓	-11.0843
僑	-11.0843
串	-11.0845
濮	-11.0846
鱠	-11.0855
鄞	-11.1001
迸	-11.1004
幣	-11.1006
洙	-11.1006
崕	-11.1007
黼	-11.1007
稠	-11.1008
薺	-11.1009
沂	-11.101
隈	-11.101
抉	-11.1011
絛	-11.1011
罇	-11.1012
檐	-11.1013
褊	-11.1014
虗	-11.1015
閽	-11.1016
靴	-11.1016
桒	-11.1016
個	-11.1018
楼	-11.1018
矧	-11.1018
攄	-11.1019
汩	-11.102
襍	-11.102
舄	-11.1022
珊	-11.1023
嫉	-11.1023
昀	-11.1034
頲	-11.1186
簽	-11.1187
遏	-11.1187
鏁	-11.1187
琮	-11.1187
債	-11.1188
蔕	-11.1189
舡	-11.1189
球	-11.1189
囿	-11.119
娃	-11.1191
埀	-11.1191
淒	-11.1192
炷	-11.1192
盻	-11.1193
眩	-11.1194
坼	-11.1195
觥	-11.1196
禀	-11.1197
彛	-11.1198
羔	-11.1198
甄	-11.1199
璽	-11.12
鸕	-11.1203
怏	-11.1207
撮	-11.1208
覿	-11.1362
黏	-11.1364
皁	-11.1364
杓	-11.1364
劭	-11.1364
騮	-11.1365
襖	-11.1365
髩	-11.1365
閟	-11.1367
厺	-11.1368
攅	-11.1369
洶	-11.137
筌	-11.1372
賽	-11.1373
輞	-11.1373
碾	-11.1373
詫	-11.1374
剔	-11.1374
鉞	-11.1374
涌	-11.1375
紇	-11.1375
汶	-11.1376
𤨏	-11.1377
糞	-11.1377
爱	-11.1377
楞	-11.1378
滓	-11.1379
瘧	-11.1379
蜍	-11.1382
訶	-11.1386
厮	-11.1401
牝	-11.1422
稹	-11.1539
吠	-11.1543
帬	-11.1548
万	-11.1548
聶	-11.1549
肻	-11.1549
旂	-11.1554
蹴	-11.1555
瓘	-11.1555
撾	-11.1556
臞	-11.1557
瞳	-11.1558
嵒	-11.1558
廽	-11.1558
笞	-11.1559
鐺	-11.1559
鄜	-11.1559
鯽	-11.156
扄	-11.156
譴	-11.156
泌	-11.1561
緝	-11.1561
愔	-11.1562
籙	-11.1562
曄	-11.1563
絢	-11.1563
級	-11.1564
鑪	-11.1566
霹	-11.1566
侂	-11.1568
娱	-11.1568
喝	-11.1569
顚	-11.1569
棣	-11.157
摛	-11.1573
婁	-11.1576
撑	-11.1578
蒨	-11.1737
蔥	-11.1737
欒	-11.1739
脆	-11.174
灞	-11.1742
駝	-11.1742
稔	-11.1743
摯	-11.1746
㤙	-11.1748
芙	-11.1749
鄆	-11.175
㤀	-11.175
塋	-11.1751
貲	-11.1751
藿	-11.1751
鯖	-11.1752
坂	-11.1757
鵩	-11.1758
燼	-11.1758
褭	-11.1762
掀	-11.1928
顒	-11.193
蜻	-11.1932
茹	-11.1933
訥	-11.1933
豚	-11.1935
攲	-11.1936
觜	-11.1936
訂	-11.1937
曖	-11.1937
燄	-11.1939
羆	-11.1939
亹	-11.194
槖	-11.1941
瑰	-11.1942
瑾	-11.1943
傚	-11.1945
沓	-11.1946
泄	-11.1947
樷	-11.1949
烱	-11.195
咀	-11.1955
燿	-11.1958
燧	-11.1959
緫	-11.2121
湄	-11.2124
繚	-11.2125
秣	-11.2125
歿	-11.2126
攽	-11.2128
邃	-11.2129
籜	-11.2133
鷰	-11.2134
飡	-11.2135
剽	-11.2136
盎	-11.2136
擣	-11.2137
鐃	-11.2137
丕	-11.2138
糊	-11.214
犂	-11.214
鞅	-11.2143
凜	-11.2143
嚶	-11.2144
賂	-11.2146
抔	-11.2147
芮	-11.2147
崛	-11.2151
濳	-11.2152
琚	-11.2156
盪	-11.2313
蕤	-11.2318
祓	-11.2325
齧	-11.2326
暎	-11.2326
茸	-11.233
壚	-11.233
邨	-11.2332
蹲	-11.2332
癯	-11.2332
窣	-11.2333
迁	-11.2333
筐	-11.2334
皋	-11.2334
屣	-11.2335
曳	-11.2335
蝨	-11.2336
苧	-11.2336
槍	-11.2337
紐	-11.2337
軋	-11.2337
茲	-11.2337
麽	-11.2337
澣	-11.2338
縳	-11.2338
泯	-11.2338
醺	-11.234
櫳	-11.2341
䖝	-11.2342
䰟	-11.2342
幔	-11.2342
汁	-11.2343
猥	-11.2344
翕	-11.2344
􁁊	-11.2346
羿	-11.2347
弘	-11.2347
斃	-11.2349
䜛	-11.235
墩	-11.2352
曛	-11.2529
挿	-11.253
洵	-11.2531
僞	-11.2531
泚	-11.2532
埤	-11.2534
扆	-11.2535
磧	-11.2536
勛	-11.2536
楮	-11.2536
跌	-11.2537
籖	-11.2538
亊	-11.2538
幌	-11.2538
蟇	-11.2538
献	-11.2538
錐	-11.2539
繒	-11.2539
荇	-11.2539
莒	-11.254
罹	-11.2541
琦	-11.2541
泝	-11.2541
嶷	-11.2541
嚮	-11.2543
塊	-11.2544
轄	-11.2544
咲	-11.2544
朧	-11.2545
塚	-11.2545
茨	-11.2546
冐	-11.2547
錬	-11.2547
懋	-11.2548
企	-11.2549
潰	-11.2551
亘	-11.2553
鶉	-11.2572
玷	-11.2735
舶	-11.2737
脅	-11.2737
漉	-11.2739
葆	-11.274
么	-11.274
蹰	-11.2741
処	-11.2741
囯	-11.2743
燾	-11.2743
榦	-11.2743
揔	-11.2744
詼	-11.2745
罅	-11.2746
襯	-11.2746
獅	-11.2747
瑒	-11.2747
竽	-11.275
椎	-11.275
憇	-11.275
豺	-11.2751
甃	-11.2752
冡	-11.2753
嵯	-11.2753
湮	-11.2754
曆	-11.2756
㪚	-11.2756
羶	-11.2756
甸	-11.276
唧	-11.2761
沅	-11.2762
邏	-11.277
媪	-11.2946
件	-11.2947
隼	-11.2953
缾	-11.2956
霰	-11.2959
蒯	-11.2959
袋	-11.2959
豊	-11.296
譯	-11.2962
綻	-11.2962
泓	-11.2963
抒	-11.2963
㵼	-11.2965
縞	-11.2966
嫋	-11.2966
斸	-11.2966
壙	-11.2968
糖	-11.2969
伉	-11.2971
緜	-11.2973
媵	-11.2982
眄	-11.3161
櫟	-11.3166
愽	-11.3168
驊	-11.3169
巉	-11.3169
查	-11.3171
鮫	-11.3171
柚	-11.3171
刁	-11.3172
姢	-11.3173
匱	-11.3173
啖	-11.3176
塟	-11.3176
劃	-11.3177
珥	-11.3178
畹	-11.3178
懇	-11.3179
湫	-11.3179
靨	-11.318
畬	-11.3181
劄	-11.3182
攪	-11.3184
箠	-11.3184
帚	-11.3184
餒	-11.3185
楨	-11.3185
穰	-11.3187
躭	-11.3187
蘖	-11.3187
揀	-11.3188
慱	-11.3189
渌	-11.319
鐙	-11.3377
种	-11.3387
悤	-11.3388
魔	-11.3391
酺	-11.3392
抝	-11.3393
綦	-11.3394
赭	-11.3395
港	-11.3397
燥	-11.3399
迤	-11.34
舩	-11.34
蠙	-11.3402
瘠	-11.3403
卭	-11.3403
氲	-11.3403
啞	-11.3404
鰲	-11.3404
療	-11.3405
珏	-11.3405
詁	-11.3406
閎	-11.3407
軼	-11.3408
彧	-11.3409
腔	-11.3409
筮	-11.341
爺	-11.3412
菁	-11.3412
盌	-11.3415
崗	-11.3416
漚	-11.3416
螯	-11.3418
欸	-11.3421
愠	-11.3616
澀	-11.3618
羯	-11.3618
萎	-11.3621
鼙	-11.3621
猱	-11.3622
踟	-11.3623
驃	-11.3623
𣲖	-11.3625
糓	-11.3625
恪	-11.3627
愆	-11.3627
禇	-11.3629
樗	-11.3629
燦	-11.363
濓	-11.363
淘	-11.3631
岧	-11.3631
蠏	-11.3632
勺	-11.3632
蜩	-11.3636
溧	-11.3636
罳	-11.3637
迓	-11.3637
嚬	-11.3638
籀	-11.3638
酪	-11.364
譌	-11.3642
雎	-11.3654
泮	-11.3654
苒	-11.3849
玠	-11.385
諍	-11.3851
蚌	-11.3855
緬	-11.3856
暾	-11.3856
蛩	-11.3857
衒	-11.3859
鍇	-11.3859
騖	-11.386
爍	-11.3861
㓗	-11.3861
棐	-11.3861
饋	-11.3861
詬	-11.3862
曺	-11.3862
幘	-11.3864
呀	-11.3865
衿	-11.3866
浹	-11.3867
詵	-11.3868
蛤	-11.3871
麑	-11.3877
葳	-11.4083
炫	-11.4087
譁	-11.4089
撩	-11.4089
郇	-11.4092
募	-11.4094
輭	-11.4094
耗	-11.4095
嘘	-11.4095
廨	-11.4095
箵	-11.4096
佺	-11.4096
刷	-11.4096
佯	-11.4097
瞥	-11.4097
踪	-11.4097
纜	-11.4098
肚	-11.4099
㢘	-11.4099
宕	-11.4099
縂	-11.4099
懦	-11.4099
懌	-11.41
嶧	-11.41
椿	-11.41
攢	-11.4101
欝	-11.4101
准	-11.4101
孩	-11.4102
熾	-11.4104
闇	-11.4104
瑗	-11.4104
穗	-11.4104
豳	-11.4105
愬	-11.4106
箏	-11.4106
悴	-11.4106
寖	-11.4107
郝	-11.4108
艮	-11.4112
蜺	-11.4113
㒵	-11.4322
駘	-11.4323
溶	-11.433
櫻	-11.4332
孱	-11.4336
嘔	-11.4337
鑱	-11.4338
檠	-11.4339
芹	-11.4339
駙	-11.434
暌	-11.434
跛	-11.4342
紂	-11.4342
梟	-11.4342
瀨	-11.4342
遑	-11.4342
穉	-11.4343
耦	-11.4344
嗅	-11.4345
滚	-11.4345
箸	-11.4347
弛	-11.4347
躅	-11.4347
仆	-11.4348
瀬	-11.4348
篔	-11.4348
駮	-11.4349
芾	-11.4351
宥	-11.4351
釁	-11.4354
圯	-11.4356
苟	-11.4356
𦂳	-11.4357
瞞	-11.4358
呻	-11.436
骰	-11.4361
葑	-11.4366
蒹	-11.458
騏	-11.4584
閃	-11.4585
黠	-11.4585
塍	-11.4586
僉	-11.4587
蹋	-11.4589
擷	-11.4589
垍	-11.4589
酤	-11.459
峡	-11.4591
媛	-11.4593
慳	-11.4594
隷	-11.4594
晡	-11.4595
殞	-11.4595
逖	-11.4596
玻	-11.4596
螻	-11.4597
糾	-11.4598
需	-11.46
飼	-11.4605
饕	-11.4609
圜	-11.4609
惋	-11.4611
讃	-11.4614
妒	-11.4828
汨	-11.4842
佀	-11.4842
烘	-11.4843
装	-11.4844
肴	-11.4845
珂	-11.4845
离	-11.4846
笄	-11.4846
剏	-11.4847
孕	-11.4847
鹹	-11.4847
听	-11.4848
泫	-11.4848
罄	-11.4848
匀	-11.4848
醮	-11.4849
窈	-11.485
肢	-11.4851
斍	-11.4851
䋲	-11.4852
褥	-11.4852
筑	-11.4852
徼	-11.4854
堞	-11.4855
甎	-11.4855
閹	-11.4855
廩	-11.4857
暘	-11.4857
汰	-11.4857
兖	-11.4858
柟	-11.4861
綏	-11.4863
涸	-11.4863
喘	-11.4864
斡	-11.4867
飴	-11.4869
螟	-11.4872
劫	-11.51
𥙿	-11.5101
籥	-11.5102
㝡	-11.5102
鞵	-11.5107
韈	-11.5107
橐	-11.5107
盲	-11.5108
繳	-11.5111
培	-11.5111
拏	-11.5112
㡳	-11.5113
楠	-11.5114
繕	-11.5114
罩	-11.5115
瘁	-11.5115
呑	-11.5116
苛	-11.5116
寝	-11.5116
焰	-11.5117
姮	-11.5117
礼	-11.5117
惲	-11.5118
㐮	-11.5118
糜	-11.5119
芷	-11.5119
弹	-11.5119
婿	-11.512
覬	-11.512
嵌	-11.512
菌	-11.512
斐	-11.5121
䏻	-11.5121
悍	-11.5122
崐	-11.5122
瀧	-11.5124
冺	-11.5127
澥	-11.5127
刈	-11.513
个	-11.5131
翬	-11.5365
搥	-11.5365
懃	-11.5372
嘻	-11.5373
虫	-11.5376
浥	-11.5376
珎	-11.5377
纈	-11.5378
捋	-11.5379
惚	-11.5379
棱	-11.5379
肋	-11.5379
菡	-11.5379
璨	-11.538
隳	-11.538
鏃	-11.538
懲	-11.5381
棨	-11.5381
殫	-11.5382
涴	-11.5382
㺯	-11.5383
隰	-11.5383
嶤	-11.5385
岌	-11.5387
湓	-11.5387
蒂	-11.5387
禆	-11.5388
狸	-11.5388
袒	-11.5389
怠	-11.5389
撓	-11.5389
睢	-11.539
灾	-11.539
裒	-11.539
殉	-11.5395
晟	-11.5396
躓	-11.5398
揄	-11.5399
癢	-11.5402
孽	-11.5403
澦	-11.5405
蝉	-11.5644
琬	-11.5647
賭	-11.565
顗	-11.5651
鏐	-11.5652
郞	-11.5653
覯	-11.5653
朦	-11.5656
侑	-11.5656
騣	-11.5657
捍	-11.5658
緡	-11.5658
蹔	-11.5659
鍼	-11.5659
鍳	-11.566
冽	-11.5661
觱	-11.5662
聒	-11.5662
髏	-11.5663
娼	-11.5663
榿	-11.5663
搢	-11.5663
鸛	-11.5663
惶	-11.5664
颭	-11.5664
蚩	-11.5664
窅	-11.5665
矮	-11.5666
曬	-11.5668
溉	-11.5669
宓	-11.5669
抃	-11.567
煌	-11.5671
睛	-11.5673
薩	-11.5676
柝	-11.5678
羹	-11.5689
隲	-11.5923
肈	-11.5929
璇	-11.593
廿	-11.5932
蹀	-11.5935
虯	-11.5935
磵	-11.5938
柩	-11.5938
睥	-11.5939
腋	-11.5939
甍	-11.5939
刮	-11.594
𦍑	-11.5942
甑	-11.5942
蓂	-11.5942
変	-11.5942
瀼	-11.5943
駑	-11.5943
垠	-11.5944
袈	-11.5944
鑣	-11.5945
蹶	-11.5945
兇	-11.5945
闡	-11.5946
努	-11.5946
桀	-11.5947
禅	-11.5948
駰	-11.5948
紘	-11.5948
廐	-11.5948
嘈	-11.5949
囑	-11.5949
虱	-11.5949
蕊	-11.5949
鈐	-11.595
釡	-11.5951
襃	-11.5951
嬖	-11.5951
鯁	-11.5951
淇	-11.5952
儕	-11.5953
矗	-11.5953
鈆	-11.5953
瓣	-11.5953
陲	-11.5955
淅	-11.5956
啣	-11.5956
裛	-11.5958
諮	-11.5958
輓	-11.596
蓍	-11.596
■	-11.5961
沱	-11.5961
厠	-11.5961
妣	-11.5962
熠	-11.5967
閼	-11.6225
爆	-11.6227
仝	-11.6228
彞	-11.6231
縹	-11.6232
晃	-11.6233
缶	-11.6234
刳	-11.6235
挫	-11.6235
笈	-11.6235
淼	-11.6235
跂	-11.6236
糕	-11.6236
碍	-11.6238
帕	-11.6238
劵	-11.6238
釜	-11.6239
侶	-11.6239
煨	-11.6239
瓚	-11.624
朂	-11.624
紺	-11.624
鵷	-11.624
稳	-11.6241
訾	-11.6241
慄	-11.6241
𣑽	-11.6241
齎	-11.6241
紜	-11.6242
遡	-11.6242
毳	-11.6243
闐	-11.6243
嬈	-11.6244
䆳	-11.6245
呪	-11.6245
瞬	-11.6246
頏	-11.6247
殄	-11.6247
􁊨	-11.6247
兠	-11.6248
讜	-11.6249
䲭	-11.6249
嫵	-11.6249
圉	-11.625
脛	-11.625
蛆	-11.6253
孑	-11.6258
悰	-11.6259
㮣	-11.6528
瑀	-11.6528
屛	-11.6533
脾	-11.6533
韭	-11.6534
酹	-11.6534
輅	-11.6535
坌	-11.6535
妺	-11.6536
詈	-11.6536
徇	-11.6537
賚	-11.6537
槳	-11.6537
歘	-11.6538
艘	-11.6538
痴	-11.6539
躔	-11.654
羃	-11.6541
攺	-11.6541
僭	-11.6541
欷	-11.6542
羗	-11.6542
煒	-11.6542
乱	-11.6543
閶	-11.6543
䘏	-11.6543
梔	-11.6544
械	-11.6544
撒	-11.6545
揉	-11.6545
桔	-11.6545
聆	-11.6546
靳	-11.6546
虀	-11.6546
宝	-11.6546
嫣	-11.6548
砥	-11.6548
芟	-11.6549
綢	-11.6551
菲	-11.6554
鍵	-11.6554
綮	-11.6555
殤	-11.6559
哂	-11.656
雩	-11.656
湊	-11.6562
癭	-11.6563
汜	-11.6572
腑	-11.6573
撐	-11.6841
徉	-11.6841
俘	-11.6842
㗸	-11.6843
譲	-11.6845
狖	-11.6845
淂	-11.6845
僣	-11.6846
睫	-11.6846
洮	-11.6848
瘞	-11.6849
尭	-11.6849
秫	-11.6851
𬋩	-11.6851
噱	-11.6852
帰	-11.6852
砑	-11.6852
販	-11.6852
蹉	-11.6854
沔	-11.6854
裟	-11.6855
㬰	-11.6855
𫀆	-11.6856
涔	-11.6857
寞	-11.6857
蘧	-11.6857
皦	-11.6858
睇	-11.6858
兾	-11.6858
萸	-11.6858
淋	-11.6859
蔔	-11.6859
塹	-11.6859
郛	-11.686
瞽	-11.686
嶙	-11.686
驩	-11.686
纊	-11.686
摠	-11.686
瑯	-11.686
蝗	-11.6861
璐	-11.6862
蜕	-11.6863
荣	-11.6864
孥	-11.6864
壟	-11.6865
臍	-11.6865
獬	-11.6868
帔	-11.6868
酢	-11.6869
描	-11.687
澧	-11.6871
陔	-11.6873
橙	-11.6875
姫	-11.6887
馗	-11.7138
夤	-11.7157
徨	-11.7159
脞	-11.7161
怳	-11.7167
坰	-11.7168
蜃	-11.7168
軿	-11.7168
苴	-11.7168
鷲	-11.717
禋	-11.7171
謎	-11.7171
謪	-11.7172
蘸	-11.7172
囝	-11.7173
豉	-11.7173
酈	-11.7173
隍	-11.7175
頺	-11.7175
篠	-11.7175
邐	-11.7176
闚	-11.7176
產	-11.7176
垓	-11.7176
謟	-11.7176
讖	-11.7176
廚	-11.7176
駞	-11.7177
劈	-11.7177
埭	-11.7178
酩	-11.7178
怖	-11.7179
堠	-11.718
悖	-11.718
鬪	-11.718
殖	-11.718
飫	-11.718
伋	-11.718
籹	-11.7181
欎	-11.7182
騘	-11.7183
弭	-11.7183
豎	-11.7183
茆	-11.7184
忱	-11.7185
瓮	-11.7185
潢	-11.7186
墉	-11.7186
犁	-11.7187
㘴	-11.7188
崧	-11.7498
縻	-11.7501
紉	-11.7501
廌	-11.7503
購	-11.7503
濆	-11.7504
櫛	-11.7504
紓	-11.7506
鮓	-11.7506
鬆	-11.7507
𢾗	-11.7507
櫺	-11.7507
嶮	-11.7508
煤	-11.7508
蜘	-11.7509
禺	-11.7509
爇	-11.751
蔭	-11.751
魑	-11.7511
崆	-11.7511
仭	-11.7511
蹬	-11.7511
狡	-11.7511
肄	-11.7512
褁	-11.7512
蛮	-11.7512
峥	-11.7513
蜒	-11.7513
桷	-11.7513
拚	-11.7513
撃	-11.7514
輻	-11.7514
郄	-11.7515
蜿	-11.7515
徠	-11.7516
摵	-11.7516
鍚	-11.7516
旟	-11.7516
葡	-11.7516
蠲	-11.7519
晤	-11.7519
詡	-11.752
惰	-11.7521
兕	-11.7522
鍜	-11.7523
䌫	-11.7523
柿	-11.7523
薏	-11.7524
楯	-11.7525
隧	-11.7525
熹	-11.7527
𦙍	-11.7527
茄	-11.7534
蠢	-11.7534
謐	-11.7539
贔	-11.7555
糚	-11.7842
簸	-11.7844
鱣	-11.7845
髠	-11.7846
攫	-11.7846
腮	-11.7847
拽	-11.7847
莢	-11.7848
橰	-11.7848
継	-11.785
脯	-11.785
韞	-11.785
蓽	-11.7851
爼	-11.7852
扳	-11.7853
馹	-11.7853
僦	-11.7854
丰	-11.7854
婪	-11.7855
溷	-11.7855
攣	-11.7856
䍐	-11.7856
滻	-11.7856
賄	-11.7856
囷	-11.7857
慾	-11.7857
鯤	-11.7857
跼	-11.7857
鷙	-11.7857
篥	-11.7857
躰	-11.7857
䍦	-11.7858
紬	-11.7859
尽	-11.7859
諦	-11.7859
壹	-11.786
緗	-11.786
瀰	-11.786
暹	-11.786
轢	-11.7862
枰	-11.7862
礴	-11.7863
蕡	-11.7863
綆	-11.7864
蜉	-11.7864
餽	-11.7865
珉	-11.7867
漱	-11.7867
傴	-11.7868
瑛	-11.7869
黷	-11.787
噉	-11.7871
惨	-11.7871
烝	-11.7872
㳟	-11.7879
襠	-11.788
郗	-11.8189
徊	-11.8191
闉	-11.8198
轟	-11.8202
旰	-11.8202
卸	-11.8203
捄	-11.8203
驀	-11.8203
勣	-11.8204
徭	-11.8204
滇	-11.8205
庄	-11.8205
癘	-11.8205
埸	-11.8207
訐	-11.8208
㽔	-11.8208
皤	-11.8209
璜	-11.821
畛	-11.8212
歔	-11.8212
擯	-11.8213
䔥	-11.8213
絆	-11.8213
箬	-11.8214
韉	-11.8214
确	-11.8215
寨	-11.8215
竝	-11.8215
䧏	-11.8216
榼	-11.8216
埜	-11.8216
鷦	-11.8217
椶	-11.8217
黿	-11.8217
慥	-11.8218
褚	-11.8218
縝	-11.8219
䭾	-11.8219
陡	-11.822
劳	-11.8221
綂	-11.8221
麫	-11.8224
皖	-11.8224
㠀	-11.8224
譔	-11.8225
歧	-11.8225
菟	-11.8226
嚢	-11.8228
枘	-11.823
陁	-11.8231
蒐	-11.8231
壅	-11.8234
竺	-11.8534
雯	-11.8556
䛒	-11.8566
洧	-11.8569
𧺫	-11.857
錚	-11.8571
穡	-11.8571
虵	-11.8573
錡	-11.8573
瀹	-11.8574
鷖	-11.8574
礀	-11.8577
錮	-11.8577
棚	-11.8578
櫪	-11.8578
叡	-11.8579
戛	-11.858
匏	-11.8581
飃	-11.8581
𢷬	-11.8582
琱	-11.8582
滳	-11.8583
凾	-11.8583
蔑	-11.8583
啚	-11.8583
鯢	-11.8583
燔	-11.8584
緊	-11.8584
繰	-11.8585
吒	-11.8585
闍	-11.8586
茱	-11.8586
狥	-11.8586
璿	-11.8587
貍	-11.8588
峋	-11.8588
剗	-11.8589
髦	-11.8589
曁	-11.8589
壷	-11.8589
潯	-11.8589
紿	-11.859
譛	-11.859
凈	-11.859
戞	-11.8591
酧	-11.8591
蛬	-11.8591
鴿	-11.8592
肓	-11.8592
恚	-11.8592
灧	-11.8593
釧	-11.8593
盾	-11.8593
灝	-11.8594
釭	-11.8595
荳	-11.8595
覘	-11.8596
髀	-11.8597
䌓	-11.8601
壕	-11.8603
蚋	-11.8603
蟆	-11.8605
氍	-11.8605
摻	-11.8606
蠃	-11.8615
餤	-11.8946
幟	-11.8953
柁	-11.8954
醅	-11.8955
碓	-11.8956
鑽	-11.8956
淞	-11.8957
酲	-11.8959
捶	-11.896
鶒	-11.896
窶	-11.896
飇	-11.8962
謩	-11.8962
槌	-11.8963
杰	-11.8963
駈	-11.8964
斲	-11.8964
𬒮	-11.8964
僵	-11.8964
㳙	-11.8965
樾	-11.8965
昵	-11.8965
饞	-11.8966
蓉	-11.8968
旻	-11.8968
勍	-11.8968
殃	-11.8969
咳	-11.897
沌	-11.897
估	-11.897
苡	-11.8972
愉	-11.8972
聿	-11.8972
遘	-11.8973
湟	-11.8973
卲	-11.8974
壼	-11.8974
陞	-11.8974
沁	-11.8975
噬	-11.8976
咬	-11.8977
捴	-11.8977
弈	-11.8978
脇	-11.8978
簌	-11.8979
匕	-11.8981
賒	-11.8981
糝	-11.8981
挼	-11.8982
怱	-11.8982
换	-11.8984
嫂	-11.8986
傭	-11.8993
鎗	-11.9025
茜	-11.9339
颶	-11.934
杇	-11.9349
臾	-11.9355
廂	-11.9357
犧	-11.9358
蚕	-11.9358
閗	-11.9361
孌	-11.9363
濩	-11.9363
园	-11.9363
繍	-11.9364
䂓	-11.9364
彷	-11.9365
撇	-11.9366
鷯	-11.9366
怎	-11.9366
汭	-11.9367
氈	-11.9367
堰	-11.9367
鰥	-11.9367
㴱	-11.9367
攤	-11.9368
瓈	-11.9371
猖	-11.9371
齷	-11.9371
盥	-11.9372
輾	-11.9373
聦	-11.9374
籞	-11.9374
寗	-11.9374
騾	-11.9375
滉	-11.9376
虺	-11.9376
醯	-11.9376
覉	-11.9377
樛	-11.9378
莾	-11.9379
戡	-11.9379
吊	-11.938
殽	-11.9382
蚓	-11.9384
銑	-11.9388
滸	-11.9389
凹	-11.9391
蜾	-11.9397
窑	-11.94
澶	-11.9424
裋	-11.9741
茰	-11.9757
鼯	-11.9764
槧	-11.9767
袵	-11.977
媍	-11.977
芡	-11.9771
顇	-11.9772
贑	-11.9773
珣	-11.9773
蓀	-11.9774
畎	-11.9774
嚥	-11.9775
菩	-11.9776
撤	-11.9778
煇	-11.9778
篝	-11.9779
曈	-11.978
瀘	-11.978
旴	-11.9781
佃	-11.9781
燠	-11.9784
銛	-11.9784
𥚑	-11.9784
豢	-11.9785
券	-11.9785
罟	-11.9785
扺	-11.9785
撻	-11.9785
姨	-11.9785
臚	-11.9786
跣	-11.9786
搨	-11.9787
磁	-11.9788
跗	-11.9788
渊	-11.9788
杌	-11.9788
莧	-11.9789
畊	-11.9789
瓏	-11.979
䛕	-11.9791
璃	-11.9791
龐	-11.9791
㝎	-11.9792
䬃	-11.9792
麞	-11.9792
㒺	-11.9794
灯	-11.9794
嫡	-11.9794
厝	-11.9794
覷	-11.9795
奐	-11.9795
槊	-11.9795
埒	-11.9796
摰	-11.9797
鉗	-11.9797
豬	-11.9798
伾	-11.9798
捩	-11.9799
聀	-11.9799
晳	-11.98
櫚	-11.9803
蒱	-11.9806
凸	-11.9806
鴞	-11.9808
喔	-11.981
穫	-11.9811
鯿	-11.982
蘊	-12.0177
矚	-12.0196
橡	-12.02
媧	-12.02
适	-12.0201
喏	-12.0202
顦	-12.0202
棅	-12.0203
踢	-12.0204
慤	-12.0204
賑	-12.0206
盱	-12.0207
礎	-12.0209
踘	-12.0209
眈	-12.021
搦	-12.021
爻	-12.0211
憀	-12.0211
嬙	-12.0211
楩	-12.0212
籩	-12.0212
双	-12.0213
槱	-12.0213
鑊	-12.0213
磚	-12.0214
閧	-12.0214
週	-12.0215
宼	-12.0215
蒔	-12.0215
喟	-12.0215
氅	-12.0216
闖	-12.0216
簞	-12.0216
酋	-12.0217
鍛	-12.0217
噓	-12.0218
鵉	-12.0219
𦕈	-12.0219
悚	-12.022
鶬	-12.0221
𡨕	-12.0221
洄	-12.0221
蓞	-12.0222
鄖	-12.0222
殂	-12.0222
醢	-12.0222
竪	-12.0222
葷	-12.0222
纏	-12.0222
勗	-12.0223
駉	-12.0223
躞	-12.0223
蹭	-12.0224
搴	-12.0224
塼	-12.0224
傀	-12.0224
㝢	-12.0224
你	-12.0224
艤	-12.0225
罏	-12.0225
柬	-12.0225
菽	-12.0225
閴	-12.0225
饅	-12.0226
迦	-12.0226
匙	-12.0226
旡	-12.0226
冉	-12.0227
蠒	-12.0228
㽵	-12.0229
擴	-12.0229
荑	-12.0229
皴	-12.023
咿	-12.023
㯽	-12.0231
僂	-12.0231
迍	-12.0232
簔	-12.0232
豸	-12.0233
獺	-12.0233
倭	-12.0234
弥	-12.0235
鋋	-12.0235
兜	-12.0236
銍	-12.0237
窩	-12.0238
瀦	-12.0239
暐	-12.024
鵒	-12.0242
喈	-12.0246
毉	-12.0247
蛉	-12.0255
鵜	-12.0634
澑	-12.0648
櫸	-12.0652
瓉	-12.0653
䑛	-12.0658
嘖	-12.0666
桴	-12.0667
鶡	-12.0667
皛	-12.0667
鵑	-12.0667
陬	-12.0669
蘅	-12.0669
椅	-12.0669
怛	-12.067
咫	-12.0671
豋	-12.0671
磐	-12.0672
夐	-12.0672
搭	-12.0673
剩	-12.0673
頳	-12.0673
睂	-12.0674
黻	-12.0675
飰	-12.0675
幷	-12.0675
誑	-12.0676
霤	-12.0676
僥	-12.0676
煦	-12.0676
晷	-12.0676
扼	-12.0677
匳	-12.0677
頹	-12.0678
氤	-12.0678
罝	-12.0678
惘	-12.0679
彖	-12.0679
圏	-12.068
舷	-12.068
鄊	-12.068
餙	-12.0681
凑	-12.0683
愷	-12.0684
罌	-12.0684
詛	-12.0685
頔	-12.0687
泱	-12.0687
䆠	-12.0688
駃	-12.0688
繽	-12.069
犖	-12.069
攴	-12.0695
飭	-12.0697
鶺	-12.0698
咮	-12.0702
軺	-12.1133
淬	-12.1136
漈	-12.1136
鋩	-12.1137
麛	-12.1139
聱	-12.1139
璹	-12.114
髫	-12.114
淙	-12.114
鏞	-12.1141
纛	-12.1143
駛	-12.1144
揣	-12.1144
堙	-12.1144
璆	-12.1145
煅	-12.1145
甬	-12.1146
薝	-12.1146
胃	-12.1147
跖	-12.1148
懊	-12.1148
絺	-12.1148
蝀	-12.1149
磻	-12.1149
箆	-12.115
瀣	-12.115
窒	-12.115
弑	-12.115
捿	-12.1151
湋	-12.1151
猝	-12.1152
倜	-12.1153
砲	-12.1153
謇	-12.1153
醸	-12.1153
鎪	-12.1154
灵	-12.1154
辣	-12.1155
翶	-12.1155
裦	-12.1155
昜	-12.1155
捻	-12.1155
响	-12.1155
飣	-12.1156
狷	-12.1156
廪	-12.1156
㩀	-12.116
佻	-12.1162
莹	-12.1162
执	-12.1162
珝	-12.1164
璵	-12.1165
凬	-12.1168
蕳	-12.1168
糅	-12.117
𣙜	-12.1626
顱	-12.1628
眥	-12.1634
佖	-12.1635
涘	-12.1635
鴂	-12.1638
鴆	-12.164
罽	-12.1642
悌	-12.1643
塡	-12.1643
㶑	-12.1643
弧	-12.1643
淥	-12.1644
釂	-12.1644
謌	-12.1644
扎	-12.1645
瀍	-12.1646
煞	-12.1646
頫	-12.1647
眘	-12.1647
蒋	-12.1647
嶇	-12.1647
惕	-12.1648
臈	-12.1648
襶	-12.1648
瘢	-12.1649
贓	-12.1649
瀕	-12.165
鋏	-12.165
湼	-12.1651
緹	-12.1651
髄	-12.1652
懵	-12.1652
珩	-12.1653
爕	-12.1654
阼	-12.1654
掞	-12.1655
甿	-12.1655
鷂	-12.1655
贛	-12.1655
騑	-12.1656
沄	-12.1656
縊	-12.1657
撿	-12.1658
幰	-12.1658
瘖	-12.1658
鱓	-12.1658
歉	-12.1658
鞚	-12.1659
窆	-12.1659
拉	-12.1661
甓	-12.1661
憮	-12.1662
崘	-12.1664
挍	-12.1666
媟	-12.1666
櫽	-12.1666
疫	-12.1667
楙	-12.1667
劑	-12.1668
瑪	-12.1673
巏	-12.1674
鍪	-12.168
畤	-12.1684
蝎	-12.1687
椰	-12.1694
篘	-12.2147
彴	-12.2151
儁	-12.2152
攔	-12.2159
諲	-12.216
禕	-12.2163
塤	-12.2163
珙	-12.2163
舲	-12.2163
柞	-12.2164
荃	-12.2165
娜	-12.2167
顓	-12.2167
䜿	-12.2167
倨	-12.2168
飮	-12.2168
壖	-12.2168
崎	-12.2169
犹	-12.217
鈇	-12.217
窰	-12.2171
玦	-12.2171
妳	-12.2172
烜	-12.2172
噤	-12.2172
喑	-12.2172
鮪	-12.2173
氓	-12.2174
邅	-12.2174
偪	-12.2174
凰	-12.2174
頊	-12.2174
睹	-12.2175
莠	-12.2175
褦	-12.2175
懟	-12.2175
嫰	-12.2176
姹	-12.2176
佗	-12.2177
搘	-12.2178
罥	-12.2178
㩦	-12.2178
塾	-12.2179
慝	-12.2179
齬	-12.2179
狠	-12.218
奨	-12.2181
睠	-12.2181
腎	-12.2182
頁	-12.2182
醍	-12.2182
藂	-12.2182
蚪	-12.2183
穷	-12.2183
嵲	-12.2184
貓	-12.2184
疴	-12.2184
毿	-12.2185
閈	-12.2185
沚	-12.2185
犍	-12.2185
竚	-12.2186
劬	-12.2186
齟	-12.2186
郃	-12.2186
榱	-12.2187
餔	-12.2187
珦	-12.2188
鵾	-12.2189
遅	-12.2189
痊	-12.219
値	-12.219
鼐	-12.2191
毆	-12.2192
儗	-12.2193
𡵨	-12.2195
醽	-12.2197
篸	-12.2199
旛	-12.2201
鞮	-12.2201
澳	-12.2203
蠣	-12.2704
奭	-12.2714
栩	-12.2714
郾	-12.2714
鬧	-12.2715
褘	-12.2716
穽	-12.2718
纇	-12.2718
鳷	-12.2718
蠔	-12.2718
杆	-12.2719
鍔	-12.2719
橊	-12.2719
帘	-12.2721
觔	-12.2721
号	-12.2721
瓔	-12.2723
諠	-12.2723
㨿	-12.2723
疉	-12.2725
湔	-12.2726
廛	-12.2728
亀	-12.2728
澌	-12.2729
糶	-12.2729
𥚹	-12.2729
簴	-12.2729
膜	-12.2729
蓊	-12.2729
闞	-12.2729
罾	-12.273
餻	-12.273
异	-12.2731
迯	-12.2731
袤	-12.2731
耄	-12.2732
姸	-12.2732
喁	-12.2732
傖	-12.2732
䙝	-12.2732
㕓	-12.2733
狙	-12.2733
萁	-12.2733
猒	-12.2734
潾	-12.2734
澡	-12.2735
枿	-12.2735
窖	-12.2735
塑	-12.2736
褪	-12.2736
燮	-12.2737
獠	-12.2737
㸑	-12.2737
樟	-12.2737
粮	-12.2737
蘺	-12.2738
枳	-12.2738
燖	-12.2739
􁌲	-12.2739
縶	-12.274
鎰	-12.2741
抜	-12.2742
磷	-12.2742
鱉	-12.2742
另	-12.2742
㐫	-12.2743
鑷	-12.2743
蔞	-12.2745
霾	-12.2745
茟	-12.2746
舁	-12.2747
满	-12.2747
簒	-12.2747
䆒	-12.2748
鼂	-12.2748
醑	-12.2749
痺	-12.2751
菑	-12.2753
搶	-12.2753
㒷	-12.2755
妲	-12.2755
惴	-12.2756
櫝	-12.2756
魃	-12.2757
邽	-12.2758
琛	-12.2759
勔	-12.2764
掺	-12.3283
鶠	-12.3296
玫	-12.3299
薌	-12.33
䕷	-12.3304
熨	-12.3304
轔	-12.3305
顙	-12.3306
貿	-12.3308
琖	-12.3308
趋	-12.3309
絪	-12.3309
綫	-12.3309
繢	-12.3309
秤	-12.331
鏑	-12.3311
髽	-12.3311
戦	-12.3311
訔	-12.3312
屡	-12.3312
醋	-12.3313
琹	-12.3314
颸	-12.3315
翾	-12.3315
顫	-12.3315
夬	-12.3316
嫚	-12.3316
遄	-12.3317
艦	-12.3317
鍋	-12.3317
皐	-12.3317
晰	-12.3318
偹	-12.3318
揩	-12.3319
癩	-12.3319
斎	-12.3319
瞪	-12.3319
瘳	-12.332
糴	-12.332
㯶	-12.332
逶	-12.3321
蕘	-12.3321
幞	-12.3321
醆	-12.3322
儺	-12.3323
垜	-12.3323
刄	-12.3323
藺	-12.3323
耨	-12.3324
晻	-12.3324
柵	-12.3325
榘	-12.3325
蝟	-12.3325
朏	-12.3325
悸	-12.3326
訃	-12.3327
爨	-12.3327
醁	-12.3327
槪	-12.3328
矦	-12.3328
鱻	-12.3329
渟	-12.3329
圻	-12.3329
鼾	-12.3329
邴	-12.3329
疚	-12.333
舠	-12.333
締	-12.3332
昕	-12.3332
畀	-12.3333
惬	-12.3333
撏	-12.3335
詘	-12.3336
阨	-12.3336
杠	-12.3337
蔻	-12.3339
鱖	-12.3339
旤	-12.3339
諂	-12.334
噎	-12.3341
蠱	-12.3343
摴	-12.3346
蠁	-12.3346
噀	-12.335
嚏	-12.3365
諼	-12.3372
虡	-12.3887
珧	-12.3889
迃	-12.391
廱	-12.3912
鷴	-12.3917
菉	-12.3921
嵎	-12.3924
崒	-12.3926
辤	-12.3928
鏜	-12.3932
倏	-12.3934
鐶	-12.3935
湎	-12.3935
艫	-12.3936
蠹	-12.3936
屩	-12.3936
蜑	-12.3937
寀	-12.3937
㪯	-12.3938
怙	-12.3939
偎	-12.3939
祛	-12.394
筦	-12.3941
􁇟	-12.3941
荏	-12.3942
懣	-12.3942
挟	-12.3942
赧	-12.3943
㒒	-12.3943
爬	-12.3944
麁	-12.3944
憨	-12.3944
溆	-12.3944
衎	-12.3944
挐	-12.3944
垤	-12.3944
踆	-12.3946
薿	-12.3946
庿	-12.3946
恧	-12.3946
楣	-12.3947
繂	-12.3947
猊	-12.3947
繅	-12.3948
雒	-12.3948
懾	-12.3948
澠	-12.3948
鉶	-12.3948
秔	-12.3948
斿	-12.3949
璡	-12.3949
炉	-12.395
据	-12.395
泡	-12.3951
踔	-12.3951
悒	-12.3951
霈	-12.3952
轎	-12.3952
韐	-12.3952
彜	-12.3952
紕	-12.3953
稟	-12.3953
攏	-12.3953
斕	-12.3953
鄠	-12.3953
斚	-12.3954
砍	-12.3954
姒	-12.3954
斈	-12.3954
丼	-12.3955
糺	-12.3956
彝	-12.3957
彗	-12.3957
苻	-12.3958
莪	-12.3958
螘	-12.3958
詒	-12.3959
馺	-12.396
簏	-12.3964
㕍	-12.3964
毀	-12.3965
悝	-12.3969
嶓	-12.3971
藎	-12.3973
肸	-12.3973
簻	-12.3973
􁱘	-12.3976
黽	-12.3982
憊	-12.3984
蒜	-12.3985
襜	-12.4007
濾	-12.4579
瓴	-12.4582
釃	-12.4588
堊	-12.4593
驎	-12.4594
莞	-12.4596
璚	-12.4597
禳	-12.4597
唫	-12.4597
鬯	-12.4597
廳	-12.4599
㷑	-12.4599
鵊	-12.46
蹻	-12.46
驌	-12.46
玳	-12.46
丏	-12.4601
珞	-12.4601
縚	-12.4601
鄼	-12.4602
剜	-12.4602
獰	-12.4602
彀	-12.4602
豗	-12.4603
嘱	-12.4604
嚲	-12.4604
貰	-12.4604
柢	-12.4605
胛	-12.4605
賺	-12.4606
鞾	-12.4607
瀲	-12.4607
巇	-12.4607
刚	-12.4607
薙	-12.4607
幛	-12.4607
臊	-12.4608
韁	-12.4608
檥	-12.4608
蠆	-12.4608
玢	-12.4609
蝤	-12.4609
捃	-12.4609
鷟	-12.4609
槨	-12.461
珖	-12.461
蠭	-12.461
駔	-12.461
譖	-12.4611
淦	-12.4611
黟	-12.4612
佶	-12.4612
廙	-12.4612
尓	-12.4613
撝	-12.4613
汧	-12.4614
萟	-12.4615
淆	-12.4615
剃	-12.4615
熬	-12.4616
􁑱	-12.4616
襌	-12.4617
錘	-12.4618
苹	-12.4618
綳	-12.4618
檇	-12.4619
蜚	-12.4619
舖	-12.4619
楛	-12.4619
刘	-12.4619
撗	-12.4619
嶄	-12.4619
甖	-12.4619
吝	-12.4619
邛	-12.4619
㗖	-12.4619
螫	-12.462
皃	-12.462
蓐	-12.462
餗	-12.4621
斁	-12.4621
棫	-12.4621
縢	-12.4622
臟	-12.4624
騕	-12.4624
熺	-12.4625
玖	-12.4625
筇	-12.4625
榧	-12.4627
蹁	-12.4627
删	-12.4628
諢	-12.4628
吿	-12.463
汍	-12.4631
驍	-12.4632
栟	-12.4633
跕	-12.4635
騤	-12.4635
嘒	-12.4635
郜	-12.4636
悱	-12.4637
䜴	-12.4639
蘤	-12.4647
箎	-12.4648
圛	-12.4657
濊	-12.4685
緌	-12.5295
廏	-12.5304
祲	-12.5305
嵊	-12.5306
漙	-12.5306
堡	-12.5307
崚	-12.5308
嵬	-12.5308
鶗	-12.531
阬	-12.531
渦	-12.5312
曨	-12.5312
咤	-12.5313
搬	-12.5314
坏	-12.5314
溱	-12.5314
俙	-12.5314
埏	-12.5316
膻	-12.5317
祟	-12.5317
哽	-12.5318
袪	-12.5318
窪	-12.5319
彘	-12.5319
唼	-12.5319
薖	-12.5319
擦	-12.532
幀	-12.5321
歜	-12.5321
詶	-12.5321
酎	-12.5321
螳	-12.5322
儈	-12.5322
霎	-12.5322
陕	-12.5323
菀	-12.5323
茒	-12.5323
禰	-12.5323
洟	-12.5323
单	-12.5323
讙	-12.5323
籐	-12.5324
騃	-12.5324
帀	-12.5324
佾	-12.5325
殪	-12.5325
衽	-12.5326
綣	-12.5326
閘	-12.5326
崦	-12.5326
鞶	-12.5327
鸚	-12.5327
忮	-12.5327
瞋	-12.5328
尙	-12.5328
濞	-12.5328
庙	-12.5328
捜	-12.5328
邳	-12.5328
硤	-12.5329
萇	-12.5329
揜	-12.533
檉	-12.5331
嘹	-12.5332
洼	-12.5332
捎	-12.5332
􁁃	-12.5333
瑚	-12.5333
箧	-12.5333
鉄	-12.5334
匐	-12.5334
餧	-12.5334
贋	-12.5334
攙	-12.5335
咒	-12.5335
蝣	-12.5335
戕	-12.5335
鬐	-12.5335
傘	-12.5336
皚	-12.5336
箒	-12.5336
騅	-12.5336
鎡	-12.5337
騂	-12.5337
㨂	-12.5338
蝇	-12.5338
瓿	-12.5339
蒍	-12.534
痾	-12.534
壈	-12.5341
㓙	-12.5341
鍤	-12.5341
秭	-12.5341
踴	-12.5342
鏖	-12.5343
夥	-12.5344
娠	-12.5345
跟	-12.5349
麏	-12.5349
瞭	-12.5349
縲	-12.5349
扞	-12.5351
餮	-12.5352
紊	-12.5354
揶	-12.5358
票	-12.5365
碭	-12.5366
屭	-12.5394
䣛	-12.6032
􁈡	-12.6066
嫠	-12.6069
臛	-12.6069
珵	-12.6073
匄	-12.6074
瑄	-12.6074
礱	-12.6074
嫜	-12.6075
篲	-12.6076
麯	-12.6078
媸	-12.6078
􁰽	-12.608
瀏	-12.608
閥	-12.6081
挨	-12.6082
轓	-12.6083
隤	-12.6083
鮒	-12.6084
㫄	-12.6085
裩	-12.6086
报	-12.6087
昴	-12.6087
鍠	-12.6087
畚	-12.6088
螿	-12.6088
菓	-12.6089
鷃	-12.6089
𥜗	-12.6089
蜡	-12.6089
黥	-12.609
馘	-12.609
籤	-12.609
貊	-12.6091
鸝	-12.6091
鵯	-12.6092
奧	-12.6092
嶔	-12.6093
蓓	-12.6094
䘖	-12.6094
敧	-12.6094
醲	-12.6094
猾	-12.6095
党	-12.6095
觫	-12.6095
繾	-12.6096
偘	-12.6096
倕	-12.6096
檟	-12.6096
枌	-12.6096
晒	-12.6096
圈	-12.6096
摺	-12.6097
篨	-12.6098
劚	-12.6098
嶲	-12.6098
茁	-12.6098
斝	-12.6098
菅	-12.6099
玲	-12.6099
蛑	-12.6099
旎	-12.6099
旖	-12.6099
絞	-12.6099
輜	-12.6101
璀	-12.6101
逥	-12.6101
縋	-12.6101
籋	-12.6102
瀚	-12.6102
茭	-12.6102
澒	-12.6102
䗶	-12.6102
繄	-12.6103
势	-12.6103
竢	-12.6103
賃	-12.6103
樺	-12.6103
厖	-12.6104
恁	-12.6104
术	-12.6105
譍	-12.6106
煆	-12.6106
謻	-12.6106
忒	-12.6107
𣏌	-12.6108
懈	-12.6109
鼃	-12.611
灩	-12.611
藟	-12.6112
狨	-12.6112
慼	-12.6112
墫	-12.6113
燻	-12.6113
营	-12.6113
諄	-12.6113
俜	-12.6114
鰕	-12.6114
裨	-12.6114
陘	-12.6114
踣	-12.6115
腿	-12.6116
韙	-12.6116
毹	-12.6121
㛰	-12.6122
砢	-12.6122
戩	-12.6122
毯	-12.6125
凇	-12.6128
粽	-12.6129
砅	-12.6135
郯	-12.688
􁇪	-12.6893
翌	-12.6894
嬃	-12.6896
踊	-12.6904
旐	-12.6905
掄	-12.6906
掊	-12.6906
唤	-12.6906
褎	-12.6906
靃	-12.6907
齅	-12.6907
鉦	-12.6907
宷	-12.6907
鸒	-12.6909
㙜	-12.691
趯	-12.6911
煬	-12.6911
攖	-12.6912
褓	-12.6912
𬗟	-12.6913
麰	-12.6915
奡	-12.6915
雹	-12.6916
扛	-12.6916
坳	-12.6916
遹	-12.6916
夹	-12.6917
輶	-12.6918
齏	-12.6918
樅	-12.6919
莬	-12.6919
膞	-12.6919
壌	-12.692
辝	-12.6921
繙	-12.6921
瑋	-12.6921
俻	-12.6922
姐	-12.6923
喃	-12.6923
洸	-12.6923
雊	-12.6924
点	-12.6924
祅	-12.6925
憧	-12.6926
惎	-12.6926
椁	-12.6926
孳	-12.6927
颷	-12.6927
戶	-12.6927
椹	-12.6927
枸	-12.6927
楽	-12.6927
縵	-12.6928
昩	-12.6928
祧	-12.6928
糗	-12.6928
舀	-12.6928
紏	-12.6928
斌	-12.6928
疥	-12.6929
菘	-12.6929
瘥	-12.6929
孃	-12.6929
亾	-12.693
焱	-12.6931
㴩	-12.6931
倔	-12.6931
潩	-12.6932
塌	-12.6932
璁	-12.6932
筩	-12.6932
耋	-12.6932
毶	-12.6933
𬞞	-12.6933
炅	-12.6933
藐	-12.6933
醻	-12.6933
窕	-12.6934
唶	-12.6934
磋	-12.6935
吮	-12.6935
蒭	-12.6935
雱	-12.6935
珓	-12.6935
栝	-12.6935
鐻	-12.6935
楝	-12.6936
朞	-12.6936
枽	-12.6936
寬	-12.6936
棼	-12.6937
済	-12.6938
憒	-12.6938
蚯	-12.6938
粳	-12.6939
蠖	-12.6939
碏	-12.6939
苽	-12.6939
㴠	-12.694
琵	-12.694
抖	-12.6941
柤	-12.6941
搓	-12.6941
魍	-12.6942
炤	-12.6942
嚙	-12.6944
耑	-12.6944
匜	-12.6945
􁗁	-12.6945
昃	-12.6945
跧	-12.6946
篚	-12.6946
醬	-12.6948
鄔	-12.695
糠	-12.695
蟪	-12.6951
炮	-12.6951
粔	-12.6952
嗇	-12.6952
簑	-12.6953
擠	-12.6953
絏	-12.6953
砭	-12.6955
儆	-12.6955
擡	-12.6956
疽	-12.6957
瓻	-12.6958
﨑	-12.6959
溯	-12.6959
溽	-12.696
繻	-12.6963
篾	-12.6968
喓	-12.6971
屓	-12.6982
鵂	-12.6985
鮆	-12.6987
枍	-12.779
擫	-12.7812
枋	-12.7814
呶	-12.7816
魘	-12.7817
嶒	-12.7818
鰻	-12.7818
敇	-12.782
湃	-12.7821
痁	-12.7822
貉	-12.7823
蒞	-12.7825
抺	-12.7825
􁁜	-12.7827
羝	-12.7827
澎	-12.7827
紼	-12.7828
鶼	-12.7828
嚇	-12.7828
賫	-12.7828
袞	-12.783
皿	-12.783
墊	-12.783
􁶁	-12.783
戟	-12.783
宁	-12.7831
簋	-12.7831
葅	-12.7831
䣜	-12.7831
熂	-12.7831
蔲	-12.7832
祉	-12.7832
漑	-12.7832
滎	-12.7833
郟	-12.7833
戣	-12.7833
骼	-12.7834
赬	-12.7834
䔩	-12.7834
耜	-12.7834
㫪	-12.7835
潸	-12.7835
嶢	-12.7835
蔌	-12.7836
膂	-12.7836
𫾣	-12.7836
絀	-12.7836
䂖	-12.7837
胙	-12.7837
鸑	-12.7837
絙	-12.7837
廈	-12.7837
頠	-12.7837
沲	-12.7837
賙	-12.7837
啁	-12.7837
汞	-12.7838
迕	-12.7838
歊	-12.7838
滙	-12.7838
榾	-12.7839
嘿	-12.7839
褌	-12.7839
鬒	-12.7839
枻	-12.7839
醵	-12.784
巋	-12.784
琤	-12.784
孀	-12.784
仿	-12.784
犇	-12.784
碻	-12.784
㪷	-12.7841
昺	-12.7841
磝	-12.7841
崪	-12.7842
籕	-12.7842
帑	-12.7842
冇	-12.7843
涖	-12.7843
纁	-12.7844
彂	-12.7844
襴	-12.7844
搊	-12.7844
漭	-12.7845
勳	-12.7845
秇	-12.7845
醞	-12.7845
禿	-12.7845
枵	-12.7846
馿	-12.7846
幵	-12.7846
綌	-12.7847
遝	-12.7847
炰	-12.7847
鏟	-12.7847
磎	-12.7847
沬	-12.7848
嵍	-12.7848
巓	-12.7849
訏	-12.7849
恋	-12.7849
琲	-12.7851
纚	-12.7851
撦	-12.7851
哇	-12.7853
泂	-12.7853
碗	-12.7854
蓺	-12.7855
誹	-12.7855
蒺	-12.7855
璪	-12.7856
嘴	-12.7856
郍	-12.7856
咋	-12.7857
涿	-12.7857
鈕	-12.7861
緼	-12.7861
穂	-12.7862
粢	-12.7863
鎚	-12.7863
総	-12.7864
酡	-12.7865
璅	-12.7867
刲	-12.7874
焜	-12.7875
嫪	-12.7884
郅	-12.7904
籯	-12.8798
滈	-12.8802
錠	-12.8803
􁧐	-12.8804
峘	-12.8806
窳	-12.8807
螽	-12.8808
睎	-12.8812
汐	-12.8812
媼	-12.8812
鵕	-12.8814
橦	-12.8814
洺	-12.8815
洫	-12.8816
䂬	-12.8817
毡	-12.8817
秬	-12.8817
猩	-12.8818
麕	-12.8819
瘟	-12.8819
讞	-12.882
蹌	-12.8821
惣	-12.8821
煽	-12.8822
酴	-12.8823
罸	-12.8824
陴	-12.8824
戇	-12.8824
谺	-12.8824
鷕	-12.8825
蘢	-12.8825
竣	-12.8825
跬	-12.8825
坻	-12.8826
硃	-12.8826
鑛	-12.8826
刓	-12.8827
䂊	-12.8827
敻	-12.8827
恡	-12.8828
膇	-12.8828
难	-12.8828
热	-12.8829
㢠	-12.8829
姆	-12.883
儇	-12.883
轝	-12.8831
喋	-12.8831
啉	-12.8831
嫓	-12.8831
耼	-12.8831
戅	-12.8832
潏	-12.8832
凴	-12.8833
芔	-12.8833
􁐻	-12.8834
淛	-12.8834
礧	-12.8834
帟	-12.8835
歃	-12.8835
逌	-12.8835
㕑	-12.8835
簀	-12.8835
螂	-12.8836
唁	-12.8836
磈	-12.8836
䄡	-12.8836
袠	-12.8837
豨	-12.8837
鹺	-12.8837
聃	-12.8837
繖	-12.8838
苾	-12.8838
郫	-12.8838
祙	-12.8838
齕	-12.8839
匾	-12.8839
硎	-12.8839
醨	-12.884
錞	-12.884
醎	-12.884
饉	-12.884
澷	-12.884
櫬	-12.884
㓛	-12.8841
毓	-12.8841
犒	-12.8841
攧	-12.8841
宙	-12.8841
蘩	-12.8842
􁮺	-12.8842
麦	-12.8842
㮚	-12.8842
涂	-12.8842
萦	-12.8842
佔	-12.8843
敭	-12.8843
瓷	-12.8843
燬	-12.8843
譟	-12.8844
薈	-12.8845
鯀	-12.8845
㧾	-12.8845
搃	-12.8845
髥	-12.8846
蚨	-12.8846
燐	-12.8846
猋	-12.8846
鶵	-12.8847
薳	-12.8847
爚	-12.8848
涅	-12.8848
瞠	-12.8848
鱷	-12.8849
僶	-12.8849
綍	-12.8849
梏	-12.885
崱	-12.885
阪	-12.885
鄣	-12.8851
㳫	-12.8851
櫨	-12.8851
礦	-12.8852
邯	-12.8852
􁩑	-12.8852
刊	-12.8852
悛	-12.8853
鋼	-12.8853
饜	-12.8854
諗	-12.8855
欬	-12.8856
繊	-12.8856
脗	-12.8857
蘼	-12.8859
唄	-12.8859
裯	-12.8859
蒻	-12.886
瘵	-12.8861
㘭	-12.8862
蜥	-12.8862
紡	-12.8863
氐	-12.8864
啗	-12.8864
洳	-12.8864
冏	-12.8864
藳	-12.8865
䧺	-12.8865
闓	-12.8865
柈	-12.8866
苣	-12.8866
眊	-12.8866
墄	-12.8867
牗	-12.8869
荂	-12.8869
圄	-12.8869
囹	-12.8872
嶱	-12.8872
恂	-12.8875
酃	-12.8877
螀	-12.8877
哮	-12.888
膴	-12.8892
櫩	-12.8893
䙀	-12.8898
諴	-12.9903
芧	-12.9905
􁎃	-12.9915
䙚	-12.9917
谸	-12.9921
眙	-12.9922
裸	-12.9922
􁂴	-12.9925
揎	-12.9925
遟	-12.9925
賨	-12.9927
聡	-12.9928
邰	-12.9929
趕	-12.9929
灊	-12.993
痼	-12.993
薬	-12.9931
窿	-12.9933
涊	-12.9933
帊	-12.9934
餈	-12.9935
淟	-12.9935
罼	-12.9936
㾕	-12.9936
汛	-12.9936
簣	-12.9937
鬲	-12.9937
袷	-12.9939
殱	-12.9939
蟁	-12.9939
谹	-12.9939
囁	-12.994
胤	-12.994
蹷	-12.9942
剬	-12.9942
桶	-12.9942
襞	-12.9943
鞬	-12.9943
渰	-12.9943
墁	-12.9944
沭	-12.9944
喆	-12.9944
墾	-12.9945
剉	-12.9945
囦	-12.9945
䳵	-12.9945
兌	-12.9945
岵	-12.9946
昼	-12.9946
榰	-12.9946
廕	-12.9946
帨	-12.9947
鶄	-12.9947
菼	-12.9947
誾	-12.9947
冣	-12.9948
蕞	-12.9948
姙	-12.9948
牥	-12.9948
冄	-12.9948
谽	-12.9948
胆	-12.9948
昪	-12.9948
欻	-12.9948
珌	-12.9949
薾	-12.9949
玘	-12.9949
痒	-12.9949
惧	-12.9949
崤	-12.995
䮧	-12.995
侗	-12.995
牂	-12.995
麒	-12.995
韝	-12.9951
縆	-12.9951
筴	-12.9951
瞢	-12.9951
耡	-12.9952
驑	-12.9952
侁	-12.9952
轘	-12.9952
穱	-12.9952
荄	-12.9953
鎩	-12.9953
祺	-12.9953
輗	-12.9954
骳	-12.9954
嶪	-12.9955
叵	-12.9955
𬗋	-12.9955
淖	-12.9955
奘	-12.9955
娩	-12.9955
碨	-12.9956
囓	-12.9956
揑	-12.9957
梴	-12.9957
鬉	-12.9958
份	-12.9958
黁	-12.9958
庐	-12.9959
鏌	-12.9959
㦲	-12.996
桁	-12.996
􁣉	-12.996
驁	-12.996
砯	-12.996
鞲	-12.9961
蹂	-12.9962
鄷	-12.9962
桺	-12.9963
筳	-12.9963
尅	-12.9963
鐐	-12.9963
筏	-12.9963
韀	-12.9964
吭	-12.9964
睽	-12.9964
蜋	-12.9964
蓆	-12.9964
擿	-12.9964
㯭	-12.9964
爹	-12.9966
棒	-12.9966
鋟	-12.9967
缷	-12.9968
泬	-12.9968
丱	-12.9968
瑑	-12.997
梠	-12.997
鋸	-12.997
糲	-12.9971
甆	-12.9971
杕	-12.9971
􁀒	-12.9972
哈	-12.9974
氂	-12.9974
蜴	-12.9974
􁜣	-12.9974
嗺	-12.9975
贗	-12.9975
沗	-12.9976
廋	-12.9976
琶	-12.9976
尻	-12.9977
􁒽	-12.9977
侠	-12.9978
簘	-12.9981
瑁	-12.9981
盬	-12.9981
熲	-12.9982
黮	-12.9983
敺	-12.9985
髣	-12.9986
晢	-12.9989
㲲	-12.9991
濘	-12.9993
穜	-12.9997
彳	-13.0001
汃	-13.002
滮	-13.0027
獷	-13.116
焯	-13.1161
㱀	-13.1162
鮭	-13.1164
鰂	-13.1171
丫	-13.1172
侹	-13.1172
脰	-13.1173
暍	-13.1174
鄱	-13.1176
嚻	-13.1176
棻	-13.1177
媮	-13.1178
凟	-13.118
蚶	-13.118
纘	-13.1182
硉	-13.1182
柂	-13.1182
乹	-13.1183
㣧	-13.1184
暕	-13.1184
麪	-13.1184
㒹	-13.1184
峪	-13.1184
殛	-13.1185
蕾	-13.1185
瞍	-13.1185
柎	-13.1186
慊	-13.1186
􁈍	-13.1187
雰	-13.1189
泐	-13.1189
甦	-13.1189
侫	-13.1189
諏	-13.1189
淤	-13.1189
玭	-13.119
哢	-13.1191
㳒	-13.1191
噲	-13.1191
埴	-13.1191
噩	-13.1191
櫜	-13.1192
獪	-13.1192
鐔	-13.1192
矱	-13.1193
內	-13.1193
愀	-13.1193
届	-13.1193
檗	-13.1193
沴	-13.1193
飀	-13.1194
僩	-13.1194
兗	-13.1194
滾	-13.1195
倧	-13.1195
雘	-13.1196
炒	-13.1196
鏹	-13.1196
鞞	-13.1196
蹏	-13.1197
錙	-13.1197
怊	-13.1197
𪷟	-13.1197
瞶	-13.1197
􁃜	-13.1197
莩	-13.1197
戺	-13.1197
鍍	-13.1198
跚	-13.1198
㭊	-13.1198
灸	-13.1199
幬	-13.1199
腓	-13.1199
刖	-13.12
皜	-13.12
庀	-13.12
褉	-13.1201
貙	-13.1201
腫	-13.1201
眡	-13.1202
謄	-13.1202
䓗	-13.1203
型	-13.1204
裀	-13.1204
殳	-13.1204
疣	-13.1205
柸	-13.1205
靦	-13.1205
臬	-13.1205
儐	-13.1206
禡	-13.1206
鷸	-13.1206
耍	-13.1206
􁐓	-13.1206
巃	-13.1207
㷀	-13.1207
晬	-13.1207
詖	-13.1207
薁	-13.1207
􁓨	-13.1208
倆	-13.1208
酇	-13.1208
幪	-13.1208
㩁	-13.1209
虙	-13.121
燀	-13.121
岏	-13.121
訢	-13.1211
睞	-13.1211
冋	-13.1211
鋌	-13.1211
䗫	-13.1211
侄	-13.1211
炁	-13.1212
鞛	-13.1212
町	-13.1213
蠺	-13.1214
篿	-13.1214
柮	-13.1215
夛	-13.1215
磽	-13.1215
𠂻	-13.1215
洊	-13.1215
嵸	-13.1215
犮	-13.1215
婣	-13.1215
䥫	-13.1216
橛	-13.1217
騞	-13.1217
睍	-13.1217
眂	-13.1217
簦	-13.1218
耴	-13.1218
盩	-13.1218
獮	-13.1219
𨗳	-13.1219
纆	-13.1221
虖	-13.1222
窹	-13.1223
怵	-13.1223
祸	-13.1224
胞	-13.1224
纉	-13.1224
蠨	-13.1225
軆	-13.1225
虒	-13.1226
楂	-13.1226
暠	-13.1226
㬉	-13.1227
蛸	-13.1227
袜	-13.1229
鎧	-13.1229
䈔	-13.1229
䨥	-13.123
眦	-13.123
滹	-13.1231
麵	-13.1231
睚	-13.1232
歈	-13.1232
篡	-13.1232
螗	-13.1236
髹	-13.1241
㿿	-13.1243
飥	-13.1243
閜	-13.1248
渲	-13.1249
勮	-13.1258
芎	-13.1269
琥	-13.1272
頵	-13.2578
灂	-13.2578
魖	-13.259
􁗀	-13.2592
斉	-13.2594
漵	-13.2596
洴	-13.2596
矰	-13.2602
沜	-13.2602
脁	-13.2603
椘	-13.2603
咍	-13.2603
籝	-13.2605
甯	-13.2606
􁦚	-13.2607
扑	-13.2608
厅	-13.2608
悁	-13.2609
俁	-13.2609
槲	-13.2609
􁡯	-13.2609
穭	-13.261
荈	-13.261
湾	-13.2611
鷇	-13.2612
輳	-13.2612
胝	-13.2613
笮	-13.2613
鞘	-13.2615
喌	-13.2615
腊	-13.2615
矇	-13.2615
轆	-13.2615
膊	-13.2616
堋	-13.2617
䄄	-13.2618
􁁧	-13.2618
裓	-13.2618
垕	-13.2618
捽	-13.2618
禖	-13.2619
漘	-13.2619
縧	-13.2619
艎	-13.2619
麚	-13.262
諜	-13.262
淝	-13.2621
颿	-13.2621
燁	-13.2621
傪	-13.2621
茝	-13.2621
瀵	-13.2621
賾	-13.2621
饟	-13.2621
􁯣	-13.2621
噍	-13.2622
婷	-13.2622
卬	-13.2623
㢮	-13.2624
顐	-13.2624
襁	-13.2624
婐	-13.2624
􁅉	-13.2624
昞	-13.2624
襫	-13.2625
躑	-13.2626
晼	-13.2626
襕	-13.2626
掐	-13.2627
趠	-13.2627
芭	-13.2627
俌	-13.2627
灕	-13.2628
琉	-13.2628
䥴	-13.2628
兑	-13.2628
溵	-13.2628
捭	-13.2628
鞉	-13.2628
闟	-13.2629
詅	-13.263
嘷	-13.263
潬	-13.263
蘗	-13.2631
鄽	-13.2631
狃	-13.2631
騄	-13.2632
盒	-13.2633
芑	-13.2633
埠	-13.2634
臓	-13.2634
跑	-13.2634
箝	-13.2634
稊	-13.2635
砰	-13.2636
暵	-13.2636
虔	-13.2636
拐	-13.2636
獗	-13.2636
栲	-13.2636
恟	-13.2637
羑	-13.2638
枲	-13.2639
煢	-13.2639
侲	-13.2639
饘	-13.2639
价	-13.2641
鬖	-13.2641
溘	-13.2642
惸	-13.2642
䞇	-13.2642
芼	-13.2642
軛	-13.2642
嘐	-13.2642
眤	-13.2643
楪	-13.2643
紞	-13.2643
稲	-13.2644
粃	-13.2645
怍	-13.2645
痎	-13.2645
菖	-13.2646
娉	-13.2647
柙	-13.2647
咆	-13.2647
衖	-13.2648
澾	-13.2648
浯	-13.2648
庳	-13.2648
葯	-13.2648
􁩪	-13.2648
溲	-13.2649
臀	-13.2649
懔	-13.265
矼	-13.265
罶	-13.2651
棖	-13.2651
礲	-13.2652
朢	-13.2652
緦	-13.2653
搯	-13.2654
瀋	-13.2654
囱	-13.2654
嘬	-13.2654
鞫	-13.2655
趐	-13.2657
嬲	-13.2657
幐	-13.2658
椵	-13.2659
楦	-13.2659
裠	-13.266
讔	-13.2662
恓	-13.2662
柷	-13.2662
戹	-13.2663
喊	-13.2666
矞	-13.2666
􁇳	-13.2669
裲	-13.2672
皱	-13.2673
瀌	-13.2675
娣	-13.2678
􁆱	-13.2678
糭	-13.2679
狒	-13.2685
縩	-13.2696
薠	-13.2711
唉	-13.2761
􁨂	-13.4229
芦	-13.4247
邾	-13.425
渑	-13.4253
礶	-13.4253
籮	-13.4254
艓	-13.4254
澉	-13.4255
鮠	-13.4255
澼	-13.4257
􁈼	-13.4263
艛	-13.4263
蔦	-13.4266
鎌	-13.427
袐	-13.427
漓	-13.4271
沇	-13.4271
窱	-13.4271
㱿	-13.4272
窯	-13.4272
㫤	-13.4272
韤	-13.4272
雝	-13.4273
蛓	-13.4273
糉	-13.4274
鐍	-13.4274
喇	-13.4274
􁑼	-13.4274
瞀	-13.4275
蹠	-13.4275
麀	-13.4275
緐	-13.4276
鱔	-13.4276
眐	-13.4277
徔	-13.4278
墦	-13.4278
溈	-13.4278
腷	-13.4279
跽	-13.4279
舵	-13.4279
㲄	-13.428
煗	-13.428
鏕	-13.428
旼	-13.4281
粛	-13.4281
􁈋	-13.4282
舳	-13.4282
蚿	-13.4282
澮	-13.4282
袿	-13.4283
輠	-13.4283
㸦	-13.4283
諝	-13.4284
殍	-13.4284
饁	-13.4285
呷	-13.4285
酔	-13.4285
咈	-13.4285
萝	-13.4286
崙	-13.4286
瘉	-13.4286
胚	-13.4286
勦	-13.4287
抓	-13.4287
肪	-13.4287
碪	-13.4287
鶊	-13.4287
遴	-13.4288
变	-13.4288
櫃	-13.4288
焞	-13.4288
罣	-13.4289
筥	-13.4289
薅	-13.4289
飩	-13.4289
稭	-13.429
鉸	-13.429
畸	-13.429
㞐	-13.4291
妁	-13.4291
姍	-13.4291
劌	-13.4291
厎	-13.4292
鵡	-13.4292
眎	-13.4293
邜	-13.4293
䚦	-13.4293
崟	-13.4293
曀	-13.4293
隩	-13.4293
㷔	-13.4293
鄶	-13.4293
穨	-13.4293
鏝	-13.4293
黌	-13.4294
􁝜	-13.4294
嗉	-13.4294
柅	-13.4294
佼	-13.4294
皞	-13.4294
蕕	-13.4295
勌	-13.4295
𧖟	-13.4295
縰	-13.4295
愎	-13.4296
歕	-13.4297
鮀	-13.4297
楶	-13.4297
欤	-13.4298
賍	-13.4298
沍	-13.4299
揃	-13.4299
𫝊	-13.4299
曕	-13.4299
餼	-13.4299
逤	-13.4299
􁪽	-13.4299
嚞	-13.4299
剙	-13.4299
爝	-13.43
嬗	-13.43
斆	-13.4301
鱮	-13.4301
枒	-13.4302
㱔	-13.4302
鬌	-13.4302
鰈	-13.4303
剸	-13.4303
黝	-13.4303
􁥽	-13.4303
矻	-13.4304
暱	-13.4305
燋	-13.4305
忉	-13.4305
埓	-13.4305
尢	-13.4305
蘦	-13.4306
郸	-13.4306
蘃	-13.4307
虓	-13.4307
㻛	-13.4307
圑	-13.4307
磅	-13.4308
絜	-13.4308
薧	-13.4308
踳	-13.4308
閿	-13.4309
鶪	-13.4309
杻	-13.4309
澱	-13.4309
蠋	-13.4309
䑃	-13.431
酖	-13.431
妊	-13.4311
蕐	-13.4311
殮	-13.4311
噂	-13.4311
焼	-13.4311
倀	-13.4311
滏	-13.4312
扯	-13.4312
櫧	-13.4312
穸	-13.4312
窀	-13.4312
㓨	-13.4313
銚	-13.4313
禜	-13.4313
砦	-13.4313
崿	-13.4314
瘼	-13.4314
腠	-13.4314
艣	-13.4315
凨	-13.4316
凂	-13.4316
瑴	-13.4317
洏	-13.4317
頖	-13.4317
儵	-13.4317
劼	-13.4318
吚	-13.4318
兊	-13.4318
栻	-13.4319
賻	-13.4319
妷	-13.4319
独	-13.4319
篊	-13.4319
膀	-13.432
桉	-13.432
嚵	-13.4321
壒	-13.4321
媯	-13.4322
𬈑	-13.4322
僴	-13.4323
胖	-13.4323
滃	-13.4323
讟	-13.4324
篩	-13.4325
桮	-13.4325
堇	-13.4327
广	-13.4328
套	-13.4329
机	-13.433
餡	-13.433
哤	-13.433
㰂	-13.433
䥥	-13.4331
耰	-13.4332
嶁	-13.4332
尠	-13.4333
䓁	-13.4333
隝	-13.4335
㢲	-13.434
樨	-13.4345
盭	-13.4346
歪	-13.4348
􁡸	-13.4355
瀃	-13.4372
姱	-13.4373
犴	-13.4378
臝	-13.6224
狶	-13.6242
鱟	-13.6247
皥	-13.6248
蠓	-13.6249
埛	-13.6254
臏	-13.6255
梲	-13.6256
襆	-13.6256
邍	-13.6256
䲹	-13.6256
藙	-13.6259
玅	-13.6262
篱	-13.6262
蒟	-13.6264
眵	-13.6264
􁖔	-13.6265
􁰈	-13.6265
靉	-13.6265
珤	-13.6265
棉	-13.6266
攃	-13.6266
䘵	-13.6267
衂	-13.6267
筈	-13.6267
嵂	-13.6268
鄮	-13.6268
楢	-13.6268
殢	-13.6268
怫	-13.6269
鰋	-13.6269
骭	-13.6271
屼	-13.6272
􁆍	-13.6272
籛	-13.6273
癃	-13.6273
􁑾	-13.6273
􁰵	-13.6273
㘽	-13.6273
趫	-13.6275
婭	-13.6275
醤	-13.6275
礟	-13.6275
碟	-13.6275
㫋	-13.6276
齗	-13.6277
㐀	-13.6277
苫	-13.6278
𢥠	-13.6278
蜇	-13.6278
觟	-13.6278
閠	-13.6278
隟	-13.6279
雇	-13.628
龏	-13.628
􁛲	-13.628
蔫	-13.6281
鉌	-13.6281
篳	-13.6282
璈	-13.6282
鰐	-13.6282
亜	-13.6282
担	-13.6282
壎	-13.6282
愒	-13.6282
滷	-13.6283
齁	-13.6283
縡	-13.6283
抌	-13.6283
鴦	-13.6284
褕	-13.6284
撘	-13.6284
惝	-13.6284
旉	-13.6284
搉	-13.6285
麩	-13.6285
鑕	-13.6285
鞹	-13.6285
􁆩	-13.6285
疁	-13.6285
圩	-13.6286
閾	-13.6286
蠕	-13.6287
𫐠	-13.6287
匼	-13.6287
縯	-13.6287
隮	-13.6287
皭	-13.6287
嫫	-13.6288
橅	-13.6288
与	-13.6288
氳	-13.6288
鞸	-13.6288
卨	-13.6289
鶋	-13.6289
牣	-13.6289
趼	-13.6289
泑	-13.629
􁛙	-13.629
鞓	-13.6291
璙	-13.6291
賅	-13.6291
邲	-13.6291
矹	-13.6292
擄	-13.6292
滲	-13.6292
𥅆	-13.6293
搤	-13.6293
惏	-13.6293
嗽	-13.6293
筧	-13.6293
釴	-13.6294
浼	-13.6294
箐	-13.6294
壡	-13.6294
狺	-13.6295
椑	-13.6295
佽	-13.6295
鷫	-13.6295
饔	-13.6297
溍	-13.6297
􁁅	-13.6297
䈥	-13.6297
橑	-13.6297
拇	-13.6297
硏	-13.6297
簉	-13.6298
訇	-13.6298
边	-13.6298
匊	-13.6298
陊	-13.6298
粕	-13.6298
讕	-13.6298
踡	-13.6298
熄	-13.6299
肬	-13.6299
琇	-13.6299
薯	-13.6299
􁅔	-13.6299
嫺	-13.63
还	-13.63
汊	-13.63
贜	-13.63
蠝	-13.63
墐	-13.6301
禩	-13.6301
榝	-13.6301
毖	-13.6301
魈	-13.6302
宂	-13.6302
漼	-13.6302
荐	-13.6302
辮	-13.6302
譊	-13.6302
撎	-13.6302
卹	-13.6303
誶	-13.6303
鯈	-13.6304
醼	-13.6304
黕	-13.6304
屴	-13.6304
􁒷	-13.6304
惆	-13.6304
䓤	-13.6305
悃	-13.6305
􁧥	-13.6305
傞	-13.6306
孛	-13.6306
槮	-13.6306
褷	-13.6307
僰	-13.6307
轤	-13.6307
糒	-13.6307
倬	-13.6307
鎛	-13.6307
帢	-13.6307
瘏	-13.6308
笔	-13.6308
灺	-13.6308
翀	-13.6308
祼	-13.6309
懍	-13.6309
紲	-13.6309
聓	-13.6309
彡	-13.6309
毈	-13.6309
飪	-13.631
愓	-13.631
㴞	-13.631
綈	-13.6311
榨	-13.6311
蜣	-13.6312
酆	-13.6312
􁌀	-13.6312
􁚐	-13.6313
恼	-13.6313
茞	-13.6313
䶵	-13.6314
僇	-13.6314
韌	-13.6314
蝪	-13.6315
潗	-13.6315
臕	-13.6315
虤	-13.6315
哆	-13.6316
虽	-13.6316
粵	-13.6317
佷	-13.6317
匭	-13.6319
釆	-13.632
鬃	-13.632
嗑	-13.6321
橪	-13.6321
闤	-13.6322
韲	-13.6322
豝	-13.6323
庯	-13.6323
鑴	-13.6323
蛰	-13.6323
栫	-13.6323
秕	-13.6324
𤯝	-13.6324
甔	-13.6325
窞	-13.6325
洑	-13.6326
齦	-13.6326
唘	-13.6327
樁	-13.6327
蕣	-13.6327
嶻	-13.6328
琭	-13.6328
咻	-13.6329
够	-13.633
槬	-13.633
姣	-13.6332
簳	-13.6333
緍	-13.6334
蛈	-13.6334
汳	-13.6336
蟊	-13.6337
頩	-13.634
瀫	-13.634
聪	-13.634
宄	-13.6341
婟	-13.6342
覼	-13.6344
􁰻	-13.6345
搰	-13.6345
檛	-13.6345
蝓	-13.6345
㰖	-13.6347
矲	-13.6347
狴	-13.635
黦	-13.635
炕	-13.6351
㲪	-13.6352
榞	-13.6352
穋	-13.6353
魨	-13.6353
衱	-13.636
孴	-13.6361
􁀺	-13.6361
嚦	-13.6366
䃱	-13.6368
茔	-13.6376
逴	-13.6382
睩	-13.6408
觿	-13.648
蓱	-13.8594
鷉	-13.8659
遰	-13.8726
懺	-13.8739
懴	-13.874
畮	-13.8742
嗈	-13.8744
髐	-13.8746
䰅	-13.8747
瀠	-13.875
卾	-13.8751
憺	-13.8753
很	-13.8754
弸	-13.8754
鷿	-13.8755
彃	-13.8755
鶱	-13.8755
瑊	-13.8755
􁥫	-13.8758
鬨	-13.8759
蝱	-13.8761
黶	-13.8761
檿	-13.8761
輢	-13.8761
玃	-13.8762
扮	-13.8762
嵪	-13.8762
矴	-13.8762
凙	-13.8762
褫	-13.8764
胔	-13.8764
􁂶	-13.8764
􁓁	-13.8764
欑	-13.8765
䰞	-13.8765
荩	-13.8765
鏽	-13.8766
嚱	-13.8766
褾	-13.8766
㙮	-13.8768
􁞠	-13.8768
憸	-13.8768
淈	-13.8769
縐	-13.8769
蠵	-13.8769
葫	-13.877
􁵨	-13.8771
釄	-13.8771
胼	-13.8771
瞩	-13.8771
籒	-13.8771
褶	-13.8772
邭	-13.8772
煴	-13.8772
攟	-13.8772
蜮	-13.8773
濼	-13.8773
蔾	-13.8773
裌	-13.8773
躐	-13.8773
擪	-13.8773
舼	-13.8773
􁐨	-13.8773
糵	-13.8775
搒	-13.8776
瀁	-13.8776
噣	-13.8776
薮	-13.8778
噭	-13.8778
㕥	-13.8779
􁲍	-13.8779
嫻	-13.8779
􁪄	-13.8779
㟧	-13.8779
蠐	-13.878
猻	-13.878
哨	-13.878
墖	-13.878
叉	-13.878
菔	-13.878
覌	-13.878
彯	-13.878
搽	-13.8782
抆	-13.8782
蓧	-13.8782
酘	-13.8782
儓	-13.8783
罋	-13.8783
㬢	-13.8783
帋	-13.8783
匈	-13.8783
􁭤	-13.8783
坪	-13.8783
胹	-13.8783
慴	-13.8784
釗	-13.8784
伷	-13.8785
猺	-13.8785
閡	-13.8785
䊋	-13.8785
獐	-13.8785
篛	-13.8785
塈	-13.8785
烺	-13.8785
磑	-13.8785
襇	-13.8785
躠	-13.8785
䄜	-13.8786
戭	-13.8786
瞎	-13.8786
隽	-13.8786
裵	-13.8786
袚	-13.8786
袛	-13.8786
澂	-13.8786
鮹	-13.8786
敳	-13.8787
螬	-13.8787
愞	-13.8787
廁	-13.8787
胠	-13.8787
倥	-13.8788
潠	-13.8789
洌	-13.8789
峕	-13.8789
抶	-13.8789
墢	-13.8789
掁	-13.8789
莅	-13.8789
詧	-13.8789
膰	-13.879
楗	-13.879
稌	-13.879
謦	-13.879
䄖	-13.879
嚗	-13.879
鱏	-13.879
娵	-13.8791
厰	-13.8791
仵	-13.8792
芃	-13.8792
蒳	-13.8792
􁡷	-13.8792
鋗	-13.8793
蟈	-13.8793
姤	-13.8793
劖	-13.8793
􁱝	-13.8793
藋	-13.8793
㴻	-13.8793
囋	-13.8793
牯	-13.8793
忖	-13.8794
椓	-13.8794
洿	-13.8794
胊	-13.8794
鬍	-13.8794
譾	-13.8794
銙	-13.8794
祫	-13.8794
㭒	-13.8794
弮	-13.8796
埈	-13.8796
㲉	-13.8796
踠	-13.8796
䳌	-13.8796
􁜡	-13.8797
屝	-13.8797
啅	-13.8797
姉	-13.8797
觶	-13.8797
旧	-13.8797
癰	-13.8797
􁌽	-13.8797
鐮	-13.8797
撅	-13.8797
膈	-13.8797
龢	-13.8797
愾	-13.8798
韎	-13.8798
􁂁	-13.8798
栱	-13.8798
翡	-13.8799
絇	-13.88
蹡	-13.88
叀	-13.88
磕	-13.8801
歠	-13.8801
湞	-13.8801
匯	-13.8801
壝	-13.8801
樑	-13.8801
䓻	-13.8801
抏	-13.8801
踦	-13.8801
撙	-13.8802
枅	-13.8803
笆	-13.8803
蟛	-13.8803
壄	-13.8804
嬀	-13.8804
舋	-13.8804
䁀	-13.8804
斮	-13.8804
旺	-13.8804
覡	-13.8804
齼	-13.8804
竁	-13.8805
颾	-13.8805
荗	-13.8805
霂	-13.8805
慍	-13.8805
杈	-13.8805
栅	-13.8805
圬	-13.8805
㧕	-13.8805
駓	-13.8805
䲛	-13.8805
瞹	-13.8805
䀻	-13.8806
凘	-13.8807
辠	-13.8807
蕝	-13.8807
蛭	-13.8807
譸	-13.8807
攡	-13.8807
幺	-13.8807
軄	-13.8807
弆	-13.8807
脹	-13.8808
淯	-13.8808
薗	-13.8808
埵	-13.8808
媾	-13.8809
筞	-13.8809
𩕳	-13.8809
鞦	-13.8809
噏	-13.881
銕	-13.881
齖	-13.881
諉	-13.8811
仡	-13.8811
褧	-13.8811
厩	-13.8811
氄	-13.8811
肫	-13.8811
澇	-13.8812
泖	-13.8812
朙	-13.8812
鎣	-13.8812
藷	-13.8812
舐	-13.8812
軏	-13.8813
怤	-13.8813
􁀼	-13.8814
蛹	-13.8814
嶕	-13.8814
㘅	-13.8814
枤	-13.8814
嫮	-13.8815
踼	-13.8815
􁰙	-13.8815
筓	-13.8816
冱	-13.8816
蔀	-13.8816
祻	-13.8816
鄢	-13.8816
畷	-13.8816
瑇	-13.8818
萤	-13.8818
𪠘	-13.8818
衵	-13.8818
嚘	-13.8819
抨	-13.8819
覻	-13.8819
靠	-13.8821
寠	-13.8821
扠	-13.8821
曎	-13.8821
刅	-13.8822
枷	-13.8822
􁄺	-13.8822
戃	-13.8822
咂	-13.8822
杙	-13.8823
疢	-13.8823
桕	-13.8823
㚄	-13.8823
􁑞	-13.8825
韔	-13.8825
㟽	-13.8825
狭	-13.8826
禘	-13.8826
􁏢	-13.8826
袨	-13.8827
贒	-13.8827
阯	-13.8827
漰	-13.8827
餕	-13.8828
騧	-13.8829
矌	-13.8829
絨	-13.8829
􁬁	-13.883
玕	-13.8831
蚧	-13.8832
頮	-13.8832
􁆠	-13.8832
靼	-13.8833
㰱	-13.8833
屇	-13.8833
笪	-13.8834
珈	-13.8834
􁥀	-13.8834
靁	-13.8836
揲	-13.8836
鰓	-13.8836
眚	-13.8837
􁂫	-13.8837
䦧	-13.8839
蜞	-13.884
睱	-13.8841
蓪	-13.8841
啐	-13.8843
椏	-13.8844
阽	-13.8846
唏	-13.8848
腯	-13.8848
􁱪	-13.8848
眶	-13.885
仾	-13.8851
鷊	-13.8855
䍡	-13.8855
􁛀	-13.8855
鄗	-13.8862
摫	-13.8865
鈲	-13.8865
磹	-13.8868
蕆	-13.887
焭	-13.8873
爥	-13.8893
狌	-13.8905
壩	-13.8918
簨	-14.2039
庍	-14.2067
䯻	-14.2069
鷓	-14.2069
齩	-14.2072
恆	-14.2074
僔	-14.2076
墪	-14.2078
􁈇	-14.2078
剋	-14.208
拮	-14.208
尫	-14.208
崢	-14.2082
擂	-14.2082
莛	-14.2082
醱	-14.2084
􁁄	-14.2084
轕	-14.2084
嫖	-14.2085
鵓	-14.2086
笱	-14.2088
窊	-14.2088
靸	-14.2088
􁈠	-14.2088
掙	-14.2088
划	-14.2088
鑼	-14.209
煓	-14.209
滍	-14.2092
䏑	-14.2092
縗	-14.2092
􁤃	-14.2092
蘌	-14.2093
刧	-14.2094
𣆀	-14.2094
㢧	-14.2094
𣪚	-14.2094
姧	-14.2094
柺	-14.2094
褣	-14.2094
誺	-14.2094
甪	-14.2095
嬛	-14.2096
祊	-14.2096
凥	-14.2097
駴	-14.2099
罙	-14.2099
㐲	-14.2099
㮄	-14.2101
暏	-14.2101
澨	-14.2101
呆	-14.2101
烖	-14.2101
豭	-14.2103
堄	-14.2103
􁉔	-14.2103
芉	-14.2103
桹	-14.2103
醝	-14.2103
瑭	-14.2103
憙	-14.2103
㫺	-14.2105
㧝	-14.2105
􁏠	-14.2107
餵	-14.2107
伃	-14.2107
悊	-14.2107
衹	-14.2107
涷	-14.2107
砠	-14.2107
竷	-14.2107
霪	-14.2107
鴸	-14.2107
怦	-14.2109
揵	-14.2109
耉	-14.2109
偵	-14.2109
睟	-14.2109
褵	-14.2109
怲	-14.2109
滫	-14.2109
讇	-14.2109
擑	-14.2109
柹	-14.2109
渫	-14.2109
熥	-14.2109
陒	-14.2109
霶	-14.2109
吷	-14.2111
篪	-14.2111
呤	-14.2111
忪	-14.2111
拕	-14.2111
摟	-14.2111
褻	-14.2111
􁣌	-14.2111
醿	-14.2113
鱨	-14.2113
㢗	-14.2113
浡	-14.2113
祹	-14.2113
礭	-14.2113
䫫	-14.2113
訽	-14.2113
鬘	-14.2113
煁	-14.2115
曚	-14.2115
痞	-14.2115
燂	-14.2115
荊	-14.2115
僨	-14.2115
呫	-14.2115
訦	-14.2115
鱘	-14.2115
攎	-14.2117
糸	-14.2117
笁	-14.2117
􁊋	-14.2117
蕷	-14.2117
㟭	-14.2117
浞	-14.2117
踉	-14.2117
撡	-14.2118
儤	-14.2119
鈒	-14.2119
孏	-14.2119
駏	-14.2119
痡	-14.2119
睆	-14.2119
鄄	-14.2119
餛	-14.2119
偲	-14.2119
兟	-14.2119
噇	-14.2119
蓤	-14.2119
螹	-14.2119
韰	-14.2119
􁋊	-14.2121
獧	-14.2121
萑	-14.2121
摒	-14.2121
􁴝	-14.2122
嶫	-14.2123
迮	-14.2123
䴵	-14.2123
焕	-14.2123
脔	-14.2123
俲	-14.2123
刎	-14.2123
塛	-14.2123
婬	-14.2123
掆	-14.2123
窃	-14.2123
靘	-14.2123
鮐	-14.2123
㢸	-14.2124
􁭀	-14.2124
謖	-14.2124
嘽	-14.2125
讋	-14.2125
穊	-14.2125
顋	-14.2125
騭	-14.2125
􁟆	-14.2125
㲹	-14.2126
棬	-14.2126
餱	-14.2126
砉	-14.2126
麨	-14.2126
玿	-14.2126
蔴	-14.2126
鼗	-14.2127
鰷	-14.2128
碇	-14.2128
擗	-14.2128
萯	-14.2128
鵙	-14.2128
飊	-14.2128
㠯	-14.2128
齔	-14.2128
憕	-14.2128
豩	-14.2128
餫	-14.2128
􁡡	-14.2128
衕	-14.213
獶	-14.213
㽦	-14.213
玹	-14.213
鴝	-14.213
灎	-14.213
蟋	-14.213
澞	-14.213
甀	-14.213
􁒍	-14.213
衚	-14.2132
鼪	-14.2132
䒹	-14.2132
朐	-14.2132
鞻	-14.2132
䨴	-14.2132
霙	-14.2132
䕩	-14.2132
晜	-14.2132
蘡	-14.2132
腆	-14.2134
糈	-14.2134
煼	-14.2134
輛	-14.2134
黳	-14.2134
㡡	-14.2134
囉	-14.2134
徕	-14.2134
鎁	-14.2134
㬠	-14.2134
畐	-14.2134
滀	-14.2136
卅	-14.2136
禈	-14.2136
嗒	-14.2136
菹	-14.2136
䠞	-14.2137
咥	-14.2138
徘	-14.2138
穪	-14.2138
詿	-14.2138
垀	-14.2138
脽	-14.2138
怔	-14.2138
脑	-14.2138
饙	-14.2138
䣃	-14.2138
墠	-14.2138
禬	-14.2138
􁵹	-14.2138
痿	-14.2138
婥	-14.2138
㻦	-14.214
哄	-14.214
躧	-14.214
嘨	-14.214
猢	-14.214
亰	-14.214
迩	-14.214
朌	-14.214
枹	-14.214
溳	-14.214
㴲	-14.214
徯	-14.214
擥	-14.214
黱	-14.214
診	-14.2142
鶿	-14.2142
􁯘	-14.2142
䮍	-14.2142
殕	-14.2142
璲	-14.2142
翆	-14.2142
蓏	-14.2142
酗	-14.2142
靷	-14.2142
饊	-14.2142
􁍋	-14.2142
􁒓	-14.2142
輤	-14.2143
繿	-14.2144
苙	-14.2144
轑	-14.2144
愡	-14.2144
贐	-14.2144
䗁	-14.2144
檍	-14.2144
逑	-14.2144
􁔡	-14.2144
扸	-14.2146
卣	-14.2146
鬣	-14.2146
㩎	-14.2146
偰	-14.2146
竑	-14.2146
㕁	-14.2146
俅	-14.2146
厪	-14.2146
湨	-14.2146
觹	-14.2146
訌	-14.2146
惮	-14.2148
劎	-14.2148
崞	-14.2148
驆	-14.2148
㬌	-14.2148
讁	-14.2148
巀	-14.2148
鷳	-14.2148
䖟	-14.2148
荖	-14.2148
銮	-14.2148
􁲕	-14.2148
籪	-14.2148
鎸	-14.2148
鰌	-14.2148
䭀	-14.2148
䀨	-14.2149
翯	-14.215
禝	-14.215
迆	-14.215
盝	-14.215
頬	-14.215
佈	-14.215
矅	-14.215
訧	-14.2151
畯	-14.2152
鄘	-14.2152
㽜	-14.2152
䱹	-14.2152
闃	-14.2152
欏	-14.2152
肧	-14.2153
厈	-14.2153
籚	-14.2153
鴃	-14.2153
屺	-14.2153
茇	-14.2153
衊	-14.2153
骫	-14.2153
柪	-14.2153
􁑕	-14.2153
軧	-14.2153
􁑖	-14.2153
湌	-14.2155
絫	-14.2155
赩	-14.2155
霣	-14.2155
鯫	-14.2155
槗	-14.2155
簵	-14.2155
嗢	-14.2155
郿	-14.2155
卺	-14.2155
圮	-14.2155
恫	-14.2155
鉒	-14.2155
􁎾	-14.2155
慁	-14.2157
蝝	-14.2157
硌	-14.2157
痰	-14.2157
湿	-14.2157
碕	-14.2157
岣	-14.2157
齠	-14.2157
􁄂	-14.2157
緄	-14.2158
􁸕	-14.2159
縭	-14.2159
弢	-14.2159
蜆	-14.2159
珽	-14.2159
䋄	-14.2159
毐	-14.2161
緉	-14.2161
蘘	-14.2161
昫	-14.2161
訿	-14.2163
橜	-14.2163
鬮	-14.2163
嚩	-14.2163
晌	-14.2163
蚖	-14.2163
赱	-14.2163
鰣	-14.2163
斻	-14.2165
灃	-14.2165
蟺	-14.2165
􁈓	-14.2165
屦	-14.2165
嘩	-14.2167
箾	-14.2167
諟	-14.2167
嗛	-14.2167
郔	-14.2167
蓘	-14.2169
嵠	-14.2169
獒	-14.2169
䰀	-14.2169
茀	-14.2169
斒	-14.2171
綖	-14.2171
瑱	-14.2171
偒	-14.2171
穄	-14.2171
餹	-14.2171
􁀨	-14.2171
鋣	-14.2175
溔	-14.2175
􁞎	-14.2175
綄	-14.2177
圁	-14.2177
􁀫	-14.2178
棓	-14.2179
睅	-14.2179
輀	-14.2179
橆	-14.2179
愰	-14.218
䆮	-14.218
歋	-14.218
瘕	-14.2182
餺	-14.2183
􁕓	-14.2184
歗	-14.2186
栯	-14.2186
罛	-14.2186
觭	-14.2188
涬	-14.2188
墆	-14.2188
俵	-14.219
蔿	-14.2192
娙	-14.2194
犛	-14.2194
玗	-14.2194
􁵉	-14.2196
􁂼	-14.2198
䏶	-14.22
菶	-14.2208
堲	-14.2209
崈	-14.2209
緖	-14.2209
芘	-14.2211
髟	-14.2213
噦	-14.2215
橩	-14.2215
槦	-14.2219
庩	-14.2229
搪	-14.2233
葴	-14.2233
菥	-14.2236
㺄	-14.2238
㿥	-14.2252
皉	-14.2258
薉	-14.2339
烔	-14.6876
爞	-14.6876
榽	-14.7001
橀	-14.7004
樝	-14.7026
慺	-14.7026
呾	-14.7029
桅	-14.7033
槏	-14.7039
㨖	-14.7042
抬	-14.7045
㪍	-14.7048
繤	-14.7048
庥	-14.7051
㥄	-14.7058
瑲	-14.7058
晹	-14.7061
殚	-14.7061
撨	-14.7064
篐	-14.7064
䏰	-14.7067
珀	-14.7067
梱	-14.707
棕	-14.707
嬝	-14.707
䔍	-14.7073
瞱	-14.7073
淊	-14.7073
聎	-14.7076
罻	-14.7077
丨	-14.7077
凮	-14.7077
紶	-14.7077
槯	-14.708
罗	-14.708
䈂	-14.7083
鴣	-14.7083
艴	-14.7083
薶	-14.7083
䰒	-14.7083
偼	-14.7083
僛	-14.7083
㗋	-14.7086
杀	-14.7086
伈	-14.7086
䭔	-14.7086
笨	-14.7086
藇	-14.7086
惔	-14.7089
唑	-14.7089
茈	-14.7089
旯	-14.7089
㟴	-14.7089
毌	-14.7089
㘖	-14.7089
䟃	-14.7089
糯	-14.7089
罡	-14.7089
涒	-14.7092
疹	-14.7092
掦	-14.7092
嬿	-14.7092
緺	-14.7092
嶅	-14.7092
澴	-14.7092
葘	-14.7092
蓰	-14.7092
牸	-14.7092
羖	-14.7092
摉	-14.7095
䁱	-14.7095
朒	-14.7095
焻	-14.7095
蔇	-14.7095
蕈	-14.7095
劓	-14.7095
捘	-14.7095
毰	-14.7095
猬	-14.7095
硜	-14.7095
磜	-14.7095
狁	-14.7097
獫	-14.7097
甒	-14.7099
塒	-14.7099
媺	-14.7099
箑	-14.7099
湱	-14.7099
皬	-14.7099
亸	-14.7102
㵸	-14.7102
籄	-14.7102
㠋	-14.7102
嵕	-14.7102
丅	-14.7102
簬	-14.7102
旈	-14.7102
冪	-14.7102
刜	-14.7102
嚃	-14.7102
橮	-14.7102
疃	-14.7102
枏	-14.7102
菻	-14.7102
掏	-14.7105
㻫	-14.7105
枮	-14.7105
噞	-14.7105
艅	-14.7105
蕰	-14.7105
䬪	-14.7105
獾	-14.7105
眯	-14.7105
箙	-14.7105
灤	-14.7108
倮	-14.7108
䠂	-14.7108
埕	-14.7108
捺	-14.7108
璛	-14.7108
㞦	-14.7108
䁥	-14.7108
䘨	-14.7108
䫙	-14.7108
䬘	-14.7108
幧	-14.7108
歹	-14.7108
礜	-14.7108
罐	-14.7108
扂	-14.7111
岹	-14.7111
娄	-14.7111
娰	-14.7111
巹	-14.7111
卌	-14.7111
岊	-14.7111
挣	-14.7111
杅	-14.7111
栾	-14.7111
歅	-14.7111
瓞	-14.7111
蕢	-14.7111
旜	-14.7111
塪	-14.7114
䃁	-14.7114
薔	-14.7114
㬇	-14.7114
瞾	-14.7114
嚭	-14.7114
忺	-14.7114
惷	-14.7114
漩	-14.7114
畞	-14.7114
㗁	-14.7114
䔖	-14.7114
䘚	-14.7114
䯀	-14.7114
呐	-14.7114
峦	-14.7114
幂	-14.7114
苪	-14.7114
盋	-14.7117
玆	-14.7117
炲	-14.7117
疼	-14.7117
睁	-14.7117
䔧	-14.7118
櫕	-14.7118
嵘	-14.7118
㔾	-14.7118
㦧	-14.7118
斨	-14.7118
㒰	-14.7118
䖳	-14.7118
䡾	-14.7118
潙	-14.7118
琁	-14.7118
璂	-14.7118
瞤	-14.7118
竜	-14.7118
簩	-14.7118
墼	-14.7119
惄	-14.7119
庂	-14.7121
䆗	-14.7121
岝	-14.7121
帴	-14.7121
秸	-14.7121
罫	-14.7121
㘈	-14.7121
㠖	-14.7121
䛏	-14.7121
侻	-14.7121
傔	-14.7121
唽	-14.7121
喞	-14.7121
喤	-14.7121
庬	-14.7121
慽	-14.7121
椗	-14.7121
烻	-14.7121
焠	-14.7121
籊	-14.7121
罃	-14.7121
蛣	-14.7124
塠	-14.7124
潨	-14.7124
㥀	-14.7124
胯	-14.7124
悻	-14.7124
烬	-14.7124
摐	-14.7124
熿	-14.7124
痣	-14.7124
矑	-14.7124
嘍	-14.7124
壉	-14.7124
莔	-14.7124
愐	-14.7125
嘑	-14.7127
莝	-14.7127
怐	-14.7127
艼	-14.7127
扒	-14.7127
亐	-14.7127
曯	-14.7127
髴	-14.7127
䊸	-14.7127
傎	-14.7127
旹	-14.7127
㭿	-14.7127
壾	-14.7127
嬭	-14.7127
戬	-14.7127
疻	-14.7127
竆	-14.7127
絅	-14.7127
芵	-14.7127
葚	-14.7127
蕸	-14.7127
蚻	-14.7127
䒠	-14.7127
莓	-14.7129
跎	-14.713
㬱	-14.713
櫋	-14.713
鄲	-14.713
伭	-14.713
囤	-14.713
柫	-14.713
憭	-14.713
楔	-14.713
皡	-14.713
㩧	-14.713
坱	-14.713
昷	-14.713
歀	-14.713
沠	-14.713
燹	-14.713
茩	-14.713
庨	-14.7133
尨	-14.7133
氾	-14.7133
丗	-14.7133
脤	-14.7133
䆷	-14.7133
䰙	-14.7133
䵎	-14.7133
仉	-14.7133
兪	-14.7133
凃	-14.7133
圀	-14.7133
埊	-14.7133
媱	-14.7133
宀	-14.7133
廦	-14.7133
潴	-14.7133
狔	-14.7133
症	-14.7133
瘤	-14.7133
矉	-14.7133
薢	-14.7133
桿	-14.7136
㓪	-14.7136
䲧	-14.7136
筤	-14.7136
傒	-14.7136
儌	-14.7136
卥	-14.7136
稡	-14.7136
纕	-14.7136
腪	-14.7136
揠	-14.7136
椾	-14.7136
澭	-14.7136
朮	-14.7138
浰	-14.714
噆	-14.714
榎	-14.714
昈	-14.714
曅	-14.714
淀	-14.714
䆟	-14.714
厶	-14.714
屮	-14.714
渢	-14.714
竞	-14.714
箟	-14.714
罦	-14.714
艐	-14.714
藑	-14.714
摝	-14.7143
篹	-14.7143
蒢	-14.7143
薕	-14.7143
婞	-14.7143
䃘	-14.7143
儜	-14.7143
喣	-14.7143
峚	-14.7143
柧	-14.7143
莵	-14.7143
弯	-14.7146
甽	-14.7146
汸	-14.7146
彔	-14.7146
瑨	-14.7146
杶	-14.7146
棁	-14.7146
碙	-14.7146
経	-14.7146
捱	-14.7146
㡩	-14.7146
㪇	-14.7146
䞉	-14.7146
叄	-14.7146
櫑	-14.7146
疪	-14.7146
堮	-14.7149
楖	-14.7149
爟	-14.7149
蘀	-14.7149
妮	-14.7149
炖	-14.7149
㠝	-14.7149
劲	-14.7149
梃	-14.7149
憁	-14.7149
淰	-14.7149
嶭	-14.7149
㹠	-14.7149
嘄	-14.7149
洔	-14.7149
洭	-14.7149
璝	-14.7152
厘	-14.7152
筰	-14.7152
墙	-14.7152
䉫	-14.7152
渣	-14.7152
璬	-14.7152
芓	-14.7152
蓛	-14.7152
㢝	-14.7152
峱	-14.7152
廜	-14.7152
猕	-14.7152
薹	-14.7152
㷆	-14.7152
䱥	-14.7152
佅	-14.7152
囏	-14.7152
篏	-14.7152
椚	-14.7155
筶	-14.7155
睪	-14.7155
憪	-14.7155
祢	-14.7155
綥	-14.7155
䋣	-14.7158
泞	-14.7158
矟	-14.7158
岨	-14.7158
摚	-14.7158
繗	-14.7158
䦞	-14.7158
翣	-14.7158
菄	-14.7158
晛	-14.7161
樀	-14.7162
嗾	-14.7162
帡	-14.7165
㜷	-14.7165
㴾	-14.7165
抚	-14.7165
碯	-14.7165
葊	-14.7165
䕺	-14.7165
媢	-14.7165
残	-14.7165
汔	-14.7165
琡	-14.7165
甗	-14.7165
祍	-14.7165
腭	-14.7165
芿	-14.7165
嶝	-14.7168
恇	-14.7168
瑠	-14.7168
獍	-14.7168
帤	-14.7168
愊	-14.7168
碼	-14.7168
籲	-14.7168
䫤	-14.7168
喀	-14.7168
硝	-14.7168
綝	-14.7168
縴	-14.7168
懥	-14.7171
瑘	-14.7171
㧓	-14.7171
嘅	-14.7171
泆	-14.7171
㜘	-14.7171
㟠	-14.7171
喩	-14.7171
扢	-14.7171
摳	-14.7171
旿	-14.7171
毵	-14.7171
湩	-14.7171
眴	-14.7171
稈	-14.7171
荚	-14.7171
臿	-14.7174
玞	-14.7174
珷	-14.7174
亝	-14.7174
斘	-14.7174
䫈	-14.7174
孶	-14.7174
嵾	-14.7174
嚄	-14.7174
䁆	-14.7174
壜	-14.7174
孼	-14.7174
綐	-14.7174
珫	-14.7177
剟	-14.7177
揫	-14.7177
蘠	-14.7177
娽	-14.7177
枑	-14.7177
梐	-14.7177
洍	-14.7177
浻	-14.7177
蓿	-14.7177
懘	-14.718
灋	-14.718
拷	-14.7181
㠎	-14.7181
撈	-14.7181
簃	-14.7181
繶	-14.7181
㙱	-14.7184
枓	-14.7184
獃	-14.7184
窽	-14.7184
熯	-14.7187
禂	-14.7187
菣	-14.7187
硿	-14.7187
荽	-14.7187
磥	-14.719
䜪	-14.719
慆	-14.719
㲚	-14.719
䪗	-14.719
嗡	-14.719
盔	-14.719
藖	-14.719
虉	-14.719
蛪	-14.719
揾	-14.7193
蒓	-14.7193
笴	-14.7193
䶉	-14.7193
濉	-14.7196
壳	-14.7196
燝	-14.7196
哳	-14.7199
峿	-14.7202
犠	-14.7203
堶	-14.7203
㟝	-14.7203
璏	-14.7206
稑	-14.7206
蘜	-14.7206
壍	-14.7209
䤥	-14.7212
宧	-14.7212
㵫	-14.7215
琫	-14.7215
䃜	-14.7218
唪	-14.7218
蓡	-14.7222
猰	-14.7231
硨	-14.7231
敤	-14.7231
磲	-14.7234
濰	-14.7234
缽	-14.7234
蒌	-14.7234
汋	-14.7259
噳	-14.7285
蛱	-15.681
蘷	-15.6811
艨	-15.6812
艟	-15.6813
耇	-15.6814
粦	-15.6815
稃	-15.6816
磌	-15.6817
砒	-15.6818
癉	-15.6819
痔	-15.682
璸	-15.6821
犝	-15.6822
牁	-15.6823
燡	-15.6824
焴	-15.6825
烙	-15.6826
澐	-15.6827
漊	-15.6828
滬	-15.6829
殭	-15.683
梆	-15.6831
栘	-15.6832
旆	-15.6833
扐	-15.6834
彲	-15.6835
庲	-15.6836
峗	-15.6837
媕	-15.6838
娿	-15.6839
塐	-15.684
埂	-15.6841
嚌	-15.6842
嗍	-15.6843
啀	-15.6844
冓	-15.6845
丿	-15.6846
䞼	-15.6847
㷏	-15.6848
鬿	-15.6849
骾	-15.685
騵	-15.6851
饠	-15.6852
饆	-15.6853
顣	-15.6854
頞	-15.6855
頀	-15.6856
霡	-15.6857
鐩	-15.6858
鋙	-15.6859
鉘	-15.686
轣	-15.6861
軹	-15.6862
趻	-15.6863
谾	-15.6864
諿	-15.6865
觕	-15.6866
蠈	-15.6867
蟭	-15.6868
蝘	-15.6869
蝒	-15.687
蝃	-15.6871
蜊	-15.6872
蜈	-15.6873
蛜	-15.6874
蚣	-15.6875
藘	-15.6876
蕯	-15.6877
蓲	-15.6878
葓	-15.6879
茿	-15.688
芫	-15.6881
艧	-15.6882
臮	-15.6883
耤	-15.6884
罱	-15.6885
繯	-15.6886
籓	-15.6887
篖	-15.6888
筕	-15.6889
竮	-15.689
竤	-15.6891
竛	-15.6892
瓃	-15.6893
瑻	-15.6894
玎	-15.6895
犄	-15.6896
燫	-15.6897
漶	-15.6898
楳	-15.6899
扊	-15.69
扅	-15.6901
憗	-15.6902
悺	-15.6903
怩	-15.6904
忸	-15.6905
弨	-15.6906
幗	-15.6907
帩	-15.6908
嫄	-15.6909
婵	-15.691
娬	-15.6911
囅	-15.6912
嗊	-15.6913
喨	-15.6914
啽	-15.6915
咷	-15.6916
卟	-15.6917
匃	-15.6918
勷	-15.6919
劻	-15.692
劂	-15.6921
剞	-15.6922
佘	-15.6923
䳰	-15.6924
䳘	-15.6925
䱎	-15.6926
䮂	-15.6927
䢴	-15.6928
䜈	-15.6929
䚮	-15.693
䌨	-15.6931
䈣	-15.6932
㯝	-15.6933
㕳	-15.6934
麐	-15.6935
鸘	-15.6936
鶢	-15.6937
鬙	-15.6938
鬅	-15.6939
骩	-15.694
靿	-15.6941
闠	-15.6942
軔	-15.6943
趦	-15.6944
趄	-15.6945
譓	-15.6946
觖	-15.6947
蠛	-15.6948
蝮	-15.6949
蝛	-15.695
蜷	-15.6951
虥	-15.6952
蕺	-15.6953
膨	-15.6954
脝	-15.6955
胱	-15.6956
筅	-15.6957
窸	-15.6958
磳	-15.6959
睊	-15.696
癐	-15.6961
痝	-15.6962
琕	-15.6963
犵	-15.6964
滆	-15.6965
洓	-15.6966
毾	-15.6967
殑	-15.6968
槸	-15.6969
槔	-15.697
楀	-15.6971
桎	-15.6972
朣	-15.6973
憖	-15.6974
慌	-15.6975
忼	-15.6976
忭	-15.6977
巑	-15.6978
嵽	-15.6979
嵳	-15.698
嵑	-15.6981
坷	-15.6982
囧	-15.6983
嚀	-15.6984
噅	-15.6985
叮	-15.6986
厔	-15.6987
儃	-15.6988
僝	-15.6989
䙰	-15.699
㶀	-15.6991
㵧	-15.6992
𥝧	-15.6993
鷘	-15.6994
髒	-15.6995
骯	-15.6996
驔	-15.6997
鞨	-15.6998
靺	-15.6999
鋹	-15.7
銼	-15.7001
鄯	-15.7002
蹯	-15.7003
襏	-15.7004
袙	-15.7005
蠮	-15.7006
蟢	-15.7007
螉	-15.7008
藗	-15.7009
蕎	-15.701
芄	-15.7011
碔	-15.7012
玒	-15.7013
獝	-15.7014
牱	-15.7015
洹	-15.7016
捆	-15.7017
弜	-15.7018
嵫	-15.7019
崓	-15.702
啑	-15.7021
䬙	-15.7022
䍧	-15.7023
㶏	-15.7024
鶖	-15.7025
鮎	-15.7026
鬳	-15.7027
餭	-15.7028
餦	-15.7029
遛	-15.703
轗	-15.7031
蹺	-15.7032
蹣	-15.7033
詄	-15.7034
覦	-15.7035
蜲	-15.7036
紃	-15.7037
箛	-15.7038
筲	-15.7039
窬	-15.704
窫	-15.7041
矂	-15.7042
狻	-15.7043
燉	-15.7044
槭	-15.7045
戔	-15.7046
悢	-15.7047
崷	-15.7048
娓	-15.7049
嚅	-15.705
噰	-15.7051
仳	-15.7052
䴊	-15.7053
䭿	-15.7054
䕡	-15.7055
㬅	-15.7056
㟳	-15.7057
龑	-15.7058
鐲	-15.7059
跫	-15.706
藭	-15.7061
蕒	-15.7062
萵	-15.7063
菂	-15.7064
繐	-15.7065
稂	-15.7066
痏	-15.7067
涑	-15.7068
欃	-15.7069
塿	-15.707
圞	-15.7071
唃	-15.7072
俑	-15.7073
䐁	-15.7074
䆉	-15.7075
𧦬	-15.7076
鵁	-15.7077
輊	-15.7078
跏	-15.7079
螃	-15.708
蛚	-15.7081
砆	-15.7082
嶰	-15.7083
媫	-15.7084
塏	-15.7085
囈	-15.7086
亍	-15.7087
蟣	-15.7088
蝙	-15.7089
蝌	-15.709
綷	-15.7091
牾	-15.7092
牴	-15.7093
牏	-15.7094
毺	-15.7095
婀	-15.7096
奫	-15.7097
呿	-15.7098
􁋃	-15.7099
鸇	-15.71
餬	-15.7101
蹐	-15.7102
濂	-15.7103
渼	-15.7104
憔	-15.7105
徬	-15.7105
娀	-15.7106
呱	-15.7107
鶹	-15.7108
魎	-15.7109
躕	-15.711
苢	-15.7111
芣	-15.7112
籧	-15.7113
栴	-15.7114
掎	-15.7115
嚳	-15.7116
鼕	-15.7117
驦	-15.7118
饀	-15.7119
餖	-15.712
彿	-15.7121
蟀	-15.7121
韆	-15.7121
蝠	-15.7121
聵	-15.7122
羚	-15.7123
稏	-15.7124
皪	-15.7125
擻	-15.7126
嗷	-15.7127
劘	-15.7128
緲	-15.7129
眢	-15.7129
匍	-15.713
韡	-15.7131
觳	-15.7132
瑙	-15.7133
獼	-15.7134
惺	-15.7135
㶁	-15.7136
㮴	-15.7137
鸊	-15.7138
螮	-15.7139
蚍	-15.714
茉	-15.7141
痍	-15.7142
檳	-15.7143
莉	-15.7144
糢	-15.7145
簁	-15.7146
硫	-15.7147
檎	-15.7148
呢	-15.7149
醐	-15.715
鸜	-15.7151
蛄	-15.7152
忡	-15.7153
垞	-15.7154
屧	-15.7155
儡	-15.7156
侏	-15.7157
簹	-15.7158
磾	-15.7159
檮	-15.716
桯	-15.7161
惓	-15.7162
躇	-15.7163
桄	-15.7164
躚	-15.7165
萏	-15.7166
矍	-15.7167
呦	-15.7168
颻	-15.7169
舴	-15.717
貅	-15.7171
艋	-15.7172
熳	-15.7173
澘	-15.7174
徜	-15.7175
婕	-15.7176
鴒	-15.7177
狽	-15.7178
臙	-15.7179
酊	-15.718
嵋	-15.7181
鷥	-15.7182
齪	-15.7183
鸂	-15.7184
髑	-15.7185
茯	-15.7186
妤	-15.7187
邙	-15.7188
躊	-15.7189
胭	-15.719
粼	-15.7191
笭	-15.7192
欖	-15.7193
琊	-15.7194
慇	-15.7195
蜓	-15.7196
橄	-15.7197
朓	-15.7198
挲	-15.7199
靂	-15.72
鷀	-15.7201
嫦	-15.7202
啻	-15.7203
篌	-15.7204
箜	-15.7205
邂	-15.7206
逅	-15.7207
逡	-15.7208
枇	-15.7209
蛺	-15.721
湲	-15.7211
颼	-15.7212
嬋	-15.7213
芍	-15.7214
蝴	-15.7215
慷	-15.7216
苜	-15.7217
逍	-15.7217
